<unk>	0
<s>	0
</s>	0
/	-3.88559
)	-4.37188
(	-4.39306
之	-4.39842
以	-4.57683
為	-4.75998
)(	-4.84365
也	-5.0094
而	-5.12314
者	-5.39533
其	-5.40436
曰	-5.50692
有	-5.54772
於	-5.56755
王	-5.63239
人	-5.67244
不	-5.69533
與	-5.73399
自	-5.75613
上	-5.8101
及	-5.8399
至	-5.86913
言	-5.87603
則	-5.92167
事	-6.01238
使	-6.04082
在	-6.07501
等	-6.0873
大	-6.09358
所	-6.13122
于	-6.15398
無	-6.16045
一	-6.18009
皆	-6.18774
今	-6.20088
時	-6.23012
行	-6.28046
令	-6.28689
官	-6.28898
故	-6.29599
乃	-6.29652
又	-6.30413
子	-6.32993
知	-6.33897
兵	-6.35552
此	-6.3582
出	-6.36801
復	-6.37194
詔	-6.38444
帝	-6.39354
中	-6.39396
如	-6.42601
下	-6.45915
州	-6.47375
將	-6.49224
軍	-6.50947
臣	-6.51001
欲	-6.51819
見	-6.53002
書	-6.53154
亦	-6.53393
已	-6.53564
入	-6.53802
得	-6.54803
遂	-6.55211
▁	-6.55368
矣	-6.55734
當	-6.56456
命	-6.56786
切	-6.58012
公	-6.59451
三	-6.59804
用	-6.60059
翻	-6.6056
李	-6.60588
謂	-6.62358
城	-6.62417
即	-6.62941
立	-6.64405
非	-6.65487
張	-6.66002
可	-6.66446
國	-6.67767
從	-6.67951
初	-6.6926
請	-6.69769
道	-6.70805
文	-6.7129
後	-6.72084
同	-6.74559
若	-6.74618
日	-6.75448
安	-6.7577
因	-6.77527
元	-6.78138
奏	-6.78151
民	-6.80273
正	-6.80493
明	-6.80661
相	-6.80878
二	-6.81346
然	-6.81834
方	-6.85185
是	-6.85341
多	-6.85551
遣	-6.85555
置	-6.86582
陳	-6.87841
必	-6.90071
先	-6.90612
作	-6.90797
縣	-6.92151
成	-6.92568
名	-6.9279
未	-6.92811
劉	-6.93402
南	-6.94323
山	-6.94939
死	-6.95752
漢	-6.96069
歸	-6.96597
守	-6.96864
進	-6.97249
本	-6.97547
取	-6.98255
聞	-6.98266
平	-6.98843
或	-6.98969
水	-6.99412
五	-6.99701
前	-6.99851
天	-7.01547
周	-7.02341
法	-7.03327
卒	-7.034
既	-7.03743
馬	-7.0412
何	-7.04155
居	-7.0463
分	-7.05163
且	-7.06158
四	-7.06801
雖	-7.071
賊	-7.07166
始	-7.07704
還	-7.07956
地	-7.08183
云	-7.08386
朝廷	-7.09557
數	-7.09927
東	-7.10017
定	-7.10231
去	-7.10342
乎	-7.10584
長	-7.10769
郡	-7.11172
並	-7.12013
生	-7.12144
罷	-7.12279
西	-7.12877
陛下	-7.13561
魏	-7.13596
宜	-7.14196
降	-7.14215
殺	-7.15145
金	-7.15387
賜	-7.15404
議	-7.15512
府	-7.15515
以為	-7.15633
重	-7.16659
通	-7.17688
武	-7.17761
實	-7.18064
年	-7.18103
不可	-7.19522
禮	-7.19585
徳	-7.19663
内	-7.20638
外	-7.21191
我	-7.21802
封	-7.21807
趙	-7.22527
天下	-7.22637
合	-7.22878
治	-7.23407
北	-7.24533
唐	-7.2458
傳	-7.24631
除	-7.25419
音	-7.25486
常	-7.25506
師	-7.25568
發	-7.25897
盡	-7.26486
能	-7.26515
諸	-7.26946
修	-7.27707
稱	-7.27801
爲	-7.27887
君	-7.2793
㑹	-7.28246
改	-7.28521
家	-7.28859
按	-7.28903
字	-7.29543
秦	-7.2971
直	-7.29722
主	-7.30137
氏	-7.30406
乞	-7.30672
士	-7.30785
司	-7.31019
齊	-7.31073
舉	-7.31223
衆	-7.31259
各	-7.33009
興	-7.33433
意	-7.3385
義	-7.34148
晉	-7.34403
耳	-7.34566
錢	-7.35174
來	-7.35529
都	-7.35703
召	-7.36447
河	-7.36644
髙	-7.36782
求	-7.36792
許	-7.37166
加	-7.37184
門	-7.37198
朝	-7.37765
古	-7.37941
宋	-7.37947
任	-7.38299
據	-7.38574
起	-7.39201
惟	-7.39361
親	-7.39382
權	-7.39586
世	-7.39817
論	-7.40353
陽	-7.42137
應	-7.42656
信	-7.42915
新	-7.43071
焉	-7.4323
善	-7.43458
制	-7.43496
兩	-7.43745
不能	-7.43969
宗	-7.44106
廣	-7.44337
力	-7.44375
六	-7.4468
問	-7.44845
和	-7.44918
楊	-7.45001
更	-7.4505
坐	-7.45267
受	-7.457
小	-7.45802
攻	-7.45926
罪	-7.45928
凡	-7.46253
計	-7.46385
兼	-7.46604
田	-7.46715
屬	-7.46757
心	-7.47147
恐	-7.47531
益	-7.47744
過	-7.47904
深	-7.48011
石	-7.48098
服	-7.48583
吾	-7.48853
光	-7.491
政	-7.49621
處	-7.50818
失	-7.51802
侯	-7.51905
爾	-7.51931
逺	-7.52377
梁	-7.52705
敵	-7.52938
近	-7.53041
甚	-7.53432
止	-7.53483
利	-7.53628
白	-7.53782
鎮	-7.54015
固	-7.54223
謀	-7.54677
路	-7.55066
舊	-7.55224
建	-7.56177
○	-7.5775
留	-7.57973
思	-7.58147
經	-7.58474
易	-7.58629
少	-7.58813
猶	-7.58955
告	-7.59659
九	-7.60282
尚	-7.60371
十	-7.60724
夫	-7.60825
章	-7.61655
反	-7.61975
奉	-7.62607
從之	-7.62659
保	-7.62734
志	-7.62847
難	-7.63476
開	-7.63551
次	-7.63585
并	-7.6414
吏	-7.64376
引	-7.64905
宫	-7.65055
江	-7.66152
獨	-7.66187
廢	-7.66863
孫	-7.66906
夏	-7.66912
朕	-7.67164
省	-7.67191
戰	-7.67365
陵	-7.67458
樂	-7.67458
致	-7.67725
望	-7.6774
免	-7.67868
悉	-7.67909
仍	-7.68233
特	-7.68411
但	-7.68736
史	-7.68926
食	-7.69982
口	-7.70788
嘗	-7.70837
不得	-7.70869
節	-7.714
七	-7.71689
敗	-7.71831
度	-7.72118
觀	-7.72363
具	-7.72719
遷	-7.72981
給	-7.732
亂	-7.73238
納	-7.73247
卿	-7.7347
楚	-7.73525
往	-7.73546
功	-7.74827
充	-7.75023
間	-7.75035
忠	-7.7535
后	-7.76106
克	-7.76793
父	-7.77466
代	-7.77573
理	-7.78413
宣	-7.78661
八	-7.7895
率	-7.78963
元年	-7.79566
三年	-7.80119
流	-7.80823
濟	-7.80827
至是	-7.81293
異	-7.81317
别	-7.81461
辭	-7.81719
物	-7.81802
帥	-7.81926
首	-7.82109
紀	-7.82456
祖	-7.82547
伯	-7.82646
胡	-7.82706
擊	-7.82718
先是	-7.82831
比	-7.8306
黄	-7.83088
所以	-7.83204
圖	-7.83339
左	-7.83451
位	-7.83704
清	-7.83837
德	-7.83843
選	-7.83856
永	-7.83954
備	-7.84465
如此	-7.84838
二年	-7.84874
承	-7.85127
太子	-7.85166
太后	-7.85264
嵗	-7.85343
賢	-7.85405
上曰	-7.85449
龍	-7.85503
吳	-7.85695
布	-7.85742
将	-7.85756
寧	-7.85858
共	-7.86072
於是	-7.86324
學	-7.86507
延	-7.86518
語	-7.86583
昌	-7.86708
月	-7.86872
衛	-7.86989
拜	-7.87367
獻	-7.87421
依	-7.87459
職	-7.87546
差	-7.87814
大臣	-7.87906
威	-7.88159
營	-7.88212
收	-7.88466
執	-7.88584
願	-7.88638
鄭	-7.88761
哉	-7.88819
就	-7.88997
徐	-7.88998
身	-7.89211
萬	-7.89483
便	-7.8955
全	-7.89773
再	-7.90008
部	-7.90208
仁	-7.9033
順	-7.90824
對	-7.91149
領	-7.91489
私	-7.91557
海	-7.91566
臨	-7.91655
景	-7.91707
亡	-7.91804
送	-7.91826
貴	-7.92076
孝	-7.92469
餘	-7.92589
恩	-7.92912
終	-7.93319
誅	-7.93399
昭	-7.93482
輕	-7.93484
載	-7.93654
責	-7.93794
三月	-7.94093
殿	-7.94184
遇	-7.94187
退	-7.94325
解	-7.944
幸	-7.94477
太	-7.94483
授	-7.94499
御	-7.94736
禁	-7.95242
監	-7.95357
表	-7.9561
申	-7.95615
移	-7.95735
試	-7.95987
疑	-7.96225
左右	-7.96491
集	-7.96499
燕	-7.96675
誠	-7.96727
約	-7.9717
務	-7.9747
韓	-7.97676
要	-7.97866
勝	-7.98223
説	-7.98246
汝	-7.98301
神	-7.98674
由	-7.98761
素	-7.98786
六月	-7.99124
曹	-7.99348
徙	-7.99397
破	-7.99412
聖	-8.00031
崇	-8.00087
京	-8.00302
女	-8.00454
土	-8.00616
户	-8.00662
好	-8.00713
將軍	-8.01459
徒	-8.01971
號	-8.02045
被	-8.02677
車	-8.02742
不敢	-8.02864
彼	-8.03003
朱	-8.03134
遣使	-8.03435
魯	-8.03924
▁(	-8.04518
右	-8.04522
盖	-8.04682
變	-8.0469
邪	-8.04822
闕	-8.04874
屯	-8.04878
每	-8.0506
俱	-8.05119
母	-8.05168
追	-8.05494
報	-8.05536
仲	-8.05641
絶	-8.05676
考	-8.06173
朔	-8.06467
豈	-8.06632
盛	-8.06787
厚	-8.0686
遺	-8.06974
録	-8.0708
須	-8.07167
嚴	-8.073
春	-8.07728
九月	-8.08146
林	-8.08389
百	-8.08609
老	-8.08716
惡	-8.08755
設	-8.08781
夜	-8.09176
疾	-8.09327
持	-8.09955
丁	-8.10028
才	-8.10308
走	-8.10388
討	-8.10506
高	-8.10734
連	-8.11215
良	-8.11222
八月	-8.11436
附	-8.11448
赴	-8.11473
契丹	-8.11544
而不	-8.11575
懼	-8.12002
蜀	-8.12157
蓋	-8.12546
五月	-8.12551
補	-8.1268
不知	-8.13033
慶	-8.13905
犯	-8.14239
委	-8.14676
視	-8.14794
邊	-8.14911
聽	-8.15042
繼	-8.15073
里	-8.15082
二月	-8.15146
怒	-8.15705
尊	-8.15906
詣	-8.16092
結	-8.16839
諭	-8.17112
例	-8.17183
圍	-8.17421
廟	-8.1781
賞	-8.18095
容	-8.18195
交	-8.18351
尚書	-8.18371
斬	-8.18371
節度使	-8.1842
久	-8.18573
宰相	-8.18666
奔	-8.18906
原	-8.19233
天子	-8.19669
伏	-8.19899
隂	-8.19998
造	-8.20145
弟	-8.20269
果	-8.20275
勿	-8.20317
斷	-8.2045
伐	-8.20504
華	-8.20584
著	-8.20729
衣	-8.20779
謝	-8.20846
皇帝	-8.20872
福	-8.2117
木	-8.21287
郭	-8.21404
薦	-8.21634
動	-8.2172
聲	-8.21986
極	-8.22031
存	-8.22045
指	-8.2215
金人	-8.2216
闗	-8.22198
刑	-8.22262
教	-8.22275
十二月	-8.22291
慮	-8.22321
嘉	-8.22636
救	-8.22746
宻	-8.2286
察	-8.2287
風	-8.23066
越	-8.23612
列	-8.24084
登	-8.24208
獲	-8.24517
足	-8.24539
騎	-8.24723
邑	-8.25026
達	-8.2513
夷	-8.2521
甲	-8.25222
懐	-8.25352
注	-8.25421
急	-8.25622
川	-8.25971
籍	-8.26143
氣	-8.26158
獄	-8.26601
逐	-8.26678
散	-8.26815
河北	-8.26956
而已	-8.26964
怨	-8.27103
顯	-8.27199
火	-8.27421
四年	-8.27605
誤	-8.27703
康	-8.27759
十一月	-8.27848
推	-8.28454
之人	-8.28511
臺	-8.28569
叛	-8.28794
典	-8.28946
業	-8.28952
寨	-8.29127
色	-8.2916
稍	-8.29228
迎	-8.29473
向	-8.29515
秋	-8.29518
冦	-8.2964
喜	-8.29875
莫	-8.29992
吉	-8.30243
市	-8.30608
羣臣	-8.309
尋	-8.31069
彦	-8.31298
塞	-8.31355
到	-8.31396
隨	-8.31436
役	-8.31605
可以	-8.31626
襲	-8.31688
待	-8.31727
端	-8.31946
寳	-8.31968
増	-8.32096
之地	-8.32325
嗣	-8.32729
謂之	-8.32797
記	-8.32805
支	-8.32979
鹽	-8.33027
决	-8.33147
害	-8.33208
蘇	-8.33432
積	-8.33472
京師	-8.33869
敬	-8.34107
顧	-8.342
棄	-8.34358
專	-8.3438
杜	-8.34531
養	-8.34675
恭	-8.34764
陷	-8.34917
化	-8.34982
手	-8.35273
呉	-8.35542
真	-8.35905
阿	-8.36052
州刺史	-8.36068
况	-8.3615
皇	-8.36165
夏四月	-8.36385
皇后	-8.36705
院	-8.36783
滅	-8.37102
羅	-8.37187
升	-8.37196
之意	-8.37199
疏	-8.37199
泰	-8.37219
中書	-8.37329
關	-8.37336
温	-8.37463
吕	-8.37593
州縣	-8.37669
資	-8.37706
病	-8.38298
第	-8.38431
榮	-8.38709
玉	-8.3891
之後	-8.3894
勢	-8.39118
勸	-8.3932
葢	-8.39339
呼	-8.39348
以來	-8.39359
密	-8.39449
堅	-8.3985
䇿	-8.39938
戒	-8.39979
博	-8.40018
冬十月	-8.40032
儀	-8.40104
御史	-8.40108
期	-8.40155
候	-8.40436
不足	-8.4073
勞	-8.40771
尤	-8.41034
乗	-8.41041
頗	-8.41145
簡	-8.41191
祭	-8.41382
河東	-8.41509
放	-8.41583
郎	-8.41628
雲	-8.41821
酒	-8.42213
指揮	-8.42312
累	-8.42427
百姓	-8.42453
憂	-8.4251
息	-8.42645
目	-8.42832
亮	-8.42986
回	-8.42999
諸將	-8.43002
鄉	-8.43097
太祖	-8.43109
己	-8.4315
叔	-8.43405
諸侯	-8.43499
秋七月	-8.43955
傷	-8.44158
青	-8.44186
逆	-8.44338
費	-8.44428
貶	-8.44499
屢	-8.44751
室	-8.44829
然後	-8.45046
黨	-8.45242
季	-8.4525
由是	-8.45266
付	-8.45273
侵	-8.45369
擇	-8.45372
烏	-8.45476
愛	-8.45542
姓	-8.45569
減	-8.45573
情	-8.45644
參	-8.45874
祀	-8.45926
避	-8.46142
班	-8.4625
五年	-8.46292
援	-8.46366
浚	-8.46381
蕭	-8.46388
商	-8.46429
習	-8.46612
美	-8.46899
族	-8.46924
庶	-8.46969
河南	-8.47102
假	-8.47322
澤	-8.47378
運	-8.47432
患	-8.47444
格	-8.47531
諫	-8.48056
詳	-8.48278
說	-8.48287
掌	-8.48317
敢	-8.4839
咸	-8.48532
卷	-8.48535
無所	-8.48802
輔	-8.48962
蔡	-8.49011
春秋	-8.49191
殺之	-8.49294
大夫	-8.49419
耶	-8.49987
以聞	-8.50042
孟	-8.50043
乘	-8.50076
奪	-8.50464
國家	-8.50646
頭	-8.50653
太守	-8.5117
来	-8.51235
安石	-8.51263
末	-8.51582
曽	-8.51613
縱	-8.51697
折	-8.51735
薄	-8.51868
鼎	-8.51895
隆	-8.51926
諸軍	-8.51956
統	-8.51983
飛	-8.51995
有司	-8.52022
希	-8.52167
諸路	-8.52827
畧	-8.52991
邉	-8.53073
畏	-8.53089
狀	-8.53304
斯	-8.53379
草	-8.53429
憲	-8.53535
二人	-8.53756
科	-8.53779
勒	-8.53804
綱	-8.53895
既而	-8.53967
賀	-8.54045
轉	-8.5417
羣	-8.54248
英	-8.54467
界	-8.5462
洛	-8.54628
謹	-8.54643
昔	-8.54648
招	-8.55017
虜	-8.55025
釋	-8.55032
一人	-8.55072
負	-8.55387
實録	-8.55574
允	-8.56097
歴	-8.56217
舟	-8.56257
淵	-8.5627
質	-8.56447
示	-8.56588
米	-8.56616
敕	-8.56732
征	-8.56803
振	-8.56821
副	-8.56899
射	-8.57079
百官	-8.57143
客	-8.57527
其後	-8.57544
智	-8.57672
妄	-8.57743
督	-8.57953
故事	-8.58003
盧	-8.58193
讀	-8.58216
助	-8.58244
略	-8.58338
施行	-8.58429
器	-8.5845
寵	-8.58466
未嘗	-8.58768
偽	-8.58821
他	-8.59246
宿	-8.59465
撫	-8.59614
今日	-8.59645
聚	-8.59685
赦	-8.59778
强	-8.59808
違	-8.60123
畢	-8.60275
爭	-8.60312
冬	-8.60332
寺	-8.60947
配	-8.60955
雍	-8.61132
休	-8.61165
均	-8.61261
縁	-8.61396
遼	-8.61554
案	-8.61647
戎	-8.61664
星	-8.61676
乆	-8.61871
徃	-8.61886
執政	-8.61944
程	-8.61947
總	-8.62114
千	-8.62196
太宗	-8.62279
雄	-8.62368
紹	-8.62396
𢎞	-8.62772
體	-8.62877
條	-8.6306
之事	-8.63241
速	-8.63339
離	-8.6354
性	-8.63692
却	-8.63832
茍	-8.6401
適	-8.64014
決	-8.64089
陜西	-8.64301
曲	-8.64301
所謂	-8.64306
富	-8.64441
聞之	-8.64487
牛	-8.64492
殷	-8.64537
俊	-8.64793
虞	-8.6496
一日	-8.64962
中外	-8.65041
范	-8.65086
之間	-8.6514
司馬	-8.65265
靈	-8.6539
遽	-8.65604
彊	-8.65936
侍	-8.66132
崔	-8.66135
勇	-8.6616
惠	-8.66163
會	-8.66237
漸	-8.66256
淮	-8.6635
危	-8.66354
類	-8.66606
房	-8.66775
虎	-8.6679
舍	-8.66859
糧	-8.6696
肅	-8.66986
俟	-8.6711
禍	-8.67139
寛	-8.67182
丞相	-8.67392
爵	-8.67402
横	-8.67479
施	-8.67548
覆	-8.67604
面	-8.67796
對曰	-8.67828
律	-8.67862
歲	-8.67979
投	-8.68277
為之	-8.68361
妻	-8.68386
辨	-8.68407
豐	-8.68762
廷	-8.68779
審	-8.68781
不許	-8.69014
毎	-8.69032
貫	-8.69401
管	-8.69408
遵	-8.69484
限	-8.69575
劾	-8.69706
沈	-8.69839
判	-8.69875
操	-8.69898
何以	-8.69988
符	-8.70033
紀修	-8.70075
庫	-8.70318
唯	-8.70375
𤣥	-8.70517
工	-8.7066
防	-8.70783
是日	-8.71079
渠	-8.71259
精	-8.71261
念	-8.71361
寜	-8.71409
量	-8.71442
索	-8.71689
滿	-8.71689
以下	-8.71743
淮南	-8.71771
賈	-8.72006
曰吾	-8.72204
額	-8.72437
䝉	-8.72517
之子	-8.72547
係	-8.72593
故也	-8.72685
弱	-8.72901
不從	-8.73072
匈奴	-8.73176
有所	-8.73494
賦	-8.73534
友	-8.73626
懷	-8.73712
革	-8.73749
至於	-8.73786
預	-8.73809
苦	-8.7391
趨	-8.74052
夀	-8.74169
贈	-8.74195
暴	-8.7423
野	-8.74298
以上	-8.74403
循	-8.74406
詞	-8.74453
超	-8.74516
長安	-8.74569
干	-8.74583
詩	-8.74585
象	-8.74732
丘	-8.74844
築	-8.74907
提舉	-8.75271
自今	-8.75309
六年	-8.75363
謙	-8.7543
蠻	-8.75564
之心	-8.75578
其事	-8.75731
訓	-8.75758
先帝	-8.75809
銀	-8.76025
雜	-8.76126
四方	-8.76144
讓	-8.7617
佐	-8.76221
薨	-8.76255
境	-8.76337
今從	-8.76377
頃	-8.7641
趣	-8.76542
源	-8.76845
祠	-8.76905
戍	-8.77017
姦	-8.77022
禄	-8.77091
庭	-8.77201
師古曰	-8.77322
衡	-8.7764
員	-8.77862
險	-8.78087
優	-8.78214
接	-8.78253
輸	-8.78391
之言	-8.78488
是月	-8.78537
洪	-8.78549
逹	-8.78583
種	-8.78655
虚	-8.78683
屈	-8.78848
堂	-8.78956
馮	-8.79058
未有	-8.79082
震	-8.79203
者也	-8.79315
錫	-8.79565
竒	-8.79587
式	-8.79804
薛	-8.79813
不當	-8.80105
毋	-8.80155
諸州	-8.8033
弼	-8.80431
自是	-8.80445
宴	-8.80692
不及	-8.80847
谷	-8.80976
擢	-8.81026
兄	-8.81087
隋	-8.81961
中國	-8.81983
藏	-8.82162
雨	-8.82177
馳	-8.82207
巻	-8.82506
機	-8.82676
揚	-8.82727
掠	-8.82889
孔	-8.8293
副使	-8.83021
之法	-8.83026
豫	-8.83034
喪	-8.83294
二十	-8.83351
者皆	-8.8337
愈	-8.8341
買	-8.83552
葬	-8.83557
専	-8.83645
又言	-8.83757
調	-8.83829
材	-8.841
也今	-8.84143
竊	-8.84311
董	-8.84325
貪	-8.84529
僧	-8.84599
穆	-8.84663
𨽻	-8.84777
財	-8.84823
㫖	-8.8489
蕃	-8.84922
戸	-8.85022
沮	-8.8505
刺	-8.85113
落	-8.8527
衰	-8.85302
給事中	-8.85412
厯	-8.85591
官吏	-8.856
盗	-8.85888
繫	-8.8595
哀	-8.86104
陸	-8.86601
普	-8.86617
其子	-8.86823
江南	-8.86919
識	-8.87067
郊	-8.8739
𫝊	-8.87462
于是	-8.8769
祖宗	-8.87691
毁	-8.87809
垂	-8.87906
裕	-8.87931
傅	-8.88026
君子	-8.88174
勲	-8.88229
早	-8.88272
貢	-8.88372
東南	-8.88483
冠	-8.88497
印	-8.88694
捕	-8.88825
損	-8.88853
校	-8.88897
禹	-8.8902
策	-8.89336
冀	-8.89343
講	-8.89579
魚	-8.89754
倫	-8.89958
洛陽	-8.90024
乾	-8.9006
增	-8.90063
之時	-8.90153
甫	-8.90307
賣	-8.90474
輙	-8.90491
脩	-8.90564
兒	-8.90591
小人	-8.9075
效	-8.90761
欽	-8.90945
十月	-8.90947
維	-8.90965
巴	-8.91322
沙	-8.91379
税	-8.91388
帶	-8.91506
幾	-8.91899
蒲	-8.91916
利害	-8.91929
金主	-8.92169
引兵	-8.92303
陣	-8.92392
措置	-8.92605
茂	-8.92645
窮	-8.92662
橋	-8.92746
士卒	-8.92811
逃	-8.92875
十二	-8.93074
使者	-8.9309
通鑑	-8.93094
湖	-8.93182
孤	-8.93188
尹	-8.93223
湯	-8.94008
船	-8.94034
七月	-8.94128
之所	-8.94197
微	-8.94292
錄	-8.94293
䕶	-8.9434
旦	-8.94358
削	-8.9437
之士	-8.94419
池	-8.94514
三司	-8.94516
困	-8.94542
赤	-8.94649
不復	-8.94757
農	-8.94868
魏主	-8.94881
之罪	-8.94884
仰	-8.95075
徴	-8.95098
使人	-8.95142
予	-8.95142
雅	-8.95152
弊	-8.95296
飲	-8.95436
竟	-8.95507
最	-8.9552
寶	-8.95524
輒	-8.95604
邦	-8.95639
倉	-8.95704
擅	-8.95713
妃	-8.95822
刺史	-8.9584
子孫	-8.95872
斥	-8.96053
桓	-8.96343
借	-8.9636
弗	-8.96395
不為	-8.96422
似	-8.96463
慈	-8.96468
拒	-8.96474
儒	-8.96795
斬之	-8.96833
愚	-8.96908
城中	-8.97039
俗	-8.97111
牧	-8.97112
曰此	-8.973
匹	-8.97555
貞	-8.97742
韋	-8.97838
都督	-8.97847
四月	-8.98116
兄弟	-8.98208
耕	-8.98278
而後	-8.98352
通判	-8.98365
秀	-8.98487
太原	-8.9864
述	-8.98744
七年	-8.98763
秩	-8.98774
考異曰	-8.98818
不過	-8.99157
不如	-8.99298
争	-8.99357
余	-8.99512
臣等	-8.99532
敏	-8.99856
奴	-8.99892
畫	-8.99901
殊	-8.99969
否	-8.99981
宏	-9.00012
感	-9.00177
丹	-9.00281
山東	-9.00349
内外	-9.00366
將士	-9.00441
祥	-9.00453
茶	-9.00465
勤	-9.00492
參知政事	-9.00516
䘮	-9.00518
閣	-9.00663
肆	-9.00679
擾	-9.00688
秦檜	-9.00934
惇	-9.00998
羌	-9.0111
聴	-9.0118
三日	-9.01391
葉	-9.01419
許之	-9.01493
羊	-9.01509
敦	-9.01627
上書	-9.01728
忽	-9.01775
誘	-9.01997
逼	-9.02137
八年	-9.02189
介	-9.02191
擒	-9.02279
空	-9.02432
恕	-9.02447
謁	-9.0265
不同	-9.02789
亟	-9.02818
背	-9.02823
併	-9.02977
辟	-9.03074
政事	-9.03087
致仕	-9.03093
元祐	-9.03114
天下之	-9.03139
文字	-9.03143
丞	-9.0328
莊	-9.03324
轉運使	-9.03368
泉	-9.0372
半	-9.03761
規	-9.03772
渡	-9.03879
靖	-9.04048
甲子	-9.04075
上言	-9.04328
只	-9.04338
吐蕃	-9.04356
壽	-9.04384
顔	-9.04631
姚	-9.04664
前後	-9.04676
於此	-9.0473
十年	-9.04815
囚	-9.04865
皇太后	-9.04876
剛	-9.04916
檜	-9.04977
曾	-9.05
抑	-9.05066
其所	-9.05173
亭	-9.05526
翼	-9.05612
詐	-9.05704
鄧	-9.05762
序	-9.0583
誣	-9.06085
編	-9.06328
昨	-9.06387
募	-9.06405
術	-9.06769
即位	-9.07079
罰	-9.07345
夫人	-9.0749
彭	-9.07517
是時	-9.07655
襄	-9.07687
寇	-9.07723
盟	-9.07729
寒	-9.07839
公主	-9.07958
宗室	-9.08228
監司	-9.08273
鼓	-9.08383
辰	-9.08547
盜	-9.08576
託	-9.08841
人心	-9.08859
辛	-9.08932
本路	-9.08938
之臣	-9.09135
采	-9.09273
導	-9.09508
改元	-9.09707
供	-9.09748
珪	-9.09752
純	-9.09774
用兵	-9.09793
鄴	-9.09808
與之	-9.10193
是以	-9.10281
諡	-9.10508
黜	-9.1064
潰	-9.10688
衍	-9.10707
惑	-9.10742
樓	-9.10842
江淮	-9.10864
拔	-9.10937
津	-9.11059
杖	-9.11267
莽	-9.1131
大將軍	-9.1141
慎	-9.11492
擊之	-9.11623
斗	-9.11637
西北	-9.11654
以通	-9.11662
知其	-9.11693
人也	-9.11722
虛	-9.11739
衞	-9.11799
伊	-9.11844
焚	-9.11929
太尉	-9.11962
旗	-9.11975
遊	-9.12226
入朝	-9.12275
没	-9.12327
逸	-9.12336
堡	-9.12381
稅	-9.1247
傾	-9.12546
以此	-9.12657
姑	-9.12864
軍中	-9.12892
死者	-9.12902
署	-9.12932
减	-9.1296
舜	-9.13075
歳	-9.13082
袁	-9.1337
當考	-9.13805
悦	-9.1396
欺	-9.14127
眀	-9.14153
竄	-9.14205
帝曰	-9.14227
御史中丞	-9.14253
當時	-9.14262
不以	-9.14407
翰林學士	-9.14493
嶺	-9.14503
單于	-9.14527
上下	-9.14577
必有	-9.14608
驕	-9.14629
笑	-9.148
角	-9.15055
使臣	-9.15143
榖	-9.15149
粟	-9.15238
扶	-9.15271
叙	-9.15388
幽	-9.15396
吴	-9.154
是也	-9.15475
翰	-9.1551
貨	-9.15666
庸	-9.15778
恨	-9.15844
恃	-9.15861
貸	-9.16105
忌	-9.16318
江西	-9.16321
懿	-9.16338
巳	-9.16439
熟	-9.16468
潛	-9.16508
状	-9.16638
驅	-9.16868
荒	-9.16945
其言	-9.16972
崩	-9.16992
烈	-9.17082
用之	-9.17132
進士	-9.17186
毛	-9.17476
豈可	-9.17508
占	-9.17509
縣屬	-9.17701
刻	-9.17772
檢	-9.17846
官軍	-9.18188
突厥	-9.18219
隠	-9.18237
而去	-9.18427
照	-9.18505
正月	-9.18757
辛未	-9.18797
不肯	-9.18848
遣人	-9.18983
岳	-9.19316
災	-9.19327
不行	-9.19379
王安石	-9.19412
井	-9.19482
欲以	-9.19483
言之	-9.19503
游	-9.19691
館	-9.19734
驚	-9.19836
藩	-9.20005
俾	-9.2019
判官	-9.20272
亦不	-9.20428
張浚	-9.20462
駕	-9.20559
基	-9.20591
攝	-9.20613
堯	-9.20725
廵	-9.20759
浩	-9.20981
竭	-9.21053
價	-9.21111
冊	-9.21301
訴	-9.21313
旁	-9.21367
踰	-9.21383
澄	-9.21529
飾	-9.21547
徵	-9.21571
不至	-9.21582
鍾	-9.21611
歡	-9.2163
屋	-9.21815
旱	-9.21855
所在	-9.22002
忘	-9.22047
誰	-9.22048
形	-9.22142
之計	-9.22569
天地	-9.22703
單	-9.22936
彌	-9.22943
質實	-9.23078
辱	-9.23112
尉	-9.23394
確	-9.23396
其罪	-9.23466
有功	-9.2351
三十	-9.23548
又曰	-9.23752
牒	-9.23795
民間	-9.23843
可汗	-9.23857
徑	-9.23863
明年	-9.2403
軍士	-9.24154
社稷	-9.24196
行之	-9.24224
成都	-9.24344
寢	-9.2444
刀	-9.24522
鑄	-9.24613
甲午	-9.24628
場	-9.24633
宅	-9.247
句	-9.24728
履	-9.24757
壊	-9.24787
已而	-9.24812
㣲	-9.24838
側	-9.24872
厥	-9.24877
輿	-9.24878
甲申	-9.24908
抗	-9.24932
丙午	-9.24999
仕	-9.25024
足以	-9.25033
吏部	-9.25094
四川	-9.25232
而還	-9.25265
卜	-9.2528
竹	-9.2532
不書	-9.25341
士大夫	-9.25399
柔	-9.25452
壬申	-9.25515
扵	-9.25525
太平	-9.25563
寄	-9.25769
學士	-9.25778
藥	-9.2585
侍中	-9.25885
裁	-9.26015
之道	-9.26043
宗廟	-9.26099
進呈	-9.26191
啟	-9.26195
料	-9.26292
雷	-9.26308
松	-9.26429
亷	-9.26432
節度	-9.26515
壁	-9.26557
羽	-9.26863
䧟	-9.26875
侍御史	-9.26923
訖	-9.27019
此據	-9.27186
建康	-9.27218
人主	-9.27407
陶	-9.2746
之際	-9.27476
鈔	-9.27585
宮	-9.27704
某	-9.27812
人情	-9.28008
創	-9.28191
覺	-9.28317
言者	-9.28448
步	-9.2848
乙亥	-9.28688
擬	-9.28711
所言	-9.28714
紹興	-9.28789
戊申	-9.2883
國公	-9.28878
荆	-9.2897
父子	-9.2903
庚子	-9.29071
樞宻院	-9.29079
甲寅	-9.29088
階	-9.29096
抵	-9.29201
濬	-9.29213
融	-9.29221
又翻	-9.29223
奮	-9.29246
丙子	-9.29277
丙寅	-9.29331
邵	-9.29335
歩	-9.29468
之民	-9.2951
沒	-9.29566
哭	-9.29592
奚	-9.29653
乙未	-9.29666
凖	-9.29672
辛巳	-9.29879
凶	-9.29881
舊作	-9.29928
丁亥	-9.29934
轉運司	-9.30096
如何	-9.30199
將兵	-9.30262
匿	-9.30325
浮	-9.30356
褒	-9.30399
徽	-9.3045
壬寅	-9.3048
奏事	-9.30587
祐	-9.3067
蔽	-9.30826
三百	-9.30934
此事	-9.31164
癸未	-9.3117
乙	-9.31268
諸王	-9.31276
阻	-9.31289
揚州	-9.31312
戊寅	-9.31442
是嵗	-9.31456
㓂	-9.31468
珍	-9.31468
三省	-9.31517
遁	-9.31626
壬子	-9.31692
以備	-9.31814
依舊	-9.31876
考異	-9.31951
答	-9.31982
其家	-9.31985
諱	-9.31989
戊辰	-9.3207
舒	-9.32178
癸酉	-9.32203
収	-9.32239
有差	-9.32242
割	-9.32256
園	-9.3234
甲辰	-9.3238
賔	-9.32455
覽	-9.32541
誓	-9.32663
乙丑	-9.32664
訪	-9.32807
輩	-9.3288
裴	-9.329
文武	-9.3299
代之	-9.33048
監察御史	-9.33057
岸	-9.33186
牙	-9.33517
丁酉	-9.3359
庚午	-9.33667
之禮	-9.33667
丙辰	-9.33729
儉	-9.33828
強	-9.34069
雪	-9.3408
續	-9.34171
育	-9.34231
勅	-9.34285
享	-9.34307
屠	-9.34463
不然	-9.34553
藉	-9.3458
之功	-9.34623
緩	-9.34643
䟽	-9.34705
蒙	-9.34745
殿中侍御史	-9.34771
癸亥	-9.34792
輔臣	-9.34798
乙巳	-9.34846
庚申	-9.34881
一年	-9.34894
丁未	-9.34899
己亥	-9.34929
桑	-9.3502
本紀	-9.35049
辛亥	-9.35088
知之	-9.35108
驛	-9.35125
饑	-9.35142
蘭	-9.35222
竇	-9.35226
尺	-9.35327
公事	-9.35403
戊子	-9.35429
議者	-9.35616
癸巳	-9.3576
級	-9.35778
汴	-9.35807
逮	-9.35813
皮	-9.35892
襄陽	-9.35989
壬辰	-9.36163
辛酉	-9.36196
十萬	-9.36298
産	-9.36335
戊午	-9.3651
邀	-9.36581
銅	-9.36583
侍郎	-9.36585
卑	-9.36623
綱目	-9.3677
庚寅	-9.36796
㧞	-9.36889
惜	-9.36927
麟	-9.36994
討之	-9.37029
三人	-9.37075
出入	-9.37173
曰我	-9.37294
不欲	-9.37325
翻下同	-9.37393
丁巳	-9.37418
而無	-9.37467
東北	-9.37593
己巳	-9.37632
躬	-9.37636
甘	-9.37637
歌	-9.3771
佛	-9.37759
壬午	-9.37926
冒	-9.3802
乙酉	-9.38208
丁丑	-9.38227
明日	-9.38363
漏	-9.38367
驗	-9.38417
司馬光	-9.38456
可謂	-9.38484
煩	-9.38509
丙申	-9.38577
辛丑	-9.38708
泣	-9.38789
同平章事	-9.38866
九年	-9.39086
濫	-9.39125
御史臺	-9.39142
内侍	-9.39227
公子	-9.39291
不聽	-9.39394
諌	-9.39442
兹	-9.39445
倚	-9.39481
子弟	-9.39481
守臣	-9.39573
厲	-9.39582
峻	-9.39681
贊	-9.39807
賤	-9.39837
括	-9.39927
晏	-9.4004
大事	-9.4009
詔以	-9.40104
撰	-9.40182
恒	-9.40219
臣僚	-9.40227
春正月	-9.4034
受命	-9.40358
差遣	-9.40376
黙	-9.40477
無不	-9.40494
勘	-9.40585
奈何	-9.40777
其衆	-9.40904
淺	-9.40907
己未	-9.40998
户部	-9.41041
寅	-9.4105
乃以	-9.41086
憤	-9.41132
巡	-9.41177
忍	-9.41257
根	-9.41327
㨗	-9.41351
儲	-9.41429
排	-9.41434
琦	-9.41487
細	-9.415
殆	-9.41545
己酉	-9.41671
東西	-9.41752
髙祖	-9.41754
辦	-9.4181
詢	-9.41821
癸丑	-9.41878
司徒	-9.42103
鑑修	-9.42186
願陛下	-9.42204
絹	-9.42224
厭	-9.42283
黎	-9.42305
卓	-9.42318
瓊	-9.42409
奸	-9.42435
将軍	-9.42461
帛	-9.42499
不見	-9.42534
大軍	-9.42539
武帝	-9.42573
孔子	-9.42579
倍	-9.42597
糴	-9.42696
斤	-9.42734
駐	-9.42743
五十	-9.42758
元昊	-9.42928
莫不	-9.43044
己丑	-9.43117
幽州	-9.4316
僅	-9.43274
偏	-9.43283
神宗	-9.43326
瑞	-9.43332
稽	-9.43432
以其	-9.4346
毋得	-9.43556
繁	-9.43559
溪	-9.43591
幹	-9.43609
郡縣	-9.43638
雖有	-9.43678
之初	-9.43693
父母	-9.4371
珠	-9.43734
之制	-9.43864
州軍	-9.43886
隱	-9.43903
中原	-9.43939
午	-9.43956
豪	-9.43996
絳	-9.44043
閉	-9.44218
陰	-9.44239
屏	-9.44451
庚辰	-9.44465
有罪	-9.44573
太皇太后	-9.44612
靡	-9.44709
其地	-9.44756
曉	-9.44848
又以	-9.44872
國之	-9.45055
整	-9.45059
解題曰	-9.4515
相度	-9.45298
分註	-9.45308
南北	-9.45365
閲	-9.45403
哈	-9.45488
京城	-9.45506
乏	-9.45586
州郡	-9.45606
䝉古	-9.45651
蒙古	-9.45681
停	-9.45747
祚	-9.45846
甲戌	-9.45875
穀	-9.45896
兵馬	-9.45912
弑	-9.45941
以本	-9.45947
出於	-9.46009
短	-9.46106
知制誥	-9.46107
衝	-9.46172
嵩	-9.46203
蔡京	-9.46228
課	-9.46356
復扶	-9.46376
戴	-9.46428
安石曰	-9.46502
婦	-9.46559
荀	-9.46786
長史	-9.46794
巨	-9.46819
皇子	-9.46842
詔書	-9.46873
男	-9.469
戊戌	-9.46922
局	-9.4701
矦	-9.47064
韶	-9.47084
車駕	-9.47234
周公	-9.47292
骨	-9.47307
不用	-9.47323
僕	-9.47339
拘	-9.47375
巧	-9.47386
鑑	-9.47434
實錄	-9.47905
勉	-9.47917
讀曰	-9.48103
社	-9.48238
兆	-9.48243
五百	-9.48329
頓	-9.48391
毒	-9.48531
晦	-9.48609
中書舍人	-9.48661
壘	-9.48666
遭	-9.48828
福建	-9.48873
上以	-9.48879
舞	-9.48892
壯	-9.48913
鹿	-9.4894
匡	-9.48944
以示	-9.48982
其餘	-9.49021
悔	-9.49034
都監	-9.49035
至于	-9.49093
檄	-9.49131
之類	-9.49193
二百	-9.49489
涇原	-9.49519
舎	-9.49542
十一	-9.49552
賢曰	-9.49754
渾	-9.4978
庚戌	-9.49811
準	-9.49832
以吕祖謙	-9.49839
章惇	-9.49903
譏	-9.50029
妾	-9.50031
血	-9.50111
聖人	-9.50319
傑	-9.5034
苑	-9.50454
去年	-9.50471
人皆	-9.50669
展	-9.50685
晟	-9.50784
不報	-9.50811
仁宗	-9.50902
公卿	-9.50978
以待	-9.50995
不應	-9.51046
軍節度使	-9.51084
品	-9.51091
獵	-9.51115
是為	-9.51152
訟	-9.5116
曰陛下	-9.51282
西南	-9.51321
環	-9.51339
寡	-9.51346
後世	-9.51589
誅之	-9.51605
十五	-9.51645
無以	-9.51748
秉	-9.51864
湖南	-9.51884
挾	-9.52098
畜	-9.52217
警	-9.52367
徐州	-9.52473
啓	-9.52481
篇	-9.52512
故有是命	-9.52546
自稱	-9.52616
筆	-9.52621
鳯	-9.52677
一旦	-9.528
廬	-9.52905
恤	-9.52962
賛	-9.52984
項	-9.52997
禦	-9.53143
忠義	-9.53166
段	-9.53215
孰	-9.53252
渉	-9.53263
丑	-9.53293
標目修	-9.53314
仙	-9.53465
箋按	-9.53488
燒	-9.53544
練	-9.53581
其黨	-9.53644
之數	-9.53735
刑部	-9.53772
司空	-9.53814
陜	-9.53842
君臣	-9.53903
皇太子	-9.53979
露	-9.53994
租	-9.54061
不克	-9.54122
邱	-9.54161
曰今	-9.54163
鄂	-9.54186
冲	-9.54202
聼	-9.5441
傳云	-9.54413
猛	-9.54438
誕	-9.54592
堪	-9.5464
遣兵	-9.54775
姓名	-9.54853
霸	-9.54866
取之	-9.54903
席	-9.54938
髙麗	-9.54948
貧	-9.54957
潜	-9.54985
齋	-9.54986
唐主	-9.55016
秦王	-9.55289
等皆	-9.55335
宰	-9.55409
舊制	-9.55474
仗	-9.55502
辯	-9.55535
禮部	-9.55803
矢	-9.55811
丙戌	-9.55861
戮	-9.55906
二州	-9.55946
垣	-9.55952
樞	-9.55975
殘	-9.56063
哲	-9.56088
痛	-9.56088
三千	-9.56321
未可	-9.56363
究	-9.56413
賂	-9.56418
世祖	-9.5649
漕	-9.5655
蕩	-9.56574
又有	-9.56648
有餘	-9.56655
植	-9.56687
江陵	-9.56722
遲	-9.56787
而死	-9.57039
千里	-9.57122
不與	-9.57124
咎	-9.57192
不受	-9.57221
全忠	-9.57264
入城	-9.57283
掩	-9.5741
不可不	-9.57438
冝	-9.57444
陞	-9.5745
淮西	-9.57459
盈	-9.5746
節制	-9.57469
肉	-9.5749
軍馬	-9.57515
五日	-9.57592
其間	-9.57609
壇	-9.57641
萬人	-9.57656
今年	-9.57694
齎	-9.57874
使之	-9.57953
罷之	-9.5798
劄子	-9.5798
罕	-9.58004
更不	-9.58019
世忠	-9.58041
保甲	-9.58082
郡王	-9.58098
逵	-9.58108
激	-9.5812
暉	-9.5818
鄰	-9.58191
渭	-9.58234
諸司	-9.58261
近臣	-9.5832
不相	-9.5832
又云	-9.58422
尚書省	-9.58422
了	-9.58435
朔日有食之	-9.58514
壬戌	-9.58542
斛	-9.58544
十三	-9.58617
之患	-9.58638
卿等	-9.58642
寃	-9.58667
亨	-9.58684
恥	-9.58767
地震	-9.58775
趙鼎	-9.58795
之義	-9.58821
破之	-9.59001
十六	-9.59025
静	-9.59027
𦵏	-9.59053
熙	-9.591
朗	-9.59145
萬一	-9.59153
蠲	-9.59194
所部	-9.59254
元豐	-9.59274
不宜	-9.59318
宫中	-9.59476
完	-9.59627
之衆	-9.59665
熈	-9.59725
翟	-9.59771
之上	-9.59882
如故	-9.59995
皆有	-9.6006
本朝	-9.60127
史記	-9.60131
協	-9.60233
黒	-9.60273
夢	-9.60278
戚	-9.60325
也故	-9.60331
鳳	-9.60401
岐	-9.6048
狄	-9.60487
是年	-9.60508
饒	-9.60509
上皇	-9.60569
南陽	-9.60673
属	-9.60691
鐵	-9.60698
一切	-9.60713
上疏	-9.60769
圗	-9.608
金帛	-9.60892
未至	-9.60987
慕	-9.61119
至此	-9.61212
鳴	-9.61236
用事	-9.61248
在京	-9.61331
樹	-9.61341
嫌	-9.61346
他日	-9.61354
麻	-9.61397
詳定	-9.61459
譽	-9.61478
弓	-9.61562
尸	-9.61578
以爲	-9.6159
亦有	-9.61625
明堂	-9.61661
脅	-9.61713
什	-9.6176
之勢	-9.61771
發兵	-9.61811
辛卯	-9.6188
萬餘	-9.61967
仇	-9.61999
迹	-9.62007
城下	-9.62013
道路	-9.621
潘	-9.62133
巢	-9.62193
太廟	-9.62226
深入	-9.62351
乃止	-9.6237
提	-9.62386
宰臣	-9.62404
校尉	-9.62421
撥	-9.62452
未能	-9.62456
不已	-9.62559
謫	-9.6262
彬	-9.6265
一時	-9.62675
以前	-9.62711
曰臣	-9.6274
其人	-9.62774
脱	-9.6297
湏	-9.63064
宇	-9.63066
藝	-9.6308
宰執	-9.63105
晉王	-9.6319
纔	-9.63217
毅	-9.63397
數十	-9.63473
之名	-9.6348
忿	-9.6357
為名	-9.63611
鄙	-9.63685
葛	-9.63695
突	-9.6375
夏人	-9.6375
奏請	-9.63759
𤼵	-9.6383
頴	-9.6383
頒	-9.6384
丁卯	-9.63917
秦州	-9.63942
閔	-9.63995
秋八月	-9.6402
河西	-9.64138
事見	-9.64144
入見	-9.64198
㡬	-9.64213
涉	-9.64343
旣	-9.64409
隴	-9.6441
距	-9.64415
諫官	-9.64431
昏	-9.64471
未幾	-9.64507
簿	-9.6456
隊	-9.64569
採	-9.64573
押	-9.64613
豈不	-9.64629
之故	-9.6463
謗	-9.64676
東都	-9.64752
諷	-9.64757
將帥	-9.64765
開封府	-9.64868
下同	-9.64904
不在	-9.65012
江東	-9.65027
刼	-9.65058
斂	-9.65137
不出	-9.65187
慢	-9.652
賴	-9.65261
誤也	-9.65374
復扶又翻	-9.65383
帳	-9.65506
栁	-9.65549
滋	-9.65571
州團練使	-9.65588
數日	-9.65594
誼	-9.65616
切下	-9.65621
何如	-9.6573
睿	-9.65812
相繼	-9.65979
云云	-9.66041
姬	-9.66288
墨	-9.6629
中丞	-9.66362
曰朕	-9.66386
齊王	-9.66685
撃	-9.6669
一百	-9.6669
旬	-9.66723
耗	-9.66746
幣	-9.66759
貝勒	-9.66833
不若	-9.66923
疎	-9.66935
薩	-9.66969
範	-9.66989
疲	-9.67091
磨勘	-9.67173
旋	-9.67319
洞	-9.67338
疆	-9.67366
救之	-9.67381
皆以	-9.67415
百萬	-9.6747
遠	-9.67479
不便	-9.67509
夕	-9.67834
如此則	-9.67949
榜	-9.67963
下詔	-9.68153
死之	-9.68174
溥	-9.68205
従	-9.68209
鋭	-9.68213
壬	-9.68217
吏部尚書	-9.6828
彰	-9.68337
銓	-9.68343
不合	-9.68389
言其	-9.68445
元帥	-9.685
恪	-9.68554
恵	-9.68597
之日	-9.68624
在今	-9.68728
自殺	-9.68801
乙卯	-9.68843
郢	-9.68844
之命	-9.6893
自古	-9.68947
上表	-9.68957
及是	-9.69039
數千	-9.69055
丙	-9.69119
肇	-9.69119
不勝	-9.69161
之子也	-9.69167
之弊	-9.69441
逢	-9.69617
錯	-9.69621
遜	-9.69642
拒之	-9.69702
含	-9.69712
炎	-9.69717
若不	-9.6981
傳曰	-9.69884
晉陽	-9.69894
之外	-9.69902
大赦	-9.69961
添	-9.70028
齒	-9.70192
擁	-9.70202
壞	-9.7023
庚	-9.70385
起兵	-9.70562
俸	-9.7068
荆州	-9.70729
樊	-9.70786
臧	-9.70797
禁中	-9.70799
伍	-9.70799
觧	-9.70832
亮翻	-9.70858
夏五月	-9.70918
乃命	-9.70947
兩浙	-9.70947
之兵	-9.71025
贓	-9.71127
佞	-9.71142
汗	-9.71172
妖	-9.71176
坊	-9.71393
副之	-9.71399
悟	-9.71465
沔	-9.71609
不忍	-9.71647
知州	-9.71735
庻	-9.7175
䖍	-9.71768
伸	-9.71825
賞罰	-9.71843
大敗	-9.71864
慕容	-9.71885
紫	-9.71942
輕重	-9.71961
邸	-9.72019
懲	-9.72058
軍事	-9.72061
制置使	-9.72107
遼東	-9.72161
怪	-9.72165
詰	-9.72169
書曰	-9.7217
公孫	-9.72188
捷	-9.72219
摯	-9.7231
縣令	-9.72318
徹	-9.72359
漢書	-9.72542
頌	-9.7259
七十	-9.72683
廉	-9.72899
所得	-9.72905
燾	-9.72954
敷	-9.73116
為一	-9.73139
迫	-9.73156
郎中	-9.73251
芳	-9.73328
軾	-9.73417
村	-9.73417
知縣	-9.73429
是非	-9.73467
京東	-9.73505
熊	-9.73536
管勾	-9.73576
宦官	-9.7361
鈞	-9.73619
二千	-9.73681
癸卯	-9.73688
然則	-9.73778
仲淹	-9.73899
首領	-9.73985
窺	-9.73989
軍民	-9.74099
行營	-9.74184
丕	-9.74201
南京	-9.74218
西京	-9.74278
偽翻	-9.74281
五千	-9.74314
證	-9.74397
舉兵	-9.74404
歛	-9.74426
西域	-9.74432
之議	-9.74477
幼	-9.7462
贍	-9.74649
溢	-9.748
吏民	-9.74834
出兵	-9.74923
進退	-9.75019
伺	-9.7502
無事	-9.75098
子也	-9.75124
鑒	-9.75222
鴻	-9.75253
嬰	-9.75276
靜	-9.75294
官司	-9.75302
諸道	-9.75305
監軍	-9.75316
憚	-9.75408
抱	-9.75415
侍從	-9.75448
第一	-9.75499
之家	-9.75516
前日	-9.75554
淫	-9.75566
陟	-9.75593
閤門	-9.75626
又詔	-9.75673
巖	-9.75888
慰	-9.76
冬十一月	-9.76018
契	-9.76074
渡江	-9.76095
其父	-9.76132
其意	-9.76249
此時	-9.76273
鈐轄	-9.76329
帝以	-9.7641
夾	-9.76443
十四	-9.76476
上批	-9.76543
綏	-9.76556
太師	-9.76584
真宗	-9.76675
姜	-9.76688
非是	-9.7686
競	-9.76909
數萬	-9.76942
以兵	-9.76945
所殺	-9.77006
萬緡	-9.77037
議論	-9.77197
安國	-9.77198
妻子	-9.77216
為相	-9.77325
凌	-9.77428
之禍	-9.77644
所奏	-9.77676
其名	-9.77685
狂	-9.77794
百里	-9.77853
呂	-9.77868
可也	-9.77939
不足以	-9.77981
故曰	-9.78023
乂	-9.78029
祿	-9.78097
刃	-9.7813
談	-9.78189
留後	-9.78291
得罪	-9.78296
捨	-9.78397
謨	-9.78497
韓琦	-9.78593
柄	-9.78717
未知	-9.7875
攻之	-9.78783
敗之	-9.78836
之徒	-9.78887
遂以	-9.78918
不必	-9.78986
)○	-9.79167
七日	-9.79247
京西	-9.79298
數年	-9.79325
三公	-9.79453
麥	-9.79498
消	-9.79578
不得已	-9.79632
中興	-9.79648
其弟	-9.79712
太常	-9.79712
墓	-9.7972
寕	-9.79792
如是	-9.79795
得其	-9.79829
仍令	-9.79845
玠	-9.79942
恣	-9.79946
留守	-9.79978
瞻	-9.79983
㓜	-9.79984
宦者	-9.80018
貳	-9.80164
攸	-9.8018
耿	-9.80208
苗	-9.80399
巴延	-9.80471
安南	-9.80521
尾	-9.80534
臺諫	-9.80568
束	-9.80631
随	-9.80663
主簿	-9.80675
釋之	-9.80716
書法	-9.80718
數百	-9.8074
詆	-9.8076
閏	-9.8077
篤	-9.80805
虧	-9.80872
乖	-9.80879
在位	-9.80882
之利	-9.80892
謬	-9.80895
盗賊	-9.80939
浸	-9.81
湛	-9.81017
昇	-9.81102
長吏	-9.81151
文王	-9.81193
遥	-9.81225
佑	-9.81247
冗	-9.81251
餉	-9.81252
貽	-9.81283
浦	-9.81316
丈	-9.81394
尼	-9.81443
填	-9.8146
十八	-9.81499
璘	-9.81507
塗	-9.81514
河中	-9.81532
得之	-9.81564
御史大夫	-9.81793
之謀	-9.81824
作亂	-9.81848
太學	-9.81887
本司	-9.81915
俘	-9.81955
閤	-9.81962
十餘萬	-9.82053
邢	-9.82078
昆	-9.8211
罔	-9.82173
王子	-9.8223
彭城	-9.82235
伏誅	-9.82305
東宫	-9.82357
廣西	-9.82366
贖	-9.82436
閒	-9.82442
換	-9.8246
册	-9.82484
原本	-9.82485
卧	-9.82577
大小	-9.82615
惠卿	-9.8267
翰林	-9.82689
分兵	-9.82743
所為	-9.82782
契丹主	-9.82855
凉	-9.82903
輪	-9.82908
當作	-9.83018
祝	-9.83045
未必	-9.83065
頼	-9.83097
豈有	-9.83187
偃	-9.83188
王師	-9.83195
緣	-9.83233
行在	-9.83258
未見	-9.83275
大將	-9.83294
吏部侍郎	-9.83307
州防禦使	-9.83308
大王	-9.8335
矜	-9.83352
久之	-9.8336
復置	-9.8336
潤	-9.83364
替	-9.83364
喇	-9.83443
斌	-9.83519
鬻	-9.83541
璋	-9.8363
祁	-9.83693
中山	-9.83737
鞏	-9.83763
耶律	-9.83775
隔	-9.83813
在外	-9.8385
叚	-9.83931
有此	-9.83931
廵檢	-9.84046
麗	-9.84072
燕王	-9.84152
寸	-9.84168
乃詔	-9.84171
至今	-9.84307
右正言	-9.84362
己卯	-9.8437
今改	-9.84385
霍	-9.84403
之則	-9.84462
河陽	-9.8451
水經注	-9.8454
以新	-9.84567
安得	-9.84578
悲	-9.84625
渡河	-9.84688
鮮	-9.8476
江州	-9.84829
析	-9.84853
取㫖	-9.84912
健	-9.84972
鑿	-9.84981
推恩	-9.84982
畨	-9.84987
不可以	-9.85123
聰	-9.85136
公私	-9.85174
者亦	-9.8525
喬	-9.853
手詔	-9.85305
帝紀	-9.85453
應副	-9.85457
樞密院	-9.85466
塔	-9.85536
拱	-9.85548
虐	-9.85586
將即亮翻	-9.85634
殺其	-9.85698
世子	-9.85701
黃	-9.85719
台	-9.85831
四人	-9.85943
誥	-9.85943
六十	-9.85947
盤	-9.8595
陽縣	-9.85956
不言	-9.85963
屯田	-9.86092
提㸃	-9.861
花	-9.86118
香	-9.86119
題	-9.86148
則是	-9.86166
批	-9.8617
所有	-9.86205
錦	-9.86233
國事	-9.86248
注見	-9.86324
二萬	-9.86374
吐	-9.86378
民力	-9.86402
楚王	-9.86456
諸郡	-9.86468
靣	-9.86471
邊事	-9.8651
漢中	-9.86578
四十	-9.8658
騰	-9.86687
緒	-9.86712
職事	-9.86719
岱	-9.86773
之説	-9.86779
隙	-9.86813
瓘	-9.86843
入對	-9.86868
饗	-9.86891
吏翻	-9.86915
矯	-9.86994
偕	-9.87151
其實	-9.87164
喻	-9.87202
甞	-9.87227
之志	-9.87385
鞫	-9.87395
請以	-9.87424
琮	-9.87463
亥	-9.87498
瑾	-9.87503
總管	-9.87525
先朝	-9.87542
軌	-9.87585
偉	-9.87597
以後	-9.8765
輦	-9.87753
王珪	-9.87784
更名	-9.87838
□	-9.87974
戌	-9.88151
爽	-9.88192
來降	-9.88302
域	-9.88321
都尉	-9.88327
貌	-9.88476
囘	-9.88502
宋主	-9.88537
徇	-9.88544
償	-9.88568
國子監	-9.88591
詭	-9.88635
改為	-9.88668
恱	-9.88678
肯	-9.88781
京兆	-9.88799
二日	-9.88837
取其	-9.88883
欵	-9.88949
龜	-9.8899
翁	-9.89042
古者	-9.89054
醫	-9.89077
淳	-9.89103
住	-9.89134
縣有	-9.89171
臣聞	-9.89179
琳	-9.89256
伏望	-9.89281
蔡確	-9.89302
大怒	-9.89367
禀	-9.89379
官屬	-9.89398
敝	-9.89422
播	-9.89444
及其	-9.89513
不免	-9.89544
復以	-9.89591
曠	-9.89595
提㸃刑獄	-9.89728
後魏	-9.89768
㑹要	-9.89829
兖州	-9.89912
臯	-9.89913
効	-9.8993
蔣	-9.89934
城縣	-9.89948
曰卿	-9.90001
皆不	-9.9004
銜	-9.90093
門下	-9.90197
哩	-9.90232
敇	-9.90239
十二年	-9.90251
互	-9.90414
鳥	-9.90456
胥	-9.90511
它	-9.90513
日月	-9.90534
湘	-9.90587
何也	-9.90716
牢	-9.90739
定州	-9.90837
閱	-9.90883
拉	-9.90892
相與	-9.90896
閻	-9.90935
灌	-9.90953
大同	-9.91006
奉使	-9.91083
宇文	-9.91103
參軍	-9.91117
歎	-9.91179
汪	-9.91335
㑹稽	-9.91403
閩	-9.91417
未及	-9.91521
誦	-9.9159
讒	-9.91624
春二月	-9.91638
州觀察使	-9.91649
往往	-9.91771
績	-9.91783
夏國	-9.91817
禽	-9.91862
博士	-9.91878
溝	-9.91885
彦博	-9.91894
以来	-9.91909
古之	-9.9195
快	-9.91958
檢校	-9.92001
遏	-9.92009
各有	-9.92013
柱	-9.92014
兵部尚書	-9.92019
南郊	-9.92043
雲南	-9.92077
酉	-9.92104
䕫	-9.92111
等言	-9.92133
戊	-9.92144
荆南	-9.92163
李綱	-9.92229
後漢	-9.92282
特穆爾	-9.92463
大破之	-9.92468
常平	-9.92565
蓄	-9.92673
刪	-9.92691
紙	-9.92695
數人	-9.92747
本州	-9.92806
泥	-9.92833
戰于	-9.92853
庶幾	-9.92877
自此	-9.92877
必不	-9.92942
精兵	-9.9303
一路	-9.93063
宛	-9.93106
青州	-9.93206
朔方	-9.93256
誨	-9.93258
都統制	-9.93275
公議	-9.93311
克用	-9.93399
朋黨	-9.93404
千餘人	-9.93436
把	-9.93519
踈	-9.93523
劒	-9.93554
桂	-9.93566
之下	-9.93604
太傅	-9.93607
閑	-9.93651
隄	-9.93718
風俗	-9.93737
隘	-9.93755
釁	-9.93767
奎	-9.93813
旅	-9.93841
韓世忠	-9.93868
文彦博	-9.93951
賑	-9.93993
選人	-9.94019
較	-9.94021
皓	-9.94046
四百	-9.94078
張俊	-9.94092
徧	-9.94097
臣恐	-9.94184
行下	-9.94223
緩急	-9.94242
十日	-9.94284
翌日	-9.94287
安撫	-9.94294
建炎	-9.94331
探	-9.94386
浙西	-9.94413
柴	-9.94438
其心	-9.94469
忤	-9.94536
之中	-9.94537
文帝	-9.94655
禪	-9.94798
醉	-9.94809
人之	-9.94844
枉	-9.94891
長子	-9.94891
詔自今	-9.94947
十七	-9.95059
纂	-9.95066
岳飛	-9.9511
宣撫使	-9.95214
蕃部	-9.95236
軰	-9.95238
郡國	-9.95247
侮	-9.95265
都統	-9.95325
赴闕	-9.95337
烏珠	-9.95412
書之	-9.95413
弛	-9.95536
守之	-9.95559
者必	-9.95618
其國	-9.95643
弩	-9.95655
孚	-9.95736
之役	-9.95754
僚	-9.95766
成功	-9.95807
等州	-9.9589
頻	-9.95952
左傳	-9.95962
譙	-9.95979
殺人	-9.95994
砦	-9.96017
晚	-9.96028
内史	-9.96157
詔令	-9.9616
往來	-9.96171
曰汝	-9.9622
腹心	-9.96221
成王	-9.96279
欽定四庫全書	-9.96292
法度	-9.96358
國人	-9.9658
峽	-9.96602
倡	-9.96631
轍	-9.96643
該	-9.96714
四日	-9.96786
稷	-9.96806
廣陵	-9.96836
柵	-9.96873
非所以	-9.97006
斬首	-9.97016
碩	-9.97022
雲中	-9.97068
諡曰	-9.97124
為國	-9.9719
富弼	-9.97234
返	-9.97241
譚	-9.97247
鬼	-9.97255
勑	-9.97258
者多	-9.97329
滯	-9.97403
官爵	-9.97448
扼	-9.97451
為陛下	-9.97553
大理寺	-9.9757
武王	-9.97662
牽	-9.97795
狼	-9.97861
聘	-9.97926
雇	-9.97945
眞	-9.97965
富貴	-9.97969
洋	-9.97972
之職	-9.97976
筠	-9.98009
酋	-9.98034
戾	-9.98037
不下	-9.98042
四海	-9.98151
裂	-9.98213
潁	-9.98238
鋒	-9.98313
諸子	-9.98317
則有	-9.98381
三萬	-9.98382
鸞	-9.98449
缺	-9.98548
托	-9.98622
崖	-9.98634
姪	-9.98653
三州	-9.98709
者並	-9.98775
無罪	-9.98805
率衆	-9.98806
開封	-9.98818
之師	-9.98825
綸	-9.9887
禮部侍郎	-9.98929
蘇軾	-9.98951
欲乞	-9.98958
一曰	-9.99012
同列	-9.9907
僕射	-9.9908
圭	-9.99127
見之	-9.99172
洽	-9.99177
者以	-9.99191
祗	-9.99258
今後	-9.9933
號令	-9.99341
指揮使	-9.99364
古今	-9.99409
鎮江	-9.99433
萬餘人	-9.9949
而下	-9.99499
駭	-9.99572
錡	-9.99597
宣撫司	-9.99628
譴	-9.99638
可用	-9.99639
閏月	-9.99659
禁軍	-9.99662
偶	-9.9976
城寨	-9.99795
已上	-9.99833
癸	-9.99841
甚衆	-9.99846
赴行在	-9.99871
從容	-9.99882
不容	-9.99891
資政殿學士	-9.99959
板	-10.0001
也若	-10.0002
以告	-10.0003
人馬	-10.0004
宣諭	-10.0022
帥讀曰率	-10.0024
請也	-10.0031
糾	-10.0033
子曰	-10.0039
出師	-10.004
暫	-10.0048
暮	-10.0059
見其	-10.0063
踐	-10.0065
歎曰	-10.0067
愧	-10.007
瑜	-10.0072
十五年	-10.0077
或曰	-10.008
山在	-10.0089
怠	-10.0089
為太子	-10.0096
婁	-10.0113
旨	-10.0113
千人	-10.0117
統制	-10.0118
畿	-10.0121
人君	-10.0123
臣下	-10.0123
行臺	-10.0126
言於	-10.0132
閭	-10.0135
包	-10.0137
十餘	-10.0137
文學	-10.0141
之官	-10.0144
諤	-10.015
河内	-10.015
飢	-10.0152
謚	-10.0159
嚮	-10.0164
熹	-10.0168
轉運	-10.0173
聞奏	-10.0177
大喜	-10.0178
日歴	-10.0179
紅	-10.0182
八十	-10.0184
波	-10.0185
得以	-10.0188
益州	-10.0191
番	-10.0193
膳	-10.0195
曜	-10.0216
鬬	-10.023
鮮卑	-10.0238
之政	-10.0239
帥衆	-10.0244
敞	-10.0249
罵	-10.025
此乃	-10.025
侂胄	-10.0259
耆	-10.026
五人	-10.0268
碑	-10.0269
儻	-10.027
促	-10.0272
𦙍	-10.0274
祈	-10.0281
亢	-10.0282
廣州	-10.0285
為大	-10.0285
婦人	-10.0288
逺近	-10.029
聖㫖	-10.0296
掾	-10.0312
縣西	-10.0317
武臣	-10.0318
得失	-10.0322
遼主	-10.0323
翊	-10.0324
挺	-10.0327
無復	-10.033
帖	-10.0332
璽	-10.0335
迪	-10.0336
臣竊	-10.0336
莫敢	-10.0342
禮部尚書	-10.0342
卞	-10.0344
蘓	-10.0347
人户	-10.0356
開元	-10.0357
拯	-10.0358
之變	-10.0358
懸	-10.0362
其母	-10.0363
之語	-10.0365
咨	-10.0367
不悦	-10.037
朴	-10.0371
戲	-10.0372
舅	-10.0373
十一年	-10.0374
之費	-10.0381
蝗	-10.0382
論列	-10.0387
十九	-10.0398
廷尉	-10.0404
齊主	-10.0411
流涕	-10.0412
止之	-10.0414
之任	-10.0419
舉人	-10.042
億	-10.0423
棣	-10.0426
奉詔	-10.0428
中書省	-10.0433
諸将	-10.0435
言事	-10.044
洲	-10.0447
不問	-10.0457
繇	-10.0459
為人	-10.0461
湖廣	-10.0465
睦	-10.0466
姦邪	-10.0468
鎭	-10.0474
一員	-10.0476
者不	-10.0481
財用	-10.0481
何為	-10.0483
百餘	-10.0484
體量	-10.0484
廹	-10.0485
奏乞	-10.0487
同知	-10.0488
耳目	-10.0499
俞	-10.05
瑪	-10.05
滕	-10.0504
劉光世	-10.0506
欠	-10.0506
儼	-10.0509
安撫使	-10.051
平陽	-10.0512
新紀	-10.0513
數千人	-10.0517
諾	-10.0518
功臣	-10.0518
平章	-10.052
膺	-10.0521
也然	-10.0522
鄜延	-10.0526
之理	-10.0527
也夫	-10.0531
觀察使	-10.0537
生事	-10.0542
曰君	-10.0543
海内	-10.0543
安撫司	-10.0544
轄	-10.0548
亦無	-10.0556
看詳	-10.0563
雞	-10.0563
帥臣	-10.0566
穿	-10.0566
駿	-10.0567
郎官	-10.0576
門外	-10.0579
今不取	-10.0581
皆為	-10.0581
當以	-10.0581
淑	-10.0586
范仲淹	-10.0597
終不	-10.0597
且言	-10.0606
汾	-10.0615
嫁	-10.0618
東魏	-10.0624
沛	-10.0632
旌	-10.0635
坦	-10.0639
之術	-10.0648
惡之	-10.0651
裔	-10.0651
不利	-10.0654
撓	-10.0656
諒	-10.0667
艱	-10.0669
而出	-10.0675
禦之	-10.0685
無功	-10.0688
聖意	-10.0694
熈寧	-10.0695
繩	-10.0697
户部侍郎	-10.0697
晝	-10.0705
臨安	-10.0709
國用	-10.0715
愍	-10.072
力戰	-10.0725
嶺南	-10.0726
塲	-10.0729
尼瑪哈	-10.0753
涼	-10.0754
立法	-10.0755
曰昔	-10.0762
童	-10.0765
揆	-10.0768
右諫議大夫	-10.0769
僭	-10.0781
彪	-10.0785
劉摯	-10.0786
昧	-10.0788
大計	-10.0788
尚書令	-10.079
進兵	-10.0792
晉侯	-10.0794
黄河	-10.0804
而歸	-10.0814
二十年	-10.0816
待之	-10.0829
十人	-10.0834
叱	-10.0835
羡	-10.0836
大理	-10.0839
遮	-10.0841
數月	-10.0847
上曰朕	-10.0851
傳修	-10.0857
曷	-10.087
宥	-10.0871
百餘人	-10.0873
截	-10.0874
賓	-10.0876
縣北	-10.0881
長沙	-10.0883
率兵	-10.0883
澶州	-10.0885
二十萬	-10.0888
撤	-10.0891
行省	-10.0895
區	-10.0896
差官	-10.0901
相公	-10.0922
招討使	-10.0926
臂	-10.0933
忠臣	-10.0934
自陳	-10.0944
山西	-10.0948
因言	-10.0949
有大	-10.0954
改正	-10.0957
轉運判官	-10.0957
高祖	-10.0961
軍前	-10.0963
杭州	-10.0963
綰	-10.097
和議	-10.0976
綽	-10.0977
延州	-10.0981
已有	-10.0985
弔	-10.0985
鳯翔	-10.0992
参	-10.0995
曹操	-10.0997
庾	-10.0997
河間	-10.0997
余按	-10.0998
髙宗	-10.1001
刑獄	-10.1001
金銀	-10.1008
十三年	-10.1016
數百人	-10.102
追之	-10.102
肥	-10.1021
亦可	-10.1026
緡	-10.1026
從官	-10.1033
以為然	-10.1035
下有	-10.1037
先王	-10.104
幕	-10.1049
塘	-10.1056
淮東	-10.1056
敵人	-10.1059
來歸	-10.1061
即日	-10.1062
顥	-10.1062
槩	-10.1063
大兵	-10.1065
學者	-10.1065
千餘	-10.1071
輝	-10.1072
所至	-10.1077
亦以	-10.1079
眷	-10.1083
都指揮使	-10.1088
劍	-10.1089
待制	-10.109
之情	-10.1091
遁去	-10.1096
夷簡	-10.1098
近日	-10.1114
勵	-10.1131
反覆	-10.1133
豹	-10.1134
所居	-10.1138
大業	-10.1143
戈	-10.1159
張本	-10.116
娶	-10.1165
靖康	-10.1167
劇	-10.1172
倣	-10.1174
繆	-10.1189
趙王	-10.119
乃遣	-10.1195
今來	-10.1204
觀之	-10.1206
起居	-10.1207
皇甫	-10.1208
疇	-10.1212
鎬	-10.1214
賄	-10.1217
入冦	-10.1227
讎	-10.1231
勛	-10.1233
溺	-10.1233
也又	-10.1235
一名	-10.1238
曰公	-10.1238
販	-10.1239
女真	-10.1242
諸縣	-10.1242
落職	-10.1245
蒼	-10.1251
舊紀	-10.1254
其中	-10.1267
寔	-10.1269
箭	-10.1269
奏曰	-10.1271
兵部	-10.1276
統制官	-10.1289
冕	-10.1296
怯	-10.1299
三路	-10.1308
部落	-10.1308
不顧	-10.1311
不安	-10.1317
齊侯	-10.1319
闗中	-10.1323
猶未	-10.1326
民之	-10.1333
衮	-10.1335
直秘閣	-10.1336
平章事	-10.1337
那	-10.1339
晝夜	-10.1342
諸生	-10.1348
大防	-10.1352
或有	-10.1352
悍	-10.1354
並為	-10.1372
遣官	-10.1373
巫	-10.1377
梅	-10.1381
五代	-10.1383
催	-10.1384
況	-10.1384
璧	-10.1385
酌	-10.1388
諸臣	-10.139
并州	-10.1391
泗州	-10.1393
十四年	-10.1395
歟	-10.1398
者為	-10.1398
泰山	-10.1405
樞宻使	-10.1412
亶	-10.1414
為于偽翻	-10.1414
朱全忠	-10.1415
出戰	-10.1421
奢	-10.1423
安定	-10.1423
臣愚	-10.1432
用翻	-10.1434
涇	-10.1436
盜賊	-10.1436
胄	-10.1437
王氏	-10.1437
侃	-10.1443
中官	-10.1451
士民	-10.1452
宋白曰	-10.1454
懋	-10.1464
一月	-10.1469
中軍	-10.1474
大司馬	-10.148
彈	-10.1481
腹	-10.1481
州府	-10.1486
禮官	-10.1487
不通	-10.1487
光世	-10.1496
蘇轍	-10.1498
奬	-10.1498
天命	-10.1509
豈得	-10.1509
萌	-10.151
固守	-10.1516
參政	-10.1519
奇	-10.152
清河	-10.1524
堤	-10.1533
神武	-10.154
攘	-10.154
梁王	-10.1541
潭	-10.1541
驟	-10.1546
荷	-10.1549
朝政	-10.1551
沃	-10.1555
弓箭手	-10.1559
鐡	-10.1562
演	-10.1574
䘏	-10.1575
開府儀同三司	-10.1578
東京	-10.1584
𣙜	-10.1584
因以	-10.159
自有	-10.16
人臣	-10.1601
僥倖	-10.1604
衆心	-10.1606
處之	-10.161
其勢	-10.1615
大水	-10.1616
帥師	-10.1625
執中	-10.1631
而止	-10.1635
周禮	-10.165
墮	-10.1652
建議	-10.1655
卒子	-10.1664
以致	-10.1664
一事	-10.1666
總兵	-10.1672
廣南	-10.1675
劉豫	-10.1678
訥	-10.1679
二子	-10.1687
遥翻	-10.1687
臨安府	-10.169
丁夘	-10.1692
奕	-10.1696
水旱	-10.1703
莫若	-10.1703
宿衛	-10.1703
壻	-10.1707
兼權	-10.1708
衆皆	-10.1711
一二	-10.1713
待罪	-10.1715
東平	-10.1715
于此	-10.1718
苖	-10.1719
人才	-10.1719
熈河	-10.1727
縣地	-10.1731
太常博士	-10.1735
蹈	-10.1736
上意	-10.1736
懇	-10.1737
靈州	-10.174
水出	-10.1745
潮	-10.1747
赦天下	-10.1751
耻	-10.1754
布衣	-10.1754
處置	-10.1759
㤗	-10.1762
辛夘	-10.1764
何所	-10.1765
紹聖	-10.1772
僣	-10.1778
詔曰	-10.1778
兮	-10.1785
等路	-10.1788
處分	-10.1796
劉氏	-10.1797
環慶	-10.18
御前	-10.1802
轉運副使	-10.181
十六年	-10.1811
月日	-10.1815
不聞	-10.1818
兵部侍郎	-10.1821
經筵	-10.1822
巡撫	-10.1824
艾	-10.1825
欲令	-10.1827
歐陽修	-10.183
泗	-10.1835
㸃	-10.1838
未敢	-10.1845
上問	-10.1851
復為	-10.1854
粲	-10.1858
而立	-10.1858
而行	-10.1858
江浙	-10.1865
徼	-10.1867
編修	-10.1868
八日	-10.187
劄	-10.1875
縣東	-10.1882
約束	-10.1885
不絶	-10.19
西川	-10.191
嗟	-10.1914
下獄	-10.1914
今若	-10.1916
朝夕	-10.1917
得人	-10.1929
降詔	-10.1929
賔客	-10.1934
曰若	-10.1935
由此	-10.194
街	-10.1942
削去	-10.1942
必欲	-10.1947
樞宻	-10.1957
陂	-10.196
悼	-10.1971
榆	-10.1972
除名	-10.1973
朔日食	-10.1975
皆在	-10.1976
已下	-10.1976
遣中使	-10.1977
於朝	-10.1982
萬里	-10.1987
不聴	-10.1999
夏六月	-10.2001
公著	-10.2002
嫡	-10.2002
讐	-10.2003
上章	-10.2003
瀆	-10.2003
隂陽	-10.2004
附見	-10.2006
日夜	-10.2007
圓	-10.201
侈	-10.2012
縣南	-10.2019
製	-10.2021
妨	-10.2022
緡錢	-10.2025
制度	-10.2025
次第	-10.203
庇	-10.2031
為左	-10.2032
鼔	-10.2033
埽	-10.204
豫章	-10.2042
勃	-10.2048
綿	-10.205
上帝	-10.2052
粗	-10.2059
用人	-10.2062
視事	-10.2064
絲	-10.2066
賜之	-10.2067
周主	-10.2072
之䇿	-10.2074
武昌	-10.2074
苛	-10.2075
布曰	-10.2075
再拜	-10.2077
安危	-10.208
牲	-10.2081
舍人	-10.2089
到翻	-10.2089
柳	-10.209
攻城	-10.2091
問之	-10.2104
内臣	-10.2106
弃	-10.2106
汲	-10.2109
遂與	-10.2111
曦	-10.2112
東海	-10.2114
諫曰	-10.2115
臣所	-10.2115
沁	-10.2118
泌	-10.212
濮	-10.2122
而退	-10.2131
等處	-10.2131
其一	-10.2131
視之	-10.2132
塹	-10.2137
責之	-10.2139
氷	-10.2139
朝㫖	-10.214
沂	-10.2144
宸	-10.2146
右丞	-10.2147
貟外郎	-10.2148
度支	-10.2149
嶽	-10.2151
惟陛下	-10.2151
瓦	-10.2163
未聞	-10.2164
倒	-10.2167
婢	-10.2167
師古	-10.2168
請降	-10.2172
芻	-10.2173
至京師	-10.218
兖	-10.2181
於外	-10.2183
光武	-10.2186
朝直	-10.2187
逾	-10.2187
未得	-10.2195
以安	-10.2195
起復	-10.2197
召見	-10.2199
桀	-10.2199
宣撫	-10.2201
數十人	-10.2202
玩	-10.2202
楚州	-10.2206
來朝	-10.2208
亳	-10.2212
布哈	-10.2214
生靈	-10.2219
工部侍郎	-10.2222
輯	-10.2229
五萬	-10.2232
不疑	-10.2234
護	-10.2236
麾下	-10.2241
摩	-10.2243
難以	-10.2251
莒	-10.2266
岑	-10.2272
邇	-10.2272
所載	-10.2272
緯	-10.2274
姓也	-10.2276
隅	-10.2278
中書令	-10.2279
矩	-10.2282
萬世	-10.2289
氐	-10.2292
太保	-10.2296
號曰	-10.2298
大梁	-10.2298
禧	-10.2299
得免	-10.23
寖	-10.23
隴西	-10.23
降指揮	-10.2304
求去	-10.2305
勁	-10.2308
九域志	-10.2321
一也	-10.2325
第二	-10.2332
遞	-10.2332
銳	-10.2334
跡	-10.2347
鐸	-10.2347
醜	-10.2348
僉	-10.2349
邠	-10.235
覘	-10.235
媚	-10.2351
百人	-10.2361
乞罷	-10.2365
相見	-10.2368
朋	-10.2368
獸	-10.2369
二十四	-10.238
謂曰	-10.2384
太和	-10.2389
交趾	-10.2392
六日	-10.2392
奉天	-10.2396
無他	-10.2401
固辭	-10.2402
詣闕	-10.2404
立功	-10.2407
二字	-10.2409
抽	-10.2411
二千石	-10.2412
行遣	-10.2415
府庫	-10.2428
再三	-10.2429
洗	-10.2429
陳留	-10.2434
三十里	-10.2441
髪	-10.2445
曽布	-10.2447
不須	-10.2449
貞觀	-10.2451
一千	-10.2451
又遣	-10.2453
貴人	-10.2458
上殿	-10.2465
所宜	-10.2469
堰	-10.2472
王巖叟	-10.2473
釐	-10.2477
潭州	-10.2479
壓	-10.2488
平江	-10.2489
縛	-10.249
歸之	-10.2492
墜	-10.2494
治之	-10.2498
鞭	-10.2504
自來	-10.251
不載	-10.2513
而卒	-10.2524
䕶軍	-10.2524
進攻	-10.2526
無可	-10.253
諸部	-10.2534
平原	-10.2535
在此	-10.2537
中郎將	-10.2537
守禦	-10.2538
主上	-10.2541
嘉祐	-10.2543
算	-10.2543
恢	-10.2544
言臣	-10.2546
帯	-10.2547
繳	-10.2548
哲宗	-10.2551
之國	-10.2553
師道	-10.2553
丁謂	-10.2553
天意	-10.2556
災傷	-10.2557
十里	-10.2561
無益	-10.2562
邦昌	-10.2563
史炤釋文曰	-10.2568
本傳	-10.2572
托克托	-10.2578
自言	-10.258
於上	-10.2584
失其	-10.2584
鐘	-10.2585
闢	-10.2585
名曰	-10.2585
經義	-10.2593
敎	-10.2596
扈	-10.2596
乙夘	-10.2596
評	-10.2601
制置	-10.2601
岡	-10.2602
此言	-10.2603
權知	-10.2606
方今	-10.2609
可考	-10.261
阜	-10.2615
史言	-10.2619
禱	-10.262
捍	-10.2623
事之	-10.2625
廸	-10.2629
沿	-10.2634
入貢	-10.2645
遐	-10.2647
薊	-10.265
欽若	-10.2651
准	-10.2656
先後	-10.2656
其功	-10.2657
追封	-10.2663
潞州	-10.2667
教授	-10.2668
麾	-10.2673
數十萬	-10.2675
畆	-10.2677
殿下	-10.2682
大抵	-10.2684
團	-10.2686
更始	-10.269
並依	-10.2693
明帝	-10.2694
㫁	-10.2695
貼	-10.2702
朝鮮	-10.2703
所用	-10.2704
薪	-10.2706
之北	-10.2709
宫觀	-10.2709
笑曰	-10.2714
有隙	-10.2727
捐	-10.2728
敗走	-10.2733
紀年	-10.2741
與其	-10.2743
豈能	-10.2746
不樂	-10.2748
人言	-10.2748
形勢	-10.2749
恩澤	-10.2749
大義	-10.2755
古人	-10.2758
匱	-10.276
朝直遥翻	-10.2761
貟	-10.2765
不平	-10.2765
不盡	-10.2767
昉	-10.2773
巾	-10.2774
乃與	-10.2776
守將	-10.279
酷	-10.2791
以為不可	-10.2792
以次	-10.2796
自將	-10.2797
紀綱	-10.2799
慙	-10.2805
興元	-10.2807
未盡	-10.2809
而不能	-10.2814
所屬	-10.2819
憾	-10.282
龔	-10.2821
先生	-10.2821
吐谷渾	-10.2823
茅	-10.2827
像	-10.2833
寘	-10.2835
八百	-10.2835
穴	-10.2841
黄帝	-10.2843
望之	-10.2849
伏乞	-10.285
豆	-10.2857
㸃檢	-10.2862
無異	-10.2865
本末	-10.2866
奪其	-10.2879
子儀	-10.2884
俯	-10.2886
行至	-10.2887
宫室	-10.2889
常山	-10.2895
不惟	-10.2896
從事	-10.2897
㕔	-10.2898
佃	-10.2899
世民	-10.2902
災異	-10.2908
字子	-10.2914
宗社	-10.2915
瓌	-10.2917
上謂	-10.2917
譖	-10.2921
摧	-10.2922
城南	-10.2923
大破	-10.2938
可否	-10.2939
殂	-10.294
艱難	-10.2943
所請	-10.2947
濠	-10.2949
披	-10.2953
滑	-10.2955
以求	-10.2958
虢	-10.2961
陛	-10.2964
般	-10.2964
王莽	-10.2967
福州	-10.297
都督府	-10.2972
時有	-10.2973
兄子	-10.298
饋	-10.2984
贇	-10.2984
晩	-10.2985
經制	-10.2993
堯舜	-10.2994
錢物	-10.2999
江翻	-10.3013
邏	-10.3015
城門	-10.3027
犬	-10.3027
主管	-10.3029
桃	-10.304
勾	-10.3043
之物	-10.3046
李氏	-10.3047
湖北	-10.3048
泊	-10.306
廣東	-10.3066
脫	-10.3066
將來	-10.3072
國王	-10.3074
泄	-10.3079
或謂	-10.3086
噐	-10.3086
測	-10.309
不易	-10.3091
活	-10.3095
覇	-10.31
叅	-10.3101
左僕射	-10.3103
簒	-10.3103
郝	-10.3103
翻又	-10.3108
顒	-10.3117
笞	-10.3118
元帝	-10.3122
太常少卿	-10.3131
兩省	-10.3131
見上	-10.3133
耀	-10.3134
汝南	-10.3142
山川	-10.3143
責授	-10.3146
召還	-10.3148
焦	-10.3149
有竒	-10.3149
於天下	-10.3149
潞	-10.315
所欲	-10.3157
飭	-10.3159
聰明	-10.3159
郡守	-10.3163
魁	-10.3163
鬭	-10.3165
熾	-10.3166
繕	-10.3169
賜名	-10.3172
冀州	-10.3181
權發遣	-10.3182
十餘人	-10.3191
晋	-10.3202
汙	-10.3202
刑部尚書	-10.3203
潁川	-10.3207
國史	-10.3208
奠	-10.3209
滑州	-10.321
不自安	-10.3218
兩路	-10.3222
城西	-10.3228
使疏吏翻	-10.323
有詔	-10.3232
寓	-10.3233
塵	-10.3233
囂	-10.3237
之使	-10.324
宣帝	-10.3245
吕翻	-10.3245
列傳	-10.3247
貴妃	-10.3248
叡	-10.3253
於民	-10.3255
相州	-10.3256
上聞	-10.3264
黑	-10.3265
弭	-10.3268
灼	-10.3272
自為	-10.3273
之憂	-10.3275
角翻	-10.3277
之亂	-10.3278
戰死	-10.3284
切又	-10.3286
囊	-10.3287
荆湖	-10.3289
以歸	-10.3292
駢	-10.3297
頥	-10.3298
尊號	-10.3299
翔	-10.3299
之論	-10.33
枝	-10.3302
狹	-10.3303
遍	-10.3304
一等	-10.3315
范陽	-10.3316
畝	-10.3318
之世	-10.3321
三十六	-10.333
所過	-10.3331
所云	-10.3333
不食	-10.3334
又奏	-10.3336
騎兵	-10.3337
殿中	-10.334
新法	-10.3341
不法	-10.3342
甚多	-10.3358
關中	-10.3358
于朝	-10.3361
滎陽	-10.3364
何不	-10.3368
俄	-10.3368
跪	-10.3369
河朔	-10.3369
勒停	-10.3373
蘭州	-10.3377
綬	-10.338
所敗	-10.338
罪人	-10.3383
十七年	-10.3383
旻	-10.3384
途	-10.3385
其城	-10.3386
宫人	-10.3387
進築	-10.3394
亦曰	-10.3395
浙	-10.3397
磨	-10.3402
也且	-10.3403
郊祀	-10.3404
勝非	-10.3406
輜重	-10.3407
凝	-10.3419
呈	-10.3421
恬	-10.3422
三司使	-10.343
上黨	-10.343
根本	-10.3431
謀反	-10.3431
魏王	-10.3436
恂	-10.3439
狐	-10.3439
十六日	-10.3439
豪傑	-10.344
永安	-10.344
中使	-10.3441
完顔	-10.3441
今從之	-10.3444
銷	-10.3452
迭	-10.3456
泛	-10.3461
永興	-10.3463
縁邊	-10.3466
所獲	-10.3467
敖	-10.347
似道	-10.3477
以書	-10.3487
斃	-10.3491
揖	-10.3491
安能	-10.3494
應之	-10.3494
並令	-10.3495
其徒	-10.3495
馭	-10.3506
輅	-10.3507
餘衆	-10.3508
廂	-10.351
差役	-10.3518
諸國	-10.3527
邁	-10.3534
知樞宻院事	-10.3534
聞其	-10.3536
弟子	-10.3536
家人	-10.3548
矣今	-10.3548
栗	-10.3549
最為	-10.355
諮	-10.3557
有一	-10.3559
沐	-10.3562
故城	-10.3564
夲	-10.3566
凉州	-10.3573
懦	-10.3573
㳺	-10.3575
使其	-10.3585
捉	-10.3588
為右	-10.359
囬	-10.3606
他人	-10.361
商人	-10.3615
復遣	-10.3615
孟子	-10.3617
欣	-10.3619
建安	-10.3619
不堪	-10.3619
要害	-10.3623
兩淮	-10.363
飬	-10.3631
上疏曰	-10.3632
珙	-10.3639
噶	-10.364
瑀	-10.3642
端明殿學士	-10.3644
部曲	-10.3644
注云	-10.3644
己夘	-10.3645
苟	-10.3647
者非	-10.3651
浙東	-10.3655
所當	-10.3657
紳	-10.3664
紿	-10.3665
其職	-10.3665
甄	-10.3667
大學士	-10.3681
肅宗	-10.3684
受之	-10.3688
淹	-10.3695
家屬	-10.3697
亦當	-10.3697
可為	-10.3699
底	-10.3699
毗	-10.3704
瑋	-10.3707
人材	-10.3708
純仁	-10.3711
稱臣	-10.3711
親戚	-10.3714
甚厚	-10.3716
梁主	-10.3716
行事	-10.3718
障	-10.3718
九日	-10.3722
可見	-10.3725
之西	-10.3726
瑗	-10.3727
僑	-10.3734
人數	-10.3734
流民	-10.3734
中有	-10.3735
輟	-10.3736
大禮	-10.3738
大體	-10.3742
不失	-10.3745
此皆	-10.3749
劫	-10.3753
之失	-10.3755
豈非	-10.3762
廷臣	-10.3763
詠	-10.3766
主之	-10.3769
財賦	-10.3771
其弊	-10.3774
地理志	-10.3775
飲食	-10.3775
為天下	-10.3777
不幸	-10.3777
大河	-10.3786
還宫	-10.3786
蠧	-10.3787
其才	-10.3798
嘗為	-10.3799
三千人	-10.3804
伏兵	-10.3807
楷	-10.3808
光禄大夫	-10.3808
糧草	-10.3813
之才	-10.3817
記曰	-10.3817
而有	-10.382
譯	-10.3821
竦	-10.3829
法令	-10.3831
後宫	-10.3831
紂	-10.3832
努	-10.3834
二年春正月	-10.3837
山陽	-10.3845
妹	-10.3849
漢王	-10.3851
金國	-10.3854
者乎	-10.3855
祔	-10.3857
吕公著	-10.3859
禾	-10.3861
座	-10.3864
詩賦	-10.3865
不止	-10.3874
覩	-10.3874
洎	-10.3874
值	-10.3876
迷	-10.3879
奉行	-10.3881
王室	-10.3886
禁止	-10.3891
觀望	-10.3893
有㫖	-10.3895
安置	-10.3895
之内	-10.3906
為于	-10.3907
織	-10.3914
何故	-10.3915
入于	-10.3917
燧	-10.3919
濟南	-10.392
庠	-10.392
君之	-10.3922
中尉	-10.3924
上供	-10.3924
元年春正月	-10.3926
上命	-10.3926
屯兵	-10.3929
寫	-10.3929
牟	-10.3931
佳	-10.3931
十八年	-10.3936
右僕射	-10.3936
重兵	-10.3941
武氏	-10.3941
巖叟	-10.3945
冐	-10.3946
繹	-10.3947
丹陽	-10.3949
檀	-10.395
訊	-10.3951
爾等	-10.3954
言于	-10.3958
措	-10.3959
西賊	-10.3961
已見	-10.3973
州人	-10.3975
洮	-10.398
鄒	-10.3982
之孫	-10.3982
羸	-10.3985
朱勝非	-10.3987
信之	-10.3991
其身	-10.3992
為民	-10.3992
暑	-10.3995
估	-10.3997
賚	-10.3997
之弟	-10.3998
童貫	-10.4
其下	-10.4002
四夷	-10.4006
莫能	-10.4007
慶厯	-10.4007
恐其	-10.4009
授以	-10.4009
之黨	-10.401
齊人	-10.4021
紇	-10.4022
沉	-10.4023
白馬	-10.4023
邕	-10.4028
矣然	-10.4031
守備	-10.4031
戸部	-10.4035
壅	-10.4036
悖	-10.4036
文書	-10.4036
入宫	-10.4041
杞	-10.4041
吕大防	-10.4042
俠	-10.4042
為皇太子	-10.4043
若此	-10.4045
門下侍郎	-10.4045
鄂州	-10.4047
長樂	-10.4054
廪	-10.4056
賢者	-10.4056
帝崩	-10.4059
召對	-10.4059
械	-10.406
埶	-10.4062
事有	-10.4065
等奏	-10.4066
不明	-10.4067
留之	-10.4067
梓	-10.4068
因其	-10.4069
言路	-10.4072
軍旅	-10.4076
起居郎	-10.4076
不識	-10.4079
臣之	-10.4082
两	-10.4086
之路	-10.4089
棟	-10.409
浙江	-10.4096
發明	-10.4104
廓	-10.4109
愿	-10.4109
汰	-10.411
河決	-10.4113
諸科	-10.4114
鄆	-10.4117
納之	-10.4118
貲	-10.4119
金城	-10.4128
昶	-10.413
晨	-10.4132
今陛下	-10.4133
英宗	-10.414
城外	-10.4141
朝臣	-10.4141
其君	-10.4142
憑	-10.4148
賁	-10.415
愆	-10.415
冬十二月	-10.4154
易以	-10.4159
山陵	-10.4164
都部署	-10.4168
授之	-10.4172
舌	-10.4172
察其	-10.4175
前此	-10.4177
其民	-10.4179
不少	-10.418
龍圖閣直學士	-10.4181
自謂	-10.4181
如字	-10.4182
犒	-10.4183
徽猷閣待制	-10.4183
伏望聖慈	-10.4186
梟	-10.4186
冶	-10.4188
永樂	-10.4191
者衆	-10.4192
趙普	-10.4198
討賊	-10.4199
范純仁	-10.4201
騐	-10.4204
陪	-10.4205
秋九月	-10.4211
碎	-10.422
帝怒	-10.4222
琛	-10.4223
降者	-10.4223
欺罔	-10.4224
魯侯	-10.4226
而復	-10.4226
雙	-10.4226
事體	-10.4227
十四日	-10.4235
帝命	-10.4237
飲酒	-10.4239
㕘	-10.4239
城北	-10.4239
貝	-10.4255
不滿	-10.4267
也臣	-10.4271
燭	-10.4277
僻	-10.4278
回紇	-10.4279
㦸	-10.4281
今乃	-10.4282
三十萬	-10.4283
掘	-10.4283
臣言	-10.4285
都城	-10.4288
奭	-10.4295
壮	-10.4296
昱	-10.4297
袍	-10.4297
帥讀	-10.4304
户部尚書	-10.431
尤甚	-10.4311
自守	-10.4316
宗皇帝	-10.4316
陜州	-10.4316
餘見通鑑	-10.4318
眉	-10.4321
兼侍讀	-10.4321
少府	-10.4322
三代	-10.4325
以進	-10.433
經略司	-10.4336
為亂	-10.4341
直龍圖閣	-10.4349
無得	-10.4353
琰	-10.4353
以疾	-10.4362
第五	-10.4363
州安置	-10.4369
稹	-10.4369
提刑	-10.437
彛	-10.437
廩	-10.4371
史官	-10.4374
鑄錢	-10.4375
搆	-10.4375
之屬	-10.4376
出身	-10.4376
北面	-10.4377
後來	-10.4381
人多	-10.4385
札	-10.4388
癸夘	-10.4389
宼	-10.439
禮樂	-10.4391
王旦	-10.4391
數所	-10.4402
錢糧	-10.4408
退保	-10.4409
濤	-10.4411
枕	-10.4412
輔政	-10.4412
蜀主	-10.4413
議和	-10.4414
繪	-10.4414
雍州	-10.4416
鄜延路	-10.4422
貯	-10.4427
三十年	-10.4433
孝宗	-10.4437
大将軍	-10.4437
不納	-10.4439
居正	-10.4442
攜	-10.4445
所生	-10.4445
等事	-10.4447
交通	-10.4447
藩鎮	-10.445
縣界	-10.4455
若水	-10.4457
疋	-10.4461
和州	-10.4461
男女	-10.4462
中正	-10.4462
四面	-10.4462
戰於	-10.4463
萬物	-10.4465
左丞	-10.4467
衆人	-10.4468
萬石	-10.4469
世宗	-10.4471
真定	-10.4473
國朝	-10.4474
死罪	-10.4474
之望	-10.4477
之君	-10.448
受其	-10.4484
混	-10.4485
濁	-10.4486
商賈	-10.4487
刋	-10.4488
年四月	-10.449
上䟽	-10.4496
詔諸路	-10.4498
編管	-10.4501
置酒	-10.4506
縣西北	-10.4508
贄	-10.4509
以禮	-10.4509
通典	-10.4512
中書侍郎	-10.4516
兵至	-10.4517
唱	-10.4523
七百	-10.4525
大驚	-10.4527
經畧司	-10.4529
龎	-10.4536
已定	-10.4538
一官	-10.454
灾	-10.4541
暇	-10.4541
涇原路	-10.4542
猝	-10.4542
九十	-10.4548
畋	-10.4552
觀其	-10.4557
藍	-10.4559
王韶	-10.456
之東	-10.456
其主	-10.4561
三分	-10.4563
渙	-10.4564
曰率	-10.4566
永平	-10.4568
兩翻	-10.4573
生民	-10.4574
親王	-10.4575
佩	-10.4579
或以	-10.4579
兼侍講	-10.458
兇	-10.4582
衙	-10.4582
因此	-10.4583
不忠	-10.4583
器械	-10.4584
河水	-10.459
琪	-10.459
常州	-10.4596
槍	-10.46
汶	-10.4603
觸	-10.4607
成帝	-10.4612
不成	-10.4612
乃得	-10.4612
萬年	-10.4613
京畿	-10.4616
日厯	-10.4617
領兵	-10.4621
莊宗	-10.4622
乆之	-10.4627
河州	-10.4629
憐	-10.4629
茶鹽	-10.463
副將	-10.463
市易	-10.4631
及諸	-10.4632
上流	-10.4634
改曰	-10.4634
不允	-10.4638
膽	-10.4641
百餘里	-10.4644
雋	-10.4644
居民	-10.4645
怒曰	-10.4646
承㫖	-10.4654
憲宗	-10.4657
豫州	-10.4659
吕頥浩	-10.4659
雄州	-10.4664
弁	-10.4664
种	-10.4674
漳	-10.4676
荅	-10.4678
置之	-10.4681
阮	-10.4683
註	-10.4683
忠賢	-10.4685
圖之	-10.4686
二十五	-10.4687
孺	-10.4688
何必	-10.4689
孔子曰	-10.4697
不死	-10.4697
搜	-10.4698
告之	-10.47
之風	-10.4701
吳王	-10.4701
上時掌翻	-10.4701
既至	-10.4701
即皇帝位	-10.4702
有疾	-10.4703
皆云	-10.4703
百司	-10.4707
且曰	-10.4712
建武	-10.4717
一軍	-10.4718
蠶	-10.4718
民田	-10.4721
甸	-10.4721
琅邪	-10.4722
一言	-10.4724
艦	-10.4726
靈武	-10.4727
易之	-10.4728
日食	-10.4729
郤	-10.4729
壕	-10.473
進用	-10.4731
聖徳	-10.4732
去之	-10.4734
之敗	-10.4738
解題曰按	-10.4738
廖	-10.4739
隕	-10.4745
歙	-10.4751
武徳	-10.4755
特賜	-10.4755
區區	-10.4756
狡	-10.4759
蟲	-10.4762
貧民	-10.4764
之盛	-10.4768
部署	-10.477
猶有	-10.4773
猷	-10.4776
除之	-10.4778
迄	-10.4779
倖	-10.4789
將即	-10.4794
卯	-10.4794
本志	-10.4794
為司空	-10.4795
二聖	-10.4808
以謂	-10.4808
三曰	-10.481
死於	-10.481
文公	-10.4814
帝王	-10.4818
代州	-10.482
故城在今	-10.4822
中大夫	-10.4824
掖	-10.4825
夷狄	-10.4831
之南	-10.4832
澗	-10.4835
鄉里	-10.4839
可令	-10.4848
舊法	-10.4849
可乎	-10.4849
是歲	-10.4849
邈	-10.4849
扇	-10.4857
惲	-10.4857
縣東南	-10.4859
不忘	-10.4863
杲	-10.4864
之實	-10.4864
城東	-10.4865
衣冠	-10.4865
又請	-10.4867
萬五千	-10.4868
揺	-10.4868
築城	-10.487
宣和	-10.4872
吕惠卿	-10.4874
筭	-10.4874
盱眙	-10.4876
六百	-10.4878
簽	-10.4879
未易	-10.488
進封	-10.4881
然而	-10.4886
考之	-10.4887
安民	-10.4887
閤門祗候	-10.489
遂罷	-10.4891
球	-10.4894
赫	-10.4895
如有	-10.4898
鉞	-10.49
坤	-10.49
者悉	-10.4902
恊	-10.4902
北京	-10.4906
慶州	-10.4907
總兵官	-10.4908
藁	-10.4913
瓚	-10.4915
讜	-10.4916
勒兵	-10.4918
愬	-10.4919
為主	-10.493
劵	-10.4934
無敢	-10.4938
引去	-10.494
不一	-10.4948
故城在	-10.4949
兵攻	-10.4952
羗	-10.4954
踵	-10.4956
事理	-10.4958
苻	-10.4959
城在	-10.496
嬖	-10.4965
前代	-10.4973
自立	-10.4977
王欽若	-10.498
行宫	-10.4981
言曰	-10.4985
上書言	-10.4989
鶴	-10.4996
陋	-10.4996
等曰	-10.4997
無過	-10.4997
高麗	-10.4999
營田	-10.4999
故道	-10.5005
縣東北	-10.5005
新城	-10.5007
售	-10.501
改官	-10.5011
稱帝	-10.5014
所書	-10.5014
無忌	-10.5014
所見	-10.5015
繼之	-10.5017
劭	-10.5018
邕州	-10.502
讀書	-10.5024
鄭州	-10.5027
島	-10.5029
者乃	-10.503
誡	-10.5036
函	-10.5037
覃	-10.5037
乃復	-10.5039
匪	-10.5041
而進	-10.5043
不暇	-10.5046
自然	-10.5047
同知樞宻院事	-10.5049
江夏	-10.505
京官	-10.5051
少詩	-10.5052
糶	-10.5053
罷去	-10.5055
十八日	-10.5055
典禮	-10.5059
殿前	-10.5066
雖不	-10.5068
親屬	-10.5069
父老	-10.5071
之所以	-10.5073
臣請	-10.5074
為政	-10.5078
直言	-10.5078
初置	-10.5079
不可復	-10.5079
棘	-10.5082
李克用	-10.5083
標	-10.5083
有三	-10.5088
十九年	-10.5089
而入	-10.509
知府	-10.5094
西人	-10.51
以獻	-10.5101
為太尉	-10.5105
樞宻副使	-10.5108
破賊	-10.5113
十七日	-10.5114
剽	-10.5115
荘	-10.5117
散騎常侍	-10.5118
攷	-10.5118
府界	-10.5119
論語	-10.5123
廬州	-10.5126
璟	-10.5126
事也	-10.5127
兩制	-10.5127
利用	-10.5129
班志	-10.513
朱熹	-10.5133
曄	-10.5134
李憲	-10.5135
祕	-10.5135
二曰	-10.5136
琬	-10.5136
窘	-10.5136
誤國	-10.5143
王者	-10.5144
九江	-10.5145
若有	-10.5148
上乃	-10.515
士人	-10.5151
辜	-10.5154
萬户	-10.5155
當是	-10.5155
桓公	-10.5156
修入	-10.516
臘	-10.5161
之餘	-10.5162
者則	-10.5164
蠻夷	-10.5164
外戚	-10.5168
酬	-10.5176
戶	-10.5178
有言	-10.5179
潔	-10.5179
必先	-10.5181
韓絳	-10.5185
大名	-10.5186
具奏	-10.5187
景靈宫	-10.5194
以報	-10.5195
之恩	-10.5196
西河	-10.5198
應天	-10.5202
不取	-10.5202
鮑	-10.5204
罷為	-10.5208
乃令	-10.5209
可行	-10.5209
上曰此	-10.5211
封禪	-10.5213
治直	-10.5214
因而	-10.5217
而罷	-10.5218
所向	-10.5218
安世	-10.5219
猥	-10.5222
畤	-10.5223
之勞	-10.5229
推官	-10.5229
旬日	-10.5236
論事	-10.5237
喧	-10.524
公論	-10.524
其法	-10.5243
治道	-10.5245
左丞相	-10.5248
之說	-10.5249
自知	-10.5252
復用	-10.5255
濠州	-10.5256
又令	-10.5257
其妻	-10.5258
近者	-10.5261
卦	-10.5267
侍衛	-10.527
王元	-10.5271
人人	-10.5274
勘㑹	-10.5278
總領	-10.5279
祿山	-10.5279
見於	-10.528
婚	-10.5282
遷官	-10.5284
掃	-10.5286
咸陽	-10.5286
縣西南	-10.5295
集賢校理	-10.5297
中書舎人	-10.5301
第三	-10.5305
紛	-10.5309
握	-10.5309
堅守	-10.5314
今欲	-10.5329
二十里	-10.5331
侯景	-10.5331
大國	-10.5333
脚	-10.5337
打	-10.5338
疑之	-10.5339
以濟	-10.534
土地	-10.5341
杜佑曰	-10.5342
仍舊	-10.5343
二府	-10.5344
出奔	-10.5345
兩府	-10.5345
諭以	-10.5346
召之	-10.5347
不進	-10.5347
鹽鐵	-10.5349
芝	-10.535
不服	-10.5352
班師	-10.5354
所陳	-10.5355
芮	-10.5359
官制	-10.5364
拂	-10.5364
滔	-10.5365
為丞相	-10.5365
奉表	-10.5369
當在	-10.5369
恢復	-10.537
羽林	-10.5372
妙	-10.5374
休息	-10.538
京朝官	-10.5381
十餘年	-10.5384
其説	-10.5387
南山	-10.5394
蜀人	-10.5394
無人	-10.5395
將佐	-10.5396
江北	-10.5396
提要	-10.5398
與戰	-10.5405
俶	-10.5405
允文	-10.5411
大懼	-10.5414
多所	-10.5419
出降	-10.5421
羲	-10.5422
大功	-10.5423
内有	-10.5424
二三	-10.5426
回鶻	-10.543
户口	-10.5434
珣	-10.5435
杭	-10.5436
涪	-10.5438
奏言	-10.544
天地之	-10.544
起居舍人	-10.5441
政府	-10.5443
兼領	-10.5445
扶風	-10.5447
暗	-10.5449
壯士	-10.5451
北漢	-10.5451
因之	-10.5459
邯鄲	-10.5459
逐路	-10.5459
牌	-10.5462
韜	-10.5469
吝	-10.547
去處	-10.5471
司農寺	-10.5472
御筆	-10.5475
詔㫖	-10.5479
牓	-10.5484
揮	-10.5484
十五日	-10.5485
挫	-10.549
兩人	-10.5494
黄巢	-10.5497
兩宫	-10.5498
外任	-10.55
金陵	-10.5506
夏州	-10.5509
零	-10.5513
所能	-10.5524
治平	-10.5527
彧	-10.5529
等第	-10.5529
甥	-10.5533
骨肉	-10.5536
岀	-10.5539
事皆	-10.5544
浪	-10.5544
中書門下	-10.5545
而用之	-10.5545
事者	-10.5546
夀春	-10.5549
長知兩翻	-10.5553
股	-10.5554
凡三	-10.5554
鄭伯	-10.5558
懈	-10.5558
擊破之	-10.5559
時政	-10.5562
舊傳	-10.5562
邪正	-10.5563
事君	-10.5565
姻	-10.5565
軍承宣使	-10.5573
欲望	-10.5575
熲	-10.5576
羙	-10.5578
几	-10.5579
之重	-10.5579
半年	-10.5581
乗輿	-10.5581
為首	-10.5586
其他	-10.5586
此則	-10.5589
魏博	-10.5592
沖	-10.5593
鞠	-10.5597
百年	-10.5601
經畧	-10.5602
以成	-10.5604
拓	-10.5611
川陜	-10.5614
知諫院	-10.5615
水軍	-10.5616
世家	-10.5618
犇	-10.5624
梓宫	-10.5625
乃還	-10.5625
中都	-10.5629
每嵗	-10.5631
出城	-10.5635
裝	-10.5637
弘	-10.5638
狗	-10.564
平城	-10.564
者有	-10.5643
者即	-10.5644
圉	-10.5644
黄門	-10.5645
臣子	-10.5645
瀘州	-10.5647
添差	-10.5648
非有	-10.565
給之	-10.5655
銖	-10.5656
一嵗	-10.5656
之號	-10.5662
失之	-10.5664
樞密使	-10.5665
祇	-10.5671
不願	-10.5671
滄州	-10.5672
戩	-10.5675
縳	-10.5676
者甚衆	-10.5678
漢陽	-10.568
綜	-10.5681
元和	-10.5682
葺	-10.5691
酋長	-10.5695
守忠	-10.5695
境内	-10.57
魏州	-10.5701
臣謂	-10.5701
下令	-10.5704
則不	-10.5707
遣其	-10.5709
分道	-10.5716
見前	-10.5719
寝	-10.5721
特進	-10.5722
紛紛	-10.5723
廣平	-10.5725
入海	-10.5726
示之	-10.5729
弄	-10.5729
地名	-10.5739
禘	-10.5742
之權	-10.5744
傍	-10.5746
退而	-10.5748
昌言	-10.5748
極言	-10.5752
宦	-10.5753
五代志	-10.5755
以俟	-10.5756
久矣	-10.5757
不獲	-10.5759
何足	-10.5759
其數	-10.576
建州	-10.576
商量	-10.5761
泉州	-10.5773
神主	-10.5773
十二日	-10.5774
晉人	-10.5774
驍	-10.5792
汝愚	-10.5793
三軍	-10.5794
欲與	-10.5796
蹙	-10.5797
之文	-10.5799
分為	-10.5799
縣官	-10.5806
秘	-10.5807
尚有	-10.5812
正統	-10.5818
許州	-10.5819
勾當	-10.5822
三輔	-10.5822
汚	-10.5826
著作佐郎	-10.5826
守令	-10.5828
邾	-10.5828
則無	-10.5832
諫議大夫	-10.5834
廼	-10.5834
飯	-10.5835
棄之	-10.5835
内附	-10.584
黔	-10.5841
詔從之	-10.5844
弋	-10.5845
吳越	-10.5845
之主	-10.5847
水陸	-10.5847
峒	-10.5848
為司徒	-10.585
嚕	-10.5856
春三月	-10.5857
未㡬	-10.5858
所薦	-10.5858
逕	-10.5859
總督	-10.586
附此	-10.5864
青唐	-10.5865
提舉司	-10.5873
臺諌	-10.5873
䜛	-10.5876
郁	-10.5878
五帝	-10.5879
進取	-10.5881
有才	-10.5884
軍政	-10.5893
懷光	-10.5894
暨	-10.5894
渥	-10.5895
從而	-10.5896
柏	-10.5897
二員	-10.5897
沿邊	-10.5901
䑓	-10.5907
諸處	-10.5911
衣服	-10.5913
逰	-10.5913
師中	-10.5914
不待	-10.5915
構	-10.5919
熱	-10.5921
之始	-10.5921
大舉	-10.5927
歐陽	-10.5929
為姦	-10.5934
六曹	-10.5935
帝即位	-10.5936
掌翻	-10.5937
政目	-10.5942
不知其	-10.5944
涕泣	-10.5945
而殺之	-10.5948
事實	-10.5951
歆	-10.5953
盡忠	-10.5956
獨不	-10.5957
不實	-10.5958
忱	-10.596
詹	-10.596
華州	-10.5961
斫	-10.5964
也陛下	-10.5967
陛下之	-10.5975
諸公	-10.5976
北流	-10.5977
圍之	-10.5977
太常寺	-10.5981
上怒	-10.5984
羞	-10.5986
天子之	-10.5988
上時	-10.5988
爰	-10.5988
相國	-10.5989
同州	-10.599
之難	-10.599
員外郎	-10.5993
稼	-10.5998
黙然	-10.6004
敵騎	-10.6005
止於	-10.6005
抄	-10.6005
繒	-10.601
騎竒寄翻	-10.601
世充	-10.6012
恚	-10.6013
無一	-10.6013
冉	-10.6015
四路	-10.6017
頥浩	-10.6026
固請	-10.6026
技	-10.6028
請罷	-10.6032
闇	-10.6032
今已	-10.6036
為節度使	-10.6037
城人	-10.6047
道士	-10.6047
遂為	-10.605
右丞相	-10.6051
以私	-10.6052
年號	-10.6053
姊	-10.6054
者三	-10.6058
兵士	-10.6058
為害	-10.6061
四州	-10.6064
思明	-10.6064
太宰	-10.6066
汜	-10.6068
東方	-10.607
渝	-10.607
天章閣待制	-10.6071
工部尚書	-10.6072
詡	-10.6076
軫	-10.6077
以實	-10.6078
後周	-10.6081
之力	-10.6084
梁燾	-10.6085
簾	-10.6086
並罷	-10.6086
晉主	-10.6088
但以	-10.6088
自此始	-10.6092
穎	-10.6093
藻	-10.6095
南朝	-10.6102
朝士	-10.6103
大風	-10.6104
不能自	-10.6108
付之	-10.6109
曰彼	-10.6111
悉以	-10.6111
熙寧	-10.6117
親征	-10.6122
譛	-10.6123
河南府	-10.6123
天聖	-10.6124
京兆尹	-10.6124
括地志	-10.6124
得一	-10.6127
六軍	-10.6133
鋪	-10.6138
謁者	-10.614
染	-10.6141
今從實録	-10.6141
時事	-10.6143
嫉	-10.6144
為天子	-10.6149
如舊	-10.6153
御集	-10.6155
以正	-10.6158
洙	-10.616
綵	-10.616
都䕶	-10.6161
紘	-10.6161
籌	-10.6163
銘	-10.6166
北朝	-10.6166
五百人	-10.6167
北方	-10.6167
六人	-10.617
之辭	-10.617
祭祀	-10.6174
敢言	-10.6175
尚書左僕射	-10.6176
侍講	-10.6179
玄	-10.6182
其書	-10.6182
惰	-10.6187
少卿	-10.6189
役法	-10.6204
毫	-10.6204
之道也	-10.621
韓侂胄	-10.6211
本部	-10.6212
萇	-10.6215
文臣	-10.6218
隴右	-10.6219
申明	-10.6221
而不知	-10.6225
地分	-10.6226
繡	-10.6231
名在	-10.6232
味	-10.6235
免役	-10.6239
交結	-10.624
徳明	-10.6242
尚未	-10.6246
衛尉	-10.6248
慤	-10.6251
不加	-10.6251
便宜	-10.6252
隣	-10.6253
黄金	-10.6253
應劭曰	-10.6255
足矣	-10.6257
冢	-10.6257
諧	-10.6257
亦未	-10.6263
不知所	-10.6267
二十八	-10.6267
涇州	-10.6273
粮	-10.6274
西平	-10.6274
獠	-10.6277
領軍	-10.6278
其志	-10.6278
必無	-10.6279
永嘉	-10.6279
柔然	-10.6281
義勇	-10.6281
無故	-10.6282
以應	-10.6294
暢	-10.6304
招撫	-10.6308
不可得	-10.6308
裏	-10.6311
愔	-10.6311
巷	-10.6313
宜令	-10.6314
執之	-10.6316
捧	-10.6318
下邳	-10.6318
亦言	-10.6322
睢	-10.6323
經畧使	-10.6324
奄	-10.6326
表裏	-10.6327
敗績	-10.633
疑其	-10.6332
蘄	-10.6332
覺察	-10.6338
賞賜	-10.6344
多少	-10.6345
是故	-10.6346
置司	-10.6347
章疏	-10.6347
講和	-10.6348
居之	-10.6349
棺	-10.6349
桐	-10.635
吳主	-10.6351
晁	-10.6366
范祖禹	-10.6368
瘞	-10.6369
同心	-10.6371
斧	-10.6371
薦之	-10.6372
未定	-10.6378
之害	-10.6381
大都督	-10.6381
罪惡	-10.6382
論奏	-10.6384
頡	-10.6385
征伐	-10.6386
楚人	-10.6387
戢	-10.639
禮義	-10.6393
之要	-10.6393
覈	-10.6395
被執	-10.6395
宋公	-10.6396
翰林學士承㫖	-10.6397
輕騎	-10.6398
蔚	-10.6399
謂其	-10.6403
將校	-10.6406
都省	-10.6412
北界	-10.6413
立為	-10.6414
以是	-10.6417
聖明	-10.6417
江都	-10.6418
因循	-10.6425
上欲	-10.6425
募兵	-10.6426
見錢	-10.6433
畧曰	-10.6433
太上皇帝	-10.6435
遣將	-10.6436
定國	-10.644
垂簾	-10.6442
樞密	-10.6445
登城	-10.6449
奏聞	-10.6449
收其	-10.6452
欲立	-10.6453
民兵	-10.6455
耳今	-10.6457
乞令	-10.6458
統軍	-10.646
利州	-10.6463
稔	-10.6463
邉事	-10.6464
進軍	-10.6466
奉聖㫖	-10.6468
萬騎	-10.647
欒	-10.6473
衛士	-10.6475
軍器	-10.6481
都虞候	-10.6482
樸	-10.6483
罷相	-10.6485
所置	-10.6488
境上	-10.6492
逢吉	-10.6493
汝州	-10.6497
髙陽	-10.6502
號為	-10.6506
財物	-10.6509
鄧州	-10.6509
逞	-10.6509
北人	-10.651
廣漢	-10.6511
晞	-10.6514
四萬	-10.6515
姑息	-10.6516
皆無	-10.652
之學	-10.652
乃是	-10.6524
以待之	-10.6533
燕京	-10.6535
八人	-10.6537
夙夜	-10.6539
承天	-10.6544
伐之	-10.6546
招納	-10.6548
的	-10.6556
池州	-10.6557
不測	-10.6558
裘	-10.6558
勤王	-10.6561
怨望	-10.6564
不可用	-10.6567
控	-10.6572
安西	-10.6572
彥	-10.6576
光弼	-10.6577
衙前	-10.6578
猜	-10.6578
武藝	-10.6578
天祥	-10.6585
問曰	-10.6586
北地	-10.6588
亦非	-10.6591
公曰	-10.6595
之甚	-10.6595
其首	-10.6596
而行之	-10.6598
上幸	-10.6599
對曰臣	-10.6601
標目	-10.6603
將吏	-10.6604
即以	-10.6606
覿	-10.6606
嗚呼	-10.6607
悅	-10.6607
事在	-10.6609
炳	-10.661
乃可	-10.6612
綂	-10.6621
引見	-10.6623
王宗	-10.6624
明州	-10.6627
承宗	-10.6627
九州	-10.663
擢用	-10.663
曰天	-10.6633
盍	-10.6633
得㫖	-10.6636
唐制	-10.6638
豫州刺史	-10.6645
臨江	-10.6648
縝	-10.6648
隸	-10.665
思之	-10.665
晃	-10.6652
車騎將軍	-10.6655
方平	-10.6657
愛之	-10.666
鄆州	-10.6662
康王	-10.6663
二十二	-10.6668
至公	-10.667
常侍	-10.6673
蔡州	-10.6675
𤓰	-10.6677
海州	-10.6681
刪去	-10.6684
昻	-10.6692
人有	-10.6695
便殿	-10.6696
劾奏	-10.6697
不信	-10.6697
延夀	-10.67
南詔	-10.6702
州牧	-10.6703
朝堂	-10.6708
復還	-10.6708
孝皇帝	-10.671
逐之	-10.6714
年十月	-10.6716
匠	-10.6717
違者	-10.6717
不屈	-10.6719
可得	-10.6722
買馬	-10.6723
崧	-10.6724
保明	-10.6725
人所	-10.6725
館職	-10.6728
此其	-10.6728
論者	-10.6733
北平	-10.6735
莫如	-10.6736
君父	-10.6736
武德	-10.6736
上都	-10.6742
刑部侍郎	-10.6743
二十七	-10.6744
僖	-10.6744
熒惑	-10.6744
牀	-10.6749
餘皆	-10.6751
之位	-10.6754
提刑司	-10.6755
乘輿	-10.6755
帝幸	-10.6756
男子	-10.6763
踰年	-10.6765
黍	-10.6768
衢	-10.6772
等以	-10.6774
望風	-10.6774
邊臣	-10.6776
乗勝	-10.6777
遣還	-10.6779
煥	-10.6779
愛民	-10.678
逺方	-10.6783
主事	-10.6787
版	-10.6788
不知何	-10.6789
亳州	-10.6789
無有	-10.6792
宣王	-10.6801
黼	-10.6802
鎮撫	-10.6808
言者論	-10.6813
甲兵	-10.6815
認	-10.6815
直史館	-10.6815
諂	-10.6816
曩	-10.6817
新舊	-10.6818
叩頭	-10.6819
弓手	-10.6819
為患	-10.6821
我軍	-10.6822
三鎮	-10.6833
先王之	-10.6836
别無	-10.6839
所知	-10.6842
乃出	-10.6843
朝廷以	-10.6843
蛇	-10.6844
愷	-10.6846
從者	-10.6847
翦	-10.6848
饒州	-10.6849
越王	-10.6851
備禦	-10.6853
為此	-10.6854
椿	-10.6855
沆	-10.6861
宻院	-10.6864
狥	-10.6867
兩河	-10.6868
不治	-10.6871
之半	-10.6872
議事	-10.6872
從子	-10.6877
賑濟	-10.6877
間道	-10.688
餘黨	-10.6881
學校	-10.6881
學官	-10.6882
而又	-10.6885
一方	-10.6886
得志	-10.6887
臻	-10.6888
大名府	-10.6892
乃使	-10.6894
民有	-10.6895
已行	-10.6895
劉裕	-10.6896
増入	-10.6904
未足	-10.6906
國主	-10.6907
今日之	-10.6912
渤海	-10.6912
迂	-10.6912
見任	-10.6918
武功	-10.6924
皇城使	-10.6925
石勒	-10.6926
京口	-10.6929
其將	-10.6929
金吾	-10.6933
年正月	-10.6935
莘	-10.6936
都司	-10.694
事不	-10.694
雨雹	-10.6941
九人	-10.6942
系	-10.6947
逋	-10.6947
無名	-10.6947
徃來	-10.6948
北海	-10.6949
淮陽	-10.6953
覬	-10.6955
開封府界	-10.6957
之處	-10.696
其謀	-10.6962
珏	-10.6962
依前	-10.6964
克之	-10.6965
顗	-10.6965
將相	-10.6966
薛史	-10.6967
滄	-10.6968
御營	-10.697
首尾	-10.6974
姦臣	-10.6979
禄山	-10.6979
諸葛	-10.6982
吕夷簡	-10.6982
仙芝	-10.6983
璠	-10.6985
趙氏	-10.6985
圜丘	-10.6985
明矣	-10.6986
供職	-10.6987
自相	-10.6989
蠡	-10.6989
特與	-10.6989
多不	-10.6993
朕意	-10.6994
上有	-10.6995
若以	-10.6996
議之	-10.6996
二帝	-10.7002
黥	-10.7009
濵	-10.7009
仍以	-10.701
之用	-10.7014
楊氏	-10.7015
過失	-10.7016
千户	-10.7017
天道	-10.7018
以列	-10.7019
尚書右丞	-10.7021
長驅	-10.7025
祖宗之	-10.7026
叔父	-10.7027
孝文	-10.703
葵	-10.7032
一朝	-10.7033
繋	-10.7035
復有	-10.7035
一萬	-10.7036
郭子儀	-10.7037
殆盡	-10.704
西界	-10.7042
不預	-10.7042
有異	-10.7043
塟	-10.7043
大金	-10.7046
劉錡	-10.7048
澹	-10.7049
從之詔	-10.7053
大雨	-10.7056
行者	-10.7057
觧題曰	-10.7057
宗正	-10.706
拒守	-10.7061
頸	-10.7063
訐	-10.7063
以給	-10.7064
仁義	-10.7065
郷	-10.7066
所出	-10.7069
欲使	-10.7069
道也	-10.707
聖心	-10.7071
則必	-10.7072
之詔	-10.7073
竟不	-10.708
當國	-10.7085
山谷	-10.7087
盡力	-10.7096
東陽	-10.7097
諭之	-10.7098
以救	-10.7099
奉祠	-10.7101
所親	-10.7102
海陵	-10.7103
武安	-10.7108
十餘里	-10.7109
嘆	-10.7109
王建	-10.7111
蔡卞	-10.7112
以為言	-10.7114
天之	-10.7119
壤	-10.7119
宣仁	-10.712
三年春正月	-10.7121
不恤	-10.7124
萬計	-10.7128
襄王	-10.7128
以圖	-10.7128
聚衆	-10.7129
觀文殿大學士	-10.7131
委任	-10.7132
蔵	-10.7132
竝	-10.7136
繞	-10.7139
若干	-10.7142
代王	-10.7144
所論	-10.7145
四年春正月	-10.7146
各置	-10.7146
縣人	-10.7151
又音	-10.7153
安在	-10.7156
鉉	-10.7156
長孫	-10.7158
領之	-10.7159
衷	-10.7159
非常	-10.716
衣食	-10.7164
聊	-10.7165
武都	-10.7172
自當	-10.7174
鳳翔	-10.7175
患之	-10.7178
伏望陛下	-10.7178
勝負	-10.7179
扎	-10.7179
之吏	-10.7184
集議	-10.7184
二王	-10.7184
累年	-10.7185
𦍑	-10.7185
甚矣	-10.7186
譬	-10.719
叔孫	-10.719
蔑	-10.7191
嵗月	-10.7194
宗族	-10.7195
轉官	-10.7196
經術	-10.7199
以拒	-10.7203
兼侍中	-10.7205
國體	-10.7205
陳乞	-10.7206
都轉運使	-10.7208
亘	-10.7209
降户	-10.7212
之㑹	-10.7216
太僕	-10.7216
張氏	-10.7218
以慰	-10.7222
簽書	-10.7223
詔有司	-10.7225
舟師	-10.7229
馮翊	-10.723
或作	-10.7232
於前	-10.7234
有過	-10.7238
使疏	-10.7238
但云	-10.724
件	-10.7241
異議	-10.7243
元吉	-10.7244
至矣	-10.7246
明宗	-10.7249
封樁	-10.7249
其軍	-10.7249
遣其將	-10.7254
泚	-10.7254
可不	-10.7258
建成	-10.7264
有二	-10.7265
可知	-10.7266
留意	-10.7266
防禦使	-10.7267
三等	-10.7268
皆以為	-10.7269
貢舉	-10.7269
民心	-10.727
徳音	-10.7278
忠厚	-10.7279
正人	-10.7284
欲用	-10.7284
又按	-10.7285
其議	-10.7286
萬貫	-10.7289
有無	-10.7289
相持	-10.729
稱賀	-10.7297
恐非	-10.7297
降之	-10.7301
之戒	-10.7301
邢州	-10.7302
偵	-10.7305
詔罷	-10.7311
闕下	-10.7313
皆得	-10.7313
七人	-10.7315
曰臣聞	-10.7322
合肥	-10.7324
論之	-10.7326
陕西	-10.7328
告急	-10.7329
臨朝	-10.733
鴈門	-10.7335
稜	-10.7335
陽侯	-10.7337
嶠	-10.7339
錢帛	-10.7346
錦州	-10.7347
諸君	-10.7348
出塞	-10.7349
山南	-10.735
夏侯	-10.7351
涕	-10.7352
亦自	-10.7354
大旱	-10.7358
峴	-10.736
四千	-10.736
艘	-10.7362
擒之	-10.7363
張掖	-10.7364
嶷	-10.7368
寐	-10.7369
其兄	-10.737
給事	-10.737
四曰	-10.7372
何可	-10.7378
諳	-10.7379
朂	-10.738
不自	-10.7383
之氣	-10.7386
不以為	-10.7389
躁	-10.739
三品	-10.7391
降于	-10.7394
追尊	-10.7402
太史	-10.7408
建徳	-10.741
倉卒	-10.7411
聶	-10.7413
傲	-10.7414
又欲	-10.7414
交州	-10.7416
河東路	-10.7426
無子	-10.7426
南康	-10.7426
語言	-10.7427
建言	-10.743
人民	-10.7433
再任	-10.7436
父兄	-10.744
招安	-10.7442
加以	-10.7443
數萬人	-10.7443
吹	-10.7445
至誠	-10.7448
謂之曰	-10.7448
進奉	-10.745
南面	-10.7451
諸軍事	-10.7452
步騎	-10.7454
慧	-10.746
籠	-10.7462
五十里	-10.7466
甘泉	-10.7466
互相	-10.747
檢㑹	-10.7471
无	-10.7473
按察	-10.7473
帝意	-10.7474
州居住	-10.7483
文章	-10.7483
為御史大夫	-10.7485
非所	-10.7486
沈括	-10.7487
漢人	-10.7489
又命	-10.7489
南郡	-10.7494
鞅	-10.7495
助之	-10.7498
𢎞農	-10.7504
綱紀	-10.7504
意欲	-10.7506
氏為皇后	-10.7506
委之	-10.7506
城郭	-10.7509
二十一	-10.751
石頭	-10.751
倭	-10.7511
据	-10.7513
罷兵	-10.7517
起於	-10.7517
灋	-10.7518
濟河	-10.7518
網	-10.7519
衛大將軍	-10.7519
受詔	-10.7526
之前	-10.7527
不動	-10.7528
時為	-10.753
前軍	-10.7532
琨	-10.7532
軍興	-10.7533
故以	-10.7539
楚子	-10.755
四十里	-10.755
邠州	-10.7551
環慶路	-10.7552
有天下	-10.7554
相去	-10.7554
熙河	-10.7554
言陛下	-10.7555
既得	-10.7557
王倫	-10.7562
賫	-10.7562
四時	-10.7563
隳	-10.7564
五路	-10.7565
為侍中	-10.7565
撲	-10.7565
刑罰	-10.757
承平	-10.757
元符	-10.7571
其先	-10.7573
訪聞	-10.7576
二十三	-10.7584
伴	-10.7585
學士院	-10.7587
不避	-10.7587
盛徳	-10.7589
第四	-10.759
不意	-10.7591
数	-10.7591
已死	-10.7595
瑕	-10.7597
樞宻院言	-10.7598
有闕	-10.7599
又如字	-10.7602
正義	-10.7602
承制	-10.7603
郡太守	-10.7607
食之	-10.7608
安可	-10.7611
而能	-10.7613
用此	-10.7614
鼻	-10.7619
伎	-10.7619
衛侯	-10.7621
立子	-10.7626
賜以	-10.7626
修撰	-10.763
戰敗	-10.7633
焚其	-10.7635
西路	-10.7636
朔詔	-10.7637
上疏言	-10.764
從弟	-10.7642
夏竦	-10.7643
罹	-10.7643
未嘗不	-10.7648
城陷	-10.7659
統領	-10.7659
訛	-10.7664
海道	-10.7664
肩	-10.7667
之死	-10.7668
駱	-10.7669
亦如之	-10.767
而來	-10.767
猾	-10.7671
不豫	-10.7672
墻	-10.7673
中宗	-10.7673
㢘	-10.7674
壺	-10.7674
補外	-10.768
将士	-10.768
奉迎	-10.7682
太上皇	-10.7684
安樂	-10.7685
通州	-10.7685
𥘉	-10.7686
表請	-10.7687
歸于	-10.7688
銅錢	-10.7689
龍門	-10.7691
之策	-10.7691
駙馬都尉	-10.7693
我師	-10.7695
城上	-10.7697
洩	-10.7697
豎	-10.7699
天下幸甚	-10.7701
漲	-10.7701
東郡	-10.7711
宗弼	-10.7712
三省樞宻院	-10.7714
永昌	-10.7715
異時	-10.7715
交阯	-10.7721
佗	-10.7727
取士	-10.7729
責其	-10.7729
大呼	-10.7729
孽	-10.773
澤州	-10.7731
見在	-10.7732
興師	-10.7735
初無	-10.7735
皇祐	-10.7737
地界	-10.7737
軍國	-10.7741
㳂	-10.7743
何由	-10.7743
歩騎	-10.7745
鎮撫使	-10.7746
遂命	-10.7746
湜	-10.7747
不立	-10.7756
而上	-10.7759
且令	-10.7762
禮也	-10.7764
而自	-10.7768
蕃官	-10.7769
閹	-10.7773
荆州刺史	-10.7774
遷都	-10.7774
順天	-10.7775
改名	-10.7775
訓練	-10.7778
韓縝	-10.7781
赦之	-10.7786
無遺	-10.779
右司諫	-10.7794
即此	-10.7795
知人	-10.7798
所舉	-10.7799
倘	-10.7799
用心	-10.78
陽人	-10.7801
新除	-10.7803
棄市	-10.7803
數所角翻	-10.7804
晉州	-10.7804
禮院	-10.7806
髙下	-10.7806
漢兵	-10.781
臣以為	-10.781
温州	-10.7813
所費	-10.7813
徃徃	-10.7815
州治	-10.7816
保全	-10.782
以身	-10.7821
武宗	-10.7821
發運使	-10.7821
生擒	-10.7824
大中	-10.7826
間有	-10.783
五品	-10.783
丙戍	-10.7832
存亡	-10.7832
今天下	-10.7835
世孫	-10.7839
月餘	-10.7847
韓維	-10.7848
之長	-10.7852
討論	-10.7853
叩	-10.7853
抜	-10.7854
無厭	-10.7855
朞	-10.7855
兵敗	-10.7857
暠	-10.7857
曼	-10.7857
鉤	-10.7857
將官	-10.7859
太康	-10.786
漆	-10.786
不稱	-10.7861
緫	-10.7861
之迹	-10.7862
官錢	-10.7862
注曰	-10.7865
廬江	-10.7867
入内	-10.7868
今既	-10.7872
前鋒	-10.7873
焚之	-10.7873
冬至	-10.7875
乳	-10.7877
馬軍	-10.7878
牆	-10.7883
其情	-10.7883
黜陟	-10.7885
募人	-10.7885
萬全	-10.7885
隗	-10.7887
斬其	-10.7889
曰善	-10.7889
援兵	-10.7892
甲戍	-10.7892
既已	-10.7893
徳裕	-10.7894
烏桓	-10.7895
此亦	-10.7896
奏議	-10.7896
以奉	-10.7898
開門	-10.7899
皆出	-10.7904
水經	-10.7905
斡	-10.7909
谿	-10.7909
潼闗	-10.7909
臣願陛下	-10.7913
頗有	-10.7914
乘勝	-10.7915
國家之	-10.7921
無窮	-10.7925
時人	-10.7926
監司郡守	-10.7927
逃亡	-10.7928
縮	-10.7935
粉	-10.7936
官員	-10.7937
栢	-10.7937
實為	-10.7939
蹇	-10.7939
成都府	-10.7944
涿	-10.7944
殿前司	-10.7949
者謂	-10.7953
以張	-10.796
五里	-10.7962
慟哭	-10.7962
迥	-10.7962
雀	-10.7965
躡	-10.7965
殯	-10.7968
犀	-10.7969
豈敢	-10.7974
瀛	-10.7975
今復	-10.7975
振武	-10.7975
東至	-10.7976
百官表	-10.7978
兵馬使	-10.7978
奨	-10.7981
庶子	-10.7981
招諭	-10.7984
墳	-10.7985
樞宻直學士	-10.7986
淪	-10.7989
濶	-10.7989
倪	-10.7989
諶	-10.799
絀	-10.799
為我	-10.7991
祧	-10.7992
而反	-10.7995
二千人	-10.7996
在於	-10.7998
陽郡	-10.7999
教之	-10.8002
寧逺	-10.8003
天文	-10.8003
漢主	-10.8004
氏為	-10.8005
卨	-10.8005
大辟	-10.8009
十數	-10.8009
燈	-10.8012
調發	-10.802
中國之	-10.8021
山縣	-10.8022
國號	-10.8025
抃	-10.8026
雉	-10.8027
其次	-10.8031
提舉官	-10.8032
祥符	-10.8032
詩曰	-10.8034
不任	-10.8035
士馬	-10.8037
繼遷	-10.8037
瑄	-10.804
老弱	-10.804
無道	-10.804
諭之曰	-10.8041
廟號	-10.8043
和好	-10.8043
新知	-10.8045
髮	-10.8047
而天下	-10.805
任使	-10.8054
年七月	-10.8058
卒于	-10.8058
黎陽	-10.8064
曽孫	-10.8064
好呼	-10.8064
興州	-10.8064
忠良	-10.8066
寡人	-10.807
挽	-10.807
瑶	-10.8074
篇曰	-10.8075
訾	-10.8075
其門	-10.8076
光祖	-10.8077
自成	-10.8078
無辜	-10.8078
大悦	-10.8078
經營	-10.8081
集賢	-10.8082
一夕	-10.8082
之業	-10.8083
東川	-10.8084
鬼神	-10.8086
妄言	-10.8087
駮	-10.8091
舖	-10.8094
遣之	-10.8096
縁邉	-10.8096
精騎	-10.8096
礙	-10.8097
非其人	-10.81
賜死	-10.81
或言	-10.81
供奉官	-10.8104
墟	-10.8104
衛將軍	-10.8105
諜	-10.8106
猶豫	-10.8109
遺詔	-10.811
漁	-10.8112
不得不	-10.8113
不入	-10.8114
丗	-10.8115
殺傷	-10.8121
書云	-10.8121
屍	-10.8123
洵	-10.8123
之過	-10.8124
朝議	-10.8124
修築	-10.8125
饑民	-10.8125
膚	-10.8126
扞	-10.8128
沛公	-10.8132
延年	-10.8134
南海	-10.8135
卭	-10.8145
東門	-10.8148
作過	-10.8149
任之	-10.815
賽	-10.8152
藴	-10.8153
臣願	-10.8154
工部	-10.8156
王曰	-10.8158
注見前	-10.8158
事見通鑑	-10.8159
未嘗有	-10.8166
宋史	-10.8169
以防	-10.817
好惡	-10.8172
條具	-10.8172
燕山	-10.8173
凡有	-10.8174
礪	-10.8175
收復	-10.8177
嗜	-10.8178
不正	-10.8179
膝	-10.818
當書	-10.818
皷	-10.818
烏孫	-10.818
際	-10.818
者或	-10.8182
穢	-10.8182
禕	-10.8183
城守	-10.8184
擊敗之	-10.8187
欲自	-10.8189
非也	-10.819
送之	-10.819
樁	-10.8196
駁	-10.8199
郢州	-10.8199
獲其	-10.8203
女子	-10.8204
以取	-10.8204
無此	-10.8205
姦人	-10.8208
三王	-10.8212
戍兵	-10.822
王命	-10.8221
張方平	-10.8222
其位	-10.8222
凡五	-10.8223
其私	-10.8226
至是始	-10.8228
南方	-10.8234
今以	-10.8237
渡淮	-10.8237
其害	-10.8237
人不	-10.8239
無由	-10.8239
印綬	-10.8241
太中大夫	-10.8242
者聽	-10.8242
十五里	-10.8244
存之	-10.8244
瀛州	-10.8247
取索	-10.8248
持節	-10.8249
之徳	-10.825
則天下	-10.8255
諌官	-10.8256
王公	-10.8256
婦女	-10.8257
以所部	-10.8259
汴州	-10.8262
從才用翻	-10.8267
其有	-10.8267
命官	-10.8269
和親	-10.827
必以	-10.8271
北門	-10.8272
矣故	-10.8273
所致	-10.8276
帑	-10.8276
為宰相	-10.8277
千萬	-10.8283
淤	-10.8283
内地	-10.8284
笏	-10.829
傕	-10.829
勿復	-10.8293
司農	-10.8294
磧	-10.8294
犯法	-10.8295
事勢	-10.8296
又與	-10.8296
觀察	-10.83
知樞密院事	-10.8304
亡命	-10.8304
開府	-10.8304
皆曰	-10.8305
萊	-10.8308
魏人	-10.8311
亦作	-10.8312
不能制	-10.8314
闊	-10.8316
必能	-10.8319
以助	-10.832
禆	-10.8323
歸附	-10.8324
泣曰	-10.8326
遣使者	-10.833
在上	-10.8335
咸平	-10.8337
之門	-10.8337
千五百	-10.8343
左司諫	-10.8344
自後	-10.8344
禁兵	-10.8346
不肖	-10.8348
都御史	-10.8348
良玉	-10.8354
先鋒	-10.8357
十五萬	-10.8357
列侯	-10.8358
之禁	-10.8362
見上卷	-10.8362
揀	-10.8363
侍讀	-10.8367
難得	-10.8368
少保	-10.837
建國	-10.8372
孟翻	-10.8373
大亂	-10.8374
政令	-10.8375
衝替	-10.8375
有是	-10.8376
又不	-10.8377
大掠	-10.8379
當死	-10.838
漕臣	-10.8383
紆	-10.8384
東流	-10.8385
驍勇	-10.8385
軍法	-10.8386
鳩	-10.8387
桂陽	-10.8387
天錫	-10.8387
科舉	-10.8388
不得其	-10.8392
綺	-10.8392
申嚴	-10.8392
西山	-10.8392
陽城	-10.8393
蘇州	-10.8396
驥	-10.8399
綴	-10.84
渚	-10.84
安州	-10.8401
詵	-10.8402
吞	-10.8406
役錢	-10.8407
臨御	-10.8408
穰	-10.841
又聞	-10.8411
嘗與	-10.8413
手書	-10.8416
相應	-10.8419
行軍	-10.842
志在	-10.8422
講求	-10.8423
而得	-10.8424
不善	-10.8425
汴京	-10.8426
軒	-10.8428
鷹	-10.843
漂	-10.8433
明公	-10.8436
景祐	-10.8441
勃海	-10.8441
兵於	-10.8442
皇弟	-10.8442
六萬	-10.8444
招降	-10.8445
未安	-10.8449
芮翻	-10.845
校書郎	-10.8454
王徳	-10.8455
嬪	-10.8455
店	-10.8457
良臣	-10.8458
闔	-10.8458
䑕	-10.8459
帝問	-10.846
更相	-10.846
兾	-10.8461
之末	-10.8465
和糴	-10.8471
高宗	-10.8472
言近	-10.8477
州編管	-10.8478
割地	-10.8483
無疑	-10.8493
畔	-10.8493
乞下	-10.8494
所行	-10.8496
建中	-10.8497
南至	-10.85
敵兵	-10.8502
分遣	-10.8503
三衙	-10.8505
西戎	-10.8506
還朝	-10.8506
職官	-10.8509
雱	-10.8511
當今	-10.8511
多矣	-10.8512
復命	-10.8512
内殿崇班	-10.8513
太子中允	-10.8513
不給	-10.8513
夙	-10.8515
恐懼	-10.8516
事宜	-10.8517
黯	-10.8517
乃自	-10.8517
項羽	-10.8518
不可勝計	-10.8518
行密	-10.8518
鎮州	-10.8518
憫	-10.852
凡例	-10.8521
生子	-10.8522
漠	-10.8526
有徳	-10.8527
者其	-10.8527
論其	-10.8528
以避	-10.853
使天下	-10.853
矢石	-10.8533
䕃	-10.8535
尋陽	-10.8537
越州	-10.8538
固已	-10.854
曺	-10.8541
馮京	-10.8542
壽春	-10.8542
斡里雅布	-10.8543
故地	-10.8544
觀文殿學士	-10.8544
迨	-10.8545
州界	-10.8547
泰州	-10.8547
太監	-10.8548
禮畢	-10.8548
庶人	-10.8549
即命	-10.8549
蕃漢	-10.855
髙帝	-10.8551
素與	-10.8552
張守	-10.8555
雖欲	-10.8561
合格	-10.8564
當從	-10.8564
有勞	-10.8565
皆死	-10.857
其利	-10.8571
攀	-10.8572
曇	-10.8576
靳	-10.8578
之節	-10.8582
賈似道	-10.8585
欲殺	-10.8586
上謂輔臣曰	-10.8591
大明	-10.8592
諡忠	-10.8592
有常	-10.8593
進曰	-10.8593
許以	-10.8602
冩	-10.8604
為三	-10.8604
上從之	-10.8605
諛	-10.8606
枯	-10.8608
顛	-10.861
上元	-10.861
一一	-10.8611
凡四	-10.8613
敢不	-10.8617
額森	-10.8621
聲言	-10.8622
詔諭	-10.8623
失職	-10.8625
疫	-10.8625
禍福	-10.8632
徽宗	-10.8634
同日	-10.8634
邦彦	-10.8635
各一	-10.8636
王府	-10.864
通好	-10.864
其死	-10.8643
是夕	-10.8644
王曽	-10.8645
部將	-10.8648
之象	-10.8649
台州	-10.8652
渭州	-10.8656
簽書樞宻院事	-10.8656
之美	-10.8657
更有	-10.8658
兼知	-10.8658
劔	-10.8658
漫	-10.866
以罪	-10.8661
可使	-10.8662
至城下	-10.8664
亦云	-10.8664
諸侯之	-10.8664
而民	-10.8665
駒	-10.8666
庶㡬	-10.8667
釗	-10.8667
之險	-10.8667
封還	-10.8671
軍儲	-10.8672
尚書左丞	-10.8673
不答	-10.8677
且以	-10.8681
一家	-10.8685
已為	-10.8687
金兵	-10.8689
謐	-10.8691
盟于	-10.8693
詬	-10.8694
不由	-10.8695
為是	-10.8697
史炤	-10.8698
有事	-10.87
處士	-10.8702
敵國	-10.8708
為帝	-10.8711
戬	-10.8712
疊	-10.8713
年少	-10.8715
制置司	-10.8717
寺監	-10.8718
異同	-10.8719
今又	-10.8723
大赦改元	-10.8725
皆非	-10.8726
即今	-10.8726
増置	-10.8726
孫權	-10.8727
別	-10.8729
天水	-10.8731
乃召	-10.8736
監押	-10.8737
諸人	-10.8737
縉	-10.8741
矣而	-10.8741
之行	-10.8744
郡治	-10.8747
日録	-10.8747
善惡	-10.8747
竊見	-10.8747
仁厚	-10.8748
揭	-10.8749
上亦	-10.8751
酺	-10.8752
請和	-10.8753
射之	-10.8754
六十里	-10.8754
中常侍	-10.8756
而東	-10.8756
縊	-10.8759
戰士	-10.8761
除授	-10.8763
鵬	-10.8764
迎之	-10.8765
從才	-10.8769
幄	-10.8774
職名	-10.8776
凡十	-10.8776
陘	-10.8777
偹	-10.8777
祫	-10.8778
稟	-10.8778
精鋭	-10.8778
刑名	-10.8778
史館	-10.8779
此意	-10.8779
稱疾	-10.8782
王彦	-10.8784
長城	-10.8785
察訪	-10.8787
永興軍	-10.8788
五千人	-10.8789
附㑹	-10.8789
本無	-10.879
廢立	-10.8792
膠	-10.8793
江上	-10.8793
别有	-10.8793
計置	-10.8798
竊聞	-10.8799
入中	-10.88
治亂	-10.8802
隋志	-10.8802
忌之	-10.8805
乞依	-10.8805
駐蹕	-10.8806
模	-10.8806
安燾	-10.8807
姓譜	-10.881
槐	-10.8811
疾病	-10.8812
拒戰	-10.8814
以問	-10.8815
為盗	-10.8817
長知	-10.8823
州事	-10.8824
頓首	-10.8824
之私	-10.8824
聖人之	-10.8825
降授	-10.883
止令	-10.8831
提舉江州太平觀	-10.8833
餘人	-10.8835
而未	-10.8835
違法	-10.8837
士英	-10.8839
威福	-10.8841
遷延	-10.8842
王黼	-10.8847
並與	-10.8849
稱其	-10.885
牛羊	-10.8853
猶言	-10.8853
有五	-10.8855
舊臣	-10.8856
入官	-10.8856
未行	-10.8856
洪州	-10.8857
竹書	-10.8857
人事	-10.886
武威	-10.8861
將至	-10.8861
為尚書	-10.8862
昊	-10.8863
元嘉	-10.8864
仆	-10.8865
采石	-10.8869
臨淮	-10.887
搏	-10.8871
十餘日	-10.8872
屬官	-10.8873
本意	-10.8874
見賢	-10.8875
平日	-10.8877
猶在	-10.8881
經略	-10.8884
年二月	-10.8884
或云	-10.8885
嘗言	-10.8886
聽政	-10.8887
此書	-10.8887
黜之	-10.8888
𤦺	-10.8889
賊衆	-10.889
二分	-10.889
可與	-10.8891
隻	-10.8896
千秋	-10.8898
薦舉	-10.89
不早	-10.8901
唐書	-10.8902
袁紹	-10.8902
太公	-10.8903
荆襄	-10.8903
以供	-10.8905
伊尹	-10.8907
記云	-10.8914
也上曰	-10.8914
漕司	-10.8916
用度	-10.8918
上令	-10.8918
足下	-10.8919
大司農	-10.8919
尋以	-10.892
四十餘	-10.892
天祐	-10.8925
昭義	-10.8926
其本	-10.8927
狎	-10.8928
所聞	-10.8928
朽	-10.8928
不逮	-10.893
繫囚	-10.8931
虎賁	-10.8931
其上	-10.8932
望見	-10.8934
司言	-10.8934
魏以	-10.8935
小國	-10.894
朔州	-10.8942
以死	-10.8943
是何	-10.8946
諸將皆	-10.8947
長者	-10.8947
軍人	-10.8949
夘	-10.8952
范宗尹	-10.8953
帷	-10.8955
好呼到翻	-10.8958
不敢言	-10.8959
久不	-10.896
宣州	-10.8962
又何	-10.8963
伐鄭	-10.8966
異日	-10.8968
漁陽	-10.8969
始終	-10.8971
五六	-10.8972
不遜	-10.898
令有司	-10.898
參考	-10.8981
挈	-10.8982
冇	-10.8983
有變	-10.8983
稚	-10.8985
副總管	-10.8987
巽	-10.899
燔	-10.899
軍至	-10.8996
中人	-10.8998
牽制	-10.8999
擇其	-10.9001
青苗	-10.9002
此月	-10.9003
至尊	-10.9004
裴度	-10.9007
選擇	-10.9008
論議	-10.901
終身	-10.9011
䜟	-10.9012
㪚	-10.9014
縣尉	-10.9016
鉅鹿	-10.9017
梗	-10.9017
黨人	-10.9017
鎧	-10.9021
羣小	-10.9022
單騎	-10.9026
等議	-10.9028
方畧	-10.9032
諸書	-10.9033
免官	-10.9037
近年	-10.904
人望	-10.9042
帝遣	-10.9044
禇	-10.9046
軍統制	-10.9047
龜兹	-10.9048
官職	-10.9049
唐太宗	-10.9052
此非	-10.9053
相率	-10.9054
大赦天下	-10.9055
城内	-10.9058
以城降	-10.906
漕運	-10.9062
報國	-10.9066
躍	-10.907
則可	-10.907
謝罪	-10.9072
摘	-10.9072
原書作	-10.9072
朱本	-10.9074
固當	-10.9075
之本	-10.9076
兵柄	-10.9077
弓矢	-10.9078
瀘	-10.9078
還從宣翻	-10.908
瑱	-10.908
皆言	-10.9082
酒泉	-10.9084
於内	-10.9084
成敗	-10.9088
臺官	-10.9089
三道	-10.9089
宿州	-10.9089
使民	-10.909
赴之	-10.9091
平章政事	-10.9092
環州	-10.9093
箕	-10.9094
喀	-10.9102
殄	-10.9103
大理寺丞	-10.9105
大使	-10.9105
北至	-10.9106
濳	-10.9106
殖	-10.9112
全斌	-10.9115
何敢	-10.9115
諡文	-10.9117
曰大	-10.9118
初見	-10.9123
入蜀	-10.9125
滁州	-10.9126
賜錢	-10.9126
揚州刺史	-10.913
誌	-10.9131
言今	-10.9132
居中	-10.9132
覧	-10.9133
寂	-10.9134
斬獲	-10.9136
詳議	-10.9138
後患	-10.9138
治天下	-10.914
樂音	-10.9144
元忠	-10.9144
義理	-10.9144
會稽	-10.9147
太清	-10.9149
府事	-10.915
請自今	-10.9152
平生	-10.9153
歷	-10.9156
為後	-10.9159
沿江	-10.9159
墓誌	-10.9161
瑩	-10.9162
北邊	-10.9162
田租	-10.9162
鈎	-10.9164
賞之	-10.9164
庚戍	-10.9167
揣	-10.9167
太祖皇帝	-10.9168
湖州	-10.9168
一面	-10.9169
錢榖	-10.9172
而南	-10.9173
致書	-10.9177
從其請	-10.9177
兵法	-10.9178
清臣	-10.9185
亞	-10.9186
歸徳	-10.9187
爾雅	-10.9187
獻忠	-10.9187
至是復	-10.9187
臣嘗	-10.9188
更工	-10.9191
􁀙	-10.9196
叢	-10.9198
邢恕	-10.9199
毀	-10.92
涿州	-10.9201
不才	-10.9202
當有	-10.9203
茹	-10.9204
山林	-10.9207
淮北	-10.9207
合兵	-10.9216
張邦昌	-10.9218
文武官	-10.9221
直集賢院	-10.9222
磔	-10.9224
聖慈	-10.9226
驢	-10.9226
官物	-10.9227
粥	-10.9228
年月	-10.9229
鎮戎軍	-10.9231
儁	-10.9232
霜	-10.9232
為刺史	-10.9234
永州	-10.9234
以夲	-10.9235
一道	-10.9237
年五月	-10.924
行人	-10.9241
尚書右僕射	-10.9242
並行	-10.9243
典故	-10.9248
王安石曰	-10.9248
部族	-10.9249
淄	-10.9249
自安	-10.925
處昌	-10.9251
詔賜	-10.9253
劉備	-10.9255
名也	-10.9255
湊	-10.9255
改命	-10.9256
韓信	-10.9257
奐	-10.9258
上謂宰執曰	-10.9258
二十六	-10.9262
旦夕	-10.9264
復入	-10.9265
忠信	-10.9266
又使	-10.9267
㑹于	-10.927
何人	-10.9271
詹事	-10.9272
乃罷	-10.9273
去位	-10.9274
是夜	-10.9277
授官	-10.9278
經略使	-10.9278
二十日	-10.9279
未决	-10.928
磁	-10.9281
鼐	-10.9281
譟	-10.9282
三百人	-10.9284
氏曰	-10.9285
前世	-10.9285
莭	-10.9285
六千	-10.9288
降户江翻	-10.929
核	-10.929
聞而	-10.9291
滛	-10.9291
敦煌	-10.9293
千餘里	-10.9294
雕	-10.9295
寤	-10.9296
軍使	-10.9297
大用	-10.9298
上御	-10.9301
廂軍	-10.9301
逃歸	-10.9306
數千里	-10.9306
曰夫	-10.9307
欲得	-10.9309
二縣	-10.9312
少子	-10.9313
拾	-10.9317
罪狀	-10.9318
敘	-10.9319
攬	-10.9319
甚於	-10.932
剥	-10.9321
闕失	-10.9321
日久	-10.9323
秀州	-10.9324
秦鳯	-10.9328
其能	-10.9335
兵勢	-10.9337
之資	-10.9338
茂貞	-10.934
雨雪	-10.934
世之	-10.9342
歸順	-10.9344
祭酒	-10.9345
定陶	-10.9346
也乃	-10.9346
立廟	-10.9346
止是	-10.9347
濮陽	-10.9347
紊	-10.9347
希烈	-10.9347
貼黄	-10.9348
今并書	-10.9348
霄	-10.9349
畀	-10.9349
南安	-10.9351
埋	-10.9352
盡其	-10.9353
椒	-10.9354
管仲	-10.9354
郊廟	-10.9354
嘆曰	-10.9354
洺	-10.9355
前去	-10.9355
曰天下	-10.9355
兩月	-10.9355
遂入	-10.9356
頊	-10.9356
朝野	-10.9357
壹	-10.9359
羣盗	-10.9362
絶其	-10.9363
保定	-10.9365
兵少	-10.9367
可取	-10.9369
淮安	-10.9369
不畏	-10.937
桓温	-10.9371
八千	-10.9373
廣南西路	-10.9373
河中府	-10.9373
歸於	-10.9373
内藏庫	-10.9374
舉官	-10.9375
信都	-10.9375
旺	-10.9376
霖	-10.9376
相望	-10.9377
余謂	-10.9377
㨿	-10.9377
推行	-10.938
纎	-10.9381
亦何	-10.9382
饌	-10.9382
延慶	-10.9385
鴆	-10.9386
煬帝	-10.9388
為先	-10.939
又嘗	-10.9392
既不	-10.9393
雒陽	-10.9394
劉安世	-10.9395
養之	-10.9399
軍於	-10.9399
文宗	-10.94
善之	-10.9402
漢紀	-10.9404
常以	-10.9405
孝武	-10.9406
嗣位	-10.9406
郵	-10.9406
運糧	-10.9406
其兵	-10.9407
語曰	-10.9407
所稱	-10.9407
唐置	-10.9411
國子	-10.9414
征討	-10.9416
嗣源	-10.9419
而成	-10.942
嘗以	-10.9421
百僚	-10.9421
因事	-10.9421
新安	-10.9422
大江	-10.9422
以明	-10.9428
建寧	-10.943
戰守	-10.9434
其族	-10.9434
内降	-10.9434
追諡	-10.9439
貝州	-10.944
凢	-10.9442
一戰	-10.9444
莫之	-10.9444
吿	-10.9445
黄州	-10.9446
暹	-10.9447
邀擊	-10.9451
文徳	-10.9453
二也	-10.9454
之女	-10.9455
參議	-10.9455
紀脩	-10.947
和氣	-10.9471
不順	-10.9473
降於	-10.9478
之體	-10.9482
只是	-10.9482
剛中	-10.9483
請令	-10.9483
未可知	-10.9484
𤣥宗	-10.9497
非其	-10.9503
以其子	-10.9503
等並	-10.9505
鬱	-10.9507
其半	-10.9507
擲	-10.9507
樂音洛	-10.9512
保州	-10.9513
各舉	-10.9513
州城	-10.9515
鎮南	-10.9516
惜之	-10.9519
汾州	-10.9524
戰國	-10.9524
原州	-10.9524
朝奉郎	-10.9524
大震	-10.9525
相接	-10.9528
追至	-10.9528
所貴	-10.9529
邊防	-10.9529
慝	-10.9531
殱	-10.9534
不去	-10.9534
平州	-10.9536
北郊	-10.9536
飽	-10.9537
巡檢	-10.9538
上諭	-10.9539
緝	-10.954
為庶人	-10.9541
壬戍	-10.9541
十三日	-10.9542
光州	-10.9542
武功大夫	-10.9542
河上	-10.9543
犯者	-10.9548
責以	-10.9549
下至	-10.955
者惟	-10.9552
大潰	-10.9552
帝王之	-10.9561
相攻	-10.9561
安豐	-10.9562
廊	-10.9566
䝉古主	-10.9566
無禮	-10.9567
眼	-10.9567
死亡	-10.9567
舘	-10.9568
煙	-10.9569
事覺	-10.9569
陜西河東	-10.9571
祉	-10.9571
汎	-10.9572
詔曰朕	-10.9572
遂至	-10.9573
本錢	-10.9574
不協	-10.9574
汧	-10.9576
永寧	-10.9576
在朝	-10.9579
耕種	-10.9579
百萬緡	-10.9581
也昔	-10.9582
謂左右曰	-10.9584
守城	-10.9585
御批	-10.9585
年十二月	-10.9585
昭宗	-10.9586
但當	-10.9596
黨與	-10.9598
巢穴	-10.96
瘠	-10.9601
需	-10.9601
臣雖	-10.9601
弟也	-10.9601
枚	-10.9602
菜	-10.9603
浪翻	-10.9604
内殿	-10.9605
門下省	-10.9606
喜曰	-10.9607
北伐	-10.961
命有司	-10.961
應援	-10.9611
衡翻	-10.9617
却之	-10.962
考證	-10.9622
李光	-10.9624
遍翻	-10.9626
已成	-10.9628
謂宜	-10.9629
為朝廷	-10.9629
提㸃刑獄公事	-10.9631
聨	-10.9632
誑	-10.9633
䖍州	-10.9633
於市	-10.9635
唐之	-10.9636
比年	-10.9639
曹彬	-10.964
公弼	-10.964
金州	-10.9644
始有	-10.9646
之請也	-10.9647
去嵗	-10.9647
偽齊	-10.9647
漢之	-10.9648
七十餘	-10.9655
不思	-10.9656
何罪	-10.9656
河南尹	-10.9657
堂除	-10.9659
以天下	-10.966
跨	-10.9663
此必	-10.9665
猶不	-10.9665
党項	-10.9668
惡其	-10.9669
母弟	-10.9672
方鎮	-10.9675
宗澤	-10.9677
今日之事	-10.9679
後改	-10.968
僧格	-10.9682
招討	-10.9683
功名	-10.9683
略曰	-10.9686
城邑	-10.9687
多寡	-10.9687
承嗣	-10.9689
武后	-10.9691
朝㑹	-10.9693
不逺	-10.9694
上谷	-10.9694
皆降	-10.9695
竢	-10.9696
以北	-10.9698
遼西	-10.9699
東下	-10.97
三國	-10.9701
諸葛亮	-10.9702
琅邪王	-10.9703
戀	-10.9703
剖	-10.9703
察之	-10.9704
頃之	-10.9706
竊恐	-10.9707
則當	-10.9707
陵寢	-10.9707
事聞	-10.9708
出使	-10.9712
曰是	-10.9713
軍校	-10.9713
當世	-10.9715
親信	-10.9718
等各	-10.9719
機務	-10.9723
呉王	-10.9723
于外	-10.9726
禍亂	-10.9728
熈河路	-10.9729
縱兵	-10.973
潤州	-10.9733
扆	-10.9733
並進	-10.9734
稱之	-10.9735
復舊	-10.9735
悔之	-10.9735
大行	-10.9737
及此	-10.9738
遣其子	-10.9739
計也	-10.9739
為御史	-10.9744
實有	-10.9745
惟恐	-10.9751
乞降	-10.9751
還至	-10.9752
信州	-10.9752
幾何	-10.9753
曰天子	-10.9753
風雨	-10.9754
及第	-10.9754
何謂	-10.9755
九卿	-10.9756
為額	-10.9757
上親	-10.9759
叟	-10.9759
兵力	-10.9761
慘	-10.9761
湯思退	-10.9761
錮	-10.9761
景帝	-10.9762
裳	-10.9764
西方	-10.9767
軍食	-10.9767
閉門	-10.9767
漢武帝	-10.9768
義陽	-10.9769
芒	-10.9771
林甫	-10.9773
戰功	-10.9776
不果	-10.9777
經曰	-10.9777
資序	-10.978
明皇	-10.9781
宗道	-10.9781
重行	-10.9785
自餘	-10.9788
大畧	-10.979
种諤	-10.979
何事	-10.9793
土木	-10.9795
曰爾	-10.9795
糓	-10.9798
尚可	-10.98
二十四日	-10.98
萬民	-10.9801
淑妃	-10.9802
討平之	-10.9804
之樂	-10.9806
皆是	-10.9809
以東	-10.9812
引對	-10.9813
乞賜	-10.9814
北齊	-10.982
近侍	-10.9821
者又	-10.9822
山下	-10.9823
篆	-10.9824
之至是	-10.9825
度牒	-10.9827
事件	-10.983
伏見	-10.9831
年三月	-10.9835
萬匹	-10.9836
美人	-10.9836
兵屯	-10.9841
棄城	-10.9841
北軍	-10.9843
衢州	-10.9846
不附	-10.9849
實封	-10.9849
具言	-10.9849
私意	-10.9851
孫也	-10.9851
謹按	-10.9851
都人	-10.9852
拾遺	-10.9852
亡國	-10.9852
禎	-10.9852
興國	-10.9853
李繼	-10.9853
将帥	-10.9853
墾	-10.9853
廟堂	-10.9854
景徳	-10.9854
新録	-10.9858
俄而	-10.9859
偁	-10.9859
者當	-10.986
都水監	-10.986
卒於	-10.986
起發	-10.9864
拊	-10.9865
趙汝愚	-10.9865
衡州	-10.9866
梁置	-10.9868
真州	-10.9871
隰	-10.9873
賞錢	-10.9873
忠孝	-10.9874
也於是	-10.9875
僉事	-10.9877
三百里	-10.9877
倉庫	-10.9878
下流	-10.9879
使副	-10.9879
而起	-10.988
若是	-10.9881
江左	-10.9881
桂州	-10.9884
李成	-10.9885
曙	-10.9886
嘗有	-10.9887
臣不敢	-10.9887
獲罪	-10.9888
衆議	-10.9892
已得	-10.9894
所立	-10.9895
僧道	-10.9896
龕	-10.9898
無一人	-10.9898
唐末	-10.99
行軍司馬	-10.9901
詩云	-10.9901
天寳	-10.9902
急攻	-10.9907
辭以	-10.9909
差人	-10.9909
與我	-10.9916
數目	-10.9922
臣前	-10.9922
歸國	-10.9926
儋	-10.9926
西門	-10.9926
狠	-10.9927
天變	-10.9927
滅之	-10.9928
建康府	-10.9928
死而	-10.9929
琴	-10.9929
即令	-10.9931
執政大臣	-10.9932
帝謂	-10.9932
至則	-10.9932
德宗	-10.9933
二十二日	-10.9935
二十九	-10.9936
不曽	-10.9936
出于	-10.9937
周之	-10.9943
五曰	-10.9944
一次	-10.9949
貢獻	-10.9951
聲色	-10.9951
中宫	-10.9953
廣徳	-10.9954
之弟也	-10.9954
經費	-10.9954
不降	-10.9957
吁	-10.996
徒以	-10.9962
京東西	-10.9962
大元	-10.9963
更張	-10.9964
仍詔	-10.9968
殿中丞	-10.9969
於下	-10.9973
仍命	-10.9974
明詔	-10.9974
亦不可	-10.9975
不能用	-10.9982
之福	-10.9982
其狀	-10.9984
地形	-10.9986
兩朝	-10.9986
泓	-10.9989
不起	-10.999
婆	-10.9991
瓜	-10.9991
戡	-10.9991
使相	-10.9993
根究	-10.9994
六合	-10.9995
重榮	-10.9996
滁	-10.9997
見今	-10.9999
法司	-11.0004
今嵗	-11.0004
一舉	-11.0005
太祖太宗	-11.0011
吉甫	-11.0014
武陵	-11.0014
無備	-11.0014
兖州刺史	-11.0016
女為	-11.0016
敏中	-11.0017
勦	-11.002
二十八日	-11.002
㝷	-11.0021
為界	-11.0023
鞫之	-11.0023
蓬	-11.0026
皆可	-11.0028
徂	-11.0028
裒	-11.0028
圜	-11.0029
鄱陽	-11.0029
孛	-11.0031
各以	-11.0031
昌朝	-11.0031
上嘗	-11.0034
進討	-11.0036
太行	-11.0036
石門	-11.0036
食邑	-11.0037
條上	-11.0038
盡心	-11.0039
有能	-11.004
虎牢	-11.0041
上自	-11.0042
故能	-11.0043
者謂之	-11.0043
以西	-11.0045
千緡	-11.0046
曾孫	-11.0047
時方	-11.0047
六國	-11.0049
昺	-11.0051
監當	-11.0051
羨	-11.0052
未甞	-11.0053
百五十	-11.0054
一貫	-11.0054
不殺	-11.0054
逓	-11.0056
溫	-11.0058
草木	-11.0058
車騎	-11.0058
紏	-11.006
元帥府	-11.006
㸔詳	-11.0061
權臣	-11.0061
又謂	-11.0065
上曰卿	-11.0066
水災	-11.0068
母后	-11.0073
良久	-11.0076
左氏	-11.0079
所掠	-11.0083
切說文	-11.0085
稠	-11.0086
資政殿大學士	-11.0087
頵	-11.0089
冡	-11.0092
天下事	-11.0092
為變	-11.0095
麴	-11.0096
然猶	-11.0097
不聼	-11.0098
即是	-11.0098
荀紀	-11.01
成徳	-11.0101
其文	-11.0101
乾元	-11.0103
七萬	-11.0106
湟	-11.0106
代宗	-11.0106
為國家	-11.0107
徐州刺史	-11.0107
士氣	-11.011
舊例	-11.0112
南昌	-11.0113
將以	-11.0115
因請	-11.0116
先次	-11.0118
企	-11.0118
熊克小歴	-11.0119
七八	-11.0122
人主之	-11.0124
撫諭	-11.0124
一州	-11.0126
終日	-11.0126
傳作	-11.0129
所司	-11.0129
又問	-11.0135
之功也	-11.0135
李茂貞	-11.0139
舊録	-11.0139
所由	-11.0141
懐恩	-11.0143
勾當公事	-11.015
閤門祇候	-11.0152
太原府	-11.0152
廢之	-11.0152
移書	-11.0153
甲士	-11.0153
外國	-11.0154
近習	-11.0155
慿	-11.0157
昵	-11.016
為備	-11.0161
進入	-11.0162
何得	-11.0163
彗	-11.0165
社稷之	-11.0166
當與	-11.0166
同知樞密院事	-11.0166
覲	-11.0167
條例	-11.0167
僖祖	-11.0167
鉅	-11.0168
大統	-11.017
避之	-11.0176
大興	-11.0176
始此	-11.0178
鞍	-11.018
曰王	-11.018
並許	-11.0181
斜	-11.0181
為正	-11.0184
為大司馬	-11.0187
儔	-11.0187
使還	-11.0188
皎	-11.0189
檝	-11.019
掲	-11.019
陳瓘	-11.0193
事下	-11.0195
貞元	-11.0196
録尚書事	-11.0197
有寵	-11.0197
陽平	-11.0197
董卓	-11.0197
非特	-11.0198
尋又	-11.0199
天福	-11.0199
晉安	-11.0203
還京師	-11.0204
土兵	-11.0207
今因	-11.0209
今屬	-11.0211
武皇帝	-11.0212
律令	-11.0212
臣今	-11.0215
必為	-11.0215
千六百	-11.022
西至	-11.0222
毆	-11.0222
翰林侍讀學士	-11.0223
五百里	-11.0223
醮	-11.0225
戯	-11.0225
閎	-11.0225
怙	-11.0226
遵守	-11.0227
膏	-11.0227
廨	-11.023
孝寛	-11.0231
宗廟社稷	-11.0235
莊公	-11.0237
杜預	-11.0238
行幸	-11.0238
九成	-11.0238
當是時	-11.024
故翻	-11.024
徳宗	-11.0244
五分	-11.0244
宣武	-11.0245
忠直	-11.0246
其說	-11.0249
依此	-11.0251
其直	-11.0253
以充	-11.0253
而陛下	-11.0253
徙居	-11.0253
緘	-11.0254
鹵簿	-11.0254
私第	-11.0255
當先	-11.0259
一子	-11.0261
至長安	-11.0262
生於	-11.0265
誰敢	-11.0267
忻	-11.0269
漢唐	-11.0271
惠王	-11.0271
匹夫	-11.0273
不决	-11.0275
創業	-11.0276
錢塘	-11.0277
福建路	-11.028
軍務	-11.028
教化	-11.0283
為質	-11.0283
不詳	-11.0283
惶	-11.0285
之儀	-11.0287
七千	-11.029
餌	-11.029
頤	-11.0291
佯	-11.0292
泣下	-11.0292
岷	-11.0293
以新舊	-11.0293
重進	-11.0293
安都	-11.0294
力辭	-11.0294
於道	-11.0298
可惜	-11.03
甘露	-11.0302
依條	-11.0307
之耳	-11.0308
士誠	-11.031
尤為	-11.0313
至大	-11.0314
士庶	-11.0315
倦	-11.0317
其可	-11.0318
者雖	-11.032
縱火	-11.032
多方	-11.0322
峯	-11.0324
矣乃	-11.0325
畏之	-11.0327
異論	-11.0327
租賦	-11.0327
銀絹	-11.0328
剽掠	-11.033
之境	-11.033
今依	-11.0332
綝	-11.0335
失守	-11.0336
今附	-11.0338
西夏	-11.0339
洺州	-11.0339
兼中書令	-11.034
嘉定	-11.0341
千八百	-11.0344
自新	-11.0349
朝貢	-11.0351
入寇	-11.0353
尋復	-11.0355
中書樞宻院	-11.0358
霍光	-11.0361
直祕閣	-11.0361
油	-11.0362
旰	-11.0362
購	-11.0363
不虞	-11.0364
五十萬	-11.0364
時已	-11.0366
近世	-11.0367
車師	-11.0368
涼州	-11.0369
擾民	-11.037
者何	-11.037
事迹	-11.0373
並以	-11.0374
畿内	-11.0375
昭儀	-11.0376
西魏	-11.0377
節鉞	-11.0377
范鎮	-11.0378
延安	-11.038
召募	-11.038
兩軍	-11.038
堯佐	-11.0381
遼陽	-11.0384
必須	-11.0384
豕	-11.0384
二十餘	-11.0387
又東	-11.0391
罷以	-11.0393
五原	-11.0393
祜	-11.0394
下馬	-11.0395
矣此	-11.0395
令史	-11.0396
惠帝	-11.0396
想	-11.0397
不解	-11.0397
嘉之	-11.0397
於天	-11.0399
掖庭	-11.0399
權勢	-11.04
扈從	-11.0401
鎮江府	-11.0402
新傳	-11.0406
語及	-11.0413
設伏	-11.0414
仲尼	-11.0418
百二十	-11.0418
所記	-11.0424
緬	-11.0427
戎狄	-11.0428
恐誤	-11.0428
萬嵗	-11.0429
官為	-11.043
記聞	-11.043
次于	-11.0431
汭	-11.0431
譁	-11.0432
朱光庭	-11.0432
戊戍	-11.0433
於國	-11.0434
酈	-11.0434
驩	-11.0435
朕甚	-11.0436
跋	-11.0436
帝乃	-11.0437
濮州	-11.044
國初	-11.044
等官	-11.0441
羣盜	-11.0442
蕭何	-11.0445
遇害	-11.0446
睿宗	-11.0446
不雨	-11.0448
失利	-11.0451
加恩	-11.0452
博囉	-11.0458
名器	-11.0459
十九日	-11.0461
燮	-11.0463
鹵	-11.0464
廬舍	-11.0466
非獨	-11.0467
韓忠彦	-11.0468
必死	-11.0474
州名	-11.0475
定襄	-11.0475
一百五十	-11.0477
義兵	-11.0478
后稷	-11.0482
必行	-11.0482
甚盛	-11.0483
舉行	-11.0483
賢良	-11.0483
報之	-11.0487
皇考	-11.0488
都大	-11.0491
六七	-11.0491
失於	-11.0496
烽	-11.0497
何益	-11.0497
詰之	-11.0497
縦	-11.0499
所作	-11.0499
澶	-11.05
十一日	-11.05
故謂之	-11.0501
開皇	-11.0502
轡	-11.0502
都堂	-11.0503
康國	-11.0505
顓	-11.0506
郡公	-11.0507
共議	-11.0509
豈無	-11.051
襄州	-11.0511
二十一年	-11.0511
商旅	-11.0512
言語	-11.0514
容翻	-11.0516
主帥	-11.0516
麟府	-11.0517
分置	-11.0517
穆公	-11.0518
為翰林學士	-11.0519
見二百	-11.0519
雒	-11.0519
帝欲	-11.0521
二十七日	-11.0524
軍于	-11.0524
擢為	-11.0526
牘	-11.053
建元	-11.0534
著為令	-11.0534
霧	-11.0535
公輔	-11.0535
以南	-11.0538
闡	-11.0538
上召	-11.0542
崇政殿	-11.0545
宗子	-11.0546
縣置	-11.0554
未下	-11.0555
言官	-11.0558
既罷	-11.0558
以資	-11.056
即時	-11.0561
兵討之	-11.0561
州團練副使	-11.0562
岳州	-11.0563
懾	-11.0566
凍	-11.0566
韓𤦺	-11.0567
駝	-11.0567
黄門侍郎	-11.0568
五年春正月	-11.0569
小事	-11.057
出界	-11.0571
天性	-11.0574
為文	-11.0575
視朝	-11.0576
國夫人	-11.0586
附之	-11.0587
奔走	-11.0588
安平	-11.0589
所賜	-11.0589
防秋	-11.059
以謝	-11.0591
踰月	-11.0592
侵擾	-11.0596
太白晝見	-11.0598
路分	-11.0598
走馬承受	-11.0599
吕氏	-11.06
林希	-11.0601
銑	-11.0601
謟	-11.0605
糜	-11.0605
為人所	-11.0607
尚在	-11.0608
田宅	-11.0609
也按	-11.0609
府州	-11.061
此語	-11.0614
寄翻	-11.0614
正殿	-11.0616
鄉人	-11.0616
長公主	-11.0617
城池	-11.0618
其故	-11.0619
時年	-11.062
之聲	-11.0622
來者	-11.0625
上音	-11.0628
皇城	-11.063
樞密副使	-11.0631
非一	-11.0631
幅	-11.0631
驤	-11.0632
港	-11.0637
以魏	-11.0638
粹	-11.0639
寗	-11.0639
正當	-11.064
道成	-11.064
股肱	-11.0641
南宫	-11.0643
賑之	-11.0646
此二	-11.0651
小民	-11.0652
稽古	-11.0654
捕之	-11.0655
併力	-11.0659
下户	-11.0662
也遂	-11.0663
上因	-11.0664
是歳	-11.0666
未便	-11.0666
敗死	-11.0669
贏	-11.0673
稻	-11.0674
諸貝勒	-11.0675
邊境	-11.0675
暐	-11.0676
戒之	-11.0679
杏	-11.0679
矛	-11.068
騎射	-11.0682
終始	-11.0682
所繫	-11.0684
正典刑	-11.0684
定議	-11.0684
轉對	-11.0686
何憂	-11.0692
遇之	-11.0694
貴州	-11.0695
一帶	-11.0698
稽首	-11.0698
差除	-11.0699
已久	-11.0701
之狀	-11.0703
殺戮	-11.0704
子女	-11.0704
草制	-11.0705
無狀	-11.0706
示天下	-11.0706
伋	-11.0708
竊以	-11.0709
伽	-11.071
奴婢	-11.0713
哥	-11.0713
補官	-11.0713
此數	-11.0715
復何	-11.0719
誓書	-11.0727
新書	-11.0728
殿直	-11.0733
慶之	-11.0735
廷美	-11.0736
控扼	-11.074
賈昌朝	-11.074
勰	-11.0744
冨	-11.0744
著作郎	-11.0745
虞允文	-11.0745
余靖	-11.0748
兊	-11.0748
梁州	-11.075
曲直	-11.075
章奏	-11.0751
以紀	-11.0756
陛下以	-11.0759
夀陽	-11.0761
萬三千	-11.0762
不息	-11.0767
疾苦	-11.0768
若使	-11.0769
並無	-11.0771
平王	-11.0772
特書	-11.0773
數百里	-11.0775
問其故	-11.0775
仍賜	-11.0775
外人	-11.0777
汝曹	-11.0777
埒	-11.0778
鄂特凌古	-11.0778
其子孫	-11.0778
殁	-11.0779
簽書樞密院事	-11.0779
矣又	-11.0781
四鎮	-11.0782
灘	-11.0782
思恭	-11.0784
黷	-11.0785
入侍	-11.0787
天書	-11.0788
頡利	-11.0789
小臣	-11.079
少年	-11.0791
二事	-11.0792
不令	-11.0794
聖朝	-11.0799
感動	-11.08
心腹	-11.0802
商州	-11.0805
神明	-11.0805
夔	-11.0806
凡所	-11.0809
猶可	-11.0812
譜	-11.0815
餽	-11.0816
貿易	-11.0816
為君	-11.0817
爾朱	-11.0817
能否	-11.0817
屬之	-11.0818
黠	-11.0823
監國	-11.0828
陳執中	-11.0836
有何	-11.0837
二十人	-11.0837
國政	-11.0838
連年	-11.0842
招之	-11.0842
聚兵	-11.0846
安撫大使	-11.085
上官	-11.085
録云	-11.085
貂	-11.0851
民皆	-11.0852
曾布	-11.0852
一身	-11.0853
馬邑	-11.0854
七里	-11.0855
熈寜	-11.0857
家居	-11.0857
入閣	-11.086
選差	-11.0864
與賊	-11.0864
隨軍	-11.0869
復言	-11.0871
而西	-11.0873
縣漢	-11.0877
洪武	-11.0884
東路	-11.0884
懽	-11.0888
瑊	-11.089
闥	-11.0891
切責	-11.0892
宣徽使	-11.0893
劾之	-11.0898
所上	-11.091
延壽	-11.0915
勿以	-11.0923
鑾	-11.0923
瑛	-11.0925
知潭州	-11.0925
隐	-11.0925
浹	-11.0926
槖	-11.0926
魏書	-11.0928
䝉正	-11.0929
都元帥	-11.093
雍州刺史	-11.0933
安用	-11.0935
故有是詔	-11.0936
聞者	-11.0937
玉牒	-11.094
不軌	-11.0942
復召	-11.0944
為南	-11.095
治兵	-11.0951
倨	-11.0951
請行	-11.0952
光逺	-11.0953
何時	-11.0954
炭	-11.0958
來上	-11.0962
不備	-11.0962
㓕	-11.0965
官給	-11.0965
無常	-11.0965
佚	-11.0966
提㸃刑獄司	-11.0967
也詔	-11.0967
彦章	-11.0968
鎔	-11.0969
臨時	-11.0971
宗諤	-11.0971
達蘭	-11.0972
皇城司	-11.0972
三尺	-11.0973
召試	-11.0975
大人	-11.0976
上遣	-11.0976
乃更	-11.0976
舎人	-11.0976
將何以	-11.0978
遣使來	-11.0978
然之	-11.0979
㐮	-11.0981
嗣昌	-11.0984
北漢主	-11.099
之於是	-11.0991
赦書	-11.0993
一百二十	-11.0994
殉	-11.0995
諭曰	-11.0995
食盡	-11.0995
數十里	-11.0996
北使	-11.0997
潯	-11.0997
夜半	-11.0997
陵縣	-11.0998
楯	-11.1
復扶又	-11.1001
移文	-11.1002
郃	-11.1002
髙平	-11.1007
建興	-11.1008
為前鋒	-11.1008
憂之	-11.1008
王道	-11.1009
愼	-11.101
遷于	-11.101
上天	-11.1013
鄜州	-11.1013
務在	-11.1013
貴戚	-11.1014
鄜	-11.1015
俘獲	-11.1015
太學生	-11.1016
祖宗以來	-11.1016
阿珠	-11.1017
分别	-11.1019
君子小人	-11.1022
兄也	-11.1022
天下之人	-11.1023
衛州	-11.1023
因奏	-11.1024
少傅	-11.1028
遷一官	-11.1028
一分	-11.1029
同時	-11.103
其道	-11.1031
搢紳	-11.1033
携	-11.1033
以下皆	-11.1033
十分	-11.1034
坑	-11.1034
頂	-11.1035
璉	-11.1035
堯俞	-11.1036
朱泚	-11.1037
凱	-11.1037
陳州	-11.1038
更工衡翻	-11.1039
乆矣	-11.104
上封事	-11.1042
地也	-11.1044
始得	-11.1047
撃之	-11.1048
固有	-11.1049
奉安	-11.1049
元元	-11.1051
左遷	-11.1053
三嵗	-11.1054
而不敢	-11.1055
水利	-11.1058
在内	-11.1061
安陸	-11.1063
引兵還	-11.1064
分析	-11.1066
綾	-11.1067
大理評事	-11.1068
拆	-11.1069
昕	-11.1069
沈與求	-11.107
拙	-11.107
名為	-11.1072
廐	-11.1073
於今	-11.1074
程頥	-11.1074
已至	-11.1076
乳母	-11.1076
崇徳	-11.1077
弦	-11.1077
比之	-11.1079
面對	-11.1079
蘄州	-11.1079
寺觀	-11.1079
子羽	-11.1083
别將	-11.1084
㓙	-11.1084
沼翻	-11.1084
襲封	-11.1085
損益	-11.1086
故特	-11.1087
立皇子	-11.109
邁翻	-11.109
恤翻	-11.1093
定制	-11.1094
黄履	-11.1096
然也	-11.1097
帝從之	-11.1098
萬七千	-11.1099
神䇿	-11.1099
見一百	-11.1099
太妃	-11.11
閫	-11.1101
鹽鐡	-11.1102
被殺	-11.1104
此所謂	-11.1105
炤	-11.1105
猶以	-11.1105
可知矣	-11.1105
絳州	-11.1105
富民	-11.1106
腐	-11.1107
事已	-11.1107
廡	-11.1108
餞	-11.1111
今據	-11.1111
耽	-11.1113
館閣	-11.1114
牋	-11.1116
偷	-11.1117
俟其	-11.1119
非便	-11.112
專權	-11.1121
人物	-11.1121
出為	-11.1125
轉運司言	-11.1126
江湖	-11.1127
以禦	-11.1131
三朝	-11.1131
二十五日	-11.1133
月末	-11.1133
安禮	-11.1136
今附見	-11.1137
團結	-11.1144
平時	-11.1145
塗炭	-11.1145
武公	-11.1146
南渡	-11.1148
如其	-11.1149
自保	-11.1149
擯	-11.1149
牙將	-11.115
季翻	-11.115
羈	-11.1152
雩	-11.1153
不多	-11.1153
崇韜	-11.1154
出錢	-11.1157
二十六日	-11.1157
沙門	-11.1158
食其	-11.1161
相視	-11.1161
李清臣	-11.1162
為治	-11.1162
酣	-11.1163
罔上	-11.1165
山崩	-11.1168
至京	-11.1169
是謂	-11.117
嵗時	-11.117
漢縣	-11.1173
賊勢	-11.1174
定逺	-11.1178
不戰	-11.1179
降㫖	-11.118
安縣	-11.1182
未成	-11.1182
蕃兵	-11.1182
其失	-11.1183
凡六	-11.1183
條約	-11.1184
不舉	-11.1184
萬八千	-11.1185
青苖	-11.1185
賢才	-11.1185
初議	-11.1186
所取	-11.1186
好學	-11.1187
邃	-11.1188
重者	-11.1189
異姓	-11.119
所執	-11.1191
臣竊以	-11.1192
鹽法	-11.1192
齊賢	-11.1193
不守	-11.1193
有警	-11.1194
守光	-11.1194
急務	-11.1194
千匹	-11.1198
曲沃	-11.1203
秦漢	-11.1206
雖已	-11.1208
之期	-11.1208
吉州	-11.121
秉政	-11.1212
舉主	-11.1213
徭	-11.1215
邈川	-11.1217
勔	-11.1218
参知政事	-11.1218
潁州	-11.1219
事機	-11.1219
處昌吕翻	-11.122
讞	-11.1221
茲	-11.1223
冰	-11.1223
勃勃	-11.1223
犢	-11.1224
涯	-11.1224
宣城	-11.1228
兵馬鈐轄	-11.1229
不時	-11.1231
赤心	-11.1232
武舉	-11.1234
經史	-11.1234
諸鎮	-11.1235
上不許	-11.1237
之族	-11.1239
登州	-11.1239
軍亂	-11.124
罷免	-11.124
不得過	-11.1242
和元年	-11.1243
薦翻	-11.1244
之賢	-11.1245
天禧	-11.1245
識者	-11.1246
羣下	-11.1247
祖禹	-11.1248
知揚州	-11.1249
年九月	-11.1249
以討	-11.125
入奏	-11.125
罷黜	-11.1251
儆	-11.1255
十萬緡	-11.1255
制置大使	-11.1256
政和	-11.1256
邜	-11.1256
全義	-11.1257
民多	-11.1259
緑	-11.1259
鄭氏	-11.1259
憂懼	-11.126
令人	-11.1266
始置	-11.1267
獨孤	-11.1267
以舊	-11.1267
忠彦	-11.1268
以功	-11.1268
皝	-11.1269
為右丞相	-11.127
五行	-11.127
曹州	-11.1271
所定	-11.1272
其二	-11.1272
懼而	-11.1273
以金	-11.1274
懐州	-11.1275
禹貢	-11.1277
天心	-11.1279
則民	-11.128
辰州	-11.1281
日益	-11.1283
皆謂	-11.1285
明白	-11.1287
節度副使	-11.129
素無	-11.129
芻粟	-11.1291
方士	-11.1292
滂	-11.1292
計翻	-11.1293
旗幟	-11.1295
字伯	-11.1295
昨日	-11.1296
釣	-11.1297
橫	-11.1297
謝曰	-11.1297
上京	-11.1297
一體	-11.1299
聲援	-11.1299
愎	-11.13
遂殺	-11.13
其過	-11.1301
惡烏	-11.1304
刁	-11.1304
教閲	-11.1305
之孫也	-11.1306
終不能	-11.1306
罪之	-11.1306
魏晉	-11.1309
宫門	-11.1315
興宗	-11.1315
惟有	-11.1315
死傷	-11.1316
出賣	-11.132
戰艦	-11.132
擁兵	-11.132
死于	-11.1324
看	-11.1326
呼曰	-11.133
遂復	-11.133
濕	-11.1331
自取	-11.1331
昂	-11.1331
袖	-11.1331
蹕	-11.1332
吕頤浩	-11.1332
顯忠	-11.1336
弓弩	-11.1338
宰輔	-11.1338
晡	-11.1338
慶府	-11.134
則非	-11.1341
家傳	-11.1341
事務	-11.1342
懌	-11.1343
字仲	-11.1345
或者	-11.1345
員外	-11.1346
之分	-11.1346
三十人	-11.1347
大略	-11.1347
嘗謂	-11.1351
我國	-11.1352
堡寨	-11.1353
八九	-11.1355
恭儉	-11.1355
昭公	-11.1355
為本	-11.1356
内侍省	-11.1356
之意也	-11.1357
已降	-11.1358
二世	-11.1363
為左右	-11.1364
縱横	-11.1364
淮南王	-11.1365
矣若	-11.1366
荆湖南路	-11.1367
舉動	-11.1367
進對	-11.1367
悉平	-11.1369
璜	-11.1371
捶	-11.1373
所據	-11.1374
狄青	-11.1376
既成	-11.1377
安之	-11.1378
過人	-11.1379
天寶	-11.138
早賜	-11.1381
禮之	-11.1381
乃有是命	-11.1383
疏入	-11.1387
退屯	-11.1388
則其	-11.1389
汝等	-11.1389
去就	-11.139
載記	-11.1391
五州	-11.1391
建立	-11.1392
中傷	-11.1396
必敗	-11.1396
萬斛	-11.1401
工部郎中	-11.1404
檢討	-11.1404
素有	-11.1405
侍臣	-11.1406
漢軍	-11.1407
百匹	-11.1407
成臯	-11.1407
士良	-11.1407
灣	-11.1409
厨	-11.141
堯舜之	-11.141
大定	-11.1412
趙州	-11.1412
無私	-11.1412
帥所類翻	-11.1413
葦	-11.1413
六州	-11.1416
一時之	-11.1419
如初	-11.142
問以	-11.1423
臣與	-11.1427
上邽	-11.1427
選官	-11.1428
亦不能	-11.1429
複姓	-11.143
也時	-11.143
其官	-11.143
物料	-11.1432
所遣	-11.1433
李全	-11.1433
諸侯王	-11.1439
建昌	-11.1439
尋改	-11.144
軍糧	-11.1442
之舊	-11.1444
畱	-11.1445
募民	-11.1445
既死	-11.1446
則曰	-11.1446
尅	-11.1446
臨事	-11.1448
夀州	-11.1448
太常丞	-11.1449
饑饉	-11.1449
之典	-11.1451
虚實	-11.1451
考其	-11.1452
塢	-11.1454
芾	-11.1454
者今	-11.1455
發運司	-11.1456
濟隂	-11.1456
嬴	-11.1457
藍田	-11.146
其任	-11.1463
慶元	-11.1463
朝見	-11.1466
僚屬	-11.1467
力士	-11.1468
刑法	-11.1468
又音如字	-11.1468
郯	-11.147
放罷	-11.1471
宣府	-11.1473
事見上卷	-11.1473
内東門	-11.1473
雖多	-11.1474
者令	-11.1476
襄公	-11.1477
州守臣	-11.1479
此豈	-11.1479
而欲	-11.1481
猺	-11.1482
架	-11.1483
柩	-11.1484
出自	-11.1485
見賢遍翻	-11.1486
不改	-11.1489
開寳	-11.149
以義	-11.149
全軍	-11.1491
南越	-11.1491
北史	-11.1491
妬	-11.1492
汾隂	-11.1493
廵撫	-11.1494
息錢	-11.1498
當自	-11.1499
一郡	-11.15
元振	-11.1503
中和	-11.1504
秦鳳	-11.1505
應接	-11.1507
之言也	-11.1509
彼必	-11.1512
金使	-11.1513
巴哈	-11.1515
始皇	-11.1516
威名	-11.1517
白上	-11.1517
有備	-11.1518
為御史中丞	-11.152
太平興國	-11.1521
之惡	-11.1521
如淳曰	-11.1524
李靖	-11.1525
計之	-11.1525
交子	-11.1526
撻	-11.1527
臣伏	-11.1527
理財	-11.1527
撫州	-11.1528
兩國	-11.1528
甘肅	-11.1528
禮記	-11.1531
禽獸	-11.1532
請命	-11.1533
后土	-11.1534
僞	-11.1534
教習	-11.1536
管軍	-11.1541
燕人	-11.1542
雲州	-11.1542
不恱	-11.1547
一夫	-11.155
平元年	-11.1552
不孝	-11.1553
承議郎	-11.1555
潼	-11.1557
鏐	-11.1557
山中	-11.1558
急於	-11.1558
箴	-11.1559
霽	-11.156
降一官	-11.1561
麟州	-11.1562
干戈	-11.1563
平定	-11.1565
亦須	-11.1566
甚者	-11.1567
後人	-11.1569
繫獄	-11.1573
而遣之	-11.1573
千七百	-11.1579
五經	-11.1582
宗元	-11.1584
追擊	-11.1585
在前	-11.1585
二百人	-11.1585
大敗之	-11.1589
費用	-11.1589
分屯	-11.159
求之	-11.159
兵官	-11.1591
宣徳	-11.1594
巴陵	-11.1597
光庭	-11.1597
秦檜曰	-11.1597
過於	-11.1599
詈	-11.1601
妓	-11.1601
攸之	-11.1601
逄	-11.1603
錦衣	-11.1604
吏士	-11.1604
立太子	-11.1607
冏	-11.1608
烹	-11.1609
燕主	-11.161
申尚書省	-11.1613
縣漢屬	-11.1614
之罪也	-11.1614
睢陽	-11.1614
乃云	-11.1615
害民	-11.1615
此人	-11.1615
二百里	-11.1616
與語	-11.1616
南門	-11.1617
正色	-11.1619
於人	-11.162
若能	-11.1623
乃退	-11.1625
矣夫	-11.1627
而朝廷	-11.1627
流離	-11.1631
唐紀	-11.1631
南侵	-11.1632
仁孝	-11.1632
戎人	-11.1632
朝請郎	-11.1633
李燾撰	-11.1634
失色	-11.1635
乗間	-11.1637
愁	-11.1637
鑰	-11.1638
者許	-11.1638
聖訓	-11.1639
婺	-11.1639
西城	-11.1639
所恃	-11.1642
楊沂中	-11.1644
潼關	-11.1644
丸	-11.1645
其義	-11.1646
五十人	-11.165
洪範	-11.165
之效	-11.1654
示以	-11.1654
昌邑	-11.1655
戍卒	-11.1655
伐齊	-11.1657
大書	-11.1659
誘之	-11.1663
曰今日	-11.1665
友諒	-11.1666
指使	-11.1666
可法	-11.167
允恭	-11.1671
剏	-11.1675
▁考異曰	-11.1676
建隆	-11.1676
幷	-11.1679
由榔	-11.1681
自以為	-11.1682
将兵	-11.1682
逡	-11.1684
從祀	-11.1684
詔獄	-11.1685
閬	-11.1685
岷州	-11.1685
赤子	-11.1689
作樂	-11.169
軍府	-11.169
傳聞	-11.1694
為定	-11.1697
為之備	-11.1698
也初	-11.17
重之	-11.17
志云	-11.1702
聖慮	-11.1704
蜀中	-11.1706
榻	-11.1706
官名	-11.1707
臨川	-11.1708
追復	-11.1709
熈州	-11.1709
直𨽻	-11.171
朝散郎	-11.1711
而生	-11.1712
曰朝廷	-11.1712
並用	-11.1716
以利	-11.1717
瓉	-11.1717
等至	-11.1718
步兵	-11.1718
安逺	-11.1719
怖	-11.172
諒祚	-11.172
慷慨	-11.1721
御製	-11.1725
三十五	-11.1728
條貫	-11.1728
縣唐	-11.1728
何患	-11.1739
不修	-11.174
兵圍	-11.1741
辭曰	-11.1742
之由	-11.1742
萬二千	-11.1745
部下	-11.1746
輔之	-11.1752
然自	-11.1753
秦主	-11.1753
翠	-11.1755
中山王	-11.1755
謀殺	-11.1755
既定	-11.1757
果有	-11.1757
不赴	-11.1757
宋州	-11.1759
少師	-11.176
四郡	-11.176
緋	-11.176
而致	-11.1762
七十里	-11.1762
賓客	-11.1763
各一人	-11.1763
元年正月	-11.1764
首級	-11.1766
二郡	-11.1768
郭逵	-11.1769
驚擾	-11.177
防守	-11.177
以相	-11.177
為留後	-11.1775
上又曰	-11.1775
故名	-11.1776
為賊所	-11.1776
部分	-11.1777
委曲	-11.1779
直學士	-11.178
舉事	-11.1781
始於	-11.1783
乃知	-11.1784
貴賤	-11.1786
從軍	-11.1787
保吉	-11.1788
事多	-11.1789
稱疾不	-11.179
一品	-11.1793
荆湖北路	-11.1793
蘆	-11.1797
朝議大夫	-11.1798
巴蜀	-11.18
國中	-11.1801
絕	-11.1801
三十二	-11.1802
職在	-11.1803
學術	-11.1804
趙卨	-11.1805
息民	-11.1805
之戰	-11.1809
治直之翻	-11.181
魏郡	-11.1816
不和	-11.1817
王覿	-11.1819
守節	-11.182
之比	-11.1821
白金	-11.1821
少監	-11.1822
夏秋	-11.1823
水勢	-11.1823
女也	-11.1824
問其	-11.1827
許昌	-11.1829
布録	-11.183
襄城	-11.183
龍圖閣待制	-11.1831
職任	-11.1832
剰	-11.1833
皆從	-11.1833
不敢復	-11.1835
勞之	-11.1835
繼勲	-11.1835
朝命	-11.1835
咄	-11.1835
彼此	-11.1836
宗閔	-11.1836
與民	-11.1837
兩京	-11.1837
曰凡	-11.1837
不省	-11.1838
隋主	-11.1839
不均	-11.184
兵革	-11.184
滌	-11.184
契勘	-11.1841
益兵	-11.1841
以病	-11.1846
遵裕	-11.1847
澧	-11.1847
其妻子	-11.1849
稱職	-11.1852
失所	-11.1852
入覲	-11.1854
乞以	-11.1855
之宜	-11.1855
遂寢	-11.1857
勉之	-11.1857
來獻	-11.1857
太后曰	-11.1859
遂圍	-11.1863
者盖	-11.1864
選舉	-11.1866
引用	-11.1867
之請	-11.1868
不拜	-11.1869
應詔	-11.187
比至	-11.1871
鎮守	-11.1874
昬	-11.1875
鎻	-11.1875
宣慰	-11.1876
塞外	-11.1876
執事	-11.1877
泝	-11.1877
三思	-11.1877
拔之	-11.1877
蒸	-11.188
人力	-11.188
申請	-11.188
其令	-11.1884
蒯	-11.1885
然亦	-11.1885
莧翻	-11.1885
帝亦	-11.1887
邊患	-11.1887
望陛下	-11.1888
卒贈	-11.1888
險阻	-11.1888
三十餘	-11.1889
之親	-11.189
喻翻	-11.1891
力爭	-11.1891
李林甫	-11.1892
同姓	-11.1892
州之地	-11.1893
中道	-11.1895
曰不然	-11.1898
鼎曰	-11.1902
防禦	-11.1902
之備	-11.1905
今朝廷	-11.1906
主者	-11.1907
獻公	-11.1908
斷其	-11.1908
圍城	-11.1909
項王	-11.191
丈夫	-11.1911
踏	-11.1913
唐州	-11.1913
意也	-11.1915
低	-11.1918
郎將	-11.1919
剌	-11.192
逖	-11.192
竭力	-11.192
臺臣	-11.192
棄城走	-11.1921
長貳	-11.1921
騫	-11.1921
楊行密	-11.1923
澤潞	-11.1924
澆	-11.1925
吏人	-11.1925
封爵	-11.1927
臣寮	-11.1928
宋人	-11.1928
兼并	-11.193
雖無	-11.193
委官	-11.193
時政記	-11.1933
從珂	-11.1935
敗補	-11.1936
羅索	-11.1936
後唐	-11.1936
頒行	-11.1937
引疾	-11.194
親兵	-11.194
不即	-11.1943
于天	-11.1945
不繼	-11.1948
一任	-11.195
駐劄	-11.195
梯	-11.1952
軍器監	-11.1954
汪伯彦	-11.1955
庫庫特穆爾	-11.1955
僮	-11.1956
斥逐	-11.1958
錢鏐	-11.1961
民無	-11.1963
武備	-11.1963
比較	-11.1964
差使	-11.1965
鍾離	-11.1965
惶恐	-11.1966
行禮	-11.1967
龍圖閣學士	-11.1968
榆林	-11.1968
千四百	-11.1971
得幸	-11.1972
皆如	-11.1973
豈宜	-11.1973
兵權	-11.1978
昆弟	-11.198
璽書	-11.1982
太白	-11.1984
既無	-11.1985
路翻	-11.1985
後又	-11.1987
出外	-11.1991
元元年	-11.1995
遣内侍	-11.1995
吏部員外郎	-11.1995
計議	-11.1995
遘	-11.1996
二十三年	-11.1996
不中	-11.1996
侔	-11.1996
帥府	-11.1997
譎	-11.1998
光禄勲	-11.1998
不亦	-11.2
也下	-11.2
字元	-11.2001
私罪	-11.2001
直抵	-11.2003
臨洮	-11.2003
民居	-11.2004
旃	-11.2004
擊大破之	-11.2005
之福也	-11.2007
方略	-11.2008
本軍	-11.2009
餘慶	-11.201
以勸	-11.201
因依	-11.201
季孫	-11.2013
率百官	-11.2013
夫子	-11.2014
等上	-11.2015
入禁中	-11.2017
不可為	-11.2021
南平	-11.2021
備位	-11.2024
使至	-11.2025
自請	-11.203
興元府	-11.2032
館伴	-11.2032
帳下	-11.2032
横山	-11.2035
撫之	-11.2036
萬四千	-11.2036
厮	-11.2036
淮甸	-11.2037
者斬	-11.2038
詳酌	-11.2038
處州	-11.2039
為盜	-11.2039
歉	-11.204
狼狽	-11.2042
紐	-11.2043
益甚	-11.2044
并力	-11.2045
慰勞	-11.2048
為戒	-11.2048
臣竊謂	-11.2048
將張	-11.2049
芻糧	-11.2051
方得	-11.2056
天祚	-11.2057
行狀	-11.2058
虛實	-11.206
晉書	-11.2063
皆用	-11.2067
亦嘗	-11.2068
來年	-11.2069
占城	-11.2071
閼	-11.2072
鐵錢	-11.2076
大半	-11.2078
未詳	-11.2078
以為非	-11.208
河外	-11.208
不能無	-11.2081
酖	-11.2082
王崩	-11.2083
深慮	-11.2083
訕	-11.2083
為嗣	-11.2083
招集	-11.2084
鄖	-11.2085
聽命	-11.2087
奏舉	-11.2087
京師地震	-11.2089
唐虞	-11.2089
立皇后	-11.209
等謀	-11.209
車馬	-11.2091
守信	-11.2096
本府	-11.2098
未平	-11.2098
安邑	-11.2105
之可也	-11.2106
去其	-11.2107
擴	-11.2108
堯臣	-11.2108
一處	-11.2109
平地	-11.2109
二十一日	-11.2116
殊不	-11.2116
外餘	-11.2117
延和殿	-11.2117
珽	-11.2118
國忠	-11.2119
絃	-11.2122
棐	-11.2125
重於	-11.2125
苞	-11.2126
惟演	-11.2127
者矣	-11.2131
身為	-11.2133
學生	-11.2134
引還	-11.2135
逆戰	-11.2136
后妃	-11.2137
諸儒	-11.2143
攻陷	-11.2148
前殿	-11.2151
魏置	-11.2151
千牛	-11.2152
上謂大臣曰	-11.2153
舊史	-11.2154
乃欲	-11.2154
頤浩	-11.2155
後軍	-11.2161
其鋒	-11.2164
傳位	-11.2166
稍稍	-11.2166
臣之所	-11.2167
不拘	-11.2171
亦不敢	-11.2172
歴代	-11.2172
臣觀	-11.2173
腰	-11.2173
近嵗	-11.2174
臣竊見	-11.2174
死生	-11.2177
請於	-11.2178
周官	-11.2178
璪	-11.2183
與李	-11.2184
欣然	-11.2185
憚之	-11.2188
别置	-11.2191
服其	-11.2193
氏崩	-11.2194
知永興軍	-11.2197
歸朝	-11.2199
剪	-11.2199
影	-11.22
資治通鑑	-11.22
宋司馬光撰胡三省音註	-11.22
沙陀	-11.22
嘉其	-11.2201
起居注	-11.2201
瀕	-11.2201
為重	-11.2202
陌	-11.2205
有害	-11.2206
黄龍	-11.2209
廆	-11.2209
之口	-11.2209
配天	-11.221
正史	-11.221
乾祐	-11.2213
為尚書令	-11.2215
先悉	-11.2216
廷弼	-11.2216
秦鳯路	-11.2216
勸進	-11.2218
國書	-11.2219
零陵	-11.222
以新紀	-11.2221
殤	-11.2222
功徳	-11.2224
五等	-11.2225
軍節度	-11.2225
之誅	-11.2232
至於此	-11.2233
郭威	-11.2233
彦超	-11.2234
乾徳	-11.2235
此又	-11.2236
詐為	-11.2236
之急	-11.2237
雅克特穆爾	-11.2238
貺	-11.2238
為辭	-11.2239
向者	-11.2239
五十餘	-11.2241
堆	-11.2242
章楶	-11.2242
是則	-11.2242
皇孫	-11.2242
考試	-11.2243
幟	-11.2244
盧龍	-11.2246
逺矣	-11.2247
猗	-11.2248
所領	-11.2248
擔	-11.2248
媯	-11.2249
分數	-11.225
建平	-11.225
顔色	-11.2252
求援	-11.2252
親民	-11.2252
涿郡	-11.2253
民事	-11.2253
自號	-11.2255
徙都	-11.2255
既有	-11.2255
恩信	-11.2257
亦乞	-11.2257
以威	-11.2259
殿上	-11.2261
隨之	-11.2263
藏之	-11.2264
煜	-11.2265
不義	-11.2266
群	-11.2266
被害	-11.2268
納欵	-11.2273
志曰	-11.2274
地方	-11.2277
欲求	-11.2277
等請	-11.2284
將李	-11.2284
袤	-11.2286
鞬	-11.2286
怡	-11.2287
衘	-11.2288
蚡	-11.2292
其姦	-11.2293
統兵	-11.2294
陳氏	-11.2294
磬	-11.2295
謂人曰	-11.2296
今改後仿此	-11.2297
責降	-11.2299
王存	-11.2299
等率	-11.23
蠻人	-11.2301
袁紀	-11.2302
謚曰	-11.2302
皆稱	-11.2303
遂有	-11.2305
韓魏	-11.2305
擇人	-11.2306
議者謂	-11.2307
孝經	-11.231
難於	-11.231
即乞	-11.2311
珂	-11.2312
與王	-11.2313
大夏	-11.2313
家事	-11.2315
請給	-11.2316
知秦州	-11.2317
衡山	-11.2318
大政	-11.2318
審察	-11.2318
薩里罕	-11.232
兵三千	-11.232
易州	-11.232
委以	-11.2322
三萬人	-11.2323
韻	-11.2325
三四	-11.2326
簿書	-11.2328
許將	-11.233
慨然	-11.2332
沂中	-11.2333
張齊賢	-11.2335
吳玠	-11.2336
離間	-11.2336
讙	-11.2338
堅壁	-11.2341
濮王	-11.2341
皆由	-11.2342
世隆	-11.2342
所築	-11.2342
臺諫官	-11.2345
不敬	-11.2346
遂致	-11.2348
於後	-11.235
相結	-11.2351
忠武	-11.2351
豈容	-11.2352
僧辯	-11.2353
郡縣志	-11.2359
大安	-11.2359
儀注	-11.236
二等	-11.236
挑	-11.2362
意在	-11.2362
氊	-11.2362
勍	-11.2363
史館修撰	-11.2363
賦役	-11.2364
敬宗	-11.2367
富平	-11.2368
擅權	-11.2368
攻圍	-11.2368
玘	-11.2369
杼	-11.2369
叶	-11.2371
二百五十	-11.2372
法當	-11.2372
馥	-11.2375
果莊	-11.2375
不救	-11.2376
權貴	-11.2377
願得	-11.2379
江州刺史	-11.238
天資	-11.2381
與人	-11.2382
累日	-11.2383
光曰	-11.2383
襲之	-11.2384
愛惜	-11.2386
宣示	-11.2386
素服	-11.2387
之威	-11.2389
天下之事	-11.239
日中	-11.2391
故有	-11.2392
奏云	-11.2392
受禪	-11.2393
既行	-11.2394
亦宜	-11.2396
明年正月	-11.2397
與敵	-11.2397
見于	-11.2398
馴	-11.2398
李徳裕	-11.2398
否則	-11.2399
先是上	-11.24
覆奏	-11.2402
内殿承制	-11.2403
改作	-11.2404
李彦	-11.2405
復歸	-11.2406
以觀	-11.2407
考功	-11.2407
無知	-11.2407
摶	-11.2409
傅堯俞	-11.2409
初上	-11.2409
承受	-11.2409
為憂	-11.241
太上	-11.241
帝聞	-11.2413
代郡	-11.2413
按此	-11.2414
義翻	-11.2416
宫殿	-11.2416
對曰陛下	-11.2418
部衆	-11.242
今雖	-11.242
在陛下	-11.2421
文龍	-11.2422
御崇政殿	-11.2424
太重	-11.2426
自隨	-11.2429
義士	-11.2432
而遁	-11.2433
大率	-11.2434
為太傅	-11.2435
檢舉	-11.2436
合用	-11.2438
衛人	-11.2441
親黨	-11.2442
賈易	-11.2443
學問	-11.2443
以制	-11.2444
應募	-11.2446
器甲	-11.2448
𠡠	-11.2448
三十七	-11.2451
靚	-11.2452
江南東路	-11.2453
隷	-11.2453
楊素	-11.2454
怏怏	-11.2455
四海之	-11.2456
治所	-11.2457
旄	-11.2457
肝	-11.2457
陳康伯	-11.2462
鷄	-11.2463
此所以	-11.2463
濟州	-11.2463
不戰而	-11.2464
殿門	-11.2465
盎	-11.2465
太常卿	-11.2467
賜爵	-11.247
按視	-11.2471
皆屬	-11.2471
所統	-11.2472
事上曰	-11.2473
聖政	-11.2475
化及	-11.2477
明主	-11.248
繫之	-11.248
騎竒	-11.2482
十二人	-11.2483
目前	-11.2484
義倉	-11.2485
一司	-11.2488
不習	-11.2488
證翻	-11.2489
死節	-11.249
三字	-11.2492
璨	-11.2492
樂安	-11.2492
霑	-11.2493
礮	-11.2493
詧	-11.2493
雖未	-11.2494
霖雨	-11.2494
老子	-11.2494
平之	-11.2494
李定	-11.2497
也此	-11.2497
婺州	-11.2498
謀議	-11.2498
也况	-11.2499
淮隂	-11.2499
頑	-11.2503
于晉	-11.2503
莫大於	-11.2505
大司空	-11.2506
然臣	-11.2507
必勝	-11.2509
前知	-11.2511
依例	-11.2512
有謀	-11.2512
者十	-11.2513
在朝廷	-11.2513
重誨	-11.2515
入闗	-11.2515
牧馬	-11.2524
彈奏	-11.2524
封疆	-11.2527
二十三日	-11.2527
體仁	-11.2528
朝散大夫	-11.2529
資善堂	-11.253
更定	-11.253
天王	-11.2531
𣙜貨務	-11.2532
實録云	-11.2533
右軍	-11.2534
團練使	-11.2535
不道	-11.2535
轉一官	-11.2537
甚急	-11.2537
寧州	-11.2537
為賊	-11.2538
盡言	-11.2539
誚	-11.254
惕	-11.2542
内出	-11.2546
夭	-11.2547
髙郵	-11.2548
困於	-11.2551
畫一	-11.2551
何用	-11.2552
洛水	-11.2555
民户	-11.2555
興化	-11.2556
京湖	-11.2557
編類	-11.2558
侵掠	-11.2559
中間	-11.256
皇天	-11.256
支用	-11.2561
乏食	-11.2562
安人	-11.2563
以全	-11.2571
遙	-11.2572
樵	-11.2573
吕后	-11.2574
向敏中	-11.2575
裹	-11.2576
悰	-11.2576
附注	-11.2577
宰執奏	-11.2577
二十二年	-11.2577
衆論	-11.2579
養子	-11.2579
婉	-11.258
進屯	-11.2581
書奏	-11.2581
彞	-11.2581
殫	-11.2581
司𨽻校尉	-11.2582
未發	-11.2583
擠	-11.2584
此輩	-11.2584
河洛	-11.2586
盆	-11.2586
也師古曰	-11.2587
怨之	-11.2588
令尹	-11.2589
易簡	-11.2589
役人	-11.2591
歎息	-11.2592
奪之	-11.2592
鄴都	-11.2593
曰賊	-11.2593
言事者	-11.2593
輔國	-11.2594
左右皆	-11.2595
通和	-11.2596
應天府	-11.2597
河北路	-11.2597
南岸	-11.2601
法制	-11.2603
議定	-11.2604
孝子	-11.2607
留中	-11.2608
帥所	-11.2608
追及	-11.2609
可勝	-11.261
選用	-11.2612
士論	-11.2614
稱藩	-11.2614
察哈爾	-11.2615
破其	-11.2616
僉書樞宻院事	-11.2617
甚明	-11.2617
審刑院	-11.2619
之具	-11.2619
祔廟	-11.2619
儒臣	-11.2621
鄧綰	-11.2622
閣臣	-11.2624
開封尹	-11.2624
苦之	-11.2626
不獨	-11.2627
四品	-11.2631
别為	-11.2632
昭王	-11.2634
鴻臚	-11.2634
又置	-11.2635
流入	-11.2638
今並	-11.2643
可信	-11.2647
一百六十	-11.2649
門人	-11.2649
予之	-11.2656
三子	-11.2656
凡七	-11.2658
皆坐	-11.2658
入内内侍省	-11.2658
即與	-11.2659
兵器	-11.266
茶場	-11.2661
北庭	-11.2662
山後	-11.2663
類翻	-11.2664
詔遣	-11.2664
司天	-11.2665
乎對曰	-11.2666
既平	-11.2667
阿哈瑪特	-11.2668
李晟	-11.2669
鼠	-11.2669
毁之	-11.267
諸陵	-11.267
臣愚以為	-11.2671
牛馬	-11.2671
不察	-11.2672
烝	-11.2675
江寧府	-11.2676
君子之	-11.2678
帝自	-11.2678
上表請	-11.2681
以養	-11.2682
恨之	-11.2687
若非	-11.2687
被皮	-11.2688
已令	-11.2692
者不得	-11.2693
齊師	-11.2693
與此	-11.2694
大雪	-11.2694
甚大	-11.2694
躬親	-11.2696
旦翻	-11.2697
二十八年	-11.2697
農民	-11.2698
權知開封府	-11.2698
特㫖	-11.2699
内庫	-11.2701
善者	-11.2701
請立	-11.2702
請復	-11.2702
官兵	-11.2703
所管	-11.2704
忝	-11.2705
欲盡	-11.2705
惑衆	-11.2707
明經	-11.2708
大者	-11.271
删	-11.271
弑君	-11.271
其屬	-11.271
謡	-11.2711
捍禦	-11.2714
為都督	-11.2715
擊走之	-11.2715
所收	-11.2718
千金	-11.2719
迎合	-11.2721
百八十	-11.2721
醫官	-11.2721
復出	-11.2722
等使	-11.2722
從政	-11.2723
而不言	-11.2727
先遣	-11.2729
明道	-11.273
庶政	-11.2733
居住	-11.2735
國勢	-11.2736
外議	-11.2738
䕫州	-11.2738
副元帥	-11.274
從來	-11.274
外有	-11.2741
得無	-11.2742
老病	-11.2744
賊帥	-11.2746
趙子	-11.2746
嘉勒斯賚	-11.2747
泰始	-11.2748
考課	-11.275
不祥	-11.275
不可行	-11.275
百日	-11.2755
豳	-11.2755
傉檀	-11.2757
隄防	-11.2758
於齊	-11.2761
浮橋	-11.2761
縣在	-11.2761
文華	-11.2764
御殿	-11.2765
㑹議	-11.2765
柯	-11.2765
太初	-11.2766
情理	-11.2766
有道	-11.2766
所惡	-11.277
大饑	-11.2771
本漢	-11.2771
小兒	-11.2772
慰諭	-11.2774
舒州	-11.2774
劉向	-11.2777
經理	-11.2777
常平倉	-11.2777
六部	-11.2778
仲舒	-11.2779
繼隆	-11.2779
後苑	-11.2779
邳	-11.2779
不覺	-11.278
切齒	-11.2782
惟忠	-11.2784
持重	-11.2784
風聞	-11.2784
兵甲	-11.2785
之大者	-11.2788
廢帝	-11.2788
武定	-11.2789
規模	-11.2792
集英殿修撰	-11.2793
内官	-11.2794
右武大夫	-11.2795
涇陽	-11.2796
沅	-11.2799
此何	-11.2799
相息亮翻	-11.2799
毓	-11.2802
從臣	-11.2802
歇	-11.2802
曏	-11.2802
永和	-11.2802
親近	-11.2803
絞	-11.2803
翕然	-11.2803
王世充	-11.2804
暴露	-11.2804
則可以	-11.2805
左正言	-11.2808
廣武	-11.2808
餓	-11.2809
十有二	-11.2809
棗	-11.281
寢疾	-11.281
上許之	-11.2811
孝先	-11.2812
死事	-11.2813
檢察	-11.2814
亦皆	-11.2815
紹述	-11.2816
五日一	-11.2816
馬步	-11.2816
他事	-11.2816
記室	-11.2818
福王	-11.282
梓州	-11.2822
長編	-11.2826
城破	-11.2829
複	-11.283
元祐元年	-11.2831
不誅	-11.2832
待其	-11.2832
㲄	-11.2833
賜姓	-11.2834
包拯	-11.2835
濡	-11.2839
百七十	-11.2839
潼川	-11.2839
横行	-11.284
尺寸	-11.2842
徳威	-11.2843
感悟	-11.2845
爭之	-11.2846
配享	-11.2846
必得	-11.2846
所造	-11.2847
此類	-11.2847
禮儀	-11.2849
協力	-11.2851
大鴻臚	-11.2853
䜴翻	-11.2853
以為常	-11.2855
不得已而	-11.2858
開陳	-11.2861
復取	-11.2863
呉越	-11.2864
行義	-11.2866
次子	-11.2868
檢詳	-11.2871
據險	-11.2872
而易	-11.2873
一石	-11.2874
稱善	-11.2875
天威	-11.2876
擊破	-11.2877
三班奉職	-11.2878
聖賢	-11.2879
大聖	-11.2881
煦	-11.2881
已來	-11.2882
爵賞	-11.2883
鄉村	-11.2888
卒以	-11.2889
紫宸殿	-11.2889
幡	-11.2889
瞽	-11.289
於西	-11.2891
二人皆	-11.2891
日下	-11.2891
令狐	-11.2891
舜卿	-11.2891
固非	-11.2892
浴	-11.2892
威武	-11.2893
但恐	-11.2898
曰子	-11.2898
四字	-11.29
疾速	-11.29
所入	-11.2902
為己	-11.2902
照翻	-11.2903
左諫議大夫	-11.2904
二十五年	-11.2906
前書	-11.2911
為吏部尚書	-11.2911
稱王	-11.2913
交割	-11.2919
興兵	-11.2919
􁨑	-11.2919
嘉問	-11.292
滬	-11.2921
異於	-11.2921
修城	-11.2921
穆爾	-11.2923
名臣	-11.2924
夫婦	-11.2926
虗	-11.2926
義軍	-11.2927
慮其	-11.2927
英雄	-11.2929
告身	-11.293
舛	-11.2931
駟	-11.2933
勿令	-11.2936
之性	-11.2936
宥州	-11.2936
鎮定	-11.2936
不難	-11.2938
東京留守	-11.2938
分司	-11.2939
正言	-11.2941
大都	-11.2942
誰可	-11.2942
幽王	-11.2946
龎籍	-11.2947
師旦	-11.2949
難之	-11.2949
嵩之	-11.2953
説文	-11.2954
光化	-11.2954
督責	-11.2955
彗星	-11.2955
多士	-11.2956
皇太	-11.2958
沅州	-11.2958
太過	-11.296
曰某	-11.2962
也音	-11.2963
南史	-11.2964
殿侍	-11.2965
不就	-11.2966
官一員	-11.2967
崈	-11.2967
慰撫	-11.2969
騷擾	-11.2971
國子祭酒	-11.2971
遣將軍	-11.2971
二國	-11.2972
故云	-11.2972
璹	-11.2972
籍其家	-11.2974
萬六千	-11.2975
縣故城	-11.2975
失信	-11.2976
屯駐	-11.2977
切姓也	-11.2977
踊	-11.2977
漢髙祖	-11.2977
藩邸	-11.2978
任用	-11.2979
井陘	-11.298
請對	-11.298
國珍	-11.2981
蜀郡	-11.2982
邠寧	-11.2983
竟陵	-11.2985
自便	-11.2985
丁度	-11.2987
杜衍	-11.2991
馮道	-11.2991
華隂	-11.2993
文侯	-11.2994
上件	-11.2995
南向	-11.2996
朝官	-11.2997
同判	-11.3001
神宗皇帝	-11.3001
驍騎	-11.3002
豐州	-11.3005
可任	-11.3006
一百七十	-11.3008
奏到	-11.3008
江水	-11.3009
琿	-11.301
升卿	-11.301
獻之	-11.3011
助役	-11.3011
虹	-11.3012
公亮	-11.3013
專以	-11.3014
制書	-11.3014
樞府	-11.3015
主管台州崇道觀	-11.3016
牢城	-11.3017
聖躬	-11.3017
陕	-11.3017
求治	-11.3019
譲	-11.3019
被皮義翻	-11.3019
縑	-11.302
淳化	-11.302
沈該	-11.3022
修徳	-11.3022
阪	-11.3025
㳟	-11.3026
大位	-11.3028
聖恩	-11.3028
諌議大夫	-11.303
命令	-11.3032
紀云	-11.3033
可求	-11.3038
來貢	-11.304
置局	-11.304
我兵	-11.3043
講讀	-11.3046
吾民	-11.3046
宗愈	-11.3048
郴州	-11.3051
先以	-11.3054
地利	-11.3056
總制	-11.3056
進至	-11.3057
彌逺	-11.3059
極論	-11.3059
䛕	-11.306
押班	-11.3061
謀之	-11.3061
屬國	-11.3063
新本	-11.3063
團練	-11.3064
轅	-11.3065
直學士院	-11.3066
沸	-11.3067
馮拯	-11.3067
郗	-11.3068
為二	-11.3069
四十萬	-11.3071
八十里	-11.3071
乎此	-11.3071
諸城	-11.3074
一心	-11.3076
以副	-11.3082
諸州軍	-11.3082
司天監	-11.3084
夀皇	-11.3084
凖備	-11.3086
興復	-11.3088
幕府	-11.309
數多	-11.3092
失望	-11.3092
主人	-11.3093
曰國家	-11.3093
房州	-11.3094
贓吏	-11.3094
逐處	-11.3096
欲殺之	-11.3096
帝召	-11.3098
譬如	-11.3099
㤙	-11.31
西蕃	-11.31
審官院	-11.3103
潦	-11.3104
年老	-11.3104
皆當	-11.3104
兵三萬	-11.3105
沽	-11.3106
坰	-11.3106
帶御器械	-11.3107
啜	-11.3107
既去	-11.3107
刦	-11.3107
陳堯叟	-11.3108
秘書省	-11.3108
蔓	-11.3108
沿邉	-11.3109
澶淵	-11.311
乗馬	-11.311
郴	-11.3111
推賞	-11.3111
信任	-11.3112
軍門	-11.3115
先君	-11.3116
登極	-11.3118
户部言	-11.3118
文皇帝	-11.3118
蘇頌	-11.3118
德明	-11.312
朕當	-11.3122
其辭	-11.3124
初除	-11.3124
上即位	-11.3125
無虞	-11.3129
震恐	-11.313
有司奏	-11.3131
西羌	-11.3131
先帝之	-11.3132
舉進士	-11.3132
附於	-11.3133
不得入	-11.3133
王敦	-11.3134
出迎	-11.3135
諸路監司	-11.3137
通作	-11.3137
勇士	-11.3137
成法	-11.3137
統之	-11.3142
何哉	-11.3143
鋹	-11.3145
詩書	-11.3145
囉	-11.3146
慟	-11.3146
各切	-11.3147
竿	-11.3148
奉議郎	-11.3148
而亡	-11.3148
遹	-11.3149
臨海	-11.315
請罪	-11.3151
話	-11.3151
得其實	-11.3151
濱	-11.3151
上聞之	-11.3152
蠱	-11.3152
妣	-11.3152
卒子恤翻	-11.3153
王中正	-11.3153
萃	-11.3154
文德	-11.3155
至徳	-11.3156
通商	-11.3156
曹利用	-11.3156
旱蝗	-11.3157
騶	-11.3158
孟庾	-11.3158
止有	-11.3159
株	-11.316
求和	-11.316
動揺	-11.316
加之	-11.3163
詔命	-11.3164
入相	-11.3165
懐敏	-11.3167
視其	-11.3173
所撰	-11.3175
今當	-11.3175
正旦	-11.3177
贈官	-11.3177
此年	-11.3177
勣	-11.3177
五代史	-11.318
天理	-11.3181
至重	-11.3181
達實	-11.3181
至洛陽	-11.3182
路轉運判官	-11.3182
一百八十	-11.3183
使我	-11.3184
宣化	-11.3186
于秦	-11.3187
若無	-11.3188
絶之	-11.319
遂定	-11.319
鄩	-11.3191
始祖	-11.3191
鏜	-11.3191
如前	-11.3192
第六	-11.3195
張良	-11.3195
徽猷閣直學士	-11.3195
權罷	-11.3196
於朝廷	-11.3196
奥	-11.3197
帝曰朕	-11.3197
憸	-11.3197
劣	-11.3198
抵罪	-11.3198
塤	-11.3198
巒	-11.3199
故稱	-11.32
安得不	-11.32
殽	-11.3205
辭免	-11.3208
始用	-11.3208
崇寧	-11.3208
江寧	-11.3209
弑其君	-11.3209
餘悉	-11.3212
孝忠	-11.3214
二十六年	-11.3215
還京	-11.3217
兵民	-11.3218
言昨	-11.322
不限	-11.3226
聖德	-11.3228
明史	-11.3229
次之	-11.3231
諌曰	-11.3232
外則	-11.3233
必不能	-11.3234
未經	-11.3235
不變	-11.3235
儒者	-11.3235
不奉詔	-11.3236
次日	-11.3237
元康	-11.3238
二萬人	-11.324
元璋	-11.3241
廻	-11.3242
聿	-11.3244
史彌逺	-11.3244
輓	-11.3245
宗正寺	-11.3247
禁錮	-11.3247
亦必	-11.3247
王庭	-11.3247
脉	-11.3248
矧	-11.3249
使金	-11.3251
初即位	-11.3251
槊	-11.3253
陽武	-11.3253
必致	-11.3253
元載	-11.3255
恩禮	-11.3255
特降	-11.3255
同議	-11.3256
之誠	-11.3257
權御史中丞	-11.326
河東節度使	-11.3261
姦謀	-11.3263
至行在	-11.3263
月六日	-11.3263
安知	-11.3265
所劾	-11.3266
宜早	-11.3268
上郡	-11.3269
為樞宻使	-11.3273
不能守	-11.3275
建明	-11.3279
安静	-11.3281
宜速	-11.3281
三十三	-11.3282
上尊號	-11.3283
歐	-11.3284
逈	-11.3284
礟	-11.3285
醇	-11.3286
而求	-11.3288
考校	-11.329
魏公	-11.329
遂陷	-11.3291
省事	-11.3291
有名	-11.3292
卿言	-11.3292
窺伺	-11.3292
璽綬	-11.3293
㸃集	-11.3294
淇	-11.3295
誣罔	-11.3296
就國	-11.3297
數倍	-11.3297
本處	-11.3299
夏口	-11.33
左將軍	-11.3301
河北河東	-11.3303
初命	-11.3304
戚里	-11.3305
喜怒	-11.3307
勞苦	-11.3307
至是以	-11.3308
軍主	-11.3311
洮州	-11.3311
不能盡	-11.3315
帝親	-11.3318
甚善	-11.3318
西突厥	-11.3323
過半	-11.3327
數十年	-11.3328
通直郎	-11.333
通事舍人	-11.333
偓	-11.3331
繼恩	-11.3333
傳檄	-11.3334
秘閣修撰	-11.3336
三班借職	-11.3336
荆門	-11.3337
杲卿	-11.3338
厚恩	-11.3339
王淵	-11.334
功業	-11.3341
不謹	-11.3342
無足	-11.3346
與俱	-11.3347
亦欲	-11.3351
掩擊	-11.3355
之盟	-11.3355
州刺史李	-11.3356
黄中	-11.3356
一統	-11.3356
而為之	-11.3359
李繼遷	-11.3359
仁傑	-11.3359
糧食	-11.3364
詔下	-11.3365
不細	-11.3366
母子	-11.3368
追奪	-11.3368
留正	-11.3368
臣昨	-11.3369
每有	-11.3371
聽其	-11.3372
平江府	-11.3372
盡是	-11.3373
朝義	-11.3374
邊備	-11.3376
别立	-11.3377
文明	-11.3377
朝服	-11.3377
禋	-11.338
汝礪	-11.3381
講武	-11.3382
態	-11.3383
及第出身	-11.3383
訢	-11.3384
眩	-11.3384
契丹使	-11.3385
蒐	-11.3386
宫禁	-11.3387
邴	-11.3388
吕誨	-11.3388
安敢	-11.3388
以徇	-11.339
奉命	-11.339
相傳	-11.339
多有	-11.339
匄	-11.3393
二千餘人	-11.3394
等四人	-11.3395
勢必	-11.3395
軍容	-11.3396
無所不至	-11.3397
可望	-11.34
秦王堅	-11.3401
後數日	-11.3402
有聲	-11.3404
亞夫	-11.3406
未見其	-11.3407
不敢進	-11.3407
服御	-11.3409
州司户	-11.3409
得實	-11.341
第十	-11.3412
鎮東	-11.3414
闗東	-11.3414
嵗幣	-11.3415
字文	-11.3416
萬安	-11.3417
王安	-11.3418
刪定	-11.3418
穆呼哩	-11.3419
大帥	-11.342
十倍	-11.3421
藤	-11.3422
而敗	-11.3423
不俟	-11.3424
紬絹	-11.3424
其舊	-11.3425
杖之	-11.3425
摭	-11.3426
粤	-11.3428
不次	-11.3428
赭	-11.3428
太一宫	-11.3429
呵	-11.343
灰	-11.3432
赤眉	-11.3432
從諫	-11.3432
洧	-11.3432
始以	-11.3433
解圍	-11.3433
在彼	-11.3433
十三人	-11.3434
椎	-11.3436
恩例	-11.3438
邵武	-11.344
海上	-11.344
坎	-11.3441
彦澤	-11.3442
一縣	-11.3442
有疑	-11.3443
二百四十	-11.3449
重修	-11.345
市井	-11.3451
敗事	-11.3452
還自	-11.3454
監門	-11.3456
難乃	-11.3459
乃請	-11.346
隋開皇	-11.3462
馬燧	-11.3463
二十餘年	-11.3467
屯田員外郎	-11.3467
承業	-11.3468
大順	-11.3468
參議官	-11.3468
養馬	-11.347
禆將	-11.3471
州别駕	-11.3472
可畏	-11.3472
以便	-11.3472
監察御史裏行	-11.3473
考察	-11.3474
縻	-11.3475
二十餘萬	-11.3476
為内應	-11.3478
潘美	-11.3478
組	-11.3479
郞	-11.3481
鄯州	-11.3482
韓王	-11.3484
西伯	-11.3484
先聖	-11.3485
本作	-11.3486
細民	-11.3487
職事官	-11.3488
鄉侯	-11.3488
貼黄稱	-11.3488
襄陽府	-11.3488
既以	-11.349
詳考	-11.3491
或勸	-11.3493
經略安撫	-11.3494
上語	-11.3495
順昌	-11.3496
太子太傅	-11.3496
兵五千	-11.35
入謝	-11.3501
經畫	-11.3502
糧道	-11.3503
中書監	-11.3505
賢人	-11.3505
合於	-11.3507
連坐	-11.3509
驚曰	-11.351
尚多	-11.3513
趍	-11.3514
追還	-11.3514
世襲	-11.3516
之明	-11.3518
軸	-11.3519
坡	-11.352
之端	-11.3522
手足	-11.3523
箠	-11.3523
擁衆	-11.3523
郡國志	-11.3524
宗周	-11.3524
難乃旦翻	-11.3524
侑	-11.3524
愽	-11.3527
趙抃	-11.353
行也	-11.3531
後省	-11.3532
煩擾	-11.3532
宣宗	-11.3533
指為	-11.3534
被甲	-11.3535
濟北	-11.3539
者不過	-11.3541
經界	-11.3544
任滿	-11.3545
進圍	-11.3547
一例	-11.3548
書生	-11.3549
八萬	-11.3549
被圍	-11.355
擊賊	-11.3551
而動	-11.3551
閬州	-11.3552
復來	-11.3552
鄯	-11.3553
内則	-11.3555
蔚州	-11.3555
可憂	-11.3556
深思	-11.3557
來賀	-11.3557
崇文	-11.3557
誅戮	-11.3558
以其地	-11.3558
供奉	-11.3559
節儉	-11.356
摠	-11.3561
秘書少監	-11.3562
去官	-11.3564
提舉臨安府洞霄宫	-11.3564
三里	-11.3566
本國	-11.3566
利於	-11.3568
奏報	-11.3568
鄉縣	-11.3568
栅	-11.3568
監官	-11.3568
成就	-11.3569
凋	-11.3569
迴	-11.3569
竈	-11.357
臺省	-11.357
必至	-11.357
益州刺史	-11.3571
諍	-11.3572
檻	-11.3572
設官	-11.3572
千騎	-11.3573
國寳	-11.3574
始興	-11.3575
僚佐	-11.3576
君命	-11.3576
欲因	-11.3577
累遷	-11.3578
地理	-11.3578
奬諭	-11.3579
分畫	-11.3579
乎且	-11.358
二年正月	-11.3581
勿翻	-11.3583
軍節度副使	-11.3584
東西路	-11.3584
韶州	-11.3585
租税	-11.3585
發遣	-11.3587
誤矣	-11.3587
張燾	-11.3588
將行	-11.3589
以塞	-11.359
錢數	-11.3591
響	-11.3598
不可不察	-11.3599
此議	-11.3599
尚存	-11.3602
伯彦	-11.3603
郡唐	-11.3608
隋書	-11.3608
曹公	-11.3608
溉	-11.3609
之誤	-11.3609
長官	-11.3611
既立	-11.3611
瘴	-11.3611
裨	-11.3611
中書言	-11.3613
殛	-11.3614
流亡	-11.3615
一字	-11.3615
垍	-11.3615
主客	-11.3617
天人	-11.3618
刑部郎中	-11.3618
酒食	-11.3619
敗補邁翻	-11.362
也今從	-11.3621
綦	-11.3622
匈	-11.3625
阿里	-11.3626
百餘萬	-11.3627
浮梁	-11.3629
同謀	-11.3629
胥吏	-11.3634
奮擊	-11.3635
神考	-11.3635
生辰	-11.3636
如是則	-11.3637
裁定	-11.3637
縣今	-11.3638
移檄	-11.3638
金帶	-11.3638
百千	-11.3639
中立	-11.3639
不經	-11.364
成周	-11.3641
趙鼎曰	-11.3643
於我	-11.3644
西州	-11.3644
貧者	-11.3644
清水	-11.3647
對上	-11.3648
私恩	-11.3649
物價	-11.365
遥郡	-11.3651
前一日	-11.3654
砲	-11.3655
切說	-11.3655
大司徒	-11.3656
而用	-11.3657
晏然	-11.3658
縣今屬	-11.3658
都總管	-11.366
孫升	-11.3661
北有	-11.3662
國計	-11.3662
立國	-11.3663
職方	-11.3664
盪	-11.3665
擣	-11.3665
於魏	-11.3666
安定郡	-11.3666
奏裁	-11.3669
之喪	-11.3674
頰	-11.3676
賢妃	-11.3676
有異志	-11.3676
建德	-11.3676
章䟽	-11.3677
小吏	-11.3677
九百	-11.3678
出納	-11.3679
白水	-11.3683
聲勢	-11.3684
何異	-11.3684
尊卑	-11.3687
汜水	-11.369
窮治	-11.3691
安有	-11.3693
戮力	-11.3693
無幾	-11.3693
親祠	-11.3694
之田	-11.3699
半月	-11.3699
載之	-11.3701
納其言	-11.3705
分守	-11.3705
玊	-11.3706
賜諡	-11.3706
霸先	-11.3707
於上前	-11.3708
湯鵬舉	-11.3709
嘉興	-11.3709
供備庫副使	-11.371
筵	-11.3711
市舶	-11.3711
亦多	-11.3711
告諭	-11.3712
侵犯	-11.3712
洶洶	-11.3713
利病	-11.3713
北去	-11.3714
叨	-11.3714
四分	-11.3714
轂	-11.3715
阨	-11.3715
臥	-11.3715
殃	-11.3718
場務	-11.3718
去冬	-11.3721
仇池	-11.3722
同共	-11.3724
易曰	-11.3725
閏二月	-11.3726
知樞宻院	-11.3727
可疑	-11.3732
器用	-11.3735
夾攻	-11.3736
六經	-11.3736
亦恐	-11.3737
以此為	-11.3738
白帝	-11.3739
引咎	-11.3741
六曰	-11.3742
帥兵	-11.3742
大内	-11.3743
於法	-11.3744
薨子	-11.3747
勞費	-11.3747
宣公	-11.3748
西安	-11.3749
幸而	-11.3752
是後	-11.3753
宣徽南院使	-11.3754
沼	-11.3754
中行	-11.3755
隋置	-11.3755
文忠	-11.3757
鈐轄司	-11.3757
歴陽	-11.3758
丐	-11.376
百九十	-11.3761
汴河	-11.3763
郟	-11.3763
醴	-11.3763
先悉薦翻	-11.3764
沂州	-11.3765
求救	-11.3765
繼至	-11.3767
利州路	-11.3767
前來	-11.3768
直書	-11.3769
祏	-11.3769
張商英	-11.377
後魏置	-11.3771
吏卒	-11.3772
知院	-11.3774
乃敢	-11.3774
鼓譟	-11.3775
定奪	-11.3779
諸道兵	-11.378
未暇	-11.3781
賊黨	-11.3783
轉輸	-11.3783
廷議	-11.3785
况今	-11.3786
左軍	-11.3787
二十四年	-11.3789
南漢	-11.379
武俊	-11.3793
新野	-11.3794
延儒	-11.3797
推之	-11.3798
兵部員外郎	-11.3801
有違	-11.3802
祕書省	-11.3803
鎰	-11.3803
秦人	-11.3803
西上閤門使	-11.3804
年八十	-11.3804
駙馬	-11.3806
宣撫副使	-11.3806
兵馬都監	-11.3807
李泌	-11.3808
堯翻	-11.3809
阿史那	-11.381
惟是	-11.381
黜責	-11.3811
相承	-11.3813
髙歡	-11.3813
計事	-11.3814
見行	-11.3814
縣也	-11.3815
天下之大	-11.3815
知誥	-11.3816
遺表	-11.3816
裁損	-11.3817
檢正	-11.3818
叔文	-11.3819
死者甚衆	-11.3819
内閣	-11.382
充國	-11.3821
豉翻	-11.3822
穆之	-11.3826
奏陳	-11.3827
多事	-11.383
故切	-11.383
昭逺	-11.383
害之	-11.3831
詔天下	-11.3837
引軍	-11.3839
崇勲	-11.384
坐視	-11.3842
知祥	-11.3844
既退	-11.3845
月給	-11.3846
封侯	-11.3846
一行	-11.3849
君長	-11.385
神農	-11.385
大忠	-11.3853
改易	-11.3854
小子	-11.3855
非常之	-11.3855
世輔	-11.3855
廣淵	-11.3855
土人	-11.3856
月八日	-11.3858
貎	-11.3858
遇賊	-11.3859
鵲	-11.3859
威權	-11.3859
胷	-11.3862
牧守	-11.3865
無主	-11.3866
承訓	-11.3867
自焚	-11.3869
入境	-11.3869
武侯	-11.387
每年	-11.387
南單于	-11.3871
及即位	-11.3871
尋詔	-11.3873
留身	-11.3874
攻取	-11.388
始知	-11.3881
朝謁	-11.3885
在長安	-11.3887
朝賀	-11.3887
穆宗	-11.3889
亦翻	-11.3891
仍乞	-11.3891
評曰	-11.3893
為朕	-11.3895
正其罪	-11.3896
無慮	-11.3898
萬世之	-11.3898
四十五	-11.3899
聖主	-11.3899
流俗	-11.39
淚	-11.3903
麓	-11.3903
自任	-11.3904
袒	-11.3906
又言臣	-11.3908
觴	-11.391
燎	-11.391
丁酉詔	-11.391
稱制	-11.3911
晏殊	-11.3911
跋扈	-11.3911
無度	-11.3914
勸農	-11.3914
及聞	-11.3918
隨州	-11.3919
知開封府	-11.392
優詔	-11.3923
縣名	-11.3923
銜之	-11.3926
遂成	-11.3926
潞王	-11.3928
贈太師	-11.393
親政	-11.3931
因縁	-11.3932
已前	-11.3933
憐之	-11.3933
彦若	-11.3935
大雅	-11.3935
元皇帝	-11.3935
執法	-11.3938
初立	-11.3938
必不敢	-11.3939
上將	-11.3939
不可勝	-11.3942
帥司	-11.3942
乆不	-11.3943
得其人	-11.3943
乘間	-11.3944
大中祥符	-11.3944
宜加	-11.3945
於衆	-11.3949
上馬	-11.3949
遂使	-11.395
謂我	-11.3951
直徽猷閣	-11.3951
失實	-11.3952
竑	-11.3953
敬瑭	-11.3954
實無	-11.3954
皂	-11.3954
屢敗	-11.3955
生員	-11.3955
聖王	-11.3955
嗣宗	-11.3956
弇	-11.3956
他書	-11.3956
太平州	-11.3957
蚤	-11.3957
炬	-11.3957
諭㫖	-11.3958
它日	-11.3959
厠	-11.3959
卬	-11.396
賞功	-11.396
甘州	-11.396
有急	-11.3961
大節	-11.3962
遣使入貢	-11.3963
士竒	-11.3963
臨淄	-11.3964
寒心	-11.3965
五官	-11.3966
縱之	-11.3967
正直	-11.3967
不務	-11.3967
名士	-11.3969
神御	-11.3972
三館	-11.3975
是冬	-11.3975
課利	-11.3978
狩	-11.3978
為右僕射	-11.3978
東萊	-11.3978
謂宰相曰	-11.3981
來告	-11.3981
兵討	-11.3983
水縣	-11.3983
十萬石	-11.3983
謂侍臣曰	-11.3984
祖父	-11.3985
多遜	-11.3986
善人	-11.3987
九齡	-11.3987
莫有	-11.3989
商議	-11.3991
繼嗣	-11.3991
不懌	-11.3993
知臨安府	-11.3993
茶馬	-11.3994
矯詔	-11.3995
老成	-11.3997
平居	-11.3997
三省言	-11.3999
國子司業	-11.3999
哷	-11.3999
甲辰詔	-11.4
齊國	-11.4
月十二日	-11.4002
擄	-11.4002
聳	-11.4003
瞿	-11.4003
廬陵	-11.4003
接伴	-11.4004
躋	-11.4004
涸	-11.4005
愉	-11.4005
之財	-11.4006
降戸江翻	-11.4007
交易	-11.4007
都大提舉	-11.4007
窟	-11.4008
一百三十	-11.4008
豈肯	-11.4016
不親	-11.4018
南城	-11.4022
財利	-11.4023
漢武	-11.4025
訛言	-11.4025
都知	-11.4025
所忌	-11.4026
助教	-11.4026
即行	-11.4028
神靈	-11.4028
州縣官	-11.4029
存留	-11.4029
召公	-11.4033
寳訓	-11.4033
州諸軍事	-11.4033
執奏	-11.4034
賜予	-11.4034
六品	-11.4035
山澤	-11.4035
皇帝陛下	-11.4039
到任	-11.4039
先入	-11.4041
周書	-11.4043
遼人	-11.4043
卿大夫	-11.4045
建業	-11.4045
温公	-11.4045
舊有	-11.4047
大慶殿	-11.4048
樓櫓	-11.4048
鄠	-11.4049
潛善	-11.4053
瀚	-11.4053
而不得	-11.4053
何能	-11.4054
左朝奉郎	-11.4055
顧問	-11.4057
可矣	-11.4057
江南西路	-11.406
猜忌	-11.4062
菑	-11.4063
戒嚴	-11.4066
滑臺	-11.4066
供給	-11.4067
簾前	-11.4068
得書	-11.407
初為	-11.4073
養兵	-11.4074
復請	-11.4076
魏徵	-11.4076
新命	-11.4076
省察	-11.4076
奈	-11.4077
孝恭	-11.4078
邵州	-11.4078
諸蠻	-11.4078
休兵	-11.408
山寨	-11.408
未有不	-11.408
永年	-11.408
管内	-11.408
相顧	-11.4085
愕	-11.4087
敕令	-11.4089
敵情	-11.4089
常有	-11.409
甡	-11.4091
我我	-11.4092
齊州	-11.4093
價錢	-11.4093
六切	-11.4094
公田	-11.4095
三百餘	-11.4097
杜充	-11.4097
敷文閣待制	-11.4097
不廢	-11.4098
于獄	-11.4098
天時	-11.4098
濰	-11.4099
資糧	-11.4099
汪藻	-11.4099
典刑	-11.4099
賻	-11.4101
様	-11.4101
董戩	-11.4103
狃	-11.4103
摇	-11.4104
復令	-11.4104
慚	-11.4104
盾	-11.4104
訣	-11.4104
坊場	-11.4105
穫	-11.4106
衛上將軍	-11.4106
聽之	-11.4107
不敢不	-11.4107
士遜	-11.4107
戀翻	-11.4109
特以	-11.411
官府	-11.411
撫軍	-11.4111
虢州	-11.4112
噬	-11.4113
赫連	-11.4113
所進	-11.4113
顓頊	-11.4114
兵二萬	-11.4114
鼎州	-11.4114
于闐	-11.4114
臣僚上言	-11.4118
兩浙路	-11.412
按察使	-11.412
讓之	-11.412
千二百	-11.412
以寛	-11.412
六年春正月	-11.4121
景宗	-11.4121
凖此	-11.4121
土豪	-11.4122
過當	-11.4122
遂令	-11.4123
淮浙	-11.4125
方許	-11.4125
招誘	-11.4126
所害	-11.4126
小人之	-11.4126
童子	-11.4128
恒州	-11.4128
擐甲	-11.4128
之柄	-11.413
胡寅	-11.413
乙未詔	-11.413
薛向	-11.4133
旭	-11.4133
大将	-11.4134
正朔	-11.4134
周世宗	-11.4135
求罷	-11.4136
朗州	-11.4136
成公	-11.4139
馬歩軍	-11.4141
輔弼	-11.4141
治事	-11.4144
今但	-11.4147
綏州	-11.4147
掊	-11.4148
皆潰	-11.4148
苑中	-11.4149
定䇿	-11.4149
丁夫	-11.415
撒	-11.415
療	-11.4151
十五人	-11.4151
褚	-11.4152
着	-11.4152
去矣	-11.4152
縂	-11.4153
震動	-11.4153
磐	-11.4154
病死	-11.4154
徭役	-11.4155
何㮚	-11.4155
隴州	-11.4156
篡	-11.4156
憎	-11.4157
朔望	-11.4158
欲去	-11.4159
舊典	-11.4159
鯀	-11.4161
議郎	-11.4162
下吏	-11.4165
奄至	-11.4166
犯贓	-11.4169
哈喇	-11.4171
事具	-11.4172
功曹	-11.4173
師古曰言	-11.4173
天監	-11.4174
分𨽻	-11.4175
遂詔	-11.418
同出身	-11.4184
為左僕射	-11.4185
兵萬人	-11.4186
之竒	-11.4187
尚書僕射	-11.4187
代北	-11.4187
夏國主	-11.4191
四十年	-11.4192
一百九十	-11.4194
朝奉大夫	-11.4194
如晉	-11.4194
閉城	-11.4195
鎮西	-11.4195
都水	-11.4196
班行	-11.4198
集賢殿修撰	-11.4199
雖然	-11.4201
昌齡	-11.4202
黄潛善	-11.4202
親軍	-11.4202
問罪	-11.4202
上然之	-11.4203
之序	-11.4204
朱子	-11.4205
良民	-11.4206
德裕	-11.4206
掛	-11.4206
渦	-11.4207
前漢	-11.4209
司𨽻	-11.421
休戚	-11.4212
知節	-11.4212
除放	-11.4214
百端	-11.4216
歸罪	-11.4217
囚之	-11.4217
名目	-11.422
思慮	-11.422
親臨	-11.4225
奔還	-11.4226
厚賞	-11.4227
先登	-11.4227
漢興	-11.4233
知河南府	-11.4234
復振	-11.4234
帝大怒	-11.4235
捕獲	-11.4235
奉先	-11.4241
隨事	-11.4242
了當	-11.4246
方欲	-11.4246
平凉	-11.4248
之妻	-11.4248
除官	-11.425
斟酌	-11.4251
人戸	-11.4252
奉朝請	-11.4252
楨	-11.4253
縷	-11.4253
嗇	-11.4253
片	-11.4254
功賞	-11.4255
孝友	-11.4256
伐楚	-11.4256
擕	-11.4257
未還	-11.4257
頽	-11.4258
降戸	-11.4258
為樞宻副使	-11.4259
開平	-11.4259
孺子	-11.4259
依違	-11.426
合祭	-11.4261
縣為	-11.4261
彘	-11.4261
脂	-11.4261
所破	-11.4262
世傑	-11.4263
張士遜	-11.4263
降官	-11.4263
二百七十	-11.4264
大理卿	-11.4267
漳水	-11.427
末年	-11.4271
江隂	-11.4271
方面	-11.4272
既敗	-11.4272
自劾	-11.4272
無害	-11.4276
主張	-11.4276
五星	-11.4276
安集	-11.4279
先零	-11.428
藝祖	-11.4282
租庸	-11.4283
出居	-11.4287
不可輕	-11.4288
闈	-11.429
未立	-11.4292
為中丞	-11.4297
岐王	-11.4298
為樞密使	-11.4298
以絶	-11.43
蕪	-11.43
左藏庫	-11.43
安化	-11.43
大理少卿	-11.4301
溪峒	-11.4301
禮文	-11.4301
平盧	-11.4301
乞行	-11.4303
所部兵	-11.4303
搖	-11.4304
綯	-11.4304
鯁	-11.4305
阿嚕	-11.4305
刈	-11.4305
城陽	-11.4306
縶	-11.4306
咽	-11.4307
請受	-11.4308
下有司	-11.4308
濯	-11.4308
未備	-11.4311
兩川	-11.4315
忠言	-11.4316
更加	-11.4316
蜀王	-11.4319
太皇太后曰	-11.432
兼樞宻使	-11.4322
不審	-11.4322
權三司使	-11.4322
僖公	-11.4322
世衡	-11.4323
要在	-11.4327
至有	-11.4329
上將軍	-11.4329
不致	-11.433
並從	-11.4334
秀實	-11.4334
不貲	-11.4334
不曉	-11.4335
新州	-11.4336
石虎	-11.4337
臣伏見	-11.4337
于市	-11.4341
外官	-11.4341
思退	-11.4345
玉清昭應宫	-11.4346
甘心	-11.4346
昭穆	-11.4348
方進	-11.4348
反側	-11.435
漢官	-11.435
恵卿	-11.435
嶲	-11.4351
乾歸	-11.4352
趙甡之遺史	-11.4352
禹偁	-11.4353
經略司言	-11.4354
寳文閣待制	-11.4356
烟	-11.4356
駐泊	-11.4356
遺書	-11.4357
金玉	-11.4358
府今因之	-11.4358
北敵	-11.4358
犯罪	-11.4359
所議	-11.4361
疏言	-11.4361
淖	-11.4361
蔡攸	-11.4363
教閱	-11.4363
可保	-11.4364
順帝	-11.4368
等物	-11.4369
三十一	-11.4369
漣	-11.437
之首	-11.437
以名聞	-11.4373
汀	-11.4373
諸門	-11.4375
歩軍	-11.4376
臣近	-11.4377
三郡	-11.4378
求賢	-11.438
竒兵	-11.4382
按劾	-11.4382
至和	-11.4384
給錢	-11.4386
綱運	-11.4389
存者	-11.439
在中書	-11.4392
東向	-11.4395
悛	-11.4395
聖祖	-11.4397
嗣君	-11.4397
告于	-11.4398
唐曆	-11.4398
世勣	-11.4398
累世	-11.4399
萬九千	-11.4403
二百餘	-11.4403
山上	-11.4404
甚重	-11.4404
之基	-11.4405
概	-11.4405
毬	-11.4406
鹽鈔	-11.4407
西征	-11.4407
阬	-11.4407
内屬	-11.4408
爕	-11.4408
當議	-11.4408
望令	-11.4409
乃能	-11.4412
絡	-11.4412
宵	-11.4412
敺	-11.4414
師傅	-11.4415
郡邑	-11.4415
北歸	-11.4416
監牧	-11.4416
工役	-11.4417
磁州	-11.4417
袁術	-11.4418
上覽	-11.4419
物力	-11.4419
鄯善	-11.442
杖殺	-11.4421
降魏	-11.4421
罷歸	-11.4422
為監察御史	-11.4424
率皆	-11.4425
進賢	-11.4426
曉諭	-11.4428
上夀	-11.4431
漳州	-11.4431
諡法	-11.4432
汀州	-11.4432
而忘	-11.4433
送納	-11.4436
塞下	-11.4437
焉耆	-11.4439
山北	-11.4441
齡	-11.4441
御書	-11.4441
解體	-11.4442
除命	-11.4443
卿監	-11.4443
此誠	-11.4447
因問	-11.4447
曆	-11.4452
查	-11.4454
塩	-11.4455
請留	-11.4456
行府	-11.4457
誇	-11.4458
罵曰	-11.4459
所獻	-11.446
圃	-11.4463
蒼梧	-11.4463
得天下	-11.4464
魏武	-11.4465
騁	-11.4465
即漢	-11.4466
大患	-11.4466
出鎮	-11.4467
縯	-11.4467
肺	-11.4468
彤	-11.447
戰則	-11.447
十六人	-11.447
變易	-11.4476
曰先帝	-11.4477
西海	-11.4477
王爵	-11.4479
春夏	-11.448
便可	-11.4481
情偽	-11.4483
上以為然	-11.4484
依奏	-11.4485
大駕	-11.4486
禮儀使	-11.4487
宣慰使	-11.4489
紛然	-11.449
于民	-11.4498
當塗	-11.4499
辭不受	-11.4501
而已矣	-11.4503
西面	-11.4504
扺	-11.4508
此條	-11.4508
陀	-11.4509
歿	-11.4509
溪洞	-11.451
瘳	-11.4511
殺掠	-11.4513
滇	-11.4513
魯王	-11.4514
邉臣	-11.4514
十一人	-11.4516
非朝廷	-11.4516
比來	-11.4516
侍從官	-11.4517
愕然	-11.4517
驕恣	-11.4519
人之所	-11.452
安陽	-11.4521
終無	-11.4521
帝前	-11.4522
挑戰	-11.4522
光義	-11.4523
不知所為	-11.4524
宜先	-11.4527
牡	-11.4528
相息	-11.4531
連兵	-11.4531
商英	-11.4532
朕躬	-11.454
孜	-11.454
自立為	-11.4541
力行	-11.4543
小大	-11.4544
因命	-11.4546
黎州	-11.4548
攻破	-11.4548
始命	-11.455
憂國	-11.4555
儂	-11.4555
為給事中	-11.4555
更立	-11.4555
昌平	-11.4558
欲誅	-11.4561
邯	-11.4561
清河王	-11.4562
駞	-11.4562
渾瑊	-11.4562
與契丹	-11.4563
宕	-11.4563
權宜	-11.4565
芬	-11.4565
疽	-11.4565
賦詩	-11.4566
戮之	-11.4566
孟康曰	-11.4566
悚	-11.4567
勤勞	-11.4567
增置	-11.4567
玷	-11.4567
去留	-11.4567
施於	-11.4567
愠	-11.4568
市易務	-11.4568
詔三司	-11.4569
瑟	-11.457
姑臧	-11.457
翳	-11.457
苻堅	-11.4571
作坊	-11.4571
說文	-11.4573
過惡	-11.4574
後悔	-11.4575
無補	-11.4578
徳秀	-11.458
恤民	-11.4581
良法	-11.4583
故有是	-11.4583
不能救	-11.4583
乞留	-11.4586
知青州	-11.4587
奔競	-11.4587
柬之	-11.4588
奉法	-11.4588
千三百	-11.459
宜陽	-11.4592
乃定	-11.4593
州刺史王	-11.4593
之漸	-11.4596
賊馬	-11.4596
夏主	-11.4596
之謂也	-11.4597
李光弼	-11.4597
亦然	-11.4599
駐兵	-11.46
保正	-11.4603
伏請	-11.4605
乞免	-11.4607
真卿	-11.4607
紗	-11.4609
聖聽	-11.4609
萬幾	-11.4609
保安軍	-11.4611
答之	-11.4613
太一	-11.4613
王庶	-11.4613
為大將軍	-11.4614
代還	-11.4614
楹	-11.4615
治國	-11.4615
殿最	-11.4615
都指揮	-11.4615
明徳	-11.4616
鎖	-11.4617
適足	-11.4617
上諭輔臣	-11.4617
未免	-11.4619
緜	-11.4619
赴援	-11.4619
鞍馬	-11.4622
令孜	-11.4623
柰何	-11.4623
結絶	-11.4625
詔不許	-11.4627
曰主上	-11.4627
豈不知	-11.4628
太極	-11.4629
繼忠	-11.4633
元濟	-11.4633
守仁	-11.4634
放罪	-11.4636
奏疏	-11.4638
深州	-11.4638
前事	-11.4639
非陛下	-11.4646
前驅	-11.4647
後趙	-11.4647
題名	-11.4651
支錢	-11.4655
智勇	-11.4655
十斤	-11.4658
積粟	-11.4658
不喜	-11.4658
肩輿	-11.4658
蒲州	-11.466
道徳	-11.4661
乞師	-11.4661
璞	-11.4661
灤	-11.4663
臣民	-11.4664
陳平	-11.4665
者蓋	-11.4665
嵬	-11.4666
滉	-11.4666
霈	-11.4666
凟	-11.4666
黑闥	-11.4666
黙啜	-11.4666
戸部侍郎	-11.4666
筦	-11.4667
出境	-11.467
濛	-11.467
殞	-11.4671
熾磐	-11.4671
摠管	-11.4672
下遐	-11.4672
媿	-11.4672
吏部郎中	-11.4673
其營	-11.4673
而弗	-11.4674
陳俊卿	-11.4674
惡烏路翻	-11.4674
欲取	-11.4675
北岸	-11.4675
䝉遜	-11.4677
陶侃	-11.4678
東平王	-11.4678
督師	-11.4681
顔師古曰	-11.4683
焞	-11.4685
本名	-11.4685
獄訟	-11.4687
四十六	-11.4688
臨清	-11.469
相近	-11.469
儀仗	-11.4691
仲堪	-11.4692
北征	-11.4693
人口	-11.4694
李沆	-11.4695
改封	-11.4695
道宗	-11.4695
盡殺	-11.4696
號泣	-11.47
天文志	-11.4703
嘉納	-11.4703
兵大敗	-11.4706
醴泉觀使	-11.4708
賊兵	-11.4712
制科	-11.4712
殘破	-11.4714
孝王	-11.4714
數四	-11.4714
宋書	-11.4718
天徳	-11.4719
葉赫	-11.4719
伐魏	-11.4719
來援	-11.472
僦	-11.472
宣祖	-11.4721
垂拱	-11.4721
少詩照翻	-11.4721
軼	-11.4722
襃	-11.4722
淮水	-11.4722
無所得	-11.4724
迦	-11.4724
赴都堂	-11.4725
天平	-11.4727
又况	-11.4728
執金吾	-11.4729
先事	-11.4729
筮	-11.473
崔𦙍	-11.473
醢	-11.473
變更	-11.4731
宗尹	-11.4731
杜佑	-11.4734
秦伯	-11.4737
入界	-11.4737
冦凖	-11.4738
張璪	-11.4738
役兵	-11.4739
定天下	-11.4739
大宴	-11.474
髙昌	-11.4742
所著	-11.4742
遂取	-11.4743
統領官	-11.4744
紀律	-11.4744
淵聖	-11.4745
漢蕃	-11.4749
漢家	-11.4749
祖考	-11.475
蕭氏	-11.4752
西道	-11.4758
皇帝廟號	-11.4761
不勝其	-11.4762
文仲	-11.4762
多是	-11.4762
回河	-11.4763
累朝	-11.4763
珠玉	-11.4764
不仁	-11.4765
七十二	-11.4766
細故	-11.4767
重直	-11.4768
二城	-11.477
亾	-11.477
元豐八年	-11.4772
竣	-11.4772
琚	-11.4775
従之	-11.4776
騷動	-11.4777
唐屬	-11.478
特遷	-11.4781
沙漠	-11.4781
致死	-11.4786
復叛	-11.4786
正字	-11.4786
入辭	-11.4786
紹興府	-11.4786
竊慮	-11.4787
刀翻	-11.4789
三千餘人	-11.479
龍城	-11.4794
河道	-11.4795
一條	-11.4795
為中書侍郎	-11.4798
郡名	-11.4803
顧謂	-11.4804
成書	-11.4805
市易司	-11.4806
地勢	-11.481
請託	-11.4812
江漢	-11.4812
祖母	-11.4817
四十八	-11.4819
言於上曰	-11.482
寨主	-11.4821
哨	-11.4822
不憚	-11.4824
秉常	-11.4826
間古莧翻	-11.4826
出其不意	-11.4828
孫路	-11.483
跳	-11.4831
倩	-11.4832
絢	-11.4832
鄒浩	-11.4832
又論	-11.4832
曵	-11.4834
自衛	-11.4834
應龍	-11.4835
大罪	-11.4839
張皇	-11.4839
大戰	-11.4843
無算	-11.4846
與諸將	-11.4847
亦是	-11.4848
其禍	-11.4849
虚名	-11.485
歩兵	-11.485
李密	-11.485
廢罷	-11.4851
河流	-11.4854
為陜西	-11.4856
不煩	-11.4857
數里	-11.4857
知杭州	-11.4859
指斥	-11.4859
梁紀	-11.4861
以懲	-11.4862
變法	-11.4862
之形	-11.4863
争之	-11.4864
人吏	-11.4864
肆赦	-11.4864
流内銓	-11.4866
阿爾	-11.4866
大駭	-11.487
唐厯	-11.4872
祭天	-11.4872
若謂	-11.4873
十七人	-11.4876
還長安	-11.4876
兀	-11.4876
三代之	-11.4877
來攻	-11.4877
装	-11.4877
有識	-11.4879
闗内	-11.4879
吕中曰	-11.488
苴	-11.488
爛	-11.4882
床	-11.4882
草詔	-11.4883
纛	-11.4883
馘	-11.4885
研	-11.4885
勸帝	-11.4886
危亡	-11.4887
沈約	-11.4887
七廟	-11.4888
近裏	-11.4889
萬斤	-11.4891
庭芝	-11.4892
乞弟	-11.4893
函谷	-11.4893
力不能	-11.4894
不振	-11.4896
趣七	-11.4898
有大功	-11.4899
張士誠	-11.4899
延英	-11.4901
所修	-11.4904
益都	-11.4907
李紹	-11.4908
拜珠	-11.4908
保寧	-11.4909
而自立	-11.4911
清逺	-11.4912
内批	-11.4913
恭惟	-11.4914
魏師	-11.4914
愛君	-11.4915
遊擊	-11.4918
官家	-11.4919
資治通鑑卷	-11.4919
遷徙	-11.4919
許令	-11.492
李賢曰	-11.4925
言事官	-11.4925
才人	-11.4926
建儲	-11.4927
起居舎人	-11.493
丁巳詔	-11.4931
金山	-11.4932
承事郎	-11.4933
髠	-11.4935
涵	-11.4936
太常禮院	-11.4937
不能對	-11.4937
老臣	-11.4939
難制	-11.494
特們徳爾	-11.494
崇煥	-11.4941
淄青	-11.4941
考詳	-11.4941
重困	-11.4941
秘書監	-11.4942
通行	-11.4942
教坊	-11.4942
度河	-11.4944
賜金	-11.4946
鞮	-11.4947
提舉常平	-11.4947
貨財	-11.4949
本道	-11.4952
李顯忠	-11.4952
惟簡	-11.4954
條制	-11.4955
新興	-11.4956
海西	-11.4956
无咎	-11.4957
隋改	-11.4957
軍功	-11.4958
被災	-11.4958
旬月	-11.496
每遇	-11.4963
寛恤	-11.4964
待詔	-11.4965
因論	-11.4966
各有差	-11.4967
進擬	-11.4967
元景	-11.4968
茶法	-11.4968
周室	-11.4969
徐温	-11.497
右諌議大夫	-11.4973
居厚	-11.4975
套	-11.4977
付有司	-11.4977
西頭供奉官	-11.4979
梁氏	-11.498
當日	-11.4981
破敵	-11.4981
日新	-11.4981
督戰	-11.4982
孟子曰	-11.4984
一節	-11.4985
右班殿直	-11.4986
覺之	-11.499
名位	-11.499
任子	-11.499
荔	-11.4991
灑	-11.4992
豨	-11.4993
彚	-11.4994
杯	-11.4994
孟知祥	-11.4996
倉猝	-11.4997
四十二	-11.4997
伉	-11.4998
財力	-11.5
鳯翔府	-11.5
戒飭	-11.5
皇太妃	-11.5001
先發	-11.5001
史思明	-11.5002
仙人	-11.5003
西京留守	-11.5003
響應	-11.5004
三十四	-11.5006
寘之	-11.5007
積石	-11.5008
太元	-11.5009
善政	-11.501
曰自古	-11.501
傳㫖	-11.5011
悉衆	-11.5012
入㓂	-11.5013
祖宗故事	-11.5015
詞頭	-11.5016
賜宴	-11.5017
鄭注	-11.5017
天長	-11.5018
上書曰	-11.5019
若更	-11.5022
更生	-11.5024
舉國	-11.5025
前年	-11.5026
魏兵	-11.5026
危急	-11.5032
共事	-11.5033
統紀	-11.5035
廸功郎	-11.5035
大衆	-11.5035
官田	-11.5039
提舉江州太平興國宫	-11.5039
兵部郎中	-11.5041
羣臣皆	-11.5042
濼	-11.5042
新羅	-11.5044
天雄軍	-11.5045
檜曰	-11.5045
倧	-11.5046
厚賜	-11.5046
少詩沼翻	-11.5047
耄	-11.5048
但令	-11.505
驃騎	-11.505
不得進	-11.5052
東道	-11.5053
良嗣	-11.5054
為左丞相	-11.5057
朋比	-11.506
離散	-11.5061
輸錢	-11.5061
年七十	-11.5062
疾篤	-11.5064
士衡	-11.5067
從榮	-11.5067
南蠻	-11.5068
北宫	-11.5069
汾陽	-11.5069
奢侈	-11.507
也然則	-11.5071
未決	-11.5074
梁山	-11.5074
為中書令	-11.5077
嵗終	-11.5077
柱國	-11.5078
公家	-11.508
終身不	-11.5081
流血	-11.5082
才能	-11.5083
詰問	-11.5085
徐達	-11.5086
堵	-11.5087
以聞詔	-11.5089
馬步軍	-11.5089
熺	-11.509
膠東	-11.5091
不負	-11.5091
秘書丞	-11.5092
悌	-11.5093
鍳	-11.5094
陛下若	-11.5095
獲馬	-11.5095
孫奭	-11.5095
嵐	-11.5096
蹂	-11.5096
郅支	-11.5097
豁	-11.5099
爪牙	-11.51
掄	-11.5101
不職	-11.5101
桷	-11.5101
陸贄	-11.5101
行下孟翻	-11.5101
延齡	-11.5101
掌書記	-11.5102
隗囂	-11.5103
擿	-11.5103
條奏	-11.5104
義宣	-11.5104
右司員外郎	-11.5104
運河	-11.511
聚斂	-11.511
孤立	-11.5111
三世	-11.5112
慧景	-11.5112
丁丑詔	-11.5115
舟船	-11.5118
顯徳	-11.5122
萬死	-11.5122
縣隋	-11.5126
斷丁	-11.5131
營州	-11.5132
崇信	-11.5136
散官	-11.5136
上下相	-11.5136
平陵	-11.5137
列於	-11.5137
成都府路	-11.5138
議者以為	-11.5139
毎嵗	-11.5143
楊存中	-11.515
更改	-11.5152
殿前都指揮使	-11.5152
籙	-11.5153
屑	-11.5153
巵	-11.5154
澧州	-11.5154
大逆	-11.5155
自効	-11.5157
胡宗愈	-11.5157
舁	-11.5157
拓跋	-11.5157
鬰	-11.5157
棠	-11.5158
犍為	-11.5158
伊都	-11.5159
諸帥	-11.5159
大厯	-11.5162
矟	-11.5163
衆多	-11.5163
頠	-11.5163
神器	-11.5163
世世	-11.5164
京東路	-11.5166
不恭	-11.5166
向來	-11.5167
星變	-11.5167
屬縣	-11.5169
帝御	-11.5169
元顯	-11.517
袁宏	-11.5172
部内	-11.5173
隔絶	-11.5173
哀帝	-11.5176
諸羌	-11.5176
崇義	-11.5178
答曰	-11.518
擇日	-11.5181
宥之	-11.5181
失當	-11.5182
違戾	-11.5182
遂廢	-11.5184
贛	-11.5185
顧命	-11.5186
繼元	-11.5187
家財	-11.5187
治體	-11.5188
若果	-11.519
之本也	-11.519
知貢舉	-11.5191
衂	-11.5193
虎臣	-11.5193
召問	-11.5198
殺我	-11.5198
升殿	-11.5198
馳至	-11.5199
悉罷	-11.52
事畢	-11.5201
退師	-11.5203
厲王	-11.5206
鳯陽	-11.5207
本非	-11.5207
博囉特穆爾	-11.5207
琥	-11.5208
親見	-11.5208
砥	-11.5209
空名	-11.5209
軻	-11.5211
青城	-11.5211
醴泉	-11.5212
鑠	-11.5212
有星孛于	-11.5213
輔相	-11.5213
便宜從事	-11.5215
彫	-11.5215
塞門	-11.5216
旌旗	-11.5217
唐鄧	-11.5218
尉遲	-11.5218
孕	-11.5222
特贈	-11.5227
内帑	-11.5227
斷自	-11.523
糧盡	-11.523
楊億	-11.5231
吕陶	-11.5233
詔送	-11.5235
晉志	-11.524
既不能	-11.5243
召用	-11.5243
失業	-11.5243
林邑	-11.5245
勿使	-11.5247
誠能	-11.5247
明皇帝	-11.5249
迎戰	-11.525
言伏見	-11.5251
三千餘	-11.5251
日甚	-11.5252
呼沙呼	-11.5253
胡氏	-11.5254
且請	-11.5254
被㫖	-11.5254
後殿	-11.5256
韓愈	-11.5257
鍔	-11.5259
三班院	-11.526
遇敵	-11.5261
宜州	-11.5262
既久	-11.5263
邊民	-11.5263
刷	-11.5265
中流矢	-11.5265
鉗	-11.5266
吳人	-11.5268
河源	-11.5268
進士出身	-11.5269
翹	-11.527
留神	-11.5272
而有是命	-11.5276
人臣之	-11.5276
王猛	-11.5277
百六十	-11.5279
典略	-11.5281
樂浪	-11.5281
郭氏	-11.5282
三省樞密院	-11.5283
天竺	-11.5283
王安禮	-11.5283
薊州	-11.5285
舉措	-11.5289
遣使詣	-11.5289
立朝	-11.529
昨來	-11.5291
賜第	-11.5292
帝不許	-11.5293
入居	-11.5293
張儀	-11.5296
家口	-11.5297
旦曰	-11.53
昭陽	-11.5304
不支	-11.5306
訴於	-11.5307
上疏請	-11.5308
僖宗	-11.5308
為太師	-11.5309
秘閣	-11.5312
未審	-11.5314
講筵	-11.5314
䖏	-11.5315
百世	-11.5316
幸甚	-11.5316
悝	-11.5317
契丹遣	-11.5317
楫	-11.5318
國子博士	-11.5318
飛龍	-11.5318
馬歩	-11.532
揚言	-11.532
柘	-11.532
腸	-11.5321
稀	-11.5321
米脂	-11.5323
伊遜	-11.5323
肜	-11.5325
恟	-11.5327
亦不得	-11.5327
獲免	-11.533
楊國忠	-11.5331
並從之	-11.5331
重法	-11.5332
有是命	-11.5338
裁減	-11.5339
子韶	-11.5342
冦準	-11.5342
一級	-11.5342
職田	-11.5343
康居	-11.5343
拱辰	-11.5344
守文	-11.5347
昭帝	-11.5349
各賜	-11.5349
改過	-11.535
嘉靖	-11.535
關東	-11.5353
乞致仕	-11.5355
一無所	-11.5355
錢穀	-11.5356
突入	-11.5359
地土	-11.5361
武學	-11.5362
其姓名	-11.5363
縁此	-11.5364
文館	-11.5364
重耳	-11.5365
皇上	-11.5366
告訐	-11.5366
誠意	-11.5367
龐	-11.5367
四十四	-11.5371
恩數	-11.5371
嵗餘	-11.5374
廕	-11.5374
充役	-11.5374
傭	-11.5374
貢方物	-11.5375
其惡	-11.5375
吕嘉問	-11.5377
悞	-11.5377
禳	-11.5378
門生	-11.5379
第四等	-11.5379
騎奇寄翻	-11.538
羯	-11.5382
十八人	-11.5382
陁	-11.5384
講學	-11.5384
中興之	-11.5385
舊志	-11.5386
三川	-11.5389
遂有是命	-11.5389
變亂	-11.539
講官	-11.5391
浮費	-11.5392
武寧	-11.5392
諸寨	-11.5394
睿斷	-11.5396
秦始皇	-11.5396
無餘	-11.5396
川峽	-11.5398
野王	-11.5399
園陵	-11.5399
庫庫	-11.5401
經久	-11.5402
邢洺	-11.5404
景仁	-11.5405
傳首	-11.5406
京西路	-11.5408
戰不利	-11.5409
格式	-11.541
海中	-11.541
第七	-11.541
感泣	-11.5411
重慶	-11.5411
妙翻	-11.5414
等語	-11.5418
請依	-11.5419
李昉	-11.5421
孫覺	-11.5422
支賜	-11.5423
州都督	-11.5425
送吏部	-11.5426
經畧司言	-11.5426
謹守	-11.5427
朶	-11.5427
皇嗣	-11.5429
頓首謝	-11.5431
市馬	-11.5432
宫闕	-11.5432
合祭天地	-11.5433
敬則	-11.5433
收買	-11.5434
左朝散郎	-11.5435
賄賂	-11.5435
曽公亮	-11.5435
餘並	-11.5435
㝠	-11.5437
踐阼	-11.5438
處厚	-11.5438
麤	-11.544
令轉運司	-11.5442
三十九	-11.5442
誹謗	-11.5443
供億	-11.5443
祥瑞	-11.5444
犂	-11.5446
斛律	-11.5447
兩日	-11.5447
于太廟	-11.5447
則不然	-11.5449
機事	-11.5449
仁贍	-11.5449
趙葵	-11.5449
不赦	-11.5451
類此	-11.5456
邊郡	-11.5458
沮渠	-11.5458
樂平	-11.5459
銀帛	-11.5462
門户	-11.5463
疆土	-11.5463
唯唯	-11.5463
孟津	-11.5465
不能得	-11.5465
固不可	-11.5465
衣糧	-11.5466
分明	-11.5466
壬辰詔	-11.5467
客省使	-11.5468
梁適	-11.547
止用	-11.547
民財	-11.5472
河口	-11.5473
資治通鑑後編卷	-11.5477
衞將軍	-11.5477
𫝊云	-11.5478
効用	-11.5478
竊發	-11.5482
煒	-11.5483
楚材	-11.5484
箋	-11.5484
復辟	-11.5485
丙辰詔	-11.5486
流移	-11.5487
礬	-11.5488
館閣校勘	-11.5488
致祭	-11.5488
東頭供奉官	-11.5489
非敢	-11.5489
侍衞	-11.5491
㪷	-11.5492
卿士	-11.5492
枹罕	-11.5492
耿南仲	-11.5492
乾道	-11.5492
夸	-11.5494
舟楫	-11.5494
既誅	-11.5494
縋	-11.5496
胙	-11.5497
抄掠	-11.5499
者葢	-11.55
翰林院	-11.55
莾	-11.5501
險要	-11.5501
乙亥詔	-11.5503
來聘	-11.5507
陳侯	-11.5511
太湖	-11.5513
來㑹	-11.5514
河池	-11.5515
犯邊	-11.5517
先儒	-11.5517
或問	-11.5518
朝論	-11.5518
機㑹	-11.5522
西陵	-11.5522
七年春正月	-11.5523
九品	-11.5524
畢工	-11.5528
許諾	-11.5528
李嗣源	-11.5528
曹伯	-11.5535
威儀	-11.5537
松山	-11.5537
知陳州	-11.5538
天下共	-11.5538
少帝	-11.5538
無能為	-11.5541
左右丞	-11.5543
命翰林學士	-11.5544
琯	-11.5547
一百四十	-11.5548
千九百	-11.5549
城壁	-11.5551
幹辦	-11.5552
萬國	-11.5553
媒	-11.5554
厄	-11.5554
武陵王	-11.5558
軹	-11.5559
南平王	-11.5559
每事	-11.556
額外	-11.5561
仲文	-11.5561
間古	-11.5561
宋綬	-11.5564
非理	-11.5566
屯戍	-11.5566
降黜	-11.5567
殿試	-11.5569
賂遺	-11.5569
日乆	-11.557
賜絹	-11.5571
知州事	-11.5573
金幣	-11.5573
治民	-11.5575
魯國	-11.5577
有他	-11.5578
財貨	-11.558
二十餘人	-11.5582
最多	-11.5583
存孝	-11.5583
受封	-11.5585
帥騎	-11.5585
人倫	-11.5588
魯公	-11.5588
軍須	-11.5589
吕祖謙	-11.559
作詩	-11.559
率所部	-11.5593
良弼	-11.5596
凉王	-11.5596
輕易	-11.5599
林翻	-11.5601
不聊生	-11.5603
資治通鑑卷一百	-11.5604
食貨志	-11.5604
庚午詔	-11.5605
撾	-11.5606
誣以	-11.5606
焚香	-11.5607
晦日有食之	-11.5607
肄	-11.5607
廣寧	-11.5609
相位	-11.5609
壅蔽	-11.561
軍吏	-11.561
卽	-11.5611
伐蜀	-11.5611
菽	-11.5612
有限	-11.5612
固執	-11.5613
特命	-11.5613
髙遵裕	-11.5614
誅殺	-11.5615
婚姻	-11.5617
艶	-11.5617
互市	-11.5619
固宜	-11.5619
慶緒	-11.5622
太牢	-11.5625
二千餘	-11.5625
諸大臣	-11.5626
范書	-11.5629
三十八	-11.5631
秋冬	-11.5631
令吏部	-11.5631
一貟	-11.5632
右侍禁	-11.5633
復起	-11.5634
累月	-11.5636
祠部	-11.5637
中庸	-11.5638
北行	-11.564
假道	-11.5641
州軍事	-11.5644
益急	-11.5644
二州刺史	-11.5647
寧國	-11.5649
四十一	-11.5651
雲陽	-11.5656
無所不	-11.5658
和買	-11.5659
王即位	-11.566
戰船	-11.5661
璩	-11.5661
豈復	-11.5662
圻	-11.5663
莊子	-11.5663
苐	-11.5664
右翼	-11.5664
㧞之	-11.5666
長孫無忌	-11.5666
鄄	-11.5666
沾	-11.5667
經度	-11.5668
夷人	-11.5668
眇	-11.5669
漏泄	-11.5669
藺	-11.567
偪	-11.567
孜孜	-11.5671
凡八	-11.5671
農桑	-11.5672
僧尼	-11.5672
土丁	-11.5673
邉防	-11.5674
樗	-11.5674
濟江	-11.5675
宫闈	-11.5675
天授	-11.5675
名屬	-11.5676
形於	-11.5676
乞骸骨	-11.5677
迎降	-11.5677
數百萬	-11.5677
帳中	-11.5678
再興	-11.5678
十有二月	-11.5678
州蠻	-11.5681
不能禁	-11.5683
放還	-11.5683
䕫州路	-11.5686
愛人	-11.5687
殺賊	-11.5687
相屬	-11.5688
言職	-11.5688
北還	-11.5688
既失	-11.569
即古	-11.5691
三門	-11.5692
故吏	-11.5693
補闕	-11.5694
近聞	-11.5698
王導	-11.5699
寛民力	-11.5703
席益	-11.5704
仁恕	-11.571
遇事	-11.571
右相	-11.5711
恭順	-11.5712
惻	-11.5714
汴水	-11.5714
徳昭	-11.5715
賞格	-11.5715
鮮于	-11.5716
未肯	-11.5716
惠公	-11.5717
晴	-11.5718
今附此	-11.5718
魏徴	-11.5718
奸邪	-11.5719
諫官御史	-11.572
舶	-11.5721
墀	-11.5722
癸丑詔	-11.5722
賣鹽	-11.5723
隋唐	-11.5724
清議	-11.5725
侁	-11.5725
也又曰	-11.5727
進爵	-11.5727
河决	-11.5727
語之曰	-11.5728
羔	-11.5728
聖體	-11.5729
李絳	-11.573
繼岌	-11.5732
壬寅詔	-11.5733
就第	-11.5734
張舜民	-11.5735
漢文帝	-11.5736
祀南郊	-11.5737
人君之	-11.5738
所損	-11.5739
不妨	-11.574
憂勤	-11.5744
不決	-11.5745
假借	-11.5749
名實	-11.5749
懿宗	-11.5753
計㑹	-11.5753
丙寅詔	-11.5753
舜民	-11.5754
此舉	-11.5754
周勃	-11.5758
文煥	-11.5759
七品	-11.576
山隂	-11.5763
忻州	-11.5763
牛酒	-11.5764
皆殺之	-11.5765
不可以不	-11.5768
懐光	-11.5768
犒軍	-11.5768
員數	-11.5769
逐州	-11.5769
忠節	-11.5772
詰責	-11.5774
和尚原	-11.5774
莫知	-11.5774
赦文	-11.5776
御河	-11.5777
佾	-11.5779
合謀	-11.578
姿	-11.578
通逺軍	-11.578
陴	-11.5781
范百禄	-11.5781
刄	-11.5781
溺死	-11.5782
要地	-11.5782
祖宗時	-11.5782
果如	-11.5783
𠂻	-11.5783
踞	-11.5784
國語	-11.5785
兵食	-11.5785
危矣	-11.5787
釋奠	-11.5787
兠	-11.5787
韓建	-11.5787
吟	-11.5789
州知州	-11.579
藥師	-11.5791
甲午詔	-11.5791
尚書省言	-11.5794
呉璘	-11.5795
乘馬	-11.5795
羽翼	-11.5795
佛寺	-11.5796
言責	-11.5797
朐	-11.5797
第一等	-11.5799
左翼	-11.5802
孝純	-11.5807
拘收	-11.5809
伐秦	-11.5812
飢民	-11.5813
行逢	-11.5813
令佐	-11.5814
巴郡	-11.5814
齊桓公	-11.5815
性剛	-11.5815
保任	-11.5815
桓𤣥	-11.5816
月十一日	-11.5817
贖罪	-11.582
黃門	-11.5821
朱氏	-11.5823
黄鍾	-11.5824
戰勝	-11.5824
光宗	-11.5824
安仁	-11.5824
西凉	-11.5829
正論	-11.5829
考異曰實録	-11.583
分為二	-11.5833
辛酉詔	-11.5833
楞	-11.5833
坑冶	-11.5833
祠部員外郎	-11.5834
洛州	-11.5837
忠勇	-11.5839
旺扎勒	-11.5839
丙申詔	-11.5839
巨源	-11.584
渴	-11.5841
𨗳	-11.5841
扣	-11.5841
万俟卨	-11.5842
其背	-11.5842
道輔	-11.5843
從之仍	-11.5844
曹瑋	-11.5844
鈍	-11.5845
涓	-11.5845
愛憎	-11.5846
閩中	-11.5846
倚閣	-11.5847
阿固達	-11.5847
曰古者	-11.5848
楊畏	-11.5848
畏天	-11.585
曲阜	-11.585
交章	-11.5854
蕪湖	-11.5854
艮	-11.5854
償之	-11.5855
以謝天下	-11.5862
戍守	-11.5865
大惡	-11.5866
或因	-11.5866
水溢	-11.5867
提領	-11.5868
上户	-11.5871
取勘	-11.5871
副都	-11.5872
邊鄙	-11.5873
司馬懿	-11.5876
編敕	-11.5878
知建康府	-11.5881
元年二月	-11.5885
京兆府	-11.5887
遂止	-11.5888
四十九	-11.5888
子産	-11.5892
執政官	-11.5895
太弟	-11.5895
肖	-11.5896
卹	-11.5896
然後可以	-11.5897
僅以身免	-11.5898
盡得	-11.5898
籬	-11.5899
慶歴	-11.5899
流星	-11.5899
都官員外郎	-11.5899
紛紜	-11.59
知閤門事	-11.59
若夫	-11.5901
骸	-11.5901
蟻	-11.5901
綱目書	-11.5901
節鎮	-11.5902
沙州	-11.5903
削奪	-11.5904
孳	-11.5904
闞	-11.5906
通謀	-11.5907
奉世	-11.5908
山南東道節度使	-11.5909
晏駕	-11.5909
知州通判	-11.591
慶陽	-11.5911
推誠	-11.5911
冠軍	-11.5914
職業	-11.5914
獨留	-11.5914
鄰國	-11.5915
刺配	-11.5916
可觀	-11.5918
千載	-11.5918
梧	-11.5919
折衝	-11.592
李燾	-11.5928
所須	-11.5929
靈公	-11.5931
將領	-11.5932
玩翻	-11.5932
五尺	-11.5934
焚掠	-11.5935
刪修	-11.5938
列切	-11.5942
子細	-11.5943
陜西路	-11.5944
乞伏	-11.5946
孰與	-11.5947
强敵	-11.5949
日記	-11.5951
位號	-11.5951
邇英閣	-11.5953
祕書監	-11.5953
始封	-11.5955
夜襲	-11.5956
訃	-11.5959
岌	-11.5959
宋李燾撰哲宗	-11.5959
恃其	-11.5959
奉承	-11.596
蕚	-11.5961
駐軍	-11.5965
儀同三司	-11.5965
瑒	-11.5966
鋸	-11.5966
胡廣	-11.5966
淮上	-11.5966
𬒳	-11.5968
僊	-11.5968
南仲	-11.5968
黄裳	-11.5971
狂妄	-11.5971
承禧	-11.5971
金墉	-11.5973
欺君	-11.5973
幾居	-11.5974
部尚書	-11.5974
廣德	-11.5975
均州	-11.5975
魏良臣	-11.5976
永康	-11.5976
陽翟	-11.5977
思所以	-11.5981
古制	-11.5982
胡安國	-11.5983
宿衞	-11.5984
孫村	-11.5987
劉琨	-11.599
引衆	-11.599
義康	-11.5991
華亭	-11.5993
宋祁	-11.5993
書院	-11.5993
北走	-11.5994
辟雍	-11.5995
軍資	-11.5995
之過也	-11.5996
歸心	-11.5996
鄉兵	-11.5997
申省	-11.5998
長沙王	-11.5998
天后	-11.5999
大總管	-11.6001
别駕	-11.6001
重光	-11.6002
傅㑹	-11.6005
府治	-11.6006
曲折	-11.601
水草	-11.6011
本姓	-11.6012
月十八日	-11.6013
制詞	-11.6013
過江	-11.6014
侗	-11.6015
朝請大夫	-11.6015
矼	-11.6016
近郊	-11.6018
千餘級	-11.6018
罷政	-11.6018
紓	-11.6018
未報	-11.602
駑	-11.602
冷	-11.6021
宣義郎	-11.6021
甌	-11.6022
面奏	-11.6023
稼穡	-11.6023
堙	-11.6023
盩厔	-11.6024
晉武帝	-11.6024
膏腴	-11.6024
陳讀曰陣	-11.6025
淸	-11.6025
工匠	-11.6025
中郎	-11.6025
致治	-11.6025
詗	-11.6025
兵擊之	-11.6026
師範	-11.6027
僵	-11.6027
參酌	-11.6028
事狀	-11.6028
真定府	-11.6028
歸義	-11.6031
丙子詔	-11.6031
贍軍	-11.6032
進擊	-11.6033
襄國	-11.6035
海島	-11.6035
驍將	-11.604
逆順	-11.6043
鄧禹	-11.6044
孰不	-11.6044
知慶州	-11.6045
光禄	-11.6048
劉大中	-11.6048
賢否	-11.6049
為人臣	-11.6052
移牒	-11.6053
變色	-11.6054
奉國	-11.6056
贓罪	-11.6057
逺慮	-11.6058
用刑	-11.606
右將軍	-11.6064
已經	-11.6069
時務	-11.6071
天成	-11.6073
叅軍	-11.6074
爵位	-11.6075
玫	-11.6076
道濟	-11.6076
俛	-11.6077
舊職	-11.6077
復業	-11.6077
賜帛	-11.6078
電	-11.6079
閘	-11.6079
遼使	-11.608
之人皆	-11.608
殊禮	-11.6081
百三十	-11.6081
内藏	-11.6081
所共	-11.6082
劒南	-11.6082
葭蘆	-11.6082
鬚	-11.6082
錦衣衛	-11.6082
金人陷	-11.6082
䋲	-11.6083
求救於	-11.6084
鎛	-11.6084
隲	-11.6084
堞	-11.6085
峭	-11.6085
臣竊聞	-11.6086
皖	-11.6086
璁	-11.6087
跌	-11.6088
酒稅	-11.6088
修好	-11.6088
凡二十	-11.609
糴買	-11.6091
般運	-11.6091
者為之	-11.6093
廢置	-11.6094
文理	-11.6097
禁衛	-11.6097
六十四	-11.6098
賈誼	-11.6098
鎮戎	-11.6099
詐稱	-11.6099
不悛	-11.6102
車服	-11.6105
賞賚	-11.6107
横海	-11.6109
常賦	-11.6111
卧翻	-11.6113
阿附	-11.6114
蠲除	-11.6115
康伯	-11.6117
勞績	-11.6118
重鎮	-11.612
外家	-11.6122
嵗入	-11.6124
賀正旦	-11.6124
尋卒	-11.6124
出征	-11.6126
中流	-11.6128
知廣州	-11.6128
文宣王	-11.6129
咸通	-11.613
甲申詔	-11.613
不得其時	-11.6131
國太夫人	-11.6134
升降	-11.6135
屢請	-11.6136
拒命	-11.6136
以便宜	-11.6136
左司郎中	-11.6137
盡取	-11.6139
而後行	-11.6139
折納	-11.614
知延州	-11.614
視師	-11.6141
表求	-11.6142
大呼曰	-11.6142
栖	-11.6143
地里	-11.6143
秦隴	-11.6143
具載	-11.6144
梃	-11.6145
貳師	-11.6145
璆	-11.6145
曳	-11.6145
犧	-11.6145
日磾	-11.6146
生辰使	-11.6146
玉帶	-11.6147
鏤	-11.6147
左朝奉大夫	-11.6147
崤	-11.6147
青州刺史	-11.6148
厲公	-11.6148
琇	-11.615
王之望	-11.6152
訪問	-11.6152
奉㫖	-11.6153
閣門	-11.6154
都鈐轄	-11.6154
既破	-11.6155
荼	-11.6156
姜維	-11.6157
附于	-11.6157
總領所	-11.6157
尚書郎	-11.6158
朱滔	-11.6158
突圍	-11.6162
此心	-11.6162
可知也	-11.6163
成憲	-11.6165
南征	-11.6165
太息	-11.6166
相對	-11.6166
二十七年	-11.6167
激怒	-11.6167
六師	-11.6168
等三人	-11.6168
不能支	-11.617
經畧安撫	-11.6171
孫近	-11.6172
辛丑詔	-11.6172
江口	-11.6173
叛逆	-11.6174
漢制	-11.6174
癸酉詔	-11.618
狄道	-11.6181
太倉	-11.6182
爵禄	-11.6182
救援	-11.6184
草澤	-11.6184
延朗	-11.6186
侍御	-11.6187
州刺史張	-11.619
二百八十	-11.6191
義勇保甲	-11.6193
太微	-11.6194
弑之	-11.6195
已具	-11.6197
顧望	-11.6197
給舍	-11.6197
么	-11.62
銜翻	-11.6203
帽	-11.6203
𦂳	-11.6204
卻	-11.6204
彰徳	-11.6204
上疏論	-11.6205
元孫	-11.6205
逗遛	-11.6207
雁門	-11.6207
月二十二日	-11.6207
從兄	-11.6207
嘉努	-11.6208
降是詔	-11.6211
誰不	-11.6211
萬餘緡	-11.6211
伊吾	-11.6211
文徳殿	-11.6213
班固	-11.6213
四十七	-11.6213
伯玉	-11.6215
邊將	-11.6215
臯陶	-11.6216
提兵	-11.6216
鮪	-11.6217
調度	-11.6218
奏狀	-11.622
積年	-11.6222
希範	-11.6222
沿海	-11.6222
驪山	-11.6223
本心	-11.6224
徽州	-11.6224
疾甚	-11.6226
具析	-11.6226
貪暴	-11.6227
景德	-11.6229
註云	-11.6233
縣主簿	-11.6233
成德	-11.6234
儀制	-11.6236
重輕	-11.6237
傅等	-11.6238
運使	-11.6239
前日之	-11.6241
乃許之	-11.6242
袁州	-11.6246
其所為	-11.6247
寛厚	-11.6247
附傳	-11.6247
續綱目	-11.6249
風憲	-11.625
錠	-11.6251
茍且	-11.6251
見管	-11.6254
四十一年	-11.6256
楚師	-11.6257
閌	-11.6258
王武俊	-11.6259
韃靼	-11.6259
乾寧	-11.6261
鈔法	-11.6261
冠帶	-11.6262
孤軍	-11.6262
葉夢得	-11.6263
勤王之師	-11.6264
受賕	-11.6265
忠順	-11.6265
事見上	-11.6266
溱	-11.6267
盧多遜	-11.6267
礦	-11.6267
奔潰	-11.6268
諸色	-11.6269
萊州	-11.6269
手札	-11.627
疑懼	-11.6271
臭	-11.6271
舸	-11.6272
貶所	-11.6272
彈劾	-11.6273
兎	-11.6275
疆場	-11.6276
五十四	-11.6278
馮異	-11.6279
序辰	-11.6279
鐵騎	-11.6281
移軍	-11.6282
常平錢	-11.6283
暴虐	-11.6283
肅然	-11.6284
吳璘	-11.6286
文昌	-11.6286
二十九年	-11.6287
持久	-11.6289
勞力	-11.629
有司請	-11.6291
體國	-11.6293
不悟	-11.6296
俱死	-11.6297
便民	-11.6297
走馬	-11.6298
未畢	-11.6301
丁亥詔	-11.6302
畏服	-11.6304
上曰然	-11.6305
深察	-11.6305
考官	-11.6307
應奉	-11.6307
獨斷	-11.6307
臣子之	-11.6307
郡隋	-11.6311
偃師	-11.6311
躬行	-11.6313
月二日	-11.6314
厯代	-11.6317
帥讀曰	-11.6321
為誰	-11.6322
吉凶	-11.6323
今春	-11.6324
仁聖	-11.6324
不厭	-11.6324
宸濠	-11.6324
進秩	-11.6325
舊章	-11.6325
分扶問翻	-11.6327
重賞	-11.6328
葉義問	-11.6328
兢	-11.6328
碧	-11.6328
歸業	-11.6329
勗	-11.6329
棲	-11.633
沙河	-11.633
蟠	-11.633
貧乏	-11.6331
弗許	-11.6332
公使錢	-11.6332
臠	-11.6332
魂	-11.6332
二品	-11.6333
精銳	-11.6333
惶懼	-11.6334
雛	-11.6334
㗖	-11.6335
斛斗	-11.6336
石敬瑭	-11.6336
季氏	-11.6338
开	-11.6338
馳驛	-11.6342
顯著	-11.6343
熈河蘭㑹路	-11.6343
享國	-11.6344
往来	-11.6345
庚申詔	-11.6346
妄作	-11.6348
有功者	-11.6353
移用	-11.6355
甲子詔	-11.6355
共攻	-11.6356
正月盡	-11.6359
家貧	-11.6364
䕶送	-11.6366
汾水	-11.6368
王僧辯	-11.637
逺來	-11.637
所犯	-11.637
以舟師	-11.6371
六路	-11.6371
目録	-11.6374
錄云	-11.6376
錢米	-11.638
善類	-11.6381
入淮	-11.6383
除名勒停	-11.6384
籍籍	-11.6384
節度使同平章事	-11.6384
之利也	-11.6386
耒	-11.6387
樞宻都承㫖	-11.6388
路鈐轄	-11.6388
朕心	-11.6389
佶	-11.6389
票	-11.6389
樓炤	-11.6389
釀	-11.6392
垢	-11.6392
穉	-11.6393
鈐	-11.6393
筋	-11.6393
滿洲	-11.6394
燼	-11.6395
守式又翻	-11.6395
何嘗	-11.6397
光禄卿	-11.6397
調兵	-11.6397
澠池	-11.6398
立其子	-11.6399
公薨	-11.6401
良將	-11.6402
農夫	-11.6403
延禧	-11.6403
録用	-11.6403
並起	-11.6406
二里	-11.6407
追奔	-11.6411
春秋之義	-11.6411
帥師伐	-11.6412
晉師	-11.6414
陳讀	-11.6414
孫沔	-11.6417
輕兵	-11.6418
免死	-11.6419
劉晏	-11.6419
叛降	-11.6421
懐徳	-11.6421
不得志	-11.6421
施行從之	-11.6421
王拱辰	-11.6425
教翻	-11.6426
朝歌	-11.6427
匹兩	-11.6434
屬吏	-11.6435
酒酣	-11.6435
敬徳	-11.6435
注官	-11.6438
乙巳詔	-11.6438
楶	-11.644
軍留後	-11.6443
捕得	-11.6443
以為便	-11.6444
無窮之	-11.6444
下情	-11.6445
嘯聚	-11.6447
四百餘	-11.6448
右司郎中	-11.6449
置場	-11.6449
東上閤門使	-11.6451
婿	-11.6451
神道碑	-11.6452
部長	-11.6452
賀蘭	-11.6452
三分之一	-11.6452
催促	-11.6452
啇	-11.6453
闔門	-11.6454
墊	-11.6454
耜	-11.6454
太學博士	-11.6455
煑	-11.6455
張憲	-11.6456
麋	-11.6458
太母	-11.646
葭	-11.646
鼓舞	-11.6461
賦歛	-11.6462
考異曰舊	-11.6465
凡二年	-11.6465
忠正	-11.6467
簡易	-11.6467
謂輔臣曰	-11.6468
入關	-11.6469
八百餘	-11.6472
百五十里	-11.6472
小校	-11.6476
金師	-11.6476
遣使臣	-11.6477
就食	-11.6477
月二十八日	-11.6477
鎮海	-11.6477
最後	-11.6478
八年春正月	-11.6481
未央宫	-11.6481
忠武節度使	-11.6482
所難	-11.6482
取勝	-11.6483
戊辰詔	-11.6486
清明	-11.6486
将來	-11.6492
辛亥詔	-11.6492
聖斷	-11.6495
論功	-11.6495
希憲	-11.6497
二十九日	-11.6498
非才	-11.6499
孫固	-11.65
他官	-11.65
軍屯	-11.65
豈惟	-11.6503
仁恭	-11.6504
國史院	-11.6506
攻討	-11.6509
剩	-11.6511
幵	-11.6511
王堯臣	-11.6512
王時雍	-11.6512
酬奬	-11.6512
箇	-11.6512
澈	-11.6513
本院	-11.6513
十國紀年	-11.6514
倅	-11.6514
謗訕	-11.6515
覈實	-11.6516
劉昫曰	-11.6516
料錢	-11.6517
承矩	-11.6517
羿	-11.6517
卵	-11.6518
睿聖	-11.6518
乍	-11.6519
桞	-11.652
久任	-11.652
京邑	-11.652
羣議	-11.6522
保忠	-11.6524
熒惑犯	-11.6524
田令孜	-11.6524
殿庭	-11.6526
為己任	-11.6527
希萼	-11.6528
疏奏	-11.6533
闕額	-11.6536
其咎	-11.6537
義問	-11.6537
亥翻	-11.6539
上卷	-11.654
九十里	-11.6542
以朱熹	-11.6546
納錢	-11.6547
交翻	-11.655
來奔	-11.6551
言臣聞	-11.6553
溺死者	-11.6554
解鹽	-11.6554
綿州	-11.6555
改更	-11.6556
支給	-11.6557
云爾	-11.6558
杜預曰	-11.6565
甲寅詔	-11.6566
侍御史知雜事	-11.6568
成湯	-11.6571
一千五百	-11.6571
㩁	-11.6572
䇿應	-11.6576
胡世將	-11.6576
楮	-11.6576
列國	-11.6576
刑部員外郎	-11.6576
舉朝	-11.6576
掇	-11.6576
蹂踐	-11.6578
厥九勿翻	-11.6578
將作監	-11.6578
航	-11.658
孝弟	-11.6581
何面目	-11.6581
左右司	-11.6583
師敗績	-11.6583
郿	-11.6583
鏡	-11.6583
頷	-11.6584
權要	-11.6584
韋氏	-11.6584
張晏曰	-11.6584
安惇	-11.6585
峙	-11.6585
無極	-11.6585
之力也	-11.6585
湘州	-11.6585
皥	-11.6586
十八里	-11.6586
俊卿	-11.6586
抵當	-11.6587
省試	-11.6589
伏覩	-11.6593
御札	-11.6593
母喪	-11.6594
兵威	-11.6594
浮屠	-11.6595
癸未詔	-11.6596
懐逺	-11.6596
情狀	-11.6598
大笑	-11.6599
盡歸	-11.6605
定策	-11.6608
丁壯	-11.661
妃嬪	-11.6611
每月	-11.6612
當誅	-11.6612
騎都尉	-11.6613
借職	-11.6614
事泄	-11.6614
乃下詔	-11.6618
文天祥	-11.6619
嶺表	-11.662
三百六十	-11.6621
寮	-11.6621
迎敵	-11.6622
温伯	-11.6623
都承㫖	-11.6624
特免	-11.6624
舟中	-11.6624
也或作	-11.6624
餓死	-11.6625
字叔	-11.6626
巴西	-11.6627
曰此非	-11.6627
保信	-11.663
租稅	-11.6633
息兵	-11.6633
西陽	-11.6634
宣布	-11.6635
所存	-11.6635
權衡	-11.6637
承務郎	-11.6637
機宜	-11.6639
鎮惡	-11.6639
鴨	-11.6641
門下侍郎同平章事	-11.6643
寰	-11.6643
散悉亶翻	-11.6645
乙酉詔	-11.6645
鄞	-11.6645
燉煌	-11.6645
王旦曰	-11.6646
唾	-11.6646
走保	-11.6646
筏	-11.6648
慄	-11.6648
僥	-11.6648
三族	-11.6649
詢訪	-11.6651
棧	-11.6651
台符	-11.6651
臣以謂	-11.6652
庻幾	-11.6653
徐兖	-11.6654
齧	-11.6654
莫肯	-11.6656
臧否	-11.6657
未晚	-11.6657
桂林	-11.6659
𢎞範	-11.6661
帝聞之	-11.6663
抑配	-11.6663
都廵檢使	-11.6664
尹洙	-11.6664
深然之	-11.6664
周輔	-11.6665
留滯	-11.6668
收糴	-11.6673
怨怒	-11.6676
多難	-11.668
節次	-11.6682
臣不知	-11.6685
二尺	-11.6687
俘斬	-11.669
厰	-11.669
坐贓	-11.6693
倍道	-11.6694
壬午詔	-11.6696
置獄	-11.6699
黔中	-11.67
下諸路	-11.6701
明旦	-11.6702
知洪州	-11.6703
縣丞	-11.6703
沴	-11.6704
四十三	-11.6704
穆王	-11.6704
屬籍	-11.6705
戊午詔	-11.6705
捕盗	-11.6706
左奉議郎	-11.6707
指陳	-11.6707
澣	-11.6708
留京師	-11.671
炅	-11.671
相拒	-11.6711
合為一	-11.6712
猗盧	-11.6713
瘡	-11.6714
華山	-11.6715
二百六十	-11.6715
即帝位	-11.6716
雍於用翻	-11.6717
儲蓄	-11.6717
纓	-11.6717
程顥	-11.6719
督諸軍	-11.6719
餼	-11.672
渭橋	-11.672
角切	-11.6721
今河南	-11.6721
五百餘	-11.6721
山海經	-11.6722
還報	-11.6723
探報	-11.6723
老疾	-11.6725
太醫	-11.6726
斯民	-11.6726
路轉運司	-11.6727
豈可不	-11.6728
茂州	-11.6728
轉戰	-11.6729
皃	-11.6731
至今未	-11.6733
親親	-11.6737
都廵檢	-11.6738
國風	-11.6738
分給	-11.6739
秦州刺史	-11.674
華陽	-11.6741
泗水	-11.6742
轉相	-11.6743
汴口	-11.6744
博學	-11.6746
壬申詔	-11.6748
元佐	-11.6748
相連	-11.6749
按實録	-11.6751
辭位	-11.6751
到闕	-11.6751
臣所以	-11.6754
與之同	-11.6755
至建康	-11.6755
摩正	-11.6759
蕃落	-11.6759
天戒	-11.6762
大寳	-11.6764
百一十	-11.6765
無憂	-11.6766
察罕特穆爾	-11.6768
㕘知政事	-11.6768
大鋮	-11.6769
率多	-11.677
碭	-11.6771
在京師	-11.6771
中牟	-11.6772
大事記續編卷	-11.6773
家貲	-11.6774
羈縻	-11.6774
瑚	-11.6775
掊克	-11.6775
襟	-11.6776
酈瓊	-11.6777
安禄山	-11.6778
養士	-11.6779
飼	-11.6779
啖	-11.678
以紓	-11.6781
派	-11.6781
禮部言	-11.6782
青徐	-11.6784
𣙜場	-11.6784
邊陲	-11.6785
第三等	-11.6786
九錫	-11.679
昭義節度使	-11.6792
知成都府	-11.6792
民困	-11.6792
數百騎	-11.6792
孝武皇帝	-11.6794
運判	-11.6795
西南夷	-11.6797
相聚	-11.6798
殺獲	-11.68
謀誅	-11.68
樂工	-11.6801
家法	-11.6802
勝音	-11.6803
少誠	-11.6804
中㫖	-11.6805
熟户	-11.681
審官	-11.681
太子太保	-11.681
顯祖	-11.6814
掖門	-11.6814
首惡	-11.6819
哈達	-11.6819
分布	-11.682
月十九日	-11.682
奏曰臣	-11.682
隂謀	-11.6821
貪殘	-11.6821
進讀	-11.6821
河渠	-11.6821
謀作亂	-11.6821
竊謂	-11.6821
蠟	-11.6822
司馬光言	-11.6822
賜銀絹	-11.6824
神策	-11.6824
唐室	-11.6826
百禄	-11.6827
新蔡	-11.6827
栻	-11.6827
戎馬	-11.6831
亦足以	-11.6831
太子太師	-11.6834
不能容	-11.6835
白虎	-11.6835
每歲	-11.6835
西邊	-11.6836
入内副都知	-11.6836
輸納	-11.6837
罄	-11.6837
數以聞	-11.6837
矛盾	-11.6837
閽	-11.6838
迓	-11.6838
涖	-11.6839
青海	-11.6839
餅	-11.684
嘿	-11.684
日夕	-11.6841
坂	-11.6842
知亳州	-11.6842
南鄭	-11.6843
諠	-11.6844
秦熺	-11.6844
豐稔	-11.6845
詛	-11.6847
孫抃	-11.6847
犒設	-11.6847
茂實	-11.6849
劉表	-11.6849
呉玠	-11.685
曹氏	-11.6853
寛大	-11.6853
臣光曰	-11.6853
西鄙	-11.6853
僣號	-11.6855
壬子詔	-11.6856
庶務	-11.6859
孝惠	-11.6859
百家	-11.686
害政	-11.686
旣而	-11.6864
貝勒大臣	-11.6865
蕭衍	-11.687
金石	-11.6871
在此月	-11.6871
二百餘人	-11.6871
騎士	-11.6873
髙氏	-11.6873
昊天	-11.6875
洛口	-11.6878
勁兵	-11.6878
散走	-11.688
仁祖	-11.688
等五人	-11.6884
張洎	-11.6885
唐志	-11.6887
可憫	-11.6892
戊寅詔	-11.6892
專任	-11.6893
朝辭	-11.6893
刻石	-11.6894
惜哉	-11.6898
閤門宣賛舍人	-11.6899
發喪	-11.6899
月氏	-11.6899
悉歸	-11.6899
斥堠	-11.69
忠嗣	-11.69
臣留正等曰	-11.6901
不逞	-11.6902
幹辦公事	-11.6902
唐六典	-11.6903
梢	-11.6903
謝安	-11.6904
城在今	-11.6904
㒺	-11.6905
夷陵	-11.6907
殍	-11.6908
萬戸	-11.6908
酤	-11.6909
禫	-11.691
疵	-11.691
褊	-11.691
鐫	-11.6912
修身	-11.6913
東莞	-11.6915
隨宜	-11.6916
恣横	-11.6918
加罪	-11.6919
裁抑	-11.692
一百一十	-11.6921
范育	-11.6921
翼日	-11.6922
庚辰詔	-11.6922
若之何	-11.6924
知廬州	-11.6924
照㑹	-11.6924
率下同	-11.6926
悉心	-11.6926
一二人	-11.6929
馬援	-11.6929
度支判官	-11.693
丙戌詔	-11.6931
宗旦	-11.6932
仍許	-11.6934
伏惟	-11.6935
河北轉運使	-11.6937
有貞	-11.6938
州總管	-11.6939
負陛下	-11.694
逃去	-11.694
無一言	-11.6944
叔獻	-11.6944
億萬	-11.6945
壬戌詔	-11.6947
知定州	-11.6948
乙丑詔	-11.6958
送京師	-11.6959
詣行在	-11.6959
不果行	-11.6959
百斤	-11.6961
百濟	-11.6963
松江	-11.6964
敗盟	-11.6964
哀公	-11.6965
丙午詔	-11.6967
武皇	-11.6968
洋州	-11.6968
理㑹	-11.6969
度僧牒	-11.6969
趙挺之	-11.697
映	-11.697
萬機	-11.697
案牘	-11.6972
匡𦙍	-11.6972
賢良方正	-11.6972
熊本	-11.6973
俚	-11.6973
左藏	-11.6973
德音	-11.6974
穹	-11.6974
客省	-11.6975
知政事	-11.6976
年六十	-11.6978
亦謂之	-11.698
范瓊	-11.6981
載此事	-11.6982
接戰	-11.6983
外其餘	-11.6983
法駕	-11.6984
日暮	-11.6985
蒙遜	-11.6988
幢	-11.6988
涪陵	-11.6989
尉氏	-11.699
已降指揮	-11.6991
其子弟	-11.6994
崔浩	-11.6994
按問	-11.6994
伏地	-11.6995
照管	-11.6996
翻又音	-11.6996
䝉古兵	-11.6996
然後可	-11.6999
退走	-11.6999
比類	-11.6999
侍從臺諫	-11.6999
右副元帥	-11.7
今從實錄	-11.7005
三老	-11.7007
尋命	-11.7013
大行皇帝	-11.7014
辛巳詔	-11.7015
師雄	-11.7015
曰然則	-11.7016
據分註	-11.702
輦運	-11.7022
故也詔	-11.7023
悉力	-11.7024
優容	-11.7025
專委	-11.7025
魏主如	-11.7026
鹽池	-11.7027
谷口	-11.7028
濮安懿王	-11.7032
廣南東路	-11.7033
中散大夫	-11.7033
秘書省正字	-11.7036
鶻	-11.7037
箕子	-11.7038
智髙	-11.7038
臆	-11.7038
煎	-11.7038
守本官	-11.7038
蒙古兵	-11.7038
髓	-11.7039
淳于	-11.7039
光祿大夫	-11.7039
上官均	-11.704
鄭剛中	-11.704
弹	-11.704
險固	-11.704
已乆	-11.7041
菲	-11.7041
淳熙	-11.7041
月二十七日	-11.7043
趾	-11.7043
貊	-11.7044
右武	-11.7045
鷙	-11.7045
人畜	-11.7045
匹磾	-11.7046
疾疫	-11.705
盡誅	-11.7051
中二千石	-11.7052
劉子羽	-11.7052
邊吏	-11.7053
呂翻	-11.7054
退朝	-11.7056
錢引	-11.706
弑逆	-11.7061
不可勝數	-11.7066
嘗問	-11.7066
上書請	-11.7068
冀州刺史	-11.7069
者莫不	-11.7073
寧夏	-11.7075
孔光	-11.7075
邪説	-11.7076
為萬世	-11.7078
諱改	-11.7078
營造	-11.7079
不精	-11.7079
獄具	-11.7082
干預	-11.7083
知桂州	-11.7084
離心	-11.7093
幕職州縣官	-11.7097
丈餘	-11.7097
悔過	-11.7097
天章閣	-11.7098
正議大夫	-11.7099
語人曰	-11.71
煮	-11.71
叅知政事	-11.7101
褥	-11.7101
歸田里	-11.7101
棚	-11.7102
攻具	-11.7103
鉛	-11.7103
蓮	-11.7103
禮部員外郎	-11.7105
從所請也	-11.7105
御容	-11.7106
欠負	-11.7106
詎	-11.7106
湯武	-11.7106
遇赦	-11.7107
瑣	-11.7107
芟	-11.7107
鋤	-11.7107
汝隂	-11.7107
偏禆	-11.7108
欝	-11.7108
鱗	-11.7108
程昉	-11.7108
開寶	-11.7109
不惜	-11.7109
獄吏	-11.7109
發運	-11.711
未息	-11.711
享太廟	-11.7112
蠕蠕	-11.7113
驃騎將軍	-11.7114
郭崇韜	-11.7115
臨軒	-11.7116
積欠	-11.7119
朱雀	-11.712
禹錫	-11.7121
切姓	-11.7123
如之何	-11.7124
伶	-11.7126
邑屬	-11.7127
誰能	-11.7129
蘭陵	-11.7129
遼州	-11.7133
吏額	-11.7134
伐趙	-11.7134
雅州	-11.7135
成風	-11.7136
當職官	-11.7137
各一員	-11.7141
有所未	-11.7141
小過	-11.7141
開封府推官	-11.7142
右衛	-11.7143
小雅	-11.7149
㑹計	-11.7152
増修	-11.7154
機宻	-11.7156
減省	-11.7156
苗傅	-11.7159
災變	-11.716
五行志	-11.7161
們	-11.7165
輔佐	-11.7165
問計	-11.7167
迺	-11.7168
司農少卿	-11.7168
洒	-11.7168
㑹昌	-11.7169
牴牾	-11.7169
猶恐	-11.7169
靳翻	-11.717
百倍	-11.7171
重華	-11.7172
逋負	-11.7174
脇	-11.7175
抉	-11.7175
培	-11.7175
問疾	-11.7175
得疾	-11.7175
並須	-11.7177
朱勔	-11.7178
靺鞨	-11.7178
酒税	-11.7178
脅從	-11.7178
蹶	-11.7179
勝音升	-11.718
開封人	-11.718
帑藏	-11.7181
鬲	-11.7182
養民	-11.7183
言是也	-11.7183
曰吾聞	-11.7183
梓州路	-11.7187
入汴	-11.7188
殿大學士	-11.7189
閣下	-11.7189
者以其	-11.719
祖謙	-11.7191
不然則	-11.7192
耆老	-11.7192
宋璟	-11.7193
丞相御史	-11.7195
蕭望之	-11.7195
震驚	-11.72
一寸	-11.7201
汝輩	-11.7205
李寳	-11.7205
條目	-11.7207
隰州	-11.7211
戊子詔	-11.7212
預聞	-11.7213
増損	-11.7214
河橋	-11.7218
就職	-11.7218
力役	-11.7222
英武	-11.7225
長寧	-11.7225
無疆	-11.7226
禦敵	-11.7229
子諲	-11.7231
知州軍	-11.7232
崞	-11.7233
諜者	-11.7234
廬陵王	-11.7235
三十日	-11.7236
熊克小厯	-11.7236
摹	-11.7238
保䕶	-11.7238
同修起居注	-11.7239
衾	-11.7239
帷幄	-11.724
縣明屬	-11.7241
畏避	-11.7243
舊紀書	-11.7243
桀紂	-11.7244
八十一	-11.7244
琅	-11.7244
蹟	-11.7245
義真	-11.7245
髦	-11.7246
幘	-11.7247
備邊	-11.7249
王贍	-11.725
器幣	-11.7252
其歸路	-11.7253
羡餘	-11.7253
悖逆	-11.7255
四員	-11.7257
庾亮	-11.7257
二千五百	-11.726
己未詔	-11.7263
名號	-11.7265
宣諭使	-11.7266
杜門	-11.7267
相謂曰	-11.7268
五萬人	-11.7273
高陽	-11.7277
度量	-11.7278
制勝	-11.7279
蠲免	-11.7282
千石	-11.7283
行状	-11.7283
貶秩	-11.7286
復圭	-11.7287
獻納	-11.7289
廢太子	-11.7291
十萬貫	-11.7291
胤	-11.7293
宫掖	-11.7295
河清	-11.7297
路安撫使	-11.7298
馬頭	-11.7299
糴本	-11.7299
儀衛	-11.7299
躐	-11.73
令監司	-11.7302
移屯	-11.7303
倬	-11.7304
月俸	-11.7304
陛下即位	-11.7305
啗	-11.7306
太白經天	-11.7308
拜謝	-11.7309
媪	-11.731
范純粹	-11.731
等將兵	-11.7311
踣	-11.7312
陳彭年	-11.7312
箱	-11.7313
呂大防	-11.7314
滏	-11.7315
陸佃	-11.7315
致太平	-11.7315
仰視	-11.7316
韋昭曰	-11.7316
己酉詔	-11.7319
蓼	-11.732
歴任	-11.732
不急之	-11.7321
貧富	-11.7322
亹	-11.7322
雅翻	-11.7324
石顯	-11.7324
六宫	-11.7325
拱手	-11.7326
知鄧州	-11.7328
公薨子	-11.7328
宇文泰	-11.7329
三十餘人	-11.7333
不曾	-11.7334
勞民	-11.7335
再舉	-11.7336
庚子詔	-11.7338
事見二百	-11.7342
開邊	-11.7344
燕趙	-11.7344
以本官	-11.7347
彗星見	-11.7348
楊政	-11.7349
建節	-11.735
布帛	-11.7352
陳蕃	-11.7352
蔡襄	-11.7357
稽留	-11.736
上柱國	-11.7361
延光	-11.7363
減半	-11.7367
武庫	-11.7371
監修國史	-11.7372
太山	-11.7374
捜	-11.7374
綘	-11.7374
內	-11.7374
元祐中	-11.7375
輟視朝	-11.7375
絛	-11.7379
訂	-11.738
胡三省注	-11.7381
淮陽王	-11.7381
兵仗	-11.7381
巴東	-11.7381
戕	-11.7381
褐	-11.7382
訶	-11.7383
梁州刺史	-11.7383
豚	-11.7384
鑊	-11.7384
鯉	-11.7384
盡殺之	-11.7386
分扶	-11.7386
田産	-11.7386
鈴	-11.7387
錢惟演	-11.7387
惻然	-11.7392
公綽	-11.7392
築壘	-11.7393
安肯	-11.7395
馳入	-11.7398
月二十四日	-11.7398
稅錢	-11.7398
聖學	-11.7399
封駮	-11.7399
王鐸	-11.7403
潰散	-11.7405
孝昭	-11.7407
白溝	-11.7409
東夷	-11.7409
同三品	-11.7409
後周置	-11.741
黎明	-11.741
言之則	-11.7415
李希烈	-11.7416
遣其弟	-11.7416
鉅萬	-11.7418
特勒	-11.7419
汴梁	-11.742
犯塞	-11.742
新豐	-11.742
近來	-11.7425
東井	-11.7429
閩主	-11.7431
新附	-11.7434
田况	-11.7434
為列侯	-11.7435
湖北京西	-11.7435
奏薦	-11.7436
詔户部	-11.7439
宙	-11.7442
軒轅	-11.7442
蕭禧	-11.7444
彈壓	-11.7445
佐命	-11.7446
癸亥詔	-11.7446
朏	-11.7446
瞰	-11.7447
蛟	-11.7447
本貫	-11.7447
上尊號曰	-11.7447
攅	-11.7448
厚利	-11.745
噉	-11.7451
四年正月	-11.7452
蟬	-11.7452
續漢志	-11.7452
行伍	-11.7454
鄧艾	-11.7454
族誅	-11.7454
悸	-11.7454
鏁	-11.7455
嗣濮王	-11.7455
肱	-11.7455
亷恥	-11.7455
嫗	-11.7455
告哀	-11.7455
震怒	-11.7455
别廟	-11.7455
趙君錫	-11.7456
旂	-11.7457
强壯	-11.7458
徤	-11.7458
疑惑	-11.7459
進逼	-11.7459
舋	-11.7459
邾子	-11.746
宋庠	-11.746
棣州	-11.7461
六百石	-11.7468
欽宗	-11.7471
間諜	-11.7471
不可得而	-11.7473
𢎞肇	-11.7473
蔡侯	-11.7475
好問	-11.7476
亡去	-11.7476
金華	-11.7477
編年	-11.7478
知渭州	-11.7481
諸蕃	-11.7483
兼提舉	-11.7486
運司	-11.7487
歸咎	-11.7487
乞自今	-11.7488
面諭	-11.7489
遁歸	-11.749
城堡	-11.7492
月十三日	-11.7494
為衆所	-11.7496
凡三年	-11.7497
叛臣	-11.7499
良佐	-11.7499
間隙	-11.75
訴理	-11.7506
森	-11.7506
堂吏	-11.7506
上謂宰相曰	-11.7507
衆庶	-11.7508
條法	-11.7508
申錫	-11.7509
母妻	-11.7509
岢嵐	-11.7511
詔今後	-11.7512
宫女	-11.7512
衆寡不敵	-11.7513
𠫭	-11.7513
雷州	-11.7514
驃騎大將軍	-11.7515
繖	-11.7515
移鎮	-11.7515
枷	-11.7516
瑁	-11.7516
利害以聞	-11.7517
款	-11.7517
任音壬	-11.7518
王琳	-11.7519
醫藥	-11.7519
関	-11.7519
䟦	-11.7519
淮泗	-11.7519
䟦扈	-11.7519
陳升之	-11.752
嚴父	-11.752
須臾	-11.7521
橈	-11.7522
服䖍曰	-11.7522
五色	-11.7524
入粟	-11.7525
厓	-11.7526
縞	-11.7528
叔向	-11.753
勇敢	-11.7531
昇州	-11.7532
鄫	-11.7532
察罕	-11.7534
閭里	-11.7535
伏羲	-11.7536
雄武	-11.7536
厲聲曰	-11.7539
無逸	-11.754
仲熊	-11.754
寳應	-11.7549
頗多	-11.7555
均輸	-11.7557
階成	-11.7558
祈雨	-11.7561
臣欲乞	-11.757
懐忠	-11.7571
昪	-11.7572
饋餉	-11.7575
淀	-11.7576
孥	-11.7577
更須	-11.7577
體例	-11.7577
彗出	-11.7578
闗南	-11.7578
禘祫	-11.7582
晙	-11.7583
己亥詔	-11.7584
棊	-11.7586
右文殿修撰	-11.7586
二年春	-11.7587
爪	-11.7588
溧	-11.7588
脊	-11.7588
受賞	-11.7589
羣情	-11.759
窒	-11.759
甲胄	-11.759
淮南東路	-11.7591
跂	-11.7591
劉昌祚	-11.7592
日有蝕之	-11.7593
仰給	-11.7594
吕祉	-11.7595
倉廪	-11.7595
台吉	-11.7595
垂拱殿	-11.7595
太守張	-11.7596
入長安	-11.7598
編排	-11.7598
擊却之	-11.76
天津	-11.76
凡百	-11.76
蠟書	-11.7605
禁旅	-11.7606
力主	-11.7606
如雨	-11.7607
修葺	-11.7609
懷州	-11.7611
己丑詔	-11.7614
注擬	-11.7615
墨本	-11.7615
太皇太后陛下	-11.7616
無愧	-11.7616
法寺	-11.762
瓊州	-11.7622
條例司	-11.7623
三年正月	-11.7624
百四十	-11.7628
空虚	-11.7629
隆興	-11.763
誠心	-11.763
禮物	-11.7641
蠻賊	-11.7642
十有三	-11.7643
語云	-11.7645
燕雲	-11.765
杖脊	-11.765
延政	-11.7651
西川節度使	-11.7651
􁝠	-11.7653
嵐州	-11.7658
東海王	-11.7658
周必大	-11.7658
五丈	-11.7658
十有四	-11.7659
四川宣撫使	-11.7659
瘁	-11.7659
對䇿	-11.7659
脛	-11.7661
治亂之	-11.7661
承恩	-11.7661
稱㫖	-11.7662
湓	-11.7663
拳	-11.7663
海口	-11.7664
史嵩之	-11.7664
寒暑	-11.7664
撫定	-11.7664
甯	-11.7665
遂不復	-11.7666
囘紇	-11.7666
量移	-11.7667
竇氏	-11.7667
步卒	-11.767
永夀	-11.767
諸矦	-11.767
敬業	-11.7671
君臣之義	-11.7672
孔安國	-11.7672
疑似	-11.7673
有寵於	-11.7674
專政	-11.7675
孤城	-11.7677
弔翻	-11.7677
共工	-11.7679
者多矣	-11.7681
降附	-11.7681
性命	-11.7682
安重誨	-11.7682
長久	-11.7684
二條	-11.7685
月二十六日	-11.7686
迎謁	-11.7686
五十三	-11.769
攻戰	-11.7693
細務	-11.7693
八千人	-11.7693
百戰	-11.7694
驚駭	-11.7697
𤣥感	-11.7699
五十六	-11.77
平壤	-11.77
三員	-11.7703
秀容	-11.7703
南陽郡	-11.7703
東面	-11.7706
陳倉	-11.7708
為尚書左丞	-11.771
不能克	-11.7712
公羊	-11.7712
朱震	-11.7718
江表	-11.7718
受遺	-11.7719
可速	-11.7719
以為憂	-11.7719
煬	-11.7721
帝曰卿	-11.7722
皇叔	-11.7723
播州	-11.7724
吕恵卿	-11.7726
渝盟	-11.7726
吳興	-11.7727
糞	-11.7729
鴈	-11.7729
事無大小	-11.7729
纉	-11.7729
怛	-11.7732
中書左丞	-11.7732
匭	-11.7733
諫諍	-11.7733
郛	-11.7733
一千二百	-11.7733
舒亶	-11.7733
孝孫	-11.7734
郎中令	-11.7735
篋	-11.7736
形迹	-11.7737
羮	-11.7738
惟岳	-11.7738
三寸	-11.7738
飛狐	-11.7739
成化	-11.7739
承慶	-11.7739
娠	-11.7739
蕭道成	-11.7739
可見矣	-11.7741
國長公主	-11.7741
偕行	-11.7742
追贈	-11.7742
貨賂	-11.7745
十二卷	-11.7745
大宛	-11.7746
皇極	-11.7746
陳霸先	-11.7747
己巳詔	-11.7748
墳墓	-11.7748
六卿	-11.7751
絰	-11.7751
將即亮	-11.7752
鐡錢	-11.7752
葉䕶	-11.7753
杖一百	-11.7753
葉適	-11.7754
彦卿	-11.7756
都護	-11.776
被誅	-11.776
督府	-11.7764
致討	-11.7764
長短	-11.7764
彭年	-11.7767
決河	-11.7767
赧王	-11.7769
釋氏	-11.7769
章獻	-11.777
劍州	-11.7773
九經	-11.7779
饋運	-11.7779
陽縣屬	-11.7779
耀州	-11.7781
判度支	-11.7782
忠烈	-11.7783
諸路轉運使	-11.7784
韐	-11.7786
仲武	-11.7786
運米	-11.7788
竺	-11.779
昌黎	-11.7792
風俗通	-11.7795
酸棗	-11.7798
都水監丞	-11.7798
貽書	-11.7798
興工	-11.7799
明年二月	-11.7799
蒋	-11.78
鄢	-11.78
鎗	-11.7801
騏	-11.7803
侵軼	-11.7805
倉廩	-11.7806
牖	-11.7807
伾	-11.7808
謂宰臣曰	-11.7808
嘏	-11.7808
掎	-11.7808
巫蠱	-11.781
茂陵	-11.7811
洞庭	-11.7812
閼逢	-11.7812
文燦	-11.7816
管押	-11.7818
樓船	-11.782
恐難	-11.7822
李勣	-11.7823
提督	-11.7826
梁冀	-11.7827
魏文帝	-11.7828
順流	-11.7828
太甲	-11.7833
晉春秋	-11.7833
辭不拜	-11.7835
去年十二月	-11.7838
壽陽	-11.784
試進士	-11.7841
奚契丹	-11.7843
嫌疑	-11.7844
常平等事	-11.7845
忠州刺史	-11.7847
夜遁	-11.7847
甚詳	-11.7847
王洙	-11.7849
庚寅詔	-11.7851
路轉運副使	-11.7855
師鐸	-11.7856
京都	-11.7857
公卿大夫	-11.7858
邪佞	-11.7862
其為人	-11.7864
浚儀	-11.7864
經歴	-11.7865
上封者言	-11.7867
䧏	-11.7871
种師道	-11.7871
第三子	-11.7872
同中書門下平章事	-11.7872
文秀	-11.7873
繼宗	-11.7873
三百餘人	-11.7874
榛	-11.7874
丁未詔	-11.7874
專制	-11.7875
耐	-11.7876
二丈	-11.7877
嵗貢	-11.7877
衫	-11.7878
渇	-11.7878
牝	-11.7878
優劣	-11.7879
漿	-11.788
債	-11.788
鵠	-11.788
程頤	-11.7881
喝	-11.7881
鄕	-11.7881
受降城	-11.7881
肘	-11.7881
四尺	-11.7882
檻車	-11.7883
押牙	-11.7883
虧損	-11.7885
聚歛	-11.7886
不屈死	-11.7886
衆潰	-11.7888
昆彌	-11.789
在東宫	-11.7891
明洪武	-11.7891
崑山	-11.7892
坐徂	-11.7893
私家	-11.7895
賈后	-11.7901
擊匈奴	-11.7902
太極殿	-11.7903
胡銓	-11.7903
天下之士	-11.7904
沔陽	-11.7905
六十五	-11.7905
戒諭	-11.7908
二千里	-11.7909
可得而	-11.791
曲陽	-11.7911
削籍	-11.7913
罵賊	-11.7917
神仙	-11.7917
正旦使	-11.7917
群臣	-11.7919
力屈	-11.7921
奉職	-11.7923
王鞏	-11.7926
戊申詔	-11.7928
太后臨朝	-11.7931
景福	-11.7933
烈祖	-11.7934
新舊紀	-11.7935
攄	-11.7938
援引	-11.7939
海外	-11.7941
覊縻	-11.7941
枝梧	-11.7941
崇政殿説書	-11.7942
鐘磬	-11.7943
樊城	-11.7943
圖克坦	-11.7944
胸	-11.7944
殪	-11.7944
宗正少卿	-11.7944
階州	-11.7944
出糶	-11.7946
透	-11.7947
蹤	-11.7947
咫尺	-11.7948
罸	-11.7948
晉灼曰	-11.7948
診	-11.7948
史記正義曰	-11.7948
頋	-11.7949
殊不知	-11.7949
呂惠卿	-11.795
肻	-11.795
等八人	-11.7951
白太后	-11.7951
秦鳳路	-11.7951
薛居正	-11.7951
榷	-11.7953
少康	-11.7954
嵗計	-11.7954
姦黨	-11.7954
天下之心	-11.7958
事見一百	-11.796
功過	-11.796
成閔	-11.7964
陸遜	-11.7965
周旋	-11.7966
字今刪	-11.7968
潮州	-11.7969
聖語	-11.7971
守宰	-11.7974
司農卿	-11.7974
窮困	-11.7975
都䕶府	-11.7976
千餘緡	-11.7985
厚賂	-11.7985
右扶風	-11.7985
羣蠻	-11.7988
奏劾	-11.799
號哭	-11.7993
徳澤	-11.7993
治獄	-11.7995
兵數萬	-11.7996
廵幸	-11.7997
師旅	-11.7999
一舉而	-11.8001
功狀	-11.8002
赦宥	-11.8003
翀	-11.8012
莅	-11.8013
北向	-11.8015
滅亡	-11.8016
違制	-11.8016
供備庫使	-11.8016
貿	-11.8017
祕書丞	-11.8017
章得象	-11.8018
并州刺史	-11.8018
通議大夫	-11.8019
峪	-11.8019
挟	-11.8019
仁夀	-11.8021
雨土	-11.8022
爾朱榮	-11.8022
郅	-11.8023
喉	-11.8023
衮冕	-11.8023
屬之欲翻	-11.8024
湧	-11.8024
圎	-11.8025
七十五	-11.8026
煇	-11.8027
賢愚	-11.8027
秦王世民	-11.8028
根括	-11.8028
常平司	-11.803
第八	-11.8031
莫敢言	-11.8031
厚薄	-11.8032
鄣	-11.8032
勇力	-11.8034
㑹赦	-11.8034
立其弟	-11.8036
謝病	-11.8036
淮南節度使	-11.8038
城壘	-11.8039
謀叛	-11.804
臨奠	-11.8043
孟氏	-11.8044
乾符	-11.8045
輔導	-11.8049
博陵	-11.805
伐木	-11.8052
勲舊	-11.8053
中軍統制	-11.8053
唐介	-11.8059
流逕	-11.8062
彭越	-11.8063
等六人	-11.8067
仁宗皇帝	-11.8067
癸巳詔	-11.8069
姚崇	-11.807
敵勢	-11.807
河溢	-11.8071
十有五	-11.8074
者不可勝數	-11.8074
立妃	-11.8076
餘姚	-11.808
枉法	-11.8084
天平節度使	-11.8085
薛居正五代史	-11.8086
儒學	-11.8086
十五卷	-11.8086
豈足	-11.8086
大宗正司	-11.8091
宗維	-11.8092
餙	-11.8093
龍神衛四廂都指揮使	-11.8093
湍	-11.8095
諺	-11.8095
将即亮翻	-11.8096
湘東王繹	-11.8097
十有六	-11.8098
冢宰	-11.8098
族滅	-11.8099
諸吕	-11.8099
窮蹙	-11.8101
太宗皇帝	-11.8103
熙寜	-11.8104
釡	-11.8105
感激	-11.8106
也余謂	-11.8106
騷然	-11.8107
固爭	-11.8107
屨	-11.8108
我輩	-11.8108
賦斂	-11.8109
鹽錢	-11.811
姑孰	-11.811
籥	-11.811
遙翻	-11.811
激賞	-11.8113
孔氏	-11.8113
餘杭	-11.8113
僭號	-11.8113
臣不勝	-11.8113
蠲放	-11.8114
敦逸	-11.8115
兵二千	-11.8116
權倖	-11.8118
老㓜	-11.8118
知宣州	-11.8121
虛名	-11.8123
困窮	-11.8125
四十人	-11.8127
副都統	-11.8128
録黄	-11.8128
兖鄆	-11.8129
上書論	-11.813
徇私	-11.8131
配𨽻	-11.8132
王者之	-11.8134
文炳	-11.8137
引退	-11.8137
體量安撫	-11.814
知鄆州	-11.8141
降一等	-11.8141
買賣	-11.8141
渭水	-11.8142
吕布	-11.8142
檢視	-11.8145
雍丘	-11.8146
握兵	-11.815
盛德	-11.8151
賜賚	-11.8152
細事	-11.8153
除目	-11.8154
絹翻	-11.8157
形勝	-11.8159
与	-11.816
祐甫	-11.8162
一尺	-11.8162
討蕩	-11.8162
柟	-11.8164
伐晉	-11.8167
八十餘	-11.8167
守捉	-11.8168
腦	-11.8169
芥	-11.817
擘畫	-11.817
昃	-11.8171
棫	-11.8171
梓潼	-11.8171
䞇	-11.8172
賑恤	-11.8172
捽	-11.8172
上大怒	-11.8172
趣七喻翻	-11.8172
詘	-11.8172
娥	-11.8173
誕謾	-11.8173
义	-11.8174
䙝	-11.8174
莆	-11.8175
蒲坂	-11.8176
萬一千	-11.8176
洪皓	-11.8176
陳宜中	-11.8177
户部郎中	-11.8177
御史䑓	-11.8178
炙	-11.8181
遁走	-11.8182
館陶	-11.8184
李偉	-11.8184
兵五萬	-11.8185
六尺	-11.8185
蓄積	-11.8185
日有食之	-11.8197
不啻	-11.8198
保衡	-11.8199
髙駢	-11.82
壯丁	-11.8201
就試	-11.8203
淵聖皇帝	-11.8203
陵廟	-11.8203
棄疾	-11.8207
權户部侍郎	-11.8207
風化	-11.8208
金人犯	-11.8211
伐宋	-11.8211
坐貶	-11.8212
伊洛	-11.8215
世俗	-11.822
應干	-11.8224
避位	-11.8225
璿	-11.8237
䓁	-11.8239
别部	-11.8239
齎詔	-11.824
召諸將	-11.824
工部員外郎	-11.8241
尼堪	-11.8243
誤改見巻一	-11.8243
魄	-11.8243
袂	-11.8245
捄	-11.8246
張詠	-11.8246
袴	-11.8246
進奏院	-11.8246
仔	-11.8247
騾	-11.8247
鴟	-11.8248
纒	-11.8248
托歡	-11.8249
未之有也	-11.8249
樁管	-11.8249
塞悉	-11.825
季良	-11.825
任職	-11.8251
淤田	-11.8252
賾	-11.8252
秃	-11.8253
澳	-11.8253
良乆	-11.8253
河隂	-11.8254
樓煩	-11.8254
誣告	-11.8255
章邯	-11.8256
營繕	-11.826
宣慰司	-11.826
騎奇	-11.8261
聖旨	-11.8261
安堵	-11.8263
極力	-11.8264
坊郭	-11.8265
斜谷	-11.8266
延綏	-11.8266
鄭雍	-11.8266
里克	-11.8267
符瑞	-11.8267
汝南郡	-11.8268
甚嚴	-11.827
旌節	-11.8271
訪求	-11.8277
什物	-11.8278
珍寳	-11.8288
仲甫	-11.8289
歸葬	-11.8294
敦厚	-11.8295
承祐	-11.8296
鄜延環慶	-11.8297
遼國	-11.8302
曽經	-11.8307
門之外	-11.8309
真偽	-11.8309
下獄死	-11.8314
樂毅	-11.8315
降敕	-11.8316
謾	-11.8319
藩臣	-11.8319
錄尚書事	-11.832
藩籬	-11.8322
曾公亮	-11.8323
兔	-11.8324
劉知逺	-11.8324
辠	-11.8324
四川制置使	-11.8325
琢	-11.8325
我大清兵	-11.8327
神御殿	-11.8327
俵	-11.8328
虓	-11.8329
戸部尚書	-11.8329
悒	-11.8329
製造	-11.8329
劉毅	-11.8331
漢光武	-11.8332
脯	-11.8333
刼掠	-11.8334
衆數萬	-11.8334
謂諸將曰	-11.8334
秣陵	-11.8335
安靜	-11.8338
宫祠	-11.834
張世傑	-11.8343
朝覲	-11.8346
戍邊	-11.8346
三年二月	-11.8346
馬軍司	-11.8348
頓丘	-11.8349
十三卷	-11.8349
尚慮	-11.835
維揚	-11.8351
使持節	-11.8355
金主亮	-11.8359
堅執	-11.8363
半嵗	-11.8363
天下後世	-11.8363
第二等	-11.8365
神功	-11.8367
陲	-11.8367
存恤	-11.8371
緣邊	-11.8374
監丞	-11.8375
無為軍	-11.8376
鼓吹	-11.8377
黔州	-11.8378
粟帛	-11.838
而命之	-11.8381
遜位	-11.8381
九鼎	-11.8382
商販	-11.8382
五百餘人	-11.8382
原本作	-11.8387
金紫	-11.8389
用其言	-11.8391
驃	-11.8392
呌	-11.8392
杷	-11.8393
曮	-11.8394
帥所部	-11.8394
非所宜	-11.8395
奸臣	-11.8395
免役錢	-11.8397
党	-11.8397
馮澥	-11.8398
倓	-11.8398
圖籍	-11.8399
鷹犬	-11.8399
吳充	-11.84
勵精	-11.84
多爾濟	-11.84
層	-11.84
兼直學士院	-11.8401
桀黠	-11.8401
則天下幸甚	-11.8402
資格	-11.8402
冥	-11.8403
期㑹	-11.8404
河南北	-11.8408
公孫述	-11.8409
史臣曰	-11.841
端門	-11.8411
束手	-11.8412
十有八	-11.8413
五十年	-11.8413
西安府	-11.8415
田承嗣	-11.8416
百二十里	-11.8416
賜其家	-11.8417
毁譽	-11.8418
太甚	-11.842
訓導	-11.842
降朝㫖	-11.842
徒二年	-11.8424
建炎以來繫年要録巻一百	-11.8424
精神	-11.8426
私販	-11.8427
闕乏	-11.8428
草創	-11.8429
講讀官	-11.8429
巴勒	-11.843
役夫	-11.843
常熟	-11.8431
咸寧	-11.8431
自刎	-11.8433
二十五里	-11.8433
舊傳云	-11.8435
竊惟	-11.8435
尹焞	-11.8438
待報	-11.8438
墜馬	-11.8439
五十二	-11.8442
被擒	-11.8449
顯逹	-11.8458
執送	-11.846
應變	-11.8465
轉運使副	-11.8466
娘	-11.8468
常平茶鹽公事	-11.8469
棹	-11.847
雲梯	-11.847
入内供奉官	-11.8471
宋李心傳撰紹興	-11.8471
洸	-11.8472
弩手	-11.8472
邀求	-11.8472
彦威	-11.8472
後二日	-11.8473
天地宗廟社稷	-11.8473
媵	-11.8474
彊盛	-11.8474
彩	-11.8474
莖	-11.8474
第九	-11.8475
匱乏	-11.8475
沓	-11.8475
嫚	-11.8477
仿	-11.8477
説輸芮翻	-11.8478
關内侯	-11.8479
校勘	-11.8479
嶧	-11.8479
涂	-11.848
閏四月	-11.848
蹋	-11.8481
橐	-11.8482
莫知所	-11.8482
崇禎	-11.8482
宗祀	-11.8482
姒	-11.8482
噲	-11.8484
徐禧	-11.8485
外廷	-11.8485
陜西轉運使	-11.8486
籍記	-11.8486
衝要	-11.8487
巡狩	-11.8487
喚	-11.8488
入内都知	-11.8489
謂近臣曰	-11.849
冒頓	-11.8491
戎服	-11.8492
上以問	-11.8494
自縊	-11.85
五十九	-11.85
頓兵	-11.8503
豈獨	-11.8504
禪位	-11.8504
竇憲	-11.8505
牧地	-11.8505
二百二十	-11.8505
景温	-11.8507
䕶衛	-11.8509
范雍	-11.8509
得替	-11.8509
櫟陽	-11.8511
沛郡	-11.8514
不用命	-11.8514
吾輩	-11.8514
治狀	-11.8514
本朝乾隆	-11.8515
渭南	-11.852
舊録云	-11.852
左右僕射	-11.8521
究其	-11.8521
竄逐	-11.8523
姚仲	-11.8524
范質	-11.8526
悉罷之	-11.8526
龜年	-11.8529
腰斬	-11.853
朕每	-11.8531
白衣	-11.8537
敗亡	-11.854
實哩	-11.8543
聲汗音寒	-11.8548
緘黙	-11.8551
屛	-11.8552
淡	-11.8552
帳前	-11.8553
他路	-11.8553
御營使司	-11.8554
莱	-11.8554
斐	-11.8554
范延光	-11.8555
阿爾哈雅	-11.8555
本傳云	-11.8555
户部員外郎	-11.8556
殘忍	-11.8556
禮部郎中	-11.8559
陳旭	-11.856
勞問	-11.856
田悦	-11.8561
汲汲	-11.8561
東昏	-11.8561
昴	-11.8562
遵誨	-11.8567
端拱	-11.8569
聲如雷	-11.8569
曽肇	-11.857
罰銅	-11.8572
朋附	-11.8573
悼公	-11.8574
十七卷	-11.8576
祖宗之法	-11.8577
相距	-11.8578
玉門	-11.8579
罰金	-11.8581
安丙	-11.8584
寛仁	-11.8586
善射	-11.8588
正衙	-11.8589
御座	-11.8593
久雨	-11.8598
棗陽	-11.8601
前軍統制	-11.8602
嵗輸	-11.8604
畿縣	-11.8605
甚喜	-11.8608
索隱曰	-11.8609
無益於	-11.8613
物貨	-11.8613
積聚	-11.8614
臨陣	-11.8616
曲赦	-11.8617
必有所	-11.8619
施設	-11.862
袋	-11.8623
左司員外郎	-11.8624
曲端	-11.8625
年五十	-11.8625
朝直遥	-11.8626
峽州	-11.8626
以違制論	-11.8627
賜姓名	-11.8627
副都部署	-11.8628
鉷	-11.8629
掣	-11.8629
弓箭	-11.8629
中奉大夫	-11.863
行軍總管	-11.8631
驍堅堯翻	-11.8631
趙安仁	-11.8632
任其責	-11.8632
莎車	-11.8633
司業	-11.8633
延賞	-11.8633
賑貸	-11.8634
斧鉞	-11.8634
嫁翻	-11.8634
瞑	-11.8635
千乗	-11.8636
祈請	-11.8638
臣又聞	-11.8639
十九卷	-11.8642
掩殺	-11.8645
賢不肖	-11.8646
司馬昭	-11.8646
稱皇帝	-11.865
戒之曰	-11.8655
三十餘年	-11.8656
巷戰	-11.8658
豐年	-11.8662
臺閣	-11.8663
皆伏誅	-11.8667
破産	-11.8668
三十一年	-11.867
從哲	-11.8671
偷安	-11.8671
言者以為	-11.8673
忠貞	-11.8673
倉皇	-11.8674
貞吉	-11.8675
中領軍	-11.8675
千百	-11.8676
終不可	-11.8677
部署司	-11.868
知益州	-11.8681
經制司	-11.8686
丹徒	-11.869
夢得	-11.8691
差誤	-11.8696
科率	-11.8698
東征	-11.8699
去羌	-11.87
糴米	-11.8702
翕	-11.8702
猖獗	-11.8703
也事見通鑑	-11.8703
孔彦舟	-11.8703
特奏名	-11.8704
縱火焚	-11.8705
水逕	-11.8705
向背	-11.8708
歐陽脩	-11.8708
舂	-11.8709
百工	-11.8709
磯	-11.8709
軟	-11.871
庖	-11.871
溝壑	-11.8711
賖	-11.8711
默	-11.8712
右朝請大夫	-11.8712
迸	-11.8713
至都堂	-11.8713
兕	-11.8714
力争	-11.8714
錐	-11.8715
鶉	-11.8715
㐫	-11.8716
暱	-11.8716
即其地	-11.8716
揺動	-11.8716
瀋陽	-11.8718
歸農	-11.8718
鑾輿	-11.8718
斟	-11.8718
三桂	-11.872
孝悌	-11.872
盛暑	-11.8721
嘉禾	-11.8725
躍馬	-11.8726
丁憂	-11.8727
知雜御史	-11.8729
盤庚	-11.8729
營救	-11.8729
老幼	-11.8732
嵩山	-11.8736
朱温	-11.8737
奉祀	-11.8737
威靈	-11.874
巡幸	-11.8743
魏國公	-11.8746
海舟	-11.8748
恩寵	-11.8749
夾擊	-11.875
知雄州	-11.8751
射殺	-11.8751
韓川	-11.8753
儒生	-11.8753
秘書	-11.8756
蒼生	-11.8757
静江	-11.8763
山名在	-11.8765
睦州	-11.8768
雅樂	-11.8768
宗正丞	-11.8769
慨	-11.877
綏徳	-11.877
㡬何	-11.8773
一丈	-11.8777
府藏	-11.8779
寵任	-11.8781
斷絶	-11.8782
側目	-11.8782
耘	-11.8782
宋敏求	-11.8783
預焉	-11.8783
造船	-11.8785
集英殿	-11.8786
璫	-11.8786
汲黯	-11.8787
膏血	-11.8787
覊	-11.8788
胎	-11.8788
紱	-11.8789
左宣教郎	-11.8789
恩賞	-11.8791
撞	-11.8793
畎	-11.8793
左朝請郎	-11.8794
水經註	-11.8795
挹	-11.8795
陳敬瑄	-11.8795
瞋目	-11.8796
束帛	-11.8797
巴爾	-11.8797
太子監國	-11.8798
緦麻	-11.8798
夔州	-11.8802
安社稷	-11.8803
此臣所以	-11.8803
温嶠	-11.8804
太僕卿	-11.8805
千一百	-11.8807
渾儀	-11.8808
兵十萬	-11.8812
舉劾	-11.8813
動静	-11.8814
招撫使	-11.8815
知福州	-11.8819
族帳	-11.8821
饗太廟	-11.8826
二萬餘人	-11.8828
商胡	-11.883
矯制	-11.8831
襲破	-11.8831
伊川	-11.8831
强弱	-11.8831
權住	-11.8831
三千里	-11.8833
十有一月	-11.8834
黨籍	-11.8841
抗疏	-11.8842
右賢王	-11.8845
使喚	-11.8849
斥去	-11.8849
哈雅	-11.8853
情願	-11.8854
渭北	-11.8854
有事于	-11.8857
無它	-11.8858
不悅	-11.8859
郊迎	-11.8861
天厯	-11.8861
珉	-11.8862
知諌院	-11.8863
都水使者	-11.8864
直趨	-11.8864
兗	-11.8865
拭	-11.8866
衿	-11.8867
抹	-11.8867
偏師	-11.8867
解題曰宋庠紀年通譜	-11.887
百八十里	-11.887
鉢	-11.8872
餐	-11.8873
懟	-11.8875
服藥	-11.8876
弢	-11.8876
諲	-11.8876
秋毫	-11.8876
帝然之	-11.8877
雜記	-11.8877
惇卞	-11.8878
忤㫖	-11.8879
敖曹	-11.8879
槃	-11.8879
鳯州	-11.8879
千戸	-11.8881
言臣伏見	-11.8883
消息	-11.8886
不在此	-11.8889
瓦解	-11.8891
五十八	-11.8892
十八卷	-11.8893
就緒	-11.8893
太皇	-11.8894
何郯	-11.8895
君錫	-11.8895
隂結	-11.8897
升祔	-11.8897
賦税	-11.8899
傾覆	-11.8901
表賀	-11.8902
畏憚	-11.8905
揚雄	-11.8905
蘇峻	-11.8905
五十七	-11.8905
討伐	-11.8907
入閤	-11.8907
五千餘人	-11.891
伊闕	-11.8917
講議	-11.8918
王鎔	-11.892
維翰	-11.8922
根治	-11.8927
月二十一日	-11.8929
卑辭	-11.8935
七千人	-11.8937
十四卷	-11.8939
支費	-11.8939
璡	-11.8943
現	-11.8943
特支	-11.8946
知河陽	-11.8948
塔坦	-11.8948
巍	-11.8949
常參官	-11.8949
梁師成	-11.8949
兩浙轉運副使	-11.895
沸騰	-11.895
靴	-11.895
又東逕	-11.895
桑維翰	-11.8951
适	-11.8951
駰	-11.8952
鄭居中	-11.8952
輕動	-11.8952
謝恩	-11.8952
北匈奴	-11.8953
是役也	-11.8953
追捕	-11.8954
俛首	-11.8955
涒灘	-11.8961
命婦	-11.8962
蔡邕	-11.8964
墾田	-11.8964
恭謝	-11.8965
同管勾	-11.8967
未得其	-11.8969
别種	-11.8971
儉約	-11.8971
推戴	-11.8975
憤怒	-11.8975
九族	-11.898
倨翻	-11.8981
攝政	-11.8984
蘄黄	-11.8985
岐山	-11.8985
專務	-11.8985
高歡	-11.899
體訪	-11.899
犬馬	-11.8991
弗能	-11.8994
弓馬	-11.8995
伺察	-11.8996
張居正	-11.9002
兵千人	-11.9003
未央	-11.9008
襄邑	-11.9013
知蔡州	-11.9014
就糧	-11.9022
折彦質	-11.9022
鄂爾多	-11.9023
變異	-11.9024
純粹	-11.9025
撙	-11.9026
説式	-11.9027
顛倒	-11.9027
翥	-11.9027
差使臣	-11.9027
萬歲	-11.9028
堕	-11.9028
往諭	-11.9029
分司南京	-11.9029
剡	-11.9029
僃	-11.9029
反狀	-11.903
布政使	-11.903
縉紳	-11.9032
祺	-11.9033
不與焉	-11.9033
洪邁	-11.9034
煉	-11.9034
扶又翻	-11.9035
冡宰	-11.9037
越嶲	-11.9038
河北西路	-11.904
鉏	-11.9042
作噩	-11.9042
涪州	-11.9042
開拓	-11.9043
領軍將軍	-11.9044
河陽節度使	-11.9044
河曲	-11.9044
世雄	-11.9044
羌胡	-11.9045
疲弊	-11.9045
孫儒	-11.9046
為中書侍郎同平章事	-11.9048
勾踐	-11.9048
太平公主	-11.9048
黄巾	-11.9052
取於民	-11.9052
洹水	-11.9053
眀堂	-11.9054
乗驛	-11.9055
筠州	-11.9055
困敦	-11.9057
挺身	-11.9061
卭州	-11.9064
九年春正月	-11.9069
疆界	-11.907
器物	-11.9071
和州防禦使	-11.9073
青龍	-11.9075
諸路轉運司	-11.9076
天災	-11.9076
齊愈	-11.9077
引兵攻	-11.9078
糧運	-11.9083
聘于	-11.9084
李自成	-11.9085
寓居	-11.9085
合浦	-11.9089
詣京師	-11.9091
𤓰州	-11.9093
還建康	-11.9095
刑賞	-11.9097
驚潰	-11.9101
孫傅	-11.9101
靈臺	-11.9102
額森特穆爾	-11.9107
堯咨	-11.9108
米價	-11.9109
留守司	-11.9109
弟姪	-11.911
㡌	-11.911
両	-11.9111
遣使諭	-11.9112
帝嘉納之	-11.9112
羆	-11.9113
迅	-11.9113
毘	-11.9114
彭汝礪	-11.9114
倔	-11.9114
邵陵	-11.9115
逝	-11.9116
佩刀	-11.9116
欄	-11.9117
沌	-11.9117
呼火	-11.9119
無恙	-11.912
將兵擊	-11.9123
朋友	-11.9124
武三思	-11.9124
舊儀	-11.9125
李稷	-11.9126
六十二	-11.9127
仁軌	-11.9127
雌	-11.9128
數十騎	-11.9129
衞尉	-11.913
饑寒	-11.9131
推勘	-11.9134
李世勣	-11.9135
薨諡曰	-11.9136
王縉	-11.9136
艱食	-11.9139
貢院	-11.9142
盖誤	-11.9147
威震	-11.9147
蠻酋	-11.915
州長史	-11.9152
隆慶	-11.9154
追寢	-11.9154
刺殺	-11.9164
黎民	-11.9166
外藩	-11.9166
不遑	-11.9169
浮圖	-11.9169
七百里	-11.9169
在相位	-11.917
眉州	-11.9175
龍虎	-11.9176
喀爾喀	-11.9187
張知白	-11.9188
欽定四庫全書續資治通鑑長編巻	-11.9188
付史館	-11.9192
𢷬	-11.9193
故有是㫖	-11.9194
掎角	-11.9195
説式芮翻	-11.9195
晷	-11.9195
呼必賚	-11.9195
重直龍翻	-11.9196
舒嚕	-11.9197
濟子禮翻	-11.9198
漬	-11.9201
畏懦	-11.9202
董璋	-11.9202
蔡挺	-11.9203
築長城	-11.9204
鬯	-11.9205
祼	-11.9206
臼	-11.9207
瓠	-11.9207
申飭	-11.9208
劉鄩	-11.9211
習戰	-11.9213
糧儲	-11.9214
科場	-11.9218
李繼隆	-11.9225
部伍	-11.9229
浪切	-11.923
李邦彦	-11.9232
州西南	-11.9233
太史公	-11.9234
太子詹事	-11.9234
南漢主	-11.9234
夏税	-11.9236
光啓	-11.9237
太子少保	-11.9239
沔州	-11.924
知平江府	-11.9243
費財	-11.9247
即位之初	-11.925
膠西	-11.9262
侍禁	-11.9264
十六卷	-11.9264
閩廣	-11.9264
劉曜	-11.9265
母䘮	-11.9267
中興聖政	-11.9273
擘	-11.9276
孰能	-11.9277
崑崙	-11.9278
旒	-11.928
壼	-11.9281
洛邑	-11.9281
大事去矣	-11.9282
壑	-11.9283
夬	-11.9283
髀	-11.9284
賃	-11.9284
液	-11.9285
嗣昭	-11.9287
湖湘	-11.9288
豆盧	-11.9288
荆南節度使	-11.9289
勺	-11.929
楊光逺	-11.9292
慕容垂	-11.9292
語牛	-11.9294
風㫖	-11.9294
劓	-11.9295
追襲	-11.9296
比毗	-11.9297
討捕	-11.9299
鄢陵	-11.9304
政事堂	-11.931
圖嚕	-11.9312
縣本漢	-11.9313
掃地	-11.9314
判三司	-11.9315
苛刻	-11.9316
巴圖	-11.9325
泰寧	-11.9326
六十六	-11.9329
何鑄	-11.933
招致	-11.9332
遴	-11.9332
突利	-11.9335
弗聽	-11.9344
貢士	-11.9345
荆楚	-11.9351
月二十五日	-11.9355
濓	-11.9355
基業	-11.9356
提舉洞霄宫	-11.9357
昭烈	-11.9358
闘	-11.9358
縫	-11.9359
分水嶺	-11.936
秘書郎	-11.9361
悵	-11.9361
各以其	-11.9362
槽	-11.9362
蹔	-11.9362
沈約曰	-11.9363
孑	-11.9364
吕端	-11.9365
蜂起	-11.9366
左承議郎	-11.9366
比年以來	-11.9368
裴寂	-11.9368
復讐	-11.937
李膺	-11.937
長垣	-11.937
傅太后	-11.9371
宐	-11.9372
僧孺	-11.9375
狼籍	-11.9376
震駭	-11.9378
吻	-11.9379
楊椿	-11.9381
糾察	-11.9384
狐疑	-11.9387
臣竊惟	-11.9389
督䕶	-11.9396
襄鄧	-11.9397
檢討官	-11.9397
太子少傅	-11.9399
即位以來	-11.94
繕治	-11.9401
六塔	-11.9413
三百五十	-11.9414
家奴	-11.9415
敬兒	-11.9416
令户部	-11.9416
河湟	-11.9416
帥其衆	-11.9419
綺翻	-11.942
可矜	-11.9422
權禮部侍郎	-11.9422
劉瑾	-11.9429
騷	-11.9429
轄正	-11.9434
衛将軍	-11.9436
登聞鼓	-11.9437
千餘家	-11.9439
僉都御史	-11.9442
三班差使	-11.9443
四方館使	-11.9444
漣水	-11.9447
寛剰	-11.9447
胡舜陟	-11.9447
輔國將軍	-11.9449
怯懦	-11.945
閭閻	-11.945
疆埸	-11.9452
登萊	-11.9452
太僕寺	-11.9453
浮海	-11.9455
癡	-11.9455
眚	-11.9456
農隙	-11.9457
爼	-11.9458
右廸功郎	-11.9459
冗費	-11.9459
内侍押班	-11.9459
重複	-11.9463
誣謗	-11.9463
酌獻	-11.9466
省費	-11.9466
追貶	-11.9469
左氏傳	-11.9471
作威福	-11.9473
縣属	-11.9474
居莧切	-11.9475
少昊	-11.9475
太祝	-11.9477
熊克	-11.948
景雲	-11.9482
霍氏	-11.9496
萬頃	-11.9496
倉部	-11.9498
谷永	-11.9506
祈福	-11.9507
漲水	-11.9508
求直言	-11.9509
庭堅	-11.9511
貶黜	-11.9511
優加	-11.9514
軍噐	-11.9518
中書侍郎同平章事	-11.952
驕奢	-11.9524
厲聲	-11.9525
堠	-11.9525
謝景温	-11.9526
何暇	-11.9528
度支員外郎	-11.9528
發運副使	-11.9529
囑	-11.9529
西京左藏庫副使	-11.9529
秘閣校理	-11.953
誤今改正	-11.9531
都知兵馬使	-11.9531
陿	-11.9532
旋師	-11.9533
撥還	-11.9533
暄	-11.9534
中竹仲翻	-11.9535
盂	-11.9536
楙	-11.9536
傉	-11.9537
沈攸之	-11.9538
叔敖	-11.9538
侵奪	-11.9538
韋臯	-11.9539
牂柯	-11.9539
㸑	-11.954
闚	-11.9541
屯聚	-11.9543
變化	-11.9545
趙彦若	-11.9545
孫覿	-11.9545
〇	-11.9547
藪	-11.9549
潁昌	-11.9549
言於帝曰	-11.955
參詳	-11.9554
縣名屬	-11.9554
劉沆	-11.9561
天之所	-11.9563
與之俱	-11.9563
嶺外	-11.9564
贛州	-11.9567
中書平章政事	-11.9571
乾元節	-11.9572
延安府	-11.9573
嚴整	-11.9576
撥亂	-11.9582
正色曰	-11.9584
詔求直言	-11.959
大中大夫	-11.9594
奪職	-11.9597
青冀	-11.9602
諫大夫	-11.9607
境土	-11.9607
祕閣	-11.9608
採訪	-11.9609
張致逺	-11.9611
伷	-11.9614
搬	-11.9616
天聰	-11.9616
黄潜善	-11.9617
莫知其	-11.9617
汪澈	-11.9617
付中書	-11.9617
都察院	-11.9618
拓䟦	-11.9618
袁氏	-11.9618
皁	-11.9618
江淮荆浙	-11.9619
甕	-11.9619
遣統制官	-11.962
逗留	-11.9621
捲	-11.9621
清野	-11.9622
兑	-11.9623
沱	-11.9623
鈇	-11.9623
郕	-11.9623
防托	-11.9623
宋用臣	-11.9624
勞力到翻	-11.9624
秣馬	-11.9625
剔	-11.9625
媛	-11.9627
呪	-11.9627
右廂	-11.9628
烈愍	-11.9628
禰	-11.9629
程琳	-11.9631
戸口	-11.9632
知紹興府	-11.9634
驂	-11.9635
足疾	-11.9636
徐俯	-11.9637
𤣥謨	-11.9638
貧賤	-11.9644
彦仙	-11.9647
特降指揮	-11.965
不倦	-11.965
驍衛	-11.9652
犒師	-11.9653
百艘	-11.9657
病篤	-11.966
戰陣	-11.9665
嫡孫	-11.9666
上䟽言	-11.9668
諸色人	-11.9668
諫院	-11.968
牙門	-11.9682
王繼恩	-11.9686
修完	-11.9688
驪	-11.969
陰陽	-11.969
八尺	-11.9691
堯叟	-11.9692
嚞	-11.9696
敬瑄	-11.9698
宋史全文卷	-11.9698
祕書少監	-11.9699
巴圖魯	-11.9701
燬	-11.9701
循資	-11.9704
璣	-11.9704
攢	-11.9704
壩	-11.9704
百萬石	-11.9704
貰	-11.9705
誘音酉	-11.9707
詮	-11.9707
窠名	-11.9707
淝	-11.9708
懣	-11.9709
璮	-11.9709
朱玫	-11.971
左侍禁	-11.9711
娑	-11.9711
嗜酒	-11.9712
幽薊	-11.9712
潁昌府	-11.9712
囿	-11.9713
大淵獻	-11.9714
鳥獸	-11.9716
五品以上	-11.9717
愁怨	-11.9718
四千人	-11.972
父子兄弟	-11.9723
傳皆云	-11.9724
准備	-11.9725
宣徽	-11.9725
慶裔	-11.9726
人相食	-11.9731
豐熟	-11.9734
夜郎	-11.9735
元年四月	-11.9736
刻薄	-11.9739
平盧節度使	-11.9739
榮州刺史	-11.9756
漠北	-11.9758
累表	-11.9762
若訥	-11.9763
嶺北	-11.9763
實録院	-11.977
少府監	-11.9773
邀功	-11.9774
侈靡	-11.9774
梁武帝	-11.9782
永壽	-11.9782
盛衰	-11.9783
嫂	-11.9785
牛录	-11.9786
兖翻	-11.9787
砂	-11.9788
蔬	-11.9789
等七人	-11.9789
怱	-11.9792
遯	-11.9792
放散	-11.9793
鏃	-11.9793
絙	-11.9794
太史局	-11.9794
不設備	-11.9794
鍊	-11.9794
櫬	-11.9794
餒	-11.9795
暾	-11.9795
通問使	-11.9796
承璀	-11.9797
睹	-11.9797
珩	-11.9798
徐廣曰	-11.9799
狄仁傑	-11.9799
郇	-11.98
究治	-11.98
供帳	-11.9804
高郵	-11.9805
柔逺	-11.9806
登舟	-11.9808
太上皇后	-11.9811
朔方節度使	-11.9811
詳察	-11.9812
李承之	-11.9817
畏懼	-11.9819
紹興元年	-11.9822
八十四	-11.9823
抑勒	-11.9824
應劭	-11.9824
望自今	-11.9825
五年正月	-11.9829
行省左丞	-11.9829
弗克	-11.983
地祇	-11.9831
嵗課	-11.9835
區處	-11.9836
斥候	-11.9837
未知所	-11.9848
邽	-11.9849
釐正	-11.9855
晉絳	-11.9855
縋城	-11.9865
秉忠	-11.9865
閒居	-11.9866
宴飲	-11.9867
摰	-11.987
寀	-11.9873
科爾沁	-11.9875
暖	-11.9876
同中書門下三品	-11.9877
樞密直學士	-11.9877
券	-11.9877
詖	-11.9878
殿前都虞候	-11.9878
光禄寺丞	-11.9878
异	-11.9879
可從刋入	-11.988
永徽	-11.988
玉津園	-11.9881
澠	-11.9881
禩	-11.9881
荐	-11.9881
遑	-11.9882
葆	-11.9883
蓬萊	-11.9883
副都知	-11.9884
餗	-11.9885
寰宇記	-11.9886
黽	-11.9886
娛	-11.9886
胃	-11.9887
逋欠	-11.9887
房𤣥齡	-11.9888
皋	-11.9888
颺	-11.9889
右朝奉郎	-11.989
章句	-11.989
趙良嗣	-11.9892
隧	-11.9893
浞	-11.9898
祠祭	-11.9898
馬擴	-11.9899
戰鬬	-11.9906
稼翻	-11.991
𣙜茶	-11.9911
承旨	-11.9912
産業	-11.9916
衆寡	-11.9916
徹爾	-11.9918
掃除	-11.992
知汝州	-11.9921
封樁錢	-11.9921
太子即位	-11.9924
敷奏	-11.9927
鵬舉	-11.9928
租課	-11.9931
日蹙	-11.9936
巨萬	-11.9941
伶人	-11.995
湟州	-11.9954
予奪	-11.9956
武衛將軍	-11.9957
左右前後	-11.996
集賢院學士	-11.9961
上諭大臣曰	-11.9965
峡	-11.9965
㳂江	-11.9966
義熈	-11.9967
鵝	-11.9968
祭器	-11.9969
樽	-11.9971
匃奴	-11.9972
薩哈	-11.9972
常遇春	-11.9973
良娣	-11.9974
摩訶	-11.9974
什翼犍	-11.9975
塞悉則翻	-11.9975
左朝散大夫	-11.9976
疾馳	-11.9978
左賢王	-11.9978
披靡	-11.9978
呼萬嵗	-11.9978
腕	-11.9979
單閼	-11.998
象昇	-11.9983
全活	-11.9992
史浩	-11.9996
今並改	-11.9997
瑪爾	-12.0002
太子少師	-12.0003
叱之曰	-12.0007
知其謀	-12.0009
劉歆	-12.001
宗諒	-12.001
林牙	-12.0012
播遷	-12.0013
政績	-12.0013
存撫	-12.0019
聖聰	-12.0019
右衛將軍	-12.0026
配饗	-12.0029
露布	-12.003
弋陽	-12.004
綱目不書	-12.0045
臣等竊	-12.0046
伊克	-12.0047
泳	-12.0047
爌	-12.0053
線	-12.0053
申嚴行下	-12.0054
澂	-12.0054
犄角	-12.0058
窖	-12.0058
持兩端	-12.0059
軀	-12.0059
朝直遙翻	-12.0059
㤀	-12.0059
縣前漢屬	-12.006
哈瑪爾	-12.006
兩浙西路	-12.0061
爇	-12.0061
孟軻	-12.0062
侵漁	-12.0062
婕妤	-12.0062
都督中外諸軍事	-12.0062
指揮更不施行	-12.0062
玭	-12.0062
彀	-12.0063
嬪御	-12.0063
莫儔	-12.0064
忌諱	-12.0064
肘腋	-12.0066
愜	-12.0067
為敵所	-12.0067
鳳凰	-12.007
蒿	-12.007
危懼	-12.0072
焦勞	-12.0072
裁减	-12.0073
歩軍司	-12.0079
隆基	-12.0079
𥙷	-12.008
太史令	-12.0081
郾	-12.0082
飲藥	-12.0082
荆揚	-12.0083
百揆	-12.0085
招討司	-12.009
寢殿	-12.009
旱災	-12.0091
京東西路	-12.0093
廢弛	-12.0095
濫賞	-12.0096
南安軍	-12.0101
妹翻	-12.0102
按宋史	-12.0106
左傳注	-12.0107
内禪	-12.0109
紹興二年	-12.0109
二百年	-12.011
䝉恩	-12.011
趙鞅	-12.0111
劍門	-12.0111
汲郡	-12.0117
彖	-12.0125
伏惟陛下	-12.0127
侍讀學士	-12.0131
就擒	-12.014
禱雨	-12.0142
蚩尤	-12.0143
址	-12.0145
水洛城	-12.0146
悠	-12.0148
紬	-12.0149
承奉郎	-12.0149
服闋	-12.0149
邵伯温	-12.0149
左朝請大夫	-12.015
搢	-12.0151
九國志	-12.0152
考異李燾曰	-12.0152
碌	-12.0152
孝武帝	-12.0153
檀道濟	-12.0153
噐械	-12.0153
𤨏	-12.0153
龍驤	-12.0153
緍	-12.0154
悶	-12.0154
麒	-12.0154
粒	-12.0155
父母妻子	-12.0157
爻	-12.0158
絜	-12.0158
纍	-12.0159
畿甸	-12.0159
臚	-12.016
歷切	-12.016
鳯凰	-12.016
上供米	-12.016
牧犍	-12.0163
無如之何	-12.0164
二百三十	-12.0165
不可失也	-12.0166
蝕	-12.0167
帥步騎	-12.0168
帝謂輔臣曰	-12.0169
控制	-12.0176
馴致	-12.0176
陜西諸路	-12.0178
兖豫	-12.0179
右補闕	-12.0184
掩襲	-12.0187
十一卷	-12.0195
杖以下	-12.0197
滋甚	-12.0198
河北東路	-12.0199
節度判官	-12.02
魏忠賢	-12.02
二百一十	-12.02
百緡	-12.0205
許人告	-12.0207
上供錢	-12.0212
彭孫	-12.0212
協心	-12.0213
報仇	-12.0216
輟朝	-12.0222
幽州刺史	-12.0227
閩越	-12.0233
衍聖公	-12.0235
做	-12.0236
㬇	-12.0239
滹沱	-12.0239
拷	-12.024
霞	-12.0241
暘	-12.0241
魚朝恩	-12.0242
剝	-12.0242
迤	-12.0242
楊師厚	-12.0243
李思齊	-12.0243
釘	-12.0243
祕閣校理	-12.0244
重華宫	-12.0244
淨	-12.0244
崇文院	-12.0244
黻	-12.0244
赴水死	-12.0244
承信郎	-12.0246
份	-12.0246
淳熈	-12.0246
言于帝曰	-12.025
廏	-12.025
京鏜	-12.0251
縗	-12.0252
夷三族	-12.0253
薛延陀	-12.0253
罽	-12.0253
涌	-12.0256
不可勝紀	-12.0256
講究	-12.0258
張栻	-12.0262
不能堪	-12.0268
陛辭	-12.0269
為金人所	-12.027
落致仕	-12.0272
張九成	-12.0277
憂憤	-12.0281
漳泉	-12.0284
焚毁	-12.0286
桑仲	-12.0287
務農	-12.0288
撫循	-12.0289
億年	-12.0291
左馮翊	-12.0301
亦以為言	-12.0301
竭誠	-12.0304
三百八十	-12.0308
副總兵	-12.0308
五百騎	-12.0315
公繪	-12.0317
陣亡	-12.0321
幕職官	-12.0325
達爾漢	-12.0331
彭龜年	-12.0332
噪	-12.0333
馬軍都指揮使	-12.0335
彌縫	-12.0336
闌	-12.0336
植黨	-12.0336
鎧仗	-12.0337
自漢以來	-12.0337
剋	-12.0338
咄陸	-12.0338
從事中郎	-12.0339
讟	-12.034
嶼	-12.034
酢	-12.0341
椽	-12.0342
張昪	-12.0347
劉奉世	-12.0347
釐務	-12.035
寇準	-12.0353
械送	-12.0357
張九齡	-12.036
頃刻	-12.0361
元豐七年	-12.0362
寶寅	-12.0362
豐稷	-12.0365
推究	-12.0366
進一官	-12.0366
經畧安撫使	-12.0372
京東河北	-12.0373
孫皓	-12.0377
赫然	-12.038
五世孫	-12.0382
困乏	-12.0383
邉境	-12.0385
知湖州	-12.039
天眷	-12.0395
烏程	-12.0398
孝亷	-12.0398
姦惡	-12.0399
改後仿此	-12.0402
軍大敗	-12.041
沿河	-12.0413
皇族	-12.0417
濟南府	-12.042
乗勢	-12.0421
蒲宗孟	-12.0423
撝	-12.0425
都督行府	-12.0427
謔	-12.0429
黄庭堅	-12.0431
耤	-12.0432
苑囿	-12.0432
真珠	-12.0432
胡松年	-12.0433
封樁庫	-12.0433
扁	-12.0434
樊噲	-12.0434
姧	-12.0434
秃髪	-12.0435
義成節度使	-12.0435
硤石	-12.0436
薰	-12.0436
阡	-12.0437
菁	-12.0437
弔祭	-12.0439
刳	-12.0439
虺	-12.044
祗候	-12.0444
豢	-12.0445
二百九十	-12.0446
孔子廟	-12.0451
專恣	-12.0452
閼氏	-12.0453
十三萬	-12.0454
以字行	-12.0455
欽定四庫全書建炎以來繫年要録巻	-12.0455
畜牧	-12.0458
左拾遺	-12.0461
規畫	-12.0462
陳公輔	-12.0463
何澹	-12.0465
判太常寺	-12.0466
刪潤	-12.0467
今年正月	-12.0469
肉刑	-12.0477
登樓	-12.0477
數千騎	-12.0477
傅亮	-12.0481
解題	-12.0488
才識	-12.0488
土崩	-12.0492
曲珍	-12.0493
邉患	-12.0496
減價	-12.0499
淮陽軍	-12.05
城隍	-12.0501
給俸	-12.0502
弄權	-12.0503
犍	-12.0512
禦戎	-12.0515
鑲	-12.0518
撼	-12.0518
上嘉納之	-12.0518
孔道輔	-12.0519
太府少卿	-12.052
夤縁	-12.0521
稽違	-12.0521
靑	-12.0522
邛	-12.0523
攺	-12.0524
賡	-12.0525
香藥	-12.0526
嗚咽	-12.0526
邇英	-12.0527
悴	-12.0527
枹	-12.0527
佺期	-12.0527
懸瓠	-12.0528
盟誓	-12.0528
唇	-12.0528
悖慢	-12.0529
菟	-12.053
便宜行事	-12.0531
俸給	-12.0531
匕	-12.0532
昊天上帝	-12.0532
畜産	-12.0533
鹹	-12.0535
災害	-12.0535
劉摰	-12.0535
七尺	-12.0537
失機㑹	-12.054
郭璞	-12.054
陳堯佐	-12.0544
休範	-12.0544
榻前	-12.0545
知越州	-12.0548
營壘	-12.0548
引軍還	-12.0548
十二里	-12.0549
元狩	-12.0554
條畫	-12.0559
遥領	-12.0561
虞舜	-12.0562
竹木	-12.0562
所共知	-12.0564
烏介	-12.0565
强盗	-12.0565
詳審	-12.0566
賀拔	-12.0567
㮚	-12.0606
諄	-12.0619
甬	-12.0624
俎	-12.0625
壝	-12.071
嬉	-12.0714
廙	-12.0716
瑑	-12.0717
贅	-12.0718
閥	-12.0719
絮	-12.0722
慣	-12.0726
囯	-12.0804
鏞	-12.0806
匝	-12.081
穡	-12.0813
頲	-12.0814
浄	-12.0814
埭	-12.0815
秬	-12.0815
謩	-12.0816
鯨	-12.0908
剗	-12.0908
埸	-12.0908
焰	-12.0911
穽	-12.0912
脆	-12.0913
啼	-12.0913
箸	-12.0917
蓍	-12.0919
櫛	-12.0921
櫟	-12.0982
彝	-12.1005
爐	-12.1006
圏	-12.1008
杰	-12.101
扉	-12.101
紕	-12.101
畵	-12.1011
韙	-12.1013
愴	-12.1013
孱	-12.1014
孩	-12.1014
轢	-12.1015
忷	-12.1017
䍧	-12.1024
滎	-12.1063
鬷	-12.1099
烜	-12.1105
唘	-12.1106
掦	-12.1106
栰	-12.1108
緄	-12.1108
輜	-12.111
聯	-12.111
瘦	-12.111
璝	-12.1112
耦	-12.1117
緇	-12.1119
鞾	-12.1204
忞	-12.1206
譌	-12.121
纘	-12.1211
淯	-12.1212
聦	-12.1212
拍	-12.1214
雎	-12.1216
騖	-12.1216
桴	-12.1217
蜚	-12.1218
翺	-12.1218
謳	-12.1222
湣	-12.123
箔	-12.1303
窄	-12.1308
禖	-12.1308
悆	-12.1309
畸	-12.131
謄	-12.1311
蘧	-12.1313
墅	-12.1314
斵	-12.1316
濞	-12.1317
湫	-12.1319
俁	-12.1319
凛	-12.1319
廞	-12.132
刎	-12.1363
窩	-12.1406
梵	-12.1409
澱	-12.1414
嗤	-12.1415
驁	-12.1417
珥	-12.1418
猊	-12.1419
昞	-12.1419
袐	-12.142
棒	-12.142
鬪	-12.142
煌	-12.1421
佻	-12.1421
斾	-12.1422
滸	-12.1423
蒨	-12.1423
榭	-12.1424
縠	-12.1425
湎	-12.1426
翌	-12.1503
瀍	-12.152
閠	-12.1521
吠	-12.1522
兌	-12.1523
艷	-12.1523
仞	-12.1527
茨	-12.1528
螽	-12.1536
惋	-12.1623
𠞰	-12.1627
阼	-12.1632
輻	-12.1636
䍐	-12.1637
魴	-12.1641
灝	-12.1721
珝	-12.173
匣	-12.1731
墉	-12.1732
牐	-12.1732
圯	-12.1734
揜	-12.1735
貉	-12.1736
瑤	-12.1739
苾	-12.1741
掞	-12.1744
霆	-12.1758
郜	-12.1833
峰	-12.1837
杆	-12.1837
昫	-12.1839
𨼆	-12.184
諦	-12.1842
煨	-12.1843
哺	-12.1844
翬	-12.1844
溷	-12.1852
㸔	-12.1934
塋	-12.194
聫	-12.1943
崗	-12.1948
炊	-12.195
噫	-12.195
讃	-12.1952
蟒	-12.1953
埀	-12.1953
衎	-12.1956
虔	-12.1959
泮	-12.196
㝢	-12.2052
佺	-12.2053
垜	-12.2054
燄	-12.2055
睡	-12.2056
匏	-12.2059
澥	-12.2059
螟	-12.206
氶	-12.2061
䂓	-12.2062
盥	-12.2064
黓	-12.2066
氂	-12.2067
湔	-12.2069
窴	-12.2082
雹	-12.2147
綎	-12.2152
濩	-12.216
顏	-12.2161
鏖	-12.2163
滙	-12.2163
產	-12.2166
晸	-12.2166
挂	-12.2167
縀	-12.2167
締	-12.2167
嗾	-12.2168
淘	-12.217
撮	-12.217
怵	-12.2171
跣	-12.2172
傔	-12.2173
笙	-12.2176
罘	-12.2178
㳙	-12.218
荻	-12.2182
鼈	-12.2186
爚	-12.2274
襖	-12.2275
瓶	-12.2277
抛	-12.2277
禠	-12.228
儕	-12.2281
壠	-12.2281
絪	-12.2283
獷	-12.2284
塡	-12.2285
鳬	-12.2286
誹	-12.2287
𢃄	-12.2287
隍	-12.2318
亰	-12.2384
棁	-12.2386
憊	-12.2392
筞	-12.2393
憶	-12.2394
泫	-12.2396
刧	-12.2399
蒍	-12.24
珊	-12.2401
𤯝	-12.2401
滻	-12.2402
喟	-12.2405
刖	-12.2406
虡	-12.2409
褫	-12.2504
麄	-12.2506
鷂	-12.2507
糊	-12.2507
喫	-12.2508
卲	-12.2509
迕	-12.251
鍼	-12.2511
䭾	-12.2512
睂	-12.2512
饕	-12.2512
戇	-12.2513
慊	-12.2514
掉	-12.2516
觚	-12.2521
柰	-12.2592
燦	-12.2607
潢	-12.2618
贑	-12.262
瑭	-12.262
湼	-12.2621
帆	-12.2622
佖	-12.2623
煖	-12.2624
氓	-12.2625
岩	-12.2625
豺	-12.2627
屡	-12.2627
飄	-12.2627
憙	-12.2628
哂	-12.2628
蹻	-12.263
坻	-12.263
莧	-12.2632
纊	-12.2632
軋	-12.2633
倞	-12.2638
柞	-12.264
暕	-12.2727
霾	-12.273
珵	-12.2734
慥	-12.2739
薿	-12.2743
鼇	-12.2743
泯	-12.2744
踴	-12.2744
讚	-12.2745
茫	-12.2745
邲	-12.2746
沭	-12.2746
汛	-12.2746
靼	-12.2747
瀝	-12.2748
霫	-12.2748
倜	-12.2749
簇	-12.2751
醖	-12.2753
蘂	-12.2759
䨇	-12.2858
訝	-12.2858
菴	-12.2858
遶	-12.2859
銍	-12.2859
郫	-12.286
厦	-12.2861
朘	-12.2862
匐	-12.2863
芍	-12.2863
梨	-12.2863
帙	-12.2864
穗	-12.2865
鄘	-12.2865
鄼	-12.2867
簮	-12.2867
嵇	-12.2868
舫	-12.2868
洄	-12.2868
慾	-12.2869
夣	-12.2872
耨	-12.2875
甑	-12.2974
桱	-12.2976
塑	-12.2977
蹊	-12.2979
猪	-12.298
酹	-12.2981
轝	-12.2984
櫜	-12.2987
蓐	-12.2987
冤	-12.2987
咥	-12.2988
塊	-12.299
溵	-12.3098
旼	-12.3098
冄	-12.3101
淦	-12.3102
妥	-12.3103
欷	-12.3106
釜	-12.3106
櫃	-12.3107
濃	-12.3107
礫	-12.3108
鄗	-12.3108
弅	-12.3109
槁	-12.3109
紈	-12.311
簋	-12.311
蒞	-12.311
聃	-12.3113
濊	-12.3114
緦	-12.3114
眠	-12.3114
毖	-12.3114
癰	-12.3116
腫	-12.3116
巂	-12.3221
轓	-12.3221
吸	-12.3226
刅	-12.3226
恇	-12.3227
帟	-12.3228
茸	-12.3228
戱	-12.323
筒	-12.323
蹴	-12.3232
爨	-12.3234
鍇	-12.3235
頎	-12.3236
陬	-12.3236
擗	-12.3238
赧	-12.3315
蜜	-12.3345
夹	-12.3346
籖	-12.3349
秤	-12.335
綠	-12.3355
撿	-12.3355
鉦	-12.3357
恠	-12.336
劬	-12.3361
聮	-12.3362
鴦	-12.3363
狸	-12.3363
茗	-12.3474
憬	-12.3474
磾	-12.3474
挿	-12.3476
䏻	-12.3477
継	-12.3477
㐲	-12.3479
茵	-12.3479
濘	-12.348
誄	-12.3482
幻	-12.3484
笄	-12.3485
鍪	-12.3487
盲	-12.3487
莵	-12.3488
豔	-12.3493
珫	-12.3596
澍	-12.36
㟁	-12.3602
焕	-12.3602
万	-12.3602
搗	-12.3603
馨	-12.3604
諝	-12.3605
鶚	-12.3606
燃	-12.3606
趂	-12.3606
娣	-12.3607
昩	-12.3607
慴	-12.3608
頺	-12.361
悮	-12.3611
湮	-12.3612
翅	-12.3612
糟	-12.3616
魅	-12.362
碣	-12.3725
妺	-12.3733
腑	-12.3737
竪	-12.3739
㬰	-12.3741
埃	-12.3741
儇	-12.3741
牂	-12.3743
圈	-12.3744
臏	-12.3744
飜	-12.3748
鍜	-12.3748
堨	-12.3758
狙	-12.3759
窠	-12.3859
賕	-12.3859
犨	-12.3864
暈	-12.3864
萱	-12.3865
讋	-12.3865
髻	-12.3869
惨	-12.387
紡	-12.387
熏	-12.3872
仄	-12.3873
凑	-12.3874
舩	-12.3874
瑯	-12.3876
裸	-12.3877
狷	-12.3878
糠	-12.3879
鍠	-12.388
蕞	-12.3883
秣	-12.398
糗	-12.3981
穏	-12.3995
騭	-12.3995
呐	-12.3996
騤	-12.4
圩	-12.4
燝	-12.4002
豊	-12.4002
娯	-12.4003
悽	-12.4003
熒	-12.4004
梲	-12.4004
纁	-12.4005
疹	-12.4006
磑	-12.4006
蕘	-12.4006
肌	-12.4007
髯	-12.4007
澮	-12.4007
幔	-12.4008
偫	-12.401
檛	-12.4011
闓	-12.4017
桁	-12.4018
闐	-12.4119
翫	-12.4132
圮	-12.4136
浣	-12.4136
鎡	-12.4137
炫	-12.4139
﨑	-12.4139
癘	-12.4144
蒜	-12.4145
薫	-12.4145
琊	-12.4147
蒔	-12.4147
酆	-12.4147
碉	-12.4147
柸	-12.4148
窋	-12.415
你	-12.4263
揔	-12.427
佟	-12.4271
鴉	-12.4273
搒	-12.4274
瘵	-12.4275
弧	-12.4275
煽	-12.4277
衒	-12.4277
襁	-12.4279
覔	-12.4279
汁	-12.4279
璵	-12.428
蒱	-12.4286
齕	-12.4291
咈	-12.4407
杓	-12.4409
卸	-12.441
渤	-12.4412
墩	-12.4412
吭	-12.4413
脣	-12.4414
紞	-12.4416
闒	-12.4416
騑	-12.4416
怏	-12.4418
旴	-12.4418
盱	-12.4419
囤	-12.4537
㺯	-12.4549
洊	-12.455
綢	-12.4553
栩	-12.4555
痺	-12.4557
淅	-12.4557
魔	-12.4558
灞	-12.4558
熖	-12.4558
悃	-12.4559
􁇛	-12.4559
猫	-12.4559
匯	-12.4559
捃	-12.4561
坼	-12.4564
穜	-12.469
膂	-12.469
藎	-12.4691
雁	-12.4693
彎	-12.4693
証	-12.4696
湝	-12.4697
駸	-12.4697
㨂	-12.4698
衽	-12.4699
疚	-12.47
棻	-12.47
塈	-12.4702
覦	-12.4703
泠	-12.4704
嘯	-12.4704
厝	-12.4705
棨	-12.4706
縈	-12.471
簫	-12.4712
缶	-12.4712
硯	-12.4836
豬	-12.4838
岊	-12.4839
栽	-12.4841
舄	-12.4841
燥	-12.4843
澁	-12.4844
䄂	-12.4844
闍	-12.4845
櫓	-12.4845
峘	-12.4846
笮	-12.4847
黶	-12.4848
腥	-12.4852
駉	-12.4852
嚳	-12.4976
椀	-12.4985
絁	-12.4987
䧺	-12.4987
璀	-12.4988
鍚	-12.4988
堦	-12.4989
塜	-12.4989
讖	-12.4989
𤾉	-12.4992
㽞	-12.4992
姐	-12.4993
倐	-12.4993
拖	-12.4993
癃	-12.4994
繭	-12.4995
秭	-12.4995
謇	-12.4998
歃	-12.5001
罃	-12.5002
鈆	-12.5005
羕	-12.5005
笠	-12.5136
宂	-12.5139
堇	-12.514
瀦	-12.514
劑	-12.5141
嘲	-12.5142
賨	-12.5142
祸	-12.5142
榦	-12.5142
弈	-12.5142
蟄	-12.5142
逍	-12.5143
蹄	-12.5143
蠢	-12.5144
埤	-12.5144
粱	-12.5146
燿	-12.5147
甓	-12.5147
螫	-12.5152
峨	-12.528
瑴	-12.5284
拽	-12.5288
贜	-12.5289
絺	-12.529
騃	-12.529
盃	-12.5292
宓	-12.5293
噤	-12.5293
㕓	-12.5293
瀧	-12.5296
紺	-12.5296
怫	-12.5297
溆	-12.5297
柤	-12.5298
𥚹	-12.5299
摽	-12.53
嶢	-12.53
藜	-12.5301
垓	-12.543
這	-12.543
趯	-12.5431
繚	-12.544
惴	-12.5441
㴶	-12.5442
酎	-12.5444
頔	-12.5445
幃	-12.5445
瀏	-12.5446
氛	-12.5447
搔	-12.545
蔭	-12.5451
譔	-12.5453
紵	-12.5453
羇	-12.5454
糒	-12.5455
罟	-12.5456
翾	-12.5461
嬈	-12.5462
茭	-12.5593
袵	-12.5597
瘼	-12.5598
擎	-12.5598
𦕈	-12.5598
僨	-12.56
玼	-12.5602
禿	-12.5603
寋	-12.5603
姨	-12.5603
糲	-12.5604
嗚	-12.5605
鍛	-12.5607
椁	-12.5607
鞞	-12.5607
犁	-12.5608
裾	-12.561
飱	-12.5613
褰	-12.5613
咺	-12.5615
飤	-12.5617
很	-12.5629
瀋	-12.573
宷	-12.5751
莎	-12.5755
酗	-12.5756
偲	-12.5756
趋	-12.5757
陥	-12.5758
攤	-12.5759
葑	-12.5759
熄	-12.576
軺	-12.5761
忒	-12.5761
[...]
