<unk>	0
<s>	0
</s>	0
之	-3.81613
而	-4.68275
也	-4.70367
以	-4.83082
爲	-4.97551
者	-5.04348
其	-5.13416
有	-5.14243
不	-5.15339
)	-5.26743
(	-5.27749
一	-5.3874
人	-5.4411
於	-5.44429
無	-5.48265
則	-5.49776
曰	-5.54167
大	-5.71414
/	-5.7945
天	-5.84439
上	-5.85834
與	-5.87963
自	-5.88439
生	-5.92125
道	-5.95919
行	-5.97416
中	-5.99828
子	-6.00026
矣	-6.03105
如	-6.04154
故	-6.04857
言	-6.05238
三	-6.05921
神	-6.06053
乎	-6.08038
至	-6.08929
此	-6.08982
心	-6.15164
得	-6.16257
是	-6.18052
見	-6.18453
在	-6.18956
時	-6.20494
若	-6.22617
非	-6.22735
事	-6.25645
所	-6.26034
皆	-6.29473
下	-6.30169
水	-6.31296
日	-6.31419
然	-6.34879
王	-6.35295
知	-6.35343
于	-6.36156
明	-6.36978
乃	-6.3728
二	-6.38945
山	-6.39125
⬤	-6.39602
我	-6.39802
四	-6.40201
相	-6.40221
五	-6.42114
可	-6.44122
出	-6.47391
亦	-6.50841
名	-6.51072
同	-6.5307
作	-6.5347
身	-6.54174
命	-6.57328
成	-6.57348
又	-6.57751
正	-6.58214
主	-6.59659
來	-6.61084
公	-6.62277
當	-6.62427
▁	-6.62746
使	-6.63103
能	-6.6312
入	-6.63998
金	-6.64071
德	-6.64092
文	-6.64268
用	-6.65178
君	-6.6625
後	-6.67735
氣	-6.67997
或	-6.6806
復	-6.68535
及	-6.69617
今	-6.70995
欲	-6.72296
帝	-6.73119
即	-6.73434
未	-6.73626
焉	-6.73636
將	-6.73647
多	-6.75072
夫	-6.76857
扵	-6.76988
眞	-6.77227
地	-6.77658
居	-6.78487
已	-6.78588
九	-6.78904
)(	-6.79486
方	-6.80148
何	-6.80261
世	-6.80503
吾	-6.80765
化	-6.80932
從	-6.8147
經	-6.82276
安	-6.8235
光	-6.82867
靈	-6.83439
善	-6.83485
法	-6.83746
書	-6.84271
必	-6.84423
長	-6.84692
高	-6.8471
哉	-6.84768
官	-6.85889
雖	-6.86099
常	-6.86297
物	-6.87619
六	-6.87631
民	-6.88224
立	-6.88663
去	-6.89418
風	-6.90406
家	-6.91305
宫	-6.91358
重	-6.91838
不可	-6.91874
諸	-6.92694
火	-6.93106
分	-6.93788
天下	-6.93958
初	-6.94205
國	-6.94283
陽	-6.95397
觀	-6.95742
難	-6.95831
玄	-6.9634
元	-6.96546
處	-6.96752
雲	-6.96768
聖	-6.96906
死	-6.97312
石	-6.97501
師	-6.98755
前	-7.00065
過	-7.00284
謂	-7.00302
通	-7.01043
臣	-7.01136
禮	-7.01504
八	-7.01597
龍	-7.02053
聞	-7.02178
耳	-7.02402
盡	-7.02593
云	-7.0272
因	-7.03081
應	-7.04422
歸	-7.04978
年	-7.05173
福	-7.05386
失	-7.05831
先	-7.06828
不能	-7.06952
信	-7.07147
門	-7.07528
度	-7.07538
樂	-7.082
令	-7.09312
玉	-7.09662
起	-7.09912
傳	-7.10326
始	-7.10349
星	-7.10576
形	-7.10862
外	-7.11431
合	-7.11655
東	-7.11807
惟	-7.12231
本	-7.12758
小	-7.13161
遂	-7.14316
利	-7.1471
女	-7.14866
内	-7.15794
數	-7.17092
周	-7.17128
求	-7.1722
且	-7.1728
實	-7.17592
衆	-7.17742
意	-7.18371
七	-7.18784
以爲	-7.18843
月	-7.19303
受	-7.21263
清	-7.222
易	-7.22213
既	-7.2234
終	-7.22698
親	-7.22721
仙	-7.22861
而不	-7.23299
宜	-7.23495
定	-7.24212
平	-7.24463
會	-7.25027
土	-7.25274
深	-7.25848
白	-7.26211
守	-7.26735
字	-7.27014
空	-7.27389
獨	-7.27389
木	-7.27777
朝	-7.28363
為	-7.28592
開	-7.28672
西	-7.28856
說	-7.29093
莫	-7.29203
十	-7.29931
流	-7.30487
貴	-7.30689
惡	-7.31143
問	-7.31497
變	-7.31668
異	-7.31756
和	-7.31878
食	-7.31927
性	-7.32677
精	-7.32894
彼	-7.33534
義	-7.35174
少	-7.35345
位	-7.35773
反	-7.35907
南	-7.35938
取	-7.36096
稱	-7.3669
徃	-7.37057
老	-7.37183
飛	-7.37226
思	-7.37287
母	-7.37426
兩	-7.37971
節	-7.37995
喜	-7.38057
遇	-7.38101
好	-7.38198
馬	-7.38626
志	-7.38639
萬	-7.38854
猶	-7.3892
封	-7.39477
舉	-7.39495
爾	-7.3961
望	-7.3996
凡	-7.40153
父	-7.40498
張	-7.40624
治	-7.40663
所以	-7.40745
教	-7.41341
真	-7.41498
直	-7.41506
發	-7.41835
功	-7.42018
力	-7.42764
止	-7.42976
吉	-7.4311
致	-7.43204
益	-7.43213
色	-7.43926
理	-7.44089
學	-7.44246
齊	-7.44669
等	-7.4485
順	-7.4514
極	-7.45471
士	-7.45626
蓋	-7.45774
聲	-7.46256
亂	-7.4638
動	-7.46714
興	-7.46887
各	-7.47022
華	-7.47095
論	-7.47517
間	-7.47608
服	-7.48034
之所	-7.48675
臨	-7.4968
尚	-7.50198
足	-7.50198
全	-7.50735
語	-7.50771
甚	-7.50869
請	-7.50981
體	-7.51032
加	-7.51101
氏	-7.51209
天地	-7.51276
進	-7.51308
坐	-7.51404
衣	-7.51624
漢	-7.51926
願	-7.51948
離	-7.5198
還	-7.52158
兮	-7.52336
宗	-7.52403
口	-7.52845
兵	-7.54034
君子	-7.54704
己	-7.54714
百	-7.54844
古	-7.55469
邪	-7.5608
絶	-7.56194
北	-7.56218
仁	-7.56472
目	-7.56693
不知	-7.56793
降	-7.56944
奉	-7.57256
陳	-7.57337
妙	-7.57482
交	-7.57547
可以	-7.57705
象	-7.58167
亡	-7.58249
斯	-7.58874
固	-7.59035
黄	-7.59261
尊	-7.59887
所謂	-7.60341
任	-7.60837
遊	-7.61115
州	-7.61313
制	-7.61512
賢	-7.61594
隨	-7.61718
憂	-7.61721
念	-7.62282
存	-7.62602
更	-7.627
隂	-7.63067
登	-7.63308
敬	-7.63462
視	-7.64529
章	-7.64811
載	-7.64912
建	-7.65035
自然	-7.65509
豈	-7.66049
宋	-7.66626
俱	-7.67092
嘗	-7.67946
廣	-7.68022
遠	-7.68421
由	-7.68619
誠	-7.69035
青	-7.69418
病	-7.69752
千	-7.70113
照	-7.70273
號	-7.70362
寳	-7.7075
不得	-7.71048
傷	-7.7105
解	-7.71234
運	-7.71446
修	-7.71494
告	-7.71934
虛	-7.72138
殺	-7.72486
春	-7.7314
聖人	-7.73181
海	-7.73213
永	-7.73327
要	-7.7333
汝	-7.73848
愛	-7.73966
伯	-7.74185
室	-7.75327
恩	-7.75917
養	-7.76647
左	-7.76988
符	-7.77023
祖	-7.77076
陰	-7.77237
乘	-7.77526
向	-7.77684
予	-7.77807
香	-7.77847
執	-7.77885
勝	-7.78394
也夫	-7.78849
景	-7.79142
禍	-7.79507
凶	-7.79674
並	-7.80273
顯	-7.81105
果	-7.81228
美	-7.81269
太	-7.81341
近	-7.81403
除	-7.81587
次	-7.8173
城	-7.82325
保	-7.82329
政	-7.82789
車	-7.8284
者也	-7.83064
害	-7.83298
音	-7.83656
疾	-7.83905
散	-7.83985
夜	-7.84067
業	-7.84172
廟	-7.84261
記	-7.8472
比	-7.84952
頭	-7.85407
詩	-7.85426
賜	-7.85571
歲	-7.85723
田	-7.85727
右	-7.85826
鬼	-7.86117
罪	-7.86383
丹	-7.86398
苦	-7.86752
耶	-7.86799
卒	-7.8742
拜	-7.87833
刑	-7.87846
辭	-7.87848
便	-7.88186
壽	-7.88398
計	-7.88985
感	-7.89057
武	-7.8906
舊	-7.8916
洞	-7.89385
首	-7.89429
府	-7.89545
但	-7.89697
財	-7.89784
圖	-7.89818
濟	-7.89874
司	-7.90041
雨	-7.90066
李	-7.90344
伏	-7.90465
息	-7.9066
共	-7.90757
指	-7.90878
虎	-7.90964
適	-7.90967
藏	-7.91091
施	-7.91115
○	-7.91206
就	-7.9171
□	-7.92184
録曰	-7.92291
遺	-7.92528
召	-7.93026
特	-7.93204
報	-7.93405
靜	-7.93721
巳	-7.93838
持	-7.94208
路	-7.94511
侯	-7.9464
結	-7.94872
危	-7.94976
唐	-7.95411
留	-7.95422
秦	-7.95507
代	-7.95619
澤	-7.95862
情	-7.95969
智	-7.96151
戒	-7.96357
著	-7.96523
徒	-7.96825
對	-7.97051
无	-7.97134
寧	-7.97279
河	-7.9735
忘	-7.97379
御	-7.97512
秋	-7.97596
識	-7.97954
都	-7.98241
后	-7.98588
盛	-7.98611
泰山	-7.98659
承	-7.98702
咸	-7.98886
奏	-7.99236
故曰	-7.99289
脩	-7.99444
具	-7.99689
久	-7.99824
疑	-7.9989
容	-7.99959
屬	-8.00027
申	-8.00196
酒	-8.00204
夏	-8.00355
堂	-8.00403
貞	-8.00794
新	-8.00892
崇	-8.01039
花	-8.01229
須	-8.01383
患	-8.01538
而後	-8.01718
乾	-8.01765
孝	-8.01909
達	-8.02012
寒	-8.02222
集	-8.02466
謀	-8.02658
良	-8.03136
魚	-8.03248
授	-8.03301
關	-8.03482
手	-8.03631
别	-8.03783
其所	-8.03926
轉	-8.04188
富	-8.04404
表	-8.04426
隱	-8.04605
泉	-8.04886
似	-8.05083
客	-8.05138
素	-8.05338
議	-8.0542
而已	-8.05556
夢	-8.05842
破	-8.06062
林	-8.06076
滅	-8.06216
强	-8.06323
窮	-8.07048
祠	-8.07358
到	-8.07374
損	-8.07406
履	-8.07453
許	-8.07588
斷	-8.07604
無所	-8.07628
備	-8.07672
殿	-8.0773
萬物	-8.07863
謂之	-8.08014
幾	-8.08111
俗	-8.08419
休	-8.08433
回	-8.08508
先生	-8.08926
人之	-8.08957
權	-8.09254
每	-8.09399
里	-8.09481
積	-8.0961
紫	-8.09677
獻	-8.09773
十二	-8.09947
懷	-8.10158
期	-8.10164
日月	-8.10536
累	-8.10601
祀	-8.10708
落	-8.1075
厚	-8.10814
剛	-8.11002
皇	-8.11124
類	-8.11292
禄	-8.11553
佛	-8.11714
宿	-8.11847
依	-8.12342
喪	-8.12347
幽	-8.12488
顧	-8.12494
面	-8.12607
蒙	-8.12743
輔	-8.12799
推	-8.1281
詔	-8.13066
藥	-8.13165
唯	-8.13185
滿	-8.13264
紀	-8.13416
輕	-8.13593
盖	-8.13721
辰	-8.13799
孤	-8.13955
忠	-8.14083
泰	-8.14166
昭	-8.14204
軍	-8.14382
一日	-8.14509
臺	-8.14531
惠	-8.14721
魯	-8.14773
職	-8.14777
再	-8.14913
井	-8.15069
孫	-8.1507
逆	-8.15073
造	-8.15094
榮	-8.1565
真人	-8.1572
群	-8.15803
奇	-8.15887
牛	-8.15904
忽	-8.16182
不敢	-8.16531
升	-8.16636
一切	-8.16746
誰	-8.17117
仰	-8.17643
午	-8.17858
衛	-8.17952
不見	-8.18246
餘	-8.18374
壇	-8.18655
爭	-8.18773
虚	-8.19088
驚	-8.19241
嚴	-8.19296
看	-8.19677
嘉	-8.19959
弗	-8.20285
宣	-8.20558
余	-8.20618
獲	-8.20747
畢	-8.20765
玉帝	-8.20833
歌	-8.20842
慈	-8.20966
逢	-8.21021
根	-8.21102
按	-8.21204
恐	-8.21213
草	-8.21747
待	-8.21754
舍	-8.21818
冠	-8.219
聽	-8.22084
引	-8.22146
謝	-8.22344
妄	-8.22629
垂	-8.22795
列	-8.22923
齋	-8.22947
震	-8.23043
機	-8.23118
賊	-8.23357
愈	-8.23498
是以	-8.23518
慶	-8.23673
之道	-8.23699
威	-8.23832
勞	-8.23836
也故	-8.24038
退	-8.24174
才	-8.24216
不足	-8.24246
梁	-8.24296
切	-8.2445
愚	-8.24542
朕	-8.24703
微	-8.25036
遷	-8.25309
羅	-8.25536
設	-8.25749
幸	-8.25953
庭	-8.26022
如此	-8.26556
克	-8.26575
勿	-8.26788
谷	-8.26826
啓	-8.26842
畫	-8.27118
眞人	-8.27222
恭	-8.27461
卷	-8.27483
晋	-8.27503
史	-8.27786
端	-8.27906
覺	-8.2804
敗	-8.28111
卿	-8.28308
尤	-8.28315
迎	-8.2855
改	-8.29006
兹	-8.29031
序	-8.29263
赤	-8.29321
務	-8.29335
置	-8.29723
逐	-8.29936
劉	-8.29942
鳥	-8.30102
私	-8.30271
被	-8.30369
悉	-8.30496
半	-8.31006
曾	-8.31091
之事	-8.31138
叔	-8.31188
歷	-8.31235
縁	-8.31269
嗣	-8.31399
孔子	-8.31537
災	-8.3163
友	-8.31861
典	-8.3199
塵	-8.32098
廢	-8.32165
謹	-8.32292
婦	-8.32355
江	-8.32478
雷	-8.32881
楚	-8.32898
柔	-8.33012
妻	-8.33021
質	-8.33153
坤	-8.33228
負	-8.33322
丘	-8.33392
峰	-8.33762
免	-8.33776
録	-8.34119
昔	-8.34186
考	-8.34213
何以	-8.3428
胡	-8.34346
越	-8.34385
率	-8.34459
連	-8.34469
苟	-8.35431
斗	-8.35544
儀	-8.3567
卦	-8.36106
曲	-8.36149
寅	-8.36214
折	-8.36286
悟	-8.36617
工	-8.36802
吴	-8.36909
他	-8.36983
否	-8.37516
棄	-8.37672
原	-8.37839
浮	-8.38094
布	-8.38269
刻	-8.38546
敢	-8.38727
繼	-8.39081
聚	-8.39155
察	-8.39567
戰	-8.39606
迷	-8.39608
薄	-8.39653
收	-8.39697
怒	-8.39796
徳	-8.40113
吏	-8.40226
專	-8.40361
險	-8.40414
野	-8.40451
灾	-8.40614
救	-8.40685
堅	-8.40759
假	-8.40851
左右	-8.41241
畏	-8.41366
簡	-8.4143
决	-8.41547
遣	-8.41772
印	-8.42093
脫	-8.42223
背	-8.42353
昌	-8.42433
尋	-8.42552
趙	-8.42654
揚	-8.42811
又曰	-8.42856
於是	-8.42878
移	-8.43075
最	-8.43081
夷	-8.43085
維	-8.43212
卯	-8.43361
夫人	-8.43451
不爲	-8.43505
老子	-8.43563
季	-8.43701
漸	-8.43878
覆	-8.4414
部	-8.44165
放	-8.44261
上下	-8.44348
魂	-8.4444
童	-8.44525
之心	-8.44636
境	-8.44899
寵	-8.45036
之時	-8.45062
器	-8.45073
父母	-8.45291
勤	-8.4543
秀	-8.45434
逺	-8.45808
之言	-8.45873
有所	-8.46198
品	-8.46232
殊	-8.46411
之間	-8.46485
碑	-8.46578
駕	-8.46583
英	-8.46616
祭	-8.47015
篇	-8.47318
辯	-8.47399
哀	-8.48143
護	-8.48201
效	-8.48286
堯	-8.48373
仲	-8.48434
消	-8.48489
延	-8.48699
助	-8.49091
走	-8.49159
衰	-8.49227
毋	-8.49272
嶽	-8.4937
甲	-8.49377
却	-8.49488
困	-8.49539
資	-8.49634
儒	-8.49665
朱	-8.49742
招	-8.4988
筆	-8.49898
掌	-8.49909
避	-8.50052
亨	-8.50083
鳴	-8.50482
厥	-8.505
弟	-8.50704
况	-8.5073
兼	-8.50751
天尊	-8.50855
鼎	-8.50914
燕	-8.51079
薦	-8.51082
穴	-8.51087
笑	-8.51441
接	-8.51443
曰吾	-8.51633
末	-8.51797
炁	-8.51931
道士	-8.51932
不及	-8.52044
陵	-8.52075
懼	-8.52212
紅	-8.52373
格	-8.5239
縣	-8.52393
豐	-8.5247
然後	-8.52614
坎	-8.52636
姓	-8.52938
伐	-8.53235
帶	-8.53414
露	-8.53563
勢	-8.53634
怨	-8.53742
釋	-8.53813
天下之	-8.53953
嵗	-8.54004
步	-8.54109
巽	-8.54514
參	-8.54603
責	-8.5462
功德	-8.54721
大道	-8.54745
庶	-8.55059
子孫	-8.5515
未嘗	-8.55205
户	-8.55323
天門	-8.5537
鳳	-8.55379
示	-8.55381
恒	-8.55405
鄉	-8.55737
呼	-8.55874
禁	-8.5592
九天	-8.56557
慮	-8.56644
送	-8.57199
舟	-8.57204
注	-8.57403
象曰	-8.57966
亭	-8.58123
種	-8.58148
冬	-8.58176
如是	-8.58401
役	-8.58557
弱	-8.58765
冥	-8.58789
太上	-8.58815
邑	-8.58882
革	-8.58884
普	-8.59017
没	-8.59081
壁	-8.59393
投	-8.59457
松	-8.59488
增	-8.5961
迹	-8.59996
省	-8.60005
鄭	-8.60293
知其	-8.6043
天子	-8.60769
不同	-8.61086
康	-8.61178
魏	-8.61182
惑	-8.61185
詞	-8.61324
骨	-8.61346
錢	-8.61362
丑	-8.61447
春秋	-8.61592
禹	-8.61744
淵	-8.62036
之中	-8.62064
約	-8.62255
犯	-8.6228
了	-8.62709
攝	-8.62763
上帝	-8.6281
遍	-8.63223
三年	-8.63341
獄	-8.6345
歟	-8.63462
只	-8.63495
毒	-8.63747
至於	-8.63918
碧	-8.63938
羽	-8.64018
翼	-8.64116
然則	-8.64132
楊	-8.64208
必有	-8.64284
賛	-8.64294
祈	-8.64468
而無	-8.64666
崖	-8.64738
壯	-8.64787
後世	-8.64889
商	-8.64934
貧	-8.65021
徐	-8.65064
侍	-8.65106
角	-8.65109
飲	-8.65422
祥	-8.65488
錫	-8.65636
黑	-8.65645
大夫	-8.65795
韓	-8.65809
衆生	-8.65986
現	-8.65998
髙	-8.66033
盤	-8.66036
讓	-8.66104
大天王	-8.66173
違	-8.66378
早	-8.66483
盈	-8.66582
輪	-8.66706
羊	-8.66963
名曰	-8.66996
純	-8.6701
乾坤	-8.67148
秘	-8.67163
吕	-8.67171
是非	-8.67501
奚	-8.67697
急	-8.6804
忌	-8.68054
策	-8.68171
酉	-8.682
超	-8.68328
曹	-8.68363
統	-8.68378
房	-8.68426
是也	-8.68529
旦	-8.68627
夫子	-8.68643
懸	-8.68648
縱	-8.68901
暗	-8.68938
宇	-8.69073
㣲	-8.69228
曜	-8.69313
頂	-8.69384
弘	-8.69508
鶴	-8.69532
誦	-8.69564
源	-8.69571
沉	-8.69578
變化	-8.69903
豫	-8.69995
虞	-8.69999
謙	-8.70038
追	-8.7009
諸侯	-8.70186
無窮	-8.70242
光明	-8.70468
富貴	-8.70481
雙	-8.70579
艮	-8.70616
曉	-8.70673
珠	-8.70771
眼	-8.71021
游	-8.71107
貪	-8.71159
讀	-8.71181
是故	-8.71457
隂陽	-8.71475
市	-8.71598
雄	-8.71639
之上	-8.71657
祝	-8.71692
扶	-8.72059
管	-8.72061
杖	-8.72106
殷	-8.72126
試	-8.72175
黄帝	-8.72444
岳	-8.72604
樹	-8.72631
然而	-8.72648
悔	-8.72946
傾	-8.73221
貫	-8.73267
某	-8.73321
甘	-8.73462
誅	-8.7354
郡	-8.7366
禱	-8.73663
廼	-8.7378
兄弟	-8.738
雪	-8.73815
默	-8.7416
密	-8.74309
界	-8.74349
邦	-8.74625
舜	-8.74634
十三	-8.74791
材	-8.74809
奪	-8.74872
㫖	-8.75102
勑	-8.75156
元始	-8.75247
附	-8.75322
徹	-8.75349
哭	-8.75517
池	-8.75526
寶	-8.75631
兄	-8.75704
罔	-8.75739
速	-8.75834
細	-8.75892
鎮	-8.75894
之後	-8.75973
調	-8.76091
亥	-8.76182
孰	-8.76223
蛇	-8.76312
怪	-8.76358
太子	-8.76406
抱	-8.76449
闕	-8.76603
弟子	-8.76657
想	-8.7676
訟	-8.769
題	-8.76922
充	-8.76935
式	-8.77054
之意	-8.77199
可謂	-8.7734
旅	-8.77389
玉女	-8.77415
例	-8.77492
俾	-8.77551
不如	-8.77581
鬼神	-8.77669
偏	-8.78107
而爲	-8.78345
魔	-8.78353
孔	-8.78534
鍾	-8.78571
蕩	-8.78594
陸	-8.78598
彌	-8.7861
悲	-8.78719
愼	-8.79011
者皆	-8.79025
跡	-8.79061
量	-8.79078
昏	-8.79129
鼓	-8.79141
蘇	-8.79158
納	-8.79177
含	-8.79646
隆	-8.79655
巧	-8.79691
希	-8.79712
兊	-8.79717
凢	-8.79761
僧	-8.80066
長生	-8.8019
欺	-8.80215
烏	-8.80259
辱	-8.80269
来	-8.80285
領	-8.80293
尅	-8.80557
影	-8.80598
習	-8.80623
術	-8.80796
旣	-8.80802
神明	-8.81003
男	-8.81072
無有	-8.81144
雜	-8.81366
厲	-8.81911
淫	-8.81922
撫	-8.81968
擊	-8.81997
享	-8.8204
十六	-8.82326
奔	-8.82331
瞻	-8.8253
湯	-8.83087
塞	-8.83099
葉	-8.8314
顔	-8.83361
籍	-8.83373
住	-8.83491
悅	-8.83604
無爲	-8.83708
竊	-8.83719
諸天	-8.83746
不然	-8.83921
配	-8.83953
科	-8.83976
欽	-8.84016
湏	-8.84326
巖	-8.84365
彖曰	-8.84368
像	-8.84508
皇帝	-8.84557
䟽	-8.84567
小人	-8.84634
振	-8.84831
爲之	-8.84897
索	-8.84918
干	-8.84963
屋	-8.85416
刼	-8.8545
辟	-8.85479
文王	-8.85672
京	-8.859
旺	-8.85976
之人	-8.86103
竟	-8.8638
十方	-8.86684
潜	-8.86737
不以	-8.86879
封禪	-8.86968
育	-8.87007
未有	-8.87018
醮	-8.8705
畜	-8.87065
觧	-8.87235
輿	-8.87248
瑞	-8.87554
繫	-8.87713
篤	-8.8773
三十	-8.87803
横	-8.87861
詣	-8.8791
訓	-8.87915
朝廷	-8.87938
暴	-8.88176
人也	-8.88209
寡	-8.8826
歡	-8.88363
爵	-8.88493
差	-8.88544
晨	-8.88557
毁	-8.88582
眞君	-8.88608
賤	-8.88666
十一	-8.88671
四方	-8.88913
將軍	-8.88954
遭	-8.8902
之士	-8.89112
賦	-8.89397
證	-8.89559
俯	-8.89588
防	-8.89695
仍	-8.89717
條	-8.89723
融	-8.89731
鑒	-8.89745
神仙	-8.89883
肅	-8.90007
不可以	-8.90061
而不知	-8.90081
龜	-8.90115
蔽	-8.9032
有餘	-8.90346
并	-8.90363
給	-8.90415
殘	-8.90425
邊	-8.90562
孟	-8.90707
限	-8.90747
階	-8.90905
煉	-8.90919
溪	-8.90961
圍	-8.90986
晦	-8.91036
族	-8.91254
罷	-8.91276
舞	-8.91549
倚	-8.91624
十四	-8.9173
録曰愚觀	-8.92013
勸	-8.92019
魄	-8.92108
諭	-8.92214
温	-8.92253
均	-8.92278
足以	-8.92395
十五	-8.92548
偶	-8.92549
營	-8.92558
兒	-8.92562
謁	-8.92615
毛	-8.92769
賴	-8.92774
爲人	-8.92814
述	-8.92866
貌	-8.92954
郭註	-8.92976
太平	-8.93086
亦有	-8.93379
賈	-8.93434
側	-8.93482
監	-8.93523
驗	-8.93837
遲	-8.94068
閑	-8.94122
烈	-8.94157
三月	-8.94199
此經	-8.9423
㓕	-8.9423
郷	-8.94255
慕	-8.94565
祐	-8.94646
驅	-8.94734
憲	-8.94811
抑	-8.94833
講	-8.94898
句	-8.94898
峯	-8.95173
卜	-8.95418
荒	-8.95433
巨	-8.95447
麗	-8.9546
血	-8.95502
之則	-8.95512
咎	-8.95542
者非	-8.95926
尾	-8.95963
瓊	-8.95982
乆	-8.96035
雖有	-8.96093
補	-8.96135
焚	-8.96159
以其	-8.96463
莫不	-8.9653
禪	-8.96546
人心	-8.96703
勇	-8.96768
寄	-8.96904
亦不	-8.96988
頌	-8.97128
委	-8.97442
擇	-8.97546
圓	-8.97576
人間	-8.976
孚	-8.97712
學者	-8.98226
而有	-8.98348
祗	-8.98566
燈	-8.98769
裏	-8.98772
介	-8.98785
贈	-8.98794
閣	-8.98854
總	-8.98956
陛下	-8.99477
天之	-8.99538
辨	-8.99576
蒼	-8.99743
嘆	-8.99763
宰	-8.99768
幼	-9.00073
衡	-9.00118
趨	-9.00142
局	-9.0019
周公	-9.00219
之功	-9.00713
敵	-9.00751
夾	-9.00763
冲	-9.00801
射	-9.00837
仁義	-9.00852
狀	-9.00983
混	-9.01398
囚	-9.01408
耗	-9.01414
談	-9.01519
綱	-9.01525
以來	-9.01578
枝	-9.0159
竹	-9.01643
得其	-9.01689
也今	-9.01732
萬里	-9.01754
三界	-9.01797
陰陽	-9.01852
子曰	-9.01926
二十	-9.01977
無不	-9.0199
遯	-9.02096
醉	-9.02107
溺	-9.02242
躬	-9.02264
死生	-9.02287
茂	-9.0229
上清	-9.02337
其心	-9.02417
盜	-9.02436
席	-9.02944
天地之	-9.03007
一人	-9.03043
沙	-9.03418
侵	-9.03447
葬	-9.03507
吟	-9.03534
妖	-9.03639
選	-9.03673
當作	-9.03751
詳	-9.03759
尺	-9.03913
今日	-9.03918
宅	-9.04129
殃	-9.04262
旋	-9.04263
操	-9.04313
返	-9.04332
徴	-9.04361
寬	-9.04392
包	-9.04425
男女	-9.04524
途	-9.04821
昇	-9.0484
二年	-9.04911
以此	-9.04972
壞	-9.04982
卑	-9.05001
誓	-9.05004
翠	-9.05017
略	-9.0504
攻	-9.05059
嶺	-9.05157
第	-9.05202
五行	-9.05354
味	-9.05665
千里	-9.0572
波	-9.0575
賞	-9.05789
供	-9.058
赴	-9.058
戴	-9.05806
卧	-9.05806
无咎	-9.05822
采	-9.05848
屢	-9.05862
國家	-9.05906
儉	-9.05976
暮	-9.06173
洪	-9.06273
樓	-9.06414
父子	-9.06431
兆	-9.06432
馳	-9.06495
屈	-9.06512
伸	-9.06531
於此	-9.06533
旁	-9.0655
稍	-9.06554
允	-9.06587
真君	-9.06713
晝	-9.0715
而能	-9.07205
洞賔	-9.0726
環	-9.07265
齒	-9.07268
班	-9.07324
對曰	-9.0759
廬	-9.07838
拱	-9.07877
之情	-9.07966
嗚呼	-9.08001
趣	-9.0801
征	-9.08024
僞	-9.08029
佑	-9.08057
籖	-9.08059
遵	-9.08061
墓	-9.08061
靡	-9.08212
恃	-9.08266
十七	-9.0835
勉	-9.08456
諫	-9.08554
天師	-9.08574
烟	-9.08632
胎	-9.08807
凝	-9.09035
倫	-9.09163
之法	-9.09197
譽	-9.0933
是時	-9.09349
蜀	-9.09492
彰	-9.09553
川	-9.09967
短	-9.10127
翁	-9.10199
候	-9.10244
叅	-9.10254
着	-9.10259
屯	-9.10287
未詳	-9.10349
䖏	-9.10388
與之	-9.10449
見其	-9.1065
腹	-9.10724
戌	-9.10725
之義	-9.10943
肆	-9.11011
穢	-9.11023
髮	-9.11039
無以	-9.11126
也其	-9.11139
愽	-9.11604
覩	-9.11771
詩曰	-9.11771
乞	-9.11773
竒	-9.11801
蹇	-9.11813
燭	-9.11897
使人	-9.11913
中有	-9.1197
丁	-9.12038
古今	-9.12331
者不	-9.12394
社	-9.12424
完	-9.12435
剥	-9.12518
費	-9.12604
劒	-9.12614
刃	-9.12675
衍	-9.12679
無極	-9.12795
湖	-9.12976
不信	-9.12985
座	-9.13019
也若	-9.13082
當時	-9.13115
之所以	-9.13253
憑	-9.1332
鸞	-9.13358
導	-9.13371
訣	-9.13376
痛	-9.13378
據	-9.13435
寺	-9.13455
不成	-9.13635
用之	-9.13881
支	-9.1397
刀	-9.14039
婚姻	-9.1405
契	-9.14126
知之	-9.14156
敦	-9.14185
萃	-9.14323
律	-9.14632
殆	-9.14845
穿	-9.14895
惜	-9.15229
太陽	-9.15339
無註	-9.15455
之日	-9.15488
係	-9.15604
鹿	-9.15646
之地	-9.15647
墨	-9.15681
觸	-9.15729
拘	-9.15819
而不能	-9.1593
岱宗	-9.15962
正月	-9.16018
註	-9.16056
元年	-9.16341
循	-9.16354
蠱	-9.16505
遥	-9.1654
逰	-9.16572
相與	-9.16707
也而	-9.17015
程	-9.1717
自是	-9.17216
逃	-9.17342
輙	-9.17351
㑹	-9.17415
徑	-9.1745
自得	-9.17705
十八	-9.17828
妾	-9.17922
耀	-9.17974
昧	-9.18039
盗	-9.18118
佩	-9.18123
朔	-9.18141
不過	-9.18343
付	-9.18395
天上	-9.18698
白雲	-9.18789
鄰	-9.18877
閉	-9.18926
徧	-9.18939
恨	-9.19035
熟	-9.19041
柳	-9.19074
未能	-9.19122
之徒	-9.19426
域	-9.19489
三日	-9.1952
基	-9.19605
占	-9.19624
宴	-9.19679
厄	-9.19688
凌	-9.19765
遽	-9.19793
籙	-9.19801
五嶽	-9.19896
垣	-9.19898
矣故	-9.20056
則有	-9.20107
曰此	-9.20491
墮	-9.20607
杜	-9.20623
肉	-9.20647
逸	-9.20694
橋	-9.2072
吐	-9.2073
錯	-9.20737
訪	-9.20738
造化	-9.20902
羣	-9.21118
判	-9.21373
枯	-9.2138
騎	-9.21465
狂	-9.21484
之說	-9.2149
拔	-9.21509
阿	-9.21519
歳	-9.21535
畧	-9.21555
襲	-9.21594
佐	-9.21598
聞之	-9.21702
文章	-9.21705
文昌	-9.2173
世間	-9.21758
物之	-9.21831
萬世	-9.21996
霞	-9.22167
仕	-9.22338
值	-9.22358
誥	-9.22397
托	-9.22399
諱	-9.22458
天道	-9.22487
際	-9.22824
其事	-9.22863
無量	-9.23182
愆	-9.23212
匪	-9.23268
磨	-9.23273
館	-9.23274
單	-9.23305
不利	-9.23306
稽首	-9.23372
不明	-9.23509
視之	-9.23703
辛	-9.23714
玉皇	-9.23727
五色	-9.23851
第一	-9.23967
黃	-9.24017
賔	-9.24049
牧	-9.24056
頓	-9.24077
障	-9.24086
堪	-9.24086
郊	-9.24098
出入	-9.24108
百姓	-9.24253
覽	-9.24351
柱	-9.24622
則爲	-9.24659
古之	-9.24768
戎	-9.24947
預	-9.2497
映	-9.2502
審	-9.2503
逹	-9.25058
八卦	-9.25384
忍	-9.25388
醫	-9.25478
尸	-9.25635
又何	-9.25767
津	-9.25827
耕	-9.25881
天王	-9.25905
廉	-9.25958
水火	-9.25991
行人	-9.25996
雖然	-9.26042
桓	-9.26457
農	-9.26491
凈	-9.26534
需	-9.26694
是謂	-9.26804
四海	-9.26807
二十四	-9.26832
赦	-9.26854
人皆	-9.26913
自有	-9.26989
莊	-9.27025
神之	-9.27181
厭	-9.27237
是爲	-9.2738
其人	-9.27431
雞	-9.27532
桑	-9.27585
爻	-9.27597
竭	-9.27617
滯	-9.27618
姑	-9.2762
傅	-9.27648
矧	-9.27672
潔	-9.27674
一作	-9.27718
涉	-9.27721
削	-9.2773
歩	-9.27731
鑿	-9.27753
言其	-9.27921
而下	-9.2798
五十	-9.28133
泥	-9.28439
姜	-9.28499
院	-9.28628
夕	-9.28634
屏	-9.2864
爽	-9.2879
生於	-9.28846
其德	-9.28928
至于	-9.29093
出於	-9.29166
庸	-9.29245
四時	-9.29292
穀	-9.29379
續	-9.29464
濁	-9.29482
慢	-9.29506
瀆	-9.29524
戲	-9.2953
鐵	-9.29539
産	-9.29807
㐫	-9.29889
輝	-9.29922
之禮	-9.30146
郭	-9.30305
蔡	-9.30328
各有	-9.30337
寢	-9.3041
飾	-9.30428
潤	-9.30432
盟	-9.30527
劫	-9.30556
雅	-9.30994
九五	-9.31088
尚書	-9.31111
於人	-9.31131
豈非	-9.31139
騰	-9.31224
其身	-9.31264
有司	-9.31276
冀	-9.31292
虜	-9.31326
徵	-9.31339
道德	-9.31402
史記	-9.3146
演	-9.31523
一時	-9.31934
大龍王	-9.32109
捨	-9.3216
缺	-9.32206
校	-9.32246
廷	-9.32264
賀	-9.32265
奈何	-9.32285
膺	-9.32321
悖	-9.3234
聖人之	-9.32345
提	-9.32849
庚	-9.32935
隔	-9.33189
崩	-9.33203
夀	-9.33205
活	-9.33264
採	-9.33272
探	-9.3329
渾	-9.33295
逍遥	-9.33306
不足以	-9.33463
而去	-9.33481
世界	-9.33526
之謂	-9.33675
若是	-9.33997
爲主	-9.34086
桃	-9.34102
之下	-9.34137
底	-9.34154
矢	-9.34173
無形	-9.34183
筭	-9.34245
誤	-9.34249
摩	-9.34259
傍	-9.34307
風雨	-9.34415
失其	-9.34478
斬	-9.3455
不相	-9.34649
金闕	-9.34671
初九	-9.34759
不聞	-9.34799
泣	-9.34804
不用	-9.34861
賁	-9.35084
漏	-9.35165
敷	-9.35174
踰	-9.35175
姬	-9.35184
僕	-9.35196
萬物之	-9.35358
戍	-9.35564
耳目	-9.3568
之氣	-9.35959
乗	-9.36045
借	-9.36056
福禄	-9.36074
朋	-9.36136
倒	-9.36137
黨	-9.36154
披	-9.36173
編	-9.36218
墜	-9.36229
蔵	-9.36237
三元	-9.36255
大人	-9.36268
之際	-9.36423
地獄	-9.36518
生死	-9.36752
甲子	-9.37022
淺	-9.37079
之名	-9.37136
雍	-9.37167
盧	-9.37205
佳	-9.37282
家人	-9.37286
有功	-9.37319
其言	-9.37326
言之	-9.37365
錦	-9.37497
帥	-9.37518
霄	-9.37657
矣夫	-9.37666
觀之	-9.37757
爲天下	-9.37795
不言	-9.37922
甫	-9.37923
褒	-9.38056
若有	-9.38077
峻	-9.38132
停	-9.38155
範	-9.38158
社稷	-9.38163
芳	-9.38165
歛	-9.3819
眀	-9.38218
東方	-9.38645
而自	-9.38699
蓬	-9.38823
道人	-9.38976
君臣	-9.39024
靖	-9.3904
溢	-9.39079
眉	-9.39157
之内	-9.39158
獸	-9.39174
煙	-9.39197
民之	-9.39209
愧	-9.39599
世人	-9.39619
道者	-9.39638
閩	-9.39793
莫能	-9.39989
答	-9.39997
顛	-9.4009
奸	-9.4019
茅	-9.40198
何如	-9.40224
植	-9.40232
道也	-9.40725
鏡	-9.40784
帝君	-9.4082
銀	-9.40889
帛	-9.40904
豈不	-9.40954
也此	-9.40959
不宜	-9.41002
䧟	-9.41213
詠	-9.41223
擁	-9.41241
絲	-9.41242
恊	-9.41258
岩	-9.41275
劍	-9.41306
無所不	-9.41389
見之	-9.41412
神通	-9.41473
清凈	-9.41481
巢	-9.41519
寸	-9.41796
而非	-9.41953
徃來	-9.41953
妃	-9.42029
蕭	-9.42062
究	-9.42093
乎其	-9.42096
嬰	-9.42176
鮮	-9.42254
規	-9.42256
闡	-9.42273
御史	-9.42322
無心	-9.42492
太極	-9.42607
嗟	-9.42722
星辰	-9.42881
録曰此	-9.42949
愁	-9.43051
孟子	-9.43137
博	-9.43231
貨	-9.43291
倉	-9.43309
討	-9.43332
仗	-9.43365
則無	-9.43486
岱	-9.4363
善惡	-9.44023
使者	-9.44079
元君	-9.44227
霜	-9.44277
一云	-9.44339
聴	-9.44375
眷	-9.44389
晴	-9.4439
秉	-9.44396
相傳	-9.44437
由是	-9.44439
上有	-9.44542
如何	-9.44544
司馬	-9.44619
其子	-9.44667
之德	-9.4472
不免	-9.44746
至扵	-9.44788
身命	-9.44871
者以	-9.44922
中國	-9.45024
二人	-9.45114
抵	-9.45169
禍福	-9.45182
賓	-9.45407
併	-9.45454
緑	-9.45511
大臣	-9.45546
擬	-9.45551
者亦	-9.45682
庫	-9.45757
禮樂	-9.45759
也故曰	-9.45838
六十	-9.45985
姚	-9.46159
不復	-9.4618
塗	-9.46227
怠	-9.46245
樞	-9.46266
之象	-9.4635
慧	-9.46469
擾	-9.46487
軒	-9.46499
矜	-9.46537
芒	-9.46547
罰	-9.46566
𣗳	-9.46592
牙	-9.46608
也然	-9.46693
無事	-9.46979
大有	-9.47056
東西	-9.47074
武王	-9.47324
舌	-9.47477
六五	-9.47519
子之	-9.47549
氷	-9.47565
爐	-9.47651
脉	-9.47654
攸	-9.47678
不肯	-9.47694
珍	-9.47731
洛	-9.47902
内外	-9.47938
而况	-9.47979
得道	-9.48187
太宗	-9.48203
吹	-9.48455
與物	-9.48569
牽	-9.48644
彭	-9.48662
頼	-9.48678
六月	-9.4868
陶	-9.48681
荷	-9.48722
墻	-9.48733
奮	-9.48735
耻	-9.48756
册	-9.48787
鼻	-9.48812
讃	-9.4883
不知所	-9.4886
草木	-9.49024
弊	-9.4904
不出	-9.49356
旱	-9.49378
睽	-9.49435
天人	-9.49446
西南	-9.49547
寂	-9.49561
庇	-9.4967
稽	-9.49767
禽	-9.49777
十年	-9.49806
紹	-9.49829
東海	-9.49852
案	-9.49853
荆	-9.49878
詐	-9.49879
措	-9.49879
暫	-9.49883
璧	-9.49893
學道	-9.50262
饗	-9.50302
其後	-9.5062
所在	-9.50687
戊	-9.50811
不安	-9.50887
浪	-9.50967
狐	-9.5098
鴻	-9.50985
戮	-9.50999
爰	-9.51005
則不	-9.51028
山川	-9.51343
東南	-9.51362
而成	-9.51528
星君	-9.51799
三千	-9.51865
聼	-9.51992
飢	-9.52008
即位	-9.52045
䘮	-9.52082
夭	-9.52113
嫁	-9.52164
羙	-9.52164
埋	-9.52199
炎	-9.52203
與人	-9.52229
也録曰	-9.52243
洗	-9.52272
太后	-9.52291
至今	-9.52363
其中	-9.52694
吉凶	-9.5273
官事	-9.52814
者乎	-9.52915
世之	-9.52979
孛	-9.53036
帝王	-9.53047
受命	-9.53056
芝	-9.53094
憐	-9.53137
踈	-9.53247
拂	-9.53295
唱	-9.53303
慾	-9.53314
竅	-9.5334
婚	-9.5335
頗	-9.53361
鬱	-9.53361
整	-9.53408
何也	-9.53413
以下	-9.53424
飯	-9.53438
七十	-9.53492
罗	-9.53559
胥	-9.53713
終日	-9.53731
之精	-9.53744
矣此	-9.53789
何爲	-9.53893
天命	-9.53941
不忍	-9.53973
箕	-9.53996
禦	-9.54426
副	-9.54461
鎭	-9.54478
掩	-9.54484
檢	-9.5449
蘭	-9.54492
澗	-9.54512
驕	-9.54516
緫	-9.54534
粟	-9.54568
偃	-9.54614
則雖	-9.54672
堯舜	-9.54821
道之	-9.54835
不許	-9.55002
穆	-9.55173
又有	-9.554
無上	-9.55543
犬	-9.55545
鑑	-9.55546
飽	-9.55595
几	-9.55612
范	-9.55661
繁	-9.55667
激	-9.55669
醜	-9.55685
晝夜	-9.55761
篆	-9.55785
築	-9.55831
人之所	-9.55868
玉堂	-9.55881
三代	-9.5592
進退	-9.55936
之外	-9.55982
至此	-9.5599
初六	-9.56033
不至	-9.56189
性命	-9.56238
之理	-9.5627
卓	-9.56561
不若	-9.56709
頃	-9.56728
鍊	-9.56837
老君	-9.56839
姦	-9.56842
恣	-9.56861
聘	-9.5687
棲	-9.56886
吞	-9.56889
優	-9.56894
馮	-9.56941
窺	-9.5695
蟲	-9.5697
澄	-9.5697
巔	-9.56992
不死	-9.57206
把	-9.57284
三五	-9.57564
及其	-9.57642
其名	-9.57773
登泰山	-9.57803
四月	-9.57899
弼	-9.57939
霧	-9.57991
敏	-9.58031
懽	-9.58053
沈	-9.58054
快	-9.58055
羅义女	-9.58063
廻	-9.58097
倍	-9.58104
阻	-9.58119
摇	-9.5812
朗	-9.58126
勅	-9.58134
减	-9.58158
突	-9.58167
園	-9.58186
旌	-9.58196
明堂	-9.58322
婦人	-9.58352
之本	-9.58509
不在	-9.5861
裳	-9.58683
群臣	-9.58742
疆	-9.58755
乙	-9.58988
貢	-9.59071
以是	-9.59094
侈	-9.59109
不自	-9.59139
寓	-9.59141
不食	-9.59161
詩云	-9.59261
狗	-9.59299
餌	-9.59333
網	-9.59336
輩	-9.59345
播	-9.59349
煩	-9.59351
揖	-9.59367
西北	-9.59392
之類	-9.59492
庶幾	-9.595
至是	-9.59598
使我	-9.5968
不勝	-9.59718
之神	-9.59796
日觀	-9.60123
三十六	-9.60139
浩	-9.60412
六四	-9.60432
尹	-9.60456
未必	-9.60477
琴	-9.60534
至矣	-9.60551
銅	-9.60571
寇	-9.60578
陷	-9.60579
聯	-9.6058
腰	-9.60608
沖	-9.60616
以成	-9.60619
麟	-9.60639
秩	-9.60673
至人	-9.60905
億	-9.6096
者爲	-9.61071
蔭	-9.61192
而行	-9.61298
他日	-9.61341
故能	-9.61478
難靈應藥王扁鵲君能救	-9.61796
亢	-9.61843
績	-9.61862
瑶	-9.61864
囊	-9.61868
銘	-9.61919
觀其	-9.6192
儲	-9.61924
而已矣	-9.61976
而反	-9.61985
東嶽	-9.61997
頤	-9.62013
聦明	-9.62031
四十	-9.62105
其道	-9.62265
不善	-9.6232
大小	-9.62421
者有	-9.62637
五年	-9.62772
員	-9.62784
不動	-9.62796
誕	-9.62805
十九	-9.6282
丙	-9.62858
往	-9.62913
肯	-9.62969
彩	-9.63013
虧	-9.63073
人所	-9.63082
枉	-9.63096
刺	-9.63126
趾	-9.6313
喻	-9.63135
霸	-9.63153
曠	-9.63161
桂	-9.6319
繩	-9.63194
明日	-9.63206
終身	-9.63652
莊子	-9.63857
也非	-9.63859
之至也	-9.64024
正一	-9.64064
響	-9.64065
皆以	-9.64094
六二	-9.64188
之妙	-9.64281
戚	-9.64284
冝	-9.64356
娶	-9.64373
淮	-9.64379
懿	-9.6438
爛	-9.64385
晉	-9.64397
十五日	-9.64422
焦	-9.64428
幻	-9.64446
聖賢	-9.6446
援	-9.64461
翻	-9.64464
慈悲	-9.64487
閱	-9.64494
熱	-9.6453
岀	-9.64533
太乙	-9.64554
之故	-9.64572
爲我	-9.64585
標	-9.64624
大吉	-9.64628
歎	-9.64716
而生	-9.64979
皆有	-9.65042
九年	-9.65047
曰汝	-9.6516
百里	-9.65171
神人	-9.65234
號曰	-9.65284
至道	-9.65355
者必	-9.65453
虔	-9.65706
崔	-9.65741
攀	-9.65746
伊	-9.65749
綿	-9.65759
皮	-9.65782
曷	-9.65784
不忘	-9.65897
下䧏	-9.65965
帝之	-9.66008
不欲	-9.66023
百年	-9.66274
矣而	-9.66364
產	-9.66877
而言	-9.66984
淑	-9.67009
生民	-9.67045
徤	-9.67062
灰	-9.67078
陟	-9.67082
割	-9.67088
俊	-9.67103
託	-9.67105
羞	-9.67116
那	-9.67124
慰	-9.67128
岸	-9.67137
輸	-9.67204
不行	-9.67337
伏願	-9.67423
東北	-9.67452
舒	-9.67475
九二	-9.67522
梵	-9.67597
太守	-9.67607
𡚖	-9.67866
古人	-9.67985
德之	-9.68285
旛	-9.68428
夙	-9.68441
咨	-9.68468
創	-9.68468
饑	-9.68469
丞相	-9.68517
鐘	-9.6857
禪師	-9.68576
王者	-9.68641
仙人	-9.68673
南方	-9.68787
京師	-9.69138
在上	-9.6914
化爲	-9.69191
乎夫	-9.69548
靈寳	-9.69553
十月	-9.69649
奢	-9.69672
乳	-9.69742
一年	-9.6976
离	-9.69775
污	-9.6979
暢	-9.69794
迴	-9.69797
大帝	-9.69807
皷	-9.69812
迫	-9.69849
麥	-9.69873
翊	-9.69875
精神	-9.70095
仁宗	-9.70156
曰子	-9.7018
前後	-9.7023
點	-9.704
曰我	-9.70409
自在	-9.70492
男子	-9.7056
夫婦	-9.70714
不得已	-9.70774
眞經	-9.70816
名山	-9.70948
童子	-9.7109
郤	-9.71101
緩	-9.71105
千古	-9.71117
鴈	-9.71168
鄙	-9.71188
壑	-9.71195
晏	-9.71203
裂	-9.7121
滋	-9.71245
㧞	-9.71251
随	-9.71254
蓬萊	-9.71257
競	-9.71263
科名	-9.71294
𥘉	-9.71328
其性	-9.71434
之世	-9.71449
鵲	-9.71509
終始	-9.71645
⬤⬤	-9.71765
文武	-9.71784
不必	-9.71816
八月	-9.71844
文公	-9.721
於道	-9.7215
皈依	-9.72322
不但	-9.72327
得以	-9.72443
不生	-9.72509
隅	-9.72511
鉛	-9.7252
魁	-9.72526
圭	-9.72546
嫌	-9.7257
叛	-9.72572
懇	-9.72577
乏	-9.72585
䑓	-9.72586
幹	-9.72647
裘	-9.72651
猶有	-9.72652
邇	-9.72677
崑崙	-9.7269
漫	-9.72736
香火	-9.72752
也是故	-9.72817
則是	-9.72976
所以爲	-9.7311
皇后	-9.7318
龍虎	-9.73221
扵是	-9.73248
明夷	-9.73318
以上	-9.734
染	-9.7349
而復	-9.73494
有一	-9.73797
電	-9.73932
雀	-9.73954
矯	-9.73973
纔	-9.73976
晩	-9.7399
佞	-9.73999
奎	-9.74013
偉	-9.74019
紛	-9.74022
歸妹	-9.74023
捧	-9.74051
買	-9.74059
啇	-9.74073
米	-9.74078
較	-9.74091
勳	-9.74097
渠	-9.74098
暉	-9.74101
截	-9.74112
握	-9.74125
祭祀	-9.74214
治天下	-9.74358
不通	-9.74427
分明	-9.74434
古本作	-9.74512
不與	-9.74606
亦可	-9.74693
七日	-9.7471
貴人	-9.74724
太和	-9.74792
武帝	-9.74833
而天下	-9.75036
從之	-9.75045
若此	-9.75127
玉清	-9.7514
艱	-9.75315
安得	-9.75342
閭	-9.75393
㓂	-9.75403
不離	-9.75422
僅	-9.75487
籠	-9.75489
庵	-9.75502
撰	-9.75527
叩	-9.75537
絡	-9.75604
伏羲	-9.75675
飲食	-9.75696
再拜	-9.75702
人物	-9.75779
之文	-9.75882
不受	-9.76136
女子	-9.7614
而得	-9.76198
山東	-9.76217
祚	-9.76292
福德	-9.76403
有道	-9.76436
祖宗	-9.76439
以待	-9.7645
呪	-9.76581
至聖	-9.7663
也然則	-9.76658
乎此	-9.76815
五月	-9.76856
不待	-9.76884
至誠	-9.76907
賣	-9.76908
七十二	-9.76915
低	-9.76915
携	-9.76921
亟	-9.76934
匿	-9.76934
枕	-9.7696
淳	-9.76965
戾	-9.76967
蹈	-9.76968
繞	-9.76971
偕	-9.76998
亮	-9.77007
嘉靖	-9.77046
古本	-9.77071
関	-9.77106
妙法	-9.77152
莫之	-9.77222
毫	-9.77231
下有	-9.77351
不知其	-9.77772
絶頂	-9.77956
大明	-9.78069
壺	-9.78209
之學	-9.78258
丈人	-9.78351
膏	-9.78386
三清	-9.78426
敝	-9.78467
淡	-9.7847
旡	-9.78474
瓦	-9.78485
之子	-9.78499
掛	-9.78507
臻	-9.78522
恠	-9.78529
天宫	-9.78559
咒	-9.78708
成功	-9.7875
祕	-9.7876
其實	-9.78934
所居	-9.78946
七月	-9.78961
仲尼	-9.78977
受福	-9.79093
九月	-9.79126
時有	-9.79171
本無	-9.79198
九四	-9.79215
喜神	-9.79245
額	-9.7956
平生	-9.79565
萬年	-9.79718
君子之	-9.79759
之謂也	-9.79793
藝	-9.79795
不可得	-9.79812
濡	-9.79823
三十二	-9.79841
上天	-9.79884
吁	-9.79889
不失	-9.79917
遐	-9.79941
謬	-9.79957
胃	-9.79967
藩	-9.7997
麻	-9.79976
箇	-9.79979
萌	-9.7999
鷄	-9.79998
拒	-9.79998
董	-9.80003
嬰兒	-9.80029
吝	-9.80043
則知	-9.80044
聖誕	-9.80069
馭	-9.80101
死者	-9.80105
一也	-9.80207
未知	-9.80237
鉢	-9.80259
太祖	-9.80274
飛昇	-9.80345
五星	-9.80398
仇	-9.80561
姓名	-9.806
其母	-9.80714
其有	-9.80726
二月	-9.80751
上九	-9.80844
自古	-9.81022
動而	-9.81059
般	-9.81116
元吉	-9.81125
之命	-9.81167
國之	-9.81198
聖母	-9.81217
曆	-9.81267
後人	-9.81337
淨	-9.81353
的	-9.81429
之難	-9.8143
高宗	-9.81443
牢	-9.81444
蕃	-9.8146
乖	-9.81462
緒	-9.81468
夬	-9.81476
飮	-9.81477
輦	-9.81496
肇	-9.81499
宻	-9.81505
高祖	-9.81506
詭	-9.81509
製	-9.81517
項	-9.81518
袍	-9.8153
一曰	-9.8157
恕	-9.8163
無私	-9.81696
恤	-9.81743
禄元	-9.81769
太陰	-9.8179
亦無	-9.81823
以正	-9.81895
然也	-9.81938
葛	-9.81983
同人	-9.82057
登岱	-9.82103
天帝	-9.82125
在於	-9.82306
之主	-9.82496
此日	-9.82585
大過	-9.82602
可也	-9.82779
饒	-9.82859
之志	-9.82922
排	-9.8294
大聖	-9.82942
誣	-9.83008
陋	-9.83008
軫	-9.83013
樸	-9.83018
其志	-9.83019
虐	-9.83029
暑	-9.83036
釣	-9.83042
一身	-9.83057
捷	-9.83065
湧	-9.83089
不止	-9.83094
奠	-9.83158
出門	-9.83166
巾	-9.83167
元帥	-9.832
噫	-9.83313
䧏	-9.8333
貞吉	-9.83435
眞宗	-9.8346
疾病	-9.83477
千年	-9.83602
長安	-9.83684
一言	-9.83738
公子	-9.83781
感應	-9.83839
之道也	-9.83862
明年	-9.83899
以自	-9.84009
言也	-9.84032
未嘗不	-9.84201
加封	-9.84367
廵	-9.84431
婁	-9.84475
禳	-9.84533
紂	-9.84552
稷	-9.84555
無憂	-9.84585
孕	-9.84586
臂	-9.84587
穹	-9.84604
䏻	-9.84608
癸	-9.8465
薪	-9.84651
層	-9.84654
掃	-9.84655
猛	-9.84658
郞	-9.84665
頻	-9.84688
挾	-9.84695
供養	-9.84696
藉	-9.8472
二子	-9.84734
者何	-9.84739
玩	-9.84754
可見	-9.84757
甚矣	-9.84772
之變	-9.84794
家宅	-9.84801
逝	-9.84803
皈	-9.84892
北斗	-9.84985
之患	-9.85008
登岳	-9.8508
之論	-9.85106
宰相	-9.85118
可以爲	-9.85257
不絶	-9.85286
公曰	-9.85294
之位	-9.85297
測	-9.85309
中孚	-9.85335
乎哉	-9.85446
惟神	-9.85447
豈有	-9.85483
之君	-9.85499
物也	-9.85538
爲大	-9.858
貴賤	-9.85809
不祥	-9.85829
公孫	-9.85952
八煞	-9.86033
蓮	-9.86038
一旦	-9.86079
旬	-9.86107
之禍	-9.86171
驪	-9.86178
憫	-9.86213
弄	-9.86215
禾	-9.86217
灌	-9.86232
括	-9.8625
謗	-9.8625
伍	-9.86255
學士	-9.86256
寫	-9.86265
踐	-9.86273
敕	-9.86291
紙	-9.86292
添	-9.86325
睹	-9.8633
朴	-9.86344
坊	-9.86378
衆人	-9.86392
八十	-9.86552
主有	-9.86649
無名	-9.86661
齊魯	-9.86746
虛無	-9.86761
山林	-9.86987
利益	-9.87156
以致	-9.87185
也蓋	-9.87207
非有	-9.87224
未濟	-9.87488
勒	-9.87555
九色	-9.87564
山之	-9.87623
文魁	-9.87694
旗	-9.87775
淪	-9.87876
逼	-9.87897
態	-9.87906
束	-9.87908
認	-9.8792
禀	-9.87926
徙	-9.87926
藴	-9.8793
効	-9.87933
溥	-9.87938
峙	-9.87944
距	-9.87946
薛	-9.87954
得失	-9.88017
擢	-9.88037
靈濟宫	-9.88048
解脫	-9.88076
玄都	-9.88081
有大	-9.88103
而又	-9.88165
帝曰	-9.88179
失物	-9.88223
七殺	-9.8828
也又	-9.88408
渡	-9.88452
如今	-9.8846
公卿	-9.88539
道家	-9.88572
遣使	-9.88629
壬	-9.88778
威靈	-9.88806
何其	-9.89138
何謂	-9.89176
砂	-9.89393
人生	-9.89415
孽	-9.89456
絳	-9.89499
食之	-9.89518
展	-9.89518
相應	-9.89525
腐	-9.89535
摧	-9.89575
練	-9.89587
荅	-9.89604
扶桑	-9.89628
侮	-9.8968
卦之	-9.89686
五帝	-9.89689
筮	-9.89692
此言	-9.89813
至眞	-9.89829
不見其	-9.89981
何必	-9.90527
貴元	-9.90547
嘆曰	-9.90643
禄神	-9.90676
而不可	-9.90724
孔子曰	-9.90727
曰君	-9.90818
天厨	-9.90958
催官	-9.90977
無知	-9.91011
萬民	-9.91081
濕	-9.91132
牒	-9.91177
踵	-9.91208
噐	-9.91253
靈濟	-9.91263
豕	-9.91276
漁	-9.91285
遜	-9.91307
小畜	-9.91432
有言	-9.91592
臧	-9.91686
人者	-9.91701
神靈	-9.91744
四年	-9.91781
三天	-9.9194
至尊	-9.91941
人以	-9.91955
十二月	-9.92014
故云	-9.92016
一方	-9.92031
未聞	-9.92134
人事	-9.92137
非其	-9.92265
第三	-9.92275
白日	-9.9229
百官	-9.92403
玉京	-9.92427
片	-9.92499
飄	-9.925
神化	-9.92694
嘯	-9.92824
萬神	-9.92827
王母	-9.92836
黄金	-9.92894
西方	-9.92894
船	-9.92905
此皆	-9.92928
隙	-9.92936
鞭	-9.92948
辜	-9.92949
召見	-9.92994
闢	-9.93005
潮	-9.93021
苗	-9.93028
袖	-9.93036
躍	-9.93036
遏	-9.93043
巫	-9.93051
貽	-9.93072
諧	-9.93082
該	-9.931
陞	-9.93116
壤	-9.93116
都御史	-9.93126
矣然	-9.93227
自然之	-9.93376
北極	-9.93402
北方	-9.93528
登臨	-9.93582
馬元	-9.93682
四五	-9.93684
求之	-9.93696
不已	-9.93765
八年	-9.93775
丈	-9.9382
未免	-9.93833
不求	-9.93871
而知	-9.93943
其間	-9.93971
南北	-9.93989
逮	-9.94101
南山	-9.94257
襄	-9.94261
其神	-9.94267
燒	-9.94299
生而	-9.9435
功成	-9.94356
峽	-9.94392
八百	-9.94403
不容	-9.94415
三教	-9.9442
六親	-9.94451
渙	-9.9465
輒	-9.94696
其爲	-9.94705
涣	-9.94719
两	-9.9472
遁	-9.94755
床	-9.94765
栢	-9.94766
僚	-9.94766
隋	-9.94767
薦元	-9.94776
邁	-9.94802
旨	-9.94831
罡	-9.94871
魔耶女	-9.94914
是經	-9.94935
之始	-9.9494
紫微	-9.94969
飲酒	-9.94999
天理	-9.95159
正直	-9.95214
宫中	-9.95224
得之	-9.95251
廟在	-9.9529
或有	-9.95308
笑曰	-9.9532
既濟	-9.95369
不當	-9.95398
仁元	-9.9542
太清	-9.95482
二三	-9.9551
不顧	-9.95521
自以爲	-9.95638
光武	-9.95642
者無	-9.95738
利貞	-9.95869
哉故	-9.95931
小過	-9.96203
行者	-9.96275
有以	-9.96276
之數	-9.96295
駭	-9.96329
匹	-9.96378
兎	-9.96419
躡	-9.96462
捕	-9.96469
虫	-9.9649
冨	-9.96491
謫	-9.96493
獵	-9.96513
争	-9.96516
縮	-9.96519
汞	-9.9652
翰	-9.96535
翔	-9.96537
茶	-9.96539
毀	-9.96548
擅	-9.96586
牲	-9.96587
貧賤	-9.96592
准	-9.96604
裁	-9.96609
之盛	-9.9662
於外	-9.96633
吿	-9.96635
種種	-9.96647
誌	-9.9665
主人	-9.96655
消息	-9.96699
属	-9.9671
其上	-9.96716
因縁	-9.9702
時人	-9.97143
以告	-9.972
而實	-9.97255
而出	-9.97283
從容	-9.97369
永樂	-9.974
生者	-9.97408
無間	-9.97444
之門	-9.97517
大畜	-9.97705
其形	-9.9772
故也	-9.97748
哲	-9.98075
人民	-9.98076
人口	-9.981
訖	-9.98139
久矣	-9.98172
而死	-9.9823
汲	-9.98254
惡星	-9.98266
泯	-9.98267
鄧	-9.98272
顏	-9.98289
織	-9.98296
所爲	-9.98304
太玄	-9.98318
先王	-9.98319
桀	-9.98329
屠	-9.98341
闇	-9.98343
渉	-9.98349
沐	-9.98354
軌	-9.98361
匡	-9.98371
誇	-9.98374
煥	-9.9838
官印	-9.98384
叙	-9.98396
酌	-9.98418
軸	-9.98426
禽獸	-9.9844
傲	-9.98451
豪	-9.98452
岐	-9.98467
數十	-9.98717
徃徃	-9.98818
言而	-9.98827
於天	-9.98862
他人	-9.98915
可得	-9.98925
以示	-9.99018
在岳	-9.99063
忠信	-9.99064
中元	-9.99221
有孚	-9.99231
治之	-9.99236
洞天	-9.99339
吉星	-9.99438
也吾	-9.99469
其意	-9.99472
得而	-9.99481
奥	-9.99565
殺之	-9.9957
少年	-9.99577
相逢	-9.99617
不覺	-9.99693
所欲	-9.99717
液	-9.99724
王公	-9.99975
聦	-9.99975
曰臣	-9.99981
郎	-10.0001
以明	-10.0004
狼	-10.0006
肥	-10.0013
汙	-10.0013
阜	-10.0014
碎	-10.0014
雉	-10.0015
確	-10.0015
泄	-10.0015
墳	-10.0016
潰	-10.0016
函	-10.0017
膽	-10.0019
漠	-10.0021
槩	-10.0022
烹	-10.0022
墟	-10.0022
丸	-10.0023
區	-10.0023
飬	-10.0024
弓	-10.0025
所言	-10.0025
拾	-10.0026
皓	-10.0028
而來	-10.0039
求財	-10.0054
謀望	-10.0055
河圖	-10.0058
君之	-10.0065
空中	-10.0066
此是	-10.0073
之先	-10.0097
之初	-10.0104
第二	-10.0113
故以	-10.0123
書曰	-10.0123
十一月	-10.0125
若夫	-10.0128
鄕	-10.0156
三合	-10.0159
羊刄	-10.0162
又云	-10.0163
勃	-10.0165
聖意	-10.0166
天符	-10.0168
所有	-10.0169
榜	-10.017
無情	-10.0171
六三	-10.0176
君子以	-10.0176
人人	-10.0181
之機	-10.0196
狄	-10.0197
舎	-10.0202
糧	-10.0203
教之	-10.0204
占病	-10.0205
黎	-10.0206
鼠	-10.0206
⬤(	-10.0206
闊	-10.0208
紛紛	-10.021
捐	-10.021
梯	-10.021
聳	-10.0212
脚	-10.0213
技	-10.0215
垢	-10.0216
貳	-10.0217
汶	-10.0218
能知	-10.0222
不思	-10.023
之樂	-10.0232
於天下	-10.0236
威儀	-10.0237
有爲	-10.0237
以養	-10.0242
者其	-10.025
亦非	-10.0252
故有	-10.0257
其餘	-10.0257
七政	-10.0267
父老	-10.0272
邵	-10.028
之風	-10.0284
忠孝	-10.0291
左傳	-10.0292
非常	-10.0297
賢者	-10.0323
猶未	-10.0329
儒者	-10.0348
己之	-10.035
爾時	-10.0355
爲君	-10.0369
上元	-10.0373
録之	-10.0376
以天下	-10.0377
豹	-10.0384
幣	-10.0386
十里	-10.0388
卄	-10.0392
出于	-10.0392
盍	-10.0395
黜	-10.0395
弦	-10.0396
強	-10.0398
憚	-10.0398
雌	-10.0398
寡人	-10.0399
泛	-10.0399
戀	-10.0399
準	-10.0399
韻	-10.0402
邉	-10.0402
巿	-10.0402
零	-10.0403
洽	-10.0403
滑	-10.0403
裕	-10.0403
固有	-10.0404
查	-10.0405
銳	-10.0406
眠	-10.0406
僣	-10.0406
錬	-10.0407
恬	-10.041
虗	-10.0411
仁者	-10.0411
夷狄	-10.0413
其下	-10.0417
之宫	-10.0422
反覆	-10.043
經云	-10.044
道場	-10.044
思之	-10.0443
莊公	-10.0445
六年	-10.0454
桓公	-10.046
非人	-10.0462
孰能	-10.0468
不變	-10.0476
紫氣	-10.049
可不	-10.0494
也郭註	-10.0495
未可	-10.0499
之勢	-10.0542
先天	-10.0543
大壯	-10.0545
異之	-10.056
之吉	-10.0565
莊子曰	-10.0565
元神	-10.0576
七年	-10.0577
而忘	-10.058
珪	-10.0583
所見	-10.0584
肩	-10.0584
晚	-10.0589
頥	-10.0591
督	-10.0592
頑	-10.0593
狥	-10.0594
禮義	-10.0595
橫	-10.0595
六合	-10.0597
斜	-10.0598
呈	-10.0598
之宗	-10.06
衝	-10.06
憎	-10.0601
揭	-10.0601
宇宙	-10.0602
航	-10.0605
吊	-10.0605
衣冠	-10.0606
巍巍	-10.0608
苔	-10.0608
道教	-10.061
漢之	-10.0611
終不	-10.0616
鰲峰	-10.0621
二十八	-10.0625
一生	-10.0641
山中	-10.0641
有情	-10.0647
之術	-10.0651
蘇註	-10.0653
自生	-10.0662
吉祥檀熾鈞	-10.0672
其行	-10.0673
修行	-10.0688
正法	-10.0691
一念	-10.0692
和氣	-10.0693
青天	-10.0698
一宫	-10.0701
之㫖	-10.0707
正道	-10.0715
俄	-10.0718
妻子	-10.0729
之書	-10.073
成王	-10.0737
不亦	-10.0739
所得	-10.0749
莫若	-10.075
今之	-10.0754
場	-10.0761
以至	-10.0773
赫	-10.078
百餘	-10.0784
梅	-10.0787
汗	-10.0788
妙道	-10.0788
綏	-10.079
駒	-10.0791
昩	-10.0791
逄	-10.0791
抗	-10.0792
膠	-10.0792
坦	-10.0792
緯	-10.0793
殁	-10.0795
瑩	-10.0796
臭	-10.0797
跨	-10.0799
姤	-10.08
倦	-10.08
無常	-10.0801
薰	-10.0801
作福	-10.0801
跪	-10.0802
警	-10.0802
替	-10.0803
丕	-10.0804
教化	-10.0805
肝	-10.0805
棺	-10.0808
人有	-10.0812
皈命	-10.0815
若人	-10.0817
清淨	-10.0818
未得	-10.0823
無聲	-10.0824
所不能	-10.0831
不惟	-10.0833
延年	-10.0838
手足	-10.0843
其本	-10.0844
群生	-10.0845
在天	-10.085
我心	-10.0863
與天	-10.0864
麓	-10.0881
衣食	-10.0892
也是以	-10.0892
自謂	-10.0895
祀之	-10.0908
何處	-10.0922
欲以	-10.0923
俟	-10.0924
朽	-10.0928
而不得	-10.0934
令人	-10.0934
豈知	-10.094
互	-10.095
一名	-10.0956
老人	-10.097
有天下	-10.0974
伺	-10.0992
罹	-10.0993
媚	-10.0994
翳	-10.0996
焕	-10.0999
殉	-10.1
瓜	-10.1
讒	-10.1001
彊	-10.1002
斧	-10.1002
其所以	-10.1003
逈	-10.1004
其家	-10.1005
茍	-10.1006
雷霆	-10.1006
竇	-10.1007
粗	-10.1012
畆	-10.1017
快樂	-10.1018
曰朕	-10.1029
喜怒	-10.1033
財帛	-10.1039
不易	-10.1041
萬事	-10.1048
風吹	-10.1054
九天玉闕	-10.1065
流行	-10.1075
存亡	-10.1082
安能	-10.1106
不息	-10.1109
若無	-10.1109
不盡	-10.1121
何所	-10.1132
不得不	-10.1141
諸神	-10.1149
則以	-10.1176
潭	-10.1185
泊	-10.1192
無患	-10.1192
五日	-10.1196
濤	-10.12
闘	-10.1202
弃	-10.1203
駢	-10.1203
百萬	-10.1204
棟	-10.1204
懲	-10.1206
蠻	-10.1207
冤	-10.1211
巡	-10.1211
盆	-10.1212
憶	-10.1214
噬嗑	-10.1214
一切衆生	-10.1214
其義	-10.1215
狹	-10.1216
閔	-10.1216
齎	-10.1216
峪	-10.1219
十餘	-10.1223
无妄	-10.1228
之餘	-10.1233
焚香	-10.1236
音吉祥檀熾鈞	-10.1244
洲	-10.1247
遊於	-10.1248
九三	-10.1249
讀書	-10.1256
之力	-10.1258
之罪	-10.126
以求	-10.1262
大抵	-10.1281
人倫	-10.1296
而上	-10.1299
人情	-10.1305
以道	-10.1311
諸將	-10.1321
故無	-10.1349
廟旺	-10.136
文帝	-10.1363
天福	-10.1374
因其	-10.138
乎天	-10.1386
金石	-10.1392
筵	-10.1394
物而	-10.1413
彈	-10.1414
初二	-10.1416
乃以	-10.1416
嚮	-10.1418
遮	-10.1418
鑄	-10.1419
膝	-10.142
明道	-10.1421
毎	-10.1423
湘	-10.1423
僊	-10.1425
聊	-10.1427
其君	-10.143
弑	-10.1431
滄海	-10.1431
最上	-10.1434
疊	-10.1435
其功	-10.1439
板	-10.144
孰爲	-10.144
冥冥	-10.1446
雖欲	-10.1453
以禮	-10.1461
將以	-10.1465
氏之	-10.147
久之	-10.1472
天文	-10.1476
功名	-10.1486
至德	-10.1487
宫主	-10.1488
即是	-10.1488
者雖	-10.1489
祉	-10.1493
而可	-10.1494
青帝	-10.1495
觀者	-10.1505
氣象	-10.1505
所當	-10.152
爲本	-10.1526
何有	-10.1538
三百	-10.1539
則又	-10.154
可與	-10.1549
異也	-10.1558
哉夫	-10.1563
五方	-10.157
老聃	-10.1572
不作	-10.1575
持經	-10.1584
神功	-10.1592
中央	-10.1597
無妄	-10.1598
遠矣	-10.1606
入於	-10.1609
豈可	-10.1609
幾何	-10.1609
取其	-10.161
三公	-10.161
無方	-10.1613
揮	-10.1628
軀	-10.1633
洩	-10.1634
拯	-10.1635
陣	-10.1636
腸	-10.1637
剪	-10.1637
蟠	-10.1638
伏㠯	-10.1638
闔	-10.1638
鈞	-10.1639
蒸	-10.164
霽	-10.164
沐浴	-10.1641
偷	-10.1641
韋	-10.1641
貸	-10.1641
苑	-10.1641
倪	-10.1642
須臾	-10.1644
罕	-10.1644
咲	-10.1646
躔	-10.1647
無咎	-10.1647
虹	-10.1648
泠	-10.1649
跂	-10.1649
鈴	-10.1651
宏	-10.1656
易曰	-10.1658
此道	-10.1668
於心	-10.167
非但	-10.1673
吉象曰	-10.168
歷代	-10.168
始終	-10.1694
三寳	-10.1707
不識	-10.171
百世	-10.1719
水中	-10.1724
上六	-10.1725
金陵	-10.1725
修道	-10.1726
而卒	-10.1733
物物	-10.1734
天機	-10.1735
者矣	-10.1736
開元	-10.1745
曾子	-10.1753
之美	-10.1757
大將軍	-10.1764
之迹	-10.1774
之靈	-10.1779
豈無	-10.1779
入廟	-10.1781
便是	-10.1791
七八	-10.1793
無邊	-10.1797
玄宗	-10.1806
忽然	-10.1808
右第	-10.1827
生于	-10.1829
齡	-10.1848
尉	-10.1852
汎	-10.1855
揺	-10.1855
代天師諱	-10.1856
膚	-10.1856
靄	-10.1858
榖	-10.1858
綺	-10.1859
九十	-10.1859
撓	-10.186
日新	-10.186
熙	-10.186
菩薩	-10.186
驛	-10.186
歴	-10.1861
帳	-10.1862
鋒	-10.1864
躁	-10.1865
徼	-10.1866
柴	-10.1866
爲善	-10.1867
太史	-10.1868
頒	-10.1868
混沌	-10.1869
隸	-10.1871
不堪	-10.1871
兔	-10.1872
宥	-10.1876
有此	-10.188
之寳	-10.1887
而求	-10.1891
白鶴	-10.1897
太素	-10.1901
有形	-10.1917
之分	-10.1926
登封	-10.1927
故其	-10.1928
乎曰	-10.1934
中正	-10.194
道路	-10.1951
司命	-10.1956
天嗣	-10.1967
南極	-10.197
祖師	-10.1978
之可	-10.1981
綸	-10.1988
諸仙	-10.1999
仲尼曰	-10.2001
先帝	-10.2001
之狀	-10.2003
擎㳺	-10.2005
從此	-10.202
杯	-10.2021
皆得	-10.2022
太公	-10.2029
一二	-10.2032
人主	-10.2036
伏以	-10.2037
宛	-10.2039
或曰	-10.2051
謚	-10.2053
受其	-10.2055
千萬	-10.206
毅	-10.2061
甞	-10.2064
者謂	-10.2066
無功	-10.2074
有疾	-10.2075
喬	-10.2077
纏	-10.2077
誘	-10.2081
命宫	-10.2081
于此	-10.2083
沛	-10.2084
畔	-10.2085
蟻	-10.2085
咫尺	-10.2085
漿	-10.2087
匠	-10.2088
蹤	-10.2088
艾	-10.2089
瘡	-10.2091
斥	-10.2091
驟	-10.2092
扇	-10.2093
天性	-10.2095
冒	-10.2096
叟	-10.2097
蹟	-10.2097
三四	-10.2097
窟	-10.2097
浴	-10.2097
𡨋	-10.2099
▲	-10.2101
註云	-10.2104
肺	-10.2106
粹	-10.2106
而止	-10.2121
泰山之	-10.2131
之聲	-10.2135
平安	-10.214
若不	-10.2148
得地	-10.2149
誦經	-10.2151
之極	-10.2153
有二	-10.2159
神呪	-10.2163
是以聖人	-10.2169
心不	-10.2178
之恩	-10.2184
不由	-10.2198
自此	-10.2201
於前	-10.2205
也雖	-10.2217
河南	-10.2218
杳	-10.2229
不去	-10.2247
偈	-10.2247
分别	-10.2253
豈能	-10.2254
失之	-10.2263
之實	-10.2267
無人	-10.2273
自知	-10.229
祇	-10.2294
濯	-10.2294
牝	-10.2298
古者	-10.2301
徽	-10.2302
如在	-10.2303
元氣	-10.2304
邀	-10.2308
未至	-10.2309
滛	-10.2311
惹	-10.2315
吸	-10.2316
諒	-10.2318
咽	-10.2318
躋	-10.2319
奴	-10.232
涼	-10.232
睦	-10.232
嗜	-10.2321
炭	-10.2322
轍	-10.2322
鬻	-10.2322
恍惚	-10.2322
巒	-10.2322
剖	-10.2322
攷	-10.2323
汪	-10.2324
岑	-10.2324
扁	-10.2325
諌	-10.2325
倘	-10.2327
圃	-10.2328
虔誠	-10.2328
夙夜	-10.2329
度人	-10.2331
勾	-10.2334
故不	-10.2337
居中	-10.234
則其	-10.2342
口舌	-10.2348
復生	-10.235
柄	-10.2358
在下	-10.2362
者則	-10.2365
第十	-10.2365
耳非	-10.2378
法界	-10.2384
與我	-10.2388
九天金闕	-10.2389
而歸	-10.2403
大衆	-10.2411
裔	-10.2412
八十一	-10.2412
其能	-10.2427
之要	-10.243
一毫	-10.2434
妙化	-10.2435
歸于	-10.244
其可	-10.2446
此之謂	-10.2454
署	-10.2468
官禄	-10.2477
二字	-10.2481
之前	-10.2485
自己	-10.2486
世俗	-10.2489
各自	-10.2489
可得而	-10.2501
壽命	-10.2507
而化	-10.2514
奉行	-10.2517
碧霞	-10.2519
不改	-10.2531
當以	-10.2534
高上	-10.2546
熊	-10.2547
隣	-10.2548
鈎	-10.2549
跌	-10.255
黍	-10.255
踪	-10.2551
子貢	-10.2555
繪	-10.2556
嫡	-10.2557
鷹	-10.2557
荀	-10.2557
跳	-10.2557
段	-10.2558
札	-10.256
選擇	-10.2561
區區	-10.2562
羡	-10.2562
況	-10.2563
惕	-10.2563
頽	-10.2564
疇	-10.2564
又以	-10.2567
元始天尊	-10.2567
址	-10.2567
銷	-10.2568
数	-10.2568
酬	-10.2574
者乃	-10.2578
公之	-10.2583
是已	-10.2585
洪武	-10.2589
病者	-10.2589
副使	-10.259
普度	-10.2605
子弟	-10.2608
門户	-10.2608
可乎	-10.2608
在外	-10.262
者哉	-10.2621
而至	-10.2622
浮雲	-10.2624
山河	-10.2628
恭惟	-10.2629
愛之	-10.2632
不肖	-10.2633
以生	-10.2634
四象	-10.2634
之教	-10.2653
無疆	-10.267
三子	-10.2682
矣故曰	-10.2689
在人	-10.2693
門人	-10.2712
老氏	-10.2722
自爲	-10.2722
安寧	-10.2731
山下	-10.2733
吉祥	-10.2736
言者	-10.2744
其父	-10.2749
州人	-10.2759
帝王之	-10.2768
大事	-10.2773
九州	-10.2782
昨	-10.2782
三官	-10.2784
宸	-10.2788
盲	-10.279
戈	-10.2792
料	-10.2793
志心	-10.2797
俞	-10.2799
孔雀明王	-10.2799
促	-10.28
洒	-10.28
擲	-10.2801
嗔	-10.2801
涕	-10.2801
竈	-10.2802
抽	-10.2802
悠悠	-10.2803
駐	-10.2804
鳩	-10.2804
村	-10.2805
壘	-10.2805
則天下	-10.2806
梓	-10.2808
詢	-10.2808
腎	-10.2809
恪	-10.281
株	-10.2811
喧	-10.2812
詎	-10.2812
弘道録	-10.2816
姿	-10.2816
俯仰	-10.2817
𡻕	-10.2818
夫子之	-10.2818
无咎象曰	-10.2819
鳳凰	-10.2824
救苦	-10.2831
歡喜	-10.2837
有不	-10.2837
太山	-10.2849
之憂	-10.2856
下降	-10.2858
也彼	-10.2858
萬古	-10.286
岱嶽	-10.2861
遠近	-10.2867
相見	-10.2867
二十六	-10.2873
神霄	-10.2878
宗廟	-10.2887
門外	-10.2894
江南	-10.2901
未盡	-10.2901
玉闕	-10.2909
玄元	-10.2913
之尊	-10.2918
信之	-10.2918
終也	-10.2926
化生	-10.2927
宫室	-10.2927
上昇	-10.2928
出乎	-10.2932
女人	-10.2955
誰能	-10.2968
順行	-10.2976
三光	-10.2981
工夫	-10.2992
禄動	-10.2995
自爾	-10.3004
二十二	-10.301
虚空	-10.3011
不失其	-10.3012
無能	-10.3014
徃而	-10.3016
之才	-10.3018
丞	-10.3018
週	-10.3018
此所以	-10.302
寍	-10.302
傑	-10.3026
故聖人	-10.3027
宦	-10.3031
系	-10.3039
㓛	-10.3041
一陽	-10.3043
澹	-10.3044
翟	-10.3045
蓄	-10.3045
恍	-10.3046
昴	-10.3048
團	-10.3048
姻	-10.3049
屍	-10.305
扣	-10.305
沾	-10.305
繇	-10.3053
赫赫	-10.3054
徘徊	-10.3055
價	-10.3055
誨	-10.3055
得中	-10.3056
正一嗣教	-10.3056
爪	-10.3057
侍郎	-10.3057
妬	-10.3057
衷	-10.3058
歆	-10.3058
云云	-10.3062
猷	-10.3062
雕	-10.3062
劔	-10.3063
其始	-10.3065
鱗	-10.3068
符籙	-10.307
慎	-10.3072
天心	-10.3074
十餘年	-10.3079
混合	-10.309
扵此	-10.3092
斯文	-10.3108
光大	-10.3119
惜乎	-10.312
無異	-10.312
不可得而	-10.3129
五岳	-10.3135
方便	-10.3136
或以	-10.3148
存焉	-10.3151
則必	-10.3154
鄉人	-10.3156
白虎	-10.316
日觀峰	-10.3172
於物	-10.3175
福地	-10.3187
有感	-10.3187
靈文	-10.32
聲名	-10.3206
與其	-10.3206
不違	-10.3207
之私	-10.3213
日出	-10.3213
爲天子	-10.3216
東華	-10.3222
此其	-10.323
靈應	-10.3236
礙	-10.3252
而民	-10.3254
而立	-10.3263
獨立	-10.3268
盛德	-10.327
之謀	-10.3281
十一年	-10.3282
知道	-10.3282
問曰	-10.3288
何不	-10.3293
欣	-10.3293
臣之	-10.3296
既而	-10.3297
孝子	-10.3299
寃	-10.33
周天	-10.3302
忤	-10.3307
足矣	-10.3308
誼	-10.3309
羸	-10.331
餙	-10.3311
祁	-10.3312
風雲	-10.3313
舅	-10.3313
韶	-10.3314
溝	-10.3314
拙	-10.3315
十日	-10.3316
磬	-10.3318
㸃	-10.332
廿	-10.3321
幢	-10.3322
所生	-10.3326
其親	-10.3327
御帳	-10.3327
謨	-10.3327
所能	-10.3327
不啻	-10.3332
言曰	-10.3335
所由	-10.3339
諸子	-10.334
堅固	-10.334
也苟	-10.3342
丹田	-10.3358
譬如	-10.3362
度主	-10.3371
毛頭	-10.3372
何事	-10.3392
無他	-10.3392
之制	-10.3394
不應	-10.3396
亦以	-10.3399
利害	-10.341
積善	-10.3418
第四	-10.3423
王室	-10.3423
得一	-10.3424
好事	-10.3427
三山	-10.3432
星斗	-10.3437
其大	-10.3456
用事	-10.3457
朋友	-10.346
知人	-10.3461
入于	-10.3462
則民	-10.3476
不疑	-10.3488
中書	-10.3488
於朝	-10.3503
者即	-10.3506
立廟	-10.3516
文明	-10.3519
千載	-10.3519
海上	-10.3538
上皇	-10.3538
奪其	-10.355
在位	-10.3554
政事	-10.3556
五千	-10.3556
先君	-10.3558
奕	-10.3561
之民	-10.3564
漂	-10.3566
滌	-10.3567
弔	-10.3567
稻	-10.3568
樊	-10.357
瘟	-10.3571
詰	-10.3571
渭	-10.3573
巷	-10.3574
榻	-10.3575
縈	-10.3575
覓	-10.3575
譚	-10.3575
裴	-10.3577
股	-10.3578
瀉	-10.3578
閒	-10.3579
寒暑	-10.358
之用	-10.3581
長子	-10.3581
跋	-10.3582
萬曆	-10.3586
紅鸞	-10.359
称	-10.3591
曰昔	-10.3594
言語	-10.3598
田宅	-10.3599
尚饗	-10.3601
問之	-10.3615
二五	-10.3616
之所爲	-10.3636
物皆	-10.3639
忠臣	-10.3654
厥後	-10.3655
三皇	-10.3661
雖曰	-10.3662
二日	-10.3665
十二年	-10.3665
聖衆	-10.3669
歲合	-10.3671
清靜	-10.3674
后土	-10.3675
不須	-10.3675
身心	-10.3682
四季	-10.3684
論語	-10.3684
不起	-10.3687
上曰	-10.3688
高明	-10.3693
人道	-10.3716
第五	-10.3721
斤	-10.3728
不入	-10.3733
無復	-10.3733
長存	-10.3739
之國	-10.3739
而猶	-10.3749
之方	-10.3751
相從	-10.3757
所遇	-10.3759
於内	-10.3762
于天	-10.3772
吾聞	-10.3775
至理	-10.3779
未見	-10.3796
無益	-10.3798
無爲而	-10.3802
生靈	-10.3805
嵩	-10.3815
羲	-10.3816
莽	-10.3821
當其	-10.383
稀	-10.3831
太尉	-10.3835
焰	-10.3837
臯	-10.3837
蟄	-10.3839
無註未濟	-10.3839
冰	-10.3839
疲	-10.3839
而起	-10.3839
戯	-10.384
寥	-10.3841
餐	-10.3841
鹽	-10.3841
唇	-10.3842
減	-10.3843
煩惱	-10.3843
豊	-10.3844
竿	-10.3844
番	-10.3844
懋	-10.3844
轡	-10.3845
髪	-10.3846
僻	-10.3846
憩	-10.3846
薨	-10.3847
渴	-10.3847
下民	-10.3847
迯	-10.3849
袁	-10.385
譏	-10.3851
御製	-10.3851
静	-10.3851
勵	-10.3852
銜	-10.3852
涵	-10.3854
黒	-10.3855
臘	-10.3859
無註師	-10.3863
不義	-10.3864
漢天師	-10.3865
何由	-10.3867
級	-10.3868
止於	-10.387
庚申	-10.387
酒食	-10.3871
即得	-10.3875
洛陽	-10.3877
也亦	-10.3879
人君	-10.3883
可以見	-10.3884
戒之	-10.3884
尚未	-10.3893
矣其	-10.3895
純陽	-10.3897
之誠	-10.3901
者言	-10.3904
神王	-10.3908
江海	-10.3911
者蓋	-10.3922
二十五	-10.3928
見於	-10.393
勉之	-10.393
敢有	-10.3937
箕子	-10.3941
乾之	-10.3942
靈寶	-10.3946
萬象	-10.395
任其自	-10.3951
一心	-10.3951
篇云	-10.3956
紫雲	-10.3957
而動	-10.396
岱岳	-10.3961
在世	-10.3968
非是	-10.3969
黄河	-10.397
聲色	-10.3985
明月	-10.3986
大慈	-10.4002
孟子曰	-10.4003
以安	-10.4004
所知	-10.4005
浙	-10.4006
不寧	-10.4013
天仙	-10.4016
不傷	-10.4017
大德	-10.4019
服之	-10.402
有得	-10.4025
二曰	-10.4029
入室	-10.4031
修眞	-10.4037
雲氣	-10.4039
立祠	-10.4043
爲福	-10.4046
中原	-10.4048
凶星	-10.4052
不吉	-10.4053
退而	-10.4053
知者	-10.4055
付之	-10.4058
南宫	-10.4059
昊	-10.4059
取之	-10.4076
爲相	-10.4079
而作	-10.4083
之臣	-10.4087
不敬	-10.4092
乃知	-10.4093
用其	-10.41
媪	-10.4101
冕	-10.4103
蒲	-10.4109
暨	-10.4111
啼	-10.4113
岡	-10.4114
償	-10.4115
伊尹	-10.4118
猿	-10.4118
使其	-10.4118
睡	-10.4118
愍	-10.412
方時化曰	-10.4121
父兄	-10.4121
蓮花	-10.4121
忘其	-10.4123
擒	-10.4124
粉	-10.4125
和今將聖德虔誠讃	-10.4125
贅	-10.4125
難以	-10.4126
不仁	-10.4127
漆	-10.4129
綵	-10.4129
陀	-10.4129
打	-10.4129
謾	-10.413
畒	-10.413
曰夫	-10.4131
蘿	-10.4131
灣	-10.4131
智慧	-10.4134
迪	-10.4134
圡	-10.4136
太虚	-10.4136
三曰	-10.4137
了悟	-10.4139
生生	-10.4139
不遇	-10.4141
夜半	-10.4142
相得	-10.4142
爲國	-10.4145
人能	-10.4153
之性	-10.4153
聽之	-10.4161
用兵	-10.4166
義也	-10.4176
雲房	-10.4179
明神	-10.418
復有	-10.4184
已而	-10.4189
其氣	-10.4192
齊侯	-10.4201
好惡	-10.4205
之境	-10.4207
名利	-10.4208
諷	-10.4208
太白	-10.4218
棄之	-10.4221
常以	-10.4222
文字	-10.4236
二公	-10.4243
之乾	-10.4245
不我	-10.4245
聞道	-10.4248
其過	-10.425
唐虞	-10.4256
洞玄	-10.4256
行道	-10.426
則曰	-10.426
太常	-10.4266
無用	-10.4267
也如	-10.4268
而欲	-10.4268
可知	-10.4269
將何	-10.4271
殺人	-10.4283
之母	-10.4284
曰今	-10.4292
東封	-10.4293
萬世之	-10.4293
歲殿	-10.43
人身	-10.4305
濟度	-10.4308
有無	-10.4309
其死	-10.4313
十七年	-10.4323
也既	-10.4331
不順	-10.4332
此則	-10.4332
必先	-10.4333
神氣	-10.4333
萬國	-10.4335
之録曰	-10.4338
萬法	-10.4343
爲害	-10.4344
台	-10.4363
善人	-10.4366
億萬	-10.4369
也上六	-10.437
注生	-10.4374
氣之	-10.4383
脯	-10.4388
如意	-10.4389
則不能	-10.4391
化身	-10.4393
解曰占家宅	-10.4393
媒	-10.4395
豈惟	-10.4396
歇	-10.44
貝	-10.44
衮	-10.4401
無註兊	-10.4401
痊	-10.4401
嗚	-10.4401
簿	-10.4402
殖	-10.4402
無註豐	-10.4404
侯王	-10.4404
彦	-10.4405
蝗	-10.4405
挺	-10.4405
琅	-10.4405
壊	-10.4406
眩	-10.4406
婢	-10.4406
霑	-10.4407
奬	-10.4407
饋	-10.4409
壹	-10.441
壓	-10.441
倡	-10.4411
骨肉	-10.4412
㳺	-10.4414
灼	-10.4414
諛	-10.4416
之計	-10.4416
𡨚	-10.4417
沿	-10.4418
慙	-10.4418
之家	-10.4419
在後	-10.4419
蓍	-10.4419
自化	-10.442
簫	-10.4421
萬壑	-10.4429
虚無	-10.4431
何人	-10.4432
說經	-10.444
六畜	-10.4447
水府	-10.4449
三陽	-10.4457
海内	-10.4481
禮部	-10.4481
暇	-10.4492
大義	-10.4496
相侵	-10.4497
其地	-10.45
皆爲	-10.45
南陽	-10.4504
也六五	-10.4508
常在	-10.4516
何須	-10.4522
分野	-10.4524
異於	-10.4537
守其	-10.4553
宫觀	-10.4562
乃至	-10.4562
太虛	-10.4569
不能自	-10.457
悉皆	-10.4571
同心	-10.4574
有異	-10.4587
也是	-10.4594
亦然	-10.4604
爲物	-10.4607
生人	-10.4612
在前	-10.4612
恐其	-10.4618
肖	-10.462
列子	-10.4621
居下	-10.4621
始也	-10.4622
三才	-10.4625
不爭	-10.4625
必欲	-10.463
此星	-10.4638
所用	-10.4639
在焉	-10.4639
生也	-10.4639
心而	-10.4641
之職	-10.4647
授以	-10.465
彖	-10.465
衢	-10.4651
而何	-10.4657
望之	-10.4659
待之	-10.4669
變而	-10.4669
有名	-10.467
蛟	-10.4671
大法	-10.4675
無註大壯	-10.4676
漢書	-10.4679
不從	-10.4681
暈	-10.4681
里許	-10.4685
頸	-10.4688
浚	-10.4689
恱喜	-10.469
僉	-10.4691
照臨	-10.4694
狩	-10.4694
蘆	-10.4695
淚	-10.4696
無註蹇	-10.4696
話	-10.4697
樵	-10.4698
無註震	-10.4698
搆	-10.4699
賞罰	-10.4699
絹	-10.4699
莫知	-10.47
氛	-10.47
寔	-10.47
宵	-10.47
筐	-10.4701
殄	-10.4702
檄	-10.4702
疏	-10.4703
竄	-10.4703
道德之	-10.4703
仙妃	-10.4703
綬	-10.4703
蹶	-10.4703
浩刼	-10.4704
讎	-10.4705
娱	-10.4705
陪	-10.4706
剛柔	-10.4706
莫測	-10.4706
欝	-10.4706
管仲	-10.4706
茫茫	-10.4707
曩	-10.4707
貯	-10.4708
縹緲	-10.4709
悃	-10.4712
大國	-10.4712
奔走	-10.4713
長跪	-10.4714
炳	-10.4714
盜賊	-10.4714
諾	-10.4714
𨼆	-10.4715
朝夕	-10.4724
與夫	-10.4726
道經	-10.4726
石室	-10.4729
下方	-10.4734
上聖	-10.4739
紫府	-10.4739
夫妻	-10.4743
問於	-10.4744
有三	-10.4748
可用	-10.4751
耳夫	-10.4756
此乃	-10.4758
昊天	-10.476
執政	-10.4761
一度	-10.4764
成就	-10.4769
未始有	-10.4769
名爲	-10.4776
先儒	-10.4782
著書	-10.4789
得此	-10.4793
世世	-10.4799
萬靈	-10.4803
信乎	-10.4818
而致	-10.4826
始皇	-10.4829
刑刃	-10.4831
之表	-10.4837
未始	-10.4846
異日	-10.4848
故事	-10.4849
貞觀	-10.4854
非吾	-10.4867
未嘗有	-10.4867
士大夫	-10.4869
宣王	-10.487
此其所以	-10.4871
事君	-10.4875
造化之	-10.4879
矣今	-10.4882
冬至	-10.4907
乎故	-10.4915
以死	-10.4921
下界	-10.4922
其次	-10.4927
於其間	-10.4928
天神	-10.4929
出而	-10.4934
君臣之	-10.4935
詩書	-10.4941
也六二	-10.4955
國朝	-10.4959
之扵	-10.496
雖不	-10.4961
斯言	-10.4963
事也	-10.4964
從而	-10.4965
聖賢之	-10.4974
爲二	-10.4979
三十年	-10.4982
昔者	-10.4982
之號	-10.4984
聾	-10.4986
也惟	-10.499
無註謙	-10.4992
覲	-10.4992
鳯	-10.4994
忻	-10.4995
無註小過	-10.4996
無註泰	-10.4996
透	-10.4996
一體	-10.4996
盻	-10.4997
珮	-10.4997
所宜	-10.4997
訛	-10.4997
譴	-10.4997
牀	-10.4998
諸山	-10.4998
蟾	-10.4998
惶	-10.4998
斛	-10.4999
楹	-10.5002
叢	-10.5002
不畏	-10.5002
嫗	-10.5003
無註井	-10.5003
囂	-10.5004
稼	-10.5004
懐	-10.5004
穩	-10.5005
鬚	-10.5005
嶂	-10.5005
壅	-10.5006
攘	-10.5006
派	-10.5006
叨	-10.5007
孔雀	-10.5007
擔	-10.5009
插	-10.5009
之氣諱	-10.5009
醇	-10.5011
縷	-10.5012
迂	-10.5012
租	-10.5013
高功	-10.5015
稅	-10.5016
旣濟	-10.5017
恢	-10.5017
匹夫	-10.5017
十九年	-10.5019
日中	-10.5021
從事	-10.5021
太上老君	-10.5021
丙午	-10.5023
筆乘	-10.5025
矣録曰	-10.5025
襄公	-10.5026
淮南	-10.5033
神宗	-10.5034
恭敬	-10.5042
羽士	-10.5045
入山	-10.5046
大喜	-10.5049
許之	-10.505
而不爲	-10.5052
弘治	-10.5054
遂以	-10.5054
凡人	-10.5058
十八盤	-10.5059
必得	-10.5065
九霄	-10.5065
神咒	-10.5066
不平	-10.5073
不窮	-10.5073
不可不	-10.5074
未及	-10.5093
爲禍	-10.5096
尋常	-10.5102
高下	-10.5102
六經	-10.5104
二十一	-10.5106
智者	-10.5122
臣等	-10.5126
中外	-10.5134
造物	-10.5146
非不	-10.5148
化形	-10.5148
世家	-10.5154
者豈	-10.5157
山水	-10.5159
此時	-10.5162
江湖	-10.5162
在我	-10.5164
九重	-10.5167
萬物皆	-10.517
大學	-10.5176
欲求	-10.5179
未曾	-10.5185
而退	-10.5188
矣又	-10.519
僧道	-10.5192
必以	-10.5195
德也	-10.5201
之報	-10.5206
之圖	-10.5212
求其	-10.5214
誦此經	-10.5218
三章	-10.5224
上古	-10.523
本日	-10.5232
相生	-10.5233
不合	-10.5237
自天	-10.5246
也上九	-10.5248
不得其	-10.5249
一字	-10.525
萬方	-10.5262
貺	-10.5266
剛中	-10.5272
所好	-10.5273
安得不	-10.5279
今觀	-10.5288
天行	-10.529
氣也	-10.5296
恱	-10.5297
無註大有	-10.5298
明帝	-10.5301
上仙	-10.5301
卞	-10.5302
浸	-10.5302
天禄	-10.5303
無註大過	-10.5307
蔑	-10.5308
孩	-10.5311
無註中孚	-10.5311
妹	-10.5311
萊	-10.5312
黍稷	-10.5313
無註否	-10.5313
熾	-10.5313
帖	-10.5314
膳	-10.5314
檀	-10.5314
庠	-10.5315
不愛	-10.5315
襟	-10.5315
隕	-10.5315
無註巽	-10.5316
惰	-10.5316
蛻	-10.5317
在此	-10.5318
獅子	-10.5318
本命	-10.5318
其妻	-10.5318
彙	-10.5318
檜	-10.5319
鎻	-10.5319
黙	-10.532
帷	-10.532
廊	-10.5321
構	-10.5321
顛倒	-10.5322
旄	-10.5322
冐	-10.5322
涸	-10.5322
飭	-10.5322
繡	-10.5322
眺	-10.5323
𢙣	-10.5323
儔	-10.5324
利有攸徃	-10.5324
纖	-10.5324
幡	-10.5324
椿	-10.5324
綴	-10.5324
惡乎	-10.5326
急急如律令	-10.5328
三尺	-10.5329
神名	-10.5329
変	-10.533
𠔃	-10.5336
法師	-10.5338
雲霧	-10.534
而未	-10.5342
靈公	-10.5343
不幸	-10.5344
泰嶽	-10.5344
瞻仰	-10.5345
至大	-10.5346
玄妙	-10.5347
祀典	-10.5352
良久	-10.5353
三人	-10.5357
勞苦	-10.536
得志	-10.5363
長短	-10.5364
直上	-10.5364
一章	-10.5369
鷟曰	-10.5373
先王之	-10.5379
之福	-10.5382
本來	-10.5404
何足	-10.5406
讀之	-10.5408
理也	-10.5409
有知	-10.5417
不可爲	-10.5422
先是	-10.5429
吏民	-10.543
五松	-10.5435
胡爲	-10.5435
周之	-10.5436
經典	-10.5436
與天地	-10.5438
七寳	-10.544
中心	-10.5442
根本	-10.5452
一月	-10.5458
于今	-10.5462
顔子	-10.5463
皇上	-10.5464
則吉	-10.5465
常住	-10.5467
其用	-10.5469
數百	-10.5471
無道	-10.5474
金剛	-10.5481
虛空	-10.5486
自任	-10.5489
不論	-10.5492
故謂之	-10.5492
大王	-10.5492
王孫	-10.5502
也六三	-10.5504
天地之間	-10.5505
侣	-10.5512
敢問	-10.5515
及諸	-10.5522
地府	-10.5528
成化	-10.553
可爲	-10.5539
其情	-10.5543
而弗	-10.5543
不正	-10.5544
其知	-10.5551
出家	-10.5555
之賢	-10.5555
無愧	-10.5557
十三年	-10.5558
焉故	-10.5561
一物	-10.5565
之權	-10.5568
曰陛下	-10.5568
金光	-10.5572
謂曰	-10.5575
有是	-10.5576
也豈	-10.558
之屬	-10.5584
庶人	-10.5587
水帝大龍王	-10.5595
遼	-10.5599
於神	-10.5602
大光明	-10.5603
去其	-10.5604
當年	-10.5605
得見	-10.5611
骸	-10.5612
無註大畜	-10.5616
無註艮	-10.5619
中道	-10.562
昆	-10.5621
傳曰	-10.5621
梟	-10.5622
無註同人	-10.5622
廓	-10.5625
二女	-10.5625
厨	-10.5627
針	-10.5629
餓	-10.5629
邈	-10.5629
無註頥	-10.5629
終無	-10.5631
聰	-10.5632
茹	-10.5633
湛	-10.5634
報應	-10.5634
浦	-10.5635
栗	-10.5635
槐	-10.5635
也九三	-10.5636
無註比	-10.5636
淹	-10.5638
滕	-10.5639
㤗	-10.5639
方且	-10.564
呵	-10.564
做	-10.564
屑	-10.5641
谿	-10.5642
酷	-10.5642
賫	-10.5642
慝	-10.5643
玄天	-10.5643
慘	-10.5643
寰	-10.5643
麾	-10.5644
洋	-10.5644
撥	-10.5644
尔	-10.5644
隘	-10.5645
寐	-10.5645
臯陶	-10.5647
者多	-10.5648
苞	-10.5648
笙	-10.5648
金華	-10.5649
噬	-10.5649
十三日	-10.565
析	-10.5651
体	-10.5651
冶	-10.5652
藍	-10.5652
燔	-10.5653
紫㣲	-10.5653
醴	-10.5653
華山	-10.5654
於上	-10.5655
雷電	-10.5662
甲辰	-10.5667
所聞	-10.5668
漢武帝	-10.5669
五六	-10.5671
无所	-10.5673
明王	-10.5678
叔向	-10.5681
萬仞	-10.5683
封爲	-10.5691
所求	-10.5693
自立	-10.5695
好生	-10.5696
榮華	-10.5697
此卦	-10.5698
劉氏	-10.5703
非我	-10.571
人臣	-10.5711
江西	-10.5713
之典	-10.5713
山靈	-10.5714
地支	-10.5715
子息	-10.5718
其文	-10.5721
無非	-10.5728
者也故	-10.5729
辭曰	-10.573
苟非	-10.5743
輕重	-10.5746
内有	-10.5747
憤	-10.5748
廟食	-10.575
配天	-10.5754
利用	-10.5756
之業	-10.576
所願	-10.5764
小子	-10.5765
於世	-10.5768
無二	-10.5771
秋毫	-10.578
永無	-10.578
涯	-10.5782
安居	-10.5782
風俗	-10.5782
有德	-10.5786
好學	-10.5787
號令	-10.5794
聞其	-10.5798
其罪	-10.581
汝等	-10.5817
奉天	-10.5817
當世	-10.5819
王子	-10.5819
上䟽	-10.5822
至元	-10.5825
言不	-10.5827
不立	-10.5827
也聖人	-10.583
諸儒	-10.5835
金人	-10.584
巽上	-10.5843
南國	-10.5849
形容	-10.585
三品	-10.5851
本朝	-10.5853
和合	-10.5857
尊經	-10.5859
金丹	-10.586
始於	-10.586
附録	-10.5861
持經人	-10.5861
所及	-10.5867
於是乎	-10.5868
江河	-10.5872
子産	-10.5874
其迹	-10.5875
也九二	-10.5875
之所由	-10.5877
聖德	-10.5889
五曰	-10.5893
妙行	-10.5896
再三	-10.5905
死不	-10.5906
論之	-10.5908
者不能	-10.5917
在乎	-10.5922
亦不能	-10.5926
周易	-10.5929
老子曰	-10.5936
亦曰	-10.594
有限	-10.5945
簾	-10.5947
一百	-10.5948
由此	-10.5952
日夜	-10.5956
諸星	-10.5956
無註明夷	-10.5957
陛	-10.5957
敞	-10.5957
瘦	-10.5958
城隍	-10.596
無註旣濟	-10.596
無註家人	-10.5962
梧	-10.5962
無註旅	-10.5963
䜛	-10.5964
三者	-10.5965
不獲	-10.5965
松栢	-10.5965
無註萃	-10.5965
輯	-10.5965
卵	-10.5966
棗	-10.5967
鴟	-10.5967
甕	-10.5967
即今	-10.5968
碣	-10.5968
觴	-10.5968
酆都	-10.5968
約束	-10.5969
嵐	-10.597
簷	-10.597
鯉	-10.597
無註坎	-10.597
之氣更受鍊	-10.597
沆	-10.597
填	-10.5971
釁	-10.5971
濃	-10.5971
蠢	-10.5972
睢	-10.5972
纓	-10.5973
讚	-10.5973
塵埃	-10.5973
乍	-10.5974
心無	-10.5974
迨	-10.5974
之象也	-10.5975
迭	-10.5975
駟	-10.5977
不殆	-10.5977
鬥	-10.5977
幅	-10.5977
釐	-10.5977
騫	-10.5977
無註臨	-10.5977
個	-10.5978
邸	-10.5979
亦可以	-10.5979
控	-10.5979
挈	-10.598
東山	-10.5981
郁	-10.5982
煞	-10.5982
忿	-10.5983
紏	-10.5983
莒	-10.5983
梗	-10.5987
數里	-10.5987
聰明	-10.5988
桃花	-10.5988
祈禱	-10.5989
乙酉	-10.5996
也嗚呼	-10.5996
按春秋	-10.5997
祠下	-10.5998
開闢	-10.5999
尊卑	-10.6
承天	-10.6003
子路	-10.6003
歷刼	-10.6005
未足	-10.6007
盥	-10.6007
命也	-10.6007
隱隱	-10.6008
說法	-10.6008
成子	-10.6011
者衆	-10.6011
乎若	-10.6012
多矣	-10.6015
悔亡	-10.6015
消除	-10.6017
理之	-10.6018
以後	-10.6021
隨時	-10.6024
天台	-10.6027
彼我	-10.6028
其時	-10.6028
散花	-10.6029
嗣教	-10.603
無言	-10.6032
不是	-10.6032
觀於	-10.6043
秦封	-10.6044
天君	-10.6049
龍穴	-10.6054
各有所	-10.6055
六甲	-10.6057
化形爲	-10.6063
動靜	-10.6065
正統	-10.6073
文王之	-10.6073
李氏	-10.6074
如法	-10.6078
以至於	-10.608
神神	-10.6095
衣服	-10.6096
不暇	-10.6097
所至	-10.6098
開明	-10.6099
白石	-10.61
元皇	-10.6106
也又曰	-10.6107
四夷	-10.6121
有意	-10.6127
先後	-10.6127
無註睽	-10.6128
坤下	-10.6131
宣帝	-10.6133
之域	-10.6135
唐書	-10.6136
治亂	-10.6145
未有不	-10.6145
知此	-10.6152
大業	-10.6155
耳故	-10.6157
天之所	-10.6161
爲汝	-10.6162
即此	-10.6164
太一	-10.6169
如來	-10.6172
以知	-10.6174
教主	-10.618
是其	-10.6183
不厭	-10.6185
自今	-10.6189
之期	-10.6194
不取	-10.6196
無一	-10.6198
本心	-10.6201
至真	-10.6204
僖公	-10.6207
不任	-10.6208
而入	-10.6209
一朝	-10.6211
罪人	-10.6212
莫如	-10.6215
開化	-10.6218
養生	-10.6219
齊王	-10.6227
祝曰	-10.6237
之智	-10.6238
受之	-10.6248
敢不	-10.6251
任之	-10.6258
乾下	-10.6259
何憂	-10.6261
如故	-10.6261
以德	-10.6262
夫唯	-10.6271
慚	-10.6285
高山	-10.6286
死於	-10.6288
天庫	-10.6289
無註噬嗑	-10.6299
檻	-10.6302
簪	-10.6307
眇	-10.6308
噴	-10.631
僵	-10.6311
嬴	-10.6312
無註歸妹	-10.6312
無註賁	-10.6312
黯	-10.6312
掠	-10.6313
増	-10.6313
斃	-10.6314
凋	-10.6314
蚤	-10.6314
捲	-10.6315
豆	-10.6315
培	-10.6315
怡	-10.6315
鷄鳴	-10.6316
裝	-10.6317
癡	-10.6317
平地	-10.6317
縛	-10.6317
戟	-10.6317
掖	-10.6318
無註坤	-10.6318
翕	-10.6318
姪	-10.6318
存心	-10.6319
霓	-10.6321
菊	-10.6321
换	-10.6321
大悲大願大聖大慈	-10.6322
無註升	-10.6323
迓	-10.6323
也九五	-10.6324
乹	-10.6324
踞	-10.6324
刊	-10.6324
安樂	-10.6325
綿綿	-10.6326
蕩蕩	-10.6327
者又	-10.6327
自來	-10.6329
挹	-10.633
蝕	-10.633
稔	-10.6331
溟	-10.6331
有慶	-10.6333
侍郞	-10.6333
塔	-10.6336
庚午	-10.6337
脾	-10.6337
兀	-10.6337
鋪	-10.6339
鎖	-10.6341
湛然	-10.6341
飛騰	-10.6342
神妙	-10.6342
其說	-10.6347
侍衛	-10.6348
愚按	-10.6348
壬午	-10.6349
入朝	-10.6355
祭酒	-10.6355
奉獻	-10.6355
修煉	-10.6359
孔氏	-10.6362
回首	-10.6363
丹臺	-10.6363
至則	-10.6367
也及	-10.6369
登山	-10.6369
而獨	-10.637
兆民	-10.6373
常存	-10.6373
行而	-10.6376
兩儀	-10.6379
或作	-10.6381
皆是	-10.6384
祈福	-10.6384
哉此	-10.6387
金玉	-10.6394
南面	-10.6397
而行之	-10.6401
九宫	-10.6408
梁父	-10.6413
皆非	-10.6417
者也夫	-10.6418
上變	-10.6419
太學	-10.642
與道	-10.6429
終身不	-10.643
太華	-10.6431
而今	-10.6432
弗能	-10.6435
之女	-10.6436
太空	-10.6441
河東	-10.6441
日月之	-10.6441
天寳	-10.6444
天堂	-10.6446
請問	-10.6447
聞而	-10.6454
結成	-10.6454
守之	-10.6455
千餘	-10.6456
八景	-10.6459
與子	-10.6459
吉利	-10.6461
能勝	-10.6469
彼此	-10.6471
昇天	-10.6473
惡曜	-10.6476
太過	-10.6476
室家	-10.6477
名號	-10.6482
四日	-10.6483
最爲	-10.6485
開張	-10.6491
吾不知	-10.6492
有喜	-10.6495
明矣	-10.6503
舜之	-10.651
萬劫	-10.6514
赤子	-10.6522
困於	-10.6526
二者	-10.6526
其國	-10.6527
用心	-10.6534
保其	-10.6535
不負	-10.6537
昭王	-10.6539
雲中	-10.6552
歸之	-10.6556
於地	-10.6559
生物	-10.6562
我獨	-10.6566
河伯	-10.6568
見而	-10.657
坎離	-10.6577
果有	-10.6578
不以爲	-10.6587
患難	-10.6588
脩身	-10.6593
志在	-10.6598
不可以不	-10.66
六龍	-10.6601
之哉	-10.6601
神也	-10.6601
明皇	-10.6601
方諸	-10.6603
諸人	-10.6605
何哉	-10.6606
其位	-10.6612
而後能	-10.6612
數也	-10.6612
但能	-10.6612
豁	-10.662
塊	-10.6627
諸生	-10.6628
惱	-10.6629
初五	-10.6629
善者	-10.663
仞	-10.6633
以濟	-10.6633
粒	-10.6634
中興	-10.6634
識之	-10.6639
尚有	-10.6642
誰知	-10.6644
中天	-10.6646
若非	-10.6647
代之	-10.6648
惇	-10.665
無註咸	-10.6653
鰲	-10.6658
無註小畜	-10.6661
刖	-10.6662
磴	-10.6663
頴	-10.6664
悚	-10.6665
挫	-10.6665
腦	-10.6665
鵠	-10.6666
隠	-10.6666
無註夬	-10.6666
璋	-10.6666
净	-10.6669
緊	-10.667
蠲	-10.667
稿	-10.667
凍	-10.667
規模	-10.6672
什	-10.6672
椽	-10.6672
捍	-10.6672
叩齒	-10.6673
衘	-10.6673
土地	-10.6673
豪傑	-10.6674
嚥	-10.6674
濫	-10.6674
兢	-10.6675
燦	-10.6675
俠	-10.6675
燎	-10.6675
翰林	-10.6676
宣子	-10.6676
彬	-10.6676
髓	-10.6677
煎	-10.6677
懺	-10.6678
三歲	-10.6679
芥	-10.6679
麒麟	-10.6679
猜	-10.6679
跛	-10.6681
皇太后	-10.6681
踴躍	-10.6682
指揮	-10.6682
沃	-10.6682
坡	-10.6682
以義	-10.6683
濮	-10.6686
辦	-10.6686
夸	-10.6687
徂徠	-10.6687
經法	-10.6687
菽	-10.6688
這	-10.6688
勉强	-10.6688
也筆乘	-10.6688
之辰	-10.6688
二十八宿	-10.6689
者以爲	-10.6691
頓首	-10.6692
募	-10.6693
爵禄	-10.6694
甘露	-10.6695
丙戌	-10.6695
光照	-10.6696
各以	-10.6697
昆弟	-10.6698
儼然	-10.6702
惟有	-10.6706
執事	-10.6707
丁卯	-10.6707
世所	-10.6712
艱難	-10.6714
秦松	-10.6715
不樂	-10.6715
後有	-10.6716
十六年	-10.6723
而徃	-10.6725
於中	-10.6727
布衣	-10.6731
惡人	-10.6732
比之	-10.6736
人亦	-10.674
有事	-10.6748
衆等	-10.6749
齋戒	-10.6751
吾子	-10.6754
誕生	-10.676
家貧	-10.6761
賢人	-10.6762
▁(	-10.6762
建立	-10.6766
用也	-10.6766
功曹	-10.6767
救度	-10.6772
禮也	-10.6774
孰謂	-10.6777
商人	-10.6778
者是	-10.6779
祝文	-10.6779
也知	-10.6781
久而	-10.6784
難也	-10.6784
矣吾	-10.6786
秦漢	-10.6789
九日	-10.6791
之稱	-10.6794
玄功	-10.6799
刻石	-10.6804
而終	-10.6806
道德經	-10.6809
復見	-10.6819
得生	-10.6825
成道	-10.6832
啓請	-10.684
飛龍	-10.6846
字道	-10.6847
也凡	-10.6848
則非	-10.6852
五代	-10.6852
蒼生	-10.6858
方其	-10.686
無爲也	-10.6867
或者	-10.688
之議	-10.688
此詩	-10.6883
頌曰	-10.6887
玄帝	-10.6889
方外	-10.6897
大夫松	-10.6898
八極	-10.6906
以文	-10.6908
同於	-10.6908
是知	-10.6909
之所以爲	-10.6913
西山	-10.6916
不廢	-10.6917
至仁	-10.6921
興起	-10.6921
禄山	-10.6923
幽王	-10.6925
處士	-10.6928
爲民	-10.6929
然其	-10.6931
始知	-10.6946
何故	-10.6967
安知	-10.6976
哀公	-10.6983
道君	-10.6984
然後知	-10.6986
情欲	-10.6989
自稱	-10.699
數年	-10.6994
陽明	-10.6995
世祖	-10.7002
遊乎	-10.7005
伐之	-10.7007
黄老	-10.7012
問道	-10.7024
無註渙	-10.7027
鳬	-10.7027
以此爲	-10.7027
親親	-10.7029
璞	-10.703
圜	-10.7031
而應	-10.7033
元亨利貞	-10.7033
瓶	-10.7034
無註需	-10.7035
渝	-10.7035
無註屯	-10.7035
叫	-10.7035
稼穡	-10.7035
祟	-10.7036
不遠	-10.7036
欠	-10.7037
鞏	-10.7037
冷	-10.7037
無註漸	-10.7037
迅	-10.7038
啖	-10.704
研	-10.7041
齧	-10.7041
悵	-10.7041
魅	-10.7041
鉤	-10.7041
逾	-10.7041
峭	-10.7042
醒	-10.7042
剋	-10.7043
喉	-10.7043
䰟	-10.7043
粧	-10.7043
霍	-10.7044
娣	-10.7044
無註鼎	-10.7044
攬	-10.7044
笠	-10.7044
懈	-10.7045
蚕	-10.7045
悮	-10.7046
叱	-10.7046
椎	-10.7046
雌雄	-10.7046
馨	-10.7047
杏	-10.7047
無餘	-10.7047
渥	-10.7048
伴	-10.7048
呼吸	-10.7048
彝	-10.7049
籤	-10.7049
烝	-10.7049
稚	-10.7049
碩	-10.7049
以報	-10.705
餓鬼	-10.705
鉅	-10.7051
無主	-10.7052
桐	-10.7052
入覲	-10.7053
瞰	-10.7053
催	-10.7054
繹	-10.7054
盗賊	-10.7056
一氣	-10.7057
濬	-10.7057
芽	-10.7058
曳	-10.7058
中國之	-10.7059
相去	-10.706
槨	-10.706
紹興	-10.7061
㝠	-10.7062
龍王	-10.7063
支離	-10.7064
止也	-10.7067
笏	-10.7067
丁亥	-10.707
乙卯	-10.7072
洞賓	-10.7074
祠宇	-10.7077
玉檢	-10.7078
振衣	-10.7086
門庭	-10.7086
之詩	-10.7086
也雖然	-10.7087
嵩山	-10.709
凡有	-10.709
癸未	-10.7094
判官	-10.7098
由來	-10.71
堂堂	-10.7101
許由	-10.7105
之治	-10.7105
難言	-10.7106
吉曜	-10.7111
演說	-10.7111
皆在	-10.7112
致祭	-10.7114
有光	-10.7114
治國	-10.7115
憂患	-10.7115
天地萬物	-10.7116
有子	-10.7116
目録	-10.7117
民安	-10.7119
丁未	-10.7124
石壁	-10.7128
乙丑	-10.7129
哀樂	-10.713
亨通	-10.7131
王弼	-10.7138
夜光	-10.714
丙子	-10.7141
戊子	-10.7142
是之謂	-10.7149
而使	-10.715
天官	-10.715
鰲峯	-10.7152
可免	-10.7153
之害	-10.7154
車馬	-10.7154
六十四	-10.7155
或云	-10.716
此所謂	-10.7161
司徒	-10.7163
)○	-10.7164
可使之	-10.7167
下元	-10.7168
艮下	-10.7168
道本	-10.7171
庚子	-10.7173
人則	-10.7177
萬物而	-10.7178
兊下	-10.7178
自成	-10.7179
是何	-10.7181
不測	-10.7184
復命	-10.7186
順而	-10.7188
更相	-10.7188
不拘	-10.7192
本末	-10.7196
此心	-10.7197
也唯	-10.7197
二十年	-10.7198
甘心	-10.7204
相繼	-10.7204
無疑	-10.7206
中宫	-10.7206
大㐫	-10.7215
全其	-10.7216
將安	-10.7217
流水	-10.7219
之仁	-10.7221
東行	-10.7221
皇經	-10.7227
白馬	-10.7229
勿用	-10.7237
入聖	-10.7241
度世	-10.7245
故言	-10.7247
惡之	-10.7249
己而	-10.7254
兖州	-10.7257
不孝	-10.7267
五老	-10.727
賢聖	-10.7273
有過	-10.728
皆然	-10.7281
是亦	-10.7281
事業	-10.7281
四正	-10.7283
成人	-10.7285
二十七	-10.7286
夫人之	-10.7288
伏念	-10.7296
風雷	-10.73
靈官	-10.7306
三寸	-10.7307
學問	-10.7314
不問	-10.7316
無害	-10.7318
朝元	-10.7318
非惟	-10.732
不可不知	-10.7322
斯人	-10.7326
一白	-10.7328
居之	-10.733
石上	-10.733
流傳	-10.7333
左手	-10.7334
宗師	-10.7334
三卷	-10.7336
大賢	-10.734
也六四	-10.734
亦主	-10.7352
秦王	-10.7352
者如	-10.7353
四章	-10.7364
而嘆	-10.7367
形體	-10.7368
怕	-10.737
周禮	-10.7375
物無	-10.7375
一切諸	-10.7379
示人	-10.7381
巍	-10.7381
之苦	-10.7384
道法	-10.7384
天樂	-10.7387
朱子	-10.739
之界	-10.7391
以相	-10.7392
於後	-10.7393
而難	-10.7396
天眞	-10.7396
四十九	-10.7397
敖	-10.7399
死矣	-10.7399
呉	-10.7402
大觀	-10.7404
保命	-10.7405
而後有	-10.741
鯀	-10.7413
耆	-10.7415
無註履	-10.7421
歲德	-10.7421
忙	-10.7421
非也	-10.7422
涇	-10.7422
罵	-10.7422
繆	-10.7422
竪	-10.7423
鞠	-10.7423
汾	-10.7423
軒轅	-10.7423
上書	-10.7424
法也	-10.7424
無註剥	-10.7425
捉	-10.7426
而爲之	-10.7426
健	-10.7426
乂	-10.7427
蟬	-10.7427
捫	-10.7427
佚	-10.7427
栖	-10.7427
蜩	-10.7427
趍	-10.7428
慄	-10.7429
椒	-10.743
干戈	-10.743
虬	-10.743
力行	-10.7432
羿	-10.7433
賂	-10.7433
伊川	-10.7434
顔淵	-10.7434
囿	-10.7435
胄	-10.7435
貶	-10.7435
元至正十三年贈	-10.7435
汜	-10.7436
狎	-10.7437
柯	-10.7438
苛	-10.7438
軿	-10.7439
軽	-10.7441
窒	-10.7442
高帝	-10.7442
匣	-10.7443
匈奴	-10.7443
樽	-10.7444
未易	-10.7445
凟	-10.7445
換	-10.7446
躅	-10.7446
渺	-10.7447
成都	-10.7448
堯之	-10.7449
枝葉	-10.7449
瘞	-10.745
無遺	-10.7451
世子	-10.7451
胷中	-10.7453
無始	-10.7454
碧落	-10.7454
僥倖	-10.7455
香稅	-10.7455
文學	-10.7456
大神	-10.7456
誓願	-10.7456
真仙	-10.7457
常人	-10.7461
不屈	-10.7461
無註觀	-10.7463
有定	-10.7465
壽考	-10.7468
顔色	-10.7469
止于	-10.7473
之始也	-10.7474
正氣	-10.7478
英宗	-10.7479
矣然則	-10.7481
斯民	-10.7481
録曰夫	-10.7481
未成	-10.7485
問其故	-10.7489
二百	-10.7493
不遑	-10.7495
何咎	-10.7497
冠衣	-10.7499
生我	-10.7501
飛鳥	-10.7504
十九日	-10.7506
八方	-10.7508
忠義	-10.7516
莫知其	-10.7521
來者	-10.7523
大地	-10.7526
凶象曰	-10.7528
天杖	-10.7536
神農	-10.7537
天虛	-10.7539
方可	-10.754
殺生	-10.7542
秦皇	-10.7545
老聃曰	-10.755
無由	-10.755
千歲	-10.7554
丈夫	-10.7554
遣官	-10.7557
無物	-10.7563
三十五	-10.7563
羣生	-10.7567
違者	-10.7572
巽下	-10.7572
紫陽	-10.7573
坎下	-10.7574
民無	-10.7579
之義也	-10.7588
護國	-10.7593
一世	-10.7598
無端	-10.76
身中	-10.7601
告成	-10.7606
身也	-10.7611
宿天	-10.7612
經功	-10.7617
千二百	-10.7621
相如	-10.7621
此意	-10.7624
可見矣	-10.7625
造命	-10.7626
朋友之	-10.7628
可畏	-10.7631
答曰	-10.7632
山谷	-10.7635
孰知	-10.7636
三方	-10.7638
何能	-10.7649
死而	-10.7655
萬丈	-10.7658
歸於	-10.7661
祖業	-10.7662
仙官	-10.7665
第二十	-10.7669
土木	-10.7671
語曰	-10.7672
徒以	-10.7673
無迹	-10.7675
逢時	-10.7678
不治	-10.7682
有時	-10.769
賜號	-10.7693
兹山	-10.7696
萬有	-10.7698
化育	-10.7698
之政	-10.7711
師曰	-10.7712
周公之	-10.7715
非所以	-10.7715
也使	-10.7715
譬之	-10.7716
法身	-10.772
萬人	-10.7721
不傳	-10.7722
過去	-10.7723
今世	-10.7724
玉虛	-10.7724
因以	-10.7725
衆妙	-10.7726
以金	-10.7731
千金	-10.7731
皆可	-10.7733
西王母	-10.7733
星名	-10.7738
相對	-10.7743
神光	-10.7751
無敢	-10.7757
木爲	-10.7761
大同	-10.7761
存者	-10.7761
大吉利	-10.7763
山上	-10.7766
遠而	-10.7767
乃命	-10.7768
八日	-10.7774
清明	-10.7774
間有	-10.7775
加以	-10.7776
迄	-10.778
時爲	-10.7782
未來	-10.7783
成形	-10.7786
冠服	-10.7786
天皇	-10.7786
其他	-10.779
抱一	-10.779
鞅	-10.7791
燥	-10.7795
油	-10.7798
乃可	-10.7809
悠	-10.781
無子	-10.7812
狙	-10.7814
奄	-10.7815
閻	-10.7815
幸而	-10.7816
劇	-10.7819
身體	-10.782
尼	-10.782
若乃	-10.782
霖	-10.782
讐	-10.7822
訴	-10.7822
熏	-10.7823
腥	-10.7824
庖	-10.7824
二卷	-10.7824
此爲	-10.7825
謟	-10.7827
牖	-10.7827
一時之	-10.7828
倏	-10.7828
憾	-10.7828
筋	-10.7829
無註損	-10.7829
哉若	-10.7829
裹	-10.7829
濱	-10.783
踏	-10.783
熙寧	-10.7831
幕	-10.7831
無註革	-10.7832
芬	-10.7832
搏	-10.7833
怯	-10.7833
挂	-10.7833
賑	-10.7834
涓	-10.7834
王畿曰	-10.7835
盪	-10.7837
崔嵬	-10.7837
磚	-10.7837
罄	-10.7838
而己	-10.7838
菜	-10.7838
哺	-10.7839
湮	-10.784
贊	-10.784
英雄	-10.784
以見	-10.784
五行之	-10.7841
參差	-10.7841
刧	-10.7841
断	-10.7844
掘	-10.7846
彭祖	-10.7846
亘	-10.7847
孔孟	-10.7848
陳蔡	-10.7849
后妃	-10.7849
妻妾	-10.7849
粮	-10.785
辛丑	-10.7851
利涉大川	-10.7851
亭亭	-10.7852
柩	-10.7854
叅政	-10.7855
身在	-10.7856
物各	-10.7857
徽號	-10.7858
祈雨	-10.7859
鵬	-10.786
謂其	-10.7861
壬申	-10.7861
黄籙	-10.7865
來朝	-10.7866
雷雨	-10.7867
肅宗	-10.7867
延壽	-10.7868
留連	-10.7869
色之光	-10.7869
之節	-10.7871
百日	-10.7872
仁徳	-10.7874
非所	-10.7874
靈芝	-10.7876
周旋	-10.7876
曰卿	-10.788
宫観	-10.7881
洞庭	-10.7885
混元	-10.7888
北海	-10.7898
微妙	-10.7902
水旱	-10.7902
眞文	-10.7904
在岳頂	-10.7906
中庸	-10.7909
登壇	-10.7911
曰何	-10.7912
及長	-10.7914
升降	-10.7915
廣大	-10.7915
牛馬	-10.7915
德不	-10.7919
元祐	-10.7921
而進	-10.7923
而且	-10.7926
坤之	-10.7926
而任	-10.7926
南海	-10.7926
互相	-10.7928
以應	-10.7931
王曰	-10.7931
勲	-10.7936
濟南	-10.7938
震動	-10.7938
罔不	-10.794
欲其	-10.7943
上宫	-10.7955
萬乘	-10.7958
仰止	-10.7959
出世	-10.7963
于人	-10.7963
惡業	-10.7963
應物	-10.7964
謹告	-10.7965
一無	-10.7968
尚存	-10.7969
而物	-10.797
告以	-10.7973
之卦	-10.7974
事親	-10.7975
䕃	-10.7977
(□)	-10.7978
小者	-10.7978
者天	-10.7979
奏告	-10.7997
偶然	-10.8001
青山	-10.8003
有終	-10.8006
難窮	-10.8009
若能	-10.801
以進	-10.801
天哭	-10.8014
春風	-10.8014
太師	-10.8017
百家	-10.8019
之源	-10.802
其詞	-10.8021
小大	-10.8028
必有所	-10.8029
歲月	-10.8031
物之所	-10.8033
四字	-10.8038
咸使	-10.804
一卷	-10.8047
宣仁	-10.8049
紫虛	-10.8051
曰天下	-10.8058
重耳	-10.8059
行則	-10.806
之物	-10.8068
之詞	-10.8068
我今	-10.8069
善星	-10.8069
在内	-10.8071
兊上	-10.8072
識者	-10.8073
數日	-10.8074
之威	-10.8077
嵗德	-10.8082
子思	-10.8083
奉高	-10.8088
也歟	-10.8092
獨有	-10.8094
聖眞	-10.8095
雖無	-10.81
始生	-10.8108
而未嘗	-10.8114
只是	-10.8114
萬刼	-10.8114
之所謂	-10.8122
法度	-10.8134
否則	-10.8134
神鬼	-10.8143
未幾	-10.8144
自用	-10.8144
曰先生	-10.8148
之流	-10.8154
其分	-10.8163
亡其	-10.8165
祀事	-10.8167
士也	-10.8173
長者	-10.8175
坤上	-10.8175
以象	-10.8178
已成	-10.8179
推之	-10.8189
歌曰	-10.819
五陽	-10.8191
譬	-10.8193
吾身	-10.8195
儼	-10.8198
分也	-10.8203
靈光	-10.8205
故人	-10.8207
苟有	-10.8212
聖人之道	-10.8213
矣乃	-10.8214
多少	-10.8216
凖	-10.8217
不盈	-10.8221
之師	-10.8222
一炁	-10.8223
匱	-10.8228
果然	-10.8229
相隨	-10.8231
仁義之	-10.8232
儒墨	-10.8233
事事	-10.8233
鰌	-10.8235
詔曰	-10.8236
圯	-10.8237
無註蠱	-10.8237
咏	-10.8237
四曰	-10.8237
洋洋	-10.8237
熒	-10.8238
婆	-10.8239
蹄	-10.824
蚊	-10.824
耄	-10.824
詆	-10.8241
無註訟	-10.8242
沸	-10.8242
巴	-10.8242
遶	-10.8242
無註豫	-10.8242
星直日	-10.8243
奴僕	-10.8243
虵	-10.8244
療	-10.8244
湫	-10.8244
琳	-10.8245
但見	-10.8245
泥丸	-10.8246
鉉	-10.8247
梳	-10.8247
三候到	-10.8247
悶	-10.8247
棠	-10.8248
甌	-10.8248
燧	-10.8248
眷屬	-10.8248
昔之	-10.825
無註困	-10.825
霖雨	-10.825
有聲	-10.825
侔	-10.825
嗇	-10.8251
杭	-10.8251
毗	-10.8251
惓惓	-10.8252
囬	-10.8252
唾	-10.8253
畋	-10.8253
葺	-10.8253
親睦	-10.8253
毓	-10.8255
揆	-10.8255
物則	-10.8258
世有	-10.8259
眞仙	-10.8259
忱	-10.826
峩	-10.8261
頃刻	-10.8261
告曰	-10.8261
六十四卦	-10.8262
辛酉	-10.8263
架	-10.8263
洪恩	-10.8263
無註節	-10.8264
無註益	-10.8264
無註隨	-10.8265
纂	-10.8268
巖巖	-10.8268
都督	-10.8269
閉目	-10.8271
遷移	-10.8274
壬寅	-10.8275
湯武	-10.8277
夫何	-10.8278
子午	-10.8278
者邪	-10.8278
康寧	-10.8279
有如	-10.8279
千仞	-10.828
戊午	-10.828
一粒	-10.8285
週天	-10.8287
方寸	-10.8293
對越	-10.8296
洛書	-10.8296
太微	-10.8298
甲寅	-10.8298
六爻	-10.8299
其生	-10.83
金仙	-10.8304
無涯	-10.8307
休息	-10.8307
百千萬	-10.8311
五里	-10.8316
金銀	-10.8317
無礙	-10.8324
尊重	-10.8324
未見其	-10.8324
嘗謂	-10.8325
端坐	-10.8325
罪業	-10.8326
生成	-10.833
福星	-10.8344
皇極	-10.8345
爲己	-10.835
之傳	-10.8351
君曰	-10.8354
道學	-10.8356
還丹	-10.8357
太隂	-10.8357
更有	-10.8361
人謂	-10.8361
吕公	-10.8366
方知	-10.8368
而走	-10.8369
亦何	-10.837
使天下	-10.8375
六道	-10.8376
精氣	-10.8377
妙用	-10.8378
幽冥	-10.8382
所受	-10.8386
乾元	-10.8386
魔王	-10.8387
仙道	-10.8387
爲義	-10.8389
凶惡	-10.8389
獲福	-10.839
而問	-10.8392
皇明	-10.8394
以孝	-10.8397
二十九	-10.8399
而不敢	-10.84
其源	-10.8403
不獨	-10.8407
七祖	-10.8408
不逮	-10.8415
非道	-10.8418
普照	-10.8418
高强	-10.8419
於齊	-10.8421
燒香	-10.8421
道無	-10.8422
安民	-10.8422
日暮	-10.843
下同	-10.8437
爲臣	-10.844
塵世	-10.8446
也於是	-10.8451
安危	-10.8456
生子	-10.8456
堯舜之	-10.8462
不可勝	-10.8462
安石	-10.8463
紫皇	-10.8469
使民	-10.847
得之以	-10.8477
其聲	-10.848
兖	-10.848
誰敢	-10.848
與君	-10.848
江水	-10.8481
重修	-10.8483
動則	-10.8484
吾今	-10.8485
水爲	-10.8486
三代之	-10.8486
以奉	-10.8488
爲吾	-10.849
其禍	-10.8493
十二宫	-10.8494
天時	-10.8501
帝光	-10.8504
自見	-10.8509
如此則	-10.8518
癸亥	-10.8523
爲是	-10.8525
尚賢	-10.8525
自言	-10.8526
以聞	-10.853
見一	-10.8531
必主	-10.8531
尚可	-10.8538
凡事	-10.8539
世傳	-10.8539
必然	-10.8541
經籙	-10.8541
明明	-10.8541
不可見	-10.8543
受持	-10.8543
也蘇註	-10.8552
其辭	-10.8556
之人也	-10.8562
朝禮	-10.8565
不知其所	-10.8568
相承	-10.8569
六氣	-10.8585
所作	-10.8589
稱之	-10.859
運限	-10.859
四十八	-10.8604
大怒	-10.8605
天地間	-10.8605
十萬	-10.8606
一事	-10.8609
之徳	-10.8609
知有	-10.861
星主	-10.8613
萬歲	-10.8615
六章	-10.8618
仁也	-10.8618
有道者	-10.8623
或謂	-10.8629
怒曰	-10.8635
長大	-10.8646
有加	-10.8651
之可也	-10.8652
胷	-10.8652
奈	-10.8655
成而	-10.8656
軾	-10.8656
天壽	-10.8659
慨	-10.8663
啄	-10.8663
輅	-10.8666
順之	-10.8667
本宫	-10.8667
爲患	-10.8667
壼	-10.8667
撻	-10.8671
無註姤	-10.8673
啞	-10.8674
欄	-10.8675
猪	-10.8675
謡	-10.8675
雛	-10.8676
無註离	-10.8676
婿	-10.8677
篡	-10.8677
盃	-10.8677
矩	-10.8677
琉璃	-10.8678
聶	-10.8678
酣	-10.8679
癘	-10.8679
藜	-10.8679
弩	-10.8679
殞	-10.868
仆	-10.868
畿	-10.868
拳	-10.8681
盜跖	-10.8682
牟	-10.8682
爲人所	-10.8682
耿	-10.8682
裙	-10.8682
姊	-10.8683
籌	-10.8683
是皆	-10.8684
蒿里	-10.8684
玄靈	-10.8684
讖	-10.8684
糞	-10.8684
轂	-10.8684
坑	-10.8684
庥	-10.8684
碍	-10.8684
擎	-10.8685
陂	-10.8685
喜曰	-10.8685
纒	-10.8685
泮	-10.8685
羔	-10.8685
鴻濛	-10.8686
郢	-10.8686
貲	-10.8686
富弼	-10.8687
規矩	-10.8688
伏念某	-10.8689
武子	-10.8689
逞	-10.8689
無字碑	-10.869
秦始皇	-10.869
禎祥	-10.869
知足	-10.869
𣑽	-10.869
鐫	-10.8691
斑	-10.8692
盤古	-10.8692
年嵗	-10.8692
虎豹	-10.8692
裒	-10.8692
殫	-10.8692
藹	-10.8693
大海	-10.8693
晟	-10.8694
琦	-10.8696
外物	-10.8696
契丹	-10.8697
㓗	-10.8697
記曰	-10.8699
褐	-10.87
虺	-10.87
諸司	-10.8701
故爲	-10.8704
則亦	-10.8705
丙辰	-10.8706
賓客	-10.8706
項羽	-10.8707
天下皆	-10.8707
皇太子	-10.871
長嘯	-10.8711
疾厄	-10.8711
吏部	-10.8716
玄教	-10.8718
者謂之	-10.8719
太㣲	-10.872
始有	-10.8722
辛卯	-10.8722
苦惱	-10.8724
晋侯	-10.8725
戊申	-10.8726
震上	-10.8727
金書	-10.8732
立身	-10.8733
吕氏	-10.874
甲兵	-10.8741
言訖	-10.8742
是用	-10.8744
萬一	-10.8744
金帛	-10.8746
靈貺	-10.8746
龍虎山	-10.8747
到頭	-10.8748
之疾	-10.8749
道徳	-10.875
寂然	-10.8751
爾時元始天尊	-10.8752
也不知	-10.8755
亦未	-10.8756
其首	-10.8759
對照	-10.8764
之由	-10.8774
十一日	-10.8774
大仙	-10.8775
面目	-10.8775
有成	-10.8777
碧霞宫	-10.8777
重重	-10.8777
青城	-10.8777
百歲	-10.8779
相望	-10.8779
昭昭	-10.878
損益	-10.8781
非眞	-10.8781
仰視	-10.8782
金水	-10.8782
大哉	-10.8787
天曹	-10.8789
崇奉	-10.879
穆公	-10.8791
乾道	-10.8792
乃得	-10.8794
之野	-10.8794
爲政	-10.8795
受苦	-10.88
泰岱	-10.8802
所載	-10.8806
正色	-10.8807
安在	-10.8808
九炁	-10.8813
辛未	-10.8818
子丑	-10.8819
數千	-10.8819
主宰	-10.882
畜生	-10.8821
亡魂	-10.8823
不自知	-10.8828
一室	-10.8828
知止	-10.8828
誠心	-10.8831
疾苦	-10.8833
不齊	-10.8833
青衣	-10.8838
有待	-10.8843
聖朝	-10.8846
聖帝	-10.8849
孝宗	-10.8853
日是	-10.8853
神主	-10.8854
二十三	-10.8857
進士	-10.8857
焉其	-10.886
罪福	-10.8867
之妻	-10.8868
復起	-10.887
嵗殿	-10.8873
其教	-10.8879
隱居	-10.8879
爲仁	-10.8882
經營	-10.8882
矣雖	-10.8886
自取	-10.8888
其門	-10.889
事有	-10.889
八章	-10.8893
而无	-10.8893
九轉	-10.8894
長夜	-10.8897
能使	-10.8899
天刃	-10.8907
於今	-10.8911
奇觀	-10.8913
作事	-10.8914
江王	-10.8916
加臨	-10.8916
青龍	-10.892
可知矣	-10.893
未敢	-10.8931
靈符	-10.8933
于地	-10.8935
功行	-10.8936
得聞	-10.8939
長久	-10.894
從者	-10.8947
州刺史	-10.895
有常	-10.8956
泰安	-10.8957
吴王	-10.8961
妙有	-10.8964
何况	-10.897
延生	-10.8974
坎上	-10.8976
前有	-10.8988
氏女	-10.8989
仁人	-10.899
齊國	-10.8993
平王	-10.8996
以言	-10.8996
已上	-10.9001
祭之	-10.9002
眞氣	-10.9005
第六	-10.9005
法會	-10.9009
東土	-10.9012
見聞	-10.9014
玄玄	-10.9015
飛仙	-10.9015
義理	-10.9021
從來	-10.9024
立而	-10.9029
制度	-10.9036
及至	-10.9038
庶民	-10.9042
中行	-10.9046
豈其	-10.9047
二章	-10.9047
乃能	-10.905
先聖	-10.9051
之重	-10.9053
明其	-10.9057
萬化	-10.9063
正當	-10.9066
王氏	-10.9074
母子	-10.9075
未生	-10.9077
南行	-10.9079
更生	-10.9085
亡者	-10.9086
子房	-10.9097
號爲	-10.9104
也予	-10.9104
諸佛	-10.9105
天書	-10.9105
有益	-10.9105
無欲	-10.9112
仙公	-10.9115
姒	-10.9116
牢獄	-10.9116
也况	-10.9122
菑	-10.9123
譛	-10.9124
屹	-10.9124
琢	-10.9125
蒞	-10.9125
於魯	-10.9125
尭	-10.9126
枯槁	-10.9126
塟	-10.9127
薩	-10.9127
彘	-10.9127
穎	-10.9127
空洞	-10.9128
盾	-10.9128
抛	-10.9129
昬	-10.9129
瘳	-10.913
徂	-10.913
罪衆	-10.913
龐	-10.913
婉	-10.913
滴	-10.9131
嫁娶	-10.9131
烟霞	-10.9131
闌	-10.9132
森	-10.9132
沂	-10.9132
你	-10.9132
舄	-10.9133
叶	-10.9134
居民	-10.9134
弧	-10.9134
生扵	-10.9134
鉞	-10.9134
堵	-10.9135
隗	-10.9135
綽	-10.9136
股肱	-10.9136
刹	-10.9136
屐	-10.9137
扉	-10.9137
脇	-10.9137
渚	-10.9138
羈	-10.9138
也九四	-10.9138
芸	-10.9138
訝	-10.9139
悼	-10.9139
堆	-10.9139
㬋	-10.9139
藻	-10.914
盂	-10.9141
無註蒙	-10.9141
必不	-10.9141
劾	-10.9141
箭	-10.9141
懺悔	-10.9141
鄒	-10.9142
迤	-10.9143
岧嶢	-10.9143
蔣	-10.9143
危殆	-10.9144
怖	-10.9144
迥	-10.9144
翩翩	-10.9144
天風	-10.9144
妓	-10.9145
紳	-10.9145
僕射	-10.9146
異乎	-10.9146
巡撫	-10.9148
持誦	-10.9148
繕	-10.9149
弓矢	-10.915
廪	-10.915
攺	-10.9151
孺子	-10.9151
鴉	-10.9151
洪範	-10.9151
五章	-10.9152
魂魄	-10.9152
髯	-10.9152
唐太宗	-10.9153
不惑	-10.9155
莊嚴	-10.9157
相似	-10.9158
在扵	-10.9159
廓然	-10.9161
圓滿	-10.9163
太傅	-10.9163
老莊	-10.9163
三島	-10.9164
九章	-10.9164
戊辰	-10.9166
丙申	-10.9172
戊寅	-10.9176
伯仲	-10.9177
壬辰	-10.918
三台	-10.9182
未足以	-10.9182
司馬光	-10.9185
爲憂	-10.9186
刑罰	-10.9187
律令	-10.9188
者莫不	-10.9191
吉㐫	-10.9192
嘆息	-10.9193
叔孫	-10.9193
血食	-10.9195
金星	-10.9198
使君	-10.9199
占身	-10.9201
東岳	-10.9202
珠玉	-10.9204
超度	-10.9209
所感	-10.9214
化也	-10.9214
如日月	-10.9215
各得其	-10.9223
曰不然	-10.9225
我以	-10.9225
□□	-10.9225
終焉	-10.9226
盡心	-10.9227
或問	-10.9228
之秘	-10.923
水上	-10.9234
紫極	-10.9238
盛衰	-10.9238
不亂	-10.9238
此非	-10.9239
兹特	-10.924
矣遂	-10.9241
封泰山	-10.9241
猶存	-10.9243
以表	-10.9243
也且	-10.9245
不得已而	-10.9247
長房	-10.9249
不和	-10.925
帝命	-10.9252
不解	-10.9258
勑命	-10.9259
何待	-10.9259
漢王	-10.9262
一代	-10.9264
百神	-10.9264
爲首	-10.9271
群仙	-10.9272
議論	-10.9273
源流	-10.9273
秋月	-10.9276
孫子	-10.928
天刑	-10.9283
修真	-10.9285
聞見	-10.9285
此眞經	-10.9289
每月	-10.9291
有事於	-10.9292
於天地	-10.9293
皇圖	-10.9297
之基	-10.9298
者所以	-10.9306
不終	-10.9311
周室	-10.9314
龍神	-10.9315
以前	-10.9318
本於	-10.9322
洪恩眞君	-10.9323
即爲	-10.9326
九幽	-10.9327
威德	-10.9329
一點	-10.9332
刺史	-10.934
必能	-10.934
願得	-10.934
經書	-10.9342
四維	-10.9342
成敗	-10.9343
志心皈命禮德配乾坤九天金闕	-10.9348
録曰自	-10.9352
七星	-10.9352
既至	-10.9358
何用	-10.936
斷其	-10.9361
心生	-10.9362
與衆	-10.9367
猶可	-10.9368
爲身	-10.9369
釋之	-10.9371
王王	-10.9378
侍中	-10.938
經史	-10.9381
最大	-10.9382
神異	-10.9386
經中	-10.9387
惟願	-10.9388
此理	-10.9393
無爲之	-10.9394
無求	-10.9399
九祖	-10.9399
民心	-10.9399
玄化	-10.9402
之東	-10.9402
于時	-10.9405
起於	-10.9407
無所得	-10.9412
三三	-10.9412
相同	-10.9413
四面	-10.9415
事無	-10.9421
幽明	-10.9421
也乃	-10.9422
大洞	-10.9427
依然	-10.9427
禮記	-10.9427
而食	-10.9434
相保	-10.9436
以定	-10.9437
太歲	-10.9442
三炁	-10.9443
成公	-10.9455
考之	-10.9455
百靈	-10.9459
水泉	-10.946
流年	-10.946
衆念	-10.9462
誠意	-10.9469
居上	-10.9471
者自	-10.9472
悟道	-10.9473
文子	-10.9474
止而	-10.9476
性分	-10.9478
靈異	-10.9481
於斯	-10.9482
故稱	-10.9484
昭明	-10.9486
夫豈	-10.9489
何時	-10.9492
靜而	-10.9492
獻公	-10.9493
直星	-10.9494
此亦	-10.9518
吾心	-10.952
三王	-10.9521
乃止	-10.9525
相合	-10.9526
十五年	-10.9529
安有	-10.9532
守道	-10.9535
一家之	-10.954
睿	-10.954
則反	-10.9543
隂柔	-10.9545
凡所	-10.9548
柰	-10.955
征凶	-10.9553
多言	-10.9558
邪魔	-10.9562
有何	-10.9568
夏至	-10.9575
之體	-10.9578
天順	-10.958
之資	-10.9587
六甲生男	-10.9592
也若夫	-10.9593
此地	-10.9594
拭	-10.9597
葆	-10.9598
售	-10.9598
璽	-10.9598
陰隲	-10.9598
蠶	-10.9598
賚	-10.9598
利得	-10.9599
北斗出逰	-10.96
疵	-10.96
琰	-10.9601
阪	-10.9601
蔚	-10.9603
氐	-10.9604
至心皈命禮	-10.9604
后稷	-10.9604
委蛇	-10.9605
瓢	-10.9606
雹	-10.9606
不反	-10.9607
騐	-10.9607
挑	-10.9608
日諸神在天	-10.9609
沴	-10.9609
枚	-10.9609
饌	-10.961
信其	-10.961
丗	-10.961
鈆	-10.961
保安寍	-10.961
簇	-10.9611
逕	-10.9611
遞	-10.9611
評	-10.9612
摘	-10.9612
嬉	-10.9612
暖	-10.9613
款	-10.9613
臆	-10.9613
祥雲	-10.9613
國王	-10.9614
至順	-10.9614
炙	-10.9614
埃	-10.9615
粤	-10.9615
觧見前	-10.9615
丹砂	-10.9616
翌日	-10.9616
愬	-10.9617
聆	-10.9617
馴	-10.9617
弁	-10.9617
沮	-10.9618
一分	-10.9618
汴	-10.9618
隻	-10.9618
榆	-10.9618
不克	-10.9619
仲淹	-10.9619
隊	-10.9619
菲	-10.962
版	-10.962
葱	-10.9621
媾	-10.9622
蔓	-10.9622
宮	-10.9622
廣成子	-10.9622
菴	-10.9622
懴	-10.9623
瑜	-10.9623
贍	-10.9624
諭祭	-10.9624
娘	-10.9626
沛公	-10.9626
石磴	-10.9627
巓	-10.9628
闚	-10.9629
百事	-10.9631
虎狼	-10.9632
玉宸	-10.9632
我家	-10.9635
入門	-10.9636
法筵	-10.9636
裊	-10.9637
无不利	-10.9638
表裏	-10.9639
年月日時	-10.9639
俸	-10.9639
泰安州	-10.964
難得	-10.9641
丁酉	-10.9641
禱雨	-10.9641
消災	-10.9643
治民	-10.9645
遣人	-10.9649
莊周	-10.9649
丙寅	-10.9649
晨昏	-10.9651
之所能	-10.9651
蛟龍	-10.9651
此則反	-10.9652
昇仙	-10.9653
府君	-10.9653
春三月	-10.9654
在身	-10.9654
曰公	-10.9655
便獲	-10.9657
乾上	-10.9658
天生	-10.9662
不竭	-10.9662
自相	-10.9663
易之	-10.9666
雨露	-10.9666
之孫	-10.9666
布政	-10.9668
三世	-10.967
一聲	-10.967
蒙恩	-10.9673
元陽	-10.9675
于是	-10.9676
風波	-10.9677
巳午	-10.9679
天下之大	-10.9684
楚之	-10.9686
達者	-10.9689
禾刀	-10.9692
絶無	-10.9697
一家	-10.9699
不可測	-10.97
小人之	-10.97
渡江	-10.9703
之西	-10.9705
太王	-10.9706
思慮	-10.9714
司天	-10.9715
黄白	-10.972
無象	-10.9721
建武	-10.9721
求福	-10.9724
元亨	-10.9725
道合	-10.9725
無定	-10.9726
野人	-10.9726
安坐	-10.9737
皇王	-10.9739
十有五	-10.974
君親	-10.9741
樂其	-10.9741
到此	-10.9742
妖星	-10.9745
莫敢	-10.9752
志心皈命禮威震雷霆九天玉闕	-10.9756
子儀	-10.9758
出奔	-10.9761
可比	-10.9762
然猶	-10.9763
遣吾	-10.9764
之南	-10.9768
有罪	-10.9768
星宿	-10.9771
愛人	-10.9777
之星	-10.9777
歸根	-10.9785
夜月	-10.9789
當位	-10.9789
不能以	-10.9789
仰觀	-10.9792
其勢	-10.9799
於民	-10.9799
夫道	-10.98
清虛	-10.9801
陳公	-10.9804
爲事	-10.9809
而遂	-10.9814
爲宗	-10.9815
福壽	-10.9815
龜山	-10.9818
正應	-10.9822
故知	-10.9824
但知	-10.9825
傷人	-10.9828
不辭	-10.9828
巳亥	-10.9829
漢唐	-10.9829
也然而	-10.9831
大慈悲	-10.9836
及於	-10.9836
既有	-10.9836
爲言	-10.9839
是眞	-10.9839
而不見	-10.9841
太初	-10.9845
生平	-10.9846
六日	-10.985
未定	-10.9855
福建	-10.9857
天人之	-10.9858
之府	-10.9865
不居	-10.9865
玄武	-10.9865
立春	-10.9867
以仁義	-10.9873
青雲	-10.9876
傍人	-10.988
大士	-10.988
冠帶	-10.9881
嬖	-10.9882
王季	-10.9882
福慶	-10.9883
不聽	-10.9883
爲心	-10.9887
和平	-10.9888
艮上	-10.989
於彼	-10.9894
定位	-10.9897
重建	-10.9905
其誰	-10.9908
列聖	-10.9909
金鰲	-10.9912
教人	-10.9913
喪其	-10.9917
爲學	-10.9919
風流	-10.9923
耶夫	-10.993
不雨	-10.9936
安國	-10.9941
景帝	-10.9941
期於	-10.9944
不悅	-10.9951
告之	-10.9954
不遂	-10.9955
朕惟	-10.9955
天之道	-10.9959
愛民	-10.9962
魔鬼	-10.9971
飛雲	-10.9973
天下之至	-10.9975
其初	-10.998
命醮	-10.998
今日之	-10.9982
之時也	-10.9988
符命	-10.9991
無足	-10.9997
去就	-10.9998
之灾	-11
俱有	-11.0004
生萬物	-11.0006
于上	-11.0006
令星	-11.0007
今年	-11.0009
諸衆生	-11.0022
不毁	-11.0023
宣化扶教上仙昭靈博濟高明弘靜冲湛	-11.0036
祖廟	-11.0038
天尊言	-11.0052
妄言	-11.0053
而不知其	-11.0053
者歟	-11.0053
張氏	-11.0054
吾將	-11.0057
無生	-11.0067
三千大千	-11.0077
尊號	-11.0082
得人	-11.0083
未發	-11.0085
于前	-11.0086
不遺	-11.009
餅	-11.009
方位	-11.0091
南斗下䧏	-11.0093
自安	-11.0094
亶	-11.0095
姧	-11.0095
漱	-11.0095
衫	-11.0097
潦	-11.0099
搔	-11.0099
璘	-11.0099
所以能	-11.0101
既已	-11.0102
汨	-11.0102
荘	-11.0103
絃	-11.0103
禎	-11.0103
曙	-11.0103
隴	-11.0103
桎梏	-11.0104
崎嶇	-11.0104
緣	-11.0105
所學	-11.0106
其體	-11.0106
慟	-11.0106
殽	-11.0107
駿	-11.0107
羹	-11.0107
鳧	-11.0107
鉏	-11.0108
算	-11.0108
怙	-11.0108
曽	-11.0109
竦	-11.0109
餒	-11.011
甘棠	-11.0111
鶉	-11.0111
侑	-11.0111
甸	-11.0111
彪	-11.0112
挽	-11.0112
箱	-11.0112
慷慨	-11.0112
迍	-11.0113
嬪	-11.0113
夫子曰	-11.0113
大慈大悲	-11.0113
耽	-11.0113
閽	-11.0114
寛	-11.0114
濛	-11.0114
稽首皈依	-11.0115
脊	-11.0115
大矣哉	-11.0115
侃	-11.0115
藤	-11.0115
餉	-11.0115
皂	-11.0116
狡	-11.0116
珎	-11.0117
優游	-11.0117
禆	-11.0118
㓙	-11.0118
訾	-11.0118
不就	-11.0119
壙	-11.0119
灑	-11.0119
闈	-11.0119
秪	-11.0119
熊過曰	-11.0119
棣	-11.012
胞	-11.012
乱	-11.0121
寘	-11.0121
紺	-11.0121
課	-11.0121
濂	-11.0123
內	-11.0123
厠	-11.0123
寂寂	-11.0124
拓	-11.0124
藁	-11.0125
犧	-11.0125
紆	-11.0125
佈	-11.0126
五臟	-11.0126
惚	-11.0127
飱	-11.0127
墉	-11.0127
營營	-11.0127
清微天	-11.0127
褻	-11.0128
孝友	-11.013
玉女池	-11.0131
渺渺	-11.0132
二十七日	-11.0134
處處	-11.0134
時刻	-11.0135
宋眞宗	-11.0137
漕	-11.0138
癸丑	-11.0142
又非	-11.0143
龍峪	-11.0144
紫霄	-11.0145
大驚	-11.0146
乃有	-11.0146
登覽	-11.015
天真	-11.0151
將來	-11.0151
恐懼	-11.0151
元和	-11.0155
通鑑	-11.0157
錬度	-11.0157
勞心	-11.0158
清濁	-11.0159
雲雨	-11.016
大丈夫	-11.0163
次第	-11.0168
大風	-11.0169
南京	-11.017
耳若	-11.017
印壽	-11.0173
太原	-11.0174
無註復	-11.018
州縣	-11.0184
八九	-11.0187
諸玉女	-11.0189
執之	-11.0189
此書	-11.0191
十四年	-11.0192
賴以	-11.0193
長沙	-11.0198
乎對曰	-11.02
與汝	-11.0203
何益	-11.0203
圓光	-11.0203
復爲	-11.0203
安然	-11.0205
㐫星	-11.0206
不假	-11.0207
何可	-11.0211
爾其	-11.0212
千秋	-11.0214
國土	-11.0214
焉曰	-11.0215
年二月	-11.0217
之辭	-11.0222
昔有	-11.0223
日用	-11.0225
五穀	-11.0225
壬子	-11.0225
情也	-11.0226
三塗	-11.0228
其根	-11.0229
中間	-11.0231
五雲	-11.0233
釋氏	-11.0238
不異	-11.0238
多有	-11.0238
皆當	-11.024
爲鬼	-11.024
二世	-11.0241
唯有	-11.0241
卿士	-11.0243
人之心	-11.0247
之祥	-11.0247
失道	-11.0247
愽士	-11.025
之精思之還反真形修行	-11.0251
念念	-11.0252
人性	-11.0254
兩頭	-11.0258
司空	-11.0259
儉者	-11.0262
洪水	-11.0264
以從	-11.0264
古本下	-11.0265
善行	-11.027
之責	-11.0271
莫非	-11.0271
皆由	-11.0273
道理	-11.0277
山人	-11.0278
中和	-11.0287
政和	-11.0288
願聞	-11.0289
侍御	-11.0291
知府	-11.0291
玄冥	-11.0295
絶學	-11.0296
心意	-11.0297
超然	-11.0301
破家	-11.0305
誠有	-11.0305
或星	-11.0308
普濟	-11.0309
萬萬	-11.031
不懼	-11.0311
教授	-11.0311
方來	-11.0323
東向	-11.0324
日光	-11.0325
以俟	-11.0325
五炁	-11.0329
陽剛	-11.0331
曰吾聞	-11.0332
閩人	-11.0333
哉今	-11.0338
爲名	-11.0338
復何	-11.0341
其理	-11.0344
遂爲	-11.0345
尊貴	-11.035
之容	-11.035
何患	-11.0353
不貴	-11.0353
精誠	-11.0362
安世	-11.0364
嗟乎	-11.0365
世俗之	-11.037
行限	-11.0372
丹書	-11.0372
衣裳	-11.0375
以仁	-11.0389
地方	-11.039
功業	-11.0391
相迎	-11.0393
兮何	-11.0397
帝號	-11.0401
大悅	-11.0401
十八年	-11.0407
四十四	-11.041
玄天上帝感應靈籤第	-11.041
必無	-11.041
道術	-11.0411
二首	-11.0413
之儀	-11.0416
之所在	-11.0417
盡矣	-11.0418
永不	-11.0427
以及	-11.0428
錦衣	-11.0428
也孔子	-11.0429
家國	-11.0429
大師	-11.0433
周流	-11.0441
咒曰	-11.0441
五子	-11.0442
爲哉	-11.0443
者不以	-11.0445
惠王	-11.0445
天異	-11.0448
不滅	-11.045
其始也	-11.0451
如有	-11.0453
一隂	-11.0453
矣是故	-11.0457
臣某	-11.0457
乎郭註	-11.0458
水星	-11.0459
决之	-11.0459
信也	-11.0466
妙經	-11.0467
一片	-11.0467
不服	-11.0476
在地	-11.048
非禮	-11.0482
聖位	-11.0483
大盜	-11.0484
則已	-11.0487
題曰	-11.0491
眞一	-11.0492
也象曰	-11.0493
並作	-11.0494
不避	-11.05
將相	-11.0503
出處	-11.0505
之弊	-11.0506
謝曰	-11.0506
郷人	-11.0511
也余	-11.0514
相遇	-11.052
年八十	-11.0521
五人	-11.0524
失利	-11.0527
其㫖	-11.0528
修身	-11.0539
古人之	-11.054
意也	-11.0546
今人	-11.0551
諸侯之	-11.0554
我來	-11.0555
同異	-11.0556
人專	-11.0557
冬月	-11.0563
遂至	-11.0565
焉録曰	-11.0568
不常	-11.0568
六白	-11.0569
國公	-11.057
疑其	-11.0573
其子孫	-11.0576
彤	-11.0576
舉手	-11.0577
龍門	-11.058
顯靈	-11.0583
之端	-11.0589
奉祀	-11.0595
物外	-11.0598
青黄	-11.0599
係於	-11.06
或在	-11.0604
無厭	-11.0604
苐	-11.0614
銓	-11.0615
匏	-11.0618
者宜	-11.0619
延禧	-11.0623
䑕	-11.0624
火星	-11.0624
躓	-11.0624
喘	-11.0624
禋	-11.0628
茫	-11.0628
兇	-11.0629
在己	-11.0629
販	-11.0629
裡	-11.0629
雎	-11.0629
之亂	-11.063
玄門	-11.063
無註之乾	-11.063
僖	-11.063
葦	-11.063
滂	-11.0631
怏	-11.0631
二隂	-11.0631
媵	-11.0631
列於	-11.0632
遘	-11.0632
黔	-11.0632
拍	-11.0633
瞿	-11.0634
重玄	-11.0634
熒惑	-11.0634
倖	-11.0634
涕泣	-11.0634
炊	-11.0635
凛	-11.0635
太上中道妙法蓮華經卷之	-11.0635
陜	-11.0636
蜂	-11.0636
喫	-11.0637
沉淪	-11.0637
袴	-11.0637
騷	-11.0638
店	-11.0638
詮	-11.0638
曰予	-11.0638
悍	-11.0639
舡	-11.0639
芻	-11.0639
狀元	-11.0639
憊	-11.0639
捌	-11.0639
嶼	-11.064
魍魎	-11.064
疫	-11.0641
東西南北	-11.0641
諦	-11.0641
鋤	-11.0641
犢	-11.0642
炷	-11.0642
瑶池	-11.0642
蟒	-11.0642
咀	-11.0643
鳥獸	-11.0643
拊	-11.0643
閎	-11.0644
夔	-11.0644
煌	-11.0645
徇	-11.0645
會稽	-11.0645
懿夫人	-11.0645
顆	-11.0645
縫	-11.0646
叉	-11.0646
朵	-11.0646
観	-11.0646
濠	-11.0647
何妨	-11.0647
家門	-11.0649
𩔗	-11.0649
模	-11.0649
腋	-11.065
窗	-11.065
唎	-11.0652
扃	-11.0652
邃	-11.0653
劄	-11.0654
悌	-11.0655
寨	-11.0655
爲功	-11.0655
九五之	-11.0656
賜宴	-11.0657
删	-11.0658
洞中	-11.0658
鳴呼	-11.066
遺蹟	-11.066
比干	-11.0661
者當	-11.0661
無徃而不	-11.0661
庚戌	-11.0662
亡國	-11.0663
紋	-11.0665
榮辱	-11.0667
荆州	-11.0668
廟貌	-11.0669
一十五	-11.0669
斷障之	-11.067
自得也	-11.067
者以其	-11.0671
顔回	-11.0671
僉事	-11.0673
殿宇	-11.0673
之請	-11.0674
以次	-11.0675
諸葛	-11.0676
庚寅	-11.0676
惟恐	-11.0677
丁丑	-11.0677
四衆	-11.0678
資財	-11.0679
飄風	-11.068
社首	-11.0681
此義	-11.0681
其利	-11.0682
理宗	-11.0682
無忝	-11.0683
根源	-11.0686
權衡	-11.0687
生長	-11.0687
之緒	-11.0688
天貴	-11.0688
無虞	-11.069
困苦	-11.0692
仙姑	-11.0692
世事	-11.0693
人惟	-11.0694
斗牛	-11.0696
秋分	-11.07
魯侯	-11.0704
憂心	-11.0704
羽衣	-11.0705
迄今	-11.0706
金木	-11.0706
四十里	-11.0707
甲申	-11.0711
煞貢	-11.0712
可使	-11.0713
黄庭	-11.0713
萬邦	-11.0713
有道人	-11.0714
玉晨	-11.0716
也録曰愚觀	-11.0717
四卷	-11.0717
長乆	-11.0717
金泥	-11.0722
地理	-11.0723
忠厚	-11.0724
先人	-11.0724
國人	-11.0724
二陽	-11.0724
七十二君	-11.073
清㣲	-11.0731
孔門	-11.0731
惡死	-11.0733
天花	-11.0734
建功	-11.0735
賢而	-11.0737
七章	-11.0738
韓信	-11.0741
者惟	-11.0743
元洞	-11.0747
異端	-11.0749
玉帶	-11.075
下士	-11.075
設齋	-11.0752
何也蓋	-11.0753
初九日	-11.0753
二星	-11.0754
不察	-11.0755
列位	-11.0762
而用之	-11.0764
平等	-11.0765
秦之	-11.0767
子夏	-11.0769
吉慶	-11.0769
故榜	-11.0769
日觀峯	-11.0771
卜木	-11.0775
州城	-11.0777
文德	-11.0778
七百	-11.0784
方士	-11.0784
家法	-11.0785
遂得	-11.0786
八字	-11.0786
感動	-11.0786
三尸	-11.0786
夏月	-11.0787
不顯	-11.0788
生焉	-11.0788
歸去	-11.0789
額曰	-11.0792
發明	-11.0792
三十七	-11.0793
德行	-11.0794
得財	-11.0795
河水	-11.0795
主事	-11.08
蓮華	-11.08
天蓬	-11.0806
謝過	-11.0806
者唯	-11.0806
寳蓋	-11.0809
如一	-11.0809
金碧	-11.0811
師友	-11.082
更衣	-11.0821
之事也	-11.0823
必爲	-11.0823
大君	-11.0825
時時	-11.0827
金龍	-11.0827
黄道	-11.083
柔弱	-11.0832
興亡	-11.0835
雲臺	-11.0839
召之	-11.0839
固辭	-11.084
西伯	-11.0844
通天	-11.0845
道傍	-11.0846
誅之	-11.0849
之奥	-11.0851
意者	-11.0852
成仙	-11.0854
不染	-11.0857
今吾	-11.0864
官禄宫	-11.0867
若遇	-11.0868
良善	-11.087
無光	-11.0871
景福	-11.0875
一女	-11.0875
道衆	-11.0878
公私	-11.0878
矣録之	-11.0879
之祖	-11.088
所稱	-11.0882
其臣	-11.0896
所著	-11.0898
不可復	-11.0899
所傷	-11.0905
于世	-11.0906
申酉	-11.0909
則亂	-11.0915
丑寅	-11.0917
亦知	-11.0922
爲灾	-11.0924
爲文	-11.0927
其民	-11.0929
欲使	-11.0929
過此	-11.093
不願	-11.0933
無際	-11.0934
一覽	-11.0934
志心皈命禮德配乾坤	-11.0944
玄黄	-11.0952
在岳之	-11.0953
長春	-11.0953
至公	-11.0953
異者	-11.0955
同前	-11.0956
十四十	-11.0956
吾夫子	-11.0959
海水	-11.0961
予曰	-11.0961
傳之	-11.0971
之愈	-11.0972
之咎	-11.0973
靡不	-11.0977
見吾	-11.0977
相反	-11.098
召公	-11.0982
俄而	-11.0983
傳云	-11.0987
爲道	-11.0987
等衆	-11.099
宫殿	-11.0997
之北	-11.0997
八節	-11.1004
已矣	-11.1007
不悟	-11.1008
復還	-11.1008
扵民	-11.101
本原	-11.101
大神通	-11.1011
生尅	-11.1011
爲治	-11.1015
去聲	-11.1018
故君子	-11.1019
仁孝	-11.1024
子胥	-11.1024
不可窮	-11.1035
護持	-11.1037
少陽	-11.1039
也所以	-11.1041
守臣	-11.1048
正性	-11.1049
于五	-11.1059
歎曰	-11.106
無聞	-11.1063
也若乃	-11.1064
自守	-11.1067
至正	-11.1073
則見	-11.1076
自漢	-11.1077
本自	-11.1077
聞之曰	-11.1078
成名	-11.1078
二十日	-11.1085
不爽	-11.1096
安定	-11.11
白玉	-11.1101
曾是	-11.1101
王道	-11.1101
又問	-11.1104
如雲	-11.1107
不恤	-11.111
己未	-11.111
變爲	-11.1113
世忠	-11.1113
其視	-11.1114
邪正	-11.1116
不憂	-11.1119
學道者	-11.1121
務在	-11.1122
人鬼	-11.1123
神祠	-11.1124
宗祖	-11.1129
本是	-11.113
將吏	-11.1133
聖明	-11.1134
化成	-11.1136
惻	-11.1139
不輕	-11.1139
水土	-11.1149
飛行	-11.1151
忝	-11.1151
乃見	-11.1152
不勞	-11.1153
子丹	-11.1154
自足	-11.1155
道化	-11.1157
雖異	-11.1166
其弟	-11.1166
戰國	-11.1167
島	-11.1171
胸	-11.1172
用此	-11.1172
與帝同	-11.1174
可知也	-11.1175
鐡	-11.1176
丹成	-11.1177
衿	-11.1177
暘	-11.1178
籟	-11.1179
滄	-11.1179
默然	-11.118
潘	-11.1181
廵狩	-11.1182
誡	-11.1183
致仕	-11.1184
扈	-11.1184
且夫	-11.1184
行人未至	-11.1185
刮	-11.1186
歉	-11.1187
褥	-11.1187
閃	-11.1188
弘道録卷之二十	-11.1188
蹲	-11.1188
瑀	-11.1188
轟	-11.1188
隴西李叔義	-11.1189
娥	-11.1189
雞鳴	-11.1189
肌	-11.1189
不可得也	-11.1189
袋	-11.119
而任之	-11.119
杓	-11.1191
踪跡	-11.1191
艷	-11.1191
弋	-11.1191
揣	-11.1192
笛	-11.1192
𣇄	-11.1192
欵	-11.1192
廖	-11.1193
拆	-11.1194
覔	-11.1194
荼	-11.1195
瞽	-11.1195
禧	-11.1195
譯	-11.1195
杼	-11.1196
衹	-11.1196
不旋踵	-11.1196
除邪	-11.1196
鬢	-11.1196
弭	-11.1196
些	-11.1197
不可思議	-11.1197
兕	-11.1197
冑	-11.1197
麽	-11.1198
君隨四時形影在上清	-11.1198
猛獸	-11.1198
酆	-11.1198
畦	-11.1198
牌	-11.1198
蘂	-11.1199
以無爲	-11.1199
眸	-11.1199
證穴	-11.1199
䇿	-11.12
葷	-11.12
聿	-11.12
帑	-11.12
鑰	-11.12
嫉	-11.12
希夷	-11.12
莫大於	-11.12
延夀	-11.1201
粥	-11.1201
盎	-11.1201
瞳	-11.1201
醴泉	-11.1201
刼衣食自然其中亦有男女身長二十	-11.1201
林甫	-11.1202
蝦蟇	-11.1202
搜	-11.1202
鉗	-11.1202
霆	-11.1203
状	-11.1203
𣲖	-11.1203
汚	-11.1203
覬	-11.1204
灘	-11.1204
卜筮	-11.1204
窘	-11.1204
蓬瀛	-11.1204
劵	-11.1204
獲麟	-11.1205
笞	-11.1205
屨	-11.1205
叠	-11.1206
睨	-11.1206
記畧	-11.1206
攖	-11.1206
其象爲	-11.1206
閟	-11.1206
沫	-11.1207
燁	-11.1207
飮酒	-11.1209
形骸	-11.121
翹	-11.1211
五百	-11.1211
堤	-11.1212
煙霞	-11.1212
昊天上帝	-11.1212
逋	-11.1213
拇	-11.1214
道妙	-11.1215
泓	-11.1216
閤	-11.1216
隨物	-11.1216
刁	-11.1216
水簾洞	-11.1217
輻	-11.1217
魘	-11.1218
宫闕	-11.1219
閉塞	-11.1219
吉日	-11.122
𦔳	-11.1223
㡌	-11.1223
人之生也	-11.1223
經一部	-11.1224
充滿	-11.1224
金幣	-11.1225
南向	-11.1225
伯温	-11.1226
襄陽	-11.1226
甘雨	-11.1226
妖邪	-11.1227
輕慢	-11.1228
十數	-11.1229
依科	-11.123
無上尊	-11.1231
容貌	-11.1232
要知	-11.1233
太宰	-11.1237
淺深	-11.1239
輪轉	-11.1239
嶽頂	-11.124
爾雅	-11.124
日益	-11.1241
度厄	-11.1241
獨能	-11.1242
興隆	-11.1243
凌空	-11.1244
繼之以	-11.1245
等閑	-11.1247
无悔	-11.1248
曾孫	-11.1248
天姚	-11.1249
彖曰天	-11.125
童蒙	-11.1251
竟不	-11.1254
無鞅	-11.1255
其職也	-11.1255
帝后	-11.1255
世之所	-11.1257
兵革	-11.126
伯夷	-11.1263
氣運	-11.1266
鍾離	-11.1269
離坎	-11.1269
廟祀	-11.127
財禄	-11.1273
蒼龍	-11.1276
莫量	-11.1277
篤信	-11.1277
等皆	-11.1278
若然者	-11.128
施行	-11.1281
形勝	-11.1284
則無以	-11.1289
季氏	-11.129
還山	-11.1291
玄科	-11.1294
常行	-11.1298
歲時	-11.1299
華盖	-11.1302
國君	-11.1303
縣令	-11.131
丹青	-11.131
者莫如	-11.131
次序	-11.1311
民物	-11.1315
無惡	-11.1316
不經	-11.1319
獨宿	-11.132
限主	-11.1321
勸君	-11.1323
穆王	-11.1323
傷害	-11.1324
簡易	-11.1324
物而不	-11.1325
保安	-11.1325
漢武	-11.1328
坐忘	-11.1329
衛國	-11.133
邑人	-11.1333
右手	-11.1334
明德	-11.1334
治道	-11.1338
李斯	-11.1339
降生	-11.134
大雨	-11.1342
老父	-11.1345
諸公	-11.1349
别有	-11.1349
諸眞	-11.1352
代張	-11.1354
告文	-11.1354
一般	-11.1361
者今	-11.1364
生成之	-11.1364
濟世	-11.1366
不休	-11.1368
梵天	-11.1372
太上皇	-11.1374
幾年	-11.1376
陵人	-11.1384
玄壇	-11.1385
存乎	-11.1386
孔明	-11.1391
金童	-11.1391
吾當	-11.1391
自信	-11.1393
龍首	-11.1394
若存	-11.1396
山之陽	-11.1398
欽哉	-11.1402
出走	-11.1405
血氣	-11.1406
光輝	-11.141
應感	-11.1413
年少	-11.142
皇天	-11.1422
遺之	-11.1426
而求之	-11.1428
顯應	-11.1428
極其	-11.1428
人言	-11.1428
力士	-11.1432
自當	-11.1432
其制	-11.1433
莫知所	-11.1435
果報	-11.144
不修	-11.1448
非徒	-11.1454
朝服	-11.1456
長樂	-11.1459
民間	-11.146
天空	-11.1462
無益於	-11.1464
夜行	-11.1471
以備	-11.1476
正位	-11.1478
道前	-11.1478
明君	-11.1479
古之人	-11.1486
平日	-11.1487
役使	-11.149
五神	-11.1494
焉能	-11.1496
感通	-11.1497
讀者	-11.15
年間	-11.1503
太古	-11.1504
善果	-11.1508
何疑	-11.1509
遇之	-11.1509
宣公	-11.1519
無盡	-11.1519
惟我	-11.1522
也孔子曰	-11.1526
之路	-11.1527
豈徒	-11.1527
頂上	-11.1529
四顧	-11.1542
無所用	-11.1546
或爲	-11.1548
慈光	-11.1552
于野	-11.156
寅卯	-11.156
受其福	-11.1566
對曰臣	-11.1566
非特	-11.1569
秦觀	-11.1576
喜慶	-11.158
天地之大	-11.1585
然亦	-11.1586
陰德	-11.1587
孰與	-11.1588
凝神	-11.1589
國安民	-11.159
矣郭註	-11.1591
斗中	-11.1595
而强	-11.1596
豈敢	-11.1599
于外	-11.1604
祥光	-11.1605
專言	-11.1605
何異	-11.1608
元始天尊說	-11.1609
西東	-11.1612
先帝之	-11.1616
天資	-11.1618
之衆	-11.1622
按詩	-11.1623
而坐	-11.1624
君王	-11.1629
前代	-11.1632
仙籍	-11.1634
其咎	-11.1637
五藏	-11.1639
子臧	-11.1644
成帝	-11.1644
迎之	-11.1645
不可言	-11.1647
獻子	-11.1654
甚多	-11.1659
之柄	-11.1664
列仙	-11.1669
五大夫	-11.1674
將士	-11.1679
度數	-11.1682
受業	-11.1689
豈得	-11.169
則雖有	-11.169
得位	-11.1692
古文	-11.1693
十人	-11.1694
温公	-11.1696
吾所以	-11.1697
凡夫	-11.1697
至孝	-11.1698
著於	-11.1702
寄之	-11.1704
輟	-11.171
隨其	-11.1712
又言	-11.1713
身輕	-11.1717
上相	-11.1719
年九月	-11.172
秋冬	-11.1737
之役	-11.1742
肘	-11.1745
大乘	-11.1752
無成	-11.1753
國中	-11.1756
蠹	-11.1757
翅	-11.1763
斯道	-11.1764
䕶	-11.1765
籤下下	-11.1765
驥	-11.1766
泗	-11.1766
瑕	-11.1766
㨿	-11.1767
狀如	-11.1768
鮑	-11.1769
痴	-11.1769
㢤	-11.1771
䧏現	-11.1771
紇	-11.1772
嘔	-11.1772
釜	-11.1772
茨	-11.1773
阮	-11.1773
遨遊	-11.1773
不學	-11.1773
恵	-11.1773
爍	-11.1773
監察御史	-11.1774
七十一	-11.1774
若人求福	-11.1774
緘	-11.1775
汹	-11.1776
粢盛	-11.1776
燄	-11.1776
耦	-11.1777
抄	-11.1777
龔	-11.1778
絆	-11.1779
礪	-11.1779
扦	-11.1779
玅	-11.178
攣	-11.178
𡖥	-11.1781
詩小雅	-11.1781
鬭	-11.1782
眚	-11.1782
苴	-11.1782
宜乎	-11.1782
圮	-11.1782
贖	-11.1782
夣	-11.1782
欲得	-11.1783
債	-11.1783
羨	-11.1784
貿	-11.1784
脅	-11.1784
數萬	-11.1784
楷	-11.1784
公侯	-11.1785
顓頊	-11.1785
蒂	-11.1785
腫	-11.1786
伯夷叔齊	-11.1786
寤	-11.1786
動作	-11.1786
按史記	-11.1787
螫	-11.1787
紛紜	-11.1787
咽液	-11.1787
薇	-11.1788
洪恩靈濟宫	-11.1788
仁傑	-11.1788
窩	-11.1789
瀝	-11.1789
鉄	-11.1789
妣	-11.1789
錐	-11.179
一行法官	-11.179
白龍	-11.179
狼虎	-11.179
芮	-11.1791
塘	-11.1791
詞伏以	-11.1791
肩輿	-11.1791
顓	-11.1791
位不當也	-11.1791
誑	-11.1791
外事	-11.1791
訶	-11.1792
吒	-11.1792
須彌山	-11.1792
蒼蒼	-11.1792
塵寰	-11.1792
靈濟眞人	-11.1793
茗	-11.1793
利濟	-11.1794
譙	-11.1794
舅姑	-11.1794
尼父	-11.1795
珊	-11.1795
衲	-11.1795
冩	-11.1795
弘道録卷之三十	-11.1796
滄溟	-11.1796
霜降	-11.1799
戸	-11.1799
子丑寅	-11.1799
頡	-11.1799
篋	-11.18
譜	-11.18
有悔	-11.1801
若要	-11.1801
歐陽	-11.1801
袂	-11.1802
司馬遷	-11.1804
囑	-11.1805
腓	-11.1805
境界	-11.1806
辟穀	-11.1806
循環	-11.1808
庫貫	-11.1808
凾	-11.1809
朱雀	-11.1809
淑女	-11.1811
甲戌	-11.1814
辛亥	-11.1814
稽古	-11.1815
方平	-11.1817
王安石	-11.1817
吴越	-11.1819
遺跡	-11.1821
利名	-11.1822
壯麗	-11.1825
轉輪	-11.1825
無以爲	-11.1826
伏魔	-11.1829
紅塵	-11.1829
宿大天王	-11.1831
庚辰	-11.1832
五卷	-11.1835
消滅	-11.1835
圖像	-11.1835
二十三年	-11.1838
武昌	-11.1838
而不窮	-11.1841
東平	-11.1841
不脩	-11.1843
權勢	-11.1844
拱照	-11.1844
維持	-11.1846
化機	-11.1847
覆載	-11.1851
饒王	-11.1851
中丞	-11.1851
公主	-11.1853
趙氏	-11.1857
羣臣	-11.1857
自少	-11.1858
玄範	-11.1858
崇寧	-11.1859
為人	-11.1861
不輟	-11.1863
刼數	-11.1863
小兒	-11.1864
賈守	-11.1864
苟能	-11.1864
三畫	-11.1867
瑞應	-11.1867
回向	-11.1868
龍吟	-11.1868
千五百	-11.1869
新羅	-11.187
龍蛇	-11.1872
金籙	-11.1874
亦當	-11.1876
禮畢	-11.1882
無幾	-11.1883
徐氏	-11.1884
謂之曰	-11.1886
不聼	-11.1886
黄冠	-11.1892
一歲	-11.1892
柔順	-11.1893
正德	-11.1896
究其	-11.1897
不可以爲	-11.1899
之敬	-11.1903
視聽	-11.1906
上清宫	-11.1907
角巳	-11.191
是以君子	-11.1911
玄光	-11.1912
伐木	-11.1912
無是非	-11.1913
一百二十	-11.1913
功滿	-11.1916
殺害	-11.1918
未達	-11.1919
又得	-11.1919
河北	-11.192
惜哉	-11.1921
小民	-11.1923
危亡	-11.1927
之微	-11.1928
虛虛	-11.194
不可易	-11.1944
秘文	-11.1944
相貌	-11.1946
九品	-11.1946
實爲	-11.1946
又奚	-11.1951
文武之	-11.1951
惡者	-11.1952
十八日	-11.1956
泣曰	-11.1958
屬土	-11.1959
伏望	-11.1961
誠信	-11.1964
余曰	-11.1966
玄機	-11.1968
主管	-11.1968
縱有	-11.1968
莫之能	-11.1973
養氣	-11.1974
事畢	-11.1981
乃復	-11.1982
良因	-11.1986
主旺	-11.1989
五雷	-11.1993
竟無	-11.1994
明鏡	-11.1994
明珠	-11.1996
聖祖	-11.1996
立早	-11.1996
不爲也	-11.2
水池	-11.2
為之	-11.2002
天樞	-11.2004
三觀	-11.2007
聲音	-11.201
用智	-11.2012
大作	-11.2014
一定之	-11.202
各各	-11.2023
乎蓋	-11.2025
申生	-11.2026
誦之	-11.2027
神祗	-11.2028
傷我	-11.2029
春月	-11.203
魏王	-11.2032
人頭	-11.2041
宣德	-11.2043
耳今	-11.2044
太始	-11.2047
降福	-11.2051
天印	-11.2054
至妙	-11.2055
次日	-11.206
本作	-11.206
有窮	-11.2064
豈可以	-11.2067
好色	-11.2067
氣和	-11.2068
法言	-11.2068
九靈	-11.2073
定天下	-11.2073
天干	-11.2077
除去	-11.208
題詩	-11.208
莫教	-11.2083
四時之	-11.2084
一夕	-11.2088
氣化	-11.2094
行而不	-11.2105
春分	-11.2106
法音	-11.2107
清風	-11.2111
亂我	-11.2112
天意	-11.2118
聞經	-11.2121
誰無	-11.2122
若之何	-11.2124
齋醮	-11.2125
二卦	-11.2125
饗之	-11.2126
是日	-11.2132
加姚	-11.2137
修齋	-11.2143
爲仇	-11.2147
天際	-11.2157
五斗	-11.2158
相尅	-11.2158
之裔	-11.2167
此可見	-11.2174
十有四	-11.2178
斬之	-11.2179
方圓	-11.218
昂	-11.2187
神像	-11.2188
魯國	-11.2191
誥命	-11.2191
果能	-11.2195
剛强	-11.2195
嘗言	-11.2196
每日	-11.2206
又次	-11.2208
昭靈	-11.2209
向使	-11.2211
昔在	-11.2213
尺許	-11.2219
神兵	-11.223
責其	-11.2235
後代	-11.2236
敬信	-11.2239
俱得	-11.2245
神通品	-11.2248
隄防	-11.2249
矣聖人	-11.2253
四十五	-11.2275
同宫	-11.2275
二君	-11.2275
也以其	-11.2287
金蓮	-11.2289
亦云	-11.2291
道義	-11.2293
無乎不	-11.2297
三洞	-11.2297
以比	-11.2302
王者之	-11.2304
士庶	-11.2306
居止	-11.231
猶在	-11.2312
何在	-11.2313
離上	-11.2316
碑本	-11.2317
乎其間	-11.2319
而逝	-11.2321
祖母	-11.2325
不在於	-11.2325
之累	-11.2326
云爾	-11.2329
也至於	-11.2333
救人	-11.2343
呼曰	-11.2356
上問	-11.2359
信哉	-11.2361
之盟	-11.2363
身受	-11.2363
上聞	-11.2372
聖門	-11.2374
逆行	-11.2375
近貴	-11.2377
誰與	-11.2378
時老子降于	-11.2382
𩲸	-11.2382
旦夕	-11.2384
某人	-11.2385
案判官主管	-11.2386
北隂下䧏	-11.2387
復位	-11.2388
其徒	-11.2389
岳飛	-11.239
洞真	-11.2392
吠	-11.2392
槁	-11.2393
籤大吉	-11.2394
旃	-11.2396
消災延壽	-11.2397
姝	-11.2398
劣	-11.2398
不亦宜乎	-11.2398
晶	-11.2399
菩提	-11.2399
痕	-11.24
桀紂	-11.24
杲	-11.24
〇	-11.2401
無註晉	-11.2401
猴	-11.2401
武王伐紂	-11.2401
秃翁曰	-11.2403
痾	-11.2403
誠以	-11.2403
酸	-11.2403
萍	-11.2403
蠧	-11.2404
覃	-11.2404
絰	-11.2404
妖孽	-11.2404
顚	-11.2405
無註遯	-11.2405
蓐	-11.2406
籥	-11.2406
轅	-11.2406
廡	-11.2406
瘁	-11.2406
臍	-11.2407
而不知其所	-11.2407
刀圭	-11.2408
豈但	-11.2408
張公	-11.2409
燃	-11.2409
愴	-11.2409
曼	-11.2409
隳	-11.2409
愕	-11.2409
忍辱	-11.241
暌	-11.241
嗣續	-11.241
卹	-11.2411
媿	-11.2411
嫉妬	-11.2411
韓琦	-11.2411
森嚴	-11.2411
剔	-11.2411
昔人	-11.2411
廽	-11.2412
嚚	-11.2412
觜	-11.2413
已久	-11.2413
眞心	-11.2413
瑰	-11.2414
弛	-11.2414
撲	-11.2414
圉	-11.2414
窆	-11.2414
紘	-11.2414
迸	-11.2415
砌	-11.2415
訊	-11.2415
棘	-11.2415
驢	-11.2415
𡍼	-11.2416
琴瑟	-11.2416
旡咎	-11.2416
貼	-11.2416
酢	-11.2416
陶朱	-11.2417
小心	-11.2418
邯鄲	-11.2418
醢	-11.2419
録曰夫所謂	-11.2419
蛾	-11.2419
叩頭	-11.242
四牡	-11.242
都尉	-11.242
佗	-11.242
翰林學士	-11.242
阯	-11.242
澆	-11.2421
旡咎象曰	-11.2421
縱横	-11.2421
急急	-11.2421
郡縣	-11.2422
輕泄	-11.2422
輪迴	-11.2422
吐納	-11.2423
沼	-11.2424
唵	-11.2424
杵	-11.2424
紗	-11.2426
撑	-11.2426
快活三	-11.2426
閶闔	-11.2427
則無所	-11.2428
咒詛	-11.2428
吝象曰	-11.2428
磨崖碑	-11.2428
偽	-11.2429
桃李	-11.2429
旗龍	-11.243
迷惑	-11.243
青蠅	-11.243
更冀	-11.2431
迦	-11.2432
脂	-11.2432
麻姑	-11.2432
餘慶堂	-11.2432
季子	-11.2434
眞持經	-11.2434
聖號	-11.2435
凉	-11.2437
中藏	-11.2439
樓臺	-11.244
卯酉	-11.244
天文志	-11.2441
鮑叔	-11.2441
刑獄	-11.2442
倉卒	-11.2442
康叔	-11.2442
冬則	-11.2443
天樞院	-11.2444
泰岳	-11.2444
思邈	-11.2444
浩浩	-11.2444
道塲	-11.2444
水簾	-11.2444
之子也	-11.2445
癸巳	-11.2445
無心而	-11.2445
設醮	-11.2446
教民	-11.2446
左旋	-11.2449
君臣之義	-11.2449
欽崇	-11.2451
欲盡	-11.2454
浮沉	-11.2456
懸崖	-11.2457
刀兵	-11.2458
維新	-11.2458
祥符	-11.2458
住持	-11.2459
六百	-11.2459
貧窮	-11.2459
可愛	-11.2459
孝弟	-11.246
丁巳	-11.2461
未甞	-11.2461
二十八年	-11.2462
浩然	-11.2465
前程	-11.2465
太甲	-11.2465
淵源	-11.2466
邪淫	-11.2468
天府	-11.247
愚人	-11.2473
和尚	-11.2474
太嵗	-11.2475
一線	-11.2476
循理	-11.2478
旬日	-11.2478
豫章	-11.2478
步虛	-11.2479
玉液	-11.2481
典刑	-11.2481
石閭	-11.2482
愚者	-11.2482
羅計	-11.2486
雲霞	-11.2487
爲士者	-11.2487
深入	-11.2489
交錯	-11.2489
御前	-11.2491
便殿	-11.2493
布施	-11.2494
文正	-11.2496
郎中	-11.2497
長幼	-11.25
不壞	-11.2503
法籙	-11.2505
七寶	-11.2506
萬姓	-11.2506
乙未	-11.2509
封號	-11.2521
如斯	-11.2525
謚曰	-11.2531
瑞光	-11.2533
南昌	-11.2537
豈復	-11.2538
尊崇	-11.2539
雲烟	-11.2541
北辰	-11.2546
秘書	-11.2547
眼前	-11.255
扶持	-11.2551
一念之	-11.2555
異類	-11.2555
無狀	-11.2558
凡此	-11.2561
儒書	-11.2562
清虚	-11.2562
石刻	-11.2564
紫白	-11.2566
巳身	-11.2567
如之何	-11.2572
江東	-11.2573
玉簡	-11.2575
廬山	-11.2575
兩先生	-11.258
精靈	-11.2582
秦時	-11.2585
遂使	-11.2586
禮謝	-11.259
下詔	-11.2592
能止	-11.2592
臣願	-11.2593
鄕人	-11.2595
王母池	-11.2599
慶父	-11.2599
同郡	-11.2602
肅然	-11.2604
盛時	-11.2605
百代	-11.2606
者道之	-11.2607
一國	-11.2609
固不可	-11.2617
晋書	-11.2623
前定	-11.2623
固請	-11.2626
三途	-11.263
所用之	-11.264
丹皇	-11.2642
不朽	-11.2642
手執	-11.2644
通達	-11.2647
赤帝	-11.2648
我國家	-11.2648
失時	-11.2649
靈臺	-11.2652
無傷	-11.2654
並起	-11.2656
杳冥	-11.2657
揚州	-11.2663
月華	-11.2668
所造	-11.2672
未悟	-11.2673
孝皇	-11.2676
奉持	-11.2679
豈特	-11.268
一十八	-11.2684
四十年	-11.2685
端正	-11.2685
大都	-11.2689
不知所以	-11.2693
作詩	-11.2694
目視	-11.2695
無比	-11.2695
洞陽	-11.2706
多方	-11.2707
三爻	-11.272
酉戌	-11.2728
無違	-11.2733
者是也	-11.2735
五色雲	-11.2738
憂樂	-11.2739
太保	-11.2743
㣲子	-11.2744
無拘	-11.2759
十有九	-11.2759
一爻	-11.276
慶雲	-11.2766
悲夫	-11.2769
衆真	-11.277
專心	-11.2774
設使	-11.2775
平平	-11.2776
震下	-11.2783
情性	-11.2785
辰星	-11.2786
語言	-11.2789
自號	-11.279
衆山	-11.279
内殿	-11.2791
乎是故	-11.2798
拜禮	-11.28
吾道	-11.2802
自能	-11.2806
異香	-11.2806
二千	-11.2815
假如	-11.2815
昭然	-11.2816
清白	-11.282
所說	-11.2821
俱在	-11.2822
嘗聞	-11.2822
既成	-11.2826
告我	-11.2831
諸魔	-11.2841
萬餘	-11.2841
妨	-11.2852
惟爾	-11.2852
小國	-11.2855
道人曰	-11.2855
運行	-11.2859
藏於	-11.2866
殿下	-11.2872
東都	-11.2872
遂意	-11.2876
有徳	-11.2877
故又曰	-11.2879
成章	-11.2882
峰頭	-11.2891
下土	-11.2895
王侯	-11.2895
大禹	-11.2897
舉家	-11.2898
俱徃	-11.2905
立志	-11.2908
者二人	-11.2908
縣人	-11.2908
本年	-11.2912
職事	-11.2913
一枝	-11.2917
浮生	-11.2918
豈獨	-11.2925
俄有	-11.2927
登仙	-11.2928
美惡	-11.293
立教	-11.2931
其才	-11.2936
天祥	-11.295
祖宗之	-11.295
也不以	-11.2951
曰臣聞	-11.2959
正所謂	-11.2964
何物	-11.2964
若驚	-11.2966
弗及	-11.2971
也噫	-11.2981
洞明	-11.2985
命坐	-11.2986
奉命	-11.2987
堂前	-11.2989
大患	-11.299
以至扵	-11.2994
無根	-11.2995
不辨	-11.2999
能守	-11.3001
北面	-11.3002
公論	-11.3017
儒家	-11.3019
未可以	-11.3021
線	-11.3023
敢忘	-11.3025
棄其	-11.3026
爲何如	-11.303
徃見	-11.3033
一統	-11.3035
陳平	-11.3039
傭	-11.3043
持是經人	-11.3047
非有所	-11.305
呴	-11.3052
靠	-11.3053
穉	-11.3054
驅邪院	-11.3055
五黄	-11.3056
央	-11.3056
畛	-11.3057
嬀	-11.3057
疽	-11.3058
魴	-11.3058
璨	-11.3059
鳯凰	-11.3059
東宫	-11.3059
嚼	-11.306
鬯	-11.306
枯骨	-11.3062
鰥寡	-11.3063
諤	-11.3064
街	-11.3064
梨	-11.3064
恰	-11.3064
仲山甫	-11.3065
儻	-11.3065
熹	-11.3066
塚	-11.3066
瑤	-11.3067
琮	-11.3067
閫	-11.3067
蹙	-11.3068
豚	-11.3068
曠然無	-11.3068
桴	-11.3068
甥	-11.3068
核	-11.3069
右玉皇誥命以錫	-11.3069
也或曰	-11.3069
萼	-11.3069
潺	-11.3069
狂妄	-11.307
脢	-11.307
犀	-11.307
訥	-11.307
馳騁	-11.307
煖	-11.3071
王輔嗣	-11.3071
峴	-11.3071
蒿	-11.3071
寂寥	-11.3071
弘道録卷之四十	-11.3071
戢	-11.3072
曄	-11.3072
潢溪	-11.3072
漲	-11.3072
件	-11.3072
瑋	-11.3073
廵撫	-11.3073
宫龍女	-11.3073
搬	-11.3073
逡巡	-11.3073
藪	-11.3073
隨四時形影在	-11.3073
緝	-11.3074
筴	-11.3074
詵	-11.3074
蠅	-11.3074
妥	-11.3074
押	-11.3074
爾時天尊	-11.3075
䖍	-11.3075
颺	-11.3075
顥	-11.3075
鴛	-11.3076
鶴鳴	-11.3076
簋	-11.3076
利見大人	-11.3076
佯	-11.3076
掉	-11.3076
掇	-11.3076
節度使	-11.3077
姥	-11.3077
瘴	-11.3077
矛	-11.3077
譎	-11.3078
殛	-11.3078
㩀	-11.3078
碌碌	-11.3078
瀛	-11.3078
駁	-11.3078
冢	-11.3079
忮	-11.3079
江淮	-11.3079
穹蒼	-11.308
仁聖	-11.308
感慨	-11.308
讙	-11.308
塵垢	-11.308
煦	-11.308
躭	-11.3081
冽	-11.3081
漾	-11.3081
噪	-11.3081
祈禳	-11.3081
蜿蜒	-11.3081
寂寞	-11.3081
緬	-11.3081
祝釐	-11.3082
正一嗣教凝誠志道闡玄弘教大	-11.3082
勁	-11.3083
不知何	-11.3083
閨門	-11.3083
而後知	-11.3084
玷	-11.3084
波濤	-11.3085
啜	-11.3085
閏	-11.3085
塋	-11.3086
鄒魯	-11.3087
胤	-11.3087
瞑	-11.3088
梁甫	-11.3088
糠	-11.3088
超昇	-11.3089
鬼帥	-11.309
何也曰	-11.309
瀑	-11.309
流涕	-11.3091
巡狩	-11.3091
覈	-11.3091
杵臼	-11.3091
綘	-11.3092
百餘年	-11.3092
山海經	-11.3092
名士	-11.3092
一切世界	-11.3093
庻	-11.3093
億兆	-11.3095
兜	-11.3095
鄷都	-11.3096
絳節	-11.3096
則不然	-11.3096
無註解	-11.3098
征伐	-11.3098
豁落	-11.3098
夭折	-11.3098
慶曆	-11.3099
傅奕	-11.3099
水晶	-11.31
展轉	-11.31
玉皇上帝	-11.3101
鵝	-11.3102
勿恤	-11.3103
羽翼	-11.3104
飄飄	-11.3104
哲宗	-11.3105
磨崖	-11.3106
採藥	-11.3106
實沈	-11.3106
各安其	-11.3107
接引	-11.3107
恭儉	-11.3108
掃除	-11.3108
築室	-11.3109
癸酉	-11.3113
朝覲	-11.3115
太監	-11.3117
青霄	-11.3117
統御	-11.3117
後學	-11.3118
此之謂也	-11.312
今古	-11.3121
無妨	-11.3122
揲	-11.3122
之意也	-11.3123
秀才	-11.3123
頭戴	-11.3126
二十九日	-11.3127
世傑	-11.313
又何疑	-11.313
車駕	-11.3132
宗社	-11.3134
十卷	-11.3138
歷歷	-11.3138
尅害	-11.314
襄王	-11.314
無忌	-11.3141
曾史	-11.3143
感格	-11.3144
秦碑	-11.3146
忠良	-11.3149
妙理	-11.3149
士卒	-11.3149
玉樓	-11.315
建醮	-11.315
太史公	-11.3151
清規	-11.3152
甲午	-11.3153
譬則	-11.3156
砂水	-11.3156
興旺	-11.3157
俯伏	-11.3157
專一	-11.3159
亦宜	-11.3159
威權	-11.316
油然	-11.3161
加之以	-11.3162
設施	-11.3167
者爲之	-11.3167
六丁	-11.3168
景泰	-11.3179
孝慈	-11.318
名之曰	-11.3181
巍然	-11.3182
云録曰愚觀	-11.3184
起居	-11.3185
仙樂	-11.3185
春夏	-11.3189
九天玉闕宣化扶教上仙昭靈博濟	-11.3191
安在其	-11.3192
諸峯	-11.3193
五隂	-11.3196
入宅	-11.3196
姓字	-11.3197
永久	-11.32
願陛下	-11.3205
士民	-11.3212
己亥	-11.3213
含靈	-11.3215
田財	-11.3215
宛然	-11.3216
少卿	-11.3218
南斗	-11.3219
三十日	-11.3223
之行也	-11.3226
宣和	-11.3227
大元帥	-11.3228
一丈	-11.3232
只因	-11.3233
不怠	-11.3234
侈心	-11.3239
得其所	-11.3244
天涯	-11.3244
侍從	-11.3247
勒石	-11.3249
厥靈	-11.3249
武功	-11.3249
化現	-11.325
气	-11.3251
不妨	-11.3252
直指	-11.3256
非聖人	-11.3256
事不成	-11.326
無灾	-11.3261
心勞	-11.3262
爲之歌	-11.3262
拱手	-11.3262
都統	-11.3263
雷動	-11.3265
難遇	-11.3271
流俗	-11.3272
天律	-11.3276
腹心	-11.3277
音聲	-11.3279
越觀	-11.3282
大旱	-11.3283
非義	-11.3287
藥石	-11.3288
擇日	-11.3289
性情	-11.3294
百二十	-11.33
國無	-11.33
大梵	-11.3302
朝拜	-11.3302
典禮	-11.3307
天醫	-11.3308
若干	-11.3312
但當	-11.3315
將帥	-11.3316
大雅	-11.3317
益州	-11.3319
運用	-11.3333
登科	-11.3333
古禮	-11.3334
月會於	-11.3338
天丁	-11.3339
諸品	-11.3345
曾子曰	-11.3357
寡言	-11.3358
立功	-11.336
九紫	-11.3361
録曰帝之	-11.3364
方丈	-11.3364
天柱	-11.3369
禍及	-11.3382
仙衆	-11.3386
貨財	-11.3393
乾封	-11.3401
不免於	-11.3403
天界	-11.3407
所屬	-11.341
惠公	-11.3413
得免	-11.3415
紫文	-11.3416
傳授	-11.3421
曰今日	-11.3422
家庭	-11.3423
宗正	-11.3424
六情	-11.3428
經綸	-11.3432
楚王	-11.344
殊不知	-11.3441
長城	-11.3446
孰敢	-11.3446
辭去	-11.3449
州治	-11.3449
毋得	-11.3451
何以能	-11.3454
南麓	-11.3458
經歷	-11.3468
死亡	-11.3475
只在	-11.3476
不擇	-11.3479
官吏	-11.3486
稱意	-11.3487
侍香	-11.349
應驗	-11.3496
不答	-11.3526
治平	-11.3531
好善	-11.354
録曰以	-11.3544
亡靈	-11.3546
忘言	-11.355
丈許	-11.3556
諸鬼	-11.3556
群山	-11.3559
禮法	-11.3563
命汝	-11.3573
乎然則	-11.3575
寒水	-11.3583
河海	-11.3591
皇皇	-11.3593
哉蓋	-11.3605
破祖	-11.3612
一句	-11.3613
嶽廟	-11.3621
祖龍	-11.3622
雨雪	-11.3626
千丈	-11.3629
人有言	-11.3632
無偏	-11.364
任性	-11.364
貴重	-11.3651
忽見	-11.3651
不云乎	-11.3654
報國	-11.3667
舍人	-11.3675
如響	-11.3679
第八	-11.3695
眞性	-11.3701
威神	-11.3708
殿前	-11.371
統制	-11.3712
福田	-11.3714
不愧	-11.3717
瓘	-11.3728
之乹	-11.3732
康王	-11.3733
林木	-11.3736
相待	-11.3736
在岳頂西	-11.3746
孰不	-11.3753
世代	-11.3753
天下莫不	-11.3766
硃	-11.3766
祛	-11.377
手持	-11.3772
紊	-11.3772
饕	-11.3772
𢦙	-11.3773
藿	-11.3774
江水帝大龍王	-11.3774
喚	-11.3776
螟	-11.3776
潛	-11.3776
螻蟻	-11.3777
孺	-11.3777
詫	-11.3777
丐	-11.3777
犬吠	-11.3777
莘	-11.3778
知磬舉	-11.3779
賽	-11.3779
欻	-11.3779
尅洩	-11.378
桀跖	-11.378
仝	-11.3781
㡬	-11.3781
絜	-11.3781
斟酌	-11.3781
彷彿	-11.3781
牘	-11.3781
郵	-11.3782
瘠	-11.3782
月十八日	-11.3783
韜	-11.3783
癰	-11.3783
攘臂	-11.3784
鎡	-11.3784
倏忽	-11.3784
伎	-11.3785
糟	-11.3785
嚙	-11.3785
潞公	-11.3785
舉世	-11.3785
爨	-11.3785
顙	-11.3786
湏臾	-11.3786
哀公十四年	-11.3786
匝	-11.3786
紱	-11.3786
瑾	-11.3787
暝	-11.3787
疥	-11.3787
瀑布	-11.3787
劎	-11.3787
彜	-11.3787
壬戌	-11.3788
撼	-11.3788
葩	-11.3788
髻	-11.3788
寑	-11.3788
唤	-11.3788
舘	-11.3789
嬌	-11.3789
叚	-11.3789
朂	-11.379
卻	-11.379
狠	-11.379
甲乙	-11.379
墊	-11.3791
拈	-11.3791
穫	-11.3791
掌握	-11.3791
跣足	-11.3792
犬戎	-11.3792
嘘	-11.3792
莫大焉	-11.3792
舛	-11.3792
君之道常以	-11.3793
思之還反真形冬三月	-11.3793
蒼茫	-11.3794
四肢	-11.3794
諶	-11.3794
棟梁	-11.3794
蜜	-11.3794
撫育	-11.3794
而不言	-11.3794
踊躍	-11.3795
噉	-11.3795
衞	-11.3795
登高	-11.3795
拖	-11.3795
里中迴真下映入兆	-11.3795
錮	-11.3795
贄	-11.3796
霹	-11.3796
娠	-11.3796
擘	-11.3796
絢	-11.3797
叁	-11.3797
諄諄	-11.3797
汲汲	-11.3797
大慈尊	-11.3797
僂	-11.3797
牧羊	-11.3797
衒	-11.3798
簧	-11.3798
舂	-11.3798
寮	-11.3798
滋味	-11.3799
碑銘	-11.3799
栽	-11.3799
戕	-11.3799
衙	-11.38
伽	-11.38
塑	-11.38
晃	-11.38
津梁	-11.38
蹴	-11.38
娑	-11.3801
取諸	-11.3801
馨香	-11.3801
億刼	-11.3801
侍宸	-11.3801
親睦堂	-11.3802
低頭	-11.3802
釋迦	-11.3804
倣此	-11.3804
悠久	-11.3804
彫	-11.3804
明道達德大仙顯靈溥濟清微洞玄冲虛	-11.3804
鎔	-11.3804
俻	-11.3804
世之人	-11.3805
槎	-11.3805
幄	-11.3806
石經峪	-11.3806
𣈆	-11.3807
詹	-11.3807
秘訣	-11.3808
初八日	-11.3808
每一時	-11.3808
倉庫	-11.3809
曰美哉	-11.3809
誰肯	-11.381
閼	-11.381
壽夭	-11.381
禦寇	-11.381
精思	-11.381
勺	-11.381
神呪品	-11.381
廷尉	-11.3811
惠子曰	-11.3812
申状	-11.3812
知諤	-11.3813
瑞旦	-11.3815
乙亥	-11.3816
清涼	-11.3818
紫霞	-11.3818
覆護	-11.3818
霍光	-11.3822
齊桓公	-11.3824
徐徐	-11.3825
牛羊	-11.3826
京兆	-11.3827
吳	-11.3828
慨然	-11.3828
至京	-11.3829
香帛	-11.3829
貞厲	-11.383
辛苦	-11.383
丘陵	-11.3832
祖天師	-11.3833
欽承	-11.3834
會吉星	-11.3836
羅浮	-11.3837
峻極	-11.3837
洞裏	-11.3837
辛巳	-11.3837
乙巳	-11.3838
河源	-11.384
安敢	-11.384
季孫	-11.3843
異同	-11.3845
金液	-11.3845
天籟	-11.3845
醮壇	-11.3845
黎民	-11.3846
羅列	-11.3847
孤魂	-11.3847
未可知也	-11.3849
閉門	-11.3854
赫然	-11.3855
章句	-11.3855
安排	-11.3856
往來	-11.3856
泊然	-11.3858
夜鳴	-11.3858
盈虛	-11.3858
又伏以	-11.3859
信任	-11.386
切切	-11.386
廟宇	-11.3861
消散	-11.3861
置酒	-11.3861
半夜	-11.3865
昇平	-11.3871
慈惠	-11.3871
冲舉	-11.3871
廣陵	-11.3872
厄難	-11.3872
必須	-11.3874
通判	-11.3875
諫曰	-11.3875
宋史	-11.3875
某等	-11.3878
虚危	-11.3878
問之曰	-11.3879
解悟	-11.388
五彩	-11.3881
仙階	-11.3881
武陵	-11.3882
年十月	-11.3883
加哭	-11.3884
賢愚	-11.3885
己丑	-11.3886
燕齊	-11.3887
幽顯	-11.3888
萬户	-11.389
二十一日	-11.3891
郡守	-11.3891
東京	-11.3896
敵國	-11.3896
黄鳥	-11.3896
曰古者	-11.3897
前驅	-11.3898
華池	-11.3898
然後可以	-11.3901
持經者	-11.3904
顯達	-11.3906
生涯	-11.391
白羊	-11.391
飛揚	-11.3911
不昧	-11.3914
妄想	-11.3917
南嶽	-11.3919
或勸	-11.3922
太廟	-11.3923
武后	-11.3924
天衢	-11.3928
鳥飛	-11.3929
諸郡	-11.3931
雷聲	-11.3932
瑞氣	-11.3934
諸吕	-11.3934
武侯	-11.3938
石屋	-11.3939
黄泉	-11.394
因果	-11.3942
二十五日	-11.3943
岱山	-11.395
尊嚴	-11.3952
可不愼	-11.3953
内史	-11.3962
是夕	-11.3962
率土	-11.3963
奏請	-11.3964
艮止	-11.3964
知誥	-11.3964
特遣	-11.3967
變易	-11.3967
之元氣	-11.3969
九鼎	-11.3971
窮理	-11.3971
兩忘	-11.3972
紅門	-11.3972
疑惑	-11.3974
吴門	-11.3976
此三者	-11.3976
妄語	-11.3977
宣說	-11.3978
清江	-11.3979
坐向	-11.3986
空亡	-11.399
流血	-11.3993
禮儀	-11.3994
葬於	-11.3995
遇雨	-11.4
窈冥	-11.4008
知證	-11.4008
决不可	-11.4022
誠敬	-11.4022
雨澤	-11.4024
五十一	-11.4025
魯君	-11.4026
哀哉	-11.4029
幾度	-11.4032
懷憂	-11.4038
金鼎	-11.4042
胡不	-11.4044
青華	-11.4045
金輪	-11.4056
相扶	-11.4061
伯氏	-11.4064
在其中	-11.4065
岱史第	-11.4069
齊州	-11.4075
輔國	-11.4075
慕道	-11.4077
靈根	-11.4078
咸陽	-11.4085
尚父	-11.4091
尊賢	-11.4093
一人之	-11.41
公署	-11.4103
韓非	-11.4104
賜福	-11.4108
動止	-11.411
定制	-11.4113
法門	-11.4126
近臣	-11.4138
運動	-11.4143
伯陽	-11.415
多智	-11.4151
平原	-11.4152
財物	-11.4152
二儀	-11.4154
郡中	-11.4154
丈餘	-11.4159
陽春	-11.4164
陰功	-11.4181
告之曰	-11.4192
申公	-11.4199
靈府	-11.42
遂致	-11.4206
生扶	-11.4206
/□)	-11.4208
二十餘	-11.4211
禄位	-11.4215
海日	-11.4227
賦詩	-11.423
客氣	-11.4238
少女	-11.4245
不能容	-11.4246
河洛	-11.4252
帝座	-11.4257
夷吾	-11.4258
聖人所以	-11.4259
十餘萬	-11.426
五十七	-11.4263
大限	-11.4266
又嘗	-11.4269
然後能	-11.4277
仰惟	-11.43
寸許	-11.4302
功過	-11.4307
輔相	-11.431
慈仁	-11.4313
諷誦	-11.4314
明徳	-11.4326
舒公	-11.4375
也孟子曰	-11.4386
北京	-11.4392
養民	-11.4402
白鹿	-11.4416
靈章	-11.4423
何害	-11.4429
加刑	-11.443
求道	-11.4442
頂西	-11.4444
尹喜	-11.4448
唯聖人	-11.4449
天池	-11.4477
虛皇	-11.4478
東井	-11.4498
永保	-11.4499
失其所	-11.4505
第九	-11.4523
實録	-11.4527
縊	-11.4531
誹謗	-11.4535
跖	-11.4536
籬	-11.4537
無是無非	-11.4537
㳟	-11.4537
妍	-11.4537
常情	-11.4537
爲小人	-11.4538
牡	-11.4539
黽勉	-11.454
秘籙一階此籙	-11.4542
璟	-11.4542
與道合眞	-11.4543
焱	-11.4544
鷖	-11.4544
爭奈	-11.4544
㦸	-11.4545
伋	-11.4545
愷	-11.4545
攫	-11.4545
蘄	-11.4545
丙丁	-11.4546
釀	-11.4547
可測	-11.4547
赫奕	-11.4548
曰諾	-11.4548
煑	-11.4548
橘	-11.4549
澡	-11.4549
郝	-11.4549
荐	-11.455
廳	-11.455
欣欣	-11.4551
歧	-11.4551
蚩	-11.4552
年月日	-11.4552
鯨	-11.4552
橐	-11.4553
錡	-11.4553
筮龜	-11.4553
喝	-11.4553
誚	-11.4553
馥	-11.4553
湎	-11.4554
靈妃玉女	-11.4554
皎	-11.4554
燮	-11.4555
清明天主	-11.4555
巵	-11.4555
鶯	-11.4555
饑饉	-11.4556
冠冕	-11.4556
詛	-11.4556
無註無妄	-11.4556
巉	-11.4557
晋開運	-11.4557
义	-11.4557
恬淡	-11.4558
兀术	-11.4558
欒	-11.4558
逭	-11.4558
屛	-11.4558
逺行	-11.4558
莊子翼卷之	-11.4558
訂	-11.4558
賄	-11.4559
凛凛	-11.4559
宫辰星君	-11.4559
沓	-11.4559
霈	-11.4559
諦聽	-11.4559
嵓	-11.4559
燼	-11.456
給事中	-11.456
朧	-11.456
夢寐	-11.456
思之還反真形夏三月	-11.456
藐	-11.456
赤松子	-11.4561
及其至也	-11.4561
皇明恩命世録卷之	-11.4561
旱魃	-11.4561
无攸利	-11.4561
滔	-11.4561
愠	-11.4561
翫	-11.4562
冉	-11.4562
璣	-11.4562
袒	-11.4562
綾	-11.4562
失物不見	-11.4562
崧	-11.4562
楓	-11.4563
企	-11.4563
忒	-11.4563
崆峒	-11.4564
血肉	-11.4564
燿	-11.4564
𦵏	-11.4564
歐	-11.4565
驩	-11.4565
范仲淹	-11.4565
失其寵	-11.4565
賈誼	-11.4565
掣	-11.4566
慊	-11.4566
買賣	-11.4567
蕪	-11.4568
竝	-11.4568
蹉跎	-11.4568
巉巖	-11.4569
性命之情	-11.4569
枳	-11.4569
愿	-11.4569
蘋	-11.4569
刳	-11.457
穿鑿	-11.457
俘	-11.457
樣	-11.457
旡妄	-11.4571
鍼	-11.4571
莫大乎	-11.4572
冲虚	-11.4572
愉	-11.4572
摶	-11.4572
關尹	-11.4572
繳	-11.4573
揖讓	-11.4573
仁義禮樂	-11.4574
徽宗	-11.4574
漢栢	-11.4574
假借	-11.4574
碧霞元君	-11.4574
何啻	-11.4575
玄牝	-11.4575
縉紳	-11.4576
者異矣	-11.4576
濟濟	-11.4576
豚魚	-11.4576
封侯	-11.4577
於予予	-11.4577
旭	-11.4577
嶙	-11.4578
凑	-11.4579
不可不察	-11.458
毫釐	-11.458
堪輿	-11.4581
緇	-11.4581
伯禽	-11.4581
昭烈	-11.4581
高老橋	-11.4581
敷奏	-11.4581
鏤	-11.4582
商賈	-11.4583
湊	-11.4585
淵默	-11.4585
百丈	-11.4586
降婁	-11.4586
是時天尊	-11.4586
城郭	-11.4586
鶴駕	-11.4587
陶氏	-11.4588
翠微	-11.4591
盞	-11.4591
桑田	-11.4592
孔丘	-11.4592
勑諭	-11.4593
黎庶	-11.4593
潤澤	-11.4593
趙普	-11.4594
酒肉	-11.4594
休咎	-11.4594
晚年	-11.4596
昭儀	-11.4597
預修	-11.4597
吉甫	-11.4598
爭訟	-11.4599
隆慶	-11.4599
世系	-11.46
驚駭	-11.4602
肩吾	-11.4604
今受元君勑	-11.4604
彌羅	-11.4605
月日在	-11.4605
兒孫	-11.4605
萬倍	-11.4606
只恐	-11.4606
欣然	-11.4607
玉牒	-11.4607
禁約	-11.4607
燥金	-11.4608
尚冀	-11.4608
友聞	-11.461
澹然	-11.4614
借問	-11.4615
夏商	-11.4615
絶倫	-11.4616
九齡	-11.4616
枯木	-11.4618
咸池	-11.462
勤勞	-11.462
不可缺	-11.462
汝南	-11.4621
親踈	-11.4622
自慚	-11.4622
騰空	-11.4627
毅然	-11.4627
流霞	-11.4628
宗族	-11.4639
示之以	-11.4642
演法	-11.4642
持齋	-11.4642
周徧	-11.4643
王珪	-11.4644
自此始	-11.4644
虚皇	-11.4645
柰何	-11.4652
己酉	-11.4656
斡運	-11.466
所係	-11.4663
建康	-11.4664
飄然	-11.4665
西溪	-11.4665
學術	-11.4666
解釋	-11.4667
二十四年	-11.467
持戒	-11.4672
破財	-11.4672
何所不	-11.4672
廟堂	-11.4673
配合	-11.4681
吴氏	-11.4682
千餘人	-11.4682
召對	-11.4683
之甚也	-11.4683
施設	-11.4685
雷風	-11.4687
厥功	-11.4689
朝天宫	-11.469
十五里	-11.469
祖考	-11.4691
沙門	-11.4694
徃昔	-11.4695
每歲	-11.4696
曲直	-11.4696
務要	-11.4697
壺中	-11.4698
忠武	-11.4698
血光	-11.4699
譬若	-11.4701
擎游	-11.4705
修造	-11.4705
嵗星	-11.4709
聚會	-11.4713
愛河	-11.4715
二程	-11.472
憂疑	-11.4722
斯須	-11.4723
子產	-11.4727
龍鳳	-11.4729
孝服	-11.4736
以成其	-11.4737
斷絶	-11.4738
常侍	-11.474
玄珠	-11.474
何愁	-11.4741
空虚	-11.4745
七赤	-11.4749
安康	-11.4751
夏五月	-11.4752
始悟	-11.4754
秘法	-11.4755
華夏	-11.4757
五味	-11.4757
或遭	-11.4758
兩手	-11.4769
曲盡	-11.4772
青州	-11.4773
妙藥	-11.4775
不爲而自	-11.4782
年六十	-11.4788
天地之氣	-11.4788
之德也	-11.4791
子貢曰	-11.4792
一杯	-11.4796
風塵	-11.4802
七情	-11.4804
伏義	-11.4806
權貴	-11.4815
朝野	-11.4817
海色	-11.482
李白	-11.4823
鄭國	-11.4826
洞淵	-11.4828
何暇	-11.4836
來謁	-11.484
何曾	-11.4843
壬癸	-11.4843
道之大	-11.4844
全體	-11.485
无應	-11.4854
永平	-11.4861
窮通	-11.4864
作春秋	-11.4864
形影	-11.4867
接物	-11.4873
財利	-11.4876
吴主	-11.4877
仲冬	-11.488
也附録	-11.4886
衆庶	-11.4888
列傳	-11.4893
從事於	-11.4903
一員	-11.4907
渡河	-11.4909
録曰宋	-11.494
仁愛	-11.4945
聖人之心	-11.4947
奚足	-11.4947
望岳	-11.4957
亦可謂	-11.4958
獨存	-11.4959
非我也	-11.4971
伏念臣	-11.4971
形貌	-11.4981
者多矣	-11.4986
吏兵	-11.4996
言之則	-11.5003
不然何	-11.5009
其爲人	-11.5029
歷年	-11.5049
毫末	-11.5083
苦海	-11.5125
故無不	-11.5132
南遊	-11.517
戒之曰	-11.5188
遑	-11.5236
姚異	-11.525
仰望	-11.5257
斡	-11.5259
慶會	-11.5268
不自得	-11.5278
山陵	-11.5292
火燒	-11.5314
岱史	-11.532
思之還反真形秋三月	-11.5328
加毛	-11.5329
澶	-11.5357
不能免	-11.5359
駘	-11.536
漳	-11.5364
祜	-11.5365
倣	-11.5366
隧	-11.5368
齚	-11.5368
法此法䏻	-11.5371
葵	-11.5372
三年之喪	-11.5375
宫度在天屬	-11.5375
身命居之者以	-11.5375
児	-11.5375
蝦	-11.5377
浹	-11.5377
庾	-11.5378
求財未遂	-11.5378
組	-11.5378
召赴闕	-11.5379
初三刻起至正二刻止方是	-11.5379
初二刻止此屬	-11.538
正三刻起至	-11.538
荔	-11.538
頴川	-11.538
釡	-11.5381
冗	-11.5381
届	-11.5381
渾沌	-11.5381
趕	-11.5381
紿	-11.5382
劓	-11.5383
縲	-11.5383
草莽	-11.5383
鼓琴	-11.5383
徐仙翰藻卷之	-11.5383
斲	-11.5383
机	-11.5384
閬	-11.5384
求官必達	-11.5384
鎬	-11.5384
筌	-11.5385
籙一部	-11.5385
屣	-11.5386
掊	-11.5386
飈	-11.5386
耐	-11.5386
紐	-11.5386
䄂	-11.5386
層巒	-11.5386
垓	-11.5386
徐仙翰藻	-11.5386
烜赫	-11.5386
三惡道	-11.5386
奈之何	-11.5387
瑟	-11.5387
劉用相曰	-11.5387
𩛙	-11.5387
俛	-11.5388
孳孳	-11.5388
爕	-11.5388
高功黙念	-11.5388
按察使	-11.5388
酋	-11.5388
蛙	-11.5388
覿	-11.5389
吐蕃	-11.5389
邳	-11.5389
鈍	-11.5389
淹留	-11.5389
鼔	-11.5389
参	-11.5389
脛	-11.5389
襌	-11.5389
坂	-11.5389
孑	-11.5389
簽	-11.5389
撮	-11.539
錄	-11.539
儋	-11.539
圄	-11.5391
蹕	-11.5391
瀾	-11.5391
躋攀	-11.5391
啣	-11.5391
歘	-11.5391
蔬	-11.5392
揀	-11.5392
皇經集註卷之	-11.5392
騁	-11.5392
勣	-11.5392
伏念某等	-11.5392
蘇軾	-11.5392
趺	-11.5392
石崖	-11.5393
剡剡	-11.5393
芝蘭	-11.5393
抹	-11.5393
雩	-11.5394
泥塗	-11.5394
艶	-11.5394
洎	-11.5394
苓	-11.5394
錫之誥命	-11.5394
嶧	-11.5394
彦愽	-11.5395
佈亡魂	-11.5395
黛	-11.5395
竺	-11.5395
贏	-11.5395
信受奉行	-11.5395
嵒	-11.5395
俎豆	-11.5395
吹笙	-11.5396
季札	-11.5397
荼毒	-11.5397
漬	-11.5397
猥	-11.5397
層霄	-11.5397
䖍誠	-11.5397
登眺	-11.5398
它	-11.5398
三百六十	-11.5398
俄頃	-11.5398
淂	-11.5399
名臣録	-11.5399
阨	-11.5399
公羊傳	-11.5399
嘻嘻	-11.5399
猾	-11.5399
哭泣	-11.5399
冢宰	-11.5399
泠泠	-11.5399
梓潼	-11.5399
壇場	-11.54
嶠	-11.54
祻	-11.54
寖	-11.54
逆旅	-11.54
項負	-11.54
鴞	-11.54
翩	-11.5401
峭壁	-11.5401
睫	-11.5401
膂	-11.5401
棋	-11.5401
孟軻	-11.5401
張道陵	-11.5401
𥁞	-11.5401
秦檜	-11.5402
矦	-11.5402
百步	-11.5402
顒	-11.5402
鍳	-11.5402
妙感慈惠護國庇民崇福洪恩眞君	-11.5403
溶	-11.5403
嘻	-11.5403
輪廻	-11.5403
圈	-11.5403
券	-11.5403
護持品	-11.5403
晁	-11.5404
身命二宫	-11.5404
匹練	-11.5404
紫芝	-11.5404
鶴鳴山	-11.5405
踐履	-11.5405
咥	-11.5406
昃	-11.5406
搖	-11.5406
旦暮	-11.5406
猗	-11.5406
影響	-11.5407
瑶臺	-11.5407
無恙	-11.5407
塗炭	-11.5408
丹竈	-11.5408
帽	-11.5408
旌旗	-11.5409
蝎	-11.5409
謐	-11.5409
拳拳	-11.5411
吁嗟	-11.5411
輹	-11.5411
磐石	-11.5411
舍身崖	-11.5411
八分書	-11.5412
其别八	-11.5412
旋遶	-11.5412
御帳坪	-11.5414
包荒	-11.5414
匠石	-11.5415
護國廣	-11.5415
黄芽	-11.5415
告嶽文	-11.5415
奔馳	-11.5416
田疇	-11.5417
中氣後太陽躔	-11.5417
徼福	-11.5417
曲阜	-11.5417
之次其辰在	-11.5418
杞	-11.5418
少昊	-11.5419
默默	-11.5419
險阻	-11.542
璚	-11.5421
樞機	-11.5422
到底	-11.5423
唐玄宗	-11.5423
旻	-11.5424
憇	-11.5425
日出行者	-11.5426
芝草	-11.5426
鍾鼓	-11.5427
囘	-11.5428
荒唐	-11.5428
翼翼	-11.5433
提學	-11.5435
博學	-11.5436
艱貞	-11.5436
孤寡	-11.5437
朱陵	-11.5437
歌舞	-11.5437
僅存	-11.5438
主簿	-11.544
市井	-11.544
漢文帝	-11.544
羽毛	-11.5441
瓊花	-11.5441
修之于	-11.5442
十倍	-11.5444
之後而有	-11.5444
强弱	-11.5446
自縊	-11.5446
癸卯	-11.5447
無斁	-11.5447
安其居	-11.5447
曆數	-11.5451
紫晨	-11.5452
曰善哉	-11.5452
丹霞	-11.5453
髙祖	-11.5454
曲折	-11.5456
横財	-11.5457
流芳	-11.5458
乗龍	-11.546
寅申	-11.546
宣揚	-11.5461
羊刃	-11.5462
王喬	-11.5464
者未之有也	-11.5464
凡此皆	-11.5466
鄉里	-11.5468
又從而	-11.5468
經筵	-11.5469
東鄰	-11.547
列宿	-11.547
暗室	-11.5472
恍然	-11.5473
存想	-11.5475
矣惜乎	-11.5477
中庸曰	-11.5478
山麓	-11.5482
仙翁	-11.5483
江州	-11.5484
虛哭	-11.5484
帝乙	-11.5489
聚散	-11.5491
語默	-11.5493
興衰	-11.5498
燈圖	-11.5498
肅清	-11.5501
古松	-11.5502
稱量	-11.5504
吕字	-11.5506
睿宗	-11.5507
尾初	-11.5508
十有八	-11.5511
年九十	-11.5514
可憐	-11.5516
内侍	-11.5518
諫官	-11.5518
㫖酒	-11.5518
指顧	-11.5518
喜捨	-11.5518
不怕	-11.5523
謹奉	-11.5523
智惠	-11.5524
君子小人	-11.5525
華夷	-11.5525
初一二	-11.5525
數百人	-11.5526
白露	-11.5526
虛驚	-11.5527
樹木	-11.5529
保奏	-11.5535
河車	-11.5537
南天門	-11.554
史稱	-11.5541
著聞	-11.5541
香花	-11.5542
邦家	-11.5547
命宫度	-11.5547
他方	-11.5549
十五十三	-11.5553
許氏	-11.5553
嵗月	-11.5554
碧玉	-11.5555
直待	-11.5558
服藥	-11.5563
九族	-11.5566
悔過	-11.5569
九點	-11.5571
蕭何	-11.5574
十有三	-11.5575
取舍	-11.5577
完成	-11.5578
外夷	-11.5581
香客	-11.5583
張良	-11.5584
古之聖人	-11.5593
聖天子	-11.5594
臣妾	-11.5595
嘉定	-11.56
公族	-11.56
灾害	-11.5602
令尹	-11.5603
兹土	-11.5611
照耀	-11.5617
其所以然	-11.5621
聖王之	-11.5622
卓然	-11.5625
品物	-11.5628
名譽	-11.5649
國之君	-11.5672
辰戌	-11.5674
末世	-11.5692
偈曰	-11.5703
法輪	-11.5706
所在皆	-11.5733
以我爲	-11.5737
𡚖於	-11.5739
億劫	-11.5743
録曰按	-11.5752
河沙	-11.5752
碑刻	-11.5755
灾禍	-11.576
不失其所	-11.5765
爲之記	-11.5769
習坎	-11.5774
國祚	-11.5787
當其時	-11.5789
之過也	-11.5796
二三四	-11.5801
帝怒	-11.5802
各自得	-11.5804
百八十	-11.5811
二十二年	-11.5832
朱氏	-11.5836
未始不	-11.5872
演道	-11.592
千百年	-11.5942
業報	-11.5946
福祉	-11.5949
戌亥	-11.5954
悲哀	-11.5972
沙界	-11.5985
按春秋魯	-11.5991
窈	-11.6011
總領	-11.6017
彖曰巳	-11.6019
所恃	-11.6051
科甲	-11.6084
寅亥	-11.6111
諸天帝	-11.6138
君子之道	-11.6149
鷟	-11.6178
峯頭	-11.6181
春秋左傳	-11.6237
星君北斗	-11.6263
南榮趎	-11.6263
狸	-11.6269
有攸徃	-11.6275
圎	-11.6275
猬	-11.6275
贛	-11.6275
翌	-11.6277
吕祖志	-11.6277
磐	-11.6278
肱	-11.628
小人由是知	-11.6281
揉	-11.6282
頋	-11.6282
無註无妄	-11.6283
閃閃	-11.6283
鞋	-11.6283
獐	-11.6284
官事有理	-11.6284
之次在地則分野屬	-11.6286
燃燈	-11.6287
窈窕	-11.6287
批	-11.6287
沽	-11.6288
悛	-11.6288
崑	-11.6288
廛	-11.6288
迢	-11.6289
朱熹	-11.6289
其一在	-11.6289
靈源	-11.6289
纆	-11.6289
騂	-11.6289
陌	-11.629
泡	-11.629
沱	-11.629
五嶽四瀆	-11.629
吼	-11.629
搜神記	-11.6291
五老帝君	-11.6291
軒冕	-11.6291
詒	-11.6291
靈濟眞君	-11.6291
蕢	-11.6292
莖	-11.6292
磾	-11.6292
箒	-11.6292
怛	-11.6292
扞	-11.6292
砥	-11.6293
淘	-11.6293
胡蝶	-11.6293
奭	-11.6293
錢塘	-11.6293
濟南府	-11.6294
褒姒	-11.6294
求官未達	-11.6294
疊嶂	-11.6294
㛰	-11.6294
卯辰巳午未申	-11.6294
撤	-11.6294
尖	-11.6294
鉛汞	-11.6295
㑹稽	-11.6295
囂囂	-11.6295
吏部尚書	-11.6295
襍	-11.6295
戎狄	-11.6295
炁混元將軍	-11.6295
娄	-11.6295
翰苑	-11.6295
漠漠	-11.6295
蜃	-11.6295
寥廓	-11.6296
諉	-11.6296
蒼梧	-11.6296
滔滔	-11.6297
𨑰	-11.6297
偪	-11.6297
裾	-11.6297
思之還反真形春三月	-11.6297
綜	-11.6297
諸天仙衆	-11.6297
𥝠	-11.6297
寤寐	-11.6297
戊戌	-11.6297
盱	-11.6298
鼈	-11.6299
齧缺	-11.6299
玄之又玄	-11.6299
鰥	-11.6299
鞍	-11.6299
甦	-11.6299
浮黎	-11.6299
耋	-11.63
眥	-11.63
臭腐	-11.63
輜	-11.63
隼	-11.63
團圓	-11.63
庚辛	-11.63
嗄	-11.63
霾	-11.63
疣	-11.63
駡	-11.63
聰明正直	-11.6301
張浚	-11.6301
褰衣	-11.6301
九天金闕明道達德大仙顯靈溥濟清微	-11.6301
(○/	-11.6301
潢	-11.6301
隤	-11.6301
卷之三	-11.6302
厘	-11.6302
翛然	-11.6302
徘	-11.6302
救苦天尊	-11.6303
蟹	-11.6303
熬	-11.6303
欽哉制誥	-11.6303
雍熙	-11.6303
禴	-11.6303
大羅天	-11.6303
蹉	-11.6304
躚	-11.6304
懌	-11.6304
玉嵓	-11.6304
箴	-11.6304
羊腸	-11.6304
好生之德	-11.6304
有虞氏	-11.6304
羆	-11.6304
受其殃	-11.6304
靖康	-11.6305
暦	-11.6305
廵撫都御史	-11.6305
疋	-11.6305
涘	-11.6306
駐蹕	-11.6306
欎	-11.6307
浄	-11.6307
供飬	-11.6307
詘	-11.6307
杪	-11.6307
湍	-11.6308
甘霖	-11.6308
采采	-11.6308
鈺	-11.6308
牂	-11.6308
閨	-11.6308
騶	-11.6309
彷	-11.6309
怍	-11.6309
争訟	-11.6309
墀	-11.6309
汩	-11.6309
潄	-11.631
錦繡	-11.6311
之道當以	-11.6311
歐陽脩	-11.6311
将	-11.6311
大厦	-11.6311
軟	-11.6311
柒	-11.6311
微茫	-11.6312
捻	-11.6312
凹	-11.6312
炎炎	-11.6312
雨暘	-11.6312
㳒	-11.6313
慿	-11.6313
瓠	-11.6313
腊	-11.6313
雁	-11.6313
灝	-11.6314
錦袍	-11.6314
閻君	-11.6314
下情無任	-11.6314
彗	-11.6314
星拱限	-11.6314
劬勞	-11.6314
䖝	-11.6315
解見前	-11.6315
泣涕	-11.6315
呈祥	-11.6316
暘谷	-11.6316
觀者詳之	-11.6316
黄婆	-11.6316
腑	-11.6316
賜廟額曰	-11.6316
女人見之	-11.6316
啾	-11.6316
浸長	-11.6316
擺	-11.6317
枯楊	-11.6317
糜	-11.6317
悶悶	-11.6317
商旅	-11.6317
蔀	-11.6317
螽	-11.6317
玉清聖境	-11.6317
哀悲	-11.6318
垂簾	-11.6318
人不識	-11.6318
鶻	-11.6318
頴士	-11.6318
純粹	-11.6319
勘	-11.6319
東萊	-11.632
隹	-11.632
丈人峰	-11.632
肅肅	-11.632
遐齡	-11.6321
陬	-11.6321
爲己任	-11.6321
玖	-11.6321
與化俱	-11.6321
楮	-11.6322
褁	-11.6322
窅	-11.6322
火沼	-11.6322
暴虐	-11.6322
杉	-11.6322
緡	-11.6323
藝祖	-11.6324
徽稱	-11.6324
三界十方	-11.6325
罩	-11.6325
無徃不	-11.6326
可不務	-11.6327
鯤	-11.6327
魏徴	-11.6327
檀越	-11.6328
迕	-11.6328
躬耕	-11.6329
之分野屬	-11.6329
休戚	-11.633
鑠	-11.633
長太息	-11.633
侍御史	-11.633
安寍	-11.6331
樓閣	-11.6331
易繫辭	-11.6331
吕翁	-11.6332
寂滅	-11.6332
丹梯	-11.6333
樂毅	-11.6333
苐五十	-11.6333
二千石	-11.6333
日月星辰	-11.6335
七竅	-11.6335
陟降	-11.6336
金匱	-11.6337
彖曰亥	-11.6337
終南山	-11.6337
温良	-11.6338
奉符縣	-11.6338
櫝	-11.6338
群倫	-11.634
濕土	-11.634
彖曰酉	-11.6341
愁苦	-11.6342
凶咎	-11.6343
紀綱	-11.6343
嵐光	-11.6344
與天合	-11.6344
祝融	-11.6344
章惇	-11.6344
許真君	-11.6346
綱紀	-11.6346
彖曰卯	-11.6346
消灾	-11.6348
罪愆	-11.6348
吕先生	-11.635
彖曰寅	-11.635
紫鳳	-11.6351
户部	-11.6352
皇甫	-11.6353
危厲	-11.6353
寒露	-11.6355
彖曰午	-11.6357
愆尤	-11.6358
彖曰辰	-11.6359
功德品	-11.636
桃源	-11.636
丹霄	-11.6361
兊澤	-11.6363
未暇	-11.6363
王莽	-11.6363
軍旅	-11.6363
鴻蒙	-11.6363
白銀	-11.6364
彖曰申	-11.6365
顯跡	-11.6365
苟免	-11.6366
鍊形	-11.6367
犬馬	-11.6368
昨日	-11.6368
碑本作	-11.6368
罰二十拜若	-11.6369
初七日	-11.6369
輔弼	-11.637
惻然	-11.6372
六藝	-11.6373
少頃	-11.6373
微塵	-11.6374
朔望	-11.6375
明哲	-11.6376
與喜相	-11.6376
大衍之	-11.6377
困窮	-11.6377
弗克	-11.6377
一人而已	-11.6378
百川	-11.6382
間隔	-11.6384
斷碑	-11.6384
易林卷第	-11.6386
普告	-11.6386
微微	-11.6387
端嚴	-11.6387
灾殃	-11.6387
際會	-11.6387
泯然	-11.6388
是以大人	-11.6388
二十餘年	-11.639
玉爐	-11.639
皇考	-11.6391
堯舜之道	-11.6392
弘濟	-11.6395
親戚	-11.6395
神祇	-11.6396
後漢書	-11.6397
夢覺	-11.6399
既醉	-11.64
兊口	-11.64
玄覽	-11.64
落落	-11.6402
内卦	-11.6404
因循	-11.6407
安得而不	-11.6408
隂徳	-11.6408
限量	-11.6409
衛侯	-11.6409
而藏之	-11.641
尚祈	-11.641
篤志	-11.6412
夕陽	-11.6412
白雲洞	-11.6414
切近	-11.6416
北嶽	-11.6418
輝光	-11.6422
年七十	-11.6423
殆盡	-11.6423
農夫	-11.6424
慈愛	-11.6424
録曰孟子曰	-11.6425
朝謁	-11.6425
宴樂	-11.6427
塊然	-11.643
所寓	-11.6432
數十萬	-11.6434
遼東	-11.6435
青布	-11.6437
命之曰	-11.6437
俯視	-11.644
典章	-11.6443
萬品	-11.6446
豁然	-11.6447
巳辰卯寅	-11.645
江右之	-11.645
衰老	-11.6452
第七	-11.6459
遇吉星	-11.647
天下後世	-11.6479
銀河	-11.6493
又安能	-11.6507
録曰孔子曰	-11.6513
行方便	-11.6519
夫子之言	-11.6552
不敢忘	-11.6561
勃然	-11.6566
鹿鳴	-11.6576
兒女	-11.6592
舜禹	-11.6595
有之矣	-11.6626
毫光	-11.6642
數十年	-11.6654
品第	-11.6659
響應	-11.6681
泰山絶頂	-11.6797
調和	-11.6808
仙班	-11.6834
千萬億	-11.6851
哉雖然	-11.6852
手把	-11.6866
財貨	-11.692
發憤	-11.6928
孚信	-11.6939
虞舜	-11.6975
邵子	-11.6975
育萬物	-11.7047
妖魔	-11.7082
復歸其	-11.7181
瞽瞍	-11.7265
慳	-11.7267
辝	-11.7267
罐	-11.7272
魚鱉	-11.7275
天慶觀	-11.7276
蓆	-11.7277
閻王聖誕	-11.7277
䙱	-11.7279
徐無鬼	-11.7279
闥	-11.7279
犖	-11.728
髣髴	-11.7281
榭	-11.7281
茀	-11.7281
笱	-11.7282
渇	-11.7282
齋戒沐浴	-11.7282
螺	-11.7283
東斗下䧏	-11.7283
怵	-11.7283
葵丘	-11.7284
蓊	-11.7284
真武下䧏	-11.7284
璇	-11.7284
浣	-11.7286
渤海	-11.7287
十二河源	-11.7287
扆	-11.7287
雨暘時若	-11.7288
娯	-11.7288
駰	-11.7288
翺翔	-11.7288
訐	-11.7288
懴悔	-11.7289
羝	-11.7289
柏	-11.7289
憧憧	-11.7289
儆	-11.7289
覇	-11.7289
踒	-11.7289
牽纏	-11.729
营	-11.729
冉冉	-11.729
缶	-11.729
六甲生女	-11.7291
閻羅	-11.7291
匍匐	-11.7291
圗	-11.7291
麄	-11.7292
商紂無道	-11.7292
棊	-11.7292
螭	-11.7292
髑髏	-11.7292
笻	-11.7292
蓼	-11.7292
壅塞	-11.7292
煬	-11.7292
憒	-11.7292
鬧	-11.7292
悴	-11.7293
矚	-11.7294
應驗品續二十	-11.7294
㝷	-11.7295
鶴氅	-11.7295
菓	-11.7295
秒	-11.7295
衽	-11.7295
蜚	-11.7295
疾疫	-11.7295
摯	-11.7295
旂	-11.7295
邕	-11.7296
鮒	-11.7296
疫癘	-11.7296
延陵季子	-11.7296
厓	-11.7296
絺	-11.7297
安期生	-11.7297
銖	-11.7297
悽	-11.7297
駑	-11.7297
已明而	-11.7297
瘟疫	-11.7297
无不利象曰	-11.7297
鸇	-11.7298
太子太保	-11.7298
詈	-11.7298
不退轉	-11.7298
利建侯	-11.7298
糴	-11.7298
翦	-11.7298
僮	-11.7298
蠡	-11.7298
械	-11.7299
癃	-11.7299
頰	-11.7299
襦	-11.7299
逓	-11.7299
氓	-11.7299
汁	-11.7299
笥	-11.7299
崗	-11.73
高山流水	-11.73
奴婢	-11.73
匕	-11.73
筋骨	-11.73
鑚	-11.7301
療治	-11.7301
汲黯	-11.7301
蝟	-11.7301
餽	-11.7301
妖氛	-11.7301
泳	-11.7301
燋	-11.7301
灌溉	-11.7301
峕	-11.7301
巳酉丑	-11.7302
這箇	-11.7302
殯	-11.7302
驚惶	-11.7302
和大光明王尊孔雀明王經消災保安寧	-11.7302
稽首大光明王尊	-11.7302
忠恕	-11.7303
慟哭	-11.7303
璇璣	-11.7303
坼	-11.7303
郭子儀	-11.7303
繚繞	-11.7303
刼刼	-11.7304
劈	-11.7304
鬱鬱	-11.7304
顔闔	-11.7304
障礙	-11.7304
繩繩	-11.7304
迩	-11.7304
濓	-11.7304
漚	-11.7304
褚	-11.7304
鼓瑟	-11.7304
剩	-11.7304
者幾希	-11.7305
塢	-11.7305
驂	-11.7305
如經故難遇設使	-11.7305
懾	-11.7306
狐狸	-11.7306
禺	-11.7306
痰	-11.7306
玉笈	-11.7306
揜	-11.7307
濵	-11.7307
掌天下道教事張國祥奉㫖校梓	-11.7307
志心皈命禮	-11.7307
晡	-11.7307
掬	-11.7307
寅午戌	-11.7307
貞吉象曰	-11.7308
户牖	-11.7308
岏	-11.7308
權柄	-11.7308
犠	-11.7308
蠻夷	-11.7308
里中廽真下映入兆	-11.7308
由此觀之	-11.7308
寰宇	-11.7308
膚寸	-11.7308
膾	-11.7308
鴻毛	-11.7309
纘	-11.7309
寥寥	-11.7309
無爲而無不爲	-11.7309
層層	-11.7309
倅	-11.7309
咳	-11.7309
束帛	-11.731
瀛洲	-11.731
迺	-11.731
文成侯	-11.731
縱橫	-11.731
之愆免	-11.731
歲男子土星女人火星	-11.731
壮	-11.731
婚姻不成	-11.7311
上白天尊曰	-11.7311
無盡量	-11.7311
貉	-11.7311
泗州	-11.7311
嵯峨	-11.7311
俶	-11.7311
臚	-11.7312
𥿄	-11.7312
埏	-11.7312
蓍龜	-11.7312
摭	-11.7313
熙熙	-11.7313
鴆	-11.7313
程正叔曰	-11.7313
鳶	-11.7313
清净	-11.7313
耿耿	-11.7313
吹簫	-11.7313
延齡	-11.7313
大中祥符	-11.7313
長生乆視	-11.7314
涅槃	-11.7314
回馬嶺	-11.7314
帯	-11.7314
慵	-11.7314
運限流年	-11.7314
羅網	-11.7314
九天丈人	-11.7314
嗜慾	-11.7315
茵	-11.7315
希哲	-11.7315
擁護	-11.7315
醯	-11.7316
瞞	-11.7316
死而不亡	-11.7316
年春正月	-11.7316
𥙷	-11.7316
訣師曰	-11.7316
逵	-11.7316
十七六十	-11.7316
擾擾	-11.7316
脆	-11.7316
秋七月	-11.7316
烟霧	-11.7316
京兆尹	-11.7316
潯陽	-11.7317
律吕	-11.7317
瘵	-11.7317
儉約	-11.7317
優劣	-11.7317
俛首	-11.7317
叙曰曷	-11.7318
飢寒	-11.7318
摹	-11.7318
闡揚	-11.7318
一法官道士	-11.7318
菌	-11.7318
束帶	-11.7318
未遑	-11.7318
而吉氣正躔	-11.7318
天尊衆和一聲志心皈命禮請	-11.7318
兌	-11.7319
利艱貞	-11.732
虚靖	-11.732
群魔	-11.732
房杜	-11.732
簮	-11.732
悲鳴	-11.732
羶	-11.7321
觧脫	-11.7321
論格局	-11.7321
湛寂	-11.7321
東漢書	-11.7321
太上道君	-11.7321
嵌	-11.7322
𣣔	-11.7322
此經䏻	-11.7322
者鮮矣	-11.7322
揲蓍	-11.7323
刋	-11.7323
皇經集註	-11.7323
淫慾	-11.7323
霜雪	-11.7323
河上公	-11.7323
秤	-11.7323
碣石	-11.7323
妙行真人	-11.7323
泌	-11.7323
夀考	-11.7323
景貺	-11.7324
羲聖	-11.7324
魏徵	-11.7325
紙筆	-11.7325
襄城	-11.7325
舉進士	-11.7325
斗柄	-11.7326
携手	-11.7326
駱	-11.7326
穆穆	-11.7326
不識不知	-11.7327
瞑目	-11.7327
伏乞	-11.7328
爲衆所	-11.7328
杳杳	-11.7329
蠢動	-11.7329
輙敢	-11.7329
予小子	-11.7329
克艱	-11.7329
輔佐	-11.7329
曹操	-11.733
曙色	-11.733
曹參	-11.733
涉川	-11.733
伊吕	-11.733
伊誰	-11.7331
禹貢	-11.7331
儒術	-11.7331
指點	-11.7331
四十二代天師	-11.7332
根基	-11.7333
哀矜	-11.7335
天宫玉女	-11.7335
陳希夷	-11.7335
梁武帝	-11.7336
肘後	-11.7336
彖曰戌	-11.7336
霜露	-11.7336
苐二十	-11.7336
秘密	-11.7336
憂惶	-11.7336
者甚衆	-11.7337
整肅	-11.7337
楊墨	-11.7339
苐六十	-11.7339
管叔	-11.734
咸淳	-11.734
反蘇註	-11.734
苐七十	-11.734
四百餘年	-11.7341
講習	-11.7341
賢妃	-11.7341
録曰史稱	-11.7342
悠然	-11.7342
彭城	-11.7342
二月十五日	-11.7343
蒼松	-11.7343
雙闕	-11.7343
上中下	-11.7345
姑息	-11.7345
父母兄弟	-11.7346
導引	-11.7346
煉丹	-11.7347
碧霞經	-11.7348
沖破	-11.7348
須憑	-11.7348
牽引	-11.7348
封泰山禪	-11.7349
殿閻君	-11.7349
部八萬卷	-11.7349
仰荷	-11.735
秉政	-11.735
萬頃	-11.7351
與月會於	-11.7351
與天地同	-11.7352
酉亥	-11.7353
壽域	-11.7357
賞賜	-11.7358
苐三十	-11.7358
酒肆	-11.7359
剛柔相	-11.7359
晩年	-11.736
觀日出	-11.736
天下無道	-11.736
胡亥	-11.736
玄穹	-11.7361
侵害	-11.7361
浮丘	-11.7362
胸中	-11.7363
瓊臺	-11.7364
紫翠	-11.7365
尸解	-11.7365
褒封	-11.7367
所以者何	-11.737
九宸	-11.737
粲然	-11.737
乘輿	-11.7371
江陵	-11.7371
章甫	-11.7371
奕世	-11.7372
郭氏	-11.7373
方隅	-11.7376
儼若	-11.7377
真誥	-11.7378
學校	-11.7379
闕里	-11.7379
交輝	-11.7382
監齋	-11.7382
畜生道	-11.7388
紫炁	-11.7389
玉帝功德	-11.7391
羲皇	-11.7394
酉戌亥	-11.7414
身命坐	-11.7415
季友	-11.7425
蓋不但	-11.743
峽江	-11.7553
玄天上帝感應靈籤第三十	-11.7553
神通品十	-11.7578
千卷	-11.7581
繫辭	-11.7593
不知其幾	-11.7602
海岱	-11.7651
昂發	-11.7712
里受持五戒十善得生其中其第	-11.7723
無故而	-11.7765
提舉	-11.7784
謂人曰	-11.7792
强暴	-11.7845
畫卦	-11.7856
葛藟	-11.7901
樂無憂	-11.7912
忘其所	-11.7931
夫是而	-11.794
片雲	-11.8024
(□/	-11.8083
一法官職列	-11.8183
妙應仁惠輔國佑民隆福洪恩眞君	-11.8233
北斗下䧏	-11.8271
日午時	-11.8279
啻	-11.8341
仔細	-11.8362
粲	-11.8367
跣	-11.8376
壷	-11.8381
蹷	-11.8384
缾	-11.8388
臟	-11.8388
漸也貞觀初	-11.8388
不得入仙	-11.8389
觔	-11.8389
貟	-11.839
犇	-11.839
爲宫主喜忌見前	-11.8391
延頸	-11.8392
抃	-11.8392
綦	-11.8392
幹父之蠱	-11.8392
𦎟	-11.8394
肚	-11.8394
濟生度死	-11.8395
三百六十五度零四分度之一	-11.8395
𦖟	-11.8395
匹夫匹婦	-11.8395
牆	-11.8396
羖	-11.8396
天曹掠剰下䧏	-11.8396
貂	-11.8397
春秋魯昭公	-11.8397
沬	-11.8397
岌	-11.8397
昱	-11.8397
氊	-11.8398
無可無不可	-11.8398
郭璞	-11.8398
淄	-11.8398
瞬	-11.8398
荆棘	-11.8398
曦	-11.8398
毘	-11.84
喙	-11.84
𤼵	-11.84
同日語哉	-11.84
曇	-11.84
兵馬無鞅	-11.84
福善禍淫	-11.84
彥	-11.84
之炁為	-11.84
𧇊	-11.84
珏	-11.8401
痍	-11.8401
蔡畫士	-11.8401
鶵	-11.8401
痼	-11.8401
與時偕行	-11.8401
禾稼	-11.8402
金汝白曰	-11.8402
應驗品續十	-11.8403
剌	-11.8404
炤	-11.8404
葛仙翁	-11.8404
坵	-11.8404
煌煌	-11.8404
稠	-11.8404
魑魅	-11.8404
烹煎	-11.8404
玻	-11.8404
撞	-11.8404
簒	-11.8405
甑	-11.8405
厮	-11.8405
囁	-11.8405
竑	-11.8406
莆	-11.8406
鵰	-11.8406
顛沛	-11.8406
黿	-11.8406
髦	-11.8407
則有時而	-11.8407
户部尚書	-11.8408
厢	-11.8408
僑	-11.8408
會眞宫	-11.8408
𢡖	-11.8409
洞玄冲虛妙感慈惠護國庇民洪恩眞君	-11.8409
太祖高皇帝	-11.8409
踴	-11.8409
淸	-11.8409
鬛	-11.8409
𨽻	-11.8409
遨	-11.8409
劫劫	-11.841
綜理	-11.841
賒	-11.841
磯	-11.841
修之九年	-11.841
縶	-11.841
燾	-11.841
隈	-11.841
遄	-11.841
怠慢	-11.841
晋獻公	-11.8411
真人掌天下道教事	-11.8411
飛天神王	-11.8411
斧鉞	-11.8411
峯白湖郭廙	-11.8411
㓜	-11.8411
零落	-11.8411
曰妾聞	-11.8411
髠	-11.8411
陔	-11.8411
疚	-11.8411
衮冕	-11.8411
凌霄	-11.8412
釋之者曰	-11.8412
鄂	-11.8412
塡	-11.8412
魯哀公	-11.8413
靴	-11.8413
楫	-11.8413
俎	-11.8413
雷霆都司	-11.8413
鯁	-11.8413
琪	-11.8413
提點	-11.8413
誳	-11.8414
五老上帝	-11.8414
终	-11.8414
纉	-11.8414
臝	-11.8414
莩	-11.8415
愜	-11.8415
泝	-11.8415
掾	-11.8415
受大福	-11.8415
幘	-11.8415
榮華富貴	-11.8415
輿尸	-11.8415
𥘉八日	-11.8415
濺	-11.8415
老子翼卷之	-11.8415
鬰	-11.8415
兵部尚書	-11.8415
騖	-11.8415
穗	-11.8415
釵	-11.8415
妙法蓮華經	-11.8415
正一盟威	-11.8416
芬芳	-11.8416
郡太守	-11.8416
彬彬	-11.8416
鬼魅	-11.8416
凍餒	-11.8416
逐狐	-11.8416
莫敖	-11.8416
糗	-11.8417
攷證	-11.8417
枋得	-11.8417
謄	-11.8417
鈔	-11.8417
懟	-11.8417
登進士	-11.8417
淋	-11.8417
蚓	-11.8417
慱	-11.8417
即皇帝位	-11.8417
涌	-11.8418
闔闢	-11.8418
號田壹坵土名	-11.8418
鴻鴈	-11.8419
侵凌	-11.8419
嘏	-11.8419
筏	-11.8419
啓請地府	-11.8419
幹蠱	-11.8419
舉孝廉	-11.8419
荒蕪	-11.8419
太嵗一星	-11.8419
夫音符	-11.8419
隰	-11.8419
淳熙	-11.8419
攔	-11.8419
立生祠	-11.8419
穰	-11.842
嘿嘿	-11.842
秃	-11.842
壇墠	-11.842
十方世界	-11.842
呻	-11.8421
武當山	-11.8421
稷契	-11.8421
嗃	-11.8421
罟	-11.8421
稜	-11.8421
不可以不察也	-11.8421
中㣲祝曰	-11.8421
婺	-11.8421
蔬食	-11.8421
瑗	-11.8421
冬十月	-11.8422
帙	-11.8422
甄	-11.8423
覷	-11.8423
泚	-11.8423
清靜無爲	-11.8423
絮	-11.8423
几案	-11.8424
籲	-11.8424
無鞅數衆	-11.8424
晞	-11.8424
峨	-11.8425
絶巘	-11.8425
煢煢	-11.8425
𦕈	-11.8425
荃	-11.8425
惴	-11.8425
再拜稽首	-11.8425
萬籟	-11.8425
日喜神東北貴神	-11.8426
之所致也	-11.8427
夏后氏	-11.8427
套	-11.8427
蕡	-11.8427
稟	-11.8427
堯舜禹湯	-11.8427
鳳篆	-11.8428
餘倣此	-11.8428
羊祜	-11.8428
參知政事	-11.8428
眄	-11.8428
歲男子太隂星女人金星	-11.8428
楊廷秀曰	-11.8428
雨霽	-11.8428
封泰山禪云云	-11.8428
浩劫	-11.8429
䆒	-11.8429
玲瓏	-11.8429
神通品二十	-11.8429
觀經者	-11.8429
金木水火土	-11.8429
㣧	-11.843
桃花峪	-11.843
蘧	-11.843
曰善哉善哉	-11.843
汪本鈳曰	-11.843
灑掃	-11.843
桷	-11.8431
歙	-11.8431
巴蜀	-11.8431
懶	-11.8431
書禹貢	-11.8431
端的	-11.8432
森羅	-11.8432
仰天而	-11.8433
孥	-11.8433
應劭	-11.8433
蒼翠	-11.8433
樗	-11.8433
耆老	-11.8433
陜西	-11.8433
矗	-11.8433
者徒二年	-11.8433
靡靡	-11.8433
昧爽	-11.8433
璽書	-11.8433
修道之士	-11.8434
様	-11.8434
隋文帝	-11.8434
瞀	-11.8434
仍名曰	-11.8435
宣尼	-11.8435
譁	-11.8435
貪嗔	-11.8435
楝	-11.8436
淩	-11.8436
閭里	-11.8436
斟	-11.8436
最上一乘	-11.8436
夷夏之	-11.8437
爲民害	-11.8437
卬	-11.8437
巖巖亭	-11.8438
西狩	-11.8439
梅花	-11.8439
曰始作	-11.8439
呌	-11.8439
又五里至	-11.8439
百骸	-11.8439
禳灾	-11.844
教誨	-11.844
譬猶	-11.844
飡	-11.8441
傾頽	-11.8441
曰此兒	-11.8441
父母妻子	-11.8441
保釐	-11.8441
瑄	-11.8441
勅勅	-11.8441
氷雪	-11.8442
史册	-11.8442
娟	-11.8442
爲名臣	-11.8442
寳瓶	-11.8443
農桑	-11.8443
發揮	-11.8443
駝	-11.8443
布帛	-11.8443
父子之間	-11.8443
不敬天地	-11.8445
血湖	-11.8446
白日上昇	-11.8447
屹立	-11.8448
虎嘯	-11.8448
竽	-11.8449
嫌疑	-11.8451
聞是說已	-11.8452
欺罔	-11.8452
敷揚	-11.8452
登封臺	-11.8454
盤旋	-11.8456
對曰陛下	-11.8457
文中子	-11.8459
君臣之間	-11.8466
苐四十	-11.8466
媛	-11.8471
未始有始	-11.8471
二與五	-11.8474
右第二十	-11.8474
猖狂	-11.8476
韓非作	-11.848
潭州	-11.8485
日下界用燈	-11.8486
絶糧	-11.85
苐十	-11.8507
不可及也	-11.8524
濯足	-11.8528
仕宦	-11.855
有人焉	-11.8567
十五十一	-11.857
限逢之	-11.858
是時元始天尊	-11.8722
領道教	-11.8822
仙侣	-11.8878
語之曰	-11.9058
詩篇名	-11.9094
物無不	-11.9098
浙江	-11.9131
里受持五戒十善得生其中其第十	-11.9185
岱史第十	-11.939
易林卷第十	-11.9497
星君紫極天	-11.9612
衣禄足	-11.9624
劭	-11.9626
辰戌丑未	-11.9626
黼黻	-11.9627
塲	-11.9628
蓬菜	-11.9628
告請天之	-11.9628
隮	-11.963
鎗	-11.9631
謔	-11.9633
醮於朝天宫	-11.9635
咤	-11.9636
門擊柝	-11.9637
鹵莽	-11.9637
騏	-11.9637
馘	-11.9638
瓌	-11.9639
謳歌	-11.9639
萬石君	-11.9639
鄷	-11.9639
正氣天符	-11.9641
澥	-11.9641
解曰占家宅人口平安	-11.9641
白湖郭廙	-11.9642
列女傳	-11.9642
利無所得無註	-11.9642
五日天蓬下䧏	-11.9642
天帝逰東井	-11.9642
殻	-11.9643
痼疾	-11.9643
洗濯	-11.9643
窀穸	-11.9643
惺惺	-11.9643
贖罪	-11.9644
肌膚	-11.9644
斧斤	-11.9644
衆和一聲	-11.9644
嘿	-11.9644
鄧曼	-11.9645
脩葺	-11.9645
苧	-11.9645
螳	-11.9645
八萬四千	-11.9645
褰	-11.9645
興雲致雨	-11.9646
薊	-11.9646
春夏秋冬	-11.9646
犂	-11.9646
專氣致柔	-11.9646
潞	-11.9646
洋溢	-11.9646
遄徃	-11.9646
欝欝	-11.9647
矰	-11.9647
畢仰嚥九氣止	-11.9647
無註易林卷第	-11.9647
埴	-11.9647
攄	-11.9648
哮	-11.9648
樊遲	-11.9648
數衆悉令下降覆護受持是此經者勑命	-11.9648
芝嶼	-11.9649
萬章問曰	-11.9649
尺寸	-11.9649
積善之家	-11.9649
黍米	-11.9649
禹治水	-11.9649
謳	-11.9649
麟鳯	-11.965
螗	-11.965
颯	-11.965
踊	-11.965
臼	-11.965
扎	-11.965
雷霆都司事從	-11.965
漢畤	-11.9652
人爲立廟	-11.9652
以求大道玄或有諸仙子	-11.9652
之爲卦也	-11.9652
埒	-11.9652
燕喜堂	-11.9652
魯桓公夫人	-11.9652
鼃	-11.9652
璉	-11.9652
稽顙	-11.9652
鵉	-11.9652
鱉	-11.9653
書舜典	-11.9653
殳	-11.9653
撒	-11.9653
燬	-11.9653
腥臊	-11.9653
雄雉	-11.9653
凄	-11.9654
卉	-11.9654
諜	-11.9654
諏	-11.9654
瞢	-11.9654
之象恭聞	-11.9654
墠	-11.9655
懦	-11.9655
楯	-11.9655
貪嗔癡	-11.9655
嫂	-11.9655
胚	-11.9655
穡	-11.9655
桑梓	-11.9656
蚌	-11.9656
百世之下	-11.9656
榴	-11.9656
皎皎	-11.9656
鏗	-11.9656
芻狗	-11.9656
趯	-11.9656
子午卯酉	-11.9657
吻	-11.9657
姻縁	-11.9657
憔悴	-11.9657
弢	-11.9657
中巽震坤坎離艮兊	-11.9657
怡怡	-11.9657
拷	-11.9657
溝瀆	-11.9657
丈人峯	-11.9658
叔孫氏之	-11.9658
蛛	-11.9658
大聖大賢	-11.9658
冠衣九色	-11.9658
銑	-11.9658
閶	-11.9658
棹	-11.9659
塜	-11.9659
管見云人	-11.9659
凱	-11.9659
繒	-11.9659
耒	-11.9659
決	-11.9659
沔	-11.9659
劑	-11.9659
韞	-11.9659
忙忙	-11.9659
水旱疾疫	-11.9659
徐世隆	-11.9659
夬夬	-11.966
収	-11.966
廕	-11.966
飛行上清	-11.966
噲	-11.9661
幣帛	-11.9661
查志隆	-11.9661
完孝録	-11.9661
毫髮	-11.9661
秦漢以來	-11.9661
搥	-11.9661
二帝三王	-11.9661
柳下季	-11.9661
難得之貨	-11.9661
大明永樂	-11.9661
韙	-11.9661
雒	-11.9661
渿	-11.9661
疼	-11.9661
醖	-11.9662
倨	-11.9662
一切威靈符命所臨如誥奉行	-11.9662
擣	-11.9662
出將入相	-11.9663
巘	-11.9663
玉匣記	-11.9663
軒昂	-11.9663
貔	-11.9663
玆	-11.9663
筠	-11.9664
金剛力士	-11.9664
罅	-11.9664
宄	-11.9665
飢渴	-11.9665
不知何許人	-11.9665
無名天地之始	-11.9665
峥嶸	-11.9665
殪	-11.9665
獘	-11.9665
芴	-11.9665
熊南沙曰	-11.9665
耘	-11.9665
蛤	-11.9665
太姒	-11.9665
樞密院	-11.9665
無註遘	-11.9665
恍惚窈冥	-11.9666
七月七日	-11.9667
嵗會天符	-11.9667
潑	-11.9667
婆娑	-11.9667
禮義廉耻	-11.9667
諺	-11.9667
剜	-11.9667
籓	-11.9667
神道設教	-11.9667
磅礴	-11.9667
房玄齡	-11.9667
偵	-11.9667
如彼其	-11.9667
垠	-11.9667
隲	-11.9667
莊姜	-11.9668
同平章事	-11.9668
朋黨	-11.9668
歌謡	-11.9668
穰穰	-11.9668
在大羅天上	-11.9668
按察司	-11.9668
燠	-11.9668
喘息	-11.9669
怳	-11.9669
筦	-11.9669
勤拳	-11.9669
劉海蟾	-11.9669
上天下地	-11.9669
鍾皷	-11.9669
𠕂	-11.9669
塑像	-11.9669
餔	-11.9669
獰	-11.9669
張彦頨	-11.9669
崛	-11.9669
衾	-11.9669
𥘉三日	-11.9669
拄杖	-11.967
黄石公	-11.967
量天尺	-11.967
蓬蒿	-11.967
矯誣	-11.967
麝	-11.967
驚蟄	-11.967
鶉尾	-11.9671
既見君子	-11.9671
芷	-11.9671
嗽	-11.9671
妬忌	-11.9671
嶷	-11.9671
翥	-11.9671
不遠千里	-11.9671
奉聖㫖	-11.9672
宗廟社稷	-11.9672
袤	-11.9672
陶鑄	-11.9672
提携	-11.9672
羅洪先	-11.9672
丰	-11.9672
也固宜	-11.9672
鼎沸	-11.9672
子綦曰	-11.9672
嚴君平	-11.9673
惧	-11.9673
昉	-11.9673
嚳	-11.9673
廓落	-11.9673
玉京金闕	-11.9673
阡陌	-11.9673
桃夭	-11.9673
澗底	-11.9673
之時老君下爲師號曰	-11.9673
巫祝	-11.9673
蒼苔	-11.9673
計都星	-11.9673
陶弘景	-11.9674
貪狼	-11.9674
軒轅黄帝	-11.9674
怎	-11.9674
怵惕	-11.9674
溟渤	-11.9674
宸翰	-11.9674
杖屨	-11.9674
恁	-11.9674
萬曆十四年	-11.9674
十三年冬	-11.9674
羗	-11.9674
均霑	-11.9675
遡	-11.9675
寕	-11.9675
忿怒	-11.9675
附録坡公解曰	-11.9675
在上清之上	-11.9675
縟	-11.9676
焯	-11.9676
諍	-11.9676
校尉	-11.9676
大中祥符元年	-11.9676
鋾	-11.9676
攀躋	-11.9676
淙	-11.9676
大忿怒明王	-11.9676
天真皇人	-11.9677
說文云	-11.9677
天無二日	-11.9677
咄	-11.9678
宋真宗	-11.9678
張宇清	-11.9678
禋祀	-11.9678
放大光明	-11.9679
禮部尚書	-11.9679
陡	-11.9679
囉	-11.9679
桑榆	-11.9679
歲男子火星女人羅睺星	-11.9679
孤寡不穀	-11.968
不忠不孝	-11.968
謙遜	-11.968
宋徽宗	-11.968
秦穆公	-11.968
媲美	-11.968
搜神記卷之	-11.968
百丈崖	-11.968
都功籙	-11.9681
鶉首	-11.9682
痒	-11.9682
餼	-11.9682
悔亡象曰	-11.9683
之次者官禄多在	-11.9683
蘚	-11.9683
陲	-11.9684
蝸	-11.9684
髀	-11.9684
沒	-11.9684
臓	-11.9684
仁義禮智	-11.9685
焞	-11.9685
譲	-11.9685
太常卿	-11.9685
諫議大夫	-11.9685
喬嶽	-11.9685
觀音保	-11.9685
糊	-11.9685
五代史	-11.9687
汯	-11.9687
環珮	-11.9687
炬	-11.9688
惟神鑒	-11.9688
凭	-11.9689
奕奕	-11.9689
箋	-11.969
五方五帝	-11.969
凸	-11.9691
从	-11.9692
曰何謂也	-11.9693
樞紐	-11.9693
縵	-11.9693
若誦此經即得	-11.9693
東華帝君	-11.9696
高上玉皇本行集經	-11.9696
東方朔	-11.9696
懇禱	-11.9696
階級	-11.9697
天目山	-11.9697
蠟	-11.9697
几席	-11.9699
台輔	-11.9699
年歲次	-11.97
無惑乎	-11.97
天君下䧏	-11.9702
天樞院事正	-11.9704
槃瓠	-11.9705
磁	-11.9706
仙人橋	-11.9708
紹述	-11.9708
部八千卷	-11.9713
榷	-11.9715
知和曰	-11.9717
分度之	-11.9722
邾	-11.9724
死生之變	-11.9728
星行年值	-11.9737
夕曛	-11.9752
丹一粒	-11.9755
四與五	-11.9764
辭還山	-11.9767
雲將曰	-11.9785
申酉戍	-11.9843
玄天上帝感應靈籤第四十	-11.9855
五月五日	-11.9897
聽其自	-11.9926
玄君誥奉天承運皇帝制曰	-12.0219
志心皈命禮威震雷霆	-12.022
用之大吉	-12.0223
十斤	-12.0258
高明弘靜冲湛妙應仁惠輔國佑民洪恩	-12.0494
玄君誥	-12.0501
者詳之	-12.0516
十有六	-12.073
月望日	-12.0909
五品以上	-12.0993
天樞院事從	-12.1017
翛	-12.1019
西斗下䧏	-12.1021
白玉蟾	-12.1042
之位也凡居於其上者	-12.1046
獻聖前弟子	-12.1049
四宿皆	-12.1051
韄	-12.1054
在他卦之上則不爲主而爲他卦之	-12.1054
寅申巳亥	-12.1054
孫叔敖	-12.1055
之苦或作	-12.1057
噦	-12.1058
玉皇君兆若	-12.1058
勞碌	-12.1059
趎	-12.106
亢龍有悔	-12.106
月𥘉一日	-12.1061
持是經人不但名	-12.1061
司天在泉	-12.1062
忉	-12.1062
混茫	-12.1063
瞶	-12.1063
范滂	-12.1063
阼	-12.1064
渺茫	-12.1064
郭林宗	-12.1064
熇	-12.1065
如法持念眞經	-12.1066
酆都鐵圍	-12.1066
在下爲主于内加八卦于上以發明	-12.1066
玄牝之門	-12.1066
庚桑子	-12.1066
杳杳冥冥	-12.1067
喑啞	-12.1067
員外郞	-12.1067
失物可尋	-12.1067
麋	-12.1067
徐仙眞録	-12.1068
善助慈懿仙妃	-12.1068
惘	-12.1068
砦	-12.1068
爲卦主故稱我	-12.1068
噀	-12.1069
鰥寡孤獨	-12.1069
掛搭	-12.1069
宙	-12.1069
荻	-12.1069
顚倒	-12.1069
田蠶大熟	-12.107
和願此燈光回向眞君	-12.107
田蠶大熟六畜興旺	-12.107
臬	-12.107
鷇	-12.1071
磔	-12.1071
驅邪院事正	-12.1071
莱	-12.1071
舁	-12.1072
功德品續二十	-12.1072
蝦蟆	-12.1072
騮	-12.1072
麋鹿	-12.1072
成宗皇帝制曰	-12.1072
瘢	-12.1072
齕	-12.1072
咈	-12.1072
無色界	-12.1073
尾室觜	-12.1073
軋	-12.1073
鷙鳥	-12.1073
怱	-12.1073
焼	-12.1074
良有以也	-12.1074
挨	-12.1074
又降于	-12.1074
脉定穴	-12.1074
枷	-12.1074
玉虚上帝	-12.1075
終則有始	-12.1075
嶻	-12.1075
竹君之二子	-12.1075
踟	-12.1075
敘	-12.1075
不事王侯	-12.1075
錫誥加封	-12.1075
睇	-12.1076
蹊	-12.1076
狃	-12.1076
九月九日	-12.1077
當此之時	-12.1077
則受制凢	-12.1077
𠁗	-12.1077
廐	-12.1077
束縛	-12.1077
初十四十四十六	-12.1077
箕箒	-12.1078
蒨	-12.1078
三人俱行	-12.1078
巽震坤	-12.1078
槌	-12.1078
隂人小口	-12.1078
兢兢	-12.1078
閬苑	-12.1078
千乘萬騎	-12.1078
𩥵	-12.1078
祺	-12.1079
瓴	-12.1079
塩	-12.1079
慼	-12.1079
長樂陳棠	-12.1079
踣	-12.1079
冦	-12.1079
邠	-12.1079
魏伯陽	-12.108
瓉	-12.108
寜	-12.108
厪	-12.108
餞	-12.108
億曾萬祖	-12.108
堕	-12.108
矣諸玉女徃刼妙行亦同此清凈	-12.108
諄	-12.1081
縈廻	-12.1081
四海九江	-12.1081
膩	-12.1081
硬	-12.1081
岫	-12.1081
去彼取此	-12.1081
又何如哉	-12.1082
泆	-12.1082
瞪	-12.1082
恢恢	-12.1082
賭	-12.1082
闋	-12.1082
懊	-12.1083
吃	-12.1083
縢	-12.1083
巋	-12.1083
釣臺李溥	-12.1083
有憂色	-12.1083
八胃初四	-12.1084
耨	-12.1084
駈	-12.1084
坎離艮兊乾	-12.1084
纍	-12.1084
玄同彼我	-12.1084
瘧	-12.1084
持念此經	-12.1084
幟	-12.1084
騾	-12.1084
烱	-12.1084
玉帝夙修常清凈	-12.1084
矉	-12.1084
青門邵墉	-12.1084
知足不辱知止不殆	-12.1085
騎白鹿	-12.1085
訃	-12.1085
懵	-12.1085
覯	-12.1085
嘒	-12.1085
斡旋	-12.1085
隗囂	-12.1085
爼	-12.1085
玃	-12.1085
祭祀遷移	-12.1085
八十九八十六五十	-12.1086
橐籥	-12.1086
羌	-12.1086
矅	-12.1086
憮	-12.1086
汀	-12.1086
鎧	-12.1086
章拜表	-12.1086
殤	-12.1087
附録楊簡曰	-12.1087
肢	-12.1087
倶	-12.1087
傴僂	-12.1087
恢廓	-12.1087
槽	-12.1087
崒嵂	-12.1087
豈弟君子	-12.1087
旒	-12.1087
瓣香	-12.1087
偹	-12.1087
下嫁於	-12.1087
嚶	-12.1087
萇	-12.1087
呱	-12.1087
無毁淪	-12.1087
籩豆	-12.1087
宫龍女禮謝	-12.1087
晨君姓	-12.1087
羊舌氏	-12.1087
牋	-12.1088
渦	-12.1088
胎卵濕化	-12.1088
自得之場	-12.1088
殂	-12.1088
礎	-12.1088
蒯	-12.1088
以安史記	-12.1088
嬰孩	-12.1089
斕	-12.1089
箸	-12.1089
光明奕奕	-12.1089
東方九炁	-12.1089
簟	-12.1089
鞶	-12.1089
爲財逄	-12.1089
腆	-12.109
某官某	-12.109
劌	-12.109
勾踐	-12.109
崿	-12.109
昆蟲	-12.109
靄靄	-12.109
孝子順孫	-12.109
春秋成公十	-12.109
君臣父子之間	-12.109
慳貪	-12.109
炰	-12.109
集賢院	-12.109
狡猾	-12.109
坡公解曰	-12.109
何以異哉	-12.109
酧	-12.109
登道岸	-12.109
所以覺天下之	-12.109
紅異毛	-12.109
崚𡾓	-12.1091
愚按人身	-12.1091
亢牛婁鬼	-12.1091
終其天年	-12.1091
魁罡	-12.1091
命過之後	-12.1091
真君孔雀明王明王經消災延壽保安寍	-12.1091
畤	-12.1091
踦	-12.1092
㫁	-12.1092
洿	-12.1092
醬	-12.1092
抱朴子	-12.1092
佇	-12.1092
夥	-12.1092
蹬	-12.1092
崕	-12.1092
上清眞境	-12.1092
笄	-12.1093
瘥	-12.1093
爇	-12.1093
不亦善乎	-12.1093
儷	-12.1093
長孫無忌	-12.1093
揄	-12.1093
䥫	-12.1093
煇煌	-12.1093
磽	-12.1093
拉	-12.1093
縞	-12.1093
文在中也	-12.1093
痔	-12.1093
衎	-12.1093
証	-12.1094
於大野	-12.1094
沭	-12.1094
瑣瑣	-12.1094
癖	-12.1094
唐之太宗	-12.1094
酥	-12.1094
袵	-12.1094
光明流焕	-12.1094
湣	-12.1094
蕉	-12.1094
菟	-12.1095
訕	-12.1095
紵絲	-12.1095
亦孔之	-12.1095
鴻漸于	-12.1095
除罪簿	-12.1096
履虎尾	-12.1096
扵地下	-12.1096
上合志	-12.1096
估	-12.1096
生貴子	-12.1096
片片	-12.1096
摠	-12.1096
叢棘	-12.1096
繄	-12.1096
肴	-12.1096
覘	-12.1096
棟橈	-12.1096
邢	-12.1096
在天之靈	-12.1097
柘	-12.1097
糓	-12.1097
蘋蘩	-12.1097
暎	-12.1097
品第十	-12.1097
舟楫	-12.1098
聾盲	-12.1098
星又名	-12.1098
不亦可乎	-12.1098
娵訾	-12.1098
柅	-12.1098
漉	-12.1098
煩苛	-12.1099
鑾	-12.1099
甜	-12.1099
嘴	-12.1099
少人知	-12.1099
白龍池	-12.1099
范蠡	-12.1099
蕨	-12.1099
陸贄	-12.11
蓬島	-12.11
萊蕪	-12.1101
之所利見	-12.1101
玦	-12.1101
鉅鹿	-12.1101
一本云	-12.1102
漓	-12.1102
蠁	-12.1102
淖	-12.1102
攅	-12.1102
鑣	-12.1102
屠羊說	-12.1102
鹹	-12.1102
蕊	-12.1102
衆和一聲志心皈命禮請	-12.1102
歲男子羅睺星女人計都星	-12.1103
靳	-12.1103
勿用取女	-12.1103
鱠	-12.1103
恥	-12.1104
徭役	-12.1104
幃	-12.1104
進退存亡	-12.1104
蘖	-12.1105
神通品三十	-12.1105
匀	-12.1105
溝壑	-12.1105
鄂渚	-12.1105
汰	-12.1105
经	-12.1105
涎	-12.1105
乘雲駕	-12.1105
日之寳本年	-12.1105
奂	-12.1105
奧	-12.1105
皦	-12.1105
纏綿	-12.1105
剛中而應	-12.1105
魔瑘女	-12.1105
繚	-12.1105
樾	-12.1106
牲醴	-12.1106
堦	-12.1106
楼	-12.1106
賾	-12.1106
洒掃	-12.1107
侍軄焚	-12.1107
溜	-12.1108
天仙玉女碧霞元君	-12.1108
吾何以知天下之然哉	-12.1108
北海若曰	-12.1108
煒	-12.1108
笈	-12.1108
采薇	-12.1108
洞映上清	-12.1108
爲人上者	-12.1109
万	-12.1109
捨其國	-12.1109
聃	-12.111
捨身崖	-12.111
九玄七祖	-12.111
蓬壼	-12.111
拏	-12.111
宻雲不雨	-12.111
太清仙境	-12.111
諂	-12.111
成始成終	-12.1111
搶	-12.1111
藩臬	-12.1111
濶	-12.1111
鼫鼠	-12.1111
冊	-12.1111
抉	-12.1111
存乎其人	-12.1111
歲男子金星女人太隂星	-12.1112
襴	-12.1112
侏	-12.1112
輈	-12.1113
藺	-12.1113
名山大川	-12.1113
熄	-12.1113
霊	-12.1113
生生之厚	-12.1113
吽	-12.1113
閭閻	-12.1114
歲男子太陽星女人土星	-12.1114
术	-12.1115
榼	-12.1115
剡	-12.1116
褒奬	-12.1116
其可得乎	-12.1116
宋史太祖	-12.1116
翮	-12.1117
蜿	-12.1117
頷	-12.1117
年夏四月	-12.1117
鋸	-12.1117
軄	-12.1117
正位乎外	-12.1117
不宜殺生	-12.1118
工倕	-12.1118
巨𡖖	-12.1118
月二十三日	-12.1119
遥叅亭	-12.112
犧牲	-12.112
身命宫主	-12.112
洙泗	-12.1121
鐃	-12.1121
假有廟	-12.1121
坦途	-12.1122
繽	-12.1123
娼	-12.1123
筲	-12.1125
炮	-12.1125
法子主	-12.1126
獼	-12.1126
讞	-12.1128
何謂也子曰	-12.1128
虢	-12.1129
亞獻	-12.1129
墩	-12.113
弹	-12.113
芹	-12.1131
苞桑	-12.1132
租稅	-12.1134
字號第	-12.1135
所由分也	-12.1136
部十萬卷	-12.114
乘剛也	-12.1143
桐栢	-12.1145
五千餘言	-12.1146
靡所不	-12.1158
此日大㐫	-12.1158
罰十拜若	-12.1158
三百五十	-12.1159
曰南朝	-12.1253
高虚清明天主	-12.1306
可及哉	-12.1315
孟子不云	-12.1415
隄	-12.1473
九天金闕志心皈命禮威震雷霆	-12.1578
足以當之	-12.1606
九十一十九	-12.2042
翊聖真君下䧏	-12.2559
未之有也	-12.2586
天齊仁聖帝	-12.2639
曛	-12.2672
涉大川	-12.2675
星君南斗天	-12.2701
向朝如	-12.2704
邪精鬼賊	-12.2707
相加而爲	-12.2714
鴟鳶	-12.2716
不得一未遽	-12.272
雲行雨施	-12.2722
鷟曰此經卦之	-12.2723
求官得位	-12.2724
湯囚夏臺文王拘羑里	-12.2724
顰	-12.2726
別	-12.2727
九天雷祖大	-12.2727
䰟𩲸	-12.2727
𨇠	-12.2729
何思何慮	-12.2729
七三六四九	-12.273
筥	-12.273
此是徃生	-12.2731
痢	-12.2731
禍福甚緊	-12.2731
琛	-12.2732
鷂	-12.2732
驄	-12.2733
果而勿	-12.2733
二十一日天猷下䧏二十	-12.2733
琬	-12.2734
洞賔詭爲	-12.2734
莎	-12.2734
伊尹耕於有莘之野	-12.2734
鷦	-12.2734
振宗風	-12.2734
三界齊臨	-12.2734
牗	-12.2735
箕壁參軫	-12.2735
唳	-12.2735
太明上皇君	-12.2735
轄	-12.2735
西斗下䧏十六日	-12.2735
宜矣其别卦而皆謂之作	-12.2735
慴	-12.2735
太乙救苦天尊下䧏	-12.2735
金石絲竹	-12.2736
行人有信	-12.2736
正一嗣教體玄	-12.2736
星躔度定局	-12.2737
黄潜善汪伯彦	-12.2737
献	-12.2738
敺	-12.2738
五方雷神下䧏	-12.2739
渤	-12.2739
𨂷	-12.2739
凡事大吉玄天上帝感應靈籤第	-12.274
江西吉水	-12.274
按春秋昭公二	-12.274
仁智殿	-12.274
木以拂日	-12.274
盬	-12.274
膈	-12.274
濡其尾	-12.274
秣	-12.2741
仸	-12.2741
楚詞折	-12.2741
喈喈	-12.2741
日中有三足烏	-12.2741
滄峽	-12.2742
价	-12.2742
祲	-12.2742
章持是經人名	-12.2742
鶂	-12.2742
小人剥廬	-12.2742
未之聞也	-12.2742
蹠	-12.2742
羿古之善射者	-12.2743
森森	-12.2743
成家之命	-12.2743
木木名在崑崙西極其華光照下地	-12.2743
西平侯	-12.2743
轝	-12.2743
六十二四	-12.2743
竚	-12.2743
靈觀大聖	-12.2743
𩐎	-12.2743
不一而足	-12.2743
天朗氣清	-12.2743
猨	-12.2743
蔕	-12.2743
褫	-12.2743
南極上元君曰	-12.2743
荆軻	-12.2743
五四二十四八二十箕初	-12.2743
攝太尉充	-12.2743
恂恂	-12.2744
瘖	-12.2744
釃	-12.2744
帡	-12.2744
拜手稽首	-12.2744
揔	-12.2744
陟岵	-12.2744
上得九六則之	-12.2744
恂	-12.2745
臰	-12.2745
庄	-12.2745
春秋魯莊公元年	-12.2745
文中天炁	-12.2745
莭	-12.2745
天倪子	-12.2745
雷霆玄省	-12.2745
𥂁之弊	-12.2745
心初二軫一六	-12.2746
籛	-12.2746
緦	-12.2746
蹻	-12.2746
昭公二十五年九月	-12.2746
複	-12.2746
君子得輿	-12.2746
太素三元君朝真	-12.2746
十五十五四十十五	-12.2747
𢹂	-12.2747
蜲	-12.2747
問仁子曰	-12.2747
罣	-12.2747
臣誠恐誠惶頓首頓首	-12.2747
艮離坎坤震巽中	-12.2747
枋	-12.2747
巇	-12.2748
絪緼	-12.2748
泱泱	-12.2748
應驗品續三十	-12.2748
洸	-12.2748
明入地中	-12.2748
枲	-12.2748
卦畫之易	-12.2748
縳	-12.2748
阿羅漢	-12.2749
贋	-12.2749
堞	-12.2749
蜺	-12.2749
魏文侯	-12.2749
厲聲曰	-12.2749
徹上徹下	-12.2749
滓	-12.2749
心廣體胖	-12.2749
堊	-12.2749
滎	-12.2749
或有能聞是此香者	-12.2749
十六十四十一九五	-12.2749
遣中使	-12.275
豺狼	-12.275
綫	-12.275
麟孔子作春秋	-12.275
驎	-12.275
嫩	-12.275
沌沌	-12.275
恬惔	-12.275
咬	-12.275
默朝上帝	-12.275
吕洞賔也	-12.275
同姓諸侯	-12.275
捶	-12.2751
螳蜋	-12.2751
以享上帝	-12.2751
臾	-12.2751
氐女胃柳	-12.2751
所臨之方	-12.2751
疹	-12.2751
櫛	-12.2751
亢九八	-12.2752
高上玉皇尊	-12.2752
凂	-12.2752
淬	-12.2752
脣	-12.2752
怩	-12.2752
跛踦	-12.2752
易乾卦	-12.2752
蜂蠆	-12.2752
護國庇民	-12.2753
九天金闕明道達德大仙顯靈溥濟	-12.2753
廊廡	-12.2753
籤中平	-12.2753
魯仲連	-12.2753
㗸	-12.2753
兕觥	-12.2753
升元觀	-12.2753
叩齒三通	-12.2753
跟	-12.2753
侍軄焚化生	-12.2753
崢嶸	-12.2753
玉品山	-12.2753
靦	-12.2753
鬷	-12.2753
嶒	-12.2754
纍纍	-12.2754
嚅	-12.2754
纊	-12.2754
吉凶悔吝	-12.2754
嘶	-12.2754
禫	-12.2754
食周粟	-12.2754
申子辰	-12.2754
旆	-12.2755
癯	-12.2755
吕大防	-12.2755
襖	-12.2755
憒憒	-12.2755
么	-12.2755
東嶽泰山之神	-12.2756
缸	-12.2756
風伯雨師	-12.2756
江河淮海	-12.2756
球	-12.2756
嵋	-12.2756
善男子善女人	-12.2756
栩	-12.2756
與天爲徒	-12.2756
粉黛	-12.2756
宫龍女啓請	-12.2756
𡖖	-12.2756
亷	-12.2757
擴	-12.2757
灸	-12.2757
癩	-12.2757
彚	-12.2757
淵濟公	-12.2757
眞清眞凈	-12.2757
果何益哉	-12.2757
眯	-12.2757
豈偶然哉	-12.2757
賡	-12.2757
饜	-12.2757
碁	-12.2758
髫	-12.2758
劉濬伯曰	-12.2758
澇	-12.2758
董仲舒	-12.2758
五方五靈	-12.2758
崇德報功	-12.2758
廩	-12.2758
以是爲訓	-12.2758
太極生兩儀	-12.2758
淤	-12.2758
爲灌壇令	-12.2758
緱	-12.2758
趐	-12.2758
不崇朝而雨	-12.2758
耈	-12.2758
大光明王尊	-12.2759
纛	-12.2759
化卷第	-12.2759
春秋魯成公二年	-12.2759
春齊侯伐我北鄙圍龍頃公之嬖人盧蒲	-12.2759
魁門焉龍人囚之齊侯親皷三日取龍	-12.2759
瀨	-12.2759
向三拜朝	-12.2759
捄	-12.2759
紵	-12.2759
攢	-12.2759
周公曰嗚呼	-12.2759
文王曰咨咨女殷商	-12.2759
歲男子水星女人水星	-12.2759
坪	-12.276
蠆	-12.276
酖	-12.276
亥卯未	-12.276
葭	-12.276
鷗	-12.276
治曆明時	-12.276
恚	-12.276
剉	-12.276
尓	-12.276
躶	-12.276
倫攸叙	-12.276
寳月光皇后	-12.2761
人濟物	-12.2761
另	-12.2761
若何對曰	-12.2761
徭	-12.2762
堙	-12.2762
榱	-12.2762
枘	-12.2762
臲	-12.2762
鶩	-12.2762
萋萋	-12.2762
自古及今	-12.2762
瀟	-12.2762
鵷	-12.2762
侗	-12.2763
洵	-12.2763
豢	-12.2763
螢	-12.2763
攪	-12.2763
卭	-12.2763
大明萬曆三十五年歲次丁未上元吉	-12.2763
廵按御史	-12.2763
淆	-12.2763
襁褓	-12.2763
大悲大願大聖大慈無量度人	-12.2763
飜	-12.2764
雝雝	-12.2764
檐	-12.2764
緼	-12.2764
瀚	-12.2764
餧	-12.2764
汭	-12.2764
翬	-12.2764
臣周玄貞	-12.2764
傀	-12.2765
剽	-12.2765
靈寶赤書玉篇眞文合一百	-12.2765
礼	-12.2765
韐	-12.2765
宋眞宗駐蹕	-12.2765
憯	-12.2765
嵬	-12.2765
强凌弱	-12.2766
蔑以加	-12.2766
進太上延禧籙	-12.2766
千變萬化	-12.2766
亞	-12.2766
伉	-12.2766
撝	-12.2766
洄	-12.2766
胼	-12.2766
克己復禮	-12.2766
南昌上宫	-12.2766
素凝神廣道	-12.2766
終无尤	-12.2766
三千大界	-12.2766
栽培	-12.2767
遒勁	-12.2767
小徃大來	-12.2767
箎	-12.2767
擠	-12.2767
歃	-12.2767
紀泰山銘	-12.2767
禦災捍患	-12.2767
一以貫之	-12.2767
哩	-12.2767
栁	-12.2767
清凈無染	-12.2767
文秋粮米正耗	-12.2767
嗷嗷	-12.2767
甖	-12.2768
榦	-12.2768
佑聖真君	-12.2768
輻輳	-12.2768
天尊地卑	-12.2768
濩	-12.2768
陰翊皇度	-12.2768
積功累仁	-12.2768
飧	-12.2768
馬端臨	-12.2768
大真人張彦頨	-12.2768
皇天后土	-12.2768
還北向叩齒九通思	-12.2768
正位乎内	-12.2769
王子搜	-12.2769
㖿	-12.2769
甃	-12.2769
謂弟子曰	-12.277
顱	-12.277
豈其然哉	-12.277
鋟	-12.277
登泰山而小天下	-12.277
異毛刃	-12.277
又若有持是經人	-12.277
太宗文皇帝	-12.277
彼何人斯	-12.277
都察院	-12.277
港	-12.277
后土皇地祇	-12.2771
絞	-12.2771
功德品續三十	-12.2771
𩬊	-12.2771
儘	-12.2771
𣏌	-12.2771
帝八威策文	-12.2771
萎	-12.2771
十二華光	-12.2772
日喜神西北貴神	-12.2772
荳	-12.2772
覧	-12.2773
䑛	-12.2773
黷	-12.2773
柱下史	-12.2773
禰	-12.2773
倐	-12.2773
皺	-12.2773
象曰山下有	-12.2773
豶	-12.2774
叠叠	-12.2774
道統之傳	-12.2774
日喜神東南貴神	-12.2775
枷鎖	-12.2775
栝	-12.2775
欽承上命	-12.2775
錠	-12.2776
蔡介夫曰	-12.2776
朝陽洞	-12.2776
順以巽	-12.2776
口是心非	-12.2776
䂓	-12.2777
殲	-12.2777
大明萬曆三十五年	-12.2778
畚	-12.2778
一炁七遍	-12.2778
冏	-12.2779
塞而閉之	-12.2779
與道合真	-12.2779
畢嚥氣	-12.2779
鎸	-12.278
涓涓	-12.278
𩔖	-12.278
呂	-12.2781
赭	-12.2781
歲男子計都星女人太陽星	-12.2781
不崇朝	-12.2781
伶仃	-12.2781
黄峴嶺	-12.2781
仄	-12.2782
晷	-12.2783
瓦礫	-12.2783
氈	-12.2783
歲男子木星女人水星	-12.2783
歲男子水星女人木星	-12.2783
嘙	-12.2783
馬棚崖	-12.2783
㾮	-12.2784
謢	-12.2785
宓	-12.2785
𠏉	-12.2786
者减夀半紀知而故犯者加一等一法官	-12.2786
徐仙眞録卷之	-12.2786
故授之以	-12.2787
縂	-12.2787
瑯	-12.2788
警蹕	-12.2788
炫	-12.2788
長生保命天尊	-12.2788
両	-12.2788
曏	-12.2788
潁	-12.2788
啍	-12.2789
嚬	-12.2789
今從韓非本蘇註	-12.2789
杠	-12.279
帔	-12.2791
鈸	-12.2792
縯	-12.2795
耳目口鼻	-12.2797
坳	-12.2797
鄲	-12.2799
經註觧	-12.28
初㬋符頭	-12.2802
㝎	-12.2805
介然有知	-12.2807
相得而合爲	-12.2807
緜	-12.2809
嗑	-12.281
劉大夏	-12.281
緝熙	-12.2813
不自見故	-12.2815
分理官	-12.282
枸	-12.2828
檢齋還願者	-12.2829
姆	-12.2831
高二丈	-12.2833
相交錯也	-12.286
心腹無註	-12.2888
月二十六日	-12.2902
廚	-12.2925
歸其室	-12.3064
十有二年	-12.3082
春秋魯僖公	-12.3325
安處無註	-12.3794
高明弘靜冲湛妙應仁惠輔國佑民	-12.3851
奉天承運皇帝制曰朕惟	-12.3925
中神仙諸靈官謹燃璣衡七政神燈上布	-12.4362
斁	-12.4619
猖	-12.4644
無食必不	-12.4673
年月日時爲有氣生旺吉墓絶㐫	-12.4677
星君東斗	-12.47
大龍王開念啓請	-12.4702
勸汝莫	-12.4702
爺	-12.4705
遲留伏逆	-12.4708
梱	-12.471
簸	-12.4712
薑	-12.4714
变	-12.4715
奉獻奉獻上帝前	-12.4715
白雲深處	-12.4716
之别而已故搃名之曰作	-12.4716
蘇秦主從張儀主衡秦事燕儀事秦	-12.4716
𧕏	-12.4716
上㬋符頭	-12.4717
桶	-12.4718
汔	-12.4718
佷	-12.4719
餮	-12.472
傘	-12.472
猳	-12.4722
或躍在淵	-12.4723
襄公二十五年	-12.4723
請法衆等謹依太上所說	-12.4724
伯昏瞀人	-12.4724
閡	-12.4724
貞應仙妃	-12.4725
棧	-12.4725
有隔礙	-12.4725
革言三就	-12.4726
鰕	-12.4726
上官赴任	-12.4726
咆	-12.4728
斐	-12.4728
掌天下道教事	-12.4729
欽安殿	-12.4729
嵎	-12.4729
旰	-12.4729
溱	-12.4729
鷰	-12.4729
闐	-12.473
潜龍勿用	-12.473
及其衰也	-12.473
跰	-12.473
之本宫非直指	-12.473
噓	-12.4731
脂巢於小枝	-12.4731
隍	-12.4731
崚嶒	-12.4732
廟記略	-12.4732
憸	-12.4732
孳孳爲利	-12.4732
視有所畏避	-12.4732
禘	-12.4732
至于八月有凶	-12.4733
渫	-12.4733
窓	-12.4733
駮	-12.4733
鎚	-12.4733
用黄牛之革	-12.4734
真人領道教事	-12.4734
珊瑚	-12.4735
今受斯報或	-12.4735
麑	-12.4735
鏑	-12.4735
以土計爲難以火羅爲仇以金爲恩以木	-12.4735
以水孛爲	-12.4735
難以金爲仇以木氣爲恩以土計爲用	-12.4735
以火羅爲	-12.4735
難以木氣爲仇以土計爲恩以水孛爲用	-12.4735
斌	-12.4736
咸有一德	-12.4736
目當作日	-12.4736
皆化氣不及	-12.4737
大公至正	-12.4737
得超脫	-12.4737
饈	-12.4737
利牝馬之貞	-12.4737
帕	-12.4737
犁	-12.4737
後順得常	-12.4737
我倉旣	-12.4737
與與我稷翼翼	-12.4737
讟	-12.4737
𩣭	-12.4737
齬	-12.4738
煽	-12.4738
息終無禍患無註	-12.4738
筯	-12.4738
我里東流爲海	-12.4738
帝天君侍眞靈官無鞅數衆浮空而至	-12.4738
聵	-12.4739
桎	-12.4739
緹	-12.4739
捷於影響	-12.4739
鏘鏘	-12.4739
伯氏客宿詩	-12.4739
三七五二壁九	-12.4739
月時皆宜	-12.474
不得脫走無註	-12.474
拜表上章	-12.474
山澤通氣	-12.474
者之所好也	-12.474
年退盡一週天	-12.4741
瑚	-12.4741
而化瘞劍	-12.4741
不及天行一度	-12.4741
御香亭	-12.4741
爲洩逄	-12.4741
大悲大願大	-12.4741
天王統領本方	-12.4741
傚	-12.4741
鏌	-12.4741
闓	-12.4741
剛柔始交	-12.4741
眇能視	-12.4741
以日易月	-12.4741
嬀之後將育于姜	-12.4741
八七五室十七二	-12.4742
蝶	-12.4742
塾	-12.4742
棨	-12.4742
莛	-12.4742
年夏四月韓須如齊逆女齊陳無宇送女	-12.4742
筴傳郭璞註云蝟能制虎	-12.4742
賛靈集卷之	-12.4742
儵	-12.4742
山林川澤	-12.4742
慣	-12.4742
春秋僖公十六年正月	-12.4742
甘露醴泉太平機	-12.4742
蜎	-12.4742
三聖堯舜禹也	-12.4742
弗損益之	-12.4742
詬	-12.4742
盧一十三十二十一二八	-12.4743
籩	-12.4743
吕惠卿	-12.4743
田蠶六畜	-12.4743
喋喋	-12.4743
晻	-12.4743
繋	-12.4743
饔	-12.4743
昭僖侯	-12.4743
婪	-12.4744
拗	-12.4744
嶮	-12.4744
角斗奎井	-12.4744
睛	-12.4744
䌓	-12.4744
以木氣爲	-12.4744
危坐至暮請求不得膏澤不降政戾民	-12.4744
獫	-12.4744
緍	-12.4744
難以水孛爲仇以火羅爲恩以金爲用	-12.4744
轠	-12.4744
駵	-12.4744
声	-12.4745
不可以不録也	-12.4745
踧	-12.4745
愔	-12.4745
鸑	-12.4745
翊亮眞君	-12.4746
砭	-12.4746
鷟曰此以上八卦言伏羲始作	-12.4746
紓	-12.4746
趨吉避凶	-12.4746
金籙白簡	-12.4746
厖	-12.4746
能以美利利天下	-12.4746
九天採訪使	-12.4746
郕	-12.4746
之後莫之與京姜齊姓營丘齊所封之地	-12.4746
暵	-12.4746
伯夷叔齊貞廉之師以徳防患憂禍不存	-12.4746
金馬碧雞	-12.4746
鱸	-12.4746
卼	-12.4748
畨	-12.4748
天下之民聚天下之貨交易而退	-12.4748
懿氏卜妻敬仲曰有	-12.4748
積功累行	-12.4748
墾	-12.4748
張懋丞	-12.4748
礱	-12.4748
命分獻風雲雷雨壇	-12.4748
曳其輪	-12.4748
莫不隸焉	-12.4748
跛能履	-12.4748
十五十四十三四十二二十參初	-12.4748
磊	-12.4749
継	-12.4749
莧	-12.4749
装	-12.4749
鮪	-12.4749
狄梁公	-12.4749
兹蓋伏遇	-12.4749
可爲後世法	-12.4749
桓公十八年公與夫人姜氏如齊	-12.4749
絛	-12.4749
麵	-12.4749
履霜堅冰	-12.4749
戡	-12.4749
飴	-12.4749
二十四五七	-12.475
箬	-12.475
剏	-12.475
録曰或問曰	-12.475
埜	-12.475
圓明道母天尊	-12.475
此何等氣象也	-12.475
亂之首也	-12.475
姙	-12.475
空洞自然之書一名	-12.475
也羅什曰	-12.475
多忌諱	-12.475
長孫后	-12.475
叭	-12.475
鐺	-12.475
抜	-12.475
涪	-12.4751
立五色獅子之上	-12.4751
七二四三八一二畢	-12.4751
姓故築	-12.4751
蓏	-12.4751
鯢	-12.4751
仲即陳公子完魯莊公二十二年奔齊使	-12.4751
八世大昌按春秋傳陳	-12.4751
諮	-12.4751
回心向道	-12.4751
羮	-12.4751
酗	-12.4751
靨	-12.4751
向九拜朝	-12.4751
捍患禦灾	-12.4751
榔	-12.4751
玉晨大道君登玉霄琳房四盻天下	-12.4751
大書特書	-12.4752
雜氣天符年日皆宜	-12.4752
沐浴清齋入室	-12.4752
神其鑒之	-12.4752
繟	-12.4752
西方七炁	-12.4752
戌伐季氏叔孫氏孟氏救之三家反攻公	-12.4752
明出地上	-12.4752
曝經石	-12.4752
三狐狐者邪媚之獸三狐指卦之三隂	-12.4752
生之畜之	-12.4752
皇經註解卷	-12.4752
嗣漢五十代天師大眞人張國祥	-12.4752
忬	-12.4752
粘	-12.4752
蕘	-12.4752
胏	-12.4753
僭	-12.4753
閙	-12.4753
䜟	-12.4753
人爲萬物之靈	-12.4753
無罣礙	-12.4753
瞋	-12.4753
慇	-12.4753
妻孫氏	-12.4753
倩	-12.4753
冺	-12.4753
豜	-12.4753
佾	-12.4753
緋	-12.4753
清微洞玄冲虛妙感慈惠	-12.4754
咫	-12.4754
幛	-12.4754
賞善罰惡	-12.4754
唆	-12.4754
迢迢	-12.4754
古易考原卷之	-12.4754
張志純	-12.4754
戛	-12.4754
過時不歸	-12.4754
與利相逢	-12.4754
萑	-12.4754
趙志堅	-12.4754
便宜行事	-12.4754
大白若辱	-12.4754
峨峨	-12.4754
桃之夭夭灼灼其華之子于歸冝其室家	-12.4754
數至辰月又見	-12.4754
非一朝一夕之故	-12.4754
願降經壇證盟功德志心皈命禮請	-12.4754
誹	-12.4754
孫明復石守道	-12.4755
躰	-12.4755
元帥七土地一科名司二	-12.4755
厥聲濯濯厥靈	-12.4755
桞	-12.4755
藳	-12.4755
譌	-12.4755
䦧	-12.4755
之年正月建	-12.4755
噠	-12.4755
形長二寸	-12.4755
晤	-12.4755
誶	-12.4755
十二十一十角一七柳十三	-12.4756
潼	-12.4756
謌	-12.4756
泰山書院	-12.4756
雝	-12.4756
䕫	-12.4756
從刼至刼	-12.4756
朶	-12.4756
詩人羙之	-12.4756
杖庫姚紫文	-12.4756
字之曰道	-12.4756
洞照上清	-12.4756
雝雝在宫肅肅在廟	-12.4756
囷	-12.4756
金籙大齋	-12.4756
陽城太室神明所	-12.4756
拿	-12.4756
适	-12.4756
亹亹	-12.4757
比目四翼	-12.4757
執麟春秋作元隂聖將終尼父悲心左	-12.4757
瞥	-12.4757
刓	-12.4757
搨	-12.4757
瑠璃	-12.4757
筦榷之	-12.4757
飼	-12.4757
之中便㣲祝曰	-12.4757
之時用大矣哉	-12.4757
依人而行	-12.4757
蓁	-12.4757
香馥郁	-12.4757
之體態者皆屬於	-12.4757
厚地徳庶物蕃息平康正直以綏大福易	-12.4757
妺	-12.4757
搗	-12.4757
搯	-12.4757
谷神不死	-12.4758
筍	-12.4758
軰	-12.4758
春秋昭公	-12.4758
目録終儒門崇理折衷堪輿完孝録卷之	-12.4758
笋	-12.4758
鶚	-12.4758
稷丘君	-12.4758
蒐	-12.4758
鑊	-12.4758
凌煙閣	-12.4758
大光明圓滿大神	-12.4758
薤	-12.4758
辠	-12.4758
異毛虛貫刑刃哭	-12.4758
奉天承運皇帝制曰	-12.4759
跼	-12.4759
陛辭而還	-12.4759
惓	-12.4759
伶	-12.4759
帆	-12.4759
牿	-12.4759
驊騮	-12.4759
鴟鴞破斧	-12.4759
不亦樂乎	-12.4759
俑	-12.4759
拐	-12.4759
粃	-12.4759
驃	-12.4759
無聲無臭	-12.4759
諳	-12.4759
東弗于逮	-12.4759
敲	-12.476
譖	-12.476
却走馬以糞	-12.476
繭	-12.4761
勛	-12.4761
大音希聲	-12.4761
仿	-12.4761
嘈	-12.4761
洌	-12.4761
鏟	-12.4761
叡	-12.4761
畸	-12.4761
百足俱行相輔爲強三聖翼事	-12.4761
蹐	-12.4761
混而爲一	-12.4762
孚于剥	-12.4762
競競業業	-12.4762
護送還山	-12.4762
茸	-12.4762
與天地相爲悠久	-12.4762
照明上清思之還	-12.4762
王事靡盬不遑將父	-12.4762
窠	-12.4762
谺	-12.4762
豸	-12.4762
麤	-12.4762
可謂無負	-12.4762
蜒	-12.4763
樟	-12.4763
古之道術有在於是者	-12.4763
磊磊	-12.4763
渰	-12.4763
率性而動	-12.4763
睠	-12.4763
旱既大甚	-12.4763
義勇武安王	-12.4763
星約束定是	-12.4763
黽	-12.4764
琥	-12.4764
驀	-12.4764
肄	-12.4764
巽在牀下	-12.4764
簣	-12.4764
有宋一代	-12.4764
濟人利物	-12.4764
症	-12.4764
崦	-12.4764
莠	-12.4764
扛	-12.4764
鏞	-12.4764
星也降扵人間為	-12.4764
謂之八愷髙辛氏有才子八人謂之八元	-12.4764
𢖍	-12.4765
濙	-12.4765
扼	-12.4765
斫	-12.4765
珦	-12.4765
其施爲氣象	-12.4765
柳下惠	-12.4765
蜡	-12.4765
踖	-12.4765
舜於是舉八愷使主后土舉八元使布五	-12.4765
蚿	-12.4765
醪	-12.4766
詡	-12.4766
亰	-12.4766
真人張宇初	-12.4766
糵	-12.4766
蕞	-12.4766
瑛	-12.4766
痺	-12.4766
義不勝情以欲自	-12.4766
身長二十五里	-12.4766
豺	-12.4766
悞	-12.4767
懃	-12.4767
弰	-12.4767
民無二王	-12.4767
𣾰	-12.4767
黼	-12.4767
䋲	-12.4767
敢昭告于	-12.4767
髭	-12.4767
文章可得而聞	-12.4767
薜	-12.4767
一奏状	-12.4767
恭己南面	-12.4767
兵者不祥之器	-12.4767
刦	-12.4767
誥授正一嗣教	-12.4768
熾而昌	-12.4768
墅	-12.4768
直言極諫	-12.4768
祧	-12.4768
不可得視無註	-12.4768
千有餘年	-12.4768
煜	-12.4768
没後而有	-12.4768
鷙	-12.4769
月爲令星	-12.4769
蹋	-12.4769
父祖子孫	-12.4769
星照限	-12.4769
膚寸而合不崇朝而雨	-12.4769
任萬物之自	-12.4769
扳	-12.4769
祔	-12.4769
君畢還北向平坐叩齒三通思	-12.4769
王事靡盬	-12.4769
身殁之後	-12.4769
困于酒食	-12.477
慤	-12.477
楔	-12.477
俚	-12.477
剿	-12.477
字大如斗	-12.477
専	-12.477
闞	-12.477
妝	-12.477
自身防口舌	-12.477
皋	-12.477
蛭	-12.477
官之臣所謂	-12.477
悸	-12.477
未嘗過而問焉	-12.477
兠	-12.4771
居是宫主	-12.4771
捴	-12.4771
即說偈曰	-12.4771
未見君子憂心	-12.4771
綉	-12.4771
城復于隍	-12.4771
乙庚年月日時	-12.4772
縻	-12.4772
格物致知	-12.4772
沌	-12.4772
景星慶雲	-12.4772
痛哭流涕	-12.4772
大公調曰	-12.4772
夘	-12.4773
嗛	-12.4773
冬無雪	-12.4773
法官道士加一等一生民	-12.4773
上為列星	-12.4774
勦	-12.4774
租穀貳石	-12.4774
軺	-12.4774
朏	-12.4774
超凡入聖	-12.4775
三分天下有其二	-12.4775
靉	-12.4775
不亦遠乎	-12.4775
乾稱父坤稱母	-12.4775
𠫵	-12.4775
之年皆太過之	-12.4775
圍田計	-12.4775
儐	-12.4776
毖	-12.4776
光嚴妙樂國	-12.4776
哂	-12.4776
慆	-12.4776
菰	-12.4776
者减夀半紀	-12.4776
若有善男信女	-12.4777
觳	-12.4777
谽	-12.4777
萬二千天	-12.4777
胝	-12.4778
摳	-12.4778
𠒋	-12.4778
始勤終怠	-12.4778
茁	-12.4779
漶	-12.4779
赧	-12.4779
媮	-12.4779
家給人足	-12.4779
礴	-12.4779
綻	-12.4779
至聖炳靈王	-12.4779
玉𣑽尊天嘍囉王妙𣑽尊天	-12.4779
瀼	-12.4779
祝當今皇帝	-12.4779
媱	-12.478
四衆八部	-12.478
聒	-12.478
峒	-12.478
膀胱	-12.478
觀國之光	-12.478
畫減殺	-12.478
百變之光	-12.478
足以解憂	-12.478
范文正公	-12.4781
傲來山	-12.4781
幔	-12.4781
謹以牲醴	-12.4781
襪	-12.4781
人之生動之死地	-12.4781
噂	-12.4781
狶	-12.4781
祭于東嶽泰山之神曰	-12.4781
徒九年一法官道士	-12.4781
秦篆碑	-12.4782
瀣	-12.4782
絙	-12.4782
鏜	-12.4782
泒	-12.4783
㮣	-12.4783
甲辰甲戌己丑己未	-12.4783
冲靜承先弘化大真人掌天下道教事	-12.4784
絶聖棄知	-12.4784
鑱	-12.4784
暄	-12.4785
愚夫愚婦	-12.4785
偁	-12.4785
熠	-12.4785
萬天教主	-12.4785
之年皆不及之	-12.4786
玉皇本行集經	-12.4787
爚	-12.4788
順飛一白到	-12.4788
張國祥	-12.4789
瘼	-12.4789
徊	-12.4789
縉	-12.4789
𥂁	-12.479
双	-12.479
觀音菩薩	-12.479
禕	-12.479
觀海亭	-12.4791
二字餘封如故	-12.4791
榕	-12.4792
桔	-12.4792
明皇后聖朝加封大	-12.4792
叄	-12.4793
糾	-12.4793
廣生帝君	-12.4795
丁令威	-12.4796
縝	-12.4796
瀹	-12.4797
邐	-12.4797
篷	-12.4797
者尚多也	-12.4798
月中宫得	-12.4798
拄	-12.4799
經之營之	-12.4799
豈非千古之	-12.4799
不亦悲乎	-12.4799
錙銖	-12.4799
刄	-12.48
漭	-12.48
蒙聖恩	-12.48
硯	-12.4801
天地之數五十有五	-12.4802
值年星	-12.4802
杜光庭	-12.4804
之則萬物莫不	-12.4804
蔴	-12.4807
滉	-12.4808
躔其度則爲仇	-12.4809
躔其度則爲恩	-12.481
羅尊者第	-12.4814
總廵官	-12.4818
之謂也故君於	-12.482
先破後成	-12.4821
盞正西祭之大吉	-12.4842
房初八十四	-12.4878
所歡無註	-12.4891
大千世界之	-12.5031
八六壁一三斗二十四四房五亢一	-12.5121
防小口	-12.5251
藟詩篇名	-12.5753
民到于今稱之	-12.6512
皇帝制曰朕	-12.6664
祕文書于	-12.6752
暐曄在上清	-12.679
二十四字書于	-12.697
七十九尾十八房初八十四星六	-12.7083
二奎十六十二六十八十七	-12.7183
婬	-12.7192
捽	-12.7197
則以身殉	-12.7204
嬙	-12.7208
子息遲招	-12.7208
郇	-12.721
之餘禍福次於	-12.721
壽筭爲我守護看經功德	-12.7211
粱	-12.7211
浞	-12.7211
黻	-12.7214
時上四刻無尅破	-12.7214
揵	-12.7215
舋	-12.7215
長城鉅防	-12.7217
之宫眞君如在	-12.7217
薫	-12.7217
復坐吾語汝	-12.7217
祖業稀招	-12.7217
偏眼邪視	-12.7217
暖姝者	-12.7217
麑鹿子也	-12.7217
山没丘浮陸	-12.7218
順助仁惠仙妃	-12.7218
璫	-12.7218
鋼	-12.7218
騏驎騄耳	-12.7218
獮	-12.7219
鵶	-12.7219
西河薩守堅	-12.7219
尻	-12.7219
爰采唐矣沬之郷矣	-12.7219
恍恍惚惚	-12.7221
金闕志心皈依信禮九天玉闕咒捻	-12.7221
德星君神咒稽首皈依虔誠讃詠志心皈	-12.7221
西伯出獵	-12.7221
箠	-12.7221
趄	-12.7221
空虚無子無註	-12.7221
自天子至於庶人	-12.7222
礀	-12.7222
出祖成家	-12.7222
多成多敗	-12.7222
官事失理求官未達	-12.7224
冠帶南遊與	-12.7224
市南宜僚	-12.7224
罕見其儔	-12.7224
沍	-12.7224
崢	-12.7224
日行北方黒道曰北陸	-12.7224
涇國夫人順助仁惠	-12.7225
麩	-12.7225
三河俱合水怒	-12.7225
按韻府群玉	-12.7225
與神流通長無憂凶無註	-12.7225
落去更爲	-12.7225
犨	-12.7225
至各衘明珠以報參焉	-12.7225
非汝將吏孰爲	-12.7225
一十一六七尾初	-12.7226
十日長生保命天尊下䧏十一日	-12.7226
每一年而一變者	-12.7226
文王四乳仁愛篤厚子畜十男	-12.7226
飲食卜爾百福	-12.7226
嬖欲盡去群大夫而立其左右遂殺三郤	-12.7226
按禮部韻毛居正曰以六攻一	-12.7226
當變爲之卦之	-12.7226
元陽玉曆	-12.7228
堅氷黄鳥	-12.7228
更生永命天尊	-12.7228
旴	-12.7228
秋隼冬翔	-12.7228
以印劍付	-12.7228
田蠶半熟六畜損失	-12.7228
羸其瓶	-12.7228
頄	-12.7229
深根寧極	-12.7229
更立賢主	-12.7229
笳	-12.7229
列御寇	-12.7229
嶪	-12.7229
生出簡上之	-12.7229
滿苟得曰	-12.7229
頊	-12.723
異路心不相慕	-12.723
乾之剛徤	-12.723
江漢朝宗于海	-12.723
种	-12.723
刈	-12.723
面折廷爭	-12.723
胍定穴	-12.723
陳靈公與孔寧儀行父	-12.7231
㠯	-12.7231
磷	-12.7232
歅	-12.7232
蝢	-12.7232
僵東家治䘮	-12.7232
過剛不中	-12.7232
韡	-12.7232
厦	-12.7232
風文翰大舉就温昧過我邑羿無所得詩	-12.7233
仁宗昭皇帝	-12.7233
豈偶然之故哉	-12.7233
遇異人授以	-12.7233
髙陽氏才子八人厖降庭堅其二子也	-12.7233
失物急尋	-12.7233
欲立其子奚齊賂外嬖梁五東	-12.7233
田蠶半收六畜損失	-12.7233
有求必應	-12.7233
者自无所用彼	-12.7233
颶	-12.7233
孔子過匡匡人以爲陽虎而拘之在陳蔡	-12.7233
曵	-12.7233
温伯雪子	-12.7233
欲色無色	-12.7235
牧羊稻園聞虎喧	-12.7235
左傳鄭大夫子産	-12.7235
矮	-12.7235
詔隨父入朝	-12.7235
盒	-12.7235
伯昏無人	-12.7235
糧言聖人道全徳備雖遇患而不危殆也	-12.7235
取天下常以無事	-12.7235
有事不足以取天	-12.7235
軛	-12.7235
鼍	-12.7236
志曰太公爲灌壇令武王夢婦人當道夜	-12.7236
五十一四十七	-12.7236
按史髙辛氏之子有曰伯虎仲熊	-12.7236
甲丙戊庚壬	-12.7236
北方洞陰朔單鬱絶	-12.7236
嗌	-12.7236
嵨	-12.7236
瑣	-12.7237
錦䙱佩	-12.7237
公子季札甞聘	-12.7237
忖	-12.7237
積行累功	-12.7237
坎艮三女巽離兊	-12.7237
枌	-12.7237
脂桑扈也	-12.7237
也而猶可以稱	-12.7237
如作此星者名曰	-12.7237
方龍斗指	-12.7237
棐	-12.7237
牽不得來無註	-12.7237
蘝蔓于域予羙亡此誰與獨息	-12.7237
蝨	-12.7237
乎弗可弗	-12.7237
載馳載驅周爰咨	-12.7237
蹔	-12.7239
有禱輒應	-12.7239
莫匪爾極	-12.7239
改元入賀	-12.7239
杇	-12.7239
兵師爲營衛後得六相而天地治神明至	-12.7239
吉卯主有	-12.7239
羯	-12.7239
如影隨形	-12.7239
攙	-12.7239
阬	-12.7239
儃	-12.7239
窞	-12.7239
亹	-12.724
蒭	-12.724
豨	-12.724
童妾獨宿長女未室利無所得無註	-12.724
賞賚有差	-12.724
手執華幡	-12.724
疫氣大行	-12.724
九罭篇云鴻飛遵陸公歸不復於汝信宿	-12.724
二五十二六十五十六	-12.724
東山水遏我前深不可渉失利後便無註	-12.724
樽酒簋貳	-12.724
礚	-12.724
陸公出不復	-12.724
伯夷叔齊餓于首陽之下民到于今	-12.724
惟時懋哉石夷未詳	-12.724
珥	-12.724
略羙好求我長女賤薄不與反得醜	-12.724
秘籙一階	-12.724
者莫辯乎	-12.724
八二十一十三	-12.7241
十一九六四危十五	-12.7241
䆮	-12.7242
風調雨順	-12.7242
惟願聖慈	-12.7242
珂	-12.7242
理之必然者	-12.7242
以當車轍	-12.7242
勗	-12.7242
名成徳就項領不試	-12.7242
圉人犖	-12.7242
浥	-12.7242
産遺季紵衣	-12.7242
羊腸九縈相推稍前止須王孫乃能上天	-12.7242
老尼父逝去論語齊景公	-12.7242
心見于外而物	-12.7242
望幸不到文章未	-12.7242
槍	-12.7242
輾	-12.7242
去妄以求復性	-12.7242
品道録司左右	-12.7242
四六五四十二翌一	-12.7242
抱布貿絲	-12.7242
星初十八畢十六十三十一七	-12.7242
有文在手曰	-12.7242
西方七寶金門皓靈皇老白帝	-12.7242
酌水獻花	-12.7242
宿者以太陰爲度主喜	-12.7242
二十四四三婁一十三	-12.7242
十井初九七二四牛初	-12.7242
溉	-12.7242
締	-12.7243
蝮	-12.7243
弇	-12.7243
睎	-12.7243
其子徴舒病之出自廐射而中之	-12.7243
冬至後陽遁	-12.7243
周南召南	-12.7243
我無爲而民自化我好靜而民自正	-12.7243
鷁退飛過宋都二十二年十一月宋公及	-12.7243
罍	-12.7243
一二十二二三十一	-12.7243
子貢至楚楚昭王興師迎孔子然後得免	-12.7243
露仁澤也聖徳上及太清下及萬靈則降	-12.7243
將遂使後世	-12.7243
徒作而無術	-12.7243
攝宗正卿副之	-12.7243
搭	-12.7244
然則君之所讀者古人之糟粕已夫	-12.7244
天王常加護佑今辰壇下伏爲某皈	-12.7244
剠	-12.7244
哀哀父母生我劬勞	-12.7244
知者不言言者不知	-12.7244
硤	-12.7244
其聲殷殷云野	-12.7244
塊不失道	-12.7244
婚姻可成六甲生男田蠶大熟六畜興旺	-12.7244
沕	-12.7244
箕子紂諸父	-12.7244
亥公孫于齊次于陽州	-12.7244
巃	-12.7244
諸地日月星宿	-12.7244
六二十四四三婁一十三七十九尾十八	-12.7244
問之曰吾是東海神女嫁於西海神童今	-12.7244
東齊延陵	-12.7244
翕翕䡘䡘稍	-12.7244
褊	-12.7244
道大天大地大王	-12.7244
上乆而不召師散而歸髙克奔陳鄭人爲	-12.7244
髙子髙克也詩	-12.7244
十七十五十二十六女十	-12.7245
惺	-12.7246
方龍得之大可扦立	-12.7246
鐸	-12.7246
邯	-12.7246
唫	-12.7246
易小畜卦輿脫輹夫妻反目	-12.7246
涿	-12.7246
噍	-12.7246
滈	-12.7246
西那王國	-12.7246
飪	-12.7246
傫	-12.7246
刻石紀號	-12.7246
崒	-12.7246
七九五斗初心五七	-12.7246
守素紹祖崇法安恬樂靜玄同大	-12.7246
弊笱在梁	-12.7246
八句廼制東方諸	-12.7246
厥孚交如	-12.7246
召魂代命	-12.7246
敕勅正一嗣教真人張宇清	-12.7246
楘	-12.7246
瘰	-12.7246
鐻	-12.7246
魃	-12.7246
牛初三一六九井初二十八五	-12.7246
䓁	-12.7247
黑齒落更生	-12.7247
各從其類	-12.7247
洮	-12.7247
疢	-12.7247
讌	-12.7247
季女至于蕩道齊子旦夕	-12.7247
楚人戰于泓宋師敗績	-12.7247
詩云魯道有蕩齊子庸止	-12.7247
挲	-12.7247
默轉眞經	-12.7247
一如紫皇玄天上帝	-12.7247
中金城千里天府之國也	-12.7247
昊天不平此詩家父所作刺周王用尹氏	-12.7247
李鼻涕	-12.7247
畀	-12.7247
蟊	-12.7247
裘於昭王昭王服之以享蔡侯	-12.7247
酅	-12.7247
鍠	-12.7247
雖不取天下而天下歸之矣	-12.7247
懷玄抱真養素守默葆光履和致	-12.7247
卯辰巳午未申酉戍	-12.7248
軫初一心初	-12.7248
九天道母無上帝后元君	-12.7248
三界侍衛五帝司迎	-12.7248
大制不割	-12.7248
若罔聞知	-12.7248
爲得勢值順軌者吉伏逆者凶右第五十	-12.7248
頫	-12.7248
代天宣化	-12.7248
嗤	-12.7248
迴眞下映入兆	-12.7248
淇	-12.7248
碓	-12.7248
蘧伯玉	-12.7248
佛心普照大師	-12.7248
此號讃玉帝	-12.7248
人哭亦哭	-12.7249
份	-12.7249
劃	-12.7249
安寶華林青靈始老蒼帝	-12.7249
惛	-12.7249
描	-12.7249
故勅廣運永樂	-12.7249
曰陟彼崔嵬我馬虺隤又云	-12.7249
狼子野心	-12.7249
閲	-12.7249
陟彼髙岡我馬玄黄又	-12.7249
十二八二十四十三十二	-12.7249
二十二二一十五十一五十七十六十	-12.7249
雋	-12.725
宼	-12.725
藍采和	-12.725
已乎已乎	-12.725
摽	-12.725
欹	-12.725
熖	-12.725
精思之還反眞形修行	-12.725
功弃力飢無所食無註	-12.725
南山昊天刺政	-12.725
嚎	-12.725
屦	-12.725
沷	-12.725
艤	-12.725
菡	-12.725
動土興工	-12.725
卺	-12.725
孔子在陳蔡之間楚使人聘之孔子將	-12.725
張皇六師	-12.725
我僕痡矣云何吁矣	-12.725
用亨于天子	-12.725
祼	-12.725
虱	-12.725
蠓	-12.725
刑囚暗耗	-12.7251
給部牒五百度羽士	-12.7251
取我田疇而伍之	-12.7251
秧	-12.7251
摩利支天大聖	-12.7251
甯	-12.7251
曰紀異也此禄去公室政在公子遂之應	-12.7251
附録蘇子瞻曰	-12.7251
匪寇婚媾	-12.7251
殺牛不如西	-12.7251
畢還北向叩齒	-12.7251
廣德若不足	-12.7251
皤	-12.7251
禦灾捍患	-12.7251
轊	-12.7251
兊乾中巽震坤坎離艮	-12.7251
品至七品	-12.7251
套匣壹箇紅絹軟	-12.7251
方行來之龍皆	-12.7251
早霜晚雪傷害禾麥	-12.7251
水深漬罷頼幸舟子濟脫無他無註	-12.7251
艮兊乾中巽震坤坎離	-12.7251
離艮兊乾中巽震坤坎	-12.7251
震坤坎離艮兊乾中巽	-12.7251
𩀱	-12.7251
四十六代大真人	-12.7251
澄心定性以凝道功	-12.7251
北隂下䧏初十日長生保命天尊下䧏	-12.7252
藟	-12.7252
後天而奉天時	-12.7253
惟精惟一	-12.7253
諟	-12.7253
靣	-12.7253
掲	-12.7253
州司權上應	-12.7253
功懋懋官	-12.7253
煆	-12.7253
父子有親君臣有義夫婦有别長	-12.7253
皇圖鞏固	-12.7253
得一以清地得一以寧	-12.7253
東家殺牛	-12.7253
珞	-12.7253
蠋	-12.7253
先王以至日閉	-12.7253
建德若偷	-12.7253
是天尊而說偈曰	-12.7253
玄養素寂靜真人	-12.7253
蛩	-12.7253
質眞若渝	-12.7253
鈐	-12.7253
隷	-12.7253
倬	-12.7253
兄友弟恭	-12.7253
櫟	-12.7253
泬	-12.7253
穽	-12.7253
聞說此經皆大歡喜	-12.7253
郜	-12.7253
雨師娶婦黄巖季	-12.7253
騘	-12.7253
𥠖	-12.7253
二月郭子儀入朝	-12.7253
夏至後陰遁	-12.7253
庸詎知吾所謂	-12.7253
繻	-12.7253
罘	-12.7253
軻	-12.7253
嵯	-12.7254
誠意伯劉基	-12.7254
沲	-12.7254
先天而天弗違	-12.7254
棠姜齊棠公之妻東郭偃之姊也	-12.7254
猫	-12.7254
腕	-12.7254
九侯鄂侯	-12.7254
混混沌沌	-12.7254
功德之所莊嚴	-12.7254
北辰紫宫衣冠立中含和建徳常受	-12.7254
修福行善	-12.7254
壖	-12.7254
蹵	-12.7254
五三十五盧九二十一	-12.7254
嗚呼可謂仁矣	-12.7254
執巾櫛	-12.7254
怒壞梁折柱稽難行旅留連愁苦無註	-12.7254
海中龍女	-12.7254
羅天大醮	-12.7254
詣前跪搢圭獻	-12.7254
十六十五十四五十一三二十一一昴初	-12.7255
煢	-12.7255
超神接氣	-12.7255
櫃	-12.7255
僦	-12.7255
䖟	-12.7255
橛	-12.7255
神喜人歡	-12.7255
簀	-12.7255
附録王輔嗣曰	-12.7255
父子之道天性也	-12.7255
一二十二二三十一十七三二十七七	-12.7255
天皇至道太清玉冊	-12.7255
大器晩成	-12.7255
敬仲兆興齊姜	-12.7255
卑踰尊	-12.7255
大方無隅	-12.7255
文彩焕爛	-12.7255
有由然哉	-12.7255
襁	-12.7255
辣	-12.7255
閩王王氏	-12.7255
六尺之孤	-12.7255
出入所在無怖畏	-12.7255
印壽杖庫姚紫紅異毛虛貫刑刃哭貴	-12.7255
嗎	-12.7255
尋訪張三丰	-12.7255
弣	-12.7255
𡟬	-12.7255
𥨸	-12.7255
饉	-12.7256
癭	-12.7257
鷺	-12.7257
圻	-12.7257
手舞足蹈	-12.7257
壻	-12.7257
揶	-12.7257
鏐	-12.7257
秬	-12.7257
千言萬語	-12.7257
塞其兊閉其門	-12.7257
棟隆之吉	-12.7257
獨無兵革三塗山名在河南伊闕縣	-12.7257
素紅絹夾袱	-12.7257
芘	-12.7257
訢	-12.7257
鍤	-12.7257
陽城山谷名在嵩山下太室山名	-12.7257
雊	-12.7257
鳩在河之洲窈窕淑女君子好逑	-12.7257
下䧏二十八日	-12.7257
恧	-12.7258
𥬇	-12.7258
一尾初八七十二二六四胃一	-12.7258
竢	-12.7258
二二十三三四角十二十八四二十八	-12.7258
三天扶教輔元大法師	-12.7258
居陽平山	-12.7258
据	-12.7258
寂然不動感而遂通天下之故	-12.7258
道大真人主領三山符籙掌江南道教事	-12.7258
𨓜	-12.7258
一千七百里	-12.7258
以勞定國	-12.7258
匙	-12.7258
宫宫分在	-12.7258
古徃今來	-12.7259
裁成輔相	-12.7259
椄	-12.726
示我周行	-12.726
信以發志	-12.726
其一未知其二	-12.726
召蛟龍及水神事	-12.726
彼君子兮不素餐兮	-12.726
成祖文皇帝	-12.726
晢	-12.726
更相纏繞在	-12.726
其自也無自	-12.726
聿求元聖	-12.726
四面垣墻	-12.726
寞	-12.726
惔	-12.7261
法苑珠林	-12.7261
胭	-12.7261
八卦定吉凶	-12.7261
吮	-12.7261
朱仲晦曰	-12.7261
䆫	-12.7261
度人録仙制星制魔制水	-12.7261
斂	-12.7261
昊天罔極	-12.7261
雖憂無咎無註	-12.7261
勃勃如	-12.7261
反真形春三月	-12.7261
寵光三聖堯舜禹也	-12.7261
掠刷使	-12.7261
涣汗其大號	-12.7261
狂接輿	-12.7261
眞仙八詠圖	-12.7261
驍	-12.7261
鴝	-12.7261
方之紘曰	-12.7261
澣	-12.7261
豈非老氏之徒乎	-12.7261
青布成羅	-12.7262
骨像合仙	-12.7262
巧而不拙	-12.7262
映普告萬靈天神地	-12.7262
佺	-12.7262
牛上山力劣行難烈風雨雪遮遏我前	-12.7262
怫	-12.7262
昵	-12.7262
蓴	-12.7262
庚午辛未壬申癸酉甲戌	-12.7262
英宗睿皇帝	-12.7262
鈇	-12.7262
協	-12.7262
櫻	-12.7262
殺身成仁	-12.7262
湑	-12.7262
饘	-12.7262
之不得其術以至於	-12.7262
呐	-12.7262
夤	-12.7262
天猷副元帥	-12.7262
跏	-12.7262
邪是相於	-12.7262
胡麻飯	-12.7264
祓	-12.7264
辯而不訥	-12.7264
今日大吉皆得光明五帝	-12.7264
上聖高尊眞仙聖衆	-12.7264
不出户知天下不窺牖見天道	-12.7264
召太公問之果有疾風	-12.7264
雨從太公邑外過	-12.7264
故諭勅命	-12.7264
𧺫	-12.7264
周師伐紂	-12.7264
欽明文思	-12.7264
虀	-12.7264
齗	-12.7264
交靈素綬	-12.7264
和光同塵	-12.7264
夏稅鈔	-12.7264
夜以繼日	-12.7264
搉	-12.7264
翣	-12.7264
蓼彼蕭斯零露	-12.7264
𡨚家債主	-12.7264
李諤瑶池記	-12.7264
策四面朝眞謁簡十八面紫白交帶一付	-12.7264
薇出車魚麗	-12.7264
震徃來厲	-12.7264
鼷	-12.7264
癢	-12.7265
眼耳鼻舌身	-12.7265
五羖大夫	-12.7265
萬世而無弊	-12.7265
醮于朝天宫	-12.7265
猝	-12.7265
五瘟使者	-12.7265
士刲羊無血	-12.7265
焄蒿悽愴	-12.7265
自古皆有死民無信不立	-12.7265
亡無日矣	-12.7265
善躓跌踒右足	-12.7265
尒	-12.7265
尚堪一行	-12.7265
金革之例	-12.7265
閥	-12.7265
之徒十有三此	-12.7265
有所自而自有所然而然	-12.7265
龕	-12.7265
塈	-12.7266
經是帝勑	-12.7266
擿	-12.7266
四千九十六	-12.7266
徃古來今	-12.7266
晨香夕燈	-12.7266
娶於姜吕駕迎新婦少齊在門夫子	-12.7266
縑	-12.7266
垤	-12.7267
埠	-12.7267
貰	-12.7267
跱	-12.7267
鬬	-12.7267
黄襖翁	-12.7267
莾	-12.7267
鈠	-12.7267
有物混成先天地生	-12.7267
泰小徃大來吉亨	-12.7267
莅	-12.7267
虖	-12.7267
貆	-12.7267
刷	-12.7267
季二套每年	-12.7267
尊道而貴德	-12.7267
持三皈五戒	-12.7267
琇	-12.7267
荀林父	-12.7267
髩	-12.7268
尋聲救苦	-12.7268
推原其故	-12.7268
付託得人	-12.7268
六通四辟	-12.7268
我有嘉賓	-12.7268
晒	-12.7268
殮	-12.7268
雱	-12.7268
養師長奉祀三尊無有違犯者得生其中	-12.7268
玅應仁惠輔國佑民隆福洪恩眞君	-12.7269
不爭故天下莫能與之爭	-12.7269
葳	-12.7269
有孚維心亨行有尚	-12.7269
脱	-12.7269
據攫鳥	-12.7269
芋	-12.7269
鄭康成曰	-12.7269
飊	-12.7269
掄	-12.7269
耜	-12.7269
㖡	-12.7269
舉進士不第	-12.7269
逝者如斯	-12.7269
開方便之門	-12.7269
一法官傳受弟子	-12.7269
喁	-12.7269
嘵	-12.7269
洫	-12.7269
賅	-12.7269
返本還元	-12.7269
鬟	-12.7269
不能同于德	-12.7269
之治天下使民心	-12.7269
吾斯之未能信	-12.7269
有無量七寳宫殿	-12.727
交梨火棗	-12.7271
域中有四大而王居其一	-12.7271
呀	-12.7271
畜牝牛吉	-12.7271
林希逸	-12.7271
賊春秋閔公	-12.7271
得尚于中行	-12.7271
成化二十一年	-12.7271
進章上表	-12.7271
迴馬嶺	-12.7271
碌	-12.7272
騙	-12.7272
鏘	-12.7272
元會運世	-12.7272
揚于王庭	-12.7272
裨	-12.7272
堇	-12.7272
鍚	-12.7272
貴易交富易妻	-12.7272
長短廣狹彼此	-12.7272
主弱極凶	-12.7272
以下皆言禹治水之㓛	-12.7272
修行其道飛行上清	-12.7272
曀	-12.7272
硨	-12.7272
丙辛年月日時丁壬年月日時	-12.7273
舉經以該别	-12.7273
耳目鼻口	-12.7273
籀	-12.7273
蹌	-12.7273
蕙	-12.7273
鎰	-12.7273
𥮅	-12.7273
絁	-12.7273
伸昭謝之私	-12.7273
余與景賢	-12.7273
嬛	-12.7273
殿兩旁當塑	-12.7273
鴿	-12.7275
惵惵爲天下渾其心	-12.7275
聞其風而悅之	-12.7275
焦弱侯曰	-12.7275
癆	-12.7275
謂侍臣曰	-12.7275
柞	-12.7275
大蹇朋來	-12.7275
轔	-12.7275
瘤	-12.7276
遴	-12.7276
觫	-12.7276
用夏變夷	-12.7276
歐陽文忠公	-12.7276
伊尹相湯吕望興周	-12.7276
禹餘天宫	-12.7276
戊癸年月日時甲己年月日時	-12.7277
薺	-12.7277
禬	-12.7277
鮐	-12.7278
蕋	-12.7278
蘇註夫道非	-12.7278
暍	-12.7278
嗅	-12.7278
滸	-12.7278
城隍社令	-12.7278
月初三日生	-12.7278
哪	-12.7278
謝東村公啓	-12.7278
躄	-12.7278
鄆	-12.7278
不受盟威籙或止受	-12.7278
名則物之所資	-12.7278
籙不許任之	-12.7278
左輔右弼	-12.7279
嶄	-12.7279
溲	-12.7279
首出庶物	-12.7279
緲	-12.7279
悝	-12.7279
杙	-12.7279
逖	-12.7279
閱衆有之	-12.7279
又經八百刼	-12.7279
智君臣之智	-12.7279
代大匠斲	-12.7279
嶤	-12.7279
秦封漢禪	-12.7279
故犯者加一等	-12.7279
側身東望	-12.728
正一嗣教致仕大真人張玄慶	-12.728
哆	-12.728
踶	-12.728
時雨時暘	-12.728
泂	-12.728
嶽鎮海瀆	-12.728
稗	-12.728
綃	-12.728
還北向平坐叩齒九通	-12.728
大勢龍從	-12.728
知而故犯者	-12.7281
以身觀身以家觀家以鄉觀鄉以	-12.7282
自暴自棄	-12.7282
𧷢	-12.7282
名耳字伯陽	-12.7282
塤	-12.7282
鍜	-12.7282
霰	-12.7282
嘍王大𣑽天宫直符林使者	-12.7282
故勅廣運嘉靖	-12.7282
南斗六司	-12.7282
所不用其極	-12.7282
釗	-12.7283
澍	-12.7283
父子兄弟夫婦	-12.7283
信不足有不信	-12.7283
日喜神正南貴神正南	-12.7283
看龍是如何	-12.7283
釘	-12.7283
甲午乙未丙申丁酉戊戌	-12.7284
吴幼清曰	-12.7284
揲蓍求卦	-12.7284
樂於趨事	-12.7285
煴	-12.7285
亦可以爲得矣	-12.7285
睆	-12.7285
菹	-12.7286
千萬丈春三月頭建	-12.7286
也唐始封	-12.7286
閹	-12.7287
惠子謂莊子曰	-12.7287
祭祀儀注	-12.7287
違者准前律一法官職列	-12.7287
蹍	-12.7287
壬寅壬申丁卯丁巳丁亥	-12.7287
字公宋加四字公本朝加封四字王號	-12.7287
有嵗會以補之六	-12.7287
治家有法	-12.7289
窪	-12.7289
昶	-12.7289
寝	-12.7289
從座而起	-12.7289
淦	-12.729
骼	-12.729
郭註此章言	-12.729
俱飛欲歸稻池	-12.7291
天地之大德曰生	-12.7291
坯	-12.7291
𪃘	-12.7291
廵按山東監察御史	-12.7293
同𣑽炁始	-12.7293
謇	-12.7293
惵	-12.7296
蛄	-12.7296
人可得也必若	-12.7296
确	-12.7298
之氣在焉主	-12.7298
躐	-12.7298
孳	-12.73
欷	-12.73
柸	-12.73
助夫人第	-12.73
歷年既久	-12.7301
𠃔	-12.7301
三百六十五度四分度之一	-12.7301
自衛反魯	-12.7301
𦕎	-12.7301
娘娘聖誕二十	-12.7301
萬德周身	-12.7302
曲則全枉則直窪則盈敝則新少則得	-12.7303
胹	-12.7303
潨	-12.7304
豈虛言哉誠全而歸之	-12.7304
蜷	-12.7305
屇	-12.7305
可以積陰德也	-12.7305
周程張朱	-12.7307
籃	-12.7307
强梁者不得其死	-12.7309
紼	-12.7309
抱陽沖氣以爲和	-12.7309
哽	-12.731
𦍤	-12.7311
橈	-12.7312
號勘合	-12.7316
嶢	-12.7318
𦤀	-12.7321
礦	-12.7323
日建玉樞㑹以保一月之安初七日西斗	-12.7324
十方國土之中	-12.7325
兖州部泰山郡	-12.7337
及諸名山洞玄洞虚洞空洞仙	-12.7338
及諸河源五嶽四	-12.7339
垍	-12.7343
千萬丈秋三月頭建	-12.7349
損上益下	-12.7349
道二出黄道	-12.7354
道分度在	-12.7354
細推詳	-12.7359
品以上不受	-12.7475
翌十九五二十九參九	-12.7744
末刻先尅	-12.7834
仁宗皇帝制曰	-12.7886
者徒三年一法官	-12.7923
依信禮九天	-12.8036
五十七十六十五六十二四二十二二	-12.8168
九五九十一十	-12.8469
溥濟博濟之	-12.9205
消灾觧厄天尊下䧏	-12.9376
于玄都玉臺	-12.9415
降赴經筵特為某請恩保	-12.9705
刻先尅母	-12.9766
曰見善而不能舉惡惡而不能去所以亡	-13.0184
善行妙法安樂人	-13.0483
悈	-13.0493
身旺宜財身弱	-13.0503
羭	-13.0518
㳙	-13.052
時中四刻無尅破	-13.0522
上皇玉虛君則變形	-13.0522
潸	-13.0524
慢神謗法之人	-13.0526
异	-13.0528
某申謝恭惟	-13.0528
恙	-13.0528
醺	-13.0529
濔	-13.0529
宴爾新昏	-13.0531
㤕	-13.0531
納約自牖	-13.0535
乙丁己辛癸	-13.0535
一致而百慮	-13.0535
下教於未聞者乎	-13.0535
瀺	-13.0535
期徼於嘉國拜爲逢時無註	-13.0537
臉	-13.0539
九一二女初十一	-13.0539
錫慶天尊十方靈寳天尊不可思議功德	-13.0539
壽如松喬與日月俱常安康樂不	-13.0539
禍憂赤松王喬皆古仙人	-13.0539
時中四刻先	-13.0541
秦穆公違蹇叔之	-13.0541
乃得全完頼其生福無註	-13.0541
蝱	-13.0541
浸假而化予之	-13.0541
十五十六十六五十一十六二三	-13.0542
惋	-13.0543
蠐	-13.0543
也聖人以爲病焉	-13.0543
腴	-13.0545
以垂科立教	-13.0545
櫳	-13.0545
踝	-13.0545
人以官使賢者在位則見	-13.0545
閗	-13.0545
㝡	-13.0545
不便不能出言精	-13.0545
有洸有潰	-13.0545
道場旛花供養	-13.0545
嘖	-13.0547
鄴	-13.0547
金鞭駕火輪	-13.0547
即得亡者鬼籍盡除神生凈土	-13.0547
星虚房昴	-13.0547
拌	-13.0549
臏	-13.0549
篩	-13.0549
水流趍下	-13.0549
矻	-13.0549
輪輻蓋軫	-13.0549
未嘗見全牛	-13.0549
里迴真下映入兆	-13.0549
不寧方來上下應也	-13.0549
涊	-13.0549
仙秘籙一部髙上神霄玉清真王	-13.0549
春木夏火秋金冬水	-13.0549
玠	-13.0549
褅	-13.0549
銛	-13.0549
鹿逐牧飽歸其居	-13.0549
七二七九十二十	-13.055
扺	-13.0551
燐	-13.0551
官天地府萬物	-13.0551
井谷射鮒	-13.0551
篦	-13.0551
㦲	-13.0551
占病天星不順	-13.0551
四亂不安東西爲患退	-13.0551
婭	-13.0551
官事和勸求官未達	-13.0551
旹	-13.0551
明百流歸徳無有叛逆常饒優足書禹貢	-13.0551
大真人張永緒	-13.0551
舜升大禹石夷之野徴	-13.0552
魑	-13.0552
常日十千萬功徳	-13.0553
特興某解災迍皈命孔雀明王尊	-13.0553
剛徤中正純粹精	-13.0553
交趾南有越裳氏重	-13.0553
何以知其然邪	-13.0553
肹	-13.0553
君子進德修業	-13.0553
六春秋時二小國見春秋魯文公十八年	-13.0553
厭浥行露	-13.0553
春多膏澤夏潤優渥稼穡	-13.0553
淟	-13.0553
蛉	-13.0554
瑁	-13.0555
葑	-13.0555
云髙宻禹所封之國	-13.0555
敬奉山宗神	-13.0555
呼三顛摇動東西危	-13.0555
尪	-13.0555
春秋冬夏四時行	-13.0555
洧	-13.0555
殘民害物	-13.0556
萸	-13.0556
餚	-13.0556
故曰彼出於是是亦因彼	-13.0556
大如彈丸	-13.0556
勩	-13.0556
天子廵行諸侯所守之地	-13.0556
娶棠姜筮之其繇曰入其宫不見其妻凶	-13.0556
履霜堅氷	-13.0556
惑女謁横行正道壅塞	-13.0557
書弱水旣西柳宗元曰西海之山	-13.0557
詩干旄篇云孑孑干旄在浚之郊	-13.0557
䕷	-13.0557
千態萬狀愈出愈奇	-13.0557
妃后貴夫	-13.0557
拽	-13.0557
有莘季女爲	-13.0557
極子孫千億栢柱載青堅固不傾無註	-13.0557
澌	-13.0557
祅	-13.0557
尹氏伯竒父子	-13.0557
揮斥八極	-13.0557
鳬鴈啞啞以水爲	-13.0557
鼓盆而歌	-13.0557
善助慈懿恭靜仙妃	-13.0558
㬰	-13.0558
斗母紫光金尊聖徳天后圓明道母天尊	-13.0558
道陵字輔漢	-13.0558
眡	-13.0558
儡	-13.0558
庚子庚午庚申乙卯乙酉	-13.0558
踐形惟肖	-13.0558
四六六五十五四六	-13.0558
淮南子云文王有四乳	-13.0558
紙錢結界異香襲人夜現天燈之瑞	-13.0558
鵲食榖張口受哺	-13.0558
二十二一十七四七八二十七	-13.0558
六十二五十八八十	-13.0558
守君不失國無註	-13.0558
華首陽皆山名	-13.0558
子黄麑恱喜	-13.0558
尚也阿衡伊尹也太宰官名周公爲太宰	-13.0558
爲韓報仇	-13.0558
膜	-13.0558
青瓊之板金書玉字	-13.0558
𡚁	-13.0558
之與形吾不知其異也而	-13.0558
失旅後時利走不	-13.0558
安息康居異國	-13.0558
朝覲訟獄謳歌	-13.0558
黄帝出遊駕龍乗馬東上	-13.0558
形長九千萬丈	-13.0559
師三禮上香	-13.056
艧	-13.056
百事大吉玄天上帝感應靈籤第	-13.056
重耳晋文公名	-13.056
會中有一真人名曰	-13.056
三羖五牂相	-13.056
六鷁退飛	-13.056
歸馬于華山之陽放牛于桃林之野	-13.056
靡不有初鮮克有終	-13.056
唶	-13.056
堯舜之民皆以堯舜之心爲心	-13.056
惡成不及改	-13.056
春鴻飛東以馬	-13.056
云有鶴爲弋人所射窮而歸噲參參收	-13.056
伯虎仲熊徳義淵	-13.056
喭	-13.056
國咸喜黄帝邑於涿鹿之阿遷徙	-13.056
護境感應王	-13.056
龍頭頸文章未成甘言羙語	-13.056
八六十一二四柳初十四	-13.0561
靚	-13.0562
玉妃拂筵	-13.0562
篨	-13.0562
膚敏之徳發憤	-13.0562
蘸	-13.0562
瘍	-13.0562
牝雞雄晨主作亂	-13.0562
畢還北向叩齒十二通閉眼	-13.0562
宣宗章皇帝	-13.0562
天下神器不可爲也爲者敗之執者失之	-13.0562
王良古之善御者伯樂古之善相馬者	-13.0562
采唐沬郷要期桑中失信不㑹憂思約帶	-13.0562
長大成就柔順利貞君臣合好無註	-13.0562
傷䴸音孚䵃古猛切	-13.0562
爲人後者爲之子	-13.0562
二人輦車徙去其家井沸釡鳴不可	-13.0562
尠	-13.0562
市八佾列陳飲御嘉友八佾舞列也	-13.0562
樂且日冨	-13.0562
膠車駕東與雨相逢	-13.0562
䑓名婦人謂嫁曰歸一娶九女而俻三姓	-13.0562
崐	-13.0562
湯聘之進於桀桀不能用復歸于湯	-13.0562
袍力士封感	-13.0562
辤	-13.0562
錚	-13.0562
鑿井求玉非卞	-13.0562
二十二七八一一女初十	-13.0563
慷	-13.0564
垂拱而天下治	-13.0564
辛卯癸巳丙申	-13.0564
以其互内層之	-13.0564
屎	-13.0564
温靜柔順玄君	-13.0564
巳逢禹廵	-13.0564
梏	-13.0564
窶	-13.0564
剗	-13.0564
惡賊悉自退散	-13.0564
温山松栢常茂不落	-13.0564
猿墮髙木不踒手足	-13.0564
秋南春北	-13.0564
北隂聖母下䧏	-13.0564
實穎實栗	-13.0564
有匹配之賢而	-13.0564
父娶後妻而譛伯竒	-13.0564
牷	-13.0564
㠋	-13.0564
剛躁而不可成	-13.0564
憂後喜與福	-13.0564
無父何怙	-13.0564
狐妖獸也	-13.0564
王母神仙以東華至真之氣化生	-13.0564
耀德不觀兵	-13.0564
變爻爲悔作	-13.0564
郾	-13.0564
允恭克讓	-13.0566
乾道成男坤道成女	-13.0566
所予福禄常在不憂危殆無註	-13.0566
譟	-13.0566
偃武脩文	-13.0566
十三六角初九十一	-13.0566
延頸望酒不入我口	-13.0566
望尚阿衡太宰周公藩屏	-13.0566
貴爲天子富有四海	-13.0566
鰲峰神秀圖	-13.0566
我無事而民自富我無欲而民自樸	-13.0566
此何等時也	-13.0566
覕	-13.0566
歛時五福用敷錫厥庶民	-13.0566
溷	-13.0566
一指食肉口無所得	-13.0566
三十四十三十四十五三十	-13.0566
中退舉事不遂	-13.0566
二十五日天蓬下䧏二十六日	-13.0566
天地配享六位光明隂陽順	-13.0566
嫉妬亂我業事東壁星名	-13.0566
子公怒染指於鼎甞之而出	-13.0566
悟法淵默靜虛闡道弘化妙應大真人	-13.0566
桓公九年春紀季姜歸于京師爲桓王后	-13.0566
欲上不得復歸其宅無註	-13.0566
淮海天之都市商人受福國家冨有無註	-13.0566
福徳之士懽恱日喜夷吾相	-13.0566
胎卵濕化一切等身	-13.0566
舌饞於腹左傳鄭公解黿召子公而弗與	-13.0566
螟食苗心	-13.0566
說其報應惡趣之苦	-13.0566
𠜇	-13.0566
𩝫	-13.0566
銕	-13.0566
雛常與母俱抱雞	-13.0566
卯辰已午未申酉	-13.0567
大造之含弘	-13.0567
張十四柳四井八畢六	-13.0567
螘	-13.0568
紉	-13.0568
曾未踰時	-13.0568
喋	-13.0568
與人子言依於孝與人	-13.0568
鹿求其子虎廬之里唐伯季耳貪不我許	-13.0568
乆留連處季女齊子齊襄公	-13.0568
其聲揮綽	-13.0568
槖	-13.0568
賊仁傷徳天怒不福斬刈宗社失其	-13.0568
上起正月順數至本人生月	-13.0568
小東大東杼	-13.0568
炁混合黙念	-13.0568
而爲大順之至乎	-13.0568
㭿	-13.0568
命分獻東鎮壇	-13.0568
和恱相樂無註	-13.0568
宅如值此星者	-13.0568
暾	-13.0568
武王伐紂遂歸周封於朝鮮	-13.0568
王者徳至於天和氣感則甘露降于松栢	-13.0568
篲	-13.0568
篿	-13.0568
藕	-13.0568
訩	-13.0568
造作嫁娶葬埋	-13.0568
頳	-13.0568
驤	-13.0568
上德不德是以有德	-13.0568
尨	-13.0568
松喬彭祖西過王母道里夷易無敢難者	-13.0568
爻變則占本卦	-13.0568
綆	-13.0568
而不爲之尚也則將取其無所	-13.0568
闡道弘化	-13.0568
離苦難消灾觧厄天尊下䧏十	-13.0569
喜忌與宫主同坐	-13.0569
壽命百年安樂延祥消災延壽降大吉祥	-13.057
倀	-13.057
戺	-13.057
皆化氣太過	-13.057
張翅來從其母無註	-13.057
瘉	-13.057
堯唐帝名舜虞帝名	-13.057
榮陽羿后羿善射烏號弓名天狼獸名	-13.057
羿張烏號彀射天狼	-13.057
趙國雄勇	-13.057
㓜有序朋友有信	-13.057
十一六十七十二三五	-13.057
籯	-13.057
若石云于陳倉北坂城祠之其神	-13.057
註曰漢書郊祀志云文公	-13.057
伏羲始作八卦	-13.057
兂	-13.057
物固相累二類相召也	-13.057
兵征大宛北出玉門與胡	-13.057
冬三月頭建	-13.057
姜勞苦不得休	-13.057
易繫辭日中爲市	-13.057
書帝曰咨禹汝平水	-13.057
棚	-13.057
百足俱行相輔為	-13.057
纚	-13.057
翕音吸䡘音田	-13.057
蠖	-13.057
衵	-13.057
和之以天倪	-13.057
嘐	-13.057
因師獲印	-13.057
妙應大真人掌天下道教事	-13.057
弗措也有弗	-13.057
撝去其謙	-13.057
氣臨之時此四十五日其氣正到	-13.057
追亡逐北呼還㓜叔至	-13.057
道與之貌天與之形	-13.057
非汝有是天地之委	-13.057
𤣱	-13.057
六十一一五三婁	-13.0571
白方定局	-13.0571
岵	-13.0571
乾元用九乃見天則	-13.0572
二人夾輔周室	-13.0572
之户便㣲祝曰	-13.0572
大帝勾陳星宫天皇大帝	-13.0572
不及天行十度	-13.0572
帝上聖高尊眞仙聖衆下赴經壇守護	-13.0572
䑕遮遏前後	-13.0572
且温伊吕股肱國	-13.0572
濆	-13.0572
胎含孕咸得長生亡者命過魂歸三	-13.0572
號曰陳寳又臣瓉云陳倉縣有寳夫人祠	-13.0572
黏	-13.0572
优	-13.0572
爲伯益之佐伯虎疑即仲虎也五教	-13.0572
醊	-13.0572
鯈	-13.0572
剥牀以膚	-13.0572
哀毁過禮	-13.0572
徉	-13.0572
月公至自齊居于鄆三十二年薨于乾侯	-13.0572
獯	-13.0572
繩愆糾繆	-13.0572
侵魯戰于長勺車馳卒奔齊師敗績事見	-13.0572
信手拈來	-13.0572
十七六十二十六十四十一九五九十一	-13.0572
哀駘它	-13.0572
天曹掠剰下䧏初三日北極北斗下䧏初	-13.0572
如能變化除去之如田之	-13.0572
妄之藥不可試也	-13.0572
屺	-13.0572
於夜而宜於晝	-13.0572
日衰條多枯枝爵級不進	-13.0572
楩生荆山命	-13.0572
歸告魏相魏齊	-13.0572
無鞅數衆悉令下降覆護受持是此經	-13.0572
王子逐兎犬踦不得無註	-13.0572
聚相與議語南國虐亂百姓愁苦興師征	-13.0572
華不得實讒佞亂政使	-13.0572
藪非人所處鳥獸無禮使我心苦無註	-13.0572
青牛白咽呼我俱田歴山之下可以多耕	-13.0572
鹿鳴食野之苹我有嘉賔鼓瑟吹笙	-13.0572
𪔂	-13.0572
三辰旂旗	-13.0572
上清録事五雷	-13.0572
不可得而利不可得而害	-13.0572
喬古仙人名	-13.0572
拔茅連茹	-13.0572
用拯馬壯吉	-13.0572
知我之非魚	-13.0572
筝	-13.0572
馬服長股冝行善	-13.0572
七十二二六四胃一八十牛六一	-13.0573
難以土計爲仇以水孛爲恩以火羅爲用	-13.0573
何校滅耳	-13.0573
母仁壽淑善仙妃	-13.0574
喑	-13.0574
詔携嗣子入	-13.0574
誘掖奬勸之	-13.0574
甲子甲寅甲午甲申	-13.0574
黥	-13.0574
事死如事生	-13.0574
俐	-13.0574
砍	-13.0574
極大聖至真尊神無窮無極普鍳度生地	-13.0574
老氏以自然爲宗	-13.0574
同聲相應同氣相求	-13.0574
作牙孽生逹義通	-13.0574
叩齒三通閉眼思	-13.0574
墨翟禽滑	-13.0574
畜許六反	-13.0574
長樂行觴千秋起舞拜受大福無註	-13.0574
韓詩外傳	-13.0574
頓首頓首恭聞	-13.0574
體重飛難未能	-13.0574
七九八七十五四	-13.0574
乙星名成王封周公之子伯禽於魯	-13.0574
乾道變化各正性命	-13.0574
十四十二九七三	-13.0574
四十二二十參初胃十五十三九三十五	-13.0574
天之奥隅堯舜所居	-13.0574
妻東郭棠姜武氏	-13.0574
日中爲市各抱所有交易	-13.0574
然逺咎避患害早田	-13.0574
逐之言無罪而見逐皆後母長舌所爲也	-13.0574
邲	-13.0574
魔王魔民魔女	-13.0574
之道造端乎夫婦	-13.0574
冝利止居	-13.0574
南有樛木葛藟	-13.0574
孰主張是孰綱維是	-13.0574
彼交匪紓	-13.0574
惑世誣民	-13.0574
文昌司録上宰	-13.0574
於虎鬚牽不得來無註	-13.0574
昺	-13.0574
有孚惠心勿問元吉有孚惠我德	-13.0574
櫨	-13.0574
無烈風淫雨海	-13.0574
玫	-13.0574
町	-13.0574
裀	-13.0574
嫚	-13.0575
咐	-13.0576
戇	-13.0576
恢恑橘怪	-13.0576
推恩申錫嘉號	-13.0576
雞鳴狗吠	-13.0576
薈	-13.0576
消災延壽降大吉祥	-13.0576
君子以寧履徳不愆福禄	-13.0576
質諸鬼神而無疑百世以俟聖人而不惑	-13.0576
瑶草琪花	-13.0576
碭	-13.0576
遝	-13.0576
遣内官監太監	-13.0576
隋侯見虵傷取藥封之後虵㗸珠	-13.0576
𨚫	-13.0576
建之以常無有	-13.0576
臣誠惶誠恐	-13.0576
鷁	-13.0576
右弼金玉滿堂常盈不亡冨如敖倉無註	-13.0576
哦	-13.0576
爲壇除地爲禪古者帝王之興	-13.0576
豈其取妻必齊之姜豈其取妻必宋之子	-13.0576
道風伯逐殃廵狩封禪以告成	-13.0576
采用鴈事見春秋魯昭公元年殷叔未詳	-13.0576
之子于歸宜其家	-13.0576
九霄丈人則變	-13.0576
亦未爲難諸仙化後	-13.0576
公尸燕飲福禄來	-13.0576
失利後時無註	-13.0576
後得主而有常	-13.0576
從心所欲不踰矩	-13.0576
懂	-13.0576
戴尭扶禹	-13.0576
无不利撝謙	-13.0576
杗	-13.0576
爗	-13.0576
瞤	-13.0576
缻	-13.0576
至柔而動也剛至靜而德方	-13.0576
蔡侯亦服其一子常欲之弗與三年止之	-13.0576
重爲輕根靜爲躁君	-13.0576
魚在在藻	-13.0576
魯定公三年冬蔡昭侯適楚獻	-13.0576
十五十四五十一三	-13.0576
忌火羅木星喜金水相涵不宜	-13.0577
臀	-13.0578
軼	-13.0578
魊	-13.0578
捍灾禦難	-13.0578
騅	-13.0578
䪡	-13.0578
敗祥陳師合戰	-13.0578
簑	-13.0578
辱於鵲郭璞曰	-13.0578
鳴于亳社如曰譆譆甲午宋大	-13.0578
涅	-13.0578
三皇五帝之禮義法度	-13.0578
上清司命玉府	-13.0578
加封高氏太玄君誥	-13.0578
四張鳥無所翔征伐困極飢窮不食無註	-13.0578
夏舜禹有天下之號	-13.0578
奪為胡廟	-13.0578
子謂子貢曰女	-13.0578
宿者以太陽爲度主	-13.0578
屯如邅如乘馬	-13.0578
張弓祝雞雄父飛去	-13.0578
恩拜徳東歸吾國	-13.0578
旛竿上現五色瑞光十	-13.0578
汒	-13.0578
爲學日益爲道日損	-13.0578
癬	-13.0578
碧霞元君護國庇民普濟保生妙經	-13.0578
祍	-13.0578
緎	-13.0578
腪	-13.0578
襯	-13.0578
足息肩有所忌難金城	-13.0578
踐履危難脫厄去患入福喜門見	-13.0578
齎貝贖狸不聴我辭繫	-13.0578
珓	-13.0578
袠	-13.0578
銳解其紛和其光同其塵	-13.0578
韓世忠戰大儀鎮吴玠戰和尚原	-13.0578
楠	-13.0579
綿綿若存用之不勤	-13.058
崙	-13.058
以尊王母歸于	-13.058
利武人之貞	-13.058
日宫太陽帝君月府太隂皇君	-13.058
篾	-13.058
罌	-13.058
法持念是此眞經	-13.058
莪	-13.058
蠆室蜂户螫我手足不	-13.058
黄雀黄雀	-13.058
何彼穠矣	-13.058
光前裕後	-13.058
西楚霸王	-13.058
外國與母分離無註	-13.058
東鄰殺牛不如西鄰之禴	-13.058
窾	-13.058
能制虎見鵲仰地淮南畢萬曰鵲令	-13.058
遂意行人立至官事有理求官必達	-13.058
唯有德者能之	-13.058
天孫帝子與日月處光榮於世福禄	-13.058
宂	-13.058
家堯舜唐虞二帝也	-13.058
摟	-13.058
木生火火生土土生金金生水水	-13.058
獹	-13.058
生而不有爲而不恃長而不宰是謂玄德	-13.058
畲	-13.058
耎	-13.058
臈	-13.058
鋩	-13.058
鴂	-13.058
之言果可信乎	-13.058
令持誦解災迍孔雀明王經孔雀明王尊	-13.058
位皆節儉正直故詩人羙其衣服有常也	-13.058
六七十三五二十	-13.058
制星祕文三十二字書	-13.058
州防禦使	-13.058
式克至今日休	-13.058
敝笱在梁	-13.058
日月運行一寒一暑	-13.058
禹召諸侯㑹稽南山執玉萬國天下康	-13.058
稂	-13.058
脫離苦難消灾觧厄天尊下䧏十二日	-13.058
舶	-13.058
蛆	-13.058
不知所定質疑	-13.058
信賞必罰	-13.058
劘	-13.058
大道元景君則変形爲	-13.058
島三洲謂	-13.058
惝	-13.058
矣豈弟君子俾爾彌爾性	-13.058
覌	-13.058
觸藩羸角	-13.058
𧨨	-13.058
十三十二三九一十九觜初十四十二八	-13.0581
危十二女一斗三尾二氐一	-13.0581
南極冲虚妙道真君	-13.0581
蕚	-13.0581
礫	-13.0581
媲	-13.0581
熊經龜息	-13.0581
琚	-13.0582
大鐵圍山	-13.0582
敢素餐而具位	-13.0582
牽尾不前逆理失臣	-13.0582
遂絶意進取	-13.0582
鄭與子産相得子産以紵衣獻季札	-13.0582
願棄人間事	-13.0582
不言之辯不道之道	-13.0582
吾誰欺欺天乎	-13.0582
失德而後仁失仁而後義失義而後禮	-13.0582
郛	-13.0582
以予爲多學而識之者	-13.0582
天之奥府衆利所聚可以饒有樂我君子	-13.0582
所以行之者一也	-13.0582
損之又損之以至	-13.0582
日中留北邑復反其室無註	-13.0582
爹	-13.0582
衣紫腰金	-13.0582
誰謂女無家何以速我	-13.0582
身疾悲無辜背憎	-13.0582
部八景神童名字	-13.0582
亦既見止亦既覯止我心則	-13.0582
元甲子年中宫起	-13.0582
十四九十一十四十	-13.0582
吷	-13.0582
喓	-13.0582
嗣天師張嗣成	-13.0582
女其姝俟我於城隅愛而不見搔首踟蹰	-13.0582
濂洛關閩之學	-13.0582
無與勝母盗泉君	-13.0582
狟	-13.0582
胡仲虎曰	-13.0582
變易地支之陰陽五行	-13.0582
霖潦暴溢	-13.0582
韭	-13.0582
颸	-13.0582
五七三八三五四	-13.0583
六日建玉樞㑹以保一月之安𥘉七日	-13.0583
四二十八八七五室十七二二十三三四	-13.0583
己亥庚子辛丑壬寅癸卯甲辰乙巳	-13.0583
畢六胃三奎一危十二女一斗三	-13.0583
辛亥壬子癸丑甲寅乙卯丙辰丁巳戊午	-13.0583
之日清齋入室西	-13.0583
十二十一二八星初十八畢十六	-13.0583
洙	-13.0583
和熹鄧皇后	-13.0583
一朝一夕之所能	-13.0583
晨風篇云鴥彼晨風	-13.0583
公傷股二十三年五月公卒傷於泓故也	-13.0583
匈奴傳康居國名湛露天子燕諸侯之詩	-13.0583
和其光同其塵	-13.0583
知秦興起卒兼其國一統爲主	-13.0583
袐	-13.0583
曾謂泰山不如林放	-13.0583
皇考皇妣之	-13.0583
依草附木	-13.0584
在手足不得安息無註	-13.0584
榛	-13.0584
洊	-13.0584
禮義不行兼吞其國齊	-13.0584
君詩周南桃夭篇	-13.0584
武王伐紂甲子昧爽王朝至于商郊	-13.0584
痞	-13.0584
降集仁哲	-13.0584
飲酒醉酗跳	-13.0584
八元八凱	-13.0584
制到玉階	-13.0584
可以出入造化遊戲死生	-13.0584
客蓋取諸豫	-13.0584
揪	-13.0584
曰非也予一以貫之	-13.0584
朱草百草之精也王者徳無所不通則生	-13.0584
楣	-13.0584
浡	-13.0584
異國殊俗情不相得金木	-13.0584
耰	-13.0584
非灾橫禍	-13.0584
鵠思其雄欲隨鳯東順理羽翼出次	-13.0584
匿而不可不爲者事也	-13.0584
唯虛故能受天下之	-13.0584
嚧	-13.0584
奔走俱入茂草驚於長	-13.0584
市南子曰君	-13.0584
忡	-13.0584
惡人使徳不通炎	-13.0584
棫	-13.0584
瀕	-13.0584
畏懼啄口無註	-13.0584
詩羔羊之皮素絲五紽羔羊之革	-13.0584
諗	-13.0584
邑于岐山之下	-13.0584
鉛刀攻玉堅不可得	-13.0584
高上虛皇君則化形	-13.0584
三十九代天師太玄	-13.0584
形化九千萬丈	-13.0584
二十十六二二十六六五三	-13.0584
丙戌丁亥戊子己丑庚寅辛卯壬辰癸巳	-13.0584
二十七日北極北斗下䧏二十八日	-13.0584
齟	-13.0585
紫微斗數驅	-13.0585
戣	-13.0585
𤓰	-13.0585
魯僖公二十二年宋襄公及楚人戰于泓	-13.0585
糖	-13.0585
駐兵除寇	-13.0585
鵓	-13.0585
暱	-13.0585
見不出視聞不出聽	-13.0585
初六方出門即	-13.0585
平王之孫齊侯之子	-13.0585
禮者忠信之薄而亂之首也	-13.0585
誸	-13.0585
驛龍風馳	-13.0585
䄀	-13.0585
二十字皆太上無上大光明圓滿大神呪	-13.0585
人氷人也按詩傳蘇	-13.0585
按史記鄒陽書里名勝母曽子不入盗泉	-13.0585
日出阜東山蔽其明章	-13.0585
爲物也欲復歸根不亦難乎其易也其	-13.0585
絯	-13.0585
蕈	-13.0585
衆生終日竟夜	-13.0585
還造化舊物	-13.0585
隟	-13.0585
三皇時下降爲太	-13.0585
之次其應甲丙庚壬	-13.0585
乙亥丙子丁丑戊寅己卯庚辰辛巳	-13.0585
十六十三十一七	-13.0585
印壹顆描金檀香匣一箇紅絨錦襯裏	-13.0585
啟	-13.0585
岷	-13.0585
帝章畢再禮朝玉真	-13.0585
帥五郷焉	-13.0585
年命分獻星辰壇	-13.0585
形長七寸	-13.0585
應聘齊秦百里奚事秦寗越事齊	-13.0585
政和七年丁酉	-13.0585
方諸天地日月星宿山洞	-13.0585
桀夏桀跖盗跖	-13.0585
清人髙子乆屯外野逍遥不歸思我	-13.0585
甲子乙丑丙寅丁卯戊辰己巳	-13.0585
神得一以靈谷得一以盈	-13.0585
秭	-13.0585
綖	-13.0585
縧	-13.0585
肝膽楚越	-13.0585
贄見王百里寗	-13.0585
通君臣相承無註	-13.0585
邀請真仙張三丰	-13.0585
鬮	-13.0585
𥥆	-13.0585
菩	-13.0586
烜	-13.0587
逡	-13.0587
男子太陽星女人土星	-13.0587
栅	-13.0587
史記秦始皇造作驪山	-13.0587
延陵適魯觀樂太史車	-13.0587
武王勝殷包藏弓矢戢弭干戈以示弗用	-13.0587
稲	-13.0587
躩	-13.0587
十一二八星初十八畢十六十三十一	-13.0587
咒棗書符	-13.0587
噐奔周其後武王伐紂遂	-13.0587
能令短命衆生而得長壽	-13.0587
上德無爲而無以爲下德爲之而有以爲	-13.0587
不小立圭角	-13.0587
周易解九二田	-13.0587
爲者敗之執者失之	-13.0587
肋	-13.0587
陁	-13.0587
忿然作色	-13.0587
拮	-13.0587
根不固華葉落去	-13.0587
移風易俗使天下回心	-13.0587
不見可欲使心不亂	-13.0587
事見宣公十年	-13.0587
大虵巨魚	-13.0587
曝	-13.0587
狄人伐衛衛立戴公	-13.0587
翎	-13.0587
非方四面廣狹	-13.0587
修后稷公劉之業積徳行義國人皆戴之	-13.0587
兹蓋伏遇昊天玉皇上帝玉	-13.0587
剸	-13.0587
勅皇帝勅諭	-13.0587
尢	-13.0587
我葦廬室家飢寒思吾故	-13.0587
拜禮陳蔡大夫謀曰楚	-13.0587
敇	-13.0587
教主嗣漢三十八代天師太素凝神廣道	-13.0587
氷發氷以節陽氣之盛是以無灾霜雹也	-13.0587
爵出圭俯伏興	-13.0587
自然必有能濟之	-13.0587
苕	-13.0587
註馬不相見故鳴班别也	-13.0587
賜進士出身	-13.0587
跪搢圭獻爵出圭俯伏興平身	-13.0587
鈎深致遠	-13.0587
隂變爲陽女化爲男治道	-13.0587
鸇鳩徙巢西至平州遭逢雷	-13.0587
朔命分獻星辰壇	-13.0589
紫微斗數卷之	-13.0589
獠	-13.0589
稽首皈依無極大道爲上良因志心稱念	-13.0589
癸卯癸巳癸酉癸亥	-13.0589
鄖	-13.0589
愬愬終吉	-13.0589
者不以外傷内也	-13.0589
解曰占家宅人口有灾	-13.0589
側弁之俄	-13.0589
廠	-13.0589
悋	-13.0589
旱水涸枯槁無澤	-13.0589
求財未遂行人未至官事失理求官未達	-13.0589
鏁	-13.0589
㹠	-13.0589
九河傾訖	-13.0589
以正治國以竒用兵	-13.0589
南有嘉魚駕黄取	-13.0589
壠	-13.0589
字所服之衣	-13.0589
彖曰丑丑位	-13.0589
畢仰嚥十二氣止	-13.0589
管領江南諸路道教事	-13.0589
顕	-13.0589
三沐三薰	-13.0589
不如其娣之袂良	-13.0589
后妃以君子不在而思念之	-13.0589
啓户幽人利貞鼓翼起舞	-13.0589
垾	-13.0589
强爲之名曰大	-13.0589
故爲天下貴蘇註	-13.0589
有以異乎曰無以異也夫	-13.0589
杳亡杳存	-13.0589
牙孽生齒	-13.0589
禔	-13.0589
紅絹銷金羅夾袱壹條	-13.0589
莫見乎隱莫顯乎	-13.0589
蜎飛蠕動	-13.0589
飫	-13.0589
𢡟	-13.0589
不足以喪吾存	-13.0589
之時老君下爲師口吐	-13.0589
佀	-13.0589
參差荇菜左右	-13.0589
按韻註鍾口	-13.0589
海州朐山人也	-13.0589
玭	-13.0589
禄印壽杖庫姚紫	-13.0589
荣	-13.0589
資政殿學士	-13.0589
雞失羊亡其金囊利	-13.0589
一十二十三一七十二十三觜初十八一	-13.059
闃	-13.0591
槢	-13.0591
牛初五心初二軫一六井三十井初九七	-13.0591
沁	-13.0591
糶	-13.0591
𤱶	-13.0591
擇其善者而從之	-13.0591
犒	-13.0591
鬲	-13.0591
平國不君夏氏作亂烏號	-13.0591
心使氣曰强	-13.0591
深目黒醜	-13.0591
玉皇大天尊玄穹高上帝	-13.0591
窄	-13.0591
免入朝勅皇帝勅諭正一嗣教大	-13.0591
夏桀無道湯放	-13.0591
而死其子葷粥妻桀之衆妾避居北野	-13.0591
自喻適志	-13.0591
雲不雨自我西郊	-13.0591
努	-13.0591
太歲之日清齋入室	-13.0591
如拱如揖	-13.0591
婦孕不育	-13.0591
属雍州在今馮翊夏陽縣	-13.0591
手之舞之足之蹈之	-13.0591
晳	-13.0591
機内外事從一九天	-13.0591
界於地支之兩間	-13.0591
罽	-13.0591
蠢動蜎息一切𡨋靈	-13.0591
西瞿耶尼	-13.0591
遹	-13.0591
鉦	-13.0591
順生一週而	-13.0591
鶡	-13.0591
不可不高者德也一而不可不易者道也	-13.0591
太清大道君則変形爲	-13.0591
疾年榖大傷	-13.0591
禄印壽杖庫姚貴	-13.0591
誠惶誠懼頓首頓首	-13.0591
窕	-13.0593
儕	-13.0593
湄	-13.0593
鈃	-13.0593
孔徳如玉出於幽谷	-13.0593
知不出乎四域	-13.0593
九三十五十四十三四十二	-13.0593
剛失位而不中	-13.0593
家給人足頌聲並作四夷賔	-13.0593
爲徳行不失理民頼恩福五	-13.0593
罇	-13.0593
三爲艮止之主	-13.0593
亘萬古而不易者也	-13.0593
立九色獅子之上	-13.0593
䦕	-13.0593
三元道炁二象攝生	-13.0593
典䇿法書藏	-13.0593
度者度未成者成已死即生已枯	-13.0593
無門無房四	-13.0593
猨墮髙木不踒手足	-13.0593
獗	-13.0593
躐進仙班	-13.0593
公尸來燕來	-13.0593
南伯子葵	-13.0593
南極遐齡老人臞仙	-13.0593
叟前致詞	-13.0593
史記楚項梁西擊秦破章邯引兵至定陶	-13.0593
司命司録司功司殺	-13.0593
嘗又與來明日又與之見壺子	-13.0593
圾	-13.0593
如享太牢	-13.0593
家因之始足以推	-13.0593
容民畜衆	-13.0593
將母來諗	-13.0593
巵言日出和以天倪	-13.0593
日行四陸春東陸夏南陸秋西陸冬北陸	-13.0593
書曰甲子昧爽王朝至于商郊牧野伐紂	-13.0593
桒	-13.0593
爾時元始天尊白諸天衆	-13.0593
用素陳設	-13.0593
白熟御羅寳相花手帕青	-13.0593
絲線縧白	-13.0593
翾	-13.0593
貴大患若身	-13.0593
一十三四六七	-13.0594
提頭賴吒	-13.0594
翊聖保徳真君	-13.0594
戌丑未爲中元	-13.0594
查邊魏趙刁五	-13.0594
頨	-13.0595
獝	-13.0595
五十七八十十九四九十	-13.0595
李簡謝雨文	-13.0595
若響若荅	-13.0595
饁	-13.0595
吉凶悔吝生乎動	-13.0595
山名四瀆江河淮濟	-13.0595
流精紫闕金華瓊堂	-13.0595
闉	-13.0595
三宫空洞之天	-13.0595
含德之厚比於赤子	-13.0595
按書禹貢龍門属雍州在今馮翊夏陽縣	-13.0595
曶	-13.0595
而歸詩人作歌	-13.0595
三之日于耜四之日舉趾	-13.0595
區脫與甌脫同土室也胡人	-13.0595
不得顧私親	-13.0595
六五黄裳元	-13.0595
惡去聲處上聲	-13.0595
既醉以酒既飽以德	-13.0595
昔賈大夫惡娶妻而	-13.0595
曖	-13.0595
有肥牡以速諸舅	-13.0595
䇺	-13.0595
上啓虚無妙道十極高真	-13.0595
以水㓂攻水㓂	-13.0595
佃	-13.0595
内無怨女外無曠	-13.0595
啗	-13.0595
囱	-13.0595
壇每壇羊一豕一籩	-13.0595
妬賢嫉能	-13.0595
宦官宫妾	-13.0595
拔茅茹以其彙	-13.0595
授正一教主嗣漢	-13.0595
撫山東地方都察院右副都御史沈應龍	-13.0595
正一嗣教大真人掌天下道教事張彦頨	-13.0595
毬	-13.0595
環堵之室	-13.0595
相爲於無相爲	-13.0595
縁督以爲經	-13.0595
薌	-13.0595
遺唯季反	-13.0595
南死門西南	-13.0596
芫	-13.0597
縹	-13.0597
自書契以來	-13.0597
呵風罵雨	-13.0597
腮	-13.0597
擯	-13.0597
芾	-13.0597
㧾	-13.0597
䘒	-13.0597
唃	-13.0597
噤	-13.0597
寳殿十奇峰	-13.0597
摺	-13.0597
晦其明也内難而能正其志箕子以之	-13.0597
豔	-13.0597
俯瀝丹忱	-13.0597
執斧破薪使媒求婦和合二姓親	-13.0597
如意皆得滿足	-13.0597
鴶	-13.0597
並作王不能制春秋魯僖	-13.0597
天子五載一廵狩	-13.0597
梅李冬實國多	-13.0597
伯蹇叔盲	-13.0597
毉	-13.0597
登崑崙入天門過糟丘宿玉泉	-13.0597
臣終於背渉竟死於莊賈之難出陳渉傳	-13.0597
踆	-13.0597
鱔	-13.0597
㵿	-13.0597
不求文以待形	-13.0597
其寢不夢其覺	-13.0597
呦呦鹿鳴食野之	-13.0597
天皇至道太清玉册	-13.0597
恭默思道	-13.0597
晰	-13.0597
淝	-13.0597
禩	-13.0597
秦兵於雍斬李由梁益輕秦有驕色宋義	-13.0597
籧	-13.0597
羝羊觸藩	-13.0597
萬化祖根衆生慈母	-13.0597
衆鳥所翔中有大	-13.0597
靈濟賢聖王廟	-13.0597
龍漢蕩蕩無形無名渺渺億	-13.0597
志心皈命禮威震雷霆澤垂雨露	-13.0597
琞	-13.0597
盼	-13.0597
青苗免役	-13.0597
香皂縐紗巾一頂深青織金火焰霞雲	-13.0597
氏十六七十三五二十三三	-13.0598
七三七九八七十五四十十四	-13.0598
翺	-13.0598
旋乾轉坤之	-13.0599
蘩	-13.0599
澁	-13.0599
若亡下士聞道大笑之不笑不足以爲道	-13.0599
趂	-13.0599
人危殆頼其忠徳轉禍爲福	-13.0599
泱	-13.0599
貫魚以宫人寵	-13.0599
霔	-13.0599
漢田千秋一日九遷其官	-13.0599
田蠶半熟六畜	-13.0599
繙	-13.0599
常善救人故無棄人	-13.0599
獨特處莫依爲輔心勞志苦無註	-13.0599
釋迦牟尼佛	-13.0599
慹	-13.0599
犍	-13.0599
絀	-13.0599
酪	-13.0599
霂	-13.0599
黄華蕩形	-13.0599
上清之上思之還長三寸二分	-13.0599
人欲肆而天理	-13.0599
嘷	-13.0599
嘹	-13.0599
天師太玄輔化體仁	-13.0599
物或惡之故有道者不處	-13.0599
誄	-13.0599
髣	-13.0599
二色之雲坐則九色獅子光明	-13.0599
仭	-13.0599
例凢起天	-13.0599
公尸燕飮福禄來	-13.0599
大洞眞經一部八卷法詞一卷合同環	-13.0599
彂	-13.0599
指喻指之非指也	-13.0599
曰將君我而與我齒讓何也曰	-13.0599
毒虫惡獸	-13.0599
畢仰嚥七氣止此	-13.0599
高縉雲等	-13.0599
觚	-13.06
次丁未上元吉日正一嗣教凝誠	-13.0601
道闡玄弘教大真人	-13.0601
已枯使榮	-13.0601
販繒屠狗	-13.0601
劖	-13.0601
鑪	-13.0601
以偈讚曰	-13.0601
故知足之足常足矣	-13.0601
于齊次于陽州	-13.0601
帶牛佩犢	-13.0601
撈	-13.0601
篝	-13.0601
三年狄人伐衛懿公好鶴鶴有乗軒者將	-13.0601
妙有玄眞境	-13.0601
一作嗌不嗄黄茂材	-13.0601
五鬼正南死門正東	-13.0601
候待旦明	-13.0601
儀生四象四象生八卦	-13.0601
先黄老而後六經	-13.0601
去嵩髙五萬里地之中其髙萬一千里出	-13.0601
曽參殺人者曽母不信及三人言之曽母	-13.0601
曽母投杼一簧者即詩所謂巧言如簧	-13.0601
王孫季子相與爲友明	-13.0601
禹鑿龍門通利水	-13.0601
褲	-13.0601
詩伐檀篇云胡瞻爾庭有縣貆	-13.0601
齊魯青未了	-13.0601
𡱝	-13.0601
𦁕	-13.0601
生天生地生人生萬物	-13.0601
虛靜恬淡寂寞無爲	-13.0601
赩	-13.0601
昕	-13.0603
旺則宜尅宜洩	-13.0603
琹	-13.0603
石鑿鑿素衣朱襮從子于沃旣見君子云	-13.0603
胔	-13.0603
豵	-13.0603
轉斗移星	-13.0603
嫫母黄帝次妃貌醜而賢	-13.0603
去老乗馬	-13.0603
孫氏奔齊及庚宗遇婦人宿焉生子曰牛	-13.0603
懔	-13.0603
蘇頲東封頌	-13.0603
顔魯公題名	-13.0603
不菑畲則利有攸徃	-13.0603
冥頑不靈	-13.0603
北上數百武	-13.0603
斿	-13.0603
注滄海民得安	-13.0603
滲	-13.0603
獨立而不改周行而不殆可以	-13.0603
甎	-13.0603
瞭	-13.0603
禊	-13.0603
胍	-13.0603
馗	-13.0603
齊桓晉文	-13.0603
三王五帝之治天下	-13.0603
上以陰翊皇度下以	-13.0603
兵益章邯擊楚軍大破之定陶項梁死焉	-13.0603
太素君則變形	-13.0603
毖殷頑民	-13.0603
瞠	-13.0603
老君下爲師教示	-13.0603
菁菁者莪在彼中	-13.0603
𢗲	-13.0603
是故甚愛必大費	-13.0605
鴨	-13.0605
纁	-13.0605
金馬驛傳	-13.0605
照舊例起撥	-13.0605
蕤	-13.0605
鄊	-13.0605
瀁	-13.0605
噎	-13.0605
太公辟紂居東海之	-13.0605
於碧海之上蒼靈之墟	-13.0605
懿公淺愚不深受謀無援失國	-13.0605
紫陽雲錦之囊	-13.0605
武安留守邊元帥	-13.0605
永安留守查元帥	-13.0605
今辰修設酧恩祈福道場	-13.0605
嚇	-13.0605
角亢氐房心尾箕	-13.0605
吱	-13.0605
告公用圭	-13.0605
天地始祖五老上帝	-13.0605
姓太公姜姓	-13.0605
怨豈在明不見是圖	-13.0605
易剥卦上九君子得輿小人剥廬	-13.0605
渾兮其若濁	-13.0605
色界十八天	-13.0605
𤇆	-13.0605
嵿	-13.0605
月初一日更每套	-13.0605
水漿不入口	-13.0605
莫知其所以然而然者矣	-13.0605
都鄙有章上下有服田有封洫廬井有伍	-13.0605
上香香至靈濟宫遍靈濟宫	-13.0605
不信不信民弗從	-13.0605
九天王則化形	-13.0605
代司殺者殺	-13.0605
放之後鶴夜到門外參執燭視之鶴雌雄	-13.0605
無面從退有後言	-13.0605
秀砂秀水	-13.0605
靈寳天尊說洪恩靈濟眞君妙經	-13.0605
龍德而隱者	-13.0605
聖父之慈悲父至尊之最上尊	-13.0606
或寅卯辰全或巳午未全丑未全	-13.0606
我守護念經功德消災延壽降大吉祥	-13.0606
輳	-13.0606
贓	-13.0607
巗	-13.0607
𤔵	-13.0607
人人得長壽箇箇樂昇	-13.0607
玉虛師相玄天上帝	-13.0607
三人俱行北求大牂長孟病足	-13.0607
主陽和之氣理於東方亦號	-13.0607
多技巧竒物滋起	-13.0607
皈依道同此結良因共生極樂國龍華	-13.0607
乍存乍亡	-13.0607
節度使左監門魏元帥	-13.0607
菱	-13.0607
䥴	-13.0607
利用爲依遷國	-13.0607
幹運造化章	-13.0607
鰲峰竦傑	-13.0607
並各徒九年	-13.0607
况其凡乎故	-13.0607
南方梵寶昌陽丹靈眞老赤帝	-13.0607
卷登覽志縣	-13.0607
巡按御史查提	-13.0607
國子監直講	-13.0607
獺	-13.0607
皇初紫元君則変形爲	-13.0607
順行一宫强記三十度有奇視天行不及	-13.0607
傴	-13.0608
挐	-13.0609
彿	-13.0609
折其右肱	-13.0609
雜差料價	-13.0609
嬋	-13.0609
憍	-13.0609
天地陶鈞萬	-13.0609
纇	-13.0609
聪	-13.0609
兩澤相麗	-13.0609
梲	-13.0609
糅	-13.0609
蒜	-13.0609
詩氓之篇云	-13.0609
且不查究	-13.0609
单	-13.0609
天麻黄精	-13.0609
湟	-13.0609
璿	-13.0609
益之用凶事	-13.0609
窖	-13.0609
貞吉象曰九二貞吉	-13.0609
交靈紫綬	-13.0609
又一年救度二十人以上遷	-13.0609
泪	-13.0609
炁結而化生妙	-13.0609
積玉堆金	-13.0609
而又過一度弱視天行不及	-13.0609
郗	-13.0609
長二十五里壽命八萬七千歲衣食自然	-13.0609
閴	-13.0609
雷行相逐無有休息戰	-13.0609
日喜神西南貴神西北五鬼	-13.061
瓣	-13.061
演道靈應冲和	-13.061
𤑔	-13.061
彛	-13.061
鬨	-13.061
十羊九牧	-13.061
授正一嗣教護國闡祖通誠崇道弘德大	-13.061
得中原文獻之傳	-13.061
蜴	-13.061
恊時月正日同律度量衡	-13.0611
幾致刑措	-13.0611
苹	-13.0611
五位相得而各	-13.0611
出生入死生之徒十有三死之徒十有三	-13.0611
河出圖洛出書聖人則之	-13.0611
瓮	-13.0611
翠壁丹崖	-13.0611
魂神澄正	-13.0611
兕無所投其角	-13.0611
器用陶匏	-13.0611
垂拱仰成	-13.0611
東嶽大生天齊仁元聖帝	-13.0611
椅	-13.0611
氏之教導之以	-13.0611
申子辰人坐命穴皆在	-13.0611
直聲動於天下	-13.0611
隽	-13.0611
齁	-13.0611
倜	-13.0612
呵風駡雨	-13.0612
善繼善述	-13.0612
帟	-13.0612
鼇	-13.0612
覦	-13.0612
清微天宫神通品第一	-13.0612
踔	-13.0612
三代之所以直道而行	-13.0612
五鬼正南死門東北	-13.0612
伯虎仲熊	-13.0612
扄	-13.0612
玉真九天丈人則化形爲	-13.0612
眎	-13.0612
艸	-13.0612
椁	-13.0614
喔	-13.0614
柔上而剛下	-13.0614
七五十一三一九三四	-13.0614
皆太上無上大光明圓滿	-13.0614
宣告普聞	-13.0614
飄風不終朝驟雨不終日	-13.0614
先覺覺後覺	-13.0614
槲	-13.0614
蜆	-13.0614
諸名公及文	-13.0614
逑	-13.0614
脹	-13.0614
陏	-13.0614
𩇯	-13.0614
上起太陽順數至所用之時即是命宫	-13.0614
五鬼西北死門正北	-13.0614
北死門西北	-13.0614
蔽芾甘棠勿剪勿	-13.0614
地支又臨金局地支又臨水局	-13.0615
倕	-13.0616
徠	-13.0616
工逸事遂	-13.0616
似不肖若肖久矣其細	-13.0616
党	-13.0616
太上洞玄靈寳金籙度命冥府十宫東	-13.0616
佳兒佳婦	-13.0616
清凈持戒專一信受尊重敬慕	-13.0616
譔	-13.0616
大乘垂法語	-13.0616
終篇復言之	-13.0616
吾意其爲人也而	-13.0616
能敝不新成	-13.0616
㡳	-13.0616
利亥卯未人坐	-13.0616
危復立鴟鴞破斧皆	-13.0616
大中祥符四年五月日追尊帝號	-13.0616
𨶒	-13.0616
乘雲冉冉而去	-13.0616
二官考校罪福	-13.0616
和衆等一心供養散花	-13.0616
夏稅鈔貳拾	-13.0616
宗封禪玉牒文	-13.0616
止昏度皆在	-13.0616
璜	-13.0616
長五千萬丈冬三月	-13.0616
一日二日萬幾	-13.0618
之次其應癸乙丁辛	-13.0618
困而不失其所亨	-13.0618
遙	-13.0618
捚土爲香	-13.0618
生也天行其死也物化	-13.0618
聮	-13.0618
以益下爲志	-13.0618
畢還北向平坐	-13.0618
𠎝	-13.0618
匪我求童蒙童蒙求我	-13.0618
厥宗噬膚	-13.0618
嚤	-13.0618
紫精三素元君則変形	-13.0618
若槁木之枝	-13.0618
蒙以養正聖功也	-13.0618
道中君則変形爲	-13.0618
蜓	-13.062
綰	-13.062
俺	-13.062
入于其宫不見其妻	-13.062
渟	-13.062
牓	-13.062
不惟其官惟其人	-13.062
臠	-13.062
萱	-13.062
制水祕文四十八字	-13.062
味視之不足見聽之不足聞用之不可既	-13.062
焂	-13.062
道者道亦樂得之	-13.062
脉理皆邪	-13.062
感慈惠護國庇民崇福洪恩眞君	-13.0621
有蹈東海而死爾	-13.0622
中有一眞人名曰	-13.0622
嶇	-13.0622
甍	-13.0622
餘食贅行	-13.0622
莢	-13.0622
碾	-13.0622
夙興夜寐	-13.0622
誠惶誠恐稽首頓首	-13.0622
唵唎吽	-13.0622
曚	-13.0622
爾酒既㫖爾殽既	-13.0622
豈伊異人兄弟	-13.0622
騤	-13.0624
不及十三度十九	-13.0624
諸侯五月而葬	-13.0624
先人之敝廬	-13.0624
貪嗔癡暗縱三心	-13.0624
鑼	-13.0624
後世鮮能及也	-13.0624
宇文粹中	-13.0624
顧厨俊及	-13.0624
又如上元甲子年	-13.0624
澮	-13.0624
義蓍數之易	-13.0624
老夫得其女妻	-13.0624
渉雚澤爲矢所射傷我胷臆無註	-13.0626
迈	-13.0626
大巧若拙	-13.0626
顫	-13.0626
鞠躬拜興拜興拜興拜興平身	-13.0626
黠	-13.0626
酹	-13.0626
椒房之親	-13.0626
聖父齊王忠武翊亮眞君	-13.0626
山爲儲副東方朔神異經云神姓	-13.0626
録曰此止于仁之	-13.0626
咜	-13.0626
道運而無所積故	-13.0626
地官赦罪	-13.0628
杌	-13.0628
入中宫順尋	-13.0628
志心皈命禮靈濟殿内燕喜堂中	-13.0628
州今北直隸	-13.0628
侍軄𣑽	-13.0628
孚號有厲	-13.0628
未能外堯以爲	-13.0628
玉府五雷使院	-13.0628
芩	-13.063
弥	-13.063
圩	-13.063
烙	-13.063
隱惡而揚善	-13.063
志心皈命禮靈濟宫中燕喜堂内	-13.063
志心皈命禮靈濟宫中親睦堂内	-13.063
質諸鬼神而無疑	-13.063
劬	-13.0631
后土皇地祗	-13.0632
瞎	-13.0632
鶺	-13.0632
簦	-13.0632
絖	-13.0632
二生三三生萬物	-13.0634
佒	-13.0634
穠	-13.0634
垊	-13.0634
宝	-13.0634
捏	-13.0634
㸑	-13.0634
俗人昭昭我獨若昏俗人察察我獨悶悶	-13.0634
常善救人故無棄人常善救物故無棄物	-13.0634
之所自然生金液丹碧芝英百靈衆	-13.0634
瀬	-13.0634
摩訶迦葉	-13.0634
父父子子兄兄弟弟夫夫婦婦	-13.0634
砢	-13.0634
至聖至靈至柔至靜	-13.0634
繼志述事	-13.0634
𢃄	-13.0634
儛	-13.0636
虔誠設拜上香酒陳	-13.0636
澼	-13.0636
猩	-13.0636
閾	-13.0636
損下益上其道上行	-13.0637
䔩	-13.0637
鼂	-13.0638
吾是以知無爲之有益	-13.0638
匯	-13.0638
邴	-13.0638
姁	-13.0638
洴	-13.0638
鳩摩羅什	-13.0639
蜩與鷽鳩	-13.0639
眈	-13.0639
聖人可能或人亦可能也	-13.0639
謭	-13.0639
厝	-13.0641
癱	-13.0641
天一至地十	-13.0641
其爲賊敵乃可服	-13.0643
道生一一生二	-13.0645
明庻風至	-13.0645
幙	-13.0645
讃揚無窮盡	-13.0645
伏戎于莽	-13.0647
負隂抱陽	-13.0647
威惠顯聖王	-13.0647
人之所教我亦教之	-13.0649
𤑔向爐中遥空供養	-13.0649
假如上元甲子年	-13.0649
清境所出號洞	-13.0649
玉皇心印妙經	-13.0651
嗒	-13.0651
听	-13.0651
迦尊者第	-13.0651
身命官福田財妻嗣	-13.0653
時道君答皇后言願特	-13.0653
賜汝是時皇后	-13.0653
推賢讓能	-13.0653
軍民諸色人等	-13.0653
二壇每壇	-13.0655
𣶬	-13.0655
十二八二十四十三十二三九一十九	-13.0657
詧	-13.0659
利西南徃得衆也	-13.0661
照南贍部洲	-13.0661
涂	-13.0662
録之弘道録卷之	-13.0665
下至魚龍變化飛走潜動生化之期並俟	-13.0666
官集聖之日録奏分别隨	-13.0666
改形隨福受報隨劫轉輪隨業生	-13.0666
之籍星宿照臨國土分野之薄中至人品	-13.0668
同人于野亨利涉大川	-13.0668
楗	-13.0668
艘	-13.067
化賢𥼶化愚	-13.067
列其圖于左	-13.0676
罰三十拜若	-13.0692
一卦可變爲六十四	-13.0714
仔	-13.0754
魔祕文三十二字書	-13.0778
三月高上元皇道君則變形	-13.0804
東岳天齊仁聖	-13.0915
院事從三九天	-13.092
六句二十四字	-13.0956
北極北斗下䧏翊聖	-13.0963
之上光明暐曄	-13.125
廵察惡道救護衆生特與某長福消災	-13.1259
謹燃璣衡七政神燈上布	-13.1308
隆福洪恩眞君宫中神仙諸靈官	-13.1308
十三五二十三三二奎十六十二	-13.1374
伯夷叔齊餓於首陽之下民到于今	-13.1698
十一日消灾觧厄天尊下	-13.1923
喜入户見妻春秋齊師夜遁有班馬之聲	-13.2299
班馬還師以息勞	-13.23
嬖五譛毀群公子及世子申生	-13.2404
恭子即申生	-13.2432
玄都玉臺主	-13.2865
師以息勞罷役夫嘉喜入户見妻	-13.3291
齊師夜遁有班馬之聲	-13.3293
十一五十七十六十五六十二四二十二	-13.3765
晨之精思之還反真形修	-13.3979
曰伯夷叔齊餓於首陽之下	-13.4026
玉寶元靈元老黄帝	-13.4143
五二十三三二奎十六十二六	-13.4522
察惡道救護衆生特與某長福消災增	-13.4544
八六壁一三斗二十四四	-13.4562
房五亢一翌十九五二十九參九	-13.4565
之時高虚清明天	-13.4663
或益之十朋之龜	-13.4993
自立爲趙渉怒捕繫武臣家室後因柱	-13.5083
祕文三十二字書於	-13.5296
長三千萬丈秋三月	-13.5365
初六日建玉樞㑹以保一月之安初	-13.5388
遣某官致祭曰	-13.5399
之度以表而見者爲	-13.5452
直下爲壙而懸	-13.5462
岱巓脩建孔廟議	-13.548
龍王願降經壇特為某皈命孔雀明王經	-13.548
二十四十三十二三九一十九觜	-13.5485
有聖人出焉此心同也此理同也至	-13.5487
法筵大會諸衆盡	-13.549
䙝	-13.549
所散天寶奇花旋	-13.5493
是其所非而非其所是	-13.5493
猭	-13.5493
財多主弱吉身	-13.5496
窳	-13.5499
裩	-13.5499
丁己辛癸乙	-13.5502
其功則天下之功莫不皆	-13.5502
無所迯而待烹申生	-13.5505
三者若得其名必極	-13.5506
所謂將欲取之必固與之者也	-13.5506
辛癸乙丁己	-13.5509
己辛癸乙丁	-13.5509
庚壬甲丙戊	-13.5509
戊庚壬甲丙	-13.5509
忪	-13.5509
江東漕臣即山中度地遷建	-13.5512
時上四刻先刻	-13.5512
九四五四八四七五十二	-13.5512
纊聴絶曠然大通復更生活	-13.5512
垂功名扵竹帛	-13.5512
寂之時獨處清凈室	-13.5512
成與虧故昭氏之	-13.5512
授宗人同拜王答拜太保	-13.5512
重剛而不中上不在天下不在田	-13.5512
母六親不得力兄弟亦無情	-13.5515
相與北向蹈舞拜手稽首	-13.5515
坐誦詠是經於是時也	-13.5515
孔雀明王尊特興某保安寍	-13.5518
癸乙丁己辛	-13.5518
𩀌	-13.5518
此以上八卦言伏義始作坤卦也經卦之	-13.5518
不是呼吾號决不赴	-13.5518
常爲帝光所攝受故	-13.5518
時上羅計躔度定局	-13.5518
樐	-13.5518
欲至東海求我所有買魴與鯉	-13.5518
汝后稷播時百榖	-13.5518
湜	-13.5518
津梁衆苦日月群迷	-13.5521
君子其可忽哉其可	-13.5521
齒西王母子無有患	-13.5521
予曷敢有越厥志	-13.5521
合下本司仰照騐依	-13.5521
告我友邦君越尹氏庶士御	-13.5521
者吾又悲夫悲人	-13.5521
消金厭兵雷車	-13.5524
時上四刻先尅父	-13.5524
爲五常之本五常爲	-13.5524
天何况受持是此經者	-13.5524
㬌	-13.5524
一羅計截斷半天星	-13.5524
上樓與福俱居	-13.5524
不善業悉得消滅更不墮諸惡趣神昇九	-13.5524
九個月一宫九年	-13.5524
位而有星行限從	-13.5524
作驕胡犬形義通	-13.5524
俯念蒼生不審靈寶玉篇眞文可得見授	-13.5524
光之所攝受或與同語或聞其聲如奉	-13.5524
勑㫖頒降該欽奉帝㫖合行積善之家注	-13.5524
去甚去奢去泰	-13.5524
徃刼乃至今身輪轉人天漂沉世域積千	-13.5524
恭奉慈㫖應	-13.5524
恭惟聖父齊王忠武眞人殿下	-13.5524
時上月孛躔度定局	-13.5524
時上紫氣躔度定局	-13.5524
目録終儒門崇理折哀堪輿完孝録卷之	-13.5524
者鮮矣不好犯上而好作亂者未之有也	-13.5524
臨難之月如法持念是此眞經即得母子	-13.5524
身若遇是持經之人形影暫映其身如爲	-13.5524
長子入獄婦饋	-13.5524
不行民安其郷無註	-13.5528
盈折亡爲患無註	-13.5528
於虎口白豕不勝死	-13.5528
張如厠䧟而卒	-13.5528
爲水魚燕雀無巢民無室廬無註	-13.5528
琅邪臺入海	-13.5528
我利福不离兵革無註	-13.5528
故乾乾因其時而惕雖危	-13.5528
三天門下符下欽奉	-13.5528
之所慰諭彼人罪障永得除滅	-13.5528
周人都河南三河在天下之中史貨殖傳	-13.5528
如命限在箕而尾度上有星謂之隔度	-13.5528
廓然而太公物來而順應	-13.5528
我躬不閱遑恤我後	-13.5528
未濟登髙上山見王自言申理我	-13.5528
行臣心實欲使靈	-13.5528
郷晦伏法無註	-13.5528
不明下民多孽君失其常無註	-13.5531
四亂不安東西為患	-13.5531
履泥汙足名困身辱	-13.5531
弱足刖跟不利	-13.5531
何爲也哉爲其多聞也爲其賢也	-13.5531
大天王剪除不祥大天王	-13.5531
宫度喜忌定局	-13.5531
今照勘本人委是	-13.5531
勒過泗水攸	-13.5531
動於無方居於窈冥	-13.5531
命終時若有道心正信善男善女於亡者	-13.5531
斷時起大悲心于其頭邊念玉帝尊號	-13.5531
欲界色界無色	-13.5531
止奔也蝃蝀在東莫之敢指女子有行逺	-13.5531
生月火金羅謂之	-13.5531
避去自然安穩	-13.5531
領詞虔切勉力奉行切慮	-13.5534
得其環中以應無窮	-13.5534
顏子宗聖曾子述聖子思子亞聖孟子配	-13.5534
至道無難唯嫌	-13.5534
命分獻星辰壇醮於	-13.5534
唐人千仞有磨碑古今興廢只常事金簡	-13.5534
三五柳初十五六五斗初五八	-13.5534
以牛馬負妻子而迯	-13.5534
八日行一度十八月一宫十八年一周天	-13.5534
公孫駕驪載遊東齊延陵	-13.5534
可特授仙妃命字如故	-13.5534
奔逸絶塵而回瞠	-13.5534
守降心爲不爲動靜知宗祖無事更尋誰	-13.5534
小序云羙好善也	-13.5534
查得七政星盤	-13.5534
榮行流散徙不主常聲	-13.5534
生返復普化一聲雷白雲朝頂上甘露洒	-13.5534
穏	-13.5534
迷不迷性自住性住氣自回氣回丹自結	-13.5534
鬼賊衆苦所加如法持念是此眞經衆邪	-13.5534
獅	-13.5536
衆爲上良縁念三清	-13.5537
咂	-13.5537
凳	-13.5537
穡人駕取不逢虎狼暮歸其宇無註	-13.5537
行之阪遇伯樂輙長鳴出戰國䇿	-13.5537
𥳠	-13.5537
無恭敬心出誹謗語	-13.5537
因禍受福喜盈	-13.5537
三色之光更相纏繞在紫虛之中	-13.5537
堡	-13.5537
演道靈應冲利真人	-13.5537
[...]
