<unk>	0
<s>	0
</s>	0
。	-1.95462
之	-5.11723
曰	-5.39128
,	-5.41081
也	-5.45068
不	-5.46238
云	-5.49782
有	-5.51212
一	-5.59268
者	-5.62011
為	-5.63635
無	-5.64293
師云	-5.67347
師曰	-5.693
師	-5.70367
人	-5.74235
而	-5.78923
問	-5.81062
是	-5.83856
以	-5.84542
(	-5.93184
如	-5.96257
得	-5.98129
道	-6.00705
心	-6.02871
來	-6.03105
於	-6.03695
)	-6.07524
見	-6.07624
中	-6.13314
在	-6.14275
▁	-6.14777
自	-6.14782
其	-6.17691
大	-6.18374
時	-6.20593
則	-6.20863
行	-6.28053
生	-6.29575
此	-6.29884
即	-6.31808
我	-6.32179
處	-6.33138
與	-6.35627
山	-6.36207
上	-6.37927
若	-6.39207
禪師	-6.39362
去	-6.43005
出	-6.44132
又	-6.45384
非	-6.45406
作	-6.48216
子	-6.4824
事	-6.50557
」「	-6.52007
法	-6.53724
上堂	-6.54597
佛	-6.54753
三	-6.56776
相	-6.56962
說	-6.57699
故	-6.57929
明	-6.58176
天	-6.59923
入	-6.6038
和尚	-6.62882
下	-6.63221
後	-6.66826
水	-6.69946
至	-6.70622
乃	-6.74655
知	-6.74914
盡	-6.75392
同	-6.75787
成	-6.7717
空	-6.77994
頭	-6.78334
亦	-6.7968
言	-6.80063
汝	-6.80696
日	-6.81894
身	-6.82569
僧	-6.83632
舉	-6.83837
地	-6.8384
然	-6.8498
因	-6.85953
向	-6.87288
真	-6.87628
便	-6.88344
能	-6.88747
公	-6.89202
不得	-6.90545
雲	-6.9131
聞	-6.91621
當	-6.91638
所	-6.91783
過	-6.92368
前	-6.92799
可	-6.94017
未	-6.94544
名	-6.94935
將	-6.95374
二	-6.96052
起	-6.98324
歸	-6.98836
風	-7.00651
看	-7.00671
從	-7.01164
難	-7.01473
到	-7.01716
何	-7.01828
月	-7.01884
語	-7.0201
開	-7.02283
▁*	-7.02743
他	-7.0362
著	-7.03827
復	-7.06146
底	-7.07258
了	-7.08101
皆	-7.08723
本	-7.10341
巳	-7.10995
矣	-7.11039
今	-7.11447
你	-7.11693
光	-7.11952
用	-7.12535
長	-7.12677
正	-7.13044
更	-7.13389
如何是	-7.13594
多	-7.14182
今日	-7.14335
門	-7.15589
欲	-7.16518
意	-7.16613
進云	-7.17506
莫	-7.1754
遂	-7.1775
教	-7.18644
要	-7.1903
還	-7.19407
深	-7.19878
會	-7.20279
高	-7.20325
眾	-7.2081
却	-7.20916
好	-7.20942
眼	-7.21104
四	-7.22239
諸	-7.22475
解	-7.22944
僧問	-7.22951
且	-7.2338
老	-7.2376
山僧	-7.24511
經	-7.24587
參	-7.24618
常	-7.25185
分	-7.25555
方	-7.25797
重	-7.26142
裏	-7.26585
住	-7.26602
坐	-7.26754
請	-7.27173
謂	-7.27246
世	-7.27512
悟	-7.28331
轉	-7.28762
或	-7.29161
且道	-7.29362
既	-7.29906
:「	-7.30206
家	-7.30923
吾	-7.31083
聲	-7.3121
麼	-7.31295
性	-7.32033
觀	-7.3236
打	-7.32472
于	-7.32947
善	-7.33151
乎	-7.33399
禪	-7.33743
王	-7.33981
智	-7.34576
安	-7.34649
祖	-7.35381
通	-7.35726
覺	-7.36294
五	-7.36572
石	-7.36716
立	-7.36851
外	-7.37376
不知	-7.37563
定	-7.37998
金	-7.38011
宗	-7.38671
雖	-7.38849
別	-7.3893
令	-7.39479
書	-7.39504
求	-7.39726
兩	-7.40232
及	-7.40394
識	-7.40528
念	-7.40613
清	-7.4113
不是	-7.41313
先	-7.41477
。」【	-7.41903
白	-7.41972
等	-7.42344
應	-7.43613
傳	-7.43765
妙	-7.43921
海	-7.43967
絕	-7.44162
路	-7.44334
花	-7.44444
實	-7.4486
破	-7.45314
信	-7.46262
耳	-7.46634
春	-7.46866
取	-7.47509
似	-7.47667
香	-7.48707
須	-7.49015
化	-7.49138
文	-7.49368
義	-7.50211
理	-7.50211
耶	-7.50506
親	-7.51111
口	-7.51138
一切	-7.51749
死	-7.52113
色	-7.52253
主	-7.52495
初	-7.52741
發	-7.5278
受	-7.53019
。】「	-7.53253
德	-7.53807
不可	-7.54726
物	-7.54935
如何	-7.55025
隨	-7.55112
僧云	-7.5529
合	-7.55298
聖	-7.5594
年	-7.56411
流	-7.56483
火	-7.56521
手	-7.56837
但	-7.56959
藏	-7.56981
力	-7.57487
照	-7.57903
離	-7.57985
體	-7.58194
居	-7.58616
古	-7.58702
機	-7.58843
遠	-7.59258
不能	-7.59328
寺	-7.59424
六	-7.60397
使	-7.61129
修	-7.6119
學	-7.61838
神	-7.62102
大眾	-7.62119
一日	-7.62317
指	-7.62344
老僧	-7.6239
寒	-7.62415
緣	-7.6357
斷	-7.63758
落	-7.6439
誰	-7.64514
笑	-7.65046
被	-7.65085
所以	-7.65134
雪	-7.6623
龍	-7.66379
新	-7.6638
俱	-7.66537
動	-7.68236
病	-7.6849
南	-7.68608
玉	-7.68794
州	-7.69057
居士	-7.69678
東	-7.69806
境	-7.69898
爾	-7.69967
如是	-7.70186
命	-7.70409
衣	-7.70979
小	-7.71004
全	-7.7102
滿	-7.71352
猶	-7.71383
華	-7.71536
雨	-7.72346
豈	-7.72378
寶	-7.7246
情	-7.72896
果	-7.73085
靈	-7.73393
卻	-7.73496
萬	-7.73851
直	-7.73994
次	-7.74162
西	-7.74752
已	-7.74836
持	-7.74901
依	-7.75182
夜	-7.76146
業	-7.76288
總	-7.76291
淨	-7.76355
現	-7.76823
禮	-7.77455
論	-7.77481
必	-7.77605
眾生	-7.77988
具	-7.7811
林	-7.79209
元	-7.79775
思	-7.80327
哉	-7.80496
內	-7.80725
只	-7.80781
慧	-7.80838
足	-7.81343
異	-7.81967
彼	-7.81978
佛法	-7.82386
數	-7.82548
堂	-7.82611
國	-7.82715
生死	-7.8277
漢	-7.82795
度	-7.82801
苦	-7.82912
圓	-7.83152
。」	-7.83156
獨	-7.83443
千	-7.83561
和	-7.84124
七	-7.84768
八	-7.84971
共	-7.85195
九	-7.85282
句	-7.8536
答	-7.8617
迷	-7.86487
不見	-7.86591
話	-7.86776
秋	-7.8704
十	-7.87092
回	-7.88166
往	-7.8846
惟	-7.88816
百	-7.88917
諸人	-7.89133
始	-7.89393
箇	-7.90101
關	-7.90105
報	-7.90181
塵	-7.90367
飛	-7.90579
菴	-7.90992
證	-7.91435
君	-7.91668
樂	-7.91842
聽	-7.92817
雲門	-7.92962
休	-7.93231
對	-7.93691
願	-7.94023
勝	-7.94108
夢	-7.946
曾	-7.94915
平	-7.94985
樹	-7.95029
興	-7.95148
廣	-7.95315
客	-7.9577
趙州	-7.96223
戒	-7.96298
夫	-7.96508
稱	-7.96584
就	-7.97017
放	-7.97176
失	-7.97197
露	-7.97358
尚	-7.97385
尋	-7.97482
食	-7.97603
間	-7.97901
少	-7.97965
忽	-7.98015
滅	-7.98303
凡	-7.98575
面	-7.98655
氣	-7.98857
易	-7.99307
一句	-7.9932
時如何	-7.99472
久	-7.99715
玄	-7.99757
甚	-7.99842
草	-7.99881
待	-8.00283
各	-8.00951
福	-8.01324
菩薩	-8.0167
疑	-8.02022
閒	-8.02265
倒	-8.02343
望	-8.0258
木	-8.02629
唯	-8.03026
惡	-8.03089
根	-8.03224
半	-8.03278
位	-8.03399
臨濟	-8.03787
遊	-8.04472
兮	-8.04896
峰	-8.0503
字	-8.05149
終	-8.05234
卷	-8.0551
遇	-8.05667
示	-8.06047
嗣	-8.06691
那	-8.06722
的	-8.07082
恁麼	-8.07179
古人	-8.07199
執	-8.07576
上座	-8.07949
影	-8.08017
焉	-8.08103
顯	-8.08143
江	-8.08413
佛祖	-8.08471
如來	-8.08519
頌	-8.08574
歲	-8.08811
種	-8.08944
止	-8.08981
分明	-8.0957
城	-8.09942
」	-8.10206
否	-8.10482
利	-8.10524
隱	-8.109
靜	-8.11262
馬	-8.11422
妄	-8.11823
也無	-8.12343
沒	-8.12366
這	-8.12611
珠	-8.12917
目	-8.13194
窮	-8.13261
幾	-8.13301
結	-8.13365
再	-8.13495
牛	-8.13631
施	-8.1371
余	-8.13863
任	-8.14019
把	-8.143
志	-8.14315
邊	-8.14685
喜	-8.14721
齊	-8.15143
黃	-8.15379
予	-8.15608
蓋	-8.15623
走	-8.15914
纔	-8.16089
諸佛	-8.16878
都	-8.17699
士	-8.17738
如此	-8.17764
下座	-8.17928
喫	-8.17992
形	-8.18148
作麼生	-8.18655
脫	-8.18771
說法	-8.18967
?」	-8.19613
一時	-8.19939
垂	-8.20177
亂	-8.2026
即是	-8.20296
橫	-8.20363
普	-8.20428
松	-8.20462
極	-8.20481
太	-8.20516
辭	-8.2108
慈	-8.21141
燈	-8.21379
印	-8.21434
超	-8.21573
愛	-8.2181
某甲	-8.22151
骨	-8.22268
了也	-8.22484
密	-8.22597
若是	-8.23317
巖	-8.23415
不會	-8.23416
朝	-8.2347
由	-8.23516
謝	-8.23524
頌曰	-8.23636
世尊	-8.23648
永	-8.24105
青	-8.24176
接	-8.24481
忘	-8.24591
功	-8.24838
陽	-8.24942
拈	-8.24953
僧曰	-8.25197
登	-8.25368
白雲	-8.25502
宜	-8.25652
點	-8.26334
天下	-8.26533
留	-8.26653
諸方	-8.26659
切	-8.26674
鐵	-8.26959
頓	-8.27419
收	-8.27424
音	-8.27439
集	-8.27651
院	-8.28085
遍	-8.2821
塔	-8.28469
送	-8.28585
舊	-8.28684
懷	-8.28729
侍者	-8.28824
還有	-8.29076
臨	-8.29258
首	-8.29279
祇	-8.29361
老人	-8.29749
進	-8.3039
寧	-8.30538
輕	-8.30764
節	-8.30847
達	-8.31057
土	-8.31272
飯	-8.31378
容	-8.31887
代	-8.32013
許	-8.32051
覓	-8.32076
致	-8.32158
餘	-8.32485
辨	-8.32744
出家	-8.32749
洞山	-8.33167
去也	-8.33294
想	-8.33492
斯	-8.33529
邪	-8.33635
文殊	-8.33637
北	-8.33701
變	-8.33721
記	-8.33852
奇	-8.33935
尊	-8.33999
徹	-8.34
雙	-8.34004
守	-8.34039
庵	-8.34324
源	-8.34548
乃云	-8.34688
波	-8.3472
藥	-8.34782
母	-8.34863
錯	-8.35045
溪	-8.35327
誠	-8.35399
承	-8.3554
雖然	-8.35947
壽	-8.36221
殺	-8.36266
散	-8.36296
兒	-8.36684
浪	-8.36797
相見	-8.36808
喚	-8.36835
示眾	-8.37096
號	-8.37101
叢林	-8.37138
.	-8.37376
奉	-8.37415
濟	-8.37467
自然	-8.37525
嚴	-8.37533
始得	-8.37732
所謂	-8.37783
引	-8.37858
虛	-8.37864
虎	-8.37881
貴	-8.38205
賢	-8.38211
交	-8.38358
息	-8.38423
鼓	-8.38526
驚	-8.38532
虛空	-8.3872
孤	-8.38859
造	-8.39195
存	-8.39595
大師	-8.39626
期	-8.3964
提	-8.39725
除	-8.39951
近	-8.39965
煙	-8.40259
微	-8.40288
紅	-8.41263
幻	-8.41305
擬	-8.41576
供養	-8.41928
端	-8.41965
竹	-8.42038
某	-8.4242
昔	-8.42718
而不	-8.42732
般若	-8.42759
如今	-8.43085
劫	-8.4329
旨	-8.43633
問如何是	-8.43663
法身	-8.43693
因緣	-8.43733
茶	-8.44153
有時	-8.44222
野	-8.44964
象	-8.45027
一人	-8.45158
早	-8.45234
伊	-8.45311
爭	-8.45747
父	-8.4605
。「	-8.46226
南泉	-8.46306
泉	-8.46661
畢竟	-8.46667
禮拜	-8.46753
墮	-8.4678
個	-8.46895
虗	-8.47292
假	-8.47298
退	-8.47537
畫	-8.47717
曲	-8.47808
曉	-8.47925
消	-8.48001
周	-8.48018
推	-8.48139
透	-8.48178
載	-8.48259
出世	-8.48274
特	-8.48302
鳴	-8.48366
學人	-8.48492
步	-8.48533
宿	-8.48535
益	-8.48604
順	-8.48855
徒	-8.48876
一念	-8.48922
建	-8.49097
衲僧	-8.49109
三昧	-8.49179
寂	-8.492
鼻孔	-8.4944
法界	-8.49619
恐	-8.49721
未審	-8.50399
像	-8.5047
帝	-8.50512
乾坤	-8.50524
痛	-8.5062
齋	-8.50665
喚作	-8.50971
何故	-8.51121
首座	-8.51274
契	-8.51363
法門	-8.51436
唱	-8.51637
固	-8.5188
錄	-8.51957
角	-8.52241
顧	-8.52519
溈山	-8.52641
夏	-8.52652
逢	-8.52729
良久云	-8.52977
翻	-8.5309
原	-8.53201
弟子	-8.5321
座	-8.53248
今朝	-8.53736
星	-8.53867
冷	-8.53873
最	-8.53998
幽	-8.54128
張	-8.54227
遺	-8.54323
詩	-8.54472
?	-8.54523
拂	-8.54597
當時	-8.54652
設	-8.54661
虗空	-8.54779
暗	-8.54814
亦不	-8.54873
女	-8.55069
連	-8.55465
便是	-8.55468
魚	-8.55475
以為	-8.55606
祖師	-8.55834
舟	-8.56004
羅	-8.56048
翁	-8.5606
活	-8.56111
碧	-8.5615
渠	-8.56405
習	-8.56451
不識	-8.56526
又作麼生	-8.56581
清淨	-8.56956
畢	-8.57008
鳥	-8.57227
陰	-8.57574
田	-8.57684
捨	-8.57781
住持	-8.57794
慶	-8.58232
秀	-8.58298
閑	-8.58374
方便	-8.58404
弄	-8.5845
量	-8.58561
乘	-8.5871
世界	-8.58749
精	-8.59146
做	-8.59357
運	-8.59358
展	-8.59374
)」「	-8.59438
談	-8.5949
霜	-8.59578
疏	-8.59678
請師	-8.59752
每	-8.59871
仰	-8.59908
官	-8.5991
十方	-8.60073
跡	-8.60147
勢	-8.60151
領	-8.60631
恩	-8.60875
布	-8.6089
投	-8.60928
宣	-8.60981
悉	-8.61121
錢	-8.61586
先師	-8.61604
幸	-8.61606
德山	-8.61695
小參	-8.61842
帶	-8.61849
脚	-8.61879
於此	-8.61951
若不	-8.62179
況	-8.62196
世間	-8.62359
臺	-8.62386
魔	-8.62536
擊	-8.62617
為人	-8.62645
呈	-8.62851
良	-8.62885
折	-8.62907
俗	-8.62965
臥	-8.63026
愚	-8.63274
未免	-8.6335
感	-8.63605
亡	-8.63997
歌	-8.64191
亦無	-8.64277
乾	-8.64313
急	-8.64397
筆	-8.64475
氏	-8.64587
拄杖	-8.64602
古今	-8.64655
百丈	-8.64701
天童	-8.64755
圖	-8.64831
逐	-8.65031
背	-8.65046
偈	-8.65323
天地	-8.65375
陳	-8.65527
覆	-8.65602
歷	-8.65731
頂	-8.65737
不在	-8.65879
移	-8.6647
盛	-8.66503
沙	-8.66589
強	-8.66604
穿	-8.66704
舌	-8.66714
又云	-8.66745
竟	-8.66756
徑山	-8.66819
枝	-8.66948
○	-8.67024
因甚	-8.67241
不曾	-8.67303
燒	-8.67545
菩提	-8.67769
索	-8.67858
試	-8.67897
冬	-8.67904
謂之	-8.67995
泥	-8.68147
雪峰	-8.68559
棒	-8.68812
李	-8.69043
峯	-8.69201
不肯	-8.69217
金剛	-8.69269
賊	-8.69291
敬	-8.69426
付	-8.69524
此是	-8.69568
黃檗	-8.69592
鏡	-8.69829
界	-8.69934
涅槃	-8.70067
洞	-8.70079
祖曰	-8.70086
嘗	-8.70219
喝	-8.70504
殿	-8.70564
不用	-8.70605
觸	-8.70803
肯	-8.70817
熱	-8.7082
輪	-8.70887
室	-8.71157
奪	-8.71182
眉	-8.71229
縱	-8.71404
可謂	-8.71414
罪	-8.71473
無心	-8.71675
勞	-8.71778
拜	-8.71783
供	-8.71958
日月	-8.72014
據	-8.72018
含	-8.72101
乃至	-8.72196
直得	-8.72236
計	-8.72289
:	-8.72333
視	-8.72398
代云	-8.72471
負	-8.72539
商量	-8.72572
疾	-8.7276
也是	-8.72892
器	-8.73
不動	-8.73175
殊	-8.73298
光明	-8.73453
磨	-8.73588
遮	-8.73651
與麼	-8.73861
仁	-8.73879
葉	-8.73889
尋常	-8.73998
民	-8.74048
無人	-8.74049
無所	-8.74074
直下	-8.74152
即今	-8.74162
細	-8.74215
刀	-8.74329
加	-8.74543
山云	-8.74625
謾	-8.74794
隔	-8.748
敢	-8.74863
雪竇	-8.74932
省	-8.74952
臣	-8.75027
資	-8.75358
屬	-8.75572
一一	-8.75608
不覺	-8.75834
作麼	-8.7594
群	-8.76137
越	-8.76138
增	-8.76189
攝	-8.76551
舍	-8.76585
師便打	-8.7704
告	-8.7704
只是	-8.77228
自在	-8.77258
不敢	-8.77407
煩惱	-8.77462
頌云	-8.77524
辯	-8.77666
謁	-8.77786
境界	-8.77806
示眾云	-8.7794
治	-8.77989
偏	-8.78002
略	-8.7805
一箇	-8.78178
長老	-8.78398
直饒	-8.78472
不同	-8.78483
只如	-8.78537
無有	-8.78613
不妨	-8.78679
河	-8.78779
氏子	-8.78875
堪	-8.78946
禪師法嗣	-8.79097
鐘	-8.79211
這箇	-8.79507
晚	-8.79565
仰山	-8.79656
類	-8.79693
解脫	-8.79721
備	-8.79853
蒙	-8.79931
勿	-8.80059
學者	-8.8015
不如	-8.80167
問曰	-8.80201
響	-8.80375
府	-8.80401
並	-8.80408
比	-8.80506
珍重	-8.80527
不出	-8.80541
谷	-8.80842
味	-8.80928
吹	-8.81007
山曰	-8.81102
啟	-8.81108
堅	-8.81197
種種	-8.81219
分別	-8.81286
此事	-8.81356
涉	-8.81519
現前	-8.81683
侍	-8.81725
反	-8.81836
喝一喝	-8.82128
人天	-8.82139
章	-8.8214
養	-8.82289
寄	-8.82437
弘	-8.82471
棄	-8.82527
適	-8.82596
喪	-8.82896
才	-8.82908
表	-8.83018
無生	-8.8313
「	-8.83226
咸	-8.83248
讀	-8.83253
浮	-8.83335
返	-8.8334
振	-8.83404
達磨	-8.8343
聚	-8.8358
呼	-8.83843
拄杖子	-8.83919
須是	-8.83953
良久	-8.84101
相似	-8.8412
可以	-8.84164
揚	-8.84329
鬼	-8.84409
是非	-8.84592
借	-8.84715
遷	-8.84943
赤	-8.84994
何不	-8.85147
鼻	-8.85253
迎	-8.8527
人人	-8.85443
悲	-8.85677
尊者	-8.85758
父母	-8.85956
唐	-8.85999
池	-8.86025
吞	-8.86151
素	-8.86325
姓	-8.86451
、	-8.86465
放下	-8.86477
湖	-8.86488
鑑	-8.86561
何處	-8.86677
劍	-8.8681
釋迦	-8.86813
徑	-8.8683
并	-8.8684
相逢	-8.86858
續	-8.87354
裡	-8.87435
壁	-8.87606
不離	-8.87839
拈云	-8.8799
驗	-8.88347
免	-8.88423
茲	-8.88457
玄沙	-8.88477
梅	-8.88593
胡	-8.88594
鶴	-8.88967
獲	-8.89431
黑	-8.8949
愈	-8.89508
大地	-8.89593
己	-8.89652
比丘	-8.89872
救	-8.89906
會得	-8.89961
者箇	-8.90007
約	-8.90037
本來	-8.90072
上堂云	-8.90115
功德	-8.90305
第一	-8.90353
縣	-8.9055
遣	-8.90751
葢	-8.9077
馬祖	-8.91296
盤	-8.91432
無明	-8.91483
快	-8.91513
又問	-8.91634
洗	-8.91713
睡	-8.91723
延	-8.91735
釋	-8.91923
講	-8.9198
忽然	-8.92056
船	-8.92173
為甚麼	-8.92217
罷	-8.92423
消息	-8.92584
繼	-8.92645
多少	-8.9276
鳳	-8.92803
時節	-8.9284
皇	-8.93036
嶺	-8.93042
阿	-8.93052
誦	-8.93077
權	-8.93295
老漢	-8.93319
處處	-8.93387
無量	-8.93466
掌	-8.93474
障	-8.93678
卓	-8.93754
屈	-8.93785
之所	-8.93845
血	-8.93948
置	-8.94196
刻	-8.94218
樓	-8.94285
真如	-8.94308
一喝	-8.94408
萬里	-8.94568
傷	-8.94838
酒	-8.94959
屋	-8.94973
惑	-8.94983
訪	-8.9507
披	-8.95097
真實	-8.95129
短	-8.95213
途	-8.95273
蛇	-8.95452
枯	-8.95469
儒	-8.95524
毛	-8.9557
乞	-8.95595
公案	-8.95728
青山	-8.95786
授	-8.95786
大似	-8.96032
際	-8.96092
勤	-8.96162
三界	-8.96351
向上	-8.96447
挂	-8.96545
演	-8.96581
服	-8.96656
瑞	-8.96699
殘	-8.96716
紫	-8.9684
道人	-8.96895
聖人	-8.96994
末	-8.97295
鄉	-8.97303
究	-8.97311
翠	-8.97548
喻	-8.97664
闍黎	-8.9778
熟	-8.97812
降	-8.97843
春風	-8.9793
律	-8.97969
默	-8.98023
直須	-8.98186
敲	-8.98253
甘	-8.98309
柳	-8.98319
艸	-8.98393
融	-8.9846
米	-8.98466
玅	-8.98557
雷	-8.98614
請上堂	-8.98787
偶	-8.98793
須彌	-8.98909
仙	-8.98949
有人	-8.9908
甚麼	-8.99219
景	-8.99285
癡	-8.99381
識得	-8.99562
眠	-8.99606
迦葉	-8.99664
村	-8.99794
決	-8.99798
甞	-8.99833
川	-8.99891
咄	-9.00085
護	-9.00122
乃曰	-9.00194
一聲	-9.00217
賣	-9.0025
趣	-9.00294
身心	-9.00419
出來	-9.00527
游	-9.00547
會麼	-9.00603
楚	-9.00659
自心	-9.00717
所以道	-9.00815
念佛	-9.01083
美	-9.01086
是甚麼	-9.0112
參禪	-9.01161
法眼	-9.01227
不著	-9.01247
道場	-9.01441
車	-9.01516
大士	-9.01628
孫	-9.01756
方丈	-9.01892
兼	-9.01982
狂	-9.02026
孝	-9.02146
吐	-9.02225
第二	-9.02257
從來	-9.0226
條	-9.02312
若也	-9.02353
伏	-9.0242
之心	-9.02538
經云	-9.02616
累	-9.02629
石頭	-9.02659
庭	-9.02811
品	-9.02982
貧	-9.0304
壞	-9.0308
徧	-9.03112
不為	-9.03196
調	-9.03218
傾	-9.03319
憶	-9.03537
者裏	-9.03554
閱	-9.03918
漸	-9.03935
掃	-9.03994
驢	-9.04141
杖	-9.04229
懸	-9.04309
扶	-9.04347
腳	-9.04512
婆	-9.04557
拔	-9.04585
忍	-9.04594
值	-9.04608
恁麼則	-9.04645
積	-9.04662
將來	-9.04678
怪	-9.04788
】	-9.04898
岸	-9.05178
本無	-9.05252
師問	-9.05308
者麼	-9.05329
荒	-9.05366
無事	-9.05432
遭	-9.05484
單	-9.0551
兄	-9.05693
華嚴	-9.05825
助	-9.05913
吳	-9.05959
顏	-9.0612
染	-9.06126
追	-9.06366
酬	-9.06409
千里	-9.0644
便打	-9.06475
招	-9.06519
維那	-9.06589
然後	-9.06677
驀	-9.06696
仍	-9.06717
一心	-9.06754
一片	-9.06806
兒孫	-9.06892
序	-9.07026
簡	-9.0706
若有	-9.07212
抱	-9.07253
千古	-9.07296
列	-9.07311
搖	-9.07421
皮	-9.0748
道理	-9.07752
梁	-9.07774
英	-9.079
承當	-9.07973
衲子	-9.08162
賓	-9.08218
修行	-9.08289
補	-9.08373
暮	-9.08378
山中	-9.08472
添	-9.08488
有一	-9.08875
便下座	-9.08894
曹溪	-9.0891
貪	-9.08965
陞座	-9.08969
家風	-9.0897
礙	-9.08975
自已	-9.09102
曰如何是	-9.09116
慮	-9.09122
弗	-9.09141
冰	-9.09217
醉	-9.09291
儀	-9.09306
雖然如是	-9.0942
爐	-9.09507
適來	-9.09613
汝等	-9.09653
眼睛	-9.09863
澄	-9.09966
戶	-9.10017
旋	-9.10018
良久曰	-9.1005
擬議	-9.1014
贊	-9.10181
輝	-9.10237
倚	-9.10271
而今	-9.10315
傍	-9.10774
無為	-9.11117
一任	-9.11161
於是	-9.11303
認	-9.11323
彌勒	-9.11548
師乃	-9.11556
以此	-9.11725
別有	-9.11753
雲居	-9.11763
受用	-9.11778
天台	-9.12053
封	-9.12124
凡聖	-9.12574
楊	-9.12602
忠	-9.12614
更有	-9.12643
綠	-9.12649
牽	-9.12837
一點	-9.12929
題	-9.12976
潛	-9.13096
秪	-9.13135
板	-9.13142
飽	-9.13184
塞	-9.13206
成佛	-9.13277
床	-9.13419
崇	-9.13464
明月	-9.13552
擲	-9.13667
巧	-9.13818
趨	-9.13937
得麼	-9.13974
不生	-9.14004
至今	-9.14156
惠	-9.14245
管	-9.14246
召	-9.14362
肉	-9.14495
不然	-9.14537
雜	-9.14566
昨日	-9.14594
人間	-9.14612
意旨如何	-9.14682
洪	-9.14747
輩	-9.14815
作麼生是	-9.14951
揮	-9.15161
薦	-9.15389
左	-9.1542
三年	-9.15555
席	-9.15663
僧禮拜	-9.15668
納	-9.1567
園	-9.15675
愁	-9.15789
妄想	-9.15866
常住	-9.15917
;	-9.15931
摩	-9.1626
目前	-9.16325
雪峯	-9.16471
舞	-9.16491
烏	-9.16539
威	-9.16546
右	-9.16682
皆是	-9.16725
問僧	-9.16725
無礙	-9.16773
犯	-9.16798
蓮	-9.16999
名為	-9.17002
擔	-9.17099
踏	-9.17119
大小	-9.17183
縱橫	-9.17208
毒	-9.17232
網	-9.17304
寬	-9.17361
遙	-9.17449
譬如	-9.17483
橋	-9.17622
友	-9.17677
恒	-9.17915
有箇	-9.1792
一切眾生	-9.18246
剎	-9.18251
師子	-9.18377
銀	-9.18555
葛藤	-9.18631
沈	-9.18714
太平	-9.18789
賜	-9.19012
正是	-9.19026
質	-9.19048
外道	-9.19078
在甚麼處	-9.19081
錦	-9.19169
云何	-9.19211
震	-9.19221
碎	-9.19288
人也	-9.19368
童	-9.19432
憂	-9.19436
紙	-9.19587
神通	-9.1966
知音	-9.19699
終日	-9.19731
宋	-9.19789
圓通	-9.1983
入室	-9.19871
殊不知	-9.19888
未曾	-9.19901
工夫	-9.20035
撥	-9.20039
佛性	-9.20103
閣	-9.20121
務	-9.20329
究竟	-9.20385
讚	-9.20572
遲	-9.20613
恁麼道	-9.20677
不及	-9.20684
昧	-9.20729
三世諸佛	-9.20747
剛	-9.20872
行脚	-9.20968
里	-9.20973
諸法	-9.21018
拈出	-9.21056
萬物	-9.21159
者也	-9.21247
切忌	-9.21452
釋迦老子	-9.21485
這僧	-9.21571
是故	-9.21575
武	-9.21655
劒	-9.21733
尾	-9.21812
患	-9.22054
善知識	-9.22064
不住	-9.22183
萬法	-9.22202
富	-9.2225
藥山	-9.22275
彰	-9.22379
有省	-9.22425
忙	-9.22442
即不問	-9.22487
棲	-9.22575
祝	-9.22579
憑	-9.22608
也未	-9.22728
具足	-9.22884
何曾	-9.22956
箭	-9.22988
昌	-9.22989
黃龍	-9.23112
隆	-9.23134
無語	-9.23189
拳	-9.23285
這裏	-9.23309
鑒	-9.2332
釣	-9.23366
凡夫	-9.23371
瞎	-9.23472
速	-9.23523
無相	-9.23562
從此	-9.23688
道者	-9.23803
猶是	-9.23821
一言	-9.23826
履	-9.24054
孰	-9.2413
大家	-9.24172
什麼	-9.24361
迴	-9.24378
三十	-9.24446
依舊	-9.24495
寫	-9.245
赴	-9.24507
宗旨	-9.24548
須知	-9.24597
總是	-9.24639
鋒	-9.24663
思量	-9.24691
亦非	-9.24809
制	-9.24867
詣	-9.24989
差	-9.25092
通身	-9.25136
無端	-9.25183
門下	-9.25209
郎	-9.25302
囑	-9.25375
全身	-9.25378
為什麼	-9.25411
若無	-9.25509
狀	-9.2574
逆	-9.25846
吟	-9.25888
工	-9.25896
興化	-9.25899
作家	-9.25986
晴	-9.25988
沉	-9.26066
崖	-9.26154
自有	-9.26163
昔日	-9.26197
不須	-9.26223
無不	-9.26265
拋	-9.26315
淨土	-9.26812
不免	-9.27096
曹山	-9.27238
部	-9.27396
話頭	-9.27418
騰	-9.2746
一切法	-9.27479
辦	-9.27526
險	-9.27538
坐斷	-9.27558
底人	-9.2759
方知	-9.27623
斬	-9.27634
州云	-9.27635
十二	-9.27738
井	-9.27918
害	-9.27955
知見	-9.28026
君子	-9.28052
儞	-9.28102
地獄	-9.28172
縛	-9.28285
芳	-9.28286
廢	-9.28418
歇	-9.28453
何以	-9.28461
兵	-9.28594
谿	-9.28712
渡	-9.28735
謹	-9.28747
討	-9.28759
既是	-9.28763
自性	-9.28774
風吹	-9.28939
開口	-9.2899
恨	-9.29
饑	-9.29029
聲色	-9.29093
宮	-9.29166
箇甚麼	-9.29233
爭奈	-9.2924
平生	-9.29252
拈起	-9.29304
是以	-9.29374
司	-9.29581
終不	-9.29602
蹤	-9.29627
改	-9.29772
專	-9.29808
禪人	-9.29864
報恩	-9.2996
莊嚴	-9.29977
標	-9.30041
陵	-9.30054
日用	-9.30122
不成	-9.30191
豎	-9.30332
厚	-9.30335
偈曰	-9.30364
違	-9.304
悅	-9.30422
去來	-9.30519
飲	-9.30524
今時	-9.30574
舉似	-9.30666
各各	-9.30688
符	-9.30821
薄	-9.30963
者僧	-9.30997
中有	-9.31157
是什麼	-9.31301
老和尚	-9.31303
私	-9.31325
覿面	-9.31392
念念	-9.315
分付	-9.31567
絲	-9.31663
韻	-9.31689
將謂	-9.31695
避	-9.31705
▁「	-9.31738
平等	-9.31792
露柱	-9.31895
霞	-9.31907
一生	-9.32038
知識	-9.32129
榮	-9.32151
勸	-9.32209
祇如	-9.32269
希	-9.32285
無盡	-9.32393
片	-9.32458
錫	-9.32487
支	-9.32579
夾山	-9.32623
滯	-9.32666
爛	-9.32802
之道	-9.32815
弟	-9.32913
到此	-9.32925
清風	-9.33055
渾	-9.33082
彌	-9.33198
紹	-9.33354
狗	-9.33372
阿誰	-9.33441
換	-9.33448
國師	-9.3364
不落	-9.33652
尤	-9.33658
荷	-9.33694
石霜	-9.33729
巖頭	-9.33796
觀音	-9.33817
淺	-9.33913
眉毛	-9.34081
文字	-9.34139
顛倒	-9.34165
髮	-9.34337
相應	-9.34437
打破	-9.34509
扣	-9.34606
知有	-9.34955
有何	-9.34959
雄	-9.35069
末後	-9.35112
昏	-9.35126
瞻	-9.35199
獻	-9.35205
掩	-9.3521
奇特	-9.35241
不受	-9.35287
伸	-9.3542
伯	-9.35443
尼	-9.35526
不解	-9.35786
生滅	-9.35861
山河大地	-9.36104
亦是	-9.36211
射	-9.36256
買	-9.36322
泰	-9.3636
詞	-9.36414
又曰	-9.36493
澤	-9.36689
當陽	-9.36868
為甚	-9.36925
醒	-9.36936
冥	-9.36967
瞞	-9.36969
按	-9.37042
普賢	-9.37112
繫	-9.37161
稍	-9.37306
湯	-9.37652
大道	-9.37734
之人	-9.37766
舍利	-9.37801
肩	-9.37919
面目	-9.37936
指示	-9.37979
千聖	-9.38031
齒	-9.38138
四海	-9.38218
拍	-9.38346
古佛	-9.38353
阿難	-9.38366
有無	-9.38382
騎	-9.38525
:『	-9.38599
如何是佛	-9.38639
誰知	-9.38857
自巳	-9.39088
鼎	-9.3909
盡是	-9.39111
潭	-9.39375
問訊	-9.39552
浴	-9.39555
秦	-9.396
頻	-9.39635
智慧	-9.39651
寮	-9.39669
令人	-9.39813
六祖	-9.39823
放過	-9.39832
貫	-9.39954
危	-9.40051
附	-9.4014
拙	-9.40169
競	-9.40257
十八	-9.40346
至於	-9.40442
一字	-9.40449
欺	-9.40526
便喝	-9.40581
大事	-9.4074
慕	-9.40792
投子	-9.40855
復舉	-9.40883
聊	-9.41002
朗	-9.41036
賴	-9.41106
困	-9.41143
保	-9.41155
與人	-9.41191
四大	-9.4123
也須	-9.41235
黃金	-9.41384
無對	-9.41473
拂子	-9.41493
左右	-9.41529
往來	-9.41555
淡	-9.41595
許多	-9.4163
詔	-9.41677
莫是	-9.41716
述	-9.41864
而巳	-9.41919
朱	-9.42043
財	-9.42055
吉	-9.42125
讓	-9.42213
萬象	-9.42225
窟	-9.42228
候	-9.4227
大慧	-9.42412
之中	-9.42437
丈	-9.42511
面前	-9.42611
房	-9.42681
淵	-9.42686
珍	-9.42702
規	-9.42869
不到	-9.42881
柴	-9.42936
博	-9.42963
不許	-9.43323
掛	-9.43333
今古	-9.43473
見得	-9.43497
行者	-9.4353
編	-9.43715
作禮	-9.43806
無可	-9.43905
其中	-9.44043
歸宗	-9.44051
畔	-9.44179
到這裏	-9.44192
不可得	-9.44258
覩	-9.44281
混	-9.44467
駕	-9.44469
而去	-9.44618
明日	-9.4464
未有	-9.44699
梵	-9.44721
隨緣	-9.4476
典	-9.44809
昭	-9.44871
沙彌	-9.44913
充	-9.44969
鎖	-9.44989
衰	-9.45061
潤	-9.45122
欽	-9.45129
啼	-9.4513
歎	-9.45329
純	-9.45543
鉢	-9.45815
灰	-9.45824
互	-9.45843
五百	-9.45918
明明	-9.4592
獅子	-9.45946
還會麼	-9.45962
內外	-9.45989
場	-9.46012
答曰	-9.46053
孔	-9.46123
故曰	-9.4619
一法	-9.46254
不顧	-9.46278
轉身	-9.46488
哭	-9.46526
羣	-9.46543
要且	-9.46623
圓明	-9.46654
政	-9.4677
鎮	-9.46855
烟	-9.46873
捉	-9.46907
靈山	-9.46965
謗	-9.4697
額	-9.46982
之法	-9.46989
寸	-9.4699
窗	-9.47013
探	-9.47105
舒	-9.47154
鞭	-9.47163
秖	-9.47215
第	-9.47303
擇	-9.47403
大悲	-9.47432
軍	-9.47511
窺	-9.47531
頭頭	-9.47542
是誰	-9.47615
預	-9.47659
無邊	-9.47792
一般	-9.47878
苟	-9.4793
風流	-9.48085
莊	-9.48178
不起	-9.48247
操	-9.48307
惜	-9.48356
護法	-9.48359
埋	-9.4837
若道	-9.48394
兄弟	-9.48411
市	-9.48513
三千	-9.48725
奔	-9.48828
顛	-9.48848
晚參	-9.48967
亭	-9.48985
闊	-9.49145
不信	-9.49152
賞	-9.4918
大海	-9.49248
不盡	-9.49281
舌頭	-9.49482
󲊛	-9.4955
奏	-9.49637
從上	-9.4965
無非	-9.49656
自己	-9.49659
伴	-9.49662
慈悲	-9.49853
墨	-9.49897
較	-9.49906
嶽	-9.49993
楊岐	-9.50074
耕	-9.501
時如何師云	-9.50149
沙門	-9.50222
蒼	-9.50235
不明	-9.50347
祥	-9.50359
此心	-9.50436
案	-9.50456
檀越	-9.50516
大乘	-9.50518
成就	-9.50543
從前	-9.50588
岩	-9.50593
西天	-9.5061
若能	-9.50622
僧無語	-9.50797
喝一喝云	-9.50828
程	-9.50879
徵	-9.50887
不必	-9.50892
逼	-9.50917
不聞	-9.5092
到者裏	-9.50952
拽	-9.50978
法華	-9.51072
彼此	-9.51162
睹	-9.51182
道得	-9.51347
荅	-9.51369
麤	-9.51375
蘇	-9.51397
干	-9.51557
衲	-9.51558
諦	-9.5166
戰	-9.51665
見聞	-9.51795
元來	-9.51798
恭	-9.51843
霧	-9.51901
截	-9.52052
妙喜	-9.52079
懶	-9.52133
牧	-9.52178
何必	-9.52201
尺	-9.52202
魂	-9.52217
喫飯	-9.52403
凝	-9.52412
猶如	-9.52421
語錄	-9.52448
聻	-9.52506
逸	-9.52613
自是	-9.52634
一句作麼生道	-9.52687
嘉	-9.5274
盧	-9.52814
穴	-9.52917
莫道	-9.52954
何如	-9.52956
愧	-9.53014
頭上	-9.53051
冠	-9.53052
佛殿	-9.53102
卒	-9.53239
暫	-9.53386
無私	-9.53392
翻身	-9.53487
公曰	-9.53493
一棒	-9.53552
悔	-9.53577
哀	-9.53622
畢竟如何	-9.53659
賓主	-9.53745
統	-9.5383
與汝	-9.53879
門外	-9.53917
伎倆	-9.53978
錐	-9.54001
委	-9.54032
古人道	-9.54058
南山	-9.54061
豈不是	-9.54124
御	-9.54407
注	-9.54843
枯木	-9.5485
本分	-9.54876
不見道	-9.54905
迹	-9.54919
牙	-9.55002
在什麼處	-9.55025
映	-9.55101
箇什麼	-9.55104
漏	-9.55235
自家	-9.55276
實相	-9.55278
斗	-9.55406
罵	-9.55407
南嶽	-9.5541
幼	-9.55439
彩	-9.55451
十五	-9.55464
怒	-9.55472
雲巖	-9.5555
籠	-9.55591
學道	-9.5562
旦	-9.55624
何人	-9.55672
率	-9.55691
克	-9.55722
到來	-9.55876
差別	-9.55878
宗門	-9.55926
羊	-9.55952
厭	-9.56025
丈夫	-9.56043
膽	-9.56116
丹	-9.56295
開堂	-9.56362
以拄杖	-9.56407
亦有	-9.56407
不相	-9.56505
仲	-9.56561
誤	-9.56574
涼	-9.56575
桂	-9.56595
毀	-9.56818
維摩	-9.57041
怕	-9.57184
龕	-9.57187
大法	-9.57219
西來	-9.57262
繩	-9.57302
特地	-9.57361
蘊	-9.57387
費	-9.57423
巨	-9.57469
為之	-9.57521
卓拄杖云	-9.5763
開示	-9.57758
與你	-9.57858
五祖	-9.57944
東山	-9.58015
旁	-9.58019
戲	-9.58041
扇	-9.58089
正眼	-9.58367
其人	-9.58374
把住	-9.58387
父子	-9.58418
熏	-9.58435
何事	-9.58499
大覺	-9.5856
見解	-9.58705
端的	-9.58757
禍	-9.58812
禁	-9.58892
價	-9.59024
請和尚	-9.59052
蕩	-9.59073
大德	-9.59101
等閒	-9.59188
躬	-9.59298
佛事	-9.59307
建立	-9.59318
般	-9.59377
握	-9.59453
流水	-9.59461
此語	-9.59463
只得	-9.59537
有所	-9.59583
菜	-9.59607
議	-9.59645
銕	-9.59665
宗風	-9.59864
請益	-9.60099
入門	-9.60126
乖	-9.60186
蜀	-9.60218
箇箇	-9.60385
覷	-9.60455
胎	-9.60545
合掌	-9.60628
瓦	-9.60641
損	-9.60669
其所	-9.60746
一著	-9.60814
遵	-9.60824
尊宿	-9.60831
乳	-9.60896
無二	-9.60937
倫	-9.61124
醫	-9.61164
長安	-9.61175
道吾	-9.61208
二十	-9.61217
不易	-9.61218
聖凡	-9.6124
瓶	-9.61263
枕	-9.61333
不昧	-9.61413
燕	-9.61744
第三	-9.61752
昨夜	-9.6179
法師	-9.6185
清涼	-9.61886
脩	-9.61896
夙	-9.61952
繁	-9.61956
跳	-9.62023
童子	-9.62032
何得	-9.62152
吼	-9.6217
塵勞	-9.62192
該	-9.62235
嗟	-9.62283
一枝	-9.6232
是名	-9.62377
煩	-9.6245
龜	-9.6254
嫌	-9.6255
靈隱	-9.62582
舉揚	-9.62599
京	-9.62728
袖	-9.62928
智者	-9.62941
只為	-9.62985
升	-9.63001
漫	-9.63006
油	-9.63092
當下	-9.63092
臘	-9.63104
晦	-9.63113
無異	-9.63206
何所	-9.63222
陀	-9.63289
後來	-9.63306
廓	-9.63397
馳	-9.63416
臂	-9.63512
時人	-9.63594
敗	-9.63594
性命	-9.63601
托	-9.6365
饒	-9.63674
來也	-9.63728
豈不	-9.63748
汝等諸人	-9.63752
宇	-9.63753
花開	-9.63786
無限	-9.63801
敵	-9.63834
祖云	-9.64198
其或未然	-9.64239
毫	-9.64277
香嚴	-9.64458
之後	-9.64479
正好	-9.64574
不了	-9.64601
峻	-9.64663
豈有	-9.64735
叫	-9.64736
抵	-9.64808
抑	-9.64808
歡喜	-9.64824
不少	-9.64914
頗	-9.64957
諱	-9.65046
大悟	-9.65094
底事	-9.65158
僧擬議	-9.65182
髑髏	-9.65252
圓悟	-9.65327
竊	-9.65328
我今	-9.65352
缺	-9.65372
排	-9.65512
一向	-9.65538
殺人	-9.65575
長慶	-9.65596
慈明	-9.65713
拈拄杖	-9.65753
無言	-9.65844
包	-9.65885
是何	-9.659
無常	-9.65951
大千	-9.65982
丘	-9.66069
因僧問	-9.6607
有甚麼	-9.66102
飄	-9.66158
大笑	-9.66162
藉	-9.66182
而為	-9.66214
覔	-9.66281
不足	-9.66311
門云	-9.66361
徐	-9.66405
不作	-9.66411
決定	-9.66438
善財	-9.66481
發明	-9.66561
湛	-9.66686
楞嚴	-9.66707
鍾	-9.66719
三聖	-9.66735
盈	-9.66747
三十年	-9.66854
。○	-9.66962
怨	-9.66969
不過	-9.66983
一味	-9.67013
還知	-9.67022
師便喝	-9.6704
有餘	-9.67104
室中	-9.67121
些	-9.67212
即得	-9.67257
言語	-9.6728
更無	-9.67289
蹋	-9.67323
歸來	-9.67415
舉僧問	-9.6744
簾	-9.6744
而無	-9.67491
何須	-9.67557
衝	-9.67599
提起	-9.67641
鉤	-9.67734
羅漢	-9.67744
機緣	-9.67756
之時	-9.67917
寂滅	-9.67998
耀	-9.68027
繞	-9.68047
草鞋	-9.68084
七日	-9.68188
枉	-9.68194
出入	-9.68319
津	-9.68358
東西	-9.68381
者是	-9.68405
中間	-9.68416
蘭	-9.68462
法嗣	-9.68499
猛	-9.68565
豐	-9.68611
三寶	-9.68635
古德	-9.6866
袈裟	-9.68675
自知	-9.68706
人之	-9.68707
炤	-9.68789
不假	-9.68799
空中	-9.68861
到處	-9.68923
過去	-9.68979
昇	-9.69171
門人	-9.69181
三月	-9.69195
盲	-9.69272
彈指	-9.69287
邑	-9.69296
範	-9.69401
田地	-9.69412
上人	-9.69447
博山	-9.69464
無窮	-9.69479
如何是祖師西來意	-9.69486
插	-9.69493
茅	-9.69558
臭	-9.69568
說話	-9.69649
燭	-9.69748
纏	-9.69758
郡	-9.69789
雞	-9.69847
未嘗	-9.69895
停	-9.7
季	-9.70008
慣	-9.70034
禪師語錄	-9.70115
岳	-9.70351
倘	-9.70379
不立	-9.70398
示寂	-9.70409
如斯	-9.7049
者個	-9.7049
擎	-9.70526
氷	-9.70535
不入	-9.70638
挑	-9.70644
薦得	-9.70667
不涉	-9.70667
冤	-9.70669
結制	-9.70683
之旨	-9.70776
敘	-9.70883
安樂	-9.70905
濕	-9.70955
根本	-9.70964
察	-9.70982
三下	-9.71055
少林	-9.71078
只要	-9.71155
心地	-9.71183
無別	-9.71255
粥	-9.71311
不壞	-9.71325
動靜	-9.71417
側	-9.71498
問云	-9.7156
拘	-9.71662
遶	-9.717
宗師	-9.71778
便見	-9.71886
焚	-9.71906
座主	-9.71922
一回	-9.71922
重重	-9.71928
鹿	-9.72029
貌	-9.72075
欠	-9.72172
見處	-9.72184
佗	-9.72227
之間	-9.72244
麻	-9.72278
賤	-9.72325
長者	-9.72454
巢	-9.72466
維	-9.72473
腰	-9.725
語言	-9.72507
進云如何是	-9.7262
因果	-9.7262
一個	-9.72629
偈云	-9.72636
天寧	-9.72653
彌陀	-9.72709
其僧	-9.7284
睦州	-9.72845
西方	-9.72877
復云	-9.7289
現在	-9.73008
樣	-9.73133
基	-9.73231
缽	-9.73328
撒	-9.73378
汾陽	-9.73432
直指	-9.73442
正法	-9.73507
徹底	-9.73666
不容	-9.73722
那箇	-9.73808
與他	-9.73845
布袋	-9.73901
山門	-9.73949
精進	-9.73991
詳	-9.74026
善惡	-9.74089
商	-9.7409
龍門	-9.7411
夕	-9.74116
全提	-9.74204
南方	-9.74251
之言	-9.74287
二十年	-9.74314
十年	-9.74321
腸	-9.74405
暖	-9.74443
微塵	-9.74495
那邊	-9.74499
言句	-9.74524
勘破	-9.74647
一條	-9.74693
塗	-9.74773
同一	-9.74807
胸	-9.74872
」】「	-9.74899
本來面目	-9.74935
後如何	-9.75108
然則	-9.7511
山河	-9.75122
腹	-9.75245
檀	-9.75342
琴	-9.75355
低	-9.75405
與我	-9.75442
拈拄杖云	-9.75524
三世	-9.75536
不二	-9.75556
故云	-9.75587
銅	-9.75645
當年	-9.7576
一段	-9.75864
辜負	-9.75947
是佛	-9.76033
慎	-9.76087
作甚麼	-9.76143
何用	-9.76204
墜	-9.76215
線	-9.76235
丹霞	-9.76264
不來	-9.76317
之士	-9.76338
之事	-9.76367
三日	-9.76418
則不然	-9.76482
甲	-9.76492
侵	-9.76525
不說	-9.76549
門庭	-9.7656
未能	-9.76627
一路	-9.76669
雅	-9.76693
淚	-9.76768
始知	-9.76879
百千	-9.76955
普請	-9.76972
一下	-9.76986
誇	-9.77005
之機	-9.77029
然雖如是	-9.77165
播	-9.77167
參學	-9.773
廣大	-9.77328
是箇	-9.77351
晨	-9.77365
鮮	-9.77409
針	-9.7743
穩	-9.77479
劉	-9.77513
金粟	-9.77534
看看	-9.7758
果然	-9.77651
斜	-9.77714
而後	-9.77775
歡	-9.77865
思惟	-9.77866
奴	-9.77953
婆子	-9.77967
流通	-9.77975
祇是	-9.77997
垢	-9.77999
陸	-9.78052
郤	-9.78083
宇宙	-9.78145
堆	-9.78196
近前	-9.7821
猶未	-9.78214
大用	-9.78286
十六	-9.78298
謀	-9.7831
三十棒	-9.78484
以手	-9.78492
俾	-9.78522
註	-9.78532
疎	-9.78534
趙	-9.78538
少室	-9.78646
勘	-9.78701
由是	-9.78759
當機	-9.78761
囊	-9.78802
這個	-9.78831
如意	-9.78895
畏	-9.7894
銘	-9.79007
壯	-9.79083
當人	-9.79093
忌	-9.79097
富貴	-9.79107
先生	-9.79109
甘露	-9.79113
何也	-9.79159
聞之	-9.79288
撫	-9.79355
淨慈	-9.79365
江西	-9.79411
為汝	-9.79472
天然	-9.7959
即此	-9.79699
如何得	-9.79755
見性	-9.79763
呵	-9.79953
桃花	-9.80003
門前	-9.80023
現成	-9.80028
僧問如何是	-9.80056
一塵	-9.80134
不堪	-9.80151
若論	-9.80172
所見	-9.80187
院主	-9.80196
證明	-9.80249
時時	-9.8027
壑	-9.80313
入山	-9.80329
殺活	-9.80372
揭	-9.80378
豁	-9.80433
一則	-9.80477
各自	-9.80478
秪如	-9.80534
浩浩	-9.80539
蹉過	-9.80589
丁	-9.80592
審	-9.80596
肅	-9.80602
親見	-9.80611
咬	-9.80645
歸方丈	-9.80698
屏	-9.8071
一切處	-9.80777
晝	-9.80792
格	-9.80862
天子	-9.80875
占	-9.80875
有一人	-9.80929
用心	-9.80952
一場	-9.81011
憐	-9.81017
誰是	-9.81034
潔	-9.81061
全彰	-9.81068
叟	-9.81073
洲	-9.81123
截斷	-9.81182
兩頭	-9.81252
栽	-9.81286
前後	-9.81295
柔	-9.81346
正恁麼時	-9.81395
抽	-9.81422
法王	-9.81449
對曰	-9.81464
誕	-9.8152
又道	-9.81683
晝夜	-9.81714
裂	-9.81734
夜半	-9.81759
六十	-9.81809
有甚	-9.8196
軒	-9.8199
趁	-9.81997
遽	-9.82004
史	-9.82094
一僧	-9.82135
營	-9.8219
兩箇	-9.82231
彈	-9.82247
老宿	-9.82266
不疑	-9.82275
堂堂	-9.8238
佳	-9.8256
堂中	-9.82748
糞	-9.82862
風穴	-9.82874
江南	-9.82917
甚處	-9.82923
燒香	-9.82926
環	-9.82969
不從	-9.83022
上下	-9.83043
俊	-9.83138
不異	-9.83156
不自	-9.83178
雖則	-9.8334
辰	-9.83412
猿	-9.83415
辱	-9.83453
兔	-9.83457
庶	-9.8346
喫茶	-9.83488
若人	-9.83505
稟	-9.83565
未來	-9.83633
不問	-9.83654
夷	-9.83671
法法	-9.83679
不可以	-9.83748
便行	-9.83789
真心	-9.83812
生平	-9.83849
行腳	-9.8387
判	-9.84087
而有	-9.84092
莫能	-9.84127
未得	-9.84127
且置	-9.84136
不以	-9.84201
限	-9.8424
一齊	-9.84319
拈香	-9.84383
惺惺	-9.84388
士曰	-9.84449
直是	-9.84453
烹	-9.84481
手裏	-9.84481
不思議	-9.84515
溫	-9.84535
躍	-9.84591
敷	-9.846
。』	-9.84604
着	-9.84664
四眾	-9.84665
韓	-9.84764
層	-9.8478
幢	-9.84819
唯有	-9.84821
咦	-9.84825
陷	-9.84826
二人	-9.84871
無處	-9.84888
捧	-9.84917
闕	-9.851
之意	-9.8512
既無	-9.85122
便禮拜	-9.85134
攀	-9.85155
稽首	-9.85216
訓	-9.85265
柱	-9.8527
逃	-9.85312
莫不	-9.85326
鼓山	-9.85332
行人	-9.85367
當頭	-9.8537
些子	-9.85392
貞	-9.85426
鴻	-9.85465
午	-9.85541
岐	-9.85561
廬山	-9.8558
叩	-9.85583
柄	-9.85593
緊	-9.85627
祐	-9.85683
是同是別	-9.85687
一語	-9.85707
乍	-9.85744
燄	-9.85787
導	-9.85845
碑	-9.85961
聖賢	-9.85995
不斷	-9.86012
悉皆	-9.86013
往往	-9.86046
僧無對	-9.86049
麗	-9.86061
高峰	-9.86071
茂	-9.86078
責	-9.86102
更不	-9.86161
謙	-9.86184
廬	-9.86347
進云恁麼則	-9.86391
奚	-9.86411
得一	-9.86547
將何	-9.86746
揀	-9.86748
銷	-9.86749
與諸人	-9.86755
例	-9.86786
竪	-9.86794
不忘	-9.8698
採	-9.87004
瞿曇	-9.87023
綱	-9.87116
渴	-9.87127
誓	-9.87175
拈來	-9.87327
之曰	-9.87383
師打云	-9.87465
同參	-9.87578
國土	-9.87578
竭	-9.87681
刃	-9.87717
雖有	-9.87721
安排	-9.87737
台	-9.87763
叢	-9.87854
鄰	-9.87973
泥牛	-9.87976
而出	-9.87991
用處	-9.87994
默然	-9.88
所說	-9.88008
侯	-9.88017
跨	-9.8802
戀	-9.88021
便問	-9.88048
焰	-9.88072
皷	-9.88073
昨	-9.88099
有情	-9.88136
看他	-9.88199
有僧	-9.88259
蟲	-9.8833
伏願	-9.88334
梅花	-9.88417
正法眼藏	-9.88469
之門	-9.88485
杜	-9.88503
無知	-9.88679
派	-9.88698
還見	-9.88787
選	-9.8879
喧	-9.8886
淳	-9.88904
之際	-9.88919
逢人	-9.89175
一步	-9.89255
濁	-9.89263
慢	-9.89285
天王	-9.89291
算	-9.89378
出門	-9.8942
六月	-9.89424
段	-9.89469
得箇	-9.89546
頑	-9.89601
宗乘	-9.8964
闢	-9.89643
竿	-9.89656
寓	-9.89672
欣	-9.89763
贈	-9.89782
有分	-9.89847
可憐	-9.89863
死生	-9.89882
那箇是	-9.89989
凍	-9.89992
應諾	-9.90072
豈可	-9.90181
住山	-9.90197
粟	-9.90205
祗	-9.90333
法性	-9.90402
底麼	-9.9042
準	-9.9053
湧	-9.90644
呵呵大笑	-9.90682
壇	-9.90739
撲	-9.90767
聾	-9.9083
無位真人	-9.90952
倦	-9.90954
人情	-9.91006
申	-9.91028
勉	-9.91041
輸	-9.91085
剖	-9.91127
士云	-9.9113
摸	-9.91138
之下	-9.91171
拖	-9.91174
而逝	-9.9118
繇	-9.91277
可惜	-9.91284
盆	-9.91288
獨露	-9.91344
為法	-9.91354
整	-9.91363
翼	-9.91374
鹽	-9.91395
二年	-9.91415
侶	-9.91457
減	-9.91486
一見	-9.91605
百年	-9.9161
鼠	-9.91652
祈	-9.91827
悟道	-9.91861
必有	-9.91883
千年	-9.91892
卜	-9.91929
十四	-9.91966
族	-9.91983
或有	-9.91991
依然	-9.91994
撞著	-9.92029
階	-9.92118
何妨	-9.92278
惟有	-9.92291
泯	-9.92315
汗	-9.92342
神光	-9.92359
澗	-9.92386
且喜	-9.92421
浦	-9.92445
奮	-9.92553
何以故	-9.92759
詮	-9.92763
泛	-9.92884
豈非	-9.92904
一半	-9.93012
不與	-9.93025
篇	-9.93028
諸仁者	-9.93089
便出	-9.93228
聰	-9.93239
頃	-9.9331
之地	-9.93322
妙用	-9.93342
無門	-9.93412
膝	-9.9346
懺	-9.93479
示眾曰	-9.93591
你諸人	-9.93597
湘	-9.93716
閉	-9.93742
坐禪	-9.93779
邊事	-9.9379
它	-9.93799
疊	-9.9398
孟	-9.94054
束	-9.94151
說得	-9.9416
只在	-9.94168
街	-9.94203
考	-9.94206
個甚麼	-9.94256
歟	-9.94264
慚	-9.94365
他日	-9.94372
測	-9.94425
聲聞	-9.94435
學云	-9.94451
烈	-9.94562
嵩	-9.94588
夜來	-9.94627
緇素	-9.94645
提持	-9.94651
坑	-9.94658
其心	-9.94669
衡	-9.94696
老子	-9.94718
上來	-9.94756
夢中	-9.94759
鴈	-9.9476
陶	-9.94791
此人	-9.94797
從教	-9.94946
鋪	-9.9496
敏	-9.94967
訣	-9.95007
啞	-9.95016
不契	-9.95073
迷悟	-9.95079
攜	-9.95113
嵒	-9.95119
馬大師	-9.95153
不勞	-9.95154
然而	-9.95165
豁然	-9.95165
未是	-9.95208
屢	-9.95215
秉	-9.95233
點頭	-9.95241
嗚呼	-9.9525
逝	-9.95308
裁	-9.9533
記得	-9.95347
未幾	-9.95487
在此	-9.95497
法堂	-9.95545
師乃云	-9.95551
育王	-9.95554
龍象	-9.956
以拂子	-9.95604
个	-9.95639
掀翻	-9.95661
黃梅	-9.95682
巳前	-9.95694
無我	-9.957
鈍	-9.95763
匪	-9.95913
便道	-9.96051
噫	-9.96054
三乘	-9.96065
宅	-9.96095
了無	-9.96119
毋	-9.962
他人	-9.96214
術	-9.96332
三藏	-9.96339
拶	-9.96361
本師	-9.96405
可得	-9.96439
石女	-9.96441
得失	-9.96451
山僧今日	-9.96476
職	-9.96539
旗	-9.96574
汝諸人	-9.96624
知其	-9.96667
蓬	-9.96672
泣	-9.96747
孤負	-9.96756
尊貴	-9.96809
鐵牛	-9.96852
曹	-9.96856
社	-9.96982
無住	-9.97024
杲	-9.97028
鑽	-9.97053
桃	-9.97057
手中	-9.97108
有什麼	-9.97116
康	-9.97182
還見麼	-9.97216
薦取	-9.97288
電	-9.97303
回首	-9.97307
於中	-9.97333
之理	-9.97345
戴	-9.97352
無上	-9.97407
蒲團	-9.97418
你道	-9.97558
主人	-9.97582
箇中	-9.97591
魯	-9.97618
意作麼生	-9.97707
當知	-9.97768
譚	-9.97772
撒手	-9.97814
既不	-9.97839
五十	-9.97848
不被	-9.97862
驅	-9.97878
歸去	-9.97896
還委悉麼	-9.97985
搆	-9.98108
草木	-9.98128
禪客	-9.9814
八十	-9.9815
藤	-9.98163
勇	-9.98248
天下人	-9.98249
賺	-9.98249
槌	-9.98258
寒暑	-9.98309
將軍	-9.98319
眼目	-9.98359
地藏	-9.98394
亦如是	-9.98401
後人	-9.98405
籌	-9.98411
罔	-9.98455
親切	-9.98495
潮	-9.98607
墻	-9.98607
福州	-9.98624
不合	-9.98628
全體	-9.98658
要知	-9.98663
不通	-9.98682
慰	-9.98699
燈籠	-9.98704
格外	-9.9874
陣	-9.98785
須彌山	-9.98846
棹	-9.9887
笠	-9.98876
拄	-9.98879
冀	-9.98912
突出	-9.98937
拾	-9.98948
割	-9.98994
一滴	-9.99024
澹	-9.99035
答云	-9.99062
撞	-9.99105
又如何	-9.99137
失却	-9.99205
此一	-9.99303
曰恁麼則	-9.99319
第一義	-9.99324
要識	-9.99367
堯	-9.99397
釘	-9.99453
是為	-9.99455
今年	-9.99459
示之	-9.99539
看來	-9.99571
足下	-9.99587
要見	-9.99638
見之	-9.99744
不應	-9.99815
世人	-9.99817
始終	-9.99845
分上	-9.99869
次第	-9.99871
摧	-9.99883
紀	-9.99906
眾中	-9.9991
所得	-9.99932
苔	-9.99936
偷	-9.99945
宰	-10.0003
竺	-10.0005
四方	-10.0012
班	-10.0013
陞堂	-10.0024
一笑	-10.0039
飢	-10.0045
式	-10.0053
椎	-10.0053
諸禪德	-10.0059
到家	-10.006
屎	-10.0064
劣	-10.0071
浸	-10.0072
不去	-10.0079
頓悟	-10.0084
千峰	-10.0085
薪	-10.0086
問答	-10.0087
二祖	-10.0087
久之	-10.0088
㵎	-10.0092
次日	-10.0092
蓮花	-10.0096
植	-10.0099
風光	-10.0105
以來	-10.0106
羽	-10.0107
一番	-10.0113
邦	-10.0116
)」】「	-10.0118
策	-10.0119
隨處	-10.0121
明得	-10.0129
沾	-10.0132
青天	-10.0133
西堂	-10.0137
是也	-10.014
翳	-10.014
圍	-10.0141
乃問	-10.0142
喫棒	-10.0144
毗盧	-10.0151
閩	-10.0152
付囑	-10.0157
頭角	-10.0162
弊	-10.0167
荊	-10.0171
十三	-10.0178
鬼神	-10.0188
不肖	-10.0193
你若	-10.0201
圓覺	-10.0201
叅	-10.0203
誑	-10.0204
種子	-10.0206
育	-10.0207
頂門	-10.021
嚼	-10.0213
黃蘗	-10.0217
併	-10.0229
故知	-10.0241
此時	-10.0252
託	-10.0254
十二時中	-10.0257
一身	-10.0258
知解	-10.0259
盜	-10.026
教人	-10.0267
介	-10.0279
透得	-10.0288
平地	-10.029
埋沒	-10.0293
濤	-10.0301
孔子	-10.0308
一物	-10.0313
或云	-10.0316
函	-10.0326
疑情	-10.0328
保福	-10.033
剌	-10.0331
活計	-10.0336
等閑	-10.0338
莫有	-10.0348
樵	-10.0352
奈何	-10.0356
豪	-10.0363
紅爐	-10.0366
賦	-10.037
不恁麼	-10.037
揖	-10.037
瞌睡	-10.0372
本有	-10.0381
萬古	-10.0381
未明	-10.0382
六根	-10.0387
憨	-10.0388
庫	-10.0394
參究	-10.0398
潑	-10.0398
有二	-10.0398
未甞	-10.0404
出頭	-10.0407
風雨	-10.0409
如人	-10.0411
不變	-10.0413
榻	-10.0435
與麼道	-10.0451
窠臼	-10.0452
亦名	-10.0454
役	-10.0456
一曲	-10.0458
將去	-10.0459
纖毫	-10.0469
道德	-10.0472
是否	-10.0475
蘆	-10.0477
踞	-10.0478
六年	-10.0484
無著	-10.0485
休去	-10.049
不待	-10.0492
)。【	-10.0495
悠悠	-10.0496
此間	-10.0502
兜率	-10.0503
謬	-10.0519
無情	-10.052
還他	-10.0521
祖道	-10.0524
放行	-10.0529
同時	-10.0531
石門	-10.0536
見佛	-10.0536
時有	-10.0546
敕	-10.0549
曇	-10.0553
竹篦	-10.0554
若向	-10.0561
明白	-10.0562
即不然	-10.0563
難得	-10.0563
所有	-10.0566
禪者	-10.0576
光陰	-10.0584
非但	-10.0587
為我	-10.0588
是真	-10.0588
輒	-10.0594
輪迴	-10.0608
倍	-10.0612
堂前	-10.0615
茫茫	-10.0621
未見	-10.0623
佛日	-10.063
激	-10.0631
轍	-10.0635
回頭	-10.0636
誰能	-10.0636
無間	-10.0642
十七	-10.0643
最初	-10.0648
剎那	-10.0655
芝	-10.0656
何似	-10.0661
豈不見	-10.0667
盖	-10.0668
效	-10.0669
逍遙	-10.0678
尖	-10.0681
餐	-10.0686
十字街頭	-10.0701
靈雲	-10.0702
未知	-10.0707
罰	-10.0716
迥	-10.0717
若言	-10.0721
魏	-10.0721
溺	-10.0722
一色	-10.0724
近日	-10.0724
十九	-10.0725
便歸方丈	-10.0727
便休	-10.0732
作麼生會	-10.0734
牀	-10.0735
唾	-10.074
金陵	-10.0742
永嘉	-10.0744
大慈	-10.0744
傑	-10.0747
又是	-10.0752
不道	-10.0752
鑿	-10.0754
滄海	-10.0758
若要	-10.0759
泉云	-10.0761
以至	-10.0767
蕭	-10.0774
師拈云	-10.0776
餅	-10.078
二月	-10.0783
隊	-10.0783
諾	-10.0786
發心	-10.0795
懺悔	-10.0795
拾得	-10.0797
弱	-10.0799
完	-10.0799
作麼生道	-10.0811
先聖	-10.0818
落處	-10.0822
眼裏	-10.0824
婦	-10.0824
絃	-10.0824
均	-10.0832
僧堂	-10.0833
十五日	-10.0838
晉	-10.0838
開眼	-10.0839
大丈夫	-10.084
灑	-10.0842
帆	-10.0845
得出	-10.0849
向甚麼處	-10.0862
歷歷	-10.0864
之外	-10.0864
一毫	-10.0867
不消	-10.0871
不負	-10.0872
是則	-10.0874
步步	-10.088
笛	-10.0881
切莫	-10.0881
遷化	-10.0883
胸中	-10.0898
佛眼	-10.0898
炭	-10.0899
紅塵	-10.0912
作什麼	-10.0923
曠	-10.0925
柏	-10.0927
懼	-10.0932
那裏	-10.0934
雖是	-10.0935
料	-10.0936
無依	-10.0938
瘦	-10.0947
涌	-10.0947
何為	-10.0951
頭陀	-10.0954
開法	-10.0957
痕	-10.096
誰敢	-10.0962
也不	-10.0963
之功	-10.097
債	-10.0972
華藏	-10.0975
五位	-10.0977
!	-10.0979
蓮華	-10.0979
獅	-10.098
師翁	-10.0981
鄭	-10.0983
師便	-10.0988
非是	-10.0988
卿	-10.099
苑	-10.0993
斫	-10.0993
剪	-10.1001
不屬	-10.1001
一問	-10.1006
又何	-10.1017
鬧	-10.102
何物	-10.102
心心	-10.1023
域	-10.1024
天上	-10.1026
向甚麼處去	-10.1029
八月	-10.1031
什	-10.1048
闍梨	-10.1048
若非	-10.1051
此中	-10.1057
日日	-10.1058
容易	-10.1062
搭	-10.1066
笑曰	-10.1066
一朝	-10.1068
蒲	-10.1071
莫教	-10.1073
麥	-10.1076
長空	-10.1091
濃	-10.1093
三人	-10.1095
上堂舉	-10.1101
路上	-10.1105
南北	-10.1115
徒勞	-10.1116
毬	-10.1117
即心即佛	-10.1125
忽遇	-10.1125
若以	-10.113
蔽	-10.1139
不開	-10.1143
循	-10.1146
仗	-10.1149
脈	-10.1151
暑	-10.1152
帝釋	-10.1152
解制	-10.1155
了知	-10.1157
羞	-10.1161
看經	-10.1164
削	-10.1166
伹	-10.117
大智	-10.1172
二乘	-10.1173
圓滿	-10.1173
得之	-10.1176
踏著	-10.1176
伽藍	-10.1176
龍潭	-10.1179
自此	-10.1183
末後句	-10.1185
眼中	-10.1187
叔	-10.1191
擁	-10.1195
有言	-10.1195
罕	-10.1199
遍界	-10.12
凌	-10.1206
哲	-10.1207
透脫	-10.1216
斤	-10.122
綿	-10.1222
逈	-10.1223
春色	-10.1224
歲月	-10.1225
恣	-10.1226
聯	-10.1229
輔	-10.1241
巾	-10.1244
三十年後	-10.1245
𨁝跳	-10.1248
聰明	-10.1248
總不	-10.1256
措	-10.1258
雪竇云	-10.1258
之則	-10.1261
牌	-10.1264
大溈	-10.1266
脚下	-10.1268
委悉	-10.127
挽	-10.1273
其間	-10.1276
高聲	-10.1276
禪宗	-10.1282
覽	-10.1284
嗔	-10.1286
作用	-10.1288
諸聖	-10.1316
撐	-10.1317
未了	-10.1324
春秋	-10.1326
名字	-10.1328
此日	-10.1335
好箇	-10.1339
甚處來	-10.1343
男	-10.1345
山下	-10.1351
木人	-10.1351
而生	-10.136
作佛	-10.1362
成道	-10.1362
芙蓉	-10.1369
三句	-10.1377
不要	-10.138
三玄	-10.1385
此經	-10.1391
無數	-10.1405
催	-10.1407
相續	-10.1424
軀	-10.1425
無形	-10.1425
浙	-10.1433
給	-10.1434
紛紛	-10.1436
擒	-10.1443
醜	-10.1444
逞	-10.1447
未到	-10.1449
欄	-10.1454
說破	-10.1455
圓相	-10.1463
髓	-10.1468
言之	-10.1469
五色	-10.1471
硬	-10.1474
問取	-10.1483
姑	-10.1496
呌	-10.1499
事如何	-10.1501
今夜	-10.1502
各有	-10.1505
具眼	-10.151
是知	-10.1514
暴	-10.152
泊	-10.1521
宏	-10.1523
無法	-10.153
撰	-10.153
則無	-10.1531
真淨	-10.1543
得來	-10.1545
林下	-10.1545
絲毫	-10.1547
今人	-10.1549
穢	-10.1549
月明	-10.1557
東林	-10.156
精神	-10.156
初參	-10.1563
如如	-10.1563
三尺	-10.157
防	-10.1578
鎻	-10.1578
剩	-10.1583
落在	-10.1589
蹈	-10.159
因甚麼	-10.1593
知事	-10.1604
貼	-10.1606
行履	-10.1611
堪笑	-10.1614
沒交涉	-10.1615
荊棘	-10.1615
得其	-10.1618
警	-10.1635
明珠	-10.1636
壽昌	-10.1638
之義	-10.1639
為一	-10.164
四句	-10.1653
十分	-10.1658
平常	-10.1658
見其	-10.1659
弓	-10.166
首山	-10.1665
大王	-10.1667
普化	-10.1671
鈎	-10.1671
俄	-10.1675
一旦	-10.1681
便與	-10.1682
是汝	-10.1682
及乎	-10.1684
五臺	-10.1689
窠	-10.1695
逾	-10.1696
物物	-10.1696
向者裏	-10.1702
卓拄杖下座	-10.1702
產	-10.1704
爺	-10.1708
向道	-10.1709
長沙	-10.1713
之者	-10.1713
番	-10.1713
女子	-10.1719
未必	-10.1719
道不得	-10.172
剝	-10.1726
禪和	-10.1727
非有	-10.1737
鍼	-10.1749
卓拄杖	-10.1751
菴主	-10.1758
盞	-10.176
安居	-10.1765
賀	-10.1768
師兄	-10.1769
有人問	-10.1773
無漏	-10.1774
曰和尚	-10.1774
頂上	-10.1778
稀	-10.1779
放出	-10.1785
還識	-10.1786
野狐	-10.1788
底是	-10.1789
底句	-10.179
狐	-10.1793
七十	-10.1799
諭	-10.18
到底	-10.1804
叉手	-10.1804
五月	-10.1804
洎	-10.1809
不惟	-10.1809
全無	-10.1828
不勝	-10.1833
呪	-10.1834
煉	-10.1834
璧	-10.1835
東土	-10.1837
碗	-10.1842
銜	-10.1844
坐具	-10.1848
言說	-10.1852
法席	-10.1856
衛	-10.1856
早是	-10.1858
葬	-10.1863
鑄	-10.1864
藏身	-10.1868
不分	-10.187
師僧	-10.187
輥	-10.1887
大夫	-10.1892
猶在	-10.1893
舜	-10.1899
奈	-10.19
虞	-10.1901
著力	-10.1904
而能	-10.1905
十月	-10.1908
聳	-10.1911
論云	-10.1918
畵	-10.1918
山頭	-10.1921
後學	-10.1922
有個	-10.1922
團	-10.1923
法語	-10.1929
任運	-10.1935
鏡清	-10.1937
途中	-10.1942
明暗	-10.1944
和合	-10.1945
𦦨	-10.1957
師云你	-10.1965
拈花	-10.1971
秋風	-10.1972
萬年	-10.1973
趂	-10.1978
親近	-10.1982
迦	-10.1983
何異	-10.1983
模	-10.1983
)。」【	-10.1989
貧道	-10.1992
言下	-10.1992
虧	-10.1994
作者	-10.1995
粉碎	-10.1998
陰陽	-10.2
被人	-10.2001
何有	-10.2009
千載	-10.2016
老師	-10.2016
做工夫	-10.2017
利益	-10.2019
施主	-10.2019
黃葉	-10.202
誨	-10.2023
快活	-10.2024
故名	-10.2026
慚愧	-10.2027
明年	-10.203
之說	-10.2032
局	-10.2036
自由	-10.205
創	-10.2052
苗	-10.2053
落花	-10.2058
無念	-10.2062
寂寂	-10.2066
四十	-10.2066
籬	-10.207
低頭	-10.2072
說偈曰	-10.2075
瓜	-10.2078
瞋	-10.2082
嘴	-10.2085
悟去	-10.2085
桑	-10.2087
怖	-10.2096
習氣	-10.2097
兆	-10.2099
生涯	-10.2108
而行	-10.2114
本分事	-10.2116
闡	-10.2117
底道理	-10.2118
別人	-10.212
經論	-10.2126
優	-10.213
座下	-10.213
伽	-10.2133
方可	-10.2143
入院	-10.2144
攪	-10.2151
斧	-10.2152
之語	-10.2157
唯心	-10.216
雪山	-10.2162
師以	-10.2163
向上事	-10.2166
樓閣	-10.217
堅固	-10.218
捲	-10.218
嘆	-10.2182
千山	-10.2185
受具	-10.219
與麼則	-10.2194
為眾	-10.2197
龐居士	-10.2199
山川	-10.2202
向這裏	-10.2202
臘月	-10.2203
互相	-10.2203
凡有	-10.2211
意氣	-10.2212
若見	-10.2213
煖	-10.2223
祭	-10.2223
理會	-10.2223
所作	-10.2229
寡	-10.2238
何謂	-10.224
劄	-10.224
縮	-10.2241
偉	-10.2245
蘆花	-10.2245
靡	-10.2248
萬壽	-10.2251
炎	-10.2257
掉	-10.2261
寒山	-10.2262
回互	-10.2271
靈源	-10.2272
路頭	-10.2281
▁|	-10.2281
光中	-10.2282
杭州	-10.2288
見聞覺知	-10.229
新到	-10.2293
一體	-10.2295
一偈	-10.2308
更須	-10.2311
增收	-10.2312
暢	-10.2313
事作麼生	-10.2316
覰	-10.232
竅	-10.2324
年來	-10.2324
捐	-10.2326
一機	-10.2327
師問僧	-10.2328
莖	-10.2331
問道	-10.2332
多年	-10.2335
殆	-10.2338
䇿	-10.2346
且道是	-10.2347
牢	-10.2349
性空	-10.235
偃	-10.2352
立地	-10.2356
評	-10.2358
再來	-10.2366
帳	-10.2367
及至	-10.2368
之以	-10.237
佛心	-10.2374
不失	-10.2387
何況	-10.239
若作	-10.2392
寥寥	-10.2395
訶	-10.2398
翠巖	-10.24
二十五	-10.2401
定慧	-10.2404
不言	-10.2405
庵主	-10.2406
萬劫	-10.241
則有	-10.2412
謂眾曰	-10.2424
而來	-10.2425
動著	-10.2425
心性	-10.2426
俟	-10.2429
龍池	-10.2431
鈍置	-10.2433
亦可	-10.2438
本自	-10.2438
天真	-10.2444
不露	-10.2448
下語	-10.2448
國王	-10.2451
恰	-10.2453
朕	-10.2454
幾箇	-10.2454
根源	-10.2454
阿師	-10.2456
僧便喝	-10.2456
二俱	-10.2457
四十九年	-10.2461
今之	-10.2462
安心	-10.2462
不悟	-10.2463
不到處	-10.2464
得法	-10.2475
半夜	-10.2476
真空	-10.2478
還是	-10.2487
眾人	-10.2493
濫	-10.2494
庭前	-10.2499
個個	-10.2499
師遂	-10.25
慧命	-10.2501
一大藏教	-10.2501
之性	-10.2501
不求	-10.2503
十一	-10.2507
入道	-10.2508
腦後	-10.2509
是你	-10.251
康熙	-10.2512
呵呵	-10.2516
諸上座	-10.252
棒喝	-10.2522
青原	-10.2524
靠	-10.2533
對眾	-10.2538
悟入	-10.2546
古德云	-10.2548
八萬四千	-10.2551
畜	-10.2554
偽	-10.2555
替	-10.2558
行住坐臥	-10.2559
被他	-10.2564
禾	-10.2565
為諸人	-10.2566
卦	-10.2568
不因	-10.2572
門戶	-10.2576
如何是道	-10.2578
舉起	-10.2578
麟	-10.2579
嵩山	-10.2582
也要	-10.2584
漁	-10.2584
泐潭	-10.2587
西山	-10.2589
新羅	-10.2591
生也	-10.2602
爭得	-10.2612
劈	-10.2614
以何為	-10.2621
同安	-10.2624
逮	-10.2628
築	-10.263
五年	-10.2631
太子	-10.2636
瓦礫	-10.264
理事	-10.2641
幾人	-10.2642
須臾	-10.2646
三門	-10.2648
猛虎	-10.2652
傳燈	-10.2654
大愚	-10.2666
収	-10.2666
在這裏	-10.2672
滋	-10.2673
說甚	-10.268
得恁麼	-10.2681
鷄	-10.2683
心法	-10.2684
古鏡	-10.2685
法華經	-10.2687
特為	-10.2688
努力	-10.269
岑	-10.2694
乞師	-10.2696
不可思議	-10.2701
吾師	-10.2705
有異	-10.2707
儻	-10.2709
卷之	-10.2711
裝	-10.272
船子	-10.272
梓	-10.2721
來者	-10.2724
鉗鎚	-10.2727
描	-10.2728
綱宗	-10.273
文章	-10.273
受戒	-10.2735
鋤	-10.2737
正當	-10.2749
滲漏	-10.2753
廿	-10.2753
几	-10.2754
縱有	-10.2755
雁	-10.2757
祿	-10.2764
臻	-10.2768
峰云	-10.2768
突	-10.2769
識取	-10.2776
手眼	-10.2777
壓	-10.2778
有大	-10.2779
水中	-10.2779
端坐	-10.2781
之有	-10.2783
仁者	-10.2791
試問	-10.2792
衲僧家	-10.2793
一如	-10.2798
從頭	-10.2803
不留	-10.2812
幾度	-10.2813
藍	-10.2816
邁	-10.2823
自從	-10.283
臨終	-10.2835
出氣	-10.2835
天下老和尚	-10.2845
霄	-10.285
州曰	-10.2852
祖佛	-10.2852
而自	-10.2854
答話	-10.2856
繡	-10.2856
瑞巖	-10.2857
漆桶	-10.2859
有為	-10.2864
菊	-10.2865
而成	-10.2868
棒頭	-10.2869
旬	-10.2872
喝一喝下座	-10.2881
無疑	-10.2883
鞋	-10.2885
上堂僧問	-10.2886
觀之	-10.2886
正當恁麼時	-10.2887
白日	-10.289
本色	-10.2891
七月	-10.2891
向汝道	-10.2891
而立	-10.2896
知之	-10.2901
陞	-10.2906
二字	-10.2913
副	-10.2915
嗣法門人	-10.2916
篤	-10.2919
撫掌	-10.2933
棺	-10.2937
爽	-10.2942
意旨	-10.2944
天人	-10.2944
何時	-10.2945
崑崙	-10.2946
向上一路	-10.295
灼然	-10.2953
唯識	-10.2958
詠	-10.296
科	-10.2965
子孫	-10.2975
二老	-10.2978
集眾	-10.2982
百億	-10.2982
雲棲	-10.2985
王老師	-10.2985
芥	-10.2986
有此	-10.2992
漚	-10.2992
橫身	-10.2995
訛	-10.3001
昭覺	-10.3005
庸	-10.3006
子細	-10.3013
僅	-10.3015
而退	-10.3026
架	-10.3027
汝若	-10.3028
每日	-10.3037
世之	-10.3038
四月	-10.3041
殷勤	-10.3042
此道	-10.3047
一事	-10.305
黃河	-10.3053
斑	-10.3054
三更	-10.3055
幾時	-10.3058
向前	-10.306
眷屬	-10.3064
男女	-10.3066
無始	-10.3067
水流	-10.3071
譽	-10.3084
不墮	-10.3085
人來	-10.3086
佛果	-10.3089
焦	-10.3093
出沒	-10.3095
北斗	-10.3099
必須	-10.31
殊勝	-10.3103
詎	-10.3105
管取	-10.3106
吾宗	-10.3113
本心	-10.3115
有僧問	-10.3116
是我	-10.3117
欲得	-10.3124
根塵	-10.3127
咨	-10.3127
腳跟	-10.3129
九月	-10.3129
施設	-10.3133
問著	-10.3137
飜	-10.3144
材	-10.3145
心印	-10.3153
禽	-10.3153
水牯牛	-10.3156
好手	-10.3157
變化	-10.3164
久立	-10.3166
遊戲	-10.3167
久矣	-10.317
寢	-10.3175
衫	-10.3179
不見有	-10.3184
隨機	-10.3184
雲水	-10.3185
禪定	-10.3185
疲	-10.319
為師	-10.3193
放光	-10.3197
酸	-10.3198
師因	-10.32
蹄	-10.3203
秘	-10.3215
面壁	-10.3223
極樂	-10.3225
安得	-10.3227
臨機	-10.3228
樹下	-10.323
與師	-10.3234
膺	-10.3234
且莫	-10.3236
廟	-10.3239
鄙	-10.3239
不向	-10.3242
無性	-10.3246
之相	-10.3246
孚	-10.325
示現	-10.3252
經行	-10.3258
閙	-10.3268
怎	-10.3273
許你	-10.3276
寶壽	-10.3277
峰曰	-10.3278
滑	-10.3283
主人公	-10.3283
無餘	-10.3287
晤	-10.3288
第六	-10.3288
撼	-10.329
一期	-10.3291
纖	-10.3291
喚甚麼作	-10.3293
脚跟下	-10.3294
畜生	-10.3295
挺	-10.3297
犬	-10.3301
不知有	-10.3301
如幻	-10.3301
直截	-10.3302
湛然	-10.3303
一年	-10.3304
在者裏	-10.3308
五蘊	-10.331
楔	-10.3312
南無	-10.3312
寶藏	-10.3312
而化	-10.3317
厥	-10.3317
却是	-10.3318
法道	-10.332
咎	-10.3321
豆	-10.3325
正令	-10.333
災	-10.3332
欲識	-10.3338
粗	-10.3342
鱗	-10.3344
太虛	-10.3346
實無	-10.3347
翰	-10.3352
山水	-10.3352
陛下	-10.3354
天龍	-10.3356
師之	-10.3356
機鋒	-10.336
饒舌	-10.3361
曷	-10.3364
出得	-10.3371
舉前話	-10.3371
瑩	-10.3372
只有	-10.3379
僊	-10.3381
太虗	-10.3384
炬	-10.339
毗	-10.3405
又有	-10.3409
豈是	-10.3411
暇	-10.3413
傲	-10.3417
這般	-10.342
誘	-10.3422
獄	-10.3422
只管	-10.3427
猶有	-10.3429
全機	-10.3434
譬	-10.3435
不取	-10.3439
從他	-10.3439
拈拄杖曰	-10.3442
確	-10.3442
直教	-10.3447
深山	-10.3448
道無	-10.345
觸著	-10.3451
為甚麼不	-10.3453
夜深	-10.3463
父母未生前	-10.3463
不犯	-10.3472
如來藏	-10.3474
說偈	-10.3476
尚書	-10.3476
緇	-10.348
布施	-10.3489
琉璃	-10.3496
得度	-10.35
衢	-10.3503
信心	-10.3512
蜜	-10.3515
依前	-10.3516
空花	-10.3517
稜	-10.3518
師舉	-10.3518
恰似	-10.3524
出去	-10.3525
年年	-10.3529
鈴	-10.3535
干戈	-10.3539
一頓	-10.3548
牛頭	-10.356
師於	-10.3567
浩	-10.3567
白雲端	-10.3569
而得	-10.3571
圜	-10.3573
善根	-10.3575
便知	-10.3575
杳	-10.3576
火裏	-10.3578
自古	-10.3582
去年	-10.3582
不惜	-10.3583
惺	-10.3583
昂	-10.3587
喝一喝曰	-10.3588
項	-10.359
別云	-10.3591
檗	-10.3596
隻	-10.3596
鬥	-10.3603
妻	-10.3608
宛	-10.361
設齋	-10.3611
看取	-10.3617
拍手	-10.3621
郭	-10.3623
滴	-10.3627
蔣山	-10.3628
諸兄弟	-10.3629
涕	-10.3633
天涯	-10.3636
真性	-10.364
無一法	-10.364
梢	-10.3643
元年	-10.3644
芽	-10.3648
水月	-10.3649
山前	-10.365
真正	-10.3651
了了	-10.3652
死心	-10.3655
侍郎	-10.3655
起來	-10.3664
N	-10.367
本源	-10.3676
允	-10.3684
龍牙	-10.3684
磚	-10.3696
巳是	-10.3699
人事	-10.3703
無能	-10.3704
此土	-10.3706
使人	-10.3713
帽	-10.3714
師一日	-10.3717
命根	-10.3719
威音	-10.3723
萬仞	-10.3724
屑	-10.3725
蔭	-10.3725
意識	-10.3727
茆	-10.3727
坦	-10.3735
風月	-10.3736
石上	-10.3737
有眼	-10.3739
常在	-10.3744
爾時	-10.3744
亦復如是	-10.3745
虎丘	-10.3745
元是	-10.3746
捏	-10.3749
也得	-10.3749
且作麼生	-10.375
歎曰	-10.3753
龜毛	-10.3753
研	-10.3754
未出	-10.3759
壺	-10.3762
於心	-10.3763
有道	-10.3763
爻	-10.3764
蕩蕩	-10.3777
懇	-10.378
臨時	-10.378
殃	-10.3782
佛言	-10.3792
不定	-10.3793
亦然	-10.3793
燦	-10.3794
恁麼會	-10.3795
觸處	-10.3797
縫	-10.3801
於人	-10.3802
人心	-10.3804
的的	-10.3806
向他道	-10.3806
糧	-10.3809
不復	-10.381
下手	-10.3812
諸公	-10.3815
色身	-10.3815
十地	-10.3821
籃	-10.3821
摘	-10.3822
玲瓏	-10.3822
一夜	-10.3823
樞	-10.3824
龍華	-10.3826
磬	-10.3827
領眾	-10.3827
若謂	-10.383
伐	-10.3831
西來意	-10.3834
人皆	-10.3837
之志	-10.3839
小乘	-10.3844
若知	-10.3844
歸家	-10.3845
極則	-10.3845
三拜	-10.3846
未在	-10.3847
一夕	-10.3848
師在	-10.3848
眾僧	-10.3849
牆	-10.385
見麼	-10.3851
威儀	-10.3853
歸依	-10.3857
峯云	-10.3858
自謂	-10.3862
污	-10.387
監院	-10.3871
所在	-10.3875
一道	-10.3879
於斯	-10.3879
驀拈拄杖	-10.3882
取捨	-10.3886
龐公	-10.3886
甜	-10.3887
讚歎	-10.3889
錯過	-10.3891
一百	-10.3897
其事	-10.3898
携	-10.3905
毘盧	-10.3918
亮	-10.3918
日出	-10.3919
和尚云	-10.3922
斥	-10.3922
仔細	-10.3923
垂手	-10.3923
不管	-10.3937
歸堂	-10.394
練	-10.394
)○	-10.3946
山色	-10.3947
不下	-10.3948
踢	-10.396
儼然	-10.3961
本性	-10.3961
瞎漢	-10.3961
滋味	-10.3964
皆有	-10.3967
萬象森羅	-10.3967
出現	-10.3968
勒	-10.3968
能知	-10.3969
不行	-10.3969
飾	-10.3972
。【	-10.3973
心中	-10.3973
上堂曰	-10.3976
杯	-10.3976
普說	-10.3977
天明	-10.398
腦	-10.3986
我若	-10.3987
又如	-10.3988
一轉語	-10.3998
只知	-10.3998
還知麼	-10.4
休歇	-10.4
禪床	-10.4002
哮吼	-10.4003
一處	-10.4004
跪	-10.4006
有心	-10.4006
秉拂	-10.4008
巡	-10.4008
肥	-10.401
唇	-10.4016
願力	-10.4019
芭蕉	-10.4021
甫	-10.4021
這一	-10.4024
而至	-10.4024
蘇州	-10.4025
鬚	-10.4027
歛	-10.4027
不礙	-10.4029
處麼	-10.4034
琦	-10.4043
老胡	-10.4043
玄妙	-10.4047
相傳	-10.4047
有三	-10.4052
以前	-10.4054
區區	-10.4057
塊	-10.4061
之句	-10.4061
如是則	-10.4066
訖	-10.4066
汝今	-10.4068
九年	-10.4068
光輝	-10.4071
正宗	-10.4074
而已	-10.4077
無一物	-10.4079
卜度	-10.4081
月落	-10.4086
門曰	-10.4091
為君	-10.4092
進前	-10.4093
膠	-10.4093
諸天	-10.4098
和尚道	-10.4099
典座	-10.4101
故有	-10.4101
門中	-10.4103
籍	-10.4103
享	-10.4104
推倒	-10.4109
超然	-10.4113
偕	-10.4119
無物	-10.4124
中道	-10.4125
音聲	-10.4128
不存	-10.4129
一種	-10.413
爪	-10.4132
凋	-10.414
誡	-10.4143
肚	-10.4144
護國	-10.4145
促	-10.4148
係	-10.4149
在甚處	-10.4149
巳後	-10.4153
阿呵呵	-10.4159
原來	-10.4163
設有	-10.4164
彥	-10.4167
施為	-10.4168
教外別傳	-10.4171
瓊	-10.4172
焚香	-10.4178
禪寺	-10.4179
拈香云	-10.4179
便宜	-10.4181
夫人	-10.4183
沙云	-10.4191
手段	-10.4194
圓融	-10.4195
諳	-10.4199
第七	-10.4203
獵	-10.4205
面門	-10.4206
踰	-10.4206
擔荷	-10.4207
便乃	-10.4211
憲	-10.4212
便能	-10.4214
埽	-10.4216
尸	-10.4217
非心非佛	-10.4218
岫	-10.422
不善	-10.4224
業識	-10.4225
之妙	-10.4233
幾多	-10.4235
以其	-10.4236
流出	-10.4238
乾屎橛	-10.4238
白椎	-10.4242
氣息	-10.4244
囉	-10.4246
不欲	-10.4247
昔年	-10.4247
不借	-10.4249
茫然	-10.4257
大蟲	-10.4264
之力	-10.4266
非真	-10.4267
卓拄杖曰	-10.4274
即不無	-10.4276
簷	-10.4277
乏	-10.4277
罔措	-10.4287
末法	-10.4291
萬峰	-10.43
修證	-10.43
不滅	-10.4301
一口	-10.4302
復何	-10.4302
進步	-10.4305
萬事	-10.4306
文殊普賢	-10.4309
一掌	-10.4311
為僧	-10.4313
不打	-10.4315
峰頂	-10.4319
佩	-10.4324
所知	-10.4324
當處	-10.4326
拂袖	-10.4326
盡情	-10.4326
無字	-10.4326
第十	-10.4327
來日	-10.4327
此身	-10.4334
時有僧問	-10.4335
諸祖	-10.4338
凉	-10.4341
匠	-10.4343
達磨大師	-10.4346
祖意	-10.4348
我也	-10.435
書記	-10.435
玩	-10.4351
緩	-10.4356
甚麼處	-10.4357
高低	-10.4358
擊碎	-10.4362
便去	-10.4363
得此	-10.437
扇子	-10.4371
一句子	-10.4372
指出	-10.4374
深處	-10.4375
阻	-10.4377
挈	-10.4382
作舞	-10.4388
事理	-10.4395
觸目	-10.4398
禱	-10.4398
四時	-10.4402
枷	-10.4403
正法眼	-10.4406
脚跟	-10.4407
獨步	-10.4408
夾	-10.4411
好惡	-10.4413
襲	-10.4414
峭	-10.4414
機關	-10.442
名曰	-10.4422
向後	-10.4424
豈能	-10.4428
穀	-10.4429
峰頭	-10.4435
爆	-10.4441
無路	-10.4447
不遷	-10.4448
無差	-10.445
恢	-10.446
檢點將來	-10.446
可見	-10.4461
打鼓	-10.4461
明心	-10.4462
空寂	-10.4464
揑	-10.4464
灌	-10.4465
妖	-10.4467
師與	-10.4472
曾到	-10.4473
先德	-10.4482
巴	-10.4484
主賓	-10.4485
霹靂	-10.4489
者乎	-10.4489
盡道	-10.4491
禮謝	-10.4495
芒	-10.4496
名相	-10.4499
若欲	-10.4501
則知	-10.4502
恃	-10.4502
希有	-10.4508
與之	-10.4509
喝云	-10.4509
一隻	-10.451
薰	-10.4518
但有	-10.452
能所	-10.4521
當面	-10.4529
金烏	-10.4529
桶	-10.4533
監	-10.4533
問話	-10.4534
象王	-10.4536
印可	-10.4537
應須	-10.4542
如水	-10.4542
湖南	-10.4542
千萬	-10.4544
驚起	-10.4544
什摩	-10.4548
不隔	-10.455
圓成	-10.4551
緣起	-10.4552
法輪	-10.4555
雲山	-10.4556
瞎驢	-10.4556
恒沙	-10.456
我亦	-10.4563
無佛	-10.4564
初心	-10.4567
明眼	-10.4567
為復	-10.4568
幹	-10.4571
肆	-10.4573
法中	-10.4574
作主	-10.4575
驀然	-10.4575
之徒	-10.4576
喫茶去	-10.4579
早巳	-10.4579
痛棒	-10.4581
千差	-10.4583
老婆	-10.4583
教中	-10.4584
憤	-10.4585
免得	-10.4585
莫將	-10.4587
盡力	-10.4588
一眾	-10.4589
便請	-10.4589
睛	-10.4592
薦福	-10.4595
就中	-10.4596
天目	-10.4599
明星	-10.4604
大機	-10.4609
曹洞	-10.4609
無一	-10.4609
蘿	-10.461
宵	-10.461
𦘕	-10.4614
也有	-10.4614
韶	-10.4618
爪牙	-10.4618
呂	-10.4619
塵塵	-10.4628
驢年	-10.4632
衣鉢	-10.4633
那堪	-10.4635
未盡	-10.4638
塘	-10.464
巒	-10.4644
駭	-10.4646
生緣	-10.4646
掣	-10.4649
心境	-10.4649
第一座	-10.4651
抹	-10.4659
識者	-10.466
迸	-10.4662
廓然	-10.4666
天界	-10.467
忻	-10.4674
吉祥	-10.4674
汝道	-10.468
亦如	-10.4684
古人云	-10.4687
物外	-10.4688
桐	-10.469
行道	-10.469
曰我	-10.4694
龍王	-10.4695
出山	-10.4696
遠近	-10.4702
吏	-10.4702
在我	-10.4702
奇哉	-10.4702
刺	-10.4708
二三	-10.4713
一分	-10.4717
好與	-10.4725
0	-10.4728
誰家	-10.4732
矢	-10.4733
洪州	-10.4734
小兒	-10.4738
搜	-10.4741
地上	-10.4745
以偈	-10.4746
密密	-10.4747
心外	-10.475
五日	-10.4751
農	-10.4764
了不可得	-10.4766
一卷	-10.4774
我不	-10.4774
齡	-10.4776
說甚麼	-10.4779
罪過	-10.4782
在裏許	-10.4784
溈	-10.4788
頹	-10.4798
誰人	-10.4798
見一	-10.4798
逆順	-10.4801
丈室	-10.4804
予曰	-10.4806
鉢盂	-10.4807
僧參	-10.4808
一二	-10.4809
山林	-10.4811
南院	-10.4812
曹谿	-10.4814
煞	-10.4814
二六時中	-10.4817
都是	-10.4817
瘡	-10.4818
這箇是	-10.4822
剎竿	-10.4823
看破	-10.4824
道流	-10.4827
笻	-10.4831
金山	-10.4831
更問	-10.4836
承天	-10.484
員	-10.4848
巍巍	-10.4851
祖庭	-10.4853
靈光	-10.4854
至此	-10.4858
森羅萬象	-10.486
陋	-10.4867
這老漢	-10.4872
其道	-10.4875
王子	-10.4875
娘	-10.4876
體用	-10.4876
五湖	-10.4878
之本	-10.4878
回向	-10.4883
自得	-10.4884
未徹	-10.4884
霽	-10.4884
錯會	-10.4885
作何	-10.4885
巴鼻	-10.4892
沖	-10.4893
相看	-10.4894
款	-10.4895
山野	-10.4895
瞥	-10.4899
二者	-10.49
濟云	-10.4904
法幢	-10.4908
認得	-10.4912
纔見	-10.4918
滅度	-10.4919
)(	-10.492
未可	-10.4921
入塔	-10.4926
退後	-10.4928
莫怪	-10.4929
舍利弗	-10.4932
恠	-10.4938
詢	-10.4939
十方世界	-10.4942
洛浦	-10.4943
一線	-10.4944
缽盂	-10.4954
信手拈來	-10.4955
晦堂	-10.4965
思之	-10.4966
緒	-10.4968
恭惟	-10.4968
娑婆	-10.497
為他	-10.4971
好與三十棒	-10.4975
盡大地	-10.4983
切音	-10.4986
鴉	-10.4994
不破	-10.4998
祝聖	-10.4999
開悟	-10.5004
筵	-10.5006
即便	-10.5011
十里	-10.5011
襟	-10.5019
無聞	-10.502
海底	-10.5023
羨	-10.5026
惱	-10.5027
則不	-10.5027
者多	-10.5033
革	-10.5035
皆為	-10.5035
觀心	-10.5042
不辨	-10.5045
之恩	-10.5047
卑	-10.5049
知客	-10.5055
相公	-10.5055
坤	-10.5057
臨行	-10.5059
性相	-10.506
亘	-10.5061
衍	-10.5061
是心	-10.5063
言訖	-10.5064
崩	-10.5065
邀	-10.5067
腳下	-10.5068
了然	-10.507
事事	-10.5072
狼藉	-10.5074
隨後	-10.5076
歷劫	-10.5076
徹骨	-10.5081
第四	-10.5084
喪身失命	-10.5091
帖	-10.5094
進曰	-10.5095
<	-10.5102
i	-10.5102
m	-10.5102
g	-10.5102
:>	-10.5102
蒸	-10.5103
把定	-10.5115
江上	-10.5117
波濤	-10.5118
知是	-10.5118
在手	-10.5119
隨時	-10.5131
石人	-10.5131
是甚麼人	-10.5134
便有	-10.5141
無過	-10.5145
堂上	-10.5147
扶起	-10.5149
子曰	-10.5151
而非	-10.5166
雕	-10.517
宰官	-10.5177
此乃	-10.518
綻	-10.5181
殷	-10.5184
檢點	-10.5185
聖僧	-10.5187
豎起	-10.5189
只這	-10.5197
同行	-10.5206
莫測	-10.521
金輪	-10.5216
諸緣	-10.522
何在	-10.522
醍醐	-10.5222
概	-10.5226
門頭	-10.5229
師指	-10.5231
却來	-10.5233
煎	-10.5235
葉落	-10.5245
暨	-10.5249
烏龜	-10.5258
翫	-10.5262
投機	-10.5262
師至	-10.5266
暉	-10.5266
髻	-10.5269
借問	-10.5272
雀	-10.5277
此一瓣香	-10.5277
第五	-10.5279
在何處	-10.5291
根器	-10.5291
護持	-10.5292
長短	-10.5293
英雄	-10.5293
皇帝	-10.5296
朽	-10.5298
靈巖	-10.53
獸	-10.5302
藏主	-10.5306
夢幻	-10.531
夫子	-10.5317
不死	-10.5318
一切人	-10.5321
資福	-10.5323
狗子	-10.5327
正因	-10.5333
筭	-10.5333
本是	-10.5336
不論	-10.5348
巖前	-10.5349
波斯	-10.5351
九峰	-10.5352
刊	-10.5354
第八	-10.5358
一拶	-10.5359
箇事	-10.536
方外	-10.5362
拱	-10.5366
鱉	-10.5366
此意	-10.5368
歷代祖師	-10.5372
三種	-10.5376
株	-10.5377
隣	-10.5377
者漢	-10.5382
之謂	-10.5383
觜	-10.5383
為你	-10.5384
馬師	-10.5384
作活計	-10.5386
他家	-10.5388
事若何	-10.5389
大人	-10.5391
方能	-10.5392
鹽官	-10.5399
後世	-10.54
教伊	-10.54
收拾	-10.5401
潭州	-10.5403
其餘	-10.5403
雙林	-10.5406
召大眾云	-10.5406
洛	-10.5407
契悟	-10.541
無說	-10.5413
月下	-10.5414
大好	-10.5414
正覺	-10.542
不巳	-10.542
出眾	-10.5424
捷	-10.5425
儔	-10.5425
金剛經	-10.5428
海門	-10.5428
咒	-10.5431
盂	-10.5432
把手	-10.5435
三載	-10.5436
俱胝	-10.5438
諍	-10.5439
來問	-10.544
萌	-10.5443
相對	-10.5449
有問	-10.5454
之流	-10.5454
轉大法輪	-10.5457
甕	-10.5458
齩	-10.546
冤家	-10.5461
會取	-10.5463
提撕	-10.5464
心不	-10.5466
渾身	-10.5469
課	-10.5481
流轉	-10.5482
不安	-10.5486
滿地	-10.5487
三百	-10.5492
嶮	-10.5493
贓	-10.5493
入堂	-10.5494
若干	-10.5496
詰	-10.5497
》	-10.5498
《	-10.5498
鳥道	-10.5499
即有	-10.5501
贊曰	-10.5507
驀地	-10.5509
綴	-10.5511
羹	-10.5512
四年	-10.5513
任他	-10.5514
諸山	-10.5516
飲食	-10.5516
聞者	-10.5518
挾	-10.552
心如	-10.5522
織	-10.5524
俯	-10.5526
吞却	-10.5526
無以	-10.5527
償	-10.5529
叱	-10.5534
煙霞	-10.5536
曆	-10.5536
師資	-10.5543
無他	-10.555
直至	-10.5552
不列章次	-10.5554
不傳	-10.557
持戒	-10.5572
視之	-10.5576
請問	-10.558
征	-10.5583
不遠	-10.5584
證據	-10.5584
攻	-10.5586
奉為	-10.5591
勇猛	-10.5592
明州	-10.5598
穎	-10.5599
若論此事	-10.5601
吹毛	-10.5605
瑤	-10.5607
還曾	-10.5608
春光	-10.5611
有口	-10.5612
煮	-10.5612
栖	-10.562
兩序	-10.5622
萬機	-10.5624
法座	-10.5625
傳法	-10.563
道我	-10.5633
得力	-10.5636
祕	-10.5636
透過	-10.5636
廊	-10.5638
却問	-10.5638
橛	-10.564
說禪	-10.5642
知歸	-10.5642
擲下	-10.5646
粒	-10.5655
紹興	-10.5656
靈骨	-10.566
曰汝	-10.5663
遁	-10.5671
大方	-10.5675
言詮	-10.5678
覷破	-10.5678
一輪	-10.5688
一下云	-10.5689
豎拂子云	-10.5698
萬行	-10.5705
曰某甲	-10.5706
屋裏	-10.5706
寂寥	-10.5708
柰	-10.5711
火燒	-10.5712
閻浮	-10.5713
而不能	-10.5716
出身	-10.5721
生生	-10.5722
翻成	-10.5723
風動	-10.5724
輿	-10.5725
語話	-10.5726
不似	-10.5728
孤峰	-10.5728
恁麼去	-10.5732
擲下拄杖	-10.5732
蜂	-10.5734
但能	-10.5738
隅	-10.574
佛國	-10.5742
挨	-10.5743
死人	-10.5744
葛	-10.5745
山高	-10.5748
波瀾	-10.5748
空劫	-10.5752
眼見	-10.5752
蒼天蒼天	-10.5759
提唱	-10.5764
踏破	-10.5767
來去	-10.5767
亦云	-10.5767
正偏	-10.5768
嗣法	-10.5775
不退	-10.5777
栴檀	-10.5778
別無	-10.5778
態	-10.578
腳跟下	-10.5782
一乘	-10.5783
日輪	-10.5783
其實	-10.5785
兩手	-10.5785
黨	-10.5786
塵中	-10.5788
來時	-10.5789
法者	-10.5789
轉法輪	-10.579
合作麼生	-10.5791
沸	-10.5792
著眼	-10.5793
摩尼	-10.5794
丞相	-10.5799
自生	-10.58
君臣	-10.5801
世出世間	-10.5804
羅山	-10.5807
有何言句	-10.5808
為什麼不	-10.5812
玉泉	-10.5819
出來道	-10.5825
太守	-10.5826
坡	-10.5827
之日	-10.5832
版	-10.5833
綸	-10.5837
實有	-10.5838
三千里外	-10.5845
淮	-10.5846
忽有	-10.585
儉	-10.5853
卸	-10.5855
江湖	-10.5856
不辭	-10.5857
辨得	-10.5858
爇	-10.5858
于此	-10.5865
蹤跡	-10.5866
微笑	-10.5867
爇向爐中	-10.5869
甚麼人	-10.588
以杖	-10.5885
秤	-10.5887
向你道	-10.5892
不得巳	-10.5892
嘯	-10.5894
山谷	-10.5897
千秋	-10.5898
得入	-10.5902
大眾且道	-10.5904
垂示	-10.5907
解制上堂	-10.5909
魚龍	-10.5911
製	-10.5912
主云	-10.5916
方得	-10.5916
七佛	-10.5918
熙	-10.5919
僻	-10.592
無錄	-10.5921
婬	-10.5921
六塵	-10.5926
直至如今	-10.5928
小人	-10.5929
玄關	-10.5931
上樹	-10.5932
毘	-10.5933
佛說	-10.5933
何勞	-10.5935
向甚處	-10.5936
栢	-10.5939
設使	-10.594
此法	-10.5947
當初	-10.5948
大梅	-10.5948
道將一句來	-10.5948
裔	-10.595
陽春	-10.5951
對面	-10.5951
語句	-10.5953
師子吼	-10.5959
苦行	-10.596
健	-10.5962
河沙	-10.5962
毛孔	-10.5965
安能	-10.5966
昔有	-10.5971
去也師云	-10.5973
當時若	-10.5979
不審	-10.5983
執事	-10.5984
昆	-10.5989
葫蘆	-10.5989
官人	-10.5991
近離甚處	-10.5991
與佛	-10.5994
本覺	-10.5994
入定	-10.5998
太陽	-10.5999
男兒	-10.6
功勳	-10.6003
我有	-10.6007
欣然	-10.6009
還我	-10.6011
即不	-10.6015
若不是	-10.6016
龍蛇	-10.6018
之名	-10.6018
見人	-10.6022
師復	-10.6023
余曰	-10.6023
少年	-10.6023
永明	-10.6025
帀	-10.6029
入海	-10.6031
如何是學人	-10.6031
撈	-10.6032
獨坐	-10.6034
造化	-10.6037
何能	-10.6037
玄旨	-10.6037
同歸	-10.6043
未聞	-10.6045
世諦	-10.6046
王曰	-10.6046
無作	-10.6051
庶幾	-10.6052
鍊	-10.6054
撮	-10.6063
翠微	-10.6064
受業	-10.6065
東風	-10.6066
影裏	-10.6066
軌	-10.6068
邈	-10.6068
浮雲	-10.607
邪正	-10.6072
泉曰	-10.6072
廝	-10.6076
梨	-10.6078
宗鏡	-10.608
叉	-10.6084
十日	-10.6084
爭似	-10.6084
鎔	-10.6093
奧	-10.6095
虎頭	-10.6096
狹	-10.6098
△	-10.6099
福田	-10.61
神鼎	-10.61
福嚴	-10.61
聽法	-10.6101
非常	-10.6103
震旦	-10.6112
洋	-10.6113
瓢	-10.6119
口裏	-10.6121
巖曰	-10.6125
隱顯	-10.6126
顢頇	-10.6131
百尺竿頭	-10.6131
保寧	-10.6134
剗	-10.6138
保寧勇	-10.6138
皆從	-10.6144
曰不會	-10.6146
古之	-10.6146
授記	-10.6146
訥	-10.6147
示人	-10.6154
女人	-10.6158
掀	-10.6159
大藏	-10.6159
碓	-10.6162
秖如	-10.6167
我見	-10.6167
片片	-10.6167
我心	-10.6169
擘	-10.6169
屙	-10.6173
無縫塔	-10.6178
機用	-10.6182
六道	-10.6184
不是心不是佛不是物	-10.6185
故也	-10.6185
擾	-10.6188
恁麼來	-10.6195
五祖演	-10.6196
復有	-10.6196
去住	-10.6197
慧日	-10.6199
踐	-10.6201
磬山	-10.6203
青州	-10.6204
方始	-10.6205
即無	-10.6209
多少人	-10.621
道著	-10.6211
是個	-10.6213
匡	-10.6214
公之	-10.6221
往生	-10.6224
大地山河	-10.6228
竝	-10.6233
鎚	-10.6234
衲僧門下	-10.6234
此去	-10.6234
缾	-10.6237
愍	-10.624
餓	-10.6243
邪見	-10.6244
亦乃	-10.6245
師聞	-10.6247
是時	-10.6249
從何	-10.6249
爍	-10.6251
五更	-10.6252
華嚴經	-10.6254
能仁	-10.6258
掃地	-10.626
一莖	-10.626
正月	-10.6264
向什麼處	-10.6265
太白	-10.6265
勵	-10.6265
佛道	-10.6265
古路	-10.6266
三箇	-10.6272
人生	-10.6272
生於	-10.6273
且如	-10.6273
錯認	-10.6274
頷之	-10.6279
軸	-10.628
得見	-10.628
咲	-10.6283
遊方	-10.6283
師即	-10.6287
人前	-10.6289
猜	-10.6292
一隊	-10.6293
龐	-10.6293
譯	-10.6297
麻谷	-10.6298
霑	-10.6301
會中	-10.6301
為甚麼却	-10.6302
萬曆	-10.6303
拄杖云	-10.6305
校	-10.6306
千佛	-10.631
者般	-10.6311
云我	-10.6312
開爐	-10.6314
初住	-10.6315
拳頭	-10.6316
從今	-10.6316
若問	-10.6316
筋	-10.6319
之用	-10.632
來處	-10.6323
一粒	-10.6323
五陰	-10.6325
世法	-10.6327
等編	-10.6329
群生	-10.6332
袋	-10.6333
無所得	-10.6336
戈	-10.6344
帶累	-10.6347
驟	-10.635
真常	-10.6355
慈雲	-10.6357
最後	-10.6361
貶	-10.6361
當軒	-10.6363
雲外	-10.6364
可知	-10.6366
心空	-10.6366
百雜碎	-10.6368
刑	-10.6371
天竺	-10.6374
盤山	-10.638
若此	-10.6382
虔	-10.6387
還有人	-10.6387
1	-10.6387
打開	-10.6388
舊時	-10.639
背後	-10.6391
達磨西來	-10.6392
嬾	-10.6393
洒	-10.6394
瀉	-10.6395
於法	-10.6395
如是如是	-10.6395
胷	-10.6396
填	-10.6397
個中	-10.6398
聞聲	-10.6403
劫外	-10.6406
其言	-10.6406
佐	-10.6408
善男子	-10.6408
鷹	-10.6408
三玄三要	-10.641
鶯	-10.6414
接引	-10.6414
萬緣	-10.6415
覲	-10.6417
出格	-10.6417
儘	-10.6417
此等	-10.6418
拓	-10.6419
作箇	-10.642
椀	-10.6423
撥轉	-10.6425
大意	-10.6426
展轉	-10.6428
云如何是	-10.6428
恬	-10.6429
活人	-10.6429
中興	-10.643
大雄	-10.6434
雲門大師	-10.6437
旃檀	-10.6438
會下	-10.6438
將心	-10.6444
有漏	-10.6444
這漢	-10.6444
妄心	-10.6446
一拳	-10.6448
而知	-10.6448
巳上	-10.6448
拋向	-10.6449
時有僧出	-10.6449
豁開	-10.645
王宮	-10.6453
眾皆	-10.6457
於今	-10.6458
住處	-10.6461
真金	-10.6463
蝦	-10.6466
松風	-10.6466
履踐	-10.647
向伊道	-10.6474
貨	-10.6476
迫	-10.6478
交參	-10.6479
話墮	-10.6479
只恐	-10.6483
劈面	-10.6498
日夜	-10.6499
展兩手	-10.6504
見者	-10.6507
所言	-10.6509
真機	-10.6509
丈云	-10.6512
苦海	-10.6513
疎山	-10.6517
杖頭	-10.6521
無際	-10.6522
接人	-10.6522
亦得	-10.6522
天下之	-10.6526
一著子	-10.6529
一擊	-10.653
哩	-10.6533
涵	-10.6536
親到	-10.6538
弦	-10.654
零	-10.6541
佛身	-10.6544
無定	-10.6547
觀察	-10.6548
但以	-10.6551
和上	-10.6551
十載	-10.6551
之至	-10.6554
沐	-10.6558
不休	-10.6561
也不得	-10.6565
咽喉	-10.6567
老鼠	-10.6569
湊泊	-10.657
分外	-10.6572
亦能	-10.6573
噴	-10.6574
漆	-10.6574
薩	-10.6577
捕	-10.6577
若為	-10.6578
跋	-10.6581
有法	-10.6586
店	-10.6587
笑殺	-10.6588
初祖	-10.659
七年	-10.659
那裏是	-10.6591
東南	-10.6592
憫	-10.6592
滿目	-10.6592
朋	-10.6597
忞	-10.6603
森	-10.6603
尚未	-10.6606
開元	-10.6606
濛	-10.6607
在家	-10.6609
枝頭	-10.661
在目前	-10.6613
隨眾	-10.6615
狼	-10.6619
學士	-10.6621
不捨	-10.6622
億	-10.6622
禪林	-10.6628
粉	-10.6633
付法	-10.6639
切須	-10.6648
金色	-10.6649
也無師云	-10.6649
說夢	-10.6651
翅	-10.6661
冬至	-10.6662
有年	-10.6663
又不	-10.6663
卷舒	-10.6665
趺坐	-10.6667
推出	-10.6667
析	-10.6667
直入	-10.6668
之體	-10.6671
仙人	-10.6673
中之	-10.6675
風雲	-10.6679
滄溟	-10.6685
什麼處	-10.6693
如何是佛法大意	-10.6693
如夢	-10.6694
不怕	-10.6697
遐	-10.6698
拈却	-10.6698
喚什麼作	-10.67
性海	-10.6701
鉗錘	-10.6703
儼	-10.6704
氣力	-10.6704
祇為	-10.6708
獨立	-10.6709
此意如何	-10.6709
數年	-10.6709
羈	-10.6709
梁山	-10.6712
一夏	-10.6713
頌古	-10.6715
復問	-10.6718
回顧	-10.6719
意在	-10.6719
無方	-10.672
人我	-10.672
住後	-10.672
沿	-10.6722
鴛鴦	-10.6722
不別	-10.6725
鳳凰	-10.6727
東西南北	-10.6729
漏泄	-10.6733
屠	-10.6733
再三	-10.6734
高僧	-10.6735
朔	-10.674
開山	-10.674
安身立命	-10.674
則是	-10.6741
解會	-10.6744
雲門云	-10.6747
吸	-10.6747
家家	-10.6749
普照	-10.6751
照用	-10.6752
一陣	-10.6756
中秋	-10.6759
名山	-10.6761
砂	-10.6761
計較	-10.6762
之大	-10.6765
裕	-10.6765
故鄉	-10.6768
白雪	-10.677
有四	-10.6771
四生	-10.6773
崇禎	-10.6775
須菩提	-10.6781
禪門	-10.6784
問師	-10.6784
范	-10.6785
別處	-10.6786
擬開口	-10.6786
對云	-10.6786
歸眾	-10.6787
利生	-10.679
為道	-10.679
天下衲僧	-10.6792
既有	-10.6793
正念	-10.6795
幾乎	-10.6796
露布	-10.6797
塔於	-10.6798
聲前	-10.68
揀擇	-10.68
傅大士	-10.6801
涯	-10.6802
冊	-10.6809
雍	-10.6809
終身	-10.681
軟	-10.6814
惹	-10.6824
相隨	-10.6824
陌	-10.6826
雲中	-10.6829
曾見	-10.6831
拭	-10.6831
徑山杲云	-10.6835
如鏡	-10.6846
偶然	-10.6848
示眾舉	-10.6848
文彩	-10.6852
已上	-10.6853
不知其	-10.6855
到頭	-10.6856
不遇	-10.6858
遊山	-10.686
󵊮	-10.6863
學得	-10.6863
苦樂	-10.6865
天堂	-10.6867
有路	-10.687
娘生	-10.6872
東海	-10.6873
誵訛	-10.6874
單傳	-10.6874
應用	-10.6876
僧便問	-10.6877
讀書	-10.688
秀才	-10.6884
蝦蟆	-10.6886
者裡	-10.6889
士大夫	-10.689
八面	-10.6892
異類	-10.6893
果能	-10.6895
噓	-10.6896
本山	-10.69
榜	-10.6902
辛苦	-10.6904
禪院	-10.6909
誌公	-10.6913
勉之	-10.6913
塵埃	-10.6914
云和尚	-10.6915
五戒	-10.6916
假名	-10.6918
夢見	-10.6918
不停	-10.6919
教化	-10.6919
百萬	-10.692
卓一下	-10.692
馮	-10.6921
區	-10.6923
劃	-10.6925
後生	-10.6928
諸子	-10.6929
棗	-10.6931
不移	-10.6931
闇	-10.6931
擯	-10.6932
窄	-10.6933
踪	-10.6935
紛	-10.6936
試道看	-10.6937
蟻	-10.6944
而起	-10.6947
滴水	-10.6948
起滅	-10.6951
驀拈拄杖云	-10.6952
得意	-10.6954
門風	-10.6955
彭	-10.6956
洞明	-10.6957
之上	-10.696
粥飯	-10.6961
墮在	-10.6962
穿鑿	-10.6968
拏	-10.6971
為大	-10.6975
如無	-10.6976
掇	-10.6978
而不知	-10.6981
衷	-10.6983
溈云	-10.6986
屍	-10.6987
英靈	-10.6987
至理	-10.6988
可也	-10.6989
眸	-10.6993
只此	-10.6993
吒	-10.6994
不思	-10.6996
淨名	-10.7004
者老漢	-10.7004
遠離	-10.7008
鍋	-10.7011
敢保	-10.7013
水上	-10.7014
窓	-10.7015
冲	-10.7016
二十四	-10.7017
國清	-10.7021
迴避	-10.7021
恁麼說話	-10.7021
隋	-10.7023
頴	-10.7024
玉兔	-10.7024
五宗	-10.7029
酌	-10.703
四面	-10.7036
脉	-10.7036
放過一著	-10.7038
鵬	-10.704
麒麟	-10.7043
耽	-10.7044
至于	-10.7045
神力	-10.7045
禾山	-10.7048
若何	-10.7048
一上	-10.7048
麻三斤	-10.7052
知得	-10.7053
無聲	-10.7053
中峰	-10.7054
晏	-10.7056
結夏	-10.7056
未悟	-10.7057
忘却	-10.7059
誰為	-10.706
不忍	-10.7061
中人	-10.7061
僧便	-10.7063
空華	-10.7064
十字	-10.7064
君不見	-10.7068
覺禪師	-10.7071
清光	-10.7073
亨	-10.7076
淺深	-10.7078
林間	-10.7087
分身	-10.7088
東坡	-10.7092
或曰	-10.7094
三教	-10.7095
穆	-10.7095
萬世	-10.7096
千般	-10.7098
向什麼處去	-10.71
木馬	-10.7102
梵語	-10.7103
曠劫	-10.7105
淆訛	-10.7105
深深	-10.7106
真箇	-10.7107
此二	-10.7107
不食	-10.7108
▁(	-10.7109
毒藥	-10.7109
跳出	-10.711
僕	-10.711
京師	-10.712
那個	-10.712
二大老	-10.7121
譏	-10.7123
重關	-10.7124
一葉	-10.7124
無差別	-10.7125
牢關	-10.7126
亦復	-10.7126
隨流	-10.7127
鐸	-10.7127
報慈	-10.7128
協	-10.7131
總在	-10.7141
大聖	-10.7142
三際	-10.7144
道箇	-10.7148
而言	-10.7148
艱	-10.7149
一指	-10.715
指南	-10.7152
一切諸法	-10.7154
天上人間	-10.7156
未足	-10.7165
灘	-10.7167
只今	-10.717
祀	-10.7171
坊	-10.7172
溼	-10.7173
萬法歸一	-10.7175
我這裏	-10.7176
梵天	-10.7177
十餘	-10.7178
還同	-10.7183
輕輕	-10.7183
恰好	-10.7185
自悟	-10.7185
其名	-10.719
未發	-10.719
螺	-10.7193
安身	-10.7194
蝶	-10.7194
個什麼	-10.7196
為伊	-10.7196
盡十方世界	-10.7196
其志	-10.7197
無分	-10.7197
止觀	-10.7198
不干	-10.7202
一團	-10.7205
他方	-10.7207
心意識	-10.721
見僧	-10.7211
西風	-10.7212
面皮	-10.7213
其身	-10.7214
語默	-10.7214
化為	-10.7219
師亦	-10.7224
世緣	-10.7228
盟	-10.723
之與	-10.7231
妨	-10.7238
彼岸	-10.7239
得去	-10.725
固是	-10.7251
正位	-10.7252
啄	-10.7258
眾曰	-10.726
未夢見在	-10.726
天外	-10.7261
不虛	-10.7261
建塔	-10.7261
雲峰	-10.7267
悟得	-10.7273
何等	-10.7275
居士問	-10.7275
聲聲	-10.7281
不拘	-10.7282
這裡	-10.7284
虛妄	-10.7288
法兄	-10.7289
足以	-10.7291
璉	-10.7291
解脫門	-10.7299
當作	-10.7303
却被	-10.7305
洪武	-10.7311
若在	-10.7314
人多	-10.7317
波羅蜜	-10.7318
禿	-10.732
此處	-10.7322
千江	-10.7322
頭曰	-10.7323
特來	-10.7327
炊	-10.7328
道眼	-10.7331
培	-10.734
君王	-10.734
恥	-10.7342
優曇	-10.7346
闍維	-10.7346
隨分	-10.7347
佛子	-10.7348
扭	-10.7349
萬松	-10.7349
不徹	-10.7352
莫向	-10.7357
本來人	-10.7357
括	-10.7357
珊瑚	-10.7357
優游	-10.7357
袍	-10.7364
岡	-10.7365
盡大地人	-10.7366
相違	-10.737
裹	-10.7373
乞師指示	-10.7374
勅	-10.7375
嚮	-10.7376
問和尚	-10.7379
祝髮	-10.7379
是箇甚麼	-10.7381
不由	-10.7384
野老	-10.7384
自覺	-10.7384
喚作甚麼	-10.7385
炙	-10.7386
放生	-10.739
落落	-10.7391
三十二	-10.7394
衲衣	-10.7395
耳目	-10.7396
老古錐	-10.7401
上首	-10.7402
總持	-10.7405
不無	-10.7405
翹	-10.7406
有志	-10.7407
得聞	-10.7408
是法	-10.7413
東方	-10.7413
本空	-10.7414
吾今	-10.7414
又打	-10.7415
梯	-10.7422
觧	-10.7423
明眼人	-10.7423
情識	-10.7425
向外	-10.7427
縱奪	-10.743
中無	-10.7432
渠儂	-10.7437
來參	-10.7439
風清	-10.744
凶	-10.7441
名利	-10.7443
較些子	-10.7449
覿體	-10.745
花落	-10.7451
爰	-10.7451
二種	-10.7454
傍觀	-10.7456
相去多少	-10.7459
峰前	-10.746
遮箇	-10.7462
倉	-10.7462
海內	-10.7463
相承	-10.7465
兔角	-10.7469
石橋	-10.7471
禮佛	-10.7473
揣	-10.7473
林泉	-10.7475
我說	-10.7489
鄧	-10.7492
道甚麼	-10.7496
諸昆仲	-10.7498
塔于	-10.7498
說箇	-10.7502
始信	-10.7502
不甘	-10.7503
溈曰	-10.7504
欲求	-10.7506
圍繞	-10.7507
踵	-10.7514
顯現	-10.7515
海上	-10.7518
舉手	-10.7519
兩個	-10.7525
者少	-10.7528
領略	-10.7529
直下承當	-10.7529
便作	-10.753
摸索	-10.7538
漏逗	-10.7538
造作	-10.7545
又且如何	-10.7548
遠來	-10.7552
不空	-10.7554
頭云	-10.7554
顧視	-10.7556
功名	-10.7556
灣	-10.7558
之類	-10.756
甌	-10.7562
蟾	-10.7565
但得	-10.7566
紅日	-10.7566
情與無情	-10.7567
旅	-10.7567
沼	-10.7568
寰中	-10.7568
出頭來	-10.7569
阜	-10.757
踈	-10.7574
點破	-10.7574
則不無	-10.7581
入滅	-10.7582
堯舜	-10.7583
檀那	-10.7585
太煞	-10.7588
所生	-10.7594
佛鑑	-10.7594
行之	-10.7595
仝	-10.7596
祇對	-10.7597
楷	-10.7599
非心	-10.7599
踏翻	-10.76
兩片皮	-10.7601
去在	-10.7603
不染	-10.7603
無功	-10.7604
絆	-10.7605
三十六	-10.7605
莫錯	-10.761
遯	-10.7613
決擇	-10.7618
兩人	-10.7619
之為	-10.7619
規矩	-10.7619
昔人	-10.7619
泥水	-10.7624
所證	-10.7625
媿	-10.7626
大凡	-10.7627
香爐	-10.7627
於世	-10.7629
金鱗	-10.7629
無見	-10.7632
一邊	-10.7633
一絲毫	-10.7633
長蘆	-10.7634
一等	-10.7637
從容	-10.7637
也大奇	-10.7638
便好	-10.7638
竇	-10.7642
溈山云	-10.7643
恁	-10.7645
]	-10.7645
深入	-10.7646
煑	-10.7646
檢	-10.7648
二僧	-10.7649
分曉	-10.7649
棒打	-10.7649
纖塵	-10.7654
悶	-10.7657
萬丈	-10.7657
窠窟	-10.7658
實法	-10.7659
鼻頭	-10.766
朝夕	-10.7663
且止	-10.7664
之風	-10.7664
匝地	-10.7664
高明	-10.7665
帝曰	-10.7667
欲知	-10.7667
埜	-10.7668
微細	-10.767
信得及	-10.7671
禪道	-10.7675
太史	-10.7675
作此	-10.7676
則為	-10.7679
行處	-10.7687
無用	-10.769
刮	-10.7694
盡大地是	-10.7695
如何是和尚家風	-10.7702
通身是	-10.7704
卓一下云	-10.7708
何不道	-10.7718
峽	-10.772
露出	-10.7721
龍吟	-10.7724
原是	-10.7727
濶	-10.7728
莫作	-10.7729
癡人	-10.7733
既而	-10.7734
杲日	-10.7737
吃	-10.7744
幾回	-10.7749
鯨	-10.775
不虗	-10.7752
和尚語錄	-10.7753
碩	-10.7755
禹	-10.7757
洞庭	-10.7758
靈山會上	-10.7759
幻化	-10.7761
半月	-10.7761
只因	-10.7761
尿	-10.7762
及諸	-10.7765
津梁	-10.7766
拈棒	-10.7767
放開	-10.7769
五葉	-10.7772
喚侍者	-10.7775
路絕	-10.7781
只見	-10.7784
說什麼	-10.7787
教中道	-10.7787
不生不滅	-10.7788
孰能	-10.7792
稽	-10.7793
之處	-10.7799
迢迢	-10.7804
坐在	-10.7804
魄	-10.7805
祖師意	-10.7809
怠	-10.781
縱使	-10.781
不減	-10.7821
毫端	-10.7821
嵐	-10.7821
宛然	-10.7822
眾無對	-10.7823
誣	-10.7824
翠竹	-10.7824
瞥地	-10.7826
百花	-10.7828
作略	-10.7828
火宅	-10.7829
南來	-10.7829
依稀	-10.7832
寂照	-10.7833
此生	-10.7833
我是	-10.7834
猷	-10.7835
忝	-10.7836
淫	-10.7836
不平	-10.7836
本郡	-10.7838
猫兒	-10.784
速道速道	-10.7841
之一字	-10.7842
此老	-10.7842
寂寞	-10.7844
學佛	-10.7846
參差	-10.7848
打出	-10.7851
乃是	-10.7851
且道如何是	-10.7854
不是佛	-10.7854
贏得	-10.786
終是	-10.786
莫謂	-10.7861
如何是境中人	-10.7861
明朝	-10.7864
清云	-10.7864
秋月	-10.7867
由來	-10.7869
只解	-10.787
匙	-10.7871
橈	-10.7871
應機	-10.7871
無地	-10.7879
福德	-10.7881
洞上	-10.7885
悟曰	-10.7886
我者裏	-10.7888
入處	-10.789
佛海	-10.7894
遞相	-10.7894
叨	-10.7897
鵝	-10.7898
斂	-10.79
意旨如何師云	-10.7901
掘	-10.7903
且無	-10.7906
偷心	-10.7907
不獨	-10.7908
掣電	-10.7912
以手指	-10.7913
凡情	-10.7917
來時如何	-10.7917
不唯	-10.7917
一微塵	-10.7918
名言	-10.792
華開	-10.7923
衣缽	-10.7926
道也	-10.7927
禹門	-10.7929
起處	-10.7934
身中	-10.7935
秋水	-10.7937
之餘	-10.7938
拊掌	-10.7938
是阿誰	-10.7938
鸞	-10.7939
青松	-10.7939
讖	-10.7939
分座	-10.794
是謂	-10.794
經中	-10.7944
示疾	-10.7944
杖人	-10.7955
證得	-10.7955
真佛	-10.7955
蟬	-10.796
百千萬億	-10.796
冶	-10.7961
茗	-10.7963
雨過	-10.7965
不當	-10.7967
照顧	-10.797
坦然	-10.7971
一家	-10.7972
多聞	-10.7975
有佛	-10.7977
剎海	-10.7977
向火	-10.7978
相分	-10.7979
攀緣	-10.7981
凜凜	-10.7983
歸位	-10.7985
援	-10.7986
無底	-10.7987
成都	-10.7988
僧喝	-10.7989
不相識	-10.799
鐘聲	-10.7991
非我	-10.7991
枕子	-10.7992
普天	-10.7992
柯	-10.7993
都來	-10.7994
過在甚麼處	-10.7998
誕日	-10.7998
管教	-10.7999
我道	-10.7999
茶毗	-10.8003
禪師上堂	-10.8004
玄機	-10.8007
麵	-10.8011
指頭	-10.8014
落地	-10.8014
疑著	-10.8017
腥	-10.8019
後住	-10.8024
入方丈	-10.8024
見師	-10.8024
還得	-10.8025
欽山	-10.8029
欵	-10.8029
是什麼人	-10.8031
爐鞴	-10.8035
禪堂	-10.8041
教你	-10.8043
宴坐	-10.8047
之子	-10.8049
平日	-10.8049
所至	-10.805
藏經	-10.805
展手	-10.8051
罔明	-10.8051
何法	-10.8056
由此	-10.8057
爭柰	-10.8061
十方諸佛	-10.8063
坐次	-10.8063
攢	-10.8067
膏	-10.8071
通達	-10.8072
受持	-10.8072
皆以	-10.8072
異日	-10.8072
耳聾	-10.8074
綿綿	-10.8075
長年	-10.808
幅	-10.8081
僧問趙州	-10.8084
捉敗	-10.8086
弁山	-10.8089
見有	-10.8091
豫	-10.8094
了義	-10.8094
師又打	-10.8094
旱	-10.8095
百川	-10.8098
怡	-10.8107
不可說	-10.8108
百歲	-10.8109
入地獄	-10.811
無影	-10.8116
后	-10.8116
非一	-10.8118
瑯琊	-10.8119
森羅	-10.8119
獨自	-10.812
道是	-10.8121
I	-10.8123
者哉	-10.8125
成正覺	-10.8125
病僧	-10.8126
本地風光	-10.8126
座云	-10.8127
如雷	-10.8128
打失	-10.813
臼	-10.8131
起身	-10.8132
忽有人問	-10.8133
梭	-10.8135
一門	-10.8137
湛堂	-10.8137
雖不	-10.8138
E	-10.814
接得	-10.8143
矜	-10.8145
事畢	-10.815
仰山云	-10.8165
不立文字	-10.8165
超越	-10.817
柱杖	-10.8173
曳	-10.8174
三身	-10.8179
?』	-10.818
堦	-10.8182
靖	-10.8182
無緣	-10.8183
皈	-10.8184
若將	-10.8185
初機	-10.8185
將甚麼	-10.8187
嶺南	-10.8187
雙徑	-10.8191
何日	-10.8193
藝	-10.8194
八識	-10.8195
廣慧	-10.8195
擊拂子	-10.8198
在其中	-10.8199
靡不	-10.8199
普明	-10.82
渡江	-10.8202
峨	-10.8202
今生	-10.8202
斷臂	-10.8204
祖師門下	-10.8211
佛出世	-10.8214
配	-10.8216
通玄	-10.8219
鬬	-10.8223
芳草	-10.8223
張公	-10.8224
老兄	-10.8226
之境	-10.8227
此話	-10.823
璞	-10.8233
之德	-10.8236
而入	-10.8237
人家	-10.8237
甚處去	-10.8237
此則	-10.824
晴空	-10.8242
此山	-10.8242
物我	-10.8244
短長	-10.8245
山之	-10.8247
九十	-10.8249
大和尚	-10.825
三峰	-10.8252
遮裏	-10.8254
若據	-10.8255
而坐	-10.8256
風規	-10.8256
此箇	-10.8259
祠	-10.826
得人	-10.8262
光孝	-10.8263
江山	-10.8265
栗	-10.8266
話會	-10.8269
無意	-10.827
二十八	-10.8272
我聞	-10.8272
諸菩薩	-10.8275
有疑	-10.8276
落髮	-10.828
蚤	-10.8281
要會	-10.8283
有語	-10.8284
采	-10.8286
揆	-10.8286
渚	-10.8287
山上	-10.8289
恁麼即	-10.8291
一莖草	-10.8294
本來無	-10.8296
壁上	-10.8299
自肯	-10.8301
楞伽	-10.8301
師代云	-10.8301
妄語	-10.8302
滔滔	-10.8302
諦當	-10.8302
彷彿	-10.8303
廉	-10.8304
王公	-10.8305
祖師禪	-10.8309
麓	-10.8309
甚深	-10.831
即心	-10.8313
只者	-10.8315
靄	-10.8318
閃電	-10.8322
夕陽	-10.8324
匹	-10.8324
婆心	-10.8325
韜	-10.8329
亟	-10.833
可觀	-10.8332
用之	-10.8334
四明	-10.8336
為宗	-10.834
萬歲	-10.8342
禪師法嗣一人	-10.8346
姿	-10.8346
書偈	-10.8347
土地	-10.8348
聞得	-10.8349
所為	-10.835
多生	-10.8351
風雷	-10.8351
盃	-10.8352
從茲	-10.8354
長江	-10.8355
覺範	-10.8355
其徒	-10.8357
韋	-10.8362
忠國師	-10.8362
寵	-10.8365
嗜	-10.8368
見性成佛	-10.8371
道俗	-10.8372
什麼處來	-10.8376
觀其	-10.8376
是道	-10.8379
源流	-10.8382
誅	-10.8382
與道	-10.8384
不依	-10.8388
顆	-10.8389
開門	-10.8393
不具	-10.8396
自他	-10.8396
死漢	-10.8396
貯	-10.8397
化主	-10.84
陪	-10.8403
州人	-10.841
雪竇顯	-10.8412
趁出	-10.842
杜撰	-10.842
著衣喫飯	-10.8421
之行	-10.8421
大用現前	-10.8422
跏趺	-10.8422
此理	-10.8423
大陽	-10.8427
數日	-10.8429
即非	-10.843
更要	-10.8433
謂曰	-10.8435
其意	-10.8435
奢	-10.8436
無分別	-10.844
騎牛	-10.8445
便出去	-10.8446
長生	-10.8447
虵	-10.8451
亦須	-10.8455
未肯	-10.8456
豈容	-10.8457
進退	-10.8457
蔬	-10.8458
結制上堂	-10.846
枝葉	-10.8462
得者	-10.8462
鎗	-10.8462
大徹	-10.8463
師又	-10.8463
獨脫	-10.8463
黃花	-10.8464
無名	-10.8465
卓一卓	-10.8466
修道	-10.847
韶陽	-10.8474
千尺	-10.8475
眼前	-10.8475
隨順	-10.8479
蔡	-10.8483
障礙	-10.8491
皓	-10.8491
從心	-10.8494
三毒	-10.8496
兩岸	-10.8497
異之	-10.8497
拈起拄杖云	-10.8499
篆	-10.8506
豁然大悟	-10.8509
厲	-10.8511
將此	-10.8513
冒	-10.8518
逗	-10.8525
臨濟宗	-10.8526
翔	-10.8532
歸去來	-10.8534
青霄	-10.8537
不止	-10.8537
諒	-10.8539
回避	-10.854
遞	-10.8543
焉知	-10.8551
荒草	-10.8554
眷	-10.8554
引得	-10.8555
闡提	-10.8557
若恁麼	-10.8558
開堂日	-10.8559
鰲	-10.8559
董	-10.8562
大有	-10.8567
祚	-10.8567
禪牀	-10.8567
淨瓶	-10.8569
汝當	-10.8571
一念不生	-10.8572
芒鞋	-10.8573
道什麼	-10.8575
下去	-10.8578
又作麼生師云	-10.8583
颺	-10.8584
一貫	-10.8586
耆	-10.8589
金針	-10.8589
無垢	-10.8594
抖擻	-10.8594
云云	-10.8595
師承	-10.8596
不淨	-10.8596
舉趙州	-10.8599
難為	-10.8599
須要	-10.86
久久	-10.8601
魔王	-10.8601
空空	-10.8602
實際	-10.8603
諫	-10.8604
留心	-10.8605
不達	-10.8605
覺云	-10.8606
光影	-10.8611
師打	-10.8615
微妙	-10.8615
粘	-10.8616
請山僧	-10.8617
心要	-10.862
恕	-10.8622
無量劫來	-10.8628
肇	-10.8628
巔	-10.8632
未生	-10.8639
上士	-10.8639
世事	-10.8641
變易	-10.8642
已前	-10.8644
你作麼生	-10.8646
久參	-10.8647
瓣香	-10.8647
嫡	-10.8649
識心	-10.8649
別傳	-10.8649
草堂	-10.8649
三要	-10.8649
樣子	-10.8653
律師	-10.8655
致使	-10.8657
妄念	-10.8657
郊	-10.8658
宗教	-10.866
不息	-10.866
千巖	-10.8661
同門	-10.8663
壁立萬仞	-10.8667
熾	-10.8668
色空	-10.8669
香積	-10.8669
為誰	-10.8672
會佛法	-10.8673
蹟	-10.8675
上方	-10.8677
有緣	-10.8677
汲	-10.8679
水底	-10.8679
總不恁麼	-10.8682
重新	-10.8683
造次	-10.8683
和尚莫	-10.8684
十萬	-10.8685
順治	-10.8685
青蓮	-10.8686
謚	-10.8686
儱侗	-10.8687
即佛	-10.8687
法海	-10.8688
靴	-10.869
一月	-10.869
問如何是佛	-10.8692
相與	-10.8695
□	-10.8698
其奈	-10.8698
華亭	-10.8699
下禪床	-10.8702
賢聖	-10.8703
法雲	-10.8704
雲散	-10.8704
繩床	-10.8707
法雨	-10.8707
利害	-10.8707
酉	-10.8712
傳語	-10.8714
僧堂前	-10.8715
客來	-10.8719
揚眉	-10.872
壁立千仞	-10.8722
發願	-10.8726
菩提心	-10.873
門開	-10.873
隻眼	-10.8731
湏	-10.8731
鵲	-10.8741
詐	-10.8741
濟公	-10.8746
無瑕	-10.8747
夜月	-10.875
杉	-10.8752
海中	-10.8754
獨有	-10.8757
寂靜	-10.8758
之宗	-10.8763
餌	-10.8763
一方	-10.8764
豬	-10.8765
掉臂	-10.8765
都無	-10.8769
憎	-10.8769
忙忙	-10.8769
淪	-10.8772
縱饒	-10.8776
寶所	-10.8778
無論	-10.8779
此非	-10.8781
遍地	-10.8783
為是	-10.8784
盡在	-10.8786
翛然	-10.8787
月上	-10.8787
澆	-10.8787
眾請	-10.8791
呈偈曰	-10.8795
明招	-10.8799
愚癡	-10.88
南嶽下	-10.88
染淨	-10.88
失卻	-10.8801
甲子	-10.8802
將錯就錯	-10.8802
寐	-10.8804
脫體	-10.8805
皈依	-10.8806
浮山	-10.8811
云某甲	-10.8814
芥子	-10.8815
猢猻	-10.8816
猶自	-10.8817
獅子吼	-10.8817
多時	-10.8818
趯	-10.882
不薦	-10.8821
而作	-10.8821
塵沙	-10.8823
吐舌	-10.8824
驀頭	-10.8828
過夏	-10.883
近前來	-10.8831
懸崖	-10.8832
鬱	-10.8834
嶺上	-10.8835
忍俊不禁	-10.8836
匝	-10.8836
向人	-10.8837
這邊	-10.8841
度眾生	-10.8842
北山	-10.8843
入水	-10.8849
作佛事	-10.885
貓兒	-10.8852
妙明	-10.8853
怎奈	-10.8853
與摩	-10.8853
之內	-10.8854
以是	-10.8854
阿彌陀佛	-10.8858
脊	-10.8858
勳	-10.8861
古云	-10.8866
之矣	-10.8866
蔓	-10.8866
冷地	-10.8867
救得	-10.8868
乞食	-10.8869
流傳	-10.8873
去處	-10.8873
方寸	-10.8873
事如何師云	-10.8876
孝子	-10.8877
卓拄杖一下	-10.8877
諸人還	-10.8878
緣生	-10.8879
且問	-10.8882
激揚	-10.8883
獼猴	-10.8886
二百	-10.8892
廁	-10.8894
空山	-10.8894
寶鏡	-10.8895
啐啄同時	-10.8895
師諱	-10.8896
人說	-10.8896
不識好惡	-10.8897
摩訶	-10.8897
不改	-10.8898
崔	-10.89
照破	-10.8902
黎	-10.8908
度人	-10.8909
人不識	-10.891
弔	-10.8911
何處不	-10.8911
有力	-10.8911
便成	-10.8913
箇裏	-10.8913
寶劍	-10.8913
落處麼	-10.8914
鋒鋩	-10.8915
所依	-10.892
三度	-10.892
閉門	-10.8921
熈	-10.8921
蠅	-10.8924
退步	-10.8928
砌	-10.8929
朴	-10.8929
風前	-10.8935
如雲	-10.8937
熊	-10.8937
鬧市	-10.8942
拂袖便出	-10.8944
不至	-10.8945
明鏡	-10.8946
碧潭	-10.8948
風生	-10.8951
好事	-10.8952
無你	-10.8956
付與	-10.8957
漫漫	-10.8957
倩	-10.896
溈仰	-10.896
請上堂僧問	-10.896
大顛	-10.8962
單提	-10.8962
輙	-10.8963
不有	-10.8963
亦爾	-10.8964
學人不會	-10.8964
鳩	-10.8965
巷	-10.8966
纔有	-10.8966
天寒	-10.8967
故能	-10.8968
奠	-10.8968
羡	-10.8971
那知	-10.8972
從何來	-10.8976
上堂問	-10.8976
三祖	-10.8976
試看	-10.8978
漢月	-10.8978
萬壑	-10.8979
圈	-10.898
眾生心	-10.8981
武帝	-10.8984
人身	-10.8984
騰騰	-10.8985
尚有	-10.8987
龍頭蛇尾	-10.8988
破山	-10.8991
若道是	-10.8991
寺裏	-10.8991
花香	-10.8992
一陽	-10.8996
以自	-10.9
石室	-10.9002
訝	-10.9002
頭首	-10.9003
變異	-10.9004
提綱	-10.9004
撩	-10.9007
八年	-10.9007
萬福	-10.9008
出生死	-10.9008
且向	-10.9009
死屍	-10.901
隻履	-10.9013
具大	-10.9014
文武	-10.9017
若到	-10.9018
于今	-10.9019
。」【「	-10.902
汀	-10.9026
溟	-10.9028
隙	-10.903
聆	-10.9041
四天下	-10.9043
饅頭	-10.9044
棟	-10.9046
三乘十二分教	-10.9046
子之	-10.9051
黑漆	-10.9051
玄要	-10.9055
脫空	-10.9056
塔銘	-10.9056
之於	-10.9057
鑪	-10.9057
之學	-10.9057
震動	-10.9058
家珍	-10.9059
亞	-10.9062
毫髮	-10.9064
鷗	-10.9065
於一	-10.9067
他不得	-10.9069
得到	-10.9071
再問	-10.9076
顧左右云	-10.9077
記莂	-10.9077
辜	-10.9079
縷	-10.908
何者	-10.9084
都盧	-10.9086
六識	-10.9086
慨	-10.9091
週	-10.9093
攔	-10.9097
醋	-10.9099
竈	-10.9101
莫待	-10.9102
若能如是	-10.9103
亦未	-10.9104
淹	-10.9105
你是	-10.9105
何曾有	-10.9106
明了	-10.9108
活句	-10.9108
出院	-10.9109
儲	-10.9109
件	-10.911
心力	-10.911
帛	-10.9112
其後	-10.9113
猶較些子	-10.9114
妍	-10.9114
相識	-10.9114
皎潔	-10.9115
湊	-10.9117
筏	-10.9119
共相	-10.9123
惡業	-10.9125
未會	-10.9125
姪	-10.9131
稱尊	-10.9134
四祖	-10.9135
機先	-10.9139
法要	-10.914
灶	-10.9141
威光	-10.9142
召眾云	-10.9143
春來	-10.9146
不朽	-10.9149
療	-10.9149
無量壽	-10.915
琇	-10.915
心生	-10.9153
而復	-10.9154
為本	-10.9155
有偈曰	-10.9156
求之	-10.9157
吾道	-10.9158
揚州	-10.9158
八字	-10.9161
莫便是	-10.9161
楊柳	-10.9161
不隨	-10.9165
意如何	-10.9166
鏡中	-10.9169
為人處	-10.917
竹林	-10.9172
楞嚴經	-10.9173
白牛	-10.9175
擬欲	-10.9176
天之	-10.9177
島	-10.9181
印證	-10.9184
聖壽	-10.9191
南陽	-10.9191
善能	-10.9191
之身	-10.9193
嵓	-10.9194
不違	-10.9195
箸	-10.9195
兩處	-10.9195
樓臺	-10.9196
婆羅門	-10.9196
與麼去	-10.9197
乃知	-10.9197
之情	-10.9198
能生	-10.92
者皆	-10.9202
雖然如此	-10.9203
迨	-10.9204
是何物	-10.9204
專使	-10.9205
遜	-10.9206
二十棒	-10.9207
募	-10.9207
本體	-10.9208
辭去	-10.921
我等	-10.9211
萬派	-10.9211
聞舉	-10.9212
棒下	-10.9212
隨人	-10.9215
你看	-10.9216
丹青	-10.9217
腮	-10.9218
欠少	-10.9218
僧出	-10.922
此猶是	-10.9222
香林	-10.9223
即同	-10.9225
竪起	-10.9226
所能	-10.9232
卻是	-10.9232
心體	-10.9233
一歸何處	-10.9234
七歲	-10.9235
丸	-10.9245
炷	-10.9245
便恁麼	-10.925
鬢	-10.9251
塢	-10.9251
小師	-10.9251
奇特事	-10.9251
會去	-10.9252
法燈	-10.9253
有過	-10.926
賒	-10.926
南北東西	-10.9262
汾陽昭	-10.9263
達摩	-10.9267
天皇	-10.9267
上天	-10.927
祖師西來	-10.9274
於言下	-10.9274
離此	-10.9275
嘆曰	-10.9277
霖	-10.9278
襄州	-10.9281
兩般	-10.9282
泉州	-10.9283
得自由	-10.9286
剔	-10.9287
青龍	-10.9288
T	-10.9288
垂慈	-10.9291
方來	-10.9292
便可	-10.9292
搬	-10.9292
西江	-10.9294
無涯	-10.9294
千峯	-10.9295
艾	-10.93
棘	-10.9301
一丈	-10.9304
褒	-10.9305
爐中	-10.9306
D	-10.9307
S	-10.9308
J	-10.9308
繼席	-10.9314
林中	-10.9315
畢竟作麼生	-10.9319
斷絕	-10.932
應菴	-10.9321
蓄	-10.9322
清凉	-10.9325
誓願	-10.9327
一踏	-10.9327
僧近前	-10.9328
PER	-10.9328
寒巖	-10.933
夢裏	-10.933
汝是	-10.9332
數珠	-10.9333
瀑	-10.9334
一度	-10.9336
六合	-10.9336
蠻	-10.9339
伏惟	-10.934
座前	-10.9341
羅籠	-10.9342
登山	-10.9343
萬有	-10.9345
不是心	-10.9349
釆	-10.936
仰曰	-10.9362
勾	-10.9364
白頭	-10.9366
好看	-10.9366
出離	-10.9367
三寸	-10.9367
威音那畔	-10.9369
通一線	-10.937
未為	-10.9371
與君	-10.9371
執著	-10.9374
餓鬼	-10.9376
師到	-10.9376
什麼人	-10.9376
乃舉	-10.9383
以致	-10.9384
帥	-10.9391
入此	-10.9394
自欺	-10.9394
其旨	-10.9395
始見	-10.9395
空王	-10.9395
龍樹	-10.9398
打殺	-10.9399
示微疾	-10.94
鳥啼	-10.9403
菩提涅槃	-10.9406
煥	-10.9407
龍泉	-10.9409
公子	-10.941
故經云	-10.9412
仰云	-10.9412
臘月三十日	-10.9416
但是	-10.9418
於諸	-10.9419
耆舊	-10.9422
舉唱	-10.9422
在天	-10.9422
影像	-10.9422
可為	-10.9423
即且置	-10.9426
普門	-10.9429
眾無語	-10.943
汝作麼生	-10.9434
碧天	-10.944
天曉	-10.9442
生而	-10.9442
山居	-10.9443
達觀	-10.9444
隨身	-10.9444
九年面壁	-10.9444
一箭	-10.9448
靈利	-10.9448
作一	-10.9448
起居	-10.9448
去就	-10.9449
無實	-10.9451
皆由	-10.9453
不居	-10.9453
透出	-10.9453
溪山	-10.9454
活路	-10.9456
接待	-10.9456
霄漢	-10.9457
覿面相呈	-10.9457
顒	-10.9458
馳求	-10.9464
石虎	-10.9465
西湖	-10.947
庫司	-10.9471
臥龍	-10.9471
首楞嚴	-10.9472
徙	-10.9474
愆	-10.9475
胡餅	-10.9479
趕	-10.948
是何人	-10.9483
為主	-10.9484
巖云	-10.9484
句句	-10.9485
級	-10.9486
至晚	-10.9486
喫了	-10.9487
無畏	-10.9487
宗皇帝	-10.9488
者箇是	-10.949
與諸	-10.9491
定當	-10.9496
有相	-10.9498
方圓	-10.9499
者曰	-10.9501
傳授	-10.9502
高山	-10.9505
悟處	-10.9507
海會	-10.9508
杵	-10.9508
須知有	-10.951
道士	-10.951
漂	-10.9513
即為	-10.9518
亦不得	-10.9518
黔	-10.9519
枝上	-10.9523
溢	-10.9524
戎	-10.9524
趣向	-10.9524
說不得	-10.9526
生死事大	-10.9527
綠水	-10.9534
僧俗	-10.9535
化城	-10.9535
丈曰	-10.9537
栗棘蓬	-10.954
椿	-10.954
從上諸聖	-10.9541
駒	-10.9541
闌	-10.9545
便起	-10.9546
敝	-10.9548
一橛	-10.9549
臺山	-10.9549
那個是	-10.955
師子兒	-10.9552
即向汝道	-10.9554
豎拂云	-10.956
監寺	-10.956
僧擬	-10.9561
拊	-10.9566
與眾	-10.957
假使	-10.957
須向	-10.9572
又喝	-10.9573
蕭蕭	-10.9574
諸大	-10.9577
見他	-10.9584
始覺	-10.9588
侍立	-10.9589
動地	-10.959
要得	-10.9591
師良久	-10.9592
涅槃經	-10.9593
俱是	-10.9593
稻	-10.9593
佛之	-10.9593
高著眼	-10.9595
請陞座	-10.9598
數載	-10.9598
同體	-10.9599
九重	-10.9601
待伊	-10.9601
不答	-10.9601
我在	-10.9601
脣	-10.9602
昨夜三更	-10.9604
蓋覆	-10.9605
正與麼時	-10.9607
具一隻眼	-10.9611
數十	-10.9613
徘徊	-10.9614
廼	-10.9615
清規	-10.9621
一雙	-10.9622
)」	-10.9623
萬國	-10.963
觀世音	-10.963
者何	-10.9632
堂頭	-10.9635
待汝	-10.9635
法器	-10.9636
廚	-10.9637
即心是佛	-10.9639
其體	-10.9639
因什麼	-10.9641
若向這裏	-10.9643
徽	-10.9659
記取	-10.966
埃	-10.9662
若向者裏	-10.9663
非佛	-10.9666
顯露	-10.9666
人物	-10.9666
頂𩕳	-10.9666
事也	-10.9668
驚人	-10.9669
法衣	-10.9672
嘉禾	-10.9673
選佛	-10.9676
有麼有麼	-10.9677
鐘鼓	-10.9678
宗匠	-10.9679
十二時	-10.968
何言	-10.9682
濯	-10.9685
暗中	-10.9685
後代兒孫	-10.9685
為汝說	-10.9695
澄潭	-10.9695
耐	-10.9696
搏	-10.9696
忽見	-10.9699
筯	-10.9699
筍	-10.9702
和尚作麼生	-10.9702
三千大千世界	-10.9706
云會麼	-10.9709
太極	-10.9709
阿羅漢	-10.971
痒	-10.9711
瑟	-10.9711
真風	-10.9712
金明	-10.9713
繪	-10.9716
吾人	-10.9717
為生死	-10.9719
李公	-10.9719
一僧云	-10.9719
金毛	-10.9722
不現	-10.9723
海印	-10.9724
却向	-10.9724
大都	-10.9725
攛	-10.9727
𢹂	-10.9729
無蹤	-10.9729
波浪	-10.9733
雲開	-10.9735
無體	-10.9736
擺	-10.9736
裘	-10.9738
幡	-10.974
攸	-10.9741
片雲	-10.9742
泡	-10.9742
劇	-10.9749
惑亂	-10.975
訃	-10.9754
近來	-10.9758
令行	-10.9759
是一	-10.9759
山主	-10.976
且作麼生是	-10.9763
十二年	-10.9764
影響	-10.9765
豎拳	-10.9766
柰何	-10.9767
有生	-10.9767
用不著	-10.9769
故人	-10.9771
與伊	-10.9771
脫去	-10.9777
作得主	-10.9778
應物	-10.978
卵	-10.9782
狐疑	-10.9783
且去	-10.9783
需	-10.9784
鐵壁	-10.9784
相契	-10.9787
祖宗	-10.9787
最上	-10.9788
辟	-10.979
同條	-10.979
豈無	-10.9791
厨	-10.9793
融通	-10.9799
無根	-10.98
大義	-10.98
掩關	-10.9802
問如何	-10.9802
崢嶸	-10.9803
貴賤	-10.9804
是他	-10.9807
月照	-10.9807
來往	-10.9815
因此	-10.9817
杓	-10.9818
四十年	-10.9819
無向背	-10.9821
旭	-10.9824
落葉	-10.9824
暫時	-10.9825
钁	-10.9826
佇	-10.9827
呈似	-10.9833
既然	-10.9835
十餘年	-10.9837
熾然	-10.9842
不獲	-10.9842
馨香	-10.9842
不奈何	-10.9842
一燈	-10.9843
因地	-10.9849
龍山	-10.9849
倏	-10.9855
無上菩提	-10.9855
無力	-10.9856
有如是	-10.9856
有意	-10.9861
心源	-10.9864
榜樣	-10.9865
過在什麼處	-10.9865
媚	-10.9866
第一義諦	-10.9867
下得	-10.9867
其義	-10.9867
應緣	-10.9869
豈知	-10.9872
未審和尚	-10.9873
坐臥	-10.9875
與和尚	-10.9878
或時	-10.9878
斷橋	-10.988
但見	-10.9883
攢眉	-10.9885
館	-10.9885
春日	-10.9888
幸有	-10.989
兩眼	-10.9892
惶	-10.9892
肘	-10.9893
發菩提心	-10.9897
未識	-10.9898
老婆心	-10.9901
飲水	-10.9901
大隨	-10.9903
嶺頭	-10.9904
藻	-10.991
佛智	-10.9911
須具	-10.9913
問處	-10.9913
則且置	-10.9914
聞見	-10.9915
還聞麼	-10.9915
至正	-10.9915
唵	-10.9918
自看	-10.9918
如何是和尚	-10.9926
汁	-10.9927
中天	-10.9933
和尚示眾云	-10.9934
語云	-10.9935
道看	-10.9942
圜悟	-10.9946
兩忘	-10.9948
開先	-10.9954
教他	-10.9955
眾集	-10.996
汙	-10.9967
聚雲	-10.9968
團團	-10.9969
無憂	-10.9971
賣弄	-10.9971
貓	-10.9972
師於言下	-10.9972
圓照	-10.9974
碧落	-10.9977
錢塘	-10.9979
九十日	-10.9979
瑕	-10.998
偏正	-10.998
臨濟大師	-10.9981
和尚慈悲	-10.9982
裂破	-10.9984
絕頂	-10.9987
智門	-10.9988
此子	-10.9989
若得	-10.999
如上	-10.999
藏鋒	-10.9994
檻	-10.9994
辛	-10.9998
猿啼	-11
白雲萬里	-11.0001
僧作禮	-11.0002
海水	-11.0004
南堂	-11.0009
金湯	-11.0013
而歸	-11.0014
赫	-11.0017
其或	-11.0017
因何	-11.0018
此三	-11.0021
別求	-11.0023
一會	-11.0025
正如	-11.0027
獨尊	-11.0028
古寺	-11.0029
側耳	-11.003
而求	-11.0032
得個	-11.0033
惟心	-11.0034
瞎却	-11.0034
墓	-11.0037
千餘	-11.0038
北禪	-11.0039
圓悟勤	-11.0042
轉見	-11.0043
不墜	-11.0049
傳衣	-11.0049
末世	-11.0051
應知	-11.0051
授受	-11.0055
躡	-11.0058
頓超	-11.0058
麁	-11.0058
作偈	-11.0059
者亦	-11.0061
四種	-11.0061
優劣	-11.0062
化身	-11.0065
鶯啼	-11.0067
上根	-11.0069
保任	-11.0069
經卷	-11.007
憎愛	-11.0071
須信	-11.0075
雪竇顯云	-11.0076
如山	-11.0076
風高	-11.0077
有五	-11.0077
僧伽	-11.0078
疇	-11.0083
出塵	-11.0085
莊子	-11.009
寶峰	-11.0091
莽鹵	-11.0092
也好	-11.0093
▁上堂	-11.0093
金剛圈	-11.0094
鎮州	-11.0096
慳	-11.0098
寒潭	-11.0098
喝下	-11.0099
山頂	-11.0106
憩	-11.0107
椽	-11.0107
上元	-11.0108
坎	-11.0109
越州	-11.0109
曾無	-11.0114
樹頭	-11.0116
是處	-11.0117
謝和尚	-11.0119
觀者	-11.012
一重	-11.012
知此	-11.012
祖父	-11.012
旻	-11.0123
空過	-11.0127
病者	-11.0128
三家村裏	-11.0132
是甚	-11.0138
不若	-11.0139
體究	-11.0139
蚊	-11.0141
安國	-11.0141
指點	-11.0145
雖無	-11.015
西北	-11.015
老病	-11.0151
知非	-11.0152
寶座	-11.0159
脊梁	-11.016
當日	-11.0162
見後如何	-11.0164
早晚	-11.0166
佇思	-11.0166
座上	-11.0168
通消息	-11.0171
見色	-11.0172
之教	-11.0172
喝曰	-11.0172
象曰	-11.0172
致令	-11.0172
權衡	-11.0173
辣	-11.0175
槩	-11.0176
問汝	-11.0177
台州	-11.0179
不逢	-11.0184
智海	-11.0186
駐	-11.0186
嶠	-11.0187
隴	-11.0192
白衣	-11.0193
慶快	-11.0196
艸鞋	-11.0196
甚麼處去	-11.0197
徑山杲	-11.0198
此義	-11.0199
歿	-11.0202
懽	-11.0212
降生	-11.0213
何處有	-11.0214
白髮	-11.0215
世尊拈花	-11.0218
達本	-11.0218
恁麼事	-11.022
教意	-11.0222
大解脫	-11.0223
相投	-11.0223
但知	-11.0228
無咎	-11.0229
誼	-11.0229
迅	-11.023
稿	-11.0233
五十三	-11.0235
路逢	-11.024
半邊	-11.0241
好笑	-11.0241
破沙盆	-11.0249
一日問	-11.025
南岳	-11.0252
要會麼	-11.0253
大冶	-11.0255
獎	-11.0257
懷胎	-11.0257
祗對	-11.0257
吐露	-11.0262
三山	-11.0262
草草	-11.0264
本寺	-11.0264
餬餅	-11.0264
有佛性	-11.0267
行路	-11.0267
現身	-11.0269
真宗	-11.0269
道道	-11.0273
拍禪床	-11.0273
罏	-11.0274
學道人	-11.0276
衲僧巴鼻	-11.0277
樹上	-11.0277
精金	-11.0278
野狐精	-11.0278
多少時	-11.0278
火爐	-11.028
位中	-11.0281
佛陀	-11.0282
悠	-11.0284
文殊師利	-11.0288
舉著	-11.0291
那得	-11.0296
猶存	-11.0296
電光	-11.0298
信手	-11.0298
慵	-11.03
妄生	-11.0303
一槌	-11.0306
流布	-11.0307
天地之	-11.0308
百餘	-11.0308
不難	-11.031
肝	-11.031
空手	-11.0316
長松	-11.0318
百年後	-11.0319
虀	-11.0319
不可不	-11.0321
華山	-11.0321
汝既	-11.0321
可不	-11.0322
念誦	-11.0324
黃昏	-11.0325
擅	-11.0328
不錯	-11.0328
一顆	-11.033
笑倒	-11.0334
登座	-11.0335
得旨	-11.0336
相將	-11.0337
參堂去	-11.0338
法昌	-11.0339
九峯	-11.0342
仁義	-11.0344
火中	-11.0346
郎當	-11.0348
庭前柏樹子	-11.0348
豈得	-11.0349
正中偏	-11.0349
書偈曰	-11.035
雨露	-11.035
拈提	-11.0351
靈苗	-11.0352
肚皮	-11.0356
請住	-11.0362
蓋為	-11.0362
嫩	-11.0363
滿面	-11.0363
知恩	-11.0365
手脚	-11.0369
金襴	-11.0372
秪是	-11.0372
曜	-11.0375
汝但	-11.0379
剃髮	-11.038
鬪	-11.0381
擡	-11.0382
黑白	-11.0385
而終	-11.0386
未及	-11.0386
眾中還有	-11.0388
十成	-11.0388
出於	-11.0391
炳	-11.0392
旌	-11.0395
不但	-11.0395
禦	-11.0396
無消息	-11.0397
有智	-11.0397
舒州	-11.0398
亡僧	-11.04
中來	-11.04
或問	-11.04
新豐	-11.0403
出生	-11.0406
爭如	-11.0406
老祖	-11.0407
要與	-11.0409
卻被	-11.0414
西禪	-11.0415
元無	-11.0415
瞻仰	-11.0415
師為	-11.0415
西院	-11.0417
滌	-11.0418
師云汝	-11.0419
求人	-11.0419
功成	-11.0423
二尊宿	-11.0423
遣使	-11.0425
座曰	-11.0427
思議	-11.0427
現成公案	-11.0428
祖印	-11.0428
超方	-11.0428
非唯	-11.0428
迺	-11.043
談玄	-11.043
皓月	-11.0431
三業	-11.0435
天上天下	-11.0435
不就	-11.0436
任是	-11.0439
壤	-11.044
明禪師	-11.0441
悞	-11.0448
不多	-11.0452
不語	-11.0455
海嶽	-11.0456
嗅	-11.0458
扁舟	-11.0458
戲論	-11.0458
舉拂子云	-11.0459
場中	-11.046
底漢	-11.0465
空生	-11.0469
若說	-11.047
的人	-11.0471
拂袖便行	-11.0471
忘卻	-11.0473
事業	-11.0475
跌	-11.0475
八百	-11.0476
摩竭	-11.0477
檐	-11.0478
頭來	-11.0481
揩	-11.0482
稱為	-11.0484
闔	-11.0485
有主	-11.0485
新年	-11.0488
惹得	-11.0489
佛知見	-11.0489
肘後	-11.0491
且要	-11.0495
無所不	-11.0496
其源	-11.0498
跛	-11.0499
遂問	-11.0501
躋	-11.0502
知我	-11.0502
隨喜	-11.0506
保壽	-11.0511
西東	-11.0511
乃能	-11.0512
璨	-11.0513
兩句	-11.0513
拋下	-11.0514
力量	-11.0515
之物	-11.0515
出住	-11.0515
高下	-11.0519
蠶	-11.0526
摩尼珠	-11.0527
投子青	-11.0527
秊	-11.0527
盌	-11.0531
隨宜	-11.0531
一似	-11.0536
飡	-11.054
新舊	-11.0542
高人	-11.0543
獃	-11.0543
之談	-11.0543
觀世音菩薩	-11.0543
出手	-11.0545
一樣	-11.0548
驕	-11.0551
七寶	-11.0551
今巳	-11.0555
情知	-11.0557
元旦上堂	-11.0558
休休	-11.0561
入地獄如箭射	-11.0562
擊禪床	-11.0562
勑	-11.0563
神通妙用	-11.0565
空裏	-11.0567
是汝諸人	-11.0574
司馬	-11.0576
頤	-11.0576
天童覺	-11.0577
茶話	-11.0578
匿	-11.0579
東禪	-11.058
耳根	-11.0582
諸仁	-11.0582
鷲嶺	-11.0589
默默	-11.059
法也	-11.059
唯一	-11.059
宴	-11.0591
二邊	-11.0595
寒灰	-11.0596
增長	-11.0597
煆	-11.0599
無遺	-11.0601
煨	-11.0601
牧牛	-11.0602
淂	-11.0602
脫落	-11.0603
青青	-11.0609
種草	-11.061
九旬	-11.061
祇要	-11.0612
盤桓	-11.0614
萬億	-11.0614
既知	-11.0615
福慧	-11.0616
相為	-11.0617
拈華	-11.0618
直指人心	-11.0618
游戲	-11.0623
普濟	-11.0627
滴滴	-11.0627
從緣	-11.0627
箕	-11.0638
權實	-11.0642
不絕	-11.0643
古聖	-11.0646
無滯	-11.0646
靈明	-11.0647
玄微	-11.0647
從上佛祖	-11.0648
問如何是祖師西來意	-11.065
堂曰	-11.0651
魯祖	-11.0653
不啻	-11.0654
搥	-11.0655
老老大大	-11.0655
後有	-11.0657
如前	-11.0657
不讓	-11.0659
奕	-11.0661
沙界	-11.0663
病在	-11.0667
明曰	-11.0669
邵	-11.0669
貢	-11.067
婆曰	-11.067
領旨	-11.0672
銳	-11.0673
不是物	-11.0673
除却	-11.0676
法印	-11.0679
非法	-11.068
請師直指	-11.068
放下著	-11.0682
不覆藏	-11.0684
省力	-11.0686
招慶	-11.0686
靈機	-11.069
顏色	-11.0691
不喜	-11.0694
也不識	-11.0695
拒	-11.0695
穿却	-11.0695
抗	-11.0696
慘	-11.0696
藕	-11.0699
隱隱	-11.0699
便云	-11.0701
現量	-11.0702
塵劫	-11.0703
叮嚀	-11.0704
徒自	-11.0705
因僧問如何是	-11.0706
以何	-11.0709
吝	-11.071
朵	-11.071
若會	-11.0713
徇	-11.0714
濟曰	-11.0714
仲尼	-11.0715
不宜	-11.0715
大善知識	-11.0716
人見錄	-11.0716
一摑	-11.0721
犁	-11.0723
窩	-11.0724
粧	-11.0729
徧界	-11.073
侍立次	-11.0731
文學	-11.0733
要人	-11.0734
求其	-11.0735
鏃	-11.0735
陀羅尼	-11.0736
譬喻	-11.0737
技	-11.0739
德山臨濟	-11.074
心王	-11.074
舉頭	-11.0744
未分	-11.0744
皎皎	-11.0745
往還	-11.0746
一世	-11.0747
若於	-11.0749
不守	-11.0749
男子	-11.0749
終無	-11.075
我此	-11.0751
天宮	-11.0757
無不是	-11.0759
還須	-11.0759
唯是	-11.0759
依依	-11.0759
漢子	-11.0761
吉州	-11.0763
法王法如是	-11.0763
汝心	-11.0764
無影樹	-11.0767
舉火	-11.0768
不喚作	-11.0769
三途	-11.0772
階級	-11.0773
賈	-11.0774
點出	-11.0775
不放	-11.0776
梵行	-11.0776
生鐵	-11.0777
洞徹	-11.0779
請師道	-11.078
虎尾	-11.0782
睹明星	-11.0782
不挂	-11.0787
俊哉	-11.0788
指月	-11.079
註腳	-11.0792
俗人	-11.0792
大有人	-11.0793
非惟	-11.0794
無孔笛	-11.0794
色相	-11.0796
㘞	-11.0797
方見	-11.0797
不厭	-11.0799
前日	-11.08
諸老	-11.0803
何嘗	-11.0805
貽	-11.0806
潘	-11.0808
光照	-11.0809
收得	-11.081
西域	-11.0812
丹霞淳	-11.0813
不實	-11.0814
句中	-11.0817
言教	-11.0818
左邊	-11.082
也不知	-11.082
截流	-11.0821
坐道場	-11.0823
忽聞	-11.0825
虗妄	-11.0826
不二法門	-11.0827
姚	-11.0827
在人	-11.0829
請和尚道	-11.083
為復是	-11.0831
寶華	-11.0832
辭眾	-11.0832
踏倒	-11.0834
若夫	-11.0835
趂出	-11.0836
大涅槃	-11.0838
著衣	-11.084
金牛	-11.0844
吳越	-11.0844
寂然	-11.0847
刪	-11.0849
寰宇	-11.085
惡道	-11.0857
況復	-11.0857
之源	-11.0862
僧一喝	-11.0863
敦	-11.0864
摶	-11.0869
復曰	-11.087
鉏	-11.0872
肝膽	-11.0872
』	-11.0872
釣魚	-11.0875
當今	-11.0876
果報	-11.0876
住住	-11.0876
不是不是	-11.0879
全真	-11.0879
僧舉似	-11.088
得道	-11.0882
忽爾	-11.0885
太尉	-11.0887
八字打開	-11.0887
珪	-11.0889
寶林	-11.0892
慈氏	-11.0894
果子	-11.0895
舖	-11.0895
外求	-11.0896
出此	-11.0898
雲集	-11.0899
悟心	-11.0904
婆云	-11.0904
襄	-11.0904
參見	-11.0905
拈拂子	-11.0907
刻舟	-11.0907
得否	-11.0909
露地白牛	-11.0913
為什麼却	-11.0914
見地	-11.0914
鳥飛	-11.0914
業識茫茫	-11.0915
本末	-11.0922
杏	-11.0926
活埋	-11.0927
一千	-11.0928
行化	-11.0928
之前	-11.093
骨髓	-11.0931
鈔	-11.0938
糊	-11.0939
待他	-11.094
教乘	-11.0941
見道	-11.0941
鼓聲	-11.0944
急須	-11.0945
度生	-11.0948
石鞏	-11.0948
仕	-11.0956
死句	-11.0958
無益	-11.0958
有錄	-11.096
十五年	-11.0961
不真	-11.0961
請小參	-11.0964
如來禪	-11.0966
竪起拂子	-11.0966
染污	-11.0967
謂是	-11.0967
列祖	-11.0968
窻	-11.0969
瑞氣	-11.097
墖	-11.0971
卓卓	-11.0971
▁示	-11.0971
傅	-11.0972
漾	-11.0973
動念	-11.0973
正體	-11.0974
偏中正	-11.0975
他道	-11.0976
頒	-11.0978
年老	-11.0978
橫行	-11.0981
月輪	-11.0982
插香	-11.0983
背上	-11.0983
之見	-11.0983
作務	-11.0988
明教	-11.0988
受請	-11.0989
蝦蟇	-11.0989
非色	-11.0989
萬山	-11.099
除夕	-11.0991
洞山云	-11.0991
皆空	-11.0993
駿	-11.0995
居之	-11.0997
龍宮	-11.0999
寶塔	-11.1003
疆	-11.1003
講經	-11.1005
共一	-11.1007
連天	-11.1008
住世	-11.1009
大開	-11.101
木杓	-11.101
千尋	-11.1011
蛙	-11.1013
未休	-11.1014
過在	-11.1014
終始	-11.1015
狼籍	-11.1016
明眼衲僧	-11.1021
然燈	-11.1021
只向	-11.1023
見如來	-11.1023
生心	-11.1023
不足以	-11.1027
途路	-11.1027
嬰兒	-11.1027
萬境	-11.1028
會也	-11.1034
相國	-11.1038
堤	-11.1039
庚	-11.1043
舡	-11.1043
師將	-11.1047
密雲	-11.1051
入得	-11.1053
通方	-11.1053
於我	-11.1059
嘻	-11.1063
鐙	-11.1063
木石	-11.1063
有聲	-11.1065
帙	-11.1067
擬向	-11.1067
只向他道	-11.107
那一	-11.107
罄	-11.1071
敗闕	-11.1071
此言	-11.1073
雲蓋	-11.1074
訴	-11.1077
善巧	-11.1078
有一物	-11.1082
有功	-11.1082
何足	-11.1083
求佛	-11.1084
爭知	-11.1086
濂	-11.1087
師以手	-11.1088
雲收	-11.1089
扶桑	-11.109
沙曰	-11.1091
藩	-11.1091
卓主丈	-11.1093
句師云	-11.1094
峯頂	-11.1095
導師	-11.1096
即以	-11.11
竿頭	-11.1101
第九	-11.1102
至上堂	-11.1106
輪轉	-11.1107
設供	-11.1108
殺人刀	-11.1112
末後一句	-11.1114
一切諸佛	-11.1115
東京	-11.1118
踢倒	-11.1119
拈得	-11.1119
逕	-11.112
至人	-11.1121
一者	-11.1123
一句又作麼生	-11.1125
為佛事	-11.1125
岐路	-11.1126
一手	-11.1127
羲	-11.1137
未至	-11.1138
壽六十	-11.1139
得與麼	-11.1141
震威一喝	-11.1146
更無別	-11.1147
報身	-11.1148
霜曰	-11.1149
時至	-11.115
壓良為賤	-11.1151
五欲	-11.1152
主丈	-11.1154
如法	-11.1154
猶欠	-11.1154
捺	-11.1155
生佛	-11.1157
汪	-11.1158
功夫	-11.1158
隨方	-11.1159
畝	-11.1162
千里萬里	-11.1165
伶俐	-11.1166
痴	-11.1168
捫	-11.1172
祖祖相傳	-11.1173
又被	-11.1173
烏藤	-11.1174
飛來	-11.1177
呵呵笑	-11.1178
一匝	-11.118
有幾人	-11.1183
書曰	-11.1187
讀之	-11.1188
恆	-11.1189
洞然	-11.1189
者邊	-11.1191
我所	-11.1194
真妄	-11.1194
忽若	-11.1199
白馬	-11.1199
禪流	-11.1202
乾峰	-11.1202
聞說	-11.1204
一尺	-11.1206
禪寺語錄	-11.1206
往參	-11.1207
僧寶	-11.1207
吾家	-11.1208
嘉興	-11.1208
聖人之	-11.121
鴨	-11.1212
稚	-11.1212
法乳	-11.1213
目視	-11.1219
打圓相云	-11.122
一粒米	-11.1221
僧問雲門	-11.1221
年二十	-11.1225
善哉	-11.1227
永劫	-11.1229
作摩生	-11.1231
心識	-11.1232
通天	-11.1233
綿密	-11.1234
佛是	-11.1235
渾無	-11.1235
白玉	-11.1235
紋	-11.1236
及其	-11.1237
作聲	-11.1239
塚	-11.124
腐	-11.1241
威音王	-11.1241
祖塔	-11.1244
諸佛出世	-11.1245
那畔	-11.1245
汝還	-11.1247
旛	-11.125
瑠璃	-11.1252
氣象	-11.1253
陳氏子	-11.1254
豹	-11.1261
燎	-11.1262
一塊	-11.1269
六度	-11.1277
不惜眉毛	-11.1279
便得	-11.128
鸚鵡	-11.1281
光彩	-11.1286
毗耶	-11.1286
妙法	-11.1286
桃李	-11.1287
風起	-11.1287
向下	-11.1289
與古人	-11.1295
可說	-11.1296
殼	-11.1296
後參	-11.1297
此地	-11.1298
團圞	-11.1299
亦不可得	-11.13
起舞	-11.1301
溪邊	-11.1302
頑石	-11.1304
袁	-11.1305
透徹	-11.1307
之要	-11.1307
之辰	-11.1309
卓一卓云	-11.1311
剋	-11.1314
一念心	-11.1319
中夜	-11.132
還自	-11.1324
顯示	-11.1324
莫問	-11.1326
一致	-11.1332
所問	-11.1333
剜	-11.1333
互換	-11.1334
人天眼目	-11.1336
摸著	-11.1337
至道	-11.1338
主曰	-11.1338
諸眾生	-11.1339
裙	-11.134
焉能	-11.1342
不迷	-11.1342
子云	-11.1343
一頌	-11.1343
皮袋	-11.1349
日月星辰	-11.135
妙覺	-11.135
腔	-11.1351
茱萸	-11.1354
一隻眼	-11.1355
空谷	-11.1356
莽	-11.1356
正中來	-11.1356
鷺	-11.1357
檀信	-11.1358
掩耳	-11.1361
徧參	-11.1361
日午	-11.1362
第一句	-11.1362
請上堂問	-11.1363
佛法無多子	-11.1363
瞻禮	-11.1363
曩	-11.1363
大人相	-11.1365
漲	-11.1366
未忘	-11.1366
何者是	-11.1369
甚多	-11.1369
苟能	-11.137
書云	-11.1371
嗟乎	-11.1374
楖栗	-11.1375
之緣	-11.1375
三頓棒	-11.1377
則不問	-11.1378
牒	-11.1379
犬吠	-11.138
我要	-11.1381
著著	-11.1381
居山	-11.1381
得他	-11.1382
梧	-11.1382
大抵	-11.1382
春雨	-11.1387
妙悟	-11.1389
僧舉	-11.1392
三冬	-11.1393
虹	-11.1393
變作	-11.1394
舂	-11.1395
何名	-11.1396
如風	-11.1396
間斷	-11.1396
佛土	-11.1397
堆裏	-11.1399
非無	-11.1399
照用同時	-11.1399
命師	-11.1399
和尚如何	-11.1401
殿上	-11.1401
和泥合水	-11.1401
帝王	-11.1402
俱忘	-11.1403
同異	-11.1404
誦經	-11.1411
寐語	-11.1413
亥	-11.1414
真諦	-11.1415
魁	-11.1415
起龕	-11.1417
當來	-11.1419
高峯	-11.1422
難逃	-11.1422
七縱八橫	-11.1423
六通	-11.1424
不避	-11.1425
迦葉微笑	-11.1425
禪和子	-11.1426
佛所	-11.1427
有一句子	-11.1431
寔	-11.1431
諸佛菩薩	-11.1431
萬像	-11.1433
精勤	-11.1433
誰道	-11.1438
明歷歷	-11.1438
嫁	-11.1439
街頭	-11.1441
圓寂	-11.1441
不輕	-11.1441
弁	-11.1443
與老僧	-11.1443
馬鳴	-11.1445
一室	-11.1446
入寺	-11.1451
古者道	-11.1452
正脈	-11.1452
撾	-11.1452
者即	-11.1453
雙桂	-11.1453
禪德	-11.1454
肰	-11.1456
之苦	-11.1457
七尺	-11.1459
睿	-11.146
飲光	-11.146
作偈曰	-11.1461
其本	-11.1462
不除	-11.1463
閏	-11.1464
陟	-11.1464
絡	-11.1464
苦心	-11.1467
合眼	-11.1468
求法	-11.1471
五峰	-11.1472
尊者曰	-11.1473
彼中	-11.1477
脅	-11.1477
歸何處	-11.1477
將什麼	-11.148
吠	-11.1482
自信	-11.1483
卷第二	-11.1483
自代云	-11.1486
遊人	-11.1486
三三	-11.1494
恍	-11.1496
人天眾前	-11.1497
絲綸	-11.1497
如許	-11.1497
殻	-11.1498
知落處	-11.1498
直上	-11.1504
字字	-11.1505
真言	-11.1506
之盛	-11.1507
是則是	-11.1508
信施	-11.1511
生殺	-11.1511
前話	-11.1515
木上座	-11.1517
蒼天	-11.1518
相救	-11.152
漁父	-11.1521
師唱誰家曲	-11.1522
圓頓	-11.1528
賔	-11.153
若遇	-11.153
初無	-11.1531
以成	-11.1532
而說	-11.1532
覧	-11.1533
眾兄弟	-11.1533
楮	-11.1534
風塵	-11.1535
潦倒	-11.1536
却成	-11.1539
垣	-11.1539
此云	-11.1539
覆藏	-11.1541
苟非	-11.1543
良由	-11.1544
擊拂子云	-11.1545
祖翁	-11.1546
如故	-11.1546
不學	-11.1548
真禪師	-11.1549
現行	-11.1549
入涅槃	-11.1549
逢渠	-11.155
世上	-11.155
朝宗	-11.1551
骨董	-11.1557
雖未	-11.1557
之樂	-11.1557
後昆	-11.1558
清淨法身	-11.1558
恩愛	-11.1558
死也	-11.1559
頌出	-11.156
佛語	-11.1561
無處不	-11.1565
自救不了	-11.1568
如何是諸佛出身處	-11.1568
黃龍南	-11.1573
巳來	-11.1574
無記	-11.1574
便了	-11.1575
重陽	-11.1575
嶼	-11.1581
或謂	-11.1586
後到	-11.1587
惟我	-11.1588
簡點	-11.1588
又僧問	-11.1589
墮地	-11.1593
破戒	-11.1594
巳而	-11.1594
先須	-11.1596
咄哉	-11.1597
傳持	-11.1599
可與	-11.1599
戒定慧	-11.1603
一毫端	-11.1604
高懸	-11.1604
慇懃	-11.1604
祖燈	-11.1605
一言半句	-11.1607
情塵	-11.1607
三五	-11.1607
亦不可	-11.1607
百里	-11.1608
盡未來際	-11.161
諸禪	-11.161
亙	-11.161
神仙	-11.1612
抬	-11.1612
眼開	-11.1612
扉	-11.1613
去後	-11.1614
老婆心切	-11.1615
心肝	-11.1617
戚	-11.1618
生花	-11.1618
未易	-11.162
對靈小參	-11.1621
旨趣	-11.1624
賓主歷然	-11.1624
發揮	-11.1631
棲賢	-11.1631
白槌	-11.1633
隨他	-11.1635
扶持	-11.1636
掬	-11.1637
安知	-11.1639
尹	-11.1643
檀護	-11.1644
囊藏	-11.1645
皆悉	-11.1646
開爐上堂	-11.1646
荷擔	-11.1647
玄沙云	-11.1652
恭敬	-11.1655
在彼	-11.1655
擬心	-11.1656
靜坐	-11.1656
廉纖	-11.1656
二句	-11.1657
天衣	-11.1657
難以	-11.1658
侍僧	-11.1659
悟了	-11.1659
鞏	-11.166
還鄉	-11.166
誰識	-11.1665
但向	-11.1665
躲	-11.1673
寂子	-11.1675
乃可	-11.1675
而可	-11.1677
可笑	-11.1679
若也不會	-11.1679
周旋	-11.168
直待	-11.1682
巴陵	-11.1683
穿過	-11.1683
莫知	-11.1686
喬	-11.1689
拄杖曰	-11.1689
五識	-11.1692
指天指地	-11.1697
我慢	-11.1697
諦觀法王法	-11.1697
侍者曰	-11.1698
雪巖	-11.1699
即名	-11.17
慶云	-11.1702
水雲	-11.1702
示以	-11.1702
若未	-11.1702
自成	-11.1704
他後	-11.1705
安然	-11.1706
意根	-11.1706
萬人	-11.1707
自來	-11.1707
拈曰	-11.1709
雲生	-11.1711
任意	-11.1712
荷葉	-11.1713
每見	-11.1716
元旦	-11.1716
下口	-11.1716
道破	-11.1717
鼇	-11.1718
六載	-11.1718
祖堂	-11.1718
可乎	-11.172
中丞	-11.1721
下山	-11.1724
古殿	-11.1725
宗風嗣阿誰	-11.1726
城中	-11.1729
此方	-11.1734
二則	-11.1738
午夜	-11.1739
褁	-11.1739
一切諸	-11.1743
禮三拜	-11.1745
信口	-11.1746
銘曰	-11.1749
匡廬	-11.1751
幻有	-11.1759
不禁	-11.1762
梵王	-11.1763
何益	-11.1763
塑	-11.1764
如龍	-11.1764
鐺	-11.1765
釋氏	-11.1769
參方	-11.177
所不能	-11.1773
二十二	-11.1775
照禪師	-11.1775
鑰	-11.1775
膚	-11.1776
行次	-11.1778
善權	-11.178
肚裏	-11.178
誌	-11.178
眾中有	-11.1783
瞽	-11.1787
輪王	-11.1788
甦	-11.1788
有來由	-11.1793
二義	-11.1793
日頭	-11.1794
來機	-11.1795
同居	-11.1796
難瞞	-11.1799
世俗	-11.18
景德	-11.1801
原無	-11.1802
巳過	-11.1802
迸出	-11.1804
廛	-11.1805
敢問諸人	-11.1807
久住	-11.1811
法化	-11.1811
當空	-11.1813
行藏	-11.1813
一念萬年	-11.1816
乘時	-11.1819
規模	-11.1822
十二月	-11.1826
姑蘇	-11.1826
縱然	-11.1828
更有一	-11.183
方有	-11.1831
佛照	-11.1832
撥開	-11.1833
清明	-11.1833
拖泥帶水	-11.1834
顯聖	-11.1835
子湖	-11.1841
放去	-11.1841
石火	-11.1842
愜	-11.1842
金鎖	-11.1843
攬	-11.1847
月色	-11.1849
抂	-11.185
拈主丈	-11.1853
眀	-11.1857
蘭若	-11.186
且喜沒交涉	-11.1861
為心	-11.1861
伍	-11.1862
語言文字	-11.1864
不修	-11.1865
膏肓	-11.1866
初生	-11.1867
清平	-11.1868
淘	-11.1871
武林	-11.1872
以後	-11.1874
身命	-11.1878
上曰	-11.188
親承	-11.1882
那時	-11.1884
惜乎	-11.1884
吉凶	-11.1885
靈山一會	-11.1886
知他	-11.1886
一口吸盡西江水	-11.1888
一舉	-11.1889
大振	-11.1889
風來	-11.189
販	-11.1892
噇	-11.1893
婁	-11.1893
萬頃	-11.1896
覺知	-11.1896
師住	-11.1896
咽	-11.1901
返照	-11.1906
實性	-11.1907
樸	-11.1913
主事	-11.1915
壁立	-11.1915
僧又喝	-11.1916
譜	-11.1918
黃面老子	-11.1923
道得即	-11.1924
無外	-11.1924
信不及	-11.1925
示滅	-11.1927
成褫	-11.1927
罪福	-11.1929
檗曰	-11.1932
脫生死	-11.1933
做得	-11.194
苦哉	-11.194
不與麼	-11.194
東家	-11.1941
龍天	-11.1941
無由	-11.1942
癢	-11.1943
不答話	-11.1943
呼為	-11.1945
遲疑	-11.1946
誰解	-11.195
幕	-11.195
拯	-11.1952
所緣	-11.1956
一默	-11.1956
之念	-11.1957
矯	-11.1958
出不得	-11.1958
敢問大眾	-11.1958
頷	-11.1959
聞師	-11.1959
箭射	-11.196
閻	-11.1962
白浪	-11.1962
之寶	-11.1962
▁【	-11.1963
叢中	-11.1964
轟	-11.1966
同風	-11.1968
瀾	-11.1969
只恁麼	-11.1972
機輪	-11.1972
佛手	-11.1974
初一	-11.1977
傍人	-11.1978
甎	-11.1978
假饒	-11.1979
要津	-11.1981
炷香	-11.1983
䟦	-11.1984
天機	-11.1984
盍	-11.1984
剃度	-11.1986
今時人	-11.1987
用得	-11.1987
妙喜曰	-11.1989
正所謂	-11.199
上藍	-11.1991
佛乘	-11.1996
勘過	-11.1997
稠	-11.2
提不起	-11.2001
墳	-11.2003
錦鱗	-11.2003
精舍	-11.2005
山青	-11.2006
通云	-11.2006
掩室	-11.2008
洛陽	-11.201
此皆	-11.2012
無因	-11.2013
行履處	-11.2014
上古	-11.2015
眼底	-11.2019
笏	-11.2021
郡之	-11.2021
頂禮	-11.2022
三四	-11.2022
自身	-11.2023
聞道	-11.2023
正見	-11.2025
猴	-11.2025
拆	-11.2025
虫	-11.2026
進一步	-11.2026
屆	-11.2029
浮生	-11.2033
裴	-11.2034
因循	-11.2036
千生	-11.2037
拱手	-11.2037
縈	-11.2038
蘗	-11.2039
磵	-11.2039
過量	-11.204
一宗	-11.204
過了	-11.2041
其語	-11.2041
靈峰	-11.2045
我師	-11.2049
說底	-11.2051
然此	-11.2052
打成一片	-11.2052
查	-11.2052
知巳	-11.2054
了生死	-11.2055
使其	-11.2055
信知	-11.206
收來	-11.2062
怛	-11.2062
精明	-11.2064
法會	-11.2066
令侍者	-11.2066
不坐	-11.2067
即真	-11.2068
把火	-11.2069
無奈	-11.2069
清香	-11.2069
髭	-11.207
開花	-11.2072
宗云	-11.2072
如何是主中主	-11.2073
轉語	-11.2073
不與萬法為侶	-11.2076
丕	-11.2079
蠡	-11.2079
蔚	-11.2079
不差	-11.208
而常	-11.2085
佛鑑懃	-11.2086
洽	-11.2087
擊鼓	-11.2087
更須知有	-11.2088
宸	-11.2089
九日	-11.209
如何即是	-11.2096
眉間	-11.2097
通箇消息	-11.2097
以下	-11.2097
摵	-11.2101
吽	-11.2103
三觀	-11.2104
千人	-11.2105
曹源	-11.2107
生前	-11.2108
大機大用	-11.2108
城東	-11.2109
宮商	-11.2109
和氣	-11.211
邇	-11.211
不重	-11.2113
兩班	-11.2114
央	-11.2114
在你	-11.2114
佛前	-11.2115
如何是西來意	-11.2119
正當十五日	-11.2119
斬新	-11.212
法堂前	-11.212
慧禪師	-11.2121
臨濟德山	-11.2122
佞	-11.2122
千聖不傳	-11.2126
從來不	-11.2129
布衫	-11.213
種智	-11.213
系	-11.2131
緘	-11.2135
兩字	-11.2135
吾佛	-11.2136
酬價	-11.2137
蠢	-11.2137
行矣	-11.2138
參頭	-11.2139
楹	-11.2139
勢云	-11.214
普應	-11.2141
懈怠	-11.2143
披剃	-11.2143
隨其	-11.2145
個事	-11.2147
猛省	-11.2152
法筵	-11.2153
琢	-11.2153
百鳥	-11.2153
捋虎鬚	-11.2155
因事	-11.2155
鹿門	-11.2157
歷代	-11.2158
魔外	-11.2159
奯	-11.2159
其一	-11.216
拄杖頭上	-11.216
驥	-11.2161
橫按	-11.2164
簿	-11.2166
堂奧	-11.2166
諧	-11.2167
打得	-11.2168
不名	-11.2169
便休去	-11.2173
波羅	-11.2174
打睡	-11.2174
!」	-11.2174
言言	-11.2177
了悟	-11.2178
無虧	-11.2179
九夏	-11.2182
室內	-11.2183
金風	-11.2183
善用	-11.2184
通禪師	-11.2184
千丈	-11.2186
此僧	-11.2187
豐干	-11.219
依他	-11.2191
親證	-11.2191
鷂	-11.2193
荊棘林	-11.2195
牧童	-11.2197
竹杖	-11.2197
既得	-11.2198
大事因緣	-11.2198
可惜許	-11.2199
塗毒鼓	-11.2199
耑	-11.2202
觔	-11.2203
師召	-11.2205
臨筵	-11.2207
一堆	-11.2207
兼帶	-11.2207
萬德	-11.2211
煙水	-11.2212
昭覺勤云	-11.2212
散亂	-11.2213
獰龍	-11.2213
多羅	-11.2217
的是	-11.2217
家私	-11.2218
一句作麼生	-11.2218
歲寒	-11.222
等事	-11.2221
伎	-11.2223
多事	-11.2225
桃華	-11.2226
兀	-11.2229
數百	-11.223
薙染	-11.2231
先後	-11.2231
竭力	-11.2233
寶殿	-11.2238
你還	-11.2238
釋然	-11.2238
梧桐	-11.2239
元宵	-11.2239
彎	-11.2239
靠拄杖	-11.224
勁	-11.224
遍參	-11.2241
圓具	-11.2241
一口吞	-11.2241
道業	-11.2242
誕生	-11.2242
泰山	-11.2243
崔嵬	-11.2243
倡	-11.2243
眼上	-11.2244
師拈	-11.2246
蟄	-11.2246
見箇甚麼	-11.2248
巳成	-11.2249
疑團	-11.2249
放汝三十棒	-11.2253
安名	-11.2254
無傳	-11.2254
日照	-11.2254
無面目	-11.2254
法鼓	-11.2258
畫一圓相	-11.2258
不滯	-11.226
汗流	-11.226
註脚	-11.2261
錦繡	-11.2262
下禪牀	-11.2262
火炬	-11.2264
至尊	-11.2265
勝負	-11.2265
大明	-11.2265
青嶂	-11.2265
了達	-11.2266
贅	-11.2266
爍破	-11.2267
遂舉	-11.2269
寒光	-11.2271
驪珠	-11.2271
壽山	-11.2272
有物	-11.2274
一株	-11.2274
可憐生	-11.2277
曲調	-11.2278
東明	-11.2278
一喝不作一喝用	-11.228
壽量	-11.2282
敢問	-11.2283
澡	-11.2284
此節	-11.2286
轉得	-11.2289
二十餘年	-11.229
布毛	-11.229
洩	-11.2291
惟願	-11.2292
成現	-11.2296
敗壞	-11.2297
舁	-11.2299
三關	-11.2299
追風	-11.23
無主	-11.23
壘	-11.23
因僧	-11.2302
鼈	-11.2303
若道不得	-11.2304
失利	-11.2306
人境	-11.2307
失色	-11.2309
夜叉	-11.2309
若約	-11.231
航	-11.2311
【	-11.2312
獰	-11.2313
即空	-11.2313
歷然	-11.2317
便恁麼去	-11.2318
是好手	-11.2318
之異	-11.232
衙	-11.232
當有	-11.2322
動用	-11.2326
無人識	-11.2326
靈鷲	-11.2328
著眼看	-11.2331
是作家	-11.2333
至誠	-11.2333
皎	-11.2333
韶州	-11.2334
萬法歸一一歸何處	-11.2335
忍辱	-11.2336
右手	-11.2336
婺州	-11.2338
雲門道	-11.2338
眾中莫有	-11.234
鳥語	-11.2341
幾年	-11.2342
生死海	-11.2343
則易	-11.2343
色界	-11.2344
大千沙界	-11.2344
教外	-11.2346
置之	-11.2346
劈脊	-11.2347
舉世尊	-11.2349
一絲	-11.2349
成等正覺	-11.235
讎	-11.235
點茶	-11.235
開發	-11.2352
督	-11.2353
梵音	-11.2353
寶珠	-11.2355
尉	-11.2355
貴在	-11.2357
相待	-11.2359
屈指	-11.236
句下	-11.2364
無餘事	-11.2366
一轉	-11.2366
法爾	-11.2367
沐浴	-11.2367
還山	-11.2368
應庵	-11.237
莫謗	-11.2372
無拘	-11.2373
香水海	-11.2374
三者	-11.2375
古來	-11.2376
淑	-11.2376
仔細看	-11.2376
觀自在	-11.2376
楚石	-11.2377
掘地	-11.2379
遇著	-11.238
殺生	-11.2381
七十二	-11.2382
住此山	-11.2384
此際	-11.2386
溥	-11.2387
風波	-11.2389
始是	-11.239
東山水上行	-11.2396
若了	-11.2398
摑	-11.2398
委曲	-11.24
自非	-11.24
之初	-11.24
畬	-11.24
此性	-11.2401
雙眼	-11.2401
依此	-11.2401
達者	-11.2404
幾個	-11.2404
嬰	-11.2405
刈	-11.2406
得力處	-11.2408
僧云如何是	-11.2408
大悅	-11.2408
維摩詰	-11.2409
無回互	-11.2409
東邊	-11.2409
婢	-11.2409
二十七	-11.2411
不久	-11.2415
鳥窠	-11.2415
若不會	-11.2419
啣	-11.2419
費力	-11.2421
重興	-11.2426
趙州茶	-11.2426
青天白日	-11.2428
豎拂	-11.2428
另	-11.2428
便解	-11.243
延壽	-11.2433
自能	-11.2433
斷滅	-11.2433
大樹	-11.2433
今日失利	-11.2434
漿	-11.2434
矩	-11.2436
散去	-11.2439
真消息	-11.2441
諡	-11.2442
無眼	-11.2444
圓禪師	-11.2444
佛法僧	-11.2445
淨業	-11.2445
猪	-11.2445
二千年	-11.2446
打坐	-11.2448
朝廷	-11.245
塵剎	-11.2451
依倚	-11.2452
一氣	-11.2452
取證	-11.2452
一天	-11.2453
三塗	-11.2454
涅槃妙心	-11.2455
畫一畫	-11.2456
未曾有	-11.2456
沉吟	-11.2458
懡㦬	-11.246
方便門	-11.2462
無縫	-11.2463
兼中到	-11.2464
骸	-11.2464
一派	-11.2464
當門	-11.2466
簇簇	-11.2466
井底	-11.2467
百千諸佛	-11.2468
霜云	-11.2468
水陸	-11.2469
消得	-11.247
抄	-11.2471
三歲	-11.2471
以示	-11.2473
魔軍	-11.2477
年多少	-11.2477
漸次	-11.2477
不著便	-11.248
生天	-11.248
勦絕	-11.248
收放	-11.2481
如日	-11.2481
鐵船	-11.2482
泉石	-11.2484
雪嶺	-11.2488
頻頻	-11.2488
且看	-11.2489
有一僧	-11.2489
手足	-11.2493
嬌	-11.2494
徃	-11.2494
恒河沙	-11.2495
善法	-11.2498
笋	-11.2499
世尊云	-11.2499
純熟	-11.25
相訪	-11.25
園林	-11.2501
用盡	-11.2502
沃	-11.2503
舉世	-11.2503
未生時	-11.2504
覷著	-11.2504
其德	-11.2505
右邊	-11.2506
匡山	-11.2509
中流	-11.251
氣宇	-11.251
月八日	-11.2511
六代祖師	-11.2515
單單	-11.2516
吾有	-11.2529
隨意	-11.2529
平田	-11.253
形骸	-11.2532
相親	-11.2533
之先	-11.2533
艸木	-11.2535
之室	-11.2535
鑊湯爐炭	-11.2536
成佛作祖	-11.2536
號令	-11.2538
自相	-11.2539
龍女	-11.2539
天晴	-11.254
穿雲	-11.2541
時節因緣	-11.2541
空有	-11.2541
煌	-11.2542
十一月	-11.2543
幾何	-11.2544
胤	-11.2548
只道	-11.2548
孟子	-11.2549
在前	-11.255
但云	-11.2552
巡堂	-11.2555
點首	-11.2556
當為	-11.2558
更莫	-11.2559
底時節	-11.256
千金	-11.2562
嚇	-11.2564
多是	-11.2568
要須	-11.2571
湖州	-11.2574
麈	-11.2576
證入	-11.2579
家聲	-11.2584
不掛	-11.2586
則能	-11.2588
世世	-11.2591
佛教	-11.2592
慚惶	-11.2593
笑呵呵	-11.2594
愚人	-11.2594
即今在甚麼處	-11.2595
蒼龍	-11.2595
龍翔	-11.2597
如實	-11.2598
札	-11.26
全是	-11.2601
瞳	-11.2603
元來是	-11.2604
參尋	-11.2604
署	-11.2607
百千三昧	-11.2607
筌	-11.2608
能見	-11.2609
應時	-11.2609
懿	-11.2615
蒼蒼	-11.2616
徒眾	-11.2619
豈肯	-11.2621
學解	-11.2622
最為	-11.2622
從何而	-11.2623
谷口	-11.2623
香山	-11.2623
國人	-11.2625
翌日	-11.2625
未敢	-11.2627
一面	-11.2628
伴侶	-11.2629
之謂也	-11.2631
偈頌	-11.2631
其形	-11.2632
平實	-11.2632
梵志	-11.2633
茫	-11.2633
演說	-11.2634
力行	-11.2636
聞法	-11.2636
薰風	-11.2637
合道	-11.2637
胸襟	-11.2639
折合	-11.2639
抽身	-11.2639
明宗	-11.264
道底	-11.2641
令其	-11.2643
離四句絕百非	-11.2644
第二句	-11.2645
此段	-11.2646
耳聞	-11.2648
韶山	-11.265
時光	-11.2653
聽取	-11.2655
須彌頂上	-11.2655
萍	-11.2658
家業	-11.2662
好個	-11.2663
掃除	-11.2664
與一掌	-11.2665
增減	-11.2672
說戒	-11.2672
諸相	-11.2672
香象	-11.2675
忘言	-11.2677
萬別千差	-11.2683
六人	-11.2684
決不	-11.2686
我來	-11.2687
迢	-11.2687
與大眾	-11.2688
放身	-11.2689
如何是向上事	-11.269
腕	-11.2691
超佛越祖	-11.2695
真俗	-11.2697
五雲	-11.2697
凌霄	-11.2697
上山	-11.2699
安置	-11.27
院事	-11.2702
一杓	-11.2703
三生	-11.2703
異類中行	-11.2705
火炬云	-11.2705
觸忤	-11.2706
落空	-11.2706
老大	-11.2708
舉臨濟	-11.2709
鍛	-11.2709
打一棒	-11.271
更與	-11.271
不可見	-11.2711
宛轉	-11.2712
師復打	-11.2712
居士請上堂	-11.2718
不致	-11.272
衲僧分上	-11.2721
鷂子	-11.2723
綠楊	-11.2727
磕	-11.2729
關頭	-11.273
以表	-11.2734
莫非	-11.2735
功用	-11.2738
黑漫漫	-11.274
草裏	-11.2741
恰是	-11.2741
說道理	-11.2742
便棒	-11.2742
藹	-11.2742
楓	-11.2742
攙	-11.2743
上方丈	-11.2745
耆宿	-11.2745
殃崛	-11.2745
展坐具	-11.2745
肌	-11.2748
生機	-11.2749
侍者云	-11.2752
掀倒禪床	-11.2757
青黃	-11.2758
章敬	-11.2758
付之	-11.276
劫前	-11.2762
寒山子	-11.2763
杭	-11.2764
2	-11.2766
根性	-11.2768
個漢	-11.2769
樁	-11.2769
一箇半箇	-11.277
不共	-11.277
筠	-11.2771
甚麼處來	-11.2771
回光	-11.2772
賴有	-11.2772
口似	-11.2774
無所住	-11.2775
行世	-11.2777
牙齒	-11.2777
夭	-11.2777
沽	-11.2777
掌中	-11.2779
未許	-11.2786
壽命	-11.2792
實難	-11.2792
往見	-11.2795
香几	-11.2798
不費	-11.28
二十六	-11.2802
宦	-11.2802
遇知音	-11.2803
國裏	-11.2806
薙髮	-11.2806
勘破了也	-11.2806
為物	-11.2807
稔	-11.2808
綺	-11.281
天華	-11.2811
昔時	-11.2811
以偈曰	-11.2812
喚作什麼	-11.2814
聲名	-11.2814
世尊初生	-11.2818
句子	-11.2819
遼	-11.2822
咫尺	-11.2823
銀山鐵壁	-11.2823
蚯蚓	-11.2823
香臺	-11.2825
就座	-11.2826
兩邊	-11.2828
遂成	-11.2829
淨因	-11.283
毒蛇	-11.2831
具戒	-11.2831
法空	-11.2832
白蓮	-11.2832
三平	-11.2834
豎拂子曰	-11.2836
飄飄	-11.2837
冷灰	-11.2837
立雪	-11.2837
擔板	-11.284
以兩手	-11.2843
西河	-11.2843
世諦流布	-11.2848
即知	-11.2848
既巳	-11.2848
不計	-11.285
毗尼	-11.285
秘密	-11.285
孤危	-11.2851
無舌人	-11.2852
舉步	-11.2854
一日云	-11.2856
百世	-11.2858
無情說法	-11.2858
倒騎	-11.2862
穩坐	-11.2862
恁麼不恁麼	-11.2863
茶湯	-11.2863
徒然	-11.2864
過患	-11.2866
田中	-11.2867
靈根	-11.287
擒住	-11.2874
千百	-11.2877
感應	-11.2879
臉	-11.2879
五家	-11.2881
離諸	-11.2882
兩度	-11.2883
斯道	-11.2884
若識得	-11.2884
黃鸝	-11.2885
魅	-11.2885
充滿	-11.2885
渭	-11.2886
桌	-11.2889
沛	-11.2889
夜夜	-11.289
化門	-11.2894
瀟灑	-11.2894
此宗	-11.2897
燼	-11.2898
國師云	-11.2898
安身立命處	-11.2899
印印	-11.2902
以此為	-11.2904
別峰	-11.2905
臘八	-11.2908
禮樂	-11.2909
一句師云	-11.291
兩堂	-11.291
瀟湘	-11.2911
牛頭未見四祖時如何	-11.2911
向上一著	-11.2914
杷	-11.2914
若離	-11.2916
噪	-11.2917
且如何是	-11.2918
青原下	-11.2919
師友	-11.292
琛	-11.2921
舊處	-11.2921
虎嘯	-11.2921
山花	-11.2923
快樂	-11.2924
所以云	-11.2925
即不問如何是	-11.2925
閭	-11.2925
依止	-11.2925
出家兒	-11.2928
孕	-11.2928
自恣	-11.2929
未離兜率	-11.293
者矣	-11.2932
佛告	-11.2933
搊	-11.2935
出世間	-11.2935
攝受	-11.2938
此篇	-11.2938
汝州	-11.2943
蟭螟	-11.2943
過時	-11.2945
遠矣	-11.2947
眾生界	-11.2947
賢者	-11.2951
妙旨	-11.2951
傳心	-11.2952
什麼處去	-11.2952
卯	-11.2952
合轍	-11.2953
生死大事	-11.2953
便向	-11.2956
始有	-11.2956
既非	-11.2956
為體	-11.2959
冬瓜	-11.2964
至矣	-11.2968
非實	-11.2968
車馬	-11.2971
茸	-11.2972
霍	-11.2972
蓼	-11.2973
某等	-11.2973
所現	-11.2974
俞	-11.2974
些些	-11.2975
脂	-11.2975
大海水	-11.2976
殞	-11.2977
迭	-11.2977
和南	-11.2978
扁	-11.2979
待我	-11.2981
之氣	-11.2983
諦觀	-11.2983
入城	-11.2983
門弟子	-11.2984
正信	-11.2985
楞伽經	-11.2985
拓開	-11.2985
三千里	-11.2986
我輩	-11.2987
後至	-11.2988
境緣	-11.2988
未舉	-11.2989
發現	-11.2995
自爾	-11.2996
輯	-11.2996
口頭	-11.2998
從何處	-11.3
深坑	-11.3001
何不問	-11.3001
蒿	-11.3002
峩	-11.3003
溝	-11.3003
柴頭	-11.3003
遠公	-11.3005
發機	-11.3007
成佛道	-11.301
不歇	-11.3011
如何若何	-11.3014
殿閣	-11.3015
琳	-11.3016
灼	-11.3017
熊耳	-11.3017
單刀直入	-11.302
汝作麼生會	-11.3023
唇吻	-11.3025
僧禮拜師云	-11.3025
『	-11.3026
其家	-11.3028
本非	-11.3029
主中主	-11.303
心念	-11.3033
蓑	-11.3034
體性	-11.3034
用力	-11.3036
對治	-11.304
猫	-11.3043
四方八面	-11.3043
下落	-11.3044
木佛	-11.3045
湛湛	-11.3045
金峰	-11.3046
孤峰頂上	-11.3047
𡎺	-11.3048
劈脊便棒	-11.3049
金雞	-11.305
總不知	-11.3051
兩段	-11.3053
鞭影	-11.3053
為甚不	-11.3056
赤手	-11.3056
有句無句	-11.3057
耽源	-11.3057
去了	-11.3057
鞍	-11.3058
蚌	-11.3058
落第二	-11.306
阿耨多羅三藐三菩提	-11.306
騷	-11.3061
三角	-11.3062
點檢	-11.3062
吁	-11.3064
皆同	-11.3065
持鉢	-11.3069
打著	-11.3072
寥廓	-11.3076
相繼	-11.3076
開田	-11.3078
蕊	-11.308
十五日巳前	-11.3082
僧云和尚	-11.3082
千七百	-11.3082
當體	-11.3086
祖師心印	-11.3089
甚處得來	-11.3089
靣	-11.309
尋思	-11.309
密菴	-11.309
求道	-11.309
潼	-11.3091
閙市	-11.3091
此理如何	-11.3092
遑	-11.3096
春水	-11.3097
孝廉	-11.3097
賺殺	-11.3098
難提	-11.31
擊竹	-11.3103
丈六金身	-11.3104
誰管	-11.3105
訊	-11.3105
撑	-11.3107
法藏	-11.311
心空及第歸	-11.3112
此偈	-11.3112
超出	-11.3113
狗子還有佛性也無	-11.3113
截斷眾流	-11.3114
儂	-11.3114
而住	-11.3115
月影	-11.3115
拗折	-11.3116
燈籠露柱	-11.3116
還家	-11.3117
舉僧問雲門	-11.3118
罔測	-11.3118
汗下	-11.3121
一毛頭	-11.3121
不曉	-11.3121
盲龜	-11.3123
二途	-11.3124
犢	-11.3126
槐	-11.3131
自體	-11.3132
退身	-11.3134
手書	-11.3136
遊行	-11.3137
世所	-11.3138
醬	-11.3145
取之	-11.3146
擲拄杖	-11.3146
驪龍	-11.3149
何緣	-11.3149
識情	-11.3152
亂統	-11.3156
甚分明	-11.3159
有一句	-11.3165
璣	-11.3168
安禪	-11.3169
雲間	-11.3173
便入	-11.3173
既然如是	-11.3174
換却	-11.3175
所居	-11.3176
無塵	-11.3178
淵源	-11.318
世尊曰	-11.3182
擾擾	-11.3182
師以拄杖	-11.3182
曰學人不會	-11.3183
追尋	-11.3183
肖	-11.3184
過量人	-11.3186
厄	-11.3187
勘驗	-11.3188
址	-11.3189
叢席	-11.319
脫然	-11.3192
實為	-11.3197
無所有	-11.3198
曰未審	-11.32
不暇	-11.3202
教汝	-11.3203
矧	-11.3204
竹篦子	-11.3204
謂師曰	-11.3205
未嘗不	-11.3205
葵	-11.3206
遭人	-11.3206
鍾山	-11.3207
寶月	-11.321
隈	-11.3212
峙	-11.3212
寤	-11.3214
真覺	-11.3215
汎	-11.3216
牕	-11.3218
雲霄	-11.322
明覺	-11.322
塗毒	-11.3221
趙州道	-11.3221
胸次	-11.3221
莫言	-11.3222
也只是	-11.3223
外護	-11.3223
普願	-11.3226
乾矢橛	-11.3227
目之	-11.3228
圭	-11.323
興善	-11.3231
無病	-11.3234
叱之	-11.3236
契合	-11.3243
吞吐	-11.3244
僧罔措	-11.3246
馬駒	-11.3247
初見	-11.3248
鈍根	-11.3249
煆煉	-11.3252
六日	-11.3253
便掌	-11.3256
乎哉	-11.3258
始可	-11.3258
超宗	-11.3259
擲下拂子	-11.3261
必欲	-11.3265
多矣	-11.3265
秋色	-11.3265
憨山	-11.3266
蒙和尚	-11.3266
久嚮	-11.3266
鳳山	-11.3266
正在	-11.3266
瞠	-11.3267
頓漸	-11.327
鋸	-11.327
河北	-11.3272
不憚	-11.3272
四十九	-11.3273
幾番	-11.3274
相從	-11.3275
再參	-11.3279
惡水	-11.3284
噉	-11.3285
禮拜起	-11.3285
深信	-11.3287
菩薩摩訶薩	-11.3288
檢點得出	-11.329
我即	-11.3291
果有	-11.3294
不亂	-11.3294
後事	-11.3295
悲願	-11.3296
太原	-11.3296
菩提樹	-11.3296
出處	-11.3298
忒	-11.3299
万	-11.3299
叉手而立	-11.33
奮迅	-11.3301
孜孜	-11.3303
宮殿	-11.3304
乙	-11.3306
的旨	-11.3306
我當時若見	-11.3306
向上宗乘	-11.331
穿衣喫飯	-11.3311
白棒	-11.3311
金剛王寶劍	-11.3317
波旬	-11.3317
頭上安頭	-11.3318
遇緣	-11.3319
佛剎	-11.332
饒你	-11.3321
价	-11.3322
天魔	-11.3322
千日	-11.3323
非他物	-11.3323
僧眾	-11.3326
常州	-11.3326
孤峯	-11.3328
西來大意	-11.3328
那吒	-11.3328
直捷	-11.3329
告眾曰	-11.333
土木	-11.3333
問學人	-11.3334
無生死	-11.3334
也恁麼	-11.3334
亦難	-11.3336
先是	-11.3339
離却	-11.3342
雪裏	-11.3343
未出母胎	-11.3344
夥	-11.3349
濱	-11.3351
更深	-11.3353
祇這	-11.3358
唱和	-11.3359
不觸	-11.336
薑	-11.336
有二種	-11.3361
磕著	-11.3361
不回	-11.3363
隨風	-11.3363
恁麼問	-11.3364
大洪	-11.3365
瞿	-11.3366
未達	-11.3367
脫却	-11.3368
我與你	-11.3369
不恁麼也不得	-11.3371
有僧出	-11.3373
水面	-11.3373
一頭水牯牛	-11.3374
前輩	-11.3375
國家	-11.3378
雲臻	-11.3378
毘耶	-11.3379
既爾	-11.3379
豈止	-11.338
修羅	-11.3385
忽地	-11.3385
聚頭	-11.3386
西蜀	-11.3386
芻	-11.3386
▁住	-11.3386
潑天	-11.3387
毛端	-11.3388
都寺	-11.3388
後因	-11.3388
老翁	-11.3392
十善	-11.3392
粵	-11.3394
臘五十	-11.3396
荊山	-11.3398
德山棒	-11.3398
幽谷	-11.3399
不妄	-11.34
便會	-11.3403
菩薩戒	-11.3404
流俗	-11.3404
其理	-11.3407
代曰	-11.3407
氏之	-11.3408
十五日巳後	-11.341
不對	-11.3412
夜靜	-11.3414
提婆	-11.3414
恁麼也不得	-11.3416
千眼	-11.342
無文	-11.3423
忘機	-11.3424
頸	-11.3426
浣	-11.3427
玷	-11.3428
含靈	-11.3433
百城	-11.3433
把斷	-11.3436
利人	-11.3439
金沙	-11.344
一對	-11.3443
面孔	-11.3443
者誰	-11.3445
豎起拂子	-11.3448
東塔	-11.3448
秖是	-11.345
逼塞	-11.345
大願	-11.3452
捋	-11.3452
使者	-11.3453
適纔	-11.3453
耳朵	-11.3453
凝然	-11.3454
向何處	-11.3455
剎塵	-11.3456
報佛恩	-11.3456
不意	-11.3458
學問	-11.3458
若會得	-11.3459
喝出	-11.3461
行業	-11.3462
暄	-11.3463
示徒	-11.3465
知君	-11.3467
晚年	-11.3467
李氏子	-11.3468
諸經	-11.347
舉似大眾	-11.3471
漏洩	-11.3472
鼻孔裏	-11.3475
張無盡	-11.3476
知不知	-11.3476
釋云	-11.3476
只將	-11.3478
得大自在	-11.3478
鶻	-11.3479
化云	-11.3481
天地懸隔	-11.3481
平地上	-11.3483
院裏	-11.3483
逐物	-11.3483
妄見	-11.3484
泄	-11.3485
請主	-11.3489
心是佛	-11.349
形容	-11.3491
赤脚	-11.3494
浴佛	-11.3494
飯僧	-11.3497
夢覺	-11.3498
召云	-11.3498
花發	-11.3499
從之	-11.35
慎勿	-11.3503
未離	-11.3503
扯	-11.3503
一場懡㦬	-11.3503
舉雲門	-11.3504
嶂	-11.3505
大病	-11.3508
鹹	-11.3509
本來無一物	-11.3511
淋	-11.3511
之病	-11.3511
果熟	-11.3514
松源	-11.3515
大地眾生	-11.3516
遇人	-11.3516
斫額	-11.3518
鼓山珪	-11.3518
亦不能	-11.352
歬	-11.352
獨許	-11.3523
真理	-11.3525
夜行	-11.3527
只貴	-11.3528
溪聲	-11.3531
即是佛	-11.3534
劫火洞然	-11.3539
皂	-11.3539
保社	-11.354
一椎	-11.354
嘶	-11.3543
不齊	-11.3544
大殿	-11.3546
露堂堂	-11.3546
三十三天	-11.3548
契證	-11.3548
修習	-11.3549
囑曰	-11.3549
今夏	-11.355
天下太平	-11.3553
言外	-11.3555
著語云	-11.3561
情忘	-11.3561
直指人心見性成佛	-11.3561
主張	-11.3561
苦口	-11.3561
愛憎	-11.3563
一僧出	-11.3565
咳	-11.3567
羣生	-11.3567
野鴨	-11.3569
別後	-11.357
最難	-11.357
堆頭	-11.3573
忽然大悟	-11.3575
不奈	-11.3576
三十年來	-11.3578
不赴	-11.3578
枯樁	-11.3579
支離	-11.358
大唐	-11.3581
行不得	-11.3582
久而	-11.3582
一剎那	-11.3587
瞬	-11.3588
善友	-11.3589
喫粥	-11.359
使得	-11.3596
謳歌	-11.3596
雨滴	-11.3596
寶光	-11.3596
梳	-11.3599
危坐	-11.3602
渺	-11.3602
爛熳	-11.3602
不殺	-11.3604
同途	-11.3604
灌溪	-11.3606
小小	-11.3609
相好	-11.3611
道路	-11.3614
釋迦如來	-11.3616
吾徒	-11.3617
無有是處	-11.3618
法爾如然	-11.3619
道林	-11.362
霜雪	-11.3622
徹證	-11.3624
不孝	-11.3625
判斷	-11.3626
無價	-11.3628
鐫	-11.363
何其	-11.3633
鑊湯	-11.3634
試舉看	-11.3634
清禪師	-11.3635
死蛇	-11.3635
犀	-11.3636
閫	-11.3636
翩翩	-11.3637
終不能	-11.3638
不倦	-11.3638
茅屋	-11.3639
彊	-11.364
見僧來	-11.3641
瀝	-11.3643
世尊因	-11.3647
退居	-11.3647
未生前	-11.3649
左手	-11.3653
靈照	-11.3654
拈拄杖卓一下	-11.3655
無極	-11.3655
探竿影草	-11.3656
玅用	-11.3657
任從	-11.3657
作女人拜	-11.3662
摩羅	-11.3666
同學	-11.3666
九天	-11.3671
展開	-11.3672
先天	-11.3673
亦何	-11.3673
比丘尼	-11.3674
更加	-11.3674
兀兀	-11.3676
一座	-11.368
掦	-11.3682
家中	-11.3683
並無	-11.3683
具眼者	-11.3683
楊州	-11.3684
滅却	-11.3688
獅子兒	-11.3691
轉變	-11.3691
縉紳	-11.3692
訂	-11.3696
蹲	-11.3696
突兀	-11.3698
萬善	-11.3698
復是何物	-11.3699
勃	-11.3703
僚	-11.3708
江河	-11.371
又爭得	-11.3711
珍寶	-11.3713
曾經	-11.3714
若然者	-11.3714
安隱	-11.3714
城裏	-11.372
絮	-11.3722
兩手分付	-11.3724
未在更道	-11.3728
無思	-11.373
端倪	-11.3734
皆因	-11.3734
郡守	-11.3734
揚家醜	-11.3734
兀坐	-11.3734
磐	-11.3734
直到	-11.3735
打某甲	-11.3742
萬松道	-11.3743
片雪	-11.3745
山僧道	-11.3746
拄杖頭	-11.3746
違背	-11.3747
隨類	-11.3748
義理	-11.3749
撥著	-11.375
之場	-11.3751
受苦	-11.3752
進語	-11.3753
秋光	-11.3754
古木	-11.3754
腦裂	-11.3754
樹倒藤枯	-11.3756
正覺云	-11.3756
以何為驗	-11.3758
五千	-11.3758
努	-11.3758
寇	-11.3759
深藏	-11.3759
莫可	-11.3759
撲落	-11.3761
幟	-11.3763
談笑	-11.3763
跳不出	-11.3764
便回	-11.3765
蕪	-11.3765
悵	-11.3766
▁○	-11.3766
模樣	-11.3767
告報	-11.3768
告眾	-11.3769
稅	-11.377
塞斷	-11.3771
洎合	-11.3771
陰界	-11.3772
標格	-11.3775
速道	-11.3775
道一句	-11.378
法喜	-11.378
溫州	-11.3781
吳江	-11.3781
甚麼處是	-11.3781
入草	-11.3783
頂相	-11.3784
天花	-11.3785
揚眉瞬目	-11.3786
茶飯	-11.3786
鬍	-11.3789
卓拄杖一下云	-11.3789
無孔鐵鎚	-11.3789
何期	-11.379
人間天上	-11.3792
之輩	-11.3793
鼻孔遼天	-11.3794
伏惟珍重	-11.3794
惡發	-11.3794
匣	-11.3795
旁觀	-11.3796
眾苦	-11.3797
齎	-11.3799
卓一下曰	-11.3801
闡揚	-11.3802
眼花	-11.3802
)。○	-11.3802
廣長舌	-11.3804
蒙師指	-11.3804
臨濟喝	-11.3805
真智	-11.3806
真乘	-11.3808
堂頭和尚	-11.3809
笑破	-11.3809
緣覺	-11.3811
漸漸	-11.3812
天地間	-11.3813
蹉	-11.3814
又不見	-11.3815
良遂	-11.3817
述偈曰	-11.3818
妄想執著	-11.3818
密印	-11.3819
如何是奪人不奪境	-11.382
水火	-11.3821
崇寧	-11.3823
綽	-11.3825
怡然	-11.3826
許汝	-11.3827
三界唯心	-11.3831
悟後	-11.3832
大喜	-11.3835
最勝	-11.3835
一畫	-11.3836
非有非無	-11.3836
應當	-11.3843
有多少	-11.3844
我欲	-11.3844
未成	-11.3844
慾	-11.3845
見分	-11.3845
不回頭	-11.3846
丑	-11.3849
簇	-11.3849
陂	-11.385
撿點	-11.385
智眼	-11.3851
烘	-11.3853
那裏來	-11.3853
法名	-11.3854
向甚處去	-11.3855
有情無情	-11.3857
難消	-11.3858
走馬	-11.3859
荊州	-11.3859
千歲	-11.3861
憶昔	-11.3861
八萬	-11.3862
得解脫	-11.3865
釋迦彌勒	-11.3865
羯磨	-11.3867
幡動	-11.3867
阿那	-11.3867
十三年	-11.3869
眼光	-11.3871
寄語	-11.3871
悼	-11.3873
雪堂	-11.3875
擿	-11.3876
張氏子	-11.3876
只麼	-11.3878
穴云	-11.3878
凡所	-11.3878
塲	-11.3879
塞却	-11.3884
寶印	-11.3884
五人	-11.3885
畫一畫云	-11.3885
中庸	-11.3886
白拈賊	-11.3889
o	-11.3889
揭示	-11.389
槃	-11.3892
如何是主中賓	-11.3893
高風	-11.3894
般若波羅蜜	-11.3896
已後	-11.3897
花雨	-11.3905
紹隆	-11.3906
住持人	-11.3907
何處去	-11.391
卷第十	-11.3911
認著	-11.3912
父母未生	-11.3915
寺僧	-11.3915
誓不	-11.3918
錯用心	-11.3919
僧家	-11.3921
忽有箇	-11.3922
大寂	-11.3923
無疆	-11.3924
婆婆	-11.3927
京兆	-11.3927
呆	-11.3927
饌	-11.3928
窣堵	-11.3928
階前	-11.3929
有出身之路	-11.393
一部	-11.3932
難分	-11.3933
放逸	-11.3938
師打曰	-11.3938
王氏子	-11.394
某人	-11.3941
今既	-11.3941
見色明心	-11.3942
流注	-11.3943
沒處	-11.3944
如何是奪境不奪人	-11.3945
隨波逐浪	-11.3947
又復	-11.3949
草木叢林	-11.3951
雙眉	-11.3953
骨肉	-11.3955
_	-11.3955
燈燈	-11.3956
撒沙	-11.3956
洪波	-11.396
騎驢	-11.396
剎土	-11.3961
怯	-11.3962
毅	-11.3962
只可	-11.3964
寧可	-11.3966
弘法	-11.3966
八兩	-11.3967
輕重	-11.3968
谷隱	-11.3969
同源	-11.397
法寶	-11.3972
妙喜云	-11.3973
國師曰	-11.3975
主宰	-11.3976
儒者	-11.3976
所轉	-11.3978
如喪考妣	-11.3978
衣食	-11.3979
塹	-11.3979
老居士	-11.3979
三十餘年	-11.3979
少人知	-11.398
討甚	-11.398
頭戴	-11.398
如何是人境俱不奪	-11.3981
蘿蔔	-11.3981
庚子	-11.3982
落在第二	-11.3983
攘	-11.3984
牙爪	-11.3985
囂	-11.3987
棚	-11.3988
盡大地是箇	-11.3989
但看	-11.3992
一宿	-11.3992
雨花	-11.3999
丐	-11.4001
荷負	-11.4004
莫把	-11.4007
隨例	-11.4008
全體現	-11.401
春回	-11.401
瞞人	-11.4011
重來	-11.4011
無生滅	-11.4014
與麼來	-11.4015
翻轉	-11.4016
一等是	-11.4019
不相干	-11.4019
不煩	-11.402
萃	-11.402
聯芳	-11.402
無事人	-11.4027
舉目	-11.4027
翰林	-11.4027
南華	-11.4027
犀牛	-11.4028
維摩經	-11.403
墮落	-11.403
還許學人	-11.4037
謝師答話	-11.4039
著地	-11.404
批判	-11.4041
赤肉團上	-11.4044
毒手	-11.4046
第八識	-11.4046
一人見錄	-11.4047
若還	-11.4048
好好	-11.4048
發生	-11.4049
圓光	-11.405
光景	-11.4055
是第幾	-11.4055
此座	-11.4055
顧視大眾	-11.4055
園頭	-11.4057
名號	-11.4068
要你	-11.4069
無染	-11.4069
向上一竅	-11.4072
人家男女	-11.4072
切切	-11.4075
懸崖撒手	-11.4077
禁足	-11.4078
紛紜	-11.4079
永安	-11.408
翁曰	-11.408
難明	-11.4081
一條拄杖	-11.4081
十方三世	-11.4083
鞠	-11.4083
二十九	-11.4084
橘	-11.4084
不撥	-11.4085
孰為	-11.4087
離微	-11.4087
戴角	-11.4088
子細看	-11.4088
孤雲	-11.4089
踞地	-11.4089
槎	-11.409
直透	-11.409
迂	-11.409
阿那箇是	-11.4092
前頭	-11.4092
汾州	-11.4096
空拳	-11.4098
擲下云	-11.4099
師叔	-11.41
所著	-11.4101
為母	-11.4101
爭敢	-11.4103
狸奴白牯	-11.4103
無妨	-11.4103
師意如何	-11.4105
斯人	-11.4106
爆竹	-11.4108
第三十	-11.4108
深恩	-11.4109
何須更	-11.4109
方是	-11.411
卷第三	-11.4111
走入	-11.4111
筋斗	-11.4113
昭昭	-11.4114
諷經	-11.4115
南詢	-11.4116
鏤	-11.4117
芋	-11.412
不得動著	-11.4121
茨	-11.4123
漁翁	-11.4125
腳底	-11.4126
超群	-11.4129
和尚今日	-11.413
接物利生	-11.4131
日久	-11.4135
不欺	-11.4136
沒絃琴	-11.4142
何止	-11.4144
空門	-11.4145
曹洞宗	-11.4145
合喫	-11.4146
與麼說話	-11.4147
梁武帝	-11.4148
皮膚	-11.4148
今上皇帝	-11.4148
落在甚麼處	-11.4149
華頂	-11.4149
召大眾曰	-11.4152
禪家	-11.4153
師笑曰	-11.4154
賜紫	-11.4155
頂門眼	-11.4155
𠊳	-11.4158
四諦	-11.4159
不透	-11.4159
純一	-11.4161
逐日	-11.4161
方纔	-11.4161
分上事	-11.4164
僉	-11.4165
憑何	-11.4166
巍	-11.4166
喃喃	-11.417
始解	-11.4172
從東過西	-11.4172
本命元辰	-11.4172
周遮	-11.4174
慧林	-11.4175
躊躇	-11.4175
貪欲	-11.4176
弄巧成拙	-11.4176
魔宮	-11.4177
疊疊	-11.4178
劈頭	-11.4181
煙波	-11.4183
報國	-11.4185
設利	-11.4186
猶隔	-11.4187
七百	-11.4188
懈	-11.4189
早知	-11.419
西家	-11.419
大護法	-11.419
遼天	-11.4191
香風	-11.4197
蹇	-11.4198
一堂	-11.42
腦門	-11.4205
三日後	-11.4206
伏以	-11.4208
無本可據	-11.4209
向外馳求	-11.4209
太阿	-11.421
棋	-11.4212
家鄉	-11.4212
無自性	-11.4213
省覲	-11.4214
萬重	-11.4214
磊	-11.4214
戒律	-11.4216
龍興	-11.4217
大慧杲	-11.4219
七八	-11.422
砥	-11.4222
遏	-11.4224
舌根	-11.4224
用酬法乳之恩	-11.4225
有時一喝	-11.4226
近代	-11.4231
檗云	-11.4232
寧有	-11.4233
潭吉	-11.4233
句後	-11.4236
搆得	-11.4236
草賊大敗	-11.4236
萬戶	-11.4237
聞聲悟道	-11.4237
雪上加霜	-11.4238
所感	-11.4238
參玄	-11.4238
耳裏	-11.4238
昏沉	-11.4238
不風流處也風流	-11.4239
碌碌	-11.424
掠	-11.4241
咬著	-11.4245
嬴	-11.4245
不愛	-11.4245
圓覺經	-11.4246
太過	-11.4246
世情	-11.4248
江陵	-11.4249
臆	-11.4258
度與	-11.4259
南海	-11.4259
法社	-11.4259
據室	-11.4259
志氣	-11.4264
妙義	-11.4264
眨眼	-11.4265
自稱	-11.4265
捉得	-11.4268
逢場作戲	-11.4271
奇怪	-11.4272
堂司	-11.4275
還許	-11.4276
不收	-11.4276
倒卓	-11.4276
曬	-11.4277
撫州	-11.4277
未透	-11.4279
是個甚麼	-11.4281
控	-11.4282
岌	-11.4285
不謬	-11.4286
所聞	-11.4286
所疑	-11.4287
承嗣	-11.4288
具威儀	-11.4289
衣服	-11.4292
蔣	-11.4293
湛寂	-11.4293
玄路	-11.4293
孺人	-11.4294
巳竟	-11.4301
萬般	-11.4302
明矣	-11.4303
只消	-11.4307
無覓處	-11.4309
向人前	-11.431
雙忘	-11.431
那裡	-11.4311
悄然	-11.4318
孤舟	-11.432
八九	-11.4322
朝朝	-11.4323
大眾會麼	-11.4323
何啻	-11.4324
業障	-11.4325
煙雲	-11.4326
設或	-11.4328
堪為	-11.4328
為侍者	-11.4328
下火	-11.4329
塵緣	-11.433
皆可	-11.4332
先覺	-11.4333
家山	-11.4334
寶山	-11.4336
無佛處急走過	-11.4337
何待	-11.4338
點燈	-11.4338
斬釘截鐵	-11.434
往復	-11.4342
波心	-11.4346
參請	-11.4347
手握	-11.4347
禪師法嗣二人	-11.4349
矮	-11.4349
案山	-11.435
形影	-11.4354
浮漚	-11.4355
赦	-11.4356
娛	-11.4356
瞥然	-11.4358
酣	-11.4358
豎拄杖云	-11.4359
高菴	-11.4359
隨聲	-11.436
絹	-11.4361
越格	-11.4362
胡僧	-11.4366
荊南	-11.4368
把斷要津	-11.4368
如何是道中人	-11.4368
如何是賓中主	-11.4368
祥雲	-11.4369
莫妄想	-11.437
出匣	-11.4374
擬對	-11.4375
知已	-11.4375
十萬八千	-11.4375
甚麼物	-11.4377
浩然	-11.4378
虎穴	-11.4379
周沙界	-11.4381
峯曰	-11.4383
謨	-11.4384
擊禪牀	-11.4385
事事無礙	-11.4386
寶應	-11.4386
誾	-11.4389
三春	-11.4389
當恁麼時	-11.439
雲霧	-11.439
異熟	-11.439
慙	-11.4392
贏	-11.4393
仍舊	-11.4394
發言	-11.4394
四恩	-11.4395
忽有省	-11.4395
壽七十	-11.4396
寶劒	-11.4396
狗子無佛性話	-11.4396
異見	-11.44
得自在	-11.4401
世外	-11.4402
宣揚	-11.4402
飯錢	-11.4406
道友	-11.4406
能有幾	-11.4407
長夜	-11.4407
日午打三更	-11.4407
只是箇	-11.4411
不從人得	-11.4411
臭氣	-11.4412
封疆	-11.4414
伸手	-11.4414
齋時	-11.4416
高臥	-11.4417
名甚麼	-11.4417
舉僧問趙州	-11.4418
黏	-11.4418
戟	-11.4419
豈不聞	-11.4423
不生滅	-11.4424
禪板	-11.4424
蛻	-11.4425
滿口	-11.4428
降伏	-11.4429
伺	-11.443
由心	-11.4434
愽	-11.4435
官不容針	-11.4435
學徒	-11.4436
鏟	-11.4436
不丈夫	-11.4437
這个	-11.4438
新長老	-11.4439
水乳	-11.444
我當時	-11.444
佛印	-11.4441
絡索	-11.4442
結夏上堂	-11.4442
能令	-11.4444
構	-11.4452
何處是	-11.4452
寰	-11.4452
滯貨	-11.4453
躅	-11.4453
粹	-11.4454
祕密	-11.4455
圃	-11.4455
酬恩	-11.4456
諲	-11.4457
六七	-11.4458
踊躍	-11.4458
說個	-11.4458
此瓣香	-11.4458
會末後句	-11.446
惰	-11.4461
首眾	-11.4462
白牯	-11.4463
如此則	-11.4466
時作麼生	-11.4469
寶峯	-11.447
去此二途	-11.447
馨	-11.4471
今晚	-11.4474
鐘鳴	-11.4477
第二座	-11.4479
嚬呻	-11.448
續收	-11.4482
少時	-11.4483
除此	-11.4484
胥	-11.4484
星斗	-11.4484
切不可	-11.4486
廩	-11.4487
芬	-11.4487
樊	-11.4487
敗缺	-11.4487
湖海	-11.4489
西川	-11.4491
嬉	-11.4492
信得	-11.4493
巳知	-11.4495
指歸	-11.4496
屯	-11.4497
廣教	-11.4499
一棒打殺	-11.4502
死水	-11.4502
執侍	-11.4503
秪為	-11.4504
無繩自縛	-11.4505
私通車馬	-11.4506
東君	-11.4509
咬人	-11.4509
現前大眾	-11.4512
至元	-11.4514
平昔	-11.4515
今日被	-11.4516
一切智	-11.4518
憚	-11.4518
庇	-11.4519
燃	-11.4521
還會	-11.4525
師呵呵大笑	-11.4526
觀音大士	-11.4528
佛法中	-11.4529
釋子	-11.4531
先佛	-11.4532
般涅槃	-11.4533
南源	-11.4535
密室	-11.4535
驚群	-11.4538
順世	-11.4538
効	-11.4539
未審如何	-11.454
不見一法	-11.4541
烜赫	-11.4542
徹見	-11.4547
踏斷	-11.4547
結茅	-11.4548
相送	-11.4548
無生法忍	-11.455
枝枝	-11.4551
向諸人	-11.4553
鈞	-11.4553
郢州	-11.4555
發足	-11.4559
舉拂子曰	-11.4561
修多羅	-11.4561
逢緣	-11.4561
這些	-11.4562
偏枯	-11.4564
不孤	-11.4565
臺山路	-11.4565
講肆	-11.4567
嫉	-11.4568
㘞地一聲	-11.4569
不二門	-11.4571
梵網	-11.4572
三十年前	-11.4573
無量無邊	-11.4573
破草鞋	-11.4575
僧回舉似	-11.4576
木馬嘶	-11.4576
頓息	-11.4577
吽吽	-11.4577
三日耳聾	-11.4578
舉南泉	-11.4578
利養	-11.4581
十七年	-11.4583
爭解	-11.4584
天童覺云	-11.4584
兒戲	-11.4584
痛快	-11.4586
二首	-11.4587
千古萬古	-11.4588
三十二相	-11.459
蓮池	-11.4595
瘴	-11.4598
天際	-11.46
清波	-11.4602
一竅	-11.4604
尾巴	-11.4604
精靈	-11.4605
目前無法	-11.4606
溪水	-11.4607
故紙	-11.4608
亦隨	-11.4609
當觀時節因緣	-11.461
是何言歟	-11.4612
勤苦	-11.4615
趺	-11.4616
吾兄	-11.4617
全憑	-11.4617
纔生	-11.4617
西峰	-11.4619
六趣	-11.4619
舉足	-11.4623
參取	-11.4623
了却	-11.4626
城市	-11.4627
國中	-11.4627
金蓮	-11.4628
地水火風	-11.4629
詰之	-11.4629
竄	-11.4633
祇得	-11.4635
九曲	-11.4635
歸何所	-11.4636
雞足	-11.4637
中原	-11.4639
山僧則不然	-11.4644
任縱橫	-11.4648
無雜	-11.4649
弄精魂	-11.4649
山嶽	-11.465
啐	-11.4651
八十四	-11.4656
貧窮	-11.4657
斷常	-11.4658
香煙	-11.466
孽	-11.466
剃	-11.4661
白拈	-11.4663
吐氣	-11.4664
俗諦	-11.4664
雷聲	-11.4666
何方	-11.4667
出來與	-11.4668
雲峯	-11.4669
壽八十	-11.4669
源頭	-11.4669
叶	-11.467
解夏	-11.467
一帶	-11.467
熱惱	-11.4671
選佛場	-11.4672
再拜	-11.4673
神變	-11.4675
臘八上堂	-11.4676
有佛處不得住	-11.4677
赤灑灑	-11.4679
靈驗	-11.4679
寒梅	-11.468
僧云不會	-11.468
搖頭	-11.4681
提掇	-11.4681
鵠	-11.4683
淨穢	-11.4683
完全	-11.4683
未具	-11.4683
聖恩	-11.4684
繫驢橛	-11.4686
拍禪牀	-11.4687
法施	-11.4688
當鋒	-11.4688
啾啾	-11.469
操履	-11.4691
羅剎	-11.4693
提刑	-11.4696
著意	-11.4697
諸弟子	-11.4698
三千界	-11.4699
雪屈	-11.4707
五載	-11.4707
風幡	-11.4715
白巖符云	-11.4717
退院	-11.4717
却回	-11.472
吳門	-11.472
如水中月	-11.4721
西邊	-11.4721
豎起拳	-11.4722
栽松	-11.4723
覓箇	-11.4723
賞罰	-11.4724
流浪	-11.4726
毫釐	-11.4726
除卻	-11.473
爭見	-11.4732
問如何是和尚家風	-11.4733
訟	-11.4734
影子	-11.4734
率眾	-11.4735
而寂	-11.4736
佛與眾生	-11.4738
手把	-11.4739
影現	-11.4742
金剛般若	-11.4743
慧寂	-11.4746
田園	-11.4746
露地	-11.4748
啼鳥	-11.4751
前後際斷	-11.4752
宗猷	-11.4752
悚	-11.4753
渡頭	-11.4753
笊籬	-11.476
晶	-11.4762
橫拈	-11.4764
無根樹	-11.4764
五濁	-11.4766
白槌云	-11.4766
妙峰	-11.4769
袴	-11.477
自家底	-11.4771
雲飛	-11.4771
近世	-11.4773
僧無語師云	-11.4773
無量劫	-11.4774
造業	-11.4774
大川	-11.4774
與爾	-11.4779
總被	-11.478
至道無難	-11.478
一下曰	-11.4781
金石	-11.4781
拂子頭上	-11.4782
脫白	-11.4782
門門	-11.4783
師又喝	-11.4784
事不獲巳	-11.4785
告之曰	-11.4785
錘	-11.4786
睦	-11.4786
月滿	-11.4787
周遍	-11.4789
賽	-11.479
寒泉	-11.4791
聒	-11.4793
護惜	-11.4795
廬陵	-11.4798
帚	-11.4798
住院	-11.4799
第一要	-11.4799
一大事因緣	-11.4803
卒難	-11.4804
如何是禪	-11.4804
濟北	-11.4805
方信	-11.4806
手腳	-11.4808
些兒	-11.4809
紳	-11.4811
四十八	-11.4812
華嚴經云	-11.4815
少頃	-11.4815
事若何師云	-11.4816
元和	-11.4817
面門出入	-11.4819
石火電光	-11.482
服勤	-11.4824
森森	-11.4825
隘	-11.4826
篙	-11.4827
淨盡	-11.4827
張弓	-11.4827
哥	-11.4828
牓	-11.4829
儒釋	-11.4829
一音	-11.483
孃	-11.483
若有人	-11.4831
漪	-11.4831
所傳	-11.4832
若也會得	-11.4833
以坐具	-11.4834
心外無法	-11.4835
打箇	-11.4835
醫王	-11.4835
諸塵	-11.4843
恰恰	-11.4843
伽陀	-11.4844
無恙	-11.4844
淨潔	-11.4844
浮圖	-11.4845
領悟	-11.4847
荅云	-11.4847
分歲	-11.4847
化龍	-11.4849
正恁麼時如何	-11.4849
擕	-11.4849
無厭	-11.4851
未曉	-11.4852
陀羅	-11.4855
勸君	-11.4857
搔	-11.4858
新羅國	-11.486
無交涉	-11.486
用心處	-11.486
披毛戴角	-11.486
何故聻	-11.4861
行脚時	-11.4862
伽黎	-11.4863
涇	-11.4863
重添	-11.4863
針鋒	-11.4864
大鑑下	-11.4864
漠	-11.4866
二十年前	-11.4868
何由	-11.487
循環	-11.4871
向背	-11.4873
次遷	-11.4873
菓	-11.4874
釋曰	-11.4876
自繇	-11.4876
師以杖	-11.4877
應喏	-11.4878
謝師指示	-11.488
共語	-11.488
法林音	-11.4881
來這裏	-11.4886
法眼云	-11.4886
百姓	-11.4888
滹沱	-11.4889
王氏	-11.4892
是凡是聖	-11.4894
橫按拄杖	-11.4894
留與	-11.4895
休將	-11.4895
立志	-11.4895
多方	-11.4896
湖山	-11.4897
煎茶	-11.4899
利物	-11.4899
法孫	-11.4902
應聲	-11.4902
郢	-11.4903
拽拄杖	-11.4903
雷霆	-11.4905
蘚	-11.4908
千重	-11.4908
覺性	-11.4909
瓔珞	-11.491
難逢	-11.491
無法可說	-11.4913
迥絕	-11.4913
戾	-11.4914
你不得	-11.4915
荅話	-11.4915
曾聞	-11.4918
兩浙	-11.4919
端然	-11.4919
舉起拂子	-11.4922
三生六十劫	-11.4923
鬚髮	-11.4923
四月八日	-11.4923
築著磕著	-11.4926
秤錘	-11.4928
所造	-11.4928
招提	-11.4929
且聽	-11.493
透頂透底	-11.493
冷坐	-11.4931
吞卻	-11.4933
舊時人	-11.4936
祖令	-11.4938
善自護持	-11.494
南康	-11.4941
真面目	-11.4943
五味	-11.4943
頓教	-11.4945
春風吹	-11.4947
躭	-11.4948
文字語言	-11.4948
為甚如此	-11.4949
祖席	-11.4949
藕絲	-11.495
外境	-11.4951
䭾	-11.4955
生疑	-11.4956
成一片	-11.4956
普天匝地	-11.4956
以拂子擊禪床	-11.4958
脚踏	-11.4959
芬芳	-11.496
誰謂	-11.496
視聽	-11.496
提起坐具	-11.4964
反覆	-11.4965
廊下	-11.4966
如何是第一句	-11.4967
講得	-11.4968
駢	-11.4968
摘楊花	-11.4969
肺	-11.497
只如此	-11.4971
劑	-11.4975
慟	-11.4976
堪作	-11.4977
戍	-11.4977
無縫罅	-11.4977
懵	-11.4978
八面玲瓏	-11.4981
落堂	-11.4982
下喝	-11.4982
鵶	-11.4983
復還	-11.4983
叢裏	-11.4984
只須	-11.4985
豫章	-11.4985
自餘	-11.4986
應世	-11.4986
若喚作	-11.4987
四世	-11.4988
逗到	-11.4992
還信得及麼	-11.4992
祖師道	-11.4993
胡為	-11.4993
印度	-11.4995
久立珍重	-11.4997
彼我	-11.4998
雕琢	-11.4998
克家	-11.4998
清白	-11.5
到岸	-11.5004
拽杖	-11.5004
錯錯	-11.5005
你問我	-11.5006
若果	-11.5008
諦聽	-11.5011
證菩提	-11.5011
喏	-11.5012
象骨	-11.5012
渝	-11.5012
礪	-11.5016
前語	-11.5016
一切皆	-11.5016
忌日	-11.502
玄門	-11.502
匠人	-11.502
龐老	-11.5021
唱道	-11.5021
無遮	-11.5023
巨海	-11.5023
艷	-11.5024
何處來	-11.5024
東去西去	-11.5027
四壁	-11.5031
剔起眉毛	-11.5032
常情	-11.5034
三匝	-11.5035
迥出	-11.5035
漳	-11.5037
赤骨	-11.5038
妻子	-11.5039
兼中至	-11.5043
白晝	-11.5043
難忘	-11.5046
悉達	-11.5052
結舌	-11.5054
絕學	-11.5055
百千萬	-11.5057
禪悅	-11.5057
陸地	-11.5057
有許多	-11.5058
報答	-11.5059
益州	-11.5059
定乾坤	-11.5062
敲唱	-11.5063
舉拂子	-11.5064
面南看北斗	-11.5066
爭怪得	-11.5066
五祖戒	-11.5066
祖風	-11.5066
聲光	-11.5069
祖師西來意	-11.507
鬼窟裏	-11.5074
昭昭靈靈	-11.5075
心不是佛	-11.5076
不相知	-11.5077
眼識	-11.5079
茄子	-11.508
同志	-11.508
拋却	-11.508
三十拄杖	-11.5082
黍	-11.5083
禍福	-11.5084
焦山	-11.5086
蘄州	-11.5087
托鉢	-11.5088
破衲	-11.5088
侮	-11.509
佛界	-11.5091
世間法	-11.5092
繫縛	-11.5097
因齋慶讚	-11.5098
如麻似粟	-11.5105
殃及兒孫	-11.5106
眾緣	-11.5106
丹霄	-11.5108
簫	-11.511
順逆	-11.5111
交加	-11.5112
峰巒	-11.5114
對境	-11.5115
彩鳳	-11.5116
懃	-11.5118
牟尼	-11.5118
齋僧	-11.5118
十二世	-11.5119
那一句	-11.5122
二十一	-11.5122
松柏	-11.5123
尊卑	-11.5123
未兆	-11.5125
大慈悲	-11.5126
相見了也	-11.5128
據此	-11.5128
有些	-11.5128
展演	-11.5129
常流	-11.5131
海岸	-11.5133
尊重	-11.5135
如或未然	-11.5137
相忘	-11.5138
放光動地	-11.5138
褲	-11.5139
內翰	-11.5141
神機	-11.5143
高高	-11.5143
解夏上堂	-11.5143
接物	-11.5144
在那裏	-11.5144
鈯斧	-11.5146
拶著	-11.5146
肇法師	-11.5146
皇風	-11.5147
迄	-11.5148
無佛性	-11.5148
企	-11.5153
砧	-11.5155
暗裏	-11.5155
粲	-11.5156
遲遲	-11.5156
如麻	-11.5159
正傳	-11.5159
慈航	-11.516
堂內	-11.5163
曰如何是境中人	-11.5164
曉得	-11.5165
自幼	-11.5165
末山	-11.5169
熱瞞	-11.517
方堪	-11.517
師陞座	-11.5171
所以古人道	-11.5174
驚異	-11.5174
雞鳴	-11.5175
也不消得	-11.5177
千里同風	-11.5178
既久	-11.5179
喫粥喫飯	-11.5179
豎指	-11.518
廷	-11.5182
活鱍鱍	-11.5183
覆船	-11.5185
青林	-11.5185
天寧琦	-11.5186
進士	-11.5187
澧州	-11.5189
豪傑	-11.5191
耳聽	-11.5192
慈受深	-11.5193
驀直去	-11.5194
爵	-11.5194
化導	-11.5196
愕然	-11.5199
钁頭	-11.5203
還有過也無	-11.5203
月印	-11.5206
虛堂	-11.5207
倐	-11.5207
冰霜	-11.5208
直下便	-11.5209
作道理	-11.5211
各別	-11.5211
撩起便行	-11.5212
絕跡	-11.5212
二諦	-11.5213
留得	-11.5214
溯	-11.5215
廓然無聖	-11.5215
妙音	-11.5216
我手何似佛手	-11.5219
陜府鐵牛	-11.5219
巍巍堂堂	-11.522
某甲不會	-11.5221
鐵樹	-11.5224
臨風	-11.5225
布衲	-11.5225
百尺	-11.5226
涎	-11.5227
真偽	-11.5228
庚申	-11.523
奔走	-11.5231
生死根本	-11.5231
密意	-11.5232
波羅提	-11.5232
途轍	-11.5234
紫雲	-11.5236
主人翁	-11.5237
什麼處是	-11.5239
目擊	-11.524
王臣	-11.5241
剃染	-11.5244
一見便	-11.5248
箭鋒	-11.5249
垂語云	-11.5252
水潦	-11.5256
雪竇道	-11.5257
蟹	-11.5261
識神	-11.5261
湫	-11.5262
後謁	-11.5262
串	-11.5263
芟	-11.5264
羸	-11.5265
前程	-11.5268
成辦	-11.5269
定動	-11.5269
諸佛諸祖	-11.527
格物	-11.5272
犂	-11.5273
沒量	-11.5273
不相應	-11.5273
普陀	-11.5274
領話	-11.5275
他年	-11.5276
衡陽	-11.5281
老婆禪	-11.5283
周行七步	-11.5284
俏	-11.5284
近傍	-11.5286
五世	-11.5286
說箇甚麼	-11.5286
僧便喝師云	-11.5287
問如何是佛法大意	-11.529
佳人	-11.529
荊棘林中	-11.529
僧擬進語	-11.529
及第	-11.5291
河南	-11.5291
頰	-11.5295
毫無	-11.5297
堪作甚麼	-11.5298
擎拳	-11.5298
遍十方	-11.5298
詣方丈	-11.5299
惆悵	-11.5299
断	-11.5299
襯	-11.5299
其母	-11.53
懺罪	-11.53
朔風	-11.5304
二十三	-11.5306
度量	-11.5306
雪消	-11.5306
仰面	-11.5311
兒子	-11.5311
舜日	-11.5312
幾許	-11.5312
打眠	-11.5315
老賊	-11.5316
諸根	-11.5317
倪	-11.5318
玉線	-11.5323
夜坐	-11.5324
無多子	-11.5324
日暖	-11.5325
溈山問仰山	-11.5325
丈六	-11.5326
乞兒	-11.5327
風行草偃	-11.5329
頂門上	-11.533
邇來	-11.5331
肉身	-11.5332
四十二	-11.5334
識破	-11.5334
好醜	-11.5336
勞生	-11.5337
遂往	-11.5338
師休去	-11.5338
駝	-11.5338
梵剎	-11.5341
其功	-11.5343
蕭然	-11.5345
璋	-11.5347
海印信	-11.5347
隱居	-11.5351
省悟	-11.5354
禍事	-11.5355
猶可	-11.5356
從西過東	-11.5358
腳踏	-11.5359
生兒	-11.5359
嘿	-11.536
安養	-11.5361
論量	-11.5361
鷓鴣	-11.5361
表裏	-11.5361
向上機	-11.5362
霜風	-11.5364
信受	-11.5364
半箇	-11.5364
毒氣	-11.5365
刀山	-11.5367
機語	-11.5367
遭他	-11.5367
道個	-11.5368
可比	-11.537
水邊	-11.537
甲申	-11.537
應現	-11.537
鶖子	-11.5373
巽	-11.5373
階梯	-11.5373
敷揚	-11.5373
放光明	-11.5374
呈偈	-11.5374
任你	-11.5375
咸通	-11.5376
沉沉	-11.5379
豈易	-11.5383
隨他去	-11.5384
酷	-11.5385
一拜	-11.5386
僧繇	-11.5388
閃	-11.5393
新年頭佛法	-11.5393
妙訣	-11.5394
驀面	-11.5394
聖箭	-11.5395
飲酒	-11.5395
上乘	-11.5395
會稽	-11.5397
雷轟	-11.5399
閩中	-11.54
出三界	-11.54
愁人	-11.5401
嗄	-11.5402
祇知	-11.5402
籟	-11.5403
滇	-11.5404
一刀兩段	-11.5405
關捩子	-11.5405
異同	-11.5409
黑豆	-11.5411
舉首	-11.5412
持缽	-11.5413
端正	-11.5413
孩兒	-11.5414
知端的	-11.5414
談禪	-11.5414
釜	-11.5415
讀誦	-11.5417
疏鈔	-11.5417
世閒	-11.542
但願	-11.5422
演祖	-11.5427
來朝	-11.5427
塞北	-11.5431
玉樓	-11.5433
變通	-11.5435
簣	-11.5438
風顛	-11.5439
笙歌	-11.544
智藏	-11.5441
但只	-11.5441
調伏	-11.5441
寒松	-11.5441
牡丹	-11.5443
秀禪師	-11.5444
放大光明	-11.5444
緯	-11.5445
籠罩	-11.5445
往返	-11.5446
憾	-11.5446
鹿苑	-11.5446
峯前	-11.5447
醇	-11.5448
柴門	-11.545
目錄	-11.5451
密付	-11.5451
大丈夫漢	-11.5452
銕牛	-11.5454
辨別	-11.5455
崛	-11.5456
本自無	-11.5459
寶積	-11.5463
家常	-11.5464
開口便	-11.5465
箇漢	-11.5466
能為萬象主	-11.5466
也大難	-11.5467
是一是二	-11.5467
高士	-11.5474
聚首	-11.5475
你們	-11.5475
釘橛	-11.5477
觴	-11.5477
無罣礙	-11.5479
拈起拂子	-11.5481
空劫巳前	-11.5483
迄今	-11.5484
耿	-11.5487
閬	-11.5488
下堂	-11.5491
鍬	-11.5503
十方同聚會	-11.5503
白月	-11.5506
家貧	-11.5507
滔天	-11.5507
狂心	-11.5511
鶴林	-11.5511
理論	-11.5517
鏡裏	-11.5518
如何是賓中賓	-11.5521
不測	-11.5523
者一喝	-11.5525
癸未	-11.5527
舉洞山	-11.5527
件事	-11.5527
壬子	-11.5527
昭然	-11.5529
龍淵	-11.553
直歲	-11.5531
孤峻	-11.5531
示之曰	-11.5533
騰空	-11.5533
賢愚	-11.5533
忿	-11.5534
設齋請上堂	-11.5535
悠然	-11.5538
讚嘆	-11.554
參禪學道	-11.554
口邊	-11.5542
因思	-11.5543
閒閒	-11.5544
傀儡	-11.5548
一狀領過	-11.5548
急著眼	-11.5549
出來道看	-11.5549
頂戴	-11.5549
第二月	-11.555
鵝湖	-11.5553
長壽	-11.5553
當世	-11.5555
歸寂	-11.5557
普眼	-11.5558
疑惑	-11.5561
燒火	-11.5561
得箇甚麼	-11.5563
斯言	-11.5563
亦喝	-11.5563
克賓	-11.5564
自負	-11.5564
一脈	-11.5566
五燈全書	-11.5573
東村	-11.5574
傾心	-11.5575
飯頭	-11.5575
不逐四時凋	-11.5579
夜夢	-11.558
必定	-11.5581
孩	-11.5581
僧請益	-11.5583
降誕	-11.5585
跟	-11.5586
聚會	-11.5587
忘情	-11.5588
信步	-11.5589
眾居士	-11.5591
彌勒下生	-11.5591
蒂	-11.5592
放不下	-11.5595
句裏	-11.5596
涅槃堂	-11.5597
奸	-11.5597
鷲	-11.5599
喆	-11.5601
古廟	-11.5601
無蹤跡	-11.5601
歲歲	-11.5602
半斤	-11.5602
種性	-11.5603
南臺	-11.5603
常存	-11.5603
准	-11.5606
機宜	-11.5607
成壞	-11.5608
受記	-11.5608
踪跡	-11.5612
悟門	-11.5612
亂走	-11.5615
還源	-11.5618
黃鶴樓	-11.5621
柏樹子	-11.5621
地軸	-11.5622
耀古騰今	-11.5623
套	-11.5625
丞	-11.5625
坐脫	-11.5627
荳	-11.5627
噓一聲	-11.5628
安閒	-11.5629
撥草瞻風	-11.563
咬嚼	-11.5631
一日聞	-11.5633
卷第四	-11.5634
巫	-11.5634
先宗	-11.5636
還知落處麼	-11.5636
氈	-11.5637
點眼	-11.5637
)「	-11.564
何往	-11.564
什摩處	-11.5641
晚參舉	-11.5642
下一轉語	-11.5645
雲門偃	-11.5651
你作麼生會	-11.5652
涓滴	-11.5653
初謁	-11.5654
無上道	-11.5656
據坐	-11.5657
拈卻	-11.5658
皋	-11.5659
良醫	-11.566
家醜	-11.566
不為分外	-11.5661
辯才	-11.5663
錯認定盤星	-11.5667
聰禪師	-11.5667
久遠	-11.5669
瑣	-11.5669
住菴	-11.567
如大火聚	-11.567
猒	-11.5671
地位	-11.5673
打葛藤	-11.5675
淨戒	-11.5676
月冷	-11.5677
𥁞	-11.5677
蒼苔	-11.5678
鬻	-11.5681
塔院	-11.5693
許伊	-11.5694
枚	-11.5694
烈燄	-11.5695
澂	-11.5696
攃	-11.5697
彙	-11.5699
恁麼不恁麼總不得	-11.57
渡河	-11.57
於言下大悟	-11.5703
難思	-11.5704
賊過後張弓	-11.5704
添得	-11.5706
輥毬	-11.5707
歸源	-11.5708
不吝	-11.5709
癩	-11.5709
英靈漢	-11.5709
位次	-11.5712
釣竿	-11.5715
拈香云此一瓣香	-11.5715
紫柏	-11.5716
幽鳥	-11.5718
想見	-11.5718
雌	-11.572
竪拂子	-11.572
悖	-11.572
極目	-11.5723
後如何師云	-11.5725
端坐而逝	-11.5727
佛像	-11.5728
贖	-11.5728
汾	-11.5732
終難	-11.5732
彌天	-11.5732
省要	-11.5732
勞而無功	-11.5736
赤條條	-11.5736
潛蹤	-11.5737
應供	-11.574
脚底	-11.5742
惡辣	-11.5742
蹉跎	-11.5742
鑼	-11.5743
目前機	-11.5748
洗鉢盂	-11.5749
未始	-11.5749
治平	-11.575
還肯	-11.5751
產難	-11.5753
大虫	-11.5756
常寂	-11.5757
武陵	-11.5758
榮辱	-11.576
隔礙	-11.5761
濡	-11.5762
積翠	-11.5764
斜陽	-11.5766
無絲毫	-11.5768
故名為	-11.5768
都尉	-11.5769
照徹	-11.5769
無夢無想	-11.5773
野鶴	-11.5774
萬里無雲	-11.5776
冬至上堂	-11.5779
澄清	-11.5779
葉落歸根	-11.5781
厲聲曰	-11.5781
一片田地	-11.5781
閨	-11.5781
咄咄	-11.5782
難藏	-11.5784
攫	-11.5786
肅宗	-11.5786
修山主	-11.5791
忌諱	-11.5794
复	-11.5799
勉強	-11.58
金毛獅子	-11.58
白椎竟	-11.5807
道本無	-11.5808
喫粥了也	-11.5809
猶較	-11.5812
出常情	-11.5812
吐出	-11.5814
杜口	-11.5816
西京	-11.5818
乾峯	-11.582
黃面瞿曇	-11.5823
哀哉	-11.5825
蕉	-11.5825
盻	-11.5827
年深	-11.5827
新歲	-11.5829
徹困	-11.5829
一絲頭	-11.583
嗚	-11.5831
抉	-11.5831
仙陀	-11.5831
翕	-11.5831
酒肆	-11.5833
壅	-11.5835
苦惱	-11.5836
巖下	-11.5841
鳴鼓	-11.5846
和風	-11.5847
决	-11.585
妙理	-11.5851
作主宰	-11.5851
賓主句	-11.5852
長連床上	-11.5852
放參	-11.5852
杖子	-11.5853
拶破	-11.5855
雨打	-11.5855
疏山	-11.5855
千人萬人	-11.5857
無陰陽地	-11.5857
剃頭	-11.5858
休息	-11.5859
鵰	-11.5861
年少	-11.5862
無為法	-11.5862
紺	-11.587
深淺	-11.5871
振錫	-11.5872
漳州	-11.5874
調御	-11.5877
丁亥	-11.5877
泗州	-11.5877
滄	-11.5877
混融	-11.5877
風霜	-11.5877
相伴	-11.588
十四年	-11.5883
怎生	-11.5883
累及	-11.5884
目連	-11.5884
廓徹	-11.5884
多端	-11.5885
正值	-11.5885
應化	-11.5885
猛利	-11.5889
百億須彌	-11.5893
拋出	-11.5893
愚菴	-11.5894
夔	-11.5894
驢鳴	-11.5895
拗	-11.5895
只好	-11.5896
無去無來	-11.5897
香火	-11.5898
主丈子	-11.5901
茹	-11.5902
瘂	-11.5903
鈍漢	-11.5903
名之曰	-11.5905
層層	-11.5905
丙丁	-11.5906
還假	-11.5908
飯喫	-11.591
護念	-11.5911
寅	-11.5911
浙江	-11.5911
龍光	-11.5912
冥冥	-11.5916
千七百則	-11.5918
空王殿	-11.592
能殺能活	-11.5923
九世	-11.5924
玉露	-11.5925
廣德	-11.5926
禮拜著	-11.5927
對待	-11.5927
來時路	-11.5928
冰雪	-11.5929
金峯	-11.5929
一縷	-11.5932
洗脚	-11.5933
不是目前法	-11.5933
直至而今	-11.5934
慶忠	-11.5934
簸	-11.5936
未夢見	-11.5938
君臣道合	-11.5938
天堂地獄	-11.5939
一遭	-11.5939
許他	-11.5939
上大人	-11.5942
群機	-11.5943
年七十	-11.5945
凄	-11.5945
浴佛上堂	-11.5947
杓柄	-11.5947
藂林	-11.5948
有賴	-11.5948
一鉢	-11.5951
急急	-11.5952
剎剎塵塵	-11.5955
出眾云	-11.5955
仇	-11.5956
穿卻	-11.5958
公卿	-11.5961
花枝	-11.5961
落草	-11.5964
寒食	-11.5964
𩯭	-11.5966
必先	-11.5967
度脫	-11.5967
酬唱	-11.5968
今宵	-11.5968
神會	-11.5969
佛殿裏	-11.597
喚作拄杖	-11.5973
挂搭	-11.5973
之所能	-11.5974
絕後再甦	-11.5974
呵佛罵祖	-11.5977
設教	-11.5979
終朝	-11.5979
不懼	-11.5979
嘔	-11.598
當時若見	-11.5981
箬	-11.5981
高安	-11.5983
師弟	-11.5984
袞	-11.5985
法界眾生	-11.5987
月朔	-11.5988
翠峰	-11.5988
鑾	-11.5988
A	-11.5989
馴	-11.5992
參禮	-11.5992
師於言下大悟	-11.5994
者些	-11.5994
點額	-11.5995
似鏡	-11.5995
痛處	-11.5997
弟兄	-11.5997
不自知	-11.5999
盡屬	-11.6
誰肯	-11.6003
高亭	-11.6004
踈山	-11.6006
燦爛	-11.6006
授以	-11.6007
皇恩	-11.6007
是法住法位	-11.6008
太多	-11.6008
叱曰	-11.601
觸境	-11.601
披衣	-11.6012
紅輪	-11.6015
賴遇	-11.6016
掀倒禪牀	-11.6016
子期	-11.6018
石牛	-11.6018
無常迅速	-11.6019
貲	-11.6019
見佛性	-11.602
葦	-11.6022
師亦打	-11.6023
秪要	-11.6023
亘古亘今	-11.6024
彬	-11.6026
最上乘	-11.6027
乳峰	-11.6027
婚	-11.603
禪師因僧問	-11.603
風旛	-11.603
擔子	-11.6033
安立	-11.6034
僧纔出	-11.6035
文遠	-11.6035
太湖	-11.6035
有所得	-11.6035
野干	-11.6035
衡嶽	-11.6036
道一句看	-11.6036
歸鄉	-11.6036
願聞	-11.6037
忠孝	-11.6038
遍計	-11.604
紳衿	-11.6042
詩書	-11.6043
無準	-11.6043
免見	-11.6047
雙雙	-11.6047
鳴鐘	-11.6048
放你	-11.605
佛成道日	-11.605
留不住	-11.6051
鹽醬	-11.6053
眾纔集	-11.6055
筋骨	-11.6055
鐵壁銀山	-11.6057
上供	-11.6058
毘尼	-11.6058
俗姓	-11.6059
龍門遠	-11.6059
丁酉	-11.6063
筒	-11.6064
神龍	-11.6064
張三	-11.6066
琅	-11.6068
炎炎	-11.6068
渡水	-11.607
屨	-11.6073
鵞	-11.6075
乞命	-11.6076
齒牙	-11.6076
除非	-11.6076
舒卷	-11.608
勿令	-11.6081
出世法	-11.6088
伏望	-11.6089
且坐喫茶	-11.609
究其	-11.609
終南	-11.6091
誰信	-11.6092
妒	-11.6093
如電	-11.6094
恁麼告報	-11.6096
當堂	-11.6097
魚躍	-11.6097
所願	-11.6098
聲未絕	-11.6098
不覺不知	-11.6098
劫火	-11.6098
臨濟正宗	-11.6101
皺	-11.6101
釵	-11.6105
十方坐斷	-11.6105
槍	-11.6105
翰墨	-11.611
登高	-11.6114
佛魔	-11.6115
幞頭	-11.6116
入室次	-11.6117
若道得	-11.6118
䖍	-11.6123
名之為	-11.6124
夜參	-11.6126
動搖	-11.6126
得髓	-11.6127
隹	-11.6128
遇緣即宗	-11.613
水到渠成	-11.6134
直使	-11.6135
樓閣門開	-11.6135
無盡藏	-11.6135
無痕	-11.6136
師便打乃云	-11.6138
邃	-11.6139
或現	-11.614
蝸	-11.6141
所載	-11.6141
清淨本然	-11.6142
一代時教	-11.6142
娥	-11.6146
草鞋錢	-11.6147
糝	-11.6149
只教	-11.6149
豈況	-11.6152
懸河	-11.6153
免教	-11.6156
未開口	-11.6157
慍	-11.6157
指法座云	-11.6164
又且不然	-11.6167
為究竟	-11.6167
靈龜	-11.6168
塵世	-11.6169
饑來喫飯	-11.617
過去諸佛	-11.6171
吾有正法眼藏	-11.6172
入泥入水	-11.6173
真寂	-11.6174
尊官	-11.6175
義學	-11.6176
濺	-11.6181
闌干	-11.6184
烈焰	-11.6184
眩	-11.6194
做箇	-11.6196
諸人還知	-11.62
石壁	-11.6201
一杯	-11.6201
忽一日	-11.6203
偶爾	-11.6204
日用中	-11.6204
無言說	-11.6205
築著	-11.6206
兩重公案	-11.6207
竪起拳	-11.6209
無一事	-11.621
世間相常住	-11.6211
火燄	-11.6212
萬里無寸草	-11.6212
在當人	-11.6214
年窮歲盡	-11.6216
雷音	-11.6217
化緣	-11.6217
寥	-11.6217
巳久	-11.622
傷心	-11.622
悽	-11.6221
披雲	-11.6222
石筍	-11.6224
顓	-11.6225
艮	-11.6227
綵	-11.6229
O	-11.6229
U	-11.623
Z	-11.623
西竺	-11.623
過新羅	-11.6232
如何指示	-11.6234
數聲	-11.6234
少分	-11.6237
寢食	-11.6242
樓上	-11.6244
裏許	-11.6245
不肯住	-11.6245
繫念	-11.6246
五十年	-11.6247
薰風自南來	-11.6249
歸根	-11.6253
臧	-11.6254
黃面老	-11.6254
故稱	-11.6254
問甚處來	-11.6255
補處	-11.6256
皋亭	-11.6256
抽釘拔楔	-11.6256
俗漢	-11.6258
不通風	-11.6259
清濁	-11.6259
摟	-11.6259
師却問	-11.6262
氛	-11.6262
擡頭	-11.6263
白毫	-11.6264
善財童子	-11.6265
火坑	-11.6266
平等性智	-11.6266
襪	-11.6267
摩訶衍	-11.627
掃蕩	-11.627
棠	-11.627
P	-11.627
R	-11.627
囚	-11.627
甕裏	-11.6272
問如何是西來意	-11.6273
有三種	-11.6273
共住	-11.6275
惻	-11.6276
時有僧	-11.628
傳燈錄	-11.6282
太虛空	-11.6286
真實相	-11.6286
元正啟祚	-11.629
離文字	-11.6291
放下手	-11.6291
前面	-11.6293
明暗色空	-11.6294
四百	-11.6295
蛟龍	-11.6297
庭前栢樹子	-11.6297
四大五蘊	-11.6299
極力	-11.6301
名宿	-11.6301
學佛法	-11.6302
沉淪	-11.6304
閫外	-11.6305
賜號	-11.6306
白浪滔天	-11.6306
結集	-11.6311
默契	-11.6312
士庶	-11.6318
十虛	-11.6318
撞倒	-11.6319
更待	-11.6322
與麼會	-11.6322
寂默	-11.6323
為第一	-11.6324
脇	-11.6326
先照後用	-11.6327
升座	-11.633
廣福	-11.6331
波波	-11.6331
世壽七十	-11.6332
切不得	-11.6332
十餘載	-11.6332
惟恐	-11.6333
閃爍	-11.6333
末上	-11.6333
有一種	-11.6335
苟不	-11.6336
消滅	-11.6336
水逆流	-11.6336
應物現形	-11.6337
無障礙	-11.6339
袂	-11.6341
豎拂子	-11.6341
苕帚	-11.6343
落今時	-11.6343
四顧	-11.6343
錢買	-11.6343
入僧堂	-11.6344
百草頭上	-11.6344
航海	-11.6345
幾人知	-11.6346
堵	-11.6346
簪	-11.6347
幸遇	-11.6347
廣錄	-11.6349
梁王	-11.6351
一切時中	-11.6352
全威	-11.6352
裩	-11.6355
豈無方便	-11.6355
四字	-11.6358
山便打	-11.6359
猊	-11.636
寶坊	-11.636
京都	-11.6361
出窟	-11.6363
論義	-11.6363
黑暗	-11.6368
證悟	-11.637
閉目	-11.637
丁巳	-11.6371
受屈	-11.6371
分明舉似	-11.6372
為眾竭力	-11.6372
得底人	-11.6375
真淨文	-11.6376
眨上眉毛	-11.6377
頭出頭沒	-11.6378
護生	-11.6378
尋討	-11.638
擲拂子	-11.638
鷺鷥	-11.6381
核	-11.6382
聖智	-11.6382
鼻孔撩天	-11.6386
丁丑	-11.6387
抽條	-11.6387
浙中	-11.6394
甲寅	-11.6396
領會	-11.6396
偏圓	-11.6396
我會也	-11.6397
誕辰	-11.6398
亢	-11.6398
罹	-11.6399
真解脫	-11.6405
恰如	-11.6408
漁人	-11.6409
先用後照	-11.641
一串穿	-11.6412
絲髮	-11.6414
腰包	-11.6414
召大眾	-11.6418
五位君臣	-11.6418
深深海底行	-11.642
瑯瑘	-11.6421
演法	-11.6422
露柱燈籠	-11.6424
波羅密	-11.6424
太宗	-11.6424
紗	-11.6425
渤	-11.6427
翥	-11.6428
鐵圍山	-11.6429
國主	-11.6429
是謗	-11.6433
紙墨	-11.6433
誥	-11.6435
法堂上	-11.6437
風送	-11.6437
熏習	-11.6438
郁	-11.6441
無處所	-11.6444
良馬	-11.6444
點胸	-11.6445
五嶽	-11.6445
天童悟	-11.6445
撥火	-11.6453
纔動	-11.6454
威神	-11.6455
莫言不道	-11.6458
取次	-11.6458
妄情	-11.6459
是何意旨	-11.6459
宣和	-11.6459
限量	-11.6459
以手作	-11.6459
宮中	-11.646
知恩報恩	-11.646
峯頭	-11.6462
疋	-11.6463
不通凡聖	-11.6463
可畏	-11.6463
分析	-11.6463
或有人問	-11.6463
笙	-11.6464
硯	-11.6465
秤鎚	-11.6466
議論	-11.6467
身口意	-11.6467
棲泊	-11.6469
法身邊事	-11.6471
掌握	-11.6471
遍法界	-11.6471
杲日當空	-11.6475
秋江	-11.6476
乾坤大地	-11.6477
甚奇特	-11.6477
從上宗乘	-11.6478
三十三	-11.648
蓮社	-11.648
半偈	-11.6483
綫	-11.6485
莊主	-11.6487
聽吾偈曰	-11.6487
驀豎拂子云	-11.649
佛未出世時如何	-11.6491
照用不同時	-11.6493
有句無句如藤倚樹	-11.6493
楚山	-11.6495
海晏河清	-11.6495
昏散	-11.6495
雲溪	-11.6496
歸堂喫茶	-11.6498
問津	-11.6504
天竺國	-11.6505
頭尾	-11.6505
本位	-11.6505
鬼窟	-11.6506
::	-11.6506
擔板漢	-11.6507
平懷	-11.6507
千差萬別	-11.6508
謐	-11.6508
翻筋斗	-11.6508
一老宿	-11.6509
林泉道	-11.651
啟口	-11.6511
辨的	-11.6512
鼈鼻	-11.6513
開士	-11.6516
撓	-11.6516
政和	-11.6517
巳躬	-11.6517
不畏	-11.6519
早參	-11.6519
百獸	-11.6521
自何來	-11.6521
數十年	-11.6521
不可得而	-11.6521
利根	-11.6524
召眾曰	-11.6526
顧視左右云	-11.6528
貴圖天下太平	-11.6529
白紙	-11.6534
心不負人	-11.6535
與三十棒	-11.6536
擲筆	-11.6536
囫圇	-11.6537
且道是甚麼	-11.6538
哂	-11.6541
底事作麼生	-11.6541
恩大難酬	-11.6543
近離	-11.6546
脫灑	-11.6547
苦苦	-11.6547
一口氣不來	-11.6549
烏臼	-11.6551
有箇漢	-11.6551
所變	-11.6552
夜明簾外	-11.6552
握手	-11.6553
馥	-11.6553
混沌	-11.6553
垂語曰	-11.6555
蒞	-11.6557
高麗	-11.6565
更添	-11.6569
燈錄	-11.6569
兒童	-11.6571
瓊樓	-11.6573
心空及第	-11.6573
跛鱉	-11.6576
移易	-11.6579
氣宇如王	-11.658
無風起浪	-11.6584
萬象之中獨露身	-11.6585
靈符	-11.6586
賢首	-11.6586
下劣	-11.6587
舊年	-11.6588
忽大悟	-11.6591
蜆	-11.6593
磯	-11.6595
批	-11.6595
□□	-11.6596
名藍	-11.6596
庄	-11.6596
撾鼓	-11.6597
本覺一	-11.6597
蓆	-11.6598
顱	-11.6599
龜毛拂	-11.6602
俯仰	-11.6604
挫	-11.6608
燒却	-11.6608
憑誰	-11.6609
打圓相	-11.6613
蹋著	-11.6613
者稀	-11.6614
傘	-11.6618
軌則	-11.6619
笑巖	-11.6621
脫或未然	-11.6621
把手共行	-11.6623
驢胎馬腹	-11.6623
我有一	-11.6625
滿堂	-11.6626
爭肯	-11.6626
行正令	-11.6627
祖意教意	-11.6627
罰錢	-11.6628
是恁麼人	-11.6629
菱	-11.663
中流出	-11.6631
鎧	-11.6631
饒益	-11.6634
鳧	-11.6635
浪滔天	-11.6636
鉤頭	-11.6638
漱	-11.6638
貪愛	-11.6639
狗子佛性	-11.664
雪嶠	-11.6642
心地法門	-11.6642
庾	-11.6642
掖	-11.6644
衒	-11.6645
弼	-11.6646
飄然	-11.6647
收不得	-11.6647
切念	-11.6647
各具	-11.6649
先賢	-11.6654
侍御	-11.6654
問僧甚處來	-11.6654
􂋧	-11.6655
圈繢	-11.666
老瞿曇	-11.6663
利鈍	-11.6664
裳	-11.6668
因茲	-11.6669
相委	-11.6669
十一世	-11.667
太無端	-11.6671
逢春	-11.6672
流芳	-11.6672
顧左右曰	-11.6675
閻羅	-11.6677
摩訶般若	-11.6677
金毛師子	-11.6678
貪著	-11.6679
丙辰	-11.6682
是那一	-11.6683
韶國師	-11.6687
決志	-11.6688
酧	-11.6689
是箇什麼	-11.6691
鳳林	-11.6691
吹萬	-11.6695
決疑	-11.6696
斛	-11.6699
無人會	-11.6701
開導	-11.6703
拈起拄杖曰	-11.6704
剌史	-11.6704
目顧四方	-11.6705
篩	-11.6707
剩語	-11.6708
重七斤	-11.6709
勞形	-11.6709
青黃赤白	-11.671
有問有答	-11.671
一二三四五	-11.671
如何是人境兩俱奪	-11.6713
依而行之	-11.6713
啐啄	-11.6714
無間歇	-11.6714
舉拳	-11.6715
無二無別	-11.6715
諗	-11.6715
十九日	-11.6715
璽	-11.6717
除夜小參	-11.6717
一劄	-11.6718
西來祖意	-11.6719
為霖	-11.6719
古剎	-11.672
十界	-11.672
海闊	-11.6721
莓苔	-11.6722
知去處	-11.6722
孰敢	-11.6722
試出來	-11.6722
喚回	-11.6723
因甚如此	-11.6724
茶次	-11.6724
豎起拂子云	-11.6725
拈掇	-11.6725
邏	-11.6726
無孔	-11.6726
泐	-11.6726
貝葉	-11.6726
壬午	-11.6726
不妨奇特	-11.6727
4	-11.6727
上頭關	-11.6728
貪瞋癡	-11.6728
不及處	-11.6729
供奉	-11.6731
千鈞	-11.6732
祥符	-11.6734
掌上	-11.6736
桃源	-11.6736
藜	-11.6737
老盧	-11.6739
珍珠	-11.6742
別是一	-11.6742
周公	-11.6743
雲霞	-11.6743
不漏	-11.6744
南昌	-11.6747
德山入門便棒	-11.6749
且待	-11.6749
藤條	-11.6749
頂𩕳上	-11.675
一毫頭	-11.675
鷂子過新羅	-11.6751
劈脊便打	-11.6755
即是如來	-11.6756
娑羅	-11.6757
櫓	-11.6757
透長安	-11.6758
始末	-11.676
供眾	-11.6761
痾	-11.6762
朕兆	-11.6762
孺	-11.6762
命終	-11.6763
詆	-11.6764
垛	-11.6766
打皷	-11.6767
寸步	-11.6767
百千法門	-11.6767
祥光	-11.6768
諸大老	-11.677
汪洋	-11.677
所攝	-11.6774
到遮裏	-11.6776
何幸	-11.6776
甚奇怪	-11.6777
意在目前	-11.6778
造物	-11.6781
太古	-11.6782
僧云某甲	-11.6783
程途	-11.6784
中秋上堂	-11.6784
放過即不可	-11.6785
松竹	-11.6786
不出門	-11.6786
羮	-11.6788
嗣馬祖	-11.6788
八歲	-11.6789
此是選佛場	-11.6792
虛名	-11.6793
逢人不得錯舉	-11.6794
相去幾何	-11.6796
功不浪施	-11.6796
十三日	-11.6798
人人盡有	-11.6798
眼睫	-11.6799
正令全提	-11.6799
翠巖芝云	-11.6803
也不難	-11.6804
遐邇	-11.6804
喉	-11.6804
繹	-11.6806
穩當	-11.6806
耘	-11.6807
瀆	-11.6813
眨	-11.6814
求解脫	-11.6815
憍	-11.6815
罕遇	-11.6815
丙子	-11.6817
根株	-11.6817
何故如此	-11.6819
鐵圍	-11.6821
峨嵋	-11.6822
主伴	-11.6826
怪石	-11.6827
灘頭	-11.683
艱難	-11.683
得法於	-11.6832
寂光	-11.6832
好事不如無	-11.6833
十世古今	-11.6839
萼	-11.6839
管帶	-11.6841
止啼	-11.6842
資聖	-11.6843
月皎	-11.6847
吻	-11.6847
寺主	-11.6848
搦	-11.6848
無法可	-11.6849
擘開	-11.6849
土塊	-11.6854
脫略	-11.6855
香餌	-11.6855
總結	-11.686
康熈	-11.6861
怖畏	-11.6861
拈古	-11.6862
戮	-11.6864
出身處	-11.6864
冷眼	-11.6865
讐	-11.6871
金剛眼	-11.6871
諦信	-11.6871
錯了也	-11.6873
遍天下	-11.6874
紫金	-11.6878
料掉沒交涉	-11.6879
點鐵成金	-11.6879
一生參學事畢	-11.6882
放一線道	-11.6883
住徑山	-11.6884
示偈曰	-11.6884
妥	-11.6886
簸箕	-11.6887
拂袖而出	-11.6887
宏智	-11.6887
現全身	-11.6889
猛烈	-11.6889
堪悲	-11.6891
曳杖	-11.6894
糠	-11.6897
一柄	-11.6898
精嚴	-11.6899
碧眼胡僧	-11.6902
暹	-11.6902
學人上來	-11.6903
喚作拂子	-11.6903
澄澄	-11.6904
唐言	-11.6905
戊子	-11.6906
剃落	-11.6907
異香	-11.6908
抑且	-11.6909
一篇	-11.6909
支那	-11.691
不肯承當	-11.6912
奚為	-11.6912
揮拂子云	-11.6913
著忙	-11.6915
蓋天蓋地	-11.6917
瓣	-11.6921
彫	-11.6922
凜	-11.6922
峭巍巍	-11.6925
朵朵	-11.6926
為一大事因緣	-11.6926
貪嗔癡	-11.6928
雙足	-11.6929
知此意	-11.693
可知禮也	-11.6931
彈指一下	-11.6934
蕩盡	-11.6938
昱	-11.6938
驛	-11.6939
持齋	-11.694
戊戌	-11.6943
江海	-11.6944
最苦	-11.6945
加鞭	-11.6948
阿育王	-11.6949
浮沉	-11.695
天池	-11.695
禪寺住持	-11.695
罔極	-11.6951
萬靈	-11.6951
猶帶	-11.6952
化育	-11.6955
首謁	-11.6958
飛騰	-11.6959
僧辭	-11.6959
那管	-11.696
禪師福州	-11.696
首尾	-11.6963
麼莫是	-11.6964
相貌	-11.6965
當斷不斷	-11.6965
銅頭鐵額	-11.6965
撞破	-11.6965
作佛法商量	-11.6967
有頭無尾	-11.6967
天地懸殊	-11.6967
直造	-11.6967
真歇	-11.6967
吹毛劍	-11.6969
如何是清淨法身	-11.697
開正眼	-11.6971
福建	-11.6972
戶牖	-11.6974
三十七	-11.6975
踴躍	-11.6975
根境	-11.6976
箋	-11.6976
馳書	-11.6976
兜	-11.6977
忖	-11.6978
甄別	-11.6979
六度萬行	-11.6979
圍爐	-11.6982
腑	-11.6983
師亦喝	-11.6987
戊申	-11.6987
白汗	-11.6988
齋次	-11.699
雙眸	-11.699
雞啼	-11.6995
黃鶯	-11.6998
月映	-11.7004
卉	-11.7009
轉凡成聖	-11.701
傑出	-11.701
金殿	-11.7011
直截根源	-11.7011
話作兩橛	-11.7012
和盤托出	-11.7012
一鎚	-11.7014
若不如是	-11.7014
三世諸佛不知有	-11.7016
女子出定	-11.7016
大地無寸土	-11.7017
法姪	-11.7017
無背面	-11.7017
橐	-11.7017
碧雲	-11.702
胞胎	-11.7021
堆堆	-11.7021
耆婆	-11.7023
自利利他	-11.7024
雷震	-11.7032
撞入	-11.7035
奉重	-11.7035
十種	-11.7042
作麼生說箇	-11.7042
棱	-11.7044
萬古碧潭空界月	-11.7049
折旋俯仰	-11.7054
逼人寒	-11.7055
成熟	-11.7056
三十五	-11.7057
行此令	-11.7057
老衲	-11.7057
行棒行喝	-11.7057
沒量大人	-11.7058
瓠	-11.7058
依俙	-11.7062
門庭施設	-11.7063
佑	-11.7067
賸	-11.707
蘸	-11.707
屹	-11.7071
鴆	-11.7072
篾	-11.7074
馭	-11.7076
作麼生商量	-11.7077
旛動	-11.7078
早已	-11.7081
一乘法	-11.7083
艶	-11.7085
南屏	-11.7086
僧來參	-11.7086
莊周	-11.7086
記錄	-11.7087
出世後如何	-11.7089
清泉	-11.709
蠟人	-11.709
不會禪	-11.709
乙未	-11.7092
多般	-11.7095
臨濟入門便喝	-11.7095
恍然	-11.7097
若有人問	-11.7097
展具	-11.7097
咳嗽	-11.7098
眉鬚墮落	-11.71
浮山遠	-11.71
七穿八穴	-11.7103
裸	-11.7103
馬蹄	-11.7104
濟濟	-11.7107
掃帚	-11.7108
真善知識	-11.711
玄覺云	-11.7113
鉅	-11.7115
椅	-11.7115
破顏	-11.7117
奪却	-11.7118
賀太平	-11.7119
5	-11.7119
倣	-11.7119
袁州	-11.7124
漁歌	-11.7124
自瞞	-11.7126
高臺	-11.7126
母夢	-11.713
徧地	-11.713
照臨	-11.7134
獨耀	-11.7134
拋卻	-11.7136
華嶽	-11.7136
住後上堂	-11.7137
裏藏身	-11.7137
威德	-11.7137
落在什麼處	-11.7141
透關	-11.7142
廻	-11.7142
巳畢	-11.7143
自由自在	-11.7144
秋毫	-11.7145
斯旨	-11.7146
照耀	-11.7146
相酬	-11.7147
智不是道	-11.7147
苦瓠連根苦	-11.7149
存焉	-11.7151
入頭處	-11.7151
萬木	-11.7152
郵	-11.7154
僧擬議師便打	-11.7155
鑠	-11.7156
卞	-11.7156
滓	-11.7156
著述	-11.7159
膿	-11.7163
竪拂	-11.7164
古德道	-11.7166
證果	-11.7169
以手掩	-11.7171
瀛	-11.7171
零落	-11.7175
真際	-11.7178
覷不見	-11.7178
別號	-11.7178
孃生	-11.718
現瑞	-11.718
娑	-11.7181
填溝塞壑	-11.7184
歸家穩坐	-11.7185
天目禮	-11.7185
虛度	-11.7186
數量	-11.7187
破壞	-11.7187
不可說不可說	-11.7193
古佛家風	-11.7194
張口	-11.7196
碍	-11.7196
太傅	-11.7196
諄諄	-11.7199
複	-11.72
有老宿	-11.7203
往謁	-11.7205
纍	-11.7205
榆	-11.7205
闔國	-11.7205
霈	-11.7206
敦請	-11.7207
乙巳	-11.7209
𢬵	-11.7211
網羅	-11.7212
放曠	-11.7213
影落	-11.7214
碧漢	-11.7214
泥牛吼	-11.7215
但向道	-11.722
超佛越祖之談	-11.7221
從甚麼處	-11.7223
觀音菩薩	-11.7224
貧賤	-11.7224
長三尺	-11.7228
欲識佛性義	-11.7232
羅浮	-11.7232
垢淨	-11.7232
更待何時	-11.7233
七顛八倒	-11.7233
夢想	-11.7234
厲聲	-11.7238
赫赫	-11.7241
一盞	-11.7242
古人有言	-11.7242
狹路相逢	-11.7243
寒溫	-11.7243
氣吞	-11.7245
煙雨	-11.7246
曙	-11.7247
從何處來	-11.7247
英俊	-11.7248
箇入路	-11.7248
你又作麼生	-11.7249
塵垢	-11.725
毳	-11.7252
未詳	-11.7253
剔起	-11.7253
􂐔	-11.7255
不出戶	-11.7255
苐	-11.7258
皮毛	-11.7259
有事在	-11.7259
禮辭	-11.726
笑點頭	-11.7264
帶雨	-11.7267
豈可以	-11.7267
更有何	-11.727
塵塵剎剎	-11.7272
僧回首	-11.7275
熾然說	-11.7276
話頭也不識	-11.7277
青州布衫	-11.7278
貶剝	-11.7278
不得錯舉	-11.7279
撇	-11.7279
湮	-11.728
撿點將來	-11.7282
流泉	-11.7284
生死到來	-11.7286
摝	-11.7288
斷腸	-11.729
血脈	-11.729
曇華	-11.7292
辛亥	-11.7293
枯骨	-11.7294
家家門	-11.7294
關棙子	-11.7294
少許	-11.7294
謫	-11.7295
上法堂	-11.7297
杭之	-11.7299
陳年	-11.73
同條死	-11.7302
忘緣	-11.7306
儂家	-11.7307
劈口	-11.7311
香燈	-11.7315
日日是好日	-11.7316
靈樹	-11.732
出門便是草	-11.732
有些子	-11.7321
不輟	-11.7321
十智同真	-11.7325
汰	-11.7326
此四句	-11.7327
穩密	-11.7327
太虗空	-11.7328
籮	-11.7328
蒺藜	-11.7329
颺下	-11.7331
逐塊	-11.7331
九垓	-11.7331
狸奴	-11.7332
福壽	-11.7332
旬日	-11.7333
所緣緣	-11.7335
蛤	-11.7337
丙寅	-11.7337
臨川	-11.7338
揭開	-11.7338
鉢囊	-11.7339
涸	-11.7339
椒	-11.7339
江州	-11.734
崇福	-11.7342
虗席	-11.7342
抑揚	-11.7344
一件	-11.7346
紛飛	-11.7346
洞口	-11.7347
總不與麼	-11.7348
迷悶	-11.735
雜毒	-11.7351
烏石	-11.7352
保護	-11.7356
能縱能奪	-11.7358
婦人	-11.7358
况	-11.7359
惱亂春風卒未休	-11.7365
破顏微笑	-11.7365
水牯	-11.7367
有意氣時添意氣	-11.7368
活人劍	-11.737
陳氏	-11.7371
直示	-11.7373
伶俐衲僧	-11.7375
回途	-11.7375
士禮拜	-11.7376
衣冠	-11.7379
疼	-11.738
污染	-11.738
金翅	-11.7382
蛾	-11.7383
謗佛	-11.7384
吳山	-11.7384
榛	-11.7384
輻	-11.7386
襄陽	-11.739
板頭	-11.7393
五百年	-11.7397
泥裏	-11.7398
趙州關	-11.7401
慕道	-11.7403
由旬	-11.7403
換卻	-11.7405
卓錫	-11.7412
睜	-11.7413
狗子無佛性	-11.7417
露滴	-11.742
如何是正法眼	-11.7421
續燈	-11.7423
眺	-11.7424
即今在什麼處	-11.7424
袈裟角	-11.7427
討箇	-11.7428
誰是知音	-11.7428
座元	-11.7428
勗	-11.7429
頓忘	-11.7429
臨濟兒孫	-11.7431
證無生	-11.7436
不假修	-11.7436
蓬萊	-11.7437
初發心	-11.7437
變現	-11.744
如何舉唱	-11.7443
放捨	-11.7446
悚然	-11.7448
三世如來	-11.7449
宗派	-11.745
稱揚	-11.7451
金銀	-11.7452
山僧即不然	-11.7452
動容揚古路	-11.7457
非耳目之所到	-11.7458
勞神	-11.7461
劬勞	-11.7463
窖	-11.7465
西天四七	-11.7465
五峯	-11.7467
肋	-11.7467
逐隊	-11.7469
建州	-11.747
纓	-11.747
葺	-11.7472
往依	-11.7473
古南門	-11.7475
股	-11.7477
癸卯	-11.7477
縱橫自在	-11.7478
大丈夫兒	-11.7478
燕語	-11.7479
浹	-11.748
燈燭	-11.748
活捉	-11.7481
翠峰顯	-11.7482
東籬	-11.7484
疏親	-11.7487
罽賓	-11.7488
高眠	-11.749
▁第	-11.7491
僧禮拜師乃云	-11.7491
道得也	-11.7492
何處更有	-11.7495
雖殊	-11.7496
悄	-11.7497
變遷	-11.7497
九九八十一	-11.7497
快便難逢	-11.75
婆娑	-11.7502
大通智勝佛	-11.7503
蒼松	-11.7504
休去歇去	-11.7504
緇白	-11.7504
費盡	-11.7507
蹴	-11.7507
泉聲	-11.7508
火焰	-11.751
樵子	-11.7511
利劍	-11.7512
傳心印	-11.7513
降魔	-11.7513
守護	-11.7514
聖凡情	-11.7514
萬法唯識	-11.7519
膩	-11.7519
奔馳	-11.752
祁	-11.7523
拈弄	-11.7525
報化	-11.7526
如何領會	-11.7529
火爐頭	-11.7531
濟便打	-11.7531
。』」	-11.7539
欲界	-11.7541
還有為人處也無	-11.7542
料揀	-11.7547
當晚小參	-11.7549
據令而行	-11.7549
俱泯	-11.755
頭正尾正	-11.755
喪我兒孫	-11.7551
當為何事	-11.7551
菲	-11.7556
普現	-11.7558
喘	-11.7558
針錐	-11.7558
猛火	-11.7559
後無傳	-11.7559
游方	-11.756
眉目	-11.7561
兩喝	-11.7562
二十餘	-11.7562
當場	-11.7563
長嘯	-11.7564
剎剎	-11.7564
若人識得	-11.7565
瀑布	-11.7565
個裏	-11.7567
瑞光	-11.7567
多劫	-11.7568
癸丑	-11.7569
纂	-11.7569
泮	-11.7572
煅	-11.7572
癸亥	-11.7572
六祖大師	-11.7573
莫認	-11.7574
禧	-11.7576
當胸	-11.7576
渴飲	-11.7578
未審意旨如何	-11.7581
千燈	-11.7585
撲破	-11.7587
百步	-11.7588
間隔	-11.7588
遷變	-11.7589
金屑雖貴	-11.759
自領出去	-11.7592
參馬祖	-11.7592
是則名為報佛恩	-11.7592
端居	-11.7593
承誰恩力	-11.7594
丹霞燒木佛	-11.7595
可知矣	-11.7596
語默動靜	-11.7597
幻住	-11.7599
體露金風	-11.7599
新婦騎驢阿家牽	-11.7599
擬進語	-11.76
雪庭	-11.76
吾無隱乎爾	-11.76
四大本空	-11.7602
勸請	-11.7604
隨流水	-11.7605
元豐	-11.7605
惕	-11.7607
鳶	-11.7608
闍	-11.761
結夏小參	-11.761
閉却門	-11.7612
淛	-11.7613
毫末	-11.7616
皖	-11.7616
朝陽	-11.7617
桓	-11.7617
雪曲	-11.7617
不是風動	-11.7618
長髭	-11.7622
泥團	-11.7624
献	-11.763
苟或	-11.763
如何是透法身句	-11.7632
百草頭邊	-11.7636
十九年	-11.7637
怙	-11.7638
不知落處	-11.764
延慶	-11.7642
睡眠	-11.7644
迥超	-11.7645
是甚麼所在	-11.7645
脫卻	-11.7646
無欠無餘	-11.7647
得恰好	-11.7648
眼耳鼻舌身意	-11.7649
黯	-11.7649
喜怒	-11.7649
琵琶	-11.7649
齊彰	-11.7649
師震威一喝	-11.765
櫂	-11.765
踢翻	-11.7654
打一拂子	-11.7654
柁	-11.7654
生死涅槃	-11.7655
以拂子擊	-11.7655
秘魔	-11.7656
竣	-11.7656
襖	-11.7657
含識	-11.7658
肢	-11.766
一段光明	-11.766
尖頭	-11.7661
摘茶	-11.7662
洗面	-11.7663
頓釋	-11.7664
天衣懷	-11.7665
斯文	-11.7671
把臂	-11.7673
四喝	-11.7673
祖師關	-11.7674
烏雞	-11.7677
簡點將來	-11.7681
渾然	-11.7681
五臺山	-11.7682
竪起拂子云	-11.7682
皎然	-11.7684
老朽	-11.7685
幸甚	-11.7686
起佛見法見	-11.7687
得箇入處	-11.7689
帶水拖泥	-11.769
夏末	-11.7693
透網金鱗	-11.7694
累劫	-11.7695
太夫人	-11.7695
未委	-11.7704
仆	-11.7707
賁	-11.7708
倚杖	-11.771
發揚	-11.7711
包含	-11.7711
諸方老宿	-11.7711
渾忘	-11.7718
親炙	-11.7719
求出家	-11.7719
百煉	-11.7719
堪嗟	-11.7722
改元	-11.7723
橫肩	-11.7725
無用處	-11.7736
向上還有事也無	-11.7737
北鬱單越	-11.7737
小叅	-11.7739
寒山拾得	-11.774
水東流	-11.7742
兩莖眉	-11.7743
患聾	-11.7744
行於世	-11.7747
何愁	-11.7747
翱翔	-11.7747
百丈野狐	-11.7747
抹過	-11.7748
三十四	-11.7748
嘯月	-11.7749
口喃喃	-11.7749
差別智	-11.7749
梗	-11.775
年八十	-11.7753
萬年松	-11.7753
姊	-11.7753
羽毛	-11.7755
慶讚	-11.7755
磁	-11.7756
貪嗔	-11.7758
無間斷	-11.7765
恤	-11.7765
師喝曰	-11.7766
萬類	-11.777
搖手	-11.7771
一物不將來	-11.7775
重說偈言	-11.7781
忌拈香	-11.7782
恙	-11.7783
克符	-11.7788
遞代	-11.779
溢目	-11.7791
艇	-11.7794
請師指示	-11.7795
啜	-11.7795
涕唾	-11.7796
建法幢	-11.7797
諂	-11.7799
蟠桃	-11.7799
服膺	-11.7801
空不空	-11.7803
葷	-11.7805
宕	-11.7806
娶	-11.7808
榮枯	-11.7809
較量	-11.7809
妃	-11.7811
金剛眼睛	-11.7811
待他道	-11.7813
雙峰	-11.7816
黃連	-11.7817
僧亦喝	-11.7817
難免	-11.7819
古尊宿	-11.782
晚叅	-11.7822
四十餘年	-11.7822
思慮	-11.7824
騎馬	-11.7824
幽州	-11.7824
度人巳畢	-11.7824
自他不隔於毫端	-11.7824
淨裸裸	-11.7825
輪回	-11.7825
萬物咸新	-11.7827
禪道佛法	-11.7827
橫眠	-11.7831
紀綱	-11.7832
無量妙義	-11.7832
孝順	-11.7833
鋼	-11.7833
淥	-11.7834
擲拄杖下座	-11.7835
祇園	-11.7838
箇話頭	-11.7839
丹桂	-11.7842
鼻孔出氣	-11.7842
囀	-11.7843
大唐國裏	-11.7843
牘	-11.7843
嘉州	-11.7844
鄂州	-11.7844
撿	-11.7846
壬申	-11.7846
姜	-11.7846
戊午	-11.7847
壬辰	-11.785
怜	-11.7851
浩蕩	-11.7853
沒巴鼻	-11.7853
披緇	-11.7853
筠州	-11.7853
驀直	-11.7854
疑殺	-11.7857
僧喝師云	-11.7858
片月	-11.7858
師子尊者	-11.7859
急切	-11.7864
亙古亙今	-11.7865
大圓覺	-11.7866
摩醯	-11.7867
崇壽	-11.7868
還有優劣也無	-11.7868
衲僧鼻孔	-11.787
覿	-11.787
巳蒙師指示	-11.7872
三轉語	-11.7872
無邊剎境	-11.7874
金鍼	-11.7874
領取	-11.7874
見得徹	-11.7875
李氏	-11.7877
搬柴	-11.7879
爐韝	-11.788
棒喝交馳	-11.7881
土曠人稀	-11.7882
廓爾	-11.7882
救取	-11.7886
駁	-11.7888
十六年	-11.7889
出隻手	-11.789
大眾證明	-11.7891
看腳下	-11.7892
趙老	-11.7892
日夕	-11.7892
拈杖	-11.7897
廓落	-11.7899
閉戶	-11.7899
頃刻	-11.7899
晨昏	-11.7899
妾	-11.7903
大鵬	-11.7905
瞬目	-11.7906
億萬	-11.7907
指陳	-11.7909
中央	-11.7912
建炎	-11.7916
只許	-11.7917
如龍得水	-11.7919
人境俱奪	-11.7922
刱	-11.7922
潮音	-11.7923
路見不平	-11.7924
祖禰不了	-11.7927
罅	-11.793
出現於世	-11.7933
榾柮	-11.7935
挨拶	-11.7937
黃泉	-11.7937
晟	-11.7941
泳	-11.7944
且緩緩	-11.7944
高樓	-11.7945
屐	-11.7947
撩天	-11.7948
結冬	-11.795
插鍬	-11.795
冷暖	-11.7951
擊節	-11.7951
飽參	-11.7953
返擲	-11.7954
恚	-11.7958
胡亂	-11.7958
瞪目	-11.7961
一切境界	-11.7962
由是觀之	-11.7962
一切智智清淨	-11.7964
向上一路千聖不傳	-11.7964
托缽	-11.7965
剏	-11.7968
橫說豎說	-11.7968
送客	-11.7969
註破	-11.7969
拈頌	-11.797
慨然	-11.797
熱鬧	-11.797
點點	-11.7971
肇公	-11.7971
然雖如此	-11.7973
不墮悄然機	-11.7973
宗門中事	-11.7974
題目	-11.7975
如藤倚樹	-11.7977
瑞草	-11.7978
相隨來也	-11.7979
榴	-11.798
苕	-11.7982
匾	-11.7984
辛丑	-11.7984
巾瓶	-11.7985
平沉	-11.7985
杈	-11.7987
貝	-11.7987
立下風	-11.7988
槁	-11.7989
萎	-11.799
受具戒	-11.7991
辨得出	-11.7995
覩明星	-11.7997
擺尾	-11.8004
香飄	-11.8005
有者道	-11.8005
差殊	-11.8007
驀口	-11.801
掠虗	-11.8013
大闡	-11.8014
卓杖	-11.802
回光返照	-11.802
拘束	-11.8024
簑	-11.8026
颯颯	-11.8026
取舍	-11.8027
摸索不著	-11.8028
第三句	-11.8031
於地上	-11.8032
毓	-11.8032
張氏	-11.8032
丙申	-11.8039
怎得	-11.8041
伏牛	-11.8041
歸舉似	-11.8042
沫	-11.8045
9	-11.8049
媒	-11.8052
於此有省	-11.8054
兩片	-11.8057
九品	-11.8059
不唧溜	-11.8061
大鑒下	-11.8062
入閩	-11.8064
消除	-11.8065
一路涅槃門	-11.8066
夫婦	-11.8069
歲旦上堂	-11.8071
蹋破	-11.8072
閩王	-11.8073
三百餘會	-11.8077
鶴唳	-11.8078
平常心是道	-11.8078
野干鳴	-11.8079
寸絲	-11.8081
這一隊	-11.8084
塗糊	-11.8088
好消息	-11.8088
白鷺	-11.8091
鏁	-11.8093
勞勞	-11.8093
測度	-11.8094
遮那	-11.81
𣗳	-11.8102
普菴	-11.8107
瓦解冰消	-11.811
師擬對	-11.811
有何祥瑞	-11.8112
證義曰	-11.8112
狀元	-11.8113
你無拄杖子	-11.8113
無形本寂寥	-11.8114
應時及節	-11.8115
辛未	-11.8118
參學事畢	-11.8119
俗士	-11.8123
年三十	-11.8123
我宗無語句	-11.8123
圓音	-11.8127
迷津	-11.8127
洞庭湖	-11.813
戊辰	-11.8131
刁	-11.8131
朦朧	-11.8132
忉忉	-11.8132
辛酉	-11.8134
迥然	-11.8135
模範	-11.8135
晃	-11.8139
壬寅	-11.8139
殫	-11.8141
碁	-11.8142
聖躬	-11.8145
蒙印可	-11.8149
承古有言	-11.8153
國師三喚侍者	-11.8159
莫嫌	-11.816
居何國土	-11.8163
有權有實	-11.8165
雨似盆傾	-11.8166
活潑潑	-11.8167
本分草料	-11.8168
當午	-11.817
祝壽	-11.8171
雷電	-11.8171
鷓鴣啼	-11.8172
出一隻手	-11.8175
洵	-11.8175
瘥	-11.8176
那容	-11.8177
拍一拍	-11.8178
打一圓相	-11.8178
抓	-11.8179
不相饒	-11.818
妍醜	-11.8181
肝腸	-11.8181
深肯之	-11.8181
一輪明月	-11.8184
雉	-11.8184
躁	-11.8187
撥動	-11.8189
咄咄咄	-11.819
珍御	-11.819
邊際	-11.819
子韶	-11.8196
這箇道理	-11.8198
鄮	-11.8198
諸人還見麼	-11.8198
瞥爾	-11.8201
買賣	-11.8202
利濟	-11.8207
太殺	-11.8208
錯下名言	-11.8211
拿	-11.8214
一動一靜	-11.8215
喚作竹篦則觸	-11.8216
分明記取	-11.8218
功業	-11.822
帝網	-11.8221
鍵	-11.8222
關捩	-11.8222
嫂	-11.8223
苗稼	-11.8223
以拄杖打	-11.8223
躑	-11.8225
鬱鬱	-11.8226
若是箇	-11.8226
裴相國	-11.8226
罩	-11.8227
淨躶躶	-11.8227
攔胸	-11.8228
葉葉	-11.8228
迅速	-11.8229
祥麟	-11.823
漠漠	-11.8231
廈	-11.8236
人境俱不奪	-11.8239
放憨	-11.8239
諸大菩薩	-11.8241
靠倒	-11.8243
一毫頭上	-11.8243
暗室	-11.8243
劈破	-11.8244
爛泥	-11.8245
四威儀中	-11.8248
十八界	-11.825
萬斛	-11.8256
瞎驢邊滅	-11.8266
玅喜	-11.8267
檀度	-11.8268
乃呵呵大笑	-11.8269
有什麼過	-11.8269
甜瓜徹蒂甜	-11.8271
丰	-11.8272
距	-11.8279
歉	-11.8279
扃	-11.8284
經營	-11.8286
輦	-11.8286
淡薄	-11.8291
惱亂	-11.8291
髮白	-11.8294
毒龍	-11.8299
步步踏	-11.83
掃塔	-11.8301
示誨	-11.8304
皇圖	-11.8306
喚醒	-11.8309
奉旨	-11.831
阿賴耶識	-11.831
咬破	-11.8315
天柱	-11.8317
說心說性	-11.8317
鐵橛	-11.8317
策杖	-11.8318
而巳矣	-11.8318
珠走盤	-11.8323
還識得	-11.8323
付法偈曰	-11.8325
皺眉	-11.8326
萬疊	-11.8326
大圓鏡	-11.8326
斟酌	-11.8329
誚	-11.833
薄福	-11.8332
佯	-11.8333
平地起	-11.8333
蹊	-11.8334
湍	-11.8335
泓	-11.8335
古人公案	-11.8335
鍮	-11.8335
紫氣	-11.8336
佛印元	-11.8336
篋	-11.8337
一枚	-11.834
副寺	-11.8345
迅雷	-11.8349
十法界	-11.8349
殃及	-11.835
五逆	-11.8351
今何在	-11.8355
墮坑落塹	-11.8363
有照有用	-11.8363
叵耐	-11.8365
牛兒	-11.8366
向下文長	-11.8366
無為之化	-11.837
推窮	-11.837
砥柱	-11.8375
慶快平生	-11.8377
豈敢	-11.8378
遨遊	-11.838
薛	-11.8382
莎	-11.8385
篁	-11.8386
未審和尚如何	-11.8387
魔魅	-11.8388
錦江	-11.8389
死灰	-11.839
閻羅王	-11.8392
每每	-11.8392
精微	-11.8393
十一年	-11.8399
一炷香	-11.8399
有日在	-11.84
五里	-11.8402
拈香祝聖畢	-11.8407
問其故	-11.8409
有物先天地	-11.8413
有過無過	-11.8413
亙古	-11.8415
明甚麼邊事	-11.8416
三條椽下	-11.8418
東壁	-11.8418
眼光落地	-11.8418
全提正令	-11.842
赫日	-11.8422
湧出	-11.8422
舞三臺	-11.8423
拳拳	-11.8425
難測	-11.8425
萬籟	-11.8429
遘	-11.8431
忘懷	-11.8432
涅	-11.8433
袒	-11.8434
通身是口	-11.8437
參詳	-11.8438
餉	-11.8442
光耀	-11.8443
大千世界	-11.8443
鋤頭	-11.8445
嵗	-11.8446
笠子	-11.8449
樞密	-11.8449
歌舞	-11.845
遷流	-11.845
讒	-11.8452
正當今日	-11.8454
一句又作麼生道	-11.8454
一朵	-11.8459
辛巳	-11.8459
攪長河為酥酪	-11.8462
再三撈摝始應知	-11.8462
南泉斬貓	-11.8463
渾家	-11.8463
料理	-11.8463
禪師潭州	-11.8463
差互	-11.8465
三種病人	-11.8466
為甚麼如此	-11.8467
灑灑落落	-11.8467
向上向下	-11.8469
不識字	-11.8469
豔	-11.847
不顧危亡	-11.847
抵對	-11.8471
灸	-11.8472
知痛癢	-11.8472
黑似漆	-11.8473
葩	-11.8473
白佛言	-11.8476
醜拙	-11.8476
當面蹉過	-11.8478
庖	-11.8479
懵懂	-11.8481
長慶稜	-11.8483
曝	-11.8484
寮舍	-11.8485
甲午	-11.8488
大小德山	-11.8488
毒鼓	-11.8488
檜	-11.8488
五彩	-11.849
聚落	-11.849
醻	-11.849
舉措	-11.8494
吹滅	-11.8494
碧巖	-11.8494
身而為說法	-11.8497
便恁麼去時如何	-11.8498
瑜伽	-11.8502
措足	-11.8503
作家宗師	-11.8505
仞	-11.8506
比量	-11.8506
法眷	-11.8508
那一通	-11.851
入虎穴	-11.851
隔江	-11.8512
隨分納些些	-11.8513
龍蟠	-11.8514
百萬人天	-11.8517
如何話會	-11.8518
摹	-11.8519
半載	-11.852
不較多	-11.8521
除夕小參	-11.8521
柳巷	-11.8523
滾	-11.8524
臨際	-11.8527
繩頭	-11.8527
胃	-11.8531
千仞	-11.854
正覺逸	-11.854
般若多羅	-11.854
阿僧祇	-11.8543
聘	-11.8544
不得草草	-11.8544
衣裳	-11.8545
掠虛	-11.8549
嘉聲	-11.855
沐浴更衣	-11.855
裝香	-11.8551
書寫	-11.8551
挂角	-11.8552
曇花	-11.8553
希奇	-11.8558
坐斷十方	-11.8563
明如日	-11.8564
簷前	-11.8566
壁間	-11.8566
不喚作竹篦則背	-11.8567
大悲千手眼	-11.8568
隻手	-11.857
徹骨徹髓	-11.8571
滴水滴凍	-11.8572
鴛湖	-11.8574
倜儻分明	-11.8576
趙州因僧問	-11.8576
奉全身	-11.8577
喜怒哀樂	-11.8577
明鏡當臺	-11.8578
白日青天	-11.858
無異路	-11.8582
迪	-11.8582
站	-11.8583
元宵上堂	-11.8583
擴	-11.8584
汩	-11.8585
池塘	-11.8587
悴	-11.8591
百餘年	-11.8591
旵	-11.8595
趍	-11.8598
永固	-11.86
圭峰	-11.8606
僧出禮拜	-11.8608
古帆	-11.8609
閉關	-11.861
梅華	-11.862
奉詔	-11.8622
有甚長處	-11.8622
貴圖	-11.8624
巡寮	-11.8625
哆	-11.8627
燥	-11.8628
諷	-11.8629
祇管	-11.863
踏遍	-11.8632
峨眉	-11.8633
萬兩黃金	-11.8634
照燭	-11.8635
倚天	-11.8639
伯牙	-11.8642
贍	-11.8643
孚上座	-11.8645
血氣	-11.8645
蠟	-11.8646
遍歷	-11.8646
畫圖	-11.8647
無高下	-11.865
殺天下人	-11.8651
十八年	-11.8652
億劫	-11.8655
疑猜	-11.8657
尖新	-11.8658
澗水	-11.8662
捩轉	-11.8663
韜光	-11.8664
得力句	-11.8664
人人本具	-11.8667
過一邊	-11.8668
鼾	-11.8669
蠢動含靈	-11.8672
廬陵米價	-11.8673
久雨不晴	-11.8674
塗污	-11.8675
虎嘯風生	-11.8676
雲居錫云	-11.8677
孟春猶寒	-11.8677
無邊剎海	-11.8677
萊	-11.8678
高峰妙	-11.8679
遙望	-11.868
滄洲	-11.868
月朗	-11.8681
冉冉	-11.8681
霸	-11.8682
冗	-11.8684
連城	-11.8685
俛	-11.8687
皎月	-11.869
沒奈何	-11.8692
踐履	-11.8692
出世間法	-11.87
無生曲	-11.8706
菩提達磨	-11.8706
輟	-11.871
佛誕日	-11.8711
說何法	-11.8714
罪性	-11.8715
一百二十	-11.8716
低聲	-11.8717
阿鼻	-11.8718
鄉關	-11.8719
邪魔	-11.8722
合取狗口	-11.8724
風颯颯	-11.8728
丁未	-11.873
天邊月	-11.8731
若到諸方	-11.8731
卓杖云	-11.8733
大地撮來	-11.8737
不許夜行	-11.8737
脾	-11.8738
不唧𠺕	-11.8739
丁卯	-11.874
轡	-11.874
臈	-11.8742
舒光	-11.8743
柳絮	-11.8744
乙酉	-11.8744
優婆塞	-11.8747
囑付	-11.875
3	-11.8752
叛	-11.8753
眼豁開	-11.8754
娠	-11.876
濵	-11.876
為什麼如此	-11.8764
綠陰	-11.8765
正當恁麼時如何	-11.8766
毘盧頂上	-11.8768
函蓋乾坤	-11.877
還有人道得麼	-11.8771
觸禮一拜	-11.8772
東海鯉魚打一棒	-11.8773
呼喚不回	-11.8775
通身是眼	-11.8775
有般漢	-11.8776
堂司行者	-11.8781
苟或未然	-11.8782
不昧因果	-11.8782
煇	-11.8783
雲門因僧問	-11.8783
釐	-11.8783
侍司	-11.8784
三寸舌	-11.8786
寤寐	-11.8787
棟梁	-11.8789
明月堂前	-11.8792
乙丑	-11.8793
劃斷	-11.8793
虎狼	-11.8802
新婦	-11.881
師便掌	-11.8814
赴堂	-11.8818
紅爛	-11.8818
恁般	-11.8818
孤迥迥	-11.8821
垢衣	-11.8822
古人恁麼道	-11.8824
到者裡	-11.8827
匆匆	-11.8828
馱	-11.883
向外求	-11.883
畣	-11.8833
九旬禁足	-11.8833
百二十	-11.8836
塔樣	-11.8839
常寂光	-11.8841
漸源	-11.8842
崎嶇	-11.8843
佛燈珣	-11.8843
退一步	-11.8846
曼殊	-11.8848
松源岳	-11.8849
穽	-11.885
聦	-11.8854
佛性泰	-11.8856
明心見性	-11.8856
閻浮提	-11.8864
霛	-11.8873
出則不為人	-11.8874
法眼益	-11.8879
柱石	-11.8882
恰值	-11.8884
止止不須說	-11.8885
大地平沉	-11.8885
伏龍	-11.8886
抖	-11.8886
具擇法眼	-11.8888
泗	-11.8888
啟建	-11.8889
學人未曉	-11.8889
熱鐵	-11.8889
楫	-11.889
十二分教	-11.8891
琅邪	-11.8892
優婆夷	-11.8893
巖畔	-11.8893
蹙	-11.8895
饗	-11.8896
蠲	-11.8898
性燥	-11.8898
甑	-11.8902
滿口道	-11.8905
年十九	-11.8906
偏位	-11.8906
聞鐘聲	-11.8908
以拄杖指	-11.8909
緫	-11.8909
塵寰	-11.891
後架	-11.8913
邸	-11.8916
翠巖真	-11.8916
明眼人前	-11.8917
王侯	-11.8918
世尊良久	-11.8921
風凜凜	-11.8921
諸侯	-11.8922
有長處	-11.8922
賊賊	-11.8925
嘉靖	-11.8926
經典	-11.8931
七尺單前	-11.8932
似地普擎	-11.8932
白刃	-11.8935
震聲一喝	-11.8936
噎	-11.8939
大洋海底	-11.894
脛	-11.8942
聵	-11.8942
烽	-11.8942
給侍	-11.8943
忌辰	-11.8944
解夏小參	-11.8945
一葦	-11.8946
嫡子	-11.8948
言語道斷	-11.8948
獠	-11.895
滄浪	-11.8951
祖意西來	-11.8951
雛	-11.8952
珣	-11.8952
庚辰	-11.8954
擺手	-11.8956
惟冀	-11.8958
大事未明	-11.8959
厥後	-11.8963
米胡	-11.8964
要且未	-11.8968
崑山	-11.8972
二人見錄	-11.8973
歛衣就座	-11.8976
吸盡	-11.8979
拼	-11.898
劍刃上	-11.8982
被者僧	-11.8983
全該	-11.8983
轉身吐氣	-11.8985
憐兒不覺醜	-11.8985
出水後如何	-11.8986
鍬子	-11.8986
墮地獄	-11.8988
退身三步	-11.899
嵯峨	-11.8997
隊裏	-11.8997
煦	-11.8997
乾坤之內	-11.8998
三百六十	-11.8998
狂瀾	-11.8998
鯤	-11.8999
蕃	-11.8999
癸酉	-11.8999
冤親	-11.8999
謌	-11.8999
▁卷第十	-11.9001
不識羞	-11.9001
千斤	-11.9001
栗棘	-11.9001
娑婆訶	-11.9005
隄	-11.9008
接得便	-11.9009
姦	-11.9009
乙卯	-11.9011
詶	-11.9011
年月日	-11.9012
踞地獅子	-11.9015
細細	-11.9015
罔象	-11.9016
凌空	-11.9018
冰消瓦解	-11.9036
本來清淨	-11.9037
具有如來智慧德相	-11.904
調達	-11.9043
輔弼	-11.9043
切忌道著	-11.9043
有甚交涉	-11.9044
多子塔前	-11.9045
一手指天	-11.9046
無下手處	-11.9046
好大哥	-11.9046
摩訶般若波羅蜜	-11.9047
侄	-11.9048
不落因果	-11.905
隻履西歸	-11.905
十方虗空	-11.9051
以拂子擊禪牀	-11.9051
乙亥	-11.9052
蝴蝶	-11.9052
賓中主	-11.9054
若信得及	-11.9055
籬邊	-11.906
剖露	-11.9061
穹	-11.9062
泰首座	-11.9062
首肯	-11.9062
南斗	-11.9065
㕘	-11.9066
年十五	-11.907
耻	-11.9072
普潤	-11.9075
增輝	-11.9076
無二無二分	-11.9089
還有佛法也無	-11.9092
江西湖南	-11.9093
瓊樓玉殿	-11.9093
高枕	-11.9093
牖	-11.9095
靈雲見桃花	-11.9097
噁	-11.9098
趾	-11.9098
舶	-11.9098
俊鶻	-11.9099
十二因緣	-11.9099
糶	-11.91
捲簾	-11.9102
律儀	-11.9102
點撿	-11.9105
钁頭邊	-11.9105
父母所生	-11.9106
聿	-11.9106
南辰	-11.9108
有人道得	-11.9108
齧	-11.9109
攧	-11.9109
千萬里	-11.9111
澹泊	-11.9112
但向他道	-11.9117
到這裡	-11.9118
洞達	-11.9126
冷淡	-11.9135
千頃	-11.9136
三世諸佛歷代祖師	-11.9142
竿木隨身	-11.9143
若見諸相非相	-11.9144
不存軌則	-11.9148
亡僧遷化	-11.9149
一千五百人善知識	-11.915
從上來事	-11.915
不是好心	-11.9154
南嶽下第	-11.9156
解粘去縛	-11.9157
漉漉	-11.9157
年十七	-11.9157
頹綱	-11.9158
行解相應	-11.9159
停機	-11.9161
從何起	-11.9163
聚散	-11.9163
幃	-11.9163
光燦爛	-11.9166
增上慢	-11.9166
馬嘶	-11.9167
浮屠	-11.9167
紅蓮	-11.9167
瘳	-11.9169
清風明月	-11.9169
㱕	-11.917
拈起拄杖	-11.9171
青山綠水	-11.9171
紅葉	-11.9171
劃一劃云	-11.9172
然燈佛	-11.9172
鑊	-11.9172
庠	-11.9177
柘	-11.9178
掛搭	-11.9179
狎	-11.9183
百草頭	-11.9188
煥然	-11.919
昇平	-11.9194
六六三十六	-11.9198
苦辛	-11.9199
肇論	-11.9199
事無一向	-11.9204
鵓鳩	-11.9206
信受奉行	-11.9206
硬似鐵	-11.9207
豈不快哉	-11.9208
法眼別云	-11.9212
澀	-11.9212
崗	-11.9213
詭	-11.9214
把捉	-11.9214
殊途	-11.9215
本自圓成	-11.9217
作家相見	-11.9218
壞不壞	-11.9218
獘	-11.9221
捷徑	-11.9222
摺	-11.9222
朝暮	-11.9222
拍掌	-11.9222
糍	-11.9223
庚戌	-11.9224
熒	-11.9226
髫	-11.9226
白蘋	-11.9226
蟠龍	-11.9227
稼	-11.9227
斧斫	-11.9229
迤	-11.923
唐宋	-11.9231
尅	-11.9232
貧衲	-11.9236
鸞鳳	-11.9236
一心不生	-11.9241
市廛	-11.9244
巖谷	-11.9247
換骨	-11.9248
遍界不曾藏	-11.925
四月八	-11.9254
所以者何	-11.9255
垂釣	-11.9256
一棒一條痕	-11.9257
兩彩一賽	-11.9257
西瞿耶尼	-11.9258
廣陵	-11.9258
哄	-11.9259
請問和尚	-11.9259
堅密身	-11.9259
達磨面壁	-11.9259
主賓互換	-11.9261
悟須實悟	-11.9262
益州馬腹脹	-11.9264
愚菴盂云	-11.9268
捻	-11.9269
徧歷	-11.927
餧	-11.927
禎	-11.9272
翱	-11.9273
魔界	-11.9273
寨	-11.9274
南嶽讓	-11.9274
蹶	-11.9274
釀	-11.9274
旃	-11.9274
箱	-11.9277
佛祖之道	-11.9278
折脚鐺	-11.928
杪	-11.928
切勿	-11.9281
佛心才	-11.9283
押	-11.9283
裴休	-11.9286
勤舊	-11.9287
荷澤	-11.9292
晏坐	-11.9294
蘆華	-11.9298
法身無相	-11.9302
慈恩	-11.9306
知恩者少	-11.9307
通個消息	-11.9307
何不早	-11.9307
標榜	-11.9308
又恁麼去也	-11.9311
沒可把	-11.9312
曲彔木	-11.9313
哮	-11.9314
露箇消息	-11.9315
兩堂首座	-11.9315
如何是古佛心	-11.9316
乞師方便	-11.932
瀰	-11.9321
樂昇平	-11.9322
酬對	-11.9322
庚午	-11.9323
無令斷絕	-11.9323
蟠	-11.9323
䟽	-11.9325
隕	-11.9326
覰著	-11.9326
劵	-11.933
聲價	-11.9331
廚庫	-11.9332
威權	-11.9333
拍盲	-11.9339
8	-11.9344
割愛	-11.9344
凜然	-11.935
萬邦	-11.9351
昏昏	-11.9353
自代曰	-11.9354
許多般	-11.9358
先哲	-11.936
箇箇學無為	-11.9365
覓心了不可得	-11.9367
飲者如何	-11.9368
舉一不得舉二	-11.9368
阿那箇	-11.9369
傾湫倒嶽	-11.9369
中有一寶	-11.9371
水是水	-11.9372
三藏十二部	-11.9372
一手指地	-11.9373
今辰	-11.9376
紛然	-11.9377
物格	-11.9377
從朝至暮	-11.9377
怗	-11.9379
金色頭陀	-11.9379
慈父	-11.9382
彚	-11.9384
蕨	-11.9385
親疎	-11.9385
甲辰	-11.9387
得失是非	-11.9391
絳	-11.9393
邂逅	-11.9393
研窮	-11.9393
与	-11.9395
藪	-11.9395
唯識論	-11.9395
承恩	-11.9398
落二三	-11.9399
不相離	-11.9402
以拄杖卓一卓	-11.9408
得其用	-11.9408
若也見得	-11.9418
無別無斷故	-11.942
激發	-11.942
辛勤	-11.9421
光吞萬象	-11.9422
金剛寶劍	-11.9425
告寂	-11.9426
大庾嶺頭	-11.9426
坐斷天下人舌頭	-11.9427
碌	-11.9431
時有僧出禮拜	-11.9431
赤腳	-11.9431
雲峰悅	-11.9432
小廝兒	-11.9432
放下拂子	-11.9433
逼拶	-11.9433
背覺合塵	-11.9435
大光明藏	-11.9437
佛法世法	-11.9439
眎	-11.9439
只在目前	-11.9441
老僧罪過	-11.9442
五燈會元	-11.9442
寂然不動	-11.9443
毗盧遮那	-11.9443
箇中消息	-11.9444
辛卯	-11.9447
液	-11.9449
皮穿	-11.9449
大千界	-11.9451
偷安	-11.9454
雷奔	-11.9455
世出世法	-11.9455
薦嚴	-11.9459
鼓腹	-11.9464
新鮮	-11.9464
一棒打殺與狗子喫	-11.9466
學人乍入叢林	-11.9468
紙錢	-11.9471
無邊際	-11.9474
倚天長劍	-11.9474
天地與我同根	-11.9474
放你三十棒	-11.9475
唯我獨尊	-11.9477
堪任	-11.9477
正脉	-11.9478
樹凋葉落	-11.9479
赤心片片	-11.9479
油餈	-11.948
實際理地	-11.948
㖿	-11.9483
箭鋒相拄	-11.9487
是有是無	-11.9488
耿耿	-11.949
兌	-11.9495
電光石火	-11.9495
封侯	-11.9497
薙	-11.9498
吾滅後	-11.9502
進云與麼則	-11.9504
繩墨	-11.9505
鳥獸	-11.9507
荊溪	-11.9507
不起一念	-11.9508
機緣語句不錄	-11.9513
周徧	-11.953
變大地作黃金	-11.9531
此話大行	-11.9531
甲戌	-11.9532
海印發光	-11.9536
十方無壁落	-11.9537
拽耙	-11.954
菌	-11.954
鬼家活計	-11.9542
盡乾坤大地	-11.9543
向上宗乘事若何	-11.9545
踏破草鞋	-11.9545
釋迦牟尼佛	-11.9546
緬	-11.9546
作丈六金身	-11.9548
去聖時遙	-11.9548
街坊	-11.955
麈尾	-11.9551
無生忍	-11.9551
父母未生時	-11.9552
繩牀	-11.9553
鍛鍊	-11.9555
酬酢	-11.9555
籜	-11.9556
真如佛性	-11.9557
盧行者	-11.9559
幣	-11.956
會也麼	-11.9562
菽	-11.9565
酥	-11.9566
瞖	-11.9569
寢堂	-11.9571
戌	-11.9574
棲霞	-11.958
象王行處絕狐蹤	-11.9584
碧眼胡	-11.9585
刼	-11.9585
將此深心奉塵剎	-11.9586
學語之流	-11.9588
羚羊	-11.959
南贍部洲	-11.959
再犯不容	-11.9591
我且問你	-11.9591
當觀第一義	-11.9591
莫謗如來正法輪	-11.9593
丹鳳	-11.9594
鹵莽	-11.9595
勺	-11.9598
銚	-11.9598
喚鐘作甕	-11.96
蔥	-11.96
迦文	-11.96
纖塵不立	-11.9601
挹	-11.9602
矚	-11.9606
藐	-11.9608
饒州	-11.9611
欹	-11.9611
馳騁	-11.9615
潺湲	-11.9616
充塞	-11.9622
埀	-11.9624
豁然有省	-11.9625
年正月	-11.9625
6	-11.9626
交互	-11.9633
光不透脫	-11.9645
羚羊挂角	-11.9646
鶻臭布衫	-11.9646
觸禮三拜	-11.9647
好肉剜瘡	-11.965
不動步	-11.965
當面錯過	-11.965
一條白棒	-11.9651
洋洋	-11.9651
沾恩	-11.9652
甘贄	-11.9654
鈍鐵	-11.9654
旻德	-11.9654
聲不是聲	-11.9657
苦哉苦哉	-11.9657
宇宙之間	-11.9658
臨安府	-11.9661
翊	-11.9662
歐	-11.9663
鞵	-11.9666
不有不無	-11.9667
螻蟻	-11.9667
白雲深處	-11.9671
弃	-11.9674
喏喏	-11.9678
鏡像	-11.9679
知事頭首	-11.9682
天上天下唯我獨尊	-11.9695
的意思	-11.9698
誰是得者	-11.97
顧眾云	-11.9702
請師舉唱	-11.9703
如何施設	-11.9703
連棒打出	-11.9705
諸人還會麼	-11.9707
樽	-11.9707
顛狂	-11.9708
搊住曰	-11.971
𨍏轢	-11.9711
小出大遇	-11.9711
當仁不讓	-11.9712
祈雨	-11.9714
諸人分上	-11.9714
酥酪	-11.9714
擊拂子下座	-11.9714
巳上二人	-11.9716
愿	-11.9718
捶	-11.9718
鴛	-11.972
蠱毒	-11.9722
李將軍	-11.9722
佛慧泉	-11.9723
丙戌	-11.9723
火𦦨	-11.9723
嶷	-11.9724
膳	-11.9724
荼	-11.9725
瞑	-11.9726
啖	-11.9727
更有一般	-11.973
明月清風	-11.9731
其或未	-11.9733
未暇	-11.9734
䞋	-11.9734
〕	-11.9735
〔	-11.9735
巍然	-11.9737
漕	-11.9741
粒米	-11.9743
更說甚麼	-11.9743
塟	-11.9743
裴公	-11.9744
天地萬物	-11.9745
古柏	-11.9748
無量法門	-11.9751
兔角杖	-11.9752
鐵鑄	-11.9753
威音王巳前	-11.976
萸	-11.9768
一頭驢	-11.9768
善哉善哉	-11.9768
翮	-11.977
一機一境	-11.9771
立地成佛	-11.9771
續佛慧命	-11.9772
唎	-11.9773
栢樹子	-11.9773
拄杖頭邊	-11.9777
日面月面	-11.9777
轆轆	-11.9777
燃燈	-11.9777
羅睺羅	-11.9779
閤	-11.9781
駑	-11.9782
受用不盡	-11.9783
坦平	-11.9783
死水裏	-11.9784
到此間	-11.9786
嚙	-11.9787
倒跨	-11.9787
從人得	-11.9789
懸絲	-11.979
弱冠	-11.9791
猶自可	-11.9798
九霄	-11.9799
題詩	-11.9799
四威儀	-11.98
大圓鏡智	-11.9803
斗牛	-11.9806
電掣	-11.9808
忉利天	-11.981
世尊不說說	-11.9815
面無慚色	-11.9817
圭峯	-11.9817
唯嫌揀擇	-11.9819
腦後見腮	-11.9822
儼然未散	-11.9822
作死馬醫	-11.9823
大千俱壞	-11.9823
】【	-11.9824
因風吹火	-11.9828
盧舍那	-11.9829
劫外春	-11.9832
賓頭盧	-11.9835
如之何	-11.984
黃菊	-11.9841
苴	-11.9841
狐兔	-11.9842
洞山价	-11.9842
壬戌	-11.9846
橫擔	-11.9848
為眾說法	-11.985
徵詰	-11.9857
憑據	-11.9859
未是衲僧	-11.986
鼓舞	-11.9864
迥脫	-11.9866
轉身句	-11.9869
帝鄉	-11.9872
請師速道	-11.9878
陷虎之機	-11.9879
他時後日	-11.988
檇李	-11.988
七通八達	-11.988
是甚麼心行	-11.9883
破砂盆	-11.9886
一頭地	-11.9888
新年頭	-11.9888
拈一莖草	-11.9889
孳	-11.9889
坐斷千差	-11.989
惹塵埃	-11.989
慷慨	-11.9894
腋	-11.9895
如何保任	-11.9896
大眾見麼	-11.9897
妹	-11.9897
蝕	-11.9898
寥落	-11.9906
如何免得	-11.9908
辟支佛	-11.991
瞑目	-11.9911
轟霹靂	-11.9913
銀河	-11.9913
交馳	-11.9917
拈香云此瓣香	-11.9921
梵宮	-11.9926
是如何師云	-11.9932
鑽龜打瓦	-11.9933
煎點	-11.9934
眼目定動	-11.9937
佛法不現前	-11.9937
擲拂子下座	-11.9937
打失鼻孔	-11.994
是聖是凡	-11.9941
廣長舌相	-11.9945
全體露	-11.9945
水泄不通	-11.9946
渙	-11.9951
月堂昌	-11.9952
俸	-11.9953
佛之知見	-11.9956
哀哀	-11.9957
最親切	-11.996
三山來云	-11.9962
將境示人	-11.9981
隆慶	-11.9984
蓮臺	-11.9988
即此用離此用	-11.999
捏怪	-11.9994
放身命處	-11.9994
蹤由	-11.9994
噇酒糟漢	-11.9995
誑惑	-11.9995
前三三後三三	-11.9995
阬	-11.9996
警策	-11.9997
草深一丈	-11.9998
一年一度	-12
含元殿	-12.0003
寰區	-12.0004
祗園	-12.0004
鉗	-12.0007
墟	-12.0007
萋	-12.0009
不勞拈出	-12.0009
緘口	-12.0011
刳	-12.0012
翦	-12.0015
繭	-12.0015
天下後世	-12.0017
凡見僧	-12.0017
黎明	-12.0018
丘壑	-12.0019
廳	-12.0025
徤	-12.0028
紫栢	-12.003
紅霞	-12.0033
端午	-12.0033
現宰官身	-12.0033
官員	-12.0041
言下大悟	-12.0042
玄奧	-12.0046
殿閣生微涼	-12.0047
杜鵑	-12.0053
如何是不動尊	-12.0054
不妨疑著	-12.0054
欺君不得	-12.0055
抹殺	-12.0056
停囚長智	-12.0057
九十六種	-12.0057
照天照地	-12.0057
驢前馬後	-12.0058
欣欣	-12.0058
迷頭認影	-12.0059
附府	-12.0059
歌謠	-12.0061
皮下有血	-12.0061
灰頭土面	-12.0062
唇皮	-12.0063
蓉	-12.0063
無言可對	-12.0064
認賊為子	-12.0066
選佛場開	-12.0067
懊惱	-12.0068
洞然明白	-12.0069
杳杳	-12.0073
盲聾	-12.0074
嘲	-12.0076
噬	-12.0078
直裰	-12.0078
緜	-12.0079
坦坦	-12.008
哭蒼天	-12.0085
大展三拜	-12.0093
會先師意	-12.0094
夏在甚處	-12.0097
智旭	-12.0099
寶華王座	-12.0108
摩頂	-12.0111
崆峒	-12.0111
忤逆	-12.0114
一時打散	-12.0114
窟宅	-12.0116
草偃風行	-12.0118
庭前柏	-12.012
臘月二十五	-12.0121
不萌枝上	-12.0123
貪瞋	-12.0124
雲從龍	-12.0125
拌	-12.0126
柬	-12.0127
若是箇漢	-12.0127
倔	-12.0127
紆	-12.0127
櫺	-12.0129
聲聞緣覺	-12.0133
不得成佛道	-12.0134
閙市裏	-12.0134
引頸	-12.0135
破竈墮	-12.0136
訢	-12.0137
十方界	-12.014
東苑	-12.0145
7	-12.0151
汝問我	-12.0152
雙泯	-12.0156
咬殺	-12.016
逄	-12.0161
首座寮	-12.0161
速禮三拜	-12.0161
東魯	-12.0164
密啟其意	-12.017
左右顧視	-12.017
三頭六臂	-12.0172
滄桑	-12.0172
放開一線	-12.0173
還端的也無	-12.0173
一場敗闕	-12.0178
棒頭有眼	-12.0181
般柴	-12.0181
愕	-12.0182
若也知得	-12.0183
膊	-12.0184
俠	-12.0189
黠	-12.0189
鴟	-12.019
鶚	-12.019
礫	-12.0191
雪巖欽	-12.0194
狄	-12.0196
不知何處去	-12.0196
拈花微笑	-12.0197
琢磨	-12.0197
毀譽	-12.0199
倖	-12.0199
金鎚	-12.0202
虗堂愚	-12.0204
冰河	-12.0205
烏巨	-12.0205
野菜	-12.0208
靈利漢	-12.0211
海底泥牛	-12.0212
奄然	-12.0213
啇量	-12.0214
損益	-12.0216
滿目青山	-12.0217
似虎靠山	-12.0229
如何是衲衣下事	-12.0233
丫	-12.0236
傷鋒犯手	-12.0236
解開布袋	-12.0237
四海五湖	-12.0239
萬卉	-12.0242
溈山哲云	-12.0243
庚寅	-12.0248
對他道	-12.0249
娑婆世界	-12.0252
苞	-12.0254
屣	-12.0254
丙午	-12.0257
舟航	-12.0258
朋友	-12.0261
泊然而逝	-12.0263
鄞	-12.0263
眇	-12.0265
電卷	-12.0265
與汝相見	-12.0271
瀛山	-12.0274
某甲罪過	-12.0277
月十六日	-12.028
鬚眉	-12.0283
代前語云	-12.0286
仁者心動	-12.0297
懷州牛喫禾	-12.03
古鏡未磨時如何	-12.03
踏不著	-12.0301
合水和泥	-12.0301
納敗闕	-12.0303
頂門正眼	-12.0304
撚	-12.0305
別有長處	-12.0306
家裏人	-12.0308
撤	-12.0309
還當得	-12.0309
娟	-12.031
須防	-12.031
卍字	-12.031
何曾夢見	-12.0311
披襟	-12.0311
千嶂	-12.0314
戊寅	-12.0314
甸	-12.0314
淨缾	-12.032
咨決	-12.0324
星馳	-12.0327
茘	-12.033
浩渺	-12.0335
三度被打	-12.0346
未來諸佛	-12.0347
正月半	-12.0349
與麼不與麼	-12.0349
錦上鋪花	-12.035
一問一答	-12.0356
正眼觀來	-12.036
到恁麼田地	-12.036
勉旃	-12.036
仲冬嚴寒	-12.0364
陜府	-12.0364
凱	-12.0365
正當與麼時	-12.0366
建梵剎	-12.0369
疣	-12.037
御史	-12.037
癖	-12.0376
泥犁	-12.0382
膓	-12.0383
整頓	-12.0384
擁護	-12.0393
城郭	-12.0397
囉囉哩	-12.0399
鳴指一下	-12.0413
聽取一頌	-12.0417
野老謳歌	-12.0417
攖	-12.0421
痛與一頓	-12.0422
沖霄	-12.0422
緉	-12.0422
單傳直指	-12.0423
現寶王剎	-12.0424
連喝兩喝	-12.0425
自肯承當	-12.0425
一文錢	-12.0428
溷	-12.0429
金圈	-12.043
汞	-12.043
周匝	-12.043
鉄	-12.0437
丱	-12.044
徐徐	-12.0441
排遣	-12.0446
把柄	-12.0451
劉氏子	-12.0453
打一掌	-12.0462
發憤	-12.0463
師連打	-12.0471
不在明白裏	-12.0472
端午上堂	-12.0473
凍殺	-12.0475
地不能載	-12.0477
一莖艸	-12.0478
擊石火閃電光	-12.0478
䭔	-12.0478
東土二三	-12.0479
用得著	-12.0483
掩耳偷鈴	-12.0483
如何是佛法的的大意	-12.0484
四聖六凡	-12.0485
南山起雲	-12.0485
謦欬	-12.0486
分疎不下	-12.0487
玄中玄	-12.0487
有甚了期	-12.0489
當門齒	-12.049
裊	-12.0491
不落階級	-12.0491
絕百非	-12.0492
哮吼一聲	-12.0493
欄干	-12.0494
喟	-12.0495
擬議思量	-12.05
汩沒	-12.05
編輯	-12.0502
裨	-12.0502
渥	-12.0502
嚕	-12.0503
詬	-12.0504
闈	-12.0506
臯	-12.0507
淮南	-12.0516
杖藜	-12.053
僧臘四十	-12.0532
色不是色	-12.0535
水窮山盡	-12.0539
聃	-12.054
迦葉不聞聞	-12.0541
十劫坐道場	-12.0541
矢上加尖	-12.0543
作虎聲	-12.0544
閒家具	-12.0544
作賊人心虗	-12.0545
吸盡西江	-12.0546
作一圓相	-12.0546
認奴作郎	-12.0547
紐	-12.055
鱗甲	-12.0551
臺山婆子	-12.0552
駟	-12.0553
醭	-12.0554
曠大劫來	-12.0556
閻老子	-12.0558
彌綸	-12.0559
聖節上堂	-12.056
叵	-12.0561
轂	-12.0565
萬八千	-12.0565
揑聚	-12.0566
軻	-12.0567
陜	-12.057
虎豹	-12.057
稠林	-12.0571
粥罷	-12.0573
歷歷分明	-12.0574
奪人不奪境	-12.0579
潦	-12.0586
自證分	-12.0588
雨灑	-12.0591
灮	-12.0594
杏花	-12.0597
禮拜了退	-12.0599
四生六道	-12.06
北斗裏藏身	-12.0601
蘇嚕蘇嚕	-12.0604
結果自然成	-12.0606
閻羅老子	-12.0609
碣	-12.061
克賓維那	-12.061
逴	-12.061
打之遶	-12.0611
天童華云	-12.0612
吾儕	-12.0614
坐臥經行	-12.0615
著精彩	-12.0615
未了公案	-12.0616
活人劒	-12.0616
阿修羅	-12.0617
晒	-12.0617
體露真常	-12.0617
釋梵	-12.0617
落魄	-12.0618
在半途	-12.0618
衾	-12.0618
髯	-12.062
跣	-12.062
緝	-12.0622
一念回光	-12.0625
閑言語	-12.0626
懲	-12.0626
伶俐漢	-12.0627
綉	-12.0629
精藍	-12.063
臟	-12.0631
矢志	-12.0637
悲泣	-12.0647
大唐國	-12.0656
據款結案	-12.066
痛癢	-12.066
磨後如何	-12.0661
問話者三十棒	-12.0665
豎一指	-12.0668
琉璃殿上	-12.0668
擉	-12.0669
絕點埃	-12.0669
任運騰騰	-12.067
漫天網	-12.0671
問答不錄	-12.0673
員善知識	-12.0674
挑燈	-12.0677
覿面當機	-12.0678
瘢	-12.0678
捱	-12.0678
塼	-12.068
橋流水不流	-12.068
漉	-12.0681
摩訶迦葉	-12.0681
薇	-12.0682
塌	-12.0682
驅馳	-12.0683
陶鑄	-12.0684
耗	-12.0685
九十日內	-12.0685
尀耐	-12.0686
㝡	-12.0686
矍	-12.0686
臨命終時	-12.0687
袪	-12.0687
雀兒	-12.0688
碾	-12.0688
鏗	-12.0689
歐陽	-12.0691
堅牢	-12.0698
塔全身於	-12.0699
血脉	-12.0699
𠔃	-12.0706
拈拄杖卓一卓云	-12.0706
作是念	-12.0718
一手指天一手指地	-12.0719
慶賀	-12.0721
刀斧	-12.0723
木佛不度火	-12.0727
知有底人	-12.0727
瑪瑙	-12.0729
言中有響	-12.0729
對朕者誰	-12.073
圓陀陀	-12.073
小盡二十九	-12.0731
從空放下	-12.0732
黧奴白牯	-12.0732
鎮州蘿蔔	-12.0733
雲月是同	-12.0733
糟	-12.0734
鬨	-12.0734
龍吟霧起	-12.0736
怤	-12.0737
劉鐵磨	-12.0738
點檢將來	-12.0739
綜	-12.0739
無始劫來	-12.074
亙古今	-12.074
命根不斷	-12.074
耨	-12.0741
灌頂	-12.0742
匾擔	-12.0742
桃符	-12.0743
楊歧	-12.0744
耄	-12.0744
三摩地	-12.0745
績	-12.0748
濬	-12.0749
呼吸	-12.0749
濃厚	-12.075
少林面壁	-12.0751
鐵笛	-12.0753
揑怪	-12.0753
襍	-12.0762
明明百草頭	-12.0764
登壇	-12.0767
鳳棲	-12.0768
所住處	-12.0768
猊座	-12.0769
匡徒	-12.0772
㪅	-12.0781
扇子𨁝跳上三十三天	-12.0782
死貓頭	-12.0788
上無攀仰	-12.079
滯句者迷	-12.0791
承師有言	-12.0791
一人有慶	-12.0794
美則美矣	-12.0797
擂	-12.0797
攔腮	-12.0798
杻	-12.0799
以字不成	-12.0799
釋迦文佛	-12.0799
識得凳子	-12.0799
夜半正明	-12.08
榦	-12.0802
天曉不露	-12.0802
畦	-12.0802
撈摝	-12.0803
玻璃	-12.0803
抖擻精神	-12.0803
楞	-12.0803
孟八郎漢	-12.0803
珂	-12.0804
六不收	-12.0808
鬣	-12.0809
蔑	-12.0809
娑竭	-12.081
瞬息	-12.081
龜鑑	-12.0812
纏縛	-12.0818
踊	-12.0819
松蘿	-12.0824
如何是第二句	-12.0833
関	-12.0835
螢	-12.0837
四句偈	-12.0841
承言者喪	-12.0856
相識滿天下	-12.0856
德山棒臨濟喝	-12.0858
望州亭	-12.0858
從天降	-12.0859
脣吻	-12.0859
贄	-12.086
拈向一邊	-12.0861
欲得不招無間業	-12.0861
洪波浩渺	-12.0861
回頭轉腦	-12.0861
大人境界	-12.0864
繚	-12.0864
不墮諸數	-12.0865
明明祖師意	-12.0865
貍	-12.0866
著甚死急	-12.0867
無是無非	-12.0868
六根門頭	-12.0868
是何道理	-12.0869
嚫	-12.087
牢籠	-12.0872
黛	-12.0872
戢	-12.0872
畫圓相	-12.0873
物物頭頭	-12.0874
草鞵	-12.0874
縱橫無礙	-12.0875
克勤	-12.0878
右脇	-12.0879
維揚	-12.088
摩醯眼	-12.0891
重重無盡	-12.0893
北京	-12.0898
恐怖	-12.09
太白峰	-12.0902
僧參師問	-12.0916
眉毛廝結	-12.092
萬仞峰頭	-12.0921
巴掌	-12.0921
觸途成滯	-12.0924
隨家豐儉	-12.0924
忽遇客來	-12.0926
一陽來復	-12.0926
水鳥樹林	-12.0927
應病與藥	-12.0929
飽餐	-12.093
譁	-12.093
拔萃	-12.0932
大眾雲集	-12.0933
搗	-12.0936
別有生涯	-12.0938
彝	-12.0939
頂門具眼	-12.094
掀倒	-12.094
萬重關	-12.0944
活潑	-12.0944
年五十	-12.0944
擡眸	-12.0946
竦	-12.0947
規繩	-12.0949
舅	-12.095
是則名為	-12.095
古廟裏	-12.095
龍袖拂開全體現	-12.098
隨處作主	-12.0984
西來的的意	-12.0985
事同一家	-12.0986
正眼看來	-12.0987
慈悲之故	-12.0988
唱太平歌	-12.0988
路逢達道人	-12.0989
隨邪逐惡	-12.0989
三三兩兩	-12.099
緇素得出	-12.099
惓	-12.0991
卓然而立	-12.0992
跑	-12.0992
澧	-12.0995
簧	-12.0996
恍惚	-12.0998
伶	-12.0999
胡笳	-12.0999
官僚	-12.1
撲碎	-12.1
㗭	-12.1001
薜蘿	-12.1001
堪作什麼	-12.1001
盥	-12.1001
風從虎	-12.1002
少賣弄	-12.1004
凹	-12.1009
顰	-12.101
鰕	-12.1011
桀	-12.1011
枯槁	-12.1011
佛果拈云	-12.1012
侈	-12.1013
風吹不入	-12.1016
烏石嶺	-12.102
蒭	-12.1023
一宿覺	-12.1028
怒罵	-12.1035
法筵龍象眾當觀第一義	-12.1039
還鄉曲	-12.104
掩其口	-12.1042
合談何事	-12.1044
同坑無異土	-12.105
直得三日耳聾	-12.1051
百味具足	-12.1052
築著帝釋鼻孔	-12.1054
林下道人	-12.1054
打破鏡來	-12.1054
光境俱忘	-12.1055
東語西話	-12.1056
一花開五葉	-12.1057
二時粥飯	-12.1058
敲磕	-12.1061
妣	-12.1062
達磨一宗	-12.1063
蒿枝	-12.1065
消殞	-12.1065
啗	-12.1066
四料揀	-12.1066
黑如漆	-12.1067
銖	-12.1067
鄒	-12.1068
刖	-12.107
淋漓	-12.1071
羶	-12.1072
癡頑	-12.1073
紫芝	-12.1075
膽喪	-12.1078
棃	-12.1079
紅粉	-12.108
燬	-12.108
社稷	-12.1081
三大老	-12.1082
牛頭未見四祖	-12.1082
監收	-12.1083
築室	-12.1088
有底道	-12.1095
枉費	-12.1098
奧旨	-12.11
一輪紅	-12.1103
佛及眾生	-12.1113
赤肉團	-12.1113
劍去久矣	-12.1114
泥佛不度水	-12.1114
七花八裂	-12.1119
心月孤圓	-12.1121
箇無字	-12.1121
隨語生解	-12.1121
口似血盆	-12.1122
一喝分賓主	-12.1123
擦	-12.1123
攤	-12.1126
三百六十骨節	-12.1126
他心通	-12.1126
滾滾	-12.113
百劫千生	-12.1131
參得禪	-12.1132
龔	-12.1137
屠兒	-12.1139
悱	-12.1142
端拱	-12.1142
雲峯悅	-12.1142
皮囊	-12.1144
黜	-12.1145
道取一句	-12.1147
南堂靜	-12.1148
奪境不奪人	-12.1163
禪師法嗣三人	-12.1167
眾下語不契	-12.1174
餘杭	-12.1174
水潺潺	-12.1175
秋初夏末	-12.1181
八角磨盤空裏走	-12.1182
驅耕夫之牛	-12.1184
正令當行	-12.1184
情生智隔	-12.1186
瞞頇	-12.1186
你等諸人	-12.1187
無寸土	-12.1188
萬歲萬歲萬萬歲	-12.1188
盧陂	-12.1188
百艸頭	-12.1189
斷貫索	-12.1193
橫說竪說	-12.1194
芊	-12.1195
途中受用	-12.1196
靈利衲僧	-12.1196
諸行無常	-12.1197
鹵	-12.12
見機緣語句	-12.1201
迸裂	-12.1201
諮	-12.1201
昏衢	-12.1201
炯	-12.1202
捄	-12.1203
陁	-12.1203
西天此土	-12.1203
可得聞乎	-12.1203
癸巳	-12.1204
笑巖寶	-12.1212
上方益	-12.1213
彖	-12.1215
擲筆而逝	-12.1217
獅子窟	-12.1219
跏趺而逝	-12.122
落眼成翳	-12.1244
江淮	-12.1245
萬物與我一體	-12.1245
是何心行	-12.1247
餘二則非真	-12.1249
一鏃破三關	-12.1249
大盡三十日	-12.125
出女子定不得	-12.1251
飯袋子	-12.1252
令我得入	-12.1253
意在於何	-12.1254
空合空	-12.1254
靈光獨耀	-12.1254
一二三四五六七	-12.1255
長連牀上	-12.1256
拈放一邊	-12.1257
一爐香	-12.1257
未為分外	-12.1257
寰中天子	-12.1258
苣	-12.1259
陸亘大夫	-12.1259
全身擔荷	-12.1262
掩耳而出	-12.1262
釧	-12.1265
淤泥	-12.1265
拉	-12.1265
宥	-12.1266
趙州勘婆	-12.1266
撲鼻	-12.1267
靡所不	-12.1269
眉睫	-12.127
金翅鳥	-12.1271
矻	-12.1271
囓	-12.1271
無價寶	-12.1277
鴿	-12.1277
漁舟	-12.1278
華藏世界	-12.1281
淹殺	-12.1282
包裹	-12.1285
功甫	-12.1293
属	-12.1299
堪憐	-12.1307
傍觀者哂	-12.1311
折腳鐺	-12.1311
西天二十八祖	-12.1316
不涉程途	-12.1316
殘羹餿飯	-12.1318
如來智慧德相	-12.1319
喝散大眾	-12.132
磉	-12.132
祖意教意是同是別	-12.1321
千鈞之弩	-12.1321
遲鈍	-12.1321
放去收來	-12.1321
古往今來	-12.1321
不立一塵	-12.1321
冷湫湫	-12.1322
廣額屠兒	-12.1322
左之右之	-12.1322
萬人傳實	-12.1322
入理深談	-12.1322
真常流注	-12.1326
纜	-12.1328
鏌鎁	-12.133
奄	-12.133
膜	-12.1331
城隍	-12.1332
醯	-12.1332
刺史	-12.1334
水邊林下	-12.1334
賑	-12.1338
珊瑚樹	-12.1338
鳳翔	-12.1339
愁殺人	-12.134
如何是第三句	-12.1341
肱	-12.1342
綠蘿	-12.1342
曼	-12.1342
隳	-12.1342
弛	-12.1343
苕溪	-12.1343
三脚驢	-12.1344
錫杖	-12.1344
蛟	-12.1348
茶毘	-12.1357
塔廟	-12.1358
揔	-12.136
也知和尚	-12.1366
陞此座	-12.1382
受人天供養	-12.1385
如何是法身向上事	-12.1386
貳	-12.139
邑侯	-12.139
羅籠不住	-12.1391
莆	-12.1392
犴	-12.1393
胝	-12.1397
冰壺	-12.1398
鵲噪	-12.1399
心行處滅	-12.1399
拕	-12.1402
珠璣	-12.1402
菡萏	-12.1403
驟步	-12.1404
霄壤	-12.1406
佛涅槃上堂	-12.1407
㳂	-12.1408
苔封	-12.141
臘四十	-12.141
亭亭	-12.1413
鯉魚	-12.1417
鯉	-12.1441
用酬法乳	-12.1441
忉利	-12.1446
坐斷報化佛頭	-12.1451
荔	-12.1452
諦當甚諦當	-12.1453
山青水綠	-12.1457
是曹源一滴水	-12.1457
謂眾云	-12.1459
達磨不來東土	-12.146
驚天動地	-12.146
從上諸祖	-12.1461
千手大悲	-12.1461
依位而立	-12.1462
彴	-12.1463
傳佛心印	-12.1463
不捨一法	-12.1463
貂	-12.1465
毘盧遮那	-12.1465
轉身一路	-12.1468
蠱	-12.1469
爍迦羅眼	-12.147
溜	-12.1472
坐脫立亡	-12.1472
梆	-12.1477
出身之路	-12.148
隄防	-12.1482
悃	-12.1482
一合相	-12.1484
覊	-12.1489
針線	-12.151
如何是第三玄	-12.1511
如天普蓋	-12.1514
針劄不入	-12.1518
點即不到	-12.1518
嘹	-12.152
捐貲	-12.1522
天地同根	-12.1523
高高山頂立	-12.1523
茄	-12.1523
天上無彌勒	-12.1524
捏聚	-12.1525
悉皆消殞	-12.1525
絕遮攔	-12.1525
似地擎山	-12.1526
不見鑿頭方	-12.1527
棺材	-12.1527
低聲低聲	-12.1528
恁麼批判	-12.1528
作怕勢	-12.1528
振錫一下	-12.1529
效顰	-12.1529
同生同死	-12.1529
天下橫行	-12.153
奔流度刃	-12.1531
即如如佛	-12.1531
孤峯頂上	-12.1532
死中得活	-12.1532
十有八	-12.1532
步行騎水牛	-12.1532
巋	-12.1532
日用而不知	-12.1533
寶鏡三昧	-12.1534
晷運推移	-12.1535
礦	-12.1535
眹	-12.1535
三脚驢子弄蹄行	-12.1537
還相委悉麼	-12.1537
忿怒	-12.1541
擢	-12.1542
這野狐精	-12.1543
糲	-12.1546
蘖	-12.1548
緩緩	-12.1568
智慧德相	-12.1586
將錢買胡餅	-12.1587
在山僧手裏	-12.1592
舉一明三	-12.1592
靜悄悄	-12.1594
依草附木	-12.1594
綱維	-12.1594
靈山付囑	-12.1595
鹿野苑	-12.1599
獦	-12.1599
瞬目揚眉	-12.16
卍	-12.16
碧嶂	-12.16
光前絕後	-12.1602
猶在半途	-12.1602
蘄	-12.1602
箴	-12.1603
無遮障	-12.1603
曲為今時	-12.1603
廖	-12.1604
大溈喆	-12.1606
樗	-12.1607
灑灑	-12.1607
蔕	-12.1609
窒礙	-12.1609
磴	-12.161
縹緲	-12.161
嫗	-12.1611
激勵	-12.1611
無尋處	-12.1612
典刑	-12.162
瘞	-12.1621
鞴	-12.1631
𦗟	-12.1633
眚	-12.1635
藍田	-12.1638
如何是第二玄	-12.165
天上有星皆拱北	-12.1653
腳跟點地	-12.1653
東行西行	-12.1657
如何是聖諦第一義	-12.1658
舌頭無骨	-12.166
說似一物即不中	-12.166
好與三十拄杖	-12.166
向鬼窟裏作活計	-12.1661
四維上下	-12.1663
佛佛授手	-12.1663
落二落三	-12.1664
翩	-12.1666
遠之遠矣	-12.1666
全機大用	-12.1668
陡	-12.1668
嘉州大象	-12.167
下得一轉語	-12.1671
喬松	-12.1674
一真法界	-12.1676
凸	-12.1677
句中玄	-12.1678
躳	-12.1681
生老病死	-12.1704
十年二十年	-12.1706
依怙	-12.1708
三腳驢	-12.1714
五家宗旨	-12.1724
出則便為人	-12.1725
大眾集定	-12.1727
四面亦無門	-12.1728
你有拄杖子	-12.1729
詐明頭	-12.1729
常光現前	-12.173
翫月次	-12.1732
向甚麼處安身立命	-12.1732
殺人刀活人劍	-12.1733
閡	-12.1734
山河國土	-12.1735
一年三百六十日	-12.1736
入水見長人	-12.1736
冤讎	-12.1737
說禪說道	-12.1737
疑殺天下人	-12.1737
少分相應	-12.1737
打破漆桶	-12.1738
毿	-12.1738
經律論	-12.174
面壁九年	-12.1741
試說看	-12.1741
國王大臣	-12.1741
長靈卓	-12.1742
彎弓	-12.1743
恪	-12.1744
蘋	-12.1744
水不洗水	-12.1744
非吾弟子	-12.1744
瑫	-12.1745
憧憧	-12.1748
宗鑑法林卷	-12.1753
陸沉	-12.1756
邨	-12.1759
杜䳌	-12.1762
葱	-12.1764
𥨊	-12.1768
布薩	-12.177
紳士	-12.1775
囙	-12.178
請師一接	-12.1793
關棙	-12.1795
金剛圈栗棘蓬	-12.1795
打即任打	-12.1797
不可以識識	-12.1797
橫擔拄杖	-12.1798
不可以智知	-12.1798
三聖推出一僧	-12.1798
動轉施為	-12.18
方堪傳授	-12.1801
地下無彌勒	-12.1802
北斗藏身	-12.1804
應機接物	-12.1804
唧	-12.1805
秧	-12.1805
口是禍門	-12.1806
東村王老夜燒錢	-12.1809
自古自今	-12.181
應無所住而生其心	-12.1811
五鳳樓前	-12.1811
昆蟲	-12.1812
舀	-12.1815
蚊蚋	-12.1816
燁	-12.1817
大佛頂	-12.182
洹	-12.1821
券	-12.1822
摭	-12.1822
一心不亂	-12.1822
不可勝數	-12.1824
其略曰	-12.1837
又被風吹別調中	-12.1863
下坡不走	-12.1865
毛吞巨海	-12.1867
運水搬柴	-12.1869
經有經師	-12.1869
血濺梵天	-12.187
山是山水是水	-12.187
輝天鑑地	-12.1871
朝打三千	-12.1872
作大佛事	-12.1874
蚊子上鐵牛	-12.1875
佛鑑拈	-12.1875
西天東土	-12.1876
輝煌	-12.1876
驤	-12.1877
一顆明珠	-12.1878
拚	-12.1879
亦無一法與人	-12.188
欝	-12.188
父母非我親	-12.188
言前薦得	-12.1881
爨	-12.1883
紊	-12.1884
失錢遭罪	-12.1884
嬰孩	-12.1884
盪	-12.1884
笈	-12.1885
六道四生	-12.1886
月十七日	-12.1886
漣	-12.1887
晷	-12.1887
瑛	-12.1888
飫	-12.1888
邢	-12.1888
失却一隻眼	-12.189
捨身命	-12.1891
租	-12.1892
泠	-12.1894
閧	-12.1895
呻	-12.1896
鄱陽	-12.1897
岷	-12.1898
禽獸	-12.19
𢌞	-12.1903
瞋恚	-12.1906
皇后	-12.1911
如何是學人自巳	-12.1932
打鼓普請看	-12.1939
金佛不度爐	-12.194
撐天拄地	-12.1942
芥納須彌	-12.1942
法筵龍象眾	-12.1942
佛身充滿於法界	-12.1945
令侍者喚	-12.1945
不覺吐舌	-12.1945
亦能活人	-12.1946
曲不藏直	-12.1947
閫奧	-12.1949
萬機休罷	-12.195
鬆	-12.195
一句了然超百億	-12.1951
墼	-12.1952
呢	-12.1952
千變萬化	-12.1954
文彩巳彰	-12.1954
之乎者也	-12.1955
神通變化	-12.1955
無理可伸	-12.1956
有箇入處	-12.1956
見色聞聲	-12.1957
螃	-12.1957
得人憎	-12.1958
杜宇	-12.196
無始以來	-12.196
乾闥婆	-12.1961
月十一日	-12.1964
豕	-12.1964
南閻浮提	-12.1966
一念未生	-12.1967
亹	-12.1967
麋	-12.1969
愴	-12.1969
諸佛出身處	-12.1973
皇太后	-12.1976
作禮而退	-12.1981
元字腳	-12.1999
諷誦	-12.2
韋馱	-12.2
斗柄	-12.2005
粉骨碎身	-12.2009
縫罅	-12.2012
張公喫酒李公醉	-12.2013
剷	-12.2013
糢糊	-12.2017
曲彔	-12.2018
禾山打鼓	-12.2018
高提祖印	-12.2018
日出卯	-12.2019
步步登高	-12.2019
霆	-12.2019
赤鬚胡	-12.2022
摩霄	-12.2023
跂	-12.2023
唇齒	-12.2024
拍膝一下	-12.2024
蘧	-12.2025
磨礱	-12.2025
罣	-12.2026
殺人不眨眼	-12.2026
撥無因果	-12.2028
十聖三賢	-12.2029
眉鬚	-12.2032
頔	-12.2032
感而遂通	-12.2033
阮	-12.2034
理事無礙	-12.2035
󰢍	-12.2037
犍	-12.2038
姬	-12.2038
示微恙	-12.2039
隆興府	-12.204
冐	-12.205
虜	-12.2051
舘	-12.2059
疫	-12.2059
□□□	-12.2062
以拄杖卓一下	-12.2066
崑	-12.2075
淨裸裸赤灑灑	-12.208
非公境界	-12.2081
拈槌豎拂	-12.2082
法不孤起	-12.2082
棒頭有眼明如日	-12.2083
隨流認得性	-12.2083
闔郡	-12.2084
和聲便打	-12.2086
阱	-12.2086
從前汗馬無人識	-12.2087
灼灼	-12.2087
漝	-12.2088
伏惟尚饗	-12.2088
一葉落天下秋	-12.2089
埋沒祖師心	-12.2089
內不放出	-12.209
且待別時	-12.209
徹底掀翻	-12.2092
刈茅	-12.2094
著甚來由	-12.2094
通身手眼	-12.2094
法無定相	-12.2094
萬中無一	-12.2095
梅子熟	-12.2096
不惜身命	-12.2097
遞相鈍置	-12.2098
靄靄	-12.2099
無言無說	-12.2099
八十種好	-12.2099
舉足下足	-12.2102
賡	-12.2102
瓮	-12.2102
席帽	-12.2104
泛泛	-12.2105
平江府	-12.2105
箇俗漢	-12.2107
賾	-12.2107
剡	-12.2108
貸	-12.2109
哺	-12.211
如何通信	-12.2111
元叟端	-12.2112
桶底脫	-12.2116
鄴	-12.2121
牯牛	-12.2126
人境兩俱奪	-12.2138
承教有言	-12.2149
降皇宮	-12.2152
撥塵見佛時如何	-12.2158
伶俜	-12.2158
外不放入	-12.2161
入廛垂手	-12.2163
獨步大方	-12.2163
有甚麼交涉	-12.2164
赫奕	-12.2166
臘月火燒山	-12.2167
只對他道	-12.2168
鞔	-12.2173
闤闠	-12.2175
浚	-12.2175
孔孟	-12.2179
歧	-12.218
佛剎微塵數	-12.218
酪	-12.2184
覈	-12.2186
估	-12.219
付在來日	-12.223
摠	-12.223
種田博飯	-12.2232
天得一以清	-12.2232
徐六擔板	-12.2233
地得一以寧	-12.2233
缽囊	-12.2234
不將語默對	-12.2235
樨	-12.2236
弄潮人	-12.2238
自從胡亂後	-12.2238
下載清風	-12.2238
指鹿為馬	-12.2239
罕遇知音	-12.224
其或不然	-12.2241
惜取眉毛	-12.2241
扳	-12.2242
譔	-12.2242
一花五葉	-12.2242
問僧近離甚處	-12.2243
幸自可憐生	-12.2245
砒霜	-12.2245
卓朔	-12.2247
三賢十聖	-12.2247
嘮	-12.2247
理前問	-12.2249
功勛	-12.2249
瞎堂遠	-12.225
駙馬	-12.2252
闐	-12.2252
優鉢	-12.2262
穹窿	-12.2263
警䇿	-12.2269
峭壁	-12.2271
糓	-12.2273
如何是第三要	-12.2299
如何是第二要	-12.2301
上來下去	-12.2302
船來陸來	-12.2304
萬派聲歸海上消	-12.2304
塞外將軍	-12.231
闖	-12.2312
一盲引眾盲	-12.2312
一撥便轉	-12.2313
面皮厚多少	-12.2314
北山下雨	-12.2314
死了燒了	-12.2315
芸	-12.2315
來時無口	-12.2315
繽紛	-12.2316
仄	-12.2316
二祖不往西天	-12.2316
外道問佛	-12.2317
三月安居	-12.2319
顥	-12.232
蹴踏	-12.232
萱	-12.232
僭	-12.2321
旺	-12.2322
琅瑘	-12.2323
兢	-12.2323
證道歌	-12.2324
擎叉	-12.2324
爬	-12.2325
窘	-12.2334
壙	-12.2343
踞地師子	-12.2348
劈箭	-12.2377
棒打石人頭	-12.2378
枯木裏龍吟	-12.2381
青青翠竹	-12.2382
不思善不思惡	-12.2386
破家散宅	-12.2386
飽齁齁	-12.2386
我法妙難思	-12.2387
獨超物外	-12.239
糟粕	-12.2391
寂滅為樂	-12.2391
大唐天子	-12.2393
葭	-12.2393
大悲願力	-12.2393
覃	-12.2393
包括	-12.2394
向諸人面前	-12.2394
呀	-12.2395
欒	-12.2395
𦏰羊	-12.2395
鸎	-12.2397
渾崙	-12.2399
奴兒婢子	-12.2399
胄	-12.24
褐	-12.2403
南泉斬猫	-12.2404
千峰頂上	-12.2404
我脚何似驢脚	-12.2405
妙觀察智	-12.2407
珙	-12.2407
梵唄	-12.2409
行于世	-12.2413
諾諾	-12.242
一隻箭	-12.2424
螢火	-12.2443
朝打三千暮打八百	-12.2445
渺渺	-12.2447
大地全收	-12.2457
一段大事	-12.2458
托開云	-12.2459
未跨船舷	-12.246
是沙門一隻眼	-12.246
一得一失	-12.246
堪報不報之恩	-12.2461
幻化空身即法身	-12.2462
第一句薦得	-12.2465
放下屠刀	-12.2465
龍象蹴踏	-12.2465
祖翁田地	-12.2466
股肱	-12.2467
牽犁	-12.2467
真參實悟	-12.2467
憍陳如	-12.2468
閭閻	-12.247
出生入死	-12.247
縵	-12.2474
殄	-12.2475
謔	-12.2477
鮑	-12.2479
巘	-12.2484
己丑	-12.2496
摩詰	-12.2502
慳貪	-12.2514
渺茫	-12.2514
至道無難唯嫌揀擇	-12.2521
熱時熱殺	-12.2528
某甲話也未問	-12.2533
平地喫交	-12.2534
無賓主話	-12.2534
啼得血流無用處	-12.2534
禍出私門	-12.2535
正好喫棒	-12.2535
急急如律令	-12.2535
一翳在眼	-12.2536
開我迷雲	-12.2537
未敢相許	-12.2537
有什麼交涉	-12.254
陣陣	-12.2541
鼕鼕	-12.2541
頭頭顯露	-12.2541
金剛王寶劒	-12.2542
轉功就位	-12.2542
嘉興府	-12.2543
威獰	-12.2544
眼見耳聞	-12.2544
八十翁翁	-12.2544
禺	-12.2545
不進不退	-12.2546
琅琊	-12.2546
璘	-12.2547
汨	-12.2548
得少為足	-12.2548
璿	-12.2549
舜若多神	-12.2549
那邊事作麼生	-12.2549
泗洲	-12.255
猥	-12.255
五老峰	-12.2551
兢兢	-12.2551
薝蔔	-12.2551
柴扉	-12.2551
十有五	-12.2554
蕅益	-12.2557
襁褓	-12.2558
筆硯	-12.256
灾	-12.2579
頂天立地	-12.2604
第三句薦得	-12.2604
屙屎放尿	-12.2605
急水灘頭	-12.261
言無展事	-12.2612
軫	-12.2613
摘葉尋枝	-12.2613
語不投機	-12.2613
饡	-12.2615
賊身巳露	-12.2616
體中玄	-12.2616
餿	-12.2618
醍醐上味	-12.2619
知是般事便休	-12.262
遭點額	-12.2621
參須實參	-12.2622
不著佛求	-12.2622
瓶瀉	-12.2622
穗	-12.2622
舟楫	-12.2623
羃	-12.2625
芙蕖	-12.2626
錮	-12.2628
嗤	-12.2628
疵	-12.2629
汴	-12.2636
狐狸	-12.264
無準範	-12.2641
沮	-12.2642
轟轟	-12.2646
未來心不可得	-12.2679
塵說剎說	-12.2681
寒時寒殺	-12.2683
古尊宿語錄卷第	-12.2684
雲從龍風從虎	-12.2685
減師半德	-12.2686
到即不點	-12.2687
第二句薦得	-12.2688
就路還家	-12.2689
過去心不可得	-12.269
上下四維	-12.269
雪峰輥毬	-12.2691
優缽	-12.2691
張拙秀才	-12.2691
從門入者	-12.2692
轟雷	-12.2692
幔	-12.2694
駢闐	-12.2695
三世佛冤	-12.2695
巉	-12.2695
喇	-12.2696
澆漓	-12.27
不近人情	-12.27
裨販	-12.27
楖𣗖	-12.2701
九重城裏	-12.2701
其理自彰	-12.2701
檄	-12.2706
睨	-12.2713
琰	-12.272
沈淪	-12.2721
蟒	-12.2721
染汙	-12.273
還著得	-12.2731
禪院語錄	-12.275
時節若至其理自彰	-12.2751
打一坐具	-12.2753
德山托缽	-12.2754
南北不分	-12.2755
飛過去也	-12.2756
非非想天	-12.2757
鴛鴦繡出從君看	-12.2759
义	-12.2759
皆從此經出	-12.276
論有論師	-12.2763
胸襟流出	-12.2763
會與不會	-12.2764
勿傷之也	-12.2764
慣得其便	-12.2765
胡喝亂喝	-12.2765
殺佛殺祖	-12.2767
不受人瞞	-12.2768
煤	-12.2768
屙屎	-12.2769
向上更有事也無	-12.277
還將得	-12.277
脫體無依	-12.2771
忽有箇漢出來道	-12.2771
闘	-12.2771
不快漆桶	-12.2772
玉轉珠回	-12.2773
陛	-12.2774
岱	-12.2775
靉靆	-12.2776
商那和修	-12.2776
齅	-12.2777
以心傳心	-12.278
帷	-12.2782
投明須到	-12.2782
嚧	-12.2782
臊	-12.2783
楊大年	-12.2783
大愚芝	-12.2784
𩖼	-12.2785
廊廡	-12.2788
騫	-12.2789
潯	-12.2794
或菴體	-12.2798
狥	-12.2799
紂	-12.2808
如何是本身盧舍那	-12.2838
離此二途	-12.284
風恬浪靜	-12.2841
曲彔床	-12.2842
試定當看	-12.2843
日面佛月面佛	-12.2845
只見錐頭利	-12.2847
千百億化身	-12.2847
栽培	-12.2847
同聲相應	-12.2847
鯤鯨	-12.2848
保福展云	-12.2848
困來打眠	-12.2849
缸	-12.2849
蹊徑	-12.285
搶	-12.285
齁	-12.2851
空手把鋤頭	-12.2851
鶩	-12.2851
經行坐臥	-12.2852
隸	-12.2852
遵布衲	-12.2852
凳	-12.2854
甄	-12.2854
大禪佛	-12.2855
柑	-12.2855
擣	-12.2856
忱	-12.2856
稜稜	-12.2857
心外有法	-12.2857
徼	-12.2858
聱	-12.2859
軋	-12.2859
矛盾	-12.286
舛	-12.286
斌	-12.2861
飲啄	-12.2863
粮	-12.2872
煅煉	-12.2875
田地穩密	-12.2884
瀟	-12.2886
信心銘	-12.2887
透祖師關	-12.2889
是箇中人	-12.2908
承虛接響	-12.2909
身得度者即現	-12.2912
𨁝跳上三十三天	-12.2916
從門入者不是家珍	-12.2918
拈香擇火	-12.2919
作聽勢	-12.2919
教壞人家男女	-12.292
躲避	-12.292
歷歷孤明	-12.292
平地上死人無數	-12.2921
有眼如盲	-12.2922
猛著精彩	-12.2923
孟八郎	-12.2924
家常茶飯	-12.2925
返本還源	-12.2929
陷虎機	-12.293
向何處安身立命	-12.2931
馥郁	-12.2931
炒	-12.2931
鏘	-12.2931
檢責	-12.2933
纔跨門	-12.2933
肎	-12.2936
譊	-12.2937
藤蘿	-12.2938
猱	-12.2939
凋零	-12.2939
蔗	-12.2953
祝延聖壽	-12.2979
主中賓	-12.298
􂔘	-12.2982
詗	-12.2993
負恩者多	-12.2994
涓	-12.2996
乂	-12.2999
一人發真歸源	-12.3
處處綠楊堪繫馬	-12.3001
魯祖面壁	-12.3003
骨毛寒	-12.3003
髏	-12.3006
琊	-12.3006
梯航	-12.3007
熟處難忘	-12.3007
隨緣放曠	-12.3007
􂙠	-12.3007
水晶宮	-12.3007
唱巴歌	-12.301
開大口	-12.3011
時不待人	-12.3011
艱辛	-12.3011
出沒卷舒	-12.3011
謳	-12.3012
一聞千悟	-12.3013
土上加泥	-12.3013
沒來由	-12.3014
觀音勢至	-12.3014
知是法器	-12.3014
句中薦得	-12.3014
褊	-12.3014
懋	-12.3016
空索索	-12.3017
霏霏	-12.3018
圈䙡	-12.3019
篷	-12.3022
世壽五十	-12.3022
心佛眾生	-12.3023
跛鼈	-12.3023
抝折	-12.3024
嚥	-12.3024
戽	-12.3026
烱	-12.3035
妬	-12.3037
佛告阿難	-12.3041
月四日	-12.3042
劃一劃	-12.3045
戴笠	-12.3051
語錄卷第一	-12.3068
浮逼逼地	-12.3072
褌	-12.3072
沒蹤跡處莫藏身	-12.3079
大千沙界海中漚	-12.308
承和尚有言	-12.308
拈槌竪拂	-12.3081
饑餐渴飲	-12.3081
尾巴過不得	-12.3083
如夢如幻	-12.3084
忒煞	-12.3084
金不博金	-12.3084
穿過髑髏	-12.3086
碓觜	-12.3087
見成公案	-12.3087
蜻蜓	-12.3089
日炙風吹	-12.3089
嚗	-12.3091
忘前失後	-12.3092
綣	-12.3092
黯黯	-12.3096
駐錫	-12.3096
氤氳	-12.3096
霓	-12.3096
桑梓	-12.3098
垠	-12.3099
悋	-12.3101
狡	-12.3101
墅	-12.3102
淅	-12.3103
曦	-12.3104
對一說	-12.3104
夤	-12.3105
淳熈	-12.3113
巳上三人	-12.3114
禪師法嗣四人	-12.3117
月望日	-12.3142
坐微塵裏轉大法輪	-12.3155
砍	-12.3159
斬新條令	-12.316
翀	-12.3161
自道去也	-12.3161
如石含玉	-12.3163
綿綿密密	-12.3163
眼橫鼻直	-12.3164
說佛說祖	-12.3165
多口阿師	-12.3168
鄂	-12.3168
老臊胡	-12.317
去住自由	-12.3171
八臂那吒	-12.3172
苾芻	-12.3172
大遠在	-12.3172
旹	-12.3173
黃龍三關	-12.3174
高山流水	-12.3175
無生無滅	-12.3175
人從橋上過	-12.3176
闥	-12.318
天魔外道	-12.318
蛩	-12.3181
塔于本山	-12.3182
廡	-12.3182
三歲孩兒	-12.3184
誹	-12.3184
棧	-12.3186
如何是沙門行	-12.3198
鄉紳	-12.3218
證龜成鱉	-12.3236
天長地久	-12.3239
十方薄伽梵	-12.3241
千古意分明	-12.3243
儕	-12.3245
露出珊瑚枝	-12.3245
入地獄如箭	-12.3245
側聆	-12.3246
驪	-12.3246
張弓架箭	-12.3246
振威一喝	-12.3247
叮囑	-12.3248
諸佛非我道	-12.3249
夢中說夢	-12.3249
狸奴白牯却知有	-12.3251
弄泥團漢	-12.3251
噴嚏	-12.3252
淈𣸩	-12.3254
東海鯉魚	-12.3255
典型	-12.3257
作境會	-12.3258
闍棃	-12.3258
祛	-12.3258
未歸客	-12.3258
了了常知	-12.326
臍	-12.326
攷	-12.3263
瓚	-12.3265
趺坐而逝	-12.3268
褫	-12.3297
堪與人天為師	-12.3316
攢簇	-12.3318
飆	-12.3319
薶	-12.3321
口挂壁上	-12.3323
直須向萬里無寸草處去	-12.3324
十箇有五雙	-12.3326
異口同音	-12.3327
於其中間	-12.3328
笥	-12.3328
非汝境界	-12.3328
財法二施	-12.3329
斟	-12.333
萬古徽猷	-12.333
正覺山前	-12.3332
瓦解氷消	-12.3332
要行便行	-12.3332
口門窄	-12.3333
汲汲	-12.3334
矗	-12.3335
齪	-12.3335
徧界不曾藏	-12.3337
坐致太平	-12.3339
切磋	-12.334
呱	-12.3342
扼	-12.3342
毫𨤲	-12.3343
窈窕	-12.3344
球	-12.3345
向誰說	-12.3346
饉	-12.3348
節度使	-12.3348
皤	-12.3351
以拂子畫一畫	-12.3385
百姓日用而不知	-12.3398
端為祝延今上皇帝	-12.34
睫	-12.3401
師直打出	-12.3402
髑髏裏眼睛	-12.3404
徹頭徹尾	-12.3405
太平寰宇斬癡頑	-12.3406
本光瑞如此	-12.3407
一條白練去	-12.3407
見甚麼道理	-12.3408
百丈再參馬祖	-12.3409
初三十一	-12.341
不離當處常湛然	-12.3411
無佛無眾生	-12.3411
文殊是七佛之師	-12.3412
在眼曰見	-12.3413
揄	-12.3415
勛	-12.3415
鷓鴣啼處百花香	-12.3416
締	-12.3416
眼中著屑	-12.3417
子規啼	-12.3419
牟	-12.3419
萬仞崖頭	-12.3421
莫亂道	-12.3421
襴衫	-12.3423
萬卷書	-12.3424
旅泊	-12.3434
古華嚴寺	-12.3435
佛法釋者	-12.3445
畫地為牢	-12.3486
中心樹子	-12.3488
暮打八百	-12.3492
雪覆千山	-12.3492
百匝千重	-12.3492
純清絕點	-12.3492
老僧住持事繁	-12.3495
無古無今	-12.3495
超宗異目	-12.3495
石頭路滑	-12.3495
寸絲不挂	-12.3496
聽事不真	-12.3496
眼空四海	-12.3497
理無曲斷	-12.3498
彀	-12.3498
進前退後	-12.3499
定盤星	-12.35
靈龜曳尾	-12.3502
呷	-12.3504
喙	-12.3505
貺	-12.3505
猗	-12.3506
描邈	-12.3507
囌	-12.3512
十有七	-12.3515
禳	-12.3525
常在動用中	-12.3553
斡	-12.3553
未證據者看看	-12.3567
藏身處沒蹤跡	-12.3571
來年更有新條在	-12.3572
脫野狐身	-12.3573
那吒太子	-12.3573
太麤生	-12.3574
特地一場愁	-12.3574
目機銖兩	-12.3576
掉棒打月	-12.3576
祟	-12.3577
村歌社舞	-12.3577
眼光爍破四天下	-12.3577
不惜口業	-12.3578
密師伯	-12.3578
光爍爍	-12.3579
在耳曰聞	-12.358
不犯清波意自殊	-12.358
垂絲千尺	-12.3581
翡翠	-12.3581
鏗鏘	-12.3581
禪歸海	-12.3582
車不橫推	-12.3583
回互不回互	-12.3583
驪龍頷下	-12.3584
遏捺	-12.3584
隨聲逐色	-12.3585
吊	-12.3585
鞠躬	-12.3586
輓	-12.3586
兕	-12.3586
晃晃	-12.3589
輳	-12.3589
蒺	-12.359
逵	-12.3591
鎌	-12.3591
弘覺忞	-12.3594
月十八日	-12.3596
絛	-12.3597
機語未見	-12.3598
溽	-12.36
琮	-12.3603
京都聖感	-12.3603
淘汰	-12.3606
匇	-12.3613
揮拂云	-12.3641
後有僧舉似	-12.3652
通玄峰頂	-12.3652
抬眸	-12.3653
無山不帶雲	-12.3654
畫蛇添足	-12.3656
落七落八	-12.3658
赤洒洒	-12.366
蟭螟眼裏	-12.366
現在心不可得	-12.3661
在無事甲裏	-12.3662
心肝五臟	-12.3662
剿	-12.3662
直至如今更不疑	-12.3662
四七二三	-12.3662
棒下無生忍	-12.3662
若將耳聽終難會	-12.3664
翹一足	-12.3666
放得下	-12.3666
應時應節	-12.3666
刷	-12.3668
淨名杜口	-12.3668
未點地在	-12.3668
縳	-12.3669
酢	-12.3669
報君知	-12.367
不著法求	-12.3671
豸	-12.3672
閩帥	-12.3674
糜	-12.3677
佚	-12.3678
詬罵	-12.3679
銓	-12.3679
貿	-12.3685
隍	-12.3687
抝	-12.3688
謟	-12.3692
双	-12.3697
比邱	-12.3705
密移一步	-12.3728
躕	-12.3733
仗境方生	-12.3741
風吹日炙	-12.3742
胡來胡現	-12.3743
光非照境	-12.3745
要用便用	-12.3747
一切聲是佛聲	-12.3749
籓	-12.3751
凜冽	-12.3751
烏焉成馬	-12.3751
颼颼	-12.3752
貧恨一身多	-12.3752
謠	-12.3752
離經一字	-12.3754
缶	-12.3755
旂	-12.3755
無上妙道	-12.3757
鎮海明珠	-12.3757
千山萬水	-12.3757
唧唧	-12.3758
咀	-12.3758
孑	-12.3759
壹	-12.3759
野狐涎	-12.376
俊鷂	-12.3762
韛	-12.3762
跬	-12.3765
弩	-12.3766
南陽忠國師	-12.3767
鄧尉	-12.3769
澁	-12.377
成所作智	-12.3772
蠏	-12.3773
殿裏底	-12.3779
們	-12.3789
是衲僧分上事	-12.3805
朢	-12.3813
續傳燈錄卷第	-12.3816
龍得水時添意氣	-12.3822
樹倒藤枯句歸何處	-12.3824
兩眼對兩眼	-12.3826
境亦非存	-12.3827
人天普集	-12.3828
莫認定盤星	-12.3829
麻三觔	-12.383
南山鱉鼻	-12.3831
衣線下	-12.3832
試辨看	-12.3832
一句中具三玄	-12.3833
殺盡始安居	-12.3833
生耶死耶	-12.3833
何處不稱尊	-12.3834
甘贄行者	-12.3834
諦聽諦聽	-12.3834
徽猷	-12.3835
彤	-12.3836
淒	-12.3837
涅槃會上	-12.3837
東村王大	-12.3838
症	-12.3838
自是不歸歸便得	-12.384
竭世樞機	-12.384
月林觀	-12.3841
摩挲	-12.3842
軒轅	-12.3843
芹	-12.3845
偏中至	-12.3845
泠泠	-12.3846
費隱容	-12.3849
裒	-12.3855
鬘	-12.3865
毱	-12.3869
作如是說	-12.387
宗乘中事	-12.3883
捴	-12.3892
大難承當	-12.3897
闍𥠖	-12.3902
不與萬法為侶者是甚麼人	-12.3913
丟	-12.3914
迦葉親聞	-12.3914
盡其神力	-12.3916
翻轉面皮	-12.3917
生死岸頭	-12.3918
東涌西沒	-12.3919
任從滄海變	-12.3919
𣦸	-12.3919
漆桶不快	-12.3919
知心能幾人	-12.3919
墻壁瓦礫	-12.3919
須彌燈王	-12.392
汝等皆當作佛	-12.392
不犯鋒鋩	-12.3921
黑白未分	-12.3923
覯	-12.3924
一人發真歸元	-12.3925
方有少分相應	-12.3925
太原孚上座	-12.3926
從古至今	-12.3927
同死同生	-12.3928
秦時𨍏轢鑽	-12.3929
謝三郎	-12.3929
依經解義	-12.3929
歸根得旨	-12.3929
▁卷十	-12.393
南華昺	-12.3931
瀚	-12.3936
冽	-12.3939
憐愍	-12.3944
閴	-12.3946
飭	-12.3946
窆	-12.3948
宗鏡錄卷第	-12.3952
櫃	-12.3957
躲跟	-12.3994
聲香味觸	-12.4001
炯炯	-12.4002
起模畫樣	-12.4003
巇	-12.4004
陳操尚書	-12.4005
鐵額銅頭	-12.4006
近離什麼處	-12.4006
大休大歇	-12.4007
朝參暮	-12.4008
真不掩偽	-12.4009
唯此一事實	-12.4014
萄	-12.4014
色聲香味觸法	-12.4015
糖	-12.4016
墀	-12.4017
時節若至	-12.4021
騁	-12.4021
迦那提婆	-12.4022
飯是米做	-12.4023
石溪月	-12.4023
千鈞弩	-12.4024
筐	-12.4024
笛橫吹	-12.4024
錙銖	-12.4025
逡巡	-12.4026
畿	-12.4028
藿	-12.4028
如救頭然	-12.4028
賚	-12.403
顙	-12.4032
梟	-12.4033
奎	-12.4034
鑛	-12.4035
縠	-12.4036
潰	-12.404
丙	-12.4059
十方薄伽梵一路涅槃門	-12.4071
奉為滿朝文武	-12.4079
乱	-12.4081
藏頭白海頭黑	-12.4086
三世諸佛立地聽	-12.4091
蝦跳不出斗	-12.4091
佛法無靈驗	-12.4091
照用一時行	-12.4092
無喜亦無憂	-12.4095
迥脫根塵	-12.4095
遊山翫水	-12.4095
出頭天外看	-12.4095
指東畫西	-12.4095
日用事無別	-12.4095
謼	-12.4095
大洋海	-12.4096
泥多佛大	-12.4096
養子之緣	-12.4097
如蟲禦木	-12.4097
竹密不妨流水過	-12.4097
彼自無瘡	-12.4098
到這田地	-12.4099
糞掃堆頭	-12.4099
三玄戈甲	-12.4099
口吧吧	-12.4099
衲被蒙頭	-12.41
棒如雨點	-12.4101
攙行奪市	-12.4104
承虗接響	-12.4104
暘	-12.4105
波斯匿王	-12.4105
如或不然	-12.4105
何處求心	-12.4106
攣	-12.411
涓涓	-12.4111
俚	-12.4112
囿	-12.4113
揜	-12.4116
楊子江	-12.412
慞	-12.4122
莾	-12.4124
珮	-12.4124
▁卷二	-12.4127
〡	-12.4127
轎	-12.4129
凢	-12.4162
叚	-12.4168
新年頭還有佛法也無	-12.4173
轉處實能幽	-12.4177
炙脂帽	-12.4179
林下何曾見一人	-12.4181
第二杓惡水	-12.4181
若立一塵	-12.4181
攛下火炬	-12.4182
驅耕奪食	-12.4182
搓	-12.4182
鴨寒下水	-12.4183
打破蔡州	-12.4183
護生須是殺	-12.4183
混沌未分	-12.4185
將此身心奉塵剎	-12.4185
搕𢶍	-12.4186
一句合頭語	-12.4188
普現色身	-12.4188
紛然失心	-12.4189
入此門來	-12.4189
罵詈	-12.4189
分身千百億	-12.419
絕行蹤	-12.419
墾	-12.4191
天高地厚	-12.4191
舫	-12.4191
傳法救迷情	-12.4192
家富小兒嬌	-12.4193
拈拄杖卓一卓	-12.4194
炫	-12.4195
籥	-12.4196
惘	-12.4197
溉	-12.4199
丹墀	-12.4201
元字脚	-12.4201
霅	-12.4203
婺	-12.4204
棊	-12.4212
常樂我淨	-12.4214
鶴勒那	-12.4215
奘	-12.4216
喫飯穿衣	-12.4265
箇問頭	-12.4266
旋風打散	-12.4271
付囑摩訶迦葉	-12.4274
打鼓弄琵琶	-12.4276
這風顛漢	-12.4277
千了百當	-12.4279
耙	-12.4279
色前不物	-12.428
飲氣吞聲	-12.4281
孫臏	-12.4282
澍	-12.4282
南海波斯	-12.4283
立雪斷臂	-12.4283
當此之時	-12.4284
蟟	-12.4285
無星秤	-12.4285
槽廠	-12.4285
售	-12.4286
忉怛	-12.4287
冢	-12.4289
迅捷	-12.429
魍魎	-12.429
諺	-12.4294
橫川珙	-12.4295
㘽	-12.4296
過現未來	-12.4298
軾	-12.4302
弋	-12.4305
[...]
