<unk>	0
<s>	0
</s>	0
之	-4.37566
(	-4.89429
/	-5.02164
有	-5.12402
為	-5.1417
云	-5.20677
也	-5.24377
人	-5.28524
以	-5.2887
詩	-5.31004
)	-5.33662
而	-5.37397
不	-5.37521
一	-5.51674
其	-5.5386
中	-5.63889
者	-5.66559
曰	-5.75516
無	-5.7569
如	-5.84371
山	-5.84712
作	-5.86421
/)	-5.89074
子	-5.9026
自	-5.91057
與	-5.91968
於	-5.92605
時	-5.92645
此	-5.96693
在	-6.02696
)(	-6.03516
上	-6.03851
書	-6.05672
公	-6.06808
字	-6.0875
天	-6.08811
王	-6.1207
見	-6.15288
言	-6.16669
得	-6.17607
文	-6.17752
大	-6.20204
日	-6.2372
事	-6.24419
風	-6.25282
行	-6.25451
是	-6.26603
出	-6.26728
則	-6.27377
來	-6.29146
水	-6.29356
花	-6.30402
亦	-6.30609
生	-6.30822
三	-6.31304
又	-6.31483
下	-6.34493
名	-6.35354
至	-6.36286
長	-6.3646
道	-6.36839
皆	-6.37461
雲	-6.37712
歸	-6.37986
相	-6.39367
春	-6.40213
後	-6.40448
然	-6.40725
知	-6.40773
所	-6.40843
故	-6.42994
入	-6.43849
多	-6.4422
清	-6.51135
非	-6.51699
矣	-6.53008
詩云	-6.55254
家	-6.55496
君	-6.5571
李	-6.56059
去	-6.57787
前	-6.57922
同	-6.5884
心	-6.59496
意	-6.59725
乃	-6.59836
可	-6.60794
州	-6.61172
未	-6.61348
成	-6.61867
欲	-6.62879
老	-6.62907
月	-6.63199
正	-6.63259
語	-6.63277
用	-6.63359
▁	-6.64774
今	-6.65314
石	-6.65632
何	-6.66761
于	-6.67114
玉	-6.6723
髙	-6.67882
金	-6.68905
明	-6.69018
謂	-6.69133
已	-6.70105
若	-6.70229
方	-6.72072
官	-6.72635
傳	-6.72683
我	-6.72791
因	-6.73583
白	-6.74264
集	-6.74566
元	-6.74784
聲	-6.74925
新	-6.75042
客	-6.75529
初	-6.75866
題	-6.76253
小	-6.76559
深	-6.77827
張	-6.78054
古	-6.79036
過	-6.79096
空	-6.79288
盡	-6.80431
南	-6.80575
當	-6.81785
寒	-6.82557
能	-6.82815
酒	-6.83099
二	-6.83933
秋	-6.84249
句	-6.85461
聞	-6.86492
門	-6.8684
飛	-6.87011
江	-6.88269
世	-6.8846
復	-6.88545
爲	-6.88776
從	-6.8928
開	-6.91892
雨	-6.92069
思	-6.92209
夜	-6.93197
朝	-6.93202
重	-6.93461
逺	-6.93566
香	-6.93634
唐	-6.93658
龍	-6.94243
處	-6.94422
似	-6.9446
馬	-6.95359
和	-6.95361
好	-6.95544
五	-6.95694
及	-6.95756
西	-6.95951
年	-6.96444
東	-6.96813
黄	-6.97255
陳	-6.97534
歌	-6.98173
使	-6.98888
將	-6.99032
林	-7.00861
獨	-7.01105
平	-7.01553
耳	-7.01674
氣	-7.01982
國	-7.02431
賦	-7.02453
令	-7.02556
本	-7.03199
舊	-7.03206
居	-7.0419
四	-7.04294
青	-7.04347
光	-7.05049
更	-7.0506
學	-7.05691
觀	-7.06145
間	-7.06293
樂	-7.06406
地	-7.06502
起	-7.06565
先	-7.07255
頭	-7.07301
問	-7.07385
雖	-7.07586
對	-7.08953
劉	-7.09096
還	-7.09164
城	-7.09482
應	-7.11665
難	-7.12228
流	-7.12546
漢	-7.13194
即	-7.13408
真	-7.13733
望	-7.14037
落	-7.15605
雪	-7.16356
兩	-7.16406
色	-7.16522
紅	-7.16878
華	-7.1697
常	-7.17236
取	-7.17308
寄	-7.17577
少	-7.17695
安	-7.18122
數	-7.1854
别	-7.18866
樹	-7.18875
送	-7.18883
高	-7.1922
情	-7.19278
分	-7.19327
論	-7.19797
經	-7.20014
辭	-7.20132
衣	-7.20421
仙	-7.20846
路	-7.20987
身	-7.21209
竹	-7.21833
外	-7.2193
遂	-7.22037
稱	-7.22117
猶	-7.22271
遊	-7.22308
莫	-7.22392
曲	-7.22976
宫	-7.23235
嘗	-7.23875
惟	-7.23985
乎	-7.24415
立	-7.24871
到	-7.25306
始	-7.26159
坐	-7.26684
海	-7.26927
九	-7.27198
草	-7.272
士	-7.27393
臣	-7.27421
或	-7.27423
巻	-7.27476
命	-7.27514
師	-7.28037
死	-7.28134
僧	-7.28361
夢	-7.28624
閒	-7.28676
志	-7.29186
詞	-7.2962
神	-7.29837
女	-7.29887
謝	-7.30035
萬	-7.3034
贈	-7.30553
善	-7.30917
巳	-7.30949
吾	-7.31663
通	-7.31906
向	-7.31946
周	-7.3318
絶	-7.3457
畫	-7.34746
且	-7.35956
景	-7.36656
六	-7.36759
手	-7.36786
氏	-7.36967
直	-7.3708
合	-7.37292
宋	-7.37421
北	-7.37763
滿	-7.38275
寺	-7.3834
溪	-7.38481
章	-7.38497
不可	-7.39058
愁	-7.39364
百	-7.39517
物	-7.39549
興	-7.39901
陽	-7.39919
看	-7.39931
帝	-7.40041
載	-7.40071
夫	-7.40401
法	-7.40641
野	-7.40846
餘	-7.41017
以為	-7.41393
近	-7.4158
宗	-7.41618
喜	-7.42829
記	-7.42864
葉	-7.43045
余	-7.43086
豈	-7.43363
首	-7.43497
東坡	-7.43704
異	-7.43936
甚	-7.44075
發	-7.44083
必	-7.44678
易	-7.45046
千	-7.45063
亭	-7.45253
定	-7.45428
魚	-7.4674
尚	-7.46847
樓	-7.47054
臺	-7.47175
隨	-7.4745
誰	-7.4768
舉	-7.47787
才	-7.48189
楊	-7.48207
韻	-7.4841
實	-7.4906
諸	-7.49093
但	-7.49447
半	-7.49552
留	-7.4956
㑹	-7.50104
醉	-7.50323
終	-7.50586
焉	-7.50838
登	-7.5099
松	-7.51587
堂	-7.51719
信	-7.52296
勝	-7.52364
遺	-7.52405
音	-7.52577
鳥	-7.53257
著	-7.53797
不知	-7.5425
史	-7.54328
極	-7.54551
筆	-7.54708
徳	-7.54963
守	-7.55012
號	-7.55021
十	-7.55501
吟	-7.56092
理	-7.56244
孫	-7.56258
輕	-7.58016
八	-7.58547
義	-7.59109
泉	-7.5915
引	-7.5948
既	-7.59687
求	-7.59762
驚	-7.60349
體	-7.60412
篇	-7.61066
予	-7.61211
主	-7.61355
池	-7.61686
影	-7.62235
秦	-7.62319
笑	-7.62496
仲	-7.62669
父	-7.62837
武	-7.63021
愛	-7.6304
塵	-7.63135
楚	-7.6332
節	-7.63346
病	-7.63961
七	-7.64801
葢	-7.65408
朱	-7.65742
度	-7.65809
幽	-7.66416
許	-7.66678
俗	-7.66678
閣	-7.66827
郎	-7.67191
盖	-7.67229
爾	-7.67632
不能	-7.6795
如此	-7.68296
亂	-7.68359
詠	-7.68377
連	-7.68678
民	-7.6879
食	-7.68999
圖	-7.69005
靈	-7.6916
杜	-7.69227
舞	-7.69634
注	-7.69852
蓋	-7.7011
曉	-7.70366
致	-7.70458
邊	-7.70772
足	-7.70772
殿	-7.70857
孤	-7.71178
動	-7.71197
田	-7.71219
梁	-7.71416
梅	-7.71642
卿	-7.71819
先生	-7.72014
解	-7.72295
共	-7.72438
碧	-7.72501
都	-7.72928
燕	-7.72996
鄭	-7.73087
齊	-7.73198
鳴	-7.73736
苦	-7.7376
便	-7.74035
回	-7.74156
竒	-7.74209
河	-7.74236
要	-7.74324
進	-7.7464
臨	-7.74679
精	-7.74795
車	-7.74823
工	-7.75065
休	-7.75167
翠	-7.75708
府	-7.76098
尤	-7.76197
說	-7.76327
吳	-7.76578
讀	-7.76733
栁	-7.76737
太	-7.76883
失	-7.7695
力	-7.77266
伯	-7.77288
内	-7.77326
微	-7.77646
露	-7.7769
目	-7.77716
縣	-7.77853
哉	-7.77969
按	-7.78043
趙	-7.78352
美	-7.78443
霜	-7.78469
改	-7.78651
裏	-7.78753
飲	-7.78789
詩曰	-7.78855
禮	-7.79133
祖	-7.79342
隂	-7.79799
疑	-7.79809
紫	-7.80155
翁	-7.80267
烟	-7.80275
指	-7.80445
凡	-7.80634
録	-7.80974
波	-7.81131
韓	-7.81511
兮	-7.81568
垂	-7.81711
雙	-7.81855
枝	-7.82118
調	-7.823
詩話	-7.82333
却	-7.82459
恨	-7.8267
素	-7.82686
宿	-7.82871
聖	-7.83075
郡	-7.83207
尋	-7.83211
又云	-7.83249
宜	-7.83492
斷	-7.83576
識	-7.83681
卒	-7.83694
轉	-7.83866
變	-7.8426
獻	-7.84335
幾	-7.84505
口	-7.84544
蜀	-7.84921
比	-7.85036
星	-7.85121
盛	-7.85192
胡	-7.85281
賜	-7.85498
照	-7.85535
窮	-7.8555
懐	-7.85628
貴	-7.85739
親	-7.85847
賢	-7.86478
来	-7.86685
破	-7.86725
浮	-7.86737
蘇	-7.86765
陵	-7.87053
雅	-7.87226
全	-7.87313
最	-7.87315
游	-7.87414
説	-7.87664
院	-7.87974
眼	-7.88026
廣	-7.88137
錢	-7.88278
徐	-7.88411
羅	-7.88625
所謂	-7.89002
庭	-7.89319
散	-7.89339
悲	-7.89352
容	-7.89686
等	-7.9027
任	-7.90337
離	-7.90658
移	-7.90842
須	-7.9089
沙	-7.90894
止	-7.91047
次	-7.91123
晚	-7.91158
試	-7.91545
謂之	-7.91971
舟	-7.92132
碑	-7.92142
忽	-7.92306
木	-7.92498
叔	-7.925
英	-7.92587
只	-7.92656
火	-7.92918
端	-7.92958
結	-7.93057
鶴	-7.93071
放	-7.93214
曾	-7.93394
齋	-7.93924
之句	-7.9396
夏	-7.94026
嵗	-7.94197
代	-7.94345
封	-7.94386
表	-7.94409
兵	-7.94471
皇	-7.94621
隱	-7.94929
緑	-7.95015
曽	-7.95068
橋	-7.95575
覺	-7.95693
久	-7.95744
請	-7.95955
序	-7.96106
兒	-7.96428
湖	-7.9665
殘	-7.96952
良	-7.97559
感	-7.9775
拜	-7.9778
晉	-7.97885
每	-7.98065
德	-7.98253
固	-7.98331
交	-7.98549
昔	-7.98936
天下	-7.99011
煙	-7.99094
永	-7.99426
類	-7.99525
麗	-7.99697
此詩	-7.99908
衆	-7.99935
藏	-8.0023
適	-8.00934
聽	-8.00968
帶	-8.01393
奏	-8.01498
扵	-8.01663
佳	-8.01893
土	-8.01979
待	-8.02148
顧	-8.02268
里	-8.02362
川	-8.0272
不得	-8.03068
鄉	-8.0317
妙	-8.03227
横	-8.03229
並	-8.03241
早	-8.03522
汝	-8.03695
教	-8.03924
化	-8.04134
罷	-8.04175
呼	-8.04347
功	-8.04427
吹	-8.04759
耶	-8.04894
面	-8.05073
末	-8.0515
期	-8.05219
存	-8.05313
呉	-8.05525
服	-8.05804
遇	-8.05871
虚	-8.05966
逰	-8.06038
洞	-8.06225
持	-8.06236
薄	-8.06379
沈	-8.06636
切	-8.06805
羣	-8.07119
俱	-8.0719
逢	-8.07363
當時	-8.07462
雜	-8.07472
就	-8.07587
忠	-8.07681
丹	-8.08111
原	-8.0817
屋	-8.08254
骨	-8.0837
茶	-8.08422
廟	-8.08687
侯	-8.08743
巖	-8.08999
宣	-8.09267
嚴	-8.09635
冠	-8.09744
簡	-8.0996
寧	-8.1039
暮	-8.10441
幸	-8.10458
谷	-8.10588
軍	-8.1078
作詩	-8.10838
紀	-8.1092
除	-8.10946
魏	-8.10968
御	-8.11256
山谷	-8.11661
隠	-8.11738
閑	-8.12445
文章	-8.12611
園	-8.1267
友	-8.12705
珠	-8.12736
修	-8.131
蘭	-8.13186
建	-8.13221
益	-8.13256
進士	-8.13304
各	-8.13312
牛	-8.1371
逸	-8.13719
傷	-8.13976
羽	-8.1435
憶	-8.14777
恩	-8.14837
宴	-8.15038
兼	-8.15205
越	-8.15328
恐	-8.15486
再	-8.15687
船	-8.15734
燈	-8.15881
墨	-8.15963
陸	-8.16118
召	-8.16586
哀	-8.166
孟	-8.16614
一日	-8.17032
細	-8.17043
倚	-8.1724
闕	-8.17324
以上	-8.17378
關	-8.1749
絲	-8.17601
制	-8.17654
角	-8.17661
寳	-8.17662
奉	-8.17699
冷	-8.17824
淚	-8.17895
列	-8.17964
怨	-8.18205
曹	-8.18845
晴	-8.18982
賞	-8.19017
承	-8.19133
吏	-8.19133
陶	-8.19265
反	-8.19278
壁	-8.19469
政	-8.19523
軒	-8.19534
律	-8.1971
徒	-8.19916
頗	-8.19972
萬里	-8.20243
隔	-8.20305
詔	-8.20438
第	-8.20493
形	-8.20743
逐	-8.21033
琴	-8.21302
不見	-8.21313
崔	-8.21544
朩	-8.21567
願	-8.21663
戲	-8.22064
亡	-8.22332
右	-8.2236
季	-8.22429
秀	-8.22744
盤	-8.23096
錦	-8.23341
而不	-8.23367
往	-8.23494
果	-8.23654
殊	-8.24247
象	-8.24317
峯	-8.24677
味	-8.24688
屬	-8.24752
荒	-8.24943
折	-8.25158
被	-8.25172
顔	-8.253
浪	-8.25672
雄	-8.2619
仁	-8.26311
考	-8.26612
春風	-8.26931
遣	-8.26986
收	-8.27022
京	-8.27035
談	-8.27149
特	-8.27441
選	-8.2756
偶	-8.27871
置	-8.27948
乗	-8.2795
性	-8.27988
室	-8.28015
芳	-8.28127
寫	-8.28356
銘	-8.28369
房	-8.2838
韋	-8.2847
迎	-8.28628
勢	-8.28634
江南	-8.28653
省	-8.2881
遷	-8.29145
昭	-8.29257
柳	-8.294
市	-8.2948
晩	-8.29682
急	-8.29737
千里	-8.29932
忘	-8.30322
盧	-8.30594
古人	-8.30682
延	-8.30863
是也	-8.31187
母	-8.31817
接	-8.31952
治	-8.31959
投	-8.31977
藥	-8.31998
編	-8.32051
村	-8.32262
追	-8.32327
闗	-8.32482
歎	-8.32518
訪	-8.32734
禪	-8.32951
種	-8.33146
薦	-8.33229
司	-8.33388
視	-8.33432
辨	-8.33562
暗	-8.3362
歳	-8.3379
澤	-8.33811
念	-8.33987
管	-8.34084
約	-8.34311
榮	-8.34406
憂	-8.34505
依	-8.34553
報	-8.34617
受	-8.34942
厚	-8.34975
烏	-8.35061
翻	-8.35128
某	-8.35257
井	-8.35267
源	-8.35372
斯	-8.35853
毛	-8.36133
業	-8.36166
妻	-8.36202
刻	-8.36403
短	-8.36564
格	-8.36953
鼓	-8.37
加	-8.3705
蔡	-8.37164
子美	-8.37233
虎	-8.37263
吳旦生曰	-8.37364
疎	-8.37807
唯	-8.37824
儒	-8.37845
議	-8.38112
荆公	-8.38174
騎	-8.38286
乆	-8.38297
今日	-8.38318
㸃	-8.38346
疾	-8.38802
造	-8.3881
采	-8.38828
懷	-8.38863
康	-8.38978
補	-8.39113
𤣥	-8.39238
甫	-8.39538
惠	-8.39685
惡	-8.39742
具	-8.3988
巧	-8.39995
鴈	-8.40091
鼎	-8.40277
雞	-8.40763
唐人	-8.4091
誤	-8.40973
擬	-8.41078
儀	-8.41178
郭	-8.4139
桂	-8.41412
誠	-8.41459
總	-8.41613
尊	-8.41749
㡬	-8.41806
坡	-8.41832
歡	-8.41882
禁	-8.41992
弟	-8.42476
含	-8.42679
人間	-8.42786
吕	-8.42984
銀	-8.43053
述	-8.43139
何處	-8.43155
他	-8.43302
根	-8.4354
昌	-8.43574
附	-8.43589
嘉	-8.43693
推	-8.43769
利	-8.43827
斜	-8.4388
邪	-8.43883
徑	-8.44591
㣲	-8.44637
鳯	-8.447
借	-8.44776
歴	-8.45094
蒼	-8.45377
鳳	-8.45436
商	-8.45492
左	-8.45498
貧	-8.45543
了	-8.45606
濟	-8.45607
錄	-8.45773
蕭	-8.45774
衰	-8.46023
授	-8.46109
遲	-8.46119
退	-8.46143
眉	-8.46224
塞	-8.46252
計	-8.4643
權	-8.46573
佛	-8.46878
索	-8.47169
苑	-8.47175
駕	-8.47262
泥	-8.47306
鍾	-8.47545
養	-8.47575
静	-8.47588
温	-8.47614
孝	-8.4766
謁	-8.47914
長安	-8.47945
鬼	-8.48096
老杜	-8.48282
妾	-8.48335
洪	-8.48416
崇	-8.48604
眠	-8.48857
負	-8.48877
夕	-8.48903
夷	-8.48964
例	-8.48976
姓	-8.49156
侍	-8.49236
堪	-8.4936
丘	-8.49485
嶺	-8.49532
平生	-8.49606
程	-8.49644
典	-8.49902
凝	-8.49917
熟	-8.50058
唱	-8.50093
潮	-8.50125
低	-8.50296
歲	-8.50308
惜	-8.50324
所以	-8.50398
館	-8.50475
退之	-8.50866
危	-8.51016
勞	-8.51024
賀	-8.51038
可以	-8.51098
爭	-8.5121
郊	-8.51225
鴻	-8.51478
敢	-8.51525
淡	-8.51544
備	-8.51914
降	-8.51953
歩	-8.52009
范	-8.52171
之意	-8.52176
住	-8.5227
赴	-8.52327
綠	-8.52551
誦	-8.52788
丁	-8.52908
竟	-8.52909
岸	-8.52931
彼	-8.52994
續	-8.53
慶	-8.53111
畧	-8.53189
妓	-8.53336
步	-8.53351
避	-8.53691
古今	-8.54043
撰	-8.5419
尚書	-8.54234
仍	-8.54273
博	-8.54476
達	-8.54569
靜	-8.54683
狂	-8.54719
條	-8.55189
乞	-8.55239
舍	-8.55302
漸	-8.55331
宅	-8.55344
繼	-8.5547
背	-8.55502
敬	-8.55514
簾	-8.55989
想	-8.55992
豪	-8.56161
浦	-8.56191
卧	-8.56356
墓	-8.56362
魯	-8.56364
倒	-8.56508
亦有	-8.56943
夫人	-8.5744
傾	-8.57459
二十	-8.57481
懸	-8.57598
殺	-8.57672
拂	-8.57685
紙	-8.577
籍	-8.58102
赤	-8.5838
乾	-8.5846
答	-8.58484
樂天	-8.58665
偏	-8.58712
峰	-8.59025
絶句	-8.59698
将	-8.60021
霞	-8.60112
掩	-8.60209
十二	-8.60227
鎮	-8.60392
枕	-8.60408
冬	-8.60481
席	-8.60534
甲	-8.60702
弄	-8.60703
無人	-8.60723
鏡	-8.60786
由	-8.60936
洛	-8.61021
樂府	-8.61081
學士	-8.61145
累	-8.61283
十年	-8.61308
怪	-8.61958
廢	-8.61969
者也	-8.61994
愈	-8.6202
怒	-8.62062
中有	-8.62223
婦	-8.62309
戰	-8.62764
又有	-8.62848
位	-8.63015
戒	-8.6306
争	-8.63081
詩人	-8.63137
質	-8.63154
告	-8.63582
莊	-8.63687
寶	-8.64029
機	-8.64147
天子	-8.64173
云云	-8.64373
祠	-8.64637
映	-8.64767
淺	-8.6492
虛	-8.64958
品	-8.65102
白雲	-8.65267
施	-8.65343
尾	-8.65413
賈	-8.65442
棲	-8.65669
甘	-8.65724
顯	-8.65797
謀	-8.65841
㸔	-8.66188
揚	-8.66244
之曰	-8.66441
鐘	-8.66455
龜	-8.66895
三年	-8.67304
狀	-8.67319
縁	-8.67764
况	-8.67941
后	-8.6818
積	-8.6821
明月	-8.68282
希	-8.68522
憐	-8.68568
漫	-8.68663
啼	-8.68843
兹	-8.68854
境	-8.68882
卷	-8.68974
羊	-8.69004
僕	-8.69006
底	-8.69028
遠	-8.69082
哭	-8.69213
迷	-8.69749
福	-8.69775
魂	-8.69886
不及	-8.70066
暖	-8.70094
太白	-8.7025
黃	-8.70347
傍	-8.70356
富	-8.70357
執	-8.70599
不如	-8.70733
器	-8.70769
以詩	-8.70783
伏	-8.70824
抱	-8.70828
詳	-8.70849
毎	-8.71019
孔	-8.71064
悟	-8.71111
第一	-8.71232
棄	-8.71267
斗	-8.7128
招	-8.71367
示	-8.71523
不敢	-8.71529
桃	-8.71649
渾	-8.71717
遥	-8.72015
參	-8.72062
頻	-8.72163
豐	-8.72261
繁	-8.72277
叢	-8.72279
聊	-8.72556
把	-8.72693
泣	-8.72708
符	-8.72782
夀	-8.72887
枯	-8.72943
圓	-8.73067
社	-8.73098
環	-8.73382
雷	-8.73875
尺	-8.74094
三十	-8.74172
壯	-8.74321
薛	-8.74396
扶	-8.744
奇	-8.74416
菊	-8.74528
嗟	-8.74566
不同	-8.74765
釋	-8.7485
着	-8.75021
一時	-8.7509
巢	-8.75181
堅	-8.75332
屏	-8.75474
征	-8.75693
跡	-8.75706
䇿	-8.75751
頌	-8.75779
阿	-8.7592
響	-8.75973
布	-8.76015
漁	-8.76076
渡	-8.76265
洗	-8.76355
息	-8.76455
監	-8.76513
風吹	-8.76517
側	-8.76579
潘	-8.7691
兄	-8.77082
閩	-8.77108
迹	-8.7743
不復	-8.77466
一篇	-8.77499
裴	-8.77505
眞	-8.77573
衡	-8.77612
未嘗	-8.77625
消	-8.77703
徃	-8.77822
履	-8.77882
繫	-8.77909
買	-8.77911
童	-8.77993
霧	-8.78099
虞	-8.78128
刺	-8.78265
氷	-8.7835
罪	-8.78424
梅花	-8.78463
畢	-8.78525
强	-8.7891
丞相	-8.78937
湘	-8.78958
雁	-8.79106
崖	-8.79314
賔	-8.7945
鬢	-8.79458
燭	-8.79486
射	-8.79508
日月	-8.79563
之語	-8.79864
故人	-8.80115
據	-8.8025
禽	-8.80321
部	-8.80365
傅	-8.80422
伴	-8.80536
勿	-8.80538
升	-8.80656
沉	-8.80713
走	-8.80822
術	-8.8134
話	-8.81756
咸	-8.81781
腰	-8.81891
踈	-8.82148
春秋	-8.82171
干	-8.82211
略	-8.82237
窗	-8.82316
諷	-8.82361
屈	-8.82471
寓	-8.82537
注云	-8.82553
耕	-8.82591
劍	-8.82609
天地	-8.8295
瑞	-8.8298
順	-8.83368
班	-8.83392
之類	-8.83482
之詩	-8.83577
假	-8.83807
旁	-8.83841
午	-8.83854
採	-8.83943
凉	-8.84109
催	-8.84274
縱	-8.84691
又曰	-8.84984
否	-8.85324
穿	-8.85421
神仙	-8.85576
輩	-8.85705
振	-8.85762
奴	-8.85921
五言	-8.86109
威	-8.86168
扇	-8.86293
杯	-8.8637
率	-8.86381
仰	-8.8639
鄰	-8.86406
覆	-8.86559
驅	-8.86566
畏	-8.86812
睡	-8.86937
不足	-8.87056
釣	-8.87093
勸	-8.87194
瓊	-8.87212
湯	-8.87227
妃	-8.87298
貢	-8.87402
彦	-8.87408
牧	-8.87466
訓	-8.87634
資	-8.87672
貶	-8.87916
圍	-8.87926
評	-8.88022
覽	-8.88079
舒	-8.88096
馳	-8.88141
荷	-8.88238
粉	-8.88249
仕	-8.88322
辰	-8.88649
旋	-8.88722
窺	-8.88803
刀	-8.88981
披	-8.88986
錫	-8.88989
印	-8.88995
謫	-8.89009
習	-8.89207
昏	-8.89318
稍	-8.89427
一作	-8.89433
宻	-8.89461
鶯	-8.89563
絃	-8.89657
差	-8.8967
賦詩	-8.89673
戴	-8.89878
輔	-8.89915
蓮	-8.89926
桑	-8.89949
諱	-8.90046
彈	-8.90082
甞	-8.90105
職	-8.90123
葬	-8.9031
血	-8.90346
潤	-8.90385
蓬	-8.90546
聚	-8.9056
壽	-8.90567
翰	-8.9064
大夫	-8.90751
没	-8.90784
漏	-8.90806
鐵	-8.90817
旦	-8.90831
至今	-8.90848
詩有	-8.91003
用事	-8.91138
蕩	-8.91206
侵	-8.91235
製	-8.91276
掃	-8.91379
二年	-8.91441
賊	-8.91499
岳	-8.91554
君子	-8.91606
巾	-8.91658
宰	-8.91873
風雨	-8.91897
道士	-8.91897
袖	-8.91903
晝	-8.91925
劒	-8.92169
繡	-8.92331
邑	-8.9249
吐	-8.92615
融	-8.92734
幕	-8.92784
旣	-8.92837
運	-8.92994
鸞	-8.93079
邉	-8.93341
太守	-8.93687
户	-8.9372
驛	-8.93786
其後	-8.93908
而已	-8.93993
泛	-8.94187
凌	-8.94218
擁	-8.94244
涼	-8.94449
殆	-8.94546
堯	-8.94573
晨	-8.94698
譏	-8.9476
設	-8.94903
輪	-8.94931
髪	-8.95039
㫁	-8.95115
飯	-8.95152
恭	-8.95381
敗	-8.95383
險	-8.95388
免	-8.95429
淵	-8.95496
帳	-8.95631
藻	-8.95633
如何	-8.95649
少年	-8.95681
叙	-8.95802
宮	-8.95888
山中	-8.96044
操	-8.96056
乘	-8.96106
脫	-8.96181
維	-8.96385
厭	-8.96549
爐	-8.96589
尉	-8.96628
京師	-8.96736
候	-8.96997
私	-8.97043
座	-8.97079
青山	-8.97108
㫖	-8.97135
金陵	-8.97222
吉	-8.97466
供	-8.97476
笛	-8.97933
牀	-8.98003
姑	-8.98021
潭	-8.98168
案	-8.98275
譜	-8.9846
添	-8.98491
𥘉	-8.98494
壺	-8.98565
效	-8.98679
猿	-8.98713
燒	-8.98732
七言	-8.98888
叟	-8.98977
鮮	-8.98991
誌	-8.99003
所作	-8.99426
掌	-8.99578
并	-8.99584
科	-8.99624
申	-8.99682
健	-8.99705
肯	-8.99798
寛	-8.99966
於此	-8.99974
羞	-8.9999
翼	-9.00159
荅	-9.00321
趣	-9.00583
充	-9.00679
農	-9.00786
司馬	-9.00849
何人	-9.00965
纔	-9.00981
規	-9.00993
寸	-9.01099
竊	-9.01171
壓	-9.01182
助	-9.0119
魯直	-9.01226
讀書	-9.01289
秋風	-9.01408
智	-9.01449
元年	-9.01507
其詩	-9.01609
洲	-9.01774
廬	-9.01864
百年	-9.01905
態	-9.01907
姬	-9.0193
帥	-9.01969
辟	-9.02183
籠	-9.02213
輿	-9.02436
將軍	-9.02463
鹽	-9.02499
見之	-9.027
盈	-9.0272
碎	-9.02737
務	-9.02744
蟬	-9.02752
營	-9.02927
十五	-9.02959
飄	-9.03029
旗	-9.03091
至於	-9.03132
貫	-9.03162
愚	-9.03369
宇	-9.03434
蒲	-9.03513
之後	-9.03644
綺	-9.03653
渚	-9.03738
疊	-9.03767
淮	-9.03795
咏	-9.03893
裁	-9.03955
揺	-9.03961
材	-9.0401
十八	-9.04203
嫌	-9.04238
旅	-9.04249
佩	-9.04259
明皇	-9.04288
屢	-9.0453
肅	-9.04609
晦	-9.04686
粧	-9.0469
戎	-9.04728
踏	-9.04789
鹿	-9.04857
邦	-9.05012
俊	-9.05016
夕陽	-9.0513
憲	-9.05205
換	-9.05302
領	-9.05302
苔	-9.05423
呉旦生曰	-9.0552
繞	-9.05534
擊	-9.05539
廻	-9.05541
納	-9.0559
風流	-9.05672
獲	-9.05792
濃	-9.05795
族	-9.05806
題詩	-9.05895
安得	-9.0603
澗	-9.06054
暫	-9.06055
保	-9.06142
穆	-9.06207
嗣	-9.06233
酬	-9.06282
弓	-9.063
打	-9.06345
託	-9.06345
式	-9.06528
貌	-9.06578
津	-9.06596
寵	-9.06598
介	-9.06603
聨	-9.06706
洞庭	-9.06731
歸來	-9.06789
後人	-9.06906
支	-9.07053
流水	-9.07065
彩	-9.07091
弱	-9.07096
腹	-9.071
湏	-9.07114
冰	-9.07118
渠	-9.07522
佐	-9.0761
衛	-9.07644
筵	-9.07646
柱	-9.07657
陰	-9.07694
可謂	-9.07853
寜	-9.07882
牽	-9.07892
為詩	-9.07895
妄	-9.0793
荆	-9.08027
片	-9.08037
煩	-9.0819
嘆	-9.08381
諫	-9.08383
禹	-9.08412
攜	-9.0845
皮	-9.0845
競	-9.08703
脱	-9.08716
之所	-9.0872
稀	-9.08765
杖	-9.08882
銅	-9.0896
茅	-9.09062
委	-9.09132
尹	-9.09218
藝	-9.0923
奔	-9.09244
舎	-9.09245
蟲	-9.09258
牙	-9.09275
一字	-9.09403
姚	-9.09471
迴	-9.09529
詩也	-9.09733
磨	-9.098
齒	-9.09806
四十	-9.10056
淵明	-9.101
排	-9.10304
奪	-9.10344
廷	-9.10375
輒	-9.10584
卻	-9.10625
沒	-9.1064
為之	-9.10644
彌	-9.10651
壇	-9.10655
江湖	-9.1083
植	-9.10843
巴	-9.10862
菴	-9.10873
校	-9.10907
自是	-9.11038
炎	-9.11127
郎中	-9.11131
茂	-9.11142
饒	-9.11267
靡	-9.11394
澹	-9.11454
肥	-9.11721
古詩	-9.11724
澄	-9.12174
曰此	-9.12192
簷	-9.12277
穴	-9.12283
夣	-9.12307
銷	-9.12465
賣	-9.12863
束	-9.12874
喚	-9.13028
聴	-9.13096
䝉	-9.13098
杜詩	-9.13134
五年	-9.13372
滅	-9.13403
東風	-9.13412
桃花	-9.13466
臯	-9.13562
鱗	-9.13564
韓退之	-9.13595
㳺	-9.13619
慕	-9.13656
敏	-9.1382
塔	-9.13994
文字	-9.14055
侍郎	-9.14109
西湖	-9.1414
喧	-9.14248
李白	-9.14535
會	-9.14555
巨	-9.1458
落花	-9.14737
潛	-9.14754
優	-9.14768
疏	-9.14887
洛陽	-9.14998
腸	-9.15017
喻	-9.15059
往往	-9.15247
忌	-9.1536
馮	-9.15374
厯	-9.15388
璧	-9.15408
杜甫	-9.15457
觧	-9.15664
拙	-9.15908
困	-9.15943
染	-9.15973
階	-9.1598
酌	-9.15988
呈	-9.15992
濕	-9.15999
太宗	-9.16009
忍	-9.16036
用之	-9.16069
亦不	-9.16156
占	-9.16243
諸公	-9.16367
悉	-9.16551
塘	-9.16715
戯	-9.16792
濤	-9.16812
之言	-9.16978
寂	-9.17126
琵琶	-9.17192
以此	-9.17312
窓	-9.17417
雕	-9.17435
預	-9.17443
宰相	-9.17444
肉	-9.17502
辛	-9.17627
慈	-9.17686
樵	-9.17686
囊	-9.17688
攀	-9.17769
其意	-9.17827
伊	-9.17998
佳句	-9.18032
陪	-9.18053
遶	-9.18056
未有	-9.18143
勤	-9.18287
脚	-9.18295
柔	-9.18312
徹	-9.18318
篆	-9.18622
/)(	-9.18805
嫁	-9.18881
害	-9.18895
舜	-9.18903
黒	-9.18917
層	-9.18946
有餘	-9.19036
少陵	-9.19149
戸	-9.19175
隋	-9.19195
啟	-9.192
擇	-9.19227
壑	-9.19437
貞	-9.19446
集中	-9.1947
無所	-9.19552
白樂天	-9.1972
其所	-9.19744
烈	-9.198
敵	-9.19846
左右	-9.1989
愧	-9.19894
此語	-9.19998
塗	-9.20109
麥	-9.20121
寒食	-9.20125
兄弟	-9.20487
有詩云	-9.2059
激	-9.20654
瓦	-9.20686
有所	-9.20933
處士	-9.20948
墮	-9.21328
犯	-9.21356
挂	-9.21614
黨	-9.21654
太子	-9.21719
超	-9.21788
頃	-9.21861
克	-9.22176
網	-9.22211
帖	-9.2224
杜子美	-9.22306
醒	-9.22459
別	-9.22577
鑿	-9.22836
逹	-9.22852
随	-9.22865
庶	-9.23127
䑓	-9.23219
那	-9.23313
知其	-9.23369
圃	-9.23475
專	-9.23766
自然	-9.23772
冩	-9.23808
朝廷	-9.23988
葛	-9.24031
之子	-9.24088
島	-9.24119
趨	-9.24123
密	-9.24428
禍	-9.2443
卑	-9.24434
米	-9.24447
鞭	-9.2445
挽	-9.24463
際	-9.2454
隆	-9.24685
孰	-9.2476
停	-9.2476
閉	-9.24973
子瞻	-9.25004
錯	-9.25046
姿	-9.25095
殷	-9.25327
當年	-9.25345
局	-9.25372
嬌	-9.25382
三月	-9.25395
弔	-9.25413
丈	-9.25502
鈎	-9.25652
寢	-9.2568
開元	-9.25942
途	-9.2596
築	-9.25965
阮	-9.26005
祥	-9.26009
伐	-9.26027
彭	-9.26166
硯	-9.26216
籬	-9.2627
牆	-9.26326
晏	-9.26628
芙蓉	-9.26663
婦人	-9.26681
翰林	-9.26797
九日	-9.26908
可憐	-9.26927
婉	-9.26944
飢	-9.26966
飽	-9.26972
泰	-9.27147
詞云	-9.27198
像	-9.27263
邀	-9.27332
山水	-9.27382
珍	-9.27508
祭	-9.27539
偉	-9.27612
霄	-9.27785
絳	-9.279
謬	-9.27903
紹興	-9.28253
娥	-9.28282
髮	-9.28508
契	-9.28531
人生	-9.28569
遽	-9.28613
返	-9.28631
講	-9.28631
強	-9.28636
歐公	-9.28786
標	-9.28941
旌	-9.28944
十四	-9.2906
曠	-9.2927
詩集	-9.2928
墜	-9.29327
一句	-9.29454
界	-9.29454
帆	-9.29606
飾	-9.29617
襲	-9.29622
桐	-9.29702
年年	-9.29751
董	-9.29913
觴	-9.2994
䕶	-9.29941
渭	-9.30024
主人	-9.30067
五十	-9.30288
啓	-9.3029
牡丹	-9.30297
二字	-9.30333
太平	-9.30452
朋	-9.30507
鎖	-9.30575
倦	-9.30582
一巻	-9.30819
囘	-9.30883
墳	-9.30966
娘	-9.3097
清風	-9.31086
道人	-9.31089
倫	-9.31286
僅	-9.31288
成都	-9.3135
註	-9.3157
毫	-9.31572
麟	-9.31604
慮	-9.31614
得之	-9.31686
落日	-9.31716
何以	-9.31734
缺	-9.31941
誅	-9.3195
付	-9.31971
居士	-9.32064
白日	-9.32125
不是	-9.32273
銜	-9.32274
綴	-9.32286
韶	-9.32313
臥	-9.32316
千載	-9.32564
輝	-9.32565
祐	-9.32567
徙	-9.32576
詣	-9.32603
純	-9.328
一首	-9.32819
泊	-9.32896
憑	-9.32901
襟	-9.33008
江上	-9.33089
撫	-9.33206
紛	-9.33296
謹	-9.33322
誇	-9.33323
貪	-9.33332
自有	-9.33365
南山	-9.33414
促	-9.33641
徧	-9.33643
之間	-9.33647
汗	-9.33674
庾	-9.33974
一人	-9.3398
歸去	-9.33992
携	-9.34027
何事	-9.34096
皇帝	-9.34106
▁(	-9.34188
均	-9.34259
摘	-9.34335
鄙	-9.34362
緣	-9.34383
其間	-9.34387
曰吾	-9.34519
祝	-9.34668
袁	-9.34687
慙	-9.34712
騰	-9.34748
十里	-9.34798
瘦	-9.35059
學者	-9.35159
雀	-9.35211
量	-9.35294
二人	-9.35298
鑑	-9.35314
提	-9.35356
两	-9.3542
敎	-9.35429
使君	-9.35443
明年	-9.35602
廬山	-9.35656
麻	-9.35682
府志	-9.35727
綵	-9.35732
押	-9.3594
觸	-9.36077
藉	-9.36093
几	-9.36122
灰	-9.36142
而後	-9.36201
活	-9.36442
違	-9.36462
蠻	-9.36464
緩	-9.36473
宏	-9.36744
天上	-9.3679
潜	-9.36801
庸	-9.36835
策	-9.36853
喬	-9.37088
寂寞	-9.37178
證	-9.37188
織	-9.37386
東坡云	-9.37392
輦	-9.37414
滴	-9.37463
蝶	-9.3753
熊	-9.37536
遭	-9.37543
千古	-9.37794
防	-9.37871
黄金	-9.37885
快	-9.37905
乃知	-9.37943
竿	-9.37963
亮	-9.37969
時人	-9.37984
何如	-9.38076
出於	-9.381
刑	-9.3852
鄧	-9.3857
第三	-9.38577
皷	-9.3859
陋	-9.38957
弗	-9.38963
責	-9.39011
相思	-9.391
役	-9.39209
脩	-9.39264
芝	-9.39268
竇	-9.39299
以其	-9.39307
剪	-9.39339
悠悠	-9.39375
揚州	-9.39384
嘲	-9.39646
庚	-9.39672
瑶	-9.39673
場	-9.39703
探	-9.39711
羙	-9.39714
四海	-9.39757
致仕	-9.39849
也然	-9.39944
板	-9.40073
隣	-9.40104
瞻	-9.40135
山川	-9.40347
岑	-9.4041
勒	-9.40466
黙	-9.40466
卓	-9.40468
之義	-9.40732
徘徊	-9.40831
月明	-9.41103
富貴	-9.41112
歟	-9.41202
東南	-9.41281
揮	-9.41387
隴	-9.41421
軰	-9.41432
州刺史	-9.41451
雍	-9.41502
明日	-9.41517
巷	-9.41569
其事	-9.4162
不為	-9.4174
如今	-9.41871
元和	-9.41879
頓	-9.41942
御史	-9.42136
不用	-9.42208
祀	-9.42273
宦	-9.42286
吴	-9.42295
埋	-9.42313
欽定四庫全書	-9.42338
贊	-9.4238
千年	-9.42385
判	-9.42458
今人	-9.42522
卜	-9.42547
行人	-9.42585
未必	-9.42647
獄	-9.42692
剛	-9.42731
語也	-9.42903
其二	-9.4295
春日	-9.42968
諧	-9.43023
傑	-9.43029
綿	-9.43043
於是	-9.43067
閨	-9.43088
桞	-9.43105
賤	-9.432
之作	-9.43269
藍	-9.43388
獵	-9.43436
盃	-9.43482
有詩	-9.43681
床	-9.4376
記云	-9.43769
團	-9.43798
凍	-9.43818
郷	-9.43822
費	-9.43845
蒙	-9.442
偃	-9.4423
乾坤	-9.44235
焚	-9.445
晁	-9.44569
筍	-9.44615
欽	-9.44655
而去	-9.44667
也又	-9.44706
四句	-9.44715
故事	-9.44842
之事	-9.44881
之文	-9.44926
一聲	-9.44963
霽	-9.44996
西山	-9.45023
畱	-9.45044
何時	-9.45328
榜	-9.45338
悔	-9.4534
弦	-9.45372
況	-9.45405
蓬萊	-9.45405
暇	-9.45456
春色	-9.45611
十六	-9.45654
震	-9.45743
賛	-9.45745
擢	-9.45758
藤	-9.45789
堆	-9.45799
茍	-9.45809
能詩	-9.46088
乳	-9.46168
以來	-9.46169
玄	-9.46192
登第	-9.46324
嶽	-9.46384
見其	-9.46527
西風	-9.46716
遍	-9.46959
是時	-9.47168
姓名	-9.47169
徴	-9.47279
畔	-9.4733
肆	-9.47332
仗	-9.47341
其名	-9.47388
字子	-9.47591
江山	-9.47629
欺	-9.47718
戚	-9.4772
灑	-9.47744
膏	-9.47757
襄	-9.47868
亦可	-9.48027
筠	-9.48093
纎	-9.48107
媚	-9.48172
相見	-9.48172
警	-9.48331
峽	-9.48349
苕溪漁隱曰	-9.48368
虹	-9.48519
亞	-9.48541
吞	-9.48897
不然	-9.4892
俯	-9.48924
痕	-9.4895
鬚	-9.48961
徵	-9.48984
宛	-9.491
人家	-9.49225
汪	-9.49315
統	-9.49329
時有	-9.49342
之以	-9.49354
媿	-9.49357
四年	-9.49527
相逢	-9.49656
值	-9.49698
掛	-9.49752
終日	-9.49769
簫	-9.49922
八月	-9.49927
芳草	-9.50021
江西	-9.50056
熙	-9.50092
灘	-9.50124
救	-9.50136
美人	-9.50156
偷	-9.50161
海棠	-9.50202
練	-9.50226
蕭蕭	-9.50229
晋	-9.50483
展	-9.50506
倉	-9.50519
不成	-9.50658
乍	-9.5096
惆悵	-9.5098
讓	-9.51014
宵	-9.51189
君王	-9.51197
十三	-9.51266
非也	-9.51369
遙	-9.51371
包	-9.51377
托	-9.51384
扉	-9.51396
錢塘	-9.51431
蛇	-9.51662
得其	-9.51664
慎	-9.51738
戀	-9.51807
數十	-9.51955
文選	-9.52183
拘	-9.52192
眀	-9.52199
遜	-9.52204
惟有	-9.52287
丞	-9.52315
給	-9.52401
賓	-9.52521
整	-9.52565
喪	-9.52584
摩	-9.52585
𢎞	-9.52612
自號	-9.52617
損	-9.52638
閩書	-9.52656
故曰	-9.52837
箋	-9.53
皆有	-9.53005
𤓰	-9.53013
宣和	-9.53038
弼	-9.53054
脂	-9.53065
垣	-9.53077
分明	-9.53241
有一	-9.53281
騷	-9.53333
杭	-9.53354
箇	-9.53368
允	-9.5341
邵	-9.53424
裘	-9.53465
五代	-9.53543
暉	-9.53797
謙	-9.53858
諌	-9.53873
廊	-9.53875
夾	-9.53878
閲	-9.53885
蒸	-9.53903
舌	-9.53905
墻	-9.5391
棊	-9.53922
日暮	-9.53931
或云	-9.5394
塲	-9.53947
女子	-9.54
唐詩	-9.54045
相如	-9.54154
辯	-9.54263
犬	-9.54285
衍	-9.54315
徽	-9.5432
然後	-9.54366
老人	-9.54408
回首	-9.54425
幹	-9.54542
二公	-9.5455
娶	-9.54554
憤	-9.54715
豈不	-9.5493
一笑	-9.5494
淳	-9.55102
翔	-9.55113
淨	-9.5513
涉	-9.55136
棹	-9.55146
圗	-9.55206
厥	-9.55331
用此	-9.55347
悞	-9.55382
朔	-9.55408
前輩	-9.5545
鮑	-9.55473
暑	-9.55478
他人	-9.55547
患	-9.55566
爽	-9.55943
余觀	-9.55964
焦	-9.55984
偽	-9.55999
饑	-9.56008
律詩	-9.56075
門外	-9.56224
群	-9.5637
讀之	-9.56379
人皆	-9.56677
言之	-9.56705
衫	-9.56744
鷗	-9.56771
駐	-9.56874
忙	-9.56912
禄	-9.56928
其人	-9.57155
𦵏	-9.57284
蕪	-9.57331
浩	-9.57341
槐	-9.57365
勉	-9.57723
序云	-9.57738
舘	-9.57773
岐	-9.57778
削	-9.57779
不識	-9.5778
杭州	-9.57806
其言	-9.57891
世間	-9.57956
二首	-9.57959
鷺	-9.57975
者皆	-9.57985
後世	-9.58124
檻	-9.58199
鴉	-9.58203
點	-9.58203
辱	-9.58207
菜	-9.58242
白頭	-9.58467
後主	-9.58525
一枝	-9.58618
邁	-9.58655
士大夫	-9.58659
羡	-9.58673
山下	-9.5886
涕	-9.58973
州人	-9.58991
濶	-9.59088
播	-9.59113
王荆公	-9.59117
不堪	-9.59141
然則	-9.59224
寅	-9.59515
肩	-9.59522
紗	-9.59528
蘿	-9.59531
寡	-9.59539
暴	-9.59559
行云	-9.59605
頂	-9.59806
誥	-9.59894
逆	-9.5994
抛	-9.59977
抑	-9.60001
蘓	-9.60028
使人	-9.60378
鴛鴦	-9.60399
苕溪漁隠曰	-9.60458
歇	-9.60462
十餘	-9.60571
不必	-9.60807
子孫	-9.6089
欄	-9.60893
陣	-9.60911
不盡	-9.60981
未知	-9.61005
陌	-9.61088
門前	-9.61115
中書	-9.61175
令人	-9.61288
配	-9.61308
乖	-9.61331
認	-9.61336
循	-9.61353
軸	-9.61353
攻	-9.61366
署	-9.61762
覩	-9.61792
哲	-9.61793
幼	-9.61801
袍	-9.61813
爵	-9.61824
李杜	-9.6197
河南	-9.6199
誕	-9.62189
慚	-9.62233
價	-9.62259
橘	-9.62266
檄	-9.62278
懼	-9.62298
紛紛	-9.62311
飲酒	-9.62499
鬱	-9.62599
俞	-9.6263
属	-9.62667
艶	-9.62728
較	-9.62732
拾	-9.63081
鋪	-9.63145
児	-9.63201
笑曰	-9.63202
多少	-9.63203
羮	-9.63243
他日	-9.63537
檢	-9.63596
七十	-9.63633
闌	-9.63641
躍	-9.63645
榻	-9.63649
裂	-9.63655
鬬	-9.63661
蕃	-9.63661
遮	-9.63682
閱	-9.63683
花落	-9.63712
一名	-9.63755
僻	-9.63987
増	-9.64099
斧	-9.64131
元祐	-9.64209
紹	-9.64393
公子	-9.64473
昇	-9.64491
從此	-9.64492
獸	-9.64501
桃李	-9.64517
其中	-9.64529
桓	-9.64535
詩云云	-9.64561
顛	-9.64567
暢	-9.64578
鼻	-9.65003
勇	-9.65014
蹤	-9.65027
蔽	-9.65052
隅	-9.65052
潁	-9.65057
慘	-9.65066
玩	-9.6507
輸	-9.65075
三百	-9.65109
浮雲	-9.65261
樽	-9.65262
作者	-9.65357
佳人	-9.65484
男	-9.65498
譽	-9.65499
臘	-9.65513
瑩	-9.65527
綱	-9.65545
襄陽	-9.65582
無復	-9.65743
禪師	-9.6585
歌云	-9.65949
衮	-9.65949
遵	-9.65968
従	-9.65974
爛	-9.65988
古今詩話	-9.6613
世傳	-9.66275
察	-9.66392
痛	-9.66424
攷	-9.66458
的	-9.66467
臂	-9.66507
熈	-9.6651
扁舟	-9.66529
熱	-9.66539
笙	-9.66647
歌舞	-9.66702
萬古	-9.66736
單	-9.66773
何必	-9.66851
勲	-9.66927
緯	-9.66931
武帝	-9.6698
榖	-9.66982
絶句云	-9.67007
氣象	-9.67373
誓	-9.674
樊	-9.67408
料	-9.67423
圭	-9.67431
慰	-9.67447
豫章	-9.6747
司空	-9.67591
以爲	-9.67627
坊	-9.67873
祗	-9.67906
句法	-9.67945
之士	-9.67957
刋	-9.67965
二子	-9.68034
限	-9.68093
人以	-9.68114
不相	-9.68149
酣	-9.68223
聮	-9.68303
鈞	-9.68441
楓	-9.68452
長沙	-9.68465
夢中	-9.68626
而巳	-9.68638
白髪	-9.68695
仄	-9.68707
靖	-9.68741
次韻	-9.68776
無事	-9.68826
褒	-9.68826
拍	-9.6884
敷	-9.68861
擲	-9.68872
䦨	-9.68897
耀	-9.6892
涵	-9.68929
玉堂	-9.68931
二月	-9.68948
速	-9.68959
有人	-9.69024
街	-9.69028
其一	-9.69122
上有	-9.69241
本朝	-9.69321
書云	-9.6937
斑	-9.69377
僚	-9.6938
栽	-9.69412
東西	-9.69418
梢	-9.69444
録云	-9.69656
夫子	-9.69746
議論	-9.69791
項	-9.69872
割	-9.69879
蜂	-9.69882
戍	-9.69884
浸	-9.69892
逼	-9.69893
鷹	-9.69906
蠶	-9.69917
有此	-9.70027
不在	-9.70033
三千	-9.70036
審	-9.70097
余嘗	-9.70148
其詞	-9.70245
閭	-9.70391
汲	-9.70821
弟子	-9.70853
不覺	-9.70872
子厚	-9.70892
闊	-9.70901
瓶	-9.70904
拔	-9.70912
柯	-9.70917
是以	-9.71
各有	-9.71123
裙	-9.71316
栢	-9.71349
魄	-9.71367
岡	-9.71409
一片	-9.71419
頴	-9.71426
峭	-9.71432
玊	-9.7144
者如	-9.71536
史記	-9.71704
今朝	-9.71826
世人	-9.71847
不忍	-9.71855
研	-9.71857
貽	-9.71868
亦云	-9.71892
聞之	-9.71897
䨇	-9.71914
箴	-9.71915
彥	-9.71919
文公	-9.722
得意	-9.72231
抵	-9.72244
其文	-9.72259
八十	-9.72345
阻	-9.72394
妍	-9.72394
栖	-9.72398
磬	-9.72407
障	-9.72436
風月	-9.72536
三日	-9.72633
楊栁	-9.72728
建安	-9.72774
檀	-9.72873
挾	-9.72885
句云	-9.72916
嗚呼	-9.72946
花開	-9.72947
所居	-9.73021
也故	-9.73112
不過	-9.73143
謨	-9.73203
余謂	-9.7325
歐陽	-9.73349
繩	-9.73415
鑄	-9.73422
跋	-9.73441
劉禹錫	-9.73499
無窮	-9.73577
雉	-9.73871
王維	-9.73881
以下	-9.73889
詩句	-9.73928
酸	-9.73935
輙	-9.73958
鯨	-9.74012
言其	-9.74165
李太白	-9.74308
近世	-9.74358
冥	-9.74366
一夜	-9.74402
㝷	-9.74448
六朝	-9.74448
摧	-9.74452
鄴	-9.74454
衝	-9.74464
藩	-9.74473
霑	-9.74476
俄	-9.74488
鵲	-9.74492
靣	-9.74493
蟾	-9.74495
不勝	-9.74529
也其	-9.74832
嗜	-9.74869
葵	-9.74964
少游	-9.74985
搖	-9.74986
冝	-9.75001
豆	-9.7503
此意	-9.7504
進士第	-9.75134
蘇州	-9.75156
拾遺	-9.75157
十九	-9.75383
乙	-9.75424
左傳	-9.75447
捨	-9.75497
誰能	-9.7559
昔人	-9.75615
布衣	-9.75703
七年	-9.75704
與之	-9.75709
正月	-9.7571
為文	-9.75711
一曲	-9.75773
臨川	-9.75783
太祖	-9.7587
援	-9.75876
草堂	-9.75899
不肯	-9.7595
䑕	-9.75954
壁間	-9.75961
奚	-9.76017
劇	-9.76021
浴	-9.76026
丹青	-9.76059
巡	-9.76085
峻	-9.76085
徃徃	-9.76092
互	-9.76175
十七	-9.76194
永叔	-9.76243
不若	-9.76322
漢書	-9.76392
綸	-9.76427
柏	-9.76514
訛	-9.7656
癡	-9.76572
旬	-9.76593
揚雄	-9.76639
諡	-9.76767
朴	-9.77003
清明	-9.77037
甚多	-9.77053
聖俞	-9.77067
匹	-9.77113
搜	-9.77119
樞	-9.77132
黑	-9.77133
參差	-9.77138
大抵	-9.77293
江東	-9.77322
跨	-9.77631
傲	-9.77652
宫中	-9.77683
人多	-9.77824
天涯	-9.77861
聯	-9.77867
一百	-9.77873
此時	-9.77927
諸侯	-9.77938
詩中	-9.77941
翰林學士	-9.77969
㢤	-9.78027
粟	-9.78104
秉	-9.78117
厲	-9.78155
縈	-9.78163
汀	-9.78187
曙	-9.78191
丙	-9.78192
亥	-9.78209
五月	-9.78355
衢	-9.78444
其家	-9.78619
䟦	-9.78642
縷	-9.78643
薨	-9.78644
必有	-9.7872
靄	-9.7872
稻	-9.78721
鉤	-9.78744
嵩	-9.78811
人也	-9.78815
蘆	-9.78977
兩句	-9.78996
刺史	-9.79
絮	-9.79058
二句	-9.79122
其子	-9.79148
八年	-9.79148
確	-9.79204
及第	-9.79213
區	-9.79227
淑	-9.79229
勁	-9.79258
鴨	-9.79265
覓	-9.79294
箭	-9.79302
山谷云	-9.7934
四方	-9.79529
艾	-9.79752
拱	-9.79812
則有	-9.79816
堤	-9.79855
韓愈	-9.79933
取其	-9.79944
詩一	-9.79982
鄭谷	-9.80041
名曰	-9.80219
派	-9.8027
六年	-9.80295
六十	-9.80318
豔	-9.80322
悦	-9.80328
歛	-9.8035
砌	-9.80382
妖	-9.80388
之詞	-9.80492
曲江	-9.80591
昨夜	-9.80611
者為	-9.80694
此句	-9.8084
淮南	-9.80896
逝	-9.80935
遼	-9.80943
廵	-9.80958
九月	-9.81021
槩	-9.81253
無限	-9.81268
如是	-9.81408
滑	-9.81427
恵	-9.81439
從來	-9.8147
矜	-9.81484
杜鵑	-9.81492
千金	-9.81635
嘗作	-9.81837
春水	-9.8184
南唐	-9.81844
蘂	-9.81852
艸	-9.81976
烹	-9.81988
伸	-9.82013
鎻	-9.82034
驗	-9.82043
謾	-9.82044
汴	-9.82048
二詩	-9.82226
一生	-9.82337
二年進士	-9.82345
之說	-9.82394
肇	-9.82474
毅	-9.82508
簿	-9.82513
枚	-9.82527
揖	-9.82579
欠	-9.82587
踰	-9.82618
二十年	-9.8263
餅	-9.82636
鼔	-9.82638
台	-9.82752
三尺	-9.82775
秀才	-9.82853
草木	-9.82862
詩話云	-9.82869
釵	-9.83008
仙人	-9.83104
滋	-9.83117
湛	-9.83123
賴	-9.83157
鷄	-9.83159
鸚鵡	-9.83181
塵埃	-9.83199
叚	-9.83236
出處	-9.83359
第二	-9.8337
由是	-9.83451
天台	-9.83528
之妙	-9.83537
衣冠	-9.83572
此事	-9.83671
毁	-9.83702
蔣	-9.83708
牋	-9.83713
叠	-9.83719
盟	-9.83731
黎	-9.83746
不應	-9.83765
歷	-9.83794
誠齋	-9.83799
六月	-9.84154
上下	-9.84185
捲	-9.84187
語意	-9.84256
躬	-9.84262
逃	-9.84273
嬾	-9.84273
岩	-9.84277
艷	-9.84282
額	-9.84284
梅聖俞	-9.84362
詰	-9.84367
介甫	-9.84669
張籍	-9.84718
杜牧	-9.84722
樓臺	-9.84726
者以	-9.84762
犀	-9.84766
帛	-9.84796
誣	-9.84818
産	-9.8486
離騷	-9.84869
怕	-9.84879
乏	-9.84882
討	-9.84902
造化	-9.85022
誰家	-9.85305
宸	-9.85374
兆	-9.85381
恠	-9.85395
狐	-9.85405
敲	-9.85431
叅	-9.85431
羲	-9.85437
蕙	-9.85439
梧	-9.85443
濯	-9.85458
一絶	-9.85474
相公	-9.85476
崩	-9.85477
則曰	-9.85481
何所	-9.85616
前人	-9.85731
祕	-9.85802
可見	-9.85909
淫	-9.8595
中興	-9.85959
協	-9.85964
簮	-9.85994
㟁	-9.86069
功名	-9.86277
杜牧之	-9.86353
舍人	-9.86403
孔子	-9.86472
鞍	-9.86517
副	-9.86543
掖	-9.86582
珪	-9.86585
渉	-9.8659
享	-9.8662
㦸	-9.86632
元作	-9.86759
四時	-9.86891
往來	-9.86896
風雅	-9.86986
王直方詩話云	-9.87006
同上	-9.87018
嘯	-9.87021
顔色	-9.87028
元豐	-9.87044
豈非	-9.87077
惑	-9.87149
漲	-9.87157
礙	-9.87172
䘮	-9.87177
蟠	-9.87204
架	-9.87213
前後	-9.87227
不書	-9.87342
對曰	-9.87436
皆以	-9.87452
其語	-9.87452
從事	-9.87522
胥	-9.87687
倡	-9.8769
溫	-9.87736
姦	-9.87738
杏	-9.87768
擅	-9.8778
谿	-9.8778
森	-9.87803
陛下	-9.87883
栗	-9.879
黄昏	-9.88019
南北	-9.88071
山寺	-9.881
子由	-9.88202
滄浪	-9.88293
敦	-9.88352
橫	-9.88366
庵	-9.88378
梵	-9.88379
諸人	-9.88385
驕	-9.88399
懶	-9.884
儲	-9.88404
併	-9.88414
或曰	-9.88558
太學	-9.88618
士人	-9.88768
瑟	-9.88859
嘗有	-9.88881
秩	-9.88931
戈	-9.8895
斥	-9.88956
弊	-9.88962
基	-9.89008
則知	-9.89063
公主	-9.89246
去年	-9.89316
莽	-9.89521
纂	-9.8956
狼	-9.89569
王建	-9.89576
芒	-9.89578
迥	-9.896
叩	-9.89606
年少	-9.89625
相似	-9.89634
友人	-9.89653
而無	-9.89702
之名	-9.89786
武夷	-9.898
傳云	-9.89956
不到	-9.89971
湖州	-9.90007
聫	-9.90044
贈之	-9.90075
篤	-9.90106
上人	-9.90107
稽	-9.90107
柴	-9.90108
不自	-9.9012
範	-9.90126
閤	-9.90133
䖍	-9.90134
収	-9.90155
冦	-9.90178
潔	-9.90218
裳	-9.90296
大笑	-9.90395
萬事	-9.90415
亦自	-9.90442
而意	-9.90573
所載	-9.90576
十月	-9.90647
儉	-9.90763
昆	-9.9078
數百	-9.90785
魁	-9.90791
専	-9.90803
謡	-9.90828
瀟湘	-9.90838
槎	-9.90838
滄海	-9.90884
所得	-9.90905
番	-9.91107
秘	-9.91135
可喜	-9.91243
送人	-9.91266
盡日	-9.91367
旨	-9.91401
盜	-9.91409
祈	-9.91419
逈	-9.91422
㑹稽	-9.91432
帷	-9.91433
匠	-9.91451
茫茫	-9.91467
盛唐	-9.91567
百餘	-9.91595
城南	-9.91643
之辭	-9.91681
爾雅	-9.91712
唯有	-9.9172
一曰	-9.91733
夢得	-9.91803
三十六	-9.91806
足以	-9.91904
精神	-9.91965
壘	-9.92025
模	-9.92034
混	-9.92044
酷	-9.92051
煮	-9.92068
詢	-9.92072
觀其	-9.92136
齡	-9.92257
十一	-9.92297
詩者	-9.92341
之外	-9.92416
武陵	-9.92562
詩家	-9.9258
突	-9.92621
鑒	-9.92623
數日	-9.92638
出門	-9.92642
餞	-9.92647
覔	-9.92682
婢	-9.92689
逾	-9.92718
下句	-9.92848
見於	-9.93089
壻	-9.93192
踐	-9.93248
登臨	-9.93253
呂	-9.93256
斤	-9.93261
遐	-9.93262
屯	-9.93269
裝	-9.93274
眺	-9.93291
透	-9.933
衞	-9.93305
奮	-9.93343
不待	-9.93472
公之	-9.93577
青雲	-9.93665
稱其	-9.9369
濁	-9.9374
子羙	-9.93758
艱	-9.93815
事也	-9.93872
鍊	-9.93884
升菴	-9.93894
珊瑚	-9.93895
摹	-9.939
撥	-9.93902
鋒	-9.93907
枉	-9.93934
天寳	-9.93987
縱横	-9.94005
百里	-9.94059
君不見	-9.94152
舉進士	-9.94307
節度	-9.94312
棠	-9.94398
山色	-9.94468
綬	-9.94515
竄	-9.94519
嵐	-9.94525
淪	-9.94546
畵	-9.94566
虜	-9.94572
宋玉	-9.94655
愛其	-9.94744
鬼神	-9.94831
可知	-9.94854
景物	-9.94898
夜深	-9.94905
而卒	-9.94933
楊柳	-9.94999
幅	-9.95125
緒	-9.95128
苗	-9.95136
呌	-9.95151
茗	-9.95163
創	-9.95168
鸖	-9.95169
粗	-9.95174
醫	-9.95177
蜀人	-9.95178
滕	-9.95179
甕	-9.9518
㓜	-9.95191
者亦	-9.95193
自謂	-9.95325
唐末	-9.95351
論詩	-9.95374
誰知	-9.95576
好事者	-9.95594
青青	-9.95653
二十四	-9.95673
山林	-9.95687
猶未	-9.9571
鳬	-9.95768
韵	-9.9577
偕	-9.95787
衾	-9.95795
窟	-9.95812
眷	-9.95836
㠶	-9.95836
主簿	-9.9584
倍	-9.95847
其實	-9.96068
駭	-9.96443
闢	-9.96467
墓誌	-9.96474
顏	-9.96482
牢	-9.96492
舂	-9.96526
車馬	-9.967
不須	-9.96739
山人	-9.96911
䕫	-9.96921
欣	-9.96922
歌行	-9.97021
一絶云	-9.97034
鷓鴣	-9.97066
捧	-9.97094
俾	-9.97099
髯	-9.9711
无	-9.9712
員外	-9.97128
猨	-9.97129
蜨	-9.97139
孟浩然	-9.97147
江水	-9.97148
上元	-9.97199
奈何	-9.97333
英雄	-9.97337
華山	-9.97344
所見	-9.97395
不當	-9.97466
猶在	-9.97598
髻	-9.9772
仇	-9.97727
謗	-9.97733
閻	-9.97733
肝	-9.97738
毒	-9.97754
昻	-9.97755
忩	-9.97766
岫	-9.97778
究	-9.97792
鵝	-9.97824
郤	-9.97841
人所	-9.97938
金石	-9.97941
東都	-9.97954
為人	-9.97965
諸生	-9.97978
有意	-9.97989
有集	-9.98019
公曰	-9.98117
隠居	-9.98223
政和	-9.98367
陂	-9.98378
盆	-9.98426
𨽻	-9.98426
壤	-9.98432
斬	-9.98433
欵	-9.98434
猶有	-9.98436
牕	-9.98455
詎	-9.9846
桃源	-9.9852
賈島	-9.98523
同時	-9.98531
形容	-9.98646
株	-9.98666
與君	-9.98685
有時	-9.98741
一朝	-9.98936
古樂府	-9.98978
小人	-9.9902
瑤	-9.99066
旱	-9.99069
恥	-9.99077
電	-9.99079
捕	-9.9909
杏花	-9.99122
膽	-9.99123
沼	-9.99136
遂以	-9.9916
無心	-9.99211
五色	-9.99212
雖有	-9.99305
判官	-9.99339
出入	-9.9942
公卿	-9.99424
作也	-9.9943
嶠	-9.99508
一夕	-9.99566
庫	-9.99708
琳	-9.99729
㡌	-9.99732
處處	-9.99762
劔	-9.99772
人物	-9.99786
逕	-9.99795
蜜	-9.99841
昨	-9.99912
黄州	-9.99924
白髮	-9.99992
全篇	-9.99996
未能	-10.0004
第四	-10.001
家有	-10.0018
復齋漫録云	-10.0025
今年	-10.0026
五更	-10.0027
中丞	-10.0029
亦無	-10.003
題云	-10.003
囬	-10.0032
皓	-10.0033
無不	-10.0033
椒	-10.0036
戊	-10.0036
鄒	-10.0036
段	-10.0038
沖	-10.004
紋	-10.004
當以	-10.004
莖	-10.004
諭	-10.0042
韋蘇州	-10.0042
匪	-10.0043
闈	-10.0043
冶	-10.0044
十巻	-10.0074
别離	-10.008
决	-10.0087
裡	-10.0097
東山	-10.0102
兎	-10.0105
悽	-10.0107
洽	-10.0107
參軍	-10.0109
䜟	-10.0109
函	-10.0109
俚	-10.0111
灣	-10.0114
䖏	-10.0136
官至	-10.014
相對	-10.0144
終不	-10.0147
福州	-10.0151
唐書	-10.0157
李義山	-10.0164
久之	-10.0166
麓	-10.017
姜	-10.0172
小兒	-10.0175
革	-10.0177
蔓	-10.0177
秪	-10.0178
毬	-10.0179
啄	-10.0181
中原	-10.0181
三十年	-10.0195
丈夫	-10.0199
相與	-10.0203
梨花	-10.0206
西清詩話云	-10.0229
裹	-10.0243
衙	-10.0245
繪	-10.0246
裕	-10.0247
牓	-10.0249
漠漠	-10.0249
鼇	-10.025
字仲	-10.0255
諸子	-10.0256
道中	-10.0261
無一	-10.0261
零落	-10.0264
宫詞	-10.027
不知其	-10.0273
舅	-10.0304
醜	-10.0307
無情	-10.0309
倅	-10.0314
屐	-10.0314
洎	-10.0315
之則	-10.0316
畝	-10.0316
螢	-10.0317
苐	-10.0318
翫	-10.032
奈	-10.0331
荀	-10.0353
長江	-10.0356
唱和	-10.0357
千秋	-10.037
夭	-10.0373
蹟	-10.0376
人心	-10.0378
邕	-10.0379
頼	-10.038
駒	-10.0383
知之	-10.0383
帯	-10.0385
鵬	-10.0386
知制誥	-10.0386
芽	-10.0386
秖	-10.039
自言	-10.039
禮部	-10.0396
稱之	-10.0402
天寶	-10.0407
間有	-10.0428
域	-10.0439
尼	-10.0442
不歸	-10.0449
汾	-10.045
叶	-10.0451
拳	-10.0452
兔	-10.0452
貯	-10.0452
億	-10.0453
朗	-10.0454
罕	-10.0454
簟	-10.0454
薰	-10.0454
溢	-10.0454
恃	-10.0454
帽	-10.0455
壊	-10.0456
聳	-10.0456
寂寥	-10.0457
膺	-10.0457
朶	-10.046
有云	-10.046
十日	-10.0473
一聨	-10.0483
得一	-10.0487
燕子	-10.0501
也今	-10.0507
也按	-10.0516
亟	-10.0522
姪	-10.0523
京兆	-10.0524
箕	-10.0525
捷	-10.0525
滯	-10.0531
屈原	-10.0533
白石	-10.0535
浙	-10.0545
亦何	-10.0553
歐	-10.0558
秋色	-10.0558
廣陵	-10.0563
不出	-10.0573
春草	-10.0578
是非	-10.0581
慢	-10.0587
漆	-10.0591
忤	-10.0593
誄	-10.0593
淳熙	-10.0596
猛	-10.0597
梯	-10.0598
㝠	-10.0599
覧	-10.06
麾	-10.06
琢	-10.06
歴代詩話巻	-10.0601
斜陽	-10.0626
變化	-10.0627
札	-10.066
数	-10.0662
蟻	-10.0663
詩以	-10.0664
様	-10.0666
寕	-10.0667
膝	-10.0667
状	-10.0667
痩	-10.0667
抽	-10.0668
屠	-10.0668
訴	-10.0673
逄	-10.0674
未可	-10.0674
視之	-10.0685
謔	-10.0708
或謂	-10.0709
上句	-10.0731
則是	-10.0731
出知	-10.0733
抗	-10.0734
豹	-10.0734
增	-10.0735
簪	-10.0737
匡	-10.0738
俟	-10.074
犢	-10.0741
洞霄	-10.0742
猷	-10.0742
以後	-10.0742
有三	-10.0747
同前	-10.0752
孟郊	-10.0755
通判	-10.0755
黄魯直	-10.0767
者曰	-10.0769
石林詩話云	-10.0777
至此	-10.0792
導	-10.0802
堦	-10.0806
凄	-10.0808
溝	-10.0809
咽	-10.0809
媒	-10.0809
凢	-10.0809
李賀	-10.081
㕔	-10.0813
邸	-10.0813
鳯凰	-10.0817
相傳	-10.0818
閉門	-10.0837
有二	-10.0855
此地	-10.0858
不言	-10.0867
夜半	-10.0878
𬒳	-10.088
慧	-10.0883
祿	-10.0883
癸	-10.0884
李氏	-10.0884
丸	-10.0885
遁	-10.0885
竭	-10.0885
薪	-10.0886
笠	-10.0886
纒	-10.0886
梳	-10.0887
絡	-10.0887
綉	-10.0888
伎	-10.0893
半夜	-10.0897
白首	-10.0905
以文	-10.0907
未見	-10.0916
歐陽公	-10.0919
浩然	-10.0919
始知	-10.092
故鄉	-10.0932
流落	-10.0942
新詩	-10.0947
減	-10.0947
志云	-10.0949
霍	-10.0952
㧞	-10.0957
篋	-10.0961
紹聖	-10.0965
未易	-10.0973
同年	-10.0976
三人	-10.0976
林下	-10.0976
世俗	-10.0982
自古	-10.0995
荆州	-10.0996
何也	-10.1001
世事	-10.1005
依舊	-10.1009
今古	-10.1024
汎	-10.1027
浄	-10.1027
其辭	-10.1029
驟	-10.103
四月	-10.103
之上	-10.1035
海上	-10.1037
夜雨	-10.1045
臨安	-10.1047
漢魏	-10.1047
王氏	-10.1047
童子	-10.1056
之地	-10.1087
昔年	-10.1092
柄	-10.1094
穀	-10.1099
侈	-10.11
煎	-10.1101
謠	-10.1102
矯	-10.1104
粹	-10.1106
溼	-10.1106
嵓	-10.1107
冲	-10.1107
妝	-10.1108
翳	-10.1109
郢	-10.1113
梧桐	-10.1115
嘉祐	-10.1117
漁父	-10.1125
細雨	-10.1131
譬	-10.1132
百尺	-10.1135
之法	-10.1145
一㸃	-10.1145
湖上	-10.115
不知何	-10.115
巫山	-10.1151
幾時	-10.1152
賔客	-10.1153
相國	-10.1154
零	-10.1162
詩如	-10.1162
嘗為	-10.1162
義山	-10.1167
懿	-10.1172
山河	-10.1174
落葉	-10.1176
毋	-10.1178
慵	-10.118
訝	-10.118
湧	-10.1181
秋日	-10.1182
截	-10.1184
插	-10.1185
怯	-10.1187
造語	-10.1188
措	-10.119
金華	-10.1195
觀之	-10.1207
為一	-10.121
其上	-10.1219
聞道	-10.1221
白雪	-10.1236
筆力	-10.1241
河東	-10.1243
亷	-10.1249
空山	-10.125
而有	-10.1251
彬	-10.1254
綽	-10.1255
杳	-10.1256
萍	-10.1257
霖	-10.1257
不減	-10.127
詩文	-10.127
太尉	-10.1273
錢唐	-10.1288
不以	-10.1292
字韻	-10.1322
濵	-10.1323
瑣	-10.1326
鈿	-10.1327
悼	-10.1327
版	-10.133
樞密	-10.1333
嫩	-10.1333
庠	-10.1336
卒贈	-10.1337
迫	-10.1338
北山	-10.1339
摶	-10.1342
于此	-10.1349
者謂	-10.135
可惜	-10.1355
兒童	-10.136
不合	-10.1361
父子	-10.1367
孟子	-10.137
使者	-10.1384
之氣	-10.1386
老子	-10.1398
姑蘇	-10.14
鵠	-10.14
二百	-10.1402
然而	-10.1405
轡	-10.1407
繇	-10.1407
線	-10.1408
頰	-10.1408
黍	-10.1409
完	-10.141
云此	-10.1413
雋	-10.1414
拆	-10.1414
第五	-10.1415
失之	-10.1416
鬭	-10.1416
劉夢得	-10.1417
不聞	-10.1418
又作	-10.1424
沾	-10.1426
蔡寛夫詩話云	-10.1426
下有	-10.1427
宫人	-10.144
涯	-10.1452
則又	-10.1461
知名	-10.1462
碧雲	-10.1462
千萬	-10.1466
甲子	-10.1467
一詩	-10.1481
衲	-10.1485
恣	-10.1489
偈	-10.149
決	-10.149
耿	-10.149
中書舍人	-10.1491
膠	-10.1493
蟹	-10.1493
績	-10.1494
之盛	-10.1501
蘇子瞻	-10.1501
九重	-10.1505
西南	-10.1509
也余	-10.1513
所稱	-10.1531
置酒	-10.1537
文士	-10.1543
一年	-10.1544
自稱	-10.155
稷	-10.1556
蛟	-10.1559
括	-10.156
填	-10.1561
腐	-10.1563
飬	-10.1563
侣	-10.1567
求之	-10.1567
驥	-10.1568
斂	-10.1569
煥	-10.1569
藴	-10.1569
汚	-10.157
稾	-10.1572
之説	-10.1575
周禮	-10.1578
得名	-10.1588
巫	-10.1598
何日	-10.1607
雜記	-10.1613
識者	-10.162
誦之	-10.1625
君臣	-10.1631
一二	-10.1637
鞏	-10.1639
尔	-10.164
捐	-10.1641
冀	-10.1641
相望	-10.1644
㱕	-10.1644
綃	-10.1644
育	-10.1644
鐡	-10.1647
旌旗	-10.1649
以自	-10.165
不解	-10.1651
未幾	-10.1653
山頭	-10.1657
偶然	-10.1664
西清詩話	-10.1667
呼為	-10.1669
草朩	-10.1671
吏部	-10.1675
丹陽	-10.1688
國史	-10.1703
王孫	-10.1704
雌	-10.1714
碣	-10.1716
自注	-10.1717
督	-10.1719
邈	-10.1721
䟽	-10.1721
轂	-10.1723
挺	-10.1723
攝	-10.1723
雛	-10.1723
最為	-10.1723
禦	-10.1724
鳩	-10.1725
􁀙	-10.1727
挑	-10.1727
䄂	-10.1728
聰	-10.1728
儼	-10.173
羨	-10.173
蠅	-10.1734
蕭條	-10.1737
其下	-10.174
門下	-10.1757
不受	-10.1773
者有	-10.1784
世孫	-10.1784
矣然	-10.1784
時時	-10.1786
何足	-10.1787
用意	-10.1788
衣裳	-10.1794
豈無	-10.1794
黯	-10.1797
陟	-10.1798
之故	-10.1799
粒	-10.1801
店	-10.1801
埃	-10.1801
釀	-10.1804
䕃	-10.1806
絹	-10.1812
淸	-10.1813
曰我	-10.182
稚子	-10.1828
尚有	-10.1834
逮	-10.1852
蹄	-10.1871
梓	-10.1871
仲宣	-10.1871
檜	-10.1876
讒	-10.1877
疆	-10.1882
後漢	-10.1882
煖	-10.1882
厨	-10.1882
瓠	-10.1884
瀾	-10.1885
漿	-10.1885
憔悴	-10.1888
屑	-10.1889
做	-10.1892
皆可	-10.1903
依然	-10.1907
城中	-10.1908
不獨	-10.1909
池上	-10.1909
孺	-10.1921
上書	-10.1927
三山	-10.1933
可笑	-10.1935
稚	-10.1937
文學	-10.195
不與	-10.1961
匣	-10.1962
俠	-10.1964
我來	-10.1965
批	-10.1965
溺	-10.1968
殷勤	-10.1968
穎	-10.1968
咫尺	-10.197
握	-10.197
宋人	-10.1978
聖人	-10.1992
髙宗	-10.1992
其父	-10.2007
無可	-10.2009
郡守	-10.2017
朱子	-10.202
冷齋夜話云	-10.2021
便是	-10.2031
鬟	-10.2031
宫殿	-10.2034
所著	-10.2041
亦是	-10.2041
此類	-10.2042
瘴	-10.2043
說文	-10.2044
鏤	-10.2048
刪	-10.2048
普	-10.2049
牒	-10.2049
漾	-10.2049
欹	-10.2051
紆	-10.2052
之際	-10.2052
凋	-10.2052
墀	-10.2053
無定	-10.206
馬上	-10.2062
提舉	-10.2067
太后	-10.2069
故國	-10.207
般	-10.2083
五湖	-10.2086
自此	-10.2088
梨	-10.2091
和云	-10.2093
而言	-10.2107
日日	-10.2109
鳳凰	-10.2111
别有	-10.2122
沿	-10.2125
而下	-10.2126
詭	-10.2128
撲	-10.2129
粘	-10.2129
之功	-10.2131
馭	-10.2131
昉	-10.2132
斾	-10.2136
乃云	-10.2137
楚辭	-10.2141
大臣	-10.2143
至于	-10.2156
方知	-10.2166
莊子	-10.2193
化為	-10.2196
系	-10.2196
多用	-10.22
南史	-10.2204
員	-10.2205
測	-10.2206
坦	-10.2207
相類	-10.2209
蠟	-10.221
什	-10.221
拈	-10.2212
護	-10.2212
賦云	-10.2214
揷	-10.2215
嬰	-10.2215
尸	-10.2216
謫仙	-10.2217
卽	-10.2218
壬	-10.222
從容	-10.2234
太原	-10.2239
詩亦	-10.2247
五日	-10.2252
博士	-10.2254
山居	-10.2261
集有	-10.2264
更無	-10.2265
作詩云	-10.2265
文昌	-10.2274
也若	-10.2288
鐫	-10.2293
軟	-10.2293
之時	-10.2293
己	-10.2294
賈誼	-10.2295
演	-10.2295
諸家	-10.2296
楊花	-10.2296
重陽	-10.2296
考之	-10.2298
翩翩	-10.2299
聼	-10.2301
豁	-10.2301
幃	-10.2302
澁	-10.2302
鎭	-10.2302
韓子蒼	-10.2303
渙	-10.2303
盞	-10.2304
送客	-10.2304
熙寧	-10.2307
歌詩	-10.2308
謂其	-10.2308
嘗以	-10.2308
晚年	-10.2308
希夷	-10.2309
韓偓	-10.2309
無處	-10.231
開封	-10.2311
織女	-10.2319
問之	-10.2329
皆不	-10.2346
東坡詩	-10.2355
粲	-10.2355
二十五	-10.2361
今之	-10.2364
余以	-10.2365
不動	-10.2369
蓄	-10.2375
人有	-10.2375
駢	-10.2378
翦	-10.2379
繆	-10.2379
疇	-10.2379
纖	-10.238
抹	-10.2381
黔	-10.2382
娛	-10.2383
巒	-10.2383
蹈	-10.2383
懽	-10.2384
庻	-10.2384
野人	-10.2385
胡苕溪云	-10.2387
裔	-10.2388
叢話	-10.2393
馨	-10.2393
白玉	-10.2396
秋月	-10.2401
此乃	-10.2412
以示	-10.2414
寺僧	-10.242
本草	-10.2426
余按	-10.2432
陌上	-10.2439
他年	-10.2456
駿	-10.2461
青天	-10.2461
明朝	-10.2464
蘚	-10.2466
臧	-10.2467
白居易	-10.2468
咸淳	-10.2468
蹙	-10.2469
祇	-10.247
吳越	-10.2472
惱	-10.2472
白鳥	-10.2474
侍御	-10.2476
之徒	-10.248
春來	-10.2487
不作	-10.2493
荘	-10.2501
風俗	-10.2505
有司	-10.2507
平地	-10.2516
未得	-10.2523
羣臣	-10.2525
莫不	-10.2528
此言	-10.2537
不忘	-10.2545
禁中	-10.2545
狗	-10.2547
贍	-10.255
書生	-10.255
棟	-10.2551
棗	-10.2552
惹	-10.2552
矢	-10.2554
不起	-10.2555
滑稽	-10.2556
倩	-10.2556
幻	-10.2556
轍	-10.2556
優劣	-10.2557
纓	-10.2558
頑	-10.2558
蔚	-10.2559
臉	-10.2559
叛	-10.2559
冊	-10.256
冢	-10.2562
貫休	-10.2576
年來	-10.2584
再拜	-10.2585
不遇	-10.2589
其餘	-10.259
嘉定	-10.2596
當作	-10.2598
乃是	-10.2603
下第	-10.2605
篇云	-10.2605
國公	-10.2607
秋水	-10.2619
少時	-10.2624
膚	-10.2633
閩中	-10.2633
為君	-10.2636
紀事	-10.2637
鼠	-10.2638
昬	-10.2639
翹	-10.264
趂	-10.2641
驢	-10.2641
南渡	-10.2642
蓑	-10.2642
擔	-10.2643
籌	-10.2643
尋常	-10.2644
黛	-10.2644
峩	-10.2645
藁	-10.2645
狎	-10.2646
李公	-10.2646
不載	-10.2647
四字	-10.2655
表云	-10.266
一身	-10.2661
笙歌	-10.2666
累官	-10.2668
三百篇	-10.2669
冷齋夜話	-10.267
只是	-10.2672
本無	-10.2675
陶淵明	-10.2681
環溪	-10.2683
因以	-10.27
西北	-10.2709
淹	-10.2712
萬物	-10.2718
而成	-10.2719
紳	-10.2719
郵	-10.272
無言	-10.2721
碩	-10.2721
炙	-10.2725
疲	-10.2729
羌	-10.2729
霸	-10.2729
稼	-10.2731
噐	-10.2733
狀元	-10.2734
節度使	-10.2737
還家	-10.2745
副使	-10.2747
古之	-10.275
為主	-10.2753
一章	-10.2756
赤壁	-10.2758
龍門	-10.2768
誰與	-10.2772
不可以	-10.2775
江陵	-10.2775
其義	-10.2788
王子	-10.279
賦詩云	-10.2796
江頭	-10.2797
百官	-10.2805
翟	-10.281
水心	-10.2812
荔枝	-10.2812
嶂	-10.2813
敘	-10.2813
隄	-10.2814
泪	-10.2815
擕	-10.2815
聘	-10.2815
它	-10.2818
隙	-10.2821
腥	-10.2821
想見	-10.2821
江淮	-10.2822
絕	-10.2822
盗	-10.2822
脈	-10.2823
籟	-10.2824
太常	-10.2825
朕	-10.2829
詩史	-10.2832
無以	-10.2833
廬陵	-10.2834
而作	-10.2842
知音	-10.2848
秘書	-10.2852
也苕溪漁隱曰	-10.2855
席上	-10.2855
朽	-10.2864
消息	-10.2868
而死	-10.2873
憶昔	-10.2875
可愛	-10.2888
晚唐	-10.2889
扈	-10.2892
隱居	-10.2894
之工	-10.29
漳	-10.2904
赦	-10.2905
苖	-10.2905
緘	-10.2906
頤	-10.2907
瑕	-10.2908
从	-10.2909
緋	-10.2909
恱	-10.291
溜	-10.291
郁	-10.291
隐	-10.291
喫	-10.2911
奥	-10.2912
肌	-10.2912
之下	-10.2917
牽牛	-10.2922
元白	-10.2926
於詩	-10.2928
依依	-10.293
故有	-10.2932
蓴	-10.2932
後集	-10.2945
五字	-10.2945
名也	-10.2951
之變	-10.2951
臨水	-10.2954
牧之	-10.2962
由來	-10.2965
當是	-10.2969
蒼蒼	-10.298
貞元	-10.298
茫	-10.2985
坐客	-10.2986
灌	-10.2989
析	-10.299
財	-10.2993
課	-10.2996
貂	-10.2996
遯	-10.2996
牖	-10.2996
罵	-10.2997
餐	-10.2999
悅	-10.2999
儻	-10.2999
抄	-10.3
昌黎	-10.3004
崑崙	-10.3005
舎人	-10.3005
一聨云	-10.3009
者多	-10.301
翰墨	-10.3011
青春	-10.3016
四六	-10.3018
仁宗	-10.3018
到此	-10.3018
父母	-10.302
不失	-10.3035
一聮	-10.3049
應制云	-10.3054
江海	-10.3055
人情	-10.3055
夜月	-10.3058
相識	-10.3071
此身	-10.3072
黄河	-10.3078
組	-10.3082
貨	-10.3085
胎	-10.3087
窻	-10.309
沛	-10.3091
僊	-10.3093
尤為	-10.3098
漁隠	-10.3099
胸	-10.3102
刻石	-10.3106
自知	-10.3109
為工	-10.3111
為我	-10.3111
不容	-10.3113
月下	-10.3116
生涯	-10.3116
長卿	-10.3121
王直方詩話	-10.3122
雖不	-10.3131
三峽	-10.3134
嘗謂	-10.3135
蓮花	-10.3141
魏公	-10.3141
南海	-10.3145
孤舟	-10.3146
也如	-10.3149
摩詰	-10.3154
五百	-10.3155
之體	-10.3159
東海	-10.316
東野	-10.3162
陜	-10.3166
蛾	-10.3168
耆	-10.3168
歌曰	-10.3173
區區	-10.3177
棋	-10.3178
貼	-10.3178
忝	-10.3178
縮	-10.3179
曜	-10.3179
頽	-10.3179
漕	-10.318
榆	-10.318
穏	-10.318
断	-10.3181
泗	-10.3181
滿地	-10.3183
濫	-10.3184
元微之	-10.3184
炳	-10.3186
偓	-10.3186
文宗	-10.3188
茅屋	-10.3192
海内	-10.3194
之矣	-10.3196
待制	-10.3204
黄花	-10.3209
諺	-10.321
後來	-10.3215
何須	-10.3224
白馬	-10.3225
先後	-10.3226
風塵	-10.3228
其他	-10.3235
天聖	-10.3238
乃以	-10.3249
者乃	-10.3254
此篇	-10.3257
人事	-10.3259
漢武	-10.3259
錄云	-10.3261
艇	-10.3263
之孫	-10.3265
鄉人	-10.3266
羸	-10.3267
陷	-10.3269
夙	-10.3269
禾	-10.3272
畦	-10.3273
一事	-10.3274
讌	-10.3276
櫻桃	-10.3277
鈴	-10.3277
曲云	-10.3277
恕	-10.3277
掉	-10.328
即事	-10.3285
末云	-10.329
草書	-10.3292
稱賞	-10.3297
離别	-10.3301
金山	-10.3309
北斗	-10.3313
不類	-10.3314
深處	-10.3335
右丞	-10.3341
正元	-10.3345
有感	-10.3354
侍中	-10.3358
闔	-10.336
周公	-10.336
鈔	-10.3361
吳興	-10.3361
軀	-10.3363
舉子	-10.3364
袂	-10.3366
老僧	-10.3369
岑參	-10.3369
登髙	-10.337
菱	-10.3372
上天	-10.3373
蛟龍	-10.3382
長短句	-10.339
水流	-10.34
終身	-10.3411
蒼苔	-10.3413
四明	-10.3415
州府志	-10.3417
杜陵	-10.3418
眼前	-10.3419
菊花	-10.3422
水中	-10.3433
工部	-10.3433
江左	-10.3433
有客	-10.3435
老翁	-10.344
飛來	-10.3441
可也	-10.3445
其三	-10.3447
不至	-10.3449
非是	-10.345
誼	-10.3454
概	-10.3457
靖康	-10.3457
巵	-10.3459
訖	-10.3459
囚	-10.346
閬	-10.3462
軾	-10.3462
伍	-10.3463
瓢	-10.3464
珮	-10.3464
煉	-10.3465
不可得	-10.3479
馬蹄	-10.3482
中宗	-10.3483
執政	-10.3484
許渾	-10.3495
一家	-10.3496
七月	-10.3499
一杯	-10.3502
百篇	-10.3506
後山	-10.353
多矣	-10.3534
傷心	-10.354
甌	-10.3549
監察御史	-10.3549
彚	-10.3549
笋	-10.355
門人	-10.3551
怡	-10.3552
彰	-10.3552
彫	-10.3555
晏元獻	-10.3559
慿	-10.3561
頷	-10.3561
韋應物	-10.3563
寂寂	-10.3563
而為	-10.3574
田園	-10.3581
久矣	-10.3582
昨日	-10.3589
真宗	-10.3594
政事	-10.3607
本作	-10.3608
雨露	-10.3609
七夕	-10.3612
府君	-10.3616
然其	-10.3624
漢家	-10.3642
孚	-10.3643
吴旦生曰	-10.3646
壮	-10.3648
謳	-10.3649
悶	-10.365
仕至	-10.365
倪	-10.365
闋	-10.3651
黜	-10.3652
妹	-10.3654
倣	-10.3654
麝	-10.3654
時為	-10.3662
洞天	-10.3662
人語	-10.3665
雲雨	-10.367
十國	-10.3674
登科	-10.3676
白鷗	-10.368
咸陽	-10.3687
武后	-10.3687
王介甫	-10.369
后山	-10.3693
武昌	-10.3695
所云	-10.37
文集	-10.3703
山東	-10.3704
亦以	-10.3718
月照	-10.3724
太師	-10.3728
何為	-10.3729
子弟	-10.373
奉使	-10.3733
但見	-10.3733
剡	-10.3738
晞	-10.3741
故云	-10.3746
鶻	-10.3746
靑	-10.3748
狄	-10.3748
噪	-10.375
墟	-10.3751
遒	-10.3751
弃	-10.3751
幢	-10.3752
覊	-10.3752
衘	-10.3753
年七十	-10.3754
糧	-10.3754
囀	-10.3755
秦少游	-10.3758
餌	-10.3758
三代	-10.3766
著書	-10.377
乃為	-10.3774
泉州	-10.3774
皇甫	-10.3777
作此	-10.3778
不似	-10.3779
此詞	-10.3784
萬年	-10.3799
園林	-10.3801
翠微	-10.3808
用韻	-10.3809
王公	-10.3823
學詩	-10.3825
拗	-10.3826
世所	-10.384
恰	-10.3841
盧仝	-10.3843
嶼	-10.3844
擾	-10.3844
針	-10.3844
婚	-10.3845
鉢	-10.3845
瓌	-10.3846
隊	-10.3848
藕	-10.3848
杜荀鶴	-10.3848
篷	-10.3849
涙	-10.3849
穹	-10.3849
陸機	-10.385
名士	-10.3852
繭	-10.3854
藝苑雌黄云	-10.3863
庾信	-10.3864
江城	-10.3868
聞者	-10.3869
釣臺	-10.3871
安國	-10.3873
給事中	-10.3884
豈知	-10.3885
只有	-10.3888
闌干	-10.3891
得此	-10.3895
詩書	-10.391
詩所謂	-10.3928
濺	-10.3937
豫	-10.3937
畨	-10.3938
沐	-10.3939
畜	-10.394
技	-10.3941
稿	-10.3941
玲瓏	-10.3942
留題	-10.3942
捫	-10.3942
笻	-10.3944
敞	-10.3945
係	-10.3946
訣	-10.3946
貎	-10.3948
躡	-10.3949
諒	-10.3949
反覆	-10.395
宋胡仔撰	-10.3951
𣺌	-10.3952
一見	-10.3952
師道	-10.3953
鉉	-10.3954
何妨	-10.3959
昔日	-10.3961
應制	-10.3963
三巻	-10.3964
减	-10.3965
何用	-10.3966
經年	-10.3967
髙祖	-10.3967
為誰	-10.3971
於世	-10.3971
詩格	-10.3988
又如	-10.3988
帝王	-10.3997
忠義	-10.4001
十萬	-10.4007
西京	-10.402
那得	-10.4021
一旦	-10.4022
中間	-10.4034
百家	-10.4036
鬻	-10.4039
次第	-10.4042
禱	-10.4044
杞	-10.4044
不許	-10.4044
訟	-10.4045
惻	-10.4045
何由	-10.4046
航	-10.4046
溟	-10.4047
鞠	-10.4048
祁	-10.4049
謝靈運	-10.4049
獨自	-10.4049
矩	-10.405
者謂之	-10.4051
錢塘厲鶚撰	-10.4051
瀛奎	-10.4051
潘岳	-10.4051
儂	-10.4055
一種	-10.4059
朱文公	-10.4062
薫	-10.4063
故也	-10.4063
天寒	-10.4063
幕府	-10.4066
松風	-10.4074
昭君	-10.4077
龍蛇	-10.408
羅隠	-10.4083
太史	-10.4087
入蜀	-10.4089
不免	-10.4092
未歸	-10.4095
紅塵	-10.4095
既而	-10.4096
齊名	-10.41
字元	-10.4104
借問	-10.411
棘	-10.4117
上林	-10.4121
日夜	-10.4126
都賦	-10.4128
作詩曰	-10.4128
斛	-10.4128
滄	-10.4129
觀者	-10.4131
或有	-10.4132
蘋	-10.4136
酉	-10.4137
嗔	-10.4141
油	-10.4141
蔬	-10.4142
跳	-10.415
葦	-10.415
宋詩紀事巻	-10.4151
和尚	-10.4152
欽定四庫全書宋詩紀事巻	-10.4152
蛙	-10.4154
苕溪	-10.4155
歎息	-10.4155
古來	-10.416
吉甫	-10.4164
劉長卿	-10.4164
班固	-10.4165
書其	-10.4182
真人	-10.4191
珠簾	-10.4191
無聲	-10.4195
之心	-10.4214
安知	-10.4216
其聲	-10.4223
滌	-10.423
言語	-10.4232
石刻	-10.4239
鵞	-10.4242
雨過	-10.4242
蔵	-10.4245
掾	-10.4247
平原	-10.4247
頸	-10.4249
龔	-10.4249
葩	-10.4249
些	-10.425
画	-10.4251
感慨	-10.4253
伶	-10.4253
温公	-10.4256
漠	-10.4256
逺矣	-10.4257
妨	-10.4261
風光	-10.4261
答曰	-10.4268
湖南	-10.4269
文帝	-10.427
又一例也	-10.4271
畫圖	-10.4275
嘗與	-10.4278
記其	-10.4279
子蒼	-10.428
大中	-10.428
後村詩話	-10.4283
此二	-10.4287
山僧	-10.429
何不	-10.4295
新月	-10.4298
大家	-10.4302
酒酣	-10.4304
嵗月	-10.4306
書曰	-10.431
蘭亭	-10.4326
九年	-10.4339
欲以	-10.434
聞見	-10.4343
彪	-10.4345
恒	-10.4347
老夫	-10.4347
飜	-10.4349
奕	-10.4349
塢	-10.435
湍	-10.4352
虬	-10.4352
逍遥	-10.4353
萋	-10.4356
翡翠	-10.4358
岀	-10.4359
不可及	-10.436
余曰	-10.4364
起於	-10.4366
風雲	-10.4367
臨江	-10.4369
然亦	-10.4374
世上	-10.4379
不甚	-10.4382
皇后	-10.4391
妻子	-10.4396
何當	-10.4398
警句	-10.4399
乾道	-10.4403
相隨	-10.4403
不樂	-10.4404
兒女	-10.4412
花枝	-10.4413
華陽	-10.4418
中秋	-10.442
嘶	-10.4424
見一	-10.4424
好事	-10.443
以譏	-10.4434
雖然	-10.4448
敕	-10.4448
爰	-10.4449
炭	-10.445
稜	-10.4451
鴛	-10.4451
爪	-10.4451
噴	-10.4452
一葉	-10.4452
洒	-10.4452
瀛	-10.4455
竈	-10.4456
廉	-10.4458
寮	-10.4458
陀	-10.4458
阜	-10.446
誨	-10.4461
簇	-10.4462
縑	-10.4464
豈能	-10.4466
御製	-10.4473
木蘭	-10.4476
初無	-10.4476
愛之	-10.4477
登樓	-10.4482
法也	-10.4482
四人	-10.4486
失其	-10.4489
田家	-10.449
𤣥宗	-10.4502
神女	-10.4519
古木	-10.4528
所作也	-10.4532
長於	-10.4535
飛鳥	-10.4539
者其	-10.454
人言	-10.4545
容易	-10.4548
暝	-10.4551
豈可	-10.4554
穩	-10.4556
乂	-10.4557
瀑	-10.4557
災	-10.4558
□	-10.4559
掠	-10.456
翅	-10.456
邠	-10.456
榛	-10.4561
拭	-10.4562
寇	-10.4562
未足	-10.4562
璘	-10.4563
窘	-10.4565
慷慨	-10.4565
朱門	-10.4565
夸	-10.4566
廖	-10.4566
恬	-10.4567
之大	-10.4569
腳	-10.457
青瑣	-10.4573
亦未	-10.4576
江流	-10.4578
方言	-10.4584
不平	-10.4589
有句云	-10.4596
之美	-10.4606
起居	-10.4608
前軰	-10.4608
疑是	-10.4616
北征	-10.4616
西施	-10.4617
半山	-10.4619
亦非	-10.4622
嶺南	-10.4625
宣宗	-10.4626
石林	-10.4641
不妨	-10.4641
氏之	-10.4642
知有	-10.4646
從之	-10.4646
月中	-10.4653
亦然	-10.4653
遂為	-10.4654
騎馬	-10.4654
蟄	-10.4661
皆用	-10.4661
齊已	-10.4661
尖	-10.4661
駁	-10.4661
竹枝	-10.4664
篁	-10.4664
河豚	-10.4664
𥿄	-10.4665
液	-10.4665
夔	-10.4665
砧	-10.4665
據此則	-10.4665
部員外郎	-10.4666
窄	-10.4666
楷	-10.4666
沃	-10.4667
扣	-10.4668
太平興國	-10.4668
辦	-10.4669
婆	-10.467
㓕	-10.467
醇	-10.4671
儔	-10.4672
蒿	-10.4672
歌聲	-10.4673
堯舜	-10.4674
問曰	-10.4676
槃	-10.468
斷腸	-10.4687
所能	-10.4692
甘泉	-10.4699
太和	-10.4701
一代	-10.4703
之才	-10.4706
貴人	-10.4708
自得	-10.471
到處	-10.4711
殘月	-10.4717
閩人	-10.472
塵土	-10.4726
山上	-10.4729
斯文	-10.4732
春光	-10.4744
胸中	-10.4761
號為	-10.4763
睿	-10.4767
豈有	-10.4768
譚	-10.477
隻	-10.4771
劾	-10.4773
瀑布	-10.4774
熏	-10.4774
黄門	-10.4776
詆	-10.4776
龎	-10.4776
謚	-10.4777
掲	-10.4777
敝	-10.4777
穠	-10.4778
䴡	-10.4778
生死	-10.4778
意也	-10.4779
挈	-10.4779
當世	-10.4787
月夜	-10.4787
獨立	-10.4789
父老	-10.479
雜録	-10.4801
溪上	-10.4801
辛苦	-10.4809
以謂	-10.4812
中山	-10.4812
燈火	-10.4813
家貧	-10.4814
一言	-10.4815
荆南	-10.4828
宣城	-10.483
其為	-10.4834
齊梁	-10.4842
風波	-10.4849
東方	-10.4854
以前	-10.4854
不易	-10.4859
子也	-10.4867
悮	-10.4876
褐	-10.4876
髙樓	-10.4876
替	-10.4879
馴	-10.488
輟	-10.488
嬉	-10.4881
殁	-10.4881
膩	-10.4882
喉	-10.4883
蹕	-10.4883
有詩曰	-10.4884
迢迢	-10.4884
剥	-10.4884
曼卿	-10.4887
對偶	-10.4887
旄	-10.4888
恍	-10.4891
雲山	-10.4897
宛轉	-10.4899
不著	-10.4901
玉樹	-10.4903
玉川子	-10.4907
金人	-10.4909
詞人	-10.4909
烟霞	-10.4911
幽人	-10.4911
不傳	-10.4913
故園	-10.4916
雞鳴	-10.4917
夜來	-10.4921
不死	-10.4922
不通	-10.4928
三首	-10.4932
又以	-10.4938
鄭公	-10.4939
羈	-10.4939
鍾山	-10.4944
六經	-10.4944
南遷	-10.4945
碧玉	-10.4946
千山	-10.4949
紫微	-10.4949
數年	-10.4953
歴官	-10.4956
藝文志	-10.4978
時事	-10.4986
渥	-10.4989
重來	-10.4991
勾	-10.4992
滔	-10.4992
琉璃	-10.4993
氊	-10.4993
世之	-10.4994
歐陽永叔	-10.4994
佑	-10.4996
氛	-10.4996
閙	-10.4996
錢起	-10.4997
向來	-10.4998
夘	-10.4999
韜	-10.4999
栁子厚	-10.5003
大喜	-10.5006
秋聲	-10.5015
崇寧	-10.5021
初不	-10.5022
渡江	-10.5028
山隂	-10.5029
禮記	-10.5029
先君	-10.5042
之道	-10.5046
即今	-10.5048
呉興	-10.506
有情	-10.5062
之論	-10.5062
城西	-10.5065
禄山	-10.5068
越王	-10.5069
開元中	-10.5087
雲中	-10.5091
青州	-10.5092
二三	-10.5092
吁	-10.5093
腴	-10.5093
難得	-10.5095
含蓄	-10.5099
千餘	-10.5099
𣣔	-10.51
忿	-10.5103
奠	-10.5103
洋	-10.5103
渺	-10.5104
不問	-10.5105
芍藥	-10.5105
神宗	-10.5106
佞	-10.5106
驂	-10.5107
贄	-10.5107
參知政事	-10.5108
湜	-10.5109
人閒	-10.511
丹砂	-10.511
鋤	-10.5112
廸	-10.5112
聲律	-10.5113
功成	-10.5114
王母	-10.5114
未央	-10.5115
紫芝	-10.5122
紹興中	-10.5123
沈約	-10.5123
未盡	-10.5123
天下之	-10.5127
岳陽	-10.5132
三四	-10.5136
中流	-10.5139
樓上	-10.514
後村	-10.5143
懐古	-10.5145
黄山谷	-10.5155
大師	-10.5162
暮年	-10.5162
三字	-10.5166
安能	-10.5168
十一年	-10.5171
十餘年	-10.5174
平淡	-10.5175
中人	-10.5181
長慶	-10.5185
大觀	-10.5185
論文	-10.5188
大厯	-10.519
都官	-10.5191
飛去	-10.5194
其才	-10.5195
而歸	-10.5197
泉石	-10.5203
黄帝	-10.5205
榭	-10.5208
迂	-10.5211
凖	-10.5211
緇	-10.5213
坤	-10.5215
兀	-10.5215
冒	-10.5215
瓜	-10.5217
賡	-10.5217
邱	-10.5217
亨	-10.5217
距	-10.5219
荷花	-10.5224
櫓	-10.5224
心事	-10.523
萊公	-10.5234
司徒	-10.5237
驪	-10.5237
僕射	-10.5238
得句	-10.5244
登山	-10.525
卒有	-10.5254
思歸	-10.5258
未免	-10.5261
肅宗	-10.5262
妙處	-10.5265
肖	-10.5268
絶唱	-10.5268
走馬	-10.527
自從	-10.5279
人意	-10.5285
正是	-10.5295
八句	-10.5301
摭	-10.5305
暗香	-10.5306
近時	-10.531
安人	-10.531
本傳	-10.5316
逺山	-10.5317
月落	-10.5318
徃來	-10.5321
家家	-10.5322
貝	-10.5323
綜	-10.5325
詩意	-10.5326
凶	-10.5327
十二月	-10.5328
曲折	-10.5328
何耶	-10.5329
莎	-10.5329
不知所	-10.5329
牟	-10.5329
滛	-10.5329
岷	-10.533
棺	-10.533
全芳備祖	-10.5331
耐	-10.5331
鸎	-10.5331
呵	-10.5332
憚	-10.5332
字伯	-10.5332
清新	-10.5333
構	-10.5334
㾗	-10.5336
九州	-10.5347
縣志	-10.5354
焚香	-10.5365
出守	-10.5365
唐史	-10.5367
題詩云	-10.5373
同一	-10.538
嘗見	-10.5386
秦王	-10.5392
石林詩話	-10.5393
勃	-10.5418
之流	-10.5422
字也	-10.5436
薛能	-10.5442
參寥	-10.5443
乃作	-10.5443
袁州	-10.5443
秋夜	-10.5444
暈	-10.5444
夲	-10.5444
屨	-10.5444
勑	-10.5445
食之	-10.5445
迄	-10.5445
裾	-10.5445
愴	-10.5446
寃	-10.5449
牘	-10.5449
両	-10.545
楹	-10.5451
時節	-10.5453
磯	-10.5454
詩成	-10.5454
昂	-10.5455
律髓	-10.5457
干戈	-10.5459
蛾眉	-10.5461
集句	-10.5463
謝公	-10.5463
縣令	-10.5472
啼鳥	-10.5494
後有	-10.5498
飄飄	-10.5503
張衡	-10.551
得詩	-10.5524
蜀中	-10.5528
誤矣	-10.5537
頭上	-10.5539
皎	-10.5541
其地	-10.5542
詹	-10.5542
并序	-10.5543
萹	-10.5544
多情	-10.5547
昧	-10.5549
皆為	-10.5549
不食	-10.5554
嚼	-10.5555
止於	-10.5557
㶚	-10.5557
俸	-10.5557
準	-10.5558
渴	-10.556
顆	-10.5561
恢	-10.5561
沸	-10.5561
拒	-10.5562
灮	-10.5563
沮	-10.5563
壞	-10.5564
城人	-10.5566
餳	-10.5569
䦨干	-10.557
道路	-10.5573
法度	-10.5577
都下	-10.5577
太真	-10.5578
台州	-10.5578
之類是也	-10.558
楸	-10.5581
何物	-10.5586
王摩詰	-10.559
孤山	-10.5591
姚合	-10.5592
也而	-10.5595
古文	-10.5597
元宗	-10.5598
供奉	-10.5603
殊不	-10.561
景陽	-10.5611
永嘉	-10.5613
子美詩	-10.5615
風起	-10.5616
男子	-10.5626
筆記	-10.5629
有功	-10.5632
沈宋	-10.5632
胷	-10.5633
咎	-10.5643
後生	-10.5655
浣	-10.5657
花間	-10.5657
斜日	-10.5669
誌例也	-10.567
楚詞	-10.5671
體也	-10.5674
侮	-10.5675
虧	-10.5677
耒	-10.5678
巔	-10.568
渇	-10.568
掘	-10.568
潄	-10.5681
濡	-10.5682
温庭筠	-10.5683
憎	-10.5683
五馬	-10.5684
趁	-10.5687
工於	-10.5687
累遷	-10.5691
公孫	-10.5691
少卿	-10.5699
明主	-10.5707
金谷	-10.5708
有神	-10.5714
通志	-10.5717
玉蘂	-10.5721
古風	-10.5725
四言	-10.5729
文忠	-10.5729
北風	-10.5734
才子	-10.5735
自憐	-10.5736
所為	-10.574
尤工	-10.5747
建陽	-10.5753
也予	-10.5758
事實	-10.5759
南浦	-10.577
苦吟	-10.5776
石上	-10.578
國初	-10.5784
何年	-10.5784
譙	-10.5788
筝	-10.5792
子雲	-10.5793
沆	-10.5794
輯	-10.5794
江邊	-10.5796
誚	-10.5796
涇	-10.5798
北海	-10.5798
椀	-10.5798
刹	-10.5798
藜	-10.5798
祚	-10.5799
攬	-10.58
杪	-10.58
唐詩紀事巻第	-10.5801
鬂	-10.5801
百花	-10.5801
髣髴	-10.5802
参	-10.5804
餉	-10.5806
効	-10.5807
俯仰	-10.5808
雞犬	-10.5809
君誌	-10.5809
有詩名	-10.5811
天竺	-10.5813
光禄	-10.582
侍兒	-10.5827
甘露	-10.5831
洪州	-10.5833
欣然	-10.5846
予嘗	-10.5852
不逮	-10.5856
風動	-10.5859
門生	-10.5859
放翁	-10.5861
未識	-10.5861
集云	-10.5864
聖賢	-10.5878
行行	-10.5879
不止	-10.59
潤州	-10.5902
我心	-10.5909
子曰	-10.5911
舟中	-10.5912
粤	-10.5914
膳	-10.5914
禎	-10.5916
爲詩	-10.5916
嘏	-10.5916
芲	-10.5917
卯	-10.5917
工夫	-10.5917
瞰	-10.5918
粥	-10.5918
霓裳	-10.592
南陽	-10.592
眇	-10.592
哦	-10.592
之樂	-10.5921
麒麟	-10.5923
堵	-10.5923
巫峽	-10.5927
或作	-10.593
員外郎	-10.5932
若是	-10.5933
星辰	-10.594
杜少陵	-10.5942
八分	-10.5943
白樂天詩	-10.5943
青衫	-10.5947
許彦周詩話云	-10.5949
風景	-10.5953
者是也	-10.5957
首尾	-10.5958
君家	-10.5959
談笑	-10.5961
嗣宗	-10.5965
壯士	-10.5969
七字	-10.597
左氏	-10.597
也又云	-10.5974
女郎	-10.5975
蘆花	-10.5976
詩思	-10.5981
大雅	-10.6002
此皆	-10.601
載酒	-10.601
此生	-10.6012
復有	-10.6013
禮樂	-10.6018
孤雲	-10.6021
意氣	-10.6022
邇	-10.6024
知者	-10.6025
勅	-10.6026
鯉	-10.6026
千尺	-10.6034
卞	-10.6036
長史	-10.6036
春雨	-10.6036
啇	-10.6038
昊	-10.6038
脉	-10.6039
墓誌銘右誌	-10.6039
畆	-10.604
罰	-10.604
縹緲	-10.6041
遯叟	-10.6042
厓	-10.6042
炊	-10.6042
曵	-10.6043
綘	-10.6043
挹	-10.6046
巗	-10.6047
琰	-10.6048
宫女	-10.6049
長城	-10.605
閒居	-10.605
給事	-10.6052
相從	-10.6052
談苑	-10.6059
皇祐	-10.606
倡和	-10.6065
我欲	-10.6065
何其	-10.6066
五六	-10.6078
月上	-10.6079
劉氏	-10.608
萊	-10.6084
可與	-10.6086
卒章	-10.6092
花發	-10.6095
已而	-10.6099
此日	-10.6101
嚴武	-10.6102
名家	-10.6104
吟詩	-10.6112
云昔	-10.6113
平聲	-10.6113
詩評	-10.6115
始於	-10.6115
送之	-10.6117
潭州	-10.6119
月滿	-10.6128
不可不	-10.613
議者	-10.6133
二十八	-10.6134
題名	-10.6141
松江	-10.6147
笳	-10.6156
筋	-10.6158
文辭	-10.6158
詩皆	-10.6159
曷	-10.616
餓	-10.6161
須臾	-10.6163
窈窕	-10.6163
莭	-10.6163
諾	-10.6163
璫	-10.6164
青箱雜記	-10.6164
娯	-10.6165
彷彿	-10.6165
冉冉	-10.6167
算	-10.6167
突兀	-10.6167
堂上	-10.6168
者非	-10.6169
五巻	-10.6172
浩蕩	-10.6173
元稹	-10.618
人少	-10.6189
孤城	-10.6196
無疑	-10.6196
校書	-10.6197
更有	-10.6207
舊時	-10.6211
坐中	-10.6223
淮西	-10.6224
愚謂	-10.6228
雙聲	-10.6231
則云	-10.6233
湖山	-10.6233
物外	-10.6234
家詩	-10.6234
無他	-10.6235
之風	-10.6236
比之	-10.6237
大江	-10.6237
其妻	-10.624
百首	-10.6242
長樂	-10.6242
暮雲	-10.6253
萬頃	-10.6254
有大	-10.6254
猶存	-10.6255
中郎	-10.6256
誰謂	-10.6257
推官	-10.6265
諡文	-10.6269
卦	-10.6277
氣味	-10.6278
鞋	-10.6283
而不能	-10.6284
不入	-10.6284
荻	-10.6285
鐸	-10.6288
詩人玉屑	-10.6288
猪	-10.6289
圖畫	-10.6289
未及	-10.6289
凱	-10.629
琅	-10.6291
暁	-10.6292
㕘	-10.6293
疵	-10.6293
漂	-10.6294
控	-10.6294
試問	-10.6294
仙翁	-10.6294
澆	-10.6295
紈	-10.6297
噫	-10.6297
蒼梧	-10.6299
歐陽文忠公	-10.6304
吹笛	-10.6306
獨有	-10.6308
錦繡	-10.6309
秋草	-10.6311
後為	-10.6313
君恩	-10.6317
牛羊	-10.6319
若此	-10.6324
白鷺	-10.6326
髙下	-10.6336
安可	-10.6336
何異	-10.634
寓居	-10.6341
古寺	-10.6348
子建	-10.6357
也唐	-10.6357
幾度	-10.6361
生於	-10.6365
相去	-10.6368
挽詞	-10.637
書畫	-10.6383
二十七	-10.6384
左丞	-10.6389
題壁	-10.639
驪山	-10.639
足下	-10.6391
無力	-10.6393
贊曰	-10.6394
回頭	-10.6394
而今	-10.6396
問其	-10.6403
安在	-10.6406
萼	-10.6406
髓	-10.6409
清江	-10.641
數聲	-10.641
跪	-10.6411
幄	-10.6412
擎	-10.6414
笏	-10.6415
叅軍	-10.6415
税	-10.6416
售	-10.6417
迅	-10.6417
曇	-10.6417
愜	-10.6417
翩	-10.6418
蹇	-10.6418
囂	-10.6418
戮	-10.6419
樞宻	-10.6419
慣	-10.6419
兩字	-10.6419
校書郎	-10.6419
二篇	-10.642
灼	-10.642
杉	-10.6421
淳祐	-10.6421
令狐	-10.6422
之誤	-10.6422
魯公	-10.6423
浮屠	-10.6423
金縷	-10.6425
為正	-10.6429
四面	-10.643
李長吉	-10.6431
墓誌銘	-10.6433
波濤	-10.6434
故名	-10.6435
不厭	-10.6435
皎然	-10.6436
樓前	-10.6439
虎丘	-10.644
古意	-10.6444
中夜	-10.6448
老去	-10.6458
之甚	-10.6459
彭城	-10.6461
封禪	-10.6461
後山詩話云	-10.6461
何在	-10.6465
次之	-10.6468
知已	-10.6469
説文	-10.6478
漢宫	-10.6479
千門	-10.6486
韓文	-10.6489
丈人	-10.649
南朝	-10.649
九江	-10.65
二巻	-10.65
至如	-10.6502
自唐	-10.6503
文王	-10.6504
洛中	-10.6508
雨中	-10.651
予曰	-10.651
風味	-10.6527
不禁	-10.6527
鄉里	-10.6527
荼	-10.6529
有聲	-10.6532
與人	-10.6532
三更	-10.6533
渝	-10.6533
邢	-10.6536
高宗	-10.6537
芬	-10.654
不已	-10.6541
勻	-10.6542
颺	-10.6542
蚊	-10.6543
暄	-10.6543
斟	-10.6543
忻	-10.6543
該	-10.6543
中書舎人	-10.6544
繹	-10.6545
峨	-10.6545
博學	-10.6548
頋	-10.6548
咸淳臨安志	-10.6549
彎	-10.6549
筭	-10.6549
宇宙	-10.6549
幡	-10.655
日出	-10.655
並同前	-10.655
戱	-10.6551
蔡邕	-10.6551
南昌	-10.6552
未成	-10.6554
波瀾	-10.6554
男兒	-10.6567
樓閣	-10.6569
眼看	-10.6573
古者	-10.6574
意在	-10.6576
九十	-10.6578
釣魚	-10.6586
暮雨	-10.659
寐	-10.659
寄語	-10.6591
宜春	-10.6592
行樂	-10.6598
之類皆	-10.6599
别後	-10.6603
百姓	-10.6607
不惜	-10.6608
林泉	-10.6613
故山	-10.6613
泰山	-10.6615
不第	-10.6626
鼓吹	-10.6626
㡬時	-10.6629
隨風	-10.663
春寒	-10.663
或以	-10.6634
題詠	-10.664
字字	-10.6641
年五十	-10.6643
不信	-10.6644
過之	-10.6651
數千	-10.6657
箱	-10.6664
詩話總龜	-10.6666
饌	-10.6667
翊	-10.6668
寰	-10.6668
奬	-10.6669
豕	-10.6669
濛	-10.6671
趾	-10.6671
揭	-10.6671
奄	-10.6672
奢	-10.6672
翮	-10.6672
弁	-10.6672
碁	-10.6672
騫	-10.6673
刼	-10.6674
梭	-10.6674
芋	-10.6674
賖	-10.6675
脣	-10.6675
求其	-10.6675
麴	-10.6676
社稷	-10.6676
稅	-10.6678
狹	-10.6678
塜	-10.6679
霏	-10.6679
瀉	-10.6681
彭澤	-10.6683
默	-10.6685
揚子	-10.6685
翰苑	-10.6687
小詞	-10.6689
與客	-10.6693
池塘	-10.6699
歎曰	-10.671
罷相	-10.6711
壁上	-10.6718
朝陽	-10.6719
有味	-10.6719
萬人	-10.6722
者惟	-10.6737
凭	-10.6737
對酒	-10.6738
去國	-10.6739
超然	-10.6744
之情	-10.6749
莫能	-10.6749
長吉	-10.675
無數	-10.6751
是日	-10.6751
百萬	-10.6755
此體	-10.6757
即位	-10.6757
流傳	-10.6759
元符	-10.6762
銀河	-10.6763
某官	-10.6767
李陵	-10.6772
無異	-10.6776
七言律	-10.678
鄂	-10.678
魚龍	-10.6783
當日	-10.6783
祜	-10.6784
城郭	-10.6785
進退	-10.6786
四朝	-10.6787
朝士	-10.679
成都文類	-10.6798
樣	-10.6798
芭蕉	-10.6799
逺近	-10.6799
○	-10.68
䧟	-10.68
廼	-10.6801
劉後村	-10.6801
関	-10.6802
縫	-10.6803
曰某	-10.6803
攸	-10.6803
奎	-10.6804
狩	-10.6804
改為	-10.6805
舸	-10.6805
章句	-10.6805
义	-10.6805
薇	-10.6805
溥	-10.6805
御史中丞	-10.6806
侍從	-10.6806
蕉	-10.6806
烟雨	-10.6807
永州	-10.6807
櫂	-10.6808
槽	-10.6808
芳菲	-10.6808
刃	-10.6809
誡	-10.6809
花下	-10.681
鑰	-10.6811
凄凉	-10.6812
漪	-10.6812
勘	-10.6813
藪	-10.6814
自在	-10.682
人知	-10.682
餘杭	-10.6826
幾人	-10.6827
之難	-10.6829
小集	-10.6829
遊人	-10.6833
一聯	-10.6834
山志	-10.6836
用字	-10.6842
秋雨	-10.6851
自負	-10.6866
羅浮	-10.6866
固不	-10.6873
漫録	-10.6875
常侍	-10.6875
三千里	-10.6876
已有	-10.6878
歸去來	-10.6882
觀此	-10.6885
功業	-10.6885
天外	-10.6887
作文	-10.6887
九天	-10.689
昭陽	-10.6891
下同	-10.6891
家人	-10.6893
詩有云	-10.6899
筆精	-10.6903
歸田	-10.6908
乆之	-10.6909
越州	-10.6912
方外	-10.6923
迨	-10.6932
杵	-10.6932
萌	-10.6935
匿	-10.6936
之屬	-10.6936
螺	-10.6936
罔	-10.6937
㵎	-10.6938
竟不	-10.6939
揆	-10.694
酥	-10.694
迺	-10.6941
㝛	-10.6942
及其	-10.6942
闘	-10.6944
赫	-10.6944
翌日	-10.6945
肺	-10.6945
仲尼	-10.6945
陳無已	-10.6945
叙事	-10.6952
慶厯	-10.6955
詩人之	-10.6958
遲遲	-10.6958
陳氏	-10.6958
都尉	-10.6958
無由	-10.6964
嘆曰	-10.6965
今夜	-10.6968
煙霞	-10.6972
不暇	-10.6981
其先	-10.6981
大父	-10.6984
十首	-10.6987
近臣	-10.6993
如水	-10.6993
見此	-10.6995
歳月	-10.6998
此書	-10.7001
不朽	-10.7004
暮春	-10.7004
玉樓	-10.7006
者則	-10.7006
其身	-10.7007
道者	-10.7018
收拾	-10.7023
安仁	-10.7024
惜其	-10.703
其說	-10.7037
溪水	-10.7038
先王	-10.7043
吟詠	-10.7047
城東	-10.7047
逋	-10.7055
張公	-10.7059
悵	-10.7061
皮日休	-10.7069
殺之	-10.707
司馬相如	-10.707
儷	-10.7072
覇	-10.7073
置之	-10.7073
潺湲	-10.7074
南風	-10.7074
眸	-10.7074
剰	-10.7075
鄕	-10.7075
暨	-10.7075
晩唐	-10.7076
看花	-10.7077
熒	-10.7077
嵇	-10.7078
甥	-10.7079
苞	-10.7079
撼	-10.7079
浚	-10.708
漣	-10.708
煑	-10.7081
塩	-10.7082
款	-10.7083
亭亭	-10.7093
羽翼	-10.7093
蘇黄	-10.7093
萬國	-10.7097
貴妃	-10.71
號曰	-10.7101
之狀	-10.7101
教授	-10.7102
雲間	-10.7103
萬壑	-10.7106
上曰	-10.7112
自序	-10.7112
昭陵	-10.7116
空餘	-10.7118
野水	-10.7118
單于	-10.7118
屏風	-10.7119
此其	-10.7119
右軍	-10.712
京口	-10.7121
李後主	-10.7123
小詩	-10.7123
文定	-10.7127
去聲	-10.7128
終南	-10.7128
東門	-10.7129
容齋	-10.7132
胷中	-10.7134
夏日	-10.7136
卒於	-10.7141
東林	-10.7143
傳誦	-10.7144
萬象	-10.7149
雲卿	-10.7154
南方	-10.7159
譬如	-10.716
不去	-10.716
延年	-10.7173
尚未	-10.7174
風骨	-10.7179
雲夢	-10.718
慶元	-10.7183
朝夕	-10.7186
俎	-10.7199
鑾	-10.72
在焉	-10.72
鉛	-10.7202
騶	-10.7202
那知	-10.7203
骸	-10.7204
此心	-10.7205
逵	-10.7206
踵	-10.7208
廹	-10.7208
蓼	-10.7209
佇	-10.7209
諳	-10.721
蹊	-10.721
鳶	-10.7211
歙	-10.7211
旃	-10.7211
帙	-10.7211
嗤	-10.7212
冥冥	-10.7212
埽	-10.7212
竦	-10.7213
沈佺期	-10.7213
諤	-10.7214
椽	-10.7214
蕋	-10.7214
吕居仁	-10.7215
閔	-10.7215
太初	-10.7216
曩	-10.7216
抑揚	-10.7216
戢	-10.7216
搏	-10.7217
雖無	-10.7217
此等	-10.7219
妥	-10.7219
下馬	-10.7221
檣	-10.7222
蘇軾	-10.7223
徐鉉	-10.7226
論語	-10.7227
松栢	-10.7228
建炎	-10.7229
豈復	-10.723
不來	-10.7233
兩三	-10.7236
可乎	-10.7239
内翰	-10.7241
魏晉	-10.7245
卜居	-10.7247
事見	-10.7259
注謂	-10.7264
四年進士	-10.7264
出塞	-10.7264
不宜	-10.7265
二曰	-10.7267
歌之	-10.7267
宗室	-10.727
下筆	-10.7275
集賢	-10.7278
公幹	-10.7279
青松	-10.7283
與世	-10.7284
其門	-10.7285
上皇	-10.7287
輕薄	-10.7289
便覺	-10.7289
襄王	-10.729
崑山	-10.7298
近日	-10.7302
雅言	-10.7307
十載	-10.7311
荆公詩	-10.7311
不仕	-10.7318
劉向	-10.7319
侍宴	-10.7321
牡	-10.7323
詩多	-10.7324
東陽	-10.7325
自作	-10.7338
咸通	-10.734
趺	-10.7342
贏	-10.7343
和之	-10.7343
巽	-10.7344
𥙷	-10.7345
熖	-10.7346
不拘	-10.7346
恤	-10.7347
鏘	-10.7347
証	-10.7347
租	-10.7348
泠	-10.7349
箔	-10.7349
伺	-10.735
檢校	-10.735
蝴蝶	-10.7352
袴	-10.7352
唾	-10.7352
故以	-10.7353
闥	-10.7353
册	-10.7353
花飛	-10.7353
咨	-10.7354
窠	-10.7354
鐘聲	-10.7354
膓	-10.7355
扃	-10.7356
潯陽	-10.7356
顛倒	-10.7357
此去	-10.736
張文潛	-10.7361
魴	-10.7363
師古	-10.7363
謝安	-10.7366
黄庭	-10.7367
陸放翁	-10.737
夢魂	-10.737
五雲	-10.7374
無多	-10.7379
白水	-10.738
繼之	-10.7384
春歸	-10.7392
蒼生	-10.7394
相遇	-10.7395
一半	-10.7395
玉山	-10.74
直學士	-10.7402
得罪	-10.7403
一水	-10.7406
雲生	-10.7409
雲氣	-10.7414
江漢	-10.7416
仁義	-10.7419
不足以	-10.7421
造物	-10.7422
佳處	-10.7428
韻語陽秋	-10.743
郡人	-10.7433
戰國	-10.7433
八九	-10.7441
甚矣	-10.7445
飲食	-10.7453
南京	-10.746
者乎	-10.7461
子華	-10.7465
陵陽	-10.7465
殊不知	-10.7467
末句	-10.7468
徐州	-10.7469
白鶴	-10.7477
杜云	-10.7482
霓	-10.7483
蠧	-10.7484
净	-10.7485
丐	-10.7486
穢	-10.7486
璞	-10.7489
故實	-10.7489
虢	-10.7489
扁	-10.7491
勵	-10.7491
禮部侍郎	-10.7491
寤	-10.7491
奸	-10.7492
葱	-10.7493
擒	-10.7494
蝕	-10.7494
諛	-10.7494
莓苔	-10.7495
六一居士	-10.7495
筒	-10.7495
叱	-10.7495
銓	-10.7495
規模	-10.7499
沽酒	-10.75
皺	-10.75
歸路	-10.7501
二絶	-10.7506
開花	-10.7507
河陽	-10.7511
客有	-10.7513
石壁	-10.7513
柴門	-10.7514
風物	-10.7515
獨坐	-10.7517
近體	-10.7528
山月	-10.7531
所言	-10.7531
十分	-10.7532
風騷	-10.7537
又言	-10.7538
取之	-10.7538
崑	-10.7541
雪詩	-10.7543
有五	-10.7545
昭宗	-10.755
名山	-10.7552
曰君	-10.7554
暇日	-10.7557
之志	-10.7559
石室	-10.7561
未嘗不	-10.7563
當國	-10.7568
郎官	-10.7568
而不知	-10.7571
年八十	-10.7573
不幸	-10.7573
易簡	-10.7578
其一云	-10.7579
句句	-10.7581
聖主	-10.7589
即此	-10.7608
清香	-10.761
新安	-10.7611
長篇	-10.7613
文潛	-10.7615
離離	-10.7618
從軍	-10.7623
後見	-10.7625
鏗	-10.7626
第進士	-10.7626
樸	-10.7627
祔	-10.763
此則	-10.7631
醖	-10.7631
曹子建	-10.7631
劣	-10.7631
鵶	-10.7633
讐	-10.7634
㳂	-10.7634
姊	-10.7634
擺	-10.7635
醪	-10.7636
其體	-10.7636
栁絮	-10.7636
臺上	-10.7637
墨莊漫録	-10.7637
肎	-10.7637
掬	-10.7638
蹈襲	-10.7638
猫	-10.7639
陳思	-10.7641
老杜詩	-10.7643
劉貢父	-10.7643
忽見	-10.7644
其妙	-10.7645
鶯啼	-10.7646
避暑	-10.7646
其詩云	-10.7647
長短	-10.7647
妙絶	-10.765
圖經	-10.765
王元之	-10.765
石曼卿	-10.7652
河北	-10.766
李嶠	-10.7665
十二年	-10.7667
淮海	-10.7674
易之	-10.7676
疊韻	-10.768
一體	-10.768
史館	-10.7682
可得	-10.7683
黄葉	-10.7684
工詩	-10.7685
笑語	-10.769
北人	-10.7691
而語	-10.7702
溪山	-10.7704
此山	-10.7704
固有	-10.7706
無乃	-10.7707
新聲	-10.7711
之謂	-10.7711
不欲	-10.7712
考功	-10.7715
國朝	-10.7718
之始	-10.7721
東坡作	-10.7725
略云	-10.7726
一何	-10.7727
山有	-10.7731
物也	-10.7732
竟何	-10.7747
隂陽	-10.7751
一物	-10.7753
前賢	-10.7754
六言	-10.7755
日落	-10.7759
神道碑	-10.7761
之音	-10.7761
九華	-10.7767
力士	-10.7773
紫薇	-10.7774
䡖	-10.7774
伽	-10.7774
春山	-10.7775
遞	-10.7775
鳧	-10.7775
雪中	-10.7777
濱	-10.7778
蔗	-10.7778
潦	-10.7778
寘	-10.7778
以獻	-10.7779
笥	-10.7779
妬	-10.7779
幾年	-10.778
山海經	-10.778
贖	-10.778
蔡君謨	-10.7781
徤	-10.7781
軌	-10.7781
芻	-10.7782
梨園	-10.7784
張祜	-10.7786
軫	-10.7787
無功	-10.7787
疋	-10.7791
東北	-10.7791
悠然	-10.7793
江淹	-10.7795
清河	-10.7795
劉郎	-10.7798
之耳	-10.78
之遂	-10.7802
草色	-10.7803
亦曰	-10.7804
四十年	-10.7805
千丈	-10.7811
一段	-10.7815
其末	-10.7825
長生	-10.7826
數篇	-10.7829
秦漢	-10.7833
自為	-10.7834
學問	-10.7838
豈是	-10.7839
小舟	-10.784
宗廟	-10.7841
無奈	-10.7842
内人	-10.7844
其志	-10.7844
讀者	-10.7844
生子	-10.7847
山前	-10.7855
也此	-10.7856
雲門	-10.7859
之餘	-10.7861
草草	-10.7867
我亦	-10.7879
不曽	-10.788
晉書	-10.7881
處厚	-10.7882
比興	-10.7892
䂬溪	-10.7899
州司馬	-10.79
其詩曰	-10.7908
陛	-10.7909
鎬	-10.7913
牎	-10.7914
璩	-10.7916
卉	-10.7919
倘	-10.7919
摽	-10.7919
即是	-10.7919
轅	-10.792
肱	-10.7921
斫	-10.7921
圎	-10.7922
䆫	-10.7922
殯	-10.7923
騁	-10.7923
璋	-10.7923
泉聲	-10.7923
搆	-10.7923
褰	-10.7924
㕠	-10.7925
縦	-10.7926
衷	-10.7926
悪	-10.7926
閏	-10.7929
蕨	-10.793
汙	-10.7931
成章	-10.7932
屍	-10.7934
瑜	-10.7935
是年	-10.7935
語録	-10.7946
河漢	-10.7958
将軍	-10.7959
韻者	-10.7963
何曽	-10.7965
為相	-10.7977
天文	-10.7978
入室	-10.798
知是	-10.798
舊居	-10.7983
小山	-10.7986
題曰	-10.7989
張氏	-10.7998
人世	-10.8
李端	-10.8002
蘇公	-10.8003
亦不能	-10.8009
多病	-10.8014
等句	-10.8014
幾回	-10.8018
後以	-10.8018
與李	-10.8019
未為	-10.8023
至是	-10.8025
亦多	-10.8028
所至	-10.8029
天際	-10.8037
國風	-10.8042
林寺	-10.8042
異日	-10.8042
詩選	-10.8045
無意	-10.805
開門	-10.8051
上疏	-10.8051
畧云	-10.8053
此曲	-10.8054
詞曰	-10.8054
迭	-10.8057
氏子	-10.8064
未詳	-10.8067
鬛	-10.8069
雲外	-10.8069
捉	-10.8072
明矣	-10.8072
掇	-10.8072
唇	-10.8072
臻	-10.8074
覲	-10.8074
徐師川	-10.8074
之歌	-10.8075
鎔	-10.8075
鉅	-10.8075
銖	-10.8076
蚤	-10.8077
少府	-10.8078
十字	-10.8078
蕚	-10.8079
耘	-10.8079
誰人	-10.8083
仕宦	-10.8083
浯溪	-10.8085
廓	-10.8086
卵	-10.8087
頃刻	-10.8089
李斯	-10.8091
管絃	-10.8093
景祐	-10.8093
叙其	-10.8093
福建	-10.8095
茂陵	-10.8097
顧况	-10.8104
其次	-10.8105
也至於	-10.8107
異之	-10.8116
漁陽	-10.8121
墓表	-10.8124
喚起	-10.8126
尚可	-10.8127
經史	-10.8127
長老	-10.8131
向人	-10.8135
謫居	-10.8135
河中	-10.8135
第十	-10.814
不顧	-10.8142
大理	-10.8144
能言	-10.8153
秋來	-10.8156
友善	-10.8161
雜志	-10.8163
性情	-10.8168
物色	-10.8169
吟曰	-10.8171
曲盡	-10.8177
復何	-10.8179
予謂	-10.818
陽春	-10.8184
字叔	-10.8186
一世	-10.8189
銘曰	-10.8194
詩賦	-10.8194
亦謂	-10.8194
所藏	-10.8198
宗即位	-10.8201
溪集	-10.8202
夜夜	-10.8202
烟波	-10.8203
景文	-10.8204
能文	-10.8205
三朝	-10.8208
石門	-10.8212
醉中	-10.8214
複	-10.8215
沽	-10.8219
璣	-10.8219
躋	-10.8223
吸	-10.8224
鋭	-10.8224
一條	-10.8224
讎	-10.8225
洩	-10.8225
庇	-10.8226
訊	-10.8226
萱	-10.8226
核	-10.8227
詐	-10.8227
拯	-10.8228
麤	-10.8228
龕	-10.823
昶	-10.823
癖	-10.823
冬至	-10.8232
驤	-10.8233
方輿勝覽	-10.8234
葺	-10.8235
畿	-10.8235
自注云	-10.8235
擘	-10.8236
遨	-10.8237
小字	-10.8238
轉運使	-10.8238
姻	-10.8238
觀察	-10.824
空有	-10.824
飱	-10.824
猶自	-10.8242
死生	-10.8248
使事	-10.8249
綺羅	-10.825
口占	-10.8252
墓銘	-10.8254
復齋	-10.8254
明帝	-10.8255
三五	-10.8256
浣花	-10.8256
飛花	-10.8257
元日	-10.8258
天然	-10.8261
無端	-10.8264
衡陽	-10.8267
援筆	-10.8269
子儀	-10.8271
江州	-10.828
李益	-10.8281
幽居	-10.8282
春深	-10.829
仙家	-10.8292
雙飛	-10.8296
體製	-10.83
各自	-10.83
斯人	-10.8305
嘗言	-10.8305
一去	-10.8306
以詩寄	-10.8311
萬巻	-10.8312
興亡	-10.8313
枝上	-10.8316
又見	-10.8316
南宫	-10.8317
幾何	-10.832
新法	-10.8321
花影	-10.8325
垂楊	-10.8325
平日	-10.833
最後	-10.8331
忠臣	-10.8331
少師	-10.8333
玉壺	-10.8337
見而	-10.8337
與劉	-10.8342
有才	-10.8342
尚存	-10.8345
賢者	-10.8345
晩年	-10.8346
柰	-10.835
寺云	-10.8355
如雪	-10.8355
遣使	-10.8359
乃謂	-10.8359
當為	-10.8361
疑其	-10.8364
朝天	-10.837
惇	-10.8372
鼉	-10.8375
坎	-10.8375
明珠	-10.8375
冨	-10.8375
滎陽	-10.8375
炯	-10.8375
盼	-10.8376
叨	-10.8376
皂	-10.8377
萃	-10.8378
唐詩紀事卷第	-10.8379
湘水	-10.8379
饗	-10.8379
亳	-10.8379
顰	-10.838
逞	-10.838
綯	-10.838
枇杷	-10.8381
磴	-10.8381
舛	-10.8381
水邊	-10.8382
與同	-10.8383
腦	-10.8383
杜䳌	-10.8383
槀	-10.8386
嬴	-10.8386
庚溪詩話	-10.8386
甲科	-10.8386
璟	-10.8386
清光	-10.8387
鶴林玉露	-10.8388
畫馬	-10.8389
此老	-10.8392
無已	-10.8399
杜子美詩	-10.8399
和靖	-10.8404
十一月	-10.8412
不曉	-10.8415
文武	-10.8421
月令	-10.8422
不語	-10.8424
陽秋	-10.8427
寒暑	-10.8427
後村千	-10.844
及此	-10.8446
七日	-10.8447
字景	-10.8447
澄江	-10.8452
余讀	-10.8452
侍臣	-10.8455
清溪	-10.8456
嶺外	-10.8456
又謂	-10.8464
而終	-10.8468
方干	-10.847
無消息	-10.8472
不喜	-10.8476
不取	-10.8477
赤城	-10.8478
路傍	-10.8495
左思	-10.8498
元祐中	-10.8501
如許	-10.8501
南國	-10.8509
水上	-10.8521
日照	-10.8525
所記	-10.8527
安石	-10.8529
㓂	-10.853
梦	-10.8531
宋子京	-10.8534
留守	-10.8534
禹錫	-10.8536
佚	-10.8538
侯鯖録	-10.8538
濠	-10.8539
摇	-10.8539
倖	-10.8539
拄	-10.8539
嬋娟	-10.854
牌	-10.854
銳	-10.8541
憫	-10.8541
睢陽	-10.8542
身後	-10.8542
趍	-10.8542
鄱陽	-10.8542
壠	-10.8543
相繼	-10.8543
宋之問	-10.8543
滄洲	-10.8544
鱸魚	-10.8545
韓魏公	-10.8548
日斜	-10.8549
四百	-10.8553
目前	-10.8553
宋史	-10.8557
喬木	-10.8557
睦	-10.8558
也苕溪漁隠曰	-10.8559
雪浪齋日記云	-10.8562
茱茰	-10.8566
中書令	-10.8567
摭言	-10.8569
泛舟	-10.8569
憲宗	-10.8571
三公	-10.8574
漁舟	-10.8574
朩蘭	-10.8576
功父	-10.8578
無一字	-10.8578
猶是	-10.8579
張祐	-10.8595
掃地	-10.8596
吹簫	-10.8596
西園	-10.86
維揚	-10.8601
不疑	-10.8602
徽宗	-10.8604
校官	-10.8606
筆談	-10.8609
字為	-10.8611
若無	-10.8613
北方	-10.8614
石橋	-10.8616
白晝	-10.8623
修撰	-10.8627
西川	-10.8628
王師	-10.8635
碧落	-10.8636
林甫	-10.8643
桂林	-10.8649
枕上	-10.865
等語	-10.865
羅衣	-10.8651
荅曰	-10.8653
朝野	-10.8654
所知	-10.8659
者多矣	-10.866
經過	-10.8661
常州	-10.8667
寺丞	-10.867
騷人	-10.8675
清淺	-10.8676
白衣	-10.8678
吳江	-10.8681
存者	-10.8684
隸	-10.8684
琯	-10.8686
早朝	-10.8689
落落	-10.8689
俛	-10.8689
舒王	-10.869
浙東	-10.869
撞	-10.869
馬嵬	-10.8692
李商隠	-10.8692
大如	-10.8692
馥	-10.8692
頒	-10.8693
胄	-10.8693
儘	-10.8696
憩	-10.8697
驄	-10.8698
秦檜	-10.8698
警䇿	-10.8699
恊	-10.8699
猜	-10.8699
風來	-10.87
譎	-10.87
嵇康	-10.87
瀛奎律髓	-10.87
愼	-10.8701
撚	-10.8702
慨然	-10.8703
腕	-10.8703
滄溟	-10.8703
柳子厚	-10.8704
畋	-10.8704
凄涼	-10.8705
盛事	-10.8706
阮籍	-10.8707
杜子羙	-10.8708
猿啼	-10.871
館職	-10.8711
酒樓	-10.8711
底事	-10.8713
剌	-10.8714
曰昔	-10.8715
恨不	-10.8719
司空圖	-10.872
誰是	-10.872
得失	-10.872
補闕	-10.8723
朋友	-10.8724
成文	-10.8728
建康	-10.8731
深山	-10.8731
飛燕	-10.8733
途中	-10.8735
光輝	-10.8737
功甫	-10.8741
堂前	-10.8741
始見	-10.8745
孺子	-10.8749
筆端	-10.8752
開府	-10.8755
又何	-10.8755
紅粉	-10.8757
有竒	-10.8757
封侯	-10.8761
妃子	-10.8761
行客	-10.8764
以手	-10.8766
燕語	-10.8769
西蜀	-10.8782
兩岸	-10.8782
壁云	-10.8782
何曾	-10.8783
積雪	-10.8783
正字	-10.879
若干	-10.8792
渡頭	-10.8799
無語	-10.8803
十四年	-10.8809
百草	-10.881
龍虎	-10.8811
氣格	-10.8814
太湖	-10.8817
清秋	-10.8818
成王	-10.8821
去後	-10.8823
西溪	-10.8823
屬對	-10.8824
十數	-10.8825
尤多	-10.8825
主客	-10.8826
金玉	-10.8834
記之	-10.8838
音律	-10.8845
苕	-10.8848
子野	-10.8848
吃	-10.8848
衆人	-10.8849
夜坐	-10.885
論也	-10.885
寔	-10.885
㨗	-10.885
瀆	-10.885
曼	-10.8852
傍人	-10.8852
秃	-10.8852
澈	-10.8852
頥	-10.8854
送李	-10.8854
盂	-10.8854
魏文帝	-10.8855
炬	-10.8855
硬	-10.8856
竅	-10.8856
臭	-10.8856
中國	-10.8857
鬰	-10.8857
彊	-10.8858
麈	-10.8858
莫道	-10.8858
燃	-10.8859
高祖	-10.8859
称	-10.886
黄鸝	-10.886
無路	-10.886
璠	-10.8861
侔	-10.8861
盧橘	-10.8861
耽	-10.8861
意思	-10.8862
誤也	-10.8863
弩	-10.8863
賁	-10.8865
蒼茫	-10.8866
紫雲	-10.8868
悵望	-10.8868
詮	-10.887
竹林	-10.8873
白蘋	-10.8874
契丹	-10.8877
類此	-10.8881
絶頂	-10.8885
縣尉	-10.8891
及觀	-10.8894
星斗	-10.8898
光武	-10.8901
少㳺	-10.8901
浮生	-10.8903
記得	-10.8904
貞觀	-10.8906
客來	-10.8907
金門	-10.8909
鏡中	-10.891
湘江	-10.8914
才力	-10.8916
相看	-10.8918
之聲	-10.8922
晝夜	-10.8925
骨肉	-10.8925
祕書	-10.8929
世界	-10.893
格律	-10.8932
還鄉	-10.8937
善為	-10.8938
不曾	-10.8938
聲名	-10.8939
筆墨	-10.8943
落筆	-10.8947
其大	-10.8948
送行	-10.895
篇章	-10.895
月華	-10.8953
南豐	-10.8953
黄雲	-10.8954
唐人詩	-10.8965
往事	-10.897
小樓	-10.8974
詠史	-10.898
終於	-10.8984
此格	-10.8989
何許	-10.8991
吳中	-10.8994
天柱	-10.9002
重重	-10.9003
千家	-10.9011
大小	-10.9011
釐	-10.9012
剖	-10.9012
才思	-10.9014
罍	-10.9015
緗素雜記	-10.9016
冕	-10.9016
頗有	-10.9016
璉	-10.9016
拖	-10.9017
潼	-10.9019
橈	-10.9019
無益	-10.9019
百家詩話總龜後集卷之	-10.9019
羇	-10.9019
禮部尚書	-10.9019
猴	-10.902
㽞	-10.9021
西江	-10.9021
憾	-10.9021
機杼	-10.9021
隗	-10.9021
耿耿	-10.9022
臨風	-10.9022
姥	-10.9022
鈍	-10.9022
迪	-10.9022
又嘗	-10.9022
張文潜	-10.9023
襪	-10.9023
戾	-10.9023
燎	-10.9024
薤	-10.9024
鱸	-10.9025
麄	-10.9025
崢嶸	-10.9025
臆	-10.9026
睨	-10.9028
股	-10.9029
叫	-10.9029
芥	-10.903
稱為	-10.903
飄零	-10.9031
奔走	-10.9032
凌雲	-10.9033
霏霏	-10.9033
王平甫	-10.9038
艱難	-10.9039
楊文公	-10.9039
士毅	-10.9042
樂天詩	-10.9044
侍御史	-10.9045
感激	-10.9045
首句	-10.9048
蕭然	-10.9054
嗜酒	-10.9058
朔方	-10.9059
效之	-10.906
其四	-10.9065
堂堂	-10.9066
獨孤	-10.9069
煙雨	-10.9069
改作	-10.9069
庭前	-10.9073
其年	-10.9083
入門	-10.9084
廟碑	-10.9088
漢武帝	-10.9092
原上	-10.9098
楚王	-10.9103
也吳旦生曰	-10.9103
功曹	-10.9105
紅葉	-10.9106
六一	-10.9111
雅頌	-10.9116
秦人	-10.912
唐時	-10.9127
張仲	-10.9128
希文	-10.9129
異人	-10.9129
耳目	-10.9129
四首	-10.9133
女兒	-10.9135
天門	-10.9137
驚人	-10.9137
雲根	-10.9142
百丈	-10.9143
注引	-10.9144
又名	-10.9151
自以為	-10.9151
白蓮	-10.9166
蝸	-10.9169
兵部	-10.9173
集中有	-10.9173
贈詩曰	-10.9178
嬪	-10.9179
現	-10.9179
雨聲	-10.918
体	-10.9181
寥	-10.9181
靚	-10.9182
僖	-10.9183
㤗	-10.9183
匝	-10.9184
水雲	-10.9186
鵰	-10.9186
紀聞	-10.9186
冗	-10.9187
声	-10.9187
垢	-10.9188
粱	-10.9188
耻	-10.9188
胡元瑞	-10.9188
愕	-10.9188
軻	-10.9189
嫗	-10.9189
騐	-10.9189
旭	-10.9189
忽然	-10.919
濬	-10.9191
塞上	-10.9191
蝦	-10.9191
釘	-10.9191
秧	-10.9191
孜	-10.9192
鴟	-10.9192
觀察使	-10.9192
柑	-10.9193
怜	-10.9193
慟哭	-10.9193
雲霞	-10.9194
梗	-10.9194
十五年	-10.9196
太清	-10.9196
翎	-10.9196
屹	-10.9197
礪	-10.9197
牲	-10.9198
一洗	-10.9199
築室	-10.9199
峙	-10.92
林和靖	-10.9201
老病	-10.9202
不斷	-10.9202
雲霄	-10.9211
可觀	-10.9212
贈張	-10.9216
燕公	-10.9218
是嵗	-10.9223
漫叟詩話云	-10.9226
吟咏	-10.9227
誦其	-10.9228
長歌	-10.9231
太史公	-10.9234
建州	-10.9237
相親	-10.9244
老矣	-10.9248
使我	-10.9254
小説	-10.9254
目為	-10.9255
海外	-10.9267
無盡	-10.9271
或問	-10.9272
平甫	-10.9278
知君	-10.9287
為韻	-10.9291
相憶	-10.9293
州縣	-10.9302
饒州	-10.9304
希聲	-10.9314
西漢	-10.9319
東京	-10.9319
寓意	-10.932
東流	-10.9321
數人	-10.9322
廟堂	-10.9326
延之	-10.9329
音節	-10.9335
形於	-10.934
舉世	-10.934
榔	-10.9341
鹵	-10.9348
蔟	-10.9349
北門	-10.9351
閶闔	-10.9352
巘	-10.9352
飈	-10.9353
繋	-10.9353
虐	-10.9353
前事	-10.9353
隘	-10.9354
耆卿	-10.9354
矛	-10.9355
慟	-10.9355
砂	-10.9355
諫議大夫	-10.9356
本是	-10.9357
敖	-10.9357
御覽	-10.9358
鷁	-10.9358
遺恨	-10.9359
漁隠叢話	-10.9359
堕	-10.9359
辞	-10.936
棃	-10.936
肘	-10.936
兢	-10.936
零陵	-10.9362
貺	-10.9362
蕭瑟	-10.9363
掣	-10.9364
蛻	-10.9365
晦庵	-10.9369
退之詩	-10.9372
黄鶴	-10.9374
庶幾	-10.9378
眼中	-10.9379
乎其	-10.9379
平仄	-10.9383
貢父	-10.9385
此論	-10.9387
諸葛	-10.9391
應是	-10.9391
吾廬	-10.9394
昇平	-10.9396
侍讀	-10.9399
楊妃	-10.94
忽聞	-10.9407
餘話	-10.9411
松竹	-10.9417
化作	-10.9419
歌者	-10.9424
絶倒	-10.9424
五言詩	-10.9426
於今	-10.9427
之㫖	-10.9429
平明	-10.9429
無遺	-10.9442
荆門	-10.9444
荘子	-10.9445
于鱗	-10.9448
閑居	-10.9449
深宫	-10.9451
為翰林學士	-10.9451
石頭	-10.9458
白露	-10.9458
唐虞	-10.9459
太過	-10.946
嘗有詩云	-10.9469
九歌	-10.9473
光照	-10.9477
雨後	-10.9478
變而	-10.9489
惜哉	-10.9493
文詞	-10.9505
即席	-10.9509
吾家	-10.951
嵩山	-10.951
終始	-10.9511
廣州	-10.9516
隕	-10.952
誰復	-10.952
吻	-10.9522
鑠	-10.9523
贅	-10.9524
縛	-10.9525
滂	-10.9525
拗律	-10.9526
烽	-10.9526
薑	-10.9526
冤	-10.9527
廡	-10.9528
内外	-10.9528
之意也	-10.9528
茵	-10.9529
蘄	-10.9529
涪翁	-10.9529
剝	-10.9529
作此詩	-10.953
諶	-10.953
厄	-10.9532
應聲曰	-10.9532
悲風	-10.9533
淩	-10.9533
山光	-10.9533
滿目	-10.9534
址	-10.9534
嘉靖	-10.9534
宋文鑑	-10.9535
霅	-10.9535
十三年	-10.9535
償	-10.9536
汀洲	-10.9536
曦	-10.9537
幸有	-10.9539
亷夫	-10.9542
那堪	-10.9543
琥珀	-10.9543
銅雀	-10.9545
庭堅	-10.9546
邵武	-10.9549
宫詞云	-10.9554
忽有	-10.9555
歴歴	-10.9556
細看	-10.9557
曹公	-10.9557
朝雲	-10.9558
惠崇	-10.956
尚在	-10.9561
諸王	-10.9562
花滿	-10.9563
王粲	-10.957
漁翁	-10.9571
字畫	-10.9573
城頭	-10.9577
七十二	-10.958
聖朝	-10.958
以道	-10.9581
省試	-10.9584
詠物	-10.9585
只恐	-10.9586
冷齋	-10.9592
最多	-10.9593
又題	-10.9593
春愁	-10.9594
夜夢	-10.9595
殿上	-10.9595
猶能	-10.9596
㑹昌	-10.9598
早晚	-10.9601
未㡬	-10.9603
之趣	-10.9609
連天	-10.961
邑人	-10.9612
今觀	-10.962
詩體	-10.9627
乗興	-10.963
有無	-10.9634
忘其	-10.9638
五言律	-10.9646
華亭	-10.965
四巻	-10.9656
詩律	-10.9658
安道	-10.966
金吾	-10.966
千尋	-10.9662
二十二	-10.9662
賜號	-10.9666
滿城	-10.9667
林間	-10.9671
亡國	-10.9672
寒泉	-10.9674
入貢	-10.9675
賢良	-10.9675
譏其	-10.9676
一律	-10.9677
用兵	-10.9677
蘇東坡	-10.9678
渭水	-10.9679
右僕射	-10.9681
焙	-10.9688
擢第	-10.9689
自比	-10.9689
沙門	-10.9691
磊	-10.9691
江亭	-10.9693
襍	-10.9694
缸	-10.9695
涎	-10.9695
絛	-10.9696
禧	-10.9696
覃	-10.9697
郭璞	-10.9697
柘	-10.9698
詩詞	-10.9698
檐	-10.9698
門户	-10.97
瞿	-10.9701
瞑	-10.9702
斵	-10.9703
簧	-10.9703
墅	-10.9704
昀	-10.9705
崕	-10.9705
鄞	-10.9705
崔嵬	-10.9705
月恭校上	-10.9705
仔	-10.9706
攄	-10.9706
罇	-10.9706
虗	-10.9707
楼	-10.9707
閫	-10.9708
坑	-10.9708
賈生	-10.9709
縉	-10.971
漁隱叢話前集巻	-10.971
沂	-10.9711
個	-10.9711
貧賤	-10.9712
歸安吳景旭撰	-10.9712
天河	-10.9717
漁樵	-10.9718
黄鶴樓	-10.9723
太乙	-10.9725
靈運	-10.9731
西望	-10.9731
三篇	-10.9732
淵明詩	-10.9733
葉落	-10.9734
落魄	-10.9735
敏中	-10.9744
大年	-10.9746
落盡	-10.9751
思量	-10.9757
戲作	-10.9761
勸君	-10.9761
簡齋	-10.9766
自由	-10.9766
國家	-10.9767
湘中	-10.9769
親切	-10.9775
繁華	-10.9776
傳聞	-10.9778
二十六	-10.978
哀哉	-10.9782
曰臣	-10.9783
東觀	-10.9784
上方	-10.9793
一雙	-10.9797
拂衣	-10.9798
嵗時	-10.9798
人舉進士	-10.9799
丁謂	-10.9799
器之	-10.9802
東平	-10.9809
張說	-10.981
漢陽	-10.981
極目	-10.9826
之所以	-10.983
賢人	-10.9831
建中	-10.9832
思君	-10.9838
一尺	-10.9841
末句云	-10.9844
元豐中	-10.985
萬嵗	-10.9853
江村	-10.9856
官職	-10.9859
太甚	-10.9863
或以為	-10.9866
早春	-10.987
陸放翁詩	-10.9871
二女	-10.9871
紅兒	-10.9871
侃	-10.9874
鼈	-10.9876
水面	-10.9877
舡	-10.9878
一一	-10.9878
清流	-10.9879
縟	-10.9879
韓公	-10.9879
綾	-10.988
螭	-10.9881
涪	-10.9881
庖	-10.9883
縠	-10.9883
人不識	-10.9883
檝	-10.9883
鬱鬱	-10.9884
欽定四庫全書集部九	-10.9884
邯鄲	-10.9885
僑	-10.9885
可知矣	-10.9886
藹	-10.9886
杲	-10.9886
六義	-10.9887
糟	-10.9887
詩林萬選	-10.9887
華清宫	-10.9887
西方	-10.9888
俶	-10.9888
棧	-10.9888
拓	-10.9889
杼	-10.9889
璽	-10.9889
哥	-10.989
踞	-10.989
翥	-10.989
僖宗	-10.9892
崇安	-10.9895
太液	-10.9896
中宵	-10.9897
潑	-10.99
相顧	-10.9902
駿馬	-10.9911
此二句	-10.9914
松下	-10.9916
珠玉	-10.992
行於世	-10.9924
賓客	-10.9929
荷葉	-10.9932
洪武	-10.994
誰憐	-10.9941
押韻	-10.9941
酒醒	-10.9944
康節	-10.9945
衡州	-10.995
秦州	-10.9952
少保	-10.9958
曲名	-10.9963
凡此	-10.9964
風烟	-10.9971
羅隱	-10.9972
莆田	-10.9975
不悟	-10.9975
聮句	-10.998
他時	-10.9981
光明	-10.9981
玉皇	-10.9983
短長	-10.9988
分司	-10.9992
魏野	-10.9994
許之	-10.9997
長洲	-11.0003
德宗	-11.0004
何䖏	-11.0006
青草	-11.0013
一株	-11.0015
往還	-11.0016
永嘉人	-11.0032
歲月	-11.0045
歆	-11.005
殘紅	-11.0052
拊	-11.0053
黏	-11.0054
劭	-11.0056
舄	-11.0056
轆轤	-11.0057
菖蒲	-11.0057
東方朔	-11.0059
緻	-11.0059
爱	-11.0059
涓	-11.006
時號	-11.0061
大率	-11.0061
猗	-11.0061
盍	-11.0062
摸	-11.0063
奉和	-11.0063
貳	-11.0063
脊	-11.0064
啜	-11.0065
桒	-11.0065
髩	-11.0065
誘	-11.0066
唳	-11.0066
鶩	-11.0066
𤨏	-11.0067
吼	-11.0068
碾	-11.0068
而出	-11.0068
楊大年	-11.0068
厺	-11.0069
躁	-11.007
篙	-11.007
欽定四庫全書漁隱叢話前集巻	-11.007
頓挫	-11.0073
杖藜	-11.0073
弋	-11.0074
楊誠齋	-11.0075
願得	-11.0075
瀝	-11.0076
逸少	-11.0076
嫖姚	-11.0077
杳杳	-11.0077
翠華	-11.008
萬世	-11.008
四皓	-11.0096
庚申	-11.0097
夜宿	-11.0102
山頂	-11.0102
長松	-11.0102
六合	-11.0112
語言	-11.0114
左司	-11.0115
承恩	-11.0116
城下	-11.0117
其母	-11.012
沈沈	-11.0122
新竒	-11.0122
流俗	-11.0122
須知	-11.0125
髙妙	-11.0126
如老杜	-11.0127
發明	-11.0134
意味	-11.0134
其法	-11.0134
始得	-11.0139
熟讀	-11.0147
終篇	-11.017
渡河	-11.0173
金錢	-11.0176
蒼龍	-11.0181
第六	-11.0186
未聞	-11.0187
起句	-11.019
并州	-11.0191
送僧	-11.0199
學詩者	-11.0207
青絲	-11.0215
宋初	-11.0215
乞與	-11.0215
一麾	-11.0217
然觀	-11.022
風雪	-11.0224
上帝	-11.0229
殺人	-11.023
彛	-11.0234
故東坡	-11.0235
蠡	-11.024
稹	-11.0241
夢裏	-11.0241
薺	-11.0242
楫	-11.0242
若夫	-11.0243
幣	-11.0243
公誌	-11.0244
曝	-11.0245
日夕	-11.0246
万	-11.0246
娱	-11.0246
姝	-11.0247
貸	-11.0247
肻	-11.0247
盻	-11.0247
廽	-11.0248
喙	-11.025
髭	-11.025
駱	-11.0252
顚	-11.0252
君平	-11.0252
旂	-11.0253
羔	-11.0253
琮	-11.0255
聲調	-11.0255
串	-11.0255
亢	-11.0256
城北	-11.0257
紫宸	-11.0258
遏	-11.0258
柘枝	-11.0259
泌	-11.0259
桑麻	-11.0259
御溝	-11.026
嵒	-11.0261
禊	-11.0261
蘇子美	-11.0263
益州	-11.0263
夢寐	-11.0268
樂章	-11.0269
王建宫詞	-11.027
王昌齡	-11.027
文潞公	-11.0273
相送	-11.0273
石榴	-11.0284
漫錄	-11.0285
所宜	-11.0285
應詔	-11.0291
胡為	-11.0291
王右丞	-11.0293
集載	-11.0294
經營	-11.0305
諸賢	-11.0311
召試	-11.0317
隴西	-11.0332
穿花	-11.0333
宫商	-11.0337
風煙	-11.0339
西來	-11.0345
莆田人	-11.0346
表聖	-11.0347
在位	-11.0352
行役	-11.0356
武侯	-11.0358
先是	-11.0359
字彦	-11.0359
京華	-11.0366
題目	-11.0369
幾多	-11.0374
雨餘	-11.0375
張説	-11.0375
雪滿	-11.0378
國語	-11.0381
屏山	-11.0383
此豈	-11.0386
京城	-11.0391
如練	-11.0393
吾道	-11.0397
榕	-11.0408
闗山	-11.0413
地名	-11.0415
黄常明	-11.0423
㤙	-11.0426
聨句	-11.0426
厮	-11.0429
咸平	-11.043
駟	-11.0431
靴	-11.0431
詫	-11.0432
汶	-11.0434
五言云	-11.0434
桐江詩話	-11.0435
彤	-11.0435
瘡	-11.0435
楞	-11.0436
泳	-11.0437
閟	-11.0437
太常博士	-11.0437
㤀	-11.0437
前賢小集拾	-11.0437
鉏	-11.0438
苓	-11.0438
蔥	-11.0438
涌	-11.0438
槿	-11.0439
犬吠	-11.0439
﨑嶇	-11.044
鑚	-11.044
滓	-11.0441
嫉	-11.0441
珠璣	-11.0441
吏部尚書	-11.0442
隈	-11.0442
漬	-11.0442
舫	-11.0443
醴	-11.0443
債	-11.0443
紇	-11.0443
道傍	-11.0443
燼	-11.0443
糞	-11.0444
芸	-11.0445
數枝	-11.0446
元㣲之	-11.0446
娃	-11.0447
大暦	-11.0448
而退	-11.0451
承㫖	-11.0456
郵亭	-11.0456
鯉魚	-11.0457
南園	-11.0459
洞霄宫	-11.0461
腸斷	-11.0467
詩一首	-11.0469
峴山	-11.0472
瑶池	-11.0479
大體	-11.0482
蔡京	-11.0482
流年	-11.0484
金釵	-11.0484
玉川	-11.0486
果然	-11.0488
館閣	-11.0496
三徑	-11.0498
珍重	-11.0501
古體	-11.051
待詔	-11.0515
吉州	-11.0515
世祖	-11.0517
萬丈	-11.0519
太虚	-11.0525
月色	-11.0542
南岳	-11.0544
黄氏	-11.0544
退居	-11.0558
淺深	-11.0564
煙波	-11.0564
殘陽	-11.0573
再三	-11.0579
以告	-11.0579
其兄	-11.0583
濟南	-11.0597
驚起	-11.0597
闗中	-11.0599
格調	-11.0606
白骨	-11.0607
初學	-11.0609
詩其源出於	-11.0618
槖	-11.0622
訂	-11.0623
聶	-11.0625
音韻	-11.0625
匈奴	-11.0626
莱	-11.0626
葫蘆	-11.0629
賸	-11.063
扄	-11.063
淋漓	-11.0631
茘枝	-11.0631
帬	-11.0631
困學紀聞	-11.0631
瓘	-11.0631
籙	-11.0632
傚	-11.0632
吏部侍郎	-11.0632
攘	-11.0633
文正公	-11.0633
者甚衆	-11.0633
苕溪漁隱叢話	-11.0633
儋	-11.0634
級	-11.0634
鏁	-11.0634
皁	-11.0635
唐音癸籖巻	-11.0635
情性	-11.0635
幙	-11.0636
球	-11.0636
殿前	-11.0637
孟東野	-11.0637
甄	-11.0637
蜻	-11.0637
依稀	-11.0644
烏鵲	-11.0646
召還	-11.0648
閽	-11.0648
甜	-11.0649
磊落	-11.0649
僧孺	-11.0651
耆舊	-11.0653
經綸	-11.0656
總龜	-11.0656
年六十	-11.0658
不離	-11.066
烏鬼	-11.066
韋莊	-11.0668
晦翁	-11.067
杯中	-11.0671
詠懐	-11.0677
由此	-11.068
杯酒	-11.0686
也復齋漫録云	-11.0688
燈前	-11.069
獨倚	-11.0697
夏侯	-11.0702
大歴	-11.0706
海門	-11.0706
昌言	-11.071
白鹿	-11.0716
二十三	-11.0728
世稱	-11.0732
詩亦云	-11.0732
千峯	-11.0736
東萊	-11.0741
北闕	-11.0745
蕭何	-11.0745
淮南子	-11.0748
兩漢	-11.0749
教人	-11.0757
滿眼	-11.0758
成篇	-11.0765
廣韻	-11.0766
茅山	-11.0766
送别	-11.077
近代	-11.0774
北固	-11.0777
足矣	-11.078
紅梅	-11.0781
都門	-11.0781
牝	-11.0782
北望	-11.0787
偶題	-11.079
小園	-11.0798
子規	-11.08
一徑	-11.0801
商山	-11.0802
黄鳥	-11.0803
遥知	-11.0803
形似	-11.0804
尚書郎	-11.0807
東坡和	-11.0812
翺	-11.0814
剔	-11.0815
按唐	-11.0815
鑪	-11.0815
本意	-11.0816
鄜	-11.0818
戸部	-11.0819
阡	-11.0823
司馬温公	-11.0823
蒨	-11.0823
舞衣	-11.0823
緫	-11.0824
犂	-11.0825
濳	-11.0826
臼	-11.0827
龍池	-11.0827
搗	-11.0828
賀知章	-11.0828
晁無咎	-11.0829
官軍	-11.0829
凜	-11.0829
襦	-11.0829
汩	-11.083
賽	-11.083
囿	-11.0833
濮	-11.0833
洙	-11.0833
黼	-11.0833
脆	-11.0834
駝	-11.0835
灔	-11.0835
崛	-11.0835
令狐楚	-11.0836
麻姑	-11.0836
歿	-11.0837
丕	-11.0838
王弇州	-11.0839
這	-11.0839
團扇	-11.084
蹤跡	-11.0842
杜工部	-11.0843
集附	-11.0843
招魂	-11.0847
維摩	-11.085
松聲	-11.0851
漫漫	-11.0852
王勃	-11.0861
集韻	-11.0862
秀老	-11.0865
宏詞	-11.0865
流涕	-11.087
潛夫	-11.087
羽毛	-11.0873
瓊花	-11.0874
曽見	-11.0874
横斜	-11.0875
工拙	-11.0876
三百年	-11.0878
酒杯	-11.0879
太白詩	-11.0879
元祐初	-11.0881
今宵	-11.0881
醉眠	-11.0885
太學生	-11.0886
車駕	-11.0891
眉山	-11.0897
夫婦	-11.0899
舊遊	-11.0901
亦嘗	-11.0902
蘇武	-11.0906
逢人	-11.091
髙麗	-11.091
文體	-11.0913
霜雪	-11.0921
碧桃	-11.0925
五品	-11.0926
故謂之	-11.0928
後進	-11.0937
神明	-11.0946
九霄	-11.0947
别業	-11.0947
受命	-11.0956
者耶	-11.0957
願君	-11.0962
數里	-11.0967
盖用	-11.0977
諺云	-11.0979
園中	-11.0981
獨步	-11.0983
事業	-11.0999
慨	-11.1
楊氏	-11.1002
最佳	-11.1006
謂此也	-11.101
皋	-11.1011
盪	-11.1012
小草齋	-11.1013
邨	-11.1017
迁	-11.102
浙江	-11.1022
訥	-11.1022
䖝	-11.1022
汁	-11.1023
訶	-11.1023
皇甫冉	-11.1023
菩薩	-11.1024
沫	-11.1024
褊	-11.1024
撮	-11.1025
桑柘	-11.1025
軋	-11.1025
五侯	-11.1026
工部尚書	-11.1027
貲	-11.1028
䜛	-11.1028
暎	-11.1028
逆旅	-11.1028
范蠡	-11.1028
攲	-11.1029
蹴	-11.1029
膾炙人口	-11.1029
韓翃	-11.103
禰衡	-11.103
徂	-11.103
埀	-11.103
何遜	-11.1031
縳	-11.1031
城外	-11.1032
槍	-11.1033
司農	-11.1033
䰟	-11.1034
茲	-11.1035
􁁊	-11.1036
弘	-11.1036
徳宗	-11.1038
嘲之曰	-11.1039
禀	-11.104
林逋	-11.1043
平沙	-11.1045
郊祀	-11.1046
章子厚	-11.1046
男女	-11.1049
蘇子由	-11.1051
浙西	-11.1052
玉簫	-11.1052
應舉	-11.1056
尊前	-11.106
鴻鴈	-11.1062
二物	-11.1065
筆法	-11.1066
李嘉祐	-11.1066
太息	-11.1067
宣王	-11.1067
九鎖	-11.1068
帶雨	-11.1074
䂬溪詩話	-11.1075
江夏	-11.1075
文忠公	-11.1076
參政	-11.1081
把酒	-11.1081
元獻	-11.1082
數語	-11.1083
末年	-11.1084
長嘯	-11.1092
歌扇	-11.1102
連珠	-11.1103
文穆	-11.1106
惠州	-11.1109
水底	-11.1109
嘉興	-11.1113
野老	-11.1116
掌中	-11.1119
錦江	-11.112
隱隱	-11.1124
余因	-11.1137
陳迹	-11.1139
鶴林	-11.1139
中秋月	-11.1145
片雲	-11.1149
為人所	-11.1161
曲終	-11.1164
全用	-11.1166
玉露	-11.1166
絲竹	-11.1166
嘉祐中	-11.1172
實録	-11.1177
無愧	-11.1178
詔書	-11.1186
詩序云	-11.1197
元夕	-11.1197
榴	-11.1198
悠	-11.1209
今夕	-11.1209
稗	-11.1216
躑躅	-11.1216
吠	-11.1218
岱	-11.1222
錬	-11.1223
塋	-11.1225
熙寜	-11.1225
綰	-11.1225
献	-11.1226
煜	-11.1227
鷰	-11.1227
筌	-11.1228
灞	-11.1228
琦	-11.1228
洵	-11.1228
聾	-11.1229
觥	-11.1229
泚	-11.1229
亊	-11.1229
摯	-11.1229
攅	-11.1229
瘧	-11.123
九齡	-11.123
哺	-11.123
琪	-11.123
自成一家	-11.1231
贈詩云	-11.1231
磧	-11.1231
炷	-11.1231
籖	-11.1232
洶	-11.1233
塚	-11.1233
逶迤	-11.1234
殻	-11.1234
咲	-11.1234
幌	-11.1235
湄	-11.1235
異矣	-11.1235
僞	-11.1235
颯	-11.1236
花蘂夫人	-11.1236
蹉跎	-11.1236
鞦韆	-11.1237
擣	-11.1237
秣	-11.1237
覿	-11.1238
扆	-11.1238
菰	-11.1239
系述	-11.1239
嶷	-11.1239
不湏	-11.124
野色	-11.124
撾	-11.1241
第七	-11.1241
鶚	-11.1241
蔕	-11.1241
冐	-11.1242
宋景文	-11.1242
景龍	-11.1245
流離	-11.1252
嵗寒	-11.1256
弟兄	-11.1257
呉越	-11.1257
王安石	-11.1267
露布	-11.1269
冬日	-11.127
脩竹	-11.1271
清曉	-11.1273
裴度	-11.1276
忘機	-11.1278
秦淮	-11.1279
忽驚	-11.128
西陵	-11.1282
三品	-11.1283
微雨	-11.1285
軍中	-11.1286
名利	-11.1287
祭酒	-11.1287
升堂	-11.1292
塵世	-11.1296
紅樓	-11.1297
揮毫	-11.1297
功臣	-11.1299
明月照	-11.1301
景純	-11.1306
赤松	-11.1309
殘雪	-11.1314
嘗聞	-11.1316
方丈	-11.1321
不羈	-11.1328
猶可	-11.1338
鳥聲	-11.1344
避地	-11.135
寸心	-11.1353
兒孫	-11.1355
口號	-11.1363
兩浙	-11.1369
華嚴	-11.1382
怪石	-11.1388
曹劉	-11.1398
應物	-11.1404
玉女	-11.1405
昔時	-11.1412
永樂	-11.1412
舊本	-11.1416
斃	-11.142
莘	-11.1421
傾城	-11.1421
囯	-11.1427
佳氣	-11.1428
棣	-11.1429
茸	-11.143
甸	-11.1433
夷堅志	-11.1433
竽	-11.1433
譴	-11.1434
么	-11.1434
訕	-11.1434
公神道碑	-11.1434
薊	-11.1435
两句	-11.1436
曆	-11.1437
鉞	-11.1437
処	-11.1437
豚	-11.1438
迸	-11.1438
觜	-11.1438
渺渺	-11.1438
猥	-11.1438
麋鹿	-11.1439
詩林廣記	-11.1439
俳	-11.1439
能改齋漫録	-11.1439
賦詠	-11.144
秉燭	-11.1441
泠泠	-11.1441
泄	-11.1442
陸士衡	-11.1442
揔	-11.1442
燾	-11.1442
潞公	-11.1443
㪚	-11.1443
燄	-11.1444
嘉州	-11.1444
曳	-11.1444
冡	-11.1444
家住	-11.1444
舶	-11.1445
瞳	-11.1445
矧	-11.1445
聲畫集	-11.1446
抉	-11.1446
瀟灑	-11.1447
愿	-11.1447
烱	-11.1449
壚	-11.1449
行狀	-11.1449
提刑	-11.145
寥寥	-11.1451
青箱	-11.1451
上林賦	-11.1452
祓	-11.1453
廊廟	-11.1454
禾黍	-11.1455
馮夷	-11.1456
皇太子	-11.146
鴻漸	-11.1463
東甌	-11.1464
嚴維	-11.147
燕雀	-11.147
前村	-11.1472
豈易	-11.1473
后土	-11.1481
第二句	-11.1481
杜宇	-11.1482
偶談	-11.1487
伯玉	-11.1487
㸃化	-11.149
樽酒	-11.1493
至尊	-11.1493
李太白詩	-11.1494
苑中	-11.1501
以詩名	-11.1502
九曲	-11.1505
韻語	-11.1508
一番	-11.1512
孤村	-11.1517
北苑	-11.1518
天機	-11.1518
疎影	-11.1518
良久	-11.1531
聯句	-11.1533
白沙	-11.1533
宛然	-11.1535
本末	-11.1537
真珠	-11.1537
全唐	-11.1546
謫官	-11.1561
其姓名	-11.1569
倚樓	-11.1572
細細	-11.1572
芳樹	-11.1575
一般	-11.1575
只今	-11.1575
絶妙	-11.1581
婺州	-11.1595
峴	-11.1595
太極	-11.1607
九章	-11.161
齧	-11.1615
錢氏	-11.1619
留連	-11.1621
楊州	-11.1621
始覺	-11.1623
水部	-11.163
讚	-11.1636
銀燭	-11.1638
留别	-11.1639
東坡嘗	-11.164
鸕鷀	-11.1645
抒	-11.1646
譯	-11.1646
欒	-11.1647
飡	-11.1647
謝朓	-11.1648
笞	-11.1649
褭	-11.165
陳陶	-11.165
邃	-11.165
件	-11.165
竹莊詩話巻	-11.1651
㵼	-11.1651
酴醿	-11.1651
戌	-11.1651
芮	-11.1652
曄	-11.1652
繚	-11.1652
辜	-11.1653
悄	-11.1653
茹	-11.1654
簽	-11.1654
喝	-11.1654
杓	-11.1654
伊尹	-11.1654
勛	-11.1655
緜	-11.1655
陸龜䝉	-11.1656
曛	-11.1657
征人	-11.1658
襖	-11.1658
稔	-11.1658
眩	-11.1661
稠	-11.1661
斸	-11.1662
奉詔	-11.1662
溪流	-11.1663
嘉禾	-11.1664
挿	-11.1664
泓	-11.1665
教坊	-11.1666
瑾	-11.1666
沉沉	-11.1672
今何在	-11.1674
體物	-11.1675
張子野	-11.1681
糖	-11.1689
光隂	-11.1689
悲壯	-11.1693
擊節	-11.1695
紙筆	-11.1706
一箇	-11.1718
野客	-11.1726
翠㣲	-11.174
昌齡	-11.1741
兩鬢	-11.1743
汝隂	-11.1751
鳥啼	-11.1757
滁州	-11.1768
觀音	-11.177
神宗朝	-11.1772
法曹	-11.1781
枝葉	-11.1782
小說	-11.1787
霄漢	-11.1788
夜話	-11.1789
虎頭	-11.1794
輕重	-11.1795
孝宗	-11.1797
互相	-11.18
邊城	-11.18
重疊	-11.1804
不得志	-11.1814
召對	-11.1826
曰朕	-11.1838
許昌	-11.1843
檀弓	-11.185
慱	-11.1856
鯽	-11.1858
劄	-11.1859
榦	-11.1861
姢	-11.1863
愽	-11.1864
靨	-11.1864
蘖	-11.1865
鮫	-11.1865
王禹玉	-11.1866
窣	-11.1866
愔	-11.1867
罹	-11.1868
李伯時	-11.1868
慈恩寺	-11.1868
查	-11.1869
懋	-11.1869
撑	-11.1869
塟	-11.1869
嗚咽	-11.187
沓	-11.187
鱠	-11.1871
鶉	-11.1872
蹲	-11.1872
幔	-11.1872
邏	-11.1873
亶	-11.1873
學林新編	-11.1874
祥符	-11.1874
貔	-11.1874
潘邠老	-11.1875
然後知	-11.1875
盈盈	-11.1875
孔融	-11.1875
泯	-11.1876
義理	-11.1877
屣	-11.1877
掀	-11.1878
荆棘	-11.1879
刁	-11.188
詩眼云	-11.1881
澣	-11.1881
曹植	-11.1882
眄	-11.1882
李翺	-11.1886
㫁腸	-11.1886
淳化	-11.1886
靖節	-11.1889
扶桑	-11.1891
雍容	-11.1897
岳陽樓	-11.1898
水濵	-11.1902
司户	-11.1905
露滴	-11.1906
清濁	-11.1914
漁隱	-11.1916
畫像	-11.1918
翠屏	-11.192
懐抱	-11.192
落暉	-11.1921
畫屏	-11.1925
飄然	-11.1929
周旋	-11.193
蕭散	-11.1931
屈宋	-11.1933
帝京	-11.1936
南嶽	-11.1941
樽前	-11.1942
朱顔	-11.1951
百戰	-11.1952
范陽	-11.196
精切	-11.1968
兵火	-11.1971
幽谷	-11.1974
主司	-11.1979
所賞	-11.1991
棄官	-11.2015
後漢書	-11.2017
崔氏	-11.2024
緑楊	-11.2026
盧氏	-11.2028
元亮	-11.2029
許彦周詩話	-11.2031
羽衣	-11.2032
問其故	-11.2038
臨終	-11.2046
不减	-11.2047
郴	-11.2061
懷古	-11.2076
丑	-11.2077
亦可謂	-11.2078
朝散大夫	-11.2079
嚮	-11.2079
綦	-11.2082
霹靂	-11.2082
顒	-11.2082
覈	-11.2083
盌	-11.2084
襯	-11.2084
欸	-11.2085
菁	-11.2086
豊	-11.2088
莒	-11.2088
洪駒父	-11.2088
滕王閣	-11.2088
顥	-11.2089
崇文	-11.2089
灼灼	-11.209
缾	-11.209
兵部侍郎	-11.209
繒	-11.2091
搔	-11.2091
楮	-11.2091
憇	-11.2092
揮麈	-11.2092
皎皎	-11.2093
殿中侍御史	-11.2093
帝紀	-11.2094
袋	-11.2095
臞	-11.2095
燧	-11.2095
壙	-11.2096
汪彦章	-11.2096
漉	-11.2096
珏	-11.2096
知貢舉	-11.2096
毘陵	-11.2098
抝	-11.2098
都督	-11.2099
愁殺	-11.2103
翛然	-11.2103
釣磯	-11.2106
葆	-11.2106
詩案云	-11.2107
浩浩	-11.2111
司馬遷	-11.2113
三十七	-11.2113
牧童	-11.2114
登進士第	-11.2114
稽首	-11.2116
江樓	-11.212
西域	-11.212
破題	-11.2124
酺	-11.2127
叢談	-11.2129
甚佳	-11.2132
玉笛	-11.2136
釋名	-11.2139
錦城	-11.2142
擬古	-11.2143
大滌	-11.2145
所據	-11.215
唐制	-11.2152
李白詩	-11.2152
黄雀	-11.2157
堯夫	-11.2159
有詩云云	-11.216
婺	-11.2162
感歎	-11.2173
咸通中	-11.2177
幸蜀	-11.2177
桃葉	-11.2179
君謨	-11.218
登高	-11.218
酒旗	-11.2189
傳寫	-11.2192
殺身	-11.2195
秦川	-11.2216
亂離	-11.2219
苕溪漁隱曰余	-11.2224
所撰	-11.2225
性命	-11.2225
僧房	-11.2229
獨歩	-11.223
醉鄉	-11.2231
宋亡	-11.2232
老農	-11.2273
平陽	-11.2275
後山詩話	-11.2276
多佳句	-11.2276
語錄	-11.2277
夢回	-11.229
汝南	-11.23
羿	-11.2303
楊升庵	-11.2303
竒絶	-11.2305
琚	-11.2305
籀	-11.2308
薔薇	-11.2308
鼙	-11.2309
𣲖	-11.231
上人云	-11.2311
陳去非	-11.2311
偁	-11.2313
譌	-11.2314
躭	-11.2314
樗	-11.2315
企	-11.2316
禇	-11.2317
迓	-11.2317
濓	-11.2317
等謹案	-11.2319
朔風	-11.2319
豺	-11.2319
沅	-11.232
盎	-11.2321
脅	-11.2322
左拾遺	-11.2322
糓	-11.2323
澀	-11.2323
渌	-11.2324
擾擾	-11.2324
巉	-11.2326
虎豹	-11.2328
集賢院	-11.2328
隱居詩話云	-11.2328
蠏	-11.2328
穰	-11.233
坂	-11.233
櫟	-11.233
捲簾	-11.2331
疇昔	-11.2334
沈存中	-11.2334
豪傑	-11.2337
衡山	-11.2338
百韻	-11.2338
想像	-11.2339
藝苑	-11.2341
鄂州	-11.2342
金鑾	-11.2345
彈琴	-11.2348
陜西	-11.2351
群臣	-11.2354
湖湘	-11.2363
不可不知	-11.2375
䕫州	-11.2375
籬落	-11.2378
太傅	-11.2381
武功	-11.2383
紫㣲	-11.2383
伯夷	-11.2385
韓文公	-11.239
荀子	-11.239
無咎	-11.2393
士衡	-11.2393
挽歌	-11.2394
七尺	-11.2395
李義山詩	-11.2414
黄鶯	-11.2416
平仲	-11.2419
釋氏	-11.2422
制度	-11.2423
石渠	-11.2425
風飄	-11.2426
表裏	-11.2434
姓氏	-11.2448
評論	-11.2461
觀此則	-11.2462
千巖	-11.2462
千嵗	-11.2464
東郊	-11.2464
藥名	-11.2466
十六年	-11.2469
興化	-11.2471
淺近	-11.2487
孟陽	-11.2491
四壁	-11.2505
祠部	-11.2518
媵	-11.2528
甚工	-11.2534
荔	-11.2537
怏	-11.2539
蝨	-11.2544
槁	-11.2545
弇	-11.2545
彧	-11.2545
衿	-11.2546
賂	-11.2546
紐	-11.2546
廷珪	-11.2547
詩文評類提要	-11.2548
鐺	-11.2548
仁宗朝	-11.2548
瀛洲	-11.2549
甃	-11.2549
漚	-11.255
吕氏童䝉訓	-11.255
瑰	-11.2551
逓	-11.2552
錐	-11.2552
椎	-11.2552
同中書門下平章事	-11.2552
㓗	-11.2553
曺	-11.2554
琅玕	-11.2554
詁	-11.2554
工部侍郎	-11.2554
麽	-11.2555
皇甫湜	-11.2555
婁	-11.2555
增修詩話總龜卷之	-11.2555
國子監	-11.2556
寺壁	-11.2558
筐	-11.2558
舩	-11.2559
湫	-11.2559
煬帝	-11.256
种	-11.256
穿鑿	-11.2561
隼	-11.2562
緬	-11.2562
亘	-11.2562
騎驢	-11.2563
洛城	-11.2563
報國	-11.2563
篇什	-11.2565
竹坡詩話	-11.2566
貫穿	-11.2566
祝融	-11.2567
李煜	-11.2568
孝武	-11.2571
宫闕	-11.2573
宣撫	-11.2573
庭筠	-11.2575
三昧	-11.2578
恰似	-11.2579
十九首	-11.2587
綺麗	-11.2588
元和中	-11.2588
吁嗟	-11.2589
細腰	-11.2592
祖父	-11.2593
茫然	-11.2595
夜宴	-11.2596
結廬	-11.2596
一聫	-11.2601
金粟	-11.2603
市井	-11.2604
建寧	-11.2623
悞矣	-11.2624
宴坐	-11.2639
聖人之	-11.2647
補遺	-11.2654
洞口	-11.2657
有一人	-11.266
閣筆	-11.267
烟火	-11.2671
不寐	-11.268
滿庭	-11.2681
千頃	-11.2694
榮華	-11.27
黃金	-11.27
呉江	-11.2701
飛鴻	-11.2708
傷神	-11.2708
則不然	-11.2708
手持	-11.2716
孔明	-11.2717
新婦	-11.2722
修竹	-11.2724
清話	-11.2729
居仁	-11.2729
此兩句	-11.2741
餘慶	-11.2763
縂	-11.2767
欝	-11.2777
腔	-11.278
燥	-11.278
膾	-11.278
蜀道難	-11.2781
佯	-11.2782
西征	-11.2782
懇	-11.2783
㢘	-11.2783
豳	-11.2784
鍾嶸	-11.2786
勺	-11.2787
燦	-11.2787
鐙	-11.2789
白紵	-11.2789
婆娑	-11.2789
芰	-11.279
楨	-11.279
嚬	-11.279
萎	-11.279
攢	-11.2791
醺	-11.2792
御史大夫	-11.2792
啖	-11.2793
金石例	-11.2793
以俟	-11.2794
踪	-11.2794
罅	-11.2794
霰	-11.2794
輞川	-11.2795
絢	-11.2795
錦瑟	-11.2795
輭	-11.2796
溧	-11.2796
郇	-11.2797
刷	-11.2798
逗	-11.2799
禁臠	-11.2799
糊	-11.2799
驃	-11.2799
懌	-11.2802
椿	-11.2802
劃	-11.2803
無名子	-11.2803
猛虎	-11.2803
駟馬	-11.2805
弱冠	-11.2813
禍福	-11.2814
延夀	-11.2814
藍田	-11.2821
感興	-11.2822
小艇	-11.2822
靈芝	-11.2824
希逸	-11.2826
筆硯	-11.2828
柰何	-11.2844
忠孝	-11.2844
桑田	-11.2845
太夫人	-11.2849
景仁	-11.285
洞房	-11.2853
王涯	-11.2859
諡曰	-11.2867
樂工	-11.2873
承平	-11.2875
賜宴	-11.2879
睡起	-11.2881
結交	-11.2897
審言	-11.2904
無涯	-11.2905
故其詩	-11.2913
體格	-11.2916
含情	-11.2928
貴賤	-11.294
晉宋	-11.2941
也又一例也	-11.2953
離合	-11.2966
沾衣	-11.2986
畫工	-11.299
龜山	-11.2996
君墓誌銘右誌	-11.2999
凛	-11.3003
蠙	-11.3019
恪	-11.3019
苜蓿	-11.3021
礬	-11.3024
愍	-11.3026
玳瑁	-11.3026
籜	-11.3027
圯	-11.3027
雷霆	-11.3028
厦	-11.3029
唐子西	-11.303
謝康樂	-11.303
苟	-11.3031
丁晉公	-11.3032
爍	-11.3032
跌	-11.3032
耦	-11.3033
鰲	-11.3033
暌	-11.3033
李商隱	-11.3033
會稽	-11.3033
躅	-11.3033
翕	-11.3033
玠	-11.3033
幘	-11.3033
匱	-11.3034
湮	-11.3034
重複	-11.3034
苧	-11.3034
吕氏春秋	-11.3034
入黨籍	-11.3034
嗚	-11.3034
齊東野語	-11.3035
芹	-11.3035
帚	-11.3036
揀	-11.3036
瀨	-11.3036
蒯	-11.3036
瀬	-11.3036
葑	-11.3037
羶	-11.3037
饋	-11.3038
軍節度使	-11.3038
溶溶	-11.3039
巍	-11.3039
詬	-11.3039
著作郎	-11.3039
形骸	-11.3039
詩家鼎臠	-11.3041
水經注	-11.3041
秦少㳺	-11.3042
籃	-11.3042
月蝕詩	-11.3042
伉	-11.3043
莘老	-11.3044
紹熙	-11.3044
無恙	-11.3051
𦂳	-11.3052
孱	-11.3053
栢梁	-11.3054
沈彬	-11.3054
香奩集	-11.3056
遯齋閒覽云	-11.3058
折腰	-11.3061
諱某	-11.3062
扈從	-11.3062
阿母	-11.3063
支離	-11.3066
太保	-11.3066
西涯	-11.3067
朅來	-11.307
韓幹	-11.3071
湖海	-11.3074
鳥獸	-11.3074
紹定	-11.3075
鞍馬	-11.3076
種種	-11.308
爽氣	-11.3084
屈指	-11.3085
何足道	-11.3088
典雅	-11.3092
揺落	-11.3107
紅粧	-11.311
作詩云云	-11.3128
可謂善	-11.313
徃還	-11.3141
合歡	-11.3144
雜詠	-11.315
徐陵	-11.3151
簾外	-11.3158
浮圖	-11.3179
僧舍	-11.3182
宫室	-11.3184
殆不可	-11.3187
二十巻	-11.3189
徽宗朝	-11.319
天地間	-11.3192
難忘	-11.3195
伯仲	-11.3208
元暉	-11.3215
歐陽修	-11.3218
醉卧	-11.3221
佳期	-11.3236
曽祖	-11.3241
葛常之	-11.327
飼	-11.3272
閃	-11.3273
蟋蟀	-11.3275
頡	-11.3275
藿	-11.3275
蛩	-11.3275
峡	-11.3275
嘘	-11.3276
魔	-11.3276
宕	-11.3278
箵	-11.3278
箏	-11.3278
媛	-11.3278
糾	-11.3279
穗	-11.3279
攽	-11.3279
瞥	-11.328
媪	-11.3281
復齋漫錄云	-11.3281
悴	-11.3281
未知孰是	-11.3282
楊升菴云	-11.3282
艮	-11.3282
募	-11.3283
酉陽雜爼	-11.3283
卭	-11.3283
瑒	-11.3283
隷	-11.3284
闇	-11.3284
猱	-11.3284
讃	-11.3285
杜審言	-11.3285
蔡寛夫	-11.3286
寖	-11.3286
坼	-11.3286
祕書監	-11.3287
赭	-11.3287
蟾蜍	-11.3287
瀟瀟	-11.3288
廨	-11.3288
僉	-11.3289
珥	-11.3289
偃蹇	-11.3289
鮑昭	-11.329
子規啼	-11.329
泮	-11.329
潰	-11.3291
貟外	-11.3291
畹	-11.3292
畬	-11.3292
蛛	-11.3293
旒	-11.3293
米元章	-11.3294
崗	-11.3294
大中祥符	-11.3296
園亭	-11.3296
雎	-11.3297
品題	-11.3299
丹竈	-11.3303
淹留	-11.3305
指揮	-11.3309
張九齡	-11.3311
耒陽	-11.3314
悵然	-11.3315
卧龍	-11.3315
靈均	-11.3316
蒼崖	-11.332
良辰	-11.3327
元豐間	-11.3328
優游	-11.333
萬斛	-11.3334
中央	-11.3338
飛絮	-11.3341
倒影	-11.3357
議郎	-11.3371
可見矣	-11.3371
玉輦	-11.3372
食肉	-11.3372
承露	-11.3377
嚴陵	-11.338
先輩	-11.3383
卒諡文	-11.3393
大槩	-11.3394
秀實	-11.3411
進士及第	-11.3426
桐花	-11.3429
曾孫	-11.3444
吕氏	-11.3444
但覺	-11.3454
惜乎	-11.3456
十九年	-11.3463
用此事	-11.3498
作平聲	-11.3504
暦	-11.3513
櫻	-11.3525
緝	-11.3528
甎	-11.3531
夢溪筆談	-11.3531
臠	-11.3532
听	-11.3532
遑	-11.3533
芾	-11.3533
釁	-11.3533
縞	-11.3534
鍇	-11.3534
孩	-11.3535
螯	-11.3536
斍	-11.3536
穉	-11.3536
装	-11.3536
匀	-11.3536
箸	-11.3537
鵩	-11.3537
啞	-11.3537
暘	-11.3539
綏	-11.3539
褥	-11.3539
梟	-11.3539
愆	-11.354
京兆尹	-11.354
療	-11.3541
南部新書	-11.3541
郝	-11.3541
稗史	-11.3542
榕隂	-11.3542
剏	-11.3542
淘	-11.3543
裊裊	-11.3543
團團	-11.3543
陳無巳	-11.3544
溶	-11.3544
閎	-11.3545
薜蘿	-11.3545
珂	-11.3545
門下侍郎	-11.3545
篔	-11.3545
檠	-11.3546
甲乙	-11.3546
煌煌	-11.3546
李山甫	-11.3546
准	-11.3546
窈	-11.3546
无咎	-11.3546
纜	-11.3546
耗	-11.3546
觚	-11.3547
肴	-11.3547
离	-11.3547
荔支	-11.3548
蚌	-11.3548
愠	-11.3549
爛漫	-11.3549
酪	-11.3549
汰	-11.355
顔師古	-11.355
躋攀	-11.355
柳絮	-11.3551
卒諡	-11.3552
曖	-11.3552
潼闗	-11.3553
典刑	-11.3556
滔滔	-11.3556
佀	-11.3556
展轉	-11.3561
嘆息	-11.3563
九衢	-11.357
世系	-11.3573
百餘篇	-11.3579
逢吉	-11.358
諫議	-11.3582
火燒	-11.3582
七嵗	-11.3583
萬厯	-11.3586
萬户	-11.3587
通鑑	-11.3588
二十八字	-11.359
天棘	-11.3597
萬年枝	-11.3598
月泉吟社第	-11.3603
憑誰	-11.3618
梓州	-11.3618
衢州	-11.362
遺跡	-11.3629
興廢	-11.3639
韻語陽秋云	-11.364
水晶宫	-11.3645
靜志	-11.3652
作小詩	-11.3675
隂隂	-11.3696
苕溪漁隱曰東坡	-11.3707
不肖	-11.3708
婦女	-11.3723
薫風	-11.3752
瑟瑟	-11.3771
罘罳	-11.3779
昱	-11.378
詩押二	-11.3784
此二詩	-11.3788
莆	-11.3789
九華山	-11.3794
罩	-11.3794
𥙿	-11.3795
娟娟	-11.3795
餒	-11.3796
舟楫	-11.3796
䏻	-11.3797
泝	-11.3797
梁簡文	-11.3798
覬	-11.3798
圜	-11.3799
不知何許人	-11.3799
婿	-11.38
㝡	-11.38
巍巍	-11.38
塊	-11.38
肚	-11.38
黠	-11.3801
冺	-11.3801
㡳	-11.3801
攪	-11.3801
澠水燕談	-11.3801
博物志	-11.3802
慳	-11.3802
水東流	-11.3802
寝	-11.3802
焰	-11.3802
箠	-11.3803
詵	-11.3803
别墅	-11.3804
瞞	-11.3804
衒	-11.3804
鞵	-11.3804
筮	-11.3805
芷	-11.3805
瞿塘	-11.3805
劫	-11.3805
澥	-11.3806
需	-11.3806
癯	-11.3806
老學菴筆記	-11.3806
骰	-11.3807
長恨歌	-11.3808
顔延年	-11.3809
菌	-11.3809
嶧	-11.381
擷	-11.381
漁隱叢話後集巻	-11.381
文心雕龍	-11.3811
礼	-11.3811
橘柚	-11.3812
謝無逸	-11.3812
元遺山	-11.3812
四十五	-11.3812
垍	-11.3813
蛤	-11.3816
煎茶	-11.3818
冨貴	-11.382
懿宗	-11.382
李頎	-11.3821
韓吏部	-11.3822
延祐	-11.3827
曹操	-11.3831
白頭吟	-11.3839
鹿鳴	-11.384
詹事	-11.3848
青冥	-11.3852
金帛	-11.386
隆興	-11.3861
變態	-11.3869
嗟乎	-11.3872
馬嘶	-11.3881
竹杖	-11.3882
七里	-11.3883
不多見	-11.3884
放逐	-11.3892
嵗暮	-11.3898
吳郡	-11.3901
赴舉	-11.3906
馬融	-11.391
厥後	-11.3935
最愛	-11.3953
駮	-11.4056
室中語	-11.4064
樷	-11.4065
儲光羲	-11.4066
騖	-11.4066
呀	-11.4066
裒	-11.4067
閹	-11.4068
汨	-11.4068
紱	-11.4068
妒	-11.4068
㺯	-11.4068
陸費墀欽定四庫全書	-11.407
浹	-11.407
晁以道	-11.407
柟	-11.4071
徼	-11.4071
戎昱	-11.4071
珎	-11.4071
端明殿學士	-11.4072
暾	-11.4072
棨	-11.4072
諍	-11.4072
懃	-11.4073
僮	-11.4073
鄭毅夫	-11.4073
戴叔倫	-11.4073
膾炙	-11.4073
肌膚	-11.4074
平章事	-11.4074
䋲	-11.4075
括蒼	-11.4075
涸	-11.4076
荇	-11.4076
泫	-11.4077
港	-11.4078
騏	-11.4078
撓	-11.4078
棱	-11.4078
苒	-11.4079
森森	-11.4079
合璧事類	-11.4079
濛濛	-11.4079
丹鉛	-11.4079
潺潺	-11.4079
元次山	-11.4079
嘻	-11.4081
望夫石	-11.4082
澦	-11.4082
虫	-11.4083
抔	-11.4083
眉黛	-11.4084
塍	-11.4084
惋	-11.4084
禹貢	-11.4084
睢	-11.4085
千仞	-11.4088
塵寰	-11.4088
盧綸	-11.4091
莆陽	-11.4095
俯視	-11.4095
丘壑	-11.4095
暝色	-11.41
黃昏	-11.4101
假借	-11.4102
河朔	-11.4102
陶潛	-11.4102
錦囊	-11.4107
莫測	-11.4109
維舟	-11.4112
潘子真詩話云	-11.4114
周朴	-11.4117
李紳	-11.4119
淮隂	-11.4123
烏程	-11.4124
安撫	-11.4125
剡溪	-11.413
年月日	-11.4134
徐凝	-11.4135
雲鬟	-11.4141
東臯	-11.4169
竹枝詞	-11.4173
到底	-11.4182
此等語	-11.4184
千峰	-11.4187
採蓮	-11.4188
理宗朝	-11.4208
半夜鐘	-11.4266
漫叟詩話	-11.4291
薄暮	-11.4292
四十七	-11.4293
毫端	-11.4301
睦州	-11.432
惲	-11.4334
文苑英華	-11.4336
㐮	-11.4341
筯	-11.4341
爺	-11.4343
炫	-11.4343
矮	-11.4344
糜	-11.4344
蜺	-11.4344
宥	-11.4344
睛	-11.4344
溉	-11.4345
鞅	-11.4345
武元衡	-11.4346
譁	-11.4347
悍	-11.4347
跛	-11.4348
蒲萄	-11.4349
撩	-11.4349
鍼	-11.4349
斐	-11.4349
駙馬	-11.4349
玷	-11.435
榿	-11.435
覯	-11.435
東軒筆録	-11.4351
郞	-11.4351
蒹葭	-11.4351
裊	-11.4351
培	-11.4352
鹹	-11.4352
鍳	-11.4352
嵯峨	-11.4353
輈	-11.4353
酤	-11.4353
摛	-11.4354
蝉	-11.4354
𥙷闕	-11.4355
太學博士	-11.4355
侑	-11.4355
繳	-11.4355
蹔	-11.4356
抃	-11.4356
綿綿	-11.4356
崐	-11.4356
沿襲	-11.4357
苔蘚	-11.4357
憂患	-11.4357
鸛	-11.4358
仆	-11.4358
項斯	-11.4359
郡閣雅談	-11.4359
覺範	-11.4359
瀧	-11.436
棐	-11.436
滄波	-11.436
裕陵	-11.436
咨嗟	-11.436
纎纎	-11.4362
楊巨源	-11.4362
橐	-11.4365
杏園	-11.4366
筆札	-11.4369
織錦	-11.4369
陳后山	-11.437
玉筯	-11.4371
淚痕	-11.4371
堯佐	-11.4375
利害	-11.4377
鳳翔	-11.4379
凛然	-11.4381
鮑照	-11.4382
挂冠	-11.4384
網羅	-11.4387
淚滴	-11.4387
邇來	-11.4387
古今詩人	-11.439
黄鵠	-11.4392
奉祠	-11.4393
伯兄	-11.4393
轉運	-11.4398
萬戸	-11.4413
宗朝累官	-11.4415
鏡湖	-11.4418
虞卿	-11.4418
决非	-11.4426
地僻	-11.4427
翠眉	-11.4435
北窗	-11.4444
林塘	-11.4451
浩歌	-11.4475
用故事	-11.4477
六尺	-11.4479
彦伯	-11.4525
水晶	-11.4553
河南府	-11.4565
君墓誌銘	-11.4569
苕溪漁隠	-11.4607
𦍑	-11.4616
沙鷗	-11.4616
潞	-11.4616
奩	-11.4625
弇州	-11.4625
孽	-11.4626
輟耕	-11.4627
沱	-11.4628
禅	-11.4628
五臣注	-11.4629
葭	-11.463
翬	-11.463
襃	-11.4631
廐	-11.4631
殫	-11.4632
纍纍	-11.4632
妣	-11.4633
蓂	-11.4634
湓	-11.4634
麋	-11.4635
蕊	-11.4635
晉江人	-11.4635
瘠	-11.4635
磔	-11.4635
蒂	-11.4635
馳騁	-11.4635
罄	-11.4636
擅塲	-11.4636
獅子	-11.4636
枚乗	-11.4636
孕	-11.4636
璇	-11.4636
蔡元長	-11.4636
懲	-11.4637
刮	-11.4637
淇	-11.4637
軼	-11.4637
揄	-11.4637
滚	-11.4638
笄	-11.4638
釡	-11.4638
囑	-11.4638
弹	-11.4638
禆	-11.4638
廿	-11.4639
虯	-11.4639
韈	-11.4639
弛	-11.4639
変	-11.464
隲	-11.464
虱	-11.464
娉婷	-11.4641
儕	-11.4641
段成式	-11.4641
堞	-11.4642
蹋	-11.4642
璨	-11.4643
兇	-11.4643
楠	-11.4644
逖	-11.4644
肈	-11.4644
綻	-11.4644
輓	-11.4644
蓍	-11.4645
肢	-11.4645
愬	-11.4645
柩	-11.4645
呑	-11.4645
瀼	-11.4646
趙嘏	-11.4647
烘	-11.4647
■	-11.4648
第二十	-11.4648
甘棠	-11.4649
楊亷夫	-11.465
睿宗	-11.465
磵	-11.465
臨淄	-11.465
慎勿	-11.4652
稍稍	-11.4654
屯田	-11.4654
負薪	-11.4655
黄庭堅	-11.4657
開禧	-11.4659
泊舟	-11.466
嘉話	-11.4662
伊川	-11.4669
鑑湖	-11.4671
解嘲	-11.4674
巴陵	-11.4677
招隠	-11.4678
渾厚	-11.4679
荒村	-11.4703
孝宗朝	-11.4711
太甲	-11.4723
世所傳	-11.4837
忘憂	-11.4861
螻	-11.4906
駘	-11.4911
籥	-11.4915
宓	-11.4915
閶	-11.4916
稳	-11.4917
代吟譜	-11.4919
秦始皇	-11.4921
颭	-11.4924
盲	-11.4925
帕	-11.4925
呪	-11.4925
散騎常侍	-11.4925
梁元帝	-11.4926
糕	-11.4927
王直方	-11.4927
鑱	-11.4928
户部侍郎	-11.4928
淼	-11.4929
寞	-11.4929
侶	-11.4929
闐	-11.4929
歐陽詹	-11.4929
猩猩	-11.493
縹	-11.493
廩	-11.493
周益公	-11.493
陳子昻	-11.493
琬	-11.4932
東臯雜録云	-11.4932
孑	-11.4932
踟蹰	-11.4933
䆳	-11.4933
隳	-11.4933
安樂公主	-11.4933
饕	-11.4934
霓裳羽衣曲	-11.4936
熊羆	-11.4936
瓚	-11.4936
朂	-11.4937
周世宗	-11.4937
顗	-11.4938
䲭	-11.4938
遡	-11.4938
齎	-11.4939
鵷	-11.4939
臺榭	-11.494
𣑽	-11.494
怠	-11.4941
警策	-11.4943
李徳裕	-11.4943
州安置	-11.4943
苛	-11.4943
釋褐	-11.4944
􁊨	-11.4944
鏐	-11.4948
桐廬	-11.495
飴	-11.4952
蜩	-11.4953
囬首	-11.4955
唱酬	-11.4955
酬唱	-11.4956
輟耕録	-11.496
排律	-11.4967
釣船	-11.4976
欄干	-11.4977
陳拾遺	-11.4982
煙霧	-11.4986
郴州	-11.4989
畫山水	-11.4994
堦前	-11.4995
十才子	-11.5004
囘首	-11.5039
吹笙	-11.5059
汜	-11.521
佺	-11.5219
宝	-11.522
徇	-11.5225
熾	-11.5228
柴桑	-11.5229
懦	-11.5229
建中靖國	-11.523
砥	-11.5231
范文正公	-11.5232
嗅	-11.5232
淒	-11.5232
妺	-11.5233
乱	-11.5233
岧嶤	-11.5234
闡	-11.5234
陲	-11.5234
兵部尚書	-11.5234
醮	-11.5234
明胡震亨撰	-11.5234
枯槁	-11.5234
啣	-11.5234
寥廓	-11.5234
香奩	-11.5235
灾	-11.5235
槳	-11.5236
資政殿學士	-11.5236
坌	-11.5236
屛	-11.5236
鑣	-11.5236
紘	-11.5237
鈆	-11.5237
喘	-11.5237
褒貶	-11.5237
嵌	-11.5237
狸	-11.5238
嘔	-11.5238
拏	-11.5239
捍	-11.5239
搢紳	-11.5239
僭	-11.5239
菲	-11.5239
羃	-11.524
賭	-11.524
行路難	-11.524
蓬瀛	-11.5241
萬仞	-11.5241
嚶	-11.5241
攺	-11.5242
梔	-11.5242
鍵	-11.5242
輅	-11.5243
雌雄	-11.5243
酹	-11.5243
㮣	-11.5243
春帖子	-11.5243
岌	-11.5244
麑	-11.5246
搥	-11.5246
肅肅	-11.5248
劉勰	-11.5248
巴峽	-11.5249
招提	-11.525
倐忽	-11.525
童䝉	-11.5251
七言絶句	-11.5251
峯巒	-11.5251
佇立	-11.5251
元厚之	-11.5252
刑獄	-11.5252
鄭䖍	-11.5252
扶疎	-11.5265
靖康初	-11.5281
十丈	-11.5282
謂人曰	-11.5459
脛	-11.5533
濁醪	-11.5537
尭	-11.5538
兾	-11.5538
瞽	-11.5538
訾	-11.5539
𬋩	-11.5539
荣	-11.554
倐	-11.5541
賞花釣魚	-11.5542
獬	-11.5542
晡	-11.5543
刑部侍郎	-11.5544
秫	-11.5544
摠	-11.5544
賈似道	-11.5545
瓦礫	-11.5545
鑾輿	-11.5545
復齋謾録	-11.5545
㬰	-11.5545
匆匆	-11.5545
冠冕	-11.5546
蚩	-11.5546
瑯	-11.5546
纊	-11.5546
跂	-11.5547
劉琨	-11.5548
轄	-11.5548
笈	-11.5548
緱氏	-11.5548
皦	-11.5548
僣	-11.5548
唐彦謙	-11.5549
辜負	-11.5549
煌	-11.5549
冽	-11.5549
淂	-11.555
孔雀	-11.555
姫	-11.555
蜕	-11.555
賀方回	-11.555
左僕射	-11.555
殞	-11.555
瘞	-11.555
譲	-11.555
刳	-11.5551
杖屨	-11.5551
陸魯望	-11.5551
釜	-11.5551
鄆	-11.5551
帰	-11.5551
蔔	-11.5552
劉夣得	-11.5552
毳	-11.5552
晃	-11.5552
謝𤣥暉	-11.5553
錢昭度	-11.5553
潘閬	-11.5553
碍	-11.5554
徉	-11.5554
𫀆	-11.5555
翰府名談	-11.5555
冥搜	-11.5556
墩	-11.5556
撐	-11.5558
羅裙	-11.5559
陔	-11.5559
棟梁	-11.5559
壟	-11.5561
鳯翔	-11.5561
淋	-11.5564
薛濤	-11.5566
仁傑	-11.5566
青嶂	-11.5571
簾捲	-11.5575
巨源	-11.5576
放榜	-11.5576
紀其事	-11.5581
建炎初	-11.5583
閩省	-11.5585
拍手	-11.5589
斗柄	-11.5604
歸田録	-11.5623
開元寺	-11.5645
滁	-11.5719
藝苑雌黄	-11.5806
蔡寛夫詩話	-11.5814
晶	-11.585
苕溪漁隱	-11.5851
伋	-11.5857
騘	-11.5858
韭	-11.5859
蘸	-11.586
馗	-11.5861
酩	-11.5861
袒	-11.5861
辛丑	-11.5861
桑榆	-11.5862
彤管	-11.5862
晟	-11.5863
躔	-11.5863
東觀餘論	-11.5863
殉	-11.5864
鶚按	-11.5864
陸龜蒙	-11.5864
大理評事	-11.5864
頺	-11.5865
个	-11.5865
大明宫	-11.5866
謪	-11.5866
腋	-11.5866
苴	-11.5867
聆	-11.5867
脞	-11.5868
纈	-11.5868
粉黛	-11.5868
垓	-11.5868
岑寂	-11.5869
涴	-11.5869
產	-11.5869
顔延之	-11.587
娼	-11.587
徨	-11.587
械	-11.5871
錯綜	-11.5871
綮	-11.5871
讖	-11.5872
瘁	-11.5872
太常少卿	-11.5872
西京雜記	-11.5873
辛酉	-11.5873
梳洗	-11.5873
范石湖	-11.5873
諮	-11.5873
犁	-11.5873
筑	-11.5873
欷	-11.5873
譏誚	-11.5873
魅	-11.5873
梅磵詩話	-11.5873
鬪	-11.5873
賚	-11.5873
虀	-11.5874
甍	-11.5874
濫觴	-11.5875
痴	-11.5875
雩	-11.5875
劉原父	-11.5875
烽火	-11.5876
崔顥	-11.5876
劈	-11.5876
鷲	-11.5876
羗	-11.5877
圉	-11.5877
隂鏗	-11.5877
茆	-11.5877
怖	-11.5878
垠	-11.5879
緡	-11.5879
東西南北	-11.5879
謎	-11.588
寥落	-11.588
毗陵	-11.588
篠	-11.588
哂	-11.588
㘴	-11.5881
任昉	-11.5881
軒轅	-11.5882
荀鶴	-11.5884
豎	-11.5884
欎	-11.5886
坰	-11.5888
隍	-11.5888
晦菴	-11.589
潁川	-11.5891
韓侂胄	-11.5891
羅敷	-11.5893
陶潜	-11.5895
芳艸	-11.5895
峨眉	-11.5895
闚	-11.5896
罨畫	-11.5898
贈太師	-11.5925
魂銷	-11.5974
善謔	-11.6009
斜暉	-11.6012
户部	-11.6129
仞	-11.6173
茄	-11.6179
勰	-11.6182
柝	-11.619
購	-11.6191
酢	-11.6191
綢繆	-11.6192
庚戌	-11.6193
嶮	-11.6193
乙丑	-11.6193
夢英大師	-11.6194
熹	-11.6194
罘	-11.6194
殤	-11.6195
睫	-11.6195
諷諭	-11.6195
朦朧	-11.6196
拚	-11.6196
䌫	-11.6196
𦙍	-11.6196
仝	-11.6196
涔	-11.6197
蛮	-11.6197
鍚	-11.6198
翃	-11.6198
鍜	-11.6198
羹	-11.6199
挫	-11.62
㗸	-11.62
撃	-11.62
蔭	-11.62
郛	-11.62
慄	-11.62
缶	-11.62
嫵	-11.6201
努力	-11.6201
禺	-11.6201
斑斑	-11.6201
稻粱	-11.6201
股肱	-11.6201
朱紱	-11.6202
未第時	-11.6202
司空曙	-11.6202
櫺	-11.6203
晤	-11.6203
彞	-11.6203
爇	-11.6203
仭	-11.6203
陳文惠	-11.6203
詡	-11.6203
湊	-11.6204
廌	-11.6204
曽子固	-11.6205
澧	-11.6205
韓致光	-11.6206
嬈	-11.6206
軒冕	-11.6207
縻	-11.6207
瘞鶴銘	-11.6207
葛常之韻語陽秋曰	-11.6208
橙	-11.6208
敎坊	-11.6209
直祕閣	-11.6209
駑	-11.621
簾櫳	-11.621
朅	-11.621
淅	-11.621
渤海	-11.621
拄杖	-11.621
絲綸	-11.621
姮娥	-11.6211
𢾗	-11.6211
五月五日	-11.6211
汴京	-11.6211
癸丑	-11.6212
桞子厚	-11.6212
悰	-11.6212
短褐	-11.6213
胡笳	-11.6213
祭祀	-11.6214
厠	-11.6214
紺	-11.6214
汲汲	-11.6214
任天社云	-11.6214
隰	-11.6214
騣	-11.6214
天慶觀	-11.6214
煨	-11.6215
治平中	-11.6215
瞬	-11.6215
八哀詩	-11.6216
菰蒲	-11.6216
凛凛	-11.6216
一篇押二	-11.6218
蠟燭	-11.6219
旟	-11.622
張芸叟	-11.6223
摭遺	-11.6223
熈寧	-11.6223
鴟夷	-11.6224
州别駕	-11.6226
品藻	-11.6227
琪樹	-11.623
鶴林寺	-11.6232
鷗鷺	-11.6283
鳳凰臺	-11.6292
本事詩	-11.633
蕡	-11.6519
癢	-11.6527
潯	-11.6527
僦	-11.6534
瑛	-11.6535
野客樷書	-11.6536
李善注	-11.6536
䍦	-11.6537
芊	-11.6537
惨	-11.6537
能改齋	-11.6537
溷	-11.6537
駞	-11.6539
夤	-11.6539
鏃	-11.654
丰	-11.654
扳	-11.654
咄咄	-11.6541
忱	-11.6541
慾	-11.6542
描	-11.6542
芸叟	-11.6542
二千石	-11.6543
王君玉	-11.6543
毗	-11.6543
蕖	-11.6543
鯁	-11.6543
紂	-11.6543
墓碣	-11.6544
駰	-11.6544
芰荷	-11.6544
掌書記	-11.6544
諦	-11.6545
廚	-11.6545
娟	-11.6545
謟	-11.6546
悖	-11.6546
轢	-11.6547
䍐	-11.6547
袈裟	-11.6547
馹	-11.6547
莢	-11.6547
房琯	-11.6547
峥嶸	-11.6547
顔魯公	-11.6548
礴	-11.6548
峒	-11.6548
漱	-11.6548
蜃	-11.6548
呉郡志	-11.6549
爼	-11.6549
中呉紀聞	-11.655
芙蕖	-11.655
菩薩蠻	-11.655
劵	-11.655
烝	-11.655
合璧事類前集	-11.655
緗	-11.655
籌筆驛	-11.655
餽	-11.6551
楊文公談苑	-11.6551
尽	-11.6551
髭鬚	-11.6552
継	-11.6552
洪容齋	-11.6553
蜘蛛	-11.6553
躰	-11.6553
半山老人	-11.6553
癭	-11.6554
孥	-11.6554
狖	-11.6554
王審知	-11.6555
枰	-11.6555
赫赫	-11.6556
孫莘老	-11.6556
梅堯臣	-11.6556
軿	-11.6556
熙寕	-11.6556
䘏	-11.6556
中書侍郎	-11.6557
酈	-11.6559
瀰	-11.6559
李公擇	-11.6559
蘇頲	-11.656
撫掌	-11.656
苕溪漁隠叢話	-11.6561
脯	-11.6561
籹	-11.6561
薛稷	-11.6562
粲粲	-11.6562
糚	-11.6562
驩	-11.6563
釣竿	-11.6564
安撫使	-11.6565
㳟	-11.6567
嚴滄浪	-11.6567
磨滅	-11.657
兖州	-11.6858
蠲	-11.6877
瓣	-11.6887
箬	-11.6889
權徳輿	-11.6891
竝	-11.6892
王逸注	-11.6892
李德裕	-11.6893
畛	-11.6894
惶	-11.6894
䧏	-11.6895
隧	-11.6896
嚢	-11.6897
郎士元	-11.6897
兕	-11.6897
碌碌	-11.6898
迢逓	-11.6898
裛	-11.6899
太平廣記	-11.6899
庄	-11.6899
椶	-11.6899
埸	-11.69
文獻通考	-11.69
宋齊丘	-11.69
蓬莱	-11.69
睥睨	-11.6901
砑	-11.6901
塹	-11.6901
卸	-11.6901
楯	-11.6901
褁	-11.6902
繕	-11.6902
増修詩話總龜卷	-11.6902
歘	-11.6902
桀	-11.6902
淄	-11.6903
䔥	-11.6903
涇渭	-11.6903
讜	-11.6903
柿	-11.6903
譔	-11.6903
蝦蟇	-11.6904
慥	-11.6904
俳優	-11.6904
嫣	-11.6904
斡	-11.6904
躓	-11.6904
歧	-11.6904
容齋隨筆	-11.6904
臍	-11.6905
唐詩紀事	-11.6905
侯鯖錄	-11.6905
黿	-11.6905
曾子固	-11.6906
濆	-11.6906
癘	-11.6907
皇朝類苑	-11.6907
渤	-11.6907
璜	-11.6907
綂	-11.6907
髙齋詩話云	-11.6908
夏英公	-11.6908
郄	-11.6908
殖	-11.6908
温飛卿	-11.6908
刑部尚書	-11.6908
菟	-11.6908
陡	-11.6909
涓涓	-11.6909
漁隱叢話	-11.6909
汲黯	-11.6909
忠愍	-11.691
幅巾	-11.691
販	-11.691
凄凄	-11.691
崧	-11.6911
褚	-11.6911
睇	-11.6912
卜築	-11.6912
轟	-11.6912
葡萄	-11.6912
罨	-11.6913
沔	-11.6913
埜	-11.6914
直學士院	-11.6914
摵	-11.6914
滇	-11.6914
孝亷	-11.6915
蛆	-11.6915
㠀	-11.6916
劳	-11.6917
鐃歌	-11.6918
㽔	-11.692
郗	-11.692
麫	-11.6921
搔首	-11.6922
飄泊	-11.6923
累擢	-11.6923
杳冥	-11.6924
靳	-11.6925
勲業	-11.6927
頎	-11.7254
曹能始	-11.7254
霓裳羽衣	-11.7255
纍	-11.7258
氍	-11.726
瑗	-11.726
琱	-11.726
紬	-11.7262
襠	-11.7263
頲	-11.7264
高仲武	-11.7264
爆	-11.7265
飃	-11.7266
酧	-11.7266
禋	-11.7268
蛬	-11.7268
王逢原	-11.7269
酉陽雜俎	-11.727
叡	-11.727
陸務觀	-11.727
聒	-11.727
鱣	-11.727
賄	-11.727
滻	-11.7271
攣	-11.7271
壷	-11.7271
𢷬	-11.7271
曁	-11.7272
痛快	-11.7272
駱賔王	-11.7272
灧	-11.7272
芟	-11.7272
虞伯生	-11.7273
藁砧	-11.7273
啚	-11.7273
浥	-11.7273
緊	-11.7273
髦	-11.7273
𧺫	-11.7273
宋藝圃集	-11.7273
髠	-11.7274
全蜀藝文志	-11.7274
鬆	-11.7274
帔	-11.7276
䛒	-11.7276
棚	-11.7276
姜堯章	-11.7276
霆	-11.7276
殄	-11.7276
矗	-11.7276
蹶	-11.7276
蟠桃	-11.7276
甑	-11.7277
駸駸	-11.7277
滳	-11.7277
䌓	-11.7277
乾隆四十六年	-11.7278
王勉夫	-11.7278
刈	-11.7278
曬	-11.7279
荆軻	-11.7279
貍	-11.7279
窅	-11.728
煤	-11.728
燿	-11.728
吒	-11.7281
戛	-11.7281
灝	-11.7281
凾	-11.7281
虵	-11.7281
撒	-11.7282
後庭花	-11.7282
娑	-11.7283
全閩詩話	-11.7283
簸	-11.7283
釭	-11.7283
百家詩選	-11.7284
瑀	-11.7286
凈	-11.7286
洮	-11.7287
剗	-11.7289
郭功甫	-11.729
僮僕	-11.7291
青城山	-11.7292
中興頌	-11.7294
豉	-11.7317
復齋漫録	-11.7609
咬	-11.764
詼諧	-11.7642
蒐	-11.7643
傭	-11.7644
謩	-11.7644
歐陽文忠	-11.7645
弈	-11.7647
捴	-11.7648
葛立方	-11.7648
胸臆	-11.7648
贔	-11.7649
愉	-11.7649
埭	-11.765
肄	-11.7651
腮	-11.7652
壅	-11.7652
蝸角	-11.7652
皤	-11.7653
羈旅	-11.7653
國子司業	-11.7654
龍圖閣直學士	-11.7654
徊	-11.7654
殃	-11.7654
閩縣人	-11.7655
聿	-11.7655
卲	-11.7655
堠	-11.7656
楊仲𢎞	-11.7656
謐	-11.7656
鮓	-11.7656
蘧	-11.7656
紓	-11.7657
悠揚	-11.7657
紛紜	-11.7657
李建勲	-11.7657
𬒮	-11.7657
湟	-11.7657
噉	-11.7658
韉	-11.7658
櫛	-11.7658
仙都山	-11.7658
輻	-11.7659
崆峒	-11.7659
詈	-11.766
藹藹	-11.766
㳙	-11.766
鵑	-11.766
䭾	-11.766
揉	-11.7661
蓽	-11.7661
壼	-11.7661
飇	-11.7662
歔	-11.7662
頡頏	-11.7663
墉	-11.7663
呻吟	-11.7663
斲	-11.7663
潢	-11.7663
悽愴	-11.7663
閼	-11.7664
蹀	-11.7664
芬芳	-11.7664
漁隠樷話	-11.7664
沁	-11.7664
趙章泉	-11.7664
鶒	-11.7664
撫州府志	-11.7665
杰	-11.7665
换	-11.7665
駈	-11.7666
飫	-11.7666
脉脉	-11.7666
霓旌	-11.7666
彈丸	-11.7667
淞	-11.7667
縝	-11.7667
興化軍	-11.7668
捄	-11.7668
鮑明逺	-11.7669
洪覺範	-11.7669
兠	-11.7669
怱	-11.7669
江南野録	-11.767
徂徠	-11.767
讀之使人	-11.767
陁	-11.767
滿城風雨近重陽	-11.7675
酲	-11.7675
皆佳句也	-11.7676
榼	-11.768
脾	-11.7681
為余言	-11.7683
竺	-11.8014
凭欄	-11.8021
颶	-11.8042
樂府解題	-11.8045
韞	-11.8047
左氏傳曰	-11.8047
閗	-11.8047
迢遞	-11.8049
茜	-11.8049
文昌雜録云	-11.8049
能改齋漫錄	-11.805
嶸	-11.805
墓誌右誌	-11.805
陳子昂	-11.8051
雲溪友議	-11.8052
綆	-11.8052
聦	-11.8053
殽	-11.8053
蘇子卿	-11.8053
蘇味道	-11.8054
廂	-11.8054
滉	-11.8054
滸	-11.8054
櫪	-11.8055
汭	-11.8055
魏慶之	-11.8055
風月堂詩話	-11.8055
㴱	-11.8055
凹	-11.8055
譛	-11.8055
沈休文	-11.8056
鈐	-11.8056
荳	-11.8056
錮	-11.8056
堰	-11.8057
縉紳	-11.8057
吊	-11.8057
园	-11.8057
暹	-11.8057
黷	-11.8057
薜荔	-11.8057
羯鼓	-11.8058
壕	-11.8058
洋洋	-11.8058
癸辛雜識	-11.8058
虺	-11.8058
洪駒父詩話云	-11.8059
俘	-11.8059
杇	-11.8059
悄悄	-11.8059
彷	-11.8059
盾	-11.806
璃	-11.806
婪	-11.806
鯖	-11.8061
絆	-11.8061
楊徽之	-11.8061
壹	-11.8061
怳	-11.8061
髏	-11.8061
叚成式	-11.8061
煒	-11.8061
剽竊	-11.8061
蝦蟆	-11.8061
矯矯	-11.8062
穡	-11.8062
雨初晴	-11.8062
咄嗟	-11.8062
三山老人語録云	-11.8062
咀嚼	-11.8063
濩	-11.8063
旰	-11.8063
輾	-11.8064
髀	-11.8064
王禹偁	-11.8064
迂叟	-11.8065
瀹	-11.8065
鯢	-11.8065
噱	-11.8065
繍	-11.8066
茅茨	-11.8066
戡	-11.8067
韋嗣立	-11.8067
醯	-11.8068
䂓	-11.8068
窑	-11.8069
匏	-11.8069
攫	-11.807
覉	-11.8071
怎	-11.8072
蚕	-11.8072
籃輿	-11.8072
凋零	-11.8073
杳靄	-11.8076
寧宗朝	-11.8161
有深意	-11.8204
考工記	-11.8455
㝎	-11.8456
跗	-11.8459
鴿	-11.8459
裋	-11.8459
福清人	-11.8461
公羊傳	-11.8462
㒺	-11.8462
蠢	-11.8464
摰	-11.8464
扺	-11.8464
銛	-11.8466
瀘	-11.8466
西崑體	-11.8467
屯田員外郎	-11.8468
雲齋廣録	-11.8468
莧	-11.8468
李方叔	-11.8469
蔑	-11.8469
聀	-11.847
囷	-11.8471
西溪叢語	-11.8471
燠	-11.8472
徐興公	-11.8472
凸	-11.8472
摻	-11.8473
張平子	-11.8473
菡萏	-11.8473
勣	-11.8473
陞	-11.8474
昵	-11.8474
煇	-11.8474
珉	-11.8474
爛熳	-11.8474
濯纓	-11.8475
嘈	-11.8475
柁	-11.8475
灯	-11.8475
桔橰	-11.8475
臚	-11.8476
龐	-11.8476
芊芊	-11.8476
畎	-11.8476
緱	-11.8477
驊騮	-11.8477
曈	-11.8477
厝	-11.8477
珣	-11.8477
拽	-11.8477
王官谷	-11.8477
傴	-11.8477
櫚	-11.8477
鑽	-11.8478
菩	-11.8478
姨	-11.8478
颯颯	-11.8478
埒	-11.8478
簌	-11.8478
礫	-11.8478
貴耳集	-11.8479
袵	-11.8479
晏叔原	-11.8479
佃	-11.848
鯤	-11.848
脇	-11.848
韓熙載	-11.848
王伯厚	-11.8481
碓	-11.8481
糝	-11.8481
斟酌	-11.8481
范蜀公	-11.8481
旴	-11.8481
迤邐	-11.8481
穫	-11.8482
挼	-11.8482
蓀	-11.8482
幟	-11.8482
券	-11.8482
豬	-11.8483
媍	-11.8483
旻	-11.8483
茰	-11.8483
瓮	-11.8483
弭	-11.8484
桷	-11.8485
賒	-11.8485
䛕	-11.8485
槌	-11.8485
磁	-11.8486
撤	-11.8486
名自署	-11.8487
魑魅	-11.8487
張為取作主客圖	-11.8487
渺茫	-11.8488
窶	-11.8488
北夢瑣言	-11.8488
紉	-11.849
紿	-11.8491
渊	-11.8493
奐	-11.8495
李清臣	-11.8499
紅兒㒵	-11.8499
鷙	-11.8509
觚稜	-11.851
凭闌	-11.8768
㯽	-11.8876
倭	-11.8882
翛	-11.8886
勗	-11.8888
囝	-11.8889
冉	-11.8892
毉	-11.8895
訐	-11.8897
璿	-11.8897
寗	-11.8897
弥	-11.8899
池塘生春草	-11.89
貟	-11.89
槱	-11.8902
莾	-11.8902
擴	-11.8903
估	-11.8904
錡	-11.8904
匕	-11.8904
宼	-11.8904
肺腑	-11.8905
奕奕	-11.8905
善屬文	-11.8905
双	-11.8905
㽵	-11.8906
燔	-11.8906
清波雜志	-11.8906
磚	-11.8907
棅	-11.8907
盥	-11.8907
古詩十九首	-11.8907
噓	-11.8908
适	-11.8908
遘	-11.8908
擯	-11.8908
獺	-11.8909
鄖	-11.8909
表而出之	-11.8909
覘	-11.891
錚	-11.891
七月七日	-11.891
闉	-11.891
簔	-11.891
枘	-11.8911
閧	-11.8911
柬	-11.8911
菽	-11.8912
雯	-11.8912
州剌史	-11.8912
鷖	-11.8912
鵉	-11.8912
天章閣待制	-11.8912
秘書少監	-11.8912
氈	-11.8913
蛟螭	-11.8913
𡨕	-11.8913
媧	-11.8913
𦕈	-11.8913
悚	-11.8914
埤	-11.8914
文心雕龍輯注	-11.8914
迍	-11.8914
踘	-11.8914
艤	-11.8914
騮	-11.8914
樊宗師	-11.8914
㝢	-11.8914
徭	-11.8914
鍛	-11.8915
惰	-11.8915
慤	-11.8915
李羣玉	-11.8915
蕤	-11.8915
矚	-11.8916
恚	-11.8916
天津橋	-11.8916
樾	-11.8917
青玉案	-11.8917
纏	-11.8917
混沌	-11.8918
閴	-11.8918
漂泊	-11.8918
張伯雨	-11.8918
窩	-11.8919
淒涼	-11.8919
蠒	-11.892
眈	-11.892
勍	-11.892
竪	-11.892
鵒	-11.892
騾	-11.892
旡	-11.8921
迦	-11.8921
王元美	-11.8921
蚓	-11.8921
剽	-11.8922
隋煬帝	-11.8922
雅言雜載	-11.8924
澶	-11.8924
王仁裕	-11.8925
堯山堂外紀	-11.8925
蘊	-11.8927
葳蕤	-11.8927
兜	-11.8927
攤	-11.8931
銍	-11.8932
駉	-11.8934
沐浴	-11.8936
有思致	-11.8938
央	-11.9287
雪浪齋日記	-11.9316
熠燿	-11.9326
四六談麈	-11.9344
翺翔	-11.9346
叱撥	-11.9346
嫡	-11.9347
皛	-11.9348
跣	-11.9348
頳	-11.9351
頔	-11.9352
蜿蜒	-11.9352
嘖	-11.9353
彖	-11.9354
埤雅云	-11.9356
豋	-11.9358
咳	-11.9358
确	-11.9359
伾	-11.9359
狥	-11.9359
覷	-11.9359
𥚑	-11.936
誑	-11.9361
椅	-11.9361
飭	-11.9361
皎潔	-11.9362
匳	-11.9362
肋	-11.9362
咮	-11.9363
慶歴中	-11.9363
王岐公	-11.9363
武林舊事	-11.9363
蝗	-11.9363
肓	-11.9364
晳	-11.9364
蹇驢	-11.9364
野客叢書云	-11.9364
鄊	-11.9365
愷	-11.9365
餙	-11.9365
茘	-11.9365
睂	-11.9365
王定國	-11.9366
磐	-11.9366
丙戌	-11.9366
皖	-11.9366
鉗	-11.9367
艘	-11.9367
國子博士	-11.9367
扼	-11.9367
鷦鷯	-11.9368
䆠	-11.9368
惘	-11.9368
沈傳師	-11.9368
施肩吾	-11.9369
嫂	-11.9369
鄭康成	-11.9369
煦	-11.9369
杌	-11.937
毘	-11.9371
悤悤	-11.9371
蹉	-11.9371
百斛明珠	-11.9371
罝	-11.9371
贑	-11.9371
瀟洒	-11.9372
錢惟演	-11.9372
蔡天啟	-11.9372
飰	-11.9373
舷	-11.9373
罌	-11.9374
詛	-11.9374
泱	-11.9374
氛氲	-11.9376
幷	-11.9376
繽	-11.9376
丁晋公	-11.9376
蘅	-11.9377
桴	-11.9377
江文通	-11.9377
賜進士出身	-11.9377
畊	-11.9378
銑	-11.9379
䑛	-11.9379
澑	-11.938
風土記	-11.9381
蜾蠃	-11.9416
駃	-11.9437
紵	-11.982
翶	-11.9825
唧唧	-11.9826
鋋	-11.9827
爻	-11.9828
豢	-11.9829
捿	-11.9829
盱	-11.9831
胃	-11.9832
响	-11.9832
淙	-11.9833
週	-11.9833
瀦	-11.9834
裦	-11.9835
漈	-11.9835
昜	-11.9835
瀣	-11.9835
灵	-11.9836
湏臾	-11.9836
恍惚	-11.9836
执	-11.9836
蕳	-11.9836
著作佐郎	-11.9836
王季友	-11.9836
罟	-11.9837
璵	-11.9837
慈恩寺九日應制云	-11.9838
荑	-11.9838
容齋三筆	-11.9839
箆	-11.9839
懊	-11.984
莹	-11.984
鏞	-11.984
冕旒	-11.984
噬	-11.984
簞	-11.984
搴	-11.984
籞	-11.984
凬	-11.9841
喈	-11.9841
㩀	-11.9841
礎	-11.9841
春入燒痕	-11.9841
狡	-11.9841
鳥鳴山更幽	-11.9841
罏	-11.9842
塼	-11.9842
殂	-11.9842
曰琯按	-11.9842
茨	-11.9842
珊	-11.9842
張天覺	-11.9842
左太冲	-11.9842
沈存中筆談	-11.9843
駛	-11.9843
樛	-11.9843
憀	-11.9843
倜	-11.9843
咿	-11.9843
觱篥	-11.9843
饞	-11.9844
蓞	-11.9844
璹	-11.9844
篝	-11.9844
宋次道	-11.9845
宋蔡正孫編	-11.9845
次其韻	-11.9845
髫	-11.9845
饅	-11.9845
採菊東籬下悠然見南山	-11.9845
李衛公	-11.9846
甬	-11.9846
酋	-11.9846
你	-11.9847
珝	-11.9848
楩	-11.9848
玻	-11.9848
氅	-11.9848
氲	-11.9849
韓非子	-11.9849
洄	-11.985
浣溪沙	-11.9851
煅	-11.9852
鑊	-11.9852
醅	-11.9852
烏夜啼	-11.9852
謝疊山云	-11.9852
豸	-11.9854
國子祭酒	-11.9854
醢	-11.9855
泠齋夜話云	-11.9855
猝	-11.9856
賑	-11.9857
吕洞賓	-11.9857
醸	-11.9857
茱萸	-11.9858
跖	-11.9858
蜉	-11.9859
纛	-11.9862
花間集卷	-11.9863
橡	-11.9864
薝	-11.9865
鱓	-12.0316
𣙜	-12.0322
瓉	-12.0322
鵜	-12.0323
畤	-12.0323
撻	-12.0324
疫	-12.0325
縊	-12.0327
鼯	-12.0327
撿	-12.0328
懵	-12.0328
媟	-12.033
瀟	-12.033
蒋	-12.0331
曰璐按	-12.0332
薏苡	-12.0332
皴	-12.0333
罽	-12.0333
郭茂倩	-12.0333
籩	-12.0333
傳燈録	-12.0334
贛	-12.0334
阼	-12.0334
沄	-12.0334
闖	-12.0334
窆	-12.0334
壬戌	-12.0334
珩	-12.0334
圏	-12.0335
搨	-12.0335
王楊盧駱	-12.0335
嶙峋	-12.0335
楙	-12.0335
鴆	-12.0336
惕	-12.0336
攴	-12.0336
鋏	-12.0336
塡	-12.0337
櫽	-12.0337
眥	-12.0337
趙徳麟	-12.0338
佖	-12.0338
賢良方正	-12.0338
繰	-12.0338
尹師魯	-12.0339
贓	-12.0339
洗兵馬	-12.0339
跼	-12.034
煞	-12.034
喟	-12.034
許彥周詩話	-12.034
凑	-12.034
咫	-12.034
漢官儀	-12.034
寰宇記	-12.034
䬃	-12.0341
臈	-12.0341
顱	-12.0341
扎	-12.0342
髄	-12.0342
頹	-12.0342
蚋	-12.0342
嶇	-12.0342
其警句云	-12.0342
瓏	-12.0342
一池春水	-12.0343
淥	-12.0344
緹	-12.0344
崘	-12.0344
寨	-12.0344
穆天子傳	-12.0344
憮	-12.0346
晷	-12.0346
謌	-12.0346
釂	-12.0346
啾啾	-12.0347
悌	-12.0347
拉	-12.0347
掞	-12.0347
幰	-12.0348
亹亹	-12.0348
頫	-12.0348
墨莊漫錄	-12.0349
朝奉郎	-12.0349
陬	-12.0349
蝎	-12.035
王原叔	-12.035
祕書省正字	-12.035
爕	-12.035
氤	-12.0351
龍圖閣學士	-12.0351
陸費墀	-12.0351
端午帖子	-12.0352
涘	-12.0352
搭	-12.0354
捋虎鬚	-12.0355
隆興元年進士	-12.0362
鴂	-12.0363
湼	-12.0375
直龍圖閣	-12.0823
烏衣巷	-12.0836
河南少尹	-12.0842
鐃	-12.0845
塤	-12.0846
毿	-12.0848
琨	-12.0851
彴	-12.0851
窰	-12.0852
嵲	-12.0853
頊	-12.0854
戞	-12.0856
諲	-12.0856
許彦周	-12.0857
欽定四庫全書韻語陽秋巻	-12.0857
闍	-12.0858
鮪	-12.0858
迢	-12.0859
穷	-12.0859
高齋詩話	-12.086
楊用修	-12.086
遅	-12.086
疴	-12.0861
藂	-12.0861
銀青光禄大夫	-12.0861
黄陵廟	-12.0862
奨	-12.0862
篸	-12.0862
壖	-12.0862
塾	-12.0862
貓	-12.0862
嚥	-12.0863
湘山野録	-12.0863
抱朴子	-12.0864
辣	-12.0864
毆	-12.0864
荃	-12.0864
佗	-12.0865
釧	-12.0865
暐	-12.0865
張建封	-12.0865
慝	-12.0866
淬	-12.0866
鈇	-12.0866
齷	-12.0866
廪	-12.0867
知鄆州	-12.0867
邅	-12.0867
玦	-12.0867
僵	-12.0868
權德輿	-12.0869
唐宋遺史	-12.0869
特奏名	-12.0869
景定建康志	-12.087
鋩	-12.087
嬙	-12.087
犹	-12.087
狠	-12.0872
錦繡萬花谷	-12.0872
楊汝士	-12.0872
槊	-12.0873
薜	-12.0873
張蕭亭答	-12.0873
珦	-12.0873
搦	-12.0873
㩦	-12.0873
述異記	-12.0873
侂胄	-12.0873
飮	-12.0873
舲	-12.0873
崎	-12.0874
妳	-12.0874
旛	-12.0874
鼐	-12.0874
堙	-12.0874
麞	-12.0874
罥	-12.0874
嫋嫋	-12.0875
蕭頴士	-12.0875
蚪	-12.0875
醽	-12.0875
璆	-12.0875
犍	-12.0876
軺	-12.0876
睹	-12.0876
孌	-12.0876
羯	-12.0876
韓熈載	-12.0876
謇	-12.0877
唐子西語録云	-12.0877
張厯友答	-12.0877
澳	-12.0877
破陣樂	-12.0877
兖州府知府鄭方坤撰	-12.0878
値	-12.0878
鵾	-12.0878
磻	-12.0879
喏	-12.088
朧	-12.088
絺	-12.0881
珙	-12.0881
偪	-12.0881
頁	-12.0881
嫰	-12.0881
葉少藴	-12.0883
以意為主	-12.0884
糅	-12.0885
宗朝累遷	-12.0886
柞	-12.0889
𡵨	-12.0894
倨	-12.0898
螟蛉	-12.0913
亀	-12.1401
田子藝	-12.1405
春渚紀聞	-12.1409
甓	-12.141
怛	-12.1411
甿	-12.1411
窖	-12.1412
郾	-12.1412
鬧	-12.1412
含不盡之意	-12.1412
搶	-12.1412
櫝	-12.1413
鎰	-12.1413
蓊	-12.1414
舁	-12.1414
鑷	-12.1414
珊珊	-12.1415
号	-12.1415
樟	-12.1415
聱	-12.1416
燮	-12.1416
董仲舒	-12.1417
僥	-12.1417
帘	-12.1417
西崑酬唱集	-12.1417
邽	-12.1417
誌其墓	-12.1417
西湖志餘	-12.1417
劉孝綽	-12.1419
霍去病	-12.1419
潾	-12.1419
無斧鑿痕	-12.1419
杆	-12.1419
虞世南	-12.1419
謝惠連	-12.142
獠	-12.142
抜	-12.142
澌	-12.142
耄	-12.142
猩猩毛筆	-12.142
满	-12.142
黻	-12.1421
痺	-12.1422
駱賓王	-12.1422
歉	-12.1422
挍	-12.1422
异	-12.1422
弑	-12.1422
勔	-12.1422
瑪	-12.1423
膜	-12.1423
䆒	-12.1423
荆楚嵗時記	-12.1423
另	-12.1423
鴞	-12.1423
㸑	-12.1424
㨿	-12.1424
瘢	-12.1424
薩天錫	-12.1424
鯿	-12.1424
匙	-12.1425
疉	-12.1425
縶	-12.1425
中吳紀聞	-12.1425
穽	-12.1425
鞚	-12.1425
𥚹	-12.1425
餻	-12.1425
啾	-12.1425
薦福寺	-12.1426
鎗	-12.1426
霾	-12.1426
䙝	-12.1426
呂氏童䝉訓	-12.1426
鍔	-12.1427
顇	-12.1427
僂	-12.1427
案此詩刋本	-12.1428
迯	-12.1428
鳷	-12.1428
觔	-12.1428
盧延遜	-12.1429
廛	-12.1429
椰	-12.1429
茟	-12.1429
夐	-12.143
狙	-12.143
闞	-12.143
弧	-12.143
菑	-12.143
集賢校理	-12.143
瓔	-12.1431
橊	-12.1431
姸	-12.1431
佻	-12.1431
醑	-12.1432
皆佳作也	-12.1432
櫸	-12.1433
瀕	-12.1433
􁌲	-12.1433
薩	-12.1434
猒	-12.1434
魃	-12.1434
磷	-12.1434
湔	-12.1435
列女傳	-12.1435
敖陶孫	-12.1436
塑	-12.1437
驊	-12.1439
捩	-12.1439
鑑戒録	-12.1439
鶺	-12.1441
鼂	-12.1445
㒷	-12.1446
栩	-12.145
遯齋閒覽	-12.1955
捶	-12.198
嚏	-12.1987
藺	-12.199
琖	-12.1995
琹	-12.1996
鶬	-12.1996
鞮	-12.1997
遄	-12.1999
剩	-12.2
瘳	-12.2001
姹	-12.2001
爨	-12.2001
諂	-12.2001
諼	-12.2002
章質夫	-12.2002
蕘	-12.2002
儗	-12.2002
蔻	-12.2002
偹	-12.2003
顓	-12.2003
崔豹古今注	-12.2003
柵	-12.2003
孫光憲	-12.2003
醍	-12.2004
資治通鑑	-12.2004
醁	-12.2004
騑	-12.2004
薌	-12.2005
皐	-12.2005
詘	-12.2005
夬	-12.2005
犧	-12.2005
莠	-12.2006
糴	-12.2006
趋	-12.2006
嬾真子	-12.2006
訔	-12.2007
鶠	-12.2007
芡	-12.2007
絪	-12.2007
圻	-12.2008
搘	-12.2008
翾	-12.2008
郃	-12.2009
鱻	-12.2009
畀	-12.2009
顫	-12.2009
鰥	-12.2009
驀	-12.201
秤	-12.201
沚	-12.201
飣	-12.201
鶡	-12.201
忠懿王	-12.201
蟇	-12.201
瀍	-12.2011
颸	-12.2011
禕	-12.2011
捻	-12.2011
垜	-12.2011
屡	-12.2012
攔	-12.2012
承務郎	-12.2012
顦	-12.2012
杜祁公	-12.2012
昕	-12.2013
睠	-12.2013
徐仲雅	-12.2013
鏑	-12.2014
詼	-12.2014
槪	-12.2014
榱	-12.2015
䕷	-12.2015
惬	-12.2015
醋	-12.2015
艦	-12.2015
揩	-12.2016
矦	-12.2016
興慶池	-12.2017
刄	-12.2017
不一而足	-12.2017
州司戸	-12.2018
邴	-12.2018
熨	-12.2018
玉臺新詠	-12.2018
貿	-12.2018
嬖	-12.2018
烜	-12.2019
逶	-12.202
槧	-12.202
醉翁亭記	-12.202
入元祐黨籍	-12.202
杠	-12.2021
鷂	-12.2021
傀	-12.2021
翰苑羣書	-12.2021
戦	-12.2021
訃	-12.2022
青苗助役	-12.2022
祕書少監	-12.2023
斎	-12.2023
咄	-12.2023
榘	-12.2023
朱全忠	-12.2023
閈	-12.2024
皮襲美	-12.2026
轔	-12.2026
噎	-12.2027
優古堂詩話	-12.2027
山房隨筆	-12.2029
朝議大夫	-12.203
㒵	-12.2032
掺	-12.2035
綫	-12.2038
蠁	-12.2047
月泉吟社	-12.2509
簻	-12.2596
粮	-12.2613
廱	-12.2614
褦襶	-12.2615
䜿	-12.2616
蒔	-12.2616
炉	-12.2618
丼	-12.262
蝀	-12.262
纇	-12.2621
凰	-12.2622
至元嘉禾志	-12.2624
嵎	-12.2625
挟	-12.2625
璡	-12.2625
馮瀛王	-12.2625
􁇟	-12.2626
据	-12.2626
澄心堂紙	-12.2627
彗	-12.2628
琛	-12.2628
郭璞江賦	-12.2629
㕍	-12.2629
鄭嵎津陽門	-12.2629
赧	-12.263
悒	-12.263
恧	-12.263
嶓	-12.2631
偎	-12.2631
蠹	-12.2631
辤	-12.2632
莪	-12.2632
㶑	-12.2632
罾	-12.2632
垤	-12.2633
萁	-12.2633
楣	-12.2633
挐	-12.2634
腎	-12.2634
薿	-12.2634
崒	-12.2635
霈	-12.2635
躞	-12.2636
陸農師	-12.2636
翰林侍讀學士	-12.2636
無銘詩畧也	-12.2637
菉	-12.2637
韐	-12.2637
螘	-12.2637
邢敦夫	-12.2637
寀	-12.2637
廣東通志	-12.2637
苻	-12.2638
泡	-12.2638
怙	-12.2638
紕	-12.2638
雒	-12.2638
􁱘	-12.2638
鏜	-12.2638
彜	-12.2639
袤	-12.2639
簏	-12.2639
蓉	-12.2639
㪯	-12.2639
麁	-12.2639
稟	-12.2639
迃	-12.2639
摴蒱	-12.264
藎	-12.264
東軒筆錄	-12.264
湎	-12.264
霤	-12.264
斈	-12.2641
艫	-12.2641
㒒	-12.2641
噤	-12.2641
爬	-12.2642
襜	-12.2642
上官昭容	-12.2642
彝	-12.2642
澠	-12.2642
詒	-12.2642
窒	-12.2642
黽	-12.2642
鱉	-12.2642
庿	-12.2642
章孝標	-12.2643
迤	-12.2643
溆	-12.2643
北夣瑣言	-12.2643
劑	-12.2644
㐫	-12.2644
毀	-12.2644
奭	-12.2644
斿	-12.2644
攏	-12.2645
褘	-12.2645
漁隠叢話後集巻	-12.2645
娜	-12.2646
斕	-12.2646
累舉不第	-12.2646
倏	-12.2646
繂	-12.2647
葷	-12.2647
枳	-12.2648
諠	-12.2648
洧	-12.2649
鐶	-12.2649
玻瓈	-12.265
商璠云	-12.2651
蹭蹬	-12.2651
轎	-12.2652
衎	-12.2652
馺	-12.2653
犖	-12.2654
姒	-12.2654
新安文獻志	-12.2655
屩	-12.2656
瘖	-12.2657
紹興十五年進士	-12.2658
肸	-12.2664
蜑	-12.2676
虡	-12.2751
潘子真詩話	-12.3259
湋	-12.3273
張衡西京賦	-12.328
蹻	-12.3282
棫	-12.3282
鞾	-12.3284
箎	-12.3285
汪彥章	-12.3287
嚲	-12.3289
陳輔之詩話	-12.3289
玫	-12.329
剃	-12.329
喔	-12.329
奪胎換骨	-12.329
佶	-12.3291
東臯雜錄	-12.3291
顙	-12.3291
鄼	-12.3292
郡齋讀書志	-12.3292
雞肋編	-12.3292
圛	-12.3293
同知樞密院事	-12.3293
鬯	-12.3293
㸃鬼簿	-12.3294
痊	-12.3294
熺	-12.3294
廳	-12.3295
淳熙三山志	-12.3295
嘱	-12.3296
豗	-12.3296
獨破受凍死	-12.3297
撝	-12.3297
尓	-12.3297
萟	-12.3297
妲	-12.3298
漁隱樷話	-12.3298
删	-12.3298
璚	-12.3298
騤	-12.3298
噀	-12.3299
輕燕受風斜	-12.3299
氓	-12.3299
耆舊續聞	-12.3299
羊士諤	-12.3299
儺	-12.3299
苹	-12.3299
丏	-12.33
臟	-12.33
簴	-12.33
螟	-12.33
汧	-12.33
刚	-12.33
儁	-12.33
淆	-12.33
左思吳都賦	-12.3301
集賢殿修撰	-12.3301
吿	-12.3301
蜚	-12.3301
鼾	-12.3301
廙	-12.3301
揣	-12.3302
喑	-12.3302
檇	-12.3302
鱖	-12.3302
暖鳥聲碎日髙花影重	-12.3302
唐子西語錄云	-12.3303
玢	-12.3303
彀	-12.3303
癩	-12.3303
跕	-12.3303
檥	-12.3304
賺	-12.3304
襌	-12.3304
鍋	-12.3304
欽定四庫全書詩人玉屑巻	-12.3304
蹁	-12.3304
繢	-12.3304
鵊	-12.3304
濊	-12.3304
蓐	-12.3304
瓴	-12.3304
筇	-12.3304
蘤	-12.3305
柢	-12.3305
栟	-12.3305
鷟	-12.3306
珞	-12.3306
駔	-12.3306
餗	-12.3306
㗖	-12.3306
反其意而用之	-12.3307
墓銘舉例	-12.3307
婆羅門	-12.3307
蠱	-12.3307
復齋謾錄	-12.3307
瀲	-12.3307
皃	-12.3307
㷑	-12.3307
獰	-12.3307
驎	-12.3308
送金城公主云	-12.3308
􁑱	-12.3308
刘	-12.3308
枿	-12.3308
僧敲月下門	-12.3308
眘	-12.3308
葳	-12.3308
幛	-12.3309
堊	-12.3309
唫	-12.331
哥舒翰	-12.331
楛	-12.331
踢	-12.331
玳	-12.331
朏	-12.331
螫	-12.331
淦	-12.3311
驍	-12.3311
吴郡志	-12.3311
汍	-12.3311
篘	-12.3312
邛	-12.3312
榧	-12.3312
縚	-12.3312
撗	-12.3313
吝	-12.3314
譖	-12.3314
詩話類編曰	-12.3314
韁	-12.3315
傖	-12.3315
㯶	-12.3315
舠	-12.3315
對床夜語	-12.3315
耨	-12.3315
締	-12.3315
阨	-12.3316
巇	-12.3316
幞	-12.3318
縢	-12.3318
熬	-12.3321
捋	-12.3321
耆英㑹	-12.3321
驌	-12.3322
晦日林亭云	-12.3323
禳	-12.3329
疚	-12.3331
䜴	-12.3331
荆溪林下偶談	-12.334
碭	-12.398
蠣	-12.3991
髽	-12.3991
恙	-12.3995
渟	-12.3996
詶	-12.4
蒜	-12.4002
州團練副使	-12.4003
屭	-12.4004
攙	-12.4005
褪	-12.4005
佾	-12.4006
禰	-12.4007
帀	-12.4008
讙	-12.4008
齊民要術	-12.4008
獨醒雜志	-12.4009
单	-12.4009
糺	-12.4009
茒	-12.4009
娠	-12.401
餮	-12.401
懟	-12.401
蒍	-12.4011
捎	-12.4012
殪	-12.4012
夥	-12.4012
齟	-12.4012
盧照隣	-12.4012
踔	-12.4013
祟	-12.4013
蓉塘詩話	-12.4013
庙	-12.4013
未詳孰是	-12.4014
齬	-12.4014
幀	-12.4014
嵬	-12.4015
􁁃	-12.4015
崚	-12.4015
螳	-12.4016
踴	-12.4016
咒	-12.4016
痾	-12.4017
言有盡而意無窮	-12.4017
籐	-12.4017
鉶	-12.4017
渦	-12.4018
崦	-12.4018
尙	-12.4018
細數落花因坐久緩尋芳草得歸遲	-12.4019
嘹	-12.4019
陕	-12.402
鉄	-12.402
晻	-12.402
桃花亂落如紅雨	-12.402
窪	-12.402
遯齋閑覽	-12.402
瞋	-12.4021
糶	-12.4021
擦	-12.4021
荏	-12.4021
紅綾餅餤	-12.4022
鍤	-12.4022
礀	-12.4022
㕓	-12.4023
捜	-12.4023
酎	-12.4023
曨	-12.4023
袪	-12.4023
宋劉克莊編	-12.4023
竚	-12.4023
搬	-12.4024
揶	-12.4024
贋	-12.4024
傘	-12.4025
儈	-12.4025
飲中八仙歌	-12.4025
洼	-12.4025
鷴	-12.4025
壈	-12.4026
蝟	-12.4026
祲	-12.4027
洟	-12.4027
箧	-12.4027
詩說雋永云	-12.4028
狷	-12.4028
阬	-12.4028
邳	-12.4028
哽	-12.4029
一唱三歎	-12.4029
祛	-12.403
砍	-12.403
咤	-12.403
俙	-12.403
誠哉是言	-12.403
鏖	-12.4031
秭	-12.4031
硤	-12.4031
飲馬長城窟	-12.4032
瓿	-12.4033
蝇	-12.4033
巏	-12.4035
㓙	-12.4035
櫳	-12.4036
廏	-12.4036
嵊	-12.4036
霎	-12.4036
撇	-12.4037
票	-12.4038
空梁落燕泥	-12.404
衽	-12.4041
蝣	-12.4042
溱	-12.4044
嫜	-12.4749
韙	-12.4757
劬	-12.4759
三輔黄圖	-12.476
公神道碑右碑	-12.4766
嫠	-12.4768
郜	-12.4768
蠭	-12.4768
鷃	-12.4769
麛	-12.4769
斚	-12.477
蠆	-12.477
釃	-12.4771
䣛	-12.4772
匄	-12.4773
咀	-12.4773
旤	-12.4773
毹	-12.4773
甖	-12.4774
㛰	-12.4774
臊	-12.4774
菓	-12.4774
昴	-12.4774
玖	-12.4775
嫚	-12.4775
賃	-12.4775
䘖	-12.4775
老學庵筆記	-12.4776
腿	-12.4776
鮒	-12.4776
猖	-12.4776
此日足可惜	-12.4777
萬國衣冠拜冕旒	-12.4777
鵯	-12.4777
阿濫堆	-12.4778
舖	-12.4778
偘	-12.4779
珊瑚鉤詩話	-12.4779
鎪	-12.4779
觱	-12.478
風定花猶落	-12.478
縋	-12.478
語不驚人死不休	-12.478
砅	-12.478
蜡	-12.478
轓	-12.478
今附于左附	-12.4781
譍	-12.4781
倕	-12.4781
䗶	-12.4781
鸚	-12.4782
瞪	-12.4782
馘	-12.4782
字學集要云	-12.4783
奧	-12.4783
凇	-12.4783
砲	-12.4783
圈	-12.4783
璀	-12.4783
裨	-12.4784
閥	-12.4784
竢	-12.4784
悝	-12.4785
忒	-12.4785
逥	-12.4785
瑄	-12.4785
馬令南唐書	-12.4785
珵	-12.4786
鈎輈格磔	-12.4786
筦	-12.4787
醲	-12.4787
娛書堂詩話	-12.4787
鼃	-12.4787
李肇國史補	-12.4788
槨	-12.4788
粽	-12.4788
菅	-12.4788
摺	-12.4788
敧	-12.4788
晰	-12.4788
陳郁話腴	-12.4789
綳	-12.4789
瀏	-12.4789
黥	-12.4789
报	-12.4789
砢	-12.4789
嶄	-12.4789
觀文殿學士	-12.4789
煆	-12.4789
墫	-12.4789
簒	-12.4789
濾	-12.4789
营	-12.479
猊	-12.479
觀文殿大學士	-12.479
騕	-12.479
湘山野錄	-12.479
裩	-12.4791
野火燒不盡春風吹又生	-12.4791
胡笳十八拍	-12.4791
薙	-12.4791
樺	-12.4792
㫄	-12.4792
墨客揮犀	-12.4792
蔞	-12.4792
繄	-12.4793
菡	-12.4793
輜	-12.4793
徽猷閣待制	-12.4794
瀚	-12.4794
𥜗	-12.4794
蘺	-12.4794
諄	-12.4794
法藏碎金云	-12.4795
秔	-12.4795
最為警絶	-12.4795
蓓	-12.4795
茭	-12.4796
斁	-12.4796
茁	-12.4797
嶔	-12.4797
欽定四庫全書後村詩話巻	-12.4798
絞	-12.4798
篲	-12.4798
二老堂詩話	-12.4798
􁰽	-12.48
梅礀詩話	-12.48
燻	-12.48
謻	-12.48
諢	-12.4801
畚	-12.4801
势	-12.4801
术	-12.4802
慼	-12.4802
灩	-12.4802
麯	-12.4802
恁	-12.4802
萬姓統譜	-12.4803
詩文評類	-12.4804
敷文閣待制	-12.4804
繅	-12.4804
鰕	-12.4804
嶲	-12.4805
􁈡	-12.4807
籤	-12.4812
党	-12.4814
熙寕六年進士	-12.4817
胛	-12.4849
毶	-12.5585
野客叢書曰	-12.5591
珧	-12.5592
遹	-12.5595
屓	-12.5597
瘥	-12.5597
翌	-12.5597
唶	-12.5597
壌	-12.5598
鸝	-12.5599
悲獲麟西狩	-12.5599
辝	-12.56
擡	-12.5601
吕氏童蒙訓	-12.5601
喁	-12.5602
焱	-12.5602
溽	-12.5602
焦仲卿妻	-12.5603
済	-12.5605
璐	-12.5606
齅	-12.5606
雖紀實又一例也	-12.5607
􁗁	-12.5608
春水船如天上坐	-12.5608
紊	-12.5608
楝	-12.5608
嗇	-12.5608
煬	-12.5608
塘春水慢花塢夕陽遲	-12.5608
跟	-12.561
鬐	-12.561
觸類而長	-12.5611
埏	-12.5611
宷	-12.5612
縵	-12.5612
氣蒸雲夢澤波撼岳陽城	-12.5613
娯書堂詩話	-12.5613
疽	-12.5613
金碾畔緑塵飛碧玉甌中翠濤起	-12.5613
紹興二十一年進士	-12.5613
戶	-12.5613
騅	-12.5613
憒	-12.5613
褎	-12.5614
嚙	-12.5614
匐	-12.5614
春洲生荻芽春岸飛楊花	-12.5614
耑	-12.5614
鞶	-12.5615
唐音癸籤巻十	-12.5615
羆	-12.5615
塌	-12.5615
炮	-12.5615
俻	-12.5616
梁溪漫志	-12.5616
鍪	-12.5616
膞	-12.5616
昩	-12.5616
樅	-12.5616
㴠	-12.5616
㙜	-12.5616
扞	-12.5616
欽定四庫全書漁隱叢話後集卷	-12.5616
憧	-12.5617
唼	-12.5617
閘	-12.5617
枸	-12.5617
吮	-12.5617
砭	-12.5617
磋	-12.5618
醻	-12.5618
錘	-12.5618
開府儀同三司	-12.5618
懾	-12.5618
雱	-12.5618
㨂	-12.5619
戕	-12.5619
炅	-12.5619
菘	-12.5619
坏	-12.5619
鄔	-12.5619
点	-12.5619
寬	-12.5619
炤	-12.5619
苽	-12.562
同知樞宻院事	-12.562
𬞞	-12.562
楽	-12.562
輶	-12.562
夹	-12.5621
耋	-12.5621
忮	-12.5621
騃	-12.5621
椁	-12.5621
蒭	-12.5621
舀	-12.5621
芙	-12.5622
鄠	-12.5622
朞	-12.5622
􁇪	-12.5622
繙	-12.5622
惚	-12.5622
采菊東籬下悠然見南山	-12.5623
綣	-12.5623
洸	-12.5623
璁	-12.5624
雲麓漫抄	-12.5624
膻	-12.5624
魍	-12.5624
鎡	-12.5625
懣	-12.5625
亾	-12.5625
疥	-12.5625
儆	-12.5626
醬	-12.5626
颷	-12.5626
擠	-12.5626
枽	-12.5626
羅湖野錄	-12.5626
蠔	-12.5626
𬗟	-12.5626
孳	-12.5626
篾	-12.5626
喃	-12.5627
堡	-12.5627
揜	-12.5627
攖	-12.5627
搓	-12.5627
瑚	-12.5627
事文類聚前集	-12.5627
顔氏家訓	-12.5628
孔平仲談苑	-12.5628
漙	-12.5629
瓻	-12.5629
祧	-12.5629
莬	-12.563
喓	-12.563
鸒	-12.563
式古堂書考	-12.563
萇	-12.563
溯	-12.563
蟪	-12.563
祅	-12.5631
抖	-12.5631
斌	-12.5631
昃	-12.5631
姐	-12.5632
薖	-12.5632
齏	-12.5632
字韻一篇詩而用	-12.5633
粳	-12.5633
靃	-12.5634
掄	-12.5634
蠖	-12.5634
栝	-12.5634
玲	-12.5635
踊	-12.5635
禁林讌㑹之什	-12.5635
孃	-12.5635
碏	-12.5636
鵂	-12.5636
匜	-12.5637
唤	-12.5637
麏	-12.5638
藐	-12.5638
㴩	-12.564
郯	-12.564
嬃	-12.5643
簑	-12.5643
扛	-12.5643
鶗	-12.5645
鮆	-12.5655
龍圖閣待制	-12.5671
枍	-12.6464
䣜	-12.6471
後漢文苑傳	-12.6487
憶長安十二詠云憶長安	-12.6494
炰	-12.6506
郅	-12.6507
緼	-12.6508
毯	-12.6509
纁	-12.651
枻	-12.6512
酡	-12.6512
珖	-12.6512
泂	-12.6514
籋	-12.6514
犇	-12.6514
捃	-12.6515
􁁜	-12.6516
元潘昻霄撰	-12.6516
擫	-12.6517
墊	-12.6517
鎚	-12.6518
醞	-12.6518
秇	-12.6519
旖	-12.6519
皿	-12.6519
旎	-12.6519
晒	-12.652
孀	-12.652
沬	-12.6521
鰻	-12.6521
青青河畔草	-12.6521
戣	-12.6521
迕	-12.6523
䔩	-12.6523
紼	-12.6523
総	-12.6523
隤	-12.6523
歊	-12.6523
嘿	-12.6524
蒞	-12.6524
蒺	-12.6524
挨	-12.6524
誹	-12.6524
𣏌	-12.6524
彂	-12.6525
馿	-12.6525
痁	-12.6525
媸	-12.6525
嘴	-12.6525
涖	-12.6526
祉	-12.6526
狨	-12.6526
鸑	-12.6526
蔌	-12.6526
抺	-12.6527
闌更秉燭相對如夢寐	-12.6527
赬	-12.6527
呶	-12.6527
枌	-12.6527
右張爲取作主客圖	-12.6527
鏟	-12.6527
汞	-12.6528
襴	-12.6528
滎	-12.6528
仿	-12.6528
懈	-12.6528
璪	-12.6528
蓺	-12.6529
留青日札云	-12.6529
廈	-12.6529
􁶁	-12.6529
滙	-12.6529
嶒	-12.6529
乾隆四十二年	-12.653
奡	-12.653
戩	-12.6531
觫	-12.6531
嘒	-12.6531
幵	-12.6531
禿	-12.6531
刲	-12.6532
郍	-12.6532
昺	-12.6532
賙	-12.6532
恋	-12.6532
蔲	-12.6532
魘	-12.6533
哇	-12.6533
籕	-12.6533
後果如其言	-12.6533
俜	-12.6533
胙	-12.6533
潸	-12.6534
巋	-12.6534
澎	-12.6534
繾	-12.6535
元城先生語録云	-12.6535
絙	-12.6535
㪷	-12.6535
斝	-12.6535
䂖	-12.6535
鈕	-12.6535
醵	-12.6536
附於左附	-12.6536
箒	-12.6536
漑	-12.6536
賫	-12.6536
剜	-12.6536
巓	-12.6536
穂	-12.6536
鍠	-12.6536
讀書破萬巻下筆如有神	-12.6537
蹰	-12.6537
帑	-12.6537
湃	-12.6537
崪	-12.6537
蝤	-12.6537
羝	-12.6537
道林嶽麓	-12.6538
言之者無罪聞之者足以	-12.6538
菀	-12.6538
猾	-12.6539
絀	-12.6539
涿	-12.654
貰	-12.6541
袞	-12.6541
敇	-12.6542
戟	-12.6542
澒	-12.6543
厖	-12.6543
搊	-12.6543
宗皇帝帝諱	-12.6544
澡	-12.6544
漭	-12.6545
枋	-12.6545
宋黄徹撰	-12.6545
歜	-12.6545
礱	-12.6546
琤	-12.6546
勳	-12.6547
司馬光洛中耆英	-12.6547
磎	-12.6547
曲洧舊聞	-12.6548
檟	-12.6548
嵍	-12.6552
粢	-12.6553
郟	-12.6553
㫪	-12.6554
檉	-12.6558
冇	-12.6559
臛	-12.6563
簋	-12.6564
嫪	-12.6566
兖	-12.6697
䙀	-12.7472
芔	-12.7491
鑛	-12.7495
梅林分韻得	-12.7496
鷕	-12.7497
逌	-12.7502
長如白練飛一條界破青山色	-12.7502
哮	-12.7504
墄	-12.7505
惴	-12.7505
淛	-12.7506
坻	-12.7508
憊	-12.7508
蘩	-12.7508
趯	-12.7509
歃	-12.7509
鉦	-12.7509
僶	-12.7509
阪	-12.751
蜥	-12.7512
匾	-12.7513
輿地紀勝	-12.7513
罸	-12.7514
恂	-12.7515
帟	-12.7515
螽	-12.7515
热	-12.7515
硃	-12.7516
憨	-12.7516
牗	-12.7516
闓	-12.7516
猋	-12.7517
雊	-12.7517
欬	-12.7517
㘭	-12.7517
瞠	-12.7517
萦	-12.7518
綍	-12.7519
湯燖右軍	-12.7519
句向夜深得心從天外歸	-12.7519
熠	-12.7519
蚯	-12.7519
鄣	-12.752
冏	-12.7521
㓛	-12.7521
櫩	-12.7521
寳文閣待制	-12.7521
悱	-12.7521
絏	-12.7521
椹	-12.7522
惣	-12.7522
崱	-12.7522
澷	-12.7523
裯	-12.7523
􁧐	-12.7524
儇	-12.7524
荂	-12.7524
饜	-12.7524
紈袴不餓死儒冠多誤身	-12.7524
脗	-12.7524
凴	-12.7525
耼	-12.7525
猩	-12.7525
䂬	-12.7525
鹺	-12.7525
滈	-12.7525
袠	-12.7525
螂	-12.7526
志雅堂雜鈔	-12.7526
难	-12.7527
唄	-12.7527
敭	-12.7527
知風雨夜復此對床眠	-12.7527
縲	-12.7527
睎	-12.7527
恡	-12.7527
涅	-12.7527
䂊	-12.7527
瘟	-12.7528
螿	-12.7528
蚨	-12.7528
麰	-12.7528
水田飛白鷺夏木囀黄鸝	-12.7528
槐花黄舉子忙	-12.7528
櫬	-12.7528
藳	-12.7528
硎	-12.7528
膴	-12.7528
梨花一枝春帶雨	-12.7528
厨船進食簇時新	-12.7528
薳	-12.7529
媼	-12.7529
髥	-12.7529
竣	-12.7529
苾	-12.7529
䄡	-12.7529
糠	-12.7529
洳	-12.7529
轝	-12.7529
麕	-12.7529
水荇牽風翠帶長	-12.7529
漠漠水田飛白鷺隂隂夏木囀黄鸝	-12.7529
酃	-12.7529
䧺	-12.753
篚	-12.753
長孫佐輔	-12.753
􁩑	-12.753
繖	-12.753
宙	-12.753
詹事府詹事加吏部侍郎銜黄叔琳撰	-12.753
喋	-12.753
氐	-12.7531
礧	-12.7531
欽定四庫全書詩林廣記後集巻	-12.7531
刓	-12.7531
潏	-12.7531
檀閣醉倚王家玳瑁筵	-12.7531
啗	-12.7532
悸	-12.7532
邯	-12.7532
秬	-12.7532
鶵	-12.7532
戅	-12.7532
諗	-12.7533
讞	-12.7533
譟	-12.7533
佔	-12.7533
四更山吐月殘夜水明樓	-12.7533
磈	-12.7533
礦	-12.7533
洺	-12.7534
聃	-12.7534
㳫	-12.7534
繻	-12.7534
唁	-12.7534
蘼	-12.7534
毡	-12.7534
坳	-12.7535
爚	-12.7535
餔	-12.7535
嫓	-12.7535
何郎試湯餅日烘荀令炷爐香	-12.7535
旐	-12.7535
瑋	-12.7535
跬	-12.7536
筩	-12.7536
蜍	-12.7536
搃	-12.7536
柈	-12.7536
麦	-12.7536
更無一箇是男兒	-12.7536
􁐻	-12.7536
敻	-12.7536
紏	-12.7537
刊	-12.7537
㕑	-12.7537
螀	-12.7537
戇	-12.7537
瞭	-12.7538
鋼	-12.7538
涂	-12.7538
㢠	-12.7538
櫨	-12.7539
欽定四庫全書五代詩話巻	-12.7539
􁮺	-12.7539
校文心雕龍卷之	-12.7539
蘢	-12.7539
寶元元年進士	-12.754
珓	-12.754
梁通事舍人東莞劉勰撰	-12.754
繊	-12.754
鱷	-12.754
燬	-12.754
犒	-12.7541
﨑	-12.7541
莞	-12.7542
藝苑雌黃云	-12.7542
餤	-12.7542
送鈐轄館使王公	-12.7542
踈影横斜水清淺暗香浮動月黄昏	-12.7542
瓷	-12.7542
簀	-12.7542
褓	-12.7542
祙	-12.7543
谺	-12.7544
錠	-12.7546
洫	-12.7546
緌	-12.7547
煽	-12.7548
窳	-12.7548
方輿勝覧	-12.7548
鯀	-12.7549
㧾	-12.7549
若教解語應傾國任是無情也動人	-12.755
汐	-12.755
倔	-12.7552
醎	-12.7553
籯	-12.7566
蹌	-12.757
粔	-12.7596
谸	-12.8545
盬	-12.8567
學者不察失於	-12.8583
獅	-12.8589
􁎃	-12.8594
蓆	-12.8608
聡	-12.8608
鐐	-12.8609
谹	-12.8611
穜	-12.8612
庐	-12.8613
䮧	-12.8614
薬	-12.8615
廋	-12.8615
王文孺臞菴	-12.8615
轘	-12.8616
􁒽	-12.8617
枵	-12.8618
吭	-12.8618
璅	-12.8618
眙	-12.8619
蜴	-12.8619
賨	-12.862
彘	-12.862
鞲	-12.8621
滮	-12.8621
喆	-12.8621
鏌	-12.8621
冄	-12.8622
罼	-12.8622
牥	-12.8623
宁	-12.8623
瑁	-12.8623
五更鼓角聲悲壯三峽星河影動揺	-12.8624
裸	-12.8625
趕	-12.8625
爹	-12.8625
奘	-12.8627
瑑	-12.8628
㲲	-12.8628
淟	-12.8628
􁜣	-12.8629
􁀒	-12.8629
百家詩話総龜後集卷之三十	-12.8629
䳌	-12.8629
涊	-12.8629
武王伐紂	-12.8629
𫾣	-12.863
驁	-12.863
家家養烏鬼頓頓食黄魚	-12.863
崤	-12.863
嶪	-12.863
急野渡無人舟自横	-12.8631
棒	-12.8631
鎩	-12.8631
濞	-12.8631
姙	-12.8631
汛	-12.8631
輗	-12.8631
侗	-12.8631
黮	-12.8632
人紹興二十四年進士	-12.8632
哈	-12.8633
骼	-12.8633
胆	-12.8633
砯	-12.8633
隂垂野草青青時有幽花一樹明	-12.8633
袷	-12.8633
泬	-12.8633
揎	-12.8634
詞林海錯云	-12.8634
邰	-12.8634
灊	-12.8634
菼	-12.8634
孤忠自許衆不與	-12.8634
沭	-12.8634
珌	-12.8635
揑	-12.8635
啁	-12.8635
自縁今日人心别未必秋香一夜衰	-12.8636
蹂	-12.8637
濘	-12.8637
䳵	-12.8637
藟	-12.8637
惧	-12.8638
娩	-12.8638
無邊落木蕭蕭下不盡長江	-12.8638
三朝北盟㑹編	-12.8638
遟	-12.8638
痒	-12.8638
頠	-12.8638
筴	-12.8638
􁣉	-12.8638
沲	-12.8639
蟁	-12.8639
咋	-12.8639
囓	-12.8639
焜	-12.8639
囦	-12.8639
北闕休上書南山歸	-12.8639
殱	-12.8639
瞢	-12.8639
鉤輈格磔	-12.864
黁	-12.864
痼	-12.864
簽書樞密院事	-12.864
簘	-12.864
汃	-12.864
雹	-12.8641
荆楚歲時記	-12.8641
之景如在目前含不盡之意見	-12.8641
惎	-12.8641
耜	-12.8641
氂	-12.8641
蹷	-12.8641
苕溪漁隐叢話	-12.8641
嶢	-12.8642
囁	-12.8642
樞密院編修官	-12.8642
薾	-12.8642
親朋無一字老病有孤舟	-12.8642
尻	-12.8643
㦲	-12.8643
縆	-12.8643
谽	-12.8644
纚	-12.8644
為他人作嫁衣裳	-12.8644
憂不足東老雖貧樂有餘白酒	-12.8644
淖	-12.8644
鞬	-12.8645
嫋	-12.8645
渰	-12.8645
缷	-12.8645
勲業頻看鏡行藏獨倚樓	-12.8645
掊	-12.8645
嚇	-12.8646
蛑	-12.8646
聲也躋攀分寸不可上	-12.8647
鄷	-12.8647
諴	-12.8647
㾕	-12.8648
冣	-12.8648
桶	-12.8648
墾	-12.8648
葅	-12.8648
膂	-12.8648
昪	-12.8648
筏	-12.8648
跧	-12.8649
侠	-12.8649
劚	-12.8649
餐秋菊之落英	-12.8649
熲	-12.8649
嗺	-12.8649
綌	-12.8649
昼	-12.865
份	-12.865
𬗋	-12.865
尅	-12.865
筳	-12.865
桁	-12.8651
發乎情止乎禮義	-12.8652
鬲	-12.8652
贗	-12.8652
墁	-12.8653
踣	-12.8653
欻	-12.8653
胤	-12.8653
彳	-12.8653
骳	-12.8654
玘	-12.8654
道之難難於上青天	-12.8655
楊大年錢文僖晏元獻劉子儀	-12.8655
桺	-12.8656
力通青海求龍種死諱文成食	-12.8656
兌	-12.8656
宴安樂公主新宅云	-12.8656
䙚	-12.8657
甆	-12.8657
驑	-12.8657
鬉	-12.8658
醆	-12.8658
糗	-12.8658
晢	-12.8658
侁	-12.8658
年去年來來去忙	-12.8659
碗	-12.866
窿	-12.866
榾	-12.8661
廕	-12.8662
穱	-12.8662
荄	-12.8662
岵	-12.8662
帊	-12.8663
琵	-12.8663
粟粒芽前丁後蔡相	-12.8664
睽	-12.8665
韀	-12.8667
碨	-12.8667
鶼	-12.8668
謀身拙為安蛇足報國	-12.8669
人嘉定七年進士	-12.8669
􁂴	-12.8669
人天聖八年進士	-12.8673
芧	-12.8694
閜	-12.9841
􁐓	-12.9845
虙	-12.9853
暠	-12.9856
幬	-12.9859
隔千里兮共明月	-12.986
蠺	-12.9861
之詩而熟參之次取	-12.9861
𪷟	-12.9861
慊	-12.9862
裀	-12.9864
按唐三家及歐尹	-12.9864
桃李春風一杯酒江湖夜雨十年燈	-12.9864
㒹	-12.9866
凟	-12.9867
毓	-12.9869
紡	-12.9869
鞞	-12.9869
轆轤韻者雙出雙入	-12.9869
眊	-12.9869
琲	-12.987
簦	-12.9871
夛	-12.9871
橛	-12.9871
諏	-12.9871
芎	-12.9871
䈔	-12.9872
醨	-12.9873
蜒	-12.9874
豨	-12.9874
餞唐州髙使君云	-12.9874
暕	-12.9874
薈	-12.9875
刖	-12.9875
丫	-12.9876
睚	-12.9876
貙	-12.9876
薁	-12.9876
㣧	-12.9876
鋌	-12.9876
庀	-12.9876
雘	-12.9876
堂前燕飛入尋常百姓家	-12.9877
眦	-12.9877
淤	-12.9877
埴	-12.9878
屢薦不入官一麾乃出守	-12.9878
瞍	-12.9878
僩	-12.9878
饉	-12.9879
洊	-12.9879
㳒	-12.9879
髹	-12.9879
錙	-12.9879
硉	-12.988
苣	-12.988
侫	-12.988
睍	-12.9881
侹	-12.9881
儐	-12.9881
峪	-12.9881
􁓨	-12.9881
袜	-12.9881
資政殿大學士	-12.9882
月頭支給買花錢滿殿宫人近	-12.9882
晬	-12.9882
鍍	-12.9882
錞	-12.9882
新詩改罷自長吟	-12.9882
胞	-12.9882
琥	-12.9882
疣	-12.9882
獮	-12.9882
皚	-12.9882
棻	-12.9883
花院落溶溶月栁絮池塘淡淡風	-12.9883
國風好色而不淫小雅怨誹	-12.9884
睞	-12.9884
愀	-12.9884
焯	-12.9884
篡	-12.9884
磽	-12.9884
耍	-12.9884
㬉	-12.9885
悛	-12.9885
乹	-12.9885
町	-12.9885
腫	-12.9885
陴	-12.9885
吟成五字句用破一生心	-12.9885
𠂻	-12.9885
倆	-12.9886
届	-12.9886
灸	-12.9886
不聞夏商衰中自誅褒妲	-12.9886
耴	-12.9886
詖	-12.9886
纉	-12.9886
蕾	-12.9886
鷸	-12.9887
柚	-12.9887
獪	-12.9887
楂	-12.9888
酇	-12.9888
堦碧草自春色隔葉黄鸝空好音	-12.9888
眂	-12.9888
櫜	-12.9888
嚻	-12.9888
䗫	-12.9888
送李愿歸盤谷	-12.9888
奠桂酒兮椒漿	-12.9889
西飛一片東自是桃花貪結子錯	-12.9889
訢	-12.9889
何四紀為天子不及盧家有莫愁	-12.9889
瞶	-12.9889
柎	-12.989
滹	-12.989
入門下馬氣如虹	-12.989
虒	-12.989
可忍風敲竹飲散那堪月在花	-12.989
軆	-12.989
褌	-12.989
撏	-12.989
春明退朝録	-12.9891
幪	-12.9891
㩁	-12.9891
犮	-12.9891
侄	-12.9892
燖	-12.9892
賜同進士出身	-12.9892
巃	-12.9892
蠨	-12.9892
明朝有封事數問夜如何	-12.9892
柸	-12.9892
蒱	-12.9893
貉	-12.9893
褉	-12.9894
滾	-12.9894
虖	-12.9894
獷	-12.9894
蜿	-12.9894
郁氏書畫題跋記	-12.9894
人具雞黍稚子摘楊梅	-12.9895
寫留行道影焚却坐禪身	-12.9895
不伐有巢樹多移無主花	-12.9895
婣	-12.9895
媮	-12.9895
柂	-12.9895
水流心不競雲在意俱遲	-12.9895
梏	-12.9895
頏	-12.9896
岏	-12.9896
餧	-12.9896
嵸	-12.9896
甦	-12.9896
矱	-12.9896
郫	-12.9896
黟	-12.9897
哢	-12.9897
鑿開魚鳥忘情地展盡江湖極目天	-12.9897
今朝臘月春意動	-12.9897
盩	-12.9897
鄱	-12.9897
𨗳	-12.9897
􁃜	-12.9899
望春宫迎春應制云	-12.9899
蛸	-12.9899
人紹興二十七年進士	-12.9899
送張説上集賢學士	-12.9899
飥	-12.99
鰂	-12.99
谷口未斜日數峯生夕隂	-12.99
日暮碧雲合佳人殊未來	-12.9901
篿	-12.9901
莩	-12.9901
戺	-12.9901
勮	-12.9901
腓	-12.9901
窕	-12.9902
鐔	-12.9903
􁈍	-12.9903
不才明主棄多病故人踈	-12.9903
冋	-12.9903
清風明月不用一錢買玉山自倒非人推	-12.9903
殛	-12.9903
訏	-12.9903
內	-12.9903
蒻	-12.9903
野水無人渡孤舟盡日横	-12.9903
蹏	-12.9904
麪	-12.9904
䓗	-12.9904
兗	-12.9904
燀	-12.9904
祸	-12.9905
咀五色之靈芝香生九竅咽三危之瑞露	-12.9905
眼前有景道不得崔顥題詩	-12.9906
噩	-12.9906
騂	-12.9906
泐	-12.9907
型	-12.9908
鎧	-12.9908
玭	-12.9908
䥫	-12.9908
餞唐永昌云	-12.9908
橦	-12.9908
炁	-12.9909
貊	-12.9909
眡	-12.991
㷀	-12.9911
鞛	-12.9913
倧	-12.9914
暍	-12.9915
䨥	-12.9915
纘	-12.9916
謄	-12.9916
㿿	-12.9917
脰	-12.9917
㱀	-12.9922
鵕	-12.9923
鏹	-12.9923
麵	-12.9942
峘	-12.9954
薠	-13.1224
􁩪	-13.1244
膊	-13.1273
唉	-13.128
叵	-13.1288
襫	-13.1288
和潘良貴題明州三江亭韻	-13.1288
恓	-13.1288
卬	-13.1291
娣	-13.1291
淝	-13.1291
臀	-13.1291
糲	-13.1291
太液波翻披香簾捲	-13.1292
婐	-13.1293
縧	-13.1294
筍根稚子無人見	-13.1294
鬖	-13.1294
􁆱	-13.1295
鞉	-13.1297
瑶池飲日宴崑崙丘	-13.1297
黄鵠去不息哀鳴何所投	-13.1297
灕	-13.1299
轆	-13.1299
婷	-13.1299
腑	-13.1299
浯	-13.1299
煢	-13.13
矇	-13.13
喊	-13.13
饘	-13.13
剬	-13.13
楦	-13.13
蘗	-13.13
日出霧露餘青松如膏沐	-13.1301
柷	-13.1302
禖	-13.1302
􁗀	-13.1303
礲	-13.1303
掐	-13.1304
腊	-13.1304
家新様元和脚	-13.1304
笮	-13.1305
酴	-13.1305
燐	-13.1305
囱	-13.1305
垕	-13.1305
􁦚	-13.1306
溵	-13.1306
裠	-13.1306
矰	-13.1306
嬲	-13.1306
俁	-13.1307
兑	-13.1307
脁	-13.1307
娉	-13.1307
後來者當與此心期	-13.1307
价	-13.1308
山圍故國周遭在潮打空城寂寞	-13.1308
戹	-13.1308
言隨意遣渾然天成殆不見有牽	-13.1309
詅	-13.1309
皱	-13.1309
蕞	-13.1309
斉	-13.1309
云張公一生江海客身長九尺鬚眉蒼	-13.1309
箝	-13.131
送劉綜學士出	-13.131
鄽	-13.131
􁯣	-13.131
胝	-13.1311
槲	-13.1311
盒	-13.1311
輳	-13.1312
􁡯	-13.1312
紅綻雨肥梅	-13.1312
稊	-13.1312
緦	-13.1312
鶴一去不復返白雲千載空悠悠	-13.1313
香飄合殿春風轉花覆千官淑景移	-13.1314
到江吳地盡隔岸越山	-13.1314
梴	-13.1314
鞘	-13.1314
厅	-13.1315
鶄	-13.1315
咆	-13.1315
朢	-13.1315
公獨未知其趣耳臣今時復一中之	-13.1315
以染黄不借礬而成色故	-13.1315
煖鳥聲碎日髙花影重	-13.1315
縩	-13.1315
杜詩韓筆愁來讀似倩麻姑癢處	-13.1315
卿絶世無既稱絶世無天子何不喚取守	-13.1315
文章必謹布置	-13.1315
顧命有治亂臣子得從違	-13.1316
拐	-13.1316
張為取作主客圗	-13.1316
望夷宫中鹿為馬秦人半死長城下	-13.1316
闟	-13.1317
趐	-13.1317
恟	-13.1317
華堂今日綺筵開誰喚分司御史來忽發	-13.1317
賾	-13.1317
是走踆踆	-13.1317
軛	-13.1317
諜	-13.1317
堋	-13.1317
悁	-13.1318
惸	-13.1318
顐	-13.1318
熂	-13.1318
裓	-13.1318
分岡勢司空曙春入燒痕劉長卿不是師	-13.1318
颿	-13.1318
吳楚東南坼乾坤日夜浮	-13.1318
吳姬壓酒勸客嘗	-13.1318
􁁧	-13.1318
􁇳	-13.1318
擿	-13.1319
宣室召徒有茂陵求	-13.1319
帨	-13.1319
當君白首同歸日是我青山獨往時	-13.1319
襕	-13.1319
跑	-13.1319
嘷	-13.132
埠	-13.132
砰	-13.132
一水䕶田將緑遶兩山排闥送青來	-13.132
襞	-13.132
湾	-13.1321
䥴	-13.1321
曲譜金書字樹記花名玉篆牌	-13.1321
臓	-13.1321
蜋	-13.1321
沗	-13.1322
桔	-13.1322
漘	-13.1322
紞	-13.1322
魖	-13.1322
梠	-13.1322
嵯	-13.1323
溘	-13.1323
燁	-13.1323
艎	-13.1323
陘	-13.1323
䄄	-13.1324
籝	-13.1324
芑	-13.1324
韝	-13.1324
柙	-13.1324
虹收千嶂雨潮展半江天	-13.1324
蹬	-13.1324
穭	-13.1324
噍	-13.1325
歌蛙兩部山中奴	-13.1325
萸	-13.1325
麚	-13.1325
祺	-13.1325
耡	-13.1325
鞫	-13.1325
衖	-13.1325
棖	-13.1326
菰蒲深處疑無地忽有人家笑語聲	-13.1326
搯	-13.1327
丱	-13.1327
䞇	-13.1327
捽	-13.1327
枲	-13.1327
躑	-13.1327
主管台州崇道觀	-13.1327
當時諸葛成何事只合終身作卧龍	-13.1327
嘐	-13.1327
晼	-13.1328
桃無緑葉辨杏有青枝	-13.1328
遝	-13.1328
甯	-13.1328
芼	-13.1328
鋟	-13.1329
麒	-13.1329
踟	-13.1329
落日照大旗馬鳴風蕭蕭	-13.133
瀌	-13.133
㢮	-13.133
庳	-13.133
俌	-13.1331
矞	-13.1331
為浮雲能蔽日長安不見使人愁	-13.1331
歌聲無歡出門即有礙誰謂天地寛	-13.1331
糭	-13.1331
虔	-13.1331
騄	-13.1331
襁	-13.1331
鵡	-13.1332
昞	-13.1333
燕體輕弱風猛則不能勝惟	-13.1333
苕溪胡元任叢話曰	-13.1333
暗飛螢自照水宿鳥相呼	-13.1333
鷇	-13.1334
箔輕明拂玉墀披香新殿	-13.1334
漵	-13.1335
飛花寒食東風御栁斜日暮漢宫傳	-13.1335
題錢公輔衆樂亭	-13.1335
栗爆燒氊破猫跳觸鼎	-13.1335
痎	-13.1335
沜	-13.1336
捭	-13.1336
喌	-13.1336
渡桑乾水却望并州是故鄉	-13.1337
攧	-13.1337
眤	-13.1337
樂意相闗禽對語生香不斷樹交花	-13.1337
天闕象緯逼雲卧衣裳冷	-13.1337
去心今既不如昔後當不如今	-13.1338
剉	-13.1339
幐	-13.1339
暵	-13.1339
頵	-13.1339
饟	-13.134
杕	-13.1341
有幾多愁恰似一江春水向東流	-13.1341
榰	-13.1342
菖	-13.1343
第一云山頭日日風和雨行人歸	-13.1343
椘	-13.1343
傪	-13.1344
花滿眼淚不共楚王言	-13.1344
題招提院静照堂	-13.1344
篨	-13.1345
露濕寒塘草月映清淮流	-13.1347
􁅉	-13.1348
瀋	-13.1348
椵	-13.1348
稲	-13.1351
裏日光飛野馬案頭筠管長蒲盧	-13.1353
灂	-13.1354
栲	-13.1356
狒	-13.1384
不行一萬里不讀萬巻書不可	-13.2906
學詩渾似學㕘禪	-13.2908
􁨂	-13.2928
鶪	-13.2928
歪	-13.2936
嬗	-13.294
隝	-13.2941
瀃	-13.2946
姱	-13.2949
澱	-13.2949
萝	-13.2951
􁝜	-13.2951
渑	-13.2954
佼	-13.2954
雝	-13.2955
兊	-13.2955
鉸	-13.2955
樨	-13.2956
酔	-13.2956
篊	-13.2956
勌	-13.2958
蹠	-13.2959
朦	-13.296
腠	-13.296
腷	-13.296
臬	-13.2961
棼	-13.2961
殮	-13.2961
楶	-13.2961
蛓	-13.2961
髣	-13.2962
膀	-13.2962
蚿	-13.2962
呻	-13.2962
袐	-13.2963
芦	-13.2963
瑴	-13.2964
僴	-13.2964
蚶	-13.2964
眐	-13.2964
窀	-13.2965
勦	-13.2965
和呉公仲庶遊海雲寺	-13.2966
枒	-13.2966
銚	-13.2966
妊	-13.2966
莫能定其後得一善本乃是身輕一鳥	-13.2967
信手拈來頭頭是道	-13.2968
鶊	-13.2968
㻛	-13.2968
殍	-13.2968
炒	-13.2968
遴	-13.2969
殘夢依依酒力餘城頭批頰伴啼烏	-13.2969
纆	-13.2969
􁈼	-13.2969
􁈋	-13.297
孟明豈有死之日而忍用其良乃知三子	-13.297
倀	-13.297
篥	-13.297
空盤硬語妥帖力排奡	-13.297
桉	-13.2971
雰	-13.2971
敢向清時怨不容	-13.2971
罳	-13.2972
儵	-13.2972
白摧朽骨龍虎死黒入太隂雷雨垂	-13.2972
饁	-13.2972
魏顆真孝愛三良安足希	-13.2972
飯顆山頭逢杜甫頭戴笠子日卓午	-13.2972
㱿	-13.2972
鮭	-13.2973
餞許州宋司馬云	-13.2973
肪	-13.2973
欤	-13.2973
韤	-13.2973
曲終人不見江上數峰青	-13.2973
溈	-13.2973
􁑼	-13.2973
賍	-13.2973
與數客各用一字補之或云疾或云落	-13.2974
閿	-13.2974
天為吾君扶社稷肯教夫子不生還	-13.2974
參差始至若有得稍深遂忘疲	-13.2974
䚦	-13.2974
漓	-13.2975
穸	-13.2975
畸	-13.2975
蹉跌乃天下之至工也	-13.2975
大江流日夜客心悲未央	-13.2975
晚泊孤舟古祠下滿川風雨看潮生	-13.2975
春風年年花鳥無窮恨盡在蒼梧夕照中	-13.2976
思君如流水既是即目	-13.2976
籮	-13.2976
鐍	-13.2976
蘦	-13.2976
郸	-13.2977
埓	-13.2977
情忘形得意知者寡不若見詩如見	-13.2977
鱔	-13.2977
歈	-13.2977
瞀	-13.2977
􁪽	-13.2977
变	-13.2977
咈	-13.2977
栻	-13.2977
虓	-13.2977
𧖟	-13.2977
經櫽括權衡者其用意亦深刻矣	-13.2977
餈	-13.2977
櫃	-13.2978
滃	-13.2978
兒童悞喜朱顔在一笑那知是酒紅	-13.2978
厭就成都卜休為吏部眠	-13.2978
笙先按拍海棠花下合梁州	-13.2978
一别二十年人堪幾	-13.2978
旌旗日暖龍蛇動宫殿風微燕雀髙	-13.2978
袿	-13.2979
疾病思田里邑有流亡愧俸錢	-13.2979
沍	-13.2979
尢	-13.2979
焞	-13.2979
相逢盡道休官去林下何曾見一人	-13.2979
牂	-13.298
人皆苦炎熱我愛夏日長	-13.298
活火烹自臨釣石	-13.298
石吾甚愛之勿使牛礪角牛礪角尚可牛	-13.2981
年抛造物甄陶外春在先生杖屨中	-13.2981
經來白馬寺僧到赤烏年	-13.2981
擬把一麾江海去	-13.2981
思卒然遇之而莫遏有物敗之則失之矣	-13.2982
追逐採蓮時驚起沙鷗兩岸飛蘭	-13.2982
㢲	-13.2982
薏	-13.2982
跚	-13.2982
到老相尋得幾回	-13.2982
篩	-13.2982
聲長在耳山色不離門	-13.2982
㰂	-13.2982
天下蒼生待霖雨不知龍向此中蟠	-13.2982
薅	-13.2983
呷	-13.2983
嶙	-13.2983
珠簾暮捲西山雨	-13.2983
諝	-13.2983
云古畫畫意不畫形梅詩詠物無	-13.2983
柮	-13.2983
舳	-13.2983
頖	-13.2984
前有所思不學漢臣栽苜蓿空教楚客	-13.2984
漁翁夜傍西巖宿曉汲清湘	-13.2984
詩之工者寫難狀	-13.2984
㮚	-13.2984
崿	-13.2984
喇	-13.2984
徔	-13.2984
文章舊價留鸞掖桃李新隂在鯉庭	-13.2984
潩	-13.2984
鳥歸花影動魚没浪痕圓	-13.2984
匹阿宣行志學而不	-13.2984
媯	-13.2984
及乎貞觀初尚書踐台斗	-13.2984
殆不可拘以常格如此日足可惜之類是	-13.2984
隨日化身已要人扶	-13.2984
礙然其精圓快速發之在手筠亦未能盡	-13.2984
莊生曉夢迷蝴蝶望帝春心	-13.2984
靈運諸詩可以當此者亦無幾彈丸	-13.2984
餼	-13.2984
靦	-13.2985
琉	-13.2985
逤	-13.2985
墦	-13.2985
礶	-13.2985
禡	-13.2985
解忘憂憂底事花名含笑笑何人	-13.2985
雍端年十三不識六與七通子垂九齡但	-13.2985
斥八極隘九州化為	-13.2985
黝	-13.2985
安得廣厦千萬間大庇天下寒士	-13.2985
水暖鳬鷖行哺子春深桃李卧開花	-13.2986
㓨	-13.2986
圑	-13.2986
流水難窮目斜陽易	-13.2986
春草秋更緑公子未西歸	-13.2986
鴛鴦如今重到抛毬處不是金爐舊日香	-13.2986
剛腸欺竹葉衰鬢怯菱花	-13.2986
雕梁畫未落先愁玉笛吹	-13.2986
曰未如陛下小樓吹徹玉笙寒	-13.2986
檗	-13.2986
犴	-13.2986
不書諱同韓文息國夫人誌例也	-13.2986
斆	-13.2987
稭	-13.2987
簣	-13.2987
昏胡騎塵滿城欲往城南	-13.2987
添漠漠隂隂四字此乃摩詰	-13.2987
窯	-13.2987
桮	-13.2987
手兩語最當人意初日芙	-13.2987
洛邑得休告華山窮絶陘倚	-13.2987
相送欲行不行各盡觴	-13.2987
􁡸	-13.2987
昭宗時以翰林承㫖謫嶺表道湖南謝人	-13.2988
㭊	-13.2988
善馭良馬者通衢廣	-13.2988
滏	-13.2988
全曙催歸日未西	-13.2988
公若登台輔臨危莫愛身	-13.2988
膇	-13.2988
管城子無食肉相孔方兄有絶交書精妙	-13.2988
一聲何處送書鴈百丈誰家上	-13.2988
柅	-13.2989
蔦	-13.2989
酖	-13.2989
城外寒山寺夜半鐘聲到客船	-13.2989
澹自成一家之體今之秉筆者誰能及之	-13.2989
曕	-13.2989
公擇以為謝家兄弟得意不能過也	-13.2989
歐陽文忠公稱其張僕射園中一	-13.2989
游絲白日静鳴鳩乳燕青春深	-13.2989
罣	-13.2989
舊國别多日故人無少年	-13.2989
抓	-13.299
魚龍戯終遣君王怒偃師	-13.299
舵	-13.299
賻	-13.299
扯	-13.299
樓臺側畔楊花過簾幕中間燕子飛	-13.299
窱	-13.299
蕐	-13.299
東坡言僧詩要無蔬	-13.299
磅	-13.299
砦	-13.299
黌	-13.2991
㫤	-13.2991
囹	-13.2991
送人處憶得别家時	-13.2991
㞐	-13.2991
嚞	-13.2991
暱	-13.2991
無復李杜豪放之格然亦務以精意相	-13.2991
全似未嘗用力此所以不礙其氣格超勝	-13.2991
錦瑟無端五十絃一絃一柱思華年	-13.2991
雪後園林纔半樹水邊籬落忽横枝	-13.2991
崙	-13.2991
崟	-13.2991
爝	-13.2992
氣劘屈賈壘目短	-13.2992
煗	-13.2992
予愛其詞氣如百金戰馬注坡驀澗	-13.2992
薧	-13.2992
邜	-13.2992
㷔	-13.2992
飀	-13.2992
齕	-13.2992
瘼	-13.2992
吚	-13.2992
奉和御製送張尚書廵邊	-13.2992
嶁	-13.2992
独	-13.2992
竹徑通幽處禪房花木深	-13.2992
蚍蜉撼大樹可笑不自量	-13.2992
􁥽	-13.2992
噲	-13.2992
履平地得詩人之遺法	-13.2992
逢人問梓州長江那可到行客替生愁	-13.2993
遣亂蛙成兩部更邀明月作三人	-13.2993
𫝊	-13.2993
粛	-13.2993
憶昔霓旌下南苑苑中萬物生	-13.2993
沾臆江水江花豈終極黄	-13.2993
眎	-13.2993
閣深去住彼此無消息人生有情	-13.2993
加矣當以此語反三隅也	-13.2993
覔不得有時還自來	-13.2993
皜	-13.2994
堇	-13.2994
剰得月地少不生塵	-13.2994
七言五言之間除去五字三字外精神	-13.2994
圄	-13.2994
縁好客黄金散盡為收書	-13.2994
墮危芳風軒納飛絮	-13.2994
翰林風月三千首吏部文章二百年	-13.2995
凂	-13.2995
日月籠中鳥乾坤水上萍	-13.2995
瓈	-13.2995
嶱	-13.2995
次袁尚書巫山十二峯二十五韻	-13.2995
雞聲茅店月人跡板橋霜	-13.2995
竊以為字字當活活則字字	-13.2995
剸	-13.2995
縰	-13.2995
哤	-13.2995
歸萬年樹月滿九重城	-13.2996
湜公安園池詩	-13.2996
洏	-13.2996
斜日杏花飛江南春盡離	-13.2996
矻	-13.2996
豈意青州六從事化為烏有一先生	-13.2996
緐	-13.2996
君實走卒知司馬	-13.2996
嚵	-13.2997
隩	-13.2997
千山送客東西路一樹照人南北枝	-13.2997
碪	-13.2998
春深遊寺客花落閉門僧	-13.2998
江山有巴蜀棟宇自齊梁	-13.2998
義山號西崑體後進效之多竊取義山	-13.2998
广	-13.2999
燋	-13.2999
後主嬖之號花蘂夫人	-13.2999
姆	-13.2999
厎	-13.2999
瘉	-13.2999
立蜻蜓不自由五月臨平山下路藕花無	-13.2999
意各極其長雖善論者不能優劣	-13.2999
沴	-13.2999
糉	-13.2999
引之意子先以詩謝	-13.2999
姍	-13.2999
䓁	-13.3
妁	-13.3
蕕	-13.3
讟	-13.3
鬌	-13.3
凨	-13.3
護田將綠遶兩山排闥送青來	-13.3
讀魯直詩如見魯仲連李	-13.3
資福院平綠軒	-13.3
剙	-13.3
櫧	-13.3
冷徹骨四十餘萬屯	-13.3
甚嚴尤精於對偶嘗云用漢人語止可以	-13.3
沙墩至梁苑二十五長亭	-13.3
曀	-13.3001
三山半落青天外二水中分白鷺洲	-13.3001
山瓶乳酒下青雲	-13.3001
㲄	-13.3001
烟波與風雨載將離恨過江南	-13.3002
稀孤城向水閉獨鳥背人飛渡口月初上	-13.3002
杻	-13.3002
不寄一枝梅塵泥自與雲霄隔駑馬難追	-13.3002
鏝	-13.3002
澮	-13.3002
艣	-13.3002
多依效舊文未盡所趣	-13.3002
澉	-13.3003
筥	-13.3003
套	-13.3003
跽	-13.3004
飩	-13.3004
香霧雲鬟濕清輝玉臂寒	-13.3004
䑃	-13.3004
渲	-13.3004
費氏蜀之青城人以才色入蜀	-13.3005
曉風飄磬逺暮雪入廊深	-13.3005
壒	-13.3006
動七情秀實云勸不得也勸不得也	-13.3006
謫仙此語誰解道請君見月時登樓	-13.3006
机	-13.3007
螗	-13.3007
𬈑	-13.3007
君不見阮嗣宗臧否不挂口莫	-13.3007
耰	-13.3007
之屬不可勝數何獨蜀也	-13.3007
城中寸土如寸金幽軒種竹只十箇春風	-13.3007
宴優人有為義山者衣服敗	-13.3008
琶	-13.3009
胚	-13.301
滿世可能無黙識未知誰擬試齊竽	-13.301
嗉	-13.3011
輠	-13.3013
鏕	-13.3013
艓	-13.3013
艛	-13.3014
怊	-13.3015
歕	-13.3015
春水船如天上坐老年花似霧中看	-13.3015
盭	-13.3015
䥥	-13.3015
千門次第開一騎紅塵妃子笑無人知	-13.3015
鄶	-13.3015
窹	-13.3016
唧	-13.3016
啉	-13.3016
本朝故善陳時事句律精深超古作者	-13.3016
穨	-13.3017
㱔	-13.3017
孑孑干旟在浚之都素絲組之良馬五之	-13.3017
送何水部蒙出牧袁州	-13.3018
妷	-13.3019
旼	-13.302
鮠	-13.3021
愎	-13.3023
胖	-13.3024
邾	-13.3032
焼	-13.3038
皞	-13.3052
銀燭秋光冷畫屏輕羅小扇撲流螢天	-13.3375
行到水窮處坐看雲起時	-13.481
孴	-13.4899
蠝	-13.492
檛	-13.493
籛	-13.4931
睩	-13.4933
梲	-13.4935
􁆩	-13.4937
潗	-13.4938
齗	-13.4938
姣	-13.4941
唘	-13.4944
豝	-13.4944
穋	-13.4945
魨	-13.4947
樁	-13.4949
雀橋邊野草花烏衣巷口夕陽斜舊時王	-13.495
用商鞅法令如牛毛	-13.4951
泑	-13.4952
蝓	-13.4953
宄	-13.4953
茔	-13.4954
襆	-13.4954
閾	-13.4954
上堂家慶畢顧與親	-13.4954
屼	-13.4956
酆	-13.4956
虤	-13.4956
䃱	-13.4956
逺是生離來春縱有相思字三月天南無	-13.4957
呉楚東南坼乾坤日夜浮	-13.4957
闤	-13.4958
癡兒不了公家事男子要為天下竒	-13.4958
時事也山者人君之象	-13.4959
􁛙	-13.4959
􁧥	-13.496
𥅆	-13.496
得似張公子千首詩輕萬户侯	-13.496
圩	-13.496
人終日苦憐才雲軒飄去無消息	-13.4961
蝀在東又曰鴛鴦在梁	-13.4961
到枯松亦大夫白石道人新拜號斷無繳	-13.4961
晨詣超師院讀禪經	-13.4961
瀫	-13.4962
冰肌玉骨清無汗水殿風來暗香滿	-13.4962
帝出詩示羣臣次第屬和	-13.4962
琭	-13.4962
􁁅	-13.4962
嫺	-13.4963
篳	-13.4963
蛰	-13.4963
蔫	-13.4964
􁑾	-13.4964
岧	-13.4964
够	-13.4964
帢	-13.4965
日月低秦樹乾坤繞漢	-13.4966
簉	-13.4966
手倦抛書午夢長睡	-13.4966
莞然成獨笑數聲漁笛在滄浪	-13.4966
借車載家具家具少於車	-13.4966
青龍五年三月改為景初元年	-13.4966
滷	-13.4966
陌縱横馳逐惟意所之至於	-13.4967
橅	-13.4967
詩憂中有樂樂中有憂	-13.4967
譊	-13.4967
釴	-13.4968
􁚐	-13.4968
暖鳥聲碎日髙花影重年年越溪女相憶	-13.4968
琇	-13.4968
羑	-13.4968
藍尾忽驚新火後遨頭要及浣花前	-13.4968
問子為誰歟田父有好	-13.4968
旉	-13.4968
㐀	-13.4969
𫐠	-13.497
鱟	-13.497
癃	-13.497
𤯝	-13.497
恼	-13.497
唐介為臺官廷疏	-13.497
四海空無人大兒汾陽中令君小兒天台	-13.497
望中黄勾引蟬聲送夕陽憶得	-13.497
玉階仙仗擁千官	-13.497
至和中阮逸為王宫	-13.497
邍	-13.497
靉	-13.497
倬	-13.4971
隔花催喚打魚人	-13.4971
侍宴無非列近臣日午殿頭宣索	-13.4971
秕	-13.4971
學詩如學仙時至骨自換	-13.4971
細烹還好鐺新味更全	-13.4971
字書未備既多假借而音無反切平	-13.4972
䓤	-13.4972
箐	-13.4972
軋軋度寒梭臘天日短不盈尺何似	-13.4972
輟耕扶日月起廢極吹	-13.4972
毋華寧粗毋弱寧僻毋俗	-13.4972
蹬無縱鱗言誤身	-13.4972
闔開黄道衣冠拜紫宸而語益工	-13.4972
齁	-13.4972
怍	-13.4973
炕	-13.4973
草枯鷹眼疾雪盡馬	-13.4973
綰霧青條弱牽風紫蔓長	-13.4973
怒謫英州别駕朝中士大夫以詩送行	-13.4973
淚滿羅巾夢不成夜深前殿按歌聲紅	-13.4973
笠澤鱸肥人膾玉洞庭橘熟客分金	-13.4973
㲪	-13.4973
拇	-13.4974
橑	-13.4974
蘭氣當馥歸去來山中山中酒應熟	-13.4974
不見鄭谷所定詩格有進退之	-13.4974
無聲時見疎星渡河漢屈指西風幾時來	-13.4974
但見舒閒容與之態耳而字字細	-13.4974
霜皮溜雨四十圍黛色參天二千尺	-13.4974
􁌀	-13.4974
矲	-13.4974
觟	-13.4974
道人庭宇靜苔色連深竹	-13.4974
騞	-13.4974
海鵬共擊三千里鐵馬同歸十二閑	-13.4975
口脂面藥隨恩澤	-13.4975
搤	-13.4975
有規矩故可學退之於詩本無解處以才	-13.4975
椑	-13.4975
為曹子建作似矣然其中云可汗	-13.4975
限之才追無窮之意雖淵明	-13.4975
分井口徐鉉亦有喜李少保卜	-13.4975
壁隙透燈光籬根	-13.4975
孛	-13.4975
漁翁醉著無人喚過午醒來雪滿船	-13.4975
貴雕琢又畏有斧鑿痕貴破的又畏粘皮	-13.4975
匭	-13.4975
􁰵	-13.4976
灺	-13.4976
蠓	-13.4976
骭	-13.4976
悃	-13.4976
桃李春風一盃酒江湖夜雨十年燈	-13.4976
色黄金嫩梨花白雪香	-13.4976
其意後以問東坡東坡云此出古今樂志	-13.4976
如空中之音相中之色水中之月鏡中之	-13.4976
子美謫廢以四十千得之	-13.4976
履常俱謁法雲禪師于城南夜歸過龍眠	-13.4976
望明月不學山翁醉似泥到得城中燈火	-13.4976
深山更深處也應無計避征徭	-13.4976
讕	-13.4976
休罪明皇與貴妃大都衰盛	-13.4976
老身倦馬河堤永踏盡黄榆	-13.4976
裲	-13.4976
早被嬋娟誤欲粧臨鏡慵承恩不在	-13.4977
風雅頌深之以離騷九歌安能咀嚼其	-13.4977
槮	-13.4977
又曰隔林彷彿聞機杼知有人家	-13.4977
待伴不禁鴛瓦冷羞明	-13.4977
日暮碧雲合佳人殊未来	-13.4977
西湖處士骨應槁只有此詩君壓倒	-13.4977
下國難留金馬客新詩傳與竹枝	-13.4977
曼卿自少以詩酒豪放自得其氣	-13.4977
綈	-13.4977
蝪	-13.4977
蹭	-13.4977
進退韻者一進一退失此則繆矣余按倦	-13.4977
升車而去不復問務事	-13.4977
悲而哀耳目聞見而哀口歎而哀鼻酸而	-13.4977
絃五十其柱如之其聲也適怨清和	-13.4977
壁時加竄定有終篇不留一字者	-13.4977
疁	-13.4977
臕	-13.4978
韌	-13.4978
而弄斤操斧太甚所謂七日而混沌死也	-13.4978
笠翁獨釣寒江雪	-13.4978
迥五月江深草閣寒	-13.4978
多疑其拙窘於檢括者輒病其放孔子曰	-13.4978
緍	-13.4978
虽	-13.4978
書後欲題三百顆洞庭須待滿林霜	-13.4978
狺	-13.4979
榨	-13.4979
飪	-13.4979
縯	-13.4979
五夜漏聲催曉箭	-13.4979
􁖔	-13.4979
書當快意讀易盡客有可人期不	-13.4979
汳	-13.4979
㫋	-13.4979
畫畫成應遣一生愁	-13.4979
黦	-13.4979
光弼將郭子儀之軍重經號令精彩數倍	-13.4979
屴	-13.4979
舊居東城尋春西樓委順竹	-13.4979
滲	-13.4979
所以真知者謂傳誦其詩也然宰相職在	-13.498
野航恰受兩三人	-13.498
亡矣人言靖節不知道吾不信也	-13.498
橋風雪中驢子上唐求詩所	-13.498
矹	-13.498
邐	-13.498
􁛲	-13.498
鑴	-13.498
一身去國六千里萬死投荒十二年	-13.498
嚦	-13.498
一度新翠光長得照龍津君王自愛天然	-13.498
慈祥戲謔可觀也	-13.498
此正所謂進退韻格也按韻	-13.498
故常非墨工槧人所可擬議	-13.498
漼	-13.498
道士如相訪為寫黄庭換白鵝	-13.498
魈	-13.498
所謂不煩繩削而自合者	-13.498
播人口其名重當時如此而今不復傳矣	-13.498
惆	-13.4981
乗馬必中官馭以進謂之過馬既乗之	-13.4981
边	-13.4981
葯	-13.4981
觀洞古今象外逐幽好	-13.4981
遲遲不忍之意故曰尚憐終南山	-13.4981
妙茍不當理則一切皆	-13.4981
律尤精嚴造語用字間不容髪然意與言	-13.4981
硏	-13.4981
立敢言人所難去國一身輕似葉髙名千	-13.4981
言唐人皆苦思作詩所謂吟安一箇字撚	-13.4981
輩往往以綺麗風花累其正	-13.4981
長語上自齊梁諸公下至劉夢得	-13.4981
庯	-13.4981
惠泉未向人間殺風景更持醪醑醉花前	-13.4981
龏	-13.4981
俱歡顔風雨不動安如山	-13.4981
如我按指海印發光汝暫舉心塵勞先起	-13.4981
訕也故不敢作而詩之一義廢矣	-13.4981
作擬唐詩百篇備諸家之	-13.4982
亜	-13.4982
看玉宇浮中流中流蕩漾翠綃舞	-13.4983
春不老素娥何惜月長圓	-13.4983
棉	-13.4983
耳茍當於理則綺麗風花同入	-13.4983
古不鄰於怪僻題詠不窘於物象	-13.4983
大瓢貯月歸春甕小杓分江入夜瓶	-13.4983
意甚佳而病在氣不長	-13.4983
栫	-13.4983
狴	-13.4983
病於聲律比興深者通物理用事工者如	-13.4983
蜇	-13.4983
抌	-13.4983
者曰若以法眼觀無俗不	-13.4983
馬玉堂三學士清風明月兩閒人	-13.4983
能無望故曰竊效貢公喜難甘原憲貧果	-13.4983
蛟龍得雲雨鵰鶚在秋天	-13.4983
贜	-13.4984
無家對寒食有淚如金波	-13.4984
新年納餘慶嘉節號長春	-13.4984
為人傳誦要亦未為至工若用	-13.4984
聓	-13.4984
後生好風花老大即厭之然文章論當理	-13.4984
紫陌紅塵拂面來無人不道	-13.4984
殳	-13.4985
笔	-13.4985
挽之力不及處分寸不可强若出塞曲	-13.4985
澹之趣兼峻潔之姿備藻麗之態而諸家	-13.4985
人如天上坐魚似鏡中懸	-13.4985
絶古今以其盡得西山之景趣也金山寺	-13.4985
蓬萊如可到衰白問羣仙	-13.4985
韲	-13.4985
主思悠悠青鳥不傳雲外信丁香	-13.4985
皭	-13.4985
鄮	-13.4985
王建作宫詞百首國亡入	-13.4985
麟既鰥居因見此篇遂與之為親余以為	-13.4985
撎	-13.4985
薯	-13.4985
閠	-13.4985
覼	-13.4985
鰋	-13.4986
擄	-13.4986
訇	-13.4986
欲其思之來而所謂亂思蕩思者言敗之	-13.4986
云羲和走馭趂年	-13.4986
芙蓉露下落楊栁月中疎	-13.4986
長短句云平山欄檻倚晴空山色有無中	-13.4986
荐	-13.4986
褕	-13.4986
二耳義不同故得重用	-13.4986
聞犬吠聲更入青蘿去	-13.4986
茅屋斜連隔松葉主人聞語未開門	-13.4986
處其東萬古永相望七夕誰見同神光	-13.4986
紗紅映肉林深霧暗曉光遲日	-13.4986
顔色不堪誇牡丹芍藥人題徧自分身如	-13.4986
河中府法曹張君墓碣銘	-13.4986
則所知不可以不别故曰常擬報一	-13.4986
再使風俗淳皆儒冠事業也自此意竟	-13.4986
碟	-13.4987
鞓	-13.4987
四顧疑無地中流忽有山鳥飛應畏墮	-13.4987
天人恍然坐我水仙府蒼	-13.4987
乃和凝所作凝後貴悔其少作故嫁名	-13.4987
劉孝標廣絶交論	-13.4987
暮雲收盡溢清寒銀漢無聲	-13.4987
眉君王若問妾顔色莫道不如宫裏時	-13.4987
入海而去秦也然其去也必有	-13.4987
晨風懐苦心蟋蟀傷局促	-13.4987
腥涎不滿殻聊足以自濡	-13.4987
趼	-13.4987
还	-13.4987
依山盡黄河入海流欲窮千里目更上一	-13.4987
山河在明無餘物矣草	-13.4987
怨也滄海月明珠有淚清也藍田日	-13.4987
深明無人矣花鳥平時可	-13.4987
風冷今夜故人來不來教人立盡梧桐影	-13.4987
以自抗擅軍旅絶貢賦如杜克遜在梓州	-13.4987
則時可知矣他皆類此不可徧舉	-13.4987
有時俗事不稱意無限好山都上心	-13.4987
木森森白玉堂長年來此試文章日斜奏	-13.4987
讔	-13.4987
辮	-13.4987
馬遵謫守宣州及其去也郡僚軍民	-13.4987
再誦不覺心醉遂置酒又再誦	-13.4987
溍	-13.4987
體衆共守之然不若時用變體如兵之出	-13.4987
嫖	-13.4988
筆下龍蛇似有神天池雷雨變逡	-13.4988
榝	-13.4988
熄	-13.4988
皥	-13.4988
虚前席不問蒼生問鬼神	-13.4988
祼	-13.4988
鰐	-13.4988
又云曉來山鳥閙雨過杏花稀誠佳句也	-13.4988
正是江南好風景落花時節又逢君	-13.4988
而無車馬喧問君何能爾心逺地自偏	-13.4988
不成當時枉殺毛延	-13.4988
託杜鵑滄海月明珠有淚藍田日	-13.4988
息亡縁底事可憐金谷墜	-13.4988
榞	-13.4988
笙歌歸院落燈火下樓臺此善言富貴者	-13.4988
璈	-13.4988
搰	-13.4989
眉山月半輪秋影入平羌江水流	-13.4989
毖	-13.4989
聖朝無闕事自覺諫書稀	-13.4989
礟	-13.4989
蛇磨牙吮血殺人如麻錦城雖云樂不如	-13.4989
誶	-13.4989
彡	-13.4989
紅顔勝人多薄命莫怨春風當自嗟	-13.4989
至若鋪陳終始排比聲韻	-13.4989
懔	-13.4989
觿	-13.4989
不能薦賢則去之可也故曰焉能心怏怏	-13.499
㘽	-13.499
怵	-13.499
茅簷相對坐終日一鳥不鳴山更幽	-13.499
嘉祐㸃化以自見其妙如李光弼	-13.499
摩詰竊取之非也此兩句好處正	-13.499
山勢蜂腰斷溪流燕尾分	-13.499
醼	-13.499
浼	-13.499
􁰈	-13.499
伐叛弔民何謂有巢無主二子正坐詩窮	-13.499
同韓文施先生銘例也	-13.499
怫	-13.499
梨花院落溶溶月柳絮池塘淡淡風	-13.499
公自以此句語人曰窮人家有此景否	-13.499
夜南風變成竹喬年㸃化乃爾精巧	-13.499
雇	-13.499
欲與見素别則曰常擬報一飯	-13.4991
山落盡黄榆葉駐馬誰家唱石州	-13.4991
廬山髙贈同年劉凝之歸南康	-13.4991
堠東溟邀鶴駕窮兵西極待龍媒	-13.4991
歌行才麗之外頗近興諷其五言	-13.4991
鎛	-13.4991
柤	-13.4991
云莫辭終夕看動是隔年期	-13.4991
詩有一篇命意有句中命意如	-13.4991
与	-13.4991
女老自有餘態近詩尤	-13.4991
山無夕陽寄言嘉遯客此處是仙鄉	-13.4991
䶵	-13.4991
不惜捲簾通一顧怕君着眼未分明	-13.4991
侍郎拜右相中使押赴文昌	-13.4991
取白樂天語書其後云此詩在	-13.4991
夢和殘月過樓西月過樓西夢已迷	-13.4991
正明帝子西飛仙馭逺不知何處夜吹笙	-13.4991
然後知淵明詩非著力之所能	-13.4991
篱	-13.4991
緑葉成隂子滿枝	-13.4992
絶色天下無一失難再得雖能殺畫工	-13.4992
芭	-13.4992
溲	-13.4992
夜起避暑摩訶池上作	-13.4992
春生桂嶺外人在海門西	-13.4992
素詩布置如此是一篇命意也至其道	-13.4992
嗑	-13.4992
鬃	-13.4992
兩屐身後五車書其必此詩哉	-13.4992
粵	-13.4992
莫打鴨打鴨驚鴛鴦鴛鴦新	-13.4992
長官清平太守好揀選皆言由相公	-13.4992
雖同君臣有舊禮骨肉滿眼身	-13.4992
饔	-13.4992
鷫	-13.4992
牣	-13.4992
聪	-13.4993
長安衆富兒盤饌羅羶葷不	-13.4993
上簾額獨鵲裊庭柯	-13.4993
却千家作一池不栽桃李種薔薇薔薇花	-13.4993
南枝向暖北枝寒一	-13.4993
子眉宇真天人虬髯似太宗色映塞外春	-13.4993
玅	-13.4993
二曰笑傲東軒下聊復得此生三曰客	-13.4993
君家把酒盃六年波浪與塵埃不知烏石	-13.4993
天雪鞋香楚地花他年訪禪室	-13.4993
枝春江水暖鴨先知蔞蒿滿地蘆芽短正	-13.4993
磨洗認前朝東風不與周郎便銅雀春深	-13.4993
船月龍出曉堂雲樹影中流見	-13.4993
䘵	-13.4993
世俗不辨珉與玒䇿名為吏二十載青	-13.4993
佽	-13.4993
掩扉梁燕不知人事改雨中猶作一雙飛	-13.4993
雲破月来花弄影	-13.4993
蒟	-13.4994
浩蕩萬里誰能馴終焉此詩前賢録	-13.4994
工世固知之惟老杜變化開闔出	-13.4994
丈夫壯節似君少嗟我欲	-13.4994
兮自非青雲白石有深趣其氣兀硉何由	-13.4994
其名兮風吹露濕香澗谷時有白鶴飛來	-13.4994
殢	-13.4994
為揚瀾左蠡兮洪濤巨浪日夕相舂撞雲	-13.4994
白首困一邦寵榮聲利不可以	-13.4994
響松檜懸崖巨石飛流淙水聲聒聒亂人	-13.4994
僧歸夜船月龍出曉堂雲	-13.4994
未落其葉沃若他木	-13.4994
􁅔	-13.4994
匊	-13.4994
妙曹植劉公幹之詩長	-13.4994
幸因腐草出敢近太陽飛	-13.4994
隮	-13.4994
鸝三兩聲荆公命工繪	-13.4994
君侍君側輦前才人帶弓箭白馬嚼	-13.4994
當中殿前作賦聲摩空筆補造化天無功	-13.4994
簳	-13.4994
化行禹貢山川外人在周公禮樂中	-13.4994
只恐夜深花睡去髙燒銀燭照紅粧	-13.4994
哆	-13.4994
忽然湖上片雲飛不覺舟中雨	-13.4994
為曹公奪二喬置之銅雀臺上也孫氏	-13.4994
不欲以常語雜之然魯直自有	-13.4994
壎	-13.4994
手生洞房學得琵琶不下堂不識黄雲出	-13.4994
按新聲譜遺恨已深聲更苦	-13.4994
字二眠字二天字三前字	-13.4995
社稷存亡生靈塗炭都不問只恐捉了二	-13.4995
縡	-13.4995
僇	-13.4995
隟	-13.4995
黕	-13.4995
三百騎盡提金勒向雲看	-13.4995
江涵帝子翬飛閣山際真君鶴馭天	-13.4995
青山影坐學白塔骨又獨行潭	-13.4995
幾人代蕩子長不歸山椒	-13.4995
茝	-13.4995
扑	-13.4995
奉和明皇荅張説南出雀䑕谷詩云	-13.4995
子百鳥巢百鳥不敢嗔	-13.4995
殿中少監馬君墓誌	-13.4995
漢人語對若參以異代語便不相類	-13.4995
者出語自然超詣非常人能蹈其軌轍也	-13.4995
落葉滿空山何處尋行迹	-13.4995
邲	-13.4995
也天門豈可掉臂入乎此人	-13.4996
傾我當發城市多囂塵還山弄明月	-13.4996
新沙換故洲結綺臨春無處	-13.4996
誰言張處士詩後更無人	-13.4996
魂氣散何之枯形寄	-13.4996
􁆍	-13.4996
海秋光上下磨青銅鳥飛不盡暮天碧漁	-13.4996
吾詩廬山髙今人莫能為惟	-13.4996
愒	-13.4996
粃	-13.4997
傞	-13.4997
而才短如造内法酒手而無材料	-13.4997
兵衞森畫㦸燕寢凝清香	-13.4997
吳楚東南拆乾坤日夜浮	-13.4997
舉世徒驚駭梅窮獨我知古	-13.4997
詩必此詩定知非詩人此或一道也魯直	-13.4997
第為福州古田尉既至官惑一	-13.4997
駙	-13.4997
蟊	-13.4997
卨	-13.4998
狶	-13.4998
嗽	-13.4998
瘏	-13.4998
蕣	-13.4998
其藩翰况堂奥乎	-13.4998
巫峽見巴東迢迢出半空雲藏神女	-13.4998
年司制誥共嘉藻思類相如蓬山	-13.4998
朝暮泉聲落寒暄樹色同清猿不可	-13.4998
貧是病神仙可學道之餘但知白酒	-13.4998
又赴長江道中詩曰䇿杖	-13.4998
望又起歸興隨征鴻	-13.4998
郊居云百草千花路斜風細雨天	-13.4998
如玉身行不遇中國人馬上自作	-13.4998
嶻	-13.4998
許身一何愚自比稷與契	-13.4999
卹	-13.4999
洴	-13.4999
楢	-13.4999
用事琢句妙在言其用而不言其名	-13.4999
華實相副顧非佳句耶	-13.4999
落之酒泛君以湘纍秋菊之英贈君以	-13.4999
鬒	-13.4999
塵撲面而今始得碧紗籠	-13.4999
翻凍影飛鴻摩月墮孤音推愁不去如相	-13.4999
𢥠	-13.4999
山上望羡君時復見王喬	-13.4999
禩	-13.4999
苦吟而成觀其句法格力可見矣	-13.4999
之曰入公門猶鞠躬如	-13.4999
剩得月地少不生塵	-13.4999
地濶逺隨飛揚此泛聲也謂輕非絲重非	-13.4999
浩浩長江入海流舞罷青	-13.4999
然後見太白之横放所以	-13.4999
秦君嘗學至言妙道	-13.4999
蠕	-13.4999
蛈	-13.4999
誰能窮百年形影浪自苦便欲此地安	-13.4999
紲	-13.4999
家射獵為俗泉甘草美無常處鳥驚獸駭	-13.4999
然後蹀躞嘶鳴也	-13.5
臨淮政成有餘暇坐令華	-13.5
萬嶺動雲去天一色長嘯	-13.5
陊	-13.5
詩云浮萍斷處見山影	-13.5
望夫處江悠悠化為石不	-13.5001
嵂	-13.5001
時挑野菜和根煑旋斫	-13.5001
為漚魚常上浮而淰若大雨則伏而不出	-13.5001
過誰家燕驀地香來甚處花深院日	-13.5001
埛	-13.5001
惏	-13.5001
搉	-13.5001
麩	-13.5002
佷	-13.5002
䈥	-13.5002
但苦世論隘聒耳如蜩蟬	-13.5002
愛竹時來野寺獨尋春偶過	-13.5002
老妻畫紙為棊局稚子敲針作釣鈎	-13.5002
載斷碑人膾炙不知世有段文昌	-13.5002
一朶妖紅翠欲流	-13.5002
宂	-13.5002
瀵	-13.5003
咻	-13.5003
廢宅寒塘水荒墳	-13.5003
千巻手校韋編三十秋相知四海孰青眼	-13.5003
汊	-13.5003
白頭襄陽耆舊節獨苦只有龎公不入州	-13.5003
孟郊詩蹇澁窮僻	-13.5003
兩箇黄鸝鳴翠柳一行白鷺上青天	-13.5003
筧	-13.5004
見分鳴鞭走送憐漁父洗盞開嘗對馬軍	-13.5004
鯈	-13.5004
鶋	-13.5004
攃	-13.5004
有文章妙一世而詩句不逮古	-13.5004
毈	-13.5004
鴦	-13.5005
粕	-13.5005
賅	-13.5005
大江東去浪淘盡千古風流人物	-13.5005
若能者則出入縱横何可拘礙	-13.5005
風乍起吹皺一池春水	-13.5005
島嶼分諸國星河共一天	-13.5005
璙	-13.5005
他日若能窺孟子終身何敢望韓公	-13.5006
新霜染楓葉皓月借蘆花	-13.5006
觧語應傾國任是無情也動人	-13.5006
頩	-13.5006
氳	-13.5006
相見玉川破屋應數間	-13.5006
讀書不作儒生酸躍馬西入金城	-13.5006
㴞	-13.5006
鋸	-13.5006
􁀺	-13.5006
因過竹院逢僧話又得浮生半日閒	-13.5007
洑	-13.5007
竿懶眠沙草愛風湍莫倚善題鸚鵡賦何	-13.5007
珤	-13.5007
茞	-13.5008
愓	-13.5008
甔	-13.5008
􁒷	-13.5008
解造逡巡酒能開頃刻花	-13.5008
長年方悟少年非人道新詩勝舊詩十	-13.5008
臏	-13.5009
氷肌玉骨清無汗水殿	-13.501
黟川㸃漆之墨送君以陽	-13.501
齡墨以傳千古文章之印歌以寫	-13.501
壡	-13.501
趠	-13.501
懍	-13.501
立當青草人先見行傍白蓮魚未知	-13.5011
神武門先尋水竹渭南村	-13.5011
侲	-13.5012
玉女來看玉樹花異香先引七	-13.5012
僰	-13.5013
底有天春寂寂人間無路月茫茫	-13.5013
相就飲一斗恰有三百青銅錢	-13.5013
揺落深知宋玉悲風流儒雅亦吾師	-13.5013
得意馬蹄疾一日看盡長安花	-13.5013
㰖	-13.5013
墐	-13.5014
耕田欲雨刈欲晴去得順風來者怨	-13.5014
船如天上坐人似鏡中行	-13.5014
鉌	-13.5014
三尺眼見愚民盗一	-13.5015
也鉉内不服謂大言無實可窮也	-13.5015
嫫	-13.5015
荆釵世所稀布裙	-13.5016
馬肝待詔先生齒編貝忍令	-13.5016
􁰻	-13.5016
起至是始受命介以詩寄	-13.5017
庭下弱翁異之指牧童曰道人頗	-13.5018
日作詩有丈夫出處非無意猿鶴	-13.5018
村數家殘雪擁籬根	-13.5018
惝	-13.5019
泉雨一溪霜葉風業在有山	-13.5019
醤	-13.5019
曉来山鳥閙雨過杏花稀	-13.5022
婟	-13.5026
敺	-13.5027
逴	-13.5031
撘	-13.5031
釆	-13.5033
䲹	-13.5051
臝	-13.5053
旗妾在深宫那得知十四萬人齊	-13.5067
筈	-13.5068
藙	-13.5096
可憐無定河邊骨猶是春閨夢裡人	-13.5216
窮佳期從莫再脫如魯秋氏妄結	-13.6299
翡	-13.7402
㙮	-13.7421
阽	-13.7424
靁	-13.7427
不聞爺娘喚女聲但聞	-13.7432
麀	-13.7434
􁓁	-13.7434
東飛伯勞西飛燕黄姑織女時相見	-13.7437
感恩知有地不上望京樓	-13.7438
爥	-13.7438
崆	-13.7441
浩浩復湯湯灘聲抑更揚	-13.7441
黶	-13.7442
蒳	-13.7443
忉	-13.7443
風滿棹收綸了漁童拍手樵青笑明月太	-13.7443
詧	-13.7443
鷉	-13.7443
㘅	-13.7445
判司卑官不堪說未免捶楚塵埃間杜牧	-13.7445
敳	-13.7445
踳	-13.7445
蓧	-13.7446
禘	-13.7446
經語對經語史語對史語	-13.7448
釄	-13.7449
衣兒啼真自樂從師學道	-13.7449
埈	-13.7449
狌	-13.7449
筓	-13.7452
􁛀	-13.7452
謦	-13.7453
唐人與親别而復歸謂之拜家慶盧	-13.7453
磹	-13.7453
芳辰丞相園林潩水濵虎節麟符抛不得	-13.7454
不愁巴道路恐濕漢旌旗	-13.7454
嶕	-13.7454
歸老守故林戀闕悄延頸	-13.7454
餕	-13.7455
寠	-13.7455
腯	-13.7455
舉以問山谷山谷云取其字製之新	-13.7455
韓退之古詩梅聖俞學唐人平澹處至東	-13.7455
憸	-13.7455
相憶無南鴈何時有報章	-13.7455
扠	-13.7456
餡	-13.7456
自朱耶之狼狽致赤子之流離	-13.7456
自謂之唐宗不知止入聲聞辟支之果豈	-13.7456
節若前有浮聲則後須切響一	-13.7457
目飛明鏡歸心折大刀	-13.7457
喜者命兒輩筆之以備遺	-13.7457
檿	-13.7457
厰	-13.7459
䕶為雙聲磝碻為疊韻	-13.7459
文秀而質羸在曹劉間别構一體方陳思	-13.7459
虞舜蒼梧雲正愁是時明皇方	-13.7459
政山自少雲霞居物外不多塵土到人間	-13.7459
病起深居簡出終日曝背晴簷萬事不到	-13.7459
觀唐人詩觀此足矣詎不然乎集中佳句	-13.7459
士衡文賦云立片言以居要乃一篇之警	-13.7459
絨	-13.7459
䲛	-13.7459
懺	-13.7459
瘵	-13.746
牯	-13.746
大率才髙意逺則所寓得其妙遂能如此	-13.746
曖曖逺人村依依墟里	-13.746
愞	-13.746
姤	-13.746
深刻其後法席盛行海内稱為江	-13.746
飛流濺沫知多少不為徐凝洗惡詩	-13.746
亟欲奏御得披香殿字未有對時鄭毅夫	-13.746
獨當省署開文苑兼泛滄浪學釣翁	-13.746
齼	-13.746
卾	-13.7461
搒	-13.7461
躠	-13.7461
掃葉林風後拾薪山雨前	-13.7461
蹡	-13.7461
婦開大瓶盆中為吾取二公皆有位者也	-13.7461
銕	-13.7461
不書妻或未娶也不然同	-13.7461
曎	-13.7461
鷿	-13.7461
􁞠	-13.7461
撙	-13.7463
園林換葉梅初熟池館無人燕學飛	-13.7463
玉樓金殿鴛鴦翡翠等語社稷蒼生何	-13.7463
胔	-13.7463
如露從今夜白月是故鄉明	-13.7463
及漢魏間人詩為主方見古人	-13.7463
屋妻子衣百結慟哭松聲	-13.7463
天下無綱紀文章而上都亦然故曰俯	-13.7463
山忽破碎則人君失道矣賢不肖混	-13.7463
杙	-13.7463
冱	-13.7463
彃	-13.7463
瑊	-13.7463
曼卿卒後其故人有見之者云恍惚	-13.7463
江都馬一紙千金不當價	-13.7463
匈	-13.7464
譸	-13.7464
睱	-13.7464
谷李栖逺温憲李昌符謂之十哲	-13.7464
眶	-13.7464
贒	-13.7464
三年猶瘧疾一鬼不銷亡隔日搜脂髓	-13.7464
韓之文法也詩文各有體韓以文	-13.7464
金玉滿堂何所用争如年少去來休	-13.7464
長橋直下有蘭舟破月衝烟任意	-13.7464
葫	-13.7465
千錢買一窠今朝始得分明見也共戎葵	-13.7466
焭	-13.7466
䄜	-13.7466
毫意足不求顔色似前身相馬九方臯	-13.7466
奠桂酒今倒用之謂之蹉對	-13.7466
枷	-13.7466
鴻毛更疾呼柱下杲卿存	-13.7466
鳴榔莫觸蛟龍睡舉網時聞魚	-13.7466
春白日卧多嬌似病隔簾教喚女醫人	-13.7466
有布衣老大意轉拙許身一何愚	-13.7466
氄	-13.7466
祖述佺期之語也繼之以老年花似霧中	-13.7466
見雨一冬無雪却聞雷離宫紫氣生冠冕	-13.7466
家舊有大松偶見露洗而霧披	-13.7466
黑露冷蓮房墜粉紅	-13.7466
嵪	-13.7466
接席顧介甫曰宜對太液池故	-13.7466
此皆煎啜之也煎啜之者非佳品	-13.7466
􁄺	-13.7466
後又寄黄充前四句云俗子推不去可人	-13.7467
犬吠深巷中雞鳴桑樹巔	-13.7467
宗奢靡云聞得禁中老宫人	-13.7467
弆	-13.7467
秋氣集南澗獨遊亭午時	-13.7467
乾染以翠色然後知此語能傳造化之妙	-13.7467
姉	-13.7467
無不愛者便知不曉矣識文章者當如	-13.7467
郭璞言多騐老比顔含意更	-13.7467
䰞	-13.7467
夢得多為累情似安仁久悼亡	-13.7467
渚在湖常二境之間當採茶時	-13.7467
爾祖未顯時歸為尚書婦	-13.7467
篛	-13.7467
􁑞	-13.7467
紅稻啄餘鸚鵡粒碧梧棲老鳯凰枝	-13.7468
光千萬里茫茫曉日下長秋哀歌未	-13.7468
求其疵而去之等閒一字放過則不可	-13.7468
噭	-13.7468
殉公意亦如齊之二子從田横	-13.7468
踼	-13.7468
咂	-13.7468
引流泉先於池底鋪錦	-13.7468
耳聞明主提三尺眼見愚民盜一抔	-13.7468
山谷言詩意無窮而人才有限以有	-13.7468
芃	-13.7468
不類其為人乃知能賦梅花不獨宋廣平	-13.7468
伐木丁丁鳥鳴嚶嚶出自幽谷遷	-13.7468
惟文選載其百一詩一篇所謂下流不可	-13.7468
然則近代之詩無取乎曰有之吾取其合	-13.7468
譾	-13.7468
及唐人諸詩無不如此但晉宋間人	-13.7468
渾一樹髙花明逺村雲意不知殘照好却	-13.7468
脫此二病始可以言詩矣	-13.7468
禜	-13.747
青蟲相對吐秋絲之句是也	-13.747
爾曹身與名俱滅不廢江河萬古流	-13.747
􁌽	-13.747
帋	-13.747
似朱雲人至今折檻空嶙峋	-13.747
諫議面手閱月團三百片	-13.747
醿	-13.747
銀燭朝天紫陌長禁城春色曉蒼蒼	-13.747
山邊歌落日池上舞前溪	-13.747
憺	-13.747
為君忙乃知俗語亦有所自也	-13.747
知掩山扉三十秋魚鬚翠碧	-13.747
裌	-13.747
言冀可冥繕性何由熟	-13.747
邢居實字惇夫年少豪邁所與	-13.747
住破村村中牢落不堪論因供寨	-13.747
假繩削故非常情之所能到詩家妙處當	-13.747
在永嘉因夢惠連遂有池塘生春草之句	-13.747
時士人皆可喜而不多得近城人虎雜居	-13.747
隨波逐浪句謂隨物應機不主故常其二	-13.747
風吹客衣日杲杲樹攪離思花	-13.747
鷦	-13.747
師垂老過湖湘縷衣檀板無顔色一曲當	-13.747
返照入江翻石壁歸雲擁樹失	-13.747
水曲蟻封疾徐中節而不	-13.7471
上感九廟焚下憫萬民瘡斯時伏青蒲廷	-13.7471
絇	-13.7471
䀻	-13.7471
嫮	-13.7471
巴蜀愁誰語吳門興杳然	-13.7471
問作詩之要崔曰凡作詩工拙	-13.7471
楸樹馨香倚釣磯斬新花	-13.7471
猶在琵琶事已非傷心瘴江水同渡不同	-13.7471
華妙不見老人衰憊之氣	-13.7471
門外鸕鷀久不來沙頭忽見眼相猜	-13.7471
君住東湖下清風繼舊蹤	-13.7471
薮	-13.7471
􁥫	-13.7471
公寄茶詩曰兩串春團敵夜光名題天柱	-13.7471
筞	-13.7471
茶之佳品造在社前其次則火前	-13.7471
謁恭敏李公席中賦詩云穹	-13.7471
􁂫	-13.7471
予與鄉人翁行可同舟泝汴因談及	-13.7471
固君子所不免然亦何至是卒以憤死未	-13.7471
布置最得正體如官府甲第	-13.7471
攡	-13.7471
暉在宣城因登三山遂有澄江	-13.7471
羅襦不復施對君洗紅	-13.7471
里天地隔江山十書九不到何用一開顔	-13.7471
籒	-13.7472
臾	-13.7472
攟	-13.7472
之岸山川共澄澈光彩交	-13.7472
千金軀臨化消其寳寳不過軀軀化則寳	-13.7473
愾	-13.7473
瑇	-13.7473
釗	-13.7473
開元中道者吕翁經邯鄲道	-13.7473
因知此恨人多積悔讀南華第二篇	-13.7473
孟子七篇論君與民者居半其	-13.7473
最賢杜彬琵琶皮作絃自從彬死世莫傳	-13.7473
中散大夫河南尹杜君墓誌	-13.7473
有換骨法謂用古人意而	-13.7473
藷	-13.7473
軍軍亦有天幸未嘗困絶意有大將軍字	-13.7473
俗人便謂淵明諸子皆不肖而淵明	-13.7473
化之使加工也李白詩云白	-13.7473
厦豈云缺葵藿傾太陽物性固莫奪	-13.7473
是終焉其本末立意遣詞可謂曲盡其妙	-13.7473
椀肌骨清六椀通仙靈七椀喫不得也唯	-13.7473
求精粹不敢貪研膏焙乳有雅製方中圭	-13.7473
當時物議朱雲小後代聲名	-13.7473
總不好紙筆阿舒已二八懶惰	-13.7473
軄	-13.7473
須早計隨宜梳洗莫傾城	-13.7473
坐半甌輕泛緑開緘數片淺含香鄭雲叟	-13.7473
性霜刀在閱人清鏡空	-13.7473
憂碧粉散嘗見緑花生沈存中論茶謂	-13.7473
日費醉吟於市負其子以行歌江端禮以	-13.7473
李詩莊生曉夢迷蝴蝶適也望帝春	-13.7473
枤	-13.7473
源春欲暮白水青山起煙霧竹杖芒	-13.7473
笠一鈎絲金鱗正在深處千尺也	-13.7473
花枝滿空迷處所揺動繁英墜紅雨劉李	-13.7473
行有未至可加工力路頭一差愈	-13.7473
襇	-13.7473
閡	-13.7473
雨前也佳品其色白若碧緑者乃常品也	-13.7473
將相功名終若何不堪急景似	-13.7473
旨取其發興於所遇林泉人物草	-13.7473
諸篇窮極筆力如太史公紀	-13.7473
東閣官梅動詩興還如何遜在揚州	-13.7474
屇	-13.7474
和太子納妃公主出降詩	-13.7474
夜雨獨傷神在東府有云對	-13.7474
押二州字二頭字二秋字二休字	-13.7474
桕	-13.7474
煴	-13.7474
雨又云對床老兄弟夜雨鳴竹屋	-13.7474
巨細千萬殊竟莫見以何雕鎪惜	-13.7474
毅色不可求浩蕩八極中生物豈不稠醜	-13.7474
觀少陵詩謂與元氣侔力能排天斡九地	-13.7474
但得一知半解之悟漢魏尚矣不假悟也	-13.7474
夢有僧乗馬馳空中口吐雲霧	-13.7474
拔萃觀子美到䕫州後詩	-13.7474
阯	-13.7474
髐	-13.7474
帝澤無處濯塵纓鳥道來雖險龍池到	-13.7474
洗滌俯仰恣涵泳人心曠而閒月色	-13.7474
云萬里清江萬里天一村桑柘一村	-13.7474
信有格也哉殆天所賦不可及也	-13.7474
杖挾囊于後一市大驚以為異人伯時因	-13.7474
照水千尋迥棲烟一㸃明	-13.7474
謂樂天有鬻駱馬放楊	-13.7474
鱏	-13.7474
未知社前之品為佳也鄭谷	-13.7474
而舉一夜風吹一寸長之句以為茶之精	-13.7474
他年記憶憐衰老為報西川引一班	-13.7475
薗	-13.7475
􁥀	-13.7475
貝州司法叅軍李君墓誌	-13.7475
二子有靈應撫掌吾孫還有獨醒時	-13.7475
孟嘉嗜酒桓温笑徐邈狂言孟	-13.7475
定悠悠夜雨今蕭瑟其同轉對有云對	-13.7475
幺	-13.7475
後轉輕身嚴更未報皇城裏勝賞時	-13.7475
抛離本集或有事疏斯亦見之本傳	-13.7475
為詩以才學為詩以議論為詩夫豈不工	-13.7475
論詩平仲曰當作不經人道語曰斜拖闕	-13.7475
透徹之悟也他雖有悟者皆非第一義也	-13.7475
選其佳者亦自少得只世所膾炙者數詞	-13.7475
不得流便余謂昉詩所以不	-13.7475
笆	-13.7475
飽材料傳稱任昉用事過	-13.7475
亦多而絶少佳句惟寺影中流見鐘聲兩	-13.7475
千山鳥飛絶萬逕人蹤滅孤舟	-13.7475
發何處家家嬉笑穿雲去露芽錯落一	-13.7475
綴玉含珠散嘉樹終朝采掇未盈	-13.7475
子美詩妙處乃在無意於文夫無意而意	-13.7475
文字頻改工夫自出近世歐公作文先貼	-13.7475
湞	-13.7475
照耀萬物皆鮮瑩矧夫人之靈豈不醒視	-13.7475
袈	-13.7475
袚	-13.7475
詞乃云風生使者旌旄上春在將軍	-13.7475
魚出清波庖膾玉菊含寒露酒浮金	-13.7475
云山雨溪風捲釣絲瓦甌	-13.7475
勝七字張籍王建詩格極相似李益古律	-13.7475
如束一幅烏紗裹寒玉超然自有姑射姿	-13.7475
汝南有之其族尤奉道男女	-13.7475
猶勝相逢不相識形容變盡語音存	-13.7475
篷底獨斟時醉來睡著無人喚流下前	-13.7475
黄冠者十之八九時有女冠暢道姑姿色	-13.7475
澂	-13.7476
獨立敢言人所難去國一身輕似葉	-13.7476
燕燕于飛差池其羽之子于歸	-13.7477
坪	-13.7477
嶤	-13.7477
祻	-13.7477
鄗	-13.7477
小白長紅又滿枝築毬	-13.7477
持正守安州夏日登車	-13.7477
故人天上有書來責我疎愚喚不	-13.7477
濼	-13.7477
髑髏血糢糊手提擲還崔大夫	-13.7477
簪冷江光逼履清侵簪逼履皆	-13.7477
異而意同不可盡牽出處語而意不顯也	-13.7477
首叫虞舜蒼梧雲正愁	-13.7477
君亦讀老杜詩觀其用月字乎其曰二月	-13.7477
大或千言次猶數百詞氣豪邁	-13.7477
萬里傷心嚴譴日百年垂死中興時	-13.7477
詩相示首篇第一句云十月寒者	-13.7477
韎	-13.7477
佩冷臨江失金谷樓危到地香	-13.7477
始見天水性澄光與粹容上下相涵映乃	-13.7477
擪	-13.7477
施其姓也是時有東施家西施家故	-13.7477
者則無欲者也唐人記后土事以譏武后	-13.7477
謂欲界諸天當有配偶	-13.7477
㟽	-13.7477
不使語俗此庾開府之所長也然有意於	-13.7477
子厚樂府云楊白華風吹渡江水坐令	-13.7477
有明月流清輝君獨騎驢向何處頭上倒	-13.7477
無堊目無膜爾鼻無堊斤將曷運目無膜	-13.7477
織女渡河橋家家乞巧望秋月穿盡紅絲	-13.7477
辰年此乃天生作對不假人力	-13.7477
辱得失之際銖銖校量而自矜其	-13.7477
出二侍女合彈琵琶筝	-13.7478
尠	-13.7478
揃	-13.7478
徐君猷孟亨之皆不飲酒不止天生	-13.7478
棹把來齊拍水並船相	-13.7478
勤讀書而多為之自工世人	-13.7478
胊	-13.7478
脹	-13.7478
勃然曰相公前敢稱詩人	-13.7478
壯而肆老而嚴非妙於文章不足以至此	-13.7478
大年傀儡詩云鮑老當筵笑郭郎笑他舞	-13.7478
太液池邊看月時好風吹動萬年枝	-13.7478
梁周翰詩曰誰似金華楊學	-13.7478
碧波間還與容光共憔悴不堪	-13.7478
稌	-13.7478
舐	-13.7478
萬頃波濤木葉飛笙簫	-13.7478
飛客還家荒村無人作寒食殯宫	-13.7478
不知羣兒愚那用故謗傷	-13.7478
令琵琶馬上作樂以慰其道路之思	-13.7478
以谷口對壺頭其精切如此後數	-13.7478
半雨溪橋畔間杏間桃山路中	-13.7478
合體格豈率爾而為之哉近閱冷齋夜話	-13.7478
從之地為㑹老堂明年文忠	-13.7478
我遺世情一觴雖獨進杯盡	-13.7478
撅	-13.7478
於言外浩然不可屈盡心於詩守此勿失	-13.7478
有數妾四五年相繼辭去獨朝雲	-13.7478
辠	-13.7478
長安城頭烏欲棲長安道上行人稀浮雲	-13.7478
存中此論曲矣盧仝茶詩曰開緘宛見	-13.7478
尤多而鄭句不惟當時人莫及雖其集中	-13.7478
早立太子晚年自樞府出知	-13.7478
是形似之微妙者但學者不能味其言耳	-13.7478
暮帆前則去路先涉三	-13.7478
曲盡一時之意愜當衆人之情通暢	-13.7478
杏有青枝恨其粘皮骨也能	-13.7478
然天成天球不琢者歟靈運	-13.7478
猛將有花卿學語小兒知姓名	-13.7478
盡絮飛留不得隨風好去落誰家樂天亦	-13.7478
盼一回首三十六宫無粉光	-13.7478
經舉果知因譬如蓮花方其吐花而果具	-13.7478
葉西陂水漫流籧篨風急	-13.7478
郭子儀軍一號令之精彩數倍不然	-13.7478
隽	-13.7478
抏	-13.7478
楊華既奔梁元魏胡武靈	-13.7478
匯	-13.7479
八萬四千偈他日如何舉似人	-13.7479
壩	-13.7479
去年今日此門中人面桃花相映紅人面	-13.7479
多作自能見之此公以其嘗試	-13.7479
子由云寒燈相對記疇昔夜雨何時	-13.7479
才爾之不才亦已焉哉	-13.7479
森戈矛吟哦當此時不廢朝廷憂嘗願天	-13.7479
求過人如此少有至者疵病不必待人指	-13.7479
為上破碎雕鎪為下如楊大年西	-13.7479
烺	-13.7479
五山字第二十七寒字又在二十五而還	-13.7479
以為極至魯直自以此猶砌合須	-13.7479
海棠黙黙要詩催日暮紫綿	-13.7479
者頗衆獨李師中待制一篇為人傳誦	-13.7479
諉	-13.7479
須嘗陽羡茶百草不敢先開花	-13.7479
丘園無起日江漢有東流近世詩人	-13.7479
凋零萬木見青松公能不逺來千里我病	-13.7479
埵	-13.7479
每哦此詩而了不解其意自謫峽川	-13.7479
江南李氏時物在廬山東林寺曹翰下江	-13.7479
𪠘	-13.7479
三軍晦光彩烈士痛稠	-13.7479
已具浮海航到今有遺恨不得窮扶桑	-13.7479
日斵而鼻不傷終日射而鵠必中終日行	-13.7479
最為妙法藍水逺從千澗落玉山髙並兩	-13.7479
畮	-13.7479
至所居乃烏衣國也以女妻之	-13.7479
詩謂之句中眼學者不知此妙韻終不勝	-13.7479
遺物者要當如是而後可也觀三人之詩	-13.7479
不俗淵明之詩要當與一丘一壑者共之	-13.7479
少時猶見其集其句有云風	-13.7479
山不至於此明年此㑹知誰健醉把茱萸	-13.7479
平治險穢非無力潤澤焦枯是有	-13.7479
旁圍欲窮源而不得竟悵望	-13.7479
春光冉冉歸何處更向花前把	-13.7479
色絢爛漸老漸熟乃造平	-13.7479
袖塵埃何處洗李家池上海棠洲	-13.7479
詩人若范石湖之清新尤梁溪	-13.7479
鎣	-13.7479
一字人以私意竄易遂失古人一篇之意	-13.748
竁	-13.748
直揖陶謝然似入武庫但覺森嚴	-13.7481
徠	-13.7481
栅	-13.7481
也兩人對踢為白打三人角踢為官	-13.7481
意俱含蓄者如九日詩曰明年此㑹知誰	-13.7481
引子鳴鶴不歸林下食遭泥去髙飛恨	-13.7481
䊋	-13.7481
煙萬頃波粼粼玉堂學士今劉向禁直	-13.7481
揲	-13.7481
踦	-13.7481
十年顦顇到秦京誰料	-13.7481
漰	-13.7481
載始末曰引體如行書曰行放情曰歌	-13.7481
冷於陂水淡於秋逺陌初窮到渡頭	-13.7481
句非不竒也而牛鬼蛇神太甚	-13.7481
籌筆驛銅雀臺留侯廟詩為一集之冠	-13.7481
韔	-13.7481
可如此論彼自詠檜何預朕事時相語塞	-13.7481
堦墀十年泉下無消息九日	-13.7481
致逺諸人和頭字韻詩往返數四其末篇	-13.7481
被兩鬢肌膚不復實雖有五男兒	-13.7481
褶	-13.7481
貴衆中傑出如同賦一事工拙尤易見	-13.7481
霜供白愁顔酒借紅老杜	-13.7481
齒之國不當相圖晉之所以能	-13.7481
仙山一啜好泠然便欲乗風飛君莫	-13.7481
又如此誠可以激薄俗也	-13.7481
書云辭尚體要弗惟好異	-13.7481
而其迹未嘗滯也山谷嘗與	-13.7481
耳或以問海海曰歐陽公一代英偉然斯	-13.7481
草根南澗水泠泠繰成白雪桑重	-13.7481
蛭	-13.7481
詩云意中流水逺愁外舊山青	-13.7481
踠	-13.7481
躐	-13.7481
金陵人世以航海為業一日	-13.7481
黔南十絶七篇全用樂天花下對酒渭	-13.7481
其一云春風永巷閉娉婷長使青樓	-13.7481
其佳句可得聞乎曰吾見其作温公挽	-13.7481
畷	-13.7481
罶	-13.7481
荷戈士窮年守邊疆此仁人君子之用心	-13.7481
葵藿資何如廟堂肉則近乎訕矣作詩者	-13.7481
蓪	-13.7481
適睿思殿有徽祖御畫	-13.7481
湖之外雖見素亦不得而見矣故曰白鷗	-13.7482
古來交道愧難終此㑹今時豈易	-13.7482
退之煌煌東方星奈此衆客醉	-13.7482
殊不塵埃使之不倦雖競爽者未易追也	-13.7482
洌	-13.7482
金錢滿地無人費百斛明珠薏苡秋	-13.7482
一字貞白揚袂而去休	-13.7482
㦸門前蠟燭紅非富貴語看人富貴者也	-13.7482
井泉分地脈砧杵共秋聲	-13.7482
涕泗流推公之心古亦少願起公死從之	-13.7482
漢使却回憑寄語黄金何日贖	-13.7482
瞹	-13.7482
吁嗟天産石上英論功不愧	-13.7482
子厚亦從旁解之遂薄其罪子厚嘗	-13.7482
為暮雨兮為朝雲相思一夜梅花發忽到	-13.7482
邊日出西邊雨道是無情	-13.7482
不多見然精深有味語不徒發正類其文	-13.7482
名千古重於山並游英俊顔何厚未死	-13.7482
承餘烈江南廣舊恩一朝人事	-13.7482
椓	-13.7482
水暖鳬鷖行哺子溪深桃李卧開花	-13.7482
間品第胡能欺十目視而十手指勝若登	-13.7482
回安河水水從樓前來中有美人淚	-13.7482
婉而不迫哀而不傷所作自不必多也	-13.7482
安豪貴惜春殘争賞先開紫牡丹别有玉	-13.7482
𩕳	-13.7482
㭒	-13.7482
九江垂死病中驚起坐暗風吹雨入寒	-13.7482
宋地僧生涯三事衲故舊一枝	-13.7482
敢下筆知誰哉梅聖俞云寒溪浸	-13.7482
朝以詩章應制與左璫狎	-13.7482
杜荀鶴詩鄙俚近俗惟宫詞為唐第一	-13.7482
無熖影幢幢此夕聞君	-13.7482
紅葉稀山路元無雨空翠濕人衣此	-13.7482
老杜云王侯與螻蟻同盡隨丘墟	-13.7482
聚放開在我掌握與劉所論殆一轍矣	-13.7482
與題合者類之如此乃是編事雖工何益	-13.7482
薦華屋朱唇得酒暈生臉翠	-13.7482
論此詩筆力變化當與太史公諸	-13.7482
零落埋黄埃君家雖有澄心紙有	-13.7482
􁪄	-13.7482
上座君猶求舊管城公文章不	-13.7482
曰梁苑隋堤事已空萬條猶舞舊春風	-13.7482
物有感焉則有興今之作詩者以興近乎	-13.7482
相思若將此恨同芳草却恐青青有盡時	-13.7482
􁆠	-13.7482
錦江春色來天地玉壘浮雲變古今	-13.7483
玃	-13.7483
糵	-13.7484
少汲後生中豪士也讀書作	-13.7484
曲徑通幽處禪房花木深	-13.7484
雪裏髙山頭白早海中仙果子生遲	-13.7484
鷊	-13.7484
云讀罷君詩何所似搗殘	-13.7484
游歴不出二百里則所謂思者豈尋常	-13.7484
衆作等蟬噪此語吾不敢議亦不敢從	-13.7484
言則虐生類以飽口腹刻疲民以肥權	-13.7484
召客治具大合樂至夜分果月出遂樂飲	-13.7484
挽周原道銘旌鄭國門此生雖未死寂寞	-13.7484
禄直諫犯顔無一人歌未闋	-13.7484
貴賤賢愚而與之然吾特疑端為我輩設	-13.7484
不虞王至亟取紙屏障風王顧屏	-13.7484
地下之蟄龍非不臣而何神宗曰	-13.7484
忽聞河東獅子吼拄杖落手心茫然	-13.7484
清千日之醉我可醒屈原試與招魂魄劉	-13.7484
至尊之餘合王公何事便到山人家	-13.7484
議送書信白絹斜封三道印開緘宛見	-13.7484
遂令天下父母心不重生男重生女	-13.7484
院似禪心靜花如覺性圓	-13.7484
三十六鱗充使時數番猶得	-13.7484
氣接巫峽長月出寒通雪山白	-13.7484
語工而意足了無鑱斧之迹真削鐻手也	-13.7484
長憶錢塘江上望酒樓人散雨千絲	-13.7484
陵不得工也不易其意而造其語謂之	-13.7484
韻寛則波瀾横溢泛入傍韻	-13.7484
其他所作當憂則憂遇喜則喜忽然憂樂	-13.7484
又云傳語風光共流轉暫時相賞莫相違	-13.7484
所以望老杜之藩垣而不及也	-13.7484
新心意雖老大有如妖	-13.7484
浩蕩想幽薊王師安在哉	-13.7484
狃	-13.7484
率中原流寓之人同歸以青春和暖之時	-13.7484
當年不嫁惜娉婷傅白施朱作後生	-13.7484
絶不可及之語如結廬在人境	-13.7484
自姑蘇歸西湖經臨平道中作	-13.7484
詩當與黔安並驅也頃年僕在長沙相從	-13.7484
都觀裏桃千樹盡是劉郎去後栽	-13.7484
鷓鴣云方穿詰曲﨑嶇路又	-13.7484
今與山鬼隣殘兵哭遼水	-13.7484
子厚詩在陶淵明下韋蘇州上退之豪放	-13.7484
浥浥爐香初泛夜離離花影欲揺春	-13.7484
異待之命作落花詩莒公	-13.7484
看弄漁舟移白日老農何有罄交歡	-13.7484
神仙謁帝猶輕其舉止此豈	-13.7484
竊攜至家而康適來留之	-13.7484
調笑追尋壑稚子歡呼出候門遥謝載醪	-13.7484
風輕春睡足雨中有淚亦	-13.7484
一僧率爾云何不曰一方明月滿中庭	-13.7484
或似無倫次而意若貫珠十二月一日詩	-13.7484
雲安縣前江可憐此詩立意念	-13.7484
屝	-13.7485
干移曉柄有似佳期常不定	-13.7485
鬍	-13.7485
仙掌月明孤影過長門燈暗	-13.7485
噣	-13.7485
作無題詩十四韻故奉常王公内翰	-13.7485
間用俗語尤見工夫雪止未消者俗謂之	-13.7485
日新惟有碧霄雲裏月共君孤影最相親	-13.7485
元日示宗武云汝啼吾手戰	-13.7485
如此蒼生困未蘇今年起安石不用	-13.7485
有是詩矣然必言其所以見韋者於是	-13.7485
朝行在人應問老夫髭鬚衰白盡痩地日	-13.7485
聞嶺外大雪作二偈寄之曰傳聞嶺	-13.7485
覌	-13.7485
語僻難曉殊不知自是學者之弊如	-13.7485
􁂶	-13.7485
也得韻窄則不復傍出而因	-13.7485
作醉鄉今園中大堂遂以醉鄉名之	-13.7485
其格也風檣陣馬不足	-13.7485
去暮汲井泉歸無人不看妾不使見蛾眉	-13.7485
忖	-13.7485
補衲蠧文已甚自然英	-13.7485
觶	-13.7485
鰓	-13.7485
人睡起薄梳洗燕舞鶯啼空	-13.7485
叉	-13.7485
名世六一居士嘗問東坡琴詩孰優東坡	-13.7485
忠州論國政字字坦夷前身非篙師沙户	-13.7485
明妃初出漢宫時淚濕春風	-13.7485
某惶懼惶懼頓首頓首	-13.7485
犬吠竹籬沽酒客鶴隨苔岸洗衣僧	-13.7485
聖俞家郡人皆不疑其去也遵夜使人絶	-13.7485
門下省退朝擎出大明宫金	-13.7485
䦧	-13.7485
又受知於楚詩中有楚客之語題	-13.7485
廁	-13.7485
張華因觀異代前賢帖知是唐昌玉蘂花	-13.7485
所以忘憂今皆不能如意則犯三	-13.7485
根蔕天地闊逺隨飛揚	-13.7485
歠	-13.7485
無心播物祖師有記傳衣白雲横而不度	-13.7485
荩	-13.7485
蚧	-13.7485
賂園吏得一枝分接由是都下	-13.7485
魚龍曼衍六街呈金	-13.7485
中散大夫少府監胡良公墓神道碑	-13.7485
有畫觀摩詰之畫畫中有詩	-13.7486
言滯留之勢當自冬過春始終見梅	-13.7486
詩價滿江南長為邑令情終屈縱處	-13.7486
仡	-13.7486
乍見翻疑夢相悲各問年	-13.7486
珈	-13.7486
圓荷浮小葉細麥落輕花	-13.7486
沇	-13.7486
誦薛能詩云青春背我堂堂去白	-13.7486
飛流直下三千尺疑是銀河落九天	-13.7486
磑	-13.7486
飛啞啞枝上啼機中織錦秦川女碧紗如	-13.7486
之詩長於峻潔徐陵庾信之詩長於藻麗	-13.7486
十暑岷山葛三霜楚户	-13.7486
得潁也有潁人在坐云内翰	-13.7486
曰朝日上團團照見先生盤盤中	-13.7486
為得此生則見役於物者非失此生	-13.7486
城響濤頭入江昏雨脚斜	-13.7486
楪	-13.7486
潮頭潮中有妾相思淚流到樓前更不流	-13.7486
紅手素絲千字錦故人新曲九	-13.7486
長安南山下一書生作小圃蒔花	-13.7486
鮹	-13.7486
一篇皆工拙相半古人文章類如此皆拙	-13.7486
劉安過月裏笙歌煬帝歸	-13.7486
娵	-13.7486
家何事春風容不得和鶯吹折數枝花	-13.7486
年我若功成後乞取南園	-13.7486
欄桂樹懸秋香三十六宫土花碧魏	-13.7486
河上因言古人章句中全用平聲製	-13.7486
茂陵劉郎秋風客夜聞馬嘶曉無	-13.7486
褾	-13.7486
閣自松聲若不用猶與自兩字則餘八	-13.7486
不見其用力處今人多取其已用字模	-13.7486
備後宫太祖聞之召使陳詩誦其國亡詩	-13.7486
宵皆佳句也鄭谷掇取而用之乃云睡	-13.7486
後之傳者甚失其源惟足下制其横流師	-13.7486
時僧洪覺範頗能詩其題李愬畫像云淮	-13.7486
楗	-13.7486
比瑒更礬總未佳要須博物	-13.7486
用之偃蹇狹陋盡成死法不知意與境㑹	-13.7486
白當險阻艱難流離困躓	-13.7486
相欺得夜來吹折數枝花之句語頗相	-13.7486
絜	-13.7486
言慈母溪與望夫山相對望夫山詩甚多	-13.7486
長句波瀾浩大變化不測如作雜劇打猛	-13.7486
須上畨看成竹客至從嗔不出迎	-13.7486
鋗	-13.7486
儓	-13.7487
韻故謂之雙聲磝碻同為牙音而二字又	-13.7487
媾	-13.7487
所謂四韻全使淵明詩者即此詩是也	-13.7487
正素處士張子厚善書余嘗於其家見歐	-13.7487
英俊顔何厚未死姦諛骨已寒	-13.7487
按唐書韓偓傳偓嘗與崔嗣定	-13.7488
峕	-13.7488
與林和靖一流槩見於隱逸	-13.7488
世亂憐渠小家貧仰母慈	-13.7488
斮	-13.7488
紗秋意應憐我憶家極目江山千萬恨依	-13.7488
袨	-13.7488
驥子好男兒前年學語時	-13.7488
䁀	-13.7488
千里名山都未逢泊舟潯陽郭始見香	-13.7488
嚘	-13.7488
川風月笛聲中句法雖可及而意甚委曲	-13.7488
樹對酒長年身醉貌如霜葉雖紅不是春	-13.7488
此夜不長好明月明年何處看	-13.7488
窈窕一川花謂包含數箇意	-13.7488
聞過仲舒報政列城歸覲後疏恩髙閣拜	-13.7488
蕝	-13.7488
褫	-13.7488
連村暗黄花入麥稀誠可貴重又云四座	-13.7488
難嘬又如食橄欖真味	-13.7488
京師一日於驢上得句云鳥宿池	-13.7488
來頭併白相見眼終青	-13.7488
入吾室者但有清風對吾飲者惟當明月	-13.7488
叀	-13.7488
吟繹聲也失勢一落千丈强順下聲也	-13.7488
咍	-13.7488
坡海棠詩曰只恐夜深花睡去	-13.7488
有叟君知否抱甕區區亦未貧	-13.7488
樂天為後進敢期杜甫是前身卒	-13.7488
歡華不滿眼咎責塞兩儀	-13.7488
獗	-13.7488
膈	-13.7488
詩云浮雲時事改孤月此心明語意髙妙	-13.7488
象盖不可無若盡洗去清	-13.7488
雞聲茅店月人迹板橋霜	-13.7488
售一幅澄心堂中千萬軸後人聞名	-13.7488
啐	-13.7488
大嫌甜酒才髙笑小詩	-13.7488
時來天地皆同力運去英雄不自由	-13.7488
曉陪鴛鷺正差池共愛朝來何處雪蓬萊	-13.7488
標名第十三昔日聲塵喧洛下近	-13.7488
正爾填塞故實舊謂之㸃鬼簿今謂之	-13.7488
萬里悲秋常作客百年多病獨登臺	-13.7488
藋	-13.7488
過梅聖俞曰近得永叔書方作廬山髙詩	-13.7488
閱編皇明宗室月窓道人刋鄱陽程珖校	-13.7488
𤣥齡杜如晦過之母曰汝貴無疑	-13.7488
劼	-13.7488
曰聞有紫雲者孰是李指示之杜凝睇良	-13.7488
重慵便玉枕凉未是富貴語不如	-13.7488
兩鳥鳴相酬一鳴一止三千秋開元有道	-13.7488
子棐以烏絲欄絹一軸求子厚書文忠	-13.7488
引頸以承戈披襟而受矢以快一	-13.7488
盡漢宫衣寄聲欲問塞南事只有年年鴻	-13.7488
蜮	-13.7489
曙催歸日未西無心花裏鳥更與盡情啼	-13.7489
膰	-13.7489
褧	-13.7489
嚗	-13.7489
云鶯聲不逐春光老花影	-13.7489
暖玉生煙此情可待成追憶只	-13.7489
淡之宗詩家視淵明猶孔門視伯夷也	-13.7489
仵	-13.7489
蠋	-13.7489
唐𤣥宗聞之曰卿自棄朕朕何	-13.7489
平生謬作安昌客略遣彭宣到後堂	-13.7489
文錦錦似文君别恨深頭白自吟悲賦客	-13.7489
杈	-13.7489
牽車指千里東闗酸風射眸子空	-13.7489
臣日午殿頭宣索膾隔花催喚打魚人	-13.7489
衰蘭送客咸陽道天若有情天亦老	-13.7489
近世詩人惟杜子美最得詩人之體如	-13.7489
題後更誰題此衛子詩也不然安有四蹄	-13.7489
鶱	-13.7489
㑹能馳駿馬終須重到使君灘	-13.7489
今難賣語雖非工謂粗得	-13.7489
介甫明妃曲二首辭格超逸誠不下永叔	-13.7489
司空圖唐末竟能全節自守其詩有	-13.7489
州縣尉到官不數月不告	-13.7489
左右擁至尹前島具對所得詩句	-13.7489
徑來京師人問其故云我欲求教授至京	-13.7489
李賀之流是也然後世學者當先學其工	-13.7489
無取使其皆工則峭急	-13.7489
藏異書古刻至多有楊汝士與白二	-13.7489
詩曰客舍并州三十霜歸心日夜憶咸陽	-13.7489
語亦難若意新語工得前人所未道者斯	-13.7489
三首皆韻險而語工非大手筆不能到也	-13.7489
内人曉起怯春寒輕揭珠簾看牡丹一把	-13.7489
字韻詠梅詩二首東坡在嶺南有暾字韻	-13.7489
張文定及進士楊正倫詩最佳	-13.7489
杜俱交友長者來在門荒年自餬口家貧	-13.7489
淈	-13.7489
清時有味是無能閒愛孤雲静愛僧	-13.7489
竒變化無窮以驚世駭目如老杜	-13.7489
花檣燕也詩在優柔感諷不在逞豪放而	-13.7489
鑿開青帝春風圃移下姮娥夜月樓	-13.7489
閉門覔句陳無已對客揮毫秦少游	-13.7489
雎之亂於足下之文見之矣	-13.7489
矼	-13.749
或疑六一居士詩以為未盡妙以	-13.749
青山在屋上流水在屋下中有五	-13.749
却怪丹青手入眼平生未曽有意態由來	-13.749
先塋先德昭先等碑	-13.749
狭	-13.749
是着題然語皆歇後一抔事無兩出或可	-13.749
罋	-13.749
村居云黄蜂衙退海潮上白蟻戰酣山雨	-13.7491
東方和氣斗回杓龍角	-13.7491
意願預斯㑹李馳書杜聞	-13.7491
鐮	-13.7491
天上三辰次未免人間五鼎烹	-13.7491
歌曰大風起兮雲飛揚威加海内兮	-13.7491
蔀	-13.7491
㧕	-13.7491
中人飛空本無迹此非才不逮	-13.7491
何從短翎水鴨飛不逺那經細雨山重重	-13.7491
定林後詩精深華妙非少作之比嘗作	-13.7491
庭堅喜作詩得名好用南朝人語	-13.7491
手捲珠簾上玉鈎依前春	-13.7491
無餘聲山童隔竹敲茶臼	-13.7491
萤	-13.7491
雙飛翼明眸皓齒今何在血汚	-13.7491
㕥	-13.7491
井泉分地脉砧杵共秋聲	-13.7491
公所忌一日真宗賦御溝栁詩宣示宰相	-13.7491
葛洪丹經用雲子碎雲母	-13.7491
螬	-13.7491
云東風不與周郎便銅雀春深鎖二	-13.7491
側畔楊花過簾幙中間燕子飛	-13.7491
出詩一軸示東坡先自吟誦聲振左右	-13.7491
取其沐浴新凉曲名賀新凉	-13.7491
嗈	-13.7491
建明月圃命幕客徐仲雅賦詩云	-13.7491
恩自淺胡自深人生樂在相知心可憐青	-13.7491
態浩乎不失自然也喧啾百鳥羣忽見孤	-13.7491
時作此題榜一傳不可追改大抵少年題	-13.7491
有之土人取以供染事不甚惜也則知瑒	-13.7491
有承平之遺風其論詩曰梅止	-13.7491
清江萬里天一村桑柘一村煙漁翁醉睡	-13.7491
玉衣晨自舉鐵馬汗常趨	-13.7491
罷謂坡曰祥正此詩幾分	-13.7491
背且獨與婦飲頗勝俗客對月漸上我席	-13.7491
花時比屋事豪奢買栽池	-13.7491
行爛窺紅紫厭平生而今眼底無姚魏浪	-13.7491
酘	-13.7491
陳筑字夢和莆田人崇寧初	-13.7491
隔林彷彿聞機杼知有人家住翠㣲	-13.7491
集句詩每一句取一家詩今亞卿全用致	-13.7491
室復見太平顧視妻子知免流離故曰却	-13.7491
事竟何益耳目所及尚如此萬里安能制	-13.7491
夫人感極則悲悲定而後喜忽聞大	-13.7491
拙女色難自誇明妃去時淚	-13.7491
摩詰伯仲之間劉禹錫杜牧之不足多也	-13.7491
年虬髯十八九子等成大名皆因此人手	-13.7491
天祐二年挈其族依王審知而卒以紀運	-13.7492
之辛酉乃昭宗天復元年丙寅乃	-13.7492
功臣與令狐渙同為中書舎人其後韓全	-13.7492
渭城朝雨裛輕塵客	-13.7492
等刼帝西幸偓夜追及鄠見帝慟哭至	-13.7492
興水利因作此詩言東海若知明主意應	-13.7492
抨	-13.7492
蜞	-13.7492
廬歸新月無朗照落日有餘	-13.7492
門慶謝守何煩曉鏡悲	-13.7492
魯直詩文如蝤蛑江珧柱	-13.7492
但存方寸地留與子孫耕	-13.7492
前若問舊時黄庭堅謫在人間今八年此	-13.7492
在歡醉日何長谷鳥隨柯轉庭花奪酒香	-13.7492
學士也故末句云謬稱三賦在難述二公	-13.7492
故事有直用其事者有反其意而用之者	-13.7492
曰公做詩費許多氣力做甚此語切當	-13.7492
頭相並鴨水深紅尾自跳魚	-13.7492
歐陽文忠公所知其名翕然韓忠	-13.7492
無心與物競鷹隼莫相猜	-13.7492
鄢	-13.7492
㬢	-13.7492
也㑹杭州有一妓到宣其色藝可取士隆	-13.7492
出以問張華華曰此地仙九	-13.7492
句極佳意在言外而幽怨之情自見	-13.7492
執牙尺回刀剪破澄江色愁捻	-13.7492
慴	-13.7492
水見瑩中姪勝柔自九江來出	-13.7492
一時而二家詩體特異子美筆力豪	-13.7492
之至也不知手之舞之足之蹈之故曰漫	-13.7492
云一曲清歌一束綾美人猶	-13.7492
使賀且未死少加以理奴僕命騷可也	-13.7492
問之坡曰七分來是讀三分來是詩豈不	-13.7492
大凡立意之初必有難易二塗學者不能	-13.7492
夫人常肩輿上殿稱萬	-13.7492
數聲最難工自文忠公與東坡論此詩作	-13.7492
曰某不敢辭罪但恐杭妓不能安也士隆	-13.7492
江東子弟多才俊巻土重來未可知	-13.7492
者未嘗不絶倒也梅聖俞和晏相詩云因	-13.7492
聞因悲在朝市終日醉醺醺	-13.7492
莅	-13.7492
轉孔雀徐開扇影還其弔古則有映	-13.7492
難也所以贈杜挺之詩有作詩無古今欲	-13.7492
韻使與俗同科又何足尚齊已云	-13.7492
㴻	-13.7492
中錢惟演劉筠首變詩格而楊文公與	-13.7492
半吐紅巾蹙待浮花浪	-13.7492
含情欲語獨無處傳與琵琶心自知黄金	-13.7492
固忌用巧太過然縁情體物自有天然工	-13.7492
擺落陳言古今人未嘗經道者	-13.7492
深深字若無穿字欵欵字若無㸃字	-13.7492
肫	-13.7493
令古畫師極意未能詳	-13.7493
白蓮詩云無情有恨何人見月冷風清	-13.7493
亂落如紅雨之句以此名世余觀劉禹錫	-13.7493
句法希文排比故實巧欲形容宛成有	-13.7493
很	-13.7493
梅花過嶺路桃葉渡江船	-13.7493
片時惆悵深閨獨歸處曉鶯啼	-13.7493
矌	-13.7493
舉旗為風偃為雨灑掃九廟無塵埃	-13.7493
荷浮小葉細麥落輕花浮字落字是響字	-13.7493
夜色月如流朝來自覺承恩	-13.7493
福州僧有詩百餘篇其中佳句如	-13.7493
鱮	-13.7493
一箭不中鵠五湖歸釣魚	-13.7493
不在孫出見之索筆書壁上云一别人間	-13.7493
如白樂天詩詞甚工然拙於紀事寸	-13.7493
淯	-13.7493
湘潭雲盡暮山出巴蜀雪消春水	-13.7493
狂垢汚而詩語清婉嘗書湖上一山寺壁	-13.7493
落日寒蟬鳴獨歸林下寺柴扉夜	-13.7493
落魄劉郎作帝歸樽前感慨大風詩淮	-13.7493
墢	-13.7493
有大羊羊髯有珠人取	-13.7493
栁塘春水漫花塢夕陽遲	-13.7493
蒼蒼菰蒲纔熟楊栁黄扁舟繫岸不忍去	-13.7493
蘃	-13.7493
連村暗黄花入麥稀此句最善又云	-13.7493
亭亭畫舸繫寒潭直到行人酒半酣不管	-13.7493
健終不工望嶽詩無第二句而云岱宗夫	-13.7493
六宫師柔順法則化妃后至尊均	-13.7493
刺口劇菱芡言到平	-13.7493
劃然變軒昻勇士赴敵	-13.7493
年最得意每舉以教人而終不能成篇	-13.7493
新園吏無端偷折去鳯城從此有雙身	-13.7493
潠	-13.7493
皆在其中矣以此益念故國思朝廷故曰	-13.7493
瞎	-13.7493
至矣而杜子美李太白以英偉絶世之	-13.7493
臺追次李太白韻援筆立成一座盡傾	-13.7493
花開蝶滿枝花謝蝶還稀	-13.7493
諸子為之便當入魚躍練	-13.7493
輢	-13.7493
都盡伴君幽獨濃艶一枝細	-13.7493
魚戲新荷動鳥散餘花落	-13.7493
外忽傳收薊北初聞涕淚滿衣裳	-13.7494
靠	-13.7494
漢宫有佳人天子初未識一朝隨漢使	-13.7494
主相得日以賦詩飲酒為樂	-13.7495
宰相試文章故有贈集賢崔于二學士詩	-13.7495
瀁	-13.7495
亨衢照紫泥靈虬傳夕箭	-13.7495
兩日若活七十年便是百四十	-13.7495
枅	-13.7495
璧門金闕倚天開五見宫花落	-13.7495
靼	-13.7495
惟有門前鑑池水春風不改舊時波投筆	-13.7495
時走馬回北人初識越人梅清香莫把酴	-13.7495
下絲聲妙處惟琴為然琵琶格上聲烏能	-13.7495
吼願展丈夫雄得辭兒女醜秦王時在坐	-13.7495
堤築處迎丞相驛吏催時送逐臣到了輸	-13.7495
居飲食有戚戚之憂是以卒窮以死而李	-13.7495
旺	-13.7495
玉雙飛水滿塘菰蒲深處浴鴛鴦白蘋滿	-13.7495
稱之以為郊詩髙處在古無上平處猶下	-13.7495
糶新榖醫得眼前瘡剜却心頭肉	-13.7495
貴客至則鳴志完將至而狐	-13.7495
餘年西復東勞生薄宦等飛蓬所存舊業	-13.7495
首與香奩集中無題韻正同	-13.7495
魚香紅螺紫蛤俱羞避獨許渠儂近酒觴	-13.7495
鴻鵠不易得便令作對隨家	-13.7495
冥鴻惜羽毛世祖功臣三十六雲	-13.7495
句令人坐想輞川春日之勝此老傲睨	-13.7495
撦	-13.7495
獨往勝事空自知行到水窮處坐	-13.7495
詩格與錢劉亦絶相類謂之西崑體大率	-13.7495
風絶塵亦少衰矣李杜之後詩人繼出雖	-13.7495
一舉首登龍虎榜十年身到鳯凰池	-13.7495
堂房室各有定處不可亂也韓文公原道	-13.7495
喬可見措大不識好惡	-13.7495
未愛京師傳谷口但知鄉里勝壺頭	-13.7495
南山與秋色氣勢兩相髙	-13.7496
蟛	-13.7496
正是憶山時復送歸山客	-13.7496
甫奏賦三篇帝竒之使待制集賢院	-13.7496
鞦	-13.7496
􁭤	-13.7496
茗暮江寒蒼龍不復從天下拭淚看君小	-13.7496
道山新聞云李後主宫嬪窅娘	-13.7496
彯	-13.7496
惠院院之東小山上有海棠一株特繁茂	-13.7496
意神宗改容曰軾固有罪然	-13.7496
斜時可憐雨歇東風定萬樹千條各自垂	-13.7496
名花傾國兩相歡長得君王	-13.7496
文君作白頭吟以自絶相如乃止	-13.7496
溪牋未破氷生硯爐酒新燒雪滿天	-13.7496
盆攪夜眠聞道狸奴將數子買魚穿栁聘	-13.7496
知制誥日與余恕同考試	-13.7496
一朝登臨重歎息四時想像何其雄	-13.7496
同我屋公墩在眼中公去我	-13.7496
周氏周能詩嘗有詩贈筑	-13.7496
墩屬我不應墩姓尚隨公	-13.7496
巧愈險愈竒如病中贈張十八之類是也	-13.7496
魚鳥猶疑畏簡書風雲長為䕶儲胥	-13.7496
律詩有扇對格第一與第三句對第二與	-13.7496
澼	-13.7497
磕	-13.7497
齊武帝景陽樓有三更五更	-13.7497
以是論賢不肖之實亦何可欺乎	-13.7497
壄	-13.7497
字凡亭子皆可用不必滕王也	-13.7497
曰管城子無食肉相孔方兄有絶交書	-13.7497
朙	-13.7497
色新勸君更盡一杯酒西出陽關無故人	-13.7497
云扶桑大繭如甕盎天女織綃雲漢上	-13.7497
壁歸雲擁樹失山村翻字失字是響字	-13.7497
江天漠漠鳥飛去風雨時時龍一吟	-13.7497
警䇿歐公又愛建竹徑通幽處禪房花	-13.7497
人生只合揚州死禪智山	-13.7497
六朝舊恨斜陽外南浦新愁細雨中	-13.7497
弮	-13.7497
河嶽英靈集首列常建詩愛其山光	-13.7497
石補天處石破天驚逗秋雨	-13.7497
養千金軀臨化消其寳皆以為知道之言	-13.7497
後誰知榮與辱但恨在世時飲酒不得足	-13.7498
抆	-13.7498
美人顔色嬌如花今日美人棄我去青樓	-13.7498
不敢復論鄙事雖若不適用然不為無補	-13.7498
墖	-13.7498
斷豈足數往往霹靂搥蛟龍寒蟾八月蕩	-13.7498
是一體唐人用此甚多但今人少用耳如	-13.7498
莫知誰作或云鄭兵部仲賢也然集中無	-13.7498
西東我泛靈槎出塵世搜索異境窺神	-13.7498
質而實綺癯而實腴自曹劉鮑謝李杜諸	-13.7498
還者其失人心為甚誰肯復附之其不能	-13.7498
項氏以八千人渡江敗	-13.7498
澇	-13.7498
池亭云嘉魚在深處幽鳥立多時	-13.7499
石應語語意皆工江南望夫石	-13.7499
年子厚拜相亦不通問寄書誚其相忘逺	-13.7499
稻啄殘鸚鵡粒碧梧棲老鳯凰枝	-13.7499
銙	-13.7499
雪心腸好不是膏油首面新	-13.7499
笪	-13.7499
勿受外嫌猜同姓古所敦	-13.7499
作文工於命意必超然獨立於衆人之上	-13.7499
栱	-13.7499
肉何足論生死猶轉轂	-13.7499
不畔於理方善如東坡觀崔白	-13.7499
之管酒如長虹飲滄海筆若駿馬馳平坂	-13.7499
惟公用之不覺拘窘卑凡如周顒宅	-13.7499
軏	-13.7499
退之服硫黄一病竟不痊	-13.7499
酌君以荆州魚枕之蕉贈君以宣城	-13.7499
柱懸簷一千丈之語豪則豪矣然安得	-13.7499
蔾	-13.7499
陽嚼枯草近來問喘更	-13.7499
十年蹤跡走紅塵回首青山入	-13.7499
義山者為多矣又嘗以錢惟演詩二十七	-13.7499
蝱	-13.7499
雲想衣裳花想容春風拂檻露華濃若非	-13.7499
魚龍窟秀出羊城翰墨塲滄海何	-13.7499
仾	-13.7499
天末海門横北固烟中沙岸似西興	-13.7499
小徑升堂舊不斜五株桃樹亦從遮	-13.7499
愛月江底懸以手弄月身翻然不應暴落	-13.7499
漢月出宫門憶君清淚如鉛水	-13.7499
王璘之辟璘敗當誅郭子儀請解官以贖	-13.7499
監詩云得罪台州去時危棄碩儒移官蓬	-13.7499
籜龍兒戢戢滿山人未	-13.7499
苗發崔峒耿湋夏侯審李端	-13.7499
識汾陽王納官貰死義難忘今觀郭裔	-13.7499
酒且莫猖狂愛詠詩今日捉	-13.7499
調馬舊賜銅山許鑄錢	-13.75
北都使宅舊有過馬㕔按唐韓	-13.75
醉卧古藤隂下了不知南北	-13.75
䰅	-13.75
一字其字乃山水風雲竹石花草雪霜星	-13.75
刈葵莫放手放手傷葵根	-13.75
竹影横斜水清淺桂香浮動月黄昏	-13.75
唏	-13.75
蕆	-13.75
龍歸曉洞雲猶濕麝過春山草自香	-13.75
可以表裏雅頌中古作者莫及	-13.75
寒日邊聲斷春風塞草長	-13.75
欣然操觚染翰傍若無人仍名曰髙軒過	-13.75
荷衣而出二公不之信因令	-13.75
作阿蘭若婁約身歸窣堵波	-13.75
其後水閣屢易主今已	-13.75
瀠	-13.75
賦云豈如河畔牛星隔	-13.75
䓻	-13.75
佳處直方何為喜之真所謂一	-13.75
君臣猶在醉鄉中一面已無陳日月	-13.75
如金銅仙人辭漢歌補梁庾肩吾	-13.75
嬀	-13.75
真可處伯仲之間余觀此句	-13.75
荗	-13.75
風流稷下古諸姜適從瓊	-13.75
包藴宻緻演繹平暢味無窮而炙愈出	-13.75
口舌解圍謂太祖不文盛稱其主博學多	-13.75
唐主再懸新日月蜀王	-13.75
因舉伯淳和温公諸人禊飲	-13.75
彌堅而酌不竭使學者少窺其一	-13.75
形容便見妙處如魯直酴醿詩云露	-13.75
愛慕而不能釋手公嘗論義山詩以	-13.75
拂雲晴亦雨江豚吹浪夜還風	-13.75
臂休膝非夫人之職而	-13.75
龢	-13.75
寄之曰欲下丹青筆先拈	-13.75
復憶襄陽孟浩然清詩句句盡堪傳	-13.75
􁰙	-13.75
不忍去之意則曰尚憐終南山回首清渭	-13.7501
家有王建集載望夫石詩乃知非况作	-13.7502
旌旗倒玉帳佳人坐中老香魂夜逐	-13.7502
蠐	-13.7502
先生入太華杳杳絶良音秋	-13.7502
浮花水入瞿塘峽帶雨雲歸越	-13.7502
聽雨寒更盡開門落葉深	-13.7502
賀所作竒之因連騎造門求見賀	-13.7502
長短之製名動京華時韓文公與皇甫湜	-13.7502
閣賈耘老一首佳詞沈	-13.7502
嘉祐本句但是詠景耳人皆可到要之當	-13.7502
圬	-13.7502
夕陽徘徊作行雨婉孌逐荆王電影江前	-13.7502
掁	-13.7502
鸞青冥風露非人世鬢亂釵横特地寒	-13.7502
據唐紀明皇以十月幸驪山至春即還	-13.7502
無定枝陽臺雲雨夢中歸他年蓬島音塵	-13.7502
荈	-13.7502
華裾織翠青如葱金環壓轡	-13.7502
詩所謂公詩何以解人愁初日芙	-13.7502
伷	-13.7502
始大出而力振之抑揚反覆盡兼衆體	-13.7502
江風浪多巴陵一夜雨腸	-13.7502
矴	-13.7502
要悟入處悟入必自工夫中	-13.7502
天寶十二年陽浚舎人下登第	-13.7502
寄巢生子不自啄羣鳥至今與哺雛	-13.7502
曰虞芮質厥成文王蹶厥生予曰有	-13.7502
有黄鸝深樹鳴春潮帶雨	-13.7502
覽此編輒悵然終日殆忘食事邈	-13.7502
魯直讀其詩曰晁張流也恨未識	-13.7503
才莫謂無心向門下也曾終夕望三台	-13.7503
常歌舞筵中救火忙乞得金陵	-13.7503
又有詩百篇在其四世孫奕處見之豈非	-13.7503
哀帝天祐二年其序所謂丙寅	-13.7503
失須憑塞上翁引取碧油紅斾去鄴王臺	-13.7503
韓魏公初罷相出鎮長安或獻	-13.7503
月落烏啼霜滿天江楓漁火對愁眠姑	-13.7503
似聞青秧底復作龜兆坼乃前人所	-13.7503
七言詩第五字要響如返照入江翻	-13.7503
到闕以詩賜之曰瑣闥	-13.7503
稱白樂天孟東野詩又愛元微之詩而取	-13.7503
自平朝宗心本切願向急流傾自	-13.7503
岐王宅裏尋常見崔九堂前幾度聞	-13.7503
桃花流水杳然去别有天地非人間	-13.7503
道直身還在恩深命轉輕	-13.7503
秋草不如回首謝秋風分作尹邢來漢宫	-13.7503
為餧其子禮若奉至尊	-13.7503
自然不做底語到極至處者	-13.7503
颾	-13.7503
㰱	-13.7504
世上小兒誇疾走如君相待今安有	-13.7504
三絶自御題四方尤所仰	-13.7504
噪春鳥又曰貪夫蟻旋磨冷官魚上	-13.7504
胼	-13.7504
伯仲之間見伊吕指揮若定失蕭曹	-13.7504
鏽	-13.7504
啅	-13.7504
暮巾柴車路暗光已	-13.7504
疇昔之夜飛鳴而過我者	-13.7504
三代以來金石遺文一千巻有琴一張有	-13.7504
久不騎驕耳即起捉	-13.7504
亹	-13.7504
其騣一躍而上不用銜勒馳數十里而還	-13.7504
壝	-13.7504
自昔騷人墨客題之者衆矣如水涵天影	-13.7504
舌泠泠詞調新當時狎客	-13.7504
􁂁	-13.7504
弟子貧原憲諸生老伏䖍	-13.7504
待爾嗔烏鵲抛書示鶺鴒	-13.7504
玉川子詩雖豪放然太險	-13.7504
眠落葉不知數一鳥忽飛來啼破幽絶處	-13.7504
返蟻難尋穴歸禽易見	-13.7504
頭路到老相尋得幾囘	-13.7504
低折向塵埃青山得去且歸去官職有來	-13.7504
洿	-13.7506
祫	-13.7506
嫻	-13.7506
嚱	-13.7506
宫是未嘗六月在驪山也然荔	-13.7506
旧	-13.7506
甫衢州人博學善譏謔嘗舉制科不中與	-13.7506
不指言時事是非意言時事多不便不得	-13.7506
刻者皆黜之時范景仁王禹玉梅公儀	-13.7506
字比周越良可笑也周越	-13.7506
屈曲自世間安能從汝巢神山	-13.7506
年養神丹刀圭一入口白日生羽翰我欲	-13.7506
斫却月中桂清光應更多	-13.7506
營地創獨樂園自傷不得與衆同也	-13.7506
菔	-13.7506
邭	-13.7507
猺	-13.7507
微雲淡河漢疎雨滴梧桐	-13.7507
䄖	-13.7507
水中泥水濁不見月不見月尚可水深行	-13.7507
頮	-13.7507
蓮中花更好雲裏月長新	-13.7507
􁱝	-13.7507
且酌清濁麒麟閣懶畫丹青	-13.7507
汝南先賢有故事醉翁詩話誰	-13.7507
終元豐末幾三十年元祐初雖稍稍	-13.7507
興新浮蛆琰琰抛青春不妨舉醆成三人	-13.7507
袛	-13.7507
倥	-13.7507
凙	-13.7507
而買牛犢則民自力耕不	-13.7507
􁬁	-13.7507
毎過其下不風即雨疑况得句處也	-13.7508
制誥闕人中書兩進名御筆不㸃	-13.7509
蛹	-13.7509
㚄	-13.7509
禁當南市津頭有船賣無錢即買繫籬傍	-13.7509
慍	-13.7509
誇舌在牙齒牢是中惟可飲醇酒	-13.7509
頂浮新紫龍脫香髯帶舊涎玉割鱸魚迎	-13.7509
席客盈位如星占野人若月分卿極醉巫	-13.7509
坊雷大使之舞雖極天下之工要非本色	-13.7509
新然余讀後梁沈君攸臨水詩云花	-13.7509
輕隂閣小雨深院晝慵開坐	-13.7509
隔隴聞多少長安名利客機	-13.7509
不顧龍鱗逆風雲感㑹雖有時顧此定知	-13.7509
儀鸞供帳饕蝨行翰林	-13.7509
壁空殘月曙門掩候蟲秋	-13.7509
夜天香入巖谷西風吹落嶺頭蓮空愛掌	-13.7509
子固皆在選中亦不可謂不得人矣	-13.7509
暖風抽宿麥清雨巻歸旗	-13.7509
桃源人落葉為秋花作春但恨未能與世	-13.7509
獐	-13.7509
花識者鄙之此宫妾愛君之意也故	-13.7509
薪爆竹聲風簾官燭淚縱横木穿石	-13.7509
覡	-13.7509
凘	-13.751
刅	-13.751
帝遣銀河一派垂古來惟有謫仙詞	-13.751
翃同姓名者為江淮刺史又具二人同進	-13.751
􁀼	-13.751
怤	-13.751
來石應語語意皆工江南有望夫石	-13.751
秋英不比春花落為報詩人子細看	-13.751
管領對之技癢誰能忍吟哦自恨詩才窘	-13.751
經數月若古之聖賢則能聞韶忘味山中	-13.751
風帆目力短江空嵗年晚	-13.751
弸	-13.751
要清流擬致君今日星馳	-13.751
江漢思歸客乾坤一腐儒	-13.7511
軍功骨肉且相薄他人安得忠	-13.7511
騧	-13.7511
􁲍	-13.7511
劖	-13.7511
奉和御製三相同日上官詩云	-13.7511
香奩集麗而無骨時李端叔意喜韓	-13.7511
出盛時家世應傳清白訓嬰兒自得老成	-13.7511
哨	-13.7511
蠟屐舊痕尋不見東風先為我開門	-13.7511
語池上吟從白鷺窺大道不將爐冶	-13.7511
樑	-13.7511
退之以文為詩子瞻以詩為詞如	-13.7511
㲉	-13.7511
州三月作小盡梧州三月作大盡哀哉官	-13.7511
平生出處事跡悉能道盡乃詩中傳也	-13.7511
胹	-13.7513
眚	-13.7513
胠	-13.7513
扮	-13.7513
超然飛動何害其言玉樓銀海	-13.7513
餘妖鍾此根光華日已盛	-13.7513
鶯啼處鶯在舊時啼處啼	-13.7513
此格禁臠謂之促句換韻其法	-13.7513
猻	-13.7513
㟧	-13.7514
得罪風霜苦全生天地仁	-13.7514
寧初荆公以翰林學士被召前此屢召不	-13.7514
詩禁體物語此學詩者類能言之	-13.7514
未嫌長夜作衣稜却怕初陽生眼纈	-13.7514
船鷗鳥近人渾不畏一雙飛下鏡中天	-13.7514
言字希古嘗夢至一宫殿有	-13.7514
年幾五十始以尊夫人之命来集京師	-13.7515
瞩	-13.7516
春睡無人喚撩亂楊花繞夢飛	-13.7516
逸方外人也吟詩有所得即將	-13.7516
栁梢含緑認春歸風前	-13.7516
蠵	-13.7516
􁐨	-13.7516
􁱪	-13.7516
裵	-13.7516
癰	-13.7517
世網中語殊不知本分家風水邉林下氣	-13.7517
有箇長松樹半夜子規來上啼	-13.7517
語意輕淺一時慕之號西崑體識者病之	-13.7517
自古以直道見黜者多矣豈皆貪寵	-13.7518
地然公詩好處豈專在此如崇徽公主手	-13.7518
不洗千年恨留與行人戒覆車害理尤甚	-13.752
唐山人詩瓢也接得十纔二三題鄭處士	-13.752
暢律詩意所到處雖語有不倫亦	-13.752
之風大得建安體論者推李翰林杜工部	-13.7521
椏	-13.7521
楮為冠子布為裳吞得丹霞	-13.7522
鰈	-13.7522
林間踏青去席上意錢來	-13.7522
來一瓣香敬為曾南豐	-13.7522
悵望千秋一灑淚蕭條異代不同時	-13.7522
欑	-13.7522
江嶺之南凡是資於適口者若	-13.7522
於七字之中婉麗雄勝字字不失相對雖	-13.7522
樓寒起粟光揺銀海眩生花	-13.7522
此與古人爭勝於毫釐也	-13.7522
經妙誰傳與肘後方新自寫將百尺松梢	-13.7524
江聲秋入寺雨氣夜侵樓	-13.7524
先生則有荷風送香氣竹露滴清	-13.7524
舋	-13.7525
蓱	-13.7525
厩	-13.7527
間覺而月出有句曰未離海底千山	-13.7527
不信最清曠及來愁已空數	-13.7527
里珠簾捲髣髴三生杜牧之紅藥梢頭初	-13.7527
能之牧童乃操筆大書云草鋪	-13.7528
輕紗一幅巾小簟六尺	-13.7528
舼	-13.7528
􁡷	-13.7529
䍡	-13.7532
􁜡	-13.7533
覻	-13.7534
侯門一入深如海從此蕭郎是路人	-13.7535
􁵨	-13.7543
玕	-13.7546
泖	-13.7546
摫	-13.7549
鈲	-13.7549
和范公希文懷慶朔堂	-13.756
􁏢	-13.7592
雲起時偶然值林叟談笑無	-13.7722
黄金勒翻身向天仰射雲一箭正墜	-14.0248
菥	-14.0686
葴	-14.0694
墪	-14.072
􁀫	-14.0736
荖	-14.0738
鬘	-14.0741
腆	-14.0748
别囝囝别郎罷及至黄泉不得在郎罷前	-14.0753
滿汀鷗不散一局黒全輸	-14.0753
孏	-14.0757
􁣌	-14.0757
逑	-14.0759
廢而不行陳公時偶得杜集舊本文多	-14.0759
僔	-14.0759
搪	-14.0759
弱不勝務故悼加乎膚色	-14.0761
而結文則事愜觀文而屬心則體奢奢體	-14.0761
菶	-14.0761
云昨夜月同行後山則云勤勤有月與同	-14.0763
罷幽磬後山則云林昏出幽磬杜云古人	-14.0763
上風光鶯語亂城下烟波春拍岸緑楊芳	-14.0763
屺	-14.0763
甪	-14.0763
則天容時態融和駘蕩豈不在目前乎	-14.0765
桓譚百句不遷亦各有其志也昔魏武論	-14.0765
翆	-14.0765
玿	-14.0765
霶	-14.0766
好鳥迎春歌後院飛花送酒舞前簷	-14.0767
娙	-14.0767
龍武新軍深駐輦芙蓉别殿謾焚香	-14.0767
偒	-14.0767
鞸	-14.0767
經岳侯駐兵之地江禁方嚴國英投詩云	-14.0771
以水使足乃可用不然渴燥	-14.0771
碕	-14.0771
苫	-14.0771
落霞與孤鶩齊飛秋水共長天一色	-14.0771
一詞云釣笠披雲青嶂繞緑蓑雨細春江	-14.0771
凥	-14.0773
㫖始可言文自後浮巧之語體製漸多如	-14.0773
能作詩然不甚過人舊傳一士人家請之	-14.0773
蓘	-14.0773
𣆀	-14.0773
老杜雨詩云紫崖奔處黒白鳥去	-14.0775
景靈宮恭謝駕回丞相以下皆簪花	-14.0775
衂	-14.0775
伃	-14.0775
聞君掃却赤縣圖乗興遣畵滄洲趣	-14.0775
暗飛螢自照後山則云飛螢元失照杜云	-14.0776
水句尤見工所謂浩浩湯湯抑更揚者非	-14.0776
因過竹院逢僧話始覺空門氣味長	-14.0777
恨别鳥驚心之句似之殆是同一機軸也	-14.0777
正格偏格類例極多故有三十四格十九	-14.0777
名今以雨襯之語晦而病因為改作緑蓑	-14.0777
所不好聖俞所卑下者皆修所稱賞盖知	-14.0777
降偶書院中子弟作雨詩因率	-14.0777
敝廬不才明主棄多病故人疎	-14.0777
功業特髙嘉祐末精神如破貝州時	-14.0778
郿	-14.0778
幽憂憤悱寓之比興謂之騷	-14.0778
康雙鸞茂先寒食平叔單衣	-14.0778
窊	-14.0778
𣪚	-14.0778
􁔡	-14.0778
三四里間若沙溪外焙也與二焙相去	-14.0778
人可繼者惟荆公觀燕公山水詩前六句	-14.0778
在春夏之交其地即書所謂蔡䝉旅平	-14.0778
祹	-14.0778
近世趙紫芝翁靈舒輩獨喜賈島姚合	-14.0778
嗛	-14.078
真所謂碌碌盆盎中見此古罍洗者用語	-14.078
霧深杜云寒花只暫香後山則	-14.078
載南柯太守傳與枕中記事絶相類浮世	-14.078
䣃	-14.078
同一照浮家泛宅忘昏曉醉眼冷看	-14.078
偈曰千尺絲綸直下垂一波纔動萬波	-14.0782
轤	-14.0782
㢗	-14.0782
結言於四字之句盤桓乎數韻之辭	-14.0782
云開元則吕翁非洞賔無可疑者苕溪漁	-14.0782
尚用枕中記故事可見其非吕翁也	-14.0782
君家自有元和手莫厭家雞更問人	-14.0782
眵	-14.0782
義不同當又别是一首郭茂倩不能辨也	-14.0782
只在南山南我欲從之不憚逺無方	-14.0782
披香殿上留朱輦太液池邊送玉杯	-14.0782
方花乃進士赴舉之時而唐詩人翁承賛	-14.0782
曰深曰逺曰長曰雄渾曰飄逸曰悲壯曰	-14.0782
生費齒不費錢仙人食罷腹便便七十二	-14.0782
訿	-14.0782
青女素娥俱耐冷月中霜裏	-14.0782
乖道或有志而無時或美才而兼累	-14.0784
澁匙難綰羮稀筯易寛	-14.0784
天真此中空洞渾無物何止容君數百人	-14.0784
年年亂生春色誰為主餘花落處滿地和	-14.0784
雨又是離歌一闋長亭暮王孫去萋萋	-14.0784
綖	-14.0784
避世士忽騎將軍馬自號報恩子	-14.0784
鴃	-14.0784
吹唱隔江皆雙聲如月影侵	-14.0784
欲使後之子孫知其祖創業之勤不可怠	-14.0784
置俎均牢彘峩冠信沐猴方矜几上肉	-14.0784
田翁逼社日邀我嘗春酒	-14.0784
姑守陶之介久客惜人情如何拒	-14.0784
有一首青青園中葵者郭茂倩樂府有兩	-14.0784
者仙人騎白鹿之篇予疑此詞岧岧山	-14.0784
馳譽丹青有古風筆端及我未宜	-14.0784
鐻	-14.0786
映帶殆不可讀然要非全美也	-14.0786
故人南北數行書殘雨入簾收薄暑破	-14.0786
緖	-14.0786
湘間多有其碑刻而體不一或疑有假	-14.0786
不知民餒寒盡驅牛車盈道載屑玉載載	-14.0786
初云桃花欲共楊花語自以淡墨改三字	-14.0786
君門春申還道三千客寂寞無人殺李園	-14.0786
自題聞道近來諸子弟臨池尋已厭家雞	-14.0786
雁行布陣衆未曉虎穴得子人皆驚	-14.0786
疑薄暮毁垣春雨裏殘花猶發萬年枝	-14.0786
柹	-14.0786
竷	-14.0786
詩云新月已生飛鳥外落霞更在夕陽西	-14.0786
謝曰賴天地宗社之靈國有君矣	-14.0786
永夜角聲悲自語中天月色好誰看	-14.0788
是日清都虎豹閒百辟動容觀奏	-14.0788
麨	-14.0788
暫解鞍偶然假館豈求安新豐獨酌誰為	-14.0788
拕	-14.0788
臨河濯長纓念子悵悠悠	-14.0788
桃花流水窅然去别有天地非人間	-14.0788
蔞蒿短短荻芽肥正是河豚欲上時甘	-14.0788
鋣	-14.0788
孤臣昔放逐泣血追愆尤汗漫不省識	-14.0788
以起然詳味之自有工拙也杜子	-14.0788
冬夜對妓詩云歌還團扇後舞出妓行前	-14.0788
約他年東還海道願謝公雅志莫相違	-14.0788
鎖清秋曽見嬋娟颺繡毬金鑰	-14.0788
鴈行亦以鴈行對龍衮然語	-14.0788
地勢遥尊岳河流側讓闗	-14.0788
安能比鉅公偶然年月與時同只因日上	-14.0788
痿	-14.0788
硌	-14.0788
衣長安有宜春宫此又以宜春對披香矣	-14.0788
褣	-14.0788
學者謂公取唐詩一鳩鳴午寂雙燕	-14.0788
鞭捶身滿瘡以此明唐之叅軍簿尉有過	-14.079
乃謂余誚之也周伯仁所謂君者乃王茂	-14.079
念人生七十稀腰下雖無蘇子印	-14.079
此日楊花初似雪女兒絲管弄	-14.079
怲	-14.079
狗吠深巷中雞鳴桑樹巔	-14.079
霙	-14.079
䆮	-14.079
坐忘身平生不識髙將軍手涴吾足	-14.079
難于漢陽即宫于宗周奔走無射	-14.079
章伯如此之類老杜句法也東坡秋水今	-14.079
至三年而崩則無青龍九年明矣	-14.079
䴵	-14.079
春晝云人歸漢后黄金屋燕在盧家白	-14.079
爰及江表微波尚傳孫綽	-14.079
苦雨靈運鄴中士衡擬古越石感亂景純	-14.079
行樂亦云聊此魯直句法也學者若能遍	-14.079
坡長坂峻牛力疲天寒日暮人心速	-14.079
歌對舞者七以歌扇對舞衣者亦七雖相	-14.079
雪分歌共落塵陳隂鏗侯司空宅	-14.079
劉歆之移太常辭剛而義辨文移之首也	-14.079
為句宣和間多用全文長句為對習尚之	-14.079
蓤	-14.079
騭	-14.079
鷳	-14.079
噦	-14.079
詩叙貢茶頗為詳盡亦可見當時之事也	-14.079
改書曰奏漢定禮儀則有四品一曰章	-14.0792
鱨	-14.0792
㐲	-14.0792
今國猶活獨以活國許陳元禮何也	-14.0792
平入謂之偏格如四更山吐月殘夜水明	-14.0792
既作惟賞罰當則再振否則不	-14.0792
豭	-14.0792
亰	-14.0792
初疑磊落曙天星次見搏擊三秋兵	-14.0792
毛衣虞人莫謾張羅網未肯平原淺草飛	-14.0792
㡡	-14.0792
體曰唐詩矣則學者謂唐詩誠止於是耳	-14.0792
王黄州學白樂天楊文公劉中山學李商	-14.0792
興致用字必有來歴押韻必有出處讀之	-14.0792
蘭溪訪清泉已辦布韈青行纒	-14.0792
鎌	-14.0792
風殆以罵詈為詩詩而至此可謂一厄也	-14.0792
黄金錯其文曰一刀直五千與五銖錢	-14.0792
山僧供帳迎世間無此竹風清獨拳一手	-14.0792
晜	-14.0792
栯	-14.0792
欲華酒好未陪紅杏宴詩狂多憶刺桐花	-14.0792
烹氣味醇細香勝却麝淺色過	-14.0792
縗	-14.0792
諟	-14.0792
閩中實董其事賦北苑焙新茶詩其序云	-14.0792
闃	-14.0792
静憩鳩鳴午荒尋犬吠昏	-14.0792
尫	-14.0792
庖霜刀落鱠執玉酒明船	-14.0794
義符采相勝如組織之品朱紫畫繪之著	-14.0794
璲	-14.0794
獧	-14.0794
髙臺多悲風亦唯所見清晨登隴首	-14.0794
日豕四日羊五日牛六日馬七日人八日	-14.0794
則知建詩皆摭實非鑿空語也	-14.0794
在易水東南十八里燕昭王置千金於	-14.0794
城大發卒鑄作銅人二號曰翁仲列坐	-14.0794
予女銘若纂乃考服悝拜稽首曰對揚以	-14.0794
大纔一粟浸之經宿如弹丸人	-14.0794
畫遒勁而盡妙矣謂之撥鐙法希聲	-14.0794
賢鬼也豈復屑屑求食於嘔	-14.0794
贐	-14.0794
願得逺公知姓字焚香洗鉢過	-14.0794
乃為當行乃為本色然悟有淺深有分限	-14.0794
如綸命旌節前驅馬首紅	-14.0794
御厨不食索時新毎見花開即	-14.0794
更造大錢徑寸二分重十二銖文曰大	-14.0794
月落參横畫角哀暗香消盡令人老	-14.0794
並歌時轉黛息舞暫分香隋盧思道夜聞	-14.0794
推原漢魏以來而截然謂當以盛唐為法	-14.0794
未眠似此等句須細味之方見其用意也	-14.0794
衱	-14.0794
達夫贈王徹云吾知十年後季子多黄金	-14.0794
之佳品珍踰金玉未易多得而以三百片	-14.0794
吾聞良驥老始成此馬數年人更驚	-14.0794
採其芽日數千工聚而造之逼社即入貢	-14.0794
文不以籩豆有楚對黍稷	-14.0794
斷旅腸萬里可堪人謫宦經年應合	-14.0794
是君王合釣龍元宗大喜賜宴極歡	-14.0794
更代餞别感化前獻詩曰旌斾赴天	-14.0794
有楚之儀黍稷奉惟馨之薦近世王初寮	-14.0794
棬	-14.0794
每嵗初進之後先宣賜學士韓子蒼謝人	-14.0794
泛金溪上暇日率同志拏小舟載魚鼈蝦	-14.0794
溪山曉色開萬家悲更喜迎佛送如	-14.0794
紫荷囊相傳云挈囊竟何所出	-14.0794
覽謂二人名既相逼不能無相忌	-14.0794
陵時景山方為許州法曹以長韻見	-14.0794
出披香清歌臨太液乃知荆公取儀詩豈	-14.0794
學詩者尤當領此陳腐之語固不必	-14.0794
節為卭州刺史數有功則是正節無疑矣	-14.0794
􁋊	-14.0794
殕	-14.0795
行之辭逆萌中篇之意絶筆之言追	-14.0796
􁊋	-14.0796
不滅風霆痕相重古殿倚	-14.0796
人嗜之以喪其軀西施色之美也	-14.0796
圮	-14.0796
常怯玉鈎斜待伴羞明皆俗語	-14.0796
服乃考文叔興舊耆欲作率慶士躬恤	-14.0796
王侯第宅皆新主文武衣冠異昔時	-14.0796
云身行南鴈不到處山與北人相對	-14.0796
五代時鄭遨茶詩云嫩芽香且靈吾謂	-14.0796
婉腰圍一尺六寸能掌上舞唐人作楊	-14.0796
守東南奔為聞楚國富山水青嶂	-14.0796
擬張籍上裴晉公詩曰午橋莊上千竿竹	-14.0796
敷柔肆紆餘奮猛巻海潦	-14.0796
謙抑自忘臺省尊不令執簡候亭館直許	-14.0796
釣魚詩披香殿上留珠輦太液池邊送玉	-14.0796
䋄	-14.0796
之而偶對各有所長吕吉甫云南北戰	-14.0796
俲	-14.0796
其環如大錢身形如刀長二寸文曰契刀	-14.0796
澹然離言説悟悦心自足	-14.0796
燕引五六子露井榴開三四花	-14.0796
老杜何如人或言似司馬遷但能名其詩	-14.0796
耳聞明主眼見愚民尤不成語余數見交	-14.0796
荷揮萬朶玉如意蟬弄一聲金錯刀	-14.0796
詩傳之遂使一篇之意不完其體與	-14.0796
鎸	-14.0796
􁄂	-14.0796
出茶有焙焙有三十六三十六中惟北苑	-14.0796
少陵為爾牽詩興可是無心賦海棠	-14.0796
徐視姓名曰果吾學子葛敏修也	-14.0796
朐	-14.0796
枹	-14.0796
正依依重見鑾輿幸蜀歸泉下阿	-14.0796
玉甃垂鈎興正濃碧池春暖水溶溶凡	-14.0796
皁囊莫謂明時暫遷謫便将纓足濯滄浪	-14.0796
至道間仍添造石乳其後大小龍茶又起	-14.0796
芉	-14.0796
讋	-14.0796
􁯘	-14.0796
作詩而陋其名予請名曰山礬野人採鄭	-14.0796
孫楚歌云茶出巴蜀張孟陽登成都樓詩	-14.0796
幕中間託下風敢謂彈冠煩貢禹	-14.0796
若東坡和陶詩前山正可數後騎且勿驅	-14.0796
西堂思詩竟日不就寤寐間忽見惠連即	-14.0796
歗	-14.0797
青山有雪諳松性碧落無雲稱	-14.0798
中丞問俗畫熊頻愛弟傳書	-14.0798
早梅詩云兎園標物序驚時最是梅	-14.0798
藏處處光皎皎開眼失蹤由都縁太分	-14.0798
展手示之遂定交要當如此乃是	-14.0798
都畫手開十眉横雲却月争新	-14.0798
歸安吴景旭撰丙集上之	-14.0798
死諱文成食馬肝待詔先生齒編貝	-14.0798
見底未為清少年如玉有詩名此可	-14.0798
鴝	-14.0798
其平生用心處則半山老人之詩得之矣	-14.0798
暮年憂世心力弱宿花石戍云誰能	-14.0798
獶	-14.0798
莊宅牙人語也解量四至吳僧錢塘白	-14.0798
蘇七千里外二毛人十八灘頭一葉身	-14.0798
野堂中白日春富貴極來惟歎老功名	-14.0798
人惟在興趣羚羊掛角無跡可	-14.0798
厥初者與陶詩了不相類五臣注引文章	-14.0798
岣	-14.0798
求故其妙處透徹玲瓏不可湊泊	-14.0798
深取極乃百慮之筌蹄萬事之權衡也	-14.0798
窓牖娥娥紅粉粧纎纎出素手	-14.0798
萬壑松聲山雨過一川花氣水風生	-14.0798
鄰家漁未歸鄉心正欲絶何處搗	-14.0798
里自比渭與莘出試乃大謬芻狗難重陳	-14.0798
麻錢起題輞川詩云折麻定延竚	-14.0798
之載無聲下民之虐匪降時人許其裁剪	-14.0798
他時要指集賢人知是香山老居士又	-14.0798
意敗輒以此一句奉寄亦可見思難而	-14.0798
童子常誇作賦工暮年羞悔有	-14.0798
荒埭暗雞催月曉空場老雉挾春驕	-14.0798
云力去陳言誇末俗可憐無補費精神	-14.0798
墆	-14.0798
宴苑中有白野鵲李璟令賦詩應聲曰碧	-14.0798
平山堂望江左諸山甚近或以	-14.0798
槦	-14.0798
槬	-14.0798
畫手未免多與古人傳神杜牧之詩風調	-14.0798
陒	-14.0798
經杜甫墳說云擬掘孤墳破重教大雅生	-14.08
迮	-14.08
饙	-14.08
霣	-14.08
俗書趂姿媚數紙尚可博白	-14.08
嵐氣低佳人留恨此中題不知雲雨歸何	-14.08
担	-14.08
頭殷勤願祝如天夀一炷清香滿石	-14.08
為感傷無翠葆眼從瞻望有	-14.08
診	-14.08
上平沙鴉分供餘食鴿亂著殘	-14.08
佈	-14.08
掩扉桑柘影斜春社散家家扶得醉人歸	-14.08
橰	-14.08
痞	-14.08
竒怪然議論亦皆出於正也氷柱詩云不	-14.08
者也所謂篇章之珠澤文彩之鄧林	-14.08
之才變創其體劉越石仗清剛之氣	-14.08
作詩否潘云秋來日日是詩思昨日	-14.08
十年來夢一場吳苑宫闈今冷落廣陵臺	-14.08
因念逺戍卒所謂憂在天下而不為	-14.08
客魚好在仲宣家萬里從軍苦樂定何如	-14.08
經興廢事夕陽偏照古今愁城中樹	-14.08
能易也嘗愛李敬方汴河直進	-14.08
與吕縉叔石聲叔陳原道	-14.08
賢榮路我猶妨主恩至重何時報老眼相	-14.08
顔子不害為同道少陵之迹江湖而心稷	-14.08
鬮	-14.08
䇿則不足以傳世盖不能竦動世人如	-14.08
之句大為山谷所愛山谷亦擬作有云	-14.08
人故有詩云我甚似樂天但無素與蠻又	-14.08
六軍不發無奈何宛轉蛾眉馬前死	-14.08
叔褒譽之詞其實不爾此魚盛於二月至	-14.08
嘗語沈約曰好詩圓美流轉如彈丸	-14.08
州兒曹不足恃何物老瞞欺一世兵書浪	-14.08
暉語益工然蕭散自得之趣亦復少減	-14.08
樹遍急採上山頻宿葉寒	-14.08
欣然㑹意處箋以數語終以汩	-14.08
秋非不佳也然正用杜陵峽束滄江起	-14.08
芳芽冷未伸茅茨溪口焙籃籠雨中民長	-14.08
落花遊絲白日靜鳴鳩乳燕青春深	-14.08
蔡君謨茶録既行則持論精矣以茶録而	-14.08
試將花欲染衣禪心竟不起還捧舊花歸	-14.08
身後聲名文集草眼前衣食簿書堆	-14.08
轑	-14.08
重就枕方欣骨節和睡起不知天早	-14.08
亦甚栢氏功彌存三止錦江沸獨清玉壘	-14.08
兩蝸角百年得意大槐宫又云功名富貴	-14.08
宣室鬼神之問敢望生還茂陵封禪之書	-14.08
屦	-14.08
者比見右軍一帖云奉橘三百枚霜未降	-14.08
耉	-14.08
肧	-14.08
衊	-14.08
贅也若淵明意謂至於九十猶不免行而	-14.08
赤岸水與銀河通中有雲氣隨飛龍舟人	-14.08
路遶巴山色樹裏河流漢水聲	-14.08
􁟆	-14.08
文忠相繼謝事歸汝隂康靖一日	-14.0801
日上故陵烟漠漠春歸空苑水潺潺	-14.0801
沉舟側畔千帆過病樹前頭萬木春	-14.0801
搢	-14.0801
十二前此所未有也溥初拜相仁裕猶致	-14.0801
勒成告萬世鑿石作鼓隳嵯峨	-14.0802
愡	-14.0802
詩成白也知無敵花落虞兮可奈何	-14.0802
穄	-14.0802
那得葉如許龍眠畫手老入神尺素幻出	-14.0802
棄孩為郡鮮歡君莫歎猶勝塵土走章臺	-14.0802
小翼一艘廣一丈二尺長	-14.0802
曲水園在許昌城北有大竹三十餘	-14.0802
背面啼垢膩脚不襪方是時	-14.0802
臣僕古人譏屋下架屋信然陸機曰謝朝	-14.0802
臨危方始見英雄三都谷路全師入十萬	-14.0802
重得侣不堪青斾自招人早知玉漏催三	-14.0802
學漢魏晉與盛唐詩者臨濟下也學大	-14.0802
酒肉臭路有凍死骨之句亦不過三四十	-14.0802
長安路八千永叔今日始知予罪大夷陵	-14.0802
咥	-14.0802
天亦負明時有路當重振無門即不知何	-14.0802
早還休教重起望夫山君看湘水祠前竹	-14.0802
有餘哀長歌正激烈中心愴以摧欲展清	-14.0802
蘭歌最古然朔氣傳金柝寒光照鐵衣之	-14.0802
風有兩般憑仗髙樓莫吹笛大家留取倚	-14.0802
餱	-14.0802
堅城自墮憐杞婦之悲深婦人四六之工	-14.0802
如織寒山一帶傷心碧暝色入	-14.0802
宿鳥歸飛急何處是歸程長亭更短亭	-14.0802
萑	-14.0802
駱賓王思家詩云旅行悲泛梗離恨斷	-14.0802
一名士作詩云九十行帶索榮公老無依	-14.0802
不合時而又不少低屈皆設疑互	-14.0802
余以為若論詩畫於此盡矣每誦	-14.0802
克明江左人事湖南馬氏有蒲鞋詩云	-14.0802
出都門三十里特是渭城耳今有渭城	-14.0802
劌	-14.0802
去遲之語未嘗不茫然而思喟然而	-14.0802
徐問之江都尉王琪詩也召至同	-14.0802
時人莫把和泥看一片飛從天上來	-14.0802
石上泉華噴猛霜境竒因此闢禪	-14.0802
笁	-14.0802
終老心功入喬家少年壻君不見華容道	-14.0802
詩者論書止於晉而詩止於唐蓋唐自大	-14.0802
譏朝廷政事闕失及新法不便之所致也	-14.0802
開溪邉竒茗冠天下武夷仙人從古	-14.0802
閩人苦貧貸僧而取其息自唐末已然矣	-14.0802
霜拂曙袍糗餈花飲鬬分曹劉郎不敢題	-14.0802
云鮑當孤鴈詩云更無聲接續空有影相	-14.0802
人所見似是其子孫非秦人不死者也	-14.0802
士所笑而浩歌自若皇皇慕君而雅志棲	-14.0802
有下劣詩魔入其肺腑之間由立志之不	-14.0802
有秦山中豈料今為晉聞道長安吹戰塵	-14.0802
翀	-14.0802
考淵明所記止言先世避秦亂來此則	-14.0802
衣白衫騎驢縁道揺頭而歌	-14.0802
誺	-14.0802
頬	-14.0802
昂如獨鶴在雞羣又淮南子雞知將旦	-14.0803
時之不容子也馬融謂鄭康成吾道東矣	-14.0803
比之汲黯在朝淮南寢謀又以比恕之直	-14.0803
相公親破蔡州來今親字改作新字是也	-14.0803
梅無驛使飄零盡草怨王孫取次生	-14.0803
逺直到暮煙中恐嗔歸得晚今日打頭風	-14.0803
火閙萬里天河横腐儒憂平世	-14.0803
示之知章曰公非人間人豈太白星精	-14.0803
途事多違勝處心亦驚三更螢	-14.0803
云江月光於水髙樓思殺人繼之曰誰家	-14.0803
思屢形詩什月夜詩云今夜鄜州月閨中	-14.0803
改樂天寒食詩歌之坐客有泣者其詞曰	-14.0803
碇	-14.0803
門之念而他詩未嘗一及之至於明月之	-14.0803
寸長十丈中翼一艘廣一丈三尺五寸長	-14.0803
得繭不盈筐燈下繅絲恨更長	-14.0803
徳清道中還寄子瞻詩叢薄開羅帳淪漪	-14.0803
角龍千丈澹抹牆腰月半	-14.0803
中故能遇事有得遂造神妙使	-14.0804
寒食風光淚眼中自痛不如傖父子紙錢	-14.0804
此日六軍同駐馬當時七夕笑牽牛	-14.0804
河貫其中以入西湖最為佳處初為本州	-14.0804
秋光都似宦情薄山色不如歸興濃	-14.0804
逐良人西入闗良人身殁妾空還謝娘	-14.0804
之内音韻盡殊兩句之中輕重悉異	-14.0804
増累其隙兩山相對遂為一時雄觀土地	-14.0804
妃潘玉兒有國色牛僧孺周秦行記	-14.0804
於生事又往往譏議宗文宗武失學故	-14.0804
相語曰我為蓮花博士鏡湖新置官也我	-14.0804
紛紛初疑月掛樹耿耿獨與參	-14.0804
以謂圓熟多失之平易老硬多失之乾枯	-14.0804
侏儒不知月給千壺酒得似蓮花博士無	-14.0804
坊官資俱是校書郎青衫共直昭文	-14.0804
子史中不可徒使必得一物以攝之然後	-14.0804
宫娃賜浴長湯池刻成玉蓮噴香	-14.0804
文章直須先悟得一處乃可通其他妙處	-14.0804
臆破棄聲律作五七言如金石未作鐘	-14.0804
詩自擅天然貴在近俗恨如蘇小雖美終	-14.0804
近來作詩者頗有此體然自吾魯直始也	-14.0804
一生不得文章力百口空為飽煖家	-14.0804
[...]
