<unk>	0
<s>	0
</s>	0
。	-2.30039
,	-3.45225
者	-4.25965
、	-4.46903
▁	-4.68785
也	-4.72243
故	-4.93372
*	-5.06206
是	-5.06373
二	-5.17898
為	-5.27646
有	-5.32828
以	-5.43459
(	-5.46341
)	-5.47135
!	-5.53517
無	-5.54446
之	-5.55073
名	-5.55426
下	-5.57546
即	-5.60722
三	-5.61498
中	-5.61742
一	-5.64183
不	-5.6719
若	-5.69737
善男子	-5.76569
如	-5.76625
非	-5.77049
於	-5.82161
此	-5.84608
法	-5.85053
生	-5.94923
心	-5.95521
如來	-5.95929
等	-5.98618
得	-5.98805
明	-5.99187
佛	-6.01166
而	-6.01433
說	-6.01683
人	-6.03032
?	-6.08272
;	-6.10051
四	-6.10736
因	-6.10834
義	-6.12098
言	-6.13037
行	-6.15172
謂	-6.16172
我	-6.16912
見	-6.16966
至	-6.17949
菩薩	-6.18965
眾生	-6.21906
初	-6.23491
則	-6.24415
相	-6.25213
身	-6.25921
時	-6.26456
涅槃	-6.3066
經	-6.34204
其	-6.34475
如是	-6.38164
大	-6.38262
後	-6.38941
。】「	-6.41899
常	-6.4251
知	-6.43536
譬	-6.45412
。」【	-6.46965
即是	-6.47096
從	-6.47133
:「	-6.48608
作	-6.48982
今	-6.50302
所	-6.50408
釋	-6.51248
亦	-6.52131
問	-6.52539
果	-6.52552
前	-6.55464
次	-6.55995
觀	-6.58603
能	-6.59336
云	-6.59926
已	-6.61264
。「	-6.61633
解	-6.62943
受	-6.62998
彼	-6.63789
自	-6.63897
又	-6.64397
定	-6.65751
皆	-6.66015
滅	-6.67154
世尊	-6.68363
故云	-6.68992
一切	-6.69194
喻	-6.69195
云何	-6.69552
善	-6.69617
上	-6.70217
在	-6.71448
與	-6.71477
道	-6.72668
空	-6.72685
應	-6.73189
五	-6.73238
出	-6.73399
名為	-6.73618
佛性	-6.73845
諸	-6.74328
耶	-6.75315
修	-6.76482
性	-6.78524
無常	-6.7893
:『	-6.79093
及	-6.79869
意	-6.80065
案	-6.81397
難	-6.81874
苦	-6.83092
。」	-6.8327
樂	-6.83579
▁二	-6.83592
破	-6.84052
成	-6.85886
正	-6.8751
是故	-6.88307
合	-6.8885
同	-6.89597
王	-6.89673
教	-6.90086
復	-6.92057
煩惱	-6.92201
入	-6.9257
通	-6.926
色	-6.93417
智	-6.93514
既	-6.93532
別	-6.93734
答	-6.93862
雖	-6.9399
事	-6.95662
先	-6.95668
欲	-6.95681
用	-6.96277
戒	-6.97213
當	-6.97894
斷	-6.98204
令	-6.98338
起	-6.98365
緣	-6.98776
處	-6.98887
理	-6.98962
本	-6.99586
爾時	-7.00172
眾	-7.00777
經云	-7.01391
多	-7.01911
住	-7.01915
文	-7.0225
惡	-7.02884
離	-7.02937
異	-7.03207
取	-7.04065
巳	-7.04131
業	-7.05162
顯	-7.06488
具	-7.07611
聞	-7.09724
實	-7.10989
分	-7.11133
乃至	-7.11308
體	-7.11458
但	-7.12583
然	-7.13027
六	-7.13626
舉	-7.13749
僧亮曰	-7.147
。』	-7.15572
無有	-7.16621
淨	-7.16869
何以故	-7.17245
論	-7.1852
▁初	-7.18533
或	-7.1869
約	-7.1956
可	-7.20082
地	-7.20679
汝	-7.20694
天	-7.21816
依	-7.22177
因緣	-7.22381
由	-7.22483
施	-7.24058
第三	-7.2422
解脫	-7.2483
過	-7.25199
不能	-7.2563
生死	-7.26429
就	-7.26904
想	-7.2703
第二	-7.27436
重	-7.27739
真	-7.27912
來	-7.28007
對	-7.29859
食	-7.30313
迦葉	-7.30397
去	-7.30429
證	-7.30555
未	-7.30894
結	-7.30997
盡	-7.31209
師	-7.31522
不得	-7.31857
是名	-7.32704
語	-7.34311
求	-7.34705
識	-7.3532
不見	-7.36416
三昧	-7.37793
子	-7.38054
亦復如是	-7.38084
無量	-7.38362
現	-7.3874
愛	-7.40368
慧	-7.40717
八	-7.41485
小	-7.41598
捨	-7.41628
不同	-7.42038
所以	-7.4207
病	-7.42223
耳	-7.42603
俱	-7.42695
世間	-7.42845
世	-7.43262
開	-7.43572
水	-7.44273
七	-7.4526
執	-7.46009
功德	-7.46544
他	-7.47962
方便	-7.48285
一切眾生	-7.49321
分別	-7.49867
具足	-7.50343
德	-7.50543
除	-7.5068
廣	-7.51354
唯	-7.51664
念	-7.52607
悉	-7.53564
外	-7.53755
比丘	-7.53902
信	-7.54105
阿難	-7.54112
譬如	-7.54568
餘	-7.5476
凡夫	-7.54776
勝	-7.54921
曰	-7.56196
復次	-7.56625
故言	-7.56947
示	-7.56967
請	-7.57515
隨	-7.57704
兩	-7.58861
持	-7.59269
惑	-7.59349
字	-7.59523
失	-7.59559
大乘	-7.60465
圓	-7.60623
力	-7.61059
等者	-7.61651
十	-7.61818
聲聞	-7.62471
還	-7.62582
內	-7.63713
無明	-7.63985
慈	-7.64245
門	-7.64555
物	-7.65168
不知	-7.6544
第四	-7.66073
化	-7.66105
更	-7.66234
何	-7.66394
所謂	-7.66605
若有	-7.66671
清淨	-7.6697
僧	-7.67057
無我	-7.67068
不應	-7.67076
故名	-7.67238
僧宗曰	-7.68625
共	-7.69065
便	-7.69066
第一	-7.69134
數	-7.69286
深	-7.6978
立	-7.70232
智慧	-7.70746
死	-7.70839
:	-7.71361
法身	-7.71576
聖	-7.72078
報	-7.72538
二乘	-7.72808
因果	-7.73845
菩薩摩訶薩	-7.7391
昔	-7.74397
不可	-7.74431
方	-7.74727
一者	-7.75542
諸佛	-7.75578
純陀	-7.75681
略	-7.75842
乃	-7.76589
歎	-7.76639
邪	-7.77366
凡	-7.77761
治	-7.7788
根	-7.77925
轉	-7.78131
不定	-7.78354
向	-7.78708
度	-7.78836
攝	-7.79189
辨	-7.79335
境	-7.79595
反	-7.80774
覺	-7.80834
指	-7.81234
外道	-7.81404
稱	-7.81646
不生	-7.81907
寶亮曰	-7.82162
次第	-7.82527
光	-7.82552
將	-7.83408
疑	-7.83478
五陰	-7.84028
供養	-7.84403
壞	-7.84533
聲	-7.84698
何故	-7.84749
二者	-7.85264
引	-7.85443
位	-7.856
發	-7.86107
以是義故	-7.86332
會	-7.86347
種種	-7.86503
集	-7.8675
命	-7.8715
常住	-7.87434
必	-7.87474
中道	-7.87752
未來	-7.87897
?」	-7.87913
云云	-7.87956
魔	-7.88537
罪	-7.88671
佛言	-7.89434
總	-7.89484
菩提	-7.89636
陰	-7.89736
火	-7.90087
現在	-7.90186
各	-7.90983
成就	-7.91054
猶如	-7.91666
藥	-7.92324
歸	-7.93166
始	-7.93251
乳	-7.94389
是人	-7.9472
虛空	-7.94923
利	-7.95334
願	-7.95433
修習	-7.95471
遍	-7.95563
日	-7.95613
著	-7.95903
猶	-7.96035
少	-7.97354
若言	-7.97875
障	-7.97969
須	-7.98487
之人	-7.98806
下明	-7.98873
當知	-7.98938
亦名	-7.99268
樹	-7.99918
計	-7.99978
勸	-8.00187
藏	-8.0039
▁三	-8.00515
妙	-8.01848
無漏	-8.0219
使	-8.02357
學	-8.03098
我今	-8.03179
貪	-8.03516
自在	-8.03796
味	-8.03931
類	-8.04954
國	-8.05141
遠離	-8.05392
往	-8.06142
之法	-8.06153
過去	-8.06296
照	-8.06361
▁初分科	-8.07091
復有	-8.07952
足	-8.08646
觸	-8.09006
辯	-8.09356
安	-8.09519
家	-8.10136
遠	-8.10206
據	-8.1034
滿	-8.11074
果報	-8.1112
乘	-8.11244
邊	-8.11683
終	-8.11833
九	-8.11862
亦是	-8.12524
寶	-8.12638
女	-8.1272
亦不	-8.13801
亦爾	-8.14084
以為	-8.14208
斯	-8.14602
大眾	-8.15012
益	-8.15507
正法	-8.15702
究竟	-8.1582
諸法	-8.16318
屬	-8.16529
音	-8.16621
偏	-8.16846
翻	-8.17026
不淨	-8.1719
夫	-8.17563
主	-8.17614
殺	-8.1839
闡提	-8.18459
大王	-8.19337
輕	-8.20237
第五	-8.20255
動	-8.20503
名之為	-8.20546
所說	-8.20551
覆	-8.2056
地獄	-8.20663
假	-8.20757
持戒	-8.20784
莊嚴	-8.20936
偈	-8.21231
大涅槃	-8.21257
俗	-8.21643
品	-8.21755
表	-8.22889
流	-8.22938
名曰	-8.22969
雙	-8.23159
護	-8.23256
善哉	-8.23419
例	-8.23702
況	-8.24264
小乘	-8.24973
長	-8.24999
般若	-8.25062
之所	-8.25132
到	-8.25274
之義	-8.26232
順	-8.26389
口	-8.26555
不可思議	-8.26816
了	-8.27012
如文	-8.27211
止	-8.27676
付	-8.27684
畢竟	-8.27802
諦	-8.28258
近	-8.29074
非是	-8.29218
修行	-8.29234
對治	-8.29525
界	-8.29554
直	-8.29835
種	-8.2984
喜	-8.29859
白	-8.2995
華	-8.30183
四句	-8.30612
山	-8.30788
眼	-8.3097
父母	-8.31055
極	-8.31363
機	-8.31761
三寶	-8.31937
人天	-8.32471
三種	-8.33148
宗	-8.33228
此經	-8.33306
簡	-8.33354
所有	-8.3352
風	-8.33633
要	-8.33706
亦有	-8.34042
月	-8.34087
說法	-8.34227
真實	-8.34348
可知	-8.34354
可見	-8.34362
亦無	-8.34501
能生	-8.34509
故知	-8.34534
復次善男子	-8.35084
衣	-8.35085
四諦	-8.3527
示現	-8.35438
竟	-8.35988
智者	-8.36117
金	-8.3657
法門	-8.36575
文殊	-8.37426
達	-8.37842
出家	-8.38007
又二	-8.38246
思惟	-8.38375
無所	-8.38606
皆是	-8.38819
常樂我淨	-8.39341
害	-8.39474
遮	-8.39867
豈	-8.39916
之中	-8.40167
者謂	-8.40376
莫	-8.40385
無為	-8.40473
四大	-8.40493
香	-8.40953
三世	-8.41345
城	-8.41465
並	-8.41528
爾	-8.4155
者即	-8.41699
沒	-8.41714
增	-8.41809
善法	-8.41817
不為	-8.41864
墮	-8.4306
光明	-8.43143
是常	-8.43448
聽	-8.43519
無上	-8.43526
法界	-8.43755
?』	-8.4382
此是	-8.43825
造	-8.43978
兼	-8.44026
絕	-8.44207
發心	-8.44343
神	-8.44895
毒	-8.45328
平等	-8.45429
列	-8.45457
尚	-8.45517
思	-8.457
利益	-8.46194
已下	-8.46359
雖復	-8.46388
二種	-8.46457
和合	-8.46568
第六	-8.46569
高	-8.46569
目	-8.46586
親	-8.46713
差別	-8.46768
故也	-8.46887
形	-8.47068
且	-8.47074
佛法	-8.47465
故名為	-8.47842
尋	-8.48248
世界	-8.48291
望	-8.48874
下隨釋	-8.48914
文云	-8.49108
福	-8.49223
三界	-8.49327
妄	-8.49334
倒	-8.49467
何者	-8.49535
息	-8.49993
制	-8.50042
於中	-8.50394
句	-8.50438
易	-8.50512
故曰	-8.5059
迷	-8.50768
只	-8.50775
酪	-8.51167
而不	-8.51193
權	-8.51344
金剛	-8.51351
恒	-8.51497
章	-8.51601
出世	-8.51708
《	-8.52652
告	-8.5303
縛	-8.53143
有二	-8.53411
百	-8.53452
不受	-8.53541
乎	-8.53665
有人	-8.53785
法性	-8.53837
一切法	-8.54024
誰	-8.54071
花	-8.5417
》	-8.54206
者即是	-8.54376
弟子	-8.54452
若不	-8.54808
悲	-8.54945
有為	-8.54998
於此	-8.55265
經文	-8.55375
尊	-8.55643
說言	-8.55742
是其	-8.55789
此中	-8.56082
河	-8.5611
有漏	-8.56115
十二	-8.56229
顛倒	-8.56357
服	-8.56456
雜	-8.56754
梵行	-8.5694
悟	-8.56959
有三	-8.56965
似	-8.5697
則無	-8.57155
劫	-8.57181
頭	-8.57321
文中	-8.57537
宣說	-8.57649
下釋	-8.57924
瞿曇	-8.58161
好	-8.58334
一時	-8.5841
善根	-8.58463
長者	-8.5851
虗空	-8.58841
修道	-8.59264
器	-8.59402
雖有	-8.59433
我等	-8.59526
其義	-8.59536
母	-8.59545
次明	-8.59581
師子	-8.59863
亦如是	-8.59926
忍	-8.60006
終不	-8.60078
」	-8.60158
初明	-8.60303
獨	-8.60619
不名	-8.60637
亦應	-8.60638
不作	-8.60991
欲界	-8.613
細	-8.61493
如彼	-8.61499
今經	-8.61628
許	-8.61837
居	-8.62043
亦非	-8.62091
漏	-8.62286
增長	-8.62413
三者	-8.62508
牛	-8.62808
二諦	-8.62959
記	-8.62995
皆悉	-8.63099
聖人	-8.63448
加	-8.63597
犯	-8.6385
問答	-8.63959
今明	-8.6412
備	-8.6442
羅	-8.64471
律	-8.64472
年	-8.64528
一一	-8.64639
歡喜	-8.64675
并	-8.64744
眷屬	-8.64766
生滅	-8.64794
沙門	-8.65205
情	-8.65411
宜	-8.65505
而有	-8.65515
寄	-8.65881
內外	-8.65968
三乘	-8.66419
矣	-8.66427
如經	-8.6652
有二種	-8.6657
婆羅門	-8.6657
汝今	-8.67048
破戒	-8.6717
如是等	-8.67198
彰	-8.67586
習	-8.6761
亂	-8.67681
壽	-8.67757
有無	-8.67972
老	-8.67984
存	-8.67993
以是因緣	-8.68058
「	-8.6816
十二因緣	-8.6878
趣	-8.68858
三諦	-8.69031
如此	-8.69265
海	-8.69985
有四	-8.70081
羅漢	-8.70132
嘆	-8.70194
己	-8.70645
序	-8.7065
本有	-8.70816
第七	-8.7114
明其	-8.71359
真諦	-8.71371
聚	-8.71572
手	-8.71768
永	-8.71791
慢	-8.71827
大小	-8.71919
若無	-8.723
責	-8.72446
遣	-8.72715
佛說	-8.72789
設	-8.72888
三德	-8.72984
散	-8.72986
善惡	-8.72999
一闡提	-8.73002
生於	-8.73163
退	-8.73287
本無	-8.73396
根本	-8.73501
中有	-8.73664
只是	-8.74238
推	-8.7435
脫	-8.74613
斥	-8.74628
不聞	-8.74964
致	-8.75009
名字	-8.75026
邪見	-8.75061
義也	-8.75258
前後	-8.75312
之時	-8.75336
受持	-8.75362
象	-8.75389
甚深	-8.75613
大涅槃經	-8.75684
世諦	-8.75696
供	-8.75802
迹	-8.7621
。△	-8.76419
下結	-8.76452
標	-8.7653
為三	-8.76767
答言	-8.76856
千	-8.7692
舊	-8.77089
禪	-8.771
怨	-8.77277
疏	-8.77624
了因	-8.77847
所作	-8.77911
判	-8.78122
隱	-8.78439
師子吼	-8.78449
被	-8.78574
相似	-8.78591
淺	-8.79029
遇	-8.79031
無相	-8.79133
或有	-8.79263
汝等	-8.79325
緣覺	-8.79452
久	-8.79518
一明	-8.79887
是則	-8.79998
呵	-8.80093
漸	-8.80198
若能	-8.80268
諸眾生	-8.80371
寂	-8.80506
感	-8.80517
壽命	-8.80721
述	-8.81503
乃是	-8.81552
熱	-8.8171
阿羅漢	-8.81745
普	-8.8194
興	-8.82033
亡	-8.82233
無礙	-8.8231
甘露	-8.82458
部	-8.82566
女人	-8.82618
像	-8.82892
今日	-8.82933
一人	-8.83173
卷	-8.83322
舍	-8.83446
不說	-8.83522
全	-8.83747
馬	-8.83755
護法	-8.83854
聲聞緣覺	-8.83982
伏	-8.84126
坐	-8.84136
麁	-8.84195
半	-8.84491
精進	-8.84662
而得	-8.84762
畏	-8.84971
損	-8.85026
單	-8.8503
無作	-8.85054
進	-8.85066
法者	-8.85075
不斷	-8.85121
那	-8.85223
號	-8.8528
智秀曰	-8.8537
草	-8.85377
寂靜	-8.85641
生善	-8.85763
如人	-8.85788
聖行	-8.86023
以此	-8.86088
諸天	-8.86193
徧	-8.86202
敬	-8.86692
新	-8.86893
常無常	-8.86987
經中	-8.87134
癡	-8.87267
佛答	-8.87357
不滅	-8.87385
神通	-8.87385
而生	-8.8758
不善	-8.87801
之心	-8.87849
決定	-8.87997
所得	-8.88509
▁二答	-8.88586
微	-8.8859
下第二	-8.88643
陀	-8.88914
違	-8.88928
不出	-8.89135
能斷	-8.89357
未得	-8.8937
互	-8.89478
之相	-8.89603
為二	-8.89712
能知	-8.8976
有我	-8.90004
不動	-8.90013
窮	-8.90039
量	-8.90099
無生	-8.90257
各有	-8.90297
悉皆	-8.90707
安樂	-8.90841
竝	-8.91027
故得	-8.91164
獲	-8.91334
讚	-8.9142
不思議	-8.91434
嚴	-8.9146
土	-8.92038
伹	-8.9243
境界	-8.92431
中間	-8.92435
歸依	-8.92454
患	-8.92479
待	-8.92549
徵	-8.92877
闇	-8.93013
蓋	-8.93184
次釋	-8.93225
路	-8.9324
此即	-8.93347
賊	-8.93497
財	-8.93583
染	-8.93922
密	-8.93992
阿	-8.94278
旨	-8.94284
摩	-8.9434
木	-8.94355
父	-8.9454
不離	-8.94741
法華	-8.94955
不退	-8.95204
解釋	-8.95221
刀	-8.95243
其心	-8.95384
燈	-8.95495
何等	-8.95564
畜生	-8.95924
二十五有	-8.96015
亦復	-8.96085
佛果	-8.96117
差	-8.96283
放逸	-8.96365
微妙	-8.96442
故非	-8.96552
故不	-8.96859
)。】「	-8.96894
瞋	-8.97119
憍慢	-8.97231
演說	-8.97246
變	-8.9726
又復	-8.97266
正因	-8.97348
四種	-8.97404
▁四	-8.9748
恐	-8.97558
上來	-8.97602
第一義	-8.97616
怖	-8.97715
惱	-8.98173
又云	-8.98249
最後	-8.98267
之言	-8.98436
無有是處	-8.98512
醍醐	-8.98791
滅度	-8.98835
橫	-8.98848
訖	-8.98962
支	-8.98968
石	-8.98978
塵	-8.99087
無色	-8.99169
諸比丘	-8.99268
▁初問	-8.99404
正明	-8.99465
一句	-8.99547
化他	-8.99679
奪	-8.99724
懷	-8.99789
醫	-9.00416
然後	-9.00447
末	-9.00562
縱	-9.00591
大悲	-9.00644
所見	-9.00685
十六	-9.00728
或說	-9.00856
我當	-9.00898
為四	-9.00898
龍	-9.01219
無邊	-9.01248
故無	-9.01303
力士	-9.01374
不信	-9.01399
及以	-9.01432
強	-9.01505
是無常	-9.01521
牒	-9.01575
成佛	-9.01641
實相	-9.01681
即便	-9.01719
古	-9.01787
疾	-9.01931
十地	-9.01985
則不	-9.0211
如佛所說	-9.02131
是時	-9.02164
自性	-9.02518
假名	-9.02622
法中	-9.02862
寧	-9.0292
冥	-9.03019
肉	-9.03115
領	-9.03184
謗	-9.03224
梵	-9.03271
乖	-9.03276
入涅槃	-9.03514
所言	-9.03668
因緣故	-9.03671
第八	-9.03872
非不	-9.03922
得阿耨多羅三藐三菩提	-9.04082
威儀	-9.0429
則有	-9.0441
奉	-9.04613
一切諸法	-9.04679
收	-9.04819
婆	-9.04843
而言	-9.04862
信心	-9.04972
日月	-9.05012
良醫	-9.05143
虛	-9.05207
知見	-9.05282
大海	-9.05355
人中	-9.05381
先明	-9.05384
傳	-9.05574
夜	-9.05638
安住	-9.0567
二明	-9.05726
劣	-9.05927
下約	-9.06041
能令	-9.06061
諸佛世尊	-9.06168
燒	-9.06185
最	-9.06431
此下	-9.06771
章門	-9.06922
不解	-9.06981
惡業	-9.07051
二邊	-9.07221
科	-9.07301
首	-9.07482
初地	-9.07502
咸	-9.07511
珠	-9.07655
譬如有人	-9.07676
此云	-9.07792
資	-9.08013
無畏	-9.08289
調	-9.08545
者以	-9.08559
萬	-9.08588
所生	-9.08646
諸行	-9.09251
比	-9.09255
。」「	-9.09383
拔	-9.09446
和	-9.09452
梵天	-9.09486
如來亦爾	-9.09509
臣	-9.09623
林	-9.09632
有佛性	-9.09916
我所	-9.09946
遂	-9.10225
大般涅槃	-9.103
恭敬	-9.10528
慈悲	-9.10567
脩	-9.10602
舍利	-9.10683
廣說	-9.107
何得	-9.107
或言	-9.10869
諸菩薩	-9.10871
有餘	-9.11106
五行	-9.1115
所以者何	-9.11172
唱	-9.11248
不二	-9.11507
一心	-9.1154
故須	-9.11562
四依	-9.12012
助	-9.12115
周	-9.12124
盛	-9.12362
為說	-9.12404
唯有	-9.12585
若是	-9.12711
雨	-9.12722
是故名	-9.12885
提	-9.13093
祕藏	-9.13098
下文	-9.13169
消	-9.13188
若爾	-9.13205
布施	-9.13208
為一	-9.13306
專	-9.13322
頂	-9.13357
始終	-9.13538
毀	-9.13745
若依	-9.13875
之身	-9.13898
非無	-9.14268
種子	-9.14297
姓	-9.14403
吾	-9.14434
不可得	-9.14482
迦	-9.14555
此文	-9.14668
住處	-9.1474
非色	-9.14851
相應	-9.15014
迦葉菩薩白佛言	-9.15076
辭	-9.15148
?」「	-9.15236
導	-9.15339
七寶	-9.15458
而為	-9.15487
速	-9.15596
是義不然	-9.158
應當	-9.15812
之處	-9.15878
相對	-9.15905
五根	-9.15946
棄	-9.16055
五種	-9.16056
四者	-9.16134
等也	-9.1615
不住	-9.1638
十方	-9.16684
▁初明	-9.1679
一向	-9.16853
五事	-9.17263
寂滅	-9.17268
書	-9.17316
論云	-9.17681
救	-9.17756
法瑤曰	-9.17888
一體	-9.17937
實非	-9.17947
不異	-9.17996
緣因	-9.18005
波	-9.18067
大慈	-9.18077
聞法	-9.18096
亦可	-9.18183
面	-9.18294
十二部經	-9.18388
而無	-9.18415
文殊師利	-9.18613
四德	-9.18809
甚	-9.18891
呪	-9.19032
中陰	-9.19062
則是	-9.1926
苦行	-9.1926
之性	-9.19505
悉是	-9.19535
十住	-9.19556
逆	-9.19723
皆有	-9.19787
實無	-9.19812
悔	-9.19912
見佛性	-9.19939
讀誦	-9.20028
車	-9.20337
置	-9.20448
第十	-9.20526
受者	-9.20643
得果	-9.20646
自然	-9.2104
不失	-9.21071
十一	-9.21071
何以	-9.21157
何以下釋	-9.21212
善業	-9.21237
方等	-9.21345
長壽	-9.21419
廣明	-9.21423
永斷	-9.21644
三藏	-9.21744
安隱	-9.22057
純	-9.22143
其中	-9.2232
繫	-9.2232
三結	-9.22486
苦樂	-9.22547
此二	-9.22795
自行	-9.22842
兒	-9.2293
誡	-9.22934
星	-9.23147
斷煩惱	-9.23357
之行	-9.2347
四倒	-9.23981
鳥	-9.24175
不修	-9.24273
黑	-9.24441
十三	-9.24466
此約	-9.24549
非法	-9.24677
見佛	-9.24855
諸佛菩薩	-9.24875
愚癡	-9.24913
故說	-9.2494
若見	-9.24989
四禪	-9.25041
常樂	-9.25117
盲	-9.25132
故以	-9.25133
北	-9.25415
當知是人	-9.25535
須陀洹	-9.25558
白佛言	-9.25639
含	-9.2567
道生曰	-9.25711
熟	-9.25968
為欲	-9.26074
般涅槃	-9.26091
齊	-9.26172
曾	-9.26179
優婆塞	-9.26286
知足	-9.2638
三法	-9.26421
初問	-9.26549
超	-9.26588
命終	-9.2666
是為	-9.26924
▁二初	-9.27063
得解脫	-9.27103
不壞	-9.27109
不爾	-9.27174
輪	-9.27193
其人	-9.27244
親近	-9.27311
清	-9.27338
。」【(	-9.27483
童子	-9.27531
不具	-9.27583
相續	-9.27675
則得	-9.27679
印	-9.27723
。』「	-9.27791
非有	-9.27824
六度	-9.2791
瓶	-9.27946
觀察	-9.27972
骨	-9.27981
以顯	-9.28192
飲食	-9.28448
是身	-9.28504
勤	-9.28505
二人	-9.28712
後一	-9.28714
瞋恚	-9.28796
一云	-9.28839
此義	-9.28875
積	-9.28937
亦如	-9.29005
他人	-9.29202
辟支佛	-9.29458
二云	-9.29524
得名	-9.29576
厭	-9.29636
隨順	-9.29642
雙非	-9.29882
第二明	-9.30034
正是	-9.30137
無樂	-9.3014
我見	-9.30228
非我	-9.30241
敘	-9.30276
此三	-9.30326
福德	-9.30438
塗	-9.30501
麤	-9.30599
之理	-9.30791
美	-9.30901
說有	-9.30947
能見	-9.3097
今此	-9.31101
則為	-9.31144
行者	-9.31352
是名為	-9.31686
我於	-9.31808
之事	-9.319
是佛	-9.31977
初文	-9.321
爾時世尊	-9.32163
接	-9.32225
虛妄	-9.32227
諸煩惱	-9.3247
世人	-9.32483
但有	-9.32492
於是	-9.32571
是名菩薩	-9.32665
視	-9.32697
受樂	-9.32873
一乘	-9.33011
此明	-9.33086
各各	-9.33091
領解	-9.33139
此之	-9.33177
無餘	-9.33257
禪定	-9.33327
傷	-9.3339
此品	-9.33544
是一	-9.33586
諸惡	-9.3368
南	-9.33699
中云	-9.33953
一念	-9.33992
無盡	-9.34111
能為	-9.34183
檀	-9.34186
堅	-9.34461
是經	-9.34475
遊	-9.34529
東	-9.34559
飲	-9.34663
未有	-9.34711
大般涅槃經	-9.34719
一切諸	-9.34825
料簡	-9.34826
身心	-9.3498
臥	-9.35085
心無	-9.3512
無二	-9.35141
阿耨多羅三藐三菩提	-9.3515
偽	-9.35327
下合	-9.35358
自他	-9.35442
切	-9.35561
佛言善男子	-9.35617
此乃	-9.35783
西	-9.3583
不須	-9.35914
佛告迦葉	-9.35939
前三	-9.3602
不識	-9.36029
向前	-9.36182
能破	-9.36354
若有眾生	-9.36427
貪欲	-9.36511
段	-9.36649
可得	-9.3669
不然	-9.36706
六道	-9.36757
云何名為	-9.36806
間	-9.3693
穢	-9.37119
怖畏	-9.37409
以是	-9.37459
則能	-9.37538
義者	-9.37541
五欲	-9.37557
惡心	-9.37656
改	-9.37674
生生	-9.37753
不盡	-9.37775
嬰兒	-9.37822
欲令	-9.37917
或時	-9.37952
見者	-9.38019
是因	-9.38104
放	-9.38145
憂	-9.38197
破壞	-9.38374
調伏	-9.38479
准	-9.38561
而復	-9.38583
不了	-9.38756
心不	-9.38766
三業	-9.38817
如前	-9.38821
哀	-9.39017
中初	-9.3913
故有	-9.3915
多聞	-9.39239
無差別	-9.39425
宮	-9.39566
讚歎	-9.3962
有性	-9.39691
聞已	-9.39775
復言	-9.39794
鉢	-9.39801
宿	-9.39808
於彼	-9.39855
開善	-9.39871
非有非無	-9.39881
六師	-9.39917
正答	-9.39942
繫縛	-9.39954
氣	-9.39972
堅固	-9.39981
大臣	-9.40003
談	-9.4009
作如是言	-9.40112
入於涅槃	-9.40116
田	-9.4026
不取	-9.40286
以明	-9.40324
豈非	-9.40347
本無今有	-9.40349
為本	-9.40467
鬼	-9.4049
佛性者	-9.40509
說為	-9.40512
所行	-9.40517
如其	-9.4058
無別	-9.40662
但是	-9.40759
是以	-9.40835
頓	-9.40979
得聞	-9.41143
又三	-9.41151
我為	-9.41305
真我	-9.41489
論義	-9.41593
為難	-9.41895
最勝	-9.42164
餓鬼	-9.42245
當有	-9.42472
文為二	-9.42531
甘	-9.42575
人也	-9.42616
十八	-9.42708
四法	-9.4272
先舉	-9.42985
初中	-9.43033
降	-9.43067
諍	-9.43071
正見	-9.4316
是事	-9.43199
色界	-9.43372
十四	-9.43382
都	-9.43575
定有	-9.43623
善知	-9.43648
國土	-9.43682
令人	-9.43736
養	-9.43922
伽	-9.43927
三事	-9.43981
無所有	-9.44088
玄	-9.44275
亦云	-9.44315
歷	-9.4432
志	-9.44373
閻浮提	-9.44569
勿	-9.44584
有三種	-9.44599
釋迦	-9.44786
▁二釋	-9.44862
召	-9.44891
畜	-9.45032
○	-9.4504
短	-9.45199
之名	-9.45262
垂	-9.45265
淨戒	-9.45288
若使	-9.45325
是故如來	-9.45369
常者	-9.45398
善知識	-9.45423
宣	-9.45539
亦然	-9.45816
德王	-9.4582
容	-9.45861
我亦	-9.45975
苦惱	-9.46034
為眾生	-9.46083
為眾生故	-9.46085
眼見	-9.46177
默然	-9.46322
若人	-9.46396
定慧	-9.46441
何不	-9.4652
昔教	-9.46569
明佛	-9.46646
然此	-9.46701
而說	-9.46704
相違	-9.46833
期	-9.47086
於我	-9.47087
我說	-9.47094
於佛	-9.47149
禮	-9.47192
十力	-9.47197
在於	-9.47353
巧	-9.47367
佛告	-9.47419
法故	-9.47481
愚	-9.47485
初住	-9.47559
垢	-9.47569
男	-9.47603
不起	-9.47633
四悉	-9.47697
於諸	-9.4781
雖無	-9.47953
恐怖	-9.47964
賢	-9.48084
男女	-9.48215
尼	-9.4825
復作是念	-9.48267
第九	-9.48375
幻	-9.48462
青	-9.48504
見性	-9.48715
是果	-9.48799
平	-9.48827
為他	-9.48845
不復	-9.48921
貧	-9.48929
恩	-9.4893
黃	-9.48988
佛所	-9.49007
音聲	-9.49223
驗	-9.49231
生因	-9.49247
以其	-9.49439
為因	-9.49443
三歸	-9.49443
無差	-9.49475
靜	-9.49482
無性	-9.49576
如上	-9.49626
億	-9.49772
前二	-9.49828
不從	-9.49895
得見	-9.49952
興皇	-9.5001
念處	-9.50216
亦得	-9.50363
不求	-9.50377
別教	-9.50452
之果	-9.50475
優婆夷	-9.50672
令其	-9.50754
云何為	-9.50867
葉	-9.5093
功	-9.50964
呼	-9.50981
于	-9.51055
初句	-9.51093
實諦	-9.51133
解云	-9.51212
何因緣故	-9.51262
輕重	-9.51325
比丘尼	-9.51343
當得	-9.5137
則非	-9.51456
意云	-9.51495
而作	-9.51542
決	-9.51758
今文	-9.51854
仰	-9.51924
那含	-9.51937
不可見	-9.52188
故今	-9.52216
云何言	-9.52305
授	-9.52324
慈心	-9.52361
池	-9.5253
三明	-9.52535
無異	-9.52542
舍利弗	-9.52598
大地	-9.526
名色	-9.52647
釋之	-9.52782
殊	-9.52816
諸有	-9.52824
果也	-9.53028
舊云	-9.5309
如何	-9.53379
意也	-9.53406
五者	-9.53444
不空	-9.53447
影	-9.5358
因中	-9.53654
彌	-9.53663
守	-9.53683
總結	-9.53722
一切煩惱	-9.53896
合前	-9.53919
曲	-9.53925
作業	-9.54061
有一	-9.5408
之意	-9.5431
謝	-9.5441
留	-9.54457
問曰	-9.54589
泥洹	-9.54593
虗	-9.54596
二十	-9.54819
所知	-9.54832
十住菩薩	-9.54916
聖道	-9.55015
油	-9.55056
▁二合	-9.5518
此言	-9.55306
初禪	-9.55418
諸佛如來	-9.55436
赤	-9.5548
枯	-9.55534
少分	-9.55551
天人	-9.55588
能治	-9.55596
三句	-9.55619
富	-9.55681
二解	-9.55703
意者	-9.55714
審	-9.55731
五百	-9.55868
初果	-9.55911
謬	-9.55978
忘	-9.55998
聽法	-9.56022
是涅槃	-9.56106
諸根	-9.56122
若以	-9.56123
魚	-9.5613
何所	-9.56134
為是	-9.56164
一往	-9.56173
此則	-9.56203
傍	-9.56429
下是	-9.56432
下舉	-9.56494
以下	-9.56749
果者	-9.56754
名無	-9.56778
二義	-9.57003
受苦	-9.57065
座	-9.57093
是苦	-9.57192
無記	-9.57253
應有	-9.57358
旃陀羅	-9.57389
沙	-9.57511
任	-9.57526
為體	-9.57598
試	-9.57624
無數	-9.57631
有六	-9.57648
諸師	-9.57788
文為三	-9.57845
二句	-9.58043
鐵	-9.58078
能除	-9.58103
應云	-9.58166
貧窮	-9.58206
是故當知	-9.58267
非想	-9.58276
假使	-9.58397
斷惑	-9.58427
般	-9.58443
大雲	-9.58459
身口	-9.58594
流通	-9.58682
無不	-9.58722
通別	-9.58784
却	-9.58915
▁○	-9.58929
元	-9.59165
牽	-9.59185
解脫者	-9.59335
修多羅	-9.59345
六種	-9.59392
次答	-9.59393
▁三結	-9.59542
發阿耨多羅三藐三菩提心	-9.59588
譯	-9.59747
其餘	-9.59788
福田	-9.59806
異法	-9.59852
是有	-9.59855
自下第二	-9.59909
汝等比丘	-9.59927
」【	-9.60054
不成	-9.60133
法也	-9.60192
自知	-9.60235
造作	-9.60297
懸	-9.60343
未能	-9.60476
此人	-9.60587
利他	-9.6059
天眼	-9.60594
有五	-9.60602
題	-9.60774
不久	-9.60868
二字	-9.60914
惡人	-9.61003
正道	-9.61008
及諸	-9.61081
無罪	-9.61214
力故	-9.61235
法說	-9.61258
慚愧	-9.61289
濁	-9.61297
仍	-9.61302
此身	-9.61343
能得	-9.61419
後明	-9.61523
能壞	-9.61547
秊	-9.61561
可解	-9.6158
迦葉菩薩白佛言世尊	-9.61583
其所	-9.61621
獲得	-9.6166
王子	-9.61759
何況	-9.61827
雲	-9.61875
四教	-9.61908
斷善根	-9.61971
際	-9.61986
多有	-9.62111
昔日	-9.62264
一切皆	-9.62284
其身	-9.62315
難也	-9.62479
帝	-9.62548
那羅延	-9.62696
大士	-9.62707
契	-9.62714
勸修	-9.62733
無量眾生	-9.62817
牙	-9.62858
礙	-9.62884
逐	-9.62895
非一	-9.63021
八種	-9.63072
雪山	-9.63138
帝釋	-9.63182
生者	-9.63389
是我	-9.63438
唱言	-9.63517
吉	-9.63666
關	-9.63771
文字	-9.6378
今云	-9.63819
是中	-9.63951
請佛	-9.63988
何處	-9.64046
非常	-9.6406
去是	-9.64077
三十七品	-9.64201
值	-9.64206
一法	-9.64232
所問	-9.64258
節	-9.64282
後二	-9.64318
圓教	-9.64326
無因	-9.64345
丈夫	-9.64424
冷	-9.64556
我言	-9.6457
是實	-9.6463
不聞聞	-9.64746
能作	-9.64865
滿足	-9.64891
無量無邊	-9.65028
斷善	-9.65077
說之	-9.65109
負	-9.65124
廣釋	-9.65175
如佛	-9.65237
鏡	-9.65274
會通	-9.65289
義故	-9.65365
不放逸	-9.6539
緣起	-9.65401
遺	-9.65588
二隨釋	-9.65633
鹽	-9.65836
法師	-9.65949
苦集	-9.66051
端	-9.66157
濟	-9.66159
法相	-9.66181
融	-9.66226
四門	-9.6625
利根	-9.66284
常法	-9.66317
受生	-9.66338
徒	-9.66365
而是	-9.66503
實不	-9.66516
汝言	-9.66599
二釋	-9.66605
夢	-9.6677
常為	-9.66794
弘	-9.67028
血	-9.67605
人民	-9.67648
酒	-9.67658
降伏	-9.67669
典	-9.67723
能滅	-9.67793
四人	-9.67808
令得	-9.6785
勅	-9.67863
所證	-9.67928
得道	-9.67937
唯願	-9.68019
都無	-9.68022
訶	-9.68146
不共	-9.68531
四果	-9.68639
相即	-9.68661
云何名	-9.6867
變易	-9.68693
云何說言	-9.68754
其性	-9.68783
之用	-9.68866
歲	-9.68908
道者	-9.68956
所為	-9.69065
醉	-9.69077
時節	-9.69093
為我	-9.69111
迴	-9.69151
既云	-9.69181
聽受	-9.69201
四相	-9.69228
得涅槃	-9.69265
皮	-9.69282
滅諦	-9.69287
瘡	-9.69362
非因	-9.69452
苦諦	-9.69495
無復	-9.69521
四重	-9.6958
顯示	-9.69601
有所	-9.69648
名大涅槃	-9.69661
三品	-9.6969
竪	-9.6983
痛	-9.69853
角	-9.69893
若論	-9.69935
▁二明	-9.6995
合譬	-9.69982
之本	-9.7003
貪著	-9.70197
畢	-9.70211
涅槃者	-9.70216
背	-9.70254
病苦	-9.70264
第一義諦	-9.70309
書寫	-9.70331
之體	-9.70384
非實	-9.70471
不可說	-9.70481
教化	-9.70547
三番	-9.70592
半字	-9.70594
華嚴	-9.70719
云何而言	-9.70805
不言	-9.70806
肉眼	-9.70851
五大	-9.70919
隨意	-9.70928
如是之人	-9.70974
若有比丘	-9.71024
之與	-9.71031
空者	-9.71052
術	-9.71064
蜜	-9.71114
經律	-9.71167
草木	-9.71308
羅剎	-9.71361
破之	-9.71443
相者	-9.71457
佛為	-9.71514
三千大千世界	-9.71591
訓	-9.71614
準	-9.71648
昇	-9.71689
病者	-9.71706
葢	-9.71742
中有四	-9.7182
妨	-9.71859
空空	-9.7187
?「	-9.71876
覩	-9.71917
累	-9.71924
依止	-9.7194
各異	-9.72037
無學	-9.72082
護持	-9.72109
若欲	-9.72121
一偈	-9.72124
觀行	-9.72145
跡	-9.72246
建立	-9.72341
寶藏	-9.72506
況復	-9.72651
所成	-9.72655
云何菩薩	-9.72704
蒙	-9.72853
鹿	-9.72856
國王	-9.73
之說	-9.73042
即得	-9.73058
今以	-9.73134
四事	-9.73258
不名為	-9.73265
七日	-9.73282
別有	-9.73301
乃名	-9.73315
今言	-9.73334
佛身	-9.73363
身中	-9.73417
或云	-9.73461
此等	-9.73462
得菩提	-9.73642
善星	-9.73692
。」【△	-9.73732
應知	-9.73761
摩訶	-9.73938
又解脫者	-9.73942
配	-9.73952
初文者	-9.73976
少欲	-9.74012
泥	-9.74023
應身	-9.74076
天行	-9.74169
伴	-9.74172
真解脫者即是如來	-9.74339
諸人	-9.74466
既無	-9.74573
鈍	-9.74627
師子吼言	-9.7467
有大	-9.74682
凡聖	-9.7469
斷除	-9.74697
非常非無常	-9.74719
疏主	-9.74968
應供	-9.75055
受報	-9.75268
詮	-9.75277
是無	-9.75438
之因	-9.75467
憂悲	-9.75477
是故名為	-9.75646
為實	-9.75667
若有說言	-9.75675
喻中	-9.75731
轉法輪	-9.7581
病人	-9.75843
悅	-9.75902
何緣	-9.75905
無始	-9.75921
滅盡	-9.75949
斷常	-9.75991
念念	-9.76008
諸經	-9.76046
懺悔	-9.7606
焉	-9.76284
九界	-9.76391
過患	-9.76401
由旬	-9.76431
未生	-9.7644
俗諦	-9.76568
第一義空	-9.76808
不樂	-9.76854
不著	-9.76955
無能	-9.76977
大師	-9.76996
今初	-9.77017
佛意	-9.77059
捨離	-9.77196
不以	-9.77229
是知	-9.77268
不實	-9.77318
渡	-9.7735
十五	-9.77396
蛇	-9.77506
獄	-9.77589
在家	-9.77771
聞見	-9.77775
十二緣	-9.77797
毛	-9.77863
愍	-9.77881
空中	-9.77907
正解	-9.77949
微塵	-9.77974
一切凡夫	-9.78009
舍宅	-9.7805
有法	-9.7805
六入	-9.78107
適	-9.78275
通達	-9.78327
二法	-9.78342
行人	-9.7836
是則名為	-9.7836
為諸眾生	-9.78383
正義	-9.78407
善女人	-9.78422
闕	-9.78467
為兩	-9.78777
希有	-9.78817
明了	-9.78831
為緣	-9.78833
通教	-9.7886
公	-9.78913
道品	-9.79024
亦能	-9.79105
陳	-9.79121
折	-9.79122
離諸	-9.79132
借	-9.79132
蘇	-9.79156
河西	-9.7916
仙	-9.79179
修善	-9.79212
枝	-9.7922
注	-9.79226
誠	-9.79299
無定	-9.7931
付囑	-9.79313
四眾	-9.79332
三塗	-9.79343
善哉善哉	-9.79415
世法	-9.79556
無緣	-9.79594
之異	-9.79613
▁「	-9.79706
下就	-9.79747
天子	-9.79759
喪	-9.798
薄	-9.79885
一種	-9.79998
衣服	-9.80052
堪	-9.80159
不食	-9.80233
入於	-9.80322
言無	-9.80378
▁初譬	-9.8039
復有二種	-9.80435
不見佛性	-9.80441
併	-9.80448
是義云何	-9.80637
蓮華	-9.80639
請住	-9.80697
諸外道	-9.8081
同於	-9.80826
酬	-9.80872
承	-9.80922
精	-9.80945
如來世尊	-9.81042
耆婆	-9.81153
祕密	-9.81277
滅惡	-9.81379
自身	-9.81421
彼岸	-9.81479
此亦	-9.81484
以釋	-9.81527
佛性亦爾	-9.8153
自有	-9.81654
捨身	-9.81669
正念	-9.8176
不捨	-9.81835
御	-9.81842
床	-9.81872
猶是	-9.81883
瓔珞	-9.81945
不依	-9.8199
詣	-9.82135
此釋	-9.82144
虗妄	-9.82151
前中	-9.82156
若得	-9.8226
不在	-9.82482
洗	-9.82528
何須	-9.8258
次合	-9.82807
酥	-9.82828
守護	-9.82916
更無	-9.82965
嗔	-9.82985
所依	-9.82993
受身	-9.83006
無非	-9.83041
是諸	-9.83141
交	-9.83141
及與	-9.83196
暫	-9.83226
非非	-9.8324
六波羅蜜	-9.83329
尊重	-9.83358
因也	-9.83402
眾生佛性	-9.83433
語言	-9.83494
入滅	-9.8359
臨	-9.83599
八十	-9.83601
其實	-9.83668
一切世間	-9.83767
毒藥	-9.83778
騰	-9.83802
階	-9.83809
前文	-9.83812
前四	-9.83819
夏	-9.83887
呵責	-9.83962
後結	-9.83981
當知是	-9.83988
士	-9.84048
一切眾生悉有佛性	-9.84079
釋義	-9.8416
三義	-9.8422
是大涅槃	-9.84302
如來藏	-9.84381
有十	-9.84445
梵志	-9.84488
狂	-9.84552
般若波羅蜜	-9.84556
事理	-9.8456
一闡提輩	-9.84612
我身	-9.84616
無法	-9.84618
長行	-9.84629
半偈	-9.84665
初云	-9.84786
天上	-9.84787
若有菩薩	-9.84836
之道	-9.8493
喻於	-9.84938
若我	-9.84999
但云	-9.85032
施主	-9.85059
四方	-9.85086
唯佛	-9.85135
生疑	-9.85171
故能	-9.85332
正釋	-9.85397
。】	-9.85444
正遍知	-9.85449
煖	-9.85543
次從	-9.85567
乞	-9.85802
不能得	-9.85852
拘	-9.85875
不與	-9.85968
作者	-9.85997
倍	-9.85999
令彼	-9.86025
無知	-9.86093
彌勒	-9.86109
驚	-9.86207
何故不	-9.8626
心者	-9.8633
必有	-9.86412
眾苦	-9.86529
問也	-9.86563
申	-9.86588
惡法	-9.86607
無病	-9.86632
取著	-9.8664
名義	-9.8664
毗	-9.86745
七種	-9.86747
東方	-9.86774
三十二相	-9.86874
▁五	-9.86947
而能	-9.86982
未盡	-9.87123
貴	-9.87145
善男子譬如	-9.87212
凡有	-9.87231
污	-9.87238
隔	-9.87272
計我	-9.87367
無果	-9.87386
復以	-9.87426
有罪	-9.87457
憍陳如	-9.87476
即以	-9.87491
明無	-9.87576
恒河沙	-9.87644
自下第三	-9.87655
得自在	-9.87687
我是	-9.87733
惠	-9.87951
不犯	-9.87988
又二先	-9.87999
彰其	-9.88038
解脫亦爾	-9.88054
釋中	-9.88058
悉能	-9.88082
衰	-9.88101
說無	-9.88138
步	-9.88147
有異	-9.88276
前品	-9.88334
憐愍	-9.88361
心中	-9.88413
則應	-9.88413
覺知	-9.88457
六根	-9.885
智斷	-9.88513
不及	-9.88519
邪正	-9.88589
〔	-9.88632
第二段中	-9.88632
十界	-9.88713
而今	-9.88719
複	-9.88722
委	-9.88762
摧	-9.88789
真俗	-9.88869
懈怠	-9.88877
而說偈言	-9.88968
別體	-9.89054
佛道	-9.8908
辦	-9.89172
十善	-9.89225
所修	-9.89295
雖不	-9.89302
是故我	-9.89344
是法	-9.89348
二事	-9.89353
乏	-9.89528
生貪	-9.89572
第三明	-9.89595
將欲	-9.897
十種	-9.89743
不至	-9.89747
此法	-9.89767
復作是言	-9.89778
舊解	-9.8982
之教	-9.89882
今昔	-9.89974
阿那含	-9.90008
兵	-9.90033
下別	-9.90044
生天	-9.90155
善能	-9.90167
▁初釋	-9.90251
分真	-9.90255
樓	-9.90307
發菩提心	-9.90331
笑	-9.9038
二果	-9.90454
見已	-9.90558
秘藏	-9.90793
此翻	-9.90809
一體三寶	-9.90842
防	-9.90873
賢聖	-9.90901
盜	-9.90926
居士	-9.90999
疏云	-9.91101
善心	-9.9125
我於爾時	-9.91282
招	-9.91343
龍王	-9.91483
智人	-9.91492
灰	-9.91522
恒河	-9.91611
野	-9.91646
底	-9.91681
必定	-9.91749
云何得	-9.92013
諍論	-9.92148
眠	-9.922
實有	-9.92255
中說	-9.92267
弱	-9.92298
運	-9.92329
捉	-9.92352
若約	-9.92371
太子	-9.92382
涅槃是	-9.92422
為喻	-9.92546
於如來	-9.9257
生故	-9.9286
無疑	-9.92957
愚人	-9.92988
默	-9.93054
堂	-9.93087
阿含	-9.93128
箭	-9.93138
色心	-9.93142
為人	-9.93194
潤	-9.93227
無住	-9.93249
胎	-9.93255
兩句	-9.93307
神力	-9.93379
下正	-9.93422
耶答	-9.93486
不自	-9.93519
五戒	-9.93527
亦名為	-9.93671
豈得	-9.9368
難破	-9.93773
為大	-9.9382
了了	-9.93849
幾	-9.93912
一切智	-9.9396
有時	-9.93996
往昔	-9.94012
五逆	-9.94041
無想	-9.94048
百千	-9.94135
互相	-9.9414
既不	-9.94191
我亦如是	-9.94203
答中	-9.94246
觀於	-9.94274
勢	-9.94373
眾生有	-9.94497
民	-9.94504
方名	-9.94526
五時	-9.94577
久住	-9.94598
之德	-9.94633
讓	-9.94679
是大	-9.9471
心生	-9.94727
不覺	-9.94767
淺深	-9.94823
下正釋	-9.9484
亦當	-9.94846
演	-9.94868
果性	-9.94869
一行	-9.94988
諦聽	-9.94997
觀師	-9.95215
故稱	-9.95268
帶	-9.95302
煞	-9.95315
榮	-9.95341
浮	-9.95466
之後	-9.95475
食肉	-9.95551
代	-9.9561
故使	-9.95651
見有	-9.95668
有此	-9.95764
墮地獄	-9.95765
住於	-9.95783
五道	-9.95831
下對	-9.95907
一實	-9.95944
本性	-9.95947
不思	-9.9597
落	-9.96011
先問	-9.96107
生信	-9.9614
右	-9.96144
懼	-9.96148
吐	-9.9621
茲	-9.96217
於諸眾生	-9.96232
夫人	-9.96258
問言	-9.96261
權實	-9.96266
免	-9.9627
載	-9.96293
闍	-9.96321
信受	-9.96333
義同	-9.96452
為涅槃	-9.96483
三點	-9.96524
道諦	-9.96569
儀	-9.9662
誦	-9.96712
是故下結	-9.96755
昔說	-9.96764
等覺	-9.96811
一名	-9.96831
釋言	-9.9689
琉璃	-9.96941
髮	-9.96956
狗	-9.96958
還是	-9.96993
不變	-9.97011
彈	-9.97034
番問答	-9.97038
以無	-9.97092
作佛	-9.97101
登	-9.97105
到彼岸	-9.97144
臥具	-9.97153
病行	-9.9728
就前	-9.9728
生不生	-9.9733
是色	-9.97341
謂佛	-9.97383
三觀	-9.97405
極果	-9.97461
番	-9.97504
我即	-9.97522
檀波羅蜜	-9.9758
今教	-9.97585
虫	-9.97604
最上	-9.97672
是有為	-9.97707
涉	-9.97722
有四種	-9.97752
投	-9.97837
聞不聞	-9.97839
在此	-9.97962
佛教	-9.97972
慧眼	-9.98098
何謂	-9.98116
佛所說	-9.98147
等是	-9.98189
中有三	-9.98193
知識	-9.98227
遷	-9.98238
惡道	-9.98276
毘	-9.98339
得失	-9.98388
特	-9.98468
古人	-9.98471
放光	-9.98483
沈	-9.98504
一諦	-9.98544
春	-9.98548
言我	-9.98853
須彌	-9.98897
唯願如來	-9.99116
若聞	-9.99125
譏	-9.9914
布	-9.99196
今者	-9.992
愧	-9.99236
且約	-9.99298
尸	-9.99301
有兩	-9.99322
附	-9.99334
木叉	-9.99335
妄語	-9.99379
呪術	-9.99462
離於	-9.99462
▁初標	-9.99466
雙照	-9.99496
財物	-9.99499
不用	-9.99551
即真解脫	-9.99639
無淨	-9.99665
之善	-9.99794
亦復不	-9.99865
止觀	-9.99884
誹謗	-9.99951
戒定慧	-10.0002
抑	-10.0006
羯磨	-10.0008
多少	-10.001
豈可	-10.0011
自利	-10.0014
答問	-10.0022
涅槃經	-10.0025
諸弟子	-10.0032
迦葉復言	-10.0032
從此	-10.0036
皆得	-10.0043
修學	-10.0054
去來	-10.006
我時	-10.006
何等名為	-10.0061
恚	-10.0087
藉	-10.0091
我若	-10.0096
無閡	-10.0097
約就	-10.0101
鈍根	-10.0103
續	-10.0109
自生	-10.0111
提婆達多	-10.0111
三毒	-10.0117
有八	-10.0133
▁初約	-10.0136
群	-10.0143
不別	-10.0144
樂者	-10.0145
五十	-10.015
〕	-10.0158
如來性	-10.0158
四念處	-10.0161
樹木	-10.017
作惡	-10.0172
汙	-10.0174
纏	-10.0181
少見	-10.0183
鼓	-10.0185
道理	-10.0185
曉	-10.0187
度脫	-10.0187
王言	-10.0197
.	-10.0198
殺害	-10.0198
出生	-10.0201
下答	-10.0202
端正	-10.0207
見道	-10.0218
汝當	-10.0222
則知	-10.0222
大品	-10.0235
知法	-10.0237
濫	-10.0244
苦者	-10.0247
機緣	-10.0247
喻佛	-10.0249
廢	-10.0255
伊	-10.0259
舌	-10.026
七人	-10.0262
欲明	-10.0263
講	-10.0265
無所得	-10.0265
泉	-10.0266
為正	-10.027
處處	-10.0274
私謂	-10.0282
此四	-10.0287
▁二譬	-10.029
一問	-10.0291
其體	-10.0293
下示	-10.0296
滅者	-10.0297
就初	-10.031
不聽	-10.0319
我者	-10.0329
陀羅尼	-10.0332
可以	-10.0332
分段	-10.0336
答上	-10.0337
戒律	-10.0347
見聞	-10.0353
緣生	-10.0359
河西云	-10.036
如來之身	-10.0364
非涅槃	-10.0372
禁戒	-10.0373
煗	-10.038
得脫	-10.0381
五塵	-10.0386
能說	-10.0395
未曾	-10.0397
嬰兒行	-10.0403
知是	-10.0404
婬	-10.0408
則名	-10.041
解義	-10.041
實是	-10.041
愛念	-10.0413
令他	-10.0413
寺	-10.0415
非但	-10.0418
之力	-10.0418
無得	-10.0421
依法	-10.0422
是非	-10.0424
謙	-10.0425
唯除	-10.0433
侍	-10.0434
世王	-10.045
雖知	-10.0454
九地	-10.0456
下隨文釋義	-10.0466
非眾生	-10.047
無窮	-10.0475
不到	-10.0485
毒蛇	-10.0494
相也	-10.0494
下佛答之	-10.0505
惟	-10.0507
積聚	-10.0507
初一	-10.051
飛	-10.0511
賣	-10.0511
該	-10.0514
穀	-10.0514
剎利	-10.0516
不現	-10.0517
尚不	-10.0518
漸漸	-10.0522
若從	-10.0526
若定	-10.0529
有得	-10.0535
其文	-10.0537
聚落	-10.0538
二十五	-10.0543
太	-10.0544
初番	-10.055
眾中	-10.0553
今說	-10.0555
略舉	-10.0556
破其	-10.0558
無色界	-10.0559
稟	-10.0561
阿修羅	-10.0568
不許	-10.0583
清涼	-10.0591
菓	-10.0592
敷	-10.0593
次列	-10.0596
戲論	-10.0598
睡眠	-10.0599
有為法	-10.0601
戰	-10.0602
於一	-10.0606
所持	-10.0607
乳酪	-10.0617
疑網	-10.0617
同體	-10.0617
法寶	-10.0618
境智	-10.0618
總別	-10.0621
亦同	-10.0622
斷見	-10.0631
別相	-10.0634
密語	-10.0637
四心	-10.0641
如來身	-10.065
猶未	-10.0657
依正	-10.0662
行也	-10.0669
相貌	-10.0671
上文	-10.0672
名為佛性	-10.0675
明有	-10.0676
所受	-10.0677
醎	-10.0677
壯	-10.0684
善修	-10.0689
羅睺羅	-10.0693
地前	-10.0693
槃	-10.0695
小兒	-10.0698
今謂	-10.0698
逼	-10.0699
轉輪聖王	-10.0701
說我	-10.0704
善友	-10.0706
善解	-10.0707
巳上	-10.0709
不來	-10.0718
師云	-10.0719
當來	-10.0724
解說	-10.0734
集諦	-10.0734
乳中	-10.0735
源	-10.0738
發起	-10.0739
人法	-10.0741
後之	-10.0747
斷一切	-10.075
餘人	-10.075
有苦	-10.0751
十二部	-10.0753
越	-10.0755
上上	-10.0755
下文云	-10.0755
船	-10.0757
寒	-10.0757
佛以	-10.0761
帖	-10.0763
難得	-10.0766
已得	-10.0775
飢渴	-10.0778
王舍城	-10.0778
對前	-10.0783
正覺	-10.0783
方得	-10.079
手足	-10.0795
欲得	-10.0802
誓	-10.0808
既是	-10.0815
復說	-10.0816
三千	-10.0824
常修	-10.0824
斷結	-10.0826
須陀洹人	-10.0828
五果	-10.0831
大德	-10.084
僧寶	-10.0844
從緣	-10.0849
慶	-10.0858
芽	-10.0861
羊	-10.0863
眾僧	-10.0869
修集	-10.0874
是義	-10.0878
六者	-10.0887
不如	-10.0901
不相	-10.0903
見色	-10.0917
連	-10.0931
後三	-10.0932
瑞	-10.0934
有生	-10.0938
常也	-10.0938
界外	-10.0941
輩	-10.0943
罵	-10.0944
豎	-10.0947
杖	-10.0948
同一	-10.095
其意	-10.095
犯四重禁	-10.0952
成道	-10.0954
五難	-10.0957
二約	-10.0957
地動	-10.0961
今家	-10.0962
通名	-10.0967
諸菩薩等	-10.0968
廣大	-10.0974
勢力	-10.0974
真常	-10.1
不堪	-10.1006
定執	-10.101
三十	-10.1011
如來說	-10.1011
天王	-10.1014
未見	-10.1015
玅	-10.1016
獻供	-10.1026
圓融	-10.1036
隨機	-10.1042
鬼神	-10.1046
如來常	-10.1047
是故我說	-10.1051
別釋	-10.1055
與彼	-10.1061
應是	-10.107
一切諸佛	-10.1074
初總	-10.1074
聞佛	-10.1077
從初	-10.1079
知見覺	-10.1082
非三世	-10.1084
以喻	-10.1085
如我	-10.1086
猶有	-10.1091
九十	-10.1091
生起	-10.1092
化眾生	-10.1095
作譬	-10.1096
與前	-10.1097
下引	-10.11
契經	-10.1101
明佛性	-10.1107
一品	-10.1109
稍	-10.111
流轉	-10.1111
園	-10.1124
初依	-10.1126
獼猴	-10.113
未至	-10.1137
不足	-10.1139
金剛三昧	-10.1151
即空	-10.1153
之物	-10.1159
能令眾生	-10.116
能問	-10.1168
與佛	-10.1172
受用	-10.1176
初後	-10.1179
般泥洹	-10.1184
左右	-10.1186
為五	-10.1188
時有	-10.1199
撿	-10.1203
無間	-10.1203
卑	-10.1204
漿	-10.1209
大乘經典	-10.1216
空寂	-10.1217
如來所說	-10.1219
此意	-10.122
淨土	-10.1223
意業	-10.1223
蓮花	-10.1231
能觀	-10.1235
初釋	-10.1246
則不能	-10.1254
常見	-10.1256
成論	-10.1256
波羅蜜	-10.1267
不具足	-10.1272
初心	-10.1273
不令	-10.1277
實法	-10.1281
疑心	-10.1284
而此	-10.1287
急	-10.1297
室	-10.1299
徹	-10.1299
有因	-10.1299
還生	-10.1301
如來為	-10.1303
之文	-10.1304
男子	-10.1305
【	-10.1306
難可	-10.1307
啼哭	-10.1308
莖	-10.131
善逝	-10.1313
八萬四千	-10.1318
岸	-10.1334
故屬	-10.1334
又言	-10.1335
若非	-10.1336
因性	-10.1338
中先	-10.1352
諸天人	-10.1361
眼識	-10.1364
立名	-10.1365
結成	-10.1366
建	-10.1377
謂之	-10.1378
客	-10.1385
歎經	-10.1386
中有二	-10.1388
是菩薩	-10.1393
色相	-10.1395
作是言	-10.1396
念佛	-10.1396
鹹	-10.1398
乾	-10.1399
其相	-10.1405
觀智	-10.1411
如來所	-10.1411
而非	-10.1417
中無	-10.1417
因是	-10.1423
隱顯	-10.1426
不生不滅	-10.1433
難意	-10.1438
我已	-10.1452
成前	-10.1452
初標	-10.1459
為常	-10.1462
合上	-10.1462
異者	-10.1463
先牒	-10.1474
解者	-10.1482
打	-10.1488
非因非果	-10.1491
世俗	-10.1492
竭	-10.1494
二俱	-10.1496
目連	-10.15
住世	-10.1504
不觀	-10.1506
若說	-10.1511
一義	-10.1517
不生生	-10.1534
應作	-10.1536
於中初先	-10.1538
之問	-10.1538
豈有	-10.1546
戒者	-10.1554
靈	-10.1566
炷	-10.1569
再	-10.1571
非真	-10.1573
鼻	-10.1581
毛孔	-10.1587
犯戒	-10.1588
萬行	-10.1588
不死	-10.159
上下	-10.159
六行	-10.1594
放捨	-10.1596
他方	-10.1606
隨順世間	-10.1607
流布	-10.1618
二因	-10.1627
願諸眾生	-10.1635
良以	-10.1638
良	-10.1643
忽	-10.1656
不入	-10.166
以理	-10.1661
三問	-10.1663
索	-10.1667
得住	-10.1669
略說	-10.167
一子	-10.1672
飢	-10.1674
追	-10.1674
割	-10.1674
常義	-10.1675
善不善	-10.1675
醫藥	-10.1678
老死	-10.1679
第三段中	-10.1682
得名為	-10.1686
犢子	-10.1689
次舉	-10.169
喻如	-10.1697
佛菩薩	-10.1712
此方	-10.1713
隨其	-10.1718
口業	-10.1722
稱為	-10.1722
得罪	-10.1724
快樂	-10.1727
體性	-10.1731
橫計	-10.1747
有何	-10.1747
妙覺	-10.176
禁	-10.1779
如法	-10.178
有樂	-10.1787
寶珠	-10.1787
言有	-10.1788
其有	-10.1788
餘三	-10.1797
下破	-10.1802
然後乃	-10.1807
先釋	-10.181
阿闍世王	-10.1811
圓常	-10.1815
本來	-10.1816
無所畏	-10.1821
非內非外	-10.1827
性故	-10.1833
於生死	-10.1833
果果	-10.1836
不退轉	-10.1839
即為	-10.1839
初段	-10.1842
下以	-10.1843
今當	-10.1844
暴	-10.1856
勤修	-10.1859
異解	-10.1862
魔波旬	-10.1867
左	-10.187
結前	-10.1871
祕密藏	-10.1873
療治	-10.1873
而來	-10.1874
妙藥	-10.1878
為義	-10.1879
體用	-10.1883
空也	-10.1905
一字	-10.1906
了知	-10.191
此事	-10.1914
獸	-10.1914
說者	-10.1916
無智	-10.1917
問中	-10.192
三教	-10.1923
依經	-10.1923
三十二	-10.1932
業果	-10.1934
陳如	-10.1938
天中天	-10.194
知其	-10.1942
故如經	-10.1943
果故	-10.1949
相生	-10.1949
非道	-10.1949
迦葉菩薩復白佛言	-10.1951
聞說	-10.1955
後釋	-10.1955
之色	-10.1955
既有	-10.1956
合為	-10.1957
納	-10.1959
讀	-10.1964
偏說	-10.1965
之業	-10.1969
此名	-10.1971
先問次答	-10.1978
令我	-10.1978
之想	-10.1982
所明	-10.1989
佛是	-10.1992
▁初正	-10.1996
分明	-10.1998
出世間	-10.2001
顯之	-10.2003
不敢	-10.2003
法體	-10.2004
門中	-10.2005
云何當	-10.2014
而巳	-10.2015
迦葉言	-10.2016
亦為	-10.2019
初言	-10.2019
顧	-10.2024
滅後	-10.2026
大智	-10.203
意在	-10.2035
修慧	-10.2036
唯一	-10.2037
狹	-10.2055
雖見	-10.2059
微細	-10.2061
此理	-10.2062
先喻後合	-10.2063
無常等	-10.2063
一就	-10.2063
苦因	-10.2063
悉得	-10.2064
當果	-10.2068
云何菩薩摩訶薩	-10.2071
禮拜	-10.2073
六塵	-10.208
身命	-10.2082
不論	-10.2083
】	-10.2086
意謂	-10.2086
十德	-10.2095
能持	-10.211
勸問	-10.2113
其子	-10.2126
聞者	-10.2127
君	-10.2142
百年	-10.2147
有本	-10.2153
界內	-10.2155
幡蓋	-10.2173
滅故	-10.2174
十法	-10.2174
共行	-10.2176
天魔	-10.2177
分證	-10.2177
作是念	-10.2179
性空	-10.218
次別	-10.2187
能所	-10.2188
不次第	-10.2192
神足	-10.2195
亦說	-10.2196
或復	-10.2204
於常	-10.2207
移	-10.2208
於前	-10.2209
三惡	-10.2209
所須	-10.2215
得入	-10.2217
皆云	-10.222
降魔	-10.2229
諸苦	-10.2231
現報	-10.2233
因緣者	-10.2235
聞巳	-10.2236
無垢	-10.2239
令汝	-10.2239
前明	-10.224
▁釋	-10.2241
不生不生	-10.2241
慮	-10.2243
已下明	-10.2244
一事	-10.2245
吼	-10.2247
詐	-10.2249
殘	-10.2249
除滅	-10.2253
若知	-10.2254
驅	-10.2255
一邊	-10.2256
渴	-10.2261
應以	-10.2261
巳得	-10.2262
論之	-10.2262
波羅	-10.2265
下明其	-10.2275
栴檀	-10.2279
是真	-10.2282
列名	-10.2283
十九	-10.2287
相故	-10.2287
正難	-10.2293
名不	-10.2296
可斷	-10.2299
問佛	-10.2299
得大涅槃	-10.2311
但以	-10.2315
質	-10.2315
為勝	-10.2317
字義	-10.2321
觀身	-10.2321
得度	-10.2326
相成	-10.2327
若言如來	-10.2328
引證	-10.2329
牒前	-10.2333
初譬	-10.2337
三惡道	-10.2338
四魔	-10.2339
不悔	-10.2345
心故	-10.2347
貫	-10.235
故此	-10.2351
滯	-10.2352
塔	-10.2352
局	-10.2354
還得	-10.2356
棺	-10.2359
有智之人	-10.2366
利鈍	-10.2368
以有	-10.2371
奴婢	-10.2371
妻子	-10.2372
稽首佛足	-10.2374
三解	-10.2375
至於	-10.2383
想者	-10.2399
大人	-10.24
明菩薩	-10.2402
斷疑	-10.2407
今有	-10.2411
無著	-10.2417
滅已	-10.2421
重罪	-10.2422
心性	-10.2428
滿字	-10.2429
即前	-10.2435
如來常住	-10.2438
周遍	-10.2443
為眾	-10.2445
誤	-10.2446
見諦	-10.2446
冠	-10.2447
補註	-10.2448
上說	-10.2453
烏	-10.2453
天竺	-10.2454
化生	-10.2455
苦果	-10.2455
預	-10.2457
塞	-10.2457
熏	-10.2459
於法	-10.2461
或有說言	-10.2461
所解	-10.2462
行苦	-10.2468
』	-10.2475
威	-10.2476
是第二	-10.2477
隨緣	-10.2478
令諸眾生	-10.2481
以之為	-10.2483
常等	-10.2485
正觀	-10.2488
若作	-10.2489
皆名	-10.249
不假	-10.2494
我以	-10.2506
初如文	-10.2509
咎	-10.2514
濕	-10.2528
哉	-10.2534
句別有	-10.2538
翻為	-10.2539
或作	-10.2543
總以標舉	-10.2557
之類	-10.256
甜	-10.2565
先尼	-10.2569
三障	-10.2573
非一切	-10.2576
名須陀洹	-10.2578
令眾生	-10.258
說之為	-10.2583
▁初科分	-10.259
樹下	-10.2595
覺觀	-10.2596
之過	-10.2597
種性	-10.2611
為上	-10.2614
所計	-10.2614
名涅槃	-10.2616
證成	-10.262
下辯	-10.2623
得解	-10.2629
有退	-10.2632
復為	-10.2634
共相	-10.2636
無上道	-10.2636
獻	-10.2643
即是如來	-10.2643
下地	-10.2645
活	-10.2648
所聞	-10.2651
愁	-10.2657
陵	-10.2658
我聞	-10.2658
言說	-10.2663
眾德	-10.2664
此土	-10.267
在後	-10.2676
恒沙	-10.2677
皆由	-10.268
合掌	-10.2687
唯是	-10.2693
不畏	-10.2696
:「『	-10.2696
譬喻	-10.2697
不墮	-10.2698
常果	-10.2698
慧命	-10.2702
魔說	-10.2704
非外	-10.2704
開善云	-10.2709
二禪	-10.2709
唯在	-10.271
即時	-10.2714
諸漏	-10.2715
稱歎	-10.2729
梵王	-10.2735
悉有	-10.2735
滅也	-10.2735
愁惱	-10.2735
博	-10.2742
空無	-10.2742
十五日	-10.2748
里	-10.2749
仁者	-10.2758
定相	-10.2759
行法	-10.276
停	-10.2761
束	-10.2768
定無	-10.2773
句也	-10.2777
薪	-10.2778
惜	-10.2779
誓願	-10.278
體是	-10.2782
當為	-10.2783
不解我意	-10.2785
四十	-10.2788
生煩惱	-10.2793
菩提心	-10.2797
ā	-10.2798
八倒	-10.2798
苦哉	-10.28
說也	-10.28
!」	-10.2801
▁二問	-10.2802
常身	-10.2803
八正道	-10.2807
自下	-10.2809
諸佛境界	-10.2811
有其	-10.2812
今解	-10.2813
初先	-10.2816
常存	-10.2816
而作是言	-10.2818
互無	-10.2818
圓滿	-10.2818
常故	-10.2821
之旨	-10.2826
名也	-10.2829
即無	-10.2831
例如	-10.2832
雖說	-10.2834
憑	-10.2839
私	-10.2845
不必	-10.2845
非為	-10.2846
斯陀含	-10.2848
涅槃亦爾	-10.2849
菩薩摩訶薩亦復如是	-10.285
首楞嚴	-10.2858
問者	-10.2859
根性	-10.2862
釋也	-10.2866
曇	-10.2869
遺教	-10.2873
梨	-10.2873
統	-10.2876
有因緣故	-10.2877
愛樂	-10.2878
須陀	-10.2885
天下	-10.2894
異說	-10.2899
顯前	-10.29
來者	-10.2901
後合	-10.2903
初約	-10.2908
不達	-10.2919
下次	-10.292
己身	-10.2921
皆具	-10.2923
作如是	-10.2929
聞經	-10.2933
法王	-10.2936
四分	-10.2936
作因	-10.2938
因緣生	-10.2939
減	-10.294
下顯	-10.2949
見一切法	-10.295
總明	-10.2957
下重	-10.296
之益	-10.2961
雙樹	-10.2961
不絕	-10.2966
異也	-10.2972
婦	-10.2977
從因	-10.2977
微密	-10.298
非謂	-10.2981
四住	-10.2983
畫	-10.2984
糞	-10.2985
次辨	-10.2986
回	-10.299
長養	-10.2993
謂如來	-10.2998
不能自	-10.3
忍辱	-10.3001
故不可	-10.3002
道場	-10.3003
色者	-10.301
天人師	-10.3011
正破	-10.3014
無上士	-10.3016
菩薩爾時	-10.3018
而起	-10.3018
彼佛	-10.3019
先說	-10.3024
性是	-10.3029
世間解	-10.3039
釋經	-10.3049
但為	-10.305
利養	-10.3059
作是說	-10.3059
樂受	-10.3059
若於	-10.3062
有七	-10.307
錄	-10.3077
乾闥婆	-10.3077
又如	-10.3079
已有	-10.308
人所	-10.308
『	-10.3084
定說	-10.3084
剎	-10.3086
說偈	-10.3089
屈	-10.309
大論	-10.3095
眾多	-10.3096
一相	-10.3096
聞是	-10.3099
譬之	-10.3105
為苦	-10.3105
性者	-10.3107
憶念	-10.311
餘處	-10.3111
謗法	-10.3112
八聖道	-10.3114
外國	-10.3114
上妙	-10.3117
四無量心	-10.3126
難見	-10.3128
北方	-10.3129
珍寶	-10.3132
廣辨	-10.3134
用也	-10.3138
於眾生	-10.3139
出入	-10.314
此解	-10.3142
皆為	-10.3146
之難	-10.3149
即能	-10.3156
疏文	-10.316
無常故	-10.3164
真如	-10.3165
四天王	-10.3168
阿闍世	-10.3171
諸結	-10.3171
佛眼	-10.3172
有常	-10.3173
之慈	-10.3173
經典	-10.3174
諸善	-10.3175
為果	-10.3181
意同	-10.3181
仙人	-10.3186
▁初法	-10.3194
文也	-10.3203
若離	-10.3206
第	-10.3207
碎	-10.3209
敗	-10.321
金銀	-10.3215
色陰	-10.3216
如羅睺羅	-10.3219
例爾	-10.322
俱是	-10.3223
五章	-10.3228
生相	-10.3229
七善	-10.3235
以大	-10.3239
我昔	-10.3241
三因	-10.3242
聖王	-10.3242
所起	-10.3242
經說	-10.3244
初舉	-10.3245
妄想	-10.3247
未知	-10.3251
正說	-10.3256
悅可	-10.3257
性淨	-10.3268
十七	-10.3269
今無	-10.3273
譬也	-10.3273
八苦	-10.3275
而白佛言	-10.3278
我無我	-10.3282
破煩惱	-10.329
入道	-10.329
初又二	-10.3293
相待	-10.3294
不破	-10.3297
為證	-10.3299
真法	-10.3305
彼此	-10.3307
不能知	-10.3308
因中說果	-10.3311
約理	-10.3313
不答	-10.3315
焰	-10.3317
豆	-10.3321
如汝所說	-10.3322
理性	-10.3323
辛	-10.3323
我諸弟子聞是說已	-10.3326
蟲	-10.3326
所由	-10.3328
刺	-10.3329
後四	-10.3332
三禪	-10.3341
隨逐	-10.3343
商主	-10.3346
聞之	-10.3351
展轉	-10.3358
五味	-10.3359
修定	-10.3365
是空	-10.3366
白佛	-10.3367
煖法	-10.337
乃得	-10.3374
六法	-10.3387
此問	-10.3389
具足成就	-10.339
無常想	-10.3394
斷滅	-10.3396
非苦	-10.3397
常在	-10.3401
下即	-10.3403
從緣生	-10.3406
胡	-10.3416
念念滅	-10.3416
孔	-10.3418
催	-10.3419
偈中	-10.342
即是涅槃	-10.3425
彼土	-10.3429
故說為	-10.3429
種智	-10.3432
吸	-10.3433
眾人	-10.3434
若就	-10.3438
諦聽諦聽	-10.3438
荊溪	-10.3438
復問	-10.344
下佛	-10.3441
乃能	-10.3441
乞食	-10.3448
非生	-10.3448
財寶	-10.3449
他解	-10.3458
不殺	-10.3459
一切有	-10.3471
次說	-10.348
故經云	-10.3483
證得	-10.3484
就初段中	-10.3495
消滅	-10.3495
香花	-10.35
為八	-10.3519
疎	-10.3528
睡	-10.3529
抱	-10.353
氏	-10.3532
有二義	-10.3533
行道	-10.3533
暗	-10.3533
蘭	-10.354
觀心	-10.354
入地獄	-10.3542
僧祇	-10.3544
迴向	-10.3545
孝	-10.3546
三十三天	-10.3548
歌	-10.3548
嫉妬	-10.3549
為佛	-10.3549
異故	-10.355
今約	-10.3552
。』「『	-10.3552
賤	-10.3552
發露	-10.3554
七者	-10.3559
前問	-10.3559
柔軟	-10.3561
離欲	-10.3563
十六行	-10.3564
精勤	-10.357
無人	-10.3573
如汝所言	-10.358
無貪	-10.3591
壞苦	-10.3593
其事	-10.3595
定者	-10.3597
即成	-10.3599
具有	-10.3599
慳	-10.3604
五人	-10.3607
對上	-10.3607
凡夫之人	-10.3609
皆以	-10.3618
經中說	-10.3618
則成	-10.3624
後世	-10.3626
造業	-10.3627
悉名	-10.3635
佛告阿難	-10.3635
明駿	-10.3636
憐	-10.3647
固	-10.3647
三相	-10.3651
墜	-10.3652
一處	-10.3652
龜	-10.3655
▁六	-10.3655
業因緣	-10.3656
官	-10.3657
答前	-10.3657
習氣	-10.3659
是大乘	-10.366
研	-10.3662
兔角	-10.3664
是道	-10.3665
須䟦	-10.3667
亦空	-10.367
佛弟子	-10.367
魔王	-10.3679
前云	-10.3679
無過	-10.3684
諸聲聞	-10.3686
而行	-10.3687
一分	-10.3693
四趣	-10.3699
而去	-10.37
點	-10.3709
不行	-10.3709
大河	-10.3718
得生	-10.3722
萬善	-10.3724
詞	-10.3728
重明	-10.3729
大法	-10.3731
須彌山	-10.3735
初二	-10.3736
有情	-10.3744
奉行	-10.375
先有	-10.3752
二問	-10.3754
無煩惱	-10.3755
釋論	-10.3759
生死涅槃	-10.3761
為樂	-10.3762
法藏	-10.3763
貪心	-10.3765
一舉	-10.3766
萬法	-10.3768
銀	-10.3774
滅罪	-10.3774
文別有	-10.3778
四義	-10.3779
炎	-10.3779
本有今無	-10.3781
合中	-10.3789
妙有	-10.3794
一切種智	-10.3794
高下	-10.3798
a	-10.3798
拘尸城	-10.3806
永滅	-10.3807
更有	-10.3807
見思	-10.3814
起惑	-10.3817
入般涅槃	-10.3819
別圓	-10.3823
有佛	-10.3852
可畏	-10.3854
未來世	-10.3856
有益	-10.3859
起惡	-10.3862
自相	-10.3867
善見	-10.3869
豈是	-10.3871
不入涅槃	-10.3872
正問	-10.3872
託	-10.3876
法空	-10.3877
是業	-10.3878
祕	-10.3881
已還	-10.3885
務	-10.3891
擬	-10.3892
漂	-10.3893
麻	-10.3894
現前	-10.3894
五法	-10.3896
開合	-10.39
得益	-10.39
汝今不應	-10.3903
等四	-10.3903
度者	-10.3906
迦葉白佛下	-10.3908
婆伽婆	-10.3909
譬中	-10.3918
犯四重	-10.3923
復更	-10.3924
八萬	-10.3929
生老病死	-10.393
有煩惱	-10.3939
自體	-10.394
悉令	-10.3941
作此	-10.3946
心則	-10.3952
七地	-10.3953
上品	-10.3953
一劫	-10.3955
與樂	-10.3957
至此	-10.3957
三十六	-10.3961
佛智	-10.3961
廣辯	-10.3961
限	-10.3965
趣向	-10.3967
頌	-10.3974
佛寶	-10.3979
得成	-10.3979
以破	-10.398
知時	-10.3981
八地	-10.3989
邪法	-10.3993
異相	-10.3999
四陰	-10.4004
我能	-10.4004
勝鬘	-10.4009
修因	-10.401
啼	-10.4016
文義	-10.4017
金剛身	-10.4019
同前	-10.4022
自下第四	-10.4024
憂愁	-10.4026
安置	-10.4028
西方	-10.403
▁【	-10.4037
即於	-10.4038
生解	-10.4039
必當	-10.4044
心常	-10.4047
當觀	-10.4053
測	-10.4055
翻前	-10.4057
能解	-10.4065
菩提之心	-10.4068
敢	-10.4071
等三	-10.4073
六事	-10.4079
近因	-10.4082
難解	-10.4087
上半	-10.4088
三漏	-10.4095
相好	-10.4097
及餘	-10.41
仁	-10.4102
軟	-10.4105
謂是	-10.4106
誑	-10.4108
三人	-10.411
觀方	-10.4114
三釋	-10.4118
薰	-10.4122
補	-10.4129
遲	-10.4129
滅除	-10.4129
酢	-10.4129
羸	-10.413
繩	-10.413
多人	-10.4133
寤	-10.4133
汝所	-10.4134
我之	-10.4134
調御丈夫	-10.4142
釋提桓因	-10.4143
擁護	-10.4144
大慈大悲	-10.4145
缾	-10.4148
護持正法	-10.4148
缺	-10.4151
支佛	-10.4154
佛語	-10.4154
倒想	-10.4159
施與	-10.4161
無常者	-10.4166
死者	-10.4175
上界	-10.4178
不遍	-10.4179
次就	-10.4183
此說	-10.4185
即非	-10.4186
等正覺	-10.4188
次譬	-10.4192
為最	-10.4194
至心	-10.4197
事者	-10.4201
初難	-10.4209
功用	-10.4209
得知	-10.4211
見之	-10.4221
水中	-10.4224
惡知識	-10.4224
▁二初文下隨	-10.4226
無身	-10.4229
涅槃也	-10.4236
充	-10.4239
宋	-10.4242
文顯可知	-10.4242
破惡	-10.4242
因於	-10.4245
深觀	-10.4246
秋	-10.4247
昏	-10.425
煩	-10.4253
卒	-10.4253
三修	-10.4254
井	-10.4254
狀	-10.4255
閻浮	-10.4258
少欲知足	-10.4258
明行足	-10.4259
涅槃之	-10.4264
晝	-10.4264
先合	-10.4268
宮殿	-10.4269
空故	-10.427
惠施	-10.4271
章安	-10.4273
明知	-10.4274
至心聽	-10.4275
若佛	-10.4279
業緣	-10.4281
亦有亦無	-10.4282
略明	-10.4282
非內	-10.4293
非三世攝	-10.43
犯重	-10.4304
執持	-10.4305
猶如虛空	-10.431
時眾	-10.4312
初生	-10.4315
只由	-10.4316
無常也	-10.4316
為王	-10.432
可尋	-10.4321
受安樂	-10.4324
偏執	-10.4324
得阿羅漢果	-10.4328
下總結	-10.4341
說無我	-10.4343
無自性	-10.4345
復當	-10.4355
總相	-10.4359
無憂	-10.4359
未聞	-10.436
一期	-10.4368
勞	-10.4369
不安	-10.4373
析	-10.4373
隣	-10.4377
欣	-10.4381
教法	-10.4381
淚	-10.4383
摩訶衍	-10.4383
侵	-10.4386
論曰	-10.4395
除斷	-10.4397
上中下	-10.4397
前中初言	-10.4399
行處	-10.4402
六卷	-10.4403
無有變易	-10.4403
愚智	-10.4405
聲聞弟子	-10.4408
如虛空	-10.4411
身業	-10.4412
受供	-10.4415
清淨梵行	-10.4417
彼人	-10.4423
遍滿	-10.4429
次破	-10.443
二就	-10.4433
滿月	-10.4434
難知	-10.4436
方等經	-10.4436
變化	-10.4437
為說法	-10.4457
多諸	-10.4464
從佛	-10.4465
往來	-10.447
而實	-10.447
四番	-10.4477
則生	-10.4484
理也	-10.4487
錢	-10.4488
還復	-10.449
廣略	-10.4491
寬	-10.4493
不合	-10.4495
原	-10.4497
唐	-10.4497
住前	-10.4497
符	-10.4498
四無量	-10.4499
出假	-10.4503
既非	-10.4505
名大	-10.4505
有果	-10.4508
復次迦葉	-10.4509
常沒	-10.451
無對	-10.4511
同異	-10.4513
先譬次合	-10.4514
白衣	-10.4515
族姓子	-10.4522
得大	-10.4523
凡所	-10.4525
通於	-10.4531
次觀	-10.4537
則便	-10.454
佛世尊	-10.4545
如來之性	-10.4555
所化	-10.4556
問意	-10.456
開示	-10.456
雖未	-10.4569
既其	-10.4571
非時	-10.4574
有貪	-10.4581
不云	-10.4582
之始	-10.4582
今欲	-10.4584
釋云	-10.4584
別明	-10.4588
四明	-10.4589
之語	-10.459
所可	-10.4591
貪愛	-10.4597
增上	-10.4598
見法	-10.4599
若有人	-10.46
發言	-10.4601
亦無常	-10.4606
約教	-10.4611
善者	-10.4611
恨	-10.4625
無上菩提	-10.4626
赴	-10.463
始從	-10.4631
長短	-10.4633
波旬	-10.4634
護持禁戒	-10.4635
以是下結	-10.4635
癡人	-10.4635
生處	-10.464
受化	-10.4644
諸王	-10.4649
如來涅槃	-10.4651
大力	-10.4656
律儀	-10.4662
是名下結	-10.4664
非空	-10.4667
為譬	-10.467
若有善男子	-10.467
有為無為	-10.4672
所召	-10.4674
來至	-10.4675
四天下	-10.4678
若為	-10.4688
為有	-10.4688
即指	-10.4689
一味	-10.4693
出於	-10.4698
雙結	-10.4711
一切悉	-10.4713
即有	-10.4718
有無量	-10.4721
是煩惱	-10.4723
成實	-10.4723
偏教	-10.4728
次結	-10.4732
威德	-10.4732
作大	-10.4737
如是等法	-10.4738
十惡	-10.4738
中明	-10.4739
但言	-10.474
破邪	-10.4742
幢	-10.4743
所斷	-10.4746
腹	-10.4746
以偈	-10.4747
為六	-10.475
曠	-10.4752
吒	-10.4752
撰	-10.4752
延	-10.4756
甘蔗	-10.4758
八十種好	-10.4759
三從	-10.476
三惑	-10.4762
同是	-10.4763
其解脫者即是如來	-10.4764
空處	-10.4767
懺	-10.4769
墮於地獄	-10.4769
曠野	-10.4769
紙	-10.477
正定	-10.4772
順召	-10.4773
以說	-10.4773
半滿	-10.4774
眾生佛性亦復如是	-10.4776
紙巳下	-10.4781
心生歡喜	-10.4787
斷絕	-10.4787
常住不變	-10.4791
惡果	-10.4798
修治	-10.4802
興皇云	-10.4804
▁二今	-10.4805
於涅槃	-10.4815
釋上	-10.4819
誰能	-10.4823
飾	-10.4825
都不	-10.4827
住者	-10.4827
於人	-10.483
色無色	-10.4833
所求	-10.4834
眾生亦爾	-10.4838
餘皆	-10.485
所攝	-10.485
戒定	-10.4858
答曰	-10.4863
無根	-10.4864
之別	-10.4866
以成	-10.4866
於理	-10.4869
通論	-10.4869
云何而得	-10.487
不能見	-10.4872
漢	-10.4873
未曾有	-10.4874
尺	-10.4876
毘曇	-10.4877
冬	-10.4881
鄙	-10.4884
占	-10.4884
賴	-10.4887
齒	-10.4888
柱	-10.4888
晝夜	-10.4892
若菩薩摩訶薩	-10.4895
却住一面	-10.4895
有邊	-10.49
拘尸那城	-10.4901
是故復名不可思議	-10.4902
於世	-10.4903
伎樂	-10.4906
四等	-10.491
諸見	-10.491
住法	-10.491
如下	-10.4916
大慈悲	-10.4919
下今師	-10.4922
單疏	-10.4922
中初言	-10.4924
現世	-10.4929
但說	-10.493
為作	-10.4935
有能	-10.4943
不當	-10.4945
皆謂	-10.4948
諮	-10.4952
多羅	-10.4957
非人	-10.4961
於一切法	-10.4962
明如來	-10.4962
真空	-10.4964
一約	-10.4972
有相	-10.4972
卷第十	-10.4976
性相	-10.4978
受記	-10.4981
迦葉問	-10.4992
此偈	-10.4999
受持讀誦	-10.5001
是故菩薩	-10.5003
憶	-10.5005
於閻浮提	-10.5005
諸大眾	-10.5007
議	-10.5009
之樂	-10.5013
族	-10.5015
語者	-10.5018
並是	-10.5022
嫌	-10.5023
即生	-10.5025
斫	-10.5026
名一闡提	-10.5027
摧伏	-10.5028
前五	-10.5029
俱有	-10.5032
却坐一面	-10.5032
為性	-10.5033
舊醫	-10.5035
供給	-10.5037
現身	-10.5037
諸凡夫	-10.5039
五通	-10.5042
故舉	-10.5042
俱無	-10.5044
質直	-10.5046
有病	-10.5049
梨車	-10.5051
雖得	-10.5055
南方	-10.506
因此	-10.5061
無佛性	-10.5063
為道	-10.5064
云何復	-10.5066
古來	-10.5066
云何如來	-10.5069
我諸弟子	-10.5079
熱病	-10.5082
第三句	-10.5085
遍一切處	-10.5091
不變易	-10.5093
以譬	-10.5095
二死	-10.5097
說此	-10.5099
如來無常	-10.5104
或見	-10.5108
數數	-10.511
二舉經	-10.5111
轉輪王	-10.5112
又四	-10.5116
所觀	-10.5117
何能	-10.5122
所以不	-10.5123
身智	-10.5127
法僧	-10.5127
詳	-10.5128
佛界	-10.5129
以法	-10.5129
實語	-10.5131
不能得見	-10.5136
增減	-10.5147
薩	-10.5152
須跋	-10.5152
悉無	-10.5153
以是業緣	-10.5156
臭	-10.5159
結歎	-10.5159
給	-10.5159
麥	-10.5159
先王	-10.516
之解	-10.5161
苦想	-10.5165
調達	-10.5165
前之	-10.5166
正性	-10.5167
萬物	-10.5168
三學	-10.5168
但取	-10.5169
雖同	-10.517
不可壞	-10.5171
殺生	-10.5172
為斷	-10.5175
說此偈	-10.5177
當知如來	-10.5177
鉤鎖	-10.5181
文略	-10.5184
正他	-10.5187
者即經云	-10.5188
初答	-10.5192
滅煩惱	-10.5203
兼答	-10.5205
破無明	-10.5211
所離	-10.5225
受畜	-10.5225
小大	-10.5228
生子	-10.5228
外凡	-10.5234
如我所說	-10.5236
是諸眾生	-10.5239
迦葉菩薩	-10.5242
乳藥	-10.5247
自正	-10.5253
無名	-10.5257
不可以	-10.5268
不去	-10.5272
任運	-10.5274
故云無	-10.5276
為彼	-10.5276
說是	-10.5277
條	-10.528
險	-10.528
受戒	-10.5281
孤	-10.5282
奢	-10.5286
王三昧	-10.5289
不等	-10.5291
旁	-10.5297
所覆	-10.5298
羣	-10.5299
現病品	-10.5302
此第一	-10.5306
良由	-10.5306
復是	-10.5306
得成阿耨多羅三藐三菩提	-10.5319
更不	-10.5324
廣上	-10.5328
解也	-10.5328
無益	-10.533
各別	-10.5332
佛土	-10.5336
下品	-10.5343
無諸	-10.5345
八事	-10.5345
口密	-10.5356
而我	-10.5357
下苦	-10.5358
因故	-10.536
聖諦	-10.536
噉	-10.5368
淨行	-10.5368
說無常	-10.537
更互	-10.538
威神	-10.5384
一闡提等	-10.5397
成佛道	-10.5398
優	-10.54
不遇	-10.5402
依此	-10.5403
佛地	-10.5406
生苦	-10.5409
鹿苑	-10.5409
今更	-10.5409
定知	-10.5414
有五種	-10.5414
辨異	-10.5415
第二句	-10.5416
不可盡	-10.5416
亦以	-10.5418
以何因緣	-10.5419
坑	-10.542
緣了	-10.5421
如世間	-10.5421
磨	-10.5421
喻之	-10.5423
截	-10.5423
大意	-10.5424
道也	-10.5424
喚	-10.5428
下辨	-10.543
波羅提木叉	-10.543
我實	-10.5431
讚嘆	-10.5431
親近善友	-10.5435
毒箭	-10.5435
巳還	-10.5435
雙遊	-10.5436
內心	-10.5438
上來第一	-10.5441
六句	-10.5445
猶故	-10.5453
慚	-10.5458
後總結	-10.5461
餘二	-10.5464
得是	-10.5465
於中初	-10.5465
中初明	-10.547
即名	-10.5479
應生	-10.5479
三身	-10.5482
就人	-10.5485
未斷	-10.5485
是故說	-10.5487
即涅槃	-10.5487
或謂	-10.5488
說於	-10.5494
約三諦	-10.5497
是真實	-10.5497
諸眾生故	-10.5499
亦不得	-10.5505
中亦有	-10.5506
其旨	-10.5509
於中有三	-10.5511
為問	-10.5514
歸伏	-10.5519
為其	-10.552
等法	-10.5526
不聞不聞	-10.5527
是三昧	-10.5529
吹	-10.5532
色等	-10.5534
欲見	-10.5537
問其	-10.5537
弟	-10.5543
真是	-10.5545
非有為	-10.555
崩	-10.5552
生已	-10.5556
妄計	-10.5559
涅槃之體	-10.556
竹	-10.5561
修者	-10.5563
涅槃義	-10.5563
怒	-10.5565
所在	-10.5568
檀越	-10.5568
灌	-10.5569
早	-10.557
略無	-10.5572
八正	-10.558
後身	-10.5582
施者	-10.5582
明矣	-10.5584
分齊	-10.5587
顯法	-10.5588
取其	-10.5591
辯中	-10.5595
之境	-10.5598
於中有二	-10.5603
菩薩行	-10.5607
若如是者	-10.5611
同時	-10.5618
則不得	-10.5621
設難	-10.5625
八法	-10.5626
未必	-10.5629
無滅	-10.5634
有疑	-10.5637
薩婆多	-10.564
於中先明	-10.5641
下結示	-10.5643
六十	-10.5645
既得	-10.5645
唯見	-10.5646
述成	-10.5647
新伊	-10.5648
此五	-10.565
請答	-10.5652
於中初明	-10.5652
明涅槃	-10.5653
十一空	-10.5655
立義	-10.5661
而自	-10.5663
所破	-10.5665
有緣	-10.5667
一番	-10.5677
幽	-10.5681
多者	-10.5683
顯其	-10.5685
於阿耨多羅三藐三菩提	-10.5687
相資	-10.5689
執著	-10.5691
拘尸	-10.5692
求佛	-10.5693
取相	-10.5694
縛解	-10.5696
齋	-10.5696
玉	-10.5697
昔所	-10.5701
兩問	-10.5701
勇	-10.5702
領旨	-10.5705
正以	-10.5706
震	-10.5708
宛然	-10.5709
今品	-10.5714
訶責	-10.5716
。』」「	-10.5717
行七步	-10.5719
解了	-10.5721
黑闇	-10.5721
第四明	-10.5722
家之	-10.5734
亦常	-10.5736
為破	-10.5741
了義	-10.5743
世有	-10.5745
品中	-10.5748
解脫不爾	-10.5749
有因緣	-10.575
巳身	-10.5756
先尼言	-10.5758
▁初牒	-10.576
處所	-10.5761
值遇	-10.5763
如向	-10.5766
經法	-10.5779
小異	-10.578
與我	-10.5783
得之	-10.5785
性也	-10.5786
尊者	-10.5789
能發	-10.5793
所詮	-10.5798
迦葉白佛	-10.5798
因成	-10.5801
先答	-10.5803
弊	-10.5807
故成	-10.5811
以上	-10.5812
今師	-10.5812
見巳	-10.5813
佉	-10.5816
內有	-10.5818
滿故	-10.5821
或為	-10.5825
得見佛性	-10.5826
揚	-10.5827
掘	-10.5836
供具	-10.5838
今依	-10.5838
總舉	-10.584
令諸	-10.5841
即是無常	-10.5841
二別釋	-10.5844
如世	-10.5847
如是如是	-10.5848
等視	-10.5849
六地	-10.5852
上座	-10.5854
阿鼻地獄	-10.5854
兄弟	-10.5854
一身	-10.5854
買	-10.5856
有佛性者	-10.586
身體	-10.586
攝取	-10.5861
藏通	-10.5867
此初	-10.587
萬德	-10.587
次一	-10.5871
王所	-10.5873
可說	-10.5876
教也	-10.5877
篇	-10.5879
我經中說	-10.5883
▁三合	-10.5887
是諸外道	-10.5889
便言	-10.589
上流	-10.589
迦葉品	-10.5892
聞此	-10.5892
上明	-10.5896
作難	-10.5899
我復	-10.59
善男子菩薩摩訶薩	-10.59
是佛性	-10.5902
文為四	-10.5907
淨故	-10.5915
一一皆	-10.5915
闍王	-10.5916
為令眾生	-10.5917
以前	-10.5919
如實	-10.5919
婆羅門等	-10.592
其言	-10.5921
導師	-10.5925
等皆	-10.5926
火聚	-10.5928
作善業	-10.5931
論中	-10.5933
昧	-10.5938
起於	-10.5939
□	-10.5949
文別有四	-10.5952
一切處	-10.5952
前難	-10.5957
輪王	-10.5957
貧人	-10.5958
無善	-10.5959
汝說	-10.5964
三就	-10.5968
為化眾生	-10.5969
譬說	-10.597
諸魔	-10.5971
如言	-10.5974
發願	-10.5981
非滅	-10.5982
之極	-10.5982
所居	-10.5985
祇	-10.5986
若據	-10.5987
經言	-10.5988
厚	-10.599
青黃赤白	-10.599
八萬劫	-10.5991
迦羅	-10.5993
究	-10.5996
依報	-10.6
石蜜	-10.6002
答云	-10.6003
若當	-10.6004
有信	-10.6004
哀愍	-10.6005
餘經	-10.601
此語	-10.6016
如來法身	-10.6017
頌曰	-10.6017
道滅	-10.6019
破惑	-10.6021
聞聲	-10.6022
之辭	-10.6023
師子吼言世尊	-10.6025
有為之法	-10.6028
無苦	-10.6028
別論	-10.603
醫王	-10.603
通前	-10.6031
增益	-10.6034
約事	-10.6036
三譬	-10.6038
異名	-10.6053
修空	-10.6054
為七	-10.6062
起行	-10.6062
十事	-10.6062
三約	-10.6063
我弟子	-10.6064
求利	-10.6065
是無為	-10.6065
重釋	-10.6067
無量煩惱	-10.6069
忉利天	-10.6071
實無有	-10.6071
中先問	-10.6072
重病	-10.6072
此譬	-10.6077
教行	-10.6077
第二難	-10.6078
六即	-10.6079
復示	-10.608
三有	-10.6082
離相	-10.6083
非聖	-10.6086
等無差別	-10.6086
如下文	-10.6087
今則	-10.6095
別答	-10.6097
無量功德	-10.6097
身見	-10.6098
五句	-10.61
善方便	-10.6104
所立	-10.6106
還成	-10.6108
變異	-10.611
皆約	-10.6111
色法	-10.6111
輪轉	-10.6113
有諸眾生	-10.6116
盡滅	-10.6118
閑	-10.6118
盲人	-10.6121
答之	-10.6122
必須	-10.6122
地持	-10.6123
色非色	-10.6124
永離	-10.6128
五十二眾	-10.613
自在天	-10.6132
扶	-10.6132
或以	-10.6135
爭	-10.6136
以何義故	-10.6137
第四句	-10.6137
所治	-10.6138
是別	-10.6139
澤	-10.6139
必死	-10.6139
無實	-10.6141
文意	-10.6141
諂	-10.6142
皆不	-10.6142
產	-10.6142
業報	-10.6143
燈明	-10.6143
為異	-10.6144
怨憎	-10.6146
踰	-10.6147
度眾生	-10.6148
之上	-10.6151
我涅槃後	-10.6153
食者	-10.6156
同歸	-10.6157
總以結之	-10.6158
佛即	-10.6158
事也	-10.6158
顯現	-10.6159
句中	-10.6159
有法譬合	-10.6162
化作	-10.6163
亦無是處	-10.617
之智	-10.6171
世出世	-10.6174
先標	-10.6175
下半	-10.6177
爾乃	-10.618
障礙	-10.6183
破執	-10.6186
隨所	-10.6193
心數	-10.6195
釋疑	-10.6198
船師	-10.6199
論師	-10.62
識處	-10.6208
舉其	-10.6211
芥子	-10.6214
救護	-10.6215
得成佛	-10.6217
大城	-10.6225
學者	-10.6226
若能如是	-10.6226
又有	-10.6229
是所	-10.6229
三云	-10.6231
不貪	-10.6232
尚無	-10.6232
聞慧	-10.6233
得佛	-10.6242
依人	-10.6247
閡	-10.6248
與此	-10.6261
猛	-10.6261
意識	-10.6263
此為	-10.6263
苦也	-10.6265
之外	-10.6266
是名菩薩摩訶薩	-10.6271
聞聞	-10.6276
省	-10.6279
如意	-10.6281
掌	-10.6281
丈六	-10.6282
種姓	-10.6283
經論	-10.6283
畢竟空	-10.6283
戲	-10.6284
業障	-10.6284
翳	-10.6286
實義	-10.6287
有九	-10.6289
發問	-10.6291
踊	-10.6291
軍	-10.6293
現有	-10.6293
欝	-10.6294
除一闡提	-10.6295
▁初敘	-10.6296
說常	-10.6297
充滿	-10.6297
瓦石	-10.6298
裏	-10.6298
閉	-10.6298
圍繞	-10.63
鬪	-10.6304
云何知	-10.6304
正意	-10.6308
十想	-10.631
初發心	-10.6312
勝修	-10.6312
顯發	-10.6313
如水	-10.6315
互現	-10.6317
應言	-10.632
之苦	-10.6324
彰己	-10.6329
▁初舉	-10.6339
所施	-10.6342
非身	-10.6356
經歷	-10.6361
次復	-10.6363
可作	-10.6365
敘意分科	-10.6368
八者	-10.6376
女身	-10.6377
無主	-10.6378
次問	-10.6379
功能	-10.638
為顯	-10.6383
不有	-10.6384
所出	-10.6392
然今	-10.6395
眾生心	-10.6396
逮	-10.64
明義	-10.641
非作	-10.6414
用此	-10.6415
為眾生說	-10.6417
第二番	-10.6418
州	-10.6419
摩羅	-10.6421
破戒者	-10.6423
色身	-10.6423
如來何故	-10.6423
四種人	-10.6425
王宮	-10.6429
洲	-10.6429
軌	-10.6429
每	-10.643
出聲	-10.643
慕	-10.6431
敵	-10.6432
以是義下	-10.6433
互融	-10.6434
為生	-10.6436
別義	-10.6437
豐	-10.6437
送	-10.6441
歎其	-10.6443
價	-10.6443
住大涅槃	-10.6444
佛出世	-10.6444
怪	-10.6444
不染	-10.6446
之義也	-10.6446
由此	-10.6448
善也	-10.6449
憐憫	-10.645
則生不動國	-10.6451
滅時	-10.6454
諸子	-10.6454
正為	-10.6455
摩睺羅伽	-10.6455
名解脫	-10.6458
如幻	-10.6458
一切大眾	-10.646
▁二正	-10.646
有酪	-10.646
名相	-10.646
難陀	-10.6469
或在	-10.647
必得	-10.6472
迦葉菩薩言	-10.6475
一切善法	-10.6483
無量劫	-10.6485
要須	-10.6485
真性	-10.6502
捨心	-10.6505
已來	-10.6506
今既	-10.651
文明	-10.6515
故爾	-10.6516
定性	-10.6526
燈滅	-10.6528
敬信	-10.6529
貧女	-10.653
喻顯	-10.6531
即名為	-10.6534
白言	-10.6535
出其	-10.6537
緣者	-10.6541
理即	-10.6544
雖非	-10.6546
擇	-10.6546
菩薩亦爾	-10.6546
法忍	-10.6548
後兩	-10.6548
三雙	-10.655
九住	-10.655
絕待	-10.6564
凡夫二乘	-10.6566
故名大	-10.6567
拂	-10.6569
緣於	-10.657
亦知	-10.6578
難言	-10.6578
外人	-10.6579
文釋義	-10.658
所造	-10.658
屋	-10.6582
中先明	-10.6584
父王	-10.6584
雙釋	-10.6584
偏明	-10.6585
滋	-10.6586
丸	-10.6586
幻化	-10.6586
為利	-10.6586
所不能	-10.6588
均	-10.6588
世尊告	-10.6588
催供	-10.6589
市	-10.6591
如空	-10.6594
陰界入	-10.6595
陀羅	-10.6595
跋	-10.6595
射	-10.6596
耆	-10.6597
驢	-10.6603
本是	-10.6606
善星比丘	-10.6606
祕密之藏	-10.6607
災	-10.6607
貌	-10.661
皆空	-10.6612
圓頓	-10.6612
No	-10.6617
三四	-10.662
教者	-10.6622
行故	-10.6623
若其	-10.6627
沙門瞿曇	-10.6627
密藏	-10.6627
無始終	-10.6628
於意云何	-10.6631
外法	-10.6639
欲知	-10.6643
眾惡	-10.6644
造惡	-10.6648
弘廣	-10.665
習因	-10.665
令一切	-10.6656
三無為	-10.6662
煩惱障	-10.6671
直心	-10.6671
三受	-10.6672
但見	-10.6672
則失	-10.6674
離苦	-10.6678
因緣和合	-10.6679
未解	-10.6685
處者	-10.6693
登地	-10.6703
譬佛	-10.6703
三月	-10.6705
復生	-10.6706
無此	-10.6707
為定	-10.6717
佛剎	-10.672
異於	-10.6723
所引	-10.6725
以別	-10.6732
保	-10.6734
於一切	-10.6735
廣破	-10.6735
走	-10.6736
各具	-10.6736
下句	-10.6737
聽許	-10.6738
生後	-10.6739
經明	-10.6739
脚	-10.6739
故先	-10.6739
性非	-10.6741
緩	-10.6742
封	-10.6743
哀歎	-10.6743
幼	-10.6743
調御	-10.6744
壁	-10.6745
世第一法	-10.6747
百非	-10.6748
終無	-10.6748
對曰	-10.6749
瑠璃	-10.675
為一切	-10.6751
又是	-10.6751
如汝所問	-10.6753
一則	-10.6754
乳中有酪	-10.6757
教誨	-10.6759
不同也	-10.6761
不能令	-10.6764
真金	-10.6766
自恣	-10.6766
牀	-10.6766
但明	-10.6768
言是	-10.6772
遠因	-10.6775
有善	-10.6776
諮問	-10.6777
方便道	-10.6779
瞻病	-10.678
名為涅槃	-10.6781
了了見	-10.6785
隨他	-10.6785
其數	-10.6786
正顯	-10.6787
不還	-10.6787
為宗	-10.6792
二門	-10.6794
明中道	-10.6797
即佛性	-10.6799
次論義	-10.6801
次正答	-10.6806
世智	-10.6807
一生	-10.6807
得樂	-10.6812
何等為四	-10.6813
須依	-10.6813
不由	-10.6816
天女	-10.6818
離惡	-10.682
我心	-10.6821
習果	-10.6821
堪忍	-10.6825
計常	-10.6829
是我所	-10.6831
三慧	-10.6833
成阿耨多羅三藐三菩提	-10.6835
體一	-10.6835
四段	-10.6842
非相	-10.6843
未免	-10.6843
十相	-10.6844
第三結	-10.6846
諦觀	-10.6846
身有	-10.6847
▁初總	-10.6847
二教	-10.6851
知義	-10.6855
為惡	-10.6855
是善	-10.6855
若有人能	-10.686
值佛	-10.6863
初正明	-10.6866
何異	-10.6873
答意	-10.6874
有實	-10.6876
兩譬	-10.6876
多分	-10.6876
空門	-10.6877
瞻	-10.6878
釋成	-10.6882
殺人	-10.6884
武	-10.6886
之病	-10.6893
返	-10.6899
能了	-10.6899
其理	-10.6899
的	-10.6901
體同	-10.6902
不一	-10.6903
下別顯之	-10.6903
陽	-10.6904
即說	-10.6905
雅	-10.6906
地人	-10.6907
稽首	-10.6907
祖	-10.6908
為佛性	-10.691
所執	-10.691
暢	-10.691
能度	-10.6911
深淺	-10.6912
之間	-10.6913
虎	-10.6914
是名上智	-10.6914
略不	-10.6915
當體	-10.6915
卿	-10.6915
善思念之	-10.6917
房舍	-10.6917
未成	-10.692
常當	-10.6924
村	-10.6924
對破	-10.6929
內法	-10.6931
巳前	-10.6937
便得	-10.6939
是理	-10.694
法要	-10.6941
內空	-10.6942
亦具	-10.6946
如是解脫即是如來	-10.6948
次辯	-10.6955
又三一	-10.6958
於其	-10.6959
皆同	-10.696
離過	-10.6961
不得言	-10.6961
六住	-10.6965
外緣	-10.6968
體也	-10.6968
何因緣	-10.6974
五譬	-10.6974
塵沙	-10.698
者由	-10.6982
生盲	-10.6982
▁佛	-10.6983
更無別	-10.6984
人間	-10.6984
六念	-10.6987
為求	-10.6994
作種種	-10.6995
為得	-10.6995
藥草	-10.7
不忘	-10.7002
位也	-10.7003
金色	-10.7006
若不能	-10.7009
初略	-10.7017
叵	-10.7017
快	-10.7017
善行	-10.702
於他	-10.702
具三	-10.7021
彼經	-10.7021
然其	-10.7025
不吉	-10.7029
身口意	-10.7029
歎德	-10.7029
佛法僧	-10.7031
佛性是	-10.7032
愚者	-10.7039
諸功德	-10.7042
神我	-10.7045
理同	-10.7051
以佛	-10.7053
中先舉	-10.7053
尾	-10.7054
內凡	-10.7054
梁	-10.7055
佛讚	-10.7058
因中有果	-10.7058
拒	-10.7062
秦	-10.7063
二乘人	-10.7063
妻	-10.7064
夷	-10.7064
宅	-10.7065
淡	-10.7066
趣入	-10.7067
逸	-10.7069
得安隱	-10.707
偷	-10.7072
明見	-10.7078
超越	-10.7078
憙	-10.708
合掌恭敬	-10.7085
之眾	-10.7087
後難	-10.7088
亦不可思議	-10.7089
為真	-10.7089
娑羅林	-10.709
九部	-10.709
門也	-10.7092
分科	-10.7093
第三番	-10.7094
進止	-10.7095
一雙	-10.7095
佛今	-10.7095
開發	-10.7096
譬合	-10.7097
】【	-10.7103
推求	-10.7103
獲得解脫	-10.711
寶幢	-10.7115
唯然	-10.7116
不肯	-10.7117
若斷	-10.7117
淨名	-10.7117
何者是	-10.7118
若無我者	-10.7119
愁苦	-10.7119
開宗	-10.7119
而成	-10.7121
未出	-10.7125
肇	-10.7128
須菩提	-10.7128
不得名為	-10.713
難中	-10.713
三段	-10.7133
依教	-10.7134
能以	-10.7139
云何說	-10.714
。』」	-10.7141
如月	-10.7142
江	-10.7143
惡趣	-10.7145
化身	-10.7145
不虛	-10.7147
一門	-10.715
徵問	-10.7156
此非	-10.7156
象力	-10.7158
八智	-10.716
思慧	-10.716
同聞	-10.7162
識心	-10.7164
遊行	-10.7165
長老	-10.7168
諸業	-10.7175
先出	-10.7175
名同	-10.7178
善說	-10.7178
汝若	-10.718
此皆	-10.718
既言	-10.7183
正報	-10.7184
一日	-10.7186
大仙	-10.7192
廣顯	-10.7193
合為一	-10.7194
何用	-10.7195
一家	-10.7202
厭離	-10.7203
揀	-10.7204
門者	-10.7209
為根本	-10.721
便是	-10.7211
卷第二十	-10.7212
朝	-10.7212
善人	-10.7215
今且	-10.7215
貢高	-10.7227
是總	-10.7228
得如是	-10.7228
梁武	-10.7233
擯	-10.7234
馳	-10.7235
肥	-10.7236
而見	-10.7236
混	-10.7237
遭	-10.7237
貪求	-10.7238
人多	-10.7241
一切眾生亦復如是	-10.7241
右膝著地	-10.7243
三道	-10.7243
行惡	-10.7244
不攝	-10.7245
中二先	-10.7247
熾盛	-10.7247
是魔眷屬	-10.7247
舉佛	-10.7249
不違	-10.7253
圍遶	-10.7255
車乘	-10.7255
住是三昧	-10.7256
雖是	-10.7258
計有	-10.726
自心	-10.7262
堪任	-10.7262
不真	-10.7267
所能	-10.7267
之地	-10.7274
至彼	-10.7275
染著	-10.7276
》,	-10.7281
無師	-10.7285
結勸	-10.7286
皆爾	-10.7287
清淨戒	-10.7287
如說	-10.7287
聞是經	-10.729
行於	-10.7296
具足檀波羅蜜	-10.73
益物	-10.7307
果上	-10.7313
生業	-10.7315
後時	-10.7322
六識	-10.7332
頂生	-10.7334
雜食	-10.7338
如地	-10.7338
心懷	-10.7341
報障	-10.7345
治病	-10.7348
重說	-10.7348
百億	-10.7349
汎	-10.7353
不從因緣	-10.7353
從彼	-10.7354
我性	-10.7359
又此	-10.7359
入定	-10.736
為首	-10.7361
因滅	-10.7365
樂見	-10.7369
諸力士	-10.7369
網	-10.7376
三智	-10.7382
光宅	-10.7387
失也	-10.7387
避	-10.7387
工巧	-10.7389
亦應如是	-10.7389
童	-10.7392
怨親	-10.7394
後問	-10.7395
法輪	-10.7395
伐	-10.7396
戒是	-10.7396
勇健	-10.7399
剋	-10.74
倚	-10.74
如火	-10.7402
陰入界	-10.7403
採	-10.7404
庶	-10.7404
是名中智	-10.7407
聾	-10.7408
波斯匿王	-10.7408
黨	-10.7408
如法修行	-10.7409
須臾	-10.7412
我於往昔	-10.7412
苦受	-10.7412
妙理	-10.7412
健	-10.7413
之子	-10.7414
殊勝	-10.7416
諸婆羅門	-10.7419
雙明	-10.7419
▁初敘古	-10.7428
佛法中	-10.7429
不用處	-10.743
以示	-10.743
作五逆罪	-10.7431
三途	-10.7432
舉譬	-10.7432
繫心	-10.7435
不相應	-10.7436
是謂	-10.7439
隨時	-10.7439
無方	-10.744
九品	-10.7442
不應說	-10.7447
治之	-10.7448
弊惡	-10.7448
答第五	-10.7459
大喜	-10.7465
別惑	-10.7468
大段	-10.7473
所愛	-10.7474
修慈	-10.7476
能如是	-10.748
即是中道	-10.7481
▁初正釋	-10.7482
故常	-10.7485
佛性也	-10.7487
修羅	-10.7491
先歎	-10.7492
隨喜	-10.7493
所釋	-10.7496
經教	-10.7496
逆罪	-10.7498
報身	-10.7499
本迹	-10.75
無邊身	-10.7501
義釋	-10.7503
其義云何	-10.751
為法	-10.7512
悟解	-10.7515
具論	-10.7519
信解	-10.752
非無常	-10.7522
最初	-10.7522
復得	-10.7528
無義	-10.7531
下正明	-10.7531
非有無	-10.7534
同彼	-10.7534
佛境界	-10.7538
飯	-10.7543
動轉	-10.7544
現在世	-10.7545
中初先	-10.7545
正應	-10.7545
為十	-10.7548
無餘涅槃	-10.755
首陀	-10.755
他國	-10.755
憂喜	-10.7553
鑒	-10.7553
之殊	-10.7553
我法	-10.7553
依義	-10.7557
便謂	-10.7557
生果	-10.756
其猶	-10.7562
無犯	-10.7563
總名	-10.7564
何為	-10.7565
眾魔	-10.7565
即一而三	-10.7567
即知	-10.7567
校	-10.7567
應須	-10.7569
正因性	-10.7572
合之	-10.7573
繞	-10.7574
修戒	-10.7575
非諸聲聞緣覺所知	-10.7576
愛取	-10.7576
五門	-10.7578
獵師	-10.7579
雙樹間	-10.7581
不應言	-10.7581
如來真實	-10.7584
或復有說	-10.7584
何故名	-10.7586
願諸眾生得	-10.7586
果實	-10.7586
教他	-10.7587
鈔	-10.7588
婆羅門言	-10.7589
流轉生死	-10.759
啟	-10.7592
菩薩應當	-10.7593
法雨	-10.7594
作此說	-10.7597
五品	-10.7599
此以	-10.76
生瞋	-10.76
具二	-10.7602
愛者	-10.7609
在前	-10.7609
縱廣	-10.7613
大聖	-10.7615
以求	-10.7616
雖在	-10.7616
下牒	-10.7618
真解	-10.7618
大乘經	-10.7622
覆藏	-10.7626
娑羅	-10.7632
自是	-10.7632
前說	-10.7633
攝心	-10.7635
更問	-10.7635
上云	-10.7637
第一明	-10.7637
二乘之人	-10.7639
具四	-10.7639
觀師云	-10.764
而亦	-10.7641
如王	-10.7643
於無量劫	-10.7652
即是佛性	-10.7653
若在	-10.7654
解惑	-10.7655
大苦	-10.7661
開顯	-10.7662
所感	-10.7662
行施	-10.7662
生此	-10.7663
不疑	-10.7666
見空	-10.7667
信者	-10.7668
設有	-10.7669
三十七	-10.767
理具	-10.767
作是	-10.7672
佛答為二	-10.7677
無因緣	-10.7681
別異	-10.7688
例然	-10.7696
久住於世	-10.7699
法即	-10.7701
娑	-10.7704
果亦	-10.7704
此難	-10.7706
阿僧祇	-10.771
偏小	-10.7711
一是	-10.7712
自能	-10.7712
通釋	-10.7714
本末	-10.7715
喻明	-10.7715
無勝	-10.7718
斥古	-10.7719
薄福	-10.7719
寸	-10.7724
詐親	-10.7725
初門	-10.7727
素	-10.7731
猒	-10.7733
思之	-10.7734
▁七	-10.7735
蔽	-10.7735
其味	-10.7736
白佛言世尊	-10.7737
米	-10.7738
焚	-10.7739
過也	-10.774
勝劣	-10.774
邊地	-10.7742
毫	-10.7743
無處	-10.7743
兩教	-10.7745
示同	-10.7745
尼拘陀子	-10.7748
所以然者	-10.7748
釋迦牟尼	-10.7753
就佛	-10.7754
知之	-10.7755
一面	-10.7755
出現於世	-10.7755
咨	-10.7756
憂惱	-10.7756
招提	-10.7756
無見	-10.776
將來	-10.7761
兩義	-10.7761
若常	-10.7763
梵語	-10.777
亦二	-10.7772
今舉	-10.7776
隨情	-10.7777
上至	-10.7778
三苦	-10.7778
類顯	-10.7779
往佛所	-10.7781
初標章	-10.7781
下正示	-10.7782
於世間	-10.7786
造色	-10.7788
先列	-10.7792
未足	-10.7796
捨相	-10.7796
業行	-10.7797
我常	-10.7799
之惑	-10.78
那得	-10.78
治國	-10.7803
此第二	-10.7806
我欲	-10.7807
剎土	-10.7809
佛及	-10.7809
其地	-10.7816
餘者	-10.7817
下徵	-10.782
佛自	-10.782
三性	-10.7821
即第一義	-10.7823
欲使	-10.7824
文有	-10.7831
大論云	-10.7832
以無常	-10.7834
知根	-10.7836
名聞	-10.7837
愈	-10.7849
障故	-10.7851
阿難言	-10.7852
命盡	-10.7854
玄義	-10.7856
初出	-10.7857
三重	-10.7857
三行	-10.7858
證知	-10.7858
有三義	-10.7861
有二意	-10.7861
察	-10.7863
覩見	-10.787
住持	-10.7877
得法	-10.7878
一實諦	-10.7879
罪人	-10.7884
注云	-10.7885
頗	-10.7889
無所著	-10.7891
勸令	-10.7891
中上	-10.7891
䨱	-10.7895
名無常	-10.7895
今釋	-10.7899
常命	-10.7901
是內	-10.7901
四十年	-10.7905
佛在	-10.7908
療	-10.7908
聞所不聞	-10.791
湛然	-10.7911
汝於	-10.7912
即真	-10.7914
乃有	-10.7914
梵本	-10.7914
浴	-10.7915
觀受	-10.7916
四顛倒	-10.7918
以彼	-10.7919
者即是如來	-10.792
諂曲	-10.7921
有何差別	-10.7923
最為	-10.7925
迴轉	-10.7925
誼	-10.7926
富那	-10.7927
裂	-10.7927
明非	-10.7928
欺	-10.7929
遊戲	-10.793
四問	-10.7931
狼	-10.7932
不可稱計	-10.7932
初就	-10.7934
皆當	-10.7934
名果	-10.7935
不淨之物	-10.7936
菩薩如是	-10.7937
破於	-10.7937
明己	-10.7938
入理	-10.7939
能受持	-10.7942
若自	-10.7943
離生死	-10.7948
偈頌	-10.7952
生長	-10.7955
沙門果	-10.7957
非過去	-10.7959
是有漏	-10.7959
善果	-10.7969
聞其	-10.7973
若修	-10.7974
終日	-10.7974
背捨	-10.7975
以諸	-10.7975
直是	-10.7976
分別說	-10.7979
令生	-10.798
寂然	-10.7981
釋文	-10.7983
應無	-10.7984
中文別有	-10.7987
至于	-10.7992
上求	-10.7995
共住	-10.7999
其名曰	-10.7999
為非	-10.8002
七方便	-10.8002
生時	-10.8004
證也	-10.8008
如諸	-10.8008
惡比丘	-10.8009
▁初略	-10.8013
多種	-10.8013
善道	-10.8014
修梵行	-10.8017
當於	-10.8025
二十一	-10.8026
學人	-10.8027
行慈	-10.8028
實性	-10.8032
已盡	-10.8036
下化	-10.8037
讚言	-10.8037
故生	-10.8039
佛常	-10.8056
是生死	-10.8057
顯實	-10.8058
只是一	-10.806
之意也	-10.806
緣中	-10.8061
為菩薩	-10.8062
婆羅	-10.8063
譬如良醫	-10.8063
道慧記曰	-10.8066
第四禪	-10.8067
能答	-10.8069
而修	-10.8073
此業	-10.8075
總持	-10.8078
何名	-10.8081
即是法身	-10.8083
爾雅	-10.809
楊	-10.8093
不畢竟	-10.8093
攬	-10.8093
祠	-10.8096
彼彼	-10.8096
看	-10.8098
釋名	-10.81
遶	-10.8103
憍尸迦	-10.8103
芭蕉	-10.8104
退失	-10.8105
其色	-10.8105
評	-10.8105
勤精進	-10.8106
結難	-10.8108
卷第三十	-10.8108
能詮	-10.8108
當以	-10.8109
墮三惡道	-10.811
其名	-10.8111
菩薩摩訶薩修大涅槃微妙經典	-10.8111
臭穢	-10.8112
夜叉	-10.8112
我等今者	-10.8114
淨不淨	-10.8116
樂因	-10.8116
▁疏總釋	-10.812
金剛之身	-10.812
次約	-10.8121
同故	-10.8122
電光	-10.8124
惡因	-10.8125
淨心	-10.8129
果地	-10.8129
大機	-10.813
常說	-10.8131
已上	-10.8132
即如來	-10.8132
兩難	-10.8136
四聖諦	-10.8139
相關	-10.8143
波若	-10.8146
非鬼	-10.8147
無明漏	-10.8148
所念	-10.8148
四無所畏	-10.8149
三舉	-10.815
於未來世	-10.8154
無量阿僧祇	-10.8156
弘誓	-10.8157
諸藥	-10.816
大覺	-10.816
行陰	-10.8161
為諸	-10.8167
下第	-10.8171
佛有	-10.8173
行中	-10.8175
若具	-10.818
若諸眾生	-10.818
何等為	-10.8183
斷德	-10.8185
眾生不見	-10.819
律中	-10.8193
妙法	-10.8193
即理	-10.8194
為一雙	-10.8197
死苦	-10.82
食身	-10.8205
偈半	-10.8207
偏圓	-10.8207
邊見	-10.8207
合文	-10.8208
雖聞	-10.8209
來至此	-10.821
三意	-10.8211
發意	-10.8212
三門	-10.8215
體相	-10.8216
▁二又	-10.8216
雖異	-10.8221
即解脫	-10.8229
有自性	-10.8237
等者即	-10.8238
非真實	-10.8239
明常	-10.8239
九種	-10.8239
▁二結	-10.8243
煩惱業	-10.8245
分為二	-10.8246
永無	-10.8246
亮	-10.825
久遠	-10.8254
不因	-10.8256
隨有	-10.8256
有色	-10.8256
令知	-10.8258
亦言	-10.8259
同也	-10.8259
制戒	-10.8261
離陰	-10.8262
時異	-10.8265
列其名	-10.8266
奇	-10.8266
亦不可	-10.827
亦不見	-10.8271
及其	-10.8271
正辨	-10.8271
後分	-10.8273
孫	-10.8275
佛國	-10.8276
先喻	-10.828
饑	-10.8282
入證	-10.8282
奉召	-10.8285
即其義也	-10.8287
荒	-10.8287
怨敵	-10.8287
響	-10.8289
此間	-10.829
臺	-10.8291
論議	-10.8294
作如是說	-10.8294
作是思惟	-10.8295
諍訟	-10.8295
五分	-10.8296
首楞嚴三昧	-10.83
得羅漢	-10.8305
如是我聞	-10.8305
專念	-10.8311
無想天	-10.8313
戒取	-10.8313
理實	-10.8319
修成	-10.8323
經力	-10.8332
於中先	-10.8335
心即	-10.8337
法眼	-10.8341
中作	-10.8343
正理	-10.8346
別說	-10.8346
有道	-10.8348
見其	-10.8351
無諍	-10.8351
故令	-10.8358
若遇	-10.8358
即法身	-10.8362
深義	-10.8367
如來今者	-10.8368
釋論云	-10.8377
涅槃體	-10.8383
後句	-10.8383
餘四	-10.8386
修得	-10.839
可依	-10.8391
得作	-10.8392
無情	-10.8392
吾今	-10.8396
一切聖人	-10.8396
初偈	-10.84
於過去	-10.84
十行	-10.8407
方能	-10.8408
如來不爾	-10.8411
有門	-10.8413
無報	-10.8414
生酥	-10.8416
有滅	-10.8417
重問	-10.8417
我本	-10.8418
即般若	-10.842
則不如是	-10.8421
淨者	-10.8422
中初法次喻後合	-10.8425
言之	-10.8429
晉	-10.843
無受	-10.8434
無信	-10.8435
慧行	-10.8437
象王	-10.8443
而論	-10.8443
慧朗	-10.8445
分文	-10.8446
綿	-10.8447
升	-10.8447
憍	-10.8448
真正	-10.845
鮮	-10.845
注云云者	-10.8451
若云	-10.8452
中論	-10.8455
是等	-10.8456
能自	-10.8457
分之	-10.8458
聲聞辟支佛	-10.8459
尼乾	-10.8459
即離	-10.846
藍	-10.846
縱橫	-10.8461
訛	-10.8461
穿	-10.8462
今但	-10.8462
包	-10.8463
有所得	-10.8465
緊那羅	-10.8465
蚊	-10.8466
無是處	-10.8466
娑羅雙樹間	-10.8469
曜	-10.8471
謂為	-10.8472
錯	-10.8472
莊	-10.8473
刀杖	-10.8474
前三教	-10.8474
哀歎品	-10.8476
迦樓羅	-10.848
嗚呼	-10.8481
戒也	-10.8482
兩偈	-10.8482
辯才	-10.8482
流淚	-10.8483
墮於	-10.8485
阿僧祇劫	-10.8487
三世攝	-10.8488
善思惟	-10.8491
第一義天	-10.8491
其本	-10.8494
不可治	-10.8495
如似	-10.8495
依於	-10.8495
為世	-10.8495
入空	-10.8497
千世界	-10.8498
常無常等	-10.8501
得此	-10.8504
悉為	-10.8505
堅持	-10.8509
大千	-10.8513
邊際	-10.8515
煗法	-10.8518
兩章門	-10.8521
有之	-10.8525
分二	-10.8527
圓極	-10.8528
梵志言	-10.8529
徒眾	-10.8531
是故汝等	-10.8532
眾生悉有佛性	-10.8534
如來出世	-10.8535
四毒蛇	-10.8536
引經	-10.8539
對之	-10.8541
故云非	-10.8542
地上	-10.8548
非諦	-10.8549
悲哀	-10.8549
退轉	-10.855
兩章	-10.8553
二月	-10.8561
大樹	-10.8561
佛乘	-10.8562
真理	-10.8564
非其	-10.8565
得好	-10.8567
此句	-10.8567
勸捨	-10.8568
常以	-10.8569
非諸聲聞	-10.858
眾罪	-10.8581
為答	-10.8583
下彰	-10.8583
復名	-10.8584
不正	-10.8585
舉偈	-10.8589
又問	-10.8594
證實	-10.8594
不了義	-10.8596
以自	-10.8597
三倒	-10.8597
隨義	-10.8599
▁二就	-10.8604
就其	-10.8606
能燒	-10.8612
重惡	-10.8613
什	-10.8614
顯正	-10.8619
第四段中	-10.8619
自見	-10.8628
冤	-10.8636
柔	-10.8639
而彼	-10.8641
自行化他	-10.8643
寂定	-10.8645
慎	-10.8646
威力	-10.8647
牧	-10.8649
善男子譬如有人	-10.8649
寫	-10.8652
蔭	-10.8654
見諸眾生	-10.8654
無量百千	-10.8655
稗	-10.8656
下廣	-10.8658
粟	-10.8659
勒	-10.866
地獄畜生餓鬼	-10.8661
十四音	-10.8663
從於	-10.8664
哀哉	-10.8666
禮敬	-10.8666
汝意若謂	-10.8667
壞滅	-10.8669
若復有人	-10.8669
龍樹	-10.8671
第二段	-10.8673
欲求	-10.8676
無央數	-10.8676
佛力	-10.8678
大身	-10.868
上根	-10.868
不應作	-10.8684
不定故	-10.8685
數人	-10.8686
雷	-10.8686
行善	-10.8686
雖殊	-10.8687
雙林	-10.8688
梵行品	-10.869
為度	-10.8693
不次	-10.8696
說涅槃	-10.8697
無字	-10.8701
還家	-10.8703
菩提道	-10.8705
所得功德	-10.8706
古今	-10.8707
重故	-10.8708
空有	-10.8708
五義	-10.8713
道前	-10.8713
如來性品	-10.8716
善知識者	-10.8716
從因緣	-10.8716
兩番	-10.8718
于時	-10.872
世間法	-10.8723
淨居	-10.8726
能斷善根	-10.8727
不可量	-10.873
即中	-10.8731
滅則	-10.8732
即當	-10.8733
此就	-10.8734
歸依處	-10.8736
不移	-10.8736
但合	-10.8738
心法	-10.874
得須陀洹果	-10.8746
▁初答	-10.8747
別離	-10.8749
亦應有	-10.8752
應說	-10.8757
我我所	-10.8757
五性	-10.8759
苦苦	-10.8762
名通	-10.8763
無定相	-10.8766
名為大	-10.8768
正因佛性	-10.8769
是滅	-10.877
以種種	-10.8772
大王當知	-10.8779
應先	-10.8781
文殊師利言	-10.8784
。」《	-10.8784
涅槃為	-10.8784
此舉	-10.8787
未發心	-10.8791
既盡	-10.8795
有四句	-10.8796
潤生	-10.8798
苦無常	-10.8799
衣食	-10.8802
顯勝	-10.8805
若取	-10.8805
前六	-10.8806
十功德	-10.8806
是故說言	-10.8807
未了	-10.8812
攝一切法	-10.8812
皆從	-10.8813
疑惑	-10.8813
例前	-10.882
不無	-10.882
罰	-10.8821
不污	-10.8825
楚	-10.8825
即事	-10.8826
是處	-10.8827
時王	-10.8828
第二釋	-10.8828
下復	-10.883
勸信	-10.8833
釋前	-10.8834
之罪	-10.8834
陸	-10.8836
說偈言	-10.8837
恥	-10.8838
方乃	-10.8838
於義	-10.8838
一道	-10.884
大眾問品	-10.884
次廣	-10.8841
觀漏	-10.8841
即事而理	-10.8844
方廣	-10.8845
三世有法無有是處	-10.8848
我既	-10.8848
淫	-10.8848
不忘念	-10.8849
近善友	-10.8851
馬鳴	-10.8851
爛	-10.8851
嫉	-10.8851
大梵天王	-10.8852
進退	-10.8852
日光	-10.8852
詶	-10.8853
身子	-10.8854
四結	-10.8855
欺誑	-10.8856
北涼天竺三藏曇無讖譯	-10.8858
五色	-10.8861
來至佛所	-10.8862
等者謂	-10.8863
成熟	-10.8864
i	-10.8865
二用	-10.8869
三世所攝	-10.8869
序品	-10.8874
外有	-10.8879
瞿曇沙門	-10.888
一對	-10.8881
難佛	-10.8882
約法	-10.8883
兩意	-10.8883
與其	-10.8888
隨文	-10.889
小教	-10.8894
是了因	-10.8895
如來如是	-10.8895
常為眾生	-10.8896
但約	-10.8896
諸惡比丘	-10.8897
對辨	-10.8898
此論	-10.8898
今意	-10.8898
罪報	-10.8898
一闡提者	-10.89
末後	-10.8901
全是	-10.8904
為主	-10.8908
是外	-10.8915
臨終	-10.8921
逮得	-10.8922
四相品	-10.8922
次以	-10.8925
法非法	-10.8927
翻名	-10.8928
還以	-10.8932
百福	-10.8934
本際	-10.8938
為汝	-10.894
假我	-10.8941
執有	-10.8944
之緣	-10.8948
而未	-10.895
智德	-10.8951
四部	-10.8956
七事	-10.896
始有	-10.8961
因果性	-10.8961
未入	-10.8962
久已	-10.8965
明此	-10.8969
常有	-10.8973
中夜	-10.8976
釋種	-10.8976
樂想	-10.8979
不過	-10.8982
受我	-10.8983
定業	-10.8986
與之	-10.8987
無動	-10.8989
可壞	-10.899
▁二舉	-10.8992
或是	-10.8999
德也	-10.9009
苟	-10.9018
五眼	-10.902
及一闡提	-10.9022
佛滅後	-10.9022
為師	-10.9024
鳩	-10.9029
甲	-10.9031
斗	-10.9032
泛	-10.9034
辯釋	-10.9035
不但	-10.9035
故不名	-10.9036
同學	-10.9039
偏就	-10.904
營	-10.904
金翅鳥	-10.9041
安眠	-10.9042
瞿	-10.9043
毗曇	-10.9044
教門	-10.9044
無常即常	-10.9046
競	-10.9046
防護	-10.9048
就此	-10.905
炭	-10.9051
已說	-10.9052
非想非非想處	-10.9052
城邑	-10.9052
色力	-10.9053
聞是語已	-10.9053
言教	-10.9054
拔濟	-10.9054
不明	-10.9054
忽然	-10.9056
憶想	-10.9056
豈同	-10.9056
短壽	-10.9057
菩薩摩訶薩修大涅槃	-10.9058
我於一時	-10.9059
陰身	-10.9059
下喻	-10.906
往至佛所	-10.9063
下根	-10.9065
純陀品	-10.9065
所緣	-10.9068
地者	-10.907
說是偈	-10.907
無數劫	-10.9072
不得名	-10.9074
第四段	-10.9074
功德成就	-10.9077
生報	-10.9078
威儀具足	-10.9079
三難	-10.9084
即滅	-10.9089
於無量阿僧祇劫	-10.9094
而已	-10.9094
生死中	-10.9104
而住	-10.9104
智臣	-10.9105
下別釋	-10.9111
諸眾生等	-10.9112
理事	-10.9115
四兵	-10.912
為利養故	-10.9122
經意	-10.9129
起發	-10.9129
行相	-10.913
象馬	-10.9132
名為見	-10.9132
下合譬	-10.9135
食之	-10.9135
愁憂	-10.9136
中人	-10.914
一部	-10.9146
下出	-10.9146
妙義	-10.9146
亦得名為	-10.9148
用者	-10.9151
即入	-10.9156
圓修	-10.9156
無量世	-10.9158
我想	-10.917
何以故下	-10.9172
三十四問	-10.9173
義當	-10.9176
品云	-10.9177
真應	-10.9177
速往	-10.9181
全無	-10.9188
先後	-10.919
治者	-10.919
定也	-10.9191
四無礙	-10.9191
時彼	-10.9193
不畜	-10.9198
實行	-10.9201
法無礙	-10.9201
總標	-10.9202
四王	-10.9211
上句	-10.9211
漏盡	-10.9211
益也	-10.9213
因生	-10.9214
於大乘	-10.922
途	-10.9221
諸句	-10.9227
搆	-10.923
檢	-10.923
或有眾生	-10.923
及佛	-10.923
以論	-10.9232
他云	-10.9233
阿鼻	-10.9234
氷	-10.9235
即三而一	-10.9238
叢林	-10.9239
常與無常	-10.9239
菴羅	-10.9239
驚怪	-10.924
巳下	-10.9242
邪我	-10.9243
焦	-10.9243
嶮	-10.9245
快哉	-10.9245
群賊	-10.9246
則不爾	-10.9246
□□	-10.9246
無明為	-10.9247
翅	-10.9247
幡	-10.9248
那忽	-10.9248
為言	-10.9249
二地	-10.9251
能信	-10.9253
未達	-10.9253
怨賊	-10.9257
誹謗正法	-10.9258
唯願大王	-10.9264
曉了	-10.9265
出離	-10.9266
生歡喜	-10.9266
不免	-10.9267
何等為五	-10.927
名分別答	-10.927
勝負	-10.9272
水草	-10.9275
有作	-10.9276
不得自在	-10.9279
決定說	-10.9283
十誦	-10.9288
理無	-10.9289
結使	-10.9291
唯願世尊	-10.9293
持犯	-10.9296
中根	-10.9307
除愈	-10.931
此即第一	-10.931
常無	-10.9312
如本	-10.9313
遍知	-10.9317
能離	-10.9321
作罪	-10.9323
非大涅槃	-10.9324
示義	-10.9327
毀戒	-10.9327
復云	-10.9332
名異	-10.9334
既自	-10.9336
二智	-10.9337
夢中	-10.9341
以何	-10.9344
總釋	-10.9347
勸請	-10.9347
化人	-10.9351
為度眾生	-10.9352
塵垢	-10.9356
善護	-10.9358
云何復言	-10.9358
友	-10.9363
誰有	-10.9363
空是	-10.9366
則見	-10.937
永盡	-10.9374
▁二正答	-10.9379
顯今	-10.938
一切人	-10.9381
而般涅槃	-10.9381
發聲	-10.9381
▁二約	-10.9383
若因	-10.9385
以證	-10.9385
即常	-10.9385
樂說	-10.9386
先總	-10.9387
歸命	-10.9391
施食	-10.9395
自說	-10.9396
牒問	-10.9396
不欲	-10.9398
大神通	-10.94
引昔	-10.94
深密	-10.9406
破也	-10.9407
大會	-10.941
之疑	-10.941
非倒	-10.9412
露	-10.9415
戒體	-10.9421
逢	-10.9427
▁三釋	-10.9429
滅壞	-10.9429
雞	-10.943
拔苦	-10.9433
化佛	-10.9434
憎	-10.9437
論其	-10.9438
非想非非想	-10.9439
傾	-10.9441
是以言	-10.9443
離煩惱	-10.9444
餓	-10.9444
倡	-10.9445
能通	-10.9445
皆無	-10.9445
復次善男子譬如	-10.9446
牧牛	-10.9447
皆言	-10.945
而云	-10.9452
沈沒	-10.9452
無常苦空無我	-10.9454
▁初示	-10.9454
伽陀	-10.9454
目犍連	-10.9456
溺	-10.9456
不果所願	-10.9457
顧命	-10.9461
得善	-10.9462
成上	-10.9462
解脫處	-10.9463
得稱	-10.9466
默然不受	-10.9467
頭面作禮	-10.9469
經本	-10.9472
真身	-10.9473
會疏	-10.9474
空三昧	-10.9474
求索	-10.9475
道果	-10.9477
悟道	-10.9481
今從	-10.9482
不淨觀	-10.9486
故佛	-10.9488
欲為	-10.9489
舉昔	-10.9494
覺悟	-10.9495
後五	-10.9497
無常無我	-10.9499
之功	-10.9499
▁初唱	-10.9503
▁初正明	-10.9504
體非	-10.9505
善五陰	-10.9508
眼根	-10.9509
總非	-10.9513
亦見	-10.9513
有真	-10.9525
一切外道	-10.9526
各自	-10.9528
增過	-10.9532
醉人	-10.9533
經書	-10.9534
忘失	-10.9535
涅槃果	-10.954
三時	-10.9543
用之	-10.9548
第三人	-10.955
有多	-10.9556
此據	-10.9563
中又二	-10.9566
持法	-10.9569
更生	-10.9571
後邊	-10.9579
見也	-10.9579
天者	-10.9583
下第三結	-10.9586
▁二論義	-10.9587
經旨	-10.9587
希	-10.959
諦者	-10.9592
助道	-10.9595
四弘	-10.9597
何法	-10.9598
恒河沙等	-10.9599
度眾生故	-10.96
云何得名	-10.9601
念慧	-10.9601
舉體	-10.9603
聲光	-10.9606
無染	-10.9607
不差	-10.9607
悉知	-10.9608
藏教	-10.9609
當作	-10.961
能破煩惱	-10.9613
亦作	-10.9615
受果	-10.9617
▁初敘意	-10.9619
要當	-10.962
何有	-10.9622
下廣釋	-10.9623
前言	-10.9625
理體	-10.9629
位中	-10.9632
即此	-10.9634
之主	-10.9636
涼	-10.964
淵	-10.9641
故名為大	-10.9641
為內	-10.9642
津	-10.9644
俱名	-10.9647
蕩	-10.9649
毘舍	-10.9649
鑽	-10.9649
陋	-10.965
置答	-10.9652
常樂等	-10.9652
不聞而聞	-10.9652
鳴	-10.9654
四姓	-10.9658
七覺	-10.9658
佛與	-10.9658
奴	-10.9659
各相謂言	-10.9661
斧	-10.9662
死屍	-10.9664
復能	-10.9665
為物	-10.9667
遵	-10.9669
十號	-10.9669
淨名云	-10.9675
法施	-10.9678
可信	-10.968
一切眾	-10.9682
合云	-10.9689
恭敬供養	-10.9691
歎教	-10.9692
不可斷	-10.9696
經家	-10.9698
二文	-10.97
開權	-10.9706
外空	-10.9707
華果	-10.9707
亦無有	-10.9708
凡有二種	-10.9708
令出	-10.9708
諸佛之	-10.9711
是故為常	-10.9712
迦葉白下	-10.9718
婬欲	-10.972
非善	-10.972
聽畜	-10.972
無心	-10.972
無累	-10.9721
深樂	-10.9731
樂故	-10.9731
於今	-10.9731
阿羅漢果	-10.9732
願力	-10.9734
能調	-10.9735
為化	-10.974
如止觀	-10.9742
兩種	-10.9744
義說	-10.9747
此兩	-10.9749
觀法	-10.9749
江河	-10.9749
無分	-10.9753
摩耶	-10.9754
定意	-10.976
心識	-10.9762
羞	-10.9764
向云	-10.9772
弘經	-10.9772
色是無常	-10.9774
毀禁	-10.9776
今亦	-10.9776
德王品	-10.9781
本自	-10.9781
無變	-10.9783
真道	-10.9784
初正	-10.979
不能分別	-10.9791
如燈	-10.9791
正在	-10.9797
想倒	-10.98
六通	-10.9801
法緣	-10.9813
香氣	-10.9813
中有五	-10.9813
亦斷	-10.9816
三一	-10.9823
不見性	-10.983
生樂想	-10.983
不調	-10.9833
感應	-10.9834
餘法	-10.9839
無為法	-10.9841
於後	-10.9842
等相	-10.9842
廣答	-10.9848
邪常	-10.9849
眾生故	-10.9849
二師	-10.985
晨朝	-10.985
是故不得	-10.9851
是名中道	-10.9852
泯	-10.9855
為名	-10.9855
穴	-10.9856
能成	-10.9857
誘	-10.9858
遠離一切	-10.9858
辱	-10.9859
空義	-10.9859
大迦葉	-10.986
漫	-10.986
弗	-10.9863
諸病	-10.9863
饑渴	-10.9863
修苦行	-10.9863
貝	-10.9864
不念	-10.9865
下廣顯	-10.9865
無退	-10.9865
八味	-10.9866
瑕	-10.9868
夭	-10.9869
奇特	-10.987
變為	-10.9872
圍	-10.9872
屋宅	-10.9874
悲泣	-10.9875
朽	-10.9876
鬪諍	-10.9876
逼切	-10.9877
詣佛	-10.9879
以不	-10.9879
彰彼	-10.9879
不可聞	-10.988
慈愍	-10.988
奉持	-10.988
祇陀	-10.988
▁初番	-10.9882
常行	-10.9882
四行	-10.9882
喻真解脫	-10.9883
下云云者	-10.9883
為第一	-10.9884
正言	-10.9885
▁二番	-10.9885
授記	-10.9885
雖念念滅	-10.9888
若生	-10.9888
中品	-10.9888
自稱	-10.9889
惟願如來	-10.9893
寧得	-10.9894
驗知	-10.9897
言語	-10.9899
眼目	-10.9902
赤色	-10.9902
二語	-10.9903
勸也	-10.9909
以能	-10.991
大樂	-10.991
磨滅	-10.9913
是誰	-10.9914
數息	-10.9916
前兩	-10.9923
甚多	-10.9924
因人	-10.9926
為小	-10.9927
亦無所	-10.9929
法華云	-10.993
正取	-10.9941
而為說法	-10.9941
通舉	-10.9942
前一	-10.9942
前七	-10.9943
憂苦	-10.9946
要因	-10.9946
諸過	-10.9949
而言之	-10.9951
施化	-10.9952
我當云何	-10.9955
一佛	-10.9958
非我弟子	-10.9959
佛心	-10.996
月喻	-10.9962
非虛妄	-10.9962
無厭	-10.9963
不隨	-10.9965
本為	-10.9966
度生死	-10.9966
能證	-10.9968
性理	-10.9968
正直	-10.9969
亦於晨朝	-10.997
是佛境界	-10.9971
極愛	-10.9972
遮止	-10.9977
主人	-10.9981
合成	-10.9982
反顯	-10.9989
去住	-10.9989
如須彌山	-10.9993
覺了	-10.9995
即上	-10.9996
上首	-11.0006
安樂性	-11.0006
召請	-11.0008
受於	-11.0011
說其	-11.0021
珍	-11.0026
他土	-11.0031
次佛答	-11.0034
嘆其	-11.0034
相續不斷	-11.0034
人謂	-11.0036
所逼	-11.0037
難辭	-11.0037
丈	-11.0038
即開	-11.0043
空空空	-11.0048
由於	-11.0052
亦不能	-11.0053
別也	-11.0053
月光	-11.0054
證果	-11.0058
答初問	-11.0058
展轉相	-11.0059
是故得名	-11.006
重復	-11.0061
一色	-11.0061
皇	-11.0064
今問	-11.0065
當其	-11.0065
眾生壽命	-11.0067
所有眾生	-11.0069
豫	-11.007
師子王	-11.0071
第二論義	-11.0071
二根	-11.0072
師長	-11.0073
時中	-11.0075
譽	-11.0076
巨	-11.0076
育	-11.0077
標釋結	-11.0078
弓	-11.0079
進趣	-11.0081
正使	-11.0081
茂	-11.0082
邪惡	-11.0083
觀苦	-11.0083
大般泥洹	-11.0084
菩薩不爾	-11.0084
嗅	-11.0086
鉤	-11.0086
無我者	-11.0088
五逆罪	-11.0088
田宅	-11.0091
王者	-11.0093
星宿	-11.0093
空無所有	-11.0095
為利養	-11.0096
納衣	-11.0097
頗梨	-11.0097
慰喻	-11.0097
周匝	-11.0099
邪曲	-11.0101
靈味	-11.0101
能遮	-11.0103
聖行品	-11.0106
佛告純陀	-11.0106
相從	-11.0107
俱舍	-11.0109
了達	-11.0109
改悔	-11.0111
瘡疣	-11.0116
迦葉領解	-11.0118
得差	-11.0118
一性	-11.0119
分果	-11.0123
利益眾生	-11.0124
破有	-11.0126
於上	-11.0127
圓義	-11.0129
初教	-11.0134
後得	-11.0135
汝諸比丘	-11.0137
若我弟子	-11.0139
十信	-11.0141
如子	-11.0143
巳去	-11.0147
遙見	-11.0149
說文	-11.0149
向佛	-11.0155
如是之義	-11.0155
五見	-11.0155
佛涅槃	-11.0157
見於佛性	-11.0161
無終	-11.0165
由前	-11.017
第二問	-11.0175
一切佛法	-11.0177
有去來	-11.0179
正當	-11.0181
知我	-11.0181
十使	-11.0182
見月	-11.0184
無殊	-11.0186
無明愛	-11.019
有智	-11.0201
巳來	-11.0201
病也	-11.0202
我慢	-11.0204
滅道	-11.0204
既爾	-11.0209
弘法	-11.021
從前	-11.0212
子想	-11.0214
不修身	-11.0216
以表	-11.0218
所度	-11.022
請佛住	-11.0225
無為空	-11.0228
乃知	-11.0229
金剛心	-11.0231
下明佛	-11.0232
愛著	-11.0234
本具	-11.0234
有餘無餘	-11.0235
淨信	-11.0239
下明今	-11.0244
如幻化	-11.0245
阿那含人	-11.0246
巳有	-11.0248
滅巳	-11.0254
愛心	-11.0256
即問	-11.0257
知已	-11.0257
相與	-11.0257
未明	-11.026
現文	-11.0262
中道也	-11.0264
不曉	-11.0264
大事	-11.0265
三趣	-11.0267
是權	-11.0275
不能破	-11.0282
當相	-11.0284
參	-11.0285
三聚	-11.0288
故下文言	-11.029
一境	-11.029
哭	-11.029
斬	-11.0291
悶	-11.0292
諸相	-11.0292
無物	-11.0293
逗	-11.0294
筆	-11.0294
當知即是	-11.0295
張	-11.0295
賞	-11.0298
今佛	-11.03
織	-11.0302
休	-11.0304
徐	-11.0305
來至我所	-11.0305
無始無終	-11.0306
銅	-11.0307
鬱	-11.0307
佗	-11.031
猪	-11.031
譬如虛空	-11.0314
挍	-11.0314
箜篌	-11.0314
袈裟	-11.0315
生悔心	-11.0315
望前	-11.0317
得壽命長	-11.0317
四字	-11.0317
從戒	-11.0318
化物	-11.0319
之惡	-11.0319
匝	-11.032
如前記	-11.0321
即具	-11.0321
墮落	-11.0322
神通變化	-11.0323
摩訶摩耶	-11.0324
到彼	-11.0324
支節	-11.0325
觀慧	-11.0325
報因	-11.0326
易見	-11.0326
出世法	-11.0326
述其	-11.0327
充足	-11.0331
以標舉	-11.0332
凡愚	-11.0332
生空	-11.0334
第二人	-11.0335
來詣佛所	-11.0336
與汝	-11.0339
山林	-11.034
正受	-11.0341
先解	-11.0342
一途	-11.0342
未顯	-11.0344
觀色	-11.0347
以佛神力	-11.0349
冥真	-11.0351
消文	-11.0352
共成	-11.0353
密教	-11.0353
如是等人	-11.0356
而出	-11.036
何故如來	-11.0362
三根	-11.0363
先破	-11.0367
今涅槃	-11.0367
為阿耨多羅三藐三菩提	-11.0368
由心	-11.0369
眾寶	-11.0374
教修	-11.0377
知佛性	-11.0378
此經中	-11.0379
已滅	-11.0379
便應	-11.0381
故偏	-11.0382
火滅	-11.0383
所奉	-11.0384
樂也	-11.0385
等事	-11.0388
且舉	-11.0389
真偽	-11.0391
我相	-11.0392
以來	-11.0396
是經典	-11.0397
易解	-11.0397
不知如來	-11.0411
後報	-11.0414
勸人	-11.0415
教化眾生	-11.0418
我先	-11.0422
具說	-11.0423
辟支	-11.0426
得無漏	-11.0428
善趣	-11.0428
第十一	-11.0428
不會	-11.0429
遠近	-11.0433
生愛	-11.0434
心神	-11.0434
生巳	-11.0435
四生	-11.0435
前中初先	-11.0439
名之	-11.0439
長大	-11.0444
種善根	-11.0444
如經中說	-11.0445
色香	-11.0446
今世	-11.0449
直以	-11.045
二品	-11.046
違經	-11.0462
名為解脫	-11.0463
供養佛	-11.047
受法	-11.047
顯中道	-11.0474
可生	-11.0475
我巳	-11.0484
隨其所	-11.0486
等一	-11.0487
不消	-11.0489
不如是	-11.049
樹林	-11.0494
入大涅槃	-11.0497
行業	-11.05
盈	-11.0504
是法身	-11.0504
頃	-11.0504
崇	-11.0513
性體	-11.0513
啟請	-11.0514
水性	-11.0514
危	-11.0518
率	-11.0522
生死苦	-11.0523
冶城	-11.0523
大捨	-11.0524
役	-11.0525
當得阿耨多羅三藐三菩提	-11.0525
能分別	-11.0526
良田	-11.0526
飽	-11.0526
若具應言	-11.0527
起見	-11.0528
汁	-11.0528
安穩	-11.0529
祿	-11.053
䟦	-11.053
慇懃	-11.053
縣	-11.0532
甞	-11.0533
丘	-11.0533
無量諸佛	-11.0533
鷲	-11.0533
現見	-11.0533
脂	-11.0534
窟宅	-11.0534
躡	-11.0534
盧	-11.0535
燸	-11.0537
娑羅雙樹	-11.0537
鷄	-11.0538
出生死	-11.0538
觀也	-11.0539
無常苦無我	-11.0541
色性	-11.0542
如是菩薩	-11.0543
炬	-11.0544
兔	-11.0544
百歲	-11.0544
辨之	-11.0547
殿	-11.055
迦葉先問	-11.0551
奢摩他	-11.0551
逆流	-11.0552
雖有佛性	-11.0555
首楞嚴定	-11.0562
不待	-11.0563
光照	-11.0564
相似法故	-11.0566
文句	-11.0566
六番	-11.0567
身色俱空	-11.0569
異義	-11.057
各執	-11.0573
或可	-11.0574
若此	-11.0574
悉有佛性	-11.0575
自滅	-11.0576
反問	-11.0576
婆沙	-11.0577
今復	-11.0577
三千大千世界所有	-11.0577
上言	-11.0578
以是義下結	-11.0578
先就	-11.0579
常住無變	-11.0579
能破壞	-11.0581
中句別有	-11.0584
小果	-11.0585
猛火	-11.0586
以辨	-11.0586
棄捨	-11.0588
如是等物	-11.059
離車	-11.0592
善權	-11.0592
生死無常	-11.0595
繫屬	-11.0595
能救	-11.0597
雖多	-11.0601
善因	-11.0604
初發	-11.0604
義通	-11.0608
下簡	-11.0612
方知	-11.0613
汝可	-11.0618
攝一切	-11.0618
罪福	-11.0618
今為	-11.0621
假設	-11.0622
苦故	-11.0623
無漏果	-11.0623
空行	-11.0624
如金剛	-11.0627
畢竟涅槃	-11.0628
六十二	-11.0628
不善思惟	-11.0628
佛昔	-11.0629
三釋義	-11.0629
答第三	-11.0632
散心	-11.0634
二家	-11.064
其過	-11.0644
則不名	-11.0654
是故我言	-11.066
異物	-11.0664
長壽品	-11.0669
凡夫人	-11.0669
為第一義	-11.0671
初正答	-11.0676
似如	-11.0678
六人	-11.0679
大醫	-11.0679
甘露味	-11.0681
是定	-11.0684
不發	-11.069
與諸	-11.0692
世流布	-11.0696
悲喜	-11.0699
色像	-11.0704
服乳	-11.0704
離一切	-11.0705
則不生	-11.0711
難云	-11.0711
修習道	-11.0712
五眾	-11.0712
後解	-11.0712
次句	-11.0714
今已	-11.0716
常耶	-11.072
名善知識	-11.0723
大功德	-11.0724
令入	-11.0727
正請	-11.0728
即假	-11.073
十二字	-11.073
無去	-11.0734
香象	-11.0738
請也	-11.0741
旋	-11.0742
終不能	-11.0742
以手	-11.0742
常解	-11.0743
之實	-11.0745
斯等	-11.0747
得常	-11.0747
後更	-11.0748
現病	-11.0748
能發心	-11.0749
鶴	-11.0749
我今當	-11.075
無明觸	-11.0751
何由	-11.0752
五識	-11.0756
縷	-11.0756
次難	-11.0756
允	-11.0758
裁	-11.0758
今正是時	-11.076
還歸	-11.076
輒	-11.0761
式	-11.0763
伺	-11.0765
正教	-11.0766
國人	-11.0768
臂	-11.0768
不苦不樂	-11.0769
▁二歎	-11.0769
鴿	-11.0771
一切眾生悉有	-11.0772
大雲密藏菩薩	-11.0773
末代	-11.0773
廣博	-11.0773
吞	-11.0774
約人	-11.0774
篋	-11.0775
莊嚴云	-11.0775
心若常者	-11.0776
跳	-11.0777
祇夜	-11.0779
未來之世	-11.078
故名涅槃	-11.078
今義	-11.0781
吉祥	-11.0781
問之	-11.0781
諸文	-11.0785
佛旨	-11.0785
此閻浮提	-11.0785
面像	-11.0787
段食	-11.0789
先問後	-11.079
所顯	-11.079
一切生	-11.079
第五明	-11.0791
知根力	-11.0792
不通	-11.0796
常教	-11.0796
名號	-11.0797
私云	-11.0797
不墮地獄	-11.0798
初譬中	-11.0804
為我說	-11.0807
親屬	-11.0808
摩尼	-11.0809
無生滅	-11.081
修伽陀	-11.081
通明	-11.0811
二行	-11.0816
除無明	-11.0817
今取	-11.0818
過於	-11.0828
未來有	-11.0829
不可思	-11.083
見佛性故	-11.0831
如是無量	-11.0832
觀解	-11.0834
所照	-11.0835
對於	-11.0836
有頂	-11.0836
如法華	-11.0838
數論	-11.0838
字也	-11.0838
前譬	-11.084
無救	-11.0841
似解	-11.0847
二解一云	-11.0847
不更	-11.086
亦通	-11.086
現滅	-11.0862
疑者	-11.0865
憐愍眾生	-11.0866
梵云	-11.0868
三十心	-11.0868
習學	-11.0869
八不淨	-11.087
多欲	-11.0871
名見	-11.0873
伊字	-11.0874
分別解說	-11.0878
應用	-11.0878
復有比丘	-11.0879
六趣	-11.0885
無限	-11.0885
三領解	-11.089
為外	-11.0893
隨宜	-11.0894
歸佛	-11.0895
是倒	-11.0896
能起	-11.0897
聽我	-11.0897
消經	-11.0897
大雨	-11.09
除煩惱	-11.0902
廣前	-11.0906
之大	-11.0906
捨之	-11.0914
別人	-11.0921
畢竟無	-11.0922
一明如來	-11.0922
體無	-11.0928
又為二	-11.0931
云何下	-11.0937
化益	-11.0942
貪等	-11.0943
一切聲聞	-11.0946
誡聽	-11.0948
護法者	-11.095
聲聞乘	-11.0954
破前	-11.0957
香華	-11.096
十方諸佛	-11.0961
有憂	-11.0962
問答重顯	-11.0968
至佛所	-11.0968
莫不	-11.0972
有犯	-11.0973
無瘡疣	-11.0973
諸如來	-11.0976
奔	-11.0976
方等經典	-11.0976
不生滅	-11.098
履	-11.0983
策	-11.0985
受已	-11.0989
自立	-11.0989
總以結	-11.0991
抄	-11.0991
藥樹	-11.0993
蜂	-11.0996
安慰	-11.0996
迎	-11.0998
虧	-11.1
谷	-11.1
與眾生	-11.1002
▁三明	-11.1002
念念生滅	-11.1002
霧	-11.1003
綺	-11.1003
膏	-11.1004
所歸	-11.1004
倫	-11.1004
毗尼	-11.1005
不久當	-11.1006
孰	-11.1006
勇猛	-11.1006
劍	-11.1006
洗浴	-11.1008
籌量	-11.1008
五名	-11.1008
偷蘭遮	-11.1009
理應	-11.1009
等無有異	-11.1009
不自在	-11.101
伴侶	-11.101
屠	-11.1012
南山	-11.1012
一切諸法皆	-11.1012
出入息	-11.1012
微妙經典	-11.1013
筋	-11.1013
嗜	-11.1015
不妨	-11.1015
如是等輩	-11.1016
蝕	-11.1016
能轉	-11.1017
而諸眾生	-11.1018
邏	-11.102
僕使	-11.102
捉持	-11.102
南本大般涅槃經會疏	-11.1021
觀境	-11.1021
塵勞	-11.1021
廣出	-11.1022
傳云	-11.1022
悔恨	-11.1022
從他聞	-11.1022
非世間	-11.1023
起諍	-11.1023
端嚴	-11.1025
此與	-11.1025
熾然	-11.1026
餘有	-11.1026
非果	-11.1028
得其	-11.1028
有德	-11.1029
三勸	-11.1033
無邊身菩薩	-11.1035
之要	-11.1036
法華玄	-11.1036
思惟其義	-11.1037
即無常	-11.1037
有漏之法	-11.1042
初勸	-11.1042
▁初標示	-11.1043
誰是	-11.1043
釋所以	-11.1043
名稱	-11.1044
高廣	-11.1048
則得安樂	-11.1048
解知	-11.1049
皆是無常	-11.1053
自下第二明	-11.1053
同一佛性	-11.1054
所得福德	-11.1056
於汝	-11.1056
猶如虗空	-11.1057
歎佛	-11.1061
自謂	-11.1061
無上正法	-11.1062
第三段	-11.1062
如來知時	-11.1063
人師	-11.1069
如其不	-11.107
二段	-11.1071
佛德	-11.1074
則通	-11.1074
我知	-11.1077
今時	-11.108
悉是無常	-11.1083
剎那	-11.1088
施設	-11.1089
正路	-11.109
一化	-11.1092
未說	-11.1092
容受	-11.1093
除惑	-11.1095
所失	-11.1098
慳貪	-11.11
今論	-11.1103
使人	-11.1108
護戒	-11.111
頂法	-11.1112
常不變易	-11.1114
不虗	-11.1115
酬其	-11.1115
意根	-11.1116
是常住	-11.1116
而常	-11.1117
通惑	-11.1117
復有四	-11.1119
心念	-11.1122
巳說	-11.1123
後方	-11.1125
深奧	-11.1126
獨處	-11.1127
一塵	-11.1129
是何	-11.1131
深廣	-11.1132
兩人	-11.1133
由佛	-11.1134
所欲	-11.1137
生死河	-11.1137
常住之法	-11.1138
初破	-11.1148
根緣	-11.1148
河沙	-11.115
方法	-11.1151
戒行	-11.1151
約之顯	-11.1152
得安樂	-11.1153
中有一	-11.1156
今答	-11.1159
即應	-11.1162
之前	-11.1162
勤苦	-11.1164
重顯	-11.1165
眾生不解	-11.1167
吾我	-11.1168
能化	-11.1169
分經	-11.1173
不殊	-11.1173
內證	-11.1176
只此	-11.1179
菩薩住	-11.1182
能入	-11.1184
攝法	-11.1186
明闡提	-11.1186
彼云	-11.1189
上生	-11.1189
恭敬禮拜	-11.119
且就	-11.1191
出家人	-11.1191
置之	-11.1192
之稱	-11.1197
爾時大眾	-11.1202
結之	-11.1203
十六心	-11.1204
醫師	-11.1207
一切菩薩	-11.1207
之根本	-11.1208
欲漏	-11.1212
求法	-11.1215
妄心	-11.1217
相隨	-11.1217
報佛	-11.1219
是人雖	-11.1223
癈	-11.1223
更為	-11.1226
大智慧	-11.1227
可救	-11.1228
非唯	-11.1228
擊	-11.1229
其聲	-11.123
贊	-11.1233
剛	-11.1235
席	-11.1235
悕	-11.1239
墨	-11.124
果中	-11.124
膚	-11.1241
上求下化	-11.1241
螫	-11.1242
文為兩	-11.1242
師子吼菩薩言	-11.1243
否	-11.1243
有三意	-11.1244
如來常住不變	-11.1246
崖	-11.1247
紫	-11.1247
菩提涅槃	-11.1248
羸劣	-11.1248
結前生後	-11.1251
之位	-11.1251
煙	-11.1252
衛	-11.1252
擲	-11.1253
軸	-11.1254
十八界	-11.1255
瑞應	-11.1255
廁	-11.1255
▁初引	-11.1256
四月	-11.1258
心懷愁惱	-11.1258
分陀利	-11.1259
爭論	-11.126
莫生	-11.1261
黎	-11.1261
暫出還沒	-11.1262
何故不見	-11.1263
苦等	-11.1263
▁二別	-11.1263
諸餘	-11.1264
如來已	-11.1265
初總示	-11.1265
周旋	-11.1267
若有沙門	-11.127
沈水	-11.1273
悲感	-11.1273
精舍	-11.1274
昔言	-11.1275
舉彼	-11.1276
前起後	-11.1279
殺之	-11.1293
因緣力故	-11.1295
爾時佛告	-11.1295
正命	-11.1295
不忍	-11.1296
譬如國王	-11.13
性常	-11.1301
非本	-11.1302
m	-11.1308
淨天	-11.131
▁初歎	-11.1313
斷諸	-11.1318
至極	-11.1318
空慧	-11.1318
無去來	-11.1319
就後	-11.1322
教人	-11.1323
王今	-11.1324
若無常	-11.1325
故名如來	-11.1326
四依品	-11.1327
對問	-11.133
佛答中	-11.1332
供養如來	-11.1332
辨釋	-11.1339
者只是	-11.134
意如何	-11.1341
見倒	-11.1343
有大威德	-11.1344
初牒	-11.1345
於此處	-11.1349
如是眾生	-11.1349
斷處	-11.1349
如前說	-11.1351
正慧	-11.1351
前白佛言	-11.1353
通示	-11.1353
同名	-11.1354
今我	-11.1356
佛性義	-11.1359
師子吼品	-11.1359
絕名	-11.1365
文廣	-11.1365
常應	-11.1367
不害	-11.1376
是第一義	-11.1378
述意	-11.1379
座上	-11.1381
千萬	-11.1383
之喻	-11.1383
信根	-11.1384
未見佛性	-11.1386
不轉	-11.1387
今開	-11.1389
別中	-11.139
不應說言	-11.1393
而當	-11.1394
經曰	-11.1396
結盡	-11.1396
至佛	-11.1396
菩薩品	-11.1397
兩亦	-11.1399
三十四	-11.14
為他說	-11.1402
總答	-11.1404
受果報	-11.1406
廣宣	-11.1408
無形	-11.1408
入水	-11.1409
性地	-11.1409
極惡	-11.1411
初先正	-11.1411
本處	-11.1422
心得解脫	-11.1423
二鳥	-11.1424
有七種	-11.1429
為用	-11.1429
分舍利	-11.143
境界性	-11.1431
顏	-11.1433
智慧者	-11.1433
遙	-11.1434
皆可	-11.1434
生蘇	-11.1434
闡	-11.1437
二譬	-11.1437
九者	-11.1442
真心	-11.1442
能忍	-11.1443
地已上	-11.1455
不可翻	-11.1456
死想	-11.1458
二依	-11.146
而為上首	-11.1467
無生死	-11.147
嘿	-11.147
斷諸煩惱	-11.1473
梵音	-11.1474
刑	-11.1475
先唱	-11.1477
涅槃是常	-11.1477
開權顯實	-11.1478
恣	-11.148
紹	-11.148
不改	-11.1481
明無我	-11.1482
▁初合	-11.1488
削	-11.1489
朗	-11.1489
次解	-11.149
障法	-11.149
逃	-11.1491
大空	-11.1494
如前釋	-11.1494
不平	-11.1495
狐	-11.1495
先無	-11.1498
伸	-11.1499
頑	-11.1499
圖	-11.15
之失	-11.15
欲問	-11.15
無因果	-11.1502
傾動	-11.1504
億那術百千	-11.1504
百千億	-11.1506
河中	-11.1507
高貴	-11.1507
甚奇	-11.1507
疲	-11.1508
憫	-11.1508
空閑	-11.1508
結示	-11.1508
偈文	-11.1509
作是觀時	-11.151
當知是輩	-11.1512
不常	-11.1512
即從坐起	-11.1512
非物	-11.1513
法味	-11.1515
文中初言	-11.1516
精勤修習	-11.1516
坻	-11.1517
修敬已畢	-11.1517
聰明	-11.1519
句義	-11.1521
但舉	-11.1522
等侶	-11.1525
覆蔽	-11.1525
無辜	-11.1528
是世諦	-11.153
人說	-11.1533
識支	-11.1536
更舉	-11.1536
如師子王	-11.1536
佛性體	-11.1537
屬於	-11.1537
天地	-11.1539
衣鉢	-11.154
第七人	-11.1541
面門	-11.1542
如法住	-11.1543
普照	-11.1543
且置	-11.1546
現用	-11.1547
緣覺所知	-11.1547
多含	-11.1548
略標	-11.1553
亦不定	-11.1553
日出	-11.1554
中道者	-11.1554
實智	-11.1556
未具	-11.1562
辦供	-11.1563
優波	-11.1566
此地	-11.1566
自害	-11.1567
在佛	-11.1571
一子地	-11.1572
來此	-11.1575
正約	-11.1579
成無上道	-11.1579
非色者	-11.1584
釋題	-11.1588
有心	-11.159
則墮	-11.1592
持戒比丘	-11.1597
來問	-11.1599
百八	-11.16
右脇	-11.1602
何別	-11.1602
福盡	-11.1602
顯性	-11.1603
問何故	-11.1604
不得稱	-11.1605
記論	-11.1606
求於	-11.1606
若施	-11.1606
猶在	-11.1608
以況	-11.161
開常	-11.1612
不滿	-11.1613
五住	-11.1616
能知如來	-11.1619
宜應	-11.1619
破我	-11.162
諸臣	-11.1623
第二廣	-11.1628
□□□□□□□□□□	-11.1631
當機	-11.1637
悉共	-11.1637
之徒	-11.164
能增長	-11.1641
悲心	-11.1642
界內外	-11.1642
諸善男子	-11.1643
於戒	-11.1645
起煩惱	-11.1646
眾會	-11.1646
假說	-11.165
雜色	-11.165
義理	-11.1653
九法	-11.1655
既具	-11.166
遠行	-11.1661
不治	-11.1662
結云	-11.1669
觀空	-11.1672
淨淨	-11.1673
驚怖	-11.1677
之聲	-11.1678
之執	-11.168
圓人	-11.1684
未發	-11.1687
不從緣生	-11.1688
但得	-11.1689
攝盡	-11.1692
別歎	-11.1694
六譬	-11.1697
業因	-11.1698
便成	-11.1698
若受	-11.1702
諸方	-11.1703
三三昧	-11.1707
證法	-11.1708
斥他	-11.1708
劫數	-11.1709
既同	-11.1714
不息	-11.1715
所趣	-11.1715
大歡喜	-11.1719
寶物	-11.1721
▁二今明下	-11.1723
佛性非內非外	-11.1726
是智	-11.1728
慧者	-11.1729
頓漸	-11.1731
匿	-11.1734
筏	-11.1738
寡	-11.1738
悞	-11.1739
優劣	-11.174
作菩提因	-11.1741
儒	-11.1742
非內外	-11.1742
膝	-11.1743
竊	-11.1743
地水火風	-11.1744
顯露	-11.1744
斷之	-11.1746
以定	-11.1747
所犯	-11.1748
稻	-11.1752
齎	-11.1752
額	-11.1752
意密	-11.1753
鬘	-11.1755
陶	-11.1755
皆令	-11.1755
常壽	-11.1756
法與非法	-11.1757
有問有答	-11.1757
羅睺	-11.1757
啼泣	-11.1757
妬	-11.1757
牟尼	-11.1757
是真諦	-11.1758
真解脫者則不如是	-11.1759
整	-11.176
不可說言	-11.176
速疾	-11.176
東西	-11.1761
種植	-11.1761
中最	-11.1761
阿耨菩提	-11.1762
摩醯首羅	-11.1762
不惜身命	-11.1762
隨自意語	-11.1762
嬈	-11.1763
胡麻	-11.1763
唯有一子	-11.1764
佛性是常	-11.1764
邑	-11.1765
捨去	-11.1765
甚難	-11.1767
所作已辦	-11.1767
佛號	-11.1767
堅牢	-11.1768
勝三修	-11.1768
即真解脫真解脫者即是如來	-11.1768
提婆達	-11.1768
穀米	-11.1771
士夫	-11.1772
鼠	-11.1772
開敷	-11.1774
八難	-11.1777
所住處	-11.1777
迦葉菩薩言世尊	-11.1778
是故我今	-11.1778
軟語	-11.178
右手	-11.178
偏真	-11.178
平等心	-11.1782
次修	-11.1784
若住	-11.1784
無可	-11.1784
法爾	-11.1785
下合可知	-11.1786
二十四	-11.1789
號哭	-11.1789
物情	-11.1789
報恩	-11.1791
六十二見	-11.1792
愚癡之人	-11.1793
長夜	-11.1793
所污	-11.1796
諸佛世界	-11.1798
即三德	-11.1798
章句	-11.1799
供養恭敬	-11.1799
煩惱者	-11.18
不成就	-11.1801
法藥	-11.1802
王而為上首	-11.1804
無所有處	-11.1805
隨化	-11.1805
遍照	-11.181
長存	-11.1812
法譬合	-11.1815
人情	-11.1815
五德	-11.1819
因果者	-11.1824
結集	-11.1825
欲心	-11.1826
五千	-11.1827
得福	-11.183
聖果	-11.1831
此謂	-11.1831
善巧	-11.1838
必能	-11.184
一切行	-11.1842
正智	-11.1842
如虗空	-11.1842
師子座	-11.1843
故名為常	-11.1844
如是經典	-11.1845
如來正覺	-11.1845
聞佛說	-11.1849
敬重	-11.1851
當言	-11.1852
與奪	-11.1857
所以言	-11.1861
結上	-11.1862
現無	-11.1862
能益	-11.1862
下結成	-11.1863
徵破	-11.1863
則同	-11.1864
第三重	-11.1867
證理	-11.1867
教勅	-11.1868
汝見	-11.1868
唯除菩薩	-11.187
禮佛	-11.1871
名為無常	-11.1876
之我	-11.1877
俱非	-11.1877
不能治	-11.1879
天龍	-11.1879
七句	-11.188
不動地	-11.188
無餘義	-11.188
下釋疑	-11.1881
求有	-11.1882
應同	-11.1889
生怖畏	-11.189
對彼	-11.1892
受其	-11.1892
古師	-11.1897
亦須	-11.1898
不明了	-11.1898
可數	-11.1903
無道	-11.1904
堅實	-11.1904
利益安樂	-11.1906
行因	-11.1906
歷別	-11.1907
道力	-11.1909
所讚	-11.1909
從因生	-11.191
未熟	-11.191
從理	-11.191
權智	-11.1914
告阿難言	-11.1914
世性	-11.1914
偏舉	-11.1917
因緣故生	-11.1919
與上	-11.192
則滅	-11.1929
迦葉等	-11.193
更無異	-11.1934
自言	-11.1934
即中道	-11.1936
則易	-11.1937
稱曰	-11.1938
善本	-11.1938
見此	-11.1944
爾時如來	-11.1944
何益	-11.1946
不習	-11.1947
老病死	-11.1952
然後得	-11.1953
無所不	-11.1955
緣盡	-11.1956
沙門婆羅門	-11.1958
往詣	-11.196
無障礙	-11.1964
能受	-11.1967
其上	-11.1976
諸優婆塞	-11.1981
受人	-11.1981
慰	-11.1984
不謗	-11.1986
戀	-11.1991
空不空	-11.1991
八大人覺	-11.1992
生彼	-11.1993
二舉	-11.1994
德行	-11.1996
所用	-11.1998
才	-11.1999
讖	-11.2
初成	-11.2001
百千萬	-11.2002
又為三	-11.2003
名為菩薩	-11.2004
現果	-11.2006
具十	-11.2009
第二第三	-11.201
繼	-11.201
舉聲	-11.2011
撥	-11.2011
橋	-11.2012
克	-11.2013
突吉羅	-11.2013
唯得	-11.2014
橫竪	-11.2015
熾	-11.2017
駕	-11.2017
革	-11.2017
勉	-11.2019
真實法	-11.202
壓	-11.2021
洹	-11.2021
智者當觀	-11.2022
亦曰	-11.2023
飲酒	-11.2026
調柔	-11.2026
如是一切	-11.2026
損減	-11.2027
亦隨	-11.2027
因滅是色	-11.203
性滅	-11.203
在在處處	-11.203
牛羊	-11.2032
婬女	-11.2033
錢財	-11.2034
無施	-11.2035
從他生	-11.2035
不造	-11.2036
教令	-11.2036
皆歸	-11.2037
能害	-11.2037
立喻	-11.2039
之戒	-11.204
都盡	-11.2043
無上正真道	-11.2044
墮獄	-11.2045
文中先	-11.205
則以	-11.205
失於	-11.2052
又兩	-11.2055
以不見故	-11.2056
遺餘	-11.2057
醫方	-11.206
就文為二	-11.2061
香山	-11.2061
良藥	-11.2067
文中云	-11.2067
無因無果	-11.2069
如海	-11.2069
始自	-11.2074
結業	-11.2075
即顯	-11.2076
在生死	-11.2076
偏據	-11.2077
之日	-11.2079
歸於	-11.208
空解	-11.2081
神變	-11.2082
得人身	-11.2083
示滅	-11.2083
照了	-11.2085
八相	-11.2085
令無	-11.2086
於諸法	-11.2088
滅處	-11.209
在何處	-11.2093
象牙	-11.2096
作善	-11.21
諸山	-11.2104
餘義	-11.2106
十方佛	-11.2108
前喻	-11.2109
觀五陰	-11.211
無比	-11.2111
即出	-11.2113
如來境界	-11.2118
此師	-11.2118
前八	-11.2119
持諸	-11.2121
分得	-11.2122
常理	-11.2122
食已	-11.2122
天身	-11.2123
譬如父母	-11.2125
流出	-11.2132
受學	-11.2134
如來正法	-11.2136
苦滅	-11.2137
此處	-11.2137
何必	-11.2143
中四句	-11.2145
次科	-11.2147
告諸比丘	-11.2157
十萬	-11.2159
三世諸佛	-11.216
成菩提	-11.216
既然	-11.2165
悶絕	-11.2165
即三諦	-11.2171
水火	-11.2175
當時	-11.2178
豪	-11.2183
就明	-11.2184
一千	-11.2187
一異	-11.2188
於如來所	-11.2195
王位	-11.2199
心行	-11.2199
別舉	-11.22
如一子	-11.2201
惑盡	-11.2202
受之	-11.2202
如是之言	-11.2203
巳破	-11.2205
苦味	-11.2205
今在	-11.2208
入中	-11.2209
念法	-11.2216
七譬	-11.2219
次喻	-11.222
還入	-11.2227
先以	-11.2227
無慚愧	-11.2227
有餘涅槃	-11.2229
專心	-11.2229
受五欲	-11.2229
何妨	-11.223
須知	-11.2238
於四諦	-11.2242
不遠	-11.2243
若入	-11.2243
相望	-11.2245
答第二問	-11.2245
彼聞	-11.2248
以大涅槃心修	-11.2253
外計	-11.2261
忻	-11.2263
秀	-11.2264
若解	-11.2265
第十六	-11.2265
不可言	-11.2266
現為	-11.2269
隨我	-11.2269
在地獄	-11.227
次解釋	-11.2272
法服	-11.2274
名字功德品	-11.2274
不縱不橫	-11.2275
約位	-11.2276
無有我	-11.2277
陷	-11.2278
現受	-11.2279
果中說因	-11.2279
註	-11.2279
逼迫	-11.228
販賣	-11.228
攀	-11.2281
有十二	-11.2281
舍衛	-11.2282
多羅樹	-11.2283
迫	-11.2284
湯	-11.2285
犬	-11.2285
嬰	-11.2286
是大涅槃微妙經典	-11.2286
歸戒	-11.2286
牢	-11.2287
深法	-11.2288
囑	-11.2289
毘婆舍那	-11.229
罵辱	-11.229
四緣	-11.229
爪	-11.2293
已有還無	-11.2294
無作無受	-11.2294
唱如是言	-11.2295
五盛陰苦	-11.2296
之流	-11.2298
枝葉	-11.23
救濟	-11.2303
逆順	-11.2303
共貪生	-11.2304
離垢威	-11.2305
某	-11.2305
常即無常	-11.2306
無緣慈	-11.2307
所入	-11.2308
特勝	-11.231
物機	-11.2311
苦本	-11.2312
宿命	-11.2312
持戒者	-11.2313
雖不見	-11.2313
如是安樂亦名涅槃	-11.2313
樹神	-11.2314
雜華	-11.2314
乃說	-11.2314
乃云	-11.2314
我滅度後	-11.2315
若干	-11.2316
故不可說	-11.2316
謗方等經	-11.2316
聲召	-11.2318
昔於	-11.2322
字誤	-11.2322
如是說者	-11.2323
是名知足	-11.2325
汎明	-11.2327
得阿耨多羅三藐三菩提者	-11.2329
雙用	-11.2329
末香	-11.233
後就	-11.2333
無作四諦	-11.2334
出家之人	-11.2344
方言	-11.2345
墮惡	-11.2346
色空	-11.2347
苦痛	-11.2352
又一解	-11.2352
傍論	-11.2353
之報	-11.2355
未久	-11.2356
滅不滅	-11.2357
無親	-11.2358
八戒	-11.236
神明	-11.2363
次何以故下	-11.2364
如來密語	-11.2365
諮受	-11.2367
不立	-11.2367
起卷	-11.2369
初示	-11.237
是義不然何以故	-11.2373
度無極	-11.2373
犯罪	-11.2376
無始空	-11.2377
甚深義	-11.2377
思量	-11.2378
動地	-11.2379
億百千	-11.2381
濕生	-11.2383
其水	-11.2383
大道	-11.2384
空法	-11.2384
十六分	-11.2386
故且	-11.2387
隨俗	-11.2388
現在無	-11.2389
內外空	-11.2389
一切生死	-11.239
之福	-11.2393
下謂	-11.2393
果體	-11.2394
住一劫	-11.2397
斷肉	-11.2398
和上	-11.2399
出三界	-11.2406
無慚	-11.2407
今入涅槃	-11.2409
別解	-11.2411
成就具足	-11.2411
下第三明	-11.2413
十戒	-11.2414
惡獸	-11.2417
不倒	-11.2418
證道	-11.242
聖法	-11.242
不定者	-11.2423
略不論	-11.2426
不知足	-11.243
斥非	-11.2433
惡象	-11.2434
之末	-11.2437
讚問	-11.2439
一音	-11.2442
十地菩薩	-11.2442
娑羅樹	-11.2444
正信	-11.2445
我今已	-11.2445
真寶	-11.2449
身內	-11.2449
對佛	-11.2449
斯乃	-11.2454
非二乘所	-11.2457
知幻	-11.246
其間	-11.246
方所	-11.2461
受教	-11.2465
所疑	-11.2466
即經云	-11.2466
即是解脫	-11.2467
三總結	-11.2467
五陰中	-11.2469
形色	-11.2475
者應云	-11.2478
自地	-11.2479
其母	-11.248
除去	-11.2481
上文云	-11.2482
放光明	-11.2483
此心	-11.2483
因因性	-11.249
起用	-11.249
大施	-11.2493
前人	-11.2495
所因	-11.2499
出沒	-11.2508
初歎	-11.251
先難	-11.251
不顯	-11.2511
多食	-11.2513
昔來	-11.2515
彼國	-11.2516
初中二	-11.2524
下引證	-11.2529
明佛無	-11.2532
之宗	-11.2533
無常苦	-11.2536
為大涅槃	-11.2539
開解	-11.254
𤏙	-11.2541
若一	-11.2541
逝	-11.2543
佛入涅槃	-11.2544
秘密	-11.2545
在胎	-11.2546
魏	-11.2547
乳有酪	-11.2548
音樂	-11.2548
能伏	-11.255
疾病	-11.2551
大婆羅門	-11.2552
文亦	-11.2553
覓	-11.2553
促	-11.2554
覽	-11.2554
瓦	-11.2554
隨自意	-11.2556
談常	-11.2556
大分	-11.2558
伎藝	-11.256
叉	-11.2561
渧	-11.2561
南無	-11.2562
尸波羅蜜	-11.2562
客醫	-11.2564
過去現在未來	-11.2564
斤	-11.2565
寒熱	-11.2565
異見	-11.2565
悲號	-11.2565
秉	-11.2565
二施果報等無差別	-11.2567
醪	-11.2569
憒閙	-11.2571
重難	-11.2571
由是	-11.2573
側	-11.2573
生死即涅槃	-11.2574
闊	-11.2575
是亦不然	-11.2577
金剛三昧亦復如是	-11.2577
中初一	-11.2577
受想行識亦復如是	-11.2577
吾當為汝分別解說	-11.2578
宋代沙門慧嚴等依泥洹經加之	-11.2578
說無量名	-11.2578
論人	-11.2579
啖	-11.2579
非色非非色	-11.258
醜陋	-11.258
後偈	-11.2581
日東天台沙門本	-11.2581
毘尼	-11.2582
震動	-11.2582
阿脩羅	-11.2582
若佛初出得阿耨多羅三藐三菩提	-11.2583
定知無我	-11.2583
寂滅為樂	-11.2584
添	-11.2584
不可依	-11.2584
如乳	-11.2584
浴池	-11.2585
茶毘	-11.2586
作是願	-11.2589
下約顯法	-11.259
受持禁戒	-11.259
右遶三匝	-11.259
毘舍離	-11.2591
無妨	-11.2593
塗香	-11.2593
執小	-11.2594
香木	-11.2596
害父	-11.2596
四章	-11.2597
頓制	-11.26
有譬有合	-11.26
機宜	-11.26
寧非	-11.2601
我今此身	-11.2601
賢劫	-11.2601
或說有	-11.2603
對治故	-11.2604
盛滿	-11.2604
餘方	-11.2604
論家	-11.261
昔為	-11.2612
七支	-11.2618
熙連	-11.2627
之門	-11.2628
利智	-11.2628
滅苦	-11.2633
四偈	-11.2634
大火	-11.2636
通義	-11.2638
若有我者	-11.2639
遺教經	-11.2641
略而不	-11.2641
快說	-11.2641
種種示現	-11.2642
其家	-11.2644
何等四	-11.2644
乖理	-11.2644
之音	-11.2645
求那	-11.2647
轉障	-11.2649
一切苦	-11.2653
為世諦	-11.2656
隨事	-11.2657
無智慧	-11.2657
得報	-11.2658
先勸	-11.266
止悲	-11.2662
持禁戒	-11.2664
惑亂	-11.2665
無我想	-11.2667
二從	-11.2669
下合顯	-11.2671
如來滅後	-11.2673
皆有佛性	-11.2674
遮請	-11.2674
法印	-11.2676
裹	-11.2679
亦異	-11.2682
報果	-11.2682
眾善	-11.2682
行般	-11.2686
消除	-11.2687
豈不	-11.2687
有二解	-11.2689
常念	-11.269
問為二	-11.2691
知諸法	-11.2694
不便	-11.2695
修習智慧	-11.2696
應化	-11.2696
無有差別	-11.2698
彼等	-11.27
通序	-11.2702
斷命	-11.2704
教誡	-11.2704
第十二	-11.2712
下彰其	-11.2712
二十八	-11.2715
念戒	-11.2717
迷悶	-11.2718
雖生	-11.2721
大山	-11.2722
以顯之	-11.2725
佛復告	-11.2731
四悉意	-11.2734
邊無邊	-11.2736
是小乘	-11.2737
除之	-11.2743
現生	-11.2744
次一行	-11.2745
顯理	-11.2748
為欲利益	-11.275
廣如	-11.2751
章中	-11.2756
執無常	-11.2761
稱理	-11.2763
終不為	-11.2769
非現在	-11.277
非未來	-11.277
苦海	-11.2771
佛子	-11.2773
常樂我	-11.2774
度人	-11.2779
菩薩所行	-11.278
空理	-11.2783
是藥	-11.2786
後段	-11.2788
念天	-11.2803
成正覺	-11.2803
光召	-11.2804
眾相	-11.2804
旦	-11.2805
死魔	-11.2806
奪其	-11.2807
開密	-11.2809
道路	-11.2811
蘊	-11.2813
伹是	-11.2818
無極	-11.2821
悉當	-11.2823
且據	-11.2825
無偏	-11.2827
主親師	-11.2831
實理	-11.2831
纖	-11.2832
解脫德	-11.2832
忿	-11.2837
心心數法	-11.2838
上二界	-11.2838
政	-11.2839
勸觀	-11.2841
舉身	-11.2841
請問	-11.2841
先立	-11.2842
好醜	-11.2842
義說為	-11.2842
恃	-11.2844
阿羅漢人	-11.2844
蹈	-11.2845
無非法界	-11.2845
練	-11.2846
八番	-11.2848
惡口	-11.2848
諸比丘等	-11.2848
輔	-11.2849
出過	-11.2849
房	-11.2849
咽	-11.2849
驅遣	-11.285
苦集滅道	-11.285
虛偽	-11.2851
如夢	-11.2852
膩	-11.2853
月愛三昧	-11.2854
滓	-11.2855
燃	-11.2855
人中象王	-11.2856
外化	-11.2857
陣	-11.2857
巨富	-11.2857
標舉	-11.2857
文殊師利法王子	-11.2857
琉璃光	-11.2859
矜	-11.2859
示其	-11.286
諫	-11.286
摩訶衍般泥洹經	-11.286
仲	-11.2861
無際	-11.2862
天中	-11.2863
晉沙門慧嚴慧觀謝靈運重治	-11.2863
能為眾生	-11.2864
敕	-11.2865
彗星	-11.2866
溼	-11.2867
光明遍照高貴德王菩薩摩訶薩	-11.2868
波羅㮈	-11.2868
同於諸行	-11.287
題品	-11.287
如其有者	-11.2872
賈	-11.2872
琉光	-11.2874
是名少欲	-11.2874
牛馬	-11.2875
重請	-11.2876
千倍	-11.2878
六卷云	-11.2878
若過	-11.288
不獨	-11.2883
不曾	-11.2887
善巧方便	-11.2887
入胎	-11.2887
以自在故	-11.2887
潤業	-11.2887
灰斷	-11.2888
全同	-11.289
好惡	-11.2891
隱沒	-11.2891
智度	-11.2892
不關	-11.2893
入無餘	-11.2894
迷悟	-11.2895
百句	-11.2895
能隨問答	-11.2897
合會	-11.2899
真解脫者	-11.2901
受食	-11.2901
佉陀羅	-11.2904
二身	-11.2909
徵起	-11.2909
華嚴云	-11.2909
悔過	-11.291
證信	-11.291
受佛	-11.291
知殺	-11.2913
歡喜踊躍	-11.2913
無慧	-11.2914
告言	-11.2915
聞正法	-11.2915
又二先明	-11.2917
常想	-11.2917
處胎	-11.2918
為諸菩薩	-11.292
帝王	-11.2925
不偏	-11.2927
無目	-11.293
不除	-11.2932
於現在	-11.2933
迷惑	-11.2937
解脫三昧	-11.2939
唯說	-11.2947
皆依	-11.2948
不能發	-11.2948
亦成	-11.295
其所立	-11.2962
妙覺如來	-11.2963
此三千大千世界	-11.2965
即作是念	-11.2966
是名顛倒	-11.297
身密	-11.297
遇緣	-11.2971
長者子	-11.2972
非獨	-11.2973
百二十	-11.2975
作禮	-11.2977
於父母	-11.2978
十句	-11.2986
於正法	-11.2988
安止	-11.2994
▁二然	-11.2995
無作戒	-11.2996
初先法說	-11.2996
四無閡	-11.2997
譯人	-11.2999
等者以	-11.3
第二句中	-11.3001
一解云	-11.3002
辨其	-11.3004
斷善根人	-11.3006
得長壽	-11.3007
還來	-11.3008
自然而	-11.3015
之數	-11.3016
莫作	-11.3019
更說	-11.3022
簡出	-11.3022
不可定	-11.3028
愛樂大乘	-11.3029
若婆羅門	-11.3031
善分別	-11.3032
深智	-11.3037
有我者	-11.3037
欲令眾生	-11.3039
下列	-11.305
當知是等	-11.3051
未證	-11.3052
火燒	-11.3052
有對	-11.3054
得入涅槃	-11.3057
譬顯	-11.306
已斷	-11.3063
勸學	-11.3064
深信	-11.3065
知有我者	-11.3065
之機	-11.3068
無瞋	-11.307
來去	-11.3075
河水	-11.3077
隨文正釋	-11.3084
悉見	-11.3094
入海	-11.31
悉除	-11.31
絲	-11.3101
六難	-11.3101
請如來	-11.3106
殖	-11.3109
反說文	-11.3112
電	-11.3114
服毒	-11.3116
菩薩大士	-11.3119
野干	-11.3122
從因至果	-11.3123
應當如是	-11.3124
知病	-11.3125
康	-11.3126
誨	-11.3126
澤州云	-11.3127
復有諸佛菩薩大雲不退	-11.313
列章	-11.313
按	-11.313
婆私吒	-11.313
二論義	-11.3131
勵	-11.3131
敦	-11.3133
綱	-11.3133
文雖	-11.3133
之見	-11.3134
他經	-11.3134
諸義	-11.3135
扣	-11.3135
多求	-11.3136
慧解脫	-11.3137
紅	-11.3139
粮	-11.3139
凍	-11.3142
華香	-11.3143
債	-11.3144
屍	-11.3144
下就設難	-11.3145
唯此	-11.3145
折伏	-11.3145
橫豎	-11.3147
鎖	-11.3147
五趣	-11.3147
如其無者	-11.3148
凡有五	-11.3148
麗	-11.3149
巳證	-11.315
上地	-11.3152
生大苦惱	-11.3152
聞是事已	-11.3152
毀呰	-11.3152
大般涅槃經卷第	-11.3152
二十五諦	-11.3153
先陀婆	-11.3153
邪業	-11.3153
欝單越	-11.3153
算數	-11.3154
我亦不說	-11.3154
饒益	-11.3154
還生善根	-11.3155
渴乏	-11.3156
通利	-11.3156
娛樂	-11.3158
隨人	-11.3159
文為四一	-11.316
耎	-11.316
雖現	-11.316
為他廣說	-11.3161
坐臥	-11.3162
淨威力士	-11.3163
六味	-11.3164
與上樂	-11.3166
十卷	-11.3166
發誓願	-11.3167
從禪定起	-11.3167
卵生	-11.3168
破外道	-11.3169
之屬	-11.317
沙門那	-11.317
乃可	-11.3175
何因	-11.3176
▁初正答	-11.3177
修八聖道	-11.3177
譬如有王	-11.3178
眾中有	-11.3181
聞思	-11.3183
知眾	-11.3186
猶存	-11.3195
根塵	-11.3196
無有一法	-11.3196
心喜	-11.3196
集眾	-11.3198
漸頓	-11.32
總歎	-11.3202
讚曰	-11.3214
等分	-11.3216
如日	-11.3221
審定	-11.3222
平正	-11.3222
非他	-11.3222
之相也	-11.3225
無量劫來	-11.3226
教授	-11.3231
此亦不可	-11.3231
貪瞋	-11.3232
輪轉生死	-11.3232
自度	-11.3237
十月	-11.3238
證見	-11.3245
過現	-11.3245
正體	-11.3246
無常苦等	-11.3247
名大法師	-11.3248
謂一闡提	-11.325
緣宜	-11.3252
約顯法	-11.3252
皆須	-11.3252
轉變	-11.3253
敘意	-11.3253
億劫	-11.3262
或因	-11.3262
簡異	-11.3263
後念	-11.3269
邪命	-11.3269
却後	-11.3271
無量無邊眾生	-11.3271
正合	-11.3272
過去有	-11.3281
初中先	-11.3282
惡世	-11.3282
城中	-11.3283
生陰	-11.3288
次勸	-11.3297
人天中	-11.3298
結請	-11.3299
耶見	-11.3301
之首	-11.3304
眾生有佛性	-11.3308
不度	-11.3309
在外	-11.3309
真修	-11.3311
未除	-11.3311
愛欲	-11.3312
答前問	-11.3314
名之為常	-11.3316
如是等事	-11.3317
現化	-11.3318
至不至	-11.3325
生梵天	-11.3325
學法	-11.3327
世間之人	-11.333
喜樂	-11.333
五蓋	-11.333
即大涅槃	-11.3332
巳斷	-11.3336
嘆經	-11.3337
正示	-11.334
力大	-11.334
今乃	-11.3346
為諸聲聞	-11.3346
三德涅槃	-11.3351
始得	-11.3357
今就	-11.3357
其始	-11.3361
天神	-11.3363
所縛	-11.3363
昔無常	-11.337
及諸菩薩	-11.337
須彌山王	-11.337
▁初結	-11.3372
毀犯	-11.3373
有量	-11.3375
共俱	-11.3378
善男子如汝所言	-11.3382
須達	-11.339
白王	-11.3393
天主	-11.3395
戒相	-11.3398
不全	-11.3401
六位	-11.3403
不信者	-11.3404
所宜	-11.3406
無量劫中	-11.3409
明觸	-11.3409
不燒	-11.3409
自顯	-11.3409
取滅度	-11.341
照境	-11.341
教主	-11.3411
空觀	-11.3416
令捨	-11.3421
后	-11.3426
償	-11.343
凝	-11.343
阿耨	-11.3434
潛	-11.3435
坦	-11.3435
受想	-11.3435
世事	-11.3435
二十年	-11.3436
異凡	-11.3436
頻	-11.3437
鵝	-11.3438
疏中	-11.344
雄	-11.3441
貿易	-11.3441
余	-11.3442
爽	-11.3443
因中無果	-11.3443
枕	-11.3444
顯了	-11.3445
解苦無苦	-11.3446
八道	-11.3446
下對釋之	-11.3447
非無因	-11.3447
踐	-11.3448
自了	-11.3448
迦葉佛時	-11.3448
先徵後	-11.3448
復有人言	-11.345
慈即如來	-11.345
揣食	-11.3451
隋章安頂法師撰唐天台沙門湛然再治	-11.3451
拙	-11.3452
生惡國	-11.3453
輻	-11.3453
如佛言曰	-11.3453
剃髮	-11.3454
鎌	-11.3454
涅	-11.3454
輕賤	-11.3455
治法	-11.3455
具足無缺	-11.3456
出家學道	-11.3456
伎樂以供養佛	-11.3457
聞法已	-11.3457
貪恚	-11.3457
婦女	-11.3458
先譬後合	-11.3458
汝不應言	-11.3459
珊	-11.346
無罣礙	-11.3461
悕望	-11.3461
𦦨	-11.3461
純分會南本大般涅槃經會疏卷第	-11.3464
熟酥	-11.3464
亦皆	-11.3465
如王所言	-11.3465
蟁	-11.3465
自己	-11.3466
如法華中	-11.3466
下辯其相	-11.3471
不放逸法亦復如是	-11.3471
辭無礙	-11.3472
諸眾生皆有佛性	-11.3473
虛假	-11.3474
八術	-11.3476
之所恭敬	-11.3476
兩舌	-11.3476
何時當	-11.3476
在世	-11.3478
城內	-11.3479
諸陰	-11.348
何關	-11.3481
過去諸佛	-11.3481
下對前	-11.3481
停住	-11.3483
或時說言	-11.3483
身口意業	-11.3486
十方世界	-11.3488
不如一	-11.3488
出家修道	-11.349
終不生於	-11.3492
遣使	-11.3492
果證	-11.3492
比丘僧	-11.3494
凡有三種	-11.3495
弘通	-11.3496
力強	-11.3497
菩提果	-11.3498
例知	-11.3499
斯陀含果	-11.3501
陳如品	-11.3504
親友	-11.3514
三密	-11.3518
悲苦	-11.3519
諸因緣	-11.3522
聖教	-11.3522
往彼	-11.3525
菩薩成就	-11.3525
加水	-11.3528
真珠	-11.3532
十法界	-11.3533
不至至	-11.3537
百論	-11.3539
內外俱	-11.3541
可殺	-11.3542
方便示現	-11.3542
易知	-11.3542
極重	-11.3548
其餘諸	-11.3551
何等為三	-11.3554
畢定	-11.3557
各隨	-11.3558
黃金	-11.3559
群生	-11.356
此計	-11.3564
第二番問答	-11.3568
犯波羅夷	-11.357
契理	-11.3571
觀十二因緣	-11.3573
復與	-11.3575
寶蓋	-11.3578
大龍	-11.3579
破遣	-11.358
異想	-11.358
十義	-11.3582
三號	-11.3586
謗佛	-11.3586
兩門	-11.3591
忉利	-11.3598
增數	-11.3602
一代	-11.3605
第二譬	-11.3609
法身德	-11.3613
消釋	-11.3617
詣佛所	-11.3619
n	-11.3624
識亦復如是	-11.3625
第三問	-11.3626
善性	-11.3633
若殺	-11.3635
亦不離	-11.3639
受快樂	-11.3639
是故比丘	-11.3641
化意	-11.3642
世間虛空	-11.3643
雖云	-11.3644
力用	-11.3647
思議	-11.3647
無有自性	-11.3651
呵其	-11.3655
受陰	-11.3662
之理也	-11.3664
復有無量	-11.3664
福報	-11.3666
普為	-11.3666
諸仙	-11.3666
花香	-11.3668
先教	-11.367
先辨	-11.3672
念僧	-11.3674
小機	-11.3674
高山	-11.3675
遍一切	-11.3679
壞相	-11.368
諸善根	-11.368
退不退	-11.3683
前方便	-11.3686
一物	-11.3686
有為空	-11.3687
諸德	-11.3692
明月	-11.3696
標列	-11.3696
變易生死	-11.3699
常不變	-11.3716
無所得者	-11.3719
當為汝說	-11.3723
下釋經	-11.3724
周徧	-11.3724
次引	-11.3727
別分	-11.3729
譬如長者	-11.3733
第二從	-11.3734
滅沒	-11.3737
坐起	-11.3737
觀機	-11.3738
兩解	-11.3739
淪	-11.3745
掉	-11.3745
今於此	-11.3745
眼等	-11.3746
喧	-11.3746
困	-11.3746
未滅	-11.3747
垢穢	-11.3747
本自有之	-11.3747
舊釋	-11.3748
括	-11.3749
鄭	-11.3751
輪迴	-11.3753
討	-11.3754
幸	-11.3754
不相關	-11.3754
春秋	-11.3757
軀	-11.3758
倉	-11.3759
嗟	-11.3759
空假中	-11.376
喉	-11.376
姊	-11.376
學大乘者	-11.376
牢獄	-11.3761
優鉢羅	-11.3761
虧盈	-11.3761
拍	-11.3761
牛糞	-11.3762
青黃	-11.3762
片	-11.3763
淳	-11.3764
布薩	-11.3764
礦	-11.3764
頂戴	-11.3765
首羅	-11.3766
農夫	-11.3766
澡	-11.3767
羊角	-11.3767
鎧	-11.3768
慄	-11.3769
名第一義空	-11.3769
良福田	-11.377
腦	-11.377
同虗空	-11.377
即於佛前	-11.3772
遇斯光	-11.3772
無明所覆	-11.3773
上來第二	-11.3773
窟	-11.3774
平聲	-11.3775
約對	-11.3776
王即答言	-11.3777
一道清淨	-11.3778
緣覺之人	-11.3779
給施	-11.3779
昔所不聞而今得聞	-11.378
放大光明	-11.3781
所傳	-11.3781
牒上	-11.3783
重擔	-11.3783
s	-11.3783
何意	-11.3784
悉入	-11.3784
平等無二	-11.3785
即從座起	-11.3785
冶城云	-11.3786
自念言	-11.3786
凡夫愚人	-11.3787
欲顯	-11.3787
非短	-11.3788
劫奪	-11.3788
稱美	-11.3788
飯食	-11.3788
當勤精進	-11.3791
若無常者	-11.3791
怪哉	-11.3792
汝自	-11.3793
喜心	-11.3796
金剛身品	-11.3796
如來對破	-11.3797
眾生相	-11.38
得二十五三昧	-11.3805
雙流	-11.3806
迦葉菩薩復白佛言世尊	-11.3808
同類	-11.381
彰已	-11.3811
餘業	-11.3813
純善	-11.3814
不為利養	-11.3817
戒念	-11.3818
兩足	-11.3821
何曾	-11.3822
假實	-11.3823
次正釋	-11.3824
令諸菩薩	-11.3828
稱機	-11.3834
先舉次列	-11.3837
護正法	-11.3838
十恒河沙	-11.3839
尊勝	-11.3839
下劣	-11.384
兜率天	-11.3841
苦治	-11.3843
實無所	-11.3851
常住二字	-11.3853
何事	-11.3856
無盡意	-11.3859
許說	-11.3859
鬼王	-11.386
佛讚迦葉	-11.3861
即世界	-11.3866
心亦如是	-11.387
畢竟清淨	-11.3879
四十九	-11.3883
字本	-11.3884
作是念言	-11.3884
法身常住	-11.3885
義便	-11.3888
各各自	-11.3889
胎生	-11.3892
正宗	-11.3893
善惡業	-11.3893
前中初	-11.3896
乃見	-11.3897
邪執	-11.3898
自餘	-11.3903
諸外道等	-11.3908
正翻	-11.3915
若魔	-11.3921
表常	-11.3928
安心	-11.3929
種種色	-11.3929
同聲	-11.393
絕言	-11.393
業煩惱	-11.3933
句句	-11.3934
機感	-11.3934
若諸外道	-11.3936
中有六	-11.3937
得阿那含	-11.394
辨其相	-11.3943
是自行	-11.3945
供佛	-11.3948
約智	-11.3951
修證	-11.3955
修捨	-11.3958
三衣	-11.3964
不近	-11.3964
竝是	-11.3965
論文	-11.397
故名無常	-11.3975
如是語	-11.3976
八住	-11.3976
非無漏	-11.3981
忍法	-11.3981
不能壞	-11.399
假令	-11.3994
譬如大地	-11.4005
皆成	-11.4008
世樂	-11.4008
前進	-11.4012
不般涅槃	-11.4014
王法門	-11.4022
維	-11.4023
法華疏	-11.4028
失念	-11.403
佛境	-11.4031
妙色	-11.4033
分為三	-11.4037
常淨	-11.4037
終始	-11.4043
上來明	-11.4044
生敬信	-11.4052
先舉二	-11.4053
調心	-11.4063
劫初	-11.4064
瘧	-11.4074
偶	-11.4074
果德	-11.4075
凶	-11.4076
褒	-11.4076
怠	-11.4076
又二初正	-11.4077
刻	-11.4078
苦忍	-11.4078
敬禮	-11.4078
基	-11.4078
彩	-11.408
阿那律	-11.408
能使	-11.408
以為涅槃	-11.4081
剩	-11.4081
伊蘭	-11.4082
下愚	-11.4082
犯重禁	-11.4082
當知是慈是聲聞慈	-11.4082
拘物頭	-11.4084
染淨	-11.4085
諛諂	-11.4085
尼拘陀樹	-11.4085
建大義	-11.4085
互為因果	-11.4087
杌	-11.4087
艸木	-11.4087
消息	-11.4088
金沙	-11.4088
仗	-11.4088
踊躍	-11.4089
養育	-11.4089
畜養	-11.409
是因非果	-11.4092
力士生地	-11.4093
却後三月	-11.4093
昔所不知而今得知	-11.4093
集一切福德三昧	-11.4094
盜賊	-11.4094
尼犍	-11.4094
低	-11.4095
故是無常	-11.4096
剃除鬚髮	-11.4097
哀受我等最後供養	-11.4097
不須修道	-11.4098
以不知故	-11.4098
神呪	-11.4098
湯藥	-11.4098
伽羅	-11.4099
魔王波旬	-11.41
斯陀	-11.4102
涅槃河	-11.4102
方始	-11.4102
是謂人種	-11.4102
三世有法	-11.4102
愛別離苦	-11.4103
出體	-11.4105
珂貝	-11.4105
事火	-11.4105
十二年	-11.4105
須跋陀羅	-11.4106
d	-11.4106
e	-11.4106
維摩	-11.411
真智	-11.411
具足應云	-11.4113
一時佛在	-11.4115
文理	-11.4116
到不到	-11.4116
我今當說	-11.4117
准此	-11.4119
如來今日	-11.412
深重	-11.412
差別之相	-11.4122
菴羅果	-11.4122
隱覆	-11.4123
委悉	-11.4125
自活	-11.4127
復有二人	-11.4128
還同	-11.4129
二恒	-11.413
來意	-11.4132
說此偈已	-11.4135
花果	-11.4139
過未	-11.4139
下次合	-11.4139
理外	-11.4142
天帝釋	-11.4143
流動	-11.4144
廣解	-11.4144
方顯	-11.4145
濁水	-11.4148
凡有三	-11.4148
初文又二	-11.4149
縛著	-11.4152
且止	-11.4156
智力	-11.4158
不容	-11.4159
眾生身中	-11.4161
虛實	-11.4161
問為三	-11.4162
受大苦	-11.4165
徧一切處	-11.4168
圓果	-11.4169
藏法門	-11.4175
第十地	-11.4178
種種說法	-11.4179
器中	-11.4181
第三句中	-11.4182
問意者	-11.4184
無住處	-11.4185
大自在	-11.4187
九句	-11.4197
無有因緣	-11.4199
諸龍	-11.42
簡闡提	-11.4208
無缺	-11.4213
疏記	-11.4215
隨類	-11.4223
故得名	-11.4224
且依	-11.4227
約四教	-11.4228
空聚	-11.4229
神通力	-11.4229
不生生等	-11.4232
甘露法	-11.4234
伹云	-11.4237
受我供	-11.4239
偈答	-11.4245
諸苦惱	-11.4247
羅云	-11.4248
舉數	-11.425
所壞	-11.4251
待對	-11.4252
應迹	-11.4255
略示	-11.426
沙彌	-11.4261
現相	-11.4263
泥曰	-11.4266
重舉	-11.4267
其形	-11.427
寧當	-11.4272
攀緣	-11.4272
何故爾	-11.4277
總合	-11.4278
▁初對	-11.4278
有漏無漏	-11.4279
種類	-11.4283
不漏	-11.429
理顯	-11.429
四面	-11.4291
無有罪	-11.4292
有五句	-11.4296
非直	-11.4296
六萬	-11.4298
能障	-11.4298
千年	-11.43
先結	-11.43
去聲	-11.4304
止其	-11.4309
前九	-11.4313
生死大河	-11.4313
亦常無常	-11.4315
波羅夷	-11.4316
四無礙智	-11.4318
大海水	-11.4319
一章	-11.432
論主	-11.4323
第一義心	-11.4331
日夜	-11.4335
果果性	-11.4342
說文云	-11.4342
者即是佛性	-11.4346
難可得	-11.435
分章	-11.4351
能消	-11.4351
判為	-11.4353
疏釋	-11.4354
當現	-11.4357
立行	-11.4358
天雨	-11.4358
圓機	-11.4359
本空	-11.4361
被破	-11.4364
較	-11.4364
作了因	-11.4369
更不復	-11.4369
就實	-11.4372
此童子	-11.4377
未發心者	-11.438
尸羅	-11.438
初又三	-11.4383
俱盡	-11.4384
於自身	-11.4389
曇濟曰	-11.439
向果	-11.4392
沉	-11.4398
故注云云	-11.4401
紛	-11.4401
迦隣提	-11.4401
嘉	-11.4403
是常住法	-11.4404
怯	-11.4404
渠	-11.4404
精血	-11.4405
明醫	-11.4406
眴	-11.4406
溫	-11.4406
澄	-11.4406
不欣	-11.4406
即體而用	-11.4407
是無常法	-11.4407
駈	-11.4409
雄猛	-11.4411
雀	-11.4411
惡友	-11.4411
庸	-11.4411
廣雅	-11.4413
法同喻	-11.4413
菴	-11.4413
澁	-11.4413
下疏主	-11.4414
先問後辯	-11.4417
掃	-11.4418
卜	-11.4418
雲集	-11.4418
躬	-11.4418
辯其相	-11.4418
蒲	-11.4419
苗稼	-11.4419
徑	-11.442
矟	-11.442
醜	-11.4421
顏貌	-11.4421
貧賤	-11.4421
不得相離	-11.4421
悋	-11.4423
工匠	-11.4424
川	-11.4424
貶	-11.4424
皮肉	-11.4425
浮囊	-11.4425
戒定智慧	-11.4426
示道	-11.4426
哀憫	-11.4427
云何如來說言	-11.4427
反質	-11.4428
祐	-11.4429
衣服飲食	-11.4429
是為四	-11.443
堪忍地	-11.443
峻	-11.443
起塔供養	-11.4433
飛鳥	-11.4435
第三難	-11.4435
須達多	-11.4435
雙亡	-11.4435
乳糜	-11.4436
寢	-11.4436
我諸弟子聞是說巳不解我意唱言如來	-11.4438
仁王	-11.4438
捐	-11.4439
師子吼菩薩言世尊	-11.444
淺近	-11.4443
罪垢	-11.4443
心倒	-11.4444
如上所說	-11.4445
不善業	-11.4446
是故菩薩名無所得	-11.4449
通因果	-11.4454
檀度	-11.4455
云何知耶	-11.4455
善解因緣	-11.4456
當於爾時	-11.4456
巳度	-11.4457
敷演	-11.446
第三總結	-11.446
大般泥洹經	-11.4461
厭患	-11.4463
阿修羅王	-11.4463
得羅漢果	-11.4466
融通	-11.447
遍法界	-11.447
其心平等	-11.4472
一面住	-11.4473
繫念	-11.4473
修慈心	-11.4474
到岸	-11.4477
發迹	-11.4477
起愛	-11.4478
非一切智	-11.4479
諸仁者	-11.448
生老死	-11.448
道聖諦	-11.4491
▁初正示	-11.4492
方成	-11.4493
不擇	-11.4495
實不實	-11.4495
分別廣說	-11.4499
為四依	-11.45
悅樂	-11.4505
邪說	-11.4508
一萬	-11.4509
相似相續	-11.4516
舊師	-11.452
橫死	-11.4521
不雜	-11.4522
所談	-11.4532
復次善男子菩薩摩訶薩	-11.4535
適時	-11.4536
是故應當	-11.4539
婆羅門法	-11.4541
樂緣	-11.4543
無患	-11.4544
涅槃無因	-11.4544
往反	-11.4549
指歸	-11.4549
觀四諦	-11.4549
寂滅樂	-11.455
始末	-11.4553
思想	-11.4554
七八	-11.4558
必由	-11.4561
患苦	-11.4562
非波羅蜜	-11.4567
後身菩薩	-11.4567
一切諸行	-11.4571
所了	-11.4574
慧施	-11.4575
護正法者	-11.4576
今據	-11.4585
聲聞之人	-11.4585
在未來	-11.4589
三藏菩薩	-11.4598
非長	-11.46
身戒心慧	-11.4601
而不知	-11.4601
同事	-11.4604
住於大乘大般涅槃	-11.461
先開	-11.4611
得四無礙	-11.4614
哀請	-11.4615
如芥子	-11.4622
經疏	-11.4622
深解	-11.4635
則見佛性	-11.4644
品初	-11.4644
之迹	-11.4653
信樂	-11.4654
稱意	-11.4668
法雲	-11.4671
倒亂	-11.4675
空無我	-11.4677
辯後結	-11.4678
結緣	-11.4681
風雨	-11.4681
兜率	-11.4685
近遠	-11.4692
利物	-11.4695
蒼	-11.4699
已下合	-11.4701
憂畏	-11.4703
本事	-11.4704
三召	-11.4705
恭	-11.4706
如來法僧	-11.4709
辟支佛等	-11.4709
aṃ	-11.4712
師弟	-11.4719
必定當得	-11.472
七漏	-11.472
無倒	-11.4723
聞香	-11.4724
化主	-11.4728
為人說	-11.4728
敬遺記	-11.4729
諸國	-11.473
工	-11.4731
未曾聞	-11.4731
何故不說	-11.4731
匡	-11.4732
孟	-11.4736
蒙佛	-11.4738
伹有	-11.4738
異色	-11.4739
鈎	-11.4739
當入涅槃	-11.4739
秘	-11.4741
丹	-11.4743
何獨	-11.4744
與他	-11.4749
肩	-11.4749
千億	-11.4749
雖見佛性而不明了	-11.475
先法後喻	-11.4751
盤	-11.4752
灌頂	-11.4752
賓	-11.4753
携	-11.4753
偷狗	-11.4753
舒	-11.4753
高原	-11.4753
受想行識	-11.4755
宰	-11.4756
諮啟	-11.4756
非色非心	-11.4757
謗佛法僧	-11.4757
唱言如來說	-11.4757
鞞	-11.4758
紹繼	-11.4758
若不爾者	-11.4758
偷蘭	-11.4759
卷第四	-11.4759
惟願	-11.4759
虎狼	-11.4759
富蘭那	-11.4762
驅逐	-11.4763
若減一劫	-11.4763
及正解脫	-11.4763
褒貶	-11.4763
阿闍	-11.4764
慚恥	-11.4765
刀劍	-11.4766
醋	-11.4767
能感	-11.4767
捕	-11.4767
下次明其	-11.4767
悼	-11.4768
生死海	-11.4768
第五段	-11.4769
到於彼岸	-11.4769
盈滿	-11.4769
三十六物	-11.477
水陸	-11.4771
俱舍云	-11.4772
未詳	-11.4772
須陀洹果	-11.4772
右脇而臥	-11.4773
佛言善哉善哉善男子	-11.4774
空平等	-11.4775
尼陀那	-11.4775
及其眷屬	-11.4775
爐	-11.4775
難識	-11.4776
其後不久	-11.4777
荼	-11.4777
今明不爾	-11.4777
6	-11.4779
由來	-11.478
下明今釋	-11.4782
惡覺觀	-11.4783
庫藏	-11.4783
金剛不壞	-11.4784
解脫即是如來	-11.4784
病瘦	-11.4786
歸處	-11.4788
十一部經	-11.4789
作是語已	-11.479
汝莫憂悲	-11.479
所供	-11.4794
點示	-11.4794
夫涅槃者	-11.4795
光宅云	-11.4798
癡心	-11.48
甚深之義	-11.4802
先牒問	-11.4804
惱害	-11.4805
紺	-11.4806
三蒼	-11.4807
其土	-11.4807
隨自他	-11.481
不應親近	-11.4811
乳色	-11.4817
摩訶迦葉	-11.4819
奉事	-11.4821
□□□□□□□□□	-11.4822
▁四結	-11.4822
調適	-11.4823
末世	-11.4825
以此善根	-11.4827
佛涅槃後	-11.4831
習行	-11.4832
若有人言	-11.4836
如上說	-11.4838
前中先喻	-11.4847
阿那含果	-11.4852
如世間人	-11.4856
金藏	-11.4857
其父	-11.4863
法句	-11.4869
無所住	-11.4869
涅槃是果	-11.4873
發菩提之心	-11.4873
足滿	-11.4874
互顯	-11.4878
將護	-11.4881
始行	-11.4884
種諸善根	-11.4885
實慧	-11.4889
四依人	-11.489
無酪	-11.4898
譬如金剛	-11.4905
諸天眾	-11.4905
五部	-11.491
小乘中	-11.491
兩番問答	-11.4911
直明	-11.4912
次釋中	-11.4912
初二句	-11.4914
無明闇	-11.4915
作無作	-11.492
無減	-11.492
所列	-11.492
凡小	-11.4921
若准	-11.4927
佛性不斷	-11.4928
趣果	-11.4938
第一句	-11.4939
香味	-11.4943
不斷佛性	-11.4946
不可得見	-11.4946
今始	-11.4951
卷上	-11.4954
不依於	-11.4956
一切知見	-11.496
如是二人	-11.4961
入城	-11.4968
一切諸惡	-11.497
在一處	-11.4994
即是諸佛	-11.5003
如是下結	-11.5008
何故云	-11.5008
無四無礙	-11.5009
問起發	-11.5013
外物	-11.5019
世間不知	-11.5019
猶如大海	-11.502
因有二種	-11.502
感佛	-11.5033
攝受	-11.5033
不厭	-11.5035
所謂佛性	-11.5037
如是展轉	-11.5046
真實義	-11.5053
前句	-11.5055
白色	-11.506
白淨	-11.5066
可治	-11.5067
救義	-11.5074
搖	-11.5074
踊躍無量	-11.5076
商人	-11.5076
大動	-11.508
名曰無常	-11.5085
釋梵	-11.5085
說妙法	-11.5086
勸供養	-11.5089
少異	-11.5091
灼	-11.5092
煩惱河	-11.5093
貴賤	-11.5093
僕	-11.5095
籠	-11.5098
復告阿難	-11.5098
佛性有無	-11.5098
受三歸	-11.5101
節節	-11.5101
伎	-11.5104
植	-11.5104
編	-11.5106
乃得安隱眠	-11.5106
卷第三	-11.5106
具煩惱性	-11.5108
貯	-11.5108
禽獸	-11.5108
欽	-11.5108
四十里	-11.5111
同於子想	-11.5112
深坑	-11.5112
稚	-11.5112
齊等	-11.5113
酵	-11.5115
環	-11.5115
罷	-11.5116
慈悲喜捨	-11.5117
牛食	-11.5117
名第一義諦	-11.5118
二鳥雙遊	-11.5119
毗舍	-11.5119
選擇	-11.5119
柳	-11.5119
戮	-11.512
旱	-11.512
從淺至深	-11.512
映	-11.5121
略而不合	-11.5121
耕	-11.5121
範	-11.5121
諸佛法爾	-11.5121
團	-11.5121
諸比丘言	-11.5121
六塵惡賊	-11.5122
仙豫	-11.5122
十一部	-11.5123
犢	-11.5123
妹	-11.5123
休息	-11.5124
不得解脫	-11.5124
暴風	-11.5124
耆婆答言	-11.5125
不可稱量	-11.5125
優陀那	-11.5125
毘伽羅論	-11.5126
奇哉	-11.5126
如佛先說	-11.5126
我與無我	-11.5128
三世不攝	-11.5129
遷變	-11.5129
五分法身	-11.5129
當爾之時	-11.513
最為殊勝	-11.513
哽咽	-11.513
端坐	-11.5131
却後三月當般涅槃	-11.5131
樂說無礙	-11.5131
次番	-11.5131
最為第一	-11.5132
無量無邊阿僧祇	-11.5132
迦毘羅城	-11.5132
林中	-11.5132
奉獻	-11.5134
廣為人說	-11.5134
錯謬	-11.5135
閒	-11.5135
即其人也	-11.5135
萬八千	-11.5136
命終之後	-11.5136
得生天	-11.5138
四部眾	-11.5138
為護法故	-11.5139
阿須倫	-11.5139
云何得長壽	-11.5139
汝等今者	-11.514
廣行流布	-11.5141
豈能	-11.5141
塵土	-11.5142
魚肉	-11.5143
復有二種一者	-11.5144
▁初分科敘意	-11.5145
如來證涅槃	-11.5145
所不能及	-11.5147
形貌	-11.5148
無常苦空	-11.5148
良師	-11.5149
毒草	-11.5152
語勢	-11.5154
熱惱	-11.5155
微少	-11.5155
不可破壞	-11.5157
今以何故	-11.5159
金翅鳥王	-11.5159
心大歡喜	-11.5164
居家	-11.5167
開化	-11.5167
生死之中	-11.517
破空是	-11.517
修無常想	-11.5171
假緣	-11.5172
不從因生	-11.5174
利刀	-11.5175
所得果報	-11.5177
惡鬼	-11.5185
卷第一	-11.5187
迦葉白佛去	-11.5189
如下文說	-11.519
餘文	-11.5192
論人云	-11.5199
根力	-11.521
爾時童子	-11.5218
無量無量	-11.5223
供養父母	-11.5227
大莊嚴	-11.5229
故法華云	-11.523
嚴淨	-11.5231
五旃陀羅	-11.5232
諸惑	-11.5232
所有佛性	-11.5234
常寂	-11.5235
如旃陀羅	-11.5236
從佛聞	-11.5253
寶城	-11.5256
何等為二	-11.5259
思食	-11.5261
第二舉	-11.5264
結嘆	-11.527
答為二	-11.5272
有羞	-11.5273
說呪	-11.5274
十秊	-11.5278
徵文	-11.5288
互舉	-11.5289
▁二解釋	-11.5295
慈念	-11.5295
因果俱	-11.5297
先舉後	-11.5301
速滅	-11.5302
如轉輪王	-11.5303
若有修習	-11.5304
一一分別	-11.531
舉三譬	-11.5321
斷無明	-11.5327
亂心	-11.5333
本誓	-11.5336
不聞聞等	-11.5337
如淨名	-11.5337
種種分別	-11.5338
無受者	-11.5342
是色法	-11.5343
集因	-11.5346
卷第二	-11.5349
久巳	-11.5353
八部	-11.5354
提婆	-11.5354
最妙	-11.5362
聖位	-11.5363
譬如日出	-11.5364
初轉法輪	-11.5366
▁二問答	-11.5383
三重明	-11.5384
大旨	-11.5386
五篇	-11.5389
不值	-11.5393
釋妨	-11.5396
佛告諸比丘	-11.5398
徵責	-11.5399
六年	-11.541
諸味	-11.541
諦實	-11.5412
無生智	-11.5417
八魔	-11.542
大師子吼	-11.542
列眾	-11.5428
五番	-11.5431
生死大海	-11.5433
圓理	-11.5435
經題	-11.5435
俱失	-11.5435
餘勢	-11.5438
無量阿僧祇劫	-11.5439
形相	-11.5442
者即前	-11.5453
有六種	-11.5454
外道邪	-11.5456
善根人有	-11.5462
躡前	-11.5463
有十種	-11.5467
糧	-11.5469
第四難	-11.5472
探	-11.5472
拾	-11.5473
辰	-11.5474
詔	-11.5475
洞	-11.5475
嗣	-11.5475
彊	-11.5476
惑業	-11.5477
逾	-11.5477
者牒前	-11.5478
興廢	-11.5478
聽是經者	-11.5479
淤泥	-11.548
有始有終	-11.5481
四部之眾	-11.5483
非學非無學	-11.5483
徵前起後	-11.5483
謀	-11.5483
巖	-11.5484
奏	-11.5484
可思議	-11.5484
披	-11.5484
僮僕	-11.5486
族姓	-11.5487
大利	-11.5488
曇無德	-11.5489
挑	-11.5489
彼諸眾生	-11.5489
一義說無量名	-11.549
醒	-11.549
拯	-11.5491
先辯	-11.5491
不但獨為	-11.5493
秖	-11.5493
臘	-11.5494
斫伐	-11.5495
非是非不是	-11.5497
繫念思惟	-11.5497
偏袒右肩	-11.5497
非雜食身	-11.5497
默然而住	-11.5497
以明常	-11.5497
長跪	-11.5497
創	-11.5497
荷負	-11.5498
牆壁	-11.5498
妃	-11.5499
貪瞋癡	-11.5499
器仗	-11.5499
波頭摩	-11.55
邪歸正	-11.55
鳥獸	-11.55
饑饉	-11.55
名字觀行	-11.55
狸	-11.5501
於未來世成佛之時	-11.5501
棃	-11.5501
頂禮佛足	-11.5501
我又示現於閻浮提	-11.5502
捔	-11.5503
內善思惟	-11.5503
淨潔	-11.5504
吾曾為	-11.5504
毱多	-11.5505
繒	-11.5505
乘船	-11.5505
次觀果報	-11.5506
五無間罪	-11.5506
乳有酪性	-11.5509
耀	-11.5509
今方	-11.5511
雹	-11.5511
云何名常	-11.5511
而行布施	-11.5512
尚未	-11.5514
三惡趣	-11.5515
受諸苦惱	-11.5517
十一事	-11.5518
一闡提人	-11.5519
毒身	-11.5519
無中陰	-11.5519
無有邊際	-11.5519
轉輪	-11.552
勸持	-11.5521
暴惡	-11.5522
。』『	-11.5524
大自在天	-11.5524
能斷煩惱	-11.5525
一切眾生身亦如是	-11.5526
數人云	-11.5527
佛性中道	-11.5528
毀壞	-11.5528
佛世界	-11.553
險難	-11.5532
如來在世	-11.5532
非幻	-11.5533
三種病人	-11.5533
單疏第十	-11.5535
唯有如來	-11.5535
水精	-11.5538
諸法實相	-11.5539
豈可以	-11.554
云何言住	-11.5542
謂大涅槃	-11.5543
藏積	-11.5543
汝所作	-11.5546
今此文中	-11.5547
汝等當知	-11.5552
無間罪	-11.5552
畢竟滅	-11.5556
佛答為三	-11.5557
法身常身	-11.5558
攝念	-11.5561
承事	-11.5561
子縛	-11.5563
一切諸漏	-11.5566
自慶	-11.5573
即說偈言	-11.5574
仁等	-11.5579
來詣	-11.5581
叵得	-11.5581
念漏	-11.5582
形像	-11.5583
樹間	-11.5583
失旨	-11.5588
圓淨	-11.559
無所見	-11.5591
佛受供	-11.56
中具有	-11.56
如經言	-11.5601
不得言無	-11.5601
未脫	-11.5606
諦理	-11.5606
稟教	-11.5608
不亂	-11.5623
違順	-11.5624
愛結	-11.5625
慧命阿難	-11.5627
譬如大海	-11.5627
藥治	-11.5628
▁二初如下隨	-11.5629
摩訶般若	-11.5634
之詞	-11.5635
第二門	-11.5637
兩段	-11.5642
所有功德	-11.5648
下正答	-11.566
得善果	-11.5664
食噉	-11.5666
問辭	-11.5668
歸趣	-11.5669
生亦不可說	-11.5672
上上法	-11.5673
眾生我者	-11.5678
淨梵行	-11.5682
不可稱	-11.5685
伏惑	-11.5688
不知足者	-11.5691
一段	-11.5692
唱滅	-11.5693
金輪	-11.5703
老苦	-11.571
佛告迦葉善男子	-11.5723
難尋	-11.5725
r	-11.5736
因得果	-11.5737
唯約	-11.5738
佛陀	-11.574
進修	-11.5741
一剎那	-11.5741
勿令	-11.5742
我見我	-11.5747
喻之如	-11.575
釋迦文	-11.5762
十二入	-11.5762
王種	-11.5765
方等大乘經典	-11.5775
命根	-11.5777
偏空	-11.5789
▁初懸示	-11.5823
諸家	-11.5825
悉如文	-11.5829
鄣	-11.5833
脩多羅	-11.5836
樂寂靜	-11.5839
光明照	-11.584
擇滅	-11.5841
所侵	-11.5844
龍象	-11.5845
有心數	-11.5847
斥小	-11.5848
從因緣生	-11.5849
毒樹	-11.585
宰主	-11.5851
毉	-11.5852
挫	-11.5853
鉾	-11.5854
五盛陰	-11.5855
勸王	-11.5857
聞是已	-11.5858
暇	-11.5858
顛	-11.5859
游	-11.586
冀	-11.5862
訟	-11.5863
亦應云	-11.5863
更立	-11.5864
療眾病	-11.5864
魯	-11.5865
攢	-11.5866
惶怖	-11.5866
即理而事	-11.5866
謂之為	-11.5867
君子	-11.5868
光明遍照高貴德王	-11.5869
三千大千	-11.5871
韋	-11.5871
下舉喻以	-11.5871
信等五根	-11.5871
澄清	-11.5872
如世人言	-11.5872
冶	-11.5873
囑累	-11.5873
諸部	-11.5874
椎	-11.5874
不即不離	-11.5874
四衢	-11.5874
貪欲瞋恚愚癡	-11.5875
如來畢竟入於涅槃	-11.5875
常破無常	-11.5876
亦見亦知	-11.5876
完	-11.5877
脣	-11.5877
困苦	-11.5878
須跋陀	-11.5878
南無純陀	-11.5878
秘密藏	-11.5878
影響	-11.5879
麁細	-11.5879
迦旃延	-11.5879
一空一切空	-11.5879
厄	-11.5879
怨憎會苦	-11.5879
擾	-11.588
波羅奈	-11.588
技藝	-11.588
所言大者	-11.588
從無明生	-11.588
恕	-11.5881
南無佛陀	-11.5881
跋提	-11.5881
求不得苦	-11.5882
四悉檀	-11.5882
迦毗羅	-11.5883
水陸俱行	-11.5883
炙	-11.5883
茶	-11.5883
飜	-11.5884
戀慕	-11.5884
顯發如來方便密教	-11.5884
糠	-11.5885
近友	-11.5885
不與世諍	-11.5885
輕微	-11.5886
六種震動	-11.5887
穢土	-11.5887
塔廟	-11.5887
右繞	-11.5887
少不足	-11.5888
河沙諸如來所發菩提心	-11.5889
餘句	-11.589
見是事已	-11.589
頭面禮足	-11.5892
血肉	-11.5892
慎莫	-11.5893
僧佉	-11.5894
阿那	-11.5895
優鉢羅花	-11.5895
惱亂	-11.5896
十號具足	-11.5896
c	-11.5896
闇鈍	-11.5897
㝹	-11.5898
且云	-11.59
往返	-11.5903
何容	-11.5903
無二無別	-11.5905
佛告文殊師利	-11.5905
此旨	-11.5906
=	-11.5906
不以為	-11.5907
傳曰	-11.5907
忍辱草	-11.5908
從初發心	-11.591
酬請	-11.591
修無我想	-11.5911
七分	-11.5914
大香象	-11.5914
是謂菩薩摩訶薩	-11.5918
豈況	-11.5918
佛及菩薩	-11.592
心為體	-11.592
悉無有我	-11.5921
憐愍一切眾生	-11.5921
四沙門果	-11.5921
法財	-11.5922
以大涅槃心	-11.5922
類破	-11.5923
止息	-11.5923
老少	-11.5926
得出家	-11.5926
非本無今有	-11.5928
萬億	-11.5928
一切諸眾生故	-11.5928
讚其	-11.5929
而說是偈	-11.5929
身得安樂	-11.5932
真識	-11.5933
?』「	-11.5935
是名眼見	-11.5936
設使	-11.5937
一旦	-11.5937
出世之法	-11.5941
我佛法中	-11.5944
文為五	-11.5945
牛乳	-11.5947
佛性之理	-11.5948
終沒	-11.5952
下答釋	-11.5952
被服	-11.5954
無所知	-11.5955
修空三昧	-11.5956
何等為十	-11.5958
梵世	-11.5961
皆不可說	-11.5967
冷病	-11.5971
先問次辯	-11.5973
諸行無常	-11.5974
實不滅	-11.5993
一行半	-11.5993
審實	-11.5995
涅槃無名	-11.5996
初又二先	-11.6
山河	-11.6007
有三句	-11.6009
第四句中	-11.6011
曼陀	-11.6012
佛性之義	-11.6013
云何能得	-11.6018
次第五行	-11.6023
有人云	-11.6036
濟度	-11.604
名置答	-11.6043
答為三	-11.6045
不諍	-11.6046
出於世	-11.6048
謗正法	-11.605
所收	-11.6059
起貪	-11.606
平等觀	-11.6061
果縛	-11.6063
望後	-11.6066
於中初言	-11.6067
菩	-11.6069
而得自在	-11.6073
非無因緣	-11.6078
不測	-11.6081
科分	-11.6082
亂正	-11.6083
根本戒	-11.6083
義不成	-11.6087
無攀緣	-11.6092
得道果	-11.6094
為因因	-11.6099
莫能	-11.6101
調伏眾生	-11.6103
開示分別	-11.6106
歸真	-11.6109
▁二舊	-11.6109
汝莫	-11.6114
示正義	-11.6116
欲往	-11.6125
歸三寶	-11.6125
不見未來	-11.6129
捨命	-11.6133
出其人	-11.6133
七復次	-11.6138
不依人	-11.6143
隨物	-11.6145
四蛇	-11.6159
上士	-11.6163
無我我所	-11.6164
二十七	-11.6164
不可定說	-11.6167
諸大菩薩	-11.6168
其終	-11.617
天廟	-11.6173
諸寶	-11.6181
奉施	-11.6187
思念	-11.6193
醫譬	-11.6195
觸食	-11.6205
諸佛所說	-11.6206
修道品	-11.6216
下今破	-11.6217
誰當	-11.6221
亦有二種	-11.6225
人天善	-11.6239
告憍陳如	-11.6239
吳	-11.6243
韻	-11.6245
悲惱	-11.625
凡聞起諍	-11.6253
籍	-11.6255
粗	-11.6257
史	-11.6258
抗	-11.6258
皰	-11.6258
生死之法	-11.6259
苗	-11.6259
忠	-11.6259
十二支	-11.6261
即寂而照	-11.6262
敬重大乘	-11.6263
哲	-11.6263
眉間	-11.6264
合可知	-11.6264
菟角	-11.6264
聊	-11.6265
噵	-11.6265
算	-11.6265
無明住地	-11.6266
如來述讚	-11.6267
烈	-11.6268
薩婆	-11.6268
振	-11.6269
闍維	-11.627
釧	-11.627
涅槃之名	-11.627
普賢	-11.6271
我於彼經亦不說之	-11.6271
袒	-11.6271
不可窮盡	-11.6272
名義俱異	-11.6272
在文可見	-11.6274
嬰孩	-11.6275
深邃	-11.6275
叢	-11.6275
領旨仰非	-11.6276
得福無量	-11.6277
於一念中	-11.6278
生不自生	-11.6279
此與止觀	-11.6279
我今始知	-11.628
亦是亦不是	-11.628
帀	-11.628
不散	-11.628
無酪性	-11.6281
鬬	-11.6282
三十二相八十種好	-11.6282
倚臥	-11.6283
終不生念	-11.6284
殿堂	-11.6285
白淨法	-11.6285
屋舍	-11.6287
三藐三佛陀	-11.6287
目楗連	-11.6288
不住不不住	-11.6289
身心寂靜	-11.6289
!」「	-11.629
金棺	-11.629
鎮頭迦	-11.629
唯佛能知	-11.6292
普告	-11.6294
群萌	-11.6294
枯樹	-11.6294
補處	-11.6296
僧殘	-11.63
下正釋經文	-11.6301
死尸	-11.6302
修習聖道	-11.6306
十仙	-11.6307
音響	-11.6307
過人法	-11.6314
守護大乘	-11.6315
終乎	-11.6316
生滅四諦	-11.6316
淨威	-11.6317
非擇滅	-11.6318
四維	-11.6318
成就阿耨多羅三藐三菩提	-11.6321
諸善根本	-11.6324
再治	-11.6324
百界	-11.6324
前文云	-11.6326
散亂	-11.6334
九法界	-11.6336
惑覆	-11.6351
實不虛	-11.6353
我見無我	-11.6354
復有說言	-11.6355
持律	-11.6362
一切人民	-11.6365
文中有三	-11.6368
常樂淨	-11.6371
國王大臣	-11.6377
諸凡夫人	-11.6377
無畏地	-11.638
先問後答	-11.6381
不生怖畏	-11.6388
斯陀含人	-11.6388
靡	-11.639
出胎	-11.639
▁初總標	-11.6392
答初難	-11.6393
譏請	-11.6396
往復	-11.6396
初先立喻	-11.6399
引偈	-11.6407
十億	-11.641
號曰	-11.641
下喻明	-11.6414
當與汝	-11.6415
豪貴	-11.6419
遷流	-11.6421
久處	-11.6421
萬歲	-11.6423
風吹	-11.6424
神德	-11.6427
兩品	-11.6428
如上釋	-11.6431
阿修羅等	-11.6433
改惡	-11.6439
總斥	-11.6442
迦葉白佛言	-11.6445
於十方	-11.645
遍攝	-11.6452
嚴飾	-11.6461
殺父	-11.6467
三雙結	-11.6471
是我弟子	-11.6472
已訖	-11.6472
入初地	-11.6472
則不然	-11.6474
解脫知見	-11.648
置於	-11.6488
優婆塞等	-11.6491
即為人	-11.6492
羅婆	-11.6504
本有煩惱	-11.6509
謗方等	-11.651
悉發阿耨多羅三藐三菩提心	-11.6512
應是無常	-11.6514
得無所畏	-11.6516
得初果	-11.6518
半句	-11.6518
此段	-11.6519
十數	-11.653
違反	-11.6548
▁四釋	-11.655
直爾	-11.6552
最後供	-11.6555
佛在世	-11.6579
還沒	-11.6584
以不定故	-11.6585
山頂	-11.6587
能斷惑	-11.6597
初題目	-11.6601
眾鳥	-11.6606
定判	-11.6637
干	-11.6639
厭苦	-11.6641
拜	-11.6644
慧朗述	-11.665
京	-11.6651
住法記	-11.6654
涅槃之果	-11.6664
瑜伽	-11.6666
予	-11.667
㓨	-11.6671
繁	-11.6674
文皆可知	-11.6675
讎	-11.6675
機發	-11.6676
溢	-11.6677
匠	-11.6678
詩云	-11.6679
尼拘陀	-11.668
自利利他	-11.668
扇	-11.668
煩惱即菩提	-11.668
文選	-11.6681
祈	-11.6681
貿	-11.6682
囹圄	-11.6682
八句	-11.6682
懃	-11.6683
諸禪	-11.6684
包含	-11.6684
猴	-11.6684
眾生非眾生	-11.6685
雪	-11.6685
燋	-11.6685
是名菩薩摩訶薩非現生後受是惡業	-11.6686
涕唾	-11.6687
考	-11.6687
如恒河邊第	-11.6687
潔	-11.6688
鴈	-11.6688
先尼言瞿曇	-11.6688
他心智	-11.6689
招苦	-11.6689
種種異	-11.6689
尤	-11.6691
歟	-11.6691
婢	-11.6692
熟蘇	-11.6692
吉凶	-11.6693
匹	-11.6693
扶律	-11.6693
當知是則為如來也	-11.6693
格	-11.6694
大小便利	-11.6695
先受施者	-11.6695
專心聽法	-11.6696
出佛身血	-11.6696
有病行處	-11.6696
言語道斷心行處滅	-11.6697
頌云	-11.6697
遍觀四方	-11.6697
八種術	-11.6697
疾至佛所	-11.6697
梵網	-11.6698
八味具足	-11.6698
若乳無酪	-11.6698
唾	-11.6698
以方便力	-11.6698
翼	-11.6698
聽其出家	-11.6699
是故說言一切眾生悉有佛性	-11.6699
金錍	-11.67
言本無者	-11.67
受大苦惱	-11.6701
而亦是有	-11.6703
非六師也	-11.6703
斯有是處	-11.6703
恒河沙等世界	-11.6703
以是誓願因緣力故	-11.6703
吝	-11.6704
棘刺	-11.6704
佛答有二	-11.6704
胡麻油	-11.6704
阿波陀那	-11.6704
護世	-11.6705
發意欲	-11.6705
茶毗	-11.6706
發無上正真道意	-11.6706
無明緣行	-11.6706
歡樂	-11.6707
煩惱在先	-11.6707
羅剎復言	-11.6708
寶貨	-11.6708
倦	-11.671
憍陳如品	-11.6711
菩薩修大涅槃	-11.6712
1	-11.6712
求覓	-11.6712
若有隨順魔所說者	-11.6713
u	-11.6713
不決定故	-11.6713
苦法忍	-11.6714
福德莊嚴	-11.6715
頻婆娑羅王	-11.6716
掘地	-11.6717
敗壞	-11.6717
殘害	-11.6718
於是經中	-11.672
翻譯	-11.6723
傷歎	-11.6727
相承	-11.673
諸天世人	-11.673
豈獨	-11.6731
縛脫	-11.6732
世間智者	-11.6733
是涅槃經	-11.6734
一闡提輩亦復如是	-11.6735
飲乳	-11.6735
頂禮	-11.6736
悲戀	-11.674
捨身命	-11.674
愚惑	-11.6742
聞是經已	-11.6743
樹葉	-11.6744
先舉昔	-11.6752
佛性因故	-11.6757
修慈悲	-11.6757
今當為汝	-11.6758
是名為見	-11.6759
寂默	-11.676
思惑	-11.6763
頗有	-11.6764
遮羅	-11.6766
下就人	-11.6768
之頃	-11.6774
呪師	-11.6778
有無量相	-11.6779
憂怖	-11.6781
六道之	-11.6782
為魔所	-11.6784
財施	-11.6785
父子	-11.6788
出世因果	-11.679
不名為善	-11.6793
判位	-11.6796
以涅槃為	-11.6801
餘亦如是	-11.6805
文旨	-11.6808
y	-11.6808
彼佛世尊	-11.6812
大品云	-11.6816
亦復然	-11.6819
分段變易	-11.682
所以下釋	-11.6821
不可一向	-11.6822
知如來是常住法	-11.6825
不顧	-11.6828
無心數	-11.683
一切天人	-11.6832
未悟	-11.6835
初段中	-11.6837
現陰	-11.6845
如是二法	-11.6846
就初段中先	-11.6847
於中先舉	-11.6848
厭生死	-11.6851
□□□□□□	-11.6862
未極	-11.6867
大丈夫	-11.6872
呵勸	-11.6873
無所獲	-11.6877
下難破	-11.6879
二別釋二	-11.6896
初一行	-11.6906
無咎	-11.6906
勝妙	-11.6909
十五心	-11.6911
一切智人	-11.6912
斷三結	-11.6925
能生他	-11.6939
不從緣	-11.6943
題目	-11.6945
▁二此初下隨	-11.695
服甘露	-11.6953
互通	-11.6959
聞思修	-11.696
天宮	-11.6963
觀一切法	-11.6964
遇善友	-11.6964
我樂淨	-11.6975
何處說	-11.6977
文有二	-11.6986
識神	-11.6993
悲歎	-11.7001
場	-11.7002
而是菩薩	-11.7012
富貴	-11.7018
已下舉	-11.702
文章	-11.7033
勤行	-11.7033
佛神力故	-11.7054
不懺	-11.7057
療病	-11.7061
於佛滅後	-11.7062
已下就	-11.7073
大雲經	-11.7075
總攝	-11.708
隨意所	-11.7084
俯	-11.7093
栴陀羅	-11.7094
𨷂	-11.7095
西域記	-11.7097
謹	-11.71
自下第三明	-11.71
激	-11.7102
隋	-11.7104
矛	-11.7106
衍	-11.7106
此經復有諸佛菩薩	-11.7106
破定有	-11.7106
竺	-11.7106
哀嘆	-11.7107
晚	-11.7109
一日一夜	-11.7109
滑	-11.7115
杜	-11.7117
囊	-11.7117
差即無差	-11.7119
涯	-11.7119
殃	-11.712
餘類可知	-11.7121
又無住者	-11.7121
非身是身	-11.7121
意在於此	-11.7121
荷	-11.7121
癩	-11.7121
受純陀供	-11.7122
汲	-11.7122
智者復觀	-11.7123
俾	-11.7123
沾	-11.7123
從本已來	-11.7123
不相捨離	-11.7125
大異小	-11.7125
如去不如去	-11.7125
項	-11.7126
我念往昔	-11.7126
季	-11.7126
耽	-11.7127
相續假	-11.7127
懶	-11.7127
蟻子	-11.7127
爾時佛讚迦葉菩薩	-11.7128
菩薩摩訶薩復作是願	-11.7128
廣宣流布	-11.7128
多饒財寶	-11.713
暹	-11.7131
饍	-11.7132
如意語	-11.7132
五階	-11.7133
渾	-11.7133
渴仰	-11.7133
蠲除	-11.7133
迦毘羅	-11.7134
煮	-11.7134
佛復告迦葉	-11.7135
輪迴生死	-11.7135
客塵	-11.7136
涕	-11.7136
此義不然	-11.7137
禮記	-11.7137
身壞命終	-11.7137
能堪忍	-11.7138
熱鐵	-11.7138
終不能得阿耨多羅三藐三菩提	-11.7139
然後乃能於惡世中不謗是法	-11.7139
是大乘典	-11.714
禪波羅蜜	-11.714
焚燒	-11.714
冰	-11.714
摩伽陀國	-11.7141
背痛	-11.7141
衰老	-11.7141
等集眾德三昧	-11.7142
齧	-11.7142
𧂐	-11.7142
戲笑	-11.7143
娑婆世界	-11.7144
帳	-11.7144
瞻仰	-11.7144
黠慧	-11.7145
是魔所說	-11.7145
學無學	-11.7145
知而不見	-11.7146
叉手	-11.7146
於我滅後	-11.7147
鸚	-11.7147
多所利益	-11.7147
▁二本文	-11.7149
世雄	-11.715
各作是念	-11.715
能仁	-11.7151
染污	-11.7153
毘沙門	-11.7155
彌滿	-11.7156
云何難言	-11.7162
有五復次	-11.7163
卷第五	-11.7166
和會	-11.7166
何殊	-11.7171
婆私吒言	-11.7173
呪藥	-11.7174
地人云	-11.7176
一切行無常	-11.718
是汝所化	-11.7184
怨家	-11.7185
傳化	-11.7186
修行布施	-11.7186
一切眾生皆有	-11.7186
是故非非	-11.7191
一切契經	-11.7203
作是念已	-11.7204
中初科	-11.7207
退菩提心	-11.7208
致疑	-11.7208
敘古	-11.7217
定得菩提	-11.7219
六段	-11.722
受持是經	-11.7225
入于	-11.7228
滅盡定	-11.7241
青色	-11.7241
流光	-11.7253
大雲水	-11.7254
比智	-11.7256
佛性常故	-11.7259
入初住	-11.7265
恩愛	-11.7268
諸商人	-11.7268
云何得知	-11.7271
若佛如來	-11.7275
如是四人	-11.728
聞是語	-11.728
懷慚愧	-11.7281
能破闇	-11.7282
妄執	-11.7289
譬如虗空	-11.7289
千劫	-11.7292
不缺	-11.7302
汝亦如是	-11.7302
真善知識	-11.7303
初經家敘	-11.7303
譬如二人	-11.7307
如說行	-11.7314
百劫	-11.7318
令我得	-11.7327
不入地獄	-11.7338
第四番	-11.7338
求出家	-11.7347
我說是人	-11.7358
百由旬	-11.7371
當知必定有	-11.7372
汝今當知	-11.7375
二途	-11.7379
終歸	-11.7385
能得見	-11.739
不悅	-11.7431
則得名為	-11.7432
答此問	-11.7434
寶樹	-11.7436
於諸佛所	-11.7447
有五番	-11.7451
猶尚	-11.7479
大船師	-11.7496
最第一	-11.751
伏結	-11.753
億那由他	-11.7541
耻	-11.7543
寶亮	-11.755
二十五三昧	-11.7551
隅	-11.756
蠟	-11.756
歡	-11.7562
豈容	-11.7563
毘婆沙	-11.7563
隻	-11.7564
覈	-11.7564
雙游	-11.7564
不得安眠	-11.7565
膳	-11.757
牆	-11.7571
迭	-11.7571
䟦提	-11.7572
虵	-11.7573
婆藪	-11.7573
函	-11.7574
艸	-11.7574
蚊虻	-11.7576
瞿師羅	-11.7577
資糧	-11.7578
五門觀	-11.7578
此下訖	-11.7578
炳	-11.7578
周帀	-11.7578
非適今也	-11.7578
管	-11.7578
祥	-11.758
篤	-11.758
與百萬億	-11.758
兄	-11.758
填	-11.758
不斷不常	-11.758
正因之性	-11.7581
八知見	-11.7581
浣	-11.7582
二百五十	-11.7583
橫加逆害	-11.7583
啞	-11.7583
說十三偈	-11.7583
八十年	-11.7584
揵	-11.7584
王舍大城	-11.7584
灑	-11.7584
親近惡友	-11.7585
指雜華	-11.7586
懈	-11.7586
陰界諸入	-11.7586
頭面禮	-11.7587
怙	-11.7587
那由他	-11.7587
如優曇花	-11.7587
若得此意	-11.7587
塹	-11.7587
馳走	-11.7587
住世一劫	-11.7588
如我先說	-11.7588
北凉	-11.7588
是故已下結	-11.7588
義皆不然	-11.7589
是名十法門	-11.7589
偏露右臂	-11.759
加功	-11.759
栰	-11.7591
縱奪	-11.7591
我法亦爾	-11.7591
尚書	-11.7591
白四羯磨	-11.7591
離八難	-11.7592
迦羅迦	-11.7592
祈請	-11.7592
非有想非無想	-11.7594
我從今日	-11.7594
有篤信白衣檀越敬重佛法	-11.7594
飽滿	-11.7594
智者了達	-11.7595
右繞三匝	-11.7595
脈	-11.7595
師子先問	-11.7595
言象如	-11.7595
汎舉	-11.7596
微薄	-11.7596
貪恚癡	-11.7596
芻	-11.7597
渴仰大乘	-11.7597
被接	-11.7597
無有方所	-11.7597
推功	-11.7598
如來終不為諸眾生作煩惱因緣	-11.7598
答第三難	-11.7598
愁毒	-11.7598
無常無樂無我無淨	-11.7598
遇惡友	-11.76
-	-11.76
聞是語巳	-11.76
若本有者	-11.7601
不可說言如來法滅	-11.7602
▁初總別分科	-11.7602
安隱快樂	-11.7603
門戶	-11.7603
報佛恩	-11.7603
大王今者	-11.7604
有六句	-11.7604
真解脫者亦復如是	-11.7605
方便密教	-11.7605
哀嘆品	-11.7607
勤加	-11.7609
狐疑	-11.761
何等為八	-11.7611
為人廣說	-11.7611
黑白	-11.7613
謙下供養	-11.7618
女人答言	-11.7619
憎愛	-11.7619
燒香	-11.762
佛答有三	-11.7621
久近	-11.7622
五行十德	-11.7623
殺賊	-11.7623
若然者	-11.7626
濁世	-11.763
隨問答	-11.763
持毀	-11.7635
變白	-11.7637
皆是佛說	-11.7637
化儀	-11.7637
力勢	-11.7642
四重五逆	-11.7643
小非大	-11.7644
殺婆羅門	-11.7644
無上佛法	-11.7645
毒害	-11.7646
所謂十力	-11.7649
破戒之人	-11.7651
稱讚	-11.7653
是果非因	-11.7654
妙絕	-11.7655
三種四句	-11.7655
貴在	-11.7659
鳥喻	-11.7663
後身佛性	-11.7666
為護正法	-11.7667
生憐愍	-11.7668
自誓	-11.7668
左傳	-11.7673
具不具	-11.7676
父母和合	-11.7677
我今已得	-11.7677
不墮三惡	-11.7681
作如是問	-11.7682
詮理	-11.7685
而作是說	-11.7687
上來第一明	-11.7688
如來藏性	-11.769
准前	-11.7694
超合	-11.7695
廟	-11.7698
世間出世間	-11.7699
文略不	-11.7703
而信者	-11.7703
成辦	-11.771
是生死法	-11.7712
一闡	-11.7718
誹謗方等	-11.772
不能染	-11.7725
前中初明	-11.7743
害其父	-11.7746
焉能	-11.7761
舉其所	-11.7767
淨穢	-11.779
千歲	-11.7802
雙標	-11.7805
為惑所	-11.7806
為解脫故	-11.7809
我今巳	-11.7839
如是無量功德	-11.7844
造逆	-11.7866
第二段中初	-11.7882
四種四諦	-11.7887
為是不	-11.7897
性無二	-11.7921
時非時	-11.7927
摩訶薩	-11.7949
百千萬億	-11.7971
方等般若	-11.7976
泣	-11.7978
不名中道	-11.7983
離斷常	-11.7983
安隱處	-11.7992
絹	-11.7993
入初禪	-11.8
効	-11.8027
涅槃疏私記卷第	-11.8028
鎮	-11.8031
聖梵	-11.8032
故今不用	-11.8033
疣	-11.8034
駭	-11.8034
牒舉前	-11.804
泡	-11.804
五戒十善	-11.8043
栗	-11.8044
華鬘	-11.8044
微弱	-11.8044
頻婆娑羅	-11.8046
所以成諍	-11.8046
牒佛前言	-11.8047
撲	-11.8049
講說	-11.8049
核	-11.8049
伯	-11.805
下重顯之	-11.8051
膿血	-11.8051
二月十五日	-11.8052
燭	-11.8052
禍	-11.8053
經中復說	-11.8054
派	-11.8054
兩教二乘	-11.8055
榛	-11.8056
洛	-11.8056
別教地前	-11.8056
以利根故	-11.8057
初出胎時	-11.8057
是故稱佛	-11.8057
亦內亦外	-11.8058
針鋒	-11.8058
膜	-11.8058
叫喚	-11.8059
作是觀已	-11.8059
空平等地	-11.806
沫	-11.806
墓	-11.806
殄	-11.806
其性廣博	-11.806
秋耕	-11.806
瞬	-11.806
病愈	-11.806
芰角	-11.8061
闍陀伽	-11.8061
十六知見	-11.8061
多受苦惱	-11.8062
優樓	-11.8062
皆從因緣	-11.8062
輸	-11.8062
則有壞滅	-11.8062
不自覺知	-11.8063
醯	-11.8063
躄地	-11.8063
大般涅槃經疏卷第十	-11.8063
八斛	-11.8064
而語之言	-11.8064
纔	-11.8064
甘美	-11.8064
三一互融	-11.8064
又嬰兒者	-11.8064
人民熾盛	-11.8065
鋒	-11.8065
怖懼	-11.8065
世間不知見覺	-11.8065
販	-11.8065
甘露法味	-11.8065
蟻	-11.8066
殷勤	-11.8066
有為無為且共置之	-11.8066
我今定知	-11.8066
入佛法	-11.8066
吸鐵	-11.8066
是亦有餘	-11.8066
悲泣流淚	-11.8067
故下文中	-11.8067
世間不可樂想	-11.8067
大設供養	-11.8068
糞穢	-11.8068
當來之世	-11.8068
飢饉	-11.8069
以此善根願與一切眾生共之	-11.8069
麤細	-11.8069
以是緣下	-11.8069
遶百千匝	-11.8069
次第相生	-11.8069
當知是人真我弟子	-11.807
毗婆舍那	-11.807
分真究竟	-11.807
凝然	-11.807
叫	-11.807
我於經中說	-11.8071
毗舍離	-11.8071
而演說法	-11.8072
鐵圍山	-11.8073
象跡	-11.8074
猫	-11.8074
聽法因緣則得近於大般涅槃	-11.8075
騾	-11.8075
闇冥	-11.8075
優波提舍	-11.8076
世尊說此頌	-11.8077
是名菩薩修大涅槃	-11.8077
華葉	-11.8078
k	-11.8079
卷第六	-11.8079
無有障礙	-11.808
賣乳	-11.8081
園林	-11.8082
斷諸善根	-11.8082
一切眾生皆有佛性	-11.8083
修悲心者	-11.8084
司	-11.8086
犢子梵志	-11.8086
七覺分	-11.8087
難思議	-11.8089
一種二種	-11.8089
諸菩薩摩訶薩等	-11.8089
畫水	-11.8094
定是無為	-11.8097
修持淨戒	-11.8097
萬二千	-11.8098
所不能壞	-11.81
須達多言	-11.81
何等為六	-11.8101
有人宣說	-11.8103
貪婬	-11.8104
作如是念	-11.8105
拘執	-11.8106
性自空	-11.8107
說是語已	-11.8107
通途	-11.8107
遊居	-11.8109
憐愍世間	-11.8111
▁會疏第	-11.8113
若言有者	-11.8113
不生貪著	-11.8113
諸天子	-11.8119
金光明	-11.8121
半月	-11.8121
當為汝分別解說	-11.8123
引昔證	-11.8123
致使	-11.8124
不同向前	-11.8125
自性清淨	-11.8125
緊那羅王	-11.8126
宗親	-11.8126
云何可斷	-11.8127
說是語	-11.8131
兵眾	-11.8137
就文為三	-11.8139
分節	-11.8139
以佛性故	-11.814
自下第五	-11.814
如上文	-11.8147
為是何	-11.8148
枝本	-11.815
殺亦如是	-11.815
諸大德	-11.8151
機動	-11.8152
旨趣	-11.8153
為菩薩時	-11.8154
存略	-11.8158
欲入涅槃	-11.8162
釋名云	-11.8163
故名聖行	-11.8163
斷見諦	-11.8168
無等等	-11.8179
大般涅槃經集解卷第	-11.8189
破古	-11.8191
外更無	-11.82
有三翻	-11.8204
文中有二	-11.8205
三千界	-11.8208
二乘所得	-11.8214
漏無漏	-11.8228
作此釋	-11.8231
禮拜供養	-11.8246
書寫讀誦	-11.8262
佛答又二	-11.8269
卷第七	-11.8287
劣三修	-11.8292
中五句	-11.8313
文相可	-11.8329
高座	-11.8333
說如是言	-11.8333
十二句	-11.8334
爾許	-11.8345
涅槃經疏三德指歸卷第	-11.8413
欲使如來	-11.8441
答第三問	-11.8443
毗婆	-11.8455
次善男子下	-11.8459
上來別	-11.8499
廬	-11.851
劉	-11.851
宣演	-11.8515
答後問	-11.8525
闍那	-11.8528
不得安隱眠	-11.8531
稽	-11.8534
嶷然	-11.8537
三結如文	-11.8538
𦘕	-11.8538
料	-11.854
輿	-11.854
介	-11.8541
酒糟	-11.8543
株	-11.8543
儉	-11.8544
屠割	-11.8545
嚮	-11.8545
優鉢羅華	-11.8545
劇	-11.8546
蝮	-11.8546
大般涅槃經集解卷第六十	-11.8547
宇	-11.8547
賜	-11.8548
祀	-11.8548
烟	-11.8549
囚	-11.8549
祠祀	-11.8549
汰	-11.8549
滑草	-11.855
俄	-11.855
願佛開微密	-11.855
雷震	-11.855
鑿	-11.8551
下佛為釋	-11.8551
逃走	-11.8552
孤露	-11.8552
無作道品	-11.8552
禿居士	-11.8552
行住坐臥	-11.8553
殷	-11.8553
戶	-11.8553
有無作色	-11.8554
謬領	-11.8554
認	-11.8554
二人俱有	-11.8554
膠	-11.8554
大般涅槃經疏卷第二十	-11.8554
浩	-11.8554
正異邪	-11.8555
胞	-11.8555
不一不異	-11.8555
從乳生	-11.8555
上來一段	-11.8556
如法而住	-11.8556
踈	-11.8557
怡	-11.8557
或有說者	-11.8557
嘗	-11.8557
咄哉	-11.8558
校量	-11.8558
斷三世因	-11.8558
若從是義	-11.8559
小入大	-11.8559
無明與愛	-11.8559
當知是人能斷善根	-11.8559
寐	-11.8559
如棄涕唾	-11.8559
大般涅槃經集解卷第五十	-11.856
色香味觸	-11.856
百句解脫	-11.856
轉正法輪	-11.856
乃至醍醐亦復如是	-11.8561
三德秘藏	-11.8561
若男若女	-11.8561
法攝此集一切福德三昧	-11.8562
昨	-11.8562
采	-11.8562
錢塘沙門釋智圓述	-11.8562
有兩問答	-11.8562
鬪戰	-11.8562
庫	-11.8562
吾當為汝	-11.8563
燈炷	-11.8563
浪	-11.8564
無量無邊不可稱計	-11.8564
共貪俱滅	-11.8564
遺教經論	-11.8564
輪回	-11.8565
不墮惡道	-11.8565
陀羅驃	-11.8565
獎	-11.8566
後受施者	-11.8566
何勞	-11.8567
阿羅訶	-11.8567
所不應依	-11.8567
沙礫	-11.8568
乃至識亦如是	-11.8568
髓	-11.8568
象馬車乘	-11.8569
如彼嬰兒	-11.8569
佛法眾僧	-11.8569
開身密	-11.8569
雜食之身	-11.857
復有一行是如來行	-11.857
提名不具	-11.857
然我已於無量劫中	-11.8571
城郭	-11.8571
智者了達其性無二	-11.8571
博叉	-11.8572
撿驗	-11.8572
罽賓	-11.8572
無二之性即是實性	-11.8573
乳中定有酪性	-11.8573
何故復名	-11.8573
言本有者	-11.8573
具二莊嚴	-11.8573
地獄餓鬼畜生	-11.8574
姊妹	-11.8574
九部經中	-11.8574
不修慧者	-11.8575
所入法門	-11.8575
瘂	-11.8575
若常愁苦	-11.8575
愁遂增長	-11.8576
二牒釋	-11.8576
拘尸那	-11.8576
蘇油	-11.8577
生住滅	-11.8577
如來者即是法也	-11.8577
尊重讚歎	-11.8577
或復說言	-11.8577
即於胎中	-11.8578
願諸眾生悉得	-11.8578
涅槃經治定疏科卷	-11.8579
憂悲苦惱	-11.8579
略不舉	-11.858
文悞	-11.8581
以是之故	-11.8581
大般涅槃經集解卷第四十	-11.8582
名大地動	-11.8582
是故此地	-11.8582
苦空無常	-11.8583
勤修精進	-11.8584
坐禪	-11.8584
牛若食者	-11.8584
親承	-11.8584
菩提樹下	-11.8585
稱譽	-11.8585
起七寶塔	-11.8588
假使有人	-11.859
是名了義	-11.8591
傷害	-11.8592
騰疑	-11.8592
迦葉白佛言世尊	-11.8593
恐畏	-11.8595
盡涅槃際	-11.8597
有佛無佛	-11.8601
半國	-11.8602
若遇善友	-11.8602
舍主	-11.8603
哀泣	-11.8603
▁初領旨	-11.8607
不俟	-11.8609
以修習故	-11.861
▁初章安	-11.8612
初總標	-11.8613
獲益	-11.8623
且一往	-11.8623
判屬	-11.8626
初一復次	-11.8627
見生死過	-11.8627
無我見我	-11.8629
奉供	-11.863
聞佛所說	-11.8632
佛滅度後	-11.8632
大般涅槃經集解卷第二十	-11.8635
譬真解脫真解脫者即是如來	-11.8635
虗實	-11.8637
大般涅槃經集解卷第三十	-11.8638
▁二初問下隨	-11.8643
雙牒	-11.8646
▁初正合	-11.8649
佛性非有非無	-11.8651
宛轉	-11.8653
眾中有一天	-11.8663
不相應行	-11.8663
還源	-11.8669
所至處	-11.867
宜速	-11.8678
娑婆	-11.8689
破見思	-11.869
三乘共	-11.8701
義同前	-11.8707
品題	-11.872
乾闥婆王	-11.8728
苦聖諦	-11.8774
得一子地	-11.8793
地土	-11.8838
藥消	-11.8894
脇	-11.8905
後四偈	-11.891
靡不	-11.8922
為菩提因	-11.8933
戒禁	-11.8944
下示今	-11.8959
無與等	-11.8965
宛	-11.8979
總嘆	-11.898
故是故非	-11.8982
ya	-11.8985
持淨戒者	-11.8997
眼能見	-11.9003
標章	-11.9015
ma	-11.9016
萬劫修行菩薩力	-11.9037
論語云	-11.9046
涌	-11.9049
詰	-11.905
赦	-11.9052
糜	-11.9056
刪	-11.9057
斛	-11.9057
髣髴	-11.906
作不定說	-11.9063
線	-11.9066
帛	-11.9066
五停心	-11.9067
奈	-11.9067
贖命	-11.9069
非三非一	-11.907
拳	-11.907
饒	-11.907
舉劣顯勝	-11.9071
適悅	-11.9071
鏤	-11.9072
如世伊字	-11.9073
立喻顯法	-11.9073
故偏舉之	-11.9074
儲君	-11.9075
桑	-11.9076
修熏禪	-11.9076
獵	-11.9076
輕躁	-11.9076
冤親	-11.9077
傅	-11.9077
如彼醉人	-11.9077
一心三智	-11.9077
脚足	-11.9077
鬱單越	-11.9077
氣噓	-11.9078
亘	-11.9078
八戒齋	-11.9078
此初段竟	-11.9078
蠶	-11.9078
涎	-11.9079
即用而體	-11.908
曹	-11.908
穀貴	-11.9081
身異命異	-11.9081
觀已行	-11.9082
如來常住無有變易	-11.9082
所作巳辦	-11.9082
於中三句	-11.9082
芥	-11.9082
次以喻顯	-11.9082
鞭	-11.9083
我亦有分	-11.9083
佐	-11.9083
阿鼻獄	-11.9083
區	-11.9083
嘲	-11.9083
行已復住	-11.9083
次喻後合	-11.9083
貧窮困苦	-11.9083
終不畢竟入於涅槃	-11.9084
針	-11.9084
纏縛	-11.9085
滅除有餘	-11.9085
明與無明	-11.9086
即此義也	-11.9086
修者必得	-11.9086
盈縮	-11.9086
得無生忍	-11.9087
舞	-11.9087
卷第八	-11.9087
世諦死時	-11.9088
巡	-11.9088
桓	-11.9088
今現在說法	-11.9088
疱	-11.9088
壅	-11.9088
如說修行	-11.9089
昔所不得而今得之	-11.9089
微密之教	-11.9089
煩惱覆故	-11.9089
他化自在天	-11.9089
慳悋	-11.909
成就如是無量功德	-11.909
誦習	-11.909
毘佛略	-11.909
無厭足	-11.9091
依智不依識	-11.9091
從心起	-11.9091
破壞四魔	-11.9091
與二乘共	-11.9091
枚	-11.9092
鄰	-11.9092
細分有	-11.9092
羂	-11.9092
作得度因緣	-11.9092
為世間依	-11.9092
細軟	-11.9092
受持五戒	-11.9093
末伽	-11.9093
胸	-11.9093
託胎	-11.9093
夫無量者	-11.9093
旛	-11.9094
何用修道	-11.9094
創疣	-11.9094
密語門	-11.9094
亦於晨朝日初出時	-11.9095
優婆	-11.9095
見不了了	-11.9095
是故名為戒不具足	-11.9096
我又示現閻浮提中	-11.9096
活命	-11.9096
離是之外更無別	-11.9096
兜率陀天	-11.9097
而供養之	-11.9097
g	-11.9098
忽然不現	-11.9098
佛所發菩提心	-11.9098
時王答言	-11.9099
常當一心	-11.91
氀	-11.91
5	-11.91
是事不然	-11.91
迦留羅	-11.9101
常得無量樂	-11.9101
樓逗	-11.9102
无	-11.9102
菩薩摩訶薩於慈心中	-11.9102
名為大樂	-11.9102
大眾悲歎	-11.9102
眾中有一天子	-11.9103
埿	-11.9103
群臣	-11.9104
自恃	-11.9105
拂去	-11.9105
根不具	-11.9106
雨法雨	-11.9106
是凡夫相	-11.9106
水泡	-11.9106
長阿含	-11.9107
車𤦲	-11.9107
不修戒者	-11.9107
不見而見	-11.9107
+	-11.9107
是大涅槃微妙經典亦復如是	-11.9107
歌舞	-11.9108
降雨	-11.9108
醎味	-11.9109
以其常故	-11.9111
▁初正釋經文	-11.9111
不修心者	-11.9111
重頌	-11.9112
圓澄	-11.9112
▁初破古	-11.9114
被燒	-11.9115
得生天上	-11.9115
起塔	-11.9118
為此義故	-11.912
痛哉	-11.9121
佛性者即是如來	-11.9126
是故復名	-11.9127
一切叢林	-11.9129
遠離二邊	-11.913
八聖道分	-11.913
舍衛城	-11.9131
香油	-11.9133
大哭	-11.914
常作是願	-11.914
懸示	-11.9142
亦應爾	-11.9143
未堪	-11.9145
非凡夫相	-11.9149
迦葉初先	-11.9149
是名聞見	-11.9149
是名為觸	-11.9155
動搖	-11.916
△	-11.9163
五百比丘	-11.9164
博聞	-11.9166
瞋癡	-11.9172
汝等應當	-11.9191
一中無量	-11.9216
依憑	-11.9273
不相離	-11.928
漸制	-11.9298
文殊師利白佛言	-11.9342
十六句	-11.9363
誡勸	-11.9397
譬如滿月	-11.9397
初舉經	-11.9439
慶悅	-11.945
俟	-11.955
木石	-11.9581
五色光	-11.9591
元年	-11.9596
蹔	-11.9602
湛	-11.9603
鏘	-11.9604
洋	-11.9605
荊	-11.9607
濃	-11.9609
般涅	-11.9612
旃陀	-11.9612
初住巳上	-11.9613
乃知非真	-11.9613
爵	-11.9614
▁二初明下隨	-11.9614
不死之藥	-11.9617
抵	-11.9617
筩	-11.9617
詎	-11.9617
刃	-11.9619
白虎通	-11.9619
皆先立喻	-11.962
綠	-11.962
周禮	-11.9621
同時舉聲悲泣雨淚以手抆淚	-11.9621
諾	-11.9624
舟航	-11.9624
扼	-11.9625
言語道斷	-11.9626
麟	-11.9626
域	-11.9628
穿鑿	-11.9628
有名無實	-11.9628
央	-11.9628
各有所據	-11.9628
釜	-11.9629
詠	-11.963
就初句中	-11.963
本性空寂	-11.963
泥犁	-11.963
尅	-11.9631
替	-11.9631
蒸	-11.9631
是名世間義	-11.9631
發斯問	-11.9632
膽	-11.9632
三乘若無性	-11.9632
彫	-11.9632
郡	-11.9632
礫	-11.9632
蘆	-11.9632
凉	-11.9633
紹王位	-11.9633
道共戒	-11.9633
候	-11.9633
無食三昧	-11.9633
胝	-11.9634
能見難見性	-11.9634
不教菩薩	-11.9634
自正正他	-11.9634
芬陀利	-11.9635
因顯果	-11.9635
衛世師	-11.9636
非長非短	-11.9636
沸	-11.9636
碎身舍利	-11.9637
空無相願	-11.9637
疊	-11.9637
獄卒	-11.9637
不增不減	-11.9637
自作自受	-11.9638
灼然	-11.9638
若如是說無因	-11.9638
地獄劫住	-11.9638
悵	-11.9638
彈斥	-11.9638
先辨諍	-11.9638
謹慎	-11.9639
認歸	-11.9639
車匿	-11.964
犯四禁	-11.964
猗	-11.9641
煩惱餘報	-11.9641
伴黨	-11.9641
起信論	-11.9642
如芭蕉樹	-11.9642
終不念言	-11.9642
梯	-11.9642
繒綵	-11.9642
無生法忍	-11.9643
剝	-11.9643
缺減	-11.9644
亦常亦無常	-11.9644
若復說言	-11.9644
雖有煩惱如無煩惱	-11.9645
叉手合掌	-11.9645
華臺	-11.9645
覲	-11.9645
貪欲瞋癡	-11.9645
天龍鬼神	-11.9645
婁	-11.9645
出息入息	-11.9645
天竺三藏曇無讖譯	-11.9646
復次不修身者	-11.9646
俯仰	-11.9646
葦	-11.9646
盂	-11.9646
心性本淨	-11.9646
所作已辦究竟成就	-11.9647
孤山	-11.9647
諸根完具	-11.9647
是大乘典大涅槃經亦復如是	-11.9647
增上慢	-11.9648
當知皆是慈善根力	-11.9648
於虛空中	-11.9648
如是比丘則能莊嚴娑羅雙樹	-11.9648
東方去此	-11.9649
上來廣明	-11.9649
姉	-11.9649
過去未來現在	-11.9649
我實不知	-11.9649
太速	-11.965
所設供具	-11.965
知諸根力	-11.965
瑠	-11.9651
霜雹	-11.9651
毗伽羅論	-11.9651
精勤修道	-11.9651
親疎	-11.9651
得非想定	-11.9651
悲哀供養	-11.9651
先無後有	-11.9652
別接通	-11.9652
香樓	-11.9653
那由他眾生	-11.9653
自事我來	-11.9654
有諸弟子解甚深義	-11.9654
當知是法不久住世	-11.9654
幢幡	-11.9654
疲極	-11.9655
施眾生無量壽命	-11.9656
駝	-11.9656
毛髮	-11.9656
復有菩薩摩訶薩住大涅槃	-11.9656
龜毛	-11.9657
憔悴	-11.9657
無生無滅	-11.9657
馬瑙	-11.9657
堅持禁戒	-11.9657
酥油	-11.9658
溝	-11.9658
光明徧照高貴德王菩薩	-11.9658
勳	-11.9659
不可覩見	-11.9659
於諸善法為最	-11.966
在大眾中	-11.966
誑他	-11.9661
開微密	-11.9661
出興於世	-11.9661
虛空無故	-11.9661
定樂行	-11.9662
他解今解	-11.9662
陀那婆王	-11.9663
乃名為常	-11.9663
甜味	-11.9664
度未度者	-11.9664
白㲲	-11.9664
亦因因	-11.9664
草穢	-11.9664
凡夫謂二	-11.9665
虗偽	-11.9665
機熟	-11.9666
兜羅	-11.9666
三千大千剎土	-11.9667
床座	-11.9668
阬	-11.9669
是有是無	-11.967
月愛三昧亦復如是	-11.9672
聲聞弟子亦復如是	-11.9673
初歎問	-11.9673
勿懷	-11.9673
乳中無酪	-11.9675
是名執著	-11.9676
昔別體	-11.9676
香姓	-11.9679
爾時佛告迦葉菩薩	-11.9681
各有自性	-11.9685
恭敬父母	-11.9687
虗假	-11.9687
狂亂	-11.9687
深心供養	-11.9691
虛誑	-11.9694
悲愍	-11.9698
稱揚	-11.9699
號泣	-11.97
法華玄文	-11.9706
廣分別說	-11.9731
文中初先	-11.9743
大般涅槃經集解卷第十	-11.9755
救療	-11.9759
卷第九	-11.9766
招報	-11.9795
顏色	-11.9801
明得失	-11.9816
▁二初譬下隨	-11.9818
大臣長者	-11.9825
淨名疏	-11.9846
答第四難	-11.9853
闍提	-11.9861
修身戒心慧	-11.9882
肇論	-11.9897
外道所計	-11.9902
□□□□□□□□□□□	-11.9921
天子力	-11.9921
菩薩摩訶薩住於大乘大般涅槃	-11.9939
佛泥曰	-11.9966
先喻次合	-11.997
先正合	-11.9986
親近國王	-12.0018
va	-12.0057
第五番	-12.0114
不善無記	-12.0153
盾	-12.0171
丁	-12.0186
靈運	-12.0188
栖	-12.0191
快哉我今得	-12.0191
訪	-12.0194
諱	-12.0197
泰	-12.0199
埵	-12.0199
澤州	-12.0201
緒	-12.0204
此二一對	-12.0204
樓櫓	-12.0205
互舉一邊	-12.0207
諸結火滅	-12.0208
苞	-12.0208
姨	-12.0209
躁	-12.021
堤塘	-12.0211
蓬	-12.0212
而三而一	-12.0213
侯	-12.0213
義如別章	-12.0214
挾	-12.0215
東宮	-12.0215
逃避	-12.0215
賦	-12.0215
左傳曰	-12.0216
變林	-12.0216
枯悴	-12.0216
隆	-12.0219
規	-12.0219
一體三歸	-12.0219
諸行性相	-12.0219
給侍	-12.0219
西域	-12.022
有同有異	-12.0221
瓜	-12.0221
瓦礫	-12.0221
難破有性	-12.0221
云何於此經	-12.0222
一中一切中	-12.0222
拔苦與樂	-12.0222
駛	-12.0222
難作能作	-12.0223
愽	-12.0223
憍奢耶衣	-12.0224
妾	-12.0224
咄	-12.0224
名一義異	-12.0224
恡	-12.0225
名字巳上	-12.0225
則得名為常樂我淨	-12.0225
非滅非不滅	-12.0225
旃	-12.0225
禦	-12.0226
一何疾哉	-12.0226
欣厭	-12.0226
淑	-12.0226
馥	-12.0226
非自非他	-12.0227
唯願哀愍	-12.0227
賖	-12.0228
第二對中	-12.0228
甚可愛樂	-12.0228
解未解者	-12.0228
故經說言	-12.0228
搥胸	-12.0228
如優曇華	-12.0228
以當見故	-12.0228
無無作色	-12.0228
饌	-12.0229
我從昔來	-12.0229
闥	-12.0229
安隱豐樂	-12.023
雉	-12.023
名色繫縛眾生	-12.023
眾生福力	-12.0231
常恒無變	-12.0231
今此所論	-12.0231
不上不下	-12.0231
非喻為喻	-12.0231
輙	-12.0232
能大利益	-12.0233
脊	-12.0233
與羅漢等	-12.0233
沮壞	-12.0233
劒	-12.0233
羆	-12.0233
無差即差	-12.0234
昔所不見而今得見	-12.0234
孔雀	-12.0234
色聲香味觸	-12.0234
根深難拔	-12.0234
尼連禪河	-12.0234
麁獷	-12.0235
腹痛	-12.0235
橋梁	-12.0235
食子肉	-12.0236
心共貪生不共貪滅	-12.0236
得須陀洹果至阿羅漢果	-12.0236
閣	-12.0236
一諦三諦	-12.0237
佛讚迦葉善哉善哉	-12.0238
心善解脫	-12.0238
無惡不造	-12.0238
為譬作譬	-12.0238
跨節	-12.0238
佛告彌勒	-12.0239
殯	-12.0239
付囑於汝	-12.0239
馳騁	-12.0239
簫	-12.0239
果性果果性	-12.0239
書寫解說	-12.0241
傴	-12.0241
依義不依語	-12.0241
三諦互融	-12.0242
肌	-12.0243
分張	-12.0243
隷	-12.0243
復有二十恒河沙	-12.0243
多陀阿伽度	-12.0244
若我常者	-12.0244
書寫經卷	-12.0244
親戚	-12.0244
壜	-12.0245
有知法者	-12.0245
〕-【	-12.0245
不可沮壞	-12.0246
治罰	-12.0246
淨根戒	-12.0246
如是觀已	-12.0246
撫	-12.0246
秋月	-12.0247
如是經律是佛所說	-12.0247
口爽	-12.0247
童蒙	-12.0248
與其眷屬	-12.0248
因緣則得近於大般涅槃	-12.0249
不見其過	-12.0249
非相非非相	-12.0249
ni	-12.0249
下依科	-12.0249
枳	-12.025
栴檀香	-12.0251
是故名為大般涅槃	-12.0251
調御師	-12.0252
花鬘	-12.0253
迴向阿耨多羅三藐三菩提	-12.0253
此經復有諸佛菩薩十種	-12.0256
本有今無偈	-12.0256
九孔	-12.0256
吾從無數阿僧祇劫	-12.0256
佛答意者	-12.0257
誑惑	-12.0259
於我法中	-12.0259
真陀羅	-12.026
交露	-12.026
嵐	-12.026
玅覺	-12.0262
世尊復告	-12.0264
百倍	-12.0265
爾時會中	-12.0265
奈何	-12.0266
虛空常故	-12.0276
▁初引古	-12.0282
極愛一子	-12.0285
不肎	-12.0287
月八日	-12.03
忘懷	-12.0302
故下經云	-12.0322
持諸華	-12.0346
眾生等有	-12.0385
敘舊	-12.0386
涅槃經疏三德指歸卷第十	-12.0419
□□□□	-12.0475
毘羅	-12.0479
憂患	-12.0508
外人計	-12.0511
奧	-12.0522
中亦三	-12.0536
樂我淨	-12.0585
闡提斷善	-12.0615
經家敘	-12.0636
蚕	-12.0752
類以顯	-12.0794
讀誦通利	-12.0802
賣買	-12.0805
捲	-12.0805
靜慮	-12.0809
旅	-12.0814
遜	-12.0815
桃	-12.0818
棠	-12.082
天然之理	-12.0827
甚深祕密之	-12.0827
信首五根	-12.0828
治罸	-12.0828
揣	-12.0829
霜	-12.0829
復次善男子譬如良醫	-12.083
製	-12.0831
嘴	-12.0831
母胎	-12.0832
無上調御	-12.0832
卵	-12.0832
剌	-12.0834
巾	-12.0835
即邊而中	-12.0836
自了了他	-12.0836
構	-12.0837
瞢	-12.0837
定共戒	-12.0838
如乳成酪	-12.0838
裸形	-12.0839
捨相入證	-12.0839
階級	-12.0839
皮革	-12.0839
惻	-12.084
不同即世界	-12.084
云何共聖行	-12.084
聰	-12.0841
轉重為輕	-12.0841
質礙	-12.0842
順動召	-12.0842
遺囑	-12.0842
身口二業	-12.0842
辟	-12.0843
循	-12.0843
脚跌	-12.0843
蠱	-12.0844
邦	-12.0844
罥	-12.0844
毘婆	-12.0844
阿耨達池	-12.0844
不有不無	-12.0844
遷謝	-12.0844
衡	-12.0845
綺飾	-12.0845
是故非漏	-12.0845
斬首	-12.0845
父王無辜	-12.0845
所以爾者	-12.0845
了知諸緣	-12.0845
縱容	-12.0845
謟曲	-12.0846
順光召	-12.0846
是賢劫中	-12.0846
摶	-12.0847
碩異	-12.0847
皎	-12.0847
耐	-12.0847
處非處	-12.0847
知尊卑	-12.0847
諸佛世尊有三昧名	-12.0847
爪上土	-12.0848
墻	-12.0848
轍	-12.0848
槊	-12.0848
無情之物	-12.0848
欠	-12.0849
艱	-12.0849
螢	-12.0849
人中之龍	-12.0849
當斷汝命	-12.085
為調眾生	-12.085
一行一切行	-12.085
今所不用	-12.085
猶如車輪	-12.0851
證道同圓	-12.0851
了了分明	-12.0851
佛臨涅槃	-12.0851
雌	-12.0851
䇿	-12.0852
釋其相	-12.0852
刈	-12.0852
自覺覺他	-12.0852
熊	-12.0853
除無利益	-12.0854
從頭至足	-12.0854
沙鹵	-12.0854
得不壞眾	-12.0854
參差	-12.0854
心無退轉	-12.0854
是大乘典大涅槃經	-12.0854
駕駟	-12.0854
杭	-12.0854
雨大法雨	-12.0854
應法師云	-12.0855
就初對中	-12.0855
漢書	-12.0855
鱗	-12.0855
妓	-12.0856
乍	-12.0856
人身難得	-12.0856
燼	-12.0856
壽命短促	-12.0856
同其事業	-12.0856
千子具足	-12.0857
鳳	-12.0857
暖	-12.0857
悴	-12.0857
依法不依人	-12.0857
飢餓	-12.0857
非諸聲聞緣覺所及	-12.0857
肆	-12.0858
南西北方	-12.0858
須䟦陀羅	-12.0858
甘嗜	-12.0858
鞭撻	-12.0858
深難得底	-12.0859
乞士	-12.0859
魁膾	-12.0859
怱	-12.0859
圓接通	-12.0859
金銀瑠璃	-12.0859
約喻顯法	-12.0859
譬如幻師	-12.0859
鬱多羅	-12.0859
受畜生身	-12.086
倍勝於前	-12.086
漬	-12.086
西土	-12.086
如世人說	-12.0861
歡娛受樂	-12.0861
亦可得說	-12.0861
芬	-12.0861
以是緣故	-12.0861
酒肉	-12.0861
成就具足無量功德	-12.0862
綵	-12.0862
臥糞穢	-12.0862
六年苦行	-12.0862
假眾緣	-12.0862
謀議	-12.0862
愚癡無智	-12.0862
非通非別	-12.0862
如來視一切	-12.0862
一問二答	-12.0862
從地獄出	-12.0863
墜墮	-12.0863
淵深	-12.0863
常治無常	-12.0863
諸臣答言	-12.0863
祚	-12.0863
曼殊沙花	-12.0864
三解脫門	-12.0864
如我上說	-12.0864
轉大法輪	-12.0864
九部經典	-12.0865
係	-12.0865
如龜藏六	-12.0865
悶絕躄地	-12.0865
不生生不可說	-12.0866
曼陀羅花	-12.0866
夫修慈者	-12.0866
柔耎	-12.0866
為無利益	-12.0867
璧玉	-12.0867
迦毗羅城	-12.0868
聞此語已	-12.0868
不與聲聞辟支佛共	-12.0868
城邑聚落	-12.0868
邁	-12.0868
非有為非無為	-12.0868
充滿十方	-12.0868
畜養奴婢	-12.0869
具二嚴	-12.0869
爾時光明下	-12.087
菩薩摩訶薩住是地	-12.087
瞻婆	-12.087
身不在先	-12.087
入於大般涅槃	-12.087
吾當涅槃	-12.087
欣慶	-12.0871
拄	-12.0871
唯除菩薩住於大乘大般涅槃	-12.0871
四相一相	-12.0871
轉於法輪	-12.0871
讐	-12.0872
分陀利花	-12.0872
是沙門法	-12.0872
恐懼	-12.0872
若我作者	-12.0873
經曰汝等比丘	-12.0877
誰之所作	-12.0877
生於天上	-12.0878
麞	-12.0879
曇摩	-12.0879
此經復有諸佛菩薩十	-12.088
永斷於生死	-12.0881
我今所施悉與一切眾生共之	-12.0882
毛竪	-12.0883
跱	-12.0884
當知是人則為	-12.0885
得不起法忍	-12.0888
說言如來去	-12.0888
床帳	-12.089
答第一難	-12.0894
故名為護戒	-12.09
稱之為	-12.0902
寶棺	-12.0922
重顯向前	-12.0939
莫愁	-12.094
初疑問	-12.0956
種殖	-12.0963
ṃ	-12.1008
當知是法久住	-12.1048
v	-12.1082
作是誓	-12.1084
太虛	-12.1106
ra	-12.1144
na	-12.1205
三釋義二初	-12.1251
緣覺所及	-12.1259
於晨朝時	-12.1262
持諸香	-12.1355
氈	-12.1388
誠如聖教	-12.1402
說四真諦	-12.1465
愆	-12.1471
奚	-12.1475
皷	-12.1479
猿	-12.1484
柝	-12.1484
暑	-12.1485
雲雷	-12.1486
臰	-12.1487
寱	-12.1487
涅槃經疏私記卷第	-12.1488
覔	-12.1489
橫生樂想	-12.149
棊	-12.149
侶	-12.1491
如六大賊	-12.1492
沮	-12.1493
絡	-12.1493
琉	-12.1494
晦	-12.1497
萌	-12.1498
寇	-12.1499
常觀涅槃行道	-12.1499
洪	-12.1499
感應道交	-12.1499
失諸功德障	-12.1499
􂌞	-12.1501
紀	-12.1502
蒼頡篇	-12.1503
具八自在	-12.1503
置毒乳中	-12.1504
調停	-12.1504
跛	-12.1505
正法欲滅	-12.1505
砂	-12.1505
漱	-12.1505
雇	-12.1506
菩薩名無所得	-12.1506
鍊	-12.1506
庵	-12.1507
周易云	-12.1507
唼	-12.1507
從此訖	-12.1508
阜	-12.1508
捨欲界身	-12.1508
心性差別障	-12.1509
生若是常	-12.151
裸	-12.151
一假一切假	-12.1511
無問自說	-12.1511
境發智	-12.1511
惰	-12.1512
郭璞云	-12.1512
年百二十	-12.1513
定有定無	-12.1513
千輻輪	-12.1513
糞掃	-12.1513
貪嗔癡	-12.1513
心如佛心	-12.1514
所應度者	-12.1514
犍	-12.1514
報定時不定	-12.1514
不來而來	-12.1514
囉	-12.1515
爰	-12.1515
乃至老時	-12.1515
枝末	-12.1515
彼有菩薩名	-12.1515
副	-12.1515
異生異滅	-12.1516
我等從今	-12.1516
汝向所問	-12.1516
警	-12.1516
亦緣四諦	-12.1516
枷	-12.1517
已合共合	-12.1517
自作他受	-12.1517
壽命極長	-12.1517
擘	-12.1517
骸	-12.1517
摩樓迦子	-12.1518
將滅不久	-12.1518
假令縱之	-12.1518
裔	-12.1519
有因有果	-12.1519
常恒無有變易	-12.1519
位階十地	-12.1519
技	-12.152
難施能施	-12.152
摩竭提	-12.152
眾生佛性離眾生有	-12.152
婆枳多城	-12.1521
髻	-12.1521
絺	-12.1521
斷常二見	-12.1521
厥	-12.1521
非如去非不如去	-12.1521
色從煩惱生	-12.1522
澹	-12.1522
蛣	-12.1522
茂盛	-12.1522
如來遮此二邊	-12.1522
鵄	-12.1522
怛	-12.1523
槃那	-12.1523
界知心	-12.1523
生大怖畏	-12.1523
梯隥	-12.1523
僻	-12.1523
伊字三點	-12.1524
賢者阿難	-12.1524
是則名為清淨梵行	-12.1524
以信心故	-12.1525
銷	-12.1525
哽	-12.1525
擎	-12.1525
佛在舍衛	-12.1525
有因緣故亦可得說	-12.1525
藐	-12.1525
一而無二	-12.1525
復名一子	-12.1525
旛葢	-12.1525
我常宣說一切眾生悉有佛性	-12.1525
五行十功德	-12.1525
常住之法不從因緣	-12.1525
必死不疑	-12.1526
燃燈	-12.1527
一切諸法中悉有安樂性	-12.1527
輭	-12.1527
刈草	-12.1527
修道得故	-12.1527
無苦無樂	-12.1528
遊諸覺華	-12.1528
堆	-12.1528
此障對治	-12.1528
捨慈得慈	-12.1528
最尊最勝	-12.1528
當制五根	-12.1528
天中之天	-12.1529
放捨身命	-12.1529
咸作是言	-12.1529
正徧知	-12.1529
憒	-12.1529
㲲	-12.1529
與增上樂	-12.153
成就大乘第一空行	-12.153
諸師異解	-12.153
醒悟	-12.153
故應供養	-12.153
七十三人	-12.153
瘦	-12.153
如瞿曇說	-12.153
便當得成阿耨多羅三藐三菩提	-12.1531
潤澤	-12.1532
以見我故	-12.1532
聞是事巳	-12.1532
其數五百	-12.1532
四意止	-12.1532
盛夏	-12.1532
因見我故	-12.1534
琴	-12.1534
為欲隨順世間法故	-12.1534
七日七夜	-12.1535
屏	-12.1535
娉	-12.1535
以定得故	-12.1536
聽我出家	-12.1536
五種牛味	-12.1537
人非人等	-12.1537
為身痛耶	-12.1537
諸佛世尊知其非真	-12.1537
凡夫謂實	-12.1538
以是事故	-12.1538
若能隨順佛所說者	-12.1538
疾能獲得無生法忍	-12.1538
身諸毛孔	-12.1539
懈慢	-12.1539
惓	-12.1539
今有大師	-12.154
定當得成阿耨多羅三藐三菩提	-12.154
?』『	-12.1541
火不能燒	-12.1541
具大威力	-12.1541
異口同音	-12.1542
此亦不然	-12.1543
須達長者	-12.1543
鬼畜	-12.1544
單疏第八	-12.1544
尉	-12.1545
今昔相對	-12.1545
知止足	-12.1545
低頭	-12.1545
兕	-12.1546
▁37	-12.1546
隨文解釋	-12.1546
當堅發如是	-12.1549
亦說有我	-12.155
身觀菩薩	-12.1552
斷其命	-12.1555
鐮	-12.1557
應更云	-12.156
當勤修	-12.1561
稽首禮	-12.1562
傾側	-12.1563
於大眾中	-12.1563
是謂有盡	-12.1575
如世尊說	-12.1594
如來非天	-12.1601
四識住	-12.1639
乃有無量諸	-12.1655
百千億那由他	-12.1667
□□□□□	-12.171
舉事類	-12.1716
云何當得名	-12.1831
牒以總	-12.1843
中具明	-12.1878
纏裹	-12.1912
熙連河	-12.2069
無數億	-12.2079
中初先明其	-12.212
選	-12.215
真解脫者即是如來又解脫者名曰	-12.2163
辯供奉佛	-12.2176
嶺	-12.2176
不果却住	-12.2183
商	-12.2191
脉	-12.2191
掠	-12.2194
錫	-12.2195
下入文解釋	-12.2196
貨	-12.2197
縫	-12.2198
怨詐親者	-12.2199
蚌	-12.2201
嬪	-12.2201
戈	-12.2202
筮	-12.2203
朴	-12.2203
詩	-12.2204
飄	-12.2206
舉凡顯聖	-12.2207
廣如別章	-12.2208
三論釋	-12.2208
鄉	-12.2209
頻申	-12.221
未入上上證	-12.2212
胤	-12.2213
躄	-12.2214
珮	-12.2215
幹	-12.2215
恠	-12.2215
欠呿	-12.2215
非數緣	-12.2215
羽	-12.2216
次列兩名	-12.2216
五法佐助	-12.2217
初問次辯後結	-12.2217
光明遍照	-12.2217
卒喪	-12.2217
文亦有四	-12.2218
制之一處	-12.2218
緊	-12.2219
隱時一體	-12.222
化地部	-12.2221
說教不定	-12.2221
朱	-12.2222
早晚	-12.2223
我於經中作如是說	-12.2223
誅	-12.2223
四如意足	-12.2224
層	-12.2224
初文又四	-12.2224
解有兩義	-12.2224
戒念護	-12.2224
亭	-12.2224
通致使命	-12.2224
堂閣	-12.2225
煑	-12.2225
費	-12.2225
彼若見答	-12.2225
偪	-12.2225
不活畏	-12.2226
楗	-12.2226
景	-12.2227
諸佛所師所謂法也	-12.2227
而是菩薩所知見覺	-12.2227
生奇特想	-12.2227
間無空處	-12.2227
且共置之	-12.2227
怯弱	-12.2227
劓	-12.2227
廿	-12.2228
捷	-12.2229
疵	-12.2229
勘	-12.2229
慙愧	-12.2229
無愛想	-12.223
示人天魔道	-12.223
慧莊嚴者	-12.223
錐	-12.223
二俱無故	-12.223
不白不黑	-12.223
即空即假即中	-12.223
得宿命智	-12.2231
妒	-12.2231
下佛先嘆	-12.2231
澣	-12.2231
洎	-12.2232
非我非無我	-12.2232
宣揚	-12.2232
獨一無侶	-12.2232
灰身滅智	-12.2232
除一法相	-12.2232
澆	-12.2233
是故號佛為無上士	-12.2233
耘除	-12.2233
毗佛略	-12.2233
非此非彼	-12.2233
如三禪樂	-12.2233
身若存	-12.2233
諭	-12.2234
修空見空	-12.2234
仰觀星宿	-12.2234
阿毗曇	-12.2234
紐	-12.2234
憲	-12.2234
臨涅槃時	-12.2234
不黑不白	-12.2234
拒抗	-12.2234
正善具成就	-12.2235
涕泣	-12.2235
形貌端正	-12.2235
應如是學	-12.2235
撥無因果	-12.2235
悉達太子	-12.2235
有所疑者	-12.2236
不觀福田及非福田	-12.2236
得殺罪	-12.2236
三一相即	-12.2237
突	-12.2237
即我身是	-12.2237
酪從乳生	-12.2238
名不修心	-12.2238
拘耶尼	-12.2238
姦	-12.2238
汝今不應作如是說	-12.2239
以大莊嚴而自莊嚴	-12.2239
無父無母	-12.2239
溉	-12.2239
萌芽	-12.2239
字非字	-12.2239
如佛說偈	-12.2239
師子吼菩薩摩訶薩言	-12.224
非有漏非無漏	-12.224
稟承	-12.224
隱沒太速	-12.224
受具足戒	-12.2241
舉佛昔言	-12.2241
非如來咎	-12.2241
往至王所	-12.2241
於未來世當轉法輪	-12.2241
是顛倒法	-12.2241
危脆	-12.2242
釋摩男	-12.2242
典籍	-12.2242
鍑	-12.2243
長跪叉手	-12.2243
詺	-12.2243
疫	-12.2243
願諸佛土所有眾生	-12.2243
憚	-12.2244
菩薩摩訶薩住是地中亦復如是	-12.2244
菩薩定慧亦復如是	-12.2244
慘	-12.2244
三十七助道法	-12.2244
如是等義我於彼經亦不說之	-12.2244
願樂欲聞	-12.2245
開譬合譬	-12.2245
多有財寶	-12.2245
螘	-12.2245
示教利喜	-12.2246
長跪合掌	-12.2246
四維上下	-12.2246
喻以䱜魚	-12.2246
方等般泥洹	-12.2246
浸	-12.2246
默然不答	-12.2246
顯異惑眾	-12.2247
毘舍佉	-12.2247
聞惡聲	-12.2247
尼𤘽陀	-12.2247
如是自在名為大我	-12.2247
綜	-12.2248
以了因故	-12.2248
等視眾生如羅睺羅	-12.2248
偃	-12.2248
得法眼淨	-12.2248
戒非戒	-12.2248
譬如金師	-12.2248
打擲	-12.2249
云何如來為常住法	-12.2249
無明覆故	-12.2249
巳有還無	-12.225
阿毘跋致	-12.225
八十種好莊嚴其身	-12.225
無常無我無樂無淨	-12.225
繁茂	-12.225
眾生非具	-12.2251
揵沓和	-12.2251
耨	-12.2252
酪不先	-12.2252
是故名為信不具足	-12.2253
八十七億恒河沙數	-12.2253
所須之物	-12.2253
則不得稱為	-12.2253
研詳	-12.2254
所謂大乘大般涅槃	-12.2254
婬怒癡	-12.2256
無能壞者	-12.2256
掩	-12.2256
鑞	-12.2257
當廣流布	-12.2259
慳惜	-12.2259
頂法師撰天台沙門湛然再治	-12.2259
眩	-12.226
至於佛所	-12.2261
先法次譬	-12.2261
摩睺勒	-12.2262
難陀龍王	-12.2262
鳥喻品	-12.2262
𢙣	-12.2263
是生滅法	-12.2264
測量	-12.2266
如意珠	-12.2266
化樂天	-12.2271
紫磨黃金色身	-12.2272
依理起	-12.2274
初唱兩章門	-12.2291
二何以下	-12.2302
前類後	-12.2305
列四名	-12.263
如初月	-12.2633
下是第三段	-12.2742
佛所種諸善根	-12.2806
有法有譬	-12.29
故不應食肉	-12.2943
沃	-12.2952
初結前標後	-12.2952
摘	-12.2959
岳	-12.2964
覩相增悲	-12.2964
管窺	-12.2964
慙	-12.2966
昌	-12.2969
涉路而去	-12.297
旬	-12.2971
眉	-12.2972
遏	-12.2973
敏	-12.2975
軫	-12.2975
金剛以還	-12.2976
茅城	-12.2976
李	-12.2977
外人所計	-12.2979
桴	-12.2979
傲	-12.2979
三惑二死	-12.298
規矩	-12.298
誥	-12.298
若有如是見者	-12.2981
躍	-12.2981
宜審記	-12.2982
其林變白	-12.2982
澤洲云	-12.2982
煎	-12.2983
絃	-12.2983
六大賊者	-12.2984
自我招殃	-12.2985
職	-12.2986
有通有別	-12.2986
不受後有	-12.2987
十六大國	-12.2987
洲渚	-12.2987
五體投地	-12.2987
棗	-12.2987
抄掠	-12.2988
輕動不調障	-12.2988
此不應爾	-12.2988
毳	-12.2989
剎帝利	-12.2989
毀破淨戒	-12.2989
宏	-12.299
如蛇脫皮	-12.299
禰	-12.2991
是義不然牒以總非	-12.2991
生菴摩羅樹	-12.2991
八功德水	-12.2992
懌	-12.2992
暮	-12.2992
見諸色像	-12.2992
淋	-12.2992
彼作彼受	-12.2993
非漏非無漏	-12.2993
凡異聖	-12.2993
霑	-12.2994
我及我所	-12.2994
四分律云	-12.2994
無所復用	-12.2994
曼陀羅華	-12.2995
略廣門	-12.2995
略說法要	-12.2995
熈	-12.2995
昆	-12.2995
罄	-12.2995
有名有實	-12.2995
頰	-12.2995
心行處滅	-12.2995
鵒	-12.2996
机	-12.2996
嵩	-12.2996
夕	-12.2996
畜不淨物	-12.2997
羮	-12.2997
寂然無聲	-12.2997
姝	-12.2997
思滅苦本	-12.2997
心喜說真諦	-12.2997
撓	-12.2998
媟	-12.2998
慼	-12.2999
着	-12.2999
胄	-12.2999
潘	-12.2999
罵詈	-12.2999
二施無差	-12.2999
攪	-12.2999
乃至算數譬喻	-12.2999
因家之果	-12.2999
下佛為辯	-12.2999
承佛神力	-12.2999
囊括	-12.3
是故名為聞不具足	-12.3
堅住信慧	-12.3
夫法性者	-12.3
不醎之物	-12.3
先順後反	-12.3
顯示畢竟甚深功德分	-12.3
列其二名	-12.3001
開空法道	-12.3001
厭離食想	-12.3002
乳中定無酪	-12.3002
無明全在	-12.3002
云何觀三寶	-12.3002
復告女人	-12.3003
六十四能	-12.3003
亦二亦一	-12.3003
豕	-12.3003
尋文可見	-12.3004
命將不全	-12.3004
延促	-12.3004
淨佛國土	-12.3004
况	-12.3004
潮	-12.3004
鑛	-12.3004
賒	-12.3004
世無良醫	-12.3005
鳧	-12.3005
斷五下結	-12.3005
有樹無影	-12.3005
合掌向佛	-12.3005
伇	-12.3005
悉不復現	-12.3006
亦不念言	-12.3006
名不修慧	-12.3006
必懷諂曲	-12.3006
包括	-12.3006
糾	-12.3007
甚奇甚特	-12.3007
如我解佛所說義者	-12.3007
隄塘	-12.3007
莫大愁苦	-12.3007
太昌	-12.3007
佛初成道	-12.3008
非是聲聞緣覺所知	-12.3008
鬚髮	-12.3008
未發菩提心者	-12.3008
譬如鑽火	-12.3009
我作我受	-12.3009
波闍波提	-12.3009
受持讀誦書寫解說十二部經	-12.3009
穌	-12.3009
煩惱覆障	-12.3009
鴟	-12.301
餘殘果	-12.301
慧善解脫	-12.301
脣口乾焦	-12.301
生護法心	-12.3011
無諸雲翳	-12.3011
開演涅槃施	-12.3011
迦蘭陀	-12.3011
震雷	-12.3012
𤚼	-12.3012
如恒河中	-12.3012
涕泣盈目	-12.3012
耆闍崛山	-12.3012
如告比丘	-12.3012
炤	-12.3012
蹉	-12.3013
在家二眾	-12.3013
釆	-12.3013
梟	-12.3013
攻	-12.3013
初先徵問	-12.3013
綆	-12.3014
異法有故異法出生	-12.3014
唯應度者乃能見之	-12.3014
常翹一脚	-12.3014
為欲調伏諸眾生故	-12.3014
荼毗	-12.3014
鈴	-12.3015
離種種自性清淨無我分	-12.3015
嫉妒	-12.3015
淨飯王	-12.3015
世間空虛	-12.3015
薑	-12.3016
為最後問	-12.3016
髦	-12.3016
骨髓	-12.3016
寧捨身命	-12.3017
䟽	-12.3017
捧	-12.3017
供養恭敬尊重讚歎	-12.3017
正念求度	-12.3018
善能隨順一切世間	-12.3018
金銀琉璃	-12.3018
甚可怖畏	-12.3018
如水上泡	-12.3019
異法無故異法滅壞	-12.302
唯應度者	-12.302
侘	-12.3021
過三月已	-12.3021
僧名和合	-12.3021
住壽一劫	-12.3023
說有餘義	-12.3023
悋惜	-12.3023
喘息	-12.3023
▁初科文	-12.3024
鍮石	-12.3024
色即是我	-12.3024
▁38	-12.3025
憂慼	-12.3025
得正法眼	-12.3025
尖	-12.3025
天人阿修羅	-12.3027
濤波	-12.3028
結加趺坐	-12.3028
来	-12.3029
釋迦文尼	-12.303
異法有故	-12.3031
4	-12.3031
受想行識亦復如是憍陳如	-12.3034
繞百千匝	-12.3035
覆相說	-12.3035
牟	-12.3036
能諦了	-12.3047
答第一問	-12.3054
答第四問	-12.3062
生理善	-12.3141
如闇夜	-12.3248
下隨文正解	-12.3437
少食三昧	-12.3775
趙	-12.3778
貞	-12.3788
生公曰	-12.3791
拱	-12.3795
戾	-12.3797
臧	-12.3798
兆	-12.3798
怜	-12.3798
棲	-12.3799
窈	-12.3799
法蓮記	-12.3801
農	-12.3801
綖	-12.3803
猨	-12.3803
庭	-12.3806
迸	-12.3808
印印泥	-12.3808
飡	-12.3808
紳	-12.3808
是六塵賊亦復如是	-12.3809
下明觀利益	-12.3813
點三受	-12.3814
昭	-12.3815
非異色因	-12.3817
厲	-12.3818
胸臆	-12.3819
十一切入	-12.3819
夾	-12.3821
怨親中人	-12.3821
一人具八	-12.3821
云何如來便欲放捨	-12.3822
過去世中	-12.3822
娶	-12.3822
為阿闍世王作決定心	-12.3822
臆	-12.3822
趨	-12.3822
郭	-12.3822
誕	-12.3823
峯	-12.3823
恩赦	-12.3824
隨御者意	-12.3824
僅	-12.3824
漸盈大器	-12.3825
如是菩薩成就欲法	-12.3825
不得名為淨戒具足	-12.3825
令戒雜穢	-12.3825
污辱梵行	-12.3825
繇	-12.3825
中迦葉先問起發	-12.3826
虞	-12.3826
轉輕為重	-12.3827
忌	-12.3827
舉其喻事	-12.3827
說果為因	-12.3828
巨細相容	-12.3828
府	-12.3828
羂索	-12.3828
作決定心	-12.3829
於汝不吉	-12.3829
先別後結	-12.3829
恬	-12.383
恒非恒	-12.383
中初先開列	-12.383
見他得利	-12.383
曇無讖	-12.383
現受女身	-12.383
鑊	-12.383
是可斷相	-12.383
與理相應	-12.3831
獲得常色	-12.3831
能多利益	-12.3831
非肉眼見	-12.3831
至無至處	-12.3831
以藥塗	-12.3831
從性生大	-12.3831
王語耆婆	-12.3832
令法毀滅	-12.3832
非今經意	-12.3832
禱	-12.3832
具受乃得	-12.3832
慨	-12.3833
出無佛世	-12.3833
院	-12.3833
擣	-12.3833
䴬	-12.3833
是人亦名謗佛法僧	-12.3833
作是觀巳	-12.3834
剖	-12.3834
以藥力故	-12.3834
舍利乃可得	-12.3834
皆所不應	-12.3835
寂寞	-12.3835
大如車輪	-12.3835
乘如實道來成正覺	-12.3835
由是道理	-12.3835
迦葉先請	-12.3835
既出家已	-12.3835
脅	-12.3835
亦不應依	-12.3836
嬾	-12.3836
伊帝目多伽	-12.3836
疆	-12.3836
難忍能忍	-12.3836
剃	-12.3836
服與不服	-12.3836
坌	-12.3836
是雜食身	-12.3837
佛等四法	-12.3837
波羅奢樹	-12.3837
一名四實	-12.3837
藕	-12.3837
醻	-12.3837
一人得時	-12.3837
把	-12.3837
現世輕受	-12.3837
小歸大	-12.3837
阿尼婁陀	-12.3837
非新非故	-12.3837
我今問汝	-12.3837
是六大賊	-12.3837
钁	-12.3838
亦知亦見	-12.3838
異因異果	-12.3838
不聞而能得聞	-12.3838
解苦無苦而有真諦	-12.3838
若一切業定得果者	-12.3838
斂	-12.3839
身毛皆竪	-12.3839
箕	-12.3839
佛今答之	-12.3839
今以何義	-12.3839
專著邪見	-12.3839
共業合	-12.3839
逮得己利	-12.3839
引說證成	-12.3839
鹵	-12.3839
流血灑地	-12.384
虎豹	-12.384
所患得除	-12.384
三藐三菩提	-12.384
萎	-12.384
未捨憍慢	-12.384
為佛及僧	-12.384
無終而終	-12.384
儲	-12.384
若知如來常不說法	-12.384
中文殊先問	-12.3841
三諦即一諦	-12.3841
至茶毘所	-12.3841
真解脫中無如是事	-12.3841
如視一子	-12.3841
如鳥飛空	-12.3841
從座而起	-12.3841
二施果報	-12.3841
云何如來問於因緣	-12.3841
躃	-12.3842
紹三寶種使不斷絕	-12.3842
受持讀誦書寫解說	-12.3842
妖	-12.3842
真善妙	-12.3843
摩利迦	-12.3843
是名眾生毒身之中有妙藥王	-12.3843
欝單曰	-12.3843
肝	-12.3843
我親從佛聞如是義	-12.3844
普賢觀云	-12.3844
槩	-12.3844
互相執手	-12.3844
語耆婆言	-12.3844
不共貪滅	-12.3844
無死畏	-12.3844
弗婆提	-12.3845
有始無終	-12.3845
閻浮檀金	-12.3845
歡悅	-12.3845
壇	-12.3845
如是之言亦是如來祕密之教	-12.3846
令其安住阿耨多羅三藐三菩提	-12.3846
名不修戒	-12.3846
息世譏嫌戒	-12.3846
斜	-12.3846
比丘比丘尼優婆塞優婆夷	-12.3846
以自活命	-12.3847
不老不死	-12.3847
行巳復住	-12.3847
鼈	-12.3847
義異名異	-12.3847
舉非顯是	-12.3847
爾時文殊下	-12.3848
受種種苦	-12.3848
受畜八種不淨之物	-12.3848
受持讀誦書寫經卷	-12.3848
國土所有一切眾生	-12.3848
烏鵲	-12.3848
於無量歲	-12.3848
澍	-12.3849
炮	-12.3849
瀑	-12.3849
一人當千	-12.3849
其土人民	-12.3849
呂	-12.385
罔	-12.385
度疑彼岸	-12.385
泊	-12.385
斷於疑網	-12.385
菩薩摩訶薩修是二法	-12.385
鬚	-12.385
如影隨形	-12.385
悉滅無餘	-12.385
乃得名為大涅槃	-12.3851
號釋迦牟尼如來	-12.3851
是名餘報	-12.3851
億那由他阿僧祇劫所習	-12.3851
竅	-12.3852
無我無我所	-12.3852
為欲度脫諸眾生故	-12.3852
阿伽陀藥	-12.3852
一切諸藥悉入其中	-12.3852
強為立名	-12.3852
億那術	-12.3852
𨳝	-12.3853
舉身毛竪	-12.3853
若有隨順佛所說者	-12.3853
北方去此	-12.3853
多犯禁戒	-12.3854
燥	-12.3854
如日初出	-12.3855
雖修一切契經諸定	-12.3855
即能利益一切人天	-12.3855
當自端心	-12.3856
髓腦	-12.3856
b	-12.3857
ś	-12.3857
ṣ	-12.3857
當有何罪	-12.3858
智者了達知其非	-12.3858
瑟	-12.3858
世無良醫治身心	-12.3858
笛	-12.3858
▁176	-12.3859
為心痛乎	-12.3862
馬中無牛	-12.3862
心不隨身	-12.3863
邊即中故	-12.3864
眠則滋多	-12.3864
幔	-12.3864
象馬牛羊	-12.3864
我計無我	-12.3865
而此月性	-12.3865
難行苦行	-12.388
刪闍	-12.3897
明觀益	-12.3898
文自為四	-12.3918
告之曰	-12.3936
□□□□□□□□□□□□□	-12.3955
初法次喻後合	-12.3971
後四十秊	-12.4159
住大般泥洹菩薩	-12.4176
曼	-12.4455
姬	-12.4594
笈	-12.4689
姚秦	-12.4689
殆	-12.4693
鷸	-12.4702
依如毘曇	-12.4705
頞	-12.4707
綱維	-12.4709
從座起	-12.4709
朕	-12.471
鐘	-12.471
換	-12.4712
褥	-12.4713
擔	-12.4713
文非泥出	-12.4716
肘	-12.4716
瞥	-12.4717
偈後長行	-12.4717
癕	-12.4717
七重二諦	-12.4718
破邪通正	-12.4718
縮	-12.4718
涉公云	-12.4721
戴	-12.4721
與百萬億夜叉眾	-12.4722
薦	-12.4722
藝	-12.4722
著壞色衣	-12.4722
非枯非榮	-12.4723
路值一河	-12.4724
腰	-12.4725
知解無記	-12.4725
玄而復玄	-12.4725
與速記	-12.4725
遽	-12.4725
無事不辦	-12.4725
腸	-12.4726
監	-12.4726
即照而寂	-12.4726
迂	-12.4727
離五怖畏	-12.4727
非青見青	-12.4728
捨飾好	-12.4728
非苦非諦是實	-12.4729
蠲三障	-12.4729
執持應器	-12.4729
譬如一室	-12.4729
哮	-12.4729
可聞之法	-12.473
逕	-12.473
寄生一子	-12.473
曆	-12.473
黑黑果報	-12.4731
䥫	-12.4731
贅	-12.4731
粘	-12.4731
廓	-12.4732
根緣感佛	-12.4732
百分不及一	-12.4733
募	-12.4733
北遠云	-12.4733
以常為宗	-12.4733
無二念三昧	-12.4733
耗	-12.4733
以乞自活	-12.4733
猶如白鶴	-12.4733
𤚲	-12.4734
病之良藥	-12.4734
止不啼	-12.4734
動轉輕躁	-12.4735
無縛無脫	-12.4735
作惡不即受	-12.4735
下佛為辨	-12.4735
蓊	-12.4735
小般若云	-12.4735
天耳通	-12.4736
枉	-12.4736
欄楯	-12.4737
菩薩聞說深法	-12.4737
撮	-12.4737
伊帝曰多伽	-12.4737
撾	-12.4737
餘例可知	-12.4737
今悉可問	-12.4738
戚	-12.4738
梯橙	-12.4738
叡	-12.4738
糺	-12.4738
波利質多羅樹	-12.4739
痾	-12.4739
𢇲	-12.4739
娑伽羅龍王	-12.4739
一子遇病	-12.4739
先牒直非	-12.4739
搜	-12.4739
昔徵今	-12.4739
煥	-12.474
艾	-12.474
舟	-12.474
鉞	-12.474
七滅諍法	-12.474
毫釐	-12.474
無常色獲得常色	-12.474
大雲密藏菩薩摩訶薩	-12.474
猶如死人	-12.474
莫知所在	-12.474
樂於惠施	-12.474
肺	-12.4741
捺	-12.4741
忖	-12.4741
讇	-12.4741
埤	-12.4742
水即為清	-12.4742
必定當墮阿鼻地獄	-12.4742
隋淨影寺沙門釋慧遠述	-12.4742
從今已往	-12.4742
一人具七	-12.4742
但今文中	-12.4742
就初番中	-12.4743
后妃	-12.4743
生信敬心	-12.4743
勿令忘失	-12.4743
波逸提	-12.4743
示生示滅	-12.4743
肅	-12.4743
轉無上法輪	-12.4743
非此作此受	-12.4743
禽	-12.4743
熾燃	-12.4743
船舫	-12.4744
躭	-12.4744
名色六入觸受	-12.4744
禿	-12.4744
因滅故果滅	-12.4744
阿之言無	-12.4744
念所受法	-12.4744
合和湯藥	-12.4745
粖	-12.4745
轉下作中	-12.4745
非苦非樂	-12.4746
汗	-12.4746
近對治法	-12.4746
非律不證	-12.4746
如來常存不變	-12.4746
常當攝念在心	-12.4746
羸瘦	-12.4746
呿	-12.4747
而大號哭	-12.4747
從何來	-12.4747
夸	-12.4747
方便顯發門	-12.4748
投如來前	-12.4748
押	-12.4748
度阿若憍陳如	-12.4748
瀉	-12.4749
懼其有盡	-12.4749
即是無上大般涅槃	-12.4749
胲	-12.4749
從乳出酪	-12.4749
轂	-12.4749
頗棃	-12.4749
為眾作依止	-12.4749
無量億煩惱	-12.4749
智者觀業	-12.475
如薪盡火滅	-12.475
四百四病	-12.475
劫掠群牛	-12.475
娠	-12.475
身為在先	-12.475
我又復說	-12.475
勿懷悲惱	-12.4751
善來比丘	-12.4751
棋	-12.4751
王復得病	-12.4751
貢	-12.4751
譬如春月	-12.4751
為不斷絕種種說法	-12.4751
隨汝意答	-12.4751
住七善法	-12.4752
從牛出乳	-12.4752
薺	-12.4752
大眾所問品	-12.4752
甚可憐愍	-12.4752
從無常因生	-12.4752
卝	-12.4752
結以顯過	-12.4752
效	-12.4752
我今身心豈得不痛	-12.4752
恣汝所問	-12.4752
受畜一切不淨之物	-12.4753
毘梨耶波羅蜜	-12.4753
栽	-12.4753
汝言眾生若有佛性	-12.4753
設諸供具	-12.4753
筒	-12.4753
蠭	-12.4753
若一切眾生有佛性者	-12.4754
得具梵行	-12.4754
錠	-12.4754
請決所疑	-12.4754
見是事巳	-12.4754
性自能持	-12.4754
脾	-12.4754
止不啼哭	-12.4754
郁	-12.4755
蓐	-12.4755
在在生處	-12.4755
所迷沒處	-12.4755
還從口入	-12.4755
莫作是語	-12.4755
文殊師利菩薩摩訶薩白佛言	-12.4755
付嚴師	-12.4755
?』」「	-12.4756
云何得廣大為眾作依止	-12.4756
睺	-12.4757
啝	-12.4757
不宿死尸	-12.4757
受為攝取	-12.4758
鮮潔	-12.4758
自識宿命	-12.4758
涇渭	-12.4759
頭目髓腦	-12.4759
以呪力故	-12.4759
弗于逮	-12.4759
不為世法之所沾污	-12.4759
森	-12.476
名為食油	-12.476
初總別科分	-12.476
不可說空及以不空	-12.476
不共貪生不共貪滅	-12.4761
即便命終生人天中	-12.4761
郎	-12.4762
倣	-12.4762
涅槃經疏卷第十	-12.4762
衣纏身	-12.4763
如來應供正徧知	-12.4763
摸	-12.4763
化周掩迹	-12.4763
無所從來	-12.4764
阿羅羅	-12.4764
􂎔	-12.4764
發大誓願	-12.4765
復告大眾	-12.4765
𦀟	-12.4765
非字非非字	-12.4766
高七多羅樹	-12.4766
攜	-12.4766
f	-12.4766
▁釋德王品之	-12.4766
▁釋梵行品之	-12.4766
䗍	-12.4766
▁二一下別釋	-12.4766
諷誦	-12.4767
佛難值	-12.4767
處在高樓沐浴受齋	-12.4768
是名菩薩知時非時	-12.4768
阿那波那	-12.4769
]	-12.4769
7	-12.4769
十八不共法	-12.4769
拘睒彌	-12.4772
四大毒蛇亦復如是	-12.4776
非變易法	-12.4776
紫磨金	-12.4777
荊棘	-12.4779
一生補處	-12.4781
隨魔教	-12.4786
五六七	-12.4824
當持淨戒	-12.4871
示部執	-12.4974
有苦有諦	-12.5028
舉喻類	-12.5036
肯	-12.5418
有諦有實	-12.542
讒	-12.5616
蓮	-12.566
嶽	-12.5685
祭	-12.5687
熙	-12.5693
毱	-12.5694
塘	-12.5701
轡	-12.5703
邃	-12.5704
磐	-12.5706
罸	-12.5713
𤘽	-12.5715
於母生愛	-12.5715
如乳即成酪	-12.5716
唅	-12.5717
阿竭陀	-12.5717
湖	-12.5718
即實而權	-12.572
囈	-12.5721
於前義中有難解者	-12.5721
卅	-12.5722
避苦求樂	-12.5722
同在初地	-12.5722
弈	-12.5722
烝	-12.5723
勑	-12.5723
貰	-12.5724
仞	-12.5724
媱	-12.5724
裨	-12.5725
等智斷結	-12.5725
折伏汝心	-12.5725
催令速	-12.5726
魯流盧樓	-12.5727
饕	-12.5727
騰眾請	-12.5727
餮	-12.5727
霄	-12.5727
受於法樂	-12.5728
鵠	-12.5728
常伺人便	-12.5729
發速願	-12.5729
牒佛上言	-12.5729
綴	-12.573
即色是空	-12.573
鏃	-12.573
書缺二字	-12.573
庾	-12.5731
籌	-12.5732
驃	-12.5732
腋	-12.5732
當自摩頭	-12.5732
便受佛語	-12.5732
是故名為施不具足	-12.5732
姑	-12.5732
酉	-12.5732
彌沙塞	-12.5733
盆	-12.5733
是故當知無善惡果	-12.5733
從真起應	-12.5734
他心宿命	-12.5734
吾今此身即是法身	-12.5734
何以故下釋以顯	-12.5734
入見諦道	-12.5734
瀾	-12.5735
蛤	-12.5735
如幻如化	-12.5735
忍之為德	-12.5735
受想觸欲	-12.5735
食主答言	-12.5735
有字無義	-12.5735
一經於耳	-12.5736
褐	-12.5736
趺	-12.5736
佛性之性不生涅槃	-12.5736
婚	-12.5736
不少欲不知足	-12.5736
牒以直非	-12.5736
九十八使	-12.5737
嘆顯深	-12.5737
佛之真子	-12.5737
䆳	-12.5737
拭	-12.5737
沒深水中	-12.5737
波利質多樹	-12.5738
牒以結之	-12.5738
如娑羅娑鳥	-12.5738
敝	-12.5739
隙	-12.5739
閙	-12.5739
械	-12.5739
怏	-12.574
得食已住	-12.574
斷大慈種	-12.574
緻	-12.5741
呵以顯過	-12.5741
不因小相	-12.5741
第一義空名為智慧	-12.5741
生育諸子	-12.5741
靜處之人	-12.5741
云何未發心而名為菩薩	-12.5741
一切眾生怖畏生死	-12.5741
當知爾時佛法	-12.5741
麵	-12.5742
非法盛時	-12.5742
住在異處	-12.5742
第五解力	-12.5742
然我巳於無量劫中	-12.5742
是則於我法中能得解脫	-12.5742
未治本云	-12.5743
則不得名一闡提也	-12.5743
師子吼菩薩摩訶薩白佛言	-12.5743
私謂下荊溪	-12.5743
亦有差別亦無差別	-12.5743
及諸魔性	-12.5743
蠅	-12.5743
成就出世間大人功德	-12.5743
棘	-12.5743
髀	-12.5744
奮	-12.5744
篡	-12.5744
冥初生覺	-12.5744
爾時世尊告光明遍照	-12.5744
十六惡律儀	-12.5744
復難於是	-12.5745
墟	-12.5745
絍	-12.5745
漸漸轉深	-12.5745
非所應也	-12.5745
食所長養	-12.5745
胃	-12.5746
暹記云	-12.5746
以法常故諸佛亦常	-12.5746
則得近於大般涅槃	-12.5746
喑咽	-12.5746
秋收冬藏	-12.5746
末利夫人	-12.5746
璞	-12.5747
帝釋諸天所共敬重	-12.5747
以偈讚佛	-12.5747
鍮	-12.5747
其犢調善	-12.5747
如器中果	-12.5747
從遠方來	-12.5747
貧人得寶	-12.5747
何所不收	-12.5748
上妙甘饍	-12.5748
色香味具	-12.5748
折攝涅槃用	-12.5748
得名薩婆若智	-12.5748
遇與不遇	-12.5748
若天魔梵	-12.5748
殺闡提無罪	-12.5748
穉	-12.5748
娛	-12.5748
緣合則受	-12.5749
如子肉想	-12.5749
修淨佛土	-12.5749
攝惡攝邪	-12.5749
渚	-12.5749
調婆達	-12.5749
雪山甘藥	-12.5749
可疾問之	-12.5749
拏	-12.575
諸法悉有自性	-12.575
心共貪生心共貪滅	-12.575
受不淨物	-12.575
影現於外	-12.575
姓瞿曇氏	-12.5751
出已即住	-12.5751
巷	-12.5751
魯留盧樓	-12.5751
蝶	-12.5751
是名如來隨自意語	-12.5751
頸	-12.5751
乃至十方亦復如是	-12.5751
於自身中觀如來性	-12.5751
襯	-12.5751
刊	-12.5751
毘跋致	-12.5752
亦因亦果	-12.5752
情無捨離	-12.5752
秤	-12.5752
無上正真之道	-12.5752
苑	-12.5752
羼	-12.5752
動見修道品	-12.5752
作倡伎樂	-12.5753
為諸眾生調伏因緣故	-12.5753
搥	-12.5753
還其所止	-12.5753
云何當言如來祕藏	-12.5753
若老若少	-12.5753
乳中得酪	-12.5754
深固難拔	-12.5754
得斷除一切煩惱	-12.5754
㮏	-12.5754
復應問言	-12.5754
㭊	-12.5754
九孔常流	-12.5754
智慧臺殿	-12.5754
邏時乃至老時	-12.5754
非身非口	-12.5755
受我微供	-12.5755
復次善男子菩薩摩訶薩復作是願寧	-12.5755
豬	-12.5755
鍼	-12.5755
不牢固	-12.5755
五熱炙身	-12.5755
迦鄰提	-12.5756
日可令冷	-12.5756
字悉達多	-12.5756
人中之雄	-12.5756
推步盈虛	-12.5756
即皆得度	-12.5756
誡勸捨著	-12.5757
譬如聖王所有輪寶	-12.5757
錢塘沙門釋智圓	-12.5757
兜	-12.5757
初非佛旨	-12.5758
成就如是無量無邊功德	-12.5758
排	-12.5758
迅	-12.5758
信順一實	-12.5758
名隨自意說	-12.5758
三種藥中無三種病	-12.5758
如蟲食木	-12.5758
溪	-12.5758
英	-12.5759
持如是等供養之具	-12.5759
汝今不應作如是難	-12.5759
壞命根死	-12.576
是故名曰大般涅槃	-12.576
恍	-12.576
蔑	-12.576
截其手足	-12.5761
未得第二第三住處	-12.5761
菩薩百三十億	-12.5761
斷三界煩惱	-12.5761
風所吹	-12.5761
纂	-12.5761
闍提首那	-12.5761
非變易法非磨滅法	-12.5761
吾聖教中	-12.5761
兩因兩果	-12.5761
鵰	-12.5763
潮不過限	-12.5763
入禪定窟	-12.5763
氎	-12.5763
裝	-12.5764
噓	-12.5764
輦輿	-12.5764
欲求正法應如是學	-12.5764
繫屬於魔	-12.5764
碁	-12.5764
牛頭栴檀	-12.5765
▁ka	-12.5766
一因生一切果	-12.5766
人及非人	-12.5766
ḥ	-12.5766
▁釋師子吼品之	-12.5766
o	-12.5766
除生一法	-12.5768
8	-12.5768
勤求出道	-12.5768
泝	-12.5768
清冷水	-12.5768
2	-12.5769
眾生猶如一子	-12.5771
六反震動	-12.5771
二舉譬帖	-12.5773
今於此間拘尸那城	-12.5776
眄	-12.578
復次瞋有二種	-12.578
捨向得果	-12.5784
如畫石	-12.5834
▁二初法下隨	-12.5872
先自徵	-12.6187
煩惱所纏	-12.6204
何得不愁	-12.6519
㪷	-12.6718
惛	-12.6777
燕	-12.6793
它	-12.6795
曀	-12.6801
隴	-12.6803
乙	-12.6805
燈生闇滅	-12.6809
佩	-12.6809
捨一取一	-12.6813
箇	-12.6814
提舍尼	-12.6817
偉	-12.6817
慧朗別述	-12.6817
中得十一空解	-12.6819
參預世事	-12.6821
芝	-12.6822
淮	-12.6823
寅	-12.6823
寓	-12.6824
滴	-12.6825
耿	-12.6825
埋	-12.6825
舶	-12.6825
地住巳上	-12.6827
擒	-12.6827
止行二善	-12.6828
熱與赤色	-12.6828
以涅槃心修	-12.683
揖	-12.6831
樞	-12.6831
是時中夜寂然無聲	-12.6831
拂權顯實	-12.6831
即其例也	-12.6832
員	-12.6832
大夜叉將	-12.6832
佞	-12.6833
得大堅固力	-12.6833
臍	-12.6834
欲欺我耶	-12.6835
有諸外道復作是言	-12.6836
運手動足	-12.6836
云何而言願如來住	-12.6836
崔	-12.6837
四根未具	-12.6837
從始至終	-12.6838
砧	-12.6838
役力農作	-12.6838
如蠶處繭	-12.6838
迄	-12.6839
菩薩摩訶薩安住具足如是十法	-12.6839
有翻無翻	-12.6839
競捉瓦石	-12.684
悲近召遠	-12.684
舡	-12.684
調柔不動三昧	-12.684
痢	-12.684
鳩槃荼	-12.684
髮毛爪齒	-12.6841
穽	-12.6842
六禪定功德	-12.6842
開半明滿	-12.6842
徙	-12.6842
復有菩薩自言戒淨	-12.6842
䭾	-12.6843
寮	-12.6843
閇	-12.6843
叔	-12.6843
無所宗仰	-12.6843
阿彌陀	-12.6843
蹤	-12.6843
狎	-12.6844
先生後滅	-12.6845
見世間常乃至非如去非不如去	-12.6845
多有所關	-12.6845
儻	-12.6845
駱	-12.6845
嘖	-12.6845
如十方界所有	-12.6846
頹	-12.6846
栴	-12.6846
兢	-12.6846
一詐親善及六大賊	-12.6846
人不喜見	-12.6846
自見面貌	-12.6846
趣得支身	-12.6847
訾	-12.6847
猥	-12.6847
刖	-12.6847
雙破兩執	-12.6847
楔	-12.6847
於無量義說無量名	-12.6847
非本非末	-12.6848
歒	-12.6848
是故宜應質直其心	-12.6848
匪	-12.6848
阿逸多	-12.6848
奄	-12.6848
所不便食而強食之	-12.6848
蟄	-12.6848
陰無繫者	-12.6849
下出能空體	-12.6849
憤	-12.6849
拆	-12.6849
義味深邃	-12.685
逃至他國	-12.685
汝今不應發如是言	-12.685
瑰	-12.685
五不忘念功德	-12.685
二十五有有我不耶	-12.685
袪	-12.685
八千聲聞	-12.685
聽食三種淨肉	-12.685
依根本清淨戒	-12.685
疼	-12.685
非淨非不淨	-12.6851
能制人非法	-12.6851
陂	-12.6851
偏袒右臂	-12.6851
依因此戒	-12.6851
曝	-12.6851
煩惱大河亦復如是	-12.6852
不名入道智慧人也	-12.6852
是故名為智不具足	-12.6852
是故汝等當好制心	-12.6852
譬如黑蚖在汝室睡	-12.6852
灰覆火上	-12.6852
發無上菩提心	-12.6852
爆	-12.6852
塊	-12.6852
聞者亦解說於眾生	-12.6853
持戒苦行所不能及	-12.6853
王髻中明珠	-12.6853
煩惱毒蛇睡在汝心	-12.6853
不造新業	-12.6853
復告大臣	-12.6853
羅閱祇	-12.6853
攘	-12.6853
有菩薩安住如是金剛三昧	-12.6853
依邪人語	-12.6854
郭璞注	-12.6854
聘	-12.6854
持刀仗	-12.6854
雖不常住非念念滅	-12.6854
空中無刺	-12.6854
一闡名信	-12.6854
懅	-12.6854
以手捧鉢	-12.6854
去地七多羅樹	-12.6854
菩薩觀此煩惱猶如大河	-12.6854
脹	-12.6854
昴	-12.6855
占相吉凶	-12.6855
譬如清冷雲中	-12.6855
五住至初住	-12.6855
厨	-12.6855
蒱	-12.6855
鑄	-12.6855
法僧二寶	-12.6855
從大生慢	-12.6855
身中有妙藥王	-12.6856
不至惡國	-12.6856
有字有義	-12.6856
非醫咎也	-12.6856
反通俗文	-12.6857
酷	-12.6857
􂌤	-12.6857
如來不久當般涅槃	-12.6857
知病說藥	-12.6857
診	-12.6857
尿	-12.6857
陛	-12.6857
僂	-12.6858
我說是慈有無量	-12.6858
如老象溺泥	-12.6858
獨處閑居	-12.6858
今試言之	-12.6858
猶如天意樹	-12.6858
瓌	-12.6858
我婦懷妊	-12.6858
我於處處經中說	-12.6858
沒水而死	-12.6858
名色繫縛名色	-12.6858
酸	-12.6858
唯願為我分別解說	-12.6858
我捨家法	-12.6859
隨其類音普告眾生	-12.6859
二修習世間功德分	-12.6859
舉小顯大	-12.6859
如闇遇明	-12.6859
居士請僧	-12.6859
明與闇共住	-12.6859
若念力堅強	-12.6859
臻	-12.6859
阻	-12.6859
汝等所行是菩薩道	-12.686
若以滅目無以度目有	-12.686
貼	-12.686
神通窟法門	-12.686
盡智無生智	-12.686
互為藥病	-12.686
說現世報	-12.686
復加二分	-12.686
冑	-12.686
不見空與不空	-12.686
愛之甚重	-12.686
坎	-12.6861
糅	-12.6861
如來具足知諸根力	-12.6861
置而不論	-12.6861
生必是女	-12.6861
凡夫之人不攝五根	-12.6861
乳中先有酪性	-12.6861
燈之與油	-12.6861
入五淨居	-12.6861
從初一日至十五日	-12.6861
苦止一世	-12.6862
召請涅槃眾	-12.6862
何能了他	-12.6862
所演教誨	-12.6862
置寒林中	-12.6862
非想非不想處	-12.6862
何故不得名須陀洹	-12.6862
如於掌中觀阿摩勒	-12.6862
若汝欲得寂滅樂者	-12.6862
即事而真	-12.6862
加之以水	-12.6862
居輕利	-12.6862
云何復名一切義乎	-12.6862
聽善星出家	-12.6863
是故智者制而不隨	-12.6863
生死大海中云何作船師	-12.6863
蕀	-12.6863
處在深宮	-12.6863
若有初入法者	-12.6863
睫	-12.6864
加二分水	-12.6864
眾鳥集之	-12.6864
資生所須	-12.6864
此彼之彼岸	-12.6864
手自作食	-12.6864
佛世難值	-12.6864
圊	-12.6864
當急捨離亂心戲論	-12.6864
成佛不成佛	-12.6865
當有何咎	-12.6865
則有枯折之患	-12.6865
一切世間動不動法	-12.6865
如鹽性醎	-12.6865
非智緣滅	-12.6865
菩薩觀於五陰如旃陀羅	-12.6865
脫未脫者	-12.6865
纓絡	-12.6865
從身離身	-12.6865
轉妙法輪	-12.6865
為欲化度諸眾生故	-12.6865
若有沙門若婆羅門若天若魔若梵若人	-12.6865
若有經律作是說者	-12.6865
雖受人身	-12.6865
以今難昔	-12.6866
槍	-12.6866
帥	-12.6866
懈怠睡眠苦對治	-12.6866
是諸國王及四部眾	-12.6866
若人有智慧之照	-12.6866
豺	-12.6866
佛眼乃至慧眼	-12.6866
亦因亦因因亦果亦果果	-12.6866
月可令熱	-12.6866
有因則有果	-12.6866
當順僧命	-12.6867
舁	-12.6867
如羅剎女婦	-12.6867
薄拘羅	-12.6867
臣來朝白	-12.6868
霔	-12.6868
如龜陸生	-12.6868
無得多求壞其善心	-12.6868
馬師滿宿	-12.6868
如來為欲度眾生故	-12.6868
是故稱佛為無上醫	-12.6868
汝等遇我	-12.6868
阿叔迦樹	-12.6868
斑	-12.6869
厚八十四萬億里	-12.6869
圓光一尋	-12.6869
此則略說持戒之相	-12.6869
呪術仙藥	-12.687
非男非女	-12.687
雖有弟子解甚深義	-12.687
亟	-12.687
如雪山中雖有毒草亦有妙藥	-12.687
士屈伸臂頃	-12.687
令無所乏	-12.6871
螳	-12.6871
我諸弟子聞是說巳不解我意唱言佛說	-12.6871
復能充足餘渴仰者	-12.6872
文殊師利菩薩白佛言	-12.6873
全身舍利	-12.6873
世尊欲令此諸大眾皆得堅固	-12.6873
大河水亦無量	-12.6873
慟	-12.6873
壺	-12.6873
閱	-12.6874
於四供養知量知足	-12.6874
咸言一切悉是無常	-12.6874
藪	-12.6874
晃	-12.6874
菩薩摩訶薩觀第一義空	-12.6874
今者近在王舍城住	-12.6875
為諸弟子說如是法	-12.6875
知是菩薩所作已辦	-12.6875
斷塞諸道	-12.6875
箏	-12.6875
販賣市易	-12.6875
跪	-12.6875
是則能有善法	-12.6876
諸善功德皆不得生	-12.6876
舉手拍頭	-12.6876
士調御丈夫天人師佛世尊	-12.6877
訂	-12.6877
降神母胎	-12.6877
無所嬈害	-12.6877
▁初懸談	-12.6877
皆是敗壞不安之相	-12.6878
從須陀洹至辟支佛	-12.6878
我諸弟子展轉行之	-12.6878
即空而假	-12.6878
儼	-12.6879
若有不能如是觀者	-12.688
令我正法廣行流布	-12.688
我今定是轉輪聖王	-12.688
如火燒物	-12.688
勿令毀缺	-12.6881
右膝著地而發誓言	-12.6881
我昔曾聞五通仙說	-12.6881
徧觀四方	-12.6882
九十一墮	-12.6884
最尊最上	-12.6884
呻	-12.6884
無量恒河沙等眾生發	-12.6885
舂	-12.6888
亦當修習如是二法	-12.6893
增過如經不得	-12.6893
能於正法欲	-12.6932
▁二初正下隨	-12.7082
▁二此即下隨	-12.7152
▁二初云下隨	-12.7323
修道之第	-12.7487
說言佛性非內	-12.7526
眼耳鼻舌	-12.7729
駟	-12.8033
姚	-12.8035
煬	-12.8059
駿	-12.8063
踔	-12.8064
甫	-12.8064
遁	-12.8065
矚	-12.8067
蒭	-12.8071
六根互用	-12.8071
訥	-12.8071
先同後異	-12.8073
芸	-12.8073
䅎	-12.8075
釰	-12.8075
鍋	-12.8075
令現輕報轉地獄受	-12.8077
不作異色因果	-12.8077
跨	-12.8078
箱	-12.808
羈	-12.808
如雜血乳	-12.8081
稻米末	-12.8081
相帶而來	-12.8081
嚼	-12.8082
弶	-12.8083
有難解者問答重	-12.8083
則自妨道	-12.8083
梓	-12.8084
峙	-12.8084
不令過分以竭其力	-12.8084
於諸常中最為第一	-12.8084
矇	-12.8085
籌量牛力所堪多少	-12.8085
擅	-12.8086
善始令終	-12.8086
魂	-12.8087
若有人來節節支解	-12.8087
四向顧望	-12.8087
巳合共合	-12.8088
騃	-12.8088
餐	-12.8088
梵佉婁	-12.8088
餧	-12.8089
轉得無上利	-12.8089
授不殺戒	-12.809
驕	-12.809
說非道為道	-12.809
非明非闇	-12.809
增上非增上	-12.809
鴆	-12.809
乳為酪因	-12.809
復有八十百千	-12.8091
鏁	-12.8091
三請佛正義如來為	-12.8091
爾時佛告諸大眾言	-12.8091
蹋	-12.8092
翔	-12.8092
為斷彼彼疑	-12.8092
𦟛	-12.8092
􂌰	-12.8092
常為無量煩惱所覆	-12.8093
雕	-12.8093
為諸弟子略說法要	-12.8093
五根五塵及	-12.8093
頭蒙塵土	-12.8093
操	-12.8094
訴	-12.8094
趣向一闡提道	-12.8094
止他客舍	-12.8094
從微至著	-12.8094
輕業重受	-12.8094
縱此心者喪人善事	-12.8094
細相習障	-12.8094
云何復示現究竟於涅槃	-12.8094
菟	-12.8095
起多功德三昧	-12.8095
畔	-12.8095
舉淺況深	-12.8095
鄭玄曰	-12.8095
慈光善巧住持分	-12.8095
皃	-12.8095
無師自悟	-12.8095
四不疲倦功德	-12.8095
賸	-12.8096
一色一香無非	-12.8096
息化歸真	-12.8096
能為無漏道相	-12.8096
漸漸還飲	-12.8096
八臂天	-12.8097
承佛聖旨	-12.8097
板	-12.8097
尠	-12.8097
撥亂反正	-12.8097
衿	-12.8097
於是義中不能分別	-12.8097
節身時食	-12.8098
甚於怨家	-12.8098
富單那	-12.8098
即是諸佛之法性	-12.8098
革凡成聖	-12.8098
蔓	-12.8098
謟	-12.8099
初地至三地	-12.8099
如來正爾當般涅槃	-12.8099
如由乾陀	-12.8099
善言誘喻	-12.8099
我以自在為義	-12.8099
如來有憂及以無憂	-12.8099
先出所空境	-12.8099
菜	-12.81
善解方藥	-12.81
澗	-12.81
先小後大	-12.81
舉非果為難	-12.81
憋	-12.8101
悉曇章	-12.8101
水渧雖微	-12.8101
百獸孚乳	-12.8101
蚤	-12.8101
一切眾生無不瞻仰	-12.8101
漸次而制	-12.8101
云何解滿字及與半字義	-12.8101
貸	-12.8101
深經善義	-12.8102
笑而捨去	-12.8102
今於此經而得	-12.8102
當知是經為無威力	-12.8102
亦復不為諸根所牽	-12.8102
後致有悔	-12.8102
若有智慧則無貪著	-12.8102
帚	-12.8103
和伽羅那	-12.8103
初牒執非之	-12.8103
殃及累世	-12.8103
甘味多故不能自變	-12.8103
沐	-12.8103
咀	-12.8103
陀那婆	-12.8103
晝則勤心修習善法	-12.8103
即俗而真	-12.8104
挽	-12.8104
願善思之	-12.8104
坐於道場菩提樹下	-12.8104
從業生有	-12.8104
常自省察不令有失	-12.8104
以佛道聲令一切聞	-12.8105
放牧人	-12.8105
迢然別	-12.8105
六分別未入上上證為斷疑分	-12.8105
液	-12.8105
悉皆當得不動果報	-12.8105
零	-12.8105
麾	-12.8105
面上三目	-12.8105
眾生雖無菩提之心	-12.8106
寱言刀刀	-12.8106
分別總相成就畢竟功德	-12.8106
夢見羅剎	-12.8106
具足成就第六功德	-12.8106
膿	-12.8107
卷成部第	-12.8107
瘠	-12.8107
總一別二	-12.8107
自此他彼	-12.8107
舉劣況勝	-12.8107
非斷非不斷	-12.8107
常當自勉精進修之	-12.8107
汝等但當勤而行之	-12.8107
阿尼樓馱	-12.8107
從愛生取	-12.8107
蟬	-12.8108
亦如惡馬不以轡制	-12.8108
破其滯邊失理	-12.8109
吾當為汝分別宣	-12.8109
乳時無酪	-12.8109
卿若不能犯	-12.8109
五顯示入證決定分	-12.8109
閻羅王	-12.8109
阿㝹樓䭾	-12.8109
因果自相成就畢竟功德	-12.8109
堀	-12.8109
大總相成就畢竟功德	-12.8109
雖服袈裟	-12.8109
懈怠懶惰	-12.8109
更相謂言	-12.8109
琦	-12.8109
魅	-12.8109
受諸飲食當如服藥	-12.8109
唯願大仙說	-12.811
榻	-12.811
云何諸調御心喜說真諦	-12.811
延年益壽	-12.811
晨	-12.811
墾	-12.811
當尊重珍敬波羅提木叉	-12.811
是續待二假	-12.811
云何捨生死如蛇脫故皮	-12.811
駁	-12.811
家屬修治產業	-12.811
為說種種法要	-12.811
丙	-12.811
如帝釋幢	-12.811
梗	-12.811
糟	-12.811
勗	-12.811
前是弟子位	-12.8111
肢	-12.8111
一切諸法性本自空	-12.8111
當以聞思修慧而自增益	-12.8111
觸事有餘常無不足	-12.8111
一教一切教	-12.8111
濯	-12.8111
熾然世法說	-12.8111
恒河中七種眾生	-12.8111
復於佛前而說偈言	-12.8111
非導過也	-12.8111
觜	-12.8111
若多若少	-12.8111
有諸凡夫復作是言	-12.8111
餌	-12.8111
欲放逸苦對治	-12.8111
願與一切眾生共之	-12.8112
云何而言可得見聞	-12.8112
未有多聞弟子	-12.8112
初夜後夜亦勿有廢	-12.8112
杳	-12.8112
若言乳中定有酪相	-12.8112
肥已轉賣	-12.8112
吼通兩處	-12.8112
菩薩知於法相	-12.8112
淚下如雨	-12.8112
楹	-12.8112
迦葉復白去	-12.8112
開法門成就畢竟功德	-12.8113
一人各有一我	-12.8113
是律應證	-12.8113
亦當護口勿出惡言	-12.8113
嫁	-12.8114
稠	-12.8114
牛無損命	-12.8114
還至家中	-12.8114
得廣長舌	-12.8114
生育一子	-12.8114
搥胸大叫	-12.8114
翫	-12.8114
剎利婆羅門毗舍首陀	-12.8114
無煩惱為涅槃耶	-12.8114
若言乳中定有酪者	-12.8114
乃至一花散於空中	-12.8114
後夜當般涅槃	-12.8115
阿浮陀達磨	-12.8115
嚚	-12.8115
後世諸善種子	-12.8115
云何菩薩修行大乘	-12.8115
名諸三昧王	-12.8115
皺	-12.8116
薉	-12.8116
地獄重報現世輕受	-12.8116
暨	-12.8116
云何於今乃名為生	-12.8116
入道之人則無是處	-12.8116
鑑	-12.8116
白㲲千張	-12.8116
答知法性問	-12.8116
諸佛法應爾	-12.8116
菩薩知於僧相	-12.8117
文殊師利語純陀言	-12.8117
邪正品第九	-12.8117
如是之言即是如來祕密之教	-12.8117
迦葉如來有是經不	-12.8117
正助合行	-12.8118
鳥喻品第十四	-12.8118
亦不畢竟入於涅槃	-12.8118
萊	-12.8118
戒是正順解脫之本	-12.8118
投淵赴火	-12.8118
習近五欲	-12.8119
以大悲心復為眾說	-12.8119
阿羅呵	-12.8119
夫解脫中無如是事	-12.8119
塼	-12.812
鬼魅所著	-12.812
得稱為大般涅槃	-12.812
文字品第十三	-12.812
從凡入聖	-12.812
敲	-12.812
當斬其首	-12.812
體血現如波羅奢	-12.812
於一念頃	-12.8121
柵	-12.8121
根淺易動	-12.8121
若身在先	-12.8121
吾從無數劫	-12.8122
瘖	-12.8122
若行者之心數數懈廢	-12.8122
滿十二由旬	-12.8122
未聞如是大涅槃時	-12.8123
世智辯聰	-12.8123
復示摩訶衍方便道	-12.8123
〉	-12.8123
懸繒幡蓋	-12.8123
洽	-12.8123
〈	-12.8123
非過去非未來非現在	-12.8123
應供正徧知明行足善逝世間解無上	-12.8124
痒	-12.8124
羨	-12.8124
不得包藏瑕疵	-12.8124
三合譬作解	-12.8124
分別校計有無量種	-12.8125
名色緣六入	-12.8125
聖行品第十九	-12.8125
二述事奉答	-12.8125
鼉	-12.8125
若有瞻病隨意醫藥	-12.8125
鉗	-12.8126
9	-12.8126
弑	-12.8126
瞿耶尼	-12.8126
五欲自娛	-12.8126
其味極甜	-12.8126
無副軸	-12.8126
是我最後之所教誨	-12.8126
則是如來法身常在而不滅也	-12.8126
四倒品第十一	-12.8127
亦非亦不非非	-12.8127
l	-12.8127
乾慧性地	-12.8127
黿	-12.8127
▁二六道下歷十界釋義	-12.8127
ṛ	-12.8127
眾中皆悉了達四聖諦義	-12.8128
四諦品第十	-12.8128
國王大臣長者居士	-12.8128
以付囑摩訶迦葉	-12.8129
勿得復語	-12.8129
莎	-12.8129
如牛中無馬	-12.813
燒香散華	-12.813
非穢食身	-12.813
鳩槃茶	-12.8131
二王報答	-12.8131
提頭賴吒	-12.8131
閻	-12.8131
麋	-12.8132
豐樂安隱	-12.8132
承佛威神	-12.8132
嘶	-12.8132
著想故倒	-12.8132
澀	-12.8134
非義非非義	-12.8135
巨億萬倍	-12.8136
為二先標列	-12.8137
􂍾	-12.8138
悉與一切眾生共之	-12.8138
兜術天	-12.814
來詣佛所稽首請佛	-12.8141
等觀眾生如視一子	-12.8143
非淨淨非不淨淨	-12.8144
護財象	-12.8144
剝皮為紙	-12.8146
亦得名為具足十二	-12.8166
大段之第	-12.8176
八十四億	-12.8195
▁二初標下隨	-12.8208
▁二法說下隨	-12.8241
▁二初番下隨	-12.8243
常命色力安無礙辯	-12.8248
▁二就初下隨	-12.8375
▁二初一下隨	-12.8588
一列眾歎德	-12.9051
墳	-12.9384
裕	-12.945
琪	-12.9455
心好修善修福極	-12.9456
繕	-12.946
未為全當	-12.948
壬	-12.9482
熨	-12.9484
鉢建提	-12.9484
舛	-12.9485
俊	-12.9485
復倍上數	-12.9485
窘	-12.9487
朔	-12.9488
芳	-12.9493
銜	-12.9493
穆	-12.9495
如蠟印印泥	-12.9497
是人罪業亦復如是	-12.9497
濡	-12.9498
蠲	-12.9499
愜	-12.95
琰	-12.95
懦	-12.9501
匐	-12.9501
彗	-12.9502
逈	-12.9502
有諸外道復言有樂	-12.9502
中初問次辨後結	-12.9502
樏	-12.9503
菊	-12.9504
剪	-12.9504
佛告定化王菩薩	-12.9504
憊	-12.9504
家姓尊貴	-12.9506
二口處木叉	-12.9506
匂	-12.9506
冊	-12.9507
賀	-12.9507
矩	-12.9508
茅	-12.9509
楯	-12.9509
名出已沒	-12.9509
波夜提	-12.9509
陜	-12.9509
從後向前次第	-12.951
僧伽梨	-12.9511
松	-12.9511
於諸莊嚴最為第一	-12.9512
將奪先與	-12.9512
萍	-12.9512
內無色相外觀色	-12.9514
眼界性分	-12.9514
吏	-12.9514
木牛木馬	-12.9515
法師成就畢竟功德	-12.9515
百福成一相	-12.9515
於下苦中而生樂想	-12.9516
髠	-12.9516
颺	-12.9516
同共一群	-12.9516
惶	-12.9516
有人出世具煩惱性	-12.9517
丑	-12.9517
班	-12.9517
倪	-12.9517
勁	-12.9518
凡夫有苦無諦	-12.9518
狩	-12.9518
而修捨想是第	-12.9518
其聲清妙	-12.9518
時有無量諸大弟子	-12.9518
祗	-12.9518
其處有瘡	-12.9518
從慢生十六法	-12.9519
從漸入頓	-12.9519
病去藥亡	-12.9519
賊來侵國	-12.9519
唯果非報	-12.9519
㿇	-12.9519
如被劫害	-12.952
餘緣亦一境	-12.952
我事未訖	-12.952
兩羊相觸	-12.952
云何諸菩薩遠離一切病	-12.952
何況出家入道之人	-12.952
如來終不作如是計	-12.952
尚非世俗白衣所宜	-12.9521
噎	-12.9521
當知諂曲但為欺誑	-12.9521
輕報地獄重受	-12.9521
不聽聲聞弟子食肉	-12.9521
㿃	-12.9521
奕	-12.9521
跌	-12.9522
腎	-12.9522
淨名杜口	-12.9522
是故我於契經中說	-12.9522
柯	-12.9522
先略後廣	-12.9523
瞋猶可恕	-12.9523
揩	-12.9523
為知足者之所憐愍	-12.9523
蔔	-12.9524
能吼無量師子吼	-12.9524
其不能歡喜忍受惡罵之毒如飲甘露者	-12.9524
所設供養倍勝於前	-12.9524
當知是則能師子吼	-12.9524
不樂菩提未發	-12.9524
一切三昧悉入其中	-12.9524
企	-12.9524
於非轉處而生轉想	-12.9524
未必全爾	-12.9524
琳	-12.9524
槌	-12.9524
厝	-12.9525
而為我等之所瞻仰	-12.9525
能明見涅槃無相	-12.9525
虻	-12.9525
阿耆多翅舍	-12.9525
燎	-12.9525
非白非黑	-12.9525
會三寶歸一寶	-12.9525
結好貴人	-12.9526
猿猴得樹	-12.9526
盛壯端正	-12.9526
蔡	-12.9526
非差非無差	-12.9526
何因緣故而作是難	-12.9526
常伺殺人	-12.9526
患機感聖	-12.9526
天降甘雨	-12.9526
咤	-12.9527
云何於大眾而得無所畏	-12.9527
巧言令色	-12.9527
黏	-12.9527
輕罪說重	-12.9527
一切聖人隱不現時	-12.9527
戮之都市	-12.9527
明從燈出	-12.9527
覺名定覺	-12.9527
有我及有我所	-12.9528
於他語言隨順不逆	-12.9528
若攝心者心則在定	-12.9528
藂	-12.9528
鍾	-12.9528
俸	-12.9529
懼不速成	-12.9529
用僧鬘物	-12.9529
略相說廣	-12.9529
我度有彼岸	-12.9529
酌	-12.9529
撝	-12.953
皆當遠離如避火坑	-12.953
燄	-12.953
則是度老病死海堅牢船也	-12.953
斲	-12.9531
則不應求修習聖道	-12.9531
窓	-12.9531
廢半明滿	-12.9531
綌	-12.9531
眼識應獨緣一切	-12.9532
無明憍慢及無常想	-12.9532
眉間有金剛珠	-12.9532
乘羊車	-12.9532
日月星辰	-12.9532
譬如惜水之家	-12.9532
滅苦之道實是真道更無餘道	-12.9533
舉下況上	-12.9533
乳中亦應有草	-12.9533
諸佛世尊以何眼	-12.9533
性明凡未有	-12.9533
展	-12.9533
沓	-12.9533
時節代謝	-12.9533
阿迦尼吒	-12.9533
施一闡提得千倍報	-12.9533
能護持無上正法	-12.9533
進止安詳	-12.9533
於諸功德常當一心	-12.9533
我共八人	-12.9533
云何知天魔為眾作留難	-12.9534
刁	-12.9534
是呪能令諸失心者	-12.9534
唯觀白骨	-12.9534
於師子床上右脇倚臥	-12.9534
譬如有人身被毒箭	-12.9534
菩薩摩訶薩修於淨身	-12.9534
唯除助道常樂善法	-12.9534
諸棃車	-12.9534
人與獼猴俱不	-12.9535
緣是輕毀涅槃經故	-12.9535
若長若短	-12.9535
樗	-12.9535
弟子成就畢竟功德	-12.9535
非絕非不絕	-12.9535
重業輕受	-12.9535
不生煩惱乃名涅槃	-12.9535
如蚊子澤	-12.9535
煩惱果非煩惱因	-12.9535
邠	-12.9536
三意處木叉	-12.9536
根深難可傾拔	-12.9536
亨	-12.9536
從子出果	-12.9536
雖無此岸而有彼岸	-12.9536
不能暫時親近五陰	-12.9536
阿羅邏	-12.9536
飼	-12.9536
猶如拍毱	-12.9536
踏	-12.9536
城內一切士女	-12.9537
蚖	-12.9537
蠆	-12.9537
是故號佛為世間解	-12.9538
兩本兩末	-12.9538
捨諸放逸如離怨賊	-12.9538
若說如來是無常者	-12.9538
收光入口	-12.9538
豹	-12.9538
睒	-12.9538
主諦依諦	-12.9538
舉身毛豎	-12.9538
有少欲者則有涅槃	-12.9538
買已屠殺	-12.9538
舌爛口中	-12.9539
佷	-12.9539
是名隨他意說	-12.9539
是大眾中有此光明	-12.9539
儭	-12.9539
餘命無幾	-12.9539
我與仁者亦復如是	-12.9539
長髮為相	-12.9539
歛	-12.9539
若失念者則失諸功德	-12.9539
不縱不橫不並不別	-12.954
禾	-12.954
同其僧事	-12.954
插	-12.954
大火越逸	-12.954
令彼女人見如是事	-12.954
初牒問非之	-12.954
酪從乳生故言有酪	-12.9541
雖入五欲賊中不為所害	-12.9541
況當故取	-12.9541
飲以清水	-12.9541
摩訶般涅槃那	-12.9541
於自身中生決定	-12.9541
這	-12.9541
我今為汝除斷貧窮	-12.9541
因定發慧	-12.9542
灾	-12.9542
今恣汝問	-12.9542
如來成就如是功德	-12.9542
父名淨飯	-12.9542
大慈大悲及三念處	-12.9542
所召有數類名	-12.9542
瞿曇何故默然不答	-12.9542
琅	-12.9542
搏	-12.9542
呾	-12.9542
鬱頭藍弗	-12.9542
坻羅婆夷	-12.9542
發心畢竟二不別	-12.9542
得成就是金剛身	-12.9543
不知親近善知識故	-12.9543
爾時世尊如是三唱	-12.9543
長短質像	-12.9543
黐	-12.9543
舜	-12.9543
弄	-12.9543
右脅而臥	-12.9543
若我住世一劫會亦當滅	-12.9543
若得聞是大般涅槃	-12.9543
若言因中先定有果	-12.9543
二對治止苦	-12.9544
何故不說虛空為生	-12.9544
飛鳥走獸	-12.9544
坐樹王下	-12.9544
於好於惡勿生增減	-12.9544
涱	-12.9545
度煩惱諸結大海	-12.9545
智者見空及與不空	-12.9545
自投於地	-12.9545
還時歸我	-12.9545
▁39	-12.9545
熬	-12.9545
菔	-12.9545
阿摩勒果	-12.9545
三種病中無三種藥	-12.9545
以初果故名須陀洹	-12.9545
持之如賊不令縱逸	-12.9546
不解如來微密藏故	-12.9546
直是諸佛斷煩惱處	-12.9546
早求自度勿睡眠也	-12.9546
空無相無願	-12.9546
惑全在故	-12.9546
人所惡賤	-12.9546
嬰兒行品第二十一	-12.9546
當念無常之火燒諸世間	-12.9546
如蛇脫故皮	-12.9547
難陀龍王及婆難陀	-12.9547
時憍陳如受佛勅	-12.9547
軄	-12.9547
不長不短	-12.9547
癡人食唾	-12.9547
縵	-12.9547
輞	-12.9547
是故如來不受化身	-12.9547
不縱不橫不竝不別	-12.9547
苦若滅者即是因滅	-12.9547
童男童女	-12.9548
無得懷疑不求決也	-12.9548
愚癡之人謂為真實	-12.9548
若我久住更無所益	-12.9548
初重敘前難	-12.9548
無以睡眠因緣令一生空過無所得也	-12.9548
硨磲碼碯	-12.9548
受我最後供養	-12.9548
若勤精進則事無難者	-12.9549
會而不離終不可得	-12.9549
呵梨勒	-12.9549
後宮妃后	-12.9549
自墜高巖	-12.9549
喜信淨菩薩	-12.9549
汝等若於苦等四諦有所疑者	-12.9549
不令縱逸犯人苗稼	-12.955
執杖視之	-12.955
擇法覺分	-12.955
非乘見乘	-12.955
中夜誦經以自消息	-12.955
糩	-12.955
腑	-12.9551
世間縛著沒於眾苦	-12.9551
貪惜積聚	-12.9551
來至忍界	-12.9551
得生諸禪定及滅苦智慧	-12.9551
爾時光明徧照高貴德王菩薩摩訶薩	-12.9551
旋還赴救	-12.9551
對半明滿	-12.9551
斷煩惱者不名涅槃	-12.9551
洟	-12.9551
乃至見一切無我	-12.9551
豈異人乎	-12.9551
一人得時應多人得	-12.9552
須曼那	-12.9553
乘見非乘	-12.9553
駮	-12.9553
抆	-12.9553
禮彼佛足	-12.9553
是故菩薩名無所得有所得者名	-12.9553
殺亦如是凡夫謂實諸佛世尊知其非真	-12.9553
祁	-12.9553
癃	-12.9553
駃	-12.9554
捨不堅身	-12.9554
自淺階深	-12.9554
廓潤品	-12.9554
左脇出水	-12.9554
想及以命想	-12.9556
j	-12.9556
ṇ	-12.9556
▁bhag	-12.9556
姿	-12.9556
一切眾生等共有之	-12.9557
地平如掌	-12.9557
猶如困病人	-12.9557
獲有餘無餘涅槃之名	-12.9557
伎樂供養於佛	-12.9557
征	-12.9557
非一切果從一因生	-12.9557
若起憍慢當疾滅之	-12.9558
售	-12.9559
阿浮陀達摩	-12.9559
巳能住戒	-12.9559
我今得滅如除惡病	-12.9559
噁	-12.956
聞名識體	-12.956
稽首請我轉	-12.9561
杵	-12.9561
谿	-12.9562
螺	-12.9563
於方等經不起誹謗	-12.9565
我佛法中其誰是耶	-12.9567
拘牟頭	-12.9568
苐	-12.9571
毼	-12.9571
􂚭	-12.9576
汝等深心看我	-12.9577
眊	-12.958
姚秦涼州沙門竺佛念譯	-12.9581
▁二初答下隨	-12.9676
如是如是誠如聖	-12.9834
耳鼻舌身	-12.9971
□□□□□□。□□□	-13.0162
應如過去轉輪聖王所行道	-13.1063
壹	-13.1094
抽	-13.114
璽	-13.1145
宍	-13.1146
世智辨聰	-13.1154
青黑木蘭	-13.1156
双	-13.1156
若縱恚心	-13.1157
孱	-13.1158
嶷	-13.1159
太子未紹位	-13.1159
䗶	-13.1159
潰	-13.116
筭	-13.1161
碩	-13.1162
䩸	-13.1164
複俗複中	-13.1165
凡與凡共行	-13.1166
於其家掘出金藏	-13.1167
緯	-13.1168
樣	-13.1168
掣	-13.1168
定化王菩薩白	-13.1168
矢	-13.1168
餔	-13.1169
如是等疑亦得永斷	-13.1169
王覺瘡愈	-13.117
駄	-13.117
浦	-13.117
咲	-13.117
相對釋二諦義	-13.117
藿	-13.1172
推步盈虗	-13.1173
儔	-13.1174
叨	-13.1175
乱	-13.1177
單俗單中	-13.1177
可牽可縛	-13.1177
木男木女	-13.1177
􂙻	-13.1177
試汝諸菩薩事	-13.1177
𤛓	-13.1177
菩提眾生如來等無二行	-13.1177
珂	-13.1178
不應生下劣心	-13.1178
筞	-13.1178
喜淺樂深	-13.1178
巴	-13.1179
課	-13.1179
一切因地草木葉多	-13.1179
非青非黃	-13.118
不能善攝此五根者	-13.118
措	-13.1181
十四諦出華嚴	-13.1181
耘	-13.1181
我今無預知	-13.1182
噦	-13.1183
身瘡增劇	-13.1183
紏	-13.1183
自降其身而行乞	-13.1184
贍	-13.1184
於是母子遂共俱沒	-13.1184
會漸歸頓	-13.1184
願王宣令	-13.1184
概	-13.1184
聯	-13.1184
悲泣雨淚以手抆淚	-13.1185
以大願力願生其中	-13.1185
從熟酥出醍醐	-13.1185
楷	-13.1185
優曇鉢華	-13.1185
心佛眾生三無差別	-13.1185
今復為人廣說是義	-13.1186
躳	-13.1186
碓	-13.1186
曩	-13.1186
狂象無鉤	-13.1186
凌	-13.1186
阿薩闍病	-13.1187
菩薩實無如是惡業	-13.1187
四雙八隻	-13.1187
畜養人民奴婢畜生	-13.1187
內有色相外觀色	-13.1187
如是女人慈念功德	-13.1187
是時寶珠猶在水中	-13.1188
葬	-13.1188
遞	-13.1188
雖復不與女人和合	-13.1188
亦不言我能自生	-13.1188
於下苦中橫生樂想	-13.1189
言語嘲調	-13.1189
珠陷入體	-13.1189
是故名為先調伏心	-13.1189
亢	-13.119
汝引燈喻	-13.119
鎻	-13.119
乃至意界性分	-13.119
迴駕至其	-13.119
法亦復如是於諸善法為最為上善男子	-13.119
善擇智成就	-13.1191
二多食苦對治	-13.1191
并可示我	-13.1191
阿尼樓駄	-13.1191
柹	-13.1191
理無西逝	-13.1191
出生妙善甘露法味	-13.1191
徤	-13.1191
熱時之炎	-13.1191
黠	-13.1191
如彼迸鐵	-13.1191
二語了於一語	-13.1192
五陰十二入十八界	-13.1192
渜	-13.1192
栴檀貿易凡木	-13.1192
安徐入水	-13.1192
如雪山中雖有毒草	-13.1192
受觸識六入等	-13.1192
痴	-13.1193
黜	-13.1193
拯及無量苦惱眾生	-13.1193
執急則斷	-13.1193
分別諸陰有無量相	-13.1193
心在定故能知世間生滅法相	-13.1193
為得無上大涅槃故	-13.1193
愚癡相應心異	-13.1193
二不同外道損智護	-13.1193
偏方不定教	-13.1193
要因煩惱而得有身	-13.1193
壞欲界結獲得四禪	-13.1193
復得難得無上之利	-13.1193
法及僧而作常想	-13.1193
􂎟	-13.1193
施畜生得百倍報	-13.1194
冀得充足如來大眾	-13.1194
何故不生佉陀羅樹	-13.1194
無有我作他人受果	-13.1194
不知足者雖富而貧	-13.1194
有難解者下重	-13.1194
知足之人雖貧而富	-13.1194
在其尸邊	-13.1194
圭	-13.1194
隨我所行至我至處	-13.1195
將當牽人墜於坑陷	-13.1195
十住菩薩於如來性知見少分亦復如是	-13.1195
握	-13.1195
此地名曰極愛	-13.1195
復令無量無邊眾生墮於地獄	-13.1195
納妃生子	-13.1195
如彼老人受他寄	-13.1195
當急挫之	-13.1196
几	-13.1196
糓	-13.1196
單俗複真	-13.1196
雖無形色而可護持	-13.1196
三智一心中得	-13.1196
如織經盡	-13.1196
如此往推非	-13.1196
智上意地能緣	-13.1196
汝等遇我不應空過	-13.1196
明闡提人有無之義	-13.1196
如斧伐樹	-13.1196
云何如日月太白與歲星	-13.1196
髮白面皺	-13.1196
恊	-13.1197
一切諸業悉得現報	-13.1197
如來一心安住不動	-13.1197
所可示化無量形類	-13.1197
啑	-13.1197
不及修一慈	-13.1197
亦是無明黑暗大明燈也	-13.1197
若人不能如是修習	-13.1197
􂚉	-13.1197
深樂觀察諸對治門	-13.1197
且各裁抑	-13.1197
抱兒而度	-13.1197
如步屈蟲	-13.1197
能令樂業受苦果不	-13.1197
於此最後供養我者	-13.1198
撻	-13.1198
應如剛刀	-13.1198
魁	-13.1198
苨	-13.1198
詐作健相	-13.1198
禹	-13.1198
若欲遠離四顛倒者	-13.1198
號佛為無上師	-13.1198
我當終身為汝弟子	-13.1198
如是等人亦名趣向一闡提道	-13.1198
然後要於大般涅槃	-13.1199
於乘緩者乃名為緩	-13.1199
當以持戒之鉤早	-13.1199
悒	-13.1199
汝欲令我久住世者	-13.1199
不能造作大小諸事	-13.1199
二根及不定根	-13.1199
虎豹豺狼	-13.1199
瑋	-13.1199
昂	-13.1199
是乳雖從草血	-13.1199
迦尼迦樹	-13.1199
牖	-13.1199
阿竭多星	-13.12
一切病者之良藥也	-13.12
是醫最良	-13.12
虱	-13.12
詣師學書	-13.12
妙兜羅綿	-13.12
出興于世	-13.12
生死之中實有樂受	-13.12
於今中夜當般涅槃	-13.1201
下苦因緣受中	-13.1201
陟	-13.1201
庫藏盈溢	-13.1201
自生生他難	-13.1201
裏而非裏	-13.1201
𨵗	-13.1201
如彼小兒及常患者	-13.1201
騎	-13.1201
伐煩惱樹之利斧也	-13.1201
我雖為是善星說法	-13.1201
閑處靜室	-13.1201
犁	-13.1202
於此眾中所作未辦者	-13.1202
無能遏絕	-13.1202
滅我我所見根本	-13.1202
日割三兩	-13.1202
檻	-13.1202
欽婆羅衣	-13.1202
令嬰兒安樂無患	-13.1202
猶如河岸臨峻大樹	-13.1202
解脫之法亦非涅槃	-13.1202
云何勇進者	-13.1202
其人愛心習猶未盡	-13.1202
若得定者心則不散	-13.1202
如是四法所應依止	-13.1203
未熱而息	-13.1203
易受染色	-13.1203
誣	-13.1203
殞	-13.1203
諂曲之心與道相違	-13.1203
業力最深	-13.1203
不見我刀真實之相	-13.1203
及餘無量無邊譬喻	-13.1203
顇	-13.1203
􂙾	-13.1203
此菩提心實非佛性	-13.1203
無悔恨心自然而生	-13.1203
四德王重論	-13.1204
諸智者而作佛事	-13.1204
阿泥樓豆	-13.1204
優曇鉢花	-13.1204
舉深況淺	-13.1204
非待非不待	-13.1204
捨旁取正	-13.1204
稱可沙門之相	-13.1204
一切施皆可讚	-13.1204
一切眾生受苦樂報	-13.1204
法印權大僧都賢寶	-13.1204
云何佛問何因緣故有是光明	-13.1204
人者發意欲度生死大河斷善根故	-13.1204
菩薩摩訶薩安住如是金剛三昧	-13.1204
少欲之人無求無欲則無此患	-13.1204
燿	-13.1204
又從地獄乃至於佛	-13.1204
挍計有無量種	-13.1204
摩訶薩修大涅槃成就具足第四功德	-13.1204
鎔	-13.1204
詭	-13.1205
能令眾生得現在果	-13.1205
誰見誰聞	-13.1205
乾闥婆阿脩羅迦樓羅緊那羅摩睺羅伽	-13.1205
膾	-13.1205
卿若遲晚	-13.1205
得以果家之果為果果	-13.1205
迦枳樓伽	-13.1205
惚	-13.1205
無量無數阿僧祇恒河沙微塵等世界	-13.1205
為害甚重	-13.1205
亦復不應戲論諍訟	-13.1205
示一身以為多身	-13.1205
瓫	-13.1205
菩薩觀察五陰如旃陀羅	-13.1205
樂於慧施修習智慧	-13.1205
齒髮墮落	-13.1206
匱	-13.1206
初不同凡夫增過護	-13.1206
盧脂那	-13.1206
瞽	-13.1206
銜物堅持	-13.1206
無有見者則無果報	-13.1206
阿泥樓逗	-13.1206
久度煩惱大海	-13.1206
醘	-13.1206
為五陰之所賊害	-13.1206
十方恒河沙等諸佛世界	-13.1206
如是之人甚為希有	-13.1206
兇	-13.1207
牡	-13.1207
即得斷除一切色欲	-13.1207
智者若能作如是觀	-13.1207
迦陵伽衣	-13.1207
如人喜眠眠則滋多貪淫嗜酒亦復如是	-13.1207
毘摩質多阿修羅王	-13.1207
此空中無佛法僧及與佛性	-13.1207
低頭飲淚	-13.1207
當自攝心無令瞋恨	-13.1207
菩薩摩訶薩修大涅槃行布施時	-13.1207
無業無結而轉二果	-13.1208
此五根者心為其主	-13.1208
剎那羅婆牟休多	-13.1208
唯除尊者摩訶迦葉	-13.1208
生於食吐鬼中	-13.1208
菩薩未得住不動地	-13.1208
名為身隨於心	-13.1208
墾土掘地	-13.1208
十因緣法為生作因	-13.1208
雖處天堂亦不稱意	-13.1208
睡蛇既出乃可安眠	-13.1208
雪山有草名曰肥膩	-13.1208
抄前著後	-13.1208
腫	-13.1208
大覺世尊將欲涅槃	-13.1208
家人大小無有知者	-13.1208
我從今日制諸弟子	-13.1208
三約諸法廣明中道	-13.1208
佛出世難如優曇	-13.1208
唯不能治必死之人	-13.1208
埽	-13.1208
如瘡中瘜肉	-13.1208
一切眾生同共有之	-13.1208
菩薩如是淨持戒聚	-13.1208
云何而得近最勝無上道	-13.1209
若使如來同諸行者	-13.1209
若言父母眾生因者	-13.1209
昔所不到而今能到	-13.1209
是則名為心隨於身	-13.1209
安置諸子祕密藏中	-13.1209
雖臥地上猶為安樂	-13.1209
博達今古	-13.1209
如因乳生酪	-13.1209
我庫藏中無如是刀	-13.1209
於六神中我為最	-13.1209
此眾見彼眾	-13.1209
耽荒五欲	-13.1209
首楞嚴等無量三昧	-13.121
猶如仰觀虛空月形	-13.121
鷹	-13.121
身卒肥大	-13.121
審能如是除滅我罪	-13.121
於諸眾生同一子想	-13.121
不見於我及以我所	-13.121
急乘緩戒	-13.121
鴈鶴舍利	-13.121
劈	-13.1211
將無夭壽	-13.1211
從口離口	-13.1211
隨宜方便開示三乘	-13.1211
世間智人說五欲樂有	-13.1211
以是因緣喪失身命	-13.1211
見佛滅度當有悲感	-13.1211
竢	-13.1211
那睺沙王	-13.1211
撤	-13.1211
佛法囑累於汝	-13.1211
散已尋滅	-13.1211
者無有是處復次善男子言本有者	-13.1211
若離慚恥則失諸功德	-13.1211
若樂眾者則受眾惱	-13.1211
皆亦不久見其磨滅	-13.1212
汝等不應作如是語	-13.1212
復次世尊世有病者	-13.1212
譬如夜見電光即得見道	-13.1212
尒	-13.1212
能行忍者乃可名為有力大人	-13.1212
勿殺勿行杖	-13.1212
心動者即五逆因	-13.1212
若有隨順佛經律者	-13.1212
如囚趣市	-13.1212
如來何故說四依義	-13.1212
眾生非具以不具故云何可斷一闡名	-13.1212
脆	-13.1213
闚	-13.1213
羹	-13.1213
若縱五根非唯五欲	-13.1213
亦即非鬼非非鬼	-13.1213
汝不可以有退心故	-13.1213
當設何計	-13.1213
若有菩薩具足如是二莊嚴者	-13.1213
本有那得有始有	-13.1213
朋友二人度數三十	-13.1213
從其面門放種種光	-13.1213
旋火之輪	-13.1213
若能斷除三十七品所行之事	-13.1213
我今於此非色法中	-13.1214
遊步強耶	-13.1214
復有一婆羅門作如是言	-13.1214
當知是則無有聖人	-13.1214
若依今義只是所離	-13.1214
瓔	-13.1214
像法決疑	-13.1214
有十方佛無十方佛	-13.1214
云何如來作二種說	-13.1214
於諸眾生生大悲心	-13.1214
是名第五人有病行處	-13.1214
厚賜俸祿	-13.1215
𪉖	-13.1215
𠍴	-13.1215
是光明中亦說如來祕密之藏	-13.1215
我等為佛及比丘僧設是供具	-13.1215
於善法中為最	-13.1215
爾時聖王復與七寶一切營從	-13.1215
皆悉安住祕密藏中	-13.1215
遲疾得所	-13.1215
菩薩摩訶薩修行如是大涅槃者	-13.1215
乃至熾然世法而說	-13.1215
五大因緣雖復如是	-13.1215
如是果者有二種因	-13.1215
我今甚樂出家修道	-13.1215
現在諸佛所制禁戒	-13.1215
譬如有人行於曠野	-13.1215
平處顛墜	-13.1216
渠流險難	-13.1216
一切眾生先見二物	-13.1216
弘廣菩薩當能流布	-13.1216
涕淚交流	-13.1216
若瞿曇說亦常	-13.1216
迦陵頻伽	-13.1216
一往結撮是問	-13.1216
修無漏道得阿那含	-13.1216
為佛及僧辦諸供具	-13.1216
外道之人先斷煩惱至無所有處	-13.1216
斷取十方三千大千諸佛世界	-13.1216
反迷成悟	-13.1216
未涅槃者令得涅槃	-13.1216
善星比丘為我給使	-13.1216
茸	-13.1216
則不得稱我為如來具	-13.1216
如來今者在我前住	-13.1216
為有婚姻歡樂會乎	-13.1216
為正法除諸結使	-13.1216
指舉此大石	-13.1216
皆悉成就如是功德	-13.1216
善知眾生諸根利鈍	-13.1217
我今當往至如來所	-13.1217
若有眾生一經耳者	-13.1217
云何當是佛之正典	-13.1217
以大淨故名大涅槃	-13.1217
視諸眾生同於一子	-13.1218
譬如小水常流則能穿石	-13.1218
若以身先無因緣故名為無者	-13.1218
趣得供事	-13.1218
眷	-13.1218
現在世中雖無利益	-13.1218
深進大海水潮三昧	-13.1218
如觀掌中菴摩勒果	-13.1219
欝頭藍弗	-13.1219
寶貨求而得脫	-13.1219
涼天竺三藏曇無讖譯如來性品第四之	-13.1219
耕田種植	-13.1219
不放逸故而得增長	-13.1219
所不愛者而共聚集	-13.1219
若言五陰是佛性者	-13.1219
鵲	-13.122
我身即有佛性種子	-13.122
欲為五比丘等	-13.122
我未獲得正解脫時	-13.122
投巖赴火	-13.1221
伺求其便	-13.1221
云何說有十時別異	-13.1221
是故以慧為勝	-13.1221
然後為說微妙正法	-13.1221
痰	-13.1221
若種種戲論其心則亂	-13.1221
不為世法之所滯	-13.1221
是法雖復性是五陰	-13.1222
金剛寶藏滿足無缺	-13.1222
恕己可為譬	-13.1222
品之二會疏第	-13.1223
是名暫出還復沒	-13.1223
𢷤	-13.1223
之一會疏第	-13.1223
身毛皆豎	-13.1224
一切顛倒不名為實	-13.1224
菩薩摩訶薩以能修習大涅槃故	-13.1224
碯	-13.1224
橫興逆害	-13.1224
襦	-13.1224
若有能持如是呪者	-13.1224
不善之法漸當	-13.1225
沒在老病生死大海	-13.1226
▁375]	-13.1226
勿令放逸入於五欲	-13.1227
𠲿	-13.1227
當知爾時不宜修捨	-13.1227
若我住世無異此也	-13.1227
嘻	-13.1228
鬧	-13.1228
不可以譬喻為比	-13.1228
其狀何似	-13.1229
曷	-13.1229
純以惡人而為眷屬	-13.1229
捨身直入阿鼻地獄	-13.1229
當知是王即是聖	-13.1229
染習一愛	-13.1229
右遶七匝	-13.123
以智慧明滅諸癡暗	-13.123
𨷲	-13.123
性者即是如來佛性者名	-13.123
審有是師能除我罪	-13.1231
麤垢自落	-13.1231
以是等譬及餘無量無邊譬喻	-13.1231
計空不及無以為喻	-13.1231
髦尾金色	-13.1232
既能還自照	-13.1232
一摩睺多頃	-13.1233
不失所作自利益事	-13.1235
於無數劫修習淨戒	-13.1235
以火焚之	-13.1236
於諸梵行說法不倦	-13.1236
聖慧日光從今永滅	-13.1236
上勝仙士	-13.1237
除諸滓穢	-13.1238
貍	-13.124
菩薩摩訶薩於慈心中施車乘時	-13.1241
伎樂不鼓自鳴	-13.1244
鉤鎖又問溥首	-13.1244
菩薩摩訶薩於慈心中布施漿時	-13.1248
折骨為筆	-13.1249
非盡非非盡	-13.1256
我本修行菩薩行時	-13.126
非非常非非斷	-13.1261
初根欲放逸苦	-13.1277
下每卷同	-13.1283
十一單疏第	-13.1339
辜	-13.2981
我今施汝常命色力	-13.3015
是紺馬寶	-13.303
摩訶薩修大涅槃行於布施亦復如是	-13.3034
蠒	-13.3108
卓	-13.3115
虔	-13.313
郊	-13.3133
漁	-13.3137
歘	-13.3137
轅	-13.3138
磬	-13.3144
􂎫	-13.3145
穎	-13.315
芙	-13.3153
鐶	-13.3156
遼	-13.3157
衝	-13.3159
褁	-13.3159
轝	-13.3159
漠	-13.316
棟	-13.3161
如蜂採華	-13.3162
蒂	-13.3162
拔淵泉之下	-13.3163
歎令崇仰	-13.3163
輦	-13.3163
崔豹古今注	-13.3164
慇	-13.3165
蜫	-13.3165
於一法中作二種說	-13.3166
非現生後受是惡業	-13.3167
藻	-13.3167
我諸弟子聞是說巳不解我意	-13.3168
距	-13.3168
戊	-13.3169
推乾去濕	-13.317
歇	-13.317
誇	-13.317
頗求樹汁	-13.317
蚶	-13.317
愧者發露向人	-13.317
䉈	-13.3171
抧	-13.3172
與其同類十五人俱	-13.3172
旭	-13.3173
有超登十地	-13.3173
何況少欲能生諸功德	-13.3173
婉	-13.3173
模	-13.3174
今於我前欲師子吼	-13.3174
初飢後飽	-13.3174
是諸佛法同一體性	-13.3174
邈	-13.3175
或聞常住二字音聲	-13.3175
虫之所唼食	-13.3175
無預約自照	-13.3176
眾生現在六入觸因	-13.3176
俞	-13.3176
衢	-13.3177
翻前難辭明空三昧	-13.3177
湎	-13.3178
不亦邈哉	-13.3178
銳	-13.3178
蕖	-13.3179
為令世間得善果故	-13.318
蕭	-13.318
觚	-13.318
王雖許我一切身分	-13.318
不與特牛同共一群	-13.318
翦	-13.318
心口異想異說	-13.318
謂從一地乃至十地	-13.3182
蟠	-13.3182
凞	-13.3182
其心雖在惡無記中	-13.3182
邇	-13.3183
無取捨願空	-13.3183
此中眾生為雙樹故	-13.3183
稱言某甲	-13.3183
廂	-13.3184
乳白酪黃	-13.3184
猶如樂未生云何名受樂	-13.3184
遠勞諸君	-13.3184
淤	-13.3184
現在苦行復以何破	-13.3184
云何聖人而有倒想	-13.3184
仕	-13.3185
雖喪三子我終不恨	-13.3185
國王遇病崩亡	-13.3185
器悉空無物	-13.3185
四世王悲毀	-13.3185
若初到便破	-13.3185
食肉之人不應施肉	-13.3185
如來今當施我法藥	-13.3185
於佛法中取少許分	-13.3185
從此右臂及餘身分	-13.3186
沖	-13.3186
汝先言毒今云何服	-13.3186
瑙	-13.3187
今世眾生多諸煩惱	-13.3187
未得無上安隱常樂	-13.3187
懟	-13.3187
摧破魔軍	-13.3187
我亦不說置而不答乃說置答	-13.3188
彼世間中有三種味	-13.3188
是時客醫復語王	-13.3188
常無所宣名說	-13.3188
譬如巨富長者生子	-13.3189
先王自作還自受	-13.3189
躡宗作請	-13.3189
即將客醫共入見	-13.3189
若一經耳即生天上	-13.3189
跏	-13.319
如來或時說一為三	-13.319
如王夷坦道	-13.3191
阿難比丘今為所在	-13.3191
佳	-13.3191
粥	-13.3191
氍	-13.3191
無上法雨雨汝身田	-13.3191
腥	-13.3191
岐	-13.3191
霸	-13.3191
云何當與此義相應	-13.3191
旻	-13.3192
二受勸而往	-13.3192
善修禪定令不漏失	-13.3192
猶如彼人當受千罰	-13.3192
示行安苦道	-13.3192
玩	-13.3192
亦欲樂聞無上大乘	-13.3192
後解脫時乃能證知	-13.3192
籬	-13.3192
若人具足如上六想	-13.3192
除毒無上呪術	-13.3192
嚙	-13.3192
陪	-13.3192
翹	-13.3193
貧愚人不欲服之	-13.3193
無非虛空對於虛空	-13.3193
若言父母是眾生因	-13.3193
時將欲過我欲滅度	-13.3193
不應以親認佛	-13.3193
不訟彼缺	-13.3193
承保四年五月	-13.3193
不為死魔所散	-13.3193
聽是梵志出家受戒	-13.3193
<	-13.3193
二領瑞結成	-13.3193
知足之法即是富樂安隱之處	-13.3193
以金剛杵碎之如塵	-13.3194
既醒寤已	-13.3194
此身多有無量過患	-13.3194
翏	-13.3194
將非如來虛妄說耶	-13.3194
収	-13.3194
之食猶尚不食	-13.3194
謚	-13.3194
今明鬼即非鬼	-13.3195
信六部不信六部	-13.3195
八重破空是住處	-13.3195
雖非內外而不失壞	-13.3195
我亦復當安住是中	-13.3195
而於未來不失業果	-13.3195
慧心正直無曲	-13.3195
迷荒婬亂	-13.3195
我亦不能久住毒身	-13.3195
眾生薄福不見是草	-13.3195
即得住於初不動	-13.3196
接讚騰執	-13.3196
示現證法滿足成就	-13.3196
毅	-13.3196
眾生云何一向作解	-13.3196
譬如著鎧入陣	-13.3196
至第十六道比智時	-13.3196
凋	-13.3196
不為陰魔所墮	-13.3196
獷	-13.3196
三受用諸見門	-13.3197
如闇室中井	-13.3197
示現法輪滿足成就	-13.3197
摒	-13.3197
欲求寂靜無為安樂	-13.3197
來索悉皆還之	-13.3197
於三界中不生愛著	-13.3197
聲聞乘法則不應依	-13.3197
五受陰洞達空無所起是苦義	-13.3197
若欲得合彼燈喻	-13.3197
設有疑惑當復問誰	-13.3197
鹽亦應有微不醎性	-13.3197
母乃洗乳	-13.3197
派深析重	-13.3197
當知乳中先有酪相	-13.3197
三格量福	-13.3197
火中赤色復生	-13.3197
非是一二於一二	-13.3198
或復有人破一切戒	-13.3198
闢	-13.3198
無牽申等滿	-13.3198
譬如香山有師子王	-13.3198
無有去來而亦去來	-13.3198
設使得乳無安置處	-13.3198
不能自了亦不了他	-13.3198
如發心向佛舉足一步	-13.3198
法即是僧僧即是慈慈即如來善男子慈	-13.3198
祝	-13.3198
若佛祕藏大涅槃經有威力者	-13.3198
世若無佛非無二乘得二涅槃	-13.3198
真見修習四聖諦法	-13.3198
為佛性不可毀作譬	-13.3199
不得斬伐草木墾土掘地	-13.3199
八住菩薩下至六	-13.3199
我觀諸行悉皆無常	-13.3199
窻	-13.3199
額上珠為何所在	-13.3199
佛於過去無量劫前	-13.3199
一旦遠離無上世尊	-13.3199
現病是方便密語	-13.3199
非陰界入之所攝持	-13.3199
悉皆安住祕密藏中	-13.3199
有二種一者常二者無常	-13.3199
欲吹壞須彌山王	-13.3199
嬉	-13.32
是故半字於諸經書	-13.32
鋪	-13.32
宜當速奉最後	-13.32
惺	-13.32
托	-13.32
唯當善滅戲論之患	-13.32
若使虛空離空有住	-13.32
籤	-13.32
若言諸法皆無有我	-13.32
藥真味停留在山猶如滿月	-13.32
是故雖見而不明了	-13.32
然諸眾生悉未具	-13.32
觀察五陰過旃陀羅	-13.32
大般涅槃經義記卷第	-13.3201
宙	-13.3201
一體多約果人	-13.3201
乃至不欲眼見是王	-13.3201
展轉常生安樂之處	-13.3201
三更廣三法體	-13.3201
咸覩如來涅槃之相	-13.3201
唯貞實在	-13.3201
方等經者猶如甘露亦如毒藥	-13.3201
當知諸法各有定性	-13.3201
涅槃無因而體是果	-13.3201
云何了因而獨有二	-13.3201
踞	-13.3202
知其地當有是藥	-13.3202
人與獼猴能行處者	-13.3202
是時菩薩即至僧坊	-13.3202
諸憶念法不應忘失	-13.3202
昔所不知而今知	-13.3202
出家行道無欲之人	-13.3202
我閻浮提及弗婆提	-13.3202
終不為彼蛇賊所害	-13.3202
狢	-13.3202
耆舊長宿	-13.3202
色解脫乃至識解脫	-13.3202
挐	-13.3202
矬	-13.3202
當知瞋心甚於猛火	-13.3203
初因經致夢	-13.3203
時諸眾生共相謂言	-13.3203
若人於是生疑心者	-13.3203
三重說有為無常相	-13.3203
援	-13.3203
庚	-13.3203
相合似連理	-13.3203
以道力故不作惡業	-13.3203
如有人勇健威猛	-13.3203
行人何故見三惡	-13.3203
以佛神力出大音聲	-13.3204
須陀洹人受七有業	-13.3204
果如不異因如	-13.3204
我與仁者俱行顛倒	-13.3204
版	-13.3204
因如不異果如	-13.3204
烟雲塵霧	-13.3204
亦當為汝先說甘露	-13.3204
如醫療病不為病	-13.3204
簡起中道見故不見	-13.3204
扄	-13.3204
若業能為菩提因者	-13.3204
蜱	-13.3205
七能稱量生死	-13.3205
父精出時謂是	-13.3205
於戒緩者不名為緩	-13.3205
說有東西南北	-13.3205
而彼父母欲教其語	-13.3205
骨節疼痛	-13.3205
即慈慈即如來善男子慈	-13.3205
散多尼迦	-13.3205
知煩惱煩惱因煩惱果報煩惱輕重	-13.3205
迦葉菩薩品第二十四	-13.3205
迦葉菩薩品第十二之	-13.3206
憍梵波提	-13.3206
於諸想中最為第一	-13.3206
怳	-13.3206
是知法人言行相違	-13.3206
有天眼者乃能分別	-13.3206
一切憍慢勢極暴惡	-13.3206
高貴德王菩薩摩訶薩言	-13.3206
以自在故現微塵身	-13.3206
將無涯畔	-13.3206
以金貿易鍮石	-13.3206
吸氣舌根	-13.3206
降伏一切外道邪醫	-13.3206
𠻳	-13.3206
不信之人瞋恚心故	-13.3206
三應能兩了	-13.3206
修大涅槃成就具足第三功德	-13.3206
如栴檀林栴檀圍	-13.3206
復見大眾悉發誓願	-13.3206
有有見者得果報故	-13.3206
瑜	-13.3207
上是初依師位	-13.3207
二約觀行明不二	-13.3207
二六復次明無父母	-13.3207
少欲之人則無諂曲以求人意	-13.3207
修戒修心修慧	-13.3207
斯陀含人受二有業	-13.3207
亦令眾生於我身中起塔廟想	-13.3207
汝意若謂身作我受	-13.3207
見如是相名不修	-13.3207
師子吼菩薩品第十一之	-13.3208
汝今現世得大名利	-13.3208
礪	-13.3208
夷那竭國	-13.3208
當知多欲之人多求利故苦惱亦多	-13.3208
於諸經三昧最為第一	-13.3208
乳不假緣必當成酪	-13.3208
剡	-13.3208
我今受汝所獻	-13.3209
阿那含人受色有業	-13.3209
從信根等至八聖道	-13.3209
街	-13.3209
依了義經不依不了義經	-13.3209
世間之法有定用處	-13.3209
六據退萬行	-13.3209
同共一樹棲	-13.3209
所食之物亦無差別	-13.3209
渙	-13.3209
估	-13.3209
是故此慧不能遠離	-13.3209
五就往因釋	-13.3209
如來波旬說云何分別知	-13.3209
是諸比丘於四諦中決定無疑	-13.3209
法與非法非業作耶	-13.3209
若有不知苦集諦處	-13.3209
十六日至三十日	-13.3209
我所立我亦在作中	-13.3209
迦葉佛法住世七日	-13.3209
牧女添水	-13.3209
如彼長者教半字	-13.321
光明遍照高貴德王菩薩品第十之	-13.321
咸令眾生悉得知見	-13.321
常常見者不得為無	-13.321
未曾見而亦生疑	-13.321
能令無報作定報不	-13.321
為害滋甚	-13.321
善男子諸佛菩薩終不定說	-13.321
恕己可為喻	-13.321
度空無善根障	-13.3211
拘躄能行	-13.3211
倒想因緣便生於受	-13.3211
屎	-13.3211
於無我中而生我想	-13.3211
欲得真實修諸想者	-13.3211
顯示平等觀功德相似成就	-13.3211
堂下多有流泉浴池	-13.3211
憩	-13.3211
因樹則有樹影	-13.3211
云何為生盲而作眼目導	-13.3211
大般涅槃經高貴德王菩薩品之	-13.3211
有妙甘藥出於雪山	-13.3211
淘	-13.3211
我當次第為說真法	-13.3212
始於今日乃得真智	-13.3212
爾時童子立本儲君	-13.3212
云何得與此義相應	-13.3212
智者若能觀苦八種	-13.3212
東晉平陽沙門法顯譯	-13.3212
䩕	-13.3212
具足百福成於一相	-13.3212
未生故終不生果	-13.3212
覇	-13.3212
不能了知我及我	-13.3212
四重結釋迦佛法	-13.3212
賢善之人一切愛念	-13.3212
從慧遠離非身非口	-13.3212
兼答第一第二罪人問	-13.3212
結跏趺坐	-13.3212
如來默然而不許可	-13.3212
是三種修無有實義	-13.3212
不具故名一闡提佛性非	-13.3212
結好貴人親厚媟慢皆不應作	-13.3213
璨	-13.3213
瞿曇又說從因故生	-13.3213
丞	-13.3213
如犢失其母	-13.3213
慓	-13.3213
吁	-13.3213
於世間事能速了知	-13.3213
初具述本緣	-13.3213
佛與佛性雖無差別	-13.3213
不為世法之所霑汙	-13.3213
尼拘陀子無五丈性	-13.3213
其腹脹滿	-13.3214
璀	-13.3214
是故不名斷過去果	-13.3214
𨽻	-13.3214
集真是因更無異因	-13.3214
高齊天竺三藏那連提	-13.3214
㲉	-13.3214
如來常身猶如畫石	-13.3214
朋友三人度數	-13.3214
等為眾生作歸依故	-13.3214
聾盲瘖瘂	-13.3215
北涼天竺三藏曇無讖譯梵行品第八之	-13.3215
[...]
