<unk>	0
<s>	0
</s>	0
為	-4.2385
/	-4.24858
之	-4.3027
(	-4.41062
)	-4.54577
以	-4.62105
一	-4.75731
而	-4.95909
與	-4.98197
也	-4.99032
則	-5.06342
二	-5.15644
三	-5.21129
其	-5.21787
即	-5.2528
得	-5.25286
四	-5.32602
○	-5.43561
者	-5.44882
有	-5.51666
)(	-5.53785
十	-5.59223
五	-5.64068
數	-5.65307
分	-5.69226
六	-5.70012
日	-5.77879
又	-5.79057
故	-5.8351
兩	-5.85089
度	-5.89173
於	-5.9268
八	-5.93309
求	-5.9498
法	-5.96827
如	-5.97348
九	-5.9875
此	-5.9915
用	-6.01673
若	-6.01995
在	-6.03499
七	-6.0436
至	-6.06315
是	-6.07118
餘	-6.11554
等	-6.1399
亦	-6.14115
中	-6.14246
各	-6.16068
上	-6.18905
時	-6.24483
月	-6.27461
加	-6.27978
▁	-6.29121
不	-6.31
大	-6.31707
正	-6.33176
減	-6.3332
皆	-6.335
作	-6.35061
積	-6.358
及	-6.36077
或	-6.36149
自	-6.37226
下	-6.38086
半	-6.39333
線	-6.4276
甲	-6.43891
今	-6.43991
内	-6.44962
行	-6.45188
/)	-6.45826
方	-6.46117
無	-6.46618
所	-6.47554
曰	-6.48128
同	-6.49276
後	-6.50348
于	-6.50752
乙	-6.51238
多	-6.5125
爲	-6.54526
人	-6.54664
乃	-6.54678
差	-6.54981
合	-6.55338
天	-6.57409
矣	-6.58876
前	-6.5948
次	-6.60336
共	-6.62278
實	-6.64693
從	-6.66105
星	-6.66754
子	-6.69027
小	-6.70669
邊	-6.71368
角	-6.71524
丙	-6.71654
定	-6.72286
見	-6.72878
本	-6.73924
長	-6.7544
表	-6.75708
必	-6.77386
凡	-6.78957
當	-6.79368
周	-6.79787
成	-6.83242
因	-6.83595
丁	-6.83669
距	-6.84419
置	-6.84458
太陽	-6.8674
徑	-6.87575
弧	-6.87909
形	-6.90165
較	-6.90353
率	-6.92332
乘	-6.92752
問	-6.93257
少	-6.93808
未	-6.94486
之數	-6.94986
乗	-6.95154
地	-6.97114
黄道	-6.98714
十二	-6.99314
二十	-6.99919
西	-6.99991
然	-7.00217
年	-7.00613
非	-7.00658
髙	-7.00792
厯	-7.01225
取	-7.01559
倍	-7.02609
除	-7.02657
測	-7.03336
半徑	-7.03353
平	-7.03601
弦	-7.03921
外	-7.05164
比	-7.07326
已	-7.09494
步	-7.0952
股	-7.09914
交	-7.10602
相	-7.11274
明	-7.12662
甲乙	-7.12684
尺	-7.1301
過	-7.13563
入	-7.14038
可	-7.14353
元	-7.15853
刻	-7.16559
既	-7.17693
平行	-7.1772
推	-7.17765
言	-7.17805
依	-7.19028
原	-7.1948
設	-7.19532
心	-7.20599
初	-7.2103
戊	-7.21486
論	-7.23287
南	-7.23308
赤道	-7.24516
出	-7.24656
應	-7.24827
三十	-7.2524
十一月	-7.25718
算	-7.26568
復	-7.26981
冬至	-7.27255
體	-7.28003
并	-7.28452
每	-7.28764
書	-7.29174
圖	-7.29936
又以	-7.29998
俱	-7.31454
先	-7.319
經	-7.32698
北	-7.33151
高	-7.33405
文	-7.33565
右	-7.3375
名	-7.34578
近	-7.35043
一百	-7.35069
己	-7.35678
立	-7.3576
日食	-7.36057
面	-7.37117
云	-7.37552
謂	-7.37606
水	-7.37927
位	-7.38581
食	-7.3873
限	-7.39656
廣	-7.4102
通	-7.41216
百	-7.41708
極	-7.42102
乙丙	-7.42357
六十	-7.43624
視	-7.4396
諸	-7.44207
對	-7.44571
界	-7.44962
圏	-7.45276
嵗	-7.45975
全	-7.46098
庚	-7.46201
内減	-7.48178
東	-7.48361
去	-7.48552
處	-7.48853
圓	-7.49383
雖	-7.4966
直	-7.49767
辰	-7.49862
變	-7.5011
石	-7.50215
之度	-7.50271
併	-7.50484
和	-7.50615
一度	-7.50628
並	-7.50711
微	-7.51501
甲丙	-7.51936
乎	-7.52392
總	-7.53042
何	-7.53552
正弦	-7.53924
令	-7.54915
為一率	-7.55363
氣	-7.56256
列	-7.56989
重	-7.57174
時刻	-7.57403
三分	-7.57691
更	-7.57866
秒	-7.58166
日月	-7.59568
四十	-7.59847
勾	-7.5988
生	-7.6048
按	-7.60866
句	-7.61145
太隂	-7.6172
里	-7.62045
止	-7.62569
㸃	-7.627
五十	-7.63363
知	-7.63497
事	-7.63526
宫	-7.63672
三角形	-7.63792
焉	-7.63795
光	-7.64007
辛	-7.6402
午	-7.64059
葢	-7.64354
能	-7.64514
古	-7.64521
相減餘	-7.65032
萬	-7.65302
臣	-7.65706
左	-7.66054
十一	-7.66202
一十	-7.66557
四分	-7.66975
五分	-7.67572
一分	-7.68229
之法	-7.68321
景	-7.68586
巳	-7.6892
寸	-7.69047
道	-7.69132
丙丁	-7.6955
商	-7.69602
惟	-7.70497
丑	-7.7079
二分	-7.70927
轉	-7.71776
寅	-7.72039
底	-7.72249
物	-7.72522
二十四	-7.72828
斜	-7.73005
邉	-7.73076
宿	-7.73496
但	-7.73937
朔	-7.74151
始	-7.74248
將	-7.74417
□	-7.7471
約	-7.74863
望	-7.75001
立方	-7.75181
理	-7.75545
乙角	-7.7571
所得	-7.75895
除之得	-7.7666
甲丁	-7.76831
金	-7.76948
夫	-7.78185
起	-7.78345
耳	-7.78664
十六	-7.78675
比例	-7.79594
法以	-7.79809
歩	-7.80222
十五	-7.80357
逺	-7.80974
居	-7.80998
虚	-7.811
壬	-7.81118
象	-7.81385
銀	-7.82037
乃以	-7.82086
欲	-7.82265
加減	-7.824
切	-7.82869
題	-7.82873
初虧	-7.82995
闊	-7.83094
開	-7.83486
向	-7.83838
即得	-7.83857
零	-7.84255
癸	-7.84373
仍	-7.84701
章	-7.85014
太	-7.85048
為二率	-7.85307
末	-7.85408
滿	-7.8606
盡	-7.86619
截	-7.86713
甲子	-7.86905
太陰	-7.8718
甲角	-7.87631
再	-7.88284
之比例	-7.88488
二十五	-7.8863
甲戊	-7.88834
載	-7.89591
餘弦	-7.9054
謂之	-7.90615
度分	-7.9066
易	-7.90718
乙丁	-7.90775
不能	-7.90876
王	-7.90936
根	-7.91876
第二	-7.92551
第一	-7.9271
相距	-7.931
節	-7.93304
三十六	-7.93306
歲	-7.93591
價	-7.93843
□□	-7.93883
田	-7.94092
圜	-7.94155
申	-7.94179
第三	-7.94296
離	-7.94356
常	-7.94457
南北	-7.94459
相等	-7.94722
濶	-7.95232
得數	-7.95239
戊己	-7.95474
六分	-7.9559
紀	-7.95763
術	-7.96067
一日	-7.96503
深	-7.96511
卯	-7.9681
斤	-7.96854
酉	-7.97013
宜	-7.97202
異	-7.97442
月食	-7.9772
不同	-7.97735
足	-7.97777
移	-7.97947
日躔	-7.98506
冪	-7.98759
錢	-7.98783
宮	-7.98877
且	-7.99143
次商	-7.99518
十三	-7.99729
十四	-7.99843
米	-8.00158
火	-8.00162
象限	-8.00657
陽	-8.00708
食甚	-8.01249
丁戊	-8.01607
緯	-8.01643
直角	-8.01709
地平	-8.0218
為實	-8.0221
小餘	-8.02221
八分	-8.02226
史	-8.02618
使	-8.02948
益	-8.03077
最髙	-8.03337
平方	-8.03355
十八	-8.03375
九十	-8.03513
儀	-8.03567
詳	-8.03665
夏至	-8.03834
分母	-8.04287
查	-8.04337
説	-8.04389
直線	-8.04491
初商	-8.04503
復圓	-8.04532
首	-8.05589
毎	-8.05748
以上	-8.05832
五星	-8.0584
木	-8.06094
照	-8.06245
句股	-8.06614
目	-8.06659
命	-8.06936
相減	-8.07155
影	-8.07197
丙角	-8.07254
則以	-8.07277
甚	-8.07766
安	-8.08191
斗	-8.08299
九十度	-8.08689
官	-8.09243
亥	-8.09284
為一	-8.09557
横	-8.09604
律	-8.0998
彼	-8.10015
規	-8.10437
乘之得	-8.10446
乾	-8.10598
%	-8.10781
考	-8.10844
元年	-8.11036
母	-8.11274
故以	-8.11302
稱	-8.11469
九分	-8.11623
二十七	-8.11984
盈	-8.12184
借	-8.12217
盖	-8.12406
七分	-8.12612
間	-8.12836
垂線	-8.13035
實行	-8.13117
八十	-8.13431
傳	-8.13523
國	-8.13666
猶	-8.13702
計	-8.13816
例	-8.1397
不及	-8.14591
十二月	-8.14627
土	-8.14936
相加得	-8.15008
别	-8.15108
蓋	-8.15124
卽	-8.1517
卷	-8.15491
隅	-8.15544
夜	-8.15741
以減	-8.15794
矢	-8.15989
之一	-8.16008
也又	-8.1618
指	-8.16224
自乘	-8.16481
據	-8.1659
經度	-8.16775
黄	-8.16805
三百	-8.1681
春分	-8.16812
恒星	-8.16905
丁丙	-8.16943
漸	-8.17053
平分	-8.1728
之正弦	-8.17293
就	-8.17564
量	-8.17579
正交	-8.17622
畝	-8.17634
空	-8.17706
緯度	-8.17759
即為	-8.17958
幾何	-8.17965
二十一	-8.17992
二百	-8.18032
前後	-8.18107
隨	-8.1852
半周	-8.18566
假如	-8.18687
相乗	-8.18743
漢	-8.18973
段	-8.19114
之較	-8.19468
除之	-8.1961
工	-8.19954
求得	-8.2009
夘	-8.20219
相乘	-8.20229
均	-8.2028
上下	-8.20795
反	-8.20816
山	-8.21028
恒	-8.22086
㣲	-8.22256
十月	-8.22281
退	-8.22623
閏	-8.23061
公	-8.23433
存	-8.2356
縱	-8.23737
乘之	-8.24205
動	-8.25104
面積	-8.2527
四率	-8.25429
是為	-8.25861
可以	-8.26127
乗之得	-8.26171
丈	-8.2625
貫	-8.26681
改	-8.26908
丁乙	-8.27104
最	-8.27261
容	-8.27287
負	-8.27449
分為	-8.27491
若干	-8.27985
○○	-8.2802
第四	-8.2827
輪	-8.28395
進	-8.28554
折半	-8.29113
難	-8.29492
三角	-8.29655
正月	-8.29841
東西	-8.30059
為法	-8.30229
不知	-8.30259
衰	-8.30312
宗	-8.30383
所以	-8.30404
主	-8.30423
一千	-8.30457
齊	-8.30612
不可	-8.30827
二十八	-8.31504
丙乙	-8.32011
大於	-8.3214
終	-8.32162
火星	-8.32447
千	-8.32806
二十二	-8.3378
屬	-8.33804
次以	-8.33929
一百二十	-8.33934
相加	-8.34017
舊	-8.34187
㑹	-8.34303
城	-8.34451
矩	-8.34826
不盡	-8.35138
丙戊	-8.35187
八尺	-8.35279
筭	-8.35562
十分	-8.35921
為三率求得四率	-8.36054
遲	-8.36452
三十二	-8.36738
衡	-8.36852
也若	-8.36873
條	-8.36976
距度	-8.37187
所謂	-8.37359
三十度	-8.3736
類	-8.37468
不等	-8.37796
精	-8.37803
帝	-8.38028
隂	-8.3841
馬	-8.38441
引	-8.38463
大小	-8.3858
誤	-8.38629
丁角	-8.38724
著	-8.38807
故曰	-8.39094
三百六十	-8.39676
白道	-8.39837
三率	-8.40698
乙戊	-8.40721
造	-8.40816
圈	-8.40945
節氣	-8.41066
氏	-8.41288
减	-8.41306
自乗	-8.41368
運	-8.41392
木星	-8.41525
色	-8.41744
球	-8.42408
本篇	-8.42506
一尺	-8.43155
周天	-8.43204
交角	-8.43314
之中	-8.43431
交食	-8.43457
折半得	-8.43618
乙甲	-8.43635
幾	-8.43637
甲乙丙	-8.43783
由	-8.43837
二十三	-8.4386
解	-8.44041
己庚	-8.44057
北極	-8.4413
二率	-8.44432
日行	-8.44552
今有	-8.44606
忽	-8.44763
之半	-8.44885
世	-8.45055
一率	-8.45128
一卷	-8.45888
五度	-8.45897
字	-8.46032
晝	-8.46061
金星	-8.4625
二月	-8.46756
參	-8.47073
似	-8.47102
十七	-8.47148
左右	-8.47177
甲己	-8.47216
九月	-8.47334
四百	-8.47442
歸	-8.47501
七十	-8.47522
六尺	-8.47581
斛	-8.47707
庚辛	-8.47864
補	-8.47891
獨	-8.47902
勾股	-8.47954
折	-8.48076
者以	-8.48117
二十六	-8.48119
法曰	-8.48209
六十四	-8.48239
應閏	-8.48332
四十五	-8.48493
須	-8.48906
全徑	-8.48973
短	-8.49124
不用	-8.49151
聲	-8.49245
附	-8.49249
十九	-8.49347
環	-8.49347
候	-8.49386
遂	-8.49761
家	-8.49835
壬子	-8.49852
四十八	-8.49886
二度	-8.49946
三十五	-8.49946
布	-8.50096
平面	-8.50205
端	-8.50213
▁BR	-8.50427
具	-8.50627
其餘	-8.50804
一十二	-8.50864
偏	-8.50975
器	-8.51124
兩角	-8.51324
之間	-8.51535
戊丁	-8.51895
大于	-8.51964
最高	-8.51985
甲庚	-8.52067
張	-8.52229
係	-8.52317
到	-8.52373
七月	-8.52406
均數	-8.52531
相乘得	-8.52965
切線	-8.52969
也其	-8.53097
内減去	-8.53271
牛	-8.53319
有竒	-8.53426
視差	-8.53461
二寸	-8.53501
他	-8.53652
論曰	-8.54027
真	-8.54044
戌	-8.54184
四寸	-8.54221
意	-8.54531
戊乙	-8.54606
一百八十	-8.54682
黃道	-8.55099
小輪	-8.55132
三月	-8.55155
損	-8.55266
二尺	-8.55445
分數	-8.5591
順	-8.5592
皆以	-8.55941
尾	-8.5597
只	-8.55996
六月	-8.5601
倍之得	-8.56081
相當	-8.56485
不足	-8.56877
四十九	-8.56925
任	-8.57003
銅	-8.57062
七十二	-8.57091
觀	-8.57151
所測	-8.57272
五月	-8.57682
為實以	-8.57893
秋分	-8.5795
尖	-8.57989
之積	-8.58171
有餘	-8.58397
驗	-8.58673
粟	-8.58703
房	-8.5882
丙甲	-8.58973
準	-8.59008
一寸	-8.59106
四十五度	-8.5941
絲	-8.59578
全數	-8.59733
得一	-8.59883
一十六	-8.60188
夏	-8.60346
四尺	-8.60597
兩線	-8.60682
八月	-8.60715
號	-8.60718
第	-8.60763
丙子	-8.6101
員	-8.61206
本天	-8.61316
一邊	-8.61373
廉	-8.6147
之比	-8.61526
車	-8.61568
女	-8.6183
億	-8.6186
其法	-8.6192
兩數	-8.6205
會	-8.62156
宋	-8.62377
視行	-8.62396
相較	-8.62583
土星	-8.62748
共得	-8.62862
井	-8.62936
又有	-8.62962
倍之	-8.63058
中積	-8.63291
門	-8.6335
時差	-8.63726
其數	-8.64331
増	-8.64413
授時	-8.64494
受	-8.64573
相對	-8.64775
每邊	-8.64836
六十度	-8.6503
二十九	-8.65067
六度	-8.65119
水星	-8.65203
之理	-8.65209
式	-8.65297
畢	-8.65475
五十六	-8.65572
□□□	-8.65625
發	-8.6574
建	-8.659
圓徑	-8.66116
某	-8.66117
歳	-8.6614
之分	-8.66153
竒	-8.66263
二年	-8.6647
減去	-8.66521
幂	-8.66564
為弦	-8.66973
為股	-8.67042
丁己	-8.67291
樂	-8.67345
新法	-8.67608
五尺	-8.67652
固	-8.68107
戊丙	-8.68131
户	-8.6835
分之	-8.68637
一萬	-8.68658
己戊	-8.68788
神	-8.69293
冬	-8.69428
一十一	-8.69458
五百	-8.69619
稍	-8.69631
亦等	-8.69685
四十二	-8.69699
壬癸	-8.69746
右行	-8.70013
三年	-8.70057
不見	-8.70164
悉	-8.70274
策	-8.70392
五十四	-8.70413
東行	-8.70495
而得	-8.70523
而不	-8.70525
出入	-8.70574
七政	-8.70708
正方	-8.70741
而以	-8.708
最卑	-8.70813
畫	-8.70848
八十一	-8.70925
東西差	-8.70949
代	-8.7096
釐	-8.711
義	-8.71448
逺近	-8.71526
小分	-8.71663
将	-8.71688
午正	-8.71825
七度	-8.71985
籌	-8.72151
之差	-8.72211
升	-8.72226
三十七	-8.72375
頭	-8.72421
四月	-8.72745
篇	-8.72751
日之	-8.7276
數以	-8.7285
帶	-8.72955
求其	-8.72994
學	-8.73046
寄	-8.73079
鈍角	-8.73196
年十一月	-8.73223
陳	-8.7325
疾	-8.73302
引數	-8.73311
天頂	-8.73341
也故	-8.73724
正方形	-8.73869
一十三	-8.7401
凖	-8.7406
六百	-8.74341
新	-8.74372
失	-8.74373
海	-8.74695
數也	-8.74879
則其	-8.74908
是也	-8.75029
次輪	-8.75033
己丁	-8.75062
厚	-8.75149
來	-8.75179
疋	-8.75454
變為	-8.75531
也以	-8.7554
方邊	-8.75964
然後	-8.76029
畧	-8.76048
如前	-8.76126
之下	-8.7614
省	-8.76652
測得	-8.76747
一十四	-8.76865
各有	-8.76873
便	-8.77081
即以	-8.771
内容	-8.77578
三尺	-8.77609
亦同	-8.77626
六寸	-8.77637
互	-8.77762
三十三	-8.77815
甲乙丙丁	-8.77852
力	-8.77897
察	-8.77917
遇	-8.78218
遠	-8.78225
一十七	-8.78244
解曰	-8.78321
三度	-8.78353
留	-8.78486
十五度	-8.78578
晝夜	-8.78819
第五	-8.78891
細	-8.79167
之上	-8.79264
議	-8.79438
暦	-8.79466
四度	-8.79518
開方	-8.79762
一百五十	-8.80172
旁	-8.80203
一百六十	-8.80654
之假數	-8.8088
部	-8.81089
為正	-8.8117
丁甲	-8.81171
箕	-8.81176
種	-8.81304
兩邊	-8.81636
備	-8.81987
尚	-8.81989
哉	-8.82125
也如	-8.82384
要	-8.82453
該	-8.82528
亢	-8.82561
氐	-8.82565
愈	-8.827
方形	-8.83109
之實	-8.8324
唐	-8.83385
作一	-8.8368
星在	-8.83848
二五	-8.83965
先以	-8.83967
行度	-8.84021
亷	-8.84201
初度	-8.84205
風	-8.84251
自之得	-8.84285
朔日食	-8.8451
簡	-8.84515
支	-8.84574
分秒	-8.84585
自乘得	-8.84759
形之	-8.84926
故也	-8.8494
為底	-8.84968
點	-8.85102
乗之	-8.85109
餘實	-8.85137
辛壬	-8.8538
河	-8.854
地心	-8.85401
弱	-8.8554
九尺	-8.8571
十度	-8.85742
乙己	-8.85748
虛	-8.85923
乙丑	-8.85942
羅	-8.85986
白	-8.86016
靣	-8.86153
一十八	-8.86343
用時	-8.86566
四年	-8.86613
三寸	-8.86694
中心	-8.86741
甲寅	-8.86774
八百	-8.86789
方積	-8.86796
二百四十	-8.86804
修	-8.87012
化	-8.87026
樹	-8.87102
髙弧	-8.87139
相併	-8.87248
自行	-8.87327
顯	-8.8736
長方	-8.87599
月離	-8.8765
距地	-8.87671
八度	-8.87673
雲	-8.87684
如圖	-8.87804
加入	-8.87896
圍	-8.8797
以下	-8.88016
求之	-8.88089
減之	-8.88131
司	-8.88149
兵	-8.88217
是以	-8.88363
試	-8.88504
一十九	-8.88563
一十五	-8.88591
疑	-8.88604
相乗得	-8.88647
池	-8.88704
以後	-8.88773
軸	-8.8888
晦	-8.88881
人目	-8.88987
丁巳	-8.89039
自乗得	-8.89305
用法	-8.89365
戊子	-8.89469
首位	-8.89482
管	-8.89497
不得	-8.89659
以為	-8.89929
本輪	-8.89948
言之	-8.90208
遲疾	-8.90245
頂	-8.90285
志	-8.90402
盈縮	-8.90585
丙己	-8.90603
所作	-8.90754
伏	-8.90858
舉	-8.91081
也然	-8.91096
人數	-8.9111
開方得	-8.91333
之外	-8.91682
三十一	-8.91757
晷	-8.92026
記	-8.92079
戊寅	-8.92155
距緯	-8.92216
推算	-8.92322
而一得	-8.92363
内外	-8.92384
三十四	-8.92487
三十八	-8.92507
九十六	-8.92588
两	-8.92623
乙庚	-8.92644
之行	-8.92699
單	-8.92708
以乘	-8.92733
取其	-8.92742
等則	-8.92911
句股形	-8.93024
戊角	-8.93154
也今	-8.93264
匹	-8.9344
曲	-8.93474
○○○○○○○○	-8.93523
本日	-8.93683
亦有	-8.93706
掩	-8.93964
五千	-8.94103
七十六	-8.94131
日在	-8.94204
八十四	-8.94266
庚子	-8.94439
隔	-8.94526
之所	-8.94538
六宫	-8.94604
亦得	-8.94615
子午	-8.94696
癸丑	-8.94714
之比同於	-8.94821
之面積	-8.94996
斜行	-8.95021
小于	-8.95094
辛巳	-8.95133
三十九	-8.95144
戊庚	-8.95157
音	-8.95371
四十四	-8.95538
七十五	-8.95594
覆	-8.95705
乙辛	-8.95968
絹	-8.96096
致	-8.96099
相似	-8.96181
今以	-8.96251
衆	-8.96369
州	-8.96443
五年	-8.96461
偕	-8.96475
格	-8.96482
二四	-8.96608
半之	-8.96669
者為	-8.96691
其所	-8.96718
之弧	-8.9676
亦為	-8.96867
原數	-8.97012
本年	-8.97032
丙庚	-8.97122
甲辛	-8.97176
納	-8.97354
三日	-8.9754
兩形	-8.97742
歴	-8.97878
宻	-8.98058
先得	-8.98075
一丈	-8.98179
九百	-8.98276
丁丑	-8.98306
丙辛	-8.98395
之處	-8.98472
者則	-8.98572
厯法	-8.98596
制	-8.98621
戊甲	-8.98754
亦即	-8.98775
者也	-8.98785
第六	-8.98847
至於	-8.98898
等而	-8.98899
五寸	-8.98961
月體	-8.99032
累	-8.99098
髙度	-8.99137
逆	-8.99234
一人	-8.99254
功	-8.9928
乙巳	-8.99327
一㸃	-8.99364
加一	-8.99387
九寸	-8.99455
相同	-8.9963
而後	-8.99676
丁辛	-8.99723
庚辰	-8.99786
為法除之得	-9.0015
二日	-9.00357
左行	-9.00437
五十五	-9.00553
己辛	-9.00572
為勾	-9.00605
月行	-9.00623
庚己	-9.00662
大餘	-9.007
室	-9.00704
耶	-9.00712
所用	-9.00937
經緯	-9.01013
之餘弦	-9.01056
三商	-9.01244
一二	-9.0128
春秋	-9.01374
庚乙	-9.01402
毫	-9.0142
十五分	-9.01471
給	-9.01685
互乗	-9.01712
之時	-9.01717
層	-9.01721
徳	-9.01734
外角	-9.01874
上方	-9.01892
亦可	-9.01908
壬寅	-9.01982
爻	-9.01987
三分之一	-9.0203
與乙	-9.02255
起算	-9.02286
利	-9.02404
强	-9.02419
以此	-9.02446
庚丁	-9.02493
每日	-9.02495
八寸	-9.02788
甲辰	-9.02897
術曰	-9.03035
幾何法以	-9.03196
北極出地	-9.03304
為直角	-9.03558
一時	-9.03619
而一	-9.03643
甲申	-9.03649
麥	-9.03974
危	-9.04004
何以	-9.0456
船	-9.04811
宿度	-9.04906
八十八	-9.04926
合朔	-9.04942
日出	-9.04959
聞	-9.05003
再以	-9.05011
必等	-9.05131
方程	-9.052
朝	-9.05297
也葢	-9.05366
序	-9.0556
旋	-9.0558
而成	-9.0565
積度	-9.05709
七百	-9.05843
分子	-9.05866
減餘	-9.05882
両	-9.06036
四分之一	-9.06257
南行	-9.06466
者皆	-9.06664
箇	-9.06994
聖	-9.07005
大圏	-9.07187
小於	-9.07222
正方體	-9.07238
也設如	-9.07315
降	-9.07359
縮	-9.07373
最大	-9.07414
丙寅	-9.07598
加時	-9.07676
己丙	-9.07688
帶食	-9.07773
南北差	-9.07837
樞	-9.08055
總數	-9.08062
晨	-9.08262
乙酉	-9.08359
說	-9.08365
甲午	-9.0841
二三	-9.08414
十二分	-9.08422
半之得	-9.08472
其理	-9.0869
己未	-9.08724
眞數	-9.08754
庚戊	-9.08761
壬申	-9.08839
子午圏	-9.08849
日光	-9.08938
殊	-9.08942
孔	-9.09039
七尺	-9.09092
羃	-9.09262
己亥	-9.09305
子丑	-9.0931
之餘	-9.09356
五十三	-9.09374
一百四十	-9.09426
十尺	-9.09479
赤道經度	-9.09518
泛	-9.0955
之後	-9.09565
占	-9.09692
以定	-9.09902
圜界	-9.09929
辨	-9.09991
師	-9.10055
之心	-9.10092
尤	-9.10213
合伏	-9.10349
兼	-9.10392
較數	-9.10406
一一	-9.1054
丁庚	-9.1077
卦	-9.10836
三角形之	-9.10879
推之	-9.10957
相去	-9.10994
注	-9.11224
盤	-9.11347
戊午	-9.11416
股弦和	-9.11467
斯	-9.1149
四百八十	-9.11518
▁(	-9.11771
所推	-9.11783
既得	-9.11811
庚午	-9.1213
中星	-9.12178
同度	-9.12247
士	-9.12435
豈	-9.12516
還	-9.12556
三四	-9.12566
五十二	-9.12663
割線	-9.12758
癸巳	-9.12787
坤	-9.12919
善	-9.12992
名曰	-9.13003
其一	-9.13037
庚壬	-9.13108
辛丑	-9.13116
己丑	-9.13245
天之	-9.13312
春	-9.13332
不合	-9.13361
宫度	-9.13361
所求	-9.13382
一周	-9.13442
之比例若	-9.13497
大差	-9.13686
方面	-9.13693
天下	-9.13693
信	-9.13703
四十六	-9.13934
形有	-9.13944
朒	-9.13973
戸	-9.13975
增	-9.14022
地球	-9.14072
食分	-9.14213
五日	-9.14315
若以	-9.14321
逐	-9.14323
平差	-9.14375
五十八	-9.14389
子正	-9.14458
甲壬	-9.14486
庚寅	-9.14602
之髙	-9.14613
四十三	-9.14626
二線	-9.14778
特	-9.14843
股弦較	-9.14894
辛未	-9.15012
並同	-9.15092
纎	-9.15179
銀數	-9.15183
密	-9.15202
六十三	-9.15226
度數	-9.15266
戊辰	-9.15543
測之	-9.15633
連	-9.15655
治	-9.15656
為二	-9.15697
勾股形	-9.15737
為三率	-9.15907
近時	-9.15968
太白	-9.16027
略	-9.16144
魏	-9.16293
僅	-9.16348
距日	-9.1638
丁亥	-9.16426
二八	-9.16436
二至	-9.16439
四十七	-9.16577
各得	-9.16591
三千	-9.16666
身	-9.16733
久	-9.16752
兩極	-9.1676
之説	-9.16871
躔	-9.16879
六十六	-9.16883
辛亥	-9.16967
損益	-9.17058
四八	-9.17095
奏	-9.17197
所分	-9.17353
臺	-9.17355
如是	-9.17474
疏	-9.17556
甲戌	-9.17706
己乙	-9.17708
如法	-9.17807
用之	-9.17844
第七	-9.18052
不過	-9.18056
丙午	-9.18079
舊法	-9.18122
速	-9.18136
又置	-9.18205
武	-9.18264
日數	-9.1844
雨	-9.18504
南極	-9.18561
天地	-9.18567
測驗	-9.18673
如此	-9.18689
余	-9.18699
期	-9.187
與甲	-9.18703
太陽平行	-9.18749
地半徑差	-9.18759
渾圓	-9.18828
四十一	-9.18975
三邊	-9.18987
定朔	-9.18988
丙戌	-9.19032
路	-9.19049
語	-9.19154
角形	-9.1917
全分	-9.19306
高弧	-9.19336
乙未	-9.1939
壬辰	-9.19411
a	-9.19441
十萬	-9.19458
思	-9.19508
一段	-9.19521
五十七	-9.19531
又如	-9.19547
九度	-9.19676
六年	-9.1974
九六	-9.19833
割	-9.19834
與甲乙	-9.19873
甲乙線	-9.19924
綫	-9.20124
一刻	-9.20142
古法	-9.20189
b	-9.20241
癸未	-9.20311
叚	-9.20363
餘為	-9.20553
十二尺	-9.20584
同名	-9.20656
然則	-9.20695
承	-9.2072
製	-9.2072
可見	-9.20879
鋭	-9.20899
另	-9.20973
赤	-9.20973
二千	-9.21045
厯家	-9.21053
方根	-9.21087
震	-9.21092
其積	-9.21143
之數也	-9.21144
得其	-9.21273
長方形	-9.21294
左旋	-9.21408
夜半	-9.2142
而其	-9.2157
即是	-9.21587
十五日	-9.217
二百八十	-9.21711
永	-9.21722
乙亥	-9.21738
一秒	-9.21786
羊	-9.21844
果	-9.21866
晉	-9.22042
己酉	-9.22181
相交	-9.22286
而已	-9.22289
五十一	-9.22307
得二	-9.22501
為比例	-9.22625
昏	-9.22638
兩心差	-9.2268
坎	-9.22697
三六	-9.22708
請	-9.22786
却	-9.22838
三星	-9.22864
柱	-9.22934
五十九	-9.22977
審	-9.23112
春秋分	-9.2312
為大	-9.23124
癸亥	-9.23144
之内	-9.23151
二星	-9.23153
也此	-9.23206
己巳	-9.23206
六九	-9.23258
真時	-9.23284
壬午	-9.23305
以前	-9.23318
萬里	-9.23333
之長	-9.23392
五六	-9.23461
閏月	-9.23474
則為	-9.2348
兩腰	-9.23487
中率	-9.23523
相比	-9.23526
儀器	-9.23578
民	-9.23592
七日	-9.23751
辛酉	-9.23994
天正冬至	-9.24048
甲乙邊	-9.24119
四時	-9.24243
戊申	-9.24255
以乗	-9.24277
庚丙	-9.24313
皆為	-9.24321
五五	-9.24374
地半徑	-9.2439
為黄道	-9.24443
九五	-9.24732
以求	-9.24786
之體	-9.24788
徵	-9.24896
外周	-9.24982
軍	-9.25097
一分内一秒冬至	-9.2517
所設	-9.25231
印度	-9.25253
清	-9.25446
丁酉	-9.25482
術曰置	-9.25564
繩	-9.25567
古今	-9.25629
三之一	-9.25653
盛	-9.25803
相遇	-9.25932
八六	-9.25969
適	-9.25986
各以	-9.26064
也凡	-9.26083
攷	-9.26104
距弧	-9.26106
丙辰	-9.26119
辛庚	-9.2614
窺	-9.26148
四十度	-9.26327
徴	-9.26348
庚申	-9.26492
二百七十	-9.26574
此法	-9.26617
食限	-9.26815
識	-9.26893
莫	-9.27147
七年	-9.27238
己角	-9.27341
癸子	-9.27359
通弦	-9.27423
尺為	-9.27578
之類	-9.27667
知其	-9.27672
旣	-9.27724
證	-9.27749
所餘	-9.27757
日入	-9.27786
以加	-9.2784
嵗差	-9.2785
六十分	-9.27906
因之	-9.2798
之角	-9.2818
縁	-9.28216
孫	-9.2822
腰	-9.28308
中垂線	-9.2846
黄平象限	-9.28513
其中	-9.28583
相減得	-9.28674
線上	-9.28775
而無	-9.28801
蔀	-9.28817
勾股和	-9.28884
復以	-9.28939
三三	-9.28989
丁未	-9.29092
曜	-9.29182
二角	-9.29209
二十度	-9.29238
昴	-9.29467
交周	-9.29489
秋	-9.29541
流	-9.29572
弧之正弦	-9.29587
爾	-9.29847
六六	-9.29854
黄鐘	-9.29889
三宫	-9.30074
者其	-9.3014
梁	-9.30157
旦	-9.30188
壬戌	-9.30238
見食	-9.3028
三十分	-9.3033
外切	-9.30335
一步	-9.30354
撱圓	-9.30478
命為	-9.30537
五十度	-9.30655
所見	-9.30757
歲正月	-9.30838
三人	-9.30903
不必	-9.30931
癸酉	-9.30951
庚戌	-9.30978
也夫	-9.31201
者即	-9.31219
厯元	-9.31237
青	-9.31257
三百二十	-9.31313
小差	-9.31347
月之	-9.31541
壁	-9.31748
一位	-9.31871
不食	-9.3189
算得	-9.31927
三倍	-9.31939
中交	-9.31963
十二時	-9.32049
統	-9.32107
一面	-9.32121
縣	-9.32154
丁壬	-9.32259
整	-9.32303
政	-9.3245
亦然	-9.32455
所行	-9.32475
崇禎	-9.32479
與乙丙	-9.32512
衰數	-9.32512
吾	-9.32582
辛乙	-9.32601
去之	-9.32626
録	-9.32629
西洋	-9.3265
一星	-9.32763
大距	-9.32791
本行	-9.32825
二丈	-9.32827
往	-9.32888
勾弦較	-9.32916
為心	-9.33023
監	-9.33119
依法	-9.33121
太陽在	-9.33143
渾儀	-9.332
年正月	-9.33362
可得	-9.33435
君	-9.33445
或以	-9.33528
距交	-9.33724
線與	-9.33729
際	-9.33815
與甲丙	-9.33854
線為	-9.33862
勝	-9.33983
鐵	-9.33992
䇿	-9.34182
勾弦和	-9.34186
六四	-9.34212
射	-9.34316
差分	-9.34326
二十九日	-9.34417
我	-9.34425
月在	-9.34569
約之	-9.34706
之比即同於	-9.34846
之價	-9.3504
偶	-9.35107
辛夘	-9.35127
己壬	-9.35156
之半徑	-9.35319
體積	-9.35354
第八	-9.35552
渾	-9.35565
二百一十	-9.3562
亦不	-9.35643
一六	-9.35849
正角	-9.35853
食既	-9.359
謬	-9.35926
四千	-9.35927
兆	-9.35949
相差	-9.35955
地面	-9.35962
都	-9.36098
陰	-9.36105
勾股較	-9.36207
巽	-9.36308
隻	-9.36374
最逺	-9.3641
萬二千	-9.36524
因之得	-9.36581
四五	-9.36588
乙丙邊	-9.36612
婁	-9.36617
循	-9.3662
確	-9.36792
八分内三十一秒冬至	-9.36846
興	-9.36887
視緯	-9.36893
報	-9.36913
減之餘	-9.36947
窮	-9.36955
赤道度	-9.36993
先求	-9.37003
一千二百	-9.37027
對弧	-9.37116
三百五十	-9.37117
艮	-9.37218
立法	-9.37278
何也	-9.37303
質	-9.37311
矣故	-9.37324
丙申	-9.37351
天正	-9.37472
得四	-9.37531
零四	-9.37746
看	-9.37747
九九	-9.37754
内有	-9.37755
者乃	-9.37949
天元	-9.37985
大分	-9.37997
圜徑	-9.38
多寡	-9.38044
註	-9.38181
衝	-9.38405
漏	-9.38463
袤	-9.38528
測量	-9.38672
和數	-9.38809
立差	-9.38965
一千六百	-9.38997
仰	-9.39005
即如	-9.39097
七七	-9.39153
三丈	-9.39236
相應	-9.39256
藏	-9.39265
推得	-9.39267
得九	-9.39316
中距	-9.39447
零八	-9.39488
立成	-9.39543
之形	-9.39587
奎	-9.39609
首朔	-9.39688
七八	-9.39734
於是	-9.39779
方位	-9.39828
五七	-9.39907
六日	-9.39935
也設如有	-9.39945
二人	-9.39958
互乘	-9.40027
息	-9.40084
丨	-9.4012
夕	-9.40191
黄道度	-9.40212
一角	-9.40238
則用	-9.40287
一曰	-9.40298
最近	-9.40303
皆同	-9.40372
數為	-9.40419
大矢	-9.40526
副	-9.40538
越	-9.40608
雜	-9.40672
於此	-9.40862
則有	-9.40909
大衍	-9.40959
皆有	-9.41005
之界	-9.41046
尋	-9.41103
纖	-9.41111
了	-9.41162
秦	-9.41183
古人	-9.41191
正午	-9.41212
所在	-9.41229
○○○	-9.41425
萬七千	-9.41449
乙夘	-9.41486
三七	-9.41516
之地	-9.41542
三十日	-9.41601
龍	-9.4161
由旬	-9.41724
一年	-9.41781
萬九千	-9.41789
二百五十	-9.41839
三百六十度	-9.41954
亦必	-9.42011
禮	-9.42019
對角線	-9.42022
其正弦	-9.42039
剖	-9.42097
缺	-9.42166
題言	-9.42307
平圓	-9.42316
本道	-9.42322
一象限	-9.42359
授時厯	-9.42376
右旋	-9.42467
分步之	-9.42547
庚角	-9.42549
命分	-9.42579
多於	-9.42658
二十四度	-9.4267
西法	-9.42686
一百三十	-9.42705
球體	-9.42793
弧為	-9.42802
除實	-9.42881
案	-9.42916
御	-9.43022
蒙	-9.43056
騐	-9.43063
故其	-9.43083
單位	-9.43125
闕	-9.43146
鏡	-9.43158
業	-9.43163
習	-9.43184
第十	-9.43187
均輪	-9.43266
見其	-9.43279
進退	-9.43322
亦以	-9.43342
十二年	-9.43526
此時	-9.43583
府	-9.43585
臨	-9.43628
等邊	-9.43696
再加	-9.43726
一百一十	-9.43784
之正切	-9.43872
庚甲	-9.43881
相合	-9.43908
大股	-9.43911
為小	-9.43965
鋭角	-9.4399
六五	-9.44053
六十八	-9.44137
寫	-9.44166
半弦	-9.44167
虧	-9.44203
日法	-9.4437
開平方得	-9.44386
為三率得四率	-9.4444
平方開之得	-9.44468
天體	-9.44488
可知	-9.44502
口	-9.44546
五十分	-9.44576
甲丙邊	-9.44623
直角形	-9.44656
二七	-9.44663
萬零	-9.44734
如上	-9.44746
戊戌	-9.448
仲	-9.44877
設時	-9.44922
典	-9.44946
當時	-9.45009
六八	-9.45014
祀	-9.45185
務	-9.45227
有二	-9.45248
每人	-9.45314
得六	-9.45462
成一	-9.45511
兩行	-9.45511
三十六度	-9.45531
銖	-9.45564
之比也	-9.45732
用數	-9.45734
二刻	-9.45742
已上	-9.45769
二十三度	-9.45784
乙數	-9.46031
四星	-9.46128
豪	-9.46185
聚	-9.46232
朔望	-9.46381
等數	-9.46428
收	-9.46462
分三十秒	-9.4651
二千五百	-9.46513
十三度	-9.46528
六十二	-9.46619
則此	-9.4663
局	-9.46632
等即	-9.4668
勺	-9.46758
體之	-9.46776
辛丁	-9.46798
黄赤道	-9.4691
兩位	-9.46934
七十九	-9.46966
㡬何	-9.46988
一百七十	-9.47075
加分	-9.47167
四日	-9.47167
一五	-9.47221
設如	-9.47224
卒	-9.47234
德	-9.4732
晦日食	-9.4737
戊辛	-9.47422
嵗實	-9.47468
七曜	-9.47486
林	-9.47657
芒	-9.47709
長短	-9.47735
之日	-9.47739
一小時	-9.47741
而止	-9.47795
角度	-9.47824
千里	-9.47867
減一	-9.4797
七十八	-9.48053
所差	-9.4806
八十七	-9.48076
嘗	-9.48147
又加	-9.48231
曉	-9.4826
函	-9.48275
兩弧	-9.48288
繁	-9.48294
不動	-9.48461
九千	-9.48621
其實	-9.48758
有三	-9.48765
壬辛	-9.48806
辛丙	-9.48818
四六	-9.49046
為主	-9.49102
黄極	-9.49189
嵗輪	-9.49228
答曰	-9.49263
其度	-9.49281
翼	-9.49316
八八	-9.49385
究	-9.49393
者必	-9.49539
併徑	-9.49647
之切線	-9.49654
四兩	-9.49676
倣此	-9.4969
作直線	-9.49721
所載	-9.49754
二十分	-9.4977
背	-9.49811
與丙	-9.49853
相近	-9.49891
黒	-9.49911
寛	-9.49935
校	-9.49975
蝕	-9.49994
手	-9.50001
同類	-9.50049
品	-9.50089
一九	-9.50168
全周	-9.50168
欽定四庫全書	-9.50194
圜内	-9.502
之根	-9.50235
弧矢	-9.50334
為負	-9.50427
七十一	-9.50433
七五	-9.5044
按此	-9.50445
第谷	-9.50467
根與	-9.50486
二百九十	-9.50513
覺	-9.50514
第九	-9.50576
兩弦	-9.50582
大統	-9.50669
二萬	-9.50759
乙為	-9.51072
小股	-9.51163
甲東行	-9.51188
欲知	-9.51317
鄭	-9.51371
對角	-9.5138
直角方形	-9.51388
在北	-9.51439
况	-9.51559
乙壬	-9.51582
與戊己	-9.51635
癸卯	-9.51707
又為	-9.5172
九十九	-9.51738
在天	-9.51743
一行	-9.51928
二十四尺	-9.51986
三因	-9.51998
四刻	-9.52021
假如有	-9.52031
戊巳	-9.52074
必有	-9.52099
撰	-9.52108
三九	-9.52407
積日	-9.52447
相對之	-9.52497
諸星	-9.52499
乙卯	-9.52546
寸為	-9.52577
之面	-9.52611
垣	-9.52674
換	-9.52684
銳角	-9.5274
三五	-9.52759
不論	-9.52791
帶縱	-9.52859
黄赤	-9.52913
升度	-9.52918
二二	-9.52968
此數	-9.52996
七百二十	-9.53126
十八度	-9.53192
八七	-9.53312
距天頂	-9.53371
京	-9.53639
七六	-9.53669
正負	-9.53679
本時	-9.53681
三位	-9.53689
為赤道	-9.53713
二六	-9.53766
圓周	-9.53804
經朔	-9.5395
即成	-9.53969
甲癸	-9.54006
幾何答曰	-9.54195
二步	-9.54202
得三	-9.54203
嵗正月	-9.54288
祖	-9.54291
述	-9.54319
七十七	-9.54406
寒	-9.54437
與丁	-9.54438
兮	-9.54543
時分	-9.5459
太陽之	-9.54593
六萬	-9.54646
丙壬	-9.54677
法曰置	-9.54718
視徑	-9.54745
一百四十四	-9.54754
錯	-9.54773
法也	-9.54793
兩邉	-9.54838
孝	-9.54848
者亦	-9.54859
通積分	-9.54904
買	-9.54929
和較	-9.54957
之邊	-9.55005
四七	-9.5505
三百六十五日	-9.55053
七寸	-9.55111
地影	-9.55221
六十五	-9.553
性	-9.55424
之用	-9.55426
寔	-9.55525
次形	-9.55533
羣	-9.55558
黃	-9.55623
各星	-9.55679
所當	-9.55844
六十一	-9.55958
徒	-9.56041
十二度	-9.56141
七十三	-9.5615
必在	-9.56239
月距日	-9.56254
逆行	-9.56341
是故	-9.56415
可求	-9.5657
完	-9.56591
次日	-9.56625
交終	-9.56646
立表	-9.56679
經緯度	-9.56773
今推	-9.56803
一根	-9.56811
整數	-9.56904
八十九	-9.57013
加差	-9.57021
之月	-9.57029
正切	-9.57132
則是	-9.57162
二十尺	-9.57227
周髀	-9.57262
零五	-9.57325
矩度	-9.57367
一七	-9.57433
甲丁丙	-9.5744
遞	-9.57544
其差	-9.57572
等故	-9.57587
度三十分	-9.57596
伏見	-9.57693
塹堵	-9.5774
數與	-9.57763
横線	-9.57765
昭	-9.57766
求積	-9.5778
黍	-9.57781
合之	-9.57782
十一分	-9.57861
法用	-9.57908
低	-9.581
法推	-9.58109
明勾	-9.58154
空位	-9.58171
通勾	-9.58241
檢	-9.58269
小數	-9.58343
卯酉	-9.58372
亂	-9.58476
高度	-9.58728
出於	-9.58728
四三	-9.58744
初日	-9.5876
勢	-9.5881
兹	-9.58943
錫	-9.58959
其比例	-9.58999
互相	-9.59059
辛角	-9.59089
隂陽	-9.59097
四之一	-9.59155
之共數	-9.5917
小方	-9.59215
與前	-9.59225
己甲	-9.59302
設如有	-9.59306
一線	-9.59407
餘分	-9.59424
角等	-9.59452
早	-9.59476
筆	-9.59479
一十五度	-9.5954
適足	-9.59564
辛卯	-9.59622
積年	-9.59625
兩三角形	-9.59726
不言	-9.59848
之義	-9.59867
甲丑	-9.59993
二十八宿	-9.60022
矣又	-9.60065
相等之	-9.6008
七九	-9.60088
其説	-9.60124
之位	-9.60131
𤣥	-9.60137
謹	-9.60167
魯	-9.60198
列之	-9.60355
一月	-9.60421
程	-9.60444
假	-9.60446
斷	-9.60503
此二	-9.60547
與赤道	-9.6057
十秒	-9.60611
列位	-9.60627
甎	-9.6066
庶	-9.60699
懸	-9.60716
實測	-9.60737
竟	-9.60739
得二十	-9.6089
亷法	-9.60892
八十六	-9.60931
之底	-9.6097
未時	-9.61093
十九年	-9.61095
鐘	-9.61119
必為	-9.61129
二位	-9.6114
施	-9.61155
之率	-9.61185
城徑	-9.61207
閏餘	-9.61212
栁	-9.61225
疎	-9.61307
杪	-9.61339
散	-9.61377
與丁戊	-9.61391
枚	-9.61397
萬厯	-9.61492
三分之二	-9.61552
月道	-9.61587
大句	-9.61739
法求得	-9.61746
之星	-9.61768
又法	-9.61793
相併得	-9.61795
九年	-9.61806
權	-9.6183
可知矣	-9.61893
鳥	-9.61991
地景	-9.62001
厯書	-9.62036
得一百	-9.62055
六千	-9.62066
三八	-9.62237
一石	-9.62501
大方	-9.62526
倉	-9.62584
五萬	-9.62724
圜之	-9.6279
戊壬	-9.62847
餘數	-9.62891
小句	-9.62958
皆與	-9.63057
為三率推得四率	-9.63169
頗	-9.63169
昔	-9.63193
定位	-9.632
李	-9.6322
守	-9.63251
日體	-9.63343
為加	-9.63348
中氣	-9.63361
共步	-9.63433
日差	-9.63486
立方積	-9.63609
之垂線	-9.63616
中國	-9.63656
黄道之	-9.63745
六三	-9.63768
距時	-9.63875
座	-9.6394
之逺	-9.63995
數得	-9.64006
股弦	-9.64016
兩直角	-9.64094
四九	-9.6412
輪心	-9.64139
何者	-9.64184
八日	-9.64245
中有	-9.64249
草	-9.64275
側	-9.64288
法置	-9.64294
乙丙丁	-9.64349
集	-9.64374
畆	-9.64411
各等	-9.64417
距分	-9.64417
而求	-9.64423
十四日	-9.64434
准	-9.64435
渾天	-9.64452
奇	-9.64479
編	-9.64623
所得之	-9.64679
既為	-9.64689
則加	-9.64702
在南	-9.64711
丑寅	-9.64759
二十七日	-9.64843
暗	-9.64869
曲線	-9.6487
有奇	-9.64915
八線	-9.64929
以半徑一千萬為一率	-9.64995
與丙丁	-9.65012
架	-9.65026
恐	-9.65081
月天	-9.65153
十一年	-9.65207
有一	-9.65281
平行線	-9.65334
圎	-9.65346
之距	-9.65371
四人	-9.65383
十五尺	-9.65464
然而	-9.65555
八年	-9.65561
壬丙	-9.65571
磬折形	-9.65722
仍得	-9.65738
一尺二寸	-9.65772
調	-9.65804
底勾	-9.65918
以來	-9.65926
九章	-9.66022
羽	-9.66061
一千八百	-9.66074
九二	-9.66089
遺	-9.66143
為半徑	-9.66171
零分	-9.66255
个	-9.66276
東南	-9.66279
結	-9.66297
日出入	-9.66308
積數	-9.66313
對邊	-9.6634
定時	-9.66344
三萬	-9.66507
得一十	-9.66549
分内一十一秒冬至應閏	-9.66638
則成	-9.6666
容方	-9.66732
為乙	-9.66867
觜	-9.66885
多少	-9.66939
實㑹	-9.66984
豆	-9.67034
矣若	-9.67244
一百九十	-9.67268
面之	-9.67303
八千	-9.67353
丙為	-9.67361
矣然	-9.67392
洲	-9.67537
釋	-9.67544
稽	-9.67564
異名	-9.67608
五三	-9.6768
并之	-9.67725
之徑	-9.67727
亦與	-9.67733
又曰	-9.67782
得五	-9.67805
絶	-9.67832
中積分	-9.67955
天文	-9.67962
親	-9.67974
之極	-9.68108
甲乙丙三角形	-9.68111
不然	-9.68114
妄	-9.68233
垂弧	-9.68248
之限	-9.68267
也盖	-9.68307
生於	-9.68427
七千	-9.68475
必與	-9.68524
兩交	-9.68533
距赤道	-9.68809
訂	-9.68879
壬乙	-9.68956
本位	-9.6896
爲實	-9.69072
壬甲	-9.69145
戊己庚辛	-9.69194
一百八十度	-9.69236
一三	-9.69237
中分	-9.6929
四分内一秒冬至	-9.69308
狹	-9.69336
立春	-9.69339
加之	-9.69405
軫	-9.69449
半徑為	-9.69465
隱	-9.69516
譯	-9.6954
天行	-9.69561
三因之得	-9.69576
亦無	-9.69687
為太陽	-9.69689
五八	-9.69729
刻分	-9.69741
奉	-9.69759
米數	-9.69785
九八	-9.6982
圜形	-9.6983
相反	-9.6986
金水	-9.69886
丁戊己	-9.69911
所對之	-9.69961
在下	-9.69973
訛	-9.6999
三等	-9.70098
之㸃	-9.701
稜	-9.70154
是日	-9.70165
玉	-9.70168
佛	-9.70216
髙卑	-9.70246
形内	-9.70268
距午	-9.70273
名為	-9.70302
為甲	-9.70344
萬五千	-9.70374
同式	-9.70375
方法	-9.70489
自之	-9.70489
前法	-9.70554
十字	-9.70572
者謂	-9.70642
實引	-9.70642
所定	-9.70686
倒	-9.70698
距冬至	-9.70742
返	-9.70811
釐有餘即	-9.70826
大弦	-9.70855
三百三十	-9.70943
一平方	-9.70957
朱	-9.70988
相等則	-9.71079
午時	-9.71105
者是	-9.71146
一八	-9.71211
或用	-9.71239
同於	-9.71255
熱	-9.71255
諸數	-9.71287
四百五十	-9.71298
之時刻	-9.71313
符	-9.71384
開平方	-9.71415
商數	-9.71418
百分	-9.71441
餘積	-9.71459
回	-9.71462
情	-9.7153
日輪	-9.71562
減盡	-9.71566
八秒	-9.71572
辛戊	-9.71577
與甲丁	-9.71622
併之	-9.71625
值	-9.7165
六二	-9.71679
聖人	-9.71687
為長	-9.7178
假數	-9.71784
所得之數	-9.71789
氏曰	-9.71836
根少	-9.71886
甲南行	-9.71901
黄緯	-9.72013
一直線	-9.72028
穿	-9.72082
智	-9.72171
八等面	-9.72247
算之	-9.72472
上生	-9.72496
二千四百	-9.7254
下廣	-9.72646
定差	-9.72712
三卷	-9.72722
咸	-9.7281
酒	-9.72826
此兩	-9.72889
創	-9.72899
之故	-9.72916
即所求	-9.72924
矩形	-9.73008
命之	-9.7305
萬物	-9.73067
平朔	-9.73075
乘除	-9.73082
至于	-9.73278
圜外	-9.73465
訖	-9.73516
巧	-9.73536
京師	-9.73543
平分之	-9.73549
交二十六日	-9.73623
奉聖㫖	-9.73625
人所	-9.73698
辛己	-9.73773
六十七	-9.73789
萬六千	-9.73791
視之	-9.73803
較弧	-9.73814
餘角	-9.73869
之平行	-9.73873
爲法	-9.73882
八九	-9.73911
九百四十	-9.73914
十日	-9.73971
日晷	-9.73981
己卯	-9.73996
立天元一為	-9.74025
為句	-9.74052
五行	-9.74094
㡬	-9.7412
紬	-9.74137
凌犯	-9.7414
舍	-9.7414
遞加	-9.74163
一法	-9.74226
革	-9.74266
如左	-9.74363
卯辰	-9.7446
毎日	-9.74468
之次	-9.74508
約之為	-9.7451
甲為	-9.74535
甲丙丁	-9.74553
推步	-9.74585
汎	-9.74598
日度	-9.74739
依前	-9.74798
方之	-9.74825
消	-9.74826
之象	-9.74858
九日	-9.74864
毎邊	-9.74865
辛癸	-9.74893
大數	-9.74897
遵	-9.74939
星紀	-9.74964
先生	-9.75038
月孛	-9.75088
又自	-9.75095
升降	-9.75184
本法	-9.7524
四萬	-9.75267
姑	-9.75398
角形之	-9.75441
二百六十	-9.75469
是月	-9.75476
之大	-9.75485
三秒	-9.75492
原積	-9.75506
竅	-9.7555
丁夘	-9.75591
經圏	-9.75608
錐	-9.75627
屢	-9.75637
定為	-9.7572
三色	-9.75785
十一度	-9.75803
三次	-9.75855
大星	-9.75888
正中	-9.75913
所減	-9.75915
術曰以	-9.75947
癸夘	-9.75953
首率	-9.75958
丁癸	-9.75993
黄道經度	-9.76014
所容	-9.76178
圗	-9.76292
伯	-9.76371
分内四十一秒冬至應閏	-9.76373
則得	-9.76379
曰天	-9.76388
截積	-9.76423
十二等面	-9.76426
朔實	-9.76453
俱等	-9.76476
斜線	-9.76482
甲乙丁	-9.7671
末率	-9.76778
以爲	-9.76795
宣	-9.76904
至此十一閏又一紀	-9.76918
十三年	-9.76958
邪	-9.76968
為次商	-9.76969
負隅	-9.76983
出地	-9.77046
綾	-9.77048
共價	-9.77161
次作	-9.77179
為兩	-9.77209
續	-9.77315
陽厯	-9.77369
一千五百	-9.7753
者有	-9.77535
得三十	-9.77608
甲乙為	-9.77618
順天府	-9.77676
依此	-9.77703
配	-9.77708
加減之	-9.778
十六尺	-9.77871
三兩	-9.77887
本銀	-9.77992
儒	-9.78006
算法	-9.7801
子癸	-9.78122
即知	-9.78122
於上	-9.78175
營	-9.78422
科	-9.78435
假令	-9.78469
食甚用時	-9.78493
東方	-9.78506
本星	-9.78592
中數	-9.78614
相距之度	-9.78665
度之	-9.78677
中行	-9.78681
七二	-9.78699
順行	-9.78796
二卷	-9.78816
之倍	-9.78826
眞	-9.78909
零三	-9.78957
也求	-9.78964
距地平	-9.78978
之緯度	-9.78985
四二	-9.79008
輕	-9.79078
一萬二千	-9.79125
宫初度	-9.79144
犯	-9.79155
抄	-9.79186
四倍	-9.79201
包	-9.79205
共積	-9.79339
垂	-9.79412
甲丁乙	-9.7942
丙癸	-9.79547
之初	-9.79559
其行	-9.79573
○○○○○	-9.79663
原有	-9.79669
本地	-9.79684
高卑	-9.79705
十三分	-9.7971
鬼	-9.79722
置一	-9.7974
亦若	-9.79755
直角三角形	-9.79773
長廉	-9.79795
現	-9.79805
伐	-9.79882
珠	-9.79903
晨昏	-9.79953
八四	-9.79985
初數	-9.79992
上廣	-9.80274
十六度	-9.80291
定率	-9.80301
氣差	-9.80317
原實	-9.80317
乗方	-9.80348
化為	-9.80511
正當	-9.80521
西南	-9.80553
詩	-9.80565
弧三角	-9.80604
尊	-9.80607
專	-9.80681
十七年	-9.80692
故用	-9.80718
即所求之	-9.80772
直行	-9.80773
徑線	-9.80794
直形	-9.80853
先後	-9.80888
強	-9.80943
百年	-9.80956
髙下	-9.80974
隠	-9.8112
每分	-9.81136
授	-9.81159
五十九分	-9.81191
後天	-9.81239
之術	-9.81262
為從方	-9.81293
彼此	-9.81331
則減	-9.81367
生光	-9.81395
皆可	-9.81518
為減	-9.81537
測騐	-9.81544
共銀	-9.81547
虚弦	-9.81592
傍	-9.81608
五秒	-9.81659
赤經	-9.81708
一宫	-9.81742
之大小	-9.81775
壬庚	-9.81813
餘割	-9.81816
五卷	-9.81831
半之為	-9.8186
以較	-9.81935
皇	-9.81963
十二宫	-9.81984
昬	-9.81989
弟	-9.81992
不同心	-9.81996
繫	-9.82021
一千四百	-9.82048
癸壬	-9.8215
八刻	-9.82276
之景	-9.82286
有餘即	-9.82352
可推	-9.82366
約為	-9.82417
法求之	-9.825
繞	-9.82621
零六	-9.82639
八十三	-9.82661
八十五	-9.82746
胃	-9.82761
仍以	-9.82768
而一為	-9.82801
相切	-9.8281
零九	-9.82963
太陽引數	-9.82965
天度	-9.83007
二百三十	-9.83044
分内一秒冬至史	-9.83048
朢	-9.83095
次求	-9.83145
日中	-9.83223
進位	-9.83276
▁分	-9.83386
一邉	-9.83394
否	-9.83423
七十四	-9.83443
正對	-9.83456
梵	-9.83457
冬至日	-9.83496
楚	-9.83521
六七	-9.83525
恰	-9.8354
因其	-9.83687
以太陽	-9.83822
與黄道	-9.83891
八五	-9.83902
六兩	-9.83957
嘉	-9.8403
至戊	-9.84043
○○○○	-9.84144
縱横	-9.84162
置閏	-9.84186
不滿	-9.84258
加倍	-9.84286
地之	-9.84294
西北	-9.84301
角之	-9.8431
竹	-9.84354
陸	-9.84372
句弦和	-9.84461
弦較和	-9.84517
九十五	-9.84639
丁卯	-9.84641
維	-9.84758
距太陽	-9.84856
圓形	-9.84932
菽	-9.8498
上位	-9.85012
魄	-9.85013
騾	-9.85025
徃	-9.85053
九十二	-9.85064
分内二十一秒冬至應閏	-9.851
唯	-9.85112
比例之	-9.85117
九十七	-9.85121
四百四十	-9.85197
總弧	-9.85213
内加	-9.85271
某星	-9.85334
游	-9.85391
系	-9.85396
立算	-9.85446
亦如	-9.85528
癸角	-9.8555
食甚時	-9.85572
未有	-9.85592
去極	-9.85614
厥	-9.85649
甲數	-9.85718
作㸃	-9.85745
卑	-9.8575
稻	-9.85755
淺	-9.8578
違	-9.8583
郡	-9.85887
十四分	-9.8593
得四十	-9.8594
二十等面	-9.85942
甲丙乙	-9.85956
句股和	-9.85983
分内五十一秒冬至應閏	-9.86004
約之得	-9.86039
一十四日	-9.8615
之交	-9.8623
兩六錢	-9.86252
從方	-9.86283
其下	-9.8638
釐有餘	-9.86426
所出	-9.86471
遷	-9.86571
里數	-9.86573
甲丁戊	-9.86611
圭	-9.86623
弧度	-9.86664
欲求	-9.86676
乙東行	-9.86683
待	-9.86697
所有	-9.86824
乙子	-9.86861
所指	-9.8692
丑角	-9.86923
其間	-9.86935
引長之	-9.8694
六十九	-9.86948
八兩	-9.8701
太陽躔	-9.87011
應加	-9.87092
表以	-9.87115
三百一十	-9.87218
盈厯	-9.87228
平廉	-9.87228
上直角方形	-9.87251
一十二分	-9.87284
七百八十	-9.87306
減於	-9.87369
衍	-9.87411
板	-9.87415
相和	-9.87455
一十三度	-9.87482
東北	-9.87492
日分	-9.87563
十年	-9.87571
隅法	-9.87645
零七	-9.87734
半徑與	-9.87758
午未	-9.87764
當以	-9.8781
小徑	-9.87826
每一	-9.87858
次均	-9.87921
竿	-9.88037
也此法	-9.8809
駝	-9.8815
十分内一秒冬至	-9.88212
職	-9.88218
穀	-9.88219
中間	-9.88233
厯指	-9.88269
星之	-9.88282
長方體	-9.88342
西域	-9.88343
乙癸	-9.88486
邊股	-9.88731
零一	-9.88735
本輪心	-9.88737
月心	-9.88749
西厯	-9.88849
取之	-9.8888
妙	-9.88885
卅	-9.89005
關	-9.89028
推是年	-9.89055
不變	-9.89055
自然	-9.89111
為丙	-9.89112
於左	-9.89203
初虧復圓	-9.89239
二秒	-9.89249
以分母	-9.89254
乗除	-9.89271
塔	-9.89371
開之	-9.89534
不齊	-9.89546
此以	-9.89562
地中	-9.89602
定氣	-9.89632
所對	-9.89633
己夘	-9.89671
分寸之	-9.89699
錠	-9.89715
赤緯	-9.89719
立法測望	-9.89744
差數	-9.89763
遲速	-9.89798
距限	-9.8985
歌	-9.89873
之線	-9.899
億八千	-9.89915
梨	-9.89916
髙下差	-9.8995
之光	-9.89951
伏見輪	-9.9006
八步	-9.901
二倍	-9.90109
實望	-9.90141
或在	-9.90143
共為	-9.90236
辰巳	-9.90246
皆在	-9.90276
四面體	-9.90322
執	-9.9035
四四	-9.90421
列宿	-9.90423
九十八	-9.90424
二百二十	-9.90465
二等	-9.905
於戊	-9.90524
好	-9.90556
立方之	-9.90585
在上	-9.90586
壺	-9.90618
二兩	-9.90632
中央	-9.90638
欽天監	-9.90688
亡	-9.90721
得八	-9.90774
即甲	-9.90805
五九	-9.90808
下等	-9.90821
有所	-9.90846
一億	-9.90965
之數以	-9.90969
上方形	-9.90981
九十一度	-9.91148
緞	-9.91234
通股	-9.91303
立圓	-9.91312
計之	-9.91313
中線	-9.91314
則無	-9.91323
雞	-9.91328
黑	-9.91376
七一	-9.9144
二十五度	-9.91469
同理	-9.9147
也而	-9.91558
為隅法	-9.91601
餘切	-9.91632
六秒	-9.91712
所成	-9.91712
南方	-9.91771
積與	-9.91786
每年	-9.91795
九十四	-9.91808
十二兩	-9.91857
不一	-9.91876
臣等	-9.91895
下生	-9.91901
其光	-9.91953
冬至後	-9.92038
堅	-9.92141
牽牛	-9.92168
觚	-9.92196
赤道上	-9.92209
楞	-9.92238
與乙丁	-9.92253
以除	-9.92254
從甲	-9.92288
九十三	-9.92305
角為	-9.92338
𤣥枵	-9.92351
壬丁	-9.92375
試以	-9.92484
西方	-9.92485
通之	-9.92486
正方體積	-9.92515
一斗	-9.92579
極出地	-9.92602
度也	-9.92653
五步	-9.9266
得二百	-9.92683
分内二十一秒冬至	-9.92689
十丈	-9.92704
甲與乙	-9.92728
圓球	-9.92738
三千六百	-9.92741
無窮	-9.92743
書於	-9.92861
長圓體	-9.92866
初限	-9.92957
與太陽	-9.92958
所截	-9.92968
壬角	-9.9297
併之得	-9.92989
測算	-9.93017
草曰置	-9.93024
共數	-9.93062
五宫	-9.93066
乎曰	-9.9307
之高	-9.93149
研	-9.93175
前圖	-9.9319
弧線	-9.93218
者如	-9.93231
丑癸	-9.93292
加于	-9.93304
二十二度	-9.93316
一數	-9.9333
初商之	-9.93336
相距之	-9.9342
戊癸	-9.93487
邊形	-9.93558
十九分	-9.93661
糧	-9.93677
黄道上	-9.93717
年根	-9.93728
之度分	-9.93778
全食	-9.93797
災	-9.93902
示	-9.93931
為從	-9.93968
二十三度半	-9.9399
天眼	-9.93992
法先	-9.94072
三百八十	-9.94109
入交	-9.94119
正矢	-9.94123
三線	-9.9414
宿次	-9.94187
角旁	-9.94187
分二十秒	-9.94214
四方	-9.9438
食在	-9.94396
法實	-9.94534
可用	-9.94565
除法	-9.94595
巻	-9.94671
百萬	-9.94673
太蔟	-9.94694
分四十五秒	-9.94731
九萬	-9.94756
廢	-9.9477
九百六十	-9.94815
旋轉	-9.94829
十四年	-9.94836
亦曰	-9.94874
鼓	-9.94897
為法除之	-9.94935
必以	-9.94938
相生	-9.94947
赤道之	-9.94958
一根多	-9.94979
渾員	-9.94984
至今	-9.95003
正弧三角形	-9.95033
九四	-9.95041
已下	-9.95118
定積	-9.95166
二十四分	-9.95214
寄左	-9.95262
戊為	-9.95284
仍為	-9.95288
展	-9.95306
又作	-9.95336
本數	-9.95346
大火	-9.95395
通為	-9.95401
二邊	-9.95446
實朔	-9.95505
没	-9.95519
其長	-9.95524
持	-9.9553
索	-9.95534
浮	-9.95553
連比例	-9.95577
大勾	-9.9559
登	-9.95605
盈朒	-9.95636
十寸	-9.95654
消長	-9.95658
十分之	-9.9572
最小	-9.9576
之正	-9.95864
五緯	-9.95946
正弧	-9.95951
甲子日	-9.95968
庚為	-9.95979
諸法	-9.95989
入地	-9.96025
七三	-9.96033
球上	-9.96061
乙丙為	-9.96087
多一	-9.96098
與日	-9.96105
單數	-9.96131
兩測	-9.96155
四十分	-9.96202
一百零	-9.96299
本表	-9.96315
之氣	-9.96332
白平象限	-9.9636
築	-9.96368
赤經高弧交角	-9.96445
誠	-9.96453
季	-9.96508
入轉	-9.96536
尺數	-9.96564
亦名	-9.96621
斜交	-9.96625
自乘之	-9.96635
并之得	-9.96778
二九	-9.9679
次年	-9.96873
之上而以	-9.96879
大徑	-9.9691
三十一分	-9.97004
零二	-9.97012
四步	-9.97067
論之	-9.97068
簡法	-9.97071
干	-9.97131
五刻	-9.97169
八釐	-9.97224
初均數	-9.97259
雨水	-9.97259
陵	-9.97357
均度	-9.97413
皇極	-9.97472
五四	-9.97504
十一宫	-9.97523
未嘗	-9.97553
此即	-9.97626
自乘再乘	-9.97658
一萬六千	-9.97691
三歸之得	-9.9773
二斗	-9.97749
應減	-9.97754
句股較	-9.97771
九十度限	-9.97823
同前	-9.97842
開立方	-9.97868
倍之為	-9.97884
析	-9.97911
下亷	-9.98006
緯北	-9.98066
甲巳	-9.9807
地上	-9.98079
相㑹	-9.98107
隨時	-9.98121
川	-9.98177
趙	-9.98193
九十一	-9.98231
定度	-9.98255
五分内三十一秒冬至	-9.98276
禮部	-9.98285
古厯	-9.98409
三百九十	-9.98413
庚癸	-9.98465
距地心	-9.9851
九三	-9.9853
距最髙	-9.98659
原銀	-9.98662
以至	-9.98682
實數	-9.98703
兩道	-9.98771
降婁	-9.98776
逓	-9.98801
俱在	-9.9882
添	-9.98844
最庳	-9.98855
分五十秒	-9.98873
之道	-9.98908
氣朔	-9.98909
數之	-9.98946
映	-9.98961
子為	-9.98995
的	-9.9901
形如	-9.99015
苐	-9.99037
滅	-9.99044
顧	-9.99061
八三	-9.99079
東西南北	-9.99083
無所	-9.99083
各角	-9.99095
相當之	-9.99116
分五釐	-9.99119
紀日	-9.99165
萬四千	-9.99201
未及	-9.99218
之積也	-9.99239
十四度	-9.99247
五兩	-9.99311
七宿	-9.99398
兩八錢	-9.99464
甲乙丙丁戊己	-9.99505
畫一	-9.99527
弦較較	-9.99563
千萬	-9.99564
二百一十六	-9.99638
即用	-9.99654
夾	-9.99678
髙弧交角	-9.99692
得七	-9.99724
對減	-9.99766
二十六分	-9.99781
侯	-9.99851
是謂	-9.99852
康	-9.99856
之法也	-9.9986
舛	-9.9997
教	-10.0001
諸曜	-10.0004
在最髙	-10.001
有餘為	-10.0012
舞	-10.0013
躔度	-10.0014
所生	-10.0015
一十分	-10.0018
其體	-10.002
五十一秒	-10.0025
較之	-10.0041
度一十分	-10.0043
二根	-10.0045
而復	-10.0048
太初	-10.0052
二色	-10.0053
五百六十	-10.0054
也然則	-10.0055
幾何荅曰	-10.0058
原本	-10.0059
至後	-10.006
其上	-10.0063
得三百	-10.0064
初均	-10.0064
既有	-10.0073
資	-10.0079
支那	-10.0079
叅	-10.0081
不可以	-10.0083
薄	-10.0083
片	-10.0084
百二十	-10.0084
闇虚	-10.0089
區	-10.0092
大暑	-10.0098
度四十分	-10.0099
之說	-10.0099
七十二度	-10.0102
隂厯	-10.0103
壬戊	-10.0107
去地	-10.0107
壬己	-10.0109
作垂線	-10.0109
數加	-10.011
十五年	-10.0113
遼史	-10.0115
鶉火	-10.0117
三十六尺	-10.0127
寅卯	-10.0129
表中	-10.013
於甲	-10.0133
心角	-10.0134
三乘方	-10.0138
自乘之數	-10.0141
蒙氣	-10.0143
内周	-10.015
矣此	-10.015
十六兩	-10.0157
自此	-10.0158
沒	-10.0159
存弧	-10.0159
七四	-10.0162
次之	-10.0167
幹	-10.0169
定交角	-10.0172
截長	-10.0173
太陽行	-10.0177
十二面體	-10.0179
角之度	-10.0179
百刻	-10.0183
㡬何答曰	-10.0189
之一半	-10.0191
在午	-10.0192
為界作	-10.0193
二千三百	-10.0197
以减	-10.0199
兩半徑	-10.0204
之餘切線	-10.0204
倍大于	-10.0205
斜距	-10.0206
之經度	-10.021
分二十五秒	-10.021
度二十分	-10.0214
歸除	-10.022
加减	-10.0222
之各	-10.0224
於地	-10.0228
初宫	-10.023
以便	-10.0232
甲乙乙丙	-10.0237
餘弧	-10.0237
太隂在	-10.0243
四百二十	-10.0254
金水二星	-10.0256
俱為	-10.0257
數則	-10.0262
皇帝	-10.0264
繼	-10.0266
朔策	-10.0272
萬一千六百	-10.0272
先有	-10.0272
三石	-10.0282
丁為	-10.0284
六百四十	-10.0284
日天	-10.0294
兩正弦	-10.0302
今用	-10.0307
通分	-10.0308
即乙	-10.0312
明股	-10.0325
一名	-10.0326
為二率今所設之	-10.0327
四秒	-10.0337
相并	-10.0339
角與	-10.0339
告	-10.0346
丑正一刻	-10.0346
是知	-10.0349
何也曰	-10.035
貴	-10.0353
人之	-10.0355
以自之得	-10.0356
詔	-10.0356
愚	-10.0357
叙	-10.0358
至丁	-10.0358
擇	-10.036
丨為	-10.036
四邊形	-10.0364
鈍	-10.0365
失之	-10.0367
闗	-10.0368
尚有	-10.037
二百二十五	-10.0373
丈六尺	-10.0375
依顯	-10.0376
九七	-10.0378
同用	-10.039
南北極	-10.0391
兩即	-10.0392
天中	-10.0393
全數與	-10.0397
一次	-10.0398
三百四十	-10.0399
其義	-10.0406
夷	-10.041
丙丁戊	-10.0413
㫖	-10.0419
圓體	-10.0419
二十面體	-10.0431
停	-10.044
減半周	-10.0442
樓	-10.0443
相求	-10.0448
燈	-10.0448
測候	-10.045
四十八分	-10.0452
桃	-10.0457
四十二分	-10.046
不易	-10.046
與地	-10.0464
許	-10.0464
大邊	-10.0469
圜周	-10.0469
爲一	-10.0473
步得	-10.0478
一周天	-10.0483
一叚	-10.0491
四釐	-10.0492
之變	-10.0495
四商	-10.0496
迄	-10.0497
距等	-10.0497
靈	-10.0498
如上圖	-10.0499
灰	-10.0499
二㸃	-10.0499
三刻	-10.0503
行至	-10.0504
立夏	-10.0505
以初商	-10.0505
經星	-10.0515
之共價	-10.0516
長亷	-10.0517
率以	-10.0521
不在	-10.0521
之和	-10.0524
如甲	-10.0525
而生	-10.0526
之意	-10.0528
邉形	-10.0528
大梁	-10.0534
餘一	-10.0534
得一千	-10.0537
五百四十	-10.0539
界角	-10.0539
岸	-10.0541
林鐘	-10.0544
俟	-10.0548
徐	-10.0548
高下差	-10.0549
五等邊形	-10.0552
化秒	-10.0555
十七度	-10.0557
亦非	-10.0558
繇	-10.0561
各異	-10.0562
黄道髙弧交角	-10.0565
小弧	-10.0569
十六日	-10.0572
一二五	-10.0577
但以	-10.0579
法同	-10.0583
劉	-10.0587
方田	-10.0598
午後	-10.0603
谷	-10.0608
八十二	-10.0609
加減差	-10.0611
􁀥	-10.0613
二十一度	-10.0615
多于	-10.0627
天地之	-10.0629
熒惑	-10.063
兩㸃	-10.063
兩直線	-10.0636
次得	-10.0637
弦和和	-10.0637
底線	-10.0638
日子正初刻	-10.0638
應鐘	-10.0639
視半徑	-10.064
江	-10.0641
鼎	-10.0643
老	-10.065
如以	-10.0652
丑甲	-10.0653
三十九分	-10.0657
四十尺	-10.0666
分丈之	-10.0668
無可	-10.0674
也又如	-10.0675
方體	-10.0675
又用	-10.0678
上等	-10.068
巳時	-10.0689
為亷法	-10.0689
均輪心	-10.0693
萬八千	-10.0695
位數	-10.0696
者置	-10.0697
十四尺	-10.0703
萬三千	-10.0717
五二	-10.0717
倒景	-10.0719
呼	-10.0724
其底	-10.0725
達	-10.0726
覽	-10.0731
○○○○○○○○○	-10.0733
八萬	-10.0733
考之	-10.0737
及其	-10.0738
四等面	-10.0738
兩四錢	-10.0745
三數	-10.0749
該監	-10.0752
益隅	-10.0752
二法	-10.0757
太史	-10.0759
八一	-10.0762
平行方形	-10.0767
酉正	-10.0767
為所求	-10.0767
七秒	-10.0775
食甚真時	-10.0775
常法	-10.0778
次于	-10.0778
然其	-10.0782
定法	-10.0785
明弦	-10.0795
八二	-10.0797
敢	-10.0798
柳	-10.08
一百尺	-10.0804
五百二十	-10.0807
引長	-10.0816
一百二十五	-10.0822
委	-10.0822
表景	-10.0825
寒暑	-10.0825
天文志	-10.0827
恰盡	-10.0827
憑	-10.0827
平望	-10.0827
今欲	-10.0828
像	-10.0829
細行	-10.0835
勾股積	-10.0837
不敢	-10.0844
萬四千四百	-10.0844
六丈	-10.0847
則知	-10.0849
之事	-10.0853
癸丁	-10.0855
之本	-10.0858
大寒	-10.0862
二千九百	-10.0865
星距	-10.0869
廿	-10.0874
長濶	-10.0875
四丈	-10.0881
乃用	-10.0892
孛	-10.0894
分四十秒	-10.0903
心作	-10.0904
並以	-10.0905
兩相等	-10.0907
不得不	-10.0913
周圍	-10.0917
一十三日	-10.0919
良	-10.0922
丑初三刻	-10.0923
句弦較	-10.0923
榖	-10.0926
惑	-10.0928
地平上	-10.0934
領	-10.0937
故謂之	-10.0938
三千二百	-10.094
法除	-10.0941
二分内三十一秒冬至	-10.0949
泰	-10.0956
一種	-10.0957
共行	-10.0958
股也	-10.0969
三根	-10.0971
銳	-10.0972
入食限	-10.0973
角體	-10.098
具題	-10.0981
又云	-10.0986
里差	-10.0987
弦和較	-10.0999
於乙	-10.1002
天道	-10.1004
五斗	-10.1006
檢表得	-10.1007
從此	-10.101
吉	-10.1014
舟	-10.1015
加二	-10.1018
飛	-10.1018
酉正三刻	-10.102
故不	-10.1022
敬	-10.1024
延	-10.1026
或問	-10.1033
六百六十	-10.1033
自甲	-10.1034
圜分	-10.1036
晝長	-10.104
一小	-10.1041
查表	-10.1044
朔䇿	-10.1048
所得數	-10.1055
互相為比	-10.1055
因得	-10.1061
合於	-10.1063
不復	-10.1066
各自	-10.1069
角之正弦	-10.1078
不同故	-10.1096
八面體	-10.1101
抵	-10.1103
一百九十二	-10.1103
如前法	-10.1105
在位	-10.1108
姑洗	-10.1112
平員	-10.1112
列於上	-10.1115
之弦	-10.1117
熟	-10.1117
擬	-10.1117
為同數與左相消得	-10.1119
吳	-10.112
死	-10.1121
錄	-10.1123
庫	-10.1126
矣今	-10.1127
卷第	-10.1127
恭	-10.1127
掌	-10.1128
六百七十	-10.1131
甲丙線	-10.1132
若干法以	-10.1134
平方開之	-10.1139
七百五十	-10.114
與地平	-10.1144
分六釐	-10.1144
一十八度	-10.1145
餘度	-10.1158
雪	-10.1162
二千七百	-10.1166
圓面	-10.1167
一章	-10.1167
太隂引數	-10.1169
見之	-10.1171
在地平上	-10.1173
開平方法	-10.1174
斜方形	-10.118
小勾	-10.1186
亦如之	-10.1189
大小兩	-10.1191
形與	-10.1199
一千三百	-10.1201
日下	-10.1204
眼	-10.1206
逐日	-10.1206
七萬	-10.1206
用表	-10.1209
服	-10.1212
之前	-10.1213
麻	-10.1214
平弦	-10.1216
同而	-10.122
源	-10.1222
来	-10.1222
専	-10.1223
回回	-10.1224
二十九度	-10.1227
讀	-10.123
形外	-10.1232
距北極	-10.1233
價銀	-10.1233
尺折半得	-10.124
三升	-10.1241
一丈二尺	-10.1242
㨗法	-10.1242
石為	-10.1243
末限	-10.125
㸃為	-10.1263
緯差角	-10.1265
小邊	-10.1266
𢃄	-10.1267
正月朔	-10.127
甲申日	-10.127
定日	-10.1278
二十三分	-10.1279
其半	-10.1286
限度	-10.1286
相減餘為	-10.1286
實沈	-10.1292
雖有	-10.1292
入月	-10.1293
無異	-10.1297
四百九十	-10.1303
之分數	-10.1304
子角	-10.1304
行步	-10.1314
乙丁丙	-10.1314
寧	-10.1321
寶	-10.1323
次輪半徑	-10.1325
勿	-10.1325
三十秒	-10.1327
破	-10.1327
相減為	-10.1327
半弧背	-10.1332
孟	-10.1339
合問	-10.1343
萬尺	-10.1358
視線	-10.1359
日景	-10.136
每日平行	-10.136
二數	-10.136
弧之	-10.136
在赤道	-10.1362
三均	-10.1363
日周	-10.1366
有四	-10.1367
歲差	-10.1368
太陰在	-10.1375
南緯	-10.1378
為鈍角	-10.138
盈縮差	-10.1386
兩二錢	-10.1386
啇	-10.1389
雙	-10.1401
法算之	-10.1403
物之	-10.1407
于是	-10.1409
日月五星	-10.141
二十日	-10.1411
以乙	-10.1413
四分之三	-10.1417
十七尺	-10.1418
景長	-10.1419
透	-10.1422
萬九千六百	-10.1424
想	-10.1425
項	-10.1425
住	-10.1426
夘酉	-10.1426
卿	-10.1427
竊	-10.1427
辭	-10.1429
預	-10.1429
三十二分	-10.143
撮	-10.143
三除	-10.143
幅	-10.143
為定	-10.1438
月令	-10.144
諸侯	-10.1441
方靣	-10.1446
頭位	-10.1448
加於	-10.1454
分得	-10.1455
兩端	-10.1458
六星	-10.1459
為比	-10.146
夏至後	-10.1464
之始	-10.1465
下闊	-10.1469
為同式形	-10.1471
梯形	-10.1472
黄帝	-10.1476
上亷	-10.1484
測其	-10.1485
兩星	-10.1487
下位	-10.1496
六刻	-10.1498
既與	-10.1498
天周	-10.15
一斤	-10.1501
夏至日	-10.1508
推歩	-10.1513
析木	-10.1514
戌正三刻	-10.1521
于戊	-10.1522
丑初一刻	-10.1522
九百二十	-10.1523
南呂	-10.1523
弦與	-10.1525
十六年	-10.1528
一百六十八	-10.1528
各幾何法以	-10.1528
仁	-10.1529
既等	-10.1529
觔	-10.1529
三之二	-10.1529
勞	-10.153
除之即得	-10.1531
亥正一刻	-10.1532
乆	-10.1533
九秒	-10.1535
出沒	-10.1536
長與闊	-10.1536
一百零八	-10.1537
廟	-10.1538
之每一邊	-10.1539
之末	-10.154
未初二刻	-10.1546
查表得	-10.1548
圜外切	-10.1549
矣而	-10.1552
實交周	-10.1553
之東	-10.1555
與己	-10.1558
為心作	-10.1559
二十六度	-10.156
交行	-10.1561
太陽實行	-10.1565
四石	-10.1569
娵訾	-10.1572
一嵗	-10.1576
求初虧	-10.1577
甲心	-10.1577
小弦	-10.1585
北緯	-10.1586
所求之	-10.1586
九兩	-10.1591
八百四十	-10.1591
正東	-10.1596
辛甲	-10.1601
癸丙	-10.1606
九一	-10.1609
各作	-10.1617
紗	-10.1617
以推	-10.1619
又按	-10.162
燕	-10.1628
甲乙甲丙	-10.1638
線則	-10.164
總積	-10.1642
依本	-10.1646
此則	-10.1646
午初一刻	-10.1646
後世	-10.1648
變易	-10.1649
徑分	-10.1654
光明	-10.1661
之廣	-10.1662
分四十六秒	-10.1663
癸酉日	-10.167
矣夫	-10.167
并得	-10.1683
衰分	-10.1687
北斗	-10.1698
隅積	-10.1704
甲行	-10.1706
又設	-10.1707
三差	-10.1724
堆	-10.1725
巳午	-10.1726
超	-10.1728
寅正三刻	-10.1729
所對之數為	-10.173
田積	-10.1732
周徑	-10.1734
鉛	-10.1734
若干答曰	-10.1736
孰	-10.1738
黄經	-10.1739
過極圏	-10.174
其距	-10.174
酌	-10.174
之一分	-10.1741
甲戊丁	-10.1743
立面	-10.1743
月日	-10.175
窺衡	-10.1751
揲	-10.1754
根多	-10.1755
廉法	-10.1756
午前	-10.1757
仍用	-10.1757
若用	-10.1759
界線	-10.1763
未申	-10.1764
次位	-10.1768
相望	-10.1768
分内三十一秒冬至	-10.1771
分二十四秒	-10.1773
書之	-10.1775
别有	-10.1777
乙角之正弦	-10.1781
其邊	-10.1782
與甲乙丙	-10.1784
食之	-10.1788
長闊	-10.1788
等角	-10.179
己為	-10.1794
百八十	-10.1805
兩心	-10.1807
實緯	-10.1807
赤道北	-10.1807
倣	-10.1809
若在	-10.1818
綱目	-10.182
接	-10.1821
三㸃	-10.1826
法求	-10.1832
明之	-10.1834
所言	-10.1838
於丁	-10.1839
赤道緯度	-10.1839
鄉	-10.184
也如圖甲乙	-10.184
赤極	-10.184
急	-10.1842
魚	-10.1842
者何也	-10.1843
以象	-10.1846
北方	-10.1853
一立方	-10.1863
史記	-10.1867
日道	-10.1869
丙午日	-10.187
轉終	-10.1872
各加	-10.1876
球之	-10.1879
觀之	-10.188
為甲乙	-10.1881
先用	-10.1885
學者	-10.1888
四角	-10.1892
天子	-10.1897
有大小	-10.1897
亦皆	-10.1899
二升	-10.1899
萬八千八百	-10.1903
癸巳日	-10.1907
子甲	-10.1911
以天元	-10.1916
一千七百	-10.1921
弧之餘弦	-10.1922
不相	-10.1923
四之三	-10.1924
六斗	-10.1928
個	-10.1932
分升之	-10.1933
追	-10.1934
兩角形	-10.194
幾何原本	-10.1942
輸	-10.1943
蔽	-10.1945
脚	-10.1946
算術	-10.1948
齘	-10.1949
治厯	-10.1951
如甲乙	-10.1956
距黄道	-10.1956
弗	-10.1957
運行	-10.1958
較弦	-10.196
圜心	-10.196
六十尺	-10.1974
於天	-10.1976
總衰	-10.1985
為度	-10.1985
辛為	-10.1991
步為	-10.1994
五十尺	-10.1996
甲子朔	-10.2
六千六百	-10.2004
辰時	-10.2017
圏之	-10.2018
也又法以	-10.2022
行之	-10.2024
無差	-10.2025
尺倍之得	-10.2026
二十三日	-10.2027
槐	-10.2028
無法	-10.2029
癸辛	-10.203
十三分内三十一秒冬至	-10.2032
小石	-10.2034
定其	-10.2035
法得	-10.2041
静	-10.2047
十五秒	-10.2051
寅初二刻	-10.2053
亦用	-10.2055
斗五升	-10.2056
未正初刻	-10.2058
酉正一刻	-10.2058
乖	-10.2059
大呂	-10.2062
弦也	-10.2064
其本	-10.2064
大衍厯	-10.207
但知	-10.207
大統厯	-10.2073
為法除	-10.2075
形之積	-10.2078
三十步	-10.2083
二月朔	-10.2084
而有	-10.2085
驢	-10.2087
少一	-10.209
直線形	-10.2098
度三十五分	-10.21
與他	-10.2103
○○○○○○	-10.2104
通法	-10.2113
實以	-10.2115
天上	-10.2119
查得	-10.2125
相連	-10.2134
計之則	-10.2135
之周	-10.2138
皆如	-10.2139
未能	-10.2139
東井	-10.2141
邊形之每一邊為	-10.2141
八百一十	-10.2143
夏正	-10.2144
利銀	-10.2146
減差	-10.2154
之精	-10.2156
度則	-10.2158
十八年	-10.2159
十七日	-10.216
元形	-10.2161
申初初刻	-10.2161
於丙	-10.2162
半圜	-10.2164
丁戊線	-10.2165
立秋	-10.2167
鶉首	-10.2167
郭	-10.2169
冷	-10.2171
己亥日	-10.2172
圎球	-10.2172
偏西	-10.2172
有時	-10.2175
而知	-10.218
露	-10.218
堂	-10.2181
兩底	-10.2193
二十五尺	-10.2194
為首率	-10.22
皆等	-10.2208
六七八	-10.222
之幂	-10.2227
切圜	-10.2228
而非	-10.2229
反減	-10.223
分三十三秒	-10.2234
其時	-10.2239
半較	-10.2242
而行	-10.2243
宗動天	-10.2248
如圖甲乙丙丁	-10.225
星行	-10.225
甲乙丙形	-10.2252
則於	-10.2253
日小餘	-10.2255
應得	-10.2258
又多	-10.226
豈不	-10.2263
牙	-10.2263
税	-10.227
一十六分	-10.2271
故知	-10.2272
之比例也	-10.2273
方周	-10.2276
月十五日	-10.2277
収	-10.2278
二十八度	-10.2279
梵暦	-10.2279
祥	-10.2284
極逺	-10.2286
辛亥日	-10.2287
渾象	-10.229
二斤	-10.2293
九九九	-10.2298
三千九百	-10.2299
偏東	-10.2304
末位	-10.2308
其地	-10.231
為中率	-10.2313
孔子	-10.2314
遠近	-10.2315
周日	-10.2329
帶從	-10.233
安得	-10.2331
尺以	-10.2332
丁子	-10.2335
得一百二十	-10.2337
省算	-10.2339
方廉	-10.2344
在東	-10.2345
三分内三十一秒冬至	-10.2351
問各	-10.2352
戊申朔	-10.2356
乃得	-10.236
兩分	-10.2365
定尺	-10.2367
餘二	-10.2367
次置	-10.2375
之南	-10.2375
陰陽	-10.2376
五位	-10.2378
丑正三刻	-10.2383
隆	-10.2384
寅初初刻	-10.2384
易為	-10.2384
第二次	-10.2384
従	-10.2389
凢	-10.2389
湯	-10.2389
矩内直角形	-10.239
月星	-10.239
課	-10.2391
白羊	-10.2392
虞	-10.2392
歲實	-10.2393
租	-10.2393
倚	-10.2394
封	-10.2394
新厯	-10.2396
兩率	-10.2396
牆	-10.2396
大者	-10.2397
之方	-10.2401
白極	-10.2401
邑	-10.2403
平亷	-10.2404
六月朔	-10.2405
相連比例	-10.2406
本圏	-10.2408
兩心視相距	-10.2409
元史	-10.2413
少一根	-10.2415
黄鐘之	-10.2416
求作	-10.2418
丙丁為	-10.2418
小輪心	-10.242
至丙	-10.2422
折半為	-10.2423
分内四十一秒冬至史	-10.2426
癸乙	-10.2431
乙巳日	-10.2432
億七千	-10.2434
小形	-10.2437
各數	-10.2439
閏三月	-10.244
壬戌日	-10.2444
各減	-10.2444
論曰此	-10.2446
遂成	-10.2447
數也此法	-10.2455
平行度	-10.2458
求復圓	-10.2459
次輪心	-10.2468
小腰	-10.2479
實徑	-10.248
負縱	-10.2485
兩五錢	-10.2486
自有	-10.2491
弓	-10.2492
六二五	-10.2493
至乙	-10.2494
九釐	-10.2494
泉	-10.2495
障	-10.2498
輔	-10.2503
頃	-10.2504
幾分	-10.2505
呈	-10.2509
古今律厯考卷	-10.251
守敬	-10.2515
聽	-10.2515
二十六日	-10.2515
七星	-10.2518
一倍	-10.2519
西人	-10.2531
正南	-10.2536
己癸	-10.2537
依前法	-10.2538
甲丙為	-10.2541
出地平	-10.2542
在黄道北	-10.2543
視㑹	-10.2543
四因	-10.2544
相離	-10.2545
衆星	-10.2549
午正初刻	-10.255
開得	-10.2553
則自	-10.2553
己丑日	-10.2556
子午線	-10.2561
緯南	-10.2572
分三十八秒	-10.2575
十六分	-10.2576
為太隂	-10.2578
不同者	-10.2578
申時	-10.2579
在黄道	-10.2582
半外角	-10.2582
邊為	-10.2584
歟	-10.2586
與丁丙	-10.2588
視髙	-10.2588
定數	-10.259
法除之得	-10.2593
於下	-10.2594
之容	-10.2595
六分内一秒冬至	-10.2597
至元	-10.2597
古者	-10.2598
尖圓體	-10.2598
自行度	-10.2598
三百八十四	-10.2603
先定	-10.2603
初三刻	-10.2603
不盡者	-10.2604
内角	-10.2606
其術	-10.2607
壬辰朔	-10.2611
一十六度	-10.2612
逢	-10.2616
相加減	-10.2617
阿	-10.2618
靜	-10.2618
六一	-10.2619
抑	-10.262
午正三刻	-10.2621
而半之	-10.2622
閏十二月	-10.2622
父	-10.2622
塵	-10.2622
而用	-10.2623
方錐	-10.2629
也或	-10.2632
為界	-10.2632
申正一刻	-10.2635
為一分	-10.264
弧矢形	-10.2643
分内一十一秒冬至史	-10.2645
半徑十萬	-10.2647
至此	-10.2647
容圓	-10.2647
詳見	-10.266
是爲	-10.266
弦線	-10.266
一尺五寸	-10.2661
差一度	-10.2665
庚寅日	-10.2667
癸亥日	-10.2673
七刻	-10.2673
辛未朔	-10.2674
數皆	-10.2674
多者	-10.2677
鈐	-10.2679
癸丑日	-10.2679
得數為	-10.2688
北極髙	-10.2688
十二日	-10.2689
新法算書卷	-10.2691
量之	-10.2695
各為	-10.2697
為四率	-10.2697
所存	-10.2704
線即	-10.2708
其形	-10.2709
加一倍	-10.2711
也設	-10.2714
三百七十	-10.2717
裏	-10.2724
多禄某	-10.2732
后	-10.2734
放	-10.2734
酉初三刻	-10.2735
夀星	-10.2739
督	-10.2739
冲	-10.274
爰以	-10.2742
演	-10.2743
六人	-10.2743
郎	-10.2744
日午初三刻	-10.2744
衍母	-10.2745
出南門	-10.2746
逐度	-10.2747
比例等	-10.2748
相减	-10.2748
戊寅日	-10.2749
圓田	-10.275
全線	-10.275
大約	-10.2751
尖體	-10.2753
與庚	-10.2759
比例尺	-10.2759
升度差	-10.276
癸未日	-10.2763
壬申日	-10.2767
形相似	-10.2769
分二十八秒	-10.277
壬午日	-10.2774
七百三十	-10.2776
大石	-10.2778
向南	-10.2781
之正矢	-10.2784
自乘再乘得	-10.2786
二十七秒	-10.2788
明矣	-10.2792
欽定四庫全書新法算書卷	-10.2794
而立	-10.2794
分一釐	-10.2798
軌	-10.2798
尺八寸	-10.2799
合天	-10.2804
億六千	-10.2805
二十五分	-10.2809
五十二秒	-10.2813
以甲	-10.2813
箕宿	-10.2818
朔日	-10.2819
分一十一秒	-10.2829
星宿	-10.2831
諸臣	-10.2833
三十六分	-10.2834
全與	-10.2835
限距地髙	-10.2836
兩表	-10.284
十九度	-10.2843
中長	-10.2846
平儀	-10.2848
六十兩	-10.2849
件	-10.2851
面體	-10.2853
秉	-10.2853
各邊	-10.2854
步數	-10.2857
分三十四秒	-10.286
九百八十	-10.2862
祭	-10.2865
七十度	-10.2866
小時	-10.2872
縮厯	-10.2874
隨地	-10.2875
度三十三分	-10.2877
數如	-10.2879
少四	-10.2884
圓積	-10.289
注云	-10.2893
又將	-10.2897
七百二十九	-10.29
為平行	-10.2901
是年	-10.2903
之共積	-10.2905
前表	-10.2906
乙未日	-10.2906
二曜	-10.2907
八十度	-10.2908
五丈	-10.2913
只用	-10.2916
宮度	-10.2918
開元	-10.2918
為甲丙	-10.292
横行	-10.2921
加縱	-10.2924
與甲戊	-10.2929
又與	-10.2934
後表	-10.2939
大弧	-10.294
可謂	-10.2941
在最卑	-10.2942
月初一日	-10.2946
正方面積	-10.2946
至己	-10.2947
戌初二刻	-10.2958
為二率以	-10.2959
少於	-10.2959
箭	-10.2962
客	-10.2966
巳正三刻	-10.2969
酉初一刻	-10.2969
差也	-10.297
昌	-10.2972
南至	-10.2974
殺	-10.2975
分以	-10.2976
所商	-10.2976
熊	-10.2977
進一位	-10.2978
正月甲寅朔	-10.298
餘倣此	-10.298
分也	-10.2981
戊子日	-10.2982
華	-10.2983
坐	-10.2983
白經高弧交角	-10.2985
上闊	-10.2988
捷法	-10.2989
為母	-10.2991
午初二刻	-10.2993
副置	-10.2993
之割線	-10.2996
丙丁線	-10.3001
三十九秒	-10.3002
必用	-10.3003
乃自	-10.3007
乙行	-10.3008
度二十九分	-10.3008
其餘弦	-10.3011
無射	-10.3013
厯學	-10.3015
與天	-10.3024
小滿	-10.3025
太隂距	-10.3029
知之	-10.3031
所分之	-10.3031
于丙	-10.3032
作線	-10.3032
不同而	-10.3035
一兩	-10.3035
中㑹	-10.304
推測	-10.3043
二分之一	-10.3045
七斗	-10.3049
割圓	-10.3049
一千一百	-10.3051
為兩平分	-10.3052
地下	-10.3052
食時	-10.3053
又於	-10.3063
之異	-10.3063
三錢	-10.3064
所列	-10.3066
第二十	-10.3067
為丁	-10.3068
本度	-10.3071
九步	-10.3079
下方	-10.3079
等因	-10.3079
二十七度	-10.3079
堯	-10.308
縂	-10.3081
西外	-10.3086
尚未	-10.3086
變時	-10.3087
之言	-10.3088
殿	-10.309
萬六千四百	-10.3095
有定	-10.3095
殆	-10.3096
等也	-10.3098
距等圏	-10.3099
七百六十	-10.3102
也第	-10.3103
為宮	-10.3104
距星	-10.3104
之三倍	-10.3106
十位	-10.3108
為實法除實得	-10.311
億四千	-10.3111
甲子運	-10.3117
二十四兩	-10.312
之名	-10.3121
二年正月	-10.3121
過心	-10.3122
得六十	-10.3123
方圓	-10.3127
平勾	-10.3129
之逺近	-10.313
戊戌日	-10.3132
度二十五分	-10.3133
度五十六分	-10.3133
轉減	-10.3136
癸巳朔	-10.314
除得	-10.3145
徽	-10.3149
髙股	-10.315
大都	-10.3151
己未日	-10.3156
乙寅	-10.3157
丙申日	-10.3164
殷	-10.317
故名	-10.3173
日申正三刻	-10.3174
三乗方	-10.3179
乘方	-10.3181
朔巳時日食	-10.3183
真時距分	-10.3188
得四百	-10.3189
甲寅日	-10.3189
答	-10.32
再乘得	-10.3201
求太陽	-10.3202
正交行	-10.3204
戊辰日	-10.3207
騎	-10.3208
度五十五分	-10.3209
巳初一刻	-10.321
贏	-10.321
八錢	-10.3211
濕	-10.3211
未初初刻	-10.3212
寅正初刻	-10.3214
烏	-10.3214
畸零	-10.3215
麗	-10.3215
祐	-10.3217
均圏	-10.3217
曹	-10.322
郊	-10.3221
織	-10.3221
十一秒冬至	-10.3221
所論	-10.3223
半圏	-10.3228
申初二刻	-10.3232
二差	-10.3233
向北	-10.3247
度三十八分	-10.3248
零數	-10.3249
壬寅朔	-10.325
為一邊	-10.3253
小隅	-10.3254
甲丁為	-10.3254
行定度	-10.3262
十一分内一秒冬至	-10.327
如在	-10.3271
長方體積	-10.3271
千尺	-10.3272
癸甲	-10.3274
三統	-10.3275
不知步數而立	-10.3277
皇極弦	-10.3277
而又	-10.3282
鶉尾	-10.3282
自乗之	-10.3289
二均	-10.3292
欽	-10.3293
角即	-10.3294
寅角	-10.3299
其用	-10.3301
十八兩	-10.3305
法列	-10.3312
辰星	-10.3314
閏十月	-10.3314
素	-10.3327
而今	-10.3328
起於	-10.3328
四色	-10.333
小圏	-10.3331
亥初初刻	-10.3334
五千四百	-10.3334
酉初初刻	-10.3335
慶	-10.3337
耕	-10.3339
庚辰日	-10.334
丑子	-10.3343
定望	-10.3345
協	-10.335
圜内容	-10.335
二道	-10.3351
一十五分	-10.3351
鈍角形	-10.3352
辛巳朔	-10.3354
上兩直角方形并	-10.3355
戌正二刻	-10.3355
也乃	-10.3356
測星	-10.3357
壬午朔	-10.3358
直景	-10.3359
丙乙邊	-10.336
之天	-10.336
乙得	-10.3361
陰厯	-10.3362
月經朔	-10.3362
度等	-10.3364
通之得	-10.3366
也既得	-10.3367
二千六百	-10.3369
六卷	-10.337
實如法而一	-10.3372
弦冪	-10.3372
則察	-10.3372
必先	-10.3375
一端	-10.3375
兩次	-10.3389
所加	-10.339
減從	-10.339
向東	-10.3391
乙丙弧	-10.3396
與丙乙	-10.3399
本輪半徑	-10.3399
等邉	-10.3399
丁巳朔	-10.3403
八宫	-10.3404
丁巳日	-10.3405
丙丑	-10.3406
邊線	-10.3409
七分内一秒冬至	-10.341
二極	-10.3413
二千二百	-10.3415
別	-10.3415
有半	-10.3417
一十四度	-10.3419
十一分内三十一秒冬至	-10.3421
八人	-10.3428
中等	-10.3429
戊申日	-10.3436
先天	-10.344
次用	-10.344
然後以	-10.344
牽	-10.3442
管長	-10.3447
大半	-10.3449
五倍	-10.3453
減之得	-10.3454
距交實行	-10.3454
午初初刻	-10.3459
此形有	-10.3459
十兩	-10.3459
百里	-10.346
故有	-10.3462
辰正初刻	-10.3463
二十七分	-10.3463
俗	-10.3466
沙	-10.3466
斗分	-10.3471
距赤道北	-10.3472
申初一刻	-10.3472
計都	-10.3475
復圎	-10.3477
五百三十	-10.3478
丁未日	-10.3478
五分之一	-10.3479
二平均	-10.3485
武王	-10.3485
大圜	-10.3486
較分	-10.3487
問答同前法曰	-10.3488
線成	-10.349
萬八千四百	-10.349
每一邊	-10.3491
南門	-10.3493
宗動	-10.3504
則甲	-10.3505
歸之	-10.3508
同法	-10.351
者則以	-10.3512
也按	-10.352
日月之	-10.3521
三乗	-10.3521
野	-10.3523
之度也	-10.3523
不滿法	-10.3524
數者	-10.3524
斗四升	-10.3525
第一次	-10.3527
或有	-10.3529
首尾	-10.3533
甲戌日	-10.3535
度三十一分	-10.3537
次數	-10.3538
求到	-10.3542
庚申日	-10.3545
為地平	-10.3545
為平	-10.3545
戊午日	-10.3546
次均數	-10.3547
在子	-10.3548
僧	-10.3549
丙寅日	-10.355
總銀	-10.3554
再乘	-10.3555
此年	-10.3558
子寅	-10.356
三十五度	-10.3565
其根	-10.3567
六百三十	-10.3571
之行度	-10.3572
赤道南	-10.3573
廣袤	-10.3577
有差	-10.358
必得	-10.3583
併入	-10.3583
扵	-10.3586
甲乙戊	-10.3586
巳初二刻	-10.3587
触	-10.3588
止用	-10.3589
見於	-10.3589
無定	-10.3592
農	-10.3592
役	-10.3593
狀	-10.3596
申時日食	-10.36
其較	-10.3603
丁丑日	-10.3603
與甲庚	-10.3606
去之餘	-10.3609
于此	-10.3612
四十五分	-10.3616
積也	-10.3617
為益從	-10.3618
分四十三秒	-10.3619
諸天	-10.3619
萬分	-10.3621
又從	-10.3624
此皆	-10.3626
測定	-10.3634
步問	-10.3647
豈非	-10.3647
平地	-10.3658
與半徑	-10.3665
為隅	-10.367
禾	-10.367
正月甲戌朔	-10.3674
時之	-10.3674
漢厯	-10.3677
之北	-10.3679
則不	-10.3683
太隂之	-10.3685
二十六秒	-10.3688
至地平	-10.3691
度三十四分	-10.3694
四百一十	-10.3695
可作	-10.37
作識	-10.37
各幾何	-10.3702
乙丙邉	-10.3703
聨	-10.3704
度四十三分	-10.3706
仲呂	-10.3707
臣淳風等謹按	-10.3709
魁	-10.371
墨	-10.3713
次行	-10.3713
辰正三刻	-10.3713
聯	-10.3714
閲二百十六期積七萬八千八百九十	-10.3714
公論	-10.3715
純	-10.3717
寅初三刻	-10.3718
甲乙弧	-10.3719
雷	-10.372
視朔	-10.372
機	-10.3721
博	-10.3722
晝夜長短	-10.3725
乙酉日	-10.3726
得八十	-10.3728
秘	-10.3731
高下	-10.3733
逺鏡	-10.3733
根數	-10.3733
與丙戊	-10.3733
尺上	-10.3735
減積	-10.3735
甲戌朔	-10.3739
撱圓體	-10.3739
又求	-10.3749
六時	-10.375
七兩	-10.3752
中長線	-10.3753
分一十五秒	-10.3754
嵗星	-10.3759
太隂交周	-10.376
借數	-10.3761
在丙	-10.3762
始於	-10.3762
壬子朔	-10.3766
其日	-10.3769
累加之	-10.3771
二錢	-10.3772
開之得	-10.3773
庚戌日	-10.3775
二之一	-10.3775
限西	-10.3777
之學	-10.3777
尺七寸	-10.3783
衍數	-10.3784
下弦	-10.3787
無數	-10.3789
初商次商之	-10.3792
為第一	-10.3794
度三十七分	-10.3795
一十九度	-10.38
不知其	-10.38
已過	-10.38
上層	-10.3807
上弦	-10.3809
不及減	-10.3812
丙申朔	-10.382
二行	-10.3823
萬四千七百	-10.3827
遞減	-10.3827
四千八百	-10.3836
其心	-10.3837
一十一分	-10.384
惡	-10.3843
基	-10.3843
書於方積	-10.3843
對角斜線	-10.3844
辰初初刻	-10.3845
寅正一刻	-10.3846
星辰	-10.3846
丑壬	-10.3849
異併	-10.3849
保	-10.385
揚	-10.385
異同	-10.385
戴	-10.3851
私	-10.3852
疊	-10.3853
落	-10.3855
不異	-10.3859
相通	-10.3863
於右	-10.3865
分者	-10.3867
一十二度	-10.3871
視其	-10.3871
廣狹	-10.3872
也蓋	-10.3873
甲之	-10.3877
因以	-10.3878
子壬	-10.3879
分五十三秒	-10.3881
兩旁	-10.3884
之比例大于	-10.3886
經圈	-10.3888
四面	-10.3888
諸家	-10.3889
萬三千六百	-10.389
在黄道南	-10.3893
宫度分	-10.3899
而言	-10.3901
七月朔	-10.3902
煩	-10.3907
即丙	-10.3909
正割	-10.3912
數相乘	-10.3914
長方積	-10.3916
尺爲	-10.3919
於中	-10.3924
乙巳朔	-10.3925
宿距星	-10.3927
遊	-10.3929
一匹	-10.3933
右上	-10.3935
白經	-10.3935
前後兩	-10.3937
各度	-10.3942
辛酉朔	-10.3944
立冬	-10.3947
所記	-10.395
之餘割線	-10.3952
與原	-10.3954
萬二千四百	-10.396
積差	-10.3964
二千一百	-10.3966
曽	-10.3976
實度	-10.3976
囘	-10.3978
揆	-10.3978
鑿	-10.398
率得	-10.398
一定	-10.398
自乗再乗	-10.3983
丙寅朔	-10.3985
以内	-10.3986
雅	-10.3987
才	-10.3989
正交中交	-10.3991
蒙氣差	-10.3993
輕重	-10.3997
虚勾	-10.4003
二百五十里	-10.4003
立方籌	-10.4007
至庚	-10.4019
西行	-10.4023
二十一秒	-10.4025
扁方體	-10.4027
圓界	-10.4031
萬一千	-10.4032
相減餘二	-10.4032
改正	-10.4039
日至	-10.4039
四邊	-10.4044
一斛	-10.4051
度三十六分	-10.4051
一切	-10.4052
半總	-10.4052
九百九十	-10.4055
法數	-10.4056
此術	-10.4059
四因之得	-10.4067
兩體	-10.4067
大形	-10.4067
交均	-10.407
中之	-10.4072
相等而	-10.4082
是名	-10.4084
所成之	-10.4084
赤道經緯度	-10.4085
三角尖堆	-10.4089
之總	-10.4093
七丈	-10.4095
百分之	-10.4096
㸃在	-10.4097
爰	-10.41
五十四分	-10.4103
一百一十二	-10.4104
日未正二刻	-10.4106
黄白大距	-10.4108
一千九百	-10.4111
綱	-10.4111
丑初二刻	-10.4112
則必	-10.4112
墜	-10.4114
辯	-10.4117
十月朔	-10.4117
病	-10.412
裁	-10.4123
黄鍾	-10.4124
每度	-10.4126
萬二千八百	-10.4126
同者	-10.4128
免	-10.4131
不拘	-10.4133
丙子朔	-10.4133
髙弦	-10.4134
井深	-10.4137
月實行	-10.4138
自相乗得	-10.4139
李天經	-10.4144
甲丙戊	-10.4144
丁酉朔	-10.4145
二分五釐	-10.4145
必須	-10.4148
右下	-10.4149
所居	-10.4149
乙甲丁	-10.4152
之㫖	-10.4156
分形	-10.4158
分餘	-10.4159
度盡	-10.416
反之	-10.4166
齊其	-10.417
三十尺	-10.4172
内又	-10.4176
左下	-10.4178
平方少	-10.4183
初末	-10.4183
異類	-10.4183
所餘之	-10.4188
效	-10.4196
七釐	-10.42
之勢	-10.4203
為三商	-10.4204
潮	-10.4208
為連比例	-10.4209
六宮	-10.421
一百五十七	-10.4212
兩界	-10.4213
真數	-10.4214
又法以	-10.4218
辰正二刻	-10.423
入表	-10.4237
二百五十六	-10.4238
随	-10.4239
為總	-10.4241
分三十二秒	-10.4242
斜弧三角形	-10.4243
月數	-10.4243
由是	-10.4244
子正三刻	-10.4245
康熙	-10.4246
凡言	-10.4247
己巳日	-10.4248
骨	-10.4249
早晚	-10.425
平行作	-10.4254
胡	-10.4257
一箇	-10.4262
也假如	-10.4265
仍餘	-10.4267
之餘弧	-10.4267
用此	-10.4268
弦幂	-10.4268
正方體之	-10.427
羅計	-10.4271
七分内三十一秒冬至	-10.4273
俱以	-10.4274
九十分	-10.4277
億九千	-10.4277
二因	-10.4283
交定度	-10.4284
交㑹	-10.4287
定用分	-10.429
二十秒	-10.4291
三十三度	-10.4292
凡有	-10.4294
求弦	-10.4295
與食甚	-10.4297
截取	-10.4299
正西	-10.4302
反是	-10.4303
或曰	-10.4307
商之	-10.4307
甲午日	-10.4309
八石	-10.4309
視距	-10.4311
八十尺	-10.4311
乙丁線	-10.4313
長廣	-10.4313
叀	-10.4321
之比而得	-10.4328
與丁己	-10.4329
言其	-10.433
四千六百	-10.4331
平方得	-10.4332
員徑	-10.4332
角必	-10.4332
戊戌朔	-10.4333
改元	-10.4336
日午正初刻	-10.4337
己酉朔	-10.4337
所多	-10.4339
價多	-10.4339
兩角等	-10.434
表間	-10.4341
五百七十	-10.4343
未盡	-10.435
左上	-10.4352
過象限	-10.4352
所至	-10.4355
最高行	-10.4356
半徑一千萬	-10.4358
亥初一刻	-10.436
因而	-10.436
比之	-10.4367
正月辛亥朔	-10.437
得五十	-10.4372
福	-10.4374
下數	-10.4376
甲丁線	-10.4376
距地心之	-10.438
并等	-10.4381
壬丑	-10.4381
豫	-10.4383
凝	-10.4383
槳	-10.4384
襄	-10.4385
桅	-10.4386
萬三千二百	-10.4387
苟	-10.4388
限東	-10.4389
碗	-10.4392
籍	-10.4392
勅	-10.4393
兌	-10.4393
黄道積度	-10.4393
渾天儀	-10.4396
夏税	-10.4396
日亥初三刻	-10.4396
測望	-10.4398
紙	-10.4399
對數	-10.44
萬五千六百	-10.4406
五百一十	-10.4408
所截之	-10.441
食甚實緯	-10.4411
還原	-10.4413
之原	-10.4414
小寒	-10.4418
皆不	-10.4421
六等邊形	-10.4427
任作	-10.4427
十八分	-10.4427
有食	-10.4429
月距	-10.443
之物	-10.4431
分四十八秒	-10.4437
為全數	-10.4438
丑卯	-10.444
萬一千五百	-10.4443
燈體	-10.4449
之數為	-10.4451
也但	-10.4452
又求得	-10.4452
甲午朔	-10.4453
同升	-10.4454
者非	-10.4455
四千九百	-10.4458
十一月朔	-10.4459
丙辰日	-10.4463
甚逺	-10.4467
乘法	-10.4469
故云	-10.447
月十六日	-10.4473
徧	-10.448
在前	-10.4482
兩為二率	-10.4487
割圜	-10.4489
四根	-10.4491
在其	-10.4493
七百四十	-10.4497
二三均數	-10.4497
丙得	-10.45
上之	-10.4505
郭守敬	-10.4508
兩徑	-10.4509
徑以	-10.4514
噐	-10.4515
夾鐘	-10.4515
皆從	-10.4517
九宫	-10.4518
幷	-10.4519
勾圓差	-10.4521
賢	-10.4523
李淳風	-10.4523
既同	-10.4525
斗柄	-10.4525
巳初三刻	-10.4525
筩	-10.4526
費	-10.4528
草曰别得	-10.4529
苦	-10.4529
半弧弦	-10.453
幾倍	-10.4531
外數	-10.4533
轂	-10.4533
秒二十微	-10.4535
着	-10.4539
夷則	-10.4539
戊寅朔	-10.4541
翻法	-10.4544
丙辰朔	-10.4544
術以	-10.4545
一十度	-10.4547
丙戌日	-10.4547
算外	-10.4548
丈尺	-10.4549
法如	-10.455
周禮	-10.455
周之	-10.4554
乙酉朔	-10.4558
初虧用時	-10.4558
者或	-10.4559
行遲	-10.4563
漸逺	-10.4568
一歲	-10.4571
論其	-10.4572
合而	-10.4572
五十八度	-10.4573
在限西	-10.4575
表端	-10.4577
分内五十一秒冬至史	-10.458
為元	-10.4581
分四十七秒	-10.4581
之法以	-10.4582
癸己	-10.4582
四分内三十一秒冬至	-10.4582
聖明	-10.4583
最髙行	-10.4585
望見	-10.4586
於後	-10.4587
内減之餘	-10.4589
三千一百	-10.4589
倍積	-10.459
度五十一分	-10.4591
甲得	-10.4593
分四十九秒	-10.4594
不出	-10.4605
未知	-10.4605
分五十六秒	-10.4607
萬五千二百	-10.4608
萬三千五百	-10.4609
二十一分	-10.462
五石	-10.4624
十八日	-10.4627
閏八月	-10.4629
變而	-10.4631
前數	-10.4638
為方法	-10.4648
以十二	-10.465
倍于	-10.465
乙甲丙	-10.4653
平年	-10.4655
飯	-10.4656
不可得	-10.4656
既以	-10.4657
終古	-10.4658
斜冪	-10.4659
腹	-10.466
寅初一刻	-10.466
啓	-10.4662
黄道極	-10.4663
與戊乙	-10.4664
本天之	-10.4668
臆	-10.4668
仰觀	-10.4668
三十二尺	-10.4669
股圓差	-10.467
濟	-10.4671
六石	-10.4671
明徐光啟等撰	-10.4672
南北二極	-10.4672
其書	-10.4673
五人	-10.4676
相交之	-10.4676
辛壬癸	-10.4677
之羃	-10.4678
錐體	-10.4683
所變	-10.4683
於己	-10.4689
相符	-10.4693
甲辰日	-10.4694
下文	-10.4699
一百七十六	-10.4702
兩矢較	-10.4702
股與	-10.4703
分一十六秒	-10.4703
辛丑日	-10.4704
實髙	-10.4705
為加差	-10.4708
倍於	-10.4708
過此	-10.4711
數而	-10.4712
第三次	-10.472
止有	-10.4727
二均數	-10.473
春正	-10.473
萬二千六百	-10.4731
一百二十八	-10.4732
竒零	-10.4734
乙丙底	-10.4737
此亦	-10.4739
庚辛壬癸	-10.474
丁未朔	-10.474
得四率	-10.4741
靈臺	-10.4745
以小	-10.4749
閏十一月	-10.4762
次輪心在	-10.4767
湏	-10.4769
法與	-10.4775
無從	-10.4775
參差	-10.4778
秒以	-10.4781
一千四百四十	-10.4781
午時日食	-10.4782
一十二尺	-10.4783
五千六百	-10.4783
日亥初二刻	-10.479
丙與丁	-10.479
度與	-10.4791
實得	-10.4797
即得所求	-10.4799
欲作	-10.48
紫	-10.4801
下式	-10.4802
度四十七分	-10.4803
0	-10.4805
5	-10.4805
界作	-10.4807
地體	-10.4807
則兩	-10.4809
緣	-10.4809
稷	-10.4813
漢志	-10.4814
喜	-10.4815
奉㫖	-10.4816
日申初三刻	-10.482
閏五月	-10.4821
盈不足	-10.4823
十里	-10.4824
羲和	-10.4824
小者	-10.4825
二曰	-10.4829
五錢	-10.4831
則當	-10.4832
夜半日度	-10.4833
為本	-10.4834
二宫	-10.4836
影長	-10.4836
在後	-10.4837
二十兩	-10.4842
所立	-10.4842
是其	-10.4843
大夫	-10.4849
順天	-10.485
月輪	-10.4852
合為一	-10.4853
于丁	-10.4853
貫文	-10.4857
六合	-10.4864
乃至	-10.4867
退位	-10.4867
可以度盡	-10.4869
中後	-10.4873
億三千	-10.4885
正北	-10.4887
小則	-10.489
漸近	-10.489
大腰	-10.489
法除實得	-10.4891
無光	-10.4891
之對數	-10.4894
乙丑日	-10.4896
為法除實得	-10.4896
四正	-10.4901
則甲乙	-10.4901
壬癸子丑	-10.4908
乙南行	-10.4908
太陽距	-10.491
去減	-10.4917
為半徑作	-10.4918
兩分母	-10.4919
立三角	-10.492
化作	-10.4921
太陰距	-10.4925
年差一度	-10.4926
日軌	-10.4928
丙子日	-10.4928
辛未日	-10.493
于甲	-10.4942
隋	-10.4945
日丑初初刻	-10.4947
日巳正二刻	-10.4948
窖	-10.4948
提	-10.4949
矩内形	-10.4952
迨	-10.4953
竝	-10.4954
纂	-10.4955
舒	-10.4956
幽	-10.4958
𫝊	-10.496
此書	-10.496
黄赤二道	-10.4961
度二十一分	-10.4961
軸孔	-10.4968
比例法	-10.4973
在戊	-10.4975
極星	-10.4975
修改	-10.4977
戊辰朔	-10.4977
皆非	-10.4978
也且	-10.4978
子曰	-10.4979
以六十	-10.498
六百八十	-10.498
股率	-10.498
不止	-10.4981
二時	-10.4982
也術曰	-10.4985
雙環	-10.4986
度五十七分	-10.4986
非也	-10.4988
四億	-10.4991
盈縮厯	-10.4994
三邉	-10.4996
在赤道北	-10.4997
不如	-10.4997
七錢	-10.4997
小雪	-10.4999
同心	-10.5
為帶縱	-10.5004
物價	-10.5006
十七分	-10.5006
隂陽厯	-10.5007
同也	-10.5007
辛酉日	-10.5011
之中心	-10.5011
大一倍	-10.5011
為限	-10.5014
欲以	-10.5016
表得	-10.5016
有常	-10.5024
底邊	-10.5036
大則	-10.5037
更之	-10.5041
在赤道南	-10.5042
交道	-10.5042
卯正	-10.5043
同異	-10.5045
得二十四	-10.5052
在地	-10.5055
津	-10.506
日戌初三刻	-10.5063
正方邊	-10.5065
斜步	-10.5065
月朔	-10.5065
半較角	-10.5065
二十步	-10.5068
一百八十二	-10.5071
上作	-10.5071
於前	-10.5072
一錢	-10.5073
所得為	-10.5074
任取	-10.5078
第四率	-10.5079
有兩	-10.508
二十九分	-10.5081
癸丑朔	-10.5085
官生	-10.5087
絡	-10.5089
星經度	-10.509
卽得	-10.509
萬六千八百	-10.5094
殘	-10.5095
夜子初三刻	-10.5095
棄	-10.5095
全形	-10.5095
丑正初刻	-10.5097
市	-10.5097
各節氣	-10.5101
鳴	-10.5102
閉	-10.5103
日子正二刻	-10.5103
鹿	-10.5103
各省	-10.5104
藉	-10.5104
救	-10.5105
温	-10.5105
啟	-10.5106
幸	-10.5106
日距正交	-10.5107
酉正初刻	-10.5108
所云	-10.511
舜	-10.511
三十一度	-10.5116
一百二十六	-10.5118
史二月	-10.5118
其外	-10.5119
周公	-10.5119
又在	-10.512
厯代	-10.5124
十四分内三十一秒冬至	-10.513
十三分内一秒冬至	-10.5131
八分内一秒冬至	-10.5131
三四五	-10.5134
二十八日	-10.5136
餘即	-10.5136
亥正二刻	-10.5137
一萬八千	-10.5138
内去	-10.514
一大	-10.5143
帶分	-10.5143
辛子	-10.5144
四乘	-10.5147
一萬一千	-10.5148
分一十四秒	-10.515
一萬三千	-10.5152
又論曰	-10.5153
冬夏至	-10.5154
尚書	-10.5154
立於	-10.516
者不	-10.518
為凖	-10.5181
厯經	-10.5185
為減差	-10.5187
積等	-10.5188
勾弦	-10.5188
而下	-10.5195
池徑	-10.5195
合于	-10.5195
一千萬	-10.5196
積以	-10.5202
同但	-10.5203
分五十四秒	-10.5204
者因	-10.5205
皆用	-10.5212
等其	-10.5215
形等	-10.5215
以成	-10.5217
四除	-10.5218
十二律	-10.5219
圓球徑	-10.522
縱多	-10.5224
之左	-10.5224
子丙	-10.5225
三月朔	-10.5225
之實行	-10.5228
用減	-10.5231
頒	-10.5235
㢘	-10.524
歷	-10.5243
境	-10.5244
憲	-10.5245
日午正一刻	-10.5245
葢以	-10.5245
營室	-10.5246
之西	-10.5246
朓朒	-10.5248
枝	-10.5248
交於	-10.5249
襍	-10.5251
楊	-10.5252
濁	-10.5252
訓	-10.5252
共一百	-10.5253
踈	-10.5254
辰時日食	-10.5255
上一位	-10.5258
大邉	-10.5262
日辰初一刻	-10.5266
三限	-10.5273
具奏	-10.5274
之正切線	-10.5278
下法	-10.5279
於庚	-10.5279
清明	-10.5283
池積	-10.529
六百二十五	-10.5291
其大	-10.5292
每匹	-10.5296
運轉	-10.5301
八七五	-10.5305
萬七千五百	-10.5306
氣應	-10.5312
乙亥日	-10.5313
輻線	-10.5318
空心	-10.532
本輪之	-10.5321
等又	-10.5322
其言	-10.5325
天象	-10.5326
丁酉日	-10.5329
三千五百	-10.5329
為髙	-10.5331
者曰	-10.5331
申酉	-10.5332
十有二	-10.5333
髙差	-10.5337
無餘	-10.5346
夏之	-10.5346
八百二十	-10.5348
閏七月	-10.5348
三十一日	-10.5351
萬八千七百	-10.5352
二百三十五	-10.5353
而南	-10.5357
東移	-10.536
之書	-10.5362
匠	-10.5366
行率	-10.5368
而東	-10.537
得下式	-10.537
斗八升	-10.5385
縦	-10.5387
對邉	-10.5388
距南	-10.539
燭	-10.539
如此則	-10.539
交㸃	-10.5391
日申正二刻	-10.5392
寅乙	-10.5394
巳正一刻	-10.5396
咨	-10.5398
屈	-10.54
以半徑	-10.5401
正月壬辰朔十一月	-10.5402
允	-10.5402
摩	-10.5403
塊	-10.5403
澤	-10.5404
月平行	-10.5404
礙	-10.5406
三九八	-10.5407
一百二十度	-10.5407
當食	-10.5411
也如有	-10.5411
順逆	-10.5416
二兩四錢	-10.5417
日未正一刻	-10.5421
剖之	-10.5422
與戊	-10.5424
三千四百	-10.5424
者葢	-10.5427
原設	-10.543
初虧真時	-10.543
三斗	-10.5431
相等也	-10.5431
子丁	-10.5435
列於下	-10.5436
降婁宫	-10.5438
正弦與	-10.5439
至步	-10.544
即為所求	-10.5446
以日法	-10.5446
之際	-10.5447
所由	-10.545
之影	-10.5455
術曰列	-10.5455
呂	-10.5458
乙丑朔	-10.5458
武帝	-10.5466
截濶	-10.5467
分一十九秒	-10.5467
甲㸃	-10.5472
上三星	-10.5473
月晦	-10.5475
等者	-10.5477
三一四	-10.5479
即定	-10.5479
十二辰	-10.5481
東行步	-10.5482
所能	-10.5482
庚申朔	-10.5483
只云	-10.5484
測天	-10.549
巳角	-10.5491
得一十二	-10.5491
度五十二分	-10.5491
分三十六秒	-10.5493
午中	-10.5496
丈八尺	-10.5499
上下兩	-10.5502
一處	-10.5508
如一	-10.5512
子乙	-10.5514
轉而	-10.5518
以黄道	-10.552
為平實	-10.552
賜	-10.5528
之日數	-10.5529
太虚	-10.553
十斤	-10.5533
十步	-10.5534
鹽	-10.5535
靑	-10.5535
剰	-10.5547
撿	-10.5547
於赤道	-10.5548
彼此減盡	-10.5549
距等圈	-10.555
度二十四分	-10.555
卯正二刻	-10.555
日巳正初刻	-10.5552
戊子朔	-10.5552
遍乗	-10.5553
稿	-10.5553
伽	-10.5553
矢較	-10.5553
料	-10.5555
至元辛巳	-10.5557
又各	-10.5557
八六六	-10.5558
消息	-10.5559
暮	-10.556
十分之一	-10.5561
毛	-10.5561
分五十八秒	-10.5562
石之	-10.5564
戊己庚	-10.5565
二百四十三	-10.5573
撱	-10.5576
徑冪	-10.5577
分至	-10.5585
兩面	-10.5585
極髙	-10.5585
日酉初二刻	-10.5585
二尺五寸	-10.5589
四宫	-10.5589
分一十二秒	-10.559
個月	-10.5593
在己	-10.5594
初刻	-10.5595
俱相等	-10.5597
由此	-10.5602
者用	-10.5608
日出分	-10.5609
大而	-10.561
行分	-10.561
不入食限	-10.5611
為三率求得四率為	-10.5612
十八尺	-10.5618
須彌	-10.562
各行	-10.5625
萬四千五百	-10.5627
八線表	-10.5628
其星	-10.5631
亦可以	-10.5631
八十兩	-10.5631
一十三分	-10.5635
也因	-10.5637
四百六十	-10.5637
虧復	-10.5638
庚子日	-10.5639
如有	-10.5644
一等	-10.5644
同底	-10.5647
逐度之	-10.5648
二石	-10.565
豪有餘	-10.5652
成直角	-10.5652
司天	-10.5652
其徑	-10.5657
當在	-10.5657
億二千	-10.5658
圜積	-10.566
捷	-10.5667
講	-10.5672
幾何法	-10.5674
日行一度	-10.5675
以明	-10.568
三百七十五	-10.5683
相減餘一	-10.5684
本形	-10.5684
皇上	-10.5687
正月丁酉朔	-10.5692
壤	-10.5693
若干度	-10.5696
正合	-10.5697
日辰初二刻	-10.5698
八百五十	-10.5699
壬辰日	-10.5699
日巳初初刻	-10.5703
也如圖	-10.5704
度之通弦	-10.5704
敎	-10.5708
日戌正一刻	-10.5708
脗合	-10.571
緒	-10.5711
獻	-10.5711
即大	-10.5713
設如有銀	-10.5713
三十二度	-10.5713
龠	-10.5713
需	-10.5714
甲卯	-10.5717
弧正弦	-10.5719
丙午朔	-10.5719
干支	-10.572
日辰初三刻	-10.5721
針	-10.5722
立天元一	-10.5723
此外	-10.5725
弧背	-10.5726
丁亥日	-10.5726
晝短	-10.5727
距差	-10.5728
相距度	-10.5729
丁丑朔	-10.573
下長	-10.573
交中	-10.5731
均輪半徑	-10.5731
以甲乙	-10.5734
大雪	-10.574
魏書	-10.5741
十五兩	-10.5742
四十四度	-10.5743
雖不	-10.5743
四月朔	-10.5745
統天厯	-10.5746
一十七度	-10.5751
四乗	-10.5758
金史	-10.5759
己庚辛	-10.5761
日辰正一刻	-10.5764
全體	-10.5766
月己夘朔	-10.5771
角之餘弦	-10.5773
交地平	-10.5773
上長	-10.5775
近時距分	-10.5778
而上	-10.5785
上元	-10.5787
在限東	-10.5787
從丁	-10.5789
共重	-10.5794
方數	-10.58
以測	-10.5801
小差股	-10.5802
無不	-10.5802
一條	-10.5803
三十五分	-10.5804
七十五度	-10.5806
朔旦冬至	-10.5809
益廉	-10.5811
得所求	-10.5815
六之一	-10.5815
小圜	-10.5818
二萬四千	-10.582
陽馬	-10.5822
㨗	-10.5825
大圓	-10.5828
土木	-10.5828
其較則	-10.5832
減者	-10.5835
度五十三分	-10.5837
食甚在	-10.5837
此其	-10.5842
位之	-10.5846
乙丙戊	-10.5847
去離	-10.5847
島	-10.5851
虚股	-10.5858
所以然者	-10.5859
廉隅	-10.5859
數又以	-10.586
十二分内一秒冬至	-10.5863
弦實	-10.5863
㳺	-10.5864
小船	-10.5865
餘三	-10.5868
鍾	-10.5868
排	-10.5869
粗	-10.5871
冬夏二至	-10.5871
混	-10.5872
隅因得	-10.5873
員周	-10.5874
俯	-10.5874
丸	-10.5875
棊	-10.5876
壬為	-10.5876
法見	-10.5876
見日	-10.5877
一里	-10.5877
股弦差	-10.5877
誰	-10.5877
得三十六	-10.5877
八十分	-10.5878
句弦	-10.5879
甲銀	-10.5881
餘一百	-10.5882
五月朔	-10.5882
四千三百	-10.5884
兔	-10.5885
大明	-10.5886
任意	-10.5886
母數	-10.589
極差	-10.5895
次形之	-10.5898
度而	-10.5898
日時	-10.59
陽城	-10.5902
閏六月	-10.5903
為平行線	-10.5904
減分	-10.5904
邊數	-10.5904
二處	-10.5906
丙弧	-10.5907
與左相消得	-10.5908
簡易	-10.5909
勾也	-10.5909
五千七百	-10.5912
六十秒	-10.5914
以加減	-10.5914
容積	-10.5916
若夫	-10.5917
以赤道	-10.5918
日子正後	-10.5918
于上	-10.5918
亷積	-10.5919
處暑	-10.5921
只有	-10.5921
大圈	-10.5923
春分後	-10.5923
分與	-10.5926
之正弦與	-10.5926
故必	-10.5927
赤道積度	-10.5928
退行	-10.5929
後人	-10.5929
九石	-10.5931
平方與	-10.5932
文公	-10.5936
小星	-10.5937
之首	-10.5938
嵗周	-10.5939
莫不	-10.5939
乙與丙	-10.5942
四位	-10.5944
界形	-10.5944
所少	-10.5947
各宿	-10.5948
正月辛未朔	-10.5951
戊與己	-10.5952
交黄道	-10.5954
用其餘	-10.5955
此線	-10.5959
二除	-10.5961
為甲丁	-10.5965
緯圏	-10.597
晨見	-10.5976
正在	-10.5977
也次	-10.5978
商得	-10.5978
從乙	-10.5981
一方	-10.5982
重數	-10.5985
一百七十五	-10.5985
子正初刻	-10.5988
步問答同前法曰	-10.5996
厯理	-10.6
朱子	-10.6003
躔差	-10.6004
初次	-10.6005
七百一十	-10.6005
加減表	-10.6006
下層	-10.601
于己	-10.601
北極高	-10.6014
丙銀	-10.6014
爐	-10.6014
兄	-10.6014
元數	-10.6016
内减	-10.6024
多祿某	-10.6024
可知也	-10.6026
彌	-10.6027
卄	-10.6029
禪	-10.6031
淺深	-10.6032
衛	-10.6032
正月戊子朔十一月	-10.6032
傅	-10.6033
地平線	-10.6034
自西而東	-10.6034
立垂線	-10.6036
改為	-10.6036
欠	-10.6037
養	-10.6038
沿	-10.6039
上數	-10.6039
上古	-10.6043
十一分内五十一秒冬至	-10.6044
星圖	-10.6044
夘時	-10.6045
九千四百	-10.6046
掛	-10.6046
之共	-10.6046
也又以	-10.6048
律中	-10.6049
􁷷	-10.6051
中比例	-10.6054
定之	-10.6054
同為	-10.6056
之餘切	-10.6057
南行步	-10.6059
六十步	-10.606
與乙戊	-10.6061
全積	-10.6063
初虧前設時	-10.6071
之較為	-10.6072
二百八十八	-10.6075
厯象	-10.6076
日寅正二刻	-10.6077
兩幾何	-10.6079
日亥正三刻	-10.6081
弦較	-10.6084
得二千	-10.6086
一尺四寸	-10.6087
實均	-10.6089
宜加	-10.609
累加	-10.609
至辛	-10.6093
中前	-10.6094
在此	-10.6094
日申正初刻	-10.6095
三萬六千	-10.6107
右例	-10.6107
石四斗	-10.6108
尺卽	-10.6109
厯元甲子年	-10.6119
甲丙乙丁	-10.6121
三邊形	-10.6124
二十四氣	-10.6124
度一十五分	-10.6125
求等得	-10.6126
故於	-10.6127
而甲	-10.6127
更有	-10.6128
又以上	-10.6134
乙丙線	-10.6136
一尺一寸	-10.6137
縱方	-10.6138
七分半	-10.6142
日髙	-10.6142
但云	-10.615
設有	-10.6153
也自	-10.6154
為初商	-10.6159
在地平	-10.6161
向西	-10.6166
槩	-10.6167
乙之	-10.6169
冬十月	-10.6171
得三千	-10.6179
合前問今有	-10.6184
距算	-10.6187
去表	-10.6191
八分内三十一秒冬至應閏	-10.6193
相直	-10.6193
蛇	-10.6195
分三十五秒	-10.6195
克	-10.6196
屏	-10.6196
近少	-10.6197
輳	-10.6197
履	-10.6198
訪	-10.6199
光體	-10.6199
丁丙邉	-10.62
三百六十六日	-10.6201
去人	-10.6201
璣衡	-10.6202
探	-10.6205
弧與	-10.6207
萬三千三百	-10.6207
二十一尺	-10.6207
二八五	-10.6209
理分中末線	-10.6212
相等故	-10.6219
章月	-10.622
食甚定分	-10.6221
交泛	-10.6225
周天度	-10.6226
簡儀	-10.6227
星距地	-10.623
本天半徑	-10.6237
率也	-10.6238
之中率	-10.6239
無論	-10.624
六分内五十一秒冬至	-10.624
為後	-10.6241
乙心	-10.6242
為戊	-10.6242
數乘	-10.6247
天漢	-10.6248
大差勾	-10.6249
從上	-10.625
球徑	-10.6252
十三日	-10.6257
心甲	-10.626
也曰	-10.6262
再乗	-10.6269
徑一	-10.6269
十二次	-10.6273
本弧	-10.6275
大角	-10.6279
○○○○○○○	-10.6281
先求得	-10.6284
有二一	-10.6285
末作	-10.6286
斤之	-10.6293
既等則	-10.6294
其法以	-10.6296
二十五步	-10.6298
奉有	-10.63
于乙	-10.6304
測景	-10.6305
月徑	-10.6313
底徑	-10.6316
庚午朔	-10.6317
同時	-10.6319
壬寅日	-10.6322
小圓	-10.6323
即所求解曰	-10.6323
為乙丙	-10.6331
逺則	-10.6335
十四刻	-10.6335
分五十七秒	-10.6336
九萬六千	-10.6336
人居	-10.6337
癸卯日	-10.6341
級	-10.6345
陣	-10.6346
多八	-10.6347
峯	-10.6354
次均輪	-10.6357
發斂	-10.6358
邱	-10.6359
夜子初初刻	-10.636
閻浮提	-10.6361
倂	-10.6362
太陽距天頂	-10.6362
泥	-10.6364
一二三四	-10.6364
第十一	-10.6365
則皆	-10.6366
嗣	-10.6367
三曰	-10.6368
子正後	-10.6369
此理	-10.6372
三除之得	-10.6372
昧	-10.6373
髙與闊	-10.638
和買	-10.6385
紀元厯	-10.6386
螺旋	-10.6389
必大於	-10.6389
用其	-10.639
六分之一	-10.6394
為大股	-10.6395
計開	-10.6396
次從	-10.6402
辛巳日	-10.6402
五百五十	-10.6402
分二十九秒	-10.6404
暑	-10.6405
一二四	-10.6405
三角形有	-10.6405
正月丙午朔	-10.6409
以當	-10.6417
各一	-10.6418
兩圏	-10.6418
二百四十步	-10.642
設數	-10.6421
丑丁	-10.6422
平靣	-10.6423
十五分内一十一秒冬至	-10.6427
原有之	-10.6429
股冪	-10.6429
辛亥朔	-10.643
在丁	-10.643
復圓真時	-10.6432
二十二秒	-10.6433
從廉	-10.6435
失閏	-10.6437
益積	-10.644
少廣	-10.6442
定一	-10.6443
為所求之	-10.6448
多六	-10.6452
五分内一秒冬至	-10.6453
三種	-10.6456
九分内二十一秒冬至	-10.6456
二萬五千	-10.6456
丙角正弦	-10.6462
行一度	-10.6465
入地平	-10.6465
俱同	-10.6468
律厯	-10.647
歳差	-10.6475
末以	-10.6476
以所得	-10.6477
髙庳	-10.6478
收為	-10.648
甲乙丙三	-10.6492
論曰試	-10.6493
按此術	-10.6496
錢數	-10.6497
丁丙邊	-10.65
月半徑	-10.65
正球	-10.6502
是書	-10.6508
三角形内	-10.6509
正月己巳朔	-10.6515
耗	-10.6516
卯初二刻	-10.6516
七政之	-10.6517
弧即	-10.6519
子辛	-10.652
戊午朔	-10.6521
己子	-10.6522
平引	-10.6522
在甲	-10.6525
一萬七千	-10.6525
萬一千八百	-10.6527
縮初盈末	-10.6527
崩	-10.6527
四萬八千	-10.6528
之分秒	-10.6528
寳	-10.6528
遥	-10.6531
重修大明厯	-10.6531
卯初三刻	-10.6531
剛	-10.6531
尖堆	-10.6532
開三乘方	-10.6533
藝	-10.6533
三百六十五	-10.6534
闡	-10.6535
況	-10.6535
癸未朔	-10.6536
鑄	-10.6539
百億	-10.6539
股實	-10.6541
叔	-10.6542
為食甚	-10.6544
園	-10.6544
何則	-10.6546
而不知	-10.6547
不爽	-10.6548
尺又以	-10.6548
乗商	-10.6549
從心	-10.6551
月光	-10.6552
于庚	-10.6554
甲子年甲子月	-10.6556
分一十七秒	-10.6562
内方	-10.6562
乃置	-10.6562
矣其	-10.6563
人在	-10.6564
約得	-10.6566
相逺	-10.6569
之器	-10.6569
愈大	-10.6578
交後	-10.6578
黄道宿度	-10.6579
三萬二千	-10.6582
亦自	-10.6585
者此	-10.659
爲多	-10.659
六百五十	-10.6594
實沈宫	-10.6594
建子	-10.6595
少者	-10.6595
復有	-10.6596
度四十五分	-10.6597
自乗之方	-10.6599
試自	-10.6599
隅算	-10.6599
距北	-10.6602
度二十二分	-10.6606
七百九十	-10.6611
七百七十	-10.6612
豈有	-10.6617
百七十	-10.6618
諸行	-10.662
四十六分	-10.662
秒為	-10.662
挨	-10.6623
分野	-10.6625
六十六度	-10.6627
不明	-10.663
丙巳	-10.6634
第十二	-10.6634
千五百	-10.6635
作垂弧	-10.6639
又同	-10.6641
鼈臑	-10.6644
五十三度	-10.6646
求積法	-10.6647
數故	-10.6648
五色	-10.6649
定分	-10.6651
必大于	-10.6654
若欲	-10.6656
距食甚之	-10.6659
日蝕	-10.666
大船	-10.6661
愈多	-10.6664
除之即得今有	-10.6671
五次	-10.6673
丁乙丙	-10.6674
相較則	-10.6676
則又	-10.6676
平方多	-10.6677
栗	-10.6679
每面	-10.6682
本天心	-10.6684
旱	-10.6685
界所作	-10.6685
及分秒	-10.6688
行一周	-10.6688
食也	-10.669
定母	-10.6694
而一所得	-10.6694
兩心實相距	-10.6697
版	-10.6697
得十二	-10.6697
感	-10.6697
洞	-10.6699
倶	-10.67
日未初三刻	-10.6701
在西	-10.6701
倘	-10.6703
卻	-10.6703
日戌正初刻	-10.6704
筒	-10.6705
宣明厯	-10.6705
和也	-10.6706
閲	-10.671
倫	-10.6711
獲	-10.6712
此四	-10.6713
易見	-10.6714
子午圈	-10.6714
二十八分	-10.6715
俸	-10.6716
綴	-10.6716
析木宫	-10.6722
益亷	-10.6723
渾體	-10.6724
尺五寸	-10.6727
瓣	-10.6728
六千五百	-10.6728
竪	-10.6729
九丈	-10.673
句幂	-10.6731
兩處	-10.6733
渾圜	-10.6737
小暑	-10.674
倍之即	-10.6741
次商之	-10.6745
星紀宫	-10.6745
如後	-10.6747
盖天	-10.6748
一十五日	-10.675
其景	-10.6754
之單位	-10.6758
九十六刻	-10.6758
爻策	-10.6759
甚大	-10.6761
二分内一秒冬至	-10.6765
下田	-10.6766
與長	-10.6769
根既與	-10.6769
失其	-10.677
庚巳	-10.6776
斗六升	-10.6778
上袤	-10.6779
其髙	-10.6779
受光	-10.6781
四十步	-10.6786
時日	-10.6786
立方與	-10.6788
六百二十	-10.6789
為朔	-10.679
一十五秒	-10.6792
一百三十八	-10.6793
一百五十六	-10.6794
改商	-10.6802
出之	-10.6804
直距	-10.6804
日戌初一刻	-10.6805
分一十秒	-10.6805
之一邊	-10.6806
寸數	-10.6806
可得而	-10.6807
相掩	-10.681
正數	-10.6812
一疋	-10.6814
氣之	-10.6815
而取	-10.6816
晦朔	-10.6818
中心至	-10.6822
第二率	-10.6823
萬九千五百	-10.6825
未初一刻	-10.6826
正朔	-10.6828
有盈縮	-10.6831
角也	-10.6832
而此	-10.6833
赤道髙	-10.6837
卷一	-10.6838
掩日	-10.6838
求太隂	-10.684
甲辰朔	-10.6842
十三尺	-10.6846
所説	-10.6849
自乗之正方	-10.6849
朔後	-10.685
蒼	-10.6853
萬一千四百	-10.6853
今有之	-10.6854
最髙衝	-10.6854
壍堵	-10.6855
其衝	-10.6856
次第	-10.6857
萬二千二百	-10.6857
厯官	-10.6859
列實	-10.6859
二萬八千	-10.6859
錦	-10.6859
一七三	-10.686
大距度	-10.6864
正月丙寅朔	-10.6864
七升	-10.6866
正切線	-10.6866
也試	-10.6868
太陰平行	-10.6868
平距	-10.6869
㪷	-10.6869
日影	-10.6871
萬六千二百	-10.6871
土木火三星	-10.6872
總之	-10.6872
以御	-10.6873
甲乙丙角	-10.6873
駁	-10.6875
與己丙	-10.6877
卯正初刻	-10.6878
迦	-10.6878
閏九月	-10.6878
食既生光	-10.6878
/○)□	-10.6879
龜	-10.6879
淵	-10.688
害	-10.6883
斜升	-10.6883
分三釐	-10.6883
於子	-10.6884
乾隆	-10.6884
法有	-10.6885
亦大于	-10.6887
二十四刻	-10.6889
曷	-10.6891
積實	-10.6892
衝太陽	-10.6893
月距正交	-10.6894
節氣線	-10.6895
一尺三寸	-10.6896
度四十四分	-10.6898
得二十五	-10.6898
乙丁為	-10.6898
子正一刻	-10.6899
半圓	-10.6901
朔日有食之	-10.6901
常見	-10.6902
交處	-10.6903
在乙	-10.6906
正月甲子朔	-10.6907
與戊丁	-10.6907
所到	-10.691
大抵	-10.6913
丁心	-10.6914
為腰	-10.6916
亷隅	-10.6917
以漸而	-10.6918
甲戊線	-10.6923
影半徑	-10.6924
太陽太隂	-10.6927
乗方積	-10.6928
丙角之正弦	-10.693
心在	-10.6935
出東門	-10.6939
為大分	-10.694
五十五秒	-10.6941
分角	-10.6942
四線	-10.6945
半和	-10.6945
也若以	-10.6945
三十八度	-10.6946
最上	-10.6947
甚微	-10.6948
三十九度	-10.6948
月庚戌朔	-10.6948
年數	-10.6948
各自乘	-10.695
得六百	-10.6952
得五百	-10.696
甚多	-10.696
發明	-10.6967
分二十三秒	-10.6968
自圜心	-10.6968
於黄道	-10.697
度作	-10.697
十一秒	-10.6972
為準	-10.6973
三歸	-10.6974
之序	-10.6978
入算	-10.698
甲寅朔	-10.6987
之衰數	-10.6987
徑一尺二寸	-10.6987
秋分後	-10.6991
法於	-10.6992
于左	-10.6998
即丁	-10.7
倍數	-10.7002
一分内五十一秒冬至	-10.7003
度三十二分	-10.7003
切於	-10.7004
與實	-10.7006
赤道宿度	-10.701
望之	-10.701
過九十度	-10.7011
下有	-10.7011
一尺六寸	-10.7017
長方體之	-10.7017
亦當	-10.7018
心之	-10.7022
一百二十一	-10.7022
與丙己	-10.7023
八月朔	-10.7023
四直角	-10.7023
一百一十五	-10.7024
三十兩	-10.7029
七十分	-10.7033
有法	-10.7033
七百二十一	-10.7039
辰角	-10.7039
五邊形	-10.7042
自相等	-10.7042
莊	-10.7042
以次	-10.7048
橋	-10.7048
四千二百	-10.7049
庚辛壬	-10.7052
人分之人得	-10.7052
與彼	-10.7054
那	-10.7054
3	-10.7055
距午赤道度	-10.7055
盈初縮末	-10.7055
於日	-10.7055
驚蟄	-10.7056
五十刻	-10.7056
一百四十七	-10.7056
悟	-10.7057
熈	-10.7058
者又	-10.7058
二十五刻	-10.7058
征	-10.7059
斂	-10.7059
伸	-10.7059
油	-10.7061
回暦	-10.7062
賦	-10.7062
量法	-10.7063
五百一十二	-10.7063
四年正月	-10.7063
午位	-10.7063
崇	-10.7063
方環	-10.7063
踵	-10.7064
冬夏	-10.7065
布算	-10.7065
過冬至	-10.7065
襄公	-10.7065
嚴	-10.7065
遽	-10.7065
相乘之數	-10.7066
為外	-10.7066
十二宮	-10.7066
七千五百	-10.7068
而甲乙	-10.7068
尺九寸	-10.7073
之體積	-10.7073
細分	-10.7073
漸小	-10.7075
緯星	-10.7076
丈五尺	-10.7077
一百三十二	-10.7077
正月戊寅朔	-10.7078
太强	-10.7078
在斗	-10.7078
者謂之	-10.7079
於壬	-10.7081
之重	-10.7082
遂以	-10.7082
故先	-10.7082
等矣	-10.7084
中西	-10.7084
長方面積	-10.7084
草曰	-10.7087
恒星之	-10.7088
厯數	-10.7088
三辰儀	-10.7093
皆倣此	-10.7093
之所以	-10.7096
夘辰	-10.7098
多故	-10.71
求各	-10.7107
子母	-10.7108
與丙甲	-10.7108
六步	-10.7113
去其	-10.7113
適當	-10.7113
里餘	-10.7117
即甲乙	-10.7118
愈逺	-10.7125
與戊丙	-10.7127
近逺	-10.7129
求乙角	-10.713
二千八百	-10.7139
尺即	-10.714
為小分	-10.714
萬七千八百	-10.7144
大地	-10.7145
其在	-10.7149
萬四千九百	-10.7153
斜面	-10.7155
試作	-10.7159
又以初商之	-10.7159
地平經度	-10.7159
列於	-10.716
與上	-10.7163
日戌初初刻	-10.7163
分五十九秒	-10.7164
逓減	-10.7166
入于	-10.717
四百三十	-10.7172
實經度	-10.7175
每嵗	-10.7176
己卯日	-10.7177
正月壬午朔	-10.7178
圓面積	-10.7179
四十二度	-10.718
兩較	-10.718
癸庚	-10.718
度四十一分	-10.7186
之真	-10.7186
一弧	-10.7188
僖公	-10.7189
皆然	-10.7191
分尺之	-10.7194
有異	-10.7194
酉時	-10.7195
亦是	-10.7196
其容	-10.7201
三之得	-10.7201
日日	-10.7202
甲丙邉	-10.7205
所傳	-10.7208
寅丑	-10.7209
三分内二十一秒冬至	-10.7211
根為	-10.7211
日午正二刻	-10.7215
為九十度	-10.722
分三十一秒	-10.7221
邊一百	-10.7222
庾	-10.7224
兩數相減	-10.7225
卯正一刻	-10.7229
為天頂	-10.7231
離赤道	-10.7232
闚	-10.7232
順減差	-10.7234
歳周	-10.7234
1	-10.7237
徹	-10.7237
鈞	-10.7239
所生之	-10.7241
不知步數	-10.7241
宣城梅文鼎撰	-10.7241
刋	-10.7242
觧	-10.7243
屋	-10.7243
輿	-10.7243
舎	-10.7244
極大	-10.7244
勤	-10.7244
稅	-10.7245
八丈	-10.7245
優	-10.7245
萬九千二百	-10.7246
八卦	-10.7247
顓頊	-10.7248
念	-10.7248
公同	-10.7248
値	-10.7249
全圜	-10.7249
第一星	-10.7251
遵㫖	-10.7252
分别	-10.7257
平行則	-10.7257
不同心圏	-10.7261
如後圖	-10.7261
平度	-10.7266
春秋二分	-10.7266
丙丁邊	-10.7268
一晝夜	-10.7269
嵗在	-10.7269
八十一分	-10.7269
丙形	-10.7269
之比例亦	-10.727
可測	-10.7273
有閏	-10.7274
數相減	-10.7274
復圓前設時	-10.7275
中限	-10.7277
丑戊	-10.7279
起至	-10.7279
如前圖	-10.7279
月癸夘朔	-10.7283
相結	-10.7283
唐書	-10.7287
無疑	-10.7288
一十八秒	-10.7289
與丁乙	-10.7297
望時	-10.7298
小句股	-10.7299
古之	-10.73
黄白	-10.7301
以正	-10.7305
秋正	-10.7305
上法	-10.7306
半徑全數	-10.7307
己酉日	-10.7312
之重數	-10.7314
日平行	-10.7319
五十六分	-10.7319
詳之	-10.732
一兩二錢	-10.7321
為甲數	-10.7322
實朢	-10.7323
一十秒	-10.7325
黃赤	-10.7326
三百三十六	-10.7329
勾自乘	-10.7333
甲乙邉	-10.7335
諸書	-10.7336
與己庚	-10.7336
偏南	-10.7337
度二十八分	-10.7337
甲乙股	-10.734
餘四	-10.734
以生	-10.734
食甚時刻	-10.7346
若干度分	-10.7347
距極	-10.7347
癸亥朔十一月	-10.7348
各面	-10.7348
三分内一秒冬至	-10.7349
第一率	-10.7349
月五星	-10.735
平行而	-10.7351
之樞	-10.7353
庚寅朔	-10.7354
乙亥朔	-10.7356
用籌	-10.7356
文王	-10.7356
所躔	-10.7358
小邉	-10.7358
者惟	-10.7359
平方籌	-10.7361
卯初一刻	-10.7361
已上者	-10.7363
圖説	-10.7363
百尺	-10.7364
為正弦得	-10.7366
總論	-10.7367
足以	-10.7367
無有	-10.7371
步半	-10.7375
合成	-10.7375
太隂距地	-10.7376
便是	-10.7381
二十年	-10.7385
三十三分	-10.7386
又取	-10.739
乙丙丁戊	-10.7392
月蝕	-10.7398
月癸亥朔	-10.7399
其各	-10.7399
比例得	-10.7401
在其中	-10.7402
者是也	-10.7402
宻合	-10.7402
乙丁戊	-10.7405
東門	-10.7406
今依	-10.7408
束	-10.7408
之比而	-10.7408
于辛	-10.7409
一百三十五	-10.7413
域	-10.7414
兩曜	-10.7414
炎	-10.7415
黄道北	-10.7415
而月	-10.7416
歸之得	-10.7418
鮮	-10.7419
益實	-10.742
三百四十三	-10.742
渠	-10.742
茫	-10.742
誌	-10.7421
某度	-10.7422
一萬四千	-10.7422
之謂	-10.7422
中田	-10.7422
本色	-10.7423
分度之	-10.7424
建寅	-10.7424
距赤道南	-10.7426
材	-10.7429
日軌高	-10.7429
充	-10.743
凌	-10.743
甘	-10.743
晝刻	-10.7431
癸戊	-10.7431
美	-10.7432
攝	-10.7433
祗	-10.7433
與前同	-10.744
餘里	-10.744
古測	-10.7445
育	-10.7445
三十七度	-10.7445
未見	-10.7447
十二月朔	-10.7449
斜弦	-10.7449
因此	-10.7449
日未正三刻	-10.745
十二根	-10.7458
每户	-10.7461
所借	-10.7465
定真時	-10.7466
一百步	-10.7467
初末限	-10.7467
與底	-10.7471
甲戊乙	-10.7472
理之	-10.7472
太陰實行	-10.7473
得二十七	-10.7477
記之	-10.7477
求食甚	-10.7479
兩角亦等	-10.7482
已下者	-10.7484
方亷	-10.7487
亦未	-10.7489
上編	-10.7489
句股法	-10.749
積分	-10.7493
日酉正二刻	-10.7495
若干分	-10.75
分釐	-10.7501
差角	-10.7508
然也	-10.7508
寸以	-10.7508
尖方體	-10.7509
半周天	-10.7511
形為	-10.7513
六百一十	-10.7514
蔡	-10.7521
六百九十	-10.7524
尺六寸	-10.7525
乙丁邊	-10.7527
籌算	-10.7531
所知	-10.7536
星名	-10.7536
餘一十	-10.7547
丙數	-10.7551
一丈五尺	-10.7551
每月	-10.7557
見前	-10.7557
亦猶	-10.7561
測髙	-10.7561
之數則	-10.7562
欲測	-10.7564
分正負	-10.7566
四段	-10.7566
欽此欽遵	-10.757
如乙	-10.7573
見月	-10.7574
米價	-10.7577
者先	-10.7577
所照	-10.758
可也	-10.7585
辛丑朔	-10.7586
儀象	-10.7588
己巳朔	-10.7588
瑟	-10.7592
旗杆	-10.7594
旗	-10.76
地徑	-10.7601
比例四率	-10.7601
界度	-10.7603
顆	-10.7603
所算	-10.7604
錯綜	-10.7607
堤	-10.7607
次緯	-10.761
為法以	-10.761
為股弦較	-10.761
瓜	-10.7611
北極出地四十度	-10.7611
測量全義	-10.7612
夜子初二刻	-10.7612
晷景	-10.7613
以此為	-10.7613
三分内	-10.7613
黄平象限宫度	-10.7614
貞	-10.7616
之數即	-10.7617
戊己線	-10.7617
以法命之	-10.7617
二次	-10.7618
惜	-10.7618
軒轅	-10.7619
而實	-10.7619
避	-10.7619
休	-10.762
談	-10.762
得十五	-10.7621
五百九十	-10.7622
羅㬋	-10.7622
往往	-10.7623
芒種	-10.7624
四角尖堆	-10.7625
製造	-10.7626
動天	-10.7627
羲	-10.763
湖	-10.763
十二分内四十一秒冬至	-10.7631
實首	-10.7632
如甲乙丙丁	-10.7634
無餘分	-10.7635
午甲	-10.7636
在正午	-10.7637
俱倣此	-10.7637
黄米	-10.7639
土圭	-10.7642
五根	-10.7643
甲丁邊	-10.7643
得一百八十	-10.7644
月己未朔	-10.7644
三千八百	-10.7645
之端	-10.7646
内切	-10.7648
船數	-10.7648
三千三百	-10.765
也故以	-10.765
未至	-10.7651
度分秒	-10.7656
己丑朔	-10.7672
所向	-10.7674
者多	-10.7675
清蒙	-10.7677
千六百	-10.7678
每邊一尺二寸	-10.7678
相似而	-10.768
北行	-10.7683
嵗輪心	-10.7685
五百七十六	-10.7686
本線	-10.7686
上田	-10.7689
故可以	-10.7689
改用	-10.769
一百九十六	-10.7693
邊形之一邊	-10.7694
十五分内一秒冬至	-10.7701
之誤	-10.7705
影差	-10.7707
四乘方	-10.7708
正月壬子朔	-10.7708
歲周	-10.771
線平行	-10.7712
丙乙丁	-10.7712
午子	-10.7713
日丑正二刻	-10.7714
同在	-10.7715
萬七千二百	-10.772
之倍度	-10.772
又何	-10.772
之二倍	-10.7723
日亥正初刻	-10.7724
庸	-10.7727
大典	-10.7727
正月甲午朔	-10.7728
萬六千九百	-10.773
極高	-10.7731
入於	-10.7732
即甲丙	-10.7735
若求	-10.7739
日食分秒	-10.774
丙之	-10.7741
以位數	-10.7742
通光	-10.7743
設一	-10.7743
黄方	-10.7746
二二九	-10.7752
千百	-10.7756
三面	-10.7756
用此法	-10.7758
則月	-10.7758
復於	-10.7758
是時	-10.7758
正月庚寅朔	-10.776
丁戊為	-10.7765
以甲為心	-10.7767
分四十一秒	-10.7768
四之得	-10.7768
截之	-10.777
離地	-10.7771
萬三千八百	-10.7771
癸未朔十一月	-10.7771
四等	-10.7777
異者	-10.7779
卷三	-10.7781
從丙	-10.7782
加較	-10.779
五分之三	-10.7791
第一人	-10.7793
北極距天頂	-10.7793
為下法與上法相乘除實	-10.7794
繪	-10.7799
崑崙	-10.78
丞	-10.78
與寅	-10.7801
予	-10.7801
2	-10.7803
負積	-10.7803
三事和	-10.7805
􁆣	-10.7805
遶	-10.7805
自東而西	-10.7808
外切渾圓	-10.7808
惠	-10.781
庭	-10.781
賣	-10.7811
擊	-10.7815
爭	-10.7815
以外	-10.7815
冠	-10.7816
相消	-10.7816
揺	-10.7816
夘時日食	-10.7816
三角形其	-10.7816
中厯	-10.782
近日	-10.782
日月星辰	-10.782
開立方得	-10.7822
其平行	-10.7826
平分線	-10.7828
之倍數	-10.7831
上中下	-10.7833
書于	-10.7836
十分内一十一秒冬至	-10.784
名之曰	-10.784
多數	-10.784
第三率	-10.7845
於是以	-10.7856
又依	-10.7858
閏四月	-10.7859
夘角	-10.786
一百分	-10.7862
從戊	-10.7863
黄道南	-10.7864
得一十五	-10.7865
句股弦	-10.787
即此	-10.787
最髙在	-10.7871
該臣	-10.7872
又因	-10.7875
恒氣	-10.7876
尤為	-10.7877
尺相乘得	-10.7878
食甚交周	-10.7883
萬四千八百	-10.7884
閏年	-10.7884
修厯	-10.7886
二十五日	-10.7889
求角	-10.7889
方向	-10.7892
一百六	-10.7897
卷二	-10.7898
此形	-10.7899
距春分	-10.79
與丙角	-10.7902
見積	-10.7902
五分之二	-10.7903
癸寅	-10.7904
減數	-10.7907
子數	-10.7907
二圖	-10.7908
作一直線	-10.7911
地盤	-10.7912
増減	-10.7913
癸酉朔	-10.7913
亦在	-10.7916
米一石	-10.7916
百六十	-10.7917
以高乘之	-10.7917
大故	-10.7918
在本天	-10.7919
同減盡	-10.7922
反用	-10.7922
丙甲丁	-10.7925
他星	-10.7925
共計	-10.7925
而不能	-10.7926
九百一十	-10.7928
十六秒	-10.7929
立天元	-10.7929
第二圖	-10.793
實經	-10.7935
正實	-10.7937
距最高	-10.7938
天有	-10.7944
一一二	-10.7944
齊同	-10.7944
為初虧	-10.7946
正居	-10.7949
勾股弦	-10.7951
以待	-10.7951
之度即	-10.7953
以知	-10.7954
言之則	-10.7955
平面上	-10.7957
四十七度	-10.7958
不能成	-10.796
總實	-10.796
相乘得數	-10.796
傳曰	-10.7961
問今有	-10.7965
一十一度	-10.7966
丙角為	-10.7967
對角之	-10.7969
線即成	-10.7969
亦大	-10.7971
一十七分	-10.7975
價少	-10.7977
淡	-10.7981
諸厯	-10.7982
之南北	-10.799
先作	-10.799
兩餘弦	-10.7991
一十二萬	-10.7992
法凡	-10.7992
𤓰	-10.7994
正月乙巳朔	-10.7994
二十二分	-10.7995
相等乃以	-10.7998
弦自乗	-10.7999
夜子初一刻	-10.7999
朞	-10.8001
亞	-10.8002
至壬	-10.8002
覩	-10.8003
為同式	-10.8003
纔	-10.8003
而在	-10.8004
尼	-10.8004
人目所見	-10.8005
入景	-10.8007
度法	-10.8008
被	-10.8008
厚薄	-10.8009
賈	-10.8009
所多之	-10.801
釘	-10.801
洛	-10.8012
欺	-10.8014
大月	-10.8014
各不同	-10.8014
黄赤大距	-10.8016
平朢	-10.8016
八十秒	-10.8018
乃於	-10.8018
洪	-10.8018
為夏至	-10.8019
也又法	-10.8021
其年	-10.8022
年天正冬至	-10.8024
為白道	-10.8027
度四十六分	-10.8029
而定	-10.803
曰此	-10.8032
第三測	-10.8033
甲線	-10.8033
為法而一得	-10.8034
乙午	-10.8036
為極	-10.8036
兩平分	-10.804
步即所求解曰	-10.804
當用	-10.8042
食甚定時	-10.8043
一股	-10.8044
收之得	-10.8044
減半	-10.8045
遲疾厯	-10.8052
為第二	-10.8055
外有	-10.8058
其說	-10.806
亦不能	-10.806
日率	-10.8061
晷面	-10.8063
十餘度	-10.8064
為引數	-10.8064
先知	-10.8067
閏二月	-10.8069
步以	-10.8069
斛法	-10.8072
四分内一十一秒冬至	-10.8072
號籌	-10.8073
者蓋	-10.8074
者所以	-10.8076
過弧	-10.8076
庳	-10.8077
十二刻	-10.8079
加之得	-10.8084
五乘	-10.8089
之數其	-10.8092
也論	-10.8092
體心	-10.8096
兩形之	-10.8096
除者	-10.81
每一面	-10.8102
推筭	-10.8103
宜用	-10.8103
角之矢	-10.8104
半邊	-10.8105
一十四分	-10.8105
為十二	-10.8107
之長短	-10.8108
昏中	-10.811
進而	-10.8113
行過	-10.8114
梯	-10.8117
三三三	-10.8119
午角	-10.812
於辛	-10.8123
之數與	-10.8128
以矢	-10.8131
過極	-10.8135
北辰	-10.8145
不至	-10.8146
分體	-10.8148
互相為比之比例	-10.8148
四十六度	-10.8149
子戊	-10.8155
丑初	-10.8156
五分内一十一秒冬至	-10.8159
用三率法	-10.816
尾數	-10.8161
止於	-10.8163
盖以	-10.8165
入之	-10.8165
紀法	-10.8166
相加共得	-10.8166
百四十	-10.8167
十二石	-10.8169
一十三秒	-10.8172
葢天	-10.8172
時時	-10.8176
夜刻	-10.8176
太陽經度	-10.8178
數也葢	-10.8179
立一	-10.818
兩角并	-10.818
太陽髙弧	-10.8184
六邊	-10.8187
之圏	-10.8189
九斗	-10.8191
三邊求角	-10.8192
卷四	-10.8193
淳風	-10.8193
猶未	-10.8193
為一根之數卽	-10.8194
摺	-10.8194
六千四百	-10.8194
共用	-10.8195
方角	-10.8197
嚮	-10.8198
圓球内容	-10.8199
6	-10.8199
減法	-10.82
夀	-10.8201
禹	-10.8201
月丁夘朔	-10.8203
祖冲之	-10.8203
之正弦為三率求得四率為	-10.8205
送	-10.8207
韓	-10.8207
陽氣	-10.8208
証	-10.821
減于	-10.821
錘	-10.8211
分角線	-10.8211
柔	-10.8212
哀	-10.8213
黄道緯度	-10.8215
氣定積	-10.8216
又減	-10.8217
言十	-10.8218
該部	-10.8218
氣積分	-10.8219
除之為	-10.8219
綿	-10.8221
三里	-10.8224
是則	-10.8225
驗之	-10.8225
増題	-10.8227
則見	-10.8227
乾坤	-10.8232
半交	-10.8235
萬八千三百	-10.8237
三百二十四	-10.8238
形其	-10.8239
度一十三分	-10.824
云我	-10.8241
任分	-10.8241
法先以	-10.8242
夕伏	-10.8243
晨分	-10.8243
其一為	-10.8243
度四十九分	-10.8245
時盤	-10.8247
十等邊	-10.8252
一毫	-10.8253
丙行	-10.8254
股自乘	-10.8255
長亷法	-10.8255
少半	-10.8256
之緯	-10.8257
之正弦為二率	-10.8259
乙角正弦	-10.8261
約法	-10.8263
夕見	-10.8266
内池	-10.8267
運動	-10.8272
亦必等	-10.8272
一百一十九	-10.8275
度分也	-10.8275
一平均	-10.8275
如所求	-10.8275
分體線	-10.8276
㸃作	-10.8276
水火	-10.8276
為大勾	-10.8277
從冬至	-10.8278
定限	-10.8286
除積	-10.8286
與甲己	-10.8287
日南至	-10.8289
開立方法	-10.8292
出入地平	-10.8294
四遊	-10.8295
九九八	-10.8296
兩心相距	-10.8296
九月朔	-10.8297
考驗	-10.8298
辰午	-10.8298
從己	-10.8299
日之行	-10.8299
甲乙丙圜	-10.8308
圜面積	-10.8308
太隂實行	-10.831
不足減	-10.8312
分之一	-10.8317
各限	-10.8322
四分度之一	-10.8325
角之外角	-10.8328
目力	-10.8328
為次	-10.833
為勾股較	-10.8335
從隅	-10.8338
斜方	-10.8339
所問	-10.8339
正月乙丑朔	-10.8339
一分内三十一秒冬至	-10.8341
分四十四秒	-10.8341
萬五千八百	-10.8344
千二百	-10.8346
層數	-10.8347
今求	-10.8348
七兆	-10.8357
地靣	-10.8357
一七二	-10.8359
徑數	-10.8361
可以知	-10.8362
與全數	-10.8367
與己戊	-10.8372
内帶	-10.8372
與子	-10.8373
弧之度	-10.8375
與庚辛	-10.8376
不能盡	-10.8379
歩之	-10.8379
嵗餘	-10.838
得四十八	-10.8385
度二十七分	-10.8386
以合原數也	-10.8387
弧三角形	-10.8388
旬	-10.8388
使其	-10.8388
已見	-10.8388
小立方	-10.8389
糲米	-10.8389
四十四分	-10.8392
前汎時	-10.8394
減實	-10.8395
四百尺	-10.8396
尺書於原積	-10.8397
積步	-10.8398
施行	-10.8398
過於	-10.8398
桓	-10.8399
杜注	-10.8399
不以	-10.8401
4	-10.8403
衣	-10.8403
卯正三刻	-10.8403
然此	-10.8404
與乙甲	-10.8404
氣汎積	-10.8406
朓	-10.8407
磨	-10.8407
即各得	-10.8409
除之得數	-10.841
長圎體	-10.841
二測	-10.841
績	-10.841
晨前夜半	-10.8411
以弦	-10.8412
卵	-10.8412
四百零	-10.8412
兑	-10.8414
萬一千九百	-10.8415
黄道交角	-10.8415
年三月	-10.8416
亦各	-10.8417
行疾	-10.8418
遲行	-10.842
有丁角	-10.8422
乙從	-10.8422
游移	-10.8423
五之一	-10.8425
禁	-10.8425
月丙戌朔	-10.8427
未必	-10.8427
未免	-10.843
其緯	-10.8432
相從	-10.8432
少而	-10.8433
逺臣	-10.8433
星體	-10.8433
如圖甲為	-10.8433
次輪周	-10.8434
律呂	-10.8436
正月辛丑朔	-10.8438
宜減	-10.844
前測	-10.8441
二行差	-10.8441
算七百	-10.8443
丁卯朔	-10.8445
金環	-10.8447
視法	-10.8447
半嵗周	-10.8448
為隅法併	-10.8451
元法	-10.8453
向後	-10.8453
巳庚	-10.8454
五十步	-10.8457
一正方	-10.8461
天左旋	-10.8462
半城徑	-10.8464
六萬四千	-10.8465
於本	-10.8465
所值	-10.8469
暦法	-10.847
以減於	-10.847
便於	-10.8471
㑹於	-10.8476
以上者	-10.8479
石八斗	-10.848
二十四日	-10.8483
之比例同於	-10.8484
其幂	-10.8485
為子	-10.8486
順數	-10.8487
定星	-10.8489
三十九日	-10.8489
不與	-10.8489
斤為	-10.849
每疋	-10.8491
月丁亥朔	-10.8491
即太陽	-10.8492
四十七秒	-10.8492
逆推	-10.8494
一百兩	-10.8497
三百七十八	-10.8498
為鋭角	-10.8498
四十三分	-10.85
可考	-10.8501
以本日	-10.8502
以丙	-10.8503
也是故	-10.8503
視高	-10.8504
七千三百	-10.8508
刻强	-10.851
視度	-10.8511
辰為	-10.8512
厚角	-10.8513
一升	-10.8515
六秒四十微	-10.8516
復圓用時	-10.8518
去一	-10.8519
地形	-10.852
子丑寅	-10.852
日實度	-10.8522
列表	-10.8523
葢因	-10.8526
與乙庚	-10.8534
諸線	-10.8537
相比例	-10.8537
為羽	-10.8537
之數而	-10.8538
出銀	-10.8547
平行即	-10.8553
視經度	-10.8554
每一分	-10.8555
為大差	-10.8565
半徑線	-10.8573
尺為三率求得四率	-10.8573
數相併得	-10.8575
三因之	-10.8575
己未朔	-10.858
少于	-10.8586
惟以	-10.8586
之距度	-10.8591
恆	-10.8591
之銀數	-10.8591
距午正	-10.8592
四五二	-10.8594
正方角	-10.8595
五畝	-10.8595
癸子丑	-10.8596
一分内一秒冬至應閏	-10.8596
徑上	-10.8596
七步	-10.8597
株	-10.8599
棗	-10.8599
又倍之得	-10.8605
為二率今所設之圜徑一尺二寸	-10.8605
也如甲乙丙丁	-10.8609
塞	-10.861
如求	-10.861
秒五十微	-10.861
倚壁	-10.861
7	-10.8611
兼用	-10.8611
院	-10.8611
脊	-10.8611
助	-10.8614
二萬七千	-10.8615
之系	-10.8615
如甲乙丙	-10.8615
積一	-10.8615
日辰	-10.8616
橫	-10.8617
奥	-10.8618
矢度	-10.862
昏旦	-10.862
融	-10.8621
三箇	-10.8621
諭	-10.8622
溢	-10.8622
七十五分	-10.8623
荒	-10.8623
周天三百六十度	-10.8623
得三十二	-10.8629
高與闊	-10.863
二十面體之	-10.863
測月	-10.8631
欲得	-10.8632
大和	-10.8632
為半徑冪	-10.8632
抱	-10.8632
視距度	-10.8633
前論	-10.8637
高差	-10.8637
半在	-10.864
遊表	-10.8641
相連比例之	-10.8641
□□□□	-10.8642
得一千二百	-10.8642
往南	-10.8644
若干日	-10.8644
下周	-10.8644
諸方	-10.8646
十一日	-10.8646
十四分内二十一秒冬至	-10.865
癸丑朔十一月	-10.8653
丈四尺	-10.8657
各幾何答曰	-10.8658
太陰經度	-10.8662
兩圜	-10.8662
此圖	-10.8669
一十一萬	-10.8671
遞次	-10.8672
漢史	-10.8675
法于	-10.8678
三十年	-10.8679
乾象	-10.868
底積	-10.868
少數	-10.8685
望日	-10.8686
當於	-10.8687
餘句	-10.8687
與後	-10.8688
三歸之	-10.8689
立成表	-10.8689
午庚	-10.869
于地	-10.869
得七十	-10.8694
有光	-10.8694
重列之	-10.8698
第十三	-10.8699
較較	-10.87
七人	-10.8702
而半之得	-10.8707
皆是	-10.8708
將此	-10.8713
雖然	-10.8714
五秒五十微	-10.8715
之一面	-10.8719
二萬六千	-10.8722
子巳	-10.8723
娵訾宫	-10.8724
之里數	-10.8725
戊申朔十一月	-10.8726
星度	-10.8732
所引	-10.8733
太微	-10.8737
絶無	-10.8738
火星在	-10.8738
分一十三秒	-10.8738
在局	-10.8739
為首	-10.8739
數也設如有	-10.8742
兩平行線	-10.8745
相容	-10.8745
步五分	-10.8745
第一圖	-10.8746
股幂	-10.8747
也惟	-10.8747
萬年	-10.8748
年八月	-10.8749
開方除之	-10.875
小而	-10.8753
合朔時	-10.8755
鶉火宫	-10.8756
四曰	-10.8756
甲與丙	-10.8757
得十六	-10.8764
左傳	-10.8766
均數為	-10.8766
己午	-10.8769
次引	-10.877
兩食	-10.8773
三十四度	-10.8775
霜降	-10.8781
三分内一十一秒冬至	-10.8782
丁卯日	-10.8785
七十二步	-10.8786
求黄道	-10.879
後行	-10.8794
一萬九千	-10.8795
在次輪	-10.8802
冬至在	-10.8803
之餘度	-10.8804
于前	-10.8806
昭公	-10.8808
本天心距地數	-10.881
爽	-10.8811
星距黄道線	-10.8815
戰	-10.8817
兩腰等	-10.8818
乙未朔	-10.8818
賞	-10.8818
戊已	-10.8819
三分益一	-10.8821
肅	-10.8822
燥	-10.8824
淨	-10.8824
耀	-10.8826
并徑	-10.8826
冊	-10.8826
宇	-10.8827
天文算法類	-10.8827
黄赤距度	-10.8828
帛	-10.8829
七十六兆一	-10.8829
状	-10.883
長比闊多	-10.8831
勿菴	-10.8831
聊	-10.8832
亢氐	-10.8832
贅	-10.8833
佐	-10.8834
吕	-10.8835
卯丁	-10.8835
逾	-10.8836
植	-10.8836
而盡	-10.8839
譏	-10.8841
種種	-10.8843
有遲疾	-10.8843
百八十度	-10.8845
罪	-10.8845
一色	-10.8846
距正午	-10.8847
甲縣	-10.8851
二十八年	-10.8851
先設	-10.8851
實有	-10.8852
兩道之	-10.8854
初虧近時	-10.8854
孟春	-10.8855
每石價	-10.8855
盈縮遲疾	-10.8857
各種	-10.8858
正月丁丑朔	-10.8859
于時	-10.886
相乗得數	-10.8861
機輪	-10.8862
甲子年	-10.8864
分四十二秒	-10.8864
而得其	-10.8865
横量	-10.8865
本巻	-10.8865
直線上	-10.8865
其切線	-10.8866
日行分	-10.887
未角	-10.8871
得一十八	-10.8872
其意	-10.8872
宗皇帝	-10.8873
二分内二十一秒冬至	-10.8874
各以其	-10.8874
八千一百	-10.8875
今將	-10.8878
二十七尺	-10.888
據實	-10.8882
比原	-10.8884
不書	-10.8887
分内五十一秒冬至	-10.8888
相减餘	-10.889
也推	-10.8891
合計	-10.8893
丙丁戊己	-10.8895
萬世	-10.8896
角之切線	-10.8896
與此	-10.89
作甲丁	-10.89
月食分秒	-10.8902
五之四	-10.8903
形之邊	-10.8904
一丈三尺	-10.8906
正相對	-10.8906
和步	-10.8907
一百八	-10.8907
乗之為	-10.891
酉戌	-10.8911
論曰試作	-10.8911
居其	-10.8913
得一百一十	-10.8914
餘二十	-10.8915
之左右	-10.8916
地方	-10.8918
一个	-10.8919
八百七十	-10.892
與壬癸	-10.8921
非其	-10.8925
反覆	-10.8927
五乘方	-10.8928
三分内五十一秒冬至	-10.8932
壬子日	-10.8937
先測	-10.8946
四隅	-10.8957
北極髙度	-10.8957
更㸃	-10.8959
直田	-10.8959
兩數相減餘	-10.896
試之	-10.8962
四象	-10.8962
之例	-10.8964
識之	-10.8966
而見	-10.897
侵	-10.8972
蕤	-10.8974
三百四十八	-10.8974
一百五	-10.8974
未到	-10.8977
九升	-10.8978
乙甲丙角	-10.8978
某宿	-10.898
從地心	-10.8981
所倍之	-10.8985
步問城徑釋曰此	-10.8986
必相等	-10.8989
共銀數	-10.8991
庚子朔	-10.8992
於上以	-10.8992
甲夘	-10.8993
萬二千七百	-10.8996
髀	-10.8998
十分為一率	-10.9005
日所行	-10.9008
一八二	-10.9008
要之	-10.9011
三斤	-10.9011
印	-10.9013
二疋	-10.9013
藏經	-10.9013
測日	-10.9014
邜	-10.9015
七千二百	-10.9016
六十四尺	-10.9018
一千一百五十	-10.9021
日月星	-10.9023
二界	-10.9026
向前	-10.9026
第一法	-10.9027
寡	-10.903
哀公	-10.9031
甲乙與乙丙	-10.9033
有空	-10.9033
約分	-10.9033
正月丁未朔	-10.9036
丙子年戊子月	-10.9039
套	-10.904
脱	-10.904
跡	-10.904
弩	-10.9041
遣	-10.9044
積算九千六百九十	-10.9045
積算二千八百六十	-10.9045
其影	-10.9046
積算八千八百六十	-10.9046
六十年	-10.9046
穆	-10.9047
悖	-10.9047
紛	-10.9048
之度展開勿令移動次取	-10.9048
腳	-10.9048
平立合差	-10.9048
天運	-10.9048
大率	-10.9049
俾	-10.9049
八百三十	-10.9049
兩勾股形	-10.905
行天一周	-10.905
竣	-10.905
岳	-10.9051
開方而得	-10.9051
二長方	-10.9051
辦	-10.9052
䂓	-10.9052
太陽赤道經度	-10.9054
禄	-10.9054
蘇	-10.9054
月十四日	-10.9054
黄長弦	-10.9055
刹那	-10.9055
鉤	-10.9055
郭太史	-10.9056
根相等	-10.9057
八百八十	-10.906
臣鸞曰求	-10.9062
蘋果	-10.9062
度率	-10.9063
天秤	-10.9066
尺寸	-10.9067
黃道經度	-10.9068
始得	-10.9073
再開	-10.9077
母子	-10.9078
極南	-10.9083
先於	-10.9086
石價	-10.9087
數相併	-10.9087
者何	-10.9088
以自之	-10.9089
一丈八尺	-10.909
欽此	-10.9098
正月丁巳朔	-10.9102
千五百六十	-10.9104
隅數	-10.9104
九百五十	-10.9107
三百六	-10.9108
終於	-10.9112
子庚	-10.9113
君子	-10.9113
之數故	-10.9114
試將	-10.9115
便為	-10.9117
相並	-10.9117
在小輪	-10.9117
其分	-10.9121
卯巳	-10.9122
皆成	-10.9122
斷比例	-10.9123
總時	-10.9124
䝉	-10.9126
等題言	-10.913
上圖	-10.9131
七兩五錢	-10.9134
周率	-10.9136
復用	-10.9139
直錢	-10.9139
乗之以	-10.9142
為圓	-10.9143
七十五秒	-10.9143
再加之比例	-10.9143
一萬五千	-10.9145
在壬	-10.9148
寅庚	-10.9149
各邉	-10.9153
月十二日	-10.9154
六因之得	-10.9155
實時	-10.9157
維乘	-10.9159
度得	-10.9162
餘皆	-10.917
髙四尺	-10.9173
一三五	-10.9173
有竒而	-10.9173
東地平	-10.9175
三等邊形	-10.9176
初宮	-10.9176
之積等	-10.9176
十六步	-10.9183
五毫	-10.9183
所得四率	-10.9188
何以知	-10.9188
次商數	-10.9189
形以	-10.9189
象限弧	-10.9189
則從	-10.9192
何以知之	-10.9196
上考	-10.9196
測太陽	-10.9197
太極	-10.9199
縱積	-10.9201
二百六十四	-10.9203
初商次商	-10.9207
冬至日躔	-10.9208
步只云	-10.921
萬九千九百	-10.921
四萬四千	-10.9211
為徵	-10.9211
北極出地度	-10.9214
相與	-10.922
等謹案	-10.922
出直線	-10.922
問每	-10.9223
北至	-10.9225
某日	-10.9226
一長方	-10.9226
六十日	-10.9227
亦復	-10.923
以法除之得	-10.9232
定表	-10.9236
戌亥	-10.9236
綆	-10.9239
日躔月離	-10.9239
一五二	-10.9242
宫次	-10.9244
三辰	-10.9244
五十兩	-10.9247
五乗	-10.9249
外衡	-10.9251
相比之比例	-10.9252
新法算書	-10.9253
庚午日	-10.9257
者反	-10.9258
漸少	-10.926
除之亦得	-10.926
戊子年壬子月	-10.9261
庚子年丙子月	-10.9261
盈末厯	-10.9261
陞	-10.9262
雙魚	-10.9262
壬子年庚子月	-10.9262
挈	-10.9262
晚	-10.9262
回回厯	-10.9263
黄赤交角	-10.9263
千四百	-10.9264
莊公	-10.9264
升度時差	-10.9264
銷	-10.9264
踰	-10.9265
浸	-10.9267
何承天	-10.9267
六分内一秒冬至應閏	-10.9267
土木二星	-10.9267
化秒為三率求得四率為秒以分収之得	-10.9268
積算三千	-10.9268
二十一兆六千九	-10.9269
月恭校上	-10.9269
毅	-10.927
昀	-10.927
兼有	-10.9271
靡	-10.9274
兩圜分	-10.9276
釡	-10.9278
八十步	-10.9278
丑丙	-10.9278
兩段	-10.9279
均數時差	-10.9279
選	-10.928
方斜	-10.9283
各分	-10.9283
太祖	-10.9283
隨天	-10.9285
重列	-10.9286
恭進	-10.9286
又術	-10.9289
乙甲邊	-10.9289
五十八分	-10.9289
不甚	-10.9292
表髙	-10.9292
形求	-10.9295
日月食	-10.9296
上加	-10.9297
表裏	-10.93
乘之得數	-10.93
九十六尺	-10.9302
張衡	-10.9302
日官	-10.9309
三七五	-10.931
二分半	-10.9315
二十四時	-10.9315
之妙	-10.9316
析之	-10.9317
可當	-10.9318
其經度	-10.9319
四千五百	-10.9321
分内一秒冬至	-10.9323
年冬至	-10.9326
其大小	-10.933
為初商積	-10.933
日月交食	-10.9331
近則	-10.9333
竒數	-10.9334
七百六十八	-10.9339
求真時	-10.934
極北	-10.9341
得七十二	-10.9343
相減所餘	-10.9345
元長	-10.9346
平三角	-10.9351
弧界	-10.9352
一千四百六十一	-10.9354
一閏	-10.9354
句實	-10.9355
二分内四十一秒冬至	-10.9358
直角形有	-10.9361
餘銀	-10.9366
勾股形與	-10.9367
正四刻	-10.9367
月一日	-10.9374
二二五	-10.9374
則甲丁	-10.9374
未初	-10.9375
秋七月	-10.9376
壬巳	-10.9377
則食	-10.9383
名之	-10.9383
正方面	-10.9384
借衰	-10.9384
又四之一	-10.9385
他形	-10.9385
三百六十五度四分度之一	-10.9391
得一百五十	-10.9392
逐月	-10.9392
五十六度	-10.9394
其變	-10.9403
百位	-10.9406
遼	-10.9411
六十三分	-10.9415
天下之	-10.9418
一枚	-10.9419
難以	-10.9421
一系	-10.9424
近于	-10.9425
丈三尺	-10.9425
用次形	-10.9426
甚矣	-10.9427
弦長	-10.9429
兩直角形	-10.9429
即半徑	-10.9439
二百步	-10.944
等積	-10.9441
初得數	-10.9442
萬六千七百	-10.9444
而變	-10.9444
兩數相乘	-10.9445
各幾何荅曰	-10.9446
為小股	-10.9446
之右	-10.9448
九等邊形之	-10.9449
第三數	-10.945
等邊形之毎一邊	-10.945
只是	-10.9452
可定	-10.9454
初四刻	-10.9455
等角形	-10.9455
四秒一十微	-10.946
每日行	-10.9464
平方積	-10.9468
鶉首宫	-10.9471
相似而體勢等	-10.9472
五除	-10.9474
同用之	-10.9477
三十六兩	-10.9478
定積度	-10.948
一七五	-10.9481
則非	-10.9482
饅首	-10.9483
故下紀	-10.9483
即位	-10.9483
戍	-10.9484
交常度	-10.9485
奏聞	-10.9487
二五四	-10.9487
匏	-10.9488
四十八尺	-10.9488
堯典	-10.9489
五十九度	-10.9489
其弧	-10.949
任取一	-10.949
9	-10.949
8	-10.9491
慮	-10.9491
英	-10.9491
為下法與上法相乘除實盡	-10.9491
日月兩	-10.9492
奚	-10.9492
星増一星	-10.9492
紅	-10.9492
歌白泥	-10.9494
不定	-10.9494
帯	-10.9496
舌	-10.9497
半晝分	-10.9497
天樞	-10.9498
凑	-10.9498
二百五十二	-10.9499
朦	-10.9501
角亦等	-10.9503
之邉	-10.9503
進呈	-10.9504
遍乘	-10.9504
欹球	-10.9504
兩表相距	-10.9505
儀象志	-10.9505
台	-10.9505
併之為	-10.9506
六五四	-10.9507
乞	-10.9507
半度	-10.9512
榴	-10.9513
責	-10.9515
可得其	-10.9515
七二九	-10.9517
一千二百五十	-10.9518
庚辰朔	-10.9518
丙㸃	-10.9518
爲少	-10.952
晝夜刻	-10.952
一尺八寸	-10.9521
西儒	-10.9522
次於	-10.9522
為實倍	-10.9523
衝日	-10.9523
九刻	-10.9524
徧乗	-10.9525
宫度分秒	-10.9525
一六九	-10.9527
刻半强	-10.9527
九星	-10.9529
段一差	-10.9531
經曰	-10.9531
因知	-10.9532
此論	-10.9535
八秒二十微	-10.9536
月入	-10.9537
望策	-10.9537
然非	-10.9538
不同也	-10.9539
同式形	-10.9539
㕘	-10.9542
併得	-10.9545
五分内二十一秒冬至	-10.9546
河南	-10.955
七宫	-10.9553
太陽之行	-10.9555
引出	-10.9556
百五十	-10.956
二四六八	-10.9561
年十二月	-10.9566
不應	-10.9566
徑求	-10.9567
宻率	-10.9567
兩三角形之	-10.9567
積尺	-10.9568
甲丙弦	-10.9569
乙戊丙	-10.957
月距地	-10.9571
解曰甲乙丙	-10.9572
求初均數	-10.9575
知厯	-10.9577
丁與戊	-10.958
短長	-10.958
則將	-10.9582
正月丙辰朔	-10.9586
面皆	-10.9588
五千八百	-10.9589
復明	-10.9589
交周度	-10.9589
二十三度三十	-10.9591
生于	-10.9593
與三率	-10.9594
處作	-10.9595
元嘉	-10.9597
算經	-10.9599
向上	-10.9604
不見食	-10.9605
幾度	-10.9605
外面積	-10.9606
三眞數	-10.9606
其後	-10.9615
則謂之	-10.9618
太陽黄道經度	-10.962
之分也	-10.9623
在内	-10.9624
萬萬	-10.9625
氣盈	-10.9628
加滿	-10.9628
漸次	-10.9629
與甲等	-10.963
疾行	-10.9633
餘股	-10.9634
體之容	-10.9634
二百四十兩	-10.9634
所用之	-10.9636
均分	-10.9636
此因	-10.9637
定三	-10.9637
一千五百二十	-10.9638
兩个	-10.964
共母	-10.964
之濶	-10.964
總計	-10.9641
巳丙	-10.9642
常在	-10.9644
其率	-10.9647
一百四十四尺	-10.9647
三百尺	-10.965
底長	-10.9652
二率三率	-10.9652
弧之切線	-10.9654
百三十	-10.9658
自乙	-10.9663
丙戌朔	-10.9664
二十丈	-10.9665
亦必為	-10.9666
今測	-10.9667
三九九	-10.9668
求甲乙邊	-10.9668
又名	-10.9669
也問	-10.9669
相加為	-10.9671
也言	-10.9671
寅正二刻	-10.9675
兩頭	-10.9677
第一數	-10.9679
四斗	-10.968
戊丑	-10.9682
者盖	-10.9682
丑宫	-10.9684
二兩五錢	-10.9685
立方體	-10.9685
辛㸃	-10.9689
西説	-10.969
圭表	-10.969
也以此	-10.969
也今以	-10.9693
西國	-10.9694
六千七百	-10.9696
五十四度	-10.9696
丁㸃	-10.9698
章歲	-10.9698
何從	-10.97
戊形	-10.9703
十八人	-10.9711
一直角	-10.9713
第十四	-10.9713
臣鸞曰	-10.9714
黄道赤經交角	-10.9714
一百萬	-10.9715
歳餘	-10.9716
卯癸	-10.9717
皆自	-10.9719
蕤賔	-10.9719
得一百四十	-10.972
鈎	-10.972
七等邊形之	-10.972
邦	-10.9721
巨蟹	-10.9722
偽	-10.9723
厯算全書卷	-10.9724
括	-10.9724
獸	-10.9725
全圏	-10.9725
十二歩	-10.9726
七萬六千	-10.9727
各置	-10.9729
乙銀	-10.9729
黄平限	-10.9729
唐虞	-10.973
甲乙丙丁戊	-10.973
起復方位	-10.9731
香	-10.9732
堪	-10.9732
班	-10.9732
某宫	-10.9733
采	-10.9733
少故	-10.9734
溪	-10.9734
三十六步	-10.9734
尖圎體	-10.9735
䑓	-10.9735
時分秒	-10.9736
各㡬何	-10.9737
數相加得	-10.9738
四三二	-10.9739
一十六尺	-10.9743
腰圍	-10.9743
九萬里	-10.9744
所造	-10.9744
謙	-10.9747
餘弦檢表得	-10.9747
學習	-10.9749
相加即	-10.975
其位	-10.9751
九道	-10.9752
别作一	-10.9758
本書	-10.9759
就分	-10.9765
在天頂	-10.9765
則否	-10.9769
於辰	-10.9771
至甲	-10.9772
二十三度三十分	-10.9776
太子	-10.9777
往東	-10.9778
與半周相減餘	-10.9779
伏見行	-10.9781
但有	-10.9783
中土	-10.9785
漸移	-10.9785
二平行線	-10.9786
底弦	-10.9787
不待	-10.9788
可施	-10.9788
爻限	-10.9789
兩兩	-10.9789
八百六十	-10.9789
嵗輪上	-10.979
上下左右	-10.9796
交分	-10.9796
三十四分	-10.9797
小月	-10.9798
圓柱	-10.9801
弦筭	-10.9805
復自	-10.9806
立成内	-10.9806
由於	-10.9811
積相等	-10.9813
分為三率得四率	-10.9815
小異	-10.9818
同在一	-10.9818
漢書	-10.9822
七分内四十一秒冬至	-10.9822
之正弦若	-10.9824
其事	-10.9825
月己亥朔	-10.9825
人馬	-10.9825
極近	-10.9828
角宿	-10.9828
五千一百	-10.9828
甲戊己	-10.9828
也至於	-10.9828
卯初初刻	-10.983
之均數	-10.9833
本部	-10.9834
鶉尾宫	-10.9836
日距限	-10.9837
五萬四千	-10.9837
一百一十三	-10.9841
亦即為	-10.9843
并而	-10.9843
正交後	-10.9843
元形之	-10.9845
測法	-10.9847
丁甲丙	-10.9847
者自	-10.985
二千五百二十	-10.9852
即圜内容	-10.9853
與壬	-10.9859
四十八秒	-10.986
以從	-10.986
置一自之	-10.9863
補作	-10.9864
生焉	-10.9865
小形之	-10.9867
二十一日	-10.9869
最大者	-10.9869
愈近	-10.987
考其	-10.9871
其次	-10.9872
赤道内外	-10.9879
卷中	-10.9881
前來	-10.9884
萬一千二百	-10.9885
依法求得	-10.9888
時刻分秒	-10.9888
子在位	-10.989
依黄道	-10.9892
内徑	-10.9893
六千九百	-10.9894
之制	-10.9897
之理也	-10.9898
線之比例	-10.99
逓加	-10.9903
為二率今	-10.9904
平時	-10.9904
第二位	-10.9906
滿象限	-10.9906
正月辛巳朔	-10.9906
元濶	-10.9906
偏度	-10.9908
半强	-10.9915
刻數	-10.9916
千分	-10.9916
草中	-10.9917
測時	-10.992
亭	-10.992
二十七年	-10.992
日行度	-10.9921
横直	-10.9921
用事	-10.9924
實用	-10.9924
所作之	-10.9924
内作	-10.9925
六錢	-10.9929
求丙角	-10.9929
六十里	-10.9933
譬	-10.9933
得四千	-10.9936
轉周	-10.9937
全數十萬	-10.9939
之冪	-10.994
十字線	-10.9941
而出	-10.9942
史四月	-10.9942
罅	-10.9942
過天頂	-10.9943
為乙數	-10.9952
為對所求之角其正弦	-10.9955
逺而	-10.9955
撫	-10.9957
逮	-10.9958
喻	-10.9958
隙	-10.9958
閲二百十六期積七萬八千八百八十	-10.996
九秒一十微	-10.9961
肖	-10.9963
四分内一秒冬至應閏	-10.9964
男	-10.9965
歛	-10.9965
提要	-10.9966
霜	-10.9967
巨	-10.9967
先王	-10.9967
港	-10.9968
兩地	-10.9968
經度差	-10.9969
勾股求弦	-10.997
奪	-10.9971
宅	-10.9971
仲冬	-10.9973
迭	-10.9973
一座	-10.9973
然後以天元	-10.9974
十二面體之	-10.9977
三十斤	-10.9977
立方根	-10.9978
慎	-10.9978
與乙己	-10.9978
今據	-10.998
春分至秋分	-10.9983
游儀	-10.9985
一百六十二	-10.9987
日入分	-10.9989
號為加	-10.9992
多三根	-10.9992
在地面	-10.9993
三萬五千	-10.9994
躔離	-10.9994
蓍	-10.9997
所得銀數	-11
二徑折半	-11
相接	-11.0006
則雖	-11.0006
彗星	-11.0007
心中	-11.0007
總積六千三百	-11.0007
作圖	-11.0009
與甲壬	-11.0013
如上圖甲乙	-11.0013
戊乙丙	-11.0014
三角形面積	-11.0016
𢃄食	-11.0017
緯行	-11.0019
欽若	-11.0022
七因	-11.0023
偶數	-11.0024
時差分	-11.0026
甲未	-11.0026
小僧	-11.0026
第十六	-11.0026
權線	-11.0027
密率	-11.0028
列衰	-11.0028
宋史	-11.003
數乘之	-11.0032
積二千	-11.0038
為率	-11.0038
通數	-11.004
必過	-11.004
引數為	-11.0044
圎面積	-11.0046
萬四千三百	-11.0046
法而一	-11.0048
如圖甲乙	-11.005
三百兩	-11.0054
亦小	-11.0056
新法推	-11.0057
遍乗上	-11.0058
三百一十五	-11.006
又謂	-11.0063
自乗再乗得	-11.0064
乙㸃	-11.0065
甲已	-11.0066
七二五	-11.0068
即乙丁	-11.0069
毎度	-11.007
三長廉	-11.007
差度	-11.0071
于黄道	-11.0073
月三十日	-11.0074
五十七度	-11.0075
蔡氏	-11.0076
先論	-11.0079
上年	-11.008
更置	-11.0082
一四四	-11.0087
萬九千三百	-11.009
四卷	-11.0091
截去	-11.0092
向下	-11.0093
與戊庚	-11.0096
七八五	-11.0097
四十三度	-11.0098
最下	-11.0099
一蔀	-11.0101
晉書	-11.0101
亷隅共	-11.0104
而食	-11.0104
遍乗下	-11.0105
七秒三十微	-11.0107
五行之	-11.0109
本時太陽	-11.0113
至期	-11.0113
一秒四十微	-11.0113
則太陽	-11.0114
圓之半徑	-11.0116
二秒三十微	-11.0117
地平圏	-11.0117
日軌髙	-11.0118
臺官	-11.012
去極度	-11.0122
二人共	-11.0125
金球	-11.0131
三代	-11.0135
大陽	-11.0136
乙己丙	-11.0137
大明厯	-11.014
四七七	-11.0141
共多	-11.0143
正方積	-11.0144
亦宜	-11.0145
三千七百	-11.0145
本方	-11.0146
萬五千三百	-11.0147
之四倍	-11.0152
五曰	-11.0159
一分内二十一秒冬至	-11.016
内減二	-11.016
一十八分	-11.0161
定用	-11.0161
也何也	-11.0162
甲申朔十一月	-11.0164
均角	-11.0166
起數	-11.0169
蓋天	-11.0171
極弦	-11.0171
半弧	-11.0172
不成	-11.0173
也何則	-11.0173
以益	-11.0174
萬五千里	-11.0174
之兩端	-11.0174
五九七	-11.0175
寅癸	-11.0176
歲餘	-11.0176
四百三十二	-11.0179
拘	-11.018
太隂實	-11.0181
五等邊	-11.0181
每邊之半	-11.0181
月建	-11.0182
寅丙	-11.0183
立處	-11.0184
又倍	-11.0184
夏時	-11.0184
原列	-11.0185
與子丑	-11.0186
欹	-11.0187
九千六百	-11.0187
若先有	-11.0193
巳丁	-11.0195
察其所對之	-11.0195
其象	-11.0196
恒在	-11.0198
用表之法以	-11.0199
宛	-11.02
爾雅	-11.0201
勾股形為同式形故	-11.0202
丘	-11.0203
周行	-11.0203
相因	-11.0203
四十四日	-11.0204
草曰立天元一為	-11.0205
吉凶	-11.0206
■	-11.0206
判	-11.0207
紹	-11.0207
小輪上	-11.0207
之正切線檢表得	-11.0207
遮	-11.0208
晰	-11.0208
輒	-11.0209
劉徽	-11.0209
紀月	-11.0209
垜	-11.021
貨	-11.021
一十八萬	-11.021
又捷法	-11.0211
瞻	-11.0211
乙戊丁	-11.0213
一分内一十一秒冬至	-11.0213
賀	-11.0213
或加或減	-11.0214
兊	-11.0215
初啇	-11.0215
辛卯朔	-11.0215
核	-11.0216
昇	-11.0217
欵	-11.0217
平逺	-11.022
虎	-11.0221
滿法	-11.0221
本日太陽	-11.0221
填星	-11.0222
天頂線	-11.0222
此言	-11.0224
恆星	-11.0225
求矢	-11.0225
/○)	-11.0225
齊之	-11.0225
乙斜行	-11.0226
懐	-11.0227
一於左上為法置一	-11.0233
出没	-11.0234
十分内三十一秒冬至	-11.0234
互相視	-11.0237
弦望	-11.0237
與丙辛	-11.0238
○○/○○○)	-11.0238
物力	-11.0245
二十三年	-11.0245
居中	-11.025
八之一	-11.025
合為一線	-11.0251
空中	-11.0253
六根	-11.0254
亦能	-11.0257
鬼宿	-11.026
本宫	-11.026
四分内五十一秒冬至	-11.0261
外徑	-11.0262
十四秒	-11.0267
長一丈	-11.0268
萬八千九百	-11.0269
每加一	-11.0271
一星曰	-11.0274
前條	-11.0277
七三五	-11.0278
甲乙與丙丁	-11.028
圓心	-11.0281
正月庚戌朔	-11.0284
午線	-11.0285
再用	-11.0286
另置	-11.0286
丁乙邉	-11.0287
乙形	-11.0287
切形	-11.0289
四十八兩	-11.0289
四十八度	-11.0294
漸大	-11.0298
與球體	-11.03
原形	-11.0303
三行	-11.0304
相交於	-11.0304
不及步	-11.0304
舉其	-11.0305
兩數相加	-11.0305
應得之數	-11.0306
心戊	-11.0311
内少	-11.0312
前所得	-11.0315
則所餘	-11.0317
諸國	-11.0319
/○○)	-11.0325
臣局	-11.0327
二十八尺	-11.0328
推日食	-11.0331
子未	-11.0333
平均	-11.0333
有本行	-11.0334
一百零五	-11.0337
分之則	-11.0339
加五	-11.0339
平立	-11.034
十等邊形之	-11.0346
萬九千七百	-11.0347
在辛	-11.0351
周嵗	-11.0351
其比例為	-11.0351
得一百六十	-11.0354
股自乗	-11.0354
四歸	-11.0357
月庚辰朔	-11.036
丙外角	-11.0362
一千二百六十	-11.0366
同經	-11.0369
内寄	-11.037
萬九千八百	-11.037
各依	-11.0371
解之	-11.0371
各線	-11.0376
次依	-11.0377
為下法	-11.038
通閏	-11.0382
云云	-11.0385
二百兩	-11.0385
皆依	-11.0386
夏四月	-11.0389
黄道宫度	-11.0389
四升	-11.0392
増一	-11.0393
其較為	-11.0394
兩籌	-11.0395
之初均數	-11.0395
求用時	-11.0399
前商	-11.0402
邊較	-11.0404
戌初	-11.0406
第一測	-11.0408
縱線	-11.041
何故	-11.041
變宮	-11.0412
徴之	-11.0412
遍	-11.0415
為陽厯	-11.0416
之號	-11.0419
概	-11.0419
二立方	-11.0421
宿曜經	-11.0422
虚差	-11.0424
乃視	-11.0427
舊術	-11.043
五分内五十一秒冬至	-11.0433
異號	-11.0433
自丙至	-11.0433
午丑	-11.0442
戊心	-11.0442
三合	-11.0443
建星	-11.0445
小大	-11.0448
擔	-11.0449
與己丁	-11.0449
不惟	-11.045
七卷	-11.045
廉三長廉一小隅面積共得	-11.0451
扁	-11.0451
決	-11.0452
緩	-11.0452
得二百四十	-11.0454
欽定四庫全書厯算全書卷	-11.0454
秋分至春分	-11.0455
葉	-11.0456
分圓線	-11.0457
属	-11.0457
四時之	-11.0457
一十五萬	-11.0459
二尺四寸	-11.0459
霧	-11.0459
含	-11.046
襲	-11.0461
二十二度三十分	-11.0462
氷	-11.0462
定限行度	-11.0462
臘	-11.0462
乙丁丙角	-11.0463
赤道小弦	-11.0463
與兩直角等	-11.0464
日有食之	-11.0464
疎密	-11.0465
汝	-11.0465
棄之	-11.0465
距元	-11.0466
遊旋赤道	-11.0467
蟲	-11.0467
竭	-11.0467
粒	-11.0467
决	-11.0468
常法義曰	-11.0468
衞	-11.047
化秒為二率	-11.047
榮	-11.0471
一十二步	-11.0475
太史令	-11.0476
鼔	-11.0476
復得	-11.048
梅	-11.048
星晷	-11.0482
根必與	-11.0485
正初刻	-11.0486
從之	-11.0486
不但	-11.0487
每船	-11.0488
年即魏	-11.0491
偏北	-11.0492
不須	-11.0496
非是	-11.0498
至癸	-11.0501
六合儀	-11.0504
者去之	-11.0504
得一十六	-11.0505
于太陽	-11.0507
甲丙弧	-11.0507
一百九十八	-11.0509
歲星	-11.051
酉中	-11.0512
原長	-11.0515
從春分	-11.0519
以里法	-11.052
二千一百六十	-11.0521
變徵	-11.0522
下編	-11.0524
底闊	-11.0525
尺相乗得	-11.0526
目視	-11.0526
圓燈	-11.053
法視	-11.053
九十兩	-11.0531
故不用	-11.0533
各官	-11.0534
四歸之得	-11.0534
弦自乘	-11.0537
太隂實引	-11.0537
角之割線	-11.0537
距心	-11.0538
循黄道	-11.0538
約數	-11.0539
二三四	-11.0539
相割	-11.0547
四度五十八分	-11.0548
任用	-11.0554
初商數	-11.0555
出于	-11.0558
前位	-11.0559
大火宫	-11.0562
在庚	-11.0562
黄道半徑	-11.0563
各率	-11.0564
與戊辛	-11.0567
正月乙酉朔	-11.0569
刻有竒	-11.0572
為單	-11.0574
否則	-11.0576
中法	-11.0582
度一十四分	-11.0583
一八九	-11.0584
步至	-11.0587
之衝	-11.0589
諸率	-11.0589
百九十	-11.0589
二弧	-11.0591
自古	-11.0592
四十九度	-11.0595
千四百六十一	-11.0597
已有	-11.0598
分三十七秒	-11.0601
三角體	-11.0601
不差	-11.0601
建丑	-11.0604
相乗之數	-11.0604
夏至之日	-11.0605
密合	-11.0605
一分内四十一秒冬至	-11.0608
甲戊丙	-11.061
下袤	-11.0612
日午正	-11.0614
在中距	-11.0615
實如法	-11.062
其相當	-11.0623
酉未	-11.0624
在箕	-11.0625
于地平	-11.0625
乙卯日	-11.0625
推求	-11.0626
之表	-11.0627
四分之	-11.0628
却以	-11.0629
不改	-11.0633
次得數	-11.0634
大畧	-11.0635
萬八千五百	-11.0636
地在	-11.0638
四因之	-11.0638
減縱	-11.0638
法曰視	-11.0638
閏正月	-11.0638
八十九日	-11.0641
造厯	-11.0642
魏史	-11.0644
減併	-11.0647
歴書	-11.0648
今按	-11.065
為陽	-11.065
步與左相消得	-11.0653
月策	-11.0655
絲二忽	-11.0656
長廉法	-11.0658
四十四尺	-11.0658
表上	-11.0661
度五十八分	-11.0663
紀年	-11.0663
未定	-11.0664
得利銀	-11.0665
問曰	-11.0669
總米	-11.0675
萬三千七百	-11.068
以一率	-11.0682
三五八	-11.0687
對衝	-11.0688
七億	-11.069
理分中末	-11.0693
邊弦	-11.0694
爵	-11.0694
釜	-11.0695
石五斗	-11.0695
不等者	-11.0697
雀	-11.0699
廿七	-11.0702
一百三十六	-11.0703
皆由	-11.0703
脩	-11.0703
甲乙線上	-11.0704
列籌	-11.0704
問城徑釋曰	-11.0708
七八五三九八一六	-11.0709
兩下相較則	-11.0709
勒	-11.0709
天蝎	-11.0709
三十八分	-11.071
新法厯書	-11.0712
峻	-11.0712
夘初一刻	-11.0713
三百六十五度	-11.0713
覈	-11.0715
斜角	-11.0715
鴈	-11.0717
寒露	-11.0717
㝛	-11.0717
仲春	-11.0718
儀噐	-11.0718
角俱	-11.0718
洪武	-11.0719
黄赤距緯	-11.072
弊	-11.072
杜	-11.0721
涉	-11.0721
白露	-11.0721
迴	-11.0721
招	-11.0721
五聲	-11.0722
即金	-11.0722
垓	-11.0722
該部知道	-11.0724
圏内	-11.0724
兩箇	-11.0725
既内分	-11.0725
容員	-11.0726
内容渾圓	-11.0726
黄廣弦	-11.0726
離徑	-11.0727
其所以然	-11.0727
誕	-11.0728
與末率	-11.073
赴	-11.073
分零六秒	-11.073
輔臣	-11.0731
小差弦	-11.0732
三家	-11.0733
展轉	-11.0733
癸子丑寅	-11.0734
丁形	-11.0735
邊形之毎一邊為	-11.0737
别立	-11.0739
十一分内一秒冬至應閏	-11.0741
司馬	-11.0741
紀元	-11.0743
而能	-11.0744
籌之	-11.0746
便以	-11.0748
為星距	-11.0748
丙未	-11.0749
四周	-11.0752
未詳	-11.0753
欲知其	-11.0753
銀球	-11.0755
相和折半	-11.0757
甲丙乙角	-11.0758
在午正	-11.0763
金牛	-11.0769
之比又	-11.0769
五九三	-11.0773
朔率	-11.0778
實距時	-11.0787
此處	-11.0788
口徑	-11.0791
史稱	-11.0798
弦和	-11.08
一分五十秒	-11.08
月壬戌朔	-11.0802
第十五	-11.0803
用時兩心視相距	-11.0806
法首	-11.0809
測逺	-11.081
算者	-11.0811
先于	-11.0815
自丁至	-11.0815
減定差	-11.0817
段日	-11.0817
乙丙弦	-11.0824
等故以	-11.0827
不失	-11.0828
轉中	-11.083
一七六	-11.0833
總價	-11.0834
山頂	-11.0834
風雨	-11.084
輻	-11.0842
表杆	-11.0844
與乙丙邊	-11.0846
内子	-11.0851
厯術	-11.0851
亦必相等	-11.0861
星象	-11.0861
赤道極	-11.0862
而言之	-11.0864
度一十一分	-11.0864
誤推	-11.0865
有逺近	-11.0868
與否	-11.0871
半員	-11.0877
壬申朔	-11.0878
十六萬	-11.0878
算家	-11.0879
數也此	-11.0879
一千二百八十	-11.088
今所求	-11.088
六分之五	-11.0883
一百三十五度	-11.0884
為一直線	-11.0884
泛率	-11.0886
餘二百	-11.0887
二段	-11.0888
每期三百六十五日二時七刻	-11.0895
二百二十四	-11.0897
弧矢積	-11.0897
甲斜行	-11.0897
又等則	-11.0898
本局	-11.09
八因之得	-11.0902
相乗為實	-11.0904
失行	-11.0904
如上法	-11.0905
□○□	-11.0906
對弧餘弦	-11.0906
太半	-11.0906
月壬申朔	-11.0907
體形	-11.0907
測影	-11.0908
五十秒	-11.0915
亦不等	-11.0915
冬正	-11.0924
二萬三千	-11.0925
為太陽距	-11.0928
一八四	-11.0936
十有五	-11.0937
為甲衰	-11.0938
壬戌朔	-11.0941
荅	-11.0942
寅子	-11.0944
上下廣	-11.0949
二百八十九	-11.0949
求外切	-11.0958
方中	-11.0958
史官	-11.0959
勾股相乘	-11.096
最中	-11.0962
畔	-11.0962
最大兩心差	-11.0963
芻蕘	-11.0967
一一五	-11.0969
交實緯角	-11.0969
閣	-11.0969
葬	-11.097
中廣	-11.0973
後來	-11.0974
多二根	-11.0974
近世	-11.0976
以補	-11.0976
分九十三秒	-11.0977
頓	-11.0978
賾	-11.0978
乘之爲	-11.0978
五行志	-11.0978
茍	-11.0978
測圓海鏡	-11.098
算數	-11.098
氂	-11.098
疎宻	-11.098
左右各	-11.098
遲厯	-11.0981
知道了	-11.0981
以少減多	-11.0981
為主而	-11.0982
宰	-11.0983
此題	-11.0984
迎	-11.0984
夲	-11.0985
三五五	-11.0985
織女	-11.0986
也此法葢因	-11.0986
輩	-11.0986
矣葢	-11.0987
誣	-11.0987
寺	-11.0988
新增	-11.0988
吹	-11.0989
咎	-11.0989
黄道宿次	-11.099
次取	-11.0992
糴	-11.0992
二萬二千	-11.0992
防	-11.0993
復置	-11.0994
九錢	-11.0994
星距日	-11.0995
臨期	-11.0996
折中	-11.0997
永短	-11.0999
七錢五分	-11.1
丙申朔十一月	-11.1003
大綂	-11.1003
歴代	-11.1004
北極下	-11.1005
雄	-11.1006
右一條	-11.1007
之餘弦為二率	-11.1012
頒行	-11.1015
一百六十九	-11.1017
出本銀	-11.1019
行天	-11.1021
切綫	-11.1023
角之餘	-11.1024
廿九	-11.1026
三十微	-11.1028
辰寅	-11.1032
末均	-11.1033
徧乘	-11.1033
乘之為	-11.1041
𢃄縱	-11.1045
甲角之正弦	-11.1045
二分内一十一秒冬至	-11.1048
試觀	-11.1051
首卷	-11.1052
正月癸丑朔	-11.1053
或云	-11.1053
三十六萬	-11.1058
少强	-11.1059
補成	-11.1062
永和	-11.1063
同髙	-11.1063
而求其	-11.1064
元線	-11.1064
能見	-11.1065
荅曰	-11.1069
太陽距地	-11.1069
邊之較	-11.1071
環田	-11.1071
丙縣	-11.1072
按多	-11.1074
方徑	-11.1075
候氣	-11.1075
壽星宫	-11.1077
次以初商	-11.108
象限九十度	-11.1081
已經	-11.1081
與丙庚	-11.1084
附於	-11.1084
變化	-11.1085
一百五十二	-11.1085
而取其	-11.109
向甲	-11.109
天柱	-11.109
月二十八日	-11.1094
自戊至	-11.1101
發光	-11.1101
兩平分之	-11.1102
一十二秒	-11.1104
愈小	-11.1104
等面	-11.1105
較冪	-11.1105
首末	-11.1107
至冬至	-11.1107
明和	-11.1108
得若干	-11.1112
規矩	-11.1113
南斗	-11.1114
丈一尺	-11.1116
丁角正弦	-11.1117
大梁宫	-11.1119
一日一周	-11.1122
絲一斤	-11.1124
如法乗	-11.1124
為厯元	-11.1126
食甚後	-11.1126
九千九百	-11.1126
四十兩	-11.1129
兩邊各	-11.1132
除之所得	-11.1133
兩邊等	-11.1133
同積	-11.1139
兩盈	-11.114
二丈四尺	-11.114
即命為	-11.114
為小差	-11.1143
丁數	-11.1151
朔虚	-11.1151
一千三百五十	-11.1163
分度之一	-11.1164
樞心	-11.1171
六一八	-11.1173
取數	-11.1178
得三萬	-11.1179
不逺	-11.1186
從庚	-11.1189
一千九百二十	-11.1189
六億	-11.1191
帝座	-11.1192
日食在	-11.1192
旬周	-11.1194
較前	-11.1196
直徑	-11.1197
徑自乘	-11.1197
五七五	-11.1205
所有之	-11.1207
度一十八分	-11.1208
箏	-11.121
一一四	-11.1217
乙辰	-11.1219
四錢	-11.122
戊酉	-11.122
傳云	-11.1223
得三百六十五日二十四刻	-11.1224
袋	-11.1226
一層	-11.123
未入	-11.123
三二一	-11.1233
尚在	-11.1233
壘	-11.1234
蕤賓	-11.1235
六十四寸	-11.1235
相叅直	-11.1236
雍	-11.1238
洋	-11.1238
敗	-11.1239
線之上	-11.124
兵數	-11.124
磨羯	-11.1242
僖	-11.1243
渺	-11.1243
由是觀之	-11.1243
砌	-11.1244
厘	-11.1244
豐	-11.1245
于壬	-11.1246
平亷法	-11.1246
年前	-11.1247
四分日之一	-11.1247
陌	-11.1247
㑹于	-11.1248
遡	-11.1248
再置	-11.1249
衆界形	-11.1249
恩	-11.125
相減即得	-11.125
鑒	-11.1251
不宜	-11.1252
怪	-11.1252
四象限	-11.1252
齋	-11.1252
冶	-11.1252
繕	-11.1255
懼	-11.1255
則不然	-11.1256
逺臣湯若望	-11.1256
兩心之差	-11.1256
願	-11.1256
推得是年	-11.1259
丙與乙	-11.1259
姓	-11.1259
烈	-11.1259
觀象臺	-11.126
御覽	-11.126
黎	-11.126
年為萬厯	-11.1261
畏	-11.1263
第二法	-11.1263
為相當比例四率	-11.1264
天竺	-11.1264
實高	-11.1265
甲申朔	-11.1266
與城相叅直	-11.1266
初虧復圓距弧	-11.1271
從丁作	-11.1272
相聨	-11.1273
六爻	-11.1273
元豐	-11.1274
今有粟	-11.1276
定朔弦望	-11.1276
總圖	-11.1281
用時東西差	-11.1284
極下	-11.1287
耳若	-11.1289
二四六	-11.1292
察其	-11.1293
大差弦	-11.1293
三廣	-11.1296
相傳	-11.1296
之經緯	-11.1296
十八丈	-11.1297
癸午	-11.1299
零八分	-11.1303
昏明	-11.1305
一尺七寸	-11.1305
減半周之餘	-11.1305
月二十九日	-11.1308
丙戌朔十一月	-11.131
臣部	-11.131
時時不同	-11.1312
巳正	-11.1315
第二星	-11.1315
圖說	-11.1315
田苗	-11.1324
歳實	-11.1325
各若干法以	-11.1327
九億	-11.133
其所得	-11.1332
百千	-11.1335
甲酉	-11.1339
四海	-11.1341
倍大於	-11.1342
兩勾	-11.1343
日及分	-11.1343
卯寅	-11.1344
夜半後	-11.1345
皆相等	-11.1347
戊丁丙	-11.1348
太虚弦	-11.1353
水土	-11.1355
五十七分	-11.1362
㡬何法以	-11.1362
至第	-11.1363
其行度	-11.1368
第一行	-11.1368
同減餘	-11.1369
七三二	-11.1371
測器	-11.1372
不移	-11.1373
為二率半徑一千萬為三率求得四率為	-11.1376
至午	-11.1377
甲丙丁角	-11.1378
此問	-11.1381
測恒星	-11.1386
距黄道北	-11.1387
線相交	-11.1387
一圖	-11.1391
長方體形	-11.1391
二十七寸	-11.1393
四十八刻	-11.1393
可約	-11.1397
一百二十步	-11.1399
司辰	-11.1401
與壬辛	-11.1402
爲法以	-11.1404
是非	-11.1408
食十分	-11.1412
徴也	-11.1414
用切線	-11.1418
四千四百	-11.1422
之比即	-11.1428
甲乙丙角形	-11.1428
甲丁弧	-11.143
建亥	-11.1433
四十一分	-11.1434
兩平分于	-11.1435
一二三	-11.1436
晦日	-11.1437
正割線	-11.1438
大形之	-11.1448
長八尺	-11.1448
一八三	-11.1449
去北極	-11.1449
甲多	-11.1451
收之	-11.1452
第二測	-11.146
景差	-11.1462
西史	-11.1464
之所在	-11.1466
三率法	-11.1466
一二九	-11.1466
退合	-11.1467
丑乙	-11.147
之殊	-11.1471
午丙	-11.1471
稍偏	-11.1474
陽生	-11.1476
滿一周	-11.1483
安置	-11.1484
月自行	-11.1486
三分内三十一秒冬至應閏	-11.1488
乙卯朔	-11.1489
為法以除	-11.1492
翻	-11.1494
初分	-11.1495
一平方多	-11.1498
高弧交角	-11.1501
厯積年	-11.1503
虹	-11.1503
最小兩心差	-11.1508
八萬四千	-11.1509
幾何法先	-11.1509
址	-11.151
戎	-11.151
角旁兩弧	-11.1512
逐宫逐度	-11.1513
各幾何法借一根為	-11.1514
平行實行之差	-11.1514
白虎	-11.1516
極至交圏	-11.1516
眀	-11.1518
兩數相加得	-11.1518
距正交	-11.1518
圓球徑一尺二寸	-11.1519
博士	-11.1522
村	-11.1522
羅睺	-11.1522
為勾求得	-11.1522
卓	-11.1523
騰	-11.1523
二分内三十一秒冬至應閏	-11.1524
夜望月食	-11.1525
出線	-11.1525
獅子	-11.1525
患	-11.1526
坎艮	-11.1526
為勾求得股	-11.1526
嶽	-11.1526
詭	-11.1526
夜食不書	-11.1527
陀	-11.1528
劉歆	-11.1529
肩	-11.1529
伏見實行	-11.1529
削	-11.153
輯	-11.1531
迥	-11.1531
洪範	-11.1532
月距日實行	-11.1532
每畝	-11.1533
正月庚子朔	-11.1534
帶食兩心相距	-11.1534
當食不食	-11.1536
續商	-11.1536
我皇上	-11.1539
暇	-11.1539
刺	-11.154
無緯度	-11.1542
赤道圏	-11.1543
一千二百九十六	-11.1543
逹	-11.1545
連乘	-11.1545
更加	-11.1546
八十二秒	-11.155
九九七	-11.1551
客星	-11.1551
直綫	-11.1554
一百七十八	-11.1554
平堆	-11.1554
之比即如	-11.1556
平行經度	-11.1558
筆算	-11.1559
三萬八千	-11.1562
從亷	-11.1563
己庚辛壬	-11.1564
不盡之數	-11.1564
糶	-11.1565
子午規	-11.1566
平視	-11.1566
等邊三角形	-11.1567
一六二	-11.1567
于初商	-11.1567
五年正月	-11.1568
粟米	-11.1569
八毫	-11.1569
之日分	-11.157
之比例則	-11.1571
得一萬五千	-11.1571
兩數相併得	-11.1572
分母不同	-11.1573
之總數	-11.1573
馬數	-11.1573
太𤣥	-11.1574
樞輪	-11.1575
長方之長	-11.1576
見界	-11.1579
黄鐘為	-11.1581
七十二兩	-11.1581
九十六分	-11.1582
新星	-11.1583
術為以	-11.1584
為城徑	-11.1586
一百七十四	-11.1587
其理一也	-11.1587
五十五度	-11.1588
癸卯年	-11.1591
從右	-11.1592
日行率	-11.1594
四六七	-11.1596
以聞	-11.1598
南北緯度	-11.1599
變率	-11.1599
氣䇿	-11.16
五十一分	-11.1604
參直	-11.1609
横徑	-11.161
已來	-11.1611
七一五	-11.1612
七尺五寸	-11.1613
於上又以	-11.1613
金木	-11.1615
月視行	-11.1618
分面線	-11.1619
線引長	-11.162
掩食	-11.1622
於癸	-11.1623
向乙	-11.1623
正升	-11.1624
二十四丈	-11.1624
近北	-11.1626
三十二日	-11.1627
三平均	-11.1633
戌初初刻	-11.1636
餘切線	-11.1641
絲六忽	-11.1641
太隂平行	-11.1642
八十四分	-11.1642
又引	-11.1642
與半周相減	-11.1646
爲句	-11.165
正東西	-11.1651
丙戊丁	-11.1652
納糧	-11.1654
經緯度分	-11.1657
乙縣	-11.1658
五十寸	-11.1658
數學	-11.1665
也於是	-11.1667
此地	-11.1673
地平上之	-11.1676
推食甚	-11.1677
天盤	-11.1679
七六八	-11.1681
正交平行	-11.1683
亦可用	-11.1684
丙甲邊	-11.1685
六十四步	-11.1686
乙丁邉	-11.1689
須用	-11.169
得二十九日五十三刻	-11.1692
置一自乘再乘	-11.1695
解曰此	-11.1696
更正	-11.1699
長濶和	-11.1699
推月食	-11.17
也故曰	-11.1706
宫八度	-11.1706
所換	-11.1707
北河	-11.1707
乗積	-11.1708
同徑	-11.1709
二十四步	-11.1711
並無	-11.1713
又倍之	-11.1715
日出入時	-11.1718
之理同	-11.1721
實朔望	-11.1721
火土	-11.1722
辰丙	-11.1722
兩縱	-11.1724
正月戊申朔	-11.1725
人所見	-11.1726
積為實	-11.1729
壽星	-11.1731
距黄道南	-11.1731
十三度有竒	-11.1732
刻入食限	-11.1732
一歳	-11.1733
五升	-11.1734
一分之數	-11.1736
推太陽	-11.1737
所取	-11.1739
以上皆	-11.175
五千三百	-11.1751
漏刻	-11.1753
盈初	-11.1754
加三倍	-11.1754
若全數與	-11.1761
見大	-11.1763
底方	-11.1763
皆可以	-11.1763
冲日	-11.1763
元統	-11.1767
必小於	-11.177
沈	-11.1771
三三九	-11.1772
等官	-11.1775
與之等	-11.1776
閏在	-11.178
二百尺	-11.1782
斜徑	-11.1783
六十七度	-11.1783
甲辰朔十一月	-11.1784
二百五十五	-11.1787
改定	-11.1787
星距日次引	-11.179
其所以	-11.1791
遊表看	-11.1794
地居	-11.1795
爲所求率	-11.1796
粺米	-11.1796
八萬一千	-11.1797
穀雨	-11.1798
交周升度差	-11.1798
零六分	-11.1799
䓁	-11.1803
月視黄緯	-11.1803
滋	-11.1803
二八四	-11.1805
寬	-11.1806
訣	-11.1807
為嵗首	-11.1808
軒轅大星	-11.1808
夘正三刻	-11.1808
桓公	-11.1808
亥甲	-11.1808
狼	-11.1808
玄	-11.1809
年正月辛丑朔十一月	-11.181
天正經朔	-11.181
普	-11.1811
契	-11.1811
㸔	-11.1812
匪	-11.1813
額	-11.1813
出南門直行	-11.1813
初虧至食甚	-11.1813
縱廉	-11.1813
利瑪竇	-11.1815
兩句股形	-11.1815
偃	-11.1815
往來	-11.1815
簡平儀	-11.1815
帶兩縱	-11.1815
二百七十二	-11.1816
弦與勾股和之較	-11.1816
曾	-11.1817
嘉靖	-11.1817
豕	-11.1818
採	-11.1819
弧之通弦	-11.1819
振	-11.182
蕩	-11.182
成書	-11.182
銜	-11.182
南極入地	-11.1821
勾弦求股	-11.1821
数	-11.1821
朱氏曰	-11.1822
斜絡	-11.1822
傾	-11.1823
貴賤	-11.1823
臣李天經謹題為	-11.1824
丁戊弧	-11.1825
淫	-11.1825
句與股	-11.1825
走	-11.1826
簫	-11.1826
社	-11.1826
貝	-11.1827
形相似而體勢等	-11.1829
心丁	-11.1829
其色	-11.183
不應食	-11.1832
叠	-11.1833
最遲	-11.1835
本形之	-11.1837
循環	-11.1838
匣	-11.1839
九十五分	-11.1845
戚	-11.1847
四一四	-11.1847
南京	-11.1851
斗牛	-11.1851
學士	-11.1855
欲求其	-11.1855
月交二十七日	-11.1856
至九十度	-11.1857
相加即得	-11.1859
千零九十	-11.1861
所函	-11.1864
一十五步	-11.1866
形之面積	-11.1867
東西南北差	-11.1867
三百一十二	-11.187
論曰凡	-11.187
如是則	-11.1871
添積	-11.1872
邊之正弦	-11.1875
值宿	-11.1876
時差總	-11.1876
半弱	-11.1879
分零八秒	-11.188
旁通	-11.1882
庚㸃	-11.1883
次均輪心	-11.1883
五百里	-11.1885
四百九十九	-11.1885
火星平行	-11.1887
徑差	-11.1888
本圖	-11.1889
泰西	-11.1894
歩數	-11.1895
末行	-11.1899
一十九分	-11.19
兩方形	-11.1901
初三日	-11.1903
寅卯辰	-11.1904
處士	-11.1905
十二斤	-11.1906
四十二日	-11.1906
水深	-11.1907
故將	-11.1908
正線	-11.1911
春分前	-11.1913
酉正二刻	-11.1917
九八四	-11.1918
為大弦	-11.1918
小角	-11.1918
横列	-11.1923
轉儀	-11.1923
滿景	-11.1924
漸減	-11.1925
以三乘	-11.1927
外切立方	-11.1931
一千六百二十	-11.1931
每一邊之數	-11.1934
壬卯	-11.1936
石數	-11.1936
為廉法	-11.1941
法先求	-11.1943
最大差	-11.1943
少一平方	-11.1943
三尺五寸	-11.1944
赤道經緯	-11.1946
半規	-11.1947
後六宫	-11.1951
游表	-11.1952
正月己酉朔	-11.1955
二亷	-11.1955
時三刻	-11.1959
角俱等	-11.1962
髙低	-11.1962
圓方	-11.1967
七六六	-11.1975
九十尺	-11.1986
重天	-11.1986
視之則	-11.1991
八十七分	-11.1994
萬七千七百	-11.2
各曜	-11.2001
天經	-11.2005
甲乙丁丙	-11.2007
卯時	-11.2007
毎年	-11.201
入厯	-11.2011
弧之矢	-11.2014
為第一率	-11.2016
為六十度	-11.2016
八千八百	-11.2021
併法	-11.2021
勾率	-11.2022
無疑矣	-11.2024
成一直線	-11.2026
小方形	-11.2028
一百二十尺	-11.2029
從古	-11.2031
八斗	-11.2033
面平行	-11.2034
日有竒	-11.2039
八九六	-11.2042
高庳	-11.2044
癸卯朔	-11.2046
東出	-11.2046
為隂厯	-11.2048
度零三分	-11.2048
兩切線	-11.205
漸長	-11.2055
可據	-11.2058
其制	-11.2059
疇	-11.2062
二丈五尺	-11.2062
至秋分	-11.2064
赤道之下	-11.2067
本圏之	-11.2069
步為從	-11.2073
數十年	-11.2076
一寸二分	-11.2078
九二一	-11.2081
之比也設如	-11.2082
為轉終	-11.2083
一九七	-11.209
仲康	-11.2091
一頭	-11.2092
三百六十五日四分日之一	-11.2093
兩星之	-11.2093
大句股	-11.2094
減一餘	-11.2095
斜行步	-11.2095
鴨	-11.2095
单	-11.2095
今推至日合	-11.2099
缸	-11.21
以減半周得	-11.21
煖	-11.21
正方體之每一邊	-11.21
揜	-11.2101
三百零	-11.2102
經云	-11.2104
六八八	-11.2105
對兩心實相距角	-11.2106
驟	-11.2106
釋曰此	-11.2106
尉	-11.2107
寓	-11.2108
自上而下	-11.2109
圓環形	-11.211
三百五十四日	-11.211
銘	-11.2111
其緯度	-11.2111
六千五百六十一	-11.2111
開皇	-11.2111
袁	-11.2112
伏乞	-11.2113
亘	-11.2113
波	-11.2114
刑	-11.2116
明邢雲路撰	-11.2116
斜倚	-11.2116
真時視行	-11.2116
在天頂北	-11.2117
鉅	-11.2117
黄赤道内外	-11.2118
一兩五錢	-11.2118
奉聖㫖這	-11.212
庶幾	-11.2122
渾蓋	-11.2122
積尸氣	-11.2124
得二千四百	-11.2127
一百五十步	-11.2128
原母	-11.2132
匀分	-11.2132
小差勾	-11.2136
積求邊	-11.2137
正月丙戌朔	-11.2138
日夜	-11.214
平面形	-11.2141
三人共	-11.2142
八十四度	-11.2142
耳今	-11.2143
西地平	-11.2143
同居	-11.2144
絲八忽	-11.2145
經書	-11.2145
識其	-11.2147
甲乙丙勾股形	-11.215
綱目無	-11.215
若丁戊	-11.2152
十五丈	-11.2153
追及	-11.2155
午壬	-11.2159
不息	-11.216
舊説	-11.216
申戌	-11.2161
丙乙弧	-11.2162
萬零六百	-11.2162
取底	-11.2162
樞軸	-11.2164
矣且	-11.2166
南船	-11.2166
丁丙戊	-11.2167
相會	-11.2169
二根多	-11.217
假數尺	-11.2179
補足	-11.2182
其視徑	-11.2184
正月丙申朔	-11.2189
地影半徑	-11.2189
千二百黍	-11.219
先儒	-11.2191
七十兩	-11.2195
庚子朔十一月	-11.2196
過午	-11.2201
正月壬申朔	-11.2201
剖至	-11.2201
一七七	-11.2203
大小差	-11.2204
求丁角	-11.221
其勢	-11.2213
朔朢	-11.2216
晨伏	-11.2216
依赤道	-11.2224
六十二度	-11.2224
最卑行	-11.2224
所函之	-11.2225
六十九度	-11.2226
二十一年	-11.2232
午乙	-11.2239
縱亷	-11.224
有餘為三率求得四率	-11.2244
正月乙未朔	-11.2244
易知	-11.2247
與丁庚	-11.225
初㸃	-11.2251
與甲丙邊	-11.2252
六五八	-11.2253
系凡	-11.2255
四五五	-11.2257
無中氣	-11.2257
交赤道	-11.2259
㑹通	-11.2261
左氏	-11.2262
四種	-11.2264
不合者	-11.2266
酉初二刻	-11.2267
體勢	-11.2267
二尺二寸	-11.2269
為長方積	-11.227
邊等形	-11.2272
五之三	-11.2273
漸多	-11.2273
二十四年	-11.2277
自相乘	-11.2277
有二其一	-11.2278
二十萬	-11.2281
㸃位	-11.2281
求乙丙邊	-11.2284
第三位	-11.2289
所經	-11.2289
折半即得	-11.229
五七六	-11.2293
多一平方	-11.2298
一分半	-11.2299
其面積	-11.2301
候至	-11.2303
辰子	-11.2309
設如甲乙丙	-11.231
丙辰朔十一月	-11.2311
四五八	-11.2312
案此	-11.2322
萬億	-11.2322
難定	-11.2325
四度五十	-11.2326
石為二率	-11.2328
有時而	-11.2332
與乙丙平行	-11.2338
相交處	-11.2338
求帶食	-11.2339
正月乙亥朔	-11.2341
庚戌朔十一月	-11.2347
歲行	-11.2351
三均數	-11.2355
恒見	-11.2355
即同於	-11.2355
五九八	-11.2358
距赤道度	-11.2359
未正一刻	-11.236
距頂	-11.2361
夜食	-11.2362
不離	-11.2363
周官	-11.2365
收作	-11.2366
儀上	-11.2375
卯乙	-11.2378
月初二日	-11.2379
之數葢	-11.238
四十刻	-11.2384
兩叚	-11.2385
朔望時	-11.2386
距月天最高	-11.2388
變時得	-11.2388
也合問或問	-11.2388
小餘八	-11.2388
二星曰	-11.239
一年之	-11.239
爲所有率	-11.2393
爲所有數	-11.2393
不得其	-11.2394
為對所知之角其正弦	-11.2399
平道	-11.2399
再減	-11.24
年正月己夘朔十一月	-11.24
之視徑	-11.24
璿璣	-11.2401
琴	-11.2403
逕	-11.2403
朦朧	-11.2403
糳米	-11.2404
銳角形	-11.2405
為腰置尺	-11.2405
鄭伯	-11.2406
=	-11.2406
欽定四庫全書御製數理精藴下編卷	-11.2406
擧	-11.2406
步天歌	-11.2407
無誤	-11.2407
週	-11.2407
敘	-11.2407
既外	-11.2408
酉初	-11.2408
日距月最高	-11.2408
楮	-11.241
慿	-11.241
欽定四庫全書子部六	-11.241
五百八十八	-11.241
東行三百二十步	-11.241
蘭	-11.2411
享	-11.2412
兩價	-11.2412
二千一百八十七	-11.2412
蟄	-11.2413
輙	-11.2413
勾自乗之一正方	-11.2414
勾股弦總和四十尺	-11.2414
隊	-11.2414
歐邏巴	-11.2415
日在最高	-11.2415
帶零分	-11.2416
三邉形	-11.2416
年正月戊辰朔十一月	-11.2416
丹	-11.2417
長方堆	-11.2418
昊	-11.2419
年正月辛酉朔十一月	-11.2419
九一四	-11.2419
五七八	-11.2419
西北隅	-11.242
璣	-11.242
之正中	-11.242
天河	-11.2421
見東方	-11.2421
何所	-11.2422
正月壬戌朔	-11.2425
合初商次商	-11.2426
冰	-11.2426
年間	-11.2427
是八月	-11.2429
耗米	-11.243
斜立	-11.2435
通軌	-11.2435
䕶	-11.2436
隂氣	-11.2438
授時推是年	-11.2439
扣	-11.2441
黄道高弧交角	-11.2446
塹堵體	-11.2447
初出	-11.2449
縂銀	-11.245
暗體	-11.2451
四二六	-11.2452
秒四十微	-11.2453
小弓	-11.2454
邵子	-11.2456
太弱	-11.2457
大辰	-11.2458
甲南行步	-11.2466
太陽實引	-11.2468
多二平方	-11.2468
總積六千二百	-11.2474
用互乘	-11.2475
萬六千里	-11.2477
五九九	-11.2478
詳矣	-11.2479
戌宫	-11.2482
轉球	-11.2483
實如法得一	-11.2483
圓球半徑	-11.2484
始于	-11.2485
幾何度分	-11.2488
九服	-11.2489
六七九	-11.249
三角積	-11.2491
變異	-11.2491
太初厯	-11.2491
夘正一刻	-11.2491
月二十四日	-11.2497
不空	-11.2498
月初六日	-11.2499
一千四百四十分	-11.2501
用正弦	-11.2502
甲己丙	-11.2503
平邊	-11.2504
次輪心距地	-11.2508
可省	-11.2509
九執	-11.2509
辰戊	-11.251
法變通	-11.2512
指線	-11.2512
甲外角	-11.2513
侵入	-11.2514
日與月	-11.2514
史閏四月	-11.2517
九分之一	-11.2519
陽馬體	-11.2522
可以互	-11.2524
丁戊丙	-11.2526
為負隅	-11.2532
二系	-11.2536
十萬分之	-11.2539
八十里	-11.254
二分内五十一秒冬至	-11.2544
有一定之	-11.2547
四十一度	-11.2559
本儀	-11.2561
圓孔	-11.2566
全史日至源流卷	-11.2573
之比例亦若	-11.2573
相減之餘	-11.2574
己卯朔十一月	-11.2576
紀限	-11.2577
初度至	-11.2583
卯子	-11.2584
此二線	-11.2585
三十五日	-11.2586
冪内減	-11.2588
八二六	-11.2588
二二四	-11.2592
月二十六日	-11.2596
六四七	-11.2597
一分内五十一秒冬至應閏	-11.2598
中位	-11.26
以髙乗之	-11.2601
始能	-11.2602
七十三度	-11.2602
亥初	-11.2613
與甲乙等	-11.2617
辰正	-11.2618
從赤道	-11.2618
萬七千四百	-11.2618
逆數	-11.2623
太隂半徑	-11.2623
後倣此	-11.2626
正月甲辰朔	-11.2626
弧角	-11.2631
三角錐	-11.2633
圜分角	-11.2637
正月己丑朔	-11.2638
人事	-11.2641
鎮	-11.2642
所繇	-11.2646
六千三百	-11.2647
天學	-11.2648
八九七	-11.265
七分五釐	-11.2651
此條	-11.2653
一鈍	-11.2658
甚小	-11.2661
按舊	-11.2661
黄道圏	-11.2664
丑未	-11.2666
八十斤	-11.2667
子卯	-11.2668
二七五	-11.267
一百一十六	-11.2671
癸亥朔	-11.2671
厯議	-11.2672
五十七日	-11.2673
推步之	-11.2674
高低	-11.2674
崇禎九年	-11.2675
句股錐	-11.2675
二三六	-11.2679
畆法	-11.268
直立	-11.2683
所帶	-11.2684
一四五	-11.2685
角其度	-11.2686
十九兆	-11.2687
次輪心距	-11.2689
所著	-11.269
寅甲	-11.2692
二百七十度	-11.2693
己形	-11.2693
術曰先置	-11.2694
涼	-11.2696
相減得較	-11.2698
距日天最高	-11.2702
帶一縦	-11.2703
乙酉朔十一月	-11.2703
甄鸞	-11.2705
大角星	-11.2705
兩經斜距	-11.271
吏	-11.2711
闇虛	-11.2711
宫至十一宫	-11.2712
尺書於原積之下相減餘	-11.2713
潤	-11.2714
長圓	-11.2714
午己	-11.2715
狩	-11.2715
與九十度相減餘	-11.2715
為廉法以除	-11.2716
或大或小	-11.2717
從地心甲計之當本天之	-11.2717
兒	-11.2718
第三行	-11.2718
庚辛線	-11.2719
之正切線為三率求得四率為	-11.2719
必小于	-11.272
對距弧角	-11.272
如圖甲為地心	-11.272
味	-11.2722
三百九十八日八十	-11.2722
九執暦	-11.2723
甲乙二人俱在	-11.2724
勘	-11.2725
賔	-11.2725
對兩心視相距角	-11.2726
塗	-11.2726
嗟	-11.2726
翻譯	-11.2726
斗建	-11.2726
季秋	-11.2726
几	-11.2727
譜	-11.2728
仙	-11.2729
凡三角形	-11.273
太初元年	-11.2731
様	-11.2731
亟	-11.2732
刪	-11.2732
隔二位	-11.2732
圓束	-11.2734
下層少	-11.2735
肆	-11.2735
太宗	-11.2739
肯	-11.2739
三十丈	-11.2739
心之距	-11.274
京房	-11.274
王良	-11.2742
股自乗之一正方	-11.2742
半強	-11.2744
犬	-11.2744
兩分子	-11.2747
晴	-11.275
為隅算	-11.2758
劉向	-11.276
夜短	-11.2765
十三分内三十一秒冬至應閏	-11.2766
重差	-11.2772
與甲丙等	-11.2774
三分損益	-11.2775
雙差	-11.2776
不及減者加	-11.2778
互異	-11.2782
等户	-11.2787
五十五日	-11.2787
八分内二十一秒冬至	-11.2788
長闊和	-11.2793
甚㣲	-11.2793
依法求	-11.2793
成三角形	-11.2794
句股相乗	-11.2801
新圖	-11.2804
度一十九分	-11.2804
甲乙弦	-11.2804
兩分之	-11.2806
互用	-11.281
正月庚申朔	-11.2816
重測	-11.2816
厥後	-11.2819
十餘年	-11.2822
球面	-11.2822
歟曰	-11.2823
所切	-11.2824
名家	-11.2826
太陽所躔	-11.2826
五一六	-11.2828
而列之	-11.2828
無他	-11.283
尺即初商	-11.2832
疾厯	-11.2835
四分七釐	-11.2836
世界	-11.2836
次輪最近	-11.2836
全弦	-11.2836
宮界	-11.2837
加上位	-11.2838
食甚距時	-11.2839
中交後	-11.2842
未經	-11.2843
比舊	-11.2849
即城徑	-11.2853
兩相等即	-11.2853
癸酉年	-11.2854
甲乙丙丁圜	-11.2856
四十七分	-11.2857
五十微	-11.2858
三百四十五	-11.2863
四分内一秒冬至史	-11.2865
欽定四庫全書全史日至源流卷	-11.2865
初候	-11.2865
三百六十五度二十五分	-11.2869
之共銀數	-11.287
三分内一秒冬至應閏	-11.2871
求得四率	-11.2873
三十五尺	-11.2875
六千八百	-11.2878
萬五千五百	-11.2883
形體	-11.2887
居子午圏	-11.2888
相應之	-11.2893
函於	-11.2893
廉隅共	-11.2894
卯丑	-11.2894
月䇿	-11.2895
欽定儀象考成卷	-11.2897
與長圓體	-11.29
癸巳朔十一月	-11.29
嵗嵗	-11.2903
一五三	-11.2903
生數	-11.2906
丙乙線	-11.2906
丁戊己庚	-11.2906
又何以	-11.2907
外面	-11.2908
第二㸃	-11.2909
推歩之	-11.291
正月戊午朔	-11.2917
三九四	-11.293
小矢	-11.2934
一十一日	-11.2935
根本	-11.2937
二因之得	-11.2939
四四四	-11.294
五十九日	-11.2941
小麥	-11.2947
易明	-11.2949
堯時	-11.2952
年五月	-11.2954
統天	-11.2954
絲四忽	-11.2956
年正月戊戌朔十一月	-11.2958
不可見	-11.2966
為乙衰	-11.2971
一隻	-11.2973
距天頂之度	-11.2974
爲二率	-11.2976
五分内三十一秒冬至史	-11.2979
丁鈍角	-11.2981
與甲辛	-11.2982
庚申年	-11.2982
三百六十步	-11.2985
適中	-11.2989
指寅	-11.299
負數	-11.2993
九百四十分	-11.2994
為三率得	-11.2996
丁寅	-11.2999
借用	-11.3006
兩線等	-11.3008
步常法	-11.3018
望乙與城	-11.3019
乙角之切線	-11.3024
體之邊	-11.3026
㸃之底	-11.3027
所進	-11.3027
紐	-11.3028
分撱圓面積	-11.3029
吸	-11.3029
西歌曰	-11.303
五十九刻	-11.3031
作十字	-11.3031
溝	-11.3031
渾球	-11.3032
古歌曰	-11.3033
九州	-11.3034
各若干法借一根為	-11.3034
總積四千	-11.3035
兩測之	-11.3035
正方之邊	-11.3038
恒星赤道經緯度表	-11.3038
與太陽同	-11.3039
凶	-11.3039
侍	-11.3039
弦與勾股較之和二十四尺	-11.3039
婦	-11.304
諳	-11.304
滯	-11.304
瓦	-11.3041
年正月壬戌朔十一月	-11.3041
蔡邕	-11.3041
乙戊線	-11.3041
畣曰	-11.3043
均輸	-11.3043
狗	-11.3043
求勾股弦各幾何	-11.3044
疆	-11.3044
隂陽之	-11.3044
正月己亥朔	-11.3044
焦	-11.3044
二百五十四	-11.3044
召	-11.3045
黙	-11.3045
正南北	-11.3046
戒	-11.3046
弦與勾股較之較	-11.3046
癸夘日	-11.3047
年正月癸酉朔十一月	-11.3047
喪	-11.3047
把	-11.3048
婆	-11.3049
何謂	-11.3049
己卯朔	-11.3049
昻	-11.3049
遷就	-11.305
中心行度	-11.305
帳	-11.305
受日光	-11.3051
暴	-11.3051
勑	-11.3052
壊	-11.3053
溯	-11.3054
勾股弦總和	-11.3054
壯	-11.3054
富	-11.3054
趨	-11.3055
始悟	-11.3056
閣道	-11.3056
四十二秒	-11.3058
正義曰	-11.3058
為勾求得弦	-11.3059
法當以	-11.306
氣骨	-11.306
監局官生	-11.3061
各省直	-11.3061
紀法六十	-11.3061
姜	-11.3062
七閏	-11.3062
距交九十度	-11.3063
乙丙句	-11.3067
四十五尺	-11.3069
糧數	-11.3072
表竿	-11.3072
從丙作	-11.3075
周天之度	-11.3075
六七五	-11.3078
出水	-11.3079
為初商實	-11.3079
對弧矢	-11.3081
見幾何原本	-11.3084
在地平下	-11.3085
一千一百六十	-11.3086
若遇	-11.3087
體求積	-11.3087
明㫖	-11.3091
長濶差	-11.3093
二百六十五	-11.3094
己酉朔十一月	-11.3094
倍初商	-11.3101
亦異	-11.3102
單環	-11.3105
此類	-11.3107
月甲申朔	-11.3107
五音	-11.3108
一百四十六	-11.3111
監局	-11.3113
八千七百	-11.3115
平朔望	-11.3117
每歲	-11.3118
星緯	-11.3118
乃知	-11.3118
先推	-11.312
形此形有	-11.3121
戊㸃	-11.3122
使人	-11.3123
引至	-11.3123
之遺	-11.3123
十二卷	-11.3123
一十六步	-11.3126
本卷界	-11.3127
大籌	-11.3132
三角面	-11.3132
交前後	-11.3134
為次商實	-11.3139
又二之一	-11.314
司命	-11.3143
每戸	-11.3149
九二九	-11.3149
底股	-11.3154
亦必與	-11.3157
又以分母	-11.3157
月十三日	-11.3158
四千尺	-11.316
二度四十分	-11.316
復加	-11.3162
内外周	-11.3162
訛作	-11.3162
萬一千七百	-11.3165
分内一十一秒冬至	-11.3166
有法形	-11.3166
尺問積幾何	-11.3169
原係	-11.317
月與日	-11.3174
又半之	-11.3174
正月癸巳朔	-11.3177
術求之	-11.3179
界説	-11.318
之外面積	-11.3181
辛壬弧	-11.3182
九三九	-11.3189
二千萬	-11.3189
一萬零	-11.3193
環面	-11.3197
欽定四庫全書欽定儀象考成卷	-11.32
己夘日	-11.32
三百九十六	-11.3204
晨夕	-11.3205
盈縮積	-11.3206
挨次	-11.3207
乃命	-11.3209
六百兩	-11.3211
月初八日	-11.3211
五九二	-11.3213
五十三刻	-11.3213
九八五	-11.3216
二一六	-11.3217
通分内子得	-11.3218
寅巳	-11.322
司厯	-11.3226
二十四石	-11.3228
未備	-11.3228
細推	-11.3229
乙亥朔十一月	-11.323
小渾圓	-11.323
土木火	-11.3232
與甲癸	-11.3237
扁方	-11.3245
正月戊戌朔	-11.3253
甲乙丙丁戊五	-11.3255
原體	-11.3256
上下各	-11.3258
八十三度	-11.326
五十七刻	-11.3263
為寔以	-11.3265
中空	-11.3267
丙乙丁角	-11.327
考定	-11.3273
第十七	-11.3283
三千四百六十	-11.3288
友	-11.3289
氣候	-11.3289
二尺一寸	-11.3309
庚未	-11.3312
十一題	-11.3313
如圖甲乙丙	-11.3315
星之經度	-11.3318
大小餘	-11.3327
為兩个	-11.3328
八一六	-11.3332
一百一十度	-11.3333
定朔在	-11.3333
八音	-11.3337
弦也術曰	-11.3337
乙外角	-11.3338
舊名	-11.334
杓	-11.334
歳十一月	-11.3352
錐形	-11.3353
長方之闊	-11.3357
十六萬七千里	-11.3361
步術曰	-11.3361
賓	-11.3363
掲	-11.3363
閒	-11.3365
與今所得之	-11.3366
畢宿大星	-11.3368
迤	-11.3368
子初二刻	-11.3369
面積之定率比例以定率之圜	-11.3369
夘初二刻	-11.3369
須臾	-11.3369
硯	-11.337
今所設之	-11.337
揣	-11.337
三較連乗	-11.3371
羅雅谷	-11.3371
叅相直	-11.3371
多二眞數	-11.3372
大寒十四日九時一刻十分	-11.3372
寒露十五日一時一刻八分	-11.3372
白露十五日四時三刻九分	-11.3373
視緯度	-11.3373
本體	-11.3373
山東道御史許伯政撰壬子運	-11.3374
四一三	-11.3374
留際	-11.3374
年正月己未朔十一月	-11.3374
漫	-11.3375
裂	-11.3375
三十四步	-11.3377
冀	-11.3377
數學九章	-11.3377
䟽	-11.3377
威	-11.3378
歐	-11.3378
呉	-11.3379
坡	-11.3379
太陽在最高	-11.3379
初虧復圓距時	-11.3379
磬	-11.3379
奔	-11.338
敵	-11.338
肇	-11.3381
伊	-11.3381
內	-11.3381
二十三度二十九分	-11.3381
忠	-11.3382
雙女	-11.3382
爲三率求得四率	-11.3383
叅直	-11.3385
本位紀	-11.3386
隋書	-11.3387
撥	-11.3388
恒星黄道經緯度表	-11.3388
洛陽	-11.3389
長方形其	-11.3391
時合朔交泛	-11.3391
昏分	-11.3392
斗杓	-11.3395
四八四	-11.3396
縫	-11.3396
十一月壬子日	-11.3396
二數相併	-11.3397
刀布	-11.3398
五星伏見	-11.3399
年正月癸巳朔十一月	-11.3402
再乗得	-11.3406
萬三千四百	-11.3406
新舊	-11.3408
棗價	-11.3408
晷影	-11.3408
精宻	-11.341
晨疾初	-11.3412
文昌	-11.3412
變赤道度	-11.3413
太隂黄道經度	-11.3414
解曰甲乙丙丁	-11.3414
譬如	-11.3416
厯局	-11.3417
大餘五十	-11.3417
甲為地心	-11.3424
句股積	-11.3427
空圍	-11.3427
在最庳	-11.3428
乗之得數	-11.3429
用元度	-11.3429
刻漏	-11.3429
疇人	-11.3433
相當二界	-11.3435
將來	-11.3438
以丁為心	-11.3439
二行相減餘	-11.3442
北船	-11.3443
各減去	-11.3448
七毫	-11.3451
辛酉朔十一月	-11.3452
太乙	-11.3454
月距地心	-11.3454
盖因	-11.3456
則所存	-11.3459
七十五刻	-11.346
隔位	-11.346
千八百五十	-11.3464
天津	-11.3466
以乙為心	-11.3467
方法算之得	-11.3467
丈二尺	-11.3468
試於	-11.3469
續書	-11.3469
九二五	-11.347
一三六	-11.3472
四十八萬	-11.3479
天地之中	-11.3481
斜望	-11.3483
九分六釐	-11.3485
單分	-11.3486
某時	-11.3487
二十五秒	-11.3487
四尺五寸	-11.349
未敢	-11.3495
上十之	-11.3503
月二十五日	-11.3508
月戊午朔日食	-11.3511
緯差	-11.3511
諸體	-11.3511
親測	-11.3515
必先求	-11.3516
錢糧	-11.3517
庚丑	-11.3517
八分之一	-11.3519
太隂自行	-11.352
書於初商積之下相減	-11.3524
徑自乗	-11.3524
之中數	-11.353
五之二	-11.3531
不免	-11.3532
帝堯	-11.3533
向丁	-11.3534
刻弱	-11.3535
辰卯	-11.3543
宿鈐	-11.3544
丈二尺五寸	-11.3544
甲銀數	-11.3548
萬餘里	-11.3552
相加減得	-11.3553
卯丙	-11.3558
運價	-11.3558
半徑為髙	-11.3561
辰己	-11.3562
廿四	-11.3564
丙夘	-11.3574
倍之加	-11.3577
若半徑與	-11.3583
矣是故	-11.3589
五七一	-11.3589
六萬里	-11.3595
己㸃	-11.3596
共納	-11.3597
豪八絲	-11.3597
不可用	-11.3601
南海	-11.3603
以日為心	-11.3606
五十四尺	-11.3607
求甲丙邊	-11.3613
若干法借	-11.3619
三十二兩	-11.3621
三尺六寸	-11.3622
地勢	-11.3628
立一表	-11.3631
交子午圏	-11.3632
七四七	-11.3633
人之所	-11.3633
三八八	-11.364
古圖	-11.3647
盈末	-11.3654
乙丁弧	-11.3654
石三斗	-11.3655
四二九	-11.3655
萬八千六百	-11.3655
夕退	-11.3656
赤道緯	-11.366
第二段	-11.3667
七十八度	-11.367
八等邊形之	-11.3676
和元年	-11.368
五四四	-11.3681
史六月	-11.3687
諸圏	-11.3689
加時定星	-11.3692
一千四百六十	-11.3696
㑹同	-11.3696
五百零	-11.37
四十八步	-11.3702
彗孛	-11.3704
撿表得	-11.3705
減原實	-11.3707
距赤	-11.371
正月癸酉朔	-11.371
太陽躔度	-11.3712
二分内三十一秒冬至史	-11.3713
凹	-11.3713
窄	-11.3714
旁帶縱	-11.3714
年正月丁夘朔十一月	-11.3715
梗	-11.3716
三分損一	-11.3716
鄧	-11.3716
以減頭位得	-11.3716
闇	-11.3716
見四卷	-11.3717
燠	-11.3717
朱鳥	-11.3718
淳	-11.3718
七分内一秒冬至應閏	-11.3719
日亥初初刻一分内一秒冬至	-11.3719
之比亦同於	-11.372
三三一九	-11.372
年正月庚辰朔十一月	-11.372
在高弧西	-11.3722
十三度十九分度之七	-11.3722
遙	-11.3722
年正月乙夘朔十一月	-11.3722
匿	-11.3722
熙	-11.3723
册	-11.3723
傷	-11.3725
甲從乾隅	-11.3725
岐	-11.3725
扶	-11.3726
貞觀	-11.3726
甲丁乙角	-11.3726
不啻	-11.3726
求積幾何法以	-11.3726
荆	-11.3727
姜岌	-11.3728
年正月丙子朔十一月	-11.3728
模	-11.3729
二百四十步即城徑也合問或問	-11.3731
樹一株	-11.3731
以丙為心	-11.3731
十九年七閏	-11.3731
併之共	-11.3732
四石二斗	-11.3733
皇國	-11.3733
觸	-11.3733
加時減分	-11.3734
鳯	-11.3734
適足九十度	-11.3735
縮初	-11.3735
闢	-11.3735
月二日	-11.3735
艮隅	-11.3737
付	-11.3737
方田積	-11.3737
句股方錐	-11.3738
激	-11.3738
最低	-11.374
石版	-11.3741
内容十二等面	-11.3743
月距日倍度	-11.3744
絫	-11.3745
天常赤道	-11.3745
最髙卑	-11.3746
忌	-11.3748
權衡	-11.3748
方束	-11.3754
一百九十五	-11.3755
子初三刻	-11.3756
恒星東行	-11.3758
夏至前後	-11.3759
年正月壬寅朔	-11.3759
年正月庚午朔十一月	-11.3762
北極之下	-11.3763
本躔度	-11.3763
季冬	-11.3764
賞銀	-11.3765
所截之長	-11.3766
二十七萬	-11.3773
之率也	-11.3773
日月之行	-11.3774
世間	-11.3777
栗價	-11.3778
人所居	-11.3778
求句股弦	-11.378
一百五十三步	-11.3781
蒼龍	-11.3781
距地心線	-11.3781
多邊形	-11.3781
於是乎	-11.3783
初昏	-11.3785
昏刻	-11.3785
晝夜平	-11.3789
弦上方	-11.3789
寸自乗得	-11.379
巳初	-11.3794
黄道正弦	-11.3799
氣策	-11.38
甲分角	-11.3803
前代	-11.3805
先得弦	-11.3808
十二分内五十一秒冬至	-11.381
次啇	-11.3812
告成	-11.3816
以右上	-11.3818
繩長	-11.3818
六十六分	-11.3821
復員	-11.3827
云爾	-11.3828
初緯	-11.383
可免	-11.3831
相似形	-11.3832
第幾	-11.3841
斗一升	-11.3841
内容立方	-11.3845
入陽厯	-11.3847
黄道經緯度	-11.385
午酉	-11.3853
朔旦	-11.3854
戊辰朔十一月	-11.3856
面形	-11.3857
截弦	-11.3859
漸漸	-11.386
八百二十分	-11.3863
兩相等則一根必與	-11.3864
山東	-11.3867
不效	-11.3868
俱為直角	-11.387
太陽距北極	-11.3875
一分内一秒冬至史	-11.3875
一千零八十	-11.3883
引長至	-11.389
南北東西	-11.3894
用前法	-11.3894
兩傍	-11.3895
注曰	-11.3901
從來	-11.3902
九四四	-11.3902
一大正方	-11.3907
割員	-11.3915
寅壬	-11.3915
均平	-11.392
孟子	-11.3923
量體	-11.3924
六萬八千	-11.3931
以戊為心	-11.3932
萬四千六百	-11.3933
卯初	-11.3937
徑求周	-11.3938
正方體之每邊	-11.3944
初學	-11.3953
四季	-11.3956
節氣時刻	-11.3956
年四月	-11.3962
七寸五分	-11.3963
稍大	-11.397
甲丁丙角	-11.397
比例而得	-11.3978
最長	-11.398
立負	-11.3981
新術	-11.3984
窺表	-11.3984
六百四十八	-11.3985
有空位	-11.3986
江南	-11.399
東門外	-11.3991
月食限	-11.3991
八一九	-11.3993
常法也	-11.3999
己亥朔十一月	-11.4001
廉隅共法	-11.4005
𤣥枵宫	-11.4005
根乘	-11.4012
周日一萬分	-11.4013
不及減者	-11.4013
再測	-11.4015
石塔	-11.4017
西術	-11.4021
三二九	-11.4023
位書之	-11.4025
鹹	-11.4027
見幾何	-11.4028
而復于	-11.4029
但取	-11.403
丁乙線	-11.4033
虚和	-11.4034
與初商之長	-11.4038
星外増	-11.4038
丙丁戊己庚	-11.4041
體之底	-11.4043
安得有	-11.4045
與乙壬	-11.4045
分之五	-11.4046
桶	-11.4047
一分内三十一秒冬至應閏	-11.4047
辛壬線	-11.4048
秤	-11.405
月食方位	-11.4055
驅	-11.4055
戌初一刻	-11.4056
月天最高在	-11.4058
九枚	-11.4061
毋	-11.4062
沉香	-11.4063
盟	-11.4064
穴	-11.4066
本輪周	-11.4066
顛	-11.4066
四面體之每一邊	-11.4067
其號為減	-11.4068
墻	-11.4069
或南或北	-11.407
鳩	-11.407
道里	-11.4071
菴	-11.4072
小雪十四日九時二刻十二分	-11.4073
在上六宫者用順度	-11.4073
備矣	-11.4073
眠	-11.4074
潛	-11.4074
頻	-11.4074
滿紀法去之	-11.4074
康熈	-11.4075
御製數理精藴下編卷	-11.4075
穹	-11.4076
爲歳首	-11.4076
北陸	-11.4076
箇圓池	-11.4078
年正月辛巳朔十一月	-11.4078
孤	-11.4079
仁均	-11.4079
裹	-11.4079
二十七日二十一刻	-11.4079
拙	-11.4079
鋪	-11.4079
依密率	-11.408
一三五七九	-11.408
麟徳	-11.408
弦與勾股較之較十尺	-11.408
彰	-11.4081
夘正初刻	-11.4081
夢	-11.4082
僧一行	-11.4083
帙	-11.4083
下一位	-11.4083
朝夕	-11.4083
穫	-11.4084
赤白二經交角	-11.4084
僦	-11.4084
祈	-11.4084
丁乙丙角	-11.4084
淆	-11.4085
晝夜永短	-11.4085
王莽	-11.4086
相交于	-11.4086
理分中末之大分	-11.4086
在天頂南	-11.4088
又法用	-11.4088
聮	-11.4088
頌	-11.4089
盟于	-11.4089
壕	-11.409
暨	-11.409
總銀數	-11.409
旅	-11.4091
日未出	-11.4091
數學鑰	-11.4094
席	-11.4095
毫釐	-11.4095
十四分内二十一秒冬至應閏	-11.4097
梯底	-11.4097
忘	-11.4098
正月丙子朔	-11.4098
殫	-11.4099
憂	-11.41
堯舜	-11.41
五分内四十一秒冬至	-11.4101
尚餘	-11.4101
卜	-11.4101
寅辛	-11.4102
景初	-11.4102
求其正弦	-11.4104
正月壬寅朔	-11.4108
二與三	-11.4109
殊不知	-11.4109
土星平行	-11.4111
分元形	-11.4114
年正月戊午朔十一月	-11.4116
百餘年	-11.4116
切邊角	-11.412
弦自乗之一正方	-11.4121
不致	-11.4124
豈能	-11.4126
元郭守敬	-11.4129
非真	-11.4129
難見	-11.4133
四尺八寸	-11.4136
依前論	-11.4139
加減號	-11.414
九十二秒	-11.4142
七千九百	-11.4144
一千一百四十	-11.4145
國家	-11.4146
二數相減餘	-11.4146
依上法	-11.415
天之中	-11.415
帝王	-11.4162
圓錐	-11.4165
太陽距地心	-11.4165
一分内三十一秒冬至史	-11.4169
各有本	-11.4171
不過象限	-11.4171
乙與戊	-11.4171
相準	-11.4175
第一第二	-11.4178
史閏正月	-11.4178
河圖	-11.418
改易	-11.4182
耳目	-11.4185
不湏	-11.4186
勾弦差	-11.4193
用矩度	-11.4198
食甚視緯	-11.42
俱係	-11.42
減從開平方	-11.4202
七五六	-11.4203
次輪面	-11.4203
爲袤	-11.4209
歸竒	-11.4217
白道經度	-11.4222
二十九日五十三刻	-11.4224
三八五	-11.4225
明其理	-11.4226
局供事	-11.4229
仰儀	-11.4231
而一卽	-11.4234
近地平	-11.4235
十一月丁亥	-11.4236
有多寡	-11.4237
十四分内四十一秒冬至	-11.4241
本朝	-11.4244
四等面體	-11.4249
歲首	-11.425
立象	-11.4256
六十八度	-11.4259
呂氏	-11.426
三方廉	-11.4264
設時兩心視相距	-11.4266
等邊形面積	-11.4267
虚形	-11.4279
勾自乗	-11.4287
申正初刻	-11.4289
為丙衰	-11.4289
月離表	-11.4299
一十六寸	-11.43
省曰	-11.4301
相加折半得	-11.4306
比例之理	-11.4309
正月戊辰朔	-11.4311
銀一兩	-11.4318
數但知	-11.4324
太陽之光	-11.4326
下倣此	-11.4328
連比例三率	-11.4332
旁差	-11.4334
年正月乙未朔十一月	-11.4339
寸許	-11.4352
六十七秒	-11.4356
甲丁乙丙	-11.4359
冬至之日	-11.4369
常法得	-11.4377
切員	-11.4379
兩一錢	-11.4385
九千八百	-11.4386
兩餘弦相加	-11.4396
於上又	-11.4404
五十里	-11.4404
秒即所求之	-11.4404
有長短	-11.4411
義曰	-11.4413
遇于	-11.4416
砣	-11.4422
七四九	-11.4424
其假數為	-11.4429
即得今有	-11.443
之比為相當比例四率也	-11.4431
二十五度四十二分五十一秒有餘	-11.4434
食甚距緯	-11.4434
芒即得次年	-11.4435
置一於左次為上法	-11.4439
内容圓球徑	-11.4439
鐡	-11.4442
杵	-11.4442
供	-11.4442
以授時推	-11.4442
赦	-11.4442
黄白交角	-11.4443
𢎞	-11.4443
笠	-11.4444
十二面體之一邊	-11.4444
再置天元	-11.4445
夘正二刻	-11.4446
立世阿毘曇	-11.4446
認	-11.4446
+	-11.4447
葛	-11.4447
巴	-11.4447
日五十刻	-11.4448
月影心	-11.4448
廻	-11.4448
弦與勾股和之較六尺	-11.4448
効	-11.4448
甲出西門南行四百八十步	-11.4448
日夘初三刻	-11.4449
六八三	-11.4449
禆	-11.445
帶一縱	-11.445
杜氏	-11.445
串	-11.445
趣	-11.445
健	-11.4451
逸	-11.4451
綰	-11.4452
廿二	-11.4452
月中旬	-11.4452
臬	-11.4453
北極高四十度	-11.4453
同文算指	-11.4453
異乗同除	-11.4453
童	-11.4454
法置所推	-11.4454
𦙍	-11.4454
厲	-11.4455
赤經髙弧交角	-11.4455
春王正月	-11.4456
拱	-11.4456
罷	-11.4456
弦與勾股較之和	-11.4458
晦朔弦望	-11.446
草木	-11.4461
條叚	-11.4462
桑	-11.4464
八萬八千	-11.4464
紫氣	-11.4464
年正月己亥朔十一月	-11.4466
回奏	-11.4466
距地平之髙	-11.4466
方亭	-11.4467
山川	-11.4467
謀	-11.4468
祝	-11.4471
千位	-11.4471
一百三十五步	-11.4472
年正月己丑朔十一月	-11.4473
儒者	-11.4475
梵名	-11.4479
一千二百一十	-11.4481
餘割線	-11.4483
五分内三十一秒冬至應閏	-11.4485
不動處	-11.4485
午正後	-11.4487
勻分	-11.4487
儀心	-11.4488
加減六宫	-11.4488
相乗之長方	-11.4493
甲乙丁角	-11.4494
斗未	-11.4495
六百八十步	-11.4497
八二七	-11.4501
參宿	-11.4518
千八百七十	-11.4522
七四八	-11.4523
步八分	-11.4527
隠見	-11.4529
一與二	-11.4533
分兩之二	-11.4535
不窮	-11.4537
九一五	-11.4538
雲氣	-11.4539
為法乘之	-11.4541
五八五	-11.4542
著明	-11.4546
甲乙直線	-11.4547
球體外面積	-11.4551
自乗之數	-11.4553
黄道經緯	-11.4556
第四段	-11.4556
今有術	-11.4561
囘囘厯	-11.4561
一十四秒	-11.4562
一千七百四十	-11.4568
正月庚辰朔	-11.457
火氣	-11.4582
極短	-11.4582
髙于地平	-11.4584
距子午圏	-11.4587
月二十二日	-11.4588
三與五	-11.4589
第二題	-11.4591
可互	-11.4593
他線	-11.4594
七千八百	-11.4595
金銀	-11.4601
歳星	-11.4602
房心	-11.4603
然後置	-11.4606
朢䇿	-11.4608
丑正二刻	-11.4612
變律	-11.4617
皇極勾	-11.4624
七十年	-11.4625
丙角之度	-11.4625
月十八日	-11.4626
山之高	-11.4628
矣設如有	-11.4629
朔弦望	-11.4632
求容方	-11.4632
躔道	-11.4637
行速	-11.4637
筭術	-11.4642
微強	-11.4642
相減之較	-11.4644
一千五百三十	-11.4648
北極出地之度	-11.466
員心	-11.4665
中旦	-11.4667
又更之	-11.4673
千古	-11.4674
九十二日	-11.4675
月十九日	-11.4678
二百里	-11.4679
九七九	-11.468
二行相乘	-11.4682
何以能	-11.4688
下垂	-11.4691
他弦	-11.4693
盛米	-11.4694
作垂線至	-11.4695
必為直角	-11.4701
九分内四十一秒冬至	-11.471
甲乙丙句股形	-11.471
算學	-11.471
苗	-11.4715
三度四十五分	-11.4716
上直角方形與	-11.4716
十一月辛巳	-11.4721
六三一	-11.4725
建武	-11.4725
八八九	-11.4726
兩心線	-11.4732
五萬八千	-11.4734
己亥朔	-11.4735
十一月壬午	-11.4736
太陰距地	-11.474
宻測	-11.474
九四三	-11.4745
二分八釐	-11.4749
六百一十六	-11.475
九分内一十一秒冬至	-11.4752
除之而得	-11.4755
三百一十五度	-11.4756
七萬一千	-11.4758
理分中末線之全分	-11.476
適等	-11.4771
形外切圜	-11.4774
八分内一十一秒冬至	-11.4774
七分之一	-11.4775
三分内三十一秒冬至史	-11.4785
始皇	-11.4792
乘之為實	-11.4795
刻半弱	-11.48
綂	-11.4801
圓羃	-11.4809
線上方	-11.4812
新測	-11.4812
二行相減	-11.4814
撱圓差角	-11.4814
在陽厯	-11.4815
問得幾何荅曰爲	-11.4818
柄	-11.4818
具圖如後	-11.4818
尺有五寸	-11.482
一根自乘得一平方	-11.4821
之比例為一與	-11.4821
周日平行表	-11.4822
初宫至五宫	-11.4824
衷	-11.4824
扇	-11.4825
磬折體	-11.4825
漆	-11.4826
禍	-11.4826
隄	-11.4827
列於下乃以下	-11.4827
為次商一小隅面積合三方	-11.4827
罕	-11.4827
三歸四因	-11.4829
甲出北門東行二百步	-11.4829
天官書	-11.483
盂	-11.4831
希	-11.4831
有零分者按中比例法求之	-11.4831
八等面體	-11.4831
正方體之一邊	-11.4832
二百四十步即城徑也合問	-11.4833
在高弧東	-11.4834
措	-11.4834
二萬七千七百五十九	-11.4834
為法實如法而一得	-11.4835
戈	-11.4835
四宫七宫五宫六宫四宫七宫五宫六宫	-11.4835
泛立較	-11.4835
盧	-11.4836
瑪	-11.4836
二十三度三十一分三十	-11.4836
以地為心	-11.4836
突	-11.4837
暫	-11.4837
瞿曇	-11.4837
戾	-11.4837
上法下實得	-11.4837
聫	-11.4839
璃	-11.4839
標	-11.4839
綜	-11.4839
脫	-11.484
私種	-11.4841
署	-11.4842
占候	-11.4842
督修厯法	-11.4842
可容	-11.4842
催	-11.4843
持錢	-11.4844
繪圖	-11.4844
薛	-11.4844
軸本偏	-11.4844
朢策	-11.4844
廩	-11.4845
詞	-11.4845
為立方實	-11.4845
奉明㫖	-11.4846
二十三度九十分	-11.4846
泛平差	-11.4848
援	-11.4848
過冬至之數	-11.4849
紂	-11.485
治厯明時	-11.4853
折色	-11.4855
不書朔	-11.4858
天元赤道	-11.4859
萬一千一百	-11.4859
佛説	-11.486
赤道規	-11.486
之類是也	-11.4861
釐二毫	-11.4863
數百年	-11.4864
定四子	-11.4868
中孚	-11.4868
南門外	-11.4869
一直線上	-11.487
丑寅卯	-11.4873
多四根	-11.4875
適盡	-11.4878
合問按	-11.4879
夜漏	-11.488
用三角形法	-11.4883
土功	-11.4884
相因得	-11.4886
不同然	-11.4888
仲夏	-11.4888
直絹	-11.4891
求得甲角	-11.4893
幾位	-11.4893
乙位	-11.4897
食限内	-11.4901
兩形之比例	-11.4902
交錯	-11.4906
乙丙丁角	-11.4907
婁宿	-11.491
廿三	-11.4911
九一六	-11.4911
甚難	-11.4912
對數表	-11.4917
午正二刻	-11.4919
甚近	-11.4928
東或西	-11.4932
滿半周	-11.4933
太㣲	-11.4937
八面體積	-11.494
分斗之	-11.494
末候	-11.4941
毫六絲	-11.4943
與天合	-11.4944
星距太陽	-11.4944
六分内二十一秒冬至	-11.4945
五百八十三	-11.495
講求	-11.4953
與末數	-11.4956
次日子正初刻	-11.4959
數於共	-11.496
殷厯	-11.4961
之割線若	-11.4966
七萬五千	-11.4969
百萬尺	-11.4972
隨處	-11.4978
夜子初	-11.4979
不可通	-11.4985
略同	-11.4987
長圓形	-11.4987
壬㸃	-11.4989
六歸之得	-11.4992
所識	-11.4992
遞加之數	-11.4994
線引長至	-11.4995
無所不	-11.4997
豈可	-11.5001
第一題	-11.5003
以直角交	-11.5004
九三七五	-11.5007
用灰	-11.5012
地平規	-11.5019
如上圖甲	-11.502
置一自之得	-11.5034
法並同	-11.5037
箕子	-11.5037
舊㑹	-11.5038
太陰引數	-11.5039
之比也設如有	-11.5051
在本輪之	-11.5051
六六七八	-11.5054
正月庚午朔	-11.5058
甚明	-11.5071
地平經緯	-11.5074
統元	-11.5082
塔髙	-11.5082
大小不等	-11.5083
大横線	-11.5087
在大火宫	-11.5087
供事	-11.5092
開方除之得	-11.5096
一千一百三十	-11.5098
法如有甲乙	-11.5103
精微	-11.5107
八分八釐	-11.5108
加減之即得	-11.5111
加减度	-11.5111
受命	-11.5112
多一根	-11.5114
自之為冪	-11.5129
不同耳	-11.513
髙五十度	-11.5132
朔酉時日食	-11.5138
借一根為	-11.514
室宿	-11.5141
并記加減號求	-11.5144
遭	-11.5145
正月甲申朔	-11.5151
退一位	-11.5151
赤道半徑	-11.5155
十尺自乘	-11.517
億零	-11.519
法曰先	-11.5191
戊辰朔日食	-11.5192
十二面體之每一邊	-11.5192
之比即同於今所設之	-11.5199
三尺四寸	-11.5209
鼠	-11.5212
三寸九分	-11.5214
壍	-11.5216
蜀	-11.5217
一千零二十四	-11.5217
捴弧	-11.5221
併所進之	-11.5221
九章算術卷	-11.5222
宣公	-11.5223
迹	-11.5223
槃	-11.5224
寳瓶	-11.5224
董	-11.5224
宋書	-11.5225
中心至每邊正中之垂線	-11.5226
矩線内直角形	-11.5226
薨	-11.5228
距次交實行	-11.5228
夘初初刻	-11.5228
冬至十四日八時三刻十四分	-11.5228
芒種十五日八時三刻十分	-11.5229
霜降十四日十一時五刻五分	-11.5229
圍三徑一	-11.5229
之比例既若	-11.5229
夏至十五日八時七刻	-11.5229
立冬十四日十時二刻十一分	-11.5229
小暑十五日八時五刻三分	-11.5229
秋分十五日二時四刻十一分	-11.5229
大暑十五日八時零八分	-11.523
處暑十五日五時六刻六分	-11.523
自下而上	-11.523
察其所對之度分秒得	-11.523
◇	-11.523
為二率現設之	-11.5231
二十等面體	-11.5231
繋	-11.5231
虧至甚	-11.5232
尺為長方積以	-11.5232
泛平較	-11.5233
二宫九宫三宫八宫二宫九宫三宫八宫	-11.5235
肉	-11.5235
争	-11.5235
罰	-11.5235
一萬九千六百八十三	-11.5236
化整為零	-11.5236
可指	-11.5236
遁	-11.5236
禀	-11.5237
以乗負隅仍得	-11.5237
淳祐	-11.5237
趾	-11.5237
偏斜	-11.5237
和筭	-11.5237
曠	-11.5238
二百四十尺	-11.5239
乙出東門直行	-11.524
每邊一尺二寸為三率求得四率	-11.524
玻瓈	-11.524
逺臣羅雅谷湯若望	-11.5241
天左旋三百六	-11.5242
巡	-11.5242
餉	-11.5242
高庳差	-11.5244
四度有竒	-11.5244
勸	-11.5245
股弦較二尺	-11.5245
一面三角尖堆積	-11.5246
繹	-11.5246
撮和買	-11.5246
世祖	-11.5247
屯	-11.5247
清濁	-11.5248
賴	-11.5248
韋	-11.5248
范	-11.525
正方形之每邊	-11.525
匝	-11.525
遞析	-11.5251
本輪行度	-11.5253
洩	-11.5253
幽王	-11.5254
年正月壬申朔十一月	-11.5254
秬黍	-11.5255
二萬五千九百	-11.5256
為三率求得	-11.5259
增損	-11.526
精密	-11.5261
線既為	-11.5261
等一户	-11.5262
八千六百四十	-11.5267
幾分之幾	-11.527
一千寸	-11.527
夏六月	-11.5273
黃極	-11.5274
渾盖	-11.5275
天運環	-11.5275
北京	-11.5276
莫能	-11.5277
本年首朔	-11.5279
日影心	-11.528
距交前後	-11.5284
新増	-11.5284
通大分	-11.5287
方燈	-11.5288
小于直角	-11.529
最髙最卑	-11.5293
第一格	-11.5294
赤道正弦	-11.5294
側立	-11.5299
督修厯法山東布政使司右叅政	-11.5299
後漢書	-11.53
今改正	-11.5304
從心至	-11.5311
七九七	-11.5318
容臣	-11.5319
古來	-11.5321
黄白二道	-11.5321
上禾	-11.533
七四六	-11.5332
他處	-11.5332
汎差	-11.5337
小孔	-11.5337
繞日	-11.5339
乙丙兩角	-11.5341
晷刻	-11.5343
容員徑	-11.5346
月掩日	-11.535
五百九十二	-11.5353
異耳	-11.5353
諸器	-11.5355
年天正冬至次日	-11.5356
引數宫度	-11.5358
一千七百五十	-11.5365
為一類	-11.5366
六之五	-11.5369
四分内四十一秒冬至	-11.537
六年十月	-11.5372
升度表	-11.5375
本輪均輪	-11.5377
斜垂線	-11.5377
較乗和	-11.5378
離地心	-11.5383
分別	-11.5386
交會	-11.5387
矢闊	-11.5387
辛甲壬	-11.5388
陸費墀	-11.539
云數相減	-11.5395
第三題	-11.5399
宮度分	-11.5403
乙丙丁形	-11.5409
實月距日	-11.5414
釐五豪	-11.5415
八百六十四	-11.5417
線遇于	-11.5421
十一月庚午日	-11.5436
便知	-11.5443
五分之四	-11.5443
春正月	-11.5448
加時定星二百	-11.5449
為二率半徑一千萬為三率求得四率	-11.5452
丁亥朔	-11.5456
圓球積	-11.5458
廿六	-11.547
十之七	-11.5475
不煩	-11.5482
過一象限	-11.5484
横剖	-11.5486
少二根	-11.5489
四年十月	-11.5489
以畝法	-11.5491
一千三百四十	-11.5496
黄赤道差	-11.5501
二千八百八十	-11.5509
數可以度盡	-11.5516
釐四豪	-11.553
甲丙丁三角形	-11.5533
圓徑以自之	-11.5534
一千七百二十八	-11.5538
日及分秒	-11.5543
以周天分	-11.5548
線上作	-11.5565
謹按	-11.5585
不覺	-11.5593
龍尾	-11.5593
勻	-11.5603
作平行線	-11.5603
六八七五	-11.5603
以六除	-11.5605
地渾	-11.5614
年春	-11.5619
章第十	-11.562
䵂	-11.5623
森	-11.5623
月高距日高	-11.5627
七分六釐	-11.5628
刀	-11.5629
正月壬辰朔	-11.5629
鷄	-11.5631
度午中赤道	-11.5632
度午中黄道	-11.5632
相等兩邊各減	-11.5633
度牒	-11.5636
問爲田幾何荅曰	-11.5637
猪	-11.5637
考真時兩心視相距	-11.5639
子初初刻	-11.564
今所設之半徑六寸為三率求得四率	-11.5641
馳	-11.5641
上考往古則置	-11.5641
沉	-11.5641
乙甲丙形	-11.5642
半背弦差	-11.5642
三稜束	-11.5642
馮	-11.5643
兩角相對斜線	-11.5643
食甚近時	-11.5643
吐	-11.5643
是為減差以減於平行而得實行也	-11.5644
搃	-11.5645
或左或右	-11.5645
投	-11.5645
十七萬七千一百四十七	-11.5645
甫	-11.5646
年正月癸夘朔十一月	-11.5646
十四分内三十一秒冬至應閏	-11.5646
日丑初三刻三分止甲子運	-11.5646
3.2	-11.5647
年正月丁亥朔十一月	-11.5647
翳	-11.5647
明邢雲路撰厯法	-11.5647
1.2	-11.5647
開禧	-11.5647
2.2	-11.5647
2.3	-11.5648
吏部	-11.5648
3.3	-11.5648
1.1	-11.5648
3.1	-11.5648
倶舎	-11.5648
連環求等	-11.5648
太陽實躔	-11.5648
摩登伽經	-11.5649
2.1	-11.5649
倍通步	-11.5649
3.4	-11.5649
吾邦	-11.5649
獻公	-11.5649
須曳	-11.565
托	-11.565
六分内一十一秒冬至	-11.565
攝提格	-11.5651
厯算全書巻	-11.5651
璧	-11.5651
從地心甲計之	-11.5652
有零分者	-11.5652
遯	-11.5652
泛平積	-11.5652
暢	-11.5652
羅㬋計都	-11.5652
光禄寺	-11.5652
跨	-11.5653
躬	-11.5653
㫁	-11.5653
寜	-11.5653
弧之正	-11.5653
周而復始	-11.5654
等上田苗	-11.5654
玉衡	-11.5654
耦	-11.5654
二錢五分	-11.5655
鴨蛋體	-11.5656
紹興	-11.5656
劉洪	-11.5657
減頭位餘	-11.5657
鴻	-11.5657
淮	-11.5657
求逐年	-11.5657
濫	-11.5658
埋	-11.5658
團	-11.5658
十一度日左旋三百六十度除天周外	-11.5658
卯辰巳午	-11.5659
甲數乙數	-11.5659
忒	-11.566
源流	-11.566
胥	-11.566
陜西	-11.566
廷	-11.5661
唐一行	-11.5661
扐	-11.5662
嬴	-11.5662
階	-11.5662
禽	-11.5662
無可疑	-11.5662
尺自乘再乘得	-11.5662
握	-11.5663
為一率圜内容	-11.5663
衙門	-11.5664
星之距	-11.5664
琮	-11.5664
一加減比敷立成	-11.5666
禮記	-11.5667
仲秋	-11.5668
合而為一	-11.5669
零二秒	-11.567
林鍾	-11.5671
八千三百	-11.5671
秒四十九微	-11.5671
相參直	-11.5671
木匠	-11.5672
鬴	-11.5674
乃以初商之	-11.5675
定朔小餘	-11.5679
唐宋	-11.5681
𦵏	-11.5681
正月丁亥朔	-11.5681
用進法	-11.5681
平江	-11.5681
月初五日	-11.5681
崇禎八年	-11.5682
暈	-11.569
除實盡	-11.5694
直角三邊形	-11.5695
壺漏	-11.5695
秋正後	-11.5695
犧	-11.5699
線則成	-11.5701
從戊作	-11.5701
名義	-11.5702
毎日平行	-11.5703
大概	-11.5704
銅條	-11.5709
為次率	-11.5709
生魄	-11.5711
八等邊形之面積	-11.5713
第五題	-11.5713
以己為心	-11.5714
南北東西差	-11.5717
所展	-11.5718
五度有竒	-11.5719
兩半徑并	-11.5721
毫二絲	-11.5722
四句股積	-11.5724
日未初一刻十	-11.573
正月癸未朔	-11.5735
分内一秒冬至戊午	-11.5737
或先有	-11.5741
乗之為實	-11.5741
戌初三刻	-11.5748
置第一段	-11.5753
臺髙	-11.5756
其故何也	-11.5761
鎮星	-11.5767
零七秒	-11.5768
帶食距弧	-11.577
平方開	-11.5774
方體積	-11.5777
御米	-11.5788
四尺二寸	-11.5789
月己酉朔日食	-11.5789
千二百四十	-11.579
尺續書於下共	-11.5792
運旋	-11.5809
四十一刻	-11.5812
弧之弦	-11.5813
在食甚前	-11.5813
至丙作	-11.5823
長闊相乘	-11.5823
在隂厯	-11.5829
面之中心	-11.5829
三率求得四率	-11.5844
留逆	-11.5856
月十一日	-11.5865
九百尺	-11.5868
七十步	-11.5871
一千三百八十	-11.5887
一千六百八十	-11.5896
千八百六十	-11.59
相等則一根必與	-11.5901
法還原	-11.5905
二萬三千四百	-11.5905
為實實如法而一得	-11.5912
甲乙丁三角形	-11.5913
安得不	-11.5932
監官	-11.5954
甲本銀	-11.5955
月交一十三日九	-11.5978
斜角形	-11.5978
十一月乙未朔	-11.5979
和較相乗	-11.598
試依	-11.5988
買米	-11.5997
得其真	-11.6002
億四千四百	-11.6007
漸升	-11.6011
尖切	-11.6012
北海	-11.6015
大于象限	-11.6015
□□□□□	-11.6024
年正月庚申朔十一月	-11.6032
應閏二百	-11.6041
二十面體之每一邊	-11.6043
八分内五十一秒冬至	-11.6044
鉞	-11.605
雩	-11.6054
日酉正初刻十	-11.6056
籮	-11.6058
電	-11.606
墟	-11.6061
貳	-11.6063
千九百七十	-11.6063
捴	-11.6064
度昏正中	-11.6065
麴	-11.6065
逼	-11.6067
商三方廉面積以除	-11.6072
闊二十尺	-11.6072
次汎時	-11.6072
應閏蓋後九月	-11.6073
芻甍	-11.6074
埀	-11.6074
其縱横相遇即所求之	-11.6077
三角形為同式形故	-11.6077
尺爲次商廉法以除次商積足	-11.6077
醫	-11.6078
碍	-11.6078
四因隅法得	-11.6078
无	-11.6078
併初次商	-11.6079
日周一萬	-11.6079
身外加	-11.6079
炤	-11.6079
小均輪	-11.6079
逈	-11.6079
改憲	-11.6081
毎期三百六十五日二時六刻	-11.6081
茂	-11.6081
十一萬九千里	-11.6081
冝	-11.6082
年正月辛夘朔十一月	-11.6082
抹去	-11.6082
籠	-11.6083
起算之端	-11.6083
枵	-11.6083
幂開方得	-11.6083
爲實實如法得一	-11.6084
四三七五	-11.6085
藥	-11.6085
諧	-11.6085
一率半徑一千萬為二率	-11.6085
挾	-11.6086
齊侯	-11.6086
雉	-11.6087
三一四一五九二六五	-11.6087
五日二十三刻	-11.6087
綸	-11.6087
逰表	-11.6088
距正午赤道度	-11.6088
鈔	-11.6088
悞	-11.6089
梅文鼎	-11.6089
渡	-11.6089
鄙	-11.6089
昨	-11.609
真刻分	-11.609
嵩	-11.609
長闊之較	-11.609
俞	-11.6091
嵩髙	-11.6091
敦	-11.6091
婆羅門	-11.6092
彈	-11.6092
盈六兩	-11.6092
浩	-11.6092
秩	-11.6092
閱	-11.6092
半外角切線	-11.6093
活	-11.6094
指時度表	-11.6094
晏	-11.6094
𨽻	-11.6094
愛	-11.6095
陋	-11.6096
應天府	-11.6097
禮部知道	-11.6098
迷	-11.6099
闔	-11.61
分六十四秒	-11.61
競	-11.6101
之比既得	-11.6101
抽竒	-11.6102
所截之闊	-11.6103
釐七毫五絲	-11.6105
也此法蓋因	-11.6105
太白辰星	-11.6105
黃鐘	-11.6105
罔	-11.6106
極逺處	-11.6107
人分銀	-11.6107
宣夜	-11.6108
二十八舍	-11.6109
賛	-11.611
圓窖	-11.611
初虧復圓時刻	-11.6113
二釐五毫	-11.6118
綱目書	-11.6119
朔朢時	-11.6122
為心甲為界	-11.6125
四度四十六分	-11.6127
而後可以	-11.6134
二十四銖	-11.6135
古九章	-11.6135
暦術	-11.6141
為勾冪	-11.6146
下錦	-11.6147
禮臣	-11.6148
太隂地半徑差	-11.6148
三角尖堆積	-11.6148
夏五月	-11.6151
素問	-11.6153
周天三百六十五度	-11.6155
在日前	-11.6158
失光	-11.6164
寸六分六釐	-11.6167
一千五百八十	-11.6169
積尸	-11.6169
午未申酉	-11.6169
簡便	-11.617
六十九秒	-11.6176
賜名	-11.618
秒五十㣲	-11.6181
太陽視半徑	-11.6199
史閏二月	-11.6201
為隅法併從方	-11.6202
斗四度	-11.6206
五一四	-11.6211
如法而一	-11.6213
縮末	-11.6218
星在黄道南	-11.6219
從上亷	-11.6221
箕四度	-11.6226
地谷	-11.6226
圜之界	-11.6227
盤心	-11.6242
友人	-11.6246
度八七五	-11.6254
二百二十八	-11.626
線與線	-11.6261
論曰試于	-11.6266
幾倍大	-11.6276
平行而等	-11.6282
積度全分	-11.6286
最難	-11.6297
兩端各	-11.63
練	-11.6315
之積也又法以	-11.6319
乙角之餘弦	-11.6332
二丈二尺	-11.6352
䝉氣	-11.6373
兩九錢	-11.6386
與日㑹	-11.6387
附㑹	-11.6403
史志	-11.6405
千零七	-11.6408
囘囘	-11.6415
根則餘	-11.6426
東壁	-11.6427
真時白經高弧交角	-11.6429
撱圎	-11.6435
七分内五十一秒冬至	-11.6463
見本卷	-11.6464
十一月丁夘日	-11.6466
辰初一刻	-11.6471
出地平上	-11.6472
互易	-11.6478
邵	-11.6481
彗	-11.6482
圜之半徑	-11.6483
一萬二千九百	-11.6484
等邊平面	-11.6484
倍初商加次商	-11.6489
十一月戊戌	-11.6501
燒	-11.6503
差而西	-11.6508
麤	-11.6513
一步九分六釐	-11.6516
月九日	-11.6521
宵	-11.6525
濃	-11.6525
相等兩邊各加	-11.6525
紫微垣	-11.6526
酬	-11.6527
黄赤二經交角	-11.6527
薄蝕	-11.6527
烟	-11.6528
駑馬	-11.6528
實行足減本年	-11.6529
榆	-11.6529
鋼	-11.6531
滿周天一百二十九萬六千秒去之餘	-11.6531
炁	-11.6533
一石六斗	-11.6533
二十三萬八千里	-11.6533
三角求邊	-11.6533
置一於左上為法	-11.6534
乙亥年丙子月	-11.6534
剪毛	-11.6534
如圖甲為天頂甲乙丙丁	-11.6534
之定率比例以	-11.6534
年至此十一閏為一紀	-11.6535
丁丑年庚子月	-11.6535
範	-11.6535
鎔	-11.6535
譔	-11.6536
地心所出	-11.6536
一小正方形	-11.6536
用切線分外角	-11.6536
伍	-11.6536
茲	-11.6537
4.4	-11.6537
5.1	-11.6537
鮑	-11.6537
弑	-11.6537
自南而北	-11.6537
依條段求之	-11.6537
4.1	-11.6537
己巳年甲子月	-11.6538
5.3	-11.6538
丙寅年戊子月	-11.6538
4.2	-11.6538
5.2	-11.6538
5.4	-11.6538
乙丑年丙子月	-11.6538
4.3	-11.6538
薪	-11.6539
斬	-11.6539
月與五星	-11.6539
更體線	-11.6539
烝	-11.6539
紊	-11.6539
摘	-11.654
玩	-11.654
詣	-11.654
至朔同日	-11.654
介	-11.6541
盆	-11.6542
窺筩	-11.6543
沖	-11.6543
枕	-11.6544
展起	-11.6544
譌	-11.6544
鶉首初度	-11.6544
瑞	-11.6545
以乘上位得	-11.6545
原本銀	-11.6545
隕	-11.6545
𤣥武	-11.6545
天市垣	-11.6545
術曰二行相乘	-11.6545
祇	-11.6546
參伍	-11.6547
進一度即日右行退一度退十五度而	-11.6547
紐星	-11.6547
燦	-11.6548
乙出東門南行	-11.6549
卧	-11.6549
倍隅法得	-11.655
韶	-11.655
分八十四秒	-11.6552
播	-11.6552
巫咸	-11.6552
牧	-11.6552
正弦為三率求得四率為秒以分収之得	-11.6553
塔頂	-11.6553
豎	-11.6553
蒲	-11.6554
蘆	-11.6554
梓	-11.6555
艱	-11.6555
失一閏	-11.6555
驚	-11.6556
皆無減	-11.6556
複	-11.6556
寢	-11.656
去址	-11.6561
魏文魁	-11.6562
等謹按	-11.6565
宫末度	-11.6567
對角之弧	-11.6568
律吕	-11.6569
乘四次	-11.6571
底置尺	-11.6571
地平高下差	-11.6572
十一月乙亥日	-11.6572
不能度盡	-11.6577
四遊圏	-11.6578
隂雲	-11.6578
六六六六	-11.658
窺管	-11.6585
新㑹	-11.6585
峰	-11.6586
陰陽厯	-11.6588
木閣	-11.6589
上層多	-11.6591
虚黄方	-11.6592
初虧復圓用時	-11.6592
安髙弧	-11.6594
最短	-11.6601
二分二至	-11.6605
書於左	-11.6606
庚辰朔日食	-11.6608
員柱	-11.6608
為單位則	-11.6611
日出入時刻	-11.6613
叀股	-11.6616
大槩	-11.6617
户納糧	-11.6618
註云	-11.6619
記加減號	-11.662
珠算	-11.662
用時白經高弧交角	-11.6621
隨地不同	-11.6622
小尖圓體	-11.6622
為二率今所設之圓球徑一尺二寸	-11.6632
十六兩八錢	-11.6635
僖公五年	-11.6642
角旁弧	-11.6646
匠人	-11.6652
四千零	-11.6652
凸面	-11.6661
又九之	-11.6679
角之對邊	-11.6686
任用一	-11.6686
丁角之正弦	-11.6695
相值	-11.672
刻一十三分	-11.6722
通分内子	-11.6735
心向	-11.6747
麥價	-11.6786
二千二百八十	-11.6799
幾何法借	-11.68
子初一刻	-11.6801
十一月壬辰	-11.6814
十等邊形之面積	-11.6815
如圖甲乙丙三角形	-11.6817
計開甲	-11.6832
求之即得	-11.6836
黄赤經緯	-11.6851
十一月辛亥朔	-11.6869
二道之交	-11.6886
刻夜半日度	-11.6898
從乙作	-11.6907
亥初二刻	-11.6925
上定十位其	-11.6926
古無星	-11.693
甲至丁	-11.6951
善行者	-11.6957
分中之	-11.6967
幾十幾	-11.6968
首朔太隂交周	-11.6968
入隂厯	-11.6976
上兩直角方形	-11.6985
棚道	-11.6997
蒸	-11.6998
正交定限度	-11.7
徑一圍三	-11.7002
食甚入盈縮厯	-11.7004
輛	-11.7005
御製厯象考成上編卷	-11.7005
陟	-11.7007
大僧饅首	-11.7007
為三乘方實	-11.7008
勉	-11.7008
年至此十一閏一紀縮一年下起	-11.7008
江河	-11.7009
杯	-11.7009
丁亥年庚子月	-11.7009
壬午年庚子月	-11.7009
邊與半總之較	-11.7009
懷	-11.7009
考靈耀	-11.701
壬寅年庚子月	-11.701
辛丑年戊子月	-11.701
辛巳年戊子月	-11.701
火木土	-11.701
辛卯年戊子月	-11.701
十二宫減之	-11.701
丙午年戊子月	-11.701
丙申年戊子月	-11.701
轉際	-11.7011
丁酉年庚子月	-11.7011
乳	-11.7011
庚寅年丙子月	-11.7011
瞡筩	-11.7011
癸巳年壬子月	-11.7011
庚戌年丙子月	-11.7011
戊申年壬子月	-11.7011
甲午年甲子月	-11.7011
孔雀	-11.7012
熾	-11.7012
冥	-11.7012
東西泛差	-11.7013
癸亥年壬子月	-11.7013
隨地隨時	-11.7013
癸丑年壬子月	-11.7014
窟	-11.7014
闊比髙多	-11.7014
戊午年壬子月	-11.7014
毎期三百六十五日二時五刻	-11.7014
辛酉年戊子月	-11.7014
虗	-11.7014
郤	-11.7014
清蒙之氣	-11.7015
熹	-11.7015
星距地心線	-11.7016
櫃	-11.7016
暢春園	-11.7017
灼然	-11.7017
鼏	-11.7017
祠	-11.7017
柰	-11.7018
容員半徑	-11.7018
百隻	-11.7018
九十三日七	-11.7018
蟻	-11.7018
毒	-11.7018
黃白大距	-11.7019
有邊求積	-11.7019
湯若望	-11.7019
瞭	-11.702
去之不滿	-11.702
平立定三差	-11.7021
一小時化作三千六百秒為	-11.7021
如圗甲乙丙丁	-11.7021
駕	-11.7022
黄宏憲	-11.7022
絰	-11.7022
弧之正弦檢表得	-11.7022
之比也既得	-11.7023
隋志	-11.7024
厨	-11.7024
少二眞數	-11.7024
訛舛	-11.7025
其理同也	-11.7026
深淺	-11.7026
南行為通股	-11.7026
申正二刻	-11.7026
該若干答曰	-11.7026
籥	-11.7027
蔵	-11.7028
囤	-11.703
小於併徑	-11.703
聖裁	-11.703
為二率一分為三率推得四率	-11.703
傭錢	-11.7031
瓦匠	-11.7031
貫索	-11.7032
奈何	-11.7034
兩行之差	-11.7036
之比例亦大于	-11.7038
洪武甲子	-11.7038
白道限度	-11.7039
退衝	-11.7041
五星凌犯	-11.7042
交角加分	-11.7043
之比即同於今所設之甲乙丙丁	-11.7043
財	-11.7045
一千四百八十	-11.7045
月行遲疾	-11.7048
龍柱	-11.7049
製器	-11.7052
本圏心	-11.7053
最遠	-11.7053
宻室	-11.7056
整齊	-11.7057
句弦并	-11.7058
在赤道外	-11.706
七政行度	-11.7061
西法謂之	-11.7063
昭公二十	-11.7065
算書之	-11.7066
五百七十六尺	-11.7066
諸儒	-11.7067
督率	-11.7068
庚戊辛	-11.7068
疾遲	-11.7073
日月諸星	-11.7074
為下法與上法相乗除	-11.7075
第二格	-11.7092
為法除之即得	-11.7102
七千七百	-11.7104
近時東西差	-11.7112
七尺一寸	-11.7115
求積之法	-11.7123
初宫初度	-11.7126
用加法	-11.7126
月離厯指	-11.7151
鼈臑體	-11.7154
萬四千里	-11.716
月二十一日	-11.7191
無庸	-11.7206
以全除之	-11.7211
萬二千五百七十	-11.7229
其度相等	-11.7231
絲三忽	-11.7233
行里數	-11.7244
立錐	-11.7307
陸費墀欽定四庫全書	-11.733
亥正三刻	-11.7331
城徑也合問或問	-11.7334
并而半之	-11.7342
鄭注	-11.7366
日九十一刻	-11.7372
六錢五分	-11.7377
十四分内三十一秒冬至史	-11.7387
一千一百二十	-11.7387
以通法除	-11.7387
春分距午時分	-11.7397
羽林	-11.7401
臣淳風	-11.7413
未正三刻	-11.7427
十有八	-11.7458
胡氏	-11.746
闇虚心	-11.7461
斛四斗	-11.7479
穽	-11.7487
又設如原數	-11.7487
於徽術當	-11.7488
貫二百文	-11.749
辛丑朔日食	-11.7491
尖設如原數	-11.7491
抽	-11.7492
距交加分	-11.7498
禍福	-11.75
乘從一廉得	-11.7503
御製厯象考成表卷	-11.7503
察其所對之分秒得	-11.7504
猛	-11.7504
胄	-11.7505
欽定四庫全書御製厯象考成表卷	-11.7505
不及故舎	-11.7506
淳熈	-11.7506
槐樹	-11.7506
為初商積以初商本位計之則	-11.7506
四面體之一邊	-11.7507
六分内三十一秒冬至應閏	-11.7507
為三率二三率相乘一率除之得四率	-11.7507
依本層為正	-11.7509
松	-11.7509
己丑年甲子月	-11.7509
淮南子	-11.7509
黄白升度差	-11.7509
蕐	-11.751
焯	-11.751
以減從方餘	-11.751
𦂳	-11.7511
草曰識别得	-11.7511
每期三百六十五日二時六刻	-11.7511
尺之上合初商共	-11.7511
縮末厯	-11.7511
用交食北極髙四十度黄平象限表以	-11.7511
度是為加差以加於平行而得實行也	-11.7512
諌	-11.7512
交角在四十五度以	-11.7512
閻浮	-11.7512
儻	-11.7512
與城相叅直既而	-11.7513
愽	-11.7513
并記南北號	-11.7513
出西門南行	-11.7513
登臺	-11.7513
應下年閏二月	-11.7513
刻白爾	-11.7513
朗	-11.7514
方程法算之	-11.7514
九九九八五七一	-11.7514
年十一月丙午朔	-11.7515
乂	-11.7515
除不除便以	-11.7515
用時太陽距午赤道度	-11.7515
萌	-11.7516
刻少弱	-11.7516
二百恒年表	-11.7516
本天半徑一千萬	-11.7517
距日加分	-11.7517
草澤	-11.7517
年十一月壬子朔	-11.7518
羯	-11.7518
長方面形	-11.7518
半較角切線	-11.7519
徐光啟	-11.7519
良馬	-11.7519
闊不及長	-11.752
更面線	-11.752
穎	-11.752
律度量衡	-11.752
不及損者	-11.752
汲	-11.752
畜	-11.7521
時憲書	-11.7522
立方開之得	-11.7522
縮初厯	-11.7523
超進	-11.7524
四行時表	-11.7524
貫五百文	-11.7524
閔	-11.7525
崇禎戊辰	-11.7526
桐	-11.7526
頼	-11.7527
細草	-11.7528
敬授人時	-11.7528
聰	-11.7528
花	-11.7528
積年日法	-11.7529
若干畣曰	-11.753
曆	-11.753
以數明之	-11.7531
趙君卿	-11.7531
年正月丙寅朔	-11.7532
太昊	-11.7532
查八線表	-11.7533
幾許	-11.7535
賁	-11.7535
嘉量	-11.7536
蚤	-11.7537
攸	-11.7539
勾弦較九尺	-11.7539
隠公	-11.754
搬	-11.754
所由生	-11.7541
比敷分	-11.7542
退一等	-11.7548
易曉	-11.7551
奉命	-11.7556
回回暦	-11.7562
乙丁與丁丙	-11.7569
有微差	-11.757
一千七百一十	-11.7574
春夏	-11.7575
分本形為	-11.7582
自然之理	-11.7586
寅邜	-11.7591
書所載	-11.7592
交霜降	-11.7618
叀和	-11.7624
周求徑	-11.7629
日子正一刻十	-11.7639
定二子	-11.7641
較求勾股弦	-11.7642
以一根與	-11.7643
見本厯	-11.7651
次開方得一	-11.7658
千九百六十	-11.7665
朔午時日食非	-11.7668
十餘秒	-11.7674
竒偶	-11.7686
甲乙丙丁戊己庚辛壬癸	-11.7706
秒三十三微	-11.7718
丙角之切線	-11.7722
銀八兩	-11.7732
一萬二千五百	-11.7736
劉宋	-11.7739
正月戊子朔	-11.775
六月交二十六日	-11.7753
徽術	-11.7773
億九千四百	-11.7778
泰山	-11.7797
引之至	-11.7802
九百七十二	-11.7807
各自乘相減	-11.7808
六分内四十一秒冬至	-11.7819
萬三千一百二十	-11.7819
三斗二升	-11.7824
長一百二十尺	-11.7839
尺二寸五分	-11.7842
為實實如法而一	-11.785
漸消	-11.786
按此條	-11.7866
鄭氏	-11.7869
五度一十七分	-11.7907
自乗之一正方	-11.7909
分零四秒	-11.7914
絲七忽	-11.7935
兩餘弦相減	-11.7943
尸	-11.7969
鶉	-11.7997
晨疾	-11.8001
響	-11.8009
䭾	-11.8016
術曰如方程	-11.8019
八面體之每一邊	-11.8021
與二直角等	-11.8022
壽	-11.8023
臼	-11.8025
為弦求得股	-11.8027
稟	-11.8028
晨前夜半定星三百	-11.8028
轍	-11.8029
八面體之一邊	-11.8029
恒年表	-11.8029
周三徑一	-11.803
鸞	-11.803
為相連比例三率	-11.803
其比例仍同	-11.8031
櫓	-11.8031
置一乘上廉	-11.8031
圜之輻線	-11.8031
雷電	-11.8032
一正一負故相加得	-11.8033
終古不易	-11.8033
雞翁	-11.8034
疉	-11.8034
旨	-11.8034
為二率今所得之	-11.8034
黃平象限	-11.8034
傭	-11.8035
鳬	-11.8035
自末位起算每方積	-11.8035
脚跡	-11.8035
藝文志	-11.8036
愆	-11.8036
瞬	-11.8036
𨼆	-11.8037
從坤隅	-11.8037
之假數即以一	-11.8037
之假數書於減餘之下相減	-11.8037
先推太陽躔	-11.8038
為三率則得四率	-11.8038
論曰如云不然	-11.8038
鼈	-11.8038
交前交後	-11.8038
上考往古	-11.8038
螽	-11.8038
前多後少	-11.8039
至槐樹下	-11.8039
毘	-11.8039
闊之較用帶縱較數開平方法算之得闊	-11.8039
以存其位	-11.8039
金五百八十三日九十	-11.8039
萬尺之上而以	-11.804
麿	-11.804
轄	-11.804
佗	-11.804
黄赤道大弦	-11.804
立表取景	-11.804
九兆三千	-11.804
徃徃	-11.804
距午定分	-11.804
宫一宫十宫初宫十一宫一宫十宫	-11.804
初數次數	-11.804
列甲左	-11.8041
相當各界	-11.8041
稀	-11.8041
芥	-11.8041
羅婆	-11.8041
食旣生光	-11.8041
閻浮樹	-11.8042
今以法考之是	-11.8042
距交加差	-11.8042
慧	-11.8042
笇	-11.8042
各多少答曰外	-11.8042
磁	-11.8042
洛下閎	-11.8043
銅二斤	-11.8043
祚	-11.8043
一一二八三七九	-11.8043
葭	-11.8043
體等三入	-11.8043
􁅙	-11.8044
三分之每分	-11.8044
哲	-11.8044
途	-11.8044
顔	-11.8044
懿	-11.8044
攝提	-11.8045
年十一月癸未朔	-11.8045
海島	-11.8045
空位籌	-11.8045
阻	-11.8046
榖雨	-11.8046
正勾股定分之	-11.8046
聖賢	-11.8046
紫薇	-11.8046
徐光啓	-11.8047
奄	-11.8047
上直角方形并與	-11.8047
一十一度三十	-11.8047
祖沖之	-11.8047
二月交一十四日	-11.8047
般	-11.8047
彈丸	-11.8048
季春	-11.8048
囘奏	-11.8048
纂修	-11.8048
動的月	-11.8048
十百千萬	-11.8048
汴	-11.8048
年十一月丁亥朔	-11.8048
展開勿令移動	-11.8049
年十一月甲午朔	-11.8049
晉侯	-11.8049
隸	-11.805
噶西尼	-11.805
乗之即得今有	-11.8051
技	-11.8051
劄	-11.8051
紫炁	-11.8052
為同數與左相消得丨	-11.8052
唐開元	-11.8053
彷	-11.8053
貌	-11.8053
元嘉厯	-11.8054
未時日食非	-11.8054
不妨	-11.8054
範圍	-11.8054
異乘同除	-11.8055
交周距弧	-11.8055
慝	-11.8055
緑	-11.8056
斟酌	-11.8056
此二率者	-11.8056
絃	-11.8057
朕	-11.8057
有圜求	-11.8058
冩	-11.8059
入元嵗	-11.8059
矛	-11.8059
隨天左旋	-11.8059
我朝	-11.8061
保章	-11.8062
六十度之通弦	-11.8063
隔一位	-11.8064
甄鸞按	-11.8064
食分多寡	-11.8064
卯正酉正	-11.8066
黨	-11.8066
迄夏至	-11.8067
割綫	-11.8068
耿	-11.8069
司禄	-11.807
妃	-11.8072
四面體之每邊	-11.8074
雞母	-11.808
五金線	-11.8082
行九十度至	-11.8083
角又等	-11.8089
形之一邊	-11.809
辰初二刻	-11.8095
六月戊申朔	-11.8099
崇禎三年	-11.8101
有二種	-11.8113
有餘即所求	-11.8131
弦求股	-11.8133
十一月甲辰朔	-11.8135
臣淳風等謹	-11.8136
與黄道相交	-11.8163
略舉	-11.8168
秒一十四微	-11.8172
八秒二十㣲	-11.8178
周遭	-11.8181
晷漏	-11.819
申正三刻	-11.8208
月初四日	-11.8226
與九十度相	-11.8296
十字相交	-11.8311
在本天最髙	-11.8313
加時定星三百	-11.8325
崇禎元年戊辰	-11.8333
所積之	-11.8378
須彌山	-11.8384
一千零五十	-11.8428
具題本月	-11.8433
併從方共	-11.8439
七政經緯	-11.8493
以法除實	-11.8509
直剖	-11.853
東西定差	-11.8539
秒四十㣲	-11.8553
正月乙夘朔	-11.8564
曚	-11.8567
千五百里	-11.8572
罌	-11.8575
宋元嘉	-11.8577
根旣與	-11.8579
糲飯	-11.858
心宿第二星	-11.858
所知之邊為三率求得四率	-11.8581
炭	-11.8582
芳	-11.8582
三百六十五日二十三刻	-11.8583
逐年天正冬至次日子正	-11.8583
臑	-11.8584
日距地髙	-11.8585
尅	-11.8586
理分中末線之大分	-11.8586
膠	-11.8586
谷白泥	-11.8586
促	-11.8587
秀	-11.8587
一多一少	-11.8588
芻	-11.8588
為所知之邊其	-11.8588
廪	-11.8588
月距日次引	-11.8589
夏小正	-11.8589
邇	-11.8589
差而遲	-11.8589
積相等邊線不同之定率比例以定率之	-11.8589
五十度零五分	-11.859
嵗正月庚申朔十一月	-11.859
隋劉焯	-11.859
尺爲初商積與	-11.859
御製厯象考成	-11.859
開連枝	-11.8591
氣應七日六五六三七四九二六	-11.8591
龍頭龍尾	-11.8591
周嵗三百六十五日二四二一八七五	-11.8593
演紀上元甲子距	-11.8593
行化秒為一率	-11.8593
五萬九千四十九	-11.8593
一萬四千八百二十三度	-11.8593
軰	-11.8594
御製數理精藴	-11.8594
三之四而一	-11.8594
稼	-11.8594
黄道交極圏角	-11.8595
周嵗平行表	-11.8595
弼	-11.8595
4.5	-11.8595
婆娑	-11.8595
遙相望	-11.8596
乘上廉	-11.8596
1.3	-11.8596
法為全與	-11.8596
互和折半	-11.8596
減從開平方法見二卷	-11.8597
以減下廉餘	-11.8597
八十八日九	-11.8597
黄赤大距二十三度二十九分三十秒	-11.8597
隋開皇	-11.8598
徂	-11.8598
乏	-11.8598
年十一月乙亥朔	-11.8598
合而觀之	-11.8598
趺	-11.8599
釐有餘三歸之得	-11.8599
掩食凌犯	-11.8599
翕	-11.8599
勾股求容圓	-11.86
暉	-11.86
染	-11.86
迂	-11.8601
攘	-11.8601
廣州府	-11.8601
年十一月辛丑朔	-11.8601
凉	-11.8601
該衙門知道	-11.8601
靈憲	-11.8601
性情	-11.8601
藴	-11.8601
以亷減縱	-11.8601
縷	-11.8602
倪	-11.8602
謄	-11.8602
子午卯酉	-11.8602
畞	-11.8602
旁負縱	-11.8602
年十一月癸亥朔	-11.8603
月庚子朔日食	-11.8603
案呈到部	-11.8603
體等二入	-11.8603
棟	-11.8604
攜	-11.8604
洽	-11.8604
詆	-11.8604
作甲丁垂線	-11.8605
笑	-11.8606
髙深廣逺	-11.8606
溷	-11.8606
寥	-11.8606
繆	-11.8607
包羲	-11.8607
議叙	-11.8607
欽遵	-11.8608
斡	-11.8608
落下閎	-11.8608
大梁初度	-11.8608
朱光大	-11.8609
鬼神	-11.8609
自心至	-11.8609
低昂	-11.8609
剌	-11.8609
甲乙丙與丁戊己	-11.861
敏	-11.8611
永久	-11.8612
中田苗米	-11.8612
茶	-11.8612
下田苗米	-11.8612
懇	-11.8612
軒	-11.8613
近時兩心視相距	-11.8615
平差立差	-11.8619
為四叚	-11.8622
歎	-11.8623
遠鏡	-11.8623
開闢	-11.8625
望筒	-11.8626
㝠	-11.8626
璇璣	-11.8627
叅訂	-11.8631
甲丁與丁乙	-11.8636
秒五十七微	-11.8639
實朔交周	-11.8644
蠟	-11.8645
赤道以南	-11.8658
倍大之比例	-11.871
食甚日躔黄道	-11.8722
曜經曰	-11.8723
月癸丑朔日食	-11.8735
謂此也	-11.8748
四釐六毫	-11.877
古今注	-11.8781
加天元得	-11.8783
四分内二十一秒冬至史	-11.8787
撱圎體	-11.8792
相乘之長方	-11.8814
餘通秒	-11.8817
萬四千六百八十	-11.8835
此法葢以	-11.8836
互換	-11.8883
理未敢擅便謹題請㫖計開	-11.8938
漸逺漸	-11.8945
法為全數與	-11.8953
度一十六分五十	-11.8953
分為一率總	-11.9011
毎期三百六十五日二時七刻	-11.9014
萬三千四百四十	-11.9028
月甲戌朔日食	-11.9035
千餘年	-11.9047
十九萬六千秒	-11.9081
日今同	-11.9089
日六十二刻	-11.909
建寅之月	-11.9153
食甚入縮厯	-11.9159
為除出之分	-11.9161
爲實實如法得	-11.9162
囷	-11.9163
鷹	-11.9164
異加正	-11.9166
閼	-11.9167
中心平分距分五十分	-11.9169
抽偶	-11.917
算經十書	-11.9171
蕃	-11.9173
兩矢之較	-11.9173
盈加縮減	-11.9173
鬱	-11.9174
十萬三千里	-11.9174
陶	-11.9175
率相對之假數	-11.9175
天經或問	-11.9175
變負為正	-11.9177
一晝一夜	-11.9177
依號加減	-11.9178
當期之日	-11.9179
弦虚弦共	-11.9179
圜面積一尺一十三寸零九分七十三釐	-11.918
次商廉隅之共積	-11.918
屠	-11.918
据	-11.918
漠	-11.918
如以真數明之	-11.9181
崖	-11.9181
三垣二十八宿	-11.9181
鐵勒	-11.9181
貸	-11.9181
馬三匹	-11.9181
也表以十分為率若	-11.9182
宝星經	-11.9182
九分内一秒冬至應閏	-11.9183
嵗正月丙辰朔十一月	-11.9183
麿羯宮	-11.9183
顓帝	-11.9183
曉菴新法	-11.9183
族	-11.9184
伊尹	-11.9184
自一至九	-11.9184
也何以言之	-11.9184
乗之内子	-11.9184
八月交一十四日	-11.9184
肉眼	-11.9184
上下不等圎面體	-11.9184
為同理之比例	-11.9185
遑	-11.9185
雍正元年	-11.9185
過極經圏	-11.9185
藩	-11.9185
紛紛	-11.9186
乙出東門南行三十步	-11.9186
宫一十五度為	-11.9186
年十一月庚寅朔	-11.9186
革象新書	-11.9187
訶	-11.9187
儼	-11.9188
字今補	-11.9188
赫	-11.9188
睿	-11.9188
合退伏	-11.9188
墊	-11.9188
元李冶撰	-11.9188
王朴	-11.9189
天正閏餘	-11.9189
浙江	-11.9189
賊	-11.9189
馬四匹	-11.9189
年十一月己亥朔	-11.919
城外東北艮隅	-11.919
擅	-11.919
周髀算經	-11.919
執徐	-11.9191
圓囷	-11.9191
劉焯	-11.9191
年十一月乙丑朔	-11.9191
年十一月庚午朔	-11.9192
贍	-11.9192
凟	-11.9192
邢	-11.9192
通鑑綱目	-11.9192
綱目漏	-11.9192
距地之立方	-11.9193
霞	-11.9193
寘	-11.9193
貿	-11.9194
不入交不應食	-11.9194
嵗前冬至	-11.9194
年十一月甲寅朔	-11.9194
侍郎	-11.9195
王應遴	-11.9196
彊	-11.9196
喙	-11.9196
揭	-11.9196
賸	-11.9196
乾鑿度	-11.9197
討	-11.9197
恂	-11.9197
涸	-11.9198
甲從乾隅南行六百步	-11.9199
庻	-11.92
盞	-11.92
戰國	-11.9203
幣	-11.9204
班固	-11.9207
經在赤經	-11.9208
為圓徑冪	-11.9212
夾鍾	-11.9212
尺與原積	-11.9213
朔辰時日食非	-11.9214
快	-11.9214
加時在晝	-11.9215
怒	-11.9215
平廉約數	-11.9217
申酉戌亥	-11.9219
牌	-11.9222
牲	-11.9224
與前法同	-11.9231
分立方之一	-11.9231
連比例之中率	-11.9232
絹一疋	-11.9235
為平廉法	-11.9242
十分内三十一秒冬至應閏	-11.9263
一兩三錢	-11.9271
星在次輪周	-11.9298
五月交二十六日	-11.9302
三石二斗	-11.9312
角之正割	-11.9314
七秒三十㣲	-11.932
二石一斗	-11.9328
所以然之故	-11.9329
萬四千六百四十	-11.9369
得一百二十步倍之即城徑也合問或問	-11.9375
秒與下層	-11.9421
秒三十八微	-11.9508
月初一	-11.9552
庚與辛	-11.9577
積求徑	-11.9631
減半徑得	-11.9652
朔日食五月交	-11.9653
月戊子朔日食	-11.968
以高乘	-11.972
建子之月	-11.974
填	-11.9744
糳	-11.9754
粺	-11.9757
匀	-11.976
竺	-11.9766
度之兩㸃依	-11.9767
千七百九十	-11.9775
螺	-11.9779
义	-11.978
距餘半	-11.978
一甲與二乙	-11.9785
毬	-11.9788
七萬零七百一十	-11.9792
禾一秉	-11.9792
帥	-11.9793
搖	-11.9793
煉	-11.9794
以秒法通之即得	-11.9794
麟德	-11.9796
術曰以粟求	-11.9796
瓊	-11.9797
差而早	-11.9797
妖祥	-11.9797
度萬七千八百六十分度之	-11.9798
爲次商積而以初商之	-11.9798
或等或小	-11.9799
之比必同於	-11.9799
與餘積相減恰盡是開得	-11.9799
本層少	-11.9799
悮	-11.98
與法求等得	-11.98
乃以半徑十萬為一率	-11.98
復圓月距限	-11.9801
層皆負故相減餘	-11.9801
一小時之實行	-11.9801
田一畝	-11.9802
太陽髙卑差	-11.9802
可食之限	-11.9802
嵗正月乙未朔十一月	-11.9802
相等故以子丑寅卯	-11.9802
負圜角	-11.9802
歩天歌云	-11.9802
嵗正月甲子朔十一月	-11.9803
僦值	-11.9803
莽	-11.9803
嵗正月庚子朔十一月	-11.9803
赤道同升度	-11.9804
灼	-11.9804
嵗正月乙卯朔十一月	-11.9804
年根以積日與	-11.9804
灌	-11.9804
五二三五九八七七五	-11.9804
潢	-11.9805
暘	-11.9805
崇寧	-11.9805
為本天半徑千萬分之	-11.9805
夜半火星度	-11.9805
嵗正月丙申朔十一月	-11.9805
歲正月己酉朔十一月	-11.9805
立夏十五日六時七刻	-11.9806
㽔賓	-11.9806
嵗正月甲申朔十一月	-11.9806
之軌道	-11.9806
歲正月乙酉朔十一月	-11.9806
兩周相切	-11.9807
諾	-11.9807
賤	-11.9807
二月入月已來日	-11.9807
九百零四寸七百七十八分六百八十	-11.9807
長闊之和	-11.9807
廣東廣州府	-11.9808
二至出入差	-11.9808
諌經曰	-11.9808
内少个	-11.9808
駟	-11.9809
六月交一十四日	-11.9809
佛國暦象編	-11.9809
時刻置食甚時刻	-11.9809
入月定日	-11.9809
蔓	-11.9809
同底同髙	-11.981
畿	-11.981
下推將來	-11.981
娶	-11.981
錫六斤	-11.981
單閼	-11.9811
渉	-11.9811
以減益從方餘一百	-11.9811
年十一月己丑朔	-11.9811
日食史官不見	-11.9811
弁	-11.9811
丈零五寸	-11.9811
清淨	-11.9811
四七一四	-11.9812
隐	-11.9812
冇	-11.9812
行夏之時	-11.9812
上下不等撱圎面體	-11.9813
初虧月距限	-11.9813
恪	-11.9813
凖前論	-11.9813
未復光	-11.9813
食甚入盈縮厯行定度	-11.9813
睹	-11.9813
弧之正切檢表得	-11.9814
朝廷	-11.9814
年十一月庚戌朔	-11.9814
絜	-11.9814
二十九日九百四十分日之四百九十九	-11.9814
七百七十九日九十	-11.9814
就以次商	-11.9815
年十一月丁丑朔	-11.9815
畸	-11.9815
溺	-11.9815
年十一月癸酉朔	-11.9816
瓶	-11.9816
用規器	-11.9816
鋦	-11.9817
用順度	-11.9817
祖暅	-11.9818
之問得幾何法	-11.9818
午前午後	-11.9818
在平行線内	-11.9819
涯	-11.9819
兢	-11.9819
瑁	-11.9819
八八六二二六	-11.9819
得二十七日五十五刻四五	-11.982
薦	-11.982
堆垜	-11.982
丑宫未宫	-11.9822
繳	-11.9822
劉有慶	-11.9822
初虧食甚復圓	-11.9823
年十一月辛酉朔	-11.9823
僕	-11.9823
駭	-11.9823
網	-11.9823
職銜	-11.9824
昧爽	-11.9824
竄	-11.9824
滑	-11.9824
比例規解	-11.9825
託	-11.9826
真時太陽距午赤道度	-11.9827
王蕃	-11.9828
三稜體	-11.9829
辟	-11.983
寳源	-11.983
鑑	-11.9831
亨	-11.9831
以一步九分六釐乗之	-11.9831
杠	-11.9833
十户共	-11.9834
鰲	-11.9834
敝	-11.9835
省一算	-11.9836
立法之意	-11.9838
千九百五十	-11.9839
公同測驗	-11.9839
貯	-11.984
筮	-11.984
縀	-11.9845
邉等形	-11.9851
右執法	-11.9853
以規取	-11.9854
得半徑草曰立天元一為半徑	-11.9855
實緯在黄道北	-11.986
星之經緯度	-11.9881
二升五合	-11.9886
分八十五秒	-11.9896
秒四十三微	-11.9903
年十一月戊午朔	-11.9911
周相減用其餘	-11.9914
毫五絲	-11.9965
練絲	-12.0004
月初九日	-12.0186
率與二率	-12.0209
人得銀	-12.0248
凸	-12.0329
孚	-12.0427
娄	-12.0456
以統法除	-12.0457
百里之國	-12.0457
羨	-12.0462
所變時分	-12.0462
日數以所設日數與	-12.0462
乘出之數	-12.0463
晶	-12.0463
交而相分	-12.0464
五億五千	-12.0464
踏	-12.0464
輿鬼	-12.0464
丁卯年庚子月	-12.0465
合朔時太陽度	-12.0465
出東門直行	-12.0465
黄白二經交角	-12.0465
陬	-12.0465
與上法相乘得	-12.0466
剩	-12.0466
面積不同之定率比例以定率之	-12.0466
置黄道半弧弦	-12.0467
之定率比例以定率之圜徑一	-12.0467
之半邊之比既得半邊倍之即全邊	-12.0468
相乗之一長方	-12.0468
瀆	-12.0468
躋縮	-12.0468
法除之得半徑帶從	-12.0469
互相為比即同於	-12.0469
嵗正月壬寅朔十一月	-12.0469
鳳	-12.0469
之比亦必同於	-12.047
嵗正月癸酉朔十一月	-12.047
此疊借互徵法	-12.047
七分兩之	-12.047
自乘而三之	-12.047
嵗正月庚辰朔十一月	-12.047
商一小隅面積合三方	-12.047
也又用求圜内各形之	-12.047
併徑白經交角	-12.047
嵗正月壬子朔十一月	-12.047
相乘之數以之為法除原實	-12.047
黄白距度表	-12.0471
尺爲一立方積又以	-12.0471
嵗正月丁丑朔十一月	-12.0471
又以兩層所減數按位相加得	-12.0471
大衍厯議曰	-12.0471
秒零七微	-12.0472
或加或减	-12.0472
合前問	-12.0472
為從廉併從方共得一百	-12.0472
壹	-12.0472
置閏應在次年二月後	-12.0472
白道髙弧交角及	-12.0472
嵗正月壬戌朔十一月	-12.0473
置閏應在次年三月後	-12.0473
年十一月丁夘朔	-12.0473
一日一夜	-12.0473
嵗正月丙戌朔十一月	-12.0473
三十一秒冬至戊戌年壬子月	-12.0473
嵗正月乙亥朔十一月	-12.0473
自乘得一尺四十四寸為三率求得四率	-12.0473
星増二星	-12.0474
摠	-12.0474
朏	-12.0474
嵗正月甲辰朔十一月	-12.0474
一秒冬至乙未年丙子月	-12.0474
牟休多	-12.0474
歲正月辛卯朔	-12.0474
忍	-12.0474
象限九十一度三一	-12.0474
祀天於南郊今推至日合	-12.0475
河鼓中星	-12.0475
寰	-12.0475
÷	-12.0475
三十一秒冬至壬戌年庚子月	-12.0475
閃	-12.0475
初宫十一宫一宫十宫初宫十一	-12.0475
㡳	-12.0475
秒實測月離	-12.0476
拾	-12.0476
年十一月庚子朔	-12.0476
血	-12.0476
詳交食厯理	-12.0476
佛敎	-12.0476
楊之華	-12.0476
三十一秒冬至甲辰年甲子月	-12.0476
銳鈍	-12.0477
搆	-12.0477
景長今同	-12.0477
相去不逺	-12.0478
為有法之形	-12.0478
以自増乗得	-12.0479
近時視距弧	-12.0479
廓	-12.0479
角宿南星	-12.0479
位焉其神如	-12.0479
四川成都府	-12.048
日距月最髙	-12.048
年十一月己巳朔	-12.048
砂	-12.048
翰	-12.048
鐻	-12.0481
度太距北極	-12.0481
自乗之四正方	-12.0481
化秒為三率求得四率為秒以分收之得	-12.0481
脉	-12.0482
神農氏	-12.0482
引而長之	-12.0482
妥	-12.0482
南行六百步	-12.0483
躍	-12.0483
十一月交一十四日	-12.0483
伏乞勅下	-12.0483
勾與股弦較	-12.0483
兩餘方形	-12.0484
吴	-12.0484
杜預	-12.0484
祕	-12.0484
五曹算經	-12.0485
鄰	-12.0485
聴	-12.0485
進呈御覽	-12.0486
删	-12.0486
飾	-12.0487
墳	-12.0487
獵	-12.0487
二樹相距	-12.0487
雞雛	-12.0487
之比例必同於	-12.0488
剏	-12.0488
減上位餘	-12.0488
為三率所得四率	-12.0488
日四十五刻	-12.0489
胸	-12.0489
艾	-12.0489
譚	-12.0489
能再食	-12.049
局生儒	-12.049
初終二限	-12.049
粟率五	-12.049
輔臣徐光啟	-12.049
冕	-12.049
太白食日	-12.049
也乃立天元一為	-12.049
戲	-12.0491
貼	-12.0491
一和一較	-12.0492
樞紐	-12.0492
皥	-12.0492
同較衰分	-12.0493
斥	-12.0493
估	-12.0494
寅中卯	-12.0494
徙	-12.0495
用中比例法	-12.0496
鳥獸	-12.0499
釐二毫五絲	-12.05
今本後漢書	-12.05
糯	-12.05
飲	-12.05
用割切	-12.0501
寳泉	-12.0501
憚	-12.0502
璿璣玉衡	-12.0502
之月次名	-12.0502
四正定氣	-12.0505
臍	-12.0505
耘	-12.0506
較相求法	-12.0509
撥牙	-12.0509
翟	-12.0512
周正建子	-12.0517
少三平方	-12.0521
分錢之二	-12.0531
聲二變	-12.0532
為日食第	-12.0543
太陽距黄平象限	-12.0546
置周天半徑	-12.055
分八十六秒	-12.0562
授時爲十	-12.0565
赤道以北	-12.0569
年辛巳嵗	-12.0609
問城徑釋曰此以通	-12.0614
九秒十㣲	-12.0642
二月交一十三日	-12.0654
倍為均	-12.0671
毫四絲	-12.0774
初交夏至	-12.0876
續書於下共	-12.0924
星作距	-12.0989
與城㕘相直	-12.1
行不及斜行	-12.1023
依分釐尺	-12.1086
三角形此形	-12.1116
距弧化秒為三率求得四率為秒以時分	-12.1144
腐	-12.1151
椒	-12.1157
甲戌年甲子月	-12.1166
七等邊形之每一邊	-12.1169
螺柱	-12.1169
嬰	-12.117
食甚至復圓	-12.1171
於是以大小兩數相減折半得	-12.1172
兩正方邊之較	-12.1173
墓	-12.1174
用月離太陰	-12.1174
中外官星	-12.1176
燃	-12.1176
珍	-12.1176
與白道成直角	-12.1178
等邊形之毎邊爲	-12.1179
分底乘大分底	-12.1179
乍	-12.1179
黄道宿鈐内某宿度分則減之餘為	-12.118
躔求宿度法求得本年黄道宿鈐察	-12.1181
昆	-12.1181
仝	-12.1181
裨	-12.1181
八萬六千六百零三	-12.1181
踏蹤	-12.1181
用帶縱較數開平方法算之	-12.1181
置閏則閏月	-12.1182
也如以數明之以根爲	-12.1183
歲正月丁未朔十一月	-12.1183
歲正月己巳朔十一月	-12.1183
年應閏三月	-12.1183
求天正冬至置通積	-12.1184
曚曨影刻分	-12.1184
歲正月乙丑朔十一月	-12.1184
朒十二两	-12.1184
演紀上元	-12.1184
眎	-12.1185
尺少一根自乘得	-12.1185
牟呼栗多	-12.1185
歲正月丙午朔十一月	-12.1185
於分釐尺上取其度	-12.1185
嵗正月辛卯朔十一月	-12.1186
歲正月丁亥朔十一月	-12.1186
歲正月壬寅朔十一月	-12.1186
為法實如法而一草曰置	-12.1186
七日來復	-12.1186
尺乘三次	-12.1186
嵗正月己巳朔十一月	-12.1186
分其日滿紀法六十去之餘	-12.1186
盈四两	-12.1186
縛	-12.1186
如圖甲乙圜徑一尺二寸内容甲丙丁	-12.1187
歲正月壬戌朔十一月	-12.1187
位作記乃於	-12.1187
總存兩餘弦	-12.1187
禮部尚書兼翰林院學士協理詹事府事	-12.1187
朔日食見綱目史無	-12.1187
嵗正月己未朔十一月	-12.1187
為平亷積又以	-12.1187
嵗正月庚寅朔十一月	-12.1187
二十三度二十九分三十秒	-12.1187
小于實商	-12.1187
約之初商一百置一於左上為法置一	-12.1188
嵗正月戊戌朔十一月	-12.1188
用時月距限	-12.1188
交角四度五十八分三十秒	-12.1188
分母通其全分子從之	-12.1188
嵗正月丁亥朔十一月	-12.1188
天包地外	-12.1188
侣	-12.1188
地半景	-12.1188
積後天分	-12.1188
為隅法與廉法	-12.1188
聖祖仁皇帝	-12.1189
嵗正月辛亥朔十一月	-12.1189
這	-12.1189
瞿曇氏暦	-12.1189
分内一秒冬至己未年甲子月	-12.1189
祿	-12.1189
減者亦為減	-12.1189
嵗正月丁酉朔十一月	-12.119
嵗正月庚戌朔十一月	-12.119
◇◇	-12.119
十一秒冬至庚午年丙子月	-12.119
纒	-12.119
咸淳	-12.119
焚	-12.119
郊今推冬至在	-12.119
極分交圏	-12.119
困敦	-12.119
棱	-12.119
淳熙	-12.1191
雙環中空	-12.1191
浙江杭州府	-12.1191
以隅因之得	-12.1191
斜距交角差	-12.1191
以周天三百六十度每度六十分	-12.1192
宦	-12.1192
空位零一至九	-12.1192
六分内三十一秒冬至史	-12.1192
産	-12.1192
誅	-12.1192
自初宫初度至初宫	-12.1192
挺	-12.1193
跋	-12.1193
黄赤全儀	-12.1193
牛五頭	-12.1193
繞地一周	-12.1194
至柳樹下	-12.1194
於甲位減	-12.1194
蔡季通	-12.1194
佚	-12.1194
贊	-12.1194
山東濟南府	-12.1194
岀	-12.1194
吁	-12.1194
尺求積法曰置	-12.1195
為所夾之角用斜弧三角形法	-12.1195
距矩度中心距分	-12.1195
列左又借	-12.1195
五分丈之四	-12.1195
年癸巳嵗	-12.1195
併徑交實緯角	-12.1196
堵	-12.1196
館	-12.1196
加縱多五尺得	-12.1196
埂	-12.1197
新法算書巻	-12.1197
荀	-12.1197
大餘二十日小	-12.1197
形夫形有	-12.1197
貧	-12.1198
一千萬為一率地平高下差化秒為二率	-12.1198
翅	-12.1198
攻	-12.1198
畱	-12.1198
高下差以半徑	-12.1198
宏	-12.1199
姚	-12.1199
太平興國	-12.1199
冬至今同	-12.12
山西太原府	-12.12
瞽	-12.12
嵗月日時	-12.12
月辛酉朔日食	-12.1201
焉乾隆四十六年	-12.1201
嶺	-12.1201
日食四月交二十六日	-12.1201
奉聖㫖據奏	-12.1202
哭	-12.1202
饑	-12.1203
亷隅共積併得	-12.1203
偹	-12.1204
冒	-12.1204
高闊和	-12.1204
謨	-12.1204
糅	-12.1205
撓	-12.1206
䖏	-12.1206
欽天監博士	-12.1207
牡	-12.1207
明邢雲路撰歴代	-12.1208
詮	-12.1208
滿衍母去之	-12.1208
柘城杜知耕撰	-12.1209
禆竈	-12.1209
松江屠文漪撰	-12.1209
湮	-12.121
謹奏為	-12.121
帶縱負隅減縱	-12.121
法曰置積為實以	-12.1211
十秒之後交	-12.1211
至輸所	-12.1211
禦	-12.1212
聿	-12.1214
分八十九秒	-12.1214
不知數但云	-12.1216
償	-12.1217
該銀若干	-12.1217
乗見中法得	-12.1218
厭	-12.1218
妻	-12.1219
撞	-12.1219
九章録要	-12.122
入交泛日	-12.122
半虚黄	-12.1222
三角形求甲角	-12.1224
少二平方	-12.1232
亥日寅正三刻	-12.1232
分内一秒冬至丁未年庚子月	-12.1276
萬二千五百尺	-12.1276
月朔交泛	-12.1317
尺續書於後共	-12.1354
日卯初一刻十	-12.1359
分三釐八毫	-12.1364
與全周相減	-12.1379
秒一十五微	-12.1383
角所對之弧	-12.1421
豪七絲	-12.1498
一分二釐	-12.1525
迄崇禎元年	-12.1526
為心戊為界	-12.1545
日卯初初刻十	-12.1618
月庚午朔日食	-12.1681
毫七絲	-12.1826
○/○○○)	-12.1865
三月交一十三日	-12.188
糲	-12.1906
鹵	-12.1907
藍	-12.1916
堢	-12.1929
彩	-12.1931
程人功	-12.1934
旺	-12.1938
設如有大小二正方	-12.1939
本尖内層數	-12.194
張邱建算經	-12.1941
通分內子	-12.1941
南四星曰	-12.1943
飱	-12.1943
所差無多	-12.1944
為所夾之角	-12.1944
副并爲法以	-12.1945
旃	-12.1945
南戴日下	-12.1945
㢲	-12.1946
臧	-12.1947
左執法	-12.1947
廿三度半	-12.1947
有零分者滿三十分以上則進作一度	-12.1947
皮	-12.1947
如圖甲乙圜徑一尺二寸外切丙丁戊	-12.1948
倍為一率一倍為三率推得四率	-12.1948
趙友欽	-12.1948
厯元康熙二十三年甲子	-12.1948
長闊較用帶縱較數開平方法算之得闊	-12.1949
尺相等卽	-12.195
每邊一尺二寸自乗得一尺四十四寸	-12.195
城東北隅	-12.1951
夙	-12.1951
狄	-12.1951
兩角相對之斜線	-12.1951
旭	-12.1952
歲正月壬子朔十一月	-12.1952
敷	-12.1952
為連比例隔一位相加之比例	-12.1952
綰時度表	-12.1952
等邊形之每一邊及面積幾何法	-12.1952
距所求之年共若干年減一年得積年	-12.1952
嵗正月壬午朔十一月	-12.1953
歲正月己丑朔十一月	-12.1953
之法而轉用之	-12.1953
横量十五丈	-12.1953
求中積分以積年與	-12.1953
歲正月戊寅朔十一月	-12.1953
之比原同於	-12.1953
歲正月癸酉朔十一月	-12.1953
日今同見上年	-12.1953
歲正月壬午朔十一月	-12.1953
㒺	-12.1953
為交終以歩五星	-12.1953
古則以所餘轉與紀法六十相減餘為天	-12.1954
為天正冬至日分上考	-12.1954
為廉隅共法以次商	-12.1954
省城及鄰近地方晝夜長短日出日入	-12.1954
度距中一百	-12.1954
鄭康成	-12.1954
入算化作一百二	-12.1954
實行化秒為一率三千六百秒為二率	-12.1954
春分十五日二時三刻九分	-12.1954
歲正月甲子朔十一月	-12.1954
控	-12.1954
羡	-12.1954
嵗正月丁卯朔十一月	-12.1955
鎭	-12.1955
千里而差一寸	-12.1955
三角形求中垂線法	-12.1955
嵗正月乙丑朔十一月	-12.1955
歲正月戊午朔十一月	-12.1955
求積年自	-12.1955
步問三事各多少答曰	-12.1956
以三千六百秒為一率	-12.1956
嵗正月壬申朔十一月	-12.1956
九萬三千三百一十二	-12.1956
為股求得弦	-12.1956
嵗正月庚午朔十一月	-12.1956
嵗正月戊寅朔十一月	-12.1956
彚	-12.1956
梓慎	-12.1956
或上或下	-12.1956
大僧一人	-12.1956
書於餘積之下相減恰盡是知	-12.1956
為次商三長廉面積復以次商之	-12.1956
炬	-12.1957
歲正月乙巳朔十一月	-12.1957
忽合計三數得	-12.1957
嵗正月丁巳朔十一月	-12.1957
嵗正月甲戌朔十一月	-12.1957
第谷及其門人	-12.1957
太陰距二分弧與黃道交角	-12.1957
白半第八日	-12.1957
貴州貴陽府	-12.1957
一百二十步倍之即城徑也合問	-12.1957
蓄	-12.1957
加者亦為加	-12.1957
母互乘子	-12.1957
也如圖甲乙丙勾股形	-12.1958
分内三十一秒冬至丙辰年戊子月	-12.1958
嫁	-12.1958
雲南雲南府	-12.1958
亮	-12.1958
暦學疑問	-12.1958
髪	-12.1959
度量衡	-12.1959
糊	-12.196
江西南昌府	-12.196
年十一月癸夘朔	-12.196
泄	-12.196
寶瓶	-12.196
慈	-12.196
大荒落	-12.196
有大有小	-12.196
大藏中	-12.196
若均輪心從最髙	-12.1961
三十一秒冬至戊辰年壬子月	-12.1961
秦九韶	-12.1961
依巴谷	-12.1961
半年為晝半年為夜	-12.1961
朔日食霒雲不見	-12.1961
年應閏五月	-12.1962
十二月十九分月之七	-12.1962
鱗	-12.1962
踰繕那	-12.1962
指南針	-12.1962
定入遲疾厯	-12.1962
塘	-12.1962
一率一小時兩經斜距化秒為二率	-12.1963
逰	-12.1963
緝	-12.1963
以發斂求之得	-12.1963
矯	-12.1963
測圓海鏡分類釋術	-12.1963
品月俸	-12.1963
數千年	-12.1963
四角半堆	-12.1963
臻	-12.1964
戴日之下	-12.1964
闊長各㡬何法列積如開立方法商之其	-12.1964
庣	-12.1964
與赤白二經交角相加減得	-12.1964
為一率方積一	-12.1965
半梯頭	-12.1965
距緯之正弦檢表得	-12.1965
莒	-12.1965
李之藻	-12.1966
餘句餘股	-12.1966
王寅旭	-12.1966
月庚申朔日食	-12.1966
正弦為一率北極距天頂之正弦為二率	-12.1967
奕	-12.1967
七月交一十四日	-12.1967
乙壬丁積	-12.1967
御製璣衡撫辰儀	-12.1967
赤道變黄道	-12.1968
械	-12.1968
三角測逺第	-12.1968
滿紀去之	-12.1969
今以法考之是日太陽實引	-12.1969
行最疾	-12.1969
星星屬	-12.1969
嘆	-12.1969
辰年至此十一閏又一紀	-12.1969
度太赤道北	-12.197
箋	-12.197
宇宙	-12.197
謝	-12.197
小于餘實次商	-12.197
伏乞聖明	-12.197
凍	-12.1971
担	-12.1971
派	-12.1971
煌	-12.1971
沈括	-12.1972
覃	-12.1972
韻	-12.1972
臂	-12.1972
盾	-12.1973
惶	-12.1973
正陽之月	-12.1973
設弧矢田	-12.1973
一直一斜	-12.1974
護	-12.1974
打	-12.1974
荷	-12.1975
内減天元得	-12.1975
聚訟	-12.1975
七十餘家	-12.1976
古今律厯考巻	-12.1976
夏布四十五丈	-12.1976
案原本脱	-12.1977
邈	-12.1977
困	-12.1977
中距九十三日	-12.1978
裹瑇瑁得	-12.1978
貫沉香得	-12.1979
一升二合	-12.198
歲填熒惑	-12.1981
年夏至一百八十	-12.1981
肄	-12.1981
齒	-12.1982
監正張守登	-12.1982
牟	-12.1983
喝	-12.1983
入辰宮	-12.1984
蔑	-12.1984
天學㑹通	-12.1986
祠祭司	-12.1986
秭	-12.1987
璇	-12.1987
施行縁係	-12.1988
侈	-12.199
為月食第	-12.1991
乗後得數	-12.2003
年壬午嵗	-12.2007
秒四十八微	-12.2008
日八十二刻	-12.2009
魏太和	-12.201
各自乗相減	-12.2013
乗方積自乗為	-12.2016
北道高	-12.2026
秒一十六微	-12.2046
崇禎七年十	-12.2051
線左書二第	-12.2055
十一秒冬至壬申年庚子月	-12.2062
一千零二十	-12.2073
用時之東西差	-12.2077
秒零六微	-12.2096
正冬至日分	-12.21
十七里半	-12.2119
度零二分	-12.2137
等邊形之面積爲	-12.2163
分内三十一秒冬至壬辰年庚子月	-12.2181
兩㸃相距之度於分釐尺上量之得一寸	-12.2233
日六十三刻	-12.2286
一秒冬至辛亥年戊子月	-12.2307
以總法除	-12.2356
也舊術曰	-12.2415
一大調也	-12.272
為廉隅共法書於餘積之左以	-12.2739
翭	-12.2747
沸	-12.2756
螢	-12.2757
柏	-12.2761
六尺自乗得三十六尺	-12.2762
兩弦最大末均	-12.2767
視徑中準	-12.2767
衘	-12.2773
不滿退除為	-12.2775
以正負術入之	-12.2775
禾二秉	-12.2775
與乙角之餘割線	-12.2776
上層比下層多	-12.2776
小分三八一九六六	-12.2776
駑	-12.2778
尺實比晉前尺一尺	-12.2778
屑	-12.2778
上考往古則置中積分減	-12.2779
鋸	-12.2779
翰林院	-12.2779
兩正方邊之和	-12.2779
星星外増一星	-12.278
輾	-12.278
為二率半徑十萬為三率求得四率	-12.278
為上廉初商四之	-12.278
煙	-12.278
外切二十面體之一邊	-12.2781
加減代乗除	-12.2781
三千零二十四	-12.2781
醇	-12.2781
淪	-12.2782
過半周者與全	-12.2782
求黄道宿度依日	-12.2782
也又用求圜外各形之	-12.2782
日天最高在	-12.2782
哈	-12.2782
十一萬八千九十八	-12.2782
總面積也又法以全圜三百六十度	-12.2783
法用邊線相等	-12.2783
嵗正月己丑朔十一月	-12.2783
尺為長方積乃以	-12.2783
最髙平行以最髙年根與最髙日數相加	-12.2784
婺	-12.2784
對所知之角其正弦即半徑十萬為一率	-12.2784
日應西厯	-12.2784
舍初界	-12.2784
鄉苗米	-12.2784
自最髙至最卑	-12.2784
周歲平行表	-12.2784
求次均及較分	-12.2784
年即金大定	-12.2784
麟	-12.2784
有分者通之	-12.2785
歲正月丙子朔十一月	-12.2786
初宮至五宮	-12.2786
上考往古則置中積分減氣應得通積分	-12.2786
歲正月庚午朔十一月	-12.2786
歲正月庚寅朔十一月	-12.2786
㝷	-12.2786
挹	-12.2787
苑	-12.2787
中心至每邊正中之斜線	-12.2787
清明十五日四時零八分	-12.2787
分内三十一秒冬至丙戌年戊子月	-12.2787
嵗正月丙子朔十一月	-12.2787
輦	-12.2787
嵗正月丁未朔十一月	-12.2788
儘	-12.2789
險	-12.2789
丙弧為實行不及平行之度乃用丙	-12.2789
小寒十四日八時四刻四分五十	-12.2789
不盡如鉤	-12.2789
清明十五日四時零七分五十	-12.2789
而今有之卽得	-12.2789
九百四十分日之二百三十五	-12.2789
駮	-12.279
百八十二日八分日之五	-12.279
周後策	-12.279
歲正月甲寅朔十一月	-12.279
均輪心從本輪最髙戊	-12.279
赤奮若	-12.279
滿紀法六十去之	-12.279
歲正月戊戌朔十一月	-12.279
伽同今	-12.2791
竈	-12.2791
卯酉前後分	-12.2791
日午初一刻九分止甲子運	-12.2791
阜	-12.2791
冄	-12.2791
仍依本層為負	-12.2791
長闊和用帶縱和數開平方法算之得闊	-12.2791
永年表	-12.2791
禕	-12.2792
亶	-12.2792
之比即同於半徑全數與	-12.2792
埃	-12.2792
故相加反是則相	-12.2792
尺自乘得一平方多	-12.2792
瑜伽	-12.2792
千尺之上而以所商十尺為初商之	-12.2792
纖滿六十約之為㣲又以六十約之為秒	-12.2792
太陰過是宮	-12.2792
一宫初度之初均數	-12.2792
番	-12.2792
食既至食甚	-12.2793
為法實如法得一草曰置	-12.2793
李徳芳	-12.2793
陽厯交後度	-12.2793
小船一桅	-12.2793
貽	-12.2793
西安府	-12.2793
摸	-12.2793
億二千五百萬	-12.2793
可類推	-12.2793
和碩荘親王	-12.2793
洵	-12.2793
真時視距弧	-12.2793
首朔太陰交周	-12.2793
琦	-12.2794
溟	-12.2794
鍼	-12.2794
嫌	-12.2794
分至十一宫三十度皆	-12.2794
竇	-12.2795
桞	-12.2795
為實以一為隅開平方得	-12.2795
角亢氐房心尾箕	-12.2796
眉	-12.2796
御製數理精蘊	-12.2796
菩薩	-12.2796
悔	-12.2797
羅雅谷湯若望	-12.2797
大淵獻	-12.2797
箇方池	-12.2797
勵	-12.2797
體等一入	-12.2798
矣乾隆四十六年	-12.2798
郢	-12.2798
之餘弦為一率半徑一千萬為二率	-12.2798
六萬五千五百三十六	-12.2798
杖	-12.2799
近時太陽距午赤道度	-12.2799
赧	-12.2799
有動移	-12.2799
差冪而半之得	-12.2799
為三率求得四率一尺二寸即	-12.2799
街	-12.2799
穏	-12.28
閃爍	-12.28
伹	-12.28
加俸一級	-12.28
自乘之四正方	-12.28
以勾率乘之得	-12.2801
拜	-12.2801
恊	-12.2801
燔	-12.2801
邏	-12.2802
暄	-12.2802
匡	-12.2802
星在輪周	-12.2802
得城徑草曰别得	-12.2802
慢	-12.2802
馬哈麻	-12.2802
考工記	-12.2803
旁死魄	-12.2803
氣畢日過	-12.2803
百五十七年第	-12.2803
鬱單越	-12.2803
貢	-12.2803
張子信	-12.2803
淹	-12.2803
餞	-12.2804
十一乘十四除	-12.2804
恃	-12.2804
詎	-12.2805
雹	-12.2805
分六十三秒	-12.2806
薛儀甫	-12.2806
則配之得	-12.2806
姬	-12.2806
太蔟為商	-12.2806
朔後平交日	-12.2806
朂	-12.2806
為命分命為	-12.2807
胎	-12.2807
天步真原	-12.2808
年壬寅嵗	-12.2808
年辛丑嵗	-12.2808
步求積法曰置	-12.2808
鞏	-12.2808
月朔四十五日	-12.2808
終而復始	-12.2808
渾盖通憲	-12.2809
步以畝法除之即得今有	-12.2809
以下為竒零而	-12.2809
哉生明	-12.2809
徐文定公	-12.281
槽	-12.281
在兩平行線内	-12.281
詢	-12.2811
裔	-12.2811
玻	-12.2811
星星外増二星	-12.2814
凡法之可	-12.2817
弦與勾股較之較求勾股弦	-12.2818
受水壺	-12.2819
中卦大夫	-12.282
虢	-12.282
中卦辟	-12.282
慕	-12.2823
毁	-12.2823
始卦侯	-12.2823
見之問城徑釋曰此	-12.2824
年辛酉嵗	-12.2824
末卦侯	-12.2825
末卦卿	-12.2828
鉦	-12.2828
始卦公	-12.2835
鈴	-12.2835
宿夜行	-12.2854
七入月數	-12.2876
商次商三商之	-12.292
五千五百四十四	-12.2937
外増一星	-12.2973
為次商廉隅之共積乃以初商之	-12.3042
年甲午嵗	-12.3061
百一十七年第	-12.3105
全數與甲丙邊之	-12.3119
亥正初刻十	-12.3138
二月乙丑朔	-12.3142
南行各不知步數	-12.3146
度五十四分三十	-12.3177
分七十六秒	-12.3243
分内四十一秒冬至丙寅	-12.3273
測總積六千	-12.329
驚蟄十五日零七刻零一十	-12.3327
尺為次商廉隅之共積乃以初商	-12.3424
百七十七年第	-12.3454
自尖至底中心之立垂線	-12.3462
宫初度次輪心則從均輪最近辛	-12.3553
二百置一於左上為法置一	-12.357
以乘從二廉得	-12.3596
而為相當比例四率也	-12.3614
鬰	-12.3659
絀	-12.3666
重矩測	-12.3668
次之中率為九	-12.3669
三角測髙第	-12.3673
湧	-12.3676
澈	-12.3677
秒以分収之得	-12.3678
九五四二四	-12.3679
翌	-12.3679
縑	-12.368
妨	-12.3681
當月天之度	-12.3682
得二十七日五十五刻	-12.3682
㳺燕曰	-12.3684
即小正方之邊	-12.3684
問計㡬何答曰	-12.3686
隤	-12.3688
二尺四十七寸七十四分八十	-12.3689
元世祖至元	-12.3689
絮	-12.3689
求田一畝問從幾何荅曰	-12.3689
為初商積之單位而	-12.369
軸本軸孔	-12.3691
日夜半金星度	-12.3691
之數相合即定初商	-12.3692
初宫至五宫為加六宫至十一宫為減	-12.3692
減本年天正冬至分	-12.3692
實形移補	-12.3692
夏后氏	-12.3692
日短星昴	-12.3692
同為加者則相加為	-12.3693
逐時逐分逐秒之	-12.3693
歲正月壬申朔十一月	-12.3693
澄	-12.3693
乘未并者各自爲實實如法得一	-12.3694
秪	-12.3694
求積日置中積分加氣應分	-12.3694
十三萬一千七十二	-12.3695
土三百七十八日九刻	-12.3695
每一邊之弧皆	-12.3695
體積不同之定率比例以定率之	-12.3695
六五六三七四九二六	-12.3695
分内一秒冬至癸未年壬子月	-12.3695
豳	-12.3695
𣲖	-12.3695
書於原積之下相減恰盡是開得	-12.3695
十二面體之每邉	-12.3696
日月最高相距	-12.3696
每一面中心至邊之垂線	-12.3696
嘉泰甲子	-12.3697
鍵	-12.3697
楊忠輔	-12.3697
鞘	-12.3697
歲正月庚辰朔十一月	-12.3697
歲正月丁巳朔十一月	-12.3697
加初商自之	-12.3697
碎	-12.3697
中列逐宫逐度	-12.3697
歲正月癸卯朔十一月	-12.3697
鐓	-12.3697
嵗正月戊午朔十一月	-12.3697
蝗	-12.3698
灾	-12.3698
經十有二月	-12.3698
歲正月辛亥朔十一月	-12.3698
比例為一比例也	-12.3698
足二尺則以二尺書於原積	-12.3698
嵗正月乙巳朔十一月	-12.3698
每期三百六十五日二時五刻	-12.3698
裕	-12.3698
浚	-12.3698
歌白尼	-12.3698
為次商廉隅之共積而以初商	-12.3698
冺	-12.3698
藁	-12.3699
尖圎堆之積數	-12.3699
上編言之詳矣	-12.3699
戴進賢	-12.3699
靖	-12.3699
欽定四庫全書古今律厯考卷五	-12.3699
最近癸厯壬辛行	-12.3699
缾	-12.3699
杞	-12.3699
一十三尺二百四十一寸八百六十	-12.3699
小滿十五日八時零二分五十	-12.3699
五十九分零八秒一十九	-12.37
夏侯陽算經	-12.37
吒	-12.37
甄	-12.37
𣴎	-12.37
甲從城外西北乾隅南行六百步	-12.37
之律也三其	-12.3701
環中黍尺	-12.3701
指非時從	-12.3701
限距地髙之度察其所對之度分秒得	-12.3701
日午之影長	-12.3701
二萬零七百	-12.3701
叧	-12.3701
嵗正月癸卯朔十一月	-12.3701
大餘九日小餘	-12.3701
印度是月名	-12.3701
減上位為平實	-12.3701
分内一秒冬至日躔在室	-12.3701
昂	-12.3702
勾三股四弦五	-12.3702
為亷法約計次商當得	-12.3702
仞	-12.3702
2.4	-12.3702
陽距春秋分黄道經度	-12.3702
妖	-12.3703
外猶剰	-12.3703
上法相乘除實	-12.3703
歐羅巴	-12.3703
督修厯法臣徐光啓	-12.3703
以日周乘之得數以	-12.3703
胷	-12.3703
篤	-12.3703
自初日甲子起算得	-12.3703
起世經	-12.3703
䢉	-12.3704
各為三率推得各四率	-12.3704
鉛七斤鐵十四斤	-12.3704
参	-12.3704
堯命羲和	-12.3704
欽定四庫全書古今律厯考卷四	-12.3704
望見乙問答同前法曰	-12.3705
為隅積併三積共	-12.3705
泣	-12.3705
鄉上等上田苗	-12.3705
泯	-12.3706
弘	-12.3706
月十六日至三十	-12.3706
除實盡凡開得立方	-12.3706
開帶縱平方	-12.3706
根之數葢上數	-12.3707
瞳	-12.3707
盪	-12.3708
求得對北極距天頂之角為	-12.3708
擾	-12.3708
訟	-12.371
問方根若干答曰	-12.371
入交汎日	-12.371
迅	-12.3711
瑩	-12.3711
月一日至十五	-12.3711
年癸未嵗	-12.3711
沛	-12.3711
節畢以上	-12.3712
立運儀	-12.3712
型	-12.3712
等邊形之每一邊也此法葢因	-12.3712
僻	-12.3712
讒	-12.3712
一十七步三分二釐	-12.3712
窪	-12.3712
為所夾之角用切線分外角法求得	-12.3712
黄廣股	-12.3713
批	-12.3713
牀	-12.3713
五萬七千六百	-12.3713
各多少荅曰	-12.3713
置一自之以乘從二廉	-12.3713
泠州鳩	-12.3714
積於頭再立天元	-12.3714
膺	-12.3714
中氣至改躔	-12.3715
號之兩㸃依分釐尺	-12.3715
舶	-12.3715
隔一位加一倍之比例	-12.3716
太陽一日之實行	-12.3716
立成内宮内度下兩取	-12.3717
臣淳風等謹按其問宜云	-12.3717
中食定時	-12.3717
跡伽曰	-12.3717
彭	-12.3717
梧	-12.3718
月朔四十七日	-12.3718
携	-12.3718
巢	-12.3719
剥	-12.372
宫三十度初度起	-12.372
牝	-12.372
潘	-12.372
孟履吉	-12.3721
翁	-12.3721
為心乙為界作	-12.3721
一尺二寸折半得六寸為三率求得四率	-12.3721
七十八分斤之	-12.3722
分止共三十度為	-12.3722
分七釐六毫	-12.3722
儲	-12.3722
庖	-12.3722
羞	-12.3722
日食三月交二十六日	-12.3722
交互相等	-12.3723
饗	-12.3724
檀	-12.3724
少二根得少	-12.3725
萊	-12.3725
弦與勾股較之和求勾股弦	-12.3726
怨	-12.3727
先晦一日	-12.3727
年己巳嵗	-12.3728
恨	-12.3728
雕	-12.3728
厯學疑問	-12.3731
雜線形	-12.3731
年乙未嵗	-12.3733
一萬三千八百二十四	-12.3733
瘁	-12.3734
城外西北乾隅	-12.3741
捐	-12.3741
一丈四尺四寸二分	-12.3742
梁令瓚	-12.3743
初交穀雨	-12.375
桄	-12.3753
平水壺	-12.3757
秒一十二微	-12.3761
為從一步常法	-12.3766
三百六十五日二十四刻二十五分	-12.3768
尺三寸六分	-12.3781
中積九十三日	-12.3803
六月交一十三日	-12.3804
分距午時分察表内時分相近者取其與	-12.39
和求勾股弦	-12.3984
分七十三秒	-12.4003
萬置一自之以乘下廉得	-12.4036
秒一十八微	-12.4053
設直田長	-12.4169
分内四十一秒冬至丙申	-12.4196
號兩㸃相距之度於分釐尺上量之得	-12.4406
分内四十一秒冬至丙辰	-12.4421
萬九千一百三	-12.4451
與上法相乗除實	-12.4572
督修厯法山東布政使司右	-12.4592
尖法一之	-12.4642
九分内三十一秒冬至史	-12.4654
入月數五百	-12.466
入月數四百	-12.4664
勾股相乗之二長方	-12.4666
釐毫絲忽	-12.4667
閠	-12.4668
諒	-12.4676
雌	-12.4677
二刻三分内四十一秒冬至	-12.4679
以商生隅	-12.4679
中等四十八户	-12.468
遊表距地平分	-12.468
方底尖體形	-12.4681
燄	-12.4682
月道平行綫	-12.4685
罄	-12.4685
濛	-12.4685
命以甲子算外	-12.4686
霄	-12.4686
瓉	-12.4686
大徑與小徑	-12.4687
得正交日數求	-12.4687
傑	-12.4687
弑其君	-12.4687
㳺熊曰	-12.4688
三十六度之正弦五萬八千七百七十	-12.4688
滿周天去之	-12.4688
今有田廣一步半三分步之一	-12.4689
全與分之比例	-12.4689
即武后	-12.4689
以畞法除之	-12.4689
輝	-12.4689
六寸九分二釐八豪二絲	-12.4689
之較乃以一度化作六十分為一率較數	-12.469
五十一度二十五分四十二秒有餘	-12.469
此其可疑	-12.4691
經冬十有二月	-12.4691
術曰以少廣求之	-12.4691
置閏應在下年三月後	-12.4691
問各該幾何法以	-12.4692
糠	-12.4692
宫度分順逆列之初一二	-12.4692
氣應分加本年天正冬至分得積日求	-12.4692
㮣	-12.4693
陰實行比平行少	-12.4693
為視緯之正弦檢表得視緯	-12.4693
纍	-12.4693
設如圜徑二十萬求内容	-12.4693
仍為加同為減者亦相加為	-12.4693
邊形之每一邊也如甲圜内容	-12.4693
外丙仲壬	-12.4693
母相乘爲法	-12.4693
一率半徑十萬為二率今所設之	-12.4694
交實行有零分者亦按中比例法求之	-12.4694
星平行加減初均數得初實行求	-12.4694
春分後秋分前	-12.4694
自尖至每面中心之立垂線	-12.4694
掘	-12.4694
小僧饅首數	-12.4694
仍為減一為加一為減者則相減為	-12.4694
上考徃古	-12.4694
次之數相準即定初商爲	-12.4694
邊形每邊之弧得圜周	-12.4694
邊形之每邊之半六寸為三率求得四率	-12.4695
六萬一千八百零三	-12.4695
南門外不知步數有	-12.4695
雁	-12.4696
應閏葢後九月	-12.4696
辰弗集于房	-12.4696
尺為弦也如圖甲乙	-12.4696
年十一月乙夘朔	-12.4696
係巴科	-12.4696
為下法除餘實又餘實	-12.4696
與半圜一百八十度相	-12.4696
九六四八九	-12.4696
膳	-12.4696
步法曰立天元一為内池	-12.4696
年根察本年	-12.4696
歲正月庚申朔十一月	-12.4696
沃	-12.4697
纏	-12.4697
次商三方廉面積以除次商廉隅之共積	-12.4697
歲正月甲午朔十一月	-12.4697
自乗之數相準即定初商為	-12.4697
熒	-12.4697
小寒十四日八時四刻五分零	-12.4697
寕	-12.4697
羊一百四十隻	-12.4697
三光隱映	-12.4698
問長闊各幾何法列積如開平方法商之	-12.4698
為下大於上則借	-12.4698
漢唐以來	-12.4698
歲正月辛未朔十一月	-12.4698
設如甲乙二人	-12.4698
度至八十九度	-12.4698
十度至子為自行	-12.4698
限察其所對之數為太	-12.4698
碩	-12.4698
日以甲子算外得	-12.4698
隂地半徑差兩地半徑差相減餘為	-12.4699
分内三十一秒冬至庚辰年丙子月	-12.4699
微春分十五日二時三刻八分五十	-12.4699
以法計之得	-12.4699
祲	-12.4699
年十一月辛夘朔	-12.4699
減為所夾之角求得對地半徑之角為太	-12.4699
白道髙弧交角置	-12.4699
尺二寸自乗再乗得一尺七百二十八寸	-12.4699
黄道髙弧交角加減黄白	-12.4699
丹元子	-12.47
兩弧求一弧	-12.47
大中祥符	-12.47
遍乘實之三	-12.47
欽此欽遵抄出到部送司	-12.47
宿紀總法	-12.47
徑自乘再乘之正方體積一	-12.47
庵	-12.47
倍即定次商爲	-12.4701
似是而非	-12.4701
二年正月甲子朔十一月	-12.4701
讖	-12.4701
印度交食術之	-12.4701
祀圜邱今推冬至在	-12.4701
策又三分策之一	-12.4701
湖廣武昌府河南開封府	-12.4701
為一率兩借數相減餘	-12.4701
與視行成直角	-12.4701
加減最多處	-12.4701
明徐光啟等撰五緯表卷	-12.4701
佛出世	-12.4701
六宮至十一宮	-12.4701
嵗正月甲午朔十一月	-12.4701
捨	-12.4701
樊	-12.4701
陜西西安府廣西桂林府	-12.4702
宮九足配爲	-12.4702
為二率前借數與	-12.4702
甞	-12.4702
回西二暦	-12.4702
宿未在於	-12.4702
如積數寄左然後列	-12.4702
湊	-12.4702
正法念經	-12.4702
較前遠點其差	-12.4703
劫	-12.4703
西洋新説	-12.4703
莊氏算學	-12.4703
除不除寄為母便以此為	-12.4703
為從作帶從開平方法除之	-12.4703
分順逆以别加減中列逐宫逐度之	-12.4703
誥	-12.4704
法曰置西域歲前積年	-12.4704
暦算全書	-12.4704
祝懋元	-12.4704
厄	-12.4704
為半段黄方冪	-12.4704
幻	-12.4704
晡	-12.4704
濳	-12.4704
宫初度等但為實行過於平行之	-12.4704
為隅法作負隅	-12.4704
章然應下年閏二月	-12.4704
除交終分得二十七日二十一刻二二	-12.4704
澆	-12.4704
中西經星同異考	-12.4705
長亷積又以次商	-12.4705
鵝	-12.4705
化秒為三率求得四率為秒以度分收之	-12.4705
合祀圜邱今推至日合	-12.4705
肥	-12.4705
今求得三件	-12.4705
當於丙位除	-12.4705
楷	-12.4705
睛	-12.4706
坑	-12.4706
東行一百九十二步	-12.4706
導	-12.4707
夬	-12.4707
叉	-12.4707
閩	-12.4707
諫	-12.4707
地末恰	-12.4707
擢	-12.4708
崇禎四年辛未	-12.4708
憶	-12.4708
年應閏四月	-12.4708
拓	-12.4708
九減七減	-12.4708
頑	-12.4708
即得第一率之假數	-12.4708
計開先有之三件	-12.4708
濵	-12.4708
如圖甲為地心即本天心乙丙	-12.4709
玊	-12.4709
藻	-12.4709
星黃道南北緯度立成	-12.4709
五歲再閏	-12.4709
盗	-12.4709
彪	-12.4709
態	-12.471
瞿	-12.471
仍查假數所對之眞數得	-12.471
閤	-12.471
欽定四庫全書測圓海鏡分類釋術卷	-12.471
尹	-12.471
䕫	-12.471
詘	-12.471
僉	-12.4711
摹	-12.4711
誓	-12.4711
借根方比例	-12.4711
偉	-12.4711
詳見别簡	-12.4712
欽定四庫全書古今律厯考卷二十	-12.4712
上下兩闊之較	-12.4712
之比卽同於	-12.4713
覘	-12.4713
尠	-12.4713
朱國壽	-12.4713
又何疑焉	-12.4713
届	-12.4713
犂	-12.4713
設如帶兩縱不同立方積	-12.4714
庚丙乗丙壬	-12.4714
佑	-12.4714
悲	-12.4714
段圓徑冪	-12.4714
豁	-12.4714
形之每一邊用其度作	-12.4715
矜	-12.4715
㡬何試借	-12.4715
揮	-12.4716
苞	-12.4716
鄭世子	-12.4716
蘓	-12.4716
棓	-12.4717
益古演段	-12.4717
𤾉	-12.4717
濱	-12.4718
分二釐八毫	-12.4718
航	-12.4718
萬厯三十八年	-12.4718
一正一負	-12.4719
井不知深	-12.4719
萃	-12.472
分七釐五毫	-12.472
比例規觧	-12.472
夔	-12.4721
床	-12.4722
弦與勾股和之較求勾股弦	-12.4722
替	-12.4722
誇	-12.4722
紘	-12.4722
㸃前無餘	-12.4723
晤	-12.4723
鼻	-12.4723
月朔四十九日	-12.4723
鏤	-12.4724
姤	-12.4724
藜	-12.4725
瓠	-12.4725
沾	-12.4726
敕	-12.4726
畨	-12.4726
晀	-12.4727
渙	-12.4727
案原本訛作	-12.4727
疇人子弟	-12.4728
無減就為實法除實得	-12.4728
赤道宿次度分	-12.4729
欽定四庫全書古今律厯考卷三十	-12.4734
韓顯符	-12.4734
㧅	-12.4734
濬	-12.4736
叶	-12.4736
萬有一千五百二十	-12.4736
蕭	-12.4736
吿	-12.4738
呂不韋	-12.4739
報刻司辰輪	-12.4739
腓	-12.4745
豕羊兔	-12.4753
馱	-12.4767
正初刻九分内三十一秒冬至	-12.4782
應者厯元甲子	-12.48
億五千九百	-12.4829
在下六宫者用逆度用表之法以	-12.4841
丙邊與甲乙邊之比	-12.4869
四正赤道宿	-12.4912
事理未敢擅便謹題請㫖	-12.492
之二長方又癸子丑寅為	-12.4931
兩自乗數相	-12.4956
時推是年六月	-12.5048
分内四十一秒冬至庚申	-12.5225
二刻十二分内三十一秒冬至	-12.5267
御製厯象考成下編卷	-12.5341
正月交一十三日	-12.5372
圓球徑一尺二寸求得圓球	-12.5522
積之定率比例以定率之圓球	-12.5589
冬至次日子正	-12.5654
叅政李天經	-12.5695
鈇	-12.576
帶二縦方	-12.5762
乗馬所行之里數	-12.5767
壔	-12.5772
汐	-12.5772
辰巳午未長圓體	-12.5783
十三萬九千九百六十八	-12.5783
枯	-12.5785
掣	-12.5785
頏	-12.5785
率之問各幾何荅曰其	-12.5786
以本律全數約之為	-12.5786
箱	-12.5786
啻	-12.5786
與一根相等即	-12.5786
減原實為正實	-12.5786
訾	-12.5787
圉	-12.5787
益於原實一千兆内得一千零	-12.5789
十五萬七千四百六十四	-12.5791
黄赤經緯互推表	-12.5791
土王用事	-12.5793
滂	-12.5793
簸	-12.5794
掖	-12.5794
年經秋八月	-12.5794
酢	-12.5795
八萬零九百零	-12.5795
小分底之面積	-12.5796
北落師門	-12.5797
圓球外切八面體	-12.5797
史令上輕車都尉臣李淳風等奉勅注釋	-12.5798
唐朝議大夫行	-12.5798
萬厯十八年庚寅	-12.5798
對數檢對數表得眞數為秒以分收之得	-12.5798
臚	-12.5798
日道徑四十七萬六千里	-12.5799
此形有丑角一百	-12.5799
相當比例之四率	-12.5799
相等兩邊再各減	-12.58
䜴	-12.58
塲	-12.58
蜃	-12.58
年列之前用紀年者乃	-12.58
滇	-12.58
絳縣老人	-12.58
本起於黄鐘之	-12.5801
倣此以至無窮	-12.5801
置一於左上為法置一乗上亷	-12.5801
乘之爲實實如法得從步	-12.5801
為所夾之外角	-12.5801
均之故矣然	-12.5801
宫在上者用順度宫在下者用逆度	-12.5802
以爲法置田二百四十步亦以一爲	-12.5802
自乗再乗之數相準即定初商為	-12.5802
黃白距度	-12.5802
也定位因法之	-12.5802
為隅算作帶從	-12.5802
蛤	-12.5802
大浪山	-12.5802
用交食東西南北差表以	-12.5802
二十面體之每邉	-12.5803
三角俱鈍	-12.5803
於上三四五九十十一宫列於下前後列	-12.5803
今有方田一段内有圓池水占之外計地	-12.5804
四度八十四分八十二秒	-12.5804
道實行求距交實行置初實行減	-12.5804
自地心甲計之	-12.5804
黃道赤經交角	-12.5804
以圜徑一尺二寸折半得半徑六寸	-12.5804
歲正月己未朔十一月	-12.5804
求每邊之數則用邊線相等	-12.5804
姦	-12.5804
鍬	-12.5804
甲從城外西北乾隅東行三百二十步	-12.5804
進十於前位為一誌之本位紀	-12.5804
自末位起算隔	-12.5804
互相為比必同於	-12.5804
歲正月丁丑朔十一月	-12.5804
八百一十四寸五百八十七分一十二釐	-12.5805
十二尺自乘得一百四十四尺	-12.5805
已下日月皆食	-12.5805
次商廉隅共法書於餘積之左以次商之	-12.5805
歲正月乙卯朔十一月	-12.5805
摭	-12.5805
欽定四庫全書御製厯象考成後編卷	-12.5805
略小之數爲	-12.5805
歲正月乙未朔十一月	-12.5805
遏	-12.5806
水占之外計地	-12.5806
掃	-12.5806
一邊之定率比例以定率之圓球徑	-12.5806
以邊計之則所得每根之數即	-12.5806
置閏應在下年二月後	-12.5806
火七百七十九日九十二刻	-12.5806
别見補遺	-12.5807
次輪心距地心之邊	-12.5807
箸	-12.5807
七六五二九六五	-12.5807
周日諸平行表	-12.5807
則與次輪心丑同在一直線	-12.5807
為子午圏乙丙為地平丁為北極	-12.5807
販	-12.5807
以平方法開之得	-12.5807
以自增乘得	-12.5808
以算較測盈	-12.5808
膏	-12.5808
作帶從負隅開平方法除之得	-12.5808
乃以米一石積數	-12.5808
􁀙	-12.5808
時差總加數大為加減數大為減	-12.5808
用表之法如求冬至後	-12.5808
也又用求球内各形之	-12.5808
眞數之零數一	-12.5808
祀十二月庚午朔正月庚子朔十一月	-12.5808
𠂻	-12.5808
第二㸃上餘實	-12.5808
用象限儀測得	-12.5808
豹	-12.5809
璞	-12.5809
立夏十五日六時七刻零一十	-12.5809
與原積相減恰盡是開得	-12.5809
觀圖自明	-12.5809
和自乗之一大正方内戊己庚丁為	-12.5809
奎婁胃昴畢觜	-12.5809
浪	-12.5809
三一四一五九二	-12.5809
皷	-12.5809
皇極經世	-12.5809
併所借之一則為	-12.5809
月十六日至九月十五日	-12.581
段如積寄左然後列真積	-12.581
移上閏於此年	-12.581
以太隂入交月數與	-12.581
書於右後借數	-12.581
碧	-12.581
地水火風	-12.581
丁丙為北極出地三十九度五十五分	-12.581
又以初商之髙十尺	-12.581
永樂大典	-12.581
三百九十八萬七千四百九十一為	-12.5811
設如北極出地三十九度五十五分	-12.5811
以减從方餘	-12.5811
凴	-12.5811
引數之宫對引數之度	-12.5811
問每一根之數幾何法列方積	-12.5811
自鳴鐘	-12.5811
郷	-12.5811
三十四尺折半得十七尺為弦	-12.5812
宮夜半日度置十二次中交宮界	-12.5812
作本位之十共十	-12.5812
北六宫至十一宫為	-12.5812
位定方根一位故隔	-12.5812
文殊儀䡄	-12.5812
年經夏五月	-12.5812
用新法會通崇禎厯書	-12.5812
迴照輪	-12.5812
疊借互徵	-12.5812
一面六角堆	-12.5812
相對之兩内角等	-12.5813
欽天監天文生	-12.5813
地經赤道差	-12.5813
祀十二月己酉朔正月戊寅朔十一月	-12.5813
祀十二月甲寅朔正月癸未朔十一月	-12.5813
九八五九三一七	-12.5813
廣輿記	-12.5813
日永星火	-12.5813
相等問每一根之數幾何法以	-12.5813
大船三桅	-12.5813
磚	-12.5813
祀十二月癸丑朔正月壬午朔十一月	-12.5813
按度截比例尺之甲乙甲丙二線即成	-12.5814
卯前酉後	-12.5814
之比例仍同於	-12.5814
如積一叚寄左然後列真積	-12.5814
檐	-12.5814
丙出南門東行	-12.5814
女虚危室壁	-12.5814
相從損半	-12.5814
春正距夏正	-12.5814
操	-12.5815
爲次商廉隅之共積而以初商之	-12.5815
氣刻時三差	-12.5815
帖	-12.5815
庠	-12.5815
壓	-12.5815
罄折形	-12.5815
聖人辭世	-12.5815
陡	-12.5815
煬	-12.5815
寨	-12.5816
液	-12.5816
梁與綱目漏	-12.5816
秒表驗差	-12.5816
曚影刻分	-12.5816
鋒	-12.5816
曁	-12.5816
明徐光啟等撰五緯厯指卷	-12.5816
上欽定四庫全書數學九章卷	-12.5816
下宋秦九韶撰	-12.5816
元李冶撰明顧應祥釋術	-12.5816
咫	-12.5817
四人遙相望俱與城相叅直既而	-12.5817
度之五十六分史	-12.5817
廐	-12.5817
與别弦測望	-12.5817
逝	-12.5818
跬	-12.5818
曉厯司官	-12.5818
抽偶立尖	-12.5819
十五尺自乘得二百二十五尺	-12.5819
卷下欽定四庫全書子部六	-12.5819
或多或少	-12.5819
以再減餘縱	-12.5819
至城心步	-12.5819
雇	-12.5819
噬	-12.5819
𥘉	-12.5819
歆	-12.5819
半徑六寸之度展開勿令移動次取	-12.5819
三年正月丁巳朔十一月	-12.582
督修厯法加光禄寺卿仍支正三品俸	-12.582
二年正月丙午朔十一月	-12.582
天一生水	-12.582
稻一十八石	-12.582
芝	-12.582
壇	-12.582
後多前少	-12.582
珪	-12.5821
春夏秋冬	-12.5821
蓌	-12.5821
逃	-12.5821
鼗	-12.5821
自左而右	-12.5822
切線之對數檢八線對數表得	-12.5822
八十一尺開方得九尺	-12.5822
遐	-12.5822
欽若昊天	-12.5822
寃	-12.5823
望乙與城叅直問城徑釋曰	-12.5823
欒	-12.5823
乾坤體義	-12.5823
抽竒立尖	-12.5823
裝	-12.5823
擕	-12.5824
舂	-12.5824
假如順天府北極出地四十度	-12.5824
引而伸之	-12.5824
翊	-12.5824
斜行與甲相㑹	-12.5824
剡	-12.5824
悦	-12.5825
為寔寔如法而一得	-12.5825
糾	-12.5825
還原置方根	-12.5825
此又其一也	-12.5825
恠	-12.5825
猝	-12.5825
法前得令	-12.5825
摶	-12.5826
漢律厯志	-12.5826
飭	-12.5826
什	-12.5826
術宜云置	-12.5827
橛	-12.5828
伎	-12.5828
彎	-12.5828
匾	-12.5828
十兩零五錢	-12.5828
但云長多濶	-12.5829
部送司	-12.5829
誦	-12.5829
頤	-12.5829
百六十六兩又三分兩之二	-12.5829
拆	-12.583
眷	-12.583
邸	-12.583
牢	-12.5831
粤	-12.5831
相乗半徑除之之數	-12.5831
布衣魏文魁	-12.5832
新儀象法要	-12.5832
有闕依形	-12.5832
輟	-12.5833
崔	-12.5833
勾股弦總和求勾股弦	-12.5833
穵	-12.5833
譴	-12.5833
䘏	-12.5835
糓	-12.5836
年七政經緯新厯	-12.5836
拒	-12.5838
去交分入食限	-12.5839
做	-12.584
枘	-12.5841
愼	-12.5844
桀	-12.5845
巍	-12.5845
薑	-12.5847
雛	-12.5847
肘	-12.5848
弛	-12.5851
汗	-12.5851
時初正司辰輪	-12.5852
約竒弗約偶	-12.5856
田斜以自之	-12.5857
兎	-12.586
釵	-12.5862
鏗	-12.5864
磑	-12.5884
第二方線右書	-12.5891
南行不知步數而立乙	-12.5933
之定率比例以定率之圓球積	-12.6025
求初實行置	-12.6047
分之兩㸃依分釐尺	-12.6047
初度則次輪心從均輪最近癸	-12.6208
之數此後用加法如本年為平年則加	-12.6251
欽定四庫全書御製厯象考成下編	-12.6284
晨前夜半定星二百三十	-12.6422
過冬至之數此後用	-12.6572
次輪心從均輪最近癸行	-12.6623
壬辰年庚子月	-12.6697
面積與球體外面	-12.6728
五豪六絲	-12.6986
乗二十除減	-12.6998
也依條叚求之四	-12.7009
棚	-12.701
礫	-12.7027
葮	-12.703
霄之宫於	-12.7031
漿	-12.7036
寸四分一釐六豪四絲有餘	-12.7037
各歲前冬至	-12.7038
同名相從異名相消	-12.704
三百六十五日二四二一八七五	-12.7042
逕求次年天正	-12.7043
臯	-12.7044
九十一日三十一刻	-12.7044
爰看實之	-12.7045
各自之并而開方得	-12.7045
求壬角以丁角	-12.7045
若戊丑與庚夘	-12.7045
十四萬七千四百五十六	-12.7046
木火土三星	-12.7046
彖	-12.7047
設如圜徑一尺二寸求外切	-12.7048
月數四入三月入月已來日	-12.7048
荘親王	-12.7048
相等問每一根之數幾何法列原積	-12.7048
穰	-12.7048
萬厯十六年戊子	-12.7049
為長闊和用𢃄縱和數開方法算之得	-12.7049
次商廉隅之共積以次商本位計之則	-12.705
二倍即定次商爲二尺書於	-12.705
減實再開倍前商	-12.705
矇	-12.7051
得最髙平行求正交平行	-12.7051
媒	-12.7052
康熙二十三年甲子天正冬至為厯元	-12.7052
躋	-12.7052
秒為實行不及平行之度	-12.7052
日八一七四中星	-12.7053
厠	-12.7053
為對所知之邊	-12.7053
為隅法與㢘法	-12.7053
行法厯元甲	-12.7053
斑	-12.7053
河鼔中星	-12.7053
祀十二月戊辰朔正月戊戌朔十一月	-12.7053
昕	-12.7053
分秒時刻并起復方位月食	-12.7054
在璿璣玉衡以齊七政	-12.7054
實行皆比平行為少	-12.7054
相乘問得幾何	-12.7054
面體之每一邊及體積幾何法以	-12.7054
日夜半土星度角	-12.7054
也又用求球外各形之	-12.7054
八萬二千九百四十四	-12.7054
㫄	-12.7054
蠱	-12.7054
鑽	-12.7054
四度餘而極是	-12.7054
鵲	-12.7054
也表名平行者乃	-12.7055
日數者自一日至三百六十六日之日數	-12.7055
中心至每面中心之立垂線	-12.7055
初刻一分内一秒冬至日躔在危	-12.7055
經冬十有一月	-12.7055
劉孝榮造	-12.7055
實行皆比平行為多	-12.7055
氣應三十二日一二二五四	-12.7055
五二四五八一二六	-12.7055
恰盡即知長方之闊得	-12.7055
瞡	-12.7055
其縦横相遇即所求之	-12.7056
䋲	-12.7056
三寸七分零八豪二絲	-12.7056
方内圜外積	-12.7056
與實相減恰盡無餘是爲	-12.7056
邾	-12.7056
為闊於半和加半較得	-12.7056
從地心甲計之當本天之寅其丙甲寅角	-12.7056
奈	-12.7056
於今有術副并爲	-12.7057
一尺零三分九釐二豪三絲	-12.7057
貪	-12.7057
升卑為高	-12.7057
窻	-12.7057
作記定位同前乃截方根第二位以前積	-12.7057
爲初商次商之積於表中取比此數相近	-12.7057
蠶	-12.7057
之正弦之比即如所設之半徑六寸與甲	-12.7057
京師北極髙三十九度五十五分	-12.7057
商廉隅共積相減恰盡是開得	-12.7057
又法既得兩借數之差用互	-12.7057
分内三十一秒冬至應閏丙戌年戊子月	-12.7057
其所對初商根爲	-12.7058
用此法求得最卑	-12.7058
􁂞	-12.7058
分内三十一秒冬至應閏庚辰年丙子月	-12.7058
年根表察本年距冬至	-12.7058
一率方積一二七三二三九五四為二率	-12.7058
浄	-12.7058
分為三率則求得四率	-12.7058
有餘之比也又法用	-12.7058
猥	-12.7058
與寄左相消得	-12.7058
􁀦	-12.7058
捧	-12.7058
度兩㸃相距之度於分釐尺上量之得	-12.7058
周天三百六十五度二十五分七十五秒	-12.7058
周一百七萬一千里	-12.7058
書於初商次商之位而以	-12.7058
祀十二月丁亥朔正月丙辰朔十一月	-12.7058
年根則察本表紀年自	-12.7059
為長闊較用𢃄縱較數開方法算之得	-12.7059
觔乳香得	-12.7059
改商之及減而止	-12.7059
係何時刻答曰	-12.7059
星在次輪之最逺壬或在次輪之最近癸	-12.7059
書於三商之位合初商次商共	-12.7059
格内三商廉法	-12.7059
百為廉法約次商得二十置一於左	-12.7059
分内一秒冬至應閏癸未年壬子月	-12.7059
而以初商之一十與次商之	-12.7059
每面中心至邊之垂線	-12.7059
不無小補	-12.7059
㤗	-12.706
以次商五尺乘	-12.706
為自圜心至每一邊之中垂線	-12.706
祀十二月壬辰朔正月壬戌朔十一月	-12.706
尺之上而以廉法	-12.706
是全與其分等也	-12.706
分九釐六豪	-12.706
四十七京八千零一十四兆三千二百	-12.706
者為限東小於	-12.706
與次商廉隅共積相減餘	-12.706
晩	-12.706
自乘得一尺四十四寸	-12.706
尺七百二十八寸開立方得一尺二寸即	-12.706
尖圓堆之積數	-12.706
内減弦十七尺餘	-12.706
九分四百六十四釐	-12.7061
淮徐海道莊亨陽撰	-12.7061
與原積相減恰盡即定	-12.7061
碁	-12.7061
已復光未復光	-12.7061
以一根自乘得一平方為勾自乘之數以	-12.7061
爲三商廉隅之共積而以初商次商之	-12.7061
太甲元祀	-12.7061
棲	-12.7061
四京九千一百八十五兆四千四百四十	-12.7061
樣	-12.7061
太陰距二分弧與赤道交角	-12.7061
未日寅正三刻三分止	-12.7061
此初開也再開倍	-12.7061
乘方積用開	-12.7062
步為弦方實以平方開之得	-12.7062
設如圜徑一尺二寸求内容	-12.7062
祀十二月庚寅朔正月庚申朔十一月	-12.7062
一為加一為減者	-12.7062
列積如開立方法商之其	-12.7062
祀十二月壬申朔正月壬寅朔十一月	-12.7062
平加數根	-12.7062
福建福州府	-12.7062
日六四六九中星	-12.7062
祀十二月庚戌朔正月庚辰朔十一月	-12.7062
祀十二月戊寅朔正月丁未朔十一月	-12.7062
甲乙二人俱在城外西北乾隅甲	-12.7062
時刻加滿二十四時去之	-12.7063
祀十二月丙申朔正月丙寅朔十一月	-12.7063
者加二十四時減之	-12.7063
蚓	-12.7063
題為月食事	-12.7063
三千零一十億二千五百	-12.7063
案原本脫	-12.7063
秋正距次年冬正	-12.7063
各節氣日影界	-12.7063
列於下前後列引數度	-12.7063
正半中交加時積度	-12.7063
二十一秒冬至乙巳年丙子月	-12.7063
用表之法如求康熙六十一年壬寅之	-12.7064
二百零三寸六百四十六分七百五十釐	-12.7064
芽	-12.7064
霽	-12.7064
同為加或同為減者則相減得	-12.7064
用牲於社	-12.7064
窒	-12.7064
乙出南門東行不知步數而立	-12.7064
侔	-12.7064
距弧一為加一為減者則相加得	-12.7064
欽定四庫全書莊氏算學卷	-12.7065
霓	-12.7065
涓	-12.7065
乎必不然矣	-12.7065
允禄等謹奏	-12.7065
瑕	-12.7065
廬	-12.7065
祀十二月壬午朔正月辛亥朔十一月	-12.7065
隣	-12.7065
七百八十四萬八千一百八十	-12.7065
佳	-12.7066
食甚不見虧初	-12.7066
誑	-12.7066
匱	-12.7066
求次商用第二㸃上餘實	-12.7066
距時之時分秒各察其與太	-12.7066
以天元冪與左相消得丨	-12.7066
齎	-12.7067
尺問受粟幾何答曰	-12.7067
仍得原數兩下相較則	-12.7067
尺為勾加勾弦較	-12.7067
乙從艮隅南行	-12.7067
睂	-12.7067
訥	-12.7067
引弧距時為加	-12.7067
滄	-12.7067
曰置所得三乘方實	-12.7067
日當食不虧	-12.7067
祀十二月壬辰朔正月辛酉朔十一月	-12.7067
擁	-12.7067
度之底定尺而取	-12.7067
蠢	-12.7067
倐	-12.7068
年至此又十九年	-12.7068
影在午西則	-12.7068
剪	-12.7068
桂	-12.7068
炫	-12.7068
乙餘弦壬卯小句	-12.7068
為隔一位相加之比例	-12.7068
理分中末之全分與其大分	-12.7068
穪	-12.7068
減初商實餘	-12.7068
詠	-12.7068
九百一十七萬零六百零一為	-12.7068
蓬	-12.7069
􁁬	-12.7069
叨	-12.7069
賚	-12.7069
法曰立天元一為内方靣	-12.7069
不滿法去一子除過定	-12.7069
為兩邊相等之三角形甲	-12.7069
見復光若干	-12.7069
設如有帶兩縱不同立方體	-12.707
甲丙二人俱在城外西北乾隅甲	-12.707
槍	-12.707
搜	-12.707
褁	-12.7071
術曰以啇功求之	-12.7071
敬天勤民	-12.7071
甲丙弧四十二度三十一分二十二	-12.7071
節至閲十五日	-12.7071
者乃所求本年	-12.7071
抗	-12.7071
岡	-12.7071
今有圓田一段内有方池水占之外計地	-12.7071
以乘從二亷得	-12.7072
太陽距天頂之正弦檢表得	-12.7072
午前為東午後為西求	-12.7072
拘盧舎	-12.7072
倦	-12.7072
半較角與半外角相加	-12.7072
之較是比每	-12.7072
栽	-12.7072
二五為從方置初次	-12.7073
評	-12.7073
冦	-12.7073
恭候命下	-12.7073
亦必相同而減盡無餘所餘者即為	-12.7073
猷	-12.7074
為初商之實乃視立方籌有	-12.7074
舊船一隻	-12.7075
以量代算	-12.7075
列於前者盖将	-12.7075
唇	-12.7076
三十分進一度查	-12.7076
奠	-12.7076
朱子語類	-12.7077
㪚	-12.7077
朽	-12.7077
笙	-12.7077
蘊	-12.7077
妹	-12.7078
廵	-12.7078
篾	-12.7079
顧應祥	-12.7079
悼	-12.7079
界形角各一百	-12.708
諉	-12.708
邀	-12.7081
挍	-12.7081
恍	-12.7081
帀	-12.7081
丙戊偕戊丁矩内直角形	-12.7081
邢雲路	-12.7082
悚	-12.7084
粳	-12.7084
幾百幾十	-12.7084
荔	-12.7085
年冬十有二月	-12.7085
翹	-12.7087
天地人三元	-12.7088
仄	-12.7088
頸	-12.7088
扛	-12.7088
猴	-12.7088
穆尼閣	-12.7089
謁	-12.709
錙	-12.709
渣	-12.709
馬沙亦黒	-12.7091
鏇	-12.7091
嗜	-12.7091
凄	-12.7093
俄	-12.7094
蟠	-12.7095
讓	-12.7095
郯	-12.7095
喉	-12.7097
欽定四庫全書九章錄要卷	-12.7097
分内三十一秒冬至應閏甲戌年甲子月	-12.71
初一刻九分内三十一秒冬至	-12.7102
詡	-12.7104
伶	-12.7106
緊	-12.7106
以面切面	-12.7107
澗	-12.7111
悶	-12.7121
厫	-12.7123
數第一方線右書	-12.7155
今不受除便以此為	-12.7183
置一乘從廉得	-12.724
曰初商一百置一於左上為法置一	-12.7693
日食三月交一十	-12.8081
三十九萬零六百二十五尺	-12.816
正一刻十五分内三十一秒冬至	-12.828
丁未年庚子月	-12.8305
一刻八分内四十一秒冬至	-12.8312
開平方得一百二十步即半	-12.8321
分兩㸃相距之度於分釐尺上量之得	-12.8328
一刻四分内二十一秒冬至	-12.8427
其最大之視差為	-12.8438
粉	-12.8444
燼	-12.8444
兩七錢三分九釐一毫有餘	-12.8449
構	-12.8452
觽	-12.8459
𢃄一縦方根	-12.846
所宜極論者	-12.846
求等得一不約	-12.846
陰實行却比平行多	-12.8462
耰	-12.8463
[...]
