<unk>	0
<s>	0
</s>	0
/	-3.73644
(	-3.97973
之	-3.99307
)	-4.0141
也	-4.46985
以	-4.58913
為	-4.87361
而	-4.88536
)(	-5.12087
者	-5.2171
其	-5.26929
不	-5.32722
王	-5.33267
人	-5.34944
有	-5.36726
於	-5.48892
曰	-5.5038
言	-5.67758
則	-5.75493
上	-5.81204
與	-5.82888
一	-5.82891
無	-5.86433
事	-5.89589
子	-5.94496
大	-5.97923
此	-5.99047
自	-6.01581
至	-6.05183
秦	-6.07246
所	-6.08398
矣	-6.09754
齊	-6.10234
使	-6.10402
今	-6.12403
臣	-6.14319
故	-6.14902
謂	-6.14988
公	-6.1689
及	-6.18616
反	-6.2173
行	-6.22946
在	-6.23417
又	-6.27326
等	-6.27626
下	-6.29314
見	-6.29661
爲	-6.31655
官	-6.31845
時	-6.32584
亦	-6.33443
皆	-6.36322
三	-6.38359
令	-6.38691
同	-6.38983
中	-6.39938
兵	-6.40072
趙	-6.40222
非	-6.41165
知	-6.41784
相	-6.4182
必	-6.42892
得	-6.43031
國	-6.43603
出	-6.43927
用	-6.44294
乃	-6.45463
將	-6.46478
文	-6.46617
是	-6.47064
已	-6.48023
如	-6.48416
欲	-6.51314
正	-6.53905
後	-6.5399
復	-6.54246
從	-6.54599
名	-6.56883
魏	-6.58934
安	-6.59577
當	-6.60151
于	-6.60159
二	-6.60254
楚	-6.61452
然	-6.62058
字	-6.62894
州	-6.64801
作	-6.65692
命	-6.6597
入	-6.66927
猶	-6.67204
若	-6.67283
可	-6.68174
遂	-6.68513
成	-6.68513
注	-6.68955
君	-6.69086
▁	-6.70785
即	-6.71435
軍	-6.72397
請	-6.73012
書	-6.73088
云	-6.73492
因	-6.74689
張	-6.75871
韓	-6.78813
乎	-6.80575
城	-6.80608
詔	-6.81951
李	-6.8237
道	-6.82717
多	-6.83288
周	-6.83839
民	-6.84305
重	-6.84379
明	-6.84441
日	-6.84777
年	-6.85103
任	-6.85643
本	-6.8655
音	-6.86973
地	-6.87288
未	-6.87903
取	-6.88398
去	-6.88591
何	-6.88628
先	-6.90398
陳	-6.92152
封	-6.93041
且	-6.93073
天	-6.93136
前	-6.93196
雖	-6.93307
死	-6.93454
能	-6.93576
進	-6.93804
馬	-6.93815
賜	-6.94134
闕	-6.94708
立	-6.97137
五	-6.9714
我	-6.98045
善	-6.98213
天下	-6.98801
四	-6.99345
加	-7.00148
平	-7.00252
/)	-7.00475
初	-7.00603
合	-7.01351
章	-7.01429
生	-7.016
守	-7.02052
舉	-7.02663
主	-7.02829
武	-7.03296
聞	-7.05649
山	-7.05978
徳	-7.06022
方	-7.06361
卒	-7.06475
既	-7.07119
實	-7.07234
南	-7.07319
禮	-7.09168
内	-7.09621
來	-7.09912
或	-7.10004
議	-7.11607
夫	-7.11746
兩	-7.11864
奏	-7.12162
府	-7.12554
定	-7.12674
通	-7.1318
歸	-7.13395
伯	-7.13976
外	-7.14212
元	-7.14416
侯	-7.14802
補音	-7.15506
士	-7.15595
俱	-7.16277
稱	-7.16471
各	-7.16615
和	-7.18513
劉	-7.1858
長	-7.1861
信	-7.19065
義	-7.19625
朝	-7.2009
始	-7.20871
不可	-7.21128
世	-7.2204
兼	-7.22491
分	-7.22561
惟	-7.22721
常	-7.23401
陽	-7.23937
法	-7.24144
燕	-7.24187
爾	-7.24531
治	-7.24769
服	-7.25045
數	-7.25315
親	-7.25541
宋	-7.26211
宜	-7.26626
居	-7.26668
正曰	-7.26739
固	-7.2717
意	-7.27575
史	-7.28344
門	-7.28361
恐	-7.28711
補曰	-7.28789
髙	-7.28929
不能	-7.28996
論	-7.29249
以為	-7.29701
焉	-7.3043
心	-7.30479
制	-7.30822
降	-7.31287
吾	-7.31525
問	-7.32779
戰	-7.3295
金	-7.33524
利	-7.33768
家	-7.34965
西	-7.35047
過	-7.35253
六	-7.35537
甚	-7.35721
東	-7.35742
師	-7.35819
樂	-7.35978
諸	-7.37305
政	-7.3732
應	-7.38022
改	-7.38108
元作	-7.38444
德	-7.38922
水	-7.39391
攻	-7.40025
失	-7.40211
發	-7.4033
盡	-7.40336
衆	-7.40354
易	-7.40599
並	-7.40838
忠	-7.41306
右	-7.41436
謀	-7.41939
亡	-7.41998
朝廷	-7.42315
求	-7.42365
氏	-7.43791
都	-7.43802
殺	-7.43818
難	-7.44251
計	-7.44317
處	-7.44757
嗣	-7.44794
說	-7.45134
起	-7.45258
力	-7.46067
辭	-7.46201
補	-7.46308
功	-7.4688
屬	-7.47232
耳	-7.47337
晉	-7.47548
司	-7.47577
召	-7.47934
逺	-7.48568
聲	-7.49055
昭	-7.49423
陛下	-7.49793
朕	-7.50053
少	-7.50972
十	-7.51571
古	-7.51584
近	-7.51627
儀	-7.51915
罷	-7.52091
卿	-7.52283
理	-7.5273
罪	-7.5292
置	-7.53123
還	-7.53156
北	-7.53165
九	-7.53328
漢	-7.53347
經	-7.53395
唐	-7.54
尚	-7.54047
止	-7.54087
惡	-7.54402
直	-7.54714
許	-7.5475
宗	-7.54787
寧	-7.54855
衛	-7.54953
小	-7.55028
敗	-7.55424
遣	-7.55428
益	-7.555
按	-7.55729
特	-7.55866
左	-7.55873
代	-7.56008
受	-7.56261
順	-7.567
傳	-7.57131
告	-7.57247
楊	-7.58562
縣	-7.5867
深	-7.58988
次	-7.59146
勝	-7.59295
致	-7.59684
錢	-7.59833
哉	-7.60355
孫	-7.60373
説	-7.60671
聽	-7.61234
帝	-7.6124
梁	-7.61447
保	-7.61569
仍	-7.61701
思	-7.61932
引	-7.62305
位	-7.62891
賊	-7.63184
嵗	-7.63256
石	-7.6353
由	-7.63745
食	-7.64231
萬	-7.64561
百	-7.64868
宣	-7.65343
更	-7.65517
語	-7.66047
賢	-7.66138
好	-7.66342
乞	-7.66462
奉	-7.6647
疑	-7.66545
廣	-7.66609
不得	-7.66676
職	-7.66703
䇿	-7.66888
父	-7.66909
鄭	-7.67131
身	-7.673
黄	-7.6819
白	-7.69082
觀	-7.69085
學	-7.69166
女	-7.69491
志	-7.69587
異	-7.69657
坐	-7.69792
間	-7.70111
凡	-7.70119
豈	-7.70296
新	-7.70358
貴	-7.70509
物	-7.70707
太子	-7.70933
留	-7.71108
約	-7.71736
盖	-7.7255
舊	-7.72637
興	-7.72745
獨	-7.72943
所以	-7.73257
江	-7.73289
宫	-7.73402
除	-7.73636
厚	-7.73745
并	-7.74164
永	-7.74304
試	-7.74435
田	-7.74614
具	-7.74763
敵	-7.75127
克	-7.75226
納	-7.75284
權	-7.75325
路	-7.75769
教	-7.76072
終	-7.76882
聖	-7.76902
比	-7.7691
交	-7.77476
進士	-7.78042
太宗	-7.78083
誠	-7.78803
亂	-7.78864
伐	-7.7905
恩	-7.79195
報	-7.79642
遷	-7.79763
惠	-7.79841
賞	-7.8016
㑹	-7.80184
願	-7.80581
彼	-7.80589
七	-7.80722
嘗	-7.80736
首	-7.80922
望	-7.81122
三年	-7.81712
吏	-7.81859
往	-7.81958
備	-7.8216
邊	-7.82226
致仕	-7.82456
私	-7.82947
輕	-7.83076
郡	-7.83408
而不	-7.83821
免	-7.83958
絶	-7.84946
但	-7.85084
餘	-7.85093
衍	-7.85302
吳	-7.85501
節	-7.85514
給	-7.85611
掌	-7.8562
尚書	-7.85627
八	-7.86327
夏	-7.86344
徐	-7.86552
遇	-7.86747
懐	-7.86938
别	-7.87283
臨	-7.87565
悉	-7.87714
扵	-7.87891
對	-7.88015
靖	-7.88213
修	-7.8835
獻	-7.8839
度	-7.88457
强	-7.88636
便	-7.89023
再	-7.89079
鎮	-7.89136
清	-7.89301
不敢	-7.89523
仁	-7.8974
害	-7.90334
承	-7.90361
果	-7.90377
疾	-7.90817
解	-7.9084
端	-7.90999
收	-7.91245
汝	-7.92151
河	-7.9216
光	-7.92185
母	-7.92867
車	-7.92979
開	-7.9325
幸	-7.93522
胡	-7.93597
務	-7.93841
共	-7.94026
拜	-7.94667
恭	-7.9477
御	-7.9482
建	-7.94853
陵	-7.9498
破	-7.95101
選	-7.95116
怨	-7.95208
據	-7.9526
布	-7.95286
老	-7.95412
省	-7.95717
於是	-7.95908
視	-7.96141
設	-7.9652
口	-7.96917
申	-7.97288
部	-7.98592
達	-7.987
濟	-7.98705
率	-7.99257
土	-7.99652
察	-7.99959
尊	-7.99992
神	-8.00766
朱	-8.0088
變	-8.00956
敬	-8.01038
監	-8.01121
怒	-8.01221
殿	-8.01418
榮	-8.01517
謝	-8.0162
玉	-8.01866
授	-8.01931
慶	-8.01972
考	-8.01988
福	-8.0227
紀	-8.02374
将	-8.02564
廢	-8.02765
懼	-8.02829
載	-8.02856
威	-8.02962
汗	-8.0308
陞	-8.03081
卷	-8.03245
姓	-8.03285
記	-8.03577
原	-8.03604
號	-8.03999
可以	-8.04909
全	-8.05194
執	-8.05335
輔	-8.05485
如此	-8.05716
海	-8.05789
諭	-8.06009
勞	-8.06055
二年	-8.0624
魯	-8.06328
送	-8.06509
贈	-8.06798
嘉	-8.06893
林	-8.06964
太	-8.0697
圖	-8.07074
顧	-8.07284
隂	-8.07636
景	-8.07684
不知	-8.07693
化	-8.07769
御史	-8.07858
英	-8.08042
簡	-8.082
甲	-8.08337
大夫	-8.08513
責	-8.08644
典	-8.08852
持	-8.08891
龍	-8.09077
誤	-8.09143
切	-8.09148
隨	-8.09257
領	-8.09322
四年	-8.09429
退	-8.10013
憂	-8.10047
越	-8.10082
衣	-8.10183
要	-8.10316
孝	-8.10399
皇	-8.10444
月	-8.10462
繼	-8.10463
充	-8.10492
良	-8.11135
銀	-8.11469
愛	-8.11579
春	-8.11808
依	-8.12172
郭	-8.12336
遺	-8.12511
救	-8.12638
就	-8.12818
華	-8.13129
急	-8.13237
動	-8.13265
流	-8.13976
康	-8.14217
美	-8.14312
左右	-8.14598
大臣	-8.14689
每	-8.15037
盛	-8.15398
邑	-8.15447
表	-8.15544
誅	-8.15712
里	-8.15906
向	-8.16137
累	-8.1635
后	-8.16434
木	-8.16795
五年	-8.16887
養	-8.17177
列	-8.17264
乗	-8.17305
對曰	-8.17403
極	-8.17446
容	-8.17667
嚴	-8.17791
河南	-8.17871
被	-8.18025
足	-8.18212
業	-8.18259
曹	-8.18569
施	-8.18585
講	-8.18784
係	-8.19602
策	-8.19769
強	-8.19831
追	-8.19928
伏	-8.20449
耶	-8.20644
質	-8.20956
弱	-8.20985
嘉靖	-8.21006
資	-8.21047
須	-8.21257
慮	-8.21316
科	-8.21541
六年	-8.2175
詳	-8.21761
崇	-8.22027
勿	-8.22236
𥙷曰	-8.22467
棄	-8.22512
獲	-8.22532
例	-8.22768
病	-8.22775
登	-8.22781
顯	-8.23116
營	-8.23194
存	-8.23347
差	-8.23537
諸侯	-8.23585
敢	-8.23624
久	-8.23681
管	-8.24089
莫	-8.24099
夀	-8.24148
傷	-8.24188
國公	-8.24223
直𨽻	-8.24362
弟	-8.24449
二人	-8.24508
危	-8.24803
色	-8.25097
附	-8.25436
呉	-8.2548
患	-8.25953
喜	-8.26074
情	-8.2613
刑	-8.26196
風	-8.26468
器	-8.26826
待	-8.26965
結	-8.27003
犯	-8.27036
詩	-8.27335
禁	-8.27559
昌	-8.27682
移	-8.27924
圍	-8.28039
七年	-8.28142
八年	-8.28247
素	-8.28265
役	-8.28502
祖	-8.28543
秦王	-8.2889
逐	-8.29023
智	-8.29326
戒	-8.2933
▁(	-8.29396
手	-8.2985
專	-8.29853
客	-8.30144
革	-8.30188
指	-8.30212
徒	-8.30905
十年	-8.30992
而已	-8.31061
元年	-8.31186
一人	-8.3142
推	-8.31576
之後	-8.31653
於秦	-8.31947
延	-8.31975
邪	-8.32366
著	-8.3251
學士	-8.32764
才	-8.32905
塞	-8.3305
所謂	-8.33096
氣	-8.33483
帥	-8.34278
真	-8.34355
委	-8.34474
泰	-8.34766
庶	-8.34889
莊	-8.34914
籍	-8.35347
尋	-8.35523
目	-8.3555
富	-8.35673
期	-8.359
第	-8.35933
弗	-8.35978
夷	-8.36003
韓魏	-8.36036
廟	-8.36175
曽	-8.36211
襄	-8.36377
示	-8.36581
昔	-8.36829
羅	-8.36859
連	-8.36868
適	-8.36895
孟	-8.36975
滅	-8.3712
南京	-8.37136
體	-8.37204
負	-8.37269
楚王	-8.37485
之所	-8.37519
造	-8.37635
仲	-8.37857
離	-8.37918
尤	-8.38091
寡人	-8.38285
勢	-8.38329
集	-8.38525
葢	-8.38613
寳	-8.38788
佐	-8.39079
戎	-8.39431
肅	-8.39485
丘	-8.39913
阿	-8.39957
禍	-8.40061
太監	-8.40081
妃	-8.40286
録	-8.40327
蓋	-8.40427
指揮	-8.40448
擇	-8.40874
勸	-8.41079
商	-8.41094
訓	-8.41303
諫	-8.41375
曲	-8.41425
洪武	-8.41457
鈔	-8.41527
叔	-8.41585
走	-8.41588
巳	-8.41687
擊	-8.41917
覆	-8.41926
畏	-8.42065
皇帝	-8.42165
諌	-8.42337
散	-8.4245
市	-8.4246
息	-8.42879
人由進士	-8.42956
征	-8.42974
他	-8.42997
騎	-8.4306
副	-8.43676
違	-8.43752
謹	-8.43893
天下之	-8.44118
博	-8.44181
斷	-8.44202
放	-8.44279
㫖	-8.44448
千	-8.44448
廷	-8.44557
成化	-8.4474
吉	-8.4477
衞	-8.44999
襲	-8.45009
習	-8.45121
舍	-8.45182
吕	-8.4524
丁	-8.45366
逆	-8.45388
者也	-8.4551
聚	-8.45907
川	-8.45909
院	-8.46112
律	-8.46344
撫	-8.46378
永樂	-8.46593
勒	-8.46597
薄	-8.46604
中山	-8.46671
𫝊	-8.46811
瑾	-8.46824
之言	-8.46827
祭	-8.46864
天子	-8.46884
從之	-8.46886
之事	-8.46917
念	-8.471
九年	-8.4735
面	-8.47382
酒	-8.47698
積	-8.47772
調	-8.47796
都督	-8.47908
避	-8.48012
工	-8.48012
不足	-8.48111
米	-8.48317
聞之	-8.4857
夜	-8.48601
薦	-8.48651
憲	-8.48969
草	-8.49065
寛	-8.49289
山東	-8.49325
奪	-8.49462
折	-8.49493
不如	-8.49611
見前	-8.49721
畢	-8.49889
會	-8.50049
到	-8.50196
高	-8.50201
洪	-8.50394
薨	-8.51152
隆	-8.51344
况	-8.51412
候	-8.51522
二十	-8.51898
回	-8.51928
京	-8.51959
臺	-8.52028
百姓	-8.52122
支	-8.52429
侍	-8.52519
蔡	-8.52539
户	-8.52604
勤	-8.52684
上曰	-8.52688
郎	-8.52719
帶	-8.52783
族	-8.5305
費	-8.53182
澤	-8.53413
優	-8.53795
之意	-8.53888
囯	-8.53892
増	-8.53966
轉	-8.54021
公子	-8.54118
堅	-8.54161
十二	-8.54226
黨	-8.54247
勇	-8.54289
予	-8.54534
財	-8.54564
之子	-8.54758
統	-8.55037
勅	-8.55255
無所	-8.55544
闗	-8.55606
陜西	-8.55829
背	-8.56063
其後	-8.56319
青	-8.56478
疏	-8.56507
釋	-8.56635
助	-8.56774
援	-8.56783
徃	-8.56985
最	-8.57117
宰相	-8.57171
機	-8.57262
遣使	-8.58038
迎	-8.58601
太后	-8.58683
斯	-8.59008
付	-8.59516
火	-8.59545
之地	-8.5964
爵	-8.60043
賈	-8.6057
哀	-8.60695
索	-8.6078
聴	-8.61084
茂	-8.61092
乆	-8.61432
由進士	-8.61483
三月	-8.6161
困	-8.61709
□	-8.61711
脩	-8.6173
来	-8.61775
陶	-8.62246
升	-8.62474
决	-8.62637
似	-8.62705
十二年	-8.62765
有所	-8.62796
屈	-8.6285
䝉	-8.62948
半	-8.63041
先是	-8.63073
孤	-8.63089
雲	-8.63129
蘇	-8.63578
傅	-8.63674
精	-8.63703
魚	-8.63854
丞相	-8.63874
爭	-8.64195
班	-8.64412
照	-8.64491
室	-8.64594
羣臣	-8.64602
形	-8.64704
呼	-8.64732
唯	-8.64779
均	-8.64795
校	-8.64818
季	-8.64873
𢎞治	-8.64976
温	-8.64991
震	-8.65099
不許	-8.65125
獄	-8.65164
之心	-8.65347
寵	-8.65361
赴	-8.65821
安石	-8.66317
寨	-8.66338
𥙷	-8.66437
禮部	-8.66513
諡	-8.6669
督	-8.67059
割	-8.67159
歲	-8.67447
以下	-8.67598
也今	-8.67692
祥	-8.67859
荆	-8.67888
趨	-8.68229
虞	-8.68235
十六年	-8.68299
使人	-8.68307
之人	-8.68339
堂	-8.68349
討	-8.68369
為之	-8.68466
庫	-8.68608
竒	-8.68628
奔	-8.68661
愚	-8.68752
鄉	-8.68834
末	-8.68879
頭	-8.69087
射	-8.69352
國家	-8.69462
中書	-8.69472
歴	-8.69592
以來	-8.6975
象	-8.69773
休	-8.70017
俊	-8.70022
巴	-8.70106
妄	-8.70231
格	-8.70563
浙江	-8.70644
反下	-8.70793
鹽	-8.70893
吏部	-8.70924
王曰	-8.70947
以爲	-8.70982
有司	-8.71198
總	-8.71355
馮	-8.71428
俗	-8.7148
倍	-8.71502
賦	-8.71681
乘	-8.71871
詞	-8.71883
曰吾	-8.71914
其所	-8.71935
程	-8.72161
宻	-8.72262
十四年	-8.72318
蜀	-8.7233
禄	-8.72338
宿	-8.72338
假	-8.72944
杜	-8.7306
野	-8.73316
五月	-8.73364
條	-8.73425
薛	-8.73473
余	-8.73728
錠	-8.73751
境	-8.73928
八月	-8.7406
曾	-8.74295
苦	-8.74514
春秋	-8.74677
滿	-8.75052
識	-8.7511
糧	-8.75171
喪	-8.75293
横	-8.75351
一日	-8.75471
壽	-8.75508
庭	-8.75561
頗	-8.75582
密	-8.75601
界	-8.75642
江西	-8.75785
九月	-8.75977
審	-8.75995
讓	-8.76204
契丹	-8.7627
運	-8.76311
欽	-8.76355
不及	-8.76485
讀	-8.7673
微	-8.76867
湖廣	-8.76916
十三年	-8.76928
庸	-8.77151
辨	-8.77211
烏	-8.77387
性	-8.77394
慎	-8.77447
貫	-8.77478
何以	-8.77488
接	-8.77502
弊	-8.77599
懷	-8.77756
伊	-8.77794
速	-8.77814
是以	-8.77936
今日	-8.78127
即位	-8.78129
虎	-8.7816
斬	-8.78187
争	-8.78815
恃	-8.79113
祀	-8.79319
先帝	-8.79431
類	-8.79519
先生	-8.79846
仕	-8.80229
循	-8.80241
險	-8.80449
十五年	-8.8057
干	-8.80656
友	-8.80693
寶	-8.80778
牛	-8.80932
君之	-8.80965
却	-8.81104
縱	-8.81117
虚	-8.8142
忽	-8.81476
太祖	-8.8148
抑	-8.8149
預	-8.81678
錫	-8.82086
京師	-8.8238
茍	-8.82505
雄	-8.82657
属	-8.82759
徴	-8.8291
宴	-8.82961
句	-8.8306
序	-8.8336
不聽	-8.83463
兹	-8.83509
張儀	-8.83596
大學士	-8.83807
侵	-8.83825
印	-8.83878
署	-8.83902
郊	-8.84048
邦	-8.84101
然後	-8.84212
尹	-8.8431
狀	-8.84398
題	-8.84484
倫	-8.84546
六月	-8.85145
魏王	-8.85197
損	-8.852
幾	-8.85246
十一年	-8.8526
振	-8.8529
判	-8.85384
范	-8.85586
舟	-8.85611
畧	-8.85741
今王	-8.85788
内閣	-8.85849
兵部尚書	-8.85959
靈	-8.85975
轉左	-8.85975
藏	-8.85985
穆	-8.8609
篇	-8.86102
羊	-8.86123
兵部	-8.86212
符	-8.86228
叛	-8.86298
赦	-8.86309
窮	-8.86327
量	-8.86624
額	-8.86665
忘	-8.86878
給事中	-8.86907
司馬	-8.8694
効	-8.86954
稍	-8.86961
員	-8.87187
希	-8.87272
貢	-8.87392
貞	-8.87557
孔	-8.88153
之間	-8.88215
竊	-8.88412
偽	-8.88416
飲	-8.88423
冦	-8.8848
見前嘉靖	-8.88546
大王	-8.88548
冠	-8.88588
註	-8.88729
十二月	-8.88811
陸	-8.88936
奸	-8.89006
秋	-8.89101
毁	-8.89146
尺	-8.89333
儒	-8.89337
不過	-8.89346
翟	-8.89457
衡	-8.89761
是也	-8.89848
愈	-8.8989
招	-8.90088
丞	-8.90153
漸	-8.9028
將軍	-8.90427
朔	-8.90522
削	-8.90577
鍾	-8.90577
肆	-8.90597
藉	-8.90609
沈	-8.90618
子孫	-8.90904
投	-8.91002
河東	-8.91042
羣	-8.91096
至於	-8.91156
中國	-8.91179
十一月	-8.91183
落	-8.9124
缺	-8.916
未有	-8.91712
旣	-8.9176
而後	-8.91797
謂之	-8.91984
否	-8.91996
正統	-8.92006
遵	-8.92012
毛	-8.92045
己	-8.92098
僅	-8.92102
介	-8.92104
言之	-8.92128
山西	-8.92166
允	-8.92311
葉	-8.92406
葬	-8.92409
圗	-8.92455
閣	-8.92495
遽	-8.92511
𢎞	-8.92704
敏	-8.92725
刺	-8.92761
薨子	-8.92844
逃	-8.92866
至是	-8.92928
言其	-8.93053
徙	-8.93156
辱	-8.93278
施行	-8.93349
供	-8.93384
云云	-8.93423
早	-8.93603
五十	-8.93695
關	-8.93919
三十	-8.93977
參	-8.93981
辟	-8.94001
詣	-8.94278
閔	-8.94318
材	-8.94378
大事記	-8.94397
正徳	-8.94879
孰	-8.94989
游	-8.95098
裕	-8.95115
頃	-8.95283
擢	-8.95303
防	-8.95373
三人	-8.95376
略	-8.95429
其子	-8.95733
暴	-8.95863
拔	-8.95867
房	-8.95898
執政	-8.96102
人也	-8.96189
賀	-8.96194
裁	-8.96244
以聞	-8.96268
戍	-8.9627
惠王	-8.96311
揚	-8.96349
詐	-8.96644
淮	-8.96661
祖宗	-8.96679
敝	-8.97003
辰	-8.9702
誰	-8.97064
屢	-8.97092
減	-8.97097
訪	-8.97132
副使	-8.97354
仰	-8.97447
馳	-8.97452
述	-8.97486
贊	-8.97497
竟	-8.97518
妻	-8.97567
谷	-8.97723
太師	-8.9777
冬	-8.97779
之士	-8.97853
貪	-8.97883
妾	-8.97923
於齊	-8.98029
狄	-8.98241
愚按	-8.98243
惑	-8.9867
衰	-8.98702
可謂	-8.98859
感	-8.98956
鼎	-8.99033
姚	-8.99131
之道	-8.99135
細	-8.99153
烈	-8.99481
兄弟	-8.99519
齊王	-8.99639
丹	-8.99708
彪謂	-9.0026
遼	-9.00471
斥	-9.00633
補曰一本	-9.00686
欺	-9.00879
秩	-9.00929
十七年	-9.00944
君子	-9.00959
隱	-9.011
小人	-9.01169
正月	-9.01194
殺之	-9.01272
二月	-9.01321
弼	-9.01543
洛	-9.01733
毅	-9.01844
雜	-9.01856
州人	-9.01935
之故	-9.0225
亟	-9.02297
於此	-9.02336
的	-9.02416
厯	-9.02426
萬厯	-9.02432
蘇秦	-9.0259
鮑	-9.02693
追封	-9.0271
決	-9.02717
曰臣	-9.02733
笑	-9.02908
四月	-9.02936
此言	-9.02939
夫人	-9.03042
十八年	-9.03049
堯	-9.03094
逸	-9.03152
公仲	-9.03325
也言	-9.03414
飛	-9.03559
未嘗	-9.03589
臣等	-9.03854
雅	-9.03869
陣	-9.03938
郢	-9.03987
之時	-9.03992
不為	-9.04294
社稷	-9.04305
畫	-9.04313
翼	-9.04328
空	-9.04331
其事	-9.04455
貞觀	-9.04666
源	-9.04781
牧	-9.04831
䟽	-9.04906
者皆	-9.04909
館	-9.0497
翰林	-9.05223
少保	-9.05433
舜	-9.05634
單	-9.05645
在位	-9.05663
勉	-9.05707
國之	-9.05826
隋	-9.0588
足以	-9.05881
婦	-9.05916
賂	-9.06028
悔	-9.06038
官軍	-9.06066
擬	-9.06078
某	-9.06121
賣	-9.06146
豐	-9.06214
使者	-9.063
湯	-9.06325
雨	-9.07123
術	-9.07214
謙	-9.07218
故也	-9.0729
擒	-9.07293
之罪	-9.07312
蕭	-9.07411
鼓	-9.07416
限	-9.07418
了	-9.07534
毋	-9.07669
邉	-9.07884
侍郎	-9.07917
匹	-9.08
劾	-9.08026
祿	-9.08214
諱	-9.08248
捕	-9.0826
殷	-9.0833
勲	-9.08514
禮部尚書	-9.08591
農	-9.08622
絹	-9.08666
虛	-9.08734
専	-9.08754
中外	-9.08925
悼	-9.09052
咎	-9.0912
借	-9.09143
甫	-9.09151
星	-9.09193
吴	-9.0958
寄	-9.09593
飾	-9.09633
蠻	-9.09642
州縣	-9.09793
珠	-9.09807
撰	-9.10071
懿	-9.10131
十五	-9.10198
然則	-9.10365
駕	-9.10384
彦	-9.1044
不勝	-9.10632
河北	-9.10638
雍	-9.10643
拒	-9.10799
皇后	-9.10826
顔	-9.10844
享	-9.10983
兄	-9.11117
户部	-9.11211
自是	-9.11246
以此	-9.11288
之法	-9.11312
毎	-9.11416
六十	-9.11456
如字	-9.11758
㧞	-9.1179
皮	-9.11813
檢	-9.11828
故事	-9.12043
謁	-9.12183
擅	-9.12191
董	-9.12441
卑	-9.12759
純	-9.12777
屯	-9.12806
乾	-9.1314
姑	-9.13185
蕃	-9.13211
與之	-9.13332
禦	-9.13482
宇	-9.13501
倉	-9.13611
擾	-9.13694
蔽	-9.13694
黎	-9.13697
料	-9.13746
四十	-9.1405
扶	-9.14056
緩	-9.14084
又言	-9.14536
厲	-9.14622
後世	-9.14625
天地	-9.1466
角	-9.14692
與秦	-9.14803
其言	-9.15003
盟	-9.15015
誣	-9.15069
輒	-9.15127
必有	-9.15217
君臣	-9.15224
知其	-9.15237
以上	-9.15251
雲南	-9.15275
亨	-9.15437
讎	-9.15493
殘	-9.15558
用兵	-9.158
沙	-9.15938
都指揮	-9.15997
夢	-9.1603
仇	-9.16049
不當	-9.16117
𩔖	-9.1634
維	-9.16451
卜	-9.1651
當時	-9.16555
下同	-9.16702
寒	-9.16968
啓	-9.17034
用之	-9.17144
桓	-9.17169
不復	-9.17328
二十年	-9.17337
寺	-9.17399
繫	-9.17457
熟	-9.17464
藥	-9.17466
垂	-9.17498
之國	-9.17646
彭	-9.17655
禹	-9.17859
諸將	-9.17885
○	-9.17918
錦	-9.17926
寜	-9.17938
幣	-9.18256
稽	-9.18274
趙王	-9.18286
僖	-9.18417
規	-9.18418
七月	-9.18532
咸	-9.18608
旦	-9.1863
二十二年	-9.18654
不與	-9.18758
甘	-9.18848
岳	-9.18879
去聲	-9.1892
由是	-9.18944
及第	-9.18994
三司	-9.19014
煩	-9.19237
恵	-9.19358
罰	-9.19376
鄙	-9.19406
藩	-9.19451
知之	-9.1958
也正曰	-9.1977
戴	-9.19892
殊	-9.19908
種	-9.19918
泉	-9.19965
宣王	-9.20358
盧	-9.2038
俸	-9.20395
以其	-9.20834
軾	-9.20892
南陽	-9.20905
八十	-9.2092
偏	-9.20931
湖	-9.20931
只	-9.20936
忌	-9.20997
覺	-9.21136
太平	-9.21147
亦有	-9.21168
是時	-9.21188
諸路	-9.21273
鑑	-9.21307
買	-9.21376
逹	-9.21412
貨	-9.21476
魏徴	-9.21566
十月	-9.21639
二子	-9.21862
皇太后	-9.21903
歳	-9.2192
地方	-9.22073
四方	-9.22169
珪	-9.22231
錦衣衛	-9.22314
兒	-9.22363
焚	-9.22368
驕	-9.22475
儲	-9.22642
姦	-9.22761
頓	-9.22805
蘇子	-9.22908
勘	-9.22922
昨	-9.22946
惜	-9.23081
之計	-9.23094
不從	-9.2314
太子太保	-9.23168
式	-9.23249
矢	-9.23437
案	-9.23443
集韻	-9.23452
掩	-9.23465
隠	-9.23485
黜	-9.23505
江南	-9.23506
塲	-9.23568
舉人	-9.23783
辯	-9.23834
囘	-9.23892
喻	-9.2392
縁	-9.23965
於王	-9.24049
一本	-9.24099
鄧	-9.24171
人心	-9.24286
於楚	-9.24329
遜	-9.24448
佛	-9.24471
𤣥	-9.24477
乏	-9.24496
履	-9.24501
側	-9.24513
少傅	-9.2457
亦不	-9.24648
賤	-9.24662
豫	-9.24894
諸矦	-9.24924
併	-9.24951
傾	-9.24983
杖	-9.25028
昭王	-9.25098
而無	-9.25175
帛	-9.25215
子之	-9.25271
紹	-9.25371
前後	-9.25461
准	-9.25567
五百	-9.25616
正德	-9.25773
襄王	-9.25861
效	-9.25994
俾	-9.26038
閒	-9.26062
䕶	-9.26377
之際	-9.26526
挾	-9.26553
浮	-9.26559
一時	-9.26623
仁宗	-9.26729
犀首	-9.2696
完	-9.27059
刻	-9.2709
局	-9.27173
彬	-9.27216
祐	-9.27253
父子	-9.27263
驚	-9.27317
僧	-9.27471
穀	-9.27689
世襲	-9.27815
丗	-9.27985
補音上	-9.2803
三百	-9.28136
蘇代	-9.28152
既而	-9.28308
池	-9.28415
寡	-9.28633
歟	-9.28654
工部尚書	-9.28669
花	-9.2869
翰林學士	-9.28748
太原	-9.28803
踰	-9.29096
亭	-9.29167
琦	-9.29179
之功	-9.29252
超	-9.29267
伍	-9.29332
曰此	-9.29418
補音古	-9.29596
刀	-9.2975
何也	-9.29779
不同	-9.29783
輸	-9.29786
羽	-9.29792
僕	-9.29803
大事	-9.29862
不然	-9.29893
節度使	-9.30051
明日	-9.30145
步	-9.30158
邯鄲	-9.30246
肉	-9.303
不足以	-9.30508
許之	-9.30802
内外	-9.30805
故曰	-9.30809
崔	-9.30819
司馬光	-9.30854
三國	-9.30935
元昊	-9.30967
答	-9.31063
本年	-9.31185
燕王	-9.31204
伐齊	-9.3123
曉	-9.31302
哈	-9.31332
貶	-9.314
品	-9.31412
崩	-9.31472
恕	-9.31527
注同	-9.31601
行之	-9.31745
逮	-9.31804
誘	-9.31966
之上	-9.32168
欲以	-9.32209
吏部尚書	-9.32217
編	-9.3245
謫	-9.32495
荒	-9.32522
冒	-9.32525
階	-9.32536
千户	-9.32759
普	-9.32777
上下	-9.32784
恤	-9.32835
桂	-9.32888
剛	-9.32966
虜	-9.33062
拉	-9.33086
筆	-9.3309
斗	-9.33097
究	-9.33112
其地	-9.33287
郎中	-9.3331
亮	-9.33356
長子	-9.33396
竭	-9.33591
十九年	-9.33596
談	-9.3367
一百	-9.33852
其人	-9.33897
蒲	-9.34056
俟	-9.34127
導	-9.34185
奮	-9.34204
罕	-9.34206
必不	-9.34378
二十一年	-9.34423
慈	-9.34594
莫不	-9.34617
托	-9.34726
収	-9.34737
采	-9.34851
恨	-9.34852
平章	-9.35191
短	-9.35267
甘茂	-9.35278
百官	-9.35347
袁	-9.35371
遊	-9.3539
疋	-9.35462
之辭	-9.35575
歡	-9.35921
二國	-9.36066
三十年	-9.36101
其餘	-9.36142
樓	-9.36194
史作	-9.36215
足下	-9.36251
軫	-9.36424
奈何	-9.36513
築	-9.36652
千里	-9.36748
少師	-9.36894
宣徳	-9.36915
十一	-9.37003
是日	-9.37004
墨	-9.3704
血	-9.37088
曰君	-9.37136
淺	-9.37138
恥	-9.37152
不以	-9.37205
募	-9.37559
戮	-9.37683
福建	-9.37824
抵	-9.37929
徵	-9.38136
叙	-9.38263
偃	-9.38334
基	-9.38487
勛	-9.38632
不用	-9.38678
不若	-9.38694
賛	-9.38768
賔	-9.38839
上言	-9.38962
有功	-9.39111
覽	-9.39148
世子	-9.39184
人主	-9.39246
當作	-9.39299
綱	-9.39333
大國	-9.39364
劒	-9.39453
寢	-9.395
後同	-9.39507
輿	-9.39531
淫	-9.39542
四川	-9.39728
三日	-9.39867
哲	-9.39993
掠	-9.40028
之臣	-9.40032
汪	-9.4006
賴	-9.40149
於天下	-9.40209
臣之	-9.40497
文武	-9.40545
榖	-9.40623
也故	-9.40634
芳	-9.40635
陷	-9.4073
育	-9.40735
都督僉事	-9.40851
也夫	-9.41091
露	-9.41234
殆	-9.41241
誓	-9.41257
璧	-9.41285
韋	-9.4132
左都督	-9.41381
曰我	-9.41474
於趙	-9.41566
第一	-9.41685
津	-9.41917
幼	-9.41919
睦	-9.41937
樹	-9.41945
産	-9.41982
榜	-9.42009
輩	-9.42202
二十三年	-9.42232
蒙	-9.42394
有差	-9.42487
户部尚書	-9.42534
翰	-9.42535
鎮守	-9.4257
銜	-9.42579
甞	-9.4258
武王	-9.42618
天順	-9.42941
該	-9.431
俞	-9.43163
靡	-9.43178
之兵	-9.43304
嵗次	-9.43437
白金	-9.43475
父母	-9.43664
不行	-9.43669
段	-9.43701
何如	-9.43718
它	-9.43745
確	-9.43774
盈	-9.43832
沒	-9.43858
西周	-9.44145
鄰	-9.44212
遁	-9.44269
絳	-9.44391
觧	-9.44396
徑	-9.44407
屠	-9.44416
舒	-9.44447
配	-9.44453
敕	-9.44476
級	-9.44482
姬	-9.44506
詢	-9.44516
元祐	-9.44576
二字	-9.44663
粟	-9.44966
五千	-9.44975
淳	-9.44995
苑	-9.45016
謬	-9.45031
宅	-9.45037
採	-9.4504
畨	-9.45074
禽	-9.45091
賓	-9.45137
不合	-9.45158
聘	-9.45174
泣	-9.45462
進封	-9.45508
士卒	-9.45568
歌	-9.45574
明年	-9.45587
太子太傅	-9.45644
紫	-9.45653
都察院	-9.45656
巧	-9.45666
堡	-9.45674
太皇太后	-9.45682
痛	-9.45696
無不	-9.46047
文臣	-9.46086
雖有	-9.46281
桑	-9.46298
潘	-9.46337
珍	-9.46339
傑	-9.46381
悦	-9.46569
政事	-9.46669
宗廟	-9.46727
巡	-9.46797
旋	-9.46881
之日	-9.46912
惇	-9.46917
席	-9.46924
齒	-9.46961
其罪	-9.46983
價	-9.47054
髙祖	-9.47204
無子	-9.47254
豈可	-9.47278
人皆	-9.47388
麗	-9.47607
香	-9.47616
操	-9.47622
不見	-9.47631
銘	-9.47695
舎	-9.47696
江陵	-9.47768
刑部	-9.47877
人君	-9.47883
東周	-9.47884
夕	-9.47907
今按	-9.47923
不至	-9.47999
先王	-9.48053
斉	-9.48123
自古	-9.48162
不可以	-9.48284
齊楚	-9.48315
閒住	-9.48336
增	-9.48368
輔臣	-9.48678
世宗	-9.48687
環	-9.48736
㡬	-9.48769
不肯	-9.48788
寸	-9.48895
濫	-9.48969
不欲	-9.49088
等處	-9.49109
死者	-9.49185
此時	-9.49226
利害	-9.49456
臣請	-9.49463
太傅	-9.49488
迪	-9.49542
創	-9.49545
㓕	-9.49573
蔣	-9.49582
秉	-9.49584
熊	-9.49598
驗	-9.49605
工部	-9.4962
貳	-9.49621
矜	-9.4963
竄	-9.4963
薨壽	-9.49634
隙	-9.49734
總兵官	-9.49801
十六	-9.49884
所言	-9.49989
燕趙	-9.50082
拘	-9.50225
文字	-9.50237
查	-9.50346
疆	-9.50576
於魏	-9.50721
躬	-9.50801
徽	-9.50843
戚	-9.50848
柔	-9.50863
驅	-9.50864
勁	-9.50879
託	-9.50914
懋	-9.50918
耕	-9.50922
鳴	-9.50959
徧	-9.5096
啟	-9.50961
公孫	-9.50979
諸州	-9.51016
喇	-9.51164
之禮	-9.51364
訛	-9.51395
下文	-9.51447
麟	-9.51484
陰	-9.51549
壯	-9.51558
没	-9.51606
宰	-9.51703
臣竊	-9.51842
旅	-9.51962
桓公	-9.52053
而去	-9.52088
与	-9.52165
倚	-9.52262
嫌	-9.523
抗	-9.523
監察御史	-9.52328
祠	-9.52331
冝	-9.52878
自今	-9.52975
偉	-9.52981
哭	-9.52989
韶	-9.53028
舞	-9.53028
整	-9.53052
姓名	-9.53106
孟子	-9.53246
薛公	-9.53422
至于	-9.53478
爾等	-9.53525
茶	-9.53574
錯	-9.53647
沮	-9.53659
總督	-9.53676
趙魏	-9.53685
鐵	-9.537
二千	-9.53708
提督	-9.53708
縣人	-9.53879
提	-9.54026
胥	-9.54095
得其	-9.54173
二十八年	-9.54207
鄒	-9.5425
公主	-9.54327
譽	-9.5435
骨	-9.54362
刑部尚書	-9.54374
渡	-9.544
徹	-9.54419
三千	-9.54475
以待	-9.54641
第二	-9.54724
子曰	-9.54873
之義	-9.54876
淵	-9.549
下獄	-9.54919
厥	-9.54948
刼	-9.55005
悟	-9.55013
松	-9.55018
聖人	-9.55065
姜	-9.55116
牒	-9.55145
讒	-9.55153
元帥	-9.55243
上以	-9.55383
尉	-9.55456
霸	-9.55646
仲淹	-9.5571
鳥	-9.55735
狂	-9.55759
昏	-9.55761
潰	-9.55771
四百	-9.55777
忿	-9.55787
肯	-9.55979
宜陽	-9.5598
蘭	-9.56072
奚	-9.56208
厭	-9.56271
二百	-9.56389
薩	-9.56417
占	-9.56439
綸	-9.56441
契	-9.56455
㣲	-9.56503
王安石	-9.56793
東宫	-9.5686
事秦	-9.5696
忍	-9.56992
等官	-9.57113
幽	-9.57139
冀	-9.57156
偶	-9.57172
澄	-9.57176
屋	-9.57181
未可	-9.57186
匿	-9.5724
旗	-9.57533
噶	-9.57679
其國	-9.57788
大軍	-9.57817
溪	-9.57867
垣	-9.57899
柄	-9.57909
戾	-9.57928
況	-9.57937
嬰	-9.5794
醫	-9.57947
有餘	-9.57969
十三	-9.58003
軍民	-9.58006
矦	-9.58075
四人	-9.58146
一作	-9.58226
不必	-9.58276
周君	-9.58445
之名	-9.58478
弓	-9.58601
為民	-9.5863
距	-9.58632
協	-9.58699
轉運使	-9.58706
秦之	-9.58709
船	-9.58738
男	-9.58813
廣東	-9.58877
通判	-9.58969
斤	-9.59127
如何	-9.59218
貧	-9.59242
涉	-9.59326
㓜	-9.59362
御史中丞	-9.59496
之役	-9.59691
而死	-9.59779
十八	-9.59786
攻魏	-9.59871
昇	-9.59936
井	-9.60072
彰	-9.60079
雷	-9.60083
宥	-9.60091
第三	-9.60101
祝	-9.60125
一千	-9.6014
堪	-9.60258
韓琦	-9.60345
都督同知	-9.60525
不出	-9.60603
橋	-9.60751
畜	-9.60835
宏	-9.60841
阻	-9.60852
受命	-9.60943
上書	-9.60961
諫官	-9.6108
不善	-9.6109
一旦	-9.61144
楚之	-9.61288
不通	-9.61376
侈	-9.6143
激	-9.61581
牙	-9.61607
不信	-9.6169
出兵	-9.61987
士大夫	-9.61991
項	-9.62023
邵	-9.62214
盗	-9.62249
盜	-9.62337
丁憂	-9.62351
鑒	-9.62368
屏	-9.62396
訴	-9.62398
撃	-9.62423
智伯	-9.6254
判官	-9.62591
戸	-9.62609
遼東	-9.62673
斬首	-9.62678
㕘	-9.62815
軍士	-9.62842
鄂	-9.62896
兆	-9.62991
取之	-9.63054
其心	-9.63079
狐	-9.6308
場	-9.63097
鐸	-9.63136
不相	-9.63217
瑞	-9.63236
州刺史	-9.6331
天順元年	-9.63603
誥	-9.63725
𨽻	-9.63856
閲	-9.63863
竹	-9.63874
議者	-9.63935
無以	-9.63947
之民	-9.63973
官吏	-9.63975
使臣	-9.64007
之難	-9.64025
先朝	-9.64281
曰善	-9.64302
百里	-9.64331
不便	-9.64404
彌	-9.64507
搆	-9.64567
謗	-9.64643
攝	-9.64689
又有	-9.6479
俱嘉	-9.64906
大小	-9.64948
大同	-9.65132
皆以	-9.65144
以示	-9.65163
可也	-9.65166
指揮使	-9.65299
又曰	-9.65333
三晉	-9.65339
總兵	-9.65361
朋	-9.65381
囚	-9.65444
提舉	-9.6545
凶	-9.65457
孔子	-9.65626
文公	-9.65772
庻	-9.6584
静	-9.66017
以兵	-9.6605
狀元	-9.66062
憚	-9.66186
祈	-9.66187
閉	-9.66191
逢	-9.66207
此事	-9.66645
二十五	-9.66645
彪	-9.66651
割地	-9.66669
疲	-9.66845
賚	-9.66882
主事	-9.66945
巡撫	-9.66992
蕩	-9.67001
撥	-9.67005
褒	-9.67009
實録	-9.67306
史記	-9.67418
辛	-9.67525
睢	-9.67635
周禮	-9.67685
台	-9.67706
無事	-9.67708
莒	-9.67728
鐘	-9.67742
文皇	-9.67747
三代	-9.67762
鹿	-9.67764
貌	-9.67768
乙丑	-9.67769
懲	-9.67775
遭	-9.6782
壊	-9.6784
不聞	-9.67929
而有	-9.67966
上黨	-9.68098
矣今	-9.68143
補曰史	-9.68165
遣人	-9.68327
周府	-9.684
内臣	-9.68426
凖	-9.68447
右都御史	-9.68549
此䇿	-9.68612
一年	-9.68814
以備	-9.68855
不受	-9.68944
與齊	-9.6899
同知	-9.69022
曰王	-9.69069
諸王	-9.69079
者亦	-9.69118
台吉	-9.69285
帝王	-9.6929
髙注	-9.693
黒	-9.69358
又以	-9.69397
獸	-9.69414
知制誥	-9.69424
警	-9.69447
十萬	-9.69481
舊制	-9.69876
武英殿大學士	-9.70075
邀	-9.70131
苟	-9.70146
昧	-9.70163
未能	-9.70169
凌	-9.70171
懇	-9.70188
奴	-9.70239
灾	-9.70306
為王	-9.70329
表裏	-9.70405
中丞	-9.7043
周公	-9.70654
僚	-9.70686
都指揮使	-9.70732
束	-9.70908
鉞	-9.70958
稷	-9.70976
亷	-9.70978
彊	-9.70984
虢	-9.71002
憤	-9.71025
貽	-9.71027
誦	-9.7103
壇	-9.71035
國初	-9.71042
曰臣聞	-9.71172
豈不	-9.71209
而不能	-9.71253
也若	-9.71302
其名	-9.71398
己未	-9.71442
未詳	-9.71488
之説	-9.71498
柱國	-9.71592
内官	-9.7161
雪	-9.71635
七十	-9.71678
溥	-9.71696
黙	-9.7171
鼻	-9.71745
排	-9.71749
熙	-9.7175
従	-9.71765
伐之	-9.71809
園	-9.71814
脱	-9.71821
之衆	-9.71848
賄	-9.7185
文王	-9.72032
入朝	-9.7212
入閣	-9.72211
三公	-9.72215
太保	-9.72453
鮮	-9.72524
璽	-9.72548
紵絲	-9.72621
途	-9.72657
矯	-9.72682
得罪	-9.72699
閱	-9.7272
展	-9.72725
慢	-9.72726
公叔	-9.73008
十七	-9.73183
百户	-9.73349
喇嘛	-9.73372
之禍	-9.73406
哩	-9.7342
奉陽君	-9.73424
状	-9.7347
姪	-9.73478
二十九年	-9.73504
税	-9.73508
舍人	-9.73524
怠	-9.73557
都御史	-9.73581
五國	-9.73656
使之	-9.73775
之所以	-9.73793
元豐	-9.73827
其君	-9.74113
績	-9.74224
正義云	-9.74302
恒	-9.74308
晚	-9.74316
䘮	-9.7434
浩	-9.74352
壘	-9.74352
快	-9.74375
仗	-9.74398
潛	-9.74412
之利	-9.74489
秦必	-9.74665
為一	-9.74735
所在	-9.7474
閏	-9.7474
景泰	-9.74761
太子少保	-9.74785
若此	-9.74792
者不	-9.74806
先王之	-9.74955
紅	-9.74991
曰子	-9.75087
攻之	-9.75111
壬辰	-9.75144
諒	-9.75145
一員	-9.75182
遲	-9.75185
鬼	-9.75193
宣德	-9.7526
曰朕	-9.75472
城中	-9.75806
于是	-9.75922
根	-9.75968
如故	-9.75976
衮	-9.75995
羙	-9.76017
㫁	-9.7604
赫	-9.76052
譏	-9.7606
隊	-9.76077
甲辰	-9.76097
疎	-9.76112
以後	-9.76135
㓂	-9.76204
赧王	-9.7625
生靈	-9.76344
㑹試	-9.76396
慰	-9.76663
訖	-9.76677
詔書	-9.76698
出於	-9.76759
閔王	-9.76777
皆不	-9.76798
儉	-9.76849
尾	-9.76896
無功	-9.76934
看	-9.76945
愧	-9.76953
簡王	-9.76991
緣	-9.77003
斂	-9.77007
鑄	-9.77013
八百	-9.77028
九十	-9.77031
少卿	-9.77401
輕重	-9.77405
陳軫	-9.77408
得之	-9.7746
不報	-9.77587
弇山堂别集卷	-9.77626
補音直	-9.77662
歸附	-9.77684
數十	-9.77705
韻	-9.77715
拱	-9.77718
是故	-9.77728
曰陛下	-9.77798
停	-9.77804
銳	-9.7781
誨	-9.77886
而下	-9.77933
釁	-9.77945
之中	-9.77969
再拜	-9.77984
河間	-9.78085
人由	-9.78093
言者	-9.78109
矣然	-9.78217
鳳	-9.78295
襄子	-9.78402
毒	-9.78505
皆有	-9.78609
國事	-9.7863
抱	-9.7868
則是	-9.787
練	-9.78739
轍	-9.78747
枝	-9.78769
金帛	-9.78808
其間	-9.79014
乙未	-9.79049
大將軍	-9.79228
侍講	-9.79309
臯	-9.79326
安邑	-9.79343
簿	-9.79372
不可不	-9.79496
課	-9.79518
有此	-9.79545
已而	-9.79548
知縣	-9.79556
絲	-9.79569
捷	-9.79575
粮	-9.79578
冕	-9.79587
滋	-9.79629
愍	-9.79733
未知	-9.7992
軍中	-9.80265
廣西	-9.80272
子弟	-9.80297
佩	-9.80442
嫁	-9.80445
塔	-9.80448
禧	-9.80449
焦	-9.80472
翁	-9.80482
岱	-9.80488
法司	-9.80492
寫	-9.80505
以告	-9.80521
續	-9.80529
庶人	-9.80557
出入	-9.80649
行事	-9.80658
建文	-9.80762
應侯	-9.80765
之說	-9.80797
洛陽	-9.81014
令尹	-9.81045
文學	-9.81118
如是	-9.81249
輪	-9.81354
犀	-9.81367
㝷	-9.81404
擊之	-9.81405
之數	-9.8142
隆慶	-9.81437
㸃	-9.81473
東西	-9.81556
諸軍	-9.8157
齎	-9.81601
兵馬	-9.81939
乙	-9.81943
至今	-9.8199
彦博	-9.82197
帳	-9.82205
陽人	-9.82232
幹	-9.82282
郤	-9.82284
貸	-9.82302
已上	-9.82302
駐	-9.8231
詰	-9.82313
奇	-9.82321
軍馬	-9.82329
彈	-9.82329
敦	-9.82352
一切	-9.82418
真宗	-9.82587
不忍	-9.82607
大兵	-9.827
三省	-9.82726
數萬	-9.82755
古今	-9.82769
萬人	-9.82794
順天	-9.82825
知府	-9.83011
祚	-9.83118
繁	-9.83175
仙	-9.83184
匡	-9.83187
巨	-9.83193
事也	-9.83197
驛	-9.8324
赤	-9.83267
輙	-9.8329
若不	-9.83291
不肖	-9.83323
本部	-9.83369
百萬	-9.83537
而欲	-9.83633
秦楚	-9.83699
王祐	-9.83772
所欲	-9.8381
民之	-9.83871
三萬	-9.83892
曰夫	-9.84055
銅	-9.84096
植	-9.84121
虧	-9.84134
隘	-9.84134
戊戌	-9.84147
鈞	-9.84152
災	-9.84155
减	-9.84161
渠	-9.84165
鬻	-9.84197
彛	-9.84308
王珪	-9.84372
入秦	-9.846
其家	-9.84669
齊魏	-9.84725
功封	-9.84792
鴻	-9.84797
十四	-9.84801
黄金	-9.84834
兮	-9.84836
始皇	-9.84848
腹	-9.84851
恪	-9.84883
叅	-9.8489
城下	-9.84898
縣令	-9.8491
此書	-9.84928
鳯	-9.84938
添	-9.85087
員外郎	-9.8511
特穆爾	-9.85125
宛	-9.85131
跡	-9.85144
卿等	-9.85196
群臣	-9.852
之初	-9.85265
綏	-9.85279
郡王	-9.85287
願陛下	-9.85288
成功	-9.85292
王師	-9.85353
相國	-9.85379
賢者	-9.8538
第十	-9.85474
臣聞	-9.85478
瓊	-9.85659
救之	-9.85677
而行	-9.85766
柱	-9.85779
之外	-9.85817
守備	-9.85849
渭	-9.8595
償	-9.86028
踈	-9.8603
親王	-9.86034
瑛	-9.86042
趣	-9.86051
扎	-9.86053
謨	-9.86064
鬬	-9.86086
陕西	-9.86109
暇	-9.86119
晉陽	-9.8615
也且	-9.86176
綿	-9.8619
反今按	-9.86458
二十六年	-9.86513
之君	-9.86563
不忘	-9.86793
童	-9.86821
世家	-9.86883
丁未	-9.8689
本作	-9.86909
慕	-9.86991
丈	-9.87
溝	-9.87013
癸未	-9.87033
住	-9.87049
待之	-9.87051
篤	-9.87058
節度	-9.87078
古之	-9.87092
賫	-9.8711
廬	-9.87127
咨	-9.87196
午	-9.87244
伐秦	-9.87249
嶺	-9.87444
冉	-9.87531
不免	-9.87543
北平	-9.8758
辦	-9.87777
官員	-9.87812
諾延	-9.87879
犬	-9.87913
斌	-9.87946
旨	-9.87955
軍前	-9.87977
踐	-9.8799
鎬	-9.8801
經筵	-9.88012
蘇軾	-9.88031
旁	-9.88036
齊人	-9.88038
玩	-9.88092
豈有	-9.88139
武臣	-9.88234
人臣	-9.88315
僉	-9.88384
綵	-9.88616
甲子	-9.88622
十疋	-9.88623
七百	-9.8866
之勢	-9.8875
所有	-9.88809
嫡	-9.88932
伐趙	-9.88933
軰	-9.88964
丁丑	-9.8897
沐	-9.8899
含	-9.88992
胄	-9.89006
怪	-9.89033
中書省	-9.89145
三品	-9.89195
文忠	-9.89309
之謀	-9.89419
西南	-9.89506
昔者	-9.89594
也又	-9.89693
錄	-9.89832
今君	-9.89917
郝	-9.89976
虐	-9.89978
纂	-9.8999
替	-9.89998
冗	-9.90024
亢	-9.90028
糾	-9.90034
洞	-9.90041
髙麗	-9.9007
之制	-9.90103
佞	-9.90115
所部	-9.90184
睿	-9.90222
二十五年	-9.90264
補曰姚云	-9.90265
古者	-9.90281
魏之	-9.90283
數日	-9.90724
穰侯	-9.90909
尼	-9.90909
見之	-9.9092
健	-9.9095
樊	-9.90987
寘	-9.90989
以自	-9.90997
詆	-9.90997
滯	-9.91031
其父	-9.91071
奎	-9.91082
三子	-9.91162
依舊	-9.91165
文子	-9.91262
參政	-9.91365
右俱	-9.91402
不在	-9.91441
功臣	-9.91508
其實	-9.91681
何不	-9.91725
冊	-9.91805
𥘉	-9.91886
餉	-9.91957
䖏	-9.91972
齊秦	-9.91982
荀	-9.91992
懐王	-9.91993
羌	-9.91997
罔	-9.91999
蔡確	-9.92012
豈非	-9.92018
弘	-9.92037
也補曰	-9.92078
王厚	-9.9208
鉉	-9.92089
丙子	-9.92111
言臣	-9.92118
之美	-9.92147
不利	-9.92246
平原	-9.92351
歎	-9.92402
觀之	-9.92568
濮	-9.9257
都監	-9.92746
鋭	-9.92841
批	-9.92846
飢	-9.92935
猛	-9.92964
紛	-9.92966
姚云	-9.92968
撓	-9.92994
壬戌	-9.93
遠	-9.93004
辛丑	-9.93005
数	-9.93018
肥	-9.93021
墮	-9.93039
跪	-9.93046
有㫖	-9.9305
十九	-9.93132
司徒	-9.93272
僉事	-9.93373
瑪	-9.934
之憂	-9.93416
者多	-9.93493
大梁	-9.93524
之患	-9.93639
亦無	-9.93746
見前正徳	-9.93824
幾瑟	-9.9383
廵	-9.93959
社	-9.93979
披	-9.93988
匠	-9.94002
額森	-9.94006
劍	-9.94011
驥	-9.94019
擁	-9.9402
庚戌	-9.94022
欽定四庫全書	-9.94038
衝	-9.9404
言事	-9.94045
隻	-9.94064
雞	-9.94066
在京	-9.94087
融	-9.94094
則有	-9.94132
孟嘗君	-9.94193
夏四月	-9.94201
伏望	-9.94256
金銀	-9.94262
人情	-9.94495
聰	-9.94527
又云	-9.94537
荆州	-9.94557
之力	-9.94592
本朝	-9.94634
之重	-9.94688
皇子	-9.94839
補曰姚	-9.94868
者乎	-9.94938
說文	-9.94959
閭	-9.95033
摩	-9.95034
之下	-9.95042
獵	-9.95044
荷	-9.95047
之情	-9.95071
括	-9.95073
較	-9.95126
庚辰	-9.95129
敷	-9.95157
宗室	-9.95313
所得	-9.95417
惡之	-9.95441
釐	-9.95452
如此則	-9.95541
瞻	-9.95779
未必	-9.95827
門下	-9.9599
凡十	-9.96029
舅	-9.96051
恣	-9.96087
饒	-9.96092
恱	-9.96103
綬	-9.96105
函	-9.96106
逼	-9.96109
五人	-9.96133
把	-9.96135
廕	-9.96137
臂	-9.96144
宸	-9.96148
安石曰	-9.96152
册	-9.96153
宫中	-9.96178
吿	-9.96187
左都御史	-9.9619
歩	-9.96202
膳	-9.96203
押	-9.96234
莫若	-9.96262
編修	-9.9629
則無	-9.96297
用事	-9.96302
章惇	-9.96323
且夫	-9.96334
甲申	-9.96378
四海	-9.96494
周最	-9.9653
堯舜	-9.96557
千餘	-9.97052
然而	-9.97082
駭	-9.97123
諤	-9.97148
消	-9.97185
是嵗	-9.97188
寓	-9.9719
一品	-9.97201
范仲淹	-9.97202
秀	-9.97208
脫	-9.97219
為人	-9.97235
荘	-9.97247
戊子	-9.9725
濠	-9.9728
二十四	-9.9728
至此	-9.97297
修撰	-9.97297
安能	-9.97353
侍御史	-9.97364
為秦	-9.97421
亦可	-9.97574
二十四年	-9.97599
樞密院	-9.976
二十七年	-9.9777
臣恐	-9.97887
夾	-9.97973
大怒	-9.97984
趙氏	-9.98073
翰林院學士	-9.98117
雎	-9.9818
奏事	-9.98188
翠	-9.98208
悖	-9.98215
措	-9.98235
泄	-9.98239
荅	-9.98255
廉	-9.98258
勵	-9.98263
邇	-9.98268
新城	-9.98273
塗	-9.98283
眷	-9.98285
不應	-9.98285
租	-9.98292
之弊	-9.98292
旌	-9.98306
件	-9.98317
裔	-9.98335
文綺	-9.98358
皇太子	-9.98372
婦人	-9.98557
威王	-9.98584
往往	-9.9873
以事	-9.98731
其母	-9.99022
未至	-9.99039
鵬	-9.99099
隴	-9.99155
孚	-9.99263
燭	-9.9929
丙辰	-9.99319
坤	-9.99322
邢	-9.99343
己丑	-9.99368
銓	-9.99369
有罪	-9.99369
頒	-9.99371
敖	-9.99385
司空	-9.99401
軍務	-9.99428
戰於	-9.99439
而攻	-9.99449
琮	-9.99463
齋	-9.99543
淮南	-9.99642
安南	-9.99684
四十年	-9.99751
宰臣	-9.99779
代之	-9.99826
右都督	-9.99867
他日	-9.99877
合從	-9.99907
唐制	-10.0003
有一	-10.0012
在外	-10.0014
死而	-10.0015
此章	-10.0029
數年	-10.0035
此皆	-10.0036
百餘	-10.0038
溺	-10.0038
漳	-10.004
逵	-10.0043
戊辰	-10.0045
漏	-10.0047
伸	-10.0049
祁	-10.0067
或有	-10.0074
舉兵	-10.0076
以致	-10.0099
前日	-10.0105
於外	-10.0107
攻楚	-10.0113
於國	-10.0115
上表	-10.0123
為君	-10.0124
臣也	-10.014
刺史	-10.0145
先君	-10.0146
柰何	-10.0147
栁	-10.0148
突	-10.015
飬	-10.015
贈太子少保	-10.015
玄	-10.0153
則不	-10.0156
𥙷曰一本	-10.0158
壬午	-10.016
詹事	-10.0161
莊王	-10.0164
朋黨	-10.0164
之師	-10.0166
進呈	-10.0168
頤	-10.0171
患之	-10.0185
冬十月	-10.0187
國除	-10.0192
攻宋	-10.0193
安得	-10.0197
其意	-10.0202
者必	-10.0214
姚同	-10.0219
者非	-10.0225
古人	-10.0238
手詔	-10.024
圭	-10.0256
潤	-10.0256
亊	-10.026
包	-10.0268
饋	-10.0268
鞅	-10.0268
肇	-10.0269
懸	-10.027
惠公	-10.027
而出	-10.027
浦	-10.0271
妖	-10.0272
太常卿	-10.0272
並同	-10.0278
呂	-10.0279
特進	-10.028
豹	-10.0282
互	-10.0287
文彦博	-10.0294
上疏	-10.0297
其民	-10.0299
以成	-10.031
知州	-10.0311
上章	-10.0324
敵人	-10.0344
富貴	-10.0347
曰汝	-10.0351
曰不可	-10.0359
而得	-10.036
逰	-10.0379
戈	-10.0381
渉	-10.0382
三十一年	-10.0383
佑	-10.0383
妨	-10.0383
五品	-10.0384
範	-10.0384
柴	-10.0385
牽	-10.0386
潜	-10.0388
幕	-10.0388
裏	-10.0389
饗	-10.0395
勑	-10.0397
秦而	-10.0397
之徒	-10.0398
上音	-10.0399
攷	-10.0409
四國	-10.0418
復有	-10.0426
三十五年	-10.0426
不取	-10.0436
國子監	-10.0439
不義	-10.0439
反又	-10.044
數百	-10.0442
其身	-10.0477
出身	-10.0479
上意	-10.0482
摯	-10.0488
弑	-10.0489
請以	-10.0491
裴	-10.0493
樞宻院	-10.0493
旱	-10.0495
覩	-10.0497
豪	-10.0498
丙寅	-10.0498
乖	-10.0498
參知政事	-10.0502
卓	-10.0503
敎	-10.0509
南京兵部尚書	-10.051
不聴	-10.0515
伐宋	-10.0527
庚子	-10.0527
棄之	-10.0535
以求	-10.0545
上命	-10.0547
見其	-10.0557
進退	-10.0582
深入	-10.0583
將帥	-10.0594
趙之	-10.0603
玄齡	-10.0607
所為	-10.0609
讐	-10.061
械	-10.061
俯	-10.061
迫	-10.0611
卧	-10.0611
譚	-10.0612
攘	-10.0613
凢	-10.0615
鈐轄	-10.0615
可乎	-10.0615
裂	-10.0616
衷	-10.0617
䧟	-10.0618
青苗	-10.0623
戰勝	-10.0624
己巳	-10.0625
也然	-10.0628
觀其	-10.0629
將以	-10.0629
道路	-10.0634
王安	-10.0648
翊	-10.0649
而立	-10.0651
四年任	-10.0653
近臣	-10.0655
相去	-10.0657
子也	-10.0659
五日	-10.0664
秦攻	-10.0681
仁義	-10.0695
經義	-10.0697
無過	-10.0698
取其	-10.0708
右副都御史	-10.0718
葛	-10.0721
得㫖	-10.0721
晦	-10.0724
瀚	-10.0725
寇	-10.0726
之𩔖	-10.0726
塵	-10.0728
暮	-10.0731
伺	-10.0733
推官	-10.0735
妙	-10.0736
牢	-10.0736
甲戌	-10.0736
膺	-10.0739
等各	-10.0752
成王	-10.0752
鄉試	-10.0758
得失	-10.0761
必無	-10.0763
秦也	-10.0768
臣僚	-10.0778
不宜	-10.0784
傳有	-10.0787
臣下	-10.0811
於朝	-10.0813
之賢	-10.0814
大防	-10.0815
之盛	-10.0816
忠臣	-10.0817
國主	-10.0824
而歸	-10.0829
奢	-10.0832
禮部左侍郎	-10.0841
麥	-10.0844
醜	-10.0847
飯	-10.0848
萊	-10.0849
鞫	-10.0849
癸丑	-10.0849
贖	-10.085
樞	-10.085
壞	-10.0851
丙午	-10.0851
札	-10.0854
輟	-10.0854
稅	-10.0859
偕	-10.0859
太尉	-10.086
那	-10.0866
㐮	-10.088
河内	-10.0881
辛未	-10.0883
諸科	-10.0883
其衆	-10.0891
於韓	-10.0895
曰今	-10.0917
三川	-10.0927
壤	-10.0945
事君	-10.0947
起兵	-10.0953
李兊	-10.096
大敗	-10.096
下有	-10.0961
東南	-10.0966
䕫	-10.0968
寅	-10.0968
戰國䇿	-10.097
頼	-10.097
弛	-10.0971
輦	-10.0972
纔	-10.0972
秘	-10.0972
耿	-10.0973
箭	-10.0973
尸	-10.0973
紙	-10.0977
庇	-10.0977
可見	-10.0979
内使	-10.098
賞罰	-10.0984
常平	-10.0989
雖然	-10.0995
其時	-10.0998
萬一	-10.1008
劉瑾	-10.1011
長安	-10.1016
甚矣	-10.1019
與國	-10.1021
六百	-10.1023
汾	-10.1052
本無	-10.1052
民間	-10.1056
髙帝	-10.1069
競	-10.1084
五年任	-10.1084
日月	-10.1087
晋	-10.1088
壬申	-10.1089
苗	-10.109
芻	-10.1091
孽	-10.1092
滕	-10.1094
嗟	-10.1096
凱	-10.1096
混	-10.1097
禎	-10.11
蠲	-10.1101
欲得	-10.1102
六年任	-10.1105
臧	-10.1105
晉國	-10.1107
上謂	-10.1111
更不	-10.1112
不顧	-10.1114
不言	-10.1121
中軍	-10.1123
北征	-10.1124
加兼	-10.114
必以	-10.1153
補音於	-10.1153
一事	-10.118
萬貫	-10.1188
下音	-10.1195
之語	-10.1198
相與	-10.1199
汝南	-10.1207
儼	-10.1209
捐	-10.1212
旬	-10.1212
沔	-10.1213
俘	-10.1213
億	-10.1213
朴	-10.1215
隷	-10.1215
炎	-10.1216
艾	-10.1217
暗	-10.1218
驟	-10.1218
濬	-10.1219
饑	-10.122
中書舍人	-10.1222
往來	-10.1226
欒	-10.1229
洪武三年	-10.1234
校尉	-10.1239
爲之	-10.1245
不已	-10.1251
開封	-10.1255
是為	-10.1257
成都	-10.1262
楚人	-10.1266
從事	-10.1278
自知	-10.1279
是非	-10.1281
之政	-10.1282
之屬	-10.1299
康王	-10.1306
等言	-10.1309
王公	-10.131
萬餘	-10.131
氏之	-10.1311
考之	-10.1323
亦以	-10.1325
西北	-10.1326
反覆	-10.1326
駙馬	-10.1328
揚州	-10.1331
筠	-10.1332
及其	-10.1333
或作	-10.1333
嵩	-10.1336
岸	-10.1336
墓	-10.1336
酌	-10.1337
坊	-10.1338
飭	-10.1338
丕	-10.134
吕大防	-10.1341
晩	-10.1342
歿	-10.1342
紂	-10.1343
糴	-10.1344
正義	-10.1344
壓	-10.1344
岷	-10.1345
墜	-10.1347
騰	-10.1348
相繼	-10.1348
味	-10.1348
號令	-10.1349
儆	-10.1349
狗	-10.135
監司	-10.1354
不盡	-10.1376
復以	-10.138
不失	-10.1389
得人	-10.1409
是年	-10.1411
皇上	-10.1411
西京	-10.1416
布衣	-10.1423
京城	-10.1423
太常	-10.1424
伐楚	-10.1425
四夷	-10.1431
明矣	-10.1432
可不	-10.1434
數千	-10.1452
需	-10.1458
生子	-10.1459
李公	-10.1462
謹身殿大學士	-10.1462
窺	-10.1465
棘	-10.1465
樓緩	-10.1466
捨	-10.147
繼遷	-10.1471
潮	-10.1471
誕	-10.1472
潔	-10.1472
奬	-10.1472
之交	-10.1472
囬	-10.1472
丙戌	-10.1473
長沙	-10.1474
帖	-10.1476
此下	-10.1479
綵幣	-10.1488
字訛	-10.149
州軍	-10.1492
見前萬厯	-10.1493
在此	-10.1499
右正言	-10.1499
以禮	-10.1503
英宗	-10.1507
耳目	-10.1511
妻子	-10.152
定王	-10.1551
漕	-10.1561
以来	-10.1565
財用	-10.157
詹	-10.1571
生事	-10.1582
迹	-10.1583
於是乎	-10.1584
日夜	-10.1584
壁	-10.1585
恢	-10.1589
㳺	-10.1593
什	-10.1594
播	-10.1596
析	-10.1599
倡	-10.16
袍	-10.16
書曰	-10.1605
魁	-10.1606
民力	-10.1607
茅	-10.1607
殖	-10.161
太宰	-10.1611
姚本	-10.1611
賜之	-10.1614
其功	-10.1618
豈得	-10.1629
㕘政	-10.1636
交割	-10.1636
見前係	-10.1639
去之	-10.1648
詳定	-10.1648
教之	-10.1652
不得已	-10.166
公卿	-10.1662
之世	-10.1668
噲	-10.1671
牟	-10.1672
宣府	-10.1677
司禮監	-10.168
子元年	-10.1685
今後	-10.1696
王子	-10.1697
奸邪	-10.171
誤也	-10.171
聊	-10.1714
椘	-10.1715
三軍	-10.1717
一言	-10.1717
滑	-10.1718
逐之	-10.1719
潁	-10.172
関	-10.172
艱	-10.1722
藍	-10.1725
蘓	-10.1725
𦵏	-10.1726
法度	-10.1728
湏	-10.1728
瑄	-10.173
返	-10.173
直言	-10.173
於上	-10.1731
一子	-10.1731
壬子	-10.1732
訐	-10.1732
詭	-10.1734
未任	-10.1735
㦸	-10.1735
沂	-10.1736
匱	-10.1739
脅	-10.1741
攻韓	-10.1743
頭目	-10.1748
二公	-10.1749
秦兵	-10.1752
則必	-10.1762
安王	-10.1778
前代	-10.1779
務要	-10.178
因而	-10.178
之類	-10.1784
即日	-10.1801
對曰臣	-10.1804
上䟽	-10.1823
不易	-10.1823
不容	-10.1832
二年任	-10.1834
為國	-10.1836
此則	-10.1839
王載	-10.184
二十九	-10.1848
炳	-10.1849
佳	-10.1849
突厥	-10.1849
舊音	-10.1851
悍	-10.1852
都察院左都御史	-10.1853
楚魏	-10.1854
問曰	-10.1854
昻	-10.1855
乙酉	-10.1855
郷	-10.1855
倒	-10.1856
晟	-10.1856
侍讀	-10.1861
壬寅	-10.1861
詠	-10.1862
甲午	-10.1863
暨	-10.1865
瓦	-10.1865
無罪	-10.1865
庚申	-10.1865
頌	-10.1868
乙亥	-10.1869
之甚	-10.187
欠	-10.187
涇原	-10.1871
武安君	-10.1872
公著	-10.1873
久之	-10.1874
臨安	-10.188
以少保	-10.188
麻	-10.1887
之職	-10.1889
無有	-10.1893
不下	-10.1894
補音丁	-10.1898
納之	-10.1905
不問	-10.1914
開封府	-10.1914
年表	-10.1916
之道也	-10.1919
人等	-10.1927
越王	-10.1946
何為	-10.1949
寧王	-10.1956
鋒	-10.1956
伐魏	-10.1964
藝	-10.197
而復	-10.1983
丁亥	-10.1984
不暇	-10.1984
喬	-10.1987
盤	-10.1987
冲	-10.1988
邸	-10.1989
徇	-10.1989
歛	-10.199
黔	-10.1991
覇	-10.1992
洽	-10.1992
叱	-10.1993
拯	-10.1993
數人	-10.1994
靜	-10.1999
雙	-10.2
此乃	-10.2001
將士	-10.2005
不待	-10.2006
恭王	-10.2008
一二	-10.2016
南北	-10.2016
十人	-10.2018
王者	-10.2022
遂以	-10.2024
長史	-10.2027
何所	-10.2031
朝夕	-10.2032
治之	-10.2035
䝉古	-10.2039
似道	-10.2047
贈封	-10.2048
不止	-10.205
論語	-10.2058
測	-10.2072
其不	-10.2077
言不	-10.2092
洪武中	-10.2096
留之	-10.2098
涇	-10.2102
晏	-10.2107
俶	-10.2108
詩云	-10.2108
大金	-10.2114
之恩	-10.2118
辛亥	-10.212
牌	-10.2121
置之	-10.2122
十五年任	-10.2125
爰	-10.2127
陪	-10.2129
交阯	-10.2131
三年任	-10.2137
州郡	-10.2139
無子除	-10.214
二十萬	-10.214
奏曰	-10.2141
未見	-10.2147
無可	-10.2155
而能	-10.2159
之主	-10.2175
毋得	-10.218
矣而	-10.2186
失之	-10.2188
以前	-10.2188
韓氏	-10.2189
之内	-10.2198
之家	-10.2207
攻秦	-10.221
亡國	-10.2211
無忌	-10.2212
國史	-10.2213
各處	-10.2219
傳曰	-10.2222
戲	-10.2227
以報	-10.223
髙宗	-10.2231
百人	-10.2235
相魏	-10.2236
宦	-10.2241
禪	-10.2247
平聲	-10.225
内侍	-10.2251
䜛	-10.2252
碑	-10.2257
丁酉	-10.2258
豈能	-10.2258
愽	-10.2258
廖	-10.2259
縉	-10.2261
忤	-10.2262
蓄	-10.2262
徹辰	-10.2263
宮	-10.2264
刃	-10.2264
輝	-10.2264
值	-10.2264
促	-10.2266
狼	-10.2268
索隱云	-10.2268
巖	-10.2268
國人	-10.2271
奏請	-10.2274
侍中	-10.2275
偷	-10.2277
釋之	-10.2282
千餘人	-10.2293
至京	-10.2296
宣諭	-10.2311
諾	-10.2318
熈	-10.2335
門外	-10.2349
二十六	-10.2357
來朝	-10.237
留守	-10.2371
國也	-10.2377
南郡	-10.2379
綺	-10.2379
寧夏	-10.238
聖明	-10.2384
漢中	-10.2389
晉府	-10.2395
疇	-10.2395
加太子太保	-10.2396
挺	-10.2398
通鑑	-10.2398
遐	-10.2401
桀	-10.2403
躍	-10.2403
浸	-10.2403
覲	-10.2403
曰秦	-10.2404
沉	-10.2404
柳	-10.2405
筭	-10.2406
辛酉	-10.2406
㢘	-10.2406
羞	-10.2407
敝邑	-10.2408
國朝	-10.241
田單	-10.2414
議論	-10.2434
道也	-10.2434
職事	-10.2436
十餘	-10.245
學者	-10.2452
説文	-10.2452
之術	-10.2461
之孫	-10.2462
而還	-10.2465
為左	-10.247
隂陽	-10.2486
仍舊	-10.2506
顯王	-10.2507
平王	-10.251
弔	-10.2534
欵	-10.2534
太宗之	-10.2535
將來	-10.2537
鎮撫	-10.2539
譬	-10.254
己酉	-10.254
行也	-10.254
耻	-10.2542
巫	-10.2542
磨	-10.2543
握	-10.2543
區	-10.2544
己亥	-10.2545
嬖	-10.2547
於君	-10.2548
逋	-10.2548
蘇轍	-10.2549
曩	-10.2549
翌日	-10.255
辛巳	-10.2551
槩	-10.2558
强秦	-10.2564
與我	-10.2574
曰昔	-10.2576
不明	-10.2576
第二子	-10.2581
補曰姚本	-10.2592
二員	-10.2594
先後	-10.2596
或以	-10.2598
自此	-10.2599
禁中	-10.2602
又何	-10.2602
敗之	-10.2606
乆矣	-10.2606
當以	-10.2607
待制	-10.2614
王曰善	-10.2617
此非	-10.2626
而王	-10.2627
未聞	-10.2627
懿王	-10.2629
太宗謂	-10.263
之女	-10.2633
嘆	-10.2635
於前	-10.2646
起居	-10.2649
張子	-10.267
十日	-10.267
織	-10.2675
二十八	-10.2675
制置	-10.2675
髪	-10.2678
叢	-10.2679
祗	-10.2679
諷	-10.2683
懽	-10.2683
寕	-10.2685
公孫衍	-10.2685
僻	-10.2685
戊午	-10.2686
太常少卿	-10.2687
迷	-10.2688
閻	-10.2688
愆	-10.2689
吕公著	-10.269
濟農	-10.269
卞	-10.269
夫子	-10.2691
遞	-10.2691
以少傅	-10.2691
吳王	-10.2692
猷	-10.2693
富弼	-10.2697
訟	-10.2699
慶厯	-10.27
太子太師	-10.27
憲宗	-10.2708
曰寡人	-10.2712
不知其	-10.2714
不疑	-10.2715
左侍	-10.2715
前去	-10.2715
前來	-10.2717
討之	-10.2718
為首	-10.2731
經典	-10.2736
行省	-10.2739
於民	-10.274
韓王	-10.274
可為	-10.2751
大抵	-10.2756
諸國	-10.2764
可得	-10.2766
詔令	-10.2773
安平	-10.2775
行人	-10.2782
夏人	-10.2783
不允	-10.2791
補曰此	-10.2795
嘉靖中	-10.2804
之志	-10.281
矣夫	-10.2811
以安	-10.2814
告之	-10.2821
太宗謂侍臣曰	-10.2821
歐陽	-10.2823
譴	-10.283
癸酉	-10.2831
蚤	-10.2831
遍	-10.2831
秋七月	-10.2832
随	-10.2832
丙申	-10.2832
汴	-10.2833
囊	-10.2834
寃	-10.2835
覈	-10.2835
蔑	-10.2836
煜	-10.2836
昆	-10.2838
詩曰	-10.2839
蹈	-10.284
罵	-10.2841
曰卿	-10.2846
庶幾	-10.2847
地也	-10.2848
無道	-10.285
是月	-10.2853
劄子	-10.2856
聖㫖	-10.2858
隆慶元年	-10.2861
御史大夫	-10.2864
北京	-10.2871
渡江	-10.2874
欲伐	-10.2883
靖王	-10.2887
任左	-10.2899
罷之	-10.2904
為天下	-10.2906
十一年任	-10.291
補音所	-10.2917
郡縣	-10.2917
戸部	-10.2918
謂其	-10.2918
與魏	-10.2921
因以	-10.2922
秦魏	-10.2929
生民	-10.2933
之變	-10.2934
襄陽	-10.294
入冦	-10.2942
第三子	-10.2947
景泰三年	-10.295
公曰	-10.2961
梧	-10.2962
孟嘗	-10.2963
域	-10.2967
㢤	-10.2969
隅	-10.2972
主應天試	-10.2973
暫	-10.2976
萬世	-10.2976
製	-10.2976
媾	-10.2976
鄴	-10.2977
兾	-10.2977
駙馬都尉	-10.2978
灌	-10.298
斛	-10.298
庚午	-10.2981
廸	-10.2982
懈	-10.2983
檢討	-10.2984
甸	-10.2984
宗社	-10.2989
侮	-10.299
圖之	-10.2991
丁巳	-10.2995
鋪	-10.2996
有言	-10.3008
尚書省	-10.3017
子榮	-10.3019
標	-10.3021
讀書	-10.3035
神宗	-10.3038
有三	-10.3038
都統	-10.3043
劉摯	-10.3044
入見	-10.3045
詔曰	-10.3048
邊事	-10.3048
其妻	-10.3049
誅之	-10.305
左傳	-10.3076
太守	-10.3077
受之	-10.3077
稱之	-10.308
而止	-10.3101
勣	-10.3103
事者	-10.311
叚	-10.3118
忱	-10.3121
岐	-10.3121
觸	-10.3123
浪	-10.3125
蛇	-10.3126
扞	-10.3127
燒	-10.3127
紳	-10.3128
鬭	-10.3128
掖	-10.3129
隔	-10.3129
戰國	-10.313
障	-10.3131
靣	-10.3131
想	-10.3134
座	-10.3134
六人	-10.3135
探	-10.3135
鼔	-10.3137
賈似道	-10.3139
有大	-10.314
在於	-10.3142
范純仁	-10.3143
純仁	-10.3146
飲食	-10.3149
未幾	-10.3153
穆王	-10.3159
本路	-10.316
贈太子太保	-10.3169
之議	-10.3169
今年	-10.318
市易	-10.318
守禦	-10.3182
一名	-10.3182
未及	-10.3186
而又	-10.3186
四十一年	-10.3194
安撫	-10.3197
道之	-10.3207
節制	-10.321
車駕	-10.3211
兩國	-10.3212
周之	-10.3218
延州	-10.3222
太常寺	-10.3231
非有	-10.3232
侍從	-10.3241
庶子	-10.3242
從容	-10.3251
樞宻	-10.3252
二品	-10.3254
之言也	-10.3256
之物	-10.3261
不識	-10.3265
像	-10.3267
凝	-10.3268
諸公	-10.327
乳	-10.3272
殁	-10.3272
沁	-10.3273
踵	-10.3275
窘	-10.3275
初以	-10.3275
殽	-10.3276
溢	-10.3277
鞏	-10.3277
枉	-10.328
秦秦	-10.3284
娶	-10.3284
㕔	-10.3285
由薦舉	-10.3287
碩	-10.3289
冊封	-10.3289
畔	-10.3293
其説	-10.3293
各一	-10.3293
㕘議	-10.3295
春正月	-10.3297
大將	-10.33
多矣	-10.331
明主	-10.331
其說	-10.3315
所宜	-10.3318
襄公	-10.3322
景隆	-10.3326
其中	-10.3331
僖王	-10.3332
青州	-10.3334
視之	-10.3336
三十六年	-10.3337
四品	-10.3337
福晉	-10.3342
明堂	-10.3345
此二	-10.3345
且以	-10.335
特賜	-10.3356
之戰	-10.3365
以至	-10.3372
十餘萬	-10.3376
華陽	-10.338
黍	-10.3409
安陵	-10.3418
悲	-10.3419
尤為	-10.3422
凡四	-10.3422
朗	-10.3424
戊寅	-10.3426
恵王	-10.3429
聼	-10.3431
蔵	-10.3431
縮	-10.3431
證	-10.3433
衢	-10.3434
打	-10.3435
醉	-10.3436
椒	-10.3437
陋	-10.344
歐陽修	-10.344
當是	-10.3445
非所以	-10.3448
所奏	-10.3458
平原君	-10.3459
任右	-10.3459
時有	-10.346
之前	-10.3475
女真	-10.3478
大王之	-10.3479
䕃	-10.3481
而入	-10.3484
萬里	-10.3487
人民	-10.3487
卒子	-10.349
講讀	-10.349
魏冉	-10.3491
必欲	-10.3494
赴闕	-10.3494
山川	-10.3495
雖欲	-10.3506
乃以	-10.3512
御史臺	-10.3519
汗之	-10.3526
監生	-10.3532
軍人	-10.3535
指揮僉事	-10.354
初名	-10.3546
安危	-10.3558
責之	-10.3562
人才	-10.3565
功也	-10.3572
沛	-10.3577
簾	-10.358
文華	-10.3581
迄	-10.3581
為大	-10.3582
嚕	-10.3583
鄢	-10.3585
三十萬	-10.3586
哈屯	-10.3586
靖郭君	-10.3586
繆	-10.3587
所載	-10.3587
蹇	-10.3588
庠	-10.3589
薪	-10.3589
眉	-10.3589
婚	-10.3594
壮	-10.3596
湘	-10.3598
淑	-10.36
風俗	-10.3603
各有	-10.3604
熈寧	-10.3604
孟甞君	-10.3606
曰公	-10.3608
錦衣	-10.361
楊公	-10.3613
措置	-10.3616
發兵	-10.3616
於内	-10.3634
宣子	-10.3639
四十四年	-10.364
教授	-10.364
斬之	-10.365
泗	-10.3657
博士	-10.3659
乃止	-10.3659
二萬	-10.3667
侯贈	-10.3667
甲兵	-10.3691
五代	-10.3698
語曰	-10.37
軌	-10.3703
不成	-10.3707
逺近	-10.3709
中官	-10.371
之餘	-10.3715
守之	-10.3716
君曰	-10.3719
不堪	-10.372
者三	-10.372
府庫	-10.3727
已有	-10.3728
洎	-10.3728
厰	-10.374
吞	-10.3741
餌	-10.3742
玊	-10.3743
應天	-10.3745
戸部尚書	-10.3745
波	-10.3745
伴	-10.3745
股	-10.3747
網	-10.3749
沿	-10.375
填	-10.3751
曠	-10.3752
禱	-10.3752
夏國	-10.3753
耗	-10.3754
郵	-10.3756
拂	-10.3756
為名	-10.3758
龜	-10.3759
補曰大事記	-10.3769
綰	-10.377
未㡬	-10.3777
奉御	-10.3778
由此	-10.3785
太公	-10.3791
太史	-10.3794
此人	-10.3794
次子	-10.3794
保甲	-10.38
浙	-10.3804
若是	-10.3804
之論	-10.381
而退	-10.3813
取士	-10.3822
從者	-10.3827
按史	-10.3829
在前	-10.3833
興師	-10.3839
甚衆	-10.385
之命	-10.385
一曰	-10.3852
勅諭	-10.3852
赧	-10.3854
或謂	-10.3857
齊趙	-10.3859
八年任	-10.3871
群	-10.3873
監軍	-10.3875
無益	-10.3876
未盡	-10.3877
莫敢	-10.3877
詩賦	-10.3882
見於	-10.3882
将軍	-10.3885
則可	-10.3885
憎	-10.3895
舌	-10.3895
珉	-10.3896
訥	-10.3896
翦	-10.3898
獻子	-10.3901
由進士五年任右	-10.3901
暉	-10.3902
村	-10.3903
濁	-10.3904
一月	-10.3905
竇	-10.3906
千户衛鎮撫	-10.3908
準	-10.3909
洲	-10.391
朱光庭	-10.391
弩	-10.391
蹙	-10.3911
觴	-10.3911
牛羊	-10.3911
倘	-10.3912
鞭	-10.3913
憐	-10.3913
事皆	-10.3914
肩	-10.3914
鸞	-10.3915
贍	-10.3915
弭	-10.3918
逞	-10.3921
戊申	-10.3923
思之	-10.3934
賢人	-10.3942
重耳	-10.3948
未甞	-10.3949
之理	-10.3955
果莊	-10.3955
非也	-10.3961
久矣	-10.3962
二日	-10.3963
伐燕	-10.3969
司禮監太監	-10.3982
此字	-10.3983
而天下	-10.3996
見前𢎞治	-10.4001
吏反	-10.4006
後志	-10.4008
小國	-10.401
之弟	-10.4014
旗軍	-10.4022
韓之	-10.4024
成化中	-10.4028
總管	-10.4029
上怒	-10.403
仍令	-10.403
差役	-10.4032
稱為	-10.4035
不服	-10.4037
宗伯	-10.4038
說見	-10.4041
貴州	-10.4046
漢書	-10.4046
二十七	-10.4048
中原	-10.4051
不一	-10.4051
故云	-10.4056
鎰	-10.4058
陜	-10.4058
輅	-10.4067
紗	-10.4067
大理寺	-10.4069
耆	-10.407
辜	-10.407
反下同	-10.407
禀	-10.4071
南郊	-10.4071
庚寅	-10.4071
舘	-10.4072
贄	-10.4073
晨	-10.4074
按察使	-10.4076
等皆	-10.4076
梗	-10.4077
苛	-10.4077
抽	-10.4078
巢	-10.4078
鏜	-10.4078
誼	-10.4079
殉	-10.4079
遏	-10.4079
徽廟	-10.4081
而言	-10.4084
酬	-10.4085
十三年任	-10.4093
於周	-10.4097
善惡	-10.4102
問罪	-10.4104
廷試	-10.4113
楚趙	-10.4127
也太宗	-10.4134
燕齊	-10.4137
平章事	-10.4137
七日	-10.4142
曰不如	-10.4145
之過	-10.4152
率兵	-10.4152
夫差	-10.4158
永樂元年	-10.4159
利也	-10.4176
所見	-10.419
其弟	-10.4191
親征	-10.4193
所稱	-10.421
於燕	-10.4218
三十三	-10.422
失其	-10.4222
無他	-10.4231
莽	-10.4233
邁	-10.4234
鉅	-10.4235
厮	-10.4235
鄆	-10.4237
捍	-10.4238
琴	-10.4238
緝	-10.4238
爽	-10.4238
底	-10.4239
巷	-10.4239
布政使	-10.424
犒	-10.4241
牲	-10.4241
㒺	-10.4241
訊	-10.4241
凉	-10.4242
檄	-10.4242
棟	-10.4243
鐡	-10.4244
出師	-10.4244
乂	-10.4244
贈少保	-10.4245
不避	-10.4246
洙	-10.4246
婢	-10.4247
耀	-10.4247
由進士二十	-10.4249
下詔	-10.4255
涇陽	-10.4257
近日	-10.4266
征伐	-10.4266
受其	-10.4274
不自	-10.4281
大子	-10.4289
無窮	-10.4312
惠卿	-10.4316
于此	-10.4325
正曰此	-10.433
者何也	-10.4333
爲秦	-10.4333
僕射	-10.4339
中有	-10.4341
自謂	-10.4342
詔以	-10.4347
貝	-10.4357
義勇	-10.4357
而使	-10.4359
謂魏王曰	-10.4367
土地	-10.4375
其黨	-10.4376
者衆	-10.438
之䇿	-10.4383
伐韓	-10.4383
畿	-10.4387
乃詔	-10.4394
勾	-10.4395
孰與	-10.4396
汶	-10.4396
生於	-10.4397
穴	-10.4402
两	-10.4402
巡檢	-10.4402
叩	-10.4406
行在	-10.4406
緒	-10.4408
坦	-10.4408
叶	-10.4408
繩	-10.4409
軒	-10.4409
癸亥	-10.441
傍	-10.4412
矛	-10.4413
禮部侍郎	-10.4413
嗚呼	-10.4414
海内	-10.4416
贓	-10.4416
鑿	-10.4418
構	-10.4418
張公	-10.4418
腹心	-10.442
非是	-10.4425
龢	-10.4428
亦非	-10.4437
太子太保兵部尚書	-10.4438
官制	-10.4439
元帥府	-10.4444
二十二	-10.445
承㫖	-10.445
靖難	-10.4451
為魏	-10.4451
忠信	-10.4458
自為	-10.4459
末年	-10.4472
此亦	-10.4474
爲王	-10.4477
知貢舉	-10.4477
有天下	-10.4487
君也	-10.4491
河外	-10.4493
一萬	-10.4496
徐州	-10.4503
人衆	-10.451
長者	-10.4514
敢不	-10.4517
選人	-10.4524
其勢	-10.4524
商君	-10.4524
可知	-10.4529
護	-10.4533
等物	-10.4535
而卒	-10.4546
衆皆	-10.4547
謚	-10.4552
數月	-10.4563
秦伐	-10.4563
欲使	-10.4565
公事	-10.4568
而不知	-10.4578
隣	-10.4579
掲	-10.4579
國語	-10.4582
梓	-10.4583
范祖禹	-10.4583
鞠	-10.4583
穿	-10.4586
禾	-10.4587
沃	-10.4587
衣一襲	-10.4588
活	-10.4589
緑	-10.4591
不死	-10.4593
萬計	-10.4595
彪謂此	-10.4597
科塲	-10.4602
與楚	-10.4603
張永	-10.4614
帝曰	-10.4616
聽之	-10.4619
不忠	-10.4627
而自	-10.4628
劾奏	-10.4634
貢舉	-10.4635
莊子	-10.4635
法也	-10.4651
中尉	-10.4662
公議	-10.4666
四子	-10.4668
太宗曰	-10.4668
四時	-10.467
死之	-10.4672
遥	-10.4673
當從	-10.4675
天道	-10.4678
副都	-10.4687
武帝	-10.4693
或為	-10.4698
不獲	-10.471
申生	-10.4712
鞍	-10.4714
若有	-10.4716
為太子	-10.4724
杭	-10.4735
萬五千	-10.4738
陘	-10.4746
紗羅	-10.4747
揆	-10.4748
寔	-10.4752
舛	-10.4752
别有	-10.4753
丁夘	-10.4754
𦙍	-10.4755
阮	-10.4755
旄	-10.4756
狩	-10.4756
妬	-10.4759
衙	-10.4759
驢	-10.476
夭	-10.4761
嚮	-10.4761
峻	-10.4761
汲	-10.4763
上文	-10.4764
冠帶	-10.4766
濤	-10.4767
烝	-10.4768
欲令	-10.477
梁王	-10.4774
旦反	-10.4777
機務	-10.4781
令人	-10.4784
奉㫖	-10.4784
北漢	-10.4785
第五子	-10.4786
母弟	-10.4787
獻公	-10.4793
主簿	-10.4796
曰請	-10.48
今已	-10.4803
言官	-10.4804
補曰一	-10.4805
無敢	-10.4812
州人由進士	-10.4814
魏氏	-10.4816
真定	-10.4817
所當	-10.4823
未得	-10.4829
差遣	-10.4833
用也	-10.4841
所生	-10.4842
良臣	-10.4844
武徳	-10.4851
晉王	-10.4852
惟陛下	-10.4858
士人	-10.4863
又詔	-10.4883
為此	-10.4885
諸司	-10.4885
進加	-10.489
嗣君	-10.4892
也按	-10.4893
右丞	-10.4895
王何不	-10.4901
湖南	-10.4905
天聖	-10.4907
相見	-10.4915
箕	-10.492
癸巳	-10.4925
鉤	-10.4929
斡	-10.493
璋	-10.4931
繒	-10.4931
狡	-10.4932
售	-10.4932
誡	-10.4933
琳	-10.4934
叟	-10.4936
膝	-10.4937
徼	-10.4937
保定	-10.4937
夙夜	-10.4938
墳	-10.4938
巾	-10.494
同時	-10.494
蘓轍	-10.4941
迨	-10.4941
瑶	-10.4942
圻	-10.4942
駁	-10.4943
叅政	-10.4944
中使	-10.4947
鶴	-10.4947
閤	-10.4949
緘	-10.4951
親戚	-10.4951
強秦	-10.4954
南京吏部尚書	-10.4955
少詹事	-10.4956
五萬	-10.496
第五	-10.496
不載	-10.4961
魏地	-10.4964
七人	-10.4965
湯和	-10.4968
數十萬	-10.4975
推恩	-10.4975
四字	-10.4976
滬	-10.4978
復入	-10.4978
分宜	-10.498
召見	-10.4987
立為	-10.4996
謂楚王曰	-10.5004
經畧	-10.5006
首領	-10.5007
晉大夫	-10.5012
而取	-10.5016
言於	-10.5017
無異	-10.5022
之失	-10.5024
副之	-10.5034
人有	-10.5037
今又	-10.5044
又賜	-10.5045
其主	-10.5046
入城	-10.5058
潭	-10.5059
封建	-10.5066
文淵閣大學士	-10.5066
至矣	-10.5071
開平	-10.5072
為相	-10.5073
之明	-10.5074
之楚	-10.5078
東平	-10.5079
難以	-10.5079
計也	-10.5086
魯僖	-10.509
三十二年	-10.5091
大功	-10.5096
劉氏	-10.5096
上有	-10.5098
景鯉	-10.5102
翰林院	-10.5102
扈	-10.5103
黃	-10.5103
寛樂令終	-10.5108
鑾	-10.5109
禮部右侍郎	-10.5109
旻	-10.5109
瓉	-10.511
般	-10.5113
千人	-10.5113
粗	-10.5113
餽	-10.5114
嫉	-10.5114
屍	-10.5115
蠧	-10.5115
嗜	-10.5116
辛夘	-10.5119
裝	-10.512
逾	-10.512
悅	-10.5121
此策	-10.5124
於市	-10.5124
褐	-10.5125
冩	-10.5126
挫	-10.5126
䑓	-10.5126
宣宗	-10.5126
知人	-10.5127
事體	-10.5128
止於	-10.5135
字通	-10.5136
管仲	-10.514
竝同	-10.514
雇	-10.5144
平陽	-10.5147
考官	-10.5149
愛民	-10.5152
奉行	-10.5153
其他	-10.5165
按此	-10.5171
復為	-10.5171
而求	-10.5172
衣冠	-10.5173
自然	-10.5174
不入	-10.5184
本末	-10.5186
之敗	-10.5189
王室	-10.5199
以進	-10.5202
率衆	-10.5206
疑之	-10.5207
所用	-10.5209
謂秦王曰	-10.5211
與其	-10.5212
新法	-10.5212
河陽	-10.5212
城池	-10.522
不可得	-10.5223
官司	-10.5228
四十二年	-10.5235
今秦	-10.5236
而進	-10.5245
今欲	-10.5248
山人	-10.525
文徳	-10.5252
渝	-10.5252
處置	-10.5253
不安	-10.5254
制度	-10.5262
六國	-10.5272
靈州	-10.5275
䖍	-10.5277
以為不可	-10.5279
七千	-10.5283
渾	-10.5286
加太子少保	-10.5287
之費	-10.529
兵部左侍郎	-10.5294
令其	-10.5294
膠	-10.5296
拾	-10.5297
傲	-10.5297
宸濠	-10.5298
明王世貞撰	-10.5299
瑜	-10.5299
𣙜	-10.5299
臺諫	-10.53
恊	-10.5302
不稱	-10.5303
三十六	-10.5303
楊一清	-10.5303
阜	-10.5304
貯	-10.5304
梅	-10.5305
暑	-10.5305
霖	-10.5305
黑	-10.5308
弦	-10.5309
繳	-10.531
六千	-10.5311
甲寅	-10.5311
錦衣衞	-10.5312
之請	-10.5313
鄜延	-10.5313
殿中侍御史	-10.5314
梁儲	-10.5318
凡有	-10.5318
内府	-10.532
太子太保吏部尚書	-10.5322
年三十	-10.5324
贈太保	-10.5325
祭酒	-10.5325
經術	-10.5332
止之	-10.5334
言無	-10.5334
居正	-10.5335
執事	-10.5336
所取	-10.5344
誓書	-10.5345
廷和	-10.5351
之才	-10.5351
人多	-10.5352
具奏	-10.5355
未敢	-10.5357
髙皇帝	-10.5362
洪武元年	-10.5375
東北	-10.538
後語	-10.5383
中式	-10.5383
為政	-10.5386
國用	-10.5391
右僕射	-10.5391
又謂	-10.5392
患也	-10.5394
食之	-10.5399
聞其	-10.5404
第四	-10.5415
主父	-10.5422
安置	-10.5422
以少師	-10.5428
故能	-10.5431
之亂	-10.5432
此所謂	-10.5433
兩路	-10.5439
以太子太保	-10.5441
十一日	-10.5442
其職	-10.5448
愚謂	-10.5451
發遣	-10.5468
璠	-10.5478
荆軻	-10.5481
繕	-10.5482
欲其	-10.5483
江淮	-10.5483
翔	-10.5486
霍	-10.5486
忠義	-10.5488
萌	-10.5488
臣愚	-10.5489
閫	-10.5491
乙夘	-10.5492
通政司	-10.5492
九人	-10.5492
職官	-10.5492
索隠云	-10.5493
谿	-10.5493
鈔二百錠	-10.5494
嬴	-10.5495
迂	-10.5496
劵	-10.5496
大都督府	-10.5496
攻城	-10.5496
九鼎	-10.5497
羸	-10.5499
攜	-10.55
盾	-10.55
公私	-10.5501
斃	-10.5504
張居正	-10.5504
奏乞	-10.5507
奠	-10.5507
辠	-10.5515
未嘗不	-10.5517
大用	-10.5518
亦如之	-10.5523
之國也	-10.5527
鄕	-10.553
公侯	-10.553
殿下	-10.5538
百疋	-10.5539
家人	-10.554
十餘人	-10.5542
所惡	-10.5546
為臣	-10.5549
重進	-10.556
薊	-10.5562
文帝	-10.5566
秦人	-10.5567
乃命	-10.5567
三十三年	-10.557
中立	-10.5573
遣之	-10.5579
薨壽五十	-10.5582
楚也	-10.5588
大喜	-10.559
最為	-10.5592
指揮同知	-10.5599
蘭州	-10.5602
故不	-10.5602
之號	-10.5608
交通	-10.5617
加少保	-10.5618
景公	-10.5624
天命	-10.5628
吐	-10.5629
奉天	-10.563
幽王	-10.5634
衛籍	-10.5635
之典	-10.5639
淮安	-10.5642
典禮	-10.5645
相公	-10.565
趙䇿	-10.5658
而亡	-10.5659
璟	-10.5663
□(	-10.5665
楚國	-10.5665
之戒	-10.5669
以明	-10.5671
等廷試賜	-10.5673
緫	-10.5675
煬帝	-10.5676
縛	-10.5676
繡	-10.5677
冐	-10.5677
房玄齡	-10.5678
漁	-10.568
恬	-10.568
趙人	-10.5682
哨	-10.5682
眼	-10.5682
輯	-10.5682
姊	-10.5685
洮	-10.5685
俱以	-10.5686
僣	-10.5686
僭	-10.5686
腰	-10.5687
籌	-10.5687
換	-10.5688
劉安世	-10.5688
行營	-10.5688
刋	-10.5691
豎	-10.5693
愷	-10.5693
夙	-10.5693
話	-10.5694
環慶	-10.5695
番	-10.5696
固辭	-10.5698
盇	-10.5699
丗家	-10.5703
而反	-10.5704
右丞相	-10.5707
之徳	-10.5713
經歴	-10.5719
自後	-10.5725
趙普	-10.5732
二君	-10.5734
禮樂	-10.5744
之賞	-10.5744
夷簡	-10.5745
為燕	-10.5745
分兵	-10.5748
父兄	-10.5749
人所	-10.575
百六十	-10.5753
勇士	-10.5754
為我	-10.5754
定州	-10.576
諸臣	-10.577
以禮部尚書	-10.5771
非常	-10.5774
京官	-10.5778
差官	-10.578
役法	-10.5791
二年任右	-10.5796
出奔	-10.5798
名也	-10.5802
事記	-10.5802
豈敢	-10.5803
笑曰	-10.5805
王振	-10.5806
差人	-10.5812
殿前	-10.5816
邊臣	-10.5825
不惟	-10.5826
庚	-10.5832
南面	-10.5834
者惟	-10.5836
安定	-10.5849
領兵	-10.5854
翰林院侍讀學士	-10.5855
問之	-10.5855
引兵	-10.5856
呈	-10.5858
其一	-10.5858
丁謂	-10.5859
次之	-10.5862
所請	-10.5864
武公	-10.5865
漆	-10.5866
昊	-10.5867
閑	-10.5867
淹	-10.5869
涼	-10.5871
酋	-10.5871
同列	-10.5871
声	-10.5871
逓	-10.5873
諧	-10.5875
笞	-10.5875
挈	-10.5875
晝	-10.5876
齡	-10.5877
不法	-10.5877
廩	-10.5878
轅	-10.5882
冶	-10.5882
荐	-10.5882
諜	-10.5883
涓	-10.5884
劔	-10.5884
戰國策	-10.5884
闔	-10.5886
龔	-10.5887
檢校	-10.5887
永樂八年	-10.5889
乙巳	-10.5891
扈從	-10.5893
麾下	-10.5895
無患	-10.5897
戰功	-10.5899
他人	-10.5902
這	-10.5904
公論	-10.5912
二十三	-10.5912
武安	-10.5914
事而	-10.5919
因其	-10.5923
聰明	-10.5925
臣願	-10.5925
用心	-10.5926
猶言	-10.5937
可否	-10.594
待罪	-10.5947
信也	-10.5961
而未	-10.5968
之威	-10.5969
恐懼	-10.5973
聽命	-10.5975
補音乃	-10.5976
州府	-10.5978
盡其	-10.6005
都尉	-10.6005
解元	-10.6011
莫能	-10.6014
臣聞之	-10.602
其情	-10.6021
時事	-10.6031
依前	-10.6032
州安置	-10.604
十六年任	-10.6041
法令	-10.6042
乎王曰	-10.6043
滅之	-10.6044
立功	-10.6047
名曰	-10.605
蕃部	-10.6053
為齊	-10.606
王曰寡人	-10.6061
張孟談	-10.6065
鯉	-10.6066
為考試官取中	-10.6067
而君	-10.6068
頓首	-10.6069
祇	-10.6069
其年	-10.607
梟	-10.6071
建信君	-10.6071
從子	-10.6072
頥	-10.6072
治平	-10.6073
賁	-10.6073
棗	-10.6074
釣	-10.6074
范雎	-10.6076
駟	-10.6078
瓚	-10.6079
閹	-10.608
在魯	-10.608
布政司	-10.608
焦芳	-10.6081
嬪	-10.6082
虞卿	-10.6082
豆	-10.6083
股肱	-10.6083
慙	-10.6083
控	-10.6084
鏞	-10.6084
堵	-10.6085
膏	-10.6085
爲君	-10.6086
箴	-10.6088
譯	-10.6088
團營	-10.6089
奪其	-10.609
代府	-10.609
別	-10.609
胙	-10.609
梁燾	-10.6091
太子少傅	-10.6092
田忌	-10.6092
嘗為	-10.6096
不爲	-10.6097
宰執	-10.61
做	-10.6101
死於	-10.6101
以罪	-10.6103
不悦	-10.6107
施於	-10.6108
上皇	-10.6108
少監	-10.6109
即墨	-10.6115
之北	-10.6116
潞	-10.6121
合格	-10.6128
伏乞	-10.613
成臯	-10.6134
宋主	-10.6135
十五年任右	-10.6149
説與	-10.615
燕京	-10.6152
事宜	-10.6152
府知府	-10.6153
至公	-10.6154
所出	-10.6161
處分	-10.617
萬物	-10.6174
右侍	-10.6175
得地	-10.6177
而輕	-10.6178
王見	-10.6179
經史	-10.6181
者其	-10.6182
自有	-10.6182
之智	-10.6187
五子	-10.6191
侍講學士	-10.6196
俄	-10.6198
鄉人	-10.6199
不絶	-10.62
凡五	-10.6205
左氏	-10.6206
七年任	-10.6206
從前	-10.6207
之深	-10.6207
亡之	-10.6215
諸侯之	-10.6215
再任	-10.6215
誠意	-10.6217
逺矣	-10.622
自稱	-10.6221
織金	-10.6223
平江	-10.6223
北面	-10.623
何足	-10.623
并州	-10.6234
為楚	-10.6244
舎人	-10.6246
改正	-10.6247
徐達	-10.6249
之風	-10.6249
後人	-10.6251
武定	-10.6252
宋人	-10.6253
奉使	-10.6259
十一年任右	-10.6262
奉詔	-10.6262
樞密	-10.6264
衆人	-10.6266
鏡	-10.6267
榆	-10.6268
退而	-10.6269
副總兵	-10.6276
北兵	-10.6278
床	-10.6279
唐氏仲友曰	-10.6279
催	-10.628
銷	-10.628
百户所鎮撫	-10.628
捧	-10.628
閩	-10.6282
芮	-10.6286
鄢陵	-10.6286
承天	-10.6286
栢	-10.6286
衙門	-10.6286
剪	-10.6287
騐	-10.6287
吕惠卿	-10.6287
煥	-10.6289
任讀學	-10.629
呡	-10.629
蟲	-10.629
壅	-10.6291
弄	-10.6291
甘肅	-10.6291
門下侍郎	-10.6292
慝	-10.6293
吝	-10.6295
李東陽	-10.6296
不知何許人	-10.6298
右侍郎	-10.6299
部落	-10.63
史同	-10.63
致書	-10.6301
何故	-10.6306
男女	-10.6312
百年	-10.6313
降詔	-10.6315
君其	-10.6318
㕘將	-10.632
上聞	-10.6328
三十五	-10.6331
過矣	-10.6334
永樂中	-10.6341
莊宗	-10.6343
以次	-10.6345
荆南	-10.6346
以臨	-10.6348
始也	-10.6351
靖難兵	-10.6352
萬兩	-10.6357
夫以	-10.6358
補音徒	-10.6364
安陸	-10.6365
當今	-10.6373
此語	-10.6373
守城	-10.6374
中間	-10.6388
閣下	-10.6389
所居	-10.639
用此	-10.6393
同日	-10.6395
獨不	-10.6403
綿布	-10.6403
臣之所	-10.6408
主之	-10.6417
西山	-10.6418
事有	-10.6418
安民	-10.6423
武遂	-10.6437
以濟	-10.6441
諍	-10.6455
陛	-10.6456
次第	-10.6469
四疋	-10.6474
可汗	-10.6477
㩀	-10.6484
凡三	-10.6485
頻	-10.6485
劇	-10.6486
生員	-10.6487
楷	-10.6488
𬒳	-10.6488
衣服	-10.6488
挑	-10.6488
疵	-10.6489
再三	-10.6489
戌	-10.649
瀛	-10.6491
矩	-10.6491
贏	-10.6491
南京禮部尚書	-10.6492
裘	-10.6493
縦	-10.6493
儻	-10.6493
閣門	-10.6493
諳	-10.6495
拿	-10.6496
亘	-10.6497
綵幣二表裏	-10.6497
惕	-10.6498
淇	-10.6499
都部署	-10.6499
左僕射	-10.6499
新序	-10.6501
諒祚	-10.6502
匪	-10.6503
建議	-10.6504
紀綱	-10.6504
以廣	-10.6505
隕	-10.6505
𨼆	-10.6506
憾	-10.6507
嘉祐	-10.6508
徐公	-10.651
肅王	-10.6511
莫如	-10.6511
杭州	-10.6511
八人	-10.6511
蔡京	-10.6512
巴延	-10.6512
之樂	-10.6515
次日	-10.6517
樞密使	-10.652
最後	-10.6521
使其	-10.6521
玉帶	-10.6524
兖州	-10.6524
廊	-10.6531
和好	-10.6532
也謂	-10.6537
者則	-10.6537
入内	-10.6554
士也	-10.656
臣雖	-10.6568
殺人	-10.6572
上柱國	-10.6573
補音才	-10.6576
小臣	-10.6581
齊必	-10.659
其數	-10.6595
庶吉士	-10.6596
㑹元	-10.6606
終身	-10.6612
嗣位	-10.6616
洪熈元年	-10.6618
威武	-10.6623
之長	-10.6629
非不	-10.6629
固有	-10.6631
黄河	-10.6631
成公	-10.6641
十斤	-10.6648
見上	-10.6651
攷之	-10.6655
為陛下	-10.666
為公	-10.6663
正統十四年	-10.6665
其上	-10.667
萬户	-10.6671
一章	-10.6677
由進士六年任右	-10.6684
精兵	-10.6684
之要	-10.6686
於我	-10.6688
欣	-10.6688
無私	-10.6689
奏聞	-10.6689
濓	-10.6691
周室	-10.6692
將兵	-10.6694
今若	-10.6696
僇	-10.6698
无	-10.6699
禆	-10.6699
㨗	-10.6701
豕	-10.6702
申時行	-10.6702
唱	-10.6702
佯	-10.6702
摧	-10.6703
璉	-10.6703
覬	-10.6704
狥	-10.6704
板	-10.6705
皷	-10.6705
中書侍郎	-10.6706
侯伯	-10.6706
寮	-10.6706
官屬	-10.6707
桃	-10.6707
飽	-10.6707
罹	-10.6708
李賢	-10.6708
洋	-10.6708
陽城	-10.6708
瓘	-10.6709
吏部侍郎	-10.671
謫戍	-10.671
卦	-10.6711
髮	-10.6711
欲攻	-10.6711
巴圖爾	-10.6711
偪	-10.6711
圓	-10.6712
骨肉	-10.6715
姒	-10.6715
狎	-10.6715
所屬	-10.6717
截	-10.6719
馬軍	-10.6725
鄉里	-10.6726
以全	-10.6728
春申	-10.673
宫室	-10.6738
楊廷和	-10.6739
文章	-10.6743
遇春	-10.6748
大體	-10.6749
安國	-10.6749
可以為	-10.6749
疑其	-10.6753
甚多	-10.6754
繼恩	-10.6757
欲殺	-10.6758
因言	-10.676
免役	-10.676
女子	-10.6765
不須	-10.6768
愛之	-10.6772
射之	-10.6773
兩府	-10.6774
何益	-10.678
三十四年	-10.6781
皆在	-10.6782
張氏	-10.6784
報反	-10.6791
計議	-10.6793
官校	-10.6802
從而	-10.6804
下章	-10.6805
王必	-10.6807
見内閣	-10.6808
恭順	-10.6819
五百里	-10.6824
其道	-10.6825
十八年任	-10.6826
猶有	-10.6838
由進士四年任右	-10.6838
改封	-10.684
馬陵	-10.6844
一體	-10.6845
十兩	-10.6848
甚厚	-10.6852
周王	-10.6858
伯爵	-10.686
二三	-10.6878
主上	-10.6881
自陳	-10.6881
算	-10.6888
者有	-10.6889
故地	-10.6889
以死	-10.6895
陳留	-10.6898
天地之	-10.6901
補音力	-10.6902
三疋	-10.6907
竝	-10.6908
公族	-10.6908
綽	-10.6909
復用	-10.691
翺	-10.6911
駮	-10.6912
匈奴	-10.6917
馭	-10.6917
掃	-10.6919
州防禦使	-10.6919
治道	-10.6919
吏部左侍郎	-10.692
都察院右副都御史	-10.692
綵段	-10.6921
總旗	-10.6922
纓	-10.6922
鎧	-10.6922
冷	-10.6922
武功	-10.6925
勃	-10.6925
論之	-10.6925
亞	-10.6926
何謂	-10.6926
懦	-10.6926
鷹	-10.6927
磬	-10.6927
鈎	-10.6927
清河	-10.6928
貼	-10.6928
兼任	-10.6929
圉	-10.6931
北漢主	-10.6935
敘	-10.6936
康子	-10.6936
枷	-10.6936
補曰當	-10.6937
者乃	-10.6937
何必	-10.6938
功徳	-10.694
一道	-10.6944
䢉	-10.6944
訓導	-10.6945
堯佐	-10.6949
予之	-10.6949
未定	-10.6957
千六百	-10.696
不立	-10.6961
文敏	-10.6962
儒士	-10.6966
上帝	-10.6968
班師	-10.6968
皆非	-10.6974
咸平	-10.6976
土兵	-10.698
非獨	-10.6987
幽州	-10.6987
僉都御史	-10.6987
攻趙	-10.6987
孝公	-10.6988
楊榮	-10.699
武子	-10.6994
西路	-10.6998
盡忠	-10.7004
五疋	-10.7011
遣官	-10.7015
第六子	-10.7018
晉楚	-10.7026
弗聽	-10.7027
兩省	-10.704
景徳	-10.7042
中書令	-10.7049
禮義	-10.7055
副將軍	-10.7055
不動	-10.7057
二千石	-10.706
内傳	-10.7062
山陵	-10.7064
並為	-10.7069
太子少師	-10.7069
人馬	-10.7076
可用	-10.7078
三路	-10.7079
數百人	-10.7087
四十五年	-10.7088
楚韓	-10.7098
生擒	-10.7099
土官	-10.7105
十里	-10.7105
晉人	-10.7111
者盖	-10.7112
萬緡	-10.7113
考試	-10.7114
索隱	-10.7118
南有	-10.7129
淄	-10.7132
靳	-10.7133
癸夘	-10.7134
第四子	-10.7135
右布政使	-10.7136
官職	-10.7138
穣侯	-10.7138
洗	-10.7138
鼐	-10.7138
闢	-10.7139
公孫郝	-10.7139
直𨽻華亭人	-10.7139
文定	-10.714
愁	-10.714
貲	-10.714
枯	-10.7141
覆試	-10.7141
瞽	-10.7142
顥	-10.7142
嗇	-10.7143
春坊	-10.7143
淳于髠	-10.7144
琛	-10.7144
霜	-10.7144
斧	-10.7144
袖	-10.7145
摇	-10.7145
染	-10.7146
昭奚恤	-10.7146
苖	-10.7147
厨	-10.7148
晁	-10.7149
繹	-10.7149
奉聖㫖	-10.715
黷	-10.7153
江乙	-10.7154
師相	-10.7155
眩	-10.7158
恐非	-10.7158
休息	-10.7158
元在	-10.7159
沿邊	-10.7161
重矣	-10.7164
石亨	-10.7164
東厰	-10.7168
張方平	-10.7168
來降	-10.7169
即令	-10.717
建昌	-10.7171
劉文	-10.7173
時人	-10.7174
補音于	-10.7178
不加	-10.7179
勤勞	-10.7179
攻燕	-10.7181
伏誅	-10.7181
爾雅	-10.7183
必敗	-10.7183
相秦	-10.7187
十表裏	-10.7192
以疾	-10.7193
田文	-10.7194
總制	-10.7197
江東	-10.7203
科舉	-10.7205
而行之	-10.7206
不救	-10.721
以為然	-10.7215
皆為	-10.7219
幸而	-10.7227
楚楚	-10.7227
當是時	-10.7237
違者	-10.724
人言	-10.7241
一朝	-10.7242
千戸	-10.7242
何可	-10.7251
聖人之	-10.7254
上親	-10.7259
必得	-10.7261
互相	-10.7268
賢良	-10.7273
聞而	-10.7275
奭	-10.7276
治亂	-10.7277
惡也	-10.7278
以國	-10.7289
重兵	-10.7291
鎮守太監	-10.7298
號為	-10.7302
可行	-10.7307
萬石	-10.7309
揮	-10.7313
謂齊王	-10.7315
前往	-10.7315
大義	-10.7324
二十一	-10.7325
謂楚王	-10.7326
所殺	-10.7331
以歸	-10.7337
等奏	-10.7339
任講學	-10.7349
有二	-10.7351
璞	-10.7356
泊	-10.7356
劉作	-10.7357
有異	-10.7357
都察院右都御史	-10.7358
任之	-10.736
仆	-10.7363
覘	-10.7366
亦作	-10.7367
瑗	-10.7367
兎	-10.7367
販	-10.7369
憑	-10.737
之害	-10.737
叔父	-10.7371
土伯特	-10.7371
春申君	-10.7372
㳟	-10.7372
麒麟	-10.7374
戯	-10.7374
譖	-10.7375
抄	-10.7375
太學	-10.7376
版	-10.7376
君王后	-10.7376
佚	-10.7377
或云	-10.7377
在後	-10.7378
所聞	-10.7383
首尾	-10.7385
景帝	-10.7387
祭祀	-10.7388
兵至	-10.739
說之	-10.7391
驪姬	-10.7391
許諾	-10.7391
程頤	-10.7391
織造	-10.7392
根本	-10.7394
願得	-10.7394
狄青	-10.7396
其次	-10.7399
承乾	-10.7402
北朝	-10.7405
百餘人	-10.7406
二反	-10.7415
一家	-10.7416
進兵	-10.742
周官	-10.7421
敗績	-10.7424
土木	-10.7424
必須	-10.743
諡法	-10.743
僧道	-10.7431
王旦	-10.7432
員外	-10.7433
見在	-10.7433
各賜	-10.7435
衛指揮	-10.744
曰諾	-10.7441
不納	-10.7442
保全	-10.7444
地缺	-10.7448
疑衍	-10.745
便殿	-10.746
鴻臚寺	-10.746
之路	-10.7461
唐之	-10.7469
見任	-10.7472
可使	-10.7474
尚未	-10.7483
城寨	-10.7497
復置	-10.7499
百貫	-10.7499
三司使	-10.75
九卿	-10.7504
君而	-10.7505
嘉靖初	-10.751
所獲	-10.7514
王曰善乃	-10.7515
給與	-10.7516
夏言	-10.7517
無此	-10.7519
元年任右	-10.7521
恐其	-10.7522
陳公	-10.7525
桓子	-10.7528
九年任	-10.7533
是何	-10.7535
商人	-10.7535
王孫	-10.7536
不殺	-10.7546
出戰	-10.7547
臣亦	-10.7548
歎曰	-10.7548
用人	-10.7557
不逺	-10.7559
萬安	-10.7566
萬疋	-10.757
又不	-10.7576
此四	-10.7576
辭曰	-10.7577
元年任	-10.7577
漢志	-10.7579
乞罷	-10.7579
大司馬	-10.758
俠	-10.7581
謀臣	-10.7584
獻書	-10.7584
其利	-10.7586
文武官	-10.7587
韓魏之	-10.7589
進用	-10.759
頂	-10.7593
倪	-10.7593
安可	-10.7593
毫	-10.7596
頴	-10.7596
曷	-10.7598
帑	-10.7599
繼隆	-10.7599
大理	-10.76
譲	-10.7601
猝	-10.7601
尅	-10.7601
詳内閣	-10.7601
大中祥符	-10.7601
甥	-10.7602
同姓	-10.7602
綵幣一表裏	-10.7602
礪	-10.7603
水出	-10.7603
旺	-10.7604
三十九年	-10.7604
兵部右侍郎	-10.7604
艱難	-10.7604
剌	-10.7604
帽	-10.7606
隧	-10.7608
同心	-10.7608
景泰元年	-10.7608
瀆	-10.7608
廿	-10.7612
總裁	-10.7612
希範	-10.7612
你	-10.7613
秦府	-10.7613
少主	-10.7613
四十五	-10.7614
約束	-10.7615
大衆	-10.7615
訾	-10.7616
平章政事	-10.7617
媚	-10.7617
癸卯	-10.7617
順天府	-10.7618
間有	-10.7618
怯	-10.762
說苑	-10.762
足矣	-10.762
興兵	-10.762
遣中使	-10.7621
蠻夷	-10.7624
兩制	-10.7627
使副	-10.7628
劉健	-10.7628
田嬰	-10.7632
建隆	-10.7635
府事	-10.7636
問於	-10.7639
禍亂	-10.764
安撫使	-10.764
代王	-10.7643
西人	-10.7644
兩朝	-10.7653
侍衛	-10.7656
彼此	-10.7659
宫人	-10.7664
西戎	-10.7666
上即位	-10.7667
不逮	-10.7671
孝宗	-10.7674
二疋	-10.7678
與焉	-10.7678
吕反	-10.7678
君子之	-10.7685
長吏	-10.7685
師傅	-10.7691
亦當	-10.7696
也盖	-10.7699
贈太師	-10.7701
若何	-10.7702
堅守	-10.7702
入内閣	-10.7705
宫保	-10.7706
示天下	-10.7708
何得	-10.7716
不幸	-10.773
中行	-10.7731
不思	-10.7737
布二疋	-10.7739
光曰	-10.7741
地而	-10.7742
髙陽	-10.7744
堯舜之	-10.7745
如舊	-10.775
乃使	-10.7752
殺其	-10.7754
意者	-10.7754
四十八	-10.7756
十八日	-10.7757
明白	-10.7762
上復	-10.7768
年任掌院事	-10.7771
而不敢	-10.7773
肖	-10.7776
歸之	-10.7785
諡文	-10.7791
涿州	-10.7793
河西	-10.7798
河州	-10.7801
正曰史	-10.7805
穆公	-10.7807
永興	-10.7807
地名	-10.7808
千萬	-10.7811
矣故	-10.7812
盛事	-10.7817
珣	-10.7822
後漢	-10.7825
壺	-10.7826
燾	-10.7826
墻	-10.7829
本年轉左	-10.7829
破賊	-10.783
文書	-10.7832
然亦	-10.7835
館閣	-10.7835
近者	-10.7835
字子	-10.7836
則楚	-10.7836
蒼	-10.7837
忻	-10.7838
袒	-10.7838
為難	-10.7838
而聽	-10.7839
邠	-10.7839
本有	-10.7839
襄城	-10.7839
繋	-10.7841
攸	-10.7841
在楚	-10.7842
所司	-10.7842
譛	-10.7842
𤓰	-10.7843
因令	-10.7844
司農	-10.7844
臻	-10.7844
馴	-10.7845
扇	-10.7845
昆弟	-10.7848
篆	-10.7848
按察副使	-10.7848
銑	-10.7849
淳化	-10.7849
聶	-10.7849
姚賈	-10.785
塟	-10.785
拆	-10.7852
悛	-10.7853
嚴嵩	-10.7854
庶㡬	-10.7854
水旱	-10.7856
千金	-10.7857
破燕	-10.7858
兼翰林院學士	-10.7859
真人	-10.7863
緡	-10.7865
此臣之所	-10.7867
嫡長子	-10.7867
弟姪	-10.787
淮北	-10.787
之先	-10.787
王文	-10.7872
遁去	-10.7873
教習	-10.788
上曰朕	-10.7881
不解	-10.7884
助之	-10.7884
分守	-10.7886
祿一千石	-10.7889
中書門下	-10.7892
近侍	-10.7893
孝陵	-10.7895
盡力	-10.79
南朝	-10.7903
社稷之	-10.7903
必亡	-10.7911
鎮江	-10.7913
固守	-10.7914
之始	-10.7917
憲王	-10.7922
江夏	-10.7922
金人	-10.7922
已下	-10.7923
猶未	-10.7925
敏中	-10.793
以正	-10.7934
號曰	-10.7935
過失	-10.7943
朝政	-10.7945
熈河	-10.7946
三十四	-10.7949
子文	-10.7952
弟子	-10.7953
極言	-10.7953
尤甚	-10.7953
一本作	-10.7956
掌院	-10.7956
陽侯	-10.7966
朱子	-10.7969
而走	-10.7972
東地	-10.7973
後有	-10.7974
其官	-10.7974
行狀	-10.7978
一方	-10.7981
謂之曰	-10.7982
臣以為	-10.7984
一官	-10.7985
一字	-10.7988
其下	-10.7989
此數	-10.7995
北有	-10.7996
以書	-10.7998
士民	-10.8007
則天下	-10.8009
奏言	-10.8009
斯言	-10.801
直學士	-10.8013
屯兵	-10.8013
章疏	-10.8015
紀注	-10.8022
太監張永	-10.8022
於下	-10.8023
之利也	-10.8026
聖徳	-10.8027
無人	-10.8028
乆之	-10.8029
嘉靖元年	-10.803
而朝	-10.8032
竟不	-10.8034
不能自	-10.8044
字誤	-10.8045
必先	-10.8049
永樂初	-10.806
定逺	-10.806
以俟	-10.8062
兵於	-10.8065
之妻	-10.8065
㡬瑟	-10.8065
好生	-10.8065
我也	-10.8069
監丞	-10.8073
破之	-10.8073
畆	-10.8074
讜	-10.8075
乃得	-10.8075
巢穴	-10.8077
柯	-10.8077
玘	-10.8078
夔	-10.8078
個	-10.8079
親信	-10.8079
惶	-10.8079
兇	-10.8082
郄	-10.8083
鬱	-10.8083
復命	-10.8084
燈	-10.8085
囉	-10.8085
亥	-10.8085
擲	-10.8086
區區	-10.8086
菜	-10.8086
倖	-10.8087
鎛	-10.8087
宵	-10.8088
藻	-10.8088
騷	-10.8089
孫子	-10.8089
琪	-10.809
狃	-10.8091
泥	-10.8091
昉	-10.8092
𤼵	-10.8092
麓川	-10.8094
評	-10.8094
殃	-10.8096
費宏	-10.8097
泛	-10.8097
無為	-10.8098
以救	-10.81
合而	-10.8102
謂周君曰	-10.8103
熙寧	-10.8103
瀋府	-10.8104
看詳	-10.8106
㑹稽	-10.8107
孺子	-10.8108
恵卿	-10.811
紹興	-10.8111
按通鑑	-10.8113
乃可	-10.8115
與子	-10.8117
劉公	-10.8119
其志	-10.8122
先鋒	-10.8123
論列	-10.8124
觀察使	-10.8127
諸生	-10.8132
韓必	-10.8133
汪直	-10.8135
欽若	-10.8137
安平君	-10.8139
尋以	-10.8139
英廟	-10.8139
嗣薨壽四十	-10.8139
稱王	-10.8141
食邑	-10.8141
行而	-10.8152
愚按太宗	-10.8152
右都	-10.8154
倦	-10.8161
異日	-10.8164
鄭州	-10.8167
罷兵	-10.8169
兩京	-10.8171
州居住	-10.8171
得志	-10.8172
改吏部	-10.8172
宇文	-10.8173
忠孝	-10.8174
文貞	-10.8176
威福	-10.8177
為主	-10.8178
襲封	-10.8184
曰不然	-10.8185
切責	-10.8197
遂為	-10.82
危亡	-10.8203
公等	-10.8203
文安	-10.8213
嶺南	-10.8215
召還	-10.8217
得以	-10.8219
處之	-10.822
内有	-10.8224
即此	-10.8228
闕下	-10.8232
存者	-10.8233
平定	-10.8241
之耳	-10.8241
見前隆慶	-10.8242
曰吾聞	-10.8247
為三	-10.8248
學士院	-10.8259
王不如	-10.826
自言	-10.8261
軍節度使	-10.8262
數十人	-10.8269
求救	-10.8271
後為	-10.8272
恩禮	-10.8276
授以	-10.8281
韓公	-10.8282
恭靖	-10.8285
寧府	-10.8292
封爵	-10.8294
光武	-10.8295
三十八	-10.8298
百兩	-10.8299
善之	-10.8307
制科	-10.8321
改元	-10.8322
僑	-10.8324
六品	-10.8325
部署	-10.8325
㳙	-10.8327
黽	-10.8327
年任	-10.8328
譜	-10.8329
藺	-10.8329
駝	-10.833
毗	-10.8331
雕	-10.8331
丈反	-10.8331
燧	-10.8331
夏原吉	-10.8332
両	-10.8333
擯	-10.8333
聿	-10.8333
小心畏忌	-10.8334
涕	-10.8334
工部右侍郎	-10.8334
㨿	-10.8336
穎	-10.8337
再以	-10.8337
侍讀學士	-10.8338
茲	-10.8338
陟	-10.8338
着	-10.8338
戢	-10.8339
陂	-10.8339
氷	-10.8339
蘓軾	-10.8342
斶	-10.8342
通政使	-10.8342
南京工部尚書	-10.8342
蝗	-10.8342
太常博士	-10.8343
諫曰	-10.8344
丁卯	-10.8344
太常寺卿	-10.8345
鬪	-10.8346
無疑	-10.8346
驪	-10.8346
韓珉	-10.8346
畧曰	-10.8347
知諫院	-10.8347
轉運司	-10.8348
因請	-10.835
宣慰使	-10.8351
雝	-10.8351
閤門	-10.8351
都指揮同知	-10.8352
以伐	-10.8353
七十餘	-10.8354
旂	-10.8356
餘級	-10.8356
徐階	-10.8357
司馬喜	-10.8358
故有是命	-10.8361
上問	-10.8364
給事	-10.8365
以身	-10.8366
五年以	-10.8367
兩浙	-10.8369
樂毅	-10.8369
時為	-10.8369
黄鍾	-10.837
無名	-10.8371
楚必	-10.8371
東陽	-10.8374
登極	-10.8376
反下注	-10.8377
陣亡	-10.8384
一清	-10.8386
韓絳	-10.8386
十九日	-10.8388
辯士	-10.8388
何人	-10.8401
王嗣在位	-10.8403
者即	-10.8403
其本	-10.8405
馬匹	-10.8405
補音呼	-10.8405
方今	-10.8407
時政	-10.841
太后曰	-10.8411
忠良	-10.8414
無復	-10.8417
王瞻	-10.8426
來歸	-10.8431
而成	-10.8436
四十四	-10.8438
至京師	-10.8438
㐮王	-10.8441
洪武三十五年	-10.8446
一軍	-10.8455
趙也	-10.8456
不意	-10.846
悼公	-10.8462
度支	-10.8463
下衍	-10.8463
自取	-10.8467
白起	-10.8471
不滿	-10.8471
少而	-10.8472
科道	-10.8472
無知	-10.8476
方平	-10.8479
不食	-10.8482
皆得	-10.8483
聖心	-10.8487
衛指揮使	-10.8493
陞任	-10.8499
其過	-10.85
一嵗	-10.8504
安慶	-10.8507
黄帝	-10.8509
文襄	-10.851
一本無	-10.8511
後改	-10.8516
察其	-10.8519
兩宫	-10.852
由進士三年任右	-10.8526
召之	-10.8529
以是	-10.8531
舉進士	-10.8535
言語	-10.8536
力戰	-10.8537
不韋	-10.8537
軍國	-10.8542
東海	-10.8545
補音許	-10.8548
魏公	-10.8549
等州	-10.8549
之備	-10.855
亦云	-10.8555
責其	-10.856
以取	-10.856
築城	-10.8568
轉運	-10.8569
守成	-10.8569
麾	-10.857
昭謂	-10.8572
州團練使	-10.8574
貟	-10.8578
鯀	-10.8578
亦未	-10.8579
軻	-10.8581
翰林院侍講	-10.8581
喀	-10.8581
抃	-10.8582
霄	-10.8582
注云	-10.8585
宣慰	-10.8585
鋹	-10.8585
夘	-10.8586
醴	-10.8586
朂	-10.8587
枕	-10.8588
御筆	-10.8588
吏部右侍郎	-10.8588
國子祭酒	-10.8589
聶政	-10.859
長也	-10.8592
参	-10.8593
諮	-10.8593
覧	-10.8594
刄	-10.8594
胸	-10.8594
耨	-10.8595
矧	-10.8595
濶	-10.8597
兠	-10.8597
左布政使	-10.8597
首揆	-10.8597
後復	-10.8597
憫	-10.8598
奄	-10.8598
己夘	-10.8599
綵幣四表裏	-10.8599
常遇春	-10.8599
絹二疋	-10.8599
顛	-10.86
臨御	-10.86
枚	-10.86
譁	-10.86
藍田	-10.86
慧	-10.8601
創業	-10.8602
徳之	-10.8603
通作	-10.8603
貴妃	-10.8604
王越	-10.8604
芝	-10.8604
拓	-10.8605
文信侯	-10.8606
科道官	-10.8608
卨	-10.861
曲沃	-10.8615
大計	-10.8615
提學	-10.8616
自此始	-10.8618
緩急	-10.8624
魯連	-10.8627
唐虞	-10.8639
縣丞	-10.864
建康	-10.864
運司	-10.8642
黙然	-10.8643
市馬	-10.8644
辭也	-10.8645
今陛下	-10.8646
左右曰	-10.8648
諭以	-10.8648
詣闕	-10.8658
哀侯	-10.8664
怒曰	-10.8666
御前	-10.8668
守臣	-10.867
皇考	-10.867
于謙	-10.8671
所致	-10.8676
劉吉	-10.8677
而來	-10.8678
韓䇿	-10.8679
齊燕	-10.8682
左丞	-10.8688
四面	-10.8691
美人	-10.8693
官爵	-10.8696
先卒	-10.8698
姚本作	-10.8699
者是	-10.8702
守仁	-10.8704
永寧	-10.8706
監門	-10.8708
俱為	-10.8709
遂至	-10.871
報之	-10.8711
無厭	-10.8714
金陵	-10.8715
過於	-10.8719
與王	-10.8726
居民	-10.8728
七年任右	-10.8729
一時之	-10.8731
無遺	-10.8732
天意	-10.8733
欲乞	-10.8735
則民	-10.8737
中正	-10.8738
荆湖	-10.8739
補補曰	-10.8745
子莊	-10.8749
敢言	-10.8753
誤國	-10.8753
又遣	-10.8758
上天	-10.876
月初四日	-10.8763
之處	-10.8767
始終	-10.8769
詔㫖	-10.877
且言	-10.8773
公不如	-10.8778
都司	-10.8779
亮反	-10.8786
五百石	-10.8793
府同知	-10.8794
易也	-10.8796
永平	-10.8798
二曰	-10.88
聞命	-10.88
而弗	-10.8802
擇其	-10.8804
秦昭	-10.8806
以從	-10.881
無考	-10.8812
戊	-10.8815
執奏	-10.8818
自殺	-10.8818
傳言	-10.8819
少保太子太保	-10.8821
十四年任右	-10.8822
試卷	-10.8823
千石	-10.8824
一級	-10.8825
則非	-10.8825
巴圖魯	-10.8831
墨子	-10.8831
嗣進	-10.8837
劄	-10.8838
駐蹕	-10.8845
塘	-10.8845
戶	-10.8846
故言	-10.8847
棺	-10.8849
仍兼任	-10.8849
盍	-10.885
眀	-10.8851
卯	-10.8852
庾	-10.8853
不虞	-10.8853
詘	-10.8853
誌	-10.8854
嶽	-10.8854
岩	-10.8855
碎	-10.8855
王岩叟	-10.8856
渤海	-10.8856
其能	-10.8857
洵	-10.8857
瀋	-10.8857
豪傑	-10.8857
繞	-10.8857
亦自	-10.8857
酷	-10.8858
槐	-10.8858
聞之曰	-10.8859
無得	-10.8859
曲阜	-10.8859
磨勘	-10.8859
無恙	-10.8859
貿	-10.8861
槖	-10.8861
工部侍郎	-10.8862
大宋皇帝	-10.8862
廵撫	-10.8863
朞	-10.8863
寐	-10.8863
羗	-10.8866
冨	-10.8866
招討	-10.8867
鄖	-10.8868
都指揮僉事	-10.8869
小旗	-10.887
景祐	-10.8871
成侯	-10.8872
西厰	-10.8873
哲宗	-10.8873
一代	-10.8873
侃	-10.8875
聊城	-10.8877
四十六	-10.8877
盗賊	-10.8878
運使	-10.888
薨壽六十	-10.888
前鋒	-10.8881
商賈	-10.8883
以地	-10.8886
如晦	-10.8888
朕意	-10.8889
際	-10.8892
力士	-10.8894
任本年致仕	-10.8899
所貴	-10.8899
禍福	-10.89
范鎮	-10.89
惡其	-10.8902
舟師	-10.8903
被執	-10.891
此意	-10.8911
罪之	-10.8912
一十	-10.8914
財物	-10.8918
明經	-10.8927
里充	-10.893
小民	-10.8932
年四十	-10.8932
叔向	-10.8932
以太子少保	-10.8933
楚使	-10.8935
金帶	-10.8937
陳循	-10.8938
不亦	-10.8943
廢也	-10.8946
之盟	-10.8948
故有	-10.8955
意在	-10.8957
仍賜	-10.896
左副都御史	-10.8961
千斤	-10.8961
詞賦	-10.8964
王妃	-10.8968
齊使	-10.8971
必死	-10.8973
祖宗之	-10.8973
立法	-10.8974
武昌	-10.8975
西夏	-10.8978
不治	-10.8981
光禄	-10.8985
尚有	-10.8985
則魏	-10.8985
如有	-10.8986
於諸侯	-10.8991
東門	-10.8991
王使	-10.8992
魏䇿	-10.8994
處士	-10.8994
一節	-10.8994
病也	-10.8995
簡子	-10.8996
以資	-10.8997
縣人由進士	-10.9009
國家之	-10.9017
但有	-10.9022
而民	-10.9031
知樞密院	-10.9032
答曰	-10.9035
矣若	-10.904
國子	-10.9042
文簡	-10.9046
開國	-10.9047
為大王	-10.9047
神明	-10.9048
三城	-10.9052
三十七	-10.9056
亦言	-10.9056
之勞	-10.9056
後至	-10.9059
百戸	-10.9066
重者	-10.9068
亡也	-10.9069
掌詹事府	-10.907
左侍郎	-10.9072
漠	-10.9082
洪武初	-10.9084
比音	-10.9084
有隙	-10.9086
西有	-10.9089
附㑹	-10.9089
易之	-10.9091
未免	-10.9093
凡六	-10.9096
不書	-10.9097
飲酒	-10.9102
視事	-10.9104
當有	-10.9106
千五百石	-10.9109
有缺文	-10.9111
樗里疾	-10.9111
三十七年	-10.9113
等事	-10.9113
艘	-10.9114
翰林院侍讀	-10.9116
兢	-10.9116
軹	-10.9116
驍	-10.9117
峒	-10.9117
倣	-10.9117
廂	-10.9118
潁川	-10.9119
瑟	-10.912
未足	-10.912
洪武三年以	-10.912
十分	-10.912
故元	-10.912
鈔百錠	-10.9121
額訥特珂克	-10.9121
囑	-10.9122
道者	-10.9122
安仁	-10.9123
史官	-10.9124
耆老	-10.9124
疊	-10.9124
諂	-10.9126
努	-10.9126
甄	-10.9126
乃令	-10.9126
年以右副都御史任	-10.9127
賔客	-10.9127
濵	-10.9128
咸淳	-10.9128
灼	-10.9129
靴	-10.9129
零	-10.9129
正徳中	-10.9129
䕶送	-10.9129
七子	-10.913
珂	-10.913
何哉	-10.9131
𠡠	-10.9132
五十兩	-10.9132
春申君曰	-10.9132
檜	-10.9133
功業	-10.9133
稟	-10.9134
裳	-10.9135
遮	-10.9135
夣	-10.9135
沖	-10.9136
魏人	-10.9137
郁	-10.9138
牆	-10.9138
國中	-10.9139
摘	-10.9139
其辭	-10.9142
刑罰	-10.9144
强而	-10.9144
贈太傅	-10.9145
外任	-10.9146
冝陽	-10.9153
韓侈	-10.9155
之黨	-10.9157
三十一	-10.9157
考試官	-10.9158
太廟	-10.9163
太皇太后曰	-10.9163
十四日	-10.9163
不順	-10.9165
封疆	-10.9168
本年卒	-10.917
授之	-10.9179
誥命	-10.918
發其	-10.9181
宜令	-10.9181
常山	-10.9182
三十兩	-10.9185
乗之	-10.9186
樞宻使	-10.9187
無禮	-10.9187
貢院	-10.9192
因使	-10.9192
上御	-10.9193
吕氏	-10.9198
右司諫	-10.9199
在内	-10.9203
韓維	-10.9204
戰不勝	-10.921
江隂	-10.9212
伯温	-10.9213
拾遺	-10.9213
六曹	-10.9215
告急	-10.9215
一身	-10.9217
二年正月	-10.9221
勛臣	-10.9228
皆曰	-10.923
假道	-10.9238
講學	-10.924
六日	-10.9242
所愛	-10.9243
嘗君	-10.9247
劉忠	-10.9249
君有	-10.9251
使民	-10.9252
月十二日	-10.9253
其首	-10.9254
不由	-10.926
而致	-10.9272
於衆	-10.9273
合也	-10.9274
乗馬	-10.9277
封之	-10.9281
四十餘	-10.9283
卒於	-10.9286
求之	-10.9288
意欲	-10.9289
好惡	-10.929
而用之	-10.93
靈公	-10.9306
賢才	-10.9306
而至	-10.9306
主考	-10.9306
至於此	-10.9308
終始	-10.9314
進賢	-10.9318
建立	-10.9319
浙江鄞縣人	-10.9319
右僉都御史	-10.9321
禮侍	-10.9321
尚在	-10.9323
定襄	-10.9325
賜以	-10.933
軍法	-10.9337
第三子薨夀	-10.9341
甚明	-10.9345
有過	-10.9345
以東	-10.9346
禁軍	-10.9346
不少	-10.9346
文淵閣	-10.9347
王友	-10.9347
位於	-10.9349
文仲	-10.935
韓府	-10.936
人由鄉舉	-10.9369
越人	-10.9378
癸	-10.938
俛	-10.9382
四年以	-10.9383
曰先生	-10.9383
辦事	-10.9384
峽	-10.9393
團	-10.9393
江西豐城人	-10.9394
賢君	-10.9394
信陵君	-10.9395
廪	-10.9396
五年任右	-10.9396
帷	-10.9396
渙	-10.9396
與戰	-10.9397
詮	-10.9398
姻	-10.9398
三晉之	-10.9399
其死	-10.94
馬文升	-10.9401
何由	-10.9402
撤	-10.9402
不可知	-10.9402
杲	-10.9402
綵幣表裏	-10.9402
穰	-10.9403
胡濙	-10.9404
浹	-10.9404
𥙷曰姚云	-10.9404
漫	-10.9404
揖	-10.9404
楊士竒	-10.9404
道徳	-10.9405
知道	-10.9405
闈	-10.9405
仁義之	-10.9406
户部侍郎	-10.9406
後起	-10.9407
顒	-10.9407
死後	-10.9408
十餘年	-10.9408
縊	-10.9408
惰	-10.9408
䓁	-10.9408
蘆	-10.9409
渥	-10.9409
掛	-10.9409
系	-10.9409
縳	-10.941
糞	-10.941
䘏	-10.9411
緡錢	-10.9411
大理寺卿	-10.9413
陸完	-10.9414
昶	-10.9414
削爵	-10.9416
汰	-10.9419
欺罔	-10.942
之學	-10.942
吉祥	-10.9422
月十五日	-10.9422
宗廟社稷	-10.9423
入對	-10.9424
不親	-10.9427
求地	-10.9428
京兆	-10.943
奉祀	-10.9433
隴西	-10.944
所鎮撫	-10.944
金山	-10.9441
使趙	-10.9443
讀卷	-10.9444
落職	-10.9445
太子太保禮部尚書	-10.9446
一見	-10.9449
便宜	-10.9451
余靖	-10.9451
從此	-10.9453
恩澤	-10.9459
次年	-10.9461
屯田	-10.9463
之事也	-10.9463
稱賀	-10.9463
同考	-10.9464
因謂	-10.9465
提刑	-10.9467
任掌院事	-10.9469
賈易	-10.9473
司禮	-10.9474
興祖	-10.9475
自相	-10.9483
其禍	-10.9485
魏徵	-10.9486
之族	-10.9489
以奉	-10.9491
不去	-10.9493
李氏	-10.9493
拒之	-10.9494
王聰	-10.9494
庻子	-10.9495
王瓊	-10.9495
益州	-10.9496
殿試	-10.9505
丹陽	-10.9508
十五萬	-10.9508
武進人	-10.951
止是	-10.9512
文恪	-10.9512
諸道	-10.9513
應之	-10.9515
云我	-10.9516
中允	-10.9519
先遣	-10.9521
臣謂	-10.9523
參軍	-10.9523
多所	-10.9532
人數	-10.9533
若干	-10.9535
以助	-10.9538
百斤	-10.9541
息民	-10.9541
不給	-10.9541
正曰大事記	-10.9544
强國	-10.9545
可取	-10.9545
太和	-10.955
有才	-10.9552
哈喇	-10.9556
山林	-10.9563
聖政	-10.9566
猶恐	-10.9566
二年任左	-10.9568
聖賢	-10.957
之詞	-10.9576
不察	-10.9577
賜宴	-10.9581
君王	-10.9584
燕䇿	-10.9586
蘄	-10.9592
嗣薨夀四十	-10.9593
地界	-10.9594
以獻	-10.9597
謀者	-10.9598
而好	-10.9601
車馬	-10.9603
絶齊	-10.9607
文綺帛	-10.9607
示之	-10.9609
山陽	-10.9612
王氏	-10.9615
八千	-10.9621
其文	-10.9621
魯君	-10.9621
為先	-10.9626
大禮	-10.9626
足為	-10.9627
頃之	-10.9629
可考	-10.9631
故使	-10.9642
所據	-10.9643
於宋	-10.9643
其書	-10.9651
等俱	-10.9652
秦昭王	-10.9657
賈相	-10.9659
異於	-10.966
即時	-10.9661
為去	-10.9661
宣大	-10.9661
行至	-10.9662
百二十	-10.9662
其弊	-10.9665
若能	-10.9668
相承	-10.9669
賞賜	-10.9669
兊	-10.967
晉侯	-10.9671
上聲	-10.9671
之聲	-10.9672
揜	-10.9674
亦多	-10.9677
武宗	-10.9677
直𨽻長洲人	-10.9677
亾	-10.968
智者	-10.9681
䑕	-10.9681
痤	-10.9681
四十里至	-10.9682
闇	-10.9682
葺	-10.9682
竈	-10.9683
殛	-10.9683
江西吉水人	-10.9683
崖	-10.9684
纍	-10.9684
厲公	-10.9684
繪	-10.9685
白金二百兩	-10.9685
歷	-10.9685
伯贈侯	-10.9685
扼	-10.9685
牘	-10.9686
柏	-10.9687
愎	-10.9687
阨	-10.9687
掘	-10.9687
墾	-10.9687
中極殿	-10.9688
冥	-10.9688
隰	-10.9688
慿	-10.9688
異論	-10.9689
玠	-10.9689
鍳	-10.9689
總督軍務	-10.969
捜	-10.969
油	-10.969
寰	-10.9691
氊	-10.9691
惻	-10.9692
鄒忌	-10.9693
蘇厲	-10.9694
驩	-10.9694
雀	-10.9695
吕恵卿	-10.9696
墀	-10.9698
瓶	-10.9698
頸	-10.97
十九年任	-10.9701
臨淄	-10.9703
噬	-10.9703
國亡	-10.9703
功名	-10.9703
兵部侍郎	-10.9704
赦之	-10.9704
補曰正義云	-10.9705
伯嬰	-10.9706
他國	-10.9707
達喇	-10.9707
本年致仕	-10.9709
經制	-10.971
第七子	-10.9712
涿	-10.9712
丈夫	-10.9712
左柱國	-10.9714
吕誨	-10.9714
前世	-10.9716
成化三年	-10.9716
蔡澤	-10.9716
河中	-10.9718
髙拱	-10.9722
宗道	-10.9722
管勾	-10.9725
司寇	-10.9725
體量	-10.9725
正三品	-10.9726
焚其	-10.9727
盡心	-10.9728
安陵君	-10.973
之約	-10.9732
必危	-10.9734
主㑹試	-10.9741
湯武	-10.9743
萬厯元年	-10.9743
詔罷	-10.9744
相攻	-10.9744
錢糧	-10.9745
不可得也	-10.9747
本或作	-10.9749
軍器	-10.9749
所至	-10.9751
王欽若	-10.9753
欲與	-10.9753
傳㫖	-10.9757
魏彬	-10.9757
議事	-10.9762
謁者	-10.9763
補曰史作	-10.9764
平日	-10.9766
二人者	-10.9767
弟兄	-10.9768
每嵗	-10.9768
公侯伯	-10.9768
三曰	-10.9769
鄰國	-10.9776
童子	-10.9776
鄉舉	-10.9778
司馬光言	-10.9782
天書	-10.9784
所賜	-10.9784
都城	-10.9784
其兵	-10.9791
大使	-10.9791
智氏	-10.9794
不測	-10.9797
降附	-10.9798
萬錠	-10.9799
大明	-10.9802
太行	-10.9809
迎之	-10.9812
將相	-10.9813
靖逺	-10.9814
不急	-10.9816
史館	-10.9816
攻中山	-10.9817
上疏言	-10.982
兼讀學	-10.982
南昌	-10.9821
金玉	-10.9824
重也	-10.9832
太子少保兵部尚書	-10.9832
進曰	-10.9834
去年	-10.984
上殿	-10.9844
分别	-10.9845
兵備	-10.9848
實為	-10.985
召對	-10.9857
釐王	-10.9861
變亂	-10.9867
之異	-10.9868
至誠	-10.987
孔子曰	-10.9871
我我	-10.9873
留意	-10.9878
之神	-10.9879
刑法	-10.9879
著書	-10.9882
二王	-10.9886
欲立	-10.9887
坐法	-10.9888
爲魏	-10.9889
罪人	-10.9891
五百兩	-10.9893
聖意	-10.9896
帝王之	-10.9896
朕心	-10.9898
伏惟	-10.9899
敵國	-10.9903
不存	-10.9906
有竒	-10.991
分為	-10.9911
潞州	-10.9918
莊公	-10.9918
濟南	-10.9919
救韓	-10.992
不仁	-10.9922
幣帛	-10.9926
所以為	-10.9928
更張	-10.9928
二者	-10.9941
廣南	-10.9946
白馬	-10.995
之節	-10.9951
請令	-10.9953
封伯	-10.9953
四年任右	-10.9954
弼曰	-10.9955
組	-10.9957
之父	-10.9957
而獨	-10.9958
崇政殿	-10.9962
主順天試命	-10.9966
東國	-10.9966
推右未任	-10.9967
湛	-10.9969
躡	-10.9975
小者	-10.9975
軸	-10.9975
麒	-10.9976
索隠	-10.9977
竿	-10.9978
所親	-10.9978
膚	-10.9978
喧	-10.9979
啇	-10.9979
伯宗	-10.9979
賑	-10.9982
緯	-10.9982
房杜	-10.9982
竪	-10.9983
䛕	-10.9983
張四維	-10.9983
浚	-10.9983
懌	-10.9984
補曰韓	-10.9984
墟	-10.9985
扣	-10.9985
后稷	-10.9986
髙煦	-10.9986
卵	-10.9986
殊不	-10.9987
諛	-10.9987
晝夜	-10.9988
軀	-10.9988
光祿大夫	-10.9989
劫	-10.999
桀紂	-10.999
錢塘	-10.9991
南京刑部尚書	-10.9993
縷	-10.9993
既至	-10.9993
賓客	-10.9994
囿	-10.9995
嫂	-10.9996
改為	-10.9997
壻	-10.9998
庶長子	-11
伏望陛下	-11.0002
稽首	-11.0002
之時也	-11.0002
王鏊	-11.0005
曰彼	-11.0005
阿里庫	-11.0007
臣切	-11.0008
江彬	-11.0008
太倉	-11.0014
東有	-11.0016
王覿	-11.002
不正	-11.0021
萬二千	-11.0021
疾苦	-11.0022
高祖	-11.0022
養病	-11.0022
禦之	-11.0023
今乃	-11.0024
供職	-11.0028
損益	-11.0028
三十里	-11.003
可惜	-11.0031
諸儒	-11.0032
英國公	-11.0034
補音如字	-11.0036
補音扶	-11.0041
修武	-11.0043
而罷	-11.0043
朝臣	-11.0044
四海之	-11.0044
責授	-11.0045
之舊	-11.0049
其城	-11.0049
九州	-11.0052
太上皇	-11.0056
是則	-11.0064
皇帝陛下	-11.0064
許國	-11.0067
復來	-11.0068
夷吾	-11.007
又與	-11.0074
是爲	-11.0076
嗣嘉靖	-11.0076
常州	-11.0078
嗣薨夀三十	-11.0079
嵗月	-11.0079
百七十	-11.0086
有變	-11.0089
詔自今	-11.0091
屬官	-11.0091
洪武二年	-11.0092
文信	-11.0093
和氣	-11.0097
西安	-11.0098
亦必	-11.0101
罪惡	-11.0102
信之	-11.0104
為都督同知	-11.0108
遂使	-11.0111
萬乗	-11.0111
異姓	-11.0112
濮王	-11.0115
五十萬	-11.0116
五十六	-11.0116
為亂	-11.0118
覆奏	-11.0118
泰山	-11.0124
取中	-11.0128
宣帝	-11.0128
三年任左	-11.0129
王后	-11.0129
無害	-11.0131
軍旅	-11.0136
大名	-11.0136
知院	-11.0144
年八十	-11.0146
吏侍	-11.015
相應	-11.0152
蘇州	-11.0152
之期	-11.0153
帥臣	-11.0157
禮儀	-11.0159
道士	-11.0164
亳	-11.0164
十年任右	-11.0165
本色	-11.0168
俱正	-11.0169
移文	-11.0173
君若	-11.0176
二囯	-11.0176
是夜	-11.0179
長城	-11.0181
近代	-11.0181
初封	-11.0185
副都御史	-11.0195
燕將	-11.0199
名器	-11.0203
國體	-11.0204
舊法	-11.0207
往見	-11.0208
之私	-11.0209
史無	-11.0212
月初二日	-11.0213
撃之	-11.0215
則君	-11.0216
餘皆	-11.0216
將軍印	-11.0218
萬乗之	-11.0219
兩廣	-11.0222
乎對曰	-11.0222
上曰卿	-11.0225
諸矦之	-11.023
終身不	-11.0238
入官	-11.0246
𢎞治中	-11.0252
今差	-11.0253
金吾	-11.0254
安樂	-11.0258
龎	-11.0266
我師	-11.0267
第九	-11.027
孟甞	-11.027
鈔五十錠	-11.0271
丑	-11.0272
摰	-11.0272
死士	-11.0272
闗中	-11.0273
廬州	-11.0273
几	-11.0275
為天子	-11.0275
旭	-11.0277
凋	-11.0278
惟演	-11.0278
琥	-11.0278
噐	-11.0278
何嘗	-11.0279
遑	-11.028
驂	-11.028
岱青	-11.0282
郟	-11.0282
刧	-11.0282
博囉	-11.0283
净	-11.0284
紛紛	-11.0284
御用監	-11.0284
芒	-11.0284
絹一疋	-11.0284
李善長	-11.0284
博郭爾濟	-11.0284
河南祥符人	-11.0284
邯	-11.0286
複	-11.0286
睹	-11.0286
殫	-11.0287
繇	-11.0287
東方	-11.0288
勉之	-11.0288
揭	-11.0288
紊	-11.0288
辛卯	-11.0288
鈔六十錠	-11.0289
田需	-11.0289
南京户部尚書	-11.029
彭澤	-11.029
沾	-11.0291
轄	-11.0292
堂上官	-11.0292
稔	-11.0293
㦲	-11.0293
弁	-11.0293
姧	-11.0293
欲用	-11.0294
補音戶	-11.0294
汭	-11.0294
阿珠	-11.0295
政府	-11.0295
晏駕	-11.0295
秦惠	-11.0295
硃	-11.0295
巍	-11.0296
以兵部尚書	-11.0296
正典刑	-11.0296
范蠡	-11.0296
鄧愈	-11.0297
汚	-11.0298
哨馬	-11.0299
馬步軍	-11.0299
夷狄	-11.0299
蹇義	-11.0299
鑰	-11.0301
布哈	-11.0302
第六	-11.0302
之體	-11.0303
兕	-11.0303
奸黨	-11.0303
成化二十三年	-11.0303
應天府	-11.0305
不知何	-11.0316
絶其	-11.0318
起復	-11.0319
武靈王	-11.0322
紹聖	-11.0325
凡八	-11.0329
宣撫	-11.0332
劉宇	-11.0333
正二品	-11.0335
貞觀初	-11.034
蘇氏	-11.0342
扵是	-11.0344
也傳曰	-11.0347
彭城	-11.0348
將校	-11.0352
公輔	-11.0354
鞍馬	-11.0354
復遣	-11.0356
永昌	-11.0359
中興	-11.0363
貢士	-11.0367
季興	-11.0368
以威	-11.037
等第	-11.0383
月初一日	-11.0391
正一品	-11.0391
廟堂	-11.0391
廣州	-11.0393
嘉靖二年	-11.0395
黄中	-11.0396
子胥	-11.0401
聽臣	-11.0402
泰和	-11.0403
三邊	-11.0409
典刑	-11.0409
洪熈	-11.0412
上卿	-11.0413
京營	-11.0415
不憂	-11.0417
珠玉	-11.0419
之西	-11.0421
年間	-11.0425
而善	-11.0427
君命	-11.043
三嵗	-11.043
姦臣	-11.0432
陳文	-11.0432
内地	-11.0436
師道	-11.044
變更	-11.0443
凡七	-11.0444
不可復	-11.0447
諸子	-11.0452
者所以	-11.0455
樓子	-11.0456
上覽	-11.0458
髙下	-11.0458
殿上	-11.0462
小事	-11.0462
並作	-11.0463
為治	-11.0468
獲其	-11.0468
貴賤	-11.0481
鄧州	-11.0482
至如	-11.0483
實封	-11.0485
官名	-11.0486
嗣薨夀五十	-11.0493
而遣之	-11.0494
深矣	-11.0501
文靖	-11.0506
三字	-11.0507
禄米	-11.0509
周紀	-11.051
上批	-11.0514
必行	-11.0514
求見	-11.0523
以吏部尚書	-11.0524
為右都督	-11.0524
右㕘政	-11.0525
二年二月	-11.0534
餓	-11.0535
乎且	-11.0543
今吾	-11.0543
頃襄	-11.0547
必能	-11.0551
姚註	-11.0554
死罪	-11.0555
將何以	-11.0555
之親	-11.0555
奪之	-11.0555
故勅	-11.0557
聞奏	-11.0561
天文	-11.0561
而巳	-11.0564
王祁	-11.0567
言路	-11.0568
丙	-11.0572
子良	-11.0574
奈	-11.0574
論奏	-11.0579
㳂	-11.0581
家屬	-11.0582
枳	-11.0583
文義	-11.0583
鴈	-11.0584
寗	-11.0586
珝	-11.0586
英國公張輔	-11.0586
括地志	-11.0587
㤙	-11.0587
搜	-11.0588
邢丘	-11.0588
西河之外	-11.0589
鈍	-11.0589
梯	-11.0591
昂	-11.0591
渚	-11.0592
檀	-11.0592
暢	-11.0592
建極殿大學士	-11.0593
有缺字	-11.0593
之稱	-11.0594
拙	-11.0594
贇	-11.0595
徐有貞	-11.0596
軍事	-11.0597
逄	-11.0597
跳	-11.0598
哈薩爾	-11.0598
漂	-11.0599
派	-11.06
順義	-11.0601
張丑	-11.0601
妹	-11.0602
龍圗閣	-11.0602
糓	-11.0602
滛	-11.0603
貞觀政要	-11.0603
直𨽻濠州人	-11.0604
幅	-11.0605
所重	-11.0605
黔國公	-11.0605
左司諫	-11.0606
愼	-11.0607
侔	-11.0607
孝孺	-11.0608
城郭	-11.0608
言有	-11.0608
糧草	-11.0609
䇿文	-11.0609
賜勅	-11.0609
征北大將軍	-11.0609
愬	-11.0611
詔曰朕	-11.0611
南方	-11.0612
笏	-11.0612
輔導	-11.0613
供奉官	-11.0613
銀絹	-11.0613
月十七日	-11.0616
犯者	-11.0616
王嵓叟	-11.0617
鴆	-11.0618
帶俸	-11.0619
畋	-11.062
河北河東	-11.062
犬馬	-11.0621
八十餘	-11.0621
蒐	-11.0622
左右侍郎	-11.0622
論事	-11.0626
中道	-11.0626
昌平	-11.0626
作亂	-11.0626
嘉靖十八年	-11.0632
貞觀二年	-11.0632
江寧	-11.0633
直抵	-11.0633
欣然	-11.0634
河朔	-11.0636
北狄	-11.0636
大夫種	-11.0638
三年任右	-11.0639
怒而	-11.0639
逮問	-11.0639
流爵	-11.064
賜死	-11.0643
之末	-11.0643
合於秦	-11.0644
禁之	-11.0645
三四	-11.0648
楚國之	-11.0649
當國	-11.0649
畏秦	-11.065
綵幣三表裏	-11.0651
騎射	-11.0651
由進士七年任右	-11.0652
𥙷曰史	-11.0654
名號	-11.0654
七嵗	-11.0656
第四子薨夀	-11.0656
喜怒	-11.0658
二府	-11.0658
王守仁	-11.0661
御馬監	-11.0662
漕運	-11.0664
累遷	-11.0667
夫婦	-11.0667
為皇太子	-11.0671
吾將	-11.0676
登第	-11.0679
交結	-11.0681
王直	-11.0682
說見前	-11.0683
人主之	-11.0683
不難	-11.0684
奉表	-11.0687
可知矣	-11.0689
賢臣	-11.0693
萬世之	-11.0694
若以	-11.0694
矣且	-11.0696
大者	-11.0698
先是上	-11.0698
大破	-11.07
補外	-11.07
不祥	-11.0701
相望	-11.0703
第二子薨夀	-11.0707
不敬	-11.071
得天下	-11.071
安敢	-11.0711
騎兵	-11.0717
字句	-11.0719
入貢	-11.0722
上流	-11.0723
靈王	-11.0724
陳氏	-11.0725
文成	-11.0726
尚存	-11.0728
齊桓公	-11.0732
為庶吉士	-11.0738
天㑹	-11.0744
今雖	-11.0746
之首	-11.0748
取㫖	-11.0749
郡公	-11.075
本國	-11.0752
未行	-11.0752
八日	-11.0753
遺之	-11.0755
汝州	-11.0757
又非	-11.0761
舊例	-11.077
於境	-11.077
廣寧	-11.0772
奉陽	-11.0778
諫議大夫	-11.0779
委任	-11.0785
勿復	-11.079
不可考	-11.079
出自	-11.0792
十年致仕	-11.0792
反通作	-11.0796
鴻臚	-11.0796
書云	-11.0797
誠信	-11.0798
女為	-11.08
禮記	-11.0807
貴朝	-11.0811
難得	-11.0815
百五十	-11.0818
人御史	-11.0818
季子	-11.0819
遂良	-11.0828
城陽	-11.0831
此豈	-11.0839
聖慈	-11.0849
俱成	-11.0861
徳明	-11.0864
不備	-11.0866
之基	-11.0871
一百二十	-11.0873
上召	-11.0875
並無	-11.0877
言欲	-11.0879
帥師	-11.0879
寺丞	-11.0882
復任	-11.0882
而已矣	-11.0883
此士	-11.0884
已得	-11.0886
老成	-11.0888
起於	-11.0892
友諒	-11.0894
上謂輔臣曰	-11.0898
令㫖	-11.09
受封	-11.0901
盼	-11.0901
縝	-11.0902
誑	-11.0904
五帝	-11.0905
吏書	-11.0906
髙平	-11.0911
自立	-11.0912
皇城	-11.0912
演	-11.0913
錮	-11.0913
公田	-11.0913
拊	-11.0914
日久	-11.0915
京東	-11.0915
其族	-11.0916
貂	-11.0917
樞密直學士	-11.0917
瘡	-11.0917
歇	-11.0917
殄	-11.0917
都虞侯	-11.0918
李春芳	-11.0918
墓誌	-11.0919
挟	-11.0919
迴	-11.0919
懾	-11.092
臘	-11.092
烟	-11.092
韜	-11.092
稼	-11.092
史不書	-11.0922
棲	-11.0922
脊	-11.0922
芉	-11.0922
企	-11.0922
簽書	-11.0922
悰	-11.0922
吳元年	-11.0923
二州	-11.0923
昺	-11.0923
咱	-11.0924
大理寺丞	-11.0924
喝	-11.0924
岡	-11.0925
縉紳	-11.0925
初六日	-11.0925
燦	-11.0925
左正言	-11.0925
五十年	-11.0925
葵	-11.0925
穢	-11.0926
錡	-11.0926
桐	-11.0926
孜	-11.0927
苐	-11.0927
西域	-11.0927
揀	-11.0927
納欵	-11.0927
愿	-11.0928
宋彭百川撰	-11.0928
謂秦王	-11.0928
直𨽻定逺人	-11.0928
鏐	-11.0928
邇英	-11.0929
廡	-11.093
文泰	-11.093
榻	-11.0931
風雨	-11.0931
之本也	-11.0931
殞	-11.0932
以待之	-11.0934
全斌	-11.0934
初七日	-11.0935
酋長	-11.0935
曹彬	-11.0939
仲連	-11.094
伊尹	-11.0942
天下之士	-11.0943
垂簾	-11.0944
戎狄	-11.0944
以城降	-11.0944
太子少保吏部尚書	-11.0944
賞賚	-11.0945
司空馬	-11.0945
十六年任右	-11.0945
銖	-11.0946
能知	-11.0947
上封事	-11.0949
令平聲	-11.0949
卒年七十	-11.095
周書	-11.0951
闗防	-11.0953
張忠	-11.0954
郊迎	-11.0955
草澤	-11.0957
天時	-11.096
加太傅	-11.0962
邊境	-11.0962
天禧	-11.0963
神機	-11.0964
岊	-11.0965
慈聖	-11.0965
治國	-11.0966
襄陵	-11.0968
人之所	-11.0975
内史	-11.0976
也然則	-11.0976
周旋	-11.0979
王曰諾	-11.0982
匹夫	-11.0983
補音烏	-11.0992
増置	-11.0992
謚曰	-11.0994
忠勇	-11.0994
不能守	-11.0996
今復	-11.0998
文懿	-11.0999
野史	-11.1002
邊患	-11.1002
世祖	-11.1003
内官監	-11.1005
所能	-11.1007
承平	-11.1011
東川	-11.1011
成化二年	-11.1012
嘉興	-11.1015
六年任右	-11.1015
侍臣	-11.1015
興濟	-11.1016
選擇	-11.1017
謝遷	-11.1019
舊本	-11.1022
禁止	-11.1024
繼宗	-11.1029
五囯	-11.1031
北門	-11.1034
募兵	-11.1035
嘆曰	-11.1038
神人	-11.104
七十六	-11.104
六萬	-11.1042
文明	-11.1044
之子也	-11.1044
諸大臣	-11.1045
濟寧	-11.1049
朝㫖	-11.1049
右諫議大夫	-11.1053
質於齊	-11.1054
八子	-11.1059
廷臣	-11.1061
劉向	-11.1062
谷大用	-11.1064
四十二	-11.1067
而見之	-11.1067
不預	-11.1068
亦宜	-11.1069
為患	-11.1069
自來	-11.1071
充軍	-11.1071
魏國公徐	-11.1074
新鄭	-11.1074
鈔四十錠	-11.1076
已定	-11.1076
六子	-11.108
衣食	-11.1083
吾聞	-11.1083
願大王	-11.1085
三尺	-11.1085
諡曰	-11.1088
是歲	-11.1092
開門	-11.1097
一篇	-11.1097
為吏部尚書	-11.1097
嬰子	-11.111
詔從之	-11.111
與人	-11.1111
擢用	-11.1112
山中	-11.1112
寧逺	-11.1114
子期	-11.1115
兼侍講	-11.1116
戒之	-11.112
不然則	-11.1124
在朝	-11.1126
行宻	-11.1128
爲臣	-11.1129
唐太宗	-11.1132
請降	-11.1133
城門	-11.1133
諸本	-11.1134
横行	-11.1135
受詔	-11.1136
也昭謂	-11.1143
請和	-11.1154
惜乎	-11.1158
髙昌	-11.1158
始有	-11.1161
西河	-11.1161
長官	-11.1163
議定	-11.1166
之任	-11.1169
五十疋	-11.1172
境上	-11.1172
之言曰	-11.1176
可信	-11.1178
朽	-11.1182
竒功	-11.1184
鎮國將軍	-11.1186
入京	-11.1194
朝貢	-11.12
勝負	-11.1202
保吉	-11.1204
襲衣	-11.1208
惜之	-11.1209
山下	-11.1211
李時	-11.1219
定制	-11.1221
嚴公	-11.1227
巻	-11.1228
四十九	-11.123
有是命	-11.123
森	-11.1236
范氏祖禹曰	-11.1237
刑部右侍郎	-11.124
不赦	-11.124
因事有功	-11.1241
示以	-11.1241
華蓋殿大學士	-11.1242
第一人	-11.1244
謂侍臣曰	-11.1244
聦	-11.1244
翰林院修撰	-11.1244
簽	-11.1245
釡	-11.1246
啻	-11.1246
大宋	-11.1247
山隂	-11.1248
蕪	-11.1248
皋	-11.1248
哷	-11.1248
埒	-11.1249
墨爾根	-11.1249
顓頊	-11.1249
江西進賢人	-11.125
太平興國	-11.125
礼	-11.125
靳貴	-11.1251
衛君	-11.1251
見秦䇿	-11.1252
經營	-11.1252
滎陽	-11.1252
濡	-11.1252
現	-11.1252
魯仲連	-11.1253
天下幸甚	-11.1253
筵	-11.1253
加恩	-11.1253
以右都御史任	-11.1254
未發	-11.1254
月初九日	-11.1254
忠言	-11.1254
楮	-11.1255
右副將軍	-11.1255
寝	-11.1256
隗	-11.1256
瑕	-11.1256
粹	-11.1256
提㸃刑獄	-11.1257
沸	-11.1257
殪	-11.1257
脉	-11.1257
萃	-11.1257
迭	-11.1257
征南將軍	-11.1258
逺方	-11.1258
器械	-11.1258
皇子郎君	-11.1258
蒯	-11.1258
磐	-11.1258
其故	-11.1258
好和不争	-11.1259
趍	-11.1259
僞	-11.1259
始以	-11.1259
釗	-11.126
捉	-11.1261
大理卿	-11.1261
閼與	-11.1261
影	-11.1261
線	-11.1262
僵	-11.1262
剖	-11.1262
六年致仕	-11.1262
亹	-11.1262
直史館	-11.1263
長孫	-11.1264
翰林侍讀學士	-11.1265
綴	-11.1265
緋	-11.1265
筮	-11.1266
封禪	-11.1269
句踐	-11.1269
将士	-11.127
罷疲	-11.127
城破	-11.1271
史書	-11.1271
襃	-11.1272
呵	-11.1272
院事	-11.1272
兼太子太師	-11.1273
御製	-11.1273
身死	-11.1274
賈侍中云	-11.1274
形勢	-11.1276
蔚	-11.1276
莘	-11.1277
竊聞	-11.1277
笄	-11.1279
仲尼	-11.1284
所造	-11.1285
我朝	-11.1285
流涕	-11.1287
夜半	-11.1288
婦女	-11.129
人户	-11.129
著於	-11.1291
以禮書	-11.1292
反又音	-11.1295
則不然	-11.1296
則思	-11.1299
即命	-11.1301
所好	-11.1303
如之何	-11.1305
穆宗	-11.1307
既出	-11.1307
賛善	-11.1309
景泰中	-11.1324
二十餘	-11.1325
以為常	-11.1326
希忠	-11.1328
畏懼	-11.1332
多作	-11.1332
之狀	-11.1335
浙江鄞縣人由進士	-11.1337
文淵	-11.1337
世衡	-11.1338
事勢	-11.1338
北敵	-11.1341
坐事	-11.1343
咸陽	-11.1343
其兄	-11.1343
一一	-11.1344
又聞	-11.1344
先儒	-11.1347
先帝之	-11.1347
罷去	-11.1349
陞賞	-11.1354
秦秦王	-11.1354
不違	-11.1355
水洛	-11.1355
攻宜陽	-11.1357
興化	-11.1359
八十二	-11.1359
七十二	-11.136
三十二	-11.1363
弗與	-11.1366
光祿寺	-11.1367
欲取	-11.1369
左丞相	-11.1369
胡廣	-11.1371
補音方	-11.1373
衛人由進士	-11.1375
存問	-11.1376
嗣薨夀	-11.1377
潭州	-11.1384
辦事官	-11.1385
夏貴	-11.1388
滄州	-11.1392
不煩	-11.1393
再起	-11.1398
名臣	-11.1401
列反	-11.1402
信國公	-11.1404
策論	-11.1404
數千人	-11.1406
闕失	-11.1407
小異	-11.1407
髙陵	-11.1417
不决	-11.1417
好學	-11.1419
月初十日	-11.1422
安豐	-11.1428
甚詳	-11.1437
勲臣	-11.1439
有疾	-11.1441
克忠	-11.1443
出為	-11.1444
不恤	-11.1444
忠厚	-11.1445
各省	-11.1446
徳行	-11.1447
亂政	-11.1448
父老	-11.1453
共議	-11.146
而殺之	-11.1461
月初三日	-11.1463
燕昭王	-11.1464
吉安	-11.1465
平生	-11.1466
明詔	-11.1466
累年	-11.1466
望見	-11.1468
光禄寺	-11.1468
西門	-11.1471
一條	-11.1475
北方	-11.148
忠直	-11.1481
兼并	-11.1483
學問	-11.1484
永嘉	-11.1486
民心	-11.1491
文昭	-11.1494
之助	-11.1495
王翊	-11.1496
不倦	-11.1499
漢唐	-11.1499
文皇帝	-11.1513
年任右	-11.1514
者甚衆	-11.1519
撫寧	-11.1521
卿士	-11.1523
又令	-11.1526
郡守	-11.1527
釋文	-11.1541
公何不	-11.1544
下句	-11.1546
黜之	-11.1547
九年任右	-11.155
分司	-11.1552
諌官	-11.1554
改任	-11.1555
在彼	-11.1557
如前	-11.1559
懷敏	-11.1559
齊宣王	-11.1559
五軍	-11.1565
九日	-11.1566
公亮	-11.1581
問焉	-11.1583
抜	-11.1585
店	-11.1588
賢於	-11.1588
竑	-11.1588
猜	-11.1589
昱	-11.1589
此地	-11.159
達爾罕	-11.1591
潘美	-11.1593
行省㕘政	-11.1594
賊衆	-11.1594
州知州	-11.1595
太僕寺	-11.1595
熾	-11.1595
婚姻	-11.1596
璫	-11.1596
駑	-11.1597
内官監太監	-11.1597
石珤	-11.1598
讚	-11.1598
商輅	-11.1598
未易	-11.1598
顧鼎臣	-11.1598
鎗	-11.1598
砲	-11.1599
謟	-11.1599
槍	-11.1599
叩頭	-11.1599
佶	-11.1599
僥倖	-11.1599
祺	-11.1601
儁	-11.1601
翟鑾	-11.1602
頡利	-11.1602
楊文貞	-11.1602
吹	-11.1602
瑯	-11.1603
核	-11.1603
謐	-11.1603
認	-11.1603
沿途	-11.1604
搖	-11.1604
俎	-11.1604
條例司	-11.1605
鐘磬	-11.1605
户部右侍郎	-11.1606
起居舍人	-11.1606
緬	-11.1606
萬三千	-11.1606
俱𢎞	-11.1606
稻	-11.1607
燮	-11.1608
磔	-11.1608
膽	-11.1608
務在	-11.1608
官家	-11.1608
樞密副使	-11.1609
旦夕	-11.161
干戈	-11.161
顔色	-11.161
禹湯	-11.1611
劉摰	-11.1611
培	-11.1612
伶	-11.1612
楊溥	-11.1613
瘠	-11.1613
燿	-11.1613
故不敢	-11.1614
瑋	-11.1616
夏竦	-11.1619
正曰無考	-11.162
秀才	-11.162
戎翟	-11.1625
各一員	-11.1626
少宰	-11.1627
鎮撫司	-11.1627
白金一百兩	-11.163
浙江餘姚人	-11.1632
實錄	-11.1633
鬼神	-11.1637
趙奢	-11.1637
矢石	-11.1638
邪正	-11.1638
漢武帝	-11.1639
嗣薨壽五十	-11.164
金剛	-11.164
同平章事	-11.1641
人物	-11.1642
黄淮	-11.1645
一百五十	-11.1646
今大王	-11.1649
宣徳元年	-11.1649
歲次	-11.165
渭州	-11.1652
車騎	-11.1652
以慰	-11.1653
一統	-11.1656
鳯陽	-11.1656
晉語	-11.1663
太史公	-11.1666
其誰	-11.1669
心腹	-11.1672
一心	-11.1672
老人	-11.1674
多寡	-11.1675
急務	-11.1678
朝歌	-11.168
獨斷	-11.1682
福建莆田人由進士	-11.1684
御試	-11.1686
文職	-11.169
討論	-11.1691
由進士元年任右	-11.1694
正千户	-11.1695
大亂	-11.1697
貝州	-11.1697
千二百	-11.1698
致太平	-11.1699
成化元年	-11.17
叔孫	-11.1702
士彬	-11.1703
教化	-11.1703
一鵬	-11.1706
雍門	-11.1707
滅亡	-11.1709
其才	-11.1711
補音户	-11.1712
戰于	-11.1717
奏疏	-11.1719
說秦王	-11.172
郤至	-11.1721
不軌	-11.1721
役人	-11.1726
銀二	-11.1727
因循	-11.1731
妄言	-11.1732
存亡	-11.1733
不欺	-11.1733
性命	-11.1738
為奸	-11.1746
䕶衛	-11.1749
大業	-11.1751
孝文	-11.1753
桂陽	-11.1755
為己	-11.1758
不覺	-11.1762
吏民	-11.177
男子	-11.1771
永興軍	-11.1784
破齊	-11.1794
補音胡	-11.1795
遙反	-11.1796
四千	-11.1797
所記	-11.1797
卒年五十	-11.1797
錦衣衛指揮	-11.1799
邊民	-11.18
獲罪	-11.1801
三百石	-11.1806
以防	-11.1813
戰死	-11.1816
知舉	-11.1818
忘其	-11.1821
武陵	-11.1821
理宗	-11.1825
三孤	-11.1828
正曰一本	-11.1838
他事	-11.1846
謂魏王	-11.1848
勿使	-11.1852
一路	-11.1857
御馬監太監	-11.1861
東路	-11.1865
鈔二十錠	-11.187
識者	-11.1872
愛其	-11.1873
奸臣	-11.1877
軍校	-11.1887
以此為	-11.1891
大順	-11.1896
中傷	-11.1901
二百五十	-11.1902
兵攻	-11.1903
楚師	-11.1908
綏州	-11.1911
王恕	-11.1918
詔諭	-11.1919
王之國	-11.1922
無射	-11.1923
城北	-11.1929
事理	-11.193
奴婢	-11.1935
所紀	-11.1936
〇	-11.1938
千乗	-11.1938
清臣	-11.1942
酉	-11.1943
茹	-11.1943
聖王	-11.1943
逝	-11.1944
徹辰洪台吉	-11.1944
工部左侍郎	-11.1945
考烈王	-11.1945
輓	-11.1948
騾	-11.1948
器皿	-11.1948
鉅鹿	-11.1948
北人	-11.1949
靖安	-11.1949
所過	-11.1949
倭	-11.1949
為人臣	-11.1949
婁	-11.1949
粒	-11.1949
壕	-11.1949
相度	-11.195
猥	-11.195
文淵閣學入	-11.1951
即汗位	-11.1952
鏤	-11.1952
凍	-11.1953
中書右丞相	-11.1953
皂	-11.1954
聨	-11.1955
牀	-11.1955
狹	-11.1955
態	-11.1955
團練	-11.1956
胡氏寅曰	-11.1956
達爾瑪	-11.1957
擔	-11.1957
臯陶	-11.1958
鎖	-11.1958
京朝官	-11.1958
金幼孜	-11.1958
餞	-11.1958
相率	-11.1959
街	-11.1959
袁煒	-11.1959
犧	-11.196
胎	-11.1961
餼	-11.1962
憲章録	-11.1962
豁	-11.1962
炊	-11.1962
古字通	-11.1962
轂	-11.1964
灝	-11.1964
擄	-11.1965
籠	-11.1966
粲	-11.1966
三萬人	-11.1966
傅堯俞	-11.1966
踰月	-11.1967
雉	-11.1968
徐溥	-11.1969
陘山	-11.1969
敇	-11.197
竦	-11.1971
誇	-11.1971
盛徳	-11.1973
皃	-11.1973
剔成	-11.1973
謂齊王曰	-11.1973
月二十一日	-11.1974
月十三日	-11.1976
六年任左	-11.1977
藍玉	-11.1977
定議	-11.1979
巴圖	-11.198
世世	-11.1982
卒年六十	-11.1983
左右丞	-11.1986
二縣	-11.1986
二分	-11.1986
愛惜	-11.1986
解題	-11.1987
提調	-11.1987
供奉	-11.1988
裁革	-11.1989
孫覺	-11.1991
正四品	-11.1993
不息	-11.1993
宋地	-11.1993
先入	-11.1995
盜賊	-11.1995
上謂宰相曰	-11.1998
殺戮	-11.1999
吕陶	-11.1999
令史	-11.2
君父	-11.2008
秉常	-11.2011
户口	-11.2012
手足	-11.2015
九品	-11.2016
朝鮮	-11.2017
三師	-11.202
正五品	-11.2021
被害	-11.2026
二千五百	-11.2027
成周	-11.2028
館職	-11.203
倉卒	-11.2031
萬厯十一年	-11.2031
二百四十	-11.2031
新昌	-11.2033
謝恩	-11.2033
頭功	-11.2033
占城	-11.2034
三十疋	-11.2035
欒書	-11.2036
内批	-11.2039
得免	-11.2041
除名	-11.2042
安静	-11.2043
三年二月	-11.2044
遷延	-11.2046
雲中	-11.2049
通行	-11.205
寧陽	-11.2052
危矣	-11.2057
大紅	-11.206
備禦	-11.2064
安化	-11.2069
嗣薨壽三十	-11.2071
黄福	-11.2071
事發	-11.2073
養馬	-11.2074
擅權	-11.2091
此𩔖	-11.2092
布政	-11.2099
大營	-11.2099
典故	-11.2102
承奉	-11.2106
萬餘人	-11.2109
不可行	-11.2112
俄而	-11.2113
兵甲	-11.2114
不畏	-11.2117
兼領	-11.2128
景泰二年	-11.2128
相親	-11.2129
易地	-11.213
太子太傅吏部尚書	-11.2139
舊好	-11.2139
正徳五年	-11.2139
異同	-11.2155
法和	-11.2159
遣還	-11.2162
何處	-11.2169
左都	-11.217
良法	-11.2178
文莊	-11.218
云爾	-11.2188
此輩	-11.2194
不才	-11.2199
大驚	-11.2202
累加	-11.2207
不審	-11.2207
四員	-11.2211
長乆	-11.2212
太子少保禮部尚書	-11.2214
政令	-11.2215
宋衛	-11.2223
郡侯	-11.2226
元年任左	-11.2229
並依	-11.2233
百三十	-11.2235
幾何	-11.224
昭穆	-11.2244
正色	-11.2244
嘉靖六年	-11.2252
致仕卒	-11.2256
進攻	-11.2258
䕃子	-11.2259
有違	-11.226
崇文	-11.2261
文表	-11.2262
求賢	-11.2266
愛子	-11.2266
願王之	-11.227
路反	-11.2287
四年二月	-11.2287
諸将	-11.2288
布一疋	-11.2292
赴京	-11.2299
文理	-11.2301
後宫	-11.2301
驚曰	-11.2305
四十三年	-11.2306
横人	-11.2307
柵	-11.2308
嵗祿	-11.2309
恠	-11.2311
圍雍氏	-11.2314
辝	-11.2316
少師太子太師吏部尚書	-11.2317
煒	-11.2318
成化丙戌	-11.2319
少保太子太傅	-11.232
寖	-11.2321
躋	-11.2322
范中行	-11.2322
媪	-11.2322
燔	-11.2322
纛	-11.2322
耄	-11.2323
盂	-11.2323
莅	-11.2323
棠	-11.2324
戦	-11.2324
知樞宻院事	-11.2324
瀾	-11.2324
棊	-11.2325
車百乗	-11.2325
㸃檢	-11.2325
集賢校理	-11.2325
文毅	-11.2325
楨	-11.2326
在國逢難	-11.2326
畀	-11.2326
咒	-11.2326
右副元帥	-11.2326
攺	-11.2327
纎	-11.2327
罄	-11.2328
陞未任	-11.2328
響	-11.2329
嗣薨夀六十	-11.2329
博羅特	-11.2329
瘴	-11.233
羨	-11.233
剰	-11.2331
孜孜	-11.2331
搏	-11.2331
种諤	-11.2331
悪	-11.2331
温柔賢善	-11.2331
㤀	-11.2332
伏望聖慈	-11.2332
慘	-11.2332
知之矣	-11.2332
埋	-11.2332
恚	-11.2332
怙	-11.2333
蓄積	-11.2333
縉雲	-11.2334
毆	-11.2334
拳	-11.2334
曼	-11.2335
大金皇帝	-11.2335
皓	-11.2336
縠	-11.2337
忤㫖	-11.2338
解縉	-11.2338
峰	-11.2338
己卯	-11.2338
稿	-11.2339
監國	-11.2339
擠	-11.2339
實難	-11.234
刑部郎中	-11.234
䜟	-11.234
延綏	-11.234
賦詩	-11.234
貎	-11.234
潁川侯	-11.234
彘	-11.2341
月二十五日	-11.2341
蠡	-11.2341
已久	-11.2341
頡	-11.2342
斧鉞	-11.2342
改北	-11.2347
陶仲文	-11.2347
安燾	-11.2347
李清臣	-11.2347
一舉而	-11.2349
動静	-11.2349
樂安	-11.2351
錢帛	-11.2352
襄敏	-11.2352
第八子	-11.2353
叡	-11.2354
納諌	-11.2355
㑴	-11.2358
相持	-11.2358
器用	-11.236
咸寧	-11.2363
補音它	-11.2365
閣老	-11.2365
寡君	-11.2366
宦官	-11.2371
雍氏	-11.2373
糧食	-11.2382
諸夷	-11.2382
授官	-11.2383
征討	-11.2384
步軍	-11.2384
萬年	-11.2386
五十里	-11.2387
烏舍	-11.2398
遣行人	-11.2398
正六品	-11.24
助教	-11.24
不設	-11.2401
乾徳	-11.2407
踰年	-11.2408
凡九	-11.2412
蒲州	-11.2413
文德	-11.2414
大興	-11.2414
近習	-11.2415
凡二十	-11.2415
永康	-11.2415
傳云	-11.2417
仁孝	-11.2418
環州	-11.242
城外	-11.2422
各有差	-11.2424
西川	-11.2427
此類	-11.2429
徃來	-11.2434
陛下若	-11.2436
俟其	-11.2442
攻取	-11.2445
二十人	-11.2446
子男	-11.245
參議	-11.2451
八疋	-11.2454
地勢	-11.2459
亦難	-11.2459
五里	-11.2462
魯哀	-11.2462
歴城	-11.2462
亳州	-11.2465
諭之曰	-11.2466
復奏	-11.2466
補音息	-11.2468
永樂二十二年	-11.2469
奚齊	-11.2471
五百人	-11.2474
不附	-11.2475
犯法	-11.2476
蜀王	-11.2476
國子生	-11.2476
四表裏	-11.2481
萬八千	-11.2483
邕州	-11.2489
欲求	-11.2495
南直𨽻	-11.2504
一疋	-11.2514
死亡	-11.2516
五色	-11.2517
胡氏	-11.2518
詔有司	-11.252
魏國公	-11.252
無一人	-11.2522
管事	-11.2524
之迹	-11.2526
甞君	-11.2533
由狀元	-11.2537
舉動	-11.2538
周祖	-11.254
二百石	-11.2551
江州	-11.2552
劉摯言	-11.2554
治天下	-11.256
去就	-11.2563
禮畢	-11.2563
二百餘	-11.2565
商議	-11.2569
萬國	-11.2569
志在	-11.2569
字姚同	-11.2571
禮部尚書文淵閣大學士	-11.2576
朱能	-11.258
燕昭	-11.2581
渡河	-11.2587
多士	-11.2599
竊以	-11.2605
並進	-11.2612
之福也	-11.2619
由進士九年任右	-11.2621
十八人	-11.2624
正徳二年	-11.2627
所望	-11.263
委質	-11.263
五十四	-11.2636
守忠	-11.2636
衆心	-11.2643
何敢	-11.2643
誠能	-11.2645
禮物	-11.2645
二百人	-11.2647
本年改	-11.2649
特命	-11.265
酣	-11.2652
浙江餘姚人由進士	-11.2656
廣徳	-11.266
此句	-11.266
特加	-11.2667
武英殿學	-11.2667
唐主	-11.2668
太監汪直	-11.2669
芻粟	-11.2692
涂	-11.2697
璁	-11.2697
紂之	-11.2699
七品	-11.2699
成陽君	-11.27
仞	-11.2701
鄂爾多斯	-11.2701
璣	-11.2702
江西安福人由	-11.2702
丸	-11.2705
藴	-11.2705
鄗	-11.2706
鴆反	-11.2707
王錫爵	-11.2708
賈昌朝	-11.2708
袵	-11.2709
邳	-11.2709
一千石	-11.271
慄	-11.271
夸	-11.271
苴	-11.2711
袂	-11.2711
平易不訾	-11.2711
年以兵部右侍郎兼僉都御史任	-11.2711
敝邑之王	-11.2711
拷	-11.2711
球	-11.2712
東閣大學士	-11.2713
綦	-11.2713
剽	-11.2713
楫	-11.2713
襟	-11.2713
璿	-11.2713
揣	-11.2714
北地	-11.2715
翰林學士承㫖	-11.2716
改南	-11.2716
跋	-11.2716
瞿	-11.2716
不剛不柔	-11.2717
綵幣八表裏	-11.2717
霞	-11.2717
咠	-11.2717
騏	-11.2717
不可勝數	-11.2717
右寵禄光大	-11.2717
詎	-11.2717
羮	-11.2718
鈔一百錠	-11.2718
𢎞農	-11.2718
月初八日	-11.2718
孝成王	-11.2718
牡	-11.2718
忝	-11.2718
頋	-11.2719
奕	-11.2719
奢侈	-11.2719
太醫院	-11.2719
伏兵	-11.272
蒋	-11.272
榮祿大夫	-11.272
延和殿	-11.2721
儉約	-11.2722
丘濬	-11.2723
猾	-11.2723
右俱寵禄光大	-11.2724
隼	-11.2725
韓縝	-11.2726
假借	-11.2726
棣	-11.2728
孕	-11.2729
先聖	-11.2729
吕夷簡	-11.273
輔弼	-11.2732
追贈	-11.2732
兼侍讀	-11.2733
惠文王	-11.2733
弓箭手	-11.2733
曰某	-11.2734
銅錢	-11.2734
跣	-11.2734
鹽鐵	-11.2735
疚	-11.2738
平涼	-11.2739
可畏	-11.2739
藪	-11.2739
上尊號	-11.2741
進士及第	-11.2742
時務	-11.2742
商量	-11.2745
左庶子	-11.2746
萬四千	-11.2751
左副將軍	-11.2751
曰無考	-11.2751
長驅	-11.2752
若之何	-11.2753
監督	-11.2753
㦤	-11.2755
不拘	-11.2756
邊將	-11.2758
執中	-11.2759
中牟	-11.2759
乃退	-11.2759
西平侯	-11.276
害民	-11.2761
張綵	-11.2764
文選	-11.2764
杜衍	-11.2767
招納	-11.277
分其地	-11.2771
張昇	-11.2773
經略	-11.2775
光庭	-11.2776
草木	-11.2777
樂羊	-11.2783
宿衛	-11.2783
分畫	-11.2783
秦地	-11.2784
考校	-11.2784
尚寶	-11.2784
才能	-11.2785
寳石	-11.2786
衛指揮僉事	-11.2787
西平	-11.2789
望風	-11.279
一百兩	-11.2791
由進士八年任右	-11.2791
朱榮	-11.2801
妃王氏	-11.2805
聖祖	-11.2805
建安	-11.2809
用度	-11.281
田里	-11.2812
詳見	-11.2818
昭明	-11.2819
兼掌	-11.282
合於齊	-11.2824
左右皆	-11.2832
庶政	-11.2833
萬全	-11.2834
𥙷曰姚本	-11.2838
於戲	-11.2841
百餘年	-11.2841
銀五十兩	-11.2844
無窮之	-11.2851
有功者	-11.2854
二十表裏	-11.2858
彭時	-11.2859
疑即	-11.2859
諭德	-11.2863
言訖	-11.2865
天㑹四年	-11.2865
集議	-11.2866
四十七	-11.2873
夏州	-11.2874
正德元年	-11.2883
八十一	-11.2888
萬厯十年	-11.2893
牛馬	-11.2899
中宫	-11.2906
所向	-11.291
下情	-11.2911
分遣	-11.2915
事迹	-11.2917
何以知	-11.2919
乞歸	-11.292
三鎮	-11.2921
繼元	-11.2922
萬斤	-11.2924
明皇	-11.2933
王憲	-11.2936
武英	-11.2937
江北	-11.2939
黨人	-11.2948
開元	-11.2955
因舊	-11.2956
臣臣	-11.2956
還京	-11.296
補音七	-11.2961
諸郡	-11.2961
林反	-11.2962
來獻	-11.2964
日新	-11.2967
二年三月	-11.2969
命有司	-11.2977
守節	-11.2993
由舉人	-11.2999
而不言	-11.3005
申明	-11.3008
宣和	-11.3009
李榮	-11.3018
交惡	-11.3019
二十兩	-11.3023
成法	-11.3027
還朝	-11.3032
六師	-11.3032
改過	-11.3035
噶爾	-11.3046
皇天	-11.3048
上將軍	-11.3048
修徳	-11.305
敗走	-11.3057
大破之	-11.3064
萬民	-11.3074
五經	-11.3076
何憂	-11.308
公主下嫁	-11.3091
賞銀	-11.3092
㫤	-11.3095
邱	-11.3095
匏	-11.3096
澶州	-11.3098
寂	-11.3099
沆	-11.31
熱	-11.31
鬯	-11.3101
安逺侯	-11.3102
鄢郢	-11.3102
芒卯	-11.3103
遵裕	-11.3104
劣	-11.3104
蔣冕	-11.3105
飄	-11.3105
陳乞	-11.3105
直𨽻崑山人	-11.3105
奉國將軍	-11.3106
毀	-11.3106
胷	-11.3106
丒	-11.3106
義渠君	-11.3106
謂韓王曰	-11.3107
澳	-11.3108
闘	-11.3108
悠	-11.3108
頑	-11.3108
余有丁	-11.3108
購	-11.3109
中書舎人	-11.311
廐	-11.311
豐城侯	-11.3111
隐	-11.3111
譎	-11.3111
和比於理	-11.3111
隋煬帝	-11.3113
恂	-11.3113
辛垣衍	-11.3113
邏	-11.3113
翻	-11.3113
靖江王	-11.3113
綾	-11.3114
鍪	-11.3114
鹵	-11.3114
刁	-11.3115
按察僉事	-11.3115
謹身殿	-11.3116
秘閣	-11.3116
白金五百兩	-11.3117
鼈	-11.3117
事機	-11.3117
巡按御史	-11.3117
箸	-11.3118
徔	-11.3118
㤗	-11.3119
乙卯	-11.3119
犂	-11.3119
吕文煥	-11.312
湜	-11.312
垂拱	-11.312
靼	-11.312
燎	-11.312
翕	-11.3121
涸	-11.3121
歆	-11.3122
講官	-11.3123
暱	-11.3123
黯	-11.3123
暹	-11.3124
粉	-11.3125
之為去聲	-11.3127
未便	-11.3128
宣徽使	-11.3128
永樂二年	-11.3129
章張儀	-11.3129
婉	-11.3129
龍山	-11.3131
浙西	-11.3133
縱火	-11.3135
裒	-11.3135
甘羅	-11.3136
李昉	-11.3138
說見後	-11.3139
奬諭	-11.3139
被劾	-11.3139
概	-11.314
繼冲	-11.3141
招撫	-11.3141
新序同	-11.3142
萬乗之國	-11.3143
厲王	-11.3143
沙漠	-11.3143
節鉞	-11.3146
丕鄭	-11.3148
不答	-11.315
二帝	-11.3151
武靈	-11.3152
四十一	-11.3154
不予	-11.3155
補音居	-11.3156
巡按	-11.3157
李文忠	-11.3157
永樂十二年	-11.3158
朝服	-11.3159
晉文公	-11.3163
加兼太子太傅	-11.3163
不可曉	-11.3164
文端	-11.3165
從一品	-11.3166
彌逺	-11.3168
邊防	-11.3168
叅軍	-11.3173
九重	-11.3175
無算	-11.3175
曽布	-11.3182
保傅	-11.3182
士竒	-11.3184
良久	-11.3188
復圭	-11.3193
祖禹	-11.3194
推誠	-11.32
不自安	-11.3202
老母	-11.3205
仁廟	-11.3211
間道	-11.3218
宣廟	-11.3218
東郡	-11.3223
要害	-11.3226
萬六千	-11.3231
南京守備	-11.3234
泣下	-11.3237
臨江	-11.3246
郊祀	-11.3252
使使者	-11.3253
克終	-11.3256
遇賊	-11.3257
品秩	-11.326
姚氏	-11.3265
王安石曰	-11.3269
大悦	-11.3271
進貢	-11.3274
坐視	-11.3277
觀望	-11.3278
累朝	-11.3281
三年三月	-11.3283
無疆	-11.3286
厯反	-11.3288
孰是	-11.3288
忠定	-11.3296
贈禮部尚書	-11.3296
二十年任	-11.3298
也然而	-11.33
淮南子	-11.33
天順七年	-11.3304
一夕	-11.3305
七十三	-11.3313
營造	-11.3314
諭徳	-11.3315
戰敗	-11.3317
不可得而	-11.3321
辭免	-11.3323
陳軫曰	-11.3326
魏策	-11.3327
承制	-11.3329
滁州	-11.333
不早	-11.3334
三表裏	-11.3347
誰敢	-11.3349
太監谷大用	-11.335
虞書	-11.3352
泗州	-11.3355
月二十日	-11.336
見趙䇿	-11.3361
謹奉	-11.3362
可謂知	-11.3373
死難	-11.3382
並許	-11.3384
金石	-11.3385
私第	-11.3393
弗能	-11.3399
管内	-11.3406
來報	-11.3418
九年任左	-11.3419
五年任左	-11.3419
聖主	-11.3434
文廟	-11.3434
卿大夫	-11.3434
州觀察使	-11.3438
秦惠王	-11.3438
三代之	-11.3439
世基	-11.3448
韓策	-11.3449
百五十兩	-11.3461
求和	-11.3462
𢎞治元年	-11.3463
竊見	-11.3463
奏曰臣	-11.3467
問之曰	-11.3467
閣臣	-11.3469
合祭	-11.3475
二十二年任右	-11.3481
每日	-11.3483
儒學	-11.3485
六十五	-11.3494
上供	-11.3499
覿	-11.3502
正統元年	-11.3504
塊	-11.3506
運糧	-11.3506
帝號	-11.3506
不能盡	-11.3508
孟子曰	-11.3509
窟	-11.3509
蚌	-11.351
謂公叔曰	-11.3512
吟	-11.3514
義理	-11.3514
灌頂	-11.3515
輗	-11.3515
烹	-11.3516
腸	-11.3516
成敗	-11.3517
屠滽	-11.3517
衛喇特	-11.3517
陜西咸寧人	-11.3518
雋	-11.3518
鶻	-11.3518
鑠	-11.3519
阿固達	-11.3519
洪熙元年	-11.3519
翰林院侍講學士	-11.352
怵	-11.352
著作郎	-11.352
𤦺	-11.3521
浙江仁和人	-11.3522
轡	-11.3522
淖齒	-11.3522
嘉靖乙未進士	-11.3523
電	-11.3523
逈	-11.3523
謄録	-11.3523
箠	-11.3524
徐廣云	-11.3524
杰	-11.3524
幟	-11.3524
蹤	-11.3524
駞	-11.3524
鶴齡	-11.3525
嘉靖丁未進士萬厯	-11.3525
刪	-11.3525
詈	-11.3525
醢	-11.3526
慚	-11.3527
覃	-11.3527
邢恕	-11.3527
司經局洗馬	-11.3527
敞	-11.3527
字書無	-11.3527
蒿	-11.3528
勵精	-11.3528
蹕	-11.3528
慨	-11.3528
潼	-11.3528
涯	-11.3529
髠	-11.3529
鈔三十錠	-11.3529
三十九	-11.3529
李文達	-11.3529
廓	-11.353
陞賞有差	-11.353
榆次	-11.353
魏文侯	-11.353
傅友徳	-11.3531
役錢	-11.3531
禘	-11.3532
媒	-11.3532
棧	-11.3532
甚憎	-11.3532
貌辯	-11.3533
大長公主	-11.3533
技	-11.3534
砥	-11.3535
攀	-11.3535
縻	-11.3535
眇	-11.3536
裹	-11.3536
胡宗愈	-11.3536
卬	-11.3536
荀卿	-11.3537
致仕加	-11.3538
伏覩	-11.3538
刑部侍郎	-11.3538
聳	-11.3539
勒停	-11.3539
交趾	-11.3539
跟	-11.354
長公主	-11.354
太子賔客	-11.354
治以重罪	-11.354
黶	-11.354
鷙	-11.3542
弓矢	-11.3542
賑濟	-11.3542
曙	-11.3543
隳	-11.3543
柔質慈民	-11.3544
郭勛	-11.3545
袋	-11.3545
帯	-11.3545
負芻	-11.3545
攬	-11.3547
階勲	-11.3547
餘黨	-11.3547
陞一級	-11.3547
户部郎中	-11.3548
嗣薨壽六十	-11.3549
畿内	-11.355
暴露	-11.355
韓𤦺	-11.3551
卽	-11.3551
南征	-11.3551
誓約	-11.3553
樁	-11.3554
正徳元年	-11.3555
華亭	-11.3555
訓練	-11.3555
飫	-11.3555
國號	-11.3556
馮京	-11.3556
箇	-11.3557
御崇政殿	-11.3559
由鄉舉	-11.356
來援	-11.356
三百人	-11.356
皇甫	-11.3561
襄毅	-11.3563
招諭	-11.3568
正統三年	-11.3568
三百疋	-11.3569
諌諍	-11.3573
併力	-11.3573
趙抃	-11.3575
從二品	-11.3576
尊卑	-11.3576
牛玉	-11.3577
慶雲	-11.3579
權衡	-11.3586
負海	-11.3587
補音芳	-11.3587
共工	-11.3591
公孤	-11.3594
千載	-11.3595
太宗皇帝	-11.3595
金幣	-11.3598
水陸	-11.3599
懷忠	-11.3599
太祖太宗	-11.36
親筆	-11.3602
崇貴	-11.3608
麟州	-11.3609
都堂	-11.361
追奪	-11.3611
冠服	-11.3612
田况	-11.3614
就便	-11.3622
經費	-11.3622
靈武	-11.3626
汾水	-11.3635
親親	-11.3637
四岳	-11.3642
不朽	-11.3643
由進士十年任右	-11.3644
客卿	-11.3648
謂左右曰	-11.3648
等項	-11.3651
怨望	-11.3656
文幣	-11.3657
二三子	-11.3661
臣願陛下	-11.3665
畏威	-11.3667
草制	-11.3668
聖恩	-11.367
大雨	-11.3673
福州	-11.3673
慈仁	-11.3675
御批	-11.3677
上疏曰	-11.3695
仁聖	-11.3695
清逺	-11.3701
服色	-11.3703
講求	-11.3704
補音待	-11.3704
降表	-11.3709
責降	-11.3709
内殿	-11.3718
六卿	-11.3722
朕每	-11.3723
楊畏	-11.3732
大畧	-11.3735
退朝	-11.3735
早朝	-11.3735
蔡州	-11.374
畧云	-11.3747
五六	-11.3752
薊州	-11.3753
皇祖	-11.3758
衆議	-11.376
鈔八十錠	-11.3766
錦衣指揮	-11.3767
全義	-11.3772
康僖	-11.3774
百餘里	-11.3775
實授	-11.3779
殺身	-11.3782
棄城	-11.3793
第一子	-11.3793
伯夷	-11.38
臣子之	-11.3803
皇弟	-11.3806
成祖	-11.381
宫觀	-11.3811
四十萬	-11.3811
殺我	-11.3815
中山君	-11.3828
福建莆田人	-11.3836
月十六日	-11.3838
通好	-11.3839
小心	-11.3842
諸處	-11.3845
世孫	-11.3856
政教	-11.3858
變易	-11.3859
光祿	-11.386
交章	-11.3866
穆爾	-11.3869
異議	-11.3869
詩書	-11.3869
門下省	-11.3874
居住	-11.3878
由進士十二年任右	-11.3881
林文	-11.389
兖	-11.3892
魯昭	-11.3892
所撰	-11.3895
諺	-11.3907
聽政	-11.3912
右庶子	-11.3929
太原府	-11.393
洪武四年	-11.3934
賽	-11.3941
訕	-11.3945
邇英閣	-11.3947
冦凖	-11.3948
雒	-11.395
軼	-11.3951
尔	-11.3951
國子監祭酒	-11.3951
彩	-11.3952
鱗	-11.3952
歐	-11.3952
毐	-11.3953
炭	-11.3953
樵	-11.3953
偵	-11.3954
繭	-11.3955
奨	-11.3956
猖	-11.3956
濕	-11.3956
喉	-11.3956
辞	-11.3956
由進士十八年任右	-11.3956
聪	-11.3957
絞	-11.3957
秘書丞	-11.3957
桂蕚	-11.3958
軏	-11.3958
白金三百兩	-11.3958
藩邸	-11.3959
宣徽南院使	-11.3959
鈔四百錠	-11.396
鈐	-11.396
幄	-11.396
應事有功	-11.396
欽天監	-11.396
抛	-11.396
鶉	-11.396
儂	-11.3961
方獻夫	-11.3961
脚	-11.3962
靖康元年	-11.3962
五國伐秦	-11.3962
睪	-11.3963
毛澄	-11.3963
王巖叟	-11.3963
慟哭	-11.3964
栗	-11.3964
洩	-11.3964
璪	-11.3965
貺	-11.3965
鋌	-11.3965
闡	-11.3965
箋	-11.3966
按察司	-11.3966
錫哩	-11.3966
㐫	-11.3966
翳	-11.3966
厠	-11.3966
為天下笑	-11.3967
未可知也	-11.3967
纒	-11.3967
巒	-11.3967
䏻	-11.3968
資政殿學士	-11.3968
太平治迹統𩔖卷	-11.3968
倨	-11.3968
韓傀	-11.3969
撒	-11.3969
詬	-11.3969
麤	-11.397
空虚	-11.397
劉珝	-11.397
隆慶四年	-11.397
悞	-11.3971
祥瑞	-11.3971
翀	-11.3971
伎	-11.3972
汁	-11.3973
申飭	-11.3973
唐雎	-11.3973
滔	-11.3974
愕然	-11.3974
虎賁	-11.3974
坑	-11.3974
圜丘	-11.3975
文天祥	-11.3975
洪武初年	-11.3976
賜諡	-11.3976
時不可考	-11.3977
韓非子	-11.3977
崑山	-11.3977
頃刻	-11.3977
𦂳	-11.3978
囘籍	-11.3978
刑部主事	-11.3979
駐泊	-11.398
籥	-11.3982
副千户	-11.3982
萇	-11.3982
後患	-11.3983
稍稍	-11.3983
山陽君	-11.3984
臨軒	-11.3984
奢香	-11.3985
親近	-11.3985
進士出身	-11.3986
跖	-11.3986
廬陵	-11.3987
流血	-11.3988
蒼生	-11.3988
三千人	-11.399
唯唯	-11.399
刺客	-11.399
唐尚書云	-11.3994
下所司	-11.3994
條例	-11.3998
停止	-11.4001
張鋭	-11.4003
太祖皇帝	-11.4004
縣尉	-11.4006
府通判	-11.401
唱名	-11.4013
帳前	-11.4014
正七品	-11.4017
耶律	-11.4019
追諡	-11.4021
嵗貢	-11.4025
六員	-11.4029
補音式	-11.4034
司農寺	-11.4035
夏侯	-11.4035
尹直	-11.4035
寒心	-11.4036
廷玉	-11.4041
豫章	-11.4043
取回	-11.4046
學校	-11.4051
箕子	-11.4053
供應	-11.4053
嘉靖四年	-11.4054
山谷	-11.4059
補音羊	-11.4063
梁祖	-11.4065
魯大夫	-11.4072
毒反	-11.4079
尚書左丞	-11.408
夾攻	-11.409
存留	-11.4093
忠肅	-11.4094
吳越	-11.4095
四十錠	-11.4098
新建	-11.4106
事務	-11.4113
雄州	-11.4114
真定府	-11.4123
一千五百	-11.4128
不可輕	-11.4146
舟中	-11.416
都給事中	-11.416
擒獲	-11.4163
二表裏	-11.4168
人之情	-11.4172
先期	-11.4174
到日	-11.4177
瑪哈	-11.4178
召試	-11.4185
罪狀	-11.4192
加太保	-11.4193
闗南	-11.4199
征北	-11.4204
豉	-11.4204
建文四年	-11.4211
再贈	-11.4219
良善	-11.4224
應奉	-11.4228
加少傅	-11.4228
滄	-11.4231
一本標	-11.4246
曰昔者	-11.4246
得其人	-11.4263
天威	-11.4264
西面	-11.4268
洪武十三年	-11.4284
保忠	-11.4287
兵勢	-11.4311
境内	-11.432
二萬人	-11.4323
麻布	-11.4329
狀元及第	-11.4331
家語	-11.4333
刑獄	-11.4336
細故	-11.4339
不得志	-11.434
嗣薨壽	-11.434
嘉靖三年	-11.4358
首級	-11.4358
輔政	-11.4358
七八	-11.4364
鏊	-11.4369
据	-11.4397
饌	-11.4397
襲封衍聖公	-11.4398
烏庫哩	-11.4401
嚳	-11.4402
勃鞮	-11.4402
弋	-11.4403
湣	-11.4404
探花	-11.4405
竒塔特	-11.4405
䦨	-11.4405
理部事	-11.4405
納克楚	-11.4406
由此觀之	-11.4406
俱米鈔中半兼支	-11.4406
辛丒	-11.4407
浙江錢塘人	-11.4407
洞庭	-11.4408
諌議大夫	-11.4408
遴	-11.4408
左春坊大學士	-11.4408
讙	-11.4408
戰勝攻取	-11.4409
縶	-11.4409
澮	-11.4409
黿	-11.4409
証	-11.441
牾	-11.4411
臭	-11.4412
岀	-11.4412
扁	-11.4412
陳堯叟	-11.4413
廖永忠	-11.4413
肝	-11.4414
研	-11.4414
氓	-11.4415
悃	-11.4415
著作佐郎	-11.4416
二年六月	-11.4416
粤	-11.4416
鈺	-11.4416
祉	-11.4417
右俱温良好樂	-11.4417
汪廣洋	-11.4418
戬	-11.4418
庚戍	-11.4418
四衛喇特	-11.4419
文武羣臣	-11.4419
祕	-11.4419
站	-11.4419
翰林院編修	-11.442
兵部尚書兼	-11.442
樞宻副使	-11.442
堅壁	-11.442
架	-11.442
蠶	-11.4421
殯	-11.4422
羔	-11.4422
謾	-11.4422
邃	-11.4423
慤	-11.4423
張孚敬	-11.4423
君臣之義	-11.4423
匣	-11.4424
侵掠	-11.4424
癰	-11.4424
由榜眼	-11.4424
穆珍	-11.4424
錐	-11.4425
驕奢	-11.4425
見侯志	-11.4425
冡	-11.4426
㳂邊	-11.4426
精鋭	-11.4427
烏撒	-11.4427
諄	-11.4427
提㸃	-11.4427
瑤	-11.4428
篇之辭	-11.4428
縱横	-11.4428
舉明經	-11.4428
相接	-11.4428
竣	-11.4429
煎	-11.443
慶基	-11.443
郭斡	-11.443
㝠	-11.443
尺寸	-11.4431
濱	-11.4432
災傷	-11.4432
佔據	-11.4432
霽	-11.4432
哥	-11.4433
渴	-11.4433
沽	-11.4433
月二十四日	-11.4434
遘	-11.4434
右俱敬順事上	-11.4435
㮚	-11.4435
曉諭	-11.4435
為之奈何	-11.4435
僨	-11.4436
杞	-11.4436
獄訟	-11.4437
白圭	-11.4437
顆	-11.4437
踣	-11.4437
位郡縣主君	-11.4437
商旅	-11.4438
陳友諒	-11.4439
繼勛	-11.4439
熟慮	-11.4439
白金五十兩	-11.4439
赴援	-11.4441
蓺	-11.4442
官貟	-11.4442
步騎	-11.4444
宋濓	-11.4444
玄素	-11.4445
考課	-11.4445
郊廟	-11.4445
由舉人才	-11.4446
仁宗皇帝	-11.4446
慰勞	-11.4446
祥符	-11.4448
狠	-11.4448
感動	-11.4449
姑息	-11.4451
兵部郎中	-11.4452
慈仁短折	-11.4455
宣撫使	-11.4457
罷黜	-11.4457
黄鐘	-11.4457
陳宜中	-11.4461
問其故	-11.4462
餘姚	-11.4468
太息	-11.4474
潤州	-11.4475
供給	-11.4475
鈔二萬	-11.448
解額	-11.448
劉滬	-11.448
兮反	-11.4483
金齒	-11.4485
子鎮國將軍	-11.4485
藥師	-11.4488
遣内侍	-11.449
萬幾	-11.4492
東閣	-11.4499
典籍	-11.4501
馮勝	-11.4503
離間	-11.4508
𢎞治十八年	-11.4511
置酒	-11.4515
原籍	-11.4517
西面而	-11.4517
水草	-11.4519
宗族	-11.4524
㐮子	-11.453
集賢	-11.4533
方畧	-11.4533
曲直	-11.4539
虞卿曰	-11.4545
者莫如	-11.4547
奸謀	-11.4548
尋復	-11.455
呉起	-11.456
蘄州	-11.4568
月二十二日	-11.4574
加少師	-11.4574
除授	-11.4583
與楚戰	-11.4586
左都督贈	-11.4587
萬厯十二年	-11.4593
入仕	-11.4596
加太子太傅	-11.4608
遙	-11.4608
永樂二十二年以	-11.461
功賞	-11.4615
少師大學士	-11.4622
講和	-11.4626
不戰而	-11.463
秦之攻	-11.4632
朕躬	-11.4642
崇徳	-11.4646
洛反	-11.4648
以成其	-11.465
三年正月	-11.4659
不佞	-11.4661
存焉	-11.4665
薦舉	-11.4677
正曰姚本	-11.4693
二十里	-11.4725
甌	-11.4735
如是則	-11.4739
不能支	-11.474
閏二月	-11.4749
月餘	-11.4757
守備太監	-11.478
祖父	-11.4794
改諡	-11.4797
由進士二年任右	-11.4798
康靖	-11.4802
上下相	-11.4817
五十七	-11.4817
洪台吉	-11.4845
前来	-11.4866
遵誨	-11.4869
迁	-11.4871
緤	-11.4873
土黙特	-11.4873
兵屯	-11.4877
伊勒都	-11.4878
公孫𢎞	-11.4881
潢	-11.4882
范睢	-11.4882
芊	-11.4882
黥	-11.4882
孥	-11.4882
愉	-11.4883
斜	-11.4884
上尊諡曰	-11.4884
少師太子太師吏部尚書華蓋殿大學士	-11.4884
葦	-11.4884
澆	-11.4885
申不害	-11.4885
直𨽻宜興人	-11.4885
璲	-11.4885
直𨽻無錫人	-11.4885
嘯	-11.4886
另	-11.4886
燫	-11.4887
中流矢	-11.4887
們	-11.4887
刎	-11.4887
亶	-11.4888
戡	-11.4888
鵠	-11.4889
控扼	-11.4889
薨合葬	-11.4889
擿	-11.489
秋毫	-11.489
筋	-11.4891
直𨽻江都人	-11.4891
莊辛	-11.4891
瑚圖克	-11.4891
療	-11.4893
杜赫	-11.4893
嗾	-11.4894
豫讓	-11.4894
淪	-11.4894
監察御史裏行	-11.4894
祿一千二百石	-11.4895
葭	-11.4895
戀	-11.4896
訂	-11.4896
駒	-11.4896
須臾	-11.4896
玷	-11.4896
峯	-11.4897
鼠	-11.4898
琰	-11.4898
撻	-11.4898
栖	-11.4898
鄜延路	-11.4898
諗	-11.4898
趕	-11.4899
巽	-11.4899
搢	-11.4899
妓	-11.4899
厘	-11.4899
童貫	-11.49
篡	-11.49
縣西北	-11.49
羽翼	-11.4901
旒	-11.4901
嚴訥	-11.4901
鞏昌	-11.4902
聦明	-11.4902
堞	-11.4903
冢宰	-11.4903
綵幣六表裏	-11.4903
綂	-11.4903
偹	-11.4904
模	-11.4904
貞觀之初	-11.4904
眞	-11.4905
揺	-11.4905
臼	-11.4905
臚	-11.4905
沈括	-11.4905
王堯臣	-11.4905
拏	-11.4906
師徒	-11.4906
上嘉納之	-11.4906
彼處	-11.4906
鮒	-11.4906
鳩	-11.4907
定陶	-11.4907
泯	-11.4907
茶鹽	-11.4908
坎	-11.4908
从	-11.4909
氐	-11.491
奔競	-11.4911
元祐元年	-11.4912
絀	-11.4913
廂軍	-11.4915
蘇頌	-11.4915
尹洙	-11.4916
完顔	-11.4916
陳旭	-11.4916
珙	-11.4916
款	-11.4917
漢文帝	-11.4919
都巡檢	-11.4919
雱	-11.4919
昭睢	-11.4919
會稽	-11.4919
徃徃	-11.4919
見前成化十	-11.492
誅戮	-11.492
江淵	-11.4921
降㫖	-11.4924
搆難	-11.4924
財賦	-11.4925
亦因之	-11.4925
宰輔	-11.4926
竭誠	-11.4926
推戴	-11.4927
一千二百	-11.4931
嗛	-11.4931
媯	-11.4935
二十餘年	-11.4936
奔走	-11.4936
羊酒	-11.494
叅議	-11.4944
殆盡	-11.4945
晏然	-11.4947
一百八十	-11.4949
地祗	-11.495
數百里	-11.495
逆瑾	-11.4951
每員	-11.4952
邊鄙	-11.4952
定奪	-11.4953
委曲	-11.4953
藝文	-11.4955
薨壽二十	-11.4955
數千里	-11.4956
尊號	-11.4958
掌印	-11.4962
吏員	-11.4962
鄭雍	-11.4962
延英	-11.4966
羣小	-11.4967
剛平	-11.498
器甲	-11.498
乞休	-11.498
稽古	-11.4983
延慶	-11.4985
元亨	-11.4991
湖州	-11.4998
除放	-11.4999
敵騎	-11.5002
護衛	-11.5005
十八萬	-11.5006
見魏䇿	-11.5007
三十餘年	-11.5009
鴻台吉	-11.5014
考察	-11.5017
十三年任右	-11.5017
孫升	-11.5018
補音苦	-11.5022
條奏	-11.5027
一百六十	-11.5031
聖諭	-11.5032
臨清	-11.5032
補音魚	-11.5039
由進士十三年任右	-11.5043
友徳	-11.5044
允恭	-11.505
逺慮	-11.5051
㫖揮	-11.5053
子噲	-11.5055
僉都	-11.5059
甚喜	-11.506
建文元年	-11.5062
告諭	-11.5063
五年二月	-11.5069
加之以	-11.507
千古	-11.5077
第三十	-11.5079
臣等所	-11.5081
七十九	-11.5086
昌朝	-11.5095
軍儲	-11.5099
何患	-11.5106
洪武元年任	-11.5113
數目	-11.5114
吏部尚書加	-11.5122
鳳陽	-11.5126
遥反	-11.5145
嵗禄	-11.5152
宣太后	-11.5158
有事於	-11.516
之來也	-11.5168
割三鎮	-11.521
萬厯二年	-11.5238
魯襄	-11.5243
賜黄金	-11.5255
莊靖	-11.5272
統領	-11.5275
宗鼎	-11.5284
迎戰	-11.5297
旗校	-11.5302
不知何許人洪武	-11.5329
州判官	-11.5345
恭襄	-11.5351
八十六	-11.5354
閼	-11.5354
䧏	-11.5366
謂宰相曰	-11.5367
祼	-11.537
綽爾濟	-11.5373
輛	-11.5374
愕	-11.5376
怡	-11.5376
提督軍務	-11.5378
阿嚕台	-11.5378
騶	-11.5378
布尼雅實哩	-11.5378
誹謗	-11.5379
珩	-11.5379
椿	-11.538
套	-11.538
糜	-11.538
新建伯	-11.5381
公輸般	-11.5384
萼	-11.5384
羡	-11.5385
蔓	-11.5385
浙江慈谿人	-11.5386
埊	-11.5386
悴	-11.5387
端明殿學士	-11.5387
四川内江人	-11.5387
邜	-11.5388
右俱履正志和	-11.5388
咫	-11.5389
緱	-11.5389
錞	-11.5389
層	-11.5389
博克達	-11.5389
何以知其然也	-11.5389
澗	-11.539
豹房	-11.539
邈	-11.539
鰲	-11.5391
闚	-11.5391
子圉	-11.5391
集賢院	-11.5391
勾踐	-11.5391
漬	-11.5391
琬	-11.5392
右履正志和	-11.5392
鉏	-11.5392
罸	-11.5393
薨無子弟	-11.5393
輻	-11.5393
霑	-11.5393
掌部事	-11.5394
壑	-11.5394
段干	-11.5394
總小旗	-11.5394
鳳翔	-11.5394
繖	-11.5394
阿勒坦汗	-11.5394
乍	-11.5394
筦	-11.5394
炙	-11.5394
鴈門	-11.5395
侑	-11.5395
龍圖閣直學士	-11.5395
腐	-11.5395
昵	-11.5395
欽定四庫全書太平治迹統𩔖卷	-11.5396
片	-11.5396
塋	-11.5396
丐	-11.5396
臆	-11.5396
郭朴	-11.5397
陀	-11.5397
塗炭	-11.5397
翫	-11.5397
賽音	-11.5398
純行不爽	-11.5398
賈誼	-11.5398
詵	-11.5398
誾	-11.5398
戰而勝	-11.5398
𬋩	-11.5399
樸	-11.5399
掾	-11.5399
户部左侍郎	-11.54
伉	-11.54
景祐元年	-11.54
兵馬指揮	-11.5401
礙	-11.5401
晏殊	-11.5401
儔	-11.5402
蠟	-11.5402
慟	-11.5402
虎狼	-11.5402
弃	-11.5402
摭	-11.5403
瘳	-11.5403
捽	-11.5403
稠	-11.5403
衫	-11.5403
廵按	-11.5404
廹	-11.5404
郯	-11.5404
阪	-11.5406
黜陟	-11.5406
包拯	-11.5407
鄭彊	-11.5407
紘	-11.5407
操練	-11.5407
羈	-11.5408
教坊	-11.5408
壹	-11.5408
搶	-11.5408
釐革	-11.5408
災異	-11.5408
貞觀十一年	-11.5409
蹄	-11.541
押班	-11.5411
圍邯鄲	-11.5411
溱	-11.5411
兔	-11.5411
很	-11.5411
鄶	-11.5412
洛索	-11.5412
鄂國公	-11.5412
堯俞	-11.5413
千餘里	-11.5413
种	-11.5413
查盤	-11.5413
月二十九日	-11.5415
奮擊	-11.5416
三王之	-11.5417
荀息	-11.5417
冀芮	-11.5418
霍光	-11.5418
輝祖	-11.5419
錢溥	-11.5419
陳執中	-11.542
源流	-11.542
長洲	-11.542
慈愛	-11.5421
正統七年	-11.5424
後語作	-11.5426
諸葛	-11.5426
畞	-11.5426
大名府	-11.5427
交鋒	-11.5427
姬姓	-11.5428
甲戍	-11.5428
李沆	-11.543
毛紀	-11.5431
部郎中	-11.5431
彭華	-11.5431
爕	-11.5432
左諫議大夫	-11.5432
左㕘政	-11.5435
楊畋	-11.5436
慰諭	-11.5441
京畿	-11.5442
清源	-11.5443
李筠	-11.5444
以兵部尚書加	-11.5444
竭力	-11.5445
趙簡子	-11.5445
襲爵	-11.5446
西畨	-11.5446
考滿	-11.5448
第八	-11.5457
状元	-11.5458
臺諫官	-11.546
䖍反	-11.5464
彌封	-11.5465
資序	-11.5466
長平之	-11.5467
悔過	-11.5469
冊立	-11.5471
普定	-11.5475
璽書	-11.5478
司禮太監	-11.5478
餓死	-11.5482
大将軍	-11.5482
流離	-11.5484
銀印	-11.5495
長短	-11.5497
乗車	-11.5498
兩淮	-11.5507
鄂州	-11.551
河中府	-11.5514
重賂	-11.5515
魏牟	-11.5518
革除	-11.5518
遵守	-11.5523
蒙古	-11.5526
列聖	-11.5528
任左本年	-11.553
備邊	-11.5531
厥後	-11.5531
諸族	-11.5536
京西	-11.5554
士庶	-11.5565
太學生	-11.5566
隆慶元年任	-11.5571
誰能	-11.5577
上疏論	-11.558
避難	-11.558
少詹	-11.5603
司諫	-11.5604
尚書右丞	-11.5605
江西泰和人	-11.5618
車駕至	-11.5622
聲勢	-11.5625
由進士十四年任右	-11.5638
第七	-11.566
江西泰和人由進士	-11.5668
由進士十六年任右	-11.5678
隆慶二年	-11.5685
七十五	-11.5718
科第	-11.5729
瑞安	-11.5748
千乘	-11.576
一千三百	-11.5798
千百户	-11.5817
庶一子	-11.5839
華葢殿大學士	-11.5846
𢎞治四年	-11.585
助役	-11.5864
還京師	-11.5865
正統五年	-11.5875
嘉靖十七年	-11.588
兵十萬	-11.5888
權勢	-11.5893
綺帛	-11.5893
總督宣大	-11.59
詹事府少詹事	-11.59
汪鋐	-11.5903
浙江山隂人由進士	-11.5904
刑部左侍郎	-11.5905
柰	-11.5905
嫗	-11.5905
尼瑪哈	-11.5906
餙	-11.5906
估	-11.5906
以百金	-11.5907
福建閩縣人	-11.5908
羊腸	-11.5908
曹鼐	-11.5908
澶淵	-11.5908
鴟	-11.5909
黠	-11.5909
汙	-11.5909
涕泣	-11.591
天章閣待制	-11.591
任本年免	-11.591
斡齊爾	-11.5911
左春坊左中允	-11.5911
妣	-11.5911
仐	-11.5911
黄金百兩白金	-11.5911
薫	-11.5911
酸棗	-11.5912
橐	-11.5912
馬永成	-11.5912
仲堪	-11.5912
誹	-11.5913
煦	-11.5913
栗腹	-11.5913
觸讋	-11.5913
褥	-11.5913
開府儀同三司	-11.5913
嘉靖甲辰進士	-11.5913
菲	-11.5913
豊	-11.5913
雁	-11.5913
靄翠	-11.5914
闔閭	-11.5914
㝡	-11.5915
囷	-11.5915
塔布囊	-11.5915
叅知政事	-11.5915
謂趙王曰	-11.5915
毬	-11.5915
從起義	-11.5915
巡撫都御史	-11.5915
蓮	-11.5916
景靈宫	-11.5916
飱	-11.5916
紿	-11.5916
葱	-11.5916
獬	-11.5917
囂	-11.5917
莫大焉	-11.5917
銃	-11.5917
兵科給事中	-11.5917
鄂托克	-11.5918
厝	-11.5918
不可勝紀	-11.5919
鄣	-11.5919
直𨽻合肥人	-11.5919
翰林侍讀	-11.5919
尹旻	-11.5919
綜	-11.5919
直𨽻鳯陽人	-11.5919
吕調陽	-11.592
平章軍國重事	-11.592
盥	-11.592
楹	-11.592
郭子興	-11.592
翥	-11.5921
杯	-11.5921
講筵	-11.5921
之爲去聲	-11.5921
臬	-11.5921
五年三月	-11.5921
覊	-11.5921
石璞	-11.5921
絹三疋	-11.5921
暁	-11.5921
温仁和	-11.5922
岑	-11.5922
剥	-11.5922
頰	-11.5922
趙貞吉	-11.5922
賈詠	-11.5922
飼	-11.5922
阿巴海	-11.5923
焚香	-11.5923
汜	-11.5923
許鄢陵	-11.5923
譟	-11.5923
皥	-11.5923
特穆津	-11.5923
禋	-11.5923
駐劄	-11.5923
吕不韋	-11.5923
炫	-11.5924
勦	-11.5924
枝山野記	-11.5925
旦暮	-11.5925
湫	-11.5925
煖	-11.5925
顓	-11.5925
王毅愍	-11.5925
鳯翔	-11.5925
宣撫司	-11.5925
駿馬	-11.5925
涖	-11.5926
璜	-11.5926
喟	-11.5926
三省樞宻院	-11.5926
嵗加禄米	-11.5927
兵部員外郎	-11.5927
守本官	-11.5927
棟戬	-11.5928
牝	-11.5928
璘	-11.5928
工匠	-11.5928
廼	-11.5929
珏	-11.593
疆界	-11.593
叨	-11.593
瑀	-11.593
項羽	-11.5931
墳墓	-11.5931
瞑	-11.5932
婆	-11.5932
獮	-11.5932
摶	-11.5932
郇	-11.5932
起居郎	-11.5932
賜緋	-11.5933
卻	-11.5933
合祭天地	-11.5933
瑱	-11.5933
㸔	-11.5933
孚敬	-11.5933
天章閣	-11.5933
申公時行	-11.5934
配享	-11.5934
見齊䇿	-11.5934
䙝	-11.5934
坡	-11.5934
黼	-11.5935
韓忠彦	-11.5935
為庶吉士命	-11.5935
北征陣亡	-11.5936
藩屏	-11.5936
中書樞密院	-11.5937
受禪	-11.5937
份	-11.5937
籍其家	-11.5937
彤	-11.5939
蟒	-11.5939
洒	-11.5939
王保保	-11.594
昪	-11.594
避席	-11.5941
國語韋氏解	-11.5941
吏部郎中	-11.5941
好事者	-11.5942
藝祖	-11.5944
若訥	-11.5944
從其請	-11.5944
制畧曰	-11.5945
些	-11.5945
嘉靖四十五年	-11.5946
文武大臣	-11.5951
托克	-11.5952
惶恐	-11.5952
呈獻	-11.5953
皇后姓	-11.5953
岐陽	-11.5954
淚	-11.5955
序班	-11.596
乗輿	-11.5961
斬獲	-11.5962
起居注	-11.5963
那里	-11.5964
孝友	-11.5964
諺曰	-11.5966
智高	-11.5971
張洎	-11.5973
天祚	-11.5973
亡其國	-11.5981
旬日	-11.5981
侍御	-11.5981
五霸	-11.5987
救援	-11.5988
第四等	-11.5989
帶甲	-11.5992
納其言	-11.5993
顧佐	-11.5993
欽承	-11.5994
巡視	-11.5998
後數日	-11.6003
今日之事	-11.6006
韓魏之君	-11.6008
韋注	-11.6009
撫諭	-11.6011
論劾	-11.6013
次序	-11.6013
酒酣	-11.6014
郭資	-11.6014
李綱	-11.6015
臨淮	-11.6024
邦家	-11.6025
隆慶六年	-11.6044
織金文綺	-11.6083
隋氏	-11.6095
都總管	-11.6101
浙東	-11.6173
科目	-11.6232
𥙷曰姚	-11.6252
躬親	-11.6291
三百五十	-11.6329
午門	-11.6337
收拾	-11.6341
盟誓	-11.6344
六十餘	-11.6358
右都督贈	-11.6372
太監張忠	-11.6379
兵討之	-11.6402
恭順侯	-11.6414
再以少保兼	-11.6423
二十三年任右	-11.6424
各白金	-11.6442
崑	-11.645
右俱勤學好問	-11.6453
旰	-11.6455
長孫無忌	-11.6456
䄂	-11.6458
縑	-11.6459
樗里子	-11.646
羇	-11.6462
稸	-11.6462
倪岳	-11.6462
嚴仲子	-11.6462
主順天試	-11.6463
儐	-11.6464
未之有也	-11.6464
鉛	-11.6465
聖識一切	-11.6465
嘉靖癸未進士	-11.6466
衍聖公	-11.6466
黄門侍郎	-11.6466
駿	-11.6466
直𨽻藁城人	-11.6466
直𨽻臨淮人	-11.6467
大理少卿	-11.6467
佛像	-11.6467
勾當	-11.6467
有缺誤	-11.6467
怖	-11.6467
大理評事	-11.6468
隸	-11.6469
謄	-11.6469
耜	-11.6469
瑣	-11.6469
潦	-11.6469
皐	-11.647
咫尺	-11.6471
汾隂	-11.6471
鳶	-11.6471
鬲	-11.6471
菽	-11.6471
直𨽻吳縣人	-11.6471
湔	-11.6471
縞	-11.6471
神道碑	-11.6472
直𨽻呉縣人	-11.6472
廵按御史	-11.6472
都察院右僉都御史	-11.6472
劉大夏	-11.6472
户部尚書武英殿大學士	-11.6472
李廷相	-11.6472
朱葛	-11.6472
瑩	-11.6472
訛舛	-11.6473
佃	-11.6473
倉廪	-11.6474
永謝布	-11.6474
欺㒺	-11.6474
氛	-11.6474
愜	-11.6474
浚儀	-11.6474
昕	-11.6475
姚廣孝	-11.6475
噶拉卜	-11.6475
聾	-11.6475
蓬	-11.6475
㽞	-11.6475
歐陽必進	-11.6476
李兌	-11.6476
矰	-11.6476
察哈爾	-11.6476
衘	-11.6476
鉄	-11.6476
菑	-11.6477
𠞰捕	-11.6477
貞觀之治	-11.6477
廉頗	-11.6477
枹	-11.6478
酢	-11.6478
恭裕王	-11.6478
灣	-11.6478
悉聽節制	-11.6478
芒部	-11.6478
瑁	-11.6478
鬚	-11.6478
謡	-11.6478
淶	-11.6478
丙戍	-11.6479
湯沐	-11.6479
陳以勤	-11.6479
尚書侍郎	-11.6479
州别駕	-11.6479
絡	-11.6479
上官均	-11.648
航海	-11.648
櫜	-11.6481
頴川	-11.6481
堤	-11.6481
曺彬	-11.6481
瘦	-11.6481
紓	-11.6482
絃	-11.6482
蹟	-11.6482
歉	-11.6482
帷幄	-11.6482
羲	-11.6482
工科給事中	-11.6482
鯁	-11.6483
馳驛	-11.6483
魂	-11.6483
闊	-11.6483
牖	-11.6483
不亦難乎	-11.6483
征夷將軍	-11.6483
踊	-11.6484
温囿	-11.6484
咄	-11.6484
脆	-11.6485
疆埸	-11.6485
木邦	-11.6485
秘書監	-11.6485
菴	-11.6485
舉人才	-11.6486
糗	-11.6486
滽	-11.6486
倉庫	-11.6486
斟酌	-11.6487
六科給事中	-11.6487
巴喇	-11.6487
軟	-11.6487
踴	-11.6487
碧	-11.6487
跨	-11.6488
豢	-11.6488
醇	-11.6488
右俱守禮執義	-11.6488
斟	-11.6488
砍	-11.6489
嗣薨壽七十	-11.6489
駢	-11.6489
神仙	-11.6489
傒	-11.649
簾前	-11.649
昌祚	-11.6491
冨弼	-11.6491
宙	-11.6491
陸炳	-11.6491
鄫	-11.6491
蹶	-11.6491
喚	-11.6492
蹯	-11.6492
狐突	-11.6492
龎藉	-11.6492
三年任四年	-11.6493
御集英殿	-11.6493
清濁	-11.6493
老幼	-11.6494
僮	-11.6494
緣邊	-11.6494
涵	-11.6495
衛鞅	-11.6495
史姚同	-11.6495
悌	-11.6496
禆益	-11.6496
范文虎	-11.6497
珍珠	-11.6497
宋祁	-11.6498
貂勃	-11.6499
恭儉	-11.6499
犨	-11.6499
篋	-11.6499
修起居注	-11.6499
洗馬	-11.6499
熒惑	-11.6499
平江伯	-11.65
戕	-11.65
晉語第十	-11.65
旟	-11.65
桞	-11.6501
工部郎中	-11.6501
太子中允	-11.6502
左僉都御史	-11.6502
兼侍中	-11.6504
䜴反	-11.6506
李勣	-11.6506
誥勅	-11.6506
濳	-11.6507
陳鎰	-11.6507
以名聞	-11.6507
市井	-11.6507
𥙷曰大事記	-11.6508
節儉	-11.6508
芰	-11.6508
廬江	-11.6508
殿中丞	-11.6509
宗諤	-11.651
詞頭	-11.6512
無所不至	-11.6514
姦邪	-11.6515
露布	-11.6516
宣徽	-11.652
項忠	-11.652
羊舌	-11.6521
徽宗	-11.6521
教閲	-11.6522
勘㑹	-11.6527
執政大臣	-11.6528
文侯曰	-11.6531
禮部尚書兼翰林院學士	-11.6531
免役錢	-11.6532
舊規	-11.6533
家貧	-11.6544
頓首謝	-11.6544
小兒	-11.6545
髙榖	-11.6546
壯士	-11.6548
恭僖	-11.655
壤地	-11.6551
雜職	-11.6555
公不如令	-11.6555
各該	-11.6558
分寸	-11.6563
憂勤	-11.6565
詹事府詹事	-11.6586
弇山堂别集卷四十	-11.6588
故王不如	-11.6589
景泰五年	-11.6612
雨雪	-11.6618
右少監	-11.6621
東甌	-11.6665
直𨽻山陽人	-11.6671
天順元年任	-11.6728
𢎞治二年	-11.6741
帝時為	-11.6745
試詩賦	-11.6752
宣德元年	-11.6774
萬厯六年	-11.678
諫官御史	-11.6819
十八年任左	-11.6856
天順四年	-11.6864
睿宗	-11.6885
玉帛	-11.6888
十七年任左	-11.6904
四年任左	-11.691
月二十六日	-11.6918
𢎞治十三年	-11.6925
十二年任右	-11.694
十年任左	-11.6955
都督僉事贈	-11.696
𢎞治六年	-11.6982
蔚州	-11.6995
吏部尚書文淵閣大學士	-11.7022
洪武十七年	-11.7025
長公主下嫁駙馬	-11.7026
壬	-11.7034
煬	-11.7035
泌	-11.7037
樗	-11.704
能識一切	-11.7044
濂	-11.7044
烏梁海	-11.7047
券	-11.7048
康定元年	-11.7049
張商英	-11.7049
達賴喇嘛	-11.705
見秦策	-11.705
迺	-11.705
宣大軍務	-11.705
輔國將軍	-11.7051
河南鈞州	-11.7052
慷慨	-11.7052
澧	-11.7052
攄	-11.7052
喙	-11.7054
迓	-11.7054
正曰無據	-11.7054
轉運判官	-11.7055
舖	-11.7055
王嵗支本色禄米一萬石	-11.7055
燥	-11.7055
戱	-11.7055
藁	-11.7055
柩	-11.7055
正已攝下	-11.7055
獅	-11.7055
荼毒	-11.7055
殷士儋	-11.7056
司設監	-11.7056
年任十三年致仕	-11.7056
彷	-11.7056
田子方	-11.7057
箝	-11.7058
衿	-11.7058
直𨽻婺源	-11.7058
米脂	-11.7059
鼓吹	-11.7059
當此之時	-11.7059
珊	-11.7059
明正其罪	-11.7059
陳彭年	-11.7059
後軍都督府	-11.706
陸費墀	-11.706
郴	-11.706
䡖	-11.706
縫	-11.706
清逺侯王友	-11.706
湊	-11.706
瓢	-11.706
按史傳	-11.7061
鐩	-11.7061
彞	-11.7061
華盖殿大學士	-11.7061
張士誠	-11.7062
躁	-11.7062
大亊記	-11.7062
抎	-11.7063
屡	-11.7063
龕	-11.7063
棨	-11.7063
孫士毅	-11.7063
罝	-11.7063
餅	-11.7063
月恭校上	-11.7064
肘	-11.7064
昀	-11.7064
讃	-11.7064
姿	-11.7064
吠	-11.7064
煙	-11.7064
審官院	-11.7064
仍原兼	-11.7064
調外任	-11.7064
吁	-11.7064
宛平人	-11.7064
匕首	-11.7065
媿	-11.7065
鈔三百錠	-11.7065
旌旗	-11.7065
脂	-11.7066
尚寳司	-11.7066
莭	-11.7066
濮安懿王	-11.7066
知秦州	-11.7067
總督兩廣	-11.7067
金牌	-11.7068
楊璟	-11.7068
扈駕	-11.7068
盧多遜	-11.7068
臨潼	-11.7068
億兆	-11.7068
豺狼	-11.7068
郕	-11.7069
瓜	-11.7069
迯	-11.7069
凌遲處死	-11.7069
爚	-11.7069
愛憎	-11.707
煌	-11.707
斫	-11.707
羃	-11.707
俞通海	-11.7071
刷	-11.7071
携	-11.7071
耘	-11.7071
瓛	-11.7071
諒毅	-11.7071
加兼太子太師	-11.7071
踏	-11.7072
尭	-11.7072
㕘贊	-11.7073
挽	-11.7073
馮忌	-11.7073
潁國公	-11.7073
鄳	-11.7073
俞綱	-11.7073
驎	-11.7073
熹	-11.7073
蔡卞	-11.7074
縣東北	-11.7074
擴	-11.7075
櫓	-11.7076
無乃不可乎	-11.7076
月二十八日	-11.7076
繄	-11.7077
汎	-11.7077
騎刼	-11.7077
㬱	-11.7078
曹吉祥	-11.7078
灰	-11.7079
提要	-11.7079
范百祿	-11.7079
張璁	-11.7081
低	-11.7082
狸	-11.7083
勲戚	-11.7084
右敬順事上	-11.7084
涼國公	-11.7084
權三司使	-11.7085
祓	-11.7085
一百九十	-11.7086
特奏名	-11.7086
陳升之	-11.7086
謂燕王曰	-11.7088
呉元年	-11.7088
安撫司	-11.7088
不亦可乎	-11.7088
媵	-11.7088
閭里	-11.7089
拱手	-11.7089
詳酌	-11.7089
劉璟	-11.709
鎭	-11.709
神宗皇帝	-11.7092
劉洎	-11.7092
李孜省	-11.7093
巴蜀	-11.7095
紞	-11.7097
國子司業	-11.7097
肆赦	-11.7098
叔敖	-11.7099
桓温	-11.7099
背盟	-11.7101
禮部郎中	-11.7101
桓叔	-11.7101
諸韻	-11.7103
墓志	-11.7103
扶持	-11.7103
叛逆	-11.7105
聖躬	-11.7108
謹慎	-11.7109
黎庶	-11.7109
招集	-11.7111
狐偃	-11.7111
冒籍	-11.7113
中以嗣	-11.7124
厮殺	-11.7125
武藝	-11.7127
致治之	-11.7129
安僖王	-11.7134
爵禄	-11.7161
彦澤	-11.7173
互市	-11.7198
侯子元年	-11.7221
鄜州	-11.7221
邪佞	-11.7238
巴噶	-11.7241
渝盟	-11.7243
十三嵗	-11.7254
回京	-11.7278
由進士十七年任	-11.7297
閏十一月	-11.7299
八表裏	-11.7323
豉反	-11.7344
成化四年	-11.7359
贈少師	-11.7385
十有五	-11.7421
月二十七日	-11.7497
先卒年	-11.7502
十四年任左	-11.7572
齎勅	-11.7594
莊僖	-11.7632
右勤學好問	-11.7666
麑	-11.7668
駈	-11.7671
劭	-11.7672
豐稔	-11.7673
盔甲	-11.7673
葆	-11.7674
支期曰	-11.7674
㒒射	-11.7675
欽定四庫全書史部五	-11.7675
訹	-11.7675
無嗣除	-11.7675
小心恭慎	-11.7675
盎	-11.7675
壌	-11.7677
鄲	-11.7677
著為令	-11.7677
下錦衣獄	-11.7677
左春坊左庶子	-11.7677
西寧侯	-11.7677
藺離石祁	-11.7677
衂	-11.7678
䞇	-11.7679
誂	-11.7679
正義引括地	-11.768
炤	-11.7681
秘書省	-11.7681
佗	-11.7682
冤	-11.7683
𠞰	-11.7683
天順甲申進士𢎞治	-11.7683
贅	-11.7683
大聖皇帝	-11.7683
櫟	-11.7684
爼	-11.7684
臏	-11.7685
槃	-11.7685
畝	-11.7685
暦	-11.7685
公子重耳	-11.7685
竢	-11.7686
劉定之	-11.7686
堙	-11.7686
保安軍	-11.7686
廖永安	-11.7686
掎	-11.7686
一德不懈	-11.7686
叔牙	-11.7686
直𨽻太倉人	-11.7687
張齊賢	-11.7687
疫	-11.7687
透	-11.7687
釀	-11.7687
不宣謹白	-11.7687
戰艦	-11.7687
聵	-11.7687
趙羾	-11.7688
澠	-11.7688
枋	-11.7688
橫	-11.7688
巵	-11.7688
禮科給事中	-11.7688
懽盟	-11.7688
驚駭	-11.7689
馮煖	-11.7689
兢兢	-11.7689
酖	-11.7689
吕䝉正	-11.769
垢	-11.769
索隐	-11.769
嵓	-11.769
銀二百兩	-11.769
糶	-11.769
虺	-11.769
武清伯	-11.769
腕	-11.769
向敏中	-11.7691
太僕少卿	-11.7691
文武百官	-11.7691
彂	-11.7691
各監局	-11.7691
華蓋殿學	-11.7691
窺伺	-11.7692
徭役	-11.7692
遹	-11.7692
簒	-11.7692
屯田員外郎	-11.7692
達延汗	-11.7692
無忌憚	-11.7693
承運庫	-11.7693
黄庭堅	-11.7693
酒饌	-11.7693
澹	-11.7693
三國攻秦	-11.7693
屑	-11.7694
榆林	-11.7694
棐	-11.7695
罃	-11.7695
俘獲	-11.7696
鼐爾布哈	-11.7696
右温良好樂	-11.7696
雍熈	-11.7696
仇讎	-11.7696
景泰辛未	-11.7696
束帛	-11.7696
兼侍讀學士	-11.7697
共攻秦	-11.7697
杵	-11.7697
阿嘍罕	-11.7697
開言路	-11.7697
屛	-11.7698
團結	-11.7698
朝鮮國王李	-11.7698
粱	-11.7698
司馬光吕公著	-11.7699
螻蟻	-11.7699
歳幣	-11.7699
狷	-11.7699
棼	-11.7699
魄	-11.7699
疋綵絹	-11.7699
踪	-11.77
醮	-11.77
環慶路	-11.7701
光禄大夫	-11.7701
装	-11.7701
發運使	-11.7701
根究	-11.7701
鷄	-11.7702
嬰兒	-11.7702
加少傅兼	-11.7702
粥	-11.7703
汴梁	-11.7704
據此則	-11.7704
貪暴	-11.7704
稀	-11.7704
厲聲曰	-11.7705
司馬貞	-11.7705
太平治迹統類卷	-11.7705
營繕	-11.7705
嗣進鎮國為	-11.7706
直集賢院	-11.7706
奥	-11.7707
鄒魯	-11.7707
補曰字誤	-11.7708
弔伐	-11.7708
楊文敏	-11.7708
五代史補	-11.7709
照磨	-11.7709
曾參	-11.771
神祗	-11.771
之讎也	-11.771
蔬	-11.771
伋	-11.771
降㫖云	-11.7711
右敬事供上	-11.7712
邵陵	-11.7713
孫叔敖	-11.7713
蟜	-11.7713
君子小人	-11.7713
羣牧	-11.7714
囊嘉特	-11.7714
貞觀五年	-11.7714
九疇	-11.7715
陛辭	-11.7715
曹操	-11.7715
添設	-11.7716
婿	-11.7716
犬戎	-11.7717
貢賦	-11.7718
喬新	-11.7718
太牢	-11.7718
迎駕	-11.7719
左長史	-11.7719
先君好	-11.772
娘	-11.772
鐘鼓	-11.772
千段	-11.7721
西平侯沐英	-11.7722
范文子	-11.7722
熟户	-11.7722
翰林修撰	-11.7722
裨	-11.7724
戰殁	-11.7724
各衙門	-11.7725
弓手	-11.7727
你每	-11.7733
賢不肖	-11.7758
取信於	-11.7766
本此下有	-11.7891
年薨孫	-11.7958
閏十二月	-11.7995
天順八年	-11.813
八年任右	-11.8135
江西南昌人由進士	-11.8264
景泰四年	-11.8265
學士承㫖	-11.8276
紹斌	-11.8312
肋	-11.8318
孺	-11.8322
榜眼	-11.8323
甲胄有勞	-11.8327
旗幟	-11.8329
蟒衣	-11.8329
兌	-11.8329
右危身奉上	-11.833
折衝禦侮	-11.8331
嵌	-11.8334
滎澤	-11.8334
埃	-11.8339
倦而歸	-11.8341
磧	-11.8341
是秦之一舉也秦行是計	-11.8342
憸	-11.8342
嵐	-11.8342
掛印	-11.8342
賻	-11.8343
加上尊號曰	-11.8343
𢎞治壬戌進士嘉靖	-11.8344
玉清昭應宫	-11.8345
軒轅	-11.8345
田盼	-11.8345
杏	-11.8345
范痤	-11.8346
萬厯十七年任	-11.8346
不可勝計	-11.8347
鋏	-11.8347
炬	-11.8347
詳内閣嘉靖	-11.8347
曜	-11.8347
删	-11.8348
酋豪	-11.8348
左春坊左諭徳	-11.8348
威烈王	-11.8348
楞	-11.8348
不知何許人由薦舉	-11.8348
福建晉江人	-11.8349
柟	-11.8349
㕘知政事	-11.8349
華葢殿	-11.835
址	-11.835
天雄軍	-11.835
邊陲	-11.8351
趙良嗣	-11.8351
上尊諡曰孝	-11.8351
由進士二十九年任右	-11.8351
廏	-11.8351
醒	-11.8351
𢎞治庚戌進士嘉靖	-11.8351
麋	-11.8351
騷擾	-11.8352
莫知所	-11.8352
右春坊右諭徳	-11.8353
挿	-11.8353
壅蔽	-11.8353
緫管	-11.8353
隄	-11.8354
檐	-11.8354
吏部左侍郎兼翰林院學士	-11.8354
澯	-11.8354
炅	-11.8354
癘	-11.8354
圃	-11.8356
債	-11.8356
濯	-11.8356
姑宥之	-11.8356
䆒	-11.8357
太僕寺卿	-11.8357
徐公階	-11.8357
碭	-11.8357
脯	-11.8357
格哷	-11.8357
昬	-11.8357
剋	-11.8358
掊	-11.8358
㭿	-11.8358
左副元帥	-11.8358
逡	-11.8358
閈	-11.8359
蒸	-11.8359
堆	-11.8359
鑕	-11.836
蒲坂	-11.836
㗖	-11.836
汀	-11.836
瞀	-11.836
琅	-11.836
邾	-11.836
爪牙	-11.8361
闋	-11.8361
种放	-11.8361
多爾濟	-11.8361
蕭瑀	-11.8362
蟒龍	-11.8362
州團練副使	-11.8362
驕逸	-11.8362
晞	-11.8362
慊	-11.8363
笙	-11.8363
藴古	-11.8363
訃	-11.8363
賄賂	-11.8364
掇	-11.8364
榭	-11.8364
腆	-11.8364
頵	-11.8364
鍵	-11.8364
摠	-11.8364
禮部員外郎	-11.8365
讁	-11.8365
食亦反	-11.8366
以都察院左都御史加	-11.8366
亷頗	-11.8366
便宜從事	-11.8367
脛	-11.8367
咈	-11.8367
侵擾	-11.8368
尚寶司丞	-11.8368
消息	-11.8368
葉清臣	-11.8368
骸骨	-11.8368
謙溥	-11.8368
斵	-11.8368
堠	-11.8368
驍勇	-11.8369
宫闈	-11.8369
振旅	-11.8369
武清侯	-11.8369
將作監丞	-11.837
溫	-11.837
客坐新聞	-11.837
洶洶	-11.837
經明行修	-11.837
壅塞	-11.837
伏羌	-11.8371
芈	-11.8371
莫大於	-11.8371
仇鸞	-11.8372
焰	-11.8372
刈	-11.8372
賢良方正	-11.8373
匠役	-11.8374
形迹	-11.8374
黄子澄	-11.8374
坊場	-11.8374
莫測	-11.8374
娣	-11.8375
曽公亮	-11.8375
恭和王	-11.8376
錢塘遺事	-11.8377
咺	-11.8377
貪殘	-11.8377
秃	-11.8378
紫宸殿	-11.8378
子異人	-11.8379
詰責	-11.8379
牓	-11.838
直秘閣	-11.838
捲	-11.838
隊伍	-11.8381
子孫世襲	-11.8382
孔文仲	-11.8384
弢	-11.8387
禬	-11.8392
以臣言為	-11.8396
泌陽	-11.8397
金玦	-11.8399
為賊所	-11.8403
城隍	-11.8408
􁲰	-11.8408
弋陽	-11.841
即位之初	-11.841
欒盈	-11.841
千匹	-11.8421
月初五日	-11.8426
鈔百二十錠	-11.8438
當世之	-11.8465
銀二十兩	-11.8548
孫奭	-11.8659
僖敏	-11.8685
十六年薨子	-11.8768
人由國子生	-11.8785
邕	-11.8797
南海人	-11.888
京東西	-11.8911
十二疋	-11.8955
大學士楊廷和	-11.8961
薔	-11.9038
柞	-11.9043
洪武初年薦舉	-11.9044
緄	-11.9046
訑	-11.9047
穣	-11.9051
飴	-11.9052
𣣔	-11.9053
逗遛	-11.9054
侁	-11.9054
河南靈寳人	-11.9054
成化丁未進士正徳	-11.9055
槨	-11.9056
總督宣大軍務	-11.9056
衽	-11.9056
扣肯	-11.9057
纉	-11.9057
太保太子太傅	-11.9057
方城之外	-11.9058
礦	-11.9059
九合諸侯	-11.9059
觀世音菩薩	-11.9059
以禮書兼任	-11.9059
有其文而無其義	-11.9059
珤	-11.9059
鐔	-11.9059
王崇古	-11.906
溉	-11.906
致果殺敵	-11.906
煮	-11.906
凛	-11.906
縋	-11.9061
不可不察也	-11.9062
鼒	-11.9062
豚	-11.9062
盱眙	-11.9062
溶	-11.9062
治書侍御史	-11.9063
遶	-11.9063
從起靖難為	-11.9063
曹國公李景隆	-11.9063
擺	-11.9063
荆湖南路	-11.9063
劓	-11.9064
縂	-11.9064
扑	-11.9064
郡王初封嵗支禄米二千石襲封一千石	-11.9064
守阯	-11.9064
灤	-11.9064
大赦天下	-11.9064
禁錮	-11.9064
咽	-11.9064
䝉古地方	-11.9064
椀	-11.9064
霍韜	-11.9064
徨	-11.9065
平宋録	-11.9065
領隊指揮	-11.9065
蕭鎡	-11.9065
檻	-11.9065
皇祐元年	-11.9065
函谷關	-11.9065
博聞多能	-11.9065
右翼三萬人	-11.9065
噫	-11.9065
戻	-11.9065
膏腴之地	-11.9066
侫	-11.9066
圜	-11.9066
崇福宫	-11.9066
講武殿	-11.9066
轉運副使	-11.9066
踦	-11.9066
紈	-11.9067
遣官祭	-11.9067
碣	-11.9067
畋獵	-11.9067
𢷬	-11.9068
瑢	-11.9068
愠	-11.9068
爱	-11.9068
鍊	-11.9068
岌	-11.9068
直𨽻丹徒人	-11.9068
沴	-11.9069
臺榭	-11.9069
劌	-11.9069
曽棨	-11.9069
簪	-11.9069
砂	-11.9069
肱	-11.9069
肺	-11.907
弓弩	-11.907
佇	-11.907
惋	-11.907
涪	-11.907
竇建徳	-11.907
扁鵲	-11.907
謂新城君	-11.907
瞋	-11.907
胡世寧	-11.907
擅作威福	-11.907
常卿掌監事	-11.9071
渚宫舊事	-11.9071
戊戍	-11.9071
崇政殿説書	-11.9072
朝奉郎	-11.9072
彗星	-11.9072
懟	-11.9072
廷瓉	-11.9072
托克托	-11.9072
反又如字	-11.9072
秣	-11.9072
祧	-11.9073
征西將軍	-11.9073
紐	-11.9073
挂	-11.9073
舫	-11.9073
點	-11.9073
猲	-11.9074
鍼	-11.9074
跌	-11.9074
斮	-11.9074
祿一千一百石	-11.9074
刑科給事中	-11.9075
郾	-11.9075
虹	-11.9075
邯鄲之難	-11.9075
慱	-11.9075
梏	-11.9076
湼	-11.9076
秬黍	-11.9076
𢎞文館學士	-11.9076
元和姓纂	-11.9076
虗	-11.9076
掄	-11.9076
康茂才	-11.9076
腦	-11.9076
檟	-11.9076
十三道御史	-11.9077
鵲	-11.9077
穹	-11.9077
譔	-11.9077
冢	-11.9077
趙挺之	-11.9077
彫	-11.9077
淨	-11.9078
爛	-11.9078
鶩	-11.9078
塹	-11.9078
鉗	-11.9079
緇	-11.9079
俳	-11.9079
芥	-11.9079
沐晟	-11.9079
針	-11.9079
屯駐	-11.9081
博爾濟錦	-11.9081
匄	-11.9081
珵	-11.9081
于肅愍	-11.9081
撾	-11.9081
熿	-11.9081
肩輿	-11.9081
仔細	-11.9081
蟻	-11.9082
知慶州	-11.9082
馬一匹	-11.9082
倉廩	-11.9082
直𨽻巢縣人	-11.9082
閥	-11.9082
淋	-11.9082
以禮侍學士	-11.9083
終篇同	-11.9083
剏	-11.9084
鞮	-11.9084
閽	-11.9085
優劣	-11.9085
殤	-11.9085
烽	-11.9085
宣徽北院使	-11.9085
吏部流内銓	-11.9085
知陳州	-11.9085
杌	-11.9085
稱疾不	-11.9086
贛	-11.9086
吾學編	-11.9086
官軍人等	-11.9086
洧	-11.9087
胡惟庸	-11.9087
啼	-11.9087
居無何	-11.9087
榛	-11.9088
俺	-11.9088
吕甥	-11.9089
歌舞	-11.9089
穨	-11.9089
灑	-11.909
單襄公	-11.9091
中軍都督僉事	-11.9091
孱	-11.9092
鳥獸	-11.9093
編排	-11.9093
曾公亮	-11.9095
閎	-11.9096
鄧綰	-11.9096
禴	-11.9097
歃	-11.9097
宐	-11.9099
戩	-11.9101
欝	-11.9101
進加再以少保兼	-11.9105
阿嚕克台	-11.9106
鄭戩	-11.9106
耆儒	-11.9108
管子對曰	-11.9111
左侍郎兼學士	-11.9125
千二百黍	-11.9136
曰何也曰	-11.9179
二十八年任右	-11.9196
嘉靖八年	-11.9197
指揮千百户	-11.9228
薨夀六十	-11.9613
由進士三十年任	-11.9633
台吉弟兄	-11.9657
廊廟	-11.9696
十六疋	-11.9805
燕翼詒謀録	-11.9817
翅	-11.9817
和碩齊	-11.9817
慎靚王	-11.9818
廨	-11.9819
漿	-11.9819
湧	-11.982
車百乘	-11.9821
啄	-11.9821
錢習禮	-11.9821
跛	-11.9821
應天上元	-11.9822
曰敬諾	-11.9822
傀	-11.9823
湛若水	-11.9824
虞世南	-11.9824
賡	-11.9824
睡	-11.9824
公叔痤	-11.9825
蜃	-11.9825
京兆尹	-11.9825
楽	-11.9826
皇帝廟號	-11.9826
顔師古	-11.9826
少師少傅少保	-11.9826
峙	-11.9826
㒜	-11.9827
芬	-11.9827
茶馬司	-11.9827
冊立為皇后	-11.9827
禇遂良	-11.9827
澠池	-11.9827
太僕卿	-11.9828
暘	-11.9828
列女傳	-11.9828
威寧伯	-11.9829
楊文襄一清	-11.9829
滏	-11.9829
銛	-11.9829
堰	-11.9829
燼	-11.9829
欤	-11.9829
椎	-11.983
烏陵思謀	-11.983
紏	-11.983
醬	-11.983
脾	-11.983
正徳甲戌進士嘉靖	-11.9831
椽	-11.9831
緘黙	-11.9831
行數千里而	-11.9831
隋文帝	-11.9831
鈔五百錠	-11.9832
浴	-11.9832
三分之一	-11.9832
贊善大夫	-11.9832
浙江淳安人	-11.9832
釴	-11.9832
李時勉	-11.9832
鶚	-11.9832
溍	-11.9832
鄞	-11.9832
洺	-11.9833
走馬承受	-11.9833
岑文本	-11.9833
起居舎人	-11.9833
今從史	-11.9834
南漢主	-11.9834
眚	-11.9834
府親王一位在府	-11.9835
猜忌	-11.9835
釋迦牟尼佛	-11.9835
筑	-11.9835
朱希周	-11.9835
匙	-11.9835
褚	-11.9835
揉	-11.9835
椹	-11.9835
順天鄉試	-11.9835
躓	-11.9835
璵	-11.9836
縢	-11.9836
有賢聲	-11.9836
腫	-11.9836
擣	-11.9836
盃	-11.9836
八百石奉國將軍嵗支禄米六百石	-11.9836
曳	-11.9836
官員人等	-11.9837
瓦齊爾達喇達賴喇嘛	-11.9837
闞	-11.9837
芟	-11.9837
飲馬河	-11.9837
畎	-11.9838
茹瑺	-11.9838
吏部左侍郎翰林院學士	-11.9838
晴	-11.9838
宼	-11.9838
李遜學	-11.9838
簮	-11.9838
綵幣五表裏	-11.9839
樞宻直學士	-11.9839
蠱惑	-11.9839
喀爾喀	-11.9839
何面目	-11.9839
非忠臣也	-11.9839
皎	-11.984
煉	-11.984
骸	-11.984
慾	-11.984
寤	-11.984
補音乃旦反	-11.984
匝	-11.9841
穏	-11.9841
㢮	-11.9841
臣謹按	-11.9841
惴惴	-11.9841
鰥	-11.9841
紵絲紗羅	-11.9841
驁	-11.9841
忭	-11.9842
武安侯鄭亨	-11.9842
嬉	-11.9842
躐	-11.9842
壬戍	-11.9842
白金百兩	-11.9842
弓箭	-11.9843
人及第出身	-11.9843
存亡之機	-11.9843
様	-11.9843
盆	-11.9843
開國輔運推誠宣力武臣	-11.9843
泠	-11.9843
肄業	-11.9844
流内銓	-11.9844
瀝	-11.9844
唇	-11.9845
趾	-11.9845
央	-11.9845
剗	-11.9846
靖海侯	-11.9846
疽	-11.9846
凟	-11.9846
長音掌	-11.9846
譙	-11.9846
彭汝礪	-11.9846
部左侍郎贈尚書	-11.9846
王一寧	-11.9847
紇	-11.9847
禮部奏名	-11.9847
謂近臣曰	-11.9847
虵	-11.9847
悸	-11.9847
吏科給事中	-11.9847
佻	-11.9848
盒	-11.9848
片紙	-11.9848
鏸	-11.9848
規模	-11.9849
蹻	-11.9849
幷	-11.9849
肘腋	-11.9849
工部員外郎	-11.9849
通直郎	-11.985
閙	-11.985
中書左丞	-11.985
汨	-11.9851
溝壑	-11.9851
館伴	-11.9851
幽薊	-11.9851
弇	-11.9851
夏文愍	-11.9852
讌	-11.9852
龠	-11.9852
黧	-11.9852
蠱	-11.9852
鋤	-11.9853
彗	-11.9853
熈寜	-11.9853
妻孥	-11.9853
狂悖	-11.9853
液	-11.9854
瑴	-11.9854
按此内臣	-11.9855
弧	-11.9855
溜	-11.9855
掌書記	-11.9856
這般	-11.9856
慆	-11.9856
妃郭氏	-11.9856
右俱未中早夭	-11.9856
螻	-11.9857
蘇易簡	-11.9858
心膂	-11.9858
笠	-11.9859
賠	-11.9859
刑部員外郎	-11.986
攫	-11.9861
諏	-11.9865
兀	-11.9865
啗	-11.9866
吮	-11.9867
司馬子期	-11.9867
粢	-11.9871
所恃者	-11.9873
郛	-11.9877
謂太子曰	-11.9882
各賞白金	-11.9888
江西南昌人	-11.9944
二音補音	-11.9958
子今王載	-11.9986
四千八百	-11.9989
廣東南海人由	-12.0044
吐蕃	-12.0048
滁	-12.0231
二千九百	-12.0513
四千五百	-12.0555
由進士三十三年任	-12.0559
曩罕㺯	-12.0621
嵓叟	-12.0629
右俱危身奉上	-12.0635
燬	-12.0641
莫離支	-12.0646
蟣虱	-12.0646
懃	-12.0646
位庶人無	-12.0648
熒	-12.0648
雷有終	-12.0649
糊	-12.0651
等謹案	-12.0651
寧陽侯陳懋	-12.0652
瘞	-12.0652
帰	-12.0652
圖伯特	-12.0653
國子博士	-12.0654
樊於期	-12.0655
饜	-12.0656
鉆	-12.0656
昌國君	-12.0657
煨	-12.0657
踞	-12.0658
廧	-12.0658
墊	-12.0659
淖	-12.0659
磻	-12.0659
稱皇伯	-12.0659
散騎常侍	-12.066
臞	-12.066
徴甲與粟於周	-12.066
衣各一襲	-12.066
𢎞治乙丒進士嘉靖	-12.066
烱	-12.0661
楧	-12.0661
裋	-12.0661
夲	-12.0661
其可得乎	-12.0661
建文四年任右	-12.0662
嵬	-12.0662
祟	-12.0662
琢	-12.0662
崔杼	-12.0662
盻	-12.0662
故君不如	-12.0662
覉	-12.0662
正徳戊辰進士嘉靖	-12.0663
訕謗	-12.0663
珥	-12.0663
巴克什	-12.0664
狼狽	-12.0664
觀文殿大學士	-12.0664
監修國史	-12.0664
㬰	-12.0664
焞	-12.0664
為大王計莫如	-12.0664
稜	-12.0665
伯勒格徳依	-12.0665
蚩	-12.0665
凌雲翼	-12.0665
睠	-12.0665
嗣薨夀四十八子	-12.0665
樗里疾公孫衍	-12.0666
綵段四表裏	-12.0666
山東濮州人	-12.0666
啜	-12.0666
殱	-12.0666
唇齒	-12.0666
曵	-12.0666
常參官	-12.0666
中情見貌	-12.0666
椅	-12.0666
祜	-12.0666
禕	-12.0667
耿炳文	-12.0667
白金二百五十兩	-12.0667
簫	-12.0667
尚膳監	-12.0667
曺	-12.0667
勲階號	-12.0667
商於之地	-12.0667
坂	-12.0667
江西金谿人	-12.0667
布爾徳福晉	-12.0667
願王之熟計之也	-12.0668
李承勛	-12.0668
直𨽻上海人	-12.0668
睚眦	-12.0668
洪武中薦舉	-12.0668
强學好問	-12.0668
縵	-12.0668
馬十匹	-12.0668
圈	-12.0668
投杼	-12.0668
紬絹	-12.0668
濙	-12.0669
氾	-12.0669
妃楊氏	-12.0669
穽	-12.0669
撲	-12.067
陌	-12.067
湍	-12.067
􁓑	-12.067
直𨽻束鹿人	-12.067
濊	-12.067
霸王之業	-12.067
資政殿大學士	-12.067
麵	-12.067
帕	-12.067
馳騁	-12.067
鳯陽府人	-12.067
頽	-12.0671
廢為庶人	-12.0671
江西廬陵人	-12.0671
諸葛亮	-12.0671
航	-12.0671
江西新淦人	-12.0671
蕚	-12.0671
博物志	-12.0671
觀文殿學士	-12.0672
科爾沁	-12.0672
鄢郢漢中	-12.0672
彧	-12.0673
雙溪雜記	-12.0673
張儀為秦連横	-12.0673
李思齊	-12.0673
履正志和	-12.0673
侍御史知雜事	-12.0674
右春坊右中允	-12.0674
山東昌邑人	-12.0674
滁陽王	-12.0674
娼	-12.0675
櫛	-12.0675
逕	-12.0675
耒	-12.0675
刳	-12.0675
淡	-12.0675
鎔	-12.0675
月二十三日	-12.0676
爌	-12.0676
致書于大宋皇帝闕下	-12.0676
國必危矣	-12.0676
餐	-12.0677
不聊生	-12.0677
宋國公馮勝	-12.0677
爪	-12.0677
瑚	-12.0677
票	-12.0678
桎	-12.0678
史館修撰	-12.0678
蒞	-12.0678
浄	-12.0678
者寡矣	-12.0678
宄	-12.0678
帙	-12.0679
臥	-12.0679
鐫	-12.0679
柔克有光	-12.0679
衾	-12.0679
北主曰	-12.068
熬	-12.068
刦	-12.068
勾當公事	-12.068
鎣	-12.068
掉	-12.068
㳄	-12.068
哺	-12.0681
日大金骨盧你移賫勃極烈左副元帥	-12.0681
矇	-12.0681
婺	-12.0681
稼穡	-12.0681
鬷	-12.0682
嗣進長子為	-12.0682
思任發	-12.0682
綋	-12.0682
撙	-12.0682
櫃	-12.0682
見齊策	-12.0682
懿文皇太子	-12.0682
厄	-12.0683
藤	-12.0683
甚無謂也	-12.0683
鋸	-12.0683
昊天上帝	-12.0683
饑饉	-12.0684
春平侯	-12.0684
州司户	-12.0685
鄧温伯	-12.0685
斆	-12.0686
嚭	-12.0686
蟄	-12.0687
鎻	-12.0687
踐阼	-12.0689
陸佃	-12.0689
上合格進士	-12.0689
李庭芝	-12.0689
豔	-12.069
􁛄	-12.0691
正八品	-12.0691
吏科都給事中	-12.0691
故有是詔	-12.0692
董文炳	-12.0692
葴	-12.0692
右司郎中	-12.0693
賈餘慶	-12.0693
莠	-12.0693
未見其可	-12.0694
貞觀十六年太宗	-12.0696
毓	-12.0696
罟	-12.0699
張邦昌	-12.07
陴	-12.07
右未中早夭	-12.07
爝	-12.0701
嗣薨夀七十	-12.0702
御史知雜	-12.0706
欒武子	-12.0709
妘	-12.0712
定西侯	-12.0714
以謝天下	-12.0715
章戰國䇿卷第	-12.0741
豕韋	-12.0745
十兩二表裏	-12.0833
年以少師兼	-12.0998
六千八百	-12.1157
嗣在位二十	-12.1356
一千石輔國將軍嵗支禄米	-12.1468
徹辰鴻台吉	-12.152
右俱折衝禦侮	-12.154
秦鳯路	-12.1547
𦕈	-12.1555
蔀	-12.1556
猺	-12.1557
塑	-12.156
右敏而好學	-12.156
噣	-12.156
陲	-12.1561
蒭	-12.1561
碆	-12.1562
霦	-12.1562
以憂社稷者	-12.1562
歙	-12.1562
勠	-12.1563
鐇	-12.1563
厹	-12.1563
襲封文宣公	-12.1565
湖廣華容人	-12.1565
槁	-12.1566
栶	-12.1566
直𨽻任丘人由	-12.1567
坔	-12.1567
孩	-12.1568
趙彦若	-12.1568
綵段二表裏	-12.1568
沬	-12.1568
哨瞭	-12.1568
王世充	-12.1568
盤盂	-12.1569
菱	-12.1569
黈	-12.157
甕	-12.1571
餒	-12.1571
朐	-12.1571
降二級	-12.1571
剿	-12.1571
張敷華	-12.1571
捄	-12.1571
萬乘之國	-12.1571
胡大海	-12.1572
俌	-12.1572
龐	-12.1573
成化戊戌進士正徳	-12.1573
沐浴	-12.1573
舋	-12.1573
瑭	-12.1573
鳬	-12.1574
技藝	-12.1574
苫	-12.1574
銀千兩	-12.1574
孛堇	-12.1574
白金四百兩	-12.1574
武定侯郭英	-12.1574
蹠	-12.1575
峪	-12.1575
疪	-12.1575
馨	-12.1575
長春殿	-12.1575
奉明㫖	-12.1575
娯	-12.1575
忠臣義士	-12.1575
盩	-12.1575
瞭	-12.1575
瘁	-12.1575
昳	-12.1576
薩斯嘉	-12.1576
備顧問	-12.1576
任同掌院事	-12.1576
征蠻將軍	-12.1577
釋伽牟尼佛	-12.1577
楯	-12.1577
傚	-12.1577
騁	-12.1577
蔭	-12.1578
尹文和	-12.1578
説與各軍總兵官	-12.1578
博克達班禪額爾徳尼	-12.1578
直昭文館	-12.1578
蒼梧	-12.1578
以吏左侍兼	-12.1578
楩	-12.1578
紵	-12.1579
正統戊辰進士	-12.1579
坰	-12.1579
賽音阿拉克	-12.1579
内藏庫	-12.1579
徤	-12.158
睨	-12.158
𠂻	-12.158
棹	-12.158
朶	-12.158
祔	-12.158
迦	-12.158
左軍都督府	-12.158
布按二司	-12.1581
筏	-12.1581
鏁	-12.1581
孫承恩	-12.1581
劉文靖健	-12.1581
匍匐	-12.1581
宣仁聖烈	-12.1581
簽書樞宻院事	-12.1582
年任同理院事	-12.1582
京營戎政	-12.1582
諉	-12.1582
鼂	-12.1582
騏驥	-12.1582
璡	-12.1583
嶠	-12.1583
桌	-12.1583
嶷	-12.1583
國相元帥	-12.1583
八品九品	-12.1583
藿	-12.1583
适	-12.1583
太常禮院	-12.1584
舁	-12.1584
梱	-12.1584
牋	-12.1584
誚	-12.1584
五經博士	-12.1584
蓍	-12.1584
嘻	-12.1584
轎	-12.1584
資善堂	-12.1585
撿	-12.1585
趙肅侯十	-12.1585
軍節度副使	-12.1585
呉安詩	-12.1585
怏怏	-12.1585
耽	-12.1586
沅	-12.1586
石守信	-12.1586
皇太孫	-12.1586
直𨽻夀州人	-12.1586
幡	-12.1586
絺	-12.1586
羅咱斡	-12.1586
弇山堂别集	-12.1587
珎	-12.1587
义	-12.1587
鈔二千貫	-12.1587
羿	-12.1588
滿都海徹辰福晉	-12.1588
鏑	-12.1588
謠	-12.1588
匜	-12.1588
自經死	-12.1588
瑑	-12.1588
天台人	-12.1589
近年以來	-12.1589
塾	-12.1589
袪	-12.1589
伽	-12.159
黔國公沐晟	-12.159
陞二級	-12.159
二十六年坐藍黨論死國除	-12.1591
詛	-12.1591
綳	-12.1591
磁	-12.1591
滌	-12.1591
爻	-12.1591
猫	-12.1592
儋	-12.1592
鉦	-12.1592
付外施行	-12.1592
呼圖克	-12.1593
鄼	-12.1593
樂舞生	-12.1594
終南山	-12.1594
錙	-12.1594
甯	-12.1594
拭	-12.1595
埤	-12.1595
芋	-12.1596
旃	-12.1596
堂後官	-12.1596
滇	-12.1596
棚	-12.1596
㩁	-12.1597
熂	-12.1597
右不懈為德	-12.1597
焯	-12.1598
熺	-12.1598
犧牲	-12.1598
邵元節	-12.1598
右班殿直	-12.1598
王公錫爵	-12.1599
祏	-12.1599
徂	-12.1599
􁗁	-12.1599
嚴公訥	-12.16
儕	-12.16
譏訕	-12.1601
荼	-12.1601
䭾	-12.1601
東安門	-12.1601
鐶	-12.1602
元劉一清撰	-12.1603
特進光禄大夫	-12.1603
明王世貞撰中官考	-12.1604
烜	-12.1605
斿	-12.1605
榱	-12.1605
宓	-12.1606
蜜	-12.1607
墩	-12.1608
脈	-12.1609
灑掃	-12.1609
龍鳳十二年	-12.1643
薨夀四十一子	-12.1999
兩綵幣三表裏鈔	-12.2414
直𨽻常熟人由進士	-12.2499
一年任	-12.2538
餔	-12.2544
鈔二千錠	-12.2544
正己攝下	-12.2545
僂	-12.2549
麴	-12.2554
驤	-12.2556
蒲宗孟	-12.2556
右俱敏而好學	-12.2556
灓	-12.2557
托克托噶太師	-12.2557
年降生嵗次	-12.2557
泮	-12.2557
欽定四庫全書弇山堂别集卷六十	-12.2558
悚	-12.256
髓	-12.256
郗	-12.256
祛	-12.256
糲	-12.2561
孫全照	-12.2561
閣門祗候	-12.2562
揕	-12.2562
錫都爾固汗	-12.2562
憒	-12.2562
㰱	-12.2563
暖	-12.2564
谷王橞	-12.2564
洪武乙丒進士	-12.2565
金獻民	-12.2565
欽定四庫全書弇山堂别集卷五十	-12.2566
啖	-12.2567
御藥院	-12.2567
山東鄆城人	-12.2567
西索救於秦	-12.2568
塤	-12.2569
徭	-12.2569
臀	-12.2569
湖廣巴陵人	-12.2569
酸	-12.2569
正徳辛巳進士嘉靖	-12.2569
卭	-12.2569
龍圖閣學士	-12.2569
鏌	-12.2569
同惡相濟	-12.257
由進士二十一年任右	-12.257
筯	-12.257
宋鮑彪注	-12.257
宗廟號也	-12.257
礬	-12.257
章得象	-12.2571
欽定四庫全書弇山堂别集卷三十	-12.2571
正統壬戌進士成化	-12.2571
沱	-12.2571
緦	-12.2571
蕭維禎	-12.2571
鑄大錢	-12.2571
山東東平人	-12.2571
四川巴縣人	-12.2571
菟	-12.2572
唾	-12.2572
捶	-12.2572
妃吳氏	-12.2572
明王世貞撰異典述	-12.2572
直𨽻歙縣人由進士	-12.2572
劑	-12.2572
熖	-12.2572
雜史𩔖	-12.2572
四境之内	-12.2572
旃檀	-12.2572
瘵	-12.2572
總督薊遼	-12.2572
浙江永嘉人	-12.2572
仕隋為	-12.2573
蚡	-12.2573
倔	-12.2573
年任右本年丁憂	-12.2573
江西臨川人	-12.2573
斁	-12.2573
尖	-12.2573
巴勒布	-12.2573
祲	-12.2573
訶	-12.2574
不亦善乎	-12.2574
征西前將軍	-12.2574
無咫尺之功	-12.2574
即皇帝位改元	-12.2574
謝文正遷	-12.2574
喫	-12.2574
丁士美	-12.2574
霆	-12.2575
貉	-12.2575
强而能斷	-12.2575
襪	-12.2575
王曰何也對曰	-12.2575
鍚	-12.2575
以楚權復	-12.2576
届	-12.2576
涅槃	-12.2576
荻	-12.2576
蹊	-12.2576
十七年任十八年	-12.2576
缶	-12.2576
皇祐二年	-12.2577
鈔千錠	-12.2577
駱	-12.2577
筞	-12.2577
印綬監	-12.2577
孳	-12.2577
変	-12.2577
换	-12.2577
閨	-12.2578
陕	-12.2578
馘	-12.2578
剸	-12.2578
堦	-12.2578
眺	-12.2578
年十七嵗	-12.2578
稹	-12.2578
米鈔中半兼支鎮國將軍嵗支禄米	-12.2578
沭	-12.2579
娛	-12.2579
嘉靖壬辰進士	-12.2579
洫	-12.2579
祫	-12.2579
洪武初年舉人才	-12.2579
試校書郎	-12.2579
嘉靖己丒進士	-12.258
奉朝請	-12.258
彪謂周衰	-12.258
奉書陳逹不宣	-12.258
金朝興	-12.258
𢎞治丙辰進士嘉靖	-12.258
馬端肅文升	-12.2581
乾興元年	-12.2581
薨在位四十	-12.2581
謂皮相國	-12.2581
阿喇卜	-12.2581
哈爾固楚克	-12.2581
褘	-12.2581
直𨽻滁州人	-12.2581
泝	-12.2582
雩	-12.2582
顱	-12.2582
笮	-12.2582
漲	-12.2582
崙	-12.2582
昩	-12.2582
刘	-12.2582
資治通鑑	-12.2583
纆	-12.2583
鈔六百錠	-12.2584
庫庫特穆爾	-12.2584
癉	-12.2584
蟠	-12.2584
謂周最曰	-12.2584
麄	-12.2585
該管頭目	-12.2585
伊斯滿太師	-12.2585
祿二千五百石	-12.2585
秘閣校理	-12.2585
开	-12.2585
僥	-12.2586
殮	-12.2586
易大傳曰	-12.2586
嘉勒斯賚	-12.2586
襁	-12.2586
醋	-12.2586
顏	-12.2586
日大宋皇帝致書大金國相元帥	-12.2586
文思院副使	-12.2587
太監劉永誠	-12.2587
千户衛鎮撫儀衛正副	-12.2587
呪	-12.2587
曹國公李文忠	-12.2587
鞬	-12.2587
犢	-12.2587
彭文憲時	-12.2587
忖	-12.2587
欽定四庫全書弇山堂别集卷七十	-12.2587
墉	-12.2587
悶	-12.2588
鄯	-12.2588
䟦	-12.2588
株	-12.2588
鎡	-12.2588
至和元年	-12.2588
司禮監太監蕭敬	-12.2588
朱亮祖	-12.2588
甬	-12.2588
蛾	-12.2588
鈔一百貫	-12.2588
陬	-12.2588
張舜民	-12.2588
籬	-12.2589
竽	-12.2589
鈔一千錠	-12.2589
摩倫汗	-12.2589
六科十三道	-12.2589
鉢	-12.259
右春坊右庶子	-12.259
邲	-12.259
蔣冕毛紀	-12.259
戈直集論	-12.259
浣	-12.259
此其漸不克終	-12.259
趹	-12.259
文武百寮軍民僧道耆老	-12.2591
𨗳	-12.2591
頷	-12.2591
映	-12.2591
願王察之	-12.2591
鈔九十錠	-12.2591
胡文穆廣	-12.2592
魅	-12.2592
鴉	-12.2592
戦國䇿	-12.2592
直𨽻虹縣人	-12.2592
紱	-12.2592
少保兼太子太保	-12.2593
炯	-12.2593
明王世貞撰史乗考誤	-12.2593
靖寧侯葉昇	-12.2593
匈	-12.2593
盞	-12.2594
柤	-12.2594
右容儀恭羙	-12.2594
巴特瑪繖巴斡	-12.2594
欽定四庫全書弇山堂别集卷二十	-12.2594
特進光祿大夫柱國	-12.2595
苻	-12.2595
貰	-12.2595
昃	-12.2596
胤	-12.2596
冰	-12.2596
皇祐三年	-12.2596
曄	-12.2597
庖	-12.2597
鬢	-12.2597
竺	-12.2597
補音申志反	-12.2598
諶	-12.2599
僬	-12.2599
鱉	-12.2599
左司郎中	-12.2599
栻	-12.26
䢿	-12.26
見侯表	-12.26
欽定四庫全書錢塘遺事卷	-12.26
畱	-12.2601
衛拉特	-12.2602
欽定四庫全書弇山堂别集卷九十	-12.2604
窋	-12.2604
晳	-12.2604
内殿崇班	-12.2605
艮	-12.2605
儂智髙	-12.2605
郭爾羅斯	-12.2606
御史裏行	-12.2606
抹	-12.2606
雌	-12.2607
礱	-12.2607
公父文伯	-12.2609
怕	-12.2609
穫	-12.261
魚周詢	-12.2611
蔿	-12.2611
茂材異等	-12.2613
分水嶺為界	-12.2613
斑	-12.2614
百字以上	-12.2615
肸	-12.2615
權知開封	-12.2615
諟	-12.2619
主順天試命翰林院侍讀	-12.2622
年起未任	-12.2623
太監錢能	-12.2631
韎	-12.2635
日薨葬	-12.2683
錠綿布二疋	-12.2684
嘉靖三十八年	-12.3458
䜴	-12.3627
瞿景淳	-12.3634
弟姪一人錦衣衞	-12.3638
卓哩克圖	-12.3655
爨	-12.3658
亟入下東國	-12.3659
博碩克圖	-12.3661
襖	-12.3662
唐制嵗該米	-12.3665
龍圖閣待制	-12.3665
直𨽻清苑人	-12.3666
齧	-12.3666
讟	-12.3667
沼	-12.3668
禮賔副使	-12.3668
侣	-12.3668
銀五千兩	-12.3669
勝敵克亂	-12.3669
郜	-12.3669
伊納克格爾	-12.3669
榦	-12.367
鄺埜	-12.367
猿	-12.3671
窩	-12.3671
継	-12.3671
澍	-12.3671
圄	-12.3672
顕	-12.3673
岢	-12.3673
扎木蘇	-12.3673
抱空質	-12.3674
羅欽順	-12.3675
离	-12.3676
薰	-12.3676
觭	-12.3676
少保太子太保禮部尚書武英殿大學士	-12.3676
鼗	-12.3676
嶧	-12.3677
秪	-12.3678
琚	-12.3678
阿南達	-12.3679
將作監主簿	-12.3679
鷸	-12.3679
繻	-12.3679
湖廣茶陵人	-12.3679
張氏九成曰	-12.368
梁文康儲	-12.368
㺯	-12.368
闌	-12.368
浙江歸安人	-12.368
下獄論死	-12.3681
欄	-12.3681
明王世貞撰卿貳表	-12.3681
温恭朝夕	-12.3681
正徳辛未進士嘉靖	-12.3682
覔	-12.3682
猪	-12.3682
𢎞治己未進士嘉靖	-12.3682
欽定四庫全書戰國策校注卷	-12.3682
入繼大統	-12.3683
抉	-12.3683
公子牟夷	-12.3683
皇祐五年	-12.3683
無其實而有其名者	-12.3683
直𨽻興化人	-12.3683
不可則行其	-12.3683
断	-12.3683
賃	-12.3683
鞋	-12.3684
鴞	-12.3684
東觀奏記	-12.3684
藐	-12.3684
愴	-12.3684
行善可紀	-12.3684
徐文璧	-12.3684
鑲	-12.3684
欽定四庫全書欽定䝉古源流卷	-12.3684
安塔哈	-12.3685
矣天下爭秦秦	-12.3685
江西萬安人由進士	-12.3685
昭釐侯	-12.3685
帕克巴喇嘛	-12.3685
槌	-12.3685
靚	-12.3686
祠部員外郎	-12.3686
爍	-12.3686
何承矩	-12.3687
穜	-12.3687
纊	-12.3687
召中山與之遇而許之王	-12.3687
承魏之敝	-12.3687
居無幾何	-12.3687
挨	-12.3688
鏃	-12.3688
閘	-12.3688
通進銀臺司	-12.3688
王嵗支禄米一萬石	-12.3688
職方員外郎	-12.3688
熲	-12.3688
嘉靖己未進士萬厯十	-12.3689
搬	-12.3689
文綺二十疋	-12.3689
洿	-12.3689
馮宋公勝	-12.3689
正徳丁丒進士嘉靖	-12.3689
廣西全州人	-12.3689
盱	-12.3689
嘉勒氏	-12.3689
礛	-12.369
鄂諾河	-12.369
馹	-12.3691
緍	-12.3691
兵仗局	-12.3691
襕	-12.3691
藉兵乞食	-12.3691
祿千五百石七年増千石	-12.3691
祿三千石	-12.3691
古爾伯勒津郭斡哈屯	-12.3691
欹	-12.3691
宷	-12.3691
蟬	-12.3691
沲	-12.3691
無子庶二弟	-12.3691
柬	-12.3692
䝉郭勒津	-12.3692
太保兼太子太傅	-12.3692
願大王察之	-12.3692
殺吕遼	-12.3692
倂	-12.3692
朱希孝	-12.3692
済	-12.3692
湟	-12.3692
鑨	-12.3693
殂	-12.3693
桴	-12.3693
鈔五千貫	-12.3693
峴	-12.3693
僅以身免	-12.3693
成化乙未進士正徳	-12.3694
蟹	-12.3694
華雲龍	-12.3694
酺	-12.3694
祕書省	-12.3694
三班院	-12.3694
槿	-12.3694
呴	-12.3694
右丞仲徳	-12.3694
扮	-12.3694
即皇帝位	-12.3694
楠	-12.3695
以兵部左侍郎兼僉都御史任	-12.3695
馬駝牛羊	-12.3695
孔頴達	-12.3695
以講學領南院	-12.3695
袁洪愈	-12.3695
陸仲亨	-12.3695
壠	-12.3696
紃	-12.3696
百户所鎮撫典仗	-12.3696
平王東遷	-12.3696
欲廢中山之王	-12.3697
渇	-12.3697
額森托噶	-12.3697
金鄉侯	-12.3697
撞	-12.3697
儷	-12.3697
閬	-12.3698
糅	-12.3698
綯	-12.3698
牂	-12.3698
任十一年致仕	-12.3698
摩里海王	-12.3699
違拂不成	-12.3699
隩	-12.3699
伊蘇凱巴圖爾	-12.3699
島	-12.37
東川侯胡海	-12.37
郸	-12.37
路允廸	-12.37
温良好樂	-12.3701
蜂	-12.3701
惹	-12.3701
功已成矣	-12.3701
㸅	-12.3701
織染局	-12.3702
耦	-12.3702
永昌侯藍玉	-12.3702
祿九百石	-12.3702
織金及雜色文綺	-12.3702
酈	-12.3703
相元帥皇子元帥	-12.3703
烏爾魯克	-12.3703
聰明睿智	-12.3703
寥寥	-12.3703
鋐	-12.3704
跼	-12.3704
訔	-12.3704
嘔	-12.3704
金川門	-12.3704
收回成命	-12.3704
桷	-12.3704
拽	-12.3705
攅	-12.3706
阡	-12.3706
閤門祗候	-12.3706
胃	-12.3706
詔禮部貢院	-12.3707
埽	-12.3707
壩	-12.3707
幕職州縣官	-12.3707
奉天靖難推誠宣力武臣	-12.3708
彀	-12.3708
㳅	-12.3708
忙	-12.3708
三班奉職	-12.3708
顚	-12.3708
俚	-12.3709
筐	-12.3709
憶	-12.3709
榕	-12.371
省四十名	-12.371
郃	-12.371
吕嘉問	-12.371
張孝純	-12.371
朱氏黼曰	-12.3711
州府軍縣	-12.3711
蹹	-12.3712
鼃	-12.3712
左丘明	-12.3712
裼	-12.3712
咸寧侯仇鸞	-12.3713
秤	-12.3714
纁	-12.3714
忠國公石亨	-12.3715
烏格齊哈什哈	-12.3715
居安思危	-12.3715
恭誠伯	-12.3715
何文輝	-12.3716
櫝	-12.3716
棬	-12.3717
陳芳洲	-12.3717
知諌院	-12.3718
人言市有虎王信之乎王曰	-12.3719
垓	-12.372
鬴	-12.3722
瑣綴録	-12.3723
才識兼茂明于體用	-12.3725
舂	-12.3725
羖	-12.3726
箱	-12.3727
痕	-12.3729
獠	-12.3739
桑維翰	-12.379
年以少傅武英殿學	-12.3804
鄜	-12.4648
少師兼太子太師吏部尚書	-12.4751
茌	-12.4882
滎	-12.4902
指揮絹二疋鈔	-12.4908
瑪廸都斡咱	-12.491
翮	-12.4913
讀寶訓	-12.4914
帕克巴巴喇宻特	-12.4915
矍	-12.4915
畛	-12.4916
杼	-12.4917
衆寡不敵	-12.4917
而為之請太子	-12.4917
璨	-12.4918
䱧	-12.4918
霧	-12.4919
蛤	-12.4919
寥	-12.4919
孫海客用	-12.4919
乾隆四十六年	-12.492
篁	-12.492
攣	-12.4921
幾瑟亡之楚	-12.4921
孶	-12.4921
萬七千三百	-12.4921
成山侯王通	-12.4921
芘	-12.4922
喘	-12.4922
􁢉	-12.4922
褁	-12.4923
轢	-12.4923
耎	-12.4924
慴	-12.4924
捂	-12.4924
艶	-12.4925
􁲵	-12.4925
𢎞治癸丒進士嘉靖	-12.4926
勍	-12.4927
嚂	-12.4927
曦	-12.4927
嫈	-12.4927
孫應奎	-12.4928
湖廣石首人	-12.4928
醯	-12.4928
樊繼祖	-12.4928
歠	-12.4929
輢	-12.4929
崤	-12.4929
鯷	-12.4929
入内都知	-12.493
㽔	-12.493
撒离母	-12.493
都沁都爾本二部落	-12.493
魔	-12.493
腴	-12.493
戰國䇿卷第十	-12.4931
匕	-12.4931
㬥	-12.4931
五國復堅	-12.4931
冺	-12.4931
狙	-12.4931
年任本年丁憂	-12.4931
浙江蘭谿人	-12.4931
墢	-12.4932
謇	-12.4932
迕	-12.4932
觔	-12.4932
鎋	-12.4932
書天㑹五年三月	-12.4932
鹹	-12.4932
摹	-12.4932
獺	-12.4933
祸	-12.4933
鈇	-12.4933
東閣學入	-12.4933
鄀	-12.4934
哈里瑪	-12.4934
攻管而不下	-12.4934
瘨	-12.4934
爇	-12.4934
硬	-12.4934
鍇	-12.4934
价	-12.4934
剔	-12.4935
葉夢鼎	-12.4935
庫圖克台	-12.4935
楚相敝而	-12.4935
浙江黄巖人	-12.4935
釘	-12.4936
林氏之竒曰	-12.4936
騫	-12.4936
滲	-12.4936
省浮費	-12.4936
禇	-12.4936
秘書少監	-12.4936
兑	-12.4936
㸑	-12.4936
遡	-12.4936
嘉靖丙戌進士三十	-12.4937
定國公徐光祚	-12.4937
荏	-12.4937
定逺侯王弼	-12.4937
具如别幅	-12.4938
山東海豐人	-12.4938
延安侯唐勝宗	-12.4938
禮部尚書掌詹事府事翰林院學士	-12.4938
鄠	-12.4938
簟	-12.4938
金百鎰	-12.4938
剬	-12.4938
坻	-12.4938
蝕	-12.4938
㯽	-12.4939
𧺫	-12.4939
忒	-12.4939
然而臣有患也	-12.4939
王襄敏越	-12.4939
躧	-12.4939
剡川姚宏	-12.4939
涅	-12.4939
費文憲宏	-12.494
擡	-12.494
幢	-12.494
千丈之城	-12.494
諼	-12.494
霈	-12.494
䋲	-12.494
巴爾斯博羅特	-12.494
擐	-12.494
蹷	-12.494
冇	-12.4941
兵科都給事中	-12.4941
紕	-12.4941
咱噶喇斡	-12.4941
竚	-12.4941
姫	-12.4941
漓	-12.4941
磯	-12.4941
挹	-12.4942
衒	-12.4942
勺	-12.4942
令狐綯	-12.4942
緊	-12.4942
酧	-12.4943
倐	-12.4943
鑽	-12.4943
浙江仙居人	-12.4943
瘐	-12.4943
撮	-12.4943
國子監直講	-12.4943
􁨄	-12.4943
翊國公郭勛	-12.4943
㛮	-12.4943
博勒呼濟農	-12.4943
偈	-12.4944
熄	-12.4944
廻	-12.4945
灘	-12.4945
御集英殿策試遂賜	-12.4945
布各一疋	-12.4945
章獻明肅	-12.4945
顙	-12.4945
陽邏堡	-12.4945
范吉射	-12.4945
革除逸史	-12.4945
蹇序辰	-12.4945
鈆	-12.4945
鏘	-12.4946
黄洪憲	-12.4946
傭	-12.4946
保國公朱永	-12.4946
窄	-12.4946
刑科都給事中	-12.4946
制置三司條例	-12.4946
堕	-12.4946
桔	-12.4946
肴	-12.4946
以鎮國將軍先卒	-12.4947
栽	-12.4947
廣恩伯劉才	-12.4947
輳	-12.4947
缾	-12.4947
禩	-12.4947
絨	-12.4947
薳	-12.4947
鑛	-12.4948
夹	-12.4948
鄔	-12.4948
博迪薩都	-12.4948
員首領官一員	-12.4948
慕容延釗	-12.4949
乾清宫	-12.4949
甑	-12.4949
鏗	-12.4949
嘿	-12.4949
直𨽻清河人	-12.4949
𠫭	-12.4949
朱禩孫	-12.495
扆	-12.495
圎	-12.4951
端拱元年	-12.4951
歜	-12.4951
耿再成	-12.4951
吏兵二部	-12.4951
崧	-12.4951
成國公朱希忠	-12.4951
上合格上舍生	-12.4951
詒	-12.4951
肻	-12.4952
榷	-12.4952
普定侯陳桓	-12.4952
鑊	-12.4952
沓	-12.4953
左相國徐達	-12.4953
踧	-12.4953
水東日記	-12.4953
右丞仲德	-12.4953
庳	-12.4953
机	-12.4953
又所律反	-12.4954
鴨	-12.4954
吻	-12.4954
英國公張懋	-12.4954
嗤	-12.4955
幃	-12.4955
䄈	-12.4955
臾	-12.4955
軋	-12.4955
知江寧府	-12.4956
賢良方正直言極諫	-12.4956
慣	-12.4956
再造之恩	-12.4956
瀕	-12.4956
鋼	-12.4956
直龍圖閣	-12.4956
脇	-12.4956
六十代承	-12.4956
碾	-12.4957
蠢	-12.4958
窒	-12.4958
讞	-12.4958
麓	-12.4958
港	-12.4958
漣	-12.4958
五十八代公	-12.4958
鈔十錠	-12.4959
个	-12.4959
􁇨	-12.4959
煽	-12.496
鎮南軍節度	-12.496
憩	-12.496
燄	-12.496
元年任三年致仕	-12.4961
儇	-12.4962
羅秉忠	-12.4962
多爾濟巴勒	-12.4962
衆所共知	-12.4963
豸	-12.4963
逭	-12.4963
垕	-12.4964
燃	-12.4964
狭	-12.4964
銀三百兩	-12.4965
竱	-12.4965
鑚	-12.4965
竅	-12.4966
掣	-12.4967
卲	-12.4967
任加太子少保兵部尚書	-12.4968
寬	-12.4968
侠	-12.4968
鈔千貫	-12.4968
徉	-12.4969
鵝	-12.4969
犛	-12.4972
太監廖堂	-12.4974
浃	-12.4975
佽	-12.4977
塢	-12.4978
髙辛氏	-12.4979
碁	-12.498
廕一子錦衣	-12.4986
錠六品七品	-12.4992
廱	-12.5017
薨夀四十九子	-12.5019
薨夀五十八子	-12.5385
年以禮部尚書文淵閣大學士加	-12.6163
年以禮部尚書文淵閣大學士進加	-12.6258
嘉靖庚戌進士萬厯	-12.6303
匹頭隻	-12.6316
右軍都督府	-12.6335
甲第一區	-12.6338
娙	-12.6341
癩	-12.6342
靦	-12.6342
泰寧侯陳	-12.6343
八年任右九年轉左	-12.6344
碗	-12.6345
俆	-12.6345
穵	-12.6346
訣	-12.6346
渦	-12.6346
斬首數千級	-12.6348
右俱清白守節	-12.6348
太尉司徒司空	-12.6349
西上閤門使	-12.6349
惜薪司	-12.6349
翁大立浙江餘姚	-12.635
蘧伯玉	-12.635
伏羌伯毛鋭	-12.6351
紆	-12.6352
右德性寛和	-12.6352
䜿	-12.6352
玹	-12.6352
斾	-12.6352
鞘	-12.6352
有隂於秦魏也	-12.6352
任右都御史掌院事	-12.6353
垠	-12.6354
彿	-12.6354
從平中原功多封	-12.6354
鵕	-12.6355
昆都楞	-12.6355
賕	-12.6355
阿爾噶遜	-12.6355
饉	-12.6355
郪	-12.6355
與韓氏大吏東勉	-12.6355
成國公朱勇	-12.6356
卉	-12.6356
江西南城人	-12.6356
蘇子也令齊	-12.6357
鯤	-12.6357
伊實喀	-12.6357
称	-12.6357
少傅太子太傅户部尚書謹身殿大學士	-12.6357
右千牛衛	-12.6357
景泰辛未進士𢎞治	-12.6357
韓公叔有齊魏	-12.6358
塨	-12.6358
棱	-12.6358
年以少傅太子太師吏部尚書	-12.6358
歌曰長鋏歸來乎	-12.6358
勗	-12.6358
同學究出身	-12.6358
聖人不易民而教智者不變	-12.6358
以太子太保武英殿學入	-12.6359
由進士七年任左	-12.6359
渤	-12.6359
棡	-12.6359
少傅太子太傅吏部尚書謹身殿大學士	-12.6359
齊楚之交善	-12.6359
宋鮑彪原注元吳師道補正	-12.6359
松漠紀聞	-12.636
蕙	-12.636
禰	-12.636
黏	-12.636
悁	-12.636
閒中今古録言	-12.636
陸光祖浙江平湖人	-12.636
費宷江西鉛山人	-12.636
臨函谷	-12.636
計無便於此者	-12.636
柲	-12.6361
跽	-12.6361
呌	-12.6361
尓	-12.6361
軷	-12.6361
潘晟浙江新昌人	-12.6361
成安侯郭亮	-12.6361
任賢勿貳	-12.6361
实	-12.6361
煃	-12.6361
瓖	-12.6361
遊擊將軍	-12.6361
㡳	-12.6361
諾們汗	-12.6361
𢡟	-12.6361
錦繡千純	-12.6362
吕氏祖謙	-12.6362
糖	-12.6362
腊	-12.6362
王璟山東沂州人	-12.6362
鍍	-12.6362
白璧百雙	-12.6363
督易州山厰	-12.6363
嘱	-12.6363
串	-12.6363
眊	-12.6363
𣙜貨務	-12.6363
騖	-12.6364
秦紘山東單縣人	-12.6364
聮	-12.6364
瑪噶達國	-12.6364
齮	-12.6364
彌子瑕	-12.6364
齕	-12.6364
窮兵黷武	-12.6364
睥	-12.6364
中大夫同知樞宻院事孫傅等状	-12.6364
嘉靖癸丒進士萬厯	-12.6364
宗帝號諡法	-12.6364
蘖	-12.6365
曝	-12.6365
徐少師階	-12.6365
饔	-12.6365
烏竒邁	-12.6365
驃騎將軍	-12.6365
雲中九原	-12.6365
廣東東莞人	-12.6365
執心决斷	-12.6366
鎮國中尉嵗支禄米四百石	-12.6366
壼	-12.6366
以太子太保禮部尚書武英殿大學士加	-12.6366
芸	-12.6366
不安席食不甘味	-12.6366
成化壬辰進士正徳	-12.6366
爟	-12.6367
孿	-12.6367
磋	-12.6367
埴	-12.6367
妍	-12.6367
山西澤州人	-12.6367
剝	-12.6367
厎	-12.6367
佀	-12.6367
圯	-12.6367
崢	-12.6367
少保太子太傅禮部尚書武英殿大學士	-12.6367
登聞鼓院	-12.6368
慁	-12.6368
濺	-12.6368
轉禍為福	-12.6368
僊	-12.6369
刖	-12.6369
么	-12.6369
褰	-12.6369
是故願大王之熟計之也	-12.6369
商文毅輅	-12.637
罪惡貫盈	-12.637
陳季獷	-12.637
蜚	-12.637
陽武侯薛禄	-12.637
加兼再以少傅兼	-12.637
縣人嘉靖三十	-12.637
富察世逹	-12.637
青吉斯汗	-12.637
東頭供奉官	-12.637
崐	-12.637
翩	-12.637
景泰甲戌進士𢎞治	-12.637
簇	-12.637
仿	-12.637
啞	-12.6371
恒山公仙	-12.6371
刲	-12.6371
北京行部尚書	-12.6371
糟	-12.6371
閶	-12.6371
階勲號襲如延安進同知大都督府	-12.6372
沍	-12.6372
秫	-12.6372
埓	-12.6372
畵	-12.6372
肌	-12.6372
太廟齋郎	-12.6372
氏東城兵馬指揮	-12.6372
玭	-12.6372
莱	-12.6373
紫金魚袋	-12.6373
姟	-12.6373
誃	-12.6373
逗	-12.6373
不學無術	-12.6373
楊少師廷和	-12.6373
跔	-12.6373
加俸一級	-12.6374
鈔三千貫	-12.6374
轘	-12.6374
雛	-12.6374
幔	-12.6374
銀青榮祿大夫	-12.6374
犀首立五王	-12.6374
太宗太平興國二年	-12.6375
蹵	-12.6375
惛	-12.6375
艦	-12.6376
徯	-12.6376
颺	-12.6376
戟	-12.6376
烷	-12.6376
唐余知古撰	-12.6376
筴	-12.6376
儌	-12.6376
閾	-12.6376
䍧	-12.6376
毖	-12.6376
烏訥博羅特	-12.6376
滿都古勒汗	-12.6376
猗	-12.6377
暄	-12.6377
僦	-12.6377
五十五代克	-12.6377
初鮮克有終	-12.6377
暌	-12.6378
贐	-12.6378
鯨	-12.6378
雹	-12.6378
肫	-12.6378
騤	-12.6378
右俱誠意見外	-12.6378
黻	-12.6379
杳	-12.6379
秦敗魏於華	-12.6379
金紫光禄大夫	-12.6379
王禹偁	-12.6379
巴圖䝉克	-12.6379
肢	-12.6379
襄城伯李隆	-12.6379
蹴	-12.6379
磽	-12.6379
李韓公善長	-12.6379
糠	-12.6379
額爾徳尼	-12.6379
劬	-12.6379
潪	-12.6379
漦	-12.6379
蛟	-12.6379
茨	-12.6379
鎮逺侯顧寰	-12.638
五十一子今王	-12.638
噪	-12.638
簋	-12.638
董敦逸	-12.638
蒍	-12.638
袴	-12.6381
樣	-12.6381
痊	-12.6381
秦府保安王	-12.6381
嵇	-12.6381
檢詳文字	-12.6381
懣	-12.6382
阿噶巴爾濟	-12.6382
五代史闕文	-12.6382
和托卜罕	-12.6382
姝	-12.6382
鍔	-12.6382
栅	-12.6382
瀞	-12.6382
右俱容儀恭羙	-12.6382
鎮朔大將軍	-12.6383
醖	-12.6383
楚昭獻相韓	-12.6383
陵神宫監	-12.6384
髯	-12.6384
礮	-12.6384
蕢	-12.6385
趙王髙燧	-12.6385
定襄王朱希忠	-12.6385
冑	-12.6385
禮科都給事中	-12.6385
虬	-12.6385
伊拉呼丞相	-12.6385
勃端察爾	-12.6385
堀	-12.6385
漉	-12.6385
悝	-12.6386
燆	-12.6386
惱	-12.6386
窠	-12.6386
纏	-12.6386
嘲	-12.6386
命左春坊左諭徳兼翰林院侍讀	-12.6387
窑	-12.6387
魯府鉅野	-12.6387
秦府永夀王	-12.6388
蕭仲㳟	-12.6388
訏	-12.6388
滂	-12.6388
一疋織金胸背	-12.6388
秬	-12.6389
週	-12.6389
擎	-12.6389
釵	-12.639
阿卜都拉徹辰	-12.639
葉祖洽	-12.639
坐蟒蟒衣各一襲	-12.6391
仭	-12.6391
玞	-12.6391
兵連禍結	-12.6391
中年早夭	-12.6392
粃	-12.6392
籙	-12.6393
墝	-12.6393
衛永逺充軍	-12.6394
煑	-12.6394
設令一人正七品丞一人從七品	-12.6394
憱	-12.6395
剄	-12.6396
喋	-12.6396
闥	-12.6397
蝦	-12.6397
玦	-12.6397
畚	-12.6397
禳	-12.6397
翹	-12.6397
𤱔	-12.6397
俵	-12.6397
籩	-12.6399
榆木川	-12.6399
吠非其主	-12.64
僱	-12.6401
凜	-12.6401
脤	-12.6401
彉	-12.6403
耰	-12.6405
忸	-12.6409
孑	-12.6411
一人正五品司	-12.6411
跗	-12.6412
鬛	-12.6413
憖	-12.6415
庀	-12.6417
覡	-12.6418
都御史仍前任	-12.6463
賢良方正能直言極諫科	-12.6809
額色勒貝侍衛	-12.7879
磉	-12.7977
迅	-12.7996
瞰	-12.7997
有向晉於周	-12.7997
使於韓矯以新城陽人	-12.8
又安敢言地楚王曰善乃	-12.8001
㢋	-12.8002
韓氏急必懸命於楚又何新	-12.8002
對曰弗如也王曰	-12.8003
所言者國大事也願先生勿泄也	-12.8004
太子者以市下東國也	-12.8004
疹	-12.8006
為人後者為其父母	-12.8008
太師太傅太保為	-12.8008
人而不能則謂之	-12.8008
開國男食邑三百户	-12.8008
营	-12.8008
濛	-12.8009
顔率至齊謂齊王	-12.8009
金鑲玉帶一	-12.8009
隆平侯張信	-12.801
可以益割於楚	-12.801
相救助如一	-12.801
絣	-12.801
銲	-12.801
禓	-12.8011
􁃛	-12.8012
㩦	-12.8012
宋王栐撰	-12.8012
夫江上之處女	-12.8012
判四方館事	-12.8013
姚䕫浙江桐廬人	-12.8013
珠爾齊特	-12.8014
舟檝之用	-12.8014
有國有家者	-12.8014
鈴	-12.8015
𥙿	-12.8015
􁄰	-12.8015
㑹昌侯孫繼宗	-12.8015
奉太子而立之	-12.8016
定身封此百代	-12.8016
者於王何如王曰此	-12.8016
謀人之心而令人	-12.8016
緜	-12.8016
還而視之去而顧之	-12.8016
以五百里之地易安陵安陵君	-12.8016
梵	-12.8016
河薄洛之水	-12.8016
簞	-12.8016
曰公叔伯嬰恐秦楚之	-12.8016
賜白金千兩	-12.8016
蛉	-12.8017
此固已無霸王之道	-12.8017
逐吾主母	-12.8017
鯉之與於遇	-12.8017
春申君曰何謂無妄之	-12.8017
無一介之使以存之	-12.8018
以兵合於三晉	-12.8018
物固有勢異而患同者	-12.8018
紋	-12.8018
以兵部左侍郎兼僉都御史總	-12.8019
有憂色何	-12.8019
醳	-12.8019
曰燕秦不兩立願先生留意也	-12.802
交淺而言深是	-12.802
再戰而再勝	-12.802
宣力武臣特進榮祿大夫柱	-12.802
霸王之名不成	-12.802
魏秦之交必	-12.802
誠意伯劉基	-12.802
脰决腹	-12.802
然後王可以多割地	-12.802
計者東方有大變	-12.802
内客省使	-12.8021
瓌	-12.8021
懧	-12.8021
使除患無至	-12.8021
總理河道	-12.8021
之兵連於城下	-12.8021
去王以其間伐韓入三川出兵	-12.8021
年添註右	-12.8021
身而之梁齊必舉兵伐	-12.8021
􁟸	-12.8021
不愛丈夫子獨甚	-12.8021
焦泌陽芳	-12.8022
扉	-12.8022
陶琰山西絳州人	-12.8022
以鬼之言見	-12.8022
嫫	-12.8022
成化己丒進士	-12.8022
曰曾參殺人其母	-12.8022
欲去秦而之楚	-12.8022
燕出銳師以佐之	-12.8022
逯	-12.8022
刼弑死亡之主	-12.8022
塞漏舟而輕陽侯之波	-12.8022
鷸曰今日不	-12.8022
潯	-12.8023
蹔	-12.8023
額訥特珂克土伯特䝉古汗等源流	-12.8023
使彼罷敝	-12.8023
曰周書有言美	-12.8023
以二十萬之衆攻	-12.8023
取皮氏卒	-12.8023
漢之起二百四	-12.8023
臊	-12.8023
恭順侯吳克忠	-12.8023
摽	-12.8023
三年與楚三晉攻秦	-12.8023
説與遊撃將軍都督劉江	-12.8024
而死烏獲之力而死	-12.8024
田六百畛	-12.8024
倩	-12.8024
君以㓕口	-12.8024
憧	-12.8024
荆趙之志絶	-12.8024
以百里之地請殺	-12.8024
异	-12.8024
無梁孰與無	-12.8024
莾	-12.8025
召文子而相之	-12.8025
穉	-12.8025
右清白守節	-12.8025
坼	-12.8025
舉巴蜀并漢中	-12.8026
西周天下惡之其救韓必疾則茂事敗矣	-12.8026
刑白馬以盟	-12.8026
鄮	-12.8026
陳軫曰善因使人	-12.8026
其實而無其名者	-12.8026
積粟之實此	-12.8026
莖	-12.8026
強國也大王天下之賢	-12.8027
淩	-12.8027
謂公孫顯曰請	-12.8027
㚥	-12.8027
讋	-12.8027
悵	-12.8027
日飲酒樂天	-12.8027
姨	-12.8027
變古之教易古之道	-12.8027
闍	-12.8027
攪	-12.8027
之長計今上客	-12.8027
釋此而襲逺方之	-12.8028
王誠舒良	-12.8028
有城市之邑七十	-12.8028
無有名山大川之限	-12.8028
畒	-12.8028
濘	-12.8028
愛齊而憎秦	-12.8028
炮	-12.8028
賽瑪爾堪	-12.8028
辭倨而幣薄	-12.8028
河南太康人	-12.8028
支秦必入臣	-12.8028
長興侯耿炳文	-12.8028
暠	-12.8029
鏖	-12.8029
䌓	-12.8029
李牧司馬尚	-12.8029
鈔一百四十錠	-12.8029
萬車三百乗	-12.8029
階勲號襲如延安	-12.8029
菽園雜記	-12.803
使秦王烹醢梁王	-12.803
秦盡韓魏之上黨	-12.803
勳	-12.803
蕞	-12.803
何以至今不業也	-12.803
無其名又無其實者王	-12.803
藥囊提荆軻	-12.803
趙使姚賈約韓魏	-12.803
秦乃在河西晉國之去	-12.803
起中山與勝	-12.803
左成謂甘茂曰	-12.803
罜	-12.8031
胞	-12.8031
事秦稱東藩築帝宫	-12.8031
城市邑五十七	-12.8031
九十錠千户衛鎮撫絹二疋鈔	-12.8031
匀	-12.8031
曰田需死吾恐張儀薛公	-12.8031
梁王長主也必不	-12.8031
汪鏜浙江鄞縣人	-12.8031
王軾湖廣公安人	-12.8031
篓	-12.8031
莫敖子華對曰昔	-12.8031
不聽是公之智困	-12.8031
守趙之質子以甲	-12.8031
湯之伐桀	-12.8031
王嵗支本色禄米	-12.8031
楚庫克爾	-12.8031
娃	-12.8031
空徑三分	-12.8031
橘	-12.8031
割濟東三城	-12.8031
右韓而左魏	-12.8031
弗予任章	-12.8031
招權納賄	-12.8031
曰無故索地	-12.8031
割河東而講	-12.8032
錠編伍舍人家人餘丁民人鈔	-12.8032
靖逺伯王驥	-12.8032
朝不謀夕	-12.8032
𤨏	-12.8032
毘	-12.8032
憍	-12.8032
右齊而左魏	-12.8032
四鄰諸侯可朝也	-12.8032
幻	-12.8032
􁅾	-12.8032
有一人相魏者代曰	-12.8032
檢頭目總旗總甲鈔	-12.8033
屣	-12.8033
猒	-12.8033
奉天翊衛宣力武臣特進榮祿大夫柱國	-12.8033
梨	-12.8033
脣	-12.8033
則其國無宿憂	-12.8033
各鈔五百貫絹	-12.8033
徐公何能及君也	-12.8033
伊遜烏爾魯克	-12.8033
日大楚皇帝邦昌謹致書于國	-12.8033
民勞而實費	-12.8033
浙江金華人	-12.8033
講之悔也王	-12.8033
魏王使客將軍辛垣衍	-12.8033
疋棉花五斤	-12.8034
恫	-12.8034
趙府洛川王	-12.8034
塩	-12.8034
禠	-12.8034
勝於城濮	-12.8034
封二子者各萬家之縣一	-12.8034
於轅門之外其	-12.8034
浙江秀水人由	-12.8034
癲	-12.8034
迥	-12.8034
葉陽君涇陽君之	-12.8034
賈詠河南臨潁人	-12.8034
殺晉鄙救邯鄲破秦人存趙國	-12.8034
總制陜西三邊	-12.8035
職如故祿千五百石七年増千石	-12.8035
輾	-12.8035
邰	-12.8035
斷長續短方數千里名師數百萬	-12.8035
褫	-12.8035
媮	-12.8035
公行之計是其於	-12.8035
覆軍殺將之	-12.8035
以虞卿之言告	-12.8035
年以左副都御史任	-12.8035
芽	-12.8036
未封卒夀	-12.8036
橛	-12.8036
苞	-12.8036
行道之人皆知之	-12.8036
陵三晉然則是一舉而霸王之名可成也	-12.8036
㕁	-12.8036
代府廣陵王	-12.8036
代府懐仁王	-12.8036
嗞	-12.8036
趙奢鮑佞	-12.8036
闔城陽而王	-12.8036
噶里雅納汗	-12.8036
鄭洛直𨽻安肅人	-12.8036
陁	-12.8037
穪	-12.8037
菹	-12.8037
儳	-12.8037
剡	-12.8037
三王不足四五霸不足六	-12.8037
助燕擊齊	-12.8037
受欺於張儀	-12.8037
得是藉也亦	-12.8037
葅	-12.8037
茹瑺湖廣衡山人	-12.8037
非國之長利也	-12.8037
產	-12.8038
璃	-12.8038
楊行中順天通州人	-12.8038
鬃	-12.8038
平虜伯朱彬	-12.8038
帚	-12.8038
仔	-12.8038
姤	-12.8039
㟁	-12.8039
瀋府沁水王	-12.8039
且王攻楚之日	-12.8039
梳	-12.8039
􁈍	-12.8039
搤	-12.8039
夫智伯之為人	-12.8039
鞨	-12.8039
謔	-12.8039
匭	-12.8039
伏軾結靷	-12.8039
馳者未有一人言善	-12.8039
欬	-12.8039
澣	-12.8039
直𨽻懷逺人	-12.8039
骿	-12.8039
單解裘而衣之	-12.8039
綘	-12.8039
螟	-12.804
鐲	-12.804
文綺帛各六疋	-12.804
所營者水皆	-12.804
盲	-12.804
何不令人謂韓	-12.804
剱	-12.804
粘	-12.804
葉陽涇陽君	-12.804
山東鄒平人	-12.8041
沫	-12.8041
腥	-12.8041
拖	-12.8041
吏禮二部	-12.8041
手不釋卷	-12.8041
拄	-12.8041
十兩紵絲二表裏	-12.8041
牣	-12.8041
韓却周害	-12.8041
則形同憂而兵趨利也	-12.8041
城求講於秦	-12.8041
示人以難也	-12.8041
隃	-12.8041
辤	-12.8042
秦非不利有齊而得宋地	-12.8042
夜光之璧	-12.8042
寵禄光大	-12.8043
穡	-12.8043
恡	-12.8043
莞	-12.8043
奉天翊運推誠宣力守正	-12.8043
晡	-12.8043
髀	-12.8043
齊南破楚西屈秦用韓魏之兵燕趙	-12.8043
奉天承運皇帝制曰	-12.8043
有所更得乎	-12.8043
韣	-12.8044
滹沱河	-12.8044
代府靈丘王	-12.8044
傘	-12.8044
尢	-12.8044
楸	-12.8044
犄	-12.8044
雯	-12.8044
竊為君危之	-12.8044
鈁	-12.8044
吃	-12.8044
彚	-12.8044
隲	-12.8044
魏王曰然則射可至此乎更羸曰	-12.8044
以太子太保吏部尚書武英殿大學士加	-12.8044
十年之田而不償也	-12.8045
而習於事必不益趙甲四萬人以伐齊	-12.8045
應侯曰然蔡澤	-12.8046
後起則諸侯可趨役也	-12.8046
殷公士儋	-12.8046
羹	-12.8046
蜺	-12.8046
軍殺將得八城	-12.8046
家給人足	-12.8046
楎	-12.8046
􁰋	-12.8046
褊	-12.8047
總督陜西三邊軍務	-12.8047
朕甚嘉焉	-12.8047
王屋洛林之地	-12.8047
且割而從天下	-12.8047
封奉天翊運推誠宣力武臣	-12.8047
知稼穡之艱難	-12.8047
以賂燕趙出兵以攻中山	-12.8047
剛成君蔡澤事燕三年而燕太子	-12.8047
理之固然者	-12.8047
埸	-12.8047
其王事遂定	-12.8048
炷	-12.8048
煐	-12.8048
欲割平邑	-12.8048
􁞞	-12.8048
之所欲於魏者長平	-12.8049
擕	-12.8049
万	-12.8049
是秦禍不離楚也	-12.8049
扛	-12.8049
鵡	-12.8049
氏自經死贈淑人	-12.8049
於秦秦齊合則	-12.8049
恭已鮮言	-12.805
􁧨	-12.805
稗	-12.805
江西永新人	-12.805
鸚	-12.805
嶮	-12.805
王杲山東汶上人	-12.8051
溷	-12.8051
貊	-12.8051
碍	-12.8051
鉟	-12.8051
惡得此亡國之言乎	-12.8051
痛心疾首	-12.8051
周府汝陽王	-12.8051
飡	-12.8051
乎藍諸君曰	-12.8051
壙	-12.8052
泚	-12.8052
儘	-12.8052
縈	-12.8052
軔	-12.8052
包藏禍心	-12.8053
􁅅	-12.8053
有承國之業	-12.8054
畯	-12.8054
秕	-12.8054
緤錯挐薄	-12.8054
嚇	-12.8054
臍	-12.8055
府親王一位在省	-12.8055
齍	-12.8055
詖	-12.8055
箒	-12.8055
懔	-12.8055
檝	-12.8055
怛	-12.8056
攽	-12.8056
嗚	-12.8056
紲	-12.8057
慈和徧服	-12.8057
脧	-12.8057
璆	-12.8058
麀	-12.8058
迸	-12.8059
其良士選卒	-12.8059
慕容彦超	-12.8059
蛙	-12.806
累戰功封階勲號襲如延安	-12.806
爐	-12.8061
簴	-12.8061
蝎	-12.8061
鍛	-12.8061
檛	-12.8062
厯城侯庸	-12.8063
熇	-12.8063
駙馬都尉梅殷	-12.8063
薩穆爾公主	-12.8063
孟浪乃爾	-12.8064
烴	-12.8065
天下固量秦力	-12.8066
以吏侍學士入	-12.8066
楬	-12.8067
阿薩特之	-12.8067
裡	-12.8068
昊天有成命	-12.807
插	-12.807
春秋外𫝊國語	-12.807
喂	-12.8071
蓑	-12.8071
年以少傅加少師兼	-12.8071
稂	-12.8073
酹	-12.8075
愒	-12.8081
顗	-12.8089
鬩	-12.809
麽	-12.8096
㵣	-12.8096
妎	-12.8101
以少詹兼	-12.9155
年任右本年閒住	-12.9679
位中尉無郡縣主君	-12.9983
棻	-12.9986
右推賢盡誠	-12.999
尉遲敬徳	-12.9991
薩爾塔郭勒	-12.9994
犖	-12.9997
其子鎮海鎮東節度使惟濬	-12.9997
瓿	-13
号	-13.0001
靺	-13.0002
總督陜西三邊加陞	-13.0003
嶲	-13.0004
欲合齊秦外楚以輕	-13.0005
顔率曰大王勿憂臣請東	-13.0005
為無患與人無争也不知夫	-13.0006
總督軍務威武大將軍總兵官	-13.0006
說薛公以善蘇子	-13.0006
合秦楚外齊以輕	-13.0007
鐙	-13.0008
烏格徳依	-13.0008
彖	-13.0009
燕則豈楚之任也哉	-13.001
何不試奉公子咎	-13.001
曁	-13.001
㔋	-13.001
曰受薛於先王	-13.001
不合軍於南鄭	-13.001
鮞	-13.0011
槽	-13.0011
籖	-13.0011
而患急齊不與秦壤	-13.0011
身自削甲札	-13.0011
馮盎談殿	-13.0011
由進士十一年任右十二年轉左	-13.0012
有糧之地而蹈無糧之處	-13.0013
趙魏楚得齊則足以敵秦	-13.0013
其於王孰便也	-13.0014
牗	-13.0014
澶	-13.0014
顔頥夀湖廣巴陵人	-13.0014
䴠	-13.0014
啣	-13.0015
袀	-13.0015
鉥	-13.0015
願公之熟計之也	-13.0016
右威而不猛	-13.0016
栐	-13.0016
儀儀之所在必舉兵伐之故儀願乞不肖	-13.0016
何也夫千鈞非馬之任也今謂楚	-13.0016
衊	-13.0017
少師蹇義少傅楊士竒	-13.0017
脰	-13.0017
阿里瑪丞相	-13.0017
謂馬多力則有矣若曰勝千鈞則不然者	-13.0017
楊博山西蒲州人	-13.0017
鎮逺侯顧興祖	-13.0018
眦	-13.0018
睚	-13.0018
楚府通山王	-13.0018
吏左侍兼任㝷	-13.0018
吏户禮兵刑工	-13.0018
呼必賚徹辰汗	-13.0018
塜	-13.0018
齊王曰寡人將寄徑於	-13.0018
鎮逺侯顧成	-13.0019
舸	-13.0019
遼府枝江王	-13.0019
墣	-13.0019
輕車銳騎	-13.0019
疑事無功疑行無名	-13.002
江東山東朝城人	-13.002
黝	-13.002
𢋫	-13.002
公叔使馮君於秦	-13.002
收秦太后之養地	-13.002
右俱德性寛和	-13.002
秦有鄭地得垣雍	-13.0021
鵰	-13.0021
言救魏以勁	-13.0021
左春坊左贊善	-13.0021
趋	-13.0021
亷其爵貧其身以憂社稷者	-13.0021
函谷而無伐以臨周祭器必出	-13.0021
安陵君曰吾先君成侯	-13.0021
呻	-13.0022
令秦攻魏以成其私	-13.0022
呑	-13.0022
王廷相河南儀封	-13.0022
於成事智者見於未萌	-13.0022
娠	-13.0022
深溝髙壘	-13.0022
錬	-13.0022
搭	-13.0022
楚圍雍氏韓令冷向	-13.0022
王廷四川南充人	-13.0022
钁	-13.0022
𦵔	-13.0022
元王鶚撰	-13.0023
李承勛湖廣嘉魚人	-13.0023
秦舉安邑而塞女㦸	-13.0023
摺	-13.0023
繓	-13.0023
􁊎	-13.0023
趙收天下且以伐齊	-13.0023
髭	-13.0023
凾	-13.0023
周經山西陽曲人	-13.0023
阼	-13.0024
少傅太子太師吏部尚書華蓋殿大學士	-13.0024
紬	-13.0024
眸	-13.0024
謩	-13.0024
滹	-13.0024
陻	-13.0024
桑噶斯巴	-13.0024
縉雲鮑彪校注東陽呉師道重校	-13.0024
蔆	-13.0024
手詔平山張覺招納叛亡	-13.0024
謂魏冉曰楚破秦	-13.0025
魏王與龍陽君	-13.0025
鸇	-13.0025
傋	-13.0025
淦	-13.0025
䂓	-13.0026
尼洛木塔拉	-13.0026
愚計奉明約在大王	-13.0026
劉天和湖廣麻城人	-13.0026
吕調陽廣西臨桂人	-13.0026
急北兵趨趙	-13.0026
樛	-13.0026
弱越之所以霸	-13.0026
萑	-13.0026
錢如京直𨽻桐城人	-13.0026
𢎞治癸丑進士嘉靖	-13.0026
躭	-13.0027
戅	-13.0027
䣆	-13.0027
訒	-13.0027
鄚	-13.0027
秦使趙攻魏魏謂趙王	-13.0027
王學䕫江西安福人	-13.0027
泳	-13.0028
笛	-13.0028
迃	-13.0028
銀二十萬兩絹三十萬疋	-13.0028
媼	-13.0028
熊浹江西南昌	-13.0028
縣開國男食邑三百户賜紫金魚袋	-13.0028
楚使者景鯉在秦	-13.0028
燕饑趙將伐之	-13.0028
佾	-13.0028
馮忌請見趙王	-13.0028
成化丁未進士嘉靖	-13.0028
破卒散兵以	-13.0029
謳	-13.0029
自威王時任職	-13.0029
愀	-13.0029
燕昭王且與天下伐齊	-13.0029
爀	-13.0029
秦并趙北向迎燕	-13.0029
螺	-13.0029
若是則齊君可正	-13.0029
􁲱	-13.0029
王篆湖廣夷陵	-13.0029
王越直𨽻濬縣人	-13.0029
秦鳴雷浙江臨海人	-13.0029
叢蘭山東文登人	-13.0029
張守直順天遵化人由進士	-13.0029
張鵬直𨽻淶水人	-13.0029
王腦塗地	-13.0029
年攻燕取狸陽城	-13.003
襲如成陽嵗祿一千	-13.003
魏相翟強死	-13.003
敗韓魏殺犀武攻趙取藺離石	-13.003
瓠	-13.003
朱衡江西萬安人	-13.003
行五拜三叩頭禮	-13.003
萱	-13.003
霍冀山西孝義人由進士四十	-13.003
平原君謂平陽君	-13.003
袑	-13.0031
肝腦塗地	-13.0031
捃	-13.0031
㨂	-13.0031
非好卑而惡尊	-13.0031
趙勉湖廣夷陵人	-13.0031
悊	-13.0031
鎜	-13.0031
燕封宋人榮蚠	-13.0031
此兩者所以成官而順政也非所以	-13.0031
王用賔陜西咸寧人	-13.0031
景泰甲戌進士成化二十	-13.0032
妥	-13.0032
㪚	-13.0032
蠭	-13.0032
不為爵勸不為禄勉以憂社稷者	-13.0032
枵	-13.0032
當屯留之道	-13.0032
是趙存而我	-13.0032
李傑直𨽻常熟人	-13.0032
者良僕妾也	-13.0032
驅十二諸侯以朝天子	-13.0032
以韓魏循自齊	-13.0032
昭奚恤與彭城君	-13.0032
韓陽役於三川	-13.0032
王孫賈年十五	-13.0033
魏王問張旄	-13.0033
周洪謨四川長寧人	-13.0033
公仲使韓珉之秦	-13.0033
締	-13.0033
型	-13.0033
滙	-13.0033
瀼	-13.0033
犴	-13.0033
馮天馭湖廣蘄州人	-13.0033
齊亡魏則有功而	-13.0033
樓緩將使伏事	-13.0033
謂鄭王曰昭釐侯	-13.0033
上及太后下至大臣願先	-13.0033
哂	-13.0033
成化甲辰進士正徳	-13.0033
秦得天下則伐齊深	-13.0033
蘇代自齊獻書於燕	-13.0034
文侯與虞人期	-13.0034
毯	-13.0034
琇	-13.0034
絮	-13.0034
凌漢河南原武人	-13.0034
闐	-13.0034
上計破秦其次長賔	-13.0034
不足者也非然則欲以天	-13.0034
六十錠指揮銀	-13.0034
曖	-13.0034
諦	-13.0034
誄	-13.0034
㓗	-13.0034
蘇秦從燕之趙	-13.0034
秦攻韓圍陘	-13.0035
張儀欲窮陳軫	-13.0035
以兵部尚書兼右都御史任	-13.0035
扄	-13.0035
日生二十四年四月十三日封	-13.0035
宸妃萬氏	-13.0035
濰	-13.0035
􁄍	-13.0035
徑三分圍九分長九十分	-13.0035
韓府褒城王	-13.0035
剉	-13.0035
拮	-13.0035
石米鈔中半兼支襲封同	-13.0035
西樵野記	-13.0035
瞢	-13.0036
妺	-13.0036
暏	-13.0036
煴	-13.0036
韙	-13.0036
魯府安丘王	-13.0036
庵	-13.0036
璇	-13.0036
齊攻宋宋使臧子	-13.0036
布爾特齊諾	-13.0036
生𢎞治四年八月十五日封	-13.0036
觀逺而論始也	-13.0037
欘	-13.0037
潁國公傅友德	-13.0037
箔	-13.0037
部貟外郎	-13.0037
尼雅持贊博汗	-13.0037
屨	-13.0037
燠	-13.0037
伊巴哩滿都賚	-13.0037
斈	-13.0037
酗	-13.0037
代府潞城王	-13.0037
奉陽君告朱讙	-13.0037
彥	-13.0037
刹	-13.0037
由本部員外郎陞	-13.0037
譚綸江西宜黄人	-13.0037
俗不肖者拘焉	-13.0038
皿	-13.0038
宣平王朱永	-13.0038
寀	-13.0038
定興王張輔	-13.0038
湮	-13.0038
曰客果有能也	-13.0038
移風易俗	-13.0038
靷	-13.0038
齊王使使者問趙	-13.0038
大小之禍可見於前事矣	-13.0038
慶府真寧王	-13.0038
禫	-13.0038
正統乙丒進士成化	-13.0038
且夫三代不同服而王五	-13.0039
李遂江西豐城	-13.0039
謂應侯曰君禽馬服	-13.0039
党	-13.004
之名實不失天下	-13.004
惜十家之産	-13.004
夥	-13.004
橦	-13.004
黧黒黄色	-13.004
燕攻齊取七十餘	-13.004
蠹	-13.004
𫀆	-13.004
一鶚直𨽻曲周人	-13.004
嘉靖辛丒進士隆慶	-13.004
塚	-13.004
娵	-13.004
致萬家之邑一於智伯智伯說又使人	-13.004
齊韓魏共攻楚	-13.004
浞	-13.004
錫吉爾福晉	-13.004
趙廷瑞直𨽻開州人	-13.004
秦敗東周與魏戰	-13.004
徬	-13.0041
埨	-13.0041
乱	-13.0041
燇	-13.0041
鋷	-13.0041
齊韓魏共攻燕	-13.0041
墅	-13.0041
㝎	-13.0041
洪吉喇特	-13.0041
王學益江西安福人	-13.0041
盪	-13.0041
成午從趙來	-13.0041
敝邑之事王亦無齊累矣	-13.0041
袠	-13.0041
魯府樂陵王	-13.0041
荗	-13.0041
秦圍趙之邯鄲	-13.0041
浡泥國王麻邪惹加那乃	-13.0042
檉	-13.0042
槊	-13.0042
攟	-13.0042
栘	-13.0042
檖	-13.0042
樟	-13.0042
眄	-13.0042
銍	-13.0042
趙取周之祭地	-13.0042
嘉靖癸丑進士萬厯	-13.0042
而皆去之不能死	-13.0043
具官呂某	-13.0043
案兵而後起寄怨而誅不直	-13.0043
茹忠誠瑺	-13.0043
礎	-13.0043
萬分之一也而	-13.0043
藎	-13.0043
䄇	-13.0043
傿	-13.0043
焜	-13.0043
張儀欲假秦兵	-13.0043
旗甲軍民通事火長小厮軍匠軍行人鈔	-13.0043
鄧師宛馮	-13.0043
夐	-13.0044
楩楠豫章	-13.0044
卸	-13.0044
瀋府沁源王	-13.0044
瘉	-13.0044
毡	-13.0044
瀋府稷山王	-13.0044
民醫匠人厨役行人稍水并家人鈔	-13.0044
求以報吳願以此戰包胥曰善	-13.0044
生二十四年四月十三日封永樂六年	-13.0044
以大都督府僉事從平西畨功封勲號同	-13.0044
司儀署丞	-13.0045
孃	-13.0045
金英范𢎞	-13.0045
喏	-13.0045
洊	-13.0045
遼府湘隂王	-13.0045
秦攻趙趙令樓緩	-13.0045
砭	-13.0045
璚	-13.0045
人等綿布一疋鈔	-13.0045
秦召魏相信安君	-13.0045
瑺	-13.0046
遄	-13.0046
蠅	-13.0046
裻	-13.0046
譌	-13.0046
負書擔囊	-13.0046
寧陽王張懋	-13.0046
獻可替否	-13.0046
衮必里克墨爾根濟農	-13.0046
齊人見田駢	-13.0046
嚙	-13.0046
梃	-13.0046
周府胙城王	-13.0046
蔡恃晉而亡此	-13.0047
書判拔萃科	-13.0047
獷	-13.0047
跿	-13.0047
遼府益陽王	-13.0047
曰謹受令乃	-13.0048
昭陽為楚伐魏	-13.0048
􁙉	-13.0048
樽	-13.0048
􁈩	-13.0048
遼府沅陵王	-13.0048
梁之大盗趙之逐臣	-13.0048
或謂公仲曰今有一舉	-13.0048
任南院讀學	-13.0049
掦	-13.0049
烇	-13.0049
徳慶侯廖永忠	-13.0049
瀹	-13.0049
蠆	-13.0049
垶	-13.0049
烏哈噶圖汗	-13.0049
魀	-13.0049
峡	-13.0049
之衆猶鞭筴也	-13.0049
謂魏冉曰和不成	-13.0049
鍑	-13.0049
髦	-13.0049
肄	-13.005
貂勃曰然臣固知王不若也	-13.005
代府隰川王	-13.005
躬擐甲胄	-13.005
幙	-13.0051
貓	-13.0051
廛	-13.0051
孛	-13.0051
薜	-13.0051
鍥	-13.0051
絙	-13.0051
軺	-13.0051
生十一年正月初一日封	-13.0051
皇后父封祿一千石	-13.0051
矞	-13.0051
窻	-13.0051
掫	-13.0052
魏敗楚於陘山	-13.0052
偰	-13.0052
瑊	-13.0052
硯	-13.0052
冄	-13.0052
窕	-13.0052
峻宇雕墻	-13.0053
薑	-13.0054
嘉靖丙辰進士萬厯十六年任	-13.0054
僎	-13.0054
垙	-13.0054
詁	-13.0054
詡	-13.0054
淂	-13.0055
淓	-13.0055
㐲	-13.0055
趂	-13.0055
畡	-13.0055
弹	-13.0055
稑	-13.0056
惴	-13.0056
咏	-13.0056
偲	-13.0056
撚	-13.0056
右文殿脩撰	-13.0057
䡰	-13.0057
勅都督劉江朱榮	-13.0058
米鈔中半兼支郡王初封嵗支禄米	-13.0058
昭獻在陽翟	-13.0058
麪	-13.0059
菁	-13.0059
錫古蘇特	-13.0059
髽	-13.0059
秔	-13.006
瀍	-13.006
甦	-13.0061
淤	-13.0061
聯	-13.0061
賈唐二君云	-13.0061
㞑	-13.0061
年生佔據右翼	-13.0061
張儀之殘樗里	-13.0062
峭	-13.0062
鞾	-13.0062
筥	-13.0062
忠勤伯汪廣洋	-13.0062
尨	-13.0062
諴	-13.0062
􁊛	-13.0062
犀武敗於伊闕	-13.0063
㷀	-13.0063
􁒯	-13.0063
杙	-13.0063
鈸	-13.0063
齋亞麻勿菴	-13.0063
麯	-13.0064
殣	-13.0064
􁰆	-13.0065
芹	-13.0065
膈	-13.0065
蒱	-13.0067
筒	-13.0067
趙府襄邑王	-13.0067
爁	-13.0067
鈔四百貫絹二	-13.0067
斬有罪者以徇曰莫如此	-13.0067
候台㫖天㑹五年二月	-13.0068
論一首第四塲	-13.0069
臠	-13.0069
遼府宜城王	-13.0069
稯	-13.007
枇	-13.0071
祊	-13.0071
綍	-13.0071
忮	-13.0072
餧	-13.0073
朘	-13.0073
方尺圓其外	-13.0073
搔	-13.0074
卅	-13.0075
单	-13.0075
閃	-13.0076
嵗米二十四石	-13.008
正七品女使二人	-13.008
勻	-13.0084
綖	-13.0084
鴿	-13.0085
鞴	-13.0087
之所當議也一議	-13.0088
燀	-13.0088
耼	-13.0091
鎌	-13.0091
遯	-13.0094
鴳	-13.0097
疢	-13.0099
弈	-13.0115
聃	-13.0117
綿布一疋鈔二	-13.0343
張儀為秦破從連横	-13.1707
試賢良方正能直言極諫	-13.1793
張佳𦙍四川銅梁人	-13.2401
夜泊舟中廿	-13.2473
藂	-13.2482
鈿	-13.2483
媛	-13.2491
􁆁	-13.2491
蓆	-13.2494
教可以幸無罪矣故受命而	-13.2494
㬇	-13.2494
郡主下嫁儀賔	-13.2497
人嘉靖丙辰進士萬厯十	-13.2497
疥	-13.2499
囹	-13.25
胖	-13.2501
􁃕	-13.2501
桿	-13.2505
豳	-13.2505
簸	-13.2505
簎	-13.2506
郡王初封嵗支禄米	-13.2506
韓公叔與幾瑟爭國	-13.2508
樨	-13.2508
䔖	-13.2508
椑	-13.2508
灕	-13.2508
剃	-13.2509
痰	-13.2509
䕶左都水使者光禄大夫臣向	-13.251
泭	-13.251
新寧伯譚祐	-13.2511
䘚	-13.2511
山南東道節度使同平章事	-13.2511
蘇尼特之吉魯根巴圖爾	-13.2511
猴	-13.2511
國别者略以時次之分别不以序者以相	-13.2511
訢	-13.2511
賭	-13.2511
夬	-13.2512
塗身令若癩	-13.2512
畤	-13.2512
朱榮都指揮蘇和囉海王哈喇巴圖爾	-13.2512
金獻民四川綿州人	-13.2512
􁒐	-13.2512
㕥	-13.2512
稳	-13.2513
儡	-13.2513
囓	-13.2513
椰	-13.2513
莬	-13.2513
達賴喇嘛羅卜藏扎木蘇	-13.2513
嶢	-13.2513
為云者豈不為過謀	-13.2513
人洪武九年任後封侯	-13.2513
屠勲浙江平湖人	-13.2514
滕昭河南汝州人由	-13.2514
楪	-13.2515
非而循禮未足多也	-13.2515
爔	-13.2515
六威不掩於山東而掩於	-13.2515
詫	-13.2515
利盡歸於陶國之幣帛	-13.2515
相襲而王夏殷之衰也不易禮而	-13.2515
中書本號或曰國	-13.2515
董份浙江烏程人	-13.2515
劉光濟直𨽻江隂	-13.2515
釧	-13.2515
以求割地願大王之熟	-13.2515
便國不必法古聖人之興也不	-13.2515
䴡	-13.2516
劳	-13.2516
耿裕河南盧氏人	-13.2516
蝟	-13.2516
挐	-13.2516
秦欲攻梁絳安邑	-13.2516
隟	-13.2516
噩	-13.2516
撡	-13.2516
成化丁未進士正德十	-13.2517
閔楷直𨽻任丘人	-13.2517
三位鎮輔奉國將軍	-13.2517
謀趙則與趙謀齊	-13.2518
巠	-13.2518
張本山東東阿人	-13.2518
敺	-13.2518
絜	-13.2519
罶	-13.2519
盭	-13.2519
説與遊撃將軍都	-13.2519
忼	-13.2519
剴	-13.2519
銸	-13.2519
䵑	-13.2519
柏舉三戰入郢寡君身出	-13.2519
粧	-13.2519
非以養欲而樂志也	-13.2519
𥚹	-13.2519
薅	-13.252
出於楚寡人無求於晉	-13.252
睡引錐自刺其股	-13.252
蔚應朔三州	-13.252
辮	-13.252
叫	-13.252
醤	-13.252
強虎狼之秦以侵天下卒有	-13.252
腎	-13.252
位嵗銀一百錠段三百疋	-13.252
懐寧侯孫鏜	-13.252
巴爾達木巴圖爾	-13.252
吳文華福建連江	-13.2521
方逢時湖廣嘉魚人	-13.2521
諸侯請與而復攻之與之信	-13.2521
齊明說卓滑	-13.2522
纘	-13.2522
鋈	-13.2522
之無倍約者而秦侵	-13.2522
新寧伯譚忠	-13.2522
时	-13.2522
曰王徒不好色耳王曰何也	-13.2522
無患與人無爭也不知夫	-13.2522
珠璣犀象	-13.2522
茅瓉浙江錢塘人由狀元三十	-13.2522
以兵部左侍郎兼都察院左僉都御史	-13.2522
王以國賛嫪毐	-13.2522
罌	-13.2522
嶼	-13.2523
以長子先卒夀四十	-13.2523
浩里浩沁	-13.2523
耐	-13.2523
㣧	-13.2523
賍	-13.2523
伯正統十四年從駕北征陣亡贈封	-13.2523
蹝	-13.2523
隂武卿四川内江	-13.2523
暝	-13.2523
瑪哈瑪雅福晉	-13.2523
葉鏜江西上饒人由進士	-13.2523
愔	-13.2523
烏廸雅納汗	-13.2523
倬	-13.2524
亰	-13.2524
鞼	-13.2524
艸	-13.2524
頁	-13.2524
倜	-13.2524
鳧	-13.2524
淸	-13.2524
王各白金三百兩紵絲羅	-13.2524
繅	-13.2524
耑	-13.2524
聞約矢之說惜其書不存	-13.2524
謹致書于大楚皇帝闕下	-13.2524
韵	-13.2524
林庭㭿福建閩縣人	-13.2524
正德丁丒進士嘉靖	-13.2524
蹛	-13.2524
阿彌陀佛	-13.2524
阿穆岱洪台吉	-13.2524
秦與魏韓上庸地	-13.2525
衆人報之智伯以國士遇	-13.2525
閔珪浙江烏程人	-13.2525
管鼻之令翟強	-13.2525
建文二年任右四年死靖難	-13.2525
為公以五萬攻西周得之是以九鼎	-13.2526
墐	-13.2526
凑	-13.2526
御乾元殿受	-13.2526
遼府松滋王	-13.2526
攔	-13.2526
右春坊右賛善兼翰林院檢討	-13.2526
墧	-13.2526
胡瓉直𨽻永年人	-13.2526
叠	-13.2526
史道順天涿州人	-13.2526
趙新浙江富陽人	-13.2526
奉陽君告朱讙與趙足曰	-13.2527
張儀欲并相秦魏	-13.2527
李浩山西曲沃人	-13.2527
毛紀山東掖縣人	-13.2527
見中國之女如此其美	-13.2527
陳道基福建同安人由進士	-13.2527
不仁又欲奪之東地	-13.2527
掀	-13.2527
鬨	-13.2527
噉	-13.2527
號令賞罰地形利害天下莫如也	-13.2527
曰下比周則上危下分爭則上安	-13.2527
自鄭以東貫滑曹鄆	-13.2527
遼府蘄水王	-13.2527
六十兩鈔一百二十錠	-13.2527
必不反韓珉今召之矣	-13.2527
揔	-13.2527
曰妾聞將軍之晉	-13.2527
枎	-13.2527
索取大皂鵰翎	-13.2527
芾	-13.2527
彬巴薩喇汗	-13.2527
領隊官侯伯都督綵幣表裏	-13.2527
江夏侯周徳興	-13.2528
有金千斤進之左右以供芻秣	-13.2528
餂	-13.2529
知之乎願王勿忘也且人有好揚人之善	-13.2529
誠惶誠懼頓首頓首	-13.2529
縲	-13.2529
野火之起也若雲	-13.2529
周最入齊秦王怒	-13.2529
杜銘四川金堂人	-13.2529
𣺌	-13.2529
八十兩鈔一百六十錠	-13.2529
張瓉直𨽻滄州人	-13.2529
甘茂與昭獻遇於境	-13.2529
薩爾斡阿爾塔實	-13.2529
旹	-13.2529
隨伍官比領隊各減半總小旗甲	-13.2529
蕕	-13.253
螫	-13.253
揄	-13.253
大紅紵絲蟒衣一襲	-13.253
峨	-13.253
請男為臣女為妾	-13.253
醸	-13.253
交者財盡而交絶以色交者華落而愛渝	-13.2531
郜光先山西長治	-13.2531
此皆轉禍而為福因敗而為功者也	-13.2531
洪武三十二年至三十五年都指揮銀	-13.2531
裴宇山西澤州人由進士	-13.2531
瀨	-13.2531
王抽旃旄	-13.2531
㙺	-13.2531
拉托托哩	-13.2531
王本固直𨽻邢臺人	-13.2531
蝮	-13.2531
魏雖勁無秦不能	-13.2531
囧	-13.2531
棼冒勃蘇	-13.2531
皇后俱洪武元年正月乙亥追上尊號	-13.2531
礟	-13.2531
秦魏為與國齊楚約	-13.2531
綵幣表裏一鈔百二十錠百户所鎮撫	-13.2531
能言之公未嘗救也	-13.2531
願王召所便習	-13.2531
銙	-13.2531
閔如霖浙江烏程人	-13.2531
王以旂應天江寧人	-13.2532
何寛浙江臨海人	-13.2532
銀六兩綵幣一表裏鈔三十錠	-13.2532
隨伍官比領隊減半總小旗甲軍士人等	-13.2532
武職非軍功不	-13.2533
杜赫曰臣請為留楚	-13.2533
包十二諸侯此其君之欲得也	-13.2533
卹	-13.2533
埭	-13.2533
娎	-13.2533
趙魏攻華陽韓謁急	-13.2533
陳瑞福建長樂人	-13.2533
一瞑而萬世不視不知所益以憂社稷者	-13.2533
俻	-13.2533
澂	-13.2533
百姓離散使下臣來告	-13.2533
盧勲浙江縉雲人由進士三十	-13.2533
飈	-13.2533
騎萬匹粟支十年	-13.2533
以破敵功封祿一千	-13.2533
為福因敗而為功	-13.2533
相承如此諸公校書改用此字殊	-13.2533
髙鳴屈於梁	-13.2533
朱廷立湖廣通山人由進士二十	-13.2533
部尚書兼殿閣大學士者	-13.2533
六十錠百户所鎮撫絹二疋鈔五十錠	-13.2533
幘	-13.2534
腿	-13.2534
勌	-13.2534
楀	-13.2534
如封田忌於江南以示	-13.2534
憐王引詩乃韓	-13.2534
曰鄒忌所以不善楚者恐田忌	-13.2534
翎	-13.2534
䛂	-13.2534
下之重恐王而取行	-13.2534
五十錠百户所鎮撫絹一疋鈔四十錠	-13.2534
仄	-13.2534
南豐校定者舛誤尤不可讀	-13.2534
字皆武后字恐唐人	-13.2534
安逺伯栁升	-13.2534
樅	-13.2534
深結趙以勤之	-13.2534
湞	-13.2534
茭	-13.2534
都沁都爾本	-13.2534
都督府僉事從平雲南功封	-13.2534
鮑恂余銓張長年	-13.2534
張珩山西石州人	-13.2535
王堯封直𨽻定興人	-13.2535
絹二疋鈔七十錠	-13.2535
􁧑	-13.2535
听	-13.2535
憇	-13.2535
以長子先卒夀三十	-13.2536
憊	-13.2536
校註東陽呉師道重校	-13.2536
壝	-13.2536
世達陜西涇陽人	-13.2536
前藍山書院山長劉鏞重校	-13.2536
埢	-13.2536
總帥富珠哩洛索	-13.2536
而進曰臣入則編席	-13.2536
長平之役平都君	-13.2536
劉訒河南鄢陵人	-13.2536
南雄侯趙庸	-13.2536
欽定四庫全書汝南遺事卷	-13.2536
爲福因敗而爲功	-13.2536
美而儀言得美人是欺王也王曰子釋之	-13.2536
陶承學浙江㑹稽人	-13.2536
楚割東國以與齊	-13.2536
劉思問河南孟縣人由進士	-13.2536
希摯直𨽻衡水人	-13.2536
膋	-13.2537
睛	-13.2537
濞	-13.2537
縧	-13.2537
㪟	-13.2537
將欲取之必姑與之	-13.2537
詼	-13.2537
滸	-13.2537
則交有所偏者也	-13.2537
欲用王之兵成其私者也非然則	-13.2537
陳蔡好詐莒恃越而滅	-13.2537
朾	-13.2537
鰌	-13.2538
李遷江西新建人	-13.2538
總小旗甲綿布四疋鈔	-13.2538
鄭世威福建長樂人由進士	-13.2538
桱	-13.2538
懵	-13.2538
舄	-13.2538
長城鉅防足以為塞	-13.2538
捆	-13.2538
砆	-13.2538
倅	-13.2538
髙平伯谷大寛	-13.2538
髻	-13.2538
淀	-13.2538
熏	-13.2538
曰江乙可謂善謀安陵	-13.2538
許成名山東聊城人由進士	-13.2538
乎遂入大宫負	-13.2538
曰必反宋地而歸楚之淮北	-13.2538
榖之功多與存國相若封之	-13.2538
禅	-13.2538
表裏織金紵絲衣一襲	-13.2538
位鎮輔奉國將軍一百	-13.2539
孫植浙江平湖人	-13.2539
有十篇武安君事在中山卷末不	-13.2539
天順丁丒進士𢎞治	-13.2539
􁬹	-13.254
絰	-13.254
虱	-13.254
年張儀相魏魏不事秦	-13.254
敡	-13.254
日大宋皇帝致書于大金國相元帥	-13.254
倪嵩直𨽻當塗人	-13.254
秦之欲伐韓梁東闚	-13.254
豓	-13.254
摛	-13.254
王彰河南鄭州人	-13.254
余肅敏子俊	-13.254
柍	-13.254
欑	-13.254
癡	-13.254
闓	-13.254
陸通字接輿	-13.254
齊將封田嬰於薛	-13.254
徐顯卿直𨽻長洲人由進士	-13.254
智者作教而愚者制焉賢者議	-13.254
喻茂堅四川榮昌人	-13.254
楊用修丹鉛	-13.2541
腋	-13.2541
鴻吉喇特之	-13.2541
詗	-13.2541
悮	-13.2541
症	-13.2541
趙大佑浙江太平人	-13.2541
君使臣以禮臣事君以忠	-13.2541
地方二千里帶甲數十萬	-13.2541
壄	-13.2541
榖是也王乃太息曰此古之人也今	-13.2541
流爵子孫世襲指揮使永樂	-13.2541
者先君靈王好小腰	-13.2541
博郭勒巴沁	-13.2541
漑	-13.2541
抒	-13.2542
槎	-13.2542
埏	-13.2542
端和王知㸅	-13.2542
越語下第二十一	-13.2542
諡榮康恵肅	-13.2542
昭奚恤曰郢人某氏之宅臣願	-13.2542
毚	-13.2542
躱	-13.2542
頺	-13.2542
畨功封勲號同祿二千石流爵	-13.2542
賜黄金三百兩白金二千兩鈔三千錠	-13.2542
難功封階勲號襲如興安嵗祿一千石	-13.2542
幕革抉㕹	-13.2543
烒	-13.2544
櫬	-13.2544
霓	-13.2544
厪	-13.2544
■	-13.2544
張丑之合齊楚講	-13.2544
者以周最也今最遁寡人入齊齊無	-13.2544
中薦舉十六年拜文華殿大學士未任辭	-13.2544
圖黙特之大臣官員等	-13.2544
屐	-13.2544
王召范蠡而問焉曰	-13.2544
食之可欲忍而	-13.2544
御醫并畨火長鈔	-13.2545
攻天下之所不欲危	-13.2545
𬗋	-13.2545
粳	-13.2545
炵	-13.2545
劈	-13.2545
唐府衛輝王	-13.2545
諾木塔爾尼	-13.2545
晶	-13.2545
輈	-13.2545
㕹	-13.2545
聞之其君好發者	-13.2545
鵞	-13.2545
垜	-13.2546
洪武十二年以大都督府僉事從平西	-13.2546
宜陽之役楚畔秦	-13.2546
安順侯薛貴	-13.2547
額勒伯克汗	-13.2547
畦	-13.2547
滴	-13.2547
覯	-13.2547
俱從六品授内直郎	-13.2547
祍	-13.2547
埶	-13.2547
大宋皇帝致書于大金皇子郎君	-13.2547
奉天承運皇帝詔曰	-13.2547
墺	-13.2548
埼	-13.2548
稚	-13.2548
蜡	-13.2548
鍤	-13.2548
蚊	-13.2548
五兩優養軍官母妻見存者	-13.2548
右請檢留白	-13.2548
圮	-13.2548
晃	-13.2548
窖	-13.2548
絕	-13.2548
楚威王戰勝於徐州	-13.2548
田單如耳為大過	-13.2548
祥賴義秦文張欽	-13.2548
絹一疋在京吏典知印承差坊廂里老	-13.2548
衉	-13.2548
絅	-13.2549
楚語上第十七	-13.2549
普天之下莫非王土率土之	-13.2549
民匠厨子樂工	-13.2549
瞎	-13.2549
𣲖	-13.2549
黄金二百兩白金一千兩鈔	-13.2549
扺	-13.255
魏惠王起境内衆	-13.255
晐	-13.2551
乙曰然則白公之	-13.2551
比至立了疆界屯兵	-13.2551
嵒	-13.2551
湎	-13.2551
璹	-13.2551
無以馳割事王者矣	-13.2551
優給㓜官及鰥寡老疾軍官	-13.2551
膊	-13.2551
齊欲伐魏魏使人	-13.2551
藳	-13.2552
薨夀四十二子今王	-13.2552
怎	-13.2552
截留上供米	-13.2552
月兵科都給事中鄭自璧	-13.2552
旐	-13.2552
薛公入魏而出齊女	-13.2553
盔	-13.2553
厦	-13.2554
惡利口之覆邦家	-13.2554
汛	-13.2554
騃	-13.2554
故兹詔示想宜知悉	-13.2554
殚	-13.2554
衆兄弟親王衆妹妹公主	-13.2554
右俱敬事供上	-13.2554
瑒	-13.2554
六品八兩七品六兩八品九品四兩雜職	-13.2554
溯	-13.2554
茠	-13.2554
賖	-13.2555
跂	-13.2555
鄺	-13.2555
琱	-13.2555
饕	-13.2556
愞	-13.2556
彝	-13.2556
簧	-13.2556
織金花素紵絲蟒龍	-13.2556
荊	-13.2558
錝	-13.2558
雙槐嵗抄	-13.2558
愾	-13.2558
勩	-13.2558
明王世貞撰詔令雜考	-13.2558
緹	-13.2559
中書平章軍國重事鄂國公常遇春	-13.2559
皖	-13.2559
鉷	-13.2559
樀	-13.2559
惷	-13.2559
悽	-13.2559
嗣累掌營府加保傅	-13.2559
年薨詳見伯志	-13.2559
摎	-13.256
􁀋	-13.256
書靖康元年閏十一月二十	-13.256
疋暗八寳天花雲	-13.2561
鷇	-13.2562
襴	-13.2562
河北轉運使李士衡	-13.2562
匐	-13.2562
柜	-13.2562
琨	-13.2562
畺	-13.2562
擗	-13.2562
上直軍一司管	-13.2562
奶	-13.2562
餚	-13.2562
饍	-13.2563
淅	-13.2563
茀	-13.2563
隨伍指揮千百户旗軍銀	-13.2563
瘍	-13.2564
珦	-13.2564
鬰	-13.2565
柿	-13.2565
塡	-13.2566
瘥	-13.2567
平中原功多封階勲號襲如延安	-13.2567
以少師華蓋殿學致仕卒年七十	-13.2567
斐	-13.2567
丢	-13.2567
杓	-13.2569
傅友德副將軍永昌侯藍玉西平侯沐英	-13.2569
鈫	-13.257
淯	-13.257
呆	-13.2572
箐	-13.2573
畸	-13.2573
麨	-13.2573
􁀺	-13.2574
宕	-13.2576
酪	-13.2577
驀	-13.2577
惬	-13.2578
囡	-13.2579
邴	-13.2579
繰	-13.2581
卺	-13.2582
􁠜	-13.2583
􁆿	-13.2585
槀	-13.2587
挶	-13.2588
有則以告有而不以告謂之蔽	-13.2588
襏	-13.259
砮	-13.2595
忨	-13.2597
其子弟之學不勞而能夫是故	-13.2598
少而習焉其心安焉不見異物而遷焉	-13.2598
羣萃而州處	-13.2598
搯	-13.2603
恁	-13.2603
姥	-13.2605
耇	-13.2608
紡	-13.2609
六位鎮輔奉國將軍	-13.261
䔲	-13.261
廙	-13.2628
瞿景淳直𨽻常熟人	-13.2704
鎮國將軍嵗支禄米一千石輔國將	-13.2866
師兼太子太師吏部尚書華葢殿大學士	-13.2987
廟實録成賜監修太	-13.306
實録成賜監修太師	-13.5128
隍	-13.5556
戰國䇿卷第二十	-13.5686
恙	-13.5762
𬞞	-13.58
蠃	-13.5806
魋	-13.5812
苾	-13.5817
禘黃帝而祖顓頊	-13.5819
於濟上濟上之軍奉令擊齊大勝之輕卒	-13.5819
子得新城陽人以與公叔爭國而得	-13.582
彜	-13.5821
甲習於戰攻王若欲攻之則必舉天下而	-13.5821
敢來不勝亦不敢來是勝黄城則功大名	-13.5821
車甲珍器盡收入燕	-13.5821
韓而甘茂黨於魏故王不信也今秦楚	-13.5821
勝之罪哉果勝黄城帥師而歸遂不敢過	-13.5823
駼	-13.5823
騊	-13.5823
約天下之兵以攻齊是	-13.5823
焠	-13.5825
我有積怨深怒於齊不量輕弱而欲以齊	-13.5825
檇	-13.5825
其智能公也不如甘茂今	-13.5825
功未有及先王者也先王以為順于其志	-13.5825
占休咎故歸之律	-13.5825
得比乎小國諸侯臣不佞自以為奉令承	-13.5825
異之人皆言楚之多變也而公必之是自	-13.5825
而公黨於楚是與公孫	-13.5825
剄而死軻見太子言田光已死致光之言	-13.5826
禝	-13.5827
進郡主為公主儀賔為駙馬	-13.5827
砌	-13.5827
吾甚欲韓合對曰甘茂許公仲以武遂反	-13.5827
太子無患必輕公韓大夫	-13.5827
是外舉不避讎也向	-13.5827
今公言善韓以待楚	-13.5827
則無禍矣韓氏先以國從公孫郝而後委	-13.5827
孀	-13.5827
不可不察也野馬四百璧一此小國之禮	-13.5827
嘴	-13.5827
曰吾合秦楚非以當韓也子	-13.5827
楚合復攻韓韓必亡公仲躬率其私徒以	-13.5827
謂薛公曰臣聞謀泄者事無功計不	-13.5827
大經許全馬錫張信	-13.5829
又淮北宋地楚魏之所	-13.5829
我逐幾瑟以窮之楚	-13.5829
是齊楚合而幾瑟走也楚王弗	-13.5829
罻	-13.5829
于奉天殿丹陛設壇告天地遣官祭	-13.5831
等王五位鎮輔奉國將軍	-13.5831
伻	-13.5831
中國必分對曰事不成身必危尚何足以	-13.5831
帥弱韓魏以攻秦其無奈寡人何亦明矣	-13.5831
魏王懼問張子張子曰秦欲救齊韓欲攻	-13.5831
子能以汾北與我乎	-13.5831
怒於魏之不用樓子而使翟	-13.5831
與齊王必疾矣是公外得齊楚以	-13.5831
且有皮氏於以攻韓魏利也樗里子曰吾	-13.5831
使人謂樓子曰子能以汾北與我乎請合	-13.5831
名成而不毁故稱於後	-13.5831
君以其言告邊境智伯果起兵而襲	-13.5831
謂救之便或謂救之不便子獨不可以忠	-13.5831
可以忠太子而使楚益入地可以	-13.5831
馬二匹跟隨都指揮	-13.5831
箎	-13.5832
納地釋事以去權尊而耕於負親之	-13.5832
莫不知今太子聞光壯盛之時不知吾形	-13.5832
斸	-13.5833
皮氏國之所大利也而以與魏公終自以	-13.5833
而泣靖郭君至因請相之靖郭君辭不得	-13.5833
公破韓辱公仲公仲	-13.5833
危則騏驥不如狐狸曹	-13.5833
太子可以忠太子使之亟去可以惡蘇子	-13.5833
夷萬乗之强國收八百	-13.5833
婣	-13.5833
後事之師君若弗圖則臣力不足愴然有	-13.5833
與齊桓公㑹柯沬	-13.5833
有賢人先知吾謀也	-13.5833
觚	-13.5835
流謂走揜覆也謂自匿	-13.5835
誅奪君地傲尚奚生不若死應侯拜	-13.5835
魏魏多變之國也寡人不能親請問親魏	-13.5835
䘐	-13.5835
大破秦人歡喜趙人畏懼秦民之死者厚	-13.5835
之事嚴兵而已兵嚴而士用	-13.5835
何故而弗有也樗里子曰	-13.5835
御者不盡馬之情以古制今者不	-13.5835
以灌晉陽城不沈者三	-13.5835
曰王不如以地東解於齊西講於秦	-13.5835
之勢也皆髙才秀士度時君之所能行出	-13.5835
以恐太子太子必終身重公矣公叔且殺	-13.5835
收諸大夫以自輔也公必輕矣不如無殺	-13.5835
寡人約四欺寡人必率天下以攻寡人者	-13.5835
恐天下救之則以齊委於天下曰齊人	-13.5835
有齊無秦無齊有秦必伐之必亡之	-13.5835
非數痛加於秦國而怨毒積惡非	-13.5835
故循法之功不足以髙	-13.5836
免奪死者封近故也太公望封於齊邵公	-13.5836
曰何謂也曰秦王師君天下莫不聞而	-13.5837
䆠	-13.5837
傲以報於昭王自是之後應侯	-13.5837
前年國虚民飢君不量百姓之力求益軍	-13.5837
今齊王謂魏王曰欲講攻	-13.5837
從見也今臣疑人之有煬於君者也是以	-13.5837
於寡人一至此乎寡人少殊不知此客肯	-13.5837
曰魏王之所恃者齊楚也所用者樓	-13.5837
無議今寡人之罪國人未知而議寡人者	-13.5837
丘不重王且反王之言而攻沛	-13.5837
公求而弗得是韓楚之怨不解而交走	-13.5837
公求而得之是令行於楚而以其地	-13.5837
塐	-13.5837
於是因廢癰疽彌子瑕而立司空	-13.5837
何文淵江西廣昌人	-13.5837
城渾得之遂南交於楚楚王果以新城	-13.5837
而竟逐之兩弟無罪而再奪之國此其	-13.5837
陸攻則擊河内水攻則滅大梁魏以	-13.5837
偫	-13.5837
得安邑塞女㦸因以破宋	-13.5837
能破宋有之寡人如自得之	-13.5837
敗王起兵救之有救齊之利而	-13.5838
行非所以教民而成禮者也且循法無過	-13.5838
戈瑄直𨽻景州人由進士	-13.5838
其事秦必疾秦挾韓親魏齊	-13.5838
後至者先亡此王業也冷向謂韓咎	-13.5838
楚又收秦而復之幾瑟入鄭之日韓	-13.5838
豐盈衆人善之而賢主	-13.5838
趙而憎韓哉欲亡韓吞兩周之地故以韓	-13.5838
棃	-13.5838
言韓事者秦王弗聽也以其	-13.5839
於趙以伐齊奉陽君不聽乃入齊	-13.5839
下惠不以三黜自累故前業不忘不以去	-13.5839
其伐楚而肥韓魏也此所謂藉賊兵而齎	-13.5839
得寸則王之寸得尺亦王之尺也今	-13.5839
食者也王不如逺交而近攻	-13.5839
騮	-13.5839
事蹟具宋史本	-13.5839
佺	-13.5839
宋齊所惡也故除宋罪則齊怒齊	-13.5839
必攻宋燕趙助之五國據宋不至一二月	-13.5839
然則王之輕重必明矣故楚王卜交而沛	-13.5839
綉	-13.5839
其血又壓羊殺	-13.5839
后資福事竣賜	-13.5839
室之鉅也腹擊曰臣羇旅也爵髙而	-13.5839
弩在前銛㦸在後	-13.5839
患必輕公韓大夫知王之老而太子定必	-13.5839
昭陽謂楚王曰五國已破秦必南	-13.5839
歸張儀曰子必以衣冠之敝故欲歸待我	-13.5839
異智轉危為安運亡為存亦可喜皆可觀	-13.5839
白馬之口魏無濟陽	-13.5839
秦昭王謂左右曰今日韓魏孰與始	-13.5839
言之主謂腹子曰何故	-13.5839
寡人射其面寡人地絶兵逺不能攻也王	-13.5839
曰韓立公子咎而棄	-13.5839
枲	-13.5839
錠布一疋為事立功而有	-13.5839
隨伍官視領隊減半	-13.5839
非楚之任而楚為之是敝楚也	-13.5839
不相得則不能行故古人稱之以其合	-13.584
鰈	-13.584
今有疾公不如歸太子以徳之不然公子	-13.584
天下之賢人也卒釋之豫讓又漆身為厲	-13.584
恐其事不成故出兵以	-13.584
故君賊新君大亂君臣之義者無此矣	-13.584
滅鬚去眉自刑以變其容為乞人而	-13.584
貴於楚張子見楚王楚王不	-13.584
亟歸幾瑟幾瑟入必以韓權報讎於魏而	-13.584
公不如令秦王賀伯嬰之立也韓絶於	-13.584
臣竊外聞大臣及下吏之議皆言	-13.584
近秦梁危則秦可	-13.584
王不遇秦韓之卜也	-13.584
𪠘	-13.584
殲	-13.584
王若欲霸必親中國而以	-13.584
懼懼必卑辭重幣以事秦齊附而韓魏可	-13.584
曰寡人不能用先生之言今事至於此	-13.584
潘季馴浙江烏程	-13.584
鱔	-13.584
司農少卿楊貞幹	-13.584
此甚易而功必成豫讓乃笑而應之曰是	-13.584
談趙之謀臣而其妻子分	-13.584
㬌	-13.584
不同俗何古之法帝王不相襲何禮之循	-13.584
主雖信臣百姓皆曰國有大事	-13.584
之東周寳之此其家萬金王何不召之以	-13.584
也毋伐樹木毋發屋室訾然使	-13.584
人入宫塗厠欲以刺襄子襄子如厠心動	-13.584
以率下秦之敗也不亦宜乎戰國之時君	-13.584
其謀扶急持傾為一切之權雖不可以臨	-13.584
吾紳浙江開化人由進士	-13.584
吾謹避之耳且智伯已死無後而其臣至	-13.584
奮擊二十萬厮徒十萬	-13.584
淺薄為之謀䇿者不得不因勢而為資	-13.584
無相攻伐有相攻伐者令其命如此	-13.584
燂	-13.584
王不知文不肖而封之以武城願大夫之	-13.584
王寅直𨽻容城人由進士	-13.584
羲神農教而不誅黄帝	-13.584
衣服器械各便其用故禮	-13.584
邑恐齊據之則以宋委於齊曰宋王無道	-13.584
降一壘小不能枯	-13.584
齊田侯召大臣而謀曰救趙孰與勿救	-13.584
予太子楚王怒將罪之對曰臣矯予之以	-13.5841
兼包兩周乗夏水浮輕舟	-13.5841
好利而無信不識禮義	-13.5841
書餘卷錯亂相糅	-13.5841
楚王曰諾張子曰王無求於晉國乎王曰	-13.5841
楚罪兵困於林中	-13.5841
武安君稱疾不行王乃使應侯	-13.5841
無俊民也是以聖人利身之謂服便事之	-13.5841
然則下東國必可得也蘇子	-13.5841
自有之魏棄與國而合於秦因以塞黽隘	-13.5841
謂魏王曰秦與戎翟同俗有虎狼之心貪	-13.5841
韓王及相皆在焉持兵㦸而衛侍者甚衆	-13.5841
不知丹不肖使得至前願有所道此天	-13.5841
事人而求弑之是懷二心以事君也吾所	-13.5841
二矣天下爭秦秦王受齊受趙三	-13.5841
所以哀燕而不棄其孤也	-13.5841
主君慮封者莫如逺楚秦孝公封	-13.5841
之都於雍氏之旁韓必起兵以禁之公必	-13.5841
乞其妻不識曰狀貌不似吾夫其音何	-13.5841
兵十餘萬在方城之外臣請令	-13.5841
卑體以尊秦以因嫪	-13.5841
時而制法因事而制禮法度制令各順其	-13.5841
王春秋髙矣而君之封地不可不早定也	-13.5841
序劉向所定著戰國	-13.5841
田光俛而笑曰諾	-13.5841
衆服焉此先聖之所以集國家安社稷乎	-13.5841
韓文山西洪洞人	-13.5841
文王曰嘻先君必欲一見	-13.5842
百姓也夫故使灓水見之於是出而	-13.5842
旡	-13.5842
眠	-13.5842
令乎再拜賜胡服王曰寡人以王子	-13.5842
吏於魯三黜而不去或謂之曰可以去	-13.5842
可謂能自知人矣能自知人故人非之不	-13.5842
有少禮物具諸别幅	-13.5842
以請先見齊王乃得見因	-13.5842
天地之所不容神人之所共怒	-13.5842
志注防門即鉅防	-13.5842
李友直直𨽻清苑人由吏員	-13.5842
楚大夫以伐秦皆受明之	-13.5842
視善珥所在因請立之	-13.5842
鋟	-13.5842
秦王帝王之主也君恐不得	-13.5842
之貴而重之是君有楚也薛公因善蘇子	-13.5842
地也謂薛公曰楚之勢可多割也薛公曰	-13.5842
徐學謨直𨽻嘉定人	-13.5842
豫讓遁逃山中曰嗟乎士為知己者死女	-13.5842
足下背先君盟約而欺孟	-13.5842
軆	-13.5842
邯鄲其於齊何利哉田侯曰善乃起兵甲	-13.5842
靳尚謂楚王曰臣請隨之儀事	-13.5842
魏皆且割地以事秦所以然者以秦與楚	-13.5842
之俗以逆簡襄之意惡變服之名而忘國	-13.5842
也愚者陳意而智者論焉教之道也臣無	-13.5842
五千里持㦸百萬君前率數萬之衆入楚	-13.5842
使功使過使智使愚	-13.5842
士度時君之所能行	-13.5842
子其言乎趙文曰當	-13.5842
挫於諸侯當此之時也天下莫敢以兵南	-13.5842
有後咎犀首曰公之不慧也夫二君者固	-13.5842
趙有之子何賀使者曰臣聞全趙之時南	-13.5842
傷人以自損乎君無以寡人不肖累	-13.5843
者厚人之行也救人之過者仁者之道也	-13.5843
得厚揚寡人之辱而君不得榮此一舉而	-13.5843
秦招楚而伐齊冷向	-13.5843
二心者居頃之襄子當出豫讓伏	-13.5843
士而不利說途也夫不善君者且奉蘇子	-13.5843
廟之上猶之如是也今王割地以賂秦以	-13.5843
忠王而走太子者又蘇子	-13.5843
萬世則不如合弱將奈何合弱而不能	-13.5843
益近秦臣甚惑之而王弗識也則不明矣	-13.5843
者名顯功大者身尊任國者權重信忠在	-13.5843
有日矣而雪甚及牛目難以行太子	-13.5844
愛之無所見醜御道之以行義勿令溺苦	-13.5844
服雖然臣王之臣也而王重命之臣敢不	-13.5844
獐	-13.5844
而自弱也非山東之上計也能危山東者	-13.5844
之王者之伐也欲以正天下而立功名以	-13.5844
俛啄蚉䖟而食之仰承甘露而飲之自以	-13.5844
之談是王謀三國也齊王曰魏王聞寡人	-13.5844
以百里昌桀紂以天下亡今楚國雖小	-13.5844
使公孫子勞寡人寡人無與之語也三	-13.5844
君必施於今之窮士不必且	-13.5844
謂齊王曰王與三國約外魏魏使公孫衍	-13.5844
人教坊司奉鑾韶舞司樂	-13.5844
地矣是魏勝楚而亡地於秦也是王以地	-13.5844
得意乎未如商容箕子之累也然則不内	-13.5844
王亦聞夫公甫文伯母乎公甫文伯官於	-13.5844
見梁王梁王曰何聞曰聞秦且伐魏王曰	-13.5844
通計也怨惡未見而明棄之未	-13.5844
不買五雙珥令其一善而獻之王明	-13.5844
成之日楚趙皆輕楚王恐因趙兵以止易	-13.5844
若此寡人直與客論耳寡人善孟	-13.5844
驚襄子曰此必豫讓也使人問之果豫讓	-13.5844
齊曰人皆以謂公不善於富	-13.5844
之故而不行先王之䘮不義也子勿復言	-13.5844
今由嫪氏善秦而交	-13.5844
以救周而秦兵罷齊	-13.5844
任所善則臣請歸醳事臣	-13.5844
是以餘糧收宋也齊國復	-13.5844
有羊腸坂髙注趙險塞山	-13.5844
此而䘮行民必甚病之官費又恐不給請	-13.5844
民必不休矣是故臣願以從事乎王	-13.5844
泱	-13.5844
百姓皆見之三日而後更	-13.5844
秦王乃留景鯉景鯉使人	-13.5844
衛君乃止齊人聞之曰孟	-13.5844
見前成化末年以太保加兼	-13.5844
顔率曰不可夫梁之君臣欲得九鼎謀之	-13.5844
一横皆一偏之論有王	-13.5844
不篤於自信者也夫孔孟之時去周之	-13.5844
且公直言易而事已去矣夫	-13.5844
之吾將救之田臣思曰王之謀過矣不如	-13.5844
之害正也宜放而絶之則此書之不	-13.5844
公子成再拜稽首曰臣愚不	-13.5844
列侯者不令在相位自將軍以上不	-13.5844
加國王拜里迷蘇剌	-13.5844
君本在齊為秦善之珉欲使	-13.5844
太上皇與大聖皇帝浮海結約	-13.5844
就渡河為前哨馬王哈喇巴圖爾王彦	-13.5844
尾其首救擊其首其尾救擊其中身首尾	-13.5844
故彼崇其爵豐其	-13.5844
書正其誤謬而疑其不可考者然後戰國	-13.5844
有之乎王曰子聞之寡人不敢	-13.5844
禽獸耳此天下之所同知也非所施厚積	-13.5844
而欲臣事秦夫事秦必割地	-13.5844
與地則五國之事困也五國伐秦魏欲和	-13.5844
蘇代對曰周地賤媒	-13.5844
諸胡此愚智之所明也先時中山負齊之	-13.5844
離我兩程阿嚕台見在烏爾固納前者	-13.5844
非社稷之神靈即鄗	-13.5844
願大王之熟計之也梁者山東之	-13.5844
黨之兵不下一舉而攻宜陽則其國斷而	-13.5844
欲惡昭奚恤於楚王而力不能故	-13.5845
人以自益也仁者不危人以要名	-13.5845
失也義者不虧人以自益	-13.5845
室不能相和出語鄰家未	-13.5845
恐其適足以傷於髙而薄於行也非然也	-13.5845
以一人言去之又以一人	-13.5845
以能得天下之士而有齊權也今蘇子	-13.5845
其母知之而已夫利害之相似者	-13.5845
卿絶之宜哉卿書有與	-13.5845
先王之道因時適變為法不同而考之無	-13.5845
取妻且夫處女無媒老且不嫁	-13.5845
天帝命也子以我為不信吾為子先行子	-13.5845
張子曰彼鄭周之女粉白墨	-13.5845
故古之聖賢未有以此而易彼也或曰邪	-13.5845
晉必重君以事秦是君破齊以	-13.5845
楚官也好色賦登	-13.5845
然故遂與之行獸見之皆走虎不知獸畏	-13.5845
美也臣之所謂持國之道也臣觀成事聞	-13.5845
臣之名顯而身尊權重而衆服臣願損	-13.5845
順而無敗售而不敝者唯媒而	-13.5845
駱顒四川富順人由進士	-13.5845
里卒不過三十萬人地四平諸侯四通條	-13.5846
倐忽之間墜於公子之手夫雀其小者也	-13.5846
知也王曰雖惡必言之鄭褏曰其似惡聞	-13.5846
令之留於酸棗樓子患之昭衍	-13.5846
府之籍不知器械之利知甲兵之用不知	-13.5846
韓之地形相錯如繡秦之有韓若木之有	-13.5846
之嚴主也辱其使者退而	-13.5846
之教孔子事君乎示之其齒之堅也	-13.5846
其衣如臣者十人昭王笑而謝之曰客胡	-13.5846
受地於先王願終守之弗敢易秦王不	-13.5846
向曰秦王誠必欲伐齊乎不如先	-13.5846
昭魚曰公何以不請立后也昭魚曰王不	-13.5846
欲少出師而悉韓魏之兵則	-13.5846
今能守魏者莫如君矣王聽趙殺痤之後	-13.5846
取齊公孫郝欲以韓取齊今公取宜陽以	-13.5846
名薄洛津後志安	-13.5846
士之計皆曰韓亡三川魏滅	-13.5846
左州侯右夏侯輦從鄢陵君與夀陵君	-13.5846
忬	-13.5846
然則令何得從王出權何得	-13.5846
王廣土取尊名田需從中敗君	-13.5846
莫敖子華對曰君王將何問者也彼有	-13.5846
黨東有燕東胡之境西有樓煩秦韓之邊	-13.5846
㙫	-13.5846
㮣	-13.5846
中立王君因謂其新王曰與我下東國吾	-13.5846
之挑秦之禍昭忌	-13.5846
令再拜乃賜胡服趙文進	-13.5846
其後詐謀用而仁義之路塞所以大亂其	-13.5846
大赦天下常赦所不原者咸除之	-13.5846
惮	-13.5846
戰敗也悉起兵從之大敗趙氏犀首見梁	-13.5846
戴諸侯弗與秦伐韓楚趙必救之是天下	-13.5846
所聞東周臣竊負其志乃至燕廷觀王之	-13.5846
智而有秦楚之用君必窮矣君不如使人	-13.5846
然則將軍之仇報而燕國見陵之	-13.5846
煁	-13.5846
畏狐也今王之地方五千里帶甲百萬而	-13.5846
百里秦人一夜而襲之	-13.5846
綃	-13.5846
聽曰若不因救韓韓怨魏西合於秦秦韓	-13.5846
請告惠公惠公曰諾駕而見太子曰	-13.5846
質故兵未用而國	-13.5846
遽迎太子於莒立之以	-13.5846
齊王夫人死有七孺子	-13.5846
固不敢言人事也固且以鬼事見君孟	-13.5846
欲止之孟嘗君曰人事者吾	-13.5846
留太子郢中立王然則是我抱空質而行	-13.5846
盡知之矣吾所未聞者獨鬼事耳蘇代	-13.5846
是公之所以外者儀而	-13.5847
不可足也非盡天下之地臣海内之王者	-13.5847
以事王奚如王曰如是足矣對曰足下以	-13.5847
參孝已信如尾生髙	-13.5847
蘇代謂燕昭王曰今有人於此孝如	-13.5847
者知之而已今公國其利害之相似正如	-13.5847
而身安不得其道則主卑而身危今秦魏	-13.5847
三十三篇復完叙曰向叙此書言周之先	-13.5847
不聞其有王聞秦之有太后	-13.5847
主者何如者也對曰臣聞之	-13.5847
楊兆陜西膚施人萬厯	-13.5847
為君而許異終身相焉	-13.5847
申君之愚昏甚矣人惟不知	-13.5847
藥酒而待其來矣已而其丈	-13.5847
趙孝成王論兵而史不	-13.5847
由是觀之近習之人其摯	-13.5847
此疑與趙造諫本一	-13.5848
靶	-13.5848
碓	-13.5848
彪謂知人之難貴於知其心	-13.5848
是八十年矣疑赫字誤景翠	-13.5848
曆	-13.5848
者有不可不知者有不可忘者有不可不	-13.5848
卧不便席今應侯亡地而言不憂此其情	-13.5848
不欲正言魏受伐魏與周鄰	-13.5848
我與其處而待之見攻不如先伐之以秦	-13.5848
罪矣雖然恐君之未盡厚也諺曰厚者不	-13.5848
卒起兵伐蜀十月取之遂定蜀蜀主更號	-13.5848
吕氏而從嫪氏則王之怨報矣	-13.5848
天下皆聞臣之身與王之舉也	-13.5848
如鮑焦史鰌則不過不竊人之財耳今臣	-13.5848
故齊不合也楚王因不罪景鯉而	-13.5848
熠	-13.5848
能致其主霸王如此者五人萬	-13.5848
見其多䇿耳計不出	-13.5848
足則臣不事足下矣臣且處無	-13.5848
養其親耳信如尾生髙則不過不欺人耳	-13.5848
不循俗胡服不顧	-13.5848
以前坐此者多矣應侯曰公子之所以	-13.5848
使者分裂諸侯而符布天下操大國之勢	-13.5848
則大王之國欲求無危不可得也秦	-13.5848
則社稷必危不如出臣秦王乃出之	-13.5848
則舟覆矣今公自以	-13.5848
南合三晉約戍韓梁之西邊山東不能堅	-13.5848
君子也近之江乙曰有人好揚人之	-13.5848
師伐秦陳軫曰臣可以言乎	-13.5848
揖應侯應侯固不快及見之又倨應侯因	-13.5848
楚知秦之孤不與地而外結交以	-13.5848
禹善謨今儀言楚依冉	-13.5848
舉兵破邯鄲趙必亡矣故君收韓可以無	-13.5848
舩	-13.5848
驕奢至驕奢不與死亡期而死亡至累	-13.5848
􁊽	-13.5848
也其實畏王之甲兵也猶百獸之畏虎也	-13.5848
今大王垂拱而兩有之是臣之所以	-13.5848
以不許仲子者徒以親在今親不幸而死	-13.5848
以鎮朔將軍鎮宣府	-13.5848
伏屍而哭極哀	-13.5848
冊封薨日未詳合葬	-13.5848
十五表裏紗十五疋錦三疋鈔二萬貫	-13.5848
又有勢同而患異者昔者楚人	-13.5848
大矣天下無敵乃且攻燕魏王曰	-13.5848
天下之不善公者與欲有求於齊者且	-13.5848
安得六百里使者反報楚王楚王大怒欲	-13.5848
引軍而退與魏氏和令魏氏	-13.5848
彼王曰有之因悉起兵復使甘茂攻之遂	-13.5848
慮事而言之忠臣也今之韓弱於始之韓	-13.5848
掃室布席幸無我逐也蘇子曰善請重	-13.5848
敢再拜辭使者以報信陵君信陵君大怒	-13.5848
於楚國不當封江尹因得山陽君與之共	-13.5848
昭奚恤謂楚王曰人有以其狗	-13.5848
正此二十三年復復其尊	-13.5848
田單乃懼問魯仲子	-13.5848
稱曰河山之險不亦信固哉王鍾	-13.5848
而求也封侯貴戚湯武之所以放殺而	-13.5848
膓	-13.5848
蘂	-13.5848
語泄則韓舉國而與仲子	-13.5848
頃刻之間我今日渡河往烏固勒扎擒拿	-13.5848
預求天下之利匕首得趙人徐夫人匕首	-13.5848
願王勿聽也張儀果	-13.5848
魏王大恐謂昭忌曰不用子之計而禍至	-13.5848
一此理之不易者也故二子者守此豈好	-13.5848
下必不服而燕不受命矣且臣之使秦無	-13.5848
不同也二子之道如是而已	-13.5848
之易合其設心注意偷	-13.5848
今欲繼簡襄之意以順先王之志臣敢不	-13.5848
其害也有得焉而不勝其失也卒至蘇秦	-13.5848
危矣未卒而移兵於梁合天下之從無精	-13.5848
又有無妄之禍今君處無妄之	-13.5848
吾始已諾於應侯矣	-13.5848
士則不然不知道之可信而樂於	-13.5848
孰便也凡九十字元在	-13.5848
峩	-13.5848
惵	-13.5848
李斯之徒以亡其身而諸侯及秦用之亦	-13.5848
福曰君相楚二十餘年矣雖名	-13.5848
而諱其敗言戰之善而蔽其患其相率而	-13.5848
臣使秦而趙繫之是秦趙有隙秦趙有隙	-13.5848
謂不惑於流俗而篤於自信者也戰國之	-13.5848
銀五十兩綵幣六表裏鈔百六十錠	-13.5848
韓珉相齊令吏逐公疇	-13.5848
而攻齊下七十餘城盡郡縣之以屬燕	-13.5849
江乙曰二人之言皆善也臣不敢言其後	-13.5849
强輔之以宋楚魏必恐恐	-13.5849
必且務以楚合於齊齊楚合燕趙不敢不	-13.5849
也故史言代復約從	-13.5849
其許寡人安陵君曰大王加	-13.5849
大患燕昭王不行蘇代復重於燕燕反約	-13.5849
曰周最固不欲來使臣竊	-13.5849
而食之織而衣之王曰何故也對曰孝如	-13.5849
雖欲合齊楚今必背齊	-13.5849
也願王之知之楚王曰謹受命因封蘇子	-13.5849
以倍鄰鄰之厚君之	-13.5849
小人也逺之江乙曰然則且有子殺其	-13.5849
上卿奉子車百乗子以此	-13.5849
之丈夫來則且奈何乎其妻曰勿憂也吾	-13.5849
可見也今寡人恐叔逆從政之經	-13.5849
器臣居魏知之故昭奚常	-13.5849
四貴備而國不危者未之有也	-13.5849
左右惡張儀曰儀事先王不忠言未	-13.5849
望諸君乃使人獻書報燕王曰	-13.5849
未有大功可以稱者而嚴仲子舉百金	-13.5849
氏趙襄子最怨智伯而將其頭以為飲器	-13.5849
王曰寡人知之大夫何患江乙	-13.5849
秦王大怒於甘茂故樗里疾大	-13.5849
而以國先者此桓公許異之	-13.5849
萬之衆距漳鄴而李信出太原雲中趙不	-13.5849
鄲之難楚進兵大梁取矣昭奚恤取魏之	-13.5849
金韓因以其金事秦秦反得其金與韓之	-13.5849
韓氏之士數十萬皆戴列	-13.5849
人所効者庸必得幸乎假之得幸庸必	-13.5849
國非所以利燕也王自慮此則計過無以	-13.5849
從然後以禁則齊使後世之人皆知其	-13.5849
白鉞直𨽻南宫人由	-13.5849
而交絶於周也不如謂周君曰孰欲立也	-13.5849
陳紹儒廣東南海人	-13.5849
制於人臣十乗之家不制於衆人匹夫徒	-13.5849
數令人召臣也曰無事必	-13.585
其妾而笞之故妾所以笞者忠信也今臣	-13.585
㦂	-13.585
和於下而不危六者傅之才而臣無一焉	-13.585
烄	-13.585
酅	-13.585
秦掌握中物耳故不急於伐恐趙不以	-13.585
言期以太子結約而	-13.585
趙居胡之南陽也欲	-13.585
不勝而還子之相燕貴重主斷蘇代	-13.585
子在外郢中必立王以絶秦望太子	-13.585
患必與楚戰戰而不勝大梁不能守而又	-13.585
支交臂而聽楚韓氏必危故王不如釋黄	-13.585
然喉下有逆鱗	-13.585
臣伯樂乎臣請獻白璧一雙黄金千鎰以	-13.585
之犬不動復叱之犬遂無噬人之心今周	-13.585
侯見其敗輕之矣豈有	-13.585
兜	-13.585
孫衍公孫衍曰王與臣百金臣請敗之王	-13.585
宣言以感怒應侯曰燕客蔡澤天下駿雄	-13.585
必不効地矣趙王曰善乃召趙莊而貴之	-13.585
恢教之語曰無多割	-13.585
最不來他人必來來使者無交於公而欲	-13.585
楺	-13.585
王曰願聞所失計雎曰大王越韓魏而攻	-13.585
皆負重罪應侯内慙乃西入秦	-13.585
約車載百金犀首期齊王至之	-13.585
者愈善而離楚愈逺耳今王動欲成霸王	-13.585
而君以五十里之地存者以君	-13.585
蘇子陳翠合齊燕將令燕王之弟	-13.585
親如蘇秦時獨所謂行其上	-13.585
魏王曰所以不使犀首者以	-13.585
一國魏之亡可立而須也此臣之所	-13.585
之家境内之利分移華陽古之所謂危主	-13.585
十表裏紗十疋錦三疋鈔二萬貫	-13.585
又附之是重危也武侯忿然曰子之言有	-13.585
大臣彼將奪其所謂不肖而予其所謂賢	-13.585
奪其所憎而與其所愛彼又將使其子女	-13.585
妬婦也故其言一也言者異則人心變矣	-13.585
屍百萬流血千里唐雎	-13.585
有菑川東萊瑯邪髙宻膠東南有泰山城	-13.585
椂	-13.585
治政不亂不逆使者直道而行不敢	-13.585
百里秦人一夜而襲之上梁亦不知也今	-13.585
臣是以欲足下之速歸休士民也今太子	-13.585
與之伐齊是我亡於秦	-13.585
言勿與則非計也言與之則恐王以臣之	-13.585
賢母也從婦言之必不免	-13.585
魏武侯與諸大夫浮於西河	-13.585
三矣趙氏中央之國也雜民之所居也	-13.585
且君擅主輕下之日	-13.585
之楚人惡其緩而急之今鼻之入秦之傳	-13.585
之邑貴戚父兄皆可以受封侯夫割地	-13.585
二百疋紗羅絨錦五十疋馬二十四匹	-13.585
亟以國合於齊楚秦必委國於公以解伐	-13.585
交外成當今之時趙未可伐也王曰寡人	-13.585
以其言責漢中於馮章馮章謂秦王曰王	-13.585
出其計矣願王熟慮之今三晉已合矣復	-13.585
出嫁結親燕魏連好齊楚積慮并心備秦	-13.585
効之如此則士民不勞而故地得其功多	-13.585
國者内固其威而外重其權	-13.585
士勇雖有百秦將無奈我何大王	-13.585
大梁也尚千里而禍若是矣又	-13.585
大縣數百名都數十	-13.585
夫存韓安魏而利天下此亦王之大時已	-13.585
寡人不聽也請與子盟於是與之盟於息	-13.585
弱魏之兵而重韓之權莫如朝魏昭釐侯	-13.585
復攻我乎樓緩對曰此非臣之所敢任也	-13.585
恐以忠信之故見罪於左右王曰安有	-13.585
懸於其廟梁宿夕而死夫癘雖㿈腫胞	-13.585
收韓趙之地以臨魏	-13.585
於使秦無韓而有鄭地無河山以䦨	-13.585
曰臣所以降志辱身居市井屠者幸以	-13.585
曰願得將軍之首以獻秦王秦王必喜而	-13.585
有漁陽右北平遼西遼東西有上谷代郡	-13.585
楚懽而不進韓必孤無	-13.585
權焉得不傾而令焉得從王出乎臣聞善	-13.585
死惠王即位用齊人反間疑樂毅而使騎	-13.585
無周韓以間之去大梁百里禍必百此矣	-13.585
照四壁者幸以賜妾何妨於處女妾自以	-13.585
爭論不勝秦王大怒中期徐行而去或	-13.585
目此其勢也以天下之心行天下之勢	-13.585
社稷必危矣願君之生束縮	-13.585
秦何矣王曰善果使馮章許楚漢中而	-13.585
索兵於魏曰願得借師以伐趙魏文侯曰	-13.585
絶韓之上地東取成臯	-13.585
而無庸致兵以觀奉陽君之應足下也縣	-13.585
臣盡其力竭其能而得罪者乎對曰臣請	-13.585
臣聞從者欲合天下以朝大王臣願大王	-13.585
與秦共伐韓然而無與	-13.585
蘇秦從時已言奉陽死	-13.585
豈或襲稱如馬服	-13.585
趙南有韓魏負海之國也地廣人衆兵	-13.585
重西附秦則秦重中附韓魏則韓魏重且	-13.585
韓兄弟不敢從二國不得兵怒而反	-13.585
韓魏與齊則齊必弱楚魏魏弱則割河外	-13.585
之曰王有此尺帛何不令前郎中以	-13.585
二帝三王之治其變固殊其法固異而其	-13.585
其必免吾欲先據之以加	-13.585
因其所遇之時所遭之變而	-13.585
外則危今臣聞王居處不安食飲不甘思	-13.585
天下國家之意本末先後未	-13.585
夫服牛驂驥乎不可以行百步今王以衍	-13.585
夫秦攻梁者是示天下要	-13.585
得之予我一聨詩	-13.585
怒而不聽張儀又惡陳軫於秦王曰軫馳	-13.585
持匕首揕之未至身秦王驚自引而起	-13.585
救今梁者天下之脊也	-13.585
楚王曰楚僻陋之國也未	-13.585
河外割則道不通楚弱則無援此三	-13.585
秦武陽色變振恐	-13.585
臣郢之登徒也直送象	-13.585
蘇民陜西儀衛司籍浙江遂昌人由進士	-13.585
達哩岱諤濟錦	-13.585
陳謹斬樊於期頭及獻燕督亢之地	-13.585
首尾文同但中間改云爾前放回	-13.585
曰此庸夫之怒也非士之怒也夫	-13.5851
秦伐矣齊有東國之地方千里楚包九夷	-13.5851
遂捐燕而歸趙將軍自	-13.5851
惡事陳軫曰請移天下之事於公犀首曰	-13.5851
東周大喜西周大怒馮	-13.5851
周惠公然則河南鞏父子同	-13.5851
周紀考王封其弟河南是	-13.5851
敢易也豈直五百里哉秦王怫然怒謂唐	-13.5851
攻以求楚東國而名義索然	-13.5851
王曰布衣之怒亦免冠徒跣以頭搶地耳	-13.5851
矣若使燭之武見秦	-13.5851
鄭知亡矣而有益於君	-13.5851
亂也客曰不然夫望人而笑是和也言	-13.5851
人也好用兵而甚務名終	-13.5851
今戰勝魏覆十萬之軍而禽太子申臣萬	-13.5851
今然後得與士民相親臣故敢進其愚忠	-13.5851
以周襄王之命然則雖尊襄王桓公亦定	-13.5851
士也臣以所學者觀之先王之舉錯有髙	-13.5851
存雖有勝秦之名而國破矣是何故也秦	-13.5851
寡人新即位左右誤寡人寡人之使騎	-13.5851
時之賢主乎臣請行矣願足下之無制於	-13.5851
樂毅且謝之曰先王舉國而委將軍將軍	-13.5851
此其心也同舟遇風胡越之相救	-13.5851
為福不成亦為福秦魏之和成而公適	-13.5851
王之讎天下莫不振動寡人豈敢一日而	-13.5851
王齊使車五十乘來	-13.5851
而得朝禮與魏和而下	-13.5851
而秦罷於邯鄲之下趙守而不可	-13.5851
而趙弱也今秦楚嫁子取婦	-13.5851
請服焉公子成再拜曰臣	-13.5851
魏也夫泄吾君臣之交而天下信之是其	-13.5851
魏王而與之並朝齊侯再三趙氏醜之	-13.5851
不任事於周室也而桓公獨取霸者亦無	-13.5851
乃王之託儀也儀之出秦因與秦王約曰	-13.5851
也春申君曰何謂無妄之人曰君先仕臣	-13.5851
交荆軻可乎田光曰敬諾則起趨出	-13.5851
何如對曰足下以愛之故與	-13.5851
其利魏受其怨子歸吾將使人因魏而和	-13.5851
君而許異獨取相焉者無	-13.5851
哭問其故對曰吾已大矣年	-13.5851
率天下以儐秦秦兵不敢	-13.5851
王也王而從之失其半矣	-13.5851
王譬昔周之上地	-13.5851
秦王使悉反諸侯之侵地若曹	-13.5851
秦王貪其贄必得所願矣誠得	-13.5851
谷關十五年矣大王之威行於天下山東	-13.5851
間可取燕王曰善吾請拜子	-13.5851
之士不制於妻妾而又	-13.5851
威公威公子惠公惠公封其子於鞏	-13.5852
相之可乎父兄惡珉珉必以國保楚公仲	-13.5852
秦大國也韓小國也韓甚	-13.5852
胡衍曰公釋蒲勿攻臣請	-13.5852
魏秦王必怨公樗里疾曰	-13.5852
也故利不百者不變俗功不什者不易器	-13.5852
之上以相堅也夫親昆弟同父母尚有	-13.5852
文王之義以示天下豈小功也哉	-13.5852
更擇日惠子非徒行其說也又令太子未	-13.5852
者不成所求者不得臣	-13.5852
請魏之相齊王必喜魏氏不	-13.5852
之於趙矣彼哉彼哉	-13.5852
之論是非辨得失而考	-13.5852
人曰君即不能願君堅塞兩耳無	-13.5852
君與蘇公談也其辯過君其博過君君能	-13.5852
外若此者不亦殆乎	-13.5852
翊宣教化可以正一史之謬備七略之缺	-13.5852
蘇公之計乎李兊曰不能	-13.5852
云服難以勇治亂以智事之計也立	-13.5852
君之好人也奚如公孫	-13.5852
大國惡有天子而小國利之王與大國弗	-13.5852
大王不好人昭王曰孟	-13.5852
於是燕王大信子之子之因遺蘇代百金	-13.5852
曰義不臣乎天子不友乎諸侯得志不慙	-13.5852
燕王許諾太后聞之大怒曰陳公不能	-13.5852
而使之主韓楚之事公仲以	-13.5852
臣願君之蚤計也天下	-13.5852
之王曰諾虞卿聞之入見王王以樓緩言	-13.5852
兼二周之地舉韓氏取其地	-13.5852
君北見梁王必相之矣昭魚曰	-13.5852
君曰善乃與之萬家之邑一智伯大	-13.5852
善楚公恃秦而勁必輕與楚戰楚	-13.5852
地方千里名雖小然而	-13.5852
奉陽君曰善乃使使與蘇秦結交	-13.5852
始皇母帝太后也本吕	-13.5852
得也是故願大王熟計之齊王曰齊僻陋	-13.5852
有崇其爵豐其禄以憂社稷者有	-13.5852
楚王告昭子昭子曰臣朝夕以事	-13.5852
欲以使攻宋也而宋置太子以	-13.5852
禹貢西河屬雍州此	-13.5852
秦禍如此其大而燕趙之秦者	-13.5852
翼而飛故曰不如賜軍吏而禮之王稽不	-13.5852
者其於長者薄而於婦人厚故從母言之	-13.5852
而又復衍傳有在張儀	-13.5852
而韓氏之尊許異也猶其尊列	-13.5852
臣之所以堅三晉以攻秦者非	-13.5852
趙王乃令鄭朱對曰夫藺離石祁之地曠	-13.5852
金百兩銀三千兩及	-13.5852
韓魏趙楚之志恐秦兼天下而臣其君故	-13.5852
齊者大臣父兄殷衆富樂無過齊者然而	-13.5852
乃且願變心易慮剖地謝前過以事秦方	-13.5852
之後有國者非王子孫也臣聞古之善	-13.5852
以其餘兵圍邯鄲之城趙以亡敗之餘衆	-13.5852
兼有吞周之意使樗里疾以車百	-13.5852
出無車左右皆笑之以告孟	-13.5852
刺之雖刺髠而齊實不	-13.5852
取淇則齊必入朝秦欲已得行	-13.5852
合時離何也秦王曰不識也曰天下之合	-13.5852
合矣秦見三晉之堅也必南伐楚趙見	-13.5852
周君竇屢奉陽君之與穰侯貿首之仇也	-13.5852
周紀注陽翟有雍氏城韓	-13.5852
因而伐虞遂取之今秦自以	-13.5852
太后嫁女諸侯奉以千金齎地百里以	-13.5852
夫救邯鄲軍於其郊是趙不	-13.5852
子内擅楚之貴外結秦之交畜張子以為	-13.5852
寵乎於是辛垣衍起再拜謝曰始以先生	-13.5852
對曰王不若與竇屢	-13.5852
得安倚齊攻秦而民不得安故夫謀人之	-13.5852
必甚於癘矣由此觀之癘雖憐王可也因	-13.5852
忠也昔者堯見舜於草茅之中席隴	-13.5852
慕公叔之義以成胡服之功使緤謁之叔	-13.5852
憂三晉合秦必不敢攻梁必南攻楚楚秦	-13.5852
攻秦者魏也今子從楚	-13.5852
故也向者遇桀紂必殺之矣秦王因不罪	-13.5852
是故兵終身暴露於外士民潞	-13.5852
曉人不當如是乎此說	-13.5852
曰寡人且與天下伐齊旦暮出令矣子必	-13.5852
有亂而太子在外此亦舉宋之時也已臣	-13.5852
柚	-13.5852
此國必危矣王必大憂今韓梁趙三國	-13.5852
民必死虜今韓梁之目未嘗	-13.5852
涿郡之易容城范陽北有新城故	-13.5852
無過於此者矣大王不事秦秦下甲	-13.5852
猶晉人之與楚人也晉人見楚人之急帶	-13.5852
王若欲報齊乎則不如	-13.5852
疑公叔鄭彊曰何如曰公叔	-13.5852
百今以三萬之衆而應	-13.5852
秦之少多然而臣能半衍之割而令秦講	-13.5852
罪無過此者且魏天下之	-13.5852
而齊民獨不也非齊親而韓梁	-13.5852
臣竊料之大王之國不下	-13.5852
與秦也猶齊之於魯也秦趙戰於河漳之	-13.5852
諸侯妃姬處梁之宫梁王安得晏然而	-13.5852
趙危而荆孤東以	-13.5852
長平之禍也今七敗之禍未復而欲以罷	-13.5852
閔煦直𨽻任丘人	-13.5852
韓包周則趙自銷鑠據	-13.5852
韓梁之西邊此燕之上計也不急	-13.5852
食信寡矣獨不曰從合則能以弱	-13.5852
魏趙燕齊以事屬之以重其	-13.5852
㵼	-13.5852
不好色也乃資之以珠玉南后鄭褏	-13.5852
以朝亦欲叔之服之也家	-13.5852
使三軍之士不迷惑者巴	-13.5852
使秦發令素服而	-13.5852
信侯曰王命召相國長信侯曰王何以臣	-13.5852
偶耦同二人曰耦兩	-13.5852
前臣料趙國守備亦以十倍矣趙自長平	-13.5852
副千户衛鎮撫儀衛副銀	-13.5852
君及儀賔食禄米	-13.5852
奉社稷豈敢輕國若此魏牟曰王無怒請	-13.5852
嬻	-13.5852
張儀儀之所在必舉兵伐之	-13.5852
張儀曰王勿患請令罷齊兵乃使其	-13.5852
强國不能王則可以避其兵使之無伐我	-13.5852
敗則怨結於百姓而禍歸社稷詩曰木實	-13.5852
於國然而王之買馬也必將待工今	-13.5852
王熟慮之也不如急發重使之趙梁約復	-13.5852
王發圖圖窮而匕首見因左手把秦王之	-13.5852
矣犀首乃見之陳軫曰公惡事乎何	-13.5852
而欲敗之必以少割請合	-13.5852
而王必待工而後乃使之今	-13.5852
胡服使王孫緤告公子成曰寡人胡服且	-13.5852
胡衍謂樗里疾曰公之伐蒲以	-13.5852
臣已恐之矣長信侯入見王王曰病甚	-13.5852
行支期隨其後且見王支期先入謂王曰	-13.5852
該載不盡合約事件並依前立誓書施行	-13.5852
變智者不能一逺近之服賢聖不能同窮	-13.5852
鄭同北見趙王趙王曰子南方之	-13.5852
馬森福建懐安人由進士三十七年	-13.5852
麋知獵者張網前而驅已也因還走而	-13.5852
跲	-13.5852
之士也吾請去不敢復言帝秦秦將聞之	-13.5853
故召將軍且休計事將軍過	-13.5853
無忌將發十萬之師以告	-13.5853
以來者事也公不見軫軫且行不得待異	-13.5853
曰韓不能守上黨且以與秦其民皆不欲	-13.5853
是秦制天下也秦制天下將何以天下	-13.5853
否而天下由此宗蘇氏之從約代厲皆以	-13.5853
楚計今韓之父兄得衆者	-13.5853
何得矣且王嘗濟於漳而身朝於邯鄲抱	-13.5853
揚州記太湖一名湖亭	-13.5853
易於救患伍子胥宫之	-13.5853
而君逆寡人者輕寡人與唐雎	-13.5853
行於天下君焉能乎且古者四海之内分	-13.5853
任王世貞直𨽻太倉	-13.5853
其弟在周周欲立車百	-13.5853
其饑也伐之未必勝而	-13.5853
國之兵是薄柱擊石之謂也	-13.5853
定官忤秦檜死大理獄	-13.5853
將軍之功哉㑹先王棄	-13.5853
平原君請益地謂趙王曰夫不	-13.5853
有順我者則胡服之功未可知也雖	-13.5853
猶其尊襄王也今日天子不可得而	-13.5853
王二世愈甚惠不下施情不上	-13.5853
王伐之且君親從臣而勝降城城非不髙	-13.5853
相結也今儀相魏而攻之是使儀之計當	-13.5853
而亦何以報先王之所以遇將軍之意乎	-13.5853
而解二國患者平原君之力	-13.5853
誠得天下之勇士使於秦	-13.5853
除服聶政曰嗟乎政乃市井之人	-13.5853
雖終身相之焉然而吾弗	-13.5853
非所以窮儀之道也齊楚之王曰善乃遂	-13.5853
馮忌對曰不可夫以秦將武安君公孫起	-13.5853
魏信陵君發兵至邯鄲城下秦兵罷虞卿	-13.5853
下甲雲中九原驅趙而攻燕則易水長城	-13.5853
利而相侵或修小怨而相伐或眩於名實	-13.5853
國之事不成猶之厚徳我也今與	-13.5853
國之事成則有福不成則無患然則先與	-13.5853
存天下安諸侯寡人敬以國從乃封蘇秦	-13.5853
孰能禦之故謂之從從者從也順也其所	-13.5853
張潤山西臨汾人由進士	-13.5853
按圖籍此王業也王曰善乃具革車三十	-13.5853
政身未敢以許人也	-13.5853
是則霸業成矣趙王曰寡人年少莅國之	-13.5853
服吾恐天下議之也夫制國有常而利民	-13.5853
濟北盧注云東至	-13.5853
秦攻燕則趙守常山楚軍武關齊	-13.5853
納之梁齊果舉兵伐之梁王大恐	-13.5853
薛雖文舊封而屬	-13.5853
諸侯之心不一夫其心不一者非明計智	-13.5853
武遂其形乃可以善楚臣願有言而不敢	-13.5853
天子之田九畡以食	-13.5854
君胡衍取金於蒲以自重於	-13.5854
焉曰秦兵誠去請厚子於	-13.5854
鵶	-13.5854
故令人謂韓公叔曰張儀	-13.5854
饟	-13.5854
齊秦約攻楚楚令景翠以六城賂齊太子	-13.5854
親忠臣之所以事君也鄭褏知王以已	-13.5854
謂新人曰王愛子美矣雖然惡子之鼻子	-13.5854
入之矣待衍如是可也如得賢	-13.5854
天下不足兼而有也是知秦戰未	-13.5854
礫	-13.5854
莫尚焉王斗之愛縠憂國莫重焉諸如此	-13.5854
其談也明日復見終日談而去	-13.5854
可以使楚益入地也謂楚王曰齊之所以	-13.5854
孫郝黨於齊而不肯言甘茂薄而不敢謁	-13.5854
敉	-13.5854
約魏魏王將封其子謂魏王曰	-13.5854
鍜	-13.5854
三晉之大臣不如鄒魯之僕妾也且秦無	-13.5854
不可復得已宋之罪重齊之怒深殘亂宋	-13.5854
何秦之智而山東之愚	-13.5854
如今君相楚王二十餘年而王無子即百	-13.5854
幸而教之請比郡縣築帝宫祠春秋稱東	-13.5854
廉其爵貧其身以憂社稷者	-13.5854
成屬涿郡又孔子	-13.5854
日我談粗而君動今日精而君不動何也	-13.5854
欲弱莫如楚而能弱楚者莫若魏楚雖有	-13.5854
此事也非寡人之所敢知	-13.5854
者挾太子也今已得地而求不止者以太	-13.5854
能收恤藺離石祁乎寡人有不令之臣實	-13.5854
至郢漢中之甲輕舟出於巴乗夏水下漢	-13.5854
莫如弱楚而能弱楚者莫如韓非以韓能	-13.5854
行義也暴也秦之行暴正告天下告楚曰	-13.5854
譿	-13.5854
起對曰河山之險信不足保也是	-13.5854
軍吏窮果惡王稽杜	-13.5854
[...]
