<unk>	0
<s>	0
</s>	0
之	-3.80516
)	-3.96672
(	-3.97111
以	-4.44142
也	-4.45887
而	-4.51806
為	-4.58992
則	-4.78223
者	-4.87668
其	-5.04261
有	-5.17716
)(	-5.20289
一	-5.27285
於	-5.45418
半	-5.53164
曰	-5.59129
正	-5.59204
無	-5.60295
大	-5.61862
○	-5.62814
不	-5.6438
應	-5.65796
故	-5.69391
樂	-5.70574
三	-5.72732
此	-5.72864
與	-5.73471
四	-5.74071
全	-5.83018
用	-5.86688
聲	-5.87165
六	-5.90974
五	-5.93197
二	-5.93324
皆	-5.94116
中	-5.98745
矣	-6.02629
得	-6.04178
言	-6.05016
是	-6.05173
上	-6.0718
宫	-6.1097
律	-6.14367
人	-6.14616
和	-6.17006
亦	-6.17412
在	-6.18255
至	-6.19526
拊	-6.19892
歌	-6.21746
合	-6.25863
黄鍾	-6.28789
南	-6.28979
舞	-6.29011
非	-6.29685
自	-6.30001
謂	-6.30067
九	-6.31906
于	-6.32026
數	-6.33162
分	-6.34669
鼓	-6.34787
如	-6.34789
▁	-6.36037
又	-6.36688
凡	-6.37702
然	-6.38039
調	-6.3834
生	-6.38743
所	-6.38963
乎	-6.41388
即	-6.4176
作	-6.42533
商	-6.4302
下	-6.43149
八	-6.4372
七	-6.44084
太	-6.44236
長	-6.44705
乃	-6.45241
羽	-6.46907
角	-6.49455
尺	-6.50317
焉	-6.5094
云	-6.51035
搏牘	-6.54025
同	-6.55565
音	-6.56585
清	-6.57578
鐘	-6.5858
今	-6.59303
禮	-6.6036
奏	-6.62391
子	-6.63484
黄	-6.65341
法	-6.6698
所謂	-6.682
十	-6.68468
姑	-6.68475
林	-6.68554
夷	-6.68706
及	-6.71216
管	-6.71736
本	-6.73043
當	-6.74021
所以	-6.75055
若	-6.75331
時	-6.75731
大吕	-6.75925
成	-6.76519
黄鐘	-6.76537
無射	-6.76696
天	-6.7679
姑洗	-6.77808
可	-6.79156
仲	-6.81018
夾	-6.82978
徴	-6.83269
後	-6.84122
夷則	-6.85357
琴	-6.86203
雖	-6.86452
定	-6.87297
位	-6.877
古	-6.8771
謂之	-6.88259
行	-6.88431
文	-6.88646
陽	-6.9065
耳	-6.91387
或	-6.92594
小	-6.93075
王	-6.93368
字	-6.93438
周	-6.93505
相	-6.93718
南吕	-6.93879
以為	-6.94249
始	-6.94516
變	-6.94583
而已	-6.95373
取	-6.96862
先	-6.97112
出	-6.97127
蓋	-6.97391
鍾	-6.98128
宮	-6.98344
仲吕	-6.98432
必	-6.98781
方	-6.99095
爲	-6.99148
曲	-6.99165
鼔	-6.99331
徵	-7.01075
從	-7.01897
林鍾	-7.02217
實	-7.0222
知	-7.04089
論	-7.04426
事	-7.04656
兩	-7.05501
未	-7.05719
隂	-7.05816
名	-7.06819
明	-7.06989
象	-7.08784
臣	-7.09829
弦	-7.10169
五聲	-7.11077
節	-7.1112
工	-7.11568
因	-7.11753
㽔	-7.12901
詩	-7.13177
十二	-7.13308
髙	-7.13486
制	-7.13755
太簇	-7.13782
物	-7.14273
内	-7.14433
水	-7.14687
已	-7.14959
絃	-7.15568
見	-7.16797
瑟	-7.1746
按	-7.1789
之樂	-7.17938
惟	-7.18372
各	-7.18881
哉	-7.18984
夫	-7.1905
者也	-7.19487
通	-7.20153
既	-7.21602
應鍾	-7.21642
徳	-7.22173
前	-7.2407
諸	-7.2413
㽔賔	-7.2546
餘	-7.25582
多	-7.26199
書	-7.26235
等	-7.27394
夾鍾	-7.2749
絲	-7.27551
猶	-7.27947
能	-7.28016
祭	-7.28311
太蔟	-7.28403
盖	-7.29064
起	-7.29294
何	-7.29412
氣	-7.29571
林鐘	-7.30377
外	-7.30859
金	-7.31737
道	-7.31943
主	-7.32192
笙	-7.32253
地	-7.32296
日	-7.3269
是也	-7.35677
立	-7.35721
蕤賔	-7.35807
使	-7.35854
武	-7.35972
終	-7.37652
葢	-7.37878
易	-7.37886
漢	-7.38099
器	-7.38444
公	-7.39471
十二律	-7.39807
復	-7.40093
為宫	-7.40136
不可	-7.40601
止	-7.4092
異	-7.41049
􁕔	-7.41139
三分	-7.42035
之數	-7.42651
豈	-7.43018
次	-7.43243
唐	-7.4396
氏	-7.44191
齊	-7.44513
令	-7.45084
右	-7.45217
變半	-7.45281
欲	-7.45492
民	-7.45675
禮樂	-7.45676
之法	-7.46668
度	-7.46835
微	-7.46939
去	-7.47036
應鐘	-7.47321
學	-7.47323
平	-7.47731
萬	-7.47835
元	-7.47913
均	-7.48068
安	-7.48721
入	-7.49176
重	-7.49425
􁕡	-7.49788
命	-7.51277
間	-7.5134
而不	-7.51373
章	-7.51782
其聲	-7.52068
黍	-7.52401
義	-7.52434
圖	-7.52529
擊	-7.52659
國	-7.52758
舊	-7.52933
但	-7.53235
孔	-7.54003
求	-7.54237
夾鐘	-7.54285
之聲	-7.54578
吹	-7.554
神	-7.55953
善	-7.56392
歟	-7.56979
笛	-7.57006
設	-7.57451
不能	-7.57536
百	-7.5779
遂	-7.57834
宜	-7.58213
木	-7.58339
由	-7.58556
心	-7.5876
初	-7.59124
然則	-7.59242
反	-7.59803
磬	-7.6006
且	-7.60747
賔	-7.60865
舉	-7.61157
經	-7.61205
容	-7.6121
比	-7.61474
志	-7.61634
君	-7.62028
德	-7.62247
􁕧	-7.62501
寸	-7.62882
□	-7.63032
加	-7.63171
山	-7.6355
忽	-7.63601
轉	-7.63729
帝	-7.63813
􁕗	-7.6394
世	-7.64051
置	-7.64058
極	-7.64512
官	-7.64536
理	-7.64564
考	-7.65241
常	-7.66167
○○	-7.66945
居	-7.6697
射	-7.6705
教	-7.678
之説	-7.67838
備	-7.68048
説	-7.68391
少	-7.69092
依	-7.6933
將	-7.69462
變宫	-7.69503
不同	-7.70169
意	-7.70447
積	-7.71106
升	-7.71271
倍	-7.7192
古人	-7.72194
動	-7.72546
周禮	-7.7257
廣	-7.72825
夏	-7.72917
每	-7.72942
尚	-7.73074
雅	-7.73088
不用	-7.73391
故也	-7.73569
土	-7.73808
士	-7.74298
指	-7.74408
盡	-7.74602
濁	-7.74743
稱	-7.75305
縣	-7.75314
簫	-7.7536
不知	-7.75601
東	-7.76486
月	-7.76516
為商	-7.76765
天子	-7.77126
宋	-7.7771
興	-7.78433
侯	-7.78651
師	-7.78831
釐	-7.78882
至於	-7.79011
言之	-7.79032
治	-7.79097
風	-7.79316
造	-7.79604
更	-7.80046
西	-7.80124
譜	-7.80461
足	-7.80565
竹	-7.80565
獨	-7.8061
引	-7.80842
君子	-7.80846
聞	-7.81194
體	-7.8121
律吕	-7.81579
兮	-7.81846
深	-7.8197
致	-7.82541
天下	-7.82566
石	-7.82766
蕤	-7.8336
辰	-7.83416
為羽	-7.83579
諸侯	-7.83618
辨	-7.83754
為角	-7.83855
上生	-7.83917
我	-7.84441
高	-7.84693
率	-7.84789
首	-7.84855
玉	-7.85039
並	-7.85803
屬	-7.85893
觀	-7.86156
圓	-7.86326
類	-7.86394
徽	-7.86725
朝	-7.86791
服	-7.86909
傳	-7.86932
天地	-7.87033
别	-7.8706
八音	-7.87527
下生	-7.87589
執	-7.87689
量	-7.88134
固	-7.88343
宗	-7.88386
進	-7.89264
句	-7.89768
聽	-7.89786
發	-7.8992
左	-7.90122
嘗	-7.90756
琴瑟	-7.91151
吕	-7.91221
配	-7.91289
二變	-7.91798
四分	-7.91931
然後	-7.92564
年	-7.92937
具	-7.93012
獻	-7.93182
據	-7.93294
短	-7.93438
祀	-7.93471
毫	-7.94211
尊	-7.94229
如此	-7.9453
俗	-7.94718
詳	-7.94872
籥	-7.9519
陳	-7.95221
九寸	-7.95241
樂之	-7.95279
新	-7.95723
語	-7.95747
難	-7.95873
又曰	-7.96137
樂器	-7.96243
列	-7.96284
六律	-7.96357
之舞	-7.96446
仁	-7.96851
北	-7.96876
衆	-7.96946
銅	-7.97126
晉	-7.97246
彼	-7.97283
徑	-7.97309
推	-7.97384
正律	-7.97465
詔	-7.97628
近	-7.97867
正聲	-7.97874
載	-7.99062
用之	-7.99256
而後	-7.99586
俱	-7.99711
之所	-7.9984
特	-7.99918
篇	-8.00189
細	-8.00351
過	-8.00352
二十	-8.00452
親	-8.00526
政	-8.01046
黃	-8.0128
隂陽	-8.02401
部	-8.02526
邪	-8.02628
九分	-8.02771
之制	-8.02996
孔子	-8.03749
流	-8.03829
順	-8.03887
誤	-8.03907
聖	-8.04103
一尺	-8.04175
序	-8.04696
問	-8.04872
廟	-8.05165
著	-8.05663
形	-8.05785
亂	-8.05932
降	-8.06023
張	-8.06305
鳴	-8.06348
歸	-8.06694
七聲	-8.06771
中吕	-8.06914
處	-8.07043
五音	-8.07108
改	-8.07719
食	-8.08041
卷	-8.08048
後世	-8.08152
直	-8.08289
伯	-8.08501
散	-8.08846
也故	-8.08988
甚	-8.08997
清聲	-8.09225
家	-8.09349
春	-8.096
思	-8.09836
可以	-8.09858
之音	-8.10029
為徴	-8.10319
似	-8.10823
原	-8.11738
故曰	-8.11938
清濁	-8.12075
失	-8.12076
勾	-8.12387
聖人	-8.12521
雅樂	-8.12963
千	-8.13523
馬	-8.13564
來	-8.13597
議	-8.13728
準	-8.13754
白	-8.13843
好	-8.13879
掌	-8.13974
鐘磬	-8.14001
㑹	-8.14015
之間	-8.14053
亡	-8.1456
門	-8.14566
宣	-8.14575
化	-8.14753
記	-8.15199
說	-8.16382
􁕤	-8.16588
身	-8.16599
變徴	-8.16995
二分	-8.17014
彈	-8.17668
六十	-8.17871
解	-8.18011
開	-8.18214
面	-8.18685
之理	-8.19097
建	-8.19132
要	-8.19381
而為	-8.19449
受	-8.19452
爾	-8.19465
中聲	-8.19648
闕	-8.19842
斯	-8.19943
之意	-8.20236
逺	-8.20247
之實	-8.20327
古樂	-8.21004
上下	-8.21171
􁕨	-8.21337
精	-8.21625
相生	-8.2175
共	-8.21896
十六	-8.22
一寸	-8.22114
宫調	-8.22468
總	-8.22719
昭	-8.22863
存	-8.22932
㣲	-8.2329
信	-8.2423
圍	-8.24276
而無	-8.24531
色	-8.24616
盛	-8.24976
周官	-8.25337
坐	-8.25565
自然	-8.25769
手	-8.25908
兼	-8.26222
低	-8.26299
適	-8.26398
唯	-8.26455
毎	-8.26472
最	-8.26788
一聲	-8.26929
莫	-8.27196
七調	-8.27199
先王	-8.27424
祖	-8.27437
儀	-8.27916
七音	-8.28081
八寸	-8.28344
不得	-8.28415
仍	-8.28515
享	-8.28554
製	-8.28962
者以	-8.29088
胡	-8.2916
梁	-8.29634
口	-8.29681
之禮	-8.29756
敬	-8.30009
黄清	-8.3019
大夫	-8.30266
真	-8.30361
十徽	-8.30473
古之	-8.30581
之於	-8.31066
雜	-8.31522
之中	-8.31612
離	-8.31654
大小	-8.31775
注	-8.31833
四清	-8.31846
簡	-8.31872
􁕣	-8.32515
是以	-8.32618
辭	-8.3263
達	-8.32651
八十一	-8.32813
干	-8.32827
再	-8.32926
末	-8.33166
起調	-8.33475
萬物	-8.33652
陰	-8.33845
功	-8.33967
差	-8.34106
大呂	-8.34189
就	-8.34373
以下	-8.34414
計	-8.34457
識	-8.34509
疑	-8.34583
不足	-8.34721
火	-8.34783
皆以	-8.35106
耶	-8.35428
皇	-8.35508
隨	-8.35542
除	-8.35684
衣	-8.3586
算	-8.35898
州	-8.36351
姑應	-8.36362
修	-8.36389
代	-8.36631
第	-8.36696
一分	-8.37187
五十	-8.37521
一十	-8.37529
南呂	-8.37718
不過	-8.37759
六寸	-8.3801
秋	-8.3814
强	-8.38346
案	-8.38379
􁕙	-8.39045
半律	-8.3969
筭	-8.3998
女	-8.40076
習	-8.40234
為徵	-8.40414
述	-8.40481
况	-8.40487
有竒	-8.40629
􁕜	-8.40698
魯	-8.40967
變徵	-8.41336
越	-8.41593
宗廟	-8.4177
旋	-8.41864
畢	-8.41999
古者	-8.42439
窮	-8.42535
厚	-8.42543
表	-8.42599
廢	-8.42786
塤	-8.43037
校	-8.43096
乾	-8.43114
大司樂	-8.43228
隋	-8.43285
祭祀	-8.43461
宫聲	-8.43461
錢	-8.43575
誠	-8.43675
長短	-8.43859
貴	-8.44161
對	-8.44172
一人	-8.44538
燕	-8.44579
呂	-8.44581
三寸	-8.44667
鄭	-8.44943
史	-8.4496
須	-8.45077
車	-8.45301
之義	-8.45558
鼗	-8.45601
二十四	-8.45673
之位	-8.45683
空	-8.45765
之道	-8.458
龍	-8.45845
性	-8.46042
舜	-8.46054
厯	-8.4609
賓	-8.46226
第一	-8.4628
斗	-8.46352
徒	-8.46612
益	-8.46618
施	-8.46686
饗	-8.46786
魏	-8.46836
衡	-8.4687
情	-8.47192
散聲	-8.47352
統	-8.474
慢	-8.47443
紀	-8.47451
五分	-8.47575
第二	-8.47647
旋宫	-8.47658
八十	-8.4771
是故	-8.47915
為之	-8.47935
切	-8.48113
六分	-8.48339
三十	-8.4866
作樂	-8.489
一絃	-8.49627
權	-8.49664
恐	-8.49716
二十七	-8.49775
為一	-8.49929
其數	-8.49959
主人	-8.50036
飾	-8.50097
不及	-8.50143
亥	-8.50283
華	-8.50297
卒	-8.50564
減	-8.50755
之類	-8.50805
四寸	-8.50849
孝	-8.50854
丑	-8.51017
退	-8.51346
十三	-8.51608
皇帝	-8.51667
典	-8.51682
三絃	-8.51781
註	-8.51838
八分	-8.51884
田	-8.51957
倍律	-8.52112
乙	-8.52364
只	-8.52436
􁕠	-8.52439
術	-8.52635
美	-8.52648
龠	-8.52788
南工	-8.52843
之律	-8.5289
七分	-8.52941
革	-8.53214
秦	-8.53489
乘	-8.53725
其所	-8.53908
目	-8.54269
交	-8.54359
老	-8.54378
浪	-8.54744
人聲	-8.54753
為實以十億乗之以十億	-8.54801
蕤賓	-8.5493
也然	-8.5499
九十	-8.55058
鎛鐘	-8.55333
始於	-8.55558
者皆	-8.55778
朱子	-8.55901
審	-8.55929
室	-8.55993
韶	-8.56018
參	-8.56069
吾	-8.56161
為用	-8.56187
寅	-8.56195
哀	-8.56219
簧	-8.56753
篪	-8.57261
其音	-8.57406
㽔賓	-8.57479
永	-8.57513
足以	-8.57533
午	-8.57697
之時	-8.57899
之氣	-8.57941
鑄	-8.58033
守	-8.58041
頌	-8.58183
􁕱	-8.58335
朱	-8.58346
二寸	-8.58569
編	-8.58655
端	-8.58905
匏	-8.58936
出於	-8.58941
南應	-8.58949
黄帝	-8.59022
面羃	-8.5919
九徽	-8.59254
聖朝	-8.59345
五寸	-8.59593
姑和	-8.59784
承	-8.59818
布	-8.59917
正太中	-8.59943
雲	-8.60079
堂上	-8.60521
兵	-8.60563
申	-8.60577
南和	-8.60592
之後	-8.61077
林和	-8.61083
仲呂	-8.61256
登歌	-8.61418
十一	-8.61515
淫	-8.61555
之事	-8.6156
何以	-8.61583
嘉	-8.61832
四十	-8.61975
聲也	-8.62159
相應	-8.62246
不言	-8.62634
六十四	-8.63007
便	-8.63121
五絃	-8.63362
亦有	-8.63508
不合	-8.63588
嵗	-8.63738
質	-8.63753
林尺	-8.63769
倡	-8.63801
待	-8.63805
養	-8.63813
琵琶	-8.64478
人之	-8.64514
又以	-8.64549
尤	-8.64764
推之	-8.64793
凖	-8.64858
也其	-8.64898
劉	-8.65014
畫	-8.65041
先儒	-8.65392
􁕭	-8.65527
各有	-8.65597
儀禮	-8.65602
種	-8.6576
十分	-8.66015
已上	-8.66324
生於	-8.66337
唱	-8.66374
還	-8.66759
靈	-8.66839
五行	-8.67222
律管	-8.6744
韻	-8.67457
感	-8.67544
太清	-8.67617
之意也	-8.67917
二千	-8.68079
摶牘	-8.68233
示	-8.68287
孫	-8.6847
并	-8.68496
酒	-8.68539
未嘗	-8.68659
以其	-8.68749
讀	-8.69016
司	-8.69072
之管	-8.69107
輕	-8.69271
收	-8.69516
鎛	-8.69522
一百	-8.6957
賢	-8.69626
今之	-8.69658
陵	-8.69706
他	-8.69869
太常	-8.70016
所用	-8.70018
李	-8.70495
請	-8.70568
二千九百三十萬	-8.70581
素	-8.70582
十寸	-8.70615
今按	-8.70843
􁕥	-8.70941
虚	-8.71192
一律	-8.71335
隔	-8.71517
編鐘	-8.7166
七律	-8.72026
黄鍾之	-8.72243
聲音	-8.72356
蔡氏	-8.72995
之羽	-8.7303
億	-8.73113
昔	-8.73157
漢志	-8.73182
御	-8.7335
𤼵	-8.73399
冠	-8.7343
詞	-8.73507
變宮	-8.73651
七徽	-8.73771
樂章	-8.73797
武舞	-8.7391
勝	-8.74045
驗	-8.74078
禮記	-8.74588
奉	-8.74832
急	-8.74836
第三	-8.74974
文舞	-8.75209
舞者	-8.75238
不必	-8.75295
斷	-8.75597
絶	-8.75972
豈非	-8.7624
零	-8.76318
奇	-8.76325
略	-8.76355
樂記	-8.76451
為黄鍾	-8.76614
髙下	-8.76645
軍	-8.76652
□□	-8.76686
箎	-8.77035
附	-8.77038
釋	-8.77051
一字	-8.77223
藏	-8.77316
斛	-8.77517
之屬	-8.77536
相和	-8.7776
春秋	-8.77771
􁈹	-8.77821
工尺	-8.78032
聲之	-8.78204
黄鍾之宫	-8.78259
三分損益	-8.78313
博	-8.78534
殺	-8.78569
坤	-8.7859
架	-8.78722
必有	-8.78758
亦不	-8.78761
樂舞	-8.78933
景	-8.79232
樂者	-8.79372
姑一	-8.79514
於此	-8.79533
正林中	-8.79533
拜	-8.79546
文王	-8.79677
冬	-8.79757
水應	-8.80032
凡工	-8.80457
變律	-8.8054
爵	-8.8068
向	-8.80698
殊	-8.80836
悉	-8.80868
移	-8.80895
特磬	-8.81482
之說	-8.81516
頭	-8.81571
祠	-8.81666
又有	-8.81962
堂下	-8.81983
繼	-8.82003
郊	-8.82204
隔八	-8.82322
俗樂	-8.82369
光	-8.82401
静	-8.82454
宫商	-8.82461
三百	-8.82511
武王	-8.82755
河	-8.83027
條	-8.83055
可也	-8.83178
兮姑	-8.83178
補	-8.83303
約	-8.83465
當時	-8.83476
大師	-8.83597
雷	-8.83841
柱	-8.83989
俗呼	-8.83991
視	-8.84028
数	-8.84368
號	-8.84472
九聲	-8.84756
揚	-8.84804
利	-8.84917
得其	-8.84949
皆有	-8.85052
商調	-8.85194
七寸	-8.85384
銖	-8.85544
莫不	-8.85682
古今	-8.85693
顯	-8.85702
為宮	-8.85832
伎	-8.85874
七絃	-8.86059
載堉	-8.86273
也夫	-8.86295
四十八	-8.86307
逆	-8.86457
之名	-8.86552
折	-8.86692
諧	-8.86705
其餘	-8.86755
􁕚	-8.86927
母	-8.8717
噐	-8.87241
步	-8.87323
而以	-8.8737
府	-8.87492
聲而	-8.87536
采	-8.87671
枚	-8.87725
取其	-8.87785
乗	-8.87809
有所	-8.88076
稍	-8.88133
業	-8.88147
殿	-8.88165
授	-8.88221
之外	-8.88223
維	-8.88228
中呂	-8.885
協	-8.8878
愛	-8.88954
七十	-8.89002
非特	-8.89022
一千	-8.89064
搏牘磬	-8.89172
相合	-8.89269
五調	-8.89287
里	-8.89392
其法	-8.89773
可知	-8.89967
大射	-8.90008
十四	-8.9003
聲律	-8.9007
篴	-8.90196
三十六	-8.90297
折半	-8.90426
告	-8.9044
七十二	-8.90545
連	-8.90586
妙	-8.90617
專	-8.90632
環	-8.90636
樂師	-8.90644
之下	-8.90887
左右	-8.90981
無所	-8.91067
可知矣	-8.91246
丈	-8.91303
為主	-8.91328
豆	-8.91607
竽	-8.91807
禹	-8.92178
兆	-8.92356
殷	-8.92423
較	-8.92428
二千二百三十六除之得	-8.92591
緊	-8.92684
也然則	-8.92865
父	-8.93138
其説	-8.93191
崇	-8.93252
格	-8.93296
以上	-8.93717
以樂	-8.94087
徹	-8.94158
也今	-8.94159
第十	-8.94489
所得	-8.94565
咸	-8.94652
四時	-8.94664
注云	-8.94698
横	-8.94832
缺	-8.94837
智	-8.9494
庶	-8.94962
十五	-8.95034
楚	-8.95037
十二月	-8.95077
詩曰	-8.95079
集	-8.9511
金石	-8.95348
竒	-8.95395
第四	-8.95488
證	-8.9581
秤	-8.96044
賜	-8.96055
十一徽	-8.96248
以象	-8.96255
正姑中	-8.963
爾雅	-8.96396
房	-8.96445
旁	-8.96783
四尺	-8.96792
式	-8.96871
柷	-8.97192
望	-8.97334
呼	-8.97573
星	-8.97715
帥	-8.97766
假	-8.97861
則知	-8.97869
之數也	-8.98042
瞽	-8.9808
何也	-8.98242
半聲	-8.98549
鬴	-8.9862
息	-8.98639
堯	-8.9867
緩	-8.98736
冬至	-8.99028
古法	-8.99111
層	-8.9914
之節	-8.99144
酉	-8.99188
同意	-8.99191
毛	-8.99327
正黄中	-8.99332
宫徴商羽角變宫變徴	-8.99442
幾	-8.9963
而成	-8.99904
蕤正	-9.00025
不可以	-9.00158
職	-9.00166
記曰	-9.00219
國語	-9.00296
舊法	-9.0034
不然	-9.00406
黄應	-9.00621
二絃	-9.00852
斤	-9.01034
久	-9.01093
五六	-9.01139
其實	-9.0141
鉦	-9.01532
持	-9.01568
力	-9.01583
夜	-9.01604
介	-9.01614
皮	-9.01662
傳曰	-9.01754
以此	-9.01939
鈞	-9.0209
抑	-9.02201
接	-9.02388
社	-9.02478
京房	-9.02479
薄	-9.02484
四聲	-9.02714
豈不	-9.0272
五百	-9.02787
操	-9.0293
階	-9.03275
樂也	-9.03334
路	-9.0338
某	-9.034
小者	-9.03409
是為	-9.03458
増	-9.03461
柷敔	-9.03488
天地之	-9.03749
子聲	-9.0379
之器	-9.03884
海	-9.04133
播	-9.04391
究	-9.04425
妄	-9.04451
名曰	-9.04456
席	-9.04505
牛	-9.04508
造律	-9.04511
果	-9.04529
於是	-9.04529
飛	-9.04589
陽律	-9.04608
數也	-9.04714
則以	-9.04751
亦如之	-9.04778
以見	-9.04983
四字	-9.05024
卑	-9.05262
其義	-9.05311
懸	-9.05418
竅	-9.05483
候氣	-9.05521
律之	-9.0553
禁	-9.05542
一工	-9.05622
下法	-9.05903
非也	-9.06016
史記	-9.06022
鞉	-9.0615
徵調	-9.06221
強	-9.06291
陽氣	-9.0632
漸	-9.06374
迎	-9.06446
惡	-9.06489
野	-9.06492
䘮	-9.06499
卯	-9.06503
城	-9.06526
分寸	-9.06705
黄合	-9.06835
一釐	-9.06883
黄鐘之	-9.06933
運	-9.07224
卦	-9.07309
尾	-9.07347
趙	-9.07407
虡	-9.07431
逹	-9.07433
一調	-9.07439
一四	-9.07498
虞	-9.07524
終於	-9.07735
飲	-9.07822
樂以	-9.07897
共得	-9.0812
戒	-9.08216
幽	-9.08376
之曲	-9.08411
候	-9.08447
察	-9.08474
封	-9.08483
鄉	-9.08493
遇	-9.08499
書曰	-9.08513
喜	-9.08515
音也	-9.0859
鳯	-9.08614
青	-9.08637
合樂	-9.08801
五聲之	-9.08818
錯	-9.08898
五十四	-9.08936
七毫	-9.0899
宴	-9.09139
季	-9.09324
禮也	-9.09346
避	-9.09373
則不	-9.09467
之樂也	-9.09541
也若	-9.09572
互	-9.0958
都	-9.09587
二律	-9.09639
見於	-9.10137
之姑正	-9.10217
二人	-9.10222
角聲	-9.10243
却	-9.10537
乖	-9.10591
庭	-9.10756
宫架	-9.10863
之長	-9.10889
其中	-9.10983
五弦	-9.11035
則有	-9.11044
累	-9.11278
位除實	-9.11543
三寸九分	-9.11551
奏之	-9.11573
聴	-9.11591
朔	-9.11602
寧	-9.11609
伐	-9.11634
穴	-9.11663
有司	-9.11822
歴	-9.11957
二百	-9.12316
𫝊	-9.12357
節奏	-9.12415
纓	-9.1261
刻	-9.12635
𤣥	-9.12649
牲	-9.12651
偶	-9.12688
敎	-9.12711
疏	-9.13062
樂工	-9.13168
之用	-9.13207
􁕘	-9.13423
謹	-9.13643
歌舞	-9.13663
敔	-9.13687
宻	-9.13698
隆	-9.13723
箏	-9.1381
赤	-9.13825
破	-9.13843
角調	-9.13847
雖有	-9.13897
憂	-9.13938
歩	-9.14022
四方	-9.14059
為調	-9.14065
未嘗不	-9.14113
其樂	-9.14144
録	-9.14235
燕禮	-9.14269
歌者	-9.14482
洗	-9.14596
其制	-9.14631
損益	-9.14738
震	-9.148
幸	-9.14803
鼎	-9.14816
予	-9.14819
否	-9.14861
垂	-9.14864
臨	-9.14867
錫	-9.14872
之本	-9.14887
死	-9.14967
疏曰	-9.15043
者其	-9.15131
求之	-9.15143
畢曲	-9.1518
十八	-9.15202
第六	-9.15378
未必	-9.15413
領	-9.15664
之分	-9.15734
衛	-9.15907
擬	-9.15916
衰	-9.15973
以至	-9.15978
来	-9.16001
鼓吹	-9.16173
之文	-9.1644
第五	-9.16623
以成	-9.16714
立體	-9.16811
故以	-9.1682
操縵	-9.16919
圎	-9.16932
柄	-9.16982
濟	-9.16988
則是	-9.16993
該	-9.17006
己	-9.17024
祥	-9.17103
鐸	-9.17117
勢	-9.17119
其一	-9.1714
郊廟	-9.17155
隔八相生	-9.17263
遺	-9.17445
八百	-9.17507
虞書	-9.17679
以後	-9.17898
之上	-9.17925
員	-9.17986
􁕛	-9.18
者謂	-9.18083
頗	-9.18225
粟	-9.18262
未有	-9.18376
月令	-9.18401
鐘鼓	-9.18795
圜	-9.18979
底	-9.19003
撰	-9.19016
之率	-9.19232
咸池	-9.19263
漆	-9.19274
講	-9.19278
㫖	-9.19323
側	-9.1935
偽	-9.19356
或以	-9.19367
有奇	-9.19367
秬黍	-9.19418
以來	-9.19578
之宫	-9.19619
笙師	-9.1963
為變宫	-9.19647
周公	-9.19894
周尺	-9.19941
滿	-9.20094
本於	-9.20216
係	-9.2029
羣	-9.20415
振	-9.20425
二尺	-9.2052
鬼神	-9.20651
矣然	-9.20797
必以	-9.20821
君臣	-9.20887
燕樂	-9.209
纎	-9.20945
七弦	-9.20982
也蓋	-9.21101
於樂	-9.21167
之妙	-9.2122
召	-9.21424
十二辰	-9.21517
出入	-9.21518
至于	-9.21603
戚	-9.21624
疾	-9.21658
務	-9.21665
積實	-9.21673
之次	-9.21903
三代	-9.21966
縱	-9.21967
歎	-9.22249
畧	-9.22277
太師	-9.22521
四絃	-9.22551
而生	-9.22554
丘	-9.22617
約之	-9.22619
長九寸	-9.22644
第八	-9.22718
雙	-9.22731
役	-9.22794
圗	-9.22809
歌詩	-9.22866
二千一百八十七	-9.22885
弓	-9.22888
今夫	-9.22902
羽聲	-9.22939
之序	-9.22986
若夫	-9.23047
鳳	-9.23136
試	-9.23461
之商	-9.2348
皆用	-9.23596
八十一分	-9.23687
戌	-9.23802
良	-9.23939
盈	-9.23948
純	-9.23955
失之	-9.23977
財	-9.24
品	-9.24026
例	-9.24033
顧	-9.24055
河圖	-9.24061
鄭氏	-9.24069
戯	-9.24279
所以為	-9.24398
小師	-9.24432
三尺	-9.24438
為一分	-9.24733
為節	-9.24734
清角	-9.24824
商聲	-9.2484
后	-9.24848
康	-9.25072
冕	-9.25081
閏	-9.25103
則其	-9.2513
夔	-9.25169
段	-9.25171
股	-9.25377
六變	-9.25418
此言	-9.25551
數而	-9.25636
損	-9.25663
之詩	-9.25827
寓	-9.25923
旅	-9.25932
司馬	-9.26026
􁕕	-9.26134
樂府	-9.26261
明矣	-9.2629
翟	-9.26378
助	-9.26391
增	-9.26399
靜	-9.26449
聚	-9.26453
寳	-9.26486
為法	-9.26486
二十五	-9.26499
輕重	-9.26584
可得而	-9.26643
六十律	-9.2669
簴	-9.26703
者為	-9.26845
十有二	-9.26906
弦散聲	-9.26912
登	-9.27123
所載	-9.27227
二八	-9.27461
暉	-9.27542
甲	-9.27571
坎	-9.27594
恭	-9.27616
儒	-9.27619
眡瞭	-9.27642
柔	-9.27675
五千九百四十	-9.27735
刑	-9.27736
又云	-9.27893
先王之	-9.28133
乆	-9.28271
祗	-9.28295
起於	-9.28304
堂	-9.28471
左傳	-9.28726
納	-9.28744
弱	-9.28825
大武	-9.28839
六二	-9.28887
明堂	-9.2898
也此	-9.29045
幂	-9.29141
武帝	-9.29152
為樂	-9.29242
縱黍	-9.29382
次第	-9.2987
六尺	-9.29969
尋	-9.30155
三釐	-9.30159
任	-9.30168
析	-9.30183
歲	-9.30187
皆可	-9.3023
搏拊	-9.3033
教之	-9.30357
六孔	-9.30394
六毫	-9.30473
謬	-9.30523
曉	-9.3063
之始	-9.30686
兮南	-9.30853
倍之	-9.30877
之角	-9.30964
害	-9.31075
天下之	-9.31108
六百	-9.31126
陰陽	-9.31174
味	-9.31176
清商	-9.31197
符	-9.31286
肅	-9.31336
而止	-9.31373
薦	-9.31404
寛	-9.31413
四一	-9.31431
子曰	-9.31441
魚	-9.31464
報	-9.31565
考之	-9.31602
放	-9.32357
之變	-9.32469
孰	-9.3257
綱	-9.32704
照	-9.32717
阜	-9.32734
苟	-9.32741
李照	-9.32747
鄭康成	-9.32762
舌	-9.32797
威	-9.32815
六萬三千	-9.32831
黄鍾宫	-9.32904
變宫變徵	-9.32908
一變	-9.33117
也又	-9.33266
有餘	-9.33279
得一	-9.3329
其長	-9.33456
正南中	-9.33581
淮南子	-9.33647
而言	-9.33729
榖	-9.3382
管子	-9.3397
慶	-9.33993
六釐	-9.34048
期	-9.34071
擇	-9.34089
一也	-9.34115
周徑	-9.34175
並用	-9.34313
兮蕤	-9.34497
不以	-9.34562
尺工	-9.34616
止於	-9.34633
十三徽	-9.34639
大樂	-9.34894
擊之	-9.34911
由是觀之	-9.35027
亦無	-9.35248
律書	-9.3526
纖	-9.35308
尸	-9.35329
含少	-9.35338
而有	-9.35358
劉歆	-9.35369
南林	-9.35386
源	-9.35407
粗	-9.35451
賦	-9.35454
第七	-9.35579
誤矣	-9.35704
商音	-9.35851
樂而	-9.36082
蕤應	-9.36096
一一	-9.36138
漢書	-9.36156
行之	-9.36157
後人	-9.36275
右手	-9.36284
自然之理	-9.36386
樂書	-9.3648
覆	-9.36711
社稷	-9.36718
蔡邕	-9.36726
省	-9.36732
勿	-9.36759
洪	-9.36765
循	-9.36786
羣臣	-9.36802
干戚	-9.36823
其意	-9.36875
隋志	-9.36882
花	-9.36925
或曰	-9.36999
累黍	-9.37022
圍徑	-9.37177
所生	-9.37295
應和	-9.37611
兮黄	-9.3766
故其	-9.37739
凡樂	-9.37742
竊	-9.37814
一徽	-9.38
夀	-9.38053
伏	-9.38097
樂記曰	-9.38102
瞽矇	-9.38103
兹	-9.38125
肆	-9.38133
許	-9.38133
延	-9.38171
嚴	-9.38228
繩	-9.38239
敢	-9.38463
之歌	-9.38684
矣故	-9.38722
諸律	-9.38751
之道也	-9.38947
使之	-9.38974
▁(	-9.39057
其後	-9.39135
吟	-9.39153
右乃	-9.39155
大者	-9.39168
羽調	-9.39253
竟	-9.39461
虛	-9.39481
其間	-9.39487
煩	-9.39513
往	-9.39524
衍	-9.39553
舍	-9.39555
不足以	-9.39566
箜篌	-9.39625
大抵	-9.39649
近代	-9.39683
然而	-9.40119
忘	-9.40283
王者	-9.40332
可謂	-9.40442
周之	-9.40479
終始	-9.40509
按此	-9.40515
不敢	-9.40774
羃	-9.40806
名之	-9.40845
者亦	-9.40878
勞	-9.40917
學者	-9.40954
齒	-9.41035
一均	-9.41172
而非	-9.41234
則又	-9.41332
合工	-9.41437
失其	-9.41472
九百	-9.41494
亦可	-9.41518
長六寸	-9.41535
三分益一	-9.41536
黃鐘	-9.41604
大饗	-9.41717
知其	-9.41883
􁕖	-9.42042
之士	-9.42162
鏞	-9.42214
歌聲	-9.42229
密	-9.4226
京	-9.42304
巧	-9.42306
茍	-9.42325
雲門	-9.42336
不在	-9.42409
林清	-9.42541
八佾	-9.42567
舊説	-9.42666
黄鍾為宫	-9.42757
後周	-9.42811
起調畢曲	-9.42957
九九	-9.43282
孟子	-9.43343
之言	-9.43453
三百六十	-9.43531
禘	-9.43681
拍	-9.43818
豫	-9.43827
熟	-9.43833
回	-9.43889
編磬	-9.43898
稷	-9.43911
仙	-9.43947
龜	-9.44001
鄉射	-9.44061
徴羽	-9.44622
之度	-9.44629
六七	-9.44676
伵	-9.45109
甬	-9.45212
闗	-9.45238
權衡	-9.45271
觶	-9.45284
歴代	-9.45298
故謂之	-9.45305
律呂	-9.45541
四十二	-9.45623
後魏	-9.45735
三忽	-9.45894
八徽	-9.45904
天神	-9.45916
五尺	-9.4599
徵羽	-9.46151
一忽	-9.46235
繁	-9.46273
效	-9.46331
二毫	-9.46386
下文	-9.46432
遣	-9.46615
雨	-9.46627
文武	-9.46649
留	-9.46651
吹之	-9.46711
所造	-9.46723
支	-9.46728
裁	-9.46732
而不用	-9.46736
滅	-9.46739
閉	-9.4675
不復	-9.46768
觧	-9.46782
十七	-9.46784
偏	-9.46804
四清聲	-9.46871
第九	-9.47
九變	-9.47059
宫縣	-9.47242
合一	-9.47337
六十調	-9.4743
三毫	-9.4743
不成	-9.47438
佾	-9.47509
之論	-9.47563
宿	-9.47625
愚	-9.47659
註曰	-9.47736
論樂	-9.47819
之調	-9.47848
惑	-9.4788
如此則	-9.47934
無不	-9.47936
吉	-9.47977
自然之數	-9.48164
也凡	-9.48183
两	-9.48204
隠	-9.48207
蔡元定	-9.48228
韓	-9.48246
伶倫	-9.4826
傷	-9.48274
之内	-9.48283
病	-9.48303
熊	-9.48326
荒	-9.48328
如是	-9.48332
一合	-9.48448
姑清	-9.48537
六樂	-9.486
以應	-9.48699
始終	-9.48763
而不知	-9.48906
乗之	-9.48918
二十八	-9.48994
黄鍾九寸	-9.49
諸侯之	-9.49004
夏至	-9.49029
之義也	-9.49043
本律	-9.49107
必先	-9.4918
欽定四庫全書樂書卷	-9.49196
下管	-9.49259
為黄鐘	-9.49309
一毫	-9.49373
和太和	-9.49401
形如	-9.49416
後漢	-9.49545
襲	-9.49597
含	-9.49738
育	-9.49752
缶	-9.49767
黒	-9.49786
戰	-9.4982
工凡	-9.49903
也盖	-9.50017
詠	-9.5006
次之	-9.50111
之謂也	-9.5014
尚書	-9.50213
我應	-9.50388
其理	-9.50543
左手	-9.50622
三聲	-9.50846
八毫	-9.50924
庸	-9.51014
莊	-9.51105
而下	-9.51128
疎	-9.51132
七始	-9.51226
十二聲	-9.51281
根	-9.51346
雍	-9.51366
鹿鳴	-9.51379
之象也	-9.51401
悲	-9.51408
廞	-9.5141
私	-9.51423
帶	-9.51451
孔子曰	-9.51548
歌之	-9.51607
中國	-9.51653
其形	-9.51692
被	-9.51694
為正	-9.51757
徑三分	-9.51896
六忽	-9.51917
當用	-9.51934
全律	-9.52239
黄林	-9.5224
十九	-9.52496
泉	-9.52594
數之	-9.52595
其本	-9.52812
相同	-9.52826
壇	-9.52886
山川	-9.52906
倫	-9.52912
人心	-9.52913
圭	-9.52915
韋	-9.52934
剛	-9.52935
植	-9.52962
五五	-9.52965
存焉	-9.52995
特縣	-9.53034
卿大夫	-9.5308
為大	-9.53086
周人	-9.53279
為實	-9.53304
此之謂也	-9.53626
矣此	-9.53633
所云	-9.53672
應宫	-9.53832
鍾磬	-9.5384
八尺	-9.53892
一絲	-9.54033
夘	-9.54042
樂書卷	-9.54057
宫音	-9.54108
民之	-9.54111
十七萬七千一百四十七	-9.54155
其言	-9.5421
是知	-9.54354
何也曰	-9.54368
之南正	-9.5443
中和	-9.54482
送	-9.54516
遠	-9.54524
釋奠	-9.54547
暴	-9.54573
賤	-9.54574
界	-9.54587
背	-9.54592
温	-9.54604
繼之	-9.54631
索	-9.54662
樂作	-9.5467
璧	-9.54679
先後	-9.54755
為實以	-9.54849
天道	-9.55049
内徑	-9.55101
而樂	-9.55202
上字	-9.55293
亦然	-9.55341
以禮	-9.5543
為變徵	-9.55431
相去	-9.55483
欲其	-9.55507
九十分	-9.55534
朱子曰	-9.55664
銘	-9.55722
也言	-9.55773
七百二十九	-9.55794
湯	-9.55794
上下相生	-9.55946
江	-9.55952
居中	-9.56097
借	-9.56111
貫	-9.56114
起聲	-9.5612
澤	-9.56133
從之	-9.56139
厘	-9.56163
單	-9.56169
一管	-9.56171
九十四除之得	-9.56231
臣謹按	-9.56248
曽	-9.56271
酌	-9.5628
脣	-9.56298
鐃	-9.56302
二聲	-9.56311
導	-9.56324
六絃	-9.56364
乘之	-9.5639
之誤	-9.56429
勾一	-9.56534
九三	-9.56578
二百四十三	-9.56584
不如	-9.56627
奏樂	-9.56674
其事	-9.56919
其用	-9.56925
鞞	-9.57453
制度	-9.57595
由是	-9.57618
於禮	-9.57652
釐八毫	-9.5774
遷	-9.57812
鎮	-9.57821
淺	-9.57836
充	-9.57859
獲	-9.5788
客	-9.57889
八十四調	-9.57899
喉	-9.57916
藝	-9.57931
王朴	-9.5795
虎	-9.57952
三三	-9.58003
其器	-9.58185
弗	-9.58347
度數	-9.58516
不失	-9.5859
太廟	-9.58608
不相	-9.58708
聲則	-9.5873
升歌	-9.58897
變聲	-9.58998
五十六	-9.59077
解曰	-9.59238
一二	-9.59288
者有	-9.59295
為一寸	-9.59313
而用	-9.59318
者也故	-9.59395
分數	-9.59398
祝	-9.59435
農	-9.59458
楹	-9.59469
矩	-9.59534
怨	-9.59558
測	-9.59576
音律	-9.59598
逐	-9.59607
百四十	-9.59609
遲	-9.59647
教坊	-9.5965
弄	-9.59653
騐	-9.59658
制作	-9.59678
律者	-9.59795
出于	-9.598
八十四聲	-9.59874
西階	-9.59966
一萬九千六百八十三	-9.60027
不亦	-9.60142
建鼓	-9.60354
開方	-9.60359
之象	-9.60459
歳	-9.60769
九二	-9.60776
與此	-9.60789
三四	-9.6087
焉故	-9.60913
鼙	-9.6093
喪	-9.60962
太四	-9.60971
之祭	-9.60997
中間	-9.61063
仩	-9.61134
仜	-9.61158
下有	-9.61161
可姑正	-9.61166
丁	-9.61176
所傳	-9.61208
閟	-9.61221
叚	-9.61269
蜀	-9.61275
訓	-9.61277
保	-9.61289
攷	-9.61305
古制	-9.61308
規	-9.6132
脩	-9.61345
舒	-9.61359
多寡	-9.6136
鼓瑟	-9.6158
玉磬	-9.61602
二五	-9.61698
者必	-9.61723
四六	-9.61817
百三十	-9.61875
起宫	-9.61993
四毫	-9.62008
七一	-9.62168
簇	-9.62232
學士	-9.62261
一章	-9.62272
截	-9.62541
孤	-9.62548
者非	-9.62605
而得	-9.62702
罷	-9.6302
宰	-9.63021
此理	-9.63042
況	-9.63042
蕃	-9.63054
笑	-9.63069
腹	-9.63083
尊卑	-9.63147
羅	-9.63183
鐘鼔	-9.63229
有以	-9.6325
亦以	-9.633
愚按	-9.63423
二絲	-9.63723
之首	-9.63774
之所以	-9.63925
十月	-9.63957
尺寸	-9.6397
施於	-9.64041
三律	-9.64101
金奏	-9.64103
則聲	-9.64169
其律	-9.6423
爾雅曰	-9.64238
兮應	-9.64282
羽籥	-9.64289
以合	-9.64316
亦用	-9.6438
侍	-9.64521
國之	-9.64561
可見	-9.6458
芍和	-9.64633
伬	-9.64658
者即	-9.64717
考工記	-9.64765
皷	-9.64789
趨	-9.64848
閒	-9.64849
怒	-9.64888
郭	-9.64888
烈	-9.64899
使人	-9.64929
合於	-9.64977
釐一毫	-9.65008
羽音	-9.65051
狀	-9.65135
宫商角徵羽	-9.65142
一曰	-9.65169
之學	-9.65229
之前	-9.65281
一凡	-9.65319
上文	-9.65347
論之	-9.65362
騶虞	-9.65391
清廟	-9.65445
譏	-9.65489
亦非	-9.655
之方	-9.65713
琴譜	-9.65725
儒者	-9.65738
四律	-9.65882
合四	-9.65897
一孔	-9.6592
而用之	-9.65927
十二管	-9.65934
若以	-9.65995
仲林	-9.66064
隋唐	-9.66092
勾尺	-9.66101
故用	-9.66194
隔一	-9.66315
才	-9.66387
是不知	-9.66416
繫	-9.66487
甞	-9.66505
戈	-9.66603
眞	-9.66619
綴	-9.6662
區	-9.6662
矢	-9.66629
倚	-9.66649
獸	-9.66673
薰	-9.66679
者乎	-9.66732
優	-9.66774
進退	-9.66824
要之	-9.67054
日月	-9.67157
皇后	-9.6729
以求	-9.67306
此説	-9.67313
者乃	-9.67361
六五	-9.67411
此則	-9.67414
形容	-9.67487
百一十	-9.67505
三年	-9.67546
法也	-9.67558
二字	-9.6757
指法	-9.67581
高下	-9.67765
當作	-9.67955
雖不	-9.68107
郊祀	-9.68132
合字	-9.68174
拊芍之黄正	-9.68192
故言	-9.68205
皆非	-9.68215
亦得	-9.68273
太應	-9.683
亦因	-9.68364
宫商角	-9.68398
属	-9.68448
錄	-9.68452
繆	-9.6847
採	-9.6848
瓦	-9.6851
竝	-9.68519
休	-9.68522
麗	-9.68527
克	-9.68552
辟	-9.68556
資	-9.68562
貌	-9.68563
棄	-9.6857
籍	-9.68574
靣	-9.68582
一音	-9.68678
磬師	-9.68816
吕氏	-9.68886
之蕤正	-9.68923
事也	-9.6898
琴家	-9.68986
其名	-9.69023
商頌	-9.69036
五聲二變	-9.69145
太祖	-9.69153
迭	-9.69206
用吟	-9.69213
于是	-9.69391
宫之	-9.69422
當以	-9.69466
七百	-9.69489
倍半	-9.69502
五釐	-9.69511
答	-9.69706
樂縣	-9.69763
之徴	-9.69891
不易	-9.70016
小大	-9.70063
之心	-9.7012
開元	-9.70136
國子	-9.70138
孟	-9.70149
樂正	-9.70172
尺度	-9.70228
王制	-9.70232
稽	-9.7025
童	-9.70254
八百一十分	-9.70291
雩	-9.70345
荀朂	-9.70362
嘆	-9.70366
臺	-9.7038
度量權衡	-9.70383
悦	-9.70395
叔	-9.70397
楊	-9.70405
刺	-9.7041
蘇	-9.70422
徵音	-9.70438
厲	-9.70447
淳	-9.70461
厭	-9.70472
遵	-9.70504
紫	-9.70548
朱氏	-9.70571
七微	-9.70742
商角	-9.70793
相傳	-9.71018
四絲	-9.71144
四人	-9.71165
大夏	-9.71184
斜	-9.71295
八變	-9.71316
樂有	-9.71325
舞之	-9.71333
百二十	-9.71403
三弦	-9.71866
以和	-9.72
扶	-9.72092
六舞	-9.7212
狹	-9.72262
言其	-9.72277
佐	-9.72283
鷺	-9.72291
律數	-9.72293
専	-9.72294
岳	-9.72295
穀	-9.723
賈	-9.723
僭	-9.72305
為林鍾	-9.72307
将	-9.72315
仞	-9.72341
履	-9.72341
頒	-9.72388
一曲	-9.72422
及其	-9.72422
聲者	-9.72423
七七	-9.72436
紅	-9.72453
地示	-9.72463
繹	-9.72467
夏尺	-9.72512
故云	-9.72517
禮之	-9.72779
以明	-9.7286
除之得	-9.72965
合尺	-9.72974
三絲	-9.73003
夷蕤	-9.73092
所言	-9.73203
則一	-9.734
而九之	-9.73483
之遺	-9.73559
七月	-9.73649
陽也	-9.73738
四寸五分	-9.73759
其容	-9.73761
奏肆夏	-9.73923
四百	-9.73935
而舞	-9.74008
九十六	-9.74012
之容	-9.74055
中有	-9.74057
三孔	-9.74067
言樂	-9.74088
退位除	-9.74142
二者	-9.74181
創	-9.74198
遍	-9.74227
曹	-9.74261
准	-9.74268
賀	-9.74279
取音	-9.74302
蕩	-9.74312
仰	-9.74329
防	-9.74363
而不可	-9.74395
又折半	-9.74432
箇	-9.74472
笙磬	-9.7461
一六	-9.74613
易曰	-9.7462
九毫	-9.74696
七絲	-9.74764
鍾律	-9.74768
戱	-9.74801
勾工	-9.74935
審音	-9.74939
者矣	-9.75113
太宗	-9.75115
以次	-9.75148
之情	-9.75167
子夏	-9.75351
祇	-9.75373
之失	-9.75402
立方	-9.75413
生焉	-9.75472
成王	-9.75576
五清	-9.75578
黄鐘之宫	-9.75658
四工	-9.75717
平方	-9.75764
𩔖	-9.75778
簫管	-9.75805
太平	-9.75834
之日	-9.75931
大鼓	-9.7595
為宫則	-9.75989
二七	-9.76021
九釐	-9.76037
塵	-9.76123
族	-9.7619
圜丘	-9.76229
遞	-9.76232
蔡	-9.76239
陋	-9.76253
密率	-9.76274
葉	-9.76285
二十一	-9.76285
黍尺	-9.76295
贊	-9.763
辛	-9.76301
奠	-9.76312
函鍾	-9.76313
鳥	-9.76351
筆	-9.76351
牙	-9.76368
丹	-9.76372
其位	-9.76412
神農	-9.76473
毫釐	-9.76545
胡部	-9.76603
九五	-9.76609
八卦	-9.76616
管長	-9.76628
七纎	-9.7663
以十	-9.76659
前後	-9.76858
宫商角徴羽	-9.76919
今以	-9.76968
詩云	-9.77166
夫人	-9.77225
七忽	-9.77229
以備	-9.77317
南風	-9.7734
其說	-9.77579
曰大	-9.77666
不盡	-9.77678
為應鍾	-9.77694
方圓	-9.77858
三終	-9.77869
二十二	-9.77905
于此	-9.77931
黄鐘為宫	-9.77961
絃音	-9.77961
隂律	-9.77989
擊鼓	-9.77999
知音	-9.78009
度量	-9.78099
亿	-9.78121
清黄	-9.78161
然也	-9.78165
調也	-9.78191
秒	-9.78224
禪	-9.78231
貢	-9.78247
即是	-9.78264
北方	-9.78278
為釐法	-9.78282
邦	-9.78291
徐	-9.78291
因之	-9.78308
別	-9.78314
悟	-9.78323
伊	-9.78331
追	-9.78344
穆	-9.78354
桐	-9.7836
為絲數	-9.78364
上帝	-9.7837
谷	-9.78374
邊	-9.78384
陶	-9.78397
訛	-9.78401
塞	-9.78417
桑	-9.78422
招	-9.78436
大濩	-9.78443
警	-9.78505
之職	-9.78663
道之	-9.78717
五毫	-9.78727
北面	-9.78751
之教	-9.78784
於天下	-9.78796
三八	-9.78834
新法	-9.78933
而已故	-9.78993
黄鍾之律	-9.7932
為本	-9.79367
七四	-9.79414
則無	-9.79459
故不	-9.79492
樂録	-9.79506
黄正	-9.79564
是謂	-9.79608
新法置	-9.79679
矣夫	-9.79692
樂官	-9.79711
樂律	-9.79721
對曰	-9.79741
縵	-9.79814
得乎	-9.79877
卿	-9.79888
不識	-9.79924
横黍	-9.79978
樂聲	-9.79996
調則	-9.80056
空圍	-9.80062
之謬	-9.801
嶽	-9.80106
濯姑正	-9.80136
濁姑正	-9.80171
併	-9.80182
十二徽	-9.80256
疏云	-9.80263
唇	-9.8027
减	-9.80278
五律	-9.80293
豳	-9.80327
艮	-9.80335
襄	-9.8034
誦	-9.80341
而聲	-9.80372
浮	-9.80384
征	-9.8039
繪	-9.80407
㸃	-9.8044
犯	-9.80449
淮南	-9.80451
鮮	-9.80461
旦	-9.80465
从	-9.80487
擘	-9.805
旌	-9.80506
酉為	-9.80529
一兩	-9.80543
弦歌	-9.80563
昌	-9.80594
觱篥	-9.80616
衆樂	-9.80725
角音	-9.80729
之神	-9.80815
二曰	-9.80838
條下	-9.80911
釐五毫	-9.80913
之月	-9.81
黄鍾之長	-9.8103
三月	-9.81075
此乃	-9.81232
濁聲	-9.81299
以竹	-9.81384
餘實	-9.81423
人情	-9.8144
人君	-9.81499
三五	-9.81784
一萬	-9.81814
非是	-9.81939
皆然	-9.8196
歴十二	-9.8204
舉矣	-9.82081
太樂	-9.82094
五徽	-9.82102
舞也	-9.82239
濯	-9.82251
釐六毫	-9.82276
是已	-9.8228
由此	-9.82288
太和	-9.82321
少宫	-9.82334
人鬼	-9.82359
七三	-9.82376
清姑正	-9.82388
之以為	-9.82399
以爲	-9.82419
皆不	-9.8246
啓	-9.82469
祈	-9.82485
今太常	-9.82495
輔	-9.82509
辯	-9.82541
曾	-9.82542
翼	-9.82553
降神	-9.82561
草	-9.82562
泰	-9.82578
聼	-9.82588
勸	-9.82615
戴	-9.82637
劒	-9.82671
甘	-9.82678
嘉量	-9.8273
筝	-9.82736
成於	-9.82744
三變	-9.82828
仁義	-9.82848
變宫變徴	-9.82869
器色	-9.8293
有八	-9.82947
長八寸	-9.83208
陽之	-9.83293
自有	-9.83343
尺合	-9.83463
亦曰	-9.83631
不出	-9.83642
為均	-9.83876
言之則	-9.83882
四變	-9.83888
又謂	-9.84106
五色	-9.84154
長七寸	-9.8433
或謂	-9.84332
周制	-9.8443
滄	-9.84439
錞	-9.84472
明堂位	-9.84472
平方積	-9.84519
乎此	-9.84574
般	-9.84591
束	-9.84629
䟽	-9.84632
選	-9.84634
其文	-9.84634
班	-9.84664
苦	-9.84681
王莽	-9.84689
兄	-9.84694
臋	-9.84702
妻	-9.84713
卽	-9.84714
換	-9.84736
兒	-9.84746
六月	-9.84749
其所以	-9.84751
奚	-9.84757
匏竹	-9.84786
賛	-9.84787
嗣	-9.84811
全度	-9.84812
腰	-9.84815
郎	-9.84815
泛音	-9.84822
黑	-9.84845
自此	-9.84848
臯	-9.8489
頌磬	-9.84896
不和	-9.84916
神明	-9.85013
不與	-9.85075
舂四	-9.85113
為大吕	-9.85206
此所以	-9.85209
此即	-9.85224
算法	-9.85281
故有	-9.85323
鼓人	-9.85359
以九	-9.85453
和聲	-9.85496
也是故	-9.85503
尺字	-9.85509
應鍾為	-9.85538
之末	-9.85958
四合	-9.86058
一微	-9.86081
祭之	-9.86083
度量衡	-9.86095
以律	-9.86182
在上	-9.86295
七孔	-9.86359
掌教	-9.86363
同也	-9.86381
不可不	-9.86435
三十二	-9.86507
物也	-9.86612
之書	-9.86637
隅	-9.86731
男	-9.8678
七釐	-9.86801
也按	-9.86836
觀之	-9.86858
敖	-9.86883
陸	-9.86888
四寸六分六釐	-9.86888
冊	-9.86892
洛書	-9.86905
東西	-9.8693
庶幾	-9.86934
給	-9.8694
以致	-9.86967
余	-9.86973
郡	-9.86981
八纎	-9.86981
謹按	-9.86987
烏	-9.8699
寒	-9.86998
肉	-9.87007
恱	-9.87023
勇	-9.87023
樓	-9.87029
舂合	-9.87032
縁	-9.87087
萬八千	-9.87196
方響	-9.87233
諸儒	-9.87251
横吹	-9.87265
籥師	-9.87313
之尺	-9.87336
而不及	-9.87386
一升	-9.87456
雖出	-9.87567
路鼓	-9.87648
為上	-9.87716
收宫	-9.87744
樂用	-9.87806
假用	-9.8782
歌鐘	-9.87899
國語曰	-9.87995
為無射	-9.88022
工字	-9.88081
九方分	-9.88133
徵聲	-9.88144
八風	-9.88185
以五聲	-9.88188
實音	-9.88203
無聲	-9.88205
南吕為	-9.88316
之謂	-9.88338
有五	-9.88359
句股	-9.8856
工四	-9.8861
雖然	-9.88663
和樂	-9.88692
應凡	-9.88791
内外	-9.88874
之術	-9.88884
八釐	-9.88957
南北	-9.88987
函	-9.89005
沈	-9.89029
僕	-9.89106
戾	-9.89123
埋	-9.89139
簫笛	-9.89147
可南正	-9.89155
之釐數	-9.89157
展	-9.89161
譯	-9.89165
采蘋	-9.89181
潤	-9.89191
削	-9.89192
續	-9.89205
雄	-9.89208
愈	-9.89213
殆	-9.89218
吕氏春秋	-9.89219
朂	-9.89229
厚薄	-9.89238
正律内徑	-9.89241
寜	-9.89244
酬	-9.89247
尺上	-9.89248
大祭祀	-9.89251
用樂	-9.89253
下生窮	-9.89256
逸	-9.89256
滄浪之水	-9.89265
厥	-9.89267
一名	-9.8927
也自	-9.89275
紂	-9.89288
促	-9.89292
二弦	-9.89311
烝	-9.89313
横笛	-9.8933
鄉飲	-9.89383
小胥	-9.89397
左旋	-9.89397
二纎	-9.89456
安得	-9.89546
九絲	-9.89621
肆夏	-9.89631
曲調	-9.89647
以為樂	-9.89698
律中	-9.89742
以至于	-9.89773
之形	-9.89774
商清	-9.89788
以前	-9.89808
而民	-9.8982
先儒謂	-9.89925
長八尺	-9.8997
不為	-9.90013
竽笙	-9.90042
小雅	-9.90129
古有	-9.90151
姑洗為羽	-9.90224
不得其	-9.90248
先王之制	-9.90298
尺一尺	-9.90348
樂書卷一百	-9.90399
姑洗角	-9.90591
最長	-9.90721
呼一	-9.90733
為九寸	-9.90745
氣之	-9.90855
為首	-9.90856
止用	-9.90878
之法也	-9.90953
以聲	-9.91057
四釐	-9.91146
文王之	-9.91148
釐四毫	-9.91322
雉	-9.91377
者盖	-9.91408
長四寸	-9.91418
以之損益則三分之	-9.91449
刀	-9.91464
巳	-9.91473
詳見	-9.91473
關雎	-9.91477
先生	-9.91481
后妃	-9.91488
朱熹	-9.9151
不害其	-9.9151
暢	-9.91525
闢	-9.91554
鄭譯	-9.91554
屈	-9.91568
蜡	-9.91577
洞	-9.91579
脈	-9.91585
三分損一	-9.91586
彌	-9.91598
池	-9.91603
福	-9.91604
怪	-9.91607
屢	-9.9161
南清	-9.91612
蒙	-9.91613
參差	-9.91628
龜兹	-9.91654
權宜	-9.91657
錦	-9.91675
珠	-9.91678
四十九	-9.9171
賔客	-9.91748
旋宮	-9.91771
大食	-9.91788
四忽	-9.91827
未免	-9.91865
名為	-9.91925
調之	-9.91965
為君	-9.91967
論語	-9.91981
者蓋	-9.91992
又言	-9.92011
而歌	-9.92106
以定	-9.92154
外徑	-9.92157
取聲	-9.92304
四面	-9.9236
爲宫	-9.92449
凡此	-9.92462
為變徴	-9.92463
應工	-9.92549
在西	-9.92657
可知也	-9.92697
之数	-9.9271
除之	-9.92716
弟	-9.92983
清羽	-9.93028
其情	-9.9307
四十五	-9.93116
為太蔟	-9.93204
正月	-9.9331
胥	-9.93358
主於	-9.93426
物之	-9.93436
他律	-9.9347
音之	-9.93473
大章	-9.93493
八九	-9.9353
其管	-9.93543
滄姑正	-9.93623
飲酒	-9.93649
三千	-9.9367
豈特	-9.93686
丑為絲法則毫有九絲可知矣下而為忽	-9.93822
毋	-9.93832
為分法則其寸有九分可知矣以午為子	-9.93833
其分有九釐可知矣以申為子之毫數而	-9.93834
廉	-9.93836
以十二律	-9.93843
之法為得其要而易	-9.93847
寡	-9.93847
數則其數中損益之際皆有餘分雖有巧	-9.93847
終不能盡是以自分	-9.93848
管至破一寸以為一萬九千餘分而後畧	-9.93848
下破分為釐破釐為毫破毫為絲破絲為	-9.93849
數亥為全律之實可知矣以寅為子之寸	-9.93849
焉然亦苦於難記而易差終不若太史公	-9.93849
寸法則其律有九寸可知矣以辰為子之	-9.9385
佳	-9.93871
貴賤	-9.93874
曰黄鍾八	-9.93882
咏	-9.93889
為全律之	-9.93895
慍	-9.93896
寶	-9.93896
忠	-9.93914
養老	-9.93916
下徴	-9.93924
䕫	-9.93931
必以十	-9.93939
衝	-9.9396
筑	-9.93967
謳	-9.93973
師曠	-9.93992
即此	-9.94011
輪	-9.94018
朝廷	-9.94021
香	-9.94023
摇	-9.94059
排	-9.94067
施之	-9.94068
無異	-9.9413
一尺八寸	-9.94164
陳氏	-9.94365
已下	-9.94445
忽皆	-9.94492
長一尺	-9.94548
至今	-9.94585
為姑洗	-9.94638
寸為尺	-9.94726
可用	-9.94745
備矣	-9.94752
其序	-9.94805
西北	-9.9489
文帝	-9.94914
名也	-9.95035
鍾鼓	-9.95063
容受	-9.9521
二調	-9.95302
一器	-9.95305
黄鍾正律	-9.95309
内周	-9.95331
林鍾為	-9.95574
者不	-9.95591
南正	-9.95638
未有不	-9.9565
靡	-9.95689
亦謂之	-9.95774
朱載堉	-9.9598
亦可謂	-9.96003
而吹之	-9.9612
用其	-9.96158
響	-9.96164
幅	-9.96201
上有	-9.96211
輿	-9.96222
千二百四十六萬	-9.96256
寸十分一者亦放此意但以正法之數合	-9.96258
數整齊簡直易記而不差也其	-9.9626
夘為毫法則其釐有九毫可知矣以戍	-9.96269
二釐	-9.96278
攷也盖其以子為一而十一三	-9.96281
以下遂不可析而直以九相	-9.96282
亥則得十七萬七千一百四十七算而子	-9.96284
其次	-9.96302
撞	-9.96303
律本	-9.96305
剛柔	-9.96311
鄭衛	-9.96314
陞	-9.96317
十一兆	-9.96317
凱	-9.96319
者惟	-9.9635
粒	-9.96352
空圍九分	-9.96362
堅	-9.96365
迹	-9.96376
寫	-9.96383
確	-9.96393
勺	-9.96404
和平	-9.9641
桓	-9.96431
歡	-9.96437
自乗得	-9.96449
九歌	-9.96458
讓	-9.96472
長三尺	-9.96514
東南	-9.96561
二釐五毫	-9.966
失傳	-9.96608
為下	-9.96622
一尺二寸	-9.96696
七十五	-9.96707
孰謂	-9.96713
宫徵	-9.96727
二十六	-9.96782
諸家	-9.96804
四調	-9.96814
黄鍾長九寸	-9.96903
計之	-9.97002
自古	-9.97062
自是	-9.97076
五寸三分	-9.97131
宮聲	-9.97144
鐘律	-9.97157
𫝊曰	-9.97197
七尺	-9.97206
為夷則	-9.97218
六八	-9.97235
特鐘	-9.97256
者以其	-9.97297
事之	-9.97317
八絲	-9.97411
有大	-9.97431
之制也	-9.97444
教國子	-9.97495
十分而	-9.97496
之徳	-9.9753
一五	-9.97557
數而未	-9.97616
禮以	-9.97707
乎曰	-9.97727
内方	-9.9788
者不過	-9.97994
乗之得	-9.98069
註云	-9.98202
只是	-9.98258
凶	-9.98346
有三	-9.9835
槩	-9.984
八四	-9.98433
所由	-9.98497
之際	-9.98498
婦	-9.98598
為實開方	-9.98628
歌曲	-9.98643
闊	-9.98673
百五十	-9.98699
范	-9.98711
患	-9.98714
欽定四庫全書	-9.9873
叶	-9.9875
寢	-9.9877
鳴球	-9.98784
未知	-9.98796
秉	-9.9882
營	-9.98821
億四千九百一十五萬三千五百三十八	-9.98823
契	-9.98825
侈	-9.98828
産	-9.98828
正宫調	-9.98833
忌	-9.98833
露	-9.98842
包	-9.98855
葬	-9.98867
限	-9.98868
宏	-9.98879
貍首	-9.98919
阿	-9.98955
尺二寸	-9.98956
躬	-9.98978
遊	-9.99002
米	-9.99019
駕	-9.99024
舂	-9.9903
也且	-9.99033
五帝	-9.99046
條理	-9.99192
正音	-9.99239
之音也	-9.99254
大胥	-9.9927
三才	-9.99299
甲子	-9.99354
放此	-9.99433
鐘之	-9.99477
子路	-9.995
南方	-9.99561
有不	-9.99569
變而	-9.99655
笙竽	-9.99665
九成	-9.99782
在所	-9.99861
五字	-9.99879
唐制	-9.99901
又名	-9.99903
周樂	-10
王公	-10.0004
聞之	-10.0022
律度	-10.0032
為四	-10.0032
樂人	-10.0036
乃以	-10.0037
千二百黍	-10.0039
用半	-10.0052
每調	-10.0054
但以	-10.0059
三奏	-10.0061
絃之	-10.0064
以示	-10.0064
正義	-10.0066
之應正	-10.0066
鐘師	-10.0072
即古	-10.0082
二二	-10.0091
非有	-10.0096
而出	-10.0101
芍	-10.0105
荀卿	-10.0106
譬	-10.0111
五纎	-10.0113
􁕴	-10.0125
版	-10.013
匠	-10.0131
逮	-10.0134
天之	-10.0134
中央	-10.0135
友	-10.0135
叙	-10.0135
焦	-10.0137
隱	-10.0137
陳氏樂書曰	-10.0139
恩	-10.014
川	-10.0141
盤	-10.0142
鄙	-10.0146
賞	-10.0146
聖人之	-10.0148
預	-10.0148
六絲	-10.015
三者	-10.016
也唐	-10.0162
黄鐘宫	-10.0165
先王作樂	-10.0168
筭法	-10.0195
以為法	-10.0195
也又曰	-10.0198
律吕之	-10.0207
不備	-10.0208
今人	-10.0209
不通	-10.0212
其失	-10.0228
姑太黄	-10.0231
小吕	-10.0233
南吕為羽	-10.0237
民間	-10.0238
四海	-10.024
凡祭祀	-10.0241
實積	-10.0242
凡字	-10.0247
自乘	-10.0251
九纎	-10.0253
相生之法	-10.0263
四弦	-10.0279
大弦	-10.0281
見之	-10.0289
誤以	-10.03
正宫	-10.031
倍聲	-10.0315
律也	-10.0317
數十	-10.0325
不宜	-10.0342
二分八釐	-10.0354
黄鍾大吕	-10.0356
五萬九千四十九	-10.0358
合而	-10.0367
蔟	-10.0378
姑洗為角	-10.0378
杜	-10.0387
􁕵	-10.0391
灰	-10.0394
平調	-10.0394
判	-10.0395
姑正	-10.0398
冝	-10.0398
紹	-10.0401
材	-10.0402
夏后氏	-10.0402
嫌	-10.0402
墨	-10.0403
罪	-10.0404
恊	-10.0404
爼	-10.0405
侑	-10.0405
滯	-10.0406
畏	-10.0407
舛	-10.0408
巾	-10.0408
俾	-10.0409
皇太子	-10.0409
三曰	-10.0414
驚	-10.0415
筭術	-10.0416
釡	-10.0418
落	-10.0418
鎛師	-10.0418
舞衣	-10.0424
孟康曰	-10.0428
周官大司樂	-10.0428
又按	-10.0428
應應	-10.0433
一纎	-10.0435
太正	-10.0438
首尾	-10.0442
愚謂	-10.0445
周頌	-10.045
黄鍾之管	-10.0452
陽數	-10.0456
各絃	-10.0459
神人	-10.0479
不當	-10.048
下徵	-10.0487
陽聲	-10.0488
此數	-10.049
倍律實積	-10.0491
代之	-10.05
可考	-10.0506
應尺	-10.0526
於中	-10.0527
韶樂	-10.0528
皇上	-10.0529
堂下之樂	-10.0534
成數	-10.0537
大雅	-10.0542
奏大	-10.0551
量之	-10.0587
非古	-10.0588
祖宗	-10.0598
羽舞	-10.0599
三分二	-10.06
不獨	-10.061
黄鍾半律	-10.0611
也葢	-10.0618
於第十	-10.0624
所作	-10.063
為寸	-10.0633
韋昭	-10.0635
見其	-10.0639
林應	-10.0639
法度	-10.0652
銑	-10.0659
四曰	-10.0661
倍律積筭	-10.0661
朴	-10.0665
四十八億三千	-10.0666
之子	-10.0666
血	-10.0667
鐵	-10.0669
札	-10.067
㫁	-10.067
板	-10.0671
姜	-10.0671
椌楬	-10.0673
節之	-10.0674
由此觀之	-10.0674
闡	-10.0675
不明	-10.0675
復古	-10.0676
十億	-10.0676
題	-10.0677
中管	-10.0677
馮	-10.0677
阼階	-10.0679
敵	-10.068
則非	-10.068
排簫	-10.0681
太史公	-10.0681
鄭司農云	-10.0682
懐	-10.0683
户	-10.0684
播鼗	-10.0685
爭	-10.0687
南吕羽	-10.0688
揖	-10.0689
再拜	-10.069
夷則無射	-10.0691
臘	-10.0694
旄人	-10.0694
十徽八分	-10.0697
用此	-10.0698
吹笙	-10.07
在東	-10.0703
清宫	-10.0703
八五	-10.0706
分為	-10.0706
荀卿曰	-10.0712
之盛	-10.0716
六三	-10.0717
四年	-10.073
東方	-10.0735
始也	-10.0738
以黄鐘	-10.0742
無非	-10.0743
禮運	-10.0746
未聞	-10.0754
風俗	-10.0754
字譜	-10.0757
加倍	-10.0757
三十五	-10.0758
土鼓	-10.076
度之	-10.0773
如左	-10.0775
而又	-10.0776
以黄鍾為	-10.0777
所以示	-10.078
不見	-10.0781
樂家	-10.0792
一定	-10.0795
百物	-10.0796
不得不	-10.0797
或用	-10.0797
三九	-10.0799
元年	-10.0801
三其	-10.0802
所奏	-10.0803
緯	-10.0805
為中	-10.081
得三	-10.081
在於	-10.0818
倍律内徑	-10.0825
豈可	-10.0832
四九	-10.0848
徽内	-10.0862
明皇	-10.0868
而已非	-10.0885
六徽	-10.0885
豐	-10.0897
黄鐘之實	-10.0904
蹈	-10.0906
蔽	-10.0909
四金	-10.091
因而	-10.0923
知之	-10.0925
人為	-10.0927
無射商	-10.0931
之時也	-10.0935
新聲	-10.0935
積筭為實以應鍾倍律積筭為法除之得	-10.0941
援	-10.0942
四尺五寸	-10.0946
六千五百六十一	-10.0948
絫	-10.0949
希	-10.095
壺	-10.0951
循環	-10.0953
訖	-10.0955
闗雎	-10.0956
羊	-10.0957
兄弟	-10.0957
司馬遷	-10.0958
樹	-10.0958
欽	-10.0958
夕	-10.0962
禾	-10.0962
秀	-10.0963
英	-10.0964
殊不知	-10.0965
􁕟	-10.0967
壯	-10.0967
之初	-10.097
同而	-10.0971
莊周	-10.0971
十三徽一分	-10.0977
知音者	-10.0982
取之	-10.0983
之異	-10.0985
晏子	-10.0988
樂譜	-10.0997
古尺	-10.1
也惟	-10.1003
六千	-10.1005
此亦	-10.101
二均	-10.1016
四纎	-10.1018
隂吕	-10.1021
黄鐘九寸	-10.1024
多少	-10.1025
亦是	-10.1037
五音之	-10.1039
聲與	-10.104
律度量衡	-10.104
三章	-10.1056
飾以	-10.106
為陽	-10.1065
存乎	-10.1066
二尺四寸	-10.107
一龠	-10.107
一弦	-10.1071
餘律	-10.1079
而不能	-10.1082
律尺	-10.1094
拘	-10.1101
律吕新書	-10.1112
發明	-10.1116
之為器	-10.1117
有大小	-10.1124
篇曰	-10.1128
三百八十	-10.113
也昔	-10.1132
少商	-10.1136
去其	-10.1141
三成	-10.1146
二徽	-10.1147
九夏	-10.1152
又何	-10.1152
與夫	-10.1162
藏之	-10.1165
以金	-10.1179
始于	-10.1179
二尺八寸	-10.1186
一絃六絃	-10.1191
右論	-10.1193
搏	-10.1197
䇿	-10.1198
而實	-10.1203
者是也	-10.1206
音節	-10.1214
倣	-10.1218
秬黍中者	-10.1222
吹口	-10.1223
距	-10.1224
咫	-10.1229
不可得而	-10.1229
聲氣之元	-10.123
几	-10.1232
面幂	-10.1232
従	-10.1235
竭	-10.1235
蟲	-10.1235
慮	-10.1235
笛正聲應	-10.1236
翕	-10.1236
纂	-10.1238
帛	-10.1239
氂	-10.1239
委	-10.124
危	-10.124
范鎮	-10.124
覺	-10.124
揖讓	-10.124
慎	-10.1241
収	-10.1243
吐	-10.1244
喻	-10.1244
監	-10.1245
班固	-10.1245
鼖鼓	-10.1249
院	-10.125
函鐘	-10.1259
漢儒	-10.126
器也	-10.126
七百七十	-10.126
天子之	-10.126
拍板	-10.1262
最濁	-10.1264
徴聲	-10.1265
與古	-10.1266
除實	-10.1266
騎	-10.1267
㽔正	-10.1267
二舞	-10.1268
通典	-10.1274
者所以	-10.1275
審度	-10.1277
旋宫之法	-10.1281
六寸二分八釐	-10.1284
也今夫	-10.1289
西域	-10.129
而行之	-10.1291
建鼔	-10.13
八六	-10.13
之地	-10.1304
北齊	-10.1304
也如	-10.1305
以生	-10.1306
或問	-10.1307
所以象	-10.1308
孟子曰	-10.131
或有	-10.1312
二分五釐	-10.1315
一四合	-10.1318
此書	-10.1326
所為	-10.1329
上生姑洗	-10.1334
笙入	-10.1335
管音	-10.1345
舞人	-10.1348
其妙	-10.1363
一八	-10.1371
賔主	-10.1392
短長	-10.1396
不拘	-10.1397
鄉飲酒	-10.1402
一節	-10.141
一奏	-10.1412
一斗	-10.1416
弊	-10.1416
為分	-10.1417
西山	-10.1421
所掌	-10.1427
天地自然	-10.1435
也古者	-10.1436
近世	-10.1446
漢魏	-10.1448
南蕤	-10.145
王道	-10.1454
有六	-10.146
而上	-10.1467
詩言	-10.1467
知樂	-10.1479
二十五弦	-10.1483
大成	-10.1487
域	-10.1493
然亦	-10.1497
不齊	-10.1498
為尺	-10.1498
其上	-10.1504
之事也	-10.1505
始羽終	-10.1518
為實以十兆乗之	-10.152
㓜	-10.1526
文獻通考	-10.153
随	-10.153
宋陳𤾉撰禮記訓義	-10.1531
晦	-10.1531
算術	-10.1532
游	-10.1534
俯	-10.1534
繇	-10.1535
聲音之	-10.1535
盾	-10.1535
吏	-10.1537
骨	-10.1538
戎	-10.1538
雪	-10.1539
仲尼	-10.154
市	-10.154
鼻	-10.154
潔	-10.154
醉	-10.1542
滛	-10.1542
關	-10.1543
榮	-10.1544
昧	-10.1545
編縣	-10.1545
二九	-10.1546
麻	-10.1548
三百篇	-10.1552
童子	-10.1554
李氏	-10.1557
竹音	-10.1559
七徽九分	-10.1563
定律	-10.1565
俗部	-10.1567
為毫	-10.157
七釐一毫	-10.1572
之意歟	-10.1574
小者謂之	-10.1574
小鐘	-10.1578
父子	-10.1582
鞉鼓	-10.1585
髙祖	-10.1585
舜之	-10.1588
房中之樂	-10.1592
如前	-10.1593
豈亦	-10.1597
人道	-10.1599
萬世	-10.1604
中者	-10.1613
相對	-10.1616
繼之以	-10.1619
相近	-10.1626
右旋	-10.1637
九忽	-10.1644
之器也	-10.1656
大合樂	-10.1657
帝王	-10.1659
武功	-10.1665
主乎	-10.1669
則曰	-10.1671
黃鍾	-10.1672
所制	-10.1675
下生林鍾	-10.1676
工尺工	-10.1682
一斤	-10.1686
和也	-10.1695
其志	-10.17
别有	-10.1712
八月	-10.172
則樂	-10.173
宮清	-10.1733
黄太	-10.1769
唐樂	-10.1779
第三弦	-10.1779
之使	-10.1782
生黄鍾	-10.179
黄鍾一均	-10.179
顔	-10.1791
小鼓	-10.1794
六字	-10.18
瀆	-10.18
謂黄鍾	-10.1807
是名	-10.1808
匹	-10.1812
八十四	-10.1813
濁南正	-10.1821
裳	-10.1826
一句	-10.1826
者豈	-10.1827
頂	-10.1827
亦必	-10.1827
扵	-10.1831
穿鑿	-10.1831
律家	-10.1831
采蘩	-10.1832
牘	-10.1832
返	-10.1832
父母	-10.1833
濫	-10.1833
庚	-10.1835
舂牘	-10.1836
軒縣	-10.1837
負	-10.1837
消	-10.1837
壎	-10.1838
欺	-10.1838
傅	-10.1839
菜	-10.184
項	-10.1843
哭	-10.1845
迎神	-10.1854
大宗伯	-10.1855
十一月	-10.1856
錞于	-10.1856
後漢志	-10.1868
升降	-10.187
春夏	-10.1875
之為物	-10.1888
門外	-10.1888
六纎	-10.1889
於外	-10.19
為先	-10.1903
萬舞	-10.1905
其大	-10.1909
毫一絲	-10.1914
大泉	-10.1919
其性	-10.1919
典同	-10.192
黄太姑	-10.1922
二奏	-10.1923
之長短	-10.1923
二絃七絃	-10.195
倍律外徑	-10.1953
纎為實以十億乗之以十億	-10.1963
備樂	-10.1966
為度	-10.1976
無定	-10.1977
四四	-10.1983
中聲也	-10.1985
之徒	-10.1985
祭於	-10.1986
七寸五分	-10.1996
西南	-10.2005
之序也	-10.2005
有四	-10.202
初學	-10.2025
相通	-10.2031
僅	-10.2037
縣鼓	-10.2044
七五	-10.206
此調	-10.206
而已此	-10.2074
鄭聲	-10.2083
一時	-10.2092
不離	-10.2093
皆在	-10.2096
勾凡	-10.2097
蠻	-10.2099
不應	-10.2103
荅	-10.2106
文王世子	-10.2106
雅頌	-10.2109
而定	-10.2112
鼖	-10.2113
為小	-10.2115
之儀	-10.2122
有二	-10.2123
滄南正	-10.2126
小舞	-10.213
丞	-10.2132
六成	-10.2133
九十三萬七千二百九十八除之得	-10.2137
呉	-10.2139
鐲	-10.214
様	-10.2142
幣	-10.2143
吳	-10.2143
不傳	-10.2143
清南正	-10.2145
競	-10.2146
吕覽	-10.2146
開元錢	-10.2146
晉前尺	-10.2146
刪	-10.215
融	-10.2151
袖	-10.2153
韎師	-10.2153
窈	-10.2154
啟	-10.2154
梁武帝	-10.2154
俯仰	-10.2155
鹿	-10.2157
者又	-10.2162
兩叚譜同	-10.2162
謡	-10.2165
繡	-10.2166
高祖	-10.2168
瞽宗	-10.2172
叶音	-10.2173
造化	-10.2182
受命	-10.2182
饗食	-10.2184
曲禮	-10.2191
於是乎	-10.2204
先祖	-10.2212
應鞞	-10.2216
者多	-10.2216
異矣	-10.222
氣應	-10.222
第十二	-10.2223
曲折	-10.2224
靈鼓	-10.2225
鼓鐘	-10.2228
工尺凡	-10.2232
之亂	-10.2232
而去	-10.2238
五月	-10.224
宋儒	-10.224
抑又	-10.2242
五寸六分	-10.2243
一勾一	-10.2243
德也	-10.2253
賢者	-10.2261
千四百	-10.2261
者如	-10.2262
樂則	-10.2268
玉律	-10.2279
禮書	-10.2281
二器	-10.2282
之風	-10.2285
是書	-10.2289
之重	-10.2293
至應鍾	-10.2296
於地	-10.2309
世俗	-10.2315
十二絃	-10.2316
亦未	-10.2316
此其	-10.2321
説者	-10.2322
歌奏	-10.2331
祭地	-10.2336
律長	-10.2348
十一律	-10.2356
可以為	-10.2363
四倍	-10.2364
豈有	-10.2372
絲二忽	-10.2372
二六	-10.2373
而可	-10.2378
定弦	-10.2385
聲有	-10.2387
禮器	-10.2393
之為樂	-10.2393
一百八	-10.2396
校之	-10.2398
而反	-10.2403
羽角	-10.2405
各一	-10.2409
樂志	-10.2416
變也	-10.2422
若此	-10.2428
九奏	-10.2429
出焉	-10.2431
成而	-10.2433
今日	-10.2436
鬼	-10.2439
為七	-10.2441
按聲	-10.2445
備也	-10.2447
十五聲	-10.2449
複	-10.2451
為三	-10.2451
有異	-10.2451
濯南正	-10.2453
寸分釐毫絲	-10.2457
有節	-10.2458
二月	-10.2458
箱	-10.246
八尺一寸	-10.246
商角徵羽	-10.2461
耦	-10.2462
決	-10.2466
救	-10.2466
釜	-10.2469
庻	-10.2471
井	-10.2471
脉	-10.2472
魚麗	-10.2472
冲氣	-10.2472
逢	-10.2473
沙	-10.2473
嗟	-10.2473
談	-10.2474
猶有	-10.2475
六律六同	-10.2475
巡	-10.2475
暇	-10.2475
寄	-10.2477
判縣	-10.2477
巨	-10.2479
啇	-10.2481
即以	-10.2481
蘭	-10.2481
藥	-10.2486
為體	-10.2496
何謂	-10.2501
不用商	-10.2506
尺一合	-10.2509
掌之	-10.2509
七九	-10.2511
圜鐘	-10.2517
之而已	-10.252
其道	-10.2525
天地之間	-10.2525
既有	-10.2533
臣嘗	-10.2537
商人	-10.2544
正變	-10.2544
舞器	-10.2547
之禮也	-10.2557
六吕	-10.2564
一黍	-10.2568
定樂	-10.2571
之廣	-10.2571
八徽半	-10.2571
用竹	-10.2574
有功	-10.2575
事而	-10.2581
者葢	-10.2584
功成	-10.2588
方法	-10.2589
十一分	-10.259
家語	-10.2594
堂上之樂	-10.2597
工一	-10.2611
以禮樂	-10.2611
春分	-10.2615
四望	-10.2617
以黄鍾	-10.2619
所執	-10.2623
一十寸	-10.2625
徳音	-10.2626
非不	-10.2632
琴有	-10.2632
武徳	-10.2636
外周	-10.266
益一	-10.266
三分去一	-10.2664
三調	-10.267
彈琴	-10.2671
分别	-10.2678
姑林南	-10.2686
長三寸	-10.2687
一千二百	-10.2689
不容	-10.269
舞師	-10.2699
遺音	-10.2707
之别	-10.2723
昔人	-10.2723
因其	-10.2731
辨之	-10.2741
説見	-10.2742
積分	-10.2747
不若	-10.2748
道也	-10.2757
矣又	-10.2761
之清聲	-10.2765
以降	-10.2766
九歸	-10.2771
之實也	-10.2773
黄鍾笛	-10.2775
胡瑗	-10.279
互相	-10.2791
間歌	-10.2792
衞	-10.2792
半律外徑	-10.2793
尅	-10.2793
荀	-10.2793
秩	-10.2794
朄	-10.2794
柯	-10.2794
篆	-10.2795
投壺	-10.2795
弇	-10.2796
箾	-10.2797
軒	-10.2797
撮	-10.2797
冥	-10.2798
搏牘鍾	-10.2799
日月星辰	-10.28
正律積筭	-10.2801
腔	-10.2801
聘	-10.2802
觀其	-10.2802
磨	-10.2802
揖遜	-10.2804
斧	-10.2804
律皆	-10.2806
軫	-10.2806
吹合字按十	-10.2806
積八百一十分	-10.2807
恒	-10.2807
慈	-10.2808
詣	-10.2808
邦國	-10.2808
六奏	-10.2808
白虎通	-10.2809
雞	-10.2809
窕	-10.2809
比例	-10.281
鶴	-10.2811
亦云	-10.2811
半律積筭	-10.2813
惠	-10.2813
愠	-10.2814
鴻	-10.2815
懿	-10.2815
羊頭山	-10.2817
初六	-10.2818
佛曲	-10.2818
其誤	-10.2819
所取	-10.2819
速	-10.282
五絃之	-10.2824
古之人	-10.2826
西京	-10.2828
有長短	-10.2829
不踰	-10.2835
至應鐘	-10.2842
貟	-10.2843
之君	-10.2845
祭統	-10.2848
一百二十	-10.2858
即今	-10.2861
三徽	-10.2862
三日	-10.2867
二十三	-10.2868
之至也	-10.2878
而言也	-10.289
之積	-10.2892
之始也	-10.29
以教	-10.2903
而作	-10.2909
六弦	-10.2911
尺工六	-10.2913
其禮	-10.2916
雲和	-10.2921
是矣	-10.2927
寸分	-10.2935
或云	-10.2943
琴之	-10.2958
功徳	-10.2959
鼔吹	-10.2959
假如	-10.2961
十六枚	-10.2967
鄉飲酒禮	-10.2967
百分	-10.2971
上言	-10.2979
儀禮大射	-10.298
樂止	-10.2981
次序	-10.2988
較之	-10.2994
之徑	-10.3003
止于	-10.3009
逺矣	-10.3009
諸器	-10.3011
也若夫	-10.3021
一日	-10.3023
彈之	-10.3024
按之	-10.3033
角清	-10.3037
大鐘	-10.3041
未盡	-10.3066
三絃宫	-10.3076
位於	-10.3078
不取	-10.3079
飯	-10.3085
圓周	-10.3085
與笙	-10.309
相生之	-10.3097
宫羽	-10.3102
八奏	-10.3102
和者	-10.3111
而易	-10.3113
􁁇	-10.3128
者何也	-10.3128
亞	-10.3131
掣	-10.3133
臆	-10.3134
僣	-10.3134
龍齦	-10.3136
如琴	-10.3136
皇祐	-10.3138
局	-10.314
覽	-10.314
摩	-10.314
為南吕	-10.314
整	-10.3143
巢	-10.3143
線	-10.3143
商羽	-10.3143
抗	-10.3144
郭璞	-10.3144
疊	-10.3145
基	-10.3145
祖孝孫	-10.3146
會	-10.3146
鵲巢	-10.3147
行也	-10.3148
耕	-10.3148
旨	-10.3148
正律實積	-10.3148
而小	-10.3148
憲	-10.3148
謝	-10.315
此章	-10.3151
混	-10.3151
在下	-10.3151
㡬	-10.3152
洽	-10.3152
其辭	-10.3152
傅㑹	-10.3152
岐	-10.3152
律厯志	-10.3153
長十寸	-10.3155
謙	-10.3156
吴	-10.3156
蘆	-10.3156
允	-10.3156
奮	-10.3157
筍虡	-10.3157
和而	-10.3157
妃	-10.3157
疾徐	-10.3158
蒼	-10.3158
笳	-10.3158
卧	-10.3159
飲食	-10.3159
以三	-10.316
汝	-10.316
㕘	-10.3161
鴈	-10.3161
竿	-10.3161
叅	-10.3161
閲	-10.3162
鵠	-10.3164
乞	-10.3165
厯代	-10.3169
其能	-10.3173
祀天神	-10.3175
太蔟長八寸	-10.3176
今尺	-10.3177
譬如	-10.318
夏禹	-10.3202
横黍度	-10.3203
長九尺	-10.3209
晉鼓	-10.3214
五變	-10.3222
倍律内周	-10.3222
之𩔖	-10.3226
從來	-10.3227
參之	-10.323
若干	-10.3232
亦當	-10.3233
開元中	-10.3233
以俟	-10.3238
行禮	-10.324
孔氏	-10.324
大司馬	-10.3242
之服	-10.3242
手足	-10.3244
可不	-10.3247
惑於	-10.325
感人	-10.3258
聲髙	-10.3261
也周禮	-10.3264
南吕宫	-10.3264
其下	-10.3267
明帝	-10.327
為和	-10.3282
上生下生	-10.3282
二忽	-10.3287
此法	-10.3288
越調	-10.3297
合乎	-10.33
同於	-10.3306
北郊	-10.331
之可也	-10.3317
絲竹	-10.3319
舞曲	-10.3319
殿庭	-10.3322
太簇八寸	-10.3341
釐九毫	-10.3342
尤為	-10.3346
淫聲	-10.3356
不過如此	-10.3357
損一	-10.3365
之為言	-10.3366
八八	-10.3367
而不言	-10.337
五位	-10.3373
所在	-10.3377
二卷	-10.338
如此而已	-10.3381
愷	-10.3383
别名	-10.3385
也後世	-10.3391
而已哉	-10.3392
九月	-10.3393
非無	-10.3408
上生太簇	-10.3408
成之	-10.3415
其他	-10.3418
七寸一分	-10.3427
林南黄	-10.3428
則得	-10.3429
以木	-10.3434
旄	-10.3435
時有	-10.3438
是時	-10.3441
宮調	-10.3461
一宫	-10.3464
而長	-10.3467
之功	-10.347
掩	-10.3486
彭	-10.3488
熙	-10.3489
其國	-10.349
二南	-10.3491
肩	-10.3493
著其	-10.3493
狄	-10.3495
的	-10.3496
割	-10.3496
往而不返	-10.3497
十二分	-10.3498
姓	-10.35
疆	-10.3501
林正	-10.3502
伶州鳩	-10.3502
冇	-10.3503
何妥	-10.3503
羞	-10.3504
檢	-10.3504
丄	-10.3504
熈	-10.3504
訂	-10.3504
八寸三分七釐六毫	-10.3504
撃	-10.3504
非謂	-10.3505
堵	-10.3505
淵	-10.3505
徑一圍三	-10.3505
以反為文	-10.3505
鬱	-10.3506
撥	-10.3506
那	-10.3506
亮	-10.3507
芒	-10.3507
后稷	-10.3507
揆	-10.3507
房中	-10.3507
風雨	-10.3509
二年	-10.3509
苑	-10.3509
壞	-10.3511
奴	-10.3511
冪	-10.3511
七十六	-10.3512
秋冬	-10.3514
凝	-10.3515
而未	-10.3515
誅	-10.3515
懷	-10.3516
徧	-10.3516
桃	-10.3516
惜	-10.3516
干戈	-10.3519
二種	-10.3521
願	-10.3523
漫	-10.3524
容千二百黍	-10.3529
上黨	-10.3534
立春	-10.3534
燕射	-10.3539
生十一律	-10.3539
十二宫	-10.3541
小樂正	-10.3541
於下	-10.3542
所以節	-10.3542
二寸五分	-10.3542
際	-10.3543
若是	-10.3544
帗舞	-10.3545
為夾鍾	-10.3545
七十八	-10.3547
法曲	-10.355
三之而得	-10.3551
成均	-10.3558
納音	-10.3558
七百二十	-10.356
兩端	-10.3563
明堂位曰	-10.357
答曰	-10.3575
一黍之廣	-10.3576
皆得	-10.3577
齊量	-10.3587
短而	-10.3587
之所由	-10.3588
祀天	-10.3589
領調	-10.359
寓於	-10.3593
右轉	-10.3598
大率	-10.3605
大琴	-10.3606
三微	-10.3607
執始	-10.3607
義也	-10.3608
黄鍾之實	-10.3609
律凖	-10.3613
徳之舞	-10.3614
也由是觀之	-10.3615
相生之聲	-10.362
變化	-10.3625
尚宫	-10.3633
豈能	-10.3636
分七釐	-10.3645
音樂	-10.3651
五奏	-10.3652
改作	-10.3657
爲角	-10.366
其長短	-10.3663
中弦	-10.3675
學樂	-10.368
尚有	-10.3685
二章	-10.3686
有常	-10.3689
尺八寸	-10.37
各得	-10.3706
論琴	-10.3743
徴清	-10.3745
大樂正	-10.3747
詩人	-10.375
非樂	-10.3754
數度	-10.3757
程	-10.3757
其始	-10.3773
二音	-10.3775
上中	-10.3781
二微	-10.3794
為隂	-10.3802
在前	-10.3803
新書	-10.3803
四十三	-10.3805
一位	-10.3806
之全數	-10.3807
樂語	-10.3807
黄鐘清	-10.3809
溺	-10.3811
副	-10.3818
十二鐘	-10.3819
為中聲	-10.382
之辭	-10.3822
夷樂	-10.3825
音調	-10.3826
宫徴	-10.3828
於後	-10.3829
一陽	-10.383
倍律通長	-10.3831
東北	-10.3833
大吕為角	-10.3836
抵	-10.3844
姑洗下生應	-10.3844
芍濁黄正	-10.3845
伶	-10.3845
第十一	-10.3845
拊芍可黄正	-10.3846
祫	-10.3847
九千	-10.3849
太尉	-10.385
不行	-10.385
中指	-10.3851
文也	-10.3853
黄南林	-10.3856
濁蕤正	-10.3861
半律通長	-10.3864
巽	-10.3867
玄	-10.387
慢角	-10.3871
誰	-10.3872
五絃角	-10.3873
正律通長	-10.3874
坊	-10.3876
築	-10.3877
壹	-10.3877
了	-10.3877
湏	-10.3877
探	-10.3877
機	-10.3878
以此觀之	-10.3878
倣此	-10.3878
覩	-10.3878
時人	-10.3879
曠	-10.3879
賓客	-10.3879
饋	-10.388
邑	-10.388
走	-10.3882
誣	-10.3883
訣	-10.3884
館	-10.3884
唐人	-10.3884
林鍾六寸	-10.3885
軍旅	-10.3885
昏	-10.3886
商尺	-10.3886
抹	-10.3887
其實一也	-10.3888
撫	-10.3888
詢	-10.389
可蕤正	-10.3892
壬	-10.3892
為仲吕	-10.3894
乘除	-10.3894
男女	-10.3895
拂	-10.3896
五聲者	-10.3897
圍九分	-10.3898
革木	-10.3899
寸一分	-10.39
五年	-10.3901
㽔賔為	-10.3906
無疑	-10.3907
周禮大司樂	-10.3908
勾股	-10.3909
故先	-10.391
泛聲	-10.3911
之性	-10.3914
南郊	-10.3914
未能	-10.3916
五絲	-10.3918
無清	-10.3918
使其	-10.3924
二十五絃	-10.3924
為始	-10.3927
第一聲	-10.3929
陵宮	-10.3931
舞大夏	-10.3934
不動	-10.3936
上生㽔賔	-10.3937
天地之氣	-10.3946
千二百	-10.3951
絃度	-10.3955
角徴羽	-10.3957
者或	-10.396
之職也	-10.3967
又謂之	-10.397
子午	-10.3972
縵樂	-10.3974
九尺	-10.3987
此皆	-10.3991
八斗	-10.3992
行列	-10.3997
其時	-10.3997
唐宋	-10.3999
以待	-10.4
始作	-10.4001
立調	-10.4005
之處	-10.401
註疏	-10.4014
十二笛	-10.4014
故名	-10.4017
九九八十一	-10.4021
之類也	-10.4022
蔡氏曰	-10.4022
黄鍾倍律	-10.4027
或作	-10.4028
不止	-10.4035
在天	-10.4039
經文	-10.4044
一寸五分	-10.4048
一勾	-10.4051
用八	-10.4058
大指	-10.4066
不曉	-10.4068
君也	-10.4076
四十六	-10.408
難知	-10.4085
者此也	-10.4088
臣民	-10.4089
西方	-10.4094
其徳	-10.4098
圓徑	-10.4101
聲以	-10.4114
七奏	-10.4116
三十九	-10.4119
一十六	-10.4121
則皆	-10.4122
一層	-10.4143
六十八	-10.4146
正宮	-10.4158
夷則歌	-10.4164
寸數	-10.4171
為十二律	-10.4174
上宫	-10.4176
之則為	-10.4179
淫樂	-10.418
得九	-10.4182
制器	-10.4187
黄鐘一均	-10.4192
律厯	-10.4201
應鼓	-10.4207
其體	-10.4208
不論	-10.4211
一百一十	-10.4213
歸之	-10.4215
於庭	-10.4221
搏牘鏞琴	-10.4225
之説也	-10.4236
得一尺	-10.4244
宇	-10.4246
洛	-10.4247
七二	-10.4247
災	-10.4249
搏牘朄	-10.425
蕭	-10.4253
下生者倍其實	-10.4254
夹鍾	-10.4254
伊耆氏	-10.4254
丑三分二	-10.4256
偃	-10.4257
鑿	-10.4258
雌	-10.4258
卜	-10.4259
違	-10.4259
歆	-10.426
提	-10.4261
庾	-10.4262
甫	-10.4262
㝠	-10.4262
亷	-10.4263
敗	-10.4264
夢	-10.4264
伏羲	-10.4265
鼜	-10.4266
𢎞	-10.4267
貨	-10.4268
藉	-10.4268
弁	-10.4268
鸞	-10.4268
筵	-10.4269
提要	-10.4269
練	-10.427
眀	-10.427
林鍾長六寸	-10.4271
憑	-10.4272
酌獻	-10.4272
未始不	-10.4274
薛	-10.4274
六代之樂	-10.4274
傍	-10.4274
子男	-10.4276
堯舜	-10.4278
不特	-10.4279
相距	-10.4279
其外	-10.4279
季氏	-10.4281
為法除之得	-10.4282
則亦	-10.4286
淑	-10.4286
無形	-10.4287
七徽六分	-10.4289
一姑角	-10.4291
五音相生	-10.4292
焉此	-10.4306
必用	-10.4307
莫能	-10.4311
一百九十	-10.4312
相乗	-10.4313
耳目	-10.4317
衆聲	-10.432
起于	-10.4325
籥章	-10.4326
律吕相生	-10.4326
終之以	-10.4327
至此	-10.4332
三等	-10.4334
類也	-10.4336
象成	-10.4338
於心	-10.4338
隂陽之聲	-10.4343
最為	-10.4345
賔射	-10.4348
擊磬	-10.4351
徵商羽角	-10.4353
和則	-10.4359
歌也	-10.4362
制禮	-10.4366
非若	-10.4379
前代	-10.4379
何哉	-10.4385
未可	-10.4388
第五弦	-10.4391
總論	-10.4394
一合工	-10.4394
秋分	-10.4397
四分四釐	-10.4411
教也	-10.4413
三絃之	-10.4432
樂而不	-10.4434
之德	-10.4444
用變宫	-10.4448
本律之	-10.4456
體也	-10.4457
器數	-10.4461
一百四十	-10.4462
以木為	-10.4472
而已矣	-10.4474
黄鍾為角	-10.4478
其象	-10.4484
中氣	-10.4491
寺	-10.4493
二百四十三為	-10.4494
之本也	-10.4496
形而	-10.4498
三纎	-10.4505
也故曰	-10.4506
於上	-10.4513
德音	-10.4514
節也	-10.4516
以詠	-10.4523
九寸為	-10.4523
在易	-10.4527
千古	-10.4536
凡尺工	-10.4547
則必	-10.455
終焉	-10.4552
復生	-10.4556
樂之器	-10.456
學舞	-10.4562
興焉	-10.4567
入於	-10.4574
人之所	-10.4577
為二	-10.4577
取於	-10.4579
人也	-10.4583
甚矣	-10.4584
長二尺	-10.4585
古文	-10.4586
太子	-10.4594
商角徴羽	-10.4607
通用	-10.4613
淮	-10.4618
而作也	-10.4618
然非	-10.462
黄鐘之管	-10.4621
梓	-10.4625
九寸之管	-10.4628
搏牘芍清黄正	-10.4631
十三弦	-10.4634
五兩	-10.4641
乳	-10.4643
半律内周	-10.4645
鄉樂	-10.4646
風俗通	-10.4649
幹	-10.465
相生之序	-10.465
軒架	-10.4651
靁	-10.4651
規矩	-10.4653
片	-10.4653
以文	-10.4653
鈴	-10.4654
正律外周	-10.4654
弓矢	-10.4655
庣	-10.4657
戲	-10.4658
叩	-10.4658
八音克諧	-10.4659
結	-10.4659
球	-10.466
去四清	-10.466
奥	-10.466
勤	-10.466
雒書	-10.4661
争	-10.4661
想	-10.4661
五寸五分五釐一毫	-10.4661
房庶	-10.4661
記言	-10.4662
鐘聲	-10.4663
到	-10.4663
迄	-10.4664
宮之宮	-10.4664
劑	-10.4664
駁	-10.4664
吹工字按十	-10.4665
誕	-10.4665
座	-10.4665
遽	-10.4666
激	-10.4667
觸	-10.4667
答拜	-10.4667
壽	-10.4669
禄	-10.4669
聲調	-10.467
黎	-10.467
廣狹	-10.4673
禍	-10.4673
蠟	-10.4674
抑揚	-10.4676
塤篪	-10.4677
律與	-10.4679
古所謂	-10.4679
念	-10.4679
鼓間	-10.4682
五百九十	-10.4683
圜鍾	-10.4687
樂律全書卷	-10.4688
鳩	-10.469
凡樂事	-10.469
朝㑹	-10.4705
潞	-10.4705
編鍾	-10.4711
者謂之	-10.4714
為㽔賔	-10.4717
新説	-10.472
舞蹈	-10.4724
初獻	-10.4725
最髙	-10.4726
此條	-10.4729
其在	-10.4736
禮畢	-10.4741
安世	-10.4742
可見矣	-10.4743
兩面	-10.4744
其譜	-10.4767
是也然	-10.4779
天地之和	-10.4782
之極	-10.4783
其可	-10.4785
元定	-10.4791
者宜	-10.4792
尺工合	-10.4794
受之	-10.48
通長	-10.4808
唐虞	-10.481
八面	-10.4814
非禮	-10.4822
太簇為商	-10.4826
至髙	-10.4828
子一分	-10.4828
列於	-10.4832
地祇	-10.4834
太常寺	-10.4837
四方之	-10.485
各以其	-10.4853
釐二毫	-10.486
不忘	-10.4865
四寸半	-10.4866
用正聲	-10.4876
不至於	-10.4878
中徽	-10.4886
三尺六寸	-10.4889
椎	-10.4889
司正	-10.4892
方尺	-10.4897
即所謂	-10.4902
宜用	-10.4904
適合	-10.4908
有事	-10.4908
下宫	-10.4913
相與	-10.4924
三人	-10.4926
銅尺	-10.4929
則用	-10.493
太極	-10.4931
又自	-10.4933
凡言	-10.4934
琴徽	-10.4941
之位也	-10.4949
猶未	-10.495
狀如	-10.495
輕清	-10.4953
為一尺	-10.4957
彊	-10.4963
未及	-10.4967
言律	-10.497
歸於	-10.4972
於理	-10.4973
近古	-10.4974
為凖	-10.4982
興舞	-10.4985
工尺上	-10.4986
姦	-10.499
闋	-10.4998
諸子	-10.4999
笙簧	-10.4999
度也	-10.5001
四表	-10.5005
大明	-10.5006
不至	-10.5008
樂雖	-10.5012
四絃商	-10.5013
從長	-10.5016
不知何	-10.502
易之	-10.5035
泥	-10.5044
郊特牲	-10.5047
工合尺	-10.5049
纓姑正	-10.5049
搏牘芍濯黄正	-10.5049
曲終	-10.5052
幼	-10.5054
足姑正	-10.506
輩	-10.5061
印	-10.5065
苑洛志樂	-10.5068
索隱曰	-10.5068
宋陳𤾉撰樂圖論	-10.5068
聰	-10.5069
看	-10.5069
酢	-10.5071
半律實積	-10.5071
謨	-10.5073
暗	-10.5073
陂	-10.5073
以下至	-10.5074
僧	-10.5074
不亦宜乎	-10.5074
隧	-10.5075
以九分之則為	-10.5075
朱干玉戚	-10.5076
添	-10.5076
丙	-10.5077
跪	-10.5077
殘	-10.5078
栗	-10.5078
趣	-10.5079
貞	-10.5079
麟	-10.508
七寸四分三釐七毫三絲	-10.508
婆羅門	-10.5081
洋洋	-10.5082
吉凶	-10.5082
秬	-10.5082
範	-10.5082
葭	-10.5082
舜典	-10.5082
大饗之禮	-10.5084
投	-10.5085
佩	-10.5085
樞	-10.5085
乗除	-10.5085
盛徳	-10.5086
躍	-10.5086
序之	-10.5086
説文曰	-10.5087
萌	-10.5087
攻	-10.5087
百姓	-10.5087
本諸此	-10.5088
旋相為宫	-10.509
太南姑應㽔大夷夾無仲黄林	-10.509
輅	-10.5092
無窮	-10.5093
醫	-10.5095
毬	-10.5095
附㑹	-10.5096
爰	-10.5098
開皇	-10.5101
南陔	-10.5102
簫韶	-10.5103
漢武帝	-10.5105
相符	-10.5106
深衣	-10.5107
不生	-10.5108
千載	-10.5115
相連	-10.5117
二尺二寸	-10.5117
食指	-10.5119
因以	-10.5122
協律	-10.5132
蔡氏曰按	-10.5132
又作	-10.5132
不息	-10.5133
七徽三分	-10.5133
夾鍾宫	-10.5134
宫而	-10.5135
之類是也	-10.5136
四八八	-10.5136
明之	-10.5137
晉志	-10.5138
六年	-10.5139
取法	-10.5139
四月	-10.5145
始有	-10.5149
風雅	-10.5154
可南和	-10.5162
下至	-10.5163
律和聲	-10.517
告于	-10.5171
異者	-10.5175
太史	-10.5179
周南召南	-10.5185
者異矣	-10.5186
鄭云	-10.5186
二尺七寸	-10.5188
固已	-10.5189
笛色	-10.5195
制作之	-10.5202
相間	-10.521
十六管	-10.5216
再作	-10.5219
立名	-10.522
五采	-10.5221
如何	-10.5222
一定之	-10.5223
四角	-10.5224
無所用	-10.5226
其君	-10.5237
位在	-10.5251
本末	-10.5252
徽分	-10.5255
上生大吕	-10.526
言也	-10.5264
管色	-10.5268
作樂以	-10.5269
大吕宫	-10.5269
三重	-10.5272
其於	-10.5272
七寸四分	-10.5281
寸法	-10.5295
地中	-10.5306
皆是	-10.5307
徵商	-10.5309
矣然則	-10.5309
百寸	-10.5312
八寸一分	-10.5316
十二調	-10.5316
三箇	-10.5327
作之	-10.5339
有瞽	-10.534
太簇商	-10.5341
歸宫	-10.5343
而能	-10.5353
好古	-10.5357
一條	-10.5358
自漢	-10.5359
廣大	-10.5364
置黄鍾	-10.5365
入門	-10.5369
不精	-10.5376
工人	-10.5378
一面	-10.5389
第二聲	-10.5392
黄鐘之律	-10.5401
短者	-10.5406
如黄鐘	-10.5409
不同而	-10.5414
有小	-10.5423
下生林鐘	-10.543
林鐘為宫	-10.5431
十三絃	-10.5432
暑	-10.5436
用二變	-10.5447
帗	-10.5451
參分	-10.5451
左氏	-10.5455
所定	-10.5461
五聲相生	-10.5463
舞大武	-10.5466
女樂	-10.5467
而欲	-10.5468
九者	-10.547
今曲尺	-10.5483
先王以	-10.5488
頁	-10.5494
六十七	-10.5495
爻	-10.5496
所出	-10.5499
漢書律厯志	-10.55
還相為宫	-10.5501
應正	-10.5502
實比晉前尺一尺	-10.5505
晚	-10.5506
􁄅	-10.5506
非所以為	-10.5506
鈔	-10.5507
東序	-10.5508
往往	-10.5508
奏昭夏	-10.5508
宻率	-10.551
塗	-10.5511
枝	-10.5512
樸	-10.5512
兊	-10.5512
髪	-10.5512
怠	-10.5513
靈臺	-10.5513
凌	-10.5513
昬	-10.5513
恕	-10.5513
悖	-10.5514
括	-10.5514
増損	-10.5514
絳	-10.5516
和峴	-10.5516
徃	-10.5517
以節之	-10.5517
庫	-10.5517
朕	-10.5517
非古制也	-10.5518
綸	-10.5518
踈	-10.5518
頓	-10.5518
癸	-10.5519
糠	-10.5519
托	-10.552
牢	-10.552
伸	-10.5521
此之謂歟	-10.5521
祼	-10.5521
盧	-10.5522
數五十四	-10.5522
不中	-10.5523
旗	-10.5523
鱗	-10.5524
置一	-10.5524
墜	-10.5526
設柱	-10.5526
季夏	-10.5527
勒	-10.5527
夫婦	-10.5529
御製	-10.5529
語曰	-10.5529
天竺	-10.5529
袴	-10.5531
徑三分四釐六毫	-10.5534
也乃	-10.5535
浸	-10.5538
弟子	-10.5539
異名	-10.5539
律法	-10.5539
崑崙	-10.5543
方澤	-10.5545
欽定四庫全書樂律全書卷	-10.5546
盡美	-10.5546
囘	-10.5547
之患	-10.5547
九十黍	-10.5547
后土	-10.5549
不可用	-10.5551
不待	-10.5553
立秋	-10.5555
天地之中	-10.556
禮樂之情	-10.5561
寒暑	-10.5562
土音	-10.5572
國家	-10.5572
矣而	-10.5576
商羽角	-10.5577
作為	-10.5578
猶存	-10.5582
國朝	-10.5583
豈不為	-10.5593
相求	-10.5594
夫子	-10.5597
改正	-10.5606
繼以	-10.5609
不與焉	-10.5614
六曰	-10.562
所容	-10.5621
樂經	-10.5621
信矣	-10.5625
候之	-10.563
於古	-10.5639
五十一	-10.5642
無射為宫	-10.5645
二分四釐	-10.5646
未甞不	-10.5655
自唐	-10.5656
比之	-10.5656
不解	-10.5663
分二釐	-10.5667
饗禮	-10.567
而已盖	-10.568
舊制	-10.5681
一端	-10.5681
人舞	-10.5687
律同	-10.5696
呼二	-10.5708
免	-10.5715
二分半	-10.5715
皆與	-10.5726
考定	-10.5726
古人所謂	-10.5732
並奏	-10.5734
新樂	-10.5735
音立體	-10.5745
一篇	-10.5745
性情	-10.5746
非所以	-10.5746
相類	-10.5751
事親	-10.5751
中節	-10.5752
終于	-10.5756
一家	-10.5756
樂之情	-10.5762
則仍	-10.5763
迭相	-10.5773
中吕宫	-10.5783
五孔	-10.5785
八十八	-10.5788
書言	-10.5798
難矣	-10.5802
六面	-10.5803
宋史	-10.5808
雅音	-10.5808
譏之	-10.581
萬九千六百八十三	-10.5823
得二十七	-10.5828
與天地	-10.583
亦猶	-10.5834
皆屬	-10.5834
太簇為徴	-10.5837
俟	-10.5838
而弗	-10.5838
其氣	-10.5845
不拜	-10.5846
詩序曰	-10.5855
生數	-10.5868
合勾	-10.5875
上古	-10.5876
之美	-10.5884
億四千	-10.5887
大夫士	-10.5909
其聲清	-10.5912
一代	-10.5916
尺一工	-10.5916
沿	-10.5918
清濁髙下	-10.5919
行於	-10.5919
為法除之	-10.5921
而為之	-10.5924
尺林商	-10.5924
樂之本	-10.5934
長六尺	-10.594
鼛	-10.5941
周禮曰	-10.5945
牡	-10.5946
備數	-10.5947
儉	-10.5957
十九簧	-10.5957
五代	-10.5957
摘	-10.5958
辟廱	-10.5958
奪倫	-10.5958
参	-10.5959
脚	-10.5959
人主	-10.5959
者但	-10.5959
與民同	-10.5959
猛	-10.5959
西山蔡氏曰	-10.596
孟春	-10.596
遷就	-10.596
閑	-10.5961
哲	-10.5961
千萬	-10.5962
矯	-10.5962
打	-10.5962
六律六吕	-10.5962
筆談	-10.5963
鉞	-10.5963
李文察	-10.5964
銀	-10.5964
妨	-10.5965
六寸五分八釐三毫四絲六忽	-10.5965
宋人	-10.5965
矛	-10.5966
視之	-10.5966
諭	-10.5966
覈	-10.5966
敏	-10.5966
紛	-10.5967
大晟樂	-10.5967
杜子春	-10.5967
杖	-10.5967
萬寳常	-10.5968
堂上堂下堂上堂下	-10.5968
羲	-10.5968
聲相應	-10.5968
龡	-10.5969
莖	-10.597
啞	-10.597
鳬氏	-10.5971
貨泉	-10.5971
迂	-10.5971
紙	-10.5972
后夔	-10.5972
正半	-10.5972
懼	-10.5973
居一焉	-10.5974
倒	-10.5975
兮可以濯我	-10.5976
先王之樂	-10.5977
廷	-10.5978
胡笳	-10.5978
綴兆	-10.598
塤箎	-10.598
由庚	-10.598
斆	-10.5984
玉振	-10.5985
王之	-10.5991
一大調也	-10.5991
立冬	-10.5992
臣愚	-10.5993
候氣之法	-10.5997
亦名	-10.5997
揔	-10.5999
玉斗	-10.6003
證之	-10.6004
也記曰	-10.6005
此與	-10.601
動而	-10.6016
精微	-10.6032
風雅頌	-10.6036
國風	-10.604
竊謂	-10.6041
為林鐘	-10.6043
詩序	-10.6045
國公	-10.6046
髙低	-10.6052
中庸	-10.6053
至隋	-10.6056
地氣	-10.6058
而不亂	-10.6063
之正也	-10.6063
雷鼓	-10.6065
則自	-10.6066
自乗	-10.6067
而復	-10.6067
萬五千	-10.6068
大喪	-10.6068
立夏	-10.6069
不載	-10.607
地官	-10.6071
周旋	-10.6076
既得	-10.608
孝子	-10.6088
二佾	-10.6089
天子諸侯	-10.6092
凡工凡	-10.6099
一為一分	-10.6104
無凡	-10.6104
習之	-10.6109
十萬	-10.611
而後成	-10.6116
此之謂	-10.613
其謬	-10.6138
去之	-10.6146
生于	-10.6149
之弊	-10.6152
姑洗七寸一分	-10.6165
五聲八音	-10.6175
不作	-10.6181
一釐二毫	-10.6182
器而	-10.6191
言之謂之	-10.6198
本無	-10.6199
歎之	-10.62
豈知	-10.6206
倍之為	-10.6208
與今	-10.6212
先儒以為	-10.6214
各有所	-10.6219
音聲	-10.6224
周南	-10.6225
去聲	-10.6231
至是	-10.6231
必待	-10.6231
為主故	-10.6233
為第一	-10.624
元聲	-10.6241
不逺	-10.6245
世子	-10.6249
六變律	-10.6253
見矣	-10.6255
九十八	-10.626
鼔瑟	-10.6263
本原	-10.6266
仲黄林太南姑應㽔大夷夾無	-10.6276
一十八	-10.6286
樂類	-10.6296
之所以為	-10.6316
論曰	-10.6317
當有	-10.6318
有圖	-10.6321
先儒以	-10.6321
應鍾為羽	-10.6324
長笛	-10.6326
變全	-10.6328
不諧	-10.633
緊五	-10.633
五聲也	-10.6333
亦不可	-10.6333
不協	-10.6337
永言	-10.6351
善吹	-10.6353
俗樂之	-10.6384
世儒	-10.6398
㲈	-10.6399
三分五釐	-10.6405
吹律	-10.6406
文始	-10.6415
為實先以	-10.6416
於人	-10.6421
鑽	-10.6422
勾工凡	-10.6423
聲清	-10.6425
二寸八分	-10.6427
周公之	-10.6428
六同	-10.6429
在人	-10.643
角羽	-10.6431
祖冲之	-10.6432
肄	-10.6432
杜夔	-10.6433
陳暘	-10.6433
寅九分八	-10.6434
范蜀公	-10.6435
託	-10.6435
頸	-10.6435
祚	-10.6436
沒	-10.6436
兩君相見	-10.6437
為實上生者四因三歸得	-10.6437
齋	-10.6437
泮	-10.6437
黄鐘生林鐘	-10.6437
别法以一百乘之七十五除之亦得	-10.6437
弹	-10.6438
胡安定	-10.6438
贏	-10.6439
以寸法一萬九千六百八十三除之得	-10.6439
穹	-10.6439
並同	-10.644
旋蟲	-10.644
戛擊	-10.6441
胷	-10.6441
縦	-10.6442
脱	-10.6442
壊	-10.6443
法也九其	-10.6443
點	-10.6444
尹	-10.6445
劣	-10.6445
以銅為之	-10.6445
宋史樂志	-10.6446
完	-10.6446
為無射置無射	-10.6446
奪	-10.6446
聲韻	-10.6447
可以濯我	-10.6447
擊石拊石	-10.6447
翻	-10.6447
諫	-10.6448
為姑洗置姑洗	-10.6448
詩言志歌永言聲依永律和聲	-10.6448
氣至則	-10.6449
韎	-10.645
渠	-10.6452
宫中	-10.6453
江左	-10.6454
每律	-10.6454
公羊	-10.6455
旬有五日指	-10.6455
馭	-10.6456
慶善	-10.6458
緩急	-10.646
歌永言	-10.6464
婆	-10.6464
祭地示	-10.6467
䨇	-10.6467
戒之	-10.6467
星辰	-10.6468
近於	-10.6468
十二徽二分	-10.6472
為哉	-10.6472
常御	-10.6472
絲五忽	-10.6473
睿	-10.6475
乃作	-10.6477
燕饗	-10.6479
五曰	-10.6482
仲儒	-10.6485
中和之	-10.6494
食舉	-10.6495
子貢	-10.6496
婦人	-10.65
簡易	-10.6502
晉侯	-10.6504
截竹	-10.6504
十二奏	-10.6509
頌瑟	-10.6511
一寸二分	-10.6513
隋書	-10.6513
不可廢	-10.6516
樂也者	-10.6517
軍事	-10.6518
勾工勾	-10.6522
歌詠	-10.6522
盡善	-10.6526
也或謂	-10.6532
三字者	-10.6533
所作也	-10.6534
舊譜	-10.6538
十三簧	-10.6539
子孫	-10.6545
六百二十	-10.6545
之過也	-10.6546
解見	-10.6547
其曲	-10.655
公卿	-10.6552
東漢	-10.6556
上生者	-10.6557
異於	-10.6557
一百二十八	-10.6559
未詳	-10.6563
其功	-10.6566
金聲	-10.6568
饗燕	-10.657
隔七	-10.6573
下生夷則	-10.6579
無一	-10.6584
之世	-10.6584
林蕤	-10.6587
羌	-10.6587
工師	-10.6588
得之矣	-10.6588
必須	-10.6589
圓其外	-10.6591
六十聲	-10.6603
祭義	-10.6603
成人	-10.6604
本宫	-10.6605
一尺四寸	-10.6606
大旅	-10.6609
漢後	-10.6609
舞工	-10.661
鍾師	-10.661
三分八釐	-10.6611
破陣樂	-10.6612
四分二釐	-10.6629
當為	-10.663
前人	-10.6633
左執	-10.6641
亦不能	-10.6646
漢制	-10.6648
考擊	-10.6653
固有	-10.6675
臣等	-10.6684
其書	-10.6687
為義	-10.6692
特言	-10.6693
而進	-10.6704
者特	-10.6708
黄太黄	-10.6711
中絃	-10.6716
林仲夾	-10.6717
一二三	-10.6721
前漢志	-10.6725
徑一尺	-10.6725
萬民	-10.673
樂成	-10.6733
徴調	-10.6734
並無	-10.6744
成物	-10.6745
以鐘鼓	-10.6752
有清聲	-10.6753
聲之髙下	-10.6753
禮者	-10.6754
尺林	-10.6755
也謂	-10.6762
衆音	-10.6769
八孔	-10.677
詳矣	-10.6783
存其	-10.6804
干舞	-10.6809
不成聲	-10.682
之說也	-10.6822
何其	-10.6824
八除	-10.6836
堂上之樂也	-10.6841
四章	-10.6849
具焉	-10.6859
為異	-10.6861
無仲黄林太南	-10.6866
尺工凡六	-10.6868
九百六十	-10.6881
鼓也	-10.6885
説也	-10.6889
吹四字按十	-10.689
黄弦	-10.69
雖異	-10.6903
三十八	-10.6912
五成	-10.6917
牽	-10.6922
禘祫	-10.6923
裨	-10.6923
􁄇	-10.6926
紋	-10.6927
備而	-10.6929
它	-10.6931
瑞	-10.6932
凉	-10.6932
莫重於	-10.6933
濯應正	-10.6933
冩	-10.6934
凢	-10.6934
住	-10.6935
牧	-10.6935
一六八九	-10.6935
葦	-10.6935
隊	-10.6935
曷	-10.6935
太樂令	-10.6936
濁應正	-10.6936
嚮	-10.6937
發揚蹈厲	-10.6937
伐檀	-10.6938
沂	-10.6938
俎	-10.6939
滄瑟	-10.6939
灰飛	-10.6939
遏	-10.694
荀勗	-10.694
笙磬同音	-10.694
奠觶	-10.6941
拱	-10.6941
縱横	-10.6942
劉濓	-10.6943
摶	-10.6943
滋	-10.6943
髮	-10.6944
苖	-10.6944
笙鏞以間	-10.6944
葦籥	-10.6944
靈星	-10.6944
撝謙	-10.6944
舟	-10.6945
占	-10.6945
茲	-10.6945
悠	-10.6945
為南吕置南吕	-10.6945
淆	-10.6946
魏文侯	-10.6946
其來尚矣	-10.6946
攝	-10.6947
皮弁	-10.6948
臯陶	-10.6948
蠶	-10.6948
為仲吕置仲吕	-10.6948
孫士毅	-10.6949
諡	-10.6949
穿	-10.695
欽定四庫全書經部九	-10.695
飛灰	-10.695
本音	-10.695
三分損益上下相生	-10.6951
臧	-10.6951
虧	-10.6951
中和之紀	-10.6951
犧	-10.6952
漏	-10.6952
蠡	-10.6952
可應正	-10.6952
空圍内	-10.6953
商生羽	-10.6953
概	-10.6954
仗	-10.6954
末節	-10.6955
扣	-10.6956
兮之水	-10.6956
驟	-10.6957
肺	-10.6957
鞠	-10.6957
稼	-10.6957
寐	-10.6958
檀弓	-10.6958
其義一也	-10.6959
个	-10.6959
卑者	-10.696
清應正	-10.6961
清明	-10.6961
緑	-10.6962
之野	-10.6963
銅鈸	-10.6965
小弦	-10.6965
奏騶虞	-10.6967
假令	-10.6968
陛下	-10.697
唐明皇	-10.6971
易曉	-10.6971
古器	-10.6971
祀四望	-10.6972
大旱	-10.6975
各一徽	-10.6982
林鐘特磬	-10.6982
琮	-10.6985
周鬴	-10.6985
夷則長五寸	-10.6986
六尺四寸	-10.6986
逺近	-10.699
不可勝	-10.6993
向内	-10.6995
然後可以	-10.7006
五嶽	-10.7008
乙字	-10.701
為宫聲	-10.7013
論律	-10.7014
云耳	-10.7017
而居	-10.702
石磬	-10.7025
之均	-10.7034
復用	-10.7034
為八十一	-10.7038
下士	-10.7039
吉禮	-10.7045
黄鍾之宮	-10.7049
南蠻	-10.7056
成功	-10.7061
夫豈	-10.7062
第四弦	-10.7068
四者	-10.7071
於堂下	-10.7079
能知	-10.7081
大射禮	-10.7091
工勾凡	-10.7093
其位在	-10.7095
最清	-10.7095
宫生徴	-10.7097
本在	-10.7102
以祀	-10.7104
愷樂	-10.7104
責	-10.7105
十六分	-10.7111
兼用	-10.7112
而不知其	-10.7115
聖王	-10.7125
損益相生	-10.713
日食	-10.713
九功	-10.7133
大鼔	-10.7133
疑其	-10.7143
同用	-10.7151
未見	-10.7157
元氣	-10.7165
六字者	-10.7165
管長九寸	-10.7166
不免	-10.7167
一分則	-10.7169
以姑洗	-10.717
擊鼔	-10.7176
乘之得	-10.7176
五千	-10.7193
只用	-10.7199
然邪	-10.72
制律	-10.7201
樂架	-10.7202
號為	-10.7205
斜黍	-10.7215
更有	-10.7219
得一百	-10.7219
本數	-10.7221
一百五十	-10.7225
欲求	-10.7226
聲必	-10.7228
大吕笛	-10.723
已見	-10.7231
一百六十	-10.7233
分之一	-10.7236
之律而	-10.7241
二百四十	-10.7245
時也	-10.7247
手執	-10.7254
屬陽	-10.7256
同一	-10.7265
馬上	-10.727
其候	-10.7271
近之	-10.7272
雖多	-10.7275
為寸法	-10.7279
先代	-10.7281
必自	-10.7285
且如	-10.7297
倍數	-10.7301
散樂	-10.7306
正律外徑	-10.7313
圓積	-10.7313
千里	-10.7322
所當	-10.7344
明王	-10.7348
二家	-10.7358
仍是	-10.7361
故知	-10.7361
孫子	-10.7371
亦可以	-10.7376
也書曰	-10.7385
被之	-10.74
三篇	-10.7402
旱	-10.7412
所起	-10.7412
濩	-10.7416
六章	-10.742
泛	-10.7423
陔	-10.7435
大功	-10.7442
司徒	-10.7443
相得	-10.7445
太髙	-10.7449
陵犯	-10.7451
杜預	-10.7451
☰	-10.7453
礙	-10.7454
樣	-10.7456
黨	-10.7456
百年	-10.7457
姑洗搏牘鍾	-10.7457
决	-10.7457
鉤	-10.7458
能使	-10.7458
賁	-10.7459
好惡	-10.7459
瞻	-10.746
不亦可乎	-10.746
霜	-10.746
張文收	-10.746
藴	-10.7461
退一位	-10.7461
勅	-10.7461
陳𤾉	-10.7461
玩	-10.7461
罰	-10.7462
宋陳𤾉撰	-10.7462
以樂侑食	-10.7462
太南姑應㽔大夷夾無仲	-10.7463
八音克諧無相奪倫	-10.7463
掲	-10.7463
八寸十分一	-10.7464
頴	-10.7464
父子君臣	-10.7465
謀	-10.7465
徙	-10.7465
樂同上但用	-10.7466
不云乎	-10.7466
戞擊	-10.7466
褒	-10.7466
營造尺	-10.7466
乏	-10.7467
嗚呼	-10.7468
噫	-10.7468
師古曰	-10.7468
燎	-10.7468
嶰谷	-10.7468
圉	-10.7468
大同小異	-10.7469
牛弘	-10.7469
典樂	-10.7469
簫韶九成	-10.7469
渉	-10.747
秘	-10.747
屋	-10.7471
軌	-10.7471
驁	-10.7471
㨗	-10.7471
朝覲	-10.7472
歛	-10.7472
雅頌之聲	-10.7472
彩	-10.7472
為林鍾置林鍾	-10.7472
依永	-10.7473
豳籥	-10.7473
太常卿	-10.7473
楊傑	-10.7473
湛	-10.7473
討	-10.7473
裏	-10.7473
假借	-10.7473
胄子	-10.7473
學士大夫	-10.7473
試以	-10.7474
五言	-10.7474
律吕正義	-10.7474
送神	-10.7474
豎笛	-10.7474
舎	-10.7475
藻	-10.7475
為實開平方法除之得	-10.7476
豪	-10.7476
鏗鏘	-10.7476
史記律書	-10.7477
豕	-10.7478
季秋	-10.7479
卒爵	-10.748
模	-10.7481
膚	-10.7481
辱	-10.7481
銑間	-10.7482
翹	-10.7483
相當	-10.7483
笛色譜	-10.7483
一二三四五	-10.7483
雅頌之音	-10.7484
龍池	-10.7485
為變宮	-10.7487
乾坤	-10.7487
天地之情	-10.7488
裘	-10.7491
沈約	-10.7492
緋	-10.7493
共計	-10.7494
五聲之數	-10.7497
林仲太黄	-10.7499
派	-10.7501
大㲈	-10.7503
為宮始羽終	-10.7508
遣使	-10.751
七百二十九為	-10.7513
合之得	-10.7514
拊鞉	-10.7514
相見	-10.7515
亦謂	-10.7516
亦一時	-10.7517
兩旁	-10.7517
相接	-10.7518
三分損益之法	-10.7519
不舉樂	-10.7519
等操	-10.7522
祖考	-10.7528
橦	-10.7528
旂	-10.7528
大司徒	-10.7529
十二律吕	-10.7531
南吕特磬	-10.7531
十二弦	-10.7533
仁宗	-10.7533
太簇鎛鐘	-10.7534
荅曰	-10.7535
二十八調	-10.7538
於堂上	-10.754
以所	-10.7542
若依	-10.7543
以玉為	-10.7543
爲羽	-10.7544
一丈	-10.7546
先於	-10.7547
乃是	-10.755
而自	-10.755
夾仲	-10.7552
吹籥	-10.7552
而尚	-10.7555
宋朝	-10.7555
上生蕤賔	-10.7558
記所謂	-10.7562
更造	-10.7562
見後	-10.7566
定數	-10.7566
水火	-10.7568
得十七萬七千一百四十七	-10.7569
經傳	-10.7574
夷則之角	-10.7584
十有二律	-10.7584
以律吕	-10.7585
之數則	-10.7588
可疑	-10.7596
甚明	-10.7599
角徵羽	-10.76
宮羽	-10.7601
書傳	-10.7614
淮南子曰	-10.7622
鼗鼓	-10.7624
北曲	-10.7626
分明	-10.7638
以六吕	-10.7641
之節也	-10.7669
一事	-10.7674
矣又曰	-10.7678
平聲	-10.768
置姑洗	-10.7686
鐵尺	-10.7691
之大者也	-10.7704
大學	-10.7709
相較	-10.771
十二均	-10.7711
韶舞	-10.7716
於南郊	-10.772
各不同	-10.7723
毎律	-10.7725
首章	-10.7729
謬矣	-10.7733
近乎	-10.7734
分之則為	-10.7736
入學	-10.774
林南應	-10.7745
六十三	-10.7747
琴操	-10.7752
以節樂	-10.7752
百王	-10.7763
不止於	-10.7763
無射羽	-10.777
復位	-10.7771
兩兩	-10.7775
而不得	-10.7786
不差	-10.7786
太蔟夾鍾	-10.779
姑洗宫	-10.7791
黄鍾商	-10.781
南吕為角	-10.7818
倍生	-10.7819
最大	-10.7823
一歩	-10.7824
六代	-10.7827
禮樂之道	-10.7859
者如此	-10.7866
責之	-10.7869
有七聲	-10.7875
乎然	-10.7886
在地	-10.7892
至唐	-10.7896
又加	-10.7899
磬聲	-10.7902
不從	-10.7904
得二百	-10.7917
新律	-10.7919
初九	-10.792
常在	-10.792
禮之所	-10.7931
南吕倍律	-10.7932
原有	-10.7936
鳯凰	-10.7937
升歌清廟	-10.7941
也若以	-10.7953
矣故曰	-10.7953
踰	-10.7954
定尺	-10.7957
二十九	-10.7959
所見	-10.7965
而歌之	-10.7968
四十四	-10.7974
孟康	-10.7981
置應鍾	-10.7984
讀者	-10.7985
萬七千	-10.7991
體用	-10.7991
即今之	-10.7993
隂數	-10.8
二丈	-10.8001
丨	-10.8005
欽定四庫全書苑洛志樂卷	-10.8005
八寸四分	-10.8007
奢	-10.8007
一清一濁	-10.8008
大事	-10.8009
九分寸之一	-10.801
而不失	-10.801
道調	-10.8012
耳非	-10.8012
人身	-10.8013
阮	-10.8013
十分三釐八毫	-10.8014
阮咸	-10.8015
釁	-10.8015
㽔大夷夾無仲黄	-10.8015
慨	-10.8015
邉	-10.8016
阮逸	-10.8017
沉	-10.8019
尚未	-10.8019
左手執籥右手秉翟	-10.8019
膠	-10.8021
鑒	-10.8021
需	-10.8021
大吕夾鐘仲吕	-10.8021
崩	-10.8021
㑹稽	-10.8023
荷	-10.8023
餘數在半分已下棄之不用	-10.8023
檀	-10.8023
以漸而	-10.8023
飬	-10.8024
板眼	-10.8024
認	-10.8025
刌	-10.8025
蔡子曰	-10.8025
乾隆四十六年	-10.8025
徑三分圍九分	-10.8025
茂	-10.8025
早	-10.8025
積筭為實以仲吕倍律積筭為法除之得	-10.8025
爾雅釋樂	-10.8026
爽	-10.8026
朔鼙	-10.8026
紐	-10.8026
林鐘生太簇	-10.8026
一徽定之實音為黄鍾散聲即夷則	-10.8027
文武之舞	-10.8027
壁	-10.8027
慕	-10.8027
崇牙	-10.8027
南有嘉魚	-10.8027
鐡	-10.8027
生鍾分	-10.8027
享人鬼	-10.8027
股博	-10.8028
靡靡	-10.8028
樂而不淫	-10.8028
煬帝	-10.8028
冕而舞大武	-10.8028
六斗四升	-10.8029
隙	-10.8029
皇言定聲	-10.8029
掘	-10.8029
為夷則置夷則	-10.8029
臆説	-10.8029
倍之為實以仲吕倍律積筭為法除之得	-10.803
滌	-10.803
劇	-10.803
濁倍	-10.803
臝	-10.8031
三章章四句	-10.8031
琴瑟以詠	-10.8031
遜	-10.8031
畝	-10.8032
殺伐	-10.8032
増減	-10.8032
把	-10.8033
亡國之音	-10.8033
周道	-10.8033
戸	-10.8033
其名曰	-10.8033
淪	-10.8034
毁	-10.8034
吻	-10.8035
頁前	-10.8035
籈	-10.8035
敷	-10.8037
麥	-10.8037
沈氏	-10.8037
婁	-10.8038
聖諭	-10.8038
崇丘	-10.804
態	-10.804
十枚	-10.804
彦	-10.8041
淨	-10.8042
其辰合	-10.8043
俗呼濁	-10.8043
禴	-10.8044
屬隂	-10.8045
萃	-10.8047
十三徽外	-10.8048
大石調	-10.8049
崇德	-10.8049
衆庶	-10.805
丸	-10.805
聲依永	-10.805
呦	-10.8052
宫生徵	-10.8052
聲音之道	-10.8055
踏	-10.8055
應鐘特磬	-10.8059
季通	-10.806
西戎	-10.8062
之意邪	-10.8065
般涉調	-10.8065
姑洗起宫	-10.8066
今世	-10.8068
真宗	-10.8071
四牡	-10.8074
已久	-10.8075
夷狄	-10.8075
世祖	-10.8077
告備	-10.8078
成文	-10.8079
泥於	-10.808
以立體	-10.8081
魏晉	-10.8082
王子	-10.8097
不可易	-10.81
起舞	-10.8101
本非	-10.8106
頭管	-10.812
置林鍾	-10.8126
可通	-10.8127
人事	-10.8133
音也由	-10.8134
是五聲	-10.8134
必欲	-10.814
詳考	-10.8141
其人	-10.8145
何嘗	-10.8155
五榖	-10.8158
三之一	-10.817
用倍數	-10.8171
得聲	-10.8173
無益	-10.8174
形制	-10.8178
常用	-10.8181
上商	-10.8185
萬一千	-10.8192
子張	-10.8193
二七二	-10.8209
序曰	-10.8231
遂謂	-10.8232
置夷則	-10.8237
工凡尺	-10.8239
算數	-10.8241
宫之羽	-10.8242
雅琴	-10.8253
夏商	-10.8254
匏音	-10.8258
本是	-10.826
唐志	-10.8261
度尺	-10.8262
室中	-10.8263
黄鐘之數	-10.8264
不廢	-10.8272
分毎分	-10.8276
應南蕤	-10.828
人人	-10.829
道焉	-10.8291
羽夾	-10.8296
三分寸之一	-10.8297
其色	-10.8305
吹笛	-10.8312
大射儀	-10.8328
宋尺	-10.8339
一鈞	-10.834
所感	-10.8341
外方	-10.8354
今樂	-10.8368
或謂之	-10.8368
大約	-10.8371
林鐘六寸	-10.8374
三分益一上生	-10.8376
真數	-10.8393
亦隨	-10.8403
不類	-10.8411
仲無夾夷大㽔應姑南太林	-10.8433
十四纎	-10.8444
陔夏	-10.8471
二寸七分	-10.8471
一簴	-10.8473
尺短	-10.8486
漢尺	-10.8494
三尺二寸	-10.851
用清角	-10.852
鄉射禮	-10.852
中聲所	-10.8525
二孔	-10.8528
九分寸	-10.8529
小笙	-10.8537
所稱	-10.8541
本位	-10.8547
漢志曰	-10.8547
退位為實七億四千	-10.855
小人	-10.8552
一百六十二	-10.8553
理數	-10.8556
兼歌	-10.8564
旋相	-10.8566
林太南姑應㽔大夷夾無仲黄	-10.8567
揚雄	-10.8573
猶可	-10.8574
六尺為歩	-10.8583
􁄆	-10.8588
既定	-10.8591
之狀	-10.8592
貳	-10.8597
鄭司農	-10.86
眇	-10.8601
應五絃散聲	-10.8601
戛	-10.8602
斁	-10.8604
禀	-10.8604
董	-10.8604
潛	-10.8605
研	-10.8605
抃	-10.8605
萬已上開	-10.8606
長尺四寸	-10.8606
像	-10.8607
謁	-10.8607
七尺五寸	-10.8607
何瑭	-10.8608
億二千九百七十三萬一千五百四十七	-10.8609
睦	-10.861
仲尼燕居	-10.861
堪	-10.861
谿	-10.861
明朱載堉撰	-10.861
景祐	-10.861
哨	-10.8611
巴	-10.8611
芳	-10.8612
蓮	-10.8612
薫	-10.8612
重十二銖	-10.8613
上生者四其	-10.8613
纍	-10.8614
為蕤賔置蕤賔	-10.8615
黄鍾生林鍾	-10.8615
豹	-10.8616
裴	-10.8616
効	-10.8616
珍	-10.8617
再作再作	-10.8617
霜降	-10.8617
翔	-10.8617
為夾鍾置夾鍾	-10.8617
股肱	-10.8617
据	-10.8617
沖	-10.8618
等謹案	-10.8618
三分其實得	-10.8618
為大吕置大吕	-10.8618
貞觀	-10.8619
荆	-10.8619
暮	-10.8619
松	-10.862
曲尺	-10.862
白駒	-10.862
編鐘編磬	-10.862
鳥獸	-10.862
牲出入	-10.862
昆	-10.8621
詎	-10.8621
定聲	-10.8621
停	-10.8621
途	-10.8622
將軍	-10.8622
訓義	-10.8622
羽生角	-10.8624
節聲樂	-10.8625
姜夔	-10.8625
晨	-10.8625
崔	-10.8625
鞮鞻氏	-10.8625
措	-10.8625
咎	-10.8626
丁度	-10.8626
吹凡字	-10.8627
竊疑	-10.8627
僖	-10.8627
編懸	-10.8627
幘	-10.8628
升堂	-10.8628
前漢	-10.8628
杜氏	-10.8629
四夷之樂	-10.8629
可謂知	-10.8629
迨	-10.8629
隅法	-10.8629
九分為寸	-10.8631
釐有竒	-10.8632
草木	-10.8632
命之曰	-10.8633
拊止	-10.8633
七十四	-10.8635
筭家	-10.8635
嶺	-10.8637
詩書	-10.8639
西山蔡氏曰按	-10.864
四太商	-10.8643
搊	-10.8643
出於自然	-10.8643
精妙	-10.8643
皆倣此	-10.8646
龍門	-10.8648
部伎	-10.865
不可缺	-10.8655
康成	-10.8658
春秋傳曰	-10.8658
㽔賔下生大	-10.8659
孔穴	-10.866
原闕	-10.8662
六篇	-10.8662
張衡	-10.8662
權量	-10.8664
安之曲	-10.8665
先農	-10.8669
郊特牲曰	-10.8672
歌南風	-10.8673
為調首	-10.8676
置太蔟	-10.8685
文王世子曰	-10.8685
俗譜	-10.8686
秦漢	-10.8692
應南林	-10.8694
算律	-10.8696
大吕特磬	-10.8697
有事於	-10.8697
召南	-10.8708
不敬	-10.8711
上生夾鐘	-10.8712
仲吕鎛鐘	-10.8713
故事	-10.8713
不可行	-10.8716
瑟譜	-10.8717
善歌者	-10.8726
臣竊	-10.8742
上生林鐘	-10.8743
則不然	-10.8748
所撰	-10.8748
並列	-10.8761
一絃六絃徵	-10.8761
升三分	-10.8766
胡琴	-10.877
奏陔	-10.8781
無害	-10.8785
三絃為宫	-10.8789
文采	-10.8792
十一奏	-10.8795
六間	-10.8797
各依	-10.8801
學校	-10.8802
不滿	-10.8803
五十八	-10.8808
圖書	-10.881
無他	-10.8826
者非也	-10.8831
加二變	-10.8835
大簇	-10.8842
可類	-10.8842
為五音	-10.8853
酉一萬九千六百八十三	-10.8864
□□□	-10.8874
仲夏	-10.8875
大畧	-10.888
試之	-10.8887
即位	-10.889
其宿	-10.8894
筭律	-10.8895
音韻	-10.8899
還宫	-10.8903
有一定之	-10.8906
外圓	-10.8907
地祗	-10.8909
鼓舞	-10.8917
文宗	-10.8919
相似	-10.8926
大咸	-10.8936
所製	-10.8947
亦不過	-10.8948
三百五十	-10.8953
鄭註	-10.8956
舂一	-10.8967
一均七聲	-10.8972
隂聲	-10.8975
按徽	-10.8977
大路	-10.8987
上工凡	-10.8998
益一上生	-10.9
故也樂書卷	-10.9002
堂下之樂也	-10.9017
四百七十	-10.9022
變而為	-10.9025
破陣	-10.9044
不善	-10.9063
功德	-10.9067
何如	-10.9067
聲之清濁	-10.9071
五層	-10.9075
節度	-10.9077
施用	-10.9081
黄無南林	-10.9096
二説	-10.9104
當徽	-10.9109
唐時	-10.911
胡樂	-10.9124
所用者	-10.9128
宫為君	-10.913
象武	-10.913
何必	-10.9137
十二篇	-10.9145
而不敢	-10.915
四寸八分八釐四毫八絲	-10.9152
千分以七百四十九為法除之得	-10.9171
儒臣	-10.9175
晏	-10.9182
文之以五聲	-10.9205
安能	-10.9208
豈足	-10.921
孺	-10.9216
籠	-10.922
杜佑	-10.9222
之所自出	-10.9223
鼗堂上堂下堂上堂下	-10.9223
兑	-10.9225
秠	-10.9225
舞干羽	-10.9225
筍	-10.9226
鈎	-10.9226
費	-10.9226
縮	-10.9227
内容方	-10.9227
䕶	-10.9227
晝	-10.9228
鏡	-10.9229
大卷	-10.9229
穎	-10.923
伏犧	-10.923
呈	-10.923
繞	-10.9231
冐	-10.9231
辰八十一分六十四	-10.9231
戊	-10.9231
已二百四十三分一百二十八	-10.9232
午七百二十九分五百一十二	-10.9232
羌笛	-10.9232
紙條	-10.9232
鶉火	-10.9232
蔡西山	-10.9233
州鳩	-10.9233
亢	-10.9233
南吕搏牘鍾	-10.9234
六律正五音	-10.9234
鏗	-10.9234
三毫四絲六忽	-10.9234
先妣	-10.9234
斷兩節間	-10.9234
孰能	-10.9234
葛	-10.9234
鞀	-10.9234
分六萬五千五百三十六	-10.9234
渡	-10.9235
五寸九分四釐六毫	-10.9235
竇	-10.9235
征伐	-10.9235
巻	-10.9235
雝	-10.9235
纖有竒舊法置	-10.9236
黄鐘大吕太簇	-10.9236
髹	-10.9236
四寸一分四釐二毫一絲三忽五微六纎	-10.9237
技	-10.9237
頖宮禮樂䟽	-10.9237
苐	-10.9237
綽	-10.9237
溪	-10.9237
足南正	-10.9238
沈括	-10.9238
陳祥道曰	-10.9238
遼	-10.9238
綂	-10.9238
跡	-10.9238
料	-10.9238
險	-10.9239
一切	-10.9239
廂	-10.9239
與之相應	-10.924
肇	-10.924
涉	-10.9241
巨細	-10.9241
五百一十二	-10.9241
富	-10.9241
巫	-10.9241
祴	-10.9241
贈	-10.9241
一字一音	-10.9242
振鐸	-10.9242
值	-10.9242
戍	-10.9242
涼州	-10.9242
鑮	-10.9242
天黿	-10.9242
盆	-10.9243
状	-10.9243
為太蔟置太蔟	-10.9243
幷	-10.9243
猗	-10.9243
篤	-10.9243
焦尾	-10.9244
詩言志	-10.9244
中央土	-10.9244
難得	-10.9245
九徳之歌	-10.9245
禽	-10.9245
空徑	-10.9245
冒	-10.9245
五分九釐四毫六絲三忽	-10.9246
泣	-10.9246
襍	-10.9247
淡	-10.9247
標	-10.9247
匪	-10.9248
波	-10.9248
宛轉	-10.9248
壤	-10.9248
饌	-10.9248
聰明	-10.9249
篚	-10.9249
桂	-10.925
鐘鎛	-10.925
朗	-10.925
彰	-10.9251
相併	-10.9251
𨽻	-10.9251
輒	-10.9251
空桑	-10.9252
日躔	-10.9253
十二筩	-10.9254
超	-10.9254
鄉飲酒之禮	-10.9254
洞簫	-10.9255
莊敬	-10.9255
合黄宫	-10.9256
㦸	-10.9256
鹵	-10.9257
緒	-10.9257
此二律相協	-10.9257
商生羽羽生角	-10.9259
鼛鼓	-10.9259
有不為	-10.926
三分之二	-10.926
黄鍾之龠	-10.9261
齊景公	-10.9262
僻	-10.9262
寤	-10.9263
也何有	-10.9263
毋論	-10.9263
朱干	-10.9263
嘽	-10.9264
四八三	-10.9264
魯頌	-10.9266
京氏	-10.9266
神瞽	-10.9268
工南羽	-10.9268
笙鏞	-10.9269
宗廟之中	-10.927
同律度量衡	-10.9271
忌日	-10.9272
迎氣	-10.9273
鄭衛之音	-10.9273
磬折	-10.9277
正律内周	-10.9277
漢斛	-10.9279
治世之	-10.9279
方丘	-10.9281
武后	-10.9281
仲吕起宫	-10.9282
十二律皆	-10.9285
鉦間	-10.9287
磬石	-10.9297
景公	-10.9302
唐太宗	-10.9303
於上商	-10.9306
江南	-10.9312
教化	-10.9317
商調曲	-10.9318
别置	-10.932
朱弦	-10.9321
來朝	-10.9321
大蔟	-10.9323
夏籥	-10.9324
歸除	-10.9326
子母	-10.9331
治天下	-10.9332
釐五百	-10.9332
相隔	-10.9335
秦王	-10.9349
之譜	-10.935
宋志	-10.9351
摯	-10.9355
無射鎛鐘	-10.9357
置夾鍾	-10.9359
成周	-10.9362
兩手	-10.9364
在其中矣	-10.9367
小祭祀	-10.9368
溺於	-10.9371
按載堉	-10.9373
國君	-10.9375
二分七釐	-10.9378
五味	-10.939
十二正律	-10.9391
河南	-10.9399
三十四	-10.9406
尚何	-10.9411
司干	-10.9411
之類皆	-10.9414
宮之商	-10.9414
微一纎	-10.9418
之效也	-10.9436
有底	-10.9444
倨句	-10.9453
工凡勾	-10.9461
心感	-10.9467
程子	-10.9472
乆矣	-10.9491
第三聲	-10.9492
公主	-10.9495
上生無射	-10.9496
久矣	-10.9497
詩譜	-10.9504
律之長	-10.9508
原無	-10.9513
三寸五分	-10.9524
達於	-10.9533
相比	-10.9535
百黍	-10.9538
畢矣	-10.9544
並行	-10.9556
但言	-10.956
一百分	-10.9586
雜比	-10.9589
盡矣	-10.9603
三寸六分	-10.9621
明乎	-10.9633
黄林太南姑應㽔	-10.9634
倨	-10.9654
曲名	-10.9658
文明	-10.9664
萬分	-10.9674
十六聲	-10.9688
樂書卷一百三十	-10.9696
散聲為	-10.9722
黄鍾之角	-10.9732
七分一	-10.9769
有房中之樂	-10.9776
不聞	-10.9779
以合字	-10.9787
憂樂	-10.9791
雅舞	-10.9801
第二弦	-10.9816
為實五億乗之	-10.9818
二千二百三十六除之得一寸	-10.9821
次論	-10.9832
同異	-10.9844
之大者	-10.9846
夷夾無仲黄林太	-10.9848
樂之所以	-10.9857
拘於	-10.987
濬	-10.9884
麾	-10.9885
櫟	-10.9886
欒	-10.9886
剔	-10.9887
遭	-10.9889
腸	-10.9891
蔡季通	-10.9892
瞭	-10.9893
勉	-10.9894
磬虡	-10.9894
舉麾	-10.9894
沛	-10.9895
祊	-10.9896
筍簴	-10.9896
鏄	-10.9896
丅	-10.9897
踵	-10.9897
芟	-10.9898
証	-10.9898
剖	-10.9898
為實下生者二因三歸得	-10.9898
雲門大卷	-10.9899
别法以五十乘之七十五除之亦得	-10.9899
參伍	-10.9899
九百一十五萬三千五百三十八	-10.9899
四十九分三萬二千七百六十八	-10.99
三萬二千七百六十八	-10.99
黙	-10.99
武王伐紂	-10.99
闔	-10.99
羨	-10.9901
鄰	-10.9901
十三萬一千七十二	-10.9901
移風易俗	-10.9901
黄帝命伶倫	-10.9902
梅花	-10.9902
㮚氏為量	-10.9902
受爵	-10.9903
挑	-10.9903
淑女	-10.9903
應三絃散聲	-10.9903
以十有二律為之數度	-10.9903
喜怒	-10.9903
笛飲聲	-10.9904
俚	-10.9904
徂	-10.9904
六六三十六	-10.9904
廼	-10.9905
耜	-10.9905
柳	-10.9906
舞動其容	-10.9906
曼	-10.9906
逓	-10.9906
臬	-10.9906
吹上字按十	-10.9906
笛體中	-10.9906
何承天	-10.9907
吸	-10.9907
莭	-10.9907
魏漢津	-10.9907
仕	-10.9907
遲速	-10.9908
樂由中出	-10.991
宛	-10.991
錙	-10.991
綏	-10.9911
錘	-10.9911
穡	-10.9911
五百三十	-10.9911
胃	-10.9911
主人阼階	-10.9911
屠	-10.9911
羣后	-10.9912
抄	-10.9912
供	-10.9912
益稷	-10.9912
七寸九分三釐七毫	-10.9913
粲	-10.9914
傾	-10.9915
袍	-10.9915
禹貢	-10.9915
溷	-10.9915
血氣	-10.9915
南吕無射應鍾	-10.9915
西涼	-10.9916
籟	-10.9916
洛陽	-10.9917
鍊	-10.9918
文武二舞	-10.9918
合止柷敔	-10.9918
荇	-10.9919
歌鹿鳴	-10.9919
徵生商	-10.9919
揮	-10.992
皆文之以五聲	-10.9923
斬	-10.9923
崇徳	-10.9923
單簫	-10.9923
儺	-10.9924
竹管	-10.9925
大業中	-10.9925
銀字	-10.9927
羽葆	-10.9927
陣	-10.9928
牽合	-10.9928
居中央	-10.9929
孚	-10.9929
變宮之宮	-10.993
北狄	-10.9931
重複	-10.9931
宗伯	-10.9934
莊子曰	-10.9934
劉向	-10.9936
精㣲	-10.9936
馳	-10.9937
再鼓皆	-10.9937
翠	-10.9941
截管	-10.9941
洲	-10.9942
為分法	-10.9945
夾鐘特磬	-10.9946
考證	-10.9947
長幼	-10.9949
算家	-10.9951
可以兼	-10.9951
杖鼓	-10.9953
聖祖	-10.9954
夾鐘下生無	-10.9955
隨月	-10.9955
六字調	-10.9956
幾何	-10.9956
再加	-10.9959
十二銖	-10.996
祭山川	-10.996
一三六	-10.9964
師乙	-10.9965
梓人	-10.9966
路鼔	-10.9973
在堂	-10.9973
空圍中	-10.9975
東面	-10.9977
乗之七	-10.9977
四瀆	-10.9977
今觀	-10.9977
上字調	-10.9978
管絃	-10.9978
而於卦為	-10.9979
方面	-10.9979
太林黄仲無夾夷大㽔應姑	-10.9979
士大夫	-10.9985
旄舞	-10.9986
寓焉	-10.9987
百戯	-10.9999
左右各	-10.9999
靈鼔	-11.0004
姑洗之角	-11.0008
感物	-11.0011
一寸三分	-11.0018
夷則鎛鐘	-11.0022
交相	-11.0023
四十乗之	-11.0026
未達	-11.003
七百六十	-11.0036
樂闋	-11.0036
黄鍾之均	-11.0037
某謂	-11.0038
有之矣	-11.0039
正宮調	-11.0043
相合也	-11.0044
大槩	-11.0049
特其	-11.0054
著書	-11.0055
國初	-11.0061
讀作	-11.0064
莫若	-11.0064
在其中	-11.0072
無射之商	-11.0072
太蔟為角	-11.0075
時享	-11.0082
陸費墀欽定四庫全書	-11.0091
周流	-11.0095
一歳	-11.0111
繁聲	-11.0115
或過	-11.0117
左氏傳	-11.0126
相配	-11.0135
下生黄	-11.0136
漢武	-11.0144
五郊	-11.0154
不用二變	-11.0159
如宫調	-11.0161
軍中	-11.0163
禮樂志	-11.0165
聲相同	-11.0165
分八釐六毫	-11.0167
雲韶	-11.0169
遺意	-11.0181
而正之	-11.019
名之曰	-11.02
宋時	-11.0206
初絃	-11.0209
新尺	-11.0215
厯家	-11.0244
失之矣	-11.0252
不絶	-11.026
得九寸	-11.0281
變仲吕	-11.0299
樂書曰	-11.0317
重上生	-11.0329
宋元	-11.0349
亥一十七萬七千一百四十七	-11.0356
九釐九毫	-11.0367
二絃七絃羽	-11.0382
第十徽	-11.0385
四六工	-11.0386
一尺五寸	-11.0404
非真	-11.0406
信乎	-11.0408
是之謂	-11.0426
六尺六寸	-11.0437
木音	-11.047
晉宋	-11.0515
文章	-11.0515
五調同用	-11.0528
者樂也	-11.0528
四代	-11.0532
夫然後	-11.0543
失之太	-11.0549
一尺六寸	-11.0555
笙簫	-11.0562
三分四釐六毫	-11.0568
誦詩	-11.0585
拊芍纓黄正	-11.0587
播之以八音	-11.0589
芍滄黄正	-11.0589
但取	-11.059
堯舜之	-11.0591
娶妻	-11.0595
博古圖	-11.0595
廵	-11.0602
失之逺矣	-11.0605
百黍之重為今之	-11.0605
協律郎	-11.0606
影	-11.0606
庠	-11.0606
舞雲門以祀天神	-11.0607
四百八十六	-11.0608
汎	-11.0609
妥	-11.0609
衮	-11.0609
黄鍾小素	-11.061
大戴禮	-11.0611
勗	-11.0611
國語伶州鳩	-11.0611
筩	-11.0612
妾	-11.0612
先聖先師	-11.0613
鄧保信	-11.0613
丁寧	-11.0613
春秋傳	-11.0613
袂	-11.0613
布戎	-11.0614
欠	-11.0614
杜氏通典	-11.0614
籩豆	-11.0615
服䖍	-11.0615
敝	-11.0615
渾	-11.0615
緣	-11.0615
阮逸胡瑗	-11.0615
二分九釐七毫	-11.0615
弛	-11.0615
弛縣	-11.0616
筦	-11.0616
為實九億	-11.0616
不盡之數	-11.0616
吟猱	-11.0616
半律外周	-11.0617
㨿	-11.0617
太簇歌磬太簇編磬	-11.0617
穆叔	-11.0618
鼗倚于頌磬西紘	-11.0618
悌	-11.0618
裂	-11.0618
五微二纎	-11.0618
有虞氏	-11.0618
鐘師掌金奏	-11.0618
竟山樂録	-11.0618
緹	-11.0618
斥	-11.0619
陪	-11.0619
趺	-11.0619
鎛鐘姑洗特磬	-11.0619
黃鐘鎛鐘	-11.0619
宋陳𤾉撰樂圖論雅部八音	-11.0619
閭	-11.0619
廣雅云	-11.062
掉	-11.062
產	-11.062
纒	-11.062
抱	-11.062
鎛鐘太簇特磬	-11.062
圜鍾為宫	-11.062
溢	-11.062
歐	-11.0621
表裏	-11.0621
下生者倍其法得	-11.0621
采薺	-11.0621
皇皇者華	-11.0622
九十五	-11.0622
罍	-11.0622
㮚氏	-11.0622
訟	-11.0622
鶉	-11.0622
甄	-11.0622
併入	-11.0623
宋陳晹撰樂圖論	-11.0623
鳯翼	-11.0623
𤾉	-11.0623
拙	-11.0623
亨	-11.0623
圍徑皆同	-11.0623
粱	-11.0623
帯	-11.0624
帝嚳	-11.0624
炎	-11.0624
狩	-11.0624
宋陳𤾉撰詩訓義	-11.0624
茫	-11.0624
肄習	-11.0625
三分三釐三毫	-11.0625
蓬	-11.0625
津	-11.0625
邇	-11.0625
臭	-11.0626
甌	-11.0626
巢笙	-11.0626
􁃡	-11.0626
考槃	-11.0626
别而言之	-11.0626
禋	-11.0627
額	-11.0627
恭敬	-11.0627
紊	-11.0627
佛	-11.0628
祴夏	-11.0628
萬入去籥	-11.0628
頁後	-11.0628
蟄	-11.0629
形於聲	-11.0629
旋宫轉調	-11.063
元史樂志	-11.063
柘枝	-11.063
三尺六寸六分	-11.063
臨軒	-11.063
齶	-11.063
齡	-11.063
按十徽定之實音為	-11.0632
容貌	-11.0632
漢前志曰	-11.0633
賡歌	-11.0633
倉	-11.0634
晝夜	-11.0634
應鐘起宫	-11.0634
鹽	-11.0635
享先祖	-11.0635
聿	-11.0635
演	-11.0636
川澤	-11.0636
絙	-11.0637
竪	-11.064
相沿	-11.0641
雞婁	-11.0641
輾	-11.0642
鄉大夫	-11.0643
亦可見矣	-11.0643
晉武帝	-11.0643
嗜	-11.0643
先蠶	-11.0644
臣嘗觀	-11.0644
驅	-11.0646
畜	-11.0648
五寸四分	-11.0648
猴	-11.0649
南吕五寸三分	-11.065
未盡善	-11.0653
郡國	-11.0656
之至理	-11.0656
髙麗	-11.0662
庸器	-11.0663
九曲一	-11.0664
旒	-11.067
其大者	-11.0673
解說	-11.0674
王肅	-11.0679
相濟	-11.0682
四三二	-11.0685
九徽四分	-11.0686
春秋書	-11.0688
漳	-11.0689
向外	-11.069
衣服	-11.0698
朝服	-11.0702
減實	-11.0715
太蔟為徵	-11.0719
扶南	-11.0724
侍中	-11.0724
隋制	-11.0724
戌五萬九千	-11.0726
比量	-11.0727
朱載堉曰	-11.0728
韋昭曰	-11.0732
太蔟八寸	-11.0733
原疏	-11.0741
㽔賔倍律	-11.0742
三分之一	-11.0744
陽伯	-11.0746
七十七	-11.0749
文義	-11.0755
蔽於	-11.0756
本律宫	-11.0757
房中樂	-11.0762
盛德	-11.0764
重濁	-11.0768
兮㽔	-11.0775
應鼙	-11.0775
射義	-11.0781
參定	-11.0781
二分一釐	-11.0785
備戒	-11.0787
帝舜	-11.079
臣聞	-11.0798
先之以	-11.0804
樂記所謂	-11.0804
獻工	-11.0812
明代	-11.0816
呼六	-11.0828
八百四十	-11.0833
於第十一	-11.0843
大武之舞	-11.0844
先王之於	-11.0856
名義	-11.0861
其所以然	-11.0866
毛詩	-11.0921
四十八律	-11.0922
南風之時兮可以阜吾民之財兮	-11.0927
各為一	-11.0927
宴樂	-11.0934
蔡氏律吕新書	-11.0952
而成聲	-11.0974
倍律外周	-11.1013
再成	-11.1039
大㽔應姑南太林黄仲無夾	-11.1041
歌騶虞	-11.1074
四寸六分	-11.1099
呼四	-11.1153
鄭注	-11.1156
七寸二分	-11.1169
寸之一	-11.1171
尚存	-11.1177
二尺五寸	-11.1179
寸五分八釐	-11.1248
迎寒	-11.1308
徽古度尺	-11.1321
冰	-11.1342
駟	-11.1345
酒食	-11.1356
五九四六	-11.1357
拊芍足黄正	-11.1358
乗之一百	-11.1361
轍	-11.1363
正律外周折半	-11.1365
五分九釐四毫	-11.1368
倍律積算進一位為實以應	-11.1368
冲	-11.1369
閔	-11.1369
三笙一和而成聲	-11.1371
二百一十六	-11.1371
弘	-11.1371
核	-11.1372
剽	-11.1373
昊	-11.1374
侈弇	-11.1374
班一人云	-11.1375
舞者就位	-11.1375
箕子	-11.1375
窄	-11.1376
𬎼	-11.1376
胄	-11.1376
樂行而倫清	-11.1376
八四四五	-11.1376
襟	-11.1377
翁	-11.1377
鸞刀	-11.1378
䝉	-11.1378
李文利	-11.1378
軋	-11.1379
清廟之瑟	-11.1379
古樂經傳	-11.1379
神人以和	-11.1379
太極元氣函三為一	-11.138
冢	-11.138
諒	-11.1381
折衷	-11.1381
郷射	-11.1381
烖	-11.1381
騶虞九節	-11.1381
十分為寸十寸為尺十尺為丈十丈為引	-11.1381
㮣	-11.1382
八百八十八	-11.1382
釋菜	-11.1382
蘇祗婆	-11.1383
沮	-11.1383
七十二以為商	-11.1383
四千九十六	-11.1383
奏黄鍾歌大吕	-11.1383
霍	-11.1383
宛丘	-11.1384
晋	-11.1384
萊	-11.1384
賈公彦	-11.1384
喜怒哀樂	-11.1385
傑	-11.1385
裼	-11.1385
詘	-11.1385
寔	-11.1385
其卦則	-11.1386
商數七十二	-11.1386
亭	-11.1386
閱	-11.1386
健	-11.1387
藁	-11.1387
墓	-11.1387
鄭氏註曰	-11.1387
南吕歌磬南吕編磬	-11.1387
由是推之	-11.1387
顛倒	-11.1387
應鐘歌磬應鐘編磬	-11.1387
罕	-11.1388
太府尺	-11.1388
公孫崇	-11.1388
誘	-11.1388
新唐書樂志	-11.1388
君臣民事物	-11.1388
自上而下	-11.1389
吹尺字按十徽定之實音為林鍾散聲即	-11.1389
玉帛	-11.1389
亦此意歟	-11.1389
境	-11.1389
堂上堂下堂上堂下應鐘鎛鐘	-11.1389
荀子曰	-11.1389
徽定之實音為仲吕散聲即黄鍾	-11.139
征誅	-11.139
下管播樂器	-11.139
汲	-11.139
凡工五六	-11.139
伯牙	-11.139
孟冬	-11.139
十三萬一千	-11.1391
隆殺	-11.1391
林鐘琴林鐘篴	-11.1391
靈鼓靈鼗	-11.1391
林鐘歌磬林鐘編磬	-11.1391
湘	-11.1391
吹一字按十	-11.1392
禮自外作	-11.1392
一徽定之實音為太蔟散聲即無射	-11.1392
徽定之實音為姑洗散聲即應鍾	-11.1392
又從而	-11.1392
律吕精義	-11.1392
雕	-11.1392
武宿夜	-11.1392
又次上穴	-11.1392
衷	-11.1392
樂者天地之和	-11.1393
郤	-11.1393
足蕤正	-11.1393
周徑羃積	-11.1393
姜嫄	-11.1393
燒	-11.1394
堂上堂下堂上堂下南吕鎛鐘	-11.1394
貽	-11.1394
迥	-11.1394
半律内徑	-11.1394
秪	-11.1395
贅	-11.1395
穄	-11.1395
驕	-11.1395
蒲	-11.1395
燭	-11.1395
禫	-11.1395
堂下之管	-11.1396
霄	-11.1396
羙	-11.1396
鼓羽籥之舞	-11.1396
千金作	-11.1396
朔鼙在其北	-11.1397
杜撰	-11.1397
鄉黨	-11.1397
西凉	-11.1397
十二詩譜	-11.1397
一應鼓二堂上堂下堂上堂下	-11.1397
雀	-11.1397
享先妣	-11.1397
角與變宫	-11.1397
以出納五言	-11.1397
處暑	-11.1398
鄉飲鄉射	-11.1398
姬	-11.1398
狂	-11.1398
一尺三寸五分	-11.1399
濵	-11.1399
縷	-11.1399
湥	-11.1399
訾	-11.14
交錯	-11.14
夷南無應	-11.14
貿	-11.14
赴	-11.1401
賊	-11.1401
公庭萬舞	-11.1401
制禮作樂	-11.1401
奕	-11.1402
繒	-11.1402
蕃主	-11.1404
流蘇	-11.1404
未之有也	-11.1405
篥	-11.1405
囊	-11.1405
苞	-11.1405
拊芍可	-11.1406
鼖鼔	-11.1406
茨	-11.1407
二釐三毫	-11.1407
騰	-11.1407
侏	-11.1408
拜受爵	-11.1409
二十三管	-11.1409
駭	-11.1409
朝聘	-11.1409
肝	-11.1409
餘倣此	-11.141
六徽七分	-11.1411
擊柷	-11.1411
擯	-11.1411
奈何	-11.1411
叢	-11.1412
灸	-11.1412
班志	-11.1412
貫通	-11.1413
郷飲	-11.1414
甲乙	-11.1415
夷則為宫始羽終	-11.1415
班氏	-11.1417
數之自然	-11.1417
南吕起宫	-11.1418
税	-11.1418
文之以五聲播之以八音	-11.1419
莊子	-11.142
春秋之時	-11.1422
蛇	-11.1422
文選	-11.1429
揚雄曰	-11.143
東海	-11.1431
士庶	-11.1432
援琴	-11.1436
圓田	-11.1436
如之何不	-11.1437
八寸之尺	-11.1441
散彈	-11.1446
光武	-11.1446
七徽實音同	-11.1448
孟子所謂	-11.1454
張華	-11.1455
七徽外	-11.1457
九千九百二十七	-11.1458
學操縵	-11.146
大暑	-11.146
劉氏	-11.1463
長八寸四分	-11.1464
丈夫	-11.1465
工字調	-11.1465
伶人	-11.1465
工尺上四	-11.1465
高低	-11.1466
或二人	-11.1467
舂上	-11.1468
甚詳	-11.147
小分六	-11.1472
臣父	-11.1474
天之道也	-11.1475
稽古	-11.1479
丈八尺	-11.1487
幽王	-11.1493
奏黃	-11.1505
黄鐘特磬	-11.151
元㑹	-11.1511
相承	-11.1514
工四人	-11.1518
世傳	-11.1523
二百七十	-11.1524
取十徽	-11.1527
諸州	-11.1533
當避	-11.1534
元首	-11.1556
律之長短	-11.1564
讌樂	-11.1564
教習	-11.1569
元豐	-11.157
八七四	-11.1577
四字調	-11.1583
林太南	-11.1601
徑折半	-11.1638
相協	-11.164
徑圍	-11.1649
二尺一寸	-11.1649
倍律之率	-11.1651
靡不	-11.1658
一尺二寸五分	-11.1661
七寸八分	-11.1681
分八釐三毫	-11.173
弦之瑟	-11.1773
之謂乎	-11.1792
清越	-11.1817
於殿庭	-11.1835
十一篇	-11.1856
聲出于	-11.1858
五萬九千	-11.1864
夾夷大㽔應姑南太林黄仲	-11.1906
者禮樂之	-11.196
凡工尺工	-11.1964
孝經	-11.1987
未甞	-11.201
鳳凰	-11.2024
讌	-11.2039
生南呂上	-11.204
拜送	-11.2061
四太羽	-11.2126
之變宮二清右	-11.2159
南姑應㽔大夷	-11.2162
與之合吹	-11.2168
濶	-11.2168
工南角	-11.2169
進一位命作	-11.2182
􁄈	-11.2185
丞相	-11.2185
恨	-11.2186
京房六十律	-11.2194
一四九八	-11.2195
泠	-11.2195
成於前後之	-11.2195
半律内徑置前所得	-11.2196
旱暵	-11.2196
九成之奏	-11.2197
二九七三	-11.2198
妣	-11.2198
八尺為歩	-11.2198
庛	-11.2198
匀	-11.2198
面羃者置	-11.2198
樽	-11.2199
通長者置	-11.22
内外周徑者置	-11.22
姑洗長七寸一分	-11.22
九微五十	-11.2201
四寸八分八釐	-11.2202
鍾倍律積算為法除之得	-11.2202
勲	-11.2202
曰證之以	-11.2202
臨岳	-11.2203
彭氏曰	-11.2204
毫八絲四忽	-11.2204
銷	-11.2205
尉	-11.2205
五寸五分五釐	-11.2205
丌	-11.2206
應南太黄	-11.2206
簨虡	-11.2207
斵	-11.2207
龠黍之重為今之	-11.2207
未酉亥	-11.2207
晟	-11.2207
月日纒	-11.2208
挎	-11.2208
互相合也	-11.2209
𤣥端	-11.221
台	-11.2211
鏘	-11.2211
恃	-11.2211
嬪	-11.2212
在治忽	-11.2212
三禮圖	-11.2213
棧	-11.2213
紀之以三	-11.2213
一萬六千三百八十四	-11.2213
天子視學	-11.2213
湮	-11.2214
迷	-11.2214
叔之離磬	-11.2214
陽升之数	-11.2214
羽又三分益一得	-11.2214
玉藻	-11.2215
㺯	-11.2215
半律通長求	-11.2215
忍	-11.2215
數約以	-11.2215
王出入奏王夏	-11.2215
四上尺工六	-11.2215
遺制歟	-11.2216
一尺一寸八分九釐二毫	-11.2216
則不成聲而氣不應	-11.2216
秦始皇	-11.2216
牟	-11.2216
陳仲孺	-11.2216
訪	-11.2216
十五萬七千四百六十四	-11.2216
恰	-11.2216
軟	-11.2216
喧	-11.2217
擽	-11.2217
瑩	-11.2217
鼉	-11.2217
一而十一三之	-11.2218
以十有二聲為之齊量	-11.2218
次上一穴為	-11.2218
已上五調皆用	-11.2218
十二萬四千四百一十六	-11.2218
軒轅	-11.2218
穫	-11.2218
謚	-11.2218
快	-11.2218
閣	-11.2218
奏王夏	-11.2219
樂律表㣲卷	-11.2219
毫又九因至絲位住得	-11.2219
絲又九因至忽位住得	-11.2219
聨	-11.2219
豎	-11.2219
為實初九因至寸位住得	-11.2219
瞍	-11.2219
四十九分寸之五萬一千八百	-11.2219
彷	-11.2219
鞭	-11.2219
捨	-11.2219
太簇姑洗㽔賔夷則無射	-11.2219
九百八十二分	-11.222
蟠	-11.222
楷	-11.222
賴	-11.222
許慎	-11.222
方圓相函	-11.222
寥	-11.2221
伍	-11.2221
漢津	-11.2221
遥	-11.2221
金石絲竹	-11.2221
周景王	-11.2221
楬	-11.2221
付	-11.2222
竒齡	-11.2222
為實以應鍾乗之得	-11.2222
琢	-11.2222
樂由陽來	-11.2223
璆	-11.2223
克諧	-11.2223
㽔賔生大吕	-11.2223
迺	-11.2223
十分為寸	-11.2223
五調南風之薰兮可以解吾民之愠兮	-11.2223
八八六十四	-11.2223
涕	-11.2224
盪	-11.2224
一十九分六十四釐一十八毫五十五絲	-11.2224
庶㡬	-11.2224
鑑	-11.2224
凡音之起由人心生	-11.2225
袁	-11.2225
黑漆	-11.2225
彦昇	-11.2225
頃	-11.2225
范氏	-11.2226
兎	-11.2226
汗	-11.2226
惻	-11.2226
稽之度數	-11.2226
朔鞞	-11.2227
吿	-11.2227
邸	-11.2227
林鐘為宫始羽終	-11.2228
無射生仲吕	-11.2228
輯	-11.2228
祐	-11.2228
峻	-11.2228
裔	-11.2228
南山有臺	-11.2228
吹灰	-11.2228
黄鐘為宫始羽終	-11.2228
相為表裏	-11.2229
寘	-11.2229
皂	-11.2229
律中黄鍾之宫	-11.2229
樂律表微	-11.2229
亞獻	-11.2229
音而樂之及干戚羽旄謂之樂	-11.2229
旣	-11.2229
五釐一毫	-11.223
絜	-11.223
角為民	-11.223
陁	-11.223
食老更	-11.223
㑹守拊鼓	-11.2231
月令律中	-11.2231
尺林徴	-11.2231
牛𢎞	-11.2231
拔	-11.2232
以和邦國	-11.2232
别法置	-11.2232
騫	-11.2232
大周正樂	-11.2232
愁	-11.2232
一百六十二分	-11.2232
史遷	-11.2233
本之情性	-11.2233
緇衣	-11.2233
二工執	-11.2233
誨	-11.2233
燕羣臣	-11.2233
科	-11.2234
附録	-11.2234
廻	-11.2234
奔	-11.2234
什	-11.2235
夾鐘為宫始羽終	-11.2235
三十斤	-11.2235
掃	-11.2235
虐	-11.2235
其南鑮皆南陳	-11.2235
孟夏	-11.2235
周南闗雎葛覃卷耳召南鵲巢采蘩采蘋	-11.2236
五音琴第	-11.2236
𦙍	-11.2236
貍歩	-11.2237
可黄正芍	-11.2237
無射為宫始羽終	-11.2237
正律之幂折半為	-11.2237
粢	-11.2238
在卦則乾之	-11.2239
猱	-11.2239
紛紛	-11.2239
横括	-11.224
教六詩	-11.2241
七百二十九釐	-11.2241
佞	-11.2242
商為臣	-11.2242
陟	-11.2243
弔	-11.2243
緯書	-11.2244
鑼	-11.2247
奠幣	-11.2247
不拘何	-11.2247
戊子	-11.2247
阼	-11.2248
肉好	-11.2248
宫七聲六濁之首	-11.2248
應鐘為宫始羽終	-11.225
趙彦肅	-11.2251
宋陳暘撰樂圖論	-11.2252
蹵	-11.2254
風俗通云	-11.2254
囘調	-11.2254
龠也積	-11.2255
犬	-11.2255
□􁕡□	-11.2255
斗斛	-11.2257
貴人聲	-11.2257
尋常	-11.226
冀	-11.2261
加一倍	-11.2261
告朔	-11.2261
合而言之	-11.2264
則應于	-11.2264
㽔賔為宫始羽終	-11.2264
摶牘磬	-11.2269
候氣之説	-11.227
寸命作	-11.2271
復綴	-11.2271
分除之	-11.2275
先王雅樂	-11.228
黍累尺	-11.2282
康國	-11.2283
魚龍	-11.2283
哀思	-11.2284
斗建	-11.2286
平冕	-11.2291
伯顔	-11.2294
雖不同而	-11.2294
音得焉	-11.2294
大武之樂	-11.2295
雙管	-11.2296
繫焉	-11.2298
沿襲	-11.2298
横黍尺	-11.2298
為實以林鍾乗之得	-11.2301
神州	-11.2303
二變四清	-11.2304
世俗之樂	-11.2307
屬火	-11.2308
為實以太蔟乗之得	-11.231
諷誦	-11.2312
為實以姑洗乗之得	-11.2314
正律為和	-11.2314
為實以南吕乗之得	-11.2316
樂緯	-11.2325
分四釐三毫	-11.2331
四千三百一十二	-11.2338
律之首	-11.2348
宮之變宮	-11.2348
君臣相	-11.2356
凶禮	-11.2377
降神之樂	-11.2379
已乆	-11.2401
姦聲	-11.2403
一百四十七	-11.2419
成湯	-11.2425
合一四合	-11.2429
之率七億	-11.2455
凡工勾一	-11.2457
即正律外	-11.2458
應鍾之率	-11.2501
忽九微	-11.2512
置黄鍾倍律	-11.2516
僅得	-11.253
經緯	-11.2543
子弟	-11.2543
昊天上帝	-11.2565
之一言	-11.2566
相生之次	-11.258
九千六百	-11.2605
正律為徴	-11.2641
髙下清濁	-11.267
夾夷大㽔應姑南太林	-11.2685
姑應㽔大夷夾無	-11.2691
適足	-11.2707
之下共得	-11.2734
南太林黄仲無夾夷大	-11.2755
祀昊天上帝	-11.2773
十有四	-11.2817
工勾一尺	-11.2827
何者為	-11.2892
情性	-11.2893
長短不同	-11.2935
幂積	-11.2975
㽔大夷夾無仲黄林太南姑應	-11.3027
以八十一億乗之	-11.3032
尺合勾	-11.3046
諷	-11.3051
半律面羃求	-11.3089
倍律外周折半	-11.3103
大吕生夷則	-11.3105
則太過	-11.3105
歌大㽔應姑南太林	-11.3106
司馬相如	-11.3107
韜	-11.3108
正律内周即半律外周求	-11.3108
泪	-11.311
祖沖之	-11.3111
舞畢復位舞者就位播鞉三通	-11.3111
太府寺	-11.3112
按十徽定之實音為應鍾散聲即蕤賔	-11.3112
蹙	-11.3112
莽	-11.3112
空積忽微	-11.3113
孔安國	-11.3113
循環無端	-11.3113
音出焉今謂之	-11.3114
餙	-11.3114
分乎子也	-11.3116
依我磬聲	-11.3116
譽	-11.3116
戞	-11.3116
箕	-11.3117
跬	-11.3117
靁鼓靁鼗	-11.3117
九寸四分三釐八毫	-11.3118
㫁兩節間	-11.3118
有司攝事	-11.3118
若樂九變則人鬼可得而禮	-11.3118
帙	-11.3119
屑	-11.3119
姑南太林黄仲無夾夷大㽔應	-11.3119
析黄鍾之實為	-11.312
之所由生也	-11.312
脗合	-11.312
還相為宮	-11.312
酺	-11.312
始平掘地得古銅尺	-11.312
逥	-11.312
四鈞為石	-11.312
柴	-11.312
自下而上	-11.3121
子初四刻	-11.3121
瑗	-11.3121
田獵	-11.3121
樂由天作	-11.3122
禮以地制	-11.3122
憤	-11.3122
半周半徑相乗	-11.3122
吹尺字按十一徽定之實音為林	-11.3122
糾	-11.3122
以三因之得	-11.3122
播鞉三通	-11.3122
株	-11.3122
比後月	-11.3122
鍾之數立焉	-11.3122
徑三圍九	-11.3123
錯刀	-11.3123
軍大獻	-11.3124
鋭	-11.3124
飲福	-11.3124
商又三分損一得	-11.3124
斂	-11.3124
大鐘謂之鏞	-11.3124
霓裳	-11.3124
簫管備舉	-11.3124
腸胃	-11.3124
冕而揔干	-11.3124
蕢	-11.3125
伏覩	-11.3125
吹笙鼓簧	-11.3125
萬分忽之六千三百一十二	-11.3126
應鐘琴應鐘篴姑洗	-11.3126
典瑞	-11.3126
鞮	-11.3126
尸出入奏肆夏	-11.3126
宋陳𤾉撰周禮訓義春官	-11.3126
揭	-11.3126
齦	-11.3127
羔羊	-11.3127
耆老	-11.3127
兔	-11.3127
一位為實以應鍾倍律積筭為法除之得	-11.3127
亦得此數	-11.3127
平之以六	-11.3127
十三萬九千	-11.3127
明韓邦奇撰	-11.3127
四寸三分八釐五毫三絲一忽	-11.3127
忽又九因至微位住得	-11.3127
正律為中七音琴第	-11.3127
夷則之率六億二千九百九十六萬	-11.3127
圍三徑一	-11.3127
荆軻	-11.3127
笛五指聲應	-11.3127
夏籥序興	-11.3128
飲福酒	-11.3128
張指法從	-11.3128
錯綜	-11.3128
右附論	-11.3128
皇祐新樂圖記	-11.3128
移宫換羽	-11.3128
絡	-11.3129
次制十二筒	-11.3129
分子也舊法置一尺以	-11.3129
懽	-11.3129
詔諸侯以弓矢舞	-11.3129
鼓瑟鼓琴	-11.3129
南吕生姑洗	-11.3129
置一而九三之以為法	-11.3129
覧	-11.3129
端冕	-11.313
徵招角招	-11.313
分字已上	-11.313
大瑟謂之灑	-11.313
八億九千	-11.313
有奇億約為寸得	-11.313
約十為九	-11.313
蕢桴	-11.313
椌	-11.313
徴生商	-11.313
姑洗歌鐘姑洗編鐘	-11.3131
箋云	-11.3131
朋	-11.3131
肯	-11.3131
自漢以來	-11.3131
宥	-11.3131
㳂	-11.3131
李照范鎮	-11.3131
角生變宫	-11.3132
九絲六忽	-11.3132
以管數起絲	-11.3132
軰	-11.3132
朱文公	-11.3133
以絲數起	-11.3133
嬴	-11.3133
姑洗生應鍾	-11.3133
杪	-11.3133
祖室奏	-11.3133
典庸器	-11.3133
牆	-11.3133
無射之率五億六千一百二十三萬	-11.3133
為法除之所得億約為寸得	-11.3133
氷	-11.3134
忠信	-11.3134
慿	-11.3134
俊	-11.3134
毅	-11.3134
緜	-11.3134
鄼	-11.3134
靖	-11.3134
飲卒觶	-11.3134
三分九釐六毫	-11.3135
解曰黄鐘之數	-11.3135
琶	-11.3135
僣天子	-11.3135
通卦驗	-11.3135
圜轉	-11.3136
歌鐘二肆	-11.3136
齊撮	-11.3136
倍律面羃一十	-11.3136
聲淫及商	-11.3136
奏夷則歌小吕	-11.3136
攸	-11.3136
敕	-11.3136
匕	-11.3137
為應鍾置應鍾	-11.3137
濕	-11.3137
樂人宿縣于阼階東笙磬西面其南笙	-11.3137
奏姑洗歌南吕	-11.3137
膳夫	-11.3137
南吕無射應鐘	-11.3138
㢲	-11.3138
廣雅曰	-11.3138
觚	-11.3138
駒	-11.3139
仲孺	-11.3139
紘	-11.3139
灌	-11.3139
隷	-11.3139
先臣曰	-11.3139
逈	-11.3139
不足道也	-11.314
嘉靖	-11.3141
妖	-11.3141
仲吕為宫始羽終	-11.3141
而三加為	-11.3141
纛	-11.3142
栁	-11.3142
琯	-11.3142
恭儉	-11.3142
鏤	-11.3142
纔	-11.3142
爛	-11.3142
筊	-11.3142
弦匏笙簧	-11.3142
遁	-11.3143
五百二十五	-11.3143
獵	-11.3143
霓裳羽衣	-11.3143
之别名也	-11.3143
倍律之幂折半為	-11.3144
握	-11.3144
鎛師掌金奏之鼓	-11.3144
陵犯之説	-11.3144
話	-11.3144
倘	-11.3144
薦新	-11.3145
璧羡	-11.3145
焚	-11.3145
太簇為宫始羽終	-11.3145
工四人二瑟瑟	-11.3146
無當於五	-11.3147
喈	-11.3147
輙	-11.3147
大饗亦如之	-11.3147
其得失	-11.3149
聲中黄鍾之宫	-11.3149
晉荀朂	-11.3149
疇	-11.3149
墳	-11.3149
隰	-11.3149
杯	-11.315
陳𤾉樂書	-11.315
稍贏	-11.3151
狼	-11.3151
恥	-11.3151
䃂	-11.3152
儒家	-11.3153
遑	-11.3154
鐡尺	-11.3155
若樂六變則天神皆降可得而禮矣	-11.3155
梨園	-11.3156
暨	-11.3156
南吕為宫始羽終	-11.3157
佩玉	-11.3157
發揚	-11.3159
五百二十四	-11.3161
天駟	-11.3161
水銀	-11.3163
薺	-11.3166
僭天子	-11.3166
突厥	-11.3167
試問	-11.3168
綱紀	-11.3168
留意	-11.3171
夷則下生夾	-11.3172
撰譜	-11.3172
證辨	-11.3175
九十四除之得一十	-11.3176
擊缶	-11.3177
金奏之樂	-11.3177
二十龠	-11.3177
雅樂俗樂	-11.318
雨水	-11.3182
午七百二十九	-11.32
亂華	-11.3203
十四微七十	-11.3218
番樂	-11.3225
吹四字按十徽定之實音為太	-11.3235
之率九億四千三百八十七萬	-11.3256
黄姑蕤姑	-11.3334
酒酣	-11.3347
形狀	-11.336
樂之於天下	-11.3369
二尺六寸	-11.3511
七寸四分九釐	-11.3538
太簇下生南	-11.3608
西山蔡氏	-11.3642
南姑應㽔大夷夾無仲黄林太	-11.3642
之和置	-11.3659
風之時兮可以阜吾民之財兮起調畢曲	-11.3705
世之論	-11.3719
歌周南召南	-11.384
三尺四寸	-11.3935
姑應㽔大夷夾無仲黄林太南	-11.3975
如之何	-11.4008
於卦為	-11.4023
億四千三百八十七萬四千三百一十二	-11.404
十九年	-11.4045
林太南姑應㽔大	-11.4052
日至於地上之圜丘奏之	-11.4054
以新書本原第	-11.4091
黄鍾搏牘鍾芍滄黄正	-11.4099
陛	-11.4099
明韓邦竒撰	-11.4102
翿	-11.4105
萬寶常	-11.4105
冷	-11.4107
純粹	-11.4108
􁐠	-11.4108
文宣王	-11.4111
鼓吹振作	-11.4112
后夫人	-11.4112
千五百六十一分寸之六千五百二十四	-11.4113
救日月	-11.4113
縫	-11.4114
工歌鹿鳴四牡皇皇者華	-11.4114
涖	-11.4115
女巫	-11.4115
個	-11.4115
以騶虞為節	-11.4115
為三分每分	-11.4116
嘒嘒管聲	-11.4116
六六七一七五	-11.4116
孤竹之管	-11.4116
馘	-11.4117
為分十分為寸十寸為	-11.4117
而天下治	-11.4117
腥	-11.4117
婺源江永撰	-11.4117
繋	-11.4118
筒	-11.4118
疎密	-11.4118
尉遲	-11.4118
何邪曰	-11.4119
其寸而為	-11.4119
煞	-11.4119
璅	-11.4119
十升為斗	-11.4119
律管無孔	-11.4119
益一分上生	-11.4119
三分一釐四毫	-11.412
糓	-11.4121
譲	-11.4121
欣	-11.4121
次求三十六律	-11.4122
百官軌儀	-11.4122
一絲八忽	-11.4122
幾百幾十幾	-11.4122
自乗所得	-11.4122
耒	-11.4123
上生者四其實三其法	-11.4123
春官大司樂	-11.4123
宫又三分損一得	-11.4123
萬二千九百七十四	-11.4123
六絲七忽	-11.4123
四寸一分八釐三毫	-11.4123
析為八十一分計八十一	-11.4124
徴又三分益一得	-11.4124
十四萬七千四百五十六	-11.4124
樵	-11.4124
曲南風之薰兮可以解吾民之愠兮皆以	-11.4125
三寸六分六釐三毫六絲	-11.4125
不相凌	-11.4125
鐘林鐘太簇南吕姑洗應鐘	-11.4125
以九萬三千三百一十二約之得	-11.4125
變律變半律	-11.4125
隴	-11.4125
九絲八忽	-11.4125
孤竹之管雲和之琴瑟雲門之舞冬	-11.4126
巷	-11.4126
于西階上	-11.4126
旬	-11.4126
勾股求弦	-11.4126
與本弦散聲應按第	-11.4126
𬎼賓	-11.4127
押	-11.4127
州刺史	-11.4127
子與丑合	-11.4127
燧	-11.4127
鏞鐘一振鐸二	-11.4127
翣	-11.4127
明朱載堉撰律吕精義内篇	-11.4127
諌	-11.4127
渭	-11.4128
㳺	-11.4128
葭灰	-11.4128
南陔白華華黍	-11.4128
沈存中	-11.4128
顔淵	-11.4128
緫	-11.4128
分母為法除之得	-11.4128
分子乘之為實以	-11.4129
黄大太夾	-11.4129
徑求周	-11.4129
當期之日	-11.4129
積一千六百二十寸	-11.4129
勻	-11.4129
戞擊鳴球搏拊琴瑟	-11.4129
令奏鐘鼓	-11.4129
敦	-11.4129
分母也分字已下	-11.4129
舞應鐘歌鐘應鐘編鐘	-11.4129
朱子語類	-11.413
刋	-11.413
劍	-11.413
懲	-11.413
去古未逺	-11.413
舞大夏以祭山川	-11.413
肅肅	-11.4131
无	-11.4131
七百一十萬	-11.4131
六千七百八十一	-11.4131
畯	-11.4131
古樂之𤼵	-11.4131
不比於正音	-11.4131
侃	-11.4131
滔	-11.4131
槃	-11.4131
鎛鐘夷則特磬	-11.4131
特磬夾鐘歌舞	-11.4131
喬	-11.4132
平上去入	-11.4132
應四絃散聲	-11.4132
五降之後不容彈	-11.4132
活	-11.4132
賓牟賈	-11.4132
夷則歌舞夾鐘歌	-11.4132
足應正	-11.4132
一萬九千六百八十三為一寸	-11.4132
申六千五百六十一	-11.4132
塤姑洗瑟姑洗	-11.4133
孤卿大夫	-11.4133
臻	-11.4133
園	-11.4133
吹上字按十一徽定	-11.4133
阻	-11.4133
桴	-11.4133
勁	-11.4133
剥	-11.4133
嬖	-11.4133
嗇	-11.4134
以禮人鬼	-11.4134
林鐘笙林鐘笙	-11.4134
讙	-11.4134
有以召之	-11.4134
先鼓以警戒	-11.4134
簨簴	-11.4134
俞	-11.4134
韶箾	-11.4134
隋文帝	-11.4134
覲	-11.4135
尚書大傳	-11.4135
編鍾編磬	-11.4135
林變南變	-11.4135
量侯道	-11.4135
宫生徴徴生商商生羽羽生角	-11.4135
應田縣鼓	-11.4135
下管新宫	-11.4135
太史公律書	-11.4135
扺	-11.4135
干戚羽旄	-11.4135
鄭世子	-11.4135
馬融	-11.4136
脊	-11.4136
辟雍	-11.4136
飽	-11.4136
是為律本	-11.4136
車鄰	-11.4136
莫大於	-11.4136
第十三弦	-11.4137
扁	-11.4137
聊	-11.4137
㣲二纎	-11.4137
參天兩地	-11.4137
筌蹄	-11.4137
下管鼗鼓	-11.4138
俗呼越調	-11.4138
總而言之	-11.4138
煖	-11.4138
麋	-11.4138
恬	-11.4139
汾	-11.4139
𦵏	-11.4139
翰林院檢討毛竒齡撰	-11.4139
少宫少商	-11.4139
揺	-11.4139
煙	-11.4139
掌六樂聲音之節與其和	-11.414
九㲈之舞	-11.414
為一連事由	-11.414
坎坎	-11.414
鬼享	-11.414
洩	-11.414
鄒	-11.4141
愚案	-11.4141
荘	-11.4141
槌	-11.4141
拾	-11.4141
治亂以相	-11.4142
蕤姑大應	-11.4142
杞	-11.4142
别是一	-11.4142
顓頊	-11.4142
劉歆班固	-11.4142
自黄鍾至	-11.4142
六千五百六十一毫	-11.4142
偹	-11.4143
魄	-11.4143
振旅	-11.4143
宸	-11.4144
相續為用	-11.4144
苗	-11.4145
法置夾鍾之率	-11.4145
組	-11.4145
晰	-11.4145
渝	-11.4146
饒	-11.4146
虞舜	-11.4146
吁	-11.4146
黼	-11.4146
晉平公	-11.4146
圜其外	-11.4146
禮由隂作	-11.4147
銜	-11.4147
澗	-11.4147
塤簫管	-11.4147
浩	-11.4148
十二筒	-11.4148
村	-11.4148
霞	-11.4148
温柔	-11.4148
無筭樂	-11.4149
宋祁	-11.4149
藩	-11.4149
俗呼正宫	-11.4149
就席	-11.4149
衫	-11.415
邈	-11.415
盥洗	-11.415
君臣之義	-11.4151
無射四寸八分八釐四毫八絲	-11.4151
坐取爵	-11.4151
腎	-11.4152
姑洗為宫始羽終	-11.4153
小石調	-11.4153
故其宫音在第	-11.4153
陳暘樂書	-11.4154
者莫如	-11.4154
湖	-11.4154
朋來	-11.4154
困	-11.4154
筐	-11.4155
升歌鹿鳴	-11.4155
威儀	-11.4155
樂府雜録	-11.4156
禮樂䟽	-11.4156
絫黍	-11.4156
乗輿	-11.4156
鐵斛	-11.4156
針	-11.4157
白雪	-11.4161
鄉射之禮	-11.4161
峯	-11.4161
往來	-11.4162
五聲二變之位	-11.4163
景雲	-11.4163
龜兹部	-11.4163
姑太應南	-11.4167
透	-11.4167
臣嘗考	-11.4169
聖訓	-11.417
杜蕢	-11.4172
五與十	-11.4175
擊刺	-11.418
俗呼中管	-11.4184
徳音之音	-11.419
翩	-11.4198
四八二	-11.4199
按上為	-11.4213
以三約	-11.4271
樂書卷一百九十	-11.4326
一九一	-11.4362
孤竹	-11.4407
律吕之本	-11.4437
樂書卷九十	-11.4439
欽定四庫全書樂書卷九十	-11.4451
樂書卷一百八十	-11.4491
樂書卷一百五十	-11.451
十有五	-11.4552
五寸七百二十九分寸之四百五十一	-11.4561
八千一百九十二	-11.4565
樂書卷一百七十	-11.4591
欽定四庫全書樂書卷八十	-11.4612
南蕤姑林	-11.4613
林角林	-11.4646
欽定四庫全書樂書卷一百四十	-11.4663
欽定四庫全書樂書卷五十	-11.4673
林商林	-11.4686
合尺勾	-11.4718
一萬九千六百八十三分八千一百九十	-11.4766
樂書卷七十	-11.4767
錯雜	-11.4775
欽定四庫全書樂書卷六十	-11.4789
五工勾	-11.4791
樂律全書卷十	-11.4809
欽定四庫全書樂書卷一百十	-11.4852
樂書卷三十	-11.4869
弦為㽔賔與第七弦散聲應按第	-11.487
欽定四庫全書樂律全書卷二十	-11.4954
二尺三寸	-11.5006
六分八釐	-11.5083
一寸五分七釐一毫三絲四忽八微四纎	-11.5108
竊觀	-11.5131
南林姑太	-11.5141
欽定四庫全書樂書卷一百九十	-11.5188
漢前志	-11.5198
四寸一分八釐	-11.5204
疋	-11.5213
引商刻羽	-11.5213
乗之滿千	-11.5214
滿千毫為釐	-11.5217
九寸四分三釐八毫七絲四忽	-11.5218
臣逸臣瑗謹詳周禮	-11.5218
趾	-11.5219
太簇起宫大	-11.522
周徑幂積	-11.522
飫	-11.522
依法乘除得	-11.522
儼	-11.522
十斗為斛	-11.5221
寸為實三因分母	-11.5221
鋪	-11.5222
淵淵	-11.5222
冡	-11.5223
寸二分九釐	-11.5223
肘	-11.5223
每律減一寸	-11.5223
跋	-11.5224
大衍之數	-11.5224
共計三十二	-11.5224
黄林太南姑	-11.5225
剏	-11.5225
僞	-11.5225
逾	-11.5226
槐	-11.5226
契刀	-11.5227
李延年	-11.5227
顓	-11.5228
顔色	-11.5228
應夷蕤夾大應夷蕤夾	-11.5228
其牴牾者	-11.5228
㢘	-11.5229
蘓	-11.5229
長尺圍寸	-11.5229
變宫無角	-11.5229
歇	-11.5229
變徴夷變宫	-11.5229
挈	-11.523
周求徑	-11.523
中士二人下士四人	-11.523
以致鬼神示	-11.523
濮	-11.523
其長三寸九分而吹之以為黄鍾之宫	-11.523
十合為升	-11.523
起宫南變徴南變宫南角南羽南商	-11.523
霆	-11.5231
龍齦散聲	-11.5231
剋	-11.5231
咽不出	-11.5231
七百四十九	-11.5231
此以所約黄鍾之法而約	-11.5231
以其一為之厚	-11.5232
度律均鐘	-11.5232
建武銅尺	-11.5232
捷	-11.5232
俘	-11.5232
比漢前尺一尺	-11.5232
夘二十七分十六	-11.5232
䖍	-11.5232
菁菁者莪	-11.5233
翬	-11.5233
釐二十四毫	-11.5233
變宫而一均七聲偹矣此	-11.5233
詩言志歌永言	-11.5233
月令章句	-11.5233
也仰則兼	-11.5233
申六千五百六十一分四千九十六	-11.5233
稃	-11.5233
容貌得莊焉行其綴兆要其節奏	-11.5233
樂勝則流	-11.5233
貶	-11.5233
𫝑	-11.5234
行列得正焉進退得齊焉	-11.5234
而五度審矣	-11.5234
誥	-11.5234
捉	-11.5234
斑	-11.5235
倡和清濁迭相為經	-11.5235
以鐘鼓奏九夏	-11.5235
又九因至分位住	-11.5235
揉	-11.5235
穆穆	-11.5235
樅	-11.5235
量者龠合升斗斛	-11.5235
而宫音調因而九之九九八十一故黄	-11.5236
蔡邕月令章句	-11.5236
帥國子而舞	-11.5236
遂使十二律	-11.5236
夷則起宫林變徴	-11.5236
曜	-11.5236
樂則韶舞	-11.5236
邕	-11.5236
簜	-11.5236
匏竹在下	-11.5236
紗	-11.5236
五寸六分一釐二毫三絲一忽	-11.5236
六寸一分三分一	-11.5236
弦為太蔟與第三弦散聲應按第	-11.5236
歸之正度	-11.5236
登歌令奏擊拊	-11.5237
盗	-11.5237
纎凡九因八遍共得	-11.5237
儕	-11.5237
未二千一百八十七分一千二十四	-11.5237
𦂳	-11.5237
好事者	-11.5237
四寸四分三分二	-11.5237
置我鞉鼓	-11.5237
騷	-11.5237
琴姑洗篴應鐘簫應鐘簫姑洗簫姑洗簫	-11.5237
圈	-11.5237
弦為無射與十一弦散聲應按第	-11.5237
弦為姑洗與第五弦散聲應按第	-11.5238
財匱	-11.5238
郢	-11.5238
應鐘歌舞姑洗歌	-11.5238
弦為夾鍾與第四弦散聲應按第	-11.5238
豁	-11.5238
弦為林鍾與第八弦散聲應按第	-11.5238
笙應鐘笙姑洗笙姑洗笙應鐘瑟應鐘	-11.5238
普	-11.5238
揀	-11.5238
葛覃	-11.5238
推而下之	-11.5239
逺取諸物	-11.5239
小分四十	-11.5239
於四隅	-11.5239
亞獻終獻	-11.5239
八十九萬六千四百一十五	-11.5239
禮失求諸野	-11.5239
大琴謂之離	-11.5239
得其内之	-11.5239
賂	-11.5239
晷	-11.5239
皮弁素積	-11.5239
禖	-11.5239
置一而九三之	-11.5239
醴	-11.5239
隂竹之管	-11.5239
八音克諧無相奪倫神人以和	-11.5239
調属木南	-11.524
賔出奏陔	-11.524
􁅁	-11.524
朋友	-11.524
燕射帥射夫以弓矢舞	-11.524
窒	-11.524
窺	-11.524
剰	-11.524
弦為應鍾與十二弦散聲應按第	-11.524
十分其鉦間以其一為之厚	-11.524
太簇生南吕	-11.5241
兩聲之中	-11.5241
堂上堂下堂上堂下夾鐘鎛鐘	-11.5241
畜聚之臣	-11.5241
姑洗歌磬姑洗編磬應鐘	-11.5241
振之李氏	-11.5241
景表尺	-11.5241
百獸率舞	-11.5241
章則以千二百黍	-11.5241
六尺有六寸	-11.5241
叔孫通	-11.5241
漁	-11.5241
鎗	-11.5241
依新法算	-11.5242
清濁之衷	-11.5242
績	-11.5242
啓蟄	-11.5242
署	-11.5242
南吕長五寸三分	-11.5242
縱黍八十一分	-11.5242
皦	-11.5242
開元通寳	-11.5242
衿	-11.5242
殷薦之上帝以配祖考	-11.5243
凄	-11.5243
禮者天地之序	-11.5243
角數六十四	-11.5243
奏騶虞間若一	-11.5243
為合十合為升十升為斗十斗為	-11.5243
新法置姑洗之率七億九千三百七十	-11.5243
樊	-11.5243
矜	-11.5243
以進為文	-11.5243
以諧萬民	-11.5243
冷謙	-11.5243
奏永和	-11.5243
九八七六	-11.5243
鐘仲吕歌鐘	-11.5243
籥舞笙鼓	-11.5243
踐	-11.5244
神人暢	-11.5244
亦此意也	-11.5244
撼	-11.5244
熹	-11.5244
迫	-11.5244
七尺曰仞	-11.5244
綽注	-11.5244
以十億乗之以十億	-11.5244
雒	-11.5245
稻	-11.5245
矧	-11.5245
鼗皷	-11.5245
陜	-11.5245
羡	-11.5245
娛	-11.5245
不亦逺乎	-11.5246
學記曰不學操縵不能安	-11.5246
小而長則其聲舒而逺聞	-11.5246
無仲黄林太南姑應㽔大夷	-11.5246
棣	-11.5246
韓邦竒	-11.5246
晉鼓鼓金奏	-11.5246
四章章四句	-11.5246
牧野	-11.5246
淇	-11.5246
宋書律志	-11.5247
膝	-11.5247
銳	-11.5247
醢	-11.5247
歌夾夷	-11.5248
揩	-11.5248
不亦失乎	-11.5248
没	-11.5248
水盞	-11.5248
瓠	-11.5248
二千一百八十七為一分	-11.5248
披	-11.5249
徇	-11.5249
泯	-11.5249
巴渝舞	-11.5249
生聲取分	-11.525
也有以黄鍾之長均作	-11.525
為實九因一遍至寸位住得	-11.525
儀禮經傳通解	-11.525
詆	-11.525
經世大訓	-11.5251
此二律相恊	-11.5251
械	-11.5251
偕	-11.5251
裝	-11.5251
利貞	-11.5251
櫝	-11.5251
行以肆夏	-11.5251
誡	-11.5251
金聲玉振	-11.5251
徴招角招	-11.5251
丙丁	-11.5252
起宫太變徴太變宫	-11.5252
紆	-11.5252
乂	-11.5252
吕為宫始羽終	-11.5253
詭	-11.5253
少昊	-11.5253
一徽定之實音為	-11.5253
影響	-11.5253
冕而總干	-11.5253
小分八	-11.5254
制之禮義	-11.5254
屈伸	-11.5254
屯	-11.5254
訊	-11.5254
踊	-11.5254
侵	-11.5255
刄	-11.5255
沐	-11.5256
綬	-11.5256
契丹	-11.5256
廩	-11.5256
法置太蔟之率	-11.5256
訊疾以雅	-11.5256
誇	-11.5257
肥	-11.5257
遞上遞下	-11.5257
鉅	-11.5257
□􁕛□	-11.5257
凉州	-11.5257
司干掌舞器	-11.5257
溝	-11.5258
法置應鍾之率五億二千九百七十三萬	-11.5258
無按聲之位	-11.5258
鏂	-11.5258
牀	-11.5258
貪	-11.5259
不知手之舞之足之蹈之	-11.526
貉	-11.526
娶	-11.526
歌姑南	-11.526
麤	-11.526
閡	-11.526
桀	-11.5261
宋陳𤾉撰樂圖論俗部舞	-11.5261
天下大定	-11.5261
雲門咸池	-11.5261
堂上堂下堂上堂下大吕鎛鐘	-11.5261
之總名	-11.5262
革帶烏皮履	-11.5262
煎	-11.5262
肅雝	-11.5264
幡	-11.5264
不預焉	-11.5264
不可考也	-11.5265
飭	-11.5265
俳優	-11.5265
碧	-11.5266
楸	-11.5266
脾	-11.5267
雎	-11.5267
倭	-11.5267
恤	-11.5269
長七尺二寸	-11.5269
戎狄	-11.527
街	-11.5272
螺	-11.5274
俳	-11.5274
四百四十四	-11.5276
考正曰	-11.5277
紵	-11.5278
駿	-11.5278
礿	-11.5279
歌仲無	-11.528
轡	-11.5283
瓶	-11.5287
鍾之律九寸	-11.5287
駱	-11.5288
炎帝	-11.5293
盬	-11.5295
毫奇舊在	-11.5296
釐六百六十	-11.5304
無射長五寸	-11.5309
冬日至	-11.5335
百已上開	-11.5354
十纎	-11.5394
九微九纎	-11.541
所不及而	-11.546
千已上開	-11.5466
欽定四庫全書樂律全書卷三十	-11.5486
庣旁九釐五毫	-11.56
樂律全書卷三十	-11.5604
一合尺工	-11.5703
欽定四庫全書樂書卷一百二十	-11.5727
以六律六同五聲八音六舞大合樂	-11.5821
容十斗	-11.589
寸三分七釐	-11.5998
欽定四庫全書樂書卷一百八十	-11.6077
弦為夷則與第九弦散聲應按第	-11.6112
欽定四庫全書樂書卷一百六十	-11.6132
欽定四庫全書樂書卷一百五十	-11.6245
下管象武	-11.6315
億六千七百四十一萬九千九百二十七	-11.6374
夷蕤夾大	-11.638
工五凡工	-11.6401
十六兩為斤	-11.6409
八十九萬八千七百一十八	-11.6438
天神皆降	-11.644
正應正和正應	-11.6446
合龠為合	-11.6447
六千五百六十一為一寸	-11.6452
右五鐘皆應	-11.6453
人可罷	-11.6453
嵩	-11.6456
鳧	-11.6458
三寸六分六釐	-11.6459
滿千釐為分	-11.6461
九二八三	-11.6462
文始五行之舞	-11.6463
句股求弦	-11.6464
閼	-11.6465
千一百八十七	-11.6465
奮厲	-11.6465
五九九二	-11.6467
一四二一三五六二三	-11.6467
二千二百三十六除之	-11.6468
由低而髙	-11.6468
變宫大角	-11.6469
容一千二百黍	-11.6469
頼	-11.647
屏	-11.6471
寸納分子之	-11.6471
滴	-11.6471
迭相為經	-11.6472
司中司命	-11.6472
六八一七	-11.6473
龢	-11.6473
唐開元禮	-11.6473
對用童男二人象教	-11.6473
杜䕫	-11.6474
脫	-11.6474
萬事根本	-11.6474
律學新説	-11.6475
􁄊	-11.6475
黃鐘笙林鐘笙太簇笙南吕笙黃鐘	-11.6475
左延年	-11.6475
逸瑗	-11.6475
黃鐘簫林鐘簫	-11.6475
簨	-11.6475
黍之重為今之二錢	-11.6476
調按十一徽彈第	-11.6476
奏皇夏	-11.6476
乃命上商除實數	-11.6476
教皇舞帥而舞旱暵之事	-11.6477
聶崇義三禮圖	-11.6477
宋陳暘撰周禮訓義	-11.6478
律歴志	-11.6478
鐘編磬林鐘編磬太簇編磬南吕編磬	-11.6478
三十斤為鈞	-11.6479
掦	-11.6479
太簇塤南吕	-11.6479
篴林鐘篴太簇篴南吕篴	-11.6479
鐘編鐘林鐘編鐘太簇編鐘南吕編鐘	-11.6479
絲竹匏土	-11.6479
設而不作	-11.6479
一曰姑洗玉律二曰小吕玉律三	-11.6479
北鄙之音	-11.6479
教國子小舞	-11.648
蔟為商姑洗為角林鍾為	-11.648
大祭祀宿縣	-11.648
當位自得	-11.648
黃鐘起宫應變徴應變宫	-11.648
俄	-11.6481
埒	-11.6481
九德之歌	-11.6481
聆	-11.6481
愧	-11.6481
一一八六五四七五	-11.6482
微清比	-11.6482
乾之初九	-11.6482
歌太林	-11.6482
熊氏云	-11.6482
荀朂笛譜	-11.6482
術曰以下生者倍其實三其法	-11.6482
為商之次故用子聲為角	-11.6482
夾鐘歌無射	-11.6482
磬無射歌磬	-11.6482
數内約以	-11.6482
左丘明	-11.6482
以開元錢之徑為	-11.6482
鐘歌磬林鐘歌磬太簇歌磬南吕歌磬	-11.6483
二音之間比	-11.6483
午得七百二十九又參之	-11.6483
已得二百四十三又參之	-11.6483
鐘琴林鐘琴太簇琴南吕琴	-11.6483
未得二千一百八十七又參之	-11.6483
箴	-11.6483
筰	-11.6483
朱干玉戚以舞大武	-11.6483
鐘歌林鐘歌太簇歌南吕歌	-11.6483
鐘歌鐘林鐘歌鐘太簇歌鐘南吕歌鐘	-11.6483
瑟林鐘瑟太簇瑟南吕瑟	-11.6483
亦皆黄鍾本數也	-11.6483
共為九寸約以	-11.6483
非人力	-11.6484
籌	-11.6484
鼖鼓維鏞	-11.6484
禡	-11.6484
籥師掌教國子舞羽龡籥	-11.6484
輪扇	-11.6484
後周玉尺	-11.6484
帽	-11.6484
上而以土埋之上平	-11.6484
冶	-11.6485
憚	-11.6485
虎賁	-11.6485
璧羨	-11.6485
無射塤仲吕	-11.6485
般涉	-11.6486
之數七十六主十二月下生夷則	-11.6486
林鐘起宫㽔變	-11.6486
芝	-11.6486
瑕	-11.6486
以金錞和鼓	-11.6486
摠	-11.6486
懌	-11.6486
蔈	-11.6486
商之次故還用正聲為角	-11.6486
九微八纎	-11.6486
瑣	-11.6486
桑間濮上	-11.6486
隐	-11.6486
既不可行當有以通之	-11.6486
下管擊應鼓	-11.6486
四百八十七	-11.6486
微又九因至纎位住得	-11.6486
虗	-11.6486
四寸三分八釐五毫	-11.6486
黄鐘笙林鐘笙太簇笙南吕笙黄鐘	-11.6486
夫律以空圍之同故	-11.6487
餘數以分法二千一百八十七除之得	-11.6487
八萬七千三百八十一小分二百	-11.6487
南吕歌鐘南吕編鐘太簇歌鐘太簇編鐘	-11.6487
姑洗之數六十四主三月下生應	-11.6487
寅與亥合	-11.6487
悔	-11.6487
羮	-11.6487
禽獸	-11.6487
迎送神	-11.6487
其所異者特	-11.6487
綜	-11.6487
笙南吕笙太簇笙太簇笙南吕瑟南吕	-11.6487
百度得數而有常	-11.6487
分又九因	-11.6487
路鼓路鼗	-11.6487
闇	-11.6487
南吕琴南吕篴太簇	-11.6487
黄南林仲太黄南林仲	-11.6487
三分所生去其一分以下生	-11.6488
南吕歌舞太簇歌	-11.6488
綿	-11.6488
屨	-11.6488
二分二釐四毫	-11.6488
夙夜	-11.6488
樂出於虚	-11.6488
突	-11.6488
金石以動之絲竹以行之	-11.6488
呂氏春秋	-11.6488
帥瞽登歌令奏擊拊	-11.6488
司巫	-11.6488
路鼔路鼗	-11.6488
以副十二月十二各以三成故置	-11.6488
六忽七微八纎	-11.6488
三分所生益之一分以上生	-11.6489
無算樂	-11.6489
飄	-11.6489
由是第之	-11.6489
羽徴角商	-11.6489
頤	-11.6489
十分其銑去二以為鉦	-11.6489
十一萬八千九十八	-11.6489
凡小祭祀小樂事鼓	-11.649
查	-11.649
摝	-11.649
裹	-11.649
銘曰重	-11.649
去二分以為舞廣	-11.649
吹之以為黄鐘之宫	-11.649
舞林鐘歌鐘林鐘編鐘	-11.649
大吕為角則南吕為宫太	-11.649
扇	-11.649
摭	-11.649
策	-11.649
擊頌磬笙磬	-11.649
訥	-11.649
之為釐法三三之為毫法一三之為絲法	-11.649
矇	-11.649
羗	-11.6491
大胥掌學士之版以待致諸子	-11.6491
歌鹿鳴三終	-11.6491
皆可以生之	-11.6491
十二銖則是累九十黍以	-11.6491
鹿鳴四牡皇皇者華	-11.6491
上仲宫中聲之宫聲髙於羽	-11.6491
六寸二分九釐九毫六絲	-11.6491
主以樂教	-11.6491
衎	-11.6491
三分五釐三毫五絲五忽三微三纎九塵	-11.6491
三忽五微五纎	-11.6491
仲吕琴仲吕篴無射	-11.6491
大樂與天地同和	-11.6492
奏無射歌夾鐘舞大武以享先祖	-11.6492
貎	-11.6492
食嘗無樂	-11.6492
紀之以三平之以六	-11.6492
馴	-11.6492
八尺曰仞	-11.6492
清角清徵	-11.6492
倕	-11.6492
無射歌磬無射編磬仲吕	-11.6492
長六寸一萬九千六百八十三分寸之	-11.6492
黃鐘簫黃鐘簫	-11.6492
釐八毫五絲	-11.6492
吹曰含少	-11.6492
雷出地奮	-11.6492
律以之生五聲二變上下	-11.6492
黃鐘歌磬黃鐘編磬	-11.6493
黃鐘笙黃鐘笙	-11.6493
賾	-11.6493
舜彈五絃之琴	-11.6493
鐘律通考	-11.6493
黃鐘歌鐘黃鐘編鐘	-11.6493
乍	-11.6493
勤而不怨	-11.6493
髀	-11.6493
一分九釐一釐九毫一毫九絲以之生十	-11.6493
硬	-11.6493
春秋教以禮樂冬夏教以詩書	-11.6493
髙漸離	-11.6493
塲	-11.6494
碩	-11.6494
匡	-11.6494
六微七纎	-11.6494
特縣之磬	-11.6494
縣一鍾而尚拊大戴禮曰縣一磬而尚拊	-11.6494
羽數四十八	-11.6494
大胥小胥	-11.6494
廞其樂器	-11.6494
百物不失	-11.6495
空積忽㣲	-11.6495
舞干羽于兩階	-11.6495
肖	-11.6495
直已而陳	-11.6495
愆	-11.6495
相求之率	-11.6495
以六樂之㑹正舞位	-11.6495
朱子琴律説	-11.6495
改煎金錫則不耗不耗然後權之權之	-11.6495
着	-11.6495
淆入宫音	-11.6495
樂律全書	-11.6496
蝕	-11.6496
武奏大武	-11.6496
林鐘瑟林鐘	-11.6496
所以教諸侯之	-11.6497
聲中無字	-11.6497
覃	-11.6497
蘩	-11.6497
臣恐未合	-11.6498
以身為度	-11.6498
獄	-11.6498
叟	-11.6498
擁	-11.6498
蹋	-11.6498
七萬八千五百六十七分	-11.6498
月令仲春	-11.6499
咢	-11.6499
儆	-11.6499
天尊地卑	-11.6499
獶雜子女不知父子	-11.6499
千一百八十七得一萬九千六百八十三	-11.65
恍	-11.65
無所經見	-11.65
古之神瞽考中聲而量之以制度律均鍾	-11.65
橫	-11.65
舂牘應雅	-11.65
字中有聲	-11.65
耆	-11.6501
瑶	-11.6501
偉	-11.6501
觴	-11.6501
粗以厲	-11.6501
授舞者兵	-11.6501
濓	-11.6501
神室奏	-11.6502
蒐	-11.6502
跋膝	-11.6503
寵	-11.6503
錢徑八分	-11.6503
妓	-11.6503
分八十釐	-11.6503
鉛	-11.6503
梧	-11.6504
箹	-11.6504
陽六為律	-11.6504
鋒	-11.6505
勘	-11.6506
渺	-11.6506
非周制也	-11.6506
㽔賔起宫仲變徴仲變	-11.6506
嫁	-11.6506
惰	-11.6506
耕藉	-11.6507
蹻	-11.6507
皎	-11.6507
誓	-11.6507
散聲生九徽	-11.6507
孝子相戒以養	-11.6508
哇	-11.6508
徃徃	-11.6508
終而復始	-11.6508
解曰此黄鐘	-11.6508
彛	-11.6509
武亂皆坐	-11.6509
填	-11.6509
歇指調	-11.6509
苻	-11.6509
靡曼	-11.6509
柈	-11.651
帷	-11.651
甕	-11.651
貼	-11.651
朱載堉樂律全書	-11.651
為某調	-11.651
鄴	-11.6512
嗟嘆	-11.6512
靴	-11.6512
跳	-11.6514
場	-11.6515
山海經	-11.6515
盥	-11.6515
也一寸九分	-11.6516
止用五正聲	-11.6516
狐	-11.6518
弦歌干揚	-11.6518
鬭	-11.6518
掖	-11.6519
虵	-11.6519
槁	-11.6519
遐	-11.652
填詞	-11.652
膺	-11.6521
瞋	-11.6522
凡尺上一	-11.6523
顔師古	-11.6529
咨	-11.6531
舊注曰	-11.6531
婚	-11.6538
一字一彈	-11.6542
渾脫	-11.6545
祁	-11.655
騑	-11.6555
自古有之	-11.6557
三百四十七	-11.6562
黄鍾寸分釐毫絲之	-11.6562
以義起	-11.6562
升歌清廟下管象	-11.6656
六凡工尺凡	-11.6693
南林仲太	-11.6714
欽定四庫全書樂書卷一百七十	-11.6715
與律相	-11.6811
吕為之合	-11.6849
大予樂官	-11.6942
法置林鍾之率六億六千七百四十一萬	-11.6966
尺有二寸	-11.7089
釐有奇少	-11.7246
鍾長四寸二分	-11.7538
夷夾無仲黄林太南姑應㽔大	-11.7568
黍之廣積	-11.759
置仲吕為實以	-11.7593
酣	-11.7624
置無射為實以	-11.7653
前第一孔	-11.7665
徽定之實音為太蔟散聲即南吕	-11.7756
日至於澤中之方丘奏之若樂八	-11.7835
徴清為一調	-11.7858
番	-11.7861
央	-11.7871
四釐六毫一絲六忽	-11.7884
愽	-11.7885
箋	-11.7888
三三三七	-11.7889
可得而禮矣	-11.789
復還其始	-11.7894
恊律郎	-11.7894
鎛師掌金奏之	-11.7894
鑠	-11.7895
寗	-11.7895
牖	-11.7896
袪	-11.7896
賚	-11.7897
三千八百四十	-11.7897
這	-11.7898
六百六十六	-11.7899
現	-11.7899
邢	-11.7899
不知奚據而云	-11.79
磬筦將將	-11.79
進一位命作立方積	-11.79
大吕起宫黃變徴黃變宫	-11.79
柲	-11.7901
敘	-11.7901
以貍首為節	-11.7902
於實第七位	-11.7902
周而復始	-11.7902
鐘為角太簇為徴姑洗為羽	-11.7902
律吕闡㣲卷	-11.7902
笙大吕笙姑洗瑟應鐘瑟㽔	-11.7903
歌磬大吕歌磬姑洗笙應鐘笙㽔	-11.7903
其文足論而不息	-11.7903
欽定四庫全書律吕闡㣲卷	-11.7903
宫秋丁	-11.7903
韓詩外傳	-11.7903
仰瞻囘顧第	-11.7903
磬夷則笙夾鐘笙無射笙仲吕笙夷則	-11.7904
瑟大吕瑟姑洗琴應鐘琴㽔	-11.7904
二王之後	-11.7904
琴大吕琴姑洗簫應鐘簫㽔	-11.7904
不必親相與言也以禮樂相示而已	-11.7904
狎	-11.7905
讖	-11.7905
入門而金作	-11.7905
豳雅豳頌	-11.7905
廵狩	-11.7906
其四字放	-11.7906
琴仲吕琴夷則簫夾鐘簫無射簫仲吕簫	-11.7906
弧	-11.7906
尺長四分半所校古法有七	-11.7906
鐘夾鐘歌鐘	-11.7906
紳	-11.7906
朒	-11.7907
磬夾鐘歌	-11.7907
十一萬六千五百	-11.7907
姑洗歌鐘應鐘歌鐘㽔	-11.7908
柞	-11.7908
十五毫九十	-11.7908
顔淵問為邦	-11.7908
攙	-11.7908
溯	-11.7908
琨	-11.7908
五郊迎氣	-11.7908
望臬五曰銅斛六曰古錢七曰建武	-11.7908
與天地之氣相應	-11.7908
跗	-11.7908
幢	-11.7909
為徴羽宫商角	-11.7909
攢	-11.7909
膳	-11.7909
姑洗編鐘應鐘編鐘	-11.7909
萬舞有奕	-11.7909
瓜	-11.7909
爪	-11.7909
酧	-11.7909
大司成	-11.7909
萬九千六百八十三為一寸則得寸者	-11.7909
五聲六律十二管還相為宫	-11.791
以二十七為一毫則得毫者	-11.791
奏黄鐘歌大呂	-11.791
編鐘大吕編鐘姑洗編磬應鐘編磬	-11.791
僚	-11.791
知聲而不知音	-11.791
六百一十八為仲吕之	-11.791
南吕長五寸三分寸之一	-11.791
幕	-11.791
七忽一微一纎	-11.791
璜	-11.7911
中春晝	-11.7911
以三為一絲則得絲者	-11.7911
黄仲無夾夷大㽔應姑南	-11.7911
萬四千九百七十六	-11.7911
槽	-11.7911
俗呼中管仙吕	-11.7911
舞師掌教兵舞帥而舞山川之祭祀	-11.7911
四十八以為羽三分益一六十四以為角	-11.7911
金聲而玉振之	-11.7911
笙大吕笙姑洗塤應鐘	-11.7911
編磬大吕編磬姑洗笙應鐘笙	-11.7911
下生者三分去一上生者三分益一	-11.7911
又參之於辰得八十一又參之	-11.7911
箇一千四百五十八為林鐘之	-11.7911
篴大吕篴姑洗簫應鐘簫	-11.7911
詰	-11.7912
予欲聞六律五聲八音	-11.7912
一千九百四十四	-11.7912
三分去一五十四以為	-11.7912
或還或否	-11.7912
鐘無射編鐘仲吕	-11.7912
夷則編鐘夾鐘	-11.7912
昻	-11.7912
八百二十為夾鐘之	-11.7912
四開以合九九	-11.7912
殽	-11.7912
八風從律而不姦	-11.7912
囚	-11.7912
天子將出	-11.7912
百世之下欲求	-11.7912
空圍中廣九分	-11.7912
聲成文謂之音	-11.7912
十七萬四千七百六十二	-11.7912
夷則編磬夾鐘	-11.7912
磬無射編磬仲吕	-11.7913
莽歆	-11.7913
移風易俗莫善於樂	-11.7913
篴仲吕篴夷則簫夾鐘簫無射簫仲吕簫	-11.7913
大師掌六律六同以合隂陽之聲	-11.7913
觜	-11.7913
賓之初筵	-11.7913
鼓人掌教六鼓四金之音聲以節聲樂	-11.7913
入月其氣即應或至中下旬間氣始應	-11.7913
又參之於戌得五萬九千	-11.7913
八音以土為主	-11.7914
液	-11.7914
之商大呂之商	-11.7914
夷則之數五十一主七月上生夾	-11.7914
夷則篴夾鐘	-11.7914
角又九分角之一而餘八分得	-11.7914
於實第八位	-11.7914
禆	-11.7914
殊不思	-11.7914
九平方分	-11.7914
性術之變盡於此矣	-11.7914
舉而措之	-11.7914
不甚相逺	-11.7914
迭以吹則中聲可得淺深以列則中氣可	-11.7914
於義或然	-11.7915
卵	-11.7915
溫	-11.7915
在清濁之間	-11.7915
殖	-11.7915
有凶豐地有肥瘠種有長短	-11.7915
坐取觶	-11.7915
徃而不返	-11.7915
大無夷仲夾大無夷仲夾大無	-11.7915
自首至尾	-11.7915
祕	-11.7915
匏竹利制	-11.7915
共為一終	-11.7915
此聲氣之元五音之正也	-11.7915
瘠之異取黍大小未必得中	-11.7915
量定不徒然正以時有水旱之差地有肥	-11.7915
載道而與之俱	-11.7916
徽至四徽	-11.7916
傲	-11.7916
九之法分之則有終不可得而齊者	-11.7916
太簇瑟太簇	-11.7916
箇一千二百九十六為南吕之	-11.7916
笙夾鐘笙無射笙仲吕笙夷則塤夾鐘	-11.7916
祀青帝	-11.7916
大琴大瑟中琴小瑟四代之樂器也	-11.7916
棗	-11.7916
誦夏弦大師詔之瞽宗	-11.7916
朱襄氏	-11.7916
躁	-11.7916
之下指其大者以明凡例也一三之而	-11.7916
孔緩為	-11.7916
宋氏尺	-11.7916
猷	-11.7916
新法置黄鍾之率十億	-11.7916
嶰谷之竹	-11.7916
竹長三寸九分吹之	-11.7917
之差則法於此而遂變不以約十	-11.7917
應鐘生㽔賔	-11.7917
餘數又以釐法二百四十三除之得	-11.7917
為實以分法二千一百八十七除之得	-11.7917
内黙具律寸分釐毫絲之法而又於此律	-11.7917
徽應七絃散聲	-11.7917
六分其金而錫居一	-11.7917
從其方位加律其上以葭莩灰抑其内端	-11.7917
一寸二分四釐七毫	-11.7917
太簇為角姑洗為徴南吕為羽	-11.7917
而當一粟十二粟而當一寸	-11.7917
分故其實總得此數又以	-11.7917
引舞持帗者左班一人云第	-11.7917
七八五三九八	-11.7917
不學博依不能安詩	-11.7917
金石絲竹匏土革木	-11.7917
琴太簇篴南吕簫南吕簫太簇簫太簇簫	-11.7917
眼	-11.7918
狗	-11.7918
窪	-11.7918
一磬而尚拊	-11.7918
樂律管見	-11.7918
盡於此矣	-11.7918
觵	-11.7918
趙耶利	-11.7918
鯨	-11.7918
一尺一寸二分二釐四毫	-11.7918
分八十二釐	-11.7918
垣	-11.7918
竭青氣次之然後可鑄	-11.7918
三分二釐四毫二絲	-11.7918
卒食以樂徹于造	-11.7918
大數立焉	-11.7918
短則聲清而	-11.7918
聽軍聲	-11.7918
正聲調法	-11.7918
之所由起也	-11.7918
惟審度章云一黍之廣度之九十分黄	-11.7918
是圍十分三釐八毫徑三分四釐六毫也	-11.7918
亦何異此	-11.7918
朱干玉戚以舞大武八佾以舞大夏	-11.7918
恢	-11.7918
細鈞有鐘無鎛昭其大也	-11.7918
九十黍容千二百黍則空圍當有九方分	-11.7919
斟酌	-11.7919
姑洗生應鐘	-11.7919
嘉量章則以千二百黍實其龠謹	-11.7919
赫赫	-11.7919
武始而北出再成而滅商	-11.7919
以其鉦為之銑間	-11.7919
司戈盾	-11.7919
樂具入奏	-11.7919
緝	-11.7919
夾振之而駟伐盛威於中國	-11.7919
書大傳	-11.7919
鞮鞻	-11.7919
通禮義纂曰	-11.792
為長積千二百黍以為廣可見也夫	-11.792
無夷蕤夾大無夷蕤夾大無夷	-11.792
田術三分益一得	-11.792
鐘笙夾鐘笙夷則笙夷則笙夾鐘瑟夾鐘	-11.792
天子所以享元侯	-11.792
樂通倫理	-11.792
師曠之聰	-11.792
膏	-11.792
寸之尺起度則	-11.792
不為他律役	-11.792
五子之歌	-11.792
彞	-11.792
胡笳十八拍	-11.792
夷則歌鐘夷則編鐘	-11.792
琴夷則篴夾鐘簫夾鐘簫夷則簫夷則簫	-11.792
鐘夾鐘編鐘	-11.792
序故羣物皆别	-11.792
㽔賔簫㽔賔簫	-11.792
琴無射篴仲吕簫仲吕簫無射簫無射簫	-11.792
參同契合無所不通	-11.792
夾鐘歌磬夾鐘編磬夷則歌磬夷則編磬	-11.792
殫	-11.7921
燔黍捭豚	-11.7921
瓊	-11.7921
篞	-11.7921
㽔賔笙㽔賔笙	-11.7921
維清奏象舞	-11.7921
之率五億九千四百六十	-11.7921
仲吕歌鐘仲吕編鐘無射歌鐘無射編	-11.7921
孫竹之管	-11.7921
燥濕	-11.7921
篾	-11.7921
三千五百五十七	-11.7921
四十三則釐法也九其二百四十三得二	-11.7921
笙仲吕笙無射笙無射笙仲吕瑟仲吕	-11.7921
以序出入舞者	-11.7921
姚	-11.7921
嵇	-11.7921
窌	-11.7921
媧	-11.7921
芑	-11.7921
軷	-11.7921
相去一律則音節和相去二律則音節逺	-11.7921
鳳凰來儀	-11.7921
奏順和	-11.7922
大磬謂之毊	-11.7922
梢	-11.7922
另	-11.7922
嗄	-11.7922
沈約宋志	-11.7922
用俾應復也	-11.7922
黄太姑蕤林南應	-11.7922
也四十五日	-11.7922
曰此是降神之樂如黄	-11.7923
聾	-11.7923
黜	-11.7923
林鐘簫林鐘簫	-11.7923
為君商為臣角為民徴為事羽為物	-11.7923
起調畢曲為諸聲之綱至二變聲	-11.7923
金石有聲不考不鳴	-11.7923
金元曲子	-11.7923
翰	-11.7923
鼔役事	-11.7923
者鮮矣	-11.7923
清明象天	-11.7923
憂以天下	-11.7923
有聲無辭	-11.7923
林鐘上生太簇太簇下生南吕南吕	-11.7923
和故百物皆化	-11.7923
塤太簇瑟太簇箎	-11.7923
感物而動	-11.7923
裕	-11.7923
駮	-11.7923
以夾鍾為黄鍾	-11.7924
馬融長笛賦	-11.7924
亟	-11.7924
傾盃	-11.7924
西階上北面	-11.7924
進賢冠	-11.7924
三成而南四成而南國是疆五成而	-11.7924
耻	-11.7924
古者於旅也語	-11.7924
貍	-11.7924
以和軍旅以正田役	-11.7924
在齊聞韶	-11.7924
嘯	-11.7924
八毫九絲六忽四微一纎	-11.7924
謂舊鎛鐘	-11.7924
八尺一寸廣一尺八寸	-11.7925
白次之黄白之氣竭青白次之青白之氣	-11.7925
帥學士而歌徹	-11.7925
總干山立	-11.7925
不可斯須去身	-11.7925
六分其厚以其一為之深而圜之	-11.7925
合生氣之和	-11.7925
商音金也	-11.7925
所由出也	-11.7925
璣	-11.7925
然後凖之凖之然後量之	-11.7926
自諸侯出	-11.7926
鬯	-11.7926
聲依永律和聲	-11.7926
禱	-11.7926
六字孔黄鐘清為	-11.7926
摹	-11.7926
俯仰詘伸	-11.7926
五散五十徽	-11.7926
竾	-11.7926
無射所以宣布哲人之令徳示民軌儀也	-11.7926
分而為二	-11.7926
黄無林仲夾黄無林仲夾黄無	-11.7926
閎	-11.7926
圅	-11.7926
歇指角	-11.7927
韽	-11.7927
形諸動静	-11.7927
七正五清	-11.7927
王廷相	-11.7927
古人遺法	-11.7927
律吕成書	-11.7927
迴	-11.7927
為黄鍾置黄鍾半律	-11.7927
􁌹	-11.7927
徽定之實音為黄鍾散聲即林鍾六弦	-11.7927
六尺為步	-11.7927
鷄	-11.7927
洫	-11.7927
為黄鍾置黄鍾正律	-11.7928
擾	-11.7928
憶	-11.7928
西階之西頌磬東面其南	-11.7928
大琴必以大瑟配之	-11.7928
不盈寸者十之所得為分	-11.7928
為實以釐法二百四十三除之得	-11.7928
韓非子	-11.7928
糺	-11.7928
尼	-11.7928
徽定之實音為南吕散聲即姑洗四弦	-11.7929
升歌清廟下而管象	-11.7929
韓邦奇	-11.7929
憾	-11.7929
可不戒哉	-11.7929
滑	-11.7929
禜	-11.7929
大不踰宫細不過羽	-11.7929
寸四分二釐八毫	-11.7929
一變而致羽物及川澤之示	-11.793
耗	-11.793
譟	-11.793
姤	-11.7931
粉	-11.7931
靺	-11.7931
以宫聲為本	-11.7931
婆娑	-11.7931
應劭曰	-11.7931
澹	-11.7931
糊	-11.7931
凾	-11.7931
從下而上	-11.7931
再變而致臝物及山林之示	-11.7932
誄	-11.7932
聲相應故生變變成方謂之音比	-11.7932
邁	-11.7932
湎	-11.7932
滕	-11.7932
揷	-11.7932
滌蕩其聲	-11.7932
興於詩	-11.7933
有所傳聞然	-11.7933
非人之所能為	-11.7933
魂	-11.7933
泄	-11.7933
褾	-11.7933
鑚	-11.7934
其臋一寸其實一豆	-11.7934
叛	-11.7934
浹	-11.7934
樂其所自成	-11.7934
織	-11.7934
甚盛之舉	-11.7935
罔	-11.7935
大吕太蔟夾鍾姑洗仲吕	-11.7935
法置仲吕之率	-11.7935
受酬者	-11.7935
先王之樂所以節百事也故有五節	-11.7935
鏞鐘一振鐸二再作	-11.7935
調也其起調畢曲之律	-11.7936
耀	-11.7936
潘	-11.7936
腐	-11.7937
五章章四句	-11.7937
窮本知變	-11.7937
言而履之	-11.7937
姑洗長七寸九分	-11.7938
六七八九十	-11.7938
流入于南不歸于北	-11.7938
鵲	-11.7938
染	-11.7939
吞	-11.7939
菽	-11.7939
梅	-11.7939
尖	-11.794
侔	-11.794
絲為一毫	-11.7941
犍為郡	-11.7941
天球在東序	-11.7941
沼	-11.7941
躋	-11.7942
天生自然	-11.7942
課	-11.7942
明朱載堉撰律吕精義外篇	-11.7942
墮	-11.7943
貝	-11.7943
天寳中	-11.7944
捲	-11.7944
邀	-11.7945
繁遏渠	-11.7947
娥	-11.7947
涂	-11.7947
分三百三十	-11.7948
掆	-11.7948
拗	-11.7949
蘋	-11.7949
樂其所自生	-11.7951
魁	-11.7951
彖	-11.7953
觝	-11.7954
鵰	-11.7954
歧	-11.7956
竇儼	-11.7957
樂記曰樂者非謂	-11.7959
檐	-11.7964
娘	-11.7971
能與於此	-11.8011
大呂下生夷	-11.8022
為實五億乗之六億六千七百四十一萬	-11.8053
以八十一億乗之折半退位為實	-11.8065
箇一千一百五十二為應鐘之	-11.8075
為宫則黄鍾為	-11.8428
共得二十八寸	-11.8431
凰之鳴	-11.8528
應姑南太林黄仲無夾	-11.8528
七欽定四庫全書樂書卷一百	-11.8588
釐三毫三絲	-11.861
九寸四分三釐八毫七絲四忽三微一纎	-11.8613
箇一千七百二十八為姑洗之	-11.8778
羃百六十二寸深尺積一千六百二十寸	-11.8787
柄連底	-11.8791
先主一而三之四開以合九九	-11.8814
臥	-11.9049
管長尺六孔為十二月音	-11.9111
薦脯醢	-11.9255
○○○○○○○○	-11.9442
霓	-11.9484
變徴又九分角之一而餘六分得	-11.949
箇二千一百八十七為黄鐘之	-11.9497
祭司寒	-11.9527
弼	-11.9528
暵	-11.9533
鄧	-11.954
六六七四一九九二七	-11.9543
七四五七六七六九二	-11.9546
逆數隔六	-11.9546
順數隔八	-11.9546
盡即接所	-11.9546
封泰山	-11.9547
微四十五纎	-11.9548
三五五七五	-11.9549
動天地感鬼神	-11.9552
每寸十分	-11.9553
肱	-11.9554
一三三四八三九八五四一	-11.9554
漢髙帝	-11.9555
指三節為	-11.9555
凑	-11.9556
御坐前	-11.9557
府一人史一人胥二人徒二十人	-11.9557
倍律自乗所得即是	-11.9557
三九六八五	-11.9557
六一五五一二	-11.9557
一七八一七九七四三六二	-11.9558
共得一十四寸一分四釐	-11.9558
轅	-11.9558
倍律自乗所得折半即是	-11.9559
三寸七分八釐四毫一絲四忽	-11.9559
緻	-11.956
字髙吹即	-11.9561
於實第五位	-11.9561
摦	-11.9561
盎	-11.9561
侮	-11.9561
齪	-11.9562
四四五四四九三五九	-11.9563
於第六位除實	-11.9563
九徽八徽之間	-11.9564
樂師掌國學之政	-11.9564
至位樂止	-11.9564
儻	-11.9564
鳬	-11.9564
可用為儀	-11.9565
簫大吕簫應鐘拊大吕拊	-11.9565
倍律面幂進一位即	-11.9565
分八百九十	-11.9565
之夫也故與	-11.9565
勃	-11.9566
俛	-11.9566
調也其調以	-11.9566
倍律之實積倍之即	-11.9566
萬分忽之五千六百四十五	-11.9566
親廟在東惟我子孫永	-11.9566
一分設柱為	-11.9566
五聲歌訣	-11.9566
著律吕元聲	-11.9566
已上則摩其旁	-11.9567
十九釐八十	-11.9567
趙子敬	-11.9567
孔叢子	-11.9567
駉	-11.9567
紕	-11.9568
四百九十九	-11.9568
論倫無患	-11.9568
圓周四十容方九	-11.9568
寸三分設柱為	-11.9568
夹	-11.9568
毳	-11.9569
自鶉及駟七列	-11.9569
汶	-11.9569
寸上生者四因得	-11.9569
南北之揆七同	-11.9569
正律面幂進一位即	-11.9569
眂	-11.9569
塨	-11.9569
夾鐘拊仲吕拊	-11.9569
祀黑帝	-11.9569
木代匏	-11.9569
畎	-11.9569
翩翩者鵻	-11.9569
生商變商生羽變羽生角變角生宫	-11.957
正律之實積半之即	-11.957
乃其遺法也	-11.957
禦	-11.957
君子為能知樂	-11.9571
潜	-11.9571
之數生若欲由	-11.9571
則其數有所不	-11.9571
繢	-11.9571
邱	-11.9571
吕為羽上生	-11.9571
貧	-11.9571
㓕	-11.9571
歌鐘大吕歌鐘姑洗歌磬應鐘歌磬㽔	-11.9571
律吕性情自然之變	-11.9571
嫂	-11.9571
五色成文而不亂	-11.9572
弦音不同而指法同俗呼	-11.9572
三分四釐三毫四絲八忽八微四纎	-11.9572
奠爵遂拜執爵興	-11.9572
梳	-11.9572
去吹口三分	-11.9572
陽之辰也干	-11.9572
三其九得二十七	-11.9573
三分之毎分得	-11.9573
合七十八之數	-11.9573
縱又減	-11.9573
洋	-11.9573
艾	-11.9573
仆	-11.9573
瓢	-11.9573
於實第六位	-11.9573
非宫則失其所	-11.9573
為孔則得	-11.9573
單穆公曰	-11.9573
倍律之實積	-11.9573
含黄鍾以吐幹	-11.9573
姦聲感人而	-11.9574
度之盡律	-11.9574
處作一孔吹之	-11.9574
啓中黄之少宫	-11.9574
王大明緜	-11.9574
五毫四絲三忽	-11.9574
合為十一也	-11.9574
不以律和之則其聲	-11.9574
芼	-11.9575
氣成象而	-11.9575
殷人尚聲	-11.9575
今之樂由古之樂	-11.9575
凡舞有帗舞	-11.9575
世之前之律者其亦求之於聲氣之元而	-11.9575
一釐四毫一絲六忽	-11.9575
以七百二十九歸之為	-11.9575
推厯生律	-11.9575
緐	-11.9575
未二千一百八十七分一千	-11.9575
無射之數四十五主九月上生仲吕	-11.9575
迪	-11.9576
逆氣應之	-11.9576
這便是	-11.9576
戒之用休	-11.9576
陷	-11.9576
林鍾長五寸七	-11.9576
田畯國祭蜡則龡豳頌擊土鼓以息老物	-11.9576
九絲三忽二微八纎	-11.9576
和氣應者其政平猛氣應者其	-11.9576
身形如刀	-11.9576
劉曜渾天儀土圭尺	-11.9576
箇七百二十九零	-11.9576
夤	-11.9576
前人所未發	-11.9576
簋	-11.9576
㓗	-11.9577
中和祗庸孝友	-11.9577
僭用天子	-11.9577
公輸子	-11.9577
土鼓龡豳詩以逆暑中秋夜迎寒亦如之	-11.9577
少宮少商	-11.9577
六千七百一十	-11.9577
少宫王于中央也於	-11.9577
曰西京銅望臬四曰金錯	-11.9577
箇一千九百四十四為太簇之	-11.9577
一以為鼓博	-11.9577
於實第四位	-11.9577
分三十七釐	-11.9577
易曰同聲相應	-11.9577
清右徴之徴姑洗之徴	-11.9577
於申得六千五百六十一又參之於酉得	-11.9577
一寸三分九釐九毫九絲一忽二微二纎	-11.9577
九萬二千	-11.9577
奏黄鐘歌大吕	-11.9577
葆	-11.9577
一千六百龠	-11.9577
不入牲	-11.9577
吕氏六月紀	-11.9577
律當變者有六故置一而六三之	-11.9577
言黄鍾之宫者黄鍾	-11.9577
靈鼔靈鼗	-11.9578
磬氏為磬倨句一矩有半	-11.9578
以二千一百八十七為一分則得分者	-11.9578
尺也依古尺更鑄銅律	-11.9578
祿	-11.9578
欘	-11.9578
徴之商姑洗之商	-11.9578
愼	-11.9578
懾	-11.9578
七十二以三分之不盡二筭	-11.9578
之母也故與	-11.9578
四十九又參之於亥得	-11.9578
銘八十二字	-11.9578
六絲一忽五微五纎	-11.9578
夾鐘鼗仲吕鼗	-11.9579
分寸之萬二千九百七十四	-11.9579
漢前後志	-11.9579
感動人之善心	-11.9579
法度彰禮樂著	-11.9579
五聲次第自是不足何者黄	-11.9579
清右宮之角黄鍾之角	-11.9579
簫大吕簫應鐘鼗大吕鼗	-11.9579
申六千五百六十一分四千	-11.9579
之聲皆不當位反不如和峴舊樂之	-11.9579
師中士四人下士八人	-11.9579
者皆以十二律為循環相生不知	-11.9579
搜	-11.9579
以别十二律其雄鳴為六雌鳴亦六以	-11.9579
圗宮音	-11.9579
或差造律未妙就如撼動取滿論理亦通	-11.9579
砌	-11.9579
鐘鼓樂作吹豆葉黄曲終樂止舞畢復位	-11.9579
亦非是本朝承襲皆不能覺獨胡安定以	-11.9579
八萬二千九百四十四為大吕半之實計	-11.9579
侍坐於	-11.958
下管象舞大武大合衆以事	-11.958
清右變宮之徴大呂之徴	-11.958
翅	-11.958
圍之謬其後韋昭之徒遂皆有徑三分之	-11.958
清右商之商太蔟之商	-11.958
清右商之徴太蔟之徴	-11.958
清右商之角太蔟之角	-11.958
為一分則共為八十一分約以	-11.958
為聲氣之元其管最長故以黄	-11.958
自孟康以律之長十之一	-11.958
陽生於子至午而盡到未又生出一黄鍾	-11.958
正應正和同	-11.958
牙齒舌唇	-11.958
汧	-11.958
十三舞勺成童舞象二十舞大夏	-11.958
大管謂之簥	-11.958
簸	-11.958
八尺曰尋	-11.958
右商之宮太蔟之	-11.958
右角之宮夾鍾之宮一清右角之	-11.958
斯則韶之	-11.958
清右變宮之角大呂之角	-11.958
清變宮音右變宮之宮大呂之	-11.958
直而温寛而栗剛而無虐簡而無傲	-11.958
詹卿以	-11.958
則變黄鐘為	-11.958
不相通而律竟不成唐因聲制樂雖近	-11.958
南吕之數四十八主八月上生姑洗	-11.958
所共曉	-11.958
以三參物三三如九故黄	-11.958
右徴之宮姑洗之	-11.958
商夾鍾之商	-11.958
清右角之徴夾鍾之徴	-11.958
清右角之角夾鍾之角	-11.958
五百五十五萬一千四百八十八	-11.958
以是生黄鍾小素之首以成宫	-11.958
禮運曰五聲六律十二管還相	-11.958
謂之三事六府三事謂之九功九功之	-11.958
那祀成湯	-11.9581
欽定四庫全書瑟譜卷	-11.9581
鬻	-11.9581
下續商置	-11.9581
祀先賢	-11.9581
黄姑太姑	-11.9581
所動者其灰散人及風所動者其灰聚	-11.9581
文貞公	-11.9581
淄	-11.9581
間歌三終合樂三終	-11.9581
十四雜尺	-11.9581
唐樂圖所𫝊	-11.9581
始升則陽雖	-11.9581
徴黄鍾之徴	-11.9581
支派也	-11.9581
林鐘起宮林鐘之	-11.9581
正律通長退一位即	-11.9581
此其大凡也今欲求聲氣之中而莫適	-11.9581
特未定也	-11.9581
皆以三乘	-11.9581
祓	-11.9581
九分者方分也以破徑三分之法	-11.9581
珪	-11.9581
邢雲路	-11.9581
之二八十六枚而在一簴謂之堵	-11.9581
六分為雌雄故曰十二	-11.9581
吕南吕生姑洗姑洗生應	-11.9581
播之以八音金石土革絲木匏竹	-11.9581
謂之旋旋蟲謂之幹	-11.9581
除之所得億約為寸得無射無射長	-11.9581
順先王詩書禮樂以造士	-11.9581
三梁表尺實比晉前尺一尺二分二	-11.9581
諤	-11.9582
府二人史二人胥二人徒二十人	-11.9582
寸以益上下	-11.9582
和順積中	-11.9582
其方則西	-11.9582
内收十八分為二寸	-11.9582
凡學世子及學士必時春夏學	-11.9582
夫律長則聲濁而氣先至極	-11.9582
云律九九八十一故云八寸	-11.9582
分一漢書云長九寸者九分之寸也	-11.9582
按彈内散扣外	-11.9582
故淮南太史公之書其論此也已詳特	-11.9582
正應和同	-11.9582
水火金木土穀	-11.9582
煌	-11.9582
除之所得億約為寸得夷則夷則長	-11.9582
第一弦為黄鍾	-11.9582
箇一千五百三十六為㽔賓之	-11.9582
姑洗起調姑洗畢曲	-11.9582
丘歌南山有臺笙由儀	-11.9582
天之大數不過十二	-11.9582
半徽一弦大吕為	-11.9582
黄氏樂典以	-11.9582
分八千一百九十二戌五萬九千	-11.9582
恪	-11.9582
舜命夔	-11.9583
設業設虡崇牙樹羽	-11.9583
笙師掌教龡	-11.9583
軀	-11.9583
武盡美矣未盡善也	-11.9583
皮弁素積禓而舞大夏	-11.9583
磬各以其律	-11.9583
音制度第十	-11.9583
以十有二律為之度數	-11.9583
合三分損益轉生十一律	-11.9583
黄鐘三分損一下生林鐘	-11.9583
二間夾鍾出四隙之細也	-11.9583
亦名廉法	-11.9583
大鐘十分其鼓間以其一為之厚	-11.9583
翰林學士	-11.9583
二寸一分八釐七毫一絲五忽	-11.9583
建日冬至之聲以黄	-11.9583
徳利用厚生	-11.9583
樂正崇四術立四教	-11.9583
除之所得億約為寸得夾鍾夾鍾長	-11.9583
一寸一分一釐一毫一絲一忽一微一纎	-11.9583
位子其數八十一主十一月下生林	-11.9583
而候之氣至者灰去	-11.9584
遡	-11.9584
十尺為丈十丈為引	-11.9584
孔子閒居	-11.9584
諺	-11.9584
長甬則震	-11.9584
齊桓公	-11.9584
由黄鍾以至	-11.9584
左氏所謂七音	-11.9584
移風易俗天下皆寧	-11.9584
聖經言樂	-11.9584
吕再生别名執始轉生四十八律	-11.9584
十三黍又三分黍之一	-11.9584
朞	-11.9584
通乎鬼神	-11.9584
得六十四以為角	-11.9584
􁆳	-11.9584
縈	-11.9584
非秬黍之比也秬黍積	-11.9584
三分黍之一以九十因之則一千二百也	-11.9584
床	-11.9584
雲翹育命	-11.9584
霸	-11.9584
槀	-11.9584
清右變徴之角中呂之角	-11.9584
立均出度	-11.9584
長孫紹逺	-11.9584
餘律皆放此	-11.9584
黄鍾大呂太簇夾鍾	-11.9584
上生者四其法得四寸二十分	-11.9584
京房覺其如此故	-11.9584
以十為寸法故有	-11.9584
曰夔命汝典樂	-11.9584
邳	-11.9584
除之亦得夷則是為	-11.9584
五寸二分九釐七毫三絲一忽五微四纎	-11.9584
字調之宫實	-11.9584
或置應鍾為實以	-11.9584
徴之商中呂之商	-11.9585
清右變徴之徴中呂之徴	-11.9585
上瞽四十人中瞽百人下瞽百有六十人	-11.9585
聲應相保	-11.9585
河右先生曰	-11.9585
特磬太簇歌舞南吕歌舞太簇歌鐘	-11.9585
禮樂皆得謂之有德	-11.9585
六寸六分七釐四毫一絲九忽九微二纎	-11.9585
元熊朋來撰	-11.9585
觔	-11.9585
祛	-11.9585
進旅退旅	-11.9585
右羽之宮蕤賔之宮一清右羽之	-11.9585
就置所得為實依後項乗除之	-11.9585
一忽三微三纎	-11.9585
中央之律即	-11.9585
以雅以南以籥不僭	-11.9585
弩	-11.9585
得管之寸數然後半之以為子聲之	-11.9585
是謂律娶妻	-11.9585
為堵全為肆	-11.9585
顆	-11.9585
錯亂而無倫非其本法也	-11.9586
商蕤賔之商	-11.9586
劃	-11.9586
孔頴逹	-11.9586
明朱載堉撰鄉飲詩樂譜	-11.9586
有活法	-11.9586
欽定四庫全書鐘律通考卷	-11.9586
焉而辰在析木	-11.9586
豈徒然哉	-11.9586
除之亦得林鍾是為	-11.9586
五忽九微四纎	-11.9586
奏無射歌夾鍾舞大武以享先祖	-11.9586
或置南吕為實以	-11.9586
鄭康成月令註曰凡律空圍九	-11.9586
淮南不過以數之多寡為生之上下律吕	-11.9586
一寸二分一釐一毫六絲七忽五微二纎	-11.9586
地示皆出	-11.9586
漢章帝	-11.9586
右羽之徴蕤賔之徴	-11.9586
清右羽之角蕤賔之角	-11.9586
四間林鍾和展百事俾莫不任肅純恪也	-11.9586
鍾林鍾太簇南吕姑洗	-11.9586
二十四為實十億乗	-11.9586
凡六樂皆文之以五聲播之以八音	-11.9586
四五間為	-11.9586
或置黄鍾為實以	-11.9586
棘	-11.9586
次吹四字	-11.9586
次吹尺字	-11.9586
烏夜啼	-11.9586
輸	-11.9587
五曰夷則所以詠歌九則平民無貳也	-11.9587
譌	-11.9587
於實第三位	-11.9587
第一弦第二弦散聲	-11.9587
一百八十七以九分之則為二百四十三	-11.9587
三分六釐三毫二分五釐	-11.9587
大吕歌舞㽔賓歌	-11.9587
弦為仲吕與第六弦散聲應按第	-11.9587
異器而同	-11.9587
錢樂之渾天儀尺後周	-11.9587
弦為黄鍾與第一弦散聲應按第	-11.9587
鑾	-11.9587
彫	-11.9587
君子於是語於是道古	-11.9587
大師掌六律六同以合隂陽之聲陽聲黄	-11.9587
猜	-11.9587
脆	-11.9587
裸	-11.9587
冦	-11.9587
或置夷則為實以	-11.9587
籔	-11.9587
除之亦得應鍾是為	-11.9587
塤夷則瑟夷則	-11.9587
配合為説耳未可以為	-11.9587
二十五弦盡用之	-11.9588
駢	-11.9588
之樂衆矣所待以作者在	-11.9588
寧府五聲歌訣	-11.9588
二律名為宫	-11.9588
蕤姑太應南蕤姑太應南蕤姑	-11.9588
除之亦得南吕是為	-11.9588
除之亦得大吕是為	-11.9588
除之亦得黄鍾是為	-11.9588
之率為主求	-11.9588
以八十一億乘之	-11.9588
替	-11.9588
之所取正也	-11.9588
摧	-11.9588
蜡百神	-11.9588
之數具于此矣	-11.9588
大吕簫大吕簫	-11.9588
或置林鍾為實以	-11.9588
除之亦得㽔賔是為	-11.9588
㽔賔琴㽔賔篴	-11.9588
一寸四分八釐三毫一絲五忽五微三纎	-11.9588
二分六釐四毫	-11.9588
宋陳𤾉撰論語訓義	-11.9588
而萬物生故曰一生二二生三三生萬物	-11.9588
除之所得億約為寸得應鍾應鍾長	-11.9588
零九之八	-11.9588
黃鐘琴黃鐘篴	-11.9588
吹曰舍少	-11.9588
四寸九分九釐	-11.9588
掌大師之縣	-11.9588
神瞽考中聲	-11.9588
二十七為一毫	-11.9588
于西階上少東樂正先升北面立于其西	-11.9588
除之所得億約為寸得林鍾林鍾長	-11.9588
七寸四分九釐一毫五絲三忽五微三纎	-11.9589
塤黃鐘瑟黃鐘箎	-11.9589
句三股四弦五	-11.9589
稱萬嵗	-11.9589
甸	-11.9589
籥章掌土鼓豳籥	-11.9589
慙	-11.9589
禮之初始諸飲食	-11.9589
舂牘應雅以教祴樂	-11.9589
柱崇二寸七分	-11.9589
榦	-11.9589
縞	-11.9589
音之屬總序臣謹按	-11.9589
伯氏吹壎仲氏吹篪	-11.9589
協時月正日同律度量衡	-11.9589
形而上者謂之道形而下者謂之器	-11.9589
或置㽔賔為實以	-11.9589
挽	-11.9589
茁	-11.9589
無射特磬無射特磬仲吕歌舞無射歌舞	-11.9589
禓	-11.9589
除之所得億約為寸得姑洗姑洗長	-11.9589
權衡之輕重	-11.9589
鎛鐘黃鐘特磬	-11.9589
䜿	-11.9589
以其鉦之長為之甬長	-11.9589
舞咸池以祭地示	-11.9589
厯同道	-11.9589
阮咸譏其聲	-11.9589
咽	-11.959
好樂無荒	-11.959
自是四樂各舉其一者而言之	-11.959
疫	-11.959
坤之初六	-11.959
天五地六	-11.959
棲	-11.959
祉	-11.959
已上十二條名宫	-11.959
或置大吕為實以	-11.959
櫓	-11.959
宗皇帝用大	-11.959
鎛鐘㽔賓特磬	-11.959
損一下生南吕	-11.959
道五常之行	-11.959
以其甬長為之圍	-11.959
除之亦得夾鍾是為	-11.959
九商八羽七角六宫五	-11.959
太簇笙太簇笙	-11.959
姦聲亂色	-11.959
喟	-11.9591
勤政樓	-11.9591
如牛鳴窌中	-11.9591
漢高帝	-11.9591
仲吕之實十三萬一千	-11.9591
彝	-11.9591
金石絲竹樂之器也	-11.9591
取竹之解谷生其竅厚	-11.9591
或置太蔟為實以	-11.9591
皆可旋為宫	-11.9591
除之亦得仲吕是為	-11.9591
除之亦得太蔟是為	-11.9591
之篇是也盖取	-11.9591
釐强數	-11.9591
律小大之稱比終	-11.9591
立于西階東	-11.9591
廹	-11.9591
時惟此適與度量合故可用今時則不同	-11.9591
又於下法之上置	-11.9591
清廟之瑟朱絃而䟽越	-11.9591
褶	-11.9592
陽下生隂隂上生陽	-11.9592
五聲六律十二管旋相為宫	-11.9592
四分度之一	-11.9592
大夾中夷無五	-11.9592
漚	-11.9592
莪	-11.9592
稅	-11.9592
凡和樂亦如之	-11.9592
刁	-11.9592
靈鼗孫竹之管空桑之琴瑟咸池之舞夏	-11.9592
無服之䘮	-11.9592
元間大吕助宣物也	-11.9592
初學難曉	-11.9592
除之亦得姑洗是為	-11.9592
再加一倍乃得	-11.9592
國語伶州鳩曰律所以立均出度也	-11.9592
重時秤	-11.9592
同民心出治道	-11.9592
修身及家平均天下	-11.9592
女媧之笙簧	-11.9592
或置夾鍾為實以	-11.9592
淚	-11.9592
篍	-11.9592
音則相嬗而為	-11.9592
坤之六四	-11.9593
無毫釐之差	-11.9593
九十二釐七百五十一毫	-11.9593
凡將起五音凡首	-11.9593
或置姑洗為實以	-11.9593
笙中之簧	-11.9593
一寸二分八釐三毫七絲二忽五微二纎	-11.9593
盟	-11.9593
鷙	-11.9593
毛西河	-11.9593
羽角位用吟	-11.9593
贍	-11.9593
無筭爵	-11.9594
除之亦得無射是為	-11.9594
實之以糠	-11.9594
臂	-11.9594
巡舞列而撻其怠慢者	-11.9594
鞚	-11.9594
艱	-11.9594
陌	-11.9594
恰用六律而宮之	-11.9594
菁	-11.9594
聲極長是為	-11.9594
面徑七寸	-11.9594
十徽九徽之間	-11.9595
亂世之音	-11.9595
夔教胄子	-11.9595
綵	-11.9595
一絃尚徵	-11.9595
渤	-11.9595
偃武修文	-11.9595
朽	-11.9595
而致毛物及墳衍之示五變而致介物及	-11.9595
三分七釐四毫	-11.9595
上生者四其法得	-11.9595
軹	-11.9595
何以知其音之	-11.9596
七調中六律	-11.9596
定為一錢之則	-11.9596
人所能為	-11.9596
以仲春之	-11.9596
醉而出奏	-11.9596
之宫而皆可以生之是為律本	-11.9596
卑者之子不得舞宗廟之酎	-11.9596
建徳六年	-11.9596
根數為六律	-11.9596
扃	-11.9597
牧歌等操	-11.9597
鍾髙下㢠環而	-11.9597
太姑蕤夷南應大	-11.9597
節民心	-11.9597
韗	-11.9597
七九三七	-11.9597
和邦國諧萬民	-11.9597
萋	-11.9598
墻	-11.9598
傀	-11.9598
筮	-11.9598
鎭	-11.9598
嬰	-11.9598
狸	-11.9598
祭祀舞者既陳則授舞器既舞則受之	-11.9598
摰	-11.9598
異音而同	-11.9598
興道諷誦言語	-11.9598
閟二變者	-11.9598
每音中之調	-11.9598
疉	-11.9598
謗	-11.9598
吹鐃歌	-11.9598
射人以射法治射儀王	-11.9598
挾	-11.9599
匾	-11.9599
執籥秉翟	-11.9599
林南應大太姑蕤	-11.9599
恍惚	-11.9599
于鼓鉦舞	-11.9599
㸔	-11.9599
曳	-11.9599
塑	-11.9599
禰	-11.96
徴音正遇	-11.96
鉢	-11.96
髙下廻環	-11.96
為實實如法而一得	-11.96
王射以騶虞	-11.96
祖考來格	-11.96
葱	-11.96
風雨暴露改	-11.96
夾無仲黄林太南姑應㽔大夷夾無仲黄	-11.9601
三變而致鱗物及丘陵之示	-11.9601
半律之幂折半為	-11.9601
半律之幂右	-11.9601
穅	-11.9601
黏	-11.9601
䧟	-11.9602
其耳三寸其實一升	-11.9602
感於物而動故形於聲	-11.9602
大呂夾鍾仲呂	-11.9603
一尺四寸一分四釐二毫	-11.9603
楯	-11.9603
荼	-11.9603
宮音由本音而	-11.9603
惲	-11.9603
督	-11.9603
上字在器色	-11.9603
太蔟夾鍾姑洗中呂蕤賔	-11.9603
糧	-11.9603
以中聲為本	-11.9603
上圓下方	-11.9604
羽徵角商宫	-11.9604
末以相及中聲以降五降之後不容彈矣	-11.9604
天神地祗人鬼	-11.9605
輳	-11.9605
合焉凡此宫之旋而在	-11.9605
此大武之第	-11.9605
劉歆銅斛尺	-11.9605
孳	-11.9605
簾	-11.9606
報本反始	-11.9606
逕	-11.9606
夲	-11.9606
匶	-11.9607
裁衣尺	-11.9607
賔林鍾六律遞上遞下	-11.9607
天下有道禮樂自天子出	-11.9607
燈	-11.9607
綺	-11.9607
環佩之聲	-11.9607
自始至終	-11.9608
箛	-11.9608
天下無道禮樂自諸侯出	-11.9608
醼	-11.9608
反其所自生	-11.9609
儷	-11.9609
塜	-11.9609
弦之散聲俗名	-11.9609
調復縵	-11.961
豆葉黄	-11.961
删	-11.961
調髙一律	-11.961
清隔六上生	-11.961
隋開皇中	-11.9611
千金方	-11.9611
觥	-11.9611
仲遂卒于垂壬午猶繹萬入去籥	-11.9611
遒	-11.9611
鋤	-11.9611
戮	-11.9612
二調之宫音皆在第	-11.9612
灑	-11.9613
諾	-11.9613
㧞	-11.9613
唐貞元中	-11.9613
緦	-11.9614
陽唱宫	-11.9614
○□○○□□○	-11.9614
掛	-11.9614
飜	-11.9615
成既終是名	-11.9615
古今樂律雜説	-11.9615
陽六清之首	-11.9615
為宫調聲字	-11.9615
碎	-11.9615
襠	-11.9615
其時則秋	-11.9616
攅	-11.9616
沃	-11.9617
清隔八下生	-11.9617
大太夾姑仲	-11.9619
箇一千三百六十五為夷則之	-11.9619
梵	-11.962
恵	-11.9621
寸則得寸者	-11.9621
崖	-11.9622
為之長其神則為	-11.9622
應鍾散聲即蕤賔五弦夷則為	-11.9623
此六舞第	-11.9623
鷰	-11.9626
子穀秬黍	-11.9626
牌	-11.9627
擲	-11.9627
中隔八下生	-11.9627
中隔六上生	-11.9628
自焦尾計至	-11.9631
宫俗呼為正宫	-11.9633
猨	-11.9637
槍	-11.9639
鵻	-11.9643
劔	-11.9645
生夷則夷則生夾鍾夾鍾生無射無射生	-11.9652
絃生第	-11.9666
除之所得億約為寸得大吕	-11.9674
與商商與角	-11.9687
卷一第	-11.9697
繁文簡節之音	-11.9702
呂之變宮二清右變	-11.9716
黄鍾長八寸七	-11.9758
七除四十	-11.9853
孔去吹口	-11.9877
百六十毫	-11.9934
也答第	-11.998
自絲以下雖非目力之所能分然既有其	-12.0146
又參之於寅得九又參之於夘得二十七	-12.0178
去一分下生	-12.0329
三欽定四庫全書樂書卷一百	-12.0379
之數七十二主正月下生南吕	-12.0664
七寸一分四釐三毫	-12.0752
漢大予樂	-12.085
毫六十九絲	-12.1003
十其廣之分以為長	-12.1028
陸費墀	-12.1037
變則地示皆出可得而禮矣凡樂黄	-12.1456
聲感人則其意	-12.1463
二十四銖為兩	-12.1467
分又九因一遍至釐位住得	-12.1497
五者皆亂迭相陵	-12.1509
徽為中界	-12.1527
闗雎葛覃卷耳	-12.1533
小黄令焦延	-12.1533
第一柱下按	-12.1538
五音十二律而為六十音因而六之	-12.1541
亶	-12.1544
冕而下如	-12.1545
此數起於黄鍾為宫	-12.1547
清商應七絃散聲二絃	-12.1548
奈	-12.1548
夷則徴應四絃散聲四絃夷則徴取十	-12.1549
九九六三五	-12.1549
三一四一五九二	-12.155
八九八七一八一	-12.1551
位是為夫婦	-12.1551
異位是為母子	-12.1551
淸	-12.1552
薦上帝配祖考	-12.1552
林太南姑應㽔大夷夾無仲黄林太南姑	-12.1553
九寸三分六釐四毫	-12.1553
虹	-12.1554
拳	-12.1554
摺	-12.1554
分七百八十釐	-12.1555
尺五尺為歩	-12.1556
咮	-12.1556
合敬同愛	-12.1557
四十四忽萬分忽之五千六百四十五分	-12.1557
之侈心乎	-12.1559
五二四九四七四三六五	-12.1559
諱	-12.1559
京房之六十律錢樂之	-12.156
今以周尺六尺四寸為歩	-12.156
鉉	-12.156
連近相得之音	-12.156
二四一五四六八六四	-12.156
形制于左右臣逸臣瑗	-12.156
䜟	-12.1561
撻其怠慢者	-12.1561
呼四七除二十八	-12.1561
字為領聲名	-12.1562
廸	-12.1562
三寸四分五釐	-12.1562
揚子太玄	-12.1562
歌九磬之舞於宗廟之中奏之	-12.1562
厠	-12.1562
十尺為丈	-12.1562
篁	-12.1563
鍾為宫大吕為角太蔟為徵應鍾為羽	-12.1563
鈕	-12.1563
與前律同出一孔	-12.1564
謂其聲在前後二律之間	-12.1564
一寸一分四釐三毫六絲六忽九微一纎	-12.1564
東平王蒼	-12.1564
九四三八七四三一二	-12.1565
笙鏞以間鳥獸蹌蹌	-12.1565
子寅辰午申戌	-12.1565
軻	-12.1566
乃奏夷則歌小吕舞大濩以享先妣	-12.1566
韭	-12.1566
擅	-12.1566
一寸五分二釐六毫六絲一忽五微一纎	-12.1566
底豫而天下之為父子者定	-12.1566
宴蕃使	-12.1566
三分三釐八毫四絲四忽	-12.1567
之管也以黃鐘九寸分為	-12.1567
躔	-12.1567
明則有禮樂幽則有鬼神	-12.1567
一千一百八十九	-12.1567
百丨百	-12.1567
韋表穅裏	-12.1568
已下則摩其耑	-12.1568
三絲四十七忽	-12.1568
奏仲黄林太南姑應	-12.1568
損一分下生	-12.1568
改制大樂取京縣秬黍累尺成律鑄	-12.1568
五十三釐九十四毫四十二絲四十一忽	-12.1568
喙	-12.1568
九十二釐七百五十毫	-12.1568
仁心仁聞	-12.1568
林鍾為徵太蔟為商南吕為羽姑洗為角	-12.1568
蕤賔長六寸八十一分寸之二十六	-12.1568
雷鼔雷鼗	-12.1569
者制事立法物度軌則	-12.1569
六萬五千五百三十六	-12.1569
四牡騑騑	-12.157
案畫以求	-12.157
厘七毫三絲	-12.157
忽九十六微	-12.157
韋昭國語注	-12.157
女媧氏	-12.157
樂仁而殺以時	-12.157
中者實其龠則是先得黄	-12.157
則易之以小約九十黍之長中容千二百	-12.157
黄無林仲太黄無林仲太黄無	-12.157
暈	-12.1571
閤	-12.1571
三分之每分得	-12.1571
彼華者黍彼實者	-12.1571
胸	-12.1571
百丄千	-12.1571
食以樂侑之	-12.1571
太簇簫南吕簫林鐘拊南吕拊姑洗鎛鐘	-12.1571
太簇簫南吕簫林鐘鼗南吕鼗姑洗鎛鐘	-12.1571
感人而順氣應之順氣成象而和樂興焉	-12.1572
歌止舞止	-12.1572
奠酬而工升歌	-12.1572
度之九十分黄鍾之長一	-12.1572
銑間謂之于于上謂之鼓鼓上謂之鉦	-12.1572
長尺有咫	-12.1572
荒其君驕商	-12.1572
萬三千五百六十三	-12.1572
奏也繼夷則以夾鐘	-12.1572
七十一釐四十七毫六十五絲一十九忽	-12.1572
志意得廣焉執其干戚習其俯仰詘伸	-12.1572
七千五百四十九萬七千四百七十二	-12.1572
六十六萬三千二百九十六	-12.1572
六寸上生則四其	-12.1572
加一寸以為尺	-12.1572
最為簡便	-12.1573
二十四銖為一兩	-12.1573
周三一四一五九二六五	-12.1573
㓙	-12.1573
四九八九四八七三一六四七六七二一	-12.1573
奏大夷夾無仲黄林	-12.1573
應鍾長四寸七分	-12.1573
椅桐梓漆爰伐琴瑟	-12.1573
箭	-12.1573
七六八七六六八一四九	-12.1573
十二律各自為宫以生五聲二變其黄	-12.1573
􁕍	-12.1573
一千六百二十寸	-12.1573
小分三百二十四	-12.1573
因而九之九九八十一故黄鍾之數立焉	-12.1573
不拜受爵祭飲辯有脯醢不祭	-12.1573
筋	-12.1573
臣縱衰氣應者其君暴	-12.1573
不舞不授器	-12.1573
之数具于此矣	-12.1573
之聲少下不和故有變律	-12.1573
引而伸之	-12.1574
痕	-12.1574
于上之攠謂之隧	-12.1574
一物而二名	-12.1574
之徳而其發則	-12.1574
伺	-12.1574
手舞足蹈	-12.1574
族黨聞之長	-12.1574
睢	-12.1574
竹聲不可以度調	-12.1574
降神大濩獻熟	-12.1574
髻	-12.1574
黄鐘九寸下生則倍	-12.1574
水火金木土榖	-12.1574
聲音之道與政通	-12.1574
三分損益之數往而不返	-12.1574
樂者心之動	-12.1574
王師大獻則令奏愷樂	-12.1574
七萬三千七百二十八	-12.1574
之所為也漢志不知出此乃欲加黄鍾一	-12.1574
六十零七五	-12.1574
十五萬五千三百四十四	-12.1574
小分四百三十二	-12.1574
蕪	-12.1575
五聲大小之序	-12.1575
諛	-12.1575
呼逢二進一十得一	-12.1575
九四三五九二九五二六	-12.1575
嗟彼白華瑩然如	-12.1575
律吕不易無姦物也	-12.1575
毋必之於秬黍則得之	-12.1575
管每長一分	-12.1575
麞	-12.1575
吕長五寸九分三分二	-12.1575
一分八十一為一釐九為一毫一為一絲	-12.1575
八十八釐八十八毫八十八絲八十八忽	-12.1575
甜竹最佳	-12.1575
苦竹俗呼	-12.1575
觀音竹此竹節長而厚内外皆可修治	-12.1575
分寸尺丈引也所以度長短也本起黄	-12.1575
大吕長八寸二百四十三分寸之一百	-12.1575
晉泰始十年	-12.1575
林仲太黄無林仲太黄無林仲太	-12.1575
蓄	-12.1575
閨門聞之父子莫不和親	-12.1575
六寸三分六釐三毫	-12.1576
戢	-12.1576
逵	-12.1576
大樂必易大禮必簡	-12.1576
教縵樂燕樂	-12.1576
不失圭撮	-12.1576
十七萬七千一百四十七此隂陽合徳氣	-12.1576
右臣逸臣瑗謹按	-12.1576
得古周時玉律及鐘磬與新律聲韻闇同	-12.1576
於子化生萬物者也	-12.1576
簡不帥教者以告于	-12.1576
諸侯之僭禮也	-12.1576
個二千四十八為大吕之	-12.1576
六釐七十八毫一十一絲八十六忽五	-12.1576
取羊頭山黍用三等篩子篩之取中等者	-12.1576
司馬温公	-12.1576
天下樂之故在廟朝聞之君臣莫不和敬	-12.1576
皆可以生之故曰黄鍾之宫律吕之本	-12.1576
穢	-12.1576
不學操縵不能安弦	-12.1576
仲吕之數六十主四月極不生	-12.1576
醒	-12.1576
伽	-12.1577
變律之實以一	-12.1577
一堵磬一堵謂之肆	-12.1577
庶尹允諧	-12.1577
弦而疏越	-12.1577
必和之以大故有鐘無鎛大	-12.1577
東都之亂樂律散	-12.1577
然仲吕之實一十三萬一千	-12.1577
之律固起于龍齦而為	-12.1577
律書漢前志不同雖大吕夾	-12.1577
止容九百黍積止六百七分半如此則黄	-12.1577
楨	-12.1577
釐五十九毫	-12.1577
拭	-12.1577
不行此律之所以止於十二也	-12.1577
位自得而下生於	-12.1577
燔	-12.1577
八七七四八六二五三六三三八六九九	-12.1577
德為之本以六律為之音	-12.1577
三分七厘六毫	-12.1577
六寸七分三分一	-12.1577
後世不知出此而唯尺之求	-12.1577
管實得幾粒然後推而定法可也	-12.1577
起積一千二百黍	-12.1577
以是圍九分之誤遂有徑三分之	-12.1577
五十一釐一十	-12.1578
股為二鼓為三參分其股博去	-12.1578
黄鍾生林鍾林鍾生太蔟太蔟生南	-12.1578
俻	-12.1578
相併共得二百寸	-12.1578
亂則哀其事勤羽亂則危其財匱	-12.1578
而為仲吕仲吕之	-12.1578
苴	-12.1578
叠	-12.1578
網	-12.1578
五十一釐六十七毫六十五絲四十八忽	-12.1578
檜	-12.1578
三寸八分四釐	-12.1578
上乙四六凡工	-12.1578
笙師所掌之篴	-12.1578
賔牟賈	-12.1578
賦比興	-12.1578
閨	-12.1578
入門而縣興	-12.1578
紀陽氣之初以為	-12.1578
耨	-12.1578
離婁之明	-12.1578
鵲巢采蘩采蘋	-12.1578
𤼵揚蹈厲	-12.1578
徑圍之分以十為法	-12.1578
朂乃部著作郎劉恭依周禮制尺所謂古	-12.1578
至曲成更奏	-12.1578
閻	-12.1578
六十七釐九十一毫一十六絲八十七忽	-12.1578
失傳已乆何也	-12.1578
及蔡子元于普明等以候節氣依古	-12.1578
一尺二寸五分九釐九毫二絲	-12.1578
袤十寸廣八寸	-12.1579
之尤小者也	-12.1579
節奏合而成文	-12.1579
中實葭莩之灰以輕緹素覆律口	-12.1579
稿	-12.1579
約十而為九	-12.1579
三間中吕宣中氣也	-12.1579
九三七二九八一四三三五三三	-12.1579
五寸八分二釐四毫一絲一忽三	-12.1579
者天地之全數也	-12.1579
自天子達於士降殺以兩	-12.1579
鐘吹新律命之皆應梁武	-12.1579
非人之所能為也今其律之空圍不同	-12.1579
􁆗	-12.1579
庳	-12.1579
五毫圍七分九	-12.1579
南吕為徑三分圍九分無射為徑二分八	-12.1579
皓	-12.1579
二寸八分五釐六毫五絲六初	-12.1579
孰與此哉	-12.1579
宋陳晹撰樂圖論雅部歌	-12.1579
三寸九分當為長九寸空徑三分之誤	-12.1579
岱	-12.1579
景王將鑄無射	-12.1579
脛	-12.1579
邵	-12.1579
閨門之内	-12.1579
除之所得億約為寸得仲吕仲吕長	-12.1579
于時郡國或得漢時故	-12.1579
以律管定尺乃是以天地之氣為	-12.1579
全寸約以分法則南	-12.1579
姑洗得全分約以釐法則應	-12.1579
護	-12.1579
餘四百五十一	-12.1579
弦為南呂與第十弦散聲應按第	-12.158
然所定之律不本	-12.158
所以宣養六氣九徳也	-12.158
執越内弦右手相入	-12.158
上有似於賔主故可用之宗廟賔客以安	-12.158
隂氣為主委	-12.158
兌	-12.158
黄中之色也	-12.158
恠	-12.158
答拜而樂闋	-12.158
鎛如鐘而大	-12.158
仁宗景祐三年	-12.158
以作動物	-12.158
古法律管當實千二百粒黍今羊頭	-12.158
夾大應夷蕤夾大應夷蕤夾大應	-12.158
徑長短與度而差故容黍不同	-12.158
時有秋有冬	-12.158
炊	-12.158
無有曲折之形焉所以立辨也故	-12.158
焦氏卦氣之學亦去四而為六十故其推	-12.158
特磬姑洗歌舞應鐘歌舞姑洗歌鐘	-12.158
相順若均之八音猶	-12.158
隂任陽事	-12.158
還得十七萬七千一百四十七之數	-12.158
三分六釐三毫九絲一忽三微二纎	-12.158
歌笙間合	-12.158
毫七十五絲	-12.158
葦籥伊耆氏之樂也	-12.158
今樂猶古	-12.158
搥	-12.158
乎其不合者	-12.158
以八寸之尺起度則八尺為尋倍尋為常	-12.158
子卿大夫元士之適子	-12.158
釐九十七毫	-12.158
七後魏前尺實比晉前尺一尺二寸	-12.158
使莫不任其職事速其功大敬其職	-12.158
凡國祈年于田祖龡豳雅擊土	-12.158
出四時之㣲氣	-12.158
奏姑洗歌南呂舞大㲈以祀四望	-12.158
得全釐約以毫法則大	-12.158
數十乗之而為	-12.158
有鐘無鎛	-12.158
林鍾之數五十四主六月上生太蔟	-12.158
黄南林姑太黄南林姑太黄南林	-12.158
十一月陽伏於下物始萌於	-12.1581
墟	-12.1581
與功偕	-12.1581
實曰秀南任也	-12.1581
一寸八十一為一分九為一釐一為一毫	-12.1581
内出銅律一部是萬寳常所造名水尺律	-12.1581
太樂八音不和始知	-12.1581
數不知數之自然在律	-12.1581
除之所得億約為寸得黄鍾黄鍾長	-12.1581
度之長短量之	-12.1581
等有不察耳	-12.1581
笙入堂下磬南北面立	-12.1581
嘴	-12.1581
皇言定聲録卷	-12.1581
禮减而進以進為文	-12.1581
臚	-12.1581
適饌省醴	-12.1581
六寸八分一釐一毫	-12.1581
委蛇委蛇	-12.1581
以下十一辰	-12.1581
四隙四時之間氣㣲	-12.1581
奏夷則歌小呂舞大濩以享先妣	-12.1581
娄	-12.1581
孟康不察乃謂凡律圍徑不同各以圍	-12.1581
此則古人論律以九分為寸之明驗也	-12.1581
畸贏贅虧之積亦不得為此律矣	-12.1581
絲為絃則其聲應	-12.1581
龠黄鐘之宫長九寸空圍九分容秬黍	-12.1581
轂	-12.1581
一寸一分七釐七毫一絲八忽一微二纎	-12.1582
下諸律圍徑以就黄鐘清聲	-12.1582
所由起也重十有二銖權衡之所由起也	-12.1582
林姑太黄南林姑太黄南林姑太	-12.1582
宫細不過羽夫宫音之主也第以及羽	-12.1582
勑	-12.1582
四分八釐五毫七絲六忽五微九纎	-12.1582
以生空竅厚	-12.1582
四分三釐二毫七絲六忽八微二纎	-12.1582
其風不周	-12.1582
又漢斛銘文云律嘉量方尺	-12.1582
古物之有分寸明著史籍可以酬	-12.1582
寸餘數約以	-12.1582
獨樂其志不厭其道	-12.1582
雷鼓雷鼗	-12.1582
古之神瞽考中聲而量之以制	-12.1582
黄鐘之管長九十	-12.1582
分夾而進事蚤濟也	-12.1582
益一上生姑洗三分姑洗損一下生應	-12.1582
也荆卿	-12.1582
一尺四寸九分八釐三毫	-12.1583
備舉其道不私其欲	-12.1583
合為六十聲是十二律之正聲也	-12.1583
大章章之也咸池備矣	-12.1583
易直子諒之心	-12.1583
無差異漢書食貨志云黄金方寸其重一	-12.1583
磬師掌教擊磬	-12.1583
至烏其形圓重用之	-12.1583
三分益一得八寸五萬九千	-12.1583
三十六聲而已其間陽律不用變聲而黄	-12.1583
九十六半之得四寸五萬九千	-12.1583
反人道之正	-12.1583
姑洗起調姑洗畢曲旋宫第	-12.1583
實比晉前尺一尺三分七毫	-12.1583
或多或少皆是作者旁庣其腹使有盈	-12.1583
為宫則以次圜轉	-12.1583
相生所得之律寸數半之以為子聲之律	-12.1583
磬師掌教擊磬擊編鐘	-12.1583
符㑹處多且平齊之始已用宣布今因而	-12.1583
義一義云半十二律正律為十二子聲之	-12.1583
褘	-12.1583
㽔賔歌鐘㽔賔編鐘大吕歌	-12.1583
姑洗拊姑洗鼗	-12.1583
非有意於棄之實其重分累析至於無	-12.1583
大司樂説宫角徵羽與七聲不合如何	-12.1583
一釐二十七為一毫三為一絲一為三忽	-12.1583
空煩其文而為辭費	-12.1583
適東序釋奠於先老	-12.1583
之廣度之九十分黄鐘之長一為一分	-12.1583
二十七為一寸三為一分一為三釐	-12.1583
二義云從	-12.1583
以之阮隃之下聽鳯	-12.1583
及射令奏騶虞詔諸侯以弓矢舞	-12.1583
志曰伏羲作易紀陽氣之初以為律法	-12.1583
於常疑今之大者正是其中	-12.1583
是謂吕生子	-12.1583
民相避以為尊卑	-12.1583
王出入令奏王夏	-12.1583
開皇十年萬寳常所造律	-12.1583
隂陽之聲以為樂噐	-12.1583
黄鐘起宮黄鐘之	-12.1583
徽定之實音為南吕散聲即姑洗六弦	-12.1583
三寸九分六釐八毫五絲	-12.1583
四三五九二九五二六四五六一八二五	-12.1584
汨	-12.1584
忱	-12.1584
加中管字	-12.1584
十九寸六百四十一分八百五十五釐	-12.1584
霤	-12.1584
紫宸殿	-12.1584
以六律為之音	-12.1584
壝	-12.1584
鵞	-12.1584
反情以和	-12.1584
絃羽轉為角	-12.1584
聲者不可與言音不知音者不可與言樂	-12.1584
分一千四百五十八為	-12.1584
卯二十七分十六	-12.1584
塤無射瑟無射箎	-12.1584
宋書樂志	-12.1584
明於天地然後能興禮樂	-12.1584
此尺者朂新尺也今尺者杜夔尺也	-12.1584
者一萬六千二百一合積一寸六分二釐	-12.1584
實如法得長一寸凡得九寸命曰黄鐘之	-12.1584
坤六爻	-12.1584
濱	-12.1584
以江東樂	-12.1584
伶倫自大夏之西乃之阮隃之	-12.1584
圍十分二釐八毫	-12.1584
而為無射無射之	-12.1584
誌	-12.1584
貨布重二十五銖	-12.1584
貨泉重五銖	-12.1584
躑	-12.1584
一分容十三黍又	-12.1584
分者十六萬二千一升積十六寸二分	-12.1584
佑	-12.1584
有勲勞於天下	-12.1584
八寸二百四十三分寸之一百四	-12.1584
脞	-12.1584
枯穢改柯易葉也	-12.1585
岸	-12.1585
吕宫至姑洗羽並用大吕起調大吕畢曲	-12.1585
昔黄帝令伶倫作為律	-12.1585
有合也有國故則否凡大合樂必遂養老	-12.1585
鄭樵通志	-12.1585
一寸二十七為一分三為一釐一為三毫	-12.1585
之變也管長九寸徑三分圍九分	-12.1585
吕為宫乃以去滅為商執始	-12.1585
固有不可得而紀者矣	-12.1585
正樂縣之位王宫縣諸侯軒縣	-12.1585
滿尋訪古今恐不可用其晉梁尺量過	-12.1585
鵉	-12.1585
籩	-12.1585
二分七釐二毫六絲二忽六微九纎	-12.1585
五寸七分二釐七毫	-12.1585
鐘夾鐘生無射無射生仲吕	-12.1585
姑洗歌磬姑洗編磬	-12.1585
姑潔也洗濯也考合也言陽氣養生洗濯	-12.1585
九寸外加一寸為尺	-12.1585
先相者皆左何瑟面鼓執越内	-12.1585
弦右手相入升自西階北面東	-12.1585
三分七釐四毫五絲七忽六微七纎	-12.1585
則至矣盡矣不可以有加矣	-12.1585
四清聲之設正謂臣民相避以為尊卑	-12.1585
聲應相保曰和細大不踰曰平	-12.1585
遂設三老五更羣老之席位焉適饌省醴	-12.1585
餘六千五百二十四	-12.1585
不知變律之數止於六者	-12.1585
九即十而取九者體之所以立約十而	-12.1585
仲吕起調仲吕畢曲旋宫第	-12.1585
分者十之則其竒零無時而能盡雖泛以	-12.1585
子聲則四寸半又上下相生之法者以	-12.1585
急不知當時律之圍徑又果何如也	-12.1585
毫釐秒忽之間今乃以不盡之	-12.1585
笛三指聲應	-12.1585
為室三重户閉塗釁必周密	-12.1585
仄	-12.1586
做	-12.1586
郵	-12.1586
汙尊而抔飲蕢桴而土鼓猶若可以致	-12.1586
名其初臣歸功於上之義也大吕助陽宣	-12.1586
絣	-12.1586
一尺五寸八分七釐四毫	-12.1586
以正聲比子聲則子聲為半但先儒釋	-12.1586
天地三月而為一時故祭祀三飯以為禮	-12.1586
夷則五寸四分三分二商	-12.1586
度量衡亦可以制律	-12.1586
應大夹仲蕤夷無	-12.1586
明倪復撰	-12.1586
瀟湘水雲	-12.1586
鐘尚羽石尚角	-12.1586
之律不動而滿計此二事之殊良	-12.1586
之或増之則其	-12.1586
其為變正聲之法者以黄	-12.1586
半徽一弦黄鍾為	-12.1586
帥巫而舞	-12.1586
比類以成其行	-12.1586
法祖孝孫云平陳後廢周玉尺律便用此	-12.1586
靁鼔靁鼗	-12.1586
除之所得億約為寸得蕤賔蕤賔長	-12.1586
小大莫處御于君所以燕以射則燕則譽	-12.1586
盜	-12.1586
伶州鳩曰古之神瞽考中聲而量之以制	-12.1586
冗	-12.1586
天子乃帥三公九卿諸侯大夫親往視之	-12.1586
一千二百粒稱重十二銖兩之為一	-12.1586
三分去一之次故用子聲為羽	-12.1586
二分六釐四毫八絲六忽五微七纎	-12.1586
二寸九分七釐三毫	-12.1586
二萬六千二百四十四	-12.1586
南吕散聲即仲吕五弦林鍾為	-12.1586
四太羽中聲之羽聲低於宫	-12.1586
尺終有一㑹且上黨之黍有異他鄉其色	-12.1586
律須撼乃容若以中者累尺雖復小稀實	-12.1586
生南吕南吕生姑洗姑洗生應鐘應鐘生	-12.1586
笙入立于縣中西面	-12.1586
九分八釐九毫八絲八忽七微四纎	-12.1587
九分三釐四毫三絲二忽九微三纎	-12.1587
舞所以節八音	-12.1587
春夏學干戈	-12.1587
大樂與天地同和大禮與天地同節	-12.1587
比干之墓	-12.1587
九月陽氣上升隂氣	-12.1587
文者能述	-12.1587
管子地員	-12.1587
藏萬物無射見者故可以徧布前哲之	-12.1587
上尺凡六	-12.1587
以道制欲	-12.1587
來奏納夏臣有功奏章夏夫人	-12.1587
僊	-12.1587
則晉志所謂在六律為陽則當	-12.1587
逰	-12.1587
鍾應鍾生蕤賔蕤賔生大吕	-12.1587
即以此同律度量頒于天下其後宣帝時	-12.1587
四分四釐五毫四絲四忽九微三纎	-12.1587
捕	-12.1587
酳	-12.1587
四寸一分四釐二毫一絲三忽五㣲六纖	-12.1587
二寸二分二釐二毫二絲二忽二微二纎	-12.1587
四絲四忽八微二纎	-12.1587
容十斗嘉量之法合龠	-12.1587
孫侯氏四正具舉大夫君子	-12.1587
宵	-12.1587
上工坐相者坐授瑟乃降	-12.1587
律成其功發揚滯伏之氣而去散越者也	-12.1587
其容體比於禮其節比於樂	-12.1587
後周市尺	-12.1587
復與他律為役者同心一統之義也非黄	-12.1587
簫太簇簫南吕簫	-12.1587
開皇官尺	-12.1587
來加文武二聲	-12.1587
用増損訛替之所致也周	-12.1587
鐘仲吕歌磬仲吕編磬	-12.1587
夙	-12.1588
林仲夾黄無林仲夾黄無林仲夾	-12.1588
聶崇義	-12.1588
工入升歌三終	-12.1588
至治之世天地之氣合以生風	-12.1588
以度量者可以文載口傳與衆共知然不	-12.1588
百四十五釐一百	-12.1588
飾以羽旄	-12.1588
一百四十一寸四	-12.1588
以黄鍾十七萬七千一百四十七之數	-12.1588
南吕起調南吕畢曲旋宫第	-12.1588
又不盈分者十之所得為小分以其餘	-12.1588
是太祖遣尚書故蘇綽所造當時檢勘用	-12.1588
林姑太應南林姑太應南林姑太	-12.1588
此後魏初及東西分國後周	-12.1588
毊	-12.1588
然後成韻而崇乃以仲	-12.1588
芽	-12.1588
虋	-12.1588
饑	-12.1588
樂者音之所由生	-12.1588
鎛鐘㽔賔特磬㽔賔特磬	-12.1588
祭祀百物之神	-12.1588
隂陽序次風雨時	-12.1588
劉歆荀朂王朴	-12.1588
四分七釐一毫九絲三忽七微一纎	-12.1588
徽定之實音為黄鍾散聲即林鍾二弦	-12.1588
有磬無鍾	-12.1588
為十二律之窮變律之首也依京房書仲	-12.1588
雖亦用此十七萬七千一百四十七之	-12.1588
黄鍾十七萬七千一百四十七之數則得	-12.1588
樂終而徳尊	-12.1589
𨼆	-12.1589
勹	-12.1589
大吕琴大吕篴	-12.1589
易慢之心	-12.1589
為商姑洗七寸為羽林	-12.1589
相間於立體為用	-12.1589
絃十徽應三絃散聲	-12.1589
搖	-12.1589
簪	-12.1589
舞大吕歌鐘大吕編鐘	-12.1589
三千五百三十八除之所得億約為寸得	-12.1589
之自然也顧自淮南	-12.1589
夾鍾起調夾鍾畢曲旋宫第	-12.159
級	-12.159
乙賤工也	-12.159
灼	-12.159
無射起調無射畢曲旋宫第	-12.159
三寸七分四釐五毫七絲六忽七微六纎	-12.159
曩	-12.159
周召之治也	-12.159
因而九之九九八十一故黄鐘之數立焉	-12.159
欽定四庫全書古樂經傳卷	-12.159
郊特牲曰歌者在上匏竹在下	-12.159
除之所得億約為寸得太蔟太蔟長八寸	-12.159
大吕歌磬大吕編磬	-12.159
二分八釐八毫八絲三忽八微一纎	-12.159
之歌九㲈之舞於宗廟之中奏之	-12.1591
相者二人皆左何瑟後首	-12.1591
若舞則勺	-12.1591
大夫判縣士特縣	-12.1591
䖏	-12.1591
九寸為宫其曰宫五	-12.1591
姑洗琴姑洗篴	-12.1591
應南林姑太應南林姑太應南林	-12.1591
拒	-12.1591
毫七絲三忽	-12.1591
祀乎明堂而民知孝	-12.1591
一徽定之實音為南吕散聲即仲吕六弦	-12.1591
三分五釐三毫五絲五忽三微三纎	-12.1591
應鍾長五寸二分九釐七毫	-12.1591
一釐八毫八絲九忽三微三纎	-12.1591
塾	-12.1591
大師掌六律六同皆	-12.1591
風清月朗	-12.1591
絲不如竹竹不如肉	-12.1591
大祭祀登歌擊拊	-12.1591
坡	-12.1591
大吕起調大吕畢曲旋宫第	-12.1591
秋頒學合聲	-12.1591
衢	-12.1591
一字一音之為古	-12.1591
化不時則不生	-12.1591
又為輪扇二十四埋地中以測二十四氣	-12.1591
姑洗笙姑洗笙	-12.1591
月所候言皆無爽	-12.1591
林鍾長六寸六分七釐四毫	-12.1591
八分五釐六毫七絲八忽三微七纎	-12.1591
八毫九絲八忽七微一纎	-12.1591
為之六間以揚沈伏而黜散越也	-12.1592
不是過也	-12.1592
内庳外髙	-12.1592
夷則起調夷則畢曲旋宫第	-12.1592
十一其長之分以為廣自然之數也	-12.1592
外旁有庣焉	-12.1592
樂器圖様	-12.1592
上生者四其法得四寸二十八分	-12.1592
男女無辨則亂升	-12.1592
鐘師凡樂事以鐘鼓奏九夏	-12.1592
揲	-12.1592
萹	-12.1592
禮交動乎上樂交應乎下	-12.1592
揣	-12.1592
序宫中之事	-12.1592
愛心感者其聲和以柔	-12.1592
仿	-12.1592
淹	-12.1592
綠	-12.1592
其遺制也	-12.1592
南吕歌鐘南吕編鐘	-12.1592
南吕笙南吕笙	-12.1592
國子之倅	-12.1592
艷	-12.1592
諄	-12.1592
考仲子之宫	-12.1593
以六耦射三侯三獲三容樂以	-12.1593
寛裕肉好順成和動之音作而民慈愛	-12.1593
粗厲猛起奮末廣賁之音作而民剛毅	-12.1593
放鄭聲逺佞人	-12.1593
鞮鞻氏掌四夷之樂與其聲歌	-12.1593
夜三鼜	-12.1593
中琴必以小瑟配之	-12.1593
五月建焉而辰在鶉首林鍾未之氣	-12.1593
八分三釐二毫三絲九忽二微八纎	-12.1593
轐	-12.1593
三徽六徽八徽十一徽	-12.1594
曰姑洗所以脩潔百物考神納賔也	-12.1594
其興也勃焉	-12.1594
歌笙入間歌合樂	-12.1594
姿	-12.1594
數理精藴	-12.1594
醬	-12.1594
錬	-12.1594
分兩側為用	-12.1594
杳	-12.1594
淒	-12.1594
調者起調畢曲皆	-12.1594
黄鍾起調黄鍾畢曲旋宫第	-12.1594
宋陳𤾉撰樂圗論雅部	-12.1595
㽔賔歌函鐘舞大夏以祭山川	-12.1595
言人人殊	-12.1595
方尺積千寸	-12.1595
六百四十七絲九百八十二忽	-12.1595
戛擊鳴球搏拊琴瑟以詠	-12.1595
以三耦射一侯一獲一容樂以采蘋五節	-12.1595
以四耦射二侯二獲二容樂以貍首七節	-12.1595
峙	-12.1595
儲	-12.1595
刮	-12.1595
汚	-12.1595
蔟散聲即南吕七弦應鍾為	-12.1595
歌磬仲吕編磬	-12.1595
宫為聲之始	-12.1595
肆直而慈愛者	-12.1595
東門之枌	-12.1595
天地之風氣正十二律定	-12.1596
楙	-12.1596
瞽矇掌九徳六詩之歌以役	-12.1596
仁近於樂義近於禮	-12.1596
汙	-12.1596
而弗復服	-12.1596
襖	-12.1596
宋陳𤾉撰樂圗論俗部歌	-12.1597
之實音為仲吕散聲即大吕二弦夾鍾為	-12.1597
如漆筩	-12.1597
媒	-12.1597
孶	-12.1597
建鼓在阼階西南鼓應鼙在	-12.1597
徒相大師僕人師相少師僕人士相上工	-12.1597
土示六變而致象物及天神	-12.1597
短簫鐃歌	-12.1597
蔑	-12.1597
長九寸空圍九分容秬黍	-12.1597
凡言分者皆	-12.1597
治安之風也小人之音	-12.1597
為實以毫法二十七除之得	-12.1597
瑾	-12.1597
豻	-12.1597
旺	-12.1597
禮也者理之不可易者也	-12.1598
宅	-12.1598
愴	-12.1598
舅	-12.1598
宫清商清角清	-12.1598
清清清清	-12.1598
娱	-12.1598
散之桃林	-12.1598
臨事而屡斷	-12.1598
宋陳𤾉撰樂圖論雅部舞	-12.1598
畢觜參	-12.1598
相保而為和細大不踰而為平	-12.1598
西階之西頌磬	-12.1598
奏㽔賓歌函鍾	-12.1598
釐又九因一遍至毫位住得	-12.1598
挂	-12.1599
蜜	-12.1599
漠	-12.1599
豵	-12.1599
自相矛盾	-12.1599
乃席工于西階上少東	-12.1599
夫歌者直已而陳	-12.1599
既歌而語以成之也言父子君臣長	-12.1599
祭祀宿縣遂以聲展之	-12.1599
黍之重為今秤	-12.1599
見乃謂之象形乃謂之	-12.1599
樂經元義	-12.16
太蔟三弦姑洗為	-12.16
不清不濁	-12.16
四物五聲六律七音八風九歌以相成也	-12.16
宫徵位用吟	-12.16
應㽔大夷夾無仲黄林太南姑應㽔大夷	-12.16
麓	-12.16
一千五百四十七	-12.16
宫為君商為臣角為民徵為事羽為物	-12.16
饗食諸侯序其樂事令奏	-12.16
廓	-12.16
鼜愷獻亦如之	-12.16
熊羆十二案	-12.1601
㒺	-12.1601
笙詩六篇	-12.1601
萬二千九百七十四上生黄	-12.1601
鐘鼓既設一朝	-12.1601
趙慎言	-12.1601
干戈秋冬學羽籥	-12.1602
侷	-12.1602
簟	-12.1602
彪	-12.1602
喉齶舌齒脣	-12.1603
周旋中規折旋中矩	-12.1603
澣	-12.1604
其形介然有常有似於士君子之行	-12.1604
射長四寸六千五百六十一分寸之六千	-12.1604
肉倍好	-12.1604
午與未合	-12.1604
僎	-12.1604
瘦	-12.1604
袒	-12.1604
禮廢樂壞	-12.1604
鐶	-12.1604
穗	-12.1604
舜作五絃之琴以歌南風	-12.1605
禮樂不可斯湏去身	-12.1605
始於宫終於角	-12.1605
對衝之例也	-12.1605
媚	-12.1605
金舂玉應	-12.1605
徐景安	-12.1605
租	-12.1605
先王之制音也奏中聲	-12.1605
竄	-12.1605
詡	-12.1605
祖皇帝用大	-12.1605
縜	-12.1605
春誦夏弦	-12.1606
奬	-12.1606
三十一寸七分八釐三毫八絲	-12.1607
夏家古尺	-12.1607
磐	-12.1607
裴耀卿	-12.1607
成也亦名曰	-12.1607
焦尾至七徽	-12.1608
袜	-12.1608
斌	-12.1609
桶	-12.1609
頽	-12.1609
裙	-12.161
之位三分之而益一分其位則在	-12.161
酸	-12.1611
○○○○○○○○○○○○○○	-12.1611
潦	-12.1611
蔵	-12.1611
隂六清之首	-12.1611
聖諭樂本解說	-12.1611
輟	-12.1611
坼	-12.1612
悼	-12.1613
翳	-12.1613
離羣羊	-12.1613
犀	-12.1613
遯	-12.1613
龜兹疎勒	-12.1614
簮	-12.1614
綦	-12.1614
抛	-12.1615
褏	-12.1616
沚	-12.1616
䇾	-12.1617
携	-12.1618
樂也者情之不可變者也	-12.1618
字得羽絃之分定為羽立羽位以起調	-12.1619
字操縵前叚名曰金聲	-12.1619
􁇊	-12.1619
思文后稷	-12.162
儛	-12.162
諗	-12.1621
調與不調	-12.1621
應鍾隂黄鍾陽	-12.1621
蹲再鼓皆舞進一步正立再鼓皆	-12.1621
弓二寸以為侯中	-12.1622
在藩邸	-12.1623
爐	-12.1624
律緯云祖	-12.1624
霧	-12.1625
立我烝民	-12.1625
氏配座以	-12.1625
男左女右手中指	-12.1633
逑	-12.1638
踴	-12.1639
幻	-12.164
瀛	-12.1643
杠	-12.1643
肜	-12.1646
縿	-12.169
四銖為兩十六兩為斤	-12.1701
繇此之義起十二律之周徑	-12.1716
夏日至於澤中之方丘奏之	-12.1733
之實計六十四箇	-12.1745
一生二二生三三生萬物	-12.1759
分四釐奇	-12.1779
夾大應夷	-12.1785
一十三釐五十六毫二十三絲七十三忽	-12.1821
長四寸二分三分二	-12.2049
絲一十二忽	-12.2169
周公左召公右六成復綴以崇天子	-12.2229
而合乎亥一十七萬七千	-12.2395
黄仲無夾夷大㽔應姑南太林黄仲無夾	-12.2596
共得二十八寸二分八釐四毫二絲	-12.2615
羃百六十二寸	-12.266
深尺積一千六百二十寸容十斗	-12.267
益一上生無射三分無射損一下生	-12.2736
損一下生大吕三分大吕益一上生	-12.2779
司樂以六律六同五聲八音六舞大合樂	-12.2784
六欽定四庫全書樂書卷一百	-12.2857
黄鐘小素之首以成宫	-12.2885
之數六十八主二月下生無射	-12.295
二寸三分三毫六絲六忽六秒	-12.3369
黄帝作律以玉	-12.3369
氣應有早晚灰飛有多少	-12.3396
夷大㽔應姑南太林黄仲無夾夷大㽔應	-12.3633
六寸八分一釐七毫九絲二忽	-12.3784
執同律以聽軍聲	-12.3878
弦按第十徽彈之令與笙音相同是為	-12.3915
位以主調故為	-12.3991
斯又韶之所以	-12.4007
箇一千二百一十三為無射之	-12.4012
簜在建鼓之間	-12.4021
餕	-12.4021
不知變律之法但見仲吕反生不及黄	-12.4022
囂	-12.4032
擒	-12.4034
以凡掣調	-12.4035
建國之學政	-12.4036
一建鼓在西階之東南面	-12.4036
為九寸而度其圍徑如黄	-12.4038
四㑹員十	-12.4039
養老之珍具遂發咏焉	-12.404
鐘鼓樂作吹鼓孤桐曲終樂止舞畢復位	-12.4043
以工掣調	-12.4046
凡建國禁其淫聲過聲凶聲慢聲	-12.4046
環下順數	-12.4046
以乙掣調	-12.4046
左班一人云天下太平字舞獻第	-12.4046
檛	-12.4046
八寸四分小分三弱	-12.4047
以尺掣調	-12.4048
若九聲環轉而以本宫之	-12.4048
環上逆數	-12.4048
九十四毫一百五十二絲四百二十五忽	-12.4048
七四九一五三五三八四	-12.4049
致禮樂之道舉而錯之天下	-12.4049
三千九百二十八	-12.405
姒	-12.405
有瞽有瞽在周之庭	-12.405
臉	-12.405
髦	-12.4052
龠為合十合為升	-12.4052
嘻	-12.4052
十四聲正律六十三變律二十一六十三	-12.4053
歐陽頴伯曰	-12.4053
上字孔仲吕為	-12.4053
樽酒簋貳	-12.4053
祈年祭蜡	-12.4053
貫革之射	-12.4053
郛	-12.4053
兖	-12.4053
客出以雍徹以振羽	-12.4053
灋	-12.4053
一變律大吕二變律夷則三變律夾	-12.4054
八十三毫二百八十九絲一百六十五忽	-12.4054
五億二千九百七十三萬	-12.4054
徽黄鐘清應六絃散聲	-12.4054
若雉之鳴木	-12.4054
不鼓缶而歌	-12.4054
若豕之負駭	-12.4055
夾振之而駟伐	-12.4056
棊	-12.4056
杜佑之十二變律	-12.4057
一孔取三音	-12.4057
我客戾止永觀厥成	-12.4057
揜	-12.4057
非人力所能為也	-12.4057
奭	-12.4057
二分五釐七毫三絲二忽五微五纎	-12.4057
禮以毋不敬為先	-12.4057
少徴少羽	-12.4057
笴	-12.4057
宫第二章第	-12.4057
音七聲十二律器色七字為七調還相為	-12.4058
音韻重複故不用	-12.4059
卷七上第	-12.4059
鐘為宫大吕為角太簇為徴應鐘為羽	-12.4059
二六四八六五七七三五八九八二三八	-12.4059
岀	-12.4059
紀之以三平之以六成於十二天之道也	-12.4059
煉	-12.406
舜祠下得白玉琯	-12.406
鷖	-12.406
尺字孔林鐘為	-12.406
故謂之宣所以宣三王之徳也	-12.406
忽萬分忽之	-12.406
胎	-12.4061
呼八八除六十四	-12.4061
路鼓路鼗隂竹之管龍門之琴瑟九徳之	-12.4061
卒歌主人獻工工左瑟一人	-12.4061
一唱三嘆	-12.4061
在鶉火月在天駟	-12.4061
先王之樂明有法也	-12.4061
聲由陽來	-12.4061
舉爵登歌奏	-12.4061
髙更用太府布帛尺為法乃下太常四律	-12.4061
以子榖秬黍中者一千二百實其龠	-12.4062
五九三二七三七	-12.4063
妬	-12.4063
羽者嫗伏毛者孕鬻	-12.4063
饁	-12.4063
大凶大烖大臣死凡國之大憂令弛	-12.4063
曰商曰羽曰閏閏為角其正角聲變聲	-12.4063
鍾林鍾太蔟南吕姑洗應鍾	-12.4063
十分六釐三毫六絲八忽	-12.4063
權衡者銖兩斤鈞石所以權輕重也生	-12.4063
腎而齒開吻聚謂之羽	-12.4063
夫金石真偽固難盡信若秬黍則	-12.4064
么	-12.4064
鷩	-12.4064
奸	-12.4064
為鼓而辨其聲用以雷鼓鼓神祀	-12.4064
耘	-12.4064
記曰歌之為言長言之也	-12.4064
閠	-12.4064
内廷翰	-12.4064
面謂之肆有左無右謂之堵	-12.4064
爾雅大塤謂之	-12.4064
周以木徳王天下	-12.4065
其按習也令左右手互應清	-12.4065
徳也下而管象示事也	-12.4065
比物以飾節	-12.4065
角生姑洗姑洗生應鍾應鍾生	-12.4065
之聲東北隅之鼓合	-12.4065
以周錢有子母相權	-12.4065
銘云大唐貞觀	-12.4065
一七七八七五	-12.4065
募	-12.4066
多哇之鄭	-12.4066
鋝	-12.4066
饗食賓射亦如之	-12.4066
有羽舞有皇舞有旄舞有干舞有人舞	-12.4066
鍼	-12.4066
蒯	-12.4066
象雷其形象天其於樂	-12.4066
張協七命云	-12.4066
後周以十二鎛相生擊之	-12.4066
宜陽金門山竹	-12.4066
將前紙條比	-12.4066
趙文子始	-12.4066
其廣之分以為長十一其長之分以為廣	-12.4066
火能生土	-12.4066
調如頭一聲是宫聲尾後一聲亦是宫聲	-12.4066
七十六絲二百一十二忽	-12.4066
乗之滿千忽為絲滿千絲為毫	-12.4067
天地訢合隂陽相得	-12.4067
褥	-12.4067
大雩帝用盛樂	-12.4067
則民瞻其顔色而弗與爭	-12.4067
四十一毫六百四十四絲五百八十二忽	-12.4067
樂也者動於内者也禮也者動於外者也	-12.4067
龠四萬六千八十銖一萬九千二百	-12.4067
五一九六八一九九四七四七五一七	-12.4067
五凡工尺上一四六勾合	-12.4067
薄而廣則濁	-12.4067
賔入大門而奏肆夏	-12.4067
遶	-12.4067
驛	-12.4067
裓	-12.4067
五三三三五八七五	-12.4068
所謂間若一也	-12.4068
柱子右手彈中聲十二左手彈清聲十二	-12.4068
古者造笙以曲沃之匏	-12.4068
亰	-12.4068
八面六面四面	-12.4068
首位一是一尺	-12.4068
為實開平方法除之	-12.4068
政以一其行刑以防其姦	-12.4068
列管匏中施簧管端	-12.4068
望其容貌而民不生易慢	-12.4068
此七調皆生於	-12.4068
法曰置所得	-12.4068
𡨕	-12.4068
肝而張齒湧吻謂之角	-12.4068
釘	-12.4068
應鍾長四寸二十七分寸之二十	-12.4068
掌學士之版	-12.4068
跛	-12.4068
五二九七三一五四七一七九六四七六	-12.4069
至之音始也其親底豫而天下化終也	-12.4069
以二十七為一初則得初者	-12.4069
氣無滯隂亦無散陽	-12.4069
律數九九八十一以為宫	-12.4069
令去地尺餘灌之以水又以器盛水	-12.407
合朔伐鼓	-12.407
唐六典曰凡	-12.407
執而鳴之以止	-12.407
清調以商為主平調以角為主	-12.407
二均弦音不同而指法同俗呼縵	-12.407
大一尺五寸徑五寸	-12.407
寕	-12.407
細調瑣曲	-12.407
鐻	-12.407
又以次而卑也	-12.407
大府布帛尺	-12.407
子未分之時天地人混合為一故子	-12.407
有慈姥山	-12.407
一清三濁卑不踰尺髙不越腹	-12.407
也乃因而乗	-12.407
全有四清宮懸甫接徴招可聽	-12.407
姥	-12.407
葛之覃兮施于中谷維葉	-12.407
孟康曰元氣始起	-12.407
穯	-12.407
聲長非無射三分去一之次故用子聲為	-12.407
手之舞之足之蹈之	-12.4071
慢易以犯節流湎以忘本	-12.4071
舞上謂之甬甬上謂之衡	-12.4071
為宫含元處中所以徧養六氣九徳之本	-12.4071
疵	-12.4071
也自晉宋以來儒者論律圍徑始有同異	-12.4071
畿	-12.4071
禮器曰縣鼓在西應鼓在東	-12.4071
詮	-12.4071
三寸五分三釐五毫五絲三忽三	-12.4071
之調皆得三分之次故用正律之聲	-12.4071
于社伐鼓于朝	-12.4071
以九方分平置	-12.4071
八七九九二八一右乃仲	-12.4071
八三二右乃林鍾倍律積	-12.4071
八十八毫八百八十八絲八百八十八忽	-12.4071
六黄宫清聲之宫聲髙於羽	-12.4071
問河右先生先生	-12.4071
太簇七寸七分二商七寸十分二	-12.4071
為一尺八寸三其法乃為六寸而得林鐘	-12.4071
身則葉與身皆	-12.4071
􁉘	-12.4071
仲太黄無林仲太黄無林仲太黄	-12.4071
黄鐘簫林鐘簫	-12.4072
奏也繼夾鐘以無射	-12.4072
所以為璧也裁其兩旁以益上下所以為	-12.4072
五分六釐七絲四忽五初三秒	-12.4072
調緊二七即	-12.4072
之内應用不同安得暴君縱	-12.4072
吾無以見聖人矣	-12.4072
姑洗六寸七分四羽六寸十分四	-12.4072
七毫四絲三忽一初四秒	-12.4072
五寸七分四角五寸十分四	-12.4072
四寸二分三分二羽四寸二分三分二	-12.4072
大夹仲林夷無黄	-12.4072
宗之減為二尺	-12.4072
平底六孔水之數也中虚上	-12.4072
變律非正律故不	-12.4072
龠黍之重為今之三兩六	-12.4072
莞	-12.4072
動四氣之和	-12.4072
湧	-12.4072
脅	-12.4072
三歩以見方	-12.4072
串	-12.4072
細抑大陵	-12.4072
鐘三分應鐘益一上生	-12.4072
鼓人凡祭祀百物之神鼓兵舞帗舞	-12.4072
一容九百二十五	-12.4073
奏應㽔大夷夾無仲	-12.4073
撻	-12.4073
為二尺四寸三其法乃為八寸而得太簇	-12.4073
節八音而行八風	-12.4073
龠成兹嘉量與古玉斗相符	-12.4073
冪百六十二寸	-12.4073
絃一點第	-12.4073
也以為度者以為長短之度也則周家十	-12.4073
為徵則林鍾為宫應鍾為羽則太蔟為宫	-12.4073
絀	-12.4073
主人拜送爵階前坐祭立飲不拜既爵升	-12.4073
灰全出為猛氣吹灰不能出為衰氣	-12.4073
以起調畢曲為諸聲之綱	-12.4073
分八百七十一釐八百	-12.4073
千七十五姑洗長七寸九分寸之一	-12.4073
律空圍九分蔡邕銅龠銘亦云空圍九分	-12.4073
故律四十二吕三十六	-12.4073
是以黄鍾折半之管不能復與黄鍾相應	-12.4073
李氏學樂録卷一	-12.4073
稜	-12.4073
領禮運所謂還相為宫所以始於黄	-12.4073
弦為大呂與第二弦散聲應按	-12.4074
薄厚之所震動清濁之所由出	-12.4074
寸八寸皆為尺矣	-12.4074
縠	-12.4074
郕	-12.4074
凡四方之以舞仕者屬焉	-12.4074
大學衍義補	-12.4074
龔	-12.4074
常歌工病其太濁歌不成聲私賂鑄工使	-12.4074
有力而不能走	-12.4074
不拜受爵坐祭立飲辯有脯醢不祭	-12.4074
二十二毫二百二十二絲二百二十二忽	-12.4074
令徳示民	-12.4074
其月氣至與律冥符則灰飛衝素散出	-12.4074
四分五厘一毫六絲	-12.4074
崇徳報功之	-12.4074
拊設於一鐘一磬之東其	-12.4074
樂云樂云鐘鼓云乎哉	-12.4074
調十二律皆然黄	-12.4074
謂度本起於黄鍾之長	-12.4074
賣	-12.4074
道生一則竒而為陽一生二則	-12.4074
如是而鑄之金	-12.4074
姑洗歌應鐘歌㽔賔歌大吕歌	-12.4074
所成之數盖九	-12.4074
氣候晷刻	-12.4074
漢書云黄鍾長九寸者九分之寸也	-12.4074
等不通律吕故康	-12.4074
累百滿尺即是㑹古實龠之外纔	-12.4074
聲長非南吕三分去一之次故用子聲為	-12.4074
長三寸萬九千六百八十三分寸之六千	-12.4074
胎生者不殰卵生者不殈	-12.4075
緊絃慢絃	-12.4075
蘇成公善	-12.4075
煥乎其有文章	-12.4075
一千五百四十七除之得次律	-12.4075
傎	-12.4075
凡縣鐘磬半為堵全為肆	-12.4075
合天地之化百物之産	-12.4075
坦	-12.4075
夾鍾長七寸二千一百八十七分寸之	-12.4075
獻㨗於祖	-12.4075
積八百一十分則其周徑可以數起矣	-12.4075
而大分盡矣其小分以二百四十三為一	-12.4075
誤乃欲増益漢志之文以就其	-12.4075
蕤夾大應夷蕤夾大應夷蕤夾大	-12.4075
七十四釐九十四毫五十一絲七十三忽	-12.4075
祖考來格虞賔在位羣后	-12.4075
黄帝張樂於洞庭之野	-12.4075
以靈鼓鼓社祭以路鼓鼓鬼享	-12.4075
大侯九十參七十干五十	-12.4075
徑三分則九十黍之長止容黍八百有	-12.4075
棟	-12.4075
禮樂法而不説	-12.4075
三十二毫六百八十七絲六百一十七忽	-12.4075
不為燥濕寒暑	-12.4075
之管也以黄鐘九寸分為	-12.4075
之綱領是以為	-12.4075
俗樂以閏為正聲	-12.4075
其以為度也皆生黄鍾	-12.4075
指應飲下生	-12.4075
樂為徳之華	-12.4075
眩	-12.4075
聲正則人思	-12.4075
萬八千八百六十四以三分之又不盡一	-12.4075
賔入門而奏肆夏	-12.4075
赳赳武夫公侯	-12.4075
食甞無樂	-12.4075
為條理亦可惜也房	-12.4076
奏也繼大吕以夷則	-12.4076
制可謂近古矣	-12.4076
可以語可以道古	-12.4076
以見度非度無以見律律不生於度與黍	-12.4076
以八人為佾	-12.4076
作標識耳	-12.4076
信則十一律與度量權衡者得矣	-12.4076
倍之為七寸分寸之一千七十五	-12.4076
律長三寸二千一百八十七分寸之一千	-12.4076
聵	-12.4076
鋭如秤錘然火之形也塤	-12.4076
䑓	-12.4076
下生夷則為商上生夾	-12.4076
之聲無從而正	-12.4076
四寸七分律長四寸二十七分寸之二十	-12.4076
梁表尺三	-12.4076
漢志謂黄鍾之律九寸加一寸	-12.4076
管子云凡將起五音凡首先主一而三之	-12.4076
莱	-12.4076
見温公尺	-12.4076
鍾之管正聲九寸	-12.4076
阮逸胡瑗尺横累一百黍	-12.4076
釐八十三毫八十二絲七十四忽	-12.4076
者數二以陽生	-12.4076
但制尺求律便為堅	-12.4076
後世儒者執守孤法	-12.4076
若從徑三圍九之	-12.4076
許氏說文	-12.4077
曰雷出地奮豫先王以作樂	-12.4077
佚	-12.4077
謐	-12.4077
謔	-12.4077
欽定四庫全書律呂闡微卷	-12.4077
纍纍乎端如貫珠	-12.4077
舞以動其容	-12.4077
黽	-12.4077
四寸零以四寸之管而施七孔何荒唐也	-12.4077
朝日夕月	-12.4077
黄南無黄六工	-12.4077
黄大太夾姑仲蕤林夷南無應	-12.4077
云班氏所志未	-12.4077
以方為節其性	-12.4077
仲春之月上丁命樂正習舞釋	-12.4077
六間六吕在陽律之間吕隂律所以	-12.4077
凡日月食四鎮五嶽崩大傀異	-12.4077
十忽為絲十絲為毫十毫為	-12.4077
去二分以為之鼓間	-12.4077
圍九分累黍容受不能相通遂廢一黍為	-12.4077
姑洗篴應鐘篴	-12.4077
於中至四月宣散於外純乾用事	-12.4077
昭華之琯	-12.4077
管長五寸三分律長五寸三分寸之一	-12.4077
膋	-12.4077
致樂以治心則易直子諒之心油然生矣	-12.4077
舉旌以宮偃旌以商	-12.4077
言隂應陽用事萬物	-12.4077
邕之時未亂當親見之又曉解律	-12.4077
隂閉藏於内所以助陽成功也	-12.4077
以滌蕩邪氣出揚正聲	-12.4077
四五六一八二五右乃應鍾倍律積	-12.4077
無射長四寸四分三分二應	-12.4077
賔長五寸六分三分一	-12.4077
志曰術曰陽以圓為形其性動	-12.4077
生陽四之皆三而一陽生	-12.4077
分之法而増益班志八字以就其	-12.4077
仲吕為宫則十二律内全無所取	-12.4077
勸之以九歌俾勿壊	-12.4077
大鈞有鎛無鐘甚大無鎛鳴其細也	-12.4077
樂比舊樂下三律	-12.4077
䙝	-12.4077
七千六百七十二小分二百一十六為	-12.4077
侣	-12.4077
大吕十六萬五千八百八十八	-12.4077
左手吹畢置於右手復取一律吹之	-12.4077
律依舊法算	-12.4077
情見而義立	-12.4077
據斗造律	-12.4077
此兩尺長短近同	-12.4077
漢書所載甚詳然不得其要史記所載甚	-12.4077
解曰以此管而吹之其聲	-12.4077
五十五釐四十六毫八十二絲七十二忽	-12.4078
下生無射為商上生仲	-12.4078
為商下生無射為羽上生仲	-12.4078
六寸三分二釐强	-12.4078
月朗風清	-12.4078
莒	-12.4078
八分八釐八毫八絲八忽	-12.4078
回邪曲直各歸其分	-12.4078
度者分寸尺丈引所以度長短也生於黄	-12.4078
彈琴而後成笙歌	-12.4078
指子則冬至音比	-12.4078
桓譚新論	-12.4078
永歌之不足故不知手之舞之足之蹈之	-12.4078
輦	-12.4078
鍾林鍾之實六寸	-12.4078
之能事畢矣	-12.4078
事為君治物為君用不能尊於君	-12.4078
五分一厘三毫	-12.4078
儀琴堂序	-12.4078
則取黄鐘林鐘太簇南吕姑洗應鐘六律	-12.4078
十調属土南	-12.4078
卄	-12.4078
同次上第	-12.4078
如何歌如何彈	-12.4078
尺之十二寸有半寸	-12.4078
弦隱間九尺以應黄	-12.4078
律有隂陽上下相生故曰黄鍾之宫	-12.4078
數始於一成於三	-12.4078
焉三者行然後	-12.4078
管吹之與黄鍾	-12.4078
脂	-12.4078
萬壑松濤	-12.4078
變律者其聲近正而少髙於正律也	-12.4078
酋	-12.4078
釀	-12.4078
匱	-12.4078
升自西階北面東上坐小臣坐授瑟乃降	-12.4079
怨以怒其政乖亡國之音哀以思其民困	-12.4079
怱	-12.4079
之五聲皆自東而西相為次第其六弦㑹	-12.4079
或云當如簫然第剜其脣以被吹已耳	-12.4079
七十五毫八百二十三絲九百九十一忽	-12.4079
山北曰隂	-12.4079
疑七弦隔一調之六弦皆應	-12.4079
冲之所傳銅尺其銘曰晉泰始十年中書	-12.4079
凡射王奏騶虞諸侯奏貍首	-12.4079
分各二十七下生者去一去二十七餘	-12.4079
古有雅塤如鴈子頌塤如	-12.4079
大鼗謂之麻小者謂之料	-12.4079
徳皆可歌也謂之九歌	-12.4079
按許慎解秬黍體大本異	-12.4079
數始於一終於十	-12.4079
方有西有北	-12.4079
既醉而出並受其福醉而不出是謂伐徳	-12.4079
曰伯氏吹塤仲氏吹箎	-12.4079
短者氣寛而	-12.4079
若堅若脆若勁若韌若實若	-12.4079
蕭吉云晉氏江東所用	-12.4079
趨中肆夏誤矣後世奏永至	-12.4079
韋昭之時漢斛雖在而律不存矣康昭	-12.4079
十一萬零五百九十二為夷則之實計	-12.4079
容一千一百一十五	-12.4079
晉前尺一尺五分十五梁朝俗間尺	-12.4079
為尺則黄鍾之長乃	-12.4079
黄鐘鎛鐘林鐘特磬太簇鎛鐘南吕特磬	-12.4079
九聲者以五正	-12.4079
擔	-12.4079
以七聲推之合如此	-12.4079
樂髓新經	-12.4079
韶舞九成樂補	-12.4079
冕而舞大武皮弁素積裼而舞大夏	-12.4079
則一與三者角與散角應也二與四者	-12.4079
律管圖各施七孔	-12.4079
也諸侯之卿大夫半天	-12.4079
元一也隂繫	-12.4079
八以為羽故羽數四十八	-12.4079
分各十六上生者益一加十六於四十八	-12.4079
啟蟄之日	-12.4079
大昭小鳴和之道也	-12.4079
差一分以為一管皆即以其長	-12.4079
菆	-12.4079
襯	-12.4079
鍵	-12.4079
下生南吕為商南吕上生姑洗	-12.4079
世罕知音反以	-12.4079
九九八十一又以十因之為八百一十	-12.4079
九萬三千三百一十二為應鐘之實計	-12.4079
凡樂圜鐘為宮黄	-12.4079
宫之次故還用正聲為商	-12.4079
樂行而民鄉方	-12.4079
為一釐則共為七百二十九釐約以	-12.4079
為宮太簇為角姑洗為徴南呂為羽	-12.4079
詳漢志通典唐六典	-12.4079
醜	-12.4079
頻	-12.4079
圍中容九方分也	-12.408
望敵知吉凶聞聲效勝負	-12.408
亦未巳至已而後窮上反下律	-12.408
所以飾喜也	-12.408
聲氣之元也班固所謂黄帝使伶倫取竹	-12.408
四方以羽宗廟以人山川以干旱暵以皇	-12.408
忽則得忽者	-12.408
忽積而計之	-12.408
鍾師掌金奏	-12.408
一毫有竒蕭吉云出	-12.408
三分益一再生黄	-12.408
世所鑄錯刀并大泉五十王莽天	-12.408
五二五三七一四五四	-12.408
元年改鑄貨布貨	-12.408
兆八千一百七十九萬	-12.408
十三黍三分黍之一而滿一分積九十分	-12.408
唇之俯仰吹氣之緩急唇仰	-12.408
律未成之前有是	-12.408
應之是動而節之以止	-12.408
毫三分二釐七毫二分三釐	-12.408
減也何承天劉焯譏房之病	-12.408
而未見律成而後	-12.408
曰含少次制十二	-12.408
不能貫知權量之法	-12.408
其所以為廣狹長短者又莫不有自然之	-12.408
容二千八百六十九	-12.408
鋼	-12.4081
粧	-12.4081
夫六中之色也故名之曰黄	-12.4081
上生太簇為商下生南	-12.4081
嬉	-12.4081
天地之心今不此之先而乃區區於黍之	-12.4081
峽	-12.4081
條理此氣之所以飛灰聲之所以中律也	-12.4081
社稷以帗宗廟以羽四方以皇辟	-12.4081
羽與散羽應也義各有當初不相須故不	-12.4081
萬六千三百六十八忽	-12.4081
□􁕥□􁕤□	-12.4081
不周多寡不例其與反生黄	-12.4081
之美而悦於	-12.4081
分法雖不同其長短則一故隋志云寸數	-12.4081
動以干戚飾以羽旄從以簫管	-12.4081
吕而月令章句云徑三分何也孟康	-12.4081
在律之前故律之長短圍徑以度之	-12.4081
宮大呂為角太簇為徴應	-12.4081
得以形焉度之成在律之後度之	-12.4081
為均用五聲之法以下十一辰	-12.4081
絲為毫九毫為釐九釐為分九分為寸	-12.4081
豝	-12.4081
重者從細輕者從大是以金尚羽石尚角	-12.4081
除吏二千石到六百石及	-12.4081
黄鐘林鐘太簇圍徑各異	-12.4081
兩聲相和為用而以	-12.4081
罩	-12.4081
􁇙	-12.4081
乃是以律之長自乗而因之以十	-12.4081
堂下用陽辰之舞	-12.4081
上生執始執始下生去滅	-12.4081
為商上生姑洗為羽下生應	-12.4081
奏肆夏賔拜酒主人	-12.4081
龠容千二百黍重十二銖兩之為兩二十	-12.4081
君子反情以和其志	-12.4082
四寸二十七分寸之二	-12.4082
弱自午至亥漸弱在律為尤弱在吕為差	-12.4082
徳為之本以六律為之音	-12.4082
九十六絲三百五十一忽	-12.4082
也朱子儀禮經傳十二律	-12.4082
二千七百四十萬一千九百八十四	-12.4082
今勘周漢古錢大小有合宋氏渾儀尺度	-12.4082
作器也器則卑而在下作器者尊而在上	-12.4082
十二律之實約以寸法則黄	-12.4082
奏太簇歌應鐘舞咸池以祭地	-12.4082
如此則是惟黄鐘一律成律他	-12.4082
律之下其誤字悉正之隋志引此章中黄	-12.4082
律書此章所記分寸之法與他記不	-12.4082
徑一寸今以大泉錯刀貨布貨泉四物相	-12.4082
從可知矣律書獨舉寸法者盖已於生	-12.4082
數者即十而取九相生者約十而	-12.4082
新造鐘律時人並稱其精	-12.4082
歌磬編磬㽔賓笙笙	-12.4082
為分者一千六百二十則黄鐘	-12.4082
無射子律聲短非夷則為	-12.4082
相去五十百歩之間耳意者房之所	-12.4082
笙笙㽔賓瑟塤	-12.4082
羽宜清若依公孫崇止以十二律而	-12.4082
者不可増而於卦者不可	-12.4082
胡安定律吕議曰	-12.4082
鐘編鐘㽔賓歌磬編磬	-12.4082
長廣分寸皆合正史者用之則銅斛之尺	-12.4082
隂陽相生自黄鐘始而左旋八八為伍	-12.4082
亦皆棄而不録	-12.4082
十萬四千九百七十六為南吕之實計	-12.4082
鐘為徑二分六	-12.4082
仲夾大無夷仲夾大無夷仲夾大	-12.4082
驗使不失其實也	-12.4082
宙	-12.4082
祭祀則龡而歌之燕亦如之	-12.4082
啼	-12.4082
奏肆夏公卒爵主人升受爵以下而樂闋	-12.4082
必用倍數乃與天地之氣相應其寸分	-12.4082
盞	-12.4082
第七聲即第二聲	-12.4082
第六聲即第一聲	-12.4082
覇	-12.4082
九十四釐四十四毫四十四絲四十四忽	-12.4082
分為實上生者以一千乘之得五萬	-12.4082
十五釐七十三毫八十二絲五十九忽	-12.4082
大竽小竽	-12.4082
自此已後開至二十五位其術同前但	-12.4082
芹	-12.4082
郊特牲明堂位祭統	-12.4082
鍾大而短則其聲疾而短聞	-12.4082
以三分之則為三者	-12.4082
以二百四十三為一釐則得釐者	-12.4082
以致鬼神示以和邦國以諧萬民以安	-12.4082
俗樂以閏為角	-12.4082
六律六吕各有管故曰十二筒	-12.4082
原任知縣胡彦昇撰度律	-12.4082
周適欲上聞陳武帝立遂	-12.4082
徴音使人樂	-12.4082
採詩之官	-12.4082
朔應二鞞	-12.4082
謂之慢如此則國之滅亡無日矣	-12.4082
讒	-12.4082
一十八釐六十七毫九十六絲六十五忽	-12.4082
之龠圍徑容受可取四者之法交相	-12.4082
二千一百八十七為全分七百二十九為	-12.4082
五百五十八分九百七十五釐	-12.4082
廣一寸首長八分有竒廣八分足枝長八	-12.4082
得其正者則亦	-12.4082
於房矣可謂目察秋毫而不見	-12.4082
昭云黄鐘徑三分皆無足怪者	-12.4082
此尺傅暢晉諸公讚	-12.4082
浴	-12.4082
無夷仲夾大無夷仲夾大無夷仲	-12.4082
磬階間縮霤北面鼓之	-12.4082
辛彦之鄭譯何妥	-12.4082
一尺三寸三分四釐八毫三絲九忽八	-12.4082
八十三釐九十五毫五十八絲四十三忽	-12.4083
則止用八百一十分乃是以積實生量之	-12.4083
大吕歌舞㽔賔歌	-12.4083
大吕瑟大吕塤㽔賔瑟㽔賔箎大吕琴	-12.4083
無從而生周之嘉量漢之銅斛皆不合其	-12.4083
磬大吕編磬㽔賔歌磬㽔賔編磬大吕笙	-12.4083
奏也繼徴以商	-12.4083
鼓之二十五弦皆動	-12.4083
九徳之歌九韶之舞	-12.4083
分寸尺丈引	-12.4083
受之於大吕牙	-12.4083
律吕不變易其正各順其時則神無	-12.4083
所以飾怒也	-12.4083
畸	-12.4083
萌而赤地	-12.4083
通律吕本源徒訓角為觸	-12.4083
並以聞奏詔付大匠依	-12.4083
八音以絲為君絲以琴為君	-12.4083
十二管衍為六十律私候氣序並有徵應	-12.4083
在十二律之外自為一	-12.4083
弦及第二十	-12.4083
弱其餘與此尺同	-12.4083
思悲翁	-12.4083
惟禁小指	-12.4083
攜	-12.4083
有精義存焉	-12.4083
管以九寸為法	-12.4083
簫簫應鐘簫簫應鐘拊鼗	-12.4083
置一而十一三之以為黄鍾之大數即	-12.4083
者誤也今以相生次序列而正之其應	-12.4083
變成方謂之音	-12.4083
鐘為八十一分今以十為寸法故	-12.4083
陳宣帝詣荆州為質俄遇梁元帝敗喜沒	-12.4083
中黍積次訓定	-12.4083
仲太黄南林仲太黄南林仲太黄	-12.4083
司樂掌成均之法以治建國之學政	-12.4083
瑟篪㽔賓琴篴	-12.4083
石一石積一千六百二十寸	-12.4083
林鐘歌舞黃鐘歌	-12.4083
下各自為法固不可以見分釐毫絲之實	-12.4083
於杜佑胡瑗范蜀公等則又不復知有此	-12.4083
遮	-12.4083
璋	-12.4084
舞師馮肅	-12.4084
分二十六釐九十七毫二十一絲二十忽	-12.4084
小大器用於是乎出	-12.4084
魚麗南有嘉魚南山有臺	-12.4084
于西階東工入升自西階北面	-12.4084
九寸毎寸九分	-12.4084
君子明於禮樂舉而錯之而已	-12.4084
秬黍千二百粒	-12.4084
翊	-12.4084
賅	-12.4084
黻	-12.4084
一寸三分二釐一毫三絲四忽一微二纎	-12.4084
主四月極不生	-12.4084
佻	-12.4084
分其實得一寸五分八釐七毫五絲六忽	-12.4084
北鎮毉巫閭	-12.4084
古今樂律雜説并附錄辨	-12.4084
天子八八諸侯六八大夫四八士二八	-12.4084
寂	-12.4084
怯	-12.4084
拽	-12.4084
於堂上事成而下	-12.4084
為祉陽氣施	-12.4084
物也天氣始於黄	-12.4084
聦	-12.4084
薦毛血	-12.4084
豈能保其六七尺之	-12.4084
之五聲故總其全體而命之曰黄	-12.4084
傳稱黄帝命伶倫㫁竹長三寸九分而吹	-12.4084
千四百五十八為三分二餘分之多者為	-12.4084
南林姑太黄南林姑太黄南林姑	-12.4084
吕水尺實比晉前尺一尺一寸八分六	-12.4084
君父有節臣子有義	-12.4084
埋於子位上頭向南	-12.4084
天子左五鐘右五鐘出撞黄鐘	-12.4084
弦不先定者以俗笙無背	-12.4084
按彈外散扣内	-12.4084
本起於黄鍾之長則黄鍾之長即是一尺	-12.4084
来格来從皇靈顯融	-12.4084
林鍾起調林鍾畢曲旋宫第	-12.4084
欣喜歡愛	-12.4084
當時以斗制律圍徑不及三分其尺遂長	-12.4084
祭事不縣	-12.4084
竊惟權衡度量經邦懋軌誠	-12.4084
者一百六十二萬一斗積一百六十二寸	-12.4084
𢎞對曰灰飛半出為和氣	-12.4084
南蕤姑大應南蕤姑大應南蕤姑	-12.4084
拊鼗堂上堂下堂上堂下林鐘鎛鐘	-12.4084
二十四毫五十五絲一十二忽	-12.4084
深尺内方尺而圜其外其實一鬴	-12.4084
射為角吹四字按十一徽定之實音為太	-12.4084
圜而環之令	-12.4084
挎越内弦右手相樂正先升立	-12.4084
翹横吹之小者尺二寸	-12.4084
不和不樂而鄙詐之心入之矣	-12.4084
相距必疎角	-12.4084
之宫而以其所穴之孔為黄	-12.4084
剩	-12.4084
同以難曉故多誤	-12.4084
姑洗下有羽林鐘下有角南吕下有	-12.4084
禎	-12.4084
鐘之長以子榖秬黍中者一黍	-12.4084
一分二十七為一釐三為一毫一為三絲	-12.4084
三者未詳亦疑後人誤増也下云	-12.4084
之所不及故亦無所用也至於大吕之	-12.4084
之聲亦不難定世自有知音者將上	-12.4084
作十字誤屈中畫耳大要律書用相生分	-12.4084
十七萬七千一百四十七之數不可分又	-12.4084
十四調属金南	-12.4084
律寸分以為與班固司馬彪鄭氏蔡邕杜	-12.4084
懐祖宗氣體則同呼吸相通	-12.4084
雖有其韻不成音曲	-12.4084
非由人力	-12.4084
不為他律役其半聲當為四寸五分而前	-12.4085
四毫四絲八忽二	-12.4085
太黄南林仲太黄南林仲太黄南	-12.4085
蕤夾大無夷蕤夾大無夷蕤夾大	-12.4085
左執干右執戚	-12.4085
晉書宋書	-12.4085
崑	-12.4085
太府布帛尺	-12.4085
軼	-12.4085
之圍徑古無明文向非因量之積分則黄	-12.4085
射左射貍首右射騶虞而貫革之射息也	-12.4085
書所謂搏拊是也其用	-12.4085
評	-12.4085
七十九釐四十八毫七十五絲三十三忽	-12.4085
五間南吕贊陽秀也	-12.4085
内志正外體直	-12.4085
出則征誅入則揖	-12.4085
工告樂備遂出	-12.4085
格物窮理	-12.4085
泗濱浮磬	-12.4085
絃緊一音旋為宫聲	-12.4085
自午至亥	-12.4085
食三老五更於	-12.4085
一乘丑三	-12.4085
不容損益遂或	-12.4085
九十六又生十一律亦有十二子聲	-12.4085
其黄鐘下有宫太簇下有商	-12.4085
内穴孔而吹之以備黄	-12.4085
取一均間别其三寸九分	-12.4085
字用中聲之羽者	-12.4085
截管為律吹以攷聲列以候氣道之本也	-12.4085
所含之少聲	-12.4085
於衣爾雅謂	-12.4085
族人侍奏族夏	-12.4085
為下法用開方歸除法除之於	-12.4085
畢復照調弦法再詳定之是上琴大略也	-12.4085
相和者相淆	-12.4085
祖詔以一黍之廣用成分體九十之黍黄	-12.4085
而相生之分釐毫絲以九	-12.4085
衡猶在也故班氏所志	-12.4085
諸家異同之論王莽之制作雖不足	-12.4085
變及半凡四十八聲上下相生最得漢志	-12.4085
變於古也自董卓之亂而樂律散亡故杜	-12.4085
質五色皆備成章者也	-12.4085
餘數又以毫法二十七除之得	-12.4085
其本在人心之感於物也	-12.4085
姑太黄南林姑太黄南林姑太黄	-12.4085
祖所自出	-12.4086
初獻新樂於明堂太廟或聞其樂聲曰清	-12.4086
堂上堂下堂上堂下林鐘鎛鐘林鐘鎛鐘	-12.4086
人心之動物使之然	-12.4086
十分為一寸十寸為一尺十尺為一丈	-12.4086
十有三年舞勺成童舞象	-12.4086
工不興左瑟一人拜受爵主人	-12.4086
既和且平依我磬聲	-12.4086
洋洋乎如在其上如在其左右	-12.4086
調之四則次聲不變	-12.4086
中尉元匡以一黍之廣度	-12.4086
九寸之數管長四寸五分六月用為候氣	-12.4086
云還相為宫清濁悉足非惟未練五調調	-12.4086
伶倫先得嶰谿之竹	-12.4086
又以十因之為	-12.4086
夷則下有商應鐘下有羽字	-12.4086
安溪李氏	-12.4086
定此尺然其樂聲	-12.4086
實比晉前尺一尺六分四釐	-12.4086
尺為近依文	-12.4086
此所以祭先王之廟	-12.4086
聖人本隂陽别風聲審清濁	-12.4086
育生謙待	-12.4086
蕤姑大應南蕤姑大應南蕤姑大	-12.4086
長六寸二分四釐二毫九絲五忽	-12.4086
黄鍾為商兮無射為宫	-12.4086
其説乃是以律之長自乘而因之以十	-12.4086
慰	-12.4086
譔	-12.4086
一建鼓在其南東鼓	-12.4086
諸侯薨令去樂大	-12.4086
戻	-12.4086
鍾多二斛	-12.4086
鼓大而短則其聲疾而短聞	-12.4086
天子八諸侯六大夫四士二	-12.4086
故書同作銅	-12.4086
春饗孤子秋食耆老	-12.4086
絃徵轉為商	-12.4086
者皆出於笙師所教無非竹音之雅樂也	-12.4086
詩言其志也言之不足故嗟	-12.4086
䧺	-12.4086
三分本律而損其一也	-12.4086
五毫三百七十五絲二百三十五忽	-12.4086
京房之見則是矣至於轉生	-12.4086
六寸為角南吕五寸為	-12.4086
廐	-12.4086
暴辛公善	-12.4086
横黍為分之十寸也寸皆十分凡百分	-12.4086
禮曰楷擊樂記曰聖人作為	-12.4086
衙	-12.4086
醇	-12.4086
韶繼也夏大也殷周之樂盡矣	-12.4086
之外即為變宫調中之	-12.4086
九夏之樂以王夏為	-12.4086
十六之而銑取其十以為度則銑徑	-12.4086
商太簇起宫太簇之商	-12.4086
均者均鍾木	-12.4086
寸有竒舞廣	-12.4086
律水尺此宋	-12.4086
斤今鑄金校驗	-12.4086
蜼	-12.4086
三釐七毫三絲	-12.4087
若事有乖此聲則不和	-12.4087
二曰太蔟所以金奏贊陽出滯也	-12.4087
有六孔七孔八孔十孔之説	-12.4087
先儒泥於宫濁羽清之説	-12.4087
君弱臣强	-12.4087
强作解事	-12.4087
下上為正調下為清調	-12.4087
之二四寸二百四十三分寸之五十	-12.4087
之和十九管之巢三十六簧之竽二十五	-12.4087
也所以量多少也本起於黄鐘之	-12.4087
倍之為八寸分寸之一百	-12.4087
調之四則次聲變變	-12.4087
三寸一分四釐九毫	-12.4087
之治堂下之樂象萬物之治荀卿以	-12.4087
也盖律管之長以九為本上下相生以三	-12.4087
二分五厘五毫	-12.4087
凖則莫若且多截竹以擬黄	-12.4087
吕為隂則得其所衝而上生於陽者是也	-12.4087
四寸二分則其中間長短相距取用之數	-12.4087
堂上之樂象廟朝	-12.4087
増夫仲吕上生不成黄	-12.4087
如天之無不覆	-12.4087
已然有五音而無二變亦不可以成樂也	-12.4087
彥	-12.4087
故角徴之間近徴	-12.4087
柷椌楬為似萬物則是以堂	-12.4087
求其理用罔見通達	-12.4087
法而鄭氏所用正法破一寸以為	-12.4087
祖孝孫云相承傳是蔡邕銅	-12.4087
與人歌而善必使反之而後和之	-12.4087
言瑟不及琴	-12.4087
開皇初調鐘律尺及平陳後調	-12.4087
離而二之亦誤矣	-12.4087
􁈡	-12.4087
之外即為宫調中之	-12.4087
寔比晉前尺一尺	-12.4087
夾大無夷蕤夾大無夷蕤夾大無	-12.4087
惕	-12.4088
秋冬學羽籥皆於東序小樂正學	-12.4088
凡祭與養老乞言合語之禮	-12.4088
商之間隔一聲是合二聲	-12.4088
考工記韗人為	-12.4088
醻	-12.4088
八寸一分上下相生窮於應	-12.4088
司戈盾祭祀授舞者兵	-12.4088
因三分損益而立	-12.4088
執始生去滅	-12.4088
子曰若非武音則何音也對曰有司失其	-12.4088
尺比漢錢尺	-12.4088
方尺羃百寸	-12.4088
籥入叔弓卒去樂卒事	-12.4088
臍	-12.4088
銲	-12.4088
黄帝命營援作	-12.4088
三分而去其乘適足以是生商	-12.4088
九調属金南	-12.4088
二分二厘四毫八絲	-12.4088
互藏其宅	-12.4088
使師延作	-12.4088
南應大夹姑蕤夷	-12.4088
夔之律圍徑差小而尺因以長荀朂雖	-12.4088
大鈞有鎛無鐘	-12.4088
平者一弦林鍾為	-12.4088
扑	-12.4088
為善曰此華夏舊聲雖隨俗改變大體	-12.4088
由消息未善其於	-12.4088
短以平其鍾和其聲以立百事之道法	-12.4088
笙鐘頌鐘	-12.4088
鐘為宫大吕為角太簇為徵應鐘為羽	-12.4088
隂聲大吕應鍾南吕函鍾小吕夾鍾	-12.4088
音止調用相生之	-12.4088
顒	-12.4088
餘五萬一千八百九十六	-12.4088
不比於正音但可以濟五聲之	-12.4088
掌六律六同以合隂陽之聲	-12.4088
竹取其自然圓	-12.4088
堂上則門内之	-12.4088
拊為之父堂下則門外之治以鼓為之君	-12.4088
擊至夷則以下四管為宫之時臣民相越	-12.4088
治世之音安以樂其政和亂世之音	-12.4088
九寸以九因之得八寸一分應	-12.4088
以九因之得四寸一分九釐四毫以此	-12.4088
四暢交於	-12.4088
者鄭氏之言分寸審度之正法	-12.4088
詩言其志也歌咏其聲也舞動其容也	-12.4088
鄭氏與太史公説不同	-12.4088
餘三寸九分零六毫	-12.4088
鬆	-12.4088
七尺二寸廣尺八寸	-12.4088
新法置南呂之率五億九千四百六十	-12.4088
何則其數之精	-12.4089
樂御而射以禮	-12.4089
人而不仁如禮何人而不仁如樂何	-12.4089
周官大胥以六樂之㑹正舞位	-12.4089
弓之下制六尺	-12.4089
參分其鼓博以其一為	-12.4089
月而卒哭	-12.4089
椅桐梓漆	-12.4089
蒿	-12.4089
欲多截管以	-12.4089
然則如之何而可	-12.4089
管長八寸八分法云三分	-12.4089
一寸八釐八毫七忽	-12.4089
三分其實得二寸八釐六毫以為法	-12.4089
不以規矩不能成方圓	-12.4089
中於宫觸於角	-12.4089
二十四毫六十九絲一十三忽	-12.4089
二黍十分黍之四	-12.4089
他人皆不及也	-12.4089
其圍徑以就之	-12.4089
其節之志以不失其事則功成而德行立	-12.4089
南授生分烏	-12.4089
呼逢一進一十得一	-12.4089
大寒則大吕八寸三分七	-12.4089
夫樂者象成者也	-12.4089
宋陳𤾉撰樂圗論吉禮	-12.4089
律以一尺二寸即為市尺	-12.4089
律孔徑三分參天數也圍九分終天數也	-12.4089
掌宗廟之祭祀	-12.4089
擊應笙之磬而笙亦應之也	-12.4089
暢四方唱始施生為四聲綱也	-12.4089
柷以合樂而作之必鼓之欲	-12.4089
涵	-12.4089
濤	-12.4089
為前周之尺驗其長短與宋	-12.4089
稚	-12.4089
謂之應所以應大	-12.4089
長八寸圍八分為積六百四十分	-12.4089
餐	-12.4089
均之七聲以其	-12.4089
聲為始終是謂	-12.4089
凰	-12.409
已薄則播	-12.409
夷則三分夷則損一下生夾	-12.409
詩者中聲之所止	-12.409
所以獻酬酳酢也所以官序貴賤各得其	-12.409
約十五寸合六十寸庣其旁約二寸	-12.409
語曰大不踰宮細不過羽	-12.409
一節最為律吕旋宫用聲之綱領	-12.409
三分三厘四毫	-12.409
不可復見然古人所以制	-12.409
不可為黄鐘而不知變至於六則數窮	-12.409
中得周時玉尺便是天下正尺荀朂試以	-12.409
之數其分字以上者皆黄鐘之全數	-12.409
十釜為鍾	-12.409
太應南林姑太應南林姑太應南	-12.409
姑蕤夷無應大夹	-12.409
往驗管而飛灰已應	-12.409
由此之義起十二律之周徑	-12.409
餘一萬二千九百七十四為	-12.409
八分八釐一毫八絲八忽九微四纎	-12.409
九毫二十七絲五十一忽	-12.409
無射拊無射鼗	-12.409
譯因習而彈之始得七聲之正	-12.409
開平方法除之得	-12.409
示不相襲也	-12.409
誚	-12.409
或歌或咢	-12.409
三絃獨下一徽	-12.409
大禘大祫	-12.409
笏	-12.409
雌鳴亦六	-12.409
雍正庚戌	-12.409
操之為言持也縵之為言緩也	-12.4091
而升堂升堂而樂闋	-12.4091
萬有一千五百二十	-12.4091
蕤賔起調蕤賔畢曲旋宫第	-12.4091
世説稱有田父	-12.4091
即角聲也四曰沙侯加濫華言應聲即變	-12.4091
大䘮大荒大	-12.4091
枯	-12.4091
轉下與低接	-12.4091
䘮服四制	-12.4091
五百分以七百四十九為法除之得	-12.4091
以樂樂于賔賔許	-12.4091
其第六弦第七弦散	-12.4091
南㽔姑太應南㽔姑太應南㽔	-12.4091
夾黄無夷仲夾黄無夷仲夾黄無	-12.4091
盛軌同律度量哲后通規臣等詳校前經	-12.4091
間近宫收一聲少髙於宫故謂之變宫也	-12.4091
一曰婆陁力華言平聲即宫聲也二曰	-12.4091
姑大應南蕤姑大應南蕤姑大應	-12.4091
華言斛牛聲即變宫聲也	-12.4091
正聲為角是月百物脩潔故用之宗廟合	-12.4091
如環無端	-12.4091
畢參觜	-12.4091
天地之數五十有五	-12.4091
則先歌周禮所謂登歌令奏擊拊是也	-12.4091
尸出入則令奏肆夏牲出入則令奏昭夏	-12.4091
簫簫南吕簫簫南吕拊鼗	-12.4091
三分八釐五毫五絲五忽二微七纎	-12.4091
弑	-12.4091
應鍾亥之氣也十月建	-12.4091
收二十七釐為三分又收十八毫為二釐	-12.4091
歌應鍾以祭地示	-12.4091
歌騶虞若采蘋皆五終	-12.4091
無夷仲夾黄無夷仲夾黄無夷仲	-12.4091
特磬無射歌舞仲吕歌舞無射歌鐘	-12.4091
與管灰相應若符契焉開皇九年平陳後	-12.4091
髙祖遣毛爽	-12.4091
鼓應笙之鐘而笙亦應之也	-12.4091
嗚	-12.4092
以吉禮事邦國之鬼神示	-12.4092
皇極經世	-12.4092
曵	-12.4092
以金鐸通鼔	-12.4092
管長七寸一分律長	-12.4092
節奏聲之飾也	-12.4092
善琴者八十餘	-12.4092
復亂以飭歸	-12.4092
氊	-12.4092
紀綱紀綱既正天下大定	-12.4092
辰與酉合	-12.4092
作五弦之琴以歌南風	-12.4092
動不存乎體	-12.4092
始奏以文復亂以武治亂以相訊疾以雅	-12.4092
愾	-12.4092
戡	-12.4092
林鍾夷則南呂無射應鍾五律	-12.4092
琴篴南吕琴篴	-12.4092
瑟塤南吕瑟篪	-12.4092
舜繼堯之	-12.4092
轉上與髙接	-12.4092
八毫四絲七忽八微八纎	-12.4092
南吕酉之氣也八月建焉而辰在	-12.4092
厎	-12.4092
太公之志也武亂皆坐周召之治也	-12.4092
寓於器則器異異虡見於文則文同同筍	-12.4092
微末以象殺伐之氣	-12.4092
曝	-12.4092
測圓總率	-12.4092
祭奏齊夏族人侍	-12.4092
稀	-12.4092
芻	-12.4092
仲夾黄無林仲夾黄無林仲夾黄	-12.4092
南林姑太應南林姑太應南林姑	-12.4092
□􁕱□􁕔□	-12.4093
姊	-12.4093
猗與那與置我	-12.4093
凡樂圜鐘為宫黄鐘為角太簇為	-12.4093
粟米法少二升八十一分升之二十二	-12.4093
錯採衆聲配成其美若以應鐘為宫大	-12.4093
太簇姑洗林鐘南吕皆以正聲應無有忽	-12.4093
奏族夏客醉而出奏祴夏公出入奏驁夏	-12.4093
星紀大吕丑之氣也十二月建焉而辰在	-12.4093
爾雅肉倍好謂之璧	-12.4093
七月建焉而辰在鶉尾中吕已	-12.4093
以為夷則夷則之實五寸五分五釐一毫	-12.4093
六月建焉而辰在鶉火夷則申之氣	-12.4093
外二鉦外一	-12.4093
置一而九三之以為寸法者其術一也	-12.4093
者形類羅圈而	-12.4093
謂之七聲五聲為正二聲為變變者和	-12.4093
傚	-12.4093
后稷以配天宗祀文王於明堂以配上帝	-12.4093
催	-12.4093
箑	-12.4093
祔	-12.4093
艾如張上之回	-12.4093
蕞	-12.4093
太簇簫太簇簫太簇拊太簇鼗	-12.4093
如鳴鳥在樹	-12.4093
溉	-12.4093
乗旂旐尚	-12.4093
九月建焉而辰在大火夾鍾夘之氣	-12.4093
也二月建焉而辰在降婁	-12.4093
以今等子校之為	-12.4093
其實得一寸七分七釐六毫三絲以為法	-12.4093
内收九分為一寸又收	-12.4093
削以嶧陽之桐	-12.4093
四月建焉而辰在實沈無射戌之氣	-12.4093
姑洗辰之氣也三月建焉而辰在大梁	-12.4093
廽	-12.4093
檿桑之絲徽以麗水之金軫以崑山之玉	-12.4093
無林仲夾黄無林仲夾黄無林仲	-12.4093
聲洪而徐	-12.4093
自殷以前但有五音自周以	-12.4093
藏此二聲者葢	-12.4093
謹所以感之	-12.4093
吕為宫則十二律内全無所取何者	-12.4094
毒	-12.4094
東觀漢記	-12.4094
管長六寸三分律	-12.4094
管長四寸九分律長四寸六	-12.4094
大不出鈞重不過石律度量衡於是乎生	-12.4094
典同掌六律六同之和以辨天地四方	-12.4094
凡樂官掌其政令聽其治訟	-12.4094
建鼔在阼階西南鼔應鼙在其東	-12.4094
忖	-12.4094
應鐘笙應鐘笙	-12.4094
拊形如鼓以韋為之著之以穅	-12.4094
於二十八寸二分八釐	-12.4094
舜益之為二十三	-12.4094
鄭音好濫淫志	-12.4094
鍾宫至夾鍾羽並用黄鍾起調黄鍾畢曲	-12.4094
間若一者重節	-12.4094
其上為斛其下為斗左耳為升右耳為合	-12.4094
方以類聚物以羣分	-12.4094
枵太蔟寅之氣也正月建焉而辰在	-12.4094
磬繼之以鐘鎛應	-12.4094
肆夏昭夏納夏章夏齊夏族夏祴夏驁夏	-12.4094
黄鍾子之氣也十一月建焉而辰在	-12.4094
砧	-12.4095
壅	-12.4095
黄門侍郎	-12.4095
左何瑟後首挎越燕禮小臣左何瑟	-12.4095
揚也樂之末節也故童子舞之	-12.4095
祧	-12.4095
劾	-12.4095
歌箜篌觱篥埒竽大胡笳	-12.4095
綏我思成	-12.4095
蠡銅鈸銅鼓都曇鼓	-12.4095
訕	-12.4095
邏	-12.4095
三十三毫五百四十八絲一百七十五忽	-12.4095
大饗不入牲其他皆如祭祀	-12.4095
履端於始	-12.4095
批	-12.4095
擊壤而歌者	-12.4095
王出入則令奏王夏	-12.4095
莫不和順夫以一器之成而功化之敏	-12.4095
寸次之故黄鍾	-12.4095
盤龍辟邪	-12.4095
吕氏淮南子上下相生與司馬	-12.4095
樂者審一以定和	-12.4095
以一聲叶一字則古詩篇篇	-12.4095
㽔賔午之氣也	-12.4095
八毫四分五釐八毫	-12.4095
小滿則仲吕六寸五分八	-12.4095
酇	-12.4095
王子年拾遺録	-12.4096
祭祀則鼓羽籥之舞賔客饗食則亦如之	-12.4096
頑	-12.4096
呼二一添作五	-12.4096
行其綴兆要其節奏	-12.4096
士無故不徹琴瑟	-12.4096
若合符節	-12.4096
長樂陳氏曰	-12.4096
響泉韻磬	-12.4096
俱緊一音旋為宫聲	-12.4096
應鍾起調應鍾畢曲旋宫第	-12.4096
食三老五更於太學天子	-12.4096
一徽四徽七徽十徽十三	-12.4096
柵	-12.4096
歌磬編磬夾鐘歌磬編磬	-12.4096
燕朋友故舊	-12.4096
琴篴夾鐘琴篴	-12.4096
瑟塤夾鐘瑟篪	-12.4096
笙笙夾鐘笙笙	-12.4096
簫簫夾鐘簫簫夾鐘拊鼗	-12.4096
編鐘仲吕歌鐘編鐘	-12.4096
聲歌各有宜	-12.4096
胡篪小胡笳中鳴角齊鼓擔鼓毛貟鼓舞	-12.4096
解秬黍體大本異	-12.4096
鐘編鐘夾鐘歌鐘編鐘	-12.4096
□􁕕□􁕖□□􁕖□□􁕕□􁕖□	-12.4096
嘖	-12.4096
堂距邦	-12.4096
為北鄙之聲其廢也忽焉	-12.4096
然後諸侯知所以敬五者天下之大	-12.4096
秘書監	-12.4096
號曰助天	-12.4096
九十三萬七千二百九十八	-12.4096
樂三闋然後出迎牲聲音之號所以詔告	-12.4097
人用之故又名	-12.4097
在心為志發言為詩	-12.4097
布緹縵室中以木為案毎律各一	-12.4097
律其黄鍾應古	-12.4097
擊拊瞽乃歌也	-12.4097
暉應六弦散聲	-12.4097
暢故不可用上而及半然後屬	-12.4097
曰建櫜然後天下知武王之不復用兵也	-12.4097
特磬黄鐘歌舞林鐘歌舞	-12.4097
然後賞之以樂	-12.4097
□􁕰□􁕧□	-12.4097
抝	-12.4097
羣公之廟	-12.4097
寰	-12.4097
陽律以竹為管隂律以銅為管	-12.4097
禮樂皆得謂之有徳	-12.4097
蓼	-12.4097
有數存於其間	-12.4097
樂記曰弦歌干揚童者舞之	-12.4097
瑟宜於方澤奏之龍門人功所鑿而成也	-12.4097
命樂正習舞釋菜	-12.4097
大射有朔鼙應鼙	-12.4097
耽	-12.4097
不殖貨利	-12.4097
些	-12.4097
凡祭祀饗射共其鐘笙之樂	-12.4097
宇文周時	-12.4097
度而志至焉者也故詩之所言在志不在	-12.4097
挨	-12.4097
秫	-12.4097
􁋦	-12.4097
黄鐘大吕太簇夾鐘姑洗仲吕	-12.4098
之厚已上則摩其旁已下則摩其耑	-12.4098
則十一律者又無所受以為本律之宫也	-12.4098
不以十二律節之則無以著夫五	-12.4098
凡六樂者文之以五聲播之以八音	-12.4098
百一十二億七千三百七十二萬六千	-12.4098
致樂以治心	-12.4098
又九因一遍至	-12.4098
止乎禮義	-12.4099
洎	-12.4099
分其甬長二在上一在下以設其旋	-12.4099
徴羽在宫前商角在宫後	-12.4099
琴瑟宜於圜丘奏之空桑隂地也	-12.4099
碑	-12.4099
阬	-12.4099
以象上帝玉磬之音	-12.4099
倍應之聲靡不悉備	-12.4099
制禮作樂頒度量而天下大服	-12.4099
弦散聲比琴第二弦散聲微	-12.4099
畋	-12.4099
矣由之不才也	-12.4099
一枚分作兩段全律半律各令一人吹之	-12.4099
仰瞻勢表親愛	-12.4099
前方法内共得二	-12.4099
有五象五行也	-12.4099
濟河而西馬散之華山之陽而弗復	-12.4099
煜	-12.4099
之律一様二枚	-12.41
百獸率舞商頌既和且平依我磬聲周禮	-12.41
面其南笙鐘其南鑮皆南陳	-12.41
大喪廞其樂器奉而藏之	-12.41
禮之用和為貴	-12.41
枚同一簨	-12.41
餼	-12.41
奎	-12.41
團	-12.41
塚	-12.41
杭	-12.41
為物之至精不為燥濕寒暑變其節不為	-12.41
大射帥瞽而歌射節	-12.41
窮髙極遠而測深厚	-12.41
繭	-12.41
蛤	-12.41
頀	-12.41
餳	-12.41
共鐘笙之樂	-12.41
商者五帝之遺聲也商人識之故謂之商	-12.41
後世聖人易之以	-12.41
復用倒載干戈包之以虎皮將帥之士使	-12.41
徽若均布之當	-12.41
椅	-12.41
特磬南吕歌舞姑洗歌舞	-12.41
貴人聲也仲尼燕居曰升歌清廟示	-12.41
之鳴其雄鳴為六雌鳴亦六	-12.4101
小臣納工工六人四瑟	-12.4101
拌	-12.4101
洪範五行	-12.4101
陳祥道禮書	-12.4101
六萬五千五百三十六為仲吕半之實計	-12.4101
□􁕚□􁕙□	-12.4102
浙	-12.4102
熱	-12.4102
閩	-12.4102
仕於伶官	-12.4102
初散爲黄鍾濁聲初十徽	-12.4102
芮	-12.4102
知樂則幾於禮矣	-12.4102
颺	-12.4102
下車而封	-12.4102
加於人一等矣	-12.4102
動已而天地應焉	-12.4102
四十零五之少宫位	-12.4102
慧	-12.4102
挫	-12.4102
椑	-12.4102
見利而讓	-12.4102
閹	-12.4102
黄帝之後於薊封帝堯之後於祝封帝	-12.4102
七徽為全度之半	-12.4102
第四弦按第十徽彈之令與笙音相同是	-12.4102
囚使之行商容而復其位庶民弛政庶士	-12.4102
聯	-12.4102
岡	-12.4103
刈	-12.4103
□􁕨□􁕔□	-12.4103
赦	-12.4103
栢	-12.4103
摛	-12.4103
戌與卯合	-12.4103
杵	-12.4103
腕	-12.4103
擴	-12.4103
楰	-12.4103
涓	-12.4103
侖	-12.4103
歌磬編磬仲吕歌磬編磬	-12.4103
氏所補者歟	-12.4103
瑟塤仲吕瑟篪	-12.4103
禮義立則貴賤等	-12.4103
笙笙仲吕笙笙	-12.4103
簫簫仲吕簫簫仲吕拊鼗	-12.4103
畔	-12.4103
竟山樂錄	-12.4103
臨事而屢斷	-12.4103
舜之後於陳下車而封夏后氏之後於	-12.4103
設席于堂亷東上	-12.4104
前其柱則清後其柱則濁	-12.4104
投殷之後於宋	-12.4104
琴篴仲吕琴篴	-12.4104
妙則妙矣	-12.4104
不猶愈於	-12.4104
湊	-12.4104
笮	-12.4104
廖	-12.4104
擢	-12.4104
以笙定琴以琴定瑟	-12.4104
律書樂圖云	-12.4104
殄	-12.4104
聖祖仁皇帝論樂	-12.4104
春入學舍菜合舞秋頒學合聲	-12.4104
諼	-12.4104
□􁕦□􁕧□	-12.4104
煑	-12.4104
特磬林鐘歌舞太簇歌舞林鐘歌鐘	-12.4104
太林黄仲無夾夷大㽔應姑南太林黄仲	-12.4105
立天之道曰隂與陽	-12.4105
雖見於經其詳不可得而知也	-12.4105
大師執同律以聽軍聲而詔吉凶	-12.4105
故曰樂觀其深矣	-12.4105
岳内約有一肘	-12.4105
弦安柱離	-12.4105
寃	-12.4106
沾	-12.4106
宮生徴徴生商	-12.4106
借古語擬弦音猶詞家填腔也	-12.4106
其銘曰時文思索允臻其極	-12.4106
樂則以柷將之賜伯子男樂則以鼗將之	-12.4106
為變宫第七變得	-12.4106
蕤大夷夾無仲黄	-12.4106
徼	-12.4106
樂酒無厭	-12.4106
虎侯熊侯豹侯	-12.4106
乗圍必有三	-12.4106
也所不貴者	-12.4106
堕	-12.4106
夷樂作於國門右辟	-12.4106
迅	-12.4106
明乎齊之音者見利而	-12.4106
亾	-12.4106
大籥謂之産	-12.4106
氐	-12.4106
致禮以治躬	-12.4106
酤	-12.4107
大塤謂之嘂	-12.4107
柷如漆桶	-12.4107
考之此斛當徑一尺四寸三分六釐一毫	-12.4107
窟	-12.4107
下管新宫笙入三成遂合鄉樂若舞則勺	-12.4107
木倨中矩句中鉤纍纍乎端如貫珠	-12.4107
道可載而與之俱	-12.4107
大射樂人宿縣于阼階東笙磬西	-12.4107
皁	-12.4107
徒歌謂之謡	-12.4108
諏	-12.4108
濡	-12.4108
體中翕聲	-12.4109
斨	-12.4109
言之不足故嗟嘆之嗟嘆之不足故	-12.4109
馨	-12.4109
前者變而居	-12.4109
吼	-12.4109
紼	-12.4109
衰麻哭泣	-12.4109
何弦散音而與何弦	-12.4109
聲七調皆生于	-12.4109
盡筋骨之力	-12.4109
所以鼓柷謂之	-12.4109
康衢擊壤	-12.411
瞎	-12.411
鼠	-12.411
瑤	-12.411
第二弦按第十徽彈之令與笙音相同是	-12.411
謎	-12.411
錚	-12.411
系	-12.4111
取半以下為投壺禮盡用之為射禮	-12.4111
鐘其南鑮皆南陳一建鼓在其南東鼓	-12.4111
宣八年辛巳有事于	-12.4111
曰無曰應曰黄曰大曰太但取夷則至太	-12.4111
諳	-12.4111
圃	-12.4111
熏	-12.4111
妻有服不舉樂於其側	-12.4111
綾	-12.4111
裴正以為舜開七始周制七音並不用八	-12.4111
象兵還振旅	-12.4111
齎	-12.4111
其袤一尺而廣狹焉	-12.4111
舡	-12.4111
最大而沈濁者	-12.4112
劭	-12.4113
毦	-12.4113
一以夷至黄一以無至太	-12.4113
闈	-12.4113
戞擊鳴球摶拊琴瑟	-12.4113
陿	-12.4113
依七音琴第	-12.4113
端如貫珠格	-12.4113
㳟	-12.4113
右乃無射倍律積	-12.4113
鉏	-12.4114
懋	-12.4114
冕而摠干	-12.4114
殁	-12.4114
筯	-12.4114
擫	-12.4114
􁕑	-12.4114
調調有下聲	-12.4114
一以黄至夷一以太至無	-12.4115
鶵	-12.4115
齊永明中	-12.4115
如梧桐子	-12.4115
欲于七聲之外加一黄	-12.4115
駔琮五寸宗后以為權	-12.4116
云以為權故有鼻也	-12.4116
之位三分之而損一分其位則在七徽	-12.4116
蚡	-12.4116
髠	-12.4117
讎	-12.4117
渚	-12.4117
孽	-12.4117
下於宫故曰下	-12.4117
父有服宫中子不	-12.4117
帑	-12.4117
稙	-12.4117
絃一音即今之所謂	-12.4117
篠	-12.4117
□􁕫□􁕗□	-12.4117
□􁕬□􁕭□	-12.4117
駔琮七寸鼻寸有半寸天子以為權	-12.4117
勁正莊誠之音作而民肅敬	-12.4118
昏姻冠笄	-12.4118
莠	-12.4118
終身之憂	-12.4118
珮	-12.412
鬬	-12.412
漢安帝時	-12.412
陳一建鼔在其	-12.4121
燥	-12.4121
北周長孫紹	-12.4121
坻	-12.4121
翫	-12.4122
濵得古磬十六枚	-12.4122
三分之而益一分則為	-12.4122
栩	-12.4122
星三辰七宿從祀	-12.4122
苹	-12.4123
絃之分轉為宫立宫位以主調遂為	-12.4123
聳	-12.4124
勢象惻隠之仁二曰	-12.4124
勢象羞惡之義三曰	-12.4124
吠	-12.4125
捺	-12.4125
駰	-12.4126
痛	-12.4128
朝歌北鄙	-12.4128
穋	-12.4129
廬	-12.4131
蹄	-12.4131
孔之籥豈其	-12.4131
顙	-12.4132
僮	-12.4133
綘	-12.4136
悽	-12.4138
宋元徽三年儀註奏	-12.4139
奨	-12.414
平濁平清	-12.414
心感者其聲之變也	-12.414
老之珍具遂	-12.4141
吐谷渾	-12.4145
堙	-12.4146
姑南太林黄仲無夾夷大㽔應姑南太林	-12.4151
屈茨琵琶	-12.4153
龠十龠為合	-12.4154
第五弦按第十徽彈之令與笙音相同是	-12.4156
棬	-12.4156
俗呼髙大石	-12.416
第一弦按第十徽彈之令與笙音相同是	-12.416
􁋡	-12.4161
立宫位以主調	-12.4171
駸	-12.419
若樂八變則地示皆出可得而禮矣	-12.4276
百五十七萬一千三百四十八分有竒	-12.4312
寸六分六釐六毫	-12.4336
眡瞭掌凡樂事播鼗擊頌磬笙磬	-12.4367
人不耐無樂樂不耐無形形而不	-12.4416
八分八釐四毫八絲以為無射	-12.4437
㽔應姑南太林黄仲無夾夷大㽔應姑南	-12.4615
亞飯干適楚三飯繚適蔡四飯缺適秦	-12.462
○□○○○○□○□○	-12.5241
無夾夷大㽔應姑南太	-12.5412
中也元始也行於十二辰始動於子參之	-12.5722
三分而益之以一為百有八	-12.5776
大吕長九寸四分三釐八毫七絲四忽三	-12.5807
無夾夷大㽔應姑南太林黄仲無夾夷大	-12.5937
琴篴應鐘琴篴	-12.5961
四十三為黄鐘變半之實計	-12.6298
律嘉量斛方尺而圓其外庣旁九釐五毫	-12.6304
使人相祭工飲不拜既爵授主人爵衆工	-12.6668
瑟塤應鐘瑟篪	-12.6706
有金有玉分有貴有賤位有上有下而親	-12.6757
郷	-12.717
圍徑自先漢以前傳記並無明文惟班志	-12.7177
一十分繇此之義起十二律之周徑然其	-12.7182
音作而民康樂	-12.7221
李氏學樂録卷二	-12.7228
九億四千三百八十七萬四千	-12.7231
辰各有五聲其為宫商之法亦如之	-12.7247
二千一百八十七分寸之一千七十五	-12.7266
廱	-12.7269
也則法也言萬物既成可法則也故可以	-12.7312
弦為南吕與第十弦散聲應按第	-12.7323
一歌琴瑟一奏笙	-12.7348
不忍人之仁政	-12.7348
以調聲韻以尺量古	-12.7348
共得二十三寸七分八釐	-12.7351
者衆聲皆隨之而	-12.7351
凊	-12.7353
柎	-12.7353
畤	-12.7359
十一律皆不應三分損益之數其失又甚	-12.7361
三二九五九六	-12.7363
鬲	-12.7363
故黄鍾獨為聲氣之元雖十二律	-12.7364
皆黄鍾所生然黄鍾	-12.7364
九七之數也二十一者三七之數也	-12.7365
半聲夷則南吕五半聲無射應鍾六半聲	-12.7365
自林鍾而下則有半聲	-12.7365
鈿	-12.7369
衽	-12.7371
字為九聲領調之字則調之頂聲	-12.7371
理必有對待數之自然也以天五地六合	-12.7372
其歌聲合是調者如	-12.7373
復為他律役所用七聲皆正律無空積忽	-12.7373
九寸紀陽不紀	-12.7373
五聲究於六十亦三十六為陽二十四為	-12.7373
瑜	-12.7374
五聲為六十調若合符節何也曰即上文	-12.7374
五子究於六十其三十六為陽二十四為	-12.7374
織造段疋	-12.7374
袷	-12.7374
五聲各為綱紀以成六十調六十調皆黄	-12.7375
數由天五地六錯綜而生律吕之數由黄	-12.7375
而生二者不同至數之成則日有六甲辰	-12.7376
十二律旋迭為均均有七調合八十四調	-12.7376
蕤賓角應三絃散聲三絃蕤賓角取十	-12.7376
匙	-12.7376
釣	-12.7376
喋	-12.7376
少仰則兼乎	-12.7376
損益之變也宫商角三十六調老陽也其	-12.7377
桉	-12.7377
羔	-12.7378
詹	-12.7378
宫架奏黄鍾歌大吕舞雲門	-12.7378
皇靈顯融	-12.7378
前漢志同聖朝天聖令文云諸	-12.7378
幄	-12.7378
釐四毫奇新在十	-12.7378
石彈絲以和天下掜擬之八風	-12.7378
行中規還中矩和鸞中采	-12.7378
律之面幂置七八五三九八一六二五以	-12.7379
律黄鍾面幂各以	-12.7379
應先天八卦横圗	-12.738
鐐	-12.738
煦嫗覆育萬物	-12.738
作而中止止而復作	-12.738
撞㽔賓之鐘左五鐘	-12.738
諸外而民莫不承順	-12.738
之元首股肱有一	-12.738
少俯則兼乎	-12.738
仲吕長七寸三分九釐九毫	-12.7381
一十六寸八分一釐六毫	-12.7381
黄鍾故下大吕一律已上六調為高調	-12.7381
一建鼓在西階之東南面簜在建鼓之	-12.7382
竽笙塤籥簫篪篴管	-12.7382
以上十三聲為緯聲	-12.7382
栽	-12.7382
如今俗樂亦只有宫商羽三調而已	-12.7382
各當其辰斜埋地下入地處	-12.7383
汲郡盜發六國時魏襄王	-12.7383
四寸一分四釐二毫一絲二忽	-12.7383
奏也繼㽔賔以大吕	-12.7384
奏也繼應鐘以㽔賔	-12.7384
傷怨曠而作	-12.7384
曰騶虞召國女傷失嘉㑹而作	-12.7384
仭	-12.7384
衹	-12.7384
上筭起再九歸一遍得	-12.7384
成自二表至三表為	-12.7384
曰伐檀魏國女	-12.7385
五一四六五一一一八	-12.7385
二尺八寸三分一釐六毫二絲二忽	-12.7385
釐八十八毫三十	-12.7385
云唯君臣民不可相陵事物則不必避	-12.7386
羔開冰先薦寢廟	-12.7386
古琴曲有歌詩五篇	-12.7386
曰鹿鳴周大臣傷時在位而作	-12.7386
曰鵲巢召國男悦	-12.7386
軾	-12.7386
明堂位曰瞽宗殷學也	-12.7386
東房戛敔樂止	-12.7386
又依淮南累粟十二成寸明先王制法索	-12.7386
笙笙南吕笙笙	-12.7388
於一十四寸一分四釐	-12.7388
南吕長五寸三分小分三强	-12.7388
六寸三分小分二微强	-12.7388
搃	-12.7388
上士八人下士十有六人	-12.7388
成而上藝成而下	-12.7388
行成而先事成而後	-12.7388
毫六十五絲四十五忽三十九微一十二	-12.7388
國中唱而和之者	-12.7388
寸下生者二因得	-12.7388
裁紙條與寳源局銅五尺一般長乃界為	-12.7388
為角徵商羽則以四清聲代之不可用黄	-12.7389
紓	-12.7389
三七四六九九八二	-12.7389
骸	-12.7389
奏仲黃林太南姑應㽔大夷	-12.7389
歌磬編磬南吕歌磬編磬	-12.7389
四寸半也若後四宫用黄	-12.739
女巫旱暵則舞雩凡邦之大烖歌哭而請	-12.739
以要鐘鼓拊㑹之節	-12.739
書之在治忽有五聲而無七始	-12.739
逢四進二十得	-12.739
鐘大吕太簇夾鐘姑洗中吕㽔賔	-12.739
順帝陽嘉二年	-12.739
冏	-12.739
微强折半三尺	-12.739
而以一矩有半觸其弦則磬之	-12.739
利用厚生惟和九功惟叙九叙惟歌	-12.7391
王者治定制禮功成作樂	-12.7391
非土不和故書之益稷禮之樂記其言八	-12.7391
一千九百六十四分一百八十五	-12.7391
奏夾無仲黃林太南姑應㽔	-12.7391
潜室陳氏曰	-12.7392
藍	-12.7392
張弦各如黄鍾之聲以第八弦六尺設柱	-12.7392
殰	-12.7392
聲出於脾合口而通之謂之宫	-12.7392
東宫見保傅	-12.7392
立方分則其管當深長	-12.7392
爾雅曰肉倍好謂之璧羨延也此璧本	-12.7393
葵	-12.7393
二律管以為衆管至吹用聲不便乃作律	-12.7393
為太蔟第十弦五尺三寸四分設柱為南	-12.7393
徴南吕為羽應鍾為變宫蕤賔為變徴	-12.7393
耑	-12.7393
穰	-12.7394
前坐而遷之戒勿越	-12.7394
所以藩屏民則也	-12.7394
衎我烈祖	-12.7394
之外故以變目之京房因中吕還生黄鍾	-12.7394
鎬	-12.7394
出於肺開口而吐之謂之商	-12.7394
執其干戚習其俯仰	-12.7394
箸	-12.7394
㽔大夷夾無仲黃林太南姑	-12.7394
先度一矩為句一矩為股而求其弦	-12.7394
培	-12.7394
徒鼓鐘謂之修	-12.7394
故擊其所縣而由其虡鳴	-12.7394
曰禮也者理也樂也者節也君子	-12.7394
樂盈而不反則	-12.7394
涯	-12.7394
無理不動無節不作	-12.7394
無射長四寸九分小分九强	-12.7395
柱為應鍾第七弦六尺三寸三分設柱為	-12.7395
者法萬物始生道達隂陽之氣故有長短	-12.7395
府史胥徒	-12.7395
􁋿	-12.7395
鞉磬柷圉既備乃奏	-12.7396
哂	-12.7396
仲吕長六寸六分小分六弱	-12.7396
太史丞弘試	-12.7396
奏夷夾無仲黃林太南姑應	-12.7396
樂不徒作必有禮	-12.7396
管漆竹長一尺六孔	-12.7396
葛天氏之樂三人操	-12.7396
以夷則之上宫畢之	-12.7396
則終而有始故先足蹈後手舞	-12.7396
君子學道則愛人小人學道則易使	-12.7396
大二寸半徑八分分之少半長三丈二尺	-12.7396
如用之則吾從先進	-12.7396
崇宣之季姦	-12.7396
建樂立均之法諸律相距間皆一律	-12.7396
於此百姓聞王車馬之音見羽旄之美舉	-12.7396
樂之生惡可已	-12.7396
王以二月癸亥夜陳未畢而雨	-12.7396
疾首蹙頞而相告曰吾王之好	-12.7396
終故先手舞後足蹈	-12.7396
至於此極也父子不相見兄弟妻子離散	-12.7396
金門山亦名律管山今	-12.7396
菁菁者莪在彼中阿既見君子樂且有儀	-12.7397
宫聲十二商聲十二角聲十二	-12.7397
師帥執提	-12.7397
琴操一書載堯舜文武孔子之詞尤謬	-12.7397
風移而俗易	-12.7397
徑四寸銘曰棧是	-12.7397
仲吕不能反生黄鐘	-12.7397
愍	-12.7398
褻	-12.7398
因人情為之節文	-12.7398
均二節聲於瑟聲十二清聲十二極清一	-12.7398
誠本五音互應而去四清先王之制也	-12.7398
五分一釐四毫六絲五忽一微一纎	-12.7398
亦從上商六得三千六百	-12.7398
鬰	-12.7398
故謂之厲所以厲六師也以太	-12.7398
每律各一内庳外	-12.7398
羽析白羽為之形如帗	-12.7398
鐫	-12.7398
之曰臣縱君暴其政不平非日别而月異	-12.7398
之聲西南隅之鼓合夷則南	-12.7398
始十年中書考古器揆校今	-12.7398
所以一人之耳目也	-12.7398
故謂之嬴亂所以優柔容民也	-12.7398
無射之聲依月均而考擊之於義或然	-12.7398
無射第六弦六尺六寸八分設柱為	-12.7398
然後彼四聲者乃得連續無間而七均備	-12.7398
股外面鼓内面也假令磬股	-12.7398
量有輕重平以權衡	-12.7398
珊	-12.7398
隠間九尺以應黄鍾之律九寸中央一	-12.7398
鼓在阼階西南鼓則其所建楹	-12.7398
日在析木之津辰在斗柄星在天黿	-12.7399
調其變宫十二在羽聲之後宫聲之前變	-12.7399
遂依周法以秬黍校定尺度長九寸	-12.7399
五行五常亦可益而七之乎	-12.7399
公司馬執鐲	-12.7399
之樂以管為本器之尤小者也應之為鼓	-12.7399
而聲不依永無以	-12.7399
鍾磬竽瑟以和之干戚旄狄以舞之	-12.74
丕	-12.74
再始以著往	-12.74
子張問政孔子對之	-12.74
羸	-12.74
二千七百七十七分七百七十七釐	-12.74
南吕四寸七分八徵四寸十分八	-12.74
及嬴内以無射之上宫布憲施舍於百姓	-12.74
唐九部夷樂有	-12.74
執木杴舞	-12.74
太蔟長八寸八分八釐八毫	-12.74
是作樂及其小者乃所以為	-12.74
欣欣然有喜色	-12.74
照獨任所見更造新器而新聲極下	-12.74
禮主其减樂主其盈	-12.74
議者以為迂誕罷之	-12.74
子路援戚而舞	-12.74
將寳源局銅尺均作	-12.74
發徳也歌者在上匏竹在下貴人聲也	-12.74
師下大夫二人小師上士四人	-12.7401
至亥而後窮上反下	-12.7401
逃	-12.7401
小動為氣和大動為君弱臣强	-12.7401
一月故三十斤為一鈞四時而	-12.7401
倍好者周旋無端終而復始無窮已也	-12.7401
出學小胥大胥小樂正	-12.7401
可負則以楹貫而置	-12.7401
天地之命中和之紀人情之所不能免也	-12.7401
崕	-12.7401
豈好事者妄取其名而詭為之	-12.7401
二毫四絲四忽七初不用半三寸	-12.7401
八十七毫九百一十一絲九百九十五忽	-12.7401
謂單簫即古之籥	-12.7401
鐘八寸七分一宫八寸十分一	-12.7401
故審聲以知音審音以知樂審樂以知政	-12.7401
甿	-12.7401
聲為律身為度	-12.7401
鷂	-12.7401
八百二十二絲二百九十一忽	-12.7401
述而不作信而好古	-12.7401
倂	-12.7401
如晉晉侯享之	-12.7401
燿後大體短脰若是者謂之臝	-12.7401
與見在黄鍾之聲相應以上下相生之法	-12.7401
三毫二百九十五絲九百六十五忽	-12.7401
四五二右乃太蔟倍律積	-12.7401
四清變徴音右變徴之宫中呂之宫一清	-12.7401
奏無射歌夾鍾以享先祖	-12.7401
姑洗為角林鐘為第二宫上生太簇為	-12.7401
徽再折半而得	-12.7401
按一黍之廣為分故累九十黍為黄	-12.7401
王制曰古者以周尺八尺為歩	-12.7401
百黍之重為銖二十四銖為	-12.7401
者調鍾律測晷景	-12.7401
邽	-12.7401
丁度髙若訥	-12.7402
以鼓進以金止	-12.7402
凹	-12.7402
大夫僣諸侯者有	-12.7402
庭大夫僣天子而不知反正者也彼豈知	-12.7402
此假矩以定倨句非用其度	-12.7402
者或鮮焉故先之以	-12.7402
適列在下層之	-12.7402
同位娶妻隔八生子	-12.7402
律相生不計餘數五音相生不計變音其	-12.7402
長以子穀秬黍中者一黍之廣	-12.7402
壎篪此六者德音之音也然後	-12.7402
列五采繒為之	-12.7402
十二粟而當一分十二分而當一銖	-12.7402
及彭氏律法第	-12.7402
四絲六忽六微四纎	-12.7402
為黄鍾之清聲十二聲中旋用七聲為均	-12.7402
綉	-12.7402
銅齊而聲稍清歌乃協然照卒莫之辨	-12.7402
鐘為角太簇為第三宫下生南吕為	-12.7402
子即黄鍾也一分者總為一	-12.7402
宋仁宗明道初	-12.7402
縣鼓則縣鼓周人	-12.7402
鈞宫商也必和之以細故有	-12.7402
鑢	-12.7402
四寸七分一釐九毫三絲七忽一微五纎	-12.7403
為第七宫上生大吕為	-12.7403
二六二四七三七一八二九	-12.7403
句非不合周之頌磬也然不知編縣	-12.7403
二分四釐二毫八絲八忽二微九纎	-12.7403
呌	-12.7403
教焉死則以為樂祖祭於瞽宗	-12.7403
攄	-12.7403
泛音自然之聲而定	-12.7403
縂	-12.7403
主人降席自南方側降作相為	-12.7403
兆五帝於四郊四望四類亦如之	-12.7403
可知遂以此為求徑率求周求積亦如之	-12.7403
宁	-12.7403
帶謂之篆篆間謂之枚	-12.7403
鉦上謂之舞舞上謂之甬甬上謂之衡鐘	-12.7403
閷	-12.7403
頫	-12.7403
㣲强西京望臬㣲弱其餘與此尺同	-12.7403
一分前漢書叙傳曰元元本本數始於一	-12.7403
九月六月不鼓也	-12.7403
以三為一秒則得秒者	-12.7403
以無所因為上以有所待為下	-12.7403
八千四百九十三萬四千六百五十六	-12.7403
取竹於嶰谿之口	-12.7403
大吕為商下生夷則為羽上生夾鐘為角	-12.7403
大祝迎神于廟門奏	-12.7403
夫政象樂樂從和和從平	-12.7403
日有食之鼓用牲	-12.7403
東夷之樂曰昧持	-12.7403
極中也元始也行	-12.7403
洪範八政	-12.7403
為羽下生夷則為角應鐘為第六宫上生	-12.7403
用當代之樂明有制也用四夷之樂明有	-12.7403
示易以敬也卒爵而樂闋孔子屢	-12.7403
舞干戚語説命乞言皆大樂正授數	-12.7403
船	-12.7403
荀卿言縣一鐘	-12.7403
解之恐非古人立法	-12.7403
言特縣鐘磬如此則編鐘編磬亦可知	-12.7403
陽陽左執簧右招我由房	-12.7403
𤨏	-12.7403
堉	-12.7404
無射為角大吕為第八宫下生夷則為	-12.7404
瑭	-12.7404
殿中候用玉律十二	-12.7404
坫	-12.7404
宋朝太常瑟用二十五弦	-12.7404
曰正歌備樂正告于賔乃降	-12.7404
一十一毫一百一十一絲一百一十一忽	-12.7404
大師則為之洗賔	-12.7404
大麗而象天鐘統實而象地天先而地	-12.7404
而當半兩衡有左右因	-12.7404
降主人辭降工不辭洗	-12.7404
一此皆古人命黄鍾為一尺之明證也	-12.7404
一生二二生三三生萬物以三參物	-12.7404
之即不同尺既有差故難以定鐘磬	-12.7404
之淫液之何也對曰恐不逮事也	-12.7404
二百三十七分三百五十九釐三百三十	-12.7404
亦以水火相和而後成聲故大者聲合黄	-12.7404
六二二五一右乃夾鍾倍律積	-12.7404
司正司正禮辭許諾主人	-12.7404
宫商易辨若尺寸小長則六十宫商相與	-12.7404
徑三分圍九分容秬黍千二百遂用黍長	-12.7404
應鐘九萬三千三百一十二	-12.7404
朱子曰自黄鐘至仲吕	-12.7404
興秩節祭先師先聖焉有司卒事	-12.7404
行於十二辰始動於子又曰	-12.7404
集賢校理李照	-12.7404
雷天聲也靈地	-12.7404
黍又首尾相銜逸等止用大者故再	-12.7404
鼓簧鼓缶皆	-12.7404
吕為角夷則為第九宫上生夾鐘為	-12.7405
黄鐘為角夾鐘為第十宫下生無射為	-12.7405
輿馳道作雅	-12.7405
秸	-12.7405
旄人掌教舞散樂舞夷樂	-12.7405
無冬無夏值其鷺羽	-12.7405
得十一分九釐七毫一絲六忽	-12.7405
管象簫長尺圍寸八孔無底	-12.7405
四時迭起萬物循生	-12.7405
簷	-12.7405
十二均合八十四調歌奏之曲由之出焉	-12.7405
鐘之龠亦無由可得其實	-12.7405
鼓鼓軍事以鼛鼓鼓役事以晉鼓鼓金奏	-12.7405
仁之實事親是也義之實從兄是也	-12.7405
以奏九夏是徒知鐘鼓之文	-12.7405
倍之故二十四銖為一兩天有四時	-12.7405
先生書䇿琴瑟	-12.7405
全八寸七分八釐一毫六絲二忽不用	-12.7405
其過益又甚矣	-12.7405
君尊故有鐘鼓大夫士卑特用鼓	-12.7405
故歌采薇以遣之	-12.7405
權者衡平也權重也衡所以任權而均物	-12.7405
比物以飾節節奏合以成文	-12.7405
世歌曰享神歌奏可	-12.7405
之磬非編磬也言磬如此則	-12.7405
也路人道也天神之樂六變而雷鼓	-12.7405
亦如之金非土不生以土之五加金之四	-12.7405
助時生南夷之樂曰任持弓	-12.7405
助時養西夷之樂曰株離持鉞	-12.7405
十一宫上生仲吕為	-12.7405
商上生黄鐘為羽下生林鐘為角無射為	-12.7405
坐奠觶于薦西賔	-12.7405
奚景於泠道	-12.7405
始作樂而合乎祖	-12.7405
小而長則其聲舒而遠聞	-12.7405
弈	-12.7405
文帝已改安世為正始而襲至是又改	-12.7405
涌	-12.7405
滎	-12.7405
生之變者就再生之變又缺其半所謂缺	-12.7405
礚	-12.7405
素其義一也又黄鍾正聲不為他律役其	-12.7405
著其用也或有約九而為十者存其體也	-12.7405
設之四隅軒縣設之三隅判縣設之東西	-12.7405
諸宫之所能役故虚其正而不復用所用	-12.7405
鄉射亦以騶虞者鄉射	-12.7405
靈鼗八面人鬼之樂九變而路	-12.7405
鼗六面地示之樂八變而靈	-12.7405
八分四釐五毫六絲六忽八初	-12.7406
五帝殊時不相沿樂	-12.7406
之以雷霆奮之以風雨	-12.7406
師出以律否臧凶	-12.7406
自然也繼以倍律應無南夷雖濁可歌至	-12.7406
道不耐無亂先王恥其亂	-12.7406
卿大夫以循法為節士以不失職為節	-12.7406
師凡祭祀鼓其金奏之樂	-12.7406
律法又曰吹以攷聲列以候氣	-12.7406
王大食三侑皆令奏	-12.7406
一百五十四分六百六十九釐九百一	-12.7406
二四一五四一六	-12.7406
先王立樂之方也鄭氏謂先擊鐘次擊	-12.7406
凡祭祀饗食奏燕樂	-12.7406
四曰蕤賔所以安靖神人獻酧交錯也	-12.7406
𫉬	-12.7406
上生者四其實得五百十二以	-12.7406
之數五十七主五月上生大吕	-12.7406
五聲圓轉商何能去周禮云六樂十二律	-12.7406
何承天劉焯譏房之	-12.7406
則辨五聲清濁之韻若善琴術則知五調	-12.7406
古本漢書一黍字下	-12.7406
商下生林鐘為羽上生太簇為角仲吕為	-12.7406
律長短圍徑之數第二	-12.7406
揚蹈厲之已蚤何也對曰及時事也	-12.7406
數又不可行此變律之所以止於六也	-12.7406
極之所集曰聲	-12.7406
河圖十位天地之體數也	-12.7406
漢志王莽時劉歆銅斛尺後漢建武銅尺	-12.7406
漢章帝時零陵文學	-12.7406
用四百八十六得八十一者六為六寸	-12.7406
者本以代律取其分數調校樂器則	-12.7406
葢方覆六耦承	-12.7406
蝸	-12.7406
變徴又九分角之一而餘六得	-12.7406
嘶	-12.7407
先儒謂磬在東曰笙笙生也在西曰	-12.7407
勸之以九歌俾勿壞	-12.7407
四九八六八六八七九二六	-12.7407
極乎天蟠乎地	-12.7407
諸侯朝萬物服體而百官莫敢不承事	-12.7407
五寸五分四釐九毫二絲八忽九微五纖	-12.7407
修之以孝養	-12.7407
呵	-12.7407
我聖祖仁皇帝	-12.7407
羨不圜之貌葢廣徑八寸袤一尺	-12.7407
以為樂在於鐘鼓則鐘鼓樂之	-12.7407
天保以上治内采薇以下治外	-12.7407
春入學舍采合舞	-12.7407
贋	-12.7407
進旅退旅和正以廣弦匏笙簧㑹守拊鼓	-12.7407
㓜之理皆辨於此矣古人	-12.7407
三其一得三以分其法	-12.7407
三其三得九以分其法	-12.7407
三王教世子必以禮樂	-12.7407
上生者四其實得二十四以	-12.7407
上生者四其實得六十四以	-12.7407
之有四金猶六律之有六吕	-12.7407
之起積一千二百黍八字今本漢書闕之	-12.7407
也其政散其民流誣上行私而不可止也	-12.7407
二十六為八十一分寸之二十六合之為	-12.7407
云予欲聞六律五聲八音七始詠	-12.7407
五十五毫五百五十五絲五百五十五忽	-12.7407
今列其數云晉前尺黄	-12.7407
使王粲改作登歌安世及巴渝詩而已	-12.7407
八十一是為五聲之本三分損一以下生	-12.7407
初二秒不用半三寸四分五釐一毫一絲	-12.7407
則承陽而節之故可以節鼓	-12.7407
剛果自用遂專恃累黍而金石亦不復	-12.7407
口徑底徑俱	-12.7407
同心一統之義	-12.7407
四尺度等言漢志審度之法云一黍之廣	-12.7407
均利百官噐用程度庶品使皆應其禮復	-12.7407
大樂八音不和始知	-12.7407
子律聲短非南吕為	-12.7407
安上治民莫善於禮	-12.7407
容黍八百八粒梁法尺黄	-12.7407
後漢至魏尺長於古四分有餘	-12.7407
於中其聲為宫地四與天九合而生金於	-12.7407
於鐘言編則磬	-12.7407
景王將鑄無射而為之大林單穆公	-12.7407
書九位天地之用數也是故	-12.7407
柝	-12.7407
欵	-12.7407
用十五得三者五	-12.7407
算法用竹徑一分	-12.7407
虡業維樅賁鼓維鏞	-12.7407
蠧	-12.7407
術皆取法於河圖	-12.7407
鍾聚百嘉具備	-12.7407
鏜	-12.7407
鐲之聲濁鐃之聲髙鐸之聲明	-12.7407
雁	-12.7407
革木以節之物得其常曰樂極	-12.7407
為羽下生南吕為角是十二宫各有五聲	-12.7407
審其容以子穀秬黍中者千有二百實其	-12.7408
三王異世不相襲禮	-12.7408
為斗十斗為斛而五量嘉矣	-12.7408
十七萬二千一百	-12.7408
制雅頌之聲以道之使其聲足樂而不流	-12.7408
長短則謂之度量其多	-12.7408
九九七三七三七五八五三	-12.7408
已為應鐘未為大吕酉為夾鐘亥為仲吕	-12.7408
者樂循法也采蘩者樂不失職也	-12.7408
鐘磬竽瑟以和之干戚旄狄以舞之	-12.7408
七六二六八五七二七一五一五五六二	-12.7408
乃分樂而序之以祭以享以祀	-12.7408
五絲五百七十二忽	-12.7408
大而不鏞小而不棧	-12.7408
弦為宫者有以第	-12.7408
月纔飛少許者髙祖異之以問牛	-12.7408
者或灰飛出三五夜而盡或終	-12.7408
齍	-12.7408
一十其一容一千一百二十漢官尺黄	-12.7408
七十二南吕五寸三分三釐少强數四十	-12.7408
亦五十四羽亦四十八矣	-12.7408
以樂文王世子曰三王之教世子	-12.7408
則清一律唇俯則濁一律仰而急者	-12.7408
卯二十七分十六三為一寸一為三分	-12.7408
四百一十一絲一百四十五忽	-12.7408
壷	-12.7408
容八百二十八梁表尺黄	-12.7408
律管龠合升斗斛豆區鬴亦率類是	-12.7408
所製亦上黨秬黍中者累廣求尺制黄	-12.7408
既非月令之義又與淮南不合	-12.7408
曰古上黨郡今山西潞安府是也境内	-12.7408
架一鐘而尚拊大戴禮曰架一磬而尚拊	-12.7408
漢興張蒼定律乃推五勝之法以為水徳	-12.7408
濁合乎雅頌故也	-12.7408
然後洪纎髙下不相奪倫	-12.7408
用六十三得九者七	-12.7408
紀其餘分以為忽秒	-12.7408
納晉悼公女樂二八晉賜魏絳以一八	-12.7408
者此言理之序大司馬言用之序故也	-12.7408
臣若斯之甚也𢎞不能對	-12.7408
角至角聲之數六十四以三分之不盡一	-12.7408
言時務和審百事無有	-12.7408
近逸等以大黍累尺小黍	-12.7408
鐘之清濁下生不得及黄鐘之數實	-12.7408
鹿鳴三章章八句	-12.7408
入壇則大司樂令衆工奏	-12.7408
六佾歟舞行綴短豈	-12.7408
夏之曲出亦奏之	-12.7408
大府布帛尺七寸八分六釐與景表尺同	-12.7408
安排初聞此語不曉其義及聞何瑭之説	-12.7408
戒與此同意九夏之樂有其名而亡其辭	-12.7408
至釐位住得一釐又九因至毫位住得	-12.7408
一分八釐七毫二絲八忽八微三纎	-12.7409
凝是精粗之體	-12.7409
禽獸知聲而不知音衆庶知音而不知樂	-12.7409
按拍處那五音依舊都用不只是全用宫	-12.7409
吹律以定其樂聲之中	-12.7409
太樂丞葉防	-12.7409
庶類蕃殖	-12.7409
一豆乃四升	-12.7409
以金鐲節鼓以金鐃止鼓以金鐸通鼓	-12.7409
則謂之量稱其輕重則謂之權衡	-12.7409
耄	-12.7409
一分九釐八毫四絲二忽五微一纎	-12.7409
上生姑洗姑洗下生應鐘應鐘上生	-12.7409
十二律並用太史公九分	-12.7409
四十一毫六百九十三絲五百二十一忽	-12.7409
四牡五章章五句	-12.7409
志曰候氣之法為室三重户閉塗釁必周	-12.7409
狀如瑟長丈而十三	-12.7409
鐘之管或極其短或極其長長短之内	-12.7409
三二八三八二六右乃大吕倍律積	-12.7409
下生倍實上生四實	-12.7409
也大師教中聲所止之詩以	-12.7409
二八十六枚而在一虡	-12.7409
五聲之數他律不然曰置本律之實以九	-12.7409
今若止用十二鍾	-12.7409
以其鼓間為之舞脩	-12.7409
以散其怒心感者	-12.7409
以風天下正夫婦	-12.7409
元氣始起於子未分之時	-12.7409
六分六釐六毫六絲六忽六微六纖	-12.7409
其聲為商天三與地八合而生木於	-12.7409
則宫固八十一商亦七十二角亦六十四	-12.7409
南羽濁聲之羽聲低於宫	-12.7409
四分其尺有八寸之廣去一以為尾	-12.7409
壬午猶繹	-12.7409
大司樂之於律同則以	-12.7409
大吕為宫兮無射為羽	-12.7409
孝武之世始行五銖下洎隋朝多以五銖	-12.7409
宜改安世之名	-12.7409
弄趙耶利所修	-12.7409
張指法俗呼緊羽調之	-12.7409
指某孔為某律	-12.7409
搔	-12.7409
昔議者以房中歌后妃之徳	-12.7409
曰王之好樂甚則齊	-12.7409
樂未嘗不以驁示戒焉故公出入奏驁夏	-12.7409
此聲之數所以止於五也或曰此黄	-12.7409
法不可獨用詔悉罷之又詔丁度等詳定	-12.7409
牒	-12.7409
禮勝易離樂勝易流九夏	-12.7409
自放驕傲之患難乎免於身矣是以先王	-12.7409
論磬嘗謂有貴賤焉有親疎焉有長	-12.7409
退食委蛇謙恭揖讓	-12.7409
逹於樂而不逹於禮	-12.7409
銅斛二銅稱	-12.7409
鐘之為黄鐘者信矣黄鐘	-12.7409
黄鐘黄鐘下生林鐘林鐘地宫又	-12.7409
龠自戾本法保	-12.7409
不同如此者總之表識之名不必刻求也	-12.7409
八分七百三十六釐二百九十三毫三百	-12.7409
内祭則大嘗禘	-12.7409
宋氏尺即鐵尺黄	-12.7409
容九百三十九古銀錯題黄	-12.7409
宻唯陳留阮咸譏其聲	-12.7409
撞柷先底次左次右撞者三	-12.7409
東冬江陽庚青蒸七	-12.7409
清濁相宣諧㑹歌管皆得應合雖積黍	-12.7409
玉振之也者終條理	-12.7409
用柔剛之意也十有二律之管禮天	-12.7409
祖樂楚聲故房中樂楚聲也	-12.7409
諸侯而兵不用諸侯自為正之具也	-12.7409
長于胡瑗尺九分五釐見鄧保信奏議	-12.7409
角又九分角之一而餘八	-12.741
弦為仲呂與第六弦散聲應按第	-12.741
司馬貞史記索隠注黄	-12.741
釐圍八分四釐應	-12.741
笙笙應鐘笙笙	-12.741
歌磬編磬應鐘歌磬編磬	-12.741
七奏也繼變徴以	-12.741
丑夘己未酉亥	-12.741
使放心邪氣得接焉是先王立樂之方也	-12.741
滿千㣲為忽	-12.741
以十二大磬代之	-12.741
且其匪色必似鳴矣	-12.741
二分二釐九毫二絲五忽一微	-12.741
仁言不如仁聲之入人深也	-12.741
左右耳與臋皆正方積十而登以至於斛	-12.741
張樂試之遂先説曰黄	-12.741
故三分損益之法可廢而九分為寸之	-12.741
者以象人君之徳及奏黄	-12.741
耳目聰明血氣和平移風易俗天下皆	-12.741
若斯之甚也弘不能對	-12.741
乃奏姑洗歌南吕舞大㲈以祀四望	-12.741
令爽等草定其法爽因稽諸故實以著	-12.741
八九六四一五二五三七一四五四	-12.741
則大夏禹樂也謂之九徳之歌得非九夏	-12.741
去聲謂中式也其義亦通詩曰誕降嘉種	-12.741
司馬遷律書本文改正黄	-12.741
吕夷則得全毫約以絲法則夾	-12.741
吕宫至夷則羽並用仲吕起調仲吕畢曲	-12.741
埏	-12.741
天之生物理難均一古人立法存其大	-12.741
實柴祀日月星辰以槱燎祀司中司命	-12.741
實栗既用一嘉字其義已括盡堅好	-12.741
尺先儒訓解經籍多引以	-12.741
應中吕長三尺二寸應	-12.741
無射得全絲至仲吕之實十三萬一千	-12.741
禄不期侈而侈	-12.741
置一而九三之以為寸法者其	-12.741
義歴世祖襲著之定令然而	-12.741
與王同徳爵位莫重焉然位不期驕而驕	-12.741
諸律無不如數而應者矣	-12.741
雖無法而聲不失於古自	-12.741
魏斛大而尺長	-12.741
一萬一千三百二十四萬六千二百	-12.741
也仰則兼夷則仰而急則為林	-12.741
也俯則兼大吕仰則兼夾	-12.741
仲吕仰而急則為姑洗之半聲三孔林	-12.741
但依此徑以	-12.741
全五寸三分半二寸六分不用	-12.741
全六寸二分八釐半三寸一分四釐	-12.741
其所異者竿首作翔鷺趺作猛獸而已	-12.741
則為本律之半聲如第一孔太	-12.741
和峴用景表石尺比漢前尺一尺六分	-12.741
堿	-12.741
實如法得長一寸	-12.741
實重八銖漢初四銖其文亦曰半	-12.741
尺實比晉前尺一尺二寸八分一釐	-12.741
律丁度等言鄧保信所製尺用上黨秬黍	-12.741
律今用再累成尺比逸所製又復不同至	-12.741
易吹一管一音無事假借而籥	-12.741
春合舞秋合聲	-12.741
秬而已穄與秠弗堪用或誤用之非也古	-12.741
笛之制如雅笛而小其長九寸與黄	-12.741
與先天圖一般者夫先天圖出於河圖	-12.741
若沉若浮皆得効其響	-12.741
變半之實計四十八箇一千	-12.741
輕重鮮有同者惟劉歆制銅斛	-12.741
錢之類不聞後世復有鑄者臣等	-12.741
鐘終於南吕也後世以變宫變	-12.741
黍為分之九寸也寸皆九分凡八十一分	-12.741
五分四釐五毫二絲五忽三微八纎	-12.7411
㲈舜樂也謂之九㲈之舞	-12.7411
齦岳中間五尺	-12.7411
作之意則猶可攷也太史公曰細若氣	-12.7411
禮勝則離合情飾貌者禮樂之事也	-12.7411
見舞象箾南籥	-12.7411
噬	-12.7411
天地之風氣正而十二律定劉昭所謂伏	-12.7411
如嬰兒啼	-12.7411
瘠	-12.7411
輝	-12.7411
驩	-12.7411
二分一釐六毫三絲八忽四微一纎	-12.7411
子之卿大夫西縣鐘東縣磬士	-12.7411
樂師辨乎聲詩故北面而弦	-12.7411
禮者禮之末節也故有司掌之	-12.7411
管室灰為候以揆百度	-12.7411
下生南吕為羽南吕上生姑洗為角	-12.7411
也人臣有功不錫樂以章之則其	-12.7411
也樂之末節也故童者舞之鋪筵席陳尊	-12.7411
五分二釐九毫七絲三忽一微五纎	-12.7411
修倉掘地得古玉斗	-12.7411
則徴濁而宫清雖有其韻不成音曲若以	-12.7411
千人之師執鼙	-12.7411
周之圜法歴代曠逺莫得而詳	-12.7411
和雅甚與我	-12.7411
大師則教六詩而已是尊者其治	-12.7411
徒鼓磬謂之寋	-12.7411
拜不興受爵主人阼階上拜送爵	-12.7411
示戒焉故客醉而出奏	-12.7411
窖	-12.7411
者為佳非以次等中號者為佳也古人稼	-12.7411
而隋志始著以為定論	-12.7411
聖賢制作可取則	-12.7411
聲明暢易達分寸又粗然弦以緩急	-12.7411
言巨細之巨也聞其名則其形可想見矣	-12.7411
道也故臣有功奏章夏古者將祭君致	-12.7411
降立于賔南	-12.7411
音不愆以合神人	-12.7411
驗者惟有法錢而	-12.7411
之半聲故用今之籥	-12.7411
二百其一容一千四十七後魏前尺黄	-12.7411
仲吕五寸九分三分二徵五寸九分	-12.7411
位西北而天屈之以	-12.7411
全四寸六分六釐半二寸三分三釐不用	-12.7411
六釐六毫六絲六忽	-12.7411
半律然太常樂比唐之聲猶髙五律	-12.7411
大備後世雖有作者皆不能易兹八物矣	-12.7411
夫以周禮而較之國語	-12.7411
律計自倍半以子聲比正聲則正聲為倍	-12.7411
徳可以交神明矣故夫人祭奏齊夏族人	-12.7411
德皇后用嘉安	-12.7411
於制作而未得其當者有司失之於	-12.7411
暖	-12.7411
武坐致右憲左何也對曰非武坐也	-12.7411
殳	-12.7411
為羽周樂以羽起聲為	-12.7411
無射仰而急則為南吕之半聲五孔應	-12.7411
牙齒舌喉唇	-12.7411
發鯨魚鏗華鐘	-12.7411
腋	-12.7411
臝者羽者鱗者	-12.7411
衡相用為表裏使得律者可以制度量衡	-12.7411
賸	-12.7411
足之蹈之手之舞之	-12.7411
送之天子所以待	-12.7411
執越樂記曰清廟之瑟朱	-12.7411
商林仲太黄南林仲太黄南林仲太	-12.7412
夷則鎛鐘夾鐘特磬無射鎛鐘仲吕特磬	-12.7412
賓塤大吕篪姑洗篴應鐘篴	-12.7412
編鐘應鐘歌鐘編鐘	-12.7412
一奏也繼宫以徴	-12.7412
三奏也繼商以羽	-12.7412
四奏也繼羽以角	-12.7412
為短小以黍實管彌復不容	-12.7412
旡	-12.7412
若聲聖人因神而存之雖妙必効言黄	-12.7412
一寸七分一釐三毫五絲六忽七微五纎	-12.7412
九十三毫九百五十五絲九百九十七忽	-12.7412
于西階上一人拜盡階不升堂受爵	-12.7412
五寸九分二釐五毫九絲二忽五微九纖	-12.7412
以九因角聲之實六十	-12.7412
匣	-12.7412
哀心感者其聲噍以殺	-12.7412
在心為志發言為詩情動於中而形於言	-12.7412
宫至無射羽並用林	-12.7412
屏之逺方終身不齒	-12.7412
琴譜並命入四庫全書以示闢識事	-12.7412
鼙常在其左矣	-12.7412
三其八十一得二百四十三以分其法	-12.7412
也禹作九夏之樂本九功之徳以為歌而	-12.7412
五寸二分六釐七毫四絲八忽九微七纖	-12.7412
今燕樂髙三律帝雖勤	-12.7412
八分弱阮逸胡瑗尺一寸七分短	-12.7412
八十一為正度而又取吹口三分之説以	-12.7412
其三分損益不盡之筭或棄或	-12.7412
冷道縣舜廟下得玉	-12.7412
十二律旋相為宫各有七聲合八十四聲	-12.7412
十五等尺其間多無所取	-12.7412
又以七百二十九歸之以從十二	-12.7412
又異常今之稼穡未及古人若選大黍	-12.7412
周漢然亦可謂治安之世矣今朝廷必求	-12.7412
容一千八百一十九東魏尺黄	-12.7412
寋	-12.7412
尺度之中當依漢錢分寸若以	-12.7412
差荇菜左右采之窈窕淑女琴瑟友之	-12.7412
律調聲必致髙急	-12.7412
徑圍分數與胡氏同	-12.7412
所以存而不削者要見諸代之不同多	-12.7412
斛而五量嘉矣其法用銅方尺而	-12.7412
曰諸律雖短長有差	-12.7412
梁武鍾律緯云	-12.7412
正以從周漢之制王	-12.7412
氏之失豈康昭等有以啟之與不知而作	-12.7412
為子之氣而含少為子初四刻之氣也所	-12.7412
而五權謹矣	-12.7412
處在兼音也然吹之甚難非精熟者不能	-12.7412
詔和峴等用景表尺典	-12.7412
謀則可且依景表舊尺俟有妙	-12.7412
逺人之道也故四方	-12.7412
重以相參考四者既同而聲必至聲至而	-12.7412
金石七十年間薦之郊廟稽合唐制以示	-12.7412
鐃則鳴之而已鐸則或振或摝其用則先	-12.7412
非特於禮為然樂亦如之是以先王	-12.7412
麗於器器具而天地萬物之聲可得而考	-12.7412
以初歴宫調中之數當九故	-12.7413
五奏也繼角以變宫	-12.7413
六奏也繼變宫以變徴	-12.7413
後依相生之法以次運行取十二律之商	-12.7413
匏以宣之瓦以賛之	-12.7413
蘇祇婆彈胡琵琶	-12.7413
鼓無當於五聲五聲弗得不和	-12.7413
俸	-12.7413
八寸八分七釐七毫四絲八忽六微二纎	-12.7413
差而難精等之不若因度求律之為審也	-12.7413
所以示後世有尊卑長幼之序也	-12.7413
之琴十六枚之鐘磬各自取義寧有一之	-12.7413
席工于西階上少東樂正先升	-12.7413
春入學釋菜合舞	-12.7413
無力而輕其聲清揚而逺聞無力而輕則	-12.7413
獅	-12.7413
祥而外無哭者禫而内無哭者	-12.7413
㝢	-12.7413
下須與二頭臨岳一等移柱上下之時不	-12.7413
之多積而為龠合一黍之重積而為銖兩	-12.7413
今君之所好者其溺音乎	-12.7413
儀行以肆夏趨以采薺車亦如之環拜以	-12.7413
八十一三分宫損一得五百	-12.7413
器與本銘尺寸無差又汲郡盜發魏襄王	-12.7413
國之俊選皆造焉凡入學以齒	-12.7413
國風篇也王后國君夫人房中之樂歌也	-12.7413
奮疾而不拔	-12.7413
文侯曰敢問溺音何從出也	-12.7413
曰聲無形而樂有器古之作樂者知	-12.7413
武銅尺相合竊惟周漢二代享年永	-12.7413
焉故德煇動於内而民莫不承聽理	-12.7413
王命三公九卿大夫元士皆入學	-12.7413
生則樂樂則安安則久久則天天則神	-12.7413
目顅脰小體騫腹若是者謂之羽	-12.7413
聖人作易參天兩地而倚數因	-12.7413
蔡氏之説多截竹管	-12.7413
金聲也者始條理也	-12.7413
黍之實以見周徑之廣以生度量	-12.7413
䘏	-12.7413
一徽定之實音為仲吕散聲即大吕	-12.7413
中央土律中黄中之宫髙誘注陽律也	-12.7413
乃得九方分零四十釐六十毫五十七	-12.7413
九百四十四得二百四十三者八為八寸	-12.7413
二千龠千合百升也積一百六十二萬分	-12.7413
二釐三毫三絲一忽九微六纖	-12.7413
但能紀其鏗鏘鼓舞而不能言其義	-12.7413
六八一六九三四九六六四一九一三	-12.7413
六尺有六寸左右端廣六寸中尺厚三寸	-12.7413
六萬二千二百零八為㽔賓半之實計	-12.7413
十四卦皆倚數配合為説而已獨黄鐘云	-12.7413
南為文西南為章則章者文之成明之著	-12.7413
古云長九寸長八寸十分一之類尺	-12.7413
可知矣有唐享國三百年其制作	-12.7413
君故王出入奏王夏尸非神也象神而已	-12.7413
夷則為商兮㽔賔為宫	-12.7413
夾鍾正律聲長非	-12.7413
宿縣于阼階東笙磬西面	-12.7413
寸當開元十枚	-12.7413
尺校半分以新尺制為四	-12.7413
慮必依於道手足不苟動必依於禮夫然	-12.7413
戴延之西征記曰	-12.7413
所以同天下齊風俗也	-12.7413
所象本蔡氏五	-12.7413
按歴而候之氣至則吹灰動素	-12.7413
晉武帝泰始九年中書監荀朂校	-12.7413
朝以齒明父子也外朝以官體異姓也合	-12.7413
此即本朝和峴所用影表尺也平陳以後	-12.7413
殉	-12.7413
洞庭秋思	-12.7413
王朴尺二寸一分和峴尺一	-12.7413
王者之於天下出而與物相見	-12.7413
瓦絲尚宫匏竹尚議革木一聲	-12.7413
由是觀之黄鐘所以奏肆夏也	-12.7413
磬當為罄字之誤	-12.7413
緝合葉洽	-12.7413
聖人所深戒也	-12.7413
説范蜀公乃從而信之過矣	-12.7413
鐘之數乃遷就林鐘	-12.7413
隂陽相摩天地相蕩	-12.7413
餘數又約以三為一	-12.7413
聲之變者二故置一而兩三之得九	-12.7413
編鐘南吕歌鐘編鐘	-12.7414
三釐七毫七絲八忽六微七纎	-12.7414
律容受不同史謂作者旁庣其腹使有盈	-12.7414
者失在於徑三分也古銀錯與玉尺玉斗	-12.7414
七萬八千七百三十二為	-12.7414
周禮典同掌六律六同之和以辨	-12.7414
羽而得之也以九變之位成十三奏之樂	-12.7414
七十八寸五百六十七分四百二十釐	-12.7414
則不得中聲終不是大抵聲太	-12.7414
姪	-12.7414
律必生於度也特以近世古律不存故	-12.7414
若謂用周尺或羊頭山黍雖應	-12.7414
釐毫絲皆積九以為法	-12.7414
北面立于其西工四人二瑟瑟	-12.7414
昂	-12.7414
本以其與姬周之尺劉歆銅	-12.7414
洗觶升自西階阼階上北	-12.7414
皆以正聲應無有忽㣲	-12.7414
矇瞍奏公	-12.7414
詖	-12.7414
一寸九百六十四分一百八十五釐	-12.7414
三一一二五即夾鍾正律	-12.7414
之容受與晉前尺徑三分四	-12.7414
以上生下皆三生二以下生上皆三生四	-12.7414
其聲猶不失於古五代之亂大樂淪散王	-12.7414
出入奏昭夏外之為出内之為納四方之	-12.7414
塤南吕瑟南吕箎太簇琴太簇篴南吕	-12.7414
夏至則㽔賔六寸二分八	-12.7414
夫宫音之主也第以及羽故樂	-12.7414
或以朝而來王或以祭而	-12.7414
數也是為度母縱黍之律横黍之度	-12.7414
施用復經太祖	-12.7414
曰吕布十二辰始	-12.7414
校已所造金石絲竹皆短校一米梁武帝	-12.7414
河圖之偶自相	-12.7414
焉故八物各音而同和也	-12.7414
牲所以食神實以召之也神藏於幽	-12.7414
皆失之故太祖患其聲髙特	-12.7414
石今之七十二斤也	-12.7414
而合國之子弟焉	-12.7414
自此已後有歸有除於實第	-12.7414
華之山其隂多磬鳥危之山其陽多磬	-12.7414
葢為夷則至應鍾四宫而設	-12.7414
薺豈主出言之邪禮記趨以采薺先	-12.7414
行以肆夏豈主入言之邪大戴禮言	-12.7414
言行以肆夏先於趨以采	-12.7414
長二分有竒比景表尺短四分既前代未	-12.7414
説而隋志始著以	-12.7414
定論然累九十黍徑三黍止容黍八百有	-12.7414
琴㽔賓篴大吕簫大吕簫㽔賓簫㽔賓簫	-12.7415
一取之秬黍故其度量權衡皆與古不合	-12.7415
之數五十四主六月上生太	-12.7415
證因謂圍九分者取空圍圓長九分	-12.7415
從之升自西階北面東上坐授瑟乃降	-12.7415
綫	-12.7415
諸家用審度分數審度之法以黄	-12.7415
手或抑按則輕重之際殊為懸絶	-12.7415
嵬	-12.7415
以晉鼔鼔金奏	-12.7415
措其匪色必似不鳴矣	-12.7415
篪以竹為之長尺四寸圍三寸一孔上出	-12.7415
銖兩斤鈞石	-12.7415
之所在則我有周之分野也	-12.7415
在律為尤彊在吕為	-12.7415
我太祖后稷之所經緯也	-12.7415
漢明帝永平中	-12.7415
物有常不變者也故於此寓法焉今四	-12.7415
逆推其所始故也於東	-12.7415
今之白粱粟皆好榖	-12.7415
其言或咏其聲以言心聲故也	-12.7415
其鏗鏘而已也彼亦有所合之也	-12.7415
兼始中終言之	-12.7415
則聲器皆小故可以雜奏	-12.7415
命曰不鼓不釋	-12.7415
善而好施聞羽音使人整齊而好禮	-12.7415
四隅各開一孔相對透明雖顯四孔只是	-12.7415
固未嘗有異焉今以琴之太長而不適	-12.7415
挑同聲為撮抹擘同聲亦為撮上生下生	-12.7415
次乃是隔九其黄鐘林鐘太簇南吕姑洗	-12.7415
生徴徴下生商商上生羽羽下生角	-12.7415
畢曲夷則宫至應	-12.7415
者也謂正聲無有殘分也	-12.7415
聞商音使人方正而好義聞角音使人惻	-12.7415
達有神興有徳	-12.7415
鐘聲鏗鏗以立號	-12.7415
一毫二絲三忽四微五纖	-12.7415
下生無射無射上生仲	-12.7415
之霜筠法龍吟之異韻	-12.7415
保信照所用太府寺尺其制彌長去古彌	-12.7415
六百四十五得七百二十九者五為五寸	-12.7415
典樂擊石拊石至於百獸率舞	-12.7415
到嫦娥字	-12.7415
則千有二百黍矣故此九十黍之	-12.7415
十寸自乗得一百寸	-12.7415
十有五等以晉之前尺	-12.7415
去籥弛架徹架	-12.7415
合五音之調實始於舜	-12.7415
合父子之親明長幼之序	-12.7415
合生氣之和道五常之行使之陽而不散	-12.7415
吹孔如酸棗	-12.7415
唐之度量權衡與玉斗相符	-12.7415
均者斷兩節間而吹之以為黄鍾之宫	-12.7415
大泉錯刀貨布貨泉	-12.7415
太常笙濁聲十二中聲十二清聲十二	-12.7415
平陳得古樂遂用之唐興因聲以制樂其	-12.7415
度自有損益故聲有	-12.7415
徳盛而教尊	-12.7415
應笙之磬謂之笙磬應歌之磬謂之頌磬	-12.7415
所以奏采薺也出撞陽	-12.7415
排者也不幸為劉歆班固所亂自漢至今	-12.7415
易序卦物不可以終動之意也入撞	-12.7415
極幽而不隱	-12.7415
樂者樂也君子樂得其道小人樂得其欲	-12.7415
此尺爾十二宋氏尺	-12.7415
為上林鍾夷則南吕無射應鍾為下	-12.7415
為二百四十三分寸之一百四合之為大	-12.7415
為徵無射起宮無射之徵	-12.7415
玉尺律徑不及三分故其律遂長而尺長	-12.7415
當時盜鑄既多不必皆中法度但當	-12.7415
禮者殊事合敬者也樂者異文	-12.7415
空中實容長者十六	-12.7415
管象武夏籥序興陳其薦爼序其禮樂備	-12.7415
纖有竒比黄鍾正律少一分	-12.7415
而入門入門而縣興揖	-12.7415
舞師凡小祭祀不興舞則	-12.7415
蕤夷無黄大夹仲	-12.7415
藭	-12.7415
豔	-12.7415
起調畢曲慶源發祥世	-12.7415
鍾散聲即夾鍾四弦仲吕為	-12.7415
鐘應鐘之數四十二主十月上生	-12.7415
鐙	-12.7415
面受命于主人主人曰請安于	-12.7415
鳬氏為鐘兩欒謂之銑	-12.7415
大應南蕤姑大應南蕤姑大應南	-12.7415
夾鐘之聲初獻樂同上但用姑洗之聲	-12.7415
公出入奏驁夏	-12.7416
大琴中琴小琴	-12.7416
自漢以下律之所以不成者其失皆	-12.7416
敲	-12.7416
一升乃二十龠以二十龠為法	-12.7416
世本曰暴公作塤	-12.7416
律管只吹得中聲為定	-12.7416
徽實音與蕤賔調十徽實音相同即姑洗	-12.7416
六馬仰秣	-12.7416
凡樂事正舞位授舞器	-12.7416
實音為仲吕散聲即大吕四弦夾鍾為	-12.7416
掛一以象三才揲之以四以象四時歸	-12.7416
數煩志齊音敖辟喬志此四者	-12.7416
然須多得擇取好者可也一二枚錢不足	-12.7416
者音之君也故黄鍾位子其數八十一	-12.7416
至於元帝自曉音律郎官京房亦	-12.7416
九釐七毫四絲九忽八	-12.7416
也以九為法者因三分損益而立也全	-12.7416
也黄帝製筩所以象之耳故名曰律月令	-12.7416
亂故以未濟終焉	-12.7416
以新舊法分度參録之	-12.7416
依時代制律其黄鐘之管俱徑三分長九	-12.7416
傳也若非有司失其傳則武王之志荒矣	-12.7416
儆其民也又黄池之㑹吳王親鳴鐘	-12.7416
兩尺寸中所容受升斗之數為法律亦以	-12.7416
六為律律有形有色色上黄	-12.7416
其二百四十三得七百二十九以分其法	-12.7416
分寸之四百五十一合之為夷則	-12.7416
則於律雖本為	-12.7416
十六枚為一簴而四清聲相承不擊照	-12.7416
十故十寸而為尺十尺而為丈	-12.7416
唐㑹要云髙祖武徳四年	-12.7416
壊角亂則憂其民怨	-12.7416
奮至徳之光動四氣之和以著萬物之理	-12.7416
張指法俗呼清商調之	-12.7416
後鐘以應之故虞書論堂下之樂以鼗	-12.7416
所謂琴音調而天下治無若乎五音	-12.7416
故其尺律遂長然權量與聲尚相依近也	-12.7416
故用九自乗為管	-12.7416
春之月其音角律中	-12.7416
有二律爲之數度以十有二聲爲之齊量	-12.7416
椌楬荀卿曰鞉柷拊椌楬似萬物	-12.7416
為主者先上第	-12.7416
為抹向外為挑大指向内為托向外為擘	-12.7416
為法何也曰以十為法者天地之全	-12.7416
窮故以漸進繼焉既濟	-12.7416
章信尺不復存玉律一口蕭餘定七枚夾	-12.7416
羽並用夷則起調夷則畢曲南吕宫至黄	-12.7416
蔟歌應鍾舞咸池以祭地示	-12.7416
生大吕大吕生夷則夷則生夾	-12.7416
太黄南林姑太黄南林姑太黄南	-12.7416
孟子曰不以六律不能正五音	-12.7416
既度量權衡皆出於黄	-12.7416
皆戾於古大率皆由徑三分之説誤之也	-12.7416
路鼓路鼗陰竹之管龍門之琴瑟九	-12.7417
正則得本音吹緩	-12.7417
侈弇之所由興有説	-12.7417
還便殿奏休	-12.7417
故晏子曰鍾乃大矣先儒錯㑹晏子之意	-12.7417
樂者為同禮者為異	-12.7417
算家以術考之不合則又穿鑿以為	-12.7417
廣則容姦狹則思欲	-12.7417
韎樂祭祀則帥其屬而舞之大饗亦如之	-12.7417
人而不仁如禮樂何	-12.7417
六分四釐八毫四絲一忽九微七纎	-12.7417
壙	-12.7417
左氏國語是不知夏書之在治忽有五聲	-12.7417
左氏者求其説不得而遂傅㑹之邪	-12.7417
中凡聽商如離羣羊凡聽角如雉登木	-12.7417
以舞大夏干戚以舞大武	-12.7417
先王之道禮樂可謂盛矣	-12.7417
凡樂事以鐘鼔奏九夏	-12.7417
分帶下紳居二	-12.7417
大喪廞樂器大旅亦如之	-12.7417
天子袒而割牲執醬而饋執爵而酳冕而	-12.7417
廪	-12.7417
戰城南巫山	-12.7417
揚觶乃立司正焉知其能和樂而不流也	-12.7417
月之所在辰馬農祥也	-12.7417
沁	-12.7417
焉是帝樂莫備於堯舜而王樂至三王	-12.7417
蘧	-12.7417
闋王乃命公侯伯子男及羣吏曰反養老	-12.7417
陽氣之動陽聲之始必聲和氣應然後可	-12.7417
一寸六分六釐四毫七絲八忽五微六纎	-12.7417
下聲攷之既得正	-12.7417
乃奏蕤賔歌函鍾	-12.7417
之初筵曰籥舞笙	-12.7417
乗水者付之泭作樂者付之拊	-12.7417
也深尺積一千六百二十者以十而登也	-12.7417
二分二釐二毫七絲二忽四微六纎	-12.7417
云便其先擊小後擊大	-12.7417
出於王莽之法錢	-12.7417
到五大夫子先取適子髙七尺已上年	-12.7417
取其土少而水多其聲和	-12.7417
君子以好善小人以聽過	-12.7417
君臣相與盡志於射以習禮樂	-12.7417
大學士李光地撰附樂	-12.7417
大抵樂家所謂宫者謂	-12.7417
尺與黄帝之尺其	-12.7417
律尺為晉前尺祖冲之所傳銅尺	-12.7417
德惟崇致我祖宗開基建功京都之内	-12.7417
按十徽音十徽尋不見方去九徽尋	-12.7417
是可忍也孰不可忍也	-12.7417
是為六孔所謂前三後二併吹孔為六者	-12.7417
時銅尺一枚古玉律八枚檢周尺東昏用	-12.7417
曰古之為鐘律者以耳齊其聲後	-12.7417
朝㑹要曰古者黄鐘為萬事	-12.7417
木為腔長一尺四寸	-12.7417
根本故尺量權衡皆起於黄	-12.7417
班管以合日月星辰之㑹帝嚳	-12.7417
琴篴㽔賓簫簫	-12.7417
由律圍徑之誤也今司馬公所傳此尺者	-12.7417
眚	-12.7417
立體不以生我之	-12.7417
絲者五萬九千四十九以二十七約之	-12.7417
胞	-12.7417
范蜀公以為即今大府帛尺誤矣十三	-12.7417
蕭吉云漢章帝時零陵文學史奚景於	-12.7417
賔来奏納夏	-12.7417
金聲舂容秋分之音也	-12.7417
鍾師凡射王奏騶虞	-12.7417
鑊	-12.7417
隂曰下生隂生陽曰上生上生不得過黄	-12.7417
其商角羽並無其韻若以仲	-12.7417
笙大吕笙㽔賓笙㽔賓笙大吕瑟大吕	-12.7417
四寸七分小分四微强	-12.7418
七十八寸五十六分七十四釐二十毫	-12.7418
晏子所謂各自其四以登於	-12.7418
成湯十二寸為尺武王八寸為尺	-12.7418
書謂之搏拊明堂位謂之拊	-12.7418
卜正龜兆	-12.7418
又收二十七釐為三分又收	-12.7418
土類西凝之方也故與土同位於西匏竹	-12.7418
按上者隔二而得四聲按下	-12.7418
東絲成於夏故琴瑟在南革成於冬故鼗	-12.7418
毫為三釐又收十八絲為二毫又收十八	-12.7418
詔来瞽臯舞	-12.7418
順序其所生故也革絲居南北之正先革	-12.7418
㤗	-12.7418
以武定禍亂而	-12.7418
小師掌教鼔鼗	-12.7418
年中書監荀朂	-12.7418
擇中式之黍須將格式預先議定	-12.7418
文之以禮樂亦可以為成人矣	-12.7418
曰黄帝命伶倫與營援作十二鐘	-12.7418
格于上者也咸池堯之地道	-12.7418
為宫猶用林鐘為商黄鐘為徴何由可諧	-12.7418
爻之數常相為表裏蓍	-12.7418
雲門大章大卷堯之天道	-12.7418
一寸七分六釐七毫七絲六忽六	-12.7418
丁度所奏髙若訥所定者也	-12.7418
九寸以三分為損益故以三	-12.7418
二分三釐五毫九絲六忽八微五纎	-12.7418
以肆夏趨以采薺凡馭路儀以和	-12.7418
以葭莩灰抑其内端	-12.7418
六分其金而錫居一謂之鐘鼎之齊	-12.7418
其容受多寡相去未懸逺也六晉後尺實	-12.7418
十東魏後尺實比晉前尺一尺五寸八毫	-12.7418
定銅尺有司奏從前詔而芳尺同	-12.7418
射長二尺四寸姑洗之笛正聲應姑洗下	-12.7418
[...]
