<unk>	0
<s>	0
</s>	0
之	-4.17849
而	-4.67838
臣	-4.76626
以	-4.78909
者	-5.06485
(	-5.19108
其	-5.19519
於	-5.22644
為	-5.2554
則	-5.29089
/)	-5.29652
有	-5.33958
也	-5.45213
不	-5.52027
一	-5.81638
自	-5.84408
無	-5.87562
人	-5.93095
等	-5.98323
事	-6.04064
與	-6.06724
至	-6.07264
及	-6.09298
今	-6.09353
此	-6.12411
所	-6.14261
大	-6.14647
行	-6.15058
又	-6.18304
矣	-6.19992
將	-6.23074
在	-6.24011
官	-6.24048
如	-6.2893
上	-6.29344
或	-6.3311
用	-6.34674
若	-6.37175
已	-6.39379
時	-6.40909
得	-6.4097
使	-6.41536
可	-6.42144
當	-6.43277
亦	-6.44072
故	-6.4536
各	-6.47059
王	-6.47539
兵	-6.49437
令	-6.50676
皆	-6.51064
雖	-6.52279
陛下	-6.53156
非	-6.53766
中	-6.54377
然	-6.54703
必	-6.55029
是	-6.56543
出	-6.56651
言	-6.56689
▁	-6.58371
即	-6.58954
曰	-6.60297
下	-6.60853
未	-6.61409
知	-6.61708
朕	-6.65429
復	-6.6548
見	-6.6577
公	-6.66684
民	-6.68201
因	-6.70472
實	-6.71178
正	-6.72098
明	-6.72458
應	-6.72833
欲	-6.73921
多	-6.74469
日	-6.74909
内	-6.75743
三	-6.77005
道	-6.77943
乎	-6.7906
安	-6.80146
外	-6.80562
乃	-6.81006
文	-6.81594
天下	-6.82215
二	-6.82446
州	-6.84471
重	-6.84545
分	-6.84552
且	-6.87666
前	-6.90554
同	-6.91535
既	-6.91803
議	-6.92918
命	-6.92935
惟	-6.93031
本	-6.95257
成	-6.95461
心	-6.95782
名	-6.95906
朝廷	-6.96215
不能	-6.96499
相	-6.96528
方	-6.96799
天	-6.97382
法	-6.97583
除	-6.97788
入	-6.97988
後	-6.99782
國	-7.0013
地方	-7.00223
宜	-7.01879
先	-7.01897
生	-7.02491
夫	-7.02831
子	-7.03852
守	-7.04167
取	-7.04294
奏	-7.04659
請	-7.04703
常	-7.05581
定	-7.06426
聞	-7.06866
四	-7.06925
以為	-7.07168
地	-7.07209
兩	-7.07424
查	-7.0791
能	-7.0812
數	-7.08208
發	-7.08665
但	-7.08889
/	-7.08947
從	-7.10486
立	-7.10871
之人	-7.11656
爾	-7.11796
于	-7.12021
并	-7.12312
開	-7.1236
進	-7.12722
過	-7.13156
張	-7.13788
所以	-7.14102
何	-7.14317
陳	-7.14584
盡	-7.14755
軍	-7.15361
爲	-7.15545
不可	-7.15655
馬	-7.15995
舉	-7.16761
難	-7.17435
深	-7.17494
經	-7.17601
去	-7.1841
平	-7.18753
親	-7.19907
長	-7.20007
加	-7.20116
水	-7.20187
家	-7.20992
逺	-7.21126
據	-7.21438
五	-7.21876
合	-7.2195
處	-7.22585
制	-7.22923
理	-7.23464
縣	-7.24073
著	-7.24658
治	-7.2516
凡	-7.25703
河	-7.25841
書	-7.26159
任	-7.2626
年	-7.26319
作	-7.26324
俱	-7.26633
将	-7.26695
禮	-7.28401
稱	-7.28575
思	-7.28673
近	-7.29032
通	-7.2936
山	-7.29396
少	-7.29551
論	-7.29878
計	-7.30077
遂	-7.3016
李	-7.30564
我	-7.3116
止	-7.31302
謂	-7.32157
仍	-7.32515
歸	-7.3258
尚	-7.34356
徳	-7.36106
更	-7.36239
致	-7.36906
居	-7.37217
再	-7.37367
小	-7.38065
來	-7.38147
易	-7.38372
到	-7.38755
求	-7.39191
備	-7.39279
焉	-7.39325
共	-7.39834
意	-7.39961
善	-7.40012
城	-7.40468
固	-7.40728
府	-7.40803
省	-7.4235
奉	-7.4247
收	-7.42487
服	-7.42708
周	-7.42976
可以	-7.43133
務	-7.43729
報	-7.43836
主	-7.4462
力	-7.44809
問	-7.44834
受	-7.4512
巳	-7.45295
賊	-7.45388
甚	-7.45409
起	-7.45757
廣	-7.45932
司	-7.46289
衆	-7.46487
興	-7.47263
原	-7.47622
如此	-7.47792
利	-7.48254
朝	-7.48773
諸	-7.49186
)	-7.49258
銀	-7.49326
世	-7.49423
失	-7.50163
隨	-7.50491
恐	-7.50611
始	-7.50644
並	-7.51613
改	-7.51699
大臣	-7.51966
猶	-7.52223
係	-7.5237
每	-7.52568
修	-7.5294
營	-7.53031
學	-7.53218
南	-7.53602
髙	-7.54275
扵	-7.54499
不得	-7.54583
哉	-7.54804
罪	-7.55212
屬	-7.5525
間	-7.5525
新	-7.55357
錢	-7.55371
士	-7.55563
謀	-7.56165
政	-7.56202
置	-7.56863
給	-7.56992
差	-7.57025
誠	-7.57083
至於	-7.57228
身	-7.57279
清	-7.57338
兼	-7.57366
私	-7.57462
被	-7.57783
君	-7.58113
由	-7.58782
直	-7.58786
州縣	-7.58852
不敢	-7.58896
彼	-7.58897
之事	-7.59193
義	-7.59204
動	-7.59305
六	-7.59371
益	-7.59923
而不	-7.60449
詔	-7.61513
該	-7.61609
耳	-7.61705
信	-7.61957
元	-7.62015
敵	-7.62075
和	-7.62415
委	-7.62513
初	-7.62584
死	-7.6262
運	-7.62636
交	-7.62651
回	-7.62659
望	-7.63722
降	-7.6375
保	-7.63988
職	-7.64034
食	-7.6404
照	-7.64102
設	-7.64703
田	-7.64727
功	-7.64753
選	-7.66525
是以	-7.66805
便	-7.6689
流	-7.67326
要	-7.67655
聖	-7.67666
節	-7.67957
土	-7.68418
恩	-7.68695
漢	-7.68972
情	-7.69185
西	-7.69448
賢	-7.69691
圖	-7.69706
全	-7.70126
之心	-7.70144
物	-7.70189
石	-7.70206
門	-7.70663
承	-7.7083
謹	-7.71101
武	-7.71247
補	-7.71418
嵗	-7.72219
口	-7.72349
留	-7.72427
東	-7.72433
存	-7.72905
嚴	-7.73369
就	-7.739
樂	-7.73938
聽	-7.74391
國家	-7.75545
比	-7.7581
吏	-7.75849
舊	-7.76242
告	-7.76298
異	-7.76303
路	-7.7632
風	-7.7643
之時	-7.7646
輕	-7.76679
豈	-7.76805
封	-7.76847
賜	-7.76902
九	-7.7721
之後	-7.77318
德	-7.77597
廢	-7.781
海	-7.78599
亂	-7.78852
寧	-7.78997
盖	-7.79063
賞	-7.7929
解	-7.79401
不知	-7.79651
乞	-7.79741
變	-7.79975
師	-7.80084
十	-7.8013
之意	-7.80399
建	-7.80534
具	-7.80595
順	-7.80686
罷	-7.81647
還	-7.81793
鎮	-7.8195
慮	-7.81958
云	-7.81974
之處	-7.8222
詳	-7.82316
引	-7.82805
觀	-7.83111
特	-7.83159
納	-7.83232
好	-7.83557
金	-7.83856
才	-7.83981
惡	-7.84395
撫	-7.84479
坐	-7.84496
北	-7.84584
帝	-7.84759
禁	-7.84802
察	-7.84948
往	-7.85028
獨	-7.85276
劉	-7.85393
悉	-7.85425
切	-7.85857
古	-7.86231
犯	-7.86858
永	-7.86892
終	-7.8732
追	-7.87364
足	-7.87607
百姓	-7.87996
役	-7.88109
邊	-7.88495
送	-7.8883
戰	-7.88924
審	-7.89037
念	-7.89288
度	-7.89388
幸	-7.89431
造	-7.89442
光	-7.89837
極	-7.89944
資	-7.90049
傳	-7.90203
㑹	-7.90331
容	-7.90391
以來	-7.90478
工	-7.90711
位	-7.91156
次	-7.91282
准	-7.91506
别	-7.91552
皇上	-7.92054
刑	-7.92124
領	-7.9234
伊	-7.92442
百	-7.92577
須	-7.92681
養	-7.92825
江	-7.92828
懐	-7.93202
免	-7.9325
忠	-7.93312
齊	-7.93473
權	-7.93589
糧	-7.937
獲	-7.93725
考	-7.93759
八	-7.94297
厚	-7.94377
臣等	-7.94429
貴	-7.94723
宗	-7.95153
視	-7.95177
首	-7.95195
米	-7.95462
萬	-7.9561
久	-7.95731
衛	-7.95893
許	-7.95992
神	-7.96357
稍	-7.96411
絶	-7.96438
俟	-7.96707
濟	-7.96891
諭	-7.96948
都	-7.97395
監	-7.97706
向	-7.97971
遣	-7.97982
餘	-7.98015
而已	-7.98093
積	-7.9816
責	-7.98323
錢糧	-7.98356
勢	-7.98457
志	-7.98665
楊	-7.99074
調	-7.99316
之地	-7.99355
之所	-7.99662
黄	-7.99772
然後	-7.99785
依	-8.0012
不足	-8.00176
七	-8.00207
陽	-8.0034
例	-8.0048
推	-8.00819
之間	-8.00961
白	-8.01037
移	-8.0107
氣	-8.01349
有司	-8.01392
徒	-8.01752
月	-8.01923
漸	-8.01959
章	-8.01972
退	-8.01975
憂	-8.02295
代	-8.02303
急	-8.02537
殺	-8.02595
減	-8.03236
願	-8.03357
耶	-8.03633
良	-8.03676
赴	-8.03923
疏	-8.046
放	-8.04773
顧	-8.04877
之道	-8.04924
害	-8.04952
載	-8.05044
充	-8.05222
勞	-8.05253
户	-8.05321
督	-8.05527
崇	-8.05664
部	-8.05664
專	-8.05748
化	-8.05973
所謂	-8.06041
敬	-8.0605
期	-8.06595
布	-8.06628
三年	-8.06631
廟	-8.06669
勝	-8.06723
反	-8.07189
仁	-8.07243
庶	-8.0725
教	-8.07295
傷	-8.0748
御	-8.0754
支	-8.07775
䝉	-8.08028
結	-8.08344
費	-8.08466
業	-8.08538
施行	-8.092
科	-8.09232
宣	-8.0935
闗	-8.09371
累	-8.09393
之法	-8.10359
唐	-8.10365
臨	-8.10524
克	-8.11116
老	-8.11372
典	-8.11384
轉	-8.11401
恭	-8.11508
況	-8.11895
闕	-8.11971
待	-8.12411
試	-8.1247
遇	-8.12651
宫	-8.12767
太	-8.12775
體	-8.12881
現在	-8.12885
召	-8.131
息	-8.13142
者也	-8.13242
船	-8.13427
汝	-8.13463
兹	-8.13531
莫	-8.13597
商	-8.13749
今日	-8.13907
邉	-8.1393
夏	-8.13959
防	-8.14005
決	-8.14285
来	-8.14295
威	-8.14511
辭	-8.15034
孝	-8.15112
散	-8.15291
繼	-8.15556
有所	-8.15663
郡	-8.15703
卒	-8.16038
斷	-8.16095
對	-8.16133
員	-8.16411
申	-8.16846
疑	-8.16974
趙	-8.17029
不過	-8.17186
兵丁	-8.17524
病	-8.17556
福	-8.17589
塞	-8.17619
怨	-8.17686
擇	-8.17759
一切	-8.18306
官員	-8.18513
人心	-8.18529
均	-8.18703
違	-8.18781
率	-8.18821
微	-8.1917
卿	-8.19687
約	-8.19928
亡	-8.20245
習	-8.20253
屢	-8.20324
患	-8.20356
仰	-8.20366
强	-8.20418
鹽	-8.20541
斯	-8.20617
俾	-8.20801
右	-8.21163
按	-8.21394
嘗	-8.21439
革	-8.21525
増	-8.2153
昔	-8.21696
集	-8.21732
况	-8.21836
果	-8.21884
吾	-8.21965
盛	-8.21994
素	-8.22277
宋	-8.22384
孫	-8.22477
邪	-8.22609
連	-8.22628
尤	-8.22691
量	-8.22971
敗	-8.2304
具奏	-8.23298
銀兩	-8.23546
面	-8.23638
姦	-8.23774
所有	-8.24365
弊	-8.24549
歴	-8.24585
寛	-8.25154
管	-8.25321
祖	-8.25628
尊	-8.25692
敢	-8.25802
鄉	-8.25848
簡	-8.25934
也今	-8.25951
示	-8.26013
列	-8.2605
供	-8.26215
里	-8.26483
聲	-8.26695
懼	-8.2673
關	-8.26996
天下之	-8.27253
以致	-8.27447
)(	-8.27459
伏	-8.27558
感	-8.27877
棄	-8.27878
接	-8.27908
遺	-8.27956
垂	-8.27994
勿	-8.28091
等處	-8.28304
精	-8.28307
龍	-8.28319
咸	-8.28395
爾等	-8.28482
案	-8.28563
毎	-8.28663
宻	-8.28783
美	-8.28937
速	-8.29122
遷	-8.29255
竊	-8.29301
辦理	-8.29343
候	-8.29449
曽	-8.29558
羣	-8.29729
財	-8.29877
延	-8.30181
優	-8.30446
額	-8.30582
丁	-8.30602
條	-8.30694
愚	-8.30745
之言	-8.30857
獻	-8.30994
端	-8.31289
虚	-8.31334
茍	-8.31337
買	-8.31384
陜西	-8.31662
無所	-8.31857
京	-8.31899
招	-8.31918
一人	-8.32044
秦	-8.32346
執	-8.32362
目	-8.32542
小人	-8.32626
其所	-8.32761
戒	-8.3313
授	-8.33419
缺	-8.33586
覆	-8.33623
疾	-8.33698
祭	-8.34191
完	-8.34361
氏	-8.34486
總	-8.34587
奏聞	-8.34598
逆	-8.34698
妄	-8.35276
指	-8.35408
登	-8.35474
春	-8.35603
官兵	-8.35612
乆	-8.35638
縁	-8.35748
蓋	-8.3595
左	-8.35962
持	-8.3628
隆	-8.36298
陵	-8.36301
阿	-8.36468
署	-8.36524
中外	-8.366
之際	-8.36833
隂	-8.36983
縱	-8.37026
督撫	-8.37154
題	-8.37368
允	-8.37375
頗	-8.37702
危	-8.37884
施	-8.37948
逐	-8.38182
之日	-8.38196
愈	-8.38412
昭	-8.38446
祖宗	-8.3853
畏	-8.38568
價	-8.38571
勤	-8.3876
皇	-8.38874
左右	-8.39695
以上	-8.39822
真	-8.39857
史	-8.40311
撥	-8.40503
之士	-8.40622
慶	-8.40754
顯	-8.40955
早	-8.40959
籍	-8.40964
殿	-8.41532
借	-8.41614
從前	-8.41736
薄	-8.41944
帶	-8.42163
材	-8.4287
聚	-8.42951
號	-8.42995
父	-8.43804
御史	-8.44232
䇿	-8.44303
己	-8.44321
達	-8.44483
川	-8.44999
種	-8.45077
何以	-8.4517
似	-8.4541
最	-8.45411
臺	-8.45463
料	-8.45717
謹奏	-8.45823
負	-8.45856
效	-8.45897
薦	-8.45928
附	-8.46088
假	-8.4609
辦	-8.46347
夷	-8.46515
陞	-8.46553
盜	-8.4661
官吏	-8.46687
誅	-8.46785
不及	-8.46859
奪	-8.46927
語	-8.4693
為之	-8.46947
不必	-8.46955
離	-8.47018
而後	-8.47039
其餘	-8.47139
色	-8.47432
勸	-8.47489
富	-8.47494
草	-8.47541
木	-8.47601
徐	-8.47612
識	-8.47825
覽	-8.4791
救	-8.47934
越	-8.48025
表	-8.48065
如此則	-8.48455
必有	-8.48639
他	-8.4875
唯	-8.48833
情形	-8.49159
内外	-8.49239
愛	-8.49277
器	-8.49821
未有	-8.49873
窮	-8.50112
四方	-8.50409
足以	-8.50635
荒	-8.50982
等語	-8.51001
之中	-8.51054
遵	-8.51082
說	-8.51256
忽	-8.51752
衙門	-8.51774
罰	-8.51782
臣聞	-8.518
等項	-8.5201
車	-8.52028
殊	-8.52114
天子	-8.52772
密	-8.52852
頭	-8.52874
折	-8.53051
訓	-8.53097
干	-8.53158
魏	-8.53268
手	-8.5329
提	-8.53331
只	-8.5335
限	-8.53373
一時	-8.53467
破	-8.53591
字	-8.53724
賦	-8.53903
寨	-8.5394
祀	-8.53999
損	-8.54048
華	-8.5416
官軍	-8.54297
言之	-8.54386
晉	-8.54425
市	-8.54437
二年	-8.54592
驗	-8.54997
律	-8.55017
脩	-8.55326
熟	-8.55402
文武	-8.55408
雨	-8.55729
江南	-8.55863
不為	-8.5608
豐	-8.56347
楚	-8.56385
黨	-8.56456
副	-8.56471
説	-8.56481
録	-8.56695
攻	-8.567
雜	-8.5673
奸	-8.56743
農	-8.56784
格	-8.56791
㑹同	-8.56802
之弊	-8.56933
征	-8.57131
細	-8.57187
天地	-8.57268
火	-8.57288
君子	-8.57359
統	-8.57539
逃	-8.57594
欽此	-8.57711
不許	-8.57724
肆	-8.57768
喜	-8.57775
勘	-8.57949
侵	-8.57989
誤	-8.58141
詞	-8.58233
嗣	-8.58307
上下	-8.58388
令其	-8.58619
適	-8.58671
母	-8.58706
嘉	-8.58988
㫖	-8.59001
一日	-8.59084
性	-8.59173
藏	-8.59295
無不	-8.59346
勅	-8.59376
之計	-8.59388
併	-8.5941
擬	-8.59644
雖有	-8.59651
葢	-8.59698
予	-8.59739
幾	-8.59746
景	-8.59751
抑	-8.59772
甲	-8.59801
禄	-8.59802
奏請	-8.60029
倉	-8.60275
式	-8.60357
會	-8.60422
有餘	-8.60512
另	-8.60603
倘	-8.60706
築	-8.60774
辨	-8.60805
究	-8.60813
澤	-8.6086
畧	-8.6089
儀	-8.60955
冒	-8.6102
之數	-8.61149
抵	-8.61474
巡撫	-8.61534
寵	-8.61714
苦	-8.61781
避	-8.61816
莫不	-8.61823
京師	-8.61894
竭	-8.61921
弱	-8.61966
戎	-8.61987
險	-8.62159
預	-8.62317
諫	-8.62417
慎	-8.62553
捐	-8.62586
伯	-8.6267
記	-8.62872
禍	-8.62974
循	-8.63053
林	-8.63174
質	-8.63208
參	-8.63216
奉上諭	-8.63428
宰相	-8.63557
貪	-8.63562
不以	-8.6378
於此	-8.6395
之民	-8.63968
羣臣	-8.63971
侯	-8.64017
眀	-8.64194
濫	-8.64215
界	-8.6435
滿	-8.6445
煩	-8.64502
勇	-8.64539
振	-8.64618
困	-8.64665
利害	-8.64781
配	-8.6491
欺	-8.64935
靈	-8.65157
𩔖	-8.65211
之患	-8.65239
指揮	-8.65342
智	-8.65366
第	-8.655
勉	-8.65851
歲	-8.65879
獄	-8.66065
刻	-8.66183
曾	-8.66206
拜	-8.66359
衣	-8.66429
俗	-8.66499
呈	-8.66882
博	-8.67094
庫	-8.67248
助	-8.67289
衰	-8.6747
吳	-8.67593
等因	-8.67611
徃	-8.67623
投	-8.67736
中國	-8.67746
昌	-8.67861
惠	-8.67941
人主	-8.67998
之罪	-8.6803
派	-8.68227
之外	-8.68228
榮	-8.68306
梁	-8.68484
室	-8.68539
畢	-8.68739
協	-8.68801
等官	-8.68855
徴	-8.68895
秋	-8.68923
高	-8.68952
咨	-8.69077
未嘗	-8.69088
賣	-8.69491
班	-8.69863
於是	-8.70076
聖人	-8.70432
千	-8.70453
狀	-8.7072
雲	-8.70785
曹	-8.71441
泰	-8.71483
各官	-8.71487
玉	-8.71551
聴	-8.71687
輔	-8.71708
不同	-8.71782
竒	-8.71935
得以	-8.7196
堅	-8.72008
升	-8.7211
課	-8.72136
七月	-8.72139
可謂	-8.72215
胡	-8.72469
三月	-8.72485
飭	-8.72526
行之	-8.72843
料理	-8.73106
空	-8.73171
看	-8.7329
族	-8.73518
冊	-8.73642
頃	-8.73772
賤	-8.74057
偏	-8.74105
享	-8.74122
皇帝	-8.74137
所奏	-8.74148
講	-8.74219
吏部	-8.74338
夜	-8.74431
太宗	-8.74468
操	-8.74493
確	-8.74528
堤	-8.74574
紀	-8.74689
一事	-8.74753
房	-8.74853
庸	-8.75125
淮	-8.75229
肅	-8.75333
印	-8.75419
半	-8.75672
朱	-8.7571
蜀	-8.75725
休	-8.75748
若不	-8.75757
稅	-8.75895
赦	-8.75941
英	-8.76007
以此	-8.76022
暴	-8.76033
事竊	-8.76127
酌	-8.76298
提督	-8.76364
謂之	-8.7645
一面	-8.76458
亦有	-8.76508
蒙	-8.76581
屯	-8.76696
徵	-8.76712
淺	-8.76776
添	-8.76799
河南	-8.7681
曲	-8.7684
毋	-8.77137
旗	-8.77216
㣲	-8.77409
各處	-8.77494
遽	-8.77724
人情	-8.77737
住	-8.78014
具題	-8.78015
謝	-8.7802
院	-8.78068
繁	-8.78108
竟	-8.78115
惑	-8.78136
五月	-8.7838
争	-8.78413
略	-8.78419
謹奏為	-8.78592
付	-8.78669
一二	-8.78777
戸	-8.78987
廷	-8.79013
不當	-8.79051
子孫	-8.79077
随	-8.79132
山東	-8.79381
沙	-8.79753
羅	-8.79848
青	-8.79904
使之	-8.80185
編	-8.80186
揚	-8.80264
政事	-8.803
堂	-8.80333
擢	-8.80379
湖	-8.80389
者亦	-8.80562
尋	-8.80753
屈	-8.80783
不勝	-8.81039
九月	-8.81055
却	-8.81076
鑒	-8.8113
機	-8.8115
民間	-8.81193
寜	-8.81538
四月	-8.81678
其事	-8.8176
總督	-8.81772
邑	-8.81798
所屬	-8.81832
康	-8.81901
后	-8.81928
緩	-8.8214
一年	-8.82333
乗	-8.82378
滅	-8.82424
其人	-8.82526
各屬	-8.82574
或有	-8.83228
六月	-8.8359
貢	-8.83679
明白	-8.83826
先帝	-8.83839
勲	-8.8385
不行	-8.83864
災	-8.83868
帥	-8.83926
將軍	-8.84155
自古	-8.84163
懷	-8.84251
専	-8.84293
守備	-8.84345
蘇	-8.84369
未能	-8.84513
怒	-8.84836
豈不	-8.85
苗	-8.85354
太祖	-8.85418
叅	-8.85422
厯	-8.8552
者皆	-8.8565
之至	-8.85863
二月	-8.8594
阻	-8.86298
如何	-8.863
銷	-8.86377
爵	-8.8641
黜	-8.86437
衝	-8.86471
十二月	-8.86556
豫	-8.86602
上諭	-8.86631
輙	-8.86901
鄭	-8.86909
耗	-8.87087
通行	-8.87233
横	-8.876
寄	-8.87653
㕘	-8.87715
規	-8.87718
萬一	-8.87722
邦	-8.8774
強	-8.87909
儒	-8.87979
維	-8.87982
憲	-8.87993
末	-8.88029
吉	-8.8807
寇	-8.88124
現	-8.8814
之員	-8.88334
庭	-8.88374
而無	-8.88568
當時	-8.88573
人之	-8.8865
稽	-8.8867
寳	-8.8874
賴	-8.88798
藉	-8.88821
河北	-8.88886
忘	-8.89087
訪	-8.8911
出於	-8.89291
星	-8.8947
元年	-8.89564
某	-8.8957
収	-8.89581
冬	-8.89583
伐	-8.89672
魯	-8.89813
趨	-8.89819
之初	-8.89895
之勢	-8.90014
此等	-8.90117
以来	-8.90142
卑	-8.90196
之内	-8.90203
也夫	-8.90211
希	-8.90569
十一月	-8.90674
十月	-8.9074
靖	-8.90813
弗	-8.90941
衞	-8.91086
𢎞	-8.91102
事宜	-8.91111
女	-8.91113
飾	-8.91172
番	-8.91224
了	-8.91268
八月	-8.91456
叛	-8.91565
虞	-8.91588
伊等	-8.917
江西	-8.91747
覺	-8.91899
各省	-8.92019
裁	-8.92152
韓	-8.92261
耕	-8.92296
釋	-8.92412
税	-8.9243
郊	-8.92479
季	-8.92494
巧	-8.9258
程	-8.92645
亟	-8.92722
批	-8.92865
聖明	-8.92947
甘	-8.92967
風俗	-8.93011
查得	-8.93015
春秋	-8.93055
野	-8.93059
前來	-8.93085
决	-8.93188
捕	-8.93281
尚書	-8.93348
校	-8.93452
宿	-8.93488
漕	-8.93561
用之	-8.93619
穀	-8.93792
一體	-8.93819
之徒	-8.9392
工程	-8.93937
暫	-8.93959
又有	-8.94007
牛	-8.94014
檢	-8.94018
否	-8.94207
之用	-8.94209
之功	-8.94238
知其	-8.94246
寺	-8.94304
尚未	-8.94447
歳	-8.94449
酒	-8.94499
將來	-8.94535
慈	-8.94537
之恩	-8.94594
隠	-8.94619
燕	-8.9462
効	-8.94656
巡	-8.9481
佐	-8.94855
增	-8.94883
消	-8.95039
策	-8.95161
不足以	-8.95263
古之	-8.9531
冀	-8.95343
不肯	-8.95551
酌量	-8.95617
其間	-8.95748
小民	-8.95901
此事	-8.95921
如是	-8.95961
杜	-8.96082
乾	-8.96118
大小	-8.96137
得人	-8.96154
茶	-8.96185
嗣後	-8.96385
之禮	-8.96401
貫	-8.96448
壊	-8.96484
惜	-8.96646
騎	-8.96651
盜賊	-8.96735
已經	-8.9683
逹	-8.96907
事務	-8.96928
前項	-8.97053
榖	-8.97137
雲南	-8.97225
孤	-8.97302
爭	-8.97341
浮	-8.97365
拘	-8.97369
落	-8.97383
繫	-8.97425
廣東	-8.97645
也臣	-8.9765
至今	-8.97656
膺	-8.97746
輸	-8.9781
之兵	-8.97879
祥	-8.97934
較	-8.97949
諸臣	-8.97986
寒	-8.98281
哀	-8.9844
占	-8.98505
掌	-8.98609
分别	-8.98774
郭	-8.98845
擊	-8.9888
躬	-8.98896
近日	-8.98925
恤	-8.98955
因循	-8.98975
茂	-8.99005
侍	-8.99027
的	-8.99243
欽	-8.993
形	-8.99369
堪	-8.9937
監司	-8.99384
虛	-8.99388
不致	-8.99465
襲	-8.99487
之理	-8.99528
前後	-8.99618
停	-8.99655
援	-8.99667
舍	-8.99745
豈可	-8.99798
亦不	-8.99984
兵部	-9.00031
一員	-9.00119
本部	-9.00194
以備	-9.00244
俸	-9.00273
祗	-9.00334
僅	-9.00385
知之	-9.00583
詢	-9.00677
二十	-9.00734
敵人	-9.00743
錫	-9.00902
用兵	-9.00936
象	-9.0104
人君	-9.01436
符	-9.01502
綱	-9.01506
以後	-9.01542
蔽	-9.01662
遠	-9.01675
進士	-9.01741
續	-9.01897
殷	-9.01925
議者	-9.0202
不便	-9.0206
震	-9.02137
倫	-9.0233
慰	-9.02359
不可不	-9.02407
迎	-9.02439
厥	-9.02461
場	-9.02547
是非	-9.02576
盗	-9.02597
一帶	-9.02739
之任	-9.02765
標	-9.02987
圗	-9.03089
盈	-9.0309
旣	-9.03219
之制	-9.03271
正月	-9.03313
注	-9.03329
客	-9.03468
貨	-9.03522
藩	-9.0359
耳目	-9.03743
布政使	-9.03795
誣	-9.03832
寡	-9.03893
類	-9.03933
故事	-9.03955
催	-9.03972
聖主	-9.0406
毁	-9.04164
虧空	-9.04426
如有	-9.04533
討	-9.04567
惟有	-9.04598
術	-9.04612
每年	-9.04659
觧	-9.04676
之費	-9.04929
一旦	-9.04968
讀	-9.0498
雄	-9.05039
敕	-9.05042
太平	-9.05154
囘	-9.05233
源	-9.0529
布政司	-9.05563
境	-9.05742
人等	-9.05845
姑	-9.06015
其言	-9.06195
人員	-9.06211
温	-9.06322
庶幾	-9.06375
勒	-9.06453
在於	-9.06505
其中	-9.06537
蕃	-9.06587
啓	-9.06667
産	-9.0674
諭㫖	-9.06811
擾	-9.06844
丈	-9.06856
陸	-9.06897
擅	-9.06933
閲	-9.06977
激	-9.07304
五年	-9.07406
據實	-9.0762
倍	-9.07683
不復	-9.07728
不可以	-9.07757
辦事	-9.07769
頒	-9.07808
四年	-9.07924
懲	-9.08149
米價	-9.08163
我皇上	-9.08444
署理	-9.08532
廵撫	-9.08546
可也	-9.08634
誰	-9.08652
竝	-9.0874
貧	-9.08887
二人	-9.08894
後世	-9.08897
諸侯	-9.08941
照例	-9.08954
者有	-9.0915
禀	-9.09229
不至	-9.09268
浙江	-9.09303
牧	-9.09308
不忍	-9.09321
詐	-9.09362
之例	-9.09382
育	-9.09398
奔	-9.0963
偽	-9.09719
總兵官	-9.09763
恃	-9.09798
畫	-9.09964
相應	-9.10118
䘮	-9.10174
託	-9.10202
銅	-9.10329
洪	-9.10343
斬	-9.10436
皇考	-9.10509
陸續	-9.10685
前往	-9.10837
汛	-9.10868
廵	-9.10911
福建	-9.1098
以下	-9.10984
陷	-9.11017
難以	-9.11344
走	-9.11396
四海	-9.11473
之官	-9.11558
恵	-9.11707
採	-9.11777
旱	-9.1187
吕	-9.11941
以至	-9.12067
飛	-9.12241
普	-9.1239
其後	-9.12391
馬匹	-9.1242
奏稱	-9.12488
索	-9.12503
喪	-9.12564
項	-9.12571
尚有	-9.12702
之家	-9.12803
彰	-9.12949
斥	-9.1299
廣西	-9.13175
知府	-9.13279
孰	-9.13286
今年	-9.13452
遭	-9.13457
甞	-9.13461
之義	-9.13507
餉	-9.13535
也陛下	-9.13591
民力	-9.13605
社稷	-9.13674
儲	-9.13785
歟	-9.13855
滋	-9.13865
然而	-9.14006
緩急	-9.14113
驕	-9.1415
契丹	-9.14151
烏	-9.14187
之利	-9.14226
殘	-9.14414
出入	-9.14519
局	-9.14662
賞罰	-9.14737
靡	-9.14758
輒	-9.14807
輕重	-9.14899
執政	-9.14909
户部	-9.14953
傾	-9.15012
之政	-9.15152
痛	-9.15171
軍民	-9.15314
兵馬	-9.15317
履	-9.15353
序	-9.15442
謬	-9.15479
處分	-9.15588
途	-9.15726
用人	-9.15814
旋	-9.15849
册	-9.16007
仲	-9.16241
乘	-9.16418
奉㫖	-9.16446
所在	-9.16567
今後	-9.16718
該部	-9.16766
父母	-9.1683
乏	-9.16855
蔡	-9.16856
誘	-9.16903
撫臣	-9.17035
旨	-9.17136
駕	-9.17355
之職	-9.17402
同日又奏為	-9.17577
内有	-9.17719
堡	-9.17724
禹	-9.17726
鼎	-9.17851
者必	-9.17955
昨	-9.18079
祠	-9.18139
朔	-9.18186
以爲	-9.1822
士大夫	-9.1827
根	-9.18282
所當	-9.18441
若干	-9.18557
惟陛下	-9.18592
之名	-9.18733
属	-9.18736
兒	-9.18762
臣恐	-9.19001
幹	-9.19087
往往	-9.19096
之術	-9.19411
不在	-9.19418
遣使	-9.19474
同知	-9.19494
衡	-9.19537
與之	-9.19553
荷	-9.1956
言者	-9.19571
郎	-9.19624
百官	-9.1967
皆有	-9.19691
無事	-9.19702
四川	-9.1989
可否	-9.19899
收成	-9.19951
䟽	-9.20004
范	-9.20056
匹	-9.20167
屬員	-9.2021
斂	-9.20216
替	-9.20254
也故	-9.20339
呉	-9.20379
叔	-9.20505
莊	-9.20555
知縣	-9.20599
必須	-9.20682
募	-9.2077
此皆	-9.20816
䕶	-9.20856
不然	-9.20918
悔	-9.20962
純	-9.20963
感激	-9.2099
奮	-9.21033
叙	-9.21034
邀	-9.21072
警	-9.21106
則有	-9.21106
為國	-9.21206
䝉皇上	-9.21243
蓄	-9.21311
不合	-9.21406
判	-9.21417
兇	-9.21437
背	-9.21467
舟	-9.21653
裕	-9.21661
一併	-9.21743
宗廟	-9.21864
逸	-9.21996
貽	-9.22041
之故	-9.22209
查明	-9.22243
閘	-9.22497
述	-9.22511
繳	-9.22593
卷	-9.22611
底	-9.22646
禦	-9.22704
烈	-9.22904
然則	-9.2292
縣知縣	-9.22927
之下	-9.22968
壩	-9.22985
無以	-9.23018
尺	-9.23058
並無	-9.23059
舜	-9.23092
所言	-9.23169
通省	-9.23329
子弟	-9.23331
中書	-9.23407
君臣	-9.23424
創	-9.23453
虜	-9.23456
塘	-9.23736
詩	-9.23766
鈔	-9.23773
各有	-9.238
訖	-9.23903
隔	-9.23961
堯	-9.24047
奏摺	-9.24054
十年	-9.24162
露	-9.24165
南京	-9.24197
剛	-9.24253
國之	-9.24309
沮	-9.2432
也然	-9.24348
民之	-9.24451
其心	-9.24494
懸	-9.24507
家人	-9.247
貯	-9.24705
道路	-9.24721
雅	-9.24733
状	-9.2476
斗	-9.24783
潛	-9.24968
曠	-9.25083
不如	-9.25118
十分	-9.25254
之則	-9.25299
粟	-9.25304
十二	-9.25406
孔	-9.25626
總兵	-9.25656
忍	-9.2569
乖	-9.25693
郡縣	-9.25706
為陛下	-9.25707
泉	-9.25749
無益	-9.25935
禮部	-9.2597
原任	-9.25989
打	-9.2602
聖恩	-9.26131
弟	-9.26152
夀	-9.26289
殆	-9.26454
湖南	-9.26526
數目	-9.26528
懇	-9.26581
仁宗	-9.26582
法度	-9.2666
伍	-9.26664
品	-9.26664
贓	-9.26679
貸	-9.26691
跡	-9.26734
願陛下	-9.26879
秩	-9.26998
諸路	-9.27098
秉	-9.27141
欠	-9.27165
愧	-9.27246
督臣	-9.27365
基	-9.27384
辱	-9.27407
音	-9.27465
緝	-9.27538
兩零	-9.27559
到任	-9.27583
疲	-9.27851
委員	-9.27867
麥	-9.27918
遲	-9.2798
譽	-9.28168
斟酌	-9.28231
頓	-9.28323
踰	-9.28333
未免	-9.28403
閱	-9.28407
孔子	-9.28438
把總	-9.28479
人材	-9.28493
戴	-9.28571
一一	-9.28579
對曰	-9.28598
進退	-9.2877
勵	-9.28799
古今	-9.28812
欽遵	-9.28825
湖廣	-9.29004
瑞	-9.29309
虎	-9.29603
傅	-9.29763
沈	-9.29783
彊	-9.30036
以及	-9.30051
偶	-9.30059
又曰	-9.30186
苖	-9.30279
在案	-9.30313
秀	-9.30375
一路	-9.30418
為此	-9.30433
即行	-9.30472
不堪	-9.30566
静	-9.3068
臣愚	-9.30724
駐劄	-9.30731
甚多	-9.30799
渉	-9.30837
壯	-9.30856
則是	-9.31069
聖訓	-9.31105
倚	-9.31139
旁	-9.31318
以示	-9.31396
五十	-9.31425
凶	-9.31426
咎	-9.31492
踈	-9.31685
六年	-9.31718
階	-9.31736
逐一	-9.31845
練	-9.31857
不得不	-9.31866
凡有	-9.32025
在京	-9.32047
屏	-9.32051
需	-9.3208
而為	-9.3216
臣下	-9.32332
敦	-9.32353
忌	-9.32418
事體	-9.32456
之論	-9.32746
得雨	-9.32749
妻	-9.32825
罔	-9.32999
緣	-9.3302
徑	-9.33132
民生	-9.33171
刀	-9.33241
寸	-9.33279
直隸	-9.33301
水旱	-9.33303
聖徳	-9.33412
包	-9.33483
俱係	-9.33502
錯	-9.33533
藥	-9.33585
采	-9.33619
不敷	-9.33628
驚	-9.33699
公議	-9.33723
雪	-9.33733
欵	-9.33946
河東	-9.34178
拏	-9.34185
謙	-9.34262
古者	-9.34278
憤	-9.34278
黙	-9.34284
虧	-9.34347
厲	-9.34359
聖意	-9.34381
笑	-9.34382
篤	-9.34477
抗	-9.34544
聖心	-9.34606
辰	-9.34609
慕	-9.34621
措置	-9.34621
隻	-9.34719
亦無	-9.34724
遊擊	-9.34737
湯	-9.34754
遍	-9.3476
不容	-9.34762
齎	-9.34763
削	-9.34789
𫝊	-9.34865
州郡	-9.34881
奏明	-9.34909
圍	-9.34957
租	-9.34997
不時	-9.3504
匪	-9.35091
伏乞	-9.3517
地方官	-9.35188
㡬	-9.3521
單	-9.35217
顔	-9.35271
鄂爾泰	-9.35303
似此	-9.35438
之情	-9.35449
醫	-9.35584
掩	-9.35589
紹	-9.3572
彌	-9.3579
天恩	-9.3582
閒	-9.35936
巻	-9.35979
遊	-9.36047
閣	-9.36152
自然	-9.36259
窺	-9.36311
雍正七年	-9.36348
穆	-9.36352
冦	-9.36364
之風	-9.36383
賑	-9.36411
恨	-9.36413
井	-9.36499
所得	-9.36569
欽定四庫全書	-9.36855
題請	-9.36866
父子	-9.36965
斤	-9.36987
事例	-9.36995
士卒	-9.3714
在外	-9.37247
見在	-9.37289
二三	-9.37291
太子	-9.37292
人民	-9.37303
劾	-9.37461
事理	-9.37502
捨	-9.37652
睿	-9.37677
三千	-9.37677
啟	-9.37687
亷	-9.37706
等情	-9.37743
姓	-9.37752
即位	-9.37762
人才	-9.37772
社	-9.37775
敏	-9.3785
儉	-9.37864
探	-9.37867
詔書	-9.37887
合無	-9.37925
驛	-9.38053
報稱	-9.38129
各州縣	-9.38151
驅	-9.38169
玩	-9.38191
任内	-9.38347
之所以	-9.38351
花	-9.3837
委任	-9.3848
本官	-9.38544
慢	-9.38601
蠧	-9.38625
生事	-9.38633
前日	-9.38748
查勘	-9.38813
通判	-9.38861
儻	-9.3894
無可	-9.38965
超	-9.38992
董	-9.39013
艱	-9.39281
俊	-9.39307
冠	-9.39324
豪	-9.39396
鼓	-9.39434
従	-9.39471
千里	-9.39622
幽	-9.39638
再行	-9.39788
者則	-9.39811
而又	-9.39873
短	-9.39905
是也	-9.39933
謗	-9.39962
之說	-9.40143
敷	-9.40228
馳	-9.40257
疎	-9.40283
夙夜	-9.40292
各該	-9.40408
隱	-9.40568
未盡	-9.40597
徧	-9.40655
憑	-9.40768
不等	-9.40829
大夫	-9.40847
六十	-9.40889
田文鏡	-9.40921
盤	-9.40993
之至意	-9.41083
刑部	-9.41175
徇	-9.41175
粮	-9.41208
之志	-9.41221
僃	-9.41244
呼	-9.41462
竭力	-9.41487
伸	-9.41635
議論	-9.41752
給事中	-9.418
奉行	-9.41842
賈	-9.41891
宥	-9.4192
清查	-9.41973
洋	-9.42119
効力	-9.42119
以謂	-9.42139
導	-9.42198
加意	-9.42238
事件	-9.42336
以聞	-9.42347
績	-9.42367
舎	-9.42404
扣	-9.42408
宴	-9.425
亦可	-9.42593
加以	-9.42598
萬世	-9.42615
擒	-9.42648
人人	-9.42661
以前	-9.42698
拒	-9.4271
昏	-9.42721
蕭	-9.42741
𤣥	-9.42743
廉	-9.42769
之實	-9.42793
前去	-9.42796
拏獲	-9.42807
公私	-9.4281
而行	-9.42831
仕	-9.42871
紀綱	-9.42906
艱難	-9.42921
迹	-9.42964
牌	-9.42979
眷	-9.43019
丹	-9.43039
籌	-9.43187
射	-9.43241
内地	-9.43258
本年	-9.43318
留心	-9.43449
山西	-9.43455
枉	-9.43488
數年	-9.43536
僻	-9.43573
佞	-9.43581
辯	-9.43737
展	-9.43749
逺近	-9.43768
大事	-9.43789
不肖	-9.4385
狂	-9.43932
往來	-9.43962
戍	-9.44141
之憂	-9.44153
目前	-9.44202
古人	-9.44205
魚	-9.44251
矣然	-9.4428
歌	-9.44298
晚	-9.44432
聼	-9.44467
另行	-9.44552
割	-9.44596
誦	-9.44597
雷	-9.44624
一案	-9.4464
措	-9.44718
有功	-9.44805
聞之	-9.449
護	-9.44982
游	-9.44988
也若	-9.45049
矜	-9.45096
行事	-9.45166
至于	-9.45355
之説	-9.45399
怠	-9.45455
於上	-9.4547
東南	-9.45493
不宜	-9.4563
三代	-9.45678
排	-9.45747
弼	-9.45756
甘肅	-9.45844
甫	-9.45856
算	-9.4601
錄	-9.46054
未經	-9.46073
村	-9.46104
換	-9.46123
蠻	-9.4616
未必	-9.46247
挑	-9.46282
介	-9.46305
朋黨	-9.46512
萌	-9.46646
漫	-9.46662
朝夕	-9.46728
肯	-9.46851
南北	-9.46869
賑濟	-9.46912
襄	-9.47001
㸃	-9.47058
暗	-9.47076
所宜	-9.47118
溢	-9.47125
之議	-9.47229
閉	-9.47233
勑	-9.47269
至公	-9.47315
那	-9.47357
畝	-9.47413
訴	-9.47455
之責	-9.47481
硃批	-9.47497
寧夏	-9.47538
厰	-9.4757
生靈	-9.47681
遏	-9.47914
淵	-9.47926
三司	-9.48201
五百	-9.48205
安危	-9.48224
厭	-9.48364
值	-9.48367
若有	-9.48404
驟	-9.48464
雍正五年	-9.48504
談	-9.48525
舉行	-9.48526
巴	-9.48545
貳	-9.48552
摺	-9.48591
設法	-9.48748
之變	-9.48787
之謀	-9.48933
之資	-9.48995
漏	-9.49004
見其	-9.49024
又據	-9.49085
公事	-9.49143
弛	-9.49162
黄河	-9.49208
日月	-9.49219
閩	-9.4932
雍正六年	-9.49354
緊要	-9.49404
歩	-9.49597
之失	-9.4968
堯舜	-9.49711
勾	-9.49852
請㫖	-9.49863
蕩	-9.49875
寢	-9.4992
財用	-9.49966
補授	-9.50014
將帥	-9.5003
零	-9.50057
不用	-9.50065
處置	-9.50068
惟是	-9.50079
拔	-9.50106
之餘	-9.50143
婦	-9.50223
現今	-9.50285
元昊	-9.50371
疋	-9.50431
州府	-9.50462
宗社	-9.50585
輩	-9.50605
有以	-9.50684
庻	-9.50687
伏念	-9.50696
成功	-9.50751
八十	-9.50803
蘭	-9.50876
糴	-9.51227
宰	-9.51343
區區	-9.51369
其實	-9.51429
三百	-9.51565
粗	-9.5157
屋	-9.51629
者乎	-9.51635
刺	-9.5166
豈有	-9.51669
也且	-9.51674
祐	-9.51706
辟	-9.51852
徙	-9.51862
鍾	-9.51966
被水	-9.51993
之衆	-9.52086
嚴飭	-9.5224
不免	-9.52241
渠	-9.52314
奏報	-9.52319
貶	-9.52329
元祐	-9.52351
六百	-9.52383
欽此欽遵	-9.52504
冝	-9.52549
其罪	-9.5274
之不	-9.52747
恕	-9.5277
溝	-9.52882
諒	-9.52968
秉公	-9.53075
頻	-9.53084
筆	-9.53124
九年	-9.53152
理合	-9.53177
雍正三年	-9.53231
副使	-9.53399
掠	-9.53468
營伍	-9.53476
有無	-9.53571
不法	-9.53585
鄙	-9.53587
得失	-9.53612
柔	-9.5364
交與	-9.53665
曉諭	-9.53772
今日之	-9.53847
天意	-9.53943
雍正二年	-9.53954
席	-9.54014
湏	-9.54045
不惟	-9.54074
副將	-9.54088
公曰	-9.54123
粤	-9.54201
年羮堯	-9.54226
上天	-9.54232
之䇿	-9.5425
本朝	-9.54318
之重	-9.54341
黎	-9.54422
朕心	-9.54443
兩省	-9.54547
駐	-9.54568
莫若	-9.54571
府知府	-9.54575
稽查	-9.54593
巨	-9.54633
九十	-9.54648
號令	-9.54685
核	-9.54759
瀆	-9.54809
大學士	-9.54885
未聞	-9.54888
敎	-9.54952
哨	-9.54993
宏	-9.55117
所見	-9.55126
撰	-9.55241
居官	-9.55329
鎭	-9.55401
一百	-9.55436
治罪	-9.55494
上曰	-9.55512
䖏	-9.55518
隂陽	-9.55519
給與	-9.55543
之大	-9.55571
孟	-9.55622
實為	-9.55655
河道	-9.55899
認	-9.55908
皇后	-9.55918
七年	-9.55965
攝	-9.56004
之才	-9.56052
朕意	-9.56065
彦	-9.56322
明堂	-9.5634
館	-9.56353
搶	-9.56442
逮	-9.56504
生民	-9.56585
十五日	-9.56586
陛下之	-9.56599
爰	-9.56649
以待	-9.56724
書曰	-9.56742
岳	-9.56766
亮	-9.56779
方今	-9.56909
八年	-9.56992
蹈	-9.57035
橋	-9.57037
浸	-9.57293
恱	-9.57373
恒	-9.57409
今之	-9.57409
府屬	-9.57421
逼	-9.57428
得其	-9.57476
枝	-9.57514
三省	-9.57586
寃	-9.57601
毛	-9.5765
覩	-9.57659
臣願陛下	-9.5766
去年	-9.57674
所請	-9.57711
𤼵	-9.57764
夲	-9.57797
情由	-9.57984
叨	-9.58017
未敢	-9.58037
矣臣	-9.58051
皇太后	-9.58066
不相	-9.58089
藝	-9.5815
覆奏	-9.58175
可用	-9.58267
嚴加	-9.58368
淳	-9.58407
臣竊	-9.58412
省城	-9.5852
抱	-9.58533
之盛	-9.58538
而不能	-9.58545
土司	-9.5865
敢不	-9.58781
友	-9.58876
各營	-9.58983
鮮	-9.58989
兵民	-9.58998
銜	-9.59001
矣今	-9.59012
馭	-9.59041
祖宗之	-9.59084
證	-9.591
宗室	-9.59171
饑	-9.59214
學士	-9.59384
帝王	-9.5947
陶	-9.59492
天下幸甚	-9.59512
安石	-9.59512
間有	-9.59514
遇有	-9.59552
水勢	-9.59556
敝	-9.59597
雍正四年	-9.59646
貴州	-9.59659
葬	-9.59708
悦	-9.59721
伏望陛下	-9.59731
中原	-9.59739
攸	-9.59773
上司	-9.59858
互相	-9.59863
就近	-9.59991
卜	-9.59996
其意	-9.60006
諌	-9.60012
訊	-9.60166
朋	-9.60176
矢	-9.60186
俯	-9.60328
近者	-9.60343
災異	-9.60396
截	-9.60436
旦	-9.60445
鎮守	-9.60472
奉聖㫖	-9.60544
等事	-9.6055
羊	-9.60629
贊	-9.60641
賀	-9.60792
先後	-9.60826
其有	-9.60867
整	-9.60948
管理	-9.6096
大將軍	-9.60976
今嵗	-9.61027
峻	-9.61043
𠞰	-9.61135
搜	-9.6116
之君	-9.61166
約束	-9.61308
僉	-9.61325
二十日	-9.61423
遵行	-9.61448
奬	-9.61481
槩	-9.61516
都御史	-9.61537
差遣	-9.61567
懿	-9.61579
陋	-9.61624
而巳	-9.61651
黔	-9.61658
伏望	-9.61696
雍	-9.61739
甚屬	-9.61774
立法	-9.61849
浙	-9.61861
柄	-9.61936
壞	-9.61949
附近	-9.61958
洛	-9.62024
之子	-9.62045
環	-9.62045
自有	-9.62094
使人	-9.62122
無異	-9.62198
準	-9.62273
故也	-9.62303
此乃	-9.62316
競	-9.62375
園	-9.62379
之誠	-9.62458
祈	-9.62465
軍士	-9.62514
務期	-9.62578
押	-9.62593
飲	-9.62627
播	-9.6265
填	-9.62672
滯	-9.62694
之路	-9.6275
平日	-9.62754
不一	-9.6277
㫁	-9.62773
冗	-9.62825
次第	-9.63021
駭	-9.63052
悉心	-9.63104
不加	-9.63104
盡心	-9.63133
逾	-9.63135
洽	-9.63196
焚	-9.63295
再三	-9.63335
紙	-9.63424
去後	-9.63464
知州	-9.6349
之力	-9.63643
挾	-9.63675
飬	-9.63711
不言	-9.63739
愛民	-9.63747
翼	-9.63837
鄧	-9.63849
僥倖	-9.63878
之𩔖	-9.63908
豈能	-9.63973
國用	-9.64025
無窮	-9.64073
深入	-9.64112
崔	-9.6414
曉	-9.64425
陳奏	-9.64426
姓名	-9.64454
稍有	-9.64505
訟	-9.64507
之上	-9.64533
販	-9.64615
樹	-9.64636
七十	-9.6468
頼	-9.64769
之害	-9.64787
估	-9.64876
蠲	-9.64969
宅	-9.6507
駁	-9.65107
偷	-9.65132
而不知	-9.65146
海内	-9.65173
束	-9.65195
角	-9.65248
周公	-9.65454
祿	-9.6548
葉	-9.65483
監察御史	-9.65492
僭	-9.65507
看得	-9.65507
不但	-9.6551
吏治	-9.65517
不易	-9.65519
遜	-9.65525
聰明	-9.65553
庶㡬	-9.65633
未及	-9.65707
由是	-9.65731
等日	-9.65732
九卿	-9.65818
公卿	-9.65819
而行之	-9.65833
匿	-9.65839
隙	-9.6584
定例	-9.6587
壽	-9.65876
取之	-9.65981
之物	-9.65993
快	-9.66105
不無	-9.66131
治道	-9.66143
豫省	-9.66157
仍令	-9.66158
三四	-9.66205
杖	-9.6627
寫	-9.66348
沒	-9.66516
者多	-9.66545
可行	-9.66562
馮	-9.6662
哈	-9.66626
虐	-9.66762
者不	-9.66795
紅	-9.6685
革職	-9.66878
伏望聖慈	-9.66922
隄	-9.66951
赤	-9.67019
幸甚	-9.67078
簿	-9.67123
貟	-9.67192
前代	-9.67205
未見	-9.67219
俱各	-9.67233
牽	-9.67245
讓	-9.67246
兄弟	-9.67257
毒	-9.6727
條奏	-9.67327
起程	-9.67346
議處	-9.67373
座	-9.67444
壇	-9.67449
耻	-9.67487
答	-9.67557
也而	-9.67561
會同	-9.67569
廢弛	-9.67734
潮	-9.67818
旬	-9.67948
大體	-9.67979
以便	-9.6798
有罪	-9.68005
彭	-9.68013
至此	-9.68032
廹	-9.68037
疆	-9.68085
一名	-9.68164
臣伏見	-9.68177
苑	-9.68185
齒	-9.68188
諸州	-9.68216
嫌	-9.68234
之氣	-9.68259
法令	-9.68308
頌	-9.68323
之禍	-9.68357
三十	-9.68361
按察使	-9.68442
纔	-9.68469
戚	-9.68506
十九日	-9.68559
籌畫	-9.68596
池	-9.6864
健	-9.68707
十一	-9.68742
為人	-9.68873
洞	-9.68922
五千	-9.68935
之主	-9.68943
官司	-9.68958
裏	-9.68987
不出	-9.69
十六日	-9.69004
王者	-9.69016
把	-9.69129
其勢	-9.69141
至誠	-9.69172
為害	-9.69203
恣	-9.6927
潰	-9.69306
侍從	-9.69332
實在	-9.69358
器械	-9.69404
竄	-9.69409
聖㫖	-9.69428
褒	-9.69431
戮	-9.69438
鐵	-9.6946
迫	-9.69607
加恩	-9.69633
之美	-9.69646
雨澤	-9.69698
先朝	-9.69731
之語	-9.69781
自當	-9.69885
緣由	-9.69894
四十	-9.69903
一言	-9.69918
天心	-9.69989
彼此	-9.69996
綏	-9.70072
上年	-9.70079
豆	-9.70107
文王	-9.70134
太監	-9.70164
檄	-9.70196
十二日	-9.70215
百萬	-9.70258
酬	-9.70287
不安	-9.70354
操守	-9.70381
妃	-9.7041
匠	-9.70507
有益	-9.70526
於天下	-9.70588
舞	-9.70597
豈非	-9.70654
未可	-9.70666
釁	-9.70683
何如	-9.70743
舒	-9.7078
哲	-9.70844
十八日	-9.71008
修理	-9.71034
黃	-9.71067
不欲	-9.71106
以求	-9.71115
之命	-9.71129
祚	-9.71216
塗	-9.71224
若此	-9.71235
軫念	-9.71293
拾	-9.71322
佛	-9.71352
讎	-9.71367
不聞	-9.71369
縣令	-9.71446
一道	-9.71501
四夷	-9.71515
塵	-9.71522
如果	-9.71566
兄	-9.71581
上言	-9.71591
太后	-9.71614
原係	-9.71623
聖諭	-9.71625
猛	-9.71643
賞給	-9.71655
碩	-9.71736
混	-9.7174
靣	-9.71787
不見	-9.71856
十三日	-9.71857
頂	-9.71871
蠲免	-9.71884
岳鍾琪	-9.71903
東省	-9.71911
未知	-9.71955
封疆	-9.7197
帖	-9.71971
二府	-9.72001
屯田	-9.72004
饒	-9.72013
寶	-9.72064
論列	-9.72104
十五	-9.72125
誕	-9.72125
盡行	-9.72178
恥	-9.72203
二十二日	-9.72262
於民	-9.7227
分數	-9.72316
國家之	-9.72349
鋒	-9.72364
實心	-9.72367
四百	-9.72377
再加	-9.72397
之治	-9.72404
各員	-9.7242
防守	-9.72459
又復	-9.72502
轉運使	-9.72522
向來	-9.72576
先王	-9.7262
尹	-9.72629
抄	-9.72632
數十	-9.72713
起至	-9.72875
不應	-9.72937
業經	-9.72943
陣	-9.73002
實有	-9.73036
誠恐	-9.73105
臺諫	-9.73105
誼	-9.73148
鳯	-9.7316
鴻	-9.73234
詣	-9.73259
靜	-9.73266
朕之	-9.73289
指示	-9.73338
昧	-9.73372
祝	-9.73415
不若	-9.73434
頑	-9.73475
而下	-9.73489
糾	-9.73501
訓練	-9.73504
𨽻	-9.73516
盧	-9.73562
瞻	-9.73582
丞	-9.73663
到日	-9.7373
衛所	-9.73853
二百	-9.7386
渡	-9.73869
畨	-9.73966
船隻	-9.73992
引見	-9.74035
七八	-9.7412
根本	-9.74152
亦當	-9.742
矯	-9.74212
垣	-9.74267
常平	-9.74275
男	-9.74289
都司	-9.74302
多寡	-9.74304
二十四日	-9.74352
各項	-9.74428
之本	-9.74554
其弊	-9.7456
以資	-9.7456
盟	-9.74597
之期	-9.74598
板	-9.74671
千總	-9.74695
大兵	-9.74728
皆以	-9.74796
謨	-9.74818
也又	-9.74849
前任	-9.74865
㢘	-9.74881
軍需	-9.74895
將士	-9.74945
多有	-9.74993
丕	-9.75
糶	-9.75004
或以	-9.75059
臣謂	-9.75244
谷	-9.75493
暨	-9.75505
貞	-9.75589
内閣	-9.75666
隋	-9.75673
仇	-9.75715
姑息	-9.75762
臣寮	-9.75876
天地之	-9.75889
其地	-9.75908
侍郎	-9.75911
河工	-9.75927
舉人	-9.75944
鳴	-9.75996
東西	-9.75998
囚	-9.76024
貼	-9.76058
一應	-9.76086
員缺	-9.76097
今若	-9.76114
扶	-9.76179
而天下	-9.76185
縁由	-9.76318
終身	-9.76329
不下	-9.76359
逢	-9.76388
憚	-9.76398
宇	-9.76453
守令	-9.76556
動用	-9.76715
傑	-9.76723
减	-9.76764
輿	-9.7679
臺灣	-9.76839
之私	-9.76918
津	-9.76959
雍正元年	-9.77019
肇	-9.77062
其身	-9.77128
直𨽻	-9.77152
必欲	-9.77176
用心	-9.77186
互	-9.77202
初三日	-9.77215
植	-9.77236
數月	-9.77244
最為	-9.77296
摺奏	-9.77399
之典	-9.77421
保甲	-9.77492
之要	-9.77515
死者	-9.77596
而有	-9.77606
妥	-9.77702
禮樂	-9.77743
桑	-9.77815
台	-9.77843
所司	-9.77901
初四日	-9.77906
不與	-9.77998
於前	-9.78001
珠	-9.78039
之前	-9.78126
二十一日	-9.78141
歡	-9.782
髙宗	-9.78213
未甞	-9.78259
欲以	-9.78279
事竊照	-9.78284
降㫖	-9.78291
大抵	-9.78311
件	-9.78322
大計	-9.78367
因而	-9.78441
詭	-9.78475
夕	-9.78498
所用	-9.7851
公同	-9.78556
岸	-9.78566
之徳	-9.78686
司馬光	-9.78693
倒	-9.78746
胥	-9.78804
觀其	-9.78815
𢎞治	-9.78899
熙	-9.78956
題㕘	-9.78964
泥	-9.78983
運河	-9.79046
衆人	-9.79057
餘兩	-9.7906
此其	-9.7906
荘	-9.79131
讒	-9.7917
契	-9.79183
非所以	-9.79208
照舊	-9.79245
郎中	-9.79293
不已	-9.79338
行令	-9.79347
未完	-9.79357
嵩	-9.79361
雇	-9.79379
誓	-9.79432
過於	-9.79463
典禮	-9.79483
臣僚	-9.79495
責成	-9.7953
償	-9.79601
以安	-9.7961
康熙	-9.79685
嶺	-9.79719
麟	-9.79735
二十五日	-9.79829
差官	-9.79986
何所	-9.80044
銓	-9.80112
荆	-9.80141
殺人	-9.80234
從之	-9.80241
初八日	-9.80246
筭	-9.80266
二十八日	-9.80288
邪正	-9.80429
舊制	-9.80438
舊例	-9.80447
差人	-9.80506
第一	-9.80507
内開	-9.8051
州刺史	-9.80523
保全	-9.80574
之舉	-9.80622
旅	-9.80684
壅	-9.80695
溺	-9.80701
初十日	-9.80702
奈何	-9.80703
於下	-9.80746
供職	-9.80782
側	-9.80812
悟	-9.80855
札	-9.80879
二十六日	-9.80882
察其	-9.80884
今陛下	-9.80897
贈	-9.80913
二麥	-9.81028
丘	-9.81071
萬物	-9.81097
商酌	-9.811
騰	-9.81131
二千	-9.81174
添設	-9.81178
採買	-9.81178
之役	-9.81229
特賜	-9.81237
十七日	-9.81252
諱	-9.81258
五六	-9.81327
竹	-9.8139
腹心	-9.81424
正在	-9.81446
其職	-9.81532
而欲	-9.81628
諡	-9.81696
湖北	-9.81726
聖慈	-9.81767
戸部	-9.81776
跪	-9.81823
家口	-9.81844
閩省	-9.81939
賛	-9.82062
佑	-9.82162
造冊	-9.82313
萬里	-9.82314
怪	-9.82357
遵㫖	-9.82385
自此	-9.8242
也昔	-9.82448
公論	-9.82487
嚴行	-9.82499
以濟	-9.82546
修築	-9.82547
三人	-9.82591
近臣	-9.8265
幣	-9.82685
丞相	-9.82698
諭旨	-9.82735
也其	-9.82779
西北	-9.828
中間	-9.82813
之虞	-9.82842
老成	-9.82904
墩	-9.82917
言事	-9.82917
事情	-9.82924
經理	-9.83013
伏思	-9.83033
軰	-9.83158
委官	-9.8317
謁	-9.83195
矣夫	-9.83206
竊見	-9.83297
之項	-9.83446
脫	-9.83486
該管	-9.8356
鑄	-9.83684
鄰	-9.8369
按察司	-9.83699
年間	-9.83753
毋得	-9.83822
兆	-9.83868
香	-9.83947
誡	-9.83949
而不可	-9.84011
噐	-9.84015
忿	-9.84027
淹	-9.84064
血	-9.84079
譏	-9.8408
為國家	-9.84081
親王	-9.84132
釐	-9.84154
苟	-9.84215
不明	-9.84269
踐	-9.84315
喻	-9.84329
設立	-9.84417
武帝	-9.84425
步	-9.84496
相度	-9.84502
之權	-9.84526
嵗月	-9.84624
文字	-9.84659
使臣	-9.84774
者非	-9.84801
分守	-9.84811
近年	-9.84819
查照	-9.84868
不顧	-9.84936
沛	-9.84976
照依	-9.84983
議奏	-9.84995
庇	-9.85048
不問	-9.85077
無有	-9.85077
者即	-9.85116
愼	-9.85146
亭	-9.85184
是時	-9.85216
不待	-9.85267
何敢	-9.8528
萬石	-9.85282
訪聞	-9.85301
潜	-9.8532
則必	-9.85337
段	-9.85342
矣而	-9.85506
篇	-9.85557
藩司	-9.85596
愆	-9.85632
鄂	-9.85672
畜	-9.85725
民心	-9.85743
不通	-9.85752
攘	-9.85772
八旗	-9.85826
自應	-9.85838
是故	-9.8584
珍	-9.85874
留意	-9.85878
朝廷之	-9.85943
可為	-9.85963
幼	-9.85977
伏惟	-9.8606
奏曰	-9.86137
捧	-9.8617
猶有	-9.86173
開元	-9.86258
之難	-9.86284
惟恐	-9.86286
果能	-9.8634
不止	-9.86418
遼	-9.86456
揆	-9.86509
確查	-9.86568
至意	-9.86602
上帝	-9.86668
府州縣	-9.86674
自行	-9.8672
百里	-9.86757
一月	-9.86812
尤為	-9.86864
嚮	-9.86869
一節	-9.86877
未得	-9.86908
京城	-9.86923
及其	-9.86932
帛	-9.86958
西安	-9.86984
俱有	-9.87014
旌	-9.8708
諫官	-9.87094
滿洲	-9.8718
潔	-9.87199
僚	-9.87225
統領	-9.87297
麗	-9.87345
一千	-9.87375
使其	-9.87402
居民	-9.8741
形勢	-9.87493
職事	-9.87533
不盡	-9.8755
本月	-9.87551
侈	-9.87555
毫無	-9.87573
初六日	-9.87612
此奏	-9.87764
支給	-9.87778
制度	-9.87792
多方	-9.87836
都察院	-9.87879
以自	-9.87904
停止	-9.87913
廪	-9.88053
潤	-9.88067
遁	-9.88068
直言	-9.88076
反覆	-9.88079
一方	-9.88118
二十七日	-9.88135
防禦	-9.88216
皆得	-9.88285
已有	-9.88288
而用之	-9.88349
斃	-9.88385
並不	-9.88402
此時	-9.88486
歴年	-9.8855
諸軍	-9.88553
難於	-9.88579
溪	-9.88595
聞奏	-9.88632
人事	-9.88634
伏見	-9.88651
仗	-9.88668
贍	-9.8869
衣食	-9.88776
查出	-9.88777
岀	-9.88838
先年	-9.88937
員名	-9.88974
疊	-9.89017
苛	-9.89026
為民	-9.8905
之吏	-9.89075
緫	-9.89129
而不敢	-9.89154
受命	-9.89165
姚	-9.89268
肥	-9.89305
翰林學士	-9.89335
又聞	-9.89344
弭	-9.89455
髙祖	-9.8952
何必	-9.8955
商人	-9.89623
民情	-9.89679
徽	-9.89749
諸道	-9.89791
二員	-9.89803
含	-9.89805
牙	-9.89833
人户	-9.89949
塩	-9.89967
罕	-9.90028
鑿	-9.90035
之使	-9.90056
僕	-9.90116
撓	-9.90158
汗	-9.90163
翰	-9.90172
水師	-9.90178
前奏	-9.90231
陜	-9.90254
抽	-9.90267
定奪	-9.90268
骨	-9.9032
則天下	-9.90324
之業	-9.9035
猥	-9.90372
出身	-9.90378
其他	-9.9045
刼	-9.90504
從事	-9.90521
濬	-9.90637
尾	-9.90643
之念	-9.90655
數日	-9.90685
果有	-9.90733
絲毫	-9.90756
弁	-9.90794
逆賊	-9.90825
悍	-9.90871
劄	-9.90947
窮民	-9.90962
鳳	-9.90994
以圖	-9.9113
皇太子	-9.9113
之福	-9.91188
揀選	-9.91203
忠義	-9.91213
者又	-9.91221
而陛下	-9.91224
冒昧	-9.91275
田地	-9.91333
自今	-9.91334
緒	-9.91388
者以	-9.91491
祇	-9.915
想	-9.91604
人言	-9.91629
調補	-9.91661
日夜	-9.91702
選擇	-9.91713
所能	-9.91763
既有	-9.91765
皆由	-9.91784
辜	-9.91809
受其	-9.91833
工部	-9.91833
案内	-9.91895
宸	-9.91896
金人	-9.91912
情願	-9.91934
洩	-9.91957
神宗	-9.92088
茍且	-9.92123
之文	-9.92145
䖍	-9.92146
司馬	-9.92164
既已	-9.9218
紛紛	-9.92189
先行	-9.92197
長吏	-9.92388
没	-9.92427
埽	-9.92475
未便	-9.92488
以成	-9.92501
動支	-9.92512
僧	-9.92607
侮	-9.92652
隳	-9.92716
繩	-9.92726
治天下	-9.92753
製	-9.92776
部議	-9.9279
六七	-9.92871
用度	-9.92875
勤勞	-9.92896
巳經	-9.92955
於人	-9.92965
罹	-9.93048
付之	-9.93063
裴	-9.93146
沐	-9.93183
賔	-9.9327
相繼	-9.9333
十三	-9.93331
㕔	-9.93352
諸將	-9.9338
賢者	-9.93409
學校	-9.93465
倡	-9.93474
人皆	-9.9357
荅	-9.93589
天下之事	-9.93596
耀	-9.93605
之師	-9.93661
則曰	-9.9374
歛	-9.93765
飢	-9.93765
禁止	-9.93788
涉	-9.93788
此則	-9.93842
初二日	-9.93843
十萬	-9.93876
漲	-9.93942
恊	-9.93964
二十九日	-9.93968
之戒	-9.93986
諸司	-9.9399
免其	-9.93998
務令	-9.94103
擢用	-9.94158
務使	-9.9427
一身	-9.94293
閏	-9.943
詳報	-9.9432
失所	-9.94373
墓	-9.94377
土兵	-9.9439
置之	-9.94428
伏乞皇上	-9.94433
閑	-9.94463
阜	-9.94501
潘	-9.94506
事竊查	-9.94526
𣙜	-9.94532
灾	-9.9454
七百	-9.94567
有一	-9.946
中興	-9.94601
固原	-9.9465
齋	-9.94677
整飭	-9.94682
大義	-9.94691
奏事	-9.94728
安民	-9.94774
貞觀	-9.94777
事有	-9.94826
塲	-9.94828
天命	-9.94849
不失	-9.94899
必先	-9.94942
柱	-9.95093
偉	-9.951
九百	-9.95104
來京	-9.95123
再查	-9.95201
其才	-9.95225
詰	-9.95378
㨗	-9.95427
暮	-9.9547
睦	-9.95493
者盖	-9.95501
畆	-9.95619
臻	-9.95652
因此	-9.95706
取其	-9.95728
聽其	-9.95771
先生	-9.95801
不忘	-9.95812
三分	-9.95844
無人	-9.95866
盛徳	-9.95906
將此	-9.95909
燒	-9.95969
初九日	-9.95977
他日	-9.95989
披	-9.96133
治之	-9.9615
壓	-9.96194
浩	-9.96214
宼	-9.96227
脱	-9.96269
刑名	-9.96298
本路	-9.96304
四五	-9.9631
節省	-9.96317
闢	-9.96322
亦未	-9.96357
作何	-9.96371
遵照	-9.96384
韋	-9.96397
䝉古	-9.96465
生員	-9.9657
未至	-9.96601
差役	-9.96621
惰	-9.96649
三日	-9.96665
不從	-9.967
日久	-9.96702
淮南	-9.96717
俞允	-9.96741
不思	-9.96753
綿	-9.96754
松	-9.96763
匡	-9.96793
隣	-9.96832
從容	-9.96844
軌	-9.96881
沿途	-9.96912
賢能	-9.96933
猷	-9.97026
大有	-9.97039
人馬	-9.97056
墾	-9.97104
公主	-9.97105
遐	-9.97122
童	-9.97256
敵衆	-9.97271
致仕	-9.97278
妨	-9.97288
妥協	-9.97298
浚	-9.97313
輔臣	-9.97362
事之	-9.97371
趣	-9.97376
水利	-9.97388
者或	-9.97445
本省	-9.97452
太學	-9.97554
匈奴	-9.97558
贖	-9.97613
九分	-9.97647
雍正八年	-9.97672
不少	-9.97696
莭	-9.97956
太廟	-9.9805
窩	-9.9805
照數	-9.98245
方可	-9.98287
郡王	-9.983
墨	-9.9831
重任	-9.98322
雨水	-9.98349
遞	-9.98475
壹	-9.98506
寖	-9.98513
浦	-9.98534
唐太宗	-9.98566
囬	-9.98623
務要	-9.98702
因其	-9.98706
臣子	-9.98757
不避	-9.98821
一項	-9.98843
士民	-9.9886
畫一	-9.98866
未嘗不	-9.98866
樓	-9.98878
袁	-9.98882
範	-9.98924
撤	-9.98982
十八	-9.99032
踴躍	-9.99037
可見	-9.99037
倭	-9.99043
無他	-9.99088
狹	-9.99089
譴	-9.99111
滇	-9.99139
牆	-9.99167
任事	-9.99194
絲	-9.99198
着	-9.99244
牒	-9.99259
亦皆	-9.99284
淤	-9.99294
賄	-9.99335
不得已	-9.9935
自知	-9.99388
彼處	-9.99412
據實奏聞	-9.99438
不識	-9.99476
為患	-9.99517
無知	-9.99531
明詔	-9.99634
膽	-9.99645
得雪	-9.99697
尚可	-9.99701
精神	-9.99804
騐	-9.99825
鎗	-9.99952
銳	-9.99965
欲乞	-9.99984
欽差	-10
衍	-10.0002
歎	-10.0006
邇	-10.0008
從來	-10.0009
自是	-10.001
無遺	-10.001
姦邪	-10.0015
依舊	-10.0017
帑	-10.0018
不自	-10.0021
管轄	-10.0024
敬謹	-10.0027
存留	-10.0028
無復	-10.0033
㧞	-10.0038
此項	-10.0038
國體	-10.004
相與	-10.0051
天道	-10.0055
江淮	-10.0056
該縣	-10.0059
股肱	-10.0067
博士	-10.0071
大同	-10.0074
遥	-10.0079
輪	-10.0081
而能	-10.0083
深知	-10.0085
駐防	-10.0088
竊聞	-10.0089
止有	-10.0091
彼時	-10.0094
成化	-10.0096
印務	-10.01
閭閻	-10.0103
臣竊見	-10.0103
徹	-10.0103
不善	-10.0108
所為	-10.0109
之方	-10.011
際	-10.011
繕	-10.0112
之世	-10.0114
又以	-10.0118
去處	-10.0118
伏查	-10.0119
䘏	-10.0119
民人	-10.0127
任使	-10.0127
數人	-10.0134
擁	-10.0135
斛	-10.0146
一次	-10.0158
漕運	-10.0159
朕所	-10.0161
可得	-10.0162
妖	-10.0162
膳	-10.0163
上奏曰臣	-10.0167
悖	-10.0173
進呈	-10.0189
上時	-10.0191
著將	-10.0193
准其	-10.0199
而去	-10.0203
䑓	-10.0207
可知	-10.0207
倖	-10.0209
勉之	-10.0212
文帝	-10.0214
溥	-10.0217
坊	-10.0218
必無	-10.0219
曰吾	-10.022
周禮	-10.022
㑹議	-10.0221
在位	-10.0225
必不	-10.0226
更有	-10.0227
彚	-10.0228
商賈	-10.0234
較之	-10.0237
富貴	-10.0242
宣諭	-10.0245
臣請	-10.0246
於外	-10.0248
之宜	-10.0249
人主之	-10.0254
𣲖	-10.0261
奚	-10.0262
之始	-10.0265
整理	-10.0267
必致	-10.0268
淫	-10.0268
年正月	-10.0269
及至	-10.0271
相機	-10.0277
者為	-10.0278
正徳	-10.0278
無由	-10.0279
摧	-10.0282
學者	-10.0283
講求	-10.0283
碑	-10.0284
行文	-10.0285
為一	-10.0286
聖朝	-10.0287
又不	-10.0287
聖祖	-10.0298
箇	-10.0299
壘	-10.0301
傳曰	-10.0303
墊	-10.0303
相同	-10.0303
羌	-10.0307
州軍	-10.0312
晏	-10.0316
臣以為	-10.0318
見於	-10.0318
數萬	-10.0324
可不	-10.0325
未有不	-10.0326
刑罰	-10.033
之苦	-10.0336
價銀	-10.0339
訓誨	-10.0339
土官	-10.034
交代	-10.0341
人犯	-10.0348
禮義	-10.0352
得之	-10.0354
必得	-10.0354
之望	-10.0355
真宗	-10.0357
者矣	-10.0361
易於	-10.0361
此案	-10.0365
軍人	-10.0366
御史中丞	-10.0367
賠	-10.0368
聖人之	-10.0369
以防	-10.0375
目下	-10.0383
本州	-10.0385
歸於	-10.0387
臣雖	-10.0393
在乎	-10.0396
隨即	-10.0402
壮	-10.0404
其為	-10.0404
甚為	-10.0406
在官	-10.041
隆恩	-10.041
浙省	-10.0415
吐	-10.0418
門下	-10.0419
格外	-10.0421
如故	-10.0423
黜陟	-10.0425
事事	-10.0437
染	-10.044
皮	-10.0444
觀望	-10.0446
前因	-10.0451
若以	-10.0452
廬	-10.0455
兵備	-10.0456
李衞	-10.046
稔	-10.046
黒	-10.0461
洗	-10.0462
嘉靖	-10.0463
偹	-10.0465
數多	-10.047
迷	-10.0483
之曰	-10.0483
其害	-10.0488
孔子曰	-10.0498
處之	-10.0503
做	-10.0508
猶未	-10.051
具摺	-10.0511
司庫	-10.0515
亦非	-10.0523
刷	-10.0524
薪	-10.0527
㳺	-10.0528
飭令	-10.0528
朴	-10.053
上奏曰臣聞	-10.0536
人數	-10.0536
平糶	-10.054
尤甚	-10.0541
題補	-10.0545
戢	-10.0547
觸	-10.055
沿海	-10.0551
其家	-10.0565
綱紀	-10.0568
考試	-10.0573
逓	-10.0574
天津	-10.0577
始終	-10.0577
萬兩	-10.0586
薦舉	-10.0591
刺史	-10.0591
脅	-10.0594
迨	-10.0597
它	-10.0597
知所	-10.06
除授	-10.0608
固已	-10.0609
誥	-10.0612
豈無	-10.0614
仁義	-10.0615
揺	-10.0621
盗賊	-10.0623
掣	-10.0623
刦	-10.0629
該督撫	-10.0632
今據	-10.0633
欽奉	-10.0636
以慰	-10.0637
地震	-10.064
悞	-10.0642
雖欲	-10.0642
汪	-10.0646
冐	-10.0648
亦必	-10.065
墻	-10.0652
各衙門	-10.0655
治平	-10.0656
平時	-10.066
軍務	-10.066
情節	-10.0664
突	-10.0667
暇	-10.0671
都統	-10.0672
養廉	-10.0672
同心	-10.0678
今乃	-10.0679
堤工	-10.0685
邸	-10.0691
漢唐	-10.0691
寓	-10.0692
讀書	-10.0693
十四日	-10.0694
佐領	-10.0699
不獨	-10.0701
應行	-10.0705
級	-10.0708
山川	-10.0709
俱已	-10.0709
票	-10.071
輝	-10.0711
朽	-10.0713
陛下以	-10.0716
十六	-10.0722
教化	-10.0726
不疑	-10.0728
有事	-10.0729
余	-10.0731
奠	-10.0731
聦明	-10.0735
行走	-10.0736
言路	-10.0738
節次	-10.0739
多事	-10.0739
萬全	-10.0741
圖報	-10.0747
竣	-10.0753
應否	-10.0756
霑足	-10.0756
髙下	-10.0761
不暇	-10.0762
在上	-10.0769
外所有	-10.0771
臣竊惟	-10.0772
數百	-10.0773
知人	-10.0774
支用	-10.0777
思之	-10.0788
耗羡	-10.0788
吴	-10.0795
陪	-10.0796
戾	-10.0799
國公	-10.08
秋成	-10.0801
樞	-10.0801
耕種	-10.0804
澄	-10.0814
遵守	-10.0816
稻	-10.0817
一處	-10.0823
非有	-10.0829
所陳	-10.0834
嘆	-10.084
八九	-10.084
飽	-10.084
不服	-10.0844
而言	-10.0845
或因	-10.0851
紛	-10.0852
赤子	-10.0855
憐	-10.0856
倘有	-10.086
五分	-10.0868
矣此	-10.0878
有限	-10.0881
更不	-10.0883
迭	-10.0885
詔㫖	-10.0885
由此	-10.0887
衷	-10.0888
一嵗	-10.0894
初七日	-10.0897
其利	-10.0913
外其餘	-10.0913
調度	-10.0915
而復	-10.0916
田禾	-10.0919
無功	-10.092
帝王之	-10.0923
定議	-10.0934
擇其	-10.0936
不幸	-10.0937
出自	-10.0938
帶領	-10.0939
申明	-10.094
技	-10.0944
三路	-10.0947
以正	-10.0948
卿等	-10.0949
國朝	-10.0952
軍馬	-10.0955
司道	-10.0965
軍政	-10.0967
區	-10.0969
無過	-10.0971
日期	-10.0975
托	-10.0986
仙	-10.0987
臣言	-10.0995
所行	-10.0996
公費	-10.1001
歉	-10.1002
下情	-10.101
者其	-10.1017
止於	-10.1029
房屋	-10.1031
𦂳要	-10.1034
榜	-10.1036
成王	-10.1049
太皇太后	-10.1054
米石	-10.1055
接濟	-10.1056
天下之人	-10.106
汝等	-10.1074
睿鑒	-10.108
㕘將	-10.108
國法	-10.1084
臨御	-10.1084
劣	-10.1089
今又	-10.109
之門	-10.1091
天之	-10.1091
督率	-10.1098
洎	-10.1099
妙	-10.1103
數千	-10.1103
百年	-10.1103
重大	-10.1105
惇	-10.1106
元豐	-10.1115
故能	-10.1121
裂	-10.1124
樁	-10.1124
熈寧	-10.1127
種種	-10.1129
王安石	-10.1129
為政	-10.1131
裔	-10.1135
竊惟	-10.1137
諄諄	-10.1139
踵	-10.1141
居住	-10.1142
妻子	-10.1144
矣陛下	-10.1149
移咨	-10.1149
政令	-10.1151
暢	-10.1153
域	-10.1162
晝夜	-10.1162
有此	-10.1162
誌	-10.1166
忠臣	-10.1167
前来	-10.1167
之體	-10.1168
詢問	-10.1169
有言	-10.1173
夫人	-10.1174
養亷	-10.1176
一摺	-10.1177
損益	-10.1189
曰朕	-10.1189
闗係	-10.1192
未易	-10.1193
之勞	-10.1199
奨	-10.1205
匱	-10.1207
毎年	-10.1208
禀稱	-10.1209
鼓舞	-10.1211
該道	-10.1217
本司	-10.1219
比之	-10.1222
責之	-10.1224
奉天	-10.1224
復有	-10.1229
辛	-10.1231
䝉聖恩	-10.1238
朕躬	-10.1238
諸事	-10.1239
使天下	-10.1243
曰臣聞	-10.1247
錦	-10.1248
轍	-10.125
茲	-10.125
府庫	-10.1251
六千	-10.1251
劄子	-10.1253
弓	-10.1255
妾	-10.1255
目今	-10.1257
並未	-10.1259
風雨	-10.1263
十四	-10.1265
官民	-10.1267
毅	-10.1277
恪	-10.1278
即將	-10.1282
黔省	-10.1285
貧民	-10.1287
拉	-10.1292
謫	-10.1297
聖祖仁皇帝	-10.1297
故曰	-10.1305
判官	-10.1308
之機	-10.1311
所議	-10.1312
麻	-10.1313
即令	-10.1314
懋	-10.1314
絹	-10.1319
叅奏	-10.1321
此言	-10.1324
責其	-10.1328
委署	-10.1328
欺罔	-10.1329
羽	-10.1332
之水	-10.1336
事君	-10.1337
劇	-10.134
鋪	-10.134
凌	-10.134
夥	-10.1342
於本年	-10.1342
周詳	-10.1343
時有	-10.1343
一分	-10.1349
為首	-10.135
及時	-10.1353
寕	-10.1363
治亂	-10.1364
将軍	-10.1369
失其	-10.1371
距	-10.1375
災傷	-10.138
延綏	-10.138
奢	-10.1386
臣嘗	-10.1388
慎重	-10.1391
公用	-10.1391
轉行	-10.1394
安得	-10.1397
聖鑒	-10.1399
必能	-10.1399
川省	-10.1405
必以	-10.1407
栁	-10.1409
悃	-10.141
都督	-10.1428
者乃	-10.1428
操練	-10.1433
彈	-10.1434
科道	-10.144
機宜	-10.1447
上奏曰	-10.1448
此外	-10.1448
孚	-10.1449
使者	-10.1449
樊	-10.145
霸	-10.1453
鬻	-10.1456
丗	-10.1462
欣	-10.1466
彈壓	-10.1468
款	-10.147
在彼	-10.1471
售	-10.1476
新任	-10.148
弁兵	-10.1482
三府	-10.1486
好惡	-10.1491
固有	-10.1493
桂	-10.1494
為名	-10.1495
帳	-10.1497
他人	-10.1497
正人	-10.1501
佃	-10.1503
名器	-10.1503
其本	-10.1508
而未	-10.1508
當即	-10.1516
搆	-10.1517
弄	-10.1518
膏	-10.1518
㒺	-10.1519
之仁	-10.1521
奴	-10.1522
每嵗	-10.1524
等府	-10.1527
紹興	-10.1536
鋭	-10.1542
夙	-10.1543
任用	-10.1545
買補	-10.1547
夷狄	-10.1549
愛惜	-10.1555
舖	-10.156
盡力	-10.1561
求治	-10.1562
泛	-10.1567
嘉祐	-10.1571
處所	-10.1573
細加	-10.1574
該員	-10.1581
詳議	-10.1582
勦	-10.1584
我朝	-10.1585
磨	-10.1585
沉	-10.1589
奉旨	-10.1589
亦宜	-10.159
岐	-10.1591
二曰	-10.1595
勢必	-10.1597
一官	-10.16
莫能	-10.1601
必行	-10.1603
為先	-10.1606
善惡	-10.1608
等各	-10.1616
奉欽依	-10.1621
控	-10.1622
恢	-10.1623
此誠	-10.1625
兩淮	-10.1629
八百	-10.1632
冕	-10.1633
邊事	-10.1637
灌	-10.1638
㢤	-10.164
縁係	-10.1643
贏餘	-10.1644
人力	-10.165
職任	-10.1652
稽察	-10.1656
聖慮	-10.1657
尉	-10.1657
培	-10.1659
䧟	-10.166
悲	-10.1661
更張	-10.1664
憂勤	-10.1668
上諭大學士等曰	-10.167
中有	-10.167
若是	-10.1673
與夫	-10.1675
嚴禁	-10.1678
忤	-10.1686
凖	-10.169
轉運司	-10.169
夾	-10.1692
揀	-10.1692
財物	-10.1694
一也	-10.1695
肉	-10.1701
元元	-10.1705
饗	-10.1707
遵奉	-10.1712
揭	-10.1721
恩澤	-10.1723
感戴	-10.173
内臣	-10.173
任其	-10.173
軍前	-10.1733
郡守	-10.1748
翰林	-10.1751
任意	-10.1753
其力	-10.1755
於陛下	-10.1761
與其	-10.1763
毫	-10.1767
可惜	-10.1768
綸	-10.1768
㳟	-10.1774
無庸	-10.1776
軍旅	-10.1776
前事	-10.1779
上聞	-10.1779
熈	-10.1781
𥘉	-10.1781
皆可	-10.1781
低	-10.1785
飲食	-10.1785
一半	-10.1786
邁柱	-10.1794
寘	-10.1796
領兵	-10.1802
為重	-10.1803
稱職	-10.1807
不信	-10.1808
臣竊謂	-10.1813
頭目	-10.1813
棍	-10.1813
城池	-10.1816
波	-10.1818
梟	-10.1819
七分	-10.1819
桓	-10.182
户口	-10.182
瓦	-10.1821
繆	-10.1821
所致	-10.1823
有不	-10.1825
宜令	-10.1826
江浙	-10.1833
少有	-10.1837
亦難	-10.1843
拯	-10.1852
祭祀	-10.1852
不知其	-10.1857
副都統	-10.1861
何者	-10.1867
迂	-10.1868
燭	-10.1871
凡事	-10.1873
萬民	-10.1873
汴	-10.1876
哉臣	-10.1878
雍正九年	-10.1886
逰	-10.1892
芳	-10.1892
用事	-10.1894
獵	-10.1894
硃批諭㫖巻	-10.1897
賢否	-10.1904
恢復	-10.1908
府屬之	-10.1908
必至	-10.191
今既	-10.1912
懈	-10.1914
奔走	-10.192
所聞	-10.192
隘	-10.1925
案件	-10.1925
詩曰	-10.1926
三萬	-10.193
無辜	-10.1935
卽	-10.1939
臨時	-10.1942
脚	-10.1944
而致	-10.1951
見今	-10.1951
不獲	-10.1956
不息	-10.1977
學習	-10.198
纂	-10.1982
邁	-10.1983
取士	-10.1983
讐	-10.1986
殫	-10.1995
豐收	-10.2003
充軍	-10.2006
以禮	-10.2008
攬	-10.201
應用	-10.2019
之位	-10.2021
又論	-10.2021
得罪	-10.2024
情弊	-10.2027
宦	-10.2029
一家	-10.2031
禱	-10.2033
徃徃	-10.2042
從此	-10.2047
孟子	-10.2054
幫	-10.2055
曷	-10.2061
屬之	-10.2061
保舉	-10.2063
宗廟社稷	-10.2065
病故	-10.2066
腹	-10.2074
節制	-10.2078
其情	-10.2078
其可	-10.2078
無一	-10.2079
拆	-10.2081
孔毓珣	-10.2081
夢	-10.2083
之具	-10.2087
孽	-10.2087
之節	-10.2089
降指揮	-10.209
析	-10.2094
十餘	-10.2095
蘇州	-10.2095
之慮	-10.2096
哲宗	-10.2096
州知州	-10.2098
收貯	-10.2101
壤	-10.2102
二十四	-10.2104
豐稔	-10.2105
刑獄	-10.2105
凛	-10.2113
半年	-10.2122
蔣	-10.2126
有㫖	-10.213
所費	-10.213
本末	-10.2131
賂	-10.2132
到任後	-10.2134
各府	-10.2136
邊境	-10.2136
之道也	-10.2137
財賦	-10.214
邊方	-10.2147
關係	-10.2152
都指揮	-10.2153
酌議	-10.2153
雨雪	-10.2157
竊以	-10.2159
人臣	-10.217
叩	-10.2176
坦	-10.2179
酋	-10.2181
凝	-10.2183
無虞	-10.2183
之效	-10.2187
遂使	-10.219
恐有	-10.2193
二縣	-10.2195
今來	-10.2198
汚	-10.2199
呈報	-10.2199
既不	-10.2203
外其	-10.2203
莫敢	-10.2208
光武	-10.2209
太原	-10.2209
不分	-10.221
犬馬	-10.2211
之策	-10.2212
重地	-10.2215
則又	-10.2224
所貴	-10.2231
君父	-10.2234
預備	-10.2235
和氣	-10.2235
力行	-10.2245
闈	-10.2248
竝無	-10.2249
嗟	-10.225
其子	-10.2251
廟堂	-10.2251
將官	-10.2251
泣	-10.2253
五帝	-10.2266
甚至	-10.2266
返	-10.2272
稿	-10.2272
窘	-10.2279
職業	-10.2291
髙其倬	-10.2293
何人	-10.2293
初五日	-10.2294
狡	-10.2297
有可	-10.2297
四千	-10.2298
昻	-10.2303
積弊	-10.2309
隅	-10.2309
朕思	-10.2314
英宗	-10.2321
難得	-10.2331
被災	-10.2338
速行	-10.2342
廷臣	-10.2344
委曲	-10.2346
該府	-10.2347
則為	-10.2348
矧	-10.2353
輟	-10.2355
又奉上諭	-10.236
這	-10.2366
世之	-10.2369
俞	-10.2371
牲	-10.2374
墮	-10.2375
上言曰	-10.2376
臣願	-10.238
者雖	-10.2382
之類	-10.2382
先王之	-10.2383
神明	-10.2384
非其人	-10.2389
部院	-10.24
酷	-10.2401
給發	-10.2402
鈞	-10.2402
礮	-10.2403
不以為	-10.2419
巢	-10.2422
三曰	-10.2425
愚昧	-10.243
港	-10.243
晦	-10.2431
二十年	-10.2433
武備	-10.2436
事勢	-10.2437
活	-10.2439
矣其	-10.244
考之	-10.2442
箭	-10.2444
署撫	-10.2445
叢	-10.2448
鑑	-10.2449
浪	-10.245
計議	-10.2452
嗚呼	-10.2455
易曰	-10.2463
去嵗	-10.2463
繕摺	-10.2464
天威	-10.2465
具摺奏聞	-10.2466
等物	-10.2466
隴	-10.2468
所至	-10.247
李紱	-10.2472
聖德	-10.2474
扇	-10.2474
仰體	-10.2475
倉卒	-10.2476
如是則	-10.2479
千户	-10.2482
覈	-10.2483
天下之大	-10.2496
㓂	-10.25
灣	-10.2502
二萬	-10.2502
經過	-10.2503
漢之	-10.2503
雖然	-10.2504
法司	-10.2506
憫	-10.2507
陛見	-10.2507
安能	-10.2507
别無	-10.2509
之明	-10.2509
昇	-10.2516
明年	-10.2516
捍	-10.2522
剥	-10.2525
掃	-10.2527
協同	-10.2529
忝	-10.2531
觀之	-10.2532
隨時	-10.2532
庶政	-10.2537
存貯	-10.254
進貢	-10.2541
今天下	-10.2546
經營	-10.2548
應援	-10.2552
㓜	-10.2555
至扵	-10.2557
召募	-10.2558
經筵	-10.2561
風聞	-10.2562
之迹	-10.2564
黽勉	-10.2572
休息	-10.2573
什	-10.2576
叅將	-10.2577
輯	-10.2577
堰	-10.258
繇	-10.2584
不特	-10.2584
又何	-10.2584
甚是	-10.2589
一曰	-10.2591
霑	-10.2592
之學	-10.2599
俱經	-10.2601
廼	-10.2606
惕	-10.2609
恬	-10.2611
沿	-10.2611
前徃	-10.2612
紳	-10.2616
所以為	-10.2616
預為	-10.2619
噶爾丹	-10.2621
彬	-10.2622
括	-10.2629
謹將	-10.2631
司官	-10.2632
河西	-10.2633
時政	-10.2636
民食	-10.2638
戈	-10.2643
武王	-10.2643
雍正十年	-10.2647
上書	-10.2648
武職	-10.265
羞	-10.2653
渭	-10.2654
以供	-10.2657
不測	-10.2658
防範	-10.2665
皆為	-10.2667
趕	-10.2671
午	-10.2672
蘓	-10.2674
醜	-10.2675
急務	-10.2675
不逮	-10.2677
尸	-10.2678
銘	-10.2678
無私	-10.2689
不使	-10.2689
戰守	-10.2689
拖欠	-10.2698
網	-10.2704
然也	-10.2706
兩府	-10.2711
選用	-10.2711
不敢不	-10.2712
一例	-10.2714
叶	-10.2727
軍器	-10.2727
崩	-10.2737
堅固	-10.2739
赴京	-10.2739
伏乞睿鑒謹奏	-10.2741
皆是	-10.2741
南郊	-10.2744
此數	-10.2745
亦不可	-10.275
何也	-10.275
伏惟陛下	-10.2756
節度	-10.2757
淪	-10.2758
寝	-10.2759
竊恐	-10.2761
為心	-10.2767
後來	-10.277
於萬一	-10.2773
等縣	-10.2779
闊	-10.2787
一時之	-10.2793
詔令	-10.2798
授以	-10.2799
毆	-10.2802
炎	-10.2804
地勢	-10.2805
有過	-10.2806
日新	-10.2807
牢	-10.2808
江寧	-10.2813
提舉	-10.2814
鳥	-10.2816
以期	-10.2818
進用	-10.2821
等衙門	-10.2822
臣竊以	-10.2823
姪	-10.2828
農民	-10.2829
某人	-10.2838
不勝幸甚	-10.2839
已上	-10.2842
不拘	-10.2843
不令	-10.2843
祧	-10.2844
矣若	-10.2844
人也	-10.2847
若非	-10.2849
捷	-10.2852
上柱國	-10.2857
侵蝕	-10.2859
四時	-10.2859
莫大於	-10.2859
本處	-10.2863
實係	-10.2865
經費	-10.2867
為善	-10.2875
畏懼	-10.2875
可乎	-10.2877
勁	-10.2883
河水	-10.289
約有	-10.2891
照得	-10.2893
此心	-10.2894
親戚	-10.2899
此亦	-10.2903
臣觀	-10.2903
融	-10.2904
測	-10.2912
實屬	-10.2914
挺	-10.2914
謹奏覽	-10.2915
欲其	-10.2922
奏銷	-10.2924
從而	-10.2924
物料	-10.2924
戲	-10.2927
賞賜	-10.2928
不立	-10.2929
才具	-10.2929
大功	-10.2933
為大	-10.2936
樸	-10.2937
賠補	-10.2941
詆	-10.2941
漸次	-10.2943
詳細	-10.2944
之分	-10.2944
其志	-10.2946
即可	-10.2952
蘭州	-10.2953
有常	-10.2955
王師	-10.2957
價值	-10.296
宵旰	-10.2961
者今	-10.2963
人命	-10.2964
既無	-10.2966
而民	-10.2967
言而	-10.2975
寛宥	-10.2977
之末	-10.298
怡親王	-10.2985
群	-10.2986
不絶	-10.2988
周知	-10.299
何則	-10.2991
耿	-10.2992
隊	-10.2994
乎此	-10.2997
監生	-10.2999
亦屬	-10.3002
在陛下	-10.3007
論奏	-10.3008
何謂	-10.301
僉事	-10.3013
拙	-10.3015
孜孜	-10.3015
一心	-10.3016
即如	-10.3018
禍亂	-10.3024
疾苦	-10.3029
不畏	-10.3036
大業	-10.3037
即有	-10.3039
十七	-10.3042
第二	-10.3046
又於	-10.3048
今春	-10.3053
今已	-10.3059
日益	-10.3068
臂	-10.3069
嫡	-10.307
伏覩	-10.307
義理	-10.3074
幕	-10.3077
小心	-10.3083
倉庫	-10.3084
懦	-10.3087
歴代	-10.3087
無非	-10.309
其所以	-10.3091
招撫	-10.3092
非惟	-10.3093
也至於	-10.3094
者不過	-10.3094
紫	-10.3095
逺方	-10.3095
套	-10.3096
夫以	-10.3098
則其	-10.3104
矣又	-10.3106
多少	-10.3118
貿易	-10.3119
氷	-10.312
矣故	-10.312
怯	-10.3121
織	-10.3122
具本	-10.3125
天子之	-10.3126
正法	-10.3126
揑	-10.313
開墾	-10.3131
為念	-10.3133
守臣	-10.3133
地畝	-10.3135
畿	-10.3141
墜	-10.3142
巡按	-10.3144
整頓	-10.3145
夏秋	-10.3147
站	-10.3148
守禦	-10.3149
灘	-10.3151
建立	-10.3155
萬人	-10.3155
二十五	-10.3156
大禮	-10.3161
改為	-10.3163
絳	-10.3167
一百二十	-10.317
西寧	-10.3171
愚見	-10.3177
其國	-10.3179
自為	-10.3179
為天下	-10.318
議覆	-10.3184
猶可	-10.3186
冬至	-10.3188
得其人	-10.3189
亦不能	-10.319
小臣	-10.3191
作弊	-10.3193
糧道	-10.3195
所知	-10.3208
但恐	-10.3209
君之	-10.3217
言其	-10.3222
所轄	-10.3222
新舊	-10.3223
傳諭	-10.3225
騾	-10.3226
所載	-10.3227
饋	-10.3227
兩月	-10.3228
柴	-10.3228
挫	-10.323
宫中	-10.3231
規模	-10.3231
威福	-10.3231
媚	-10.3231
糧餉	-10.3232
其名	-10.3232
臣工	-10.3234
實難	-10.3236
忠誠	-10.3237
皇恩	-10.3238
臣愚以為	-10.3238
之㫖	-10.3242
兩路	-10.3243
良民	-10.3246
去訖	-10.3252
亦多	-10.3252
伺	-10.3252
你	-10.3254
暑	-10.3254
械	-10.3255
琦	-10.3256
沿邊	-10.326
二名	-10.3263
未安	-10.3264
不能自	-10.3273
國事	-10.3276
而自	-10.3279
流離	-10.3287
宮	-10.3288
皆係	-10.3289
卓	-10.3292
粤東	-10.3298
訪得	-10.3298
以副朕	-10.3299
鉅	-10.3299
雖未	-10.33
誨	-10.33
貌	-10.3301
大雨	-10.3301
齡	-10.3305
即以	-10.3305
本地	-10.3312
發遣	-10.3313
田畝	-10.3316
其君	-10.3318
深為	-10.3323
莫如	-10.3323
於朝	-10.3324
二者	-10.3326
也自	-10.3327
之區	-10.3327
擒獲	-10.3329
儆	-10.333
固守	-10.3332
上時為	-10.3332
楊文乾	-10.3336
天人	-10.3344
一槩	-10.3347
主事	-10.3348
藩庫	-10.335
別	-10.3352
何事	-10.3352
起於	-10.336
楚省	-10.3367
開封府	-10.3367
倣	-10.3368
非獨	-10.3372
之流	-10.3372
考其	-10.3375
十九	-10.3378
宰臣	-10.3381
此二	-10.3384
每石	-10.339
今歲	-10.3394
貲	-10.3394
汙	-10.3395
之端	-10.3405
前世	-10.3406
職守	-10.3406
閫	-10.341
欽奉上諭	-10.3412
求賢	-10.3413
哭	-10.3419
瞻顧	-10.342
調遣	-10.3427
蒙皇上	-10.3428
聲明	-10.3433
異日	-10.3434
外任	-10.3435
立功	-10.3436
隐	-10.3441
已行	-10.3442
萬幾	-10.3444
逞	-10.3446
為是	-10.3446
查議	-10.3447
實情	-10.3449
直省	-10.3451
仍乞	-10.3452
所舉	-10.3458
所欲	-10.346
近聞	-10.3462
亦何	-10.3464
效力	-10.3469
涇	-10.3471
句	-10.3471
蟲	-10.3473
一州	-10.3476
試用	-10.3478
失之	-10.348
恐懼	-10.3482
亦以	-10.3488
一經	-10.3491
糧草	-10.3497
何能	-10.3499
額外	-10.3501
北敵	-10.3502
設有	-10.3503
有警	-10.3504
倉穀	-10.3506
豈得	-10.3506
堯舜之	-10.3507
即今	-10.3518
其說	-10.3522
薛	-10.3524
太常	-10.3526
未定	-10.3527
狼	-10.3528
劫	-10.3528
文學	-10.3528
八分	-10.3528
姜	-10.3529
申報	-10.353
拂	-10.3533
不才	-10.3535
之性	-10.3539
安撫	-10.3543
本色	-10.3545
中國之	-10.3547
守之	-10.3547
捉	-10.3551
紊	-10.3552
仍照	-10.3552
收穫	-10.3556
玷	-10.3558
秋禾	-10.3559
亨	-10.3561
軍中	-10.3566
條陳	-10.3567
九千	-10.3567
二分	-10.357
瓊	-10.357
為此謹奏	-10.3578
者衆	-10.3584
賑恤	-10.3586
渾	-10.359
水陸	-10.359
近年以來	-10.3592
其道	-10.3594
具疏	-10.3597
非不	-10.3603
該撫	-10.3604
逃亡	-10.3606
禆	-10.3607
於後	-10.3607
弊端	-10.3609
盤查	-10.3611
軫	-10.3612
獸	-10.3615
藻	-10.3617
奮勇	-10.3618
徐州	-10.3618
凡此	-10.3621
聖躬	-10.3621
李衛	-10.3625
何足	-10.3626
欲使	-10.3626
洪恩	-10.3628
考察	-10.3629
何由	-10.363
致治	-10.3637
忠良	-10.3637
司徒	-10.3638
帶兵	-10.3638
仍行	-10.3643
之過	-10.3647
責任	-10.3649
稟	-10.365
伏望皇上	-10.365
聖賢	-10.3653
該司	-10.3654
前此	-10.3656
即於	-10.3664
聲名	-10.3665
者何	-10.3667
以充	-10.3677
查拏	-10.368
無幾	-10.3682
當今	-10.3688
内府	-10.3691
飯	-10.3691
自來	-10.3692
計之	-10.3697
奏乞	-10.3697
恭謝天恩	-10.3697
刃	-10.37
藴	-10.37
起見	-10.3704
之詔	-10.3706
天變	-10.3715
喇	-10.3718
箐	-10.372
人口	-10.3722
宣布	-10.3724
慿	-10.3724
屠	-10.3724
廩	-10.3726
一縣	-10.3728
者惟	-10.3729
申飭	-10.3731
亦不敢	-10.3732
朕以	-10.3732
當日	-10.3733
深思	-10.3737
一萬	-10.3742
實力	-10.3744
收買	-10.3755
與否	-10.3758
知制誥	-10.3758
韓琦	-10.3759
干戈	-10.376
也臣聞	-10.3761
民欠	-10.3763
其任	-10.3763
禮官	-10.3764
行移	-10.377
不忠	-10.3771
茅	-10.3784
備禦	-10.3786
㸔	-10.3786
十五年	-10.379
全無	-10.379
攷	-10.3791
儘	-10.3797
數十萬	-10.3801
之案	-10.3805
碎	-10.381
不逺	-10.3811
蒸	-10.3813
跪讀之下	-10.3817
臣切	-10.382
城垣	-10.3821
文章	-10.3825
帥臣	-10.3829
髙厚	-10.3831
謹奏為奏聞事竊	-10.3831
或謂	-10.3832
闔	-10.3832
分為	-10.3838
而不為	-10.3845
山陵	-10.3847
於今	-10.385
但以	-10.3852
犯法	-10.3853
呈稱	-10.3855
金帛	-10.3857
其能	-10.386
西路	-10.3861
䝉恩	-10.3862
月十一日	-10.3864
終始	-10.3867
積貯	-10.3874
則民	-10.3874
開報	-10.388
書之	-10.3881
甚明	-10.3881
建昌	-10.3888
上殿	-10.3889
沾	-10.3892
土地	-10.3894
蹟	-10.3896
邵	-10.3896
菜	-10.3896
街	-10.3899
任之	-10.39
曰此	-10.39
人夫	-10.3901
揣	-10.3904
興工	-10.3905
其數	-10.3906
轉運	-10.392
以次	-10.3921
熊	-10.3922
武臣	-10.3923
城堡	-10.3929
傍	-10.393
承平	-10.3937
誠為	-10.3944
而求	-10.3946
轄	-10.3948
摘	-10.395
即便	-10.3951
密奏	-10.3955
軍國	-10.3956
發落	-10.3957
安插	-10.396
濶	-10.396
若夫	-10.3973
之深	-10.3977
據此	-10.3979
霜	-10.3979
無地	-10.3981
戀	-10.3982
學問	-10.3985
偃	-10.3989
也此	-10.3992
河朔	-10.3993
三軍	-10.3994
伏乞皇上睿鑒施行謹奏	-10.3996
公務	-10.3996
一朝	-10.3996
伏讀	-10.3997
無能	-10.3999
鬼	-10.4005
三公	-10.4006
掛	-10.4008
刁	-10.401
教之	-10.401
臣不勝	-10.4012
待罪	-10.4014
敢言	-10.4015
萬國	-10.4018
一介	-10.4019
而成	-10.4019
四人	-10.4022
明日	-10.4022
諸王	-10.4023
遂致	-10.4025
各犯	-10.4026
不受	-10.4028
補用	-10.4028
有大	-10.4029
則不	-10.4032
不可復	-10.4033
不可以不	-10.4035
甄	-10.4038
連年	-10.4048
摺内	-10.405
不治	-10.4051
緯	-10.4051
費用	-10.4052
酌定	-10.4052
朕亦	-10.4054
黎元	-10.4055
地土	-10.4055
其法	-10.4056
老弱	-10.4059
安静	-10.4059
宣示	-10.4066
揚州	-10.4069
徃來	-10.4069
爛	-10.4074
著落	-10.4074
以副	-10.4074
崖	-10.4074
協力	-10.4076
和平	-10.4082
為治	-10.4085
剿	-10.4088
迄今	-10.4091
本府	-10.4093
斌	-10.4095
勞苦	-10.4097
者十	-10.4098
執事	-10.4099
窺伺	-10.41
昔者	-10.4101
邱	-10.4101
甸	-10.4104
鹿	-10.4106
求其	-10.4108
杭州	-10.4109
務在	-10.4113
京官	-10.4114
之米	-10.4115
吏部尚書	-10.4117
自謂	-10.4121
者並	-10.4121
坤	-10.4125
近來	-10.4126
可比	-10.4127
淑	-10.4129
覃	-10.413
為本	-10.4132
一兩	-10.4134
其功	-10.4136
之極	-10.4136
舉動	-10.4137
此又	-10.4138
謹按	-10.414
江省	-10.4142
詳悉	-10.4142
勝任	-10.4142
訓諭	-10.4143
殺死	-10.4145
裝	-10.4145
在内	-10.4152
甚大	-10.4152
本職	-10.4155
伏乞皇上睿鑒謹奏	-10.4156
未足	-10.4157
題報	-10.4158
查核	-10.4158
徵收	-10.4158
順天	-10.416
春夏	-10.4161
遣官	-10.4162
而得	-10.4163
要務	-10.417
聞見	-10.4176
等因到	-10.4177
遵旨	-10.4178
范時繹	-10.4185
悼	-10.4193
期於	-10.4194
將伊	-10.4196
乎臣	-10.42
在此	-10.4201
之多	-10.4208
礦	-10.4209
稽古	-10.421
凡遇	-10.421
滿漢	-10.4211
未幾	-10.4212
盡言	-10.4213
宫室	-10.4214
唐之	-10.4214
店	-10.4216
原籍	-10.422
喧	-10.4222
蠶	-10.4224
陋規	-10.4224
奔競	-10.4225
虚實	-10.4227
祕	-10.4228
非常之	-10.4232
名色	-10.4241
此非	-10.4245
恭惟	-10.4249
君子小人	-10.4251
尚在	-10.4252
王室	-10.4257
於事	-10.426
待之	-10.4265
所出	-10.4268
自新	-10.4268
要害	-10.4273
未獲	-10.4274
非特	-10.4276
之年	-10.4276
聰	-10.4277
請將	-10.4282
遂至	-10.4283
之善	-10.4284
居心	-10.4284
茂盛	-10.4285
諸處	-10.4285
之輩	-10.4286
劄子曰臣	-10.4289
方得	-10.429
知陛下	-10.429
文書	-10.4296
少卿	-10.4296
寅	-10.4297
公忠	-10.43
定擬	-10.4301
之德	-10.4301
合先	-10.4305
炳	-10.4307
尋常	-10.4309
凍	-10.431
詳加	-10.4315
經術	-10.4316
忱	-10.4316
留神	-10.4317
十數	-10.4318
是用	-10.4322
是則	-10.4325
新法	-10.4331
之行	-10.4336
又如	-10.4338
所繫	-10.4346
進取	-10.4348
衣服	-10.435
建議	-10.435
賢才	-10.4353
之備	-10.4355
萬餘	-10.4357
共計	-10.4358
量加	-10.4358
後患	-10.4365
壁	-10.4367
庶使	-10.4367
卹	-10.4371
仍舊	-10.4374
夀皇	-10.4376
伏以	-10.4379
又將	-10.438
奉命	-10.4383
運送	-10.4384
諸郡	-10.4392
庶人	-10.4392
何為	-10.4397
枯	-10.4399
各邊	-10.4399
皇仁	-10.4399
前進	-10.44
棟	-10.4404
今欲	-10.4409
監督	-10.4414
般	-10.4416
帝曰	-10.4416
已久	-10.4417
當此	-10.442
漕糧	-10.4423
愛養	-10.4431
以言	-10.4431
製造	-10.4436
萬方	-10.4441
不願	-10.4445
不恤	-10.4445
五代	-10.4447
盡忠	-10.4448
斯民	-10.4448
遷延	-10.4453
糜	-10.4453
謂宜	-10.4454
完結	-10.4456
千把	-10.4459
臨事	-10.4459
耆	-10.4461
鉛	-10.4462
在任	-10.4462
陛	-10.4463
伏願陛下	-10.4465
京東	-10.4465
泗	-10.4466
之咎	-10.447
殿下	-10.4475
其時	-10.4476
無故	-10.448
御批	-10.448
皇帝陛下	-10.448
印信	-10.4483
至如	-10.4488
詳稱	-10.4488
䟽曰臣	-10.4492
節度使	-10.4492
謂陛下	-10.4492
馬政	-10.4493
霍	-10.4494
保其	-10.4499
妄行	-10.4501
一定	-10.4502
工料	-10.4508
江蘇	-10.4509
遼東	-10.451
禾	-10.4511
杭	-10.4513
識見	-10.4515
皆謂	-10.4517
尼	-10.452
改正	-10.4522
推諉	-10.4523
婚	-10.4525
多士	-10.4526
不和	-10.4527
遲延	-10.453
明主	-10.4531
将帥	-10.4533
為難	-10.4537
求之	-10.4539
而反	-10.454
可嘉	-10.4542
題明	-10.4542
之威	-10.4546
下詔	-10.455
註	-10.4552
現任	-10.4553
厪	-10.4555
熱	-10.4556
羙	-10.4557
瘠	-10.4557
當以	-10.4558
頽	-10.4558
營私	-10.4562
臣伏覩	-10.4562
殊恩	-10.4564
挑選	-10.4567
工食	-10.4568
無罪	-10.4571
鬼神	-10.4572
失於	-10.4572
口糧	-10.4573
又云	-10.4575
功臣	-10.4575
諭令	-10.4578
臣以謂	-10.458
樞宻院	-10.4582
豈敢	-10.4585
章奏	-10.459
外省	-10.4592
可取	-10.4603
侵犯	-10.4613
潁	-10.4614
調發	-10.4614
呂	-10.4615
職掌	-10.4616
提臣	-10.4618
於心	-10.462
蹙	-10.462
今月	-10.4622
自取	-10.4624
原有	-10.4625
王道	-10.4627
泄	-10.4628
開封	-10.4632
察之	-10.4632
神考	-10.4634
官弁	-10.4636
仰祈	-10.4637
也況	-10.4639
甚者	-10.4641
成敗	-10.4643
下至	-10.4648
五萬	-10.4653
孝宗	-10.4653
營汛	-10.4654
聖裁	-10.4654
乎夫	-10.4659
之樂	-10.4659
用其	-10.4661
不虞	-10.4665
相沿	-10.4665
而已矣	-10.4665
者陛下	-10.4668
臣又聞	-10.467
大率	-10.4671
非常	-10.4672
原額	-10.4673
年二月	-10.4674
之田	-10.4674
徼	-10.4675
二字	-10.4676
龜	-10.4676
保定	-10.4678
兩次	-10.4678
鐸	-10.4679
優劣	-10.468
蒼	-10.4681
雖不	-10.4682
平定	-10.4683
行下	-10.4683
守僃	-10.4684
兩京	-10.4684
仍前	-10.4685
至重	-10.4695
詔曰	-10.4696
聖王	-10.4699
命令	-10.4699
有才	-10.4703
交結	-10.4706
秘	-10.4709
塔	-10.4709
謹奏為恭報	-10.4714
分不等	-10.4715
望陛下	-10.4715
死亡	-10.4717
太平之	-10.4718
先事	-10.4724
所據	-10.4736
有三	-10.4737
副總兵	-10.4738
益加	-10.4738
千百	-10.4739
退而	-10.474
屢次	-10.4741
囊	-10.4742
萬八千	-10.4743
韶	-10.4744
駒	-10.4744
嫉	-10.4745
雖無	-10.4745
祻	-10.4746
不至於	-10.4747
漢人	-10.4748
陕西	-10.4755
聞其	-10.4756
男婦	-10.4756
逋	-10.4768
泊	-10.4769
□	-10.4769
璽	-10.477
雞	-10.477
多矣	-10.4772
有竒	-10.4774
未曽	-10.4774
起居	-10.4774
穿	-10.4776
更加	-10.4777
大員	-10.4778
則當	-10.4779
者甚多	-10.4779
忠厚	-10.4784
所由	-10.4784
夜不收	-10.4786
二十餘	-10.4787
傳聞	-10.4791
豁	-10.4791
慶厯	-10.4794
有天下	-10.4794
眞	-10.4794
本道	-10.4796
郊祀	-10.4796
黑	-10.4797
使民	-10.4799
萬餘兩	-10.4799
誠心	-10.48
豈容	-10.4801
聖政	-10.4801
部文	-10.4803
寔	-10.4805
遣人	-10.4806
吞	-10.4807
蒼生	-10.4815
十二年	-10.4816
是否	-10.4816
不取	-10.4816
乙	-10.4816
為此繕摺	-10.4818
具報	-10.4819
士子	-10.4821
頗有	-10.4823
度支	-10.4828
諄切	-10.4832
弔	-10.4832
長沙	-10.4834
則無	-10.4834
慚	-10.4834
骨肉	-10.4835
慝	-10.4836
康熙五十	-10.4836
道員	-10.4837
八錢	-10.484
肅州	-10.484
無為	-10.4843
之聲	-10.4846
而易	-10.4847
之賢	-10.4853
竊謂	-10.4854
紹聖	-10.4854
草率	-10.4854
聚衆	-10.4854
寛大	-10.4855
意見	-10.4856
分布	-10.4858
身為	-10.4865
要地	-10.4865
舊章	-10.4872
薨	-10.4873
通融	-10.4876
沖	-10.4881
情理	-10.4882
而止	-10.4884
安南	-10.4885
百司	-10.4886
若果	-10.4886
以重	-10.4887
政務	-10.4887
盔甲	-10.4892
朝政	-10.4893
知諫院	-10.4896
理應	-10.4898
王之	-10.4899
梗	-10.4903
回奏	-10.4908
親詣	-10.4909
之源	-10.4914
以是	-10.4914
名下	-10.4916
何可	-10.4916
不曽	-10.4916
也朕	-10.4918
無用	-10.4924
然臣	-10.4925
民田	-10.4926
喀爾喀	-10.4926
萬事	-10.4926
前赴	-10.4929
報到	-10.4929
繹	-10.4929
仲淹	-10.493
也盖	-10.4931
不啻	-10.4936
奉公	-10.494
正當	-10.4941
也如	-10.4942
善政	-10.4944
議叙	-10.4946
生於	-10.4947
兩制	-10.4955
恐非	-10.4956
才能	-10.4956
犬	-10.4957
王府	-10.496
人以	-10.496
昂	-10.496
剋	-10.4961
有定	-10.4963
修省	-10.4964
可憂	-10.4966
不甚	-10.497
即日	-10.497
請託	-10.4972
有道	-10.4972
敵國	-10.4976
大河	-10.4979
詳明	-10.4984
之由	-10.4988
未到	-10.499
債	-10.4991
詩賦	-10.4991
迎合	-10.4992
覺察	-10.4993
赫	-10.4993
禁中	-10.4994
號為	-10.4998
之福也	-10.4999
遴選	-10.5002
味	-10.5003
其私	-10.5005
宰執	-10.5006
恭儉	-10.5008
是皆	-10.5013
掲	-10.5013
二十二	-10.5017
貝勒	-10.5018
言官	-10.5021
自昔	-10.5021
幸而	-10.5024
十人	-10.5024
䕃	-10.5025
總理	-10.5027
鼔	-10.5028
不論	-10.503
委用	-10.503
私意	-10.5031
聘	-10.5032
漢軍	-10.5032
訪察	-10.5037
土木	-10.5039
硃批諭㫖	-10.5039
經義	-10.5041
營房	-10.5041
有何	-10.5043
孰不	-10.5043
無名	-10.5044
請旨	-10.5047
以時	-10.5049
矣一	-10.5055
法制	-10.5056
鞫	-10.5056
自首	-10.5057
南昌	-10.5059
休戚	-10.506
賓	-10.506
禁軍	-10.5061
清理	-10.5062
涸	-10.5063
難行	-10.5063
凢	-10.5063
責令	-10.5064
肆行	-10.5065
乂	-10.5066
列聖	-10.5066
往年	-10.507
虚名	-10.5074
時時	-10.5074
發兵	-10.5074
拱	-10.508
實封	-10.508
執政大臣	-10.5084
便宜	-10.5084
三十年	-10.5085
跪讀	-10.5086
昆	-10.5087
葛	-10.5087
檢校	-10.509
天理	-10.509
累年	-10.509
匪類	-10.5091
海口	-10.5092
篆	-10.5092
騷擾	-10.5093
節儉	-10.5095
科舉	-10.51
大患	-10.5104
視為	-10.5111
以養	-10.5112
無補	-10.5113
亦得	-10.5118
奏謝	-10.5118
悅	-10.5121
如天	-10.5121
無所不	-10.5126
能否	-10.5126
以明	-10.5127
之選	-10.5129
不意	-10.513
情罪	-10.5132
名實	-10.5135
則人	-10.5137
千萬	-10.5137
需用	-10.5138
似應	-10.5139
知道了	-10.514
皇子	-10.5144
膠	-10.5147
確實	-10.5148
臬司	-10.5149
禁約	-10.5151
正直	-10.5152
為法	-10.5152
籠	-10.5152
礙	-10.5154
明楊士竒等撰	-10.516
即當	-10.5163
太僕寺	-10.5165
愚民	-10.5168
委之	-10.5178
部落	-10.5179
謝恩	-10.518
利而	-10.5182
離任	-10.5183
四分	-10.5183
詎	-10.5184
推官	-10.5191
者亦有	-10.5191
熾	-10.5192
縦	-10.5192
以報	-10.5198
罷黜	-10.5199
急於	-10.5201
不次	-10.5203
亦應	-10.5208
故道	-10.5208
之常	-10.521
四路	-10.5212
所管	-10.5212
蒲	-10.5213
自必	-10.5215
嗜	-10.5222
而不得	-10.5225
各府州縣	-10.5226
相去	-10.5234
九重	-10.5235
有成	-10.5239
又無	-10.5242
無疑	-10.5244
國子監	-10.5253
固當	-10.5253
殄	-10.5256
濵	-10.5257
去之	-10.5257
埋	-10.5259
倉榖	-10.5261
而不言	-10.5261
禀報	-10.5263
中軍	-10.5266
七千	-10.5276
兩浙	-10.5277
殊屬	-10.5278
世祖	-10.5278
安可	-10.5279
多而	-10.528
五日	-10.5283
樂業	-10.5283
兩宫	-10.5285
軒	-10.5287
於朝廷	-10.5288
終不	-10.5288
死罪	-10.529
並令	-10.5291
甲兵	-10.5291
自安	-10.5293
詳請	-10.5293
十四年	-10.5297
五錢	-10.53
不能盡	-10.53
近習	-10.5301
事故	-10.5303
造册	-10.5304
每月	-10.5304
以杜	-10.5305
無疆	-10.5312
必當	-10.5314
青苗	-10.5319
千餘	-10.5319
腹裏	-10.532
養之	-10.5321
據報	-10.5321
𦵏	-10.5321
天性	-10.5322
貴賤	-10.5323
冩	-10.5326
慘	-10.5327
璧	-10.5327
望其	-10.5334
縣官	-10.5337
則天下幸甚	-10.5342
兼管	-10.5344
仰報	-10.5346
雍正十一年	-10.5348
此一	-10.5348
各省督撫	-10.5348
彞	-10.535
者有之	-10.5354
者固	-10.5356
渥	-10.5358
倦	-10.5359
一件	-10.5359
不實	-10.5362
用此	-10.5365
運司	-10.5365
積欠	-10.5366
萬邦	-10.5369
萬世之	-10.537
盡善	-10.5373
先是	-10.5377
又經	-10.5377
挨	-10.5379
凡百	-10.5383
魁	-10.5384
鸞	-10.5385
尚多	-10.5385
我兵	-10.5389
晋	-10.5389
瑕	-10.5389
審明	-10.539
弩	-10.539
豪傑	-10.5392
如前	-10.5394
視之	-10.5396
髙麗	-10.5398
禘	-10.5399
千載	-10.5399
數十年	-10.5403
特諭	-10.5406
為急	-10.5406
議擬	-10.5408
害民	-10.5412
為盜	-10.5415
者俱	-10.5416
帯	-10.5418
送部	-10.5422
陰	-10.5425
此臣所以	-10.5426
之不可	-10.5426
商量	-10.5428
猶恐	-10.543
議得	-10.5431
他省	-10.5432
之象	-10.5433
裁革	-10.5434
之累	-10.5437
一百五十	-10.5437
寒心	-10.5438
之需	-10.544
國計	-10.5442
公言	-10.5445
境内	-10.5447
侍御史	-10.5449
不多	-10.545
罪人	-10.5451
困苦	-10.5452
康熈	-10.5453
史官	-10.5456
惓惓	-10.5457
盡其	-10.5458
荷䝉	-10.5459
弓馬	-10.5461
侍中	-10.5463
手足	-10.5465
今則	-10.5465
諳	-10.5465
自可	-10.5466
方能	-10.5466
二十七	-10.5469
闕失	-10.5471
之俗	-10.5471
囑	-10.5476
不聽	-10.5477
襄陽	-10.5478
而為之	-10.5478
該本部	-10.5478
曽經	-10.5483
上流	-10.5483
叚	-10.5485
道府	-10.5487
胄	-10.549
條例	-10.5491
尚書省	-10.5491
撫綏	-10.5496
縷	-10.5496
推恩	-10.5498
禽	-10.5499
坐視	-10.55
存亡	-10.55
輔弼	-10.55
降諭㫖	-10.5501
裁減	-10.5501
大約	-10.5502
赴任	-10.5502
為非	-10.5503
行營	-10.5507
二十八	-10.5507
勉强	-10.5512
之令	-10.5517
别有	-10.5521
臣竊聞	-10.5524
其次	-10.5527
穢	-10.5527
府縣	-10.5528
嶽	-10.5528
兵革	-10.5529
許其	-10.553
修造	-10.5531
西南	-10.5534
殺之	-10.5536
天聽	-10.5537
御史臺	-10.5538
每遇	-10.5539
朕自	-10.5542
日食	-10.5544
惟在	-10.5548
年久	-10.5548
定制	-10.5557
促	-10.5558
億兆	-10.5559
嬰	-10.5559
祫	-10.556
八千	-10.5562
被其	-10.5568
重兵	-10.5573
而況	-10.5574
宣王	-10.5577
大理	-10.5578
才識	-10.5579
上下相	-10.5581
入官	-10.5581
作速	-10.5584
異時	-10.5587
所及	-10.5593
不難	-10.5595
兵部尚書	-10.5596
設官	-10.5597
不須	-10.5597
之請	-10.56
各縣	-10.56
以救	-10.5603
聲勢	-10.5604
乎且	-10.5609
不改	-10.5612
業已	-10.5612
總管	-10.5613
大典	-10.5616
理合繕摺	-10.5617
将來	-10.5622
仰祈睿鑒事竊	-10.5623
卸	-10.5624
更改	-10.5627
詳酌	-10.5628
𠡠	-10.5629
罷之	-10.5629
相符	-10.5632
諂	-10.5632
恐其	-10.5639
思所以	-10.5645
將弁	-10.5649
長安	-10.565
特降	-10.565
誠以	-10.5657
羸	-10.5659
罄	-10.5659
有人	-10.5663
上䟽	-10.5669
滇省	-10.567
烏䝉	-10.567
出師	-10.567
不惜	-10.5685
梅	-10.5686
乃是	-10.5688
勉力	-10.5689
甚屬可嘉	-10.569
駮	-10.5691
批示	-10.5692
南方	-10.5693
精兵	-10.5693
障	-10.5694
脉	-10.5697
庸愚	-10.57
尤宜	-10.5702
並非	-10.5702
通州	-10.5704
織造	-10.5705
不平	-10.5707
可勝	-10.5708
慶歴	-10.5708
或曰	-10.571
獲罪	-10.5713
之寄	-10.5717
人多	-10.5723
煥	-10.5728
開導	-10.5729
濁	-10.573
臧	-10.5731
綜	-10.5732
腐	-10.5734
枕	-10.5734
愛君	-10.5737
也然而	-10.5738
此所謂	-10.5753
所需	-10.5754
演	-10.5755
百人	-10.5758
蔵	-10.5761
尅	-10.5764
齊蘇勒	-10.5765
傲	-10.5766
鹽政	-10.5768
將来	-10.5768
者少	-10.577
二處	-10.5775
功名	-10.5775
一夫	-10.5778
積習	-10.5779
黍	-10.578
為朝廷	-10.5781
其位	-10.5786
行禮	-10.5786
朕聞	-10.5789
耗羨	-10.5794
禪	-10.5795
擄	-10.5795
一毫	-10.5796
萬機	-10.5797
第三	-10.5799
覇	-10.5799
明矣	-10.5799
隱匿	-10.58
雜處	-10.58
挽	-10.5801
汰	-10.5801
國勢	-10.5804
富弼	-10.5805
詳定	-10.5805
豈宜	-10.5809
理財	-10.581
否則	-10.581
等第	-10.5814
若使	-10.5818
所收	-10.5818
可使	-10.5823
經歴	-10.5825
欲望	-10.5828
以全	-10.5828
天時	-10.583
兵士	-10.5832
特恩	-10.5833
一有	-10.5833
信任	-10.5834
兵力	-10.5834
進𠞰	-10.5835
俱著	-10.5835
畀	-10.5837
餘丁	-10.5838
圭	-10.5839
貽誤	-10.584
空虚	-10.585
鹽課	-10.585
鞏	-10.585
蝗	-10.5854
不能無	-10.5855
權宜	-10.5855
變通	-10.5855
兵餉	-10.5857
之財	-10.5858
者豈	-10.5858
到京	-10.5858
可望	-10.5859
猾	-10.5861
無厭	-10.5861
改過	-10.5862
敘	-10.5863
棄之	-10.5863
計其	-10.5865
公道	-10.5865
義勇	-10.5866
之急	-10.5866
宗愈	-10.5867
墳	-10.5867
又恐	-10.587
鞭	-10.587
應天	-10.5871
賞賚	-10.5874
其説	-10.5874
察訪	-10.5875
不禁	-10.5876
秋冬	-10.5878
題叅	-10.588
供給	-10.5884
鳥鎗	-10.5885
不遵	-10.5887
竇	-10.5887
於今日	-10.589
為始	-10.5895
萬姓	-10.5895
悚	-10.5898
中書門下	-10.5901
賫	-10.5903
永樂	-10.5903
其故	-10.5905
與民	-10.5905
僣	-10.5906
歡呼	-10.5906
上䟽曰	-10.5908
影	-10.5908
两	-10.5909
鄉村	-10.5909
二聖	-10.5912
回籍	-10.5912
公正	-10.5912
火耗	-10.5912
全完	-10.5915
永逺	-10.5916
十餘萬	-10.5919
資格	-10.5921
奉到	-10.5921
州縣官	-10.5925
再有	-10.5928
透	-10.5929
之積	-10.5933
名為	-10.5938
不修	-10.5941
徇私	-10.5941
不給	-10.5942
汾	-10.5944
郡國	-10.5948
卑職	-10.5949
三錢	-10.5953
率領	-10.5955
至矣	-10.5958
審理	-10.5959
得志	-10.5962
勸懲	-10.5964
疇	-10.5964
田土	-10.5968
人有	-10.597
早稻	-10.5973
督撫提鎮	-10.5976
諧	-10.5982
供應	-10.5988
歸公	-10.5989
之見	-10.5997
士庶	-10.5999
流民	-10.6
三等	-10.6004
太守	-10.6004
得一	-10.6006
陳世倌	-10.6009
管事	-10.601
自非	-10.6012
以助	-10.6015
奈	-10.6015
之習	-10.6016
徳音	-10.6017
其在	-10.6017
者當	-10.6021
之異	-10.6023
大吏	-10.6024
夷人	-10.6025
古州	-10.6028
率皆	-10.6029
賚	-10.6033
名曰	-10.6035
再四	-10.6037
問罪	-10.6038
社稷之	-10.604
不准	-10.6041
繁多	-10.6041
小大	-10.6042
疾病	-10.6042
父兄	-10.6043
不正	-10.6045
有意	-10.6046
平常	-10.6046
扼	-10.6047
闇	-10.6047
宣化	-10.6048
此輩	-10.6054
漁	-10.6057
執中	-10.606
衙	-10.6062
亦嘗	-10.6063
五品	-10.6068
從公	-10.6068
之意也	-10.6068
是日	-10.6071
報部	-10.6072
初一日	-10.6074
焦	-10.6077
沿河	-10.6079
上仁宗論	-10.6082
卧	-10.6084
殿中侍御史	-10.6085
起解	-10.6085
收成分數	-10.609
無多	-10.6092
四曰	-10.6096
忠信	-10.6097
十三年	-10.61
凡所	-10.6101
數千里	-10.6102
上供	-10.6102
之儀	-10.6102
可憫	-10.6103
於地方	-10.6103
每日	-10.6105
六萬	-10.6107
具呈	-10.6108
瑛	-10.6112
版	-10.6113
昧死	-10.6114
狥	-10.6114
虚文	-10.6119
久矣	-10.6119
子曰	-10.612
騎射	-10.612
冨	-10.6126
不職	-10.6137
千古	-10.6139
郝玉麟	-10.6149
沃	-10.6157
巢穴	-10.6157
需索	-10.616
黎庶	-10.6165
人物	-10.6166
去冬	-10.6171
題准	-10.6174
六分	-10.6174
爾其	-10.6175
一同	-10.6176
太和	-10.6177
總之	-10.6181
毛文銓	-10.6185
即時	-10.6188
擔	-10.6188
忠賢	-10.6189
閭	-10.619
若能	-10.6192
陽縣	-10.6194
更為	-10.6194
與人	-10.6194
是何	-10.6195
是謂	-10.6196
往返	-10.6197
有能	-10.6198
而猶	-10.6198
一省	-10.6199
悛改	-10.6199
學政	-10.6201
皆當	-10.6203
制置	-10.6203
太常寺	-10.6204
其於	-10.6205
躬親	-10.621
負朕	-10.621
亦已	-10.6212
臣竊觀	-10.6214
之基	-10.6216
實心任事	-10.6223
上諭内閣	-10.6225
三品	-10.6226
尹繼善	-10.6226
三代之	-10.6227
大理寺	-10.6229
奉有	-10.623
萊	-10.623
之甚	-10.623
而來	-10.6231
閔	-10.6231
年老	-10.6232
戰船	-10.6232
職司	-10.6234
何不	-10.6234
可畏	-10.6235
剰	-10.6235
可知矣	-10.6236
臣之所	-10.6236
優容	-10.6239
職在	-10.6241
二也	-10.6244
續據	-10.6246
百户	-10.6251
堂官	-10.6256
隄防	-10.6258
淮揚	-10.626
點	-10.6262
裘	-10.6262
職名	-10.6263
台吉	-10.6267
頗多	-10.6268
以實	-10.6271
車駕	-10.6272
不由	-10.6273
之大者	-10.6279
太祖皇帝	-10.6281
掌印	-10.6282
去其	-10.6286
民困	-10.6289
則可以	-10.629
洵	-10.6293
東北	-10.63
邊防	-10.6302
餓	-10.6305
得所	-10.6306
豁免	-10.6309
亦須	-10.6309
寮	-10.631
蠻夷	-10.631
無論	-10.6312
原無	-10.6314
聽候	-10.6315
周之	-10.6316
無從	-10.6319
而使	-10.6322
利病	-10.6324
大舉	-10.6325
不稱	-10.6328
竈	-10.6329
固非	-10.6329
額設	-10.633
戶	-10.633
憲宗	-10.6331
日乆	-10.6334
艾	-10.6336
滛	-10.6338
躋	-10.6339
從寛	-10.6339
兩岸	-10.634
清楚	-10.6342
百餘里	-10.6344
報效	-10.6345
奥	-10.6346
道也	-10.6346
之未	-10.6347
日用	-10.6349
於國	-10.635
蘇松	-10.635
該督	-10.6352
翻	-10.6356
二省	-10.6357
二十萬	-10.636
重輕	-10.6363
待制	-10.6363
恤民	-10.6365
合於	-10.637
二十一	-10.6372
攜	-10.6372
其民	-10.6372
蔡珽	-10.6373
瑣	-10.6373
緘黙	-10.6373
圓	-10.6373
使得	-10.6377
而朝廷	-10.638
糓	-10.6381
衣冠	-10.6381
不覺	-10.6381
鎮撫	-10.6382
出口	-10.6382
恭惟陛下	-10.6383
廵檢	-10.6385
訛	-10.6385
治體	-10.6385
合行	-10.6385
此意	-10.6386
思慮	-10.6386
士之	-10.6387
靖康	-10.6388
天下之士	-10.6396
聖學	-10.6397
逺人	-10.6401
以盡	-10.6402
試之	-10.6402
吾之	-10.6406
佩	-10.6411
構	-10.6412
親見	-10.6413
不舉	-10.6413
南陽	-10.6414
時為	-10.6415
詠	-10.6417
荆州	-10.642
靈州	-10.6422
等州	-10.6426
完納	-10.6427
查有	-10.6427
可得而	-10.6427
元氣	-10.643
漳	-10.6432
年來	-10.6434
三也	-10.6435
檄行	-10.6438
一字	-10.644
痊	-10.6441
今雖	-10.6442
餽	-10.6447
衮	-10.6448
教官	-10.645
旺	-10.6453
至是	-10.6464
元帝	-10.6467
不報	-10.6468
引河	-10.6468
爾部	-10.6468
好生	-10.647
恩賞	-10.6478
有如	-10.6484
衆心	-10.6486
依擬	-10.6489
北岸	-10.649
言也	-10.6497
興修	-10.6497
私鹽	-10.6499
輸納	-10.6501
京西	-10.651
憂國	-10.6512
事者	-10.6512
今聞	-10.6513
而進	-10.6514
煎	-10.6516
雙	-10.6517
少而	-10.6518
蹤	-10.6519
以昭	-10.652
本寺	-10.6523
小事	-10.6524
而歸	-10.6524
之漸	-10.6524
調用	-10.6529
前古	-10.653
十六年	-10.6531
之列	-10.6532
本無	-10.6532
以事	-10.6537
論之	-10.654
聦	-10.6542
以定	-10.6543
營遊擊	-10.6544
三十六	-10.6545
刋	-10.6551
裨	-10.6551
神武	-10.6554
歴任	-10.6556
穴	-10.6559
賊衆	-10.6559
如此而	-10.6561
罷去	-10.6563
翰林院	-10.6565
論議	-10.6567
幾何	-10.657
士氣	-10.657
存心	-10.6574
一千五百	-10.6576
人無	-10.658
首領	-10.6584
成就	-10.6586
見聞	-10.6587
洪武	-10.6588
止是	-10.6589
一府	-10.659
蘆	-10.6591
掖	-10.6593
曾經	-10.6594
交通	-10.6594
歷	-10.6595
舅	-10.6597
各路	-10.6598
米糧	-10.6599
醇	-10.6599
吹	-10.66
之長	-10.6603
殖	-10.6604
提調	-10.6605
心力	-10.6606
天語	-10.661
米穀	-10.661
之化	-10.6612
錢物	-10.6613
為君	-10.6613
吏民	-10.6617
廣南	-10.6618
即乞	-10.6619
賊首	-10.6619
之所致也	-10.6623
未曾	-10.6626
乏食	-10.6627
肩	-10.6634
至愚	-10.6635
握	-10.6636
恪遵	-10.6638
于此	-10.6639
渙	-10.6639
冲	-10.6639
狐	-10.664
日以	-10.6642
鐘	-10.6642
弃	-10.6643
敢有	-10.6643
陸路	-10.6646
安得不	-10.6646
太宗皇帝	-10.6648
也然則	-10.6649
言語	-10.6649
教授	-10.665
百王	-10.665
標下	-10.6652
求言	-10.6653
也但	-10.6654
請以	-10.6659
而上	-10.6663
一則	-10.6668
十一年	-10.6668
抒	-10.6668
陳時夏	-10.6669
王國棟	-10.6669
又非	-10.667
范仲淹	-10.667
社倉	-10.667
言責	-10.6672
内侍	-10.6673
甚矣	-10.6673
現有	-10.6674
之詞	-10.6676
鬭	-10.6677
虗	-10.6677
吝	-10.6678
壅蔽	-10.668
無足	-10.6686
不均	-10.6686
困於	-10.6692
亦不過	-10.6696
急公	-10.6703
亢	-10.6704
下流	-10.6705
布衣	-10.6706
奇	-10.6709
臣近	-10.6709
見之	-10.671
必使	-10.6712
從其	-10.6713
饑饉	-10.6714
人君之	-10.6716
三尺	-10.6718
既而	-10.672
茍有	-10.6723
州府知府	-10.6723
復何	-10.6724
二百餘	-10.6724
俟其	-10.6724
見任	-10.6727
躬行	-10.6729
迄	-10.6731
積年	-10.6732
於中	-10.6732
即為	-10.6735
矣且	-10.6735
不得已而	-10.6735
首尾	-10.6738
固不可	-10.674
二十三	-10.674
既多	-10.6741
巖	-10.6742
則陛下	-10.6747
過失	-10.6747
解送	-10.675
不成	-10.6751
中人	-10.6752
柳	-10.6755
可疑	-10.676
卦	-10.6761
仁宗皇帝	-10.6761
方為	-10.6763
得宜	-10.6764
皆在	-10.6766
治國	-10.6767
㕘奏	-10.6767
盡數	-10.6767
成都	-10.677
糧船	-10.6771
惶	-10.6772
困窮	-10.6776
奏議	-10.6777
執法	-10.6781
亦未可定	-10.6785
聨	-10.6786
蔑	-10.6789
到部	-10.679
前件	-10.679
躁	-10.6791
鬱	-10.6795
養贍	-10.6798
大臣等	-10.6798
事不	-10.6798
之險	-10.6799
萬四千	-10.6801
山林	-10.6806
以應	-10.6806
然猶	-10.6808
約計	-10.6809
他處	-10.6815
感召	-10.6815
僧道	-10.6818
撲	-10.6818
也是以	-10.6825
勵精	-10.6826
二事	-10.6826
十萬石	-10.683
環慶	-10.6831
日後	-10.6832
紓	-10.6834
而終	-10.6837
勉勵	-10.6838
南岸	-10.6842
二十六	-10.6843
大將	-10.6847
年八月	-10.6851
俾得	-10.6851
四海之	-10.6853
跟	-10.6853
地名	-10.6856
士人	-10.6856
罪惡	-10.6859
相承	-10.686
粤西	-10.686
單于	-10.6861
詳察	-10.6862
告成	-10.6864
顛	-10.6865
衆多	-10.6867
仰惟	-10.6873
成命	-10.6873
堵	-10.6874
巡檢	-10.6875
大名	-10.688
雲貴	-10.6886
功徳	-10.6894
論事	-10.6897
已來	-10.6898
十日	-10.6903
伏祈睿鑒謹奏	-10.6905
既經	-10.6906
者無	-10.6907
巡按御史	-10.6908
操演	-10.6909
石麟	-10.6909
夏人	-10.6911
敗露	-10.6913
而退	-10.6914
題為	-10.6914
屢經	-10.6918
總制	-10.6922
撫恤	-10.6923
祖父	-10.6924
所論	-10.6925
一錢	-10.6926
至有	-10.6929
於内	-10.693
何益	-10.6934
務須	-10.6937
不患	-10.6938
伴	-10.6938
陟	-10.694
駝	-10.694
有零	-10.694
婦人	-10.6942
同列	-10.6944
五人	-10.6948
奸邪	-10.6948
頋	-10.695
竭誠	-10.695
再為	-10.6951
錢榖	-10.6956
出納	-10.6962
千人	-10.6962
蔡京	-10.6962
乃以	-10.6966
之規	-10.6973
布按二司	-10.6975
至今未	-10.6976
正項	-10.6977
繕摺奏聞	-10.6978
葺	-10.6978
該部知道	-10.6979
訐	-10.698
叁	-10.6981
方許	-10.6982
獨斷	-10.6983
商民	-10.6984
直抵	-10.6985
晝	-10.6987
而起	-10.6987
甚於	-10.6989
經畧	-10.6989
之助	-10.6997
一等	-10.7
督責	-10.7
之書	-10.7
偶有	-10.7005
永平	-10.7007
代為	-10.7012
司空	-10.7014
畀以	-10.7014
聲色	-10.7018
一舉	-10.7019
石文焯	-10.7021
閤	-10.7022
憾	-10.7023
慙	-10.7023
惟以	-10.7025
歴代名臣奏議卷	-10.7027
嵇曾筠	-10.7028
不勝其	-10.703
之先	-10.703
應得	-10.703
此豈	-10.7033
侵欺	-10.7034
六錢	-10.7035
十萬兩	-10.7038
所存	-10.7041
近世	-10.7045
七錢	-10.7046
譬如	-10.7048
鎮江	-10.7049
昭然	-10.7051
一出	-10.7052
流移	-10.7056
盛京	-10.7057
尤當	-10.7059
何處	-10.7061
話	-10.7061
像	-10.7061
代之	-10.7062
即與	-10.7062
事機	-10.7062
時日	-10.7062
韜	-10.7065
皆知	-10.7066
承襲	-10.7069
盤費	-10.707
十一日	-10.7071
諸生	-10.7072
回京	-10.7076
風化	-10.7079
金銀	-10.708
億	-10.7082
官制	-10.7083
大中	-10.7085
片	-10.7086
皇天	-10.7088
成法	-10.7088
要在	-10.7092
異同	-10.7093
於天	-10.7094
愚以為	-10.7099
稠	-10.7102
悉皆	-10.7102
䜛	-10.7104
翟	-10.7104
叟	-10.7106
時雨	-10.7107
海疆	-10.7107
災變	-10.7109
太尉	-10.711
胥吏	-10.7113
奏准	-10.7118
大半	-10.712
石零	-10.7125
分給	-10.7129
成災	-10.713
乎今	-10.7134
早為	-10.7135
明知	-10.7135
朕實	-10.7136
賄賂	-10.7137
奕	-10.7141
忻	-10.7141
知有	-10.7142
秋收	-10.7143
降詔	-10.7144
劒	-10.7145
報國	-10.7146
兩河	-10.7146
秦漢	-10.7148
怠忽	-10.7149
意欲	-10.715
不爲	-10.7151
差除	-10.7151
不允	-10.7152
官爵	-10.7161
之誅	-10.7161
莽	-10.7163
施於	-10.7163
不廢	-10.7164
十七年	-10.7165
也况	-10.7172
也非	-10.7172
出征	-10.7172
舊有	-10.7175
天戒	-10.7179
沴	-10.718
八萬	-10.718
様	-10.718
盛德	-10.7182
極言	-10.7182
合用	-10.7185
滌	-10.7188
訓示	-10.719
公家	-10.7192
姦人	-10.7193
況今	-10.7201
鹽法	-10.7201
轉輸	-10.7202
選差	-10.7205
亦甚	-10.7205
感恩	-10.7206
邊鄙	-10.7207
鉞	-10.7211
武昌	-10.7213
風憲	-10.7215
不動	-10.7216
栽	-10.7218
庶可	-10.7218
物議	-10.7219
詩書	-10.7222
㤙	-10.7222
捏	-10.7223
故其	-10.7223
特命	-10.7226
之夫	-10.7226
又奏	-10.7231
深恩	-10.7233
兩司	-10.7233
平生	-10.7235
初無	-10.7236
失職	-10.7236
兹據	-10.7236
正統	-10.7236
者謂	-10.7237
脚價	-10.7237
實用	-10.7238
一丈	-10.7238
可保	-10.724
必待	-10.724
無益於	-10.724
公爲	-10.7242
圖之	-10.7243
宣帝	-10.7245
伏乞皇上睿鑒	-10.7245
國帑	-10.7246
感動	-10.7246
其始	-10.7246
天下之心	-10.7247
經久	-10.7249
道徳	-10.725
既久	-10.7252
土民	-10.7253
其上	-10.7254
偷安	-10.7254
欲望聖慈	-10.7254
恭請	-10.7254
裨益	-10.7255
亞	-10.7256
目擊	-10.7256
唐虞	-10.7258
岳濬	-10.7259
悉行	-10.726
奎	-10.7261
煙	-10.7263
岡	-10.7265
摩	-10.7267
必不能	-10.7267
西戎	-10.7268
而知	-10.7268
久任	-10.7269
清明	-10.727
變而	-10.7274
議曰	-10.7275
所生	-10.7277
殊不知	-10.7278
不察	-10.7286
保固	-10.7287
仰見我皇上	-10.7294
有闕	-10.7295
則可	-10.7299
久而	-10.7299
一石	-10.73
夤縁	-10.73
無常	-10.7301
便於	-10.7302
事關	-10.7304
元和	-10.7306
臯陶	-10.7308
天寳	-10.7308
公項	-10.731
才力	-10.7317
獄訟	-10.732
二千石	-10.7321
謂其	-10.7324
備用	-10.7325
其下	-10.7325
城内	-10.7327
湖廣總督	-10.7328
聞知	-10.733
諳練	-10.7332
各寨	-10.7333
聖懐	-10.7334
准行	-10.7335
所難	-10.7336
敵騎	-10.7338
創業	-10.7338
一本	-10.7339
紏	-10.7341
豐年	-10.7342
猺	-10.7343
誤事	-10.7344
足矣	-10.7345
瑞雪	-10.7345
蠢	-10.7346
臆	-10.7346
晉省	-10.7349
失業	-10.735
康熙四十	-10.7351
至大	-10.7351
雖經	-10.7352
視朝	-10.7352
養馬	-10.7353
官職	-10.7353
入境	-10.7356
也凡	-10.7357
革去	-10.7359
晴	-10.7359
承天	-10.7361
匹夫	-10.7364
不輕	-10.7366
常有	-10.7374
之材	-10.7375
牘	-10.7379
上意	-10.7381
土人	-10.7382
絞	-10.7382
以補	-10.7384
咨部	-10.7385
各案	-10.7386
誅戮	-10.7392
盖以	-10.7392
凉	-10.7393
抵任	-10.7397
可以為	-10.7397
以固	-10.7397
賢員	-10.7399
究其	-10.74
不即	-10.7401
感激涕零	-10.7401
猓	-10.7403
諸務	-10.7403
爽	-10.7405
人亦	-10.7406
饑民	-10.7415
報効	-10.7415
之務	-10.7417
廕	-10.7418
此番	-10.7419
晨	-10.7424
所部	-10.7425
懽	-10.7426
譯	-10.7427
斧	-10.7427
繋	-10.7427
估計	-10.7431
告竣	-10.7434
徑自	-10.7435
播種	-10.7436
捍禦	-10.7437
可觀	-10.744
東川	-10.7443
奏狀	-10.7444
以清	-10.7447
將何	-10.7447
我之	-10.7452
多係	-10.7452
仰荷	-10.7452
該地方官	-10.7454
化導	-10.7454
一念	-10.7455
右正言	-10.7458
二日	-10.7459
内除	-10.7459
淨	-10.7464
斷不敢	-10.7466
舌	-10.7467
姦宄	-10.7467
鬬	-10.7467
臣欲乞	-10.7467
等曰	-10.7468
架	-10.7468
表裏	-10.747
懇請	-10.7471
取人	-10.7471
誠敬	-10.7472
深慮	-10.7472
之所謂	-10.7474
甚難	-10.7474
紛紜	-10.7476
陵寢	-10.7477
照常	-10.7477
焦勞	-10.7479
年三月	-10.7479
懲治	-10.748
牽制	-10.7491
爵賞	-10.7493
恩賜	-10.7495
不務	-10.7497
聲息	-10.7498
不妨	-10.7503
漠	-10.7505
甚重	-10.7505
穗	-10.7506
未為	-10.7507
從重治罪	-10.7507
人所	-10.7507
兌	-10.7507
大槩	-10.751
伏祈皇上睿鑒謹奏	-10.7515
邊臣	-10.7516
民有	-10.7517
差委	-10.7517
不作	-10.7518
無敢	-10.7518
署督	-10.7523
教習	-10.7524
流亡	-10.7524
臺諌	-10.7524
宣撫	-10.7525
德音	-10.7526
皆非	-10.7526
征伐	-10.7527
職官	-10.753
城郭	-10.753
本内	-10.7531
因事	-10.7534
部議覆	-10.7534
大軍	-10.7535
餘石	-10.7537
問其	-10.7539
丁憂	-10.7543
天氣	-10.7545
必將	-10.7546
例應	-10.755
在朝	-10.7552
朕念	-10.7553
兊	-10.7554
配天	-10.7554
協營	-10.7559
塞責	-10.756
小人之	-10.7561
陞任	-10.7562
安置	-10.7562
俱在	-10.7563
貪婪	-10.7563
足用	-10.7565
懇切	-10.7565
三王	-10.7566
望風	-10.7566
折色	-10.7567
甘心	-10.7568
草木	-10.7572
䑓諫	-10.7577
原摺	-10.7577
國史	-10.7579
既不能	-10.7579
訪問	-10.7579
員外郎	-10.758
之黨	-10.7585
俱令	-10.7587
無所不至	-10.7588
奉上諭據	-10.759
罵	-10.7591
凟	-10.7592
匱乏	-10.7596
若謂	-10.7596
顆	-10.7598
選人	-10.7604
何得	-10.7606
逺慮	-10.7606
廂	-10.761
兖	-10.7614
所不能	-10.7614
休致	-10.7616
曰陛下	-10.7619
屬官	-10.7619
臣不敢	-10.7619
今朝廷	-10.762
名臣	-10.7621
官府	-10.7622
文移	-10.7622
禮儀	-10.7623
良善	-10.7625
一靣	-10.7626
石禮哈	-10.7627
固宜	-10.7627
夫役	-10.7628
之設	-10.7628
致祭	-10.7629
眼	-10.7632
洊	-10.7633
概	-10.7634
魂	-10.7635
逭	-10.7636
覬	-10.7637
朕甚	-10.7638
遵循	-10.7638
先於	-10.7639
邊患	-10.764
大水	-10.7641
冠帶	-10.7647
諌官	-10.7649
者哉	-10.7652
年嵗	-10.7653
授之	-10.7653
甚非	-10.7657
事闗	-10.7658
此實	-10.766
東宫	-10.7661
人役	-10.7663
實無	-10.7665
稷	-10.7665
覽奏	-10.7667
徒以	-10.7667
又況	-10.7671
觔	-10.7671
久逺	-10.7672
内降	-10.7673
提㸃刑獄	-10.7673
諸凡	-10.7675
疵	-10.7675
修防	-10.7676
納諫	-10.7678
藩籬	-10.7678
舊法	-10.7679
涼	-10.7682
北方	-10.7683
不經	-10.7684
三十日	-10.7686
同日又奏為奏聞事竊	-10.7688
之尊	-10.7688
用命	-10.769
民兵	-10.7692
近嵗	-10.7694
異於	-10.7697
民命	-10.7703
河間	-10.7704
近因	-10.7704
年九月	-10.7706
則朝廷	-10.7708
解到	-10.7708
沅	-10.7708
或可	-10.7709
職分	-10.7712
芻蕘	-10.7715
然自	-10.7717
擺	-10.7717
坡	-10.7718
怙	-10.7718
未嘗有	-10.7721
名節	-10.7722
言行	-10.7722
敵之	-10.7723
亦乞	-10.7723
長官	-10.7723
之比	-10.7725
叅政	-10.7725
接到	-10.7729
將相	-10.7731
者宜	-10.7735
缺出	-10.7739
珪	-10.7742
購	-10.7743
按察	-10.7743
手詔	-10.7744
時加	-10.7747
出境	-10.7747
多端	-10.7747
在我	-10.7747
竊發	-10.7754
天縱	-10.7755
數年以來	-10.7756
數倍	-10.7756
䝉皇上天恩	-10.7757
剖	-10.7758
装	-10.776
嫁	-10.7761
諤	-10.7761
移駐	-10.7763
供奉	-10.7763
之謂	-10.7765
欲求	-10.7765
而乃	-10.7767
四萬	-10.7767
欺隱	-10.7768
宦官	-10.7771
二十三日	-10.7771
禍福	-10.7771
責以	-10.7772
聽政	-10.778
妄言	-10.778
賦役	-10.778
轉飭	-10.7781
都城	-10.7788
頃者	-10.779
永寧	-10.7794
省察	-10.7794
和議	-10.7795
稀	-10.7796
見有	-10.7798
起身	-10.7801
芻	-10.7802
非一	-10.7803
淮安	-10.7803
以此為	-10.7804
邊陲	-10.7807
而廢	-10.7808
睢	-10.7808
勒限	-10.781
涯	-10.7813
不知所	-10.7813
題奉欽依	-10.7813
陣亡	-10.7813
賊人	-10.7814
廣州	-10.7814
固不	-10.7815
兼理	-10.7817
不克	-10.7818
運至	-10.7819
豈惟	-10.7821
特加	-10.7821
執奏	-10.7822
施行謹奏	-10.7825
致有	-10.7829
不可行	-10.7831
奪其	-10.7832
隆慶	-10.7832
姑容	-10.7833
暫行	-10.7835
賢不肖	-10.7835
失事	-10.7838
解部	-10.7839
悮	-10.784
門外	-10.784
慣	-10.7842
徹底	-10.7842
漂	-10.7844
雖已	-10.7844
協副將	-10.7847
汲汲	-10.7847
䛕	-10.7847
口外	-10.7851
繕摺具奏	-10.7852
濮王	-10.7861
侍衛	-10.7863
實録	-10.7865
是為	-10.7866
荷䝉皇上	-10.7866
善者	-10.7866
停當	-10.7867
分析	-10.7867
内則	-10.7872
然亦	-10.7873
萬死	-10.7877
三十餘	-10.7877
兼并	-10.7878
舊欠	-10.7881
李維鈞	-10.7886
隨據	-10.7887
河務	-10.7888
者此	-10.7892
空言	-10.7895
保障	-10.7895
即是	-10.7897
内官	-10.7897
始於	-10.79
於斯	-10.79
此風	-10.7901
喜怒	-10.7902
施之	-10.7902
之心而	-10.7902
分巡	-10.7903
九錢	-10.7907
修舉	-10.7911
相望	-10.7911
身任	-10.7912
令各	-10.7915
亦復	-10.7916
養兵	-10.7917
臣民	-10.7919
舉主	-10.7922
罪戾	-10.7922
灰	-10.7926
方且	-10.7926
俘	-10.7927
出兵	-10.793
衆論	-10.7931
皆曰	-10.7931
態	-10.7931
戡	-10.7931
内帑	-10.7932
此所以	-10.7933
朞	-10.7933
喬	-10.7933
嚴查	-10.7934
屆	-10.7934
進兵	-10.7935
牧馬	-10.7935
通計	-10.7935
蝕	-10.7938
營田	-10.7939
諫曰	-10.7943
狂妄	-10.7944
也乃	-10.7952
善人	-10.7952
之暇	-10.7955
首惡	-10.7958
名口	-10.7959
太過	-10.7964
批諭	-10.7965
副将	-10.7968
曩	-10.7968
何患	-10.7971
佳	-10.7972
丁寧	-10.7973
鈍	-10.7974
掣肘	-10.7974
諛	-10.7974
隕越	-10.7975
卞	-10.7975
夔	-10.7975
紳衿	-10.7976
用者	-10.7976
往来	-10.7976
武舉	-10.7976
流通	-10.7977
入於	-10.7978
武弁	-10.7978
時刻	-10.7978
九州	-10.7979
便可	-10.7979
和衷	-10.7982
太祖太宗	-10.7985
不求	-10.7985
三名	-10.7986
寃抑	-10.7986
伏願	-10.7989
又言	-10.799
進京	-10.7991
向者	-10.7992
雖多	-10.7993
愚臣	-10.7994
愚忠	-10.7994
朋比	-10.7994
督同	-10.7995
切於	-10.7996
則彼	-10.7996
已極	-10.7996
救之	-10.7999
親往	-10.7999
縣地方	-10.8002
一郡	-10.8002
簿書	-10.8004
上請	-10.8005
主簿	-10.8006
年四月	-10.8008
體恤	-10.8009
之所致	-10.801
京畿	-10.801
利於	-10.8012
軀	-10.8013
至當	-10.8014
交界	-10.8014
技藝	-10.8015
但有	-10.8015
可信	-10.8016
翁	-10.802
後因	-10.8022
彛	-10.8025
簽	-10.8025
革除	-10.803
人倫	-10.803
傳之	-10.8032
運使	-10.8033
加謹	-10.8033
之柄	-10.8037
相率	-10.8039
外則	-10.8042
忠孝	-10.8042
良法	-10.8043
待其	-10.8046
尊卑	-10.8047
節用	-10.8052
考滿	-10.8054
有益於	-10.8056
耳今	-10.8057
仍復	-10.806
據稱	-10.8063
敇	-10.8063
蚤	-10.8063
搢紳	-10.8064
唱	-10.8065
疎忽	-10.8066
佚	-10.8067
政治	-10.8069
邢	-10.8069
不遑	-10.8069
到彼	-10.807
人戸	-10.807
皇祐	-10.8072
誠有	-10.8074
並行	-10.8075
詔有司	-10.8076
不可勝	-10.8084
千餘兩	-10.8086
出力	-10.8087
保題	-10.8089
非敢	-10.809
勘合	-10.8095
建康	-10.8097
政之	-10.8098
處處	-10.81
解任	-10.8101
勛	-10.8101
姻	-10.8105
猖獗	-10.8106
不憚	-10.8106
隠匿	-10.8107
康熙三十	-10.8108
然其	-10.8109
鄉里	-10.8111
勒索	-10.8111
改作	-10.8113
澄清	-10.8114
小者	-10.8118
俯賜	-10.8119
起運	-10.812
身家	-10.8121
諫諍	-10.8124
宿遷	-10.8125
已定	-10.8126
之州縣	-10.8126
首級	-10.8126
先務	-10.8127
立為	-10.8127
講讀	-10.8128
臺官	-10.8128
潦	-10.8128
忠言	-10.8129
以相	-10.8132
於其間	-10.8133
愁	-10.8134
其失	-10.8135
卿士	-10.8137
纎	-10.8142
自陳	-10.8142
遇事	-10.8142
今者	-10.8144
然後可以	-10.8145
因公	-10.8146
有二	-10.8146
諸王大臣	-10.8146
實力奉行	-10.8147
俄	-10.8149
不貲	-10.8149
訓飭	-10.815
懾	-10.8152
甚好	-10.8155
感格	-10.8159
所係	-10.8159
一二年	-10.816
竊思	-10.8161
分管	-10.8162
細查	-10.8164
不振	-10.8164
另有	-10.8168
以憑	-10.817
萬年	-10.817
檢㑹	-10.8172
祀典	-10.8173
五行	-10.8178
十餘年	-10.8178
百世	-10.8186
洲	-10.8191
歇	-10.8191
綂	-10.8191
大政	-10.8192
甲子	-10.8192
餘銀	-10.8193
撃	-10.8193
馳驛	-10.8194
笞	-10.8195
頴	-10.8195
之形	-10.8197
諷	-10.8199
今復	-10.8201
仲尼	-10.8202
稼	-10.8203
以取	-10.8211
又上奏曰臣	-10.8213
又因	-10.8215
斷不	-10.8216
勝負	-10.8216
實非	-10.8223
樞宻	-10.8223
允當	-10.8225
竝未	-10.8228
撫按	-10.823
剪	-10.8232
徇情	-10.8232
心腹	-10.8235
裳	-10.8237
有犯	-10.8237
惟其	-10.8239
勤慎	-10.8241
所取	-10.8241
祥符	-10.8242
此舉	-10.8242
熒惑	-10.8244
性命	-10.8247
所共	-10.8247
䏻	-10.8247
法也	-10.8251
如之何	-10.8251
陳明	-10.8256
不可用	-10.8258
而論	-10.826
三縣	-10.826
吐蕃	-10.8263
哉今	-10.8264
計也	-10.8265
提問	-10.8266
漢文	-10.8267
郎官	-10.8267
惻	-10.8267
䇿應	-10.8269
示以	-10.8269
人臣之	-10.8271
殺傷	-10.8271
松江	-10.8272
㳂	-10.8274
忠直	-10.8276
徭	-10.8277
鶴	-10.8279
面諭	-10.828
平章事制	-10.8282
漏網	-10.8282
仍留	-10.8282
周官	-10.8283
禁革	-10.8283
不計	-10.8284
狂瞽	-10.8286
不齊	-10.8288
部覆	-10.829
有備	-10.8291
奏覆	-10.8292
爵禄	-10.8295
事竣	-10.8296
無窮之	-10.8297
一座	-10.8297
訓㫖	-10.83
時價	-10.8301
收受	-10.8304
魏徴	-10.8305
甚少	-10.8305
志在	-10.831
國王	-10.8311
三十萬	-10.8311
知㑹	-10.8314
建言	-10.8315
中丞	-10.8316
公然	-10.8316
謹慎	-10.8318
團	-10.8318
萬三千	-10.832
鄒	-10.8321
涵	-10.8322
諉	-10.8322
譚	-10.8323
讞	-10.8325
詳審	-10.8326
覿	-10.8326
以陛下	-10.8329
一遇	-10.8329
溝壑	-10.833
膚	-10.8331
供出	-10.8332
今將	-10.8332
運道	-10.8333
恠	-10.8333
沁	-10.8334
乳	-10.8334
堤岸	-10.8334
議定	-10.8335
四府	-10.8336
舊規	-10.8338
尺寸	-10.834
後日	-10.834
誤國	-10.8344
險阻	-10.8344
五名	-10.8347
盡職	-10.8348
以彰	-10.8349
漢文帝	-10.8349
至和	-10.835
我國家	-10.8351
曰我	-10.8351
莫非	-10.8353
二州	-10.8353
以告	-10.8354
乃有	-10.8355
看守	-10.8355
又諭	-10.8357
民無	-10.8364
如遇	-10.8368
胸	-10.8373
敬陳	-10.8373
而不用	-10.8374
知遇	-10.8376
特㫖	-10.8376
邕	-10.8377
謹繕摺	-10.8377
疏曰臣	-10.8377
邊備	-10.8378
疏濬	-10.8383
利也	-10.8384
緊	-10.8385
奏陳	-10.839
在下	-10.839
評	-10.8391
更換	-10.8392
到官	-10.8392
主上	-10.8396
浮費	-10.8398
等語朕	-10.8398
自信	-10.8401
是知	-10.8402
無力	-10.8403
巡察	-10.8406
之亂	-10.8406
成憲	-10.841
奏聞謹奏	-10.8412
魏廷珍	-10.8413
祁	-10.8416
憎	-10.8418
差使	-10.8419
亦曰	-10.842
湧	-10.8421
者蓋	-10.8421
體國	-10.8422
哈宻	-10.8422
法紀	-10.8422
疏題為	-10.8427
必然	-10.8427
仰惟陛下	-10.8429
受恩	-10.843
而忘	-10.8435
萬萬	-10.8436
府同知	-10.8438
許容	-10.844
亦在	-10.8442
生擒	-10.8444
於兹	-10.8447
據奏	-10.8448
邉事	-10.8451
又謂	-10.8453
上以	-10.8456
綬	-10.8458
者所以	-10.8459
涓埃	-10.8462
絡	-10.8464
隨經	-10.8464
刪	-10.8464
祔	-10.8465
祖宗以來	-10.8465
欲令	-10.8469
宣府	-10.8469
弓手	-10.8471
以義	-10.8473
決口	-10.8476
上緊	-10.8485
及今	-10.8485
緝捕	-10.8485
有旨	-10.8488
嚴督	-10.849
已成	-10.8493
借端	-10.8494
沽	-10.8496
舊典	-10.8504
梧	-10.8504
雍正十二年	-10.8505
誠能	-10.8505
之狀	-10.8507
扎	-10.8509
以奉	-10.8509
拿	-10.8509
捌	-10.8511
侵漁	-10.8513
熈寜	-10.8515
將以	-10.8515
接壤	-10.8515
奮勉	-10.8516
也臣願陛下	-10.8517
修葺	-10.8517
為事	-10.8518
藝祖	-10.852
之久	-10.8522
絶其	-10.8523
此理	-10.8527
復行	-10.8529
昭穆	-10.8529
寛免	-10.8529
國初	-10.8533
舉而	-10.8535
必勝	-10.8535
朕懐	-10.8536
復用	-10.8537
報明	-10.854
府州	-10.8543
中正	-10.8548
張廣泗	-10.8548
伎	-10.8554
一端	-10.8556
所闗	-10.8558
形迹	-10.8559
𤓰	-10.8559
上進	-10.8561
則雖	-10.8563
著於	-10.8563
推之	-10.8567
銀一萬	-10.8567
市井	-10.8567
徳澤	-10.8568
及此	-10.8568
軍營	-10.8568
轉移	-10.8572
其父	-10.8578
詩云	-10.8579
福州	-10.8581
激切	-10.8582
文職	-10.8583
年七月	-10.8583
豈肯	-10.8584
希圖	-10.8586
純仁	-10.8586
本人	-10.8589
應副	-10.8591
涕	-10.8591
郡邑	-10.8592
而弗	-10.8592
亦係	-10.8593
琳	-10.8593
畏天	-10.8594
舛	-10.8595
為戒	-10.8597
所共知	-10.8598
叩頭	-10.86
喇嘛	-10.86
前經	-10.86
不可得	-10.8601
城縣	-10.8601
遮	-10.8602
生成	-10.8602
獨不	-10.8603
正項錢糧	-10.8604
翊	-10.8605
定額	-10.8605
奄	-10.8605
之訓	-10.8605
信之	-10.8607
於三月	-10.8607
羣下	-10.8609
此法	-10.861
寒暑	-10.861
詳慎	-10.861
以寛	-10.8613
至尊	-10.8614
之忠	-10.8615
今以	-10.8616
任人	-10.8617
以為非	-10.8618
著令	-10.8619
竭盡	-10.8619
有裨益	-10.862
生計	-10.8621
河身	-10.8624
於法	-10.8626
儲蓄	-10.8627
黷	-10.8627
如䝉	-10.8628
若無	-10.863
五曰	-10.8631
勿以	-10.8632
數處	-10.8633
賢愚	-10.8636
俱屬	-10.8637
仰副	-10.8638
也同日又奏為	-10.8639
未當	-10.864
後宫	-10.8641
無任	-10.8642
給以	-10.8642
拓	-10.8643
近侍	-10.8645
塗炭	-10.8645
亦恐	-10.8646
敵情	-10.8646
多不	-10.8646
者不得	-10.8648
𦂳急	-10.8648
機務	-10.8649
㪚	-10.8649
所向	-10.8651
官及	-10.8651
百餘	-10.8652
乞罷	-10.8652
奢侈	-10.8652
且以	-10.8655
靡不	-10.8659
丈量	-10.866
農桑	-10.866
以廣	-10.8661
俱照	-10.8664
累月	-10.8668
恐致	-10.8668
語言	-10.8672
恭報	-10.8672
該省	-10.8673
今日之事	-10.8675
平居	-10.8683
分兵	-10.8685
侍講	-10.869
寬	-10.8691
浩蕩	-10.8691
駐蹕	-10.8691
誑	-10.8692
哉夫	-10.8693
殞	-10.8694
㦯	-10.8695
某某	-10.8698
郷	-10.8699
飛飭	-10.87
私心	-10.87
沿江	-10.8701
冶	-10.8702
併力	-10.8703
馬歩	-10.8704
方面	-10.8705
三五	-10.8707
管仲	-10.8713
行至	-10.8714
一尺	-10.8717
推誠	-10.8718
大畧	-10.8722
僖祖	-10.8723
不備	-10.8724
仰懇	-10.8729
大明	-10.8732
假以	-10.8732
率多	-10.8732
隸	-10.8733
查考	-10.8735
有所未	-10.8736
幅	-10.8736
兑	-10.8737
郊廟	-10.8738
寸不等	-10.8738
允禩	-10.8741
無間	-10.8743
倉厫	-10.8743
穹	-10.8744
據實奏明	-10.8744
夘	-10.8745
烝	-10.8746
罔不	-10.8746
亦可以	-10.8747
此弊	-10.8748
寛仁	-10.8748
瀝	-10.8753
諸色	-10.8754
物力	-10.8756
明皇	-10.8756
陳乞	-10.8757
斷不可	-10.8759
國恩	-10.8763
虧損	-10.8763
而取	-10.8765
年五月	-10.8765
用是	-10.8769
或係	-10.8771
庶官	-10.8773
承辦	-10.8773
買馬	-10.8773
熟悉	-10.8774
許之	-10.8774
庫銀	-10.8774
謹守	-10.8775
而出	-10.8775
生息	-10.8778
其大	-10.8778
至仁	-10.8779
維持	-10.8779
無恥	-10.8782
倉糧	-10.8783
錮	-10.8783
迅	-10.8785
厥職	-10.8786
有年	-10.8786
驛站	-10.8787
相接	-10.879
不嚴	-10.8791
孺	-10.8792
陂	-10.8792
若將	-10.8793
已下	-10.8794
減省	-10.8795
終無	-10.8797
無一人	-10.8799
問之	-10.8801
伊尹	-10.8803
以免	-10.8804
有害	-10.8805
淮西	-10.8807
二十九	-10.8815
異議	-10.8816
奉諭㫖	-10.8822
城守	-10.8823
孝經	-10.8824
臣謹按	-10.8824
所入	-10.8824
開國	-10.8826
愛人	-10.8826
遂成	-10.8827
該鎮	-10.8827
項下	-10.8829
山海	-10.8829
産業	-10.8829
旬日	-10.883
祈禱	-10.8831
宣力	-10.8832
踏	-10.8833
湘	-10.8833
嚴拏	-10.8834
不謹	-10.8834
中書令	-10.8834
江湖	-10.8835
將見	-10.8836
覧	-10.8837
洪範	-10.884
貼黄	-10.884
那移	-10.8841
景祐	-10.8841
似屬	-10.8841
人知	-10.8843
糜費	-10.8845
兵役	-10.8846
田里	-10.8853
名分	-10.8854
所獲	-10.8862
情實	-10.8862
手本	-10.8862
天下後世	-10.8863
鹽務	-10.8863
權臣	-10.8863
興師	-10.8867
六經	-10.8868
不專	-10.887
守法	-10.8872
也彼	-10.8873
者也今	-10.8874
不利	-10.8874
比者	-10.8878
准兵部咨	-10.8879
劵	-10.8881
娶	-10.8886
宛	-10.8887
汎	-10.8888
掘	-10.8889
貢舉	-10.8889
遂以	-10.8893
之處著	-10.8896
通同	-10.8903
秦州	-10.8904
傷人	-10.8906
朕已	-10.8908
一百四十	-10.891
始得	-10.8913
臣故曰	-10.8913
給銀	-10.8914
其理	-10.8919
叩謝天恩	-10.892
邦本	-10.8925
剝	-10.8926
股	-10.8927
兩廣	-10.8928
訓誡	-10.8928
捜	-10.8928
體量	-10.8929
可不慎	-10.8929
堂上官	-10.893
彩	-10.8931
定議具奏	-10.8932
合宜	-10.8933
猝	-10.8934
政府	-10.8936
矣至於	-10.8936
採訪	-10.8937
杜絶	-10.894
縱有	-10.894
隨事	-10.8943
委的	-10.8943
者悉	-10.8944
止令	-10.8945
外官	-10.8947
許令	-10.8949
而獨	-10.8949
紀律	-10.895
抑且	-10.8959
於十一月	-10.8961
名目	-10.8964
貨物	-10.8965
送到	-10.8965
逼近	-10.8968
也惟	-10.8968
并將	-10.8968
島	-10.8971
咸知	-10.8972
莫先於	-10.8973
鵬	-10.8974
楊名時	-10.8975
不敢言	-10.8976
萃	-10.8977
之謂也	-10.8978
為要	-10.8978
之教	-10.898
統轄	-10.8981
便殿	-10.8982
聽言	-10.8984
教養	-10.8985
可恃	-10.8985
事發	-10.8986
先經	-10.8988
况今	-10.899
不樂	-10.8991
太倉	-10.8991
下民	-10.8992
又令	-10.8993
細故	-10.8995
士風	-10.8997
未䝉	-10.8998
識者	-10.8999
不敢以	-10.9001
帑金	-10.9002
年六月	-10.9003
乞勅	-10.9005
食糧	-10.9006
區處	-10.9006
勢難	-10.9006
接任	-10.9006
上疏曰	-10.901
頥	-10.9017
聳	-10.902
齎摺	-10.902
學官	-10.902
騙	-10.9022
當差	-10.9023
乞恩	-10.9023
藍	-10.9024
明帝	-10.9026
不倦	-10.9026
由於	-10.9027
亦不得	-10.903
兾	-10.903
内稱	-10.9034
行人	-10.9037
其生	-10.9037
成湯	-10.9038
專以	-10.904
景徳	-10.9043
貧者	-10.9043
有負	-10.9044
為惡	-10.9044
有方	-10.9048
死而	-10.9052
標兵	-10.9054
王公	-10.9054
奏曰臣	-10.9054
多人	-10.9057
一箇	-10.9057
不滿	-10.9062
次日	-10.9066
造作	-10.9067
為主	-10.9067
乞賜	-10.9069
武藝	-10.907
猜	-10.907
當先	-10.907
滑	-10.9071
權勢	-10.9074
非陛下	-10.9074
施恩	-10.9079
曲直	-10.9079
難保	-10.9079
千八百	-10.9079
狗	-10.908
之國	-10.9083
赴闕	-10.9085
所恃	-10.9085
因時	-10.9087
諫議大夫	-10.9087
徴收	-10.9088
視其	-10.9088
在朝廷	-10.9089
仰體皇上	-10.9089
多年	-10.9091
來者	-10.9092
非徒	-10.9092
教導	-10.9093
查察	-10.9097
生長	-10.9097
聞風	-10.9099
多者	-10.91
聚集	-10.9102
險要	-10.9106
有志	-10.9106
七日	-10.9108
不得其人	-10.9111
盜案	-10.9111
長驅	-10.9111
森	-10.9116
挐	-10.9121
修整	-10.9121
影響	-10.9121
四名	-10.9125
差員	-10.9127
之隆	-10.9136
涇原	-10.9137
仍將	-10.9141
私恩	-10.9141
姦民	-10.9143
逺矣	-10.9145
之本意	-10.9146
粤省	-10.9146
奉硃批	-10.9148
直至	-10.9149
題奏	-10.9151
也臣愚	-10.9151
無愧	-10.9153
千金	-10.9153
在案今	-10.9155
既得	-10.9157
勞費	-10.9158
不入	-10.916
督令	-10.9163
欲為	-10.9166
受恩深重	-10.9166
直隸總督	-10.9166
鎖	-10.917
謚	-10.9171
黠	-10.9171
泰山	-10.9173
自守	-10.9173
皇上硃批	-10.9173
墩臺	-10.9173
龔	-10.9174
洛陽	-10.9175
師旅	-10.9175
巷	-10.9176
閤門	-10.9178
藩臬	-10.9179
為萬世	-10.9179
仁孝	-10.9181
負恩	-10.9182
突厥	-10.9182
徳宗	-10.9183
無時	-10.9186
東路	-10.9187
柰何	-10.9187
奉詔	-10.9187
改易	-10.9188
勞績	-10.9189
各兵	-10.9193
以俟	-10.9196
揆之	-10.9199
熈河	-10.92
高厚	-10.9201
經史	-10.9203
臨朝	-10.9203
大凡	-10.9203
所長	-10.9204
而可	-10.9204
也今陛下	-10.9204
邊疆	-10.9209
寧謐	-10.9209
成帝	-10.9209
之序	-10.921
挾私	-10.921
邉境	-10.921
者許	-10.921
潞	-10.9213
安徽	-10.9213
制勝	-10.9213
鑾	-10.9216
同日	-10.9219
俸工	-10.922
館閣	-10.9221
儒臣	-10.9221
范純仁	-10.9221
自今以後	-10.9222
徭役	-10.9223
分晰	-10.9226
言及	-10.9226
十八年	-10.9229
將原	-10.9234
西京	-10.9235
無損	-10.9236
伊父	-10.9236
深切	-10.9237
此係	-10.9237
條貫	-10.924
伏候	-10.924
追還	-10.9246
善後	-10.9249
錦衣衛	-10.9251
聽之	-10.9252
臣之愚	-10.9252
一二人	-10.9253
殃	-10.9253
神道	-10.9254
者若	-10.9256
之可也	-10.9258
幷	-10.9263
論其	-10.9264
鐡	-10.9267
俵	-10.9269
藏匿	-10.9271
愍	-10.9272
捄	-10.9272
畋	-10.9276
愛之	-10.9276
洞悉	-10.9279
宣慰	-10.9279
舜之	-10.9282
昇平	-10.9283
不任	-10.9284
發覺	-10.9285
而入	-10.9287
屯兵	-10.9287
者著	-10.9288
多是	-10.9291
月二十三日	-10.9292
奉職	-10.9295
乆矣	-10.9297
必由	-10.9297
先聖	-10.9297
及諸	-10.9298
懲創	-10.9298
平章事	-10.9299
能以	-10.9303
有濟	-10.9307
終日	-10.9309
霖	-10.9313
早賜	-10.9317
戌	-10.9318
憸	-10.9319
再照	-10.9319
臣無任	-10.932
不唯	-10.932
孟子曰	-10.9321
天資	-10.9322
擾害	-10.9324
佟	-10.9324
行間	-10.9326
法者	-10.9326
為天子	-10.9328
吉凶	-10.9328
火藥	-10.9329
毎石	-10.9331
行查	-10.9334
義倉	-10.9336
擇人	-10.9337
所關	-10.9339
有名	-10.9341
不可得也	-10.9342
實效	-10.9344
亦令	-10.9345
四十餘	-10.9345
庶乎	-10.9347
任賢	-10.9349
第四	-10.935
自立	-10.9351
書辦	-10.9353
羡餘	-10.9353
未見其	-10.9354
而非	-10.9354
乏人	-10.9359
不負	-10.9361
家産	-10.9362
卯	-10.9364
兵法	-10.9365
累朝	-10.9365
漢中	-10.9366
濱	-10.9366
飄	-10.9368
油	-10.9369
之舊	-10.9369
陡	-10.9371
髙帝	-10.9373
昊天	-10.9373
竟不	-10.9375
値	-10.9379
垂拱	-10.9379
尚存	-10.9379
而無所	-10.938
侵擾	-10.938
天聖	-10.9382
士馬	-10.9383
臣惟	-10.9383
比年	-10.9388
銀一兩	-10.9391
以威	-10.9391
地利	-10.9394
以觀	-10.9399
知道	-10.9399
無隠	-10.9401
衆議	-10.9405
自相	-10.9405
不常	-10.9405
教訓	-10.9407
庶務	-10.9413
顯然	-10.9414
鼐	-10.9414
除將	-10.9417
者此也	-10.9418
可守	-10.9418
何故	-10.9423
晚禾	-10.9423
荆襄	-10.9423
生民之	-10.9424
縉紳	-10.9425
詳議具奏	-10.9426
其用	-10.9428
等處地方	-10.9428
大使	-10.9429
数	-10.9429
流涕	-10.9431
蔡確	-10.9431
長久	-10.9432
儒學	-10.9435
愈加	-10.9436
動揺	-10.9439
兩年	-10.9439
乞勑	-10.9442
特遣	-10.9442
意在	-10.9442
君子之	-10.9444
財力	-10.9448
智者	-10.9453
朝鮮	-10.9455
俱巳	-10.9459
聖聽	-10.9462
見陛下	-10.9462
渡江	-10.9463
罔上	-10.9464
薩	-10.9466
些	-10.9467
道之	-10.9468
冰	-10.9468
仰賴	-10.9469
浹	-10.9469
堪以	-10.9473
浩繁	-10.9473
蒞	-10.9476
灼	-10.9477
向化	-10.9477
不精	-10.9478
賈誼	-10.948
將領	-10.9481
肆其	-10.9481
祖訓	-10.9481
未復	-10.9481
見錢	-10.9484
於衆	-10.9484
批示遵行謹奏	-10.9487
輔導	-10.9492
敬天	-10.9493
極其	-10.9493
嘗謂	-10.9496
憂之	-10.9497
另疏	-10.95
諸子	-10.9502
運米	-10.9502
本院	-10.9502
皇城	-10.9503
至治	-10.9507
巡撫都御史	-10.9507
練兵	-10.9507
逺者	-10.9509
宜加	-10.9516
致死	-10.9517
沈廷正	-10.9517
欽奉諭㫖	-10.9518
言曰	-10.9518
復加	-10.952
江北	-10.952
或者	-10.952
神宗皇帝	-10.952
窪	-10.952
大小臣工	-10.9523
經畫	-10.9523
儼	-10.9524
更易	-10.9524
四十五	-10.9524
惶悚	-10.9526
𥙷	-10.9529
將前項	-10.9529
赴部	-10.953
諸縣	-10.953
始祖	-10.9532
雖係	-10.9532
地方有	-10.9534
入海	-10.9534
九江	-10.9536
漢武帝	-10.9541
遂為	-10.9541
緣係	-10.9543
愚誠	-10.9544
查看	-10.9544
免役	-10.9544
民財	-10.9549
其舊	-10.955
一軍	-10.9551
乆而	-10.9553
驍	-10.9559
買米	-10.956
及於	-10.956
之限	-10.9561
未敢擅便	-10.9564
犒	-10.9565
年十月	-10.9565
低窪	-10.9567
便民	-10.9568
賜物	-10.9568
爲之	-10.9569
孝子	-10.9569
麾	-10.957
澆	-10.9573
經手	-10.9574
鱗	-10.9576
自便	-10.9577
以保	-10.9578
逐處	-10.9579
皆然	-10.9587
商旅	-10.9589
不公	-10.9592
衢	-10.9594
嵗時	-10.9595
重罪	-10.9595
官中	-10.9597
十餘人	-10.9598
功業	-10.9598
先儒	-10.96
主兵	-10.9603
朔方	-10.9603
考課	-10.9604
寺觀	-10.9605
極力	-10.9605
實由	-10.9608
回任	-10.9612
糧米	-10.9612
合祭	-10.9613
之本也	-10.9613
撲滅	-10.9616
積水	-10.9618
菲	-10.962
至若	-10.962
富民	-10.962
勿使	-10.9622
固執	-10.9622
琮	-10.9623
伏乞聖主睿鑒	-10.9623
髪	-10.9624
梓宫	-10.9625
臯	-10.9625
致令	-10.9627
怠玩	-10.9628
已將	-10.9628
題稱	-10.9629
先期	-10.9629
又欲	-10.9631
六部	-10.9631
飲酒	-10.9631
就緒	-10.9632
肅清	-10.9634
之缺	-10.9635
可慮	-10.9638
故有	-10.9639
章惇	-10.9642
而遂	-10.9642
額徵	-10.9645
當然	-10.9645
一千二百	-10.9646
安慶	-10.9646
主之	-10.9647
不早	-10.9648
照前	-10.9649
其一	-10.9651
插	-10.9652
弓箭	-10.9652
凛遵	-10.9653
之慶	-10.9654
欽承	-10.9662
正德	-10.9663
為姦	-10.9665
成風	-10.9665
行伍	-10.9665
塞楞額	-10.9667
自後	-10.9667
高其倬	-10.9668
私情	-10.967
砍	-10.9671
等情到	-10.9671
沂	-10.9671
嵇曽筠	-10.9672
旦夕	-10.9673
加之	-10.9674
產	-10.9674
戒之	-10.9675
為今之計	-10.9675
襟	-10.9676
綴	-10.9677
之口	-10.9677
躍	-10.9678
金石	-10.968
將何以	-10.968
施設	-10.9681
撤回	-10.9682
不曾	-10.9685
謹奏知道了	-10.9686
朕因	-10.9687
自以為	-10.969
另摺	-10.9691
史冊	-10.9693
又多	-10.9693
鎮臣	-10.9694
所居	-10.9695
官錢	-10.9698
天下者	-10.9699
三者	-10.9699
親身	-10.9701
生理	-10.9702
羣議	-10.9703
不去	-10.9705
典刑	-10.9706
無使	-10.9707
乎其	-10.9708
人之所	-10.9708
三事	-10.9711
犬馬之	-10.9713
供稱	-10.9715
怨望	-10.9715
者是	-10.9717
只得	-10.9719
砥礪	-10.972
搶掠	-10.9721
疏内	-10.9722
是亦	-10.9722
仁祖	-10.9722
可與	-10.9722
坍	-10.9724
㝠	-10.9724
髙明	-10.9724
豈可不	-10.9725
未暇	-10.9726
偕	-10.9726
百端	-10.9729
王柔	-10.9731
永為	-10.9732
親征	-10.9732
一百八十	-10.9734
所犯	-10.9734
者多矣	-10.9735
典章	-10.9737
所屬之	-10.9738
長子	-10.9739
昉	-10.974
變亂	-10.9741
更相	-10.9741
勒令	-10.9742
聊	-10.9744
别項	-10.9745
究治	-10.9749
何哉	-10.9755
等州縣	-10.9756
提標	-10.9757
未報	-10.9757
慎之	-10.9757
以通	-10.9758
從重	-10.9759
體統	-10.9759
運糧	-10.976
留中	-10.9761
不諳	-10.9761
共知	-10.9765
苗疆	-10.9765
察吏	-10.9766
失察	-10.9768
誰敢	-10.9768
屍	-10.977
蝗蝻	-10.9772
二十餘年	-10.9774
𠂻	-10.9775
欝	-10.9775
云云	-10.9776
上哲宗論	-10.9776
閻	-10.9776
璋	-10.9776
三百餘	-10.9777
搖	-10.9777
逐路	-10.9778
中書舍人	-10.9778
合將	-10.9779
行則	-10.978
舟楫	-10.978
劄付	-10.978
若欲	-10.978
頒發	-10.9781
平穩	-10.9781
神靈	-10.9783
外國	-10.9783
民瘼	-10.9784
姬	-10.9785
也伏望陛下	-10.9785
奏為	-10.9787
獻納	-10.9791
修徳	-10.9791
適中	-10.9791
官一員	-10.9792
而輕	-10.9793
上皇	-10.9794
尚何	-10.9797
謹奏覽奏	-10.9798
豐登	-10.9798
于今	-10.9799
乃可	-10.9799
典史	-10.9805
人望	-10.9806
後人	-10.9806
應將	-10.9809
雖在	-10.9811
氏之	-10.9813
二次	-10.9816
攀	-10.9817
此一事	-10.9818
本鎮	-10.9819
布蘭泰	-10.982
凱	-10.9822
僱	-10.9822
張皇	-10.9823
諾	-10.9825
公行	-10.9826
慄	-10.9828
立國	-10.9828
臣所謂	-10.9829
翔	-10.983
蹇	-10.9833
自古帝王	-10.9833
亦自	-10.9836
○	-10.9837
御前	-10.9838
管見	-10.9839
倉廪	-10.9839
御極	-10.984
之興	-10.9841
歉收	-10.9842
採擇	-10.9847
四員	-10.9849
殊為	-10.985
即係	-10.9851
敕部	-10.9853
稽遲	-10.9854
應詔	-10.9857
尤重	-10.9858
拒敵	-10.9859
安國	-10.986
賢良	-10.9861
選舉	-10.9862
治安	-10.9863
等弊	-10.9865
山縣	-10.9866
旗人	-10.9868
被淹	-10.987
安靜	-10.9873
折銀	-10.9874
極矣	-10.9875
並用	-10.9875
中傷	-10.9876
擾民	-10.9878
經制	-10.9879
塊	-10.9879
難矣	-10.988
之多寡	-10.988
屑	-10.9881
有所不	-10.9881
勃	-10.9882
潭	-10.9883
前日之	-10.9884
苦累	-10.9884
蛇	-10.9884
亦著	-10.9885
意者	-10.9886
舉劾	-10.9887
雕	-10.9888
海道	-10.9889
儉約	-10.9889
其不可	-10.9893
優游	-10.9893
漕米	-10.9893
依違	-10.9894
優恤	-10.9896
朕惟	-10.9901
者莫不	-10.9902
查驗	-10.9903
奉法	-10.9903
不解	-10.9903
徳意	-10.9904
海洋	-10.9905
以禦	-10.9906
省覽	-10.9906
皆以為	-10.9911
詢訪	-10.9912
一百六十	-10.9915
優長	-10.9915
咨稱	-10.9916
昔漢	-10.9918
今歳	-10.9918
仰承	-10.9918
水災	-10.9919
之所在	-10.9921
指為	-10.9921
治民	-10.9922
之乎	-10.9922
仁愛	-10.9923
花馬池	-10.9923
自用	-10.9924
事無	-10.9924
響	-10.9925
如其	-10.9928
有損	-10.9928
地界	-10.9929
來年	-10.9931
十餘里	-10.9935
小利	-10.9935
曷勝	-10.9935
畔	-10.9936
扞	-10.9936
辭免	-10.9938
七廟	-10.994
朝㫖	-10.9947
上納	-10.9948
簡用	-10.9948
無慮	-10.9949
敗事	-10.995
用銀	-10.9952
典故	-10.9953
殊非	-10.9955
遲誤	-10.9956
之屬	-10.9956
也是	-10.9956
婦女	-10.9957
此三	-10.9957
事該	-10.9958
也至	-10.996
月日	-10.996
可免	-10.9961
老病	-10.9964
臨清	-10.9966
當世	-10.9967
䕶軍	-10.9971
數事	-10.9974
為利	-10.9974
負陛下	-10.9975
横行	-10.9975
焉則	-10.9977
不審	-10.9977
牟	-10.9979
為言	-10.9979
十名	-10.9979
殺賊	-10.9981
簾	-10.9982
而用	-10.9983
無害	-10.9984
長史	-10.9985
故敢	-10.9985
闘	-10.9987
岱	-10.9987
毀	-10.9989
牓	-10.9989
之科	-10.999
四品	-10.999
匣	-10.9991
河防	-10.9994
以利	-10.9998
一十四	-10.9998
國有	-10.9999
數百人	-10.9999
招募	-11.0001
事實	-11.0003
竟有	-11.0005
釋放	-11.0007
者各	-11.0007
催科	-11.0008
甚易	-11.001
如或	-11.0012
兵食	-11.0013
外廷	-11.0017
后稷	-11.0019
千兩	-11.0019
於彼	-11.0019
遊兵	-11.0023
預防	-11.0023
經國	-11.0024
之良	-11.0028
且有	-11.0028
𦙍	-11.0029
師道	-11.0031
治理	-11.0032
易為	-11.0033
㨿	-11.0033
臣昨	-11.0034
官人	-11.0035
蘇軾	-11.0037
懇乞	-11.0038
氛	-11.0038
庾	-11.0038
誇	-11.0039
綽	-11.0042
心術	-11.0045
奉聖㫖是	-11.0045
一舉而	-11.0045
仰請	-11.0047
賔客	-11.0047
元祐元年	-11.0048
其材	-11.0048
之災	-11.0049
用刑	-11.0049
矣昔	-11.0051
審擬	-11.0052
當是時	-11.0052
撥給	-11.0052
原議	-11.0053
𦂳	-11.0054
藩鎮	-11.0055
御筆	-11.0056
而遽	-11.0057
明經	-11.0062
受之	-11.0063
宋名臣奏議巻	-11.0063
等十	-11.0063
監禁	-11.0063
寧州	-11.0064
且如	-11.0065
重行	-11.0067
甘霖	-11.0067
養㢘	-11.0069
無用之	-11.0073
穀石	-11.0074
三載	-11.0075
分頭	-11.0077
其源	-11.008
如聞	-11.0082
和好	-11.0083
狀曰臣	-11.0085
輦	-11.0086
燬	-11.0087
攤	-11.0088
渡河	-11.0089
搭	-11.0089
尊號	-11.009
羣情	-11.0092
皆出	-11.0094
膝	-11.0096
揖	-11.0097
有徳	-11.0098
告示	-11.01
緡	-11.0101
誅求	-11.0104
如此其	-11.0105
一十二	-11.0107
賦斂	-11.0107
上自	-11.0107
缺少	-11.0107
進獻	-11.0109
表率	-11.0118
入内	-11.0122
督催	-11.0122
月糧	-11.0123
三次	-11.0123
戎狄	-11.0123
妥議	-11.0125
未明	-11.0125
甚有	-11.0126
審訊	-11.0127
於古	-11.0128
觀察使	-11.0129
寄信	-11.0132
體察	-11.0136
厄魯特	-11.0138
是實	-11.0138
此地	-11.0138
依前	-11.0139
素有	-11.0139
兵威	-11.0139
有失	-11.014
國人	-11.0141
邊務	-11.0141
先將	-11.0147
無患	-11.0147
繡	-11.0147
同日又奏爲	-11.0147
馴	-11.0148
踏勘	-11.0149
几	-11.0149
卓異	-11.0152
闡	-11.0152
河流	-11.0153
未久	-11.0155
咸平	-11.0157
黎民	-11.0158
清水	-11.0158
十里	-11.0159
聚斂	-11.0165
仁聖	-11.0165
外有	-11.0167
灼見	-11.0169
景泰	-11.0169
數少	-11.0169
司農	-11.017
閏三月	-11.0171
分路	-11.0178
濮	-11.0179
之司	-11.018
形於	-11.018
有差	-11.0183
敷陳	-11.0189
外議	-11.0189
之身	-11.019
戰陣	-11.0192
養民	-11.0196
廓	-11.0198
特以	-11.0198
梓	-11.0199
瀛	-11.0199
軍節度使	-11.02
候朕	-11.02
睿裁	-11.0201
司禮監	-11.0201
佐貳	-11.0203
供億	-11.0204
層	-11.0205
軍興	-11.0206
過多	-11.0207
疑其	-11.0207
吕誨	-11.0208
經由	-11.0208
威武	-11.0209
非禮	-11.021
不然則	-11.0211
維新	-11.0212
丹江	-11.0212
分撥	-11.0212
科道官	-11.0215
指陳	-11.0216
反復	-11.0217
荆公	-11.0219
聽納	-11.0219
寅畏	-11.0221
提鎮	-11.0222
於理	-11.0225
效法	-11.0226
只是	-11.023
銀米	-11.0231
相安	-11.0231
米榖	-11.0234
一物	-11.0235
五十餘	-11.0235
不得巳	-11.024
亦俱	-11.0243
三嵗	-11.0244
餘黨	-11.0246
枉法	-11.0247
留守	-11.025
之榮	-11.0251
財利	-11.0252
届	-11.0253
粉飾	-11.0253
挖	-11.0256
宸衷	-11.0258
乗輿	-11.0258
楮	-11.0261
向有	-11.0262
于上	-11.0263
㤗	-11.0264
精力	-11.0264
不孝	-11.0267
共銀	-11.0267
上天之	-11.0267
情偽	-11.0268
超擢	-11.0268
仍有	-11.0269
截殺	-11.0273
之卒	-11.0274
數十人	-11.0279
必曰	-11.0284
自治	-11.0284
刑賞	-11.0285
其業	-11.0286
方畧	-11.0286
定其	-11.0286
孝友	-11.0289
身死	-11.029
天下之勢	-11.0291
常例	-11.0294
當今之	-11.0295
藉口	-11.0295
移文	-11.0295
本日	-11.0301
父老	-11.0302
加倍	-11.0304
主張	-11.0305
烟	-11.0305
討論	-11.0306
糴買	-11.0306
輔相	-11.0307
其術	-11.0307
縮	-11.0309
䝉陛下	-11.031
剽	-11.0311
燮	-11.0312
徳行	-11.0313
靳	-11.0313
講學	-11.0314
切惟	-11.0315
粹	-11.0315
夫婦	-11.0317
大略	-11.0317
布政	-11.0318
莫之	-11.032
畏避	-11.032
所損	-11.0324
萬貫	-11.0326
君上	-11.0328
怠惰	-11.0329
宫禁	-11.0329
立即	-11.0332
備咨	-11.0332
一番	-11.0333
營兵	-11.0334
羨	-11.0337
薊	-11.0337
河道總督	-11.0341
開具	-11.0341
該犯	-11.0342
虚心	-11.0343
之辭	-11.0348
陕	-11.0349
四十年	-11.035
入已	-11.035
因縁	-11.0353
之禁	-11.0354
據實陳奏	-11.0357
也臣等	-11.0358
臣不知	-11.0359
冷	-11.036
乃欲	-11.0361
桃	-11.0362
覘	-11.0365
無餘	-11.0365
以守	-11.0366
庠	-11.0367
累聖	-11.0368
事畢	-11.0369
地形	-11.0371
王曰	-11.0371
既定	-11.0371
從官	-11.0372
案牘	-11.0374
兩日	-11.0378
大寳	-11.038
其子孫	-11.0382
勸農	-11.0386
缺乏	-11.0387
固無	-11.0387
援引	-11.0389
萬緡	-11.039
職銜	-11.039
廵察	-11.0391
王珪	-11.0391
必多	-11.0393
假借	-11.0393
山澤	-11.0395
講和	-11.0396
一十五	-11.0398
無定	-11.0399
都指揮使	-11.0403
者既	-11.0404
新設	-11.0406
奉上諭朕	-11.0407
看詳	-11.0407
嗣位	-11.0408
著照	-11.041
矣但	-11.041
進言	-11.0411
聖斷	-11.0412
㑹合	-11.0415
籲	-11.0415
雨暘時若	-11.0416
此後	-11.0417
其官	-11.0417
隆科多	-11.0417
用過	-11.0418
未甚	-11.042
易之	-11.042
挈	-11.0421
混淆	-11.0421
悠	-11.0422
俱於	-11.0422
禎	-11.0424
苛刻	-11.0424
以勸	-11.0426
報復	-11.0426
此㫖	-11.0429
反側	-11.0433
再議	-11.0437
雖非	-11.0438
開銷	-11.0441
一百三十	-11.0443
細民	-11.0445
畿輔	-11.0449
海塘	-11.045
北京	-11.0451
交易	-11.0452
異端	-11.0452
習俗	-11.0453
燾	-11.0461
悖逆	-11.0463
譬	-11.0464
丙	-11.0465
市易	-11.0466
查郎阿	-11.0471
礪	-11.0472
勸諭	-11.0472
未備	-11.0473
闗中	-11.0473
伏乞聖裁	-11.0474
之所能	-11.0474
滿保	-11.0475
筆帖式	-11.0475
挟	-11.0475
牛羊	-11.0476
甚衆	-11.0477
庸劣	-11.048
事權	-11.0481
僖	-11.0481
似可	-11.0483
莫可	-11.0484
交納	-11.0484
清河	-11.0484
翕然	-11.0486
堯佐	-11.0487
兢兢	-11.049
天下臣民	-11.049
朕前	-11.0491
大小官員	-11.0491
但查	-11.0491
自任	-11.0493
豈復	-11.0495
徽宗	-11.0495
百工	-11.0497
員弁	-11.0499
言事者	-11.05
必不可	-11.0502
銀内	-11.0504
㑹商	-11.0508
視聽	-11.0514
元帥	-11.0515
陛下欲	-11.0518
三寸	-11.0518
所領	-11.0519
在前	-11.052
不雨	-11.0523
消弭	-11.0524
朂	-11.0526
靈武	-11.0526
圜丘	-11.053
率土	-11.0532
稼穡	-11.0532
專責	-11.0532
而實	-11.0533
眚	-11.0534
能使	-11.0534
邇者	-11.0535
囂	-11.0535
部下	-11.0536
錯誤	-11.0538
上神宗論	-11.0539
暢茂	-11.0541
攔	-11.0541
著該督撫	-11.0544
罷免	-11.0546
恭順	-11.0546
贖罪	-11.0548
睿斷	-11.055
邦國	-11.055
乎陛下	-11.0551
毋忽	-11.0551
未必不	-11.0551
查訪	-11.0551
羨餘	-11.0552
堪任	-11.0555
之廟	-11.0556
聽斷	-11.0556
眞宗	-11.0557
本心	-11.0559
噶	-11.0561
和買	-11.0562
為照	-11.0563
歸之	-11.0565
結黨	-11.0566
得此	-11.0569
聖賢之	-11.0569
天下之民	-11.0572
周旋	-11.0573
防秋	-11.0577
吾民	-11.0579
先任	-11.058
瑾	-11.058
之能	-11.0581
史貽直	-11.0582
世世	-11.0583
勞而	-11.0583
咨明	-11.0583
若再	-11.0584
抃	-11.0584
平民	-11.0585
以為不可	-11.0586
翦	-11.0587
胷	-11.0587
熟諳	-11.0587
流俗	-11.0588
渠魁	-11.0588
所遺	-11.0589
以天下	-11.0589
聿	-11.0589
餽送	-11.059
民安	-11.059
搶奪	-11.059
萬厯	-11.0591
跟隨	-11.0593
秋汛	-11.0594
不可為	-11.0596
邦家	-11.0597
不預	-11.0597
者如	-11.0597
全在	-11.0598
衞所	-11.0601
庶績	-11.0601
之名而	-11.0603
惜之	-11.0604
疑之	-11.0605
惡習	-11.0606
面奏	-11.061
向日	-11.0615
事理未敢擅便	-11.0615
善良	-11.0616
制之	-11.0618
萬一有	-11.0621
永順	-11.0622
莫知	-11.0625
臣區區	-11.0627
臨期	-11.0632
禮記	-11.0632
虧缺	-11.0632
山東河南	-11.0632
莊浪	-11.0634
少年	-11.0634
覆載	-11.0635
以行	-11.0635
異數	-11.0637
之所為	-11.0638
凋	-11.0639
踈逺	-11.0639
行遣	-11.064
縱使	-11.0641
順治	-11.0642
近見	-11.0642
而卒	-11.0643
終不能	-11.0643
庚戌	-11.0643
邠	-11.0644
地方情形	-11.0645
理宜	-11.0645
擠	-11.0646
非不知	-11.0646
窄	-11.0646
奏眀	-11.0647
量為	-11.0647
聖體	-11.0649
復業	-11.065
燈	-11.065
比較	-11.065
羣小	-11.0651
是乃	-11.0651
男女	-11.0651
常賚	-11.0653
四面	-11.0657
登場	-11.0658
核實	-11.0661
厚恩	-11.0661
分司	-11.0662
訓導	-11.0664
扵是	-11.0665
其要	-11.0667
史館	-11.0669
竝不	-11.067
昭示	-11.0671
為便	-11.0673
相見	-11.0678
所報	-11.0681
大有為	-11.0682
我師	-11.0682
意外之	-11.0684
稽考	-11.0687
歐陽	-11.0688
使知	-11.0689
溜	-11.069
彌補	-11.069
宿衛	-11.0692
仰祈聖鑒事竊	-11.0693
劉世明	-11.0693
也一	-11.0693
不遺	-11.0695
倍加	-11.0696
喚	-11.0696
重寄	-11.0697
兆民	-11.0697
剔	-11.0697
二尺	-11.0698
殱	-11.0698
坑	-11.0698
鈐轄	-11.07
乍	-11.0701
湊	-11.0702
取具	-11.0703
毗	-11.0703
拳拳	-11.0705
而死	-11.0706
之遺	-11.0706
大工	-11.0706
磨勘	-11.0707
之來	-11.0708
草塲	-11.0709
小補	-11.0709
伏自	-11.071
三處	-11.071
迪	-11.0711
安定	-11.0712
陋習	-11.0713
宰輔	-11.0713
一語	-11.0716
截留	-11.0717
忌諱	-11.0722
有缺	-11.0726
入告	-11.0726
也豈	-11.0726
補足	-11.0727
但知	-11.0727
有不可	-11.0728
亦知	-11.073
水草	-11.0732
發於	-11.0733
原擬	-11.0735
世襲	-11.0736
整齊	-11.0737
書生	-11.0737
也蓋	-11.0738
御史大夫	-11.0738
也哉	-11.074
黄廷桂	-11.075
亦足以	-11.075
舉措	-11.0751
滇黔	-11.0751
其半	-11.0751
尺不等	-11.0752
監候	-11.0752
失宜	-11.0753
禦敵	-11.0754
烽	-11.0754
戰則	-11.0755
乎若	-11.0755
取進止	-11.0756
旗下	-11.0756
但當	-11.0757
彝	-11.0757
不亦	-11.0757
請於	-11.0758
歡欣	-11.0758
上哲宗乞	-11.0759
頭人	-11.076
稱其	-11.0762
暫停	-11.0763
而立	-11.0763
曉然	-11.0763
詞訟	-11.0764
議敘	-11.0765
武宗	-11.0765
封駮	-11.0766
毎嵗	-11.0768
兮	-11.0771
将来	-11.0773
租賦	-11.0775
本意	-11.0776
應請	-11.0777
清口	-11.0778
孤立	-11.078
忠邪	-11.0784
不爽	-11.0784
姦臣	-11.0784
天顔	-11.0785
賜予	-11.0785
大定	-11.0786
憂勞	-11.0787
敵兵	-11.0787
斷自	-11.0788
叛逆	-11.0792
進賢	-11.0794
外戚	-11.0796
計算	-11.0797
危亡	-11.0798
諸儒	-11.0799
次之	-11.08
甘州	-11.0801
該州	-11.0801
詢之	-11.0802
支持	-11.0803
馬步	-11.0804
威權	-11.0805
入貢	-11.0805
厚薄	-11.0806
旒	-11.0806
上表	-11.0808
每有	-11.081
鼠	-11.0812
哉此	-11.0814
視事	-11.0815
其義	-11.0815
企	-11.0816
暖	-11.0816
鋤	-11.0817
傷損	-11.0817
狎	-11.0817
隕	-11.0818
掩飾	-11.082
煩擾	-11.082
正宜	-11.0821
平凉	-11.0825
成例	-11.0835
俾其	-11.0835
本縣	-11.0837
曰今	-11.0838
闗防	-11.0844
折衝	-11.0845
三司使	-11.0845
皆能	-11.0846
寛貸	-11.0849
相傳	-11.0849
而使之	-11.085
恩㫖	-11.0851
於世	-11.0851
分派	-11.0853
状曰臣	-11.0853
入朝	-11.0855
竊念	-11.0855
臣按	-11.0855
一條	-11.0858
修身	-11.0859
政體	-11.0861
昔年	-11.0861
究問	-11.0866
歸順	-11.0867
繪	-11.0868
數百里	-11.0868
此臣之所	-11.0871
作為	-11.0872
鈐	-11.0872
其來	-11.0872
則知	-11.0873
上疏	-11.0873
眉	-11.0873
農事	-11.0873
變異	-11.0873
殁	-11.0873
繼遷	-11.0874
扵此	-11.0874
函	-11.0875
寂	-11.0876
為此具本	-11.0878
仰答	-11.0881
之勤	-11.0882
既以	-11.0884
戸口	-11.0884
則非	-11.0887
羡	-11.0887
商販	-11.089
悉令	-11.089
近該	-11.0893
在廷	-11.0896
減等	-11.0896
水患	-11.0897
群臣	-11.0897
或至	-11.0898
毋使	-11.0899
私販	-11.0899
乃至	-11.0899
世宗	-11.09
又不能	-11.0901
者也臣	-11.0902
衆人之	-11.0902
原屬	-11.0902
已完	-11.0905
經年	-11.0906
伊子	-11.0907
召對	-11.0908
不順	-11.091
譬之	-11.091
强弱	-11.0911
蓄積	-11.0911
密訪	-11.0912
導之	-11.0912
皆因	-11.0913
清議	-11.0917
集議	-11.0917
原非	-11.0918
官者	-11.0918
被害	-11.0918
盛時	-11.0921
合無將	-11.0922
不中	-11.0923
宣和	-11.0924
諸将	-11.0924
是否有當	-11.0926
事功	-11.0926
均有	-11.0926
圖治	-11.0927
凑	-11.0928
充足	-11.0928
豈獨	-11.0929
上仁宗乞	-11.093
寐	-11.093
滚	-11.093
該衙門知道	-11.093
陳言	-11.093
圉	-11.0932
何時	-11.0933
諸人	-11.0933
又乞	-11.0934
邈	-11.0937
興化	-11.0937
奉使	-11.0938
晏然	-11.0938
文彦博	-11.094
之親	-11.0941
諭以	-11.0941
衙前	-11.0942
備員	-11.0944
為上	-11.0944
百辟	-11.0948
哉且	-11.0948
慶幸	-11.0949
會議	-11.095
以身	-11.0951
紛更	-11.0952
罪犯	-11.0953
常平倉	-11.0954
馬疋	-11.096
變故	-11.096
爾等可	-11.096
億萬	-11.0961
合併	-11.0961
乃敢	-11.0963
一十三	-11.0964
上蒼	-11.0965
糧儲	-11.0967
借給	-11.0971
敬慎	-11.0971
臣伏以	-11.0973
條具	-11.0974
於時	-11.0974
官物	-11.098
文武官員	-11.0982
過舉	-11.0983
黨與	-11.0983
荆湖	-11.0985
賭博	-11.0987
屬下	-11.0988
本於	-11.0988
軟	-11.0988
之益	-11.0988
無狀	-11.0989
逰擊	-11.0989
之儲	-11.0989
備位	-11.099
無失	-11.099
桐	-11.0991
皇極	-11.0992
咫尺	-11.0993
有五	-11.0993
契勘	-11.0994
宻奏	-11.0996
舍人	-11.0998
王氏	-11.0998
本以	-11.1002
西域	-11.1002
拾遺	-11.1003
比照	-11.1006
違法	-11.1009
安邊	-11.101
蕃部	-11.101
管領	-11.1011
必求	-11.1012
勘㑹	-11.1012
兢	-11.1014
贏	-11.1015
深察	-11.102
始有	-11.1022
朕觀	-11.1025
尚屬	-11.1026
輕易	-11.1028
於上年	-11.1028
茍簡	-11.1028
陛下自	-11.103
雖曰	-11.1031
一百七十	-11.1032
瞽	-11.1034
痛加	-11.1034
誅之	-11.1034
銅錢	-11.1035
半月	-11.1035
所稱	-11.1036
但能	-11.1037
濟南	-11.1037
館職	-11.1041
喀	-11.1044
費金吾	-11.1045
哈元生	-11.1045
自餘	-11.1045
粥	-11.1046
武夫	-11.1047
之得失	-11.1047
之工	-11.1047
啇	-11.1048
慾	-11.1048
王士俊	-11.1049
皆云	-11.1049
昵	-11.105
不守	-11.1051
准吏部咨	-11.1052
合詞	-11.1053
炭	-11.1054
挑濬	-11.1056
治亂之	-11.1056
請給	-11.1062
兵夫	-11.1063
得免	-11.1063
温公	-11.1065
昔日	-11.1065
寛其	-11.1065
死於	-11.1065
諸國	-11.1066
公卿大夫	-11.1066
鼓鑄	-11.1068
狄	-11.1068
之秋	-11.1069
脅從	-11.107
不仁	-11.1072
不登	-11.1072
連日	-11.1075
張浚	-11.1076
江東	-11.1077
而不行	-11.1077
不移	-11.1078
犯罪	-11.1079
之人皆	-11.108
共相	-11.108
之奏	-11.1086
和糴	-11.1086
安堵	-11.1087
廣大	-11.1087
惟陛下留神	-11.1089
十九年	-11.1089
亦將	-11.1089
若遇	-11.1091
立政	-11.1091
三兩	-11.1093
農夫	-11.1094
去就	-11.1094
尚且	-11.1094
軍功	-11.1094
息民	-11.1095
擒拏	-11.1096
四也	-11.1096
不可得而	-11.1096
陛下之所	-11.11
攻取	-11.1101
紛然	-11.1101
寤寐	-11.1103
也雖	-11.1103
無事之時	-11.1103
黄帝	-11.1103
行在	-11.1106
繒	-11.1108
莅任	-11.1108
年力	-11.1109
迯	-11.111
戕	-11.1111
黼	-11.1112
考覈	-11.1113
不敬	-11.1113
嫌疑	-11.1114
宫闈	-11.1114
者謂之	-11.1115
千戸	-11.1115
二兩	-11.1115
各鎮	-11.1115
顯著	-11.1115
聞者	-11.1116
數内	-11.1116
齎捧	-11.1117
大者	-11.1118
二司	-11.1118
進者	-11.1119
嚴審	-11.1119
天順	-11.112
我軍	-11.112
寺丞	-11.1121
母后	-11.1121
激勸	-11.1122
損傷	-11.1123
直道	-11.1124
真偽	-11.1125
惟知	-11.1125
而動	-11.1126
稟稱	-11.1126
以死	-11.1126
馬價	-11.1127
控制	-11.1127
數百萬	-11.1129
經管	-11.113
於朕	-11.113
軍法	-11.1132
消息	-11.1132
散給	-11.1141
定州	-11.1141
興起	-11.1144
陞授	-11.1144
亦各	-11.1144
寛厚	-11.1147
茫	-11.1147
持重	-11.1151
某事	-11.1152
之祭	-11.1155
修補	-11.1157
試以	-11.116
一介庸愚	-11.1161
所不及	-11.1163
箴	-11.1167
貺	-11.1167
祖宗之法	-11.1168
大學	-11.1168
摇	-11.1168
天下事	-11.1169
泯	-11.117
投誠	-11.1171
復以	-11.1171
去則	-11.1172
䙝	-11.1172
吕公著	-11.1172
地方事務	-11.1173
功成	-11.1173
飯食	-11.1174
校尉	-11.1176
矣然而	-11.1177
歆	-11.1178
並宜	-11.1179
重困	-11.1179
之嫌	-11.118
毋致	-11.1181
著該部	-11.1182
長短	-11.1185
以制	-11.1185
聖君	-11.1189
上負	-11.1189
仰給	-11.1193
於是乎	-11.1197
世道	-11.1199
通飭	-11.1201
緝拏	-11.1201
水火	-11.1205
欽遵在案	-11.1209
總河	-11.1209
制錢	-11.121
與我	-11.121
兇惡	-11.1211
學術	-11.1211
奏對	-11.1212
務為	-11.1214
患病	-11.1215
臣子之	-11.1215
堆	-11.1215
倒死	-11.1221
昨日	-11.1222
宵	-11.1223
瞞	-11.1224
軾	-11.1225
候補	-11.1225
棲	-11.1227
殿最	-11.1227
遑	-11.1227
雷霆	-11.1228
朕心深為	-11.1229
不清	-11.123
愷	-11.123
安樂	-11.1231
公平	-11.1232
調劑	-11.1234
又查	-11.1234
通行曉諭	-11.1235
若令	-11.1238
放免	-11.1238
不到	-11.124
致太平	-11.1244
尤不可	-11.1246
汛地	-11.1247
中庸	-11.125
恣意	-11.1254
祖考	-11.1254
黄水	-11.1254
輿論	-11.1254
過半	-11.1257
關中	-11.1257
各舉	-11.1259
變更	-11.126
有禆益	-11.1261
羣生	-11.1263
本欲	-11.1263
山東廵撫	-11.1264
以公	-11.1266
應令	-11.1269
王者之	-11.127
者以其	-11.1271
指名	-11.1273
者甚衆	-11.1275
改悔	-11.1278
書吏	-11.128
模	-11.128
遯	-11.1281
以收	-11.1283
其初	-11.1284
鄉試	-11.1284
弋	-11.1285
治河	-11.1286
爐	-11.1286
鞏昌	-11.1287
㦸	-11.1287
琪	-11.1287
朦混	-11.1287
並依	-11.1289
開陳	-11.1289
並進	-11.1289
朝廷之上	-11.1291
此固	-11.1292
粉	-11.1292
漢唐之	-11.1293
年分	-11.1294
撥兵	-11.1294
區畫	-11.1294
嬖	-11.1295
飢寒	-11.1295
保薦	-11.1296
愛憎	-11.1296
雖云	-11.1296
補報	-11.1297
朱綱	-11.1298
漆	-11.13
虧欠	-11.13
重加	-11.1301
一并	-11.1303
歸併	-11.1305
衝決	-11.1308
清軍	-11.1311
大有裨益	-11.1312
惻然	-11.1312
者何也	-11.1312
上江	-11.1313
更無	-11.1316
研	-11.1316
親臨	-11.1317
無備	-11.1319
潮州	-11.132
畏威	-11.132
何異	-11.1321
今查	-11.1322
巡視	-11.1323
輓	-11.1325
涼州	-11.1327
十五萬	-11.1327
則易	-11.1328
深可	-11.1331
足為	-11.1331
第五	-11.1332
倍於	-11.1336
科目	-11.1336
預先	-11.1337
開列	-11.1339
其所長	-11.1339
倉儲	-11.1339
浙西	-11.1341
是否可行	-11.1344
摯	-11.1345
違者	-11.1345
百度	-11.1346
淡	-11.1346
狩	-11.1346
鄜延	-11.1347
機㑹	-11.135
轅	-11.135
或致	-11.135
繁劇	-11.1351
陸贄	-11.1351
厄	-11.1352
命往	-11.1354
水路	-11.1355
塌	-11.1355
廷尉	-11.1357
𬒳	-11.1357
牧守	-11.1357
曰卿	-11.1359
暴露	-11.1361
賜之	-11.1362
潢	-11.1362
韓維	-11.1364
出洋	-11.1364
修撰	-11.1365
不前	-11.1365
右侍郎	-11.1365
臣愚欲乞	-11.1367
協理	-11.1369
營守備	-11.1372
召還	-11.1373
安在	-11.1378
打死	-11.1379
諸大臣	-11.1381
文冊	-11.1385
盡皆	-11.1385
縱横	-11.1386
奏曰臣聞	-11.1387
查審	-11.1388
如舊	-11.1388
大臣官員	-11.1388
𠞰撫	-11.1392
採辦	-11.1393
保䕶	-11.1396
以上者	-11.1398
毫釐	-11.1399
衰老	-11.14
廖	-11.1401
棚	-11.1401
入寇	-11.1404
力不能	-11.1404
自省	-11.1406
南面	-11.1406
嘯聚	-11.1408
髮	-11.1408
田産	-11.1408
首報	-11.1409
朗	-11.1409
鏡	-11.1411
霄	-11.1412
桀	-11.1412
二百五十	-11.1413
有加	-11.1414
左侍郎	-11.1415
殆盡	-11.1415
祥瑞	-11.1416
誠實	-11.1416
上諭曰	-11.1418
政教	-11.1419
仰見	-11.1423
銀二萬	-11.1426
七萬	-11.1426
茍非	-11.1431
一級	-11.1432
一隅	-11.1432
之過也	-11.1432
七人	-11.1435
大王	-11.1436
上章	-11.1438
國威	-11.144
乗間	-11.1441
捕盜	-11.1443
兩漢	-11.1444
侍讀	-11.1444
門下侍郎	-11.1444
門户	-11.1446
考校	-11.1447
不可廢	-11.1448
使陛下	-11.1448
講論	-11.1448
朝野	-11.1449
覲	-11.145
恩威	-11.145
邪說	-11.145
取信	-11.145
遂有	-11.1452
正論	-11.1452
誠如	-11.1454
自能	-11.1457
利弊	-11.1458
加罪	-11.1459
後有	-11.1459
成熟	-11.1459
㕘革	-11.1459
膏血	-11.1461
穵	-11.1462
不悟	-11.1462
節文	-11.1464
尊崇	-11.1466
保奏	-11.1467
額森	-11.1468
歐陽脩	-11.1468
建中	-11.1468
溫	-11.147
縛	-11.147
推舉	-11.1472
衙署	-11.1475
不諱	-11.1475
諸葛亮	-11.1476
叅劾	-11.1477
二千餘	-11.1479
沿邉	-11.1479
在在	-11.1479
全省	-11.1481
維艱	-11.1481
名糧	-11.1482
艘	-11.1483
精選	-11.1484
發往	-11.1484
百僚	-11.1486
過當	-11.1489
惶懼	-11.149
經略	-11.149
犯人	-11.1492
一概	-11.1492
計者	-11.1492
飭行	-11.1495
留任	-11.1496
罷斥	-11.1497
虞舜	-11.1499
名數	-11.1501
咨爾	-11.1502
以勵	-11.1504
舊額	-11.1505
提解	-11.1507
不係	-11.1509
深信	-11.1509
小的	-11.1509
之事也	-11.1511
家屬	-11.1511
給由	-11.1512
卓然	-11.1514
不敢輕	-11.1517
私自	-11.152
展轉	-11.152
太史	-11.1521
相宜	-11.1521
天災	-11.1521
串	-11.1524
堅守	-11.1524
無甚	-11.1525
從中	-11.1525
二等	-11.1526
勤於	-11.1526
張坦麟	-11.1527
五百餘	-11.1528
二道	-11.1528
上有	-11.1528
世宗憲皇帝上諭内閣	-11.153
瑗	-11.153
知朝廷	-11.1532
彦博	-11.1533
醉	-11.1535
支放	-11.1536
恩命	-11.1537
吏部侍郎	-11.1539
端拱	-11.1539
畿甸	-11.154
謹奏為奏聞事竊照	-11.154
巫	-11.1541
此人	-11.1541
㕘處	-11.1542
其惡	-11.1542
大辟	-11.1543
轉對	-11.1544
亦是	-11.1545
召見	-11.1548
張文	-11.1549
須至	-11.1549
瞻徇	-11.155
正官	-11.1551
亢旱	-11.1552
又當	-11.1554
欺君	-11.1555
歴練	-11.1557
西海	-11.1557
仍於	-11.1558
共該	-11.1559
岳州	-11.1563
等寨	-11.1563
客兵	-11.1566
廵按	-11.1567
捧到	-11.157
謹奏為奏聞事	-11.1571
恭繳	-11.1572
造報	-11.1573
禧	-11.1575
宗正	-11.1576
寡人	-11.1577
不減	-11.158
不軌	-11.1581
能知	-11.1582
所過	-11.1583
督撫等	-11.1584
派撥	-11.1586
疏通	-11.1586
廵查	-11.1587
隨於	-11.1587
㑹審	-11.1588
畿内	-11.1589
鎮標	-11.1589
深憂	-11.159
䆒	-11.1592
苴	-11.1593
縻	-11.1593
萬歴	-11.1595
出而	-11.1596
霽	-11.1597
向来	-11.1597
穰	-11.1599
巡捕	-11.1599
淺陋	-11.16
檄飭	-11.16
之休	-11.1602
成效	-11.1603
存案	-11.1606
騷然	-11.1607
其衆	-11.1608
受害	-11.1608
熙寧	-11.1611
疆界	-11.1612
太師	-11.1613
更化	-11.1613
及照	-11.1614
各道	-11.1614
此處	-11.162
交盤	-11.1622
子女	-11.1625
利民	-11.1625
購買	-11.1626
敕下	-11.163
昊	-11.1631
不足為	-11.1632
抵補	-11.1633
又奏曰臣	-11.1635
為憂	-11.1639
朕於	-11.1641
桿	-11.1644
接受	-11.1645
一人而	-11.1645
已乆	-11.1646
支領	-11.1648
乞行	-11.1648
堯之	-11.1649
素無	-11.1652
有誤	-11.1654
自愛	-11.1655
恭謝	-11.1657
舉者	-11.1657
包攬	-11.1658
霈	-11.1658
㽞	-11.1659
多故	-11.1659
肻	-11.1659
豹	-11.166
文辭	-11.166
賁	-11.1661
小有	-11.1661
弓箭手	-11.1662
瘴	-11.1662
伏乞睿鑒	-11.1663
銃	-11.1665
曜	-11.1665
漳州	-11.1666
該本部題	-11.1671
無容	-11.1674
悔過	-11.1679
各工	-11.1679
曽無	-11.168
大學士等	-11.1682
窮困	-11.1684
具在	-11.1684
保安	-11.1686
成規	-11.1688
不生	-11.1689
之神	-11.1693
乗機	-11.1695
也臣竊	-11.1696
何其	-11.1697
禦戎	-11.1699
晚稻	-11.1701
虛名	-11.1701
寺監	-11.1703
民事	-11.1703
守忠	-11.1704
警戒	-11.1705
罰俸	-11.1706
收拾	-11.1712
政事之	-11.1713
不敢自	-11.1714
璘	-11.1715
毓	-11.1717
愿	-11.1718
枚	-11.1718
箱	-11.1718
都監	-11.1719
濤	-11.172
蒐	-11.172
是陛下	-11.1721
聖帝明王	-11.1721
訥	-11.1722
裹	-11.1722
夷民	-11.1722
大敗	-11.1726
盛衰	-11.1726
顛倒	-11.1726
貨財	-11.1726
大成	-11.1727
質審	-11.1727
以佐	-11.1728
限以	-11.1729
天下國家	-11.173
功罪	-11.1732
安瀾	-11.1733
教職	-11.1734
古制	-11.1736
民壯	-11.1737
守巡	-11.174
土府	-11.1741
樞宻使	-11.1742
可矜	-11.1742
明王	-11.1744
勉為之	-11.1747
臣敢	-11.1748
三邊	-11.1748
於戲	-11.1749
始知	-11.175
任其責	-11.1752
出示	-11.1752
與大臣	-11.1752
不細	-11.1758
工匠	-11.176
其或	-11.176
格天	-11.176
臣甞	-11.1761
勤求	-11.1761
且令	-11.1761
鹽規	-11.1761
中興之	-11.1764
新命	-11.1765
可封	-11.1766
此等事	-11.1767
可任	-11.1769
也又曰	-11.177
布置	-11.177
學臣	-11.1771
相近	-11.1771
營中	-11.1772
酉	-11.1772
行據	-11.1773
新進	-11.1774
四縣	-11.1776
嬪	-11.1777
散賑	-11.1777
蹤跡	-11.1779
不謂	-11.1781
劍	-11.1782
臣之言	-11.1783
軸	-11.1783
主客	-11.1784
光禄寺	-11.1784
之惡	-11.1785
考驗	-11.1785
睹	-11.1785
好學	-11.1786
中書舎人	-11.1787
侍衞	-11.1788
火器	-11.1788
拒捕	-11.1789
儆戒	-11.1792
目覩	-11.1792
昌言	-11.1794
上官	-11.1795
此臣所謂	-11.1795
據各屬	-11.1798
生業	-11.1799
狂悖	-11.1799
此二人	-11.18
陛下既	-11.1801
而後已	-11.1802
造就	-11.1806
特與	-11.1808
桓公	-11.1809
者無不	-11.181
安業	-11.1811
出外	-11.1812
舉官	-11.1814
知識	-11.1815
唯恐	-11.1816
十倍	-11.1816
兵弁	-11.1818
國子	-11.182
食用	-11.182
平陽	-11.1822
奉承	-11.1824
資序	-11.1824
以進	-11.1825
何暇	-11.1826
孰為	-11.1826
正言	-11.1827
瞭	-11.1828
大赦	-11.1829
至徳	-11.1834
拖	-11.1835
非謂	-11.1835
商議	-11.1836
之澤	-11.1836
體訪	-11.1837
斬獲首級	-11.1838
以紓	-11.184
人地相宜	-11.184
聆	-11.184
三朝	-11.1842
瀘	-11.1843
從諫	-11.1843
申嚴	-11.1844
阿克敦	-11.1845
以戒	-11.1845
藐	-11.1846
彌縫	-11.1846
樂於	-11.1846
帷幄	-11.1847
濡	-11.1848
不繼	-11.1849
有異	-11.1849
抗拒	-11.185
誚	-11.1851
䕫	-11.1852
故違	-11.1852
澗	-11.1855
文武官	-11.1857
皆無	-11.1858
盡知	-11.1861
本身	-11.1861
鎗礮	-11.1863
可惡	-11.1863
年月	-11.1863
不乏	-11.1864
外今	-11.1866
以南	-11.1867
古人有言	-11.1868
斥逐	-11.1869
給賞	-11.187
臺省	-11.1871
共有	-11.1872
縣丞	-11.188
拔擢	-11.188
聖駕	-11.1881
武功	-11.1885
有力	-11.1885
慶元	-11.1887
至明	-11.1887
憂懼	-11.1887
練達	-11.1888
得實	-11.1889
又准	-11.1889
物價	-11.1889
該衙門	-11.1889
河南山東	-11.1891
詳查	-11.1892
本非	-11.1895
禮也	-11.1895
臨安	-11.1898
譴責	-11.1898
委令	-11.1899
黎平	-11.1899
不為不	-11.1903
九品	-11.1903
相通	-11.1904
奮勵	-11.1904
玖	-11.1905
繞	-11.1906
𤣥宗	-11.1908
芝	-11.1908
之首	-11.1909
對敵	-11.1912
憲章	-11.1912
爪牙	-11.1913
此例	-11.1913
三州	-11.1913
一營	-11.1914
起送	-11.1914
優渥	-11.1914
鑲	-11.1914
彈劾	-11.1915
以懲	-11.1919
知悉	-11.192
均屬	-11.1921
慶賀	-11.1925
上奏曰臣伏見	-11.1927
忘其	-11.1931
共濟	-11.1936
銓選	-11.1938
親近	-11.194
指實	-11.1943
等件	-11.1943
度日	-11.1945
乃知	-11.1952
慮其	-11.1955
未行	-11.196
大江	-11.1962
論思	-11.1963
後效	-11.1964
今國家	-11.1965
所屬地方	-11.1965
姦謀	-11.1966
穫	-11.1966
難知	-11.1966
安輯	-11.1967
之擾	-11.197
延州	-11.197
仰懇聖恩	-11.1971
右副都御史	-11.1971
國課	-11.1972
之愛	-11.1973
嚴加議處	-11.1973
不達	-11.1974
佇	-11.1975
墟	-11.1975
接准部咨	-11.1975
参	-11.1975
軍伍	-11.1976
頭緒	-11.1977
斯言	-11.1977
撙節	-11.1978
革退	-11.1979
踐阼	-11.1979
已見	-11.198
遐邇	-11.198
委以	-11.1981
兩處	-11.1981
統兵	-11.1982
也國家	-11.1982
以法	-11.1982
妣	-11.1983
副總河	-11.1984
敢於	-11.1984
大利	-11.1985
砌	-11.1986
以仰報	-11.1986
勉之勉之	-11.1989
相仍	-11.1989
已甚	-11.1989
奸弊	-11.199
邪佞	-11.199
章疏	-11.199
親丁	-11.1991
以北	-11.1993
北路	-11.1994
銖	-11.1996
安縣	-11.1999
力役	-11.1999
銀三萬	-11.2
軍職	-11.2
事多	-11.2002
長乆	-11.2003
㡬何	-11.2006
猶在	-11.2009
憲德	-11.201
為甚	-11.2011
州屬	-11.2012
但見	-11.2016
二錢	-11.2018
前撫	-11.2018
價値	-11.2019
物件	-11.202
蠲除	-11.202
當與	-11.2021
此正	-11.2021
親親	-11.2023
于兹	-11.2023
不符	-11.2025
銀共	-11.2027
始末	-11.2028
惟新	-11.2031
離間	-11.2031
外患	-11.2031
竭忠	-11.2032
始行	-11.2033
今来	-11.2034
侔	-11.2034
埠	-11.2036
東漢	-11.2037
一統	-11.2037
禦之	-11.2037
疫	-11.2037
箕	-11.2038
通事	-11.2039
磚	-11.2041
而任之	-11.2041
兢兢業業	-11.2042
滄	-11.2042
星馳	-11.2043
伏望聖明	-11.2043
恩信	-11.2044
衿	-11.2044
親自	-11.2044
改元	-11.2044
駿	-11.2045
密行	-11.2047
疆埸	-11.2048
其主	-11.2048
戯	-11.2048
如彼	-11.2049
唐大詔令集巻	-11.2049
比年以來	-11.205
謀之	-11.2051
聞得	-11.2053
不惑	-11.2054
悚惶	-11.2055
尚能	-11.2056
去留	-11.2057
器用	-11.206
往者	-11.2061
便利	-11.2062
輿情	-11.2063
威逺	-11.2066
果係	-11.2068
貴乎	-11.2071
著為	-11.2073
此盖	-11.2075
餉銀	-11.2076
安居	-11.2077
湖水	-11.2078
管内	-11.2081
漢宣帝	-11.2083
納忠	-11.2084
元符	-11.2085
不可輕	-11.2086
備行	-11.2088
分發	-11.2089
外人	-11.2092
西人	-11.2093
能員	-11.2093
恭繳硃批	-11.2095
一帶地方	-11.2095
六曹	-11.2098
量其	-11.2099
推行	-11.21
發回	-11.2103
按季	-11.2104
蔚	-11.2104
蟻	-11.2104
文公	-11.2104
嘿	-11.2105
諸公	-11.2105
電	-11.2105
五府	-11.2106
不完	-11.2106
絡繹	-11.2106
湟	-11.2106
鞠	-11.2108
鏤	-11.2109
其親	-11.211
臘	-11.211
帑藏	-11.2111
青苖	-11.2113
輅	-11.2113
惟當	-11.2115
毁譽	-11.2116
理合繕摺奏聞	-11.2117
五事	-11.2117
永久	-11.2119
川陜	-11.2121
城寨	-11.2121
一十六	-11.2121
田疇	-11.2122
不悛	-11.2123
之所當	-11.2124
强盜	-11.2134
賜以	-11.2135
以臣言為	-11.2136
艱食	-11.2136
雍正	-11.2139
女真	-11.2139
捕役	-11.2139
海運	-11.214
未息	-11.214
為貴	-11.2141
損壊	-11.2141
過人	-11.2146
果否	-11.2147
釋之	-11.2148
語曰	-11.215
之價	-11.2151
其患	-11.2151
皇皇	-11.2156
擾累	-11.2156
大用	-11.2156
建造	-11.2157
復見	-11.2158
安西	-11.2158
李光	-11.2159
與一子	-11.216
可采	-11.2162
者已	-11.2164
文徳	-11.2165
理藩院	-11.2166
查弼納	-11.2166
謹奏為奏明事竊	-11.2167
日有	-11.2167
餬口	-11.2167
若係	-11.2168
纘	-11.2168
袒	-11.2169
邏	-11.217
貽悞	-11.2171
郢	-11.2172
何至	-11.2172
訕	-11.2173
料物	-11.2174
筵	-11.2175
謹奏為恭謝天恩事竊	-11.2175
禮部尚書	-11.2175
精鋭	-11.2176
鈎	-11.2177
鷹	-11.2178
閹	-11.2179
自保	-11.2179
可汗	-11.218
朝覲	-11.218
控告	-11.218
未能盡	-11.2182
殊不	-11.2185
遷善	-11.2185
而不顧	-11.2186
慨然	-11.2186
不過數	-11.2186
去邪	-11.2187
隣省	-11.2187
旬月	-11.2188
而後可	-11.2189
方其	-11.219
漢武	-11.2192
例該	-11.2193
懲戒	-11.2194
先次	-11.2196
軍機	-11.2196
三鎮	-11.2196
大國	-11.2197
調兵	-11.2198
臨陣	-11.2198
但係	-11.2199
國政	-11.22
積累	-11.22
應照	-11.2208
謹具	-11.2209
督理	-11.2209
之微	-11.221
䝉我皇上	-11.2212
刑政	-11.2213
儒者	-11.2215
長寨	-11.2216
於我	-11.2217
累日	-11.2218
入仕	-11.2218
既往	-11.2219
熟練	-11.2221
之境	-11.2221
乂安	-11.2222
乃為	-11.2225
進見	-11.2225
所定	-11.223
勾當	-11.2231
奏疏	-11.2234
率兵	-11.2235
非時	-11.2235
承㫖	-11.2236
晟	-11.2236
百計	-11.2236
一缺	-11.2237
宣徳	-11.2237
黃河	-11.2239
四百餘	-11.2239
萬餘石	-11.2239
滋長	-11.224
怡	-11.2241
指使	-11.2242
掾	-11.2243
真宗皇帝	-11.2243
綰	-11.2243
捐軀	-11.2243
六合	-11.2244
甲寅	-11.2246
五寸	-11.2246
廸	-11.2247
太上皇	-11.2248
在家	-11.2248
邉鄙	-11.2249
輪流	-11.2249
愛戴	-11.2253
故雖	-11.2254
増添	-11.2254
上諭兵部	-11.2257
領軍	-11.2257
殺害	-11.2258
日夕	-11.2259
持節	-11.2259
文員	-11.226
天降	-11.2263
抑或	-11.2263
其門	-11.2264
耳若	-11.2266
先帝之	-11.2266
民風	-11.2266
又稱	-11.2267
刻薄	-11.2268
所患	-11.2269
要將	-11.2272
素所	-11.2273
多所	-11.2275
千餘里	-11.2275
三員	-11.2279
為災	-11.2279
未審	-11.2281
一顆	-11.2287
用為	-11.2287
當有	-11.2289
母子	-11.2289
附和	-11.229
原委	-11.229
可復	-11.2293
言動	-11.2295
賊勢	-11.2296
秧	-11.2296
粵	-11.2297
驛遞	-11.2298
其權	-11.2298
時務	-11.23
提學	-11.2301
所属	-11.2303
葦	-11.2303
線	-11.2304
扆	-11.2304
舜民	-11.2304
上封事	-11.2305
終於	-11.2305
郵	-11.2306
种	-11.2307
竦	-11.2308
疆場	-11.2308
設或	-11.2309
伏乞聖明	-11.2311
五等	-11.2312
閭里	-11.2313
在人	-11.2314
裴度	-11.2316
厯年	-11.2317
律令	-11.2317
東向	-11.2317
儹	-11.2318
具詳	-11.232
公著	-11.2321
仰邀	-11.2321
至深	-11.2323
按律	-11.2324
至日	-11.2324
輕舉	-11.2328
亡國	-11.2329
外夷	-11.233
征討	-11.2331
各自	-11.2331
應付	-11.2331
夏國	-11.2332
必有所	-11.2333
䝉蔽	-11.2334
其禍	-11.2337
豐熟	-11.2337
追賠	-11.2338
茍不	-11.234
實政	-11.2341
國無	-11.2344
無乃	-11.2344
永昌	-11.2344
硃批奏摺	-11.2346
一任	-11.2347
胥役	-11.2347
草料	-11.2349
光明	-11.2352
選任	-11.2353
捐納	-11.2354
務本	-11.2354
管河道	-11.2356
大敵	-11.2357
之幸也	-11.236
章䟽	-11.2361
神人	-11.2361
爲此	-11.2363
不變	-11.2364
銀二十	-11.2365
可稱	-11.2366
封疆大吏	-11.2367
早禾	-11.2367
嚴刑	-11.2368
富者	-11.2369
犒賞	-11.2369
四月内	-11.237
馴致	-11.237
作過	-11.237
濠	-11.237
猶以為	-11.2371
栢	-11.2371
未有如	-11.2371
駑	-11.2371
覬覦	-11.2371
所以致	-11.2372
貎	-11.2372
居多	-11.2374
戚繼光	-11.2376
無逸	-11.2378
三十四	-11.2379
去而	-11.238
竝非	-11.2381
蓋以	-11.2382
未必能	-11.2382
迺	-11.2382
可期	-11.2383
歎息	-11.2385
來説	-11.2386
豈不知	-11.2387
仁厚	-11.2388
俯念	-11.2389
之事而	-11.2389
正道	-11.239
為陛下言之	-11.239
無誤	-11.2391
之朝	-11.2391
倒置	-11.2393
提舉官	-11.2393
所與	-11.2394
左右前後	-11.2396
零星	-11.2396
智勇	-11.2397
無如	-11.2401
一律	-11.2403
遺漏	-11.2404
使令	-11.2404
臣聞之	-11.2405
親賢	-11.2405
泉州	-11.2406
亦為	-11.2408
可見矣	-11.241
調治	-11.241
延安	-11.2411
殺戮	-11.2411
戒飭	-11.2412
朝臣	-11.2413
非是	-11.2413
每名	-11.2418
不寧	-11.2419
増置	-11.2421
神器	-11.2422
其大者	-11.2422
車馬	-11.2423
不充	-11.2424
此議	-11.2424
誠意	-11.2426
親行	-11.2426
嗣據	-11.2427
體朕	-11.2428
全不	-11.2429
藏之	-11.243
方鎮	-11.2431
恃其	-11.2432
瑋	-11.2433
楊宗仁	-11.2433
亦經	-11.2434
奮發	-11.2436
無賴	-11.2436
於雍正六年	-11.2438
餧養	-11.2438
藪	-11.2438
之條	-11.2439
鑰	-11.244
哉陛下	-11.244
蕩平	-11.2441
柵	-11.2441
豕	-11.2441
齊集	-11.2442
沸騰	-11.2442
樞宻副使	-11.2443
比來	-11.2443
徒為	-11.2444
旗丁	-11.2445
團練	-11.2445
或遇	-11.2446
陞補	-11.2446
營求	-11.2446
之固	-11.2448
彫	-11.2448
所失	-11.2449
題奉聖㫖	-11.2449
血氣	-11.2454
流言	-11.2454
威寧	-11.2463
若復	-11.2464
同中書門下平章事	-11.2466
所望	-11.2467
黄鍾	-11.2471
之賢否	-11.2471
並與	-11.2473
明示	-11.2474
工完	-11.2476
生發	-11.2477
勿令	-11.2478
二丈	-11.2478
密諭	-11.2482
可成	-11.2483
别立	-11.2484
據實覆奏	-11.2486
文景	-11.2486
百執事	-11.2487
秋審	-11.2489
均平	-11.2491
之信	-11.2491
盖亦	-11.2491
頻年	-11.2493
叅議	-11.2494
防䕶	-11.2495
精明	-11.2495
則無以	-11.2495
起科	-11.2495
令典	-11.2496
至聖	-11.2496
三十九	-11.2497
濕	-11.2499
諄	-11.25
鎮逺	-11.2502
址	-11.2502
欽若	-11.2503
天和	-11.2505
於此時	-11.2506
癸丑	-11.2506
專司	-11.2506
淮甸	-11.2507
仰慰聖懐	-11.2508
薊鎮	-11.2509
窒	-11.2509
應於	-11.2509
㑹題	-11.2512
理合繕摺奏聞謹奏	-11.2512
事干	-11.2512
河東總督	-11.2513
孟軻	-11.2513
又皆	-11.2514
之輕重	-11.2514
分投	-11.2516
以輔	-11.2517
未協	-11.2519
親信	-11.2519
大宗	-11.2519
感悟	-11.252
定為	-11.252
根究	-11.2522
歴來	-11.2523
讜言	-11.2523
復舊	-11.2524
文册	-11.2532
開言路	-11.2534
六曰	-11.2535
築堤	-11.2536
蒙古	-11.2536
之手	-11.2536
非一日	-11.2537
原設	-11.2538
究擬	-11.2538
則不然	-11.2538
徇庇	-11.2541
陞遷	-11.2543
士習	-11.2544
邪説	-11.2546
候㫖	-11.2547
現存	-11.2548
以待之	-11.2548
必加	-11.2549
繕疏	-11.2549
石工	-11.2551
異常	-11.2551
准此	-11.2551
毎遇	-11.2551
慶陽	-11.2553
致使	-11.2554
付以	-11.2557
取利	-11.2558
六事	-11.2558
居中	-11.2559
大行	-11.256
職等	-11.256
之號	-11.2561
猶且	-11.2561
失當	-11.2563
宗族	-11.2563
所不免	-11.2563
舉兵	-11.2565
未足以	-11.2566
陛下即位	-11.2567
奭	-11.2568
各衛	-11.2569
欲行	-11.2573
聖治	-11.2574
芒	-11.2576
出首	-11.2577
鯁	-11.2578
棘	-11.2579
禳	-11.2579
難免	-11.2582
曰昔	-11.2583
屢有	-11.2583
而已今	-11.2584
衆口	-11.2584
務從	-11.2584
壬子	-11.2584
未立	-11.2584
之萬一	-11.2586
之疑	-11.2587
建炎	-11.2588
既行	-11.2589
當此之時	-11.259
遴	-11.259
山水	-11.2591
得其人則	-11.2594
五月内	-11.2595
欽哉	-11.2595
在邊	-11.2596
皆言	-11.2598
地丁	-11.26
鎮巡	-11.2601
謹奏竊	-11.2602
乞休	-11.2605
之罪也	-11.2608
亦與	-11.2611
禮經	-11.2615
又䝉	-11.2615
竊慮	-11.2616
於道	-11.2617
益深	-11.2618
今巳	-11.2619
大孝	-11.2626
修德	-11.2627
光景	-11.2628
以警	-11.2628
條目	-11.263
一鎮	-11.2632
大聖	-11.2632
警懼	-11.2634
二百四十	-11.2634
安設	-11.2634
推廣	-11.2637
乃能	-11.2638
查究	-11.2638
百倍	-11.2638
柏	-11.2639
輾轉	-11.264
六里	-11.2642
黄炳	-11.2642
厦門	-11.2643
朕必	-11.2643
覓	-11.2644
西藏	-11.2645
眩	-11.2646
撿	-11.2648
其責	-11.2648
為數	-11.265
無忌	-11.265
魏晉	-11.265
帷	-11.2651
跨	-11.2651
俱無	-11.2651
照臨	-11.2657
之便	-11.2659
避嫌	-11.2659
伏聞	-11.266
欽恤	-11.2664
以仰副	-11.2666
違例	-11.2667
無弊	-11.2669
曽不	-11.2669
矜全	-11.2669
為盜賊	-11.2671
帶徵	-11.2674
安知	-11.2674
寢食	-11.2675
遽行	-11.2675
漢髙祖	-11.2675
交部	-11.2676
量移	-11.2677
流弊	-11.2678
節年	-11.2681
開採	-11.2683
邉方	-11.2683
四十八	-11.2684
臣庶	-11.2686
旋即	-11.2686
審察	-11.2687
迴	-11.2687
非但	-11.2687
謂朝廷	-11.2692
小過	-11.2693
得天下	-11.2693
實數	-11.2695
欲得	-11.2695
軍糧	-11.2696
孰敢	-11.2696
乃復	-11.2696
變易	-11.2696
借支	-11.2697
達於	-11.2698
效尤	-11.2699
不可不察也	-11.27
臣竊以為	-11.2701
載籍	-11.2705
中使	-11.2705
徒有	-11.2705
餌	-11.2708
秤	-11.2711
霧	-11.2712
甦	-11.2713
猖狂	-11.2713
蜂	-11.2713
謡	-11.2713
何人斯	-11.2714
文武官弁	-11.2715
土目	-11.2715
廟堂之上	-11.2715
兩江	-11.2716
老臣	-11.2716
加一	-11.2717
灌溉	-11.2717
壅滯	-11.2718
旗軍	-11.2718
聖世	-11.2718
宜乎	-11.2718
姦匪	-11.2719
斜	-11.272
查豫省	-11.2721
其氣	-11.2721
禾苗	-11.2721
已於	-11.2722
敷奏	-11.2722
乾坤	-11.2724
稀少	-11.2725
惠卿	-11.2725
不愧	-11.2726
行止	-11.2726
俱未	-11.2731
取㫖	-11.2732
嚴明	-11.2737
疑惑	-11.2738
相兼	-11.2739
庸材	-11.2739
君道	-11.2739
徐徐	-11.2744
陳請	-11.2745
廬舍	-11.2746
時事	-11.2747
非輕	-11.2747
基業	-11.2747
道德	-11.2747
該州縣	-11.275
遴委	-11.2752
親加	-11.2754
臣伏聞	-11.2755
有違	-11.2755
君親	-11.2755
面加	-11.2756
衆庶	-11.2759
額數	-11.2761
廵撫印務	-11.2762
今世	-11.2762
上元	-11.2764
侍臣	-11.2767
講明	-11.2769
每歲	-11.2771
櫃	-11.2774
該旗	-11.2775
瘁	-11.2775
盡矣	-11.2775
當否	-11.2777
軍門	-11.2779
商船	-11.278
人衆	-11.2781
碍	-11.2781
咽喉	-11.2782
列於	-11.2782
四凶	-11.2784
斛斗	-11.2784
淚	-11.2784
玠	-11.2784
六名	-11.2786
不煩	-11.2786
令伊	-11.2786
由此觀之	-11.2787
辛亥	-11.2787
發帑	-11.2789
中宗	-11.2789
金陵	-11.2794
搏	-11.2795
所擬	-11.28
恭摺	-11.2801
冒濫	-11.2804
罔極	-11.2805
前史	-11.2808
已過	-11.2809
舊日	-11.2809
齎摺家人回	-11.281
此道	-11.281
宣仁	-11.281
庶民	-11.2812
神主	-11.2812
米價每石	-11.2813
元江	-11.2814
文宗	-11.2814
不幸而	-11.2815
振作	-11.2816
當年	-11.2816
本營	-11.2818
深恐	-11.2818
開濬	-11.2818
軫恤	-11.2819
匪人	-11.2819
相持	-11.2819
不可失	-11.2822
大害	-11.2822
太多	-11.2823
伏秋	-11.2824
罪已	-11.2825
焉夫	-11.2825
澳	-11.2825
非人	-11.2829
寛裕	-11.283
言職	-11.283
其忠	-11.283
滋擾	-11.2831
乆之	-11.2831
糧食	-11.2832
之怒	-11.2834
親屬	-11.2834
勸勉	-11.2835
道士	-11.2835
業巳	-11.2837
司府	-11.2838
販賣	-11.284
難安	-11.2842
用力	-11.2843
賊犯	-11.2844
問擬	-11.2846
嘉納	-11.2846
詐偽	-11.2849
三營	-11.2849
千二百	-11.285
覔	-11.285
逝	-11.2851
鄉民	-11.2851
稍稍	-11.2852
素著	-11.2852
兔	-11.2853
絀	-11.2857
孝悌	-11.2858
張方平	-11.2858
素稱	-11.286
强敵	-11.286
封爵	-11.286
七十餘	-11.286
此軰	-11.2867
地分	-11.2867
儀注	-11.2867
求去	-11.2869
之愆	-11.287
多至	-11.287
今當	-11.287
甲辰	-11.2871
五路	-11.2875
擊之	-11.2876
天下之治	-11.2877
上件	-11.2878
引咎	-11.288
即使	-11.2881
不可一日	-11.2882
伏祈	-11.2891
明文	-11.2892
方始	-11.2892
大節	-11.2894
以塞	-11.2894
封疆大臣	-11.2899
聖化	-11.29
次年	-11.2901
調理	-11.2902
唯陛下	-11.2902
也方今	-11.2905
萬分	-11.2906
誠非	-11.2908
若何	-11.2909
以罪	-11.291
河口	-11.291
邉防	-11.2911
備禮	-11.2912
不可謂	-11.2912
英斷	-11.2915
􁞽	-11.2917
諫臣	-11.2917
勢要	-11.2917
瘞	-11.2921
呌	-11.2921
丙午	-11.2922
扎薩克	-11.2922
煽惑	-11.2923
憊	-11.2923
荷䝉聖恩	-11.2925
茶馬	-11.2925
控扼	-11.2926
不厭	-11.2926
蕪	-11.2927
澶淵	-11.293
殫心	-11.2931
小則	-11.2933
不肖者	-11.2933
奬勵	-11.2933
嶺南	-11.2934
欽定四庫全書世宗憲皇帝上諭内閣卷	-11.2935
巾	-11.2935
王制	-11.2935
相濟	-11.2936
及第	-11.2941
欺隠	-11.2943
相為	-11.2944
旭	-11.2944
遷徙	-11.2944
幸得	-11.2945
貽患	-11.2946
咨覆	-11.295
市價	-11.2951
其性	-11.2953
太皇太后陛下	-11.2953
桃源	-11.2953
咨送	-11.2953
生苗	-11.2956
有成效	-11.2957
查報	-11.2957
買辦	-11.2958
還項	-11.2959
國是	-11.296
奉到硃批	-11.296
部郎中	-11.2961
閏四月	-11.2961
出扵	-11.2962
皇上天恩	-11.2962
循良	-11.297
不納	-11.2971
京營	-11.2972
又查得	-11.2972
不敢復	-11.2973
多得	-11.2974
築城	-11.2976
所上	-11.2976
身故	-11.2979
無事則	-11.298
自盡	-11.2981
其黨	-11.2982
切責	-11.2983
安敢	-11.2984
拏問	-11.2987
宜兆熊	-11.2987
甚盛	-11.2989
安全	-11.299
之粟	-11.2991
自得	-11.2991
雍正十三年	-11.2993
􁱰	-11.2994
浄	-11.2994
無㡬	-11.2994
請命	-11.2994
瀚	-11.2994
贄	-11.2995
前在	-11.2995
張楷	-11.2995
未聞有	-11.2996
饌	-11.2997
矩	-11.2998
北郊	-11.2999
愬	-11.2999
僞	-11.3
搶去	-11.3001
陛辭	-11.3002
犯者	-11.3002
両	-11.3002
嘉悦	-11.3002
節該	-11.3002
分遣	-11.3004
内庫	-11.3008
宗祀	-11.3008
畏憚	-11.3009
興利	-11.3011
方行	-11.3011
妄為	-11.3013
以答	-11.3015
刑措	-11.3016
限期	-11.3018
三道	-11.3021
臣愚欲望聖慈	-11.3021
通查	-11.3021
灼然	-11.3022
省㑹	-11.3022
富國	-11.3023
頃刻	-11.3024
端方	-11.3025
保守	-11.3026
文武大臣	-11.3027
誰不	-11.3028
凡人	-11.3029
南康	-11.303
文理	-11.3031
東平	-11.3031
調任	-11.3032
威靈	-11.3033
其禮	-11.3034
城外	-11.3035
水漲	-11.3035
署事	-11.3037
狂愚	-11.3038
顧忌	-11.3038
躬自	-11.3038
未清	-11.304
通知	-11.3043
各令	-11.3044
遵即	-11.3044
西夏	-11.3044
接連	-11.3044
水手	-11.3046
律例	-11.3046
患在	-11.3047
量給	-11.3047
博訪	-11.305
法律	-11.3051
細事	-11.3052
預行	-11.3053
轉相	-11.3054
下江	-11.3056
專一	-11.3059
任重	-11.3059
在今日	-11.306
部署	-11.306
雨水調勻	-11.3061
䧏	-11.3061
南海	-11.3062
豈特	-11.3062
指揮使	-11.3063
特行	-11.3063
潼	-11.3064
平涼	-11.3064
伏祈皇上	-11.3065
為務	-11.3066
鄂彌達	-11.3066
而况	-11.3066
坍塌	-11.3068
陳情	-11.3068
在天之靈	-11.3069
役使	-11.307
無疆之休	-11.307
董仲舒	-11.3071
譲	-11.3073
依律	-11.3076
糶賣	-11.3076
一代	-11.3077
仁政	-11.3079
惶恐	-11.3079
用賢	-11.3081
營造	-11.3082
降黜	-11.3086
扶持	-11.3087
驅逐	-11.3089
萬㡬	-11.309
過河	-11.3091
配享	-11.3092
三十五	-11.3092
深悉	-11.3094
致理	-11.3094
查奏	-11.3095
并令	-11.3097
興國	-11.3097
令有司	-11.3097
治世	-11.3099
之耳目	-11.3099
冗食	-11.31
者未必	-11.3102
昌平	-11.3103
廂軍	-11.3103
將備	-11.3109
飛檄	-11.311
切齒	-11.3111
録用	-11.3112
大道	-11.3118
遂令	-11.3121
之報	-11.3123
採納	-11.3124
未平	-11.3125
唯有	-11.3126
急則	-11.3126
永無	-11.3126
天討	-11.3127
尚恐	-11.3127
可致	-11.3127
兼顧	-11.3128
日漸	-11.3134
府城	-11.3135
伏望聖慈特	-11.3136
趂	-11.3138
起復	-11.3138
瘦	-11.3139
雲貴總督	-11.314
雜糧	-11.314
擯	-11.314
薰	-11.3141
譴告	-11.3141
錠	-11.3143
字様	-11.3144
亦欲	-11.3144
愽	-11.3144
追補	-11.3145
湮	-11.3145
荀	-11.3145
為相	-11.3146
缺額	-11.3147
甄别	-11.3148
交趾	-11.3149
孝宗皇帝	-11.315
筠	-11.3151
大罪	-11.3154
書役	-11.3157
我皇考	-11.3162
撫標	-11.3163
死生	-11.3163
以給	-11.3165
年終	-11.3165
考績	-11.3166
勘明	-11.317
田野	-11.3171
允協	-11.3173
應時	-11.3174
應徵	-11.3175
也雖然	-11.3175
米每石	-11.3176
交相	-11.3179
隄備	-11.3182
得賢	-11.3182
即欲	-11.3186
必湏	-11.319
冀其	-11.3191
動衆	-11.3192
以獻	-11.3192
於正月	-11.3194
修建	-11.3195
陛下誠能	-11.3196
既成	-11.3199
青州	-11.3199
七十五	-11.32
召公	-11.3202
與敵	-11.3202
開府儀同三司	-11.3203
惑衆	-11.3204
外尚有	-11.3204
感應	-11.3204
蒙聖恩	-11.3205
恭呈御覽	-11.3205
務求	-11.3205
具文	-11.3206
監司郡守	-11.3206
都指揮僉事	-11.3207
岩	-11.3207
實授	-11.321
專委	-11.3211
居心行事	-11.3211
紬	-11.3212
設兵	-11.3213
紛擾	-11.3214
庚辰	-11.3215
教誨	-11.3215
言之則	-11.3216
隍	-11.3219
宜從	-11.322
大徳	-11.322
灾傷	-11.3222
三月内	-11.3223
銀數	-11.3224
考成	-11.3227
是宜	-11.3228
盖有	-11.3228
宣宗	-11.323
無告	-11.3231
明晰	-11.3232
倒失	-11.3232
失望	-11.3235
勸導	-11.3235
騎操	-11.3235
竊觀	-11.3236
轉徙	-11.3236
不存	-11.3238
教育	-11.3241
常賦	-11.3242
事屬	-11.3243
計日	-11.3246
中途	-11.3246
兖州	-11.3247
近又	-11.3248
之㑹	-11.3248
之警	-11.325
一百餘	-11.325
不理	-11.325
不恱	-11.3251
封建	-11.3253
弭盜	-11.3253
至道	-11.3254
到省	-11.3255
情狀	-11.3255
崇明	-11.3257
來歸	-11.3257
營㕘將	-11.3258
鄉兵	-11.3259
規禮	-11.3259
悉知	-11.326
厯代	-11.3261
寜夏	-11.3262
廢置	-11.3263
權貴	-11.3267
仰遵	-11.3267
解體	-11.3268
昔人	-11.3269
庸人	-11.327
考功	-11.3277
臣愚以謂	-11.3277
壕	-11.3278
干犯	-11.3279
為辭	-11.3279
不定	-11.3281
隨宜	-11.3283
出沒	-11.3284
趙𢎞恩	-11.3284
特降指揮	-11.3284
枷號	-11.3286
諭部	-11.3287
絃	-11.3289
槖	-11.3289
踰年	-11.3289
㝎	-11.3289
狼狽	-11.329
家莊	-11.329
無術	-11.3291
揭報	-11.3291
來朝	-11.3292
水土	-11.3294
幇	-11.3295
均沾	-11.3296
驚擾	-11.3297
大要	-11.3297
湛	-11.3299
禮部侍郎	-11.3299
向後	-11.3299
凡在	-11.3302
一十八	-11.3302
張勇	-11.3302
通共	-11.3303
痛自	-11.3303
各部	-11.3303
又慮	-11.3306
庶事	-11.3307
冗官	-11.3307
九月内	-11.3308
䝉聖主	-11.3309
崇尚	-11.331
輔佐	-11.3312
頒賜	-11.3313
姦雄	-11.3313
男子	-11.3314
守道	-11.3316
先師	-11.3318
非才	-11.3319
餘剰	-11.332
權要	-11.3324
伏乞陛下	-11.3325
予奪	-11.3329
良吏	-11.333
咸謂	-11.3333
范鎮	-11.3333
恐難	-11.3334
亦猶	-11.3337
禾稼	-11.3338
兩不等	-11.3338
大本	-11.334
泗州	-11.3345
成周	-11.3346
接准	-11.3346
者葢	-11.3347
臕	-11.3348
奏討	-11.3349
一帯	-11.335
榖石	-11.335
奏行	-11.3351
痛心	-11.3355
每見	-11.3356
羈	-11.3356
刑部尚書	-11.3358
伊都立	-11.3358
孟浪	-11.3359
救弊	-11.3361
銀一十	-11.3362
汲	-11.3362
遙	-11.3363
饑寒	-11.3363
不聊生	-11.3365
條制	-11.3367
較前	-11.3367
備細	-11.3367
三十七	-11.3368
乃得	-11.3368
指日	-11.3369
先因	-11.3369
前議	-11.337
事無不	-11.3371
誰肯	-11.3371
不朽	-11.3374
妖言	-11.3379
糾㕘	-11.3379
和親	-11.3381
明君	-11.3382
率屬	-11.3384
歐陽修	-11.3384
上䟽曰臣聞	-11.3385
招討	-11.3386
為亂	-11.3388
所屬州縣	-11.3389
僅有	-11.3391
城門	-11.3392
人畜	-11.3393
可通	-11.3395
若更	-11.3397
二項	-11.3397
操備	-11.3398
前年	-11.3398
必俟	-11.3399
人品	-11.3399
開坐	-11.3401
城中	-11.3403
甲申	-11.3407
所有奉到	-11.3407
取諸	-11.3408
長䇿	-11.3408
倘或	-11.3408
又該	-11.341
謹奏為恭謝天恩事	-11.341
尤多	-11.341
兩人	-11.3414
尚不能	-11.3414
去秋	-11.3416
粒	-11.3416
至於此	-11.3418
二鎮	-11.3421
王恕	-11.3422
所急	-11.3425
繕摺奏聞謹奏	-11.3425
天下之望	-11.3426
咨㑹	-11.3427
成康	-11.3429
臣伏讀	-11.343
擡	-11.3432
叵測	-11.3433
脈	-11.3434
逵	-11.3436
媿	-11.3436
剗	-11.3436
瘡痍	-11.3436
張耀祖	-11.3437
寘之	-11.3438
率同	-11.3439
轡	-11.344
同日又奏為奏聞事竊照	-11.3441
𣣔	-11.3442
漕船	-11.3442
兢惕	-11.3444
朕諭	-11.3444
漫溢	-11.3444
棍徒	-11.3445
之隙	-11.3445
的確	-11.3446
將安	-11.3447
莫甚於	-11.3449
倉廩	-11.3449
河陽	-11.345
使用	-11.3452
睿智	-11.3453
所進	-11.3454
一千名	-11.3455
矢石	-11.3459
具摺奏明	-11.3459
憫惻	-11.346
俾之	-11.3461
科場	-11.3463
寢罷	-11.3463
㑹試	-11.3467
定限	-11.3469
薊州	-11.347
特頒	-11.3471
殿前	-11.3471
必謂	-11.3472
之繁	-11.3473
無赦	-11.3473
相當	-11.3475
恩施	-11.3476
以足	-11.3476
開復	-11.3479
仰見皇上	-11.3481
奏繳	-11.3482
或為	-11.3484
數次	-11.3484
分賠	-11.3486
招集	-11.349
提刑	-11.3491
變賣	-11.3492
繫於	-11.3493
後時	-11.3494
庚	-11.3495
毫不	-11.3496
劉向	-11.3497
務必	-11.3498
燦	-11.3501
守候	-11.3501
非止	-11.3501
近代	-11.3502
保明	-11.3503
具題外	-11.3504
坪	-11.3505
掊	-11.3505
内務府	-11.3506
奉㫖依議	-11.3507
太宗文皇帝	-11.3508
盍	-11.3508
雹	-11.3509
就彼	-11.351
不欺	-11.351
宜先	-11.351
簡任	-11.3511
海外	-11.3512
亦照	-11.3512
住牧	-11.3512
以冀	-11.3515
瓜	-11.3515
七八分	-11.3516
羲	-11.3518
廐	-11.3519
不可勝數	-11.3519
理合奏聞	-11.352
撥運	-11.3521
謹遵	-11.3523
大禹	-11.3523
甚逺	-11.3524
我祖宗	-11.3526
自漢	-11.3527
殷實	-11.3528
八月内	-11.3528
不可緩	-11.3536
攻城	-11.3537
王業	-11.3537
抑配	-11.3541
准令	-11.3544
北人	-11.3546
役法	-11.3549
衆寡	-11.355
派出	-11.3552
誤陛下	-11.3556
裁損	-11.3556
河套	-11.3556
詹事	-11.3556
世俗	-11.3558
養育	-11.3559
移咨到	-11.356
該地方	-11.356
亦足	-11.3563
丈尺	-11.3566
又為	-11.3566
降調	-11.357
不支	-11.357
皆稱	-11.357
深惟	-11.3571
六月内	-11.3573
標中軍	-11.3576
上達	-11.3578
完固	-11.3579
在工	-11.3581
舘	-11.3581
隨將	-11.3581
皇親	-11.3582
支吾	-11.3583
旰	-11.3584
案呈到部	-11.3585
惻怛	-11.3587
哈密	-11.3588
戒懼	-11.3589
右司諫	-11.359
株	-11.359
嗇	-11.359
章獻	-11.3591
媒	-11.3591
闥	-11.3592
行取	-11.3592
戊申	-11.3592
齋戒	-11.3593
禦侮	-11.3595
合無今後	-11.3596
剏	-11.3597
疑似	-11.3601
睿㫖	-11.3601
念切	-11.3603
興作	-11.3603
更生	-11.3603
初政	-11.3605
如初	-11.3607
講官	-11.3607
從寛免	-11.3608
率衆	-11.3609
亦止	-11.3612
解交	-11.3612
明㫖	-11.3613
諍	-11.3614
朕皆	-11.3616
能保其	-11.3617
塘汛	-11.3617
同時	-11.3618
王子	-11.3619
多難	-11.362
劾奏	-11.3621
曲折	-11.3622
愈多	-11.3624
不巳	-11.3624
肅宗	-11.3624
分貯	-11.3625
偶然	-11.3627
哉故	-11.3628
餘人	-11.3629
四十餘年	-11.363
北流	-11.363
所産	-11.3631
謹先	-11.3633
顔色	-11.3637
恣行	-11.3638
河中	-11.3638
公文	-11.3642
原為	-11.3643
哉然	-11.3643
緝獲	-11.3643
佞人	-11.3645
開納	-11.3646
番人	-11.3647
所辦	-11.365
君臨	-11.365
一失	-11.365
初年	-11.365
安撫使	-11.3651
旗幟	-11.3656
封還	-11.3656
後悔	-11.3657
哥	-11.3658
村莊	-11.3658
經乆	-11.3658
都布按三司	-11.3659
韓良輔	-11.366
條列	-11.366
厮	-11.366
地方有司	-11.3661
臣愚竊	-11.3661
峒	-11.3662
敬天勤民	-11.3664
應變	-11.3664
范祖禹	-11.3666
釘	-11.3666
未成	-11.3666
深逺	-11.3666
孝思	-11.3667
愁苦	-11.3667
芥	-11.3668
禽獸	-11.367
膏腴	-11.367
譁	-11.3671
被賊	-11.3674
就便	-11.3675
簡易	-11.3676
工部尚書	-11.3678
庚子	-11.3678
縱容	-11.3679
借貸	-11.368
三十二	-11.3682
僕射	-11.3684
介甫	-11.3691
将士	-11.3697
關防	-11.3699
按月	-11.3699
亦能	-11.37
追究	-11.3701
向背	-11.3701
者一也	-11.3701
山谷	-11.3703
營務	-11.3703
士竒	-11.3703
唐制	-11.3704
察出	-11.3704
二三大臣	-11.3707
遺詔	-11.3709
不知何	-11.371
因見	-11.3711
以消	-11.3717
大猷	-11.3719
以儆	-11.3724
選委	-11.3726
中和	-11.3726
充實	-11.3727
流行	-11.3729
制禮	-11.3731
咨商	-11.3731
蔓	-11.3732
疚	-11.3734
大亂	-11.3736
謄	-11.3737
紂	-11.3739
亥	-11.3739
工役	-11.3739
皆欲	-11.3739
鼓勵	-11.374
俱應	-11.3741
沸	-11.3741
聖謨	-11.3741
恂	-11.3741
里民	-11.3741
諭大學士等	-11.3742
無所用	-11.3743
行糧	-11.3743
祜	-11.3743
參知政事	-11.3743
于下	-11.3745
爵位	-11.3746
倪	-11.3746
婁	-11.3746
濯	-11.3746
収成	-11.3747
長江	-11.3747
黥	-11.3749
相視	-11.3749
叅知政事	-11.375
必需	-11.3751
傾心	-11.3752
傅泰	-11.3752
歸附	-11.3752
赦書	-11.3753
欣然	-11.3756
四十萬	-11.3757
壅塞	-11.3759
抑勒	-11.3759
三十三	-11.376
逾格	-11.3761
到任以來	-11.3762
之馬	-11.3763
上𦂳	-11.3765
謀議	-11.3765
孝文	-11.3766
荷蒙	-11.3767
舉朝	-11.377
五城	-11.3772
巡查	-11.3773
采納	-11.3773
何等	-11.3774
堅執	-11.3774
山陽	-11.3775
一至於此	-11.3776
批行	-11.3778
王莽	-11.378
銀一百	-11.3781
同日又奏為奏聞事竊查	-11.3781
勞民	-11.3781
無隱	-11.3783
僅存	-11.3785
慎擇	-11.3788
主將	-11.3788
克復	-11.379
按伏	-11.3793
不食	-11.3794
勤敏	-11.3795
後嗣	-11.3795
何由而	-11.3795
一百九十	-11.3796
文維	-11.3797
亦不為	-11.3799
客商	-11.38
貞元	-11.3801
今兹	-11.3802
地處	-11.3805
不習	-11.3806
們	-11.3807
莅	-11.3807
斷無	-11.3809
廻	-11.381
沔	-11.3811
軍威	-11.3811
謂侍臣曰	-11.3812
兵備副使	-11.3812
蹕	-11.3812
仔	-11.3812
陳世倕	-11.3814
捫	-11.3814
聯	-11.3815
劣蹟	-11.3815
廢棄	-11.3815
固難	-11.3815
荼毒	-11.3817
嗷嗷	-11.3817
瓚	-11.3818
龎	-11.3818
茹	-11.3818
浮言	-11.3819
安寧	-11.3819
所敢	-11.3819
一十九	-11.3821
借此	-11.3821
不限	-11.3821
具見	-11.3822
三千餘	-11.3822
陛下即位以來	-11.3822
汶	-11.3823
驚駭	-11.3823
廣平	-11.3823
驩	-11.3825
鯀	-11.3826
此語	-11.3828
斬獲	-11.383
正典刑	-11.3831
發明	-11.3833
其費	-11.3834
太上皇帝	-11.3835
㑹計	-11.3836
在民	-11.3837
不可勝計	-11.3837
不遷	-11.3839
水脚	-11.384
刑法	-11.3841
不豫	-11.3841
之歎	-11.3843
上尊號	-11.3844
三十八	-11.3844
四門	-11.3845
▁皇上	-11.3846
魏徵	-11.3846
等省	-11.3848
朕懷	-11.385
先皇帝	-11.385
緡錢	-11.385
亦未嘗	-11.3852
制科	-11.3853
民窮	-11.3855
深厚	-11.3855
再造	-11.386
不虚	-11.3861
自處	-11.3861
籍籍	-11.3863
冊籍	-11.3864
可用者	-11.3865
順天府	-11.3865
妄有	-11.3866
一書	-11.3867
明徳	-11.387
數年之後	-11.387
湯武	-11.387
聖聰	-11.387
驅之	-11.3873
一司	-11.3873
存庫	-11.3874
部内	-11.3877
最多	-11.3879
吾君	-11.3881
正心	-11.3883
行陣	-11.3883
攻守	-11.3885
一味	-11.3886
之詩	-11.3887
需銀	-11.3891
謹題請㫖	-11.3892
熹	-11.3893
瞭見	-11.3893
可考	-11.3894
主者施行	-11.3894
筦	-11.3894
何憂	-11.3894
苑馬寺	-11.3894
所造	-11.3895
陞賞	-11.3895
奏章	-11.3895
狠	-11.3896
慟	-11.3897
劑	-11.3897
灑	-11.3897
實心辦事	-11.3898
技勇	-11.3898
哨探	-11.3898
永保	-11.3899
牖	-11.3899
天文	-11.39
陞科	-11.3901
姧	-11.3902
奏請定奪	-11.3902
逃竄	-11.3903
困弊	-11.3903
又况	-11.3903
楊一清	-11.3903
起居注	-11.3905
木植	-11.3906
分外	-11.3906
泗城	-11.3906
抑亦	-11.3907
無禮	-11.3908
匪𩔖	-11.3909
改官	-11.391
中官	-11.3914
嘉祥	-11.3914
專任	-11.3914
舉天下	-11.3914
姿	-11.3915
方平	-11.3916
一萬二千	-11.3917
隋唐	-11.3918
逢迎	-11.3918
地廣	-11.3919
寳元	-11.3919
新政	-11.392
百金	-11.3921
廵視	-11.3922
精擇	-11.3925
大盜	-11.3926
其中有	-11.3926
繼述	-11.3927
立廟	-11.3927
一貫	-11.3928
累世	-11.393
可省	-11.3931
補外	-11.3932
曲為	-11.3933
自京	-11.3935
造完	-11.3937
而去之	-11.394
伏汛	-11.3941
盛世	-11.3942
無負	-11.3944
何以言之	-11.3945
乞要	-11.3945
青海	-11.3946
扵民	-11.3947
從来	-11.3949
所以待	-11.3949
是豈	-11.3951
不䏻	-11.3952
允行	-11.3952
大柄	-11.3953
防護	-11.3957
百神	-11.3958
改設	-11.396
絶無	-11.396
取勝	-11.3961
也若夫	-11.3961
鞍	-11.3963
條約	-11.3963
方纔	-11.3964
理合一併	-11.3965
井田	-11.3967
輳	-11.3969
贑	-11.397
受事	-11.397
樞密	-11.3971
棺	-11.3971
所任	-11.3971
僥	-11.3972
夸	-11.3973
長發	-11.3974
也惟陛下	-11.3975
武定	-11.3976
㤀	-11.3977
縝	-11.3978
囹圄	-11.3978
祉	-11.3978
駕馭	-11.3979
堂堂	-11.3979
切勿	-11.398
一紙	-11.3981
肇慶	-11.3981
者即行	-11.3982
吏部知道	-11.3982
蕩然	-11.3984
遵依	-11.3985
諫官御史	-11.3986
諒祚	-11.3986
應辦	-11.3987
寛縱	-11.3988
擁衆	-11.3989
同日又奏竊	-11.3993
承受	-11.3994
不決	-11.3996
此項銀兩	-11.3996
專管	-11.3999
州府屬之	-11.4002
陛下之心	-11.4002
小官	-11.4004
以為不然	-11.4005
人丁	-11.4006
彼地	-11.4007
賦性	-11.4008
一千六百	-11.4009
皇祖	-11.401
城下	-11.4011
戮力	-11.4014
偏執	-11.4018
折價	-11.402
思奮	-11.4021
天錫	-11.4021
朝廷之意	-11.4025
振舉	-11.4025
君徳	-11.4025
元首	-11.4025
所不容	-11.4026
災害	-11.4028
聲言	-11.4031
有所見	-11.4031
貢獻	-11.4032
一兩一錢	-11.4035
兼領	-11.4038
吏胥	-11.404
大勢	-11.404
守宰	-11.4041
事本年	-11.4043
方略	-11.4043
不得過	-11.4044
一萬五千	-11.4045
韓信	-11.4046
戰慄	-11.4047
鎮巡等官	-11.4047
附㑹	-11.4048
收糴	-11.4048
民俗	-11.4049
試看	-11.4049
貪殘	-11.405
肝	-11.4051
感召天和	-11.4052
厚賞	-11.4054
綵	-11.4054
持之	-11.4054
吏治民生	-11.4055
看了來説	-11.4055
莫此為甚	-11.4056
箠	-11.4057
調撥	-11.4058
癘	-11.4058
西陲	-11.4058
黜責	-11.4059
摭	-11.4059
凜遵	-11.406
沆	-11.4061
乗時	-11.4063
不急之	-11.4064
牧放	-11.4067
役錢	-11.4069
並許	-11.4069
恭候	-11.407
震驚	-11.4071
良由	-11.4071
平江	-11.4071
所有微	-11.4073
紊亂	-11.4074
享國	-11.4075
功績	-11.4076
兵一千名	-11.4076
各一員	-11.4076
俱行	-11.4076
干預	-11.4079
禮法	-11.4083
舊人	-11.4084
縁此	-11.4084
二帝	-11.4085
兵糧	-11.4087
經綸	-11.4088
六師	-11.4089
追至	-11.409
逐年	-11.4093
六軍	-11.4094
所餘	-11.4095
上䇿	-11.4095
裁處	-11.4098
施為	-11.4102
訪查	-11.4102
在朕前	-11.4104
凡屬	-11.4106
掌印官	-11.4106
邊人	-11.4107
五經	-11.4107
不懼	-11.4107
興舉	-11.4108
指授	-11.411
行義	-11.411
所以能	-11.411
通曉	-11.411
二月内	-11.4112
理合據實	-11.4113
贛	-11.4117
俯仰	-11.412
辦公	-11.4121
何嘗	-11.4123
該管官	-11.4123
榖價	-11.4124
一摺奉有硃批	-11.4124
管糧	-11.4125
衝要	-11.4125
岑	-11.4126
逺圖	-11.4127
稍遲	-11.4129
古帝王	-11.4129
颺	-11.413
踪	-11.413
正額	-11.4131
監臨	-11.4131
報銷	-11.4133
鳩	-11.4134
耽	-11.4134
已有㫖	-11.4134
巖疆	-11.4135
謟	-11.4135
刋刻	-11.4136
論語	-11.4136
藁	-11.4137
愚衷	-11.4137
墳墓	-11.4139
沙漠	-11.4139
卻	-11.4139
泌	-11.414
赫然	-11.4142
弟子	-11.4142
免罪	-11.4146
二三年	-11.4146
本章	-11.4147
以陛下之	-11.4149
以僃	-11.415
付託	-11.415
聽從	-11.4153
七月内	-11.4155
南澳	-11.4155
出錢	-11.4156
中道	-11.4157
張廷	-11.4157
至一兩	-11.4158
誠可	-11.4158
也是故	-11.4158
昨者	-11.4159
殆非	-11.4159
貧富	-11.416
十月内	-11.4161
衛指揮	-11.4161
驚疑	-11.4161
弁員	-11.4163
勿疑	-11.4164
亟宜	-11.4168
為率	-11.417
管河	-11.417
一新	-11.4171
之忱	-11.4173
財貨	-11.4175
虛文	-11.4175
未必皆	-11.4176
民怨	-11.4177
押解	-11.4178
出衆	-11.4179
無以自	-11.4179
恩禮	-11.418
當經	-11.418
重慶	-11.418
孝武	-11.418
士論	-11.4181
敬畏	-11.4182
隘口	-11.4184
濟寧	-11.4186
河南廵撫	-11.4186
師古	-11.4187
黄門	-11.419
務農	-11.4191
四錢	-11.4193
支河	-11.4194
近事	-11.4194
一邑	-11.4198
加之以	-11.4198
訊據	-11.4199
短長	-11.4201
成全	-11.4201
二千五百	-11.4202
富庶	-11.4202
昩	-11.4208
驢	-11.4208
甚厚	-11.4211
市恩	-11.4212
守邊	-11.4212
斬首	-11.4213
踞	-11.4213
賞功	-11.4214
貝	-11.4215
亦可謂	-11.4215
自足	-11.4216
豢養	-11.4216
謹奏為遵㫖	-11.4217
大位	-11.4217
鑽營	-11.4218
我們	-11.4219
舉事	-11.4219
弓矢	-11.422
袍	-11.422
庠序	-11.4221
禮文	-11.4222
臂指	-11.4223
歲月	-11.4224
天生	-11.4224
大将軍	-11.4224
空閒	-11.4225
變價	-11.4228
分作	-11.4229
私鑄	-11.4229
納糧	-11.4232
以為是	-11.4233
不勞	-11.4234
餘皆	-11.4235
臨御以來	-11.4236
雩	-11.4237
歸結	-11.4237
茶鹽	-11.4238
載在	-11.4239
八兩	-11.4239
成造	-11.4241
前據	-11.4242
慶雲	-11.4242
該營	-11.4242
修復	-11.4243
溺職	-11.4243
辨之	-11.4244
直陳	-11.4245
精銳	-11.4246
聖天子	-11.4248
亦云	-11.4249
員數	-11.425
受賄	-11.4251
貪利	-11.4252
堂上	-11.4252
接管	-11.4252
一戰	-11.4257
太甚	-11.4261
聴其	-11.4262
貯庫	-11.4263
離散	-11.4264
日甚	-11.4264
加勉	-11.4264
嘉定	-11.4266
既知	-11.4266
養成	-11.4267
鹽價	-11.4267
臺諫官	-11.4269
司道府	-11.427
下悃	-11.427
幽州	-11.4272
免致	-11.4272
其效	-11.4273
具摺奏	-11.4274
收過	-11.4275
所未有	-11.4277
先定	-11.4278
戰國	-11.428
師傅	-11.4281
欽奉硃批	-11.4282
古昔	-11.4283
爪	-11.4285
七百餘	-11.4285
勅諭	-11.4285
夫豈	-11.4286
厚利	-11.4286
回署	-11.4286
楷	-11.4286
栽插	-11.4288
夷簡	-11.4288
扣除	-11.4288
榆林	-11.4288
一百一十	-11.4288
勿復	-11.4289
璉	-11.4289
年少	-11.4291
㭍	-11.4291
繁簡	-11.4291
躧	-11.4292
各府州	-11.4292
邇來	-11.4294
兗	-11.4294
一疋	-11.4295
豺狼	-11.4297
輪班	-11.4298
不可使	-11.4298
洞鑒	-11.4299
不是	-11.4301
乞令	-11.4304
入土	-11.4306
物情	-11.4309
于外	-11.4311
著九卿	-11.4311
令地方官	-11.4313
擇日	-11.4313
靖逆	-11.4314
協助	-11.4318
度牒	-11.432
茍安	-11.432
不堅	-11.4321
要路	-11.4321
盡歸	-11.4323
嵗貢	-11.4324
常徳	-11.4325
一十七	-11.4328
亦合	-11.4328
錢文	-11.4329
七十二	-11.4329
人神	-11.433
從古	-11.4332
同日又奏為恭報	-11.4333
保送	-11.4334
瞻仰	-11.4335
密摺	-11.4335
給還	-11.4336
欽賜	-11.4341
隨行	-11.4345
上諭吏部	-11.4346
確議	-11.4347
茍免	-11.4347
呈請	-11.4351
之銀	-11.4351
斯為	-11.4351
功過	-11.4352
應俟	-11.4354
有虧	-11.4356
百出	-11.4359
剩	-11.4359
兵甲	-11.4359
旗員	-11.436
承差	-11.4362
凜	-11.4363
事業	-11.4364
累及	-11.437
共事	-11.4371
欲速	-11.4371
者往往	-11.4375
抛	-11.4375
庚寅	-11.4375
結案	-11.4375
詿誤	-11.4375
竟無	-11.4376
峽	-11.4376
阿哥	-11.4377
聖母	-11.4377
壑	-11.4377
騾頭	-11.4377
蠱	-11.4378
冐昧	-11.4378
再四思維	-11.4378
糾劾	-11.4378
峙	-11.4379
無忌憚	-11.4379
鉗	-11.438
悉心籌畫	-11.438
奄有	-11.438
一千四百	-11.4381
輓運	-11.4381
汀	-11.4382
退縮	-11.4382
倉場	-11.4382
氓	-11.4383
抄出	-11.4384
他事	-11.4384
晷	-11.4384
固結	-11.4385
槽	-11.4385
不擾	-11.4385
營兵丁	-11.4386
哀矜	-11.4386
騷動	-11.4386
止許	-11.439
之甚者	-11.4391
束手	-11.4391
之義也	-11.4392
丙子	-11.4392
臺閣	-11.4393
難逃	-11.4393
驍勇	-11.4394
冗費	-11.4397
歩兵	-11.4397
背公	-11.4397
加増	-11.4398
餘鹽	-11.4398
陜省	-11.4401
百餘人	-11.4406
統制	-11.4406
民庶	-11.4408
獻替	-11.4408
兵部侍郎	-11.4412
誠宜	-11.4412
等因到臣	-11.4414
百餘萬	-11.4416
漢官	-11.4417
實多	-11.4418
功利	-11.4419
女子	-11.4421
之不暇	-11.4421
太重	-11.4422
宫觀	-11.4423
勞逸	-11.4424
敕諭	-11.4427
推原	-11.4427
協辦	-11.4429
修治	-11.4429
中書省	-11.443
中宫	-11.4431
之譏	-11.4432
徳州	-11.4433
天眷	-11.4434
它日	-11.4435
難測	-11.4436
又嘗	-11.4436
州牧	-11.4437
孝敬	-11.4439
無怨	-11.444
何獨	-11.444
班行	-11.4441
息矣	-11.4441
無偏	-11.4448
之域	-11.4449
變法	-11.4449
邉患	-11.4453
黄國材	-11.4453
更有請者	-11.4455
戊午	-11.4456
但聞	-11.4457
滕	-11.4457
大旱	-11.4457
証	-11.4457
婉	-11.4458
硃批諭旨巻	-11.4458
選將	-11.4458
有名無實	-11.4458
咈	-11.4458
衙役	-11.446
羽翼	-11.4461
䑕	-11.4462
欽此又	-11.4464
乎昔	-11.4464
永言	-11.4466
枝葉	-11.4466
宇宙	-11.4467
仰祈睿鑒事	-11.4467
燔	-11.4467
公帑	-11.4467
善言	-11.4467
授官	-11.4468
甲午	-11.447
事竊惟	-11.447
以是為	-11.4471
京口	-11.4478
明春	-11.448
者莫如	-11.4481
飛報	-11.4483
所惡	-11.4485
精誠	-11.4487
一代之	-11.4487
南路	-11.4488
之悔	-11.449
文具	-11.4491
進對	-11.4491
其末	-11.4495
殫竭	-11.4496
乘機	-11.4497
買賣	-11.4498
細務	-11.4498
是猶	-11.4505
事變	-11.4505
鞏固	-11.4508
南山	-11.4509
危險	-11.4509
下有司	-11.4512
自持	-11.4514
既稱	-11.4514
申奏	-11.4515
當世之	-11.4516
權衡	-11.4517
卿大夫	-11.4518
門生	-11.4518
統俟	-11.4518
蕭何	-11.452
恭摺奏聞	-11.4522
罪狀	-11.4526
上書曰	-11.4527
遷移	-11.4528
盖欲	-11.4529
不能自已	-11.4529
吏典	-11.453
承審	-11.4531
空文	-11.4533
藏於	-11.4533
錢穀	-11.4534
又從而	-11.4534
奉先	-11.4536
生苖	-11.4536
風紀	-11.4537
異論	-11.4538
駑駘	-11.4538
瓘	-11.4539
准部咨	-11.4539
悚惕	-11.454
鎻	-11.454
歿	-11.4541
遊擊將軍	-11.4542
違禁	-11.4543
頤	-11.4543
悠悠	-11.4544
㐮	-11.4544
褊	-11.4544
賜紫金魚袋	-11.4544
愜	-11.4544
濮安懿王	-11.4546
戊寅	-11.4546
夭	-11.4546
衝突	-11.4547
取用	-11.4548
虹	-11.4548
倉猝	-11.4548
庚午	-11.4549
廊	-11.4549
貝子	-11.4549
木石	-11.4551
膏澤	-11.4551
太公	-11.4551
㝷	-11.4553
日増	-11.4554
陛下所以	-11.4554
大法	-11.4556
滿兵	-11.4558
丘濬	-11.4559
亦由	-11.456
講究	-11.4562
中止	-11.4567
道途	-11.4569
數千人	-11.457
鎮巡官	-11.4571
虛實	-11.4572
去後今	-11.4573
渝	-11.4574
底定	-11.4577
六七分	-11.4578
邳	-11.458
奉聖㫖卿	-11.4581
玩好	-11.4582
破敵	-11.4583
著革職	-11.4585
聖神	-11.4585
靡寧	-11.4586
萬務	-11.4586
充裕	-11.4587
乗此	-11.4588
孰若	-11.4589
天朝	-11.4589
今次	-11.459
王化	-11.4591
陛下之意	-11.4591
朔望	-11.4594
科甲	-11.4597
奸人	-11.4597
鹽商	-11.4598
皆出於	-11.4599
皆屬	-11.4599
切直	-11.4602
多被	-11.4604
弭災	-11.4605
思維	-11.4605
所云	-11.4605
將校	-11.4607
風土	-11.4607
假令	-11.4607
十有二	-11.4607
敷用	-11.4609
藩邸	-11.4611
觀聽	-11.4611
變化	-11.4617
加一階	-11.4617
知其非	-11.4618
仁恩	-11.4623
宗人府	-11.4625
招徠	-11.4625
撞	-11.4625
俶	-11.4626
管軍	-11.4626
眷佑	-11.4626
封疆重任	-11.4626
謹奏為奏聞事竊查	-11.4626
一勞永逸	-11.4627
委靡	-11.4628
羈縻	-11.4628
泓	-11.4629
所奏知道了	-11.463
明白回奏	-11.463
昊天上帝	-11.4632
寤	-11.4633
襃	-11.4634
姦徒	-11.4635
人之情	-11.4636
罪名	-11.4637
雉	-11.4637
暫留	-11.4637
消長	-11.4638
凶年	-11.4639
組	-11.4639
庚申	-11.464
自奮	-11.4641
臣等竊	-11.4646
有功者	-11.4647
竄逐	-11.4647
邊兵	-11.4647
接見	-11.4647
巧詐	-11.4649
英雄	-11.4649
刺史縣令	-11.465
大雪	-11.4655
覺悟	-11.4656
復命	-11.4658
東都	-11.4659
舜禹	-11.466
君臣之間	-11.466
五十年	-11.4662
錢粮	-11.4663
乙未	-11.4666
子姪	-11.4668
勤加	-11.4669
文詞	-11.4674
追捕	-11.4675
此之謂也	-11.4675
停其	-11.4676
足食	-11.4678
職方	-11.4687
帶往	-11.4689
軍餘	-11.4694
軍儲	-11.4695
統計	-11.4695
固亦	-11.4698
勤儉	-11.47
出没	-11.4704
松潘	-11.4706
映	-11.4706
羣言	-11.4707
相隔	-11.4709
備邊	-11.471
河州	-11.471
漢魏	-11.471
觀風整俗使	-11.471
谿	-11.471
棗	-11.471
擘畫	-11.471
咸稱	-11.471
含糊	-11.4711
殯	-11.4711
彪	-11.4711
桀紂	-11.4713
不逞	-11.4713
懈弛	-11.4713
總計	-11.4713
肘腋	-11.4714
誹謗	-11.4715
太常博士	-11.4715
瘳	-11.4716
南安	-11.4716
二子	-11.4717
慧	-11.4719
精詳	-11.4721
微忱	-11.4721
㕑役	-11.4722
百餘年	-11.4722
隄岸	-11.4722
同日又奏為奏明	-11.4723
仰惟皇上	-11.4724
宸斷	-11.4726
軍裝	-11.4727
六十餘年	-11.4732
條例司	-11.4732
侵占	-11.4734
封樁	-11.4735
作急	-11.4738
國計民生	-11.4739
團營	-11.4739
清釐	-11.4739
莫知所	-11.4739
那端	-11.4741
讜	-11.4744
戰士	-11.4747
未滿	-11.4747
汛防	-11.4748
三法司	-11.4749
無益也	-11.475
嚴父	-11.4751
輙敢	-11.4752
三十一	-11.4755
不稱職	-11.4755
大壊	-11.4755
浙江總督	-11.4756
哉盖	-11.4756
前弊	-11.4759
晰	-11.476
之所由	-11.476
丁未	-11.4765
邊民	-11.4768
獲利	-11.4769
備辦	-11.477
不可不察	-11.4771
土著	-11.4773
淺深	-11.4774
威令	-11.4775
邊城	-11.4775
神祗	-11.4778
庶免	-11.4779
一品	-11.4781
耳夫	-11.4782
囤	-11.4786
臣待罪	-11.4787
書云	-11.4788
革弊	-11.4789
理合奏聞謹奏	-11.479
有時而	-11.479
湖南廵撫	-11.4791
李綱	-11.4792
工作	-11.4792
枷	-11.4792
䭾	-11.4792
開通	-11.4794
奉聖旨	-11.4794
麥苗	-11.4795
六十餘	-11.4795
治功	-11.4796
何難	-11.4796
壬午	-11.4797
興兵	-11.4797
喉	-11.4797
未可知	-11.4799
燎	-11.4799
椿	-11.48
逄	-11.48
器皿	-11.4801
琰	-11.4801
徂	-11.4801
擿	-11.4802
栗	-11.4802
建官	-11.4804
乃係	-11.4804
寛恤	-11.4805
也願陛下	-11.4805
不勞而	-11.4806
此特	-11.4806
貼黄臣	-11.4808
逋負	-11.4808
閒暇	-11.4809
儒生	-11.481
疎虞	-11.4811
五十萬	-11.4812
嵗入	-11.4813
堵塞	-11.4813
生事端	-11.4814
戰功	-11.4814
兩府大臣	-11.4815
降級	-11.4816
宣大	-11.4816
亂政	-11.4817
好問	-11.4817
立志	-11.4817
愈深	-11.4818
别省	-11.4818
頂補	-11.4819
到案	-11.482
勤惰	-11.482
或云	-11.4823
荆南	-11.4824
取辦	-11.4825
於雍正五年	-11.4826
三班	-11.4826
物論	-11.4828
於萬一耳	-11.483
浮議	-11.4831
錦衣	-11.4832
匪輕	-11.4832
頓首	-11.4833
稷契	-11.4834
盜竊	-11.4835
勸課	-11.4836
巧為	-11.4839
俯從	-11.4839
歸仁	-11.484
下户	-11.4843
所恃以	-11.4843
標營	-11.4844
兵勢	-11.4844
改調	-11.4846
即位之初	-11.4849
圖報效	-11.4849
豈可以	-11.4851
廷議	-11.4851
名位	-11.4853
江左	-11.4856
循例	-11.4857
險工	-11.4858
出榜	-11.4861
同日又奏為遵㫖	-11.4864
正位	-11.4865
商周	-11.4866
與督臣	-11.4868
必至於	-11.487
得其要	-11.487
程元章	-11.4871
休養	-11.4875
思欲	-11.4877
運到	-11.4877
徒費	-11.4877
吿	-11.4878
伏請	-11.4879
月令	-11.4879
税銀	-11.488
嘗聞	-11.488
刧	-11.4881
緬	-11.4881
警惕	-11.4881
輕視	-11.4882
輸誠	-11.4882
督撫二臣	-11.4882
訂	-11.4882
御極以來	-11.4883
療	-11.4885
淩	-11.4887
秣	-11.4887
砂	-11.4887
所積	-11.4887
公輔	-11.4888
雨暘	-11.4888
驚惶	-11.4888
而莫之	-11.4888
舶	-11.4888
翠	-11.4889
擲	-11.4889
示之以	-11.489
厨	-11.4891
顓	-11.4891
内附	-11.4891
恩准	-11.4894
轉奏	-11.4894
景帝	-11.4895
牧養	-11.4895
感泣	-11.4896
堵築	-11.4896
樂從	-11.4896
沽名	-11.4897
惟務	-11.4898
者二也	-11.49
大信	-11.4902
冗兵	-11.4904
納銀	-11.4905
初任	-11.4906
貴近	-11.4907
冊内	-11.4908
庫項	-11.4909
吏目	-11.4911
也勉之	-11.4914
國論	-11.4914
八日	-11.4924
戎人	-11.4924
九廟	-11.4927
初即位	-11.493
之利也	-11.4931
不赦	-11.4931
韓魏	-11.4935
傳播	-11.4936
内外文武	-11.4937
同知通判	-11.4939
滅亡	-11.4939
名號	-11.4943
根株	-11.4945
循理	-11.4947
也古者	-11.4949
震動	-11.4949
歴觀	-11.4949
指稱	-11.4956
地方大吏	-11.4956
大綱	-11.4957
不免於	-11.4957
巡撫印務	-11.4957
死力	-11.4959
裁抑	-11.4959
二十一年	-11.4961
穏	-11.4962
以快	-11.4964
凡此皆	-11.4965
燧	-11.4966
失信	-11.4967
大清聖祖合天𢎞運文武睿哲恭儉	-11.4968
鮑	-11.4968
青黄不接之時	-11.4969
苞苴	-11.4969
遷官	-11.4969
參差	-11.4969
粱	-11.497
為人後者	-11.4971
送部引見	-11.4971
𢎞治十八年	-11.4971
厚禄	-11.4973
逞其	-11.4973
五十名	-11.4974
儻有	-11.4974
倅	-11.4976
恩於萬一耳	-11.4976
朱熹	-11.4977
五榖	-11.4978
丙寅	-11.4979
除去	-11.4979
户部侍郎	-11.4979
磐石	-11.498
挨次	-11.498
譛	-11.498
失實	-11.498
扈從	-11.4981
擒捕	-11.4982
千餘人	-11.4983
且恐	-11.4983
噬	-11.4983
訓旨	-11.4984
其咎	-11.4986
邉備	-11.4986
敵勢	-11.4987
末年	-11.4992
未允	-11.4992
並須	-11.4993
劉氏	-11.4995
曠典	-11.4996
崇徳	-11.4996
恩寵	-11.4996
江陵	-11.4998
以天下為	-11.5
都知	-11.5001
用武	-11.5002
獲安	-11.5008
兵器	-11.5011
減價	-11.5015
理合據實奏聞	-11.5015
平減	-11.5018
四十九	-11.5018
卒伍	-11.5022
河南府	-11.5022
艱於	-11.5022
遇敵	-11.5025
各具	-11.5027
清江	-11.5027
兩便	-11.5028
節禮	-11.503
戎馬	-11.503
對越	-11.5031
進入	-11.5031
大統	-11.5036
家業	-11.5036
無識	-11.5037
頒行	-11.5041
各邉	-11.5042
逐州	-11.5043
衆皆	-11.5046
者也夫	-11.5048
降詔書	-11.5051
丁巳	-11.5052
獨任	-11.5053
交阯	-11.5053
種馬	-11.5054
遲悞	-11.5055
儆惕	-11.5055
繕寫	-11.5055
賍	-11.5056
因地制宜	-11.5056
牲畜	-11.5056
不揣冒昧	-11.5056
鎮筸	-11.5057
九卿詹事科道	-11.5057
倒斃	-11.5058
撒	-11.5058
瀕	-11.5059
規矩	-11.506
杭嘉湖	-11.506
奢靡	-11.506
爼	-11.5061
萬乗	-11.5061
吏員	-11.5061
不講	-11.5062
壬辰	-11.5063
銀一千兩	-11.5064
丁亥	-11.5066
牛馬	-11.5066
泛溢	-11.5066
彗星	-11.5067
桂林	-11.5068
既乆	-11.5069
阻滯	-11.5071
追贈	-11.5071
傳㫖	-11.5071
何忍	-11.5071
馬一匹	-11.5074
日昃	-11.5075
量與	-11.5076
湍	-11.5076
封章	-11.5079
告訐	-11.5079
據署	-11.508
少加	-11.508
地方官員	-11.5083
似非	-11.5084
西鄙	-11.5087
後来	-11.5088
救援	-11.5089
具瞻	-11.5091
掃除	-11.5092
屯戍	-11.5095
本原	-11.5096
身體	-11.5098
所習	-11.51
五六分	-11.5101
明敏	-11.5102
積榖	-11.5104
營員	-11.5105
施行等因	-11.5107
仍委	-11.5108
斷然	-11.5108
存乎	-11.5112
展限	-11.5112
去歲	-11.5113
但念	-11.5113
勅下	-11.5115
記曰	-11.512
莫大之	-11.512
外委	-11.5121
全賴	-11.5122
㢘恥	-11.5123
呈乞	-11.5123
也伏惟陛下	-11.5123
回賊	-11.5124
天下之財	-11.5125
理合奏明	-11.5125
縣尉	-11.513
達賴喇嘛	-11.5131
千把總	-11.5131
衂	-11.5132
夏至	-11.5133
傳奉	-11.5135
何世璂	-11.5135
彼必	-11.5137
聖澤	-11.5137
嚇	-11.5138
軍節度	-11.5139
相逺	-11.5139
庥	-11.514
汀州	-11.5141
制門下	-11.5143
趁	-11.5144
奉聖㫖是欽此	-11.5145
澇	-11.5147
鎮守太監	-11.5147
歸正	-11.5148
纒	-11.5148
佔	-11.5149
成俗	-11.5149
未諳	-11.5149
躐	-11.515
朦朧	-11.515
苐	-11.5152
嬉	-11.5152
德宗	-11.5152
不旋踵	-11.5152
其為人	-11.5153
綺	-11.5153
畏縮	-11.5153
魄	-11.5153
中書樞宻院	-11.5154
禘祫	-11.5154
亡命	-11.5154
闕下	-11.5154
崇政殿	-11.5155
洙	-11.5155
益州	-11.5155
散官	-11.5157
實繁	-11.5157
聲教	-11.5158
孟春	-11.5158
保民	-11.5159
貪贓	-11.5159
清平	-11.5159
劉摯	-11.5159
撥補	-11.5159
覲天顔	-11.516
謹将	-11.5161
太息	-11.5165
之兆	-11.5165
滋蔓	-11.5166
觀察	-11.5166
回還	-11.5167
間諜	-11.5167
俸禄	-11.5168
始初	-11.5168
伏望聖慈特賜	-11.5169
顧問	-11.517
一寸	-11.517
淳化	-11.517
金吾	-11.5171
憲徳	-11.5171
幹員	-11.5174
確勘	-11.5174
往時	-11.5176
開寳	-11.5177
謹奏覽同日又奏為	-11.5178
八寨	-11.5179
殘缺	-11.518
閫外	-11.518
嵗嵗	-11.518
通盤	-11.518
舟師	-11.5181
政刑	-11.5183
不曉	-11.5185
累民	-11.5185
盖由	-11.519
戰勝	-11.5192
諮	-11.5192
要缺	-11.5193
尤難	-11.5194
張大有	-11.5194
如今日	-11.5194
可虞	-11.5195
高下	-11.5196
徳化	-11.5199
比時	-11.52
饒州	-11.5201
亦不必	-11.5202
過宫	-11.5203
國祚	-11.5207
常患	-11.5207
大怒	-11.5207
品行	-11.5209
更屬	-11.5209
㸔得	-11.5209
兼程	-11.5209
安東	-11.521
完補	-11.522
好官	-11.5221
今冬	-11.5222
著交與	-11.5226
欲乞今後	-11.5229
三品以上	-11.5231
攙	-11.5232
纍纍	-11.5232
恭捧	-11.5232
程如絲	-11.5233
堵禦	-11.5233
朱軾	-11.5234
隰	-11.5234
怯懦	-11.5234
五品以上	-11.5235
撫按官	-11.5236
蔬	-11.5236
迂闊	-11.5236
携	-11.5237
至再至三	-11.5238
譎	-11.5238
有奇	-11.5239
妹	-11.5239
畏法	-11.524
侂胄	-11.524
舛錯	-11.5242
豎	-11.5242
品級	-11.5243
版圖	-11.5243
迤西	-11.5244
河北河東	-11.5245
蘇轍	-11.5245
適當	-11.5245
銅觔	-11.5245
個月	-11.5246
未㡬	-11.5246
草茅	-11.5246
興亡	-11.5248
清光	-11.5248
本年六月	-11.5249
老幼	-11.5251
米貼	-11.5253
俱稱	-11.5254
累次	-11.5255
王爵	-11.5256
長蘆	-11.5256
御製	-11.5256
囚徒	-11.5257
毋庸	-11.5257
奉有硃批	-11.5258
文武各官	-11.526
壯丁	-11.5261
振揚	-11.5261
事迹	-11.5261
百家	-11.5262
車騎	-11.5263
一斗	-11.5264
書籍	-11.5264
妄作	-11.5265
裁擇	-11.5266
奏要	-11.5267
立朝	-11.5268
愁怨	-11.5271
深通	-11.5271
樂善	-11.5271
萬夀	-11.5277
限内	-11.5278
犯贓	-11.5278
挾制	-11.5279
動經	-11.5284
解散	-11.5285
稱慶	-11.5285
巳久	-11.5286
練習	-11.5289
餘丈	-11.529
此三者	-11.5293
繕摺奏明	-11.5293
家法	-11.5295
如斯	-11.5295
也伏望聖慈	-11.5296
現據	-11.5303
草束	-11.5304
諸科	-11.5305
平原	-11.5309
六品	-11.5309
申請	-11.5309
乆逺	-11.5311
樣	-11.5313
必資	-11.5315
鑄錢	-11.5317
未遑	-11.5317
西賊	-11.5318
臨敵	-11.5319
扁	-11.5319
容美	-11.5321
謀國	-11.5321
縀	-11.5322
外餘	-11.5323
歡忭	-11.5324
臨洮	-11.5324
磁	-11.5324
𠫭	-11.5325
有以見陛下	-11.5325
就食	-11.5327
緊急	-11.5328
父母妻子	-11.5328
夤緣	-11.5328
幄	-11.5329
粮草	-11.5329
召試	-11.533
忠臣義士	-11.533
巍巍	-11.5331
喫	-11.5331
辛丑	-11.5331
正身	-11.5331
一萬四千	-11.5332
廊廟	-11.5335
彼既	-11.5336
矣况	-11.5336
懐柔	-11.5336
心膂	-11.5337
此皆我皇上	-11.5338
依例	-11.5338
不愛	-11.5339
調取	-11.534
侵掠	-11.534
不急之務	-11.5344
眀堂	-11.5345
辛酉	-11.5345
盛典	-11.5345
殘破	-11.5348
無礙	-11.5349
盛事	-11.5349
慶州	-11.5352
素知	-11.5356
六日	-11.5356
上副	-11.5357
貴戚	-11.5358
與天地	-11.5359
得其宜	-11.5359
任滿	-11.5362
詞頭	-11.5362
朱子	-11.5363
糧運	-11.5364
猓賊	-11.5365
功賞	-11.5366
永安	-11.5367
仁宗時	-11.5368
帝堯	-11.5368
二百八十	-11.5368
都省	-11.5369
先皇	-11.537
厲精	-11.5371
原情	-11.5372
歳月	-11.5372
外理合	-11.5374
廣言路	-11.5374
衛官軍	-11.5377
劉豫	-11.5379
太宗曰	-11.538
不可不慮	-11.5381
諸王大臣等	-11.5384
保護	-11.5385
宗子	-11.5385
理道	-11.5389
寳應	-11.5389
身受	-11.539
通和	-11.539
詣闕	-11.539
底止	-11.5391
一千八百	-11.5392
六尺	-11.5397
取回	-11.5398
也何謂	-11.5399
五百名	-11.5399
擾亂	-11.5402
寵榮	-11.5405
煩瀆	-11.5406
舵	-11.541
稍加	-11.5411
聞命之下	-11.5411
帽	-11.5412
切加	-11.5412
燒燬	-11.5412
雷同	-11.5413
以仰副我皇上	-11.5413
徹底清查	-11.5414
敢忘	-11.5414
何待	-11.5414
事題為	-11.5415
矛盾	-11.5415
趙汝愚	-11.5416
二十名	-11.5416
内外臣工	-11.5416
難辭	-11.5416
侵盜	-11.5416
冉	-11.5416
諾岷	-11.5417
窟	-11.5417
員缺著	-11.5417
雋	-11.5417
於雍正四年	-11.5418
忒	-11.5418
閽	-11.5419
掄	-11.542
工費	-11.5421
堵截	-11.5421
袤	-11.5422
阨	-11.5422
顧惜	-11.5422
飼	-11.5423
當是之時	-11.5423
分寸	-11.5425
痛恨	-11.5426
元惡	-11.5427
謹奏據奏	-11.5428
癸未	-11.5429
垂簾	-11.5429
羣盜	-11.543
圜	-11.5431
素行	-11.5431
中書侍郎	-11.5431
益甚	-11.5432
宣洩	-11.5436
逐一查	-11.5436
合計	-11.5438
廟宇	-11.5438
方物	-11.544
𩔖皆	-11.5441
毋令	-11.5442
保無虞	-11.5442
貽害	-11.5445
倉米	-11.5445
五萬兩	-11.5446
仰懇皇上	-11.5448
魏公	-11.5448
河員	-11.5449
豆麥	-11.5449
修城	-11.5452
包容	-11.5453
徃年	-11.5454
賑給	-11.5458
自古人君	-11.546
才堪	-11.546
添兵	-11.5464
小麥	-11.5467
西山	-11.5468
才幹	-11.5468
欽依	-11.5468
之所欲	-11.5469
彈奏	-11.5473
短少	-11.5474
頃年	-11.5477
清廟	-11.5478
出賣	-11.548
經濟	-11.5483
分防	-11.5484
實惠	-11.5485
舊習	-11.5487
八名	-11.5488
建隆	-11.5488
四十二	-11.5494
輕動	-11.5496
革心	-11.5497
于朝	-11.5498
之姿	-11.5498
選法	-11.5498
之根本	-11.5498
招安	-11.5498
撫諭	-11.55
滄州	-11.55
朕㫖	-11.5501
作亂	-11.5501
省費	-11.5501
水次	-11.5501
軼	-11.5503
禋	-11.5505
顏	-11.5505
寃枉	-11.5506
欣悦	-11.5507
瑀	-11.5507
張鵬翮	-11.5509
帳房	-11.5509
拊	-11.5509
骸	-11.551
趾	-11.551
充公	-11.5511
郯	-11.5511
察焉	-11.5512
嚴密	-11.5512
忠正	-11.5512
固辭	-11.5512
掯	-11.5512
䜟	-11.5513
大行皇帝	-11.5513
知州知縣	-11.5514
僉都御史	-11.5514
百戸	-11.5514
梯	-11.5516
劣員	-11.5517
建置	-11.5517
搜捕	-11.5518
去歳	-11.5518
藩屏	-11.5519
一兩二錢	-11.5522
孰與	-11.5522
章句	-11.5523
邇英	-11.5523
所賜	-11.5525
速賜	-11.5526
庻幾	-11.5527
以示朕	-11.5527
今秋	-11.5528
祖宗舊制	-11.5531
己酉	-11.5531
輕議	-11.5533
瓊州	-11.5533
題覆	-11.5535
犯邊	-11.5536
重典	-11.5536
未可以	-11.5536
重惜	-11.5537
深念	-11.5538
無恙	-11.5539
加惠	-11.554
集事	-11.5541
安逸	-11.5541
查革	-11.5541
石塘	-11.5543
平允	-11.5543
糾察	-11.5546
俱要	-11.5548
開闢	-11.5549
四十四	-11.5553
連坐	-11.5554
貪吏	-11.5555
高祖	-11.5556
供報	-11.5557
生財	-11.556
賊黨	-11.5563
動静	-11.5564
禍患	-11.5566
陛下試	-11.5568
給散	-11.5569
重鎮	-11.5571
兆人	-11.5575
班師	-11.5576
口供	-11.5577
池州	-11.5577
肆志	-11.5577
豈止	-11.5578
大祀	-11.5578
四五分	-11.5579
猶能	-11.5579
不敢擅	-11.558
數年之間	-11.5582
曲賜	-11.5583
八百餘	-11.5586
節經	-11.5589
縣報稱	-11.5589
同日又奏為奏明事竊	-11.5593
狆	-11.5594
煽	-11.5595
敖	-11.5596
鹵	-11.5597
阿其那	-11.5597
然後能	-11.5597
知畏	-11.5597
登極	-11.5598
卵	-11.5598
努力	-11.5598
二十萬石	-11.5598
𤨏	-11.5598
餒	-11.5599
喘	-11.56
三箇月	-11.56
廣信	-11.56
出糶	-11.5601
琢	-11.5601
同心協力	-11.5601
一千三百	-11.5601
宋宋敏求編	-11.5601
袋	-11.5602
五尺	-11.5602
直隷	-11.5602
解京	-11.5603
詈	-11.5603
攄	-11.5603
特降睿㫖	-11.5604
繕摺奏謝	-11.5604
丐	-11.5604
慎選	-11.5604
夾帶	-11.5605
微員	-11.5605
回報	-11.5605
遭逢	-11.5607
嘉禾	-11.5608
荒歉	-11.5609
詳擇	-11.5611
貧乏	-11.5612
農隙	-11.5613
紳士	-11.5613
黄道	-11.5614
月上時為	-11.5615
仰頼	-11.5618
孰能	-11.5619
肉刑	-11.562
安燾	-11.5623
鹽道	-11.5624
改更	-11.5624
賊情	-11.5625
博採	-11.5626
未必盡	-11.5626
鄭𤣥	-11.5627
内廷	-11.5627
竊照	-11.5629
十二月内	-11.5633
追呼	-11.5634
異姓	-11.5634
忠讜	-11.5635
似乎	-11.5636
嗟怨	-11.5637
逐細	-11.5638
滋事	-11.5639
詹	-11.5641
劄子曰臣聞	-11.5642
謹具奏聞	-11.5646
陞職	-11.5646
裁察	-11.5648
聲援	-11.5648
長城	-11.5648
謹奏朕	-11.565
四裔	-11.5651
綱常	-11.5651
尚書令	-11.5652
九族	-11.5656
批令	-11.5657
衣糧	-11.5658
科斂	-11.5658
可喜	-11.566
六卿	-11.566
常調	-11.5661
禆益	-11.5664
無聊	-11.5664
戍兵	-11.5666
所奏是	-11.5667
如許	-11.5669
正月内	-11.5673
赴省	-11.5673
三十餘年	-11.5677
領銀	-11.5677
議郎	-11.5681
為御史中丞	-11.5683
所薦	-11.5684
勅書	-11.5685
性情	-11.5686
痰	-11.5687
何天培	-11.5687
合併聲明	-11.5691
欽惟我皇上	-11.5692
望闕叩頭謝恩	-11.5693
同日又奏為奏聞事	-11.5694
渇	-11.5694
掇	-11.5695
帶管	-11.5695
淆	-11.5695
不協	-11.5696
茍容	-11.5696
婚姻	-11.5697
五色	-11.5697
鄖	-11.5697
楊廷和	-11.5698
凍餒	-11.5698
神聖	-11.5698
頺	-11.5698
瑜	-11.5698
家給人足	-11.5699
付託之重	-11.5699
跌	-11.5699
翹	-11.57
有不可勝言者	-11.5701
繩墨	-11.5701
理亂	-11.5702
臧否	-11.5702
烹	-11.5703
貪汚	-11.5703
宴安	-11.5703
兩廣總督	-11.5704
率由	-11.5705
髙斌	-11.5709
由此而	-11.5709
利便	-11.5709
釐革	-11.5709
適足	-11.571
侈靡	-11.571
荷聖恩	-11.5711
征勦	-11.5711
髙家堰	-11.5711
鳳陽	-11.5712
硃批諭旨	-11.5712
僅能	-11.5716
間隙	-11.5718
種麥	-11.572
閒散	-11.572
抗違	-11.5721
囘奏	-11.5723
髙堰	-11.5724
子韶	-11.5727
俯察	-11.5727
具存	-11.5728
鄰省	-11.5728
上下交	-11.5728
利益	-11.5729
檢舉	-11.5729
孝弟	-11.5731
裁去	-11.5732
八九分	-11.5733
特出	-11.5735
十之二	-11.5737
汛兵	-11.5741
六十年	-11.5744
請嗣後	-11.5749
吉安	-11.575
終嵗	-11.5752
各種	-11.5759
繼之以	-11.5761
驛馬	-11.5762
搬	-11.5764
有所聞	-11.5766
地方遼濶	-11.5766
壯健	-11.5766
昭著	-11.5766
都御史楊一清	-11.5769
向因	-11.577
西漢	-11.577
聖度	-11.5771
必死	-11.5771
遷轉	-11.5773
用之物	-11.5774
巡撫巡按	-11.5776
亷恥	-11.5779
吐魯番	-11.578
騍馬	-11.578
倂	-11.5782
倒塌	-11.5783
期㑹	-11.5785
古禮	-11.5785
僧尼	-11.5786
清吏司案呈奉本部送	-11.5786
車輛	-11.5787
瘡	-11.5788
敞	-11.5788
總督印務	-11.5789
下明詔	-11.5789
黙黙	-11.579
雀	-11.579
峯	-11.579
丙辰	-11.5791
煬帝	-11.5793
逆黨	-11.5793
古北口	-11.5793
腰	-11.5794
撥亂	-11.5794
寛假	-11.5794
隂雨	-11.5795
鹽引	-11.5795
屯駐	-11.5795
葵	-11.5795
小吏	-11.5795
慤	-11.5795
弦	-11.5796
生殺	-11.58
刁風	-11.58
從祀	-11.58
袖	-11.5802
疎縱	-11.5803
極論	-11.5805
星夜	-11.5805
仰祈睿鑒事竊照	-11.5806
漢光武	-11.5807
親歴	-11.5808
遠近	-11.5808
震怒	-11.5813
銀錢	-11.5813
化成	-11.5817
三衛	-11.5819
禁絶	-11.582
輒敢	-11.582
流徙	-11.5822
身先	-11.5823
贓吏	-11.5824
都䕶	-11.5826
田宅	-11.5827
盜犯	-11.5828
破格	-11.583
四字	-11.583
朝貢	-11.5832
公侯	-11.5832
毎日	-11.5834
某處	-11.5834
迨至	-11.5835
廵幸	-11.5836
羌人	-11.584
祖宗時	-11.584
假使	-11.584
計處	-11.584
得其實	-11.584
五十八	-11.5841
可知也	-11.5842
危急	-11.5843
重賞	-11.5843
自去年	-11.5845
銀一錢	-11.5847
歡心	-11.5849
協濟	-11.5851
平章	-11.5852
毎月	-11.5855
銀二千	-11.5856
勤政	-11.5857
此之謂	-11.5858
相顧	-11.5859
打造	-11.586
親政	-11.5861
進擬	-11.5867
私家	-11.5867
行禁止	-11.5869
所以然者	-11.587
暫署	-11.587
無虧	-11.5875
口稱	-11.5875
瑄	-11.5876
斧鉞	-11.5878
千萬人	-11.5879
輸將	-11.588
遊撃	-11.5881
去後兹據	-11.5881
塋	-11.5884
惴惴	-11.5885
馬文升	-11.5885
樞密院	-11.5886
鳳翔	-11.5886
别白	-11.5886
愎	-11.5887
仆	-11.5887
彗	-11.5888
閎	-11.5888
亳	-11.5888
柴薪	-11.5889
只如	-11.589
橫	-11.589
氣象	-11.589
臣不勝惓惓	-11.5891
待罪之至	-11.5892
有天下者	-11.5895
珠玉	-11.5895
存恤	-11.5898
李元	-11.59
完工	-11.59
矜恤	-11.59
内揀選	-11.59
果何	-11.5901
莫先	-11.5901
不可不謹	-11.5903
天之所	-11.5904
有裨	-11.5904
迫於	-11.5906
庫帑	-11.5906
失守	-11.5908
浮冒	-11.5908
呈送	-11.5911
辛巳	-11.5911
連嵗	-11.5914
境上	-11.5915
叅領	-11.5916
唐室	-11.5917
生番	-11.592
正色	-11.5922
車服	-11.5923
慈愛	-11.5925
靖邊	-11.5926
田畆	-11.5927
意謂	-11.5928
好名	-11.5928
探報	-11.5929
各該地方	-11.593
師徒	-11.5933
自恃	-11.5934
逃遁	-11.5935
方敢	-11.5937
所種	-11.5938
精熟	-11.5938
首先	-11.5938
不救	-11.5939
二千名	-11.594
五百人	-11.5941
禹湯	-11.5942
未甞不	-11.5947
朝綱	-11.5948
何如耳	-11.5951
容納	-11.5952
曲盡	-11.5953
給舍	-11.5954
而後可以	-11.5955
聖眀	-11.5956
其弟	-11.5957
經典	-11.5961
本籍	-11.5961
竊議	-11.5962
非細	-11.5962
就擒	-11.5967
逐漸	-11.5967
綠旗	-11.5968
要犯	-11.5969
以為戒	-11.5973
清冊	-11.5974
細心	-11.5974
筋	-11.5974
開放	-11.5978
斯人	-11.5978
猶豫	-11.5979
更始	-11.5979
錡	-11.598
知其不可	-11.598
紘	-11.598
乙亥	-11.598
緘	-11.598
之盛心	-11.5981
煌	-11.5981
都勻	-11.5984
贅	-11.5984
影射	-11.5984
裒	-11.5984
阻撓	-11.5985
隷	-11.5985
負皇上	-11.5985
姦惡	-11.5985
婢	-11.5986
愕	-11.5986
悔悟	-11.5986
地里	-11.5987
心志	-11.5987
朋友	-11.5987
㕘劾	-11.5989
洶洶	-11.5989
緝熈	-11.5989
責躬	-11.599
不侔	-11.5991
罔知	-11.5992
工價	-11.5993
相連	-11.5993
曬	-11.5994
髙郵	-11.5994
唐虞三代	-11.5995
費財	-11.5996
里甲	-11.5998
乙巳	-11.6
預聞	-11.6
邊儲	-11.6003
嘉興	-11.6003
四十一	-11.6003
宏逺	-11.6003
日滋	-11.6005
畏罪	-11.6006
其勢必	-11.6007
應試	-11.6007
教閱	-11.6007
狄青	-11.6007
戚里	-11.6008
乎况	-11.6008
愈難	-11.6008
爭先	-11.601
不勝感激	-11.6012
憚於	-11.6015
加耗	-11.6017
驗看	-11.6018
兩端	-11.602
擬合	-11.6021
邳州	-11.6022
干求	-11.6022
擬斬	-11.6032
印結	-11.6033
歎曰	-11.6033
道里	-11.6035
漢陽	-11.6035
適足以	-11.6036
最重	-11.6036
乆安	-11.6039
旁求	-11.6044
辛未	-11.6045
金城	-11.6045
一篇	-11.6047
奮力	-11.6047
該兵部	-11.6048
依限	-11.605
如此庶	-11.6051
作樂	-11.6053
疑懼	-11.6054
究審	-11.6056
據供	-11.6056
討賊	-11.6058
謀殺	-11.6058
懲惡	-11.6058
斷不能	-11.6059
撫字	-11.6059
租稅	-11.6063
稱頌	-11.6064
前嵗	-11.6065
救荒	-11.6065
圩	-11.607
君臣上下	-11.607
曰不然	-11.607
一視同仁	-11.6073
邉陲	-11.6074
俸糧	-11.6077
争先	-11.6077
旱澇	-11.6077
各該衙門	-11.6078
詩人	-11.6078
跋	-11.6078
耄	-11.6079
慷慨	-11.6079
勵精圖治	-11.6079
癸亥	-11.6079
廡	-11.6079
降旨	-11.6079
壻	-11.6079
金鉷	-11.6079
天下無事	-11.6079
騁	-11.608
訾	-11.608
監察御史裏行	-11.608
緑	-11.6081
噫	-11.6081
壬申	-11.6081
處治	-11.6081
禮畢	-11.6081
依戀	-11.6082
希烈	-11.6082
吁	-11.6082
瑶	-11.6082
罄竭	-11.6083
疆土	-11.6083
河之水	-11.6083
礮臺	-11.6086
容易	-11.6086
專權	-11.6086
孳生	-11.6087
㸃檢	-11.6087
山東巡撫	-11.6087
招納	-11.6088
圎	-11.6088
厥後	-11.6089
終不可	-11.609
鮮有	-11.609
寛嚴	-11.6091
搬運	-11.6091
科率	-11.6091
光棍	-11.6091
百寮	-11.6093
清濁	-11.6093
恩典	-11.6096
孰肯	-11.6096
輕率	-11.6096
真定	-11.6097
兇頑	-11.6098
三百五十	-11.6099
平昔	-11.61
淤塞	-11.6101
牽連	-11.6101
榮辱	-11.6102
凶荒	-11.6102
羣黎	-11.6103
弊政	-11.6103
鴻業	-11.6103
披甲	-11.6104
年限	-11.6106
祖宗故事	-11.6106
振起	-11.6107
名教	-11.6107
稍渉	-11.6108
失利	-11.611
引鹽	-11.6111
禮制	-11.6113
不自安	-11.6113
通詳	-11.6113
陞用	-11.6114
墾田	-11.6114
全盛	-11.612
得其道	-11.612
許國	-11.612
忠勤	-11.6121
唯是	-11.6121
應如何	-11.6127
極邊	-11.6127
輕授	-11.6129
自勵	-11.613
昭明	-11.6131
繼母	-11.6134
送納	-11.614
謹繕摺奏聞	-11.6142
此數人	-11.6143
銀二千兩	-11.6143
無忘	-11.6146
龍門	-11.6147
乾道	-11.6152
遇警	-11.6152
應天府	-11.6154
有賴	-11.6156
兩四錢	-11.6157
廵撫衙門	-11.6161
嚴催	-11.6166
四十七	-11.6166
幸免	-11.6167
升降	-11.6168
賦税	-11.6169
疎逺	-11.6169
以手加額	-11.617
該督撫等	-11.6171
賢良方正	-11.6171
呈繳	-11.6171
三十里	-11.6171
查嗣庭	-11.6171
有應行	-11.6172
以示鼓勵	-11.6172
乆任	-11.6172
覊	-11.6173
餼	-11.6176
虢	-11.6176
蓬	-11.6176
臨江	-11.6177
璟	-11.6177
圮	-11.6177
宸濠	-11.6178
詳覆	-11.6178
潭州	-11.6178
鋒鏑	-11.618
待命之至	-11.618
嘴	-11.6182
鳥獸	-11.6184
五月初	-11.6185
直省督撫	-11.6185
凋弊	-11.6186
確議具奏	-11.6187
什物	-11.6188
循環	-11.6188
賦稅	-11.6189
五六十	-11.619
數郡	-11.6191
采擇	-11.6193
感頌	-11.6193
遷就	-11.6193
異域	-11.6194
攻圍	-11.6195
理合恭繳謹奏	-11.6196
豪强	-11.6197
之一端也	-11.6197
送法司	-11.6198
悞事	-11.6199
乖方	-11.6201
陵夷	-11.6201
奉差	-11.6201
精壯	-11.6202
空虛	-11.6203
李絳	-11.6203
騎兵	-11.6205
更甚	-11.6205
錢帛	-11.6209
貪暴	-11.621
雜職	-11.621
藥石	-11.6212
射利	-11.6215
捕獲	-11.6217
上干	-11.6217
章程	-11.6219
咨文	-11.6223
私室	-11.6224
果斷	-11.6226
逺邇	-11.6228
報功	-11.6228
二百名	-11.6229
漕運總督	-11.623
過犯	-11.6231
相距	-11.6233
向前	-11.6233
凉州	-11.6233
萬安	-11.6234
進攻	-11.6234
前諭	-11.6235
差往	-11.6237
繼統	-11.6238
甫經	-11.6238
忠貞	-11.624
善𩔖	-11.6244
合食	-11.6244
深戒	-11.6244
前次	-11.6245
賢君	-11.6246
山西巡撫	-11.6246
補種	-11.6251
理合具摺	-11.6251
備悉	-11.6256
永固	-11.6257
不耕	-11.6258
恬然	-11.6259
另行具奏	-11.626
賭	-11.6262
文藝	-11.6263
奸民	-11.6264
延寧	-11.6265
觀瞻	-11.6265
漢土官兵	-11.6266
遣發	-11.6267
不失其	-11.6269
虔	-11.627
應募	-11.627
咸使聞知	-11.6271
碾	-11.6271
遄	-11.6271
東流	-11.6271
李林甫	-11.6271
拮据	-11.6272
俠	-11.6272
紵絲	-11.6273
壬寅	-11.6274
難容	-11.6275
棠	-11.6275
庄	-11.6275
肝膽	-11.6275
其所欲	-11.6276
滙	-11.6276
搗	-11.6276
奸宄	-11.6277
鍳	-11.6277
跪誦	-11.6277
礦徒	-11.6278
丁丑	-11.6279
棐	-11.6279
鎬	-11.6279
忙	-11.628
堯舜禹湯文武	-11.6281
賖	-11.6282
年六十	-11.6283
常川	-11.6283
節級	-11.6283
宸翰	-11.6283
宫掖	-11.6284
者不可勝數	-11.6284
厚風俗	-11.6285
六國	-11.6285
減水壩	-11.6285
容受	-11.6286
審結	-11.6288
仰仗	-11.6289
重複	-11.629
竊弄	-11.629
此二者	-11.6291
條件	-11.6295
二十里	-11.6295
風采	-11.6297
者十居	-11.6298
府尹	-11.6298
株連	-11.6301
再拜	-11.6302
響應	-11.6302
竊以為	-11.6304
咨開	-11.6304
終難	-11.6308
參酌	-11.6308
智力	-11.6308
上游	-11.6311
教場	-11.6314
廣西廵撫	-11.6316
越獄	-11.6316
責降	-11.6318
月餘	-11.6319
通好	-11.6325
興販	-11.6328
田廬	-11.6328
議者謂	-11.6329
来京	-11.6329
私門	-11.6329
萬壽	-11.6337
為有益	-11.6342
夷夏	-11.6343
就職	-11.6344
才智	-11.6345
輕信	-11.6346
軍餉	-11.6347
相慶	-11.6348
邊外	-11.6349
邀功	-11.635
熟計	-11.6351
催督	-11.6352
百代	-11.6353
普天	-11.6354
利息	-11.6356
熟慮	-11.6362
審究	-11.6364
兵備道	-11.6365
豈有不	-11.6366
納賄	-11.6367
授受	-11.6368
稲	-11.6369
卡	-11.6371
都督僉事	-11.6371
旄	-11.6371
缷	-11.6372
窵逺	-11.6372
馬㑹伯	-11.6372
兵部知道	-11.6372
堕	-11.6372
儀禮	-11.6373
侍讀學士	-11.6373
偏私	-11.6374
榆	-11.6375
儔	-11.6376
正值	-11.6376
拖累	-11.6377
瘝	-11.6377
獻言	-11.6378
俎	-11.6378
滋潤	-11.6378
轂	-11.6378
駙	-11.6379
都虞候	-11.6379
傅堯俞	-11.6379
豐歉	-11.638
駢	-11.638
呼吸	-11.638
萬不可	-11.638
冥	-11.6381
善後事宜	-11.6381
指摘	-11.6382
歴代名臣奏議巻	-11.6382
嘉靖元年	-11.6383
分五釐	-11.6383
子粒	-11.6383
乖戾	-11.6383
僻壤	-11.6384
閒住	-11.6384
求直言	-11.6384
欽遵諭㫖	-11.6385
未䝉施行	-11.6386
多費	-11.6388
國之大事	-11.6389
嘉謀	-11.6389
本監	-11.639
荒蕪	-11.6391
騰貴	-11.6392
數路	-11.6397
后土	-11.6399
之至謹奏	-11.6402
仰祈睿鑒事竊查	-11.6403
營堡	-11.6403
甘雨	-11.6404
土俗	-11.6404
主帥	-11.6406
昌衡	-11.6406
曠職	-11.6407
逆耳	-11.6407
規避	-11.6409
殃民	-11.641
積粟	-11.6412
堂除	-11.6413
一切事宜	-11.6415
初心	-11.6416
分彼此	-11.6417
之甚也	-11.6419
四月初	-11.6421
勇敢	-11.6423
措辦	-11.6424
神功	-11.6427
一匣	-11.6428
祀天	-11.6428
四尺	-11.6428
在套	-11.643
覈實	-11.6431
完竣	-11.6432
給領	-11.6432
之效也	-11.6433
英武	-11.6433
奉勅	-11.6435
有八分	-11.6436
如日月	-11.6436
停罷	-11.6436
優異	-11.6436
河底	-11.6437
未乆	-11.6439
審度	-11.644
著行文	-11.6441
器具	-11.6441
稍存	-11.6445
禁旅	-11.6447
協心	-11.6449
寸長	-11.645
歸誠	-11.645
也今天下	-11.6453
存倉	-11.6453
懲勸	-11.6457
數百年	-11.6457
無忝	-11.6459
五十五	-11.646
具狀	-11.6462
量力	-11.6465
柬	-11.6469
廵按御史	-11.6471
癸卯	-11.6472
聮	-11.6472
倬	-11.6472
回空	-11.6472
曏	-11.6472
者必曰	-11.6473
跪聆	-11.6474
署都指揮僉事	-11.6474
户部尚書	-11.6474
鑾輿	-11.6475
家丁	-11.6475
憶	-11.6475
工部侍郎	-11.6476
闒茸	-11.6476
得雨日期	-11.6477
住居	-11.6479
横山	-11.6479
楊琳	-11.6479
地丁錢糧	-11.648
犀	-11.648
樵	-11.648
斷難	-11.648
廉潔	-11.6481
行旅	-11.6481
蠡	-11.6481
注意	-11.6482
漢祖	-11.6482
似難	-11.6482
所知者	-11.6483
王璣	-11.6484
邦彦	-11.6485
臣等不勝	-11.6486
逆順	-11.6486
二十人	-11.6487
童貫	-11.649
超越	-11.649
齎送	-11.6491
賢俊	-11.6491
欽定	-11.6496
管束	-11.6497
資生	-11.6499
境土	-11.6499
明賞罰	-11.65
勸善	-11.6502
退朝	-11.6503
二級	-11.6503
未孚	-11.6504
茶法	-11.6506
等級	-11.6507
改造	-11.6507
▁上諭	-11.6511
屈抑	-11.6512
銀七千	-11.6513
詰問	-11.6514
本根	-11.6516
狃	-11.6516
弊竇	-11.6516
交部議	-11.6518
鹽鐵	-11.6518
京邑	-11.6519
愚慮	-11.6522
仰䝉皇上	-11.6522
上諭大學士等曰朕	-11.6523
交集	-11.6524
裕民	-11.6525
土豪	-11.6526
海寧	-11.6526
暫且	-11.6528
確估	-11.6528
在於此	-11.6529
有言曰	-11.6529
付有司	-11.6533
軍情	-11.6536
逃避	-11.6536
是之謂	-11.654
應作何	-11.654
漕司	-11.654
人皆知	-11.6545
生齒	-11.6546
試思	-11.6548
乘時	-11.655
若輩	-11.6555
揮	-11.6559
所賴	-11.6559
做工	-11.6562
敗亡	-11.6563
謹㑹同	-11.6565
扈	-11.6565
安集	-11.6567
題報在案	-11.6568
楊永斌	-11.6569
癸酉	-11.657
常格	-11.657
河一道	-11.6572
近古	-11.6572
郴	-11.6575
綾	-11.6575
雨澤愆期	-11.6575
鋐	-11.6576
聖明洞鑒	-11.6576
設官分職	-11.6577
纓	-11.6577
締	-11.6577
鎮戎	-11.6577
戊戌	-11.6577
愚昧之見	-11.6578
睠	-11.6578
窮極	-11.6578
郝	-11.6578
殉	-11.6579
功德	-11.6579
腸	-11.6579
涓	-11.6579
為此具摺	-11.6581
皂	-11.6582
米麥	-11.6584
父子兄弟	-11.6585
加增	-11.6587
化誨	-11.6589
風教	-11.6592
十之三	-11.6595
其一曰	-11.6595
貴陽	-11.6598
譬猶	-11.6599
四野	-11.6599
向例	-11.6602
畏服	-11.6602
八十餘	-11.6602
暴虐	-11.6604
鳯陽	-11.6604
君臣之義	-11.6606
勢力	-11.6606
陜西布政司	-11.6606
相攻	-11.6607
添差	-11.6608
諭之曰	-11.661
犯顔	-11.6614
蒲州	-11.6615
韓愈	-11.6615
被傷	-11.6617
恩詔	-11.6619
逃故	-11.6619
将何以	-11.662
儘可	-11.6622
近邊	-11.6624
孫覺	-11.6625
裁定	-11.6627
充斥	-11.6628
竊盜	-11.6628
空糧	-11.6629
據布政使	-11.6631
嗣後凡	-11.6631
冬月	-11.6632
咨行	-11.6633
規畫	-11.6633
專差	-11.6635
嚴謹	-11.6635
取於民	-11.6642
尚須	-11.6643
也臣謂	-11.6644
大概	-11.6645
米貴	-11.6645
辦納	-11.6652
發賣	-11.6653
深究	-11.6653
䝉聖慈	-11.6655
地畆	-11.6655
百凡	-11.6657
原題	-11.6661
辦料	-11.6662
錢塘	-11.6664
誠信	-11.6668
洪惟	-11.6668
月給	-11.667
田旻如	-11.6671
相離	-11.6672
藍廷珍	-11.6674
提撕	-11.6676
恭請聖安	-11.6676
至聖至明	-11.6676
砲	-11.6678
如䝉乞勅	-11.6679
郊迎至署	-11.6679
胎	-11.668
寰區	-11.668
鰥寡	-11.6681
弑	-11.6681
塹	-11.6682
加意撫恤	-11.6682
壬戌	-11.6683
愚陋	-11.6683
芟	-11.6684
知諌院	-11.6685
㩁	-11.6685
延齡	-11.6686
屢降諭㫖	-11.6686
戇	-11.6687
二帝三王	-11.6689
進故事曰	-11.669
婻	-11.669
百斤	-11.669
痛哭	-11.6691
雍熈	-11.6692
不勝惶悚	-11.6692
二百七十	-11.6693
取勘	-11.6695
水性	-11.6695
洪慈	-11.6697
窮黎	-11.6697
冗濫	-11.6699
涵養	-11.6699
艱苦	-11.67
閩廣	-11.6701
在藩邸	-11.6701
垂訓	-11.6701
遼濶	-11.6702
檄令	-11.6704
三百兩	-11.6709
遲速	-11.6711
援兵	-11.6711
反致	-11.6712
封禪	-11.6713
防閑	-11.6714
䟽曰臣聞	-11.6717
同日又奏為欽奉上諭事	-11.6717
滋甚	-11.6721
子産	-11.6721
闗支	-11.6722
良弼	-11.6723
宿弊	-11.6724
功次	-11.6724
通達	-11.6726
盈餘	-11.6727
府界	-11.6729
傳報	-11.6731
酌撥	-11.6733
通商	-11.6736
者未之有也	-11.6739
衰病	-11.674
稽首	-11.6745
愚謂	-11.6745
科派	-11.6746
路費	-11.6747
受其弊	-11.6748
不渝	-11.6749
刑辟	-11.6751
右僕射	-11.6752
頻仍	-11.6752
陞轉	-11.6755
自揣	-11.676
賊巢	-11.6761
萬金	-11.6761
任責	-11.6765
總領	-11.6769
船户	-11.6773
縁邊	-11.6774
佐雜	-11.6778
圃	-11.678
扛	-11.6781
筮	-11.6782
一轉移間	-11.6782
玩愒	-11.6782
另有諭㫖	-11.6783
猶存	-11.6783
唐虞之	-11.6783
防微杜漸	-11.6784
一百名	-11.6784
什一	-11.6785
纎毫	-11.6785
欽天監	-11.6785
揭帖	-11.6785
胞	-11.6785
容留	-11.6786
偏裨	-11.6787
幫助	-11.6788
倚仗	-11.6788
事理未敢擅便謹題請㫖	-11.6789
綸音	-11.6789
節義	-11.6791
蘄	-11.6792
嚴緝	-11.6792
王貝勒	-11.6792
也臣請	-11.6792
區宇	-11.6792
捉獲	-11.6793
招商	-11.6793
筋力	-11.6793
戊子	-11.6794
二三十	-11.6794
支費	-11.6794
太平興國	-11.6794
漢姦	-11.6794
冢宰	-11.6795
禁錮	-11.6795
洪澤湖	-11.6796
十餘萬兩	-11.6797
險易	-11.6798
内官監	-11.6798
掊克	-11.6799
而力行之	-11.6801
荷皇上	-11.6801
城邑	-11.6802
勞心	-11.6803
甚嚴	-11.6804
祖禹	-11.6805
温州	-11.6806
新附	-11.6807
㧞擢	-11.6808
雨露	-11.6809
考古	-11.681
臣愚欲望陛下	-11.6811
境外	-11.6811
奬賞	-11.6812
承大統	-11.6816
太子太保	-11.6817
立春	-11.6818
北伐	-11.6821
限滿	-11.6823
特授	-11.6824
總期	-11.6826
入冦	-11.6826
憂慮	-11.6826
謀猷	-11.6827
未形	-11.6828
十一月内	-11.6828
建築	-11.6829
福建廵撫	-11.683
贓私	-11.6833
正其罪	-11.6835
以成其	-11.6842
慕義	-11.6842
也故曰	-11.6845
妄議	-11.6846
賞格	-11.6847
秋後	-11.685
繼嗣	-11.6851
辦集	-11.6853
倉皇	-11.6853
貪功	-11.6855
官貟	-11.6856
有妨	-11.6861
幽明	-11.6862
騷	-11.6866
曩者	-11.6867
灾異	-11.6868
百職	-11.6872
倚任	-11.6872
初意	-11.6874
動輒	-11.6875
似亦	-11.6877
慨	-11.6879
猪	-11.688
鍋	-11.6881
概行	-11.6883
㫖意	-11.6885
忠愛	-11.6886
夷情	-11.6887
四十三	-11.6887
疏入得㫖	-11.6888
正徳十六年	-11.6889
渰	-11.689
剴切	-11.689
煮	-11.6891
雨水過多	-11.6891
延頸	-11.6891
吟	-11.6893
均沾實惠	-11.6893
磧	-11.6894
改過不吝	-11.6894
欣慰	-11.6894
驥	-11.6895
宵衣旰食	-11.6896
由是觀之	-11.6897
欄	-11.6897
整肅	-11.6897
南渡	-11.6899
阮	-11.6899
金門	-11.6899
諌議大夫	-11.6899
驕惰	-11.69
欽定四庫全書歴代名臣奏議卷一百	-11.69
稚	-11.69
謹飭	-11.6902
城壁	-11.6903
日蝕	-11.6907
早賜施行	-11.6909
霜降	-11.6909
磬	-11.6909
耳目之官	-11.6911
苖疆	-11.6911
彦愽	-11.6914
淤淺	-11.6915
統率	-11.6916
遵諭	-11.6917
莫肯	-11.6918
樂舞	-11.6919
量才	-11.692
謹案	-11.6921
貽累	-11.6922
漢興	-11.6922
似覺	-11.6922
戍卒	-11.6922
損壞	-11.6926
銅斤	-11.693
放還	-11.693
知朕意	-11.6931
混一	-11.6932
面商	-11.6933
養士	-11.6935
淮水	-11.6939
歸化	-11.6939
號稱	-11.694
失人心	-11.6944
克勝任	-11.6945
湖北廵撫	-11.6947
志氣	-11.6951
請勅	-11.6951
切聞	-11.6951
寄養	-11.6951
特簡	-11.6953
誥命	-11.6956
分毫	-11.6957
給假	-11.6959
昭格	-11.6961
鄉黨	-11.6966
㕘政	-11.6969
癸巳	-11.6969
於未然	-11.697
富户	-11.697
無所容	-11.6976
僧人	-11.6976
攻擊	-11.698
劉師恕	-11.6984
祲	-11.6985
張球	-11.6986
威儀	-11.6987
緑旗	-11.6988
澧	-11.6989
潔已	-11.6989
椒	-11.699
䓁	-11.699
懇求	-11.6992
台州	-11.6993
晴霽	-11.6993
荐	-11.6995
鏞	-11.6995
綦重	-11.6995
知人之明	-11.6995
膜	-11.6996
唆	-11.6996
灝	-11.6997
馱	-11.6998
艦	-11.6999
甘凉	-11.6999
好生之徳	-11.6999
槍	-11.7
為身謀	-11.7
吕大防	-11.7001
下逮	-11.7002
霖雨	-11.7002
璫	-11.7003
殄滅	-11.7003
彀	-11.7004
房𤣥齡	-11.7005
仰見聖	-11.7006
毫髮	-11.7006
横流	-11.7007
倉塲	-11.7007
拱手	-11.7008
力戰	-11.7011
地方寧謐	-11.7012
制置司	-11.7012
溉	-11.7012
押班	-11.7012
可謂至矣	-11.7015
海隅	-11.7015
祖宗朝	-11.7015
陳瓘	-11.7016
海潮	-11.7018
䇿論	-11.7018
銀一萬兩	-11.7018
儒術	-11.7019
行刦	-11.7022
貧弱	-11.7024
署印	-11.7024
封贈	-11.7027
海宇	-11.7028
始封	-11.7031
布帛	-11.7031
丁酉	-11.7032
福敏	-11.7032
兆庶	-11.7033
不止於	-11.7033
虚費	-11.7034
取索	-11.7034
克敵	-11.7036
照管	-11.7042
為人所	-11.7044
遭遇	-11.7045
康節	-11.7046
事理未敢擅便𢎞治	-11.7048
火災	-11.705
侵奪	-11.7051
苗民	-11.7053
三十兩	-11.7057
仁夀	-11.7058
年乆	-11.7058
重囚	-11.7059
給咨	-11.706
熟思	-11.7064
必不肯	-11.7065
都邑	-11.7067
陛下即位之初	-11.7068
有以見	-11.7069
均係	-11.7069
知開封府	-11.707
提刑司	-11.7071
以為憂	-11.7071
釐正	-11.7074
高宗	-11.7077
不負朕	-11.7082
科條	-11.7088
半載	-11.7093
細訪	-11.7093
立限	-11.7094
中甸	-11.7095
餧	-11.7097
嚴切	-11.7097
愛身	-11.7098
籐牌	-11.7099
竢	-11.71
合併陳明	-11.71
安挿	-11.7101
噶爾泰	-11.7102
戊辰	-11.7102
伏候聖裁	-11.7103
攅	-11.7104
垜	-11.7105
悶	-11.7105
元良	-11.7106
肝腦塗地	-11.7106
躡	-11.7107
大公至正	-11.7108
秪	-11.7108
田文鏡謹奏為	-11.7108
擬罪	-11.7108
恐懼修省	-11.7109
版籍	-11.7109
仍照舊例	-11.7109
包拯	-11.711
馬爾賽	-11.711
頑苗	-11.711
跋扈	-11.711
尚書右丞	-11.7111
登萊	-11.7113
賑貸	-11.7114
㳂邊	-11.7115
門下省	-11.7115
職事官	-11.7115
乙丑	-11.7116
同日又奏	-11.7117
遲緩	-11.712
千里之外	-11.7121
吏卒	-11.7122
通衢	-11.7124
廵防	-11.7126
爾諸臣	-11.7127
字號	-11.7128
景象	-11.7132
揺動	-11.7134
樞府	-11.7134
欺蔽	-11.7136
天禧	-11.7137
懇懇	-11.7139
江西廵撫	-11.7144
巡歴	-11.7148
趙普	-11.715
非臣所	-11.715
具奏定奪	-11.715
進勦	-11.7152
倘遇	-11.7154
乾元	-11.7154
銀一千	-11.7156
接續	-11.7156
赦宥	-11.716
具劄子	-11.7161
恩綸	-11.7165
狃於	-11.7167
六十七	-11.7168
於本年正月	-11.7169
書寫	-11.7171
西川	-11.7171
建武	-11.7173
分廵	-11.7173
扶同	-11.7174
西邊	-11.7175
元旦	-11.7175
乏絶	-11.7175
訛言	-11.7176
妄意	-11.7177
割地	-11.7178
赤心	-11.718
恩例	-11.7181
遞年	-11.7195
任職	-11.7197
前鋒	-11.72
七十七	-11.7203
聖王之	-11.7203
醫藥	-11.7205
禁斷	-11.7206
暈	-11.7206
君臣相	-11.7206
托克托	-11.7206
嚴㕘	-11.7209
興利除害	-11.7209
柯	-11.721
害政	-11.7211
閼	-11.7211
智識	-11.7211
淸	-11.7211
入覲	-11.7212
勅下該部	-11.7212
釋奠	-11.7212
在任守制	-11.7212
琛	-11.7214
稹	-11.7214
五十四	-11.7215
亶	-11.7216
煦	-11.7217
攻戰	-11.7217
斡	-11.7218
理合恭摺	-11.7218
礮位	-11.722
尤須	-11.722
性桂	-11.7221
辦理軍需	-11.7221
庻㡬	-11.7221
十之一	-11.7221
諺	-11.7221
黯	-11.7221
隱諱	-11.7222
余靖	-11.7223
蟄	-11.7224
二百年	-11.7224
奔潰	-11.7224
宗社幸甚	-11.7225
運道民生	-11.7227
孤寒	-11.7233
肆赦	-11.7235
勉強	-11.7237
三百六十	-11.7239
克濟	-11.724
纎悉	-11.7241
錢價	-11.7241
稍寛	-11.7241
臣伏見陛下	-11.7242
萬餘人	-11.7243
草野	-11.7246
循黙	-11.7247
縣主簿	-11.7249
分別	-11.7251
廟社	-11.7253
教閲	-11.7254
膠州	-11.7257
有礙	-11.7262
到任之後	-11.7264
出産	-11.7269
追完	-11.7276
細察	-11.7277
傾耳	-11.7278
史記	-11.7279
齎摺家人	-11.728
料敵	-11.7284
理合恭繳	-11.7288
額徴	-11.729
地丁銀	-11.7291
脂	-11.7294
輔政	-11.7298
米一石	-11.7301
治化	-11.7301
北狄	-11.7303
二千四百	-11.7303
聖聦	-11.7303
血誠	-11.7306
七十四	-11.7307
策妄阿喇布坦	-11.7308
疾速	-11.7308
童子	-11.731
園陵	-11.731
減免	-11.7312
使天下之人	-11.7312
講筵	-11.7313
乙酉	-11.7316
船一隻	-11.7316
駑鈍	-11.7316
壌	-11.7318
謹據實	-11.7318
案查先	-11.7319
民隠	-11.7319
王朝恩	-11.7319
佈	-11.732
協和	-11.732
用人行政	-11.732
丸	-11.7321
來春	-11.7322
結怨	-11.7322
毫髪	-11.7323
三省樞宻院	-11.7323
鳯翔	-11.7323
翳	-11.7324
紆	-11.7324
惶惑	-11.7325
戍守	-11.7325
纉	-11.7325
不吝	-11.7325
尊嚴	-11.7326
呈詳	-11.7326
辛卯	-11.7326
移風易俗	-11.7327
喙	-11.7327
團結	-11.7327
汲黯	-11.7327
耆老	-11.7327
堙	-11.7327
㝢	-11.7329
候選	-11.7329
盪	-11.7331
編修	-11.7331
災沴	-11.7332
為陛下陳之	-11.7333
索取	-11.7333
勤恤	-11.7333
坎	-11.7335
該管官員	-11.7336
危亂	-11.7339
天譴	-11.7339
覆稱	-11.734
之休戚	-11.734
平穏	-11.7341
清河縣	-11.7342
仰酬	-11.7343
京兆府	-11.7345
惑亂	-11.7345
六月初	-11.7346
維揚	-11.735
今則不然	-11.7356
樞機	-11.7357
匠役	-11.7358
三千人	-11.7359
眷顧	-11.736
界連	-11.7361
茫然	-11.7363
需人	-11.7363
和碩	-11.7364
痛惜	-11.7365
二月初一日	-11.7368
瀆天聽	-11.7368
西北二	-11.7368
抽分	-11.7369
糾合	-11.737
一萬三千	-11.737
成都府	-11.7371
韓公	-11.7371
不如意	-11.7371
使持節	-11.7374
姦佞	-11.7374
同夥	-11.7376
不可勝言	-11.7382
帶領官兵	-11.7383
瀆奏	-11.7389
拯救	-11.7391
陛下何不	-11.7391
夏稅	-11.7391
惠澤	-11.7393
兵五百名	-11.7395
文正公	-11.7401
授任	-11.7405
收管	-11.7408
忠勇	-11.7409
續報	-11.7409
一萬六千	-11.7412
妄費	-11.7415
價錢	-11.7417
捐糜頂踵	-11.7426
恭設香案望闕叩頭謝恩訖	-11.7427
朝賀	-11.7428
莽鵠立	-11.7428
侯伯	-11.7429
孫國璽	-11.7429
偵	-11.743
歸咎	-11.743
驛鹽道	-11.7431
奉諭旨	-11.7431
猶懼	-11.7431
杞	-11.7432
僨	-11.7432
米價平減	-11.7433
總理事務王大臣	-11.7433
五斗	-11.7433
杲	-11.7434
至愚極陋	-11.7435
馳騁	-11.7435
通政司	-11.7435
奴僕	-11.7435
肺腑	-11.7435
鐫	-11.7436
剽掠	-11.7436
袒䕶	-11.7437
枷責	-11.7437
扳	-11.7437
斥堠	-11.7437
將此項	-11.7439
媮	-11.744
莫重於	-11.744
燥	-11.744
前摺	-11.7441
鬯	-11.7441
菽	-11.7442
竈户	-11.7442
經厯	-11.7443
㢘耻	-11.7444
亳州	-11.7445
甚屬不合	-11.7445
太府	-11.7446
六十八	-11.7448
十數年	-11.7449
少緩	-11.745
蔡襄	-11.745
外藩	-11.7453
源源	-11.7455
制勅	-11.7456
睿覽	-11.7457
小醜	-11.7459
優待	-11.746
房杜	-11.7463
提舉司	-11.7467
室家	-11.7469
屯聚	-11.7474
祖宗以来	-11.7474
欽定四庫全書歴代名臣奏議卷二百	-11.7474
干冒	-11.7475
千秋	-11.7476
帶徴	-11.748
同姓	-11.748
遥逺	-11.7481
規制	-11.7482
冬春	-11.7486
解赴	-11.7487
擒斬	-11.7487
放火	-11.7488
宣揚	-11.7488
黙然	-11.749
稱賀	-11.749
婪贓	-11.7493
尊親	-11.7493
翻然	-11.7493
憫念	-11.7495
四海之内	-11.7498
襲封	-11.7499
増益	-11.7499
淮北	-11.7502
災黎	-11.7504
曹操	-11.7509
承認	-11.7511
伏祈皇上睿鑒	-11.7511
設施	-11.7514
羣吏	-11.7515
智慮	-11.7519
元勲	-11.752
后妃	-11.7524
無涯	-11.7527
糧艘	-11.7531
廣東總督	-11.7534
顧此失彼	-11.7536
佟吉圖	-11.7537
一千一百	-11.754
興衰	-11.754
賊盜	-11.754
藎	-11.7541
竭盡駑駘	-11.7541
鈕	-11.7543
朝堂	-11.7543
共需銀	-11.7544
案驗	-11.7545
煖	-11.7545
餙	-11.7545
八九分不等	-11.7545
三欽定四庫全書	-11.7545
淄	-11.7546
錙銖	-11.7548
齋醮	-11.7548
迤北	-11.7549
氊	-11.755
靠	-11.755
臭	-11.755
怵	-11.755
奪獲	-11.755
砥	-11.7552
夥黨	-11.7553
桑植	-11.7553
誕謾	-11.7553
繪圖	-11.7554
周世宗	-11.7554
騖	-11.7554
萬分之一	-11.7558
鑒察	-11.7558
隴右	-11.7559
逃匿	-11.7563
謹據實奏聞	-11.7565
玉帛	-11.7566
挑河	-11.7577
傅說	-11.7577
諸貝勒	-11.7578
驅使	-11.7578
墾荒	-11.7581
中牟	-11.7582
十丈	-11.7583
密雲	-11.7583
早晚	-11.7584
形勝	-11.7584
范公	-11.7585
䝉天恩	-11.759
星速	-11.7592
御賜	-11.7595
一片	-11.7595
即位以来	-11.7595
晏子	-11.7596
反掌	-11.7598
恪守	-11.7607
部屬	-11.7609
智謀	-11.7612
核算	-11.7614
星變	-11.7628
宫殿	-11.7634
遵例	-11.7634
遵化	-11.7634
瀋	-11.7636
金玉	-11.7636
怨嗟	-11.7638
一萬七千	-11.7639
原估	-11.764
濟運	-11.7643
七品	-11.7646
㑹稽	-11.7649
甚屬可惡	-11.7651
傷和氣	-11.7652
釁端	-11.7652
擕	-11.7652
昔唐	-11.7652
斛㪷	-11.7653
直隸各省	-11.7654
趙向奎	-11.7654
書讀	-11.7655
省部	-11.7656
仰沐	-11.7656
峝	-11.7657
綢繆	-11.7657
寥寥	-11.7657
制國用	-11.7658
留心訪察	-11.7658
戊	-11.7658
踴	-11.766
貿	-11.766
鶻	-11.766
刑部等衙門	-11.766
麥苖	-11.7661
迥	-11.7661
年榖	-11.7662
殘害	-11.7662
楊天縱	-11.7663
不可測	-11.7663
監丞	-11.7663
不可枚舉	-11.7664
繼體	-11.7664
狡獪	-11.7664
以此觀之	-11.7665
何啻	-11.7665
㳙	-11.7666
末流	-11.7667
脆	-11.7668
貪酷	-11.7668
玊	-11.7668
侑	-11.7669
煩苛	-11.767
聶	-11.767
伺候	-11.7671
階級	-11.7671
帑銀	-11.7673
貪墨	-11.7673
均霑	-11.7674
闔省	-11.7679
折納	-11.7682
量留	-11.7682
以臣觀之	-11.7683
收實效	-11.7692
乘間	-11.7696
四郊	-11.7696
推擇	-11.7697
何辭	-11.7698
傾覆	-11.7702
玩法	-11.7703
留滯	-11.7704
親徃	-11.7706
愧悔	-11.7708
秋糧	-11.7709
充盈	-11.7712
不足恃	-11.7716
十二萬	-11.7717
貢院	-11.7719
前愆	-11.772
發徳音	-11.7721
真才	-11.7723
徃来	-11.7725
臨安府	-11.7726
歳次	-11.7728
帖然	-11.7728
隆興	-11.7729
力量	-11.7731
鄆	-11.7731
數十里	-11.7732
標員	-11.7733
有甚於	-11.774
政績	-11.7742
要隘	-11.7743
情詞	-11.7743
寛容	-11.7744
丈五尺	-11.7745
削平	-11.7745
左氏	-11.7747
言及此	-11.7749
室廬	-11.775
癸	-11.7751
罕聞	-11.7752
尚堪	-11.7752
差撥	-11.7753
補完	-11.7754
奏摺内	-11.7756
曲加	-11.7756
十餘丈	-11.7758
疎防	-11.7758
聖孝	-11.7762
姦弊	-11.7764
汛水	-11.7765
左江	-11.7767
祖秉圭	-11.7767
一夫不獲	-11.7768
躱	-11.777
倘仍	-11.7771
聫	-11.7771
峪	-11.7772
各舉所知	-11.7772
偽劄	-11.7772
老疾	-11.7773
以仰副皇上	-11.7774
閃	-11.7775
趙充國	-11.7775
砦	-11.7775
宵小	-11.7776
渴	-11.7776
其可得乎	-11.7777
韻	-11.7778
冤	-11.7779
儌	-11.7779
釣	-11.7779
怕	-11.7779
天聰	-11.778
幅員	-11.7781
鞍馬	-11.7782
追尊	-11.7783
庸懦	-11.7784
渤海	-11.7784
苻堅	-11.7785
欺㒺	-11.7785
激勵	-11.7786
太僕	-11.7786
而民不	-11.7786
倚恃	-11.7787
昆弟	-11.779
五十六	-11.779
四川巡撫	-11.779
明正典刑	-11.7792
未可知也	-11.7793
優㳺	-11.7794
器識	-11.7794
攻打	-11.7795
游手	-11.7795
鹽池	-11.7796
村寨	-11.7805
權倖	-11.7806
貳拾	-11.7806
哀痛	-11.781
漢仗	-11.781
無以加	-11.7811
威柄	-11.7811
納欵	-11.7815
危疑	-11.7817
龍飛	-11.7817
纂修	-11.7823
貢賦	-11.7829
曩時	-11.7832
詳覽	-11.7833
越職	-11.7833
變詐	-11.7833
平居無事	-11.7834
宋名臣奏議巻一百	-11.7839
長官司	-11.7846
自古以來	-11.7847
部貟外郎	-11.7847
輕忽	-11.7851
内外官員	-11.7853
食邑	-11.7859
邀求	-11.7861
五星	-11.7867
法敏	-11.7873
五十七	-11.788
私謁	-11.7881
訓勉	-11.7885
世受國恩	-11.7888
槐	-11.7889
聆聖訓	-11.789
洗心滌慮	-11.789
侵軼	-11.7891
洪武年間	-11.7891
特頒諭㫖	-11.7892
暘	-11.7892
靡常	-11.7892
改土歸流	-11.7892
皇帝若曰	-11.7892
俸餉	-11.7893
上奏曰臣伏覩	-11.7893
清吏司案呈	-11.7893
渚	-11.7893
刑部侍郎	-11.7894
咽	-11.7894
莫大焉	-11.7895
幫貼	-11.7896
豈徒	-11.7896
祔廟	-11.7897
皁	-11.7897
怖	-11.7897
蠱惑	-11.7897
陬	-11.7897
強壯	-11.7898
典憲	-11.7899
亹	-11.7901
拒諫	-11.7901
淹滯	-11.7902
聽其自	-11.7902
褐	-11.7904
姦慝	-11.7905
州諸軍事	-11.7907
形跡	-11.7908
討伐	-11.7908
薛向	-11.7908
鴻臚寺	-11.7909
寧波	-11.791
聖性	-11.791
强悍	-11.7911
巴蜀	-11.7913
河渠	-11.7915
暢流	-11.792
書院	-11.7921
草創	-11.7924
顔面	-11.7924
夾攻	-11.7925
十疋	-11.7926
寇盜	-11.7927
上下之情	-11.7928
教諭	-11.793
程頥	-11.793
摺匣	-11.7931
垂象	-11.7931
土宇	-11.7932
為民害	-11.7933
貪冒	-11.7935
觀覽	-11.7938
舞文	-11.7938
截漕	-11.794
典籍	-11.7941
淮東	-11.7942
萬代	-11.7944
以副陛下	-11.7944
㑹勘	-11.7946
起釁	-11.7947
到閩	-11.795
謀勇	-11.7952
體例	-11.7955
逸樂	-11.7956
委中書門下	-11.7956
丕變	-11.7957
等因具題	-11.7966
二百一十	-11.7967
買榖	-11.7967
四十里	-11.7968
鎮廵	-11.7968
外洋	-11.7968
搶修	-11.7972
淮浙	-11.7972
無一言	-11.7976
期限	-11.7977
該寺	-11.7978
劄營	-11.7979
買穀	-11.7979
之要道	-11.7979
生疎	-11.798
該將軍	-11.7981
州都督	-11.7981
低田	-11.7982
歲修	-11.7982
岷	-11.7983
八品	-11.7984
戒諭	-11.7989
雖堯舜	-11.7989
京都	-11.7993
貨利	-11.7995
天下之才	-11.8001
個	-11.8003
旱災	-11.8004
霆	-11.8004
乍浦	-11.8005
出示曉諭	-11.8005
峴	-11.8005
涖	-11.8007
弓弩	-11.8008
煉	-11.8008
深居九重	-11.8009
撲捕	-11.8009
言可採	-11.8009
秖	-11.801
起居舍人	-11.8011
綑	-11.8011
具疏題請	-11.8011
貢士	-11.8012
恐嚇	-11.8012
王巖叟	-11.8013
抜	-11.8014
逋欠	-11.8014
隊伍	-11.8014
焰	-11.8014
賽	-11.8014
澹	-11.8014
不一而足	-11.8015
鼔舞	-11.8015
噬臍	-11.8016
〇	-11.8019
聳動	-11.802
蔡卞	-11.8021
事無大小	-11.8021
叩首	-11.8022
沂州	-11.8022
隔絶	-11.8023
猾吏	-11.8024
左都御史	-11.8025
種植	-11.8026
誰能	-11.8026
府衛	-11.8027
二百六十	-11.8028
桃汛	-11.803
單弱	-11.803
包藏	-11.8031
宻邇	-11.8031
帮	-11.8031
饋運	-11.8032
諮訪	-11.8032
單薄	-11.8032
聖哲	-11.8033
鎮總兵官	-11.8035
嚴訊	-11.8037
隣近	-11.8046
破壊	-11.8047
勤謹	-11.8047
萬乘	-11.8048
陸氏	-11.8048
舟船	-11.8053
陞擢	-11.8054
尊祖	-11.8056
闕廷	-11.8057
據實陳明	-11.8058
元佐	-11.8059
捐榖	-11.8065
節該欽奉	-11.8066
州并所屬	-11.8068
搜出	-11.8071
各王府	-11.8073
大溜	-11.8073
鄰近	-11.8075
長貳	-11.8076
公公名	-11.8079
仁慈	-11.8083
漁船	-11.8084
添補	-11.8096
廬州	-11.8107
不敢不言	-11.811
三百八十	-11.811
諜	-11.8114
柔逺	-11.8116
泚	-11.8117
盛夏	-11.812
孫思克	-11.812
糊塗	-11.8122
冢	-11.8122
虚應故事	-11.8123
二麥收成分數	-11.8123
匀	-11.8123
逗	-11.8124
大學士九卿等	-11.8124
厦	-11.8124
仰體朕心	-11.8124
蘇努	-11.8126
塡	-11.8127
欺誑	-11.8127
深仁厚澤	-11.8128
鯨	-11.8128
槁	-11.8128
涕泣	-11.8128
肢	-11.8129
𢷬	-11.813
迓	-11.813
暉	-11.8131
劉於義	-11.8131
京朝官	-11.8132
私憂過計	-11.8132
懇聖恩	-11.8133
清吏司	-11.8134
黜退	-11.8134
黙佑	-11.8134
鞅	-11.8135
秦檜	-11.8136
各盡其	-11.8137
拏解	-11.8137
刻剥	-11.8138
恣肆	-11.8138
莱	-11.8139
風濤	-11.814
昊賊	-11.8141
科塲	-11.8142
孤懸	-11.8142
陛下臨御以來	-11.8143
何所不至	-11.8144
餘剩	-11.8144
翼翼	-11.8145
紹述	-11.8147
父祖	-11.8148
儲貳	-11.8149
臣嘗觀	-11.815
唐鄧	-11.8152
疑畏	-11.8153
廟謨	-11.8153
非所宜	-11.8153
希冀	-11.8153
曠土	-11.8155
皇甫	-11.8157
舟車	-11.8159
上書言	-11.8161
入套	-11.8162
邉儲	-11.8162
強弱	-11.8164
克勤	-11.8164
勞擾	-11.8166
負朕恩	-11.8166
密拏	-11.8166
堯舜之道	-11.8173
太平之基	-11.8173
地祇	-11.8175
瞽言	-11.8177
傷害	-11.8177
粟米	-11.8178
識淺	-11.8178
緩決	-11.8184
未厭	-11.8184
青苗錢	-11.8184
雲集	-11.8184
宻院	-11.8185
福建巡撫	-11.8185
道㕔	-11.8186
總統	-11.8186
循吏	-11.8193
虧折	-11.8194
勅勅	-11.8199
勑諭	-11.8201
應賠	-11.8204
庶獄	-11.8204
浙東	-11.8207
苦心	-11.8208
年齒	-11.8209
城守營	-11.8209
持久	-11.8211
私茶	-11.8212
四十六	-11.8214
罪譴	-11.8222
䝉皇恩	-11.8222
去後今據	-11.8223
蔓延	-11.8223
奸惡	-11.8229
赴新任	-11.8229
三十名	-11.823
尚書侍郎	-11.8231
法網	-11.8232
禄位	-11.8234
袁州	-11.8235
翕	-11.8238
趙國麟	-11.824
欽此欽遵抄出送司	-11.824
莊田	-11.8241
才守兼優	-11.8245
朦	-11.8245
球	-11.8245
具奏以聞	-11.8246
甥	-11.8246
雨連綿	-11.8247
鎧	-11.8247
斫	-11.8247
俛	-11.8247
世祖章皇帝	-11.8247
翎	-11.8248
焚燒	-11.8249
總滙	-11.825
髦	-11.825
酣	-11.825
奮不顧身	-11.825
雨水霑足	-11.825
吕惠卿	-11.8251
肌	-11.8252
宣召	-11.8252
仰慰聖懷	-11.8253
頑梗	-11.8253
倐	-11.8254
勍敵	-11.8255
趙坤	-11.8255
疾疫	-11.8255
徃返	-11.8256
俞㫖	-11.8257
納諌	-11.8257
雇募	-11.826
接踵	-11.826
夏竦	-11.8261
逋逃	-11.8263
不敢緘黙	-11.8265
堯俞	-11.8265
理合先行	-11.8266
蕃漢	-11.8267
吉甫	-11.8269
安撫司	-11.8272
欠負	-11.8273
風聲	-11.8274
暫緩	-11.8274
區夏	-11.8277
互異	-11.828
堆積	-11.828
耶抑	-11.828
㫖揮	-11.828
斷獄	-11.8281
䝉聖諭	-11.8282
洞照	-11.8288
古人云	-11.8288
示儆	-11.8289
逸豫	-11.829
無妨	-11.8292
穆宗	-11.8294
典謨	-11.8294
八十四	-11.8299
照此例	-11.83
貟外郎	-11.8302
彚報	-11.8307
懇祈	-11.8308
無所施	-11.8309
課程	-11.831
七十六	-11.8311
諸色人	-11.8316
奉明㫖	-11.8316
輕騎	-11.8317
熟習	-11.8318
臣等竊惟	-11.8321
迎敵	-11.8327
貧窮	-11.8328
誤䝉	-11.8334
示懲	-11.8335
都督府	-11.8337
尤切	-11.8351
安危之機	-11.8357
銅器	-11.8357
阿驢	-11.8359
無一不	-11.836
加幫	-11.8361
七十八	-11.8362
轎	-11.8362
青黄不接	-11.8364
防患	-11.8364
恭設香案望闕叩頭謝恩	-11.8365
審官院	-11.8366
醒	-11.8368
上神宗乞	-11.8368
撻	-11.8368
為我皇上陳之	-11.8369
滂	-11.8371
貂	-11.8371
乙卯	-11.8371
置而不問	-11.8372
嘉悅	-11.8373
汨	-11.8373
方寸	-11.8374
諳曉	-11.8374
寗	-11.8374
碾米	-11.8374
羮	-11.8375
燼	-11.8375
菑	-11.8375
藹	-11.8375
疏入帝不納	-11.8375
翫	-11.8375
䋲	-11.8376
俊乂	-11.8376
遘	-11.8376
擴	-11.8376
脣	-11.8377
殽	-11.8377
另疏具題	-11.8377
機宻	-11.8377
埶	-11.8379
圖報稱	-11.838
勾踐	-11.8381
縣縣丞	-11.8382
科道等官	-11.8382
中外臣民	-11.8382
嚴究	-11.8384
直史館	-11.8385
嘉靖二年	-11.8386
城壘	-11.8386
取捨	-11.8388
粒食	-11.8388
催徵	-11.8389
五月間	-11.8389
徼幸	-11.8392
改過自新	-11.8392
太湖	-11.8397
慰安	-11.8397
冗員	-11.8398
仕宦	-11.8399
昨來	-11.8399
京東西	-11.8402
大明律	-11.8402
贍養	-11.8403
撫馭	-11.8403
北直𨽻	-11.8409
履歴	-11.8409
運籌	-11.841
人所共知	-11.8411
乏才	-11.8418
僚屬	-11.842
杖一百	-11.8421
盈虚	-11.8423
蕃息	-11.8424
㑹議具奏	-11.8427
逓年	-11.8432
無以異	-11.8434
刷深	-11.8435
講武	-11.8436
晴雨	-11.8437
禁暴	-11.8438
疊沛	-11.844
臣嘗讀	-11.8441
經前撫	-11.8441
二十餘萬	-11.8445
都堂	-11.8447
韶州	-11.8447
拔補	-11.8449
於國計民生	-11.845
統御	-11.8453
叅究	-11.8453
稍緩	-11.8454
餘孽	-11.8455
負荷	-11.8466
於萬一耳所有	-11.847
天佑	-11.8471
發憤	-11.8474
為陛下惜	-11.8477
咨嗟	-11.8479
懸殊	-11.848
未完銀	-11.8485
丑	-11.8486
鄂彌逹	-11.8487
釐剔	-11.8488
於無既矣	-11.8489
郤	-11.8489
不過一二	-11.849
洗滌	-11.8491
疆圉	-11.8491
逖	-11.8492
經朕訪聞	-11.8492
窠	-11.8492
麓	-11.8492
睿慮周詳	-11.8493
躭	-11.8494
霸州	-11.8494
黻	-11.8495
恭設香案望闕叩頭謝恩祗領訖	-11.8495
拳	-11.8496
悖謬	-11.8497
鉉	-11.8497
江蘓	-11.8497
龐	-11.8498
眇	-11.8498
祠宇	-11.8498
骸骨	-11.8499
兢業	-11.8499
憤懣	-11.8499
羽林	-11.8499
埀	-11.8499
左司諫	-11.85
倩	-11.85
躭延	-11.85
禾苖	-11.8502
烽火	-11.8502
南直𨽻	-11.8502
比年以来	-11.8503
斷自宸衷	-11.8504
嚴行禁止	-11.8504
御藥院	-11.8506
飢民	-11.8506
特降諭㫖	-11.8506
押運	-11.851
聚歛	-11.8511
一千七百	-11.8512
博采	-11.8512
中興之業	-11.8512
息肩	-11.8513
兵戈	-11.8513
髙拱	-11.8514
麥熟	-11.8515
勦撫	-11.8517
弓兵	-11.8517
諸葛	-11.852
揑報	-11.8523
奏明在案	-11.8523
隠忍	-11.8523
悛	-11.8525
一千九百	-11.8526
秋毫	-11.8527
射死	-11.8528
咨訪	-11.8529
揚雄	-11.8529
品秩	-11.8531
旱蝗	-11.8532
浮華	-11.8533
有警急	-11.8533
延慶	-11.8535
春秋之義	-11.8536
昭昭	-11.8536
年月日	-11.8543
均輸	-11.855
華夷	-11.855
水潦	-11.8555
稍覺	-11.8555
擅權	-11.8557
獻皇帝	-11.8558
番夷	-11.8562
盗案	-11.8563
熟識	-11.8565
比屋	-11.8565
二萬五千	-11.8572
器甲	-11.8574
懈怠	-11.8574
據實奏聞謹奏	-11.8575
聖人之道	-11.8579
隂盛	-11.858
管馬官	-11.8584
叩謝	-11.8587
核減	-11.8587
右諫議大夫	-11.8592
仕進	-11.8598
辜負	-11.8605
雲南廵撫	-11.8606
追悔	-11.8608
十分收成	-11.8608
厪聖懷	-11.861
蛟	-11.8612
田畯	-11.8612
濳	-11.8612
閥	-11.8614
𢎞治十四年	-11.8614
溝洫	-11.8615
硝	-11.8616
署理直隸總督	-11.8616
銀青光禄大夫	-11.8617
獞	-11.8617
殛	-11.8617
中書劄子	-11.8617
蝻子	-11.8617
有備無患	-11.8618
去後今據前因	-11.8619
宸𠂻	-11.8619
洒	-11.8619
郭子儀	-11.862
檔案	-11.862
脇	-11.862
閭巷	-11.8621
甿	-11.8621
驤	-11.8621
昬	-11.8621
薫	-11.8622
奉行不善	-11.8622
閙	-11.8623
均有裨益	-11.8624
淳熈	-11.8625
飢饉	-11.8625
廉親王	-11.8625
痛心疾首	-11.8626
清江浦	-11.8627
國家安危	-11.8628
伏候皇上	-11.8628
自古及今	-11.8628
阡陌	-11.8629
謂宰相曰	-11.863
背叛	-11.8632
揑造	-11.8633
月中旬	-11.8637
節鉞	-11.8638
泛濫	-11.8638
總兵等官	-11.8638
天人之際	-11.8641
睿宗	-11.8641
水師營	-11.8642
山西廵撫	-11.8643
甚鉅	-11.8645
以名聞	-11.865
違戾	-11.8652
憐憫	-11.8655
史册	-11.8656
糾叅	-11.8658
諮詢	-11.8662
榖帛	-11.8668
公卿大臣	-11.867
才猷	-11.8671
供認	-11.8671
苛求	-11.8673
遷擢	-11.8673
兵二百名	-11.8675
豈忍	-11.8678
無日不	-11.8679
産米	-11.868
勘估	-11.8681
無疆之福	-11.8682
増損	-11.8683
無非欲	-11.8684
無及矣	-11.8685
脱逃	-11.8693
節度觀察	-11.8694
倡率	-11.8697
石壩	-11.8699
知州通判	-11.8701
天下之人皆	-11.8706
酌留	-11.8712
監牧	-11.8714
窮究	-11.8721
福建總督	-11.8729
過愆	-11.8733
効忠	-11.8735
岔	-11.8737
総	-11.8737
寰	-11.8739
逈	-11.8739
弹	-11.874
蔡成貴	-11.8741
生生世世	-11.8741
從重議處	-11.8741
尚書左僕射	-11.8741
凋殘	-11.8741
誠如聖諭	-11.8742
潯	-11.8742
孱	-11.8742
孔毓璞	-11.8744
進賢退不肖	-11.8744
歸化城	-11.8745
歙	-11.8746
鑚	-11.8746
甎	-11.8746
螻蟻	-11.8746
二麥收成	-11.8746
坊場	-11.8747
元豐八年	-11.8747
賕	-11.8747
太原府	-11.8748
催追	-11.8748
虺	-11.8748
己亥	-11.8748
畎	-11.8748
狡詐	-11.8748
至於此極	-11.8749
穂	-11.8749
皥	-11.8749
己丑	-11.875
跳梁	-11.8751
按察司副使	-11.8752
犢	-11.8752
莫急於	-11.8753
鼻	-11.8753
實心奉行	-11.8754
規摹	-11.8754
迤東	-11.8754
起居郎	-11.8754
據實具奏	-11.8755
坊郭	-11.8755
虎狼	-11.8755
胡宗愈	-11.8757
泉漳	-11.876
犯天威	-11.8761
爵祿	-11.8764
軍民人等	-11.8765
謹奏為敬陳	-11.8766
茍且塞責	-11.8775
告誡	-11.8777
外侮	-11.878
倖門	-11.8787
流毒	-11.8787
積蓄	-11.8788
龜年	-11.8788
災祥	-11.8789
何項	-11.8789
所自出	-11.8789
扣存	-11.8794
為得計	-11.8797
伯雨	-11.8798
貴妃	-11.8804
長公主	-11.8806
撫育	-11.8809
叅革	-11.8809
評事	-11.881
莫之能	-11.882
而天下治	-11.8823
麥秋	-11.8823
賊蠻	-11.8827
案巻	-11.8829
𢎞治元年	-11.883
𫝊諭	-11.8835
本部尚書	-11.8837
廵撫都御史	-11.8839
無庸議	-11.8845
狥私	-11.885
貴州廵撫	-11.8855
浙江巡撫	-11.8858
乾剛	-11.886
俯伏	-11.8861
欲望陛下	-11.8861
簡親王	-11.8862
掎角	-11.8863
㕘遊	-11.8865
丁壯	-11.8867
萬際瑞	-11.8867
婺	-11.8868
八百兩	-11.8869
硃	-11.887
察吏安民	-11.887
菴	-11.887
太祖髙皇帝	-11.887
紐	-11.8871
撈	-11.8871
凱旋	-11.8872
勸戒	-11.8873
米糧價值	-11.8873
廳	-11.8873
𤦺	-11.8873
謾	-11.8874
航	-11.8874
銀三千兩	-11.8874
耐	-11.8874
四五寸不等	-11.8876
囑託	-11.8876
寰宇	-11.8876
不得其正	-11.8877
撫按衙門	-11.8877
壺	-11.8877
鞭笞	-11.8877
散騎常侍	-11.8877
駟	-11.8878
日甚一日	-11.8878
罪當萬死	-11.8878
玩忽	-11.8878
謩	-11.8879
煜	-11.888
杰	-11.8881
踐祚	-11.8881
撼	-11.8882
鑠	-11.8882
珤	-11.8882
刻骨	-11.8882
閩浙	-11.8882
滔天	-11.8882
州防禦使	-11.8883
拱辰	-11.8883
源流	-11.8884
婿	-11.8884
十有五	-11.8885
卑鄙	-11.8887
五六年	-11.8889
潞公	-11.889
府屬收成	-11.8891
那禧	-11.8891
仍照舊	-11.8892
二百二十	-11.8893
洵屬	-11.8896
憲綱	-11.8898
妨礙	-11.8904
州縣之吏	-11.8906
召和氣	-11.891
西羌	-11.8912
銀二萬兩	-11.8916
彼此相	-11.8919
失陷	-11.8922
資助	-11.8923
哨船	-11.8923
逺遁	-11.8925
踰月	-11.8925
三百四十	-11.8928
剛健	-11.8928
督捕	-11.8933
落職	-11.8944
歴代名臣奏議卷二百	-11.8948
英睿	-11.8952
疑貳	-11.8963
朕深為	-11.8964
難逭	-11.897
惕然	-11.8976
親友	-11.898
澍	-11.8984
嵐	-11.8992
楊鯤	-11.8994
麽	-11.8997
秉公持正	-11.8997
盤踞	-11.8998
週	-11.8999
夾室	-11.9
酤	-11.9001
洮岷	-11.9001
无	-11.9001
困乏	-11.9001
要衝	-11.9002
停泊	-11.9002
該管上司	-11.9002
扺	-11.9003
八旗都統	-11.9003
倶	-11.9003
㝡	-11.9004
㪷	-11.9004
妻孥	-11.9004
顛倒是非	-11.9005
威福之柄	-11.9006
頸	-11.9006
沾實惠	-11.9007
刈	-11.9007
苛索	-11.9007
系	-11.9008
棣	-11.9008
正徳十四年	-11.9008
陜甘	-11.9009
太常禮院	-11.9009
袴	-11.9009
靳輔	-11.901
不識忌諱	-11.901
官箴	-11.901
椎	-11.9011
伺隙	-11.9011
可嘉之至	-11.9012
應行事宜	-11.9012
狭	-11.9012
七八分不等	-11.9012
上疏曰臣聞	-11.9014
懌	-11.9014
照舊例	-11.9015
上中下	-11.9018
我太祖髙皇帝	-11.9019
唐末	-11.9022
數十年來	-11.9024
兇苗	-11.9025
訊問	-11.9025
塘工	-11.9027
旌旗	-11.9029
徽號	-11.9032
區别	-11.9034
殊覺	-11.904
密飭	-11.9046
我聖祖仁皇帝	-11.9047
保佑	-11.9051
該部議奏	-11.9051
仁恕	-11.9053
滁州	-11.9055
訪拏	-11.9063
兵三百名	-11.9064
司牧	-11.9074
謹奏此奏	-11.908
内閣學士	-11.9085
為衆所	-11.9086
清丈	-11.9087
敬陳管見	-11.9091
自新之路	-11.9109
財産	-11.9109
三百二十	-11.911
傭	-11.911
滔	-11.9124
准户部咨	-11.9126
遵行謹奏	-11.9128
摶	-11.9128
扣尅	-11.913
縊	-11.9131
有加無已	-11.9132
圻	-11.9132
㓙	-11.9132
掲帖	-11.9132
荷蒙皇上	-11.9133
重治其罪	-11.9133
揔	-11.9134
五六寸不等	-11.9134
聨絡	-11.9134
烙	-11.9135
縉	-11.9135
己卯	-11.9135
皂𨽻	-11.9136
昱	-11.9136
徽州	-11.9136
冡	-11.9137
娯	-11.9137
念及此	-11.9137
搔擾	-11.9137
承平日久	-11.9137
演習	-11.9137
凛遵聖訓	-11.9138
𦕈	-11.9138
聾	-11.9138
竿	-11.9138
訶	-11.9139
鴟	-11.9139
琴	-11.914
旻	-11.914
巽	-11.914
屠戮	-11.9141
等情又據	-11.9141
屋宇	-11.9141
伏惟聖明	-11.9141
睿哲	-11.9143
叱	-11.9144
册籍	-11.9145
太常少卿	-11.9145
裝載	-11.9145
要害之地	-11.9145
口岸	-11.9145
聖明在上	-11.9145
晩	-11.9146
豊	-11.9146
讜論	-11.9147
預僃	-11.9152
熈豐	-11.9152
藥餌	-11.9153
盡瘁	-11.9153
永興軍	-11.9154
一切不問	-11.9155
覺羅	-11.9155
執政之臣	-11.9157
都尉	-11.9159
䇿勵	-11.9163
感愧	-11.9165
天下之公議	-11.9169
叅酌	-11.9174
强幹	-11.9175
臨軒	-11.9177
黨援	-11.9177
營繕	-11.9179
籍貫	-11.918
少懈	-11.9181
左布政使	-11.9181
先王之道	-11.9182
追寢	-11.9183
類斯	-11.9184
洪福	-11.9184
黨羽	-11.9185
将弁	-11.9185
諸路監司	-11.9186
敗壊	-11.9186
微末	-11.9191
四川廵撫	-11.9195
童生	-11.9197
習熟	-11.9197
交割	-11.9197
瞻狥	-11.9199
流品	-11.9201
司農寺	-11.9202
京兆	-11.9203
誅夷	-11.9206
爾部即	-11.9207
何嘗不	-11.9207
脩築	-11.9208
指揮僉事	-11.921
王大臣等	-11.9213
乾斷	-11.9214
仰祈睿鑒謹奏	-11.9227
遣中使	-11.9228
有可觀	-11.9229
西安府	-11.9231
逾年	-11.9232
需費	-11.9243
勸講	-11.9244
察核	-11.9247
機會	-11.925
廉恥	-11.9256
康熙六十一年	-11.9262
謝旻	-11.9263
孑	-11.9264
盤詰	-11.9265
尖	-11.9265
截留漕米	-11.9265
輛	-11.9266
深慰朕懐	-11.9266
尚書右僕射	-11.9266
觀察處置等使	-11.9266
痼	-11.9267
救焚	-11.9267
颶風	-11.9267
靦	-11.9267
柩	-11.9268
仿	-11.9268
加訪察	-11.9269
京兆尹	-11.9269
闗係重大	-11.9269
裁汰	-11.927
趲	-11.927
披瀝	-11.927
璪	-11.927
轉運判官	-11.927
春秋鼎盛	-11.927
狡猾	-11.9271
蹂踐	-11.9271
理合恭摺奏聞	-11.9271
央	-11.9271
欽此仰見我皇上	-11.9272
踊	-11.9272
伴送	-11.9272
茨	-11.9273
狁	-11.9274
清水江	-11.9274
不能無疑	-11.9274
古先哲王	-11.9274
恭請聖訓	-11.9274
付外施行	-11.9275
弟兄	-11.9277
蕎麥	-11.9277
乘輿	-11.9278
李梅	-11.9279
咨詢	-11.928
鄴	-11.928
莫測	-11.928
明正其罪	-11.928
褒嘉	-11.9284
以謝天下	-11.9284
旗牌	-11.9286
貪鄙	-11.9286
轉運副使	-11.9288
同日又奏為請㫖事竊	-11.9294
莊頭	-11.9296
剪除	-11.9299
杜衍	-11.9301
清勾	-11.9301
越境	-11.9307
三百餘兩	-11.9312
淮安府	-11.9313
紀録	-11.9315
側身	-11.9316
春季	-11.9319
何從而	-11.9324
南北直𨽻	-11.9324
千匹	-11.9324
闕乏	-11.9331
救災	-11.9338
廣東廵撫	-11.9338
微賤	-11.9339
亘	-11.9339
未之有也	-11.934
每石一兩	-11.9344
鍾保	-11.9344
朝廷清明	-11.9351
掃地	-11.9352
二千兩	-11.936
蔣泂	-11.9369
三百三十	-11.9369
助役	-11.9378
貧困	-11.9392
楊宗義	-11.9396
洞察	-11.9396
辦銅	-11.9396
含垢	-11.9396
睿照	-11.9397
粘	-11.9399
充餉	-11.9399
璠	-11.94
漸不可長	-11.94
㓕	-11.9401
囉	-11.9402
㨂選	-11.9402
著作郎	-11.9402
米價騰貴	-11.9402
沽譽	-11.9403
據實直陳	-11.9405
撮	-11.9405
搬移	-11.9405
光禄大夫	-11.9406
燄	-11.9406
多爾濟	-11.9406
裡	-11.9406
墀	-11.9406
安徽巡撫	-11.9407
垢	-11.9408
頡利	-11.9408
滷	-11.9409
窺測	-11.9409
漬	-11.9409
九股	-11.9409
潼闗	-11.9411
該國王	-11.9412
李燦	-11.9413
厲階	-11.9415
汝礪	-11.9415
莫大乎	-11.9415
充公用	-11.9415
皓	-11.9416
天地神明	-11.9416
乞敕	-11.942
耕桑	-11.942
梁燾	-11.9421
串通	-11.9423
結舌	-11.9423
樹木	-11.9426
英俊	-11.943
實有裨益	-11.9433
本年十月	-11.9433
佛老	-11.9435
浙江廵撫	-11.9436
十分之一	-11.9437
仰祈聖鑒謹奏	-11.944
護送	-11.9441
記注	-11.9443
賑救	-11.9446
陵遲	-11.9446
景温	-11.9446
蘇州府	-11.9453
具摺奏聞謹奏	-11.9454
忠恕	-11.9455
洋面	-11.9457
山陜	-11.9457
認罪	-11.9462
懦弱	-11.9462
一萬一千	-11.9468
四百六十	-11.9471
硃批諭㫖巻二百	-11.9471
遍歴	-11.9504
若之何	-11.9509
回原籍	-11.951
天下皆知	-11.9515
壬	-11.9521
彜	-11.9525
馥	-11.9528
宋仁宗	-11.9534
玘	-11.9535
合併奏明	-11.9535
以靖地方	-11.9536
呵	-11.9537
看了來說	-11.9537
莖	-11.9537
黄叔琳	-11.9538
鴻緒	-11.9539
太祖高皇帝	-11.9539
斁	-11.954
忭	-11.954
璨	-11.954
仄	-11.954
上英宗乞	-11.9541
瓌	-11.9541
糞	-11.9541
赫赫	-11.9542
憲宗皇帝	-11.9543
滎陽	-11.9543
吊	-11.9543
碭	-11.9545
悳	-11.9546
帙	-11.9547
𠞰滅	-11.9547
洞庭	-11.9547
諒闇	-11.9547
挑挖	-11.9547
閨門	-11.9548
實心効力	-11.9549
淋	-11.955
鏹	-11.955
嬪御	-11.955
内東門	-11.9551
堅壁	-11.9551
觴	-11.9551
醴	-11.9552
唐明皇	-11.9552
透足	-11.9552
殘忍	-11.9556
七十里	-11.9557
愚忱	-11.9558
同日又奏為恭繳硃批	-11.956
兼轄	-11.9561
一已之	-11.9562
臣竊料	-11.9563
銷算	-11.9564
星辰	-11.9565
潰散	-11.9566
檢討	-11.9567
脂膏	-11.9568
二千七百	-11.9571
祈福	-11.9572
破産	-11.9573
揑稱	-11.9576
借欠	-11.9577
稟報	-11.9577
賠累	-11.9578
天地父母	-11.9579
太宰	-11.9579
由是言之	-11.9582
羣牧	-11.9583
掌管	-11.9587
增添	-11.959
二千六百	-11.9596
又諭曰	-11.9597
臣不勝區區	-11.9604
激切之至	-11.961
宋儒	-11.9618
開元二十	-11.9624
懇辭	-11.9633
標右營	-11.9641
庫貯	-11.9648
因循茍且	-11.9652
[...]
