<unk>	0
<s>	0
</s>	0
之	-4.15173
以	-4.90298
為	-4.98689
有	-5.05996
/	-5.07943
而	-5.08653
也	-5.11293
曰	-5.19774
其	-5.23059
(	-5.23845
者	-5.2485
)	-5.31987
人	-5.34407
於	-5.40325
不	-5.48262
一	-5.50663
至	-5.68498
中	-5.70751
自	-5.77617
出	-5.81035
時	-5.83327
大	-5.84074
王	-5.84593
乃	-5.85831
與	-5.85945
子	-5.86376
上	-5.8791
公	-5.93415
云	-5.93721
見	-5.97306
無	-5.99164
所	-6.01324
皆	-6.08469
如	-6.08755
在	-6.09196
言	-6.10912
則	-6.11723
行	-6.11792
事	-6.12824
後	-6.1337
此	-6.15986
又	-6.17741
得	-6.18454
亦	-6.20017
生	-6.20763
及	-6.20911
矣	-6.20929
)(	-6.21632
即	-6.23199
遂	-6.27032
山	-6.28145
作	-6.30818
因	-6.32656
書	-6.33929
名	-6.35036
令	-6.35109
下	-6.36579
道	-6.39317
相	-6.39632
于	-6.39864
李	-6.40022
入	-6.42237
官	-6.42531
三	-6.43144
爲	-6.43363
使	-6.44132
方	-6.44618
文	-6.4512
日	-6.45828
然	-6.47254
是	-6.47989
知	-6.49151
今	-6.49528
來	-6.50196
家	-6.50618
故	-6.50771
多	-6.51317
水	-6.51605
當	-6.52006
張	-6.52688
去	-6.5357
將	-6.53726
復	-6.53879
可	-6.55958
已	-6.56977
謂	-6.57747
二	-6.58345
▁	-6.59438
天	-6.61054
欲	-6.61078
君	-6.62099
前	-6.65042
若	-6.66554
命	-6.67319
字	-6.6822
州	-6.68396
歸	-6.69119
非	-6.70457
常	-6.70519
聞	-6.72493
長	-6.72716
石	-6.73471
問	-6.74236
用	-6.74888
何	-6.75201
焉	-6.75606
白	-6.7575
甚	-6.76265
門	-6.76555
取	-6.7711
耳	-6.79049
明	-6.79221
死	-6.79734
我	-6.8018
從	-6.80478
初	-6.80826
居	-6.82011
未	-6.83237
正	-6.83319
同	-6.83429
馬	-6.84231
成	-6.84882
金	-6.84926
國	-6.87668
神	-6.89031
且	-6.89601
元	-6.9044
臣	-6.91028
既	-6.91141
吾	-6.91207
或	-6.91736
請	-6.9198
小	-6.92662
心	-6.93807
食	-6.93961
間	-6.94055
能	-6.94578
唐	-6.95081
乎	-6.95714
數	-6.9635
劉	-6.97258
語	-6.97362
先	-6.9827
經	-6.98658
坐	-6.98855
四	-6.99772
盡	-7.00173
過	-7.00204
女	-7.00207
必	-7.01211
善	-7.02206
髙	-7.02737
五	-7.04229
安	-7.04674
嘗	-7.04706
立	-7.05166
雖	-7.05186
風	-7.06072
本	-7.06075
重	-7.06178
處	-7.06856
求	-7.06887
陳	-7.07649
身	-7.08126
年	-7.08528
南	-7.09051
帝	-7.10893
平	-7.10923
法	-7.10937
起	-7.10993
意	-7.11216
地	-7.11342
師	-7.11941
西	-7.12127
龍	-7.12238
清	-7.12329
世	-7.12455
諸	-7.14812
還	-7.15737
少	-7.16943
詩	-7.17268
玉	-7.17503
僧	-7.17531
朝	-7.17998
東	-7.18585
酒	-7.19473
不可	-7.20205
始	-7.205
周	-7.21189
好	-7.21887
物	-7.22988
兩	-7.23449
舉	-7.23623
通	-7.24487
士	-7.24693
深	-7.24839
氏	-7.25052
異	-7.2518
傳	-7.25815
衣	-7.26089
等	-7.26315
民	-7.26392
聲	-7.26406
頭	-7.26484
黄	-7.26487
客	-7.27519
便	-7.27593
但	-7.27664
兵	-7.27769
禮	-7.28579
思	-7.29198
老	-7.29274
氣	-7.29652
城	-7.29986
稱	-7.30035
夜	-7.30293
以為	-7.30471
直	-7.30626
忽	-7.30797
花	-7.31103
主	-7.31295
光	-7.31786
木	-7.31857
進	-7.31964
合	-7.32034
内	-7.32094
實	-7.32207
父	-7.32352
吏	-7.32653
發	-7.33272
錢	-7.34709
學	-7.35665
汝	-7.36078
獨	-7.36131
卒	-7.36391
拜	-7.36423
召	-7.36627
果	-7.36751
雲	-7.36897
不能	-7.37373
每	-7.3747
往	-7.37871
應	-7.38206
北	-7.38362
府	-7.38703
開	-7.38703
守	-7.39154
記	-7.39174
外	-7.39356
宋	-7.39927
爾	-7.39975
觀	-7.40015
㑹	-7.40057
母	-7.4062
縣	-7.4119
真	-7.41607
陽	-7.41709
色	-7.42017
軍	-7.42101
徳	-7.42109
古	-7.42898
望	-7.43498
和	-7.4361
九	-7.43706
服	-7.43725
衆	-7.43763
某	-7.44062
定	-7.447
更	-7.4608
首	-7.46152
青	-7.46209
卿	-7.46602
樂	-7.47026
許	-7.47084
惟	-7.47115
義	-7.47269
逺	-7.47371
魚	-7.47425
夫	-7.47627
凡	-7.47707
流	-7.48179
六	-7.48226
謝	-7.4853
分	-7.48614
路	-7.48752
論	-7.4887
都	-7.49085
寺	-7.4918
奏	-7.4943
新	-7.49493
火	-7.50151
近	-7.5018
親	-7.50262
任	-7.50262
尚	-7.50497
遇	-7.50997
别	-7.51402
止	-7.51455
天下	-7.51521
漢	-7.51536
對	-7.51541
目	-7.52206
草	-7.52295
失	-7.52498
引	-7.53448
理	-7.53953
素	-7.54197
楊	-7.54422
如此	-7.54841
賜	-7.55002
致	-7.55345
一日	-7.55612
向	-7.55633
持	-7.55738
耶	-7.56334
絶	-7.56337
具	-7.56649
受	-7.56973
孫	-7.56983
病	-7.57251
猶	-7.57294
月	-7.57535
就	-7.57536
趙	-7.5754
易	-7.57546
解	-7.57559
妻	-7.57669
郡	-7.57983
集	-7.58634
手	-7.58668
力	-7.58839
極	-7.58974
廣	-7.58994
節	-7.59109
夢	-7.59286
信	-7.59391
百	-7.59926
華	-7.59947
春	-7.60039
告	-7.60208
聖	-7.60409
志	-7.60889
視	-7.61176
疾	-7.61438
置	-7.61596
宗	-7.61625
奉	-7.62162
史	-7.6267
載	-7.62996
口	-7.63089
似	-7.63213
/)	-7.636
著	-7.63653
留	-7.64155
呼	-7.64161
萬	-7.64385
封	-7.64463
舊	-7.64515
次	-7.65064
音	-7.65225
宫	-7.6524
難	-7.65345
兒	-7.65594
飲	-7.65652
不得	-7.66164
武	-7.66242
飛	-7.66381
江	-7.66657
海	-7.6695
章	-7.66989
辭	-7.67008
足	-7.67035
宜	-7.67658
伯	-7.67727
隨	-7.6817
殺	-7.68257
遊	-7.68701
十	-7.69015
送	-7.69433
鬼	-7.69638
録	-7.69675
豈	-7.69683
𤣥	-7.70837
俱	-7.70886
終	-7.70955
司	-7.7108
貴	-7.71281
景	-7.71592
喜	-7.7171
林	-7.71856
並	-7.72164
興	-7.72499
各	-7.72706
鄭	-7.72715
才	-7.72937
唯	-7.73258
虎	-7.74041
登	-7.74159
度	-7.74178
詔	-7.74518
曰此	-7.74568
八	-7.74643
試	-7.74852
治	-7.75001
幸	-7.75128
七	-7.75584
修	-7.75595
牛	-7.75879
崔	-7.76039
顧	-7.76042
靈	-7.76132
共	-7.76302
指	-7.76334
梁	-7.76604
遣	-7.76764
仲	-7.76908
胡	-7.77319
先生	-7.77367
號	-7.7741
徐	-7.7741
悉	-7.77443
益	-7.7747
除	-7.77568
朱	-7.77679
盛	-7.7769
頗	-7.78058
德	-7.78465
堂	-7.78495
樹	-7.78785
性	-7.78983
香	-7.79106
仙	-7.79219
遺	-7.79478
議	-7.79591
卷	-7.79608
晉	-7.79687
賢	-7.80248
土	-7.80266
余	-7.80701
適	-7.80867
臺	-7.80956
授	-7.81089
餘	-7.8112
畫	-7.81195
到	-7.81385
賊	-7.8169
藥	-7.81719
祖	-7.81929
固	-7.82077
臨	-7.82273
院	-7.82375
美	-7.82675
郎	-7.82919
殿	-7.82937
被	-7.83017
位	-7.83383
亡	-7.83684
田	-7.83692
報	-7.8397
不敢	-7.84732
不知	-7.8549
河	-7.85655
韓	-7.85735
哉	-7.86103
詣	-7.86215
容	-7.86613
説	-7.86688
厚	-7.86938
教	-7.87175
空	-7.87217
執	-7.87338
恐	-7.87488
来	-7.87491
於是	-7.87605
雨	-7.88026
精	-7.88064
宣	-7.88182
車	-7.88356
曰吾	-7.88859
而去	-7.88903
寳	-7.89029
動	-7.8904
改	-7.89232
吳	-7.89766
仁	-7.89931
蓋	-7.90123
面	-7.90184
加	-7.90749
敬	-7.90861
尋	-7.90976
制	-7.91938
宅	-7.9198
疑	-7.9207
齊	-7.92597
體	-7.92627
省	-7.92844
左右	-7.93094
宿	-7.93118
承	-7.93704
比	-7.94532
嵗	-7.94564
交	-7.94565
盖	-7.94645
夏	-7.94803
降	-7.94821
願	-7.94987
識	-7.9506
注	-7.95212
姓	-7.95314
魏	-7.95338
廟	-7.95386
高	-7.95498
造	-7.95564
落	-7.95953
器	-7.96366
葉	-7.96413
由	-7.96952
蜀	-7.96956
怒	-7.97097
叔	-7.97128
室	-7.97214
形	-7.9728
鳥	-7.97281
陵	-7.97547
羣	-7.9765
再	-7.97763
詞	-7.97776
化	-7.97851
忠	-7.97891
苦	-7.98069
表	-7.98253
說	-7.98555
亂	-7.99305
太	-7.99528
乞	-7.99722
備	-8.00288
韋	-8.00347
情	-8.00372
延	-8.0041
屬	-8.00576
秦	-8.00752
要	-8.00926
竹	-8.01047
婦	-8.01232
左	-8.01379
代	-8.01417
筆	-8.01461
獻	-8.0163
放	-8.01728
惡	-8.01837
建	-8.01968
賦	-8.02003
蛇	-8.02212
反	-8.02501
破	-8.02537
投	-8.02567
夫人	-8.02587
圖	-8.02746
業	-8.02763
莫	-8.02767
曲	-8.03373
謂之	-8.03763
闕	-8.03857
御	-8.04245
輕	-8.04453
懼	-8.04477
特	-8.04488
秋	-8.04569
狀	-8.04847
設	-8.05162
散	-8.05174
全	-8.05324
遷	-8.05363
列	-8.05451
恩	-8.05454
羅	-8.0556
赤	-8.05575
政	-8.05658
曹	-8.05672
驚	-8.05772
久	-8.05878
隂	-8.06009
歌	-8.06101
鎮	-8.06394
計	-8.06453
伏	-8.06494
杜	-8.06761
連	-8.06908
半	-8.07314
里	-8.07561
蘇	-8.07802
俗	-8.07915
勝	-8.08196
竒	-8.08543
滿	-8.08548
須	-8.08749
孝	-8.09014
朝廷	-8.0914
誠	-8.09276
亭	-8.09351
舍	-8.09546
罷	-8.09663
端	-8.09974
急	-8.10152
有一	-8.10166
他	-8.10641
嚴	-8.10923
濟	-8.11163
崇	-8.11195
千	-8.11256
念	-8.11452
盧	-8.12364
葢	-8.12385
謁	-8.12442
覺	-8.12457
畢	-8.12584
福	-8.12704
怪	-8.12955
追	-8.12966
寒	-8.13494
良	-8.13525
利	-8.13534
僕	-8.13846
兼	-8.13932
池	-8.14234
符	-8.14243
笑	-8.14484
獲	-8.14553
變	-8.14613
負	-8.14637
約	-8.1544
竟	-8.155
陸	-8.15589
簡	-8.15849
達	-8.15854
第	-8.15927
遽	-8.16235
佛	-8.16391
權	-8.16493
尤	-8.16668
却	-8.16672
右	-8.16766
轉	-8.16771
尚書	-8.18039
丹	-8.18343
野	-8.18567
予	-8.18567
題	-8.18656
屋	-8.18712
罪	-8.18795
感	-8.18805
昭	-8.18846
曰我	-8.19352
道士	-8.19433
侯	-8.19732
收	-8.19744
舟	-8.19787
燕	-8.20014
宴	-8.20084
而已	-8.2019
皇	-8.20225
醉	-8.20543
移	-8.2098
微	-8.21111
毛	-8.21286
退	-8.2132
咸	-8.21435
珠	-8.21447
郭	-8.21483
昔	-8.21511
布	-8.21568
走	-8.2171
愈	-8.2173
羊	-8.21832
紅	-8.2197
船	-8.22328
索	-8.2252
推	-8.22794
功	-8.23252
存	-8.23261
明日	-8.23326
慶	-8.2354
愛	-8.24145
骨	-8.24275
末	-8.24361
懐	-8.24376
中有	-8.244
斷	-8.24442
市	-8.24584
曾	-8.24606
其事	-8.24809
藏	-8.24906
敗	-8.25093
甲	-8.25099
泉	-8.25123
私	-8.25224
待	-8.25266
考	-8.25282
率	-8.25295
傷	-8.25596
齋	-8.26136
肉	-8.26197
天子	-8.26456
薦	-8.26612
毎	-8.26763
永	-8.26796
乗	-8.26804
迎	-8.27101
紫	-8.27106
其人	-8.27201
紀	-8.27311
仍	-8.27639
彦	-8.27767
宰相	-8.27777
沈	-8.27913
席	-8.27964
曽	-8.28047
納	-8.28352
免	-8.28368
休	-8.28513
鳴	-8.28609
温	-8.28625
一人	-8.28759
丞相	-8.28935
否	-8.28956
歲	-8.28972
裴	-8.29152
典	-8.29244
工	-8.29284
郭曰	-8.29433
兄	-8.29586
訪	-8.29677
贈	-8.29976
楚	-8.30002
二人	-8.30017
房	-8.30158
所以	-8.30215
之後	-8.30296
職	-8.30363
稍	-8.30494
回	-8.30552
充	-8.30572
謀	-8.30636
儀	-8.30666
冠	-8.30805
邊	-8.30829
虚	-8.30852
憂	-8.30892
鄉	-8.30896
弟	-8.30992
徃	-8.31195
積	-8.31527
窮	-8.31528
季	-8.31613
角	-8.31852
輒	-8.31878
樓	-8.31878
尾	-8.31962
偶	-8.32061
戲	-8.32155
澤	-8.32246
賞	-8.32575
結	-8.32605
博	-8.3285
不復	-8.33225
禁	-8.3329
寧	-8.33305
雅	-8.33437
期	-8.33613
彼	-8.34068
可以	-8.34214
榮	-8.34379
幾	-8.34387
阿	-8.34643
帥	-8.34673
薄	-8.34851
庭	-8.34855
累	-8.34875
殊	-8.34907
越	-8.3494
談	-8.35058
翁	-8.35389
所謂	-8.3547
京	-8.35746
雪	-8.35814
戒	-8.35832
竊	-8.35986
養	-8.36073
廢	-8.36209
按	-8.36419
讀	-8.36488
徒	-8.3664
陛下	-8.36658
切	-8.367
堅	-8.368
術	-8.36914
𩔖	-8.37071
選	-8.37112
責	-8.37262
嘉	-8.37305
三年	-8.37607
折	-8.37858
英	-8.37867
部	-8.37978
閣	-8.38031
壁	-8.385
施	-8.3875
巳	-8.38772
寄	-8.38921
依	-8.39088
二年	-8.39089
恨	-8.39285
寶	-8.39409
人也	-8.39458
籍	-8.39483
侍	-8.3958
案	-8.39674
雜	-8.3975
息	-8.39824
離	-8.40005
邪	-8.40008
顯	-8.40118
康	-8.40128
奴	-8.40186
赴	-8.40314
誤	-8.40329
繼	-8.40391
其家	-8.40621
假	-8.41157
友	-8.41174
既而	-8.4128
宻	-8.41429
犬	-8.41442
杖	-8.41496
墓	-8.41578
歴	-8.42015
調	-8.42121
垂	-8.42295
原	-8.42347
質	-8.42399
哀	-8.42426
夀	-8.42599
威	-8.43254
婦人	-8.4328
族	-8.43325
數日	-8.43477
血	-8.43682
范	-8.43731
害	-8.43787
保	-8.44152
監	-8.44216
并	-8.44262
吕	-8.44309
領	-8.44449
太宗	-8.4471
刻	-8.45114
賈	-8.45183
資	-8.4523
擊	-8.45306
星	-8.45406
戰	-8.45421
騎	-8.45596
孟	-8.45621
早	-8.45725
未嘗	-8.45795
象	-8.45913
不見	-8.461
細	-8.46302
斯	-8.46449
𨼆	-8.46456
勿	-8.46457
蕭	-8.46471
其後	-8.465
姑	-8.46851
松	-8.46913
聞之	-8.46939
患	-8.46992
差	-8.47021
候	-8.47033
園	-8.47066
照	-8.47329
而不	-8.47344
秀	-8.47423
后	-8.47524
昌	-8.47608
祠	-8.47779
游	-8.4804
妾	-8.48058
婢	-8.48082
歳	-8.4811
有人	-8.4818
給	-8.48234
種	-8.48268
進士	-8.48328
湯	-8.48438
逐	-8.48509
儒	-8.48663
程	-8.4873
蔡	-8.488
見之	-8.48848
最	-8.49168
聚	-8.49184
視之	-8.49187
買	-8.49213
曰某	-8.49324
乘	-8.49469
滅	-8.49476
邑	-8.49668
吉	-8.49741
井	-8.49797
溪	-8.50069
看	-8.50159
烏	-8.5021
貧	-8.50564
今日	-8.50575
扵	-8.50724
丘	-8.50828
只	-8.50886
帶	-8.50915
恭	-8.50974
勢	-8.50983
升	-8.51004
漸	-8.51117
釋	-8.51419
川	-8.51425
將軍	-8.51484
撰	-8.51664
長安	-8.51711
顔	-8.51897
獄	-8.52296
營	-8.52317
衛	-8.52407
對曰	-8.52571
附	-8.52744
尊	-8.52972
碑	-8.5303
犯	-8.53085
𫝊	-8.5323
紙	-8.53436
避	-8.53441
州刺史	-8.53536
薛	-8.53536
逸	-8.53608
葬	-8.53675
銀	-8.53781
輩	-8.53815
谷	-8.53844
印	-8.53968
禍	-8.53977
盤	-8.53986
妙	-8.54191
黑	-8.54317
家人	-8.54415
隱	-8.54457
京師	-8.54737
務	-8.54763
丁	-8.54897
枝	-8.5516
聽	-8.55341
之事	-8.55345
智	-8.55354
錄	-8.55578
驗	-8.55583
射	-8.55809
當時	-8.5599
巨	-8.56273
商	-8.56294
刀	-8.56514
背	-8.56594
熟	-8.56669
村	-8.56823
幽	-8.56933
孤	-8.57039
莊	-8.57123
像	-8.57144
亦不	-8.572
味	-8.57235
浮	-8.57345
誰	-8.57353
之所	-8.57376
富	-8.57406
側	-8.57561
申	-8.57563
無所	-8.57567
棄	-8.57599
沙	-8.57718
館	-8.57728
數十	-8.57972
任臣案	-8.58155
獸	-8.58247
其子	-8.5832
序	-8.58377
旦	-8.58453
賀	-8.58519
洞	-8.58531
運	-8.58559
接	-8.58712
希	-8.58729
與之	-8.58991
乆	-8.59266
名曰	-8.59401
龜	-8.59518
覆	-8.59558
步	-8.59876
雄	-8.59963
述	-8.60058
寢	-8.60137
管	-8.60175
夕	-8.60204
銅	-8.60447
虞	-8.60897
孔	-8.60902
篇	-8.60993
毒	-8.61156
痛	-8.61319
自是	-8.61386
據	-8.62171
太守	-8.62198
穴	-8.62525
示	-8.62641
露	-8.62828
雞	-8.62951
俊	-8.63142
啓	-8.63181
鐵	-8.63485
逢	-8.63643
洪	-8.63648
住	-8.63666
横	-8.63943
條	-8.63948
刺	-8.63995
縱	-8.64034
墨	-8.64124
判	-8.64263
機	-8.6453
壽	-8.64651
太祖	-8.64768
卧	-8.64813
履	-8.64899
密	-8.64932
茶	-8.65134
佐	-8.65199
詳	-8.65275
誅	-8.6559
其所	-8.6564
敵	-8.65985
由是	-8.66043
御史	-8.66117
順	-8.66331
敢	-8.66353
户	-8.6643
惠	-8.66538
久之	-8.6669
屈	-8.66723
貞	-8.66769
甘	-8.67103
醫	-8.67118
慮	-8.67136
刑	-8.67262
蒙	-8.67279
於此	-8.67299
尉	-8.67561
託	-8.67607
米	-8.67823
元年	-8.67918
曉	-8.67934
勞	-8.67939
眼	-8.67965
兄弟	-8.68137
洛	-8.68356
泰	-8.68398
答曰	-8.68403
憲	-8.68634
詩曰	-8.68967
乾	-8.69077
岸	-8.69367
䇿	-8.69397
鼎	-8.69457
雷	-8.69628
豐	-8.69692
知其	-8.69732
品	-8.69938
勸	-8.70092
湖	-8.70587
亦有	-8.70607
誦	-8.70648
畏	-8.70701
皮	-8.70768
馳	-8.70862
鼓	-8.70899
妄	-8.70906
忘	-8.70977
厯	-8.71014
陶	-8.71115
謹	-8.71348
喪	-8.71354
徑	-8.71357
悲	-8.7137
班	-8.71474
塵	-8.71488
學士	-8.71646
環	-8.71647
悟	-8.71833
句	-8.71977
呉	-8.72311
冬	-8.72549
招	-8.72649
習	-8.72656
佳	-8.72739
跡	-8.72758
繫	-8.72803
掌	-8.72899
貫	-8.72946
碧	-8.7295
曰君	-8.7296
夷	-8.73086
㫖	-8.73104
朕	-8.73141
座	-8.73347
抱	-8.73722
童	-8.7402
旣	-8.74121
雙	-8.74175
橋	-8.74187
己	-8.7436
仕	-8.74479
歡	-8.74601
辟	-8.74704
勤	-8.74961
笑曰	-8.75006
救	-8.75014
殺之	-8.75059
巖	-8.75314
翼	-8.7544
君子	-8.75602
編	-8.75666
韻	-8.75696
會	-8.7581
甫	-8.75925
侍郎	-8.75958
㣲	-8.75974
詩云	-8.76057
栁	-8.76121
黒	-8.76298
圍	-8.76472
奔	-8.76731
須臾	-8.76788
歎	-8.76822
潛	-8.76941
殷	-8.77118
震	-8.77308
支	-8.77392
委	-8.77411
鏡	-8.77435
曰汝	-8.77549
穆	-8.77574
為之	-8.77822
江南	-8.77946
略	-8.78173
主人	-8.78188
强	-8.78235
之言	-8.78256
補	-8.78292
暴	-8.78406
何以	-8.78453
舞	-8.78582
苑	-8.78769
三日	-8.78869
伐	-8.78956
困	-8.7896
祭	-8.79052
賣	-8.79068
麗	-8.79305
人皆	-8.79473
馮	-8.79519
少年	-8.79669
不及	-8.7971
續	-8.80188
辨	-8.8021
境	-8.80258
詠	-8.80519
付	-8.80543
關	-8.80562
波	-8.80699
根	-8.80735
了	-8.80877
鍾	-8.80889
怨	-8.81064
産	-8.8108
財	-8.81086
鹿	-8.8111
覽	-8.81147
肅	-8.81453
之間	-8.81467
嗣	-8.81549
亮	-8.81605
源	-8.81708
遍	-8.81772
旁	-8.81784
燭	-8.81829
講	-8.82149
賔	-8.82307
輔	-8.82401
戎	-8.8262
塞	-8.8262
鶴	-8.82768
役	-8.82817
亟	-8.82963
屢	-8.83205
不足	-8.83447
禄	-8.83653
暮	-8.83742
貶	-8.83791
然後	-8.838
活	-8.83936
又曰	-8.84131
牀	-8.84223
預	-8.84274
戴	-8.84373
懷	-8.84402
以此	-8.8448
他日	-8.84493
太子	-8.8452
揚	-8.84714
仰	-8.84753
察	-8.84784
干	-8.85494
貨	-8.85521
桑	-8.85645
脚	-8.85725
歩	-8.85818
振	-8.85849
使人	-8.85899
妖	-8.85947
柱	-8.85994
科	-8.86009
駕	-8.86181
齒	-8.86293
律	-8.86361
衡	-8.86385
逆	-8.86848
飯	-8.86863
至今	-8.86953
而死	-8.87152
速	-8.87269
旋	-8.87374
危	-8.87453
東坡	-8.87716
撫	-8.87813
舎	-8.87826
異記	-8.88009
一時	-8.88041
又有	-8.88182
幼	-8.88255
如何	-8.88442
羽	-8.88449
塗	-8.88555
十二	-8.88568
使者	-8.88605
茂	-8.8863
得一	-8.8872
畧	-8.88758
淵	-8.88985
叟	-8.89176
超	-8.89323
狂	-8.89383
纔	-8.89462
蟲	-8.8947
子孫	-8.89521
愚	-8.89522
損	-8.89559
參	-8.8959
以爲	-8.89697
遭	-8.89704
採	-8.89752
泥	-8.89765
如是	-8.89919
捕	-8.90046
𢎞	-8.9013
短	-8.90149
黨	-8.90167
得之	-8.902
敏	-8.90258
寫	-8.90386
哭	-8.90464
泣	-8.9048
坊	-8.90527
傾	-8.90528
徵	-8.9053
毁	-8.90563
尹	-8.90631
操	-8.90676
牧	-8.90772
驛	-8.90894
有所	-8.90974
見一	-8.90996
之山	-8.91019
弟子	-8.91206
太尉	-8.91269
寵	-8.91455
總	-8.9156
狗	-8.91633
父母	-8.91681
恒	-8.91798
之子	-8.91853
腹	-8.92071
及第	-8.9209
大夫	-8.92278
供	-8.92344
趨	-8.92502
訓	-8.9256
絲	-8.92561
皇帝	-8.92585
况	-8.92596
魯	-8.92704
助	-8.92837
晦	-8.92908
訖	-8.9321
飾	-8.93222
巾	-8.93368
時有	-8.93455
盜	-8.93725
錦	-8.93769
司馬	-8.93776
姓名	-8.93828
爭	-8.9402
争	-8.94027
明年	-8.94049
鳳	-8.94184
答	-8.94203
殆	-8.94253
材	-8.9433
庫	-8.94635
專	-8.94663
茍	-8.94667
食之	-8.94888
隆	-8.94903
知之	-8.95002
頃	-8.95203
攻	-8.95224
無不	-8.95376
珍	-8.9543
克	-8.95434
狐	-8.95513
扶	-8.95548
兮	-8.95567
懸	-8.95655
十年	-8.9581
鹽	-8.95957
優	-8.96455
董	-8.96464
倒	-8.96528
文章	-8.96594
其妻	-8.9661
貢	-8.96646
闗	-8.96677
揖	-8.96699
平生	-8.96763
唱	-8.96811
逹	-8.96818
眞	-8.96922
臂	-8.96957
豪	-8.97007
没	-8.97145
諫	-8.97171
麻	-8.9722
判官	-8.97373
者皆	-8.97422
黃	-8.97426
燈	-8.97454
寓	-8.97459
荒	-8.97464
脱	-8.97635
慎	-8.97664
署	-8.9774
琴	-8.97912
借	-8.97963
允	-8.98026
春秋	-8.98095
卜	-8.98182
㕔	-8.98549
晚	-8.98744
驢	-8.98944
問之	-8.99057
俄	-8.99212
寛	-8.99231
靖	-8.99308
量	-8.99417
是也	-8.99432
影	-8.99801
縁	-8.99824
自此	-9.00006
澄	-9.00008
𤣥宗	-9.00021
桓	-9.00049
慈	-9.00062
諱	-9.00192
弗	-9.00303
檢	-9.00387
棺	-9.00388
枕	-9.00645
紹	-9.00694
姚	-9.00757
鄰	-9.00776
格	-9.01004
逃	-9.01021
話	-9.01043
競	-9.01194
良久	-9.01232
凝	-9.01344
郎中	-9.01602
至於	-9.01613
三十	-9.0167
祥	-9.01754
岳	-9.01913
五年	-9.01987
數百	-9.0217
宰	-9.02208
貌	-9.02244
迴	-9.02254
禹	-9.02265
擇	-9.024
植	-9.02582
廷	-9.02757
沒	-9.02782
斬	-9.02883
叙	-9.02935
俄而	-9.033
而卒	-9.0331
劍	-9.03472
宇	-9.03525
帖	-9.03641
惜	-9.03702
驅	-9.03794
舜	-9.0382
燒	-9.03899
墜	-9.03902
五十	-9.04074
獵	-9.04337
吐	-9.04342
傅	-9.04506
百姓	-9.04539
吟	-9.04674
純	-9.0488
輙	-9.04886
妓	-9.04933
髪	-9.05391
㸃	-9.0552
錫	-9.05608
掩	-9.05613
決	-9.05635
淮	-9.05641
相公	-9.05827
屏	-9.05868
俾	-9.06146
階	-9.06184
局	-9.06212
閒	-9.06317
寃	-9.06325
副	-9.06344
大如	-9.06384
静	-9.06544
相見	-9.06561
四年	-9.06734
讀書	-9.06863
丞	-9.06873
審	-9.06881
辯	-9.06896
化為	-9.06905
之意	-9.07091
二十	-9.07112
雍	-9.07214
神仙	-9.07221
諭	-9.07254
士大夫	-9.07353
决	-9.07402
校	-9.07534
鼻	-9.07546
欽定四庫全書	-9.07578
潔	-9.07669
迹	-9.07708
慕	-9.07743
緑	-9.07921
疏	-9.0802
打	-9.08027
見其	-9.08034
奪	-9.08053
倚	-9.08151
牙	-9.08154
時人	-9.0837
男	-9.08439
界	-9.08468
辱	-9.08516
異之	-9.08523
焚	-9.0866
是時	-9.08698
劒	-9.08711
鞭	-9.08759
蘭	-9.08802
渡	-9.08876
敕	-9.08908
而出	-9.08969
妃	-9.09045
晏	-9.09081
脫	-9.09081
捨	-9.09115
逰	-9.09301
圓	-9.09336
沉	-9.09395
介	-9.09564
數年	-9.09574
女子	-9.09585
脩	-9.09614
朗	-9.09861
輿	-9.09964
邀	-9.10047
竇	-9.10264
讓	-9.10275
費	-9.10281
鄧	-9.10382
甞	-9.10415
統	-9.10539
擢	-9.10581
堯	-9.10584
尺	-9.10656
為人	-9.10777
秀才	-9.11278
人間	-9.11351
悔	-9.11374
大臣	-9.11563
祝	-9.1177
未幾	-9.11854
兹	-9.11922
舒	-9.11925
飲酒	-9.11956
未有	-9.11998
瑞	-9.12052
一名	-9.12158
衰	-9.12215
不然	-9.12348
傍	-9.1239
鳯	-9.12434
其父	-9.12527
庶	-9.12768
擲	-9.12915
違	-9.12915
謙	-9.12921
儉	-9.12928
言之	-9.13004
訴	-9.13125
頓	-9.13227
有大	-9.1331
暫	-9.13315
裏	-9.13367
黙	-9.13414
渠	-9.13458
盈	-9.13497
子弟	-9.13534
導	-9.13552
庾	-9.13576
占	-9.13851
烈	-9.13864
一作	-9.13969
娶	-9.13976
幕	-9.13981
忽有	-9.14079
小兒	-9.14098
一夕	-9.14171
肆	-9.14185
幹	-9.14242
上有	-9.14258
厭	-9.14334
玄	-9.14413
維	-9.14461
途	-9.14466
謂曰	-9.14484
欽	-9.14528
其中	-9.14586
薨	-9.14693
例	-9.14773
築	-9.1484
逼	-9.1489
郊	-9.14903
孔子	-9.14993
者也	-9.15022
殘	-9.15058
壯	-9.15123
故事	-9.15156
榜	-9.15261
牒	-9.15303
不同	-9.15405
牽	-9.15474
斗	-9.15604
門外	-9.15732
至此	-9.15765
盗	-9.15843
潘	-9.15859
誕	-9.1588
之際	-9.15884
䕶	-9.15909
問曰	-9.15967
倉	-9.15986
仁宗	-9.1611
提	-9.16121
忌	-9.16253
嶺	-9.16279
出酉陽	-9.16408
昏	-9.1641
尸	-9.16506
不肯	-9.16626
值	-9.1669
其上	-9.16838
藝	-9.16843
公曰	-9.16878
抵	-9.16878
桃	-9.16923
何如	-9.16949
偽	-9.17163
惑	-9.17199
髮	-9.17221
荆	-9.17221
第一	-9.17257
銜	-9.17409
天地	-9.17427
軒	-9.17438
啟	-9.17528
所居	-9.1756
洛陽	-9.17606
一旦	-9.1764
抑	-9.17692
魂	-9.17709
有司	-9.17739
相國	-9.17862
祀	-9.17888
征	-9.17903
千里	-9.18044
囊	-9.18054
翰	-9.18345
歎曰	-9.1836
諸公	-9.18434
融	-9.18444
湘	-9.18459
板	-9.18516
擁	-9.18732
僅	-9.18751
價	-9.18765
宏	-9.18844
不如	-9.18986
午	-9.19392
執政	-9.19412
将	-9.19438
之士	-9.19564
洎	-9.19573
中書	-9.19602
梅	-9.19679
皆有	-9.19683
芳	-9.19704
又云	-9.19718
祈	-9.20068
朔	-9.20087
囚	-9.20357
躬	-9.20367
蒲	-9.20587
鮮	-9.20626
老人	-9.20728
士人	-9.20793
瞻	-9.20831
賓	-9.20924
烟	-9.21002
擬	-9.21013
效	-9.21121
洗	-9.21209
束	-9.21213
書曰	-9.2129
𥘉	-9.21415
不為	-9.21586
則天	-9.21594
巧	-9.21723
不覺	-9.21813
辛	-9.21838
莫不	-9.22156
大笑	-9.222
覩	-9.22421
出入	-9.22459
隔	-9.22465
襲	-9.22476
此人	-9.22552
徙	-9.22556
縣令	-9.22581
孰	-9.22664
以其	-9.22744
富貴	-9.22765
觀之	-9.2278
員	-9.22874
彌	-9.22932
爵	-9.22967
革	-9.23065
袁	-9.23122
彈	-9.23141
戸	-9.23218
勇	-9.23346
熱	-9.2335
翌日	-9.23369
之地	-9.23466
遵	-9.2362
岀	-9.2362
防	-9.23826
襄	-9.23874
誣	-9.23909
采	-9.23924
公主	-9.2396
配	-9.24001
絹	-9.24008
倫	-9.24175
徴	-9.2418
潤	-9.24184
䘮	-9.24211
穿	-9.24222
刺史	-9.24403
隋	-9.24407
之上	-9.24605
含	-9.2464
侍中	-9.24646
嫁	-9.24661
碎	-9.24662
詢	-9.2468
閑	-9.24822
扇	-9.24867
所在	-9.24895
忽見	-9.249
製	-9.24928
僕射	-9.24967
遲	-9.25067
卑	-9.25099
𣗳	-9.25111
柳	-9.25129
墮	-9.25203
洲	-9.25312
丗	-9.25548
謫	-9.25695
相與	-9.25731
宮	-9.2575
壇	-9.25774
節度使	-9.25941
遠	-9.25968
塔	-9.25975
榻	-9.26011
披	-9.26208
堪	-9.26356
㡬	-9.2648
往往	-9.26569
以來	-9.26709
桂	-9.26767
必有	-9.26923
王氏	-9.27103
赦	-9.27118
先是	-9.27169
祐	-9.27216
冷	-9.27302
前後	-9.27312
均	-9.27347
太原	-9.27402
三百	-9.27419
廬	-9.27475
稽	-9.27523
芝	-9.27557
勉	-9.27597
循	-9.27808
從事	-9.27916
俟	-9.28206
昇	-9.28245
十餘	-9.28297
偉	-9.28306
敦	-9.28307
忍	-9.2834
漏	-9.28474
四十	-9.28513
剛	-9.28553
李公	-9.28558
祖父	-9.28651
貪	-9.28673
山中	-9.29026
奇	-9.29188
已而	-9.29236
曰卿	-9.29296
彭	-9.29333
太后	-9.29562
籠	-9.2958
鑒	-9.29597
凶	-9.29818
文字	-9.29818
陰	-9.29828
二子	-9.29993
晝	-9.29999
虜	-9.30027
娘	-9.30056
厥	-9.30057
東南	-9.30063
再拜	-9.30255
竄	-9.30276
㓜	-9.30296
底	-9.30307
斥	-9.3032
姦	-9.30444
徹	-9.30486
可謂	-9.30557
閉	-9.30558
從之	-9.30593
四方	-9.30613
蒼	-9.30644
寜	-9.30737
黜	-9.30748
巫	-9.30896
成都	-9.30923
其言	-9.30994
巢	-9.31111
取之	-9.31147
寡	-9.31157
喚	-9.31193
粟	-9.31197
鄙	-9.31199
畜	-9.31205
停	-9.31213
荆公	-9.3125
之道	-9.31466
何為	-9.31593
兆	-9.31866
淚	-9.319
糧	-9.31932
譽	-9.3211
古人	-9.32226
㝠	-9.32245
婚	-9.32434
尼	-9.32586
也又	-9.32593
吴	-9.32635
眉	-9.32762
數人	-9.32795
睡	-9.32809
繁	-9.32864
其間	-9.32954
不過	-9.32999
酬	-9.33075
峻	-9.33087
禪	-9.33208
翠	-9.33228
榖	-9.33286
類	-9.33288
賤	-9.33312
陷	-9.33343
牓	-9.33536
規	-9.33546
蕃	-9.33555
勲	-9.33562
削	-9.33577
河東	-9.33645
太平	-9.33674
觸	-9.33809
磨	-9.33825
帳	-9.33846
姬	-9.34315
吹	-9.34354
之時	-9.34431
膏	-9.34521
佩	-9.34569
禱	-9.34734
討	-9.34748
藉	-9.34765
爽	-9.34987
不已	-9.34988
排	-9.35037
奈何	-9.35102
額	-9.35489
暗	-9.355
險	-9.35524
店	-9.35546
腰	-9.35601
樞	-9.35693
瓦	-9.35706
激	-9.35747
擒	-9.35783
所見	-9.35822
不識	-9.3593
荷	-9.35961
無以	-9.35967
語曰	-9.35971
其母	-9.35975
嘆	-9.36385
消	-9.36443
之𩔖	-9.36467
開元	-9.36498
帛	-9.36657
辰	-9.36664
壻	-9.36691
勅	-9.36747
煩	-9.36757
探	-9.36991
衣冠	-9.37013
許之	-9.3736
瘡	-9.37497
㑹稽	-9.3754
或云	-9.3768
契	-9.37921
基	-9.38202
贊	-9.38268
愧	-9.38277
淺	-9.3845
𬒳	-9.38463
整	-9.38485
武帝	-9.38528
即位	-9.38546
丈	-9.3855
拂	-9.38605
十五	-9.389
三人	-9.38904
把	-9.38936
終不	-9.38948
策	-9.38999
弱	-9.39083
潜	-9.39207
偏	-9.39224
翰林	-9.39387
毅	-9.39394
肥	-9.39487
乳	-9.39644
弼	-9.39874
窺	-9.39932
津	-9.39987
猪	-9.40195
欺	-9.40209
侵	-9.40249
饌	-9.40414
晩	-9.40424
躍	-9.40451
駭	-9.40454
揚州	-9.40607
枯	-9.40663
状	-9.40684
衞	-9.40706
粉	-9.4073
灰	-9.40752
瓊	-9.40763
耕	-9.40773
厲	-9.40926
主簿	-9.4096
享	-9.40997
誓	-9.41093
不食	-9.41246
錯	-9.41259
拔	-9.41262
百餘	-9.41291
杯	-9.41336
彩	-9.41437
巴	-9.41439
騰	-9.41447
社	-9.41458
饑	-9.41481
箭	-9.41499
虛	-9.41507
道人	-9.41627
冀	-9.41647
荆州	-9.41717
鸞	-9.41774
雀	-9.41775
愁	-9.418
大怒	-9.41876
日月	-9.41925
河南	-9.4194
擾	-9.42086
賛	-9.42106
岐	-9.4212
街	-9.42152
髙宗	-9.4219
諷	-9.42212
援	-9.42282
鑿	-9.42283
訟	-9.42297
○	-9.42313
言訖	-9.42518
蕩	-9.42537
返	-9.42656
用之	-9.42687
鑄	-9.42792
萬里	-9.42829
攜	-9.42838
玩	-9.42992
己見	-9.43088
之人	-9.4332
際	-9.43322
䑕	-9.43331
歟	-9.43347
攝	-9.43353
者亦	-9.43361
令人	-9.4337
紹興	-9.43371
聖人	-9.43381
如故	-9.43556
憤	-9.43631
憶	-9.4366
舌	-9.43885
西北	-9.43904
長史	-9.4391
叛	-9.43931
拒	-9.44018
甚多	-9.44059
竟不	-9.44097
阮	-9.44098
鴻	-9.44114
疎	-9.44146
熊	-9.44217
頂	-9.44219
曠	-9.44337
嫗	-9.44345
篤	-9.44413
謬	-9.44433
遜	-9.44522
簿	-9.44576
風雨	-9.44602
掠	-9.44708
三月	-9.44767
勒	-9.44828
斤	-9.44847
偃	-9.44945
喻	-9.44982
􁀙	-9.44991
渾	-9.44996
問其	-9.44998
衣服	-9.4507
餅	-9.45151
上曰	-9.45217
國家	-9.45409
司空	-9.45487
青衣	-9.45495
増	-9.45502
刃	-9.45503
得其	-9.45555
有二	-9.45562
庸	-9.4569
銘	-9.45723
繞	-9.45724
旬日	-9.45732
飲食	-9.45751
缺	-9.4577
鐘	-9.45792
嵩	-9.45884
式	-9.45914
邦	-9.45961
捧	-9.46023
狀如	-9.4604
冦	-9.46051
王公	-9.46057
僉載	-9.46058
衫	-9.46233
網	-9.46291
涉	-9.46294
髙祖	-9.46461
鬚	-9.46467
囘	-9.46583
正月	-9.46811
軰	-9.46837
從容	-9.46885
蠻	-9.46934
弓	-9.4695
鬼神	-9.47071
裂	-9.47105
水中	-9.47243
西南	-9.47281
真宗	-9.47289
所得	-9.47384
漆	-9.47393
昨	-9.47508
嗟	-9.47522
無人	-9.47577
割	-9.47639
邉	-9.4789
姪	-9.47963
壊	-9.47964
汴	-9.47985
而後	-9.48145
煙	-9.48165
秩	-9.48176
染	-9.48207
眀	-9.48209
其名	-9.48315
魏公	-9.48378
也今	-9.48411
禽	-9.48455
浪	-9.4849
以示	-9.48544
隣	-9.48719
書生	-9.48902
徽	-9.48961
云此	-9.48989
此事	-9.4899
妹	-9.4904
李氏	-9.49098
而歸	-9.49155
災	-9.49245
往來	-9.49268
五色	-9.49271
氷	-9.49329
靜	-9.49336
鼠	-9.4937
篆	-9.49479
誌	-9.49536
霞	-9.49582
普	-9.49585
已見	-9.4961
蔣	-9.49613
𡊮	-9.49648
伊	-9.49702
既至	-9.49788
踰	-9.49861
其下	-9.50041
十三	-9.50092
爛	-9.5016
聴	-9.50191
匿	-9.50192
自言	-9.50209
範	-9.50212
綱	-9.50306
偕	-9.50335
掾	-9.50448
自然	-9.50554
父子	-9.50636
之聲	-9.50673
伺	-9.50675
叱	-9.50761
罵	-9.50864
曰公	-9.50938
中丞	-9.50954
倍	-9.50969
麥	-9.50992
恕	-9.50992
着	-9.51014
育	-9.51026
棲	-9.51035
鬻	-9.51044
葛	-9.51214
簾	-9.51243
揮	-9.51253
門下	-9.51271
柔	-9.51278
屠	-9.51281
蔽	-9.51306
匠	-9.51311
證	-9.51318
貯	-9.51537
崩	-9.51813
不欲	-9.51823
安石	-9.51866
垣	-9.51893
警	-9.51899
弄	-9.52169
之心	-9.52347
邵	-9.52367
七十	-9.52505
雜俎	-9.52685
不許	-9.52802
天下之	-9.52838
凌	-9.52859
童子	-9.52993
致仕	-9.53137
悦	-9.53162
炎	-9.53253
隅	-9.53294
茅	-9.53301
僚	-9.53315
戮	-9.53522
在此	-9.53549
下有	-9.53585
繩	-9.53604
項	-9.5362
言曰	-9.538
䖏	-9.53839
譏	-9.5385
藻	-9.53907
邸	-9.53925
輪	-9.54112
出於	-9.54117
冢	-9.54206
處士	-9.54212
喬	-9.54488
油	-9.54492
標	-9.54525
纂	-9.54534
頌	-9.54535
數千	-9.54554
而行	-9.54649
至于	-9.54714
魁	-9.54731
亦無	-9.54747
溺	-9.54784
頻	-9.54805
吏部	-9.54883
六年	-9.5492
淮南	-9.54973
姜	-9.55031
之下	-9.55037
巡	-9.55096
七年	-9.55128
限	-9.55173
而至	-9.55184
未知	-9.55281
輦	-9.5537
藩	-9.55374
併	-9.55632
陋	-9.55676
問其故	-9.5568
絳	-9.55712
之術	-9.55862
洽	-9.55948
靣	-9.55969
筵	-9.56176
霜	-9.56201
遣使	-9.56217
大喜	-9.56221
寺僧	-9.5633
十八	-9.56334
迨	-9.5656
減	-9.56573
出朝野	-9.56581
旬	-9.56695
泊	-9.56863
豫	-9.56895
不與	-9.56925
遂以	-9.56956
無復	-9.56963
出門	-9.57052
罰	-9.57174
婆	-9.57179
翻	-9.5718
司徒	-9.57191
縛	-9.57201
乆之	-9.57349
中國	-9.57364
邁	-9.57461
或有	-9.57473
竭	-9.57493
出廣	-9.57576
明皇	-9.5758
官至	-9.57755
犀	-9.57812
従	-9.57893
莫能	-9.58006
裁	-9.58074
想	-9.58076
徧	-9.58101
恵	-9.5812
魯公	-9.58325
閱	-9.58384
峯	-9.58392
叢	-9.58665
契丹	-9.58756
曰若	-9.58806
不勝	-9.5882
古今	-9.58945
妻子	-9.58952
是以	-9.58953
擅	-9.59168
不合	-9.59175
姿	-9.59207
蓮	-9.5922
挾	-9.59256
因以	-9.59276
數月	-9.59326
嫌	-9.59332
農	-9.59414
恃	-9.59486
汗	-9.59505
薪	-9.5959
辦	-9.59616
靡	-9.59624
逮	-9.59636
本朝	-9.59767
▁(	-9.59901
神宗	-9.59913
毫	-9.59922
之日	-9.60019
場	-9.60025
又問	-9.6007
頴	-9.60249
遁	-9.60377
枚	-9.60404
緩	-9.6051
布衣	-9.60518
快	-9.60522
軸	-9.60523
麟	-9.6054
鵲	-9.60559
而無	-9.60571
段	-9.6058
荀	-9.60599
舅	-9.60617
笏	-9.60633
取其	-9.60666
呼為	-9.60825
壺	-9.60854
寘	-9.60854
者以	-9.60884
東西	-9.6089
言其	-9.61076
嬰	-9.61179
捉	-9.61206
其意	-9.61281
槐	-9.61287
荅曰	-9.61298
浴	-9.61473
蓬	-9.61504
而退	-9.61556
鄉里	-9.61565
皇后	-9.61592
弊	-9.61602
二百	-9.61621
不相	-9.61649
袖	-9.61721
督	-9.61751
埋	-9.61752
匹	-9.61773
展	-9.61785
廻	-9.61791
金陵	-9.61797
𦵏	-9.6181
不樂	-9.61811
促	-9.61851
裝	-9.61859
之名	-9.61927
月餘	-9.61937
慰	-9.62084
閲	-9.62118
迷	-9.62145
峰	-9.6215
晨	-9.62212
乃以	-9.62261
罕	-9.62387
㧞	-9.62441
服之	-9.62503
上下	-9.62709
盆	-9.62781
崖	-9.6279
媚	-9.62794
作詩	-9.63018
袍	-9.63038
衍	-9.63058
料	-9.63077
豹	-9.63102
江西	-9.63117
朝士	-9.6313
可乎	-9.6315
不至	-9.63174
使君	-9.63247
足下	-9.63346
矢	-9.63363
爐	-9.63366
崑崙	-9.63434
之則	-9.63506
殺人	-9.6356
以手	-9.63676
嗜	-9.63683
韶	-9.63713
趣	-9.63724
菜	-9.63736
潭	-9.63898
酷	-9.63985
奮	-9.64063
練	-9.64071
褒	-9.64079
郎君	-9.64219
而下	-9.64388
屍	-9.64429
文學	-9.64538
舍人	-9.64622
十四	-9.64672
卓	-9.64714
旱	-9.64897
泛	-9.64981
墳	-9.64982
未及	-9.64992
寂	-9.65015
挺	-9.65039
浦	-9.65049
黎	-9.65051
穢	-9.65077
冊	-9.6508
其一	-9.65374
圃	-9.65388
二十年	-9.65549
少時	-9.65561
乏	-9.65572
一年	-9.656
七日	-9.65667
陣	-9.6573
豈非	-9.65757
衙	-9.65771
八年	-9.65845
不用	-9.65872
㳺	-9.65981
諸子	-9.66004
換	-9.66027
何不	-9.66056
八十	-9.66067
黄金	-9.66069
不忍	-9.66078
大驚	-9.66102
何也	-9.66175
秉	-9.66282
詐	-9.66361
懇	-9.66366
淫	-9.66393
無他	-9.66559
忽聞	-9.6656
旅	-9.66611
二公	-9.66647
遣人	-9.66676
圗	-9.66717
再三	-9.6682
抗	-9.67002
醒	-9.67027
況	-9.67041
祖宗	-9.67207
貴人	-9.67269
丈夫	-9.67354
漫	-9.67366
不以	-9.675
第三	-9.67549
宫中	-9.67555
賔客	-9.67589
慧	-9.67665
斛	-9.67678
頸	-9.67688
自稱	-9.67876
仗	-9.6791
死者	-9.67957
冥	-9.67999
創	-9.68024
瑩	-9.68051
播	-9.68058
五六	-9.6806
有一人	-9.68244
胥	-9.68305
登第	-9.68366
詰	-9.68377
人物	-9.68386
卦	-9.68408
單	-9.68428
之外	-9.68488
團	-9.68658
一曰	-9.68715
床	-9.68725
鄉人	-9.68814
介甫	-9.68947
柄	-9.69031
祚	-9.69057
足以	-9.69079
八月	-9.6918
以告	-9.69236
舘	-9.69242
駐	-9.69265
潮	-9.69354
廉	-9.69377
劾	-9.69386
旗	-9.69387
臯	-9.69399
安得	-9.6954
求之	-9.69665
眠	-9.69715
五百	-9.6975
壞	-9.69756
有異	-9.69819
五月	-9.69867
小人	-9.69987
十日	-9.70042
䖍	-9.7006
璧	-9.70061
邢	-9.70081
百里	-9.70111
二月	-9.70115
人多	-9.70125
為相	-9.70162
肯	-9.70182
挈	-9.70199
第二	-9.70292
豈不	-9.70353
齎	-9.70401
有此	-9.70422
炙	-9.70446
寸	-9.70513
几	-9.70567
翔	-9.7065
廣陵	-9.70655
因問	-9.70675
健	-9.70697
盃	-9.70877
東海	-9.70933
喫	-9.71118
跪	-9.71135
六十	-9.71246
豆	-9.71332
腦	-9.71334
羣臣	-9.71389
俯	-9.71389
摩	-9.71412
眷	-9.71451
京兆	-9.71595
秘	-9.71637
有餘	-9.71714
之徒	-9.71779
其地	-9.71791
強	-9.71796
大小	-9.71807
忿	-9.71831
字子	-9.71904
旨	-9.72138
遐	-9.72158
綵	-9.72159
江陵	-9.72184
函	-9.72372
不出	-9.72401
裹	-9.72571
人家	-9.72598
之狀	-9.72654
諸人	-9.72677
至是	-9.72693
拘	-9.72765
他人	-9.72782
是日	-9.72829
奕	-9.72836
搆	-9.72851
𨽻	-9.72869
豫章	-9.72874
嗚呼	-9.72893
算	-9.72945
十六	-9.73049
鱗	-9.73159
厨	-9.73182
綿	-9.73227
隙	-9.73234
恥	-9.73247
不應	-9.7325
雕	-9.73251
人有	-9.73337
良乆	-9.73347
嶽	-9.73375
逾	-9.73459
栢	-9.73552
淡	-9.73566
吿	-9.73572
斧	-9.73601
毋	-9.73617
訣	-9.73626
當有	-9.73677
不免	-9.73889
欵	-9.73896
夾	-9.73913
傑	-9.73931
緣	-9.73935
朴	-9.73947
挽	-9.74257
属	-9.7431
然則	-9.74317
那	-9.74425
六月	-9.74486
淳	-9.74529
丸	-9.74543
子也	-9.74545
伸	-9.74627
而來	-9.74645
懿	-9.74797
浩	-9.748
飲之	-9.74801
府君	-9.7482
南海	-9.7499
響	-9.7501
𤓰	-9.75013
膝	-9.75023
憑	-9.75034
遼	-9.75118
苗	-9.75311
桐	-9.75347
後有	-9.75373
其年	-9.75401
東都	-9.75411
沙門	-9.75499
節度	-9.75539
呈	-9.75635
豈可	-9.75641
巷	-9.75647
釣	-9.75693
掘	-9.75717
四海	-9.75726
猛	-9.75738
四月	-9.75747
叩	-9.75764
元祐	-9.75831
號為	-9.75834
饒	-9.75901
片	-9.75919
不受	-9.75954
弔	-9.76064
旌	-9.76076
踐	-9.76081
聘	-9.76096
慙	-9.76196
視其	-9.76234
不知其	-9.76354
濤	-9.76379
孟子	-9.76381
朋	-9.76406
焦	-9.76437
所言	-9.76458
斜	-9.76458
乃知	-9.76472
謗	-9.76495
寤	-9.76537
何故	-9.76624
坡	-9.76698
元和	-9.76754
狀元	-9.76802
壓	-9.76841
曰臣	-9.76841
𧰼	-9.76855
諸侯	-9.7687
不死	-9.76984
押	-9.77031
沮	-9.77184
乙	-9.77189
捷	-9.77212
騐	-9.77237
號曰	-9.77366
頃之	-9.77419
和尚	-9.77467
酌	-9.77514
膺	-9.77538
歛	-9.77556
曰爾	-9.77578
不信	-9.77589
賴	-9.77691
間有	-9.77766
果有	-9.77877
甕	-9.77938
浸	-9.77942
戚	-9.77945
宵	-9.77952
廵	-9.7796
而入	-9.78088
郡守	-9.78184
山水	-9.78221
餌	-9.78238
皆以	-9.78251
貽	-9.78308
恣	-9.78325
戯	-9.78329
醜	-9.78357
蓄	-9.7836
欲以	-9.78393
荅	-9.78479
不得已	-9.78512
之中	-9.78551
亞	-9.78681
蔵	-9.78699
淑	-9.78714
珪	-9.78794
水出焉	-9.78809
賦詩	-9.78835
或曰	-9.78852
疑其	-9.78934
之語	-9.79035
究	-9.79052
啼	-9.79071
戍	-9.79074
中外	-9.79111
終日	-9.79134
百官	-9.79193
同年	-9.79204
南北	-9.79323
暢	-9.79416
鷹	-9.79423
措	-9.79431
皓	-9.79438
刼	-9.79441
包	-9.79449
宣宗	-9.79516
城中	-9.79742
塟	-9.79788
禁中	-9.7996
拾	-9.79986
與人	-9.80017
一百	-9.80044
公卿	-9.80087
霄	-9.80156
斂	-9.80216
儲	-9.8022
冲	-9.80252
州人	-9.80255
曰昔	-9.80375
吞	-9.80463
然而	-9.80513
腸	-9.80553
冩	-9.80554
截	-9.80563
喧	-9.80578
宫人	-9.80594
上書	-9.80599
寇	-9.80611
不幸	-9.80681
長沙	-9.80815
何所	-9.80848
屯	-9.80947
繡	-9.80965
冡	-9.80997
忤	-9.81006
遥	-9.81129
澗	-9.81138
有三	-9.81145
者必	-9.81168
山下	-9.81283
三四	-9.8131
鄴	-9.81345
枉	-9.81347
牢	-9.81356
羞	-9.81366
恠	-9.81367
一卷	-9.81429
姊	-9.81442
後世	-9.8148
完	-9.81601
魅	-9.81625
六七	-9.81691
何人	-9.81698
坦	-9.8173
皷	-9.81779
緒	-9.81969
年少	-9.81998
烹	-9.82099
彊	-9.82101
呵	-9.82129
仇	-9.82148
逐之	-9.82153
輸	-9.82157
鈎	-9.82199
穀	-9.822
草木	-9.82225
欣然	-9.82294
汾	-9.82398
傳曰	-9.82458
揆	-9.82495
専	-9.82512
菩薩	-9.82526
迫	-9.82546
鎭	-9.82572
山谷	-9.82587
故也	-9.82726
霧	-9.82732
王荆公	-9.82795
於人	-9.82896
驟	-9.82913
鋒	-9.82933
一條	-9.82951
者為	-9.83139
仙人	-9.83153
襄陽	-9.83158
參軍	-9.83228
之義	-9.83281
阻	-9.83304
憐	-9.83346
突	-9.83511
百年	-9.83524
娥	-9.83687
寨	-9.83688
學者	-9.83697
拾遺	-9.83724
諧	-9.83727
矜	-9.83738
人面	-9.8379
叅	-9.83936
曰今	-9.83937
州縣	-9.84024
映	-9.8407
呪	-9.84089
島	-9.84111
凉	-9.84126
墻	-9.84141
曰朕	-9.84306
翰林學士	-9.84385
鷄	-9.84461
替	-9.84499
焚香	-9.84599
耀	-9.8466
汲	-9.84702
識者	-9.8482
咎	-9.84851
樊	-9.8486
在焉	-9.84869
牆	-9.84882
十一	-9.84983
何處	-9.85
塲	-9.85055
之禮	-9.85058
或作	-9.85213
漕	-9.85219
湛	-9.85251
汪	-9.85324
是夕	-9.85357
顔色	-9.8552
真人	-9.85565
之罪	-9.85616
時為	-9.85637
渉	-9.85686
猿	-9.85687
聊	-9.8569
東北	-9.857
邱	-9.85738
衢	-9.85749
待之	-9.85827
夢中	-9.85836
内外	-9.85874
棗	-9.86022
聞其	-9.86023
觴	-9.86065
也其	-9.86075
其門	-9.86094
三千	-9.86245
先人	-9.86261
杭	-9.86316
謂之曰	-9.86317
其實	-9.86363
肩	-9.86431
楷	-9.86462
奚	-9.86486
柴	-9.86488
媪	-9.86492
樵	-9.86497
溢	-9.8653
傲	-9.86533
煮	-9.86533
云是	-9.8659
裕	-9.86631
於地	-9.8666
之句	-9.86757
亷	-9.86826
還家	-9.86893
衝	-9.86907
汚	-9.86932
呌	-9.86973
禮部	-9.87069
登科	-9.87071
扣	-9.87119
俸	-9.8718
掃	-9.87212
怖	-9.87286
緘	-9.87339
有頃	-9.87366
昉	-9.87379
之功	-9.87584
暑	-9.87598
綽	-9.87794
叅軍	-9.87813
金玉	-9.87852
中使	-9.87964
十七	-9.88036
裔	-9.88164
張氏	-9.88363
之故	-9.884
勾	-9.88413
金帛	-9.88427
煎	-9.88502
鬭	-9.88539
自有	-9.88556
太傅	-9.88626
搜	-9.88656
曰是	-9.887
有聲	-9.88821
至一	-9.88895
員外郎	-9.88914
飽	-9.88939
渭	-9.88954
勑	-9.89001
可得	-9.89031
測	-9.89035
男子	-9.89096
河北	-9.89116
南陽	-9.89301
玉堂	-9.89313
寮	-9.89337
鼔	-9.89347
三十年	-9.89358
灌	-9.89367
携	-9.89407
不絶	-9.89408
台	-9.89453
未能	-9.89505
員外	-9.89611
不從	-9.89623
當為	-9.89657
不言	-9.89709
居士	-9.89712
鑑	-9.89725
暇	-9.89733
鋪	-9.89759
絃	-9.89799
牌	-9.89815
瑶	-9.89844
虵	-9.89857
一見	-9.89914
各有	-9.90006
政事	-9.90018
諌	-9.90054
不在	-9.90061
逵	-9.90138
錢塘	-9.90148
若有	-9.9016
二字	-9.90174
膳	-9.90207
其文	-9.90217
一物	-9.90268
蜂	-9.90275
之法	-9.90345
揺	-9.90425
君之	-9.90505
海内	-9.90521
怒曰	-9.90563
熙	-9.90612
粥	-9.9062
綠	-9.90626
罔	-9.90631
劇	-9.90634
賂	-9.90645
晴	-9.90653
梓	-9.90668
文正	-9.90875
副使	-9.91012
不知何	-9.91045
汁	-9.91068
數十人	-9.91149
文武	-9.91171
少頃	-9.91281
梨	-9.91314
文帝	-9.91403
不當	-9.91411
批	-9.91444
随	-9.91474
莖	-9.91478
暉	-9.91493
陟	-9.91533
自後	-9.91652
皆不	-9.91713
檀	-9.91713
太師	-9.91772
償	-9.91888
数	-9.9191
雉	-9.91922
譚	-9.91934
九年	-9.91956
嶺南	-9.92149
群	-9.92222
不動	-9.92302
卵	-9.92303
嘲	-9.92334
厄	-9.92339
狎	-9.92342
脂	-9.92347
乖	-9.92357
艾	-9.92375
不知所	-9.92426
閩	-9.92496
之屬	-9.92602
之文	-9.92714
態	-9.92746
臥	-9.92751
無異	-9.92775
舉進士	-9.92817
四人	-9.92878
之内	-9.92884
空中	-9.93058
硯	-9.93121
大者	-9.93122
復有	-9.93141
後人	-9.93207
江淮	-9.93277
嘗為	-9.93294
如其言	-9.93427
杭州	-9.93573
言語	-9.93611
圭	-9.93628
康節	-9.93689
叩頭	-9.93712
呼之	-9.93807
後為	-9.93904
一家	-9.9392
如初	-9.94008
太常	-9.94021
綺	-9.94024
飄	-9.9403
煥	-9.94062
坑	-9.94087
療	-9.9409
觧	-9.94095
距	-9.94104
爪	-9.94109
滯	-9.94118
係	-9.94125
豕	-9.94127
者多	-9.94172
公之	-9.94207
金銀	-9.94274
而止	-9.94375
五日	-9.9449
譜	-9.94514
蘓	-9.94515
于是	-9.94517
慢	-9.94525
之物	-9.94575
嘗與	-9.94697
行至	-9.94764
又以	-9.94769
訪之	-9.94798
欽定四庫全書太平廣記卷	-9.94898
低	-9.94909
昧	-9.94976
得罪	-9.95093
▁任臣案	-9.9512
猶在	-9.95161
何得	-9.95182
之國	-9.95248
障	-9.95328
踈	-9.95343
敎	-9.95401
嘗有	-9.95515
惡之	-9.95549
累遷	-9.95587
同列	-9.95592
斫	-9.95611
者有	-9.95635
不聞	-9.95656
䧟	-9.95778
輝	-9.95791
瓶	-9.95829
宦	-9.95835
濕	-9.95849
偷	-9.95867
蒸	-9.95876
終身	-9.95924
鴈	-9.96199
神人	-9.96203
檄	-9.96267
憚	-9.96269
一小	-9.96279
不堪	-9.96285
驕	-9.96294
粧	-9.96297
而坐	-9.96442
鏁	-9.96682
収	-9.96726
贍	-9.9674
侈	-9.96749
箱	-9.96769
家有	-9.96806
肅宗	-9.96856
閤	-9.96896
子曰	-9.96979
所作	-9.96996
繇	-9.97028
倦	-9.97102
剪	-9.97124
售	-9.97127
伍	-9.97163
豈有	-9.97165
匡	-9.97171
羙	-9.97212
可也	-9.97243
滑	-9.97256
南方	-9.97292
無恙	-9.97333
殯	-9.97335
文忠	-9.97428
仕至	-9.97439
斃	-9.97479
者乃	-9.97519
塘	-9.97547
狼	-9.97574
駢	-9.97579
贖	-9.97636
簷	-9.97637
彬	-9.97647
宰臣	-9.97678
白衣	-9.97678
從此	-9.97775
故人	-9.97799
非常	-9.97936
望之	-9.97988
待制	-9.98009
愍	-9.98063
中書令	-9.98094
寔	-9.98096
縣尉	-9.98152
諸生	-9.98184
詰之	-9.98217
紫衣	-9.98345
其書	-9.98422
阜	-9.98492
褐	-9.98517
鐡	-9.98528
疊	-9.98539
括	-9.98554
竿	-9.98564
擊之	-9.98577
勵	-9.98587
太學	-9.98646
大將軍	-9.98653
若此	-9.98769
裘	-9.98927
鈞	-9.98971
刋	-9.99009
綴	-9.99031
什	-9.99032
護	-9.99038
筮	-9.99067
謝曰	-9.99112
軍中	-9.99239
其徒	-9.99395
隂陽	-9.99446
恱	-9.99468
沃	-9.99469
膽	-9.99487
它	-9.99569
都督	-9.99624
開元中	-9.99632
訝	-9.99653
祕	-9.99718
亦可	-9.9975
所殺	-9.99813
霽	-9.99819
織	-9.99898
帽	-9.99911
其餘	-9.99921
泄	-9.9993
恪	-9.99965
曙	-9.99967
山東	-10.0009
從者	-10.0011
逆旅	-10.0012
晝夜	-10.002
廣州	-10.0023
即以	-10.0026
三尺	-10.0026
給事中	-10.0027
男女	-10.0028
涕	-10.0028
的	-10.0032
潰	-10.0034
氏之	-10.0035
伴	-10.0035
㫁	-10.0035
飢	-10.0037
叚	-10.0039
𨕖	-10.0041
言者	-10.0066
衆皆	-10.007
門生	-10.0072
國朝	-10.0073
見一人	-10.0075
孺	-10.008
䜟	-10.0083
臭	-10.0084
牡丹	-10.0084
鬱	-10.0084
漁	-10.0084
誘	-10.0088
較	-10.0088
十餘人	-10.0089
璋	-10.0091
曰可	-10.0093
黄帝	-10.0096
宛	-10.0099
知制誥	-10.0099
流涕	-10.0101
諾	-10.0105
域	-10.0113
之遂	-10.0115
書云	-10.0115
閭	-10.0127
焚之	-10.0133
闢	-10.014
霍	-10.0153
之命	-10.0162
此書	-10.0169
相傳	-10.0177
姻	-10.018
誡	-10.0181
凢	-10.0182
効	-10.0184
前定	-10.019
乃止	-10.0194
數里	-10.0198
二女	-10.0201
所為	-10.0204
姥	-10.0218
盟	-10.0226
送之	-10.0229
奠	-10.0232
西京	-10.0234
隴	-10.0237
不平	-10.0242
博學	-10.0249
之志	-10.025
跨	-10.0272
慚	-10.0274
肇	-10.028
易之	-10.0288
不解	-10.0289
以詩	-10.0309
夫婦	-10.0316
謚	-10.0321
跳	-10.0321
勘	-10.0322
昻	-10.0325
托	-10.0326
與語	-10.033
名士	-10.033
山有	-10.0333
也遂	-10.0351
十里	-10.0355
𥙷	-10.0357
啖	-10.0368
株	-10.037
涯	-10.0371
酣	-10.0375
謔	-10.0375
笞	-10.0378
車馬	-10.038
觀者	-10.0382
視之乃	-10.0383
歐陽	-10.0387
謂其	-10.0387
帝曰	-10.0391
未至	-10.0399
不復見	-10.0406
績	-10.0414
渚	-10.0418
道者	-10.042
峽	-10.0422
出北夢	-10.0423
㝷	-10.0423
國之	-10.0428
箇	-10.0433
帝王	-10.0448
熈	-10.0452
其名曰	-10.0452
者曰	-10.0464
千餘	-10.0466
華山	-10.0469
版	-10.0469
髯	-10.047
混	-10.047
增	-10.0471
村人	-10.0472
互	-10.0481
永嘉	-10.0484
起居	-10.0489
其首	-10.0501
以下	-10.0507
所載	-10.051
注云	-10.0512
檻	-10.0516
洋	-10.0517
衮	-10.0522
寐	-10.053
何物	-10.0531
侍御史	-10.0538
洞庭	-10.0543
栗	-10.0566
填	-10.0567
曇	-10.0567
山川	-10.0567
帷	-10.0569
老子	-10.057
以歸	-10.0591
也後	-10.0595
友人	-10.0602
云云	-10.0608
蛟	-10.061
戈	-10.0613
漿	-10.0613
彰	-10.0614
溝	-10.0614
侮	-10.0615
髻	-10.0617
猴	-10.0619
世人	-10.062
縷	-10.062
其身	-10.0625
曰子	-10.0633
徳宗	-10.0637
知名	-10.0637
不顧	-10.0637
立於	-10.0639
之孫	-10.0653
陜	-10.0653
無有	-10.0655
仆	-10.0657
一字	-10.0661
艱	-10.0661
監察御史	-10.0662
示之	-10.0663
剖	-10.0664
滋	-10.0665
霸	-10.0666
龎	-10.0666
亨	-10.0666
億	-10.0666
冒	-10.0667
棠	-10.0667
裙	-10.0667
瓌	-10.0668
滕	-10.0671
十九	-10.0707
無事	-10.0709
羮	-10.0715
詆	-10.0716
敷	-10.0717
児	-10.072
世之	-10.0729
瘞	-10.0735
涼	-10.0738
遂為	-10.0744
今之	-10.0747
拱	-10.0753
淹	-10.0754
室志	-10.0757
未㡬	-10.0758
南京	-10.0763
屑	-10.0764
不容	-10.0765
纎	-10.0766
有神	-10.0767
僻	-10.0767
繪	-10.0767
糞	-10.0769
針	-10.0769
哲	-10.0775
曰何	-10.0795
乃是	-10.0804
俠	-10.0807
岡	-10.0808
塜	-10.0811
札	-10.0813
噐	-10.0814
潁	-10.0815
斑	-10.0815
㸔	-10.0817
璽	-10.0821
呂	-10.0823
通判	-10.0832
若是	-10.0837
人言	-10.0845
所知	-10.0847
何事	-10.0858
庵	-10.086
䟽	-10.0861
筠	-10.0863
蜜	-10.0865
詭	-10.0867
老父	-10.0902
邈	-10.0906
誥	-10.0907
濁	-10.0915
受命	-10.0922
禦	-10.0923
誨	-10.0923
無一	-10.0931
舉人	-10.0932
十一月	-10.0933
亦以	-10.0933
嶠	-10.094
笑而	-10.0954
死於	-10.0957
里人	-10.0966
矯	-10.0966
釘	-10.0967
濫	-10.0968
十餘年	-10.0975
韋氏	-10.1005
丈餘	-10.1006
幅	-10.1009
十數	-10.1011
家貧	-10.1013
常以	-10.1013
門人	-10.1014
由此	-10.1017
俄頃	-10.1023
記云	-10.1026
無何	-10.1033
於庭	-10.1039
少卿	-10.104
文公	-10.1041
當以	-10.1049
侍從	-10.1056
一二	-10.1065
若不	-10.1067
鄒	-10.1068
棊	-10.1072
炭	-10.1072
官人	-10.1074
層	-10.1075
中書舍人	-10.108
之説	-10.1092
形如	-10.1096
不獲	-10.1103
宣和	-10.1104
夜夢	-10.1111
有小	-10.1114
添	-10.1116
訛	-10.1119
社稷	-10.112
紗	-10.112
癡	-10.1121
皂	-10.1122
粗	-10.1125
娘子	-10.1125
冶	-10.1128
出宣	-10.1129
奏曰	-10.1131
南山	-10.1137
飛去	-10.114
甚厚	-10.1141
建康	-10.1141
生於	-10.1146
與君	-10.1161
術士	-10.117
鉉	-10.1171
冰	-10.1176
相繼	-10.1181
倡	-10.1184
少有	-10.1187
何必	-10.1192
而終	-10.1193
掖	-10.1206
脉	-10.1215
猫	-10.1221
餉	-10.1222
雌	-10.1226
羡	-10.1227
撥	-10.1227
博士	-10.1227
也然	-10.1241
文書	-10.1245
自謂	-10.125
十月	-10.1261
其聲	-10.1268
黍	-10.127
郷	-10.1271
踏	-10.1276
久矣	-10.1277
電	-10.1278
鳩	-10.128
斬之	-10.1298
置於	-10.1307
聞而	-10.1308
張公	-10.1311
不宜	-10.1313
元豐	-10.1321
悼	-10.1326
俞	-10.1328
两	-10.1328
滴	-10.1329
拳	-10.1329
受之	-10.1333
摘	-10.1334
閻	-10.1336
語云	-10.1336
有何	-10.1343
皇甫	-10.1344
元昊	-10.1345
不行	-10.135
者不	-10.1358
評	-10.1362
募	-10.1382
貸	-10.1384
胎	-10.1386
緯	-10.1386
佞	-10.1387
諡	-10.139
不可得	-10.1393
云我	-10.1393
悅	-10.1395
具以	-10.1395
瑣言	-10.1402
欣	-10.1418
中人	-10.142
里中	-10.1436
晁	-10.1437
長生	-10.1439
棘	-10.1441
江東	-10.1443
竦	-10.1444
猶未	-10.1445
得此	-10.1447
室中	-10.1455
乃命	-10.1458
下馬	-10.1458
海中	-10.146
百萬	-10.146
謨	-10.1475
之美	-10.1476
非人	-10.1489
伎	-10.1492
十二月	-10.1492
暖	-10.1492
倅	-10.1494
肝	-10.1498
山人	-10.1499
告之	-10.15
官吏	-10.1501
敘	-10.1502
為我	-10.1503
即日	-10.1504
衆人	-10.1505
諸葛	-10.1506
大中	-10.1508
禪師	-10.151
至則	-10.151
奏事	-10.1515
朽	-10.152
十餘里	-10.1535
甄	-10.1538
雜爼	-10.1541
不疑	-10.1542
蟻	-10.1545
研	-10.1546
咽	-10.1547
區	-10.1548
贓	-10.1548
一月	-10.1548
之盛	-10.155
不須	-10.155
未詳	-10.1556
徃徃	-10.156
西域	-10.1561
丹陽	-10.1562
慘	-10.1568
邕	-10.1572
思之	-10.1575
教授	-10.1594
濬	-10.1595
蘆	-10.1598
于此	-10.1599
鎖	-10.16
㦸	-10.1601
姨	-10.1602
莫敢	-10.1602
尺餘	-10.1603
拯	-10.1607
不必	-10.1608
厠	-10.1633
有才	-10.1634
愛之	-10.164
夫子	-10.1643
王子	-10.1645
頗有	-10.1647
鞍	-10.1647
翺	-10.1648
皎	-10.165
異人	-10.1651
濶	-10.1653
召之	-10.1654
歷	-10.1658
槩	-10.1658
梵	-10.1658
摧	-10.1658
戱	-10.166
一篇	-10.1662
胸	-10.1662
蜀人	-10.1678
法師	-10.1686
儼	-10.1694
以自	-10.1696
其罪	-10.1699
即命	-10.1701
林甫	-10.1704
冝	-10.1707
君臣	-10.1714
吳郡	-10.1714
荘	-10.1714
你	-10.1714
僧曰	-10.1727
國公	-10.1728
十二年	-10.174
笛	-10.1745
握	-10.1746
粲	-10.1749
䕫	-10.175
人謂	-10.1751
膠	-10.1757
様	-10.1766
窟	-10.1766
九月	-10.1768
中興	-10.1769
溥	-10.177
古之	-10.1776
太和	-10.1782
㕔事	-10.1783
用事	-10.1784
已下	-10.1787
常有	-10.1787
好學	-10.1794
南渡	-10.1797
授之	-10.1798
雖不	-10.1802
逺近	-10.1804
力士	-10.1806
攸	-10.1812
攀	-10.1817
菴	-10.1818
犢	-10.1819
掛	-10.182
饋	-10.182
勃	-10.1823
璞	-10.1823
兔	-10.1824
五千	-10.183
人少	-10.1833
臨安	-10.1856
日暮	-10.1862
死矣	-10.1864
二十四	-10.1866
訊	-10.1867
後果	-10.1874
七月	-10.1875
械	-10.1875
壘	-10.1876
課	-10.1878
恤	-10.188
二日	-10.1885
之氣	-10.1907
之才	-10.1911
貲	-10.1914
其女	-10.1915
答云	-10.1918
所記	-10.1921
一千	-10.1922
人心	-10.1924
其弟	-10.1926
疆	-10.1929
入京	-10.1929
盞	-10.1931
鵠	-10.1931
寝	-10.1932
縮	-10.1935
人以	-10.1938
縑	-10.1939
吉甫	-10.1943
其狀如	-10.1945
奉使	-10.1948
浙西	-10.1948
泰山	-10.1949
天后	-10.195
賓客	-10.1961
有功	-10.1964
嘯	-10.1976
鼈	-10.1977
駿	-10.1978
壑	-10.1984
貞元	-10.1984
狹	-10.1985
千年	-10.1986
燃	-10.1988
藁	-10.1991
聨	-10.1992
不成	-10.1993
水出	-10.1994
凖	-10.1998
此物	-10.2004
手足	-10.2009
風俗	-10.2011
謂人曰	-10.2021
不起	-10.2027
協	-10.2032
未得	-10.2039
幘	-10.2041
一大	-10.2043
勁	-10.2047
匣	-10.2047
顛	-10.2048
琵琶	-10.2048
吁	-10.2049
黄衣	-10.2051
以是	-10.2056
得免	-10.2061
尚有	-10.2069
數萬	-10.2072
御史中丞	-10.2075
入山	-10.2077
謝之	-10.2082
復來	-10.2087
萬物	-10.2088
皆如	-10.2089
安國	-10.2098
後數日	-10.21
級	-10.2101
儻	-10.2102
暨	-10.2102
觀其	-10.2103
虐	-10.2105
杏	-10.2105
頼	-10.2106
耗	-10.2106
棟	-10.2107
傭	-10.2107
置之	-10.2111
忽然	-10.2111
也乃	-10.2113
白馬	-10.2116
留守	-10.2127
咨	-10.2128
之禍	-10.213
但見	-10.2138
紛	-10.214
十五年	-10.2147
朱衣	-10.2155
一切	-10.2155
臘	-10.2156
擔	-10.2157
柩	-10.2157
明經	-10.2157
子瞻	-10.2158
淨	-10.2159
乂	-10.216
入朝	-10.2163
沖	-10.2165
怪之	-10.217
王母	-10.2175
胡人	-10.218
嘆曰	-10.2187
代之	-10.2189
驚異	-10.2194
舉子	-10.2199
甲子	-10.2202
皆為	-10.2204
甥	-10.2213
祗	-10.2216
歇	-10.2218
竈	-10.2221
沿	-10.2222
踵	-10.2222
虹	-10.2222
箕	-10.2224
不暇	-10.2231
雖有	-10.2233
風流	-10.2243
千萬	-10.2251
彭城	-10.2252
北方	-10.2257
也故	-10.2259
以上	-10.2265
東方	-10.2267
一言	-10.2269
置酒	-10.2274
耿	-10.2275
禾	-10.2277
藤	-10.2277
蟬	-10.2277
怠	-10.228
註	-10.228
上帝	-10.2282
是非	-10.2283
聞者	-10.2294
殊不	-10.2295
崔氏	-10.23
給事	-10.2303
國人	-10.2304
老僧	-10.2309
廊	-10.2312
貞觀	-10.232
為業	-10.2324
不止	-10.2325
酉	-10.2326
車駕	-10.2326
大王	-10.2326
卞	-10.2332
貝	-10.2332
京城	-10.2332
自云	-10.2333
搏	-10.2333
軟	-10.2334
撲	-10.2335
治之	-10.2338
疫	-10.2338
轡	-10.2338
有物	-10.2338
演	-10.2339
議者	-10.2339
稷	-10.2339
政和	-10.2341
見而	-10.2346
其中多	-10.2354
黙然	-10.2357
乃曰	-10.238
緡	-10.2384
記之	-10.2386
佑	-10.2391
南史曰	-10.2391
軀	-10.2394
翅	-10.2394
譴	-10.2395
庭中	-10.2396
誇	-10.2397
架	-10.2398
黄門	-10.2398
不可以	-10.2405
中郎	-10.2409
當世	-10.2418
主司	-10.2419
廬山	-10.242
周公	-10.2427
逝	-10.243
金人	-10.2432
入門	-10.2435
今在	-10.2438
以金	-10.2439
識之	-10.244
確	-10.245
灑	-10.2451
蹇	-10.2451
闊	-10.2452
股	-10.2453
罹	-10.2453
璟	-10.2454
前有	-10.2454
鍊	-10.2455
宸	-10.2455
恬	-10.2456
矣然	-10.2462
為宰相	-10.2466
爾雅	-10.2468
丈人	-10.2471
是何	-10.2478
十萬	-10.2478
禧	-10.2501
楊氏	-10.2506
稚	-10.2508
留之	-10.251
戀	-10.2511
幣	-10.2512
奢	-10.2514
之初	-10.2516
漂	-10.2516
今年	-10.2517
竅	-10.2519
平章事	-10.2537
言事	-10.2543
疋	-10.2544
諸將	-10.2554
物也	-10.2565
做	-10.257
欄	-10.2573
不問	-10.2573
鞫	-10.2573
碩	-10.2574
殿前	-10.2574
擕	-10.2575
抄	-10.2576
逕	-10.2576
認	-10.2576
鵝	-10.2578
二十五	-10.2578
其狀	-10.2605
歐陽公	-10.2609
所著	-10.2611
俄有	-10.2616
至元	-10.2622
藴	-10.2624
流血	-10.2626
明清	-10.2626
北海	-10.2627
又東	-10.2628
畔	-10.2629
為文	-10.2633
凍	-10.2634
猷	-10.2634
銓	-10.2635
鸚鵡	-10.2637
知人	-10.2638
宋李昉等編	-10.2639
閒話	-10.264
湧	-10.264
陜西	-10.2649
能言	-10.2663
或謂	-10.2664
十人	-10.267
輟	-10.2677
安道	-10.2679
昆	-10.268
寅	-10.269
汙	-10.269
夙	-10.2691
得非	-10.2692
蟠	-10.2693
酸	-10.2694
國史	-10.2695
夭	-10.2696
䝉	-10.2696
庠	-10.2698
蔓	-10.2699
顒	-10.2699
廬陵	-10.2701
十四年	-10.2701
主者	-10.2705
紳	-10.2731
後主	-10.2733
乃令	-10.2735
指揮	-10.2737
浙	-10.2742
冕	-10.2751
功徳	-10.2751
涕泣	-10.2752
嘗以	-10.2755
朝夕	-10.2757
沸	-10.276
稱之	-10.2763
藪	-10.2763
明旦	-10.2778
也因	-10.2786
者即	-10.2788
内有	-10.2793
三品	-10.2797
卒於	-10.2806
遂絶	-10.2811
飬	-10.2815
以進	-10.2816
䑓	-10.2816
問之曰	-10.2817
輅	-10.2818
沐	-10.2818
炳	-10.282
禀	-10.282
胄	-10.2823
避之	-10.2832
於前	-10.2836
西川	-10.2837
常侍	-10.2837
曰陛下	-10.2838
至正	-10.2847
而起	-10.2855
故曰	-10.2856
道路	-10.2857
十三年	-10.2858
闔	-10.2861
大人	-10.2862
中夜	-10.2868
分明	-10.2868
作相	-10.2871
磬	-10.2875
灼	-10.2876
腐	-10.2876
曳	-10.2876
沆	-10.2876
陂	-10.2877
抽	-10.2878
闈	-10.288
鐸	-10.288
是嵗	-10.288
陪	-10.2881
不利	-10.2881
忝	-10.2883
中原	-10.2885
上元	-10.2893
以待	-10.2895
不測	-10.29
令史	-10.2905
上言	-10.2908
小字	-10.2909
祿	-10.291
民間	-10.2911
于時	-10.2912
方知	-10.2925
粒	-10.2929
一女	-10.2929
舁	-10.2932
檜	-10.2935
橘	-10.2937
窓	-10.294
芒	-10.2941
琳	-10.2943
炬	-10.2946
禳	-10.2946
若干	-10.2946
譙	-10.2946
本草	-10.2947
堦	-10.2948
太史	-10.2949
梟	-10.295
人所	-10.2952
土人	-10.2962
夏侯	-10.297
為詩	-10.2972
提舉	-10.2972
不盡	-10.2984
酒食	-10.2985
失其	-10.2997
减	-10.3001
恢	-10.3003
隊	-10.3004
貎	-10.3005
夜半	-10.3009
中宗	-10.3016
奔走	-10.3019
不去	-10.3021
氏子	-10.3025
止於	-10.3031
明帝	-10.3036
平江	-10.3047
其兄	-10.3048
忽一日	-10.3049
伶	-10.305
遙	-10.3055
忠宣	-10.3058
坐客	-10.3059
撃	-10.3064
殁	-10.3065
淪	-10.3065
喉	-10.3066
賫	-10.3067
牋	-10.307
郁	-10.307
㨗	-10.307
之處	-10.307
言於	-10.3081
稱其	-10.3083
郡人	-10.3084
而成	-10.309
未見	-10.3092
可愛	-10.3098
賢者	-10.3099
縣有	-10.3111
名也	-10.3112
山海經	-10.3113
一室	-10.3113
劉氏	-10.3118
萬年	-10.3125
鞠	-10.3125
牖	-10.3126
鴨	-10.313
果得	-10.313
則有	-10.313
哥	-10.3134
孕	-10.3135
色如	-10.3138
足矣	-10.3144
洛中	-10.3146
曰今日	-10.3146
變化	-10.3146
不足以	-10.3158
聞於	-10.3164
汝南	-10.3166
以問	-10.3178
投之	-10.3179
赫	-10.3179
吳興	-10.318
唾	-10.3186
諒	-10.3189
壤	-10.3191
遮	-10.3191
三十六	-10.3192
瀆	-10.3192
雋	-10.3193
疲	-10.3193
神明	-10.3194
窻	-10.3194
醮	-10.3194
涇	-10.3195
自號	-10.3212
漢書	-10.3217
九十	-10.3221
同時	-10.3224
未盡	-10.3228
丐	-10.324
三十里	-10.3244
羲	-10.3246
二千	-10.3249
噫	-10.3249
一事	-10.3252
褥	-10.3252
羸	-10.3255
狄	-10.3256
貞元中	-10.3258
彛	-10.3259
艶	-10.326
後來	-10.3264
内侍	-10.3265
爰	-10.3268
未可	-10.3269
具言	-10.3279
居之	-10.3298
不甚	-10.3309
以聞	-10.3314
公事	-10.3315
琰	-10.3318
平原	-10.332
堆	-10.3321
躡	-10.3321
瘦	-10.3321
噬	-10.3321
隐	-10.3322
甌	-10.3322
祁	-10.3322
邇	-10.3323
楮	-10.3323
愼	-10.3323
見於	-10.3327
頃刻	-10.3329
之制	-10.3334
秦王	-10.3334
天寳	-10.3352
右丞	-10.3354
之家	-10.3354
爲之	-10.3355
五代	-10.3355
遂令	-10.3356
何足	-10.3358
可為	-10.337
驚曰	-10.3371
世祖	-10.3373
讀之	-10.3379
奸	-10.3379
筭	-10.338
兎	-10.3381
脊	-10.3382
拜謝	-10.3383
隸	-10.3383
墟	-10.3384
宥	-10.3385
番	-10.3385
奥	-10.3386
誼	-10.3387
椒	-10.3388
所有	-10.3388
綜	-10.3391
挍	-10.3394
之東	-10.3405
不是	-10.342
已死	-10.3421
平日	-10.3429
廡	-10.3433
應舉	-10.3434
皆是	-10.3437
咸通	-10.3437
者則	-10.3439
泌	-10.3443
聽之	-10.3449
筋	-10.3451
噉	-10.3452
鈔	-10.3452
翫	-10.3452
湜	-10.3454
不若	-10.3457
將去	-10.3462
隨之	-10.3471
湖州	-10.3475
光禄	-10.3488
宗室	-10.3496
相遇	-10.3506
衾	-10.3517
無敢	-10.3518
郢	-10.3518
弘	-10.3519
元帥	-10.3519
廼	-10.352
撤	-10.352
憫	-10.3522
西湖	-10.3522
尚未	-10.3524
而立	-10.3526
以至	-10.3539
長子	-10.354
莫知所	-10.3563
其國	-10.3567
其下多	-10.357
樹下	-10.3572
爾後	-10.3576
二十八	-10.3577
紋	-10.3579
城南	-10.358
鬬	-10.3581
湏	-10.3582
蠶	-10.3585
拆	-10.3585
轉運使	-10.3586
江湖	-10.3587
移時	-10.3588
大抵	-10.3588
彪	-10.3588
液	-10.3588
逡巡	-10.359
熾	-10.3594
以獻	-10.3595
甚喜	-10.3596
改元	-10.3609
兩人	-10.3617
車騎	-10.3618
其夕	-10.3628
自古	-10.3632
不聽	-10.3633
數尺	-10.3633
者乎	-10.364
穎	-10.3642
此言	-10.3643
籬	-10.3645
存焉	-10.3646
生子	-10.3647
陞	-10.3647
之亂	-10.3648
稅	-10.3649
鉢	-10.365
奬	-10.3651
其夫	-10.3652
贄	-10.3652
在位	-10.3665
今夕	-10.3669
長者	-10.3673
宰執	-10.3673
與同	-10.3678
諸王	-10.3678
禍福	-10.368
詞云	-10.3681
又西	-10.3684
文王	-10.3694
殿中	-10.3701
王生	-10.3704
襟	-10.371
坤	-10.3712
沾	-10.3712
茗	-10.3713
亦然	-10.3715
析	-10.3715
該	-10.3716
線	-10.3717
人事	-10.3718
穴中	-10.3719
梯	-10.3719
脅	-10.3719
獅子	-10.3723
呼曰	-10.3727
卯	-10.3728
陳留	-10.3741
未必	-10.3742
七八	-10.3743
本末	-10.3744
出談	-10.3745
尚在	-10.3754
得道	-10.3765
後至	-10.3775
小吏	-10.3775
篋	-10.3779
膚	-10.378
遶	-10.3781
不知所在	-10.3781
鮑	-10.3784
鬢	-10.3784
蚤	-10.3784
催	-10.3784
跋	-10.3785
羌	-10.3786
構	-10.3788
云某	-10.3789
蔚	-10.3789
韜	-10.379
或以	-10.3793
其木多	-10.3798
一行	-10.3802
食頃	-10.3819
數百人	-10.3822
其心	-10.3823
聰	-10.3826
試之	-10.3834
睿	-10.3841
坐於	-10.3841
遂與	-10.3845
旻	-10.385
曜	-10.3851
袋	-10.3857
曰非	-10.3858
瑜	-10.3859
鱠	-10.3864
甚衆	-10.3865
即令	-10.3869
山林	-10.3877
之門	-10.3878
國初	-10.3879
而不能	-10.3882
見人	-10.3883
竒之	-10.3887
異日	-10.3887
失之	-10.3895
伺之	-10.39
釋氏	-10.3902
綏	-10.3915
鎬	-10.3917
般	-10.3917
蟹	-10.3919
馴	-10.392
祜	-10.392
聳	-10.392
鏤	-10.3922
撓	-10.3923
婁	-10.3923
昨夜	-10.3926
曰彼	-10.3927
飼	-10.3928
將至	-10.3931
入内	-10.3941
白玉	-10.3942
武陵	-10.3943
召見	-10.3945
四百	-10.3947
丙	-10.395
果然	-10.3953
遂命	-10.3958
河中	-10.3973
失所在	-10.3977
口中	-10.3982
模	-10.3988
敝	-10.3988
搖	-10.3988
窠	-10.3989
疑之	-10.3991
謡	-10.3992
禺	-10.3995
所用	-10.3998
兩府	-10.4004
四時	-10.4007
貴妃	-10.4011
嬰兒	-10.4011
議論	-10.4011
曰天	-10.4017
臨川	-10.4017
入城	-10.4017
此亦	-10.4022
何用	-10.4024
又見	-10.4026
釵	-10.4033
其先	-10.4033
之西	-10.4042
不喜	-10.4043
蹄	-10.4047
千載	-10.4053
琛	-10.4054
非也	-10.4054
不安	-10.4058
䕃	-10.4058
濡	-10.4059
綸	-10.4061
囑	-10.4061
芻	-10.4063
巻	-10.4067
多少	-10.407
將相	-10.4071
西王母	-10.4071
翟	-10.4073
裳	-10.4075
蓮花	-10.4076
慎勿	-10.4083
先君	-10.4087
輕薄	-10.4089
精神	-10.409
劄	-10.41
猶有	-10.4105
舟中	-10.4106
酒酣	-10.4107
或問	-10.411
一枚	-10.4116
藍	-10.4128
浄	-10.4129
亶	-10.413
蠟	-10.413
潁川	-10.413
銷	-10.4132
弱冠	-10.4133
之女	-10.4134
戾	-10.4135
李生	-10.4136
女郎	-10.4136
兵部	-10.4137
别傳曰	-10.4138
親戚	-10.4139
美人	-10.414
觀察使	-10.4144
殿上	-10.4155
高祖	-10.4155
熟視	-10.4155
矣又	-10.4157
先帝	-10.4158
進退	-10.4163
莽	-10.4164
神記	-10.4166
人或	-10.417
覲	-10.4171
所生	-10.4179
池中	-10.4182
不能自	-10.4184
渡江	-10.4191
菊	-10.4193
懽	-10.4195
靖康	-10.4197
夘	-10.4201
讐	-10.4202
躁	-10.4202
授以	-10.4204
塊	-10.4205
不忘	-10.4206
者非	-10.4208
之學	-10.4209
神録	-10.4217
嘗見	-10.4218
復生	-10.4222
蔡京	-10.4224
春風	-10.4227
大雨	-10.4228
沛	-10.4237
獻之	-10.4237
文定	-10.4238
自若	-10.4241
郎官	-10.4243
應之	-10.4243
而生	-10.4247
人父	-10.4252
之兆	-10.4257
鄭公	-10.4261
耆	-10.4261
顧謂	-10.4264
吝	-10.4267
渥	-10.4268
核	-10.4269
朶	-10.4269
轍	-10.4269
覔	-10.427
庇	-10.4271
籙	-10.4272
汎	-10.4275
廓	-10.4276
吏部尚書	-10.4276
桓公	-10.4277
筯	-10.4278
㓂	-10.4279
金吾	-10.4283
江夏	-10.4294
覆之	-10.4295
元和中	-10.4296
侍御	-10.4297
僉	-10.4304
題詩	-10.4304
數十里	-10.4306
十餘日	-10.4308
寺中	-10.4309
奄	-10.4313
於朝	-10.4313
三子	-10.4317
明公	-10.4324
同行	-10.4326
得失	-10.4329
甚盛	-10.433
甚急	-10.4331
之前	-10.4333
瑤	-10.4333
蕪	-10.4335
蹈	-10.4337
販	-10.4338
南康	-10.4339
炊	-10.434
縳	-10.434
闇	-10.4341
稻	-10.4341
訥	-10.4341
敞	-10.4342
枷	-10.4342
縫	-10.4345
鈴	-10.4345
栖	-10.4347
婦女	-10.4347
狩	-10.4348
揭	-10.4349
好事者	-10.4352
唐人	-10.4354
補闕	-10.4362
乗馬	-10.4363
死生	-10.4366
五品	-10.4369
大理	-10.4378
相識	-10.4383
變為	-10.4392
荆南	-10.4392
志曰	-10.4393
五尺	-10.4403
青州	-10.4404
卻	-10.4406
璫	-10.4406
參政	-10.4408
螺	-10.4411
餞	-10.4414
殻	-10.4414
淳熙	-10.4415
窘	-10.4415
婉	-10.4416
渴	-10.4416
滌	-10.4416
恚	-10.4417
徘徊	-10.4417
毆	-10.442
徽宗	-10.442
漳	-10.4421
經史	-10.4425
得疾	-10.4426
位至	-10.4436
執中	-10.4441
平章	-10.4449
已來	-10.4456
初不	-10.4457
龍門	-10.4463
用此	-10.4464
為誰	-10.4464
已有	-10.4472
陽縣	-10.4475
無遺	-10.4478
鬛	-10.448
浚	-10.4481
吾家	-10.4482
孚	-10.4485
拭	-10.4486
臧	-10.4486
粹	-10.4486
匪	-10.4487
幡	-10.4488
天上	-10.4489
曵	-10.4489
亢	-10.449
俶	-10.4492
時方	-10.4492
世間	-10.4496
作一	-10.4496
隻	-10.45
諫官	-10.4505
王曰	-10.4506
驗之	-10.451
有女	-10.4512
其處	-10.4513
晉公	-10.4513
自知	-10.4515
從官	-10.4516
内史	-10.4527
救之	-10.4533
暴卒	-10.4534
之說	-10.4537
父老	-10.4539
惶	-10.4544
四五	-10.4554
岩	-10.4555
之詞	-10.4556
然不	-10.4557
控	-10.4558
自外	-10.4559
伊川	-10.456
欠	-10.456
喙	-10.4562
聶	-10.4562
堯舜	-10.4564
綾	-10.4565
至矣	-10.4566
延之	-10.4567
建安	-10.4569
記曰	-10.4574
狸	-10.4574
五十里	-10.4575
益州	-10.4578
曰大	-10.4582
於時	-10.4585
忽有一	-10.4591
如舊	-10.4593
以備	-10.4594
拒之	-10.4601
下第	-10.4609
問何	-10.4609
録事	-10.4615
選人	-10.4619
有光	-10.4621
有僧	-10.4621
零	-10.4622
光明	-10.4623
侂胄	-10.4624
僊	-10.4625
透	-10.4628
歌曰	-10.463
掲	-10.463
建炎	-10.4632
柏	-10.4633
憩	-10.4634
坎	-10.4634
毬	-10.4635
攘	-10.4635
蹙	-10.4635
向者	-10.4636
頥	-10.4639
吏曰	-10.464
軍士	-10.4644
有獸焉其狀如	-10.4646
國有	-10.4649
書之	-10.4658
前輩	-10.4662
五人	-10.4666
衣食	-10.4667
太上	-10.4671
近臣	-10.4677
天命	-10.4687
歌舞	-10.4689
但以	-10.4692
以書	-10.4701
誅之	-10.4702
徐州	-10.4702
瓜	-10.4703
昶	-10.4704
痕	-10.4705
煖	-10.4705
畝	-10.4707
晉陽	-10.4707
豎	-10.4709
苖	-10.4709
榆	-10.4709
餐	-10.471
牟	-10.4711
相去	-10.4712
令公	-10.4715
閬	-10.4716
是夜	-10.472
出國	-10.4723
堂中	-10.4724
至京師	-10.4726
題云	-10.4728
開封	-10.473
信之	-10.4731
骨肉	-10.4733
長三尺	-10.4739
成式	-10.474
文宗	-10.4742
者或	-10.4744
祭酒	-10.4745
莫知其	-10.4746
二十里	-10.475
施行	-10.4751
上天	-10.4753
家事	-10.4768
泗	-10.4769
西山	-10.477
柯	-10.4773
上疏	-10.4776
葵	-10.4778
小者	-10.478
忠義	-10.478
蹤	-10.4783
瑾	-10.4783
慿	-10.4783
誚	-10.4784
其志	-10.4784
廨	-10.4784
臻	-10.4785
𧖟	-10.4786
人情	-10.4787
大駭	-10.4787
不易	-10.4789
無此	-10.4794
其故	-10.4808
當國	-10.4813
相顧	-10.4819
鵰	-10.4842
先子	-10.4844
劉公	-10.4848
杳	-10.4852
此語	-10.4852
兇	-10.4853
矩	-10.4855
恍惚	-10.4856
駒	-10.4857
白日	-10.4857
憇	-10.4859
必不	-10.4859
次第	-10.4861
太平廣記卷三百	-10.4862
經年	-10.4863
技	-10.4864
也若	-10.4864
愕然	-10.4866
出一	-10.4876
又聞	-10.488
緋	-10.4881
死後	-10.4888
忽見一	-10.489
未敢	-10.4892
二三	-10.4902
北齊	-10.4903
則曰	-10.4903
多矣	-10.4903
郭曰音	-10.4912
見者	-10.4912
入相	-10.4913
耳目	-10.4922
畿	-10.4926
怯	-10.4933
參知政事	-10.4934
新婦	-10.4935
谿	-10.4937
媒	-10.4938
處分	-10.4942
城下	-10.4943
蠱	-10.4943
吏部侍郎	-10.4944
都下	-10.4944
韓魏公	-10.4945
其神	-10.4946
不祥	-10.4952
其説	-10.4953
漢武帝	-10.4955
射之	-10.4964
性命	-10.4968
以求	-10.4975
武昌	-10.4978
不下	-10.4981
陳氏	-10.4985
森	-10.4986
句云	-10.499
望見	-10.4991
仙傳	-10.4994
僞	-10.5
詢其	-10.5002
煇	-10.5004
砂	-10.5004
債	-10.5006
名山	-10.5007
劵	-10.5007
之首	-10.5008
老翁	-10.5008
倪	-10.5008
袂	-10.501
圖贊曰	-10.501
幻	-10.5012
請以	-10.5014
京兆尹	-10.5021
與王	-10.5021
終於	-10.5024
窺之	-10.5026
誦經	-10.503
聰明	-10.5037
不自	-10.5039
去矣	-10.5041
乃取	-10.5045
三公	-10.5052
簡文	-10.5054
相對	-10.5055
自負	-10.5056
擢第	-10.5056
嘉祐	-10.5058
久而	-10.5064
樞宻	-10.5068
私第	-10.5073
税	-10.5076
莫知	-10.5078
遇一	-10.5078
乃自	-10.508
馭	-10.5081
上意	-10.5081
太白	-10.5082
以文	-10.5084
乃去	-10.5085
不通	-10.5087
而上	-10.5087
異常	-10.5087
遏	-10.5087
扈	-10.5087
客曰	-10.5089
地下	-10.509
簪	-10.5091
之妻	-10.5103
太平廣記卷二百	-10.5105
將來	-10.5109
百餘人	-10.5111
曰妾	-10.5116
歎息	-10.5116
累日	-10.5119
千金	-10.5123
以奉	-10.5124
推官	-10.5126
以致	-10.5129
有疾	-10.5132
薦之	-10.5147
紿	-10.5154
而走	-10.5155
道之	-10.5157
扉	-10.5158
以報	-10.516
禇	-10.5161
貳	-10.5162
豚	-10.5162
寓居	-10.5164
遇之	-10.5166
挂	-10.5166
賜之	-10.5168
五行	-10.517
者謂	-10.5171
吉凶	-10.5171
鴟	-10.5173
椀	-10.5174
庖	-10.5175
異志	-10.5176
人語	-10.5181
而還	-10.5184
所能	-10.5186
禄山	-10.5187
之神	-10.5197
又謂	-10.52
土地	-10.5203
奴婢	-10.5203
矣今	-10.5207
以前	-10.5209
正統	-10.521
建中	-10.5211
初為	-10.5213
可見	-10.5215
摭	-10.5216
目為	-10.5227
在中書	-10.5228
十卷	-10.5232
止之	-10.5234
八九	-10.5234
佛寺	-10.5234
三司	-10.5237
羔	-10.5238
弦	-10.5238
拙	-10.5243
軫	-10.5243
郝	-10.5243
籌	-10.5245
覓	-10.5245
賄	-10.5246
鄱陽	-10.5246
薰	-10.5247
未聞	-10.5252
其音如	-10.5259
長丈餘	-10.526
北門	-10.5268
暇日	-10.5274
出家	-10.5275
此山	-10.5289
敬之	-10.5291
怡	-10.5296
必先	-10.5297
應聲	-10.5298
此乃	-10.53
陛	-10.5304
日中	-10.5309
上皇	-10.531
其說	-10.5313
骸	-10.5313
今人	-10.5314
岑	-10.5314
復見	-10.5315
稜	-10.5315
尚存	-10.5315
悶	-10.5316
殞	-10.5317
倘	-10.5319
遞	-10.5321
齧	-10.5322
畋	-10.5322
棄之	-10.5324
而復	-10.5325
軌	-10.5325
之精	-10.5331
野人	-10.5333
養之	-10.5343
李林甫	-10.5351
崇寧	-10.5353
獲免	-10.5359
外有	-10.5361
清河	-10.5362
庚	-10.5363
且曰	-10.5364
之流	-10.5368
獨孤	-10.5369
數四	-10.5375
之子也	-10.5381
左丞	-10.5381
三代	-10.5382
有客	-10.5395
楹	-10.5398
嘗言	-10.5404
彘	-10.5406
其色	-10.5406
因此	-10.5407
妬	-10.5408
第四	-10.541
洪州	-10.541
此則	-10.5414
侍者	-10.5416
嘗聞	-10.5422
而言曰	-10.5424
大風	-10.5426
盧氏	-10.5427
是年	-10.5428
福州	-10.5435
辭去	-10.5447
八百	-10.5449
問其所	-10.5454
在外	-10.5467
有白	-10.5471
熙寧	-10.5472
寕	-10.5473
虬	-10.5475
既去	-10.5476
稀	-10.5476
㢘	-10.5478
僣	-10.5478
惋	-10.5481
嵗餘	-10.5481
師道	-10.5482
曩	-10.5482
別	-10.5484
也吾	-10.5486
西方	-10.5486
及其	-10.5492
天王	-10.5497
又何	-10.5498
百千	-10.5499
姓氏	-10.5506
御史大夫	-10.5507
遂得	-10.5511
必死	-10.5512
人主	-10.5515
如人	-10.5521
餓	-10.5526
其術	-10.5527
明月	-10.5528
用兵	-10.5531
名為	-10.5536
瑣	-10.5537
賦云	-10.5538
井中	-10.554
遣之	-10.5546
嘗謂	-10.5549
涓	-10.5549
未嘗不	-10.5553
此地	-10.5554
濯	-10.5554
與汝	-10.5556
葺	-10.5561
牲	-10.5562
麄	-10.5564
嚮	-10.5567
維揚	-10.5567
种	-10.5567
乘馬	-10.557
使我	-10.5571
腹中	-10.5581
所出	-10.5582
之理	-10.5583
監司	-10.5583
元嘉	-10.5584
有文	-10.5587
出摭	-10.5587
後漢	-10.5591
歐	-10.5606
既入	-10.5608
又嘗	-10.5608
捜	-10.5613
與我	-10.5617
貴賤	-10.5625
綬	-10.5629
舉家	-10.5631
捐	-10.5636
虧	-10.5638
東陽	-10.5638
隘	-10.5641
醇	-10.5641
㡌	-10.5642
鶯	-10.5642
剥	-10.5643
劉昫唐書曰	-10.5644
别墅	-10.5648
三十餘	-10.5648
弁	-10.5649
方悟	-10.5656
蘇州	-10.5656
乳母	-10.5666
憲宗	-10.5667
生人	-10.5667
昭宗	-10.5668
稍稍	-10.5668
其次	-10.5669
漁人	-10.5671
聲如	-10.5673
英宗	-10.5676
遺之	-10.5677
以白	-10.5681
長老	-10.5682
送至	-10.5683
前代	-10.5688
如言	-10.5688
也李	-10.569
張華	-10.5691
仁義	-10.5693
語之曰	-10.5693
奏請	-10.5696
海外	-10.5697
其詩	-10.5698
四面	-10.5701
於外	-10.5705
脯	-10.5707
題曰	-10.5709
出異	-10.5712
山其上多	-10.5714
公公	-10.5715
見此	-10.5719
市人	-10.5719
嫉	-10.5723
日夜	-10.5724
唐書	-10.5724
鑰	-10.5725
乍	-10.5725
詵	-10.5726
槖	-10.5727
禮部侍郎	-10.5728
玠	-10.5728
多有	-10.573
鳬	-10.5732
博物志	-10.5733
韓公	-10.5741
天竺	-10.5743
孝子	-10.5747
家僮	-10.5748
數丈	-10.575
所致	-10.5754
甚嚴	-10.5755
喜曰	-10.5756
服其	-10.5758
玉女	-10.576
嵩山	-10.576
輕重	-10.5761
年二十	-10.5766
官職	-10.5768
大呼	-10.5773
復何	-10.5777
於世	-10.5779
天帝	-10.5782
海上	-10.5783
如前	-10.5784
翊	-10.5785
歸家	-10.5788
魄	-10.5798
以謂	-10.5801
翳	-10.5801
不意	-10.5804
憾	-10.5805
濃	-10.5805
禎	-10.5806
笙	-10.5806
這	-10.5806
頒	-10.5808
璠	-10.5808
今已	-10.581
生者	-10.5811
其形	-10.5811
之役	-10.5812
頰	-10.5813
郭璞	-10.5814
改名	-10.5816
紹聖	-10.5817
無所見	-10.5819
刻石	-10.5819
開成	-10.5822
不入	-10.5825
所害	-10.5828
云吾	-10.5828
東宫	-10.5833
意欲	-10.5837
周禮	-10.5844
後以	-10.5844
執事	-10.5845
晚年	-10.5846
曰王	-10.5847
鍾山	-10.5855
治平	-10.5863
城門	-10.5865
史補	-10.5873
復出	-10.5878
亦自	-10.588
曲江	-10.5882
𩔖也	-10.5883
撻	-10.5885
固辭	-10.5885
史記	-10.5887
苔	-10.5887
乾道	-10.5887
灘	-10.5888
蝶	-10.5892
煉	-10.5893
兵馬	-10.5894
瓘	-10.5896
郗	-10.5898
滎陽	-10.5901
所由	-10.5904
士卒	-10.5909
曰願	-10.5914
真君	-10.5918
因謂	-10.592
濵	-10.5925
能為	-10.5927
始得	-10.5931
所至	-10.5932
殂	-10.5934
屏風	-10.5935
中出	-10.5939
其背	-10.5942
既出	-10.5944
吾子	-10.5944
民家	-10.5948
至京	-10.595
上表	-10.5952
竺	-10.5957
侃	-10.5966
畨	-10.5969
悽	-10.5969
唇	-10.5971
蓬萊	-10.5972
漬	-10.5972
晉陽秋曰	-10.5972
醋	-10.5973
洩	-10.5974
劣	-10.5975
倩	-10.5976
奩	-10.5976
抛	-10.5977
悰	-10.5977
箸	-10.5977
皁	-10.5978
繒	-10.5978
琪	-10.5978
胷	-10.5978
嘏	-10.5981
罷相	-10.5981
之患	-10.5982
乎曰	-10.599
江左	-10.5991
事皆	-10.5993
字仲	-10.6
出幽	-10.6
宇文	-10.6004
近世	-10.6005
或言	-10.6006
元長	-10.6009
政府	-10.601
溫	-10.6012
見二	-10.6017
供養	-10.6018
曽祖	-10.6024
奉詔	-10.6024
又言	-10.6028
過人	-10.6034
蔬	-10.6045
對曰臣	-10.6046
更無	-10.6046
曰此是	-10.6049
之變	-10.6052
儔	-10.6054
沼	-10.6055
夲	-10.6055
臠	-10.6055
租	-10.6056
謝公	-10.6056
侣	-10.6057
人云	-10.606
敖	-10.606
椽	-10.6062
一石	-10.6064
葱	-10.6064
公子	-10.6064
去後	-10.6064
鳳翔	-10.6065
邑人	-10.6067
於道	-10.6067
與諸	-10.6068
湖南	-10.6068
堂上	-10.607
不答	-10.6078
夢一	-10.6082
不悦	-10.6083
之情	-10.6088
因命	-10.6092
石上	-10.6093
之南	-10.6095
金石	-10.6111
松江	-10.6114
永樂	-10.6117
始知	-10.6117
知舉	-10.6121
有五	-10.6121
有㫖	-10.6123
睦	-10.6126
觀音	-10.6127
流沙	-10.6133
制度	-10.6137
悍	-10.6139
拍	-10.614
滂	-10.614
顗	-10.6143
耽	-10.6144
鋭	-10.6145
翹	-10.6149
中得	-10.6151
人生	-10.6153
無子	-10.616
術者	-10.6162
迎之	-10.6163
之風	-10.6164
以俟	-10.6165
嘗於	-10.6167
太山	-10.6172
即此	-10.6173
山上	-10.62
髙麗	-10.6203
昨日	-10.6208
牘	-10.6212
為名	-10.6221
納之	-10.6227
腥	-10.6227
庻	-10.6228
箠	-10.6228
簮	-10.6228
縈	-10.6228
中興書曰	-10.6229
刹	-10.6229
靴	-10.6229
茵	-10.623
所聞	-10.6232
珣	-10.6237
雜記	-10.625
以賜	-10.6253
獨不	-10.6253
甚有	-10.6254
即是	-10.6257
其詞	-10.6258
亦何	-10.6258
州郡	-10.6263
王師	-10.6264
庭下	-10.6266
以事	-10.6268
如今	-10.6275
容色	-10.628
度支	-10.628
及至	-10.6282
一僧	-10.6283
不久	-10.6286
白雲	-10.6287
幾何	-10.6288
去之	-10.6289
河陽	-10.63
三百里	-10.6303
之餘	-10.6304
閨	-10.6311
交趾	-10.6311
舟人	-10.6312
地獄	-10.6314
騷	-10.6315
縣人	-10.6315
袒	-10.6315
弩	-10.6315
安在	-10.6315
啜	-10.6316
末年	-10.6316
倣	-10.6317
堤	-10.6318
琮	-10.632
旄	-10.632
世宗	-10.6321
叔父	-10.6322
棹	-10.6322
拽	-10.6324
琬	-10.6324
小説	-10.6325
生死	-10.6326
憎	-10.6326
都尉	-10.6326
供奉	-10.6327
其他	-10.6341
得錢	-10.6343
鳥獸	-10.6347
大觀	-10.6347
天寶	-10.6351
每至	-10.6354
為此	-10.6355
曰此人	-10.6359
語及	-10.6365
論語	-10.6371
因與	-10.6381
甚美	-10.6381
江州	-10.6382
衣裳	-10.6382
人臣	-10.6384
大師	-10.6385
雖然	-10.6387
其夜	-10.639
孝宗	-10.6392
其才	-10.6398
形狀	-10.6399
忽夢	-10.6399
意其	-10.64
悖	-10.6403
䟦	-10.6403
不異	-10.6404
盍	-10.6404
乃得	-10.6405
吠	-10.6406
目之	-10.6407
人祖	-10.6408
晋	-10.6409
氊	-10.6412
代宗	-10.6413
綃	-10.6415
安能	-10.6416
然亦	-10.6416
其上多	-10.6429
承㫖	-10.6431
趙公	-10.6433
從而	-10.6436
倉卒	-10.644
如意	-10.6442
閤門	-10.6442
校官	-10.6451
天台	-10.6451
慶厯	-10.6459
于上	-10.6464
奈	-10.6464
士子	-10.6467
贈之	-10.6467
大事	-10.6468
其日	-10.6469
若水	-10.6471
出為	-10.6473
此詩	-10.6475
亦未	-10.6475
一枝	-10.6477
以授	-10.6479
有石	-10.6479
那得	-10.648
水上	-10.6483
齡	-10.6483
乆矣	-10.6483
奎	-10.6487
不爾	-10.6489
文靖	-10.649
隷	-10.6491
准	-10.6491
行者	-10.6492
詢之	-10.6493
漲	-10.6493
爇	-10.6494
陀	-10.6494
媿	-10.6495
臆	-10.6495
諫議大夫	-10.6498
現	-10.65
系	-10.65
騶	-10.6501
經云	-10.6501
宗皇帝	-10.6501
不記	-10.6502
常州	-10.6503
方士	-10.6504
入水	-10.6505
高宗	-10.6506
旦夕	-10.6515
同知	-10.6521
崑山	-10.6522
萊公	-10.6527
性好	-10.6528
去其	-10.6528
樓上	-10.6534
先主	-10.6535
萬一	-10.6535
周旋	-10.6536
出身	-10.654
諤	-10.6544
叱之	-10.6546
温公	-10.6546
遂至	-10.6549
牀上	-10.6551
不少	-10.6551
公為	-10.6553
朝野	-10.656
蜀中	-10.6562
哲宗	-10.6563
出于	-10.6567
不就	-10.657
城隍	-10.6574
湫	-10.6577
至家	-10.6578
以疾	-10.6578
譯	-10.6578
梳	-10.6578
笥	-10.6579
𥿄	-10.6579
二十餘	-10.658
點	-10.6583
九日	-10.6583
桞	-10.6584
絡	-10.6584
其語	-10.6585
東方朔	-10.6585
貧賤	-10.6585
麤	-10.6587
騫	-10.6588
數輩	-10.6593
兩日	-10.6599
人世	-10.66
字元	-10.6601
幽州	-10.6601
江中	-10.6605
東平	-10.6607
亦云	-10.6608
中有一	-10.6612
北有	-10.6614
相似	-10.6616
至夜	-10.6622
有名	-10.6625
九江	-10.6626
何在	-10.6631
我我	-10.6637
昔日	-10.6639
及此	-10.6643
一聲	-10.6644
不差	-10.6645
不曉	-10.6646
居此	-10.6646
勣	-10.6652
責之	-10.6653
辭以	-10.6654
所未	-10.6655
其為人	-10.6655
未嘗有	-10.6657
也余	-10.6658
前事	-10.6659
考之	-10.666
無益	-10.6663
偶然	-10.6666
垢	-10.6667
酋	-10.6667
冨	-10.6668
肌	-10.667
憐之	-10.667
琦	-10.667
耻	-10.6671
殮	-10.6671
友善	-10.6671
自陳	-10.6671
以後	-10.6674
何時	-10.6674
峴	-10.6675
潞公	-10.6675
慟哭	-10.6676
閹	-10.6676
躭	-10.6677
蘿	-10.6677
彥	-10.6678
會稽	-10.6679
祇	-10.6679
功名	-10.6679
著書	-10.6681
公孫	-10.6682
樞宻院	-10.6685
趙氏	-10.6686
仰視	-10.6687
在上	-10.669
在坐	-10.6692
則又	-10.6699
驚懼	-10.6709
慟	-10.6718
之甚	-10.6718
檢校	-10.6727
舎人	-10.6727
不肖	-10.6731
無言	-10.6743
㕘	-10.6746
與此	-10.6747
奏之	-10.6748
猶存	-10.6748
諸君	-10.6749
不願	-10.6753
妍	-10.6763
霑	-10.6763
河内	-10.6764
紛紛	-10.6765
愔	-10.6765
滔	-10.6766
濛	-10.6766
詬	-10.6766
蠅	-10.6766
貼	-10.6768
瞿	-10.6769
忙	-10.677
饗	-10.6771
相者	-10.6772
曰但	-10.6772
詩有	-10.6775
五行記	-10.6775
一丈	-10.6777
仁傑	-10.6777
釋之	-10.6778
主上	-10.6778
楊公	-10.6782
之民	-10.6783
不改	-10.6785
病死	-10.6786
頓首	-10.6788
唯有	-10.6795
所欲	-10.6808
好道	-10.6808
不敢言	-10.6812
不畏	-10.6813
珠林	-10.6815
為主	-10.6816
藏之	-10.6823
有兩	-10.6823
及明	-10.6827
南郡	-10.6835
余嘗	-10.6835
學問	-10.6836
每日	-10.6846
顥	-10.6848
奭	-10.685
須㬰	-10.6852
捲	-10.6852
文曰	-10.6853
蝗	-10.6853
捫	-10.6854
國子監	-10.6854
子儀	-10.6855
蠧	-10.6857
安知	-10.6859
洙	-10.6859
劫	-10.6859
懲	-10.6859
知者	-10.6863
城縣	-10.687
子厚	-10.687
半年	-10.6876
此𩔖	-10.6882
覽之	-10.6887
已上	-10.6888
何敢	-10.6895
熈寧	-10.69
詰其	-10.6902
郭曰言	-10.6907
韓愈	-10.6909
任臣	-10.6927
五更	-10.6932
之計	-10.6934
櫃	-10.6941
萬餘	-10.6943
愷	-10.6944
試官	-10.6945
挑	-10.6945
南人	-10.6946
居人	-10.6946
悞	-10.6947
澹	-10.6947
驩	-10.6948
嬌	-10.6949
怕	-10.695
吼	-10.695
佯	-10.695
􁁊	-10.6951
棋	-10.6952
此時	-10.6957
王丞相	-10.6964
世傳	-10.6965
何由	-10.6966
其法	-10.6968
之妙	-10.6969
太保	-10.6984
則以	-10.6988
四足	-10.6989
向來	-10.6989
一生	-10.6996
軍將	-10.6999
諸軍	-10.7
十一年	-10.7009
付之	-10.7009
乃出	-10.7031
七百	-10.7036
釐	-10.7041
勛	-10.7042
鉤	-10.7042
顓頊	-10.7043
功曹	-10.7043
掇	-10.7047
流水	-10.7048
無故	-10.7055
復至	-10.7061
驚起	-10.7062
嗜酒	-10.7063
金剛	-10.7069
事也	-10.7071
沂	-10.7072
所夢	-10.7076
亦當	-10.7079
而食之	-10.7079
有罪	-10.7085
實録	-10.7088
也夫	-10.7091
也及	-10.7091
異物	-10.7091
病者	-10.71
傳云	-10.7103
四十年	-10.7106
時事	-10.711
遇害	-10.7111
又令	-10.7112
第五	-10.7112
文昌	-10.7114
持國	-10.7115
焉其	-10.7116
麾	-10.7116
相隨	-10.7119
三卷	-10.7127
壮	-10.7127
琢	-10.7128
軾	-10.7131
攷	-10.7133
近日	-10.7136
嫂	-10.7136
捶	-10.7136
讎	-10.7137
絮	-10.7137
匝	-10.7137
晟	-10.7137
徃來	-10.7138
絢	-10.714
略無	-10.7142
晉王	-10.7144
後因	-10.7145
為人所	-10.7149
準	-10.7152
來謁	-10.7156
必欲	-10.7158
頭上	-10.7158
人亦	-10.717
宛然	-10.7172
士也	-10.7173
入蜀	-10.7177
宣帝	-10.7183
為大	-10.7184
出法	-10.7187
風吹	-10.7187
知州	-10.7189
之勢	-10.7189
以禮	-10.7199
邠	-10.7203
三間	-10.7203
者得	-10.7203
無罪	-10.7205
言畢	-10.7211
復為	-10.7216
旣而	-10.7223
不歸	-10.7223
瑗	-10.7224
楓	-10.7225
安置	-10.7225
貂	-10.7225
浣	-10.7225
夢見	-10.7226
揷	-10.7227
礙	-10.7227
啇	-10.7227
龔	-10.7228
瀛	-10.7232
毗	-10.7232
覃	-10.7233
賁	-10.7233
脈	-10.7233
苐	-10.7234
愿	-10.7235
吻	-10.7236
志云	-10.7237
卽	-10.7238
鞏	-10.7238
召入	-10.7239
食人	-10.7241
嘗夢	-10.7243
其姓名	-10.7247
閽	-10.7248
矣遂	-10.7251
已後	-10.7252
尤甚	-10.7252
令狐	-10.7255
鄰人	-10.7259
行人	-10.726
樞宻使	-10.7265
明府	-10.7267
意甚	-10.7273
閉門	-10.7275
其義	-10.7279
二十七	-10.7279
兖州	-10.729
老夫	-10.7294
退之	-10.7298
於水	-10.7298
過之	-10.73
之類	-10.7304
鄭氏	-10.7305
前日	-10.7306
有四	-10.7313
漠	-10.7314
京口	-10.7315
清風	-10.7315
近代	-10.7316
瑀	-10.7319
官軍	-10.7319
雁	-10.732
鎻	-10.732
峭	-10.7321
雛	-10.7321
惇	-10.7321
觜	-10.7321
裸	-10.7322
鯉	-10.7323
劭	-10.7324
殺我	-10.7324
釀	-10.7329
迥	-10.7329
泠	-10.733
黥	-10.733
弋	-10.7331
蝦	-10.7332
纓	-10.7332
燧	-10.7333
滑稽	-10.7333
樽	-10.7333
可知	-10.7333
錫熊	-10.7335
毅總	-10.7335
司農	-10.7336
欽定四庫全書子部十二	-10.7336
諦	-10.7336
兩頭	-10.7341
之議	-10.7345
叅政	-10.7347
年可	-10.7348
諸司	-10.7351
仲尼	-10.7356
于地	-10.7361
學道	-10.7365
太元	-10.7365
富公	-10.7367
之父	-10.7373
知府	-10.7373
州司馬	-10.7374
延入	-10.7375
驚駭	-10.7378
為御史	-10.7378
簫	-10.7385
僮	-10.7389
五經	-10.739
以酒	-10.7392
㑹昌	-10.7392
鄂	-10.7395
山在	-10.7401
癸	-10.7405
别有	-10.7407
泣下	-10.741
所司	-10.741
亦多	-10.7412
平地	-10.7413
妨	-10.7415
監軍	-10.7419
六日	-10.742
珠玉	-10.742
太平廣記卷	-10.742
一官	-10.742
神武	-10.742
願得	-10.742
山隂	-10.7423
髭	-10.7423
頑	-10.7424
暝	-10.7424
詎	-10.7424
隠	-10.7425
邃	-10.7426
杲	-10.7427
徤	-10.7427
昀	-10.7428
駮	-10.7428
月恭校上	-10.7429
突厥	-10.7429
菌	-10.7431
出神	-10.7433
錡	-10.7433
固不	-10.7433
等謹案	-10.7433
大用	-10.7434
以水	-10.7436
垂簾	-10.7438
悲泣	-10.7442
為君	-10.745
生靈	-10.7455
出城	-10.7456
故有	-10.7456
侍婢	-10.7457
年七十	-10.7457
改為	-10.7459
無由	-10.7461
幸蜀	-10.7462
亦名	-10.7471
非所	-10.7478
紙筆	-10.748
上馬	-10.749
親友	-10.7499
以成	-10.75
孫士	-10.7501
迄	-10.7503
而進	-10.7511
開門	-10.7516
而得	-10.7516
則不	-10.7516
寥	-10.7517
引入	-10.7519
蹟	-10.7519
一時之	-10.7522
睛	-10.7523
釡	-10.7523
刁	-10.7524
蛙	-10.7525
腫	-10.7525
册	-10.7526
公以	-10.7527
軒轅	-10.7528
時已	-10.7528
獻可	-10.7531
之恩	-10.7531
以来	-10.7538
睿宗	-10.7539
遂成	-10.7542
中令	-10.7544
笑語	-10.7555
堂前	-10.7557
可惜	-10.7559
將欲	-10.7562
餘慶	-10.7572
利害	-10.7575
鉞	-10.7577
也於是	-10.7585
退而	-10.7589
故來	-10.7596
詹	-10.7597
文肅	-10.7598
告曰	-10.7604
大蛇	-10.7609
既成	-10.7613
巽	-10.7616
無可	-10.7616
洒	-10.7616
百餘里	-10.7618
噪	-10.762
霖	-10.7621
衘	-10.7621
渙	-10.7622
巵	-10.7622
煑	-10.7623
郡縣	-10.7623
尅	-10.7624
砌	-10.7624
娼	-10.7625
張説	-10.7625
廟堂	-10.7626
萃	-10.7627
廣古今	-10.7627
珙	-10.7628
劔	-10.763
在京	-10.7631
侔	-10.7631
形似	-10.7633
埋之	-10.7634
乃謂	-10.7634
出續	-10.7637
而罷	-10.7641
下詔	-10.7642
提要	-10.7646
人謂之	-10.7649
語人曰	-10.7658
浙江	-10.7664
致書	-10.7664
視事	-10.7665
追之	-10.7672
伺其	-10.7675
外祖	-10.7676
泣曰	-10.7676
有子	-10.7682
今為	-10.7692
宫殿	-10.7693
尋之	-10.7693
壁間	-10.7693
濮	-10.7696
出鎮	-10.7697
人無	-10.7698
便是	-10.7699
於市	-10.77
尊師	-10.7701
豈能	-10.7702
取一	-10.7704
常與	-10.771
也公	-10.7711
唯唯	-10.7712
疇	-10.7712
閔	-10.7712
曰不然	-10.7715
娛	-10.7717
扄	-10.7718
歿	-10.7719
門内	-10.772
沐浴	-10.772
鞋	-10.7721
顆	-10.7722
忱	-10.7722
不知所之	-10.7722
碁	-10.7723
囂	-10.7725
剡	-10.7726
范陽	-10.7726
因請	-10.7728
譲	-10.7728
古者	-10.7728
曺	-10.773
屏山	-10.7732
亦不能	-10.7736
之任	-10.7738
絶句	-10.7739
通衢	-10.7739
内翰	-10.7739
之異	-10.7743
寒食	-10.7746
侍讀	-10.775
次日	-10.7752
吾當	-10.7755
敏中	-10.7755
一一	-10.7755
一門	-10.7762
僖	-10.7768
乃見	-10.7772
尚書令	-10.7774
白石	-10.7777
相謂曰	-10.7777
王敦	-10.7778
號泣	-10.7779
成名	-10.7781
(○)	-10.7783
香氣	-10.7789
告以	-10.7793
而别	-10.7797
淮西	-10.7804
東門	-10.7805
并州	-10.7806
豈得	-10.7809
羅列	-10.7811
百日	-10.7812
佛法	-10.7813
屨	-10.7813
語言	-10.7814
得無	-10.7819
攫	-10.7819
旭	-10.7819
三更	-10.782
區區	-10.7821
芬	-10.7822
灾	-10.7822
堰	-10.7822
繆	-10.7825
嚙	-10.7825
餒	-10.7826
貺	-10.7826
黿	-10.7828
宛轉	-10.7829
凋	-10.7829
後數年	-10.7829
猥	-10.7831
五寸	-10.7831
逍遥	-10.7832
西有	-10.7832
有詩云	-10.7834
北人	-10.7836
平陽	-10.7839
則無	-10.784
房中	-10.7841
皇太子	-10.7844
館職	-10.7845
不失	-10.7846
武后	-10.7847
牀下	-10.7848
御前	-10.7854
四尺	-10.7854
故以	-10.7857
儼然	-10.7859
容貌	-10.786
嘉興	-10.7867
扣門	-10.7869
此是	-10.787
魏武	-10.787
二尺	-10.7873
武王	-10.7873
元載	-10.7874
秘書	-10.7877
義方	-10.7884
因而	-10.7889
乃召	-10.7894
候之	-10.7899
舊制	-10.7908
上官	-10.7908
莫之	-10.7909
城西	-10.7909
走馬	-10.791
我當	-10.7911
靡不	-10.7913
尓	-10.7918
長官	-10.7919
笑之	-10.7919
瞽	-10.792
之力	-10.7921
紙錢	-10.7921
芙蓉	-10.7921
迭	-10.7923
駁	-10.7924
有言	-10.7926
忠定	-10.7927
棒	-10.7927
䘏	-10.7927
塚	-10.7927
罄	-10.7927
叨	-10.7928
詩書	-10.7929
葦	-10.793
頤	-10.7931
市中	-10.7933
餘杭	-10.7933
無比	-10.7944
大將	-10.7945
中官	-10.7947
竟以	-10.7948
年五十	-10.7956
音律	-10.7959
將以	-10.796
不輟	-10.7963
二十餘年	-10.7963
不以為	-10.7966
仙客	-10.7967
馬上	-10.7969
好事	-10.7973
一片	-10.7977
具述	-10.7978
出外	-10.799
王者	-10.7992
宣城	-10.7992
有竒	-10.7994
神也	-10.8004
之北	-10.8006
識其	-10.8007
黔	-10.8012
陌	-10.8014
琚	-10.8015
明宗	-10.8017
摶	-10.8018
士庶	-10.8018
曼	-10.8021
囬	-10.8021
歆	-10.8023
辭曰	-10.8025
堵	-10.8025
其室	-10.8025
擎	-10.8026
忠臣	-10.8027
昬	-10.8027
讌	-10.8028
迂	-10.8028
官府	-10.8028
轄	-10.8028
涎	-10.803
太平廣記卷一百	-10.803
發其	-10.8032
諮	-10.8033
慨然	-10.8033
迪	-10.8034
無禮	-10.8037
劉禹錫	-10.8039
不妄	-10.8043
無忌	-10.8044
使臣	-10.8045
亦曰	-10.8045
了無	-10.8049
愛其	-10.8052
謂是	-10.8057
教坊	-10.8057
縣丞	-10.8066
然無	-10.8067
即死	-10.8068
念之	-10.8069
吞之	-10.8073
數十年	-10.8074
内臣	-10.8074
二物	-10.8075
仕宦	-10.8083
上聞	-10.8084
張生	-10.8085
異也	-10.8087
拜相	-10.8088
欽若	-10.809
後魏	-10.8093
久不	-10.8093
千餘人	-10.8096
二十三	-10.8103
重之	-10.8103
酒肉	-10.8103
道流	-10.8108
故相	-10.8108
以供	-10.811
賞之	-10.8111
略曰	-10.8112
受其	-10.8122
潤州	-10.8127
入室	-10.8127
文士	-10.8128
嗚咽	-10.8132
優劣	-10.8132
掣	-10.8132
嚢	-10.8133
光武	-10.8133
其手	-10.8134
有詩	-10.8138
字也	-10.8138
昂	-10.8139
之號	-10.814
欽定四庫全書太平廣記卷一百	-10.8142
御筆	-10.8144
中書侍郎	-10.8144
初無	-10.8145
虎豹	-10.8145
首尾	-10.8149
年老	-10.815
浙東	-10.8151
知是	-10.8152
洪武	-10.8156
三五	-10.8158
拾遺記	-10.8159
宗廟	-10.816
漁者	-10.8162
復以	-10.8162
淮南子	-10.8162
聖賢	-10.8165
伏誅	-10.8165
魯直	-10.8166
官家	-10.8167
監察	-10.8172
天人	-10.8174
一婦人	-10.8182
大懼	-10.8185
城東	-10.8186
自爾	-10.819
懐中	-10.8196
必當	-10.8197
留連	-10.8197
出紀	-10.8198
命也	-10.8198
之側	-10.82
放之	-10.8201
夫妻	-10.8202
字叔	-10.8203
以刀	-10.8204
聞有	-10.8205
是謂	-10.8207
所書	-10.8209
舉手	-10.8212
曰適	-10.8217
人馬	-10.8217
字伯	-10.8217
千人	-10.8218
獨行	-10.8218
也此	-10.822
聖人之	-10.822
有舊	-10.8224
時嘗	-10.8224
亦隨	-10.8226
軍節度使	-10.8226
頊	-10.8229
亥	-10.8232
銳	-10.8235
凱	-10.8235
稼	-10.8235
舂	-10.8238
薊	-10.8238
亘	-10.8241
一足	-10.8242
甑	-10.8242
僭	-10.8244
百步	-10.8248
其陽多	-10.8252
總管	-10.8252
藝祖	-10.8256
工人	-10.8256
甲科	-10.8263
神龍	-10.8265
出集	-10.8266
當自	-10.8268
夷簡	-10.8268
一笑	-10.8273
銜之	-10.8278
直入	-10.828
廟中	-10.8281
相知	-10.8282
日有	-10.8284
於西	-10.8285
樂府	-10.8288
者又	-10.829
宣武	-10.8294
廂	-10.8294
南有	-10.8302
有數	-10.8309
此二	-10.8311
異香	-10.8319
必以	-10.8321
門前	-10.8324
江水	-10.8329
不避	-10.8332
□	-10.8336
之難	-10.8338
絕	-10.8341
渤海	-10.8342
澆	-10.8342
黠	-10.8343
瑯琊	-10.8344
弓矢	-10.8344
有道	-10.8344
藍田	-10.8345
赭	-10.8347
購	-10.8347
噴	-10.8348
大司馬	-10.8348
不可不	-10.8349
扁	-10.835
寒暑	-10.8353
曰夫	-10.8362
禮樂	-10.8362
縱横	-10.8363
數十萬	-10.8366
進曰	-10.8367
其居	-10.8367
上問	-10.8373
不勝其	-10.8374
嗣宗	-10.8377
端坐	-10.8378
曰無	-10.8379
而能	-10.838
一夜	-10.8382
觀察	-10.8385
善惡	-10.8387
掘之	-10.8394
在家	-10.84
新法	-10.8401
萊	-10.8402
深山	-10.8402
來此	-10.8404
師魯	-10.8408
太廟	-10.841
都城	-10.8418
越王	-10.8418
皇子	-10.842
四十里	-10.842
無窮	-10.8422
又與	-10.8422
常在	-10.8428
亦能	-10.8429
雜録	-10.8429
神異	-10.8429
如飛	-10.8431
訴於	-10.8431
未成	-10.8435
者無不	-10.8438
乃與	-10.8439
皆在	-10.844
逺矣	-10.8442
侍臣	-10.8444
舶	-10.8445
孽	-10.8447
鐫	-10.845
二十二	-10.8451
難得	-10.8451
龕	-10.8453
郄	-10.8453
纒	-10.8454
稔	-10.8454
云何	-10.8454
廩	-10.8456
亊	-10.8456
則可	-10.8458
鳯翔	-10.8459
論者	-10.8459
廷尉	-10.8459
魔	-10.8461
莭	-10.8467
宰輔	-10.8467
倐	-10.8467
然其	-10.8468
不納	-10.8469
宣撫	-10.8471
甚謹	-10.8473
其數	-10.8474
五里	-10.8478
道中	-10.8478
及諸	-10.8479
之形	-10.8484
所食	-10.8484
欲得	-10.8485
黄巢	-10.8487
兖	-10.8498
閣下	-10.8501
縣南	-10.8503
二萬	-10.8509
面目	-10.8509
之弟	-10.8513
一朝	-10.8516
先公	-10.8517
女曰	-10.8519
經過	-10.852
與客	-10.852
長樂	-10.8521
談論	-10.8522
相𩔖	-10.8527
見王	-10.8528
辜	-10.8529
謁之	-10.8532
所親	-10.8536
便殿	-10.8538
咸陽	-10.8539
功臣	-10.854
華隂	-10.854
如常	-10.8541
思道	-10.8541
設齋	-10.8543
狼狽	-10.855
伽	-10.8552
曰向	-10.8552
福建	-10.8553
旁有	-10.8554
鶻	-10.8554
道術	-10.8555
為小	-10.8555
証	-10.8555
釁	-10.8556
堡	-10.8556
徳裕	-10.8556
繳	-10.8556
頋	-10.8557
刪	-10.8557
州有	-10.8557
鵞	-10.8557
詈	-10.8558
之音	-10.8558
複	-10.8559
濠	-10.856
師古	-10.856
診	-10.856
轅	-10.856
雷電	-10.856
髓	-10.8561
糜	-10.8562
僦	-10.8562
裒	-10.8563
散騎常侍	-10.8565
幃	-10.8566
卭	-10.8567
之費	-10.8568
波斯	-10.8569
而返	-10.8569
於内	-10.8571
皆可	-10.8576
人以為	-10.8577
下獄	-10.8577
甘露	-10.8578
咸平	-10.8579
閉目	-10.858
長慶	-10.8583
客有	-10.8584
上清	-10.8586
又北	-10.8588
以語	-10.8591
王安石	-10.8595
無疾	-10.8598
階下	-10.8598
記其	-10.86
出處	-10.8602
南史	-10.8603
必能	-10.8603
而笑	-10.8607
狀若	-10.8612
已在	-10.8612
陽人	-10.8615
孝武	-10.862
可觀	-10.8621
安撫	-10.8624
無數	-10.8627
林中	-10.8631
等皆	-10.8634
命左右	-10.8641
時號	-10.8644
雲中	-10.8645
更不	-10.8648
豁	-10.8651
葬之	-10.8655
當是	-10.8656
文正公	-10.8656
鐺	-10.8661
兒女	-10.8662
與妻	-10.8662
在前	-10.8662
衡山	-10.8663
日夕	-10.8664
而往	-10.8665
夜來	-10.8666
企	-10.8667
辤	-10.8668
一身	-10.8669
巍	-10.8669
闌	-10.867
劑	-10.8671
覧	-10.8671
子華	-10.8671
立功	-10.8671
醴	-10.8672
綰	-10.8672
逞	-10.8673
廹	-10.8674
蛤	-10.8674
艷	-10.8676
鴛鴦	-10.8676
三寸	-10.8676
淸	-10.8677
積年	-10.8677
於上	-10.8678
浮屠	-10.868
十七年	-10.868
蛟龍	-10.868
𢎞農	-10.8682
扶桑	-10.8686
驚愕	-10.8687
將歸	-10.8687
言我	-10.8689
得以	-10.8691
成王	-10.8699
名臣	-10.8704
吟曰	-10.8704
幕府	-10.8704
不著	-10.8707
將有	-10.8708
萬世	-10.8714
書畫	-10.8718
山南	-10.8719
聞此	-10.8724
奉天	-10.8726
也音	-10.8728
明道	-10.8728
起於	-10.8734
主文	-10.8736
少保	-10.8741
石室	-10.8743
女也	-10.8746
多所	-10.8748
行在	-10.8758
萬人	-10.8758
冬至	-10.876
因名	-10.8765
舉止	-10.8765
不加	-10.8766
既見	-10.8766
開封府	-10.8767
泳	-10.8768
航	-10.8769
人形	-10.8771
右軍	-10.8773
神錄	-10.8773
陁	-10.8776
盂	-10.8777
需	-10.8777
枝葉	-10.8778
富人	-10.8778
汶	-10.8778
世所	-10.878
獨坐	-10.878
淳化	-10.8781
可笑	-10.8781
杞	-10.8781
贅	-10.8782
焰	-10.8783
子敬	-10.8784
眩	-10.8784
氏譜曰	-10.8784
黼	-10.8785
瀝	-10.8785
惕	-10.8787
一子	-10.8787
少師	-10.879
昱	-10.8791
以資	-10.8792
可畏	-10.8795
亦為	-10.8796
虢	-10.8797
皆無	-10.8805
則已	-10.881
太清	-10.8811
食者	-10.8813
五十年	-10.8813
樓下	-10.8815
少府	-10.8815
雷雨	-10.8817
道左	-10.8818
夜中	-10.8819
本無	-10.882
祕書	-10.8821
累年	-10.8825
十丈	-10.883
之具	-10.8832
有鳥	-10.8835
今則	-10.884
延年	-10.8841
其前	-10.8843
太夫人	-10.8844
都人	-10.8845
笑謂	-10.8857
外人	-10.8857
元忠	-10.8858
親族	-10.8859
但云	-10.8864
食畢	-10.8864
一杯	-10.8867
主之	-10.8868
三省	-10.8869
可與	-10.887
而不知	-10.8872
悸	-10.8874
器之	-10.8875
縣西	-10.8876
以相	-10.888
惱	-10.8882
前人	-10.8886
節制	-10.8887
九重	-10.8887
談笑	-10.8887
當與	-10.8888
有金	-10.889
已久	-10.889
泚	-10.889
撒	-10.8891
髠	-10.8891
肺	-10.8893
琉璃	-10.8893
大悦	-10.8894
帙	-10.8894
竪	-10.8895
朝官	-10.8895
吸	-10.8895
獠	-10.8896
疑是	-10.8897
匱	-10.8897
曷	-10.8897
滛	-10.8899
又作	-10.8901
消息	-10.8907
户部	-10.891
一本	-10.8912
嘗問	-10.8912
者是	-10.8914
四日	-10.8916
奏曰臣	-10.8921
商人	-10.8921
惟有	-10.8921
無憂	-10.8927
召至	-10.893
音樂	-10.893
更有	-10.8931
侍講	-10.8934
憲聖	-10.8936
所獲	-10.8939
之論	-10.8941
一目	-10.8942
庶幾	-10.8946
所賜	-10.8946
尋常	-10.8947
尚書郎	-10.8951
只是	-10.8952
已定	-10.8955
中山	-10.8955
時人謂之	-10.8958
饒州	-10.8959
失色	-10.896
掘地	-10.8965
子固	-10.8976
時時	-10.8977
終不能	-10.8979
其中有	-10.8984
行李	-10.8985
凡有	-10.8986
悵	-10.8988
武子	-10.8989
壁上	-10.899
嬪	-10.9
璘	-10.9
俛	-10.9001
閏	-10.9002
願以	-10.9002
慄	-10.9003
矛	-10.9004
粮	-10.9005
苟	-10.9006
衲	-10.9006
疾病	-10.9006
光庭	-10.9007
孩	-10.9007
寖	-10.9007
嶷	-10.9008
謾	-10.9008
恰	-10.9009
屐	-10.9009
遘	-10.901
𡨕	-10.9011
旬月	-10.9012
秦檜	-10.9012
玊	-10.9015
羨	-10.9016
知古	-10.9022
始皇	-10.9026
天寳中	-10.9029
載之	-10.9032
草書	-10.9032
在西	-10.9033
晩年	-10.9034
樂天	-10.9035
天師	-10.9039
終無	-10.9039
稱善	-10.904
潭州	-10.9045
登岸	-10.9046
者當	-10.9047
棺中	-10.9048
河朔	-10.9053
注曰	-10.9054
曰聞	-10.9056
且以	-10.9056
元符	-10.9056
之過	-10.9057
最為	-10.9058
之利	-10.9059
劄子	-10.906
胡僧	-10.906
未畢	-10.9062
大雪	-10.9063
中正	-10.9065
復還	-10.9071
者甚衆	-10.9072
南宫	-10.9076
家在	-10.9079
為翰林學士	-10.9079
四字	-10.9081
相如	-10.9089
之夕	-10.9092
題名	-10.9093
而滅	-10.9094
之象	-10.9096
羅漢	-10.9097
此皆	-10.9097
不由	-10.9098
而巳	-10.9099
秦州	-10.91
覿	-10.9106
推之	-10.9109
槽	-10.9114
蹶	-10.9114
鑊	-10.9115
惆悵	-10.9115
家世	-10.9115
道徳	-10.9116
邅	-10.9116
愆	-10.9117
乾坤	-10.9117
沔	-10.912
郤	-10.912
守之	-10.9121
厮	-10.9122
司馬温公	-10.9123
煜	-10.9123
牝	-10.9123
嗤	-10.9123
七嵗	-10.9123
外國	-10.9124
再生	-10.9124
懦	-10.9124
虺	-10.9124
而食	-10.9126
夣	-10.9126
戩	-10.9126
半日	-10.9127
及長	-10.9129
蔡元長	-10.913
安可	-10.9131
城外	-10.9132
神女	-10.9132
恂	-10.9133
古文	-10.9133
作亂	-10.9134
中堂	-10.9135
秩滿	-10.9138
顧問	-10.9138
朱崖	-10.9142
長尺餘	-10.9145
後進	-10.9148
分司	-10.9149
莊子	-10.9152
龍圖	-10.9155
宣州	-10.9155
祭之	-10.9158
歐公	-10.9164
知此	-10.9166
老母	-10.9169
走出	-10.9169
處厚	-10.9169
而逝	-10.9172
李白	-10.9172
死而	-10.9173
字景	-10.9174
偕行	-10.9175
也王	-10.9182
亦不知	-10.9183
大業	-10.9186
之詩	-10.9187
因令	-10.9189
鉅	-10.919
三萬	-10.9193
曰何不	-10.9193
當得	-10.9193
有志	-10.9195
地名	-10.9196
臨終	-10.9197
生日	-10.9198
相次	-10.9199
未甞	-10.92
以此為	-10.9201
郭曰今	-10.9202
言也	-10.9203
相近	-10.9209
吳越	-10.9211
昔有	-10.9213
雲氣	-10.9217
之次	-10.9217
闕下	-10.9223
汴州	-10.9223
兵士	-10.9224
旬餘	-10.9226
用一	-10.9228
岱	-10.923
爰有	-10.923
潦	-10.9231
縶	-10.9231
摹	-10.9231
是知	-10.9232
相思	-10.9233
涵	-10.9234
越州	-10.9234
三郎	-10.9234
某人	-10.9234
瓠	-10.9234
無疑	-10.9235
圎	-10.9237
中和	-10.9237
闋	-10.9238
稟	-10.9238
缾	-10.9239
挫	-10.9239
誦之	-10.9239
蚓	-10.9239
休咎	-10.924
不可復	-10.924
涸	-10.924
白金	-10.9241
喝	-10.9243
後唐	-10.9243
翕然	-10.9243
記室	-10.9243
踞	-10.9244
自當	-10.9244
一雙	-10.9245
兀	-10.9246
髣髴	-10.9246
太平興國	-10.9247
墓誌	-10.9249
南唐	-10.925
江浙	-10.9251
修道	-10.9251
謂此	-10.9254
侍女	-10.9255
左僕射	-10.9257
絲竹	-10.9261
瑋	-10.9262
村民	-10.9263
捕之	-10.9265
貟	-10.9269
黄河	-10.9274
非是	-10.9275
覘	-10.9278
曰余	-10.9278
可以為	-10.9278
是歲	-10.9278
始也	-10.9279
畫工	-10.928
將行	-10.9284
赤水	-10.9284
院中	-10.9285
稱為	-10.9286
武宗	-10.9287
亦非	-10.9293
因得	-10.9294
不載	-10.9295
王莽	-10.9297
彦博	-10.9298
遂入	-10.9299
將入	-10.93
母曰	-10.9309
於天	-10.9312
其黨	-10.9314
欲見	-10.9314
五百里	-10.9316
厲聲	-10.9317
近侍	-10.9319
必為	-10.9319
愕	-10.9319
廬江	-10.9322
始於	-10.9325
羲之	-10.9336
閽者	-10.9338
宿於	-10.9342
而未	-10.9343
報云	-10.9343
嚼	-10.9346
衷	-10.9347
元方	-10.9348
謐	-10.935
鑾	-10.9351
忩	-10.9353
萌	-10.9353
秃	-10.9353
徼	-10.9354
圜	-10.9354
善屬文	-10.9355
太平廣記卷四百	-10.9355
逓	-10.9355
渇	-10.9356
洛水	-10.9356
稹	-10.9357
同在	-10.9357
陳郡	-10.9358
悴	-10.9358
佚	-10.9359
峕	-10.9361
與子	-10.9363
翰苑	-10.9364
傳語	-10.9365
與其	-10.9365
第十	-10.9368
丕	-10.9368
千嵗	-10.9369
後生	-10.9372
聞君	-10.9374
白樂天	-10.9374
保衡	-10.9374
悵然	-10.9376
豈敢	-10.9376
進士及第	-10.9377
李徳裕	-10.9384
宦者	-10.9384
過江	-10.9387
蒼頭	-10.9387
居於	-10.9394
僚屬	-10.9396
都御史	-10.9397
皆出	-10.9398
上仙	-10.9401
謂左右曰	-10.9401
知也	-10.9402
數百里	-10.9408
固有	-10.9412
士女	-10.9412
於江	-10.9415
主事	-10.9415
地理	-10.9416
延州	-10.9417
已為	-10.9418
經宿	-10.9422
財物	-10.9427
驚喜	-10.9428
年月	-10.9434
臣案	-10.9434
昇天	-10.9435
斯人	-10.9436
十許	-10.9442
如生	-10.9445
同州	-10.9449
勉之	-10.9449
直言	-10.9458
聞見	-10.9458
大醉	-10.9461
先朝	-10.9465
鴿	-10.9468
幄	-10.9468
繋	-10.947
淳熈	-10.9471
喘	-10.9471
瘠	-10.9472
杪	-10.9473
於路	-10.9473
桶	-10.9473
洵	-10.9474
大旱	-10.9476
蕙	-10.9476
址	-10.9477
鎔	-10.9477
縦	-10.9477
癘	-10.9479
盼	-10.9479
澣	-10.948
霹靂	-10.9481
不到	-10.9481
刑部	-10.9482
畱	-10.9484
覺而	-10.9491
校尉	-10.9492
桓温	-10.9492
若有所	-10.9495
左右皆	-10.9496
山寺	-10.9497
少孤	-10.9499
比之	-10.9499
方丈	-10.9499
文潞公	-10.95
存者	-10.9506
河間	-10.9507
七十里	-10.9508
一婢	-10.951
詣闕	-10.9511
王介甫	-10.9514
曹公	-10.9515
無所不	-10.9519
亦不敢	-10.9522
科第	-10.9523
中見	-10.9525
月明	-10.9525
與弟	-10.9528
史館	-10.9529
赴闕	-10.9532
二卷	-10.9533
六經	-10.9534
上命	-10.9535
以次	-10.9536
其面	-10.9538
存亡	-10.9539
墮地	-10.9541
崔公	-10.9548
宣王	-10.9552
不逺	-10.9558
圖畫	-10.9559
君家	-10.9561
當年	-10.9563
丹青	-10.9566
元帝	-10.9566
二事	-10.9568
聲色	-10.9571
一里	-10.9572
予嘗	-10.9573
郡王	-10.9576
信宿	-10.9577
扣之	-10.9578
畵	-10.9579
於後	-10.9582
偈	-10.9588
居民	-10.959
驥	-10.959
珏	-10.9591
覬	-10.9592
駱	-10.9595
訐	-10.9596
鬼物	-10.9597
磚	-10.9597
禹錫	-10.9598
朂	-10.9599
八日	-10.96
無為	-10.9601
螫	-10.9601
迺	-10.9601
扼	-10.9601
河南尹	-10.9602
百人	-10.9603
晝寢	-10.9604
計其	-10.9604
夜則	-10.9606
仆地	-10.9607
小子	-10.961
臣等	-10.9611
門户	-10.9611
尺許	-10.9617
廡下	-10.9617
仲淹	-10.9617
三字	-10.9624
凡三	-10.9624
上殿	-10.9624
有道士	-10.9629
唐末	-10.9633
敢不	-10.9635
弟也	-10.9639
武徳	-10.9643
庚子	-10.9646
經日	-10.9652
曰諾	-10.9654
迅	-10.9656
永興	-10.9663
縣東	-10.9665
是為	-10.9671
别駕	-10.9672
其腹	-10.9675
後又	-10.9676
最後	-10.9678
宣仁	-10.9679
竟無	-10.9682
方欲	-10.9683
無草木	-10.9685
山西	-10.9687
其價	-10.9689
二十六	-10.9689
官爵	-10.969
梁祖	-10.9694
雷震	-10.9694
戲之曰	-10.9694
甚至	-10.9695
沽	-10.9697
不語	-10.9703
悉皆	-10.9706
酹	-10.9707
嗔	-10.9709
恐懼	-10.9711
㩦	-10.9711
鴉	-10.9712
琯	-10.9713
哈	-10.9713
緫	-10.9714
畆	-10.9714
嬉	-10.9714
是書	-10.9715
茹	-10.9715
雇	-10.9715
繼之	-10.9715
以小	-10.9715
讒	-10.9715
逋	-10.9717
澧	-10.9718
䦨	-10.9718
莢	-10.9719
榛	-10.972
幢	-10.972
頽	-10.9721
岷	-10.9721
眇	-10.9721
珮	-10.9722
泓	-10.9722
有靈	-10.9723
諳	-10.9723
此女	-10.9723
蚌	-10.9723
姝	-10.9725
膾	-10.9728
朋友	-10.9729
當死	-10.973
完顔	-10.9736
看之	-10.9738
范文正公	-10.9739
不預	-10.9742
使至	-10.9744
泗州	-10.9744
詞曰	-10.9746
年四十	-10.9747
往視之	-10.9749
羈	-10.9749
之樂	-10.975
其主	-10.9752
爲人	-10.9763
世俗	-10.9769
其二	-10.9771
果如	-10.9773
尚書省	-10.9773
一無所	-10.9774
不拜	-10.9774
曰此非	-10.9774
亦在	-10.9775
溫公	-10.9779
黄白	-10.9779
乃復	-10.978
中朝	-10.9784
扶風	-10.9786
俊臣	-10.9789
命駕	-10.9791
乞食	-10.9792
十六年	-10.9794
二十日	-10.9794
狀貌	-10.9797
天官	-10.9798
與夫	-10.98
戊	-10.9801
每見	-10.9802
一女子	-10.9804
大水	-10.9804
皆得	-10.9809
應天	-10.981
宗即位	-10.9813
六百	-10.9813
後當	-10.9821
入翰林	-10.9821
恐其	-10.9823
因是	-10.9824
忻	-10.9825
其死	-10.9826
案上	-10.9828
丑	-10.9828
安世	-10.983
曰郎君	-10.9832
河伯	-10.9833
國夫人	-10.9833
椎	-10.9835
笈	-10.9835
經義	-10.9836
在地	-10.9836
紇	-10.9836
鏗	-10.9837
杵	-10.9838
鳶	-10.9838
㢠廻	-10.9838
啄	-10.9839
濱	-10.9839
汰	-10.984
咫尺	-10.984
㳂	-10.984
笄	-10.9841
齊名	-10.9841
帑	-10.9841
塋	-10.9842
亦是	-10.9842
肚	-10.9842
齊王	-10.9842
虱	-10.9843
礪	-10.9843
俘	-10.9844
脛	-10.9846
鷰	-10.9847
狡	-10.9848
曰吾聞	-10.9851
不亦	-10.9852
流落	-10.9855
異哉	-10.9858
一株	-10.9858
金剛經	-10.9858
百家	-10.986
乃云	-10.986
蚩尤	-10.9861
書中	-10.9863
莊宗	-10.9864
一品	-10.9866
則為	-10.9866
一曲	-10.9867
者云	-10.987
使相	-10.9871
不便	-10.9872
云昔	-10.9873
斯須	-10.9874
諫議	-10.9874
各一	-10.988
行事	-10.9882
十八年	-10.9883
大書	-10.9886
錢唐	-10.9888
凡人	-10.9889
北兵	-10.989
長大	-10.9894
執之	-10.9897
形於	-10.9897
親故	-10.99
所傳	-10.9902
之末	-10.9912
徐氏	-10.9913
其肉	-10.9913
為太子	-10.9917
上林	-10.9919
將士	-10.9919
晉書曰	-10.992
為戲	-10.9923
自得	-10.9925
察之	-10.9929
逢一	-10.993
錢氏	-10.9931
哭聲	-10.9932
左手	-10.9934
唐太宗	-10.9934
樂工	-10.9935
時在	-10.9935
方得	-10.9938
器物	-10.9939
六合	-10.9939
驚覺	-10.9941
華州	-10.9941
用心	-10.9946
其婦	-10.9947
無愧	-10.9948
諸州	-10.9948
可否	-10.9949
曰先生	-10.9953
樞密	-10.9956
瓢	-10.9956
舊有	-10.9958
入宫	-10.9959
大年	-10.9959
持刀	-10.996
芍藥	-10.996
黯	-10.996
駝	-10.9961
琅邪	-10.9961
燎	-10.9962
宋史	-10.9962
犒	-10.9962
覇	-10.9962
脇	-10.9963
迓	-10.9963
鈿	-10.9964
燼	-10.9964
年八十	-10.9965
依舊	-10.9966
肴	-10.9966
王君	-10.9966
瑕	-10.9967
梧	-10.9967
桃李	-10.9968
渝	-10.9968
眺	-10.9969
廣南	-10.9969
四郎	-10.9969
太真	-10.9969
叫	-10.997
匙	-10.9971
因言	-10.9973
萇	-10.9975
訪其	-10.998
者謂之	-10.998
相率	-10.9983
沙彌	-10.9985
范公	-10.9985
以死	-10.9986
漢武	-10.9988
曰僕	-10.9992
景祐	-10.9993
大父	-10.9995
相望	-10.9996
吳人	-10.9999
惜其	-10.9999
浮圖	-10.9999
詩人	-11.0001
之職	-11.0002
待詔	-11.0002
處之	-11.0002
逾年	-11.0004
而視之	-11.0011
相視	-11.0014
累官	-11.0015
進用	-11.0018
已成	-11.0022
建州	-11.0024
大同	-11.0027
大明	-11.0028
△	-11.0028
以謝	-11.0029
惜哉	-11.0029
僧道	-11.0031
傍有	-11.0033
登舟	-11.0036
乆而	-11.0039
至其家	-11.004
者惟	-11.0041
龍虎	-11.0048
懿宗	-11.0049
華亭	-11.0049
吏部郎	-11.0052
貞觀中	-11.0058
不待	-11.0063
此子	-11.0064
於天下	-11.0065
可憐	-11.007
其功	-11.0074
不孝	-11.0078
司户	-11.0079
新羅	-11.0081
幷	-11.0085
無能	-11.0085
蔡州	-11.0087
柘	-11.0088
麫	-11.0088
麵	-11.0088
笠	-11.0089
倖	-11.0089
球	-11.0089
西海	-11.0089
哂	-11.009
觀世音	-11.009
園中	-11.009
爼	-11.0091
直至	-11.0093
拓	-11.0093
王府	-11.0094
攬	-11.0094
肘	-11.0095
觔	-11.0095
兾	-11.0096
殿下	-11.0096
殿中侍御史	-11.0097
百嵗	-11.0097
鴻漸	-11.01
其頭	-11.0102
甚詳	-11.0102
素有	-11.0103
安敢	-11.0104
水陸	-11.0108
入見	-11.0109
畧曰	-11.0111
不減	-11.0112
咸通中	-11.0113
司命	-11.0116
𨼆居	-11.0117
應曰	-11.0119
京尹	-11.0119
可用	-11.012
之靈	-11.0122
威儀	-11.0129
拂衣	-11.0129
許公	-11.013
終身不	-11.0132
上人	-11.0133
蘭亭	-11.0134
燕公	-11.0136
柰何	-11.0138
所藏	-11.0139
太上皇	-11.014
既畢	-11.0142
亦不可	-11.0146
汝輩	-11.0146
遽命	-11.0146
詣之	-11.0153
慶元	-11.0155
而寤	-11.016
忘其	-11.0162
開府	-11.0163
髙下	-11.0163
致之	-11.0164
吉州	-11.0165
興元	-11.0167
休復	-11.0169
國在	-11.0169
知微	-11.0171
者三	-11.0173
席上	-11.0173
平甫	-11.0175
何罪	-11.018
戸部	-11.0185
見有	-11.019
倐忽	-11.0191
相接	-11.0191
縣吏	-11.0193
山頂	-11.0194
行數里	-11.0198
所獻	-11.0204
安仁	-11.0205
大荒	-11.0205
一舉	-11.0206
二寸	-11.0207
茅山	-11.0208
考功	-11.0208
曰張	-11.021
文穆	-11.021
數千人	-11.0212
某日	-11.0212
綘	-11.0213
𦙍	-11.0213
峩	-11.0214
儕	-11.0215
儁	-11.0216
拊	-11.0216
兩手	-11.0217
云君	-11.0218
廐	-11.0218
装	-11.0218
詔書	-11.0218
戢	-11.0218
瓮	-11.0218
法華經	-11.0219
痩	-11.0219
関	-11.022
騾	-11.0221
顏	-11.0222
賚	-11.0222
闘	-11.0222
尖	-11.0222
槎	-11.0223
縉紳	-11.0223
壅	-11.0224
紂	-11.0225
此意	-11.0226
慷慨	-11.0226
韓氏	-11.0226
啗	-11.0226
檀越	-11.0226
别見	-11.0227
腕	-11.0228
嘗因	-11.0232
之年	-11.0233
竟不能	-11.0235
為汝	-11.0236
正直	-11.0236
且言	-11.0241
酒饌	-11.0243
杜牧	-11.0246
不懌	-11.025
貧道	-11.0252
英雄	-11.0254
佛像	-11.0254
表云	-11.0257
已失	-11.0258
不克	-11.0263
祟	-11.0264
兩制	-11.0264
矣後	-11.0265
羅浮	-11.0266
肖	-11.0273
文惠	-11.0274
其半	-11.0276
告之曰	-11.0277
内官	-11.0283
解之	-11.0286
隴西	-11.0287
西門	-11.0288
及期	-11.0289
黄州	-11.0291
獲一	-11.0292
御史臺	-11.0293
與張	-11.0294
崔生	-11.0302
而過	-11.0306
安期	-11.0307
一斗	-11.031
將死	-11.031
崑	-11.0311
因出	-11.0312
八十里	-11.0314
否曰	-11.032
既得	-11.032
有巨	-11.0321
左傳	-11.0326
集中	-11.0332
遂去	-11.0335
弇	-11.0337
東京	-11.0338
咏	-11.0339
飭	-11.0341
詩文	-11.0343
不取	-11.0344
工部	-11.0345
能詩	-11.0345
草中	-11.0347
不逮	-11.0347
挹	-11.0347
梗	-11.0348
澈	-11.0349
腴	-11.035
帔	-11.035
苛	-11.0351
蟾	-11.0351
蔡邕	-11.0351
麞	-11.0353
欽定四庫全書太平廣記卷四百	-11.0354
白頭	-11.0354
猜	-11.0354
槃	-11.0354
隲	-11.0355
鎰	-11.0355
為樂	-11.0355
箴	-11.0355
栽	-11.0357
溺死	-11.0357
先祖	-11.0357
珊瑚	-11.0359
章獻	-11.036
旃	-11.036
詩賦	-11.036
鯀	-11.0361
故老	-11.0361
軍事	-11.0362
嫡	-11.0362
北流注于	-11.0363
縣官	-11.0363
牛馬	-11.0363
山上有	-11.0365
七十二	-11.0366
閙	-11.0366
惶懼	-11.0366
乾元	-11.0369
北山	-11.037
曼卿	-11.0371
終南山	-11.0372
承嗣	-11.0378
野狐	-11.0379
青龍	-11.0381
何其	-11.0382
僉事	-11.0384
惜之	-11.0385
九州	-11.0387
來年	-11.0387
官司	-11.0388
來者	-11.0389
書於	-11.0394
往還	-11.0396
送還	-11.0397
反覆	-11.0398
白首	-11.0401
女壻	-11.0402
僖宗	-11.0404
欲令	-11.0404
可致	-11.0405
常山	-11.0407
亦嘗	-11.0407
詩話	-11.0409
不返	-11.041
不第	-11.041
年六十	-11.0411
年中	-11.0413
葉如	-11.0418
洞中	-11.0418
始終	-11.0418
以遺	-11.0419
北面	-11.0424
皇太后	-11.0425
成功	-11.0425
西蜀	-11.0429
殆盡	-11.043
能致	-11.043
而致	-11.043
一處	-11.0431
日日	-11.0434
元祐中	-11.0437
山陽	-11.0438
亦甚	-11.0442
飛鳥	-11.0443
悚	-11.0443
市井	-11.0449
金錢	-11.0453
至暮	-11.0456
可矣	-11.0456
臨江	-11.0459
一隻	-11.0471
鳯凰	-11.0473
訝其	-11.0475
継	-11.0478
鏹	-11.0478
發之	-11.0479
弭	-11.048
麓	-11.0482
𢃄	-11.0482
鳳凰	-11.0483
㗖	-11.0484
豬	-11.0484
禽獸	-11.0484
誑	-11.0485
非此	-11.0485
書記	-11.0485
皆云	-11.0487
分為	-11.0488
吐蕃	-11.0489
襦	-11.0489
聼	-11.0489
日已	-11.049
箋	-11.0491
天地之	-11.0493
相善	-11.0496
又夢	-11.0497
香火	-11.0498
見鬼	-11.05
朱泚	-11.0501
知貢舉	-11.0503
中流	-11.0505
惡其	-11.0505
閒居	-11.0508
字文	-11.0511
朝堂	-11.0513
德宗	-11.0517
梁上	-11.0517
朝臣	-11.0517
史官	-11.0519
躍出	-11.0521
我今	-11.0524
客至	-11.0524
集賢	-11.0525
之野	-11.0527
天聖	-11.0528
之期	-11.0534
青城	-11.0536
可食	-11.0542
墜地	-11.0547
樹上	-11.0548
婺州	-11.0549
八人	-11.0551
天綱	-11.0559
報應	-11.0561
城北	-11.0561
百餘年	-11.0563
其時	-11.0563
以為然	-11.0564
玉帶	-11.0566
頷	-11.0567
儒者	-11.0567
於野	-11.0571
事畢	-11.0571
之師	-11.0572
一尺	-11.0576
以避	-11.0577
景文	-11.0578
鬼也	-11.0578
其能	-11.0579
與公	-11.0582
云汝	-11.0588
冀州	-11.0589
凡所	-11.0592
更生	-11.0593
見則	-11.0595
至曉	-11.0596
林木	-11.0597
不知也	-11.0598
人咸	-11.0601
忠孝	-11.0601
武臣	-11.0604
功德	-11.0606
又為	-11.0606
邏	-11.0607
芥	-11.0607
神氣	-11.0607
訶	-11.0609
歐陽文忠公	-11.061
薫	-11.061
芸	-11.0611
捍	-11.0611
愬	-11.0611
暦	-11.0612
蛻	-11.0612
蒿	-11.0613
寗	-11.0613
冤	-11.0613
語林卷	-11.0613
敲	-11.0614
兠	-11.0615
盌	-11.0616
盥	-11.0617
妻孥	-11.0617
騁	-11.0617
臼	-11.0618
有赤	-11.0619
吃	-11.062
虫	-11.0621
晞	-11.0621
巡檢	-11.0621
黄門侍郎	-11.0622
趂	-11.0622
所宜	-11.0622
岫	-11.0623
不倦	-11.0628
尤為	-11.0629
河水	-11.0629
兵部尚書	-11.0629
廊廟	-11.0631
有鳥焉其狀如	-11.0631
五十餘	-11.0632
走入	-11.0633
中立	-11.0635
御製	-11.0635
入地	-11.0636
大樹	-11.0642
臨海	-11.0646
台州	-11.0647
無用	-11.0649
敢言	-11.0653
録之	-11.0656
子美	-11.066
可知也	-11.066
遂不復	-11.0662
楊慎	-11.0665
臺諫	-11.0666
嘗作	-11.0666
如期	-11.0668
神廟	-11.0668
惠卿	-11.0668
先後	-11.067
一絶	-11.067
其妙	-11.0671
郡中	-11.0672
婺	-11.0673
殺其	-11.0677
光彩	-11.0677
天道	-11.0681
奏聞	-11.0682
堯臣	-11.0683
立廟	-11.0689
置于	-11.069
名字	-11.0691
盛事	-11.0693
數嵗	-11.0696
血流	-11.0698
象先	-11.0701
左氏	-11.0702
上都	-11.0702
乃遣	-11.0704
于朝	-11.0704
一巨	-11.0706
丁謂	-11.071
非常人	-11.071
立祠	-11.0711
其本	-11.0712
建昌	-11.0715
害人	-11.0717
獨處	-11.0719
宫室	-11.072
驚走	-11.0724
為國	-11.0725
其宅	-11.0727
形貌	-11.0729
尊號	-11.073
帝命	-11.0732
同僚	-11.0737
韓退之	-11.0739
惻	-11.0739
隗	-11.0741
瑄	-11.0741
巒	-11.0742
旺	-11.0743
鎗	-11.0743
甦	-11.0745
踣	-11.0745
暄	-11.0745
筍	-11.0746
姓字	-11.0747
耳今	-11.0747
糟	-11.0748
諂	-11.0748
嵇	-11.0748
賃	-11.0749
肩輿	-11.0749
术	-11.075
塼	-11.075
餽	-11.0751
冗	-11.0752
敇	-11.0752
嬖	-11.0753
放還	-11.0753
煒	-11.0753
釜	-11.0753
熹	-11.0754
祈禱	-11.0755
墀	-11.0755
瘴	-11.0755
猗	-11.0755
論事	-11.0756
疽	-11.0756
也且	-11.0757
彚	-11.0757
扆	-11.0757
校書郎	-11.0757
為政	-11.0757
坂	-11.0759
天性	-11.076
隱居	-11.076
翥	-11.0761
燈燭	-11.0761
堊	-11.0761
過此	-11.0761
雜事之屬	-11.0762
禮部尚書	-11.0765
元禮	-11.0766
禮拜	-11.077
王戎	-11.0777
之舊	-11.0778
誤也	-11.0779
未足	-11.0781
七人	-11.0781
輔國	-11.0781
記得	-11.0783
甚惡之	-11.0784
譏之	-11.0785
以為常	-11.0788
解衣	-11.079
桃花	-11.0791
之分	-11.0793
李元	-11.0795
金帶	-11.0798
嶺外	-11.0799
而赤	-11.08
形容	-11.0802
云爾	-11.0803
十九年	-11.0812
萬嵗	-11.0813
腹心	-11.0813
仞	-11.0814
三軍	-11.0815
視之則	-11.0816
得官	-11.0817
𫝊曰	-11.082
吕公	-11.082
後月餘	-11.0821
字彦	-11.0823
裴度	-11.0825
之由	-11.083
作樂	-11.0831
曰請	-11.0833
下車	-11.0834
必須	-11.0835
非吾	-11.0836
録曰	-11.0837
報之	-11.0842
入于	-11.0842
潞州	-11.0842
深入	-11.0842
不令	-11.0844
華陽	-11.0845
每以	-11.0847
叶	-11.0849
醫者	-11.0851
斷其	-11.0851
北歸	-11.0856
東有	-11.0857
花木	-11.0857
今欲	-11.0859
即今	-11.0861
欲求	-11.0861
將出	-11.0865
坐中	-11.0866
遊於	-11.0867
奏云	-11.087
瑟	-11.0871
有詔	-11.0872
寂然	-11.0877
汭	-11.0877
穹	-11.0879
扃	-11.088
拉	-11.0881
見在	-11.0881
蔑	-11.0882
王仲	-11.0882
遑	-11.0882
袴	-11.0883
醖	-11.0883
皋	-11.0883
復問	-11.0885
始末	-11.0885
隕	-11.0886
常見	-11.0886
無餘	-11.0887
駞	-11.0887
逡廵	-11.0887
青鳥	-11.0888
鷺	-11.0888
櫻桃	-11.0889
断	-11.0889
丁晉公	-11.089
葫蘆	-11.089
羿	-11.089
閫	-11.0891
醪	-11.0891
人力	-11.0892
箔	-11.0892
愽	-11.0894
入禁中	-11.0896
歘	-11.0896
穆天子傳	-11.0897
今世	-11.0898
叟曰	-11.09
並無	-11.0901
怒而	-11.0907
登庸	-11.0915
稽首	-11.0915
二府	-11.0916
不悟	-11.0917
昭王	-11.0918
者雖	-11.0919
孫氏	-11.0922
其可	-11.0925
吾今	-11.0926
不自安	-11.0928
親見	-11.0928
村落	-11.0931
修撰	-11.0937
君子之	-11.0937
其上有	-11.0938
被誅	-11.0938
千百	-11.0941
里正	-11.0941
至尊	-11.0943
罷去	-11.0943
入洛	-11.0944
異時	-11.0944
往往有	-11.0947
入海	-11.0947
不變	-11.0951
引之	-11.0952
與李	-11.0953
唐李	-11.0956
字公	-11.0957
食訖	-11.0959
以道	-11.0962
軍人	-11.0965
賢良	-11.0965
還至	-11.0967
投於	-11.0967
本名	-11.0969
不作	-11.0972
地上	-11.0972
持一	-11.0973
必是	-11.0974
是何人	-11.0975
訝之	-11.0975
陽城	-11.0977
銘曰	-11.0987
諺	-11.099
有古	-11.0992
果見	-11.0994
麝	-11.0996
甚矣	-11.0996
年九月	-11.0997
欲取	-11.0997
多士	-11.0999
世有	-11.1
處置	-11.1004
到此	-11.1007
昊	-11.1008
有婦人	-11.1012
白虎	-11.1012
置一	-11.1015
鬟	-11.1016
塑	-11.1016
命取	-11.1017
公弼	-11.1017
瓦礫	-11.1018
猛獸	-11.1018
曦	-11.102
翦	-11.102
諸客	-11.1021
適有	-11.1022
萬貫	-11.1022
鼉	-11.1022
撾	-11.1022
不衰	-11.1022
徇	-11.1025
東山	-11.1025
亡後	-11.1026
大石	-11.1028
太常博士	-11.1029
賭	-11.1029
繕	-11.1029
鉛	-11.103
二十一	-11.1031
科舉	-11.1031
頲	-11.1031
謩	-11.1032
馥	-11.1032
麋	-11.1033
知縣	-11.1033
畧無	-11.1034
九齡	-11.1034
錮	-11.1034
未之	-11.1035
飡	-11.1035
蒼梧	-11.1035
但言	-11.1035
忽於	-11.1035
小女	-11.1038
鯉魚	-11.1038
子女	-11.104
素與	-11.104
其陰多	-11.104
討之	-11.1043
不能得	-11.1045
積薪	-11.1045
服藥	-11.1047
之色	-11.1049
迄今	-11.105
其側	-11.105
已亡	-11.105
我家	-11.1056
莫測	-11.1056
汝州	-11.1057
天意	-11.1059
數寸	-11.1059
晦叔	-11.1062
忽覺	-11.1063
顧左右	-11.1064
二百餘	-11.1064
不拘	-11.1065
笑曰此	-11.1067
嘗語	-11.1069
為僧	-11.1076
所稱	-11.1077
百尺	-11.1077
以杖	-11.1077
是誰	-11.1078
奏上	-11.1079
無雙	-11.1079
雲雨	-11.108
可知矣	-11.1082
日者	-11.1082
一角	-11.1082
乃於	-11.1084
不誣	-11.1085
進之	-11.1087
自隨	-11.1087
甚偉	-11.1092
之室	-11.1093
一兩	-11.1093
亦同	-11.1096
以觀	-11.1097
者衆	-11.1103
而遣之	-11.1103
夜行	-11.1104
此輩	-11.1106
家中	-11.1107
昌言	-11.1108
一方	-11.1115
長短	-11.1117
良久乃	-11.1122
儒學	-11.1126
帳中	-11.1126
火燒	-11.1127
浹	-11.1131
汝何	-11.1133
故云	-11.1133
太和中	-11.1134
二里	-11.1135
以罪	-11.1138
一首	-11.1142
雖無	-11.1143
州城	-11.1146
知己	-11.1152
之臣	-11.1153
蘄	-11.1157
冐	-11.1158
娃	-11.1159
年七月	-11.1162
梢	-11.1162
牕	-11.1162
馨	-11.1162
冉	-11.1164
曾祖	-11.1165
廖	-11.1166
婿	-11.1166
竝	-11.1167
者是也	-11.1167
人倫	-11.1168
終始	-11.1169
樗	-11.1169
從弟	-11.1171
耐	-11.1171
光禄大夫	-11.1172
咒	-11.1174
四明	-11.1174
信州	-11.1175
賑	-11.1175
轂	-11.1176
其辭	-11.1177
晡	-11.1177
吕氏	-11.1178
俯伏	-11.118
加以	-11.1181
十五里	-11.1181
每有	-11.1181
昆弟	-11.1184
其行	-11.1186
歹	-11.1189
鄧州	-11.1192
元豐中	-11.1193
水其中多	-11.1194
得志	-11.12
不還	-11.1201
都堂	-11.1201
靈武	-11.1201
流俗	-11.1202
錦繡	-11.1203
三司使	-11.1203
學士院	-11.1204
拜之	-11.1207
同郡	-11.1208
召對	-11.1212
六尺	-11.1213
袖中	-11.1214
八座	-11.1216
正當	-11.1217
鴈門	-11.1218
安定	-11.1222
年三十	-11.1226
甚善	-11.1229
恩澤	-11.1231
或以為	-11.1234
誤矣	-11.1235
我何	-11.1237
雲霧	-11.1238
無間	-11.124
至期	-11.1241
議者以	-11.1242
經營	-11.1244
累月	-11.1249
三嵗	-11.125
遁去	-11.1254
必得	-11.1257
相得	-11.1257
應聲曰	-11.1258
宫闕	-11.1269
宅中	-11.127
省試	-11.127
國忠	-11.1278
陸費墀欽定四庫全書	-11.1284
楚州	-11.1286
之弊	-11.1286
豈無	-11.1292
嵓	-11.1293
者悉	-11.1293
文簡	-11.1296
暹	-11.1297
隄	-11.1299
自今	-11.1302
江上	-11.1302
莫有	-11.1303
絛	-11.1303
來日	-11.1303
茲	-11.1304
手執	-11.1305
帆	-11.1306
嵐	-11.1307
甜	-11.1307
溷	-11.1307
硬	-11.1307
贑	-11.1308
剽	-11.1308
揣	-11.1309
題其	-11.131
登極	-11.1312
件	-11.1312
兢	-11.1313
錄事	-11.1313
富家	-11.1314
汀	-11.1314
涌	-11.1314
擠	-11.1314
遼東	-11.1315
楯	-11.1316
天文	-11.1316
跳躍	-11.1317
獄中	-11.1319
筆硯	-11.132
刺之	-11.132
祝融	-11.1322
揚雄	-11.1322
京官	-11.1323
廸	-11.1324
昕	-11.1325
鹽鐵	-11.1325
少游	-11.1326
兩浙	-11.1326
但聞	-11.1327
㕘軍	-11.1327
秦始皇	-11.1327
人不知	-11.1329
許諾	-11.1331
京兆府	-11.1332
吏卒	-11.1332
數十步	-11.1337
留意	-11.134
之謀	-11.1342
中間	-11.1348
年九十	-11.1354
職事	-11.1355
造化	-11.1356
一寸	-11.1356
顔子	-11.136
二十萬	-11.1362
伯玉	-11.1369
堯夫	-11.1372
山甫	-11.1373
則知	-11.138
才學	-11.138
所重	-11.138
晉卿	-11.1381
左遷	-11.1381
安有	-11.1382
俗謂之	-11.1383
天門	-11.1385
傳之	-11.1389
錢帛	-11.1391
成帝	-11.1392
所撰	-11.1395
崇文	-11.1397
未暇	-11.1397
臣僚	-11.1401
可取	-11.1402
而問之	-11.1402
其族	-11.1403
將帥	-11.1404
天祐	-11.1408
夜深	-11.141
不寐	-11.141
相國寺	-11.1415
王家	-11.1416
孫權	-11.1417
三足	-11.1425
照之	-11.1425
在翰林	-11.1428
聖主	-11.1429
小舟	-11.1431
何可	-11.1439
便可	-11.1442
壬辰	-11.1442
雹	-11.1445
轎	-11.1446
其旁	-11.1448
殽	-11.1451
袈裟	-11.1451
緝	-11.1452
武功	-11.1452
廙	-11.1452
彫	-11.1453
三分	-11.1453
門者	-11.1453
叅知政事	-11.1454
暈	-11.1454
神色	-11.1454
甚異	-11.1455
緇	-11.1455
鴻臚	-11.1456
幞頭	-11.1456
内人	-11.1456
瞰	-11.1457
睹	-11.1457
石頭	-11.1457
圖書	-11.1457
簒	-11.1457
糾	-11.1458
桀	-11.146
逈	-11.146
无	-11.146
麒麟	-11.1462
至門	-11.1463
孔雀	-11.1463
林公	-11.1463
遲明	-11.1464
腊	-11.1464
中書舎人	-11.1464
惶恐	-11.1467
僕夫	-11.1468
不爲	-11.1471
其來	-11.1472
太常卿	-11.1472
艱難	-11.1473
所造	-11.1473
物色	-11.1475
雍州	-11.1476
謂曰汝	-11.148
故謂之	-11.1482
樞密使	-11.1483
舉兵	-11.1483
不數日	-11.1484
出行	-11.1484
每嵗	-11.1486
不遇	-11.1486
穆王	-11.1487
患之	-11.149
詞賦	-11.1497
學生	-11.1498
退居	-11.1503
百歩	-11.1503
同日	-11.151
不恱	-11.1511
能知	-11.1514
十千	-11.1517
武侯	-11.152
問訊	-11.1523
家居	-11.1525
卜者	-11.1526
始悟	-11.1538
所取	-11.1541
死人	-11.1542
之數	-11.1542
八分	-11.1543
祀之	-11.1543
有力	-11.1544
留心	-11.1545
潔白	-11.1548
及曉	-11.1549
出獨	-11.1551
文辭	-11.1553
何謂	-11.1557
海陵	-11.1558
臣下	-11.1558
第六	-11.1561
慶厯中	-11.1562
皆用	-11.1565
安縣	-11.1565
乃至	-11.1568
夜光	-11.157
朱門	-11.157
玉環	-11.1571
直上	-11.1571
兄子	-11.1575
其親	-11.1577
庾公	-11.1581
其末	-11.159
各以	-11.1591
某官	-11.1592
道士曰	-11.1593
禆	-11.1594
大木	-11.1596
淘	-11.1597
出逸	-11.1597
故得	-11.1597
而殺之	-11.1598
臍	-11.1599
繹	-11.1599
窗	-11.1599
龐	-11.16
矧	-11.16
謠	-11.16
舫	-11.16
聿	-11.1601
薩	-11.1601
碣	-11.1601
巫山	-11.1601
撮	-11.1601
丹砂	-11.1602
趾	-11.1602
薑	-11.1602
苕	-11.1602
隳	-11.1602
鈐轄	-11.1602
搢紳	-11.1603
驍	-11.1603
坐上	-11.1604
僵	-11.1605
不知何許人	-11.1605
涿	-11.1605
譎	-11.1605
聮	-11.1606
蹲	-11.1606
璣	-11.1606
倨	-11.1607
鴆	-11.1607
雱	-11.1607
旌旗	-11.1608
謳	-11.1609
卷一	-11.161
鷂	-11.161
𫀆	-11.1611
楊國忠	-11.1612
肱	-11.1613
父兄	-11.1614
匈奴	-11.1615
其草多	-11.1618
中有人	-11.1619
襆	-11.1624
上章	-11.1625
近年	-11.1626
書與	-11.1631
其衣	-11.1634
辟為	-11.1635
食肉	-11.1637
無計	-11.1639
曰夫人	-11.164
不曾	-11.1644
進呈	-11.1646
鄂州	-11.1647
将軍	-11.1648
太公	-11.1648
罵曰	-11.1648
君房	-11.1649
天順	-11.1649
舅姑	-11.165
郭氏	-11.165
行於世	-11.1655
執手	-11.1655
名氏	-11.1658
三十二	-11.1661
精妙	-11.1663
永叔	-11.1663
岸上	-11.1664
來往	-11.1664
閤下	-11.1669
下筆	-11.167
保安	-11.1683
在内	-11.1685
藏於	-11.1686
燒之	-11.1686
者葢	-11.1687
屋宇	-11.1687
一種	-11.1689
髙士	-11.169
風雷	-11.1698
大江	-11.1699
劉尹	-11.17
瘞之	-11.1701
謝安	-11.1702
每遇	-11.1703
與俱	-11.1706
未竟	-11.1709
長揖	-11.1713
東風	-11.1713
不滿	-11.1713
避地	-11.1716
黄庭	-11.1718
赴舉	-11.1719
禹玉	-11.1719
巫者	-11.1722
冀公	-11.1723
太極	-11.1724
率皆	-11.1724
景龍	-11.1725
臣聞	-11.1725
著作	-11.1731
文集	-11.1735
無功	-11.1736
裾	-11.1739
逺方	-11.174
文敏	-11.1745
粘	-11.1745
涪	-11.1747
義理	-11.1747
紆	-11.1747
恐是	-11.1748
剌	-11.1749
鋤	-11.1749
闥	-11.175
聦	-11.175
水經	-11.175
時政	-11.1751
苞	-11.1751
値	-11.1751
舛	-11.1752
䏻	-11.1752
水銀	-11.1753
鍼	-11.1753
頡	-11.1753
泝	-11.1754
獺	-11.1754
靳	-11.1754
酧	-11.1754
狄仁傑	-11.1754
埃	-11.1754
鶉	-11.1754
撞	-11.1754
勺	-11.1755
稠	-11.1756
固請	-11.1757
曄	-11.1757
瞑目	-11.1759
京都	-11.176
甲午	-11.1761
辭謝	-11.1764
乃作	-11.1766
假寐	-11.1766
議事	-11.1768
翰墨	-11.1768
每一	-11.1768
右手	-11.1771
神靈	-11.1771
如玉	-11.1773
長二尺	-11.1774
單衣	-11.1775
不啻	-11.1776
同歸	-11.1778
行止	-11.1782
之儀	-11.1782
一錢	-11.1784
之望	-11.1784
忽不見	-11.1785
委曲	-11.1786
趙普	-11.179
梅花	-11.1791
車中	-11.1791
江山	-11.1793
中選	-11.1795
從來	-11.1796
乃引	-11.1799
王右軍	-11.1803
歸去	-11.1805
飾以	-11.1808
王老	-11.1808
水精	-11.1809
與劉	-11.1809
儒生	-11.1811
一夕夢	-11.1819
親舊	-11.1819
樓臺	-11.182
囊中	-11.1821
太僕	-11.1821
接之	-11.1824
效之	-11.1829
願陛下	-11.1829
先天	-11.183
昭陵	-11.1831
士良	-11.1833
列於	-11.1834
今當	-11.1838
公侯	-11.1845
何能	-11.1846
殿試	-11.1847
成化	-11.1848
制科	-11.1851
官屬	-11.1854
不治	-11.1858
至一處	-11.186
堂下	-11.186
君當	-11.186
譬	-11.1866
百斤	-11.1867
諸賢	-11.1868
訊之	-11.1868
猶子	-11.1868
美女	-11.1869
昔年	-11.1869
擒之	-11.1874
孝經	-11.1878
春夏	-11.1878
南遷	-11.1879
諸郡	-11.1882
祥符	-11.1883
金華	-11.1883
城内	-11.1884
鼓吹	-11.1886
明州	-11.1894
著述	-11.1895
璆	-11.1897
声	-11.1897
忽遇	-11.1897
問左右	-11.1899
椅	-11.1899
麴	-11.19
熖	-11.19
康節先公	-11.19
筒	-11.1901
塵埃	-11.1901
亦復	-11.1901
唐詩紀事曰	-11.1903
冉冉	-11.1903
湍	-11.1904
先輩	-11.1904
鈍	-11.1905
殃	-11.1905
砥	-11.1906
庚辰	-11.1906
雄黄	-11.1907
不果	-11.1907
手持	-11.1908
蝕	-11.1909
晃	-11.1909
睢陽	-11.191
柯古	-11.1911
剔	-11.1911
騎馬	-11.1913
持金剛經	-11.1913
㸑	-11.1914
佛殿	-11.1916
松栢	-11.1916
宋璟	-11.1916
當復	-11.1918
道家	-11.1921
忻然	-11.1923
希夷	-11.1923
歎其	-11.1925
何異	-11.1929
歴歴	-11.1932
領軍	-11.1932
從兄	-11.1933
顧視	-11.1936
信然	-11.194
既寤	-11.1942
來迎	-11.1942
數倍	-11.1947
次年	-11.1949
土木	-11.1949
公私	-11.1954
以為異	-11.1955
神祠	-11.196
延英	-11.1961
張口	-11.1961
河西	-11.1961
寸許	-11.1961
手中	-11.1962
未免	-11.1963
積石	-11.1964
英公	-11.1964
而斃	-11.1965
一代	-11.1966
遂止	-11.1967
皆然	-11.1967
多言	-11.1973
少尹	-11.1977
秋風	-11.198
手詔	-11.1981
絶倒	-11.1982
視之見	-11.1987
出報	-11.1988
赴任	-11.1996
他處	-11.1996
右相	-11.1999
自東	-11.2
大厯	-11.2001
貟外	-11.2005
而前	-11.2009
不離	-11.2009
室内	-11.2012
死罪	-11.2012
嘗云	-11.2014
貯之	-11.2018
無名	-11.202
山神	-11.2021
南中	-11.2021
汝可	-11.2024
不息	-11.203
其㫖	-11.2032
一紙	-11.2035
徐徐	-11.2037
一粒	-11.204
南岳	-11.2042
不能言	-11.2043
言笑	-11.2044
在其中	-11.2044
昔人	-11.2047
鮓	-11.2047
躋	-11.2048
摯	-11.2049
錐	-11.2052
熒	-11.2053
纏	-11.2053
溉	-11.2055
驂	-11.2055
潯陽	-11.2055
蚊	-11.2056
黄色	-11.2056
聯	-11.2056
㐮	-11.2057
燾	-11.2057
呻吟	-11.2058
鼓琴	-11.2058
位極人臣	-11.2058
彈琴	-11.2059
洛下	-11.206
甃	-11.206
㪚	-11.206
糊	-11.206
盡矣	-11.2061
謁者	-11.2062
干戈	-11.2062
同官	-11.2063
蘇子瞻	-11.2064
大義	-11.2064
俄聞	-11.2064
無心	-11.2064
杖之	-11.2064
酒肆	-11.2065
竟不知	-11.2065
州長史	-11.2066
杻	-11.2067
讜	-11.2071
涇原	-11.2071
漢陽	-11.2072
童貫	-11.2073
老嫗	-11.2073
母子	-11.2073
舊事	-11.2074
龍腦	-11.2077
鏐	-11.2078
者多矣	-11.2083
遂於	-11.2084
通鑑	-11.2085
梁武帝	-11.2088
按察	-11.2091
公論	-11.2093
姿色	-11.2094
受禪	-11.2095
俄見	-11.2097
北征	-11.2098
不曽	-11.2099
太湖	-11.2101
羣僧	-11.2102
號哭	-11.2103
紫色	-11.2106
此僧	-11.2109
嘉其	-11.211
固無	-11.2112
班固	-11.2112
少許	-11.2115
石榴	-11.2116
弟兄	-11.2118
眞宗	-11.212
所愛	-11.2121
軍民	-11.2121
物皆	-11.2122
對以	-11.2124
命酒	-11.2125
二王	-11.2126
魏王	-11.2128
智興	-11.213
汲水	-11.2134
大官	-11.2135
天府	-11.2136
行省	-11.2138
君王	-11.2139
都監	-11.2147
金色	-11.2152
爲相	-11.2154
持正	-11.2156
歸朝	-11.2162
舒州	-11.2163
相報	-11.2164
踰年	-11.2165
形勢	-11.2168
鎮江	-11.2168
前生	-11.2171
好古	-11.2173
邊事	-11.2175
北斗	-11.2175
歡笑	-11.2177
境内	-11.2178
庶人	-11.2182
餘皆	-11.2184
李君	-11.219
居于	-11.2192
朝議	-11.2193
相從	-11.2196
諶	-11.2199
舄	-11.2199
殖	-11.22
澳	-11.2201
當路	-11.2201
嵗時	-11.2203
癖	-11.2204
嘔	-11.2205
休璟	-11.2206
棚	-11.2207
應對	-11.2208
槌	-11.2209
曝	-11.221
褰	-11.2211
水晶	-11.2212
弛	-11.2213
墅	-11.2214
刳	-11.2214
鷗	-11.2214
明矣	-11.2214
雒	-11.2214
髀	-11.2215
盲	-11.2215
欒	-11.2216
攪	-11.2216
組	-11.2216
庚申	-11.2217
以濟	-11.2217
瘳	-11.2217
楼	-11.2218
山陵	-11.2221
零陵	-11.2222
甲辰	-11.2223
武士	-11.2225
煞	-11.2226
長於	-11.2226
孝亷	-11.2227
所遇	-11.2229
憂之	-11.2231
内府	-11.2234
功業	-11.2234
堯佐	-11.2235
祭祀	-11.2236
潞	-11.2236
天水	-11.2236
無差	-11.2237
靈異	-11.2238
病卒	-11.2239
共語	-11.224
七尺	-11.2242
于外	-11.2243
鄰里	-11.2245
人呼為	-11.2246
貢父	-11.2248
韋公	-11.2248
三思	-11.2249
自愛	-11.225
意謂	-11.225
文忠公	-11.2251
物故	-11.2253
為天子	-11.2253
賣藥	-11.2254
吳生	-11.2254
不仕	-11.2255
明堂	-11.226
大名	-11.2263
欲使	-11.2264
官制	-11.2269
字道	-11.2269
得意	-11.2271
一頭	-11.2271
非我	-11.2272
獲罪	-11.2274
驪山	-11.2275
嗟乎	-11.2275
娠	-11.2276
其體	-11.2279
有識	-11.2279
兩朝	-11.228
在側	-11.2283
謀反	-11.2284
建業	-11.2286
其傍	-11.2289
晨起	-11.2289
而愈	-11.2289
此本	-11.229
五丈	-11.229
卷三	-11.229
覺其	-11.2292
馬前	-11.2292
本是	-11.2293
女嫁	-11.2295
不朽	-11.2295
知我	-11.2295
非人間	-11.2296
石壁	-11.23
火光	-11.2302
本州	-11.2303
者輒	-11.2305
白於	-11.2306
今改	-11.2307
無一人	-11.2308
百八十	-11.2309
有士人	-11.231
以他	-11.231
在京師	-11.2311
答之	-11.2312
鄆	-11.2315
不交	-11.2322
真定	-11.2323
于庭	-11.2326
方平	-11.2328
襄州	-11.233
栁氏	-11.2331
如晝	-11.2335
即時	-11.2337
齋戒	-11.2337
鮮于	-11.2338
卿等	-11.2346
俟其	-11.2351
果至	-11.2354
立于	-11.2354
謝恩	-11.2358
之勝	-11.236
周易	-11.2361
吳中	-11.2361
所説	-11.2361
之資	-11.2365
埽	-11.2366
文度	-11.2366
迸	-11.2368
神道碑	-11.2369
軻	-11.2369
蘂	-11.2369
驃騎	-11.237
蝦蟇	-11.237
酪	-11.2371
豢	-11.2373
俎	-11.2373
珥	-11.2374
登山	-11.2375
喏	-11.2377
譛	-11.2377
名之曰	-11.2377
軼	-11.2378
不進	-11.2379
稱是	-11.2379
佗	-11.238
亦謂之	-11.2381
害之	-11.2381
褊	-11.2381
嵇康	-11.2382
璹	-11.2383
出唐	-11.2383
在朝	-11.2383
裴晉公	-11.2384
具陳	-11.2385
章子厚	-11.2385
希烈	-11.2386
中第	-11.2386
閩中	-11.2387
押衙	-11.2388
然有聲	-11.2389
至於此	-11.2397
于闐	-11.2399
九天	-11.24
忽有一人	-11.2401
猶可	-11.2401
彼此	-11.2403
牀前	-11.2404
撫州	-11.2405
宣諭	-11.2406
二十九	-11.2407
徑入	-11.2409
館閣	-11.241
當是時	-11.2414
子春	-11.2415
前行	-11.2415
河南府	-11.2415
太息	-11.2418
出户	-11.242
衞公	-11.242
長一丈	-11.243
元和初	-11.2431
舊作	-11.2436
不可測	-11.2436
船中	-11.2438
到官	-11.2438
張易之	-11.244
所畫	-11.2441
評事	-11.2445
舍利	-11.2445
前此	-11.245
嘉祐中	-11.2451
引至	-11.2452
何官	-11.2456
圖經	-11.2459
善畫	-11.246
開元初	-11.2462
為學士	-11.2464
盛徳	-11.2471
郡有	-11.2472
數千里	-11.2473
所費	-11.2475
宗正	-11.2476
岐王	-11.2478
洞天	-11.2478
引去	-11.2481
定州	-11.2482
一嵗	-11.2482
過於	-11.2482
仲文	-11.2482
不允	-11.2484
不救	-11.2488
風月	-11.2489
和氣	-11.2494
不𩔖	-11.2497
敏求	-11.2499
之戒	-11.2499
三十餘年	-11.2501
闐	-11.2501
苑中	-11.2503
茫	-11.2509
給使	-11.251
蜀郡	-11.2513
斐	-11.2517
老君	-11.2519
夸	-11.2519
盧生	-11.252
為郡	-11.2522
紱	-11.2524
峙	-11.2525
嘶	-11.2526
駟	-11.2526
紹興中	-11.2527
搗	-11.2528
懶	-11.2528
鋸	-11.2529
常言	-11.253
拈	-11.2531
廿	-11.2532
掬	-11.2532
團練	-11.2532
恊	-11.2532
不可勝數	-11.2533
抃	-11.2535
怙	-11.2535
弃	-11.2536
靑	-11.2536
笋	-11.2537
蜃	-11.2537
殫	-11.2537
蓍	-11.2538
跛	-11.2538
覊	-11.2539
聾	-11.2539
孜	-11.2541
黷	-11.2542
珉	-11.2543
設食	-11.2544
魏志曰	-11.2545
軍容	-11.2545
谷中	-11.2547
屋上	-11.2547
女奴	-11.2548
年號	-11.2549
淮海	-11.2549
姿容	-11.2549
仁軌	-11.2549
引見	-11.2554
盛暑	-11.2554
八十餘	-11.2555
殷勤	-11.2561
誰能	-11.2561
外甥	-11.2566
論曰	-11.2568
採藥	-11.2569
矣於是	-11.2571
無辜	-11.2573
所須	-11.2575
甘泉	-11.2576
葬於	-11.2578
入仕	-11.2579
景徳	-11.2579
親知	-11.2582
異聞	-11.2583
其父母	-11.2586
宏詞	-11.2589
以為不可	-11.2592
出㝠	-11.2592
本傳	-11.2593
酒家	-11.2594
術數	-11.2595
如此則	-11.2596
光照	-11.2598
而觀之	-11.2598
玉山	-11.2599
既覺	-11.2601
出盧氏	-11.2604
叩門	-11.2605
在蜀	-11.2605
又南	-11.2608
棄官	-11.2613
妓女	-11.2617
夜分	-11.2618
驚歎	-11.2621
先見	-11.2625
紫雲	-11.2626
相府	-11.2627
甚髙	-11.263
更相	-11.2631
博物	-11.2633
驪	-11.2642
運使	-11.2643
故舊	-11.2643
吳王	-11.2644
共工	-11.2647
徙居	-11.2648
二君	-11.265
於斯	-11.2651
有女子	-11.2654
名家	-11.2654
勝負	-11.2655
别去	-11.2657
舊本	-11.2658
未合	-11.266
甚苦	-11.2661
泣而	-11.2662
悉是	-11.2662
乾符	-11.2664
東川	-11.2665
也昔	-11.267
崖州	-11.2672
慨	-11.2674
踰月	-11.2674
㩀	-11.2682
曰相公	-11.2684
卷四	-11.2684
心痛	-11.2686
縻	-11.2686
查	-11.2686
縝	-11.2687
瘧	-11.2689
掉	-11.2689
鸛	-11.269
净	-11.2691
脆	-11.2691
颺	-11.2692
絞	-11.2693
簟	-11.2694
崗	-11.2694
大梁	-11.2695
傘	-11.2696
簇	-11.2696
驚問	-11.2696
自來	-11.2696
崟	-11.2697
杓	-11.2697
晷	-11.2697
豔	-11.2697
䨇	-11.2697
悪	-11.2697
捽	-11.2698
囓	-11.2699
拖	-11.2699
盎	-11.2701
湼	-11.2701
譁	-11.2701
拏	-11.2701
上黨	-11.2702
已得	-11.2702
許州	-11.2703
狀元及第	-11.2704
寺門	-11.2705
慤	-11.2705
斌	-11.2705
糠	-11.2706
俛首	-11.2706
復命	-11.2707
山河	-11.2709
鮫	-11.271
羣玉	-11.2711
嶮	-11.2713
除名	-11.2716
而不言	-11.2716
都統	-11.2717
百數	-11.2717
百司	-11.2718
無畏	-11.2718
未審	-11.2726
不見其	-11.2727
竟日	-11.2727
江表	-11.2727
無苦	-11.2728
二千石	-11.273
師事	-11.2732
天監	-11.2735
東坡先生	-11.2736
往視	-11.2738
君謨	-11.2739
祿山	-11.2739
黄衫	-11.2749
田中	-11.2749
紫微	-11.2757
青山	-11.2757
邕州	-11.276
汾陽	-11.2761
不報	-11.2762
二丈	-11.2762
焚其	-11.2764
四十八	-11.2765
老矣	-11.2767
其僕	-11.2767
以銀	-11.2768
改官	-11.2773
丙子	-11.2774
每年	-11.2775
畏之	-11.2775
國獻	-11.2778
冠帶	-11.278
覩其	-11.2781
奏對	-11.2782
世衡	-11.2782
閩人	-11.2783
百六十	-11.2784
鄭州	-11.2784
背上	-11.2785
浩然	-11.2786
不對	-11.2793
出啓	-11.2795
二客	-11.2795
偽蜀	-11.2795
本國	-11.2796
出自	-11.2798
城郭	-11.28
館於	-11.2801
同舍	-11.2804
石刻	-11.2804
覘之	-11.2807
意氣	-11.2808
當今	-11.2809
景仁	-11.281
所部	-11.2813
猶能	-11.2818
一箇	-11.2819
在人間	-11.282
衡陽	-11.2822
即愈	-11.2822
郡太守	-11.2822
所失	-11.2824
有一物	-11.2825
東洛	-11.2829
嘉之	-11.283
一部	-11.283
獄吏	-11.2831
求救	-11.2831
不任	-11.2832
兩京	-11.2834
子姪	-11.2835
聖朝	-11.2835
之疾	-11.2835
奪其	-11.2836
紀曰	-11.2836
誓不	-11.2838
户外	-11.2841
題目	-11.2841
三里	-11.2844
科名	-11.2844
禁止	-11.2844
神考	-11.2846
司馬光	-11.2847
東向	-11.2848
新安	-11.2849
頗多	-11.2854
秤	-11.2854
身後	-11.2857
滁州	-11.2857
飛入	-11.2857
生平	-11.2858
親王	-11.2859
轉運	-11.2859
踴	-11.2859
寂寞	-11.2859
乗之	-11.286
惰	-11.2861
熏	-11.2861
金甲	-11.2862
牡	-11.2863
噀	-11.2863
幙	-11.2863
劈	-11.2863
澁	-11.2865
筌	-11.2865
柞	-11.2865
庾亮	-11.2865
彎	-11.2867
䄂	-11.2867
抹	-11.2868
俚	-11.2868
文選	-11.2868
柬	-11.2868
故實	-11.2869
不可言	-11.2869
綉	-11.2869
鶚	-11.287
行次	-11.2875
朋黨	-11.2875
所忌	-11.2875
鵬舉	-11.2879
嘉定	-11.2879
之山無草木多	-11.288
差遣	-11.288
閉户	-11.2882
汝等	-11.2882
張九齡	-11.2886
白色	-11.2887
灌之	-11.2889
辛苦	-11.289
姚崇	-11.2892
尤善	-11.2896
緑衣	-11.2896
寧王	-11.2897
建隆	-11.2901
不能對	-11.2902
好酒	-11.2903
者莫不	-11.2903
所願	-11.2909
黄昏	-11.2909
後三日	-11.2916
畫地	-11.2918
地仙	-11.2919
起家	-11.292
同姓	-11.2925
州牧	-11.2925
金紫	-11.2927
還朝	-11.2929
永州	-11.293
居處	-11.2932
以竹	-11.2933
葉似	-11.2933
世謂	-11.2936
既歸	-11.2937
楚王	-11.2938
元章	-11.2943
嫁之	-11.2946
中尉	-11.2948
惜乎	-11.2951
加禮	-11.2951
侍兒	-11.2951
不獨	-11.2955
哭之	-11.2957
朱紫	-11.2957
之迹	-11.2958
五月五日	-11.2958
三藏	-11.2961
故名	-11.2965
梁公	-11.2965
安居	-11.2966
怪録	-11.2967
忠獻	-11.2967
頗為	-11.2968
柰	-11.297
衢州	-11.2971
百丈	-11.2972
半月	-11.2973
令左右	-11.2978
絶無	-11.2981
究其	-11.2982
固當	-11.2985
求見	-11.299
遣吏	-11.2998
家富	-11.3001
矣而	-11.3002
久之乃	-11.3005
顧見	-11.3007
無慮	-11.301
主僧	-11.301
怪其	-11.3011
嵗月	-11.3012
夏月	-11.3012
義士	-11.3015
彦伯	-11.3015
近時	-11.3019
不審	-11.3019
歳餘	-11.302
奪之	-11.3021
卧内	-11.3022
竹林	-11.3023
太平廣記	-11.3023
叉	-11.3025
撼	-11.3027
愠	-11.3028
哺	-11.3029
鯁	-11.3029
郵	-11.3029
淄	-11.3029
懾	-11.303
㟁	-11.303
外孫	-11.303
㓙	-11.3031
廣西	-11.3031
彧	-11.3031
三世	-11.3032
荆棘	-11.3033
遯	-11.3033
觥	-11.3034
瀾	-11.3035
菱	-11.3035
澶淵	-11.3036
簿書	-11.3037
秘閣	-11.3037
韭	-11.3038
訕	-11.3038
秪	-11.304
著作郎	-11.3041
囿	-11.3041
登進士第	-11.3042
吟詩	-11.3042
紺	-11.3043
帚	-11.3044
陸氏	-11.3045
夸父	-11.3048
開視	-11.3049
宗閔	-11.305
惻然	-11.3052
仲堪	-11.3052
罪人	-11.3054
太乙	-11.3054
果卒	-11.3054
已盡	-11.3057
之祥	-11.306
放牓	-11.3061
太一	-11.3062
祖母	-11.3062
至誠	-11.3062
百僚	-11.3064
封禪	-11.3065
流汗	-11.3066
交通	-11.3068
對上	-11.3068
長嘯	-11.3069
餘姚	-11.307
因為	-11.307
長卿	-11.3075
任氏	-11.3076
參議	-11.3076
皆笑	-11.3078
暴雨	-11.3079
忘其名	-11.308
入覲	-11.3082
千古	-11.3083
好食	-11.3086
伶人	-11.3086
眉目	-11.3086
而寢	-11.3091
華麗	-11.3094
一節	-11.3095
字畫	-11.3101
一章	-11.3102
頷之	-11.3104
皇天	-11.3105
軍使	-11.3108
死亡	-11.3111
守臣	-11.3112
滄	-11.3112
及覺	-11.3114
都賦	-11.3114
之力也	-11.3117
百九十	-11.3118
還鄉	-11.3121
庶子	-11.3121
見一大	-11.3121
請為	-11.3122
大率	-11.3126
李嶠	-11.3126
沛國	-11.3126
城上	-11.3128
亦如之	-11.313
几上	-11.3133
中貴人	-11.3135
曰昨	-11.3135
萬國	-11.3136
我輩	-11.314
若能	-11.314
大怒曰	-11.3148
察其	-11.3149
巨石	-11.3159
長吏	-11.3159
盛夏	-11.3164
其友	-11.3166
造次	-11.317
之節	-11.3171
而又	-11.3172
人才	-11.3172
者數四	-11.3173
闗中	-11.3174
池州	-11.318
首領	-11.3183
部員外	-11.3184
南面	-11.3189
白晝	-11.319
爨	-11.3191
號令	-11.3193
禮記	-11.3193
愉	-11.3194
鍔	-11.3195
貿	-11.3197
居常	-11.3197
淩	-11.3198
刄	-11.3198
紛紜	-11.3199
辨之	-11.3199
鉗	-11.32
睨	-11.32
㓕	-11.3201
榭	-11.3201
大呌	-11.3201
器皿	-11.3201
毓	-11.3201
影響	-11.3202
䭾	-11.3202
屣	-11.3202
欝	-11.3202
右僕射	-11.3203
禕	-11.3203
工部尚書	-11.3203
腋	-11.3204
脣	-11.3204
踊	-11.3204
紹熙	-11.3205
蛾	-11.3206
數升	-11.3206
逄	-11.3207
寂無	-11.3207
癭	-11.3207
款	-11.3208
秦㑹之	-11.3209
悄	-11.3209
老叟	-11.3209
得病	-11.3209
婚姻	-11.321
刈	-11.321
離騷	-11.321
拷	-11.321
芋	-11.3211
秉燭	-11.3212
顓	-11.3213
霆	-11.3214
校書	-11.3214
好竒	-11.3214
罷歸	-11.3215
相逢	-11.3219
莘老	-11.322
羅織	-11.322
不自勝	-11.3222
固不可	-11.3223
壬子	-11.3224
軍國	-11.3227
秉政	-11.3228
王夷甫	-11.3231
數聲	-11.3231
一百二十	-11.3232
尉遲	-11.3233
石橋	-11.3234
髙力士	-11.3237
安禄山	-11.3237
性剛	-11.324
其𩔖	-11.324
元吉	-11.3242
吹笛	-11.3244
歌詩	-11.3251
侍衛	-11.3252
廷試	-11.3252
遙見	-11.3255
齊丘	-11.3258
唱名	-11.3263
若非	-11.3265
延夀	-11.3265
伯夷	-11.3265
友議	-11.3269
骸骨	-11.3271
而蘇	-11.3273
其根	-11.3273
楊栁	-11.3274
勿令	-11.3275
太學生	-11.3279
貢院	-11.3286
陳設	-11.3286
應記	-11.3289
道塲	-11.3292
尤精	-11.3292
不豫	-11.3296
元鎮	-11.33
諸書	-11.3304
中庭	-11.3305
街中	-11.3305
回顧	-11.3307
縣界	-11.3308
三朝	-11.3309
為第一	-11.3309
寸餘	-11.331
挈家	-11.3315
一城	-11.3316
升堂	-11.3321
少遊	-11.3321
草草	-11.3324
惠帝	-11.3325
臺閣	-11.3325
大厯中	-11.3328
南門	-11.3328
日晚	-11.3333
茂實	-11.3333
有一僧	-11.3334
三丈	-11.3334
奉命	-11.3336
供給	-11.3341
後數月	-11.3342
持此	-11.3344
文詞	-11.3345
勿復	-11.3349
應制	-11.3349
五萬	-11.335
其皮	-11.3352
率多	-11.3353
别業	-11.3355
王珪	-11.3357
甲第	-11.3362
文莊	-11.3365
南村輟耕録卷之	-11.3368
遺事	-11.3369
鯤	-11.3371
佇	-11.3373
姙	-11.3374
欹	-11.3376
斵	-11.3377
趍	-11.3377
耄	-11.3377
縞	-11.3378
蹕	-11.3378
胃	-11.3378
此兒	-11.3379
天下無	-11.338
鍤	-11.338
赧	-11.3381
太陽	-11.3382
夷堅志	-11.3383
段成式	-11.3384
堕	-11.3384
褚	-11.3384
家法	-11.3384
窣	-11.3384
在相位	-11.3385
榦	-11.3385
腑	-11.3385
偓	-11.3385
琅玕	-11.3386
揮麈	-11.3386
譖	-11.3386
褁	-11.3386
氐	-11.3387
陲	-11.3387
輯	-11.3388
白居易	-11.3388
紈	-11.3389
柟	-11.3389
續晉陽秋曰	-11.339
佶	-11.339
樸	-11.339
詰旦	-11.3393
容止	-11.3393
王長史	-11.3395
侍宴	-11.3399
孔明	-11.34
所引	-11.3402
出原	-11.3403
渚宫	-11.3404
水火	-11.3405
鱗甲	-11.3405
興國	-11.3405
逾月	-11.3407
僧徒	-11.341
遂罷	-11.3411
雞鳴	-11.3411
仲翔	-11.3418
逢吉	-11.3418
長數尺	-11.3418
安用	-11.342
盡力	-11.3421
天寶中	-11.3422
知開封府	-11.3422
三國	-11.3423
書籍	-11.3424
降階	-11.3424
杜甫	-11.3425
姑蘇	-11.3427
勃然	-11.3427
都無	-11.3429
其像	-11.3429
徽之	-11.343
萬歳	-11.343
雲南	-11.3431
投刺	-11.3438
詣門	-11.3439
明珠	-11.3439
布政	-11.3441
髙陽	-11.3441
大軍	-11.3443
話録	-11.3445
呉興	-11.3446
將校	-11.3452
司法	-11.3454
世世	-11.3461
南蠻	-11.3462
畫像	-11.3462
無足	-11.3462
赤色	-11.3463
行狀	-11.3465
其第	-11.3465
求得	-11.3466
五榖	-11.3467
手書	-11.3468
九百	-11.3468
竟陵	-11.3469
他物	-11.347
小異	-11.3474
俄有一	-11.3479
士元	-11.3486
守道	-11.3487
承平	-11.3488
止于	-11.3493
忽起	-11.3494
昇平	-11.3497
既死	-11.3498
具告	-11.3499
桂州	-11.3503
欲殺	-11.3505
又東北	-11.3506
皆如其言	-11.351
聲聞	-11.3511
祝曰	-11.3518
略不	-11.3527
四十餘	-11.353
中表	-11.353
少監	-11.3533
緋衣	-11.3539
臺中	-11.3541
思逺	-11.3542
内殿	-11.3544
齊賢	-11.3546
次子	-11.3546
不假	-11.3548
藕	-11.3549
衛士	-11.3549
到家	-11.3551
剃	-11.3552
其詞曰	-11.3552
訃	-11.3552
烽	-11.3554
鑪	-11.3555
榼	-11.3555
鎧	-11.3556
制置	-11.3556
墉	-11.3557
擘	-11.3557
楨	-11.3557
萬石	-11.3558
杉	-11.3559
璿	-11.3559
正色	-11.356
餙	-11.356
甲戌	-11.356
天曹	-11.356
狠	-11.356
懈	-11.356
偵	-11.3561
譌	-11.3561
誄	-11.3562
鯨	-11.3562
煬帝	-11.3563
駕幸	-11.3564
祗候	-11.3564
悌	-11.3565
劉貢父	-11.3565
汧	-11.3565
蕈	-11.3566
欲殺之	-11.3567
食之已	-11.3568
所從來	-11.3568
章惇	-11.3572
名位	-11.3574
驚怖	-11.3574
庭前	-11.3574
凡十	-11.3575
皇祐	-11.3575
徐鉉	-11.3576
捕魚	-11.3577
三斗	-11.3578
樞密院	-11.3578
緩急	-11.3578
禹貢	-11.3579
往来	-11.3583
茂貞	-11.3585
開寳	-11.3588
十五日	-11.3588
學術	-11.3589
其利	-11.359
蘭陵	-11.3591
度世	-11.3592
酌酒	-11.3596
梁武	-11.3596
其家人	-11.3597
娶婦	-11.3597
四角	-11.36
故能	-11.36
美玉	-11.3603
一句	-11.3604
叩之	-11.3608
燒香	-11.3609
後竟	-11.3611
可喜	-11.3612
滄海	-11.3614
二人皆	-11.3615
未識	-11.3616
卧於	-11.3617
妓樂	-11.362
村中	-11.3624
廣漢	-11.3624
部落	-11.3627
三十三	-11.3633
弓射	-11.3635
玉石	-11.3636
沂公	-11.3637
康伯	-11.3639
百餘步	-11.3645
頗甚	-11.3646
清明	-11.3647
如是者	-11.3649
牛羊	-11.3649
歲餘	-11.3652
既罷	-11.3652
子野	-11.3654
北使	-11.3656
未終	-11.3659
憂懼	-11.3662
咨嗟	-11.3663
年十四	-11.3673
熈寧中	-11.3677
四顧	-11.3693
此志	-11.3699
尋訪	-11.37
蔡氏	-11.3703
夢得	-11.3708
昌宗	-11.3716
天錫	-11.3719
擇日	-11.3722
不惟	-11.3723
白鹿	-11.3723
退朝	-11.3725
杜子美	-11.373
冏	-11.3731
瑛	-11.3732
脾	-11.3734
年十五	-11.3734
癸丑	-11.3736
莫若	-11.3736
蝟	-11.3736
鹹	-11.3736
大駕	-11.3737
巔	-11.3739
芽	-11.3739
鹵	-11.3739
閎	-11.3739
顚	-11.374
剝	-11.374
籖	-11.374
瑰	-11.374
乱	-11.3741
善繼	-11.3742
􁦚	-11.3742
荔枝	-11.3742
以實告	-11.3742
蠏	-11.3743
趺	-11.3743
致政	-11.3743
銖	-11.3743
瀉	-11.3743
蒨	-11.3743
鷙	-11.3744
曰然則	-11.3744
蘇頲	-11.3744
怏怏	-11.3745
規模	-11.3745
承天	-11.3745
擣	-11.3745
蹤跡	-11.3746
淛	-11.3746
怪異	-11.3746
俯仰	-11.3747
番禺	-11.3747
襍	-11.3747
桓宣武	-11.3748
尚書左丞	-11.3748
訴于	-11.3749
茯苓	-11.375
膩	-11.375
莊周	-11.3753
螭	-11.3753
桎梏	-11.3754
供帳	-11.3761
異於常	-11.3763
幽求	-11.3764
拱手	-11.3765
老姥	-11.3765
三載	-11.3766
出迎	-11.3767
朱氏	-11.3767
閭里	-11.3769
正色曰	-11.377
姦邪	-11.3771
自縊	-11.3773
㝠司	-11.3778
太監	-11.3782
衣帶	-11.3785
文中子	-11.3786
洪水	-11.3791
掖庭	-11.3791
未易	-11.3794
丞郎	-11.3795
因留	-11.3797
也其後	-11.3797
錦衣	-11.3798
萬卷	-11.3799
為盜	-11.3799
一㸃	-11.3799
粲然	-11.3804
元祐初	-11.3804
有一女	-11.3804
弱水	-11.3807
不乆	-11.3812
開棺	-11.3815
金釵	-11.3816
交結	-11.3818
否則	-11.3824
至彼	-11.3825
黒色	-11.3826
器用	-11.3827
去國	-11.383
甚異之	-11.3832
牛頭	-11.3834
不辨	-11.3835
關中	-11.3837
名第	-11.384
明達	-11.3842
附㑹	-11.3845
學官	-11.3846
孺子	-11.3846
掌中	-11.3847
館中	-11.3851
吾輩	-11.3852
暴死	-11.3853
卷上	-11.3855
所製	-11.3857
就坐	-11.3859
出搜	-11.3862
嬪御	-11.3862
淵明	-11.3864
之士也	-11.3865
月色	-11.3871
驛吏	-11.3874
疾愈	-11.3879
殊不知	-11.3879
尚能	-11.3879
四六	-11.3882
士論	-11.3882
朔方	-11.3885
著名	-11.3887
稱賞	-11.3888
孟氏	-11.389
無狀	-11.3892
寺觀	-11.3896
短小	-11.3896
南都	-11.3899
庖人	-11.39
秦漢	-11.3902
怒甚	-11.3904
方外	-11.3905
無患	-11.3907
今古	-11.3908
州都督	-11.3909
西漢	-11.3912
玉清	-11.3912
生男	-11.3913
所不及	-11.3914
第七	-11.3916
肋	-11.3919
更衣	-11.3921
有知者	-11.3921
灸	-11.3921
紐	-11.3922
泊舟	-11.3922
肢	-11.3922
霅	-11.3923
壙	-11.3923
廪	-11.3923
摸	-11.3924
佺	-11.3924
轝	-11.3925
彖	-11.3926
襪	-11.3926
邯鄲	-11.3926
茸	-11.3926
蜕	-11.3928
駐蹕	-11.3928
才名	-11.3929
䑛	-11.3929
太皇太后	-11.393
鏃	-11.393
有識者	-11.393
文徳	-11.3931
寰	-11.3932
餗	-11.3932
蘇軾	-11.3932
蒜	-11.3932
陬	-11.3932
雞卵	-11.3932
眸	-11.3933
疵	-11.3933
義熈	-11.3933
汜	-11.3935
碗	-11.3935
讚	-11.3935
鬂	-11.3936
宣政	-11.3939
屯田	-11.394
長數寸	-11.394
既久	-11.3941
毎至	-11.3941
琴瑟	-11.3942
神物	-11.3945
援筆	-11.3947
召還	-11.3948
晉書	-11.3948
數十丈	-11.3951
不協	-11.3952
衆僧	-11.3952
吏民	-11.3953
何以知之	-11.3954
漢末	-11.3957
王侯	-11.3959
權貴	-11.396
妖怪	-11.3964
列坐	-11.3964
都官	-11.3965
宣和間	-11.3967
三十五	-11.397
政和間	-11.3971
子由	-11.3972
小童	-11.3972
去年	-11.3974
第宅	-11.3976
經筵	-11.3977
子貢	-11.3978
四川	-11.3978
女巫	-11.3979
自强	-11.3979
同遊	-11.3984
信乎	-11.3988
郊外	-11.3989
職方	-11.3992
養生	-11.3996
小娘子	-11.3998
其禍	-11.3998
奄然	-11.4002
兒童	-11.4003
天尊	-11.4004
朱書	-11.4005
智髙	-11.4006
四寸	-11.4006
分别	-11.4007
伯父	-11.4009
益甚	-11.4013
觀焉	-11.4013
鄭子	-11.4014
縣主簿	-11.4015
㕔前	-11.4016
歎曰吾	-11.4018
青城山	-11.4019
後苑	-11.4024
張說	-11.4024
其一曰	-11.4025
何須	-11.4031
不可得而	-11.4032
郡國	-11.4039
舊例	-11.4042
太宰	-11.4044
食之不	-11.4046
不省	-11.4047
建言	-11.4048
長公主	-11.4049
殺汝	-11.405
曾孫	-11.4051
厲聲曰	-11.4051
后土	-11.4052
少主	-11.4052
晉陵	-11.4053
賛曰	-11.4057
〇	-11.4058
風雲	-11.406
年二十餘	-11.4067
州别駕	-11.4067
壻也	-11.4071
諸路	-11.4073
蜀主	-11.4074
登樓	-11.4075
相連	-11.4076
縊	-11.4079
大慙	-11.4082
建封	-11.4084
表弟	-11.4084
于市	-11.4084
時人謂	-11.4084
座主	-11.4086
相應	-11.4086
漢州	-11.4087
具奏	-11.4091
亦不復	-11.4091
从	-11.4099
某等	-11.41
翎	-11.4101
蒼生	-11.4101
派	-11.4102
陜州	-11.4102
惟恐	-11.4105
港	-11.4106
炷	-11.4106
錬	-11.4106
不可曉	-11.4107
搔	-11.4108
湊	-11.4109
虀	-11.4109
藜	-11.411
狥	-11.4111
鱉	-11.4111
詩句	-11.4112
芾	-11.4113
櫛	-11.4113
筐	-11.4114
綯	-11.4116
丙午	-11.4117
攺	-11.4118
昩	-11.4118
虗	-11.4119
瀘	-11.4119
廏	-11.412
蜚	-11.4122
徂	-11.4123
德裕	-11.4123
龜年	-11.4124
無私	-11.4125
斟	-11.4125
燈火	-11.4126
璨	-11.4127
晳	-11.4127
有道術	-11.4127
鍇	-11.4128
下邳	-11.4129
五百年	-11.4131
到任	-11.4131
以實對	-11.4131
麻姑	-11.4138
二枚	-11.4138
憚之	-11.4138
後二年	-11.414
宜春	-11.414
東漢	-11.4142
昆吾	-11.4147
榻前	-11.4147
無草木多	-11.4151
恐非	-11.4152
甚佳	-11.4155
中央	-11.4157
滄州	-11.416
少陵	-11.4161
宗族	-11.4163
狀頭	-11.4165
五六尺	-11.4165
萬錢	-11.4167
千緡	-11.4167
一幅	-11.417
郭曰或	-11.4172
兵革	-11.4178
方寸	-11.4179
劉向	-11.418
樂道	-11.4181
卷下	-11.4186
固已	-11.4188
應龍	-11.4195
幕客	-11.4197
斯言	-11.42
臺省	-11.4203
本姓	-11.4204
對客	-11.4206
珍重	-11.4207
髙帝	-11.4207
悲喜	-11.4212
文義	-11.4212
毛羽	-11.4219
士民	-11.4223
永寧	-11.4225
應手	-11.423
南朝	-11.4233
侯景	-11.4234
百金	-11.4241
𩔖此	-11.4242
奏名	-11.4244
渡河	-11.4245
十嵗	-11.4246
大哭	-11.4251
正叔	-11.4252
從軍	-11.4254
開元末	-11.4259
無賴	-11.4263
林下	-11.4266
固非	-11.4277
貌甚	-11.428
善射	-11.4281
陳州	-11.4281
月十五日	-11.4284
音聲	-11.4286
西市	-11.4287
平生不	-11.4288
觚	-11.429
恍	-11.4291
年年	-11.4291
祅	-11.4292
康定	-11.4292
火焚	-11.4293
杜門	-11.4295
凉州	-11.4297
箧	-11.4298
白鶴	-11.4298
侑	-11.4299
悠悠	-11.4299
王導	-11.4301
主帥	-11.4301
尔	-11.4301
柑	-11.4302
缶	-11.4304
丙辰	-11.4304
天章閣待制	-11.4305
偹	-11.4305
縉	-11.4307
雷霆	-11.4307
隋煬帝	-11.4307
衿	-11.4307
穽	-11.4308
朞	-11.4308
蠲	-11.4308
江都	-11.4309
導從	-11.431
估	-11.431
怍	-11.4311
先聖	-11.4312
黑色	-11.4312
揀	-11.4313
塩	-11.4314
丙申	-11.4314
咄	-11.4315
大理評事	-11.4315
以文章	-11.4316
鄜延	-11.4317
旹	-11.4317
東流注于	-11.4318
癰	-11.4319
傪	-11.4319
就寢	-11.432
丈許	-11.4321
都指揮使	-11.4322
遣中使	-11.4324
枯骨	-11.4324
元康	-11.4324
後三年	-11.4327
壯麗	-11.4327
裴公	-11.4329
謂此也	-11.4329
景雲	-11.4329
百匹	-11.433
參差	-11.4333
長七尺	-11.4334
伊水	-11.4335
紹翁	-11.4337
長八尺	-11.4338
文通	-11.434
共食	-11.4341
永徽	-11.4341
衛將軍	-11.4344
祈雨	-11.4345
固言	-11.4345
謝太傅	-11.4347
几案	-11.4348
外舅	-11.4349
安邑	-11.4351
申公	-11.4354
鍾離	-11.4356
一丸	-11.4362
極力	-11.4363
冬夏	-11.4366
王欽若	-11.4368
不可忍	-11.4372
微時	-11.4373
御書	-11.4375
宜速	-11.4375
不踰	-11.4382
突入	-11.4386
冬月	-11.4387
字季	-11.4388
荅云	-11.4388
原注	-11.4389
彭年	-11.439
雷州	-11.439
路傍	-11.439
與兄	-11.4393
獻帝	-11.4398
蛇身	-11.4403
竹杖	-11.4404
士衡	-11.4406
絶倫	-11.4411
便宜	-11.4417
議郎	-11.4419
采石	-11.4422
前世	-11.4422
東市	-11.4426
愛惜	-11.4428
未嘗見	-11.443
陽翟	-11.4431
有娠	-11.4432
在彼	-11.4435
萬歲	-11.4437
二十人	-11.444
明録	-11.4441
上昇	-11.4444
黄龍	-11.4445
嗣位	-11.4448
𢎞正	-11.4449
無厭	-11.445
渭水	-11.4459
賜第	-11.4459
亳	-11.4468
法度	-11.4472
黄冠	-11.4472
不軌	-11.4472
京邑	-11.4475
字敬	-11.4477
武德	-11.4488
形體	-11.4488
前進士	-11.4488
遥見	-11.449
收拾	-11.449
泉州	-11.4491
靄	-11.4491
鍳	-11.4493
所感	-11.4495
諜	-11.4495
襖	-11.4495
醬	-11.4495
衒	-11.4496
數步	-11.4498
爍	-11.4499
甓	-11.4499
予謂	-11.4499
建議	-11.4499
夐	-11.4499
窖	-11.45
咀	-11.4501
糖	-11.4501
畦	-11.4501
二吏	-11.4502
老病	-11.4502
崧	-11.4502
莫可	-11.4502
懋	-11.4503
飜	-11.4503
嗇	-11.4503
荻	-11.4504
橐	-11.4504
琥珀	-11.4504
洮	-11.4504
聆	-11.4505
穉	-11.4505
燕山	-11.4505
子房	-11.4505
太學博士	-11.4506
蹋	-11.4506
玷	-11.4506
閃	-11.4506
凄	-11.4506
晏元獻	-11.4507
棣	-11.4507
澥	-11.4508
艮	-11.4508
佃	-11.4509
昆明池	-11.451
成就	-11.451
壬午	-11.451
何益	-11.4511
蜘蛛	-11.4511
大呼曰	-11.4511
譔	-11.4512
攽	-11.4513
櫬	-11.4514
不屈	-11.4517
愴然	-11.452
年八十餘	-11.4521
孔氏	-11.4523
立朝	-11.4525
延齡	-11.4528
十六日	-11.4533
胥吏	-11.4534
長數丈	-11.4534
仍令	-11.4541
傳呼	-11.4542
慕容	-11.4543
化成	-11.4543
洛城	-11.4545
進御	-11.4545
成疾	-11.4546
親屬	-11.4549
群臣	-11.4551
愜	-11.4555
桂林	-11.4555
美名	-11.4556
未久	-11.4557
十斤	-11.4563
南嶽	-11.4565
序云	-11.4565
戊子	-11.4565
尤多	-11.4567
靈帝	-11.4568
北朝	-11.4568
卿相	-11.4569
祥符中	-11.4569
待罪	-11.457
家財	-11.4571
無情	-11.4574
紹興初	-11.4588
統制	-11.4588
僧孺	-11.459
江漢	-11.4591
歙	-11.4596
豈復	-11.4598
棄市	-11.4599
地府	-11.46
懼不敢	-11.4601
不知其所	-11.4601
為賊所	-11.4603
青色	-11.4604
稱㫖	-11.4604
歴代	-11.4605
止之曰	-11.4608
長興	-11.4613
乎對曰	-11.4613
萬古	-11.4615
田里	-11.462
衛公	-11.462
一日忽	-11.4622
失守	-11.4626
家藏	-11.4626
兩月	-11.4626
丁未	-11.4626
大恱	-11.4627
思恭	-11.4632
温州	-11.4633
不遜	-11.4635
暴風	-11.4638
召試	-11.4639
精舍	-11.4648
太𤣥	-11.4652
二百年	-11.4655
趨出	-11.4657
互相	-11.466
人莫能	-11.4661
幕中	-11.4662
宣徽	-11.4663
壬	-11.4666
元宗	-11.4666
蘭若	-11.4666
佛堂	-11.4679
貢舉	-11.4679
權勢	-11.4679
市易	-11.468
𣗳下	-11.4681
愴	-11.4683
相傳云	-11.4685
蝎	-11.4688
雲溪	-11.4689
放歸	-11.469
佛經	-11.4692
殄	-11.4693
絆	-11.4694
受教	-11.4696
十七日	-11.4698
製作	-11.4698
產	-11.4698
凛	-11.4699
軍前	-11.4699
憔悴	-11.4699
潄	-11.4699
迦	-11.47
倭	-11.47
叠	-11.47
鬰	-11.4701
匍匐	-11.4702
彷彿	-11.4702
忠信	-11.4702
顙	-11.4703
咬	-11.4704
兕	-11.4704
軋	-11.4705
晉諸公賛曰	-11.4705
据	-11.4706
奐	-11.4706
諍	-11.4707
伊尹	-11.4707
醴泉	-11.4708
紓	-11.4709
紘	-11.471
僮僕	-11.471
櫟	-11.471
聰敏	-11.4711
辛丑	-11.4711
菩提	-11.4711
户部侍郎	-11.4712
水出焉而東流注于	-11.4712
巾櫛	-11.4712
袁生	-11.4713
嫁女	-11.4713
配享	-11.4713
刑部尚書	-11.4714
楊大年	-11.4717
京國	-11.4717
其隂多	-11.4718
千貫	-11.4719
椿	-11.472
隋文帝	-11.472
乙巳	-11.472
臨别	-11.4721
數十歩	-11.4721
熈載	-11.4722
光化	-11.4722
茟	-11.4724
羽翼	-11.4725
低頭	-11.4726
楊文公	-11.4727
宗社	-11.4727
宫觀	-11.4727
江海	-11.4728
韋臯	-11.473
但恐	-11.4735
所推	-11.4736
屈原	-11.4738
晉武帝	-11.474
博覽	-11.4743
商賈	-11.4743
勞苦	-11.475
麾下	-11.4752
輔政	-11.4752
南城	-11.4753
永康	-11.4755
何耶	-11.4756
九疑	-11.4758
散騎	-11.4759
露布	-11.4761
夢覺	-11.4762
年十六	-11.4764
縣民	-11.4765
塵土	-11.4766
編修	-11.4769
七月七日	-11.477
怡然	-11.4771
指揮使	-11.4776
醫藥	-11.4776
比丘	-11.4777
聖㫖	-11.4779
不能制	-11.4786
中書門下	-11.4787
凌雲	-11.4788
樓閣	-11.4788
何人也	-11.4794
諸國	-11.4805
夀春	-11.4809
腰間	-11.4813
獨居	-11.4816
百疋	-11.4818
希文	-11.4824
之應也	-11.4826
介意	-11.4828
真卿	-11.4829
他適	-11.483
所知也	-11.4831
謁見	-11.4837
說文	-11.4838
羣仙	-11.4839
字茂	-11.4839
臺記	-11.484
上虞	-11.4843
亟命	-11.4857
兩句	-11.4864
不謹	-11.4867
樂器	-11.487
極言	-11.487
懷中	-11.4874
師友	-11.4874
東封	-11.4875
空中有	-11.4876
簽	-11.4882
所覩	-11.4885
非敢	-11.4885
二郎	-11.4891
甚竒	-11.4892
羽林	-11.4892
努	-11.4894
宼	-11.4894
七歲	-11.4897
時宰	-11.4897
車載	-11.4898
嵌	-11.4899
預焉	-11.4899
鵬	-11.4899
酥	-11.49
駙馬都尉	-11.4901
汨	-11.4901
儂	-11.4902
蒲萄	-11.4903
晝日	-11.4903
辛酉	-11.4903
燥	-11.4903
靚	-11.4904
誰家	-11.4904
疇昔	-11.4904
臉	-11.4904
炤	-11.4905
渺	-11.4906
墩	-11.4906
畀	-11.4906
壠	-11.4907
眄	-11.4908
丁亥	-11.4909
擯	-11.4909
覈	-11.4909
瓉	-11.4911
毳	-11.4911
五臟	-11.4912
荼	-11.4912
儆	-11.4913
泯	-11.4914
嶺表	-11.4914
夕陽	-11.4914
武林	-11.4915
縹	-11.4915
念金剛經	-11.4915
乖崖	-11.4916
因縁	-11.4917
房𤣥齡	-11.4917
年十八	-11.4917
孟軻	-11.4918
莒	-11.4918
彤	-11.4919
韓侂胄	-11.4919
磁	-11.4919
色青	-11.4921
伯溫	-11.4921
吟詠	-11.4922
左拾遺	-11.4922
延安	-11.4922
許敬宗	-11.4922
恍然	-11.4923
十七八	-11.4924
己酉	-11.4926
飢寒	-11.4927
道傍	-11.4932
蔬食	-11.4934
感激	-11.4935
夜叉	-11.4935
老兵	-11.4937
猫兒	-11.4938
周世宗	-11.494
飲饌	-11.4944
異同	-11.4944
此鳥	-11.4945
良馬	-11.4948
拜謁	-11.4949
維舟	-11.4949
以他事	-11.4955
變色	-11.4956
東野	-11.4956
初不知	-11.4958
魯國	-11.4959
世孫	-11.4962
曰此兒	-11.4964
丐者	-11.4964
云此是	-11.4965
八千	-11.4971
僧舍	-11.4974
寺丞	-11.4975
曰此必	-11.4975
文采	-11.4975
問之云	-11.4975
侍即	-11.4977
升降	-11.498
它日	-11.4984
州司户	-11.4988
彦國	-11.4988
状元	-11.4989
盜賊	-11.4994
雜説	-11.4996
二十一日	-11.4998
玉皇	-11.4999
新語	-11.5001
十分	-11.5003
容易	-11.5008
生一子	-11.5009
醉卧	-11.5016
與之言	-11.5022
兵火	-11.5023
仁廟	-11.5029
有一小	-11.5029
妙絶	-11.5031
太倉	-11.5035
掘得	-11.504
君臣之	-11.5046
無傷	-11.5048
書符	-11.505
乞命	-11.5054
蜀先主	-11.5058
對曰某	-11.5058
七十餘	-11.5061
碧玉	-11.5061
被召	-11.5061
微笑	-11.5065
廁	-11.5067
問之乃	-11.5071
因循	-11.5074
忽失	-11.5082
窮極	-11.5083
見一老	-11.5087
三百六十	-11.5092
是歳	-11.5092
章疏	-11.5095
义	-11.5097
不聴	-11.5097
田氏	-11.5098
五嶽	-11.5098
彂	-11.5104
駛	-11.5105
年十七	-11.5107
稿	-11.5108
磧	-11.5109
懵	-11.5109
萬户	-11.511
儈	-11.511
怛	-11.5111
繭	-11.5111
麈	-11.5111
澡	-11.5111
癸酉	-11.5112
腎	-11.5112
自矜	-11.5112
國寳	-11.5112
玳瑁	-11.5113
埸	-11.5113
萍	-11.5113
百二十里曰	-11.5114
琅	-11.5114
剋	-11.5114
歔欷	-11.5114
插	-11.5115
灑掃	-11.5115
蝙蝠	-11.5116
兗	-11.5116
㤗	-11.5116
糺	-11.5116
券	-11.5116
刮	-11.5117
璉	-11.5118
孜孜	-11.5118
彞	-11.5118
涕泗	-11.5119
諛	-11.5119
蹔	-11.512
辛亥	-11.512
其屍	-11.5121
柵	-11.5121
案牘	-11.5121
撿	-11.5121
妝	-11.5122
涔	-11.5122
膊	-11.5122
兵部侍郎	-11.5123
甲寅	-11.5126
畼	-11.5126
乙酉	-11.5127
鴞	-11.5127
富民	-11.5128
嘆息	-11.5132
哭泣	-11.5134
以下皆	-11.5135
佳句	-11.5135
諸儒	-11.5139
同里	-11.514
巨源	-11.514
鬼魅	-11.5141
乗輿	-11.5143
荆州刺史	-11.5144
祈福	-11.5144
匹夫	-11.5146
文彦博	-11.5152
平昔	-11.5156
孝皇帝	-11.5157
累世	-11.5157
唐開元中	-11.5164
十九日	-11.5167
永泰	-11.5169
陸機	-11.5171
征西	-11.5172
學校	-11.5174
斯文	-11.5182
珠翠	-11.5182
見一女子	-11.5182
發遣	-11.5186
沈約	-11.5187
還京	-11.5188
耶律	-11.5193
宦官	-11.5194
絶粒	-11.5196
總兵	-11.5198
二十四日	-11.52
鄆州	-11.5201
可辨	-11.5206
比部	-11.5211
三十人	-11.5212
為御史中丞	-11.5221
數斗	-11.5222
伐木	-11.5225
肅然	-11.5225
漸近	-11.5229
浮雲	-11.5233
不識字	-11.5233
一曰在	-11.5233
一盃	-11.5234
賜緋	-11.5236
安得不	-11.5236
致謝	-11.5243
二百里	-11.5243
簾下	-11.5246
再入	-11.5255
南豐	-11.5257
大澤	-11.5265
就視	-11.5266
五六人	-11.527
字韻	-11.5273
布囊	-11.5273
曰足下	-11.5274
無所覩	-11.5281
如之何	-11.5281
草間	-11.5281
以禦	-11.5284
引滿	-11.5286
真珠	-11.5289
記憶	-11.5291
甚恭	-11.5295
太史公	-11.5296
三千里	-11.5299
莫測其	-11.5302
後十年	-11.531
刷	-11.5315
汝曹	-11.5316
天資	-11.5317
亦不見	-11.5317
仰天	-11.5319
甚麗	-11.5319
埶	-11.532
睢	-11.5321
聞空中	-11.5322
𥙿	-11.5322
龜山	-11.5323
僥倖	-11.5323
鷓鴣	-11.5323
槍	-11.5324
夷甫	-11.5324
輓	-11.5324
篙	-11.5325
蟄	-11.5325
遒	-11.5325
南越	-11.5325
乾隆四十六年	-11.5327
鑾輿	-11.5327
庚寅	-11.5329
嘘	-11.5329
嘻	-11.5329
菽	-11.5329
跌	-11.533
本紀	-11.533
歉	-11.533
長孫無忌	-11.533
梧桐	-11.5331
斸	-11.5331
章句	-11.5333
依然	-11.5333
飴	-11.5333
罇	-11.5333
蒯	-11.5333
樞宻副使	-11.5334
燔	-11.5334
有隙	-11.5335
沫	-11.5335
臨淄	-11.5335
鄩	-11.5336
鞅	-11.5336
魏元忠	-11.5337
南流注于	-11.5337
宣徳	-11.5337
囷	-11.5337
帕	-11.5337
夜义	-11.5338
鏘	-11.5339
院僧	-11.534
殛	-11.5341
一統志	-11.5342
中書省	-11.5345
紹熈	-11.5347
驚寤	-11.5348
崔湜	-11.5351
夢寐	-11.5353
唐𤣥宗	-11.5353
元稹	-11.5356
吉祥	-11.5356
十數人	-11.5357
商量	-11.5357
圉人	-11.5358
僧伽	-11.5358
發掘	-11.5358
錢物	-11.5364
有年矣	-11.5365
小説家𩔖一	-11.5367
滿地	-11.5368
雞犬	-11.537
半臂	-11.5374
一軸	-11.5374
亳州	-11.5375
相救	-11.5375
貧乏	-11.5377
見一物	-11.5379
魏文帝	-11.5379
山下有	-11.5379
十餘萬	-11.5381
連呼	-11.5383
扣其	-11.5383
甲申	-11.5384
軍旅	-11.5384
官舍	-11.5387
建平	-11.539
宛若	-11.5391
未之信	-11.5394
拾得	-11.5394
慎無	-11.5395
邠州	-11.5395
口占	-11.5397
交游	-11.5398
玉簫	-11.5399
震動	-11.5401
落職	-11.5411
六宫	-11.5415
寢疾	-11.5415
之女也	-11.5416
節鉞	-11.5417
開口	-11.5425
俗呼為	-11.5425
其尸	-11.5429
無害	-11.5433
役使	-11.5439
尸解	-11.5439
水族	-11.5442
滿室	-11.5443
貢士	-11.5443
最多	-11.5444
奏樂	-11.5445
合掌	-11.5445
單于	-11.5452
貴主	-11.5452
遂寢	-11.5454
治病	-11.5455
執筆	-11.5458
忠厚	-11.546
乎曰然	-11.5461
聽政	-11.5466
開目	-11.5466
陽雜	-11.5472
為祟	-11.5474
髙郵	-11.5475
秀州	-11.548
烏衣	-11.5481
却歸	-11.5482
豈容	-11.5487
壯士	-11.549
七寳	-11.5492
年十二	-11.5493
忠烈	-11.5503
萬緡	-11.5507
滑州	-11.5515
論列	-11.5517
福寺	-11.5524
先賢	-11.5524
數歲	-11.5526
禹偁	-11.5529
蕘	-11.5529
感應	-11.5533
荐	-11.5534
閣門	-11.5534
聞見後録卷	-11.5534
遵裕	-11.5535
咤	-11.5536
畚	-11.5538
磊	-11.554
以償	-11.554
太常少卿	-11.554
鍜	-11.554
娑	-11.554
楸	-11.554
余先子	-11.5541
拄杖	-11.5541
鉄	-11.5542
窒	-11.5544
鋌	-11.5544
乙丑	-11.5544
一疋	-11.5544
天津橋	-11.5545
賽	-11.5545
廣平	-11.5546
俳優	-11.5546
訾	-11.5547
藝文志	-11.5548
樞密副使	-11.5548
糓	-11.5548
彈丸	-11.5549
魘	-11.5549
應進士舉	-11.555
燋	-11.555
曆	-11.5551
媛	-11.5551
罽	-11.5551
棧	-11.5552
沅	-11.5552
琨	-11.5552
昵	-11.5554
穰	-11.5554
逖	-11.5554
黄魯直	-11.5554
勔	-11.5555
典故	-11.5555
滋味	-11.5555
西北隅	-11.5555
防禦	-11.5555
張鷟	-11.5557
豈可以	-11.5559
聞者莫不	-11.556
項羽	-11.5561
韓琦	-11.5564
憬	-11.5565
星辰	-11.5568
邑宰	-11.5568
束帶	-11.557
巴陵	-11.5572
不知所終	-11.5574
殿庭	-11.5577
聞見録卷	-11.5577
窺之見	-11.5578
黄裳	-11.5579
神像	-11.5582
入貢	-11.5583
巨萬	-11.5583
㕘政	-11.5584
曰臣聞	-11.5584
甲兵	-11.5588
少留	-11.5591
李勣	-11.5597
留宿	-11.5599
桓𤣥	-11.5604
法曹	-11.5605
天禧	-11.5607
先覺	-11.5608
經月餘	-11.561
小字也	-11.5611
岳陽	-11.5613
十四日	-11.5614
也或曰	-11.5616
奉佛	-11.5616
勾當	-11.5618
老狐	-11.5625
朝政	-11.5625
皇城	-11.5627
風濤	-11.5628
湖廣	-11.563
下階	-11.563
聞其名	-11.5631
西廊	-11.5631
天聖中	-11.5631
元嘉中	-11.5631
學究	-11.5632
繇是	-11.5633
暴亡	-11.5637
但覺	-11.5644
而殂	-11.5646
乾符中	-11.5647
七里	-11.5651
昭明	-11.5653
感動	-11.5655
彦回	-11.5656
三十卷	-11.5667
相𫝊	-11.5667
歲月	-11.5674
章武	-11.5674
親見之	-11.5675
妃子	-11.5698
門下侍郎	-11.57
不荅	-11.5702
北京	-11.5703
夜宿	-11.5705
相訪	-11.5712
外郎	-11.5718
門而入	-11.572
八尺	-11.5721
殺害	-11.5727
神童	-11.5728
東廊	-11.5728
南昌	-11.5731
興亡	-11.5732
六十里	-11.5735
二升	-11.5744
遨	-11.5757
貍	-11.5758
瀑	-11.5758
些	-11.5759
燦	-11.5759
香草	-11.576
江隂	-11.5761
奢侈	-11.5761
樟	-11.5763
槊	-11.5763
糴	-11.5764
剏	-11.5764
螻	-11.5764
髦	-11.5766
㕑	-11.5766
工部侍郎	-11.5766
默	-11.5767
蜈蚣	-11.5767
驤	-11.5767
麽	-11.5768
歎異	-11.5768
瞳	-11.5768
粤	-11.5769
譟	-11.5769
熈寜	-11.577
痊	-11.5771
燿	-11.5772
猾	-11.5772
鞾	-11.5772
祔	-11.5772
苧	-11.5772
漾	-11.5773
責之曰	-11.5774
盻	-11.5774
澠	-11.5775
犁	-11.5775
蘋	-11.5777
聰慧	-11.5777
果如其言	-11.5779
莱	-11.5779
嘴	-11.5779
浙右	-11.578
爻	-11.578
狼籍	-11.5781
聖俞	-11.5782
蟒	-11.5784
交遊	-11.5785
裕陵	-11.5786
詞學	-11.5792
茫然	-11.5796
𤨏言	-11.5797
萬頃	-11.5799
衣紫	-11.58
馬蹄	-11.58
四十九	-11.5802
雌雄	-11.5802
表裏	-11.5803
祐陵	-11.5804
赫然	-11.5805
三十七	-11.5806
臨軒	-11.5814
供奉官	-11.5816
端麗	-11.5822
損益	-11.5826
謝罪	-11.5827
制詞	-11.5827
里巷	-11.5829
駢雅曰	-11.5833
中郎將	-11.5833
經籍	-11.5834
羊肉	-11.5835
叱之曰	-11.5838
唱和	-11.5841
此句	-11.5843
篆文	-11.5843
念經	-11.5844
疾苦	-11.5844
安豐	-11.5846
太康	-11.5848
暴疾	-11.585
逸少	-11.5852
五斗	-11.5853
師旦	-11.5854
神農	-11.5857
亂離	-11.5859
平生所	-11.5865
軍校	-11.5868
風采	-11.5868
不相識	-11.5869
住持	-11.5869
年十三	-11.5869
善歌	-11.5872
悲夫	-11.5876
石勒	-11.5876
共飲	-11.5877
恃才	-11.5878
忽覩	-11.5885
送客	-11.5893
歙州	-11.5893
燭龍	-11.5899
叔祖	-11.59
安危	-11.5902
八寸	-11.5902
太過	-11.5905
禮畢	-11.5905
曽孫	-11.591
榴	-11.5912
精誠	-11.5912
致意	-11.5915
紹興間	-11.5921
迎拜	-11.5929
加敬	-11.593
問曰何	-11.5933
江寧	-11.5935
十餘輩	-11.5935
京西	-11.5936
御榻	-11.5939
不羈	-11.594
侍立	-11.5945
登車	-11.5949
指示	-11.5949
長源	-11.5955
十餘丈	-11.5968
問其姓	-11.5969
僑	-11.5972
窺見	-11.5975
憐其	-11.5976
座客	-11.5977
醵	-11.5986
寧皇	-11.5987
垍	-11.599
湮	-11.599
此說	-11.599
虞世南	-11.5991
趙閑閑	-11.5991
萱	-11.5991
藹	-11.5991
皆此𩔖也	-11.5991
穏	-11.5992
䙝	-11.5994
炫	-11.5996
輻	-11.5996
淋	-11.5996
憮然	-11.5996
矍然	-11.5996
酈	-11.5996
杼	-11.5997
特進	-11.5997
橫	-11.5998
塡	-11.5999
猝	-11.5999
䖍州	-11.5999
夷狄	-11.5999
邴	-11.5999
莾	-11.6
遗	-11.6
莎	-11.6002
湏臾	-11.6002
禮儀	-11.6003
戊午	-11.6003
双	-11.6006
敬宗	-11.6007
郾	-11.6007
於庭中	-11.6008
瘤	-11.6008
賈誼	-11.601
到京	-11.601
耆老	-11.6012
太祖皇帝	-11.6012
昌齡	-11.6012
孝廉	-11.6013
十八九	-11.6013
泣涕	-11.6014
郷里	-11.6014
諡曰	-11.6015
揖讓	-11.6015
亦可以	-11.6015
避暑	-11.6017
不如意	-11.6017
提刑	-11.6022
廊廡	-11.6023
落花	-11.6026
志完	-11.6028
穎士	-11.6028
預知	-11.6029
㕔上	-11.6034
速去	-11.6034
被髮	-11.6035
譬如	-11.6036
南征	-11.6036
築室	-11.6037
萬計	-11.6039
紹聖初	-11.604
李太白	-11.6041
歐陽修	-11.6043
服玩	-11.6043
服飾	-11.6044
宫内	-11.6045
詹事	-11.6046
鞍馬	-11.6046
淮隂	-11.6047
一小兒	-11.6048
長三丈	-11.6051
翊日	-11.6051
宫掖	-11.6054
行脩	-11.6055
光弼	-11.6057
渭南	-11.6058
卜居	-11.6059
宴飲	-11.606
車服	-11.6061
城市	-11.6064
曰貧道	-11.6068
於上前	-11.6069
犯闕	-11.607
甚重之	-11.6071
回回	-11.6076
知杭州	-11.6079
駐馬	-11.6079
助教	-11.6083
孤寒	-11.6084
出仙傳	-11.6085
薛氏	-11.6085
桂陽	-11.6088
致富	-11.609
在東宫	-11.609
發狂	-11.6092
水旱	-11.6093
巨富	-11.6094
有神人	-11.6098
大丈夫	-11.6099
押字	-11.6102
豪家	-11.6108
草詔	-11.6112
則天朝	-11.6114
餓死	-11.6114
良田	-11.6115
内閣	-11.6121
左司	-11.6122
伯温	-11.6122
嗟夫	-11.6126
堂堂	-11.6134
十餘嵗	-11.6136
元衡	-11.6144
慈明	-11.6145
祭文	-11.6148
華嚴	-11.6158
率衆	-11.6168
乙未	-11.6172
智高	-11.6173
中書郎	-11.6181
長慶中	-11.6196
年十月	-11.6199
州通判	-11.6204
門戸	-11.6208
廳	-11.6209
俗呼	-11.6209
之謂也	-11.6213
夜夢一	-11.6213
瑪瑙	-11.6217
匕	-11.622
卉	-11.622
概	-11.622
羯	-11.6221
嫩	-11.6222
蜿蜒	-11.6223
釋迦	-11.6224
出王子年	-11.6225
儋	-11.6225
㓗	-11.6226
㪷	-11.6227
飄飄	-11.6227
喇	-11.6228
駑	-11.6228
獼猴	-11.6228
戊辰	-11.6229
翮	-11.6229
沓	-11.623
閴	-11.623
苴	-11.6231
涑水記聞	-11.6231
富鄭公	-11.6231
秘書監	-11.6232
槁	-11.6235
宣和中	-11.6235
椹	-11.6235
㳙	-11.6236
迤邐	-11.6236
蔡確	-11.6236
抱朴子	-11.6237
語笑	-11.6237
奨	-11.6237
𦂳	-11.6237
毗陵	-11.6239
骰子	-11.6239
庚午	-11.624
都指揮	-11.624
拱辰	-11.624
褘	-11.624
儋耳	-11.6241
安陸	-11.6242
鹵簿	-11.6242
霖雨	-11.6242
晏駕	-11.6243
釋褐	-11.6245
酤	-11.6246
豪傑	-11.6246
辛巳	-11.6253
腰帶	-11.6255
龜兹	-11.626
濮陽	-11.6261
香爐	-11.6262
荷葉	-11.6267
二百五十	-11.6267
豫州	-11.6269
虞候	-11.6269
心腹	-11.627
後漢書	-11.627
般若	-11.6271
司馬遷	-11.6271
殺戮	-11.6274
隨軍	-11.6276
百餘日	-11.6277
與此志	-11.6282
比干	-11.6291
魏徵	-11.6292
市肆	-11.6295
武庫	-11.6297
紛然	-11.6302
千五百	-11.6304
首飾	-11.6307
曲折	-11.6308
仍舊	-11.6312
諌官	-11.6312
具以告	-11.6313
夏后	-11.6319
移鎮	-11.6325
知政事	-11.6331
石函	-11.6337
二十卷	-11.634
令緒	-11.6346
見一婦人	-11.6347
鍾愛	-11.6351
日午時	-11.6351
林泉	-11.6357
簾前	-11.6359
禁林	-11.6359
感泣	-11.6367
雷聲	-11.6374
即此也	-11.6378
不妨	-11.6391
世説	-11.6391
刻木	-11.6392
危坐	-11.6393
四夷	-11.6402
惟陛下	-11.6416
季父	-11.6419
野僉	-11.6421
河圖	-11.6422
伏望	-11.6432
無限	-11.6434
數夕	-11.6439
𤨏	-11.6448
瞑	-11.6452
晅	-11.6453
諴	-11.6454
螢	-11.6454
呌呼	-11.6454
大荒之中有山名曰	-11.6456
唐書曰	-11.6459
妒	-11.646
王隱晉書曰	-11.6461
緍	-11.6461
溟	-11.6461
莅	-11.6463
㒺	-11.6463
半夜	-11.6464
癸亥	-11.6464
京洛	-11.6465
個	-11.6465
范曄後漢書曰	-11.6466
吕惠卿	-11.6466
壬申	-11.6466
芮	-11.6467
膜	-11.6467
馮翊	-11.6467
髑髏	-11.6467
蕚	-11.6468
姊妹	-11.6468
𣙜	-11.6468
惶駭	-11.6468
滉	-11.6469
諠	-11.6469
蓐	-11.6469
咋	-11.647
一男子	-11.647
鬱鬱	-11.6471
國子博士	-11.6471
腳	-11.6471
屹	-11.6471
耒	-11.6471
塑像	-11.6472
謟	-11.6472
不可勝紀	-11.6473
㯶	-11.6474
東南隅	-11.6474
北邙	-11.6474
䖝	-11.6475
范仲淹	-11.6475
斾	-11.6475
霏	-11.6476
唐新語	-11.6477
鈐	-11.6478
教化	-11.6479
泛舟	-11.6479
篋中	-11.6479
尚書右丞	-11.648
明晨	-11.6481
思邈	-11.6481
枉殺	-11.6481
其鳥多	-11.6483
墳墓	-11.6484
東南流注于	-11.6488
馬嵬	-11.6489
吏引	-11.6489
東萊	-11.649
狄青	-11.6492
海棠	-11.6494
阮籍	-11.6496
來俊臣	-11.6498
豁然	-11.6498
巫咸	-11.65
貝州	-11.65
藩鎮	-11.6502
出嶺表	-11.6503
許昌	-11.6512
料理	-11.6514
王沂公	-11.6518
起居注	-11.6521
二十一年	-11.6521
風波	-11.6524
舅氏	-11.6525
寛厚	-11.6525
不叶	-11.6528
娶妻	-11.6531
臨淮	-11.6531
後二十年	-11.6531
千斤	-11.6532
太宗嘗	-11.6534
芳草	-11.6534
避亂	-11.6538
臨刑	-11.654
州界	-11.6541
木蘭	-11.6542
奴僕	-11.6543
仲宣	-11.6545
兵仗	-11.6545
瑞應	-11.6554
尤工	-11.6556
伏罪	-11.6564
哀哉	-11.6566
僅得	-11.6566
導引	-11.6569
甘草	-11.6572
各有所	-11.6574
龍泉	-11.6575
世界	-11.6578
宋史曰	-11.6581
京東	-11.6584
未乆	-11.6584
水濵	-11.6593
聞其言	-11.6604
無所不至	-11.6608
河源	-11.6611
經旬	-11.6613
王勃	-11.6616
盛衰	-11.662
五岳	-11.6624
臣愚	-11.6624
時人以為	-11.6632
東亭	-11.6633
永和	-11.6634
盡歡	-11.6634
謫官	-11.6644
帝俊	-11.6646
氣象	-11.6653
久留	-11.6654
三十八	-11.6655
鈕	-11.6672
藩邸	-11.668
論議	-11.6681
海島	-11.6681
經畧	-11.6691
有一女子	-11.6691
衙門	-11.6693
鐶	-11.6693
惲	-11.6698
啞	-11.6699
滓	-11.67
行旅	-11.6701
菲	-11.6701
梅聖俞	-11.6703
劃	-11.6703
憊	-11.6703
晤	-11.6704
殉	-11.6704
講論	-11.6706
裡	-11.6706
悛	-11.6707
慝	-11.6707
痢	-11.6708
閭巷	-11.6708
吊	-11.6709
幕下	-11.6709
揔	-11.6709
玲瓏	-11.6709
跣	-11.671
䰟	-11.6711
紊	-11.6711
嘿	-11.6711
鄠	-11.6711
蛩	-11.6711
脹	-11.6711
郞	-11.6712
穗	-11.6713
秣	-11.6713
璀	-11.6714
盧杞	-11.6714
刑部侍郎	-11.6714
巡撫	-11.6714
培	-11.6715
米元章	-11.6715
悠	-11.6716
茄	-11.6718
慈恩寺	-11.6719
嘷	-11.672
丁酉	-11.672
豊	-11.672
僚佐	-11.6721
菖蒲	-11.6721
庭筠	-11.6721
驎	-11.6722
白日昇天	-11.6722
孑	-11.6722
韞	-11.6726
爺	-11.6727
祕閣	-11.6731
撫掌	-11.6733
僑居	-11.6735
詰問	-11.6736
眉州	-11.6737
富弼	-11.6739
六科	-11.6739
光祿	-11.674
奏乞	-11.6741
禆將	-11.6744
水經注	-11.6747
竒才	-11.6753
凌晨	-11.6753
駿馬	-11.6755
魏徴	-11.676
殿宇	-11.6763
罪福	-11.6763
妄語	-11.6767
𨼆𨼆	-11.6768
甚悦	-11.6771
休息	-11.6771
前導	-11.6772
長一尺	-11.6774
羣盜	-11.6776
悚然	-11.6778
諺云	-11.6778
史𥙷	-11.6781
表兄	-11.6781
朔望	-11.6785
雨雪	-11.6786
淮陽	-11.679
延接	-11.6792
精衛	-11.6813
如厠	-11.6814
遭遇	-11.6815
䕫州	-11.6815
為虎所	-11.6827
少好學	-11.6829
部署	-11.6845
冠服	-11.6849
出國史	-11.6855
撫軍	-11.6855
幽明	-11.686
侍禁	-11.6864
郴州	-11.6874
風塵	-11.6881
聚觀	-11.6881
歎服	-11.6892
貧民	-11.6894
手板	-11.6915
道場	-11.6915
子韶	-11.6915
繫獄	-11.6933
裊	-11.6935
旅舍	-11.6938
驚怪	-11.6938
目擊	-11.694
范文正	-11.6945
嬴	-11.6947
螯	-11.6949
謎	-11.6951
摽	-11.6951
瘥	-11.6951
喜怒	-11.6951
東都事畧曰	-11.6952
宇宙	-11.6953
闡	-11.6953
紉	-11.6953
懴	-11.6953
瘁	-11.6953
峨	-11.6954
國子祭酒	-11.6957
闍	-11.6957
芰	-11.6958
旰	-11.6958
毉	-11.6959
稗	-11.6959
堞	-11.696
邦昌	-11.696
沱	-11.696
茫茫	-11.696
飫	-11.6961
維摩	-11.6961
建中靖國	-11.6962
牛僧孺	-11.6962
璵	-11.6962
曰大人	-11.6963
司諫	-11.6963
媵	-11.6963
禰	-11.6963
苻堅	-11.6963
愎	-11.6963
誅戮	-11.6963
粱	-11.6963
妺	-11.6964
烝	-11.6964
壌	-11.6964
伽藍	-11.6964
岌	-11.6965
東北隅	-11.6965
惴	-11.6965
令狐綯	-11.6966
煨燼	-11.6967
袵	-11.6967
后稷	-11.6968
扁舟	-11.6969
葆	-11.6969
分門古今𩔖事卷	-11.697
㛰	-11.697
儛	-11.6971
三百年	-11.6973
劇談	-11.6973
圍棊	-11.6974
茅屋	-11.6976
昭緯	-11.6976
集賢院	-11.6977
諝	-11.6979
甲乙	-11.6982
宣徽使	-11.6982
挽歌	-11.6985
大理寺	-11.6987
隣里	-11.6988
嘲之曰	-11.6989
李德裕	-11.699
秉筆	-11.699
舟楫	-11.6992
庭芝	-11.6992
精巧	-11.7
寡婦	-11.7002
味甘	-11.7002
睦州	-11.7003
婢妾	-11.7004
杖殺之	-11.7008
再娶	-11.7009
被髪	-11.7026
親征	-11.7028
華陰	-11.7029
氏族	-11.703
聲如雷	-11.703
體貌	-11.7033
李泌	-11.705
出捜	-11.7054
惑衆	-11.7054
梁太祖	-11.7056
仲舒	-11.7062
文宣王	-11.7068
騰空	-11.7069
麻衣	-11.7073
佐史	-11.7073
工巧	-11.7076
永洛	-11.7081
土偶	-11.7087
興廢	-11.709
僅能	-11.7093
謂曰爾	-11.7093
不之信	-11.7094
遺忘	-11.7102
律師	-11.7112
寢殿	-11.7119
靈芝	-11.7126
其畧曰	-11.7134
隴西李	-11.7143
嗟嘆	-11.7147
治亂	-11.7147
不愜	-11.7155
㡬何	-11.7158
巡官	-11.7162
禪院	-11.7174
如是者三	-11.7178
受罪	-11.718
㦯	-11.7204
弑	-11.7205
黏	-11.7207
翛	-11.7209
娯	-11.7209
碓	-11.721
翡翠	-11.721
嵬	-11.7211
酺	-11.7212
怱	-11.7213
皮日休	-11.7213
瑊	-11.7213
薤	-11.7214
明葉盛撰	-11.7215
絙	-11.7215
訂	-11.7215
罩	-11.7215
抉	-11.7215
烘	-11.7216
𬞞	-11.7216
廊下	-11.7217
珂	-11.7217
稚川	-11.7217
蠡	-11.7217
矚	-11.7218
顛倒	-11.7218
鐍	-11.7218
驄	-11.7218
猩猩	-11.7218
孫興公	-11.7219
罟	-11.7219
幔	-11.7219
瓚	-11.7219
睂	-11.722
宙	-11.722
撚	-11.7221
范忠宣	-11.7221
禋	-11.7221
籃	-11.7221
癸巳	-11.7221
暎	-11.7222
窆	-11.7222
纜	-11.7222
著作佐郎	-11.7222
蠢	-11.7223
冠冕	-11.7223
台輔	-11.7223
呼吸	-11.7223
麋鹿	-11.7224
鼇	-11.7225
䆒	-11.7225
升殿	-11.7226
毀	-11.7226
北夢瑣言卷	-11.7227
窄	-11.7227
檢討	-11.7227
竢	-11.7227
縗	-11.7228
邯	-11.7228
畋獵	-11.7232
出瀟	-11.7232
韓文公	-11.7232
曾文肅	-11.7233
沽酒	-11.7234
押班	-11.7234
暑月	-11.7234
秘書省	-11.7237
㸃檢	-11.7238
青童	-11.7238
守禦	-11.724
諲	-11.7241
波濤	-11.7247
制誥	-11.7247
太牢	-11.7248
延譽	-11.725
小牘	-11.725
渭州	-11.7252
彭祖	-11.7256
己巳	-11.726
衛尉	-11.7263
會昌	-11.7267
歎曰此	-11.7276
漸漸	-11.728
洞穴	-11.728
部曲	-11.7281
一百五十	-11.7282
四十餘年	-11.7283
唐貞觀	-11.7291
饑寒	-11.7292
水東日記卷	-11.7294
富室	-11.7298
大慟	-11.73
進士第	-11.7304
鄉薦	-11.7306
豆盧	-11.7306
西征	-11.7321
攻城	-11.7321
檀香	-11.7332
對䇿	-11.7332
行十餘里	-11.7337
數枚	-11.7343
貯水	-11.7345
北伐	-11.7352
新昌	-11.736
慘然	-11.7371
五代史	-11.7375
辛未	-11.7377
形骸	-11.7393
婦翁	-11.7401
千户	-11.7405
月十二日	-11.7406
九寸	-11.7421
頃年	-11.7427
都邑	-11.7428
繡衣	-11.7433
鋋	-11.7442
虢州	-11.7449
殆非人	-11.7449
謂之曰汝	-11.7451
唧	-11.7459
契虚	-11.746
塹	-11.7461
柿	-11.7462
潯	-11.7468
殺傷	-11.747
甸	-11.7472
元規	-11.7472
壬寅	-11.7472
鐙	-11.7475
縋	-11.7476
圮	-11.7476
癩	-11.7476
纊	-11.7476
芭蕉	-11.7476
崇政殿	-11.7477
趙韓王	-11.7477
溜	-11.7477
䛕	-11.7478
鵶	-11.7478
菓	-11.7478
扺	-11.7478
熊羆	-11.7478
箕踞	-11.7478
啾	-11.7478
匆	-11.7479
䋲	-11.748
塗炭	-11.748
蔗	-11.748
咄咄	-11.748
巘	-11.748
丁丑	-11.7481
徭	-11.7481
艘	-11.7481
轟	-11.7481
玭	-11.7481
乙亥	-11.7482
螽	-11.7482
肌膚	-11.7482
鯢	-11.7482
燄	-11.7482
葷	-11.7483
弧矢	-11.7483
堇	-11.7484
涇州	-11.7485
漣	-11.7485
艦	-11.7486
未央	-11.7486
塢	-11.7487
俊邁	-11.7487
襯	-11.7487
太平公主	-11.7487
筆札	-11.7488
櫓	-11.7488
支道林	-11.7488
虖	-11.7489
丙戌	-11.749
諗	-11.749
大中祥符	-11.7491
郇公	-11.7491
九品	-11.7491
快活	-11.7492
桓玄	-11.7492
㱕	-11.7493
劉昫	-11.7493
穿鑿	-11.7494
二百四十	-11.7495
場屋	-11.7495
妳	-11.7495
匈	-11.7496
御批	-11.7499
邦彦	-11.75
零落	-11.7501
又東五百里曰	-11.7503
𤣥齡	-11.7504
河中府	-11.7504
任臣案水經注	-11.7504
開禧	-11.7504
叔獻	-11.7507
八卦	-11.7507
太華	-11.751
簽書	-11.751
漁父	-11.7511
熙寧初	-11.7516
麝香	-11.7517
窑	-11.7518
郊野	-11.7519
服餌	-11.752
掃地	-11.7529
酉陽雜爼	-11.7529
博識	-11.7532
釣魚	-11.7534
南郊	-11.7535
昨夕	-11.7537
皇祐中	-11.7539
設祭	-11.7541
闔門	-11.7542
問曰汝	-11.7544
墓銘	-11.7549
喪亂	-11.7554
空桑	-11.7557
一士人	-11.7558
伯淳	-11.756
無它	-11.756
婢僕	-11.7564
呉越	-11.7564
保全	-11.7565
楊妃	-11.7569
十數里	-11.7573
管仲	-11.7575
縣宰	-11.7578
龍鳯	-11.758
無一言	-11.7586
魚鼈	-11.7592
稽古	-11.76
致祭	-11.7613
賔主	-11.7621
更無他	-11.7626
靈運	-11.7632
珍異	-11.7634
外戚	-11.7641
無如之何	-11.7642
霍山	-11.7644
躍馬	-11.765
照耀	-11.765
欽定四庫全書水東日記卷	-11.7663
庾信	-11.7665
十倍	-11.7667
織女	-11.7672
寢室	-11.7678
目覩	-11.7682
蒙古	-11.7691
曰汝何	-11.7699
尹京	-11.7699
郡邑	-11.77
千丈	-11.7718
暮年	-11.7721
炒	-11.7733
䡖	-11.7736
儷	-11.7738
杜祁公	-11.774
宕	-11.774
魃	-11.7741
珎	-11.7742
葭	-11.7742
擺	-11.7746
箜篌	-11.7746
馳騁	-11.7746
閶	-11.7746
煌	-11.7747
紵	-11.7748
碾	-11.7748
豺	-11.7748
鉅鹿	-11.7749
圏	-11.7749
躓	-11.7749
党	-11.7749
訢	-11.775
涂	-11.7751
幡綽	-11.7751
柤	-11.7751
蔕	-11.7751
暱	-11.7751
緻	-11.7752
飱	-11.7752
疼	-11.7752
倜儻	-11.7752
綂	-11.7753
諸葛亮	-11.7753
緜	-11.7754
舸	-11.7754
袞	-11.7754
詫	-11.7754
魂魄	-11.7754
戶	-11.7754
熙寜	-11.7756
鑠	-11.7756
嬾	-11.7756
灣	-11.7756
暐	-11.7757
舖	-11.7757
穩	-11.7757
垂拱	-11.7758
緱氏	-11.7758
吕夷簡	-11.7758
礬	-11.7759
祕書監	-11.7759
杰	-11.776
礦	-11.776
掄	-11.7761
蝮	-11.7761
歐陽永叔	-11.7761
謇	-11.7761
犍	-11.7762
昌黎	-11.7763
梁元帝	-11.7763
歧	-11.7763
束帛	-11.7763
時人號為	-11.7763
臯陶	-11.7763
端拱	-11.7764
北史曰	-11.7766
蠙	-11.7769
淵源	-11.7776
事物紺珠云	-11.7778
揺動	-11.778
秋八月	-11.7782
士亷	-11.7783
巫祝	-11.7787
傾覆	-11.779
延祐	-11.779
隱隱	-11.7792
百寮	-11.7797
任臣案圖贊曰	-11.7798
嗟歎	-11.7799
貞元末	-11.7801
長六尺	-11.7801
辟邪	-11.7804
杜預	-11.7804
沉香	-11.7804
感悟	-11.7806
貞元初	-11.7811
延壽	-11.7813
高麗	-11.7823
口鼻	-11.7825
勤苦	-11.7827
明年春	-11.7832
可見矣	-11.7832
衣緋	-11.7836
伊洛	-11.7841
直抵	-11.7843
百餘歩	-11.785
十數年	-11.7855
帝崩	-11.7859
握手	-11.786
後十餘年	-11.7862
五六十	-11.7865
何妨	-11.7873
刀斫	-11.7882
第八	-11.7893
涼州	-11.7912
筆墨	-11.7914
敢忘	-11.792
迎接	-11.7927
澗水	-11.7932
為時所	-11.7935
倉皇	-11.7937
府庫	-11.7994
藺	-11.8
壷	-11.8002
迢	-11.8012
剉	-11.8013
詡	-11.8013
踪跡	-11.8016
伷先	-11.8017
錠	-11.8017
賄賂	-11.8018
夏五月	-11.8019
蹴	-11.802
拄	-11.802
缸	-11.8021
袐	-11.8021
献	-11.8021
鋼	-11.8022
戊申	-11.8023
惶怖	-11.8023
搦	-11.8024
惔	-11.8024
皥	-11.8024
鱣	-11.8024
棺槨	-11.8025
熨	-11.8025
罅	-11.8025
釧	-11.8025
𠖇	-11.8026
膓	-11.8026
韙	-11.8026
穫	-11.8026
有慙色	-11.8026
孀	-11.8027
蝸	-11.8028
不可勝計	-11.8028
曛	-11.8028
雙鬟	-11.8029
蒱	-11.8029
臛	-11.8029
戊寅	-11.8029
擢進士第	-11.803
醢	-11.803
謝靈運	-11.803
女媧	-11.803
芟	-11.803
盾	-11.8031
罌	-11.8031
碌碌	-11.8032
惘然	-11.8032
厦	-11.8033
蒼蒼	-11.8033
盪	-11.8033
袤	-11.8033
戌	-11.8034
纈	-11.8034
亾	-11.8035
華清宫	-11.8035
勒停	-11.8037
監押	-11.8038
航海	-11.8039
詼諧	-11.804
青䨼	-11.804
彈琵琶	-11.804
鷹犬	-11.8041
周穆王	-11.8043
鄴侯	-11.8044
安祿山	-11.8045
瀟湘	-11.8046
痛不可忍	-11.8046
迎候	-11.8046
曬	-11.8046
紗籠	-11.805
大理卿	-11.8051
長短句	-11.8052
賞罰	-11.8053
天寳末	-11.8053
號慟	-11.8053
蘄州	-11.8054
幽㝠	-11.8054
宣慰	-11.8061
妖妄	-11.8062
嘉賔	-11.8062
優游	-11.8063
姬妾	-11.8063
車輪	-11.8063
衣襟	-11.8068
俸錢	-11.8068
李衛公	-11.8072
百緡	-11.8078
侍側	-11.8079
乗驢	-11.808
髙駢	-11.808
丁巳	-11.8082
希逸	-11.8085
祠宇	-11.8088
火災	-11.8091
恩寵	-11.8091
蕭蕭	-11.8092
齊魯	-11.8092
織成	-11.8093
崔融	-11.8095
雜錄	-11.8096
度量	-11.8096
酷吏	-11.81
儀衛	-11.8101
樞府	-11.8106
數百萬	-11.8109
有詩名	-11.8112
無名子	-11.8118
二十九日	-11.813
二十七日	-11.8133
李紳	-11.8138
邵武	-11.8139
漢髙祖	-11.8153
狀𩔖	-11.8157
五色雲	-11.8167
西廂	-11.8168
諭之曰	-11.8184
謂生曰	-11.8195
任臣案爾雅	-11.8212
詩一首	-11.8216
罪狀	-11.8261
忘憂	-11.8268
仁蒨	-11.8288
九尺	-11.829
菁	-11.8301
鉏	-11.8303
臟	-11.8305
磔	-11.8306
慾	-11.8307
千匹	-11.8307
魑魅	-11.8308
藿	-11.8308
𣣔	-11.8308
洹	-11.8308
疥	-11.8309
瀕	-11.831
箒	-11.831
蕋	-11.8311
賀知章	-11.8311
熒惑	-11.8312
繚	-11.8312
襃	-11.8313
搜神記卷	-11.8313
郍	-11.8313
旗幟	-11.8313
蔭	-11.8313
瓦屋	-11.8313
仲弓	-11.8313
冦萊公	-11.8315
槿	-11.8315
緬	-11.8316
杜鵑	-11.8316
睫	-11.8316
氛	-11.8316
能屬文	-11.8316
梭	-11.8317
蜮	-11.8317
襴	-11.8317
檐	-11.8318
噤	-11.8319
娱	-11.8319
襁褓	-11.8319
都虞候	-11.8319
鮪	-11.832
藂	-11.832
珽	-11.832
讙	-11.832
殷仲堪	-11.8321
舞蹈	-11.8321
怪而問之	-11.8321
閧	-11.8321
妖魅	-11.8321
捐館	-11.8322
壹	-11.8322
跋扈	-11.8322
錢十萬	-11.8322
武三思	-11.8324
努力	-11.8325
喟然	-11.8325
孩兒	-11.8325
戒之曰	-11.8325
箏	-11.8326
殷中軍	-11.8328
鑿齒	-11.833
騩	-11.833
沇	-11.8332
聰悟	-11.8332
落魄	-11.8333
敗績	-11.8335
伍伯	-11.8336
紀綱	-11.8338
宴席	-11.8338
梨園	-11.8339
耆舊	-11.8342
𥙷闕	-11.8344
戚里	-11.8344
濯足	-11.8346
江淹	-11.8349
象牙	-11.835
青苗	-11.8353
貴戚	-11.8354
漕運	-11.8354
千餘里	-11.8356
紫袍	-11.8356
伏羲	-11.8361
梨花	-11.8368
刑獄	-11.8368
魁天下	-11.8376
酒脯	-11.8382
元裕	-11.8384
森然	-11.8387
酣飲	-11.839
玄宗	-11.839
甚愛之	-11.839
典籍	-11.8395
隆興	-11.8395
秋冬	-11.8396
枯木	-11.8399
郊祀	-11.8402
生一男	-11.8407
元祐間	-11.8427
宫嬪	-11.844
故來相	-11.8462
謫仙	-11.8486
未可知	-11.8515
殯宫	-11.8527
槐樹	-11.8538
不自知	-11.8538
愧謝	-11.8541
圉	-11.8547
任臣案駢雅	-11.8547
徑寸	-11.8566
小説家𩔖	-11.8571
雷希顔	-11.8596
弹	-11.8597
丙寅	-11.8598
􁑴	-11.8599
娟	-11.8601
鄞	-11.8602
鑷	-11.8602
纖	-11.8602
霓	-11.8602
縠	-11.8602
房琯	-11.8602
牸	-11.8602
瑟瑟	-11.8603
亹亹	-11.8603
栁子厚	-11.8603
户部尚書	-11.8603
擄	-11.8603
觀者如堵	-11.8603
閥	-11.8603
夤	-11.8603
鑚	-11.8604
荔	-11.8604
嘉禾	-11.8604
甖	-11.8605
胤	-11.8606
梓潼	-11.8606
范蜀公	-11.8606
未之有也	-11.8607
筩	-11.8607
婆羅門	-11.8607
鎚	-11.8608
以女妻之	-11.8608
逗	-11.8609
卜筮	-11.861
剰	-11.861
潼	-11.861
帯	-11.8611
籥	-11.8611
撩	-11.8611
嚳	-11.8612
橙	-11.8612
凭	-11.8612
隰	-11.8612
恡	-11.8612
夏英公	-11.8613
㚟	-11.8613
羇	-11.8614
犬吠	-11.8614
狷	-11.8614
篇什	-11.8615
磻	-11.8615
艇	-11.8616
邽	-11.8617
冨貴	-11.8618
吟咏	-11.8619
聫	-11.862
吒	-11.862
慣	-11.862
嗅	-11.8621
噎	-11.8622
跂	-11.8622
臧否	-11.8623
扎	-11.8624
三月三日	-11.8627
佇立	-11.8628
孔融	-11.8632
履霜	-11.8634
醉飽	-11.8634
虎狼	-11.8636
乘輿	-11.8637
年七十餘	-11.8637
展轉	-11.8638
盧肇	-11.864
紿之曰	-11.8641
桃符	-11.8642
千歳	-11.8642
陳摶	-11.8643
哀祈	-11.8643
隋末	-11.8647
輔佐	-11.8647
蔡襄	-11.8648
建炎初	-11.865
浙省	-11.8652
楊億	-11.8653
汗流	-11.8653
枝條	-11.8653
靖康初	-11.8655
文僖	-11.8655
長二丈	-11.8655
羽毛	-11.8657
健兒	-11.8659
據案	-11.866
數日而卒	-11.8665
錢一千	-11.8665
詞翰	-11.8665
敵騎	-11.8665
政事堂	-11.8668
王禹偁	-11.867
浹旬	-11.8674
朝覲	-11.8675
桃林	-11.8675
癸未	-11.8676
浮薄	-11.868
室宇	-11.8684
在其北	-11.8688
皇嗣	-11.869
山海經卷	-11.8691
家貲	-11.873
腹痛	-11.8746
遥望	-11.8772
右正言	-11.8772
荆湖	-11.8833
千八百	-11.8875
矮	-11.8889
棃	-11.8895
滄浪	-11.8897
賻	-11.8898
詧	-11.8898
范蠡	-11.89
搭	-11.8901
焙	-11.8902
鰲	-11.8903
丱	-11.8904
駱駝	-11.8904
爆	-11.8905
撑	-11.8906
陔	-11.8906
蓆	-11.8907
金縷	-11.8907
蔔	-11.8908
遹	-11.8908
讃	-11.8908
尺寸	-11.8908
肄業	-11.8908
綢繆	-11.8909
鍛	-11.8909
唄	-11.891
饕	-11.8911
伉儷	-11.8911
督郵	-11.8911
富韓公	-11.8912
両	-11.8913
翩翩	-11.8913
叡	-11.8913
弈	-11.8914
穠	-11.8914
鱸	-11.8914
禅	-11.8914
飲酒食肉	-11.8914
鸚	-11.8914
爪牙	-11.8915
將作監	-11.8915
詁	-11.8915
暠	-11.8916
巋	-11.8917
徐敬業	-11.8917
秣陵	-11.8917
行軍司馬	-11.8918
豫章太守	-11.892
秉鈞	-11.892
弓箭	-11.8921
劉㑹孟云	-11.8921
仝	-11.8922
􁁜	-11.8922
鄢	-11.8922
羆	-11.8923
橿	-11.8923
犧	-11.8924
鸎	-11.8924
月十八日	-11.8924
菅	-11.8925
丹陽尹	-11.8925
廷珪	-11.8926
鮒	-11.8927
張邦昌	-11.8927
忘倦	-11.8927
氓	-11.8927
悶絶	-11.8927
管輅	-11.8928
泫然	-11.8929
梳頭	-11.8929
顔魯公	-11.8931
郛	-11.8931
霜雪	-11.8934
茶肆	-11.8934
盈尺	-11.8937
比肩	-11.8939
忽失所在	-11.8941
屋瓦	-11.8943
契虛	-11.8943
欵曲	-11.8947
掃除	-11.8948
厯厯	-11.895
荆楚	-11.8951
騎驢	-11.8953
毛髮	-11.8953
䂮	-11.8955
轉運司	-11.8957
閒談	-11.8961
黔南	-11.8961
徒歩	-11.897
䇿杖	-11.8975
陸費墀	-11.8976
王元之	-11.9014
異物志	-11.9035
宗諤	-11.9036
擅權	-11.9046
駭異	-11.905
抵罪	-11.9057
任臣案淮南子	-11.9075
問之對曰	-11.9093
裨	-11.914
恙	-11.9141
闓	-11.9179
瑴	-11.9202
燮	-11.9208
攄	-11.9211
捻	-11.9211
筝	-11.9212
潼闗	-11.9213
掀	-11.9216
鏞	-11.9217
璡	-11.9217
礎	-11.9217
屛	-11.9218
翩	-11.9218
蠕	-11.9219
竽	-11.9219
陶淵明	-11.9219
餳	-11.922
壬戌	-11.922
腥穢	-11.922
汲汲	-11.922
睇	-11.922
詬罵	-11.9221
黛	-11.9221
㐫	-11.9222
笳	-11.9222
炯	-11.9222
豪俠	-11.9223
涖	-11.9223
戕	-11.9223
兜	-11.9224
艤舟	-11.9224
坌	-11.9224
凾	-11.9224
暁	-11.9225
㵼	-11.9225
敺	-11.9225
㽔	-11.9225
司馬溫公	-11.9225
隼	-11.9225
葉法善	-11.9226
篠	-11.9226
讞	-11.9226
竣	-11.9226
杷	-11.9226
温庭筠	-11.9226
稼穡	-11.9226
蹊	-11.9227
㾗	-11.9227
惶惑	-11.9227
慇懃	-11.9227
鈆	-11.9228
攻媿	-11.9228
庶㡬	-11.9229
匕首	-11.9229
摩訶	-11.9229
閿鄉	-11.923
舟檝	-11.923
蘖	-11.923
韋庶人	-11.9231
朏	-11.9232
忽然不見	-11.9232
貰	-11.9233
葩	-11.9233
􁌽	-11.9234
又南三百里曰	-11.9234
含元殿	-11.9234
殷浩	-11.9235
司馬相如	-11.9235
涅	-11.9235
偁	-11.9236
慰勞	-11.9236
掌書記	-11.9239
瑒	-11.924
小說家𩔖	-11.9241
見則天下大	-11.9241
勍	-11.9244
委頓	-11.9244
器械	-11.9246
羊祜	-11.9247
升遐	-11.925
衣裾	-11.9251
科斗	-11.9251
后妃	-11.9251
堯叟	-11.9253
以為不祥	-11.9253
司農卿	-11.9253
湯餅	-11.9254
了了	-11.9257
元符末	-11.9257
蘇峻	-11.9257
為余言	-11.9259
綺羅	-11.9259
盤旋	-11.9266
升階	-11.9268
藥餌	-11.927
魏明帝	-11.9285
二十六日	-11.9294
朝野僉載	-11.9297
裨將	-11.9324
元豐末	-11.9331
動揺	-11.9358
嶽廟	-11.9361
隴右	-11.9416
瀟	-11.9508
滎	-11.9527
揩	-11.953
家甚貧	-11.953
姐	-11.9531
十疋	-11.9531
姒	-11.9532
檝	-11.9534
騃	-11.9535
磑	-11.9535
蛛	-11.9535
滸	-11.9536
瞥	-11.9537
蓼	-11.9538
楔	-11.9538
杵臼	-11.9539
駭愕	-11.9539
揜	-11.9539
傚	-11.9539
鴛	-11.954
睥睨	-11.954
倬	-11.954
麈尾	-11.954
猖	-11.954
胯	-11.9541
㺯	-11.9541
璩	-11.9541
蔡攸	-11.9541
庚戌	-11.9542
俳	-11.9542
壚	-11.9543
龍圖閣直學士	-11.9543
桮	-11.9543
詛	-11.9544
羶	-11.9544
旁若無人	-11.9545
簧	-11.9545
衂	-11.9546
戡	-11.9546
絰	-11.9546
飰	-11.9546
悒	-11.9546
裵	-11.9546
捃	-11.9547
紬	-11.9547
繖	-11.9547
笑而不答	-11.9548
潼關	-11.9548
俸禄	-11.9549
誦金剛經	-11.9549
語林曰	-11.9549
鍵	-11.9549
囉	-11.9549
蜥蜴	-11.955
麩	-11.955
瀛洲	-11.955
何良俊撰	-11.955
太和九年	-11.955
豺狼	-11.9551
䱉	-11.9551
夢中所見	-11.9551
盧多遜	-11.9552
蔡卞	-11.9552
蒞	-11.9552
茨	-11.9552
桐廬	-11.9553
黽	-11.9553
瘢	-11.9553
司馬文正公	-11.9553
董仲舒	-11.9554
諧謔	-11.9554
赴省試	-11.9555
麢	-11.9556
從事中郎	-11.9557
剖腹	-11.9557
大名府	-11.9557
妥	-11.9558
温嶠	-11.9558
薜	-11.9558
枳	-11.9558
慥	-11.9559
戚戚	-11.9559
天寶末	-11.956
奉聖㫖	-11.9561
蠻夷	-11.9561
松柏	-11.9561
忤㫖	-11.9562
閻羅王	-11.9562
吕申公	-11.9562
㕘知政事	-11.9563
迨曉	-11.9563
褒貶	-11.9568
舘職	-11.9569
湖湘	-11.9569
管絃	-11.9571
于頔	-11.9572
單騎	-11.9576
宏麗	-11.9577
陸贄	-11.9577
怒罵	-11.9579
言訖不見	-11.9587
承旨	-11.959
之謂乎	-11.9602
曰未也	-11.9611
郵亭	-11.9678
卷之十	-11.9706
季倫	-11.9736
進士擢第	-11.9785
十萬貫	-11.9796
謂余曰	-11.9797
懌	-11.9811
幽閒	-11.9812
倀	-11.9857
薔薇	-11.986
䓁	-11.9861
璜	-11.9864
聒	-11.9867
賙	-11.9867
憒	-11.9868
瑪	-11.9869
鰕	-11.987
蘇味道	-11.9871
億萬	-11.9872
懴悔	-11.9872
颯	-11.9872
梃	-11.9872
彷徨	-11.9873
安樂公主	-11.9873
宋邵博撰	-11.9873
累舉不第	-11.9873
喑	-11.9873
迤	-11.9873
蹉	-11.9874
脂粉	-11.9875
菽園雜記卷	-11.9875
咲	-11.9875
淋漓	-11.9875
噱	-11.9875
絡繹	-11.9876
甆	-11.9876
褫	-11.9877
蛾眉	-11.9877
陶侃	-11.9877
鄂渚	-11.9879
壟	-11.9879
櫝	-11.9879
酆	-11.9879
煦	-11.9879
摺	-11.9879
段文昌	-11.9879
甿	-11.988
牝牡	-11.988
駱駞	-11.9881
串	-11.9881
悽愴	-11.9881
澠水燕談	-11.9881
惎	-11.9881
藷	-11.9881
埒	-11.9881
墊	-11.9882
詮	-11.9882
挿	-11.9882
潑	-11.9882
頎	-11.9883
篡	-11.9884
樣	-11.9884
計無所出	-11.9884
筦	-11.9884
訴寃	-11.9885
凑	-11.9885
軄	-11.9885
焦僥	-11.9886
宣和末	-11.9886
瞬	-11.9887
軿	-11.9887
狐狸	-11.9888
魈	-11.9888
嚬	-11.9888
洒掃	-11.9888
鞠躬	-11.9889
資政殿學士	-11.9889
圗贊曰	-11.9889
裼	-11.9889
鵂鶹	-11.9889
十有二	-11.989
縉雲	-11.989
毯	-11.9891
唐摭言卷	-11.9891
玗	-11.9892
磯	-11.9893
塲屋	-11.9895
節度判官	-11.9896
長九尺	-11.9898
廵檢	-11.9898
赴行在	-11.9898
水出焉而西流注于	-11.9899
磐石	-11.9899
堯咨	-11.99
晨夕	-11.9901
博洽	-11.991
玃	-11.9911
僞蜀	-11.9912
汾隂	-11.9913
兄弟三人	-11.9913
月十三日	-11.9947
水出焉而北流注于	-12.0001
諷誦	-12.0001
佩刀	-12.0146
東軒筆録	-12.0162
天台陶宗儀九成	-12.0211
郭林宗	-12.0212
居相位	-12.0212
諄	-12.0213
躑	-12.0213
奎章閣	-12.0213
旂	-12.0214
提㸃刑獄	-12.0214
斟酌	-12.0215
卲	-12.0215
萬六千	-12.0215
蚊蚋	-12.0215
芬馥	-12.0216
四月八日	-12.0216
膂力	-12.0217
打毬	-12.0217
甯	-12.0219
崐	-12.0219
慵	-12.0219
州剌史	-12.022
都察院	-12.0221
楪	-12.0221
沾濕	-12.0221
莆田	-12.0221
堠	-12.0221
澀	-12.0222
紡	-12.0222
顰	-12.0222
張嘉貞	-12.0222
莞	-12.0222
燬	-12.0223
届	-12.0223
輜重	-12.0223
陳仲舉	-12.0224
仭	-12.0224
劬	-12.0224
郯	-12.0224
鑣	-12.0224
􁈍	-12.0224
鄜	-12.0224
暘	-12.0225
沁	-12.0225
唐太常少卿臨淄柯古	-12.0225
慊	-12.0225
嶓	-12.0225
迯	-12.0225
灞	-12.0226
頹	-12.0226
燉煌	-12.0226
刎	-12.0226
俅	-12.0226
糗	-12.0226
蛆	-12.0226
罍	-12.0227
毫釐	-12.0227
行于世	-12.0227
賾	-12.0227
㳟	-12.0227
漚	-12.0227
朐	-12.0228
綣	-12.0228
嘔血	-12.0229
溝壑	-12.0229
淮甸	-12.023
節度副使	-12.023
乙卯	-12.023
懣	-12.0231
凈	-12.0232
犂	-12.0232
規矩	-12.0233
七八尺	-12.0234
瓷	-12.0234
簽判	-12.0235
其上多玉其下多	-12.0235
辛卯	-12.0236
芸叟	-12.0236
樁	-12.0236
京畿	-12.0236
性至孝	-12.0237
鬚眉	-12.0238
浚儀	-12.0238
隋開皇	-12.0238
鱓	-12.024
隋大業	-12.0241
少昊	-12.0241
繩繫	-12.0241
卷之二	-12.0242
釗	-12.0243
帑藏	-12.0244
宛陵	-12.0244
水出焉而南流注于	-12.0244
無虚日	-12.0245
衣一襲	-12.0248
貞祐	-12.0249
嘉話	-12.0255
謂侍臣曰	-12.0259
舜欽	-12.0274
漁舟	-12.0275
沙漠	-12.0276
愛其才	-12.0295
雨霽	-12.0344
曰誠如	-12.0507
翌	-12.055
天慶觀	-12.0564
州防禦使	-12.0565
㒒	-12.0568
勻	-12.057
禠	-12.0571
楠	-12.0572
籀	-12.0572
瑱	-12.0572
旅邸	-12.0573
餻	-12.0575
澶	-12.0576
濳	-12.0576
蔡君謨	-12.0577
陳恭公	-12.0577
圯	-12.0577
冬十月	-12.0577
滻	-12.0578
妣	-12.0578
蘧	-12.0578
頠	-12.0578
㫤	-12.0579
攔	-12.0579
桯史卷第	-12.058
磴	-12.058
旒	-12.058
纛	-12.0581
鍋	-12.0581
酲	-12.0581
禇遂良	-12.0582
贐	-12.0582
哥舒翰	-12.0582
滏	-12.0583
混沌	-12.0584
鐘磬	-12.0584
猨	-12.0584
集賢校理	-12.0585
彌勒	-12.0585
蕭穎士	-12.0585
刑部郎中	-12.0585
不旋踵	-12.0585
未第時	-12.0585
館伴	-12.0585
隟	-12.0586
印綬	-12.0586
琇	-12.0586
珍羞	-12.0586
斡	-12.0586
花卉	-12.0586
逍遙	-12.0586
濺	-12.0587
妬忌	-12.0587
礫	-12.0588
揮麈後録	-12.0588
瞋目	-12.0588
寇準	-12.0589
帷幄	-12.0589
蟾蜍	-12.0589
閑閑	-12.0589
拊掌	-12.0591
驍勇	-12.0591
尺牘	-12.0591
以孝聞	-12.0591
險阻	-12.0592
陡	-12.0592
丁母憂	-12.0593
虞預晉書曰	-12.0593
朓	-12.0593
毫髪	-12.0594
鱖	-12.0595
長二尺餘	-12.0595
夹	-12.0595
己亥	-12.0595
優容之	-12.0596
鼔吹	-12.0596
毘	-12.0596
有盛名	-12.0596
不見其形	-12.0597
蹇驢	-12.0597
万	-12.0599
鵁	-12.0599
李義府	-12.06
龍興寺	-12.0601
貳負	-12.0601
韓滉	-12.0601
狨	-12.0602
澤其中多	-12.0605
講筵	-12.0607
蕨	-12.0609
德璘	-12.0618
蠖	-12.0626
稱疾不	-12.0634
驚悸	-12.064
月二十三日	-12.0658
鉅萬	-12.0742
迅雷	-12.0759
征遼	-12.0796
鷟	-12.0932
玘	-12.0935
寀	-12.0935
齪	-12.0941
聲甚厲	-12.0942
蚺	-12.0942
䆠	-12.0942
厝	-12.0943
琅琊	-12.0944
囙	-12.0944
慳	-12.0945
挟	-12.0945
潢	-12.0945
博陵崔	-12.0945
朱全忠	-12.0946
校勘	-12.0946
踪	-12.0946
宋子京	-12.0947
酬酢	-12.0948
崛	-12.0948
剗	-12.0949
漉	-12.0949
閼	-12.0949
醯	-12.0949
孫思邈	-12.095
司馬君實	-12.095
䆳	-12.095
鬪	-12.095
卨	-12.095
蒭	-12.095
哩	-12.0951
霓裳	-12.0951
跖	-12.0951
婆娑	-12.0951
太中大夫	-12.0951
辝	-12.0951
桷	-12.0951
垜	-12.0952
童稚	-12.0953
獬	-12.0953
勗	-12.0953
賢良方正	-12.0953
鬐	-12.0953
銍	-12.0954
鮎	-12.0954
怳	-12.0954
諌議大夫	-12.0954
奮迅	-12.0954
槨	-12.0954
鄊	-12.0955
有俊才	-12.0955
騟	-12.0955
㝡	-12.0955
隧	-12.0956
輟耕録	-12.0956
慶元元年	-12.0956
䲭	-12.0956
太子詹事	-12.0957
鶵	-12.0958
夏侯孜	-12.0958
攅	-12.0958
京房易傳曰	-12.0959
蓊	-12.0959
瑯	-12.0959
酢	-12.096
廽	-12.096
抜	-12.096
踐祚	-12.096
元史曰	-12.096
盩	-12.096
鞘	-12.0961
砍	-12.0962
顔延之	-12.0962
萎	-12.0963
磨勘	-12.0963
落拓	-12.0963
大理寺丞	-12.0963
茘	-12.0964
出三水	-12.0964
瘵	-12.0964
茈	-12.0964
彝	-12.0965
水出焉東流注于	-12.0965
勦	-12.0966
吕文穆	-12.0966
孃	-12.0966
胞	-12.0967
彭蠡	-12.0967
猱	-12.0967
貧窶	-12.0967
竹筒	-12.0968
盧柟	-12.0968
通事舍人	-12.0969
硫黄	-12.0972
哀慟	-12.0973
倜	-12.0975
湘潭	-12.0976
紫綬	-12.0987
千字文	-12.0987
范陽盧	-12.1016
為口實	-12.1112
萬仞	-12.1163
央	-12.1242
卷二欽定四庫全書	-12.1253
楫	-12.129
稼軒	-12.1308
綫	-12.1313
瞞	-12.1317
涙	-12.132
㹠	-12.1321
櫪	-12.1322
盱	-12.1324
周伯仁	-12.1326
隈	-12.1326
淝	-12.1328
僎	-12.1328
戊戌	-12.1329
懊	-12.1329
鬲	-12.133
柚	-12.133
堙	-12.133
彌陀	-12.133
酸棗	-12.133
檟	-12.133
変	-12.133
誹	-12.1331
鄣	-12.1331
汞	-12.1331
簣	-12.1333
摛	-12.1333
畤	-12.1334
不逺千里	-12.1334
唁	-12.1335
刲	-12.1335
己丑	-12.1335
皤	-12.1335
蹂	-12.1335
習鑿齒	-12.1336
鹺	-12.1336
卄	-12.1337
鞵	-12.1337
盒	-12.1337
禿	-12.1337
墨客揮犀	-12.1338
騮	-12.1338
鄭絪	-12.1338
紏	-12.1338
倰	-12.1338
沴	-12.134
奘	-12.134
吕文靖	-12.134
紫極宫	-12.134
嶸	-12.134
葆光子	-12.134
祼	-12.1341
嚥	-12.1341
時人為之語曰	-12.1342
峨眉	-12.1342
考亭先生	-12.1342
沈約宋書曰	-12.1342
太液池	-12.1342
婁師徳	-12.1342
毘陵	-12.1343
瞪目	-12.1343
抒	-12.1343
烱	-12.1343
孔文舉	-12.1343
范曄	-12.1343
淳祐	-12.1344
錞	-12.1344
簸	-12.1345
礱	-12.1345
痺	-12.1345
名士傳曰	-12.1345
栁宗元	-12.1346
趙郡李	-12.1346
厓	-12.1347
么	-12.1347
斆	-12.1347
酷烈	-12.1347
洧	-12.1348
無可奈何	-12.1348
其上多金玉其下多	-12.1348
跣足	-12.1349
湘東王	-12.135
又北二百里曰	-12.1351
鸜鵒	-12.1351
歐陽詢	-12.1351
旛	-12.1353
哽	-12.1353
砲	-12.1354
以狀聞	-12.1355
太子少保	-12.1356
岀朝野	-12.1356
謂所親曰	-12.1358
市舶	-12.1364
滁	-12.1371
九月九日	-12.1391
贇	-12.1716
艮嶽	-12.1717
咳	-12.1719
潺	-12.172
鸕鷀	-12.1722
簞	-12.1723
嶂	-12.1723
蝴蝶	-12.1723
儂智髙	-12.1724
弓弩	-12.1724
蓽	-12.1724
狄梁公	-12.1725
癢	-12.1726
人少擢第	-12.1726
襠	-12.1726
窩	-12.1727
蒸餅	-12.1727
蚩	-12.1727
梁師成	-12.1728
陸龜蒙	-12.1728
𦕈	-12.1728
荳	-12.1729
莘	-12.1729
翾	-12.173
阯	-12.173
荀朂	-12.1731
鯽	-12.1731
腸胃	-12.1731
搶	-12.1732
劎	-12.1732
溶	-12.1732
糲	-12.1732
哮吼	-12.1732
糶	-12.1732
戅	-12.1733
肻	-12.1733
嗜慾	-12.1733
聓	-12.1733
佾	-12.1733
贏	-12.1734
殤	-12.1734
畬	-12.1735
獰	-12.1735
蕡	-12.1735
泡	-12.1735
輜	-12.1735
暌	-12.1735
陳瑩中	-12.1735
魁梧	-12.1735
韵	-12.1736
賡	-12.1736
蒂	-12.1736
文士傳曰	-12.1736
桃核	-12.1736
祛	-12.1737
諸葛恪	-12.1737
湎	-12.1737
匭	-12.1737
瓣	-12.1737
彈棊	-12.1737
昆侖	-12.1738
壼	-12.1738
仔	-12.1738
倕	-12.1739
菰	-12.1739
錫賚	-12.1739
寂寥	-12.1739
伋	-12.1739
亦此𩔖也	-12.174
皆此類	-12.174
擐	-12.174
闞	-12.174
唳	-12.1741
菟	-12.1741
賍	-12.1742
左司郎中	-12.1743
稽顙	-12.1743
窫窳	-12.1743
蘇易簡	-12.1743
楣	-12.1744
鏑	-12.1744
昺	-12.1744
鰐魚	-12.1745
寰宇	-12.1745
竹林七賢	-12.1747
端明殿學士	-12.1747
鷩	-12.1748
搃	-12.1749
叵	-12.1749
膿	-12.1749
癸辛雜識	-12.175
任臣案路史	-12.1752
恆	-12.1752
陕	-12.1753
鴘	-12.1753
騅	-12.1757
泑	-12.1759
無少異	-12.1763
庭湊	-12.1777
有道之士	-12.1779
一百七十	-12.1894
萬七千	-12.1904
謂其子曰	-12.1905
桌	-12.2127
餬	-12.2135
肓	-12.2135
事物紺珠	-12.2136
俻	-12.2138
媼	-12.2139
槀	-12.2139
洶洶	-12.214
蛟螭	-12.2141
塾	-12.2141
謄	-12.2144
楞	-12.2144
鯖	-12.2144
搢	-12.2144
䞇	-12.2145
鉦	-12.2145
埏	-12.2145
朝散大夫	-12.2145
粳	-12.2145
十萬緡	-12.2145
篲	-12.2145
世說新語	-12.2146
劉原父	-12.2146
開府儀同三司	-12.2146
蜑	-12.2146
股慄	-12.2146
腮	-12.2147
巾箱中	-12.2147
鷁	-12.2147
靸	-12.2147
浮休子	-12.2147
餚	-12.2148
庄	-12.2148
乙夘	-12.2149
獨醒雜志	-12.2149
嗾	-12.2149
粉黛	-12.2149
殪	-12.2149
籟	-12.2149
賈似道	-12.2149
瞪	-12.2149
明肅太后	-12.215
酉陽雜俎	-12.2151
轢	-12.2151
溲	-12.2151
二更後	-12.2151
鸇	-12.2151
綦	-12.2151
薺	-12.2151
太學諸生	-12.2152
蘚	-12.2152
悝	-12.2152
臚	-12.2152
閘	-12.2152
婣	-12.2152
囯	-12.2153
芑	-12.2153
咍	-12.2153
杜荀鶴	-12.2153
桀紂	-12.2153
峒	-12.2154
擡	-12.2154
与	-12.2154
鰍	-12.2155
痒	-12.2155
瞬息	-12.2155
狒	-12.2155
昪	-12.2156
凱旋	-12.2156
撫掌大笑	-12.2157
敳	-12.2157
摠	-12.2158
奉朝請	-12.2158
儗	-12.2158
讖	-12.2158
顔真卿	-12.2158
鄘	-12.2158
殍	-12.2159
閻立本	-12.2159
喈	-12.2159
彗星	-12.2159
瞋	-12.2159
曖	-12.2159
蕖	-12.216
西京雜記	-12.216
㲄	-12.216
侏	-12.2161
王仁裕	-12.2162
𨗳	-12.2162
股肱	-12.2162
內	-12.2162
犖	-12.2162
蔡伯喈	-12.2162
滬	-12.2162
山之首自	-12.2163
萼	-12.2163
駔	-12.2163
圖贊云	-12.2163
掐	-12.2163
桑道茂	-12.2164
伉	-12.2164
郭元振	-12.2164
廕	-12.2164
薈	-12.2164
鵷	-12.2164
鰩	-12.2165
祧	-12.2165
凜	-12.2166
見則其國	-12.2166
蜼	-12.2167
水出焉西流注于	-12.2168
起居舍人	-12.2168
攢	-12.2168
憧	-12.2168
引經作	-12.2168
嶲	-12.2168
國在其東	-12.2169
紫薇	-12.2169
豸	-12.217
羹	-12.2173
謂其妻曰	-12.2194
月二十二日	-12.2203
十有八	-12.2237
郴	-12.2291
十有六	-12.2407
漱	-12.2563
娣	-12.2564
魎	-12.2565
篾	-12.257
撝	-12.2573
緊	-12.2574
匀	-12.2574
龍圖閣學士	-12.2575
傳信記	-12.2576
茅亭客話	-12.2576
甎	-12.2576
掊	-12.2576
閭閻	-12.2577
翌旦	-12.2577
張茂先	-12.2578
辣	-12.2578
褌	-12.2578
許孟容	-12.2579
㫄	-12.2579
瞿塘	-12.258
欖	-12.258
螟	-12.258
称	-12.258
萄	-12.258
顱	-12.258
頔	-12.2581
描	-12.2581
輞	-12.2582
柈	-12.2582
痰	-12.2582
荃	-12.2583
豈偶然哉	-12.2583
椁	-12.2583
羯皷	-12.2583
釋道安	-12.2584
捩	-12.2584
淦	-12.2584
李義山	-12.2584
感遇傳	-12.2584
裀	-12.2584
宋次道	-12.2584
玦	-12.2584
鼾	-12.2585
袪	-12.2585
殱	-12.2585
王孝伯	-12.2585
嗚	-12.2585
氲	-12.2585
舡	-12.2586
搴	-12.2586
詘	-12.2586
源乾曜	-12.2586
糚	-12.2586
䜿	-12.2588
靚粧	-12.2588
菑	-12.2588
墾	-12.2588
窈	-12.2588
窈窕	-12.2589
檠	-12.2589
嚇	-12.2589
﨑嶇	-12.2589
噲	-12.259
聃	-12.259
殭	-12.259
明四川道監察御史内鄉李雲鵠校	-12.259
搬	-12.259
閟	-12.2591
刅	-12.2591
闚	-12.2591
王子猷	-12.2591
砥礪	-12.2591
嶼	-12.2591
熬	-12.2592
州團練副使	-12.2592
怏	-12.2592
未知孰是	-12.2592
溧	-12.2592
炮	-12.2593
纘	-12.2593
糈	-12.2593
魚朝恩	-12.2594
拳拳	-12.2596
頺	-12.2596
旃檀	-12.2596
南部新書	-12.2597
磎	-12.2597
蝨	-12.2598
栲	-12.2598
参	-12.2598
綖	-12.2598
椐	-12.2599
苻	-12.26
㕓	-12.26
鄙俚	-12.26
䂓	-12.26
顧長康	-12.2601
晁公武讀書志	-12.2601
虹蜺	-12.2601
韉	-12.2604
之山其上多金玉其下多	-12.2605
觀文殿學士	-12.2608
翃	-12.261
爕	-12.2622
東華門	-12.2641
翕	-12.3014
厰	-12.302
清波雜志卷第	-12.3023
飣	-12.3024
䜛	-12.3024
椰	-12.3025
蕉	-12.3027
屡	-12.3028
嵇叔夜	-12.3029
皺	-12.3029
埜	-12.3029
炁	-12.303
㙮	-12.3031
幞	-12.3032
捄	-12.3032
撅	-12.3032
煤	-12.3032
騏	-12.3032
蘸	-12.3033
祏	-12.3033
𣲖	-12.3034
陳思王	-12.3034
鄧粲晉紀曰	-12.3036
案金史本𫝊	-12.3036
忳	-12.3036
欻	-12.3036
蛭	-12.3036
瀚	-12.3036
蟆	-12.3036
巉	-12.3036
砧	-12.3036
嶧	-12.3037
綈	-12.3037
髩	-12.3037
謝仁祖	-12.3038
部貟外郎	-12.3038
餼	-12.3038
醼	-12.3038
搥	-12.3038
薇	-12.3038
嘱	-12.3038
羗	-12.3038
佖	-12.3039
耆舊續聞	-12.3039
纍	-12.3039
烜	-12.3039
笙簫	-12.3039
喀	-12.3039
帢	-12.3039
坼	-12.304
狌狌	-12.304
僥	-12.304
捴	-12.3041
輦轂	-12.3041
鄯	-12.3041
飥	-12.3042
纍纍	-12.3042
沈休文	-12.3043
匕箸	-12.3043
扞	-12.3043
帟	-12.3043
𧦬	-12.3044
蕭至忠	-12.3044
蹴踘	-12.3044
矗	-12.3045
苾	-12.3045
蔡元度	-12.3045
狙	-12.3046
攣	-12.3046
荚	-12.3046
艸	-12.3046
宗楚客	-12.3046
夥	-12.3047
𥪡	-12.3047
有難色	-12.3047
塌	-12.3047
孫光憲	-12.3047
欷	-12.3047
鞴	-12.3047
櫺	-12.3048
孟頫	-12.3048
𥚹	-12.3048
棬	-12.3048
侶	-12.3049
阼	-12.3049
埤	-12.305
國子司業	-12.3051
瀍	-12.3052
五侯鯖	-12.3052
歸田録	-12.3053
楛	-12.3053
案此條	-12.3053
瀨	-12.3053
机	-12.3054
蒐	-12.3054
盝頂	-12.3057
金百兩	-12.3057
醺	-12.3059
呦	-12.3061
雲仙雜記	-12.3063
痔	-12.3064
晙	-12.3076
御史裏行	-12.3237
珝	-12.3484
阡陌	-12.349
霈	-12.3497
禊	-12.3498
筑	-12.3498
鰥	-12.3499
姚元崇	-12.35
獐	-12.3503
趋	-12.3504
揄	-12.3505
飈	-12.3505
顧愷之	-12.3505
陴	-12.3506
衎	-12.3506
阨	-12.3506
惺	-12.3506
拗	-12.3508
腆	-12.3508
銛	-12.351
烙	-12.3511
鬯	-12.3511
丒	-12.3512
疣	-12.3512
田令孜	-12.3513
泅	-12.3513
儐	-12.3513
濓	-12.3514
宋祁唐書曰	-12.3514
羝	-12.3514
婪	-12.3514
餛	-12.3515
趕	-12.3515
剜	-12.3515
景泰中	-12.3516
舷	-12.3516
湄	-12.3516
佻	-12.3516
罥	-12.3516
昝	-12.3516
雩	-12.3516
仄	-12.3517
牾	-12.3517
畎	-12.3517
壖	-12.3518
淇	-12.3518
冺	-12.3518
篚	-12.3518
涴	-12.3518
淒	-12.3519
鞬	-12.3519
廰	-12.352
岑文本	-12.352
篁	-12.352
昴	-12.352
勮	-12.352
通政司	-12.3521
謌	-12.3521
晉安帝	-12.3521
檣	-12.3521
壕	-12.3522
歸潛志卷	-12.3522
參大政	-12.3522
煌煌	-12.3522
氈	-12.3522
盱眙	-12.3522
憨	-12.3522
捋	-12.3522
乾隆四十三年	-12.3522
饅	-12.3523
蠒	-12.3524
楊嗣復	-12.3524
鷲	-12.3524
中書侍郎平章事	-12.3524
簏	-12.3525
趙王倫	-12.3525
𣢾	-12.3525
腿	-12.3525
奉聖旨	-12.3525
崦	-12.3526
狖	-12.3526
屩	-12.3526
朦	-12.3526
䭔	-12.3527
踐阼	-12.3527
水出焉南流注于	-12.3528
張思光	-12.3528
鼐	-12.3528
又東三百里曰	-12.3529
悒悒	-12.3529
錢希白	-12.3529
眯	-12.3529
熲	-12.3529
屎	-12.353
左藏庫	-12.353
喋	-12.3531
洶	-12.3531
為己任	-12.3531
可以禦火	-12.3531
䧺	-12.3531
蠃	-12.3531
䧏	-12.3532
鬼谷子	-12.3533
蹷	-12.3533
輥	-12.3535
䱱	-12.3535
張太尉道	-12.3536
春明門	-12.3608
宗初即位	-12.3733
珤	-12.3996
袴褶	-12.3999
孛	-12.4
聱	-12.4001
叵測	-12.4002
縂	-12.4004
跼	-12.4004
廞	-12.4006
𥜗	-12.4008
驊	-12.4009
諠譁	-12.4009
逹魯花赤	-12.4009
豉	-12.401
弧	-12.401
范曅後漢書曰	-12.401
憸	-12.4011
齟	-12.4012
枋	-12.4012
洳	-12.4013
湟	-12.4013
囁	-12.4013
兊	-12.4013
苓	-12.4013
櫜鞬	-12.4013
絜	-12.4014
晉安帝紀曰	-12.4014
淬	-12.4014
擿	-12.4015
羃	-12.4015
傴	-12.4015
踟蹰	-12.4016
芫	-12.4016
芷	-12.4016
勰	-12.4016
臀	-12.4017
晢	-12.4017
价	-12.4018
糕	-12.4018
蜓	-12.4018
焯	-12.4018
陘	-12.4018
嘉陵江	-12.4019
簀	-12.4019
張文潜	-12.4019
凭欄	-12.4019
締	-12.4019
淖	-12.4019
瀰	-12.402
棨	-12.402
可得聞乎	-12.402
蝤	-12.402
日將暮	-12.4021
牂	-12.4022
啣	-12.4022
站	-12.4022
嬙	-12.4022
徐師川	-12.4023
黻	-12.4023
孔目官	-12.4023
翽	-12.4023
釭	-12.4024
𦵔	-12.4024
緹	-12.4024
婬	-12.4024
巫覡	-12.4024
栝	-12.4024
皐	-12.4025
蚡	-12.4026
杜如晦	-12.4027
軨	-12.4027
磾	-12.4027
劉㑹孟曰	-12.4027
欤	-12.4028
鉷	-12.4028
蓑	-12.4029
唐孫光憲撰	-12.4029
臓	-12.4029
又西二百里曰	-12.403
自天而下	-12.403
悮	-12.4031
有獸焉其狀如牛而	-12.4031
芎藭	-12.4033
蓀	-12.4033
觝	-12.4033
錚	-12.4034
綆	-12.4035
贛	-12.4037
榣	-12.4037
哨	-12.404
啻	-12.4435
齕	-12.4516
擷	-12.4522
薬	-12.4523
瘟	-12.4525
饘	-12.4526
熺	-12.4526
竚	-12.4527
㤙	-12.4528
渤	-12.453
鋹	-12.4532
朝奉郎	-12.4532
張僧繇	-12.4534
宓	-12.4534
貊	-12.4534
揉	-12.4535
漢章帝	-12.4535
巗	-12.4535
瀦	-12.4535
峡	-12.4536
㨿	-12.4536
燠	-12.4536
臾	-12.4536
闠	-12.4537
𬒮	-12.4537
鑼	-12.4538
橛	-12.4538
扛	-12.4538
栁公權	-12.4539
胙	-12.4539
畒	-12.454
鴝鵒	-12.454
酖	-12.4541
金紫光禄大夫	-12.4541
華林園	-12.4542
無孑遺	-12.4542
髹	-12.4542
􁝜	-12.4543
枸杞	-12.4543
蠆	-12.4543
靨	-12.4543
髽	-12.4544
縲	-12.4544
璪	-12.4544
有愧色	-12.4545
駱賔王	-12.4545
䣛	-12.4545
踰垣而	-12.4545
獮	-12.4546
皴	-12.4546
媟	-12.4546
泮	-12.4546
廄	-12.4546
戞	-12.4546
貉	-12.4546
鍍	-12.4547
洱	-12.4547
夔	-12.4547
薛道衡	-12.4547
濩	-12.4547
犇	-12.4547
鏖	-12.4547
擴	-12.4548
蹌	-12.4548
渦	-12.4548
惹	-12.4549
糝	-12.4549
鰼	-12.4551
芹	-12.4551
翬	-12.4551
乾寧中	-12.4551
採訪使	-12.4552
碍	-12.4552
閈	-12.4553
夜將半	-12.4553
賸	-12.4553
􁰽	-12.4553
夷堅志丁卷	-12.4554
麪	-12.4554
宣仁聖烈	-12.4554
矦	-12.4555
躊躇	-12.4555
長七寸	-12.4555
醸	-12.4555
秫	-12.4555
幌	-12.4556
縢	-12.4556
其可得乎	-12.4556
水出于其陽	-12.4556
酒一壺	-12.4556
纉	-12.4556
餤	-12.4556
珊	-12.4557
拌	-12.4557
邢和璞	-12.4558
褚遂良	-12.4558
蘼	-12.4558
絪	-12.4559
窅	-12.4559
蕞	-12.4561
澦	-12.4562
有知人之鑒	-12.4562
媾	-12.4569
帖木児	-12.5066
磐	-12.5075
紕	-12.5082
肪	-12.5083
耙	-12.5084
蕊	-12.5084
縚	-12.5085
某月某日	-12.5086
笻	-12.5087
磕	-12.5089
斁	-12.509
頳	-12.509
中散大夫	-12.5091
朧	-12.5092
揑	-12.5092
鵓	-12.5092
輻輳	-12.5092
灤	-12.5092
馹	-12.5092
睚眦	-12.5092
繽	-12.5092
踉	-12.5092
棐	-12.5093
匏	-12.5093
茱萸	-12.5093
賖	-12.5093
窶	-12.5094
丏	-12.5094
驀	-12.5094
淂	-12.5094
痼	-12.5095
僂	-12.5095
柁	-12.5095
直龍圖閣	-12.5095
钁	-12.5096
玫瑰	-12.5096
悙	-12.5096
苣	-12.5096
异	-12.5096
淆	-12.5097
天章閣	-12.5097
榱	-12.5097
滹沱	-12.5097
㢤	-12.5097
饜	-12.5097
㶚	-12.5097
貓	-12.5097
躔	-12.5098
凂	-12.5098
覷	-12.5098
痍	-12.5098
躑躅	-12.5098
周日用曰	-12.5098
篩	-12.5098
皃	-12.5099
婁師德	-12.5099
鶩	-12.5099
侁	-12.5099
玉照新志	-12.5099
猊	-12.51
匾	-12.51
吮	-12.51
蟣	-12.51
穡	-12.51
幵	-12.51
太子洗馬	-12.5101
矟	-12.5101
盧藏用	-12.5101
儀鸞司	-12.5102
斚	-12.5102
耘	-12.5103
濆	-12.5103
䗫	-12.5103
澍	-12.5103
罏	-12.5103
冽	-12.5104
臊	-12.5104
滄溟	-12.5104
醤	-12.5104
文獻通考	-12.5104
摴	-12.5104
茭	-12.5104
溱	-12.5105
蜺	-12.5105
不茹葷	-12.5105
沈佺期	-12.5105
馘	-12.5105
妆	-12.5105
韈	-12.5105
迦葉佛	-12.5105
饉	-12.5105
不拘小節	-12.5106
沈存中	-12.5106
吕汲公	-12.5106
囀	-12.5107
儘	-12.5107
搜神後記卷	-12.5107
惓	-12.5107
昃	-12.5108
璇	-12.5108
緄	-12.5108
嵫	-12.5109
垕	-12.511
丰	-12.511
闒	-12.511
聞見後錄	-12.511
褾	-12.5111
韁	-12.5111
多㻬琈之玉	-12.5111
晉諸公贊曰	-12.5112
其鳴自詨	-12.5112
萯	-12.5112
綻	-12.5113
䍶	-12.5113
又東北二百里曰	-12.5114
有草焉其狀如	-12.5114
攤	-12.5114
又東三十里曰	-12.5115
諢	-12.5115
抺	-12.5115
潏	-12.5115
從父弟	-12.5115
又北三百里曰	-12.5116
徠	-12.5116
筴	-12.5116
遴	-12.5117
有木焉其狀如	-12.5117
永樂大典	-12.5117
嚚	-12.5117
李淳風	-12.5119
臷	-12.512
玉壺野史卷	-12.512
竑	-12.512
雎	-12.5121
楊虞卿	-12.5121
鶖	-12.513
又東南一百	-12.5162
鐃	-12.5667
醻	-12.5671
軺	-12.5671
㮣	-12.5671
駈	-12.5672
荏苒	-12.5672
戦	-12.5673
单	-12.5674
塤	-12.5676
孳	-12.5677
倔	-12.5678
腔	-12.5678
䆫	-12.5678
湔	-12.5678
蹭蹬	-12.5679
敭	-12.5679
庳	-12.5679
廋	-12.5679
寞	-12.5679
承務郎	-12.568
酴	-12.5681
狡獪	-12.5681
菔	-12.5681
邾	-12.5681
矻	-12.5681
嵎	-12.5681
樞密直學士	-12.5681
躅	-12.5682
偪	-12.5682
桓彦範	-12.5683
頵	-12.5683
怫	-12.5683
祲	-12.5684
怎	-12.5684
㤀	-12.5684
爬	-12.5684
跑	-12.5684
霤	-12.5684
顫	-12.5684
隤	-12.5684
榔	-12.5685
贗	-12.5685
癯	-12.5686
酎	-12.5686
許玄度	-12.5686
踖	-12.5686
踧	-12.5686
虨	-12.5686
𣑽	-12.5686
瑠璃	-12.5687
狭	-12.5687
蛄	-12.5687
嚕	-12.5687
凹	-12.5687
瀧	-12.5687
大荒之中有	-12.5687
蝉	-12.5688
騊駼	-12.5688
餧	-12.5689
扳	-12.569
宋司馬光撰	-12.569
畛	-12.569
傖	-12.569
薙	-12.5691
匄	-12.5691
陶𢎞景	-12.5691
安重誨	-12.5691
彠	-12.5691
傀	-12.5691
盧齊卿	-12.5692
珧	-12.5692
詗	-12.5693
蒺	-12.5694
徯	-12.5694
遄	-12.5694
尫	-12.5694
霓裳羽衣曲	-12.5694
傴僂	-12.5694
薛保遜	-12.5694
ခ	-12.5695
呻	-12.5695
扑	-12.5696
葯	-12.5696
顇	-12.5696
紼	-12.5696
嶤	-12.5696
䏿	-12.5697
掞	-12.5697
括異志卷苐	-12.5697
李商𨼆	-12.5697
箆	-12.5697
瘖	-12.5697
藇	-12.5698
蜊	-12.5698
楢	-12.5698
鞦	-12.5699
宂	-12.57
靼	-12.57
䍐	-12.57
呂氏春秋	-12.57
鶡	-12.5701
江淹遂古篇	-12.5701
驃	-12.5702
滈	-12.5702
灔	-12.5703
䁮	-12.5703
宋邵伯溫撰	-12.5703
妊	-12.5703
瘕	-12.5704
梦	-12.5704
怜	-12.5705
唫	-12.5705
哄	-12.5705
蟇	-12.5708
􁀾	-12.5708
鱟	-12.5709
僴	-12.571
靦	-12.5711
嗷	-12.5712
一男一女	-12.5798
孥	-12.6271
壐	-12.6283
晶	-12.6285
李廷珪墨	-12.6286
套	-12.6292
饍	-12.6292
滕元發	-12.6293
鞮	-12.6294
郃	-12.6294
㯽榔	-12.6295
建成元吉	-12.6295
孱	-12.6296
咆	-12.6296
火浣布	-12.6297
綮	-12.6298
僶	-12.6299
祫	-12.63
王輔嗣	-12.63
尠	-12.63
蜣	-12.6301
桔	-12.6301
魨	-12.6301
東齋記事	-12.6301
礴	-12.6302
臈	-12.6304
蜉	-12.6304
眙	-12.6305
朢	-12.6305
岏	-12.6305
搘	-12.6305
狄武襄	-12.6305
圈	-12.6305
楊誠齋	-12.6306
㬰	-12.6306
蹻	-12.6306
氾	-12.6306
皿	-12.6306
杜陽雜編	-12.6306
籮	-12.6307
蠣	-12.6307
瀬	-12.6307
苹	-12.6307
相臺岳珂	-12.6307
趁	-12.6307
惙	-12.6308
爹	-12.6308
噏	-12.6309
沬	-12.6309
釂	-12.6309
氤	-12.6309
祉	-12.6309
鸂鶒	-12.6309
穟	-12.6309
薯	-12.631
淤	-12.631
篥	-12.631
九里松	-12.631
餵	-12.631
漯	-12.6311
逶	-12.6311
崆峒	-12.6311
鰒	-12.6311
筞	-12.6312
穂	-12.6312
猎	-12.6312
是何祥也	-12.6313
眎	-12.6313
襁	-12.6313
罝	-12.6314
緼	-12.6314
陸務觀	-12.6314
明陸容撰	-12.6314
濼	-12.6314
趫	-12.6314
柝	-12.6315
賺	-12.6315
鮭	-12.6315
𪠘	-12.6315
堯舜禹湯	-12.6315
􁨇	-12.6315
躄	-12.6316
焜	-12.6316
鵩	-12.6316
瞢	-12.6316
手不釋卷	-12.6316
縟	-12.6316
儡	-12.6317
磋	-12.6317
襕	-12.6317
卸	-12.6317
罘	-12.6318
剛朗凌	-12.6318
蠓	-12.6318
刓	-12.6318
郫	-12.6318
秭	-12.6318
摇	-12.6318
嘈	-12.6318
讋	-12.6318
痁	-12.6319
璃	-12.6319
歔	-12.632
鸐	-12.632
阿育王	-12.632
葅	-12.632
黝	-12.632
十洲記	-12.632
呿	-12.632
韓蘄王	-12.6321
嘑	-12.6321
捭	-12.6321
水出于其上潛于其下	-12.6321
偎	-12.6321
滚	-12.6321
鍬	-12.6322
醲	-12.6322
彀	-12.6322
熊執易	-12.6322
拚	-12.6322
霾	-12.6322
灊	-12.6323
恟	-12.6323
宁	-12.6323
忒	-12.6324
參寥子曰	-12.6324
枿	-12.6324
麕	-12.6324
郅	-12.6324
痴	-12.6325
豳	-12.6325
欽定四庫全書山海經廣注卷	-12.6325
囹圄	-12.6325
榷	-12.6325
鷃	-12.6325
其陽多赤金	-12.6325
五代王定保撰	-12.6325
玫	-12.6326
闖	-12.6327
鑒誡録巻	-12.6327
猳	-12.6327
昞	-12.6328
太子少傅	-12.6329
尽	-12.6331
慴	-12.6332
鵸䳜	-12.6332
蕝	-12.6334
時人爲之語曰	-12.6334
芡	-12.6335
殳	-12.6335
窳	-12.6337
月初二日	-12.6349
宗在藩邸	-12.641
獅	-12.6947
諞	-12.6955
延陵季子	-12.6955
骼	-12.6956
湓	-12.6956
哮	-12.6958
阪	-12.696
葫	-12.6962
漪	-12.6962
㡓	-12.6963
𦦨	-12.6965
晒	-12.6966
彄	-12.6966
水部員外郎	-12.6967
瑑	-12.6967
嫚	-12.6968
浯	-12.6969
􁑮	-12.697
忭	-12.697
礼	-12.697
迪功郎	-12.6971
蕕	-12.6971
瀹	-12.6972
欎	-12.6973
霰	-12.6973
睍	-12.6973
徊	-12.6973
䌫	-12.6974
鏟	-12.6974
九花虬	-12.6974
魏氏春秋曰	-12.6974
鷸	-12.6974
𥚑	-12.6975
呀	-12.6975
鄽	-12.6975
硃	-12.6975
晉百官名曰	-12.6976
鰌	-12.6976
鑽	-12.6976
貔	-12.6976
隍	-12.6977
衽	-12.6977
㕘大政	-12.6977
蕳	-12.6977
玕	-12.6978
繢	-12.6978
茆	-12.6978
絁	-12.6978
湘山野録	-12.6978
狻	-12.6978
埭	-12.6978
楊文貞公	-12.6979
頞	-12.6979
宋魏泰撰	-12.6979
瀵	-12.6979
个	-12.698
疉	-12.698
踢	-12.698
崙	-12.698
汝隂王明清	-12.698
鮐	-12.6981
岧	-12.6981
金剛般若經	-12.6981
綳	-12.6981
蓴	-12.6981
麯	-12.6981
饔	-12.6981
抝	-12.6982
珫	-12.6982
獷	-12.6982
䖟	-12.6983
輀	-12.6983
愒	-12.6983
杌	-12.6983
踆	-12.6983
韲	-12.6983
元劉祁撰	-12.6983
蓁	-12.6984
掌綸誥	-12.6984
猢	-12.6984
棫	-12.6984
耦	-12.6984
麂	-12.6985
賨	-12.6985
刦	-12.6985
崢	-12.6985
鶘	-12.6985
瑇瑁	-12.6985
𧺫	-12.6985
牁	-12.6986
棖	-12.6986
衊	-12.6987
儵	-12.6988
慱	-12.6988
柎	-12.6988
碭	-12.6988
包孝肅	-12.6988
鵉	-12.6988
轆	-12.6988
轤	-12.6989
條例司	-12.6989
其陽多金其陰多	-12.699
猒	-12.699
法書名畫	-12.6991
鯔	-12.6992
溘	-12.6992
窹	-12.6993
水出于其陰	-12.6994
荇	-12.6994
搨	-12.6995
輈	-12.6996
桎	-12.6996
其陽多㻬琈之玉	-12.6996
羬	-12.6996
齠	-12.6996
而西流注于	-12.6996
肄	-12.6997
譓	-12.6997
劼	-12.6997
橦	-12.6998
彗	-12.6998
其鳴自呼	-12.6998
拇	-12.6999
瓻	-12.7001
睽車志	-12.7003
𬗋	-12.7665
蚨	-12.7668
臮	-12.7671
畞	-12.7673
洊	-12.7674
龍圖閣待制	-12.7676
蜒	-12.7676
搯	-12.7677
嘖	-12.7677
籹	-12.7678
桉	-12.7678
懔	-12.7678
洞冥記	-12.7679
覦	-12.7679
迍	-12.7679
挼	-12.7679
梔	-12.7679
昫	-12.7681
郿	-12.7683
郝處俊	-12.7684
週	-12.7684
掎	-12.7684
旐	-12.7684
鶬	-12.7685
淯	-12.7685
籜	-12.7685
襜	-12.7686
沭	-12.7686
慈聖光獻	-12.7686
迁	-12.7687
韌	-12.7687
腯	-12.7687
閾	-12.7687
崤	-12.7687
𣺌	-12.7687
祺	-12.7688
橈	-12.7688
瘍	-12.7688
櫳	-12.7689
阡	-12.7689
碪	-12.7689
煬	-12.7689
栱	-12.7689
邜	-12.7689
吕頥浩	-12.7689
鬃	-12.7689
王充論衡	-12.769
娩	-12.769
鳳閣侍郎	-12.769
絀	-12.769
祓	-12.7691
鐵圍山叢談	-12.7691
耨	-12.7691
圬	-12.7692
蜡	-12.7692
趄	-12.7692
楙	-12.7692
埀	-12.7693
遅	-12.7693
唐劉肅撰	-12.7693
桁	-12.7693
芙	-12.7693
資政殿大學士	-12.7693
𠂻	-12.7693
眥	-12.7694
蜋	-12.7694
棓	-12.7694
窪	-12.7694
菉	-12.7694
魴	-12.7695
緦	-12.7695
入水不濡	-12.7695
鈒	-12.7696
莵	-12.7696
邙	-12.7696
恁	-12.7697
餠	-12.7697
䦘	-12.7697
髫	-12.7697
駰	-12.7697
橡	-12.7697
瓦棺寺	-12.7697
茁	-12.7698
顕	-12.7698
媽	-12.7699
漼	-12.7699
宋明帝文章志曰	-12.77
蚳	-12.77
涘	-12.77
鮆	-12.77
東海郯人	-12.77
邡	-12.7701
身首異處	-12.7701
逭	-12.7701
􁈡	-12.7701
瑫	-12.7701
跟	-12.7701
峘	-12.7701
裴耀卿	-12.7701
又東二百里曰	-12.7702
臞	-12.7702
巂	-12.7702
𠻳	-12.7702
睠	-12.7703
鱅	-12.7703
陳振孫書録解題	-12.7703
山居新話	-12.7704
秔	-12.7704
艫	-12.7704
鮯	-12.7704
櫨	-12.7704
蠪	-12.7705
觱	-12.7705
㠶	-12.7705
褶	-12.7705
談薈云	-12.7705
忖	-12.7705
事無巨細	-12.7706
滙	-12.7706
蠵	-12.7707
獙	-12.7707
徨	-12.7709
芃	-12.7709
宋釋文瑩撰	-12.771
又西三百五十里曰	-12.771
儦	-12.771
睪	-12.7714
癥	-12.7714
尻	-12.7715
珓	-12.7715
氅	-12.7715
棼	-12.7716
馗	-12.7717
尙	-12.772
癬	-12.7722
癉	-12.7727
欽定四庫全書東軒筆録卷	-12.782
䘖	-12.8432
𡵨	-12.8434
票	-12.8435
車駕四中道	-12.8435
綝	-12.8437
摻	-12.8442
崕	-12.8442
蜞	-12.8443
􁄭	-12.8443
宋李昉等編畜獸	-12.8444
大金國志	-12.8447
罨	-12.8447
鬍	-12.8447
爱	-12.8448
椑	-12.8449
睞	-12.845
戣	-12.8451
蜿	-12.8451
太平廣記巻四百四十	-12.8451
嗽	-12.8451
佽	-12.8452
邨	-12.8453
迩	-12.8453
徐廣晉紀曰	-12.8454
蔲	-12.8454
鄖	-12.8455
頏	-12.8455
柢	-12.8455
僃	-12.8456
咈	-12.8456
裭	-12.8456
千乘萬騎	-12.8457
紲	-12.8457
於稠人中	-12.8458
擗	-12.8459
刖	-12.8459
疹	-12.8459
鴣	-12.8459
慼	-12.846
晉干寳撰	-12.846
中州集𫝊	-12.846
虓	-12.846
枵	-12.846
􁫢	-12.846
傔	-12.846
瑚	-12.8461
騖	-12.8461
秦皇漢武	-12.8462
秖	-12.8462
劚	-12.8462
韐	-12.8462
漓	-12.8462
焼	-12.8462
蜾	-12.8462
簴	-12.8463
彭汝礪	-12.8463
肈	-12.8463
闉	-12.8464
膾炙人口	-12.8464
柂	-12.8465
陳郡陽夏人	-12.8465
煅	-12.8465
諉	-12.8466
謝承後漢書曰	-12.8466
藎	-12.8466
茜	-12.8466
鶹	-12.8466
凊	-12.8466
悃	-12.8467
蓺	-12.8467
鉸	-12.8467
玉清昭應宫	-12.8467
糵	-12.8468
章仇兼瓊	-12.8468
哆	-12.8468
鞚	-12.8468
翰林侍讀學士	-12.8469
水出焉而東北流注于	-12.8469
颶	-12.8469
桴	-12.8469
瑯琊臨沂人	-12.8469
嬋	-12.8469
躐	-12.8469
侄	-12.847
粃	-12.847
七萃之士	-12.8471
倮	-12.8471
戬	-12.8471
狪	-12.8471
砭	-12.8471
其鳴自叫	-12.8472
峪	-12.8472
甍	-12.8473
司徒左長史	-12.8473
嶢	-12.8473
蠚	-12.8474
砑	-12.8474
詩含神霧	-12.8474
侠	-12.8474
埴	-12.8474
蘺	-12.8475
㦲	-12.8475
椉	-12.8475
痾	-12.8475
鯸	-12.8476
繰	-12.8476
萹	-12.8476
濦	-12.8476
呷	-12.8477
䉋	-12.8477
珞	-12.8477
酩	-12.8478
濘	-12.8478
脰	-12.8478
瓔	-12.8479
藐	-12.8479
瞩	-12.8479
貆	-12.8479
愳	-12.8482
銕	-12.8483
戺	-12.8483
淙	-12.8487
鱷	-12.8488
乃膜拜而受	-12.849
鄔	-12.849
帊	-12.8496
􁩪	-12.9248
隨𨼆漫録	-12.9251
㝢	-12.9264
塍	-12.9264
廚	-12.9273
硤	-12.9274
蚪	-12.9274
邛	-12.9274
檉	-12.9276
愻	-12.9278
壈	-12.9278
滷	-12.9279
牴	-12.9281
菘	-12.9281
滲	-12.9282
淅	-12.9283
訏	-12.9283
炅	-12.9284
删	-12.9284
蜻	-12.9285
駘	-12.9285
詖	-12.9287
梏	-12.9287
鑱	-12.9287
煆	-12.9287
蒔	-12.9288
瞍	-12.9289
晬	-12.9289
迕	-12.9289
勌	-12.9289
褐用粉入	-12.9289
剩	-12.929
軏	-12.929
挐	-12.9291
弥	-12.9291
槧	-12.9291
昜	-12.9291
丫	-12.9291
豋	-12.9292
茱	-12.9292
薏	-12.9292
􁏏	-12.9292
糯	-12.9293
圻	-12.9293
鴒	-12.9294
摰	-12.9294
啁	-12.9294
賵	-12.9294
捺	-12.9295
釃	-12.9295
鄲	-12.9295
鯈	-12.9296
蠭	-12.9296
洼	-12.9296
贜	-12.9296
瓛	-12.9296
醅	-12.9296
峥	-12.9296
圌	-12.9296
磨兠堅	-12.9296
㩁	-12.9296
倏	-12.9297
号	-12.9297
曁	-12.9297
脞	-12.9298
攏	-12.9298
錙	-12.9298
薿	-12.9299
􁏢	-12.93
斕	-12.93
莓	-12.93
萏	-12.93
鯪	-12.93
鋟	-12.93
鷖	-12.93
呶	-12.9301
欬	-12.9301
很	-12.9301
垠	-12.9301
淼	-12.9302
穄	-12.9302
唐張讀撰	-12.9303
袷	-12.9303
鍮	-12.9303
八王故事曰	-12.9304
璝	-12.9304
鍠	-12.9304
鍰	-12.9304
噦	-12.9304
?	-12.9305
椶	-12.9305
䳌	-12.9305
鼙	-12.9305
䥫	-12.9305
鳧	-12.9305
糈用稌	-12.9306
聪	-12.9306
侯鯖録	-12.9306
搒	-12.9306
恃才傲物	-12.9306
絺	-12.9306
凸	-12.9307
又東南二百里曰	-12.9307
煨	-12.9307
櫾	-12.9308
勳	-12.9308
秬	-12.9309
狺	-12.931
葌	-12.931
誗	-12.931
牎	-12.931
罳	-12.931
又北百八十里曰	-12.9312
哦	-12.9312
鷮	-12.9313
幛	-12.9314
文多不盡載	-12.9314
愐	-12.9314
訆	-12.9314
歕	-12.9315
侗	-12.9315
又東四百里曰	-12.9317
偘	-12.9317
嗌	-12.9317
旟	-12.9317
鐐	-12.9318
雘	-12.9319
卅	-12.9322
墁	-12.9323
眈	-12.9323
年可十六七	-12.9323
靛	-12.9324
􁌻	-12.9325
舐	-12.9327
鬘	-12.933
仵	-12.9332
撙	-13.017
擦	-13.0171
跽	-13.0172
繍	-13.0176
鄱	-13.0177
杙	-13.0177
㡳	-13.0177
鼃	-13.0178
汐	-13.018
珩	-13.0181
銑	-13.0182
皛	-13.0183
吭	-13.0184
旴	-13.0184
䌓	-13.0184
㒷	-13.0186
三班奉職	-13.0188
渌	-13.0188
幟	-13.0188
狴	-13.0188
罡	-13.0188
娉	-13.0189
炉	-13.019
雏	-13.019
蚰	-13.0191
窬	-13.0191
栩	-13.0192
鄼	-13.0194
幍	-13.0195
杅	-13.0195
曈	-13.0196
齔	-13.0197
鸑	-13.0197
􁒍	-13.0197
𠡠	-13.0198
洺	-13.0198
紞	-13.0198
沲	-13.0199
恧	-13.0199
麑	-13.02
纁	-13.02
砢	-13.0201
瞠	-13.0201
稳	-13.0201
靶	-13.0202
泜	-13.0203
灋	-13.0203
牣	-13.0203
潨	-13.0203
跏	-13.0203
䏶	-13.0203
嫠	-13.0203
蔌	-13.0203
粛	-13.0204
爚	-13.0204
禩	-13.0204
燖	-13.0204
菡	-13.0204
鳲	-13.0204
眊	-13.0205
清波雜志	-13.0206
嚏	-13.0206
璈	-13.0206
孫公談圃	-13.0207
汛	-13.0207
宋劉敬叔撰	-13.0207
懟	-13.0207
遡	-13.0207
躶	-13.0207
櫚	-13.0207
婭	-13.0207
罸	-13.0207
篷	-13.0207
觀文殿大學士	-13.0207
跧	-13.0208
姫	-13.0208
跚	-13.0208
瞎	-13.0208
賜紫金魚袋	-13.0208
宋彭乗撰	-13.0208
帋	-13.0209
鮧	-13.0209
艤	-13.021
簳	-13.021
蹀	-13.021
蔥	-13.021
耜	-13.021
懃	-13.021
􁂚	-13.021
膂	-13.0211
燁	-13.0211
份	-13.0211
㬇	-13.0211
㴩	-13.0211
翡	-13.0212
宋錢易撰	-13.0212
屆	-13.0212
舳	-13.0212
郟	-13.0212
臝	-13.0213
芘	-13.0213
趯	-13.0213
惬	-13.0213
忮	-13.0213
䄄	-13.0214
阬	-13.0214
曅	-13.0214
摳	-13.0215
見則其邑大旱	-13.0215
耍	-13.0216
砆	-13.0217
杠	-13.0217
戛	-13.0217
恝	-13.0218
䱻	-13.0218
峳	-13.0218
篴	-13.0219
䱜	-13.022
櫻	-13.022
赬	-13.022
崍	-13.0221
鶼	-13.0221
琹	-13.0221
竆	-13.0221
煽	-13.0221
􁃄	-13.0221
儺	-13.0226
螂	-13.0226
䓘	-13.0227
蠐	-13.0228
瓤	-13.0228
顦	-13.023
栅	-13.0231
鐔	-13.0233
㣧	-13.0239
匯	-13.0239
咂	-13.024
姆	-13.0241
偌	-13.0271
舩	-13.1164
畹	-13.1166
嫖	-13.1171
昷	-13.1173
雅爾呼達	-13.1175
礮	-13.1175
寚	-13.1176
齁	-13.1178
膨	-13.1181
鵽	-13.1182
𣏌	-13.1182
芍	-13.1183
旤	-13.1183
苫	-13.1184
适	-13.1184
緤	-13.1185
櫂	-13.1186
㑭	-13.1187
蔞	-13.1187
鋩	-13.1188
霎	-13.1188
駃	-13.1188
鵾	-13.1188
鶂	-13.1189
滇	-13.1189
髄	-13.119
逥	-13.1191
奉勞歌伴再和前聲	-13.1191
輛	-13.1192
䍧	-13.1192
嫣	-13.1193
賕	-13.1193
尭	-13.1194
▫	-13.1194
鷴	-13.1194
嬸	-13.1194
懺	-13.1194
雊	-13.1195
茙	-13.1195
檇	-13.1195
瀣	-13.1195
洿	-13.1195
􁳜	-13.1195
嵯	-13.1196
䛆	-13.1196
祸	-13.1196
􁇔	-13.1197
㬢	-13.1197
潬	-13.1197
璲	-13.1197
俜	-13.1197
裛	-13.1198
媯	-13.1198
茰	-13.1198
鏜	-13.1199
濟陽考城人	-13.1199
宋陳鵠撰	-13.12
确	-13.12
蘊	-13.12
絝	-13.12
踔	-13.1201
颷	-13.1201
磈	-13.1201
峋	-13.1201
㝵	-13.1201
挲	-13.1201
穣	-13.1202
蠹	-13.1202
螃	-13.1202
鷇	-13.1202
荽	-13.1202
蕭子顯齊書曰	-13.1203
東觀漢記曰	-13.1203
兌	-13.1203
欽定四庫全書夷堅志乙卷	-13.1203
褉	-13.1203
洸	-13.1204
浥	-13.1204
枻	-13.1204
菹	-13.1204
洫	-13.1204
隥	-13.1204
鍪	-13.1205
丞相魏公譚訓卷第	-13.1205
厩	-13.1205
宋曽敏行撰	-13.1205
韀	-13.1205
宄	-13.1205
刉	-13.1205
繅	-13.1205
瞤	-13.1205
蛣	-13.1206
瞭	-13.1206
𨫼	-13.1206
􁪽	-13.1206
醎	-13.1207
宋王闢之撰	-13.1207
坰	-13.1208
􁘠	-13.1208
粽	-13.1208
鏊	-13.1208
蹏	-13.1209
劘	-13.1209
螘	-13.1209
蕎	-13.1209
郜	-13.1209
籞	-13.1209
􁁅	-13.1209
牯	-13.121
洑	-13.121
緗	-13.121
欽定四庫全書續博物志卷	-13.121
朘	-13.1211
鼷	-13.1211
剸	-13.1211
黟	-13.1211
僇	-13.1212
欽定四庫全書異苑卷	-13.1212
熄	-13.1212
蟋	-13.1212
齩	-13.1212
􁪳	-13.1212
欽定四庫全書夷堅志丙卷	-13.1212
𫐠	-13.1212
傒	-13.1212
秊	-13.1212
宋呉處厚撰	-13.1213
欽定四庫全書青箱雜記卷	-13.1213
矴	-13.1213
觷	-13.1213
䊸	-13.1213
桕	-13.1213
㞐	-13.1213
􁔺	-13.1213
狁	-13.1213
萋	-13.1214
門并守鋪	-13.1214
斮	-13.1214
景純江賦	-13.1214
膞	-13.1214
籪	-13.1215
颼	-13.1215
後蜀何光逺撰	-13.1215
缽	-13.1215
欽定四庫全書夷堅志戊卷	-13.1215
膈	-13.1215
鎡	-13.1215
𤯝	-13.1215
坻	-13.1215
凟	-13.1216
欽定四庫全書宣室志卷	-13.1216
其獸多㸲牛羬羊	-13.1216
􁡤	-13.1216
灝	-13.1216
龢	-13.1216
鄕	-13.1216
讟	-13.1216
又北三百五十里曰	-13.1217
粕	-13.1217
魋	-13.1217
杜邠公悰	-13.1217
鴸	-13.1218
捎	-13.1218
欽定四庫全書夷堅志甲卷	-13.1218
猙	-13.1218
獳	-13.1218
肫	-13.1219
盧柟滄溟賦	-13.1219
輾	-13.1219
狃	-13.1219
饞	-13.1219
您	-13.1219
另	-13.122
沍	-13.1221
稲	-13.1221
嗑	-13.1222
鱃	-13.1222
鴦	-13.1222
撇	-13.1222
瓴	-13.1223
湩	-13.1224
箝	-13.1224
緱	-13.1225
羕	-13.1225
平章軍國重事	-13.1225
鱔	-13.1225
寬	-13.1227
满	-13.1227
胛	-13.1227
飮	-13.1227
惚	-13.1227
嵊	-13.1231
靠	-13.1231
櫄	-13.1232
徕	-13.1233
偲	-13.1237
葬起輦谷	-13.1242
縡	-13.2246
絇	-13.2253
棉	-13.2277
箬	-13.2286
褭	-13.2286
郇	-13.2287
窰	-13.2289
骰	-13.2291
􁀳	-13.2293
縵	-13.2294
㹅	-13.2294
􁟆	-13.2294
瞀	-13.2295
辠	-13.2295
䏰	-13.2295
砦	-13.2297
瓏	-13.2297
􁂄	-13.2298
麨	-13.2298
逌	-13.23
跗	-13.23
仿	-13.2301
􁃇	-13.2301
􁃻	-13.2301
蚕	-13.2302
繄	-13.2302
詼	-13.2303
尿	-13.2304
笴	-13.2304
泪	-13.2305
襚	-13.2305
鏵	-13.2305
嶄	-13.2305
癲	-13.2305
㐲	-13.2305
蹠	-13.2306
軛	-13.2306
枲	-13.2306
耴	-13.2306
濮安懿王	-13.2306
抨	-13.2307
芭	-13.2307
閡	-13.2307
卹	-13.2308
鈃	-13.2308
周祗隆安記	-13.2309
换	-13.2309
邰	-13.2309
惨	-13.2309
柷	-13.2309
轔	-13.231
砟	-13.231
饀	-13.2311
謦	-13.2312
盬	-13.2312
䕷	-13.2313
瘼	-13.2313
惣	-13.2313
譫	-13.2313
朌	-13.2314
媱	-13.2314
嚲	-13.2314
渢	-13.2314
繂	-13.2314
㮚	-13.2314
謖	-13.2315
騭	-13.2315
町	-13.2315
劊	-13.2315
璥	-13.2315
姧	-13.2316
痿	-13.2316
塿	-13.2316
曏	-13.2316
𥅆	-13.2316
狢	-13.2316
肹	-13.2316
麺	-13.2317
厷	-13.2317
蝡	-13.2317
檿	-13.2317
哇	-13.2317
逑	-13.2317
鵫	-13.2317
蟜	-13.2318
澇	-13.2319
璚	-13.2319
鐻	-13.2319
蚶	-13.2319
鑛	-13.2319
頁	-13.2319
穪	-13.2319
何處難忘酒	-13.2319
􁍄	-13.2319
虔	-13.232
䴡	-13.232
炰	-13.232
攧	-13.232
𣪚	-13.232
憕	-13.232
暾	-13.232
鸝	-13.2321
霪	-13.2321
眦	-13.2321
坏	-13.2321
猧	-13.2321
暍	-13.2321
墖	-13.2322
蜴	-13.2322
稺	-13.2322
鵜	-13.2322
筲	-13.2322
鋺	-13.2323
嘹	-13.2323
國子四門助教	-13.2323
癎	-13.2323
丌	-13.2323
丨	-13.2324
穨	-13.2324
鳷	-13.2324
滽	-13.2324
囝	-13.2324
渟	-13.2324
詒	-13.2325
鰻	-13.2325
恓	-13.2325
罐	-13.2325
覯	-13.2325
騘	-13.2326
璅	-13.2326
皦	-13.2326
聵	-13.2326
韮	-13.2326
瘻	-13.2326
銚	-13.2326
暏	-13.2327
臬	-13.2327
瑿	-13.2327
柜	-13.2327
燻	-13.2327
鬿	-13.2327
憝	-13.2328
櫰	-13.2328
褢	-13.2328
櫧	-13.2328
舗	-13.2328
鸓	-13.2328
贔	-13.2329
䳋	-13.2329
輶	-13.233
郪	-13.233
宋李昉等編雜傳記	-13.233
􁂫	-13.233
峚	-13.233
張衡思𤣥賦	-13.233
攙	-13.233
猺	-13.2331
渲	-13.2331
蜯	-13.2331
愊	-13.2331
癙	-13.2332
鄏	-13.2332
齓	-13.2333
獋	-13.2333
俁	-13.2334
楶	-13.2335
㛮	-13.2335
餡	-13.2336
䔄	-13.2336
琈	-13.2337
骭	-13.2337
􁅥	-13.2337
睒	-13.2338
蝇	-13.2339
螗	-13.2339
痓	-13.2342
籛	-13.2343
􁡖	-13.2344
硎	-13.2345
騤	-13.2345
裩	-13.2346
而北流注于河其中	-13.3194
繶	-13.3496
􁬸	-13.3525
􁨊	-13.3527
恇	-13.3531
襤	-13.3533
賷	-13.3534
劉璠梁典曰	-13.3536
圊	-13.3537
簑	-13.3537
𦍑	-13.3538
汹	-13.3539
汔	-13.354
蜆	-13.354
躩	-13.3543
泆	-13.3543
稈	-13.3544
㢮	-13.3545
咫	-13.3547
踶	-13.3547
鬅	-13.3548
胖	-13.3548
毡	-13.3548
遟	-13.3548
黁	-13.3548
漙	-13.3548
俵	-13.3548
檛	-13.3548
歊	-13.3549
澌	-13.355
獎	-13.355
㷔	-13.355
楬	-13.3551
濂	-13.3551
忼	-13.3552
蟛	-13.3553
甬	-13.3553
畊	-13.3553
薌	-13.3554
疚	-13.3555
鞈	-13.3555
黧	-13.3555
絨	-13.3555
赶	-13.3555
冑	-13.3555
軆	-13.3557
銙	-13.3557
蜩	-13.3557
榕	-13.3557
呫	-13.3557
颿	-13.3557
廱	-13.3557
蓉	-13.3557
瑝	-13.3558
搊	-13.3558
蒹	-13.3558
幗	-13.3559
剨	-13.3559
幀	-13.3559
剚	-13.356
噓	-13.3561
牗	-13.3561
雚	-13.3561
苡	-13.3561
棕	-13.3561
鬒	-13.3561
頧	-13.3562
苒	-13.3563
柸	-13.3563
垤	-13.3563
耎	-13.3563
眨	-13.3564
卬	-13.3564
涑	-13.3564
灧	-13.3564
倂	-13.3565
曀	-13.3565
鈸	-13.3565
紒	-13.3565
眘	-13.3565
胝	-13.3566
眚	-13.3566
壍	-13.3566
摑	-13.3566
菠	-13.3566
鰓	-13.3567
荗	-13.3567
枰	-13.3567
欽定四庫全書太平廣記巻四百三十	-13.3567
暕	-13.3567
㶌	-13.3567
羭	-13.3568
妲	-13.3568
怵	-13.3568
肸	-13.3568
鳩摩羅什	-13.3568
鎪	-13.3569
䬃	-13.3569
秧	-13.3569
溽	-13.3569
唤	-13.3569
輭	-13.357
獍	-13.357
蝻	-13.357
辿	-13.357
㨂	-13.357
籲	-13.357
閠	-13.357
亰	-13.357
楄	-13.357
鬷	-13.3571
鷫	-13.3571
坯	-13.3572
樷	-13.3572
逯	-13.3572
瘉	-13.3572
騄	-13.3574
茝	-13.3574
􁋙	-13.3574
徉	-13.3574
轓	-13.3574
訑	-13.3574
􁙻	-13.3575
孿	-13.3575
琤	-13.3575
宧	-13.3575
栒	-13.3575
􁔼	-13.3575
輳	-13.3575
揎	-13.3576
揵	-13.3576
􁍯	-13.3576
其獸多閭麋	-13.3576
鑕	-13.3576
􁏉	-13.3576
枸	-13.3576
沌	-13.3576
莪	-13.3577
椆	-13.3577
䗤	-13.3577
鄮	-13.3578
嚨	-13.3578
攴	-13.3578
鑞	-13.3578
瑨	-13.3579
苨	-13.3579
縧	-13.3579
盧柟放招賦	-13.3579
鵪	-13.3579
墼	-13.3579
藳	-13.358
荈	-13.358
邐	-13.358
犳	-13.358
桅	-13.358
蛀	-13.358
是山也廣員百里	-13.358
眤	-13.358
孌	-13.3581
雝	-13.3581
鶋	-13.3581
犛	-13.3581
㹮	-13.3582
夬	-13.3582
岵	-13.3582
棁	-13.3582
樿	-13.3582
獫	-13.3583
又東三百七十里曰	-13.3583
䃌	-13.3584
囈	-13.3584
澱	-13.3584
悊	-13.3585
缻	-13.3585
藟	-13.3585
㗸	-13.3585
悱	-13.3586
鵒	-13.3587
褓	-13.3587
鞹	-13.3587
凰	-13.3587
睱	-13.3587
饟	-13.3588
牷	-13.3588
臙	-13.3589
啚	-13.3589
蠋	-13.359
佉	-13.3591
渰	-13.3594
韃	-13.3597
萆	-13.3597
倞	-13.3597
侖	-13.3601
龠	-13.4897
篪	-13.4947
􁦍	-13.4951
霹	-13.4956
瑁	-13.4961
庋	-13.4961
旎	-13.4962
燐	-13.4962
鄄	-13.4962
􁧑	-13.4964
禔	-13.4965
螄	-13.4967
碟	-13.4968
譾	-13.4968
䔥	-13.497
耼	-13.497
堲	-13.497
㺊	-13.4971
澮	-13.4971
蠔	-13.4971
熠	-13.4972
鄷	-13.4972
硝	-13.4972
搓	-13.4972
蕷	-13.4973
蘢	-13.4973
皈	-13.4973
禨	-13.4973
旼	-13.4973
沗	-13.4974
壎	-13.4974
霣	-13.4974
芎	-13.4974
楩	-13.4974
醑	-13.4975
鋸牙鈎爪	-13.4976
嫵	-13.4976
𬋩	-13.4977
蕐	-13.4977
譍	-13.4977
鎛	-13.4977
﨑	-13.4978
葶	-13.4978
曨	-13.4978
蝘	-13.4978
翶	-13.4978
餕	-13.4979
离	-13.4979
餖	-13.498
宝	-13.498
礧	-13.498
錘	-13.498
剟	-13.498
頮	-13.498
桯	-13.498
珀	-13.4981
粢	-13.4981
睚	-13.4981
纑	-13.4981
璺	-13.4981
綌	-13.4981
圄	-13.4981
晛	-13.4981
釋慧皎髙僧	-13.4982
􁁙	-13.4982
刧	-13.4982
􁲕	-13.4982
嶔	-13.4982
帬	-13.4983
躰	-13.4983
㛗	-13.4983
塪	-13.4983
巇	-13.4983
弢	-13.4983
咮	-13.4983
趐	-13.4983
嬈	-13.4984
渊	-13.4984
杬	-13.4984
鶱	-13.4984
籧	-13.4985
璐	-13.4985
糁	-13.4986
騙	-13.4986
􁋢	-13.4986
莆	-13.4986
坈	-13.4986
噶	-13.4986
訹	-13.4986
膴	-13.4986
鰾	-13.4986
􁏈	-13.4986
姁	-13.4987
晊	-13.4987
栻	-13.4988
榿	-13.4988
圑	-13.4988
摉	-13.4988
莧	-13.4988
隃	-13.4988
汊	-13.4989
疴	-13.4989
􁅃	-13.4989
喭	-13.4989
胅	-13.4989
笁	-13.499
咺	-13.499
淊	-13.499
冇	-13.499
垓	-13.4991
桄	-13.4991
鞞	-13.4992
荏	-13.4992
忸	-13.4992
樾	-13.4992
樅	-13.4992
剮	-13.4992
翆	-13.4992
蹣	-13.4992
濰	-13.4993
僱	-13.4993
豨	-13.4993
憀	-13.4993
惸	-13.4994
𢋫	-13.4994
筥	-13.4995
㗋	-13.4995
樕	-13.4995
墠	-13.4995
絏	-13.4995
䠞	-13.4996
篘	-13.4996
樝	-13.4996
獒	-13.4996
鼬	-13.4997
艧	-13.4997
矰	-13.4997
筓	-13.4997
扯	-13.4997
􁙯	-13.4997
棪	-13.4998
穜	-13.4998
貙	-13.4999
阽	-13.4999
攲	-13.4999
杆	-13.4999
䳐	-13.5
𫾣	-13.5
碔	-13.5
䓗	-13.5
鬆	-13.5
􁀊	-13.5001
宐	-13.5001
灮	-13.5001
躧	-13.5001
嗛	-13.5001
茇	-13.5001
蟞	-13.5002
耋	-13.5002
记	-13.5002
憍	-13.5002
苃	-13.5002
野火燒不盡春風吹又生	-13.5003
睽	-13.5003
麖	-13.5003
佀	-13.5004
渷	-13.5004
達嚕噶齊	-13.5004
媧	-13.5004
琁	-13.5004
羚	-13.5004
􁙼	-13.5004
嗓	-13.5004
賮	-13.5004
鯥	-13.5005
畸	-13.5005
䜴	-13.5005
搕	-13.5005
狳	-13.5006
餺	-13.5006
儇	-13.5006
迃	-13.5006
㛐	-13.5006
􁙹	-13.5006
䖺	-13.5006
麀	-13.5007
溍	-13.5007
狍	-13.5007
𤞞	-13.5007
湋	-13.5007
晠	-13.5007
貘	-13.5008
泐	-13.5008
陶潛讀山海經詩	-13.5008
仁和吳任臣注	-13.5008
灂	-13.5009
魮	-13.5009
􁖅	-13.5009
嵘	-13.5009
㫋	-13.5009
莩	-13.5009
欀	-13.501
鷦	-13.501
辮	-13.501
䖀	-13.5011
􁂣	-13.5011
洈	-13.5011
礜	-13.5011
衞親軍都指揮使司	-13.5012
柤栗橘櫾	-13.5012
佋	-13.5013
揾	-13.5013
噆	-13.5014
开	-13.5015
煗	-13.5015
𡊮山松後漢書曰	-13.5016
工部員外郎張周封	-13.5016
㽵	-13.5016
䟎	-13.5016
􁁱	-13.5016
唼	-13.5016
敡	-13.5016
㻬	-13.5017
硌	-13.5017
覉	-13.5017
㹥	-13.5018
􁐰	-13.5018
袄	-13.5018
踝	-13.5019
泔	-13.5019
蚘	-13.5019
黌	-13.5019
襧	-13.5019
舵	-13.5019
㲲	-13.502
栯	-13.502
簌	-13.5021
酇	-13.5022
飦	-13.5022
薁	-13.5023
洄	-13.5029
兼實録院檢討官	-13.5029
珵	-13.5036
剄	-13.5045
􁂁	-13.6547
葳	-13.6585
䁀	-13.6596
􁞙	-13.6615
龑	-13.6621
惘	-13.6622
宷	-13.6623
亹	-13.6623
窊	-13.6624
皜	-13.6626
厎	-13.6627
㳅	-13.6628
溼	-13.6629
伷	-13.663
玢	-13.663
􁂧	-13.663
􁑰	-13.663
鬨	-13.6631
桿	-13.6631
麛	-13.6631
餈	-13.6631
奧	-13.6632
嘅	-13.6632
䗶	-13.6632
漑	-13.6634
胗	-13.6634
􁁑	-13.6634
糙	-13.6636
䯻	-13.6636
堨	-13.6639
琲	-13.664
紃	-13.664
珦	-13.664
国	-13.664
嶙	-13.664
裲	-13.664
瓿	-13.6641
妗	-13.6642
翣	-13.6643
蓻	-13.6643
繐	-13.6643
嫰	-13.6643
􁫕	-13.6644
廆	-13.6646
踦	-13.6646
㘦	-13.6646
䣙	-13.6646
䀾	-13.6646
蓨	-13.6647
袿	-13.6647
媮	-13.6647
餁	-13.6647
偬	-13.6647
餫	-13.6647
䧿	-13.6647
魶	-13.6647
卺	-13.6647
箑	-13.6648
俑	-13.6648
翀	-13.6648
鱧	-13.6648
黶	-13.6648
叜	-13.6648
奶	-13.6648
􁁪	-13.6648
輴	-13.6649
寑	-13.6649
鞔	-13.665
籕	-13.665
梠	-13.665
簋	-13.6651
磽	-13.6651
憣	-13.6651
􁒷	-13.6652
胾	-13.6652
􁅔	-13.6652
竞	-13.6653
蜨	-13.6653
袝	-13.6653
氂	-13.6653
五朝名臣言行録曰	-13.6653
鷯	-13.6654
綟	-13.6654
抶	-13.6654
籩	-13.6654
􁒓	-13.6654
栰	-13.6654
鯶	-13.6654
䐁	-13.6655
胚	-13.6655
劓	-13.6655
捏	-13.6655
蚏	-13.6655
祍	-13.6655
觶	-13.6655
槲	-13.6656
輗	-13.6656
襌	-13.6656
晻	-13.6656
凳	-13.6656
櫜	-13.6656
慍	-13.6656
晰	-13.6656
眶	-13.6656
崿	-13.6657
糒	-13.6657
鵂	-13.6657
溈	-13.6657
鷔	-13.6658
琖	-13.6658
蒍	-13.6658
鮀	-13.6659
犴	-13.6659
薔	-13.6659
訌	-13.6659
熇	-13.6659
穋	-13.6659
搽	-13.6659
鼯	-13.666
鈇	-13.666
糢	-13.666
㒵	-13.666
㘭	-13.666
㳫	-13.666
尨	-13.666
涣	-13.666
姖	-13.6661
莠	-13.6661
縄	-13.6661
瞶	-13.6661
兑	-13.6662
蹯	-13.6662
笆	-13.6662
磶	-13.6662
姉	-13.6663
䵷	-13.6663
䨼	-13.6663
騑	-13.6663
􁐜	-13.6663
篨	-13.6663
嶰	-13.6664
蓂	-13.6664
瀋	-13.6664
騧	-13.6664
枃	-13.6664
𠢐	-13.6664
噂	-13.6665
尢	-13.6665
囏	-13.6666
禫	-13.6666
㡩	-13.6666
􁊃	-13.6666
鯾	-13.6667
撈	-13.6667
猩	-13.6667
􁎀	-13.6668
臑	-13.6668
娵	-13.6668
舠	-13.6668
窽	-13.6668
荄	-13.6668
水行五百里流沙三百里至于	-13.6668
簉	-13.6668
蝀	-13.6668
杮	-13.6669
榘	-13.6669
眭	-13.6669
詾	-13.6669
螮	-13.6669
幬	-13.6669
氍	-13.667
姢	-13.667
􁉘	-13.667
埻	-13.667
霔	-13.667
慠	-13.6671
挨	-13.6671
䎶	-13.6671
侯門一入深如海從此蕭郎是路人	-13.6671
龞	-13.6671
罋	-13.6671
蕢	-13.6671
鼵	-13.6671
蓇	-13.6671
坳	-13.6671
酗	-13.6671
筏	-13.6671
樛	-13.6672
訞	-13.6672
㰱	-13.6672
抔	-13.6672
絍	-13.6672
扱	-13.6672
犰	-13.6673
ဂ	-13.6673
㵸	-13.6673
嬲	-13.6673
擂	-13.6673
䱐	-13.6674
䍺	-13.6674
闃	-13.6674
􁀨	-13.6674
篐	-13.6674
蘩	-13.6674
􁑼	-13.6674
􁊲	-13.6674
􁯛	-13.6674
挻	-13.6675
朝請大夫主管台州崇道觀汝隂王明清	-13.6675
籤	-13.6675
鯿	-13.6675
潕	-13.6676
襄國張師正纂	-13.6676
榎	-13.6676
䴅	-13.6676
櫸	-13.6676
蝯	-13.6677
􁇭	-13.6677
䃤	-13.6677
莬	-13.6677
竸	-13.6678
萟	-13.6678
鐲	-13.6678
贋	-13.6679
㬙	-13.6679
鰧	-13.6679
棷	-13.6679
瞚	-13.6679
庀	-13.6679
礟	-13.6679
趠	-13.6679
蹬	-13.6679
碏	-13.6679
崌	-13.668
狶	-13.668
􁐾	-13.668
惝	-13.668
䔍	-13.668
頦	-13.6681
鱤	-13.6681
啷	-13.6681
豗	-13.6682
鱄	-13.6682
棱	-13.6682
憙	-13.6683
総	-13.6684
蛮	-13.6684
琥	-13.6684
硾	-13.6684
蚖	-13.6684
呆	-13.6685
担	-13.6686
褧	-13.6687
篰	-13.6693
澷	-13.6693
煕	-13.6694
邍	-13.6694
濞	-13.6694
侲	-13.6694
拴	-13.6695
􁂶	-13.6696
賒	-13.6696
􁄻	-13.6697
鮸	-13.67
犨	-13.6706
硜	-13.6706
楦	-13.6709
閗	-13.6711
鴘轉之後乃至累變横理轉細臆前	-13.6742
鞉	-13.6765
龣	-13.8514
􁧕	-13.858
卣	-13.8596
霶	-13.8605
礹	-13.8609
菆	-13.861
扠	-13.8614
狽	-13.8615
錔	-13.8616
帰	-13.8617
澒	-13.8618
訇	-13.8618
坟	-13.8619
茴	-13.8619
剳	-13.862
㝎	-13.8622
颭	-13.8623
􁁄	-13.8623
櫈	-13.8624
晫	-13.8624
莉	-13.8625
褙	-13.8627
御史大夫費摩阿固岱	-13.8628
鸂	-13.8629
碙	-13.863
䳵	-13.863
􁇜	-13.863
呢	-13.8631
柙	-13.8632
㠯	-13.8632
􁒂	-13.8632
齶	-13.8632
埓	-13.8633
窨	-13.8633
葖	-13.8634
濙	-13.8635
磅	-13.8636
拐	-13.8637
竁	-13.8637
􁐨	-13.8638
短轅犢車長柄麈尾	-13.8638
胔	-13.8638
醁	-13.8639
膻	-13.864
䈥	-13.8641
薷	-13.8642
矞	-13.8642
洌	-13.8642
􁙰	-13.8642
􁆁	-13.8642
珷	-13.8643
詩曰避賢初罷相樂聖且銜	-13.8643
罾	-13.8643
韤	-13.8643
蹵	-13.8643
厖	-13.8644
琶	-13.8644
蘀	-13.8644
􁭤	-13.8644
蟢	-13.8645
蟮	-13.8645
簠	-13.8646
荑	-13.8646
蟁	-13.8646
邳	-13.8646
甝	-13.8647
躃	-13.8648
䵟	-13.8648
瀼	-13.8648
􁉓	-13.8648
柹	-13.8648
愓	-13.8648
􁡡	-13.8649
蕣	-13.8649
琱	-13.8649
蓧	-13.8649
麹	-13.8649
佷	-13.8649
斲	-13.8649
蘤	-13.8649
倥	-13.8649
埧	-13.8649
灶	-13.8649
􁨑	-13.8649
􁵬	-13.8649
鈷	-13.865
惮	-13.865
辞	-13.865
鈲	-13.865
􁣌	-13.865
䖴	-13.8651
撘	-13.8651
􁡎	-13.8652
鼗	-13.8652
攖	-13.8653
蟺	-13.8653
紖	-13.8654
萵	-13.8654
醆	-13.8654
騊	-13.8654
酔	-13.8655
噩	-13.8655
蒻	-13.8655
瀏	-13.8655
庥	-13.8655
蜇	-13.8655
䀋	-13.8655
唐叚少卿酉陽襍爼前集卷之十	-13.8656
匍	-13.8656
嫻	-13.8656
􁗁	-13.8656
禓	-13.8656
鬕	-13.8656
讕	-13.8656
魟	-13.8656
昐	-13.8656
餦	-13.8656
鰐	-13.8656
􁇨	-13.8657
凴	-13.8657
瞷	-13.8657
苪	-13.8657
笮	-13.8657
嘉木揚喇勒智	-13.8657
􁑛	-13.8657
􁖔	-13.8657
􁅨	-13.8657
餔	-13.8657
齚	-13.8658
㲪	-13.8658
𤾉	-13.8658
撐	-13.8658
詶	-13.8658
鞲	-13.8658
㑺	-13.8658
僰	-13.8658
唶	-13.8659
慆	-13.8659
玳	-13.8659
肎	-13.8659
􁎗	-13.8659
砮	-13.8659
胆	-13.8659
抆	-13.8659
焕	-13.866
搐	-13.866
厘	-13.866
彜	-13.866
倧	-13.866
頬	-13.8661
堝	-13.8661
旡	-13.8661
􁊬	-13.8661
㪺	-13.8661
䳼	-13.8661
儧	-13.8661
稌	-13.8661
隖	-13.8662
頫	-13.8662
慽	-13.8662
浃	-13.8662
樺	-13.8662
蔴	-13.8662
皖	-13.8663
橑	-13.8663
侫	-13.8663
熂	-13.8663
体	-13.8663
􁐍	-13.8663
彍	-13.8663
碇	-13.8663
貛	-13.8664
貐	-13.8664
嬿	-13.8664
􁀗	-13.8664
蘪	-13.8664
嗉	-13.8664
夯	-13.8664
佟	-13.8664
梐	-13.8664
鍱	-13.8664
􁱈	-13.8664
鏌	-13.8665
讁	-13.8665
栭	-13.8665
􁦹	-13.8665
箎	-13.8665
䴵	-13.8665
痠	-13.8666
􁙵	-13.8666
衕	-13.8666
禡	-13.8666
􁃪	-13.8667
獂	-13.8667
黳	-13.8667
暵	-13.8667
慷	-13.8667
滃	-13.8668
䐈	-13.8668
仐	-13.8668
鍚	-13.8668
嚗	-13.8668
夋	-13.8668
枹	-13.8668
萑	-13.8668
韝	-13.8669
匃	-13.8669
揲	-13.8669
佪	-13.8669
唐段少卿酉陽雜爼前集卷之	-13.8669
戹	-13.8669
􁠣	-13.8669
嶇	-13.8669
螾	-13.867
㐨	-13.867
鱏	-13.867
揕	-13.867
雰	-13.867
磷	-13.867
䳜	-13.867
剞	-13.8671
㫺	-13.8671
禬	-13.8671
岠	-13.8671
珚	-13.8672
墦	-13.8672
墙	-13.8672
瑮	-13.8672
葚	-13.8672
戻	-13.8672
鵌	-13.8673
㶑	-13.8673
躞	-13.8673
䍸	-13.8673
屓	-13.8673
弞	-13.8673
絣	-13.8674
鞓	-13.8674
抳	-13.8674
喁	-13.8674
訿	-13.8674
􁙷	-13.8675
榑	-13.8675
豰	-13.8675
舲	-13.8675
觕	-13.8675
幪	-13.8675
疢	-13.8675
􁆞	-13.8676
䲃	-13.8676
㔮	-13.8676
㴻	-13.8676
蠍	-13.8676
虯	-13.8676
鮨	-13.8676
䖪	-13.8677
䮝	-13.8677
曰鴻漸于陸其羽可用為儀乃	-13.8677
鎌	-13.8677
滹	-13.8677
猓	-13.8677
嬢	-13.8677
痏	-13.8677
秸	-13.8677
薲	-13.8678
􁩹	-13.8678
蚋	-13.8678
溴	-13.8679
惽	-13.868
䘵	-13.868
袽	-13.868
栟	-13.868
㢠	-13.868
鵺	-13.868
葪	-13.868
觡	-13.868
䁥	-13.8681
􁤝	-13.8681
勱	-13.8681
蟨	-13.8681
漊	-13.8681
鏨	-13.8682
􁱘	-13.8682
纕	-13.8682
禭	-13.8683
􁧏	-13.8684
萝	-13.8684
篝	-13.8684
噇	-13.8684
濜	-13.8684
癤	-13.8684
鴢	-13.8684
䰽	-13.8684
椵	-13.8685
餱	-13.8685
臋	-13.8686
䂊	-13.8686
􁎐	-13.8686
崎	-13.8687
巙	-13.8689
灺	-13.8689
厫	-13.8689
傜	-13.869
尊私史而壓宗廟	-13.869
㺄	-13.869
痤	-13.869
亝	-13.8691
禈	-13.8691
覡	-13.8692
惷	-13.8692
飃	-13.8692
纇	-13.8694
筇	-13.8695
䰠	-13.8696
靿	-13.8697
时	-13.87
踠	-13.87
釴	-13.87
裓	-13.871
謷	-13.8715
耏	-14.1065
嫜	-14.1069
滜	-14.1079
㻫	-14.1088
蘗	-14.1094
􁱪	-14.1098
䘿	-14.1099
胘	-14.1102
暅	-14.1103
㬑	-14.1108
匜	-14.1109
糰	-14.111
䀌	-14.1112
玹	-14.1112
咦	-14.1114
毿	-14.1116
笪	-14.1119
沚	-14.1119
嫋	-14.1119
瓆	-14.1119
䃡	-14.1119
枣	-14.1121
楝	-14.1121
䲻	-14.1121
䛇	-14.1124
弅	-14.1126
斨	-14.1126
氁	-14.1127
寉	-14.1127
袠	-14.1128
􁀒	-14.1128
語曰後行祠屯不博中行都門	-14.1128
􁗀	-14.113
杇	-14.113
晌	-14.113
栴	-14.113
􁬾	-14.1131
芤	-14.1131
怘	-14.1131
乹	-14.1133
慌	-14.1133
柠	-14.1133
矼	-14.1133
慓	-14.1134
一枝不及相國同堂昆弟三人曰石	-14.1134
􁋊	-14.1134
鏝	-14.1134
屧	-14.1135
楂	-14.1135
嶝	-14.1135
垞	-14.1135
蝍	-14.1135
崒	-14.1137
坵	-14.1137
挕	-14.1137
猯	-14.1137
山月曙蟬噪野風秋音韻清亮	-14.1137
戔	-14.1138
槪	-14.1138
其或繼周者雖百世可知	-14.1138
㹀	-14.1138
䱹	-14.1138
抅	-14.1138
済	-14.1138
瑙	-14.1139
濾	-14.1139
巓	-14.1139
歜	-14.114
繙	-14.1141
鏻	-14.1141
襞	-14.1141
忡	-14.1141
袜	-14.1141
誾	-14.1141
踨	-14.1141
䔭	-14.1141
忺	-14.1142
棰	-14.1142
礲	-14.1142
縐	-14.1142
墐	-14.1142
歠	-14.1142
匽	-14.1142
埳	-14.1142
曰三生石上舊精魂賞月吟風不要論	-14.1142
爝	-14.1142
髆	-14.1142
鎩	-14.1143
鏄	-14.1144
日出東方赫赫大光照見	-14.1144
搤	-14.1144
㬥	-14.1144
悾	-14.1144
䌈	-14.1144
􁼿	-14.1144
􁒝	-14.1145
怔	-14.1145
鄳	-14.1145
髁	-14.1145
㽞	-14.1145
胣	-14.1145
蓯	-14.1145
䝿	-14.1146
喊	-14.1146
鱮	-14.1146
爥	-14.1146
囗	-14.1146
嵒	-14.1146
狀𩔖人手肥而且潤色微紅	-14.1146
􁪸	-14.1146
椘	-14.1148
榨	-14.1148
水烏程之若下滎陽之土窟春富平之石	-14.1148
瘋	-14.1148
蹺	-14.1148
蓲	-14.1148
訔	-14.1149
顴	-14.1149
唅	-14.1149
彿	-14.1149
淶	-14.1149
滫	-14.1149
耑	-14.1149
荣	-14.1149
幈	-14.1149
朒	-14.1149
嵸	-14.1149
帨	-14.1149
蔀	-14.1149
雲壓城城欲摧甲光向日金鱗開	-14.1149
里其神狀皆鳥身而龍首其祠	-14.115
駚	-14.115
煠	-14.115
幰	-14.1151
蹰	-14.1151
靧	-14.1151
毖	-14.1151
羓	-14.1151
􁳟	-14.1151
啐	-14.1151
髏	-14.1151
磓	-14.1151
艴	-14.1152
蟶	-14.1152
玖	-14.1152
䨴	-14.1153
罣	-14.1153
矇	-14.1153
崈	-14.1153
搪	-14.1153
昈	-14.1153
􁃃	-14.1153
亁	-14.1153
壩	-14.1153
檷	-14.1153
窿	-14.1153
城鬱鬱三千年見白日吁嗟滕公居此室	-14.1153
枓	-14.1153
軷	-14.1153
􁱔	-14.1153
菖	-14.1154
疈	-14.1154
蝠	-14.1154
黍食使四鳥虎豹熊羆	-14.1154
絓	-14.1155
儌	-14.1155
軃	-14.1155
姹	-14.1155
嫓	-14.1155
躳	-14.1155
鉟	-14.1155
駉	-14.1155
黰	-14.1155
栿	-14.1155
橚	-14.1155
䟣	-14.1156
珹	-14.1156
蘃	-14.1156
乎一行曰後魏時失熒惑至今帝車不見	-14.1156
畣	-14.1156
篔	-14.1156
也寒暑不時此天地之蒸否也石立土	-14.1156
凨	-14.1156
苽	-14.1156
媺	-14.1156
獃	-14.1156
婼	-14.1156
矍	-14.1157
င	-14.1157
唘	-14.1157
茞	-14.1157
飲吾泉以醉登吾榻而寐	-14.1157
𢷬	-14.1157
伈	-14.1158
眡	-14.1158
鬣	-14.1159
賠	-14.1159
泖	-14.1159
鼊	-14.116
ဃ	-14.116
籓	-14.116
􁓓	-14.116
猘	-14.116
袱	-14.116
騸	-14.116
𬈑	-14.116
酅	-14.116
髑	-14.116
泱	-14.116
􁘔	-14.116
鵡	-14.1162
鞗	-14.1162
􁀲	-14.1162
処	-14.1162
囤	-14.1162
驁	-14.1162
桵	-14.1162
嫫	-14.1162
瞹	-14.1163
雲横秦嶺家何在雪擁藍闗馬不前	-14.1163
㞦	-14.1163
僨	-14.1163
懛	-14.1163
䬅	-14.1164
䄡	-14.1164
畯	-14.1164
隮	-14.1164
􁀍	-14.1164
栔	-14.1164
闑	-14.1164
􁚠	-14.1164
鱯	-14.1165
嗟賞曰道得箇語居即易	-14.1165
歟且宰相何時而無此君不作則已若作	-14.1166
盭	-14.1166
愸	-14.1166
誶	-14.1166
秕	-14.1166
唏	-14.1166
婇	-14.1166
猬	-14.1166
􁁶	-14.1166
簨	-14.1166
蛫	-14.1166
􁉨	-14.1166
䝟	-14.1166
山無草木是山也冬夏有雪	-14.1166
喟	-14.1166
琊	-14.1166
錢氏納土進錢買兩夜	-14.1167
悳	-14.1167
鵙	-14.1167
愾	-14.1167
馱	-14.1167
爾人材而在丞郎之位吾懼禍之必至也	-14.1167
鐷	-14.1167
㱔	-14.1167
叄	-14.1167
嶁	-14.1167
査	-14.1167
汳	-14.1167
癃	-14.1168
溆	-14.1168
䞋	-14.1168
上天津橋時淮西不庭已數年矣	-14.1168
陶鑄吾輩乎術者曰恐不在他日	-14.1169
踽	-14.1169
卾	-14.1169
李翰文雖宏暢而思甚苦	-14.1169
餪	-14.1169
其上多封石其下多赤錫又東	-14.1169
榠	-14.1169
伺候累日不得見乃遺閽者三百縑	-14.1169
憔	-14.1169
溠	-14.1169
䊧	-14.117
薻	-14.117
醊	-14.117
才識兼茂明於體用	-14.117
娜	-14.117
抖	-14.117
渫	-14.117
巑	-14.117
瘂	-14.117
䈄	-14.117
蛹	-14.117
慜	-14.1171
鱑	-14.1171
鼣	-14.1171
䳩	-14.1171
飪	-14.1171
㪍	-14.1171
􁐑	-14.1171
孶	-14.1171
􁑈	-14.1171
疸	-14.1171
胕	-14.1172
澨	-14.1172
􁙳	-14.1172
硫	-14.1173
相去稍逺聞老人云適憂蔡州	-14.1173
主司頭腦太冬烘錯認顔標作魯公	-14.1173
一行和尚滅度矣左右疾走視之一	-14.1173
再從弟執誼從弟渠牟	-14.1173
爾同列吾觀之因遍招深熟者客至夫人	-14.1173
嶪	-14.1173
脛剖賢人之心上曰蘇瓌有子李嶠無兒	-14.1173
瘰	-14.1173
䈙	-14.1173
箘	-14.1173
蛦	-14.1173
胜	-14.1173
猲	-14.1173
騂	-14.1173
䙜	-14.1174
祙	-14.1174
汵	-14.1174
熝	-14.1174
蚿	-14.1174
蟊	-14.1174
嘵	-14.1174
栗爆燒氊破猫跳觸鼎翻	-14.1174
穅	-14.1174
䐆	-14.1174
于瑶池之上西王母為天子謡	-14.1174
■	-14.1174
怮	-14.1174
礠	-14.1174
􁂳	-14.1174
􁈅	-14.1174
犲	-14.1174
瀙	-14.1174
鴅	-14.1175
􁦦	-14.1175
楟	-14.1175
轊	-14.1175
鰠	-14.1175
埵	-14.1175
掦	-14.1175
燉	-14.1175
薳	-14.1175
擈	-14.1175
䃜	-14.1176
騣	-14.1176
􁤮	-14.1176
傫	-14.1176
􁙸	-14.1176
䳅	-14.1176
􁡅	-14.1176
盛集文士即席賦詩公主	-14.1176
樻	-14.1177
矌	-14.1177
黮	-14.1177
㧾	-14.1177
趼	-14.1177
􁚔	-14.1177
剭	-14.1177
赩	-14.1177
麸	-14.1177
炕	-14.1177
饁	-14.1178
陖	-14.1178
倳	-14.1178
褵	-14.1178
䛒	-14.1178
杜黄裳夫人曰此人全别必是有名卿相	-14.1178
簥	-14.1178
塈	-14.1179
􁓵	-14.118
娭	-14.118
鴖	-14.1181
痸	-14.1181
斈	-14.1181
匳	-14.1181
汯	-14.1181
豦	-14.1181
廌	-14.1181
鯩	-14.1181
笟	-14.1182
蛸	-14.1182
燑	-14.1182
髢	-14.1182
非大字乎二曜者日月非明字乎尺一者	-14.1182
延一術士以考休咎不容通	-14.1182
􁊢	-14.1182
鞁	-14.1182
㪯	-14.1182
謂之私試造請權要謂之闗節激揚聲	-14.1182
鵴	-14.1183
邹	-14.1183
鏬	-14.1184
硏	-14.1184
縆	-14.1184
虙	-14.1184
團團照見先生盤盤中何所有苜蓿	-14.1184
㫒	-14.1184
䔩	-14.1184
們	-14.1184
啅	-14.1184
鄑	-14.1184
靁	-14.1184
􁵃	-14.1184
􁛲	-14.1185
遐邇大集賢愚然後選日而寫像焉及	-14.1185
𡡉	-14.1185
稱謂之秀才投刺謂之鄉貢得第謂之前	-14.1185
雑	-14.1186
焞	-14.1187
澋	-14.1187
猕	-14.1187
昡	-14.1188
芲	-14.1188
其大者故位極人臣常十有二三登顯列	-14.1188
㣼	-14.1189
幐	-14.1191
颸	-14.1191
躪	-14.1192
鴂	-14.1192
蝱	-14.1192
蝹	-14.1193
跱	-14.1193
稭	-14.1194
媢	-14.1194
埱	-14.1194
庿	-14.1195
陥	-14.1195
曰誰教阿舅作此好	-14.1195
泿	-14.1195
巏	-14.1198
拿	-14.1198
呱	-14.1199
嗁	-14.1199
惄	-14.1202
咿	-14.1202
哅	-14.1202
伾	-14.1203
菀	-14.1204
彌日詢之老僧曰頃年有客獨	-14.1205
然曰黄絹之竒智亦何異哉	-14.1205
憃	-14.1207
㭊	-14.1209
磪	-14.1209
繤	-14.121
此非託訓以輕君乎又云	-14.1216
骹	-14.122
喆	-14.1221
浟	-14.1221
唖	-14.1224
無任瞻天望聖激切屏營之至	-14.4411
甗	-14.4413
魧	-14.4428
贉	-14.443
噙	-14.4432
网	-14.4432
􁥯	-14.4432
煢	-14.4434
璮	-14.4434
翱	-14.4436
呐	-14.4436
鑵	-14.4438
浼	-14.4438
鋃	-14.4438
彡	-14.4438
摐	-14.4438
瑍	-14.4438
房相之第琯執手慰問之復以房融為對	-14.444
稃	-14.4442
自置八節度十採訪始有坐而為使	-14.4442
菷	-14.4442
縕	-14.4442
話國朝宰相最無徳者本欲言吉頊誤	-14.4442
姸	-14.4444
晧	-14.4444
伹	-14.4444
藾	-14.4444
饊	-14.4444
棍	-14.4444
晹	-14.4444
崚	-14.4446
􁸈	-14.4448
嘍	-14.4448
比盤二十四曹呼左右司為都公省	-14.4448
羫	-14.4448
掤	-14.4448
懞	-14.445
㻌	-14.445
曶	-14.445
鼍	-14.4451
帗	-14.4452
蜍	-14.4453
一物出頭似驢而地初無孔穴及姥死	-14.4453
嬀	-14.4453
稾	-14.4453
􁘀	-14.4455
􁡶	-14.4455
言曰才非殆庶擬上聖述作不亦過乎客	-14.4457
文中子於六籍猶奴婢之於郎主	-14.4457
淞	-14.4457
䪊	-14.4457
㬂	-14.4457
聞永興里人吹笛問是太常樂人	-14.4457
為之詞曰早登科第亦有聲名席既物故	-14.4457
簁	-14.4457
誰人得似張公子千首詩輕萬	-14.4457
麦	-14.4459
㬠	-14.4459
日豐樂里開業寺有神人足跡甚	-14.4459
鰂	-14.4459
陸相扆出典夷陵時有士子	-14.4461
疝	-14.4461
􁎾	-14.4461
僝	-14.4461
曰長因送人處憶得别家時	-14.4461
踳	-14.4461
耇	-14.4461
㪅	-14.4463
員外郎二㕔先南曹次廢置刑部分四覆	-14.4463
釪	-14.4463
嵰	-14.4463
連州人少為漢南鄭司徒掌牋	-14.4463
葑	-14.4464
踡	-14.4464
摏	-14.4465
蓞	-14.4465
佛殿先是閽人宿門下夢一人長二丈餘	-14.4465
蟈	-14.4465
􁁃	-14.4465
餂	-14.4467
海水或減則灘磧微露倭人拾方諸蚌	-14.4467
月如懸弓少雨多風月如仰瓦不求自下	-14.4467
轜	-14.4467
俲	-14.4467
偰	-14.4467
咀齕不及捩汁而飲或希萬一	-14.4467
螖	-14.4467
芉	-14.4467
响	-14.4468
翩翩如飛鳥庾公還揚州白馬牽	-14.4469
醽	-14.4469
㧓	-14.4469
嘨	-14.4469
相人因至睦州郡守令遍相僚吏時房琯	-14.4469
俺	-14.4469
枮	-14.4469
吾家乃賜鸂鶒酒巵翡翠盤十三讀春秋	-14.4469
灵	-14.4469
四川道監察御史内鄉李雲鵠校廣動植	-14.4469
鐇	-14.4469
下宋臨川王義慶撰梁劉孝標注	-14.4469
峱	-14.4469
洚	-14.4469
大子斃於金酒之中小子困於枯木之下	-14.4471
垝	-14.4471
杖扣閣而進見向暗中獨坐誦書老	-14.4471
起曰臣此袍乃大臣朝見奏對之衣昌宗	-14.4471
惛	-14.4471
時自舒之桐城至此暴得痁疾不能去因	-14.4471
草中及稍醒已昏矣四望無人烟	-14.4471
㭬	-14.4471
請彦伯指曰熱者飲此寒者飲此風者	-14.4471
􁏮	-14.4471
劳	-14.4471
坍	-14.4471
􁏌	-14.4471
廮	-14.4471
拲	-14.4472
伭	-14.4473
薾	-14.4473
瀁	-14.4473
滦	-14.4473
埠	-14.4473
濇	-14.4473
蹡	-14.4473
因果仁人之安宅義人之正路行之誠且	-14.4473
􁊕	-14.4473
騕	-14.4473
移於安仁西門宅避之瓦礫又隨而至	-14.4473
虹入潤州大將張子良宅初入	-14.4473
出獵兩山之間有物如小兒伸手	-14.4473
汩	-14.4473
溵	-14.4473
㢧	-14.4473
棵	-14.4473
䖳	-14.4473
天者必質於人善言人者必本於天	-14.4473
影忽倒老人言海影翻則如此	-14.4473
蘘	-14.4473
蚔	-14.4473
㒹	-14.4475
盔	-14.4475
釅	-14.4475
七月十五日苦雨不止泥濘盈尺上令	-14.4475
驆	-14.4475
喃	-14.4475
䗋	-14.4475
石河中永樂有宅庭槐一本抽三枝直過	-14.4475
壅一日之利暫佳瘠氣侵精終身之累	-14.4475
徒勞妬羞殺玫瑰不敢開唯有數苞紅	-14.4475
篟	-14.4475
椓	-14.4475
稽顙興歎曰人中之貴有此十全者	-14.4477
褻	-14.4477
菼	-14.4477
葽	-14.4477
謏	-14.4477
新造赤棒頭徑數寸固以筋漆	-14.4477
死矣韓意其必死及昏造其家怪無哭聲	-14.4477
有貴族浮薄者蔑視之一旦有命徵入	-14.4477
能為此人致宰相爾後授河中少尹幕	-14.4477
下及第後二紀拜相當鎮蜀土	-14.4477
中丞自登守者又曰夜中不辨是非	-14.4477
也自下而上謂之琵自上而下謂之琶	-14.4477
剙	-14.4477
如白練飛一條界破青山色	-14.4477
惂	-14.4477
連年進士及第連年登宏詞科一時之盛	-14.4477
亡國之餘有何異才而應斯舉	-14.4477
宰相妻今日相公犯罪死即甘心使妾為	-14.4477
醳	-14.4477
憮	-14.4478
䥴	-14.4478
奏以精誠之至感於天地故死而更生	-14.4478
易得天下人聞且以為王智興樂善矣	-14.4478
膄	-14.4478
禘	-14.4479
愧情人逺相訪此身雖異性常存	-14.4479
簵	-14.4479
事金天神即姥之女言能語此兒請祈華	-14.4479
槅	-14.4479
蒌	-14.4479
蕺	-14.4479
凡有象簡竹笏以手捻之必知官祿年	-14.4479
按孔子言竄削至多紙面穿穴故名按孔	-14.4479
注逼而視之若奮鱗鬛開元中三輔大旱	-14.4479
禖	-14.4479
膁	-14.4479
蕰	-14.4479
剺	-14.4479
喂	-14.4479
澂	-14.4479
盧鴻三詔乃至及謁見不拜但磬折而已	-14.4479
落霞與孤鶩齊飛秋水共長天一色	-14.4479
鴻對曰臣聞老子云禮者忠信之薄不足	-14.4479
枌	-14.448
緺	-14.448
饆	-14.448
咱	-14.448
鞌	-14.448
鮝	-14.448
來稱戎昱使君席上有善歌者	-14.448
箕翕然遮背因袒示韓都無撻	-14.448
[...]
