<unk>	0
<s>	0
</s>	0
之	-4.08927
而	-4.72015
以	-4.86353
有	-5.22233
也	-5.247
其	-5.26387
為	-5.33229
者	-5.34276
於	-5.36297
不	-5.46595
/	-5.50047
一	-5.62762
人	-5.64023
(	-5.71513
無	-5.74391
自	-5.78124
則	-5.81869
)	-5.82696
公	-5.83123
如	-5.96258
與	-5.97972
行	-6.05144
中	-6.06939
大	-6.07917
得	-6.10215
上	-6.1071
事	-6.12589
書	-6.14267
曰	-6.15664
此	-6.17143
時	-6.17902
子	-6.19083
見	-6.22058
在	-6.22072
天	-6.22366
于	-6.23138
知	-6.26574
君	-6.27439
山	-6.28779
爲	-6.28821
所	-6.29857
是	-6.32143
言	-6.32242
可	-6.32468
作	-6.35418
生	-6.35648
至	-6.37923
又	-6.38071
文	-6.38912
日	-6.3897
道	-6.39767
亦	-6.40825
然	-6.4133
出	-6.43441
矣	-6.43526
心	-6.44156
已	-6.45113
今	-6.45514
三	-6.46283
故	-6.46331
相	-6.46583
非	-6.4747
詩	-6.47584
我	-6.48839
)(	-6.4905
王	-6.51617
下	-6.53064
乎	-6.53919
官	-6.5475
方	-6.54878
皆	-6.54986
名	-6.55969
欲	-6.56629
來	-6.57655
成	-6.5862
當	-6.5885
臣	-6.59646
使	-6.59847
歸	-6.60104
長	-6.60145
未	-6.60173
用	-6.60785
若	-6.62106
明	-6.64248
水	-6.65369
去	-6.66528
復	-6.67335
正	-6.67676
風	-6.68764
同	-6.68928
多	-6.69422
後	-6.70868
乃	-6.72631
傳	-6.72865
▁	-6.74031
老	-6.74592
雖	-6.74622
清	-6.75375
入	-6.7827
學	-6.78444
春	-6.78848
前	-6.7927
從	-6.79776
重	-6.79959
焉	-6.8017
惟	-6.80606
二	-6.80805
將	-6.81107
及	-6.81489
深	-6.81721
能	-6.81816
雲	-6.82356
安	-6.8289
家	-6.82958
何	-6.847
聞	-6.85441
民	-6.8629
州	-6.86424
過	-6.86463
逺	-6.87254
更	-6.88414
世	-6.89342
吾	-6.89365
且	-6.90112
新	-6.90284
意	-6.90448
居	-6.93456
髙	-6.94336
必	-6.94781
先	-6.94897
分	-6.95549
某	-6.95967
思	-6.96355
實	-6.97161
地	-6.97454
或	-6.97961
和	-6.98711
盡	-6.99049
觀	-6.99324
令	-7.00057
因	-7.01243
既	-7.0246
石	-7.02901
四	-7.0295
師	-7.02985
云	-7.03792
猶	-7.04003
小	-7.04216
問	-7.04384
命	-7.04433
夫	-7.04545
元	-7.04871
月	-7.06114
間	-7.06358
花	-7.07047
論	-7.07442
外	-7.07725
徳	-7.08208
獨	-7.08624
望	-7.08669
兮	-7.09446
遂	-7.09755
空	-7.09757
古	-7.10062
身	-7.1007
法	-7.10087
本	-7.10104
國	-7.10499
謂	-7.1081
處	-7.10891
初	-7.11928
常	-7.11939
尚	-7.12753
五	-7.12789
守	-7.12807
難	-7.12812
數	-7.13671
應	-7.13823
開	-7.14692
朝	-7.14995
通	-7.15042
立	-7.15138
門	-7.15224
巳	-7.15523
兵	-7.16126
氣	-7.16199
易	-7.16354
樂	-7.16678
陳	-7.17414
南	-7.17692
善	-7.18115
即	-7.18164
平	-7.18196
士	-7.18814
兩	-7.18899
予	-7.18926
少	-7.18974
年	-7.19083
玉	-7.19503
舉	-7.19606
神	-7.20192
近	-7.20738
秋	-7.2082
還	-7.21118
求	-7.21547
爾	-7.21787
真	-7.22179
始	-7.22196
客	-7.22273
莫	-7.22292
寒	-7.22595
進	-7.22904
金	-7.23084
好	-7.23241
取	-7.23767
聲	-7.23865
經	-7.24029
親	-7.24179
合	-7.24814
語	-7.25031
西	-7.25446
力	-7.25536
字	-7.2593
治	-7.2605
舊	-7.26786
光	-7.27221
起	-7.27899
記	-7.28578
甚	-7.29082
東	-7.29139
物	-7.29333
張	-7.30161
先生	-7.30451
義	-7.3048
酒	-7.30689
興	-7.30705
馬	-7.31012
雨	-7.31071
益	-7.31732
信	-7.31938
哉	-7.32166
賢	-7.32426
白	-7.3275
定	-7.33307
諸	-7.33973
志	-7.34025
禮	-7.34784
坐	-7.35414
流	-7.35814
發	-7.36046
周	-7.36779
宜	-7.36825
送	-7.37002
黄	-7.37382
集	-7.3765
路	-7.37683
請	-7.38197
城	-7.38455
李	-7.38472
飛	-7.38635
直	-7.38842
不可	-7.38972
終	-7.39673
耳	-7.39744
死	-7.3982
喜	-7.40105
扵	-7.4102
江	-7.42157
余	-7.42426
賦	-7.42507
林	-7.43023
節	-7.43787
似	-7.44
稱	-7.44232
夜	-7.44603
寄	-7.44617
不能	-7.44954
漢	-7.452
任	-7.45231
九	-7.45681
以為	-7.46022
致	-7.46831
天下	-7.46961
龍	-7.47038
固	-7.47452
華	-7.47549
六	-7.48014
奉	-7.48076
豈	-7.48231
謝	-7.48232
辭	-7.48881
堂	-7.493
㑹	-7.49649
百	-7.49711
政	-7.49975
聖	-7.50102
氏	-7.50213
次	-7.50265
陽	-7.50393
制	-7.5041
餘	-7.51516
食	-7.51563
章	-7.51903
北	-7.52437
動	-7.52906
縣	-7.53487
别	-7.53936
共	-7.54344
理	-7.54841
才	-7.54887
郡	-7.55268
内	-7.55368
除	-7.55449
雪	-7.55765
服	-7.55808
宗	-7.56063
異	-7.56146
絶	-7.56184
誰	-7.56251
教	-7.56323
海	-7.56338
留	-7.5648
題	-7.56483
吏	-7.56608
衆	-7.56826
失	-7.57266
計	-7.57288
田	-7.5752
圖	-7.5762
修	-7.57855
所以	-7.59307
幸	-7.59496
宋	-7.59742
足	-7.5986
到	-7.59976
等	-7.60157
登	-7.6056
情	-7.60878
主	-7.61282
對	-7.61438
功	-7.61506
誠	-7.61744
嘗	-7.61981
病	-7.62062
勝	-7.62524
来	-7.6267
念	-7.62925
德	-7.62926
首	-7.62985
軍	-7.63063
武	-7.63294
贈	-7.63675
極	-7.63751
賜	-7.63876
青	-7.63929
手	-7.64182
凡	-7.64431
便	-7.64551
顧	-7.64774
父	-7.64815
著	-7.65028
竹	-7.65172
願	-7.65187
仁	-7.65205
香	-7.65295
萬	-7.65804
厚	-7.66035
歌	-7.6632
滿	-7.66515
而不	-7.66571
向	-7.66992
府	-7.67145
要	-7.67223
孫	-7.67293
載	-7.67425
唐	-7.67723
受	-7.67965
恩	-7.68116
畫	-7.68284
識	-7.68442
省	-7.68781
久	-7.68879
利	-7.68915
衣	-7.69008
比	-7.6965
臨	-7.69711
不知	-7.69838
伯	-7.69889
帝	-7.69969
頭	-7.70236
窮	-7.70403
兼	-7.70515
交	-7.70683
彼	-7.7079
容	-7.71156
序	-7.71447
屬	-7.71764
色	-7.72272
愛	-7.72463
宫	-7.72775
視	-7.72878
再	-7.73715
度	-7.7384
許	-7.73841
卒	-7.73969
落	-7.741
輕	-7.74133
止	-7.74273
議	-7.74635
嵗	-7.74736
奏	-7.74891
封	-7.75025
高	-7.75396
具	-7.75422
說	-7.75635
卿	-7.7581
良	-7.7587
隨	-7.75907
期	-7.76038
表	-7.76041
都	-7.76116
憂	-7.76183
懐	-7.76264
遺	-7.76277
加	-7.76656
試	-7.768
素	-7.76837
仲	-7.77018
蓋	-7.7703
休	-7.77045
化	-7.77588
承	-7.7762
侯	-7.78366
忠	-7.78474
朝廷	-7.78506
孤	-7.78651
祖	-7.78777
感	-7.78841
但	-7.79092
全	-7.79203
報	-7.79432
永	-7.79576
適	-7.79685
尊	-7.79815
乆	-7.8028
嚴	-7.80512
草	-7.80549
野	-7.80585
由	-7.80645
遊	-7.80776
錢	-7.80785
告	-7.80908
隂	-7.80933
塵	-7.80959
/)	-7.81025
尤	-7.81407
司	-7.81448
溪	-7.81667
夢	-7.81899
就	-7.81949
史	-7.82014
推	-7.82251
廣	-7.82275
齊	-7.82498
車	-7.83073
驚	-7.83333
劉	-7.8362
亭	-7.83976
靈	-7.84341
亂	-7.8508
疑	-7.85272
汝	-7.85273
盖	-7.85302
目	-7.85385
千	-7.85553
如此	-7.86127
景	-7.8614
存	-7.8615
土	-7.86191
母	-7.86404
職	-7.86721
解	-7.86871
代	-7.86974
木	-7.87302
美	-7.87411
将	-7.87453
精	-7.87464
敢	-7.8755
體	-7.87609
遷	-7.877
苦	-7.87752
榮	-7.87828
幽	-7.87951
散	-7.88221
持	-7.88253
謀	-7.88337
變	-7.88638
俗	-7.88686
回	-7.88968
貴	-7.89036
養	-7.89136
看	-7.8915
聽	-7.89352
建	-7.89442
八	-7.8951
徒	-7.89798
拜	-7.898
忽	-7.89936
兹	-7.90167
魚	-7.90177
十	-7.90398
往	-7.90479
女	-7.90683
遇	-7.90888
備	-7.91201
敬	-7.91264
寺	-7.91454
詔	-7.9163
端	-7.91647
照	-7.91877
待	-7.91952
疾	-7.91958
泉	-7.92053
轉	-7.92149
須	-7.92464
半	-7.92468
右	-7.925
却	-7.92575
慶	-7.92655
可以	-7.92728
夏	-7.92755
河	-7.92964
勞	-7.9303
改	-7.931
臺	-7.93147
仰	-7.93327
游	-7.93424
指	-7.93594
置	-7.9393
所謂	-7.94078
邊	-7.94346
移	-7.9462
趙	-7.94702
筆	-7.94783
鄉	-7.94899
位	-7.95087
樹	-7.95102
仙	-7.95121
口	-7.95446
恐	-7.9548
特	-7.9585
之所	-7.95917
齋	-7.96151
幾	-7.9621
嘉	-7.96698
陛下	-7.96829
簡	-7.96897
垂	-7.96932
紅	-7.97448
晚	-7.97488
説	-7.97709
闕	-7.97828
庭	-7.9791
羣	-7.98091
昔	-7.98496
早	-7.98749
醉	-7.98761
乞	-7.98865
笑	-7.99137
斯	-7.9924
微	-7.99663
惡	-7.99934
星	-8.00023
不得	-8.00224
卷	-8.0045
七	-8.00606
謹	-8.00647
曲	-8.00902
引	-8.01041
追	-8.01104
薄	-8.01233
秦	-8.01357
竒	-8.01373
業	-8.01484
燕	-8.01505
愁	-8.01519
各	-8.01824
閒	-8.01851
梅	-8.01979
列	-8.02047
性	-8.02114
連	-8.0214
寧	-8.02546
耶	-8.02605
亡	-8.02774
葉	-8.03082
歲	-8.03733
宿	-8.03895
私	-8.0394
君子	-8.03953
並	-8.04063
浮	-8.0409
叔	-8.04267
飲	-8.04326
積	-8.04339
鳴	-8.04675
考	-8.0487
顯	-8.05033
孝	-8.05118
收	-8.05245
盛	-8.05724
讀	-8.05755
依	-8.06235
資	-8.06988
翁	-8.07103
閣	-8.07168
果	-8.07374
號	-8.07505
示	-8.07527
廢	-8.07547
薦	-8.07839
斷	-8.09078
降	-8.09199
藏	-8.09273
材	-8.09488
保	-8.09621
崇	-8.09945
韻	-8.10202
舟	-8.10262
授	-8.10387
施	-8.10853
務	-8.10879
松	-8.1141
克	-8.11494
室	-8.11662
俱	-8.11749
每	-8.11758
最	-8.11781
負	-8.11792
友	-8.12
宣	-8.12267
梁	-8.12323
廟	-8.12754
福	-8.12784
惠	-8.12801
罷	-8.12875
詞	-8.13015
賞	-8.13044
不敢	-8.13072
退	-8.13141
太	-8.13163
權	-8.1323
遣	-8.13246
皇	-8.13323
選	-8.13482
旣	-8.13493
濟	-8.13529
楚	-8.1357
破	-8.13634
率	-8.13722
約	-8.13833
曽	-8.14006
召	-8.1408
殿	-8.14088
工	-8.14436
樓	-8.14454
英	-8.14974
繼	-8.15037
虚	-8.15161
只	-8.1523
澤	-8.15468
僧	-8.15723
覺	-8.15888
注	-8.16026
霜	-8.16066
尋	-8.16162
切	-8.16183
放	-8.1631
銘	-8.16332
里	-8.16551
邑	-8.16664
賀	-8.16993
被	-8.17179
昭	-8.17653
露	-8.1766
寳	-8.17719
典	-8.1804
急	-8.18165
火	-8.1832
獲	-8.18334
楊	-8.18379
仍	-8.18531
反	-8.18532
勤	-8.18582
懷	-8.1905
原	-8.19487
冠	-8.20234
越	-8.20344
吟	-8.20402
順	-8.20898
况	-8.20927
左	-8.21053
者也	-8.21342
院	-8.21353
朱	-8.21385
忘	-8.21435
俾	-8.21452
篇	-8.21453
愚	-8.21511
哀	-8.21823
充	-8.22694
衰	-8.22715
屋	-8.22784
御	-8.22803
佛	-8.22805
郎	-8.23056
巻	-8.23142
申	-8.23329
妙	-8.23353
荒	-8.237
軒	-8.23761
川	-8.238
折	-8.23893
夫人	-8.24121
戰	-8.24173
離	-8.24257
弗	-8.24312
横	-8.24449
殊	-8.24519
息	-8.24658
維	-8.24794
習	-8.25076
曉	-8.25197
祠	-8.25285
之意	-8.25414
夀	-8.25479
句	-8.25554
類	-8.25629
之間	-8.25966
免	-8.26017
結	-8.26205
曹	-8.2622
紀	-8.26432
象	-8.26455
一日	-8.26904
伏	-8.27501
池	-8.27696
造	-8.27746
吳	-8.27772
悲	-8.27787
威	-8.2782
累	-8.28109
儀	-8.28166
音	-8.28239
恨	-8.2841
陵	-8.28618
差	-8.28797
狀	-8.29395
影	-8.29415
儒	-8.29477
面	-8.29558
形	-8.29576
胡	-8.29589
戒	-8.29657
倚	-8.29784
慮	-8.29824
殘	-8.30199
舍	-8.30214
器	-8.30486
獻	-8.30947
次韻	-8.30953
智	-8.31054
二首	-8.31296
傷	-8.31815
禁	-8.31923
祭	-8.31955
勿	-8.32563
甫	-8.32635
徐	-8.32661
季	-8.33027
納	-8.3308
種	-8.33214
晉	-8.33215
雙	-8.33247
罪	-8.33348
參	-8.33357
接	-8.33603
勢	-8.33868
强	-8.33971
其所	-8.34111
顔	-8.34671
逢	-8.34815
庶	-8.34837
三年	-8.34994
危	-8.35138
静	-8.35238
履	-8.35325
監	-8.35371
細	-8.35543
貧	-8.35593
執	-8.36243
悉	-8.3636
寛	-8.3652
葢	-8.366
布	-8.36738
牛	-8.36878
呼	-8.36943
以爲	-8.36958
兄	-8.37079
愈	-8.37344
録	-8.37415
賊	-8.3748
聖人	-8.37658
委	-8.3769
秀	-8.37725
達	-8.38062
屢	-8.38174
仕	-8.38254
歳	-8.38387
朕	-8.38403
畏	-8.38491
附	-8.38633
逐	-8.38647
鶴	-8.38659
乗	-8.38772
延	-8.38891
寵	-8.39011
勸	-8.39029
迎	-8.39051
徃	-8.39186
竊	-8.39217
察	-8.39244
答	-8.39283
眼	-8.39291
弟	-8.39568
雜	-8.39579
傾	-8.39675
千里	-8.39772
按	-8.40075
鄭	-8.40198
咸	-8.40236
敵	-8.40246
平生	-8.40365
偶	-8.40593
熟	-8.40631
富	-8.40685
昌	-8.40699
避	-8.40746
訓	-8.40777
市	-8.40823
縁	-8.41013
韓	-8.41052
碧	-8.41094
䝉	-8.41146
隠	-8.41352
䇿	-8.41383
第	-8.41398
蜀	-8.41422
招	-8.4162
兒	-8.41685
紫	-8.41928
塞	-8.41952
責	-8.41961
魏	-8.42681
程	-8.42805
根	-8.42889
不足	-8.42955
運	-8.43041
投	-8.43176
升	-8.43437
走	-8.43464
隆	-8.43531
訪	-8.43565
調	-8.4374
詳	-8.43799
而已	-8.43847
無所	-8.44078
之心	-8.44182
恭	-8.44244
侍	-8.44615
補	-8.44675
聚	-8.44769
頗	-8.44831
晴	-8.45055
天子	-8.45175
博	-8.45313
隱	-8.45436
煩	-8.45506
啓	-8.45562
丹	-8.45639
至於	-8.45671
雅	-8.45775
機	-8.45787
閑	-8.45929
枝	-8.45991
厥	-8.46442
藥	-8.46474
温	-8.46526
今日	-8.46606
揚	-8.46659
芳	-8.46712
波	-8.46716
天地	-8.46749
湖	-8.46782
他	-8.4683
役	-8.47078
漸	-8.47094
殺	-8.47185
沙	-8.47235
族	-8.47307
萬里	-8.47459
并	-8.47621
呉	-8.47658
懼	-8.47974
甘	-8.48002
愧	-8.48119
魯	-8.48392
棄	-8.48545
邪	-8.48559
烏	-8.48813
緑	-8.48814
部	-8.48836
井	-8.49106
均	-8.49206
孰	-8.49269
赴	-8.49357
質	-8.49483
鼎	-8.49611
擇	-8.49625
條	-8.49686
誦	-8.49692
脩	-8.49772
有所	-8.49774
借	-8.49779
雄	-8.49819
逰	-8.49874
夷	-8.50052
刻	-8.50293
籍	-8.50326
康	-8.50372
患	-8.50496
壽	-8.50572
蘇	-8.51033
虎	-8.51059
羅	-8.51079
曾	-8.51376
堅	-8.51605
翠	-8.51875
庸	-8.51893
冬	-8.51901
振	-8.51916
帶	-8.52077
關	-8.52104
講	-8.52278
増	-8.52299
邦	-8.52463
𥘉	-8.52493
刑	-8.5252
稍	-8.52573
想	-8.52592
遽	-8.52715
勉	-8.53034
領	-8.53082
專	-8.53104
堪	-8.53139
源	-8.53363
律	-8.53387
户	-8.53402
慕	-8.53711
效	-8.53719
帥	-8.54026
學者	-8.54093
支	-8.54179
足以	-8.54273
符	-8.54323
裏	-8.54396
辱	-8.54421
骨	-8.54423
費	-8.54582
末	-8.54605
歴	-8.5461
趨	-8.54747
㣲	-8.55036
村	-8.55087
敗	-8.55183
誤	-8.5583
春秋	-8.5583
錫	-8.56018
歎	-8.56175
逹	-8.56395
闗	-8.56429
慰	-8.56462
園	-8.56697
墨	-8.5675
慈	-8.56756
爭	-8.56834
彦	-8.56837
暮	-8.56915
商	-8.56923
煙	-8.57028
橋	-8.57405
鳥	-8.57471
隔	-8.57584
洞	-8.57609
而後	-8.57805
境	-8.57831
辨	-8.57905
席	-8.57945
於是	-8.57947
天下之	-8.5798
鎮	-8.57985
人之	-8.58109
優	-8.58125
撫	-8.58507
谷	-8.58592
茂	-8.58804
惜	-8.58821
聊	-8.59039
尚書	-8.59136
葬	-8.59154
虞	-8.59248
峯	-8.5925
馳	-8.5943
助	-8.59438
給	-8.59581
談	-8.5981
設	-8.5982
之士	-8.60178
宻	-8.60277
壁	-8.6028
淵	-8.60298
姑	-8.60347
竟	-8.60663
偏	-8.60957
巖	-8.60962
烟	-8.61534
唯	-8.61867
撰	-8.6203
底	-8.62062
佳	-8.62227
聴	-8.62405
味	-8.62597
冷	-8.62607
耕	-8.62874
婦	-8.62887
豐	-8.62899
茶	-8.63038
祀	-8.63186
班	-8.63376
舞	-8.63427
㳺	-8.6348
栁	-8.63591
了	-8.63595
覆	-8.63668
吉	-8.63745
違	-8.63834
詠	-8.63955
未嘗	-8.64154
短	-8.64212
輔	-8.6423
壯	-8.64268
京	-8.6427
孟	-8.64281
之言	-8.64402
蒼	-8.64649
量	-8.64697
卧	-8.64996
扶	-8.65059
假	-8.65147
丁	-8.65208
肅	-8.65217
索	-8.65237
困	-8.65315
蘭	-8.65451
管	-8.65691
據	-8.65704
珠	-8.65868
謂之	-8.659
蒙	-8.65999
科	-8.66193
怨	-8.66433
宅	-8.665
盤	-8.66541
歟	-8.6661
迹	-8.66624
述	-8.66643
陸	-8.66759
館	-8.66908
争	-8.66986
宰	-8.67001
怒	-8.67026
營	-8.6705
采	-8.67079
夕	-8.67155
格	-8.67196
歡	-8.67198
荷	-8.67292
略	-8.67341
徑	-8.67672
㡬	-8.6775
介	-8.67756
編	-8.67771
左右	-8.67818
嗚呼	-8.67839
否	-8.6799
船	-8.68054
肯	-8.68109
嗣	-8.68174
趣	-8.68259
抱	-8.68307
不見	-8.68334
丘	-8.68376
二年	-8.68586
憐	-8.6859
候	-8.68706
嗟	-8.68851
毎	-8.69047
瞻	-8.69209
征	-8.69382
米	-8.69506
古人	-8.69853
沈	-8.69959
碑	-8.70016
輒	-8.70064
擢	-8.70067
苟	-8.70133
疎	-8.70228
十年	-8.70319
逸	-8.70371
不及	-8.70554
吹	-8.70572
之後	-8.70599
允	-8.70605
付	-8.70624
供	-8.70632
騎	-8.7076
害	-8.70817
剛	-8.70832
陶	-8.7086
乾	-8.70923
屈	-8.7096
式	-8.71407
疏	-8.71519
干	-8.71536
佐	-8.71578
希	-8.716
貫	-8.7168
文章	-8.717
冝	-8.71742
歩	-8.72162
託	-8.72328
衛	-8.72344
角	-8.72362
之事	-8.72504
當時	-8.72609
杜	-8.72796
禄	-8.72805
財	-8.72813
浪	-8.72893
舎	-8.73464
洪	-8.73501
然後	-8.73534
决	-8.73817
子孫	-8.74035
丗	-8.74337
躬	-8.74681
啟	-8.74853
乘	-8.74892
侵	-8.74954
豪	-8.74966
駕	-8.75054
靜	-8.75074
雷	-8.75116
震	-8.75352
讀書	-8.75447
擬	-8.75616
畢	-8.75662
審	-8.75741
總	-8.7577
頌	-8.75798
鴻	-8.7588
公之	-8.76095
錦	-8.76189
敏	-8.76195
肆	-8.76343
孔	-8.76465
住	-8.76513
鼓	-8.76535
如何	-8.76618
釋	-8.76978
不為	-8.76986
靡	-8.77014
大夫	-8.77028
甲	-8.77041
丞相	-8.77171
絲	-8.7727
孔子	-8.77314
卑	-8.7736
寓	-8.77455
續	-8.77711
晩	-8.77835
屏	-8.78012
禪	-8.78154
瑞	-8.78262
狂	-8.78324
為之	-8.78443
何以	-8.78764
憶	-8.78766
抑	-8.78988
勇	-8.79007
嶺	-8.79042
之道	-8.79073
阿	-8.79374
郊	-8.79374
掌	-8.79418
彌	-8.79483
邉	-8.7952
不以	-8.79591
犯	-8.79705
○	-8.79793
階	-8.79935
琴	-8.7997
謁	-8.80005
遲	-8.80078
殆	-8.8021
畧	-8.80356
之地	-8.80389
牧	-8.80413
酬	-8.80424
以來	-8.80438
鄰	-8.80534
燈	-8.80621
毋	-8.80635
一作	-8.80707
諭	-8.80722
踈	-8.8076
旁	-8.81359
之人	-8.81458
巧	-8.81594
僕	-8.81823
規	-8.81947
循	-8.82021
預	-8.82047
忍	-8.82111
秩	-8.82113
一時	-8.82162
有司	-8.8217
占	-8.82456
墓	-8.82516
買	-8.82592
亟	-8.82943
郭	-8.82953
環	-8.8296
賛	-8.82964
祥	-8.83002
烈	-8.83221
喪	-8.83227
衡	-8.83338
農	-8.83403
操	-8.83581
憲	-8.8373
妄	-8.83895
奚	-8.83965
獄	-8.83983
舜	-8.84296
副	-8.84378
淺	-8.84477
繁	-8.84508
塗	-8.8453
膺	-8.84611
國家	-8.84658
享	-8.84691
弊	-8.84863
藩	-8.84935
繫	-8.84983
縱	-8.8516
麗	-8.85276
廬	-8.85307
未有	-8.85347
旋	-8.85693
有餘	-8.85938
貪	-8.85951
姓	-8.85994
房	-8.86119
不復	-8.86123
四方	-8.86238
㸔	-8.86247
校	-8.86272
毛	-8.86354
匪	-8.86571
厯	-8.86666
厭	-8.86916
己	-8.86924
凝	-8.86989
社	-8.87149
攻	-8.87181
頃	-8.87292
齒	-8.87358
怪	-8.87641
春風	-8.87799
人間	-8.87952
爰	-8.88007
強	-8.88138
蕭	-8.88375
射	-8.88395
堯	-8.88603
奪	-8.8895
吕	-8.89157
戎	-8.89225
𤣥	-8.89436
卜	-8.89447
滅	-8.89631
粟	-8.89642
進士	-8.89783
郷	-8.89851
㫖	-8.89887
例	-8.89899
渠	-8.89965
眷	-8.90074
風雨	-8.90076
禹	-8.90183
禍	-8.9025
淮	-8.90335
險	-8.90423
黨	-8.908
援	-8.90809
叙	-8.90835
純	-8.91006
賤	-8.9102
故人	-8.91063
必有	-8.91092
醫	-8.91161
不如	-8.91163
眞	-8.9128
泥	-8.91491
於此	-8.91538
桂	-8.91577
祝	-8.91611
盈	-8.91788
洗	-8.91797
消	-8.91803
賔	-8.91897
言之	-8.91954
甞	-8.91964
羽	-8.91966
悟	-8.91974
品	-8.92032
途	-8.92063
弱	-8.92161
姦	-8.92178
漫	-8.92198
而無	-8.92273
辟	-8.92922
步	-8.92986
岸	-8.93113
翻	-8.93124
帖	-8.93321
珍	-8.93359
輙	-8.93393
百年	-8.93442
印	-8.93683
昏	-8.93935
翼	-8.93991
寡	-8.94174
擊	-8.94242
京師	-8.94262
范	-8.94338
賈	-8.9434
暗	-8.94403
虛	-8.94443
江南	-8.94535
銀	-8.94606
輸	-8.94845
柔	-8.94979
羞	-8.95092
輿	-8.95166
拙	-8.9525
赤	-8.953
寫	-8.95419
斗	-8.95442
速	-8.95472
謙	-8.95552
旦	-8.95602
潤	-8.9562
植	-8.95689
背	-8.95697
俯	-8.95699
辰	-8.95715
陪	-8.95833
爵	-8.95834
配	-8.95859
擁	-8.95926
祗	-8.96059
陋	-8.96208
莊	-8.96334
龜	-8.96467
誅	-8.96481
把	-8.96788
日月	-8.968
嘆	-8.96824
鍾	-8.96868
是以	-8.97026
鮮	-8.97035
窺	-8.97127
防	-8.97204
催	-8.97375
究	-8.97719
至今	-8.97735
贊	-8.98038
舒	-8.98117
掩	-8.98152
曰吾	-8.98271
呈	-8.98391
伐	-8.98563
冀	-8.98705
圗	-8.98742
寜	-8.98772
知其	-8.98822
可謂	-8.98853
厲	-8.98946
蔡	-8.99086
貢	-8.99243
旅	-8.99255
其後	-8.99329
枕	-8.99428
徙	-8.99456
兄弟	-8.99498
丞	-8.99521
逃	-8.99804
迷	-8.99819
曠	-9.00039
術	-9.00111
次公	-9.00175
之功	-9.00184
痛	-9.0043
氷	-9.00592
含	-9.00773
策	-9.00823
湏	-9.00951
鴈	-9.00963
欽定四庫全書	-9.0103
超	-9.01128
鳯	-9.01316
眉	-9.01321
佩	-9.01375
妻	-9.01587
凉	-9.01591
大臣	-9.01608
慎	-9.01629
跡	-9.01681
十二	-9.02084
學士	-9.0222
枯	-9.02359
篤	-9.02536
統	-9.02601
古今	-9.02729
諱	-9.02745
淚	-9.02839
驅	-9.0288
豈不	-9.02999
譽	-9.03084
欺	-9.03198
掃	-9.03265
圍	-9.03321
晦	-9.0349
尹	-9.03567
三月	-9.03571
廷	-9.03621
俊	-9.03642
晝	-9.03678
也今	-9.03799
宇	-9.03836
鄙	-9.03893
革	-9.03943
相與	-9.03987
戴	-9.04061
救	-9.04082
遠	-9.04123
奔	-9.04127
裁	-9.04141
之際	-9.04321
挽	-9.04388
亦有	-9.04629
契	-9.04692
稽	-9.04705
洛	-9.04752
䘮	-9.04893
激	-9.05029
暴	-9.05073
黙	-9.05143
后	-9.0515
眠	-9.052
者皆	-9.05276
童	-9.05454
文字	-9.05478
奮	-9.05688
缺	-9.05827
宴	-9.05963
僅	-9.06096
藉	-9.06194
泰	-9.06207
湯	-9.06257
孟子	-9.06306
飯	-9.06651
之學	-9.0672
之法	-9.06906
不同	-9.06955
上下	-9.07055
紙	-9.07138
覽	-9.07199
披	-9.07254
荅	-9.07302
遭	-9.07368
沉	-9.07556
之時	-9.07817
築	-9.07947
展	-9.07948
決	-9.07976
夫子	-9.08022
囘	-9.08077
欽	-9.0826
蔽	-9.0838
沒	-9.08597
倒	-9.08627
菊	-9.08739
尉	-9.08811
其事	-9.09021
飽	-9.09039
暑	-9.09092
損	-9.09227
渡	-9.09842
千載	-9.09847
增	-9.09876
功名	-9.09893
伊	-9.09918
雞	-9.10603
提	-9.10651
旌	-9.1082
區區	-9.11029
未能	-9.11048
祈	-9.11077
頻	-9.11106
吐	-9.11164
暫	-9.11287
阻	-9.1157
叨	-9.11581
逮	-9.11674
哭	-9.11747
賴	-9.11807
䟽	-9.11844
其人	-9.11861
其言	-9.11956
後世	-9.11967
圓	-9.11992
羊	-9.12028
竭	-9.12076
茍	-9.12166
之餘	-9.12196
蕩	-9.1228
寶	-9.12465
元年	-9.12544
勲	-9.12596
尺	-9.12671
乏	-9.12805
叢	-9.12939
何如	-9.12946
密	-9.13286
其間	-9.13294
属	-9.13327
第一	-9.1355
墮	-9.13643
弄	-9.13687
州縣	-9.13754
欣	-9.13858
寢	-9.14039
鹽	-9.1409
幹	-9.14114
飾	-9.14132
褒	-9.1423
劇	-9.14237
儲	-9.14261
併	-9.14269
不足以	-9.14269
輩	-9.14408
巨	-9.14425
東南	-9.14478
淡	-9.14478
泣	-9.14591
一人	-9.14618
會	-9.14629
案	-9.14639
飢	-9.14661
也故	-9.14687
際	-9.14693
富貴	-9.14703
渾	-9.1487
警	-9.14907
玩	-9.15032
戲	-9.15096
叟	-9.15217
宏	-9.15222
課	-9.15315
霧	-9.1536
炎	-9.15491
觧	-9.15641
没	-9.15764
脫	-9.15806
江湖	-9.15921
悔	-9.15959
尾	-9.16032
山中	-9.16055
伴	-9.16093
倫	-9.16189
黃	-9.16229
虜	-9.1624
鬼	-9.16259
遥	-9.16267
偉	-9.1661
不然	-9.16961
也夫	-9.16993
眀	-9.17009
快	-9.17039
側	-9.17052
㸃	-9.17324
慙	-9.17333
漕	-9.17375
然而	-9.17573
麥	-9.17619
傍	-9.17636
踐	-9.17671
草木	-9.17747
盗	-9.1788
人心	-9.17886
輪	-9.18002
産	-9.18035
太守	-9.1823
藝	-9.18232
襲	-9.18252
矧	-9.18323
萬物	-9.18327
以此	-9.18335
安得	-9.18513
脱	-9.1857
紛	-9.18787
四海	-9.18823
判	-9.18946
騰	-9.18975
逆	-9.18987
磨	-9.19056
刺	-9.1912
遵	-9.19133
東坡	-9.19139
澗	-9.19152
伸	-9.19302
靖	-9.19389
寸	-9.1943
峰	-9.19433
艱	-9.19434
績	-9.19499
緩	-9.19519
睡	-9.19534
基	-9.19538
小人	-9.1959
巢	-9.19645
鳳	-9.19695
拂	-9.19696
五年	-9.19701
柳	-9.19833
凌	-9.19894
束	-9.19984
頒	-9.20014
徹	-9.20101
貞	-9.20109
白雲	-9.20205
之說	-9.20213
茅	-9.20417
吴	-9.20532
父母	-9.20543
踰	-9.20656
懸	-9.20674
辦	-9.20845
漏	-9.20995
出於	-9.21252
朔	-9.21274
諸侯	-9.21277
競	-9.21297
不勝	-9.21307
倦	-9.21555
髪	-9.2156
滋	-9.21814
矜	-9.2186
跋	-9.21917
丈	-9.22064
曷	-9.22171
界	-9.2222
綱	-9.22285
梅花	-9.22311
明年	-9.22341
亮	-9.2239
倍	-9.22426
訟	-9.22449
董	-9.22462
霞	-9.22544
崖	-9.22726
纔	-9.22881
完	-9.22971
潮	-9.2299
傅	-9.23132
禽	-9.23493
杯	-9.23627
戸	-9.23633
㓜	-9.23635
然則	-9.23686
旱	-9.23831
返	-9.23921
魂	-9.23941
倉	-9.24236
穿	-9.24259
燭	-9.24451
探	-9.24451
四年	-9.24499
峻	-9.2476
夙	-9.24796
一笑	-9.24813
無窮	-9.24875
宰相	-9.24889
之義	-9.25022
暖	-9.25027
刀	-9.25042
錯	-9.25047
頼	-9.251
價	-9.25174
台	-9.25249
俟	-9.25288
䕶	-9.25331
太平	-9.25334
幕	-9.25365
娶	-9.25492
嫌	-9.2554
陰	-9.25541
釣	-9.25826
群	-9.25871
話	-9.259
敷	-9.26047
盧	-9.26232
士大夫	-9.26276
況	-9.26283
融	-9.26469
牙	-9.26583
腹	-9.26618
人生	-9.26683
者亦	-9.26876
何處	-9.26907
不過	-9.26914
庶幾	-9.27092
驛	-9.27187
潔	-9.27361
棲	-9.27485
歸來	-9.2751
斥	-9.27536
潜	-9.27682
觴	-9.27721
蓬	-9.27734
喻	-9.27851
潛	-9.27909
屯	-9.27954
澄	-9.28045
諸公	-9.28222
血	-9.28338
育	-9.28537
酌	-9.28562
紹興	-9.28577
添	-9.28893
罔	-9.29014
㢤	-9.29019
䖏	-9.29146
山川	-9.29323
冒	-9.29406
以自	-9.29577
晨	-9.29583
泛	-9.29719
男	-9.29722
御史	-9.29728
恵	-9.29729
桑	-9.298
斜	-9.30025
迫	-9.30043
之中	-9.30141
莫不	-9.30287
如是	-9.30383
低	-9.30406
寂	-9.30422
閱	-9.30526
肉	-9.30553
冦	-9.30585
姿	-9.30627
閩	-9.3091
鐘	-9.30999
玄	-9.31012
麟	-9.31048
漁	-9.31092
午	-9.31093
其子	-9.31121
鸞	-9.31141
津	-9.31199
敦	-9.3123
二十	-9.31274
傑	-9.31281
像	-9.31419
着	-9.31437
他日	-9.31498
饑	-9.31543
錄	-9.31596
浩	-9.31652
隣	-9.31667
導	-9.31762
羙	-9.31868
縯	-9.31934
之所以	-9.3194
而巳	-9.32003
響	-9.32131
鏡	-9.32134
排	-9.32176
効	-9.32279
風流	-9.32396
翰	-9.32492
蓮	-9.32501
劄子	-9.32605
無人	-9.32716
係	-9.32733
壇	-9.32738
璧	-9.32761
檢	-9.32861
某官	-9.32905
皇帝	-9.32967
明月	-9.33011
之外	-9.3302
二月	-9.33047
肥	-9.33155
之志	-9.33241
随	-9.33263
銅	-9.33264
採	-9.33285
健	-9.33471
座	-9.33693
貽	-9.33743
襟	-9.33851
映	-9.33992
簾	-9.33998
活	-9.34127
盟	-9.34269
侍郎	-9.34309
六月	-9.34312
寕	-9.34456
君之	-9.34548
誓	-9.3455
儻	-9.34597
衍	-9.34693
岳	-9.34725
坡	-9.34769
其心	-9.34813
杖	-9.34818
蒲	-9.3495
觸	-9.34978
弓	-9.34982
頓	-9.34987
閲	-9.35029
緒	-9.35129
那	-9.35134
局	-9.35279
是非	-9.35409
中書	-9.35503
壓	-9.35542
無事	-9.35605
較	-9.35663
也然	-9.35742
無以	-9.35764
昨	-9.35967
巾	-9.361
乾坤	-9.3624
樞	-9.36272
紹	-9.36416
幼	-9.36509
賣	-9.36553
不可以	-9.36622
奠	-9.36655
施行	-9.36701
秋風	-9.36752
盜	-9.36769
也而	-9.3692
遐	-9.36953
鞭	-9.36988
諫	-9.37012
得其	-9.3704
挾	-9.37115
惑	-9.37166
貳	-9.37252
不用	-9.37272
亦不	-9.37281
今年	-9.37522
人也	-9.37621
詣	-9.37669
恃	-9.37676
而為	-9.37683
摧	-9.37846
額	-9.37847
之不	-9.37904
也其	-9.37995
之文	-9.38004
塔	-9.38051
粗	-9.38159
有以	-9.38198
朋	-9.38198
料	-9.38389
何時	-9.38429
鐵	-9.38589
父子	-9.38693
𬒳	-9.38728
唱	-9.38737
恥	-9.38854
主人	-9.38888
見其	-9.38966
蚤	-9.39124
而有	-9.39132
穆	-9.39141
至于	-9.39396
限	-9.39543
無不	-9.39552
輝	-9.39559
具官某	-9.39748
徧	-9.39786
江西	-9.39946
山林	-9.40061
馮	-9.40213
三日	-9.40318
冰	-9.40395
攝	-9.4086
浦	-9.41062
青山	-9.41171
湘	-9.41193
𥙷	-9.41263
浸	-9.41271
鑿	-9.4128
藻	-9.41466
歛	-9.41521
卦	-9.41623
不忘	-9.41674
自是	-9.41724
提舉	-9.41806
蹈	-9.41853
整	-9.41946
数	-9.42022
亷	-9.42041
奴	-9.42151
銘曰	-9.42181
恤	-9.42231
諸生	-9.42253
洲	-9.42436
山水	-9.42468
不自	-9.4249
鬢	-9.42571
拘	-9.42676
圃	-9.42783
焚	-9.42788
辯	-9.42821
古之	-9.42841
彭	-9.42869
熱	-9.42936
紛紛	-9.42987
之盛	-9.43036
瓊	-9.43049
蕃	-9.43112
不必	-9.43114
囊	-9.43149
何人	-9.43193
戯	-9.43219
庵	-9.43237
之書	-9.43249
使人	-9.43324
鈞	-9.43329
未必	-9.43384
潭	-9.43384
飬	-9.43534
不容	-9.43548
靣	-9.43685
䑓	-9.43725
清風	-9.43875
醒	-9.43904
塘	-9.44056
禦	-9.44073
枉	-9.44188
之則	-9.44323
榖	-9.4433
喧	-9.44532
是也	-9.4455
垣	-9.44668
揮	-9.44701
滯	-9.4473
郎中	-9.44737
誕	-9.44745
穴	-9.4484
劍	-9.44889
不忍	-9.44901
饒	-9.44906
秉	-9.44946
世之	-9.44956
不肯	-9.4507
淑	-9.45071
中外	-9.45104
使之	-9.45131
陞	-9.45188
脚	-9.45223
削	-9.45241
詩書	-9.45286
之曰	-9.45315
練	-9.45321
旗	-9.45339
攀	-9.45474
恭惟某官	-9.45477
五十	-9.45516
閉	-9.45523
執事	-9.45591
裕	-9.45605
苑	-9.45671
宸	-9.45886
之名	-9.4593
襄	-9.4605
墜	-9.46079
者必	-9.46098
収	-9.46103
中有	-9.4614
踏	-9.46283
胥	-9.4637
使君	-9.46386
以其	-9.46446
出入	-9.46457
周公	-9.46482
不在	-9.46628
則有	-9.46822
讓	-9.46877
荆	-9.46883
柱	-9.46955
晏	-9.46977
戍	-9.47064
宦	-9.47075
禱	-9.47096
繞	-9.47203
三首	-9.47282
誼	-9.47313
之子	-9.47331
宮	-9.4741
徴	-9.47423
驕	-9.47558
孚	-9.47584
渉	-9.47642
利害	-9.4773
範	-9.47792
之日	-9.47999
稀	-9.48027
裘	-9.48071
廉	-9.48084
晋	-9.48103
皆有	-9.48188
豈無	-9.482
憑	-9.48302
俄	-9.48316
劒	-9.48316
四十	-9.48329
包	-9.48355
故事	-9.48415
啼	-9.48491
致仕	-9.48616
敎	-9.48629
戚	-9.48694
翔	-9.48703
羡	-9.48741
一言	-9.4876
者乎	-9.4879
諒	-9.48871
桃	-9.4904
之至	-9.49117
溢	-9.49221
又曰	-9.49288
督	-9.49487
聖賢	-9.49565
衣冠	-9.49613
一二	-9.49629
長安	-9.49787
通判	-9.4988
人物	-9.49924
簷	-9.49976
忌	-9.50024
抵	-9.50034
淳	-9.50109
播	-9.50142
七十	-9.50227
覩	-9.50278
冊	-9.50329
汗	-9.50355
驗	-9.50406
標	-9.50431
擾	-9.50598
恭惟	-9.50611
䟦	-9.50756
一旦	-9.50868
不待	-9.50871
誨	-9.50881
濕	-9.50949
涼	-9.50972
腸	-9.50973
之民	-9.51023
其家	-9.5105
者其	-9.51093
壊	-9.51156
將軍	-9.51177
百里	-9.51264
民之	-9.51274
内外	-9.51348
糧	-9.51492
豫	-9.51547
陟	-9.51565
創	-9.51706
擅	-9.51726
濫	-9.51844
睿	-9.51845
評	-9.51947
二子	-9.51959
毁	-9.5197
赦	-9.52156
捕	-9.52273
司馬	-9.52282
貨	-9.52411
岡	-9.52436
項	-9.52438
囬	-9.52454
南北	-9.52521
袁	-9.52552
儉	-9.5257
菴	-9.52586
南山	-9.52725
祖宗	-9.52829
往往	-9.52863
百姓	-9.5287
銷	-9.52902
悠悠	-9.5301
髮	-9.53094
進退	-9.5313
之上	-9.53196
牽	-9.53229
壑	-9.53293
弼	-9.53337
詩云	-9.53387
災	-9.53401
衝	-9.53496
得之	-9.53539
鑒	-9.53568
換	-9.53612
鄧	-9.53619
稅	-9.5363
慚	-9.53634
蠻	-9.53639
芝	-9.53658
邀	-9.53745
自然	-9.53825
粹	-9.53993
訖	-9.54069
葛	-9.54081
協	-9.54239
彊	-9.54342
署	-9.54351
黒	-9.54396
之初	-9.54432
賓	-9.54486
態	-9.54542
不相	-9.54552
少年	-9.54719
八月	-9.54772
之臣	-9.54797
懿	-9.54942
蓄	-9.54971
人情	-9.55041
噫	-9.55108
染	-9.55128
使者	-9.55185
不幸	-9.55209
雖有	-9.55239
減	-9.55348
恕	-9.55419
停	-9.55438
絃	-9.55521
彰	-9.55523
憤	-9.55826
相望	-9.55827
闢	-9.55886
喚	-9.55932
誣	-9.5614
亨	-9.56144
欠	-9.56184
員	-9.56214
人皆	-9.56252
飄	-9.56328
旨	-9.56343
捐	-9.56504
蟲	-9.56615
鹿	-9.56636
㝷	-9.56713
國之	-9.56731
墻	-9.56789
公曰	-9.56902
譜	-9.56958
誇	-9.56969
聖人之	-9.57031
徽	-9.57038
貌	-9.57134
勑	-9.57174
盍	-9.5726
又有	-9.57373
之説	-9.57448
猷	-9.57466
帳	-9.57518
杜詩	-9.57565
捨	-9.57573
爐	-9.5764
其志	-9.57679
居士	-9.57688
嶽	-9.57744
専	-9.5776
顛	-9.57786
禀	-9.57815
千古	-9.5804
邁	-9.58111
腰	-9.58154
作詩	-9.58171
偽	-9.58175
勒	-9.58186
不至	-9.58212
簿	-9.58215
猶有	-9.58239
藴	-9.58263
從容	-9.58349
以是	-9.58542
終日	-9.58573
敕	-9.58625
熹	-9.58699
措	-9.58827
撥	-9.58847
咎	-9.58848
㫁	-9.58882
疲	-9.58893
蔵	-9.58894
自有	-9.58931
中原	-9.5897
勅	-9.58994
耀	-9.59026
單	-9.59046
證	-9.59055
未知	-9.59086
碩	-9.59384
牒	-9.59402
壺	-9.59572
抗	-9.5961
指揮	-9.59739
疇	-9.5974
卓	-9.59793
六年	-9.59842
舌	-9.59888
子弟	-9.5989
值	-9.59972
討	-9.60062
掾	-9.60129
肇	-9.60134
軰	-9.60281
牀	-9.60314
轍	-9.60327
斬	-9.60434
壤	-9.60466
状	-9.60478
昧	-9.6051
韋	-9.6066
瘦	-9.60668
七年	-9.60708
逾	-9.60716
柄	-9.60773
九月	-9.60947
之風	-9.61105
摩	-9.61107
鋒	-9.6123
矣而	-9.61352
拔	-9.61412
崔	-9.61447
聳	-9.61502
泊	-9.61631
隅	-9.61633
榜	-9.61641
無復	-9.61698
斯文	-9.61776
弟子	-9.61816
凶	-9.61852
鑑	-9.61857
議論	-9.61861
朝夕	-9.61899
濤	-9.61945
十月	-9.61973
萬事	-9.61992
斂	-9.62037
五月	-9.62051
冩	-9.6209
綴	-9.62174
相逢	-9.623
風俗	-9.62303
緣	-9.62391
圭	-9.62414
當年	-9.62415
場	-9.626
之徒	-9.62626
黜	-9.62663
膏	-9.62731
茲	-9.62733
軸	-9.62793
欵	-9.62797
而下	-9.62884
而去	-9.62932
自古	-9.62994
東西	-9.63083
爛	-9.63085
其身	-9.63095
聨	-9.6312
技	-9.63167
携	-9.63186
銜	-9.63254
籠	-9.63287
疊	-9.63328
旬	-9.63469
揺	-9.6349
風吹	-9.63508
至元	-9.63675
渥	-9.63678
西山	-9.63687
去年	-9.63733
瓦	-9.63844
毒	-9.63847
嫁	-9.63857
西湖	-9.6404
攸	-9.64085
精神	-9.641
檄	-9.64165
江山	-9.64236
十五	-9.6442
勵	-9.64457
明日	-9.64511
此心	-9.64534
宵	-9.64559
遜	-9.6464
與之	-9.64657
教授	-9.6466
千萬	-9.64671
揆	-9.64679
用之	-9.64705
雍	-9.64747
翰林	-9.64757
坤	-9.64762
潘	-9.64816
遍	-9.64897
爽	-9.64901
二人	-9.64946
東風	-9.65156
奥	-9.65274
暇	-9.65288
裂	-9.65369
伏惟	-9.65459
護	-9.65471
之才	-9.65545
懇	-9.65547
繇	-9.65565
几	-9.65566
不識	-9.65661
賢者	-9.65663
姚	-9.65785
攷	-9.66027
岀	-9.66033
一切	-9.6608
故曰	-9.66183
霄	-9.66276
區	-9.6647
譏	-9.66497
僚	-9.66501
未易	-9.66563
汪	-9.6659
其意	-9.66698
之下	-9.66714
攜	-9.66733
桐	-9.66793
訴	-9.66826
謬	-9.66846
濃	-9.66847
窓	-9.66859
敝	-9.66953
曰此	-9.67022
前後	-9.67037
侈	-9.67095
及其	-9.67109
割	-9.67155
終身	-9.67169
所得	-9.67182
庫	-9.67339
政事	-9.67362
樵	-9.67572
控	-9.67579
一首	-9.67652
懶	-9.67669
由是	-9.67698
麻	-9.67699
駭	-9.67745
得以	-9.67765
淹	-9.67834
普	-9.67859
奇	-9.68025
繩	-9.68079
廼	-9.68171
槐	-9.68172
元祐	-9.68363
綿	-9.68375
拱	-9.68394
弔	-9.68428
者有	-9.68482
邇	-9.68499
禮樂	-9.68514
之故	-9.68536
之重	-9.68551
見之	-9.68577
層	-9.68604
薛	-9.68658
道士	-9.68683
九日	-9.68692
衞	-9.68718
埋	-9.68756
偃	-9.68763
殷	-9.68796
袖	-9.68834
三十	-9.68893
相公	-9.68952
不當	-9.68984
謨	-9.69072
疆	-9.69097
王氏	-9.69129
何所	-9.69133
諧	-9.69146
見於	-9.69381
不盡	-9.6945
若是	-9.69465
朋友	-9.69483
三代	-9.69504
偕	-9.69508
仁義	-9.69563
叛	-9.69586
租	-9.6961
悦	-9.69732
洽	-9.6985
聞之	-9.69975
涉	-9.70002
網	-9.70127
庇	-9.70167
凢	-9.70186
道之	-9.70197
丕	-9.70241
賦詩	-9.70242
篆	-9.70346
誰能	-9.70457
八年	-9.70525
隙	-9.70546
謾	-9.70609
詢	-9.70651
两	-9.70739
咨	-9.70866
粉	-9.70884
諌	-9.71011
魁	-9.71023
勁	-9.71455
媿	-9.71506
可憐	-9.71608
癡	-9.71623
澹	-9.71646
河南	-9.71649
的	-9.71679
以示	-9.71734
熈	-9.71745
謗	-9.71804
幣	-9.71808
繡	-9.71911
行之	-9.71995
頑	-9.72056
西風	-9.72083
鱗	-9.72147
溺	-9.7237
薪	-9.72409
隂陽	-9.72494
函	-9.72535
灰	-9.72541
溝	-9.72637
嵗月	-9.72661
嗜	-9.72758
之禮	-9.72771
壘	-9.7279
谿	-9.72811
鼔	-9.72874
㧞	-9.72921
之命	-9.73179
所居	-9.73192
鬱	-9.73213
萬一	-9.73223
誥	-9.73248
綺	-9.73312
太子	-9.73333
域	-9.73344
上人	-9.73352
綠	-9.73382
躍	-9.73437
逝	-9.73498
庻	-9.73622
它	-9.73664
者非	-9.73731
之理	-9.73954
不堪	-9.73967
俞	-9.74067
藁	-9.74074
懋	-9.74106
虧	-9.7411
四時	-9.74169
之氣	-9.74195
㱕	-9.74282
辛	-9.74448
䖍	-9.74575
皮	-9.74629
陣	-9.7466
之政	-9.74729
驟	-9.74749
馭	-9.74753
主簿	-9.74762
罰	-9.74775
道人	-9.74779
扇	-9.74877
兆	-9.74878
之恩	-9.74945
其中	-9.74992
壮	-9.74998
躋	-9.75019
秘	-9.75128
貸	-9.75262
倡	-9.75358
子曰	-9.75359
奈何	-9.75367
苗	-9.755
中庸	-9.75507
矣然	-9.75582
山谷	-9.75641
豈非	-9.75738
雁	-9.75743
則其	-9.75787
頴	-9.75793
駐	-9.75806
忝	-9.75845
従	-9.75852
諸子	-9.75862
涕	-9.75876
彈	-9.75902
鉅	-9.75965
老子	-9.76011
十二月	-9.76021
戀	-9.76087
僉	-9.76093
吞	-9.7619
足下	-9.76344
詎	-9.76379
醇	-9.7651
十日	-9.76548
伏以	-9.76723
乳	-9.76748
千年	-9.76754
正月	-9.76954
三百	-9.7696
未及	-9.76997
堯舜	-9.77005
筵	-9.77032
士之	-9.7714
乖	-9.77229
之美	-9.77259
之計	-9.77261
妾	-9.77312
臣聞	-9.77331
▁(	-9.77363
世間	-9.7758
爲之	-9.77598
七月	-9.7768
障	-9.77724
烹	-9.77734
祐	-9.77773
官吏	-9.77776
霽	-9.77803
老人	-9.77862
淮南	-9.77887
苔	-9.77912
先君	-9.77914
寂寞	-9.77939
君臣	-9.77976
淪	-9.78012
仗	-9.78105
前日	-9.78151
鬼神	-9.78154
八十	-9.7822
悼	-9.78256
壞	-9.78257
頂	-9.7827
綸	-9.78339
吏部	-9.78463
府君	-9.78485
混	-9.78509
言者	-9.78513
而能	-9.78629
若干	-9.78633
於人	-9.78674
黄金	-9.78717
怠	-9.78837
綏	-9.78845
邵	-9.78988
姓名	-9.7904
憚	-9.79053
恒	-9.79055
掛	-9.79093
嚮	-9.7925
尸	-9.79311
貺	-9.79436
三千	-9.79436
凍	-9.79562
哲	-9.79567
從事	-9.79649
陂	-9.79747
江上	-9.79766
硯	-9.79769
中興	-9.79833
冲	-9.79905
之私	-9.79919
四月	-9.7998
打	-9.79993
何必	-9.80117
猿	-9.80174
江東	-9.80365
白髪	-9.80391
叩	-9.80493
涵	-9.80565
中國	-9.806
豈有	-9.80609
毫	-9.80641
扁舟	-9.80753
閔	-9.80984
墳	-9.81039
囚	-9.81044
餉	-9.81068
叅	-9.81101
三十年	-9.81162
恬	-9.81229
祿	-9.81231
之賢	-9.81363
文武	-9.81391
黎	-9.81534
有感	-9.81561
至此	-9.81588
二十年	-9.81635
天地之	-9.81636
從之	-9.81676
之職	-9.81717
虹	-9.81734
傲	-9.81819
者不	-9.81859
伍	-9.81899
各有	-9.81929
慨然	-9.81931
拒	-9.8194
鑄	-9.81968
當世	-9.82013
摘	-9.82065
而不能	-9.82078
為人	-9.82092
天之	-9.82115
者以	-9.8219
床	-9.82192
流水	-9.82257
臂	-9.82265
替	-9.82338
織	-9.82343
不與	-9.82359
析	-9.82388
迂	-9.82411
所至	-9.82436
不聞	-9.82437
之樂	-9.82467
謫	-9.82523
挺	-9.82758
肩	-9.82805
祇	-9.82816
誘	-9.82839
脉	-9.82932
父老	-9.83029
君子之	-9.83031
之憂	-9.83075
之論	-9.83171
絳	-9.8319
冗	-9.832
焦	-9.83244
古者	-9.83257
六十	-9.8328
後人	-9.83285
庾	-9.83305
製	-9.83386
姪	-9.83422
淫	-9.83445
耳目	-9.83556
渚	-9.83581
堆	-9.83593
畀	-9.83595
遶	-9.83672
韶	-9.83674
不須	-9.83678
辭免	-9.83715
猶未	-9.83732
齡	-9.83761
棘	-9.83791
河北	-9.83912
畔	-9.83931
以求	-9.84059
桃李	-9.84077
蕪	-9.84196
之任	-9.84201
可也	-9.84242
倅	-9.84295
麾	-9.8433
得失	-9.84342
沮	-9.84368
以待	-9.84378
門下	-9.84423
處士	-9.84438
菜	-9.84512
岐	-9.84593
佇	-9.84789
飭	-9.84825
而又	-9.84872
牕	-9.84925
樊	-9.84945
懲	-9.85053
妍	-9.85061
死生	-9.85087
十八	-9.85159
剪	-9.85246
媚	-9.85254
忙	-9.85285
嘯	-9.85286
汙	-9.85337
滴	-9.85359
蛇	-9.85379
促	-9.8541
其為	-9.8541
森	-9.85439
慧	-9.85451
不免	-9.85473
汲	-9.8548
殁	-9.85514
騷	-9.85649
托	-9.8568
一年	-9.85693
貶	-9.85765
隴	-9.85803
何事	-9.85807
寔	-9.85842
賁	-9.85847
之類	-9.85914
其餘	-9.85971
夲	-9.86024
燒	-9.86028
籌	-9.86045
十六	-9.86102
岩	-9.86205
其實	-9.86246
公卿	-9.86281
史記	-9.86324
裳	-9.8637
凖	-9.86396
毅	-9.86396
固有	-9.864
愆	-9.8643
刋	-9.86518
税	-9.86524
𦵏	-9.8654
其名	-9.8658
見寄	-9.86806
清明	-9.86867
踵	-9.86971
䏻	-9.87131
臯	-9.87143
坊	-9.87176
亦何	-9.87297
臣等	-9.87319
邈	-9.87383
籬	-9.87489
相見	-9.87495
不出	-9.88024
大抵	-9.88043
妃	-9.88059
亦可	-9.8808
牆	-9.8812
輟	-9.8816
不肖	-9.88291
扉	-9.88397
煥	-9.88407
乎其	-9.88421
濯	-9.88438
减	-9.88508
堤	-9.88538
糴	-9.88545
榻	-9.88554
仇	-9.8858
碎	-9.88617
河東	-9.88659
之勢	-9.88669
熊	-9.887
執政	-9.88732
雖然	-9.88745
暉	-9.88748
無一	-9.8875
神仙	-9.88768
子之	-9.88771
瀆	-9.88846
金石	-9.88855
出處	-9.89007
亦無	-9.89079
莊子	-9.89096
詩人	-9.89099
之難	-9.89117
板	-9.89149
莭	-9.89368
別	-9.89447
頋	-9.89455
而不知	-9.89477
矯	-9.89548
巴	-9.89613
令人	-9.8962
蠧	-9.89635
於世	-9.8969
獵	-9.89718
炳	-9.89766
者又	-9.89767
膚	-9.89767
十一月	-9.89782
于是	-9.89799
十一	-9.89814
縮	-9.89847
聘	-9.89865
之數	-9.89902
僊	-9.8993
漲	-9.89937
詩曰	-9.90027
寖	-9.90038
學問	-9.90048
遮	-9.90055
本朝	-9.90163
點	-9.90214
矢	-9.90257
杭	-9.90276
造化	-9.90281
覔	-9.90313
鼻	-9.90337
濁	-9.90355
此意	-9.90409
之大	-9.90439
鬚	-9.90539
逼	-9.90584
一朝	-9.90604
蠲	-9.90658
慿	-9.90695
猛	-9.90809
是時	-9.90854
樽	-9.90866
墓誌銘	-9.90923
三人	-9.90926
天上	-9.91029
萬世	-9.91142
闊	-9.91156
藤	-9.91185
遁	-9.91237
嵩	-9.91261
詭	-9.91267
犬	-9.91287
互	-9.91309
社稷	-9.91459
浮雲	-9.91496
之患	-9.91497
閣下	-9.91501
十三	-9.91628
異時	-9.91756
太宗	-9.91812
之舊	-9.91816
簮	-9.9188
沾	-9.91928
夾	-9.91945
罕	-9.91951
有此	-9.91959
牢	-9.91981
衷	-9.92037
不爲	-9.92038
募	-9.92138
公以	-9.92164
殫	-9.92241
臘	-9.92309
奔走	-9.92315
觀其	-9.92453
蟬	-9.92456
之制	-9.92507
皆以	-9.92682
裔	-9.92718
翳	-9.92767
之詩	-9.92799
新詩	-9.92802
隋	-9.92804
誌	-9.92862
白頭	-9.92881
摇	-9.92967
白日	-9.93047
事業	-9.93057
之弊	-9.93209
穀	-9.93411
突	-9.93431
蹤	-9.93468
竿	-9.93497
淵明	-9.9351
灘	-9.93519
柯	-9.93596
左傳	-9.93614
者則	-9.93658
斯人	-9.93702
耆	-9.93717
之望	-9.93725
先生之	-9.93909
𨽻	-9.93921
楹	-9.93932
䕃	-9.93985
聼	-9.94028
暨	-9.9406
則又	-9.94358
戈	-9.94358
往來	-9.94373
葺	-9.94391
跨	-9.94443
梓	-9.94454
其道	-9.94524
帆	-9.94529
渭	-9.9466
酣	-9.94661
頥	-9.94677
歆	-9.94725
猥	-9.94746
徃徃	-9.94772
僻	-9.94782
戾	-9.94796
膠	-9.94799
睦	-9.94837
不受	-9.94842
慢	-9.94844
電	-9.94844
沃	-9.94897
怯	-9.94953
竊以	-9.95009
距	-9.95093
徇	-9.95106
長者	-9.9511
刼	-9.95117
穹	-9.95159
窻	-9.95203
惟有	-9.95221
尚有	-9.95273
子由	-9.95378
偷	-9.95412
第二	-9.9544
五日	-9.9544
以下	-9.95469
濡	-9.95513
邸	-9.95539
人事	-9.95605
西南	-9.9564
冨	-9.95655
迺	-9.95667
認	-9.9568
佑	-9.95756
人主	-9.95756
所見	-9.95804
一身	-9.9581
乍	-9.95826
沐	-9.95902
李氏	-9.95903
千金	-9.95914
幻	-9.96012
挂	-9.96051
元豐	-9.96061
其可	-9.96096
片	-9.96119
軾	-9.96146
雀	-9.96225
牋	-9.96362
遼	-9.96412
萌	-9.96445
雕	-9.96467
徘徊	-9.96471
六經	-9.96483
驥	-9.96516
寅	-9.96544
未盡	-9.96618
掠	-9.96671
詰	-9.96816
依舊	-9.96844
一見	-9.96854
関	-9.96873
道中	-9.9691
伏念臣	-9.96936
不成	-9.96943
人所	-9.96958
不暇	-9.96981
稻	-9.97005
醜	-9.9701
之變	-9.9701
蕭蕭	-9.97044
弛	-9.9707
帷	-9.97144
風月	-9.97207
若此	-9.97248
研	-9.97266
闈	-9.97279
敢不	-9.97281
不若	-9.97299
恱	-9.97309
鈎	-9.97323
十里	-9.97351
栽	-9.97366
歐陽	-9.97372
冥	-9.97382
飲食	-9.97503
冐	-9.97538
云云	-9.97666
故其	-9.97835
未幾	-9.97868
之罪	-9.97897
汴	-9.97977
百世	-9.98082
也又	-9.98122
帛	-9.98127
閭	-9.98133
浙	-9.98139
衮	-9.98152
文王	-9.98158
之情	-9.9818
而歸	-9.98214
狐	-9.98239
償	-9.98387
芙蓉	-9.98392
判官	-9.98402
竄	-9.98408
明堂	-9.98409
他人	-9.98454
未見	-9.9851
註	-9.98595
噐	-9.98699
霑	-9.98714
再拜	-9.98779
陛	-9.9878
艱難	-9.98865
蒸	-9.98883
徵	-9.98929
郡縣	-9.9893
不可不	-9.98993
又以	-9.98997
彩	-9.98998
熙	-9.99007
今之	-9.99026
莫能	-9.99032
祕	-9.99329
札	-9.99331
坎	-9.99335
淨	-9.99339
棹	-9.99407
笛	-9.99516
知之	-9.99542
箇	-9.99665
太學	-9.99708
无	-9.99797
纎	-9.99807
劾	-9.99808
是故	-9.99874
㑹稽	-9.99904
誰知	-9.99958
俸	-9.99995
窟	-10.0008
者為	-10.0008
濶	-10.0013
獸	-10.0013
以謂	-10.0018
鄒	-10.0019
之榮	-10.002
金陵	-10.0022
灑	-10.0022
歸去	-10.0022
坦	-10.0027
與其	-10.0027
公子	-10.0028
監司	-10.0033
栗	-10.0036
嘉祐	-10.004
蟻	-10.0046
栢	-10.0048
罄	-10.0056
匠	-10.0059
向來	-10.006
曩	-10.0063
也若	-10.0072
之誠	-10.0074
不易	-10.0079
則曰	-10.0081
釐	-10.0085
數十	-10.0085
迴	-10.0085
夭	-10.0086
迨	-10.0091
無他	-10.0093
潰	-10.0095
西北	-10.0096
又云	-10.0105
于此	-10.0105
涯	-10.0106
廬陵	-10.0109
其說	-10.0111
之官	-10.0118
纓	-10.0121
吁	-10.0126
不是	-10.0127
十四	-10.0131
塵埃	-10.0131
鵲	-10.0139
倘	-10.0139
者矣	-10.0142
縣令	-10.0145
刺史	-10.0147
恪	-10.0151
挈	-10.0162
夣	-10.0166
不獲	-10.0168
則是	-10.0173
牘	-10.0174
所有	-10.019
道路	-10.0194
起居	-10.0195
以告	-10.0199
輕重	-10.0202
之利	-10.0207
㢘	-10.0208
江淮	-10.0208
有一	-10.0212
奸	-10.0217
多士	-10.0218
峽	-10.0223
緘	-10.0227
嬉	-10.0227
暢	-10.0227
措置	-10.0227
之術	-10.0228
凋	-10.023
亞	-10.0232
軀	-10.0237
文學	-10.0243
副使	-10.0247
蟠	-10.0253
桃花	-10.0256
畝	-10.0258
相從	-10.0261
銓	-10.0267
嬰	-10.0269
不朽	-10.0273
憫	-10.0273
周旋	-10.0288
舘	-10.0292
之實	-10.0296
變化	-10.03
太極	-10.0303
有道	-10.0304
未得	-10.0306
學校	-10.0309
門外	-10.032
錢塘	-10.0321
數年	-10.0327
揚州	-10.0328
一字	-10.0333
頽	-10.0334
羮	-10.0339
版	-10.0342
所當	-10.0346
槩	-10.0352
閫	-10.0354
之語	-10.0355
該	-10.0357
文集	-10.0362
文公	-10.0368
與君	-10.0369
先王	-10.038
禪師	-10.0386
鷄	-10.0395
斧	-10.0397
侍從	-10.0398
臥	-10.0403
一枝	-10.0403
何足	-10.0434
准	-10.0436
不應	-10.0442
恢	-10.0443
桓	-10.0447
不作	-10.0447
提刑	-10.0462
畦	-10.0464
廟堂	-10.0465
之行	-10.0468
寨	-10.0469
未可	-10.0469
有子	-10.0474
俯仰	-10.0478
至是	-10.048
與人	-10.0481
冶	-10.0491
白首	-10.0493
至正	-10.0495
未嘗不	-10.0497
自得	-10.0499
夙夜	-10.0499
久矣	-10.05
之勞	-10.0502
祚	-10.0502
以上	-10.0514
不許	-10.0517
需	-10.0519
遣使	-10.0521
待制	-10.0535
為我	-10.0536
胄	-10.054
祉	-10.0541
朽	-10.0542
蓬萊	-10.0544
太史	-10.0549
畜	-10.0555
未免	-10.0558
始終	-10.0563
同年	-10.0566
阜	-10.0579
幅	-10.0582
有功	-10.0594
豈可	-10.0594
邱	-10.0601
二字	-10.0607
箭	-10.0615
博士	-10.0626
揖	-10.0629
栖	-10.063
萃	-10.063
太師	-10.0637
不行	-10.0649
次第	-10.065
豆	-10.065
日夜	-10.0654
妣	-10.0663
攬	-10.0664
截	-10.0664
𢎞	-10.0668
搜	-10.0669
忠義	-10.0674
其所以	-10.0676
不知其	-10.0684
甲子	-10.0694
妖	-10.0702
飲酒	-10.0705
張氏	-10.0707
本末	-10.071
退之	-10.0713
求之	-10.0714
老成	-10.0716
數日	-10.0723
腐	-10.0725
滑	-10.073
墟	-10.0739
國公	-10.0754
恣	-10.0756
耻	-10.0758
落日	-10.0764
耗	-10.0768
議者	-10.0769
屠	-10.0771
青雲	-10.0771
蔬	-10.0772
不言	-10.0772
天理	-10.0776
未至	-10.0781
劄	-10.0798
氏之	-10.0807
荘	-10.0808
賔客	-10.0811
梢	-10.0813
塲	-10.0813
回首	-10.082
之門	-10.0836
所聞	-10.0842
奬	-10.0847
仁宗	-10.0848
軌	-10.0853
所在	-10.0855
何為	-10.0862
犀	-10.0869
淸	-10.088
袍	-10.0886
捧	-10.0886
懽	-10.0887
湛	-10.089
艾	-10.0895
廩	-10.0905
断	-10.0906
蹇	-10.0906
佚	-10.0908
駿	-10.0912
朴	-10.0922
䕫	-10.0923
鷗	-10.0925
鵬	-10.0935
而不可	-10.0942
盆	-10.0957
與夫	-10.0961
以至	-10.0961
玷	-10.0961
隘	-10.0972
萬古	-10.0975
有大	-10.0977
株	-10.0979
鴉	-10.0979
乆矣	-10.0984
只是	-10.0984
欲以	-10.1008
浴	-10.1014
豈惟	-10.1014
觀之	-10.1014
岑	-10.1018
瑶	-10.1018
昔人	-10.1022
此詩	-10.1028
誰與	-10.104
喬	-10.1045
之可	-10.1048
之末	-10.1051
䑕	-10.1052
逋	-10.1055
何日	-10.1057
蠶	-10.1057
惰	-10.1058
巷	-10.1064
失其	-10.1065
填	-10.1065
慘	-10.1066
翰墨	-10.1069
輯	-10.107
無愧	-10.1075
慨	-10.1076
拾	-10.1078
絶句	-10.1078
歷	-10.1082
饋	-10.1086
不少	-10.1087
㝠	-10.1087
檻	-10.1089
玉堂	-10.1092
綵	-10.1093
姬	-10.1095
迄	-10.1098
神明	-10.11
王公	-10.1101
奈	-10.1105
謚	-10.1105
仲尼	-10.1106
蝶	-10.1111
姻	-10.1115
廪	-10.1115
箴	-10.1115
隐	-10.1116
教之	-10.112
之力	-10.1123
不動	-10.1127
老矣	-10.1132
浚	-10.1143
門人	-10.1146
雖不	-10.1146
百官	-10.1148
零	-10.1149
餞	-10.115
出門	-10.1156
妨	-10.1163
杭州	-10.1169
無可	-10.1173
以詩	-10.1174
汚	-10.1179
粤	-10.1185
而自	-10.1189
皷	-10.1194
羈	-10.1197
此事	-10.1199
洛陽	-10.1213
膽	-10.1216
登臨	-10.122
之用	-10.1222
十七	-10.1224
一家	-10.1225
夕陽	-10.1226
安能	-10.1233
平日	-10.1233
九年	-10.1245
握	-10.1246
不欲	-10.1247
掖	-10.126
蔣	-10.1271
軫	-10.1273
雋	-10.1277
不合	-10.1279
其一	-10.1279
髯	-10.1283
級	-10.1283
嘉定	-10.1287
羸	-10.1291
魄	-10.1291
上帝	-10.1291
先後	-10.1294
濵	-10.1307
師友	-10.1307
詐	-10.1309
成都	-10.131
不失	-10.131
團	-10.1315
歲月	-10.1324
諾	-10.1327
其文	-10.1339
什	-10.1345
讀之	-10.1345
乃知	-10.1354
測	-10.1359
裴	-10.1361
治之	-10.1362
閤	-10.1369
弦	-10.137
模	-10.1371
傳曰	-10.1372
漢書	-10.1378
蔚	-10.1386
禾	-10.1391
將以	-10.1392
莽	-10.1393
書院	-10.1405
不覺	-10.1408
忠信	-10.141
挹	-10.141
寃	-10.1411
四首	-10.1413
自知	-10.1415
邂逅	-10.142
其先	-10.1429
海内	-10.1433
雉	-10.1437
蜂	-10.1445
痕	-10.1446
髙祖	-10.1447
鶯	-10.1452
算	-10.1462
不善	-10.1464
畆	-10.1466
從此	-10.147
想見	-10.1475
之家	-10.1475
朱子	-10.1475
言語	-10.1477
慷慨	-10.1478
戮	-10.1483
贍	-10.1488
武帝	-10.1492
羨	-10.1498
緫	-10.1501
我亦	-10.1502
構	-10.1508
巽	-10.1516
其親	-10.1518
一事	-10.152
北山	-10.1527
取其	-10.1533
可見	-10.1534
世事	-10.1541
不妨	-10.1554
筠	-10.1557
所作	-10.156
山下	-10.156
大父	-10.1564
於斯	-10.157
縷	-10.1571
無有	-10.1574
宇宙	-10.1577
瓜	-10.1582
箕	-10.1582
時有	-10.1583
酸	-10.159
橘	-10.1594
和氣	-10.1598
并序	-10.1602
於朝	-10.1609
瓶	-10.1612
祔	-10.1615
蔓	-10.1619
廵	-10.1625
䧟	-10.1625
之勤	-10.1625
陷	-10.1627
而成	-10.163
𤓰	-10.1634
茗	-10.1641
相對	-10.1653
此身	-10.1656
饗	-10.1664
系	-10.1666
刃	-10.1667
嘲	-10.1668
公事	-10.1672
演	-10.1672
臻	-10.1679
道也	-10.1686
所欲	-10.1686
孫男	-10.1689
粧	-10.1689
斯民	-10.1691
槎	-10.1693
椒	-10.1694
而未	-10.1698
罹	-10.1698
之始	-10.1701
終始	-10.1703
吾道	-10.1707
車馬	-10.1727
長沙	-10.1728
継	-10.1733
怕	-10.1736
自謂	-10.1737
安知	-10.1742
簪	-10.1742
衢	-10.175
州郡	-10.1754
而得	-10.1759
粲	-10.1763
聰	-10.1763
不求	-10.1773
攘	-10.1773
徼	-10.1774
百萬	-10.1779
諷	-10.1781
大小	-10.1782
貲	-10.1784
取之	-10.1788
之治	-10.179
懦	-10.1795
言也	-10.18
詔書	-10.1802
稼	-10.1809
芻	-10.1811
不死	-10.1812
其父	-10.1815
勃	-10.1823
二公	-10.1832
庶㡬	-10.1832
昔者	-10.1837
槖	-10.1842
虗	-10.185
而行	-10.1852
員外郎	-10.1854
縈	-10.1861
甄	-10.1862
参	-10.1867
盃	-10.1867
十九	-10.1867
霖	-10.1868
而復	-10.1874
組	-10.1877
纂	-10.1877
以成	-10.1884
天涯	-10.1886
大學	-10.1893
本無	-10.19
灌	-10.1901
咫尺	-10.1902
扣	-10.1904
道徳	-10.1908
若夫	-10.1912
芒	-10.1914
儼	-10.1916
造物	-10.192
柏	-10.192
何也	-10.1925
忤	-10.1925
児	-10.1927
潁	-10.1928
彛	-10.1939
一官	-10.1942
行人	-10.1945
談笑	-10.1947
胷中	-10.195
炊	-10.1951
天台	-10.1954
禮部	-10.1954
思之	-10.1962
捷	-10.1968
掲	-10.1968
湖南	-10.1971
儒者	-10.1973
埀	-10.1974
遏	-10.1975
有時	-10.1975
蘆	-10.1976
不到	-10.1979
為國	-10.1979
括	-10.1983
秪	-10.1984
大事	-10.1984
茫茫	-10.1986
或曰	-10.1987
綬	-10.1992
忩	-10.1993
人才	-10.1995
之謂	-10.1995
曰是	-10.2004
人言	-10.2009
之選	-10.2013
後漢	-10.2014
廊	-10.2016
或有	-10.202
論語	-10.202
年年	-10.2021
天命	-10.2023
成功	-10.2028
貯	-10.2028
九重	-10.2031
即位	-10.2032
而况	-10.2035
剡	-10.2039
遙	-10.204
其上	-10.204
繆	-10.2046
先帝	-10.205
覧	-10.2052
讎	-10.207
豫章	-10.2074
霸	-10.2086
聮	-10.2089
用兵	-10.2092
如今	-10.2092
生死	-10.2093
滌	-10.2106
樸	-10.2107
之徳	-10.2108
宛	-10.2109
法度	-10.2109
寮	-10.2115
筍	-10.2116
臧	-10.2117
之資	-10.2119
數百	-10.2133
趂	-10.2134
有言	-10.214
為善	-10.2145
瘴	-10.2149
諡	-10.215
國史	-10.2154
前人	-10.2155
一方	-10.216
後來	-10.2162
禆	-10.2168
張公	-10.2172
扁	-10.2173
已而	-10.2178
是為	-10.2189
太尉	-10.219
隕	-10.2194
廻	-10.2195
恊	-10.2198
髙明	-10.2201
家人	-10.2208
寒暑	-10.2214
㓂	-10.2216
丈夫	-10.222
壻	-10.2222
庠	-10.2223
丐	-10.2226
未聞	-10.2226
風雲	-10.2233
乎此	-10.2235
矣今	-10.2235
受命	-10.2236
契丹	-10.2237
之役	-10.2238
於今	-10.2244
祁	-10.2247
何妨	-10.2252
開元	-10.2255
幕府	-10.2256
繪	-10.2256
其徒	-10.2257
棟	-10.2263
皇后	-10.2264
何其	-10.2268
仙人	-10.2276
与	-10.2279
盛徳	-10.2279
非所	-10.2283
羣臣	-10.2287
一世	-10.2288
㦸	-10.2292
先王之	-10.2295
紳	-10.2298
劉氏	-10.2298
臣無任	-10.2301
公諱	-10.2305
謡	-10.2309
君家	-10.2309
薫	-10.2311
猶在	-10.2315
檜	-10.2316
晁	-10.2319
渙	-10.232
拊	-10.2326
稱其	-10.2326
峙	-10.2328
昬	-10.2329
甕	-10.2332
無心	-10.2336
龎	-10.234
臨川	-10.2341
七日	-10.2343
此時	-10.2345
洞庭	-10.2345
第三	-10.2351
抽	-10.2354
㤙	-10.2357
押	-10.2359
多少	-10.2359
些	-10.2368
布衣	-10.2371
近世	-10.2378
架	-10.2381
其地	-10.2383
聰明	-10.2386
册	-10.2387
塟	-10.2392
浄	-10.2393
之仁	-10.2397
童子	-10.2404
竇	-10.2405
海上	-10.2405
可乎	-10.2409
於天下	-10.2412
舍人	-10.2415
鑰	-10.2418
袂	-10.2426
黍	-10.2426
鈍	-10.2427
洒	-10.243
春色	-10.243
裝	-10.2433
閉門	-10.2435
渺	-10.2438
稔	-10.2444
以来	-10.2445
鯨	-10.2447
諸將	-10.2453
之節	-10.2454
胸中	-10.2455
鄉里	-10.2455
得人	-10.2458
典刑	-10.2462
夢中	-10.2466
所能	-10.2466
縱横	-10.2468
夸	-10.2469
筭	-10.2473
郡守	-10.2477
湧	-10.2479
絡	-10.2484
姜	-10.2485
丹青	-10.2486
欄	-10.2493
奄	-10.2493
他年	-10.2499
而已矣	-10.2499
鋤	-10.2499
不止	-10.2501
鈔	-10.2509
五行	-10.2509
逕	-10.2512
榦	-10.2513
秀才	-10.2516
書生	-10.2527
之原	-10.2527
其才	-10.2531
父兄	-10.2536
非有	-10.2538
蕭然	-10.254
追封	-10.2549
企	-10.255
埃	-10.2555
太常	-10.2555
生於	-10.2557
匹	-10.2562
而弗	-10.2562
巡	-10.2564
金華	-10.2568
遂以	-10.2581
終不	-10.2584
顔色	-10.2584
不惟	-10.2586
著書	-10.2586
蘿	-10.2589
餐	-10.259
勉之	-10.2597
奎	-10.26
不問	-10.26
薨	-10.2606
之内	-10.2607
緩急	-10.261
窗	-10.2615
所為	-10.2615
弭	-10.2617
三尺	-10.2633
下有	-10.2636
轉運使	-10.2644
東山	-10.2645
島	-10.2651
人人	-10.2664
矩	-10.2668
屯田	-10.2669
城中	-10.2672
逺近	-10.2674
駒	-10.2682
山之	-10.2696
而止	-10.2702
上書	-10.2704
月明	-10.2704
剥	-10.2711
次適	-10.2713
狹	-10.2713
批	-10.2714
消息	-10.2721
何有	-10.2722
題詩	-10.2726
武王	-10.2728
鳩	-10.2732
之本	-10.2738
阮	-10.2739
書曰	-10.274
佞	-10.2745
如此則	-10.275
不已	-10.2752
礙	-10.2755
物之	-10.2756
而卒	-10.2758
曽祖	-10.2764
公為	-10.2765
而上	-10.2773
侮	-10.2781
自此	-10.2781
鋪	-10.2786
安危	-10.2787
衆人	-10.279
其説	-10.2792
絮	-10.2793
靄	-10.2799
之句	-10.2804
周禮	-10.2808
城南	-10.2812
而言	-10.2812
現	-10.2814
氣象	-10.2815
䘏	-10.2831
江海	-10.2835
礼	-10.2841
歇	-10.2842
或者	-10.2843
妻子	-10.2844
二百	-10.2854
不明	-10.2858
訛	-10.2862
常平	-10.2871
迭	-10.2872
繄	-10.2873
陜	-10.2876
分明	-10.2881
蹙	-10.2883
者曰	-10.2885
之謀	-10.2888
杏	-10.2893
永嘉	-10.2894
纒	-10.2896
轡	-10.2897
未甞	-10.2898
透	-10.2902
堂堂	-10.2902
一篇	-10.2904
矣夫	-10.2906
宥	-10.2907
牲	-10.2912
爻	-10.292
幾何	-10.2921
長老	-10.2922
視之	-10.2922
虐	-10.2931
來者	-10.2932
寘	-10.2933
貟	-10.2935
孺	-10.2935
漿	-10.2938
撓	-10.294
既而	-10.2943
人者	-10.2944
行事	-10.2948
宗廟	-10.295
沿	-10.2958
憂患	-10.296
有二	-10.2964
不顧	-10.2967
事君	-10.2972
恠	-10.2976
人以	-10.2984
僣	-10.2986
禮義	-10.2987
之寄	-10.2988
尔	-10.2988
諸路	-10.2989
得一	-10.2995
牡丹	-10.2999
太白	-10.3
人有	-10.3002
芽	-10.3003
幽人	-10.3008
眩	-10.301
将軍	-10.3012
其能	-10.3018
然也	-10.3018
及此	-10.3021
本路	-10.3023
九州	-10.3028
琢	-10.3028
辜	-10.3033
人家	-10.3033
一一	-10.3035
梧	-10.3036
言其	-10.3042
譴	-10.3042
聞其	-10.3044
其下	-10.3046
庖	-10.3048
寒食	-10.3059
恭惟皇帝陛下	-10.3061
不負	-10.3065
茹	-10.3065
聿	-10.3066
多矣	-10.3067
雨露	-10.307
潦	-10.307
州刺史	-10.3077
苛	-10.3078
數月	-10.308
或以	-10.3089
確	-10.309
梯	-10.3091
竝	-10.3094
生日	-10.3098
不允	-10.3098
惟其	-10.3107
死者	-10.3107
義理	-10.3111
之未	-10.3111
抛	-10.312
窘	-10.3123
今朝	-10.3124
苐	-10.3137
廬山	-10.3139
粥	-10.3143
鳬	-10.3146
斤	-10.315
桞	-10.3153
鐡	-10.3153
瑟	-10.3154
矣故	-10.3161
珪	-10.3165
未敢	-10.3168
書之	-10.3168
欣然	-10.3175
其有	-10.3176
巫	-10.3184
五色	-10.3186
金人	-10.319
閎	-10.32
為政	-10.3201
陜西	-10.3203
厄	-10.3212
啇	-10.3213
忱	-10.3223
㕔	-10.3224
老去	-10.3226
中間	-10.3229
渴	-10.3232
嵐	-10.3232
莫如	-10.3235
橫	-10.3237
輦	-10.3243
鬻	-10.3248
得此	-10.3251
孝友	-10.3258
二者	-10.3258
之妙	-10.3265
而非	-10.3275
少卿	-10.3276
國朝	-10.3279
棺	-10.328
悵	-10.328
無益	-10.3286
干戈	-10.3287
三司	-10.3293
簿書	-10.3294
所知	-10.3294
也某	-10.3303
顔子	-10.3306
太祖	-10.3307
也此	-10.3322
聞道	-10.3327
號令	-10.3329
即事	-10.3334
對曰	-10.3334
未足	-10.3336
徳之	-10.3341
翹	-10.3344
街	-10.3346
豈能	-10.3346
豁	-10.3349
㓕	-10.3351
同知	-10.3355
鄕	-10.3361
勾	-10.3361
之辭	-10.3361
羲	-10.3365
超然	-10.3366
世俗	-10.3378
汎	-10.3388
迪	-10.3396
先人	-10.3398
昜	-10.3399
之教	-10.34
即日	-10.3404
推官	-10.3405
狗	-10.3407
羌	-10.3407
崩	-10.3407
本州	-10.3408
腴	-10.341
從來	-10.341
此其	-10.3412
葵	-10.3413
時時	-10.3417
肝	-10.3421
圎	-10.3425
平時	-10.3428
之禍	-10.344
薰	-10.3441
職事	-10.3441
浹	-10.345
其行	-10.3455
婉	-10.3464
逺矣	-10.3465
瑩	-10.347
而求	-10.3471
名曰	-10.3475
可知	-10.3477
則為	-10.3478
春日	-10.3486
眇	-10.349
其勢	-10.3505
鞏	-10.3508
然其	-10.3512
段	-10.3513
酷	-10.3513
甥	-10.3514
亦以	-10.3516
諸儒	-10.3517
二三	-10.352
藍	-10.3521
相繼	-10.3525
詩序	-10.3529
祝文	-10.3529
無異	-10.3532
之師	-10.3533
不疑	-10.3541
蛟	-10.3544
民力	-10.3546
胡為	-10.355
匿	-10.3551
楽	-10.3556
注云	-10.356
咏	-10.3565
察其	-10.3568
揭	-10.357
娛	-10.357
閟	-10.3571
之權	-10.3575
楮	-10.3576
者或	-10.3579
耄	-10.3583
抄	-10.3583
又何	-10.3585
一百	-10.359
五百	-10.359
軟	-10.3591
儒學	-10.3594
耿	-10.3595
一本	-10.3597
郡夫人	-10.3599
太原	-10.3602
欲乞	-10.3603
有志	-10.3605
固已	-10.361
斑	-10.3611
淳熈	-10.3612
搖	-10.3617
扵是	-10.362
寇	-10.3623
李公	-10.3628
梵	-10.3628
紆	-10.3629
亦非	-10.363
故也	-10.3632
具官	-10.3632
若有	-10.3639
其本	-10.364
平章	-10.3641
規模	-10.3645
脂	-10.3656
篋	-10.3662
經綸	-10.3669
戢	-10.3669
日日	-10.367
何由	-10.3672
億	-10.3673
笏	-10.3673
為君	-10.3674
在此	-10.3678
中謝	-10.3678
幸甚	-10.3683
於外	-10.3685
年來	-10.3688
不通	-10.3693
不逮	-10.3695
吾子	-10.37
江水	-10.3706
堦	-10.3712
於天	-10.3721
柴	-10.3723
今古	-10.3727
黑	-10.3728
庚	-10.3733
鎭	-10.3735
人之所	-10.3735
稟	-10.374
閏	-10.3743
昆	-10.3744
兒童	-10.3745
嶠	-10.3747
葦	-10.3748
欹	-10.3751
黯	-10.3759
之請	-10.3765
滕	-10.3765
人材	-10.3771
盜賊	-10.3775
準	-10.3781
雛	-10.3785
堂記	-10.3786
亢	-10.3787
老夫	-10.3787
㤗	-10.3788
鬬	-10.379
鞍	-10.3794
狄	-10.3797
翰林學士	-10.3798
萬人	-10.3803
舅	-10.3804
以文	-10.3807
之要	-10.3808
赫	-10.381
甌	-10.3813
襄陽	-10.3818
所宜	-10.3821
其二	-10.3823
因以	-10.3823
者乃	-10.3825
也自	-10.3828
之業	-10.3835
之賜	-10.3843
一路	-10.3843
城郭	-10.3848
緯	-10.3855
售	-10.3855
疇昔	-10.3856
挿	-10.3863
孝子	-10.3864
忠孝	-10.3867
有詩	-10.3869
捲	-10.3869
陳氏	-10.3869
之深	-10.3871
豈知	-10.3874
不能自	-10.3875
兒女	-10.3876
憎	-10.3879
則必	-10.388
昇	-10.3882
白髮	-10.3883
陌	-10.3889
襃	-10.3891
渇	-10.3892
明朝	-10.3894
失之	-10.3896
乃以	-10.3898
翟	-10.3901
勘	-10.3902
可為	-10.3912
萍	-10.3913
擒	-10.3915
兎	-10.3918
天道	-10.3926
於民	-10.3931
鷺	-10.3932
山東	-10.3932
厨	-10.3933
盗賊	-10.3936
再三	-10.3938
檀	-10.3944
湖山	-10.3946
如故	-10.3948
南陽	-10.3948
蘂	-10.3949
文選	-10.3951
奕	-10.3963
有常	-10.3972
二日	-10.3973
者多	-10.3973
至矣	-10.3974
先儒	-10.3976
囂	-10.3977
帽	-10.3982
淵源	-10.3989
以俟	-10.3992
鄉人	-10.3997
草堂	-10.4009
擲	-10.4011
一生	-10.4016
聲名	-10.4017
培	-10.4022
臣愚	-10.4028
汲汲	-10.403
以禮	-10.4031
中秋	-10.4033
啄	-10.4034
鷹	-10.4039
畵	-10.4044
乙	-10.4046
昨日	-10.4048
科舉	-10.4049
煖	-10.405
釀	-10.4051
韓文	-10.4058
流落	-10.4066
文帝	-10.4066
■	-10.4071
言而	-10.4073
之典	-10.4074
曰我	-10.4077
肖	-10.4078
逍遥	-10.4078
不厭	-10.4081
塵土	-10.4095
至扵	-10.4097
悍	-10.4097
光明	-10.4098
太息	-10.4101
三公	-10.4111
不信	-10.4115
經術	-10.4116
净	-10.4119
學之	-10.4121
之使	-10.4122
是則	-10.4123
以備	-10.4128
闔	-10.4128
甚矣	-10.4129
建康	-10.413
衣食	-10.4131
詆	-10.4132
沂	-10.4137
耐	-10.4137
之失	-10.4137
行省	-10.4138
一念	-10.4139
十萬	-10.4145
韜	-10.4147
不絶	-10.4152
抃	-10.4153
蘄	-10.4153
上有	-10.4154
差遣	-10.4158
皇帝陛下	-10.4158
鮑	-10.416
英雄	-10.4167
膝	-10.4178
而民	-10.4178
銳	-10.418
花開	-10.4187
郵	-10.4199
塢	-10.4202
寐	-10.4205
煮	-10.4212
杳	-10.4213
東海	-10.4214
四人	-10.4221
君不見	-10.4221
詹	-10.4222
鋭	-10.4227
垢	-10.4229
怡	-10.4234
仁者	-10.4235
廡	-10.424
航	-10.4243
沛	-10.4245
牖	-10.4246
道者	-10.4259
以道	-10.4263
闌	-10.4265
豊	-10.4265
乾道	-10.4268
青天	-10.4269
以致	-10.427
鄊	-10.4271
油	-10.4271
之方	-10.4283
于今	-10.4289
躡	-10.429
禍福	-10.4295
豪傑	-10.4299
也吾	-10.4301
荀	-10.4302
餓	-10.4302
龔	-10.4304
不廢	-10.4309
平居	-10.4313
堂上	-10.432
梗	-10.4322
豹	-10.4328
歐	-10.4329
剖	-10.4335
之列	-10.4338
衙	-10.4339
求其	-10.4342
國夫人	-10.4343
屐	-10.4345
五代	-10.4345
經營	-10.435
之衆	-10.435
擕	-10.4351
可用	-10.4351
衾	-10.4352
慶元	-10.4352
望之	-10.4361
有人	-10.4365
自昔	-10.4375
嬌	-10.4379
之寵	-10.4379
諸人	-10.438
何當	-10.4381
敘	-10.4383
真人	-10.4384
建炎	-10.4392
侔	-10.4395
賑	-10.4405
之效	-10.4405
治平	-10.4406
之訓	-10.4408
集賢	-10.4413
有聲	-10.4414
諸君	-10.4414
澆	-10.4415
五首	-10.4417
好學	-10.442
識者	-10.4421
愛之	-10.4421
子男	-10.4422
𥿄	-10.4424
之責	-10.4426
儘	-10.4429
譬	-10.4431
天意	-10.4432
馴	-10.4433
不起	-10.4439
吝	-10.444
以爾	-10.4441
之期	-10.4442
殺人	-10.4443
膳	-10.4443
宣和	-10.4445
之善	-10.4457
知有	-10.4457
棗	-10.4458
日以	-10.4459
悖	-10.4459
何用	-10.446
瘠	-10.4462
其義	-10.4469
謂其	-10.4472
尼	-10.4473
相傳	-10.4475
則不	-10.4484
集巻十	-10.45
以慰	-10.4502
矣其	-10.4505
憾	-10.4506
拍	-10.4506
上曰	-10.4509
也哉	-10.4515
與世	-10.4515
槁	-10.4515
忿	-10.452
使其	-10.4523
灼	-10.4527
去國	-10.4528
郢	-10.4529
蹟	-10.4538
人君	-10.4539
熾	-10.454
冕	-10.454
一道	-10.4546
于朝	-10.4551
退而	-10.4554
䦨	-10.4561
三世	-10.4563
百餘	-10.4565
蜜	-10.4566
沸	-10.457
焉而	-10.4571
淂	-10.4571
轅	-10.4572
聖賢之	-10.4573
之㑹	-10.4575
林下	-10.4577
滄海	-10.4577
也予	-10.4578
無由	-10.4595
芳草	-10.4597
考之	-10.4599
以歸	-10.4604
至誠	-10.461
可與	-10.4614
皇太后	-10.4618
氛	-10.462
黔	-10.4627
遯	-10.4628
大江	-10.4633
貧賤	-10.4638
中和	-10.4644
福建	-10.4645
在上	-10.4646
覲	-10.4651
做	-10.4655
於時	-10.4657
絹	-10.4659
復何	-10.4665
𣣔	-10.4665
女子	-10.4668
反覆	-10.4668
叚	-10.4668
糾	-10.4671
工夫	-10.4673
凄	-10.4673
公論	-10.4674
寝	-10.4677
熏	-10.4677
孔子曰	-10.4688
公議	-10.4689
塊	-10.4692
聖主	-10.4693
方今	-10.4695
殖	-10.4697
必以	-10.4697
儔	-10.4699
縛	-10.4699
瀾	-10.4707
夜半	-10.4716
賞罰	-10.4718
或謂	-10.4719
徂	-10.4722
獨立	-10.4731
無所不	-10.4731
歎息	-10.4732
屨	-10.4732
力行	-10.4733
廹	-10.4733
竈	-10.4733
洎	-10.4735
不逺	-10.4743
楼	-10.4749
皆可	-10.4755
所藏	-10.4755
門前	-10.4756
相如	-10.4756
於上	-10.4757
湖上	-10.4757
氊	-10.4758
斛	-10.4762
繕	-10.4763
萬年	-10.4764
畿	-10.4766
禮記	-10.4767
汀	-10.4767
與子	-10.4773
公私	-10.4777
婺	-10.4778
臣之	-10.478
亦自	-10.4781
聯	-10.4781
晝夜	-10.4782
之儀	-10.4782
無遺	-10.4786
荆州	-10.479
渡江	-10.4794
何須	-10.4796
其力	-10.4798
帙	-10.4808
在天	-10.4811
囯	-10.4812
翩翩	-10.4812
漆	-10.4819
般	-10.4821
取進止	-10.4828
治亂	-10.4835
海棠	-10.4838
有意	-10.4841
綽	-10.4842
野人	-10.4843
沖	-10.4851
不改	-10.4854
先是	-10.4859
我欲	-10.4859
也非	-10.486
武昌	-10.4871
粒	-10.4872
㨗	-10.4872
便是	-10.4876
侣	-10.4878
多病	-10.4879
隷	-10.4881
伊尹	-10.4881
吏民	-10.4884
也然則	-10.4885
縣尉	-10.4893
瑣	-10.49
者何	-10.4901
民間	-10.4901
逄	-10.4902
世祖	-10.4904
夫婦	-10.4906
徃來	-10.4907
其民	-10.4911
知所	-10.4911
之女	-10.4912
小兒	-10.4917
竦	-10.4917
還家	-10.4919
相思	-10.4921
棊	-10.4922
只有	-10.4923
止於	-10.4929
鵝	-10.493
生民	-10.4933
宗社	-10.4937
卻	-10.4937
不仕	-10.4939
漂	-10.4945
世家	-10.4946
之費	-10.4947
鞠	-10.4949
萊	-10.4951
様	-10.4953
復有	-10.4958
者豈	-10.4958
稚	-10.496
流俗	-10.4962
壅	-10.4962
敞	-10.4968
贏	-10.497
莫若	-10.4973
事親	-10.4974
濱	-10.4975
驩	-10.4977
公言	-10.4986
枚	-10.4992
樞宻	-10.4993
帝王	-10.4993
倪	-10.4995
鐫	-10.4997
喬木	-10.5003
偈	-10.5003
其功	-10.5003
軍節度使	-10.5016
刹	-10.5016
於前	-10.5016
歎曰	-10.5017
岫	-10.5017
咽	-10.5018
趍	-10.5019
笙	-10.5021
溪山	-10.5025
盎	-10.5027
先朝	-10.5029
有三	-10.5029
天子之	-10.5032
而天下	-10.5033
寺丞	-10.5036
刪	-10.5037
男子	-10.504
古詩	-10.5042
伏望	-10.5043
在於	-10.5043
翦	-10.505
參政	-10.505
此生	-10.5051
起家	-10.5055
一片	-10.5057
而不敢	-10.5067
眺	-10.5071
柩	-10.5072
繹	-10.5072
一夕	-10.5075
悪	-10.5076
嗇	-10.508
洊	-10.508
有如	-10.5081
日用	-10.5082
裾	-10.5085
則亦	-10.5092
辤	-10.5098
焉則	-10.5101
以事	-10.5113
是謂	-10.5117
其職	-10.5117
是用	-10.5119
糶	-10.5124
僥倖	-10.513
之孫	-10.5131
不可得	-10.5131
子思	-10.5135
裹	-10.5138
易之	-10.5139
轄	-10.5139
詩文	-10.514
惱	-10.5144
也臣	-10.5146
至公	-10.5146
明道	-10.5148
鵠	-10.5155
名臣	-10.5155
而知	-10.5156
承平	-10.5161
同時	-10.5162
鼇	-10.5168
之流	-10.517
之勝	-10.5173
知君	-10.5174
所言	-10.5177
安撫	-10.5181
悚	-10.5183
不獨	-10.5183
也且	-10.519
水旱	-10.5195
三代之	-10.5197
大義	-10.52
椽	-10.5201
惟是	-10.5203
隻	-10.5207
其他	-10.5208
兔	-10.5209
沼	-10.5213
惻	-10.5215
無功	-10.5216
天人	-10.522
忻	-10.5221
蒼蒼	-10.5224
丙	-10.5224
所以為	-10.5229
長江	-10.523
縣君	-10.5233
之先	-10.5233
艮	-10.5235
慵	-10.5238
貴賤	-10.5239
日新	-10.524
裒	-10.5242
狎	-10.5243
縻	-10.5244
冡	-10.5246
惟恐	-10.5248
青青	-10.5251
荐	-10.5254
得罪	-10.5259
以聞	-10.5261
紀綱	-10.5263
因其	-10.5265
今來	-10.5267
萬户	-10.5267
也嗚呼	-10.5275
蘓	-10.529
為文	-10.5291
四十年	-10.5291
不遺	-10.5296
箋	-10.5298
而爲	-10.5299
丸	-10.5299
夷狄	-10.53
日暮	-10.5302
呂	-10.5303
將帥	-10.5305
閨	-10.5306
前輩	-10.5314
悠然	-10.5314
餽	-10.5321
諸孫	-10.5321
至大	-10.5321
笋	-10.5327
西京	-10.5327
聞者	-10.5329
爱	-10.5331
此言	-10.5332
醪	-10.5334
無用	-10.534
覬	-10.535
一也	-10.5354
也則	-10.5355
慣	-10.5357
以言	-10.536
稽古	-10.5364
置之	-10.5365
煎	-10.5366
蹄	-10.5368
椿	-10.5372
泰山	-10.5375
賡	-10.5375
不亦	-10.5376
宗室	-10.5377
君王	-10.5382
參差	-10.5384
五人	-10.5395
凛	-10.5396
人知	-10.5396
意氣	-10.5397
溥	-10.5398
初無	-10.5399
伏念某	-10.5403
文書	-10.5415
未暇	-10.5419
扈	-10.5421
疾病	-10.5421
大徳	-10.5423
褐	-10.5426
讒	-10.5429
唐虞	-10.5434
繳	-10.5437
猶可	-10.5438
靖康	-10.5442
自號	-10.5443
二千石	-10.5451
斵	-10.5451
先公	-10.5451
霍	-10.5453
湖州	-10.5457
因循	-10.5458
僭	-10.5461
行下	-10.5463
不遇	-10.5465
番	-10.5466
翊	-10.5466
言曰	-10.5472
穢	-10.5476
卓然	-10.5476
於其	-10.5479
自笑	-10.5479
黄花	-10.5481
鉞	-10.5483
家有	-10.5488
覿	-10.5488
憔悴	-10.5491
辞	-10.5493
燈火	-10.5496
江左	-10.5498
盡其	-10.5503
特賜	-10.5504
伺	-10.5504
昌黎	-10.5505
夜雨	-10.5511
之良	-10.5514
舟中	-10.5515
蛙	-10.5515
雖無	-10.5516
此理	-10.5517
老病	-10.5519
釁	-10.552
處處	-10.5525
揚雄	-10.5536
故鄉	-10.5538
峭	-10.5543
命之	-10.5546
無非	-10.5551
孟子曰	-10.5555
妹	-10.5567
士卒	-10.557
依然	-10.557
四明	-10.5573
紓	-10.5575
官府	-10.5577
近臣	-10.5578
第四	-10.558
莖	-10.5582
用其	-10.5583
之體	-10.5588
雖欲	-10.5589
近日	-10.559
三朝	-10.5592
宋史	-10.5597
三子	-10.5599
舉進士	-10.56
出于	-10.5601
穎	-10.5606
廓	-10.5607
侯之	-10.5608
䄂	-10.5608
覃	-10.561
太傅	-10.561
笻	-10.5613
知我	-10.5614
十載	-10.5615
之靈	-10.5616
弘	-10.5617
則無	-10.5619
派	-10.562
根本	-10.5623
悃	-10.5624
不入	-10.5637
一杯	-10.5639
此日	-10.5642
五言	-10.5642
零落	-10.5644
自憐	-10.5646
尚可	-10.5647
為一	-10.5656
友人	-10.5658
秋水	-10.5659
頰	-10.5668
無情	-10.567
江浙	-10.5673
之福	-10.5674
世人	-10.5675
醴	-10.5675
琳	-10.5676
拳	-10.5679
後生	-10.5684
之作	-10.5685
十餘	-10.569
山色	-10.569
者盖	-10.5691
善惡	-10.5692
目前	-10.5694
而不得	-10.5697
先世	-10.5698
之屬	-10.5698
程子	-10.5698
翅	-10.57
惟公	-10.5708
訂	-10.5709
落花	-10.5711
左氏	-10.5715
帑	-10.5716
劔	-10.5717
跳	-10.5717
必欲	-10.572
無疑	-10.5721
媒	-10.5724
如許	-10.5727
贖	-10.5727
劄子臣	-10.5728
稷	-10.573
此則	-10.5731
旄	-10.5736
余曰	-10.5736
皓	-10.5743
發明	-10.5745
也余	-10.5747
生意	-10.5749
空山	-10.5749
間有	-10.575
者固	-10.5753
歉	-10.5755
之性	-10.5755
今為	-10.5761
拳拳	-10.5765
無餘	-10.577
諸老	-10.577
趙公	-10.5772
存者	-10.5773
𥙿	-10.5779
曾祖	-10.578
隄	-10.578
販	-10.5781
斈	-10.5786
之交	-10.5786
有成	-10.5787
灾	-10.5788
髦	-10.5791
乂	-10.5791
溫	-10.5796
魏公	-10.58
元氣	-10.5801
譬如	-10.5809
伏乞	-10.5814
嗔	-10.5814
二十四	-10.5825
無恙	-10.5826
耒	-10.583
彫	-10.583
娥	-10.5831
偶然	-10.5834
朝奉郎	-10.5835
榆	-10.5836
之傳	-10.5837
犢	-10.5839
者謂	-10.5845
君諱	-10.5848
所學	-10.5851
芬	-10.5855
戦	-10.5856
有能	-10.5866
為大	-10.5869
風塵	-10.5872
肌	-10.5884
敢忘	-10.5884
在我	-10.589
㕘	-10.5891
蟄	-10.5901
婦人	-10.5904
髙下	-10.5904
淮西	-10.5904
是日	-10.5904
故能	-10.5907
所載	-10.5907
瀛	-10.591
田里	-10.5919
拯	-10.5919
八日	-10.592
大節	-10.5921
嗟乎	-10.5922
緇	-10.5923
紗	-10.5932
蟾	-10.5934
茅屋	-10.5935
可畏	-10.5938
在外	-10.5938
菲	-10.594
愽	-10.5941
顓	-10.5943
雲山	-10.5944
腥	-10.5944
光武	-10.5954
衰病	-10.5962
有客	-10.5966
六日	-10.5969
弃	-10.5969
忠厚	-10.5973
後學	-10.5974
者哉	-10.5979
天資	-10.5985
降指揮	-10.5985
可不	-10.5988
屑	-10.5992
軍馬	-10.5995
㝎	-10.5999
使臣	-10.6002
年少	-10.6004
紅塵	-10.6005
不宣	-10.6008
鬭	-10.6009
匱	-10.6009
覈	-10.601
以濟	-10.6012
帯	-10.6016
蕭條	-10.6017
漳	-10.6021
其學	-10.6021
堵	-10.6024
儂	-10.6024
篁	-10.6024
詩成	-10.6026
三山	-10.6028
之華	-10.603
知制誥	-10.6034
功臣	-10.6034
鄂	-10.6035
亊	-10.6035
翕	-10.6037
餌	-10.6038
㳂	-10.604
邃	-10.6041
始知	-10.6042
不克	-10.6044
蔑	-10.6047
磬	-10.6049
貴人	-10.6052
孰不	-10.6053
一介	-10.6053
藹	-10.6054
曽子	-10.6054
斾	-10.6055
知人	-10.6056
塩	-10.6058
彭城	-10.6058
中大夫	-10.606
之報	-10.6062
在人	-10.6062
本司	-10.6064
芹	-10.6066
有不	-10.6071
徤	-10.6076
此地	-10.608
人亦	-10.6084
豐年	-10.6089
簫	-10.6092
也昔	-10.6095
千人	-10.6095
之澤	-10.61
隊	-10.6101
千秋	-10.6103
亦未	-10.6114
固不	-10.6121
雍容	-10.6128
朗	-10.6132
未始	-10.6137
湍	-10.614
罵	-10.614
忠臣	-10.614
濬	-10.6141
付之	-10.6144
惕	-10.6145
摹	-10.6147
其書	-10.6148
衫	-10.6151
豈獨	-10.6151
少陵	-10.6153
自言	-10.6155
倐	-10.6156
驂	-10.6157
睠	-10.6158
必先	-10.616
嗚呼哀哉	-10.6164
盛時	-10.6166
泄	-10.6166
學道	-10.6171
愴	-10.6172
邢	-10.6173
恰	-10.6173
然亦	-10.6174
用力	-10.6174
不加	-10.6175
之助	-10.6176
此書	-10.6177
洋	-10.6179
蒼生	-10.618
唾	-10.6182
視其	-10.6184
蠅	-10.6191
馬上	-10.6193
殷勤	-10.6197
之材	-10.6198
曰子	-10.6198
問之	-10.62
十五年	-10.6203
艶	-10.6207
覊	-10.6207
搢紳	-10.6208
也是	-10.6208
一時之	-10.6209
歌舞	-10.6212
者蓋	-10.6215
惟陛下	-10.6216
呵	-10.6216
畨	-10.6216
司農	-10.6219
數千	-10.6221
楷	-10.6224
弩	-10.6224
朝廷之	-10.6224
拈	-10.6231
兾	-10.6232
處之	-10.6233
自今	-10.6234
無言	-10.6237
曳	-10.624
山河	-10.6243
榛	-10.6246
天性	-10.6247
寂寥	-10.625
乎哉	-10.625
以後	-10.6251
愼	-10.6253
不樂	-10.6255
宗皇帝	-10.6256
之世	-10.6258
賚	-10.6262
㠶	-10.6264
暝	-10.6264
離騷	-10.6265
無間	-10.6265
何哉	-10.6266
成就	-10.6269
縣主簿	-10.6271
知縣	-10.6273
斯言	-10.6274
矣此	-10.6274
稿	-10.6275
福州	-10.6276
三十六	-10.6279
從今	-10.6283
之異	-10.6283
伏望聖慈	-10.6287
餘生	-10.6291
訣	-10.6295
擔	-10.6299
鈴	-10.6306
駢	-10.6307
今日之	-10.6312
之前	-10.6312
惇	-10.6316
部使者	-10.6316
訊	-10.6317
䆫	-10.6333
延祐	-10.6335
楓	-10.6336
暇日	-10.6337
不下	-10.6338
譁	-10.6339
灣	-10.6341
賈誼	-10.6346
芸	-10.635
臣某	-10.6354
運使	-10.6357
而行之	-10.6358
某人	-10.6359
好事	-10.636
侑	-10.6368
幸而	-10.637
埸	-10.6375
螢	-10.6375
卉	-10.6376
韓子	-10.6382
闇	-10.6383
總管	-10.6384
不得不	-10.6386
報國	-10.6387
亦曰	-10.6397
之思	-10.6397
蠟	-10.6398
娯	-10.6398
奏乞	-10.6399
漠	-10.64
自信	-10.6401
依前	-10.6403
一語	-10.6405
葬于	-10.6406
之能	-10.6417
有是	-10.6421
其爲	-10.6423
玊	-10.6434
猶能	-10.6437
歸来	-10.644
古之人	-10.6442
但見	-10.6447
靳	-10.6451
須臾	-10.6452
蝗	-10.6453
不去	-10.6454
太夫人	-10.6456
浩然	-10.6456
公孫	-10.6459
逈	-10.646
以明	-10.646
唐人	-10.6464
阡	-10.6467
以身	-10.6467
豈敢	-10.6468
爲人	-10.6468
粮	-10.6469
暄	-10.647
改元	-10.6471
元帥	-10.6472
年六十	-10.6477
記之	-10.6479
杜門	-10.6483
吾家	-10.6485
燎	-10.6488
坑	-10.6488
清光	-10.6489
遞	-10.6493
由此	-10.6493
百家	-10.6494
一月	-10.6499
樞宻院	-10.6499
之聲	-10.6502
不多	-10.6503
以相	-10.6509
以養	-10.651
非其	-10.6511
蹊	-10.6512
禧	-10.6513
泗	-10.6515
捍	-10.6519
表裏	-10.6529
譚	-10.6529
載酒	-10.6532
白玉	-10.6532
聖明	-10.6535
涇	-10.6536
之長	-10.6536
一心	-10.6537
狼	-10.6538
一夜	-10.654
章句	-10.6543
也雖然	-10.6543
此語	-10.6544
皆是	-10.6553
鼠	-10.6554
奢	-10.6555
者衆	-10.6558
慟	-10.6559
以公	-10.656
也公	-10.6565
訃	-10.6566
歳月	-10.6568
江漢	-10.6568
曵	-10.6571
馨	-10.6572
尋常	-10.6577
閭里	-10.6581
者雖	-10.6583
致其	-10.6587
臭	-10.6589
竊惟	-10.6589
生涯	-10.6592
至其	-10.6594
而為之	-10.6597
人意	-10.66
沽	-10.66
不食	-10.6601
郤	-10.6601
故園	-10.6603
京兆	-10.6606
不願	-10.6607
躔	-10.6607
檢校	-10.6607
雖未	-10.661
霈	-10.6615
明公	-10.6621
殺之	-10.6624
葩	-10.6624
駑	-10.6625
小大	-10.6627
奉使	-10.6629
其門	-10.663
伊川	-10.6631
若不	-10.6635
豈其	-10.6637
不一	-10.6642
其弊	-10.6644
形容	-10.6647
嘗謂	-10.6647
不辭	-10.665
諸賢	-10.6652
百尺	-10.6655
伏願	-10.6657
不解	-10.6659
孰能	-10.6659
溪上	-10.6667
詩句	-10.6669
守臣	-10.6679
祖母	-10.6685
風采	-10.6685
塋	-10.6686
麓	-10.6688
年七十	-10.6689
於心	-10.6693
萬國	-10.6695
鎖	-10.6709
劑	-10.6713
可惜	-10.6718
贄	-10.6719
滄浪	-10.672
藜	-10.6726
涸	-10.6728
知者	-10.673
一聲	-10.673
司徒	-10.6733
稠	-10.6738
脅	-10.6738
之東	-10.6739
九十	-10.6739
其罪	-10.6741
梨	-10.6742
龍門	-10.6744
氓	-10.6745
門户	-10.6746
店	-10.6746
笑語	-10.6746
霏	-10.6754
則知	-10.6754
贅	-10.6755
声	-10.6759
漢唐	-10.6765
無私	-10.6765
而出	-10.677
十分	-10.6775
之道也	-10.6781
諸軍	-10.6785
掇	-10.6787
骸	-10.6788
用人	-10.6789
㳟	-10.6789
立朝	-10.6794
璞	-10.6797
不倦	-10.6803
陳公	-10.6806
兢	-10.6807
閻	-10.6807
無聲	-10.6807
死而	-10.6809
公自注	-10.681
棠	-10.6819
廊廟	-10.6825
于時	-10.6829
卽	-10.683
献	-10.6831
剰	-10.6833
故國	-10.6836
可使	-10.6838
美人	-10.6839
光華	-10.684
南渡	-10.6845
礪	-10.6845
竊謂	-10.6846
之議	-10.6848
相去	-10.685
烝	-10.6851
万	-10.6854
之遺	-10.6854
而終	-10.6855
鉢	-10.6855
時事	-10.6856
草草	-10.6858
今乃	-10.686
重陽	-10.6866
子仁	-10.6868
熈寧	-10.687
我心	-10.6871
炙	-10.6872
鴨	-10.6872
聖恩	-10.6873
孔孟	-10.6876
而致	-10.6877
胡不	-10.6882
杞	-10.6886
樂天	-10.689
樂府	-10.689
覇	-10.6891
風霜	-10.6893
山隂	-10.6896
事也	-10.6899
嵗時	-10.6899
人不	-10.69
紱	-10.6901
劉公	-10.6902
陀	-10.6905
耘	-10.6908
舂	-10.6909
飜	-10.6909
劵	-10.6914
為天下	-10.6914
無限	-10.6915
用心	-10.6917
寄題	-10.6917
愍	-10.6917
山人	-10.6917
勸農	-10.6922
手足	-10.6922
閤下	-10.6925
莫敢	-10.6925
鎻	-10.6926
風露	-10.6927
可喜	-10.6927
成王	-10.6931
予曰	-10.6933
十餘年	-10.6935
三徑	-10.6939
遂為	-10.694
落落	-10.694
而進	-10.695
昻	-10.6956
時節	-10.6958
號為	-10.6959
溟	-10.6961
撲	-10.6961
十二年	-10.6964
戰國	-10.6967
以報	-10.6971
禋	-10.6972
千百	-10.6973
多事	-10.6975
我來	-10.6977
明白	-10.6983
貟外郎	-10.6985
形勢	-10.6987
轉運司	-10.6991
所論	-10.6993
骨肉	-10.6994
與我	-10.6995
三省	-10.6995
穏	-10.6995
可否	-10.7004
以前	-10.7005
奨	-10.701
以正	-10.7013
雨中	-10.7018
黄州	-10.7019
奏事	-10.7021
蒿	-10.7023
耿耿	-10.7024
之兵	-10.7026
奏議	-10.7029
黄帝	-10.7029
不知所	-10.7029
浙東	-10.703
此亦	-10.7032
憂國	-10.7035
無為	-10.7038
之常	-10.7039
年正月	-10.704
幾時	-10.7042
誚	-10.7043
訝	-10.7043
饌	-10.7044
臣敢不	-10.7045
愛其	-10.7049
毀	-10.7054
香火	-10.7054
一節	-10.7061
隳	-10.7062
七言	-10.7068
何謂	-10.7077
之年	-10.7079
事有	-10.708
别有	-10.7085
頤	-10.7086
九原	-10.7091
蛟龍	-10.7092
有竒	-10.7093
監察御史	-10.7096
不謂	-10.7097
教化	-10.7097
殞	-10.7098
廿	-10.7105
那知	-10.7109
餅	-10.7113
璋	-10.7114
識其	-10.7115
㓗	-10.7118
睹	-10.7123
施於	-10.7127
守之	-10.713
十數	-10.7131
者歟	-10.7131
拓	-10.7132
哺	-10.7133
溜	-10.7133
諸郡	-10.7134
不妄	-10.7137
在位	-10.7138
泉石	-10.7139
誰復	-10.7139
非不	-10.7139
婚	-10.7141
汨	-10.7141
無足	-10.715
亦復	-10.715
所願	-10.7151
冢	-10.7152
紋	-10.7152
煑	-10.7155
幾人	-10.716
亘	-10.7167
菩薩	-10.7168
叶	-10.717
珮	-10.7173
行狀	-10.7173
僞	-10.7174
王子	-10.7174
豈復	-10.7177
揣	-10.7178
恍	-10.7179
有五	-10.718
人謂	-10.7181
祖宗之	-10.7181
斜陽	-10.7186
安國	-10.7187
不從	-10.7187
㡌	-10.7187
論事	-10.7188
四日	-10.7189
郡國	-10.7192
浩蕩	-10.7192
而來	-10.7194
液	-10.7196
與公	-10.7197
齎	-10.7197
狥	-10.7198
性命	-10.7203
在焉	-10.7204
呌	-10.7208
樞密	-10.721
一室	-10.7212
其母	-10.7214
倖	-10.7215
相期	-10.7216
以安	-10.7217
文辭	-10.7218
臨江	-10.7219
論思	-10.722
古來	-10.7222
原注	-10.7227
可觀	-10.7232
軼	-10.7234
萬象	-10.7237
者惟	-10.7237
之德	-10.7238
守令	-10.7238
曺	-10.7243
書云	-10.7246
雲氣	-10.7247
論議	-10.7251
宗族	-10.7252
之迹	-10.7253
東平	-10.7254
春雨	-10.7256
冬至	-10.7261
當是時	-10.7262
瀝	-10.7262
户部	-10.7263
捉	-10.7263
建安	-10.7269
勤勞	-10.7284
常州	-10.7284
萬頃	-10.7284
今人	-10.7285
善人	-10.7286
曽孫	-10.7289
吾聞	-10.729
豕	-10.7292
艇	-10.7296
流涕	-10.7303
官司	-10.7309
婁	-10.731
者是	-10.731
王師	-10.7311
郎官	-10.7311
優游	-10.7312
嵗寒	-10.7312
講學	-10.7324
異日	-10.7325
迅	-10.7327
堕	-10.7329
為誰	-10.733
把酒	-10.7335
其在	-10.7337
問學	-10.7339
轂	-10.7343
緜	-10.7345
親戚	-10.7348
豈特	-10.7348
中丞	-10.7357
之宜	-10.7361
不啻	-10.7362
嬪	-10.7365
更有	-10.7366
祭祀	-10.737
如在	-10.737
東方	-10.7373
讐	-10.7375
臆	-10.7375
蟹	-10.7376
療	-10.7377
名其	-10.738
撼	-10.7382
平地	-10.7384
待罪	-10.7384
佳句	-10.7385
學官	-10.7389
相知	-10.7394
夫豈	-10.7397
之音	-10.7399
無乃	-10.74
悠	-10.7401
感慨	-10.7401
僕射	-10.7404
制度	-10.7406
只今	-10.7408
吾心	-10.7414
圖書	-10.7414
不可得而	-10.7416
髙宗	-10.7417
以書	-10.7418
用事	-10.7419
非吾	-10.7424
見于	-10.7425
從而	-10.7425
知音	-10.7426
茫	-10.7426
天下之事	-10.7427
未成	-10.7436
砌	-10.7437
悶	-10.7439
難得	-10.744
闡	-10.744
二十五	-10.7441
吾之	-10.7444
是亦	-10.7446
先聖	-10.745
譲	-10.7452
幄	-10.7453
生靈	-10.7454
第五	-10.7456
曰汝	-10.7465
給事中	-10.7468
畱	-10.7468
而死	-10.7479
胸	-10.7487
泯	-10.7489
倩	-10.749
三四	-10.749
庻幾	-10.749
之䇿	-10.7492
不宜	-10.7493
知名	-10.7493
之位	-10.7494
毗	-10.7495
衲	-10.7496
而今	-10.7503
貂	-10.7505
緡	-10.7506
來歸	-10.7506
而用之	-10.7509
孱	-10.7516
鏤	-10.7516
昨夜	-10.7518
嘗聞	-10.752
嘗以	-10.7522
䓁	-10.7528
大明	-10.7528
傳之	-10.7529
朶	-10.7533
逞	-10.7534
寂寂	-10.754
欲其	-10.7541
八九	-10.7543
北海	-10.7545
周之	-10.7547
大人	-10.755
翮	-10.7554
不以為	-10.7556
教子	-10.7558
師道	-10.7558
王室	-10.7562
功業	-10.7563
可無	-10.7564
搆	-10.7565
捫	-10.7566
家法	-10.757
瓢	-10.7571
夫人之	-10.7572
剽	-10.7574
亦云	-10.7578
上天	-10.7579
芥	-10.7581
秋色	-10.7582
瑕	-10.7585
孝弟	-10.7586
功成	-10.7589
方寸	-10.7589
文獻	-10.7589
何似	-10.7593
聖朝	-10.7593
綜	-10.7593
循吏	-10.7593
冤	-10.7593
中賀	-10.7599
行者	-10.76
擘	-10.7604
江州	-10.7614
之尊	-10.7616
東北	-10.7616
者多矣	-10.7619
不便	-10.7625
其情	-10.7627
大體	-10.7628
者耶	-10.7628
歸路	-10.7629
苖	-10.7631
縣丞	-10.7632
趙氏	-10.7633
甘泉	-10.7634
可勝	-10.7636
之甚	-10.7636
邦人	-10.7638
重來	-10.7641
為學	-10.7643
韵	-10.7643
家事	-10.7646
夜深	-10.7649
經史	-10.765
於道	-10.7651
不果	-10.7652
有聞	-10.7655
家世	-10.7655
不息	-10.7656
直道	-10.7657
豈容	-10.7658
姊	-10.766
螭	-10.7662
騫	-10.7662
主管	-10.7663
傳聞	-10.7663
之光	-10.7666
非特	-10.7668
涓	-10.7669
摭	-10.7669
桀	-10.7671
筮	-10.7672
桷	-10.7673
牛羊	-10.7673
矣又	-10.7684
王孫	-10.7685
魔	-10.7687
胎	-10.7689
何敢	-10.7689
嗟夫	-10.769
閬	-10.7691
十五日	-10.7691
輓	-10.7693
國子	-10.7694
臨安	-10.77
加以	-10.77
貝	-10.7704
不審	-10.7705
修撰	-10.7705
迪功郎	-10.7705
出守	-10.7706
愛君	-10.7707
之慶	-10.7708
知公	-10.771
感激	-10.7712
如水	-10.7716
疵	-10.7717
名士	-10.7718
季子	-10.772
取士	-10.772
繼之	-10.7726
壷	-10.7732
藏之	-10.7736
摶	-10.7738
風波	-10.7739
等處	-10.7741
學術	-10.7743
非常	-10.7745
宜有	-10.7748
必能	-10.775
能為	-10.7752
曲折	-10.7753
告之	-10.7754
所及	-10.7756
娱	-10.7757
巵	-10.776
叔父	-10.776
之分	-10.7765
松風	-10.7766
諳	-10.7767
靑	-10.7768
金玉	-10.7771
之象	-10.7773
鬰	-10.7776
之所謂	-10.7778
日益	-10.7779
匡	-10.778
奉聖㫖	-10.7785
猜	-10.7786
明主	-10.7793
不仁	-10.7793
仆	-10.7795
少師	-10.7798
名山	-10.7798
方外	-10.7804
不滿	-10.7806
泝	-10.7807
一曲	-10.7807
州軍	-10.7809
乃有	-10.7812
復見	-10.7812
無能	-10.7813
所著	-10.7816
搏	-10.7817
一門	-10.7818
天下之人	-10.7824
雷霆	-10.7827
萬石	-10.7831
斟	-10.7832
皇皇	-10.7834
可得	-10.7836
而欲	-10.7837
同一	-10.7843
周官	-10.7844
也蓋	-10.7844
皎	-10.7845
江陵	-10.7845
留守	-10.7846
瞰	-10.7846
此豈	-10.7849
之班	-10.785
遡	-10.7854
大師	-10.7857
龍圖	-10.7858
智者	-10.7861
無疆	-10.7862
秋日	-10.7864
折衝	-10.7867
盛事	-10.787
皇祐	-10.7875
自愛	-10.7876
此非	-10.7876
以見	-10.7878
教人	-10.7882
節制	-10.7886
以義	-10.7886
奉詔	-10.7886
始得	-10.7887
在乎	-10.7888
挑	-10.7894
笑曰	-10.7894
自為	-10.7899
牟	-10.7903
其始	-10.7903
鍳	-10.7908
由來	-10.7909
元日	-10.791
生平	-10.7911
盡心	-10.7912
贓	-10.7913
糜	-10.7916
南方	-10.7919
敵人	-10.7922
穉	-10.7922
之南	-10.7927
不學	-10.7927
柰何	-10.7929
白石	-10.7931
老杜	-10.7933
天公	-10.7933
酹	-10.7934
神宗	-10.7934
聊復	-10.7935
林泉	-10.7945
相似	-10.7945
存亡	-10.7946
擾擾	-10.7947
腹心	-10.7948
田園	-10.7951
赤子	-10.7951
不可復	-10.7953
不任	-10.7955
変	-10.7958
敢以	-10.7958
跂	-10.7966
攄	-10.7966
十一年	-10.7972
千餘	-10.7974
孽	-10.7975
繋	-10.7976
乆之	-10.7978
識之	-10.7982
翛然	-10.7983
進士第	-10.7985
糓	-10.7985
岱	-10.7987
於後	-10.7991
傳云	-10.7996
陽春	-10.7999
臺諫	-10.8
有可	-10.8
愛民	-10.8002
能使	-10.8005
幢	-10.8005
不治	-10.8005
孺人	-10.8005
汾	-10.8005
四夷	-10.8005
近者	-10.8006
何許	-10.8009
鄭公	-10.8013
匈奴	-10.8016
有加	-10.8021
安之	-10.8022
將相	-10.8023
置酒	-10.8023
撤	-10.8024
之戒	-10.8024
倣	-10.8025
其詩	-10.8027
扶持	-10.8027
桃源	-10.8032
即是	-10.804
浮屠	-10.8041
其不	-10.8041
之害	-10.8041
實録	-10.8053
以時	-10.8053
其徳	-10.8054
聫	-10.8055
也惟	-10.806
雲間	-10.8062
孔子之	-10.8062
裙	-10.8064
大用	-10.8064
成命	-10.8071
宣王	-10.8076
青春	-10.808
歿	-10.8083
股	-10.8083
足矣	-10.8084
靡不	-10.8085
愉	-10.8085
之不可	-10.8094
左丞	-10.8094
鉛	-10.8094
拆	-10.8095
偹	-10.8095
此道	-10.8096
好惡	-10.81
巒	-10.8101
殯	-10.8105
俠	-10.8105
萬斛	-10.8107
其弟	-10.8107
其辭	-10.8111
無極	-10.8116
不敏	-10.8117
他時	-10.8117
一洗	-10.8118
以疾	-10.812
乆而	-10.8121
墓誌	-10.8122
公獨	-10.8122
韓愈	-10.8122
麒麟	-10.8123
韓詩	-10.8124
之極	-10.8124
者如	-10.8124
吾友	-10.8124
故有	-10.8125
椎	-10.8125
楊氏	-10.8128
羔	-10.813
公家	-10.8131
迓	-10.8135
家傳	-10.8135
今又	-10.8137
無聞	-10.8138
得意	-10.8138
清江	-10.8146
有異	-10.8149
而易	-10.815
一書	-10.8152
中人	-10.8154
此一	-10.8154
暁	-10.8157
久之	-10.8158
之具	-10.8159
能知	-10.8161
古文	-10.8165
不立	-10.8165
釡	-10.8165
蘚	-10.8166
非獨	-10.8167
參知政事	-10.8168
伯夷	-10.8172
安於	-10.8173
址	-10.8173
鶚	-10.8173
挫	-10.8173
治道	-10.8174
詩集	-10.8175
騐	-10.8176
遄	-10.8177
生事	-10.8178
晤	-10.8179
春水	-10.818
人自	-10.8186
譙	-10.8187
名家	-10.8193
應副	-10.8194
槃	-10.8195
雪中	-10.8197
白雪	-10.8198
使我	-10.8201
亦嘗	-10.8202
稱之	-10.8202
六合	-10.8204
嫉	-10.8205
惆悵	-10.8206
婢	-10.8207
上方	-10.8208
恩命	-10.8209
安石	-10.8213
而反	-10.8214
渝	-10.8217
胷	-10.8219
參軍	-10.822
南康	-10.822
聖人之道	-10.8221
酉	-10.8221
願言	-10.8224
見聞	-10.8224
政和	-10.8224
李白	-10.8228
辛苦	-10.8229
道義	-10.8233
有光	-10.8235
北斗	-10.8236
出而	-10.8237
吸	-10.8242
兀	-10.8244
壠	-10.8246
不能無	-10.8247
皆得	-10.8247
當有	-10.8247
何年	-10.825
其用	-10.8253
核	-10.8257
前代	-10.8257
聆	-10.8257
别後	-10.8262
都城	-10.8264
乃得	-10.8264
覓	-10.8266
五更	-10.8266
依依	-10.8267
濮	-10.8269
二十八	-10.8273
故山	-10.8275
晉書	-10.828
潭州	-10.8281
悽	-10.8286
人倫	-10.8287
佳人	-10.8287
也乃	-10.8292
大雅	-10.8292
年五十	-10.8293
鄞	-10.8295
何異	-10.8296
太后	-10.8297
集中	-10.8298
鉤	-10.8299
至治	-10.83
其子孫	-10.8301
君父	-10.8302
於其間	-10.831
約束	-10.831
長子	-10.8312
磯	-10.8316
世有	-10.8316
叱	-10.8316
仁人	-10.8319
鳯凰	-10.8319
故家	-10.8324
節度	-10.8328
無補	-10.833
荆棘	-10.8331
漠漠	-10.8334
檣	-10.8339
慳	-10.8339
此皆	-10.8339
炭	-10.8339
公與	-10.8341
忘其	-10.8342
正直	-10.8344
陳迹	-10.8346
變而	-10.8349
甸	-10.835
軍中	-10.8352
經筵	-10.8353
焚香	-10.8361
有神	-10.8362
豈易	-10.8362
稽首	-10.8362
禅	-10.8362
過人	-10.8366
舶	-10.837
橐	-10.8371
其次	-10.8372
不安	-10.8374
蓑	-10.8376
之吏	-10.8379
㒺	-10.838
彞	-10.838
嚼	-10.8381
實為	-10.8381
臣竊	-10.8381
之祥	-10.8383
謫仙	-10.8383
浙西	-10.8383
一物	-10.8383
鳶	-10.8383
諸州	-10.8384
持節	-10.8385
到任	-10.8387
榭	-10.8391
帰	-10.8395
徒以	-10.8396
軺	-10.8396
君墓誌銘	-10.8398
秃	-10.84
訥	-10.8403
性之	-10.8404
於家	-10.8406
而莫	-10.8407
人户	-10.8408
一毫	-10.8414
園林	-10.8415
新安	-10.8415
廣陵	-10.8417
能以	-10.8419
飈	-10.8421
恨不	-10.8421
而起	-10.8422
滛	-10.8424
而立	-10.8424
學而	-10.8424
而獨	-10.8429
墀	-10.843
相國	-10.8432
五千	-10.8437
事者	-10.8437
不離	-10.8438
黄河	-10.8441
于世	-10.8443
而取	-10.8445
盛德	-10.8445
居官	-10.8445
古人之	-10.8447
有罪	-10.8448
未㡬	-10.845
縉紳	-10.8452
以遺	-10.8452
異於	-10.8454
不違	-10.8458
庚申	-10.8458
之明	-10.8459
吾民	-10.846
孰為	-10.846
卯	-10.8461
癖	-10.8464
豈徒	-10.8464
敲	-10.8466
債	-10.8466
幾年	-10.8469
子貢	-10.8471
深入	-10.8473
興起	-10.8476
邑人	-10.8477
紹聖	-10.8481
宣慰	-10.8482
築室	-10.8482
子瞻	-10.8489
受其	-10.849
天心	-10.8491
居之	-10.8493
慶厯	-10.8494
祖考	-10.8495
推之	-10.8496
賖	-10.8496
語言	-10.8497
楊栁	-10.8501
也盖	-10.8501
留意	-10.8502
誰家	-10.8503
有酒	-10.8505
未應	-10.8505
無數	-10.8505
討論	-10.8512
七人	-10.8512
艷	-10.8514
小子	-10.8516
匆匆	-10.8517
㤀	-10.8519
大道	-10.8519
已矣	-10.8527
之忠	-10.8531
上元	-10.8532
之西	-10.854
瀑	-10.8544
篷	-10.8546
安在	-10.8547
武夷	-10.8548
其時	-10.8549
先塋	-10.855
收拾	-10.855
當以	-10.8551
兩浙	-10.8551
時人	-10.8551
未遑	-10.8554
以死	-10.8558
弟兄	-10.8558
考其	-10.856
髙風	-10.8562
之機	-10.8562
舊物	-10.8563
棋	-10.8568
簇	-10.8569
秩滿	-10.8575
明時	-10.8576
老杜詩	-10.8577
不測	-10.8578
必不	-10.8579
蘋	-10.858
闘	-10.8583
一新	-10.8586
黠	-10.8587
如雲	-10.8587
宣城	-10.8587
歙	-10.8589
事功	-10.8609
本心	-10.861
囿	-10.8611
愜	-10.8612
斃	-10.8614
燧	-10.8614
異端	-10.8618
安用	-10.8619
不䏻	-10.8622
竹林	-10.8626
一章	-10.8628
憶昔	-10.8629
笥	-10.8632
相過	-10.8633
韓退之	-10.8633
複	-10.8634
嚢	-10.8634
弁	-10.8635
開封府	-10.8641
湮	-10.8641
諗	-10.8641
命也	-10.8644
不得而	-10.8651
夫子之	-10.8653
使民	-10.8654
宰執	-10.8655
王道	-10.8656
其材	-10.8656
伎	-10.8657
緝	-10.8659
廣大	-10.8663
成敗	-10.8664
庠序	-10.8665
星辰	-10.8666
深處	-10.8672
踞	-10.8675
湖海	-10.8676
愠	-10.8676
其法	-10.8678
心事	-10.8681
惶	-10.8681
杜牧	-10.8683
花落	-10.8685
屡	-10.8689
流離	-10.869
我生	-10.8694
嘆曰	-10.8698
可得而	-10.8701
歐陽公	-10.8701
者猶	-10.8702
一醉	-10.8705
崔嵬	-10.8706
賓客	-10.871
之主	-10.8711
五湖	-10.8712
子雲	-10.8712
江頭	-10.8712
下車	-10.8715
於中	-10.8717
閽	-10.8718
或問	-10.8719
思慮	-10.8719
五六	-10.872
皇極	-10.872
不平	-10.8722
嬾	-10.8729
物也	-10.8732
天寒	-10.8733
歸田	-10.8736
屹	-10.8736
北風	-10.8737
鐸	-10.8739
婆娑	-10.874
晞	-10.8741
孺子	-10.8743
復以	-10.8746
釋氏	-10.8749
損益	-10.875
之貴	-10.8752
臨風	-10.8752
少時	-10.8754
之威	-10.8754
論之	-10.8756
有無	-10.8756
且以	-10.8757
一氣	-10.8757
泳	-10.8758
邑之	-10.8758
嘻	-10.8759
乃能	-10.8759
以進	-10.876
委曲	-10.876
宫觀	-10.8764
給事	-10.8765
司空	-10.8768
相看	-10.877
如之何	-10.8776
何曽	-10.8776
人多	-10.878
不得已	-10.878
兇	-10.8781
不避	-10.8781
牓	-10.8783
其利	-10.8791
縹緲	-10.8793
道德	-10.8793
中年	-10.8797
奏聞	-10.8801
一代	-10.8803
予之	-10.8803
不能以	-10.8804
頸	-10.8807
其私	-10.8808
不思	-10.8812
頃刻	-10.8813
相忘	-10.8813
不才	-10.8813
山澤	-10.8814
凄凉	-10.8816
旒	-10.8816
當其	-10.8817
南海	-10.8818
之英	-10.882
四方之	-10.8822
主上	-10.8823
安人	-10.8823
行道	-10.8824
此二	-10.8824
者三	-10.8826
河朔	-10.8831
之精	-10.8833
獨有	-10.8834
召還	-10.8834
曜	-10.8836
峩	-10.8838
髣髴	-10.8839
這	-10.884
而至	-10.8841
之運	-10.8844
挽詞	-10.8844
知已	-10.8845
張子	-10.8845
瀕	-10.8847
欝	-10.8849
推恩	-10.8849
亭亭	-10.885
瀉	-10.8859
扆	-10.8859
缾	-10.886
南國	-10.8862
歌詩	-10.8862
穫	-10.887
財用	-10.8874
東陽	-10.8874
所爲	-10.8879
冉冉	-10.888
廣東	-10.8881
蝕	-10.8882
大計	-10.8884
宗師	-10.8885
霜露	-10.8886
蹕	-10.8887
十首	-10.8887
雨後	-10.8895
兵馬	-10.8897
六人	-10.8901
某日	-10.8901
昉	-10.8902
碌碌	-10.8903
殄	-10.8904
中道	-10.8906
夢寐	-10.8906
同心	-10.8911
鞅	-10.8916
儆	-10.8916
四壁	-10.8917
平江	-10.8922
韓公	-10.8925
施之	-10.8927
明皇	-10.8928
為言	-10.893
漢之	-10.8938
有㫖	-10.8938
方丈	-10.8941
以奉	-10.8942
不傳	-10.8943
怙	-10.8944
之謂也	-10.8947
固非	-10.8949
其理	-10.8949
盛衰	-10.8952
吉州	-10.8956
涖	-10.8957
盞	-10.8959
無此	-10.896
侍中	-10.8962
錐	-10.8969
非常之	-10.8969
民心	-10.8969
狩	-10.897
自非	-10.8975
昔年	-10.8978
國家之	-10.8982
正色	-10.8987
所貴	-10.8988
管仲	-10.8991
誰為	-10.8994
為民	-10.8996
長官	-10.8996
鍊	-10.8996
一卷	-10.9002
甘棠	-10.9006
黄昏	-10.9007
老翁	-10.901
長樂	-10.9011
蝸	-10.9013
雖云	-10.9013
暦	-10.9013
何可	-10.9019
一出	-10.9021
然自	-10.9023
晚節	-10.9023
未央	-10.9027
生成	-10.903
不得其	-10.9031
顚	-10.9035
未安	-10.9036
豚	-10.9037
得請	-10.9038
外物	-10.9041
之隆	-10.9041
臣以	-10.9042
者此	-10.9042
里中	-10.9043
翫	-10.9046
之厚	-10.9047
者今	-10.9048
詩卷	-10.9048
自任	-10.9049
我有	-10.9051
王者	-10.9052
官至	-10.9052
太皇太后	-10.9052
中流	-10.9054
自立	-10.9063
反復	-10.9064
承務郎	-10.9065
不似	-10.9065
螺	-10.9069
鶩	-10.9069
汰	-10.9069
㓛	-10.9071
風光	-10.9071
乱	-10.9072
未識	-10.9073
聾	-10.9078
吿	-10.908
嵓	-10.9081
到處	-10.9084
直學士	-10.9087
云爾	-10.9089
堯舜之	-10.909
不畏	-10.9094
暮年	-10.9095
躐	-10.9096
一葉	-10.9098
長生	-10.91
養生	-10.91
有序	-10.91
繭	-10.9102
不敢以	-10.9102
祖諱	-10.9104
白鶴	-10.9105
豈謂	-10.9105
所不能	-10.9107
□	-10.9109
字子	-10.911
不憚	-10.911
冨貴	-10.9111
銖	-10.9111
敖	-10.9112
欽承	-10.9112
蜀人	-10.9113
縣尹	-10.9113
賂	-10.9114
凱	-10.9114
䆒	-10.9114
圉	-10.9116
以取	-10.9119
茸	-10.9123
桑榆	-10.9125
前此	-10.9128
其大	-10.913
嘗為	-10.9131
堰	-10.9134
帷幄	-10.9135
巍巍	-10.9136
平原	-10.9138
称	-10.9138
力學	-10.9141
昔之	-10.9141
後有	-10.9144
制置	-10.9144
憩	-10.9145
儷	-10.9148
則雖	-10.9149
異數	-10.9149
歸於	-10.9151
法令	-10.9155
送李	-10.9156
十有二	-10.9157
羽翼	-10.9157
十三年	-10.9157
臣子	-10.9159
出其	-10.916
籥	-10.9168
焉其	-10.9168
無地	-10.9169
奉祠	-10.9171
楫	-10.9175
又聞	-10.9176
有四	-10.9176
伏審	-10.9177
悅	-10.9179
泓	-10.9179
長松	-10.918
眼前	-10.918
秘書	-10.9181
霜雪	-10.9183
聞於	-10.9189
在前	-10.9189
數人	-10.9189
無幾	-10.9192
以及	-10.9194
人欲	-10.9199
了無	-10.9199
公所	-10.9202
一曰	-10.9203
臞	-10.9203
箱	-10.9205
爾雅	-10.9207
人力	-10.9208
知府	-10.9209
秦漢	-10.921
瑤	-10.9211
仰惟	-10.9213
保全	-10.9216
城東	-10.9223
立言	-10.9231
行矣	-10.9231
戱	-10.9234
數千里	-10.9234
械	-10.9235
愿	-10.9237
壹	-10.9237
此邦	-10.9246
吾君	-10.9248
淮東	-10.9249
神武	-10.925
與天	-10.9251
龍蛇	-10.9256
其兄	-10.9257
遨	-10.9258
閒居	-10.9261
跪	-10.9262
矦	-10.9262
彭澤	-10.9263
理之	-10.9263
圜	-10.9269
袴	-10.927
不愧	-10.9271
雌	-10.9272
糟	-10.9272
孟軻	-10.9272
開國	-10.9277
劣	-10.928
妬	-10.9282
南州	-10.9285
文采	-10.9286
十人	-10.9288
盂	-10.9293
斫	-10.9294
箠	-10.9294
於下	-10.9294
飄零	-10.9297
御筆	-10.9303
龍虎	-10.9305
前去	-10.9308
都官	-10.931
驢	-10.9312
惓惓	-10.9316
果何	-10.9317
某等	-10.9317
敢言	-10.9318
諸孤	-10.932
扵此	-10.9324
當日	-10.9327
天地間	-10.9328
鄉黨	-10.9329
畒	-10.9329
而退	-10.933
里人	-10.9333
無處	-10.9334
溍	-10.9335
葱	-10.9338
趾	-10.9344
奉議郎	-10.9348
駁	-10.9348
燠	-10.9349
舄	-10.9349
﨑嶇	-10.935
琵琶	-10.9351
不利	-10.9351
瘁	-10.9354
六七	-10.9355
明詔	-10.9356
能自	-10.9356
籟	-10.9356
虬	-10.9361
留連	-10.9362
支離	-10.9365
帝王之	-10.9366
律詩	-10.9368
職方	-10.9369
茵	-10.9371
馥	-10.9372
夜月	-10.9373
蠱	-10.9376
相親	-10.9379
始於	-10.9384
史官	-10.9385
綰	-10.9387
以副	-10.9391
猗	-10.9392
此去	-10.9393
御史中丞	-10.9399
匹夫	-10.9404
者爲	-10.9404
乃是	-10.9405
奉行	-10.9408
非其人	-10.941
而作	-10.9411
遣人	-10.9412
小詩	-10.9417
眸	-10.942
雨過	-10.9422
風物	-10.9422
世所	-10.9427
巻二十	-10.9427
僑	-10.9428
之𥘉	-10.9428
不惜	-10.9429
扄	-10.943
躅	-10.9431
雲漢	-10.9431
貼	-10.9432
有味	-10.9433
欲求	-10.9433
笠	-10.9438
無意	-10.945
王君	-10.945
舎人	-10.9451
幙	-10.9454
范公	-10.946
傷心	-10.9461
世故	-10.9462
落筆	-10.9463
耆舊	-10.9463
開封	-10.9466
孫子	-10.9473
方其	-10.9474
婆	-10.9474
同列	-10.9475
捄	-10.9477
吾廬	-10.9478
嫡	-10.9479
氷雪	-10.948
莫知	-10.9481
鯉	-10.9483
誰謂	-10.9485
公在	-10.9487
也因	-10.949
泮	-10.9491
秋月	-10.9491
四川	-10.9496
一夫	-10.9498
傳家	-10.9501
則非	-10.9506
斡	-10.951
湖北	-10.9511
蘇公	-10.9513
毫髪	-10.9513
躁	-10.9513
所傳	-10.9514
山寺	-10.9514
民有	-10.9515
問其	-10.9515
生而	-10.9516
其性	-10.9516
家貧	-10.9517
騁	-10.9517
食之	-10.9517
退之詩	-10.9518
凟	-10.9521
無憾	-10.9523
藪	-10.9524
慄	-10.9525
顧我	-10.9526
一郡	-10.9528
飄飄	-10.9529
未嘗有	-10.953
名字	-10.953
遺書	-10.9532
送王	-10.9532
未發	-10.9533
那得	-10.9533
俘	-10.9534
天下之大	-10.9535
崑崙	-10.9535
秖	-10.9535
杪	-10.9535
庶乎	-10.9536
臨事	-10.9536
夫以	-10.9538
不取	-10.9542
進而	-10.9547
席上	-10.9547
城下	-10.9547
燦	-10.9547
可行	-10.9549
宣撫	-10.9551
洋洋	-10.9552
青衫	-10.9553
將有	-10.9555
衣裳	-10.9555
聲色	-10.9555
卿等	-10.9555
酋	-10.9556
時方	-10.9558
黼	-10.9559
諛	-10.9559
俛	-10.956
法也	-10.9562
駟	-10.9566
而忘	-10.9566
十八日	-10.9568
淛	-10.9569
鏘	-10.9569
尚何	-10.9573
以行	-10.9576
畫圖	-10.9576
玉山	-10.9578
濠	-10.9578
縦	-10.9578
亦知	-10.9578
池上	-10.9579
於是乎	-10.9581
猾	-10.9582
濺	-10.9583
相識	-10.9584
拾遺	-10.9585
志在	-10.9586
縣官	-10.9587
一巻	-10.9591
交情	-10.9591
文昌	-10.9592
鬟	-10.9592
名節	-10.9594
右丞	-10.9597
按察	-10.9599
咸淳	-10.96
蘭亭	-10.96
甚於	-10.9602
發於	-10.9602
親見	-10.9604
孰知	-10.9606
平昔	-10.9608
一㸃	-10.9609
旌旗	-10.9609
昂	-10.9612
中山	-10.9615
得志	-10.9619
翕然	-10.9624
粲然	-10.9624
霓	-10.9625
碣	-10.9627
修身	-10.9628
是年	-10.9629
公自	-10.9629
杖屨	-10.963
客來	-10.963
山頭	-10.963
自天	-10.9631
軍旅	-10.9632
揚子	-10.9635
三軍	-10.9635
子也	-10.9637
龜山	-10.9639
九江	-10.9639
無過	-10.9639
長城	-10.9639
讜	-10.9641
蚊	-10.9642
之幸	-10.9646
孫女	-10.9647
其君	-10.9647
文正	-10.9647
塾	-10.9648
不允詔	-10.9649
曰某	-10.9651
彚	-10.9651
郡人	-10.9652
瘳	-10.9653
嗤	-10.9653
菊花	-10.9659
掉	-10.966
萬壑	-10.9662
淮海	-10.9664
紈	-10.9666
自來	-10.9667
逺方	-10.9671
非所以	-10.9672
行路	-10.9672
裡	-10.9674
授之	-10.9677
甑	-10.9678
樓臺	-10.9682
而可	-10.9682
緬	-10.9683
魯公	-10.9687
天下之士	-10.9687
秋毫	-10.9689
國用	-10.9693
之表	-10.9693
月下	-10.9694
丈人	-10.9697
城西	-10.9699
直言	-10.97
已有	-10.9701
天威	-10.9702
經年	-10.9702
去就	-10.9703
顛倒	-10.9704
自以為	-10.9705
終於	-10.9705
尚未	-10.9707
今兹	-10.9707
可知矣	-10.971
京口	-10.9711
無任	-10.9713
發其	-10.9713
奏狀	-10.9714
人無	-10.9714
虚名	-10.9717
禰	-10.9724
治天下	-10.9725
至則	-10.9728
重輕	-10.9728
不稱	-10.973
于家	-10.9732
大業	-10.9735
雲霄	-10.9736
其故	-10.9737
憇	-10.9737
旦夕	-10.9739
萬餘	-10.9739
山前	-10.9739
刻石	-10.9739
不報	-10.974
集序	-10.9741
其氣	-10.9741
諸司	-10.9743
松栢	-10.9744
脊	-10.9745
有命	-10.9745
冺	-10.9745
髻	-10.9747
亦足	-10.9747
嘶	-10.9747
燾	-10.9747
五雲	-10.9747
有所不	-10.9753
者無	-10.9754
丙子	-10.9755
南京	-10.9755
股肱	-10.9755
此乃	-10.9757
亦既	-10.9758
黛	-10.9761
數萬	-10.9762
竊聞	-10.9765
郡邑	-10.9765
寵光	-10.9766
士民	-10.9767
獻納	-10.9769
眼中	-10.977
疫	-10.977
莫之	-10.9772
流行	-10.9775
身世	-10.9775
禮之	-10.9776
笳	-10.9781
非一	-10.9782
聞而	-10.9785
一再	-10.9785
至仁	-10.9785
可愛	-10.9787
見上	-10.9792
期於	-10.9793
自適	-10.9794
樗	-10.9794
鉏	-10.9794
二十日	-10.9795
名之曰	-10.9796
自足	-10.9797
濟南	-10.9799
為詩	-10.9806
麴	-10.9806
疑其	-10.9806
同前	-10.9806
劫	-10.9807
進取	-10.9808
有待	-10.9809
一編	-10.9809
清談	-10.981
大理寺丞	-10.9811
近年	-10.9818
甚多	-10.9818
䰟	-10.9818
皇天	-10.9818
今已	-10.982
者當	-10.9823
不禁	-10.9826
簟	-10.9829
甲申	-10.9829
年十月	-10.9829
一舉	-10.9829
淳熙	-10.983
丙午	-10.983
登髙	-10.9837
駸駸	-10.9841
之微	-10.9842
涎	-10.9843
幽居	-10.9843
其生	-10.9845
巍	-10.9845
者所以	-10.9847
餘力	-10.9849
亹亹	-10.9852
所存	-10.9861
之亂	-10.9862
皆為	-10.9863
煌煌	-10.9864
曾子	-10.9866
脈	-10.9866
日與	-10.9866
夫何	-10.9868
而益	-10.9872
工部	-10.9877
亾	-10.9877
之㫖	-10.9877
釵	-10.9878
後先	-10.9879
之俗	-10.988
累贈	-10.988
也彼	-10.9881
朝陽	-10.9881
又言	-10.9883
皇太子	-10.9883
子美	-10.9885
當路	-10.9889
從其	-10.9891
蒼苔	-10.9895
作者	-10.9898
突兀	-10.9902
壁間	-10.9902
漾	-10.9903
起於	-10.9904
行樂	-10.9904
躬行	-10.9905
小人之	-10.9907
中夜	-10.9913
沴	-10.9913
久而	-10.9916
港	-10.9916
訶	-10.9916
為此	-10.9918
于外	-10.9919
責之	-10.992
非是	-10.9925
不能盡	-10.9925
孜孜	-10.9926
妓	-10.9927
悰	-10.9928
飄然	-10.9928
玉樹	-10.9934
妥	-10.9937
睨	-10.9937
樁	-10.9939
著作	-10.994
言行	-10.994
逓	-10.9941
前漢	-10.9942
不計	-10.9943
何能	-10.9948
北方	-10.9949
臺閣	-10.9949
杉	-10.9951
𢾗	-10.9951
漢家	-10.9952
欲望	-10.9955
方且	-10.9957
觀者	-10.9958
熙寧	-10.9958
財賦	-10.9959
固無	-10.996
不曽	-10.996
及於	-10.996
窠	-10.9963
恭以某官	-10.9966
世道	-10.9966
遇事	-10.9966
公亦	-10.9967
論文	-10.9967
深知	-10.9968
安可	-10.9972
驅馳	-10.9976
風雷	-10.9977
孤山	-10.9979
十六日	-10.9979
衆生	-10.998
之休	-10.998
當然	-10.9983
文詞	-10.9987
斯道	-10.9987
文物	-10.9988
年八十	-10.9988
次曰	-10.9989
然有	-10.999
孔明	-10.9995
送張	-10.9997
當今	-10.9998
穩	-10.9998
欒	-11
更無	-11.0001
即今	-11.0001
軍民	-11.0001
我獨	-11.0001
菑	-11.0002
始以	-11.0003
偶成	-11.0005
此又	-11.0007
則天下	-11.0007
安樂	-11.0008
世無	-11.0008
其國	-11.0012
壬辰	-11.0012
宗正	-11.0012
春光	-11.0014
不移	-11.0015
虎豹	-11.0021
彤	-11.0022
表臣某言	-11.0023
僮	-11.0024
元老	-11.0024
太常博士	-11.0025
壌	-11.0025
碧雲	-11.0026
浩浩	-11.0028
將來	-11.0029
送客	-11.0032
懈	-11.0033
難以	-11.0033
皂	-11.0035
麤	-11.0038
稜	-11.0039
遑	-11.0039
朞	-11.0041
不變	-11.0041
髓	-11.0043
發揮	-11.0043
杏花	-11.0045
有過	-11.0048
癯	-11.0048
祭文	-11.005
倉卒	-11.0051
最為	-11.0054
亦已	-11.0054
謹按	-11.0057
文正公	-11.0059
喙	-11.0061
書來	-11.0062
之習	-11.0063
蒐	-11.0063
明經	-11.0065
有遺	-11.0067
物外	-11.0071
甘露	-11.0072
春來	-11.0072
清溪	-11.0075
亦然	-11.0075
不可以不	-11.0077
不使	-11.0077
其居	-11.0077
松竹	-11.0078
空言	-11.0081
况復	-11.0083
瞽	-11.0087
凛凛	-11.0089
東都	-11.0091
赫赫	-11.0091
細雨	-11.01
惜其	-11.0103
法從	-11.0107
閙	-11.0109
瓠	-11.011
炬	-11.0111
不寐	-11.0112
不遑	-11.0112
自持	-11.0113
衘	-11.0114
爾其	-11.0115
古道	-11.0116
其舊	-11.012
燼	-11.0121
溉	-11.0121
和尚	-11.0122
之譽	-11.0123
磊落	-11.0124
區區之	-11.0124
養之	-11.0129
大理	-11.0129
陽之	-11.0131
男女	-11.0134
遺文	-11.0135
䡖	-11.0137
未覺	-11.014
具奏	-11.0141
縫	-11.0145
概	-11.0145
顆	-11.0146
人臣	-11.0147
善者	-11.0148
知此	-11.015
閤門	-11.015
猶存	-11.0153
若無	-11.0158
撃	-11.0161
其位	-11.0162
凛然	-11.0165
之益	-11.0169
東坡詩	-11.0174
山居	-11.0175
孰謂	-11.0176
南史	-11.0176
余嘗	-11.018
身後	-11.018
正是	-11.018
綃	-11.0183
寤	-11.0184
家居	-11.0186
于天	-11.0186
之嚴	-11.0188
一經	-11.0191
者故	-11.0197
洩	-11.0198
必得	-11.0199
邪正	-11.0199
千丈	-11.0202
官制	-11.0203
日出	-11.0206
一名	-11.0211
行李	-11.0214
薇	-11.0215
我今	-11.0217
察之	-11.0218
開府	-11.0224
而實	-11.0225
淺深	-11.0226
詞章	-11.0228
謳	-11.0229
語曰	-11.0229
龕	-11.0232
掣	-11.0233
邕	-11.0234
王事	-11.0235
林間	-11.0237
内翰	-11.024
莆	-11.0241
不輕	-11.0241
吁嗟	-11.0242
五世	-11.0244
滔滔	-11.0245
一等	-11.0245
飫	-11.0245
願陛下	-11.0247
譯	-11.0248
聖意	-11.0248
於學	-11.025
未有不	-11.0251
㐮	-11.0253
之物	-11.0253
有年	-11.0253
吏部侍郎	-11.0254
梟	-11.0261
十一日	-11.0263
僖	-11.027
既已	-11.0272
岷	-11.0274
啜	-11.0275
茫然	-11.0275
國有	-11.0278
寥寥	-11.0279
天聖	-11.0282
瑜	-11.0284
之序	-11.0287
亦不能	-11.0287
之基	-11.0288
太和	-11.0289
滿眼	-11.0292
已成	-11.0298
春草	-11.0299
之過	-11.0301
遺風	-11.0303
知己	-11.0305
御書	-11.0305
於我	-11.0306
伯父	-11.0307
卒以	-11.0309
自安	-11.031
辝	-11.0313
又見	-11.0313
流傳	-11.0314
南風	-11.0317
又得	-11.032
且曰	-11.0322
得名	-11.0325
所以爲	-11.0325
昊	-11.0325
别駕	-11.0326
樽酒	-11.0327
君以	-11.0328
古木	-11.0328
無多	-11.0329
𣺌	-11.0333
嬴	-11.0336
肺	-11.0336
哀哉	-11.0343
竟何	-11.0346
亦足以	-11.035
䜛	-11.0351
唐書	-11.0352
珠玉	-11.0352
平陽	-11.0352
為主	-11.0353
化為	-11.0356
鄉閭	-11.0356
李君	-11.0356
上言	-11.0359
與物	-11.0359
或可	-11.0368
一麾	-11.0372
憊	-11.0372
有詔	-11.0373
疋	-11.0375
淳祐	-11.0375
後進	-11.0376
溝壑	-11.0377
半夜	-11.0379
河陽	-11.0381
陳君	-11.0383
無盡	-11.0386
十三日	-11.0389
武陵	-11.0395
勲業	-11.0397
問訊	-11.0397
錦繡	-11.0397
尓	-11.0399
五十年	-11.04
絲綸	-11.0401
某敢不	-11.0402
何在	-11.0403
封侯	-11.0403
鄭氏	-11.0405
言事	-11.0406
乎夫	-11.0406
閨門	-11.0407
召公	-11.0408
顰	-11.0408
功徳	-11.0411
合於	-11.0414
丹砂	-11.0415
寰	-11.0418
装	-11.0422
莫非	-11.0423
又謂	-11.0426
中書舍人	-11.0428
興亡	-11.043
水中	-11.0431
君看	-11.0431
秧	-11.0432
五福	-11.0435
罍	-11.0435
芋	-11.0435
髭	-11.0436
故云	-11.044
赴闕	-11.0441
亦是	-11.0443
祖父	-11.0445
博學	-11.0447
此山	-11.0447
丹陽	-11.045
五帝	-11.0451
可疑	-11.0452
亦當	-11.0452
樂事	-11.0453
為名	-11.0454
吾所	-11.0456
不察	-11.0457
之所在	-11.0458
不難	-11.0459
盥	-11.046
十七日	-11.0462
風雪	-11.0463
田家	-11.0463
究其	-11.0465
不可勝	-11.0465
孝宗	-11.0467
固當	-11.0469
佳處	-11.0469
如玉	-11.047
舉世	-11.0471
軻	-11.0473
動静	-11.0474
西路	-11.0475
皆非	-11.0478
能盡	-11.0478
山陽	-11.0483
作此	-11.0484
臯陶	-11.0485
匝	-11.0486
過於	-11.0486
柬	-11.0486
愕	-11.0487
濛	-11.0489
郊祀	-11.0491
筆力	-11.0495
無敢	-11.0498
廂	-11.0499
醖	-11.05
郁	-11.05
臣所	-11.0502
以治	-11.0503
元昊	-11.0504
所望	-11.0506
澄清	-11.0509
蜚	-11.0512
彼此	-11.0514
同志	-11.0514
十巻	-11.0515
所恃	-11.0516
穰	-11.0516
故里	-11.0517
笑談	-11.0518
所請	-11.052
哦	-11.0524
漬	-11.0526
任使	-11.0527
張君	-11.0528
土木	-11.0529
餘事	-11.053
今世	-11.0531
思所以	-11.0533
青燈	-11.0534
宫室	-11.0535
是皆	-11.0535
補之	-11.0536
肘	-11.0538
請以	-11.0538
慝	-11.0541
已見	-11.0541
孔氏	-11.0543
二聖	-11.0543
光輝	-11.0544
亦多	-11.0545
若為	-11.0547
大名	-11.0547
飛來	-11.0549
舫	-11.0549
用此	-11.055
敢望	-11.0551
藐	-11.0551
之病	-11.0551
苞	-11.0551
不來	-11.0553
列聖	-11.0554
欲使	-11.0555
弹	-11.0555
手自	-11.0556
丘壑	-11.0557
之問	-11.0558
朱氏	-11.0559
石室	-11.0565
長年	-11.0567
尚能	-11.0569
底事	-11.057
無定	-11.057
異同	-11.057
河漢	-11.0573
九天	-11.0576
别離	-11.0577
皆在	-11.0577
受之	-11.0578
善類	-11.0578
師之	-11.0578
之詞	-11.0584
慾	-11.0589
盡日	-11.0592
上意	-11.0596
丁寧	-11.0602
所用	-11.0602
舡	-11.0603
之興	-11.0606
騶	-11.0607
德之	-11.0607
歲時	-11.0607
日夕	-11.061
萬物之	-11.061
曼	-11.0611
南軒	-11.0612
弱冠	-11.0613
士人	-11.0613
多情	-11.0615
宜其	-11.0617
鉉	-11.0618
遺愛	-11.0618
清廟	-11.0619
枝葉	-11.062
子厚	-11.062
歸心	-11.0622
宣帝	-11.0623
太史公	-11.0633
紂	-11.0636
二曰	-11.0637
以稱	-11.0638
所稱	-11.0638
柰	-11.0639
昆弟	-11.064
固知	-11.0643
耦	-11.0643
衮衮	-11.0644
事體	-11.0645
孰與	-11.065
禁中	-11.0652
石上	-11.0652
澁	-11.0654
二三子	-11.0656
自重	-11.066
避地	-11.066
源流	-11.0661
乎曰	-11.0661
然後知	-11.0662
如是則	-11.0665
逆旅	-11.0666
菽	-11.0668
毫釐	-11.0671
徐州	-11.0672
中州	-11.0673
長吏	-11.0674
任之	-11.0676
告成	-11.0677
慤	-11.0682
易曰	-11.0684
賸	-11.0691
窒	-11.0692
之墓	-11.0695
七八	-11.0695
東流	-11.0695
埽	-11.0696
非敢	-11.0696
竟不	-11.0698
有定	-11.0699
嗟我	-11.0702
二絶	-11.0706
唐之	-11.0707
謝公	-11.0709
而生	-11.0709
賢而	-11.0709
眉山	-11.0711
之化	-11.0712
柴門	-11.0716
恐懼	-11.072
蕚	-11.0721
太公	-11.0723
車駕	-11.0725
伯仲	-11.0728
一州	-11.0728
赤壁	-11.073
國人	-11.073
轉運	-11.073
北門	-11.0731
不論	-11.0732
未行	-11.0732
太行	-11.0735
道理	-11.0736
綂	-11.0737
蕙	-11.0737
青州	-11.074
太保	-11.0747
噴	-11.0747
分别	-11.0747
大國	-11.0749
不煩	-11.075
半生	-11.0758
太上	-11.0758
千嵗	-11.0762
無時	-11.0763
諸侯之	-11.0763
制勅具官某	-11.0766
波濤	-11.0766
威儀	-11.0766
存焉	-11.0768
水火	-11.077
休息	-11.0771
尖	-11.0774
家庭	-11.0776
居然	-11.0778
廣文	-11.0778
照臨	-11.0781
東歸	-11.0782
天風	-11.0786
清香	-11.0786
紛紜	-11.0787
線	-11.0788
盲	-11.0788
瞳	-11.0788
庚子	-11.079
杜陵	-11.079
陋巷	-11.0792
數十年	-11.0793
西方	-11.0794
烽	-11.0796
峴	-11.0797
侍講	-11.0806
之域	-11.081
始至	-11.0813
相遇	-11.0813
未忘	-11.0813
寸心	-11.0813
下情	-11.0814
屈原	-11.0816
如公	-11.082
爼	-11.0822
貎	-11.0823
𠂻	-11.0824
野老	-11.0825
𤨏	-11.0826
凌雲	-11.083
敬之	-11.0832
亥	-11.0833
制勑	-11.0834
而巳矣	-11.0835
囘首	-11.0835
曾孫	-11.0837
僵	-11.0838
南郊	-11.0838
何者	-11.0839
慊	-11.084
以次	-11.0844
而使	-11.0844
異乎	-11.0845
將士	-11.085
朝來	-11.085
武功	-11.0851
家山	-11.0852
愬	-11.0853
譬之	-11.0853
吉甫	-11.0853
神之	-11.0854
與民	-11.0854
杵	-11.0854
廖	-11.0854
故舊	-11.0856
伏惟某官	-11.0858
善政	-11.086
縞	-11.0864
窄	-11.0865
但恐	-11.0866
顏	-11.0868
首尾	-11.0868
御史臺	-11.0868
筋力	-11.087
手書	-11.0872
一行	-11.0876
梳	-11.0877
娘	-11.0878
秋聲	-11.0879
握手	-11.088
飡	-11.088
逵	-11.0882
曽不	-11.0886
舟楫	-11.0887
不由	-11.0888
吟詩	-11.0888
吾鄉	-11.089
風味	-11.089
髙堂	-11.0892
端明	-11.0893
焉故	-11.0894
之詔	-11.0895
厥後	-11.0897
悲夫	-11.0899
嘗有	-11.09
累年	-11.09
有懐	-11.0902
彷彿	-11.0904
明珠	-11.0905
畫像	-11.0905
卞	-11.0907
宴坐	-11.091
國勢	-11.0912
千山	-11.0913
同僚	-11.0915
休戚	-11.0918
篙	-11.0918
汶	-11.0919
扞	-11.092
江北	-11.0924
家聲	-11.0927
廣西	-11.0929
鶻	-11.093
丑	-11.093
是宜	-11.0932
俚	-11.0932
可考	-11.0934
霖雨	-11.0934
理也	-11.0934
極其	-11.0935
毓	-11.0935
而樂	-11.0935
宜人	-11.0936
兵部	-11.0936
自守	-11.0944
以勸	-11.0944
耽	-11.0945
使天下	-11.0946
孤舟	-11.0946
與時	-11.0948
小臣	-11.0949
諫官	-11.095
白鷗	-11.0951
乆不	-11.0952
者莫不	-11.0953
珍重	-11.0953
也君	-11.0955
敷陳	-11.0957
瀟湘	-11.096
恢復	-11.096
不湏	-11.0961
往還	-11.0963
景仁	-11.0963
聖徳	-11.0964
清流	-11.0964
江流	-11.0966
春寒	-11.0966
天機	-11.0967
好古	-11.0967
楊子	-11.0968
從公	-11.0969
洪範	-11.0972
紊	-11.0972
南宫	-11.0973
霰	-11.0976
謝安	-11.0977
侍御史	-11.0978
誠意	-11.0979
而愈	-11.098
貢舉	-11.0981
之北	-11.0982
勞苦	-11.0982
何物	-11.0983
竚	-11.0985
懌	-11.0986
丙辰	-11.0987
秋雨	-11.0988
之言曰	-11.0988
典禮	-11.0989
離離	-11.0992
大家	-11.1
儒林	-11.1
喉	-11.1
乃為	-11.1001
可以為	-11.1005
諸道	-11.1008
行義	-11.1009
奩	-11.1012
唇	-11.1012
之封	-11.1012
扼	-11.1012
揔	-11.1012
子産	-11.1012
閥	-11.1013
纍纍	-11.1014
在下	-11.1014
可笑	-11.1014
國子監	-11.1015
朋黨	-11.1022
刑部	-11.1022
西州	-11.1024
更化	-11.1025
行在	-11.1028
以孝	-11.1031
而無所	-11.1034
尚存	-11.1034
所取	-11.1037
年八月	-11.1038
此君	-11.104
阨	-11.104
羇	-11.1041
真定	-11.1042
菱	-11.1042
門生	-11.1043
雪霜	-11.1043
風生	-11.1045
鑾	-11.1045
醮	-11.1051
漪	-11.1052
山間	-11.1054
前年	-11.1054
序送	-11.1055
廸	-11.1056
少保	-11.1059
軒冕	-11.106
之乆	-11.1062
上流	-11.1062
脩竹	-11.1062
高明	-11.1063
未艾	-11.1064
知州	-11.1067
酒酣	-11.1067
荆公	-11.1068
狡	-11.1069
臣願陛下	-11.107
年二十	-11.1076
迥	-11.1079
父諱	-11.108
之崇	-11.1081
待之	-11.1081
亦必	-11.1082
轉官	-11.1083
甲寅	-11.1084
其孤	-11.1084
不留	-11.1088
半年	-11.1094
弋	-11.1094
䝉恩	-11.1095
玲瓏	-11.1095
經濟	-11.1096
先君子	-11.1098
之器	-11.1101
吾儕	-11.1103
承事郎	-11.1103
不失其	-11.1104
詩酒	-11.1105
儒術	-11.1106
飛鳥	-11.1108
舩	-11.1108
厠	-11.1108
輅	-11.1109
瞿	-11.111
㡬何	-11.1113
未肯	-11.1118
之辰	-11.1119
也如	-11.1121
忽然	-11.1123
亶	-11.1123
郡王	-11.1124
蜀道	-11.1124
刻之	-11.1125
光隂	-11.1125
之狀	-11.113
地下	-11.113
祈雨	-11.1131
登山	-11.1132
聖心	-11.1133
西域	-11.1133
邦國	-11.1134
聖神	-11.1134
墉	-11.1134
𧺫	-11.1137
劭	-11.114
人世	-11.1142
非徒	-11.1142
性情	-11.1143
宣諭	-11.1147
見得	-11.1148
逖	-11.1152
舊章	-11.1152
㽞	-11.1152
今者	-11.1156
丙申	-11.1156
投老	-11.1157
應有	-11.1161
多所	-11.1165
銘銘曰	-11.1166
矣若	-11.1166
撫州	-11.1167
雲中	-11.1168
生長	-11.1175
徜徉	-11.1175
氏封	-11.1176
暈	-11.1177
沔	-11.118
堯卿	-11.118
琦	-11.1186
為樂	-11.1186
兩宫	-11.1188
生子	-11.119
經義	-11.1192
蒼茫	-11.1192
十卷	-11.1197
名實	-11.1199
繡衣	-11.1204
賄	-11.1204
此等	-11.1205
見贈	-11.1205
煉	-11.1215
可知也	-11.1216
蛩	-11.1218
遹	-11.1219
太上皇帝	-11.1221
然猶	-11.1222
題名	-11.1222
行役	-11.1225
大士	-11.1226
掬	-11.1231
噪	-11.1232
不給	-11.1232
也然而	-11.1233
和平	-11.1233
大賢	-11.1234
燔	-11.1234
則吾	-11.1235
與天地	-11.1235
有期	-11.1236
入覲	-11.1236
再和	-11.124
二女	-11.1241
立法	-11.1244
燬	-11.1244
琅	-11.1245
天竺	-11.1247
簿領	-11.1249
何幸	-11.1251
予嘗	-11.1257
否則	-11.1259
為世	-11.126
杖藜	-11.126
實有	-11.1261
怍	-11.1261
遘	-11.1261
鼓舞	-11.1262
復為	-11.1264
萬夫	-11.1264
愛人	-11.1268
本於	-11.1269
之竒	-11.1269
京東	-11.1269
掀	-11.1272
駮	-11.1273
祖妣	-11.1275
臣下	-11.1276
山僧	-11.1276
入城	-11.1278
坐令	-11.1278
撑	-11.1286
最後	-11.1291
又嘗	-11.1294
使節	-11.1295
本軍	-11.1295
聖慈	-11.1297
刮	-11.1299
厓	-11.13
山在	-11.13
喘	-11.1302
􁀙	-11.1302
盡力	-11.1302
亦難	-11.1303
涵養	-11.1304
其害	-11.1305
燕子	-11.1308
十四日	-11.131
自喜	-11.131
短長	-11.1313
宫中	-11.1313
年四月	-11.1315
桴	-11.1315
氏墓誌銘	-11.1316
綱紀	-11.132
翩	-11.132
三分	-11.1321
東門	-11.1322
之所能	-11.1322
舟行	-11.1323
吏事	-11.1324
班固	-11.1324
金山	-11.1325
爪	-11.1326
不敢不	-11.1327
子長	-11.1328
三載	-11.133
居民	-11.1332
惟神	-11.1333
正人	-11.1335
一樽	-11.1337
于上	-11.1338
殊未	-11.1339
潤色	-11.1341
佃	-11.1342
制勑具官某	-11.1342
所與	-11.1343
偃蹇	-11.1344
寛大	-11.1347
賑濟	-11.1347
其體	-11.1348
國事	-11.1349
魚龍	-11.1351
圖畫	-11.1351
大矣	-11.1353
如天	-11.1353
仕宦	-11.1355
神靈	-11.1357
雖曰	-11.1361
一句	-11.1361
無從	-11.1361
我家	-11.1362
其為人	-11.1363
清泉	-11.1366
醅	-11.1369
滂	-11.1369
服其	-11.137
漫漫	-11.1371
以助	-11.1372
而不為	-11.1373
還朝	-11.1373
不知何	-11.1374
十六年	-11.1377
惜哉	-11.1378
法師	-11.1378
論其	-11.1379
轉一官	-11.1379
寒泉	-11.138
胡氏	-11.1381
台州	-11.1384
久不	-11.1386
里閭	-11.1391
再見	-11.1392
冥冥	-11.1396
深思	-11.1396
芍藥	-11.1396
今夕	-11.1401
㳙	-11.1402
騷人	-11.1402
相接	-11.1402
六藝	-11.1404
必曰	-11.1404
墓銘	-11.1408
大政	-11.1408
上聞	-11.1409
如山	-11.1409
蓍	-11.141
去處	-11.1412
經行	-11.1412
風聲	-11.1412
圯	-11.1414
刷	-11.1414
隨時	-11.1416
前世	-11.1417
筆墨	-11.1417
二千	-11.1417
昔日	-11.142
星斗	-11.1422
科第	-11.1422
書某	-11.1426
華嚴	-11.1426
也使	-11.1429
不然則	-11.143
闥	-11.143
始有	-11.143
飮	-11.1431
物色	-11.1432
少留	-11.1433
賢人	-11.1434
失所	-11.1435
恨無	-11.1438
許國	-11.1438
吉凶	-11.1438
命以	-11.1439
頺	-11.1439
端平	-11.1442
夔	-11.1442
公主	-11.1446
集巻三	-11.1447
特授	-11.1447
著於	-11.1448
堂下	-11.145
出納	-11.1452
郝	-11.1453
不勞	-11.1453
扃	-11.1454
者自	-11.1454
肴	-11.1455
揀	-11.1455
黽勉	-11.1458
大槩	-11.1459
子夏	-11.146
松江	-11.146
未定	-11.146
天氣	-11.1461
然如	-11.1462
無名	-11.1464
之司	-11.1464
之求	-11.1465
抹	-11.1467
詫	-11.1469
之意也	-11.1469
而臣	-11.1469
歌曰	-11.147
到此	-11.1471
又復	-11.1473
歸于	-11.1474
唯有	-11.1474
云何	-11.1478
能言	-11.1479
舅姑	-11.1481
石門	-11.1482
科目	-11.1484
瘞	-11.1484
㪚	-11.1485
無忘	-11.149
皆曰	-11.149
清夜	-11.1492
白馬	-11.1492
相應	-11.1492
佀	-11.1495
蘇州	-11.1495
甚善	-11.1496
承議郎	-11.1496
朂	-11.1499
臼	-11.15
据	-11.15
侍讀	-11.15
詒	-11.15
而入	-11.1503
長嘯	-11.1505
太古	-11.1506
年四十	-11.1508
八百	-11.1509
取諸	-11.151
件	-11.1513
犒	-11.1515
諸葛	-11.1515
中天	-11.1516
臣今	-11.1517
長歌	-11.1523
於内	-11.1524
事事	-11.1525
洙泗	-11.1525
犂	-11.1526
所部	-11.1526
幸有	-11.1527
朕惟	-11.1531
祥符	-11.1532
野水	-11.1532
不我	-11.1532
遥知	-11.1536
先正	-11.1536
禮也	-11.1538
前軰	-11.1539
揜	-11.1539
籲	-11.154
貿	-11.1541
窈窕	-11.1541
果有	-11.1546
思歸	-11.1548
公既	-11.155
見此	-11.1551
帝曰	-11.1551
鄴	-11.1552
四百	-11.1552
於物	-11.1553
㵼	-11.1554
吼	-11.1554
城市	-11.1556
日長	-11.1558
陰陽	-11.1558
早卒	-11.1561
然以	-11.1562
擷	-11.1568
鸎	-11.1569
今夫	-11.1569
急於	-11.1572
釋之	-11.1578
霆	-11.1579
都督	-11.1581
朝奉大夫	-11.1581
之工	-11.1582
稍稍	-11.1583
吻	-11.1583
薤	-11.1584
二府	-11.1585
丁未	-11.1585
相率	-11.1588
千尺	-11.1589
公墓誌銘	-11.1591
卒于	-11.1595
漣	-11.1595
窆	-11.1596
歸休	-11.1597
有情	-11.1597
孝悌	-11.1598
淹留	-11.1598
鑠	-11.1598
服之	-11.16
不苟	-11.1605
溪水	-11.1612
彂	-11.1614
月色	-11.1616
吾黨	-11.1617
私意	-11.1617
萬民	-11.1617
醉中	-11.1618
下至	-11.162
令尹	-11.162
將仕郎	-11.1621
棣	-11.1622
珥	-11.1625
蓼	-11.1625
多聞	-11.1626
諉	-11.1627
今觀	-11.1628
在朝	-11.1628
也於是	-11.1629
汗漫	-11.163
其業	-11.1631
日月之	-11.1633
無涯	-11.1635
繚	-11.1637
巘	-11.1639
尚饗	-11.164
馬蹄	-11.1641
積善	-11.1641
授以	-11.1643
行中書省	-11.1644
行行	-11.1644
莘	-11.1646
八卦	-11.1647
服除	-11.1648
長史	-11.1651
饕	-11.1653
蓴	-11.1654
蹉跎	-11.1655
蕨	-11.1656
責其	-11.1656
空餘	-11.1657
棟宇	-11.1658
景物	-11.1659
貞觀	-11.1659
若曰	-11.1662
都事	-11.1663
之久	-11.1665
安縣	-11.1665
甓	-11.1665
上官	-11.1666
而用	-11.1667
慱	-11.1669
治民	-11.1672
未為	-11.1673
之規	-11.1677
京城	-11.1677
隠居	-11.1679
尤甚	-11.1679
也答	-11.1681
盪	-11.1683
訾	-11.1686
多故	-11.1687
如此而	-11.169
竊見	-11.1691
去其	-11.1697
剔	-11.1699
百工	-11.1699
分符	-11.17
焉者	-11.1702
奪之	-11.1705
雲夢	-11.1706
鶴山	-11.1706
此行	-11.1706
誰識	-11.1707
觀音	-11.1711
颯	-11.1712
有徳	-11.1712
嵗晚	-11.1713
病中	-11.1713
平安	-11.1714
針	-11.1714
繒	-11.1714
筆端	-11.1717
在昔	-11.1718
疾苦	-11.1719
程氏	-11.1721
也凡	-11.1721
赤松	-11.1723
姑蘇	-11.1724
撞	-11.1724
初心	-11.1725
未見其	-11.1725
臣伏見	-11.1729
堡	-11.1729
豈止	-11.173
形骸	-11.173
第十	-11.1731
規矩	-11.1731
亦皆	-11.1736
看花	-11.1738
田野	-11.174
龍山	-11.1742
儒生	-11.1742
有知	-11.1746
十九年	-11.1749
西漢	-11.175
而必	-11.175
但知	-11.175
留題	-11.1751
孫氏	-11.1751
意者	-11.1752
吕氏	-11.1753
鳳凰	-11.1753
雞鳴	-11.1754
陽縣	-11.1754
不著	-11.1754
萬方	-11.1754
太平之	-11.1755
髙帝	-11.1755
鸚鵡	-11.1757
之積	-11.1759
異之	-11.1759
固巳	-11.1759
于兹	-11.1763
以私	-11.1763
不巳	-11.1764
未到	-11.1765
謹具	-11.1766
場屋	-11.1767
隆興	-11.1768
中正	-11.1769
猶是	-11.1775
漁樵	-11.1778
客至	-11.1781
錮	-11.1782
宣教郎	-11.1783
㕓	-11.1786
見者	-11.1786
犧	-11.1787
者吾	-11.1787
而逝	-11.1789
風動	-11.1789
南豐	-11.1795
僅存	-11.1796
瞑	-11.1797
固宜	-11.1801
元戎	-11.1801
三更	-11.1803
俎	-11.1805
遺恨	-11.1808
賜之	-11.181
相承	-11.1811
嘘	-11.1812
聖㫖	-11.1813
一飽	-11.1813
抉	-11.1814
曦	-11.1815
雨聲	-11.1815
它日	-11.1817
不可及	-11.1818
刑獄	-11.1819
甚厚	-11.182
髙人	-11.182
許之	-11.1821
忽忽	-11.1821
江城	-11.1823
又非	-11.1823
不但	-11.1823
朝暮	-11.1824
崢嶸	-11.1826
烟霞	-11.1827
難於	-11.1827
諄諄	-11.1828
中奉大夫	-11.1829
士氣	-11.183
上供	-11.1831
方將	-11.1834
甚者	-11.1834
有天下	-11.1835
中朝	-11.1836
大率	-11.1836
竅	-11.1837
具瞻	-11.1838
使令	-11.1838
壬子	-11.1838
雩	-11.1839
邊事	-11.1839
頓首	-11.1841
曄	-11.1845
老氏	-11.1846
歴歴	-11.1847
次其韻	-11.1849
泉州	-11.1849
亦可以	-11.1849
陛下之	-11.185
梧桐	-11.185
太府	-11.1851
氣質	-11.1852
一何	-11.1852
陲	-11.1855
三王	-11.1861
甃	-11.1869
荆湖	-11.1869
固辭	-11.1869
無罪	-11.187
婺州	-11.1871
朝請大夫	-11.1872
勛	-11.1872
纛	-11.1874
巔	-11.1877
之懿	-11.1877
契勘	-11.1878
殿中丞	-11.1884
致政	-11.1884
受知	-11.1885
贈太師	-11.1887
牎	-11.1888
琅玕	-11.1888
禮部尚書	-11.189
西園	-11.1891
天祥	-11.1892
西江	-11.1895
悴	-11.1896
甲午	-11.1896
所陳	-11.1896
意思	-11.1897
種種	-11.1898
周子	-11.1898
為吏	-11.1899
逺而	-11.19
汩	-11.1902
紏	-11.1903
年華	-11.1903
開府儀同三司	-11.1904
光景	-11.1906
一嵗	-11.1906
予言	-11.1907
宰臣	-11.1912
風化	-11.1918
市井	-11.1918
興國	-11.1919
吾生	-11.1927
有限	-11.1928
夜坐	-11.1929
叠	-11.193
忠獻	-11.1931
蘖	-11.1932
此樂	-11.1932
金碧	-11.1933
存心	-11.1933
郞	-11.1937
不減	-11.1939
監丞	-11.194
所向	-11.1941
義方	-11.1941
不屑	-11.1941
求諸	-11.1945
叅政	-11.1946
癸酉	-11.1947
不喜	-11.195
有六	-11.1951
貢士	-11.1954
不欺	-11.1955
聦明	-11.1956
行藏	-11.1956
用前韻	-11.1956
其術	-11.1957
漚	-11.1958
壙	-11.1958
拖	-11.1961
滄洲	-11.1961
升堂	-11.1961
嶷	-11.1962
湖廣	-11.1965
君為	-11.1967
休命	-11.1968
庚辰	-11.1968
何止	-11.197
〇	-11.197
之雄	-11.1974
蘧	-11.1976
過此	-11.1978
月日	-11.1978
之境	-11.1979
使得	-11.1982
史氏	-11.1984
既成	-11.1986
也况	-11.1987
瑰	-11.1989
利病	-11.1989
戕	-11.1991
磴	-11.1991
戸部	-11.1993
不乏	-11.1995
老眼	-11.1995
以病	-11.1997
兩朝	-11.1997
在兹	-11.1999
齋記	-11.1999
鄂州	-11.2
用是	-11.2001
多寡	-11.2003
嶼	-11.2005
乙酉	-11.2006
騖	-11.2007
紫陽	-11.2007
勺	-11.2007
長短	-11.2017
楚人	-11.2018
景祐	-11.2019
買田	-11.202
擎	-11.202
啖	-11.2021
十四年	-11.2021
風日	-11.2022
秣	-11.2024
光禄	-11.2024
亦不可	-11.2024
南來	-11.2025
聞公	-11.2026
䧏	-11.2026
任重	-11.203
容易	-11.2032
難為	-11.2032
韓信	-11.2032
紫芝	-11.2034
真宗	-11.2036
官軍	-11.2036
華亭	-11.2038
聖門	-11.2038
廣平	-11.2039
乃可	-11.2039
制作	-11.204
劉向	-11.204
詩有	-11.2043
萬世之	-11.2044
故老	-11.2045
上林	-11.2046
無害	-11.2047
先賢	-11.2048
匣	-11.2049
三萬	-11.205
親友	-11.2052
不幸而	-11.2052
莅	-11.2053
為先	-11.2054
爵禄	-11.2055
寄語	-11.2058
大將	-11.206
之務	-11.2063
重於	-11.2064
銀河	-11.2065
吾身	-11.2066
裨	-11.2066
擯	-11.2068
天府	-11.2068
蘇軾	-11.2069
喜雨	-11.2073
未報	-11.2074
故雖	-11.2075
大畧	-11.2076
賢良	-11.2076
之室	-11.2077
幡	-11.2078
南歸	-11.2078
甲辰	-11.2078
非無	-11.208
平反	-11.2082
咲	-11.2082
其年	-11.2083
石刻	-11.2085
甲兵	-11.2086
髙士	-11.209
舉子	-11.209
試問	-11.2091
孝思	-11.2091
京西	-11.2093
所生	-11.2093
扶桑	-11.2093
四世	-11.2094
獨坐	-11.2095
豈得	-11.2096
体	-11.2096
落葉	-11.2096
都尉	-11.2097
黷	-11.2098
是邦	-11.2098
之譏	-11.2099
鍾山	-11.21
亦豈	-11.21
記曰	-11.2101
鳥獸	-11.2103
正當	-11.2107
先覺	-11.2107
經世	-11.2108
周公之	-11.211
爾等	-11.2112
雞犬	-11.2115
二十七日	-11.2118
口宣	-11.212
也雖	-11.2121
無聊	-11.2121
曲江	-11.2122
薦之	-11.2122
信之	-11.2124
崇寧	-11.2124
朱文公	-11.2125
䂓	-11.2125
之稱	-11.2125
四海之	-11.2126
𬞞	-11.2127
下風	-11.2127
浮生	-11.2127
之秀	-11.2127
彬	-11.2128
伏念	-11.2129
太廟	-11.2132
楊公	-11.2133
大府	-11.2133
往事	-11.2134
老僧	-11.2134
前修	-11.2135
至和	-11.2137
器之	-11.214
曙	-11.2141
䨇	-11.2141
司理	-11.2145
荘子	-11.2147
問曰	-11.2148
舊時	-11.215
獄訟	-11.2151
人主之	-11.2153
樞密院	-11.2153
三復	-11.2154
十有四	-11.2156
逢人	-11.2156
讞	-11.2156
拏	-11.2157
聞見	-11.2157
也至於	-11.2158
有九	-11.2159
欲盡	-11.2159
金帛	-11.2161
弑	-11.2161
雨餘	-11.2162
悵望	-11.2162
杓	-11.2168
筒	-11.2169
插	-11.217
亦欲	-11.2171
之舉	-11.2173
維摩	-11.2173
魯直	-11.2174
殿下	-11.2175
踰年	-11.2175
兩淮	-11.2176
琮	-11.2176
以觀	-11.2176
國士	-11.2177
也後	-11.2179
尤為	-11.2183
何足以	-11.2185
也是以	-11.2186
疚	-11.2188
壯士	-11.2189
壼	-11.219
是豈	-11.219
餘慶	-11.2191
同姓	-11.2193
餘年	-11.2196
雲雨	-11.2201
一寸	-11.2202
墓表	-11.2203
壬申	-11.2205
舊學	-11.2206
暮雲	-11.2207
建昌	-11.2209
孤城	-11.2213
芘	-11.2213
百餘年	-11.2213
孤雲	-11.2214
屣	-11.2215
館閣	-11.2215
𣙜	-11.2215
諏	-11.2217
之急	-11.2217
擴	-11.2217
之田	-11.2218
芝蘭	-11.2219
水陸	-11.2219
春夏	-11.222
士夫	-11.2225
於國	-11.2227
總領	-11.2228
三嵗	-11.2228
官職	-11.2229
鴟	-11.2231
蛻	-11.2232
聒	-11.2234
訐	-11.2236
不可為	-11.2237
今以	-11.2238
公爲	-11.2239
承㫖	-11.224
明徳	-11.2241
而遽	-11.2242
聦	-11.2244
有素	-11.2246
四五	-11.2246
朝散大夫	-11.2247
諸縣	-11.2247
噬	-11.2248
登樓	-11.2248
大德	-11.2249
喜見	-11.2253
罔極	-11.2254
無斁	-11.2255
臣嘗	-11.2255
不正	-11.2256
則可以	-11.2258
記云	-11.2258
而猶	-11.2261
大觀	-11.2261
又將	-11.2261
西來	-11.2261
不憂	-11.2264
泚	-11.2266
山房	-11.2267
高祖	-11.2267
當自	-11.2269
録事	-11.2269
霄漢	-11.2271
公侯	-11.2275
其樂	-11.2278
鏗	-11.2279
古風	-11.2279
桑麻	-11.228
二十九	-11.2284
罔不	-11.2285
元符	-11.2286
邦家	-11.2286
絃歌	-11.2287
不就	-11.2288
意欲	-11.2288
雖在	-11.229
拄	-11.2291
祠堂	-11.2293
庚寅	-11.2294
國論	-11.2295
承明	-11.2296
廣州	-11.2296
鵷	-11.2296
胙	-11.2298
筆硯	-11.2299
爽氣	-11.23
府事	-11.2302
神物	-11.2302
國太夫人	-11.2309
笞	-11.2309
頷	-11.231
君曰	-11.2311
之號	-11.2311
浣	-11.2317
羅浮	-11.2318
空谷	-11.2319
壬	-11.2322
水雲	-11.2324
人或	-11.2326
齊魯	-11.2326
罇	-11.2326
旬日	-11.2328
䋲	-11.2328
名教	-11.2331
留滯	-11.2331
寵榮	-11.2332
相依	-11.2332
所施	-11.2334
中興之	-11.2336
人以為	-11.2336
其初	-11.2337
入朝	-11.2337
蠢	-11.2338
好事者	-11.2339
櫝	-11.2339
主之	-11.2339
瓌	-11.2339
周行	-11.234
涂	-11.2341
驍	-11.2341
遒	-11.2341
卒於	-11.2342
龍飛	-11.2343
著作佐郎	-11.2345
吾母	-11.2345
不雨	-11.2345
賢能	-11.2346
仕者	-11.2347
保其	-11.2352
説文	-11.2354
片言	-11.2354
次韵	-11.2354
知道	-11.2354
里之	-11.2354
存乎	-11.2354
也既	-11.2355
患難	-11.2355
藝祖	-11.2357
君子小人	-11.2358
莾	-11.2358
多難	-11.2359
辭曰	-11.2359
某啓	-11.236
講論	-11.2361
萬緡	-11.2362
可能	-11.2363
先生曰	-11.2366
上表	-11.2368
瀘	-11.2368
頗有	-11.237
東漢	-11.237
哉然	-11.2375
流光	-11.2376
以便	-11.2378
遂使	-11.2379
有不可	-11.238
編修	-11.2381
宣室	-11.2382
洞天	-11.2383
潞	-11.2385
安道	-11.2385
知止	-11.2388
權衡	-11.2388
坂	-11.2388
殽	-11.2389
非我	-11.2392
登科	-11.2393
百千	-11.2393
詩禮	-11.2393
天下士	-11.2394
推其	-11.2394
萱	-11.2396
文武之	-11.2399
以寛	-11.24
益堅	-11.2403
天下事	-11.2405
以利	-11.2407
聞命	-11.2408
皆知	-11.2413
且復	-11.2415
移文	-11.2415
庚午	-11.2417
以資	-11.2417
麋鹿	-11.2417
彖	-11.2418
老來	-11.2419
祧	-11.2419
欲去	-11.2421
州人	-11.2421
謂公	-11.2423
入於	-11.2423
得無	-11.2424
子路	-11.2425
或云	-11.2427
諸家	-11.2432
崧	-11.2434
中都	-11.2434
無塵	-11.2436
紛然	-11.2441
婿	-11.2445
嫩	-11.2447
潄	-11.2447
廢興	-11.2447
自奮	-11.2447
縑	-11.2447
先生文集	-11.2449
叢林	-11.2449
贑	-11.2449
丁亥	-11.245
小民	-11.2451
萬巻	-11.2452
斯世	-11.2455
之備	-11.2455
告之曰	-11.2456
到官	-11.2459
痾	-11.2463
剏	-11.2463
葆	-11.2464
無知	-11.2464
君恩	-11.2465
搔	-11.2474
之姿	-11.2475
罅	-11.2478
無端	-11.2478
無常	-11.2478
兵革	-11.2479
陬	-11.2481
公卿大夫	-11.2482
旂	-11.2489
而食	-11.2491
者常	-11.2491
北闕	-11.2495
此所以	-11.2496
飱	-11.2496
汲黯	-11.2498
東野	-11.25
昭昭	-11.25
從軍	-11.2502
物理	-11.2503
未歸	-11.2505
權臣	-11.2505
者不可	-11.2505
面目	-11.2505
吕公	-11.2505
愛惜	-11.251
者以其	-11.2511
之誅	-11.2512
樽前	-11.2513
杜甫	-11.2516
放翁	-11.2516
矣哉	-11.2518
父母之	-11.2518
廷尉	-11.2519
青松	-11.2519
不聽	-11.252
巉	-11.2524
群臣	-11.2524
若人	-11.2524
弧	-11.2525
同官	-11.2526
姒	-11.2527
彥	-11.2528
挽詩	-11.2529
自覺	-11.253
春事	-11.2532
供奉	-11.2534
大哉	-11.2535
相視	-11.2535
各自	-11.2536
東宫	-11.2536
州事	-11.2537
之側	-11.254
恩澤	-11.254
本自	-11.2542
險阻	-11.2542
唐太宗	-11.2543
一觴	-11.2545
也若夫	-11.2547
心如	-11.2549
大成	-11.2551
小雨	-11.2551
飛鴻	-11.2552
文王之	-11.2555
校尉	-11.2555
奏請	-11.2555
則不可	-11.2556
其來	-11.2559
經歴	-11.2559
予謂	-11.2559
如君	-11.257
坐客	-11.2572
酥	-11.2572
聖天子	-11.2574
也必	-11.2577
曲直	-11.2579
出身	-11.258
此是	-11.2581
無負	-11.2582
考諱	-11.2582
其成	-11.2585
秋夜	-11.2586
竭力	-11.2586
百憂	-11.2588
筦	-11.2588
朝散郎	-11.2589
酤	-11.259
二十七	-11.2591
和靖	-11.2593
舸	-11.2594
之歎	-11.2595
謂此	-11.2597
公朝	-11.2598
天下而	-11.2598
老農	-11.2599
為郡	-11.2599
不齊	-11.26
旦暮	-11.26
鬛	-11.2601
卜居	-11.2601
舊制	-11.2602
幅巾	-11.2602
左司	-11.2603
珊瑚	-11.2604
旻	-11.2605
東路	-11.2605
笑我	-11.2607
瘡	-11.2608
黄氏	-11.261
之好	-11.2611
俛仰	-11.2611
則民	-11.2611
入官	-11.2612
天下者	-11.2614
魚鳥	-11.2615
循良	-11.2615
二十二	-11.2617
辛丑	-11.2618
世為	-11.2618
愷	-11.2618
想像	-11.2618
也子	-11.262
復來	-11.2622
慎按	-11.2622
之次	-11.2623
聖學	-11.2623
綍	-11.2623
濳	-11.2624
只恐	-11.263
泰定	-11.2632
之念	-11.2633
安仁	-11.2634
潼	-11.2634
墳墓	-11.2634
締	-11.2637
脆	-11.2637
蓮花	-11.2637
處置	-11.2638
哥	-11.2638
忽驚	-11.2639
立功	-11.264
何嘗	-11.2642
有愧	-11.2642
五字	-11.2643
經理	-11.2643
東閣	-11.2644
人望	-11.2644
筋	-11.2645
年九月	-11.2645
告于	-11.2646
其大者	-11.2646
凡所	-11.2646
言路	-11.2651
壬寅	-11.2653
男兒	-11.2653
安撫使	-11.2654
功夫	-11.2654
何曾	-11.2655
困於	-11.2655
不歸	-11.2658
嶺南	-11.2661
累日	-11.2661
誰敢	-11.2664
必至	-11.2665
温公	-11.2666
風濤	-11.2667
檐	-11.2669
之辨	-11.2669
㝡	-11.2669
款	-11.267
第六	-11.2671
傾倒	-11.2672
睡起	-11.2673
吾徒	-11.2675
未了	-11.2675
我老	-11.2677
其任	-11.2678
明矣	-11.268
欲為	-11.2681
以廣	-11.2682
丘園	-11.2683
臣僚	-11.2684
今復	-11.2686
虵	-11.2689
勝負	-11.269
不勝其	-11.2696
細民	-11.2696
瞻望	-11.2696
五馬	-11.2697
百丈	-11.27
相度	-11.2701
絜	-11.2701
韞	-11.2703
戶	-11.2704
度支	-11.2705
三家	-11.2705
旃	-11.2711
豈以	-11.2711
湖水	-11.2713
眎	-11.2713
稚子	-11.2714
其字	-11.2714
爾以	-11.2716
夏日	-11.2716
哈	-11.2716
承天	-11.2717
出扵	-11.2718
奉常	-11.2718
不可見	-11.2719
賢愚	-11.2725
古寺	-11.2725
雖非	-11.2726
大功	-11.2727
饒州	-11.273
駝	-11.2731
齧	-11.2732
鬂	-11.2733
脾	-11.2734
又為	-11.2734
蹶	-11.2735
特立	-11.2736
推轂	-11.2739
五經	-11.2739
東家	-11.2739
大都	-11.2739
二十三日	-11.274
母夫人	-11.2742
臨水	-11.2745
滿地	-11.2746
三十里	-11.2746
煙霞	-11.2748
擇其	-11.2751
尚書省	-11.2752
叅軍	-11.2752
志士	-11.2754
名世	-11.2754
遂令	-11.2754
孝經	-11.2756
何心	-11.2757
沽酒	-11.2761
穡	-11.2762
所遇	-11.2763
千户	-11.2764
妻孥	-11.2764
風景	-11.2765
不衰	-11.2765
丁酉	-11.2766
杜子美	-11.2767
掘	-11.2767
不屈	-11.2769
所記	-11.2769
身在	-11.277
迄今	-11.277
秦人	-11.277
吾將	-11.2772
風煙	-11.2773
有才	-11.2774
乙未	-11.2775
萬邦	-11.2775
城縣	-11.2775
便宜	-11.2776
東籬	-11.2776
矣某	-11.2777
隧	-11.2779
恩榮	-11.2779
廨	-11.2779
師魯	-11.278
信州	-11.278
乎天	-11.2781
要當	-11.2783
掃除	-11.2784
兊	-11.2785
忽聞	-11.2785
朱顔	-11.2786
四面	-11.2786
為難	-11.2789
此所謂	-11.2792
曽大父	-11.2793
庻㡬	-11.2793
砥	-11.2795
淄	-11.2796
浙江	-11.2796
喫	-11.2797
去嵗	-11.2798
制朕	-11.2799
誦之	-11.2799
我輩	-11.2801
媪	-11.2802
深山	-11.2803
雷雨	-11.2803
則當	-11.2804
吳興	-11.2805
多方	-11.2806
江河	-11.2806
乎吾	-11.2807
十有八	-11.2809
為法	-11.2809
原註	-11.281
通直郎	-11.2811
兵火	-11.2812
有勞	-11.2813
衣服	-11.2814
翺翔	-11.2814
蕉	-11.2815
天下幸甚	-11.2815
二十四日	-11.2815
次韻和	-11.2817
經略	-11.2817
唱和	-11.2818
人道	-11.2818
枯槁	-11.2818
春秋之	-11.2822
非惟	-11.2822
懐抱	-11.2823
鴛鴦	-11.2825
是心	-11.2825
比之	-11.2827
墅	-11.2827
萬夀	-11.2828
煙雨	-11.2829
祕書	-11.2829
元元	-11.283
其失	-11.283
必有以	-11.2832
方來	-11.2832
隂陽之	-11.2832
其傳	-11.2832
家學	-11.2834
者不過	-11.2835
庭下	-11.2838
氏贈	-11.2839
暘	-11.2839
天下無	-11.2842
憂勤	-11.2844
穽	-11.2844
五里	-11.2844
襦	-11.2844
誡	-11.2845
水流	-11.2846
賈生	-11.2846
新年	-11.2848
而言之	-11.285
獨行	-11.2854
前日之	-11.2854
感動	-11.2856
悵然	-11.2856
大儒	-11.2856
尊酒	-11.2857
忠恕	-11.2859
隱居	-11.2862
以天下	-11.2864
東觀	-11.2866
少游	-11.2868
相屬	-11.2872
之源	-11.2872
幃	-11.2877
覘	-11.2879
河間	-11.288
三昧	-11.2882
之質	-11.2883
芳菲	-11.2883
所書	-11.2884
劳	-11.2884
之愚	-11.2887
甘心	-11.2888
去來	-11.2889
也陛下	-11.2889
内則	-11.289
右軍	-11.2892
先天	-11.2892
吳越	-11.2892
花木	-11.2895
劉君	-11.2896
藹然	-11.2898
邠	-11.29
伏羲	-11.29
荷花	-11.2904
杯酒	-11.2905
兩月	-11.2906
出乎	-11.2906
吏部尚書	-11.2907
後之人	-11.2909
撩	-11.291
嵇	-11.2911
諤	-11.2911
侍御	-11.2913
過我	-11.2913
邦之	-11.2914
天官	-11.2915
又能	-11.2917
今後	-11.2917
其形	-11.292
月照	-11.292
通鑑	-11.2921
為本	-11.2922
白水	-11.2922
莎	-11.2928
殃	-11.2928
幘	-11.2928
不恤	-11.2928
惟我	-11.2929
六首	-11.2929
風雅	-11.2929
聶	-11.293
小學	-11.293
二十一日	-11.2931
喜怒	-11.2931
道場	-11.2934
不假	-11.2939
其詳	-11.2939
伽	-11.294
嘿	-11.2941
櫛	-11.2943
年五月	-11.2944
郴	-11.2944
形於	-11.2949
二君	-11.2956
史館	-11.2956
但有	-11.2957
殊不	-11.2958
鰲	-11.2958
堂前	-11.2959
一邑	-11.2959
蹔	-11.2959
辛亥	-11.296
安敢	-11.296
棧	-11.296
家家	-11.2961
馳驅	-11.2961
大軍	-11.2961
起而	-11.2963
早晚	-11.2964
湫	-11.2964
始見	-11.2969
乙亥	-11.2974
乎故	-11.2974
閶闔	-11.2977
晷	-11.2977
志於	-11.2978
開門	-11.2979
帥臣	-11.2979
於衆	-11.2979
三曰	-11.298
睢	-11.2983
懸知	-11.2987
神人	-11.2987
謝表	-11.2989
洵	-11.299
及時	-11.2991
飢寒	-11.2991
淋漓	-11.2992
松楸	-11.2993
紉	-11.2993
藏書	-11.2994
不孝	-11.2995
譎	-11.2997
當國	-11.2997
在廷	-11.3
雲霧	-11.3
東湖	-11.3001
盖有	-11.3001
清白	-11.3002
不得巳	-11.3004
好生	-11.3004
華屋	-11.3005
相尋	-11.3006
萬家	-11.3006
癸丑	-11.3007
窮理	-11.3007
則不然	-11.3008
堯夫	-11.3008
紬	-11.3008
剗	-11.3009
墾	-11.301
逺遊	-11.301
其誰	-11.3011
之親	-11.3011
之所為	-11.3011
曰卿	-11.3012
元和	-11.3013
絕	-11.3014
生理	-11.3015
宛轉	-11.302
精微	-11.3021
孟氏	-11.3023
艘	-11.3023
不窮	-11.3024
荆南	-11.3026
不類	-11.3026
右某	-11.3028
大略	-11.3028
國體	-11.3029
禽獸	-11.3031
得賢	-11.3032
禮部侍郎	-11.3034
節物	-11.3037
慇懃	-11.3041
鴻鴈	-11.3043
所出	-11.3047
誠心	-11.3048
前賢	-11.3051
仁義之	-11.3052
報稱	-11.3052
永叔	-11.3054
無路	-11.3055
一體	-11.3056
韙	-11.3057
纊	-11.3058
消長	-11.3059
珉	-11.306
文忠	-11.306
虀	-11.3061
昊天	-11.3066
字韻	-11.307
因得	-11.307
柑	-11.3072
英宗	-11.3073
立身	-11.3073
送行	-11.3074
以供	-11.3075
言之則	-11.3076
甚衆	-11.3077
太湖	-11.3079
未許	-11.3083
樓閣	-11.3084
血氣	-11.3085
月滿	-11.3085
者如此	-11.3086
聞風	-11.3087
惟爾	-11.3091
食邑	-11.3091
讙	-11.3092
雲林	-11.3092
努力	-11.3093
忘言	-11.3093
諮	-11.3094
留别	-11.3094
筯	-11.3095
號曰	-11.3096
棄之	-11.3097
復古	-11.3098
南安	-11.3105
鑱	-11.3108
潑	-11.3109
豈但	-11.3109
喟然	-11.3109
先師	-11.311
驪	-11.3113
簡書	-11.3116
月中	-11.3116
聚散	-11.3116
比者	-11.3117
南浦	-11.312
咨嗟	-11.3123
紫微	-11.3124
此固	-11.3125
購	-11.3126
節度使	-11.3128
蒼龍	-11.3129
哉故	-11.3132
吾言	-11.3132
供職	-11.3133
髙麗	-11.3137
浮沉	-11.3137
境内	-11.3139
之大者	-11.3139
甲戌	-11.314
下筆	-11.314
天香	-11.3141
吠	-11.3141
朝士	-11.3142
衿	-11.3142
有田	-11.3145
敵國	-11.3145
列子	-11.3147
者十	-11.3147
無求	-11.3148
講明	-11.3148
極目	-11.3149
交游	-11.315
廣南	-11.3152
内侍	-11.3152
君臣之	-11.3153
摛	-11.316
丁丑	-11.316
蓬蒿	-11.3161
道院	-11.3163
于後	-11.3164
羅漢	-11.3166
具位	-11.3168
禘	-11.3169
聞人	-11.317
哉此	-11.317
有文	-11.3171
少而	-11.3171
發之	-11.3173
詩賦	-11.3173
引去	-11.3174
諦	-11.3174
衒	-11.3176
晚年	-11.3178
有法	-11.318
無與	-11.318
百川	-11.3181
世界	-11.3189
䆳	-11.3192
舛	-11.3192
璣	-11.3193
絢	-11.3193
葬於	-11.3196
施設	-11.3198
之智	-11.3198
我公	-11.3199
朝野	-11.32
窮通	-11.3202
瀛洲	-11.3202
二十餘年	-11.3203
舊聞	-11.3203
世傳	-11.3203
在京	-11.3204
來往	-11.3205
碩人	-11.3206
膏澤	-11.3206
衰翁	-11.3206
自許	-11.3207
戊申	-11.321
察臣	-11.3214
者誰	-11.3217
其族	-11.3218
不異	-11.3219
之賦	-11.3219
魯國	-11.322
之君子	-11.322
百花	-11.3223
天寳	-11.3223
摩挲	-11.3223
借問	-11.3224
孕	-11.3225
之神	-11.3226
迸	-11.3226
不自知	-11.3227
熖	-11.3227
不愛	-11.3227
辛酉	-11.3228
怱怱	-11.3228
如彼	-11.323
事理	-11.3231
相隨	-11.3232
亭記	-11.3234
遲遲	-11.3235
重修	-11.3237
得其人	-11.3237
臣恐	-11.324
諜	-11.3241
凡此	-11.3241
文忠公	-11.3241
難忘	-11.3244
皎皎	-11.3245
以故	-11.3245
䛕	-11.3245
誠齋	-11.3248
不常	-11.3248
以仁	-11.3251
年七月	-11.3254
内有	-11.3255
大字	-11.3256
古意	-11.3256
伏見	-11.3257
翎	-11.3258
非才	-11.326
黄庭	-11.326
享年六十	-11.326
煦	-11.326
綉	-11.326
平章政事	-11.3261
不墜	-11.3262
某氏	-11.3263
坐視	-11.3266
天門	-11.3267
之暇	-11.3268
伊洛	-11.3268
遭逢	-11.3268
郡君	-11.327
單于	-11.3271
在官	-11.3273
戊辰	-11.3273
委任	-11.3273
是嵗	-11.3277
列於	-11.3277
興廢	-11.3278
寄聲	-11.3282
延平	-11.3283
四顧	-11.3283
維揚	-11.3283
所請宜不允	-11.3284
從官	-11.3285
劉郎	-11.3285
而吾	-11.3289
一面	-11.3289
遂成	-11.3291
籙	-11.3295
有事	-11.3295
昔在	-11.3296
怖	-11.3296
之羙	-11.3296
郡侯	-11.3299
公奏	-11.3301
忽見	-11.3301
有識	-11.3303
復還	-11.3305
但覺	-11.3306
不虞	-11.3307
相顧	-11.3307
民無	-11.3308
燃	-11.3308
之端	-11.331
丙寅	-11.331
圖之	-11.3312
商賈	-11.3312
不患	-11.3313
恭儉	-11.3316
進封	-11.3319
之事也	-11.3322
嗚	-11.3323
而至於	-11.3324
竺	-11.3324
滓	-11.3326
本根	-11.3327
而安	-11.3328
二十六	-11.3328
成周	-11.3329
孰若	-11.3329
軍政	-11.3331
疑是	-11.3335
常在	-11.3335
下馬	-11.3336
日下	-11.3337
落成	-11.3342
奉親	-11.3344
不擇	-11.3345
蓋有	-11.3345
斟酌	-11.3346
肺肝	-11.3347
敷奏	-11.3347
池塘	-11.3347
者即	-11.3349
大厦	-11.335
出山	-11.335
三峽	-11.3352
起舞	-11.3352
新除	-11.3353
兼侍讀	-11.3354
碧玉	-11.3354
本草	-11.3355
将以	-11.3355
青詞	-11.3355
皆然	-11.3358
何求	-11.3359
百人	-11.336
攅	-11.3361
迢迢	-11.3361
齟齬	-11.3362
夢魂	-11.3362
絶人	-11.3363
大理評事	-11.3365
住持	-11.3365
有時而	-11.3365
藥石	-11.3366
草書	-11.3366
咸平	-11.3371
父某	-11.3372
可見矣	-11.3372
𣲖	-11.3374
蕭何	-11.3374
二老	-11.3376
春官	-11.3378
某自	-11.3378
茆	-11.3379
豈必	-11.3379
鱠	-11.3379
賴有	-11.3379
壬午	-11.338
歸去來	-11.338
薊	-11.338
天宇	-11.3381
吾知	-11.3383
華髪	-11.3384
有請	-11.3385
道傍	-11.3386
起發	-11.3387
二詩	-11.3389
于人	-11.339
雪後	-11.3392
巳而	-11.3392
同歸	-11.3396
卵	-11.3397
睫	-11.3397
曰昔	-11.3398
竆	-11.3398
閭閻	-11.3398
有云	-11.3404
豈弟	-11.3404
固不可	-11.3406
哉今	-11.3408
為治	-11.341
百辟	-11.3412
以居	-11.3414
夥	-11.3414
臚	-11.3414
無窮之	-11.3415
白衣	-11.3418
越州	-11.342
百戰	-11.3421
終其身	-11.3422
黜陟	-11.3422
親親	-11.3424
自明	-11.3424
甚盛	-11.3424
也故曰	-11.3426
失職	-11.343
奉公	-11.3431
其聲	-11.3431
刈	-11.3433
不惑	-11.3433
詳見前	-11.3436
洪州	-11.3437
從政	-11.3437
孤忠	-11.3439
師古曰	-11.3441
司户	-11.3445
匏	-11.3449
漁父	-11.345
三絶	-11.345
鬯	-11.3453
巋然	-11.3454
雲門	-11.3458
危坐	-11.3459
一水	-11.3461
如此其	-11.3463
逭	-11.3464
土地	-11.3464
顒	-11.3464
玠	-11.3465
周氏	-11.3465
不甚	-11.3465
終無	-11.3466
一飯	-11.3469
陳乞	-11.3471
閩中	-11.3471
吾父	-11.3472
楊花	-11.3472
清秋	-11.3477
槍	-11.3479
因縁	-11.3479
此數	-11.348
稼穡	-11.348
眼明	-11.348
上章	-11.3481
嘉其	-11.3482
以救	-11.3482
轟	-11.3483
両	-11.3484
祺	-11.3485
大有	-11.3491
學古	-11.3492
無違	-11.3492
專以	-11.3492
流年	-11.3494
品題	-11.3494
我行	-11.3497
是爲	-11.3498
鴛	-11.3499
彎	-11.3499
之險	-11.3499
之國	-11.35
安定	-11.3503
能詩	-11.3504
大將軍	-11.3504
如來	-11.3505
憲宗	-11.3506
儕	-11.3506
千騎	-11.3509
欲知	-11.3516
孩	-11.3516
有志於	-11.3517
球	-11.3517
政令	-11.3519
貧者	-11.352
無力	-11.3521
麽	-11.3521
甲科	-11.3521
小者	-11.3522
此間	-11.3522
之游	-11.3522
即以	-11.3524
將何	-11.3525
如是而	-11.3526
世路	-11.3528
樓上	-11.3529
雇	-11.3531
為重	-11.3531
髙卧	-11.3533
居多	-11.3534
燥	-11.3535
窶	-11.3535
洙	-11.3538
重兵	-11.3539
庶人	-11.354
格物	-11.3541
致知	-11.3541
年月日	-11.3543
之操	-11.3544
亦可謂	-11.3545
風起	-11.3549
之策	-11.3551
都門	-11.3552
視事	-11.3553
何則	-11.3554
白晝	-11.3554
亡矣	-11.3556
以給	-11.3558
圖報	-11.3561
一夢	-11.3563
奪其	-11.3564
者焉	-11.3565
潢	-11.3566
寥	-11.3566
螻蟻	-11.3568
嗟予	-11.357
秋來	-11.357
綢繆	-11.3571
與余	-11.3571
鵞	-11.3572
死矣	-11.3572
禮法	-11.3573
乃復	-11.3573
九華	-11.3575
甲乙	-11.3577
千齡	-11.3577
拭	-11.3578
自從	-11.358
釣魚	-11.358
驄	-11.358
公道	-11.358
族人	-11.3581
無物	-11.3581
詩話	-11.3583
士林	-11.3584
嫂	-11.3586
乎今	-11.3587
衰老	-11.3589
修竹	-11.3589
朝議大夫	-11.359
紫宸	-11.3597
尤難	-11.3598
兒孫	-11.3598
爲我	-11.3598
之科	-11.3601
對酒	-11.3601
等事	-11.3603
屛	-11.3603
宋玉	-11.3604
湜	-11.3605
公嘗	-11.3608
召試	-11.3608
第七	-11.3609
所云	-11.3612
濟時	-11.3616
荼	-11.3618
湄	-11.3619
其源	-11.3619
黄葉	-11.3619
政府	-11.3621
之殊	-11.3621
各以	-11.3625
客有	-11.3634
何言	-11.3634
難矣	-11.3635
葭	-11.3638
折腰	-11.3639
正位	-11.3639
皋	-11.364
鄱陽	-11.364
更相	-11.3641
可信	-11.3641
㑹合	-11.3641
道塲	-11.3645
掃地	-11.3648
魏國	-11.3649
旣而	-11.3649
浮圖	-11.3649
立春	-11.3651
惻然	-11.3652
何爲	-11.3654
蛾眉	-11.3655
籜	-11.3655
呉興	-11.3656
遺民	-11.3656
縶	-11.3657
三十二	-11.3657
山長	-11.3657
清絶	-11.366
鷗鷺	-11.3661
惶恐	-11.3661
臭味	-11.3661
成書	-11.3664
所樂	-11.3665
事實	-11.3666
改官	-11.3668
曰君子	-11.3669
餘杭	-11.3669
庀	-11.367
于民	-11.3671
燕雀	-11.3671
入門	-11.3671
醺	-11.3672
歘	-11.3675
精舍	-11.3677
官舍	-11.3677
承乏	-11.3678
榮辱	-11.3678
道家	-11.3678
謝賜	-11.3679
億萬	-11.3679
山上	-11.368
何啻	-11.368
至順	-11.3682
郷里	-11.3684
日星	-11.3684
遺老	-11.3684
字字	-11.3684
月夜	-11.3685
者不能	-11.3685
小舟	-11.3685
然後可以	-11.3685
但以	-11.3686
厚薄	-11.3686
至若	-11.3689
道心	-11.369
笄	-11.3691
輪囷	-11.3693
得句	-11.3696
賢不肖	-11.3697
觀察	-11.3697
八人	-11.3699
華陽	-11.37
子房	-11.3703
能事	-11.3703
子方	-11.3705
直上	-11.3706
仕進	-11.3706
向人	-11.3707
豢	-11.371
姑息	-11.371
芟	-11.3712
于斯	-11.3712
也又曰	-11.3714
西掖	-11.3714
戊子	-11.3717
有八	-11.3718
正大	-11.3718
鎮江	-11.3718
後日	-11.3719
殘年	-11.3719
臣雖	-11.372
二十餘	-11.3722
有七	-11.3722
此說	-11.3722
衡門	-11.3723
盖其	-11.3724
執法	-11.3726
不住	-11.3727
鷁	-11.3727
登第	-11.3727
擣	-11.3728
吾何	-11.3728
尚多	-11.373
其終	-11.3734
閭巷	-11.3735
一錢	-11.3738
不載	-11.374
人能	-11.374
長句	-11.374
精明	-11.3741
末路	-11.3741
進呈	-11.3742
聞君	-11.3743
督府	-11.3743
翼翼	-11.3744
之區	-11.3744
瀰	-11.3745
甚明	-11.3745
珠璣	-11.3747
沓	-11.3747
怳	-11.3748
只在	-11.3749
有用	-11.3749
居中	-11.375
吾宗	-11.375
之㣲	-11.3751
設施	-11.3752
不踰	-11.3754
並見	-11.3754
舊遊	-11.3757
二十二日	-11.3758
塜	-11.3759
以授	-11.3761
得官	-11.3762
乃欲	-11.3763
一丘	-11.3765
士君子	-11.3765
路總管	-11.3766
三百年	-11.3767
安居	-11.3767
士論	-11.3768
歐公	-11.3768
原闕	-11.3771
適當	-11.3772
尺寸	-11.3772
臨御	-11.3774
曇	-11.3777
老大	-11.3778
笈	-11.3779
轉運判官	-11.3779
蹴	-11.3779
縣太君	-11.378
泥塗	-11.378
餼	-11.3781
譔	-11.3781
纍	-11.3781
以佐	-11.3781
悞	-11.3782
山南	-11.3784
長卿	-11.3788
皇甫	-11.379
四字	-11.3793
諸友	-11.3795
山海	-11.3796
作新	-11.3798
分韻得	-11.3798
樂道	-11.3798
不飲	-11.3799
女適	-11.38
不渝	-11.3802
去矣	-11.3802
言動	-11.3803
統制	-11.3806
妄意	-11.3813
不害	-11.3815
涪	-11.3815
𬗋	-11.3816
雙溪	-11.3817
山行	-11.3817
錬	-11.3817
前有	-11.3818
其類	-11.3819
豈是	-11.382
徳音	-11.3825
不特	-11.3826
屈指	-11.3829
文嗚呼	-11.3829
命公	-11.383
金馬	-11.383
不記	-11.3832
杲	-11.3833
隈	-11.3833
黥	-11.3834
霅	-11.3834
鷙	-11.3834
延年	-11.3835
展轉	-11.3836
浩歌	-11.3839
定國	-11.384
精誠	-11.384
以至於	-11.3842
何耶	-11.3843
風前	-11.3844
故以	-11.3845
發運	-11.3846
雨雪	-11.3849
茨	-11.3849
戊午	-11.385
萬萬	-11.385
亳	-11.3852
餒	-11.3852
天爵	-11.3853
三品	-11.3853
用韻	-11.386
制勅	-11.3862
尊者	-11.3862
使指	-11.3866
親舊	-11.3867
可稱	-11.3868
觥	-11.3868
享年七十	-11.3869
溷	-11.3869
清河	-11.3871
百五十	-11.3871
伏讀	-11.3871
阡陌	-11.3871
彪	-11.3872
闕下	-11.3872
鈐	-11.3873
及今	-11.3873
璽	-11.3878
死於	-11.3881
降詔	-11.3883
本原	-11.3884
哉夫	-11.3885
時雨	-11.3886
已知	-11.3887
旭	-11.3888
得疾	-11.3891
詔令	-11.3892
夢裏	-11.3893
紹熈	-11.3895
三字	-11.3896
今嵗	-11.3898
暮春	-11.3898
其語	-11.3899
受業	-11.3899
新法	-11.3899
矣雖然	-11.3899
時來	-11.3899
龍泉	-11.39
三五	-11.3901
兩府	-11.3902
慎勿	-11.3906
塹	-11.3906
緼	-11.3906
㺯	-11.3907
却是	-11.3909
鑪	-11.3909
周易	-11.391
致君	-11.391
余言	-11.3912
猶子	-11.3915
之喪	-11.3916
誤恩	-11.3917
果能	-11.3917
聖俞	-11.3919
胡公	-11.3921
梨花	-11.3922
漢陽	-11.3923
犁	-11.3924
不備	-11.3924
不驚	-11.3925
南昌	-11.3926
而後已	-11.3927
以謝	-11.3927
秀色	-11.3927
而不知其	-11.3928
其鄉	-11.3929
凜	-11.3929
之慮	-11.3935
溪流	-11.3936
了翁	-11.3937
悲歌	-11.3937
者葢	-11.3938
酒杯	-11.3939
蹲	-11.394
㸑	-11.3942
曆	-11.3942
二百年	-11.3943
沛然	-11.3945
慶曆	-11.3945
同郡	-11.3946
故常	-11.3948
於兹	-11.3948
無一事	-11.3949
太清	-11.3952
不見其	-11.3953
便欲	-11.3953
仞	-11.3954
燕山	-11.3958
漉	-11.3958
颺	-11.3958
揉	-11.3959
癘	-11.396
糠	-11.396
八荒	-11.3963
力辭	-11.3963
雖多	-11.3965
醉鄉	-11.3966
料理	-11.3966
特與	-11.3968
其末	-11.3969
泛舟	-11.397
真儒	-11.3971
白樂天	-11.3974
回頭	-11.3976
凡三	-11.3976
盼	-11.3976
枕上	-11.3976
虢	-11.3978
囑	-11.3981
如舊	-11.3981
積雪	-11.3981
桂林	-11.3981
講求	-11.3982
農夫	-11.3982
特降	-11.3983
江邊	-11.3984
兼權	-11.399
如某者	-11.3991
行乎	-11.3992
之感	-11.3993
惜乎	-11.3994
不專	-11.3994
同日	-11.3995
矣嗚呼	-11.3996
體用	-11.3997
夜來	-11.3998
世世	-11.4
泗州	-11.4003
飛花	-11.4003
乗興	-11.4004
誰憐	-11.4005
曽未	-11.401
文祭	-11.401
松柏	-11.4011
過眼	-11.4011
帥府	-11.4014
煒	-11.4014
豈足	-11.4017
周南	-11.4017
世居	-11.4019
出師	-11.4019
臣謂	-11.4019
畬	-11.4019
必求	-11.402
峨	-11.4021
在其中	-11.4022
夜夜	-11.4024
禁林	-11.4025
水邊	-11.4026
紹定	-11.4029
萎	-11.403
如前	-11.4031
自可	-11.4031
九鼎	-11.4034
天開	-11.4034
畫一	-11.4036
中書令	-11.4037
為之記	-11.4037
連日	-11.4038
兵民	-11.4041
飛去	-11.4041
果然	-11.4044
與予	-11.4045
祗服	-11.4045
春意	-11.4045
崑	-11.4047
棲遲	-11.4047
鯁	-11.4047
便可	-11.4047
而求之	-11.4048
茁	-11.4049
虚空	-11.405
滄溟	-11.4051
大雪	-11.4053
劉子	-11.4055
之累	-11.4055
知命	-11.4057
河水	-11.4057
致身	-11.4059
守道	-11.4059
下士	-11.406
病起	-11.4063
耳目之	-11.4066
四子	-11.4069
深厚	-11.407
宜乎	-11.407
鹵	-11.407
無間言	-11.4072
重九	-11.4073
揮毫	-11.4073
樂善	-11.4073
嘗試	-11.4073
字畫	-11.4073
何堪	-11.4074
千五百	-11.4074
過矣	-11.4076
諱某	-11.4077
千頃	-11.4077
雲飛	-11.4079
潁川	-11.4079
承命	-11.4079
盡言	-11.4082
辛未	-11.4083
騎馬	-11.4086
鎮撫	-11.4087
桓公	-11.4087
興元	-11.4088
邯鄲	-11.4091
猿鶴	-11.4092
召對	-11.4093
并引	-11.4094
十七年	-11.4096
烟雨	-11.4097
所不及	-11.4098
者甚衆	-11.4098
既得	-11.4098
無媿	-11.4099
亦不敢	-11.41
生于	-11.4102
戊寅	-11.4103
耋	-11.4104
詩巻	-11.4104
未可知	-11.4105
酒醒	-11.4105
詔㫖	-11.4106
琰	-11.4107
遺跡	-11.4109
故居	-11.411
侍臣	-11.411
司馬相如	-11.411
道學	-11.4111
衆人之	-11.4111
儒者之	-11.4112
無量	-11.4112
風清	-11.4113
固多	-11.4113
上都	-11.4116
百餘人	-11.4116
尊前	-11.4116
異人	-11.4121
賜金	-11.4121
卿大夫	-11.4121
與李	-11.4121
踰月	-11.4122
趙君	-11.4122
家藏	-11.4123
賙	-11.4123
天際	-11.4125
箸	-11.4125
本傳	-11.4125
估	-11.4125
天下國家	-11.4126
戊戌	-11.4126
為時	-11.4127
不鄙	-11.4128
數百年	-11.4129
之疾	-11.413
此外	-11.4131
髙山	-11.4133
焉耳	-11.4134
言哉	-11.4139
澈	-11.4143
威名	-11.4143
萬壽	-11.4146
前來	-11.4146
䔥	-11.4146
見過	-11.4147
救之	-11.4148
捐軀	-11.415
香山	-11.4151
大笑	-11.4155
幽明	-11.4155
之章	-11.4156
是何	-11.4158
儒冠	-11.4159
鎔	-11.4159
冬十月	-11.4159
痼	-11.416
竽	-11.4161
無憂	-11.4161
矣余	-11.4161
職在	-11.4161
之素	-11.4161
所期	-11.4162
撝	-11.4163
𫀆	-11.4163
鍼	-11.4163
豳	-11.4165
如斯	-11.4167
也聖人	-11.4167
詞臣	-11.4168
人不知	-11.4168
積累	-11.4172
新晴	-11.4173
字仲	-11.4175
者何也	-11.4176
歴代	-11.4178
囷	-11.4178
名勝	-11.4179
月十二日	-11.418
伏承	-11.418
無奈	-11.418
恂	-11.4181
峥嶸	-11.4181
驚人	-11.4181
相聞	-11.4182
非禮	-11.4183
鬱鬱	-11.4183
者獨	-11.4184
誠有	-11.4184
渤海	-11.4184
鈞天	-11.4184
若何	-11.4185
室家	-11.4186
而發	-11.4187
必有所	-11.4187
知其為	-11.4188
琴書	-11.4188
定知	-11.4188
寓居	-11.4189
知是	-11.419
師儒	-11.4191
一女	-11.4193
朱門	-11.4194
砧	-11.4196
淅	-11.4197
維持	-11.4199
欎	-11.42
厥官	-11.42
以理	-11.42
者凡	-11.4201
書事	-11.4202
霜風	-11.4204
古之君子	-11.4205
郡公	-11.4205
理財	-11.4205
不殺	-11.4209
海陵	-11.4211
上件	-11.4213
伯恭	-11.4214
五季	-11.4215
終于	-11.4216
懾	-11.4217
資政殿學士	-11.4218
狙	-11.4218
使司	-11.4218
廐	-11.4218
猶得	-11.4219
北歸	-11.4219
徒勞	-11.4219
一人之	-11.4221
固難	-11.4221
不意	-11.4222
一别	-11.4222
而受	-11.4224
功利	-11.4224
之什	-11.4226
經畧	-11.4226
志氣	-11.4228
矣予	-11.4228
寺僧	-11.4231
小雅	-11.4231
王者之	-11.4232
閒暇	-11.4232
御前	-11.4233
瓦礫	-11.4233
乃心	-11.4235
不存	-11.4236
冉	-11.4237
盻	-11.4238
蘇氏	-11.4238
太虚	-11.424
躬耕	-11.424
舊有	-11.4241
外臺	-11.4241
天生	-11.4242
十有五	-11.4242
並行	-11.4243
璽書	-11.4244
棟梁	-11.4244
隨處	-11.4245
一貫	-11.4246
特以	-11.4247
不赴	-11.4249
劬	-11.4251
遺事	-11.4251
中郎	-11.4252
不亂	-11.4253
㝠㝠	-11.4254
之弗	-11.4254
穗	-11.4255
雪滿	-11.4258
月十九日	-11.4259
緒餘	-11.4259
淮甸	-11.4262
與人交	-11.4264
馳騁	-11.4265
仁宗皇帝	-11.4266
宣公	-11.4268
極矣	-11.4268
無留	-11.4269
狃	-11.427
尤重	-11.427
方知	-11.4271
糞	-11.4272
靚	-11.4272
白鹿	-11.4274
峩峩	-11.4277
為陛下	-11.4278
黄鵠	-11.4287
何益	-11.4287
閉户	-11.4288
榷	-11.4289
霏霏	-11.4291
羗	-11.4291
上之人	-11.4291
英俊	-11.4291
籖	-11.4293
衆所	-11.4293
王母	-11.4295
胷次	-11.4295
氣節	-11.4295
謔	-11.4295
所由	-11.4295
戲作	-11.4295
鈆	-11.4296
莫知其	-11.4296
羲皇	-11.43
鈞慈	-11.43
望風	-11.43
之詳	-11.43
緑隂	-11.4301
持此	-11.4303
著述	-11.4304
好在	-11.4305
祓	-11.431
肝膽	-11.4311
犇	-11.4311
珎	-11.4311
誄	-11.4311
一榻	-11.4312
虺	-11.4313
秋霜	-11.4314
圖經	-11.4317
幾日	-11.4319
又欲	-11.432
優㳺	-11.432
醫藥	-11.4322
秘閣	-11.4322
一區	-11.4324
便覺	-11.4324
而廢	-11.4326
代賀	-11.4328
庚戌	-11.4329
燮	-11.4329
近侍	-11.433
翠微	-11.433
流風	-11.4333
長曰	-11.4333
辨之	-11.4335
聊自	-11.4336
南征	-11.4337
方面	-11.4338
光照	-11.4339
明州	-11.434
退居	-11.434
省劄	-11.4341
岳飛	-11.4342
除臣	-11.4343
也是故	-11.4345
凈	-11.4346
當塗	-11.4347
缶	-11.4347
開禧	-11.4349
菌	-11.4349
走馬	-11.435
牌	-11.4352
物物	-11.4353
虎符	-11.4354
誰言	-11.4354
白鷺	-11.4354
委之	-11.4354
㑹有	-11.4356
北望	-11.4363
碁	-11.4363
一尊	-11.4364
之吉	-11.4364
社稷之	-11.4364
壬戌	-11.4365
菁	-11.4365
朝請郎	-11.4365
琉璃	-11.4366
風土	-11.4369
而居	-11.4369
萼	-11.437
千仞	-11.4371
邇來	-11.4373
質之	-11.4374
講習	-11.4374
誠能	-11.4376
絶頂	-11.4376
清凉	-11.4378
錦囊	-11.4378
民生	-11.4379
與客	-11.438
豸	-11.4382
妙語	-11.4385
不貲	-11.4385
霹靂	-11.4386
以昭	-11.4386
未容	-11.4388
豈期	-11.4389
𣏌	-11.4391
之比	-11.4394
陌上	-11.4394
付與	-11.4394
要害	-11.4396
天下後世	-11.4396
王安石	-11.4396
稱職	-11.4398
六百	-11.44
謂宜	-11.4403
萬死	-11.4405
毅然	-11.4405
無厭	-11.4406
㓙	-11.4407
職業	-11.4407
腐儒	-11.4408
右司	-11.4408
于學	-11.4412
苕溪	-11.4415
司馬遷	-11.4415
海隅	-11.4416
不生	-11.4416
及物	-11.4417
草樹	-11.4417
黄塵	-11.4418
皆能	-11.4419
伏望皇帝陛下	-11.442
予聞	-11.4421
漢中	-11.4422
逺山	-11.4422
爲國	-11.4424
抑亦	-11.4424
耳今	-11.4425
不懈	-11.4426
其端	-11.4429
無取	-11.4429
安民	-11.443
忠宣	-11.4432
百神	-11.4432
竹枝	-11.4432
矗	-11.4441
小園	-11.4441
州防禦使	-11.4442
王侯	-11.4444
纖	-11.4444
端明殿學士	-11.4446
畹	-11.4446
荣	-11.4447
付以	-11.445
深矣	-11.445
仍舊	-11.4451
之右	-11.4452
懼其	-11.4452
有疑	-11.4453
元帝	-11.4456
相為	-11.446
幸得	-11.4461
人戸	-11.4462
差官	-11.4464
故應	-11.4464
不可謂	-11.4465
蕭瑟	-11.4466
刘	-11.4468
哭之	-11.4468
之衝	-11.4468
長適	-11.4468
后土	-11.447
上殿	-11.4471
還鄉	-11.4472
罷去	-11.4473
數百里	-11.4474
進用	-11.4475
漢儒	-11.4476
資政	-11.4477
驤	-11.4478
畊	-11.4479
𬋩	-11.448
先主	-11.448
澧	-11.4481
成均	-11.4481
腦	-11.4483
應詔	-11.4483
螯	-11.4484
自愧	-11.4484
中書省	-11.4485
一命	-11.4485
諸郎	-11.4486
自成	-11.4487
無咎	-11.4489
七十二	-11.4489
舟車	-11.449
制置使	-11.4491
三國	-11.4493
官守	-11.4494
嘉興	-11.4494
即此	-11.4495
少傅	-11.4496
俗吏	-11.4496
春歸	-11.4496
李侯	-11.4497
以獻	-11.4497
者謂之	-11.4498
汝南	-11.4499
荻	-11.45
猶記	-11.4501
伏奉	-11.4503
厦	-11.4505
未已	-11.4505
不斷	-11.4507
西望	-11.4508
焉夫	-11.4509
公輔	-11.451
大旱	-11.451
坐看	-11.451
及第	-11.4512
誰云	-11.4513
殱	-11.4517
厎	-11.4519
豔	-11.4519
萬卷	-11.4519
婣	-11.452
昕	-11.452
和議	-11.4521
以表	-11.4521
仄	-11.4522
康節	-11.4522
天地之間	-11.4529
用意	-11.453
益州	-11.4534
我思	-11.4537
衡山	-11.4537
勻	-11.4538
賻	-11.4539
一變	-11.454
張仲	-11.454
董仲舒	-11.454
鵶	-11.4541
曾不	-11.4542
桑梓	-11.4543
論交	-11.4543
心知	-11.4545
手詔	-11.4545
信乎	-11.4545
世上	-11.4548
互相	-11.4548
追隨	-11.4551
看山	-11.4553
簉	-11.4554
渺渺	-11.4556
莫問	-11.4558
介甫	-11.4559
醻	-11.4559
幾度	-11.4559
㡬時	-11.456
無慮	-11.4562
無敵	-11.4565
食實封	-11.4565
忠言	-11.4566
常恐	-11.4566
朅來	-11.4568
祫	-11.4572
應笑	-11.4572
之形	-11.4572
及見	-11.4573
縣事	-11.4575
至尊	-11.4576
之虞	-11.4578
伯氏	-11.4578
之歡	-11.4578
夐	-11.4578
誤國	-11.4579
名器	-11.4579
所守	-11.458
夜光	-11.458
恐未	-11.458
簞瓢	-11.4581
闌干	-11.4586
坐中	-11.4587
此類	-11.4588
痛飲	-11.459
蒞	-11.4593
生物	-11.4594
因書	-11.4594
磔	-11.4595
心之所	-11.4595
安得不	-11.4596
甜	-11.4596
送劉	-11.4597
事具悉	-11.4598
後世之	-11.4598
累月	-11.4598
蕭散	-11.4598
上疏	-11.46
請曰	-11.4601
韓琦	-11.4602
乞賜	-11.4602
赫然	-11.4606
司封	-11.4607
簡編	-11.4611
卭	-11.4611
辛巳	-11.4612
夜夢	-11.4613
蓋亦	-11.4613
天外	-11.4614
棐	-11.4615
罪戾	-11.4615
三事	-11.4616
兩鬢	-11.4616
拄杖	-11.4616
褁	-11.4617
經始	-11.4617
一歲	-11.4618
威靈	-11.4622
萬化	-11.4622
徐公	-11.4623
民瘼	-11.4624
正字	-11.4625
毁譽	-11.4625
求去	-11.4625
七百	-11.4628
以充	-11.463
有佳	-11.463
一千	-11.4631
五斗	-11.4632
有守	-11.4632
僦	-11.4633
歸老	-11.4634
二萬	-11.4634
令名	-11.4635
此之謂	-11.4637
濂溪	-11.4638
客愁	-11.4638
千巖	-11.4638
縟	-11.4639
與俱	-11.464
莫遣	-11.4644
又况	-11.4645
藕	-11.4648
乙丑	-11.4649
凡有	-11.465
官屬	-11.465
黄鍾	-11.4651
二十三	-11.4653
堞	-11.4654
攬轡	-11.4654
軋	-11.4655
延閣	-11.4656
武侯	-11.4656
祠部	-11.4657
今天下	-11.4657
京華	-11.4662
數百人	-11.4664
奉承	-11.4665
居家	-11.4667
節義	-11.4669
軍節度	-11.4671
自陳	-11.4671
少府	-11.4673
百僚	-11.4674
繁華	-11.4676
盡矣	-11.4676
不嫌	-11.4677
山靈	-11.4681
恐非	-11.4681
舊事	-11.4682
嘆息	-11.4682
恙	-11.4683
漢武	-11.4687
商量	-11.4687
為最	-11.4689
湯武	-11.469
翥	-11.4691
竢	-11.4693
內	-11.4694
而不可得	-11.4695
俶	-11.4695
中使	-11.4696
蛛	-11.4697
禮成	-11.4699
主張	-11.4701
莫大於	-11.4701
事勢	-11.4701
余聞	-11.4702
華山	-11.4704
自處	-11.4706
東望	-11.4709
廣寒	-11.471
禳	-11.4711
陁	-11.4712
癸未	-11.4713
斜日	-11.4715
橈	-11.4715
聽之	-11.4716
中書舎人	-11.4718
山翁	-11.472
文維	-11.4724
大書	-11.4724
無逸	-11.4729
曰朕	-11.4731
日落	-11.4733
縳	-11.4733
昇平	-11.4734
樞機	-11.4734
跖	-11.4735
上柱國	-11.4735
脯	-11.4737
清議	-11.4737
風度	-11.4741
必大	-11.4742
昌言	-11.4745
此老	-11.4746
石渠	-11.4746
觚	-11.4747
我昔	-11.475
宇文	-11.475
睇	-11.4751
鄰里	-11.4751
從子	-11.4752
㴱	-11.4753
蘇子	-11.4754
環堵	-11.4756
不返	-11.4756
諫議	-11.4756
之朝	-11.4756
歳時	-11.4757
升降	-11.4759
池州	-11.4761
入侍	-11.4762
怡然	-11.4762
駟馬	-11.4765
具狀	-11.4766
謂何	-11.4766
者悉	-11.4766
已覺	-11.4767
燕居	-11.4767
徳行	-11.4768
嘗與	-11.477
麄	-11.4771
所繫	-11.4771
挟	-11.4771
此蓋伏遇皇帝陛下	-11.4772
何䖏	-11.4773
莘老	-11.4773
吾儒	-11.4773
歲寒	-11.4775
吾師	-11.4776
造次	-11.4777
中國之	-11.4779
温州	-11.4779
藩籬	-11.478
仲舒	-11.4785
䖍州	-11.4787
大鈞	-11.4789
袁州	-11.479
輔相	-11.479
同遊	-11.479
櫂	-11.4792
輝光	-11.4793
尚其	-11.4794
未足以	-11.4794
學記	-11.4794
煜	-11.4795
學士院	-11.4795
連城	-11.4797
花枝	-11.48
儀刑	-11.4801
肅然	-11.4802
郡城	-11.4803
宣撫使	-11.4804
嘉禾	-11.4804
皇華	-11.4804
撫字	-11.4805
其教	-11.4806
送陳	-11.4806
而銘之	-11.481
斗酒	-11.4811
刳	-11.4812
搴	-11.4812
雹	-11.4815
翌日	-11.4817
碧落	-11.4818
必將	-11.4819
獨醒	-11.482
號稱	-11.4821
横流	-11.4822
已久	-11.4823
苕	-11.4823
擇之	-11.4824
元亮	-11.4829
災傷	-11.4829
淺陋	-11.4829
連年	-11.4829
百金	-11.483
捜	-11.483
西東	-11.4832
積雨	-11.4832
之符	-11.4833
闗中	-11.4833
之目	-11.4833
江右	-11.4835
晨起	-11.4836
今陛下	-11.4836
仲子	-11.4837
拜命	-11.4838
嗜好	-11.4839
眼看	-11.484
才名	-11.4841
呉越	-11.4842
而莫之	-11.4843
執中	-11.4845
其選	-11.4846
遭時	-11.4846
念此	-11.4847
意謂	-11.4848
歡聲	-11.4848
東萊	-11.4849
暌	-11.4849
泠泠	-11.485
教官	-11.485
靦	-11.4851
宗子	-11.4855
孔門	-11.4855
兩漢	-11.4857
可取	-11.4857
翩然	-11.4859
蹤跡	-11.4859
木石	-11.486
知之矣	-11.4862
下民	-11.4863
同舍	-11.4866
國風	-11.4866
不可無	-11.4866
所寄	-11.4867
簡易	-11.4869
民事	-11.4869
术	-11.487
兢兢	-11.4873
戡	-11.4873
詠歌	-11.4874
森森	-11.4874
特進	-11.4875
無怨	-11.4877
輔臣	-11.488
四六	-11.4882
論列	-11.4883
齒牙	-11.4883
以是為	-11.4883
網羅	-11.4883
如夢	-11.4885
常情	-11.4885
數語	-11.4885
無際	-11.4886
祠下	-11.4886
惟謹	-11.4888
昭示	-11.4888
也君子	-11.4889
小官	-11.489
文義	-11.489
峒	-11.489
殿前	-11.4891
之勇	-11.4891
羶	-11.4891
剛柔	-11.4892
臣竊見	-11.4895
治行	-11.4895
守禦	-11.4896
㪯	-11.4897
性也	-11.4897
蒙恩	-11.4902
嵩山	-11.4903
砂	-11.4903
曰不然	-11.4904
變故	-11.4905
欣欣	-11.4905
見示	-11.4906
大河	-11.4909
物情	-11.491
膓	-11.4911
仙翁	-11.4911
可傳	-11.4911
具在	-11.4911
傭	-11.4911
離别	-11.4912
二十一	-11.4913
淮陽	-11.4914
臨流	-11.4915
加恩	-11.4915
我朝	-11.4915
波瀾	-11.4917
大禮	-11.492
序云	-11.4925
簽書	-11.4928
潺湲	-11.4929
小山	-11.4931
一雨	-11.4934
厚矣	-11.4936
經過	-11.4936
一尺	-11.4937
不振	-11.4937
百篇	-11.4939
叔度	-11.4941
承顔	-11.4943
顧惟	-11.4943
渡河	-11.4946
天之所	-11.4946
玉音	-11.4947
芷	-11.4947
蝦	-11.4948
尚在	-11.4949
秋光	-11.495
熄	-11.4951
盱	-11.4951
拉	-11.4951
侃	-11.4951
鎬	-11.4952
那復	-11.4954
邵武	-11.4958
湛然	-11.4964
謝事	-11.4965
更張	-11.4966
夏四月	-11.4966
里巷	-11.4967
雅頌	-11.4968
不羣	-11.4968
夘	-11.4968
鼉	-11.4969
花前	-11.4969
自致	-11.497
謹奉	-11.497
硬	-11.4971
仁聖	-11.4971
禾黍	-11.4971
縠	-11.4971
蓍龜	-11.4971
跌	-11.4972
至道	-11.4973
軄	-11.4974
向来	-11.4975
軍事	-11.498
六國	-11.498
動心	-11.4981
吾州	-11.4981
有所未	-11.4982
山城	-11.4983
伏望陛下	-11.4986
杜鵑	-11.4987
恂恂	-11.4988
學宫	-11.4989
癸亥	-11.4989
呻吟	-11.4989
燄	-11.4991
引領	-11.4991
一鄉	-11.4991
范文正公	-11.4992
吊	-11.4993
是之謂	-11.4994
責以	-11.4996
十有六	-11.4998
惟時	-11.4998
秋冬	-11.5001
世變	-11.5002
薦舉	-11.5003
松菊	-11.5003
南樓	-11.5004
紹興府	-11.5005
歸舟	-11.5005
所感	-11.5007
徯	-11.5011
劉禹錫	-11.5012
襪	-11.5012
白璧	-11.5012
不修	-11.5013
蚓	-11.5013
井田	-11.5014
謟	-11.5015
永言	-11.5018
兩儀	-11.5018
摯	-11.5019
三章	-11.5023
雲水	-11.5024
前件	-11.5024
取人	-11.5024
讀易	-11.5024
先務	-11.5025
仁厚	-11.5025
櫟	-11.5028
吾亦	-11.5028
趁	-11.5028
葑	-11.5029
蓬莱	-11.5031
椀	-11.5031
自唐	-11.5032
勅具官某	-11.5033
詳定	-11.5033
從臣	-11.5035
之明年	-11.5035
異恩	-11.5035
駛	-11.5035
後昆	-11.5035
之悲	-11.5035
覯	-11.5036
改正	-11.5037
卧龍	-11.5038
奏曰	-11.5039
城外	-11.5041
敢謂	-11.5041
儼然	-11.5046
改作	-11.5046
雖小	-11.5047
伶	-11.5048
醉翁	-11.5051
肺腑	-11.5051
御製	-11.5051
孑	-11.5052
髀	-11.5053
徃還	-11.5055
東園	-11.5056
無虞	-11.5056
歲晚	-11.5057
石壁	-11.5059
聲聞	-11.5059
參寥	-11.5061
荀卿	-11.5062
天錫	-11.5064
亦將	-11.5065
鱸	-11.5066
燁	-11.5068
錢氏	-11.5068
盡瘁	-11.5071
琪	-11.5071
祲	-11.5073
灝	-11.5073
不足為	-11.5075
忘機	-11.5075
白鳥	-11.5077
蒼梧	-11.5078
器械	-11.508
衰朽	-11.508
服膺	-11.5086
從事郎	-11.5087
送君	-11.5088
以文學	-11.5089
重重	-11.509
黼黻	-11.5091
諺	-11.5092
也或曰	-11.5092
㩀	-11.5092
一段	-11.5093
庭前	-11.5093
能致	-11.5094
多言	-11.5094
事宜	-11.5095
之可也	-11.5097
次韻王	-11.5098
姑以	-11.51
某再拜	-11.5101
一半	-11.5103
於戲	-11.5103
陶淵明	-11.5103
雲烟	-11.5103
横渠	-11.5103
汝州	-11.5105
多謝	-11.5105
臣近	-11.5108
羣生	-11.5108
琯	-11.5109
焰	-11.5109
萬金	-11.5111
人之情	-11.5111
佗	-11.5112
鯤	-11.5112
區處	-11.5113
府庫	-11.5114
不競	-11.5115
玉帛	-11.5115
飲水	-11.512
君獨	-11.5123
于天下	-11.5123
朝市	-11.5124
友朋	-11.5124
客子	-11.5125
蠡	-11.5128
夜宿	-11.5128
風氣	-11.5131
疴	-11.5132
告老	-11.5132
簽	-11.5133
不偶	-11.5136
种	-11.5136
歐陽文忠公	-11.5137
功德	-11.5137
曽無	-11.5139
提㸃	-11.514
漳州	-11.5143
勤儉	-11.5143
全活	-11.5145
之兆	-11.5145
九霄	-11.5146
勢利	-11.5149
良辰	-11.515
獠	-11.515
蛾	-11.5151
紺	-11.5151
莱	-11.5152
曛	-11.5152
赭	-11.5153
詞賦	-11.5154
一般	-11.5155
君實	-11.5155
若非	-11.5156
勤王	-11.5157
征伐	-11.5159
晏然	-11.516
習俗	-11.5162
無疆之	-11.5167
六朝	-11.5167
月二十八日	-11.5169
起廢	-11.5169
者往往	-11.517
蔡州	-11.5171
竹間	-11.5172
希夷	-11.5172
忘憂	-11.5173
擠	-11.5174
接武	-11.5174
未全	-11.5174
滿城	-11.5174
當世之	-11.5174
冽	-11.5176
石橋	-11.5176
可紀	-11.5177
螟	-11.5177
尊號	-11.5179
南城	-11.518
又從而	-11.5181
累朝	-11.5183
不云乎	-11.5183
前朝	-11.5185
竟日	-11.5188
不勝幸甚	-11.5189
開口	-11.5189
月落	-11.5191
郭氏	-11.5191
御史大夫	-11.5192
大雨	-11.5194
不早	-11.5195
半月	-11.5196
痩	-11.5196
衢州	-11.5198
海外	-11.5198
俟命	-11.5199
未忍	-11.5199
當代	-11.5204
賢才	-11.5205
之奉	-11.5205
湖光	-11.5206
都人	-11.5208
駿奔	-11.5208
但願	-11.521
暎	-11.521
烘	-11.5211
筌	-11.5211
磵	-11.5212
曝	-11.5213
塚	-11.5213
始末	-11.5213
楊柳	-11.5213
甚難	-11.5213
莫知所	-11.5216
其勞	-11.5216
循環	-11.5217
宣撫司	-11.5221
拂衣	-11.5221
其祖	-11.5222
出沒	-11.5223
之柄	-11.5228
寥廓	-11.523
攪	-11.5232
萬山	-11.5234
所養	-11.5235
兠	-11.5236
蜃	-11.5238
十有一	-11.5239
本非	-11.524
不義	-11.5242
不至於	-11.5245
求賢	-11.5245
其詞	-11.5245
飽食	-11.5246
團團	-11.5248
丹心	-11.5249
河圖	-11.525
伏蒙	-11.525
問津	-11.5251
南遷	-11.5253
堙	-11.5254
穠	-11.5255
𨳩	-11.5255
紛華	-11.5255
矯矯	-11.5256
常山	-11.5257
近來	-11.5257
狀元	-11.5258
法當	-11.5259
田廬	-11.526
客路	-11.5262
理㑹	-11.5262
比年	-11.5264
誅之	-11.5265
終焉	-11.5268
下視	-11.5268
觀風	-11.5269
學教授	-11.527
而與之	-11.5272
急務	-11.5272
聖君	-11.5272
僥	-11.5273
豎	-11.5273
麈	-11.5275
朝議	-11.5275
槀	-11.5277
茟	-11.5279
運判	-11.5281
淮上	-11.5282
南臺	-11.5284
未明	-11.5284
自取	-11.5289
佛老	-11.529
枯木	-11.5291
懐古	-11.5293
切於	-11.5294
北京	-11.5294
全體	-11.5294
菖蒲	-11.5296
圻	-11.5299
通守	-11.5299
龐	-11.53
假守	-11.5301
頡	-11.5302
兵法	-11.5302
莫作	-11.5304
可恃	-11.5305
半山	-11.5305
心期	-11.5305
然哉	-11.5308
見扵	-11.531
筆削	-11.5312
名卿	-11.5315
𣸪	-11.5316
殻	-11.5317
梭	-11.5317
工部侍郎	-11.5319
依韻和	-11.532
李太白	-11.5321
去後	-11.5322
一息	-11.5323
更覺	-11.5326
臣寮	-11.5328
清淨	-11.533
林壑	-11.5331
何憂	-11.5331
貼黄	-11.5333
益思	-11.5334
儀禮	-11.5334
斯堂	-11.5337
叫	-11.5339
碑銘	-11.5343
不務	-11.5343
上饒	-11.5344
優劣	-11.5344
璘	-11.5344
勉强	-11.5347
名儒	-11.5348
徐氏	-11.5353
期㑹	-11.5353
時聞	-11.5353
賢否	-11.5354
申命	-11.5354
無所用	-11.5356
繙	-11.5358
壟	-11.5358
漱	-11.5359
聊以	-11.5359
遺像	-11.536
瀹	-11.536
至京師	-11.536
膾	-11.5361
矚	-11.5361
不誣	-11.5362
木葉	-11.5363
要知	-11.5364
爲善	-11.5364
漁舟	-11.5365
李杜	-11.5365
都監	-11.5366
聞奏	-11.5367
東朝	-11.5372
語及	-11.5372
字說	-11.5379
留客	-11.5379
湘水	-11.538
厖	-11.5381
闖	-11.5381
四句	-11.5381
海道	-11.5382
深衣	-11.5383
山西	-11.5384
皇子	-11.5385
魏闕	-11.5386
宣徽	-11.5386
尺牘	-11.5387
在彼	-11.5387
弗克	-11.5388
行臺	-11.5389
口占	-11.539
虞部	-11.5391
貴乎	-11.5393
戎馬	-11.5393
琴瑟	-11.5393
有懷	-11.5396
瀨	-11.5396
實難	-11.5397
白露	-11.5398
蒲萄	-11.5398
馘	-11.54
増重	-11.5401
所疑	-11.5402
綦	-11.5402
某謹	-11.5406
窮愁	-11.5408
寒士	-11.5409
象山	-11.5409
憲府	-11.5409
關中	-11.5411
相慶	-11.5413
前調	-11.5414
飛雪	-11.5415
教諭	-11.5415
隴西	-11.5415
一軍	-11.5417
惟知	-11.5417
甍	-11.542
寰宇	-11.542
皦	-11.5421
管勾	-11.5421
茅茨	-11.5422
鞍馬	-11.5422
漕司	-11.5422
攫	-11.5423
埜	-11.5423
重華	-11.5423
麝	-11.5423
冕旒	-11.5423
何從	-11.5424
迁	-11.5424
木蘭	-11.5425
敕具官某	-11.5425
㦲	-11.5426
淵聖	-11.5427
印綬	-11.5429
似聞	-11.543
猥以	-11.5431
袖手	-11.5432
青眼	-11.5434
莫測	-11.5436
飴	-11.544
藍田	-11.544
下逮	-11.5441
湔	-11.5442
啞	-11.5442
扈從	-11.5443
右丞相	-11.5443
睂	-11.5445
丙戌	-11.5446
過客	-11.5447
忘情	-11.5447
不休	-11.5448
尭	-11.5449
遼東	-11.5452
松下	-11.5452
炷	-11.5452
徳意	-11.5456
示人	-11.5456
未厭	-11.5457
兼簡	-11.5457
經緯	-11.5457
新城	-11.5458
怛	-11.5458
往来	-11.546
毫髮	-11.546
太一	-11.5461
時政	-11.5462
不置	-11.5463
館職	-11.5463
致逺	-11.5464
農桑	-11.5464
㝢	-11.5464
淇	-11.5466
涌	-11.5466
既至	-11.5469
未之有	-11.547
本是	-11.5471
動靜	-11.5471
八極	-11.5472
文明	-11.5477
祝融	-11.5477
髙情	-11.548
移書	-11.548
入蜀	-11.548
參議	-11.5481
臣不勝	-11.5482
翡翠	-11.5483
封疆	-11.5484
才能	-11.5484
仰止	-11.5484
晉卿	-11.5484
綆	-11.5485
琛	-11.5485
諸方	-11.5485
儒雅	-11.5485
西清	-11.5485
四書	-11.5486
赴行在	-11.5486
都下	-11.5489
萬鍾	-11.549
殿中	-11.5491
應接	-11.5493
而勿	-11.5495
止此	-11.5496
者也故	-11.5496
遺墨	-11.5497
陽城	-11.5497
心術	-11.5499
江梅	-11.5503
摩詰	-11.5504
歸期	-11.5505
肄	-11.5505
怵	-11.5505
檝	-11.5505
曁	-11.5506
斗牛	-11.551
欲望聖慈	-11.5511
丘山	-11.5512
曹公	-11.5513
建立	-11.5513
誰是	-11.5514
麻姑	-11.5518
其妻	-11.5521
髙樓	-11.5522
玉雪	-11.5523
代謝	-11.5525
庶民	-11.5526
饜	-11.5527
悸	-11.5527
萬分	-11.5527
袤	-11.5527
用度	-11.5528
籃輿	-11.5528
腕	-11.5528
窈	-11.5529
筐	-11.5529
誑	-11.5529
永康	-11.553
毉	-11.553
弓矢	-11.5531
舟人	-11.5532
柱石	-11.5532
齋銘	-11.5535
備矣	-11.5535
授受	-11.5538
公之子	-11.5539
名流	-11.5539
乾元	-11.5542
公羊	-11.5543
注曰	-11.5543
樓觀	-11.5545
周孔	-11.5545
豺狼	-11.5546
條理	-11.5546
帚	-11.5548
卜筮	-11.555
差知	-11.5552
形勝	-11.5552
早賜	-11.5552
堪笑	-11.5553
市人	-11.5553
天下之至	-11.5557
越王	-11.5557
大丞相	-11.5557
民物	-11.5557
雲臺	-11.5558
之路	-11.5559
刑罰	-11.5564
朕意	-11.5566
踣	-11.5567
石頭	-11.5567
筴	-11.5568
海南	-11.5568
酴醿	-11.5569
天馬	-11.557
天運	-11.5573
接物	-11.5574
君子之道	-11.5579
交遊	-11.5579
自棄	-11.5581
元吉	-11.5582
配天	-11.5583
數十人	-11.5583
入海	-11.5583
鏡中	-11.5584
藜藿	-11.5586
惠州	-11.5588
髩	-11.5588
不辨	-11.559
山之原	-11.559
具存	-11.5592
之所以為	-11.5592
歡喜	-11.5592
慟哭	-11.5594
龍眠	-11.5594
月二十五日	-11.5595
箕子	-11.5596
雨暘	-11.5597
宸翰	-11.5598
文士	-11.5599
著于	-11.5604
禮樂之	-11.5605
安撫司	-11.5606
姦邪	-11.5608
良可	-11.5609
月二十六日	-11.5609
賽	-11.5612
逡巡	-11.5612
赤城	-11.5613
太倉	-11.5613
刁	-11.5614
災異	-11.5616
崗	-11.5618
後丗	-11.5618
牢落	-11.5621
啼鳥	-11.5621
門墻	-11.5621
濟濟	-11.5623
偉人	-11.5625
猶恐	-11.5628
卧病	-11.563
擿	-11.5632
願得	-11.5636
磨勘	-11.5637
新命	-11.5638
復舊	-11.5638
承流	-11.5639
所賜	-11.564
塲屋	-11.5644
㡬人	-11.5647
顔淵	-11.5647
二章	-11.565
困窮	-11.5651
悃愊	-11.5653
夢覺	-11.5653
椘	-11.5654
蹂	-11.5655
自樂	-11.5656
揷	-11.5657
乞致仕	-11.5658
保甲	-11.5659
惲	-11.566
轉輸	-11.566
要在	-11.566
先祖	-11.5661
為害	-11.5666
度越	-11.5668
九齡	-11.5668
項羽	-11.5669
一畨	-11.567
臣子之	-11.5671
甚至	-11.5672
萬丈	-11.5675
彬彬	-11.5676
深藏	-11.5676
禇	-11.5682
學士大夫	-11.5682
熈寜	-11.5682
西歸	-11.5682
新月	-11.5684
第八	-11.5684
莊周	-11.5688
太山	-11.5689
引年	-11.569
曲盡	-11.5692
頼有	-11.5695
仰視	-11.5695
何獨	-11.5696
紐	-11.5697
荔枝	-11.5698
老樹	-11.5698
歡呼	-11.5698
四朝	-11.5699
已試	-11.5699
忘歸	-11.57
蒯	-11.57
數目	-11.57
潼川	-11.5701
真成	-11.5701
好音	-11.5702
濁酒	-11.5703
精力	-11.5704
躋攀	-11.5705
脩身	-11.5706
南華	-11.5706
張侯	-11.5707
以疾卒	-11.5708
云亡	-11.5711
年三十	-11.5712
仙去	-11.5713
和糴	-11.5714
淮隂	-11.5715
磧	-11.5716
應物	-11.5717
興化	-11.5719
神龍	-11.572
視聽	-11.572
西臺	-11.5721
者無不	-11.5722
双	-11.5723
昏昏	-11.5723
潞公	-11.5724
大邦	-11.5724
種竹	-11.5726
不俟	-11.5726
三歲	-11.5726
善士	-11.5726
黄冠	-11.5728
名聞	-11.5731
宣布	-11.5733
笙歌	-11.5734
不曾	-11.5735
無一人	-11.5735
滁	-11.5736
去冬	-11.5738
余謂	-11.5739
淒	-11.574
百事	-11.574
士子	-11.5741
躊躇	-11.5743
忭	-11.5743
風力	-11.5744
義理之	-11.5745
兒子	-11.5749
特贈	-11.575
虚心	-11.5752
清濁	-11.5753
歌聲	-11.5754
諸王	-11.5755
不撓	-11.5756
人之心	-11.5756
陳州	-11.5757
沉沉	-11.5757
斸	-11.5758
尺書	-11.576
我師	-11.576
莫道	-11.5761
素志	-11.5764
槽	-11.5764
辛勤	-11.5765
諸父	-11.5766
率土	-11.5766
有意於	-11.5766
高下	-11.5767
催科	-11.577
戚戚	-11.5771
水仙	-11.5771
未可以	-11.5772
無狀	-11.5774
棄官	-11.5774
城頭	-11.5775
切切	-11.5778
魏晉	-11.5778
之所由	-11.5779
在朝廷	-11.5782
至於此	-11.5782
斧斤	-11.5785
在目	-11.5785
行實	-11.5786
一端	-11.5787
城北	-11.5789
忠定	-11.5791
華表	-11.5793
哀矜	-11.5793
竊恐	-11.5799
京洛	-11.58
批答	-11.58
少監	-11.5803
汾陽	-11.5803
字伯	-11.5804
一代之	-11.5804
平易	-11.5805
必待	-11.5807
臺省	-11.5807
無不可	-11.5808
暾	-11.5808
𡨕	-11.5809
補外	-11.581
廵檢	-11.5812
十八年	-11.5813
徙居	-11.5814
髙郵	-11.5815
佛法	-11.5815
墨竹	-11.5816
幽獨	-11.5817
忠肅	-11.582
亰	-11.5821
宗祀	-11.5821
子細	-11.5822
磊	-11.5823
璫	-11.5827
聖王	-11.5827
不次	-11.5827
等閒	-11.5827
榼	-11.5828
祭酒	-11.5829
皈	-11.5829
苟且	-11.5831
月二十九日	-11.5834
於後世	-11.5837
入境	-11.5839
臨安府	-11.5841
類此	-11.5842
司馬光	-11.5842
越人	-11.5843
百物	-11.5843
元龍	-11.5845
空虚	-11.5846
袵	-11.5848
墊	-11.5849
蠻夷	-11.5849
報恩	-11.585
壖	-11.5854
執筆	-11.5856
遺編	-11.5859
長吟	-11.586
嶂	-11.5861
之至也	-11.5862
癸	-11.5862
乞罷	-11.5863
歸歟	-11.5863
佳城	-11.5864
昔時	-11.5865
殺身	-11.5865
膏肓	-11.5875
原隰	-11.5877
致此	-11.5883
諸佛	-11.5883
豈意	-11.5883
所畏	-11.5885
南枝	-11.5886
之過也	-11.5886
未仕	-11.5888
徭	-11.589
鉄	-11.5891
瑾	-11.5892
虎頭	-11.5893
祖師	-11.5893
秋氣	-11.5893
賫	-11.5893
宼	-11.5893
自治	-11.5894
逗	-11.5895
田疇	-11.5905
氷霜	-11.5906
念昔	-11.5909
竒絶	-11.591
櫓	-11.5912
砭	-11.5915
駱	-11.5917
樹立	-11.5919
聖訓	-11.5919
服勤	-11.592
宫殿	-11.592
雲煙	-11.592
將安	-11.5921
隂隂	-11.5921
必使	-11.5922
尽	-11.5923
昔賢	-11.5923
隋唐	-11.5924
難知	-11.5925
召見	-11.5925
紫翠	-11.5926
不同而	-11.5926
再任	-11.5927
昔我	-11.5927
只應	-11.5928
王佐	-11.5928
再造	-11.5933
差役	-11.5933
詳酌	-11.5934
何暇	-11.5935
經傳	-11.5936
菩提	-11.5937
木落	-11.5937
枵	-11.5938
囙	-11.5939
為之序	-11.5939
肅肅	-11.5941
未死	-11.5943
仁祖	-11.5944
崑山	-11.5944
逢時	-11.5946
東林	-11.5948
所屬	-11.5948
尚友	-11.5955
禍亂	-11.5959
送别	-11.5959
而不言	-11.5962
踐履	-11.5963
剸	-11.5964
搔首	-11.5966
别墅	-11.5967
後漢書	-11.5967
旬月	-11.5968
陶令	-11.5969
而歸之	-11.597
臣昨	-11.5971
王府	-11.5972
史臣	-11.5973
其室	-11.5975
未遂	-11.5975
不亡	-11.5976
正言	-11.5977
無辜	-11.5977
窩	-11.598
丰	-11.598
猝	-11.598
鈐轄	-11.5982
封建	-11.5982
詡	-11.5982
t	-11.5982
嶮	-11.5983
庭闈	-11.5983
="33"/>	-11.5983
<	-11.5983
切磋	-11.5983
夀考	-11.5984
兩路	-11.5984
庶政	-11.5984
玉立	-11.5985
璇	-11.5985
錢唐	-11.5986
駞	-11.5986
塗炭	-11.5987
内史	-11.5987
分司	-11.5989
詎可	-11.599
以文章	-11.599
再世	-11.599
兒曹	-11.5991
便當	-11.5992
崛	-11.5993
秦檜	-11.5993
人心之	-11.5996
調度	-11.5996
縣人	-11.5997
哲宗	-11.5997
後来	-11.5998
頭白	-11.5999
已甚	-11.6001
六言	-11.6001
河洛	-11.6001
㮣	-11.6004
顙	-11.6004
鴻鵠	-11.6005
霾	-11.6006
躓	-11.6006
詘	-11.6008
獨能	-11.6008
昭明	-11.6008
閑居	-11.6011
倬	-11.6011
乃爾	-11.6015
不辱	-11.6017
賢士大夫	-11.602
景徳	-11.6021
二頃	-11.6021
同異	-11.6021
狀右臣	-11.6024
粘	-11.6024
桒	-11.6026
嗅	-11.6027
璜	-11.6029
易地	-11.6029
鑚	-11.603
世情	-11.603
產	-11.6031
世務	-11.6031
篤實	-11.6032
衮衣	-11.6033
結廬	-11.6034
花香	-11.6034
苦心	-11.6035
秉燭	-11.6036
同氣	-11.6036
仕至	-11.6037
事狀	-11.6037
篤於	-11.6038
竊觀	-11.6043
睢陽	-11.6044
乙巳	-11.6045
未知所	-11.6047
亦未嘗	-11.6047
刀筆	-11.6047
教養	-11.6048
牛馬	-11.6048
緊	-11.6049
灔	-11.6049
斚	-11.6049
前驅	-11.605
糊	-11.605
農事	-11.6052
民情	-11.6053
輈	-11.6053
雲錦	-11.6057
南極	-11.6057
少壯	-11.6058
薄暮	-11.6059
正始	-11.6059
朕方	-11.606
辱書	-11.6063
舉頭	-11.6063
畢竟	-11.6064
而得之	-11.6065
幸免	-11.6066
顧瞻	-11.6068
矣然則	-11.6069
頹	-11.607
為姦	-11.607
得其所	-11.6071
箔	-11.6071
祛	-11.6073
口號	-11.6076
能幾	-11.6077
連山	-11.6077
感歎	-11.6078
伏覩	-11.6078
百户	-11.6078
宣州	-11.6078
靈山	-11.6079
且喜	-11.608
錢物	-11.6083
數十萬	-11.6084
花下	-11.6085
神農	-11.6087
千餘人	-11.6087
折衷	-11.6087
本來	-11.6088
一種	-11.6088
餘光	-11.6088
旁觀	-11.6091
而況	-11.6092
湖湘	-11.6092
須知	-11.6093
施于	-11.6093
之為人	-11.6093
勇退	-11.6094
蝴蝶	-11.6094
語録	-11.6095
一定	-11.6095
釜	-11.6096
竪	-11.6098
亳州	-11.6099
檢㑹	-11.6101
遲暮	-11.6102
西蜀	-11.6103
請命	-11.6103
之所存	-11.6107
犬馬之	-11.6107
吾夫子	-11.6107
蕩蕩	-11.6108
秋七月	-11.6108
之䘮	-11.6111
異姓	-11.6112
兕	-11.6115
綵衣	-11.6115
今天子	-11.6116
又明年	-11.6116
清華	-11.6117
謐	-11.6117
跛	-11.6118
入對	-11.6118
第二十	-11.6119
野鶴	-11.6119
休休	-11.6119
禹貢	-11.6121
嶺海	-11.6122
未獲	-11.6123
羣公	-11.6124
無形	-11.6126
諸弟	-11.6127
耆老	-11.613
至于今	-11.6131
十餘萬	-11.6131
光祖	-11.6131
朕命	-11.6131
曹操	-11.6135
泪	-11.6136
閼	-11.6139
别來	-11.6142
宣力	-11.6144
青苗	-11.6149
儒臣	-11.6151
歸夢	-11.6151
僅能	-11.6151
三皇	-11.6153
南面	-11.6154
伏遇某官	-11.6155
推擇	-11.6156
奮發	-11.6157
清朝	-11.6157
不祥	-11.6158
此物	-11.6159
玉壺	-11.6159
清浄	-11.6161
蜩	-11.6162
而不及	-11.6163
淙	-11.6163
招提	-11.6163
永州	-11.6164
蒼顔	-11.6164
月令	-11.6171
神氣	-11.6172
天禄	-11.6173
金剛	-11.6173
花飛	-11.6175
咸陽	-11.6175
白酒	-11.6176
中臺	-11.6179
集本	-11.6179
闋	-11.6181
不敢辭	-11.6181
提㸃刑獄	-11.6183
壚	-11.6184
對月	-11.6184
顛沛	-11.6185
薺	-11.6186
海門	-11.6187
未有以	-11.6187
爍	-11.6187
七言絶句	-11.6187
黄鶴	-11.6189
夜分	-11.6191
道原	-11.6192
州觀察使	-11.6194
法制	-11.6195
立國	-11.6196
楚州	-11.6196
公車	-11.6197
始皇	-11.6198
無所不至	-11.6202
既久	-11.6202
東京	-11.6203
若干卷	-11.6204
危機	-11.6206
止是	-11.6206
此翁	-11.6206
益隆	-11.6207
成都府	-11.621
憸	-11.621
騏驥	-11.621
所乞	-11.6211
涕泣	-11.6211
無術	-11.6211
盾	-11.6214
東郊	-11.6215
徙倚	-11.6216
送趙	-11.6216
滿庭	-11.6217
市朝	-11.6217
錢糧	-11.6218
而知之	-11.6221
奕世	-11.6222
小吏	-11.6223
苴	-11.6223
賔主	-11.6228
西溪	-11.6229
柵	-11.6229
金城	-11.6229
臉	-11.6229
賢哉	-11.623
中央	-11.6231
簸	-11.6231
喝	-11.6231
進秩	-11.6232
惻怛	-11.6233
敷宣	-11.6235
醯	-11.6236
國初	-11.6237
佩服	-11.6239
衡陽	-11.6239
有以見	-11.6239
列郡	-11.624
可量	-11.624
楊子曰	-11.6242
臺諌	-11.6242
離合	-11.6244
醉眠	-11.6245
何如哉	-11.6245
然後能	-11.6246
尚㓜	-11.6248
出没	-11.6248
㒷	-11.625
提要	-11.625
餙	-11.6252
酪	-11.6254
震驚	-11.6255
鼙	-11.6255
山川之	-11.6255
届	-11.6257
由是而	-11.6257
涕泗	-11.6258
所奏	-11.6258
戊	-11.6259
佳客	-11.626
秀州	-11.6261
天顔	-11.6261
俄而	-11.6263
慶暦	-11.6265
乎抑	-11.6268
母子	-11.6269
苟有	-11.6269
夢到	-11.627
安期	-11.6272
對客	-11.6272
耶抑	-11.6273
宜春	-11.6273
州團練使	-11.6275
禮經	-11.6276
名利	-11.6276
几席	-11.6276
顥	-11.6277
侂胄	-11.6279
欤	-11.6279
世祖皇帝	-11.628
獎	-11.6282
禮儀	-11.6283
六龍	-11.6284
此篇	-11.6285
未曽	-11.6287
佳氣	-11.6287
金銀	-11.629
從事於	-11.6292
稱善	-11.6292
食肉	-11.6295
而言曰	-11.6295
卜築	-11.6296
炯	-11.6296
紀昀	-11.6297
朔風	-11.6298
來訪	-11.6298
婚姻	-11.6299
此其所以	-11.63
山谷詩	-11.6302
去取	-11.6303
隗	-11.6303
早世	-11.6304
莫笑	-11.6305
訪問	-11.6306
簡在	-11.6308
那可	-11.6309
將何以	-11.6309
忠良	-11.631
翠竹	-11.631
燈前	-11.6312
退食	-11.6312
十有九	-11.6313
爲政	-11.6313
重寄	-11.6314
遣興	-11.6317
孫士毅總校官	-11.6319
陸錫熊	-11.632
酬酢	-11.632
而已哉	-11.6321
冰雪	-11.6321
下詔	-11.6322
嬰兒	-11.6322
次公曰	-11.6325
黄菊	-11.6327
婺源	-11.6328
生辰	-11.6328
矣然而	-11.633
司業	-11.6331
醴泉	-11.6332
遺音	-11.6333
神州	-11.6337
十有七	-11.634
行止	-11.6341
涴	-11.6342
職官	-11.6342
盡忠	-11.6343
狼狽	-11.6344
胃	-11.6346
樾	-11.6347
舊典	-11.6354
絲竹	-11.6355
祕閣	-11.6355
儒家	-11.6356
大夫士	-11.6364
機㑹	-11.6366
剝	-11.6368
瀟洒	-11.6369
洮	-11.6371
終不能	-11.6373
夢想	-11.6376
唐末	-11.6377
義士	-11.6378
神道碑	-11.6379
相聚	-11.6384
好善	-11.6384
終南	-11.6385
萬福	-11.6387
奉先	-11.6387
而後可	-11.6388
劃	-11.6389
髫	-11.6389
皁	-11.639
瞬	-11.639
本縣	-11.639
有壬	-11.639
圮	-11.639
中統	-11.6391
光禄大夫	-11.6392
卓犖	-11.6392
掄	-11.6392
不淺	-11.6394
上恩	-11.6396
犬馬	-11.6396
茅簷	-11.6397
直諒	-11.6399
江夏	-11.6399
凭	-11.6401
避世	-11.6406
妙處	-11.6407
百嵗	-11.6409
雅志	-11.6409
踪	-11.6412
念我	-11.6412
佳節	-11.6413
亭上	-11.6414
僅有	-11.6415
假借	-11.6417
細故	-11.6417
治國	-11.6418
傳燈録	-11.6418
飛騰	-11.6419
軍國	-11.6423
見訪	-11.6425
荆門	-11.6426
眷言	-11.6426
何患	-11.6427
鄉校	-11.6428
江隂	-11.6428
朕心	-11.6432
投閒	-11.6433
愁絶	-11.6433
奉和	-11.6435
不悟	-11.6436
囬首	-11.6436
渌	-11.6438
近古	-11.6438
畸	-11.6438
弥	-11.6439
凂	-11.6439
晟	-11.6439
饑寒	-11.644
鼓吹	-11.6442
嫗	-11.6442
籬落	-11.6443
鄉先生	-11.645
治家	-11.645
僚屬	-11.6451
百司	-11.6455
皤	-11.6455
是歲	-11.6455
緡錢	-11.6456
莓苔	-11.6456
廕	-11.6457
勾當	-11.6458
諂	-11.6459
濩	-11.6461
甚詳	-11.6461
四十九	-11.6462
踊	-11.6462
漢魏	-11.6463
設官	-11.6464
治世	-11.6466
齋居	-11.6467
而後知	-11.647
封章	-11.6471
㳟惟	-11.6471
猶堪	-11.6471
漢武帝	-11.6472
窮達	-11.6473
甚重	-11.6478
篝	-11.648
吾親	-11.648
坰	-11.6482
也銘曰	-11.6484
亂離	-11.6484
彌縫	-11.6485
徳業	-11.6485
䜟	-11.6486
奉聖旨	-11.6486
矛	-11.6487
雜著	-11.6488
會稽	-11.6489
廣漢	-11.649
瑶池	-11.6494
風烟	-11.6494
幽谷	-11.6496
自勉	-11.6497
諍	-11.6499
伏䝉	-11.6501
繩墨	-11.6502
厥有	-11.6503
禮畢	-11.6503
益深	-11.6504
砥柱	-11.6504
晡	-11.6506
精㣲	-11.6507
畛	-11.6508
嗣子	-11.6508
竊意	-11.6508
鷃	-11.6509
峡	-11.6509
龍興	-11.6509
姝	-11.6509
月華	-11.6509
執事者	-11.651
永懐	-11.6511
題云	-11.6512
衡州	-11.6513
寒梅	-11.6514
風憲	-11.6514
歸耕	-11.6515
谷口	-11.6516
南嶽	-11.6517
敬夫	-11.6518
雲龍	-11.6518
一員	-11.6519
河西	-11.6519
卷第十	-11.6521
窮途	-11.6522
彈冠	-11.6526
報政	-11.6526
吾嘗	-11.6528
吏治	-11.6529
蔕	-11.6529
凋零	-11.6529
要須	-11.6529
樞宻使	-11.653
長淮	-11.653
荒政	-11.653
㐫	-11.653
堠	-11.6531
被命	-11.6531
長驅	-11.6536
善頌	-11.6537
臣竊以	-11.6538
武臣	-11.6541
第九	-11.6541
朔方	-11.6542
勿復	-11.6542
加食邑	-11.6547
幸甚幸甚	-11.6548
靈光	-11.6549
深慮	-11.6549
羯	-11.6551
媮	-11.6551
示余	-11.6551
驊騮	-11.6554
英才	-11.6555
酌酒	-11.6556
沫	-11.6556
燕趙	-11.6559
父祖	-11.656
初度	-11.6561
无咎	-11.6561
寂然	-11.6561
未究	-11.6562
何勞	-11.6565
天縱	-11.6568
文雅	-11.6569
綾	-11.6573
賢士	-11.6574
道術	-11.6574
滸	-11.6577
衰遲	-11.6577
謠	-11.6578
經界	-11.6578
師表	-11.6578
悄	-11.6579
坼	-11.6579
彈壓	-11.6579
不可知	-11.658
只得	-11.658
盧仝	-11.6581
創業	-11.6581
棄捐	-11.6584
鹿鳴	-11.6585
湯沐	-11.6587
淳化	-11.6587
豐城	-11.659
造朝	-11.6592
十倍	-11.6593
禱雨	-11.6593
而新之	-11.6594
小試	-11.6599
直欲	-11.6599
嫓	-11.66
縝	-11.6602
褊	-11.6602
劇談	-11.6603
國子博士	-11.6603
相憶	-11.6604
萹	-11.6604
求仁	-11.6604
闐	-11.6604
筮仕	-11.6605
甚髙	-11.6608
之義也	-11.661
尊卑	-11.6612
冬日	-11.6617
徑山	-11.6618
苦寒	-11.662
元勲	-11.6621
鳯翔	-11.6621
毬	-11.6621
巫山	-11.6621
摸	-11.6623
如昨	-11.6623
幟	-11.6624
縣學	-11.6624
塵世	-11.6624
只合	-11.6625
河流	-11.6626
七首	-11.6627
韭	-11.6627
懵	-11.6628
河内	-11.6628
瀬	-11.6628
雝	-11.663
逺邇	-11.6631
忘年	-11.6634
繫辭	-11.6635
河南府	-11.6636
三輔	-11.664
性命之	-11.6642
班班	-11.6644
緑野	-11.6644
潁州	-11.6645
齊家	-11.6646
中謝伏念臣	-11.6648
兵部侍郎	-11.6649
代回	-11.6649
礱	-11.665
觜	-11.6651
政成	-11.6653
不管	-11.6657
立志	-11.6658
錫命	-11.6658
原本	-11.666
鐘鼓	-11.6663
丁巳	-11.6665
所寓	-11.6665
拜賜	-11.6667
帝紀	-11.6668
塵外	-11.6668
嵬	-11.667
哉雖然	-11.6672
方是時	-11.6673
請銘	-11.6674
定州	-11.6675
廟碑	-11.6675
太常少卿	-11.6675
便殿	-11.6676
恩意	-11.6677
子姪	-11.6678
要使	-11.6683
相違	-11.6684
教育	-11.6685
兵士	-11.6685
田間	-11.6686
乞身	-11.6688
筆下	-11.6688
庸人	-11.6692
鷓鴣	-11.6694
萬幾	-11.6696
訕	-11.6696
菰	-11.6696
蜿蜒	-11.6697
外家	-11.6698
尚饗祭	-11.6699
髙陽	-11.67
緫管	-11.6704
衰殘	-11.6704
防秋	-11.6705
太中大夫	-11.6706
急雨	-11.6708
舊徳	-11.6713
舉酒	-11.6715
端午	-11.6716
昭穆	-11.6717
舉手	-11.6717
從教	-11.6718
改過	-11.6718
拚	-11.6719
奕奕	-11.6719
自欺	-11.6719
緹	-11.672
無以自	-11.672
磷	-11.672
文殊	-11.6721
緱	-11.6722
平生所	-11.6722
尙	-11.6723
蓋嘗	-11.6728
慈母	-11.673
秦州	-11.6731
端居	-11.6733
百度	-11.6734
前古	-11.6736
有得於	-11.6737
近聞	-11.6738
載籍	-11.6739
老死	-11.674
菅	-11.6742
今昔	-11.6742
义	-11.6743
綘	-11.6743
先卒	-11.6744
明哲	-11.6744
醉裏	-11.6749
太過	-11.6753
皇恐	-11.6753
徽宗	-11.6753
安排	-11.6754
萬乗	-11.6754
金鑾	-11.6758
黙黙	-11.676
為文章	-11.6761
采石	-11.6761
條具	-11.6767
并州	-11.6769
疢	-11.6769
瘡痍	-11.6769
簧	-11.6769
天人之	-11.677
不茍	-11.6772
徳澤	-11.6772
獨存	-11.6772
重建	-11.6774
智力	-11.6775
萬變	-11.6776
適意	-11.6777
詩情	-11.6777
一統	-11.6778
宿衛	-11.6779
益勵	-11.678
悲風	-11.6782
徳宗	-11.6782
大梁	-11.6783
庭堅	-11.6785
嘗言	-11.6788
抗章	-11.6788
淬	-11.6791
哦詩	-11.6793
一徑	-11.6794
州軍州事	-11.6795
雅意	-11.6795
州里	-11.6797
乃翁	-11.6799
東坡先生	-11.6801
秦王	-11.6801
申錫	-11.6803
煙雲	-11.6804
崇仁	-11.6805
尚書郎	-11.6807
之時也	-11.6811
烏乎	-11.6811
蜕	-11.6811
終老	-11.6812
文林郎	-11.6813
撿	-11.6813
求治	-11.6814
好語	-11.6814
偉哉	-11.6815
良臣	-11.6816
愷悌	-11.6816
啓伏審	-11.6816
禊	-11.6816
校書	-11.6817
昩	-11.6817
伐木	-11.6825
不停	-11.6825
答曰	-11.6825
臣某言	-11.6827
儒宗	-11.6831
三千里	-11.6833
屈伸	-11.6834
方略	-11.6834
吟哦	-11.6836
薌	-11.6839
異哉	-11.6842
橙	-11.6843
劬勞	-11.6844
楚王	-11.6846
袒	-11.6847
治體	-11.6849
仙家	-11.6849
出竒	-11.6849
太祖皇帝	-11.685
經費	-11.685
西都	-11.6851
民社	-11.6852
洗心	-11.6852
相仍	-11.6857
成湯	-11.6858
何限	-11.686
幷	-11.6864
通議大夫	-11.6864
舅氏	-11.6865
化工	-11.6865
多艱	-11.6868
子敬	-11.6872
注意	-11.6874
厥職	-11.6875
青城	-11.6876
廷臣	-11.6877
微言	-11.6879
商周	-11.6883
母儀	-11.6886
營田	-11.6886
篚	-11.6887
何苦	-11.6888
婦女	-11.6888
海宇	-11.6888
何足道	-11.6888
流泉	-11.6888
郎君	-11.6889
貧富	-11.6889
斷腸	-11.6892
矯首	-11.6892
纎悉	-11.6893
怪石	-11.6894
况今	-11.6895
蟠桃	-11.6895
之用心	-11.6897
解衣	-11.6897
嗟嗟	-11.6901
一盃	-11.6903
女二人	-11.6903
比丘	-11.6907
二篇	-11.6908
楸	-11.6908
夜寒	-11.691
比屋	-11.691
薑	-11.6911
朱熹	-11.6912
僅得	-11.6914
怜	-11.6914
后山	-11.6915
選擇	-11.6917
絶塵	-11.6918
東風吹	-11.6925
横斜	-11.6925
林氏	-11.6927
體國	-11.6927
氣味	-11.6929
吾兄	-11.693
典章	-11.693
滿目	-11.6933
恍然	-11.6934
杳杳	-11.6936
槳	-11.6938
胸次	-11.6939
居仁	-11.694
廽	-11.694
紫薇	-11.6943
造物者	-11.6943
車騎	-11.6944
但當	-11.6944
入室	-11.6946
敢辭	-11.6946
世味	-11.6949
縱有	-11.695
盤桓	-11.695
楊墨	-11.6953
蒲團	-11.6954
羽儀	-11.6955
依歸	-11.6955
殆非	-11.6956
㡬年	-11.6958
齋先生	-11.696
酧	-11.696
門戸	-11.6961
夷齊	-11.6962
膂	-11.6962
藜杖	-11.6963
省察	-11.6965
謌	-11.6966
癸巳	-11.6968
涇原	-11.6969
直秘閣	-11.697
雨晴	-11.6971
不减	-11.6972
何待	-11.6973
深念	-11.6974
馬牛	-11.6974
不救	-11.6975
晉人	-11.6976
潤州	-11.6977
股肱之	-11.6978
黄門	-11.6981
龍光	-11.6982
緋	-11.6985
嘔	-11.6986
皐	-11.6987
酲	-11.699
方叔	-11.699
尚幼	-11.6991
拭目	-11.6993
擊壤	-11.6994
頻年	-11.6995
之所當	-11.6995
士友	-11.7004
儋	-11.7007
再娶	-11.7009
掊	-11.7009
蹋	-11.701
平湖	-11.701
堊	-11.7011
尅	-11.7011
神明之	-11.7013
十餘人	-11.7013
草茅	-11.7015
寵數	-11.7016
先志	-11.7016
故兹詔示想宜知悉	-11.7017
一箇	-11.7021
仁孝	-11.7022
三十五	-11.7023
羲和	-11.7024
六十年	-11.7027
句法	-11.7028
和買	-11.7031
次韻答	-11.7031
蒼翠	-11.7034
禁止	-11.7035
糝	-11.7035
今歲	-11.7036
麋	-11.7037
州判官	-11.7037
皇考	-11.7038
依稀	-11.7039
喜聞	-11.7039
遭遇	-11.7041
衆皆	-11.7049
玉川	-11.7052
衆口	-11.7053
隨風	-11.7053
屏山	-11.7055
芭蕉	-11.7055
天地萬物	-11.7059
絀	-11.7059
八首	-11.706
富民	-11.7061
閃	-11.7062
湏臾	-11.7062
寤寐	-11.7063
世之人	-11.7065
曏	-11.7067
制勑某	-11.707
用功	-11.707
尺素	-11.7073
對越	-11.7073
而後能	-11.7074
無雙	-11.7074
鮮于	-11.7075
非聖人	-11.7077
巴蜀	-11.7078
程公	-11.7079
嬋娟	-11.7081
煇	-11.7084
鄆	-11.7085
涙	-11.7087
耨	-11.7088
鶉	-11.7088
殘雪	-11.7088
百八十	-11.7089
世俗之	-11.7089
循循	-11.7091
獨酌	-11.7091
一紙	-11.7093
明年春	-11.7095
正統	-11.7099
其所以然	-11.7102
掞	-11.7104
韓氏	-11.7105
詩翁	-11.7106
撮	-11.7107
惨	-11.7107
秋八月	-11.7107
淝	-11.7108
宰輔	-11.7108
弗能	-11.7108
珂	-11.7109
控扼	-11.7109
絰	-11.7109
泌	-11.711
匕	-11.711
通籍	-11.711
邏	-11.711
三歎	-11.7111
甿	-11.7111
山之陽	-11.7111
貂裘	-11.7111
爕	-11.7112
唯恐	-11.7118
楚辭	-11.7119
天池	-11.7119
南都	-11.7121
除授	-11.7124
牧守	-11.7124
九泉	-11.7124
雪花	-11.7127
㾗	-11.713
絺	-11.7131
登庸	-11.7132
皺	-11.7132
瑛	-11.7133
逢辰	-11.7134
西郊	-11.7135
無妄	-11.7135
太平興國	-11.7136
乎雖然	-11.7137
七夕	-11.7137
醲	-11.7138
稱觴	-11.7141
盛哉	-11.7142
傳誦	-11.7143
兩制	-11.7144
翬	-11.7146
勝處	-11.7147
篇章	-11.7149
典故	-11.7149
十方	-11.7154
沅	-11.7158
誰肯	-11.7159
不及見	-11.716
都㑹	-11.7161
㐲	-11.7161
同寅	-11.7161
艱危	-11.7161
趋	-11.7161
手持	-11.7162
蚌	-11.7163
鏞	-11.7164
仭	-11.7169
此帖	-11.717
萬木	-11.7171
受賜	-11.7175
鏡湖	-11.7176
與否	-11.7177
神聖	-11.7181
鏁	-11.7182
囏	-11.7182
二十里	-11.7183
猩	-11.7184
有警	-11.7185
价	-11.7186
白蓮	-11.7186
宫闕	-11.7188
蓬山	-11.7188
鱸魚	-11.7189
累世	-11.7192
大農	-11.7193
俛首	-11.7195
之所及	-11.7196
勉旃	-11.7198
水晶	-11.72
始識	-11.7202
英靈	-11.7203
年豐	-11.7204
十有三	-11.7205
茶鹽	-11.7206
餘姚	-11.7206
文翁	-11.7208
等謹案	-11.721
濯纓	-11.7211
是否	-11.7213
不預	-11.7214
和韻	-11.7216
荆襄	-11.7217
貳卿	-11.7218
器識	-11.7221
晨昏	-11.7221
岑寂	-11.7224
吾之所	-11.7225
於此者	-11.7226
郊原	-11.7226
聖德	-11.7227
老境	-11.7231
應變	-11.7231
恍惚	-11.7231
范氏	-11.7231
猫	-11.7232
瞞	-11.7232
楊州	-11.7234
澣	-11.7235
能否	-11.7235
哀榮	-11.7235
壽考	-11.7236
睽	-11.7237
迤邐	-11.7237
髙談	-11.7238
澮	-11.724
入仕	-11.724
每見	-11.7246
何疑	-11.7246
登極	-11.7247
青氊	-11.7247
鬢毛	-11.7248
秋江	-11.7249
表章	-11.7251
康寧	-11.7251
帡幪	-11.7254
頭角	-11.7255
么	-11.7259
千樹	-11.7259
竒偉	-11.7259
武備	-11.726
六經之	-11.726
豈偶然	-11.726
錙銖	-11.7262
公薨	-11.7262
激昻	-11.7263
竹帛	-11.7264
肩輿	-11.7265
毖	-11.7265
凡百	-11.7266
生民之	-11.7267
爛漫	-11.7268
權貴	-11.7268
此句	-11.7269
亦恐	-11.727
義勇	-11.727
油然	-11.7271
玉色	-11.7272
數里	-11.7272
寵章	-11.7272
百拜	-11.7275
佛書	-11.7277
頌聲	-11.7277
金錢	-11.7282
一隅	-11.7282
扳	-11.7283
抒	-11.7285
不復見	-11.7285
詮	-11.7285
屍	-11.7286
短檠	-11.7286
園中	-11.7289
不得辭	-11.7293
荆溪	-11.7295
上京	-11.7295
杜氏	-11.7298
徐君	-11.7299
經制	-11.7299
天下之勢	-11.73
兩岸	-11.7302
醢	-11.7302
萬戸	-11.7303
寧復	-11.7304
曾未	-11.7305
興衰	-11.7305
衎	-11.7308
儗	-11.7309
柘	-11.7309
手植	-11.731
叅知政事	-11.731
金紫	-11.7311
宵旰	-11.7312
案牘	-11.7315
在躬	-11.7316
夜氣	-11.7318
司法	-11.732
不足道	-11.7322
次韻荅	-11.7323
莊嚴	-11.7324
名園	-11.7324
外任	-11.7325
論功	-11.7328
地勢	-11.733
缸	-11.7331
台候	-11.7332
親朋	-11.7333
熬	-11.7335
蒔	-11.7335
羣仙	-11.7336
結茅	-11.7336
之力也	-11.7336
豁然	-11.7337
玉女	-11.7337
當宁	-11.7338
澹然	-11.7339
情性	-11.734
兵部尚書	-11.7341
曽祖諱	-11.7344
但聞	-11.7344
僖公	-11.7345
九萬	-11.7345
事機	-11.7345
近代	-11.7346
燕坐	-11.7347
勿忘	-11.7348
李廣	-11.7349
金谷	-11.735
薦士	-11.7352
不可勝數	-11.7352
釣臺	-11.7352
昭文	-11.7354
奏云	-11.7356
考功	-11.7357
不得已而	-11.7357
苦吟	-11.7358
無以異	-11.7361
喜怒哀樂	-11.7361
闚	-11.7361
偶得	-11.7362
艸	-11.7362
瘝	-11.7362
次前韻	-11.7362
癢	-11.7363
先人之	-11.7364
天工	-11.7364
都指揮使	-11.7365
人間世	-11.7367
隄防	-11.7368
子猷	-11.737
氣候	-11.7371
莫教	-11.7374
軍士	-11.7375
高宗	-11.7376
太宗皇帝	-11.7377
積年	-11.738
蔡京	-11.7382
醉後	-11.7383
綫	-11.7384
擺	-11.7385
皇慶	-11.7386
制勝	-11.7386
虎狼	-11.7387
隸	-11.7388
痊	-11.7389
咈	-11.7389
詬	-11.7389
禎	-11.739
東臯	-11.7391
兖	-11.7392
精爽	-11.7393
夏五月	-11.7397
教誨	-11.7398
急難	-11.7399
不可廢	-11.7401
委蛇	-11.7402
虞舜	-11.7402
永豐	-11.7405
直須	-11.7407
寘之	-11.7408
不擾	-11.7408
咄咄	-11.7413
鋟	-11.7413
敇	-11.7413
送酒	-11.7415
鴟夷	-11.742
佳士	-11.742
后稷	-11.7421
一叚	-11.7423
登進士第	-11.7425
負薪	-11.7426
羡君	-11.7427
澤民	-11.7427
天柱	-11.7429
平江府	-11.7433
裴度	-11.7434
混一	-11.7435
醉眼	-11.7435
隤	-11.7436
揲	-11.7436
岷峨	-11.7436
汝等	-11.7436
夤縁	-11.7438
牝	-11.7438
菰蒲	-11.7438
欽哉	-11.744
正議大夫	-11.7441
神宗皇帝	-11.7441
享年五十	-11.7444
清涼	-11.7446
吾兒	-11.7447
零陵	-11.7448
荆楚	-11.7449
陵谷	-11.7452
破屋	-11.7456
士類	-11.7457
宗伯	-11.746
埏	-11.7461
則無以	-11.7462
彈琴	-11.7462
睥睨	-11.7464
煌	-11.7465
五星	-11.7465
雎	-11.7465
爼豆	-11.7466
村落	-11.7466
閴	-11.7467
范蠡	-11.7467
勳	-11.7468
攽	-11.7469
歌詠	-11.747
論薦	-11.7472
平甫	-11.7474
毫端	-11.7475
千鈞	-11.7477
命駕	-11.7478
顔氏	-11.7481
震動	-11.7482
上蔡	-11.7486
釋然	-11.7487
交代	-11.7489
致力	-11.7489
兵戈	-11.749
留侯	-11.749
曲肱	-11.749
貽書	-11.7491
那能	-11.7492
五百年	-11.7492
寵靈	-11.7492
盛開	-11.7493
名位	-11.7496
賦役	-11.7498
營營	-11.7499
桐廬	-11.7505
晨興	-11.7511
皇家	-11.7512
饑饉	-11.7513
之罪也	-11.7513
峴山	-11.7514
沆	-11.7514
崦	-11.7514
雷電	-11.7515
淋	-11.7515
固嘗	-11.7515
工部尚書	-11.7519
三百里	-11.7519
濓溪	-11.7521
未詳	-11.7522
嚴州	-11.7524
疇咨	-11.7525
度牒	-11.7531
百氏	-11.7532
福禄	-11.7534
謀猷	-11.7535
𦕈	-11.7536
䖏士	-11.7537
鑑湖	-11.7537
娟娟	-11.7539
撻	-11.754
徃来	-11.7541
仁義禮智	-11.7542
霓裳	-11.7542
里閈	-11.7542
祼	-11.7543
贛	-11.7544
肉食	-11.7548
申明	-11.7554
昨者	-11.7554
萬錢	-11.7555
垂楊	-11.7559
忠勤	-11.7562
美酒	-11.7563
入京	-11.7564
郷人	-11.7566
夷夏	-11.7568
任其責	-11.7568
百草	-11.7569
鈿	-11.757
大姓	-11.7571
七尺	-11.7572
徽州	-11.7576
翰苑	-11.7577
避暑	-11.7578
三百六十	-11.7579
抵掌	-11.758
壺中	-11.7581
某年月日	-11.7581
千峯	-11.7582
隂晴	-11.7585
掛冠	-11.7585
貧民	-11.7585
弓手	-11.7588
伋	-11.7592
邅	-11.7593
刄	-11.7593
殤	-11.7595
蠒	-11.7595
今日之事	-11.7596
榱	-11.7596
清曉	-11.7597
不昧	-11.7597
孰非	-11.7599
劄子乞	-11.7599
青陽	-11.7599
成章	-11.7603
要路	-11.7604
交趾	-11.7605
東軒	-11.7605
節婦	-11.7607
玉泉	-11.7608
俎豆	-11.7609
窮年	-11.7611
三十一	-11.7617
殍	-11.7618
狷	-11.7619
筞	-11.762
頎	-11.762
三十餘年	-11.762
丁卯	-11.7621
吹簫	-11.7622
吳氏	-11.7623
八尺	-11.7624
而後可以	-11.763
寛厚	-11.7633
瓊瑶	-11.7633
樓前	-11.7634
首領	-11.7637
萬貫	-11.764
濛濛	-11.7641
炫	-11.7642
枰	-11.7644
於此時	-11.7645
庥	-11.7645
集巻四	-11.7645
求予	-11.7645
彀	-11.7646
綿綿	-11.7647
髠	-11.7648
昧死	-11.7653
兄子	-11.7653
事物之	-11.7658
新亭	-11.7659
敢期	-11.7659
緝熈	-11.7659
視草	-11.766
不免於	-11.7661
刑名	-11.7663
華堂	-11.7663
文藝	-11.7664
贈别	-11.7664
周流	-11.767
禪院	-11.7671
鹹	-11.7672
讌	-11.7672
正寢	-11.7674
櫻桃	-11.7674
蒼崖	-11.7677
六卿	-11.7677
詳矣	-11.7681
以成其	-11.7681
森然	-11.7683
諌官	-11.7683
釋奠	-11.769
承家	-11.769
大猷	-11.769
九卿	-11.7692
礎	-11.7694
仲淹	-11.7694
談經	-11.7695
癸卯	-11.7696
文墨	-11.7696
皇朝	-11.7696
世其家	-11.7699
殘月	-11.7699
建議	-11.7704
良吏	-11.7704
刻意	-11.7707
疾速	-11.7709
性善	-11.7709
玉局	-11.7713
知之者	-11.7714
萬全	-11.7714
淮水	-11.7714
風騷	-11.7715
白沙	-11.7717
輔弼	-11.7719
崆峒	-11.7722
遅	-11.7722
年来	-11.7722
查	-11.7722
鬪	-11.7724
迢	-11.7725
苜蓿	-11.7726
荆榛	-11.7726
眷眷	-11.7726
未甞不	-11.7729
亦不過	-11.773
知樞宻院事	-11.773
化育	-11.7731
選舉	-11.7731
民俗	-11.7734
豈宜	-11.7734
勘㑹	-11.7736
何以報	-11.7736
門庭	-11.7737
傍人	-11.7739
孝謹	-11.7741
左史	-11.7742
晩節	-11.7744
溪頭	-11.7748
遺逸	-11.7749
根柢	-11.7749
稗	-11.7749
之本也	-11.7749
看詳	-11.7755
指顧	-11.776
檢討	-11.776
藝文	-11.7762
賜環	-11.7763
清晨	-11.7765
稷契	-11.7767
不可易	-11.7769
江都	-11.7771
我國家	-11.7772
傾心	-11.7775
薬	-11.7775
滔	-11.7776
瘵	-11.7777
覆載	-11.7779
華夷	-11.7779
昱	-11.778
員外	-11.778
大丈夫	-11.7782
幽尋	-11.7784
江村	-11.7785
天地之心	-11.7786
兀兀	-11.7788
封禪	-11.7789
惕然	-11.7789
甘㫖	-11.779
諸将	-11.7791
牡	-11.7791
亡國	-11.7793
三十三	-11.7794
厶	-11.7794
所述	-11.7795
二十萬	-11.7795
考績	-11.7798
縱使	-11.7801
辭免除	-11.7801
肱	-11.7802
寢食	-11.7802
鞫	-11.7802
何補	-11.7803
督責	-11.7804
轉運副使	-11.7806
磁	-11.7806
吹嘘	-11.7807
牽牛	-11.7815
誰歟	-11.7817
篤行	-11.7817
万里	-11.7818
未衰	-11.7819
負郭	-11.7822
快意	-11.7823
何傷	-11.7823
無所容	-11.7823
拱手	-11.7825
廟學	-11.7826
彭蠡	-11.783
丱	-11.7831
耆英	-11.7831
畎	-11.7832
延州	-11.7833
嬖	-11.7833
抜	-11.7833
二紀	-11.7834
諸君子	-11.7834
官曹	-11.7834
靈臺	-11.7836
萬口	-11.7837
百歩	-11.7842
白蘋	-11.7843
名譽	-11.7844
友愛	-11.7845
未乾	-11.7846
南仲	-11.7847
師帥	-11.7849
漕運	-11.7849
手澤	-11.7851
取友	-11.7852
所撰	-11.7852
建康府	-11.7853
撚	-11.7854
洄	-11.7855
推誠	-11.7856
畤	-11.7857
糗	-11.7857
桂陽	-11.7858
縢	-11.7858
未嘗一日	-11.7858
矮	-11.7859
塍	-11.7861
户部侍郎	-11.7862
陸氏	-11.7863
持身	-11.7863
廣厦	-11.7864
輿情	-11.7865
君子之所	-11.7866
照眼	-11.7866
萬馬	-11.7868
錦衣	-11.7869
禹穴	-11.7872
囊中	-11.7872
擢用	-11.7874
杜預	-11.7874
治命	-11.7875
檠	-11.7876
英豪	-11.7877
養士	-11.7877
墓碑	-11.788
㟁	-11.788
草色	-11.7881
鏖	-11.7882
言責	-11.7884
執經	-11.7884
嶄	-11.7884
芙蕖	-11.7885
縹	-11.7885
寗	-11.7885
黄鸝	-11.7886
櫜	-11.7887
龍圖閣學士	-11.7887
嚴陵	-11.7887
蔗	-11.7888
今宵	-11.7888
屹然	-11.7888
六尺	-11.7888
分付	-11.789
壯心	-11.789
半空	-11.7894
經畫	-11.7895
招魂	-11.7895
几杖	-11.7896
所鍾	-11.7896
翠華	-11.7898
歳寒	-11.7899
要津	-11.7899
幕中	-11.7901
行路難	-11.7902
激切	-11.7902
光芒	-11.7907
不能忘	-11.7908
金紫光禄大夫	-11.7909
考亭	-11.7911
天下之心	-11.7911
孝治	-11.7911
炯炯	-11.7912
闍	-11.7913
陔	-11.7913
淤	-11.7914
穆公	-11.792
北面	-11.792
熈寕	-11.7921
禁軍	-11.7921
伏惟皇帝陛下	-11.7921
述作	-11.7923
豈勝	-11.7925
直指	-11.793
歴年	-11.793
駕言	-11.7932
倐忽	-11.7934
細細	-11.7934
竊發	-11.7935
囀	-11.7936
詵	-11.7936
臨軒	-11.7936
列仙	-11.7936
某月某日	-11.7936
病骨	-11.7937
天壤	-11.7938
道途	-11.7939
稹	-11.794
隼	-11.7941
輕舟	-11.7941
呼吸	-11.7942
孤立	-11.7945
金閨	-11.7945
耕桑	-11.7946
馴致	-11.7946
喚起	-11.7947
人品	-11.7949
婦道	-11.795
御筵	-11.7952
鄒魯	-11.7953
後村	-11.7958
薫風	-11.7958
浥	-11.7961
太華	-11.7961
㨿	-11.7962
己酉	-11.7964
善良	-11.7965
紬繹	-11.7965
巖巖	-11.7967
無垠	-11.7969
多暇	-11.7969
竹樹	-11.7972
科名	-11.7973
祀典	-11.7975
所以致	-11.7976
廬州	-11.7976
叔向	-11.7977
誰信	-11.7981
獲罪	-11.7982
照磨	-11.7982
純粹	-11.7982
忽憶	-11.7984
擢第	-11.7986
杼	-11.7989
隰	-11.7989
楨	-11.799
蒼然	-11.799
踴躍	-11.799
喟	-11.7991
人臣之	-11.7993
仁政	-11.7997
妙年	-11.8001
千歲	-11.8001
兼侍講	-11.8005
古昔	-11.8009
聲利	-11.8011
壽皇	-11.8012
幽棲	-11.8013
從兄	-11.8014
塑	-11.8016
瀚	-11.8016
遷延	-11.8018
咀	-11.8019
溽	-11.802
暗香	-11.8022
敎授	-11.8023
煤	-11.8024
眡	-11.8025
特達	-11.8025
瀑布	-11.8026
嘉猷	-11.8026
無礙	-11.8027
墓在	-11.8028
飛仙	-11.8028
逸民	-11.803
鄙夫	-11.8033
鼎來	-11.8034
待詔	-11.8041
枋	-11.8042
崇徳	-11.8043
夾道	-11.8043
不腆	-11.8043
朱絃	-11.8043
冠冕	-11.8044
俯伏	-11.8044
察院	-11.8044
金沙	-11.8044
其所以為	-11.8045
前席	-11.8045
須㬰	-11.8045
嫠	-11.8046
倚杖	-11.8046
太乙	-11.8046
芾	-11.8047
臨海	-11.8048
犬吠	-11.8048
涿	-11.8048
盛年	-11.8049
窀穸	-11.8049
葷	-11.805
醉墨	-11.805
猛虎	-11.8053
畮	-11.8054
良醫	-11.8056
他郡	-11.8058
佩玉	-11.8059
往年	-11.806
仁夀	-11.806
斯須	-11.8061
目録	-11.8062
濯足	-11.8063
病眼	-11.8063
英英	-11.8064
其子弟	-11.8065
僧舍	-11.8067
恤民	-11.8068
謫居	-11.8069
悠哉	-11.8071
祜	-11.8071
櫺	-11.8072
惹	-11.8073
追還	-11.8073
轉徙	-11.8075
列城	-11.8076
女四人	-11.8076
吏卒	-11.8078
南湖	-11.8079
邊陲	-11.8081
李白詩	-11.8084
衣鉢	-11.8085
楚詞	-11.809
振起	-11.8091
追逐	-11.8092
上䟽	-11.8096
増秩	-11.8101
邇英	-11.8103
辛卯	-11.8105
示予	-11.8107
巢穴	-11.8107
不佞	-11.8108
殊不知	-11.811
金丹	-11.811
祗受	-11.8114
瞻仰	-11.8115
倚樓	-11.8117
逝矣	-11.8119
四十八	-11.8119
編次	-11.812
青草	-11.8123
噤	-11.8127
袠	-11.8127
簣	-11.8128
畋	-11.8128
䧺	-11.8128
卿士	-11.8128
攖	-11.8129
古樂府	-11.813
憲司	-11.8131
太陽	-11.8131
一瓢	-11.8132
弗及	-11.8133
姓字	-11.8136
弦歌	-11.8138
哲人	-11.8138
韻二首	-11.8141
烏鵲	-11.8143
流亡	-11.8143
殆盡	-11.8144
飢民	-11.8146
承旨	-11.8147
鄧州	-11.8148
矜式	-11.8149
二人者	-11.8149
呼兒	-11.8153
苓	-11.8154
櫻	-11.8155
罙	-11.8156
俻	-11.8157
萬機	-11.8157
諸葛亮	-11.8157
逡廵	-11.8158
漢庭	-11.816
凾	-11.8162
一本作	-11.8162
像設	-11.8163
惘然	-11.8164
語黙	-11.8164
匡廬	-11.8168
不可以無	-11.817
前哲	-11.8172
桓温	-11.8174
長洲	-11.8175
園池	-11.8176
巖壑	-11.8177
松聲	-11.8179
奔馳	-11.818
雙鬢	-11.8181
義利	-11.8181
倜儻	-11.8182
百倍	-11.8183
巡檢	-11.8184
卹	-11.8186
籍籍	-11.8186
備員	-11.8187
儁	-11.8188
感泣	-11.8191
孟郊	-11.8192
茂陵	-11.8193
毗陵	-11.8194
七里	-11.8196
穆穆	-11.8196
阮籍	-11.8196
杖履	-11.8199
蔡氏	-11.8199
予奪	-11.8199
淑人	-11.82
爭先	-11.82
從渠	-11.82
干冒	-11.8201
晦翁	-11.8204
三衢	-11.8207
敢圖	-11.8208
迤	-11.8208
變易	-11.8208
爨	-11.8209
个	-11.8211
眄	-11.8211
荔	-11.8211
某甲子	-11.8211
碾	-11.8211
剡溪	-11.8213
璉	-11.8214
膴仕	-11.8214
羿	-11.8216
禦侮	-11.822
女一人	-11.8222
斐	-11.8223
吹笛	-11.8223
氏諱	-11.8225
特加	-11.8231
開闢	-11.8232
不輟	-11.8234
幽香	-11.8234
訢	-11.8235
箇中	-11.8236
景定	-11.8237
襟期	-11.8238
蹭蹬	-11.8238
上下相	-11.8239
格言	-11.8239
石鼎	-11.8239
周室	-11.824
金湯	-11.824
器使	-11.8241
畿甸	-11.8242
繇是	-11.8242
侵尋	-11.8243
豪氣	-11.8245
發憤	-11.8248
激烈	-11.8251
濟川	-11.8252
廟食	-11.8253
側聞	-11.8255
天祐	-11.8257
眉宇	-11.8262
却笑	-11.8265
宛然	-11.8266
送迎	-11.8266
膩	-11.8267
聖人之言	-11.8267
鍜	-11.8268
宓	-11.8272
真蹟	-11.8273
嵇康	-11.8276
人傑	-11.8277
偷安	-11.8277
勅某	-11.8277
批荅	-11.8281
遥想	-11.8283
以書來	-11.8284
蔭	-11.8289
一壺	-11.829
阻風	-11.8291
滋味	-11.8292
孥	-11.8293
盌	-11.8293
戞	-11.8294
毳	-11.8295
問答	-11.8296
棃	-11.8297
鏃	-11.8297
騎鯨	-11.8305
以致其	-11.8308
荒蕪	-11.8313
帝城	-11.8314
清淺	-11.8314
延陵	-11.8315
隠几	-11.8316
惋	-11.8322
雒	-11.8323
遺迹	-11.8324
嘗讀	-11.8326
子昻	-11.8329
醉倒	-11.8329
雲霞	-11.8331
澤國	-11.8331
私第	-11.8334
賞音	-11.834
弱水	-11.8342
凉風	-11.8343
聲音	-11.8344
荀子	-11.8344
良田	-11.8345
春風吹	-11.8345
架閣	-11.8346
絶俗	-11.8346
官爵	-11.8347
瀦	-11.8348
秦淮	-11.8349
輿地	-11.8349
城壁	-11.835
輕車都尉	-11.8351
眚	-11.8351
奮身	-11.8351
鹿門	-11.8352
秔	-11.8353
匠石	-11.8353
紘	-11.8354
籩豆	-11.8355
三十九	-11.8357
蘆花	-11.8358
子若孫	-11.8359
紅葉	-11.8361
申尚書省	-11.8364
邦昌	-11.8364
龍鍾	-11.8365
勤苦	-11.8366
徳性	-11.8369
州通判	-11.837
助教	-11.837
撒	-11.8377
乃眷	-11.8378
蒹葭	-11.8379
厮	-11.8379
璿	-11.8379
閘	-11.838
無忝	-11.838
聀	-11.838
眼底	-11.838
共理	-11.838
提封	-11.8381
縂	-11.8383
車輪	-11.8387
王荆公	-11.8388
布宣	-11.839
茂對	-11.8395
空翠	-11.8398
八座	-11.8398
萬松	-11.8398
滄江	-11.8401
精粗	-11.8403
筠州	-11.8405
衂	-11.8405
惴惴	-11.8406
氈	-11.8407
保障	-11.8407
元祐三年	-11.8408
澡	-11.8409
𬒮	-11.841
四十五	-11.841
斧鉞	-11.841
瀧	-11.841
幡然	-11.8411
七閩	-11.8411
芬芳	-11.8412
東方朔	-11.8414
忠誠	-11.8415
武岡	-11.8417
煩惱	-11.8418
有功於	-11.8419
提刑司	-11.8419
草廬	-11.842
三十餘	-11.8421
性資	-11.8422
未知其	-11.8423
百斛	-11.8427
粹然	-11.8428
建隆	-11.8429
荏苒	-11.8435
啚	-11.8438
訓詁	-11.8439
南園	-11.8439
幕下	-11.844
後村先生大全集卷	-11.844
字説	-11.8442
剛毅	-11.8444
朝㫖	-11.8444
有之矣	-11.8444
攸司	-11.8448
孤根	-11.8448
温厚	-11.8449
洪鈞	-11.8453
荔子	-11.8455
靖共	-11.8457
虛名	-11.8457
郡齋	-11.8463
蕋	-11.8463
脛	-11.8465
父子兄弟	-11.8465
不忍去	-11.8468
陟降	-11.8468
宗工	-11.847
胥吏	-11.8472
女嫁	-11.8473
驅車	-11.8478
抑又	-11.848
毫末	-11.8481
髙第	-11.8483
野色	-11.8485
寳祐	-11.8485
五品	-11.8489
篠	-11.8492
二毛	-11.8493
宿草	-11.8494
渾然	-11.8496
諶	-11.8497
啓賀	-11.85
諫議大夫	-11.8502
兼領	-11.8502
懇辭	-11.8503
備禦	-11.8503
調發	-11.8508
進讀	-11.8508
榮枯	-11.8508
旁午	-11.8509
昭陵	-11.8509
東郭	-11.851
晶	-11.8512
竒才	-11.8517
得之矣	-11.8518
酈	-11.852
妝	-11.8521
涵泳	-11.8522
漢唐之	-11.8522
豺虎	-11.8522
弗獲	-11.8522
薄俗	-11.8522
華胥	-11.8525
湊	-11.8525
圖史	-11.8527
饔	-11.8527
蔡邕	-11.8527
未必能	-11.8529
憲章	-11.853
前村	-11.853
承恩	-11.8532
沙頭	-11.854
淮南子	-11.854
斁	-11.8542
澄江	-11.8544
駐蹕	-11.8549
澶淵	-11.855
䴡	-11.8552
悒	-11.8552
巖石	-11.8557
門牆	-11.8558
靖節	-11.8559
籍甚	-11.8568
三十八	-11.857
嗜學	-11.857
西風吹	-11.857
道旁	-11.8572
肻	-11.8574
羽衣	-11.8574
山鬼	-11.8577
長孺	-11.8577
牽制	-11.8578
廓然	-11.8578
厝	-11.8579
澘	-11.8579
柴桑	-11.8579
築城	-11.858
五言古詩	-11.858
夢斷	-11.8581
匹馬	-11.8583
激切屏營之至	-11.8585
醉吟	-11.8585
嗣位	-11.8587
九曲	-11.8587
屏居	-11.8588
往服	-11.8589
明敏	-11.859
尚想	-11.8592
害民	-11.8593
滯留	-11.8594
部曲	-11.8598
鮫	-11.8605
𦂳	-11.8606
癭	-11.8606
苧	-11.8608
噓	-11.8608
羃	-11.8608
貞元	-11.8608
習氣	-11.8608
己丑	-11.8609
艱食	-11.8609
誌銘	-11.8609
事件	-11.8611
鯀	-11.8611
發揚	-11.8615
愽士	-11.8615
門巷	-11.8616
太皇太后陛下	-11.8618
女三人	-11.8621
薦紳	-11.8624
氏追封	-11.8624
元祐二年	-11.8626
不泯	-11.8627
天下之民	-11.8631
境界	-11.8631
夢回	-11.8632
乙卯	-11.8635
萬嵗	-11.8635
鬲	-11.8637
墓碣	-11.8638
蟋蟀	-11.8639
桂樹	-11.8641
五十餘	-11.8641
羹	-11.8643
農家	-11.8643
添差	-11.8645
退藏	-11.8646
六十四	-11.8646
親擢	-11.865
十五里	-11.865
塵寰	-11.865
尺五	-11.8654
破碎	-11.8656
來謁	-11.8658
金匱	-11.866
母氏	-11.8662
桐江	-11.8663
就養	-11.8663
螘	-11.8664
逍遙	-11.8664
滄	-11.8664
潮州	-11.8665
婚嫁	-11.8666
芮	-11.8666
顗	-11.8667
少寛	-11.8673
先輩	-11.8675
嶺外	-11.868
䕫州	-11.8682
固陋	-11.8683
曹氏	-11.8684
暴露	-11.8685
數十百	-11.8686
晏子	-11.8692
安在哉	-11.8693
承直郎	-11.8693
北堂	-11.8694
鍵	-11.8695
頡頏	-11.8696
鐺	-11.8696
講義	-11.8696
黄屋	-11.8697
砦	-11.87
宗即位	-11.87
讃	-11.87
也昔者	-11.8701
逢迎	-11.8701
日斜	-11.8701
振衣	-11.8702
雞豚	-11.8702
觀之則	-11.8703
厚禄	-11.8709
數椽	-11.8709
制敕某	-11.871
於此矣	-11.8712
仰祈	-11.8713
不自知其	-11.8713
驪山	-11.8714
勤勤	-11.8718
凄然	-11.8719
襍	-11.8723
逶迤	-11.8723
撾	-11.8724
卷之十	-11.8725
袋	-11.8726
竿牘	-11.8727
愚衷	-11.8727
菟	-11.8728
䦨干	-11.8728
莊子曰	-11.8728
金盤	-11.8729
户口	-11.8731
量力	-11.8733
枝頭	-11.8737
客裏	-11.8738
邊防	-11.8741
景純	-11.8744
不可測	-11.8744
京畿	-11.8744
羣兒	-11.8747
煙波	-11.8751
京邑	-11.8751
從班	-11.8751
嘏	-11.8753
壕	-11.8754
魴	-11.8754
巇	-11.8754
藺	-11.8755
諄	-11.8756
正朔	-11.8756
殛	-11.8756
爪牙	-11.8757
却憶	-11.8757
昆仲	-11.8761
三十七	-11.8763
倉皇	-11.8765
元貞	-11.8766
律令	-11.877
後嗣	-11.8771
晤語	-11.8773
挂冠	-11.8774
文蔚	-11.8774
三百篇	-11.8775
衽	-11.8778
湘江	-11.8779
抱負	-11.8781
音容	-11.8781
咸謂	-11.8781
緗	-11.8782
觀文殿學士	-11.8782
枿	-11.8783
將作監主簿	-11.8783
鴞	-11.8786
紫㣲	-11.8788
人所難	-11.8791
精忠	-11.8794
一幅	-11.8798
仁壽	-11.8799
倚門	-11.8802
貫穿	-11.8805
升斗	-11.8805
肢	-11.8809
向背	-11.8809
駕部	-11.8809
敭	-11.881
单	-11.881
醸	-11.8811
鉗	-11.8811
嵗嵗	-11.8812
亦如之	-11.8813
執鞭	-11.8813
惸	-11.8814
萬騎	-11.8814
徽音	-11.8815
月旦	-11.8818
二尺	-11.8819
巖廊	-11.8821
光彩	-11.8821
體貌	-11.8821
羽毛	-11.8823
彌綸	-11.8826
俄頃	-11.8827
各得其	-11.8828
夏六月	-11.8831
鳥聲	-11.8833
相值	-11.8835
緇衣	-11.8835
識面	-11.8837
沆瀣	-11.8838
默	-11.8839
承奉郎	-11.8839
涓埃	-11.884
臬	-11.8842
哂	-11.8842
䆠	-11.8842
岌	-11.8842
太博	-11.8843
覉	-11.8843
從政郎	-11.8844
有涯	-11.8844
被召	-11.8845
咨爾	-11.8846
扶杖	-11.8846
服闋	-11.8846
外舅	-11.8848
蘭溪	-11.8849
先妣	-11.8852
利禄	-11.8854
慶歴	-11.8856
不可奪	-11.8859
犯法	-11.8862
容貌	-11.8862
感涕	-11.8863
累遷	-11.8863
所係	-11.8869
埭	-11.887
惶懼	-11.887
棼	-11.887
筝	-11.887
聃	-11.8871
羽林	-11.8871
繾綣	-11.8872
沐浴	-11.8873
輦轂	-11.8873
磅礴	-11.8874
臣竊惟	-11.8877
姑射	-11.8878
矢石	-11.8879
著鞭	-11.8881
天衢	-11.8882
臧否	-11.8886
衰年	-11.8891
别業	-11.8891
洗耳	-11.8892
欽惟	-11.8894
敵騎	-11.8896
彧	-11.8896
莫厭	-11.8897
勿謂	-11.8897
愒	-11.8898
一㕓	-11.8898
即席	-11.8898
邵子	-11.8898
强敵	-11.8899
晃	-11.8902
天禧	-11.8904
猗歟	-11.8904
郊廟	-11.8905
奭	-11.8905
訓導	-11.8905
濁醪	-11.8905
馬援	-11.8907
迨今	-11.891
園亭	-11.8914
江干	-11.8916
千二百	-11.8916
走筆	-11.8917
玉京	-11.8918
揺落	-11.8919
綱目	-11.8921
晚嵗	-11.8923
嘉泰	-11.8927
滿腹	-11.8927
琅琅	-11.8929
才智	-11.8929
丹霞	-11.893
萬五千	-11.893
辟雍	-11.893
桑柘	-11.8932
權輿	-11.8932
梅聖俞	-11.8933
數尺	-11.8935
流芳	-11.8935
姪孫	-11.8936
室廬	-11.8937
承宣	-11.8938
寛仁	-11.894
憶昨	-11.8941
鄉曲	-11.8942
泣血	-11.8949
供億	-11.8952
烟波	-11.8952
亷訪	-11.8953
千葉	-11.8955
嗟哉	-11.8955
王粲	-11.8956
終篇	-11.8956
闕庭	-11.8957
貰	-11.8959
滄波	-11.8959
輻	-11.8959
褫	-11.896
廸功郎	-11.8961
䙝	-11.8961
千尋	-11.8963
瑀	-11.8963
眷懐	-11.8966
褒貶	-11.8968
慈祥	-11.8968
何湏	-11.897
田宅	-11.8973
膝下	-11.8976
紅紫	-11.8978
吉祥	-11.898
庭樹	-11.8982
寓直	-11.8986
剩	-11.8987
判府	-11.8987
郛	-11.8988
纜	-11.8988
楊雄	-11.8988
戌	-11.899
三十四	-11.899
耒耜	-11.8991
琱	-11.8994
西戎	-11.8997
賀表	-11.8999
竊嘗	-11.8999
寸長	-11.9001
乘興	-11.9002
交割	-11.9004
不吝	-11.9006
卓爾	-11.9006
澗水	-11.9009
勵精	-11.9011
荷葉	-11.9014
秀發	-11.9015
兌	-11.9017
矧惟	-11.9017
傚	-11.9018
褰	-11.9018
莒	-11.9018
彈指	-11.9018
昴	-11.9019
淘	-11.9019
韡	-11.9021
堯舜禹湯文武	-11.9021
鵉	-11.9025
纉	-11.9025
息肩	-11.9026
仲宣	-11.9034
白骨	-11.9034
魯齋	-11.9035
管絃	-11.9035
忠烈	-11.9037
貫通	-11.9037
長庚	-11.9042
朱墨	-11.9042
秋九月	-11.9047
叩門	-11.9048
新唐書	-11.905
心腹	-11.905
勦	-11.9051
蘊	-11.9052
劎	-11.9052
箕裘	-11.9053
專城	-11.9053
僃	-11.9054
藹藹	-11.9056
竊慮	-11.9058
戎狄	-11.9059
樞府	-11.9059
熟視	-11.906
某頓首	-11.9062
户牖	-11.9063
機務	-11.9063
燈花	-11.9065
不知其幾	-11.9066
金粟	-11.9066
松筠	-11.9068
語之曰	-11.9068
路安撫使	-11.9071
目擊	-11.9072
帥閫	-11.9074
倚欄	-11.9074
暮景	-11.9076
莫逆	-11.9076
仲冬	-11.9078
瀟灑	-11.9078
裊	-11.908
殿中侍御史	-11.908
靴	-11.9082
賜第	-11.9082
騎驢	-11.9082
扎	-11.9085
窮巷	-11.9085
便蕃	-11.9085
鄆州	-11.9087
能言之	-11.9088
泮水	-11.909
餘波	-11.9094
惟恐其	-11.9094
幾許	-11.9095
訓詞	-11.9095
太甚	-11.9096
遴選	-11.9097
勸講	-11.9102
悌	-11.9104
講堂	-11.9108
秉心	-11.9109
鑣	-11.9109
提領	-11.911
貔貅	-11.911
噲	-11.9111
准尚書省劄子	-11.9112
貍	-11.9113
豋	-11.9114
蕞爾	-11.9116
范仲淹	-11.9116
十丈	-11.9118
典謨	-11.9119
無用之	-11.912
伏波	-11.9122
篤志	-11.9124
死灰	-11.9126
近班	-11.913
英華	-11.9132
晉陵	-11.9133
秫	-11.9138
丈室	-11.9138
勣	-11.9138
昵	-11.9139
焞	-11.914
偪	-11.914
祟	-11.9141
悛	-11.9142
榮禄大夫	-11.9142
躰	-11.9144
釋褐	-11.9144
七十餘	-11.9145
鴻毛	-11.9148
洒掃	-11.915
細看	-11.915
地僻	-11.9154
㸃檢	-11.9157
先大夫	-11.9159
片雲	-11.916
度量	-11.9162
后妃	-11.9164
翠㣲	-11.9167
濂	-11.9167
搗	-11.9169
潺潺	-11.917
狠	-11.917
纏	-11.9171
薄宦	-11.9171
姥	-11.9173
龍圖閣直學士	-11.9177
結屋	-11.9177
繼室	-11.9178
不敢忘	-11.9183
作此詩	-11.9191
黃金	-11.9191
兼并	-11.9191
矜憐	-11.9195
嘖	-11.9199
洺	-11.92
罟	-11.9201
外戚	-11.9201
無它	-11.9202
肌膚	-11.9203
簡齋	-11.9203
嵯峨	-11.9204
瓣香	-11.9204
忒	-11.9207
黍稷	-11.9211
五十里	-11.9212
哀憐	-11.9212
瞑目	-11.9213
千歳	-11.9213
盈尺	-11.9215
屑屑	-11.9215
讀其書	-11.9216
泫然	-11.9221
汲引	-11.9226
承信郎	-11.9228
鞋	-11.9229
黌	-11.923
荆山	-11.9231
塵垢	-11.9232
癃	-11.9234
瘖	-11.9234
王畿	-11.9234
大賚	-11.9235
慈湖	-11.9235
黏	-11.9236
莞	-11.9237
楞嚴經	-11.9239
規摹	-11.9242
所以待	-11.9243
羊腸	-11.9244
穆王	-11.9246
尺寸之	-11.9247
樓船	-11.9248
制閫	-11.9257
糴米	-11.9257
貨財	-11.9257
裔孫	-11.9258
茒	-11.9259
鷲	-11.9261
招隠	-11.9261
玦	-11.9262
罌	-11.9264
紼	-11.9265
旴	-11.9265
徊	-11.9265
莢	-11.9267
石屏	-11.9269
廬阜	-11.927
威福	-11.927
采薇	-11.9271
杜宇	-11.9271
莫嫌	-11.9272
夏商	-11.9273
四牡	-11.9276
黄魯直	-11.9278
委寄	-11.9281
無一毫	-11.9284
君臣父子	-11.9284
才猷	-11.9285
内助	-11.929
忘形	-11.9293
漓	-11.9294
鱣	-11.9295
逾年	-11.9295
青冥	-11.9295
翺	-11.9296
怏	-11.9296
致太平	-11.93
榴	-11.9302
踵門	-11.9303
金壇	-11.9304
契闊	-11.9307
克勤	-11.9308
贏得	-11.9309
汪洋	-11.9312
抑揚	-11.9312
畫㦸	-11.9314
法界	-11.9317
宫祠	-11.9319
珠簾	-11.9319
所忌	-11.9319
錢榖	-11.932
獅	-11.9322
暮雨	-11.9323
饑民	-11.9324
攙	-11.9327
循理	-11.9327
混沌	-11.9328
無一物	-11.933
恫	-11.933
頭顱	-11.933
垂拱	-11.9331
歳晚	-11.9336
千鍾	-11.9336
了了	-11.9339
十有二月	-11.9342
舒州	-11.9342
逸少	-11.9344
免役	-11.9345
京國	-11.9346
湯湯	-11.9346
不易得	-11.9349
消磨	-11.9349
戇	-11.9355
賾	-11.9357
呀	-11.9357
調䕶	-11.9357
竹杖	-11.9358
九疇	-11.9359
璟	-11.9359
䔍	-11.936
謝靈運	-11.936
孫男女	-11.9361
錢米	-11.9362
琢磨	-11.9363
几案	-11.9367
十有五年	-11.9367
飛絮	-11.9367
吳江	-11.9368
章貢	-11.9369
尚書省劄子	-11.937
角巾	-11.9374
退休	-11.9375
狂歌	-11.9378
咄	-11.938
舉觴	-11.9383
宦遊	-11.9384
坌	-11.9388
靈均	-11.9389
欹枕	-11.9389
澠	-11.9389
到任謝	-11.939
商旅	-11.9391
祠宇	-11.9393
斌	-11.9394
泮宫	-11.9397
側身	-11.9407
一百二十	-11.9408
孤蹤	-11.9411
眉州	-11.9411
藂	-11.9417
磚	-11.9417
弭節	-11.9419
窳	-11.942
鯨鯢	-11.942
玻瓈	-11.9421
吾輩	-11.9421
荇	-11.9421
慘淡	-11.9422
馳騖	-11.9424
焦勞	-11.9424
遟	-11.9426
熈熈	-11.9427
放浪	-11.9427
眀年	-11.9428
延登	-11.943
夙昔	-11.9436
謀謨	-11.9438
母某氏	-11.9441
荒凉	-11.9442
齒髪	-11.9443
癡兒	-11.9443
未妨	-11.9445
太甲	-11.9446
選掄	-11.9447
硎	-11.9447
畎畝	-11.9448
冠帶	-11.9449
菽水	-11.9449
爛熳	-11.9449
思有以	-11.945
米價	-11.9451
汁	-11.9451
洲渚	-11.9455
仍乞	-11.9456
豪傑之士	-11.9458
王莽	-11.9462
餘見前	-11.9463
仰荷	-11.9466
純孝	-11.9467
塵沙	-11.9468
末年	-11.9478
洶洶	-11.9479
虎丘	-11.948
讋	-11.9481
絆	-11.9482
感悟	-11.9482
楠	-11.9483
稻粱	-11.9483
柂	-11.9484
對揚	-11.9484
瞭	-11.9484
餗	-11.9484
悲傷	-11.9484
權勢	-11.9488
各有所	-11.9489
疆埸	-11.949
所望於	-11.9498
凜然	-11.9499
文集序	-11.95
上庠	-11.95
丹桂	-11.9501
考妣	-11.9501
斗升	-11.9506
素餐	-11.9507
懇懇	-11.9508
里社	-11.9511
嘉納	-11.9514
壯志	-11.9516
春暉	-11.9517
澌	-11.9517
平津	-11.9518
夷陵	-11.9519
慈顔	-11.9519
曼卿	-11.9522
夢幻	-11.9524
觴詠	-11.9529
司諫	-11.953
遴	-11.9531
恭審	-11.9534
齋戒	-11.9535
垂垂	-11.9537
迦	-11.9538
特賜敷奏	-11.9541
丹丘	-11.9541
躭	-11.9541
醉卧	-11.9542
筦庫	-11.9543
糲	-11.9543
曈	-11.9544
楯	-11.9544
幔	-11.9546
就列	-11.9547
蔚然	-11.9547
潤澤	-11.9551
短褐	-11.9552
焙	-11.9552
乞銘	-11.9556
都統	-11.9558
湖邊	-11.9559
雨霽	-11.9559
晦菴	-11.956
以疾終	-11.9566
宦情	-11.9568
太𤣥	-11.957
親征	-11.9573
管城	-11.9573
緍	-11.9573
咤	-11.9576
埃塵	-11.9576
晚晴	-11.9576
濆	-11.9576
墩	-11.9577
鋪張	-11.9578
邳	-11.9579
不與焉	-11.9579
陸贄	-11.9581
幽蘭	-11.9583
團練	-11.9583
滁州	-11.9584
莆田	-11.9587
遲留	-11.9588
張浚	-11.9591
清芬	-11.9591
溪橋	-11.9591
都邑	-11.9592
不售	-11.9592
曾大父	-11.9595
浣花	-11.9597
屬邑	-11.9602
賑糶	-11.9603
無瑕	-11.9603
栻	-11.9608
駑駘	-11.961
斤斧	-11.961
華顛	-11.9611
傾蓋	-11.9614
秋菊	-11.9614
一杯酒	-11.9615
衛大將軍	-11.9615
部郎官	-11.9625
爵位	-11.9626
蓮社	-11.9627
律吕	-11.9631
晨夕	-11.9632
汀洲	-11.9641
王介甫	-11.9642
末流	-11.9647
低頭	-11.9648
萱草	-11.9649
馨香	-11.9649
傾盖	-11.9653
怡怡	-11.9656
監簿	-11.9658
漁陽	-11.9661
陶潛	-11.9662
清樽	-11.9666
條目	-11.9667
蕊	-11.9669
炤	-11.9669
見前注	-11.967
稳	-11.967
訓練	-11.9671
韓世忠	-11.9671
沁	-11.9672
鸛	-11.9672
饞	-11.9677
蛤	-11.9679
畫船	-11.9681
淡泊	-11.9686
奬諭	-11.9688
兒輩	-11.9691
討賊	-11.9695
臨池	-11.9697
經旬	-11.9699
孔融	-11.9701
紀律	-11.9703
朱轓	-11.9704
曷若	-11.9705
摳衣	-11.9705
畎畆	-11.9705
季父	-11.9706
二十五年	-11.9708
祠堂記	-11.9709
四皓	-11.9709
濯濯	-11.9711
朱輪	-11.9716
滑稽	-11.9716
督郵	-11.9717
籩	-11.9717
穿鑿	-11.9718
起居郎	-11.9724
絶壁	-11.9726
離羣	-11.9726
情偽	-11.9727
勿替	-11.973
陶潜	-11.9732
灤	-11.9734
脇	-11.9736
羇旅	-11.9738
鞬	-11.9738
荄	-11.9738
來請銘	-11.9738
殉	-11.9739
吭	-11.9739
啟伏審	-11.974
伏䝉聖慈	-11.9742
渊	-11.9747
眼界	-11.9748
宗廟社稷	-11.9749
百步	-11.9752
緝熙	-11.9752
五十六	-11.9752
盃酒	-11.9756
房杜	-11.9758
幽鳥	-11.9759
頽然	-11.9766
腋	-11.9767
國子祭酒	-11.9768
势	-11.9768
昃	-11.9768
窅	-11.9771
烽火	-11.9773
僚友	-11.9773
魑魅	-11.9773
蕃宣	-11.978
猖狂	-11.9786
鳥雀	-11.9789
渺茫	-11.9793
不可犯	-11.9793
具劄子	-11.9795
荔支	-11.9799
稲	-11.9799
世系	-11.98
陸機	-11.9801
瓮	-11.9801
白駒	-11.9802
釂	-11.9802
臘月	-11.9803
同中書門下平章事	-11.9804
束帶	-11.9805
簽判	-11.9806
芡	-11.9806
塡	-11.9807
契濶	-11.9809
扶疎	-11.9813
洪造	-11.9814
肅宗	-11.9814
輔佐	-11.9818
儒科	-11.9822
巍然	-11.9824
詔有司	-11.9826
快哉	-11.983
庳	-11.9833
糟粕	-11.9833
扁曰	-11.9833
紅蓮	-11.9834
屋漏	-11.9835
渭水	-11.9836
沗	-11.9837
漢廷	-11.9841
処	-11.9841
辠	-11.9841
華衮	-11.9849
四十餘年	-11.9849
迂疎	-11.9849
鳳翔	-11.9852
智勇	-11.9855
黎民	-11.9857
廟謨	-11.9857
駿馬	-11.9863
三省同奉聖㫖	-11.9863
禪寺	-11.9864
親炙	-11.9865
數千人	-11.9865
某年某月某日	-11.9867
爬	-11.9867
范陽	-11.9867
膏腴	-11.987
得其情	-11.9872
般若	-11.9874
帥司	-11.9881
年譜	-11.9881
曹參	-11.9883
供給	-11.9883
披衣	-11.9887
慈闈	-11.9888
波浪	-11.9891
偃息	-11.9891
艦	-11.9896
爇	-11.9897
百九十	-11.9897
主盟	-11.9898
巨源	-11.9901
歊	-11.9901
涔	-11.9902
銛	-11.9903
嵌	-11.9903
秉彛	-11.9905
講讀	-11.9906
栁子厚	-11.9906
百餘里	-11.9908
㢘訪	-11.991
之本意	-11.991
泥沙	-11.9912
泛泛	-11.9913
羣盜	-11.9914
棄置	-11.9914
巖谷	-11.992
朞年	-11.9923
烏程	-11.9924
牀頭	-11.9925
麾下	-11.9925
官箴	-11.9926
泠	-11.9928
三十萬	-11.9929
台候動止萬福某	-11.9929
渟	-11.993
沍	-11.9931
槧	-11.9931
筋骸	-11.9932
崇政殿	-11.9933
猊	-11.9933
宫闈	-11.9935
宝	-11.9939
校書郎	-11.994
雨洗	-11.9945
爐香	-11.9949
小酌	-11.9951
柝	-11.9962
藩鎮	-11.9963
睛	-11.9966
瘴癘	-11.9966
簒	-11.9966
粱	-11.9966
有感焉	-11.9967
瞬息	-11.9968
虫	-11.9968
㶑	-11.9969
彘	-11.9969
遲速	-11.997
醑	-11.9993
嚥	-11.9997
幌	-11.9997
黿	-11.9999
諼	-12.0001
臠	-12.0002
犍	-12.0002
劘	-12.0031
攢	-12.0032
蠭	-12.0033
斍	-12.0035
斉	-12.0038
渦	-12.0063
灧	-12.0066
畯	-12.0068
寀	-12.0068
扛	-12.0093
匯	-12.0097
瀏	-12.0098
暍	-12.0098
垠	-12.0098
榔	-12.0099
槿	-12.01
媧	-12.01
厪	-12.0129
坳	-12.0163
頫	-12.0164
礫	-12.0164
犴	-12.0166
耰	-12.0167
彝	-12.0167
扺	-12.0168
瓚	-12.0168
泫	-12.0178
潯	-12.0187
跣	-12.0196
寞	-12.0199
蝟	-12.0202
䑛	-12.0234
菘	-12.0235
鋩	-12.0236
痴	-12.0262
嚚	-12.0264
鑽	-12.0265
咿	-12.0268
呻	-12.03
鐙	-12.0301
歧	-12.0302
嶧	-12.0303
琚	-12.0303
蝨	-12.0303
巗	-12.0304
塤	-12.0304
嶔	-12.0304
値	-12.0305
嫣	-12.0331
蔀	-12.0334
嚬	-12.0336
薙	-12.0336
竁	-12.0369
藳	-12.037
仝	-12.0373
湟	-12.0373
蓀	-12.0401
淞	-12.0405
瓘	-12.0441
隍	-12.0462
邨	-12.0468
櫪	-12.0471
侶	-12.0471
麯	-12.0475
籃	-12.0476
猪	-12.048
仔	-12.0505
絫	-12.0507
熠	-12.0509
蠖	-12.0509
喇	-12.0509
𥚑	-12.051
紿	-12.0511
腳	-12.0511
蕳	-12.0544
湓	-12.0544
診	-12.0544
瀼	-12.0545
鳧	-12.0546
薩	-12.0548
猒	-12.055
僂	-12.0575
曬	-12.0577
澀	-12.0577
独	-12.0579
猴	-12.0579
刓	-12.0613
惮	-12.0617
鐃	-12.0649
庙	-12.0652
猱	-12.0652
摠	-12.0681
燿	-12.0684
鰥	-12.0685
褚	-12.0687
彗	-12.0687
玆	-12.0692
釘	-12.0716
腔	-12.0718
軿	-12.0718
韃	-12.0722
匀	-12.0724
綈	-12.0724
錡	-12.0726
汔	-12.0728
趺	-12.0743
溼	-12.0754
閧	-12.0758
喑	-12.0758
珙	-12.0759
柟	-12.0762
熒	-12.078
酢	-12.0823
姨	-12.0827
榕	-12.0827
痺	-12.0829
瞥	-12.083
篘	-12.0831
嘈	-12.0859
瑋	-12.086
堇	-12.0861
纚	-12.0863
棒	-12.0864
㡳	-12.0866
戩	-12.0868
鵩	-12.0869
柅	-12.0871
茘	-12.0891
柁	-12.0897
兑	-12.0897
埒	-12.09
淖	-12.0901
眊	-12.0902
罋	-12.0902
窪	-12.0931
楙	-12.0935
鵰	-12.0939
慥	-12.0971
藿	-12.0972
叵	-12.0973
楣	-12.0973
迃	-12.0985
㢲	-12.1
疽	-12.1007
旧	-12.1007
檟	-12.101
漑	-12.1013
鍤	-12.1044
甬	-12.1044
蕤	-12.1048
搃	-12.1048
珩	-12.1048
睟	-12.105
㦯	-12.105
簞	-12.1077
蕝	-12.1082
惧	-12.1085
嚶	-12.1085
􁈍	-12.1086
頳	-12.1087
柿	-12.1087
瑪	-12.1088
毆	-12.1117
戅	-12.1117
茀	-12.1118
飼	-12.112
腫	-12.112
蚕	-12.1122
㷀	-12.1123
錚	-12.1156
粳	-12.1156
賒	-12.1156
屩	-12.1157
皥	-12.1159
啾	-12.1162
噩	-12.1162
艤	-12.1191
榘	-12.1192
蟇	-12.1197
犖	-12.1198
迯	-12.1199
薾	-12.1232
苫	-12.1233
奐	-12.1233
姆	-12.1234
蠆	-12.1234
餔	-12.1235
僨	-12.1235
綻	-12.1235
樛	-12.1236
芰	-12.1237
愾	-12.1238
㕥	-12.1265
娣	-12.1269
沚	-12.1272
腎	-12.1277
珏	-12.1343
蒨	-12.1344
颷	-12.1346
臍	-12.1347
酎	-12.1348
禠	-12.1348
号	-12.1349
跕	-12.1349
蝉	-12.1378
箧	-12.1384
脣	-12.1386
刲	-12.142
惬	-12.142
繅	-12.1425
輶	-12.1425
煽	-12.1456
謇	-12.1457
賕	-12.1458
陕	-12.1458
囉	-12.146
鉦	-12.1463
琨	-12.1467
証	-12.1499
譍	-12.1499
鋏	-12.1499
襆	-12.1499
尫	-12.1501
黟	-12.1502
韈	-12.1532
蹉	-12.1536
㩁	-12.1537
蕆	-12.1537
襯	-12.1538
汭	-12.1541
营	-12.1542
偁	-12.1573
詈	-12.1577
緻	-12.1578
凊	-12.1578
濓	-12.1607
戛	-12.1616
亀	-12.1624
勌	-12.1652
瘧	-12.1655
廛	-12.1655
纈	-12.1658
哇	-12.1659
廳	-12.169
虖	-12.169
鵾	-12.169
变	-12.1692
煨	-12.1693
稾	-12.1693
氐	-12.1695
蠏	-12.1695
㕠	-12.1696
夬	-12.1696
丼	-12.1697
㒒	-12.1697
𥜗	-12.1698
瀟	-12.1725
垓	-12.1727
黽	-12.1728
鷰	-12.1731
蓊	-12.1731
𫐠	-12.1732
嶪	-12.1732
棨	-12.1733
旺	-12.1733
詶	-12.1734
挍	-12.1735
邾	-12.1736
腆	-12.1736
諠	-12.1737
旟	-12.1737
孀	-12.1737
鞵	-12.1771
琬	-12.1771
蒋	-12.1773
磽	-12.1808
埴	-12.1809
灞	-12.1809
㩦	-12.181
饟	-12.181
适	-12.1811
舷	-12.1811
唫	-12.1812
苾	-12.1814
胞	-12.1815
嚙	-12.1818
隲	-12.185
憗	-12.1851
涅	-12.1851
尢	-12.1853
獰	-12.1891
㠯	-12.1892
踔	-12.1893
汜	-12.1893
褎	-12.1893
蕡	-12.1894
倨	-12.1895
摽	-12.1895
垤	-12.1925
臈	-12.1931
淦	-12.1931
捴	-12.1932
恚	-12.1933
沱	-12.1937
怱	-12.1972
䖝	-12.1976
㨂	-12.1976
烱	-12.1976
圩	-12.2012
袞	-12.2015
鼯	-12.2015
蓺	-12.2053
珣	-12.2053
鮒	-12.2055
顕	-12.2057
晳	-12.2095
鄜	-12.2132
芊	-12.2132
槊	-12.2134
蓂	-12.2136
罩	-12.2137
褥	-12.2137
漙	-12.2139
枌	-12.2171
町	-12.2175
瓉	-12.2177
瑗	-12.2178
悁	-12.2178
崒	-12.2179
鍔	-12.218
惴	-12.2214
槨	-12.2216
蹀	-12.2217
撙	-12.2221
旛	-12.2257
党	-12.2258
蕖	-12.2259
獷	-12.226
醬	-12.2263
俳	-12.2302
机	-12.2303
难	-12.2304
𣑽	-12.2306
誾	-12.2307
粛	-12.2309
芃	-12.234
鼕	-12.2341
膜	-12.2341
佯	-12.2342
袪	-12.2343
喁	-12.2344
皜	-12.2345
蓐	-12.2381
㪷	-12.2382
鼈	-12.2382
娟	-12.2383
蚩	-12.2384
滉	-12.2384
焯	-12.2385
掎	-12.2386
詖	-12.2386
噎	-12.2387
滲	-12.2389
朘	-12.2422
遝	-12.2425
抆	-12.2426
虱	-12.243
颸	-12.2466
䟱	-12.2467
鏐	-12.2468
腮	-12.2468
瞠	-12.2472
敺	-12.2476
你	-12.2477
苻	-12.2506
瘍	-12.2509
芼	-12.251
懣	-12.2511
迩	-12.2511
慼	-12.2513
恁	-12.2516
貉	-12.2516
腊	-12.2519
甦	-12.2549
璨	-12.255
删	-12.2553
袐	-12.2557
菓	-12.2598
坻	-12.2598
飣	-12.26
悮	-12.2601
椉	-12.2602
勩	-12.2603
膴	-12.2634
𣢾	-12.264
櫬	-12.264
屧	-12.264
溱	-12.2641
馹	-12.2643
呪	-12.2644
唳	-12.2673
踴	-12.2679
蔌	-12.2682
罸	-12.2682
刖	-12.2683
敡	-12.2684
醁	-12.2685
㽔	-12.2686
閹	-12.2686
匄	-12.2686
殚	-12.2686
譛	-12.269
沭	-12.269
鶱	-12.2725
筑	-12.2726
豗	-12.2727
黝	-12.273
鎰	-12.2731
◍	-12.2734
蕕	-12.2766
輜	-12.277
帔	-12.2771
穣	-12.2771
礲	-12.2771
娃	-12.2771
赱	-12.2772
崕	-12.2773
邴	-12.2774
朅	-12.2793
礬	-12.2808
獺	-12.2813
畚	-12.2816
霤	-12.2818
跼	-12.2818
傒	-12.2819
枳	-12.2823
碍	-12.2854
窣	-12.2858
溘	-12.2861
隃	-12.2863
唘	-12.2895
曖	-12.2904
騑	-12.2904
筩	-12.2905
纘	-12.2907
羆	-12.2946
沬	-12.2947
媵	-12.2947
秤	-12.2948
闓	-12.295
冑	-12.295
凰	-12.2989
螽	-12.2994
莧	-12.3034
聵	-12.3038
飇	-12.3038
券	-12.3038
皖	-12.3041
爆	-12.3077
瞢	-12.308
伉	-12.3082
莵	-12.3082
鞦	-12.3083
譟	-12.3083
豬	-12.3083
済	-12.3088
泡	-12.3088
碓	-12.3124
邙	-12.3125
罝	-12.3127
聱	-12.3127
絪	-12.3129
娑	-12.3169
㶁	-12.3171
逥	-12.3173
豺	-12.3173
𦙍	-12.3174
諝	-12.3217
禫	-12.3219
謭	-12.3221
洹	-12.3221
璠	-12.3224
赧	-12.3224
秊	-12.3224
􁁊	-12.3258
荃	-12.3259
艣	-12.3263
瞋	-12.3264
驁	-12.3264
舁	-12.3264
噍	-12.3265
憺	-12.3267
吃	-12.3267
䌫	-12.3268
潏	-12.3268
汞	-12.3269
嘅	-12.3308
贐	-12.3308
蘸	-12.3309
跫	-12.3309
匙	-12.3311
粃	-12.3311
忮	-12.3312
鞚	-12.3312
𧖟	-12.3314
姢	-12.3353
謩	-12.3358
斿	-12.336
覷	-12.3361
謄	-12.3403
朢	-12.3404
焜	-12.3404
凑	-12.3405
璆	-12.3406
襮	-12.3406
醨	-12.3407
懟	-12.3446
呶	-12.3447
誹	-12.345
賭	-12.345
䲭	-12.3451
軆	-12.3453
幬	-12.3454
弈	-12.3457
涘	-12.3491
颶	-12.3494
猨	-12.3495
隮	-12.3497
呑	-12.3497
恧	-12.3497
晻	-12.3499
韁	-12.35
䌓	-12.3504
撐	-12.354
蠹	-12.3543
搶	-12.3543
阽	-12.3545
飰	-12.3546
婭	-12.3586
槱	-12.359
唶	-12.3592
緌	-12.3592
祏	-12.3593
媺	-12.3593
玘	-12.3594
碭	-12.3634
央	-12.3638
灯	-12.3638
醆	-12.364
忡	-12.3642
詛	-12.3643
朌	-12.3645
薈	-12.3684
卬	-12.3684
唄	-12.3686
汛	-12.3688
紇	-12.3688
蒭	-12.3689
唤	-12.3689
傴	-12.3692
蜡	-12.37
蕞	-12.3725
酡	-12.3731
洶	-12.3734
莩	-12.3735
𠖇	-12.3737
脗	-12.374
篡	-12.374
唁	-12.3781
蜿	-12.3782
帕	-12.3783
乕	-12.3783
舠	-12.3787
宕	-12.3787
狸	-12.3787
黻	-12.3791
盬	-12.3794
磐	-12.3818
轢	-12.3826
淩	-12.3827
恝	-12.3829
寬	-12.383
卨	-12.383
孛	-12.3832
磈	-12.3832
槌	-12.3833
畞	-12.3834
嵒	-12.3835
粼	-12.3872
蒂	-12.3875
抺	-12.3876
垕	-12.3878
泐	-12.3881
帨	-12.3881
喔	-12.3885
蚋	-12.3886
臾	-12.3917
懃	-12.3927
禺	-12.3927
棚	-12.3927
枻	-12.3929
懴	-12.393
􁗩	-12.3931
蛮	-12.3932
卋	-12.3932
阪	-12.3932
澷	-12.3933
掦	-12.3936
鄣	-12.3976
洧	-12.3976
秬	-12.3976
讚	-12.3977
樣	-12.3978
玳	-12.3978
描	-12.3978
罏	-12.398
郇	-12.398
蟊	-12.3983
傖	-12.3985
腑	-12.4027
扑	-12.4027
熨	-12.4028
摻	-12.403
疹	-12.4032
鰕	-12.4032
聪	-12.4032
輾	-12.4078
籞	-12.4079
哩	-12.408
呱	-12.4126
浼	-12.4128
紲	-12.4129
韝	-12.4129
炮	-12.4134
侁	-12.4178
圈	-12.4179
鍛	-12.4181
耜	-12.4181
睎	-12.4181
灊	-12.4182
籕	-12.4185
獬	-12.4224
汸	-12.4226
㗖	-12.4227
僇	-12.4228
譌	-12.4229
皃	-12.4231
换	-12.4231
庄	-12.4275
墁	-12.4277
肪	-12.4278
窖	-12.4279
咍	-12.4279
罨	-12.4279
鄮	-12.4281
乹	-12.4282
鎪	-12.4282
渤	-12.4324
轓	-12.4327
踉	-12.4329
觖	-12.433
帘	-12.4331
玖	-12.4331
嫵	-12.4332
肎	-12.4333
咫	-12.4333
韉	-12.4337
簋	-12.4339
壝	-12.4377
陡	-12.4378
㪺	-12.4379
鏹	-12.4379
佺	-12.438
籓	-12.4381
嚇	-12.4381
塼	-12.4381
蜑	-12.4382
晼	-12.4383
哆	-12.4383
澇	-12.4383
跗	-12.4384
鯽	-12.4384
彜	-12.4384
㫺	-12.4385
忉	-12.4386
櫳	-12.4423
筏	-12.443
賃	-12.4431
㶚	-12.4432
侗	-12.4433
卲	-12.4433
廌	-12.4434
醋	-12.4481
踆	-12.4482
梏	-12.4482
鎗	-12.4482
甎	-12.4483
莠	-12.4483
彯	-12.4485
椅	-12.4485
昶	-12.4487
羝	-12.4488
磑	-12.4533
毿	-12.4537
舲	-12.4539
媛	-12.4539
箝	-12.454
轎	-12.4586
勗	-12.4587
舖	-12.4588
梦	-12.459
皴	-12.459
咮	-12.4591
縲	-12.4595
𡵨	-12.4595
稊	-12.4639
岏	-12.4641
沌	-12.4641
哽	-12.4642
籯	-12.4643
麰	-12.4643
􁃻	-12.4643
鎧	-12.4644
酺	-12.4646
洑	-12.469
㛰	-12.4694
螫	-12.4697
濰	-12.4697
淆	-12.4697
郯	-12.4745
杰	-12.4746
瞶	-12.4746
猺	-12.4747
实	-12.4748
殂	-12.4748
桮	-12.4749
騃	-12.475
爝	-12.475
蓽	-12.475
扐	-12.4751
蕐	-12.4756
巋	-12.4775
鱉	-12.4799
焱	-12.4802
岵	-12.4805
臟	-12.4806
胚	-12.4807
汐	-12.4852
梱	-12.4853
硤	-12.4853
葅	-12.4853
禔	-12.4854
箏	-12.4856
禭	-12.4857
繢	-12.4857
紡	-12.4858
拗	-12.4858
栝	-12.486
澶	-12.4862
匭	-12.4863
漭	-12.4906
姧	-12.4906
趼	-12.4907
揩	-12.4909
僝	-12.491
偲	-12.4913
稌	-12.4915
鞶	-12.4918
顱	-12.4955
鵜	-12.4958
䘚	-12.4964
夤	-12.4964
騘	-12.4964
䭾	-12.4965
襁	-12.4965
斲	-12.4967
蹌	-12.4968
蔟	-12.4969
挼	-12.497
鼂	-12.5017
邜	-12.5018
驃	-12.5018
靠	-12.5018
晬	-12.5019
颿	-12.5019
饁	-12.5019
灵	-12.5023
闉	-12.5054
骼	-12.5071
攣	-12.5072
騄	-12.5073
眯	-12.5073
敉	-12.5074
瑑	-12.5075
牗	-12.5075
䞇	-12.5076
殾	-12.5077
边	-12.5077
咻	-12.5081
壒	-12.5126
銕	-12.5128
倔	-12.5128
颭	-12.513
㫄	-12.5132
㝛	-12.5132
攺	-12.5132
𫾣	-12.5132
譖	-12.5132
詼	-12.5134
裼	-12.5175
还	-12.518
悻	-12.5183
痒	-12.5184
枘	-12.5185
輊	-12.5185
耔	-12.5186
嫚	-12.5186
砢	-12.5187
鐔	-12.5188
瓏	-12.5189
贇	-12.5233
𨗳	-12.5238
篲	-12.5238
芭	-12.5239
旰	-12.524
嘱	-12.5243
瓣	-12.5293
茭	-12.5294
総	-12.5295
艎	-12.5296
彴	-12.5299
迕	-12.5301
闞	-12.5302
宐	-12.5302
滙	-12.5348
摵	-12.535
饉	-12.5351
庋	-12.5351
徠	-12.5351
捩	-12.5352
枹	-12.5353
簔	-12.5354
𥚹	-12.5355
􁋊	-12.5356
禩	-12.5357
赬	-12.5358
谹	-12.5359
劓	-12.5361
猖	-12.5383
椰	-12.5406
壎	-12.541
􁊨	-12.5411
氅	-12.5411
梔	-12.5411
禕	-12.5414
蘗	-12.5414
喈	-12.5414
嫰	-12.5419
紵	-12.5457
濼	-12.5462
餳	-12.5463
箎	-12.5467
曨	-12.5468
棫	-12.5469
琖	-12.5469
麞	-12.5471
鞾	-12.5521
拽	-12.5522
挻	-12.5522
滃	-12.5523
霣	-12.5524
卄	-12.5524
輭	-12.5526
韲	-12.5529
濞	-12.553
頊	-12.5531
踦	-12.5579
􁰽	-12.558
娜	-12.5582
籀	-12.5588
躪	-12.5634
旐	-12.5636
擄	-12.5637
媸	-12.5637
曀	-12.5637
蘅	-12.5638
尝	-12.5638
听	-12.564
胆	-12.564
釅	-12.5641
画	-12.5642
㳤	-12.5643
鱷	-12.5644
窃	-12.5644
緦	-12.5644
狺	-12.5688
穂	-12.5697
鑷	-12.5697
餕	-12.5699
胾	-12.5701
犹	-12.5703
佽	-12.5703
捋	-12.5703
哢	-12.5755
坏	-12.5756
薿	-12.5758
皚	-12.5758
㑭	-12.5759
愎	-12.576
宂	-12.5761
屺	-12.5761
騾	-12.5761
哨	-12.5761
攴	-12.5763
庐	-12.5766
閈	-12.5813
琤	-12.5814
悱	-12.5816
眥	-12.5817
貤	-12.5818
恋	-12.5822
澍	-12.5822
騂	-12.5822
隩	-12.5875
歗	-12.5875
懔	-12.5876
鼃	-12.5877
騏	-12.5877
吮	-12.5878
枲	-12.5878
璵	-12.588
呐	-12.5882
﨑	-12.5883
鄱	-12.5922
驀	-12.5931
搢	-12.5934
簦	-12.5934
鎛	-12.5937
劈	-12.5937
騮	-12.5937
㢮	-12.5938
盭	-12.5939
姤	-12.5939
朓	-12.5943
殳	-12.5944
釃	-12.5978
鵑	-12.599
偓	-12.5994
郿	-12.5995
橅	-12.5995
𢋫	-12.5996
輀	-12.5997
煞	-12.5998
㦄	-12.6
烜	-12.6031
枸	-12.6054
跧	-12.6054
頖	-12.6055
𤱔	-12.6056
孳	-12.6056
惷	-12.6057
堧	-12.6057
絛	-12.6058
鷟	-12.6059
疥	-12.6059
胝	-12.606
籋	-12.606
溯	-12.6061
鴆	-12.6061
轔	-12.6066
簑	-12.6112
卸	-12.6113
荑	-12.6114
揠	-12.6117
癰	-12.6118
蜮	-12.6119
鴒	-12.612
齓	-12.612
耴	-12.6121
疣	-12.6121
崐	-12.6121
睱	-12.6121
噉	-12.6122
絅	-12.6122
嘒	-12.6125
蚪	-12.6125
閶	-12.6177
諲	-12.6179
挐	-12.6179
螳	-12.618
啣	-12.618
晰	-12.618
糵	-12.6181
鄠	-12.6181
瓿	-12.6182
閠	-12.6182
搘	-12.6234
䀌	-12.6236
欿	-12.6242
蛆	-12.6243
媯	-12.6244
攔	-12.6244
捶	-12.6245
罘	-12.6248
瘼	-12.6286
骳	-12.6302
翾	-12.6302
贔	-12.6304
錘	-12.6305
蕘	-12.6305
噱	-12.6307
陘	-12.631
廏	-12.6362
珊	-12.6363
豨	-12.6365
繻	-12.6366
㘴	-12.6366
蝎	-12.6366
謖	-12.6367
捃	-12.6368
伻	-12.6369
謏	-12.637
簀	-12.6417
螿	-12.6427
蓁	-12.6429
鐍	-12.6429
鬷	-12.6429
跽	-12.6429
姫	-12.6429
鰐	-12.6429
夹	-12.6431
搬	-12.6486
塈	-12.6486
鍚	-12.6487
娓	-12.6488
鯖	-12.6491
矇	-12.6493
璹	-12.6494
鮓	-12.6496
叡	-12.6496
罥	-12.6496
俵	-12.6497
雘	-12.6497
嬋	-12.6552
搭	-12.6552
凴	-12.6553
崈	-12.6554
霙	-12.6554
蜺	-12.6556
􁂗	-12.6557
躚	-12.6557
鸂	-12.6557
噀	-12.6557
鍪	-12.6559
詁	-12.6559
憀	-12.656
駈	-12.6561
獮	-12.6564
鯫	-12.6614
頬	-12.6616
嬈	-12.6618
啁	-12.6619
穟	-12.6619
擐	-12.6621
忸	-12.6621
鎩	-12.6623
狖	-12.6623
杌	-12.6623
襖	-12.6623
賵	-12.6624
仐	-12.6625
妺	-12.6681
嶢	-12.6682
祍	-12.6685
讟	-12.6686
渢	-12.6687
瞀	-12.6687
鄼	-12.6687
葳	-12.6688
邯	-12.669
瘢	-12.669
蚡	-12.67
嵎	-12.6744
個	-12.6744
墯	-12.6746
藋	-12.6747
滏	-12.6749
泖	-12.6749
郄	-12.675
倏	-12.6751
艫	-12.6751
郫	-12.6752
抨	-12.6752
纇	-12.6754
溧	-12.6792
鬆	-12.6811
嘷	-12.6814
䔩	-12.6814
廱	-12.6815
妤	-12.6815
满	-12.6816
翣	-12.6816
鏜	-12.6817
瑁	-12.6818
桁	-12.6818
箬	-12.6879
靨	-12.6879
栅	-12.6879
㫋	-12.6881
􁊫	-12.6882
葯	-12.6885
阼	-12.6886
胖	-12.6887
謪	-12.6888
樷	-12.6941
婪	-12.6942
㘭	-12.6946
确	-12.6947
霶	-12.6948
怎	-12.6949
駘	-12.695
旡	-12.695
斆	-12.6951
摺	-12.6951
萁	-12.6955
樟	-12.7009
鹺	-12.701
窽	-12.7011
迍	-12.7011
霪	-12.7012
囓	-12.7012
兜	-12.7014
孜	-12.7015
鄢	-12.7018
滬	-12.7019
譾	-12.7079
骫	-12.708
悤	-12.7082
嶰	-12.7082
坯	-12.7083
磋	-12.7083
曕	-12.7086
𪷟	-12.7145
儈	-12.7146
郟	-12.7146
嗾	-12.7147
襚	-12.7147
廋	-12.7148
訌	-12.7148
蘩	-12.7149
皿	-12.7149
漶	-12.715
醽	-12.715
陴	-12.715
塌	-12.7212
藎	-12.7214
湎	-12.7214
齁	-12.7215
眈	-12.7216
葫	-12.7218
惔	-12.7218
詿	-12.7218
䍦	-12.7219
搉	-12.7219
霎	-12.7221
瘉	-12.7222
裛	-12.7226
抔	-12.7281
娠	-12.7283
姹	-12.7285
簜	-12.7285
墙	-12.7288
醵	-12.7288
髹	-12.7289
墦	-12.7348
媢	-12.7351
麵	-12.7353
燐	-12.7353
冄	-12.7353
芑	-12.7354
煢	-12.7355
潸	-12.7355
齠	-12.7356
溶	-12.7357
埤	-12.7358
狁	-12.7359
鯢	-12.742
閾	-12.742
儇	-12.7423
瘥	-12.7425
褭	-12.7426
怫	-12.7427
縉	-12.7481
橄	-12.7486
剜	-12.749
𪠘	-12.749
牣	-12.7491
眵	-12.7492
阯	-12.7493
祸	-12.7494
穸	-12.7495
鋸	-12.7495
黧	-12.7495
溲	-12.7496
仿	-12.7496
襞	-12.75
嚕	-12.7558
篪	-12.7561
擡	-12.7562
丧	-12.7562
嵳	-12.7563
魅	-12.7563
繰	-12.7564
虓	-12.7566
珈	-12.7568
桺	-12.7572
洫	-12.7579
枷	-12.763
藟	-12.7632
蔥	-12.7632
牂	-12.7632
墖	-12.7634
鏑	-12.7635
蹻	-12.7635
矰	-12.7635
弇	-12.7636
駔	-12.7638
鮭	-12.7639
翶	-12.7641
駰	-12.7702
蹷	-12.7704
璚	-12.7705
㕑	-12.7705
鶡	-12.7705
郗	-12.7705
膈	-12.7705
籝	-12.7705
淥	-12.7706
屭	-12.7707
檗	-12.7707
茇	-12.7707
􁁃	-12.7708
郃	-12.7716
虯	-12.7773
焄	-12.7774
燹	-12.7774
鎚	-12.7775
瑯	-12.7776
眦	-12.7776
傃	-12.7776
串	-12.7777
嵲	-12.778
剌	-12.778
姱	-12.778
膰	-12.778
萇	-12.7781
脰	-12.7781
刊	-12.7782
徉	-12.7847
蟆	-12.7848
魃	-12.7848
縵	-12.7849
鋋	-12.785
繍	-12.7851
䬃	-12.7851
蠋	-12.7852
凨	-12.7852
襜	-12.7852
痿	-12.792
􁒽	-12.7921
糅	-12.7921
溈	-12.7921
繖	-12.7923
嗑	-12.7924
麫	-12.7924
𦦨	-12.7926
侠	-12.7926
傘	-12.7927
狭	-12.7929
帟	-12.793
爚	-12.793
􁅋	-12.7933
櫃	-12.799
撕	-12.7992
肋	-12.7993
縗	-12.7994
罾	-12.7994
􁐾	-12.7996
礦	-12.7999
洿	-12.8001
嘵	-12.8002
鯿	-12.8003
𢷬	-12.8061
努	-12.8062
佾	-12.8066
孶	-12.8067
胭	-12.8068
萸	-12.8069
綌	-12.8071
崤	-12.8071
窹	-12.8072
菆	-12.8072
禬	-12.8073
杇	-12.8074
异	-12.8077
鞿	-12.8077
灋	-12.8081
毘	-12.8136
眂	-12.8137
耉	-12.8139
肫	-12.8142
渫	-12.8142
闒	-12.8145
倭	-12.8147
蘺	-12.8148
鬐	-12.8149
蒜	-12.8149
蝇	-12.8151
儺	-12.8211
㳫	-12.8214
鑊	-12.8216
稡	-12.8217
啻	-12.8217
鎌	-12.8218
捽	-12.8221
澥	-12.8222
􁐇	-12.8224
鼾	-12.8292
冇	-12.8293
閡	-12.8294
毶	-12.8295
檮	-12.8295
罽	-12.8295
礴	-12.8296
痏	-12.8297
鐶	-12.8297
蒺	-12.8298
狴	-12.8298
瑄	-12.83
淟	-12.83
闑	-12.8301
氍	-12.8303
宁	-12.8355
匃	-12.8366
蕾	-12.8367
鏌	-12.837
蹁	-12.8371
忖	-12.8371
齗	-12.8371
鷴	-12.8373
耼	-12.8375
桉	-12.8377
貓	-12.8378
翌	-12.8432
偰	-12.8437
酔	-12.8438
襌	-12.8447
鍧	-12.8448
殪	-12.8449
􁁅	-12.8452
兗	-12.8452
洸	-12.8452
縡	-12.8452
椹	-12.8454
鯈	-12.8455
咬	-12.8459
璮	-12.8459
汧	-12.8461
猘	-12.8524
溆	-12.8526
柞	-12.8526
覌	-12.8527
桅	-12.8527
簴	-12.8528
嗒	-12.8529
劌	-12.8529
㞐	-12.8529
宷	-12.853
涑	-12.8531
筥	-12.8531
鄘	-12.8537
瓴	-12.8601
鴂	-12.8602
囦	-12.8603
杠	-12.8605
痰	-12.8606
楩	-12.8607
醎	-12.8607
棖	-12.861
絞	-12.8611
詗	-12.8612
恡	-12.8612
貔	-12.8674
恟	-12.8678
憙	-12.868
憒	-12.8682
𤯝	-12.8684
欷	-12.8684
鸑	-12.8684
禜	-12.8685
瀲	-12.8687
埶	-12.8687
离	-12.8688
虔	-12.8688
怔	-12.8759
躞	-12.8761
戺	-12.8763
抖	-12.8764
殮	-12.8766
终	-12.8766
秭	-12.8766
螻	-12.877
屦	-12.8841
綯	-12.8841
飪	-12.8844
彷	-12.8845
黮	-12.8845
齕	-12.8847
偵	-12.8847
忼	-12.8848
篩	-12.8849
蹏	-12.8919
瓞	-12.8919
茜	-12.8924
歜	-12.8924
暹	-12.8925
鄖	-12.8925
蕢	-12.8929
朐	-12.8929
烖	-12.893
麑	-12.893
箒	-12.893
丫	-12.8931
璀	-12.8931
岢	-12.8935
渰	-12.8996
槲	-12.9001
褪	-12.9003
哮	-12.9003
莪	-12.9004
伹	-12.9005
􁲍	-12.9005
蚯	-12.9005
贗	-12.9006
櫨	-12.9006
㮚	-12.9006
髄	-12.9007
㒹	-12.9008
帋	-12.9009
紞	-12.9019
蔞	-12.9081
縋	-12.9082
頔	-12.9085
茝	-12.9085
桶	-12.9087
䘖	-12.9089
奫	-12.909
𦍑	-12.9092
砲	-12.9096
愔	-12.9101
滎	-12.9153
嚳	-12.9167
禖	-12.9168
麕	-12.9169
檇	-12.9169
侫	-12.917
橡	-12.9171
芎	-12.9172
脞	-12.9172
𬗟	-12.9173
繐	-12.9176
鞮	-12.9176
鮪	-12.9183
菹	-12.9196
觕	-12.9245
呦	-12.9247
畣	-12.9253
嬙	-12.9253
毣	-12.9254
𨼆	-12.9255
蘤	-12.9256
瀍	-12.9257
宙	-12.9259
髽	-12.9264
邛	-12.9328
尠	-12.9331
濘	-12.9336
琊	-12.9336
鵓	-12.9336
惚	-12.9337
籧	-12.9337
璪	-12.9341
煕	-12.9341
帬	-12.9342
菀	-12.9343
趯	-12.9412
絇	-12.9416
萋	-12.9417
琥	-12.942
煬	-12.9421
雱	-12.9421
祊	-12.9422
薜	-12.9422
倆	-12.9423
裸	-12.9424
癈	-12.9425
魋	-12.9428
蜴	-12.9428
跑	-12.9497
胯	-12.9501
轆	-12.9502
矱	-12.9504
淼	-12.9506
癉	-12.9507
琹	-12.9507
苶	-12.9507
㙜	-12.9507
焼	-12.9509
嶓	-12.9511
瞪	-12.9512
腓	-12.9514
裯	-12.9586
姸	-12.9588
懊	-12.9593
啗	-12.9594
蹠	-12.9597
攤	-12.9597
倂	-12.96
蓻	-12.9602
觱	-12.9604
釭	-12.9675
櫩	-12.9677
肓	-12.9678
焕	-12.9678
澦	-12.968
覡	-12.968
蛄	-12.9681
裵	-12.9681
鎡	-12.9681
肚	-12.9682
秕	-12.9682
纁	-12.9683
袢	-12.9683
㗸	-12.9686
蛉	-12.9689
龢	-12.9689
􁒐	-12.9691
刦	-12.9763
愓	-12.9764
儵	-12.9764
澳	-12.9765
眙	-12.9766
瓔	-12.9767
篾	-12.977
慁	-12.9771
衊	-12.9774
逶	-12.9852
齔	-12.9853
喆	-12.9854
徕	-12.9855
蓉	-12.9855
莛	-12.9856
擻	-12.9857
芙	-12.9858
昺	-12.9858
栩	-12.9859
萑	-12.986
棻	-12.986
䞉	-12.9862
糺	-12.9865
欃	-12.994
甔	-12.9941
餫	-12.9942
芍	-12.9944
睚	-12.9948
滇	-12.9948
鶒	-12.9948
嘬	-12.9949
榿	-12.995
僰	-12.9952
滹	-12.9955
濊	-13.0034
茰	-13.0038
胼	-13.0039
圄	-13.0041
琲	-13.0041
𬈑	-13.0046
旤	-13.0124
憃	-13.0124
凹	-13.0125
欬	-13.0126
矼	-13.0128
徨	-13.0128
衺	-13.0129
麦	-13.013
􁁪	-13.0131
駙	-13.0132
䪨	-13.0135
狨	-13.0139
蝀	-13.0214
駃	-13.0214
盩	-13.0215
篸	-13.0216
惎	-13.0218
愞	-13.0218
㠝	-13.022
郅	-13.0221
戣	-13.0221
箑	-13.0222
週	-13.0223
㕍	-13.0224
鶵	-13.0224
蝠	-13.0225
驎	-13.0225
𣆀	-13.0226
褧	-13.0228
勔	-13.0301
湼	-13.0306
婘	-13.0308
湾	-13.0308
怊	-13.0309
翆	-13.0309
湩	-13.031
澱	-13.0311
襫	-13.0311
婀	-13.0312
喋	-13.0312
􁑴	-13.0313
冏	-13.0313
爺	-13.0314
鱖	-13.0314
𢡟	-13.0317
浃	-13.0399
【	-13.0399
擥	-13.04
侄	-13.0401
篨	-13.0402
搥	-13.0402
㫪	-13.0402
襏	-13.0405
誶	-13.0406
嘐	-13.0406
婕	-13.0407
喣	-13.0407
耡	-13.0408
臊	-13.041
蠕	-13.0413
匈	-13.0494
瀋	-13.0494
屆	-13.0495
墐	-13.0496
暐	-13.0497
梃	-13.0499
霂	-13.0499
饍	-13.0499
玁	-13.0502
蜘	-13.0504
暵	-13.0504
鴿	-13.0505
糯	-13.0587
􁒭	-13.0593
欖	-13.0593
敓	-13.0594
笭	-13.0594
呫	-13.0594
媾	-13.0595
嚌	-13.0595
䥴	-13.0595
臝	-13.0596
鬨	-13.0596
饘	-13.06
娭	-13.06
錠	-13.0685
㯶	-13.0685
甽	-13.0687
朏	-13.0687
箆	-13.0687
攵	-13.0687
鑕	-13.0688
巑	-13.0689
鈇	-13.0689
痔	-13.0691
柸	-13.0692
嶸	-13.0692
薅	-13.0692
尻	-13.0694
諟	-13.0695
戔	-13.0783
韀	-13.0784
甆	-13.0784
殢	-13.0785
瑊	-13.0785
鞲	-13.0786
娼	-13.0787
叉	-13.0788
桔	-13.079
瞍	-13.0795
㬰	-13.0877
甯	-13.088
匵	-13.088
撡	-13.0881
銑	-13.0882
覼	-13.0883
絏	-13.0884
碕	-13.0884
氂	-13.0884
蟪	-13.0885
蟣	-13.0885
笁	-13.0886
餱	-13.0886
蠙	-13.0886
秸	-13.0887
椁	-13.0888
肹	-13.0888
荗	-13.0889
氲	-13.089
碪	-13.089
鷇	-13.089
簏	-13.0893
耤	-13.0899
缽	-13.0979
咳	-13.0981
廑	-13.0983
餮	-13.0983
箵	-13.0983
撇	-13.0983
寉	-13.0983
裌	-13.0986
䆮	-13.0986
蕎	-13.0987
狻	-13.0988
勍	-13.0989
糖	-13.099
幞	-13.0991
銍	-13.0992
螣	-13.0993
㴞	-13.0994
妒	-13.1078
型	-13.1078
穜	-13.108
鬒	-13.1083
硜	-13.1083
􁁄	-13.1085
殣	-13.1086
樅	-13.1087
炰	-13.1087
貊	-13.118
𩔖	-13.1181
嫖	-13.1181
䜿	-13.1182
俑	-13.1184
躄	-13.1185
􁥫	-13.1186
吷	-13.1187
蜥	-13.1188
貙	-13.1188
勰	-13.1189
佻	-13.119
鰌	-13.1192
晢	-13.1192
韐	-13.1194
撗	-13.1195
泱	-13.1282
刧	-13.1285
磻	-13.1286
聡	-13.1286
徔	-13.1286
怩	-13.1286
戻	-13.1289
鼐	-13.1289
柙	-13.1289
幰	-13.129
蹐	-13.129
泂	-13.129
襴	-13.1295
匽	-13.1305
竣	-13.1367
胔	-13.1383
滫	-13.1384
㽜	-13.1385
菔	-13.1385
剃	-13.1386
廚	-13.1387
㲲	-13.1387
僛	-13.1388
惝	-13.139
𣪚	-13.139
頮	-13.1391
鬧	-13.1391
珌	-13.1391
刅	-13.1391
酴	-13.1392
踸	-13.1392
疉	-13.1392
倜	-13.1392
肈	-13.1393
憝	-13.1393
瞎	-13.1393
慴	-13.1394
駉	-13.1394
􁦹	-13.1396
埓	-13.1399
酖	-13.14
鳲	-13.1492
鏟	-13.1493
赳	-13.1493
戬	-13.1493
擗	-13.1494
站	-13.1495
觶	-13.1495
蘢	-13.1497
嵂	-13.1497
栰	-13.1498
禝	-13.1499
慍	-13.15
褉	-13.15
麏	-13.15
崟	-13.15
􁒏	-13.1502
稺	-13.1502
鞓	-13.1594
眢	-13.1597
蓧	-13.1597
䣊	-13.1599
竑	-13.1599
嵊	-13.1599
顫	-13.16
楶	-13.16
匜	-13.1601
鑛	-13.1601
牯	-13.1602
匶	-13.1602
羑	-13.1603
礧	-13.1603
睍	-13.1604
罳	-13.1604
鼷	-13.1609
鷥	-13.1699
裀	-13.1699
㬌	-13.17
圞	-13.17
獒	-13.1702
歈	-13.1703
甖	-13.1703
莬	-13.1703
睞	-13.1704
暱	-13.1705
痍	-13.1708
伾	-13.1708
蒻	-13.1709
紃	-13.171
訹	-13.171
笱	-13.1711
𥅆	-13.1713
灸	-13.1716
罣	-13.1808
尨	-13.1809
痞	-13.1811
驌	-13.1812
搨	-13.1813
咒	-13.1813
挨	-13.1814
郜	-13.1814
榾	-13.1814
僶	-13.1815
𫝊	-13.1815
荳	-13.1818
軛	-13.1818
蠁	-13.1818
萝	-13.1818
嘨	-13.1818
揵	-13.1819
蘃	-13.1819
轝	-13.182
剋	-13.1825
瑱	-13.1825
剱	-13.1827
惘	-13.1896
鸚	-13.1917
匆	-13.1917
珞	-13.1919
獍	-13.1919
霡	-13.192
澨	-13.192
㚄	-13.192
扅	-13.1922
珽	-13.1922
䄡	-13.1922
涬	-13.1924
粢	-13.1925
哷	-13.1925
蒍	-13.1925
很	-13.1927
陿	-13.1927
嵋	-13.1928
􁆁	-13.1931
賍	-13.1933
譸	-13.1936
荏	-13.2025
偘	-13.2025
闤	-13.2028
燉	-13.2028
酆	-13.2029
摐	-13.203
惙	-13.203
扊	-13.203
憖	-13.203
逌	-13.2032
郾	-13.2033
臏	-13.2033
櫑	-13.2034
糚	-13.2034
洌	-13.2034
峪	-13.2034
梲	-13.2035
􁈯	-13.2036
囁	-13.2036
杙	-13.2036
輴	-13.2037
蘼	-13.2037
刎	-13.2038
汍	-13.2038
毹	-13.2039
旜	-13.2043
浯	-13.2131
莉	-13.2136
姍	-13.2139
寠	-13.2142
檥	-13.2144
砉	-13.2144
窊	-13.2144
楔	-13.2145
􁂶	-13.2145
斕	-13.2145
嶁	-13.2146
簌	-13.2147
蹮	-13.2147
髧	-13.2149
湥	-13.2149
㰸	-13.2149
柢	-13.215
踶	-13.2153
潙	-13.2155
騭	-13.2157
肰	-13.2252
劚	-13.2252
𥻘	-13.2252
􁡯	-13.2254
逑	-13.2255
縊	-13.2256
杆	-13.2257
穷	-13.2257
㯽	-13.2257
滀	-13.2258
卣	-13.2259
痡	-13.2259
缿	-13.2259
楝	-13.226
僎	-13.226
䯻	-13.2261
荈	-13.2262
郸	-13.2262
䀆	-13.2264
噞	-13.2277
昪	-13.2356
痁	-13.2365
騅	-13.2366
㬥	-13.2367
憨	-13.2367
笴	-13.2368
忞	-13.237
谺	-13.237
崿	-13.2371
亝	-13.2374
秌	-13.2374
巣	-13.2374
涊	-13.2374
㴠	-13.2374
騤	-13.2375
鉶	-13.2379
慺	-13.2382
旉	-13.2478
圑	-13.2481
噶	-13.2483
櫽	-13.2483
􁁜	-13.2484
噦	-13.2486
趐	-13.2486
靮	-13.2486
瑙	-13.2486
犄	-13.2487
虡	-13.2487
􁑼	-13.2487
跟	-13.2488
鮐	-13.2488
菖	-13.2488
飊	-13.2488
蝮	-13.2489
蜾	-13.2491
鎸	-13.2491
矞	-13.2492
茉	-13.2593
欸	-13.2594
硉	-13.2594
从	-13.2595
崎	-13.2595
蓓	-13.2597
雊	-13.2598
豉	-13.2598
鬖	-13.2598
趕	-13.2598
􁆸	-13.2599
辣	-13.26
驦	-13.26
倥	-13.26
悝	-13.2601
坷	-13.2602
絙	-13.2602
􁀾	-13.2602
圡	-13.2603
师	-13.2605
蚿	-13.2605
揄	-13.2605
􁄂	-13.2606
濈	-13.2607
鞘	-13.2607
瑳	-13.2608
歠	-13.2608
傋	-13.2609
厔	-13.2714
鳷	-13.2716
抝	-13.2716
䂊	-13.2717
崘	-13.2723
褕	-13.2724
蝙	-13.2724
観	-13.2725
薮	-13.2734
矍	-13.2814
楛	-13.2835
暠	-13.2837
鸝	-13.2837
􁊬	-13.2839
杗	-13.2839
漈	-13.2841
硏	-13.2841
蜷	-13.2841
鐂	-13.2841
茄	-13.2841
膻	-13.2841
璁	-13.2841
棕	-13.2841
腯	-13.2843
􁩑	-13.2844
醤	-13.2845
垜	-13.2845
灕	-13.2849
蕺	-13.2951
儤	-13.2951
瓷	-13.2952
蔔	-13.2952
吒	-13.2954
鎁	-13.2954
餬	-13.2956
崷	-13.2957
栱	-13.2957
谽	-13.2957
柮	-13.2959
洚	-13.2959
嚀	-13.296
岣	-13.296
圬	-13.2962
􁲛	-13.2964
㰱	-13.2965
俁	-13.2966
蜋	-13.2966
矝	-13.2972
啅	-13.3074
螮	-13.3076
攟	-13.3078
腠	-13.3078
澂	-13.3078
酃	-13.3078
苹	-13.3079
禿	-13.3081
珤	-13.3081
佪	-13.3081
䖟	-13.3082
祅	-13.3083
絓	-13.3084
熇	-13.3086
勱	-13.3089
覦	-13.309
懍	-13.3197
幪	-13.3199
岊	-13.32
鄔	-13.3201
嗽	-13.3201
捭	-13.3202
砰	-13.3203
漘	-13.3205
蛬	-13.3206
汹	-13.3206
骭	-13.3206
菉	-13.3207
羾	-13.3207
迮	-13.3208
彿	-13.3208
咆	-13.321
鬴	-13.3211
棱	-13.332
摳	-13.3322
嫻	-13.3324
篔	-13.3324
䦧	-13.3325
暏	-13.3326
䢴	-13.3327
嘹	-13.3327
輤	-13.3327
訒	-13.3329
蔦	-13.333
仡	-13.333
揑	-13.3334
杕	-13.3335
􁍇	-13.3338
慓	-13.334
齦	-13.3344
怗	-13.3448
鰓	-13.3449
觝	-13.3451
蒱	-13.3452
凸	-13.3453
慆	-13.3455
巓	-13.3455
廥	-13.3455
蹰	-13.3456
叮	-13.3457
頲	-13.3458
咋	-13.3458
嶤	-13.3458
􁃽	-13.3459
倕	-13.346
搦	-13.3461
棬	-13.3461
侂	-13.3469
屇	-13.347
蝌	-13.3473
雰	-13.3577
宄	-13.3578
䛇	-13.358
鼪	-13.358
袝	-13.3582
魍	-13.3582
峕	-13.3582
滳	-13.3583
禴	-13.3583
蓘	-13.3583
龠	-13.3583
瀁	-13.3584
搤	-13.3586
圏	-13.3586
凬	-13.3587
璈	-13.3588
緐	-13.3588
靁	-13.3589
􁀌	-13.3589
􁄻	-13.3705
楂	-13.3706
鷂	-13.3707
躧	-13.3707
蹡	-13.3708
跬	-13.3712
籹	-13.3712
霔	-13.3712
摰	-13.3714
劂	-13.3715
肸	-13.3716
僴	-13.3717
沲	-13.3719
晣	-13.372
𤼵	-13.372
蜊	-13.3722
廙	-13.3835
顴	-13.3838
沇	-13.3839
釗	-13.3842
砆	-13.3843
貇	-13.3844
蠨	-13.3844
穪	-13.3844
蛸	-13.3845
􁀈	-13.3845
詧	-13.3847
坱	-13.3848
蓏	-13.3849
拮	-13.3851
牐	-13.3854
饎	-13.3855
蠃	-13.3855
餖	-13.3855
襶	-13.397
檳	-13.3972
瀡	-13.3973
嶻	-13.3974
崪	-13.3975
柚	-13.3979
躊	-13.398
臓	-13.398
炉	-13.3982
琇	-13.3983
嵸	-13.3983
垍	-13.3984
麛	-13.399
骾	-13.4104
麒	-13.4105
翀	-13.4106
嗛	-13.4108
蜍	-13.411
鈕	-13.411
牾	-13.411
㰖	-13.4111
朧	-13.4111
輳	-13.4112
玫	-13.4113
遛	-13.4113
慇	-13.4113
碗	-13.4113
褘	-13.4113
晜	-13.4114
煆	-13.4114
酇	-13.4115
毰	-13.4115
頁	-13.4115
頩	-13.4116
禡	-13.4116
[...]
