<unk>	0
<s>	0
</s>	0
之	-3.90375
也	-3.9377
/	-4.12463
以	-4.45641
者	-4.46023
而	-4.57022
)(	-4.59528
則	-4.66446
為	-4.80311
)	-4.87249
(	-4.87732
其	-4.99827
有	-5.07727
不	-5.2095
於	-5.27737
故	-5.35871
曰	-5.36483
謂	-5.44865
與	-5.61025
言	-5.66896
一	-5.71101
此	-5.71156
皆	-5.77623
無	-5.78489
是	-5.78759
人	-5.83278
于	-5.87062
禮	-5.92577
亦	-5.9504
大	-5.9669
云	-5.98146
在	-6.01372
用	-6.02443
上	-6.03954
及	-6.05746
至	-6.06292
如	-6.13667
所	-6.13931
三	-6.16954
矣	-6.18872
自	-6.19371
行	-6.19532
又	-6.19987
下	-6.20175
中	-6.21088
同	-6.21999
反	-6.22504
事	-6.22534
若	-6.23481
祭	-6.24102
王	-6.24904
子	-6.29134
注	-6.29381
君	-6.31621
時	-6.35233
乃	-6.37771
二	-6.38284
▁	-6.38635
服	-6.38697
非	-6.40034
正	-6.44489
凡	-6.47623
出	-6.49819
爲	-6.5053
大夫	-6.5152
當	-6.52513
焉	-6.52537
使	-6.53811
猶	-6.53855
後	-6.56941
見	-6.57982
主	-6.58306
主人	-6.58493
士	-6.59284
從	-6.59307
明	-6.59637
公	-6.60863
今	-6.61078
相	-6.6328
入	-6.64286
即	-6.65542
必	-6.65855
既	-6.66899
乎	-6.67046
官	-6.67387
作	-6.67398
諸侯	-6.67599
音	-6.6821
五	-6.6827
立	-6.68717
四	-6.68843
先	-6.69473
命	-6.71496
得	-6.71532
所以	-6.72461
然	-6.72671
文	-6.74294
受	-6.74552
食	-6.77134
日	-6.78381
樂	-6.78903
前	-6.79472
已	-6.79685
或	-6.79781
成	-6.82123
賓	-6.84912
物	-6.85021
賔	-6.8515
○	-6.85462
民	-6.85598
地	-6.85761
國	-6.85923
道	-6.86508
長	-6.88217
尊	-6.88665
雖	-6.89211
取	-6.89689
六	-6.90267
尸	-6.91042
天子	-6.91632
設	-6.91779
天	-6.91794
名	-6.92035
始	-6.9342
親	-6.93629
知	-6.94771
疏	-6.94916
位	-6.95498
本	-6.96002
外	-6.96837
内	-6.98141
合	-6.98396
可	-6.99376
齊	-6.99612
重	-6.99666
,	-7.00551
夫	-7.00614
生	-7.00849
掌	-7.01978
謂之	-7.02429
右	-7.02573
獻	-7.03569
方	-7.04103
未	-7.04205
以為	-7.04371
各	-7.04892
東	-7.06235
車	-7.07319
書	-7.07371
周	-7.07768
臣	-7.0831
義	-7.08788
舉	-7.09119
復	-7.09893
將	-7.10395
令	-7.10554
次	-7.11085
朝	-7.11327
制	-7.11652
執	-7.118
數	-7.1231
宜	-7.12314
稱	-7.12505
分	-7.12541
拜	-7.12563
南	-7.12743
法	-7.15106
治	-7.15627
九	-7.16001
耳	-7.16898
小	-7.17307
經	-7.17637
諸	-7.17662
之禮	-7.18182
升	-7.18788
居	-7.19068
所謂	-7.19368
喪	-7.19922
神	-7.2
西	-7.20601
門	-7.21771
兩	-7.22265
衣	-7.22555
水	-7.22744
案	-7.23381
之事	-7.23912
去	-7.24104
馬	-7.243
字	-7.25919
惟	-7.25953
而已	-7.26587
加	-7.27091
安	-7.2731
父	-7.27313
遂	-7.277
欲	-7.2825
降	-7.2846
進	-7.28738
能	-7.28777
射	-7.31507
通	-7.31562
告	-7.31612
廟	-7.31733
等	-7.32278
而不	-7.32488
實	-7.32939
辭	-7.32968
陳	-7.33209
不可	-7.33635
爵	-7.34003
多	-7.34413
家	-7.34606
氏	-7.34807
陽	-7.35231
田	-7.35437
聲	-7.35505
節	-7.35986
是也	-7.36483
蓋	-7.37114
宫	-7.37306
徳	-7.3735
何	-7.37632
因	-7.37943
異	-7.38452
七	-7.38833
問	-7.38957
冠	-7.39392
師	-7.39783
祀	-7.39861
心	-7.39921
左	-7.40351
傳	-7.40472
死	-7.40577
象	-7.40628
北	-7.42168
祖	-7.42192
屬	-7.42507
來	-7.42567
祝	-7.42738
致	-7.42977
易	-7.43149
八	-7.43877
者也	-7.44113
敬	-7.44855
夏	-7.45106
但	-7.46551
坐	-7.46707
奠	-7.46723
定	-7.46749
初	-7.46873
宗	-7.47012
古	-7.47019
請	-7.47586
奉	-7.4762
和	-7.47784
席	-7.47914
止	-7.48695
處	-7.48937
女	-7.49052
器	-7.49199
侯	-7.4996
平	-7.50414
直	-7.51195
土	-7.51464
引	-7.51744
帝	-7.52366
興	-7.52787
故云	-7.53862
常	-7.53933
由	-7.54212
酒	-7.54361
體	-7.54412
學	-7.54668
不得	-7.55283
縣	-7.55504
山	-7.55775
教	-7.56719
善	-7.56947
衆	-7.57044
母	-7.57246
月	-7.57681
室	-7.57782
共	-7.58103
唯	-7.58381
㑹	-7.58435
婦	-7.58475
就	-7.58645
終	-7.58855
别	-7.59228
氣	-7.59682
司	-7.59703
並	-7.60142
授	-7.60584
且	-7.60744
視	-7.61138
近	-7.61456
備	-7.61794
更	-7.61875
説	-7.62085
政	-7.62322
為之	-7.62357
變	-7.62895
世	-7.63283
薦	-7.63339
盡	-7.6345
州	-7.63466
職	-7.63479
度	-7.63697
據	-7.63981
玉	-7.64547
尚	-7.64742
布	-7.6502
廣	-7.65145
卿	-7.65433
餘	-7.6546
容	-7.65924
歸	-7.65944
葬	-7.66334
身	-7.66339
卒	-7.66858
年	-7.66901
應	-7.67036
牲	-7.67101
記	-7.67144
註曰	-7.67355
守	-7.6744
著	-7.68441
殺	-7.68756
鄭	-7.68767
之時	-7.68867
介	-7.68887
適	-7.69035
武	-7.69098
刑	-7.69176
載	-7.69337
志	-7.70867
元	-7.71259
者謂	-7.71396
辟	-7.71709
三年	-7.71851
章	-7.71858
髙	-7.7242
者以	-7.72459
御	-7.72525
以其	-7.72867
功	-7.7296
鄉	-7.73343
十	-7.73636
葢	-7.74234
色	-7.74419
俎	-7.74813
順	-7.74881
君子	-7.75313
還	-7.75765
不言	-7.76142
少	-7.76312
儀	-7.76411
論	-7.76546
木	-7.76744
周禮	-7.76877
天下	-7.77044
以下	-7.77286
固	-7.77543
比	-7.77657
逺	-7.7785
哭	-7.7823
而後	-7.78505
過	-7.7876
然後	-7.7926
兼	-7.79325
▁(	-7.7972
彼	-7.80266
意	-7.803
序	-7.80895
不敢	-7.81
具	-7.81122
故曰	-7.81475
特	-7.8155
畢	-7.81647
養	-7.8167
足	-7.82022
封	-7.82577
賜	-7.82677
建	-7.83135
首	-7.83353
爾	-7.83446
置	-7.8347
可以	-7.83473
仁	-7.83791
兄弟	-7.84083
燕	-7.84373
期	-7.84531
鼓	-7.8475
白	-7.85046
對	-7.85197
金	-7.85541
哀	-7.857
夫人	-7.85725
除	-7.85915
說	-7.85985
衰	-7.86274
也云	-7.86383
漢	-7.86677
盛	-7.86716
郊	-7.86862
春	-7.86903
角	-7.87054
魯	-7.87166
德	-7.87533
己	-7.87882
之所	-7.87886
北面	-7.87989
奏	-7.88141
理	-7.88389
軍	-7.88864
孝	-7.88932
隂	-7.89094
列	-7.89102
間	-7.89112
聞	-7.89209
亂	-7.89333
起	-7.89411
享	-7.89461
依	-7.8957
盖	-7.89742
兵	-7.89949
堂	-7.89994
不能	-7.90259
退	-7.90381
俱	-7.91034
火	-7.91317
后	-7.91456
婦人	-7.91917
幣	-7.92246
詩	-7.92505
飲	-7.92941
哉	-7.92995
發	-7.93125
。	-7.93337
詔	-7.93801
疑	-7.94111
百	-7.94518
伯	-7.94596
貴	-7.95085
鄭氏曰	-7.95985
之後	-7.96348
禁	-7.9662
我	-7.96947
司馬	-7.97142
交	-7.97569
新	-7.97769
觀	-7.98189
任	-7.98436
飾	-7.98604
疏曰	-7.9908
之義	-7.99241
秋	-7.99629
之屬	-8.007
晉	-8.01004
星	-8.01005
考	-8.01321
深	-8.01398
春秋	-8.01408
情	-8.01873
孫	-8.01901
利	-8.02096
惡	-8.02241
注云	-8.02395
難	-8.02566
虞	-8.03402
一人	-8.03457
戒	-8.03533
之法	-8.03812
廢	-8.03891
議	-8.04139
辨	-8.04209
舞	-8.04364
切	-8.04547
有司	-8.04726
弓	-8.04825
史	-8.05015
鄭注	-8.05506
典	-8.05645
故也	-8.05852
求	-8.0603
厚	-8.06234
半	-8.06285
太	-8.07024
酌	-8.07203
客	-8.0727
工	-8.07447
承	-8.07483
豆	-8.07593
孔子	-8.0764
府	-8.07675
亦如之	-8.07798
牛	-8.08204
殷	-8.08204
昭	-8.08446
至於	-8.08479
待	-8.0853
改	-8.08718
魚	-8.08816
力	-8.08893
陵	-8.08924
贊	-8.08962
饗	-8.0919
疾	-8.09275
報	-8.09814
老	-8.09856
釋	-8.1001
信	-8.10204
輕	-8.10301
獨	-8.10784
徹	-8.11066
類	-8.11363
極	-8.11393
不同	-8.11395
祭祀	-8.11937
如此	-8.12101
再	-8.1212
父母	-8.12177
解	-8.12355
面	-8.12451
嵗	-8.12591
質	-8.12638
斂	-8.12639
失	-8.12906
鼎	-8.13148
張	-8.13724
/)	-8.13825
好	-8.13902
歌	-8.14482
城	-8.14646
社	-8.14762
宋	-8.1487
扵	-8.14956
動	-8.15077
皇帝	-8.1511
襲	-8.15522
都	-8.15523
其所	-8.15648
賢	-8.15663
黄	-8.15941
繼	-8.16017
是以	-8.16027
宿	-8.16094
也故	-8.16096
總	-8.16237
之意	-8.16321
風	-8.16468
甚	-8.16579
族	-8.16835
散	-8.16905
思	-8.17027
矢	-8.17133
卜	-8.17176
示	-8.17306
藏	-8.17579
訖	-8.17682
要	-8.17697
帶	-8.17822
每	-8.18223
皆有	-8.18278
某	-8.18341
修	-8.18482
嘗	-8.18502
大功	-8.18548
豈	-8.18684
代	-8.18813
吉	-8.18822
誠	-8.18844
亡	-8.18988
指	-8.19284
羽	-8.19408
似	-8.19471
語	-8.19504
律	-8.19694
庶子	-8.19758
舊	-8.20416
左右	-8.2042
流	-8.20466
并	-8.20501
皇	-8.20658
石	-8.20756
聖	-8.20965
施	-8.21431
聘	-8.21697
杖	-8.21923
皮	-8.2213
卑	-8.22353
註	-8.22409
私	-8.229
徒	-8.22918
十二	-8.2318
絶	-8.23227
者以其	-8.23239
卿大夫	-8.23438
免	-8.23521
表	-8.23581
商	-8.23582
妻	-8.23733
衛	-8.23869
臨	-8.23909
率	-8.23946
形	-8.24079
手	-8.24237
均	-8.24256
吾	-8.24261
唐	-8.24618
純	-8.25112
冬	-8.25181
旣	-8.25221
存	-8.25617
主婦	-8.25712
可知	-8.2576
有所	-8.25823
殯	-8.26159
言之	-8.26255
之道	-8.2629
弔	-8.26324
音義	-8.26417
達	-8.26865
揖	-8.27124
天地	-8.27192
肉	-8.27202
䘮	-8.27222
宮	-8.2725
上下	-8.27299
路	-8.27579
美	-8.27675
羊	-8.2792
勞	-8.2818
萬	-8.28212
差	-8.28755
壇	-8.28756
野	-8.29027
之制	-8.29035
殿	-8.29119
篇	-8.29185
乗	-8.29204
卷	-8.29659
舍	-8.29747
里	-8.29798
東面	-8.30122
聖人	-8.3047
送	-8.3091
望	-8.31005
末	-8.31052
旅	-8.31074
曲	-8.3155
人之	-8.31741
圭	-8.3187
莫	-8.31877
讀	-8.31948
禘	-8.32193
清	-8.32259
恐	-8.32279
帥	-8.32531
西面	-8.32699
財	-8.32798
積	-8.33283
斯	-8.33493
釋曰	-8.33708
旁	-8.33806
詳	-8.33979
迎	-8.34233
造	-8.34297
)○	-8.34439
之服	-8.34464
端	-8.34639
貢	-8.34696
畫	-8.34718
按	-8.34719
龍	-8.353
全	-8.35548
素	-8.35967
弗	-8.36059
使者	-8.36892
配	-8.36942
也此	-8.37933
號	-8.37944
宗廟	-8.38361
河	-8.38467
而言	-8.38476
醴	-8.38552
而無	-8.38605
将	-8.38759
此言	-8.38825
筮	-8.38965
口	-8.39112
庶	-8.3926
聽	-8.39284
三月	-8.40122
正義鄭氏康成曰	-8.4022
毋	-8.4044
遷	-8.40604
愛	-8.40647
祔	-8.40898
周公	-8.40909
之中	-8.41023
屨	-8.41138
須	-8.41164
朝服	-8.41228
先王	-8.414
小功	-8.41478
然則	-8.41502
宣	-8.41755
省	-8.41875
羞	-8.41915
約	-8.42094
隨	-8.42195
習	-8.42238
崇	-8.42269
許	-8.42544
逆	-8.42558
闕	-8.42674
之言	-8.42944
役	-8.43043
澤	-8.43073
麻	-8.43232
往	-8.43355
邑	-8.43389
寢	-8.43491
洗	-8.43497
簡	-8.43568
脩	-8.43612
推	-8.43639
益	-8.4381
再拜	-8.43979
於此	-8.44264
圖	-8.44525
孔	-8.44649
龜	-8.44707
之數	-8.45024
向	-8.4545
助	-8.45935
統	-8.46013
大夫士	-8.46206
不以	-8.46254
邦	-8.46809
饌	-8.46913
覆	-8.47361
賦	-8.47487
開	-8.47514
者皆	-8.47877
則有	-8.47928
計	-8.47997
以上	-8.48426
化	-8.48462
罪	-8.48495
如初	-8.48758
雜	-8.49031
南面	-8.49468
𤣥	-8.49746
參	-8.49985
仍	-8.50148
原	-8.50289
妾	-8.50501
裳	-8.50537
管	-8.50581
稍	-8.50711
乘	-8.50906
之類	-8.50998
横	-8.50999
弟	-8.51023
登	-8.51042
折	-8.51149
采	-8.51228
之間	-8.5142
古者	-8.51654
楚	-8.51732
又曰	-8.51939
棺	-8.5208
也若	-8.52223
監	-8.52235
便	-8.52292
亦有	-8.5258
青	-8.52885
息	-8.52975
故知	-8.52983
禄	-8.53852
必有	-8.53888
儀禮	-8.54073
叔	-8.54229
恩	-8.54236
申	-8.54251
四時	-8.54252
羣	-8.54266
階	-8.5436
柩	-8.54479
景	-8.54735
不知	-8.54991
聚	-8.54995
嚴	-8.55011
側	-8.55124
市	-8.55277
齊衰	-8.55418
頭	-8.55606
專	-8.55658
良	-8.56312
禮也	-8.56461
目	-8.5687
量	-8.56978
紀	-8.57198
尊者	-8.57265
宰	-8.57322
久	-8.57373
勝	-8.57391
納	-8.57486
男子	-8.57583
巾	-8.57742
尊卑	-8.57899
賤	-8.58165
離	-8.58223
式	-8.58306
姑	-8.58888
梁	-8.59025
赤	-8.5909
牧	-8.59111
王之	-8.59148
伐	-8.59439
灋	-8.5944
也凡	-8.597
袒	-8.59839
詣	-8.60264
傷	-8.60294
門外	-8.60538
孤	-8.60739
斷	-8.60776
何以	-8.60845
華	-8.60905
其餘	-8.60951
無所	-8.61261
户	-8.61393
征	-8.61479
察	-8.61712
害	-8.62121
三日	-8.62152
不及	-8.62183
附	-8.62262
酬	-8.62505
秦	-8.62554
接	-8.62599
靈	-8.62925
男	-8.63302
衡	-8.63338
領	-8.6365
館	-8.63688
甲	-8.63763
乾	-8.63785
後世	-8.6393
他	-8.63933
其事	-8.64259
保	-8.64717
之地	-8.64873
結	-8.64927
屋	-8.64967
者亦	-8.65467
不用	-8.65506
祠	-8.6555
光	-8.65573
夷	-8.65587
墓	-8.65622
也言	-8.65719
微	-8.65782
二人	-8.65936
略	-8.65975
飯	-8.65976
毛	-8.66227
爼	-8.66346
豐	-8.66492
練	-8.66553
草	-8.66576
則不	-8.66707
之位	-8.6671
歲	-8.66872
農	-8.6713
給	-8.67135
天子諸侯	-8.67154
山川	-8.67178
俗	-8.67205
薄	-8.67272
鼔	-8.67346
於是	-8.67459
趨	-8.6774
班	-8.67758
即位	-8.67892
革	-8.68065
之子	-8.68241
足以	-8.68536
誤	-8.68639
攝	-8.69006
之喪	-8.69491
几	-8.69506
司徒	-8.69576
獸	-8.69799
諸侯之	-8.69821
吏	-8.6991
鬼神	-8.69945
訓	-8.70053
之文	-8.70058
謹	-8.70113
移	-8.70148
强	-8.70262
嘉	-8.70318
敢	-8.70535
不足	-8.70537
百官	-8.70539
冕	-8.70577
丘	-8.70774
辰	-8.70809
使人	-8.70995
房	-8.7116
日月	-8.71238
種	-8.71279
牢	-8.71311
遺	-8.7141
夜	-8.71445
米	-8.71605
元年	-8.71697
邦國	-8.71922
之外	-8.71924
豕	-8.71948
垂	-8.71986
肆	-8.72075
祼	-8.72175
江	-8.7224
福	-8.72286
敎	-8.72309
天子之	-8.72368
井	-8.72385
佐	-8.7242
圍	-8.72503
斬	-8.72804
材	-8.73099
朱	-8.73338
俟	-8.73459
君之	-8.73489
業	-8.73492
宗子	-8.73668
邪	-8.73827
文王	-8.73888
稷	-8.74081
子曰	-8.74098
明堂	-8.74521
鳥	-8.74569
四方	-8.7471
禮記	-8.74818
被	-8.74998
東西	-8.75057
眀	-8.75076
病	-8.75153
越	-8.75203
又云	-8.75275
膳	-8.75525
句	-8.75714
謀	-8.75815
會	-8.75925
周官	-8.75957
感	-8.76023
持	-8.76104
則以	-8.76127
之人	-8.76202
顯	-8.76261
故以	-8.76317
仲	-8.76344
出入	-8.76417
竹	-8.76479
違	-8.76616
之上	-8.7668
(○	-8.76715
三十	-8.76719
世子	-8.76869
充	-8.76883
屈	-8.76936
禮樂	-8.76938
盟	-8.76993
恭	-8.77121
擇	-8.77217
孔疏	-8.77361
孝子	-8.77392
昏	-8.77599
衣服	-8.77888
喪服	-8.78034
帛	-8.78125
委	-8.78138
朔	-8.78142
肅	-8.78291
虚	-8.78295
徴	-8.78311
輪	-8.7854
讓	-8.78746
畧	-8.78772
精	-8.78918
干	-8.78921
永	-8.79069
穆	-8.79403
祥	-8.79456
刻	-8.79576
竟	-8.79627
連	-8.79669
庶人	-8.79688
萬物	-8.79862
誓	-8.79899
下文	-8.79932
宰夫	-8.80065
黍	-8.8019
夕	-8.804
者案	-8.80447
踊	-8.80457
使之	-8.80846
尺	-8.81301
性	-8.81659
各有	-8.81947
之節	-8.81955
二十	-8.82037
調	-8.82245
諡	-8.82268
二年	-8.82283
笄	-8.82316
憂	-8.82942
繫	-8.82989
味	-8.83012
慶	-8.83108
五十	-8.83138
犯	-8.83243
之心	-8.83394
條	-8.83471
不必	-8.83493
細	-8.83549
盥	-8.83842
厭	-8.83896
為主	-8.8392
權	-8.8394
伏	-8.84045
兆	-8.84107
月令	-8.84108
嫌	-8.84483
筵	-8.84521
侑	-8.84571
殤	-8.84724
齒	-8.84739
適子	-8.84906
雨	-8.8502
立于	-8.8509
鍾	-8.8529
司射	-8.85663
天下之	-8.85848
凶	-8.85857
忠	-8.85895
答	-8.85976
不見	-8.86044
戎	-8.86249
擯者	-8.8648
例	-8.86491
来	-8.86587
耕	-8.8661
之物	-8.86962
用之	-8.86997
大射	-8.8702
不可以	-8.87057
僕	-8.87163
跪	-8.87219
行之	-8.87356
假	-8.87408
也案	-8.87409
佐食	-8.87421
慎	-8.87422
之下	-8.87457
醢	-8.87681
祈	-8.87732
鄭云	-8.87747
之名	-8.87773
以待	-8.87878
尚書	-8.87905
識	-8.87987
恒	-8.88026
祫	-8.88546
羣臣	-8.88554
小斂	-8.8859
郡	-8.8869
賈	-8.88773
無服	-8.88906
絰	-8.89035
咸	-8.89149
黨	-8.89191
漸	-8.89272
骨	-8.8943
孰	-8.89453
而下	-8.89604
最	-8.89765
敵	-8.89785
負	-8.89853
放	-8.89863
公子	-8.90116
之儀	-8.90309
嫁	-8.9041
兄	-8.905
黒	-8.90718
尤	-8.91146
社稷	-8.91162
不過	-8.91208
遇	-8.913
才	-8.91352
留	-8.91421
轉	-8.91611
敦	-8.91691
少牢	-8.91772
審	-8.91936
可也	-8.91982
博	-8.91995
殊	-8.92042
幽	-8.92274
耦	-8.92513
其禮	-8.92532
觶	-8.92536
高	-8.92588
皇后	-8.92602
勸	-8.92644
上介	-8.9268
祭之	-8.92749
三公	-8.9305
步	-8.93121
隂陽	-8.93157
算	-8.93373
斬衰	-8.9339
弦	-8.93478
孔氏曰	-8.93526
威	-8.93541
氏曰	-8.93649
歩	-8.93663
苟	-8.93742
禮之	-8.93837
鄭鍔曰	-8.93996
徧	-8.94056
占	-8.94074
收	-8.94145
庭	-8.94252
絲	-8.94347
胡	-8.94517
蕙田案	-8.94639
賔客	-8.94672
之前	-8.94706
之内	-8.948
籩	-8.94836
遣	-8.94867
内外	-8.9488
子孫	-8.94897
舅	-8.94927
上文	-8.9497
則是	-8.95019
召	-8.95075
窮	-8.95176
之處	-8.95284
寧	-8.95318
緦	-8.95341
賛	-8.95356
縁	-8.9537
賈疏	-8.95488
戰	-8.95576
贈	-8.95656
賞	-8.95681
寒	-8.95682
國君	-8.95817
束	-8.95865
川	-8.95908
至于	-8.9605
劉	-8.96065
其義	-8.96091
又有	-8.96166
人君	-8.96234
武王	-8.96391
此經	-8.96521
輿	-8.96563
集	-8.96589
卒哭	-8.96874
欲其	-8.96898
讀為	-8.96915
姓	-8.97002
不復	-8.97479
其位	-8.97493
注曰	-8.97493
林	-8.97624
堂上	-8.97628
揚	-8.9793
災	-8.98021
責	-8.98163
丁	-8.98167
也其	-8.98201
皮弁	-8.98287
候	-8.9829
舜	-8.98307
倍	-8.98334
畜	-8.98417
太祖	-8.98461
獲	-8.98468
特牲	-8.98482
悉	-8.98488
厲	-8.98614
飲酒	-8.98686
務	-8.98751
也然	-8.98981
旦	-8.99009
亦不	-8.99184
旌	-8.99202
鬼	-8.99238
擯	-8.99304
不為	-8.99319
為一	-8.99451
歟	-8.99452
果	-8.99548
幅	-8.99571
言其	-8.99638
飲食	-8.99689
禹	-8.99871
夫子	-8.99888
急	-8.99947
擊	-8.9995
未有	-9.00073
弟子	-9.00153
短	-9.00305
減	-9.00388
魏	-9.0039
副	-9.00467
穀	-9.00496
品	-9.00526
璧	-9.00737
徐	-9.0076
之説	-9.00862
空	-9.01001
而有	-9.0103
術	-9.01099
苦	-9.01158
皆以	-9.01263
燕禮	-9.01407
巳	-9.01451
追	-9.01475
行禮	-9.01492
閒	-9.01559
毎	-9.01738
侍	-9.0181
陰	-9.01947
鐘	-9.02159
諱	-9.02257
七十	-9.02301
錯	-9.0234
男女	-9.02436
駕	-9.02571
妃	-9.02633
不在	-9.02794
從之	-9.02829
慮	-9.03254
李	-9.03333
聘禮	-9.03485
其實	-9.03566
濟	-9.03607
營	-9.03718
決	-9.03864
税	-9.03864
惠	-9.03993
頒	-9.04083
千	-9.04128
校	-9.04255
鄭康成曰	-9.0446
死者	-9.04514
衞	-9.04577
子男	-9.04584
髙祖	-9.0462
徑	-9.04732
國之	-9.04753
宗人	-9.04757
克	-9.04813
防	-9.04821
雖有	-9.04859
衆賔	-9.05074
裘	-9.05128
夾	-9.05216
嗣	-9.05231
見於	-9.05245
否	-9.05305
歳	-9.05309
磬	-9.05374
壻	-9.05394
民之	-9.05449
之辭	-9.05457
禽	-9.05496
延	-9.05507
聴	-9.0554
出於	-9.05577
黍稷	-9.05692
六十	-9.05821
海	-9.05838
纓	-9.05854
成人	-9.05907
君臣	-9.05914
躬	-9.05953
答拜	-9.06097
證	-9.06158
貴賤	-9.06189
昌	-9.06207
是故	-9.06274
復位	-9.06644
徃	-9.07126
者此	-9.07129
取其	-9.07169
當為	-9.07235
不與	-9.07399
碑	-9.07441
寡	-9.07492
廬	-9.07533
鳴	-9.07536
之日	-9.07664
棄	-9.07759
熟	-9.07904
倫	-9.07965
旗	-9.08243
前後	-9.08246
酢	-9.08252
危	-9.08271
避	-9.08321
古人	-9.08394
隆	-9.08401
䟽	-9.08421
勿	-9.08509
郷	-9.08641
予	-9.0865
循	-9.08666
輔	-9.09057
之官	-9.09064
昆弟	-9.0913
藉	-9.09305
壺	-9.09337
淫	-9.09479
受之	-9.09671
毁	-9.10192
維	-9.10355
逹	-9.10457
上帝	-9.10525
荒	-9.10531
偏	-9.10673
服之	-9.10796
舎	-9.10817
資	-9.10842
敗	-9.10943
、	-9.11016
友	-9.11055
者言	-9.11221
漆	-9.11223
堅	-9.11242
大事	-9.11316
斗	-9.11396
柔	-9.11496
湯	-9.11566
補	-9.11619
賓客	-9.11624
以此	-9.11832
况	-9.11916
含	-9.11922
泰	-9.11936
於君	-9.12032
葛	-9.12037
樹	-9.12303
部	-9.12401
一日	-9.12435
篚	-9.12606
𦵏	-9.12653
呼	-9.12722
知其	-9.12825
亦然	-9.12943
塗	-9.13022
救	-9.13453
富	-9.13494
下大夫	-9.13582
距	-9.13874
敖氏繼公曰	-9.13936
肺	-9.13952
大宰	-9.14096
笙	-9.14149
而后	-9.14188
摯	-9.14207
此云	-9.1426
速	-9.14342
刺	-9.14354
幾	-9.14428
縮	-9.14575
朋友	-9.14634
鉶	-9.14651
上公	-9.14652
錫	-9.14691
縫	-9.1471
反位	-9.1485
之職	-9.14903
腥	-9.15139
周人	-9.1519
立於	-9.1521
古之	-9.15271
桓	-9.15282
儒	-9.15378
十五	-9.15488
鄭司農云	-9.15674
事也	-9.15707
𫝊	-9.15822
導	-9.15937
暴	-9.1594
之樂	-9.15967
雉	-9.16227
述	-9.16249
之義也	-9.16257
蔽	-9.16487
王制	-9.16854
詩云	-9.17061
與其	-9.17094
小臣	-9.17188
患	-9.17206
傳曰	-9.1726
圜	-9.17498
祧	-9.17503
雞	-9.1752
鄭氏	-9.17717
故不	-9.17795
執事	-9.17865
限	-9.17917
太子	-9.18099
舅姑	-9.18113
甸	-9.18217
王氏曰	-9.18251
所用	-9.1853
選	-9.18715
曲禮	-9.18752
同姓	-9.18858
於外	-9.18964
講	-9.18983
歴	-9.19176
脯	-9.192
罷	-9.19244
綏	-9.19302
吉凶	-9.19422
以禮	-9.19436
之等	-9.19499
罰	-9.19504
主於	-9.19534
崩	-9.19598
休	-9.19629
試	-9.19632
東方	-9.19809
在上	-9.19846
供	-9.19899
血	-9.19952
雲	-9.19981
成王	-9.2006
専	-9.20098
五帝	-9.20182
虎	-9.20186
畏	-9.20298
吕	-9.20326
録	-9.20361
夫婦	-9.2046
幸	-9.20501
朱子	-9.20671
而為	-9.20795
貳	-9.20957
榖	-9.20969
未嘗	-9.20981
正月	-9.2105
佩	-9.21219
辱	-9.21365
深衣	-9.21481
故謂之	-9.21634
慈	-9.21864
君命	-9.21874
亦以	-9.21887
包	-9.2193
犬	-9.21944
牀	-9.22104
五年	-9.22108
幼	-9.22205
冬至	-9.22341
萬民	-9.22357
編	-9.22359
異於	-9.22364
中央	-9.22371
滅	-9.22378
膚	-9.22388
莊	-9.22423
升堂	-9.2254
背	-9.22625
者不	-9.22862
撫	-9.22876
左傳	-9.2298
壹	-9.23016
寸	-9.23075
三分	-9.23077
赴	-9.23155
有事	-9.23202
受命	-9.23258
簋	-9.23309
㫖	-9.2339
獄	-9.23516
宅	-9.23779
格	-9.23821
豫	-9.23823
忘	-9.24089
攻	-9.24248
西方	-9.24318
而行	-9.24423
餕	-9.24437
桑	-9.24689
邊	-9.25196
衽	-9.25217
寛	-9.25242
叙	-9.2527
弁	-9.25448
寳	-9.25458
稽	-9.25495
展	-9.25517
四年	-9.25518
則知	-9.25564
爭	-9.25613
綴	-9.25615
環	-9.25626
先王之	-9.25654
天地之	-9.25677
已下	-9.25699
以爲	-9.25699
大宗	-9.2571
九月	-9.25802
也今	-9.25941
堂下	-9.25997
振	-9.26121
再拜稽首	-9.26145
京	-9.26236
貨	-9.2626
昔	-9.26283
拜送	-9.26297
主君	-9.26611
蒲	-9.26707
香	-9.2677
周之	-9.26806
父子	-9.26854
貫	-9.26895
扶	-9.26985
竒	-9.26986
髽	-9.27082
矣故	-9.27158
築	-9.27221
鎮	-9.27253
文武	-9.27306
之祭	-9.27364
雍	-9.27414
諫	-9.27426
潔	-9.27457
之南	-9.27504
孔子曰	-9.27525
司空	-9.28114
沈	-9.28129
秩	-9.28138
徵	-9.283
繩	-9.28432
堯	-9.28439
去聲	-9.28449
帷	-9.28476
温	-9.28538
戸	-9.28564
孟子	-9.28625
何也	-9.28627
運	-9.28712
戴	-9.28979
也夫	-9.28983
見其	-9.29037
禫	-9.29119
衆賓	-9.2917
貌	-9.29394
之說	-9.29417
傅	-9.29512
胥	-9.29566
履	-9.29569
明矣	-9.29571
古文	-9.29588
籍	-9.29649
絃	-9.29659
儐	-9.29781
十二月	-9.29807
匹	-9.29939
而出	-9.30043
於人	-9.30219
命之	-9.30303
饋	-9.30309
醮	-9.30363
勤	-9.30378
及其	-9.30413
腊	-9.30667
康	-9.30671
冝	-9.30698
吳	-9.30716
黄鍾	-9.30796
愚	-9.308
司正	-9.30839
國中	-9.30939
學者	-9.31155
五月	-9.31168
至此	-9.31267
侯伯	-9.31425
宴	-9.31484
奪	-9.31498
隱	-9.31543
顧	-9.31639
其親	-9.31913
也又	-9.31929
露	-9.31933
輕重	-9.32068
仕	-9.32166
軍旅	-9.32358
不當	-9.32361
啓	-9.32502
百姓	-9.32649
鹽	-9.32738
大斂	-9.3288
啟	-9.32885
煩	-9.32938
厥	-9.32982
稅	-9.33023
十有二	-9.3303
可知也	-9.33065
大師	-9.33099
掩	-9.33117
鄉射	-9.33256
孟	-9.33266
繅	-9.33762
襄	-9.33793
榮	-9.33934
則無	-9.33983
臺	-9.34052
世婦	-9.34081
互	-9.34089
之神	-9.3426
教之	-9.34303
牆	-9.34479
太廟	-9.34553
卒爵	-9.34583
祭服	-9.34592
東南	-9.34814
三耦	-9.34818
菹	-9.34926
匕	-9.34999
人情	-9.35001
單	-9.35064
版	-9.35066
蠶	-9.35092
㣲	-9.35124
抑	-9.3517
道也	-9.35181
𤣥端	-9.35244
入門	-9.35292
之臣	-9.35304
長子	-9.35381
増	-9.35384
▁疏	-9.3546
昭穆	-9.35509
而立	-9.35531
左氏傳	-9.35613
朝廷	-9.35633
幹	-9.35771
竊	-9.35982
歛	-9.36167
祖廟	-9.36169
之道也	-9.36192
四人	-9.36399
游	-9.36446
憲	-9.3682
之西	-9.36834
王者	-9.36995
戚	-9.37008
十一	-9.37069
燭	-9.37074
預	-9.37114
鄭注云	-9.37126
所以為	-9.37137
季	-9.3721
其身	-9.37213
烝	-9.37243
界	-9.37367
關	-9.37379
慢	-9.37389
甫	-9.37443
塞	-9.37454
夀	-9.37521
屏	-9.37542
;	-9.37601
后稷	-9.37669
析	-9.37823
彌	-9.37834
又以	-9.37889
賢者	-9.37896
取之	-9.37978
旅酬	-9.38173
闗	-9.38255
故言	-9.38268
辯	-9.3837
索	-9.38437
弱	-9.38444
謝	-9.38513
𤼵	-9.38537
優	-9.38566
怨	-9.38571
一曰	-9.38644
下士	-9.38778
籩豆	-9.38821
韋	-9.38862
大小	-9.3905
若有	-9.39064
為上	-9.39093
之事也	-9.39097
釁	-9.39174
行事	-9.39218
鬯	-9.3923
禰	-9.39234
或曰	-9.39242
贄	-9.39303
欽定四庫全書	-9.39365
受爵	-9.39382
舒	-9.39542
誅	-9.39725
椁	-9.39928
攷	-9.39961
敖氏曰	-9.39966
非也	-9.40221
之禮也	-9.40419
黑	-9.40501
早	-9.40521
之士	-9.40561
司士	-9.40606
割	-9.40636
南北	-9.40702
柄	-9.4075
之氣	-9.40903
尋	-9.41073
束帛	-9.41119
之使	-9.41253
十六	-9.41335
百里	-9.41363
不拜	-9.41397
記曰	-9.4151
損	-9.41549
也然則	-9.41562
倚	-9.41591
肩	-9.41609
於禮	-9.41732
薨	-9.41995
粟	-9.4201
衍	-9.42051
宗伯	-9.42096
銘	-9.42134
雷	-9.42228
於廟	-9.4223
逸	-9.4227
錢	-9.42327
四十	-9.42393
丈	-9.42533
冢宰	-9.42786
先生	-9.42817
弊	-9.42899
藝	-9.42903
為君	-9.42918
大宗伯	-9.42939
三獻	-9.4306
治之	-9.43071
有三	-9.434
倉	-9.43415
奔	-9.43511
組	-9.43711
脱	-9.43718
庸	-9.43814
父之	-9.4385
之灋	-9.43924
所云	-9.43986
纁	-9.4401
陸	-9.44113
者必	-9.44263
國家	-9.44434
異姓	-9.44524
禱	-9.44569
莫不	-9.44675
午	-9.44695
禮者	-9.44746
次之	-9.44847
従	-9.44905
削	-9.44975
相見	-9.45038
贊者	-9.45131
未聞	-9.45204
黼	-9.45394
費	-9.45398
士喪禮	-9.45529
緦麻	-9.4555
此謂	-9.45553
趙	-9.45624
支	-9.45671
西北	-9.4574
以時	-9.45818
制度	-9.45941
有常	-9.45964
菜	-9.46079
只	-9.46226
爵弁	-9.46275
剛	-9.46309
徽	-9.46414
三人	-9.46446
勇	-9.46506
隠	-9.46562
弓矢	-9.46658
於天子	-9.46695
詩曰	-9.46856
羮	-9.46904
真	-9.46913
其數	-9.46918
恤	-9.46925
轂	-9.46963
䙝	-9.47005
不然	-9.47087
黄帝	-9.47224
之理	-9.47245
韓	-9.47286
不從	-9.47294
在下	-9.47308
旬	-9.47311
在西	-9.47526
喜	-9.47544
泉	-9.47748
圓	-9.47773
者若	-9.47776
釋曰云	-9.47889
糾	-9.4793
十月	-9.48121
灌	-9.48157
夢	-9.48179
之長	-9.48269
以告	-9.48275
丞	-9.48302
之實	-9.48322
繁	-9.48337
浴	-9.48409
鑿	-9.48498
七月	-9.48512
五祀	-9.48675
乏	-9.487
養老	-9.4876
第	-9.488
雜記	-9.48858
若然	-9.48931
祿	-9.48941
明日	-9.48941
西南	-9.48975
貞	-9.49204
八十	-9.49232
一也	-9.49342
尊也	-9.4953
遠	-9.49589
十一月	-9.49639
其後	-9.49732
檀弓	-9.49819
況	-9.49843
淳	-9.49872
染	-9.49891
亦當	-9.49904
不相	-9.49986
曹	-9.49992
先後	-9.50041
頌	-9.50074
齋	-9.50138
茅	-9.50175
以見	-9.50184
無不	-9.50191
多少	-9.50203
拾	-9.50236
勺	-9.50238
緇	-9.50346
耶	-9.50381
懐	-9.50422
絞	-9.50439
不降	-9.50445
蔡	-9.50467
訟	-9.50511
必以	-9.50609
有二	-9.50631
遭	-9.50636
翼	-9.50684
弧	-9.50753
以授	-9.50785
緯	-9.50843
妄	-9.50963
朝夕	-9.51158
執事者	-9.51243
疏云	-9.51333
遊	-9.51405
皆是	-9.5151
願	-9.51511
肝	-9.51522
設于	-9.51616
敬也	-9.51622
可知矣	-9.51747
小人	-9.51749
裼	-9.51765
協	-9.51802
其子	-9.51817
蟲	-9.51933
謙	-9.51944
六年	-9.5195
門内	-9.51951
於上	-9.51994
則其	-9.52
此則	-9.52074
雅	-9.52097
境	-9.52105
不合	-9.52157
四寸	-9.52245
所掌	-9.52273
娶	-9.52417
大學	-9.52695
見之	-9.52724
小宰	-9.52746
三等	-9.5275
苴	-9.52786
撰	-9.52813
亦是	-9.52904
為正	-9.52916
鄉大夫	-9.52982
不忍	-9.53138
巡	-9.53142
祭天	-9.5319
牽	-9.53191
之情	-9.53231
不足以	-9.53487
必先	-9.53492
郎	-9.53666
敝	-9.53669
爲之	-9.5369
淮	-9.53706
瓦	-9.53822
之廟	-9.53849
中庸	-9.53928
觚	-9.53958
賵	-9.54017
寶	-9.54071
綱	-9.54094
旒	-9.54126
西階	-9.54138
稻	-9.54155
仰	-9.54188
蕃	-9.54197
則曰	-9.54201
㑹同	-9.54206
不入	-9.54241
對曰	-9.54293
惑	-9.54363
無事	-9.54376
緩	-9.54396
不親	-9.5454
坎	-9.54567
兮	-9.54641
大喪	-9.54688
盈	-9.54855
饋食	-9.54859
其服	-9.5486
於其	-9.549
汝	-9.54971
東北	-9.55142
二月	-9.55152
所生	-9.55281
有餘	-9.55339
〇	-9.55349
尹	-9.55386
致命	-9.55394
燔	-9.55417
三代	-9.5545
遵	-9.55455
所言	-9.55498
九十	-9.55501
卦	-9.55536
姦	-9.55705
鵠	-9.55749
禍	-9.55891
池	-9.55926
巫	-9.55953
淺	-9.56018
賈氏曰	-9.56036
先儒	-9.56047
䇿	-9.56058
嚴陵方氏曰	-9.56069
畿内	-9.56075
也孔氏曰	-9.5617
三者	-9.5618
注釋曰	-9.56206
樂之	-9.56381
不祭	-9.56537
北上	-9.56609
下同	-9.56682
喻	-9.56744
禮畢	-9.56745
怒	-9.56767
之東	-9.56851
始死	-9.5689
其地	-9.56923
縱	-9.56992
冠者	-9.5701
親之	-9.57125
牙	-9.57181
楹	-9.57213
不云	-9.57215
在室	-9.57218
以後	-9.57234
皇太子	-9.57248
小宗	-9.5727
藻	-9.57286
禦	-9.57355
丹	-9.57375
饗食	-9.5738
事之	-9.57467
如字	-9.57609
威儀	-9.5761
路寢	-9.57628
以象	-9.57629
喪禮	-9.57647
在外	-9.57688
共其	-9.57712
契	-9.57714
考之	-9.57765
其君	-9.57766
也音義	-9.57769
異也	-9.5778
愈	-9.57783
沒	-9.57896
然也	-9.57904
公卿	-9.57915
獲者	-9.57927
規	-9.57938
祭器	-9.58008
僭	-9.58035
以來	-9.58069
長者	-9.58162
升自西階	-9.58206
厯	-9.58244
各以其	-9.58252
醫	-9.58291
袂	-9.58309
食之	-9.58333
測	-9.58379
侵	-9.58447
其中	-9.58534
冊	-9.58562
閭	-9.58573
赦	-9.58616
之親	-9.58646
皆用	-9.58674
彛	-9.58755
覲	-9.58773
墨	-9.58795
勉	-9.58849
大國	-9.58946
溝	-9.58984
擬	-9.59068
非禮	-9.59105
璋	-9.59231
效	-9.59317
徙	-9.59329
人所	-9.59356
鹿	-9.59382
東上	-9.59386
時也	-9.59424
此亦	-9.59464
續	-9.59572
植	-9.59581
得其	-9.59591
昬	-9.596
羔	-9.59618
賀	-9.59621
域	-9.59644
陛下	-9.59654
較	-9.59683
没	-9.59686
圜丘	-9.5974
樂正	-9.59746
三年之喪	-9.59795
馭	-9.59837
荅拜	-9.60282
牲體	-9.60343
栗	-9.60604
偽	-9.60613
十三	-9.60617
注釋曰云	-9.60619
旱	-9.60731
者非	-9.60884
可謂	-9.6094
懼	-9.60984
註云	-9.61071
乆	-9.6115
併	-9.61157
千里	-9.61173
勢	-9.6124
集説曰	-9.61303
朱子曰	-9.61303
畿	-9.61311
遲	-9.61377
吉祭	-9.61438
媵	-9.61463
南向	-9.61474
醬	-9.61545
以示	-9.61549
隋	-9.61559
經云	-9.61727
為母	-9.61734
亦曰	-9.61799
亨	-9.61826
臭	-9.61967
拜受	-9.61997
幕	-9.62044
士之	-9.6205
曽	-9.62087
射人	-9.62147
源	-9.62222
賔主	-9.62236
以次	-9.62339
有功	-9.6247
南方	-9.62484
亦如	-9.62495
滿	-9.62516
大臣	-9.62525
鮮	-9.62543
之妻	-9.62618
破	-9.62659
從者	-9.62666
尾	-9.62713
七年	-9.62724
杜	-9.62746
為大	-9.62843
當時	-9.62844
既葬	-9.62883
之用	-9.62912
座	-9.62993
去其	-9.63027
麥	-9.63032
以至	-9.63077
拘	-9.63185
上士	-9.63198
皆在	-9.63214
盤	-9.63255
致其	-9.63353
譏	-9.63383
者蓋	-9.63446
祭酒	-9.63631
五行	-9.63633
僖	-9.63634
昏禮	-9.63725
儉	-9.63779
眡	-9.63956
討	-9.64002
正義曰	-9.64082
詞	-9.64186
王后	-9.64191
王昭禹曰	-9.64213
掌其	-9.6422
旋	-9.64301
陳之	-9.64341
豚	-9.6448
累	-9.64522
父在	-9.64624
經文	-9.64626
樂作	-9.6468
烏	-9.64739
王命	-9.64748
物也	-9.64768
神主	-9.64789
不出	-9.64798
士大夫	-9.64812
之月	-9.64816
道路	-9.64833
偶	-9.65043
各一	-9.65065
其名	-9.65067
鄉遂	-9.65149
逐	-9.65205
大夫之	-9.6529
員	-9.6537
天之	-9.65445
竝	-9.65478
今文	-9.65585
而入	-9.65619
个	-9.65669
國子	-9.65673
裁	-9.65774
準	-9.6581
而祭	-9.65942
皆同	-9.66079
疆	-9.66146
大史	-9.66293
強	-9.66396
亦謂	-9.66421
在此	-9.66443
蜡	-9.66448
翟	-9.6656
別	-9.66624
卑者	-9.66729
庶羞	-9.66737
大饗	-9.66746
伍	-9.66749
奥	-9.66792
𨽻	-9.66811
罍	-9.66964
鄙	-9.67029
鴈	-9.67047
八月	-9.67105
喪紀	-9.67107
瑞	-9.67109
符	-9.6712
今之	-9.67189
之功	-9.67429
在東	-9.67434
吹	-9.67492
雩	-9.67572
繹	-9.67581
二曰	-9.67605
噐	-9.67641
或作	-9.67678
六月	-9.67718
成服	-9.67743
楊	-9.67773
同也	-9.67865
忽	-9.67865
大祥	-9.67896
方氏曰	-9.67907
辨其	-9.67942
因其	-9.67964
冒	-9.68065
親親	-9.68084
采地	-9.68089
涖	-9.68094
子弟	-9.68238
於内	-9.68435
助祭	-9.68447
財用	-9.68495
下云	-9.68513
蒼	-9.68616
甘	-9.68747
三曰	-9.68776
寝	-9.68884
亦無	-9.68953
坫	-9.68959
之北	-9.68993
閉	-9.69024
上大夫	-9.69088
雖不	-9.69089
忌	-9.69125
狹	-9.69141
鄉飲酒	-9.69185
念	-9.69215
設之	-9.69239
四尺	-9.69267
止於	-9.69318
裏	-9.69458
懸	-9.69571
瑟	-9.69575
緫	-9.69674
此皆	-9.69711
飱	-9.69816
不易	-9.69896
宗本紀	-9.69919
遽	-9.70009
貧	-9.70047
作樂	-9.70182
智	-9.70212
一尺	-9.70224
所當	-9.70306
四方之	-9.70417
記云	-9.70424
縷	-9.70475
諸臣	-9.705
如是	-9.70512
曽子	-9.7058
童子	-9.70581
狄	-9.70594
在前	-9.70598
記者	-9.70601
其制	-9.70603
侯氏	-9.70628
冰	-9.7078
行也	-9.70861
物之	-9.70932
其文	-9.70994
女子	-9.71003
伸	-9.7102
陶	-9.71231
踰	-9.71258
宫室	-9.71273
都鄙	-9.71273
進退	-9.71304
其國	-9.71377
殽	-9.71424
范	-9.71443
羣吏	-9.71482
田獵	-9.71513
始祖	-9.71564
曰某	-9.71655
於下	-9.718
第二	-9.71815
三寸	-9.71851
注疏	-9.7189
樂止	-9.71954
壙	-9.72078
竭	-9.72122
以前	-9.72292
籥	-9.72293
蒙	-9.72323
不忘	-9.72352
者所以	-9.72395
提	-9.72419
踐	-9.72469
恥	-9.72675
天官	-9.72699
皆如	-9.7283
至尊	-9.72846
八年	-9.72848
玉藻	-9.7285
其人	-9.72904
草木	-9.72908
餼	-9.72945
瀆	-9.72972
敖	-9.72982
二者	-9.73036
或以	-9.73045
奠于	-9.73149
授之	-9.73164
北方	-9.73245
道之	-9.73424
爾雅	-9.73528
缺	-9.73568
兹	-9.73621
而又	-9.73627
朝覲	-9.73634
而為之	-9.73662
𤣥謂	-9.73717
諭	-9.73757
之末	-9.73783
於堂	-9.73858
人心	-9.73975
讀如	-9.74205
曉	-9.74242
職云	-9.74252
怠	-9.74279
柱	-9.74392
祊	-9.74392
或為	-9.74401
輅	-9.74403
逺近	-9.74477
奄	-9.74506
巧	-9.74647
狀	-9.74704
穿	-9.74707
軌	-9.74812
法也	-9.74991
卿大夫士	-9.75153
諸公	-9.75211
服也	-9.75253
自然	-9.75261
當作	-9.75362
是其	-9.75487
襚	-9.755
髪	-9.75522
姑姊妹	-9.75532
或有	-9.7577
之民	-9.75782
繡	-9.75798
幂	-9.75825
五寸	-9.75852
官府	-9.75991
葉	-9.76021
於王	-9.76154
而云	-9.76174
神之	-9.76196
荆	-9.76264
震	-9.76431
育	-9.76462
朕	-9.76506
室中	-9.76515
衮	-9.76562
之際	-9.76628
大祝	-9.7664
宫中	-9.76762
釐	-9.76824
陽氣	-9.76832
養之	-9.76863
奚	-9.7697
冠禮	-9.77107
刃	-9.77173
錦	-9.77201
刀	-9.77211
若今	-9.77281
人掌	-9.77287
其本	-9.77391
稽首	-9.77527
科	-9.77567
四月	-9.77568
其意	-9.77572
在左	-9.77608
之所以	-9.77652
判	-9.77704
義也	-9.77725
烈	-9.77751
不盡	-9.77771
貨賄	-9.77819
掌之	-9.77886
卜筮	-9.77928
弛	-9.77966
大祭祀	-9.77976
之國	-9.77978
成也	-9.78043
主人之	-9.78243
院	-9.78275
衾	-9.78327
大司徒	-9.78349
四海	-9.78368
畝	-9.78394
之政	-9.78413
觧	-9.78483
人也	-9.78519
瞽	-9.78602
緣	-9.78679
夏后氏	-9.78698
而成	-9.78733
名也	-9.78871
此禮	-9.78897
殷人	-9.78947
賊	-9.7897
播	-9.79094
侈	-9.79111
不舉	-9.79119
命婦	-9.79126
未必	-9.79137
以樂	-9.7916
翣	-9.79207
族人	-9.79275
寓	-9.7933
九年	-9.79404
告于	-9.79469
則民	-9.7951
其心	-9.7954
𤣥酒	-9.79558
辛	-9.79564
者是	-9.79565
根	-9.79603
天道	-9.79668
大牢	-9.79673
施於	-9.79693
照	-9.79706
緌	-9.79709
不變	-9.79817
執之	-9.79863
允	-9.7995
降一等	-9.80011
太宰	-9.80074
以事	-9.80121
洛	-9.80158
粱	-9.8017
貪	-9.80172
禹貢	-9.80472
反又	-9.8055
飛	-9.80576
静	-9.80726
將命	-9.80829
則此	-9.80921
一寸	-9.80989
股	-9.81022
回	-9.81104
操	-9.81204
大夫以上	-9.8121
射者	-9.81244
馮	-9.81265
坊	-9.81272
姊妹	-9.81294
五人	-9.813
春秋傳曰	-9.81314
注謂	-9.81378
冕服	-9.81407
此時	-9.8143
决	-9.81472
其聲	-9.8149
楅	-9.81664
生者	-9.81691
太史	-9.81695
藥	-9.81815
挾	-9.81866
五服	-9.81911
脫	-9.81945
非禮也	-9.81989
灰	-9.82029
夏官	-9.82084
阼階	-9.82088
子之	-9.8212
大司樂	-9.82244
走	-9.82263
親者	-9.82284
以治	-9.82296
東向	-9.8231
衣裳	-9.82339
霤	-9.82356
禮義	-9.82432
脯醢	-9.825
歡	-9.82504
書曰	-9.82532
如此則	-9.82604
小祥	-9.82615
之大	-9.82683
蜃	-9.82725
二十四	-9.82728
牖	-9.82821
一命	-9.82882
閏	-9.82908
内則	-9.82957
后土	-9.82967
不如	-9.82981
集説	-9.83012
黃	-9.83054
小國	-9.83087
其民	-9.83126
基	-9.83151
先祖	-9.83175
地官	-9.83254
窆	-9.83309
斿	-9.83363
亦可	-9.8344
禮有	-9.83474
曽祖	-9.83518
侍中	-9.83521
宻	-9.83524
閣	-9.83642
乙	-9.83673
諸矦	-9.83695
於民	-9.83802
魚腊	-9.83807
四郊	-9.83848
嚮	-9.84048
喪祭	-9.84099
輈	-9.8414
却	-9.84142
栁	-9.8415
爨	-9.84191
勅	-9.84204
西上	-9.8429
郊特牲	-9.84297
獄訟	-9.8431
位也	-9.84323
困	-9.84332
痛	-9.8444
不至	-9.84443
焉故	-9.84445
旂	-9.84453
賓主	-9.84497
玄	-9.84536
致之	-9.84538
不服	-9.84556
貝	-9.84587
亦云	-9.84589
埽	-9.84599
傳云	-9.8464
失其	-9.84648
暑	-9.84676
援	-9.84775
祀之	-9.8479
變於	-9.84838
於朝	-9.84883
士冠禮	-9.84887
獵	-9.84938
怪	-9.8496
之餘	-9.8496
州長	-9.85056
親迎	-9.85074
十年	-9.85084
浮	-9.85139
肥	-9.85239
其職	-9.85244
不敢以	-9.8535
麗	-9.85447
嘏	-9.85524
秉	-9.8569
稼	-9.85691
名曰	-9.85707
靜	-9.85791
五分	-9.85832
棘	-9.85862
靡	-9.85946
抱	-9.85973
祖禰	-9.86002
殺之	-9.86067
公羊	-9.86096
之徳	-9.863
奠爵	-9.86377
板	-9.8645
其次	-9.86547
禽獸	-9.86557
宇	-9.86699
筋	-9.86713
蕭	-9.86723
饔	-9.86839
不使	-9.86885
晉侯	-9.86898
項	-9.86919
沐	-9.86924
懿	-9.8695
秀	-9.86967
之家	-9.86987
之命	-9.87029
沙	-9.87151
膏	-9.87189
繒	-9.87283
脊	-9.87283
神明	-9.87356
六卿	-9.87373
祗	-9.87374
正祭	-9.87404
設於	-9.87409
之政令	-9.87423
春官	-9.87424
不行	-9.87478
學士	-9.87483
其情	-9.87484
乖	-9.87552
在内	-9.87563
此篇	-9.87572
三百	-9.87644
戈	-9.87713
庫	-9.87714
太常	-9.87739
釋奠	-9.87843
外朝	-9.87869
粥	-9.87931
士禮	-9.87952
園	-9.87989
其辭	-9.88225
劉氏曰	-9.88236
寜	-9.88276
嶽	-9.88363
驗	-9.88405
祖考	-9.88414
考工記	-9.88414
中庭	-9.88436
謁	-9.88466
篤	-9.885
氷	-9.88505
相對	-9.88513
皆為	-9.88518
不食	-9.88525
郊祀	-9.88594
也既	-9.88785
汁	-9.88797
十四	-9.88839
其説	-9.8891
此所以	-9.88947
誰	-9.88977
策	-9.89124
於天	-9.89144
為其	-9.89239
而不可	-9.89265
子夏	-9.89266
左氏	-9.89288
桃	-9.89389
為節	-9.89433
又案	-9.89526
羅	-9.8955
知之	-9.89587
之䘮	-9.89612
中士	-9.89674
握	-9.89688
已上	-9.89701
底	-9.89721
飾也	-9.89767
右手	-9.89823
大司馬	-9.89867
以成	-9.89885
非常	-9.89977
矣然	-9.89987
輻	-9.90021
姑洗	-9.90025
則亦	-9.90065
焚	-9.90101
覲禮	-9.9016
二十五	-9.90195
係	-9.90213
者即	-9.90267
孔氏	-9.90313
冪	-9.90335
埋	-9.90359
八人	-9.904
畔	-9.904
文公	-9.9046
不勝	-9.90506
長兄弟	-9.90554
珍	-9.90599
七寸	-9.90639
不待	-9.90669
失之	-9.90674
君也	-9.90683
檢	-9.90751
祖宗	-9.90766
舟	-9.90771
猶有	-9.90778
亞獻	-9.9081
者明	-9.90842
敘	-9.90952
燎	-9.91018
賻	-9.91075
之次	-9.91119
閑	-9.91164
竈	-9.91265
而止	-9.91274
不欲	-9.91351
争	-9.91495
程	-9.91524
博士	-9.91562
韠	-9.91573
吉禮	-9.9161
芻	-9.91635
五聲	-9.91639
酳	-9.9164
隅	-9.9165
長短	-9.91708
其妻	-9.91772
入于	-9.91781
以致	-9.91794
乞	-9.918
斧	-9.91824
罔	-9.91929
無常	-9.91952
是謂	-9.9201
奔喪	-9.92115
三命	-9.92141
三尺	-9.92212
無文	-9.92253
天神	-9.92257
驅	-9.92307
沐浴	-9.9233
舌	-9.92343
亦用	-9.9242
舄	-9.92421
招	-9.92459
宗婦	-9.92466
鉤	-9.92481
十九	-9.92523
不應	-9.92534
礼	-9.92546
五日	-9.92556
繼公謂	-9.9258
六官	-9.92605
一等	-9.92613
土地	-9.92686
聞之	-9.92734
太宗	-9.92736
而退	-9.92737
下殤	-9.9274
外内	-9.92894
西向	-9.92917
丈夫	-9.9298
髮	-9.93037
聖人之	-9.93077
詳見	-9.93083
故有	-9.93149
也天子	-9.93187
姪	-9.93218
重者	-9.93233
萊	-9.93236
也蓋	-9.93327
東房	-9.9338
湇	-9.93386
熊	-9.9343
之意也	-9.93454
而弗	-9.93515
五采	-9.93541
父兄	-9.93665
祭也	-9.93727
用布	-9.93791
郤	-9.93804
方氏慤曰	-9.93827
柴	-9.93848
魄	-9.93883
為人	-9.93884
仲春	-9.93951
蕩	-9.93993
六寸	-9.94031
為禮	-9.94066
禾	-9.94082
是月也	-9.9412
統於	-9.94188
産	-9.94202
拂	-9.94206
寅	-9.94213
櫛	-9.94221
西階上	-9.94256
一百	-9.94258
是時	-9.94333
膳夫	-9.94361
太祝	-9.94444
臂	-9.94454
墳	-9.94492
之本	-9.94498
若是	-9.94508
投	-9.94534
長幼	-9.94552
荅	-9.94556
推之	-9.9456
世佐案	-9.94584
豆籩	-9.94621
寺	-9.94669
不宜	-9.94678
祖父	-9.9472
逮	-9.94736
誦	-9.94756
武帝	-9.94764
馬氏曰	-9.94784
如今	-9.949
亦得	-9.94962
整	-9.9503
非特	-9.95124
欽	-9.95135
十八	-9.95151
二字	-9.95175
是為	-9.95283
喪事	-9.95288
其上	-9.9532
之序	-9.95329
在後	-9.95332
戾	-9.95338
所在	-9.95344
以正	-9.95396
而上	-9.95428
以明	-9.95512
廵	-9.95586
事而	-9.95599
於地	-9.95673
廉	-9.95679
其時	-9.95747
故鄭	-9.95751
恵	-9.95773
貴者	-9.95802
共之	-9.95805
素服	-9.95823
陛	-9.95948
女子子	-9.95959
為大夫	-9.95973
祭祀之	-9.96014
言之則	-9.9603
南上	-9.96035
為父	-9.9605
俯	-9.96059
廟門	-9.96073
六鄉	-9.9611
第一	-9.96123
事畢	-9.96175
停	-9.96226
生於	-9.96258
之至也	-9.96268
其一	-9.96281
百物	-9.96342
虧	-9.96345
有四	-9.96348
𤣥冠	-9.9637
溺	-9.96389
到	-9.96429
機	-9.96478
淵	-9.96485
所宜	-9.96496
升降	-9.96549
阼	-9.96605
獻尸	-9.96633
在南	-9.96669
於中	-9.96742
位於	-9.96887
密	-9.96906
亥	-9.96977
柩車	-9.97046
八寸	-9.97114
而言之	-9.97126
捧	-9.97154
黄道	-9.97238
呂	-9.97282
于門外	-9.97325
庠	-9.97411
壊	-9.97519
不敬	-9.97521
齎	-9.97562
日月星辰	-9.97572
云凡	-9.97636
求之	-9.97752
筓	-9.97754
箕	-9.97793
麤	-9.97827
生時	-9.9785
明器	-9.97863
庭實	-9.979
蚤	-9.97921
飬	-9.97943
少退	-9.97969
論語	-9.97982
落	-9.98011
名之	-9.98017
諸子	-9.98046
之聲	-9.98137
不杖	-9.98189
筐	-9.98195
始於	-9.98224
車馬	-9.98316
皆然	-9.98329
故鄭云	-9.98366
十七	-9.98384
北向	-9.98385
姜	-9.98414
亷	-9.98452
然而	-9.98452
王肅	-9.98472
湆	-9.98523
之詩	-9.9858
公卿大夫	-9.98582
慝	-9.98623
夫之	-9.98657
之左	-9.98729
仁義	-9.98748
沃	-9.98851
聼	-9.98857
弁絰	-9.98888
禮儀	-9.98893
□	-9.98916
於天下	-9.9892
六人	-9.98927
周制	-9.98942
不失	-9.98977
之器	-9.9899
自此	-9.99009
買	-9.99021
其言	-9.99021
謬	-9.99046
適孫	-9.99073
治其	-9.99106
饔餼	-9.99108
四曰	-9.99112
軫	-9.99162
𤣥冕	-9.99168
蕙田案以上	-9.99168
創	-9.99267
琴瑟	-9.99291
吉服	-9.99322
此文	-9.99389
數也	-9.99431
祖父母	-9.99434
鳥獸	-9.99453
茍	-9.99484
之右	-9.99512
慕	-9.99544
而生	-9.99628
胙	-9.99782
孔氏穎達曰	-9.99788
題	-9.99789
事者	-9.99798
在於	-9.99815
其志	-9.99913
人為	-9.99918
方氏	-10
腹	-10
而致	-10.0007
可見	-10.001
别子	-10.0016
六遂	-10.002
歎	-10.0023
廟中	-10.0028
以爵	-10.0029
職曰	-10.0032
則非	-10.0036
錄	-10.0036
地之	-10.0042
歆	-10.0049
一時	-10.0056
正也	-10.0082
矣此	-10.0084
衮冕	-10.0085
者何	-10.0085
陳氏	-10.0091
之分	-10.0092
坤	-10.0096
而復	-10.0097
貶	-10.0097
二寸	-10.0105
視之	-10.011
南郊	-10.0117
乗車	-10.0123
其徳	-10.0124
司服	-10.0128
祭禮	-10.0128
:「	-10.013
好惡	-10.0133
無所不	-10.0136
紐	-10.0139
稽顙	-10.0141
之田	-10.0142
皆不	-10.0143
訝	-10.0146
内宰	-10.0155
小宗伯	-10.0157
當以	-10.0158
觀之	-10.017
非謂	-10.0171
使民	-10.0172
之别	-10.0181
郭	-10.0184
齊侯	-10.019
樂也	-10.0192
滌	-10.0202
故事	-10.0203
第三	-10.0204
壝	-10.0211
壁	-10.0215
反下同	-10.0218
鬱	-10.0219
大廟	-10.0222
也故曰	-10.0226
奠於	-10.0228
也疏	-10.023
内史	-10.0232
戮	-10.0236
敏	-10.0241
遂以	-10.0243
五色	-10.0249
該	-10.0257
消	-10.0259
懷	-10.0259
首絰	-10.0274
死則	-10.0275
也君	-10.0293
上言	-10.0297
尺二寸	-10.0298
醉	-10.0298
以下皆	-10.03
藏之	-10.0303
之尊	-10.0313
狗	-10.0313
分寸之	-10.0317
以義	-10.0321
迹	-10.0322
之稱	-10.0323
祭法	-10.0323
在廟	-10.0326
濫	-10.0333
而民	-10.0339
凡祭祀	-10.0339
殺也	-10.034
英	-10.034
而行之	-10.0346
正義	-10.0352
札	-10.0357
祀天	-10.0359
顔	-10.0361
主國	-10.0369
入於	-10.0371
炙	-10.0379
陪	-10.0384
五曰	-10.039
刑罰	-10.0397
與此	-10.0397
史二人	-10.0398
下有	-10.0406
君所	-10.0413
闔	-10.0413
則必	-10.0414
之正	-10.0415
俾	-10.0416
舉其	-10.0422
除喪	-10.0431
者據	-10.0431
其屬	-10.0432
夏至	-10.0433
拜賔	-10.0436
代之	-10.0441
以備	-10.0441
矦	-10.0445
濁	-10.0445
轅	-10.0448
皇太后	-10.0451
死而	-10.0454
祭於	-10.0455
擾	-10.0456
涂	-10.0462
上射	-10.0471
蠻	-10.0478
鑊	-10.0478
笏	-10.0483
子游	-10.0487
而巳	-10.0492
女君	-10.0495
秋官	-10.0496
失禮	-10.0497
冀	-10.0498
再命	-10.0499
人之所	-10.0509
阼階下	-10.0511
人道	-10.0511
明其	-10.0522
飽	-10.0522
丑	-10.0526
加於	-10.0539
百二十	-10.0551
第十	-10.0552
禮官	-10.0554
遂人	-10.0558
曾	-10.0562
庚	-10.0563
其間	-10.057
委積	-10.0574
者葢	-10.0587
則用	-10.0588
萌	-10.0591
父母之喪	-10.0595
不成	-10.0599
賛者	-10.0599
得以	-10.0611
熙	-10.0611
無射	-10.0612
洗爵	-10.0614
之賦	-10.0614
喪大記	-10.0617
春秋傳	-10.0618
一分	-10.0623
唯有	-10.0639
善也	-10.064
以俟	-10.0644
六尺	-10.0647
其他	-10.0656
邸	-10.0658
以祭	-10.0674
行者	-10.0678
兵車	-10.0687
相應	-10.0688
五官	-10.0691
險	-10.0693
曾祖	-10.0693
也大夫	-10.0694
小大	-10.0698
在堂	-10.0699
大行人	-10.0704
僅	-10.0705
完	-10.0706
四時之	-10.0708
孟春	-10.0712
瘞	-10.0713
之異	-10.0714
傾	-10.0718
皆得	-10.0735
山澤	-10.0736
也但	-10.0744
始也	-10.0744
不備	-10.0747
蘇	-10.0749
饑	-10.0753
壯	-10.0754
致爵	-10.0756
事君	-10.0761
脅	-10.0763
二尺	-10.0773
縞	-10.0774
者如	-10.08
注同	-10.0807
本又作	-10.081
日在	-10.0818
中國	-10.0829
隔	-10.0832
有六	-10.0834
二日	-10.0835
禪	-10.0841
童	-10.0844
慈母	-10.0846
九州	-10.085
於國	-10.0851
僖公	-10.0853
不稱	-10.0853
湖	-10.0863
之書	-10.0863
樂器	-10.0865
之治	-10.0865
御史	-10.0869
亭	-10.087
君子之	-10.0872
盧	-10.0881
幄	-10.0883
未能	-10.0888
睦	-10.0888
貸	-10.0894
琮	-10.0901
衆主人	-10.0902
夏殷	-10.0905
寄	-10.0909
妨	-10.091
子思	-10.0912
出門	-10.0924
忠信	-10.0926
遣使	-10.0926
古今	-10.0927
康成	-10.0931
簫	-10.0935
位在	-10.0939
枚	-10.0944
戒之	-10.0945
主人拜	-10.0954
者盖	-10.0954
北靣	-10.0954
增	-10.0955
春夏	-10.0958
段	-10.096
晝	-10.0964
矩	-10.0965
故用	-10.0971
朝踐	-10.0973
扱	-10.0978
政事	-10.0981
而死	-10.0982
國語	-10.0982
祭義	-10.0993
曠	-10.0994
不自	-10.0999
付	-10.1003
反命	-10.1003
1	-10.1004
殆	-10.1005
蹕	-10.1006
誣	-10.1007
紹	-10.1014
與人	-10.1018
樂者	-10.103
藪	-10.1032
犧	-10.1035
琴	-10.1041
欺	-10.1045
不正	-10.1056
不通	-10.1061
房中	-10.1064
以出	-10.1065
筭	-10.1068
于王	-10.1069
自是	-10.1069
醯	-10.1069
拜之	-10.107
彝	-10.1074
之始	-10.1082
太后	-10.1101
迎尸	-10.1104
王氏	-10.1104
觀其	-10.1109
凖	-10.1112
泥	-10.1122
一體	-10.1123
中有	-10.113
朝聘	-10.1132
之色	-10.1138
吾子	-10.1138
而不言	-10.1148
所執	-10.1149
居喪	-10.115
正服	-10.116
門之外	-10.1171
京師	-10.1176
臯	-10.118
大門外	-10.1188
巾車	-10.1188
無子	-10.1189
何也曰	-10.1189
故其	-10.1191
主人主婦	-10.1192
僣	-10.1194
祭地	-10.1196
亞	-10.1205
鄭註	-10.1207
也鄭司農云	-10.1209
己之	-10.1211
之初	-10.1212
告於	-10.1218
輒	-10.122
唱	-10.122
輦	-10.1227
罋	-10.1229
織	-10.1229
𢎞	-10.1234
而能	-10.1237
其長	-10.1244
飭	-10.1245
而不知	-10.1247
奠之	-10.1249
不特	-10.1253
太尉	-10.1253
滑	-10.126
而非	-10.1262
大僕	-10.1264
通典	-10.1264
翦	-10.1266
䘮服	-10.1267
巡守	-10.1271
亦謂之	-10.1272
塾	-10.1275
簠	-10.1275
絜	-10.1277
九寸	-10.1279
王朝	-10.1291
上有	-10.1301
纚	-10.1301
降自西階	-10.1301
在北	-10.1307
弔服	-10.1315
架	-10.132
哀公	-10.1324
邦國之	-10.1333
不受	-10.1333
正之	-10.1338
大禮	-10.1339
繢	-10.134
賜之	-10.1343
當在	-10.1354
之謂也	-10.1355
之差	-10.1366
林鍾	-10.1369
秋冬	-10.138
卽	-10.1388
異者	-10.1389
廷	-10.1398
左手	-10.1405
士虞禮	-10.1415
膳宰	-10.1417
近郊	-10.1419
見于	-10.1423
凢	-10.1425
㓜	-10.1426
故君子	-10.1428
禮器	-10.1437
一節	-10.1439
九嬪	-10.144
東序	-10.1443
易氏曰	-10.1445
雖無	-10.1447
毒	-10.1451
他國	-10.1456
者欲	-10.1457
悖	-10.1457
初獻	-10.1458
引之	-10.1464
有罪	-10.1467
而用之	-10.1469
車之	-10.147
得之	-10.1473
區	-10.1477
而已故	-10.1478
豈有	-10.1478
廵守	-10.148
抗	-10.1482
自有	-10.1486
臣子	-10.1487
所為	-10.149
桓公	-10.1494
枕	-10.1499
祭肺	-10.1511
先入	-10.1514
偃	-10.1515
濯	-10.1518
随	-10.1523
酳尸	-10.1526
言之也	-10.1531
燕射	-10.1534
惰	-10.1536
士介	-10.154
普	-10.1547
事則	-10.1558
别於	-10.1569
豹	-10.157
鄭康成	-10.1572
鄭氏謂	-10.1575
四分	-10.1577
與夫	-10.1578
兄弟之	-10.1579
蒐	-10.1583
在位	-10.1588
三王	-10.1589
賤者	-10.1589
聽之	-10.159
其功	-10.159
拊	-10.1591
未知	-10.1595
漏	-10.1596
鬱鬯	-10.1596
為三	-10.1606
呉	-10.1609
賄	-10.1609
柶	-10.1617
繭	-10.1619
於是乎	-10.1625
不可不	-10.1625
之形	-10.1628
絳	-10.1635
為貴	-10.1636
次第	-10.1639
政令	-10.1642
者彼	-10.1645
非一	-10.1649
禮部	-10.1652
亦非	-10.1656
矜	-10.1659
練冠	-10.1662
待之	-10.1665
邱	-10.1666
鼻	-10.1672
借	-10.1679
其臣	-10.1682
黎	-10.1684
上生	-10.1688
宥	-10.1689
投壺	-10.169
敖氏	-10.1693
有徳	-10.1696
安得	-10.1697
起居	-10.1697
從母	-10.1706
虛	-10.1709
其下	-10.171
禜	-10.171
盡其	-10.1711
棜	-10.1716
谷	-10.1718
薦脯醢	-10.1732
五十里	-10.1736
拜受爵	-10.1736
岳	-10.174
非是	-10.1744
二十七	-10.1746
所載	-10.1746
在右	-10.1747
為妻	-10.1749
反哭	-10.1752
醴酒	-10.1752
夾室	-10.1757
其家	-10.1758
緇布冠	-10.1763
言語	-10.1764
胾	-10.1768
事故	-10.1771
泰山	-10.1772
取矢	-10.1773
為尸	-10.1777
所居	-10.178
馳	-10.1787
漢書	-10.179
三揖	-10.1794
所出	-10.1796
殯宫	-10.1798
笑	-10.1799
與諸侯	-10.1799
以行	-10.1804
於公	-10.1809
阿	-10.1814
孝經	-10.182
於門外	-10.1821
也士	-10.1822
門西	-10.1826
亢	-10.1827
如何	-10.1834
湏	-10.1837
將軍	-10.1838
余	-10.184
先君	-10.1847
霸	-10.1854
猛	-10.1855
軒	-10.1858
以共	-10.1859
存焉	-10.1871
2	-10.1873
芳	-10.1874
司㑹	-10.1879
問之	-10.188
百工	-10.1882
位于	-10.1886
日中	-10.1889
驕	-10.189
人臣	-10.1894
通論	-10.1895
十二年	-10.1896
是也云	-10.1898
公曰	-10.1899
茂	-10.1904
達於	-10.1913
神也	-10.1916
之教	-10.1917
禮樂之	-10.1917
于此	-10.1928
于是	-10.1934
小司徒	-10.194
祔於	-10.1943
而反	-10.1943
不絶	-10.1946
此之謂	-10.1946
暫	-10.1952
小學	-10.1956
釋曰此	-10.1958
在國	-10.1962
冢	-10.1963
禘祫	-10.1963
文子	-10.1963
祐	-10.1966
郝氏曰	-10.1969
其父	-10.1972
葦	-10.1973
眂	-10.1982
先言	-10.1986
主之	-10.1994
珠	-10.1994
掌邦	-10.2
綦	-10.2005
藩	-10.2008
柳	-10.2008
衆庶	-10.2012
即此	-10.2026
七日	-10.2026
髀	-10.2027
悔	-10.2034
騎	-10.2035
載之	-10.2038
姬	-10.204
禮志	-10.2056
其神	-10.2056
邾	-10.2059
狩	-10.2069
神位	-10.2074
焉則	-10.2076
託	-10.2083
此所謂	-10.2086
人以	-10.2089
服期	-10.2091
襄公	-10.2095
狐	-10.2096
也葢	-10.2104
俊	-10.2105
五等	-10.2107
也鄭氏曰	-10.2107
南鄉	-10.2108
家語	-10.2109
又言	-10.2118
苗	-10.2118
故書	-10.2121
既殯	-10.2121
巷	-10.2121
晚	-10.2123
故得	-10.2126
出于	-10.2133
七廟	-10.2136
嫡	-10.2139
黄氏曰	-10.214
十日	-10.2145
頃	-10.2146
禳	-10.2151
粢盛	-10.2151
括髪	-10.2153
也周禮	-10.2155
之閒	-10.216
萬民之	-10.2164
之美	-10.2166
季秋	-10.2171
於大夫	-10.2172
鸞	-10.2189
置於	-10.2189
固有	-10.2193
則謂之	-10.2194
之變	-10.2198
百畝	-10.2208
直云	-10.2211
雙	-10.2214
告之	-10.2214
守之	-10.2216
鄰	-10.2222
木為	-10.2225
所由	-10.2227
鈞	-10.2234
為後	-10.2242
於己	-10.225
誄	-10.2254
史記	-10.2256
去之	-10.226
夫家	-10.2263
覺	-10.2269
穴	-10.2271
几筵	-10.2271
其氣	-10.2274
也又曰	-10.2283
之體	-10.2291
則當	-10.2298
其形	-10.23
澮	-10.2303
轡	-10.2306
紳	-10.2308
有事於	-10.2316
典瑞	-10.2319
四面	-10.232
中霤	-10.2334
闇	-10.2334
渠	-10.2334
顓頊	-10.2337
孟子曰	-10.2345
啐	-10.2354
文王之	-10.2354
壤	-10.2355
郊社	-10.236
賈氏公彦曰	-10.236
奠觶	-10.236
終始	-10.2361
者或	-10.2362
而知	-10.2364
苞	-10.2372
隸	-10.2372
子貢	-10.2378
敷	-10.2379
箭	-10.2381
不容	-10.2387
叔父	-10.2388
無算爵	-10.2389
之度	-10.2402
甒	-10.2402
魂	-10.2407
也古者	-10.2413
彞	-10.2416
故特	-10.2417
隂氣	-10.2421
之學	-10.2424
兩端	-10.2427
仁者	-10.2428
亦為	-10.243
云云	-10.2432
槃	-10.2435
放此	-10.2436
朝日	-10.2439
至是	-10.244
宗室	-10.2443
行人	-10.2443
舍人	-10.2444
也且	-10.2453
有五	-10.2457
漿	-10.2457
有異	-10.2458
其體	-10.246
髙下	-10.2461
長三尺	-10.2464
也諸侯	-10.2471
而不敢	-10.2471
臧	-10.2476
粗	-10.248
鴻	-10.2483
相去	-10.2485
除之	-10.2494
案此	-10.2496
澄曰	-10.2499
聘享	-10.2499
也不言	-10.25
别有	-10.25
獻之	-10.2502
事親	-10.2504
墮	-10.2505
父卒	-10.2508
近於	-10.2529
臣之	-10.2531
和之	-10.2533
箇	-10.2534
送之	-10.2538
而未	-10.2539
譬	-10.2539
小事	-10.254
哭之	-10.2542
儐尸	-10.2542
俛伏興	-10.2546
酉	-10.2546
苑	-10.2555
西面北上	-10.2557
三十六	-10.2557
朝事	-10.256
人皆	-10.2563
詐	-10.2567
此章	-10.2568
受幣	-10.257
子路	-10.2576
驚	-10.258
不信	-10.258
者先	-10.258
多寡	-10.2583
公羊傳	-10.2583
山林	-10.2584
終身	-10.2586
相為	-10.2589
塵	-10.259
壞	-10.2594
亦在	-10.2596
氣也	-10.2603
內	-10.2603
之恩	-10.2604
倦	-10.2605
之世	-10.2609
弑	-10.261
所得	-10.2619
隆殺	-10.262
其法	-10.2622
配天	-10.2623
尉	-10.2627
帥其屬	-10.2628
未成	-10.263
食者	-10.2631
薛	-10.2632
聨	-10.2633
盜	-10.2633
棗	-10.2633
于堂	-10.2636
麾	-10.2643
職事	-10.2649
冡宰	-10.265
人者	-10.2654
立廟	-10.2657
髦	-10.2659
爓	-10.266
莊公	-10.2663
之而已	-10.2665
者自	-10.2666
臑	-10.2673
紘	-10.2673
也𤣥謂	-10.2674
若夫	-10.2688
以相	-10.2695
直言	-10.2701
故先	-10.2702
主人降	-10.2707
它	-10.2708
辭也	-10.2708
之黨	-10.271
樂師	-10.2712
此記	-10.2724
人主	-10.2728
實之	-10.2728
搏	-10.2732
酌獻	-10.2734
士師	-10.274
季春	-10.2746
混	-10.2748
柏	-10.2749
祖母	-10.2752
司儀	-10.2753
嚌	-10.2757
讀爲	-10.276
舊説	-10.276
由此	-10.2764
而言也	-10.2773
匡	-10.2774
諸儒	-10.2781
各有所	-10.2782
小歛	-10.2792
御者	-10.2802
者也故	-10.2805
是矣	-10.281
器也	-10.2813
小行人	-10.2815
卻	-10.2816
使大夫	-10.2818
成踊	-10.2819
於室	-10.2821
附庸	-10.2822
二分	-10.2826
脾	-10.2843
靣	-10.2845
政教	-10.2846
括髮	-10.2849
督	-10.2851
皆謂	-10.2854
者欲見	-10.2857
有子	-10.2858
王宫	-10.2862
文王世子	-10.2865
女御	-10.2866
而用	-10.2867
其道	-10.2873
即是	-10.2873
損益	-10.2874
經傳	-10.2876
五世	-10.2876
來朝	-10.2878
陳設	-10.2879
罇	-10.2884
旌旗	-10.2885
舉之	-10.2892
訛	-10.2892
倡	-10.2899
居處	-10.2901
晏	-10.2905
庫門	-10.2907
北面東上	-10.2911
反注同	-10.2915
臘	-10.2919
妾子	-10.2923
繆	-10.293
正其	-10.2935
猶言	-10.2937
酏	-10.2938
北郊	-10.294
尊故	-10.294
為二	-10.294
也以其	-10.2949
四升	-10.2955
迫	-10.2958
之盛	-10.296
受其	-10.2962
賣	-10.2964
為壇	-10.2966
徳之	-10.2966
觸	-10.297
不許	-10.2972
河南	-10.2973
變也	-10.2982
絰帶	-10.2986
豈可	-10.299
杞	-10.2991
皮弁服	-10.2995
往來	-10.2997
八尺	-10.3004
為本	-10.3005
四望	-10.3009
㡬	-10.3011
不改	-10.3015
以祀	-10.3016
也若然	-10.3017
悲	-10.3022
玉府	-10.3024
曰吾	-10.3024
礿	-10.3024
二等	-10.3026
警	-10.3028
鄉師	-10.303
覿	-10.303
執玉	-10.3035
錫衰	-10.3038
皆作	-10.3039
頗	-10.3045
熬	-10.3053
司冦	-10.3057
風雨	-10.3063
聲音	-10.3068
裂	-10.3074
仁也	-10.308
不善	-10.3092
正義敖氏繼公曰	-10.3092
節也	-10.3093
不止	-10.3094
曾子	-10.3098
繞	-10.3103
公侯	-10.3108
四夷	-10.3109
而已矣	-10.3113
建國	-10.3119
羊豕	-10.3123
視朝	-10.3124
誥	-10.3124
于公	-10.3125
則否	-10.3127
孝弟	-10.3127
庻	-10.313
至誠	-10.3133
荀	-10.3135
方百里	-10.3135
其色	-10.3136
書之	-10.3136
九職	-10.3137
相近	-10.3141
褻	-10.3141
其說	-10.3142
摩	-10.3143
入學	-10.3144
彊	-10.3145
而不能	-10.3147
也君子	-10.3147
從其	-10.3148
則又	-10.3149
賔長	-10.3149
詔王	-10.315
斛	-10.3152
文獻通考	-10.3156
由是	-10.3158
禮殺	-10.3159
設席	-10.3165
解之	-10.3168
弔者	-10.3173
執弓	-10.3176
登歌	-10.3179
出迎	-10.3181
處也	-10.3182
五廟	-10.3183
六曰	-10.3184
燒	-10.3187
太平	-10.3191
垣	-10.3193
邉	-10.3205
上經	-10.3205
黨正	-10.3207
席前	-10.3212
五禮	-10.3219
悦	-10.3221
儒者	-10.3224
麋	-10.3229
勲	-10.3234
合樂	-10.3238
一年	-10.3243
丗	-10.3243
為義	-10.3248
司寇	-10.3249
相似	-10.325
於郊	-10.3251
十五年	-10.3251
堯舜	-10.3256
奴	-10.326
禮以	-10.327
一名	-10.327
哭踊	-10.3273
十一年	-10.3273
天府	-10.3274
公邑	-10.3274
局	-10.3276
五百里	-10.3277
皇氏	-10.3282
衆人	-10.3286
褖衣	-10.3298
古禮	-10.3301
伊	-10.3303
相接	-10.3304
骼	-10.3304
未詳	-10.3308
輕者	-10.3314
尊之	-10.3315
雜記云	-10.3318
洽	-10.3319
鄉人	-10.3326
應鍾	-10.3326
山隂陸氏曰	-10.3331
邇	-10.3341
親也	-10.3343
之冠	-10.3345
此三	-10.3348
揜	-10.335
囿	-10.3354
乃得	-10.3356
曽孫	-10.3358
匪	-10.3362
囚	-10.3364
紛	-10.3368
大裘	-10.3372
愧	-10.3377
曲禮云	-10.338
物而	-10.3382
也必	-10.3386
藏於	-10.3391
無主	-10.3394
宗廟之	-10.3395
類也	-10.3397
以東	-10.34
匠人	-10.3402
而祭之	-10.3402
入門左	-10.3404
䕶	-10.3409
釋菜	-10.3411
愚按	-10.3414
一獻	-10.3415
特牲少牢	-10.3417
恭敬	-10.3418
以降	-10.3421
未可	-10.3422
紫	-10.3427
晦	-10.3429
之象	-10.3433
為賓	-10.3438
茵	-10.3439
未至	-10.3441
荼	-10.3447
迭	-10.3456
非正	-10.3459
坡謂	-10.3462
卯	-10.3464
柯	-10.3467
若不	-10.3472
薦之	-10.3476
者凡	-10.3483
希	-10.3483
措	-10.3485
開元	-10.3496
服斬	-10.3498
也盖	-10.3509
季冬	-10.3513
二百	-10.3513
樂記	-10.3513
凝	-10.3517
衆子	-10.3518
仲尼	-10.3519
不若	-10.3522
然後可以	-10.3522
揖讓	-10.3527
小記	-10.3532
教民	-10.3534
所以明	-10.354
五刑	-10.3547
練祥	-10.3548
並同	-10.3556
婢	-10.3561
各以	-10.3569
犧牲	-10.3569
有虞氏	-10.3574
後鄭	-10.3583
也是故	-10.3587
未葬	-10.3589
嬪	-10.3591
有服	-10.3594
報之	-10.3595
子姓	-10.36
服者	-10.3604
拭	-10.3606
翔	-10.3607
銅	-10.3608
太牢	-10.3611
者謂之	-10.3611
西序	-10.3615
㦸	-10.3615
斥	-10.3616
纂	-10.3622
奮	-10.3622
疾病	-10.3625
駒	-10.363
盆	-10.3631
君親	-10.3635
玊	-10.3636
朋	-10.3639
酒正	-10.364
繇	-10.3643
圭璋	-10.3645
軸	-10.3645
將以	-10.3646
十里	-10.3646
祭先	-10.3652
婁	-10.3657
於庭	-10.3658
耆	-10.3658
皆所以	-10.366
以教	-10.3667
帝王	-10.367
之篇	-10.3674
者按	-10.3675
而哭	-10.3686
以生	-10.369
兩旁	-10.3691
之節也	-10.3692
天時	-10.3693
也敖氏曰	-10.3696
多矣	-10.3699
于室	-10.3699
韜	-10.37
級	-10.3703
禮經	-10.3703
披	-10.3706
謂若	-10.371
蔵	-10.3711
黻	-10.3715
于朝	-10.3715
斤	-10.3718
賔尸	-10.3721
王畿	-10.3722
之屬也	-10.3723
齊衰三月	-10.3725
遣車	-10.3726
詢	-10.373
不哭	-10.3731
大夫之子	-10.3732
今此	-10.3732
井田	-10.3734
之失	-10.3736
誤矣	-10.3737
説文	-10.374
函	-10.3742
潤	-10.3755
所欲	-10.3758
上擯	-10.376
下生	-10.3765
九賦	-10.377
在朝	-10.3772
晨	-10.3776
一物	-10.378
第四	-10.3781
祭社	-10.3783
司宫	-10.3785
之母	-10.3785
梅	-10.3788
不明	-10.3788
要絰	-10.3789
繋	-10.3793
夷則	-10.3793
王所	-10.3794
妙	-10.3795
孟冬	-10.3804
小雅	-10.3805
大吕	-10.3805
鄭伯	-10.3814
文也	-10.3817
。」	-10.382
勒	-10.382
3	-10.3831
陳氏曰	-10.3832
征伐	-10.3833
宰相	-10.3835
成周	-10.3835
易曰	-10.3838
之志	-10.3839
歸於	-10.384
肆師	-10.3842
車駕	-10.3844
正禮	-10.3845
六服	-10.3846
豳	-10.3848
賔賔	-10.3851
同居	-10.3851
明水	-10.3856
集說	-10.3858
舞者	-10.3861
鼗	-10.3867
搢	-10.3868
舂	-10.3869
貳車	-10.3871
甸人	-10.3877
鄭𤣥	-10.3878
他人	-10.3878
所服	-10.3883
者三	-10.3889
杜子春云	-10.389
賓賓	-10.3891
知禮	-10.3897
家禮	-10.3902
誤也	-10.3903
膠	-10.3904
後人	-10.3904
為天子	-10.3911
氣之	-10.3912
鄭氏康成曰	-10.3912
帝本紀	-10.3916
徇	-10.392
入室	-10.392
掌客	-10.3921
此二	-10.3922
主人獻	-10.3923
禮曰	-10.3925
下記云	-10.3927
十四年	-10.3927
軹	-10.3928
之吏	-10.3933
溢	-10.3933
下文云	-10.3934
無過	-10.394
相與	-10.3945
寫	-10.3945
而見	-10.3948
牡	-10.3948
疏曰此	-10.3951
葛帶	-10.3952
左傳云	-10.3954
六典	-10.3955
饗禮	-10.3958
戌	-10.396
奉之	-10.3964
絹	-10.3966
拜賓	-10.3967
釋之	-10.3967
嘉禮	-10.3968
髙宗	-10.3968
公田	-10.3978
紒	-10.3978
之方	-10.398
魯人	-10.3981
本作	-10.3983
所有	-10.3987
矛	-10.3991
豈非	-10.3992
箋	-10.3995
又何	-10.3995
以求	-10.3995
玉帛	-10.3997
無非	-10.4002
但言	-10.4004
濡	-10.4006
若無	-10.4009
瞻	-10.4011
未嘗不	-10.4012
服其	-10.4013
或言	-10.4014
叔孫	-10.4018
生而	-10.4019
詔曰	-10.4026
中衣	-10.4026
次序	-10.4026
吕氏曰	-10.4034
租	-10.4035
星辰	-10.4036
同故	-10.4039
喪主	-10.404
今日	-10.4043
究	-10.4044
長樂陳氏曰	-10.4045
今以	-10.405
庶民	-10.4052
搢笏	-10.4053
故稱	-10.4054
廞	-10.4058
矣又	-10.4066
此一節	-10.4066
水旱	-10.4069
東面北上	-10.4071
不廢	-10.4072
夘	-10.4072
官之長	-10.4073
反下	-10.4076
昭公	-10.4076
玉路	-10.408
而可	-10.408
兵器	-10.408
服不	-10.4083
于西階上	-10.4083
詰	-10.4084
曲禮曰	-10.4084
下士二人	-10.4086
又設	-10.4086
可乎	-10.4087
射禮	-10.4088
桐	-10.4088
鼏	-10.409
鎛	-10.4093
之患	-10.4094
隂陽之	-10.4097
高祖	-10.4097
矣而	-10.4101
暢	-10.4104
孚	-10.4106
豈不	-10.4109
壽	-10.4111
於太廟	-10.4116
而得	-10.4118
坐取	-10.4118
亮	-10.4119
可以為	-10.4122
仲秋	-10.4124
私覿	-10.4124
無窮	-10.4135
之奠	-10.4138
仇	-10.414
橋	-10.414
於諸侯	-10.4141
其物	-10.4143
變而	-10.4145
祝史	-10.4145
從父昆弟	-10.4149
使其	-10.415
人民	-10.4151
宣王	-10.4151
閔	-10.4153
祝辭	-10.4154
從祀	-10.4157
著之	-10.4161
岐	-10.4161
賔出	-10.4161
書其	-10.4162
同於	-10.4163
以道	-10.4165
結之	-10.4165
所行	-10.4165
暇	-10.4166
湛	-10.4167
其力	-10.4172
陽厭	-10.4173
水火	-10.4174
厚薄	-10.4174
張氏曰	-10.4181
而歸	-10.4181
亦與	-10.4185
忍	-10.4189
乎曰	-10.419
啐酒	-10.419
下射	-10.4193
不須	-10.4194
尊尊	-10.4197
之為言	-10.4202
遣奠	-10.4207
時有	-10.4216
尊於	-10.4217
以和	-10.4219
檀弓云	-10.4224
易之	-10.4227
卜日	-10.4228
金路	-10.4229
糧	-10.4231
慤	-10.4232
經言	-10.4236
吐	-10.4238
明堂位	-10.424
萬世	-10.4244
南吕	-10.4247
取於	-10.4248
松	-10.4249
廪	-10.4251
内侍	-10.4253
鐸	-10.4258
津	-10.4262
袍	-10.4262
渭	-10.4263
澄	-10.4264
場	-10.4267
鄭知	-10.4268
而使	-10.4279
匱	-10.4283
鳩	-10.4284
侯中	-10.4284
三讓	-10.4286
衰裳	-10.4288
而俟	-10.4299
公孫	-10.43
大抵	-10.4302
乃命	-10.4303
功衰	-10.4309
烖	-10.431
為人後者	-10.431
乎其	-10.4312
如之何	-10.4313
太陽	-10.4313
緝	-10.4313
胄	-10.4317
使臣	-10.4318
乎此	-10.4322
三升	-10.4322
飾之	-10.433
為重	-10.4332
埋之	-10.4335
開元禮	-10.4337
丞相	-10.4343
也主人	-10.4344
其祖	-10.4353
庿	-10.4353
大路	-10.4358
魯之	-10.4364
時祭	-10.4367
棟	-10.4371
階下	-10.4377
從祖	-10.4379
頓	-10.438
括	-10.4384
列於	-10.4388
行而	-10.4391
一家	-10.4392
此是	-10.4395
可得而	-10.4395
郷射	-10.4398
于房中	-10.44
嵗時	-10.4403
冕而	-10.4404
繼母	-10.4405
十人	-10.4406
國有	-10.4408
者乎	-10.441
諧	-10.4413
署	-10.4415
卧	-10.4415
典禮	-10.4423
太常卿	-10.4424
陣	-10.4426
紼	-10.4427
州府	-10.4436
零	-10.4437
泛	-10.4438
一條	-10.444
獻公	-10.4445
倒	-10.4445
既有	-10.4446
奢	-10.4452
求諸	-10.4457
皆云	-10.4461
洪	-10.4461
騶虞	-10.4462
東階	-10.4465
徳行	-10.4473
未得	-10.4478
而往	-10.4483
蓍	-10.4485
食也	-10.4486
外宗	-10.449
小子	-10.4498
值	-10.4499
士妻	-10.4499
為政	-10.45
所祭	-10.45
如常儀	-10.45
注言	-10.4504
季氏	-10.4509
日食	-10.4509
滋	-10.4512
禮則	-10.4513
杜註	-10.4513
示民	-10.4514
収	-10.4514
刋	-10.4516
后妃	-10.4517
疎	-10.4518
一丈	-10.452
為賔	-10.4524
西階下	-10.4528
計之	-10.4528
韋弁	-10.4532
皆從	-10.4532
屬於	-10.4534
人鬼	-10.4535
據此	-10.4539
覆之	-10.4541
者當	-10.4545
價	-10.4549
生也	-10.4551
文帝	-10.4552
三千	-10.4554
樓	-10.456
檀弓曰	-10.4562
而加	-10.4568
嗟	-10.4569
觳	-10.4573
廣狹	-10.4577
貍	-10.4579
右記	-10.458
就位	-10.4585
以養	-10.4592
合於	-10.4593
其用	-10.4593
屬之	-10.4593
之極	-10.4595
雕	-10.4596
之宜	-10.4597
善惡	-10.4599
禮運	-10.4599
不免	-10.4604
當爲	-10.4605
其行	-10.4607
必知	-10.4608
鄭以	-10.4608
裹	-10.4613
隧	-10.4614
飪	-10.4616
者對	-10.4616
脀	-10.4623
人子	-10.4626
摶	-10.4632
賓降	-10.4633
用事	-10.4639
一事	-10.4649
複	-10.4649
𧃊	-10.4649
八音	-10.4651
脊脅	-10.4653
尊長	-10.4656
路門	-10.4658
鼙	-10.4659
劉氏	-10.4667
父為	-10.467
十三年	-10.4673
盥洗	-10.4675
制禮	-10.4679
天王	-10.4681
肵俎	-10.4682
五尺	-10.4682
庶母	-10.4686
義理	-10.4686
其性	-10.469
如其	-10.469
並行	-10.4691
之貌	-10.4692
不問	-10.4692
第一星	-10.4696
是已	-10.4696
老者	-10.47
互見	-10.4701
瓚	-10.4704
應門	-10.4706
泲	-10.4707
用牲	-10.4708
階間	-10.4712
乾學案	-10.4713
六軍	-10.4714
制其	-10.4716
為下	-10.4716
此又	-10.4717
郊勞	-10.4719
以安	-10.4725
之性	-10.4729
降而	-10.4729
陳氏祥道曰	-10.4732
仗	-10.4732
知此	-10.4734
地示	-10.4734
一度	-10.4736
莒	-10.4736
鋪	-10.4738
其罪	-10.4738
乘車	-10.474
醤	-10.4744
之事故	-10.4746
各二	-10.4746
者雖	-10.4748
三辭	-10.4748
郷飲酒	-10.4749
中門	-10.475
甞	-10.4751
其外	-10.4753
敬之	-10.4755
濮	-10.4758
則自	-10.4761
秒	-10.4761
載師	-10.4762
芟	-10.4766
羹	-10.4767
於賔	-10.4769
矯	-10.4769
顔色	-10.4771
城郭	-10.4774
大祖	-10.4777
然後能	-10.4779
不中	-10.4781
自為	-10.4781
鬲	-10.4782
昔者	-10.4786
之類是也	-10.4792
億	-10.4797
入告	-10.481
醴齊	-10.481
摇	-10.4815
重故	-10.4816
射則	-10.4816
旄	-10.482
咎	-10.482
帨	-10.482
属	-10.4821
綬	-10.4824
滛	-10.4825
鄉飲酒禮	-10.4827
玉幣	-10.4828
之具	-10.483
瑑	-10.4835
了	-10.4836
廂	-10.4836
簠簋	-10.4837
為位	-10.4842
衆也	-10.4843
者但	-10.4844
自外	-10.4846
皆可	-10.4848
之女	-10.4851
風俗	-10.4852
士庶子	-10.4858
者既	-10.4863
皆當	-10.4864
烹	-10.487
輸	-10.4871
不知其	-10.4872
者乃	-10.4872
寵	-10.4873
禮文	-10.4875
未及	-10.4875
無異	-10.4876
牝	-10.4877
毫	-10.4878
未盡	-10.4883
骨肉	-10.4883
當從	-10.4889
成之	-10.4891
糗	-10.4891
入門右	-10.4893
箱	-10.4896
執圭	-10.4897
于廟	-10.4898
亦不可	-10.4898
鄰國	-10.49
冥	-10.4904
度量	-10.4905
命數	-10.4905
雪	-10.4907
金石	-10.4909
門之内	-10.4918
之車	-10.4919
世室	-10.4921
冡	-10.4921
揆	-10.4925
盎齊	-10.4938
校人	-10.4939
郡國	-10.4943
出而	-10.4946
取諸	-10.4956
之飾	-10.4959
陽也	-10.4961
灼	-10.4962
夏時	-10.4964
槀	-10.4964
忌日	-10.497
其節	-10.4973
寒暑	-10.4975
卒食	-10.4975
阜	-10.4977
遥	-10.4984
許諾	-10.4988
從服	-10.4989
賔降	-10.499
夭	-10.4993
衝	-10.4995
子云	-10.4995
凶荒	-10.4996
聖王	-10.5
有此	-10.5005
齊戒	-10.5006
十有二人	-10.5012
數之	-10.5012
娣	-10.5015
冬官	-10.5019
軷	-10.5024
纊	-10.5025
採	-10.5029
袪	-10.5029
鑄	-10.5036
生人	-10.5036
堪	-10.5043
而不及	-10.5043
韍	-10.5043
卵	-10.5043
陳氏澔曰	-10.5044
或問	-10.5047
枝	-10.5047
東西面	-10.5047
孤卿	-10.5051
以知	-10.5052
之容	-10.5053
賔射	-10.5056
以自	-10.5057
陳於	-10.5059
内朝	-10.5061
當用	-10.5062
支子	-10.5068
亦同	-10.507
夾鍾	-10.5073
賓出	-10.5076
太師	-10.5077
緒	-10.5083
制之	-10.5085
詘	-10.5089
朝夕哭	-10.5089
州縣	-10.5091
春分	-10.5096
容貌	-10.5096
敖繼公曰	-10.5097
乃以	-10.5098
也知	-10.5099
枋	-10.5101
不立	-10.5103
浸	-10.5104
廛	-10.5106
其儀	-10.5115
屯	-10.5116
奏請	-10.512
裼衣	-10.5121
此據	-10.5121
牟	-10.5121
黄鍾之	-10.5124
所以致	-10.5125
炎	-10.5125
以供	-10.5128
昬禮	-10.5128
臣下	-10.5129
低	-10.513
文章	-10.5132
行於	-10.5137
甥	-10.5138
愚謂	-10.5139
曰君	-10.5141
爾雅曰	-10.515
晋	-10.515
禬	-10.5151
凉	-10.5153
障	-10.5154
有司徹	-10.5157
布席	-10.5162
二十八	-10.5168
橫	-10.5168
尸侑	-10.517
命者	-10.5171
也疏曰	-10.5172
熱	-10.5174
卒觶	-10.5175
聽命	-10.5176
常服	-10.5177
本於	-10.5178
之舞	-10.5179
受田	-10.5185
奇	-10.5185
神農	-10.5185
愼	-10.5188
其大	-10.5189
席上	-10.5193
期而	-10.5195
四命	-10.5197
入廟	-10.5201
受服	-10.5201
私人	-10.5204
既練	-10.5205
荘	-10.5207
六宫	-10.5218
唐虞	-10.5224
少者	-10.5226
奠幣	-10.5231
爵者	-10.5232
者矣	-10.5232
之利	-10.5234
燕飲	-10.5235
國事	-10.5235
之常	-10.5243
猶未	-10.5244
三飯	-10.5244
悼	-10.5246
陰陽	-10.5248
氏之	-10.5253
九分	-10.5257
夲	-10.5257
相生	-10.5259
綍	-10.5259
不敢當	-10.5264
以玉	-10.5268
分别	-10.5274
訊	-10.5277
也詩云	-10.5278
釋獲者	-10.5279
也鄭	-10.5281
大帶	-10.5286
也方氏曰	-10.5287
分為	-10.5289
門東	-10.529
拱	-10.5292
鬴	-10.5293
吿	-10.5293
為之服	-10.5296
敵者	-10.5297
肆夏	-10.5303
酌酒	-10.5304
寡人	-10.5307
煮	-10.5308
而來	-10.5313
諌	-10.5314
行道	-10.5325
以素	-10.5325
技	-10.5326
不肖	-10.5326
凶服	-10.5328
法度	-10.5329
彤	-10.5331
嘉靖	-10.5332
艾	-10.5332
一嵗	-10.5333
此乃	-10.5334
璧琮	-10.5335
之耳	-10.5337
不和	-10.5339
于上	-10.5342
絇	-10.5343
用玉	-10.5348
逃	-10.5353
之殤	-10.5358
賔客之	-10.5359
終於	-10.536
之席	-10.5362
樂章	-10.5362
㸃	-10.5362
不安	-10.5369
必用	-10.537
後者	-10.5371
即席	-10.5374
以聽	-10.5381
起於	-10.5383
截	-10.5384
所作	-10.5388
祖奠	-10.5391
周公之	-10.5394
也嚴陵方氏曰	-10.5395
加以	-10.5396
子産	-10.5397
正位	-10.5398
讎	-10.5398
三牲	-10.5399
不由	-10.5399
太學	-10.5402
璜	-10.5403
遞	-10.5406
其可	-10.5406
輴	-10.5409
信也	-10.5412
有大	-10.5413
各自	-10.5414
羨	-10.5419
際	-10.5421
紂	-10.5423
行則	-10.5424
鄉里	-10.5429
祀五帝	-10.543
獻官	-10.5431
侯國	-10.5436
爰	-10.544
肄	-10.5442
之大者	-10.5447
或謂	-10.5462
闊	-10.5463
所能	-10.5463
君薨	-10.5465
釋曰自此盡	-10.5473
績	-10.5475
饗之	-10.5476
已有	-10.5482
階上	-10.5482
尊而	-10.5489
舉旅	-10.5489
隊	-10.5493
騰	-10.5494
則令	-10.5497
又作	-10.5497
殘	-10.5498
東楹	-10.5506
皆言	-10.5506
廩	-10.5512
確	-10.5515
殷之	-10.5517
升歌	-10.5517
自稱	-10.5519
銀	-10.5519
亦宜	-10.5524
許嫁	-10.5526
賓長	-10.5526
遜	-10.5533
不違	-10.5533
羊俎	-10.5535
於父	-10.5538
溝洫	-10.5538
大夫則	-10.5541
有疾	-10.5544
薪	-10.5545
衆介	-10.5547
或云	-10.5548
篆	-10.555
五齊	-10.5554
凡此皆	-10.556
以布	-10.5565
譽	-10.5565
嫂	-10.5568
富貴	-10.5572
公食大夫	-10.5573
筮日	-10.5573
視其	-10.5573
奏肆夏	-10.5577
無可	-10.5583
次於	-10.5584
者惟	-10.5585
粉	-10.5585
墉	-10.5591
祫祭	-10.5592
般	-10.5592
季孫	-10.5597
以金	-10.5601
皇考	-10.5604
劍	-10.5607
小功以下	-10.561
無時	-10.5613
若此	-10.5618
射之	-10.5626
法則	-10.5627
食禮	-10.5632
而藏之	-10.5632
長也	-10.5638
重也	-10.564
鞠衣	-10.5641
燔柴	-10.5643
公族	-10.5645
假令	-10.5651
庶孫	-10.5652
只是	-10.5653
薦俎	-10.5655
辦	-10.5656
榛	-10.566
則可	-10.5663
㕓	-10.5666
攷之	-10.5667
諸侯有	-10.5671
則不可	-10.5673
是故君子	-10.5677
之徒	-10.5679
司農	-10.568
不可以不	-10.5682
小者	-10.5682
額	-10.5683
遷尸	-10.5686
其始	-10.5695
兔	-10.5697
殺牲	-10.5699
訃	-10.5701
貍首	-10.5703
之律	-10.5706
欲使	-10.5709
其母	-10.5711
岀	-10.5713
俛	-10.5714
熈	-10.5714
靖	-10.5718
蕙田案此	-10.5724
為宫	-10.5725
人倫	-10.5727
陷	-10.5727
備矣	-10.573
先聖	-10.5731
重言	-10.5737
以節	-10.5738
洞	-10.5739
褒	-10.574
六升	-10.5742
與大夫	-10.5748
韎	-10.575
咨	-10.5751
通用	-10.5755
以别	-10.5758
戒令	-10.5759
者鄭	-10.5767
斚	-10.5768
不嫌	-10.5771
九州之	-10.5775
授受	-10.5776
圉	-10.5778
子男之	-10.5778
公之	-10.5778
陸氏	-10.5783
誘	-10.5788
其類	-10.5789
凶事	-10.579
僕人	-10.5791
便也	-10.5792
昧	-10.5793
雁	-10.5794
陸氏佃曰	-10.5794
漬	-10.5794
晝夜	-10.5796
楚子	-10.5796
會同	-10.5799
有道	-10.5803
三百六十	-10.5807
耳目	-10.5808
賑	-10.5813
一月	-10.5814
曰天子	-10.5815
何如	-10.5816
彭	-10.5816
曾孫	-10.5816
也春秋傳曰	-10.5817
禋	-10.5826
執爵	-10.5828
恕	-10.5831
屢	-10.5832
祭宗廟	-10.5837
張子曰	-10.5838
為民	-10.5843
哭盡哀	-10.5845
與士	-10.5846
鐵	-10.5846
十分	-10.5847
大功以上	-10.5847
繼父	-10.5847
瑱	-10.5847
實以	-10.5848
察其	-10.5848
其日	-10.5851
沮	-10.5856
祭則	-10.5858
伯叔	-10.586
使某	-10.5866
有爵者	-10.5867
先鄭	-10.5868
巢	-10.587
筥	-10.5871
宦	-10.5872
閤門	-10.5879
諸父	-10.5884
攸	-10.5886
邦國都鄙	-10.5892
問於	-10.5892
世祖	-10.5894
户外	-10.5895
降席	-10.5902
上云	-10.5902
敕	-10.5903
親疏	-10.5905
自天子	-10.5905
稼穡	-10.5906
大明	-10.591
降階	-10.5912
七升	-10.592
洪武	-10.5928
盎	-10.5933
先儒謂	-10.5933
某氏	-10.5935
所受	-10.5936
兼有	-10.5939
朝廟	-10.5943
匠	-10.5945
心也	-10.5949
一篇	-10.5951
拾取矢	-10.5954
繼之以	-10.5955
於義	-10.5958
用其	-10.5959
左還	-10.5962
大都	-10.5962
拜送爵	-10.5962
居其	-10.5963
附於	-10.5963
陟	-10.5965
雄	-10.5969
則服	-10.5974
雖非	-10.5974
酬賓	-10.5976
愛之	-10.5978
不同者	-10.5983
毅	-10.599
水之	-10.5991
宵	-10.5992
隂厭	-10.5993
舉觶	-10.5995
先升	-10.5995
謂此	-10.5995
枲	-10.5996
腸胃	-10.5999
大府	-10.6004
上佐食	-10.6011
少進	-10.6012
明年	-10.6013
閲	-10.6013
與主人	-10.6014
人有	-10.6015
旁親	-10.6015
珥	-10.6024
圗	-10.6026
漢時	-10.6027
曽子問	-10.6028
尊敬	-10.6034
粢	-10.6038
遷主	-10.6038
膳羞	-10.6041
夷狄	-10.6041
世之	-10.6041
之爵	-10.6042
者因	-10.6042
謂王	-10.6044
蜀	-10.6047
中書	-10.6052
辭洗	-10.6053
虞夏	-10.6054
義服	-10.6055
齊人	-10.6057
於士	-10.6058
主人辭	-10.606
道徳	-10.6067
妣	-10.6077
絞帶	-10.6084
庾	-10.6085
玄端	-10.6085
故於	-10.6086
鳳	-10.6088
虞祭	-10.609
則稱	-10.6093
司常	-10.6097
大祭	-10.6098
朞	-10.61
百年	-10.6101
倅	-10.6102
至矣	-10.6105
謂諸侯	-10.6109
於前	-10.611
府二人	-10.6113
鐘鼓	-10.6117
墠	-10.6118
下大夫二人	-10.612
擩	-10.6131
大侯	-10.6132
丙	-10.6135
三卿	-10.6138
又音	-10.6138
降服	-10.6144
吉事	-10.6144
以表	-10.6146
皆無	-10.6146
沂	-10.6147
主人拜送	-10.6148
郊特牲云	-10.615
以尊	-10.6151
降洗	-10.6152
右个	-10.6153
汙	-10.6162
與君	-10.6162
學之	-10.6167
哲	-10.6173
剡	-10.6175
乃出	-10.6178
阻	-10.618
晏子	-10.618
尊祖	-10.6181
暮	-10.6181
恐其	-10.6181
升自阼階	-10.6181
以馭其	-10.6183
十六年	-10.6187
凡言	-10.6188
陳鼎	-10.6189
逺郊	-10.6189
于社	-10.6189
盾	-10.6193
置于	-10.6193
其官	-10.6196
母死	-10.6197
何為	-10.6197
太僕	-10.6199
鈎	-10.6202
為先	-10.6206
無私	-10.6208
五升	-10.6209
故能	-10.6211
奏樂	-10.6214
合之	-10.6214
匏	-10.6217
歸之	-10.6217
正嵗	-10.6217
遍	-10.6218
麻衣	-10.6218
長殤	-10.6225
尺五寸	-10.6227
半徑	-10.6229
鄭司農	-10.6231
為異	-10.6234
宫正	-10.6234
飲之	-10.6234
之位也	-10.6236
宗族	-10.6237
爪	-10.6237
弭	-10.6237
番	-10.6242
禮成	-10.6244
䟽曰	-10.6245
方千里	-10.6251
哭者	-10.6251
帳	-10.6258
穢	-10.6259
首服	-10.6259
之服也	-10.6268
折俎	-10.6268
居中	-10.6271
以從	-10.6274
扑	-10.6275
則止	-10.6275
卒伍	-10.6285
慰	-10.6289
故名	-10.6291
有節	-10.6293
者見	-10.6294
監本	-10.6296
先師	-10.6298
頸	-10.6301
伯父	-10.6301
紅	-10.6302
五百	-10.6304
亦皆	-10.6304
在天	-10.6305
質明	-10.6308
賈人	-10.631
是亦	-10.6316
祭者	-10.6317
則先	-10.6318
郊天	-10.632
圭璧	-10.6322
也古文	-10.6323
潛	-10.6324
之役	-10.6325
小君	-10.6326
下棺	-10.633
施之	-10.633
刑之	-10.6336
乃有	-10.6338
之事則	-10.6345
文不具	-10.6355
當有	-10.6357
線	-10.6358
異于	-10.6359
殷周	-10.6359
釋文	-10.6363
在中	-10.6373
禰廟	-10.6374
虎賁	-10.6375
縣鄙	-10.6375
耜	-10.6376
孝也	-10.6381
第五	-10.6383
因以	-10.6384
蠲	-10.6387
也世佐案	-10.6389
齊衰以下	-10.6392
此等	-10.6394
犢	-10.6396
别也	-10.6396
弼	-10.6396
峻	-10.6397
三侯	-10.6398
前期	-10.6399
前一日	-10.64
漢志	-10.64
漁	-10.6402
麟	-10.6403
莞	-10.6406
頂	-10.6407
融	-10.6409
崔	-10.6409
金奏	-10.6416
皆非	-10.6416
厥明	-10.6419
為臣	-10.6423
于天	-10.6424
之遺	-10.6424
以齒	-10.6426
其利	-10.6427
一員	-10.6429
季夏	-10.6431
君使	-10.6433
父在為母	-10.6436
公事	-10.6436
聯	-10.6438
滯	-10.6442
洫	-10.6442
菑	-10.6443
互相	-10.6444
立春	-10.6444
劒	-10.6445
本無	-10.6447
遼	-10.645
將幣	-10.6451
次國	-10.6453
縣師	-10.6454
於南郊	-10.6455
禭	-10.6456
詔相	-10.6457
憑	-10.646
逢	-10.646
孤子	-10.6465
輯	-10.6465
祭之日	-10.6467
有喪	-10.6468
亦未	-10.6469
皇祖	-10.647
故知此	-10.6472
省文	-10.6473
趣	-10.6475
其廟	-10.6477
不聞	-10.6479
管仲	-10.648
何得	-10.6481
的	-10.6481
名為	-10.6487
久矣	-10.6487
重於	-10.6487
在官	-10.6492
自相	-10.6493
宋史	-10.6497
何休	-10.6497
笲	-10.6498
掘	-10.6498
董	-10.6499
大戴禮	-10.6499
撻	-10.6503
醯醢	-10.6504
訪	-10.6504
諸侯則	-10.6507
有德	-10.6508
徒二十人	-10.6512
官之屬	-10.6512
愚案	-10.6515
无	-10.6516
昆弟之子	-10.6518
為祖	-10.6518
故不言	-10.6518
之辭也	-10.6521
4	-10.6521
滕	-10.6524
駟	-10.6529
其財	-10.653
治民	-10.6531
三酒	-10.6531
少儀	-10.6533
也是以	-10.6535
賓介	-10.6539
想	-10.6539
陳于	-10.654
昆	-10.6544
彰	-10.6544
墻	-10.6546
此不言	-10.6549
玉藻云	-10.655
哭於	-10.6552
中間	-10.6555
於周	-10.6557
故此	-10.6558
而不得	-10.6559
5	-10.6562
菹醢	-10.6563
邦治	-10.6569
本紀	-10.6571
今時	-10.6574
騂	-10.6577
賢能	-10.6582
軍事	-10.6583
為首	-10.6586
帯	-10.6589
合祭	-10.659
之饌	-10.6592
此三者	-10.6593
降復位	-10.6596
譲	-10.6597
之號	-10.6597
所陳	-10.66
膺	-10.6603
延平周氏曰	-10.6603
之首	-10.6603
七尺	-10.6607
扃	-10.6608
五嶽	-10.6609
三重	-10.6609
也或曰	-10.6609
户内	-10.6613
天理	-10.6613
但以	-10.6615
絺	-10.6616
道藝	-10.6616
儲	-10.6618
有竒	-10.6619
之祀	-10.662
犆	-10.6621
是非	-10.6621
無有	-10.6627
泗	-10.663
封疆	-10.6633
庶幾	-10.6634
五方	-10.6635
而食	-10.6636
降於	-10.6638
進士	-10.6639
死於	-10.664
江氏永曰	-10.6641
存乎	-10.6646
伯禽	-10.6647
概	-10.6648
燋	-10.6648
之罪	-10.665
酢主人	-10.6653
筮尸	-10.6653
三代之	-10.6658
置之	-10.6661
其祭	-10.6662
布帛	-10.6663
易以	-10.6665
鷹	-10.6668
則不得	-10.6671
惟有	-10.6671
梓	-10.6673
備也	-10.6676
天命	-10.668
貉	-10.6682
可用	-10.6683
百世	-10.6687
之時也	-10.669
知所	-10.6691
尊賢	-10.6691
是月	-10.6693
楣	-10.6694
不告	-10.6698
三軍	-10.67
蹙	-10.6701
既夕	-10.6701
㫁	-10.6703
先公	-10.6704
拜稽顙	-10.6707
相連	-10.6707
納采	-10.6709
安也	-10.6709
母之	-10.6712
五穀	-10.6715
虞卒哭	-10.6717
宿衛	-10.6718
蕤	-10.6719
自古	-10.6721
鼈	-10.6724
仁宗	-10.6725
玩	-10.6725
清明	-10.6726
腰	-10.6726
而去	-10.6729
後乃	-10.6731
尸酢	-10.6734
終也	-10.6735
司市	-10.6735
負侯	-10.6736
西北面	-10.6738
者證	-10.674
相變	-10.6743
是之謂	-10.6748
幣帛	-10.6748
其序	-10.6749
赤道	-10.6749
扈	-10.6749
製	-10.675
七十二	-10.6757
知者	-10.676
也者案	-10.6761
旜	-10.6763
巨	-10.6767
盜賊	-10.6768
撥	-10.6769
言之者	-10.6769
祇	-10.6769
于篚	-10.6772
恃	-10.6772
大傳	-10.6779
祭統	-10.6785
惜	-10.6789
今人	-10.6793
而自	-10.6795
州里	-10.6795
喪之	-10.6795
禁令	-10.68
於身	-10.6801
設官	-10.6801
儀注	-10.6803
在地	-10.6813
爻	-10.6814
意也	-10.6816
牢禮	-10.6818
凡此	-10.6823
瞽宗	-10.6826
繶	-10.6826
秬鬯	-10.6828
廢置	-10.683
者舉	-10.683
昊天	-10.6831
適婦	-10.6834
昊天上帝	-10.6837
案周禮	-10.684
反徐	-10.6841
嚳	-10.6843
賁	-10.6846
鏃	-10.6848
大歛	-10.6849
妻之	-10.6851
各掌其	-10.6851
來弔	-10.6853
除服	-10.6853
闑	-10.6855
觴	-10.6855
之數也	-10.6858
賜予	-10.6859
牛羊	-10.6862
師氏	-10.6862
大圭	-10.687
玄謂	-10.6872
不踰	-10.6872
弣	-10.6874
禮書	-10.6875
相親	-10.6875
公食大夫禮	-10.6876
器物	-10.6877
干戚	-10.6878
父母之	-10.6878
卓	-10.6879
莫敢	-10.688
乃云	-10.6886
名官	-10.6888
公主	-10.6891
濕	-10.6892
羣官	-10.6893
互文	-10.6897
妻子	-10.6898
甚矣	-10.6899
萑	-10.6899
罕	-10.69
止也	-10.69
郊廟	-10.6906
為陽	-10.691
懲	-10.6914
袖	-10.6915
以享	-10.6915
韶	-10.6916
長㓜	-10.6917
冶	-10.6918
覽	-10.6918
所治	-10.6919
賴	-10.692
西階東	-10.6921
有九	-10.6928
為諸侯	-10.6928
存疑	-10.6928
治兵	-10.6928
左个	-10.6928
二十九	-10.6933
辭曰	-10.6936
門人	-10.6941
皆與	-10.6945
其生	-10.6946
其器	-10.6947
中殤	-10.6948
侍郎	-10.6948
之俎	-10.6957
致仕	-10.6958
士則	-10.6958
求其	-10.6959
為飾	-10.6959
年正月	-10.6965
與祭	-10.6968
心之	-10.6968
亦名	-10.6969
緇布	-10.6971
清酒	-10.6972
𤓰	-10.6975
配之	-10.6978
設洗	-10.698
於家	-10.6981
之期	-10.6987
孤卿大夫	-10.6988
特豚	-10.6989
衣也	-10.6991
承重	-10.6993
不齊	-10.6994
階西	-10.6997
蟄	-10.7
八十一	-10.7005
以觀	-10.7008
佩玉	-10.7009
不同也	-10.701
非有	-10.702
膴	-10.702
元士	-10.7021
狎	-10.7022
隷	-10.7025
潘	-10.7026
七曰	-10.7027
君賜	-10.7029
不貳	-10.703
所共	-10.703
后之	-10.7032
三加	-10.7033
不設	-10.7036
房户	-10.7037
筵前	-10.7037
雀	-10.7044
妹	-10.7044
于君	-10.7049
此説	-10.705
哭泣	-10.7052
不齒	-10.7052
于郊	-10.7053
其德	-10.7054
西南面	-10.7055
飾以	-10.7058
節文	-10.7058
告朔	-10.7067
體也	-10.7067
太簇	-10.7068
酬賔	-10.7068
固辭	-10.707
五星	-10.7075
王城	-10.7077
其能	-10.7078
於堂上	-10.7078
冬夏	-10.7078
之朝	-10.7079
五味	-10.708
盛徳	-10.708
不厭	-10.7085
欲以	-10.7085
六十四	-10.7088
輕故	-10.7088
陋	-10.7093
來者	-10.7093
一廟	-10.7094
中大夫	-10.7095
本亦作	-10.7097
渾	-10.7098
無二	-10.7098
成於	-10.7103
陳氏禮書	-10.7107
扇	-10.711
各得其	-10.711
堵	-10.711
上服	-10.7113
正寢	-10.7117
訖乃	-10.7117
獻賔	-10.7123
公侯伯子男	-10.7124
所食	-10.7124
兩頭	-10.7126
之精	-10.7128
春正月	-10.7128
聲之誤也	-10.7132
為士	-10.7139
賞罰	-10.7144
也敖氏繼公曰	-10.7144
内府	-10.7145
也此言	-10.7145
者尊	-10.7145
也今文	-10.7148
惡之	-10.7153
中者	-10.7153
櫜	-10.7157
王子	-10.7158
在今	-10.7159
於寢	-10.716
成公	-10.716
是日	-10.7162
無疑	-10.7163
諸王	-10.7164
内子	-10.7165
其牲	-10.7165
北堂	-10.7166
膾	-10.717
以木	-10.7171
畿外	-10.7171
之衣	-10.7172
簟	-10.7175
於賓	-10.7177
昏姻	-10.7177
衆兄弟	-10.7179
从	-10.7179
之義故	-10.7187
為尊	-10.7189
吉日	-10.719
冦	-10.7191
民數	-10.7191
度數	-10.7192
爵禄	-10.7192
無數	-10.7193
訾	-10.7194
駁	-10.7194
外命婦	-10.7194
傍	-10.7197
肫	-10.7198
治天下	-10.7199
公食	-10.72
可見矣	-10.72
國人	-10.7201
之德	-10.7201
大夫禮	-10.7205
祭日	-10.7206
勝者	-10.7207
相因	-10.7209
出母	-10.7212
既祭	-10.7213
不致	-10.7214
殳	-10.7214
裕	-10.7216
王制云	-10.7218
夙興	-10.722
悲哀	-10.722
必使	-10.7223
封禪	-10.7227
寢廟	-10.7227
矣故曰	-10.7234
使卿	-10.7238
亟	-10.7242
成而	-10.7244
得失	-10.7245
曾子問	-10.7245
二尺二寸	-10.7246
此即	-10.7247
於鬼神	-10.7251
皆降	-10.7252
清廟	-10.7253
泣	-10.7255
旐	-10.7257
准	-10.7258
自酢	-10.7258
而降	-10.7258
不動	-10.7259
昴	-10.7264
玉人	-10.7264
無廟	-10.7269
血氣	-10.7273
禮事	-10.7273
寇	-10.7274
顧命	-10.7274
稱其	-10.7275
閏月	-10.7283
則從	-10.7286
實于	-10.7286
其理	-10.7287
嬰	-10.7287
而除	-10.7288
常禮	-10.7291
耆老	-10.7293
教以	-10.73
盞	-10.7305
醢人	-10.7309
於主人	-10.7309
四者	-10.7309
在家	-10.731
如常	-10.7314
不取	-10.7316
縣之	-10.7317
所引	-10.7319
同時	-10.7322
王使	-10.7322
是知	-10.7324
涉	-10.7326
鄉飲	-10.7326
胖	-10.7327
甲子	-10.7334
梓人	-10.7335
于下	-10.7336
又無	-10.7337
無節	-10.7337
為名	-10.7337
賔介	-10.734
鄭氏以	-10.7341
司命	-10.7341
命龜	-10.7344
孝子之	-10.7345
諾	-10.7348
篋	-10.7349
獻酬	-10.7352
尋常	-10.7353
姪娣	-10.7354
與此同	-10.7356
禮故	-10.7358
姓名	-10.7361
則已	-10.7362
廣大	-10.7362
王事	-10.7369
神位前	-10.737
疏謂	-10.7371
諸侯以	-10.7372
賓客之	-10.7375
嗣子	-10.7376
此條	-10.7376
故引	-10.7376
燕寢	-10.7377
月之	-10.738
沿	-10.7382
日出	-10.7388
司馬法	-10.7389
適人	-10.7389
異矣	-10.7389
各一人	-10.739
后夫人	-10.739
本也	-10.7393
擅	-10.7397
報反	-10.7398
五者	-10.7398
故使	-10.7399
異故	-10.7403
燕居	-10.7405
戊	-10.7408
下經	-10.7411
授尸	-10.7412
喪冠	-10.7416
抽	-10.7417
闢	-10.7418
正體	-10.7419
生子	-10.7424
降殺	-10.7425
坐祭	-10.7428
矣夫	-10.7431
教國子	-10.7432
禮賓	-10.7433
促	-10.7437
▁同上	-10.744
筆	-10.744
為文	-10.744
所以别	-10.7441
從而	-10.7444
凡有	-10.7444
改正	-10.7449
熊氏	-10.7451
以定	-10.7452
無後	-10.7454
狼	-10.7456
因之	-10.746
把	-10.746
祈榖	-10.7462
羙	-10.7462
於神	-10.7463
課	-10.7463
瑕	-10.7465
脂	-10.7466
本末	-10.7471
三百里	-10.7472
肂	-10.7474
舉奠	-10.7476
此意	-10.7477
王父	-10.7478
鑒	-10.7479
少南	-10.7482
者唯	-10.7482
祔祭	-10.7484
五服之	-10.7484
壅	-10.7485
有時	-10.7486
王國	-10.7487
於心	-10.7489
云天子	-10.7489
比於	-10.7498
官府之	-10.7502
其常	-10.7502
於後	-10.7505
職掌	-10.7506
夏之	-10.7507
嘆	-10.7507
衿	-10.7509
内宗	-10.751
著其	-10.751
此明	-10.7511
既夕禮	-10.7517
臣也	-10.7521
釋服	-10.7522
哀戚	-10.7522
胡氏	-10.7523
掃	-10.7526
於祖	-10.7526
九章	-10.7526
之善	-10.7527
淑	-10.7527
聘問	-10.7532
大羮	-10.7533
紹興	-10.7537
之時則	-10.7548
黜	-10.7549
藍田吕氏曰	-10.7553
隙	-10.7555
生之	-10.7556
驂	-10.7556
卒爵拜	-10.7558
用幣	-10.7559
大蔟	-10.756
辨之	-10.756
子婦	-10.7561
三者皆	-10.7562
北首	-10.7563
迎賔	-10.7564
大次	-10.7565
鄉之	-10.7567
𫝊曰	-10.757
臣禮	-10.7571
雖然	-10.7572
眀堂	-10.7572
攝主	-10.7573
某子	-10.7573
下言	-10.7574
輤	-10.7575
皇氏云	-10.7577
柷	-10.7577
紕	-10.7578
鐘磬	-10.7582
服緦	-10.7582
者嫌	-10.7582
為己	-10.7585
天子乃	-10.7588
聞喪	-10.759
糝	-10.7591
朝士	-10.7595
所以養	-10.7598
大戴	-10.76
鬼神之	-10.76
衛侯	-10.7601
所自出	-10.7602
盥手	-10.7603
同義	-10.7606
婦人不	-10.7607
于外	-10.7608
東靣	-10.7614
與天地	-10.7615
仲冬	-10.7615
雜記曰	-10.7615
適人者	-10.7616
扉	-10.7616
東夾	-10.7617
大胥	-10.7617
偏東	-10.7619
渉	-10.762
以此為	-10.7621
律吕	-10.7622
大樂正	-10.7623
土為	-10.7624
六分	-10.7627
士䘮禮	-10.7633
吉時	-10.7634
也繼公謂	-10.764
𤣥纁	-10.7644
為父後者	-10.7646
治朝	-10.7652
婦人之	-10.7652
其爵	-10.7653
賓射	-10.7654
特牲禮	-10.7655
成禮	-10.7656
三十二	-10.7658
繼之	-10.766
于房	-10.7663
遏	-10.7663
宏	-10.7666
七分	-10.7669
衰絰	-10.767
談	-10.767
側室	-10.767
所乗	-10.7671
大武	-10.7673
鞠	-10.7673
亦必	-10.7675
仲夏	-10.7676
之以為	-10.7677
吴	-10.7677
射也	-10.7678
而升	-10.768
尚質	-10.7681
為兄弟	-10.7681
對曰某	-10.7681
今從	-10.7682
於大	-10.7683
以入	-10.7683
革路	-10.7684
筍	-10.7686
蒸	-10.7687
性之	-10.7687
菲	-10.7688
輙	-10.769
鳯	-10.769
貺	-10.769
神座	-10.7691
以給	-10.7691
享之	-10.7692
宗廟之祭	-10.7692
大雅	-10.7693
蓄	-10.7696
舊說	-10.7696
所司	-10.7698
為善	-10.7699
升自	-10.7702
族師	-10.7705
所設	-10.7707
百神	-10.7709
瘍	-10.7711
看	-10.7712
此二者	-10.7714
之材	-10.7716
鄭司農曰	-10.7718
升數	-10.7719
田野	-10.7719
十七年	-10.7721
宣公	-10.7722
服齊衰	-10.7723
文書	-10.7724
車也	-10.7725
然其	-10.7728
則天子	-10.7731
不顧	-10.7734
家臣	-10.7739
執其	-10.7743
樂舞	-10.7743
皇皇	-10.7743
於壇	-10.7744
所建	-10.7745
典命	-10.7747
六鄉之	-10.7747
衣之	-10.7748
車徒	-10.7749
公館	-10.775
偏西	-10.775
也周	-10.7751
疫	-10.7752
以辨	-10.7752
卿大夫之	-10.7754
影	-10.7755
某甫	-10.7755
拒	-10.7756
之所由	-10.7758
去國	-10.776
西階上北面	-10.7764
五室	-10.7766
不諱	-10.7766
配以	-10.7766
主祭	-10.7768
九獻	-10.777
毳	-10.7775
召公	-10.7777
不坐	-10.7779
饒	-10.7782
著於	-10.7782
曽子問曰	-10.7783
其事也	-10.7784
讀祝	-10.7785
徹之	-10.7789
又引	-10.7797
上聲	-10.7803
寡君	-10.7806
合諸侯	-10.7807
而設	-10.7808
略之	-10.7809
事神	-10.7814
職方	-10.782
祭于	-10.7822
凍	-10.7823
禮云	-10.7824
玉藻曰	-10.7825
萃	-10.7826
以麻	-10.7826
廢疾	-10.7826
過於	-10.7827
刑殺	-10.7828
主人受	-10.7828
記之	-10.7831
下堂	-10.7838
烝嘗	-10.784
狀如	-10.7841
而服	-10.7841
下篇	-10.7846
其南	-10.7848
祔廟	-10.7848
素裳	-10.7848
棗栗	-10.785
其在	-10.7852
先王之制	-10.7866
也惟	-10.7869
何所	-10.787
讀書	-10.787
以詔	-10.7871
成均	-10.7871
欒	-10.7872
侮	-10.7872
雉門	-10.7873
有過	-10.7876
姆	-10.7878
九尺	-10.788
三采	-10.7881
欲見	-10.7883
上卿	-10.7889
從君	-10.789
凡祭	-10.789
精神	-10.7896
圃	-10.7899
蠱	-10.7903
拜辱	-10.7905
天子之禮	-10.7906
象路	-10.7911
黄鐘	-10.7911
袒免	-10.7911
相承	-10.7914
瘠	-10.7915
遺人	-10.7919
賜爵	-10.7921
朝諸侯	-10.7922
東北面	-10.7922
巻	-10.7925
所取	-10.7929
大射正	-10.793
要之	-10.793
來聘	-10.7931
府史	-10.7932
器用	-10.7934
皷	-10.7935
近臣	-10.7938
從上	-10.7939
腎	-10.7941
矣若	-10.7942
習射	-10.7945
攘	-10.7946
行列	-10.7946
干戈	-10.7948
冬十月	-10.795
物皆	-10.795
以敬	-10.7953
如是則	-10.7954
凶禮	-10.7955
槩	-10.7956
者何也	-10.7957
曽子曰	-10.7958
冠而	-10.796
所立	-10.796
涗	-10.7962
内有	-10.7964
卿士	-10.7968
親廟	-10.7969
少牢饋食禮	-10.7969
琢	-10.7971
於道	-10.7972
為敬	-10.7973
則雖	-10.7976
白布	-10.7976
昨	-10.798
左執	-10.7982
小功緦麻	-10.7983
貞觀	-10.7983
武子	-10.7985
鶉	-10.7986
敢不	-10.7987
小史	-10.7989
祚	-10.799
輩	-10.799
羔裘	-10.7991
六藝	-10.7994
降拜	-10.7999
歸于	-10.8002
祀典	-10.8005
之論	-10.8007
形如	-10.8009
六畜	-10.8009
簧	-10.8014
八分	-10.8015
燧	-10.8016
刺史	-10.8017
墜	-10.8018
都家	-10.802
加冠	-10.8025
也又云	-10.8029
地祗	-10.8031
下至	-10.8032
之明日	-10.8033
都邑	-10.8034
飧	-10.8035
疑衰	-10.8035
凌	-10.8035
今云	-10.8036
禀	-10.8038
之例	-10.8043
户西	-10.805
於物	-10.8054
鉦	-10.8058
既𦵏	-10.8059
徳也	-10.806
排	-10.8061
太公	-10.8062
茶	-10.8063
臣等	-10.8063
獮	-10.8063
於父母	-10.8065
治也	-10.807
祭祀賔客	-10.8072
熊氏云	-10.8073
不離	-10.808
必待	-10.808
神靈	-10.8082
引之者證	-10.8083
喪服小記	-10.8084
銜	-10.8086
非所以	-10.8086
涕	-10.8089
商祝	-10.8093
民有	-10.8093
而弔	-10.8094
釋弓	-10.8094
銖	-10.8095
賤也	-10.8096
心喪	-10.81
革帶	-10.8104
莫能	-10.8106
杠	-10.8108
薌	-10.8109
牖下	-10.811
物者	-10.8113
君尊	-10.8113
亦從	-10.8114
辠	-10.8114
北向立	-10.8114
兄弟之子	-10.8115
加爵	-10.8115
致館	-10.8115
祁	-10.8116
退而	-10.8117
兼言	-10.8119
所以教	-10.812
蓋以	-10.812
宛	-10.8126
之絰	-10.8127
特言	-10.8129
羡	-10.8131
方五百里	-10.8131
不殊	-10.8133
神宗	-10.8135
先帝	-10.8135
於樂	-10.8138
之過	-10.8138
無尸	-10.8142
卑故	-10.8142
祭天地	-10.8143
豚解	-10.8144
存者	-10.8145
得用	-10.8146
縞冠	-10.8146
楹間	-10.8148
八曰	-10.8149
虞祔	-10.8152
蕡	-10.8152
灂	-10.8153
之本也	-10.8155
汚	-10.8155
莭	-10.8155
鑑	-10.8155
誕	-10.8155
者以此	-10.8156
藉田	-10.816
其首	-10.816
一夫	-10.8162
在焉	-10.8168
一拜	-10.8174
如前	-10.8175
此論	-10.8178
或爲	-10.8179
刪	-10.818
御座	-10.8188
之辨	-10.819
㠯	-10.8196
成功	-10.8196
孔氏穎逹曰	-10.8198
糞	-10.8198
稾	-10.8201
夏四月	-10.8201
巡狩	-10.8203
正脊	-10.8204
為期	-10.8204
東壁	-10.8208
則得	-10.8208
纎	-10.821
清濁	-10.8212
西夾	-10.8215
此與	-10.8216
注正義曰	-10.8216
不得以	-10.8218
於西階上	-10.8223
者多	-10.8225
執燭	-10.8225
瞽矇	-10.8228
詠	-10.823
王后之	-10.8231
圜土	-10.8234
舉哀	-10.8237
日月之	-10.8237
無事則	-10.8243
為其母	-10.8244
歴代	-10.8246
焉此	-10.8256
戍	-10.8256
縵	-10.8256
二十一	-10.8257
有序	-10.8259
蹈	-10.8261
尸也	-10.8269
妥	-10.8272
一句	-10.8273
不獨	-10.8273
膝	-10.8274
席于	-10.8274
王制曰	-10.8276
既畢	-10.8279
虐	-10.828
諸侯大夫	-10.828
僻	-10.8281
二百里	-10.8282
百四十	-10.8289
則為之	-10.8289
小祝	-10.8294
漢儒	-10.8297
也婦人	-10.8299
形體	-10.8299
右還	-10.8302
爵弁服	-10.8302
註疏	-10.8304
鷩冕	-10.8304
獻祝	-10.8305
生物	-10.8307
定制	-10.831
設奠	-10.8311
所以然者	-10.8311
之所在	-10.8311
今按	-10.8312
衣冠	-10.8312
無爵	-10.8313
姊	-10.8321
誅賞	-10.8323
朽	-10.8328
玉爵	-10.8329
鄕	-10.833
廡	-10.8332
酌者	-10.8334
等皆	-10.8335
也右	-10.8336
之室	-10.8337
其右	-10.8337
道者	-10.8337
乳	-10.834
兒	-10.8345
也方氏慤曰	-10.8347
接神	-10.8347
曰此	-10.8351
不杖期	-10.8358
也山隂陸氏曰	-10.8358
於俎	-10.8362
九式	-10.8362
鄉射禮	-10.8364
大火	-10.8366
不得為	-10.8366
以致其	-10.8366
未安	-10.8367
不升	-10.8368
舉鼎	-10.8368
炮	-10.8369
山虞	-10.837
又加	-10.8372
綌	-10.8375
恨	-10.8376
致禮	-10.8378
理也	-10.8379
炭	-10.8379
燕則	-10.8382
竇	-10.8383
就其	-10.8386
二廟	-10.839
之重	-10.8391
主于	-10.8394
坐奠	-10.8395
升成拜	-10.8398
十有一	-10.8398
樂以	-10.8401
鏤	-10.8402
後漢	-10.8405
周旋	-10.8405
皆曰	-10.841
陂	-10.841
為父母	-10.8415
齍	-10.8415
三十里	-10.8416
緇衣	-10.8416
縓	-10.8418
媵爵	-10.8418
於左	-10.842
愆	-10.8421
賙	-10.8421
簞	-10.8422
需	-10.8427
聽其	-10.8434
教也	-10.8437
豪	-10.8438
不辭	-10.8439
祭其	-10.8441
杜氏	-10.8442
三刻	-10.8443
無足	-10.8443
太常寺	-10.8446
四十八	-10.8447
㸑	-10.845
用此	-10.845
其末	-10.845
皋	-10.8452
䖍	-10.8453
偪	-10.8455
竅	-10.8455
兖	-10.8457
也唯	-10.8459
席也	-10.8463
而居	-10.8463
先王制禮	-10.8464
兼用	-10.8469
逺者	-10.847
朝位	-10.8471
濶	-10.8471
杜預	-10.8476
謙也	-10.8478
賓之	-10.8481
於尸	-10.8487
二十三	-10.8491
以立	-10.8494
魯公	-10.8497
大夫以下	-10.8499
盗	-10.85
手足	-10.8501
乃退	-10.8505
丘陵	-10.8506
世宗	-10.8508
其政	-10.8509
後言	-10.8509
兩手	-10.8511
有天下	-10.8511
什一	-10.8513
使知	-10.8513
四代	-10.8517
二十五月	-10.8518
彦	-10.8521
鬻	-10.8523
斝	-10.8523
䖏	-10.8525
其容	-10.8528
不至於	-10.853
曰寡君	-10.8532
當然	-10.8533
釋獲	-10.8533
也引	-10.8534
侯道	-10.8535
先君之	-10.8539
以證	-10.8539
亡者	-10.854
則君	-10.8543
制也	-10.8545
田役	-10.8546
從夫	-10.8547
則易	-10.8547
無算	-10.8547
楬	-10.8549
爾雅云	-10.855
以承	-10.8553
而天下	-10.8554
未見	-10.8554
用樂	-10.8554
字之誤也	-10.8555
而實	-10.8556
大寢	-10.8557
天子諸侯之	-10.8557
迎牲	-10.8559
四瀆	-10.8561
嚌之	-10.8563
庭中	-10.8564
王公	-10.8564
眡其	-10.8567
鞭	-10.8567
則宜	-10.8568
無定	-10.8569
繚	-10.8571
斜	-10.8573
不著	-10.8575
甿	-10.8575
僎	-10.8576
爲主	-10.8576
逺矣	-10.8577
印	-10.8578
大夫有	-10.8581
天子以	-10.8582
磬折	-10.8585
出則	-10.8588
四百里	-10.8588
丈八尺	-10.859
夫禮	-10.8591
兕	-10.8595
之象也	-10.8597
乾肉	-10.8598
塋	-10.8599
繼祖	-10.86
責之	-10.8603
地而	-10.8605
古制	-10.8606
始有	-10.8608
求神	-10.861
分之	-10.8611
掌王之	-10.8612
金玉	-10.8617
像	-10.8622
命有司	-10.8623
服小功	-10.8624
凱	-10.8624
範	-10.8625
其書	-10.8627
於明堂	-10.8627
祝祝	-10.8632
矣今	-10.8633
葬者	-10.8633
母妻	-10.8636
書於	-10.8638
所從	-10.8638
承天	-10.8639
乗馬	-10.864
枉	-10.8642
脚	-10.8643
在所	-10.8644
騐	-10.8646
塟	-10.8648
事謂	-10.8648
丁亥	-10.865
西房	-10.8652
三拜	-10.8652
簭	-10.8654
終獻	-10.8654
子張	-10.8654
祖之	-10.8655
降出	-10.8658
武舞	-10.8665
西鄉	-10.8665
作主	-10.867
䋫	-10.8671
抵	-10.8671
羶	-10.8672
㑹計	-10.8675
所記	-10.8679
降神	-10.868
在庭	-10.8682
寢門	-10.8682
阼階東	-10.8683
廟見	-10.8684
本國	-10.8685
朔月	-10.8686
不毁	-10.8687
為角	-10.869
挈	-10.8697
蒯	-10.8697
鱗	-10.8698
数	-10.8698
鄧	-10.8699
佚	-10.87
夏正	-10.8702
可得	-10.8704
止于	-10.8707
不可得而	-10.871
不書	-10.8713
文云	-10.8714
變服	-10.8714
席末	-10.8715
閤	-10.8716
即位于	-10.8716
詩言	-10.8716
迎賓	-10.8717
問曰	-10.872
五度	-10.8721
畆	-10.8723
偕	-10.8724
軾	-10.8724
可疑	-10.8724
執觶	-10.8725
而葬	-10.8725
笥	-10.8726
將行	-10.8726
善者	-10.8726
肇	-10.8727
姒	-10.8728
卒哭而	-10.8728
馭夫	-10.873
相合	-10.8731
貴貴	-10.8734
將有	-10.8734
之語	-10.8736
鬱人	-10.8738
之令	-10.8738
倍之	-10.8742
異居	-10.8744
之麻	-10.8745
量人	-10.8746
吕氏大臨曰	-10.8747
碩	-10.8747
堂西	-10.8754
孟夏	-10.8755
揉	-10.8755
馬融	-10.8758
祭事	-10.876
以至於	-10.8761
之婦	-10.8767
禮無	-10.8767
而起	-10.8768
故雖	-10.877
既得	-10.8773
僞	-10.8774
加席	-10.8779
而南	-10.8784
九貢	-10.8788
將出	-10.8792
一國	-10.8794
謂君	-10.8795
定公	-10.8797
嵗終則	-10.8798
唐書	-10.8799
帟	-10.88
綪	-10.8801
憚	-10.8802
過也	-10.8802
平生	-10.8803
醜	-10.8805
戲	-10.8806
表裏	-10.8808
不異	-10.881
五兵	-10.8811
臣某	-10.8817
遷之	-10.8821
或用	-10.8822
說文	-10.8823
爲君	-10.8823
勞者	-10.8824
先拜	-10.8824
私臣	-10.8825
而東	-10.8829
何必	-10.883
從王	-10.8831
弇	-10.8831
也注釋曰云	-10.8832
始封	-10.8832
穫	-10.8833
三虞	-10.8839
大卜	-10.8839
中士二人	-10.8843
立定	-10.8844
川澤	-10.8846
主人出	-10.8848
請事	-10.8849
磔	-10.8852
鯀	-10.8853
奠者	-10.8856
有定	-10.8858
中和	-10.8858
期也	-10.8861
丈二尺	-10.8863
司几筵	-10.8868
笴	-10.8872
進也	-10.8872
退復位	-10.8873
六律	-10.8875
戈盾	-10.8875
兎	-10.8876
所主	-10.8876
為士者	-10.8876
非時	-10.8876
饎	-10.8877
其所以	-10.8878
則諸侯	-10.8879
壘	-10.888
蛇	-10.8881
筴	-10.8881
十有六人	-10.8884
于主人	-10.8884
參之	-10.8886
揖之	-10.8889
其材	-10.8892
貢賦	-10.8892
四豆	-10.8892
牧人	-10.8893
穆公	-10.8895
他日	-10.8895
而遂	-10.8901
西北隅	-10.8903
大門	-10.8906
掌次	-10.8908
肅拜	-10.8908
為主故	-10.8909
賔升	-10.891
受獻	-10.891
禮賔	-10.8913
大故	-10.8914
仲子	-10.8916
也王氏曰	-10.8916
南靣	-10.8918
燕朝	-10.8918
前代	-10.8922
郊特牲曰	-10.8923
褘衣	-10.8924
公有司	-10.8924
䝉	-10.8926
旨	-10.8928
胃	-10.8928
炊	-10.8928
珍異	-10.8929
臣召南	-10.8931
叛	-10.8932
從事	-10.8934
皆出	-10.8935
室老	-10.8942
任之	-10.8946
字從	-10.8948
也按	-10.8948
可行	-10.8949
一章	-10.8952
所自	-10.8954
不仁	-10.8955
朝覲㑹同	-10.8955
無罪	-10.8957
故不得	-10.8959
賈公彦	-10.8959
存疑鄭氏康成曰	-10.8959
嬪婦	-10.896
以報	-10.8962
君母	-10.8964
三終	-10.8966
二祧	-10.8967
失之矣	-10.8968
之序也	-10.8969
定其	-10.8971
煎	-10.8971
國之君	-10.8974
農事	-10.8975
十八年	-10.8975
媒	-10.8977
就次	-10.898
麛	-10.898
親疎	-10.8981
劑	-10.8982
辜	-10.8982
汎	-10.8983
殖	-10.8984
合葬	-10.8984
萬夫	-10.8988
其尊	-10.8988
居之	-10.8988
掌其政令	-10.8988
其北	-10.8996
棺椁	-10.9004
升就席	-10.9004
不聽	-10.9005
利也	-10.9005
先設	-10.9007
疏此	-10.9007
廬陵胡氏曰	-10.9008
所知	-10.9009
五行之	-10.9009
襦	-10.9012
遭喪	-10.9012
多故	-10.9014
薦新	-10.9017
理之	-10.9017
孝孫	-10.9019
二者皆	-10.902
聘義	-10.9021
二十六	-10.9022
一定	-10.9025
𤣥孫	-10.9025
土圭	-10.9026
反又音	-10.9026
以下至	-10.9027
耒	-10.9029
竁	-10.9032
繕	-10.9032
方丘	-10.9033
姻	-10.9034
不定	-10.9034
二伯	-10.9038
尸柩	-10.9039
終喪	-10.904
象天	-10.904
所以示	-10.9042
列國	-10.9046
三品	-10.9053
所尊	-10.9053
辨正	-10.9061
匜	-10.9061
親戚	-10.9061
耗	-10.9062
推而	-10.9063
犧尊	-10.9067
飲食之	-10.9069
不得不	-10.9069
周書	-10.9071
康王	-10.9072
天文	-10.9073
於子	-10.9076
習禮	-10.9077
愷	-10.9084
遣官	-10.9085
異耳	-10.9085
治國	-10.9085
於時	-10.9087
貎	-10.9088
辭之	-10.9089
之大小	-10.909
亮反	-10.9094
以應	-10.9097
雍人	-10.9097
無别	-10.9099
齊車	-10.9101
之長殤	-10.9102
裨	-10.9102
當是	-10.9112
隂也	-10.9113
嗚呼	-10.9114
士昏禮	-10.9115
婚	-10.9116
重其	-10.9119
三事	-10.9125
相當	-10.9125
鄉射記	-10.9128
三十年	-10.9131
不失其	-10.9132
復命	-10.9132
功布	-10.9135
主人升	-10.9137
煖	-10.9139
叔向	-10.9139
司民	-10.914
貯	-10.914
噫	-10.914
旣葬	-10.9142
束錦	-10.9145
為天	-10.9146
不能自	-10.9146
榭	-10.9146
南陳	-10.9147
士服	-10.9147
親盡	-10.9147
皆北面	-10.9147
卜人	-10.9149
於墓	-10.9154
山陵	-10.9154
之所生	-10.9154
尸俎	-10.9155
珪	-10.9163
次引	-10.9168
百人	-10.9171
易服	-10.9172
耻	-10.9173
正直	-10.9174
要服	-10.9174
亦猶	-10.9174
九卿	-10.9176
尚有	-10.9181
教者	-10.9181
孺子	-10.9183
之事云	-10.9186
五路	-10.9187
能知	-10.9189
扆	-10.9194
長安	-10.9195
竊案	-10.9195
乃升	-10.9196
當室	-10.9197
迎之	-10.9198
坐而	-10.9203
方澤	-10.9204
十升	-10.9204
宋公	-10.9207
師田	-10.9208
也注正義曰	-10.921
在其中	-10.921
其夫	-10.9213
合而	-10.9214
明此	-10.9214
莫之	-10.9218
樊	-10.922
袁	-10.9222
水出	-10.9223
必於	-10.9224
制服	-10.9228
離肺	-10.923
豐年	-10.923
司裘	-10.9231
無飾	-10.9231
坐於	-10.9233
者衆	-10.9235
七祀	-10.9235
青陽	-10.9237
釋曰案	-10.9237
圈	-10.9242
繹祭	-10.9243
死生	-10.9245
灾	-10.9246
虡	-10.9246
連言	-10.9248
佑	-10.9249
所養	-10.9249
適堂西	-10.9254
則凡	-10.9257
視朔	-10.9258
其冠	-10.9258
殿上	-10.9259
豻	-10.9263
耳若	-10.9264
五等諸侯	-10.9265
四百	-10.9265
也澄曰	-10.9266
燕食	-10.9267
士喪	-10.9268
繼禰	-10.9269
縣北	-10.927
君臣之義	-10.927
於祖廟	-10.9271
贏	-10.9272
涼	-10.9273
謨	-10.9273
就席	-10.9273
山林川澤	-10.9273
七人	-10.9274
者是也	-10.9276
出自	-10.9279
則同	-10.928
甸師	-10.9282
羽籥	-10.9284
化之	-10.9284
彼注云	-10.929
為證	-10.9291
㮚	-10.9293
某官	-10.9294
其方	-10.9296
頓首	-10.9296
泄	-10.9296
酺	-10.9297
之類也	-10.9304
拜至	-10.9313
為四	-10.9316
不踊	-10.9321
及葬	-10.9322
變除	-10.9327
瓉	-10.933
公侯伯	-10.9332
幦	-10.9334
鞶	-10.9335
二丈	-10.9338
聲之	-10.9338
致事	-10.9339
不順	-10.934
之以禮	-10.9343
簾	-10.9345
而易	-10.9349
特牲饋食禮	-10.9351
之式	-10.9353
祝文	-10.9357
檐	-10.9358
邦之	-10.936
上地	-10.9363
從父	-10.9364
之孫	-10.9368
有禮	-10.9368
之祖	-10.9369
暨	-10.9377
閽人	-10.9379
擁	-10.9379
花	-10.9381
加于	-10.9381
柞	-10.9383
賔之	-10.9385
寸半	-10.9387
禁之	-10.9389
六宗	-10.9392
五代	-10.9393
諸侯之禮	-10.9396
不生	-10.9397
君有	-10.9401
而作	-10.9402
不答拜	-10.9403
以仁	-10.9403
多也	-10.9403
償	-10.9404
改葬	-10.9406
取爵	-10.9407
存之	-10.9408
閭師	-10.9414
不一	-10.9415
大社	-10.9418
也若夫	-10.9419
河東	-10.942
及於	-10.942
小寢	-10.9422
木路	-10.9423
嗜	-10.9426
男女之	-10.9427
萬國	-10.9428
降其	-10.9431
踵	-10.9432
諸侯之大夫	-10.9432
復有	-10.9433
肵	-10.9435
可為	-10.9435
箴	-10.9436
也詩曰	-10.9437
掖	-10.9438
二刻	-10.9438
大閲	-10.944
浩	-10.944
考其	-10.9441
大射禮	-10.9441
儀節	-10.9441
主人答拜	-10.9441
民無	-10.9443
莫非	-10.9443
升席	-10.9446
正統	-10.9453
蕤賓	-10.9456
惟其	-10.9462
也孔子	-10.9468
榆	-10.9468
禱祠	-10.947
前驅	-10.9472
此一經	-10.9472
也孔氏穎達曰	-10.9472
書儀	-10.948
此月	-10.948
昆弟之	-10.9482
本服	-10.9484
勾	-10.9487
有差	-10.9489
擇日	-10.9489
陞	-10.9489
敎之	-10.949
汲	-10.9491
氐	-10.9492
替	-10.9492
日至	-10.9493
閭胥	-10.9494
祭祀之禮	-10.9494
酸	-10.9495
所以尊	-10.9498
發於	-10.95
説見	-10.9501
辟之	-10.9503
乃可	-10.9503
以徳	-10.9504
孝宗	-10.9504
皆坐	-10.9515
注鄭司農云	-10.9516
鄭引	-10.9517
黙	-10.9517
餘夫	-10.9518
尊于	-10.9518
不興	-10.9521
邢	-10.9524
何謂	-10.9526
小聘	-10.9526
受酢	-10.9528
釋幣	-10.953
之要	-10.9537
不爲	-10.9541
下室	-10.9542
訂	-10.9543
眉	-10.9546
妖	-10.9546
之始也	-10.9547
無正文	-10.9548
郎中	-10.9548
奈何	-10.9551
配享	-10.9552
尸飲	-10.9552
分而	-10.9553
平聲	-10.9554
布帶	-10.9554
然亦	-10.9556
秋分	-10.9558
和也	-10.9558
陳列	-10.9559
春秋書	-10.956
不加	-10.9562
踰月	-10.9562
感動	-10.9564
蜡祭	-10.9564
平行	-10.9564
爵止	-10.9568
害人	-10.9569
故須	-10.9571
髻	-10.9571
歲時	-10.9571
荆州	-10.9577
也長樂陳氏曰	-10.958
與民	-10.958
宰臣	-10.9582
于天子	-10.9583
改服	-10.9584
敬宗	-10.9586
為隂	-10.9592
亦不得	-10.9592
諸家	-10.9593
繐衰	-10.9596
郝氏敬曰	-10.9597
繪	-10.9599
譏之	-10.96
葵	-10.96
証	-10.96
禴	-10.9601
嵩	-10.9602
割牲	-10.9602
祭祀則	-10.9605
下及	-10.9609
爾雅釋	-10.961
而使之	-10.961
跪奏	-10.9611
帝嚳	-10.9611
小祭祀	-10.9613
共王	-10.9615
五榖	-10.962
於事	-10.9621
皆由	-10.9624
入就位	-10.9625
殺其	-10.9626
之權	-10.9627
前文	-10.963
楊氏	-10.9632
朝賀	-10.9632
者宜	-10.9636
四品	-10.9639
賈氏	-10.964
糴	-10.9641
今乃	-10.9642
禮制	-10.9643
喪服傳	-10.9645
之法也	-10.9645
賓升	-10.965
私親	-10.9651
當如	-10.9654
更有	-10.9656
宁	-10.9657
吉也	-10.9658
徒八人	-10.9658
功臣	-10.966
故聖人	-10.9661
習之	-10.9663
蘭	-10.9665
為九	-10.9666
與賓	-10.9668
以盛	-10.9669
而廢	-10.9669
無復	-10.9671
白虎通	-10.9677
亳	-10.968
用力	-10.9681
陳其	-10.9681
紗	-10.9681
因而	-10.9682
醋	-10.9688
虢	-10.9689
長衣	-10.969
亦可以	-10.969
之制也	-10.9692
旗物	-10.9693
事天	-10.9694
故無	-10.9696
稱子	-10.9702
禮之大	-10.9702
傳重	-10.9705
主人以下	-10.9706
下管	-10.9707
君夫人	-10.9708
㝠	-10.9709
祭畢	-10.9709
逼	-10.9714
衷	-10.9714
尸入	-10.9715
丈夫婦人	-10.9718
牛羊豕	-10.972
相通	-10.972
素冠	-10.9723
經直云	-10.9724
曰子	-10.9725
衰麻	-10.9727
居前	-10.973
紙	-10.9738
所好	-10.974
煇	-10.9741
樞	-10.9741
两	-10.9742
小樂正	-10.9742
生民	-10.9743
正謂	-10.9746
緇帶	-10.9749
總論	-10.975
之身	-10.9751
於東	-10.9753
宗祀	-10.9755
者取	-10.9756
中軍	-10.9757
為介	-10.9758
東堂	-10.9759
而西	-10.976
計其	-10.976
親屬	-10.9761
致敬	-10.9762
殷禮	-10.9763
為宗	-10.9766
九升	-10.9767
氏云	-10.9767
太蔟	-10.9769
乃入	-10.9772
又為	-10.9774
屬焉	-10.9775
相次	-10.9775
祭時	-10.9779
其失	-10.9786
醆	-10.9787
以明之	-10.979
苫	-10.9792
將祭	-10.9793
嫌於	-10.9796
王者之	-10.9797
少牢禮	-10.9808
》	-10.9808
歌者	-10.9814
不可得	-10.9815
反服	-10.9816
四字	-10.9817
縣南	-10.9817
成文	-10.982
隨其	-10.9822
活	-10.9822
籠	-10.9822
二事	-10.9823
鬛	-10.9825
衆寡	-10.9827
之征	-10.9828
百五十	-10.9831
揖入	-10.9835
始終	-10.9836
謂天子	-10.9837
葛絰	-10.9842
也馬氏曰	-10.9847
為六	-10.9849
欽定義疏	-10.985
抗木	-10.9853
涖卜	-10.9854
並用	-10.9855
親王	-10.9855
饌于	-10.9857
紊	-10.9858
逺而	-10.986
以進	-10.986
下士四人	-10.9861
論語云	-10.9861
各從其	-10.9862
耳非	-10.9863
疏布	-10.9869
服大功	-10.987
詩書	-10.987
乗之	-10.9871
皆如初	-10.9872
虎豹	-10.9875
加一等	-10.9875
奎	-10.9875
上篇	-10.9876
馬氏睎孟曰	-10.9876
射義	-10.9876
自今	-10.9879
釀	-10.988
間有	-10.988
趾	-10.9883
肘	-10.9884
桀	-10.9884
尸食	-10.9884
徹者	-10.9888
議曰	-10.9891
雖同	-10.9892
用之於	-10.9893
北面立	-10.9895
約之	-10.9901
仕者	-10.9902
國語曰	-10.9903
于豆	-10.9904
在房	-10.9907
之勢	-10.9908
四拜	-10.9909
参	-10.9909
廹	-10.991
致齊	-10.9912
鬭	-10.9913
挺	-10.9913
一端	-10.9914
不息	-10.9916
人事	-10.9919
程子	-10.992
房外	-10.9921
光武	-10.9921
牛馬	-10.9923
及諸	-10.9929
必自	-10.9931
但有	-10.994
煑	-10.9941
饋獻	-10.9941
則異	-10.9944
之可也	-10.9945
都督	-10.9946
也至於	-10.9947
兖州	-10.9948
撓	-10.9948
尸答拜	-10.9949
尊者之	-10.9954
太和	-10.9957
燕樂	-10.9957
豆實	-10.9957
覜	-10.9958
財物	-10.9959
為小	-10.996
不敢與	-10.9961
鄉黨	-10.9962
醆酒	-10.9964
不載	-10.9966
韭菹	-10.9966
迴	-10.9967
禆	-10.9968
二王之後	-10.9968
每一	-10.9969
諒	-10.9969
問其	-10.9969
若干	-10.997
頍	-10.9971
同日	-10.9971
腐	-10.9973
十有五	-10.9973
曰請	-10.9973
告神	-10.9977
調和	-10.9978
士虞	-10.9982
黄氏	-10.9982
王季	-10.9984
實觶	-10.9985
故必	-10.9987
於篚	-10.9987
服斬衰	-10.9991
此非	-10.9993
汪	-10.9996
方伯	-10.9998
性也	-10.9999
先農	-11
不能無	-11.0001
吕氏	-11.0002
網	-11.0002
無聲	-11.0003
階前	-11.0003
而還	-11.0004
祭薦	-11.0005
杖期	-11.0005
在乎	-11.0006
比之	-11.0008
乃降	-11.0008
識之	-11.0009
是一	-11.001
不去	-11.001
豈得	-11.0014
平常	-11.0014
所稱	-11.0015
天下之大	-11.0017
晉人	-11.0019
納之	-11.002
旟	-11.0021
采蘋	-11.0022
卒洗	-11.0027
輕於	-11.0028
異義	-11.003
故鄭注	-11.0031
齊衰期	-11.0035
讐	-11.0035
酒尊	-11.0037
宗廟社稷	-11.0041
李氏	-11.0041
别為	-11.0041
予之	-11.0042
為長	-11.0043
聖賢	-11.0045
冠昏	-11.0045
弩	-11.0047
遂行	-11.0048
僕射	-11.0053
鋭	-11.0055
甬	-11.0055
謹案	-11.0058
以五	-11.0059
為序	-11.006
過失	-11.0063
北極	-11.0064
傳命	-11.0065
凶年	-11.0065
制國用	-11.0066
降等	-11.0067
向外	-11.0072
遂師	-11.0074
者不得	-11.0081
正齒位	-11.0083
此四者	-11.0083
方十里	-11.0084
相類	-11.0084
菽	-11.0086
九室	-11.0091
無禮	-11.0093
或謂之	-11.0094
莽	-11.0095
問名	-11.0098
不敢自	-11.01
尺六寸	-11.0101
則不能	-11.0105
用兵	-11.0107
交錯	-11.0107
庻子	-11.0111
凡六	-11.0113
所見	-11.0115
前導	-11.0115
近者	-11.0115
歐陽	-11.0117
下地	-11.0117
溉	-11.0119
所不能	-11.0119
設俎	-11.012
競	-11.012
隴	-11.0122
葬後	-11.0123
而必	-11.0124
聲也	-11.0125
凡四	-11.0132
星在	-11.0132
先祖之	-11.0133
雖未	-11.0136
改元	-11.0136
右執	-11.0137
既成	-11.0139
𥘉	-11.0139
芒	-11.014
於西	-11.0141
士無	-11.0141
慶源輔氏曰	-11.0144
答曰	-11.0145
三嵗	-11.0145
小都	-11.0148
五品	-11.0148
之難	-11.015
必須	-11.0151
僚	-11.0155
文飾	-11.0157
不時	-11.0158
乃行	-11.0158
内賔	-11.0162
逺也	-11.0162
亦因	-11.0164
西靣	-11.0166
其死	-11.0166
朼	-11.0168
已見	-11.0169
嚌肺	-11.0169
車服	-11.017
椑	-11.017
之適	-11.0171
省牲	-11.0173
請期	-11.0173
忿	-11.0174
不俟	-11.0186
古之人	-11.0188
入廟門	-11.0191
而坐	-11.0191
之布	-11.0191
紟	-11.0192
服問	-11.0194
前言	-11.0195
大常	-11.0195
張氏爾岐曰	-11.0197
鮪	-11.0202
故亦	-11.0208
以通	-11.021
合食	-11.0212
變化	-11.0213
戎車	-11.0213
而拜	-11.0213
得民	-11.0216
一官	-11.0218
國門	-11.0219
制作	-11.022
動也	-11.022
之門	-11.0222
頒之	-11.0224
不亦	-11.0229
告備	-11.0232
牲用	-11.0232
動而	-11.0238
虞庠	-11.0239
主人洗	-11.0241
喪大記曰	-11.0241
太隂	-11.0242
倣此	-11.0245
以法	-11.0245
稱名	-11.0245
荀子	-11.0245
一一	-11.0249
禮之所	-11.025
貴人	-11.025
刑者	-11.025
若今時	-11.0251
皆謂之	-11.0251
左執爵	-11.0252
垢	-11.0253
矣其	-11.0255
三正	-11.0256
曰古者	-11.0257
大子	-11.0259
俟于	-11.0263
隐	-11.0263
引詩	-11.0263
周語	-11.0265
反覆	-11.0268
旅師	-11.027
為神	-11.0271
以奉	-11.0274
榖梁傳	-11.0274
有大小	-11.0274
射位	-11.0277
秋七月	-11.0278
刑禁	-11.028
讀之	-11.0281
擊鼓	-11.0281
頫	-11.0287
重席	-11.0288
寄公	-11.0288
馮尸	-11.0289
腴	-11.029
上古	-11.0291
邵	-11.0293
渡	-11.0293
宗子之家	-11.0293
人之道	-11.0294
一切	-11.0294
以上皆	-11.0298
設其	-11.03
雖在	-11.03
乃復	-11.0301
以物	-11.0301
論之	-11.0302
五節	-11.031
什	-11.0311
二十五年	-11.0312
出嫁	-11.0313
霍	-11.0315
敖君善曰	-11.0315
而進	-11.0316
帶絰	-11.0317
在堂下	-11.0317
神州	-11.0318
掌教	-11.0319
尚饗	-11.0319
耀	-11.032
鉅	-11.0322
掌事者	-11.0323
朴	-11.0323
飲福	-11.0325
大享	-11.0327
功成	-11.033
詛	-11.0334
無嫌	-11.0335
牲牢	-11.0338
言凡	-11.034
弓弩	-11.0341
一成	-11.0343
据	-11.0345
貢士	-11.0348
磨	-11.0348
不洗	-11.0349
姑姊妹女子子	-11.035
讙	-11.035
寢門外	-11.0351
祖姑	-11.0354
學也	-11.0359
應氏曰	-11.036
不可易	-11.0363
衰服	-11.0363
父死	-11.0363
鐃	-11.0364
利害	-11.0365
亦異	-11.037
亦作	-11.0371
聽政	-11.0372
以火	-11.0372
工商	-11.0373
撃	-11.0373
尊之也	-11.0374
悠	-11.0374
睿	-11.0375
彼云	-11.0375
周禮曰	-11.0377
不辨	-11.0379
沽	-11.0379
無他	-11.038
滎	-11.0381
後世之	-11.0382
蛤	-11.0382
袒決遂	-11.0383
備物	-11.0384
東都	-11.0384
張氏	-11.0386
不殺	-11.0389
倣	-11.0393
簿	-11.0398
内人	-11.04
嵗之	-11.04
納徴	-11.0402
昆蟲	-11.0402
脛	-11.0403
盟于	-11.0404
愉	-11.0405
所施	-11.0406
䘮大記	-11.0408
稟	-11.041
所以自	-11.0411
親喪	-11.0411
纒	-11.0412
踰年	-11.0412
屠	-11.0413
升殿	-11.0414
之誤	-11.0416
穹	-11.0417
汾	-11.0417
大祫	-11.0418
不可考	-11.0419
敬之至也	-11.0421
乃設	-11.0421
則民不	-11.0422
垂之	-11.0422
此之謂也	-11.0423
於學	-11.0423
當與	-11.0423
周家	-11.0423
三鼎	-11.0425
則可以	-11.0426
鼓人	-11.0427
于俎	-11.0427
絲枲	-11.0428
質也	-11.043
揄狄	-11.043
饗帝	-11.0431
成物	-11.0434
以防	-11.0436
諸官	-11.0439
孕	-11.0441
石林葉氏曰	-11.0441
夙夜	-11.0441
酒醴	-11.0443
禋祀	-11.0443
實爵	-11.0447
則去	-11.0453
彼此	-11.0458
不止於	-11.0461
三之一	-11.0461
所致	-11.0464
止言	-11.0465
肩臂臑	-11.0466
糟	-11.0469
從容	-11.0469
晷	-11.0469
上中下	-11.0471
二千五百	-11.0472
鳬	-11.0474
疾也	-11.0477
不弔	-11.0478
宮中	-11.0484
其出入	-11.0485
商賈	-11.0485
庖人	-11.0486
鼎俎	-11.0492
二員	-11.0495
賔禮	-11.0497
山東	-11.0497
嫁者	-11.0498
孔氏頴達曰	-11.0498
楊氏曰	-11.0499
周禮春官	-11.0499
跡	-11.05
名之曰	-11.0503
送神	-11.0508
以朱	-11.051
齋戒	-11.0516
節奏	-11.0516
及執事	-11.0517
告事畢	-11.0517
所藏	-11.0518
少師	-11.0521
采邑	-11.0523
明神	-11.0526
而難	-11.0526
非直	-11.0528
司宼	-11.0528
飢	-11.0529
𤣥衣	-11.053
生氣	-11.053
萬物之	-11.0532
下車	-11.0532
屑	-11.0533
也周官	-11.0534
彈	-11.0535
堊室	-11.0537
蕃國	-11.0541
無疆	-11.0546
饗燕	-11.0547
獻子	-11.0548
三辰	-11.0548
朔望	-11.055
死者之	-11.055
殺人	-11.0551
其質	-11.0552
民心	-11.0552
同其	-11.0553
不得已	-11.0554
嫁於	-11.0555
日而殯	-11.0555
地氣	-11.0559
拜洗	-11.056
亦自	-11.056
奕	-11.0561
遷廟	-11.0562
答再拜	-11.0562
則主人	-11.0562
蓼	-11.0562
辨其物	-11.0562
為人後	-11.0562
夷衾	-11.0565
大聘	-11.0568
庖	-11.057
之類皆	-11.0572
一幅	-11.0574
二十二	-11.0577
庶婦	-11.0578
爲母	-11.0578
互相備	-11.0579
也釋曰	-11.0585
各異	-11.0586
耒耜	-11.0587
脤	-11.059
厨	-11.059
決拾	-11.0592
處之	-11.0593
灑	-11.0598
辟君	-11.06
吉冠	-11.06
罰之	-11.0602
長尺	-11.0603
重而	-11.0609
送賔	-11.0609
今既	-11.0609
案聘禮	-11.0609
參分	-11.0609
宗之	-11.0614
狂	-11.0615
与	-11.0615
南北面	-11.0618
不拜既爵	-11.062
乃後	-11.0623
故舉	-11.0625
鞠躬拜興拜興平身	-11.0626
者如此	-11.0627
侯伯子男	-11.0629
其父母	-11.0632
三夫人	-11.0634
陸氏曰	-11.0635
其來	-11.0641
其私	-11.0643
摡	-11.0644
第六	-11.0644
斬衰三年	-11.0645
門入	-11.0646
弃	-11.0647
不同故	-11.0647
周天	-11.0648
賢人	-11.0648
餌	-11.0649
苛	-11.065
縿	-11.0652
孔氏曰此一節論	-11.0652
橈	-11.0656
西階前	-11.0656
明帝	-11.0657
拜賜	-11.0659
明王	-11.066
所加	-11.0665
母弟	-11.0666
申生	-11.0668
周知	-11.0669
昭明	-11.067
二十八年	-11.0671
在野	-11.0673
視學	-11.0674
而至於	-11.0674
為耦	-11.0675
諸侯之國	-11.0675
中心	-11.0677
徹俎	-11.0677
朝天子	-11.0677
有别	-11.068
鑮	-11.068
臆	-11.068
惻	-11.0681
紏	-11.0682
逺之	-11.0686
備禮	-11.0686
日用	-11.0687
有事則	-11.069
雲氣	-11.0694
貧賤	-11.0695
雅頌	-11.0695
郝	-11.0695
明徳	-11.0696
車旗	-11.0696
振旅	-11.0696
門左	-11.0699
曏	-11.0699
舊制	-11.0705
致齋	-11.0705
逹於	-11.0709
也孔子曰	-11.0709
賔入	-11.0711
曷	-11.0711
曲直	-11.0713
曰昔	-11.0713
洪範	-11.0714
述命	-11.0715
進之	-11.0718
侍者	-11.0718
大功以下	-11.0719
取象	-11.072
冉	-11.072
丁巳	-11.072
設饌	-11.0721
正饌	-11.0721
於阼階	-11.0722
祝融	-11.0725
既受	-11.0727
前經	-11.0727
不别	-11.0727
士庶人	-11.0731
農夫	-11.0733
祭五祀	-11.0733
㳺	-11.0734
此服	-11.0734
棄之	-11.0736
各隨	-11.0736
皆據	-11.0737
徃來	-11.0738
祥祭	-11.0739
以水	-11.074
六百	-11.074
有加	-11.0745
三字	-11.0746
肉袒	-11.0747
百世不遷	-11.075
突	-11.0752
貨財	-11.0753
市朝	-11.0753
鄉飲酒之禮	-11.0758
以隂	-11.0762
西楹	-11.0768
俱有	-11.0772
王子弟	-11.0772
衈	-11.0774
綿	-11.0775
朝㑹	-11.078
神座前	-11.0787
視濯	-11.0787
淺深	-11.0788
炎帝	-11.0792
於他	-11.0793
柎	-11.0794
厲禁	-11.0794
阼階上	-11.0795
隨時	-11.0796
大夫降	-11.0796
其勢	-11.0796
冀州	-11.0797
乃能	-11.08
脰	-11.0803
瞿	-11.0804
有事于	-11.0805
盟詛	-11.0806
添	-11.0807
鹹	-11.0807
夫子曰	-11.0807
之貳	-11.0808
圎	-11.0808
刑人	-11.0809
送死	-11.0809
中氣	-11.081
大夫之喪	-11.081
注此	-11.081
油	-11.0811
酌醴	-11.0812
大雩	-11.0816
日行	-11.0818
大人	-11.0818
蔡氏	-11.0822
嵗終	-11.0822
綃	-11.0823
重行	-11.0823
十二律	-11.0827
三度	-11.0828
盡也	-11.0829
十七篇	-11.0832
謁者	-11.0832
出户	-11.0835
雖異	-11.0836
袷	-11.0838
蔡邕	-11.0838
教化	-11.0839
門中	-11.0839
舊君	-11.084
酒食	-11.0841
有爵	-11.0842
之祭也	-11.0843
異宫	-11.0845
未成服	-11.0846
師保	-11.0846
興起	-11.0846
此義	-11.0851
在寢	-11.0851
約劑	-11.0851
也又案	-11.0853
以封	-11.0857
始生	-11.0859
三族	-11.0861
凡邦之	-11.0862
司書	-11.0863
成數	-11.0864
軍禮	-11.0865
次于	-11.0866
於親	-11.0867
未明	-11.0867
也者此	-11.0869
二王後	-11.087
元豐	-11.0872
囘	-11.0873
七十里	-11.0878
素衣	-11.0879
籩人	-11.0882
無父	-11.0883
授主人	-11.0885
郊野	-11.0887
蕤賔	-11.0891
光禄	-11.0891
受弔	-11.0895
比長	-11.0896
状	-11.0897
溫	-11.0898
固不	-11.0898
揔	-11.0899
而終	-11.0899
秦漢	-11.09
銳	-11.0902
輇	-11.0906
曾子曰	-11.0907
囊	-11.0907
侍臣	-11.091
有義	-11.0914
年月	-11.0918
百八十	-11.0919
大夫之禮	-11.092
平日	-11.0923
頤	-11.0928
如晉	-11.093
以朝	-11.0931
幷	-11.0932
修身	-11.0933
再獻	-11.0933
朱緑	-11.0934
今言	-11.0935
以酒	-11.0937
莫重於	-11.0939
之深	-11.094
致祭	-11.094
哭于	-11.094
左胖	-11.094
杼	-11.094
稽其	-11.0941
執笏	-11.0942
夏后氏之	-11.0942
迎氣	-11.0946
敖氏繼公曰此	-11.0946
坐奠觶	-11.0948
廏	-11.0951
有兩	-11.0951
當楣	-11.0954
繫之	-11.0954
而不用	-11.0954
正色	-11.0955
官司	-11.0956
社稷之	-11.0958
議者	-11.0959
搖	-11.0961
将軍	-11.0962
謚	-11.0962
蜃車	-11.0963
貴臣	-11.0964
司馬正	-11.0966
覩	-11.0967
摰	-11.0968
霜	-11.097
羣士	-11.097
悟	-11.0971
行乎	-11.0972
闋	-11.0975
示其	-11.0976
徒役	-11.0979
未足	-11.0979
於其君	-11.0983
為句	-11.0983
本文	-11.0984
而無所	-11.0985
病也	-11.0985
左首	-11.0988
臣妾	-11.0991
言此者	-11.0994
指揮	-11.0995
又在	-11.0996
超	-11.0999
迷	-11.1
顈	-11.1001
順也	-11.1002
幬	-11.1003
尺八寸	-11.1004
貌也	-11.1004
則所謂	-11.1005
不假	-11.1005
北面西上	-11.1008
水土	-11.101
三成	-11.101
為子	-11.1015
其教	-11.1016
是也其	-11.1016
主人之北	-11.1016
又按	-11.1017
太傅	-11.1017
於西階	-11.1018
其禄	-11.1018
有虞氏之	-11.1019
周則	-11.102
見諸侯	-11.1024
可食	-11.1024
殷祭	-11.1025
石經	-11.1026
尺有二寸	-11.1027
於天地	-11.1027
擯相	-11.1028
衫	-11.103
政和	-11.1031
東行	-11.1031
九人	-11.1031
府史胥徒	-11.1032
祭祀賓客	-11.1032
四角	-11.1033
江南	-11.1033
得伸	-11.1035
辟雍	-11.1035
其祀	-11.1035
内事	-11.1036
期之喪	-11.1037
今世	-11.1037
重服	-11.1038
大門内	-11.1039
委貌	-11.1039
不吉	-11.104
禮辭	-11.1043
司盟	-11.1044
司弓矢	-11.1044
一升	-11.1044
便其	-11.1045
云爾	-11.1046
能盡	-11.1047
梓宫	-11.1048
享先王	-11.105
恐非	-11.1052
有如此者	-11.1053
弗能	-11.1054
五禮通考卷	-11.1056
為中	-11.1056
稍食	-11.1057
瓜	-11.1058
是諸侯	-11.1058
主人阼階上	-11.1059
真宗	-11.1059
母之黨	-11.106
重屋	-11.106
十有二月	-11.1062
寘	-11.1063
饋奠	-11.1064
在路	-11.1064
鼜	-11.1064
蔬	-11.1064
同宗	-11.1065
弁師	-11.1066
授人	-11.1074
世本	-11.1076
山在	-11.1076
十九年	-11.1076
樹之	-11.1079
外府	-11.1087
韎韐	-11.1089
劣	-11.1092
内羞	-11.1093
案特牲	-11.1093
曷為	-11.1093
使之相	-11.1094
奏之	-11.1094
絀	-11.1099
此特	-11.11
不已	-11.1103
不辟	-11.1103
四隅	-11.1103
褘	-11.1107
凡國之	-11.1108
公命	-11.1115
遂大夫	-11.112
今案	-11.1122
稻粱	-11.1123
三時	-11.1125
總名	-11.1129
扄	-11.1131
書云	-11.1131
與衆	-11.1131
洛陽	-11.1133
鄉學	-11.1135
考證	-11.1137
變易	-11.114
卒事	-11.1144
性命	-11.1145
牽牛	-11.1146
社稷五祀	-11.1147
四國	-11.1149
武公	-11.115
稱王	-11.1151
捷	-11.1151
戶	-11.1152
曾子問曰	-11.1152
豢	-11.1152
呈	-11.1153
則能	-11.1154
束帛加璧	-11.1156
輝	-11.116
惡其	-11.1161
隕	-11.1162
不可廢	-11.1166
大射儀	-11.1167
疑於	-11.1168
虞衡	-11.1169
異於生	-11.1169
加勺	-11.117
逺日	-11.1182
異國	-11.1183
也朱子曰	-11.1183
家事	-11.1183
可使	-11.1183
公子之	-11.1183
與否	-11.1187
恱	-11.1189
文舞	-11.1191
䕫	-11.1192
閱	-11.1192
作龜	-11.1193
謁者引	-11.1193
適妻	-11.1193
祭社稷	-11.1194
脩身	-11.1198
酬幣	-11.1198
士卑	-11.1199
罟	-11.12
燔從	-11.1201
至元	-11.1201
便是	-11.1203
闈門	-11.1203
李氏曰	-11.1205
服𤣥端	-11.1206
聽朔	-11.1207
受賜	-11.121
禮直官	-11.1211
于東方	-11.1212
内小臣	-11.1213
一作	-11.1217
事尸	-11.1218
惡也	-11.1219
繫於	-11.122
而發	-11.122
璽	-11.1221
姜嫄	-11.1223
返	-11.1224
溪	-11.1224
枯	-11.1226
嫂叔	-11.1227
咸池	-11.1227
弗敢	-11.1233
異同	-11.1234
養人	-11.1234
聰明	-11.1237
外祖父母	-11.1242
門閭	-11.1243
食肉	-11.1245
其要	-11.1245
舉肺	-11.1248
不求	-11.1248
韭	-11.1251
不答	-11.1252
侍衛	-11.1252
柲	-11.1253
黝	-11.1253
佛	-11.1254
鴽	-11.1255
簀	-11.1255
士冠	-11.1255
宮室	-11.1259
澡	-11.1259
不堪	-11.126
死事	-11.1261
臣僚	-11.1263
太守	-11.1263
于太廟	-11.1264
百有二十	-11.1264
樂歌	-11.1265
諸州	-11.1265
封建	-11.1266
英宗	-11.1267
趙氏曰	-11.1267
夏商	-11.1269
逕	-11.1272
所尚	-11.1274
子春	-11.1275
杜注	-11.1275
在軍	-11.1275
牒	-11.1282
鉞	-11.1285
户牖	-11.1286
尼	-11.1287
洒	-11.1287
絮	-11.1287
哀樂	-11.1288
虚爵	-11.1289
仞	-11.129
惇	-11.129
坐祭立飲	-11.1291
遐	-11.1291
尊所	-11.1292
輕服	-11.1292
伊尹	-11.1293
冠弁	-11.1295
分職	-11.1296
于序端	-11.1297
持之	-11.1298
愛人	-11.1299
重耳	-11.1304
漳	-11.1308
鄭謂	-11.1308
士賤	-11.131
舎人	-11.131
封人	-11.1314
街	-11.1318
居廬	-11.1318
不可復	-11.132
小射正	-11.1324
中興	-11.1328
事鬼神	-11.1329
文明	-11.1329
四十九	-11.1335
青州	-11.1335
拜也	-11.1336
牷	-11.1338
民之所	-11.1338
和樂	-11.1339
唯君	-11.1341
大䘮	-11.1342
二句	-11.1344
靈座	-11.1344
長六寸	-11.1346
所惡	-11.1349
昕	-11.1352
㢘	-11.1352
胳	-11.1354
百畆	-11.1356
部侍郎	-11.1356
五哭	-11.1357
輓	-11.1357
正義曰此	-11.1358
一品	-11.1359
之為物	-11.1359
袗	-11.1359
黄金	-11.1362
樂官	-11.1363
所以安	-11.1367
天地之間	-11.1371
施于	-11.1373
為大夫者	-11.1374
昭穆之	-11.1379
河北	-11.1385
刑官	-11.1386
其子孫	-11.1388
淹	-11.1388
送逆	-11.1389
弔於	-11.1389
相成	-11.139
於大廟	-11.139
以西	-11.1391
肴	-11.1391
九族	-11.1393
於東方	-11.1396
一朝	-11.1397
之左右	-11.1397
養也	-11.14
大比	-11.1401
是天子	-11.1401
六世	-11.1401
哭諸	-11.1403
葦席	-11.1407
趣馬	-11.1408
中士八人	-11.1408
中春	-11.1409
齡	-11.1417
鈴	-11.1418
乎天	-11.1418
天子七廟	-11.142
緼	-11.1421
所用之	-11.1421
片	-11.1423
書傳	-11.1426
彫	-11.1427
出封	-11.1431
莫大於	-11.1431
教人	-11.1436
勞之	-11.1438
官屬	-11.1438
見君	-11.1439
乗矢	-11.1439
射事	-11.1439
以君命	-11.144
於理	-11.144
以手	-11.1441
方明	-11.1442
侯伯之	-11.1443
叅	-11.1447
即上	-11.1449
舊唐書	-11.1453
母喪	-11.1454
奸	-11.1456
者謂若	-11.1457
誨	-11.1457
安府	-11.1457
養馬	-11.1458
林麓	-11.1458
故也云	-11.1458
以食	-11.1459
必告	-11.1462
可通	-11.1462
禮部尚書	-11.1463
毳冕	-11.1463
二采	-11.1466
故知是	-11.1466
坐奠爵拜	-11.1467
孔疏云	-11.1469
德行	-11.1472
既祥	-11.1476
舜之	-11.1477
學禮	-11.1479
之禮故	-11.148
少府	-11.1481
禖	-11.1481
夙	-11.1481
跗	-11.1481
嗇	-11.1482
同用	-11.1482
僧	-11.1482
侑幣	-11.1482
中道	-11.1483
軓	-11.1485
熹	-11.1486
四世	-11.149
多者	-11.149
戰國	-11.1491
在殯	-11.1491
郡縣	-11.1493
北面拜	-11.1493
貴其	-11.1494
恪	-11.1494
繂	-11.1495
職幣	-11.1497
自然之	-11.1501
畤	-11.1506
皆稱	-11.1508
諸公卿大夫	-11.1512
使副	-11.1515
所止	-11.1515
塗之	-11.1516
閔公	-11.1517
食音嗣	-11.1517
程子曰	-11.1517
降筵	-11.1517
應之	-11.1518
未敢	-11.1521
黼黻	-11.1522
所貴	-11.1523
說屨	-11.1524
徒四人	-11.1525
拔	-11.1525
翰	-11.1527
傳言	-11.1533
與天	-11.1535
穀梁	-11.1535
是也若	-11.1536
:	-11.1536
呂氏	-11.1537
平地	-11.1539
鄉士	-11.154
取弓矢	-11.1544
所聚	-11.1546
主人送	-11.1548
也郝氏曰	-11.1549
不命	-11.1551
在車	-11.1553
襚者	-11.1553
與賔	-11.1553
劉執中曰	-11.1554
旌節	-11.1555
西向立	-11.1556
達之	-11.1557
半之	-11.1559
喬	-11.1559
設几	-11.156
移之	-11.1561
大白	-11.1562
地中	-11.1564
周頌	-11.1569
6	-11.157
鍾磬	-11.158
途	-11.1585
其味	-11.1585
民間	-11.1586
大功之喪	-11.1587
内命婦	-11.1588
韻	-11.1589
立後	-11.1591
殺於	-11.1593
屈而	-11.1595
此節	-11.1596
差之	-11.1597
張子	-11.1599
動物	-11.1599
父祖	-11.1603
貴於	-11.1604
親受	-11.1606
䘮禮	-11.161
追尊	-11.1612
之小者	-11.1615
酇	-11.1618
互言之	-11.162
伊耆氏	-11.162
欠	-11.1621
不解	-11.1624
載柩	-11.1624
瓊	-11.1625
緦服	-11.1626
菆	-11.1626
致福	-11.1626
裨冕	-11.1626
巴	-11.1628
哀痛	-11.163
西東面	-11.1631
所命	-11.1632
劉歆	-11.1632
初死	-11.1634
禮書卷	-11.1635
妻之父母	-11.1635
反劉	-11.1636
安能	-11.1637
癸	-11.1639
道車	-11.1642
席西	-11.1643
通之	-11.1643
百六十	-11.1645
君大夫士	-11.1645
父族	-11.1645
適次	-11.1645
辟積	-11.1646
儺	-11.1646
如之何孔子曰	-11.1648
梏	-11.1648
而謂之	-11.1649
叩	-11.1651
以達	-11.1652
跛	-11.1653
琰	-11.1653
乘馬	-11.1654
路鼓	-11.1654
長六尺	-11.1657
籌	-11.1658
史氏曰	-11.1658
五牢	-11.1659
鎮圭	-11.166
於北郊	-11.1661
之官也	-11.1662
天子居	-11.1663
十度	-11.1663
賔主人	-11.1664
車右	-11.1667
至周	-11.1669
又反	-11.167
亦通	-11.1673
明乎	-11.1676
乎且	-11.1681
襌	-11.1682
令奏	-11.1682
大功小功	-11.1682
至親	-11.1682
於堂下	-11.1683
大祀	-11.1685
婉	-11.1687
殃	-11.1687
鍵	-11.1689
以輔	-11.1693
眚	-11.1694
泮	-11.1694
式法	-11.1694
用酒	-11.1696
六反	-11.1696
孟秋	-11.1698
子某	-11.17
沛	-11.17
丈四尺	-11.1707
不得與	-11.1707
上下相	-11.1709
襲衣	-11.1709
辟領	-11.1714
南首	-11.1715
立飲	-11.1715
牲幣	-11.1716
擯者出請	-11.1719
國學	-11.172
仁人	-11.1721
襲裘	-11.1722
守祧	-11.1722
欣	-11.1724
偹	-11.1725
二十年	-11.1725
國用	-11.1726
於房中	-11.1728
為王	-11.1728
為難	-11.1729
辛巳	-11.1729
太保	-11.173
九等	-11.173
寕	-11.173
二人舉觶	-11.173
極其	-11.1733
其恩	-11.1734
居堊室	-11.1735
繼别	-11.1735
又其外	-11.1737
殺禮	-11.174
之上下	-11.174
而飲	-11.1741
存其	-11.1744
縣東	-11.1745
庶姓	-11.1745
於房	-11.1747
宫伯	-11.1748
浙	-11.1749
自稱曰	-11.175
始至	-11.1752
熊侯	-11.1752
世俗	-11.1753
許之	-11.1754
淡	-11.1758
革車	-11.1758
蟄蟲	-11.1761
委曲	-11.1763
不臣	-11.1766
所以象	-11.1767
天子崩	-11.1769
之名也	-11.177
集說曰	-11.1772
7	-11.1773
答之	-11.1774
尸出	-11.1776
正室	-11.1778
容體	-11.1778
之多寡	-11.1779
將有事	-11.1781
不得過	-11.1781
斷之	-11.1782
一音	-11.1786
既虞	-11.1786
交於	-11.1787
其餘皆	-11.1788
顛	-11.1788
注釋曰知	-11.1789
為體	-11.1789
形於	-11.1791
文武官	-11.1792
尺四寸	-11.1793
倨	-11.1793
伺	-11.1794
加減	-11.1795
祝佐食	-11.1797
小戴	-11.1799
管子	-11.1801
素車	-11.1801
在門外	-11.1801
與民同	-11.1804
獻功	-11.1805
服制	-11.1809
陽縣	-11.181
媒氏	-11.1815
再拜訖	-11.1817
追王	-11.1819
月朔	-11.182
東西相向	-11.1821
先王以	-11.1822
欲令	-11.1825
時刻	-11.1825
薦羞	-11.1829
櫝	-11.1831
卿大夫以下	-11.1831
捍	-11.1832
時事	-11.1833
用少牢	-11.1835
素韠	-11.1836
圻	-11.1837
陪鼎	-11.1838
以地	-11.1838
其初	-11.1841
按此	-11.1842
禘祭	-11.1845
之弊	-11.1848
勤勞	-11.1849
在下者	-11.1849
而進之	-11.185
誅之	-11.1851
諡曰	-11.1851
受福	-11.1853
諸臣之	-11.1853
度之	-11.1855
繼世	-11.1856
喪大記云	-11.1856
珠玉	-11.1856
諸侯之臣	-11.1858
飫	-11.1858
祲	-11.1859
三老五更	-11.1861
匿	-11.1864
大合樂	-11.1865
儼	-11.1865
此類	-11.1866
剛柔	-11.1867
庶人在官者	-11.1867
禮意	-11.1867
一刻	-11.1869
揚州	-11.1871
而知其	-11.1872
正歲	-11.1872
潁	-11.1872
文武之	-11.1873
致仕者	-11.1874
姨	-11.1875
納吉	-11.1875
為夫之	-11.1878
考妣	-11.188
三年之䘮	-11.1881
虞人	-11.1882
三節	-11.1884
豎	-11.1887
小師	-11.1889
塊	-11.1893
二骨	-11.1893
辛亥	-11.1894
近之	-11.1896
緑	-11.1896
怛	-11.1896
勑	-11.1896
納幣	-11.1896
暗	-11.1898
酬酢	-11.1898
大水	-11.1898
徼	-11.1901
西堂	-11.1902
亦應	-11.1903
苴絰	-11.1905
云某	-11.1905
是士	-11.1905
將至	-11.1906
廐	-11.1907
祀昊天上帝	-11.1907
而獨	-11.1909
日入	-11.1915
亦不敢	-11.1917
臨之	-11.1918
於我	-11.1919
適士	-11.1923
醓醢	-11.1926
鞠躬	-11.1927
劓	-11.1929
諸事	-11.1931
送賓	-11.1931
設尊	-11.1931
恊	-11.1932
筮人	-11.1933
辟廱	-11.1935
改為	-11.1937
㑹稽	-11.1941
不惟	-11.1941
大夫尊	-11.1943
禮儀使	-11.1943
士卒	-11.1944
卑而	-11.1944
韇	-11.1944
降立	-11.1945
主人西面	-11.1948
禫祭	-11.1949
施行	-11.1949
去一	-11.1949
主人揖	-11.1951
岱	-11.1953
臡	-11.1954
尊君	-11.1955
禓	-11.1956
入于房	-11.1961
告利成	-11.1962
東榮	-11.1962
降自	-11.1963
貽	-11.1965
閩	-11.1968
捕	-11.1968
與此不同	-11.1969
參分其	-11.1969
寺人	-11.1971
以利	-11.1972
七度	-11.1976
一里	-11.1977
朝獻	-11.1977
東堂下	-11.1978
純吉	-11.1984
職内	-11.1987
雲門	-11.1987
居左	-11.1987
此數	-11.1988
小卿	-11.1989
遵者	-11.1989
及卿大夫	-11.1989
尚齒	-11.199
為其父母	-11.1991
雖不同	-11.1992
環絰	-11.1993
執事官	-11.1993
勸之	-11.1993
百一十	-11.1994
立司正	-11.1994
矣案	-11.1997
慮其	-11.1998
見天子	-11.2
受命于	-11.2003
父母喪	-11.2004
庇	-11.2004
圭瓚	-11.2005
核	-11.2005
但云	-11.2013
之議	-11.2014
又如字	-11.2014
駑馬	-11.2015
以是為	-11.2016
彌尊	-11.2017
有數	-11.2021
不疑	-11.2025
立秋	-11.2026
此說	-11.2028
有功者	-11.2028
面位	-11.2028
州亦為	-11.2029
而欲	-11.2033
禁止	-11.2034
承上	-11.2035
皇子	-11.2035
眡瞭	-11.2036
以救	-11.2037
礙	-11.2037
刲	-11.2037
𦙍	-11.2038
祓	-11.2039
也竊案	-11.204
桂	-11.204
以配	-11.2041
又從而	-11.2042
夏小正	-11.2042
合升	-11.2044
虞書	-11.2052
五家	-11.2054
重意	-11.2055
兩邊	-11.2055
其類也	-11.2058
不足則	-11.206
之端	-11.206
千乘	-11.2061
酒漿	-11.2062
亦兼	-11.2062
故因	-11.2064
客位	-11.2064
逺人	-11.2064
立社	-11.2065
此經云	-11.2065
服齊衰三月	-11.2065
纁裳	-11.2067
國公	-11.2067
為後者	-11.2069
其音	-11.2071
家邑	-11.2071
千乗	-11.2075
裴	-11.2076
原隰	-11.2076
足矣	-11.2077
為徴	-11.2077
二十三年	-11.2079
東鄉	-11.2079
體解	-11.2083
戎事	-11.2084
使人弔	-11.2084
宣帝	-11.2085
精氣	-11.2087
以文	-11.209
麻絰	-11.2093
太皇太后	-11.2094
者重	-11.2095
三丈	-11.2095
甚明	-11.2096
奉安	-11.2096
晉書	-11.2098
東郊	-11.2098
陳器	-11.2098
郷大夫	-11.21
無怨	-11.2103
先王所以	-11.2103
敖氏曰此	-11.2104
請射	-11.2104
服其服	-11.2106
將葬	-11.2106
其哀	-11.2107
囂	-11.2108
疇	-11.2108
大音泰	-11.2108
住	-11.2109
芼	-11.2111
龜筮	-11.2111
爽	-11.2112
懈	-11.2112
御僕	-11.2113
執爵以興	-11.2113
未殯	-11.2115
君父	-11.2116
小國之君	-11.2121
上辛	-11.2122
右胖	-11.2122
解經	-11.2123
女氏	-11.2123
在旁	-11.2124
十一升	-11.2125
馬氏	-11.2127
大夏	-11.2129
布衣	-11.213
詔告	-11.213
所以敬	-11.2131
餞	-11.2133
又拜	-11.2134
之葛	-11.2138
譜	-11.2139
中大夫二人	-11.2139
其黨	-11.2139
不專	-11.214
巽	-11.2144
初喪	-11.2144
馴	-11.2144
内官	-11.2145
朝享	-11.2146
絛	-11.2146
賂	-11.2147
尊號	-11.2147
嗣君	-11.2148
計反	-11.2148
月數	-11.2149
西楹西	-11.2149
穆穆	-11.2151
猛獸	-11.2153
俎實	-11.2153
羣神	-11.2153
兩壺	-11.2155
知非	-11.2157
人道之	-11.2159
師役	-11.2162
此句	-11.2164
不樂	-11.2166
公服	-11.2167
未發	-11.2169
乎哉	-11.217
鍾鼓	-11.217
不具	-11.217
親祀	-11.217
訝受	-11.2173
祉	-11.2174
涚	-11.2174
許其	-11.2175
太室	-11.2175
緦衰	-11.2175
記文	-11.2176
厞	-11.2177
内賓	-11.2178
剥	-11.2178
縣西	-11.2178
四矢	-11.2179
煙	-11.2181
南山	-11.2182
良馬	-11.2184
艮	-11.2185
神祗	-11.2185
焉爾	-11.2186
齒於	-11.2188
畫之	-11.2188
同意	-11.2188
明知	-11.2189
勇力	-11.2193
于四方	-11.2193
毛血	-11.2194
也注釋曰	-11.2195
在洗東	-11.2202
有聲	-11.2205
茀	-11.2208
鄭氏鍔曰	-11.2211
簪	-11.2211
不遺	-11.2212
各以其物	-11.2214
紞	-11.2214
麄	-11.2215
右手執	-11.2215
敺	-11.2215
尸謖	-11.2216
不獲	-11.2217
兩楹之間	-11.2217
叶	-11.2218
受酬者	-11.2219
一身	-11.222
於社	-11.2221
于庭	-11.2221
不肯	-11.2232
自此至	-11.2236
血祭	-11.2239
之器也	-11.2243
永樂	-11.2245
嫁女	-11.2247
琥璜	-11.2249
哭位	-11.2251
丕	-11.2251
史四人	-11.2253
齊衰大功	-11.2253
侔	-11.2254
見賢遍反	-11.2254
椎	-11.2255
鮑	-11.2256
中地	-11.2256
之衆寡	-11.226
諸公卿	-11.2261
盛禮	-11.2263
而忘	-11.2266
朝君	-11.2268
旅食	-11.2268
乞言	-11.2269
不釋	-11.227
飾棺	-11.227
封國	-11.2271
功徳	-11.2273
樂闋	-11.2274
廟門之外	-11.2279
哭止	-11.228
娶妻	-11.2281
天帝	-11.2282
俘	-11.2282
嘗禘	-11.2285
叚	-11.2286
治人	-11.2289
迄	-11.2291
玄酒	-11.2292
在郊	-11.2298
徐州	-11.2298
承擯	-11.2302
帷幕	-11.2303
於其上	-11.2303
不報	-11.2306
主國君	-11.2306
論語曰	-11.2307
筵几	-11.2307
戎路	-11.2317
相繼	-11.2318
能行	-11.2319
而已此	-11.2319
長殤中殤	-11.232
當事	-11.2321
而後行	-11.2324
缶	-11.2326
蹄	-11.2326
司㓂	-11.2327
議禮	-11.2327
廊	-11.2327
若欲	-11.2328
大義	-11.2328
之氣也	-11.2329
當云	-11.2331
麋鹿	-11.2336
仲吕	-11.2338
于中庭	-11.2341
亡則	-11.2345
記人	-11.2349
以逆	-11.2349
如字又	-11.2349
元日	-11.2355
於棺	-11.2355
先聖先師	-11.236
縣士	-11.236
笄纚	-11.236
凡喪	-11.2362
已成	-11.2362
鞅	-11.2365
府四人	-11.2367
驪	-11.2367
正義曰此一節論	-11.237
天子親	-11.2376
兩楹間	-11.2376
張侯	-11.238
六豆	-11.2383
經義	-11.2386
中士四人	-11.2387
母在	-11.2388
者取其	-11.2389
布深衣	-11.2391
躋	-11.2391
祏	-11.2392
銑	-11.2393
季子	-11.2393
當門	-11.2395
不孝	-11.2396
東海	-11.2397
釋曰言	-11.24
受玉	-11.2401
居民	-11.2403
言之耳	-11.2411
於司徒	-11.2414
失於	-11.2414
之觶	-11.2419
未定	-11.2425
都家之	-11.2425
先行	-11.2425
之中而	-11.2425
歲終則	-11.2427
挽	-11.243
牛牲	-11.2431
賓禮	-11.2432
讀曰	-11.2434
曰朕	-11.2435
不暇	-11.2436
庻人	-11.2436
在其南	-11.2437
樸	-11.2438
施舍	-11.2447
醴婦	-11.2448
上章	-11.2451
孔氏曰此	-11.2455
贊王	-11.2455
財賦	-11.2457
俠	-11.2457
獻賓	-11.2461
禮神	-11.2465
坊記	-11.2468
膊	-11.2471
匝	-11.2471
及郊	-11.2471
俞	-11.2471
藴	-11.2472
燔燎	-11.2474
動作	-11.2476
服服之	-11.2477
主人再拜	-11.2482
獨言	-11.2483
雖曰	-11.2483
野人	-11.2484
嶺	-11.2484
香案	-11.2486
婦人踊	-11.2486
遷於	-11.2486
又非	-11.2488
府庫	-11.2488
無形	-11.2488
六尺六寸	-11.2491
凡諸侯	-11.2491
後漢書	-11.2501
寔	-11.2501
民力	-11.2501
丈六尺	-11.2502
雍州	-11.2502
閾	-11.2504
酬主人	-11.2504
朄	-11.2505
名山大川	-11.2505
盛氏世佐曰	-11.2506
禮節	-11.2506
苽	-11.2507
地域	-11.2509
帚	-11.251
廩人	-11.2511
姜氏	-11.2512
鄂	-11.2515
澣	-11.2517
女子子在室	-11.2517
嫁娶	-11.2518
鉶羮	-11.2518
嬖	-11.2519
澤虞	-11.252
衆官	-11.252
百畮	-11.2522
無餘	-11.2526
戎右	-11.2526
力役	-11.2527
時日	-11.2528
白屨	-11.2528
内則曰	-11.253
自立	-11.2531
莖	-11.2536
卑於	-11.2536
和之曲	-11.2538
父喪	-11.254
公之昆弟	-11.2542
沃盥	-11.2542
神惠	-11.2543
不幸	-11.2543
液	-11.2545
者為其	-11.2545
於阼	-11.2547
所以成	-11.2548
僉	-11.2548
衆耦	-11.2548
躐	-11.2548
士之子	-11.2548
社祭	-11.255
詩所謂	-11.255
堯典	-11.2551
而徃	-11.2551
號令	-11.2553
不倦	-11.2554
百家	-11.2554
坼	-11.2555
萬二千	-11.2556
地方	-11.2557
而外	-11.2558
保氏	-11.256
重禮	-11.2563
魂氣	-11.2565
士庶	-11.2565
而益	-11.2569
以南	-11.2571
六等	-11.2572
餘論	-11.2573
式灋	-11.2577
自此以下	-11.2577
冠子	-11.2579
辭讓	-11.2583
鶩	-11.2583
扞	-11.2586
壬午	-11.2587
因事	-11.2588
貴乎	-11.2589
蠻夷	-11.2589
荒政	-11.2591
束之	-11.2593
自上	-11.2595
時享	-11.2596
孺	-11.2599
存異	-11.2601
必欲	-11.2604
命某	-11.2605
於四方	-11.2606
泉府	-11.2607
既言	-11.2608
篇首	-11.2614
六牲	-11.2614
廟門外	-11.2616
榖梁	-11.2617
榦	-11.2619
四十五	-11.2619
自若	-11.2619
三分去一	-11.262
咏	-11.2621
笠	-11.2622
平時	-11.2626
黄裳	-11.2629
志意	-11.2629
胥四人徒四十人	-11.2631
縮執	-11.2632
東宫	-11.2632
周道	-11.2634
自飲	-11.2635
常朝	-11.2636
大呂	-11.2638
婦人髽	-11.2641
同但	-11.2642
其異者	-11.2643
舉爵	-11.2647
紱	-11.2648
告廟	-11.265
拜位	-11.265
非必	-11.2653
必由	-11.2656
帥其	-11.2656
侯服	-11.266
莫不有	-11.266
天氣	-11.266
繅藉	-11.2663
伊川	-11.2663
從獻	-11.2664
玩好	-11.2667
言君子	-11.2669
所以正	-11.267
古法	-11.2671
去扑	-11.2673
而受之	-11.2673
贊冠者	-11.2676
襲絰	-11.2679
何哉	-11.2679
禮教	-11.2681
以五采	-11.2683
相左	-11.2687
統于	-11.2688
鹿鳴	-11.2688
莊子	-11.269
方士	-11.269
路門外	-11.2691
分明	-11.2691
而頒之	-11.2692
妖祥	-11.2693
聘君	-11.2693
樂志	-11.2694
而歌	-11.2694
躍	-11.2697
武功	-11.2697
一个	-11.2698
在人	-11.2698
丈尺	-11.27
由右	-11.27
腸	-11.2702
十二度	-11.2703
用財	-11.2705
四代之	-11.2705
左手執	-11.2706
玉几	-11.2706
典儀	-11.2707
問喪	-11.271
常事	-11.2716
此官	-11.2717
内饔	-11.2718
親之也	-11.2719
上耦	-11.2721
子男五	-11.2723
教之以	-11.2724
陜西	-11.2724
宫縣	-11.2726
葉氏	-11.2727
外事	-11.2727
上文云	-11.2728
臝	-11.273
司中司命	-11.2733
采蘩	-11.2734
聶	-11.2736
錦衣	-11.2736
六尺有六寸	-11.2738
官吏	-11.2738
愍	-11.2738
洗酌	-11.2739
捨	-11.274
各於其	-11.2741
崑崙	-11.2742
朔日	-11.2742
迂	-11.2743
睿宗	-11.2743
殷奠	-11.2744
卒射	-11.2744
於市	-11.2746
特牲饋食	-11.2746
首飾	-11.275
婦女	-11.2751
送葬	-11.2752
由左	-11.2756
世世	-11.276
食粥	-11.2761
曺	-11.2763
禮器云	-11.2764
跪進	-11.2764
文徳	-11.2765
非古也	-11.2766
㝛	-11.2766
古者天子	-11.2766
三章	-11.2767
輁軸	-11.2768
取脯	-11.2772
頻	-11.2773
水潦	-11.2773
嬴	-11.2775
否則	-11.2775
斵	-11.2778
壬	-11.278
三老	-11.2781
敢不敬	-11.2783
漱	-11.2783
珽	-11.2785
考校	-11.2785
明堂位曰	-11.2785
兆民	-11.2785
經度	-11.2786
東井	-11.2787
學校	-11.2789
相為服	-11.2789
夕月	-11.2791
文義	-11.2792
亦稱	-11.2793
則不服	-11.2797
第七	-11.2799
父没	-11.2805
所以待	-11.2806
帥師	-11.2807
刑部尚書秦蕙田撰	-11.2807
李嘉㑹曰	-11.2808
枉矢	-11.281
縟	-11.281
㕘	-11.2811
斟酌	-11.2812
齍盛	-11.2812
繐	-11.2814
綸	-11.2815
簴	-11.2815
盛於	-11.2816
攝事	-11.2816
不粥於市	-11.2816
球	-11.2817
所以治	-11.2817
北面答拜	-11.2819
入壙	-11.282
于阼階上	-11.2821
裼襲	-11.2824
之主也	-11.2826
質劑	-11.2827
三家	-11.2827
充人	-11.2828
本是	-11.2829
王室	-11.2829
舉觶者	-11.283
9	-11.2831
官名	-11.2832
無益	-11.2834
而况	-11.2834
必當	-11.2837
配位	-11.2837
之倫	-11.2837
私面	-11.2838
命夫命婦	-11.2839
使有司	-11.2839
曰諾	-11.2839
陔	-11.2839
减	-11.2841
王宫之	-11.2842
縢	-11.2842
栢	-11.2844
皥	-11.2847
駿	-11.2848
官師	-11.2849
發明	-11.2849
舉足	-11.285
畺	-11.285
百官府	-11.2851
焦	-11.2852
叢	-11.2853
參差	-11.2853
三享	-11.2854
諸侯來朝	-11.2855
涇	-11.2855
獸人	-11.2856
更爵	-11.2858
輟	-11.2858
誠信	-11.2858
誠意	-11.2864
與君同	-11.2868
疏曰案	-11.2868
去杖	-11.2868
賔西階上	-11.287
之别也	-11.2873
如儀	-11.2875
經不言	-11.2879
木主	-11.2881
總章	-11.2882
土鼓	-11.2883
摭	-11.2884
膟膋	-11.2885
乂	-11.2885
鏘	-11.2887
郵	-11.2887
臯陶	-11.2888
千人	-11.289
隈	-11.2891
尚右	-11.2891
王道	-11.2894
藁	-11.2895
疏曰云	-11.2895
自當	-11.2898
縣西北	-11.29
止哭	-11.29
無明文	-11.29
之半	-11.2901
未忍	-11.2903
異名	-11.2907
陽聲	-11.2908
無知	-11.2908
别言	-11.291
他邦	-11.2913
少而	-11.2913
以幣	-11.2913
五十六	-11.2916
詩大雅	-11.2917
鷩	-11.2917
胥徒	-11.2918
公宫	-11.2919
徳行道藝	-11.2923
二尺四寸	-11.2923
蟬	-11.2924
大夫妻	-11.2925
正當	-11.2925
埶	-11.2928
射宫	-11.2928
疋	-11.2928
刮	-11.293
歌舞	-11.2933
妻妾	-11.2935
過矣	-11.2935
展衣	-11.2935
駭	-11.2938
而不相	-11.2941
一歲	-11.2943
相朝	-11.2943
又問	-11.2945
祝版	-11.2947
齊衰三年	-11.2951
可矣	-11.2952
未成人	-11.2956
九度	-11.2956
裧	-11.296
城縣	-11.296
歠	-11.2964
魁	-11.2966
必因	-11.2968
始冠	-11.2969
豻侯	-11.2969
奉幣	-11.297
次日	-11.2972
也書曰	-11.2974
父命	-11.2974
為庶母	-11.2978
」	-11.2978
致饔餼	-11.2978
至極	-11.2982
士相見	-11.2982
自盡	-11.2984
施惠	-11.2987
踈	-11.2991
二百四十	-11.2992
之正也	-11.2994
司勲	-11.2994
南門	-11.2995
祭祀共	-11.2996
葱	-11.2998
乃更	-11.3001
禮俗	-11.3002
系	-11.3003
轝	-11.3007
縣都	-11.3008
早晚	-11.3008
衢	-11.3008
瓶	-11.3009
獻卿	-11.3012
圉人	-11.3014
耄	-11.3015
雖欲	-11.3015
又次之	-11.3017
天地四方	-11.3017
則無以	-11.3019
志云	-11.3023
羣廟	-11.3025
與此異	-11.3025
受享	-11.3026
洗觶	-11.3028
八豆	-11.3028
甑	-11.3028
於死者	-11.3029
詳於	-11.303
殿前	-11.3033
去冠	-11.3033
不登	-11.3033
緹	-11.3034
文省	-11.3038
曰吾聞	-11.3039
闈	-11.304
標	-11.3042
蒿	-11.3043
純衣	-11.3043
衺	-11.3044
鄼	-11.3045
四海之内	-11.3045
聮	-11.3045
適寢	-11.3046
酌膳	-11.3049
天子之士	-11.305
衆多	-11.305
君弔	-11.3052
先鄭云	-11.3052
外親	-11.3052
亦當然	-11.3053
吴氏	-11.3054
本生	-11.3057
天性	-11.3058
日視朝	-11.3059
孟月	-11.3061
不備禮	-11.3062
禮器曰	-11.3063
立夏	-11.3064
宿戒	-11.3064
正朔	-11.3065
興受	-11.3069
本朝	-11.3071
以補	-11.3074
南呂	-11.3075
笛	-11.3075
洗南	-11.3079
閨	-11.308
邁	-11.3082
滌濯	-11.3085
欑	-11.3085
躁	-11.3086
柷敔	-11.3087
世叔父	-11.3089
八度	-11.3091
鞏	-11.3092
在西方	-11.3092
緩急	-11.3096
人之情	-11.3097
同處	-11.3097
相揖	-11.3098
其詳	-11.3099
因名	-11.31
正柩	-11.3101
入大門	-11.3103
迎神	-11.3107
固已	-11.3107
以成其	-11.3108
誘射	-11.3109
羞庶羞	-11.311
所存	-11.3111
大樂	-11.3112
大略	-11.3113
盛服	-11.3113
彘	-11.3122
千五百	-11.3122
脉	-11.3125
未備	-11.3126
孽	-11.3126
又當	-11.3126
通乎	-11.3127
向上	-11.3129
未有不	-11.3129
屬民	-11.313
侯伯七	-11.3131
成事	-11.3135
皆再拜	-11.3135
今文無	-11.3136
環人	-11.3138
可以觀	-11.3139
卦者	-11.3141
遂士	-11.3141
筮宅	-11.3141
適四方	-11.3143
於廟門外	-11.3144
廟制	-11.3144
填	-11.3155
諏	-11.3155
孟獻子	-11.3157
羣小祀	-11.3159
出軍	-11.316
柢	-11.3161
出房	-11.3162
斃	-11.3162
射御	-11.3163
至階	-11.3167
無後者	-11.3167
八簋	-11.3167
戈㦸	-11.3168
達于	-11.3169
萬里	-11.3172
棧車	-11.3173
有時而	-11.3173
贊唱	-11.3175
釋算	-11.3177
也易曰	-11.3179
五百人	-11.3181
醯醬	-11.3187
掌訝	-11.3187
社主	-11.3188
八成	-11.3189
鐲	-11.319
陜	-11.319
▁春官	-11.3191
治亂	-11.3191
桃茢	-11.3194
畨	-11.3194
爛	-11.3195
鋒	-11.3197
甸服	-11.3198
芻薪	-11.3199
之禁令	-11.3199
里宰	-11.32
𩔖	-11.32
媵觶	-11.3204
不敢降	-11.3207
愛敬	-11.321
燕禮大射	-11.3212
三禮	-11.3212
為限	-11.3214
䑕	-11.3214
推之則	-11.3215
公再拜	-11.3218
司兵	-11.3219
官職	-11.3219
鄭意	-11.322
褥	-11.3222
西塾	-11.3223
緦小功	-11.3224
太社	-11.3224
賈䟽	-11.3225
日景	-11.323
居右	-11.323
不可以無	-11.3233
手執	-11.3236
百僚	-11.3236
十二辰	-11.3237
也〇	-11.324
牡麻絰	-11.3241
之讎	-11.3242
轍	-11.3243
為于偽反	-11.3246
穎	-11.3246
二十人	-11.3249
雖多	-11.325
伯仲	-11.3252
職文	-11.3252
歸饔餼	-11.3254
銘旌	-11.3255
者案周禮	-11.3256
三世	-11.3258
幽明	-11.3259
爵命	-11.326
祈穀	-11.3264
陽府	-11.3264
注釋	-11.3265
用辛	-11.3265
堊	-11.3266
再拜稽首公	-11.3267
陳衣	-11.3268
劉音	-11.327
勘	-11.3272
波	-11.3275
脡	-11.3277
大徳	-11.328
駮	-11.328
逰	-11.3281
鬯人	-11.3282
詩人	-11.3284
司烜	-11.3284
列反	-11.3285
諸侯七	-11.3286
探	-11.3286
教令	-11.3291
王宮	-11.3292
今年	-11.3294
於中庭	-11.3294
軍將	-11.3294
冠義	-11.3295
五經	-11.3299
以詔王	-11.33
奔䘮	-11.3301
戰于	-11.3303
商人	-11.3303
變禮	-11.3303
君之所	-11.3306
食舉	-11.3307
猶可	-11.3308
神道	-11.3308
爵韠	-11.3313
交接	-11.3317
苖	-11.3319
二十五家	-11.3319
賓揖	-11.332
詩小雅	-11.332
綺	-11.3322
器械	-11.3322
犀	-11.3323
隰	-11.3324
後鄭不從	-11.3324
敔	-11.3325
實行	-11.3328
以此坊民	-11.3328
入海	-11.3328
將射	-11.333
百七十	-11.3331
等官	-11.3333
蓍龜	-11.3333
墨車	-11.3334
所由生	-11.3339
襢	-11.3339
不識	-11.334
各依	-11.334
持節	-11.3341
不可以為	-11.3343
朝祖	-11.3348
山罍	-11.3348
之志也	-11.335
坐取爵	-11.3351
不顯	-11.3353
伋	-11.3357
不吉則	-11.3359
搢扑	-11.3359
合舞	-11.336
喪祝	-11.336
勃	-11.336
之禍	-11.3361
激	-11.3363
笙磬	-11.3363
以象天	-11.3364
冐	-11.3365
健	-11.3366
私喪	-11.3366
本或作	-11.3368
濟濟	-11.337
降立于	-11.3372
副使	-11.3377
猶存	-11.3377
又哭	-11.3379
所定	-11.3382
五獻	-11.3386
一代	-11.3386
然後可	-11.3389
飲酒之禮	-11.3392
禕	-11.3393
飯含	-11.3394
相酬	-11.3394
國之大事	-11.3395
米禾	-11.3403
濬	-11.3405
畛	-11.3405
槐	-11.3406
二十九年	-11.3406
四度	-11.3406
長八尺	-11.3408
華蟲	-11.3409
篇名	-11.3418
祝號	-11.3418
化民	-11.3418
六度	-11.3418
司門	-11.3421
未仕	-11.3424
權衡	-11.3425
元祐	-11.3427
郊祭	-11.3431
蒩	-11.3435
虹	-11.3435
畀	-11.3438
凟	-11.3439
霜露	-11.344
𣙗	-11.3441
横渠張氏曰	-11.3443
狐裘	-11.3444
和氣	-11.3444
潄	-11.3446
害於	-11.3447
總言	-11.3448
可知云	-11.345
所貢	-11.3451
受命於	-11.3451
所求	-11.3457
軍中	-11.3459
即所謂	-11.346
在廟門外	-11.3466
三物	-11.3469
贊禮唱	-11.3469
通解	-11.3469
顯考	-11.3471
三門	-11.3479
月祭	-11.3479
使下大夫	-11.348
圭瓉	-11.3481
赤舄	-11.3482
嫡子	-11.3482
偷	-11.3484
睹	-11.3484
往往	-11.3485
綏祭	-11.3485
裔	-11.3486
殁	-11.3486
元帝	-11.3487
塤	-11.3488
皁	-11.3489
天産	-11.3489
再重	-11.349
二千石	-11.349
釋經	-11.349
殉	-11.3493
一人舉觶	-11.3494
九夫	-11.3494
緘	-11.3496
上𧃊	-11.3497
升壇	-11.3499
説屨	-11.3501
坐奠爵	-11.3502
近世	-11.3503
攝盛	-11.3505
美惡	-11.3505
雖尊	-11.3506
相助	-11.3509
尺寸	-11.3512
已久	-11.3512
條屬	-11.3515
厠	-11.3519
揄	-11.3521
鷄	-11.3523
闕狄	-11.3524
皇天	-11.3524
傲	-11.3525
姚	-11.3526
山陰陸氏曰	-11.3527
不祥	-11.3528
甕	-11.3531
内豎	-11.3531
九功	-11.3531
三朝	-11.3531
於禰	-11.3536
授時	-11.3537
兵革	-11.3541
聘使	-11.3542
敖説	-11.3543
百步	-11.3545
無遺	-11.3545
以類	-11.3548
等差	-11.3548
馨	-11.3555
七體	-11.3559
上士四人	-11.356
五物	-11.3562
二十里	-11.3563
弋	-11.3564
邃	-11.3565
鎧	-11.3566
溥	-11.3568
公之孤	-11.3568
弔臨	-11.3568
祭酒啐酒	-11.357
常平	-11.3574
衍文	-11.3577
此詩	-11.3577
常祭	-11.3579
升階	-11.3582
也張氏曰	-11.3584
配食	-11.3588
未嫁者	-11.3589
成徳	-11.3591
無敢	-11.3592
章甫	-11.3596
髙明	-11.3596
春禘	-11.3597
文理	-11.3598
書契	-11.36
禡	-11.3603
依禮	-11.3605
田里	-11.3607
蔣	-11.3608
取法	-11.3609
黔	-11.3612
傚	-11.3612
日數	-11.3613
五十四	-11.3613
土均	-11.3616
京兆	-11.3626
王侯	-11.3627
選士	-11.3628
是年	-11.363
薙	-11.3633
閒田	-11.3634
他故	-11.3636
未可以	-11.3637
東門	-11.364
在堂上	-11.3641
射之侯	-11.3642
惕	-11.3643
一卷	-11.3647
冲	-11.3648
萬五千	-11.365
盍	-11.365
胎	-11.3652
執爵者	-11.3652
九穀	-11.3653
而授之	-11.3654
取妻	-11.3655
順時	-11.3655
通達	-11.3657
帷荒	-11.3662
成帝	-11.3664
也故書	-11.3674
罷民	-11.3674
地道	-11.3675
昊	-11.3675
本天	-11.368
四門	-11.3682
常祀	-11.3683
相和	-11.3684
艱	-11.3685
閷	-11.3686
便於	-11.3686
者皆是	-11.3687
丸	-11.3688
鸞刀	-11.3689
君子之所	-11.3689
卿一人	-11.369
舊圖	-11.3692
蔚	-11.3692
毓	-11.3693
師都	-11.3695
無筭爵	-11.3696
耡	-11.3699
于南郊	-11.3699
而去之	-11.3701
自卑	-11.3703
享禮	-11.3707
春秋時	-11.3707
侍從	-11.371
手拜	-11.3711
深淺	-11.3717
王業	-11.3719
酒人	-11.372
上士二人	-11.3724
治事	-11.3725
收斂	-11.3726
相距	-11.3727
由便也	-11.3728
射時	-11.3728
太常博士	-11.3729
臣民	-11.3731
女巫	-11.3732
䘮紀	-11.3733
王及后之	-11.3733
孔安國	-11.3733
蔑	-11.3739
以尊降	-11.374
祀事	-11.3744
東西向	-11.3745
别廟	-11.3746
元和	-11.3749
經緯	-11.375
之所能	-11.3753
殷勤	-11.3753
當依	-11.3754
亦不能	-11.3755
所有事	-11.3755
豈能	-11.3758
麻帶	-11.3759
不酢	-11.3761
之狀	-11.3762
逺方	-11.3765
啓殯	-11.3767
防其	-11.3767
大功章	-11.377
擘	-11.377
蕃王	-11.3772
不窮	-11.3773
均平	-11.3776
以禮樂	-11.3776
祭殤	-11.3778
鱐	-11.3778
攷其	-11.3782
汭	-11.3782
徹帷	-11.3782
私事	-11.3786
虞氏	-11.3787
進酒	-11.3787
可考	-11.3788
考工	-11.3789
與羣臣	-11.3791
鬼神示	-11.3792
二千	-11.3797
俎豆	-11.3801
服不氏	-11.3806
每嵗	-11.3808
至徳	-11.3808
父子君臣	-11.381
絇繶純	-11.3812
恣	-11.3815
諸母	-11.3816
所過	-11.3816
相息亮反	-11.3816
武宗	-11.3817
獻工	-11.3817
筲	-11.3819
之徳也	-11.382
中士下士	-11.382
拜謝	-11.3835
位次	-11.3837
進賢	-11.384
親往	-11.3841
欲得	-11.3845
徐音	-11.3848
仲月	-11.3849
崔氏	-11.385
還宫	-11.3851
押	-11.3851
凡祭祀共	-11.3853
古樂	-11.3855
降自阼階	-11.3855
數十	-11.386
九江	-11.386
憤	-11.386
居倚廬	-11.3861
癘	-11.3861
門右	-11.3864
老人	-11.3864
雖不言	-11.3864
作止爵	-11.3864
規矩	-11.3868
恐懼	-11.3873
虣	-11.3874
曏者	-11.3876
承上文	-11.3878
以右手	-11.3878
箙	-11.3884
之長短	-11.3884
縣正	-11.3887
等級	-11.3887
抗席	-11.3889
少牢云	-11.3889
不敢辭	-11.389
尚左	-11.3891
《	-11.3891
潦	-11.3892
功德	-11.3893
驟	-11.3898
禮記注疏卷	-11.3898
憾	-11.3899
之屬是也	-11.3901
辟音避	-11.3902
盗賊	-11.3902
最為	-11.3903
料	-11.3903
長樂劉氏曰	-11.3907
於宫中	-11.3907
非但	-11.3907
政和禮	-11.3908
土神	-11.3909
卽位	-11.3915
泲之	-11.3917
獻繭	-11.392
奠酬	-11.3924
淮無	-11.3925
七星	-11.393
在俎	-11.393
周法	-11.3932
太官令	-11.3934
十五升	-11.3934
也存疑鄭氏康成曰	-11.3935
象尊	-11.3935
鄉飲酒鄉射	-11.3937
誌	-11.3937
祖妣	-11.3938
戸西	-11.3938
貧者	-11.3939
軍旅田役	-11.3939
大旅	-11.394
大司冦	-11.3941
内司服	-11.3943
如賔禮	-11.3943
闑西	-11.3945
升筵	-11.3946
所獲	-11.3951
亦當有	-11.3952
伯魚	-11.3953
歳終	-11.3953
尸東	-11.3954
拜迎	-11.3956
太祖之廟	-11.3957
跪奏請	-11.3957
亡國之	-11.3959
或以為	-11.3962
形容	-11.3963
不察	-11.3964
縣西南	-11.3972
冢人	-11.3975
奏事	-11.3975
冊府元龜	-11.3978
地平	-11.3979
𤣥裳	-11.3979
揮	-11.3981
兵部	-11.3983
長尺二寸	-11.3983
醇	-11.3984
逡	-11.3985
鄭目録云	-11.3986
彼注	-11.3986
無失	-11.3986
檀	-11.3987
勁	-11.3989
隘	-11.3992
鶉火	-11.3995
所感	-11.3995
少北	-11.3997
昌本	-11.3997
薦馬	-11.3997
近南	-11.3998
夏祝	-11.3999
龍輴	-11.4
小臣師	-11.4001
名號	-11.4005
漿人	-11.4006
聰	-11.401
而服之	-11.4015
芬	-11.4026
琥	-11.4028
降奠于篚	-11.4034
弄	-11.4034
司農云	-11.4034
䘮祭	-11.4034
奔走	-11.4035
誤作	-11.4035
淮南子	-11.4036
舊典	-11.4038
稻米	-11.4039
昭子	-11.4041
百縣	-11.4042
後至者	-11.4044
都鄙之	-11.4045
元嘉	-11.4054
之迹	-11.4056
之後乃	-11.4057
通稱	-11.406
卜葬	-11.4062
學官	-11.4063
籥師	-11.4064
其目	-11.4065
燥	-11.407
王社	-11.407
星黄經	-11.4071
團	-11.4071
九飯	-11.4072
十尺	-11.4074
壓	-11.4074
佞	-11.4075
四星	-11.4075
為父後	-11.4077
出廟門	-11.4077
沉	-11.4078
酌奠	-11.4079
職方氏	-11.4084
嫁反	-11.4085
几席	-11.4086
八百	-11.4086
非獨	-11.4086
順天	-11.4088
者言其	-11.4089
案禮記	-11.4089
豫州	-11.409
貴賤之等	-11.409
書名	-11.4099
遷于	-11.4105
與之同	-11.4106
君子之道	-11.4106
殿中	-11.4108
九旗	-11.4109
妾為君	-11.4111
祍	-11.4113
揖讓升	-11.4114
佳	-11.4116
廋	-11.4116
力行	-11.4117
疊	-11.4117
壟	-11.4118
變徴	-11.412
為之節	-11.4122
䱷	-11.4123
天下國家	-11.4123
戎狄	-11.4123
三日成服	-11.4125
百日	-11.4126
道路之	-11.4126
王巡守	-11.4135
主皮	-11.4135
尊同	-11.4141
二十四年	-11.4141
東南面	-11.4141
執戈	-11.4141
康成謂	-11.4144
小斂奠	-11.4145
並立	-11.4146
南京	-11.4146
物生	-11.4146
首尾	-11.4146
寒氣	-11.4147
嫁母	-11.4149
簿書	-11.4154
荷	-11.4157
纍	-11.4157
褚	-11.4161
豕脀	-11.4162
鄫	-11.4163
徐氏	-11.4165
侍食	-11.4165
用輴	-11.4166
嗇夫	-11.4167
力政	-11.4168
絡	-11.4168
江漢	-11.4173
執鴈	-11.4177
荀卿	-11.418
相問	-11.418
水漿	-11.4182
縣東北	-11.4186
庶老	-11.4189
畮	-11.419
鉶南	-11.419
二代	-11.4193
交相	-11.4194
隮	-11.4194
棧	-11.4195
可任者	-11.4196
宋史禮志	-11.4197
敖氏謂	-11.4197
郭氏	-11.4198
毁廟之主	-11.42
金錫	-11.4202
高下	-11.4205
刉	-11.4206
鄉飲酒義	-11.4208
鄭義	-11.421
療	-11.421
圭璋特	-11.4212
有功徳	-11.4213
組纓	-11.4214
不與焉	-11.4215
地理志	-11.4215
加隆	-11.4216
縣東南	-11.4217
以璧	-11.4218
在我	-11.4221
徹饌	-11.4221
卜師	-11.4223
委人	-11.4224
儀仗	-11.4227
長樂	-11.4228
以此言之	-11.4229
變宫	-11.4236
鄭註云	-11.4237
之大者也	-11.4241
瓠	-11.4245
在東方	-11.4246
樽	-11.4247
昵	-11.4248
兩君相見	-11.4249
二十七月	-11.4249
䘏	-11.4251
免絰	-11.4253
軍法	-11.4255
幘	-11.4255
士之妻	-11.4256
笙師	-11.4259
鄉老	-11.4259
親耕	-11.4262
恭儉	-11.4264
其業	-11.4264
掌共	-11.4264
室户	-11.4265
序官	-11.4266
不苟	-11.4267
中書令	-11.4268
土功	-11.4268
詔書	-11.4268
九里	-11.4269
新宫	-11.4269
于廟門外	-11.427
大行人云	-11.427
求得	-11.427
酒脯	-11.427
麗於	-11.427
盛德	-11.4274
熊氏曰	-11.4275
有長短	-11.4277
外饔	-11.428
吏部	-11.4281
變動	-11.4282
王莽	-11.4284
薦右	-11.4286
由便	-11.4287
摧	-11.4288
建大常	-11.4289
枓	-11.429
三月而葬	-11.4292
絺綌	-11.4293
彪	-11.4293
為舊君	-11.4294
醫師	-11.4296
庪	-11.4296
侍坐於	-11.4297
函鍾	-11.4301
聘禮云	-11.4303
雨師	-11.4303
下管象	-11.4304
繩屨	-11.4309
祭山川	-11.4316
州黨	-11.4316
師古曰	-11.4319
閉藏	-11.4319
營室	-11.4327
奏陔	-11.4328
給事中	-11.4331
延尸	-11.4334
鞮	-11.4334
四岳	-11.4336
挹	-11.4337
今依	-11.4344
從柩	-11.4345
甲乙	-11.4346
象胥	-11.4347
設折俎	-11.4352
衡山	-11.4358
于其上	-11.4358
千二百	-11.4359
幽州	-11.436
在他國	-11.4362
列國之	-11.4363
不滿	-11.4364
警戒	-11.4364
皮帛	-11.4368
徹去	-11.4369
翬	-11.4378
演	-11.4379
紆	-11.4381
魚鼈	-11.4388
改易	-11.4389
節氣	-11.4389
其貳	-11.4391
小祀	-11.4393
趙孟	-11.4397
他事	-11.4398
二十六年	-11.4404
祭祀之事	-11.4406
不勝者	-11.4409
取觶	-11.4415
蚳	-11.4416
僖祖	-11.4418
學記	-11.4419
相聘	-11.4421
圜鍾	-11.4422
象地	-11.4424
孔氏頴逹曰	-11.4424
黜陟	-11.4425
祠堂	-11.4425
諸父昆弟	-11.4427
逾	-11.4427
六變	-11.443
三統	-11.4431
白黒	-11.4431
堇	-11.4432
和順	-11.4432
思念	-11.4437
帝崩	-11.4439
天文志	-11.4439
于東序	-11.4444
收族	-11.4444
殯後	-11.4444
司禄	-11.4452
交角	-11.4455
浪反	-11.4455
讀法	-11.4456
許慎	-11.4456
群	-11.446
凡賔客	-11.4461
終日	-11.4462
期服	-11.4465
先代	-11.4465
􁆡	-11.4466
王圻續通考	-11.4466
胥二人徒二十人	-11.4466
吏反	-11.4467
斯禁	-11.4467
二十一年	-11.4468
揭	-11.4468
棲	-11.4469
舛	-11.4471
緜	-11.4472
中星	-11.4473
始封之君	-11.4473
羣吏之治	-11.4474
天地社稷	-11.4475
半寸	-11.4475
服衮冕	-11.4476
招魂	-11.4476
立冬	-11.4479
於東郊	-11.448
圭田	-11.4481
焉故曰	-11.4484
温公	-11.4485
舞蹈	-11.4489
殷國	-11.4489
傳曰何以	-11.449
要帶	-11.4491
8	-11.4496
私家	-11.4498
孝文	-11.4503
以日易月	-11.4507
句龍	-11.4508
貴妾	-11.451
饁	-11.451
羸	-11.4511
徂	-11.4512
四等	-11.4513
韣	-11.4513
尅	-11.4515
不惑	-11.4516
遙	-11.4516
媚	-11.4516
朝直遥反	-11.4517
冇	-11.4517
講武	-11.4518
吁	-11.4522
燕私	-11.4525
兮反	-11.4527
四時之祭	-11.4527
異制	-11.4528
擇士	-11.4529
難知	-11.4531
前章	-11.4531
後代	-11.4532
之所出	-11.4533
於東序	-11.4538
徒四十人	-11.4544
不敢忘	-11.4546
于明堂	-11.4546
胥師	-11.4551
褶	-11.4554
出奔	-11.4555
集傳	-11.4555
陳幣	-11.4555
五十弓	-11.4556
服大裘	-11.4557
薦豆	-11.4557
祥禫	-11.4558
㨗	-11.4561
讀禮通考卷	-11.4562
冗	-11.4563
典儀唱	-11.4564
墳墓	-11.4567
訝士	-11.4567
項氏曰	-11.4568
下士一人	-11.4568
地事	-11.4569
掃除	-11.4572
世叔	-11.4572
不能盡	-11.4572
兆域	-11.4575
大蜡	-11.4575
旅上帝	-11.458
者此謂	-11.4581
母之父母	-11.4584
九州之外	-11.4591
於其中	-11.4591
乗輿	-11.4592
所不及	-11.4594
襃	-11.4596
㓙	-11.4606
樊纓	-11.4608
畎	-11.461
羈	-11.4614
九儀	-11.4619
西壁	-11.4619
祈禱	-11.4621
殺矢	-11.4623
内壝	-11.4625
爲妻	-11.4628
杜子春讀	-11.4632
達乎	-11.4633
祭一壇	-11.4634
以昭穆	-11.4638
萬億	-11.4641
易爵	-11.4641
魏晉	-11.4643
葷	-11.4644
如上儀	-11.4645
卜郊	-11.4647
穆王	-11.4647
飲酒食肉	-11.465
毁廟	-11.465
肅肅	-11.4651
入竟	-11.4654
矧	-11.4655
三年大比	-11.4655
不知何	-11.4656
北鄉	-11.4658
衣衾	-11.4659
尚文	-11.4659
送終	-11.466
老幼	-11.4661
反一音	-11.4662
黄琮	-11.4662
三十九	-11.4662
卒受者	-11.4665
備具	-11.4668
庠序	-11.467
阼階上北面	-11.4671
千四百	-11.4674
狐白	-11.4674
博學	-11.4677
壇墠	-11.4681
配帝	-11.4684
内心	-11.4684
大夫之庶子	-11.4687
十五日	-11.4689
王姬	-11.4692
䘮事	-11.4695
不拜受爵	-11.4697
螻	-11.4697
椇	-11.4697
毗	-11.4698
嚴父	-11.4698
胷	-11.4698
金華應氏曰	-11.4699
夏采	-11.4699
冔	-11.4701
薦熟	-11.4703
壇壝	-11.4703
與父同	-11.4703
三分益一	-11.4705
正其位	-11.4705
無所用	-11.4709
藍	-11.4711
合族	-11.4711
在其中矣	-11.4711
譏其	-11.4712
諸生	-11.4714
十二章	-11.4714
薦孰	-11.4715
尊親	-11.4717
四節	-11.4722
士相見禮	-11.4722
十一度	-11.4726
管人	-11.4726
賔揖	-11.4729
未冠	-11.4729
推此	-11.473
「	-11.4734
出笏	-11.4734
丁未	-11.4736
用鴈	-11.4736
加之以	-11.4737
墾	-11.4739
天子以下	-11.474
巖	-11.4742
郭璞	-11.4747
頴	-11.4747
瑶爵	-11.4748
三分寸之二	-11.4749
鹵簿	-11.475
古之君子	-11.4751
每日	-11.4757
伯夷	-11.476
于鼎	-11.4767
地祇	-11.4768
詳定	-11.4768
栗階	-11.4769
可任	-11.4773
慶父	-11.4778
君之命	-11.4781
嘉石	-11.4782
不從政	-11.4782
芹	-11.4788
王及后世子	-11.4789
侯伯之卿	-11.479
異乎	-11.4793
士之喪	-11.4794
仙	-11.4795
悼公	-11.4795
合為一	-11.4796
媺	-11.4797
不克	-11.4797
矣然則	-11.4802
内則云	-11.4806
所賜	-11.4807
諸軍	-11.4814
二條	-11.482
几杖	-11.4823
乳母	-11.4825
甗	-11.4826
適室	-11.4828
降堂	-11.4829
骨體	-11.4829
孔氏曰此明	-11.4829
匶	-11.4831
芡	-11.4834
倨句	-11.4835
左旋	-11.4837
頌磬	-11.4838
各如其	-11.484
蠧	-11.484
而與之	-11.4842
縳	-11.4842
與大夫同	-11.4843
汶	-11.4844
享太廟	-11.4845
褥位	-11.4846
都尉	-11.4847
縰	-11.4849
三孤	-11.4851
甲午	-11.4854
安車	-11.4855
諸侯相朝	-11.4857
適庶	-11.4864
太原	-11.4865
太祖廟	-11.4868
在國中	-11.487
以木鐸	-11.4871
舜典	-11.4877
祔於祖	-11.4878
菁	-11.4878
君子不以	-11.4878
餈	-11.4879
膞	-11.4879
胥八人徒八十人	-11.4882
賈氏公彥曰	-11.4882
牽牲	-11.4882
阮	-11.4882
始立學	-11.4884
征役	-11.4885
迨	-11.4886
薺	-11.4886
孝敬	-11.4887
掠	-11.4887
荘公	-11.4893
婚姻	-11.4894
將帥	-11.4896
不腆	-11.4897
短脅	-11.4899
戴記	-11.4902
聽事	-11.4903
立扵	-11.4904
諸侯以下	-11.4908
嗣王	-11.4908
召南	-11.4912
祼獻	-11.4914
四靈	-11.4916
為長子三年	-11.4919
期年	-11.492
不豫	-11.4921
存亡	-11.4924
孝子之心	-11.4924
下士八人	-11.4925
無藉	-11.4925
字之誤	-11.4926
錞	-11.4926
琖	-11.4927
酎	-11.4928
春秋之時	-11.4929
萍	-11.4929
𤣥武	-11.493
散齊	-11.4931
夫之昆弟	-11.4931
亶	-11.4932
後儒	-11.4932
卓子	-11.4932
亾	-11.4932
司尊彛	-11.4933
六品以下	-11.4933
上庠	-11.4933
以其冠為受	-11.4933
次舍	-11.4936
㕔	-11.4938
女家	-11.4938
甲胄	-11.4939
長丁丈反	-11.4939
齧	-11.494
大夫之適子	-11.4941
偝	-11.4943
天下之人	-11.4944
阼俎	-11.4949
刌	-11.4949
禍福	-11.4949
每月	-11.495
精麤	-11.4952
𤣥鳥	-11.496
觶南	-11.496
傳辭	-11.4962
死日	-11.4963
不奪	-11.4964
何也蓋	-11.4968
𤣥堂	-11.4969
騶	-11.4974
酋	-11.4974
擔	-11.4974
這	-11.4976
北墉下	-11.4977
未甞	-11.4978
楊氏復曰	-11.4978
以佐王	-11.4979
愿	-11.498
圍去一	-11.498
尊嚴	-11.4981
夔	-11.4981
父沒	-11.4985
遲速	-11.4987
為人子者	-11.4989
腒	-11.4989
郊之祭	-11.499
與尊者	-11.4993
常法	-11.4996
崇酒	-11.5002
元年正月	-11.5002
分為三	-11.5005
臨時	-11.5005
徵令	-11.5007
劉向	-11.501
清河	-11.5011
四十里	-11.5012
羅氏	-11.5014
維持	-11.5017
溲	-11.502
為加爵	-11.502
忒	-11.5023
太古	-11.5023
軒轅	-11.5026
托	-11.5026
癸酉	-11.5029
庭燎	-11.5031
所後者	-11.5032
翁	-11.5032
竽	-11.5033
鞞	-11.5033
袴	-11.5034
覇	-11.5036
二三子	-11.5037
相待	-11.504
厭降	-11.504
固當	-11.5042
象限	-11.5043
以疑之	-11.5044
所乘	-11.5046
不儐尸	-11.5047
禮辭許	-11.5055
在門東	-11.5057
罪人	-11.506
腊人	-11.5063
佐王	-11.5065
吉笄	-11.5065
國有大故	-11.5069
册	-11.507
而後可	-11.507
禧	-11.507
而已故曰	-11.5071
冠八升	-11.5073
胸	-11.5073
陳澔	-11.5074
祕	-11.5075
可否	-11.5076
那	-11.5076
涿	-11.5077
從祖昆弟	-11.5078
酒肉	-11.5078
諂	-11.508
植物	-11.5081
鬬	-11.5081
西階之西	-11.5086
地産	-11.5087
序進	-11.5088
羣后	-11.5088
岸	-11.509
儥	-11.5093
禮之變	-11.5095
左肩	-11.5101
白虎	-11.5101
近北	-11.5102
禘郊	-11.5102
糶	-11.5104
今考	-11.5104
分為二	-11.5104
後五日	-11.5106
犯禁	-11.511
民知	-11.5114
敬心	-11.5118
穰	-11.5119
三恪	-11.5119
朝覲宗遇	-11.512
船	-11.512
懋	-11.5122
一國之	-11.5123
庚午	-11.5123
隣	-11.5123
瞭	-11.5123
誼	-11.5126
東膠	-11.5126
左氏曰	-11.5127
臥	-11.5127
時雨	-11.5132
正旦	-11.5132
而不失	-11.5137
絺冕	-11.5139
根本	-11.5141
以義起	-11.5141
十五度	-11.5141
酢主人主人	-11.5142
鴆反	-11.5143
社稷宗廟	-11.5144
槀人	-11.5146
象魏	-11.5148
陰陽之	-11.5149
飾之以	-11.515
十有八	-11.5154
依舊	-11.5157
犧象	-11.5158
工歌	-11.5158
正鵠	-11.5163
少牢饋食	-11.5165
章句	-11.5165
辨其名物	-11.5168
啼	-11.5169
𫉬	-11.517
臣為君	-11.5172
匏竹	-11.5176
墳衍	-11.5176
禮之正	-11.5176
殤服	-11.5177
潰	-11.5179
二十八宿	-11.5181
子思曰	-11.5182
朝事之豆	-11.5186
璽節	-11.5187
求福	-11.5188
相向	-11.519
子游曰	-11.5192
國子監	-11.5199
赤色	-11.5203
雨水	-11.5208
有黍稷	-11.521
諸司	-11.5211
大夫之妾	-11.5214
校尉	-11.5215
高宗	-11.5217
寤	-11.5217
怵	-11.5218
慟	-11.5218
譯	-11.5218
酹	-11.5221
卣	-11.5221
石梁王氏曰	-11.5221
粲	-11.5221
駹	-11.5221
爐	-11.5222
舊章	-11.5223
所以防	-11.5225
祀方明	-11.5226
敖繼公	-11.523
綆	-11.5231
在阼階	-11.5232
復逆	-11.5236
最髙	-11.5237
法式	-11.5238
著免	-11.524
右主人獻	-11.5247
二十二年	-11.5248
樂節	-11.5248
帷堂	-11.525
踐阼	-11.525
?」	-11.5253
和平	-11.5253
拜訖	-11.5255
國風	-11.5255
幣玉	-11.5259
造化	-11.5259
大功之親	-11.5259
代哭	-11.5261
太常卿引皇帝	-11.5262
所畏	-11.5268
膋	-11.5268
戊辰	-11.5269
建寅之月	-11.5271
舞大武	-11.5271
瘞埋	-11.5273
匕湇	-11.5273
禎	-11.5273
蒼璧	-11.5275
武王伐紂	-11.5275
旃	-11.5276
内兄弟	-11.5279
矢箙	-11.528
屈繅	-11.5283
全體	-11.5287
於其間	-11.5294
荅再拜	-11.5297
三尺三寸	-11.5298
祭禰	-11.5298
西堂下	-11.53
燕饗	-11.53
既虞卒哭	-11.5301
水草	-11.5304
空首	-11.5309
百歩	-11.5311
絢	-11.5312
台	-11.5316
鋝	-11.5316
鏗	-11.5317
件	-11.5317
王介甫曰	-11.5318
敢辭	-11.5318
射侯	-11.5319
雒	-11.532
簜	-11.532
田畯	-11.532
譙	-11.532
哀情	-11.5324
上旬	-11.5325
萬舞	-11.5327
臯門	-11.5327
穀梁傳	-11.5328
太常卿奏	-11.5329
巳下	-11.533
兄弟之喪	-11.5331
序西南	-11.5334
賦貢	-11.5341
五冕	-11.5342
水經注	-11.5342
王安石	-11.5346
其實一也	-11.5349
第八	-11.5349
殷制	-11.535
師友	-11.5353
先嗇	-11.5353
未畢	-11.5353
執璧	-11.5354
俯伏興	-11.5359
譌	-11.5361
纔	-11.5361
天之道	-11.5363
爲于僞反	-11.5363
精微	-11.5364
偽反	-11.5365
鏞	-11.5365
户部	-11.5366
牌	-11.5371
命士以上	-11.5372
丈反	-11.5374
央	-11.5375
壷	-11.5375
新安朱氏曰	-11.5376
縛	-11.5376
雛	-11.5377
二十七年	-11.5378
副貳	-11.5379
師帥	-11.5382
佐車	-11.5384
承㫖	-11.5386
呉氏	-11.5392
降盥	-11.5395
獻佐食	-11.5396
此五者	-11.5399
丹墀	-11.5401
於室中	-11.5405
蝗	-11.5405
發聲	-11.5407
淅	-11.5409
于西方	-11.5409
房中南面	-11.541
頥	-11.5412
車載	-11.5414
吝	-11.5419
注古文	-11.5419
閎	-11.5422
戊寅	-11.5422
冩	-11.5425
乘矢	-11.5428
潞	-11.5428
己巳	-11.5429
聖人制禮	-11.5433
如初儀	-11.5437
篇末	-11.5438
惡惡	-11.544
曹伯	-11.5444
尚書省	-11.5446
大馭	-11.5447
母之喪	-11.5448
不相襲	-11.5449
並列	-11.5451
致其敬	-11.5452
喪荒	-11.5454
大旂	-11.5458
庳	-11.546
既卒哭	-11.5461
孔悝	-11.5462
諸侯之士	-11.5463
掌建邦之	-11.5463
吳氏澄曰	-11.5463
鬠	-11.5463
宣子	-11.5463
脇	-11.5464
世佐案此	-11.5464
綂	-11.5465
穉	-11.5468
禮直官引	-11.5468
禮之本	-11.5468
露紒	-11.5469
蜼	-11.547
耿	-11.5471
衍字	-11.5474
釋曰知	-11.5475
東西南北	-11.5479
女子子適人者	-11.5482
坐取觶	-11.5484
文承	-11.5492
賔客之禮	-11.5495
賔與大夫	-11.5498
重輕	-11.5499
勞苦	-11.5499
眷	-11.5512
剪	-11.5517
自西階	-11.5521
相侵	-11.5522
伐鄭	-11.5524
假借	-11.5527
執觶興	-11.5528
體魄	-11.5529
禮運云	-11.5533
兵甲	-11.5534
拾踊	-11.5535
揚觶	-11.5538
節制	-11.5539
見於經	-11.5539
鼓吹	-11.554
荅曰	-11.5541
間傳	-11.5543
樂工	-11.5544
逆祀	-11.5545
車騎	-11.5548
服皮弁	-11.5551
儒行	-11.5555
孝武	-11.5558
城門	-11.556
四圭	-11.5561
棖	-11.5562
嫌疑	-11.5562
幠	-11.5563
齋郎	-11.5563
厭飫	-11.5567
頒賜	-11.5568
戸内	-11.5568
乆矣	-11.5568
膷	-11.557
睢	-11.5571
碎	-11.5571
蕪	-11.5571
滋味	-11.5571
配上帝	-11.5572
注釋曰此	-11.5572
鬐	-11.5573
僚友	-11.5573
涸	-11.5575
布政	-11.5576
仕於	-11.5578
大賔客	-11.5578
寡君之老	-11.5579
龍旂	-11.558
大將軍	-11.5582
屬吏	-11.5583
執披	-11.5583
郝仲輿曰	-11.5583
祭法云	-11.5591
尚左手	-11.5591
泛齊	-11.5592
爵位	-11.5595
邑宰	-11.5597
先王先公	-11.56
辯獻	-11.5604
禮略	-11.5604
姜氏曰	-11.5605
患難	-11.5607
饗婦	-11.5608
疏按	-11.5608
所習	-11.5609
麋臡	-11.5613
提舉	-11.5613
後大宗	-11.5614
稌	-11.5614
軍吏	-11.5614
韗	-11.5615
詁	-11.5616
勵	-11.5618
虗	-11.5618
膮	-11.562
三年正月	-11.5621
薛氏曰	-11.5624
衙	-11.5628
外内命婦	-11.5638
亨人	-11.5638
與天子同	-11.5639
六飲	-11.5639
竹箭	-11.5647
主人獻尸	-11.5647
加豆	-11.5648
巫祝	-11.566
辛未	-11.5661
衣裘	-11.5662
牙璋	-11.5664
乙酉	-11.5664
司巫	-11.5666
璂	-11.5666
小胥	-11.5668
匣	-11.5669
乙丑	-11.567
奉禮郎	-11.567
蝕	-11.5671
正月之吉	-11.5671
皂	-11.5671
粉米	-11.5672
薧	-11.5672
踊如初	-11.5672
交擯	-11.5673
升歌清廟	-11.5673
饌具	-11.5675
獻酢	-11.5675
執鎮圭	-11.5678
者以經云	-11.568
右几	-11.5682
執爵興	-11.5686
康叔	-11.5687
有司奏	-11.5698
教學	-11.5699
婦贊者	-11.5701
不敢專	-11.5701
罰爵	-11.5704
通考	-11.5707
詩序	-11.5709
鬄	-11.571
卿大夫之喪	-11.5711
大閱	-11.5714
行下孟反	-11.5715
秫	-11.5717
依注音	-11.5717
典婦功	-11.5719
膱	-11.5719
芮	-11.5721
毛詩	-11.5721
皇地祗	-11.5723
坐祭遂飲	-11.5723
伏羲	-11.5726
孳	-11.5726
三品以上	-11.5726
三昭三穆	-11.5727
荁	-11.5727
即上文	-11.5731
執皮帛	-11.5731
大功之末	-11.5732
習舞	-11.5739
嵗星	-11.5741
門關	-11.5741
安得不	-11.5753
少儀曰	-11.5753
實柴	-11.5756
歲終	-11.5756
燕義	-11.5759
聿	-11.5767
髙禖	-11.5768
迆	-11.5769
械	-11.577
㽔	-11.577
刈	-11.5771
改設	-11.5771
等議	-11.5772
噍	-11.5772
刄	-11.5773
待賔客	-11.5774
窺	-11.5777
獻侑	-11.5781
遺詔	-11.5783
熊虎	-11.5785
句股	-11.5785
八風	-11.5787
精粗	-11.5787
主婦獻尸	-11.5791
冊寶	-11.5792
裳帷	-11.5792
薦脀	-11.5794
孟子所謂	-11.5796
節度	-11.5804
末擯	-11.5806
太上皇	-11.5807
一節論	-11.5809
關市	-11.5812
用剛日	-11.5814
戸外	-11.5816
雜裳	-11.5816
憎	-11.582
麗于	-11.5822
䋲	-11.5822
口徑	-11.5823
薦腥	-11.5826
戊申	-11.5827
東門之外	-11.5827
鬰	-11.5827
劵	-11.5832
死亡	-11.5833
曜	-11.5833
於阼階上	-11.5835
素沙	-11.5837
北辰	-11.5838
而致事	-11.584
役事	-11.584
血毛	-11.5846
靈公	-11.5847
安石	-11.5847
所造	-11.5848
海内	-11.5849
宗廟之中	-11.585
鹿中	-11.5854
吳氏	-11.5856
下經云	-11.5857
各以其爵	-11.5858
輟朝	-11.5862
秘	-11.5863
四牡	-11.5863
宿尸	-11.5865
還玉	-11.5866
卺	-11.587
康誥	-11.5873
綵	-11.5873
鞔	-11.5874
簷	-11.5877
先王制	-11.5878
夏日至	-11.5879
見於外	-11.5881
武帝本紀	-11.5885
自由也	-11.5889
豈特	-11.589
挾矢	-11.5893
虎士	-11.5894
闔門	-11.5894
化育	-11.5902
晉文公	-11.5902
死牢	-11.5907
匕俎	-11.591
宿賔	-11.5918
祭僕	-11.592
豬	-11.5921
在位者皆再拜	-11.5923
雝	-11.5923
光明	-11.5924
殿庭	-11.5924
篠	-11.5925
褎	-11.5926
產	-11.5926
納射器	-11.5926
以少為貴	-11.5929
竄	-11.5929
癸亥	-11.5929
熾	-11.593
少皥	-11.5931
麓	-11.5932
丁丑	-11.5934
棣	-11.5935
洩	-11.5936
郢	-11.5936
其他如	-11.5938
相沿	-11.5952
星紀	-11.5955
歴反	-11.5956
固不可	-11.5963
予一人	-11.5964
天災	-11.5965
版位	-11.5965
祀天地	-11.597
先妣	-11.597
三百人	-11.5971
連文	-11.5973
肱	-11.5973
容止	-11.5975
杜子春	-11.5976
嘏辭	-11.5976
庀	-11.5977
赫	-11.5977
陘	-11.5977
勾龍	-11.5978
絶句	-11.5978
粤	-11.5978
升一等	-11.5979
寐	-11.598
獻禽	-11.598
喜怒哀樂	-11.5981
魂魄	-11.5981
効	-11.5981
權制	-11.5982
果蓏	-11.5982
聫	-11.5983
授綏	-11.5985
終之以	-11.5985
路馬	-11.5985
甲寅	-11.5986
鄭氏注	-11.5987
合而言之	-11.5988
梱	-11.5989
鄉射禮曰	-11.5989
教坊	-11.5996
父子兄弟	-11.6002
繼公謂此	-11.6008
慈愛	-11.601
去飾	-11.6012
西河	-11.6016
壹拜	-11.6017
無筭	-11.6022
下殤小功	-11.6024
千一百	-11.6025
菅	-11.6025
蟈	-11.6026
枝葉	-11.6028
靈威仰	-11.6029
撞	-11.603
蠃	-11.603
莊敬	-11.6032
陸佃	-11.6032
笙入	-11.6033
沖	-11.6033
芝	-11.6035
耨	-11.6035
紇	-11.6036
君子之於	-11.6036
村	-11.6037
九伐	-11.6046
三絃	-11.6052
遥反	-11.6054
冠六升	-11.606
致禽	-11.6072
諷	-11.6074
城隍	-11.6075
兩籩	-11.6077
建寅	-11.6082
季武子	-11.6082
毀	-11.6083
搜	-11.6086
梠	-11.6087
瑞節	-11.6089
諜	-11.609
各有差	-11.6094
乾坤	-11.6096
色赤	-11.6096
盥饋	-11.6102
畿外諸侯	-11.6105
己丑	-11.6106
歌鹿鳴	-11.6106
諸侯之卿	-11.6108
虎皮	-11.6112
設楅	-11.6113
敬姜	-11.6114
岱宗	-11.6115
郊禘	-11.6122
后世子	-11.6125
諒闇	-11.6125
門外位	-11.6126
是月也命	-11.6129
年二十	-11.6131
軨	-11.6131
服䖍	-11.6132
帑	-11.6132
陳用之曰	-11.6134
旅賁	-11.6135
瑗	-11.6136
杭	-11.6136
髀不升	-11.6138
五岳	-11.6138
與音餘	-11.6139
漫	-11.6141
千萬	-11.6143
飲畢	-11.6143
顓	-11.6146
授宰	-11.6149
小司冦	-11.6152
讀如字	-11.6157
散齋	-11.6157
一毫	-11.6163
為出母	-11.6165
尺一寸	-11.6165
大槩	-11.6169
二十七日	-11.6169
四阿	-11.617
九榖	-11.6175
知其所	-11.6177
諸侯之卿大夫	-11.6178
奭	-11.6186
桯	-11.6188
裸	-11.6188
搢圭	-11.6189
狥	-11.619
甄	-11.619
比年	-11.619
先薦寢廟	-11.619
拄	-11.6191
汜	-11.6191
苟敬	-11.6192
丙午	-11.6192
踊襲	-11.6193
甲申	-11.6195
注今文	-11.6196
趙氏	-11.6196
箸	-11.6198
羽舞	-11.6198
覆手	-11.6198
十一分	-11.62
本訛作	-11.6201
淮南	-11.6206
實于篚	-11.6209
恩義	-11.6209
角柶	-11.621
帗舞	-11.621
緦麻三月	-11.6211
壺尊	-11.6211
不税	-11.6213
寸二分	-11.6216
于堂西	-11.6217
凡賓客	-11.622
敢告	-11.6224
貶於	-11.6225
彼據	-11.6226
不稅	-11.6227
公答再拜	-11.6227
含玉	-11.6232
禨	-11.6233
供養	-11.6235
以為飾	-11.6235
徒跣	-11.6239
敬叔	-11.6239
殿中監	-11.6241
星去極	-11.6244
墟	-11.6244
贍	-11.6246
占夢	-11.6248
柘	-11.6251
得其正	-11.6255
女史	-11.6255
徽宗	-11.6259
素積	-11.6259
孔氏曰自此至	-11.6261
牖前	-11.6264
祭統曰	-11.6274
一獻之禮	-11.6279
天地宗廟	-11.6282
孔氏穎達曰此論	-11.6289
昏義	-11.629
門户	-11.629
以爵授	-11.6292
二十五里	-11.6294
十三度	-11.6295
受勞問者	-11.6295
成規	-11.6297
雜説	-11.6298
悅	-11.6298
樂音洛	-11.6299
何耶	-11.63
鍛	-11.6302
寗	-11.6302
甲戌	-11.6302
斲	-11.6303
贖	-11.6305
宣布	-11.6305
長二尺	-11.6307
礪	-11.6308
重翟	-11.631
納亨	-11.6311
祀天神	-11.6312
如儐	-11.6316
四十六	-11.6316
木材	-11.6318
於堂西	-11.6321
子㳺	-11.6327
其有不	-11.6327
第九	-11.6334
鳶	-11.6345
李氏如圭曰	-11.6352
煬	-11.6352
湘	-11.6352
酪	-11.6352
電	-11.6354
妻為夫	-11.6354
讒	-11.6356
竿	-11.6356
乙亥	-11.6357
笭	-11.6357
父母之䘮	-11.6358
詭	-11.6362
表記	-11.6366
簫管	-11.6366
麻布	-11.6367
康子	-11.6369
曽祖父母	-11.637
出大門	-11.6372
而後可以	-11.6384
于圜丘	-11.6386
憲宗	-11.6389
庛	-11.6391
誓戒	-11.6393
未嫁	-11.6398
其他皆如	-11.6402
悌	-11.6404
一溢米	-11.6405
侍儀	-11.6406
牘	-11.6408
㨎	-11.6409
君臣上下	-11.641
夷槃	-11.6411
驛	-11.6412
跪讀	-11.6412
儷皮	-11.6412
少昊	-11.6414
五品以上	-11.6414
隋書	-11.6415
命去侯	-11.6415
屋漏	-11.6418
二年正月	-11.6431
蒲筵	-11.6433
不得已而	-11.6436
與王同	-11.644
三分之一	-11.644
纛	-11.6444
金革	-11.6447
今從方本	-11.6452
符節	-11.6453
親愛	-11.6456
公卿大夫士	-11.6457
甲兵	-11.6457
惠公	-11.6458
鉏	-11.6458
鎭	-11.6458
傳曰何以期也	-11.6459
槁	-11.646
傑	-11.6462
行春令則	-11.6463
釡	-11.6463
朱白蒼	-11.6464
什伍	-11.6465
貟	-11.6466
紵	-11.6466
阼階前	-11.6467
十二分	-11.6474
不可勝	-11.6476
注釋曰案	-11.648
為獻主	-11.648
奉慰	-11.6481
州刺史	-11.6482
江淮	-11.649
之名物	-11.6495
不入公門	-11.6496
箋云	-11.6506
擯者請	-11.651
主黨	-11.651
方岳	-11.651
佐后	-11.6513
薑桂	-11.6513
蟻	-11.6513
翰林	-11.6513
怡	-11.6514
袵	-11.6514
轄	-11.6515
翠	-11.6516
慊	-11.6516
振鐸	-11.6517
尺有五寸	-11.6517
駐	-11.6519
掉	-11.6519
坏	-11.652
贊引引	-11.6522
蓬	-11.6526
二十而冠	-11.6527
少頃	-11.6533
司射命	-11.6533
奠于篚	-11.6541
制禄	-11.6542
軒縣	-11.6545
屏風	-11.6548
玉敦	-11.655
賓答拜	-11.6551
大綱	-11.6553
甚多	-11.6558
納賔	-11.6558
南面西上	-11.656
無主後	-11.6562
霆	-11.6566
五齊三酒	-11.6569
茆	-11.6569
天地之和	-11.6569
圭璋璧琮	-11.657
四之一	-11.657
惡笄	-11.6571
賈逵	-11.6572
三耦卒射	-11.6572
辛卯	-11.6573
悞	-11.6573
渳	-11.6574
翕	-11.6574
響	-11.6574
應氏鏞曰	-11.6574
主人坐奠爵	-11.6575
恩輕	-11.6575
臐	-11.6576
戊午	-11.6578
正義曰此一經	-11.6578
樵	-11.6579
襃衣	-11.658
沔	-11.6582
令尹	-11.6591
十三月	-11.6595
畜聚	-11.6598
十五里	-11.6601
犬馬	-11.6603
顔子	-11.6606
五人帝	-11.6606
臨川	-11.6612
示之以	-11.6619
垼	-11.6623
八卦	-11.6627
杝	-11.6627
贊者引	-11.6627
賢者能者	-11.6627
快	-11.6627
孔子之言	-11.6628
帀	-11.6628
掌其戒令	-11.6628
中矩	-11.6629
楯	-11.663
瑜	-11.663
忍反	-11.6631
九十六	-11.6632
削幅	-11.6632
中月而禫	-11.6633
鄒	-11.6633
廵狩	-11.6634
大夫已上	-11.6634
倉人	-11.6635
陳祥道	-11.6635
壬申	-11.6636
鵲	-11.6638
異代	-11.6646
稱賀	-11.6651
王者之後	-11.6655
蒲席	-11.6657
三十七	-11.666
太甲	-11.6668
路寝	-11.6674
他物	-11.6674
建丑	-11.6679
薪芻	-11.668
馘	-11.6682
陶匏	-11.6683
鷖	-11.6683
茢	-11.6683
倮	-11.6685
鮮魚鮮腊	-11.6685
龠	-11.6687
脈	-11.6688
素端	-11.6688
黄赤	-11.6689
笮	-11.6689
句芒	-11.6692
孫氏	-11.6692
瓦甒	-11.6694
使其屬	-11.6697
崇牙	-11.6699
長四寸	-11.67
垂繅	-11.6702
敖云	-11.6703
玄冕	-11.6705
下並同	-11.6706
萬年	-11.6707
諷誦	-11.6707
服緦麻	-11.671
十徽	-11.6713
納徵	-11.6713
文王武王	-11.6714
挼	-11.6718
堂塗	-11.6718
侍立	-11.672
衆賔長	-11.6724
境内	-11.6728
蘋	-11.6732
母黨	-11.6733
捲	-11.6734
大學士	-11.6735
歷	-11.6737
點	-11.6737
附㑹	-11.6737
粹	-11.6739
挑	-11.674
芾	-11.674
情性	-11.674
致飱	-11.6741
賢良	-11.6742
楚茨	-11.6743
用犢	-11.6745
庚戌	-11.6745
模	-11.6745
臼	-11.6745
羃	-11.6745
辛丑	-11.6746
表貉	-11.6746
鄰里	-11.6749
㬥	-11.6749
殄	-11.675
凶札	-11.6752
揖讓如初	-11.6754
希冕	-11.6755
月朔日	-11.6757
聨事	-11.6761
冠七升	-11.6768
旄人	-11.677
三十一年	-11.6772
明堂位云	-11.6782
鄙師	-11.6784
敬慎	-11.6784
小輪	-11.6788
鄭據	-11.6789
邇臣	-11.6793
以杖即位	-11.6793
耕耨	-11.6795
長脅	-11.6797
縓縁	-11.6797
煌	-11.6798
萬九千	-11.6799
遮	-11.6799
銓	-11.68
罽	-11.68
長五寸	-11.6801
䧟	-11.6801
倪	-11.6804
角觶	-11.6805
少儀云	-11.6808
四方百物	-11.681
白虎通云	-11.6822
滅性	-11.6824
挼祭	-11.6825
門東北面	-11.6825
衙門	-11.6825
註鄭司農云	-11.6828
三十八	-11.6828
川衡	-11.6833
耕藉	-11.6838
祭統云	-11.684
拍	-11.6844
楔	-11.685
槨	-11.6854
區區	-11.6855
葆	-11.6855
恆	-11.6856
餙	-11.6856
翊	-11.6857
儷	-11.6858
紛紛	-11.6858
懇	-11.6859
日躔	-11.6859
所以致敬	-11.6859
萬石	-11.6862
契丹	-11.6862
發揚	-11.6864
鮒	-11.6865
匪頒	-11.6866
鷙	-11.6868
從父兄弟	-11.6868
案士喪禮	-11.687
霍山	-11.6874
紀綱	-11.6875
冢子	-11.688
春秋之義	-11.6883
不失職	-11.689
廣二寸	-11.6891
圉師	-11.6892
待放	-11.6898
漢魏	-11.6899
鍭	-11.6902
淸	-11.6906
除䘮	-11.6906
簨	-11.6906
鼖	-11.691
刖	-11.6914
仆	-11.6915
倚廬	-11.6916
鐏	-11.6918
朱紘	-11.692
掌其禁令	-11.6923
縚	-11.6923
屈伸	-11.6925
交際	-11.6925
班首	-11.693
素錦	-11.6936
寡君使某	-11.6948
木鐸	-11.6948
庾氏	-11.695
冕弁	-11.6953
箭笄	-11.6953
散帶垂	-11.696
南面東上	-11.6961
景帝	-11.6962
劾	-11.6964
澤宫	-11.6967
歡樂	-11.6968
腰絰	-11.6968
協律郎	-11.6969
餓	-11.6969
挫	-11.6969
桴	-11.697
玄冠	-11.6973
匕湆	-11.6975
要節而踊	-11.6975
丁卯	-11.6976
拚	-11.6976
羌	-11.6976
此其所以	-11.6976
幔	-11.698
斟酒	-11.6982
繁纓	-11.6983
斗斛	-11.6984
鎛師	-11.6985
二以並	-11.6985
版圖	-11.6987
中書門下	-11.6989
戎僕	-11.6996
潔清	-11.6998
四人胥四人徒四十人	-11.7004
百乗	-11.7007
佾	-11.7015
成湯	-11.7016
薪蒸	-11.7022
駔	-11.7024
㤙	-11.7025
通事舍人引	-11.7026
緅	-11.7027
浹	-11.7027
觀承案	-11.7029
振祭嚌之	-11.703
貿	-11.703
積聚	-11.703
猷	-11.7033
大夫與士	-11.7034
劔	-11.7035
𤣥枵	-11.7037
所以致其	-11.704
文武百官	-11.7042
正義曰此一節明	-11.7043
陔夏	-11.7057
肺脊	-11.7064
房戸	-11.7065
改饌	-11.7073
如賓禮	-11.7077
小功章	-11.7077
民之父母	-11.7083
臠	-11.7084
太府	-11.7085
覬	-11.7086
㪚	-11.7087
擣	-11.7087
鰥	-11.709
參侯	-11.7092
筍虡	-11.7094
從釋文	-11.7094
魂帛	-11.7095
朱裏	-11.7099
日月星	-11.71
旣殯	-11.7105
千三百	-11.7105
辭不得命	-11.7105
靈臺	-11.7107
淄	-11.7108
貞元	-11.7108
孝慈	-11.7111
西京	-11.7112
私恩	-11.7113
冬至日	-11.7113
純凶	-11.7114
俠拜	-11.7114
貧民	-11.7116
黃鍾	-11.7116
伯姬	-11.7117
曲折	-11.7134
朐	-11.7137
于阼	-11.7138
綜	-11.7141
精意	-11.7141
愠	-11.7141
麕	-11.7146
覈	-11.7146
怍	-11.7147
男女有别	-11.7147
杓	-11.7147
耐	-11.7148
畱	-11.7149
千餘	-11.7151
中書省	-11.7152
致爵于主人	-11.7153
舉肺脊	-11.7153
不舉樂	-11.7155
茨	-11.7156
百萬	-11.7157
聖人制	-11.7161
奠觶于薦	-11.7169
長八寸	-11.7173
充實	-11.7186
不奪人	-11.7186
冬日至	-11.7189
林氏曰	-11.7189
展幣	-11.719
肯	-11.7191
在東序	-11.7191
車一乘	-11.7191
攢	-11.7192
第二十	-11.7197
龕	-11.7198
俶	-11.7199
徐氏師曾曰	-11.7199
王氏詳說曰	-11.7203
頽	-11.7204
杯	-11.7204
寸六分	-11.7204
臊	-11.7205
員外郎	-11.7205
觜	-11.7205
喪服小記云	-11.7206
剽	-11.7207
兊	-11.7207
牡麻	-11.7208
宸	-11.7208
僑	-11.7212
翼翼	-11.7213
斗柄	-11.7216
公羊傳云	-11.7223
南門之外	-11.7232
追師	-11.7234
五十步	-11.7237
朱氏	-11.7239
絲衣	-11.724
闑東	-11.7244
横木	-11.7249
正義曰此一節	-11.7249
帽	-11.7256
常侍	-11.7257
銜枚	-11.726
苹	-11.7262
馨香	-11.7263
秬	-11.7266
鍼	-11.7268
阨	-11.727
朝夕奠	-11.7271
𬒮	-11.7271
國有大	-11.7273
工部	-11.7281
親始死	-11.7299
專指	-11.7303
執贄	-11.7309
鍾師	-11.731
樞宻	-11.7315
畋	-11.7317
赬	-11.7317
做	-11.7318
王氏詳説曰	-11.732
祜	-11.732
声	-11.732
頎	-11.7322
監察御史	-11.7323
執幂者	-11.7324
詔侑	-11.7325
臻	-11.7325
頑	-11.7326
紃	-11.7328
親而不尊	-11.7328
蕢	-11.7329
天地之氣	-11.7335
嗜欲	-11.7339
主人酬賔	-11.7344
乗禽	-11.735
削杖	-11.735
十六度	-11.7351
斧依	-11.7352
干舞	-11.7353
千六百	-11.736
雩祀	-11.7361
執紼	-11.7361
魯頌	-11.7365
其義一也	-11.7366
廟庭	-11.7367
于廟門	-11.737
崔氏云	-11.7371
君使卿	-11.7375
大功九月	-11.7377
食貨志	-11.7378
形似	-11.7379
粒	-11.7382
儆	-11.7383
股肱	-11.7384
八佾	-11.7384
愾	-11.7385
紺	-11.7385
蓐收	-11.7385
盤庚	-11.7386
膰	-11.7387
司馬之屬	-11.7388
辛酉	-11.7389
黄目	-11.7389
胾醢	-11.7391
販	-11.7391
昧爽	-11.7391
慨	-11.7392
燅	-11.7392
拜其辱	-11.7394
節目	-11.7404
弑其君	-11.7405
孔子曰吾	-11.7407
往弔	-11.7409
加環絰	-11.7418
鐘師	-11.742
百里之國	-11.7421
小記云	-11.7421
百榖	-11.7426
州郡	-11.7434
小司寇	-11.7435
周禮注疏卷	-11.7438
鉤邊	-11.7439
髺髪	-11.7439
又案以上	-11.744
翳	-11.7441
皮革	-11.7441
昇	-11.7442
曳	-11.7444
腵脩	-11.7444
國有大事	-11.7444
叟	-11.7445
犒	-11.7446
大斂奠	-11.7446
蜩	-11.7449
劫	-11.7451
踣	-11.7452
熙寧	-11.7452
執皮者	-11.7453
中從下	-11.7454
司𨽻	-11.7454
賀循	-11.7459
光禄卿	-11.7462
阡	-11.7466
覆棺	-11.7484
君臣父子	-11.7494
獸侯	-11.7496
鐙	-11.75
秃	-11.7501
代脅	-11.7501
筠	-11.7503
素縞麻衣	-11.7505
治其政令	-11.7505
莎	-11.7505
連衣裳	-11.7505
五人為伍	-11.7505
窒	-11.7507
喙	-11.7507
孔氏曰此一節明	-11.7507
懾	-11.7508
與音預	-11.7509
囷	-11.7509
蟹	-11.7509
前期三日	-11.7514
旅衆也	-11.7519
追胥	-11.7519
寛裕	-11.7522
魏氏	-11.7522
望瘞	-11.7525
丹朱	-11.7526
食醫	-11.7527
階閒	-11.7528
度半	-11.7542
曾祖父母	-11.7549
横脊	-11.7558
餒	-11.7561
幄帟	-11.7563
缺項	-11.7564
東階下	-11.7565
註曰鄭司農云	-11.7565
兌	-11.7566
髙紫超曰	-11.7566
庚寅	-11.7567
十有六	-11.7568
子事父母	-11.7568
卑賤	-11.7569
杵	-11.757
葅	-11.7571
五十里之國	-11.7572
贅	-11.7573
龍衮	-11.7575
澤藪	-11.7575
梗	-11.7576
固以請	-11.7576
大喪共	-11.7579
媯	-11.7579
序昭穆	-11.7583
萬邦	-11.7588
父母舅姑	-11.7592
韋昭	-11.7598
庿門	-11.76
禮之常	-11.7603
阼階西	-11.7613
眾	-11.7619
禮儀使奏請	-11.7619
侇	-11.7623
思慮	-11.7624
辟正主	-11.7624
遑	-11.7625
搔	-11.7626
千八百	-11.7628
義倉	-11.763
洋洋	-11.763
切肺	-11.7631
憐	-11.7632
彗	-11.7633
櫟	-11.7637
東面南上	-11.7637
飮	-11.7638
程氏	-11.7638
縶	-11.7641
盈縮	-11.7642
魯昭公	-11.7647
史佚	-11.7649
公家之	-11.7649
奠爵于篚	-11.7654
閭里	-11.7654
粟米	-11.7656
休息	-11.7657
依命數	-11.7659
實沈	-11.7662
典絲	-11.7666
縣界	-11.7675
踰越	-11.7677
膉	-11.7678
羲	-11.7681
擯介	-11.7681
方相氏	-11.7682
跳	-11.7684
婦為舅姑	-11.7688
盡階不升堂	-11.7688
博厚	-11.7688
禮書綱目卷	-11.7689
敢問何	-11.769
翰林院	-11.7692
二百一十國	-11.7693
行冬令則	-11.7694
秅	-11.7696
伯子男	-11.7697
襢衣	-11.7698
小斂大斂	-11.7703
曲阜	-11.7705
周公制禮	-11.7707
璋瓚	-11.7712
主人之贊者	-11.7715
南北之中	-11.7716
』	-11.7719
二百五十	-11.7719
毛氏曰	-11.7723
茇	-11.7749
咳	-11.775
黷	-11.7751
受其幣	-11.7751
另	-11.7751
繼嗣	-11.7751
洛誥	-11.7752
上時掌反	-11.7753
朱綠	-11.7753
秋嘗冬烝	-11.7755
稚	-11.7755
年春王正月	-11.7756
旱暵	-11.7757
九夫為井	-11.7759
主簿	-11.776
十有二旒	-11.776
謗	-11.7761
覘	-11.7761
庚辰	-11.7762
丈夫踊	-11.7763
厭翟	-11.7764
犬豕	-11.7773
香草	-11.7774
郝氏	-11.7775
於西郊	-11.7776
酒罇	-11.7776
舅犯	-11.7781
昨日	-11.7786
。6.	-11.7793
十四度	-11.7795
翰林學士	-11.7809
鏄	-11.7811
于門西	-11.7811
出妻之子	-11.7814
罄	-11.7815
甘泉	-11.7816
龜蛇	-11.7818
㐮	-11.7818
炤	-11.7819
士與大夫	-11.782
季康子	-11.782
夫音扶	-11.782
以多為貴	-11.782
銷	-11.782
薰	-11.7822
鞂	-11.7823
骸	-11.7824
髙堂生	-11.7826
侍坐	-11.7831
浪	-11.7831
己亥	-11.7833
未滿	-11.7839
句讀	-11.7839
御史大夫	-11.7847
素弁	-11.785
十寸	-11.7851
殺戮	-11.7852
爟	-11.7866
搢笏跪	-11.7868
千里之外	-11.7871
三年喪畢	-11.7876
盛饌	-11.7877
師田行役	-11.7879
孝慈録	-11.7879
豉	-11.788
司關	-11.788
欽定禮記義疏卷	-11.788
涵	-11.7881
糜	-11.7881
叩頭	-11.7882
撟	-11.7883
屈狄	-11.7883
層	-11.7883
喜怒	-11.7883
壬寅	-11.7884
劭	-11.7884
心舌	-11.7885
敗績	-11.7885
氊	-11.7885
士虞記	-11.7887
竽笙	-11.7887
詐偽	-11.7887
庶㡬	-11.789
妾祖姑	-11.7891
瑞玉	-11.7891
璣	-11.7892
男巫	-11.7893
威武	-11.7908
孟氏	-11.7911
入閤	-11.7925
四尺四寸	-11.7925
還相為	-11.7927
蚍蜉	-11.7934
埴	-11.7935
方之色	-11.7935
小功五月	-11.7936
鼎爼	-11.7936
釜	-11.7939
纁裏	-11.7941
惠伯	-11.7943
孑	-11.7944
士昬禮	-11.7944
振容	-11.7945
猗	-11.7945
庾蔚之	-11.7946
八蜡	-11.7947
髙氏誘曰	-11.7947
正義賈氏公彦曰	-11.7947
瓦器	-11.7949
葵菹	-11.795
剝	-11.7951
虜	-11.7952
朝夕哭位	-11.7953
加于肵	-11.7954
乙未	-11.7954
未之有也	-11.7955
玉齍	-11.7956
洛邑	-11.7963
盟約	-11.7963
勉强	-11.7964
麋侯	-11.7977
靈座前	-11.7977
百九十	-11.7977
林衡	-11.7981
稽古	-11.7991
輢	-11.7997
西序東面	-11.7997
弔服加麻	-11.8003
楔齒	-11.8004
整齊	-11.8004
刼	-11.801
媺惡	-11.801
眡滌濯	-11.8011
斁	-11.8011
爇	-11.8014
髤	-11.8015
慾	-11.8015
知然者	-11.8018
裼裘	-11.802
十五升布	-11.802
宵衣	-11.8028
鐘鼔	-11.8031
閾外	-11.8033
疾趨	-11.8033
各就其	-11.8043
扶持	-11.8051
耤	-11.8057
各當其	-11.8064
寧之曲	-11.8067
跣	-11.8069
滓	-11.8069
素委貌	-11.8071
大喪廞	-11.8071
臨川王氏曰	-11.8073
十四分	-11.8074
螟	-11.8074
蔓	-11.8074
勾芒	-11.8075
寂	-11.8075
晳	-11.8076
儳	-11.8077
降殺以兩	-11.8078
三禮圖	-11.8078
千畝	-11.8078
岷	-11.8079
侈袂	-11.8079
嫡孫	-11.8081
户牖之間	-11.8081
白牡	-11.8092
畫繢	-11.8093
魯莊公	-11.8093
親踈	-11.8093
昔酒	-11.8096
闗市	-11.8099
長幼之序	-11.8099
魯哀公	-11.8101
官府都鄙	-11.8118
拂几	-11.8118
設薦俎	-11.8121
鸞和	-11.8127
笫	-11.8128
晞	-11.8129
明㑹典	-11.8134
好呼報反	-11.8135
慘	-11.8135
袝	-11.8136
房中之羞	-11.8136
德行道藝	-11.8137
㐫	-11.8137
秣	-11.8138
絅	-11.814
鉉	-11.8142
鹵	-11.8143
才藝	-11.8149
祖之所自出	-11.8154
司爟	-11.8156
光祿	-11.8156
夷牀	-11.8156
籥章	-11.8167
尺三寸	-11.8169
曰臣聞	-11.8173
隂陽之氣	-11.8175
古昔	-11.8178
天子視學	-11.818
條理	-11.8181
廣雅	-11.8189
齊桓公	-11.8192
食菜果	-11.8194
食肉飲酒	-11.8195
御史臺	-11.8197
丙寅	-11.8199
􁉛	-11.8201
駙	-11.8201
縞冠素紕	-11.8202
疲	-11.8202
箎	-11.8203
陪位	-11.8204
護	-11.8204
幞頭	-11.8205
禆冕	-11.8206
餅	-11.8206
桁	-11.8207
淆	-11.8207
砥	-11.8212
括髮袒	-11.8214
布幕	-11.8215
各服其服	-11.8217
檜	-11.8219
財貨	-11.8219
楹閒	-11.822
艱難	-11.8223
哀公問	-11.8225
勲勞	-11.8226
追逺	-11.823
庶昆弟	-11.8235
肺石	-11.8235
擊鼔	-11.8235
共奉之	-11.8248
廣四寸	-11.8252
兼服之	-11.8252
警衆	-11.8252
鄰長	-11.8262
樿	-11.8263
鍜	-11.8264
旊	-11.8265
㤗	-11.8266
壑	-11.8266
晉書天文志	-11.8266
明齋王氏曰	-11.8267
斾	-11.8267
撮	-11.8269
禍烖	-11.827
行秋令則	-11.8271
牧野	-11.8272
佃	-11.8272
頖宫	-11.8272
下大夫四人	-11.8272
注釋曰鄭知	-11.8275
主婦亞獻	-11.8285
飲卒爵	-11.8286
方一里	-11.8291
九十弓	-11.8297
南北向	-11.8299
穆叔	-11.8309
答拜受爵	-11.8313
囯	-11.8323
刷	-11.833
建子之月	-11.8331
飱牽	-11.8333
冨	-11.8333
土地之圖	-11.8335
舘	-11.8335
挂	-11.8335
贊者承傳	-11.8335
欬	-11.8336
乙卯	-11.8337
以竹為之	-11.8337
頼	-11.8337
王與后	-11.834
匠師	-11.8341
癸巳	-11.8341
鈔	-11.8343
先行燕禮	-11.8343
椹質	-11.8344
思慕	-11.8352
尤甚	-11.8372
玉輅	-11.8378
户竈	-11.8386
楷	-11.8394
㰱	-11.8397
縠	-11.8398
吞	-11.8399
六畜車輦	-11.84
菁菹	-11.8401
壬辰	-11.8401
鈍	-11.8401
門右北面	-11.8402
裝	-11.8402
紖	-11.8402
宋衛湜撰	-11.8404
聊	-11.8404
賚	-11.8405
莠	-11.8405
燾	-11.8408
昬姻	-11.8408
隼	-11.8412
大夫三廟	-11.8415
林鐘	-11.842
五十畝	-11.8421
哭成踊	-11.8425
黨正飲酒	-11.8436
鄭氏釋	-11.8443
永嘉	-11.8446
罇罍	-11.8451
殤與無後	-11.8467
綽	-11.8468
饎爨	-11.8469
朌	-11.847
守王宫	-11.8471
西東向	-11.8471
哀子某	-11.8473
棺束	-11.8473
汗	-11.8475
二昭二穆	-11.8478
二年二月	-11.8479
攫	-11.8481
坡	-11.8481
十一飯	-11.8488
萬井	-11.8494
長九寸	-11.8497
氣至則	-11.8498
0	-11.8512
?	-11.8514
逋	-11.8521
振動	-11.8523
歉	-11.8526
鈇鉞	-11.8527
側階	-11.8527
鄭剛中曰	-11.8529
旞	-11.8533
鹿皮	-11.8535
掾	-11.8537
䜴	-11.8537
其孰能	-11.8541
侍御史	-11.8542
答一拜	-11.8542
纚笄	-11.8543
宋陳祥道撰	-11.8545
飲不勝者	-11.8545
同姓異姓	-11.8546
溝瀆	-11.8548
强弱	-11.8548
己酉	-11.8553
小國之卿	-11.8554
有二種	-11.8555
脯脩	-11.8561
動静	-11.8561
分之一	-11.8561
冢婦	-11.8563
煎和	-11.8567
加于俎	-11.8568
再娶	-11.8568
勝負	-11.8572
范氏	-11.8576
求諸隂	-11.8587
周禮天官	-11.8595
幃	-11.8597
搢大圭	-11.8597
胉	-11.8598
鞉	-11.8601
衎	-11.8602
戀	-11.8603
詢衆庶	-11.8604
丁酉	-11.8605
鼖鼓	-11.8605
擢	-11.8607
緆	-11.8607
襟	-11.8607
熒	-11.861
尊而不親	-11.8613
祝酌奠	-11.8614
澶	-11.8615
餘方百里者	-11.8619
甸師氏	-11.8621
周禮大宗伯	-11.8627
鹿盧	-11.8628
尸酢主人	-11.8634
戰勝	-11.8648
壬子	-11.8651
通事舍人	-11.8658
黏	-11.8662
洗升酌	-11.8663
醳	-11.8665
王先生曰	-11.8667
鐡	-11.8668
還罇所	-11.867
以北為上	-11.8671
皮弁素積	-11.8671
分緯北	-11.8673
蹶	-11.8673
脡脊	-11.8673
各本訛作	-11.8674
周禮訂義卷	-11.8674
堩	-11.8675
軍旅㑹同	-11.8675
貼	-11.8676
炬	-11.8679
顔淵	-11.868
瘳	-11.8683
醍齊	-11.8687
無正文故	-11.8688
遷徙	-11.8699
丘甸	-11.87
十有四	-11.8701
陪臣	-11.8707
目録	-11.8709
黃帝	-11.8711
禮記郊特牲	-11.8711
典籍	-11.8712
𨽻僕	-11.8715
特牲記	-11.8716
左臂	-11.8718
遼東	-11.872
賦税	-11.8725
澡麻	-11.8733
榜	-11.8735
諮	-11.8738
拙	-11.8739
夹	-11.874
蒨	-11.874
不貳斬	-11.874
大司成	-11.8741
分緯南	-11.8742
徭役	-11.8742
以某妃配某氏	-11.8742
琬圭	-11.8742
大國之孤	-11.8743
鏡	-11.8745
欄	-11.8746
哲宗	-11.8746
畫雲氣	-11.8747
以肝從	-11.8748
異爵者	-11.8749
丹陛	-11.8749
未之聞	-11.8752
郕	-11.8753
券	-11.8753
慈惠	-11.8768
孔䟽	-11.8769
待賓客	-11.8771
無以異	-11.8775
君牽牲	-11.8778
宗彝	-11.878
東箱	-11.8793
踊無算	-11.8796
查	-11.8802
蝸	-11.8803
鎬	-11.8806
陳君舉曰	-11.8807
祭于豆間	-11.8808
培	-11.8809
募	-11.881
匰	-11.881
插	-11.881
丙戌	-11.8811
敞	-11.8812
殛	-11.8814
即皇帝位	-11.8815
南北以堂深	-11.8815
甯	-11.8816
其山鎮曰	-11.8818
閻	-11.8818
杜蕢	-11.8819
阪	-11.8819
沱	-11.882
芥	-11.8821
龜筴	-11.8822
鉤楹	-11.8823
有君道	-11.8831
揖譲	-11.8833
大濩	-11.8834
嵗一見	-11.8838
罍洗	-11.8843
:『	-11.8843
節度使	-11.8844
各就位	-11.8845
殊不知	-11.8849
孫為祖	-11.8851
鴻臚寺	-11.8873
喧	-11.8877
靑	-11.8877
樞宻院	-11.8878
揷	-11.8878
撤	-11.8879
髢	-11.888
莅	-11.8882
騑	-11.8884
龡	-11.8885
腯	-11.8886
逞	-11.8887
匙	-11.8888
煦	-11.8889
饗食燕	-11.889
階西東面	-11.8891
六十四井	-11.8893
聘禮記	-11.8905
如尸禮	-11.8906
卿大夫之妻	-11.8921
制禮作樂	-11.8922
彄	-11.8941
娣姒	-11.8943
㒒	-11.8944
簇	-11.8944
贊禮者引	-11.8944
茲	-11.8945
醍	-11.8947
乙巳	-11.8949
誡	-11.8949
髠	-11.8949
驁	-11.8951
犂	-11.8952
險阻	-11.8953
大裘而冕	-11.8953
閼	-11.8954
五百家	-11.8954
廣袤	-11.8955
廻	-11.8956
浦	-11.8956
擊拊	-11.8956
扣	-11.8957
亳社	-11.8961
迎于門外	-11.8968
躬耕	-11.8976
慶賞	-11.8984
路門之外	-11.9
奠鴈	-11.9002
韐	-11.9011
鳴鞭	-11.9013
斈	-11.9014
羊肉湇	-11.9017
詳見喪	-11.9019
初一刻	-11.902
樞密	-11.902
袡	-11.9022
騷	-11.9023
講義曰	-11.9026
虎蜼	-11.9028
儻	-11.9028
鄴	-11.9029
椸	-11.903
洮	-11.9031
飴	-11.9031
度中旦	-11.9035
閽	-11.9037
四望山川	-11.9042
如主人服	-11.9046
恩惠	-11.9049
饋食之豆	-11.9066
閒傳	-11.9066
形鹽	-11.9067
綃衣	-11.9082
世父母叔父母	-11.9085
壬戌	-11.9088
肝膋	-11.9091
辝	-11.9092
揃	-11.9093
風師雨師	-11.9094
方慤曰	-11.9094
盲	-11.9095
舞大夏	-11.9095
鴻臚	-11.9096
熏	-11.9097
迓	-11.9098
下及注同	-11.9098
彜	-11.9098
隄	-11.9098
鄊	-11.9098
升自東階	-11.91
鰭	-11.91
孔穎達	-11.9101
坐奠觶遂拜執觶興	-11.9102
羲和	-11.9103
竒衺	-11.9103
眼	-11.9105
曲沃	-11.9108
趙盾	-11.9108
縱横	-11.9115
酌盎齊	-11.9122
商頌	-11.9125
!	-11.9148
車之輪	-11.9153
䐑	-11.916
鹿臡	-11.9164
狭	-11.9164
槱燎	-11.9164
盝	-11.9165
篹	-11.9166
侏儒	-11.9166
癸丑	-11.9166
啜	-11.9167
梧	-11.9168
苞筲	-11.917
藝文志	-11.9171
縑	-11.9171
捝	-11.9171
擊柝	-11.9172
羔豚	-11.9178
蓐	-11.9178
酌鬱鬯	-11.9179
十一體	-11.9192
蕙田案以上記	-11.9198
輴車	-11.9211
分獻官	-11.9221
梡	-11.9232
帖	-11.9233
俸	-11.9233
嶡	-11.9233
䧏	-11.9234
琬	-11.9235
壮	-11.9235
譴	-11.9235
挍	-11.9238
眇	-11.9238
蔥	-11.9239
炳	-11.924
東方之饌	-11.9241
鑣	-11.9243
次賔羞	-11.9244
亞祼	-11.9244
餞尸	-11.9248
妬	-11.925
悖逆	-11.9253
司險	-11.9257
出請入告	-11.9267
隆慶	-11.9271
癸未	-11.9282
褖	-11.9299
初初刻	-11.9299
節服氏	-11.9305
薤	-11.9305
俯伏興平身	-11.9309
柱楣	-11.931
姑姊	-11.931
囬	-11.9312
五家為比	-11.9312
大王王季	-11.9312
含襚	-11.9313
飪一牢	-11.9314
黄門侍郎	-11.9315
孔頴達	-11.9315
隋書禮儀志	-11.9315
由是觀之	-11.9316
挩手	-11.9318
脾析	-11.9319
中士四人下士八人	-11.9324
淵泉	-11.9325
小兒	-11.9335
降服大功	-11.934
今注疏本	-11.9342
報魄	-11.9343
刑戮	-11.9345
注正義曰案	-11.9346
先後之序	-11.9354
萬七千	-11.9376
骹	-11.9379
垂拱	-11.938
蒼梧	-11.938
羣廟之主	-11.9383
别彼列反	-11.9384
為祖後者	-11.9384
簒	-11.9384
鼠	-11.9384
復扶又反	-11.9384
綢	-11.9385
警蹕	-11.9386
鍔	-11.9386
畚	-11.9386
周南召南	-11.9387
行夏令則	-11.9387
須臾	-11.9389
着	-11.939
漕	-11.939
紡	-11.939
懌	-11.9391
踖	-11.9392
䰞	-11.9393
不命之士	-11.9393
葺	-11.9395
慶賀	-11.9396
羞進也	-11.9398
孔氏穎達曰此明	-11.9398
無聲之樂	-11.9399
詹事	-11.9402
興賢能	-11.9405
第四十	-11.9424
大祀天地于南郊	-11.9448
十餘年	-11.945
喚	-11.945
仂	-11.9453
掔	-11.9454
睦婣	-11.9454
襯	-11.9455
塲	-11.9455
闡	-11.9458
設官分職	-11.9458
之氣乗之也	-11.9459
詣罍洗	-11.9459
肆獻祼	-11.9459
啇	-11.9459
父母妻長子	-11.946
納采問名	-11.9461
第三十	-11.9461
曼	-11.9462
舁	-11.9463
趺	-11.9463
丙辰	-11.9464
㛰	-11.9465
誑	-11.9469
九嬪世婦	-11.9471
中斗建	-11.9472
庚申	-11.9472
三升半	-11.9475
誦詩	-11.9481
以此推之	-11.9497
麴	-11.9526
徬	-11.9527
彈琴	-11.9527
芸	-11.9528
息老物	-11.9528
掛	-11.9529
𤣥衣纁裳	-11.9529
野廬氏	-11.953
胡氏銓曰	-11.953
牀笫	-11.9532
稀	-11.9532
稜	-11.9533
褰	-11.9533
阼階上西面	-11.9534
均其稍食	-11.9536
瑣	-11.9537
逡遁	-11.9537
當室之白	-11.9537
眞	-11.9537
事死如事生	-11.9539
侃	-11.9539
㧞	-11.954
塪	-11.9543
無體之禮	-11.9547
牲牷	-11.9552
律呂	-11.9556
輔氏曰	-11.9562
帥而至	-11.9571
十丈	-11.9599
北壁	-11.9599
二年八月	-11.9601
霜降	-11.9606
矇	-11.9606
宋兩朝天文志	-11.9607
司尊彝	-11.9608
菅屨	-11.9609
篪	-11.9609
糓	-11.9611
􁏐	-11.9611
疵	-11.9612
元年春正月	-11.9613
五世則遷	-11.9614
俯仰	-11.9614
還音旋	-11.9614
揖遜	-11.9615
疈	-11.9615
孝悌	-11.9615
禾稼	-11.9615
聦	-11.9616
丙申	-11.9618
疾疫	-11.9619
劇	-11.9621
驪姬	-11.9623
濵	-11.9624
鄉飲鄉射	-11.9625
己卯	-11.9632
祗候	-11.9635
西階之東	-11.9644
以下皆再拜	-11.9656
。3.	-11.9677
髲	-11.9681
於五禮屬	-11.9682
儗	-11.9682
上公九命	-11.9682
䘮服小記	-11.9684
縈	-11.9684
壎	-11.9684
盧植	-11.9684
今律文	-11.9685
甎	-11.9685
負薪	-11.9685
詆	-11.9688
晡	-11.9688
譁	-11.9688
屛	-11.9688
觥	-11.9691
構	-11.9691
焞	-11.9692
百寮	-11.9693
趙文子	-11.9695
西序端	-11.9698
東南隅	-11.9704
頖	-11.9744
挋	-11.9755
綠	-11.9756
感生帝	-11.9757
摘	-11.9758
馮相氏	-11.9758
訴	-11.9759
鳥隼	-11.9759
軟	-11.9759
以韋為之	-11.976
娩	-11.976
亞終獻	-11.9761
悽愴	-11.9762
禇	-11.9762
聚柝	-11.9762
麇	-11.9763
陌	-11.9763
日有食之	-11.9766
金縢	-11.9767
潤澤	-11.9773
湅	-11.9776
詛祝	-11.9777
季友	-11.9789
貔	-11.9821
案今注疏	-11.9825
讇	-11.9826
斉	-11.9827
大中祥符	-11.983
閽寺	-11.9833
瑶	-11.9834
司尊彞	-11.9836
籑	-11.9836
慙	-11.9836
飯告飽	-11.9836
鶴	-11.9837
擗	-11.9837
比毗志反	-11.9837
廓	-11.9837
報本反始	-11.9837
仭	-11.9838
婦見舅姑	-11.9838
茹	-11.984
幡	-11.984
鎬京	-11.9841
𤣥㝠	-11.9841
觵	-11.9842
優劣	-11.9842
㤀	-11.9843
以西為上	-11.9845
沴	-11.9846
堲周	-11.9846
有明文	-11.9847
獺祭魚	-11.9848
􁐋	-11.9849
轉運	-11.9849
釘	-11.985
椽	-11.985
戸牖	-11.9851
載旜	-11.9852
肉湆	-11.9852
十有九	-11.9862
不敢斥	-11.9865
河南府	-11.9874
謖	-11.99
女之父母	-11.9907
乱	-11.9911
四井為邑	-11.9911
絞紟衾	-11.9914
皓	-11.9914
卒哭成事	-11.9915
樛	-11.9916
槃匜	-11.9917
遁	-11.9917
煥	-11.9918
泠	-11.9918
驚蟄	-11.9918
葉氏夢得曰	-11.9921
鞀	-11.9924
君與夫人	-11.9925
臟	-11.9926
古亂反	-11.9926
澗	-11.9927
驅逆之車	-11.993
不可不慎	-11.9931
元年二月	-11.9934
作起也	-11.9939
太祖太宗	-11.994
帗	-11.9964
袤	-11.9984
柝	-11.9984
寃	-11.9988
禒衣	-11.9991
涖臨也	-11.9992
籩豆簠簋	-11.9993
甸稍縣都	-11.9993
無服之殤	-11.9994
羊肉湆	-11.9994
牂	-11.9995
娣姒婦	-11.9996
董仲舒	-11.9996
傋	-11.9996
拜妥尸	-11.9997
忠恕	-11.9997
􁈘	-11.9998
禺	-11.9998
賈誼	-11.9998
禮神之玉	-11.9998
入天子之國	-11.9998
渥	-11.9999
蟜	-12
莱	-12
肺肝	-12.0001
羽旄	-12.0003
以當邦賦	-12.0004
尊卑之差	-12.0012
阱	-12.0017
内贊奏	-12.0062
騁	-12.0066
蚩尤	-12.0068
皇天上帝	-12.0069
杅	-12.007
太樂令	-12.007
緡	-12.007
泯	-12.0071
周氏諝曰	-12.0071
園圃	-12.0075
輮	-12.0075
卝	-12.0076
遯	-12.0076
氾	-12.0076
㝷	-12.0078
搢三挾一个	-12.0078
哨	-12.0078
徐邈	-12.0079
豺	-12.008
售	-12.0083
閉塞	-12.0084
賢不肖	-12.0085
大祖之廟	-12.0087
秘書	-12.009
練而歸	-12.0119
明史禮志	-12.014
䄠	-12.0145
顙	-12.0147
蹇	-12.0147
韔	-12.015
上尊號曰	-12.0151
換	-12.0152
兩階之間	-12.0152
春祠夏禴	-12.0153
當前束	-12.0153
朂	-12.0153
黍稷稻粱	-12.0153
琅	-12.0155
㲈	-12.0155
叱	-12.0156
攜	-12.0156
場圃	-12.0157
仲尼燕居	-12.0157
麛裘	-12.0157
褧	-12.0157
腠	-12.0158
干盾	-12.0158
不反兵	-12.0159
釋曰自此至	-12.0163
皇祐	-12.0166
廟之主	-12.0167
注釋曰先鄭	-12.0172
變三年之葛	-12.0219
椹	-12.0219
桎	-12.0223
肖	-12.0224
瑚	-12.0225
剔	-12.0226
駱	-12.0227
登其夫家	-12.0227
鵲巢	-12.0229
輔氏廣曰	-12.0229
歌清廟	-12.023
縦	-12.023
酋矛	-12.023
愁	-12.023
洗在北堂	-12.0231
縪	-12.0232
詡	-12.0232
怠惰	-12.0234
逓	-12.0235
毁瘠	-12.0235
夷矛	-12.0236
佗	-12.0236
跋	-12.0237
忝	-12.0238
秸	-12.0238
閫	-12.0238
司嗇	-12.0238
譚	-12.0239
抄	-12.0239
犯軷	-12.0239
横渠	-12.0245
豳詩	-12.0246
汴	-12.025
徑一尺	-12.0287
揄翟	-12.0301
疚	-12.0306
參分庭一在南	-12.0308
昃	-12.031
通論陳氏祥道曰	-12.031
交龍為旂	-12.0311
未知孰是	-12.0311
詎	-12.0312
俊選	-12.0312
舉旅行酬	-12.0313
潜	-12.0315
薦血腥	-12.0315
齊側皆反	-12.0316
賖	-12.0317
召誥	-12.0317
鄢	-12.0319
薊	-12.032
鄆	-12.0321
啓蟄	-12.0322
臆説	-12.0328
􁆴	-12.0328
徒百有二十人	-12.0383
撢	-12.0384
􁈹	-12.0384
剏	-12.0386
太常禮院	-12.0388
上士二人中士四人府二人史四人	-12.0391
朔鼙	-12.0392
宼	-12.0392
隄防	-12.0392
雹	-12.0393
下士二人府一人史一	-12.0395
淪	-12.0395
隻	-12.0395
從才用反	-12.0397
曰孝孫某	-12.0397
𤯝	-12.0397
出自東房	-12.0398
焚香	-12.0399
谿	-12.0402
麤細	-12.0402
暘	-12.0402
開封府	-12.0404
窻	-12.0404
有似於	-12.0407
吕氏春秋	-12.0409
門内之右	-12.0429
中士四人下士八人府二人史四人	-12.0451
寸八分	-12.0464
覸	-12.047
太祖本紀	-12.0473
䞓	-12.0474
招摇	-12.0474
鼛	-12.0475
粻	-12.0475
靧	-12.0476
逝	-12.0477
洙	-12.0477
籔	-12.0477
春夏秋冬	-12.0478
建焉而辰在	-12.0478
躋僖公	-12.0478
朗	-12.048
薇	-12.0481
渙	-12.0481
門東北面西上	-12.0481
彚	-12.0484
孝經緯	-12.0486
季札	-12.0488
器皿	-12.0493
奉先殿	-12.0498
東楹之西	-12.05
户西南面	-12.0508
俟時而	-12.0532
蠯	-12.0555
朱子語類	-12.0556
養國老	-12.0556
以為民極	-12.0559
西牆下	-12.0559
去起吕反	-12.0561
扃鼏	-12.0562
栭	-12.0563
肌	-12.0564
彖	-12.0565
太常卿奏請	-12.0565
鍚	-12.0565
衝牙	-12.0565
閟宫	-12.0568
律厯志	-12.0568
詩書禮樂	-12.0573
月而卒哭	-12.0591
斟	-12.0623
焫蕭	-12.0627
淖	-12.0632
轛	-12.0634
交擯三辭	-12.0636
景靈宫	-12.0637
尨	-12.0638
期而小祥	-12.0639
挟	-12.064
邈	-12.064
曩	-12.0641
如字徐	-12.0642
恙	-12.0642
寖	-12.0643
膷臐膮	-12.0644
屨無絇	-12.0644
燮	-12.0645
司馬降釋弓	-12.0645
窬	-12.0646
入門而右	-12.065
女子許嫁	-12.065
卞	-12.0652
咡	-12.0656
憃	-12.0659
堤	-12.066
自然之理	-12.0668
叄	-12.0702
韲	-12.0708
􁊾	-12.0709
揺	-12.0712
旬有一日	-12.0718
復初位	-12.0721
薑	-12.0723
縂	-12.0723
小聘曰問	-12.0724
國子之倅	-12.0724
淨	-12.0725
䕃	-12.0725
闓	-12.0725
蟠	-12.0725
刑部尚書徐乾學撰	-12.0726
伉	-12.0726
聃	-12.0727
眩	-12.0728
婺	-12.0728
嗣舉奠	-12.073
交於神明	-12.073
蜎	-12.0732
渝	-12.0735
翮	-12.0737
二百一十六	-12.0737
潁川	-12.074
。《	-12.078
彭蠡	-12.0793
千七百	-12.0798
趙商問	-12.0798
澹	-12.0802
存異鄭氏康成曰	-12.0806
禮記集說卷	-12.0809
捶	-12.0811
唁	-12.0811
澆	-12.0812
坦	-12.0812
黽	-12.0814
禘郊祖宗	-12.0814
梲	-12.0814
躔	-12.0823
乗墨車	-12.0823
車一乗	-12.0824
盬	-12.0825
伐紂	-12.0825
卿六命	-12.0832
千五百里	-12.0834
滄	-12.0835
西方東面北上	-12.0841
羊豕魚腊	-12.087
而斗建	-12.0881
嶽鎮海瀆	-12.0883
侀	-12.0889
暉	-12.089
鷺	-12.0891
兑	-12.0891
倖	-12.0894
秬黍	-12.0895
詒	-12.0895
溽	-12.0895
溝渠	-12.0896
來觀禮	-12.0897
晝漏	-12.0897
稠	-12.0898
罹	-12.0898
汲汲	-12.0899
靁	-12.0899
西向北上	-12.0899
匈奴	-12.09
穡	-12.09
鑽	-12.0901
刳	-12.0902
螢	-12.0906
東西廂	-12.0907
髙祖之父	-12.0909
鑚	-12.091
嶓	-12.0915
内矩分	-12.0967
朔月月半	-12.0972
輂	-12.0973
王日一舉	-12.0974
共工氏	-12.0977
黝堊	-12.0977
梐枑	-12.0979
挈壺氏	-12.098
宋史天文志	-12.0981
􁇲	-12.0981
凷	-12.0982
疈辜	-12.0983
瞽瞍	-12.0983
崔靈恩	-12.0983
三公八命	-12.0985
菱	-12.0986
晁	-12.0986
出門左西面	-12.0987
鱻	-12.0989
吾從周	-12.0989
三分損益	-12.0991
散騎常侍	-12.0992
葛絰帶	-12.0993
與彼同	-12.1
濩	-12.1039
鋌	-12.1057
如何不淑	-12.1059
祝命佐食	-12.106
髺髮	-12.1062
糗餌粉餈	-12.1063
諦	-12.1065
四圭有邸	-12.1066
禘其祖之所自出	-12.1066
芥醬	-12.1068
知音智	-12.1068
恂	-12.1069
五分去一	-12.1069
祴	-12.1071
蠃醢	-12.1071
通論孔氏穎達曰	-12.1072
王居明堂禮	-12.1073
驩	-12.1073
芽	-12.1073
謐	-12.1073
嘻	-12.1074
邳	-12.1077
脊脅肺	-12.1077
河間獻王	-12.1078
恬	-12.1078
璁	-12.1078
渚	-12.1081
鯉	-12.1146
奉天殿	-12.1148
北向西上	-12.1149
儕	-12.1149
闔牖户	-12.115
茫	-12.115
大報天而主日	-12.1151
移風易俗	-12.1153
邕	-12.1155
哭不絶聲	-12.1155
祛	-12.1155
桀紂	-12.1155
廼	-12.1155
皡	-12.1155
肫胳	-12.1156
骴	-12.1156
劬	-12.1158
禮記集説卷	-12.1159
鍪	-12.1159
洗升實觶	-12.1159
蘓	-12.116
錮	-12.116
斑	-12.1161
焄	-12.1162
規模	-12.1164
仄	-12.1165
杏	-12.1165
桷	-12.1166
入公門	-12.1191
刌肺	-12.12
捌	-12.1217
衣而養老	-12.1223
捐	-12.1237
庋	-12.124
駵	-12.124
之氣乘之也	-12.124
簨虡	-12.1241
床	-12.1242
樴	-12.1243
飲射爵	-12.1243
父之所不降	-12.1244
哀未忘	-12.1244
鬽	-12.1244
剰	-12.1245
四閭為族	-12.1245
肸	-12.1246
鳯凰	-12.1246
匽	-12.1247
袒决遂	-12.1248
戊戌	-12.1249
千九百	-12.1249
􁀎	-12.1249
七十里之國	-12.1249
匄	-12.1249
組綬	-12.1251
恢	-12.1251
翿旌	-12.1255
淇	-12.1257
年春二月	-12.1265
曵	-12.1315
献	-12.1322
稔	-12.1325
璋瓉	-12.1326
裙	-12.1326
醷	-12.1328
脆	-12.1331
適士二廟	-12.1332
治直吏反	-12.1333
鑾駕	-12.1333
燈	-12.1333
陳及之曰	-12.1334
存疑賈氏公彦曰	-12.1336
吏部尚書	-12.1336
沭	-12.1336
繻	-12.1336
兕觥	-12.1337
瘦	-12.1338
洎	-12.1338
饘	-12.1338
瀦	-12.1338
桎梏	-12.1339
腶脩	-12.1339
闗雎	-12.1339
君行一臣行二	-12.1341
崧	-12.1341
剖	-12.1341
杜佑	-12.1342
翹	-12.1343
紾	-12.1344
臬	-12.1345
西南隅	-12.1346
月而禫	-12.1371
三年之練	-12.14
夾庾	-12.1415
奠于薦南	-12.1417
茭	-12.1417
莢	-12.142
曲裾	-12.1422
中士二人下士四人府二人史二人	-12.1423
逵	-12.1424
郯	-12.1424
汧	-12.1425
睫	-12.1425
欵	-12.1425
疥	-12.1425
呉氏澄曰	-12.1426
負東塾	-12.1426
尊祖故敬宗	-12.1426
享嘗乃止	-12.1426
媿	-12.1427
盂	-12.1428
趙簡子	-12.1428
囹圄	-12.1428
直室東隅	-12.1429
覃	-12.1429
彩	-12.143
及其死也	-12.1432
年秋八月	-12.1434
跨	-12.1434
王及后	-12.1436
尚書大傳	-12.1438
窟	-12.1439
君與臣	-12.1464
年河決	-12.1472
。4.	-12.1504
悝	-12.1506
𧖟	-12.1508
重直龍反	-12.1509
日南至	-12.1509
綅	-12.151
伶	-12.1511
妾為女君	-12.1514
苐	-12.1514
諛	-12.1515
漠	-12.1515
迎長日之至	-12.1515
墐	-12.1515
葛覃	-12.1516
阜蕃	-12.1516
貊	-12.1517
介逆出	-12.1517
嘽	-12.1517
栽	-12.1518
天皇大帝	-12.1518
遷廟之主	-12.1519
顛倒	-12.1519
於序端	-12.1522
摳	-12.1524
靮	-12.153
碣	-12.1536
勝國之社	-12.1537
存疑孔氏穎達曰	-12.1543
丈三尺	-12.1544
門下侍郎	-12.1552
喝	-12.1595
幎目	-12.1595
渴	-12.1596
翻	-12.1602
轐	-12.1602
屬音燭	-12.1604
吟	-12.1605
播鼗	-12.1607
雋	-12.161
埒	-12.1611
翿	-12.1611
棠	-12.1611
瘍醫	-12.1612
洋	-12.1612
鬰鬯	-12.1613
不亦可乎	-12.1613
踦	-12.1614
大學在郊	-12.1615
腦	-12.1619
年夏五月	-12.1628
得與於祭	-12.1633
天子至士	-12.1671
條狼氏	-12.1684
南流至	-12.1685
矰矢	-12.1689
當事則弁絰	-12.1693
評	-12.1693
文端公	-12.1694
韭菹醓醢	-12.1695
懽	-12.1696
聵	-12.1697
射鳥氏	-12.1697
椒	-12.1698
薛平仲曰	-12.1698
魏文侯	-12.1699
軰	-12.1699
蒼璧禮天	-12.17
奏外辦	-12.1702
沾	-12.1702
尸未入	-12.1702
棼	-12.1702
竪	-12.1703
不亦宜乎	-12.1704
浚	-12.1704
儀禮經傳通解	-12.1705
莘	-12.1708
焚萊	-12.1714
䜛	-12.1714
絃散聲	-12.1723
。2.	-12.1772
輖	-12.178
醙	-12.1784
檠	-12.1784
肆之三日	-12.1789
持弓矢審固	-12.179
六代之樂	-12.179
士二人府一人史二人徒四人	-12.179
変	-12.179
保章氏	-12.179
戮其犯命者	-12.179
瞢	-12.1792
朔日有食之	-12.1792
寢苫枕塊	-12.1793
婦事舅姑	-12.1794
加元服	-12.1794
枳	-12.1794
羆	-12.1794
明集禮	-12.1795
菴	-12.1796
酷	-12.1797
百辟卿士	-12.1799
既葬而除	-12.1799
唾	-12.1799
揲	-12.1801
侏	-12.1807
駑	-12.1808
而不自知	-12.1817
拂闑	-12.1832
中士二人下士四人府二人史	-12.1867
冠繩纓	-12.1878
為位而哭	-12.1882
啻	-12.1882
世父叔父	-12.1883
喪服四制	-12.1885
建亥之月	-12.1885
蔡氏徳晉曰	-12.1886
袠	-12.1886
趍	-12.1886
上士四人中士八人下士十有六人	-12.1887
僬	-12.1889
共音恭	-12.1889
鄉許亮反	-12.189
天子適諸侯	-12.1894
灸	-12.1895
瑀	-12.1895
啟蟄	-12.1897
擭	-12.1912
拜既爵	-12.193
在位官皆再拜	-12.1974
敢昭告于	-12.1974
小聘使大夫	-12.1977
蠢	-12.1977
㦯	-12.1978
椅	-12.198
中丁仲反	-12.198
婺源江永撰	-12.1981
與女君同	-12.1982
稲	-12.1982
嗚	-12.1983
纖	-12.1983
湊	-12.1983
籩豆之薦	-12.1983
物猶事也	-12.1984
慿	-12.1984
囏阨	-12.1984
迤	-12.1985
朝音潮	-12.1985
甓	-12.1985
獄弊訟	-12.1985
攀	-12.1987
欽定四庫全書禮記集説卷	-12.1987
西墉下	-12.1988
鬌	-12.1988
萇	-12.1989
澌	-12.1989
怯	-12.1989
鍰	-12.1992
鄣	-12.1992
孛	-12.1993
韓宣子	-12.1994
於序東	-12.1998
砌	-12.2006
郡治今	-12.2041
㓂	-12.2065
州長黨正	-12.2068
鳧	-12.2072
不知神之所在	-12.2073
㸔	-12.2075
繼父同居	-12.2075
癸卯	-12.2075
麷	-12.2076
芋	-12.2077
璆	-12.2079
迺	-12.208
沓	-12.2081
騂犢	-12.2081
櫓	-12.2082
咺	-12.2082
狠	-12.2083
周公攝政	-12.2083
蓏	-12.2083
認	-12.2085
張氏虙曰	-12.2085
宗人告事畢	-12.2085
氏下士一人徒二人	-12.209
投壷	-12.2094
年夏六月	-12.21
百餘里	-12.2101
朝服十五升	-12.215
傳曰何以大功也	-12.2165
蛾	-12.2165
府四人史八人胥八人徒八十人	-12.2167
疏食水飲	-12.2169
䊷	-12.217
靲	-12.2174
袞	-12.2176
應龍曰	-12.2176
夾王車	-12.2177
餐	-12.2178
欘	-12.2178
致爵于主婦	-12.2178
慈母如母	-12.2178
某侯某	-12.2179
窄	-12.218
橘	-12.218
蜂	-12.2181
毉	-12.2185
縜	-12.2185
老耼	-12.2189
駘	-12.219
催	-12.2259
詣盥洗位	-12.2261
楽	-12.2263
轘	-12.2269
三揖三讓	-12.2269
舊唐書禮儀志	-12.2269
幎	-12.227
昻	-12.2272
鷃	-12.2275
劄	-12.2275
莫大焉	-12.2276
次賓羞	-12.2276
孩	-12.2276
掬	-12.2277
琚	-12.2277
芻秣	-12.2278
岡	-12.2278
諍	-12.2278
束帛乗馬	-12.2279
磋	-12.2281
嫗	-12.2283
槷	-12.2284
􁅯	-12.2284
滫	-12.2287
題湊	-12.2288
玖	-12.231
蹜	-12.2358
纁袡	-12.236
祈福祥	-12.2362
唯公所賜	-12.2365
引禮引	-12.2367
襵	-12.2369
燥濕	-12.2369
沃尸盥	-12.237
何氏楷曰	-12.2371
躡	-12.2372
枇	-12.2372
琅邪	-12.2372
年不順成	-12.2372
啗	-12.2372
僮	-12.2373
慄	-12.2373
鑾	-12.2374
朱干玉戚	-12.2374
拯	-12.2375
迪	-12.2375
摠	-12.2376
株	-12.2377
旺	-12.2378
玦	-12.2378
通論賈氏公彦曰	-12.2379
伎	-12.238
不過乎物	-12.2383
橛	-12.2386
霄	-12.2389
萬六千	-12.2425
揖讓而升	-12.2428
蔟	-12.2448
10	-12.2461
醓	-12.2462
霧	-12.2466
謫	-12.2468
俎釋三个	-12.2469
王氏昭禹曰	-12.2469
宄	-12.247
昂	-12.2471
輶	-12.2471
珮	-12.2473
櫕	-12.2474
哈	-12.2475
理或然也	-12.2476
埤	-12.2477
漚	-12.2477
東萊吕氏曰	-12.2478
觿	-12.2481
腋	-12.2482
鶉尾	-12.2487
酈	-12.2488
襮	-12.249
腆	-12.254
。1.	-12.2563
四邑為丘	-12.2567
縻	-12.2567
嘉薦普淖	-12.2567
殷見曰同	-12.2568
耉	-12.2568
糜粥	-12.2569
宫闈令	-12.2569
濟濟漆漆	-12.2569
右本在上	-12.257
蓺	-12.257
批	-12.257
錡	-12.257
宫室車旗衣服	-12.2572
豭	-12.2573
尸神象	-12.2574
翨	-12.2575
貓	-12.2576
紲	-12.2576
璋邸射	-12.2576
洵	-12.2577
六律六同	-12.2577
琳	-12.2578
養生送死	-12.2579
奠于薦東	-12.2579
俄	-12.2581
菙	-12.2589
焌	-12.2595
􁐂	-12.2652
厝	-12.2667
御史中丞	-12.2668
稽顙而後拜	-12.2669
齏	-12.2672
為人後者為其父母	-12.2672
州領縣	-12.2673
俑	-12.2674
麷蕡	-12.2674
徐原一曰	-12.2674
國有常刑	-12.2675
藨	-12.2675
皆記時候也	-12.2675
撙	-12.2675
卄	-12.2675
轢	-12.2676
倘	-12.2678
蹌蹌	-12.2678
蠡	-12.2679
麑	-12.2679
諠	-12.2679
迅	-12.2679
易以豉反	-12.268
還本位	-12.2682
溠	-12.2682
士旅食者	-12.2685
崖	-12.2688
主人及兄弟	-12.2715
顔師古	-12.2741
厚半寸脣寸	-12.2765
譟	-12.2766
明會典	-12.2768
太常少卿	-12.2769
按釋文云	-12.277
括髮以麻	-12.2771
釋幣于禰	-12.2771
瑤	-12.2771
溼	-12.2772
奏昭夏	-12.2773
笞	-12.2774
璉	-12.2774
邍	-12.2775
芬芳	-12.2776
揖如升射	-12.2778
三采六等	-12.2779
蠙	-12.2781
臧文仲	-12.2781
左下綱	-12.2781
欹	-12.2782
遰	-12.2783
䰟	-12.2783
延陵季子	-12.2784
婦人無外事	-12.2785
夸	-12.2786
畬	-12.2786
控	-12.2787
日夜分	-12.2789
燠	-12.2794
萬一千	-12.2796
擐	-12.2873
欎	-12.2874
篴	-12.2876
燿	-12.2878
纋	-12.2878
䵄	-12.2879
欽定四庫全書五禮通考卷一百	-12.2879
主人送于門外再拜	-12.288
睇	-12.288
汰	-12.2881
顏	-12.2882
舅姑共饗婦	-12.2882
祖廟未毁	-12.2882
髲鬄	-12.2882
推而逺之	-12.2883
諄	-12.2884
五禮通考卷一百	-12.2884
一易再易	-12.2884
師尚父	-12.2885
廣安游氏曰	-12.2886
吸	-12.2887
歠粥	-12.2887
蘆	-12.2889
憫	-12.2889
塘	-12.2889
莫大乎	-12.2889
嚭	-12.2891
羇	-12.2891
亘	-12.2892
騋	-12.2898
晜	-12.2899
年之蓄	-12.2946
安之樂作	-12.297
宣徽使	-12.2975
豋	-12.2976
拜興拜興平身	-12.2978
絻	-12.2984
徐氏師曽曰	-12.2985
士卑不嫌	-12.2986
膊胳	-12.2987
噬	-12.2988
餉	-12.2988
外祖父母從母	-12.2988
如鄭此言	-12.2989
戞	-12.2989
獻祝及佐食	-12.2989
太平興國	-12.299
萁	-12.299
不敢必君	-12.2991
泆	-12.2993
鄭目錄云	-12.2993
寰	-12.2994
拆	-12.2995
入堂深	-12.2995
璪	-12.2996
山海經	-12.2998
嘔	-12.2999
絫	-12.3004
萬四千	-12.301
導駕官	-12.3081
鞠衣展衣	-12.3085
滙	-12.3086
寮	-12.3088
國索鬼神而祭祀	-12.309
扱上衽	-12.309
昆弟之為父後者	-12.309
髙氏愈曰	-12.3092
奉犬牲	-12.3092
戢	-12.3093
追享朝享	-12.3094
蘧伯玉	-12.3094
金革之事無辟	-12.3095
僨	-12.3096
跂	-12.3096
孰其殽	-12.3096
天子外屏	-12.3096
潮	-12.3096
尊無二上	-12.3097
季春出火	-12.3097
打	-12.3099
猥	-12.3099
長尋有四尺	-12.3099
辯有脯醢不祭	-12.3099
關雎	-12.3099
拾更也	-12.31
黿	-12.3102
篚在洗西	-12.3103
穧	-12.3104
擎	-12.3105
庌	-12.3117
車五乗	-12.3144
萬八千	-12.3165
飲福受胙	-12.3191
罘	-12.3195
悴	-12.3198
醮於客位	-12.32
洲	-12.32
縏	-12.3201
盥手帨手	-12.3202
牴牾	-12.3203
闥	-12.3204
如覿幣	-12.3205
酨	-12.3205
𨼆	-12.3205
琊	-12.3205
庖厨	-12.3205
袘	-12.3206
奐	-12.3207
朱氏申曰	-12.3207
兩圭有邸	-12.3207
研	-12.3209
輲	-12.321
拳拳	-12.3211
母為長子	-12.3211
􁇎	-12.3212
地道尊右	-12.3212
娵訾	-12.3213
阱擭	-12.3214
宗實録	-12.3279
繳	-12.3299
氏下士二人徒八人	-12.3299
轔	-12.33
二人史四人胥四人徒四十人	-12.3303
九貢九賦九功	-12.3304
公之庶昆弟	-12.3304
恚	-12.3305
䵄蕡	-12.3305
氛	-12.3305
水漿不入口	-12.3305
易氏祓曰	-12.3306
郁	-12.3307
司徒司馬司空	-12.3307
蒍	-12.3309
糗餌	-12.3309
緇衣素裳	-12.331
邶	-12.3311
斗二升	-12.3311
仲山甫	-12.3312
鑠	-12.3313
凑	-12.3314
㓕	-12.3315
㪺	-12.3316
邠	-12.3317
臚	-12.3318
祝與佐食	-12.3318
尊兩甒	-12.3318
㡛	-12.332
人中士二人下士四人府二人史四人	-12.3321
峰	-12.3321
遶	-12.3322
雞初鳴	-12.3324
饋食之籩	-12.3358
輁	-12.3406
饑饉	-12.3408
及表乃止	-12.3408
變麻服葛	-12.3411
筩	-12.3413
幨	-12.3414
郵表畷	-12.3415
君臨臣喪	-12.3415
鞮鞻氏	-12.3415
掃地而祭	-12.3418
㳟	-12.3419
䑓	-12.342
飾其側	-12.3421
師氏保氏	-12.3422
繰	-12.3422
萎	-12.3424
彷	-12.3424
音作而民	-12.3424
阞	-12.3425
月節日在	-12.3425
霑	-12.3427
洟	-12.3427
溷	-12.3428
軛	-12.3431
窔	-12.3434
徒八十人	-12.3516
百人為卒	-12.3525
廟中將幣三享	-12.3525
皇祖伯某	-12.3529
開元禮政和禮書儀	-12.353
映	-12.353
欽定儀禮義疏卷	-12.353
棖闑	-12.3531
舉觶於其長	-12.3532
齊則緇之	-12.3532
使色吏反	-12.3533
鼃	-12.3533
咤	-12.3533
免音問	-12.3533
現	-12.3533
庮	-12.3533
龍見而雩	-12.3534
咽	-12.3534
葵菹蠃醢	-12.3534
自漢以來	-12.3534
農乃登	-12.3534
太極殿	-12.3534
以九為節	-12.3535
醫無閭	-12.3535
重主道也	-12.3536
貲	-12.3537
聶崇義	-12.3537
話	-12.3538
龎	-12.3538
在父之室	-12.3539
斫	-12.3539
次國之卿	-12.354
明其宗也	-12.3541
澄酒在下	-12.3541
苓	-12.3543
葭	-12.3547
再從兄弟	-12.3548
阤	-12.3552
愴	-12.3637
赫赫	-12.3638
螽	-12.3638
下莞上簟	-12.3638
僥	-12.3639
杪	-12.364
坐而論道	-12.364
元士之適子	-12.3641
呂氏大臨曰	-12.3642
膽	-12.3643
為羣姓	-12.3643
萬二千五百家	-12.3644
脤膰	-12.3644
鯁	-12.3644
朝事之籩	-12.3645
耘	-12.3645
韝	-12.3645
暵	-12.3646
歐陽謙之曰	-12.3646
各依文解之	-12.3647
頡	-12.3647
揫	-12.3647
豝	-12.3647
纚笄宵衣	-12.3648
顚	-12.3649
孜	-12.365
匍匐	-12.365
僃	-12.3653
頷	-12.3654
梢	-12.3659
卭	-12.366
串	-12.3661
翭	-12.3745
從輕而重	-12.3749
玷	-12.375
义	-12.3752
拲	-12.3753
厄	-12.3754
梯	-12.3754
榻	-12.3755
縝	-12.3756
臾	-12.3757
交錯以辯	-12.3757
兆五帝於四郊	-12.3758
詔祝於室	-12.3758
可謂孝矣	-12.3758
九命作伯	-12.376
綖	-12.376
教擾之	-12.3761
鱉	-12.3761
朱先生曰	-12.3761
鋸	-12.3761
腫	-12.3763
冷	-12.3764
叉	-12.3764
縣音𤣥	-12.3764
女音汝	-12.3764
寰宇記	-12.3764
稹	-12.3766
箾	-12.3768
枌	-12.3769
潼	-12.3769
縊	-12.3775
絼	-12.3861
徒百有六十人	-12.3864
搤	-12.3866
蔆	-12.3867
舉觶于其長	-12.3867
蹲	-12.3868
凰	-12.3869
贛	-12.3869
雌	-12.3869
隳	-12.3869
簮	-12.387
疫癘	-12.387
輜	-12.387
塵埃	-12.3872
金玉錫石	-12.3872
蛟	-12.3875
藿	-12.3875
泊	-12.3879
掲	-12.3883
自啓至	-12.3888
𦂳	-12.3889
鄖	-12.3892
蔞	-12.3981
孔叢子	-12.3981
霖	-12.3985
叠	-12.3985
迎精而反	-12.3985
無生而貴	-12.3986
鬚	-12.3986
宋書禮志	-12.3986
惚	-12.3987
袼	-12.3987
様	-12.3988
讞	-12.3988
望燎位	-12.3989
穜稑之種	-12.3989
鹿鳴四牡皇皇者華	-12.399
椌楬	-12.399
與族人燕	-12.399
迥	-12.3991
三分庭一在南	-12.3991
襓	-12.3992
肢	-12.3993
十五升去其半	-12.3993
子亦不敢降	-12.3994
靳	-12.3998
昀	-12.3998
公叔文子	-12.3999
郜	-12.3999
愽	-12.4001
當前輅	-12.4003
四丘為甸	-12.4048
衻	-12.4077
臘先祖五祀	-12.4093
歐	-12.4101
跬	-12.4101
書亦或為	-12.4102
南陔白華華黍	-12.4107
以小為貴	-12.4108
箄	-12.4108
堕	-12.411
良醖令	-12.411
都指揮使	-12.4111
湎	-12.4112
睆	-12.4113
執爵而酳	-12.4113
揣	-12.4114
河南程氏曰	-12.4115
枷	-12.4116
礱	-12.4119
山澤之農	-12.4121
括地志	-12.4126
秦始皇	-12.4138
箈	-12.4212
穜	-12.4216
閟	-12.4219
幓	-12.4219
卒爵而樂闋	-12.4219
𬒳	-12.422
前三幅後四幅	-12.422
男子免而婦人髽	-12.4221
斐	-12.4222
沸	-12.4223
値	-12.4224
彥	-12.4225
燂	-12.4225
韽	-12.4226
縉	-12.4226
謟	-12.4226
仁之至義之盡	-12.4226
仲孫蔑	-12.4227
近附近之近	-12.4229
巵	-12.4229
上射揖司射退反位	-12.423
天子之縣内	-12.4231
羗	-12.4233
賔及衆賔	-12.4234
上春釁	-12.424
鐕	-12.4242
諸父諸兄	-12.4296
紫宸殿	-12.4329
黄衣黄冠	-12.4332
踧	-12.434
搹	-12.434
一柯有半	-12.4341
免而以布	-12.4342
牆置翣	-12.4343
藟	-12.4344
磽	-12.4345
三卿五大夫	-12.4347
禂	-12.4347
鋤	-12.4347
顧炎武	-12.4347
冕而總干	-12.4348
浄	-12.4348
餽	-12.4348
簡不帥教者	-12.4348
坂	-12.4349
紓	-12.435
狸	-12.435
掇	-12.4353
湮	-12.4354
娑	-12.4354
陸費墀	-12.4355
詔辭自右	-12.4355
黲	-12.4355
擯者執上幣	-12.4357
聳	-12.4358
媧	-12.4359
汋	-12.436
䄙	-12.4376
莞筵紛純加繅席畫純	-12.4431
醵	-12.4457
去五分一以為帶	-12.4457
朝集使	-12.4458
齊音咨	-12.446
椉	-12.4461
蝝	-12.4461
卒爵興坐奠爵拜執爵興	-12.4462
槍	-12.4463
紝	-12.4464
天無二日	-12.4464
虞與卒哭	-12.4465
𨗳	-12.4465
潭	-12.4466
皽	-12.4466
儀禮䟽卷第	-12.4466
駢	-12.4467
顥	-12.4468
造乎禰	-12.4468
蕢桴	-12.4469
琦	-12.4469
苕	-12.4469
宋王與之撰	-12.447
襴衫	-12.447
堯舜禹湯	-12.447
尻	-12.4473
緻	-12.4474
欽定四庫全書經部四	-12.4474
驢	-12.4475
觽	-12.4476
揖當碑揖	-12.4478
窋	-12.4479
獀	-12.4484
瘧	-12.4484
閶	-12.4579
傴	-12.4581
又期而大祥	-12.4583
緬	-12.4584
腢	-12.4585
方三千里	-12.4586
碧	-12.4586
鬼神尚幽闇	-12.4586
抉	-12.4587
襈	-12.4588
佟	-12.4588
㨿	-12.4589
匴	-12.4589
攷工記	-12.459
顗	-12.459
慼	-12.459
獻賢能之書	-12.4591
轊	-12.4592
四圭有邸以祀天	-12.4592
艶	-12.4592
麀	-12.4593
沼	-12.4593
劌	-12.4593
帶之垂者	-12.4593
太王王季	-12.4594
巂	-12.4594
耽	-12.4596
錐	-12.4596
豺祭獸	-12.4597
鵝	-12.4599
戯	-12.4599
發揚蹈厲	-12.4599
泌	-12.4607
五聲二變	-12.4611
詹	-12.4699
㳿	-12.4699
儀禮集編卷	-12.4704
哩	-12.4706
鞍	-12.4709
方七千里	-12.4709
加籩之實	-12.471
詻	-12.471
冠子嫁子	-12.471
櫺星門	-12.471
陳氏樂書	-12.4712
繖扇	-12.4712
雜帛為物	-12.4713
仲輿郝氏曰	-12.4713
裒	-12.4714
瑁	-12.4714
漆赤中	-12.4714
兢兢	-12.4715
哀至則哭	-12.4715
米百筥	-12.4715
宙	-12.4715
邦中之賦	-12.4716
暖	-12.4716
作記之人	-12.472
勛	-12.4721
武宿夜	-12.4722
鵞	-12.4727
上士二人中士四人下士八人府二人史	-12.4734
葑	-12.4735
戕	-12.4737
瀘	-12.4751
正初刻	-12.4834
再祼而酢	-12.4837
憊	-12.4841
主皮之射	-12.4841
招魂復魄	-12.4841
歇	-12.4842
卅	-12.4842
同母異父	-12.4843
醫酏糟	-12.4843
三皇五帝	-12.4843
瓢	-12.4844
烟	-12.4844
偉	-12.4845
援神契	-12.4845
正朝儀之位	-12.4845
二百八十八	-12.4845
帤	-12.4846
從祖祔食	-12.4846
摺	-12.4846
有王事之勞	-12.4846
悶	-12.4847
訥	-12.4847
殫	-12.4848
蒲筵緇布純	-12.4848
廣與崇方	-12.4849
拳	-12.485
分赤經	-12.485
盱	-12.4852
廸	-12.4852
虙	-12.4854
魴	-12.4855
嚻	-12.486
簎	-12.4951
亹亹	-12.4961
陳氏暘曰	-12.4961
服通天冠絳紗袍	-12.4964
如著幓頭	-12.4964
適爾皇祖某甫	-12.4964
垸	-12.4964
㳂	-12.4965
跌	-12.4966
稑	-12.4967
通帛為旜	-12.4967
熊虎為旗	-12.4968
贓	-12.4969
祖禰共廟	-12.497
雊	-12.497
炫	-12.4971
顒	-12.4971
樂由中出	-12.4971
萹	-12.4972
涓	-12.4972
企	-12.4972
譎	-12.4973
諶	-12.4974
釗	-12.4975
亊	-12.4975
彬	-12.4975
十五升抽其半	-12.4976
匠人營國	-12.4976
欽定四庫全書禮記纂言卷	-12.4977
洺	-12.4977
鴞	-12.4979
三重大夫再重	-12.498
設洗于阼階東南	-12.4981
一馬從二馬	-12.4983
窌	-12.4983
􁁷	-12.4987
齻	-12.5085
祺	-12.5089
臣某言請	-12.509
繘	-12.5091
五祀之祭不行	-12.5091
偯	-12.5092
芰	-12.5093
仕焉而已者	-12.5094
越紼而行事	-12.5094
翌	-12.5094
咫	-12.5095
某月某日	-12.5096
射食亦反	-12.5097
抌	-12.5098
幣帛皮圭	-12.5098
盥于洗	-12.5099
故記人明之	-12.51
比閭族黨	-12.5101
口率出泉	-12.5102
個	-12.5104
哀親之在	-12.5104
覡	-12.5104
恠	-12.5105
易繫辭	-12.5105
元吳澄撰	-12.5105
幢	-12.5106
升席自北方	-12.5106
鬊	-12.5107
燬	-12.5107
取菹㨎于醢	-12.5108
坋	-12.5108
饗耆老孤子	-12.5108
霽	-12.5109
典庸器	-12.5109
人胥六人徒六十人	-12.511
扁	-12.511
軼	-12.511
濱	-12.5117
譖	-12.5118
􁇡	-12.5223
氈	-12.5223
䕩	-12.5229
盪	-12.523
氓	-12.523
以死傷生	-12.523
共戴天	-12.5231
惟王建國辨方正位體國經野設官分職	-12.5232
稱尺證反	-12.5233
秋頒學合聲	-12.5233
送于外門外	-12.5233
昉	-12.5234
皐	-12.5235
嘑	-12.5235
草木零落	-12.5236
甐	-12.5237
仁義禮智	-12.5237
燼	-12.5239
悍	-12.524
萼	-12.524
下大夫五人上士二十七人	-12.5241
八尺曰尋	-12.5241
拓	-12.5243
懦	-12.5245
獺	-12.5249
年秋九月	-12.5251
郟	-12.5252
幟	-12.535
奏聖躬萬福	-12.5351
戟	-12.5352
疐	-12.5356
糠	-12.5361
四鄙入保	-12.5363
周之始郊日以至	-12.5363
虎熊豹	-12.5364
渜	-12.5364
濤	-12.5364
六典八法八則	-12.5364
韋𤣥成	-12.5365
慌	-12.5365
恍惚	-12.5367
畷	-12.5368
寥	-12.5368
謳	-12.5368
挎	-12.5368
肜	-12.5368
耑	-12.537
傭	-12.537
月生於西	-12.537
黯	-12.5371
薫	-12.5371
伴	-12.5372
萬入去籥	-12.5372
針	-12.5372
呵	-12.5372
癢	-12.5376
所設中之西	-12.5377
飼	-12.5378
虫	-12.5379
蜮	-12.538
燖	-12.5381
濟南府	-12.5396
鴆	-12.5451
脣	-12.549
女子子嫁者未嫁者	-12.5491
以冠名服	-12.5492
賽	-12.5494
痺	-12.5495
湼	-12.5495
黥	-12.5497
埳	-12.5497
旅酬六尸	-12.5498
又哭三哭	-12.5499
五采五就	-12.55
醖	-12.55
郊祀后稷以配天	-12.5501
瑒	-12.5501
轚	-12.5501
瑾	-12.5501
翅	-12.5501
忖	-12.5502
箧	-12.5503
湑	-12.5504
翰林院侍講銜方苞撰	-12.5504
蹴	-12.5505
賒	-12.5505
化民成俗	-12.5506
司射先反位	-12.5506
鴨	-12.5507
粘	-12.5508
怙	-12.5511
槖	-12.5518
瀍	-12.5518
柒	-12.5581
慥	-12.5623
隗	-12.5627
仿	-12.5629
䨇	-12.563
髺	-12.563
旄牛尾	-12.5631
坐作進退	-12.5631
蓌	-12.5632
公罔之裘	-12.5633
八命作牧	-12.5635
僾	-12.5636
桞	-12.5637
兠	-12.5637
廣終幅	-12.5638
一升曰爵	-12.5638
以柶祭醴	-12.5638
壹揖壹	-12.5639
怖	-12.5639
称	-12.5639
牢肺正脊	-12.564
暱	-12.5642
垓	-12.5642
噦	-12.5643
上圓下方	-12.5654
大夫不世爵	-12.5665
鬋	-12.5765
世婦之吉者	-12.5766
綴足用燕几	-12.5767
拜而後稽顙	-12.5767
廿	-12.5768
羊一豕一	-12.5769
是日也以虞易奠	-12.577
襍	-12.5771
大赦改元	-12.5772
罝	-12.5772
登于天府	-12.5772
豈其然乎	-12.5774
徯	-12.5774
惸	-12.5775
各下其君二等	-12.5775
啟蟄而郊	-12.5775
憔	-12.5775
誇	-12.5777
籧	-12.5778
未知是否	-12.5779
譔	-12.5781
滔	-12.5781
軋	-12.5782
有適子者無適孫	-12.5782
鼐	-12.5784
筦	-12.5785
疢	-12.5787
祟	-12.5787
絘	-12.579
錐指傳曰	-12.5796
璿	-12.5798
蕭合黍稷	-12.5801
因喪而冠	-12.5903
矰	-12.5903
正六牲之體	-12.5905
藹	-12.5907
朝位賓主之間	-12.5907
司馬辨論官材	-12.591
絕	-12.5911
諸公之臣相為國客	-12.5911
牲幣各放其器之色	-12.5912
蓤	-12.5912
猩	-12.5913
豵	-12.5913
車逆拜辱	-12.5914
毖	-12.5914
檻	-12.5915
朝服以日視朝	-12.5915
很	-12.5916
葵菹蝸醢	-12.5917
敢昭告於	-12.5917
律歴志	-12.5917
尸必以孫	-12.5918
女次純衣	-12.5918
塑	-12.5919
鞋	-12.5919
馬氏端臨曰	-12.592
洗當東榮	-12.592
蘖	-12.592
膚一離肺一	-12.5921
埽地而祭	-12.5922
恝	-12.5922
移民通財	-12.5922
捄	-12.5922
挩	-12.5922
䞇	-12.5922
至于階三讓	-12.5923
㒺	-12.5923
螣	-12.5923
棗烝栗擇	-12.5923
瑩	-12.5924
徹几改筵	-12.5925
縕	-12.5925
嘂	-12.5925
謡	-12.5926
以類相從	-12.5926
無忌憚	-12.5926
嶧	-12.5928
巍巍	-12.5928
窖	-12.5928
故城在今	-12.5929
蜜	-12.5929
蜱	-12.5933
甸方八里	-12.598
遫	-12.6035
鬵	-12.6043
鎰	-12.6048
噩	-12.6052
參知政事	-12.6055
聽其治訟	-12.6057
卿皆見以羔	-12.6058
七萬五千家	-12.6059
黄氏震曰	-12.6059
詈	-12.6059
稯	-12.606
皞	-12.606
王使之瑞節	-12.606
世母叔母	-12.6061
搆	-12.6062
䜟	-12.6062
日講禮記解義	-12.6062
體國經野	-12.6062
侍御僕從	-12.6062
家無二尊	-12.6063
聾	-12.6063
蜯	-12.6064
入門而縣興	-12.6065
兜	-12.6065
䂓	-12.6065
橭	-12.6066
永嘉戴氏曰	-12.6066
浣	-12.6067
峯	-12.6067
峙	-12.6067
左祖右社	-12.6068
不繼祖與禰	-12.607
湯沐之邑	-12.607
鐓	-12.607
蓑	-12.6072
埸	-12.6072
掎	-12.6085
淤	-12.6091
腍	-12.6186
大夫之妾為君之庶子	-12.6191
峩	-12.6192
貅	-12.6193
蚯蚓	-12.6195
掌百官之誓戒	-12.6197
袧	-12.6199
剗	-12.62
王族故士	-12.6201
醴齊縮酌	-12.6202
安溪李光坡撰	-12.6203
鐶	-12.6205
見音現	-12.6205
帥執事而卜日	-12.6206
裾	-12.6206
靴	-12.6206
緋	-12.6207
李氏光地曰	-12.6207
新安王氏曰	-12.6208
奬	-12.6208
或左或右	-12.6208
瓀	-12.6209
堰	-12.6209
張爾岐	-12.6209
金華邵氏曰	-12.6209
删	-12.621
遄	-12.6211
皫	-12.6211
導駕官同太常卿導引	-12.6212
虺	-12.6212
芐	-12.6213
穛	-12.6213
蚌	-12.6213
扺	-12.6214
嘒	-12.6216
鄱	-12.6217
瀡	-12.6218
塔	-12.6219
皿	-12.6331
断	-12.6337
瞍	-12.6344
一豆一籩	-12.6345
僢	-12.6345
不封不樹	-12.6346
詣爵洗位	-12.6346
公執桓圭	-12.6348
壇於國外	-12.6349
豸	-12.6349
禮樂射御書數	-12.635
諸侯五月而葬	-12.635
訣	-12.635
卿行旅從	-12.635
忱	-12.6351
莩	-12.6351
二采再就	-12.6352
稺	-12.6352
晰	-12.6353
靷	-12.6354
五州為鄉	-12.6355
斆	-12.6355
蟋蟀	-12.6355
賤者獻以散	-12.6355
蒻	-12.6356
唐書禮樂志	-12.6356
劉氏敞曰	-12.6357
錘	-12.6357
聖證論	-12.6357
輊	-12.6357
王者禘其祖之所自出以其祖配之	-12.6357
騵	-12.6358
豊	-12.6358
動容周旋	-12.6361
桑弧蓬矢	-12.6362
導駕官同太常卿導引皇帝至	-12.6364
嚏	-12.6364
聒	-12.6364
杌	-12.6367
帕	-12.6368
㯺	-12.6476
晴	-12.6484
從重而輕	-12.6493
孤卿建旜	-12.6493
僂	-12.6498
羣介行人宰史	-12.6501
芑	-12.6501
蝦蟇	-12.6502
蘩	-12.6503
延平黄氏曰	-12.6503
獄訟成士師受中	-12.6504
由重南東	-12.6504
郭景純	-12.6504
倞	-12.6505
殂	-12.6505
胔	-12.6505
楛	-12.6505
瑯	-12.6506
下而管象	-12.6506
乍	-12.6506
受藏之府	-12.6508
昺	-12.6508
以柩造朝	-12.6508
臛	-12.651
漉	-12.6511
汨	-12.6512
嫉	-12.6514
珩	-12.6515
錙	-12.6521
稽顙而后拜	-12.6644
杳	-12.6646
𤾉	-12.6647
一矩有半	-12.6647
凛	-12.6648
緄	-12.6648
以皮帛繼子男	-12.6648
左執領右執要	-12.6649
宗祀文王於明堂以配上帝	-12.6649
屦	-12.6649
中猶間也	-12.665
䏻	-12.6651
邰	-12.6651
其國乃旱	-12.6652
史記天官書	-12.6652
五寸少半寸	-12.6653
鄘	-12.6653
武王克商	-12.6653
擖	-12.6653
祖文王而宗武王	-12.6654
父子君臣長幼之道	-12.6654
攻木之工	-12.6654
倀	-12.6655
周禮詳解卷	-12.6655
設扄鼏	-12.6656
璵	-12.6656
晏平仲	-12.6656
王氏安石曰	-12.6658
墼	-12.6658
此於别録屬	-12.6659
羝	-12.666
恰	-12.666
塹	-12.6661
螳	-12.6661
楎	-12.6664
磚	-12.6664
禋于六宗	-12.6664
瀝	-12.6666
騫	-12.667
佼	-12.667
澨	-12.667
凊	-12.667
璺	-12.6687
􁊌	-12.6796
豔	-12.6798
勞農以休息之	-12.6798
六十者坐五十者立侍	-12.6799
豆實三而成觳	-12.68
至親以期斷	-12.68
喇	-12.6801
瘖	-12.6801
柔毛剛鬛	-12.6802
敉	-12.6804
耋	-12.6804
懣	-12.6804
梳	-12.6804
公事自闑西	-12.6805
▁本經記	-12.6806
合二姓之好	-12.6807
去起呂反	-12.6808
觩	-12.6808
矍	-12.6808
宓	-12.6808
六斗四升	-12.6809
糁	-12.6809
覦	-12.6809
邯	-12.6809
以其祖配之	-12.681
城郭溝池	-12.6811
晟	-12.6811
畢塗屋	-12.6811
涑	-12.6811
釋詁文	-12.6812
森	-12.6812
執醬而饋	-12.6812
猾	-12.6812
韓詩外傳	-12.6813
魚躍拂池	-12.6813
嘯	-12.6814
両	-12.6817
褐	-12.6817
降尊以就卑	-12.6817
篾	-12.6818
每門每曲	-12.6818
漾	-12.6819
嵎	-12.6821
􁎱	-12.6821
衣以裼之	-12.6822
齘	-12.6824
儀禮注疏卷	-12.6944
哀薦成事	-12.6955
前交於額上	-12.6955
虵	-12.6957
薪芻倍禾	-12.6958
涅	-12.6958
薦徹豆籩	-12.6959
偏駕不入王門	-12.696
尖	-12.696
㪯	-12.6962
秋合三材	-12.6963
腸三胃三	-12.6963
馬氏晞孟曰	-12.6963
歃	-12.6965
瓘	-12.6966
釋曰在此者案其職云掌	-12.6967
朝直遙反	-12.6968
明日以其班祔	-12.6968
詬	-12.6968
杙	-12.6968
二衽二束	-12.6968
先重而後輕	-12.6968
凋	-12.6969
瘡	-12.6971
􁉖	-12.6972
闞	-12.6973
柤	-12.6978
蔡氏德晉曰	-12.6978
叔仲皮	-12.698
壚	-12.7097
奈	-12.7108
鵜	-12.7109
監本譌作	-12.711
邀	-12.7111
于象魏使萬民觀	-12.7112
弗忍一日離	-12.7113
猫	-12.7115
㧁	-12.7115
馬氏融曰	-12.7116
起敬起孝	-12.7116
陸農師	-12.7116
天子七月而葬	-12.7117
捉	-12.7117
三年一祫五年一禘	-12.7117
升再拜稽首公答再拜	-12.7118
萭	-12.7119
升降不由阼階	-12.7119
案各本脱	-12.712
楫	-12.712
襜	-12.7121
隤	-12.7121
加軫與轐	-12.7121
鳲	-12.7121
鶡	-12.7123
罃	-12.7124
千七百七十三國	-12.7124
笙鏞以間	-12.7124
綘	-12.7125
禮不下庶人	-12.7126
必誠必信	-12.7127
蓮	-12.7128
訢	-12.7128
幭	-12.7129
釵	-12.7129
𫝑	-12.7129
劑致甿	-12.713
鱄	-12.713
一昭一穆	-12.7131
治國平天下	-12.7131
耎	-12.7131
佯	-12.7131
殈	-12.7132
戒令糾禁	-12.7132
瑉	-12.7133
揱	-12.7133
襡	-12.7133
猝	-12.7134
闉	-12.7134
鮐	-12.7136
南北七筵	-12.714
淶	-12.7142
石經及敖本	-12.7265
摝	-12.7268
擸	-12.7273
為人後者為其昆弟	-12.7273
屍	-12.7274
諺	-12.7275
爵盈而不飲	-12.7277
半圭曰璋	-12.7278
蹌	-12.7278
易彦祥曰	-12.7279
坐左執爵右祭脯醢	-12.728
婣	-12.728
塩	-12.728
張大次小次	-12.7281
帥三公九卿諸侯大夫	-12.7282
鞻	-12.7283
幅廣二尺二寸	-12.7283
赤熛怒	-12.7283
娠	-12.7284
驃	-12.7284
㨒	-12.7284
荔	-12.7285
肆夏繁遏渠	-12.7285
族食世降一等	-12.7285
貕	-12.7286
繼禰者為小宗	-12.7287
濓	-12.7288
惶	-12.7288
五比為閭	-12.7288
癉	-12.7291
忤	-12.7291
抔	-12.7291
門側之堂謂之塾	-12.7292
堦	-12.7293
養國子以道	-12.7294
痒	-12.7297
瀛	-12.7298
偩	-12.7303
􁉚	-12.7309
郝仲輿	-12.7383
一在前二在後	-12.7432
簽	-12.7435
䳺	-12.7436
以朝及闇	-12.7436
攅	-12.7437
升龍降龍	-12.744
虎侯熊侯豹侯	-12.7441
莊渠魏氏曰	-12.7441
麻葛兼服	-12.7442
子男之士不命	-12.7442
撎	-12.7442
大國三軍次國二軍小國一軍	-12.7443
有司謹具請行事	-12.7443
澧	-12.7444
萬斯同曰	-12.7444
鈇	-12.7444
毁宗躐行	-12.7445
唶	-12.7445
愀	-12.7446
七日授士杖	-12.7446
鼉	-12.7446
析羽為旌	-12.7446
秉有五籔	-12.7447
比閭族黨州鄉	-12.7447
鞌	-12.7448
冠而敝之可也	-12.7448
蘧	-12.7448
菊	-12.7448
騏	-12.7449
漢禮器制度	-12.7449
暁	-12.745
事亡如事存	-12.745
魋	-12.745
乘繩證反	-12.745
泳	-12.7451
遒	-12.7451
體其犬豕牛羊	-12.7452
𥜗	-12.7452
詮	-12.7452
喉	-12.7452
讖	-12.7452
戛	-12.7453
玕	-12.7453
稰	-12.7453
樂由陽來	-12.7454
唘	-12.7454
燦	-12.7454
嚼	-12.7454
椿	-12.7455
嘘	-12.7456
孤某須矣	-12.7456
屐	-12.7458
母以子貴	-12.7459
朶	-12.7463
呻	-12.7464
滹	-12.7484
爂	-12.7589
睨	-12.7598
綾	-12.76
攠	-12.7604
猴	-12.7607
藳	-12.7607
雚	-12.7607
祫禘祫嘗祫烝	-12.7607
貙	-12.7609
爵弁纁屨	-12.761
幠用斂衾	-12.761
弓二寸以為侯中	-12.7611
鴟	-12.7611
兩圭有邸以祀地	-12.7612
􁎌	-12.7612
以待邦之大用	-12.7612
爍	-12.7613
槌	-12.7613
兩甒醴酒	-12.7613
暌	-12.7613
禮記要義卷第	-12.7614
塴	-12.7614
公父文伯	-12.7615
蒞	-12.7615
尒	-12.7615
煉	-12.7615
庫雉路	-12.7616
名山大澤不以封	-12.7616
盩	-12.7617
白招拒	-12.7617
以訊馘告	-12.7617
彿	-12.7618
邦畿千里	-12.7619
訕	-12.762
決遂執弓搢三挾一个	-12.762
蛸	-12.7621
載以輲車	-12.7621
奉芳勇反	-12.7621
旤	-12.7622
渤	-12.7622
禮儀三百威儀三千	-12.7622
男女未冠笄	-12.7624
罻	-12.7624
蕘	-12.7627
終葵首	-12.7628
虖	-12.7629
呐	-12.7629
金氏履祥曰	-12.7631
痟	-12.7634
駣	-12.7635
侍中版奏	-12.7767
鈐	-12.7769
訓家君子曰	-12.7771
府二人史四人胥二人徒二十人	-12.7771
堲	-12.7773
棃	-12.7775
鵒	-12.7775
犠	-12.7776
妾為君之黨服得與女君同	-12.7776
博碩肥腯	-12.7777
卹	-12.7777
狐青裘	-12.7778
椘	-12.7778
腵	-12.7778
蹷	-12.7779
每門止一相	-12.7779
帶以弓韣	-12.778
涯	-12.778
㩀	-12.7781
櫬	-12.7781
帶其故葛帶	-12.7781
君十卿禄	-12.7782
服之襲也充美也	-12.7782
珈	-12.7782
渇	-12.7782
坑	-12.7783
堆	-12.7783
伶州鳩	-12.7783
軹崇三尺	-12.7783
聶氏崇義	-12.7784
尊皆有罍諸臣之所昨也	-12.7784
齊才細反	-12.7784
扐	-12.7785
當宁而立	-12.7785
憶	-12.7786
釂	-12.7787
湢	-12.7787
鰥寡孤獨	-12.7788
黶	-12.7788
埏	-12.779
經禮三百曲禮三千	-12.779
氂	-12.779
璞	-12.779
㢲	-12.779
抗世子法於伯禽	-12.7791
捭	-12.7792
擥	-12.7792
秪	-12.7794
壼	-12.7794
筰	-12.7795
栖	-12.7796
橐	-12.7799
惌	-12.7805
莞筵紛純	-12.7847
。15.	-12.7948
餧	-12.7948
曁	-12.7949
郈	-12.7949
憯	-12.7949
腶	-12.795
飄	-12.795
畵	-12.795
跲	-12.7951
慧	-12.7952
顧氏棟高曰	-12.7952
浚儀王氏曰	-12.7953
伯仲叔季	-12.7953
弁而祭於己	-12.7954
扛	-12.7954
自天子達於庶人	-12.7954
纉	-12.7954
簝	-12.7954
李耜卿曰	-12.7955
春見曰朝	-12.7955
啖	-12.7955
楗	-12.7956
各隨文解之	-12.7957
罸	-12.7958
觕	-12.7958
有大宗而無小宗	-12.7961
薻	-12.7965
踏	-12.7965
連類在此	-12.7967
鷹化為鳩	-12.7969
䃂	-12.7974
元和郡縣志	-12.7978
􁎦	-12.8113
蝓	-12.8116
獶	-12.812
墨者使守門	-12.8124
蛙	-12.8124
烜	-12.8124
疏食水飲不食菜果	-12.8125
舊醳之酒	-12.8125
稿	-12.8127
是類是禡	-12.8129
以起軍旅以治兵守	-12.8129
盎齊涗酌	-12.813
桶	-12.813
卬	-12.8131
有邦事則為之前驅而辟	-12.8132
蕙	-12.8132
江陵項氏曰	-12.8133
徨	-12.8133
糵	-12.8133
古者於旅也語	-12.8133
腸間脂	-12.8134
臨川吳氏曰	-12.8134
論道經邦	-12.8135
闌	-12.8137
主人東楹東北面拜	-12.8137
宫商角徴羽	-12.8137
月中氣日在	-12.8137
妊	-12.8138
牉	-12.8138
白與黒謂之黼	-12.8139
諝	-12.814
袚	-12.814
郰	-12.8143
君臣民事物	-12.8145
吉事先近日	-12.83
悛	-12.8302
比年一小聘三年一大聘	-12.8302
娀	-12.8303
枵	-12.8304
下舌半上舌	-12.8304
徹室中之饌	-12.8305
苾	-12.8305
澔	-12.8305
柟	-12.8306
唯上介有禽獻	-12.8306
合聚萬物而索饗之	-12.8306
如齊逆女	-12.8308
六年五服一朝	-12.8309
甀	-12.8309
凡以神仕者	-12.8309
処	-12.831
麒	-12.831
洧	-12.8311
娛	-12.8312
如求日之儀	-12.8312
檡	-12.8312
不與國人慮兄弟	-12.8313
嫓	-12.8313
犮	-12.8314
九州之外謂之蕃國	-12.8314
翫	-12.8316
鴇	-12.8316
槱	-12.8316
廖	-12.8317
湜	-12.8319
獝	-12.832
嗛	-12.8323
涪	-12.8324
檄	-12.8461
穅	-12.8476
軍將皆命卿	-12.8477
鄜	-12.848
拜日於東門之外	-12.8482
殞	-12.8482
一染謂之縓	-12.8483
孥	-12.8483
捂	-12.8484
掩裳際	-12.8484
綼	-12.8485
所不服子亦不敢服	-12.8486
禮記述註卷	-12.8486
澀	-12.8487
冠於阼以著代	-12.8487
龔	-12.8487
纘	-12.8489
篡	-12.8489
青與赤謂之文	-12.8489
糔	-12.8489
肓	-12.8489
左手執籥右手秉翟	-12.849
食黍與彘	-12.849
毼	-12.849
褕	-12.8492
柰	-12.8492
含樞紐	-12.8492
𤣥冠縞武	-12.8493
垂緌五寸	-12.8493
㬰	-12.8494
罵	-12.8494
叡	-12.8495
惷	-12.8496
喟	-12.8496
驍	-12.8496
漯	-12.8496
獲者執旌許諾	-12.8496
扼	-12.8496
食三老五更於大學	-12.8498
宐	-12.8498
岑	-12.8499
宗其繼髙祖者	-12.8499
忻	-12.85
藜	-12.85
勦	-12.85
西南隅謂之奥	-12.85
婆	-12.8501
十夫有溝	-12.8501
剸	-12.8503
剋	-12.8503
殰	-12.8504
罅	-12.8505
擲	-12.8506
。12.	-12.8656
漂	-12.8663
堛	-12.8665
如振旅之陳	-12.8665
比年小聘三年大聘	-12.8666
以八則治都鄙	-12.8669
愜	-12.867
齓	-12.8672
山林川澤丘陵墳衍原隰	-12.8673
菼	-12.8674
闘	-12.8674
天神人鬼地示	-12.8675
兾	-12.8675
郇	-12.8675
以酏為醴	-12.8675
因喪服而冠	-12.8675
賄用束紡	-12.8675
餰	-12.8676
其器閎以奄	-12.8676
下大夫四人上士八人中士十有六	-12.8677
衘	-12.8677
栝	-12.8677
以遷廟主行	-12.8678
初虧復圓	-12.8678
逄	-12.8678
堂則由楹外	-12.8679
鶻	-12.8679
五侯九伯	-12.8679
帥國子而致	-12.8679
祀大神享大鬼祭大示	-12.8679
甽	-12.8681
眺	-12.8681
璠	-12.8681
有小宗而無大宗	-12.8682
樂正曰正歌備	-12.8682
棁	-12.8682
獐	-12.8683
妾母不世祭	-12.8683
凡大合樂必遂養老	-12.8684
淰	-12.8684
鵙	-12.8684
榱	-12.8686
䃭	-12.8686
歜	-12.8687
臏	-12.8687
湟	-12.8688
隩	-12.869
擕	-12.869
址	-12.8693
觭	-12.8694
佔	-12.8696
峽	-12.8696
鸜	-12.8854
妺	-12.8858
諸侯弔必皮弁錫衰	-12.8858
万	-12.8858
介紹而傳命	-12.8859
大獸公之小禽私之	-12.8859
天之所生地之所	-12.886
苴絰大搹	-12.886
貂	-12.8861
私事自闑東	-12.8861
弢	-12.8861
頮	-12.8861
旅下士三十有二人府六人史	-12.8864
男子冠而婦人笄	-12.8864
噎	-12.8864
届	-12.8865
闐	-12.8865
硬	-12.8865
其尸服以士服	-12.8865
籬	-12.8867
飯扶晚反	-12.8867
酤	-12.8868
有田則祭無田則薦	-12.887
白羽與朱羽糅	-12.8871
緱	-12.8872
祔必以其昭穆	-12.8873
廄	-12.8873
𣗳	-12.8874
刅	-12.8874
奠爵興取肺坐絶祭嚌之興加	-12.8874
藃	-12.8881
喘	-12.8881
縣又東流至	-12.8888
瀾	-12.8891
硩	-12.8894
風雲雷雨	-12.904
諼	-12.9048
以兄弟之服服至尊	-12.9048
滁	-12.9049
祭齊加明水	-12.9049
濟濟翔翔	-12.905
州黨族閭比	-12.9051
跟	-12.9052
堳	-12.9053
都宗人家宗人	-12.9054
犨	-12.9054
於彼乎於此乎	-12.9054
頊	-12.9054
婿	-12.9055
材美工巧	-12.9056
刎	-12.9056
徭	-12.9056
𫀆	-12.9057
公之服自衮冕而下如王之服	-12.9057
東西牆謂之序	-12.9057
君子行禮不求變俗	-12.9057
汪氏琬曰	-12.9057
索祭祝于祊	-12.9058
愕	-12.9059
巹	-12.9059
俴	-12.9059
棫	-12.9059
沫	-12.906
出必告反必面	-12.906
春誦夏弦	-12.906
殺色界反	-12.906
糅	-12.9061
疕	-12.9061
稗	-12.9062
猪	-12.9062
山林川谷丘陵	-12.9062
調以滑甘	-12.9063
梜	-12.9063
面朝後市	-12.9063
筯	-12.9064
别子為祖繼别為宗	-12.9065
椀	-12.9065
赧	-12.9065
蠟	-12.9067
梨	-12.9069
囗	-12.9069
楪	-12.9074
濰	-12.9074
笱	-12.9076
嶲	-12.9081
硩蔟氏	-12.9197
坅	-12.9239
鎗	-12.9241
禘一犆一祫	-12.9242
諐	-12.9243
宋魏了翁撰	-12.9246
正月之吉始和布	-12.9246
豕曰剛鬛	-12.9248
修徳學道	-12.9248
惓	-12.9248
軻	-12.9249
繣	-12.9249
以吉祭易喪祭	-12.925
洿	-12.925
衰七雷反	-12.925
庶母慈已者	-12.9251
紋	-12.9251
三王共皮弁素積	-12.9251
其帝顓頊其神	-12.9251
璟	-12.9252
頺	-12.9252
有從有服而無服	-12.9252
伯母叔母	-12.9253
𠂻	-12.9254
祥之日鼓素琴	-12.9255
竑	-12.9255
令力呈反	-12.9257
同堂異室	-12.9257
揩	-12.9257
鑰	-12.9257
取誘射之矢	-12.9258
玟	-12.9258
飌	-12.9258
錧	-12.9258
式視馬尾	-12.9259
殻	-12.9259
􁎭	-12.9259
擒	-12.926
大夫居廬士居堊室	-12.926
立八尺之表	-12.926
緤	-12.9261
拖	-12.9261
竣	-12.9262
嶠	-12.9262
販夫販婦	-12.9265
杼上終葵首	-12.9265
上農夫食九人	-12.9343
摲	-12.9431
廱	-12.944
臋	-12.9443
蛄	-12.9446
胞	-12.9447
㪷	-12.9447
貫革之射	-12.9448
邪似嗟反	-12.9449
嵗壹見其貢	-12.9449
顧氏炎武曰	-12.9451
三衽三束	-12.9451
翡	-12.9451
瑄	-12.9452
體比於禮其節比於樂	-12.9452
鞫	-12.9452
開府儀同三司	-12.9452
覯	-12.9452
譏何譏爾	-12.9452
李景齊曰	-12.9453
桌	-12.9453
乗繩證反	-12.9453
琪	-12.9453
旻	-12.9453
濳	-12.9453
祀昊天上帝則服大裘而冕祀五帝	-12.9454
躰	-12.9455
閹	-12.9455
尫	-12.9456
莆	-12.9456
反情以和其志	-12.9456
監祭監禮	-12.9457
羿	-12.9458
二人史四人胥十有二人徒百有二十人	-12.9458
潢	-12.9458
刊	-12.9459
竞	-12.946
蜋	-12.9461
􁊿	-12.9461
購	-12.9461
緶	-12.9461
溱	-12.9462
邲	-12.9462
哺	-12.9462
踝	-12.9463
門堂三之二	-12.9464
砮	-12.9464
上香上香三上香	-12.9464
頰	-12.9467
錠	-12.9468
堡	-12.9469
荏	-12.947
檿	-12.947
薳	-12.9472
鈃	-12.9478
春分朝日秋分夕月	-12.9643
大事則從其長小事則專達	-12.9645
鼓鐸鐲鐃	-12.9647
鎡	-12.9648
駴	-12.9648
欽定四庫全書儀禮要義卷	-12.965
薜	-12.9651
兀	-12.9651
兗	-12.9652
以某妃配	-12.9652
以九式均節財用	-12.9652
悵	-12.9652
𤨏	-12.9653
歌魚麗笙由庚	-12.9654
緇組紘纁邊	-12.9654
䟦	-12.9654
簫韶九成	-12.9655
帙	-12.9656
十有二人胥十有二人徒百有二十人	-12.9656
虞庠在國之西郊	-12.9656
態	-12.9656
毆	-12.9656
裎	-12.9657
邱氏濬曰	-12.9657
執罇者舉冪	-12.9657
噭	-12.9657
伯七十里子男五十里	-12.9657
時聘以結諸侯之好	-12.9657
猋	-12.9657
螭	-12.9658
牓	-12.9658
菏	-12.966
講信脩睦	-12.966
淚	-12.966
鼷	-12.966
酆	-12.9661
龍章而設日月	-12.9661
羣士司刑皆在各麗其灋以議獄訟	-12.9661
春秋教以禮樂冬夏教以詩書	-12.9661
夏籥序興	-12.9661
散齊七日致齊三日	-12.9661
下管播樂器	-12.9662
欽定四庫全書日講禮記解義卷	-12.9662
歿	-12.9662
三公九卿二十七大夫八十一元士	-12.9662
嘬	-12.9663
狃	-12.9664
狡	-12.9665
逺郊二十而三	-12.9665
訐	-12.9666
戺	-12.9668
殱	-12.9668
窶	-12.9668
羣昭羣穆咸在	-12.9668
朏	-12.9668
庵	-12.9669
濼	-12.9669
覓	-12.967
蘜	-12.9672
穽	-12.9672
沬	-12.9675
躒	-12.9675
寨	-12.9679
藙	-12.9687
次席黼純	-12.9798
天子祭天地諸侯祭社稷	-12.986
匹夫匹婦	-12.986
名位不同禮亦異數	-12.9861
賾	-12.9862
儔	-12.9862
上介皆奉其君之	-12.9862
度待洛反	-12.9863
楮	-12.9863
衅	-12.9863
栗階不過二等	-12.9863
丱	-12.9863
奉尸斂于棺	-12.9863
臀	-12.9863
遘	-12.9864
敂	-12.9865
鏁	-12.9865
序則物當棟堂則物當楣	-12.9866
主人哭拜稽顙成踊	-12.9866
鶬	-12.9866
鬷	-12.9866
王氏應電曰	-12.9866
抒	-12.9866
缾	-12.9866
逭	-12.9867
派	-12.9868
金木水火土	-12.9869
狼臅膏	-12.9869
於郊則閭中	-12.9869
陳氏禮記集説補正	-12.987
㝢	-12.987
節禮記纂言卷	-12.9871
鐫	-12.9871
紩	-12.9871
昜	-12.9871
大夫判縣士特縣	-12.9871
軿	-12.9871
㓝	-12.9873
度中去日一百	-12.9873
執左馬以出	-12.9874
懥	-12.9874
熊氏安生曰	-12.9875
室有東西廂曰廟	-12.9875
摹	-12.9877
桺	-12.9881
撅	-12.9887
傼	-12.9905
焫	-12.9906
躳	-13.0053
張五采之侯則逺國屬	-13.0068
位定然後禄之	-13.0068
挾日而斂之	-13.0068
􁈭	-13.0069
二人史四人徒四十人	-13.0071
上士二人下士四人府一人史二人	-13.0071
朓	-13.0073
曆	-13.0074
嘗祫烝祫	-13.0074
與絶屬者同	-13.0076
三王之郊一用夏正	-13.0076
之斷其獄弊其訟	-13.0076
坐祭遂飲卒爵執爵以興坐奠爵拜	-13.0077
周禮述註卷	-13.0077
羔裘𤣥冠不以弔	-13.0077
禩	-13.0077
餁	-13.0078
侗	-13.0078
狁	-13.0078
國之大事在祀與戎	-13.0078
拉	-13.0079
令百官府共其財用	-13.0079
睽	-13.0079
韌	-13.0079
若不醴則醮用酒	-13.008
男男尸女女尸	-13.008
周禮註疏刪翼卷	-13.0081
廕	-13.0081
朔御含元殿受朝賀	-13.0081
萬物本乎天人本乎祖	-13.0081
處昌慮反	-13.0081
􁏉	-13.0081
廣古曠反	-13.0082
行以肆夏趨以采	-13.0082
西十北十	-13.0083
魚腸胃倫膚	-13.0083
裘之裼也見美也	-13.0083
應應對之應	-13.0083
町	-13.0084
欽定四庫全書禮記析疑卷	-13.0085
鳩化為鷹	-13.0089
善則稱人過則稱	-13.0091
千二百九十六匹	-13.0091
蒲筵常緇布純	-13.0092
長孫無忌	-13.0092
􁈍	-13.0092
䟫	-13.0276
呴	-13.0281
蜺	-13.0284
子女子子之長殤中殤	-13.0285
任官然後爵之	-13.0287
簚	-13.0287
胥二十人徒二百人	-13.0288
十一月而練十三月而祥十五月而禫	-13.0288
卒受者以虚觶降奠于篚	-13.0289
湄	-13.029
酣	-13.029
鞠躬拜興拜興拜興拜興平身	-13.029
有降有正有義	-13.029
燎於爐炭	-13.029
三退負序	-13.0291
懃	-13.0292
娭	-13.0292
膴鮑魚鱐	-13.0292
婼	-13.0293
埓	-13.0293
些	-13.0294
楖	-13.0294
坐奠觚于篚興對	-13.0294
開元禮迄今律文	-13.0294
奠者由重南東丈夫踊	-13.0294
皆當其物北面揖及物揖	-13.0295
鮨	-13.0295
嘏以慈告	-13.0296
冺	-13.0296
媛	-13.0296
鍳	-13.0296
若有東面者則北上	-13.0297
䓁	-13.0298
縗	-13.0298
誚	-13.0298
白與黑謂之黼	-13.0299
縫齊倍要	-13.0299
滲	-13.0299
熄	-13.03
甲士三人歩卒七十二人	-13.03
𣲖	-13.03
稷曰明粢	-13.03
黠	-13.03
酅	-13.03
腊如牲骨	-13.0301
左佩紛帨	-13.0303
柚	-13.0304
熲	-13.0304
大夫殺則止佐車	-13.0304
坐授瑟乃降	-13.0305
淫巧以蕩上心	-13.0306
㦲	-13.0307
澳	-13.0308
髓	-13.0308
竦	-13.0308
一壇一墠曰考廟曰王考廟曰皇考廟	-13.0308
勻	-13.0311
蘄	-13.0312
右首進腴	-13.0316
下士視上農夫	-13.044
潟	-13.0491
齕	-13.0503
䈼	-13.0505
先君餘尊之所厭	-13.0508
王以六耦射三侯	-13.0508
祭黍稷加肺	-13.051
土揖庶姓時揖異姓天揖同姓	-13.0511
墀	-13.0512
袋	-13.0512
若喪父而無服	-13.0513
玼	-13.0513
祭祀授舞者兵	-13.0514
掩骼埋胔	-13.0515
謔	-13.0515
之牢禮之陳數	-13.0516
斡	-13.0516
暈	-13.0517
奉尸侇于堂	-13.0517
壠	-13.0518
苃	-13.0518
五年而再殷祭	-13.0518
倐	-13.0518
五齊三酒以實八尊	-13.0519
笙入立于縣中	-13.0519
磐	-13.0519
昭與昭齒穆與穆齒	-13.052
鯤	-13.0521
䪐	-13.0521
小學在公宫南之左	-13.0521
釣	-13.0521
致樂以治心	-13.0522
橦	-13.0522
既灌然後迎牲	-13.0522
朝𤣥端夕深衣	-13.0522
􁃛	-13.0522
緊	-13.0523
坐如尸立如齊	-13.0523
並行而不相悖	-13.0524
袇	-13.0524
𥙷	-13.0525
男三十而娶女二十而嫁	-13.0525
磬半為堵全為肆	-13.0526
狘	-13.0527
碏	-13.0528
痁	-13.0528
貰	-13.0529
嚚	-13.053
琯	-13.0532
甸稍縣都皆無過十二	-13.0534
鱮	-13.0535
用薦嵗事于皇祖伯某	-13.0536
檮	-13.054
􁊇	-13.0691
鷸	-13.0717
中軍以鼙令鼓	-13.073
蓱	-13.0732
爱	-13.0734
衰七升冠十升	-13.0736
吻	-13.0739
春明夢餘録	-13.074
窕	-13.0741
有事其縷無事其布曰緦	-13.0741
上公七介侯伯五介子男三介	-13.0742
僇	-13.0743
下士八人府二人史四人胥十人徒百人	-13.0743
歌南有嘉魚笙崇丘歌南山有臺笙由儀	-13.0744
其夫屬乎父道者妻皆母道也	-13.0744
齔	-13.0744
癃	-13.0744
椵	-13.0744
女從者畢袗𤣥	-13.0745
腕	-13.0745
直祭祝于主	-13.0746
姚氏舜牧曰	-13.0746
墊	-13.0747
前期十日帥執事而卜日遂戒	-13.0747
知鬼神之情狀	-13.0747
𬞞	-13.0747
少詩照反	-13.0748
塈	-13.0748
鄲	-13.0749
蹤	-13.0749
三昭三穆與太祖之廟而七	-13.075
倩	-13.0751
劀	-13.0751
驥	-13.0751
䃉	-13.0751
窓	-13.0753
盃	-13.0753
濮安懿王	-13.0755
芭	-13.0757
癰	-13.0757
鬈	-13.0757
僰	-13.0757
透	-13.0758
沁	-13.0759
辨廟祧之昭穆	-13.0759
觡	-13.0761
澠	-13.0764
蛉	-13.0772
左酒右漿	-13.0958
軶	-13.0959
蜉	-13.0964
妢	-13.0964
蓁	-13.0965
虞人萊所田之野	-13.0965
琛	-13.0971
㓗	-13.0971
瓬	-13.0972
審曲面埶	-13.0972
丘氏濬曰	-13.0973
上士八人中士十有六人旅下士三	-13.0974
大史謁之天子曰	-13.0974
夷服鎮服蕃服	-13.0974
舉前曳踵	-13.0975
尽	-13.0975
閡	-13.0975
聆	-13.0976
愬	-13.0976
轜	-13.0977
渫	-13.0977
合六幣圭以馬璋以皮	-13.0977
其日壬癸	-13.0978
唐朝散大夫行太學博士	-13.0978
六十者三豆七十者四豆八十者五豆	-13.0978
家邑之田任稍地	-13.0978
捆	-13.0979
每等異位重行	-13.0979
米二十車禾三十車	-13.0979
辨其獄訟異其死刑之罪而要之	-13.0979
凡弔事弁絰服	-13.098
五聲六律十二管	-13.098
儘	-13.098
鬱齊獻酌	-13.098
悱	-13.098
溯	-13.0981
無宗亦莫之宗	-13.0981
佽	-13.0981
此於别錄屬	-13.0981
沍	-13.0981
襪	-13.0983
猜	-13.0983
蹔	-13.0984
瘥	-13.0984
馬八尺以上為龍	-13.0984
瘁	-13.0985
鎔	-13.0986
秭	-13.0986
二名不偏諱	-13.0987
輳	-13.0988
堥	-13.0988
厰	-13.0989
蠖	-13.0989
綰	-13.0991
絙	-13.0993
三賜不及車馬	-13.0993
秠	-13.0995
菫	-13.0996
弘	-13.1
灘	-13.1002
竺	-13.1191
媢	-13.1193
装	-13.1197
。23.	-13.1198
韈	-13.1199
從祖祖父母從祖父母	-13.1202
眹	-13.1203
輼	-13.1204
龍里縣知縣盛世佐撰	-13.1206
昶	-13.1207
均節邦之財用	-13.1207
撿	-13.1207
取蕭祭脂	-13.1209
田獵以習五戎	-13.1209
夫三為屋屋三為井	-13.1209
天子熊侯白質諸侯麋侯赤質	-13.1209
芐翦不納	-13.121
昳	-13.121
大司徒大司馬大司空	-13.1211
龢	-13.1211
喏	-13.1212
諟	-13.1213
食齊視春時	-13.1213
壌	-13.1214
公邑之田任甸地	-13.1214
脃	-13.1214
姜氏兆錫曰	-13.1215
其夫屬乎子道者妻皆婦道也	-13.1215
宅田士田賈田	-13.1216
端衰喪車皆無等	-13.1216
五溝五涂	-13.1216
螫	-13.1216
樂樂其所自生	-13.1217
為帷宫設旌門	-13.1217
冏	-13.1217
涖玉鬯省牲鑊奉玉齍	-13.1217
奨	-13.1218
夏六月以禘禮祀周公	-13.1218
稊	-13.1218
頳	-13.1218
曰考廟曰王考廟	-13.1218
𤦺	-13.1218
島	-13.1219
隂祀用黝牲	-13.1219
逖	-13.1219
楨	-13.122
未卜禘不視學	-13.1221
襁	-13.1221
櫻	-13.1221
孶	-13.1222
辤	-13.1222
晢	-13.1223
介公酅公	-13.1224
分其輪崇以其一為之牙圍	-13.1224
顆	-13.1225
詵	-13.1225
箠	-13.1225
嚃	-13.1225
見賢遍切	-13.1226
侍中版奏外辦皇帝	-13.1227
堙	-13.1227
菆塗龍輴以椁	-13.1227
沅	-13.1239
为	-13.1427
澁	-13.1444
論定然後官之	-13.145
嶷	-13.1451
冄	-13.1451
始封之君不臣諸父昆弟封君之子不臣	-13.1451
􁌽	-13.1453
菓	-13.1453
祋	-13.1454
遣車視牢具	-13.1454
天子之豆二十有六	-13.1454
嚕	-13.1454
犁	-13.1455
春多酸夏多苦秋多辛冬多鹹	-13.1455
眸	-13.1456
袀	-13.1456
於上等侯伯於中等子男於下	-13.1457
攬	-13.1457
䥴	-13.1457
有殯聞逺兄弟之喪	-13.1458
十日而成笙歌	-13.1458
稱天以誄之	-13.1458
休老勞農	-13.1458
偞	-13.1458
莧	-13.1458
萯	-13.1458
泚	-13.1459
璧以帛琮以錦琥以繡璜以黼	-13.146
穏	-13.146
糊	-13.1461
杉	-13.1461
旛	-13.1461
都邑之士則知尊禰	-13.1462
度律均鍾	-13.1462
曰皇尸未實侑	-13.1462
戴冕璪十有二旒	-13.1462
凡諸侯之卿其禮各下其君二等	-13.1462
祭百種以報嗇	-13.1463
梟	-13.1463
鞄	-13.1464
宋王昭禹撰	-13.1464
莤	-13.1465
屝	-13.1465
駰	-13.1465
逈	-13.1466
穨	-13.1466
買妾不知其姓則卜之	-13.1466
外朝在庫門之外	-13.1467
𣙜	-13.1468
以九貢致邦國之用	-13.1468
佐車止則百姓田獵	-13.1468
戱	-13.1469
工人士與梓人	-13.147
導引官導上	-13.147
淬	-13.147
姑饗婦人送者	-13.1471
殀	-13.1471
彧	-13.1472
慁	-13.1473
湫	-13.1473
尊于東楹之西兩方壺	-13.1473
薠	-13.1475
眙	-13.1476
鑴	-13.1686
躓	-13.1697
讚	-13.1699
張獸侯則王以息燕	-13.17
傳曰何以緦從服也	-13.1702
彎	-13.1702
文舞退武舞進	-13.1703
斞	-13.1703
旭	-13.1703
樂師掌國學之政	-13.1704
賫	-13.1704
瑳	-13.1704
摻	-13.1704
煇胞翟閽	-13.1704
獻祝祝拜坐受爵	-13.1705
前導官導皇帝	-13.1705
嬉	-13.1706
水兕革棺	-13.1706
祝受巾巾之	-13.1706
幣餘之賦以待賜予	-13.1706
擿	-13.1706
昱	-13.1707
搏拊琴瑟以詠	-13.1707
諤	-13.1708
敇	-13.1709
家禮孝慈録㑹典今律文並同	-13.1709
令百官府各正其治受其㑹	-13.1709
踴	-13.1711
掊	-13.1711
騮	-13.1711
莞席紛純	-13.1712
呌	-13.1712
藍田呂氏曰	-13.1712
周禮纂訓卷	-13.1712
說吐活反	-13.1713
鼒	-13.1713
癈	-13.1714
􁉂	-13.1714
麏	-13.1714
納幣一束束五兩兩五	-13.1714
唇	-13.1716
復亂以飭歸	-13.1716
幛	-13.1716
搥	-13.1716
崑	-13.1716
建安真氏曰	-13.1717
大夫以下成羣立社曰置社	-13.1717
則其聲疾而短聞	-13.1717
殮	-13.1718
捎	-13.1718
􁂄	-13.1718
璇	-13.1718
九尺諸侯七尺大夫五尺士三尺	-13.1718
希冕而下如子男之服	-13.1718
亹	-13.1718
闍	-13.1719
有薦新如朔奠	-13.1719
褓	-13.1719
改取一个挾之	-13.172
畦	-13.172
瀹	-13.1721
仡	-13.1722
饉	-13.1722
褊	-13.1723
礦	-13.1723
一稃二米	-13.1725
􁇦	-13.1727
竾	-13.1729
毨	-13.173
侂	-13.1739
緧	-13.1748
貆	-13.1936
禒	-13.194
􁐄	-13.1944
鬣	-13.1947
淂	-13.195
螔	-13.1953
窐	-13.1955
餚	-13.1959
倂	-13.1961
旱乾水溢	-13.1961
僕大右大僕從者	-13.1961
瞶	-13.1962
悮	-13.1962
闚	-13.1963
牋	-13.1963
辵	-13.1964
凡畫者丹質	-13.1965
飾羔鴈者以繢	-13.1965
卿以下必有圭田	-13.1965
皎	-13.1965
嘶	-13.1966
囟	-13.1967
𠯗	-13.1967
天氣下降地氣上騰	-13.1968
潛溪鄧氏曰	-13.1968
薉	-13.1968
擴	-13.1968
俚	-13.1968
酧	-13.1968
棷	-13.1968
􁋳	-13.1969
坻	-13.1969
瘉	-13.1969
酌而無酬酢曰醮	-13.1969
嗤	-13.1969
歰	-13.1969
戡	-13.1969
匭	-13.1969
無暴亂之禍矣	-13.1969
圯	-13.197
相者入告出曰孤某須矣	-13.197
璩	-13.1971
椓	-13.1971
圂	-13.1971
樗	-13.1971
愊	-13.1973
塗車芻靈	-13.1973
遡	-13.1973
泫	-13.1974
三昭三穆與大祖之廟而七	-13.1974
蟊	-13.1974
穗	-13.1978
葘	-13.1978
蹋	-13.1979
使次介假道	-13.1981
嗽	-13.1986
温柔敦厚	-13.1999
蠁	-13.2209
姤	-13.2212
輬	-13.2213
祥而縞是月禫徙月樂	-13.2215
羞豆之實酏食糝食	-13.2216
慍	-13.2218
副笄六珈	-13.2222
鉗	-13.2223
䍿	-13.2223
尸服卒者之上服	-13.2224
凡介行人宰史皆有飱饔餼以其爵等為	-13.2224
與尊者為一體不敢服其私親	-13.2225
周弁殷冔夏收	-13.2225
畒	-13.2226
凡介行人宰史	-13.2226
繼世以立諸侯象賢也	-13.2227
犉	-13.2227
祀先賢於西學	-13.2227
帥學士而歌徹	-13.2227
戛擊鳴球	-13.2227
耰	-13.2228
繫之以姓而弗别綴之以食而弗殊	-13.2229
胤	-13.2229
擇元日命民社	-13.223
𤱔	-13.223
窈	-13.223
票	-13.223
娯	-13.223
佇	-13.2231
菉	-13.2231
揀	-13.2231
俎序其禮樂備其百官	-13.2231
士弁而祭於公冠而祭於	-13.2231
麻冕黼裳	-13.2231
爕	-13.2232
偵	-13.2232
髧	-13.2232
加以璧散璧角	-13.2233
婦徳婦言婦容婦功	-13.2233
日至之景尺有五寸謂之地中	-13.2233
翩	-13.2233
官長所自辟除	-13.2234
中和祗庸孝友	-13.2235
春合舞秋合聲	-13.2235
共其魚之鱻薧	-13.2236
溜	-13.2238
褾	-13.2239
郁郁乎文	-13.224
濠	-13.2241
鋪筵設同几	-13.2241
酖	-13.2243
蹟	-13.2244
煞	-13.2245
鄄	-13.225
開倉賑恤	-13.2486
祝取銘置于重	-13.2486
舉斚角詔妥尸	-13.2486
嫁從夫夫死從子	-13.2488
鸚	-13.2489
爵授執事者執笏	-13.249
啄	-13.249
宰夫自東房薦豆六	-13.249
夫布侯畫以虎豹士布侯畫以鹿豕	-13.2492
遹	-13.2493
瑪	-13.2494
莝	-13.2495
有受我而厚之者	-13.2495
居四民時地利	-13.2495
偦	-13.2495
炷	-13.2495
郊血大饗腥三獻爓一獻孰	-13.2495
畸	-13.2495
夫人致禮八壺八豆八籩膳大牢致饗	-13.2496
乃薦司正與射人	-13.2496
拇	-13.2497
楘	-13.2497
酗	-13.2497
春液角夏治筋	-13.2497
蚋	-13.2498
净	-13.2498
公妾以及士妾	-13.2498
其不能改而出圜土者殺	-13.2498
鮫	-13.2499
卉	-13.2499
鄗	-13.2499
聽其獄訟察其辭	-13.2499
餱	-13.25
樂也者動於内者也禮也者動於外者也	-13.25
之日天子親帥三公九卿諸侯大夫以迎	-13.25
用肩主人用臂	-13.25
旬而職聽于朝	-13.2501
祈來年于天宗	-13.2501
灌以圭璋用玉氣也	-13.2501
勝者之弟子洗觶升酌	-13.2502
王之三公八命其卿六命其大夫四命	-13.2502
行神之位在廟門	-13.2502
雎	-13.2502
亨普庚反	-13.2502
珂	-13.2502
周人養國老於東膠養庶老於虞庠	-13.2504
􁏿	-13.2504
篤恭而天下平	-13.2505
崛	-13.2505
銍	-13.2506
蹢	-13.2506
饜	-13.2506
鎖	-13.2506
㽅	-13.2507
朝一哭夕一哭	-13.2507
髣	-13.2507
廽	-13.2507
三百六十五度四分度之一	-13.2508
岌	-13.2509
螵	-13.2509
閌	-13.2509
設中南當楅西當西序	-13.2512
㵼	-13.2513
峪	-13.2514
儐者入告主人曰	-13.2515
橧	-13.2519
宂	-13.2519
腑	-13.2522
駉	-13.2754
餤	-13.2759
綫	-13.2762
螾	-13.2763
裓	-13.2766
鵡	-13.2766
悽	-13.2766
緦冠繰纓	-13.2767
傀	-13.2767
府六人史十有二人胥十有二人徒百	-13.277
荻	-13.2771
始死羔裘𤣥冠者易	-13.2772
以射法治射儀	-13.2772
出鄉不與士齒	-13.2773
侯執信圭伯執躬圭	-13.2773
倍躬以為左右舌	-13.2774
韠君朱大夫素士爵韋	-13.2775
閠	-13.2775
徤	-13.2775
鳱	-13.2775
巍	-13.2775
王弔則與祝前	-13.2776
壺酒束脩一犬	-13.2777
慆	-13.2777
濛	-13.2777
悚	-13.2777
帴	-13.2778
子執榖璧男執蒲璧	-13.2778
醪	-13.2778
受爵于筵前反位主人	-13.2778
勣	-13.2778
宰胥薦脯醢由左房	-13.2778
掄	-13.2778
樁	-13.2779
默	-13.2779
錫之山川土田附庸	-13.2779
豁	-13.2781
脅一正脅一代脅一皆二骨以並	-13.2781
廨	-13.2781
坐左納右坐右納左	-13.2781
遷主所藏曰祧	-13.2781
及窆執斧以涖	-13.2781
張氊案設皇邸	-13.2782
皇尸命工祝承致多福無疆于	-13.2782
鴿	-13.2782
曄	-13.2782
覊	-13.2783
輠	-13.2783
鄠	-13.2784
欝	-13.2784
興順羽且左還毋周反面揖	-13.2785
帶縁各視其冠	-13.2786
姞	-13.2786
尩	-13.2786
漑	-13.2787
棊	-13.2787
苻	-13.2788
幧	-13.2789
羞濡魚者進尾	-13.2789
砂	-13.279
廚	-13.279
冬用雉夏用腒	-13.2791
宧	-13.2791
不犯弱衆不暴寡	-13.2794
怗	-13.2796
沇	-13.2798
灃	-13.2806
丣	-13.2814
謄	-13.3031
鞾	-13.3043
傳曰何以緦也以名服也	-13.3048
崤	-13.3049
七分三在前四在後	-13.305
頋	-13.3052
鬢	-13.3053
諸宰君婦廢徹	-13.3055
獻命庫門之内戒百官也	-13.3055
齊其政不易其宜	-13.3056
司徒旅歸四布	-13.3056
明則有禮樂幽則有鬼神	-13.3057
敶	-13.3057
莪	-13.3057
璧琮九寸諸侯以享天子	-13.3057
尙	-13.3058
􁆳	-13.3058
曦	-13.3058
𢷬	-13.3059
裻	-13.3059
親耕粢盛秬鬯以事上帝	-13.3059
五日彈琴而不成聲	-13.306
旡	-13.306
諉	-13.306
以飲食之禮親宗族兄弟	-13.306
斬衰之葛與齊衰之麻同	-13.3061
伹	-13.3061
師都建旗州里建旟縣鄙建旐	-13.3061
以玉作六器以禮天地四方	-13.3061
姻不通者周道然也	-13.3061
羣居則絰出則否	-13.3061
孔子射於矍相之圃	-13.3062
周禮全經釋原	-13.3062
雉雊雞乳	-13.3063
經土地而井牧其田野	-13.3063
則以禮屬民而飲酒于序以正齒位	-13.3063
凡起徒役毋過家一人	-13.3064
三辰旂旗昭其明也	-13.3064
掌三公及孤卿之復逆	-13.3064
异	-13.3064
苴杖竹也削杖桐也	-13.3065
侯緦衰為大夫士疑衰	-13.3065
佹	-13.3065
栒	-13.3065
穩	-13.3065
㗖	-13.3066
天子將祭必先習射於澤	-13.3066
使各以教其所治	-13.3066
韓穿來言汶陽之田	-13.3067
睠	-13.3067
醻	-13.3067
王為三公六卿錫衰為諸	-13.3067
御婦人則進左手	-13.3068
五寸二十五分寸之十九	-13.3068
北面坐卒爵興坐奠爵遂拜執爵興	-13.3068
估	-13.3068
瞎	-13.3068
髴	-13.3069
揥	-13.3069
泐	-13.3069
赭	-13.3069
君所主夫人妻大子適婦	-13.3069
懟	-13.307
國有大故則旅上帝及四望	-13.307
膘	-13.307
陬	-13.307
邗	-13.307
膟	-13.307
大夫冕而祭於公弁而祭於	-13.3071
祝酌授尸尸以醋主人	-13.3072
帔	-13.3072
臞	-13.3073
勗	-13.3074
剩	-13.3074
民無常職轉移執事	-13.3075
撝	-13.3076
親親以三為五以五為九	-13.3076
合累牛騰馬	-13.3077
膜	-13.3079
窳	-13.3081
懘	-13.3083
灣	-13.3085
蜾	-13.3093
◍	-13.3167
宿第一星偏西二度	-13.3333
天髙地下萬物散殊	-13.3343
魌	-13.3346
凜	-13.3347
主人興辭於客然後客坐	-13.3347
觝	-13.3348
羞卿者小膳宰	-13.3349
􁉔	-13.335
徘	-13.3351
獼	-13.3351
行五拜三叩頭禮	-13.3352
屬纊以俟絶氣	-13.3352
大計羣吏之治而誅賞之	-13.3352
齊衰之葛與大功之麻同	-13.3352
君卷冕立于阼	-13.3352
饕	-13.3353
舋	-13.3353
縮酌用茅明酌也	-13.3353
珉	-13.3354
脄	-13.3354
崐	-13.3354
堂事交乎階	-13.3354
四丘為甸四甸為縣四縣為都	-13.3354
昫	-13.3354
瑑琮八寸諸侯以享夫人	-13.3355
國之俊選皆造焉	-13.3355
瓌	-13.3356
曰孤敢固辭吾子之辱請吾子之復位客	-13.3356
佐食取黍稷肺祭授尸尸祭之	-13.3356
䡖	-13.3357
襗	-13.3357
謁者贊引各引	-13.3358
暄	-13.3358
羔豚而祭百官皆足	-13.3358
使其地之人守其財物	-13.3358
菩	-13.3359
剕	-13.3359
眄	-13.3359
㮣	-13.3359
以脤膰之禮親兄弟之國	-13.336
頭等侍衛納喇性徳撰	-13.3361
戔	-13.3361
鵠方四尺六寸大半寸	-13.3361
王大子王子羣后之大子卿大夫元	-13.3362
縣又東北流至	-13.3362
茷	-13.3362
汪氏克寛曰	-13.3363
親始死雞斯徒跣	-13.3363
靾	-13.3363
蹊	-13.3363
君在大夫射則肉袒	-13.3363
子貢越席而對曰敢問	-13.3363
跪讀祝文曰維某年	-13.3363
舅没則姑老	-13.3364
謾	-13.3364
綈	-13.3364
是地於日為近	-13.3365
鹿幦豹犆	-13.3365
紉	-13.3365
篳	-13.3366
䯤	-13.3366
安上治民莫善於禮	-13.3367
搭	-13.3367
芃	-13.3368
滴	-13.3369
兆山川丘陵墳衍各因其方	-13.337
鄔	-13.337
荑	-13.3371
碭	-13.3374
魅	-13.3374
槪	-13.3376
姫	-13.338
甍	-13.3385
畫純加次席黼純左右玉几	-13.3462
宿第一星偏東三度	-13.3635
襂	-13.3639
刜	-13.364
迸	-13.3648
三日具沐五日具浴	-13.3648
含一牀襲一牀遷尸	-13.3651
十六斗曰籔十籔曰秉	-13.3651
及六十野自六尺以及六十有五皆征之	-13.3651
攝主不厭祭不旅不假不綏祭不配	-13.3651
􁈞	-13.3651
[...]
