<unk>	0
<s>	0
</s>	0
之	-4.22046
而	-4.89117
/	-4.96563
以	-5.04718
(	-5.20022
)	-5.29051
有	-5.33368
其	-5.33805
也	-5.35289
者	-5.43987
一	-5.58063
不	-5.58621
為	-5.6086
於	-5.61455
人	-5.68474
爲	-5.76869
自	-5.84694
無	-5.89383
公	-5.95118
與	-5.96916
則	-5.97582
中	-5.98512
)(	-5.99822
如	-6.01612
山	-6.06079
時	-6.07472
大	-6.07735
行	-6.08636
在	-6.13802
此	-6.15166
至	-6.18426
子	-6.18842
書	-6.23077
文	-6.25543
生	-6.25777
得	-6.25836
上	-6.25983
曰	-6.27263
三	-6.27494
天	-6.28359
見	-6.29154
亦	-6.29508
所	-6.30816
水	-6.31891
作	-6.3321
事	-6.33557
是	-6.35411
于	-6.35915
言	-6.38096
▁	-6.39733
日	-6.40522
又	-6.43008
君	-6.4338
王	-6.43713
已	-6.44788
心	-6.44813
長	-6.46328
名	-6.46908
出	-6.47868
矣	-6.48359
成	-6.49103
然	-6.49566
風	-6.51364
同	-6.52566
明	-6.54669
後	-6.55518
入	-6.55657
下	-6.56228
皆	-6.56326
來	-6.57509
故	-6.57577
非	-6.57859
詩	-6.58183
多	-6.5839
道	-6.59235
相	-6.6013
春	-6.61359
可	-6.61747
傳	-6.62387
今	-6.62658
及	-6.63674
復	-6.63692
二	-6.642
雲	-6.64405
未	-6.65112
家	-6.65979
我	-6.66098
當	-6.66484
花	-6.675
知	-6.68524
正	-6.69259
重	-6.69607
歸	-6.6982
前	-6.7067
聲	-6.71635
石	-6.71789
因	-6.72626
乃	-6.72838
方	-6.73462
若	-6.73991
去	-6.74277
過	-6.76615
將	-6.7666
乎	-6.81234
月	-6.82317
地	-6.82599
欲	-6.82624
用	-6.83286
小	-6.84314
官	-6.8482
四	-6.85728
古	-6.86051
南	-6.87016
分	-6.88071
題	-6.88114
新	-6.8866
清	-6.8912
應	-6.89599
思	-6.89982
五	-6.90076
臣	-6.90453
本	-6.90754
惟	-6.91894
何	-6.92023
望	-6.92368
先生	-6.92562
雨	-6.93383
開	-6.937
經	-6.94504
初	-6.94967
秋	-6.9501
金	-6.95605
從	-6.9572
玉	-6.96105
即	-6.96842
聞	-6.97337
城	-6.97635
盡	-6.97688
意	-6.97691
先	-6.97698
西	-6.9792
安	-6.97923
州	-6.98064
年	-6.99378
深	-7.00346
字	-7.00427
焉	-7.00679
且	-7.00812
實	-7.01554
平	-7.02129
世	-7.02191
門	-7.02679
國	-7.02736
或	-7.03093
命	-7.03265
難	-7.03794
學	-7.0384
東	-7.04099
稱	-7.04793
能	-7.05084
雖	-7.0537
諸	-7.05432
等	-7.05699
居	-7.05951
更	-7.05951
兩	-7.05983
老	-7.06913
定	-7.07127
民	-7.07278
謂	-7.08152
流	-7.08241
空	-7.09992
猶	-7.1032
江	-7.10345
元	-7.10372
數	-7.10797
云	-7.10806
觀	-7.11052
吾	-7.11547
令	-7.12398
圖	-7.12469
合	-7.12791
處	-7.1281
予	-7.12915
始	-7.1335
志	-7.14546
馬	-7.14571
白	-7.1501
通	-7.15171
好	-7.15254
六	-7.15365
必	-7.1566
近	-7.16603
論	-7.16695
髙	-7.1732
問	-7.1743
客	-7.1779
法	-7.17869
張	-7.17904
獨	-7.18108
還	-7.18227
余	-7.1861
夫	-7.18847
使	-7.19078
九	-7.20269
神	-7.20535
外	-7.20707
海	-7.20893
易	-7.2094
舊	-7.21025
光	-7.21292
起	-7.21925
河	-7.23207
林	-7.23393
師	-7.23464
語	-7.23932
陳	-7.24082
立	-7.24479
身	-7.24482
香	-7.24766
氣	-7.25487
兵	-7.25902
集	-7.26394
和	-7.26606
義	-7.26974
遂	-7.27484
少	-7.27875
周	-7.27962
逺	-7.28074
北	-7.28754
寒	-7.28834
發	-7.28972
興	-7.29227
堂	-7.29374
似	-7.30039
夜	-7.30046
朝	-7.30061
序	-7.3085
樂	-7.31001
情	-7.31501
向	-7.31639
間	-7.31643
耳	-7.31832
爾	-7.32001
龍	-7.32772
高	-7.34323
飛	-7.3476
宜	-7.35064
餘	-7.35481
禮	-7.36066
記	-7.36074
歌	-7.36212
善	-7.36373
路	-7.36521
萬	-7.37561
李	-7.38113
常	-7.38554
取	-7.39067
閒	-7.39337
氏	-7.39457
黄	-7.39957
陽	-7.40175
各	-7.40347
華	-7.40515
畫	-7.4062
士	-7.41175
樹	-7.41256
物	-7.41328
色	-7.41551
田	-7.42119
既	-7.42263
雪	-7.42316
尚	-7.42415
坐	-7.42696
舉	-7.4287
宗	-7.4367
親	-7.43862
死	-7.44188
百	-7.44812
紅	-7.44894
賦	-7.45694
景	-7.45788
酒	-7.46914
/)	-7.46966
益	-7.47273
縣	-7.47637
頭	-7.47835
衣	-7.47995
節	-7.48019
守	-7.48089
斯	-7.48104
足	-7.48711
漢	-7.49042
青	-7.49101
手	-7.49118
信	-7.49133
寺	-7.51255
次	-7.5159
共	-7.52116
理	-7.52415
甚	-7.52423
喜	-7.525
請	-7.52756
看	-7.52935
草	-7.52947
樓	-7.53152
登	-7.53535
八	-7.53648
致	-7.53867
来	-7.5403
首	-7.54079
女	-7.54137
哉	-7.54436
母	-7.54808
都	-7.54871
莫	-7.55297
亭	-7.55801
土	-7.56391
留	-7.56466
真	-7.56639
章	-7.568
不可	-7.56992
直	-7.57108
解	-7.57203
落	-7.57264
治	-7.57274
史	-7.57303
力	-7.5735
送	-7.57374
仍	-7.5785
不能	-7.57904
内	-7.58143
臺	-7.5838
到	-7.58416
卽	-7.58485
誰	-7.58642
齊	-7.58724
報	-7.58751
七	-7.58755
兮	-7.58891
武	-7.58957
臨	-7.59046
竹	-7.59811
奏	-7.59868
松	-7.60161
凡	-7.60476
久	-7.60791
誠	-7.60888
異	-7.60974
德	-7.60988
木	-7.61087
宋	-7.61208
勝	-7.6121
並	-7.61261
顧	-7.61723
度	-7.61781
豈	-7.61799
十	-7.61845
著	-7.6241
進	-7.62479
齋	-7.62586
口	-7.62681
滿	-7.63022
夏	-7.63112
曲	-7.63251
任	-7.63388
原	-7.63854
唐	-7.64132
别	-7.64789
吳	-7.65112
徳	-7.65176
載	-7.65678
交	-7.65918
修	-7.66161
半	-7.67002
求	-7.67175
敬	-7.67326
孫	-7.67331
食	-7.67345
寧	-7.67383
韻	-7.67495
園	-7.68233
終	-7.68666
奉	-7.68847
識	-7.68849
讀	-7.69366
每	-7.69552
引	-7.69682
屬	-7.70491
存	-7.70522
對	-7.70838
主	-7.70843
兹	-7.70951
由	-7.71048
千	-7.71067
早	-7.71294
湖	-7.71372
失	-7.71381
再	-7.71413
賢	-7.71468
淸	-7.7149
詞	-7.71816
目	-7.71886
魚	-7.72138
愁	-7.72407
連	-7.72864
期	-7.72916
永	-7.72927
祖	-7.73125
教	-7.73135
全	-7.73323
辭	-7.73369
輕	-7.73384
寄	-7.73707
工	-7.74029
溪	-7.7432
彼	-7.74405
動	-7.74428
泉	-7.75067
葉	-7.75116
視	-7.7517
隨	-7.75504
說	-7.75518
疑	-7.75601
夢	-7.7562
念	-7.76029
賊	-7.76029
兼	-7.76064
車	-7.76641
受	-7.76926
贈	-7.77098
幸	-7.77163
嘗	-7.77215
固	-7.77936
衆	-7.78621
比	-7.78743
閣	-7.79102
止	-7.7916
府	-7.79165
孤	-7.79377
幾	-7.79424
巳	-7.79638
省	-7.79934
轉	-7.80023
影	-7.80368
微	-7.80457
計	-7.80497
野	-7.80579
遊	-7.8062
就	-7.80633
試	-7.80906
聖	-7.81095
㑹	-7.81387
室	-7.81551
游	-7.81611
才	-7.81694
體	-7.82241
嵗	-7.82396
幽	-7.82583
賜	-7.82799
許	-7.83121
指	-7.83172
吟	-7.83764
朱	-7.83925
仙	-7.84133
歲	-7.843
愛	-7.84356
宫	-7.8454
遺	-7.84809
笑	-7.84895
火	-7.85133
星	-7.85384
父	-7.85502
極	-7.85577
政	-7.8561
議	-7.85848
靈	-7.85848
俱	-7.85943
建	-7.86085
便	-7.8617
廣	-7.86826
遇	-7.86962
劉	-7.87073
注	-7.87163
波	-7.87535
帝	-7.87591
容	-7.8763
筆	-7.87748
封	-7.87802
服	-7.87852
要	-7.87891
絶	-7.88508
素	-7.88621
精	-7.88654
承	-7.8899
待	-7.89038
旣	-7.89055
照	-7.89064
垂	-7.89298
病	-7.89447
越	-7.89592
澤	-7.89628
曾	-7.89694
刻	-7.9016
雙	-7.90255
種	-7.9026
仁	-7.90544
移	-7.90651
陵	-7.90765
苦	-7.91014
烟	-7.91039
右	-7.91102
軒	-7.91116
代	-7.91245
亂	-7.91369
良	-7.91376
感	-7.91451
懐	-7.91582
往	-7.9165
但	-7.9166
以爲	-7.9169
考	-7.92
弗	-7.92055
軍	-7.92131
列	-7.92364
據	-7.92833
加	-7.92941
謝	-7.93086
天下	-7.93269
尋	-7.93332
羣	-7.93655
功	-7.93673
秦	-7.93681
端	-7.9387
特	-7.93904
伯	-7.9408
窮	-7.94176
收	-7.94382
徐	-7.94388
里	-7.94762
楚	-7.95073
具	-7.95504
橋	-7.95508
恩	-7.95603
音	-7.95807
化	-7.95841
忽	-7.96022
羅	-7.96114
關	-7.96263
塵	-7.96272
卒	-7.96279
改	-7.96296
紀	-7.96544
梁	-7.9676
聽	-7.96919
却	-7.96979
最	-7.97157
露	-7.97449
司	-7.97488
晴	-7.97752
不知	-7.9779
尤	-7.97819
適	-7.98165
驚	-7.98262
利	-7.98587
篇	-7.98935
表	-7.98978
被	-7.99003
散	-7.99007
設	-7.99034
池	-7.99345
梅	-7.99587
殊	-7.99637
性	-7.99666
率	-8.0038
變	-8.00396
詠	-8.00647
補	-8.0069
徒	-8.008
翠	-8.00958
置	-8.01211
錢	-8.01378
達	-8.01459
慶	-8.02088
號	-8.02331
葢	-8.0245
廟	-8.02552
燕	-8.02595
黃	-8.02634
結	-8.02742
句	-8.02855
昔	-8.03118
者也	-8.03526
卷	-8.03534
兒	-8.0375
遠	-8.03796
楊	-8.04319
接	-8.04406
宿	-8.04567
沙	-8.0465
碧	-8.04713
邊	-8.04986
放	-8.05109
左	-8.05189
部	-8.05261
荒	-8.05263
隂	-8.05381
堪	-8.05437
養	-8.0557
依	-8.05695
持	-8.05842
仲	-8.05885
侯	-8.05963
詳	-8.06043
尊	-8.0609
繼	-8.0621
晉	-8.06311
御	-8.06463
浮	-8.06491
舟	-8.06667
布	-8.06683
嚴	-8.06874
覺	-8.0691
漸	-8.06915
曽	-8.07141
盛	-8.07275
願	-8.07407
嘉	-8.07471
勞	-8.07524
撫	-8.07546
殘	-8.07673
鳴	-8.07739
疏	-8.07901
所謂	-8.08075
俗	-8.08233
破	-8.0838
孝	-8.08534
推	-8.08742
佛	-8.08904
延	-8.08958
曉	-8.09233
枝	-8.09257
太	-8.09421
貴	-8.0954
調	-8.09729
象	-8.09769
霜	-8.09844
紫	-8.09951
藏	-8.10215
逢	-8.10874
佳	-8.10881
施	-8.10991
克	-8.11003
授	-8.11094
制	-8.11145
巻	-8.11655
弟	-8.11678
竒	-8.11799
積	-8.11814
懷	-8.11852
川	-8.11944
蓋	-8.11992
庭	-8.12195
憂	-8.12261
偶	-8.12268
所以	-8.12301
不得	-8.12596
示	-8.12834
蘭	-8.12852
而不	-8.12963
鄉	-8.12975
斷	-8.13016
降	-8.13024
朕	-8.13045
可以	-8.13047
殿	-8.13109
郡	-8.13551
船	-8.13591
友	-8.13708
裏	-8.13964
總	-8.13976
營	-8.14116
細	-8.14326
以為	-8.14357
絲	-8.14424
祠	-8.14454
習	-8.14513
靑	-8.14569
雅	-8.15074
憶	-8.15215
静	-8.15376
遲	-8.15483
遷	-8.15492
恐	-8.15605
形	-8.15714
皇	-8.15786
宣	-8.15912
屋	-8.15918
銀	-8.15956
美	-8.15982
珠	-8.1609
呼	-8.16369
切	-8.16515
偏	-8.16853
簡	-8.16977
類	-8.17021
翁	-8.17699
逰	-8.1797
眞	-8.18041
薄	-8.18403
含	-8.18498
趙	-8.1864
除	-8.18788
備	-8.18962
芳	-8.1899
峯	-8.19019
虚	-8.19173
擬	-8.19338
離	-8.19557
運	-8.19667
勢	-8.19808
回	-8.19867
巖	-8.19868
陸	-8.19894
急	-8.20384
汝	-8.20411
迎	-8.20575
阿	-8.20681
鳥	-8.20685
按	-8.20795
崇	-8.20814
竟	-8.21004
負	-8.21098
村	-8.21188
祭	-8.21243
盤	-8.21568
告	-8.21599
吏	-8.21908
醉	-8.22005
亡	-8.22963
市	-8.23394
福	-8.23547
惜	-8.2359
勤	-8.2366
休	-8.2383
典	-8.24006
濟	-8.2417
扵	-8.24251
昭	-8.24613
資	-8.24825
谷	-8.2489
例	-8.25138
緑	-8.25794
遣	-8.2585
面	-8.26075
辨	-8.26328
倚	-8.26392
京	-8.26411
鶴	-8.26483
鄭	-8.26587
果	-8.26748
横	-8.26798
沈	-8.26904
忠	-8.27152
反	-8.27222
他	-8.27498
疾	-8.27614
将	-8.27695
業	-8.28119
悲	-8.2817
罷	-8.28269
折	-8.28617
春秋	-8.28691
豐	-8.28726
商	-8.29001
附	-8.29119
曹	-8.29123
約	-8.29447
冬	-8.29586
之所	-8.29755
順	-8.29814
墨	-8.29964
嶺	-8.29968
并	-8.30031
忘	-8.30086
追	-8.30226
戒	-8.30277
烏	-8.30344
隱	-8.30378
懸	-8.30519
保	-8.3052
如此	-8.30601
帶	-8.30915
厚	-8.31478
哀	-8.3168
僧	-8.31885
恭	-8.32107
隔	-8.32151
謀	-8.3222
雜	-8.32274
爭	-8.3232
拜	-8.32414
晩	-8.3283
支	-8.32964
賞	-8.3299
敢	-8.33124
翻	-8.3314
峰	-8.33247
英	-8.33268
闗	-8.33323
魯	-8.3355
蒼	-8.33808
述	-8.3389
寫	-8.3451
悉	-8.34858
殺	-8.34894
獻	-8.34936
房	-8.35077
虎	-8.3519
婦	-8.35242
甫	-8.35393
栁	-8.35449
煙	-8.35508
程	-8.3566
境	-8.35716
息	-8.35913
獲	-8.35919
屢	-8.36225
惡	-8.36247
傷	-8.36318
申	-8.36515
某	-8.36538
源	-8.36561
索	-8.36576
徵	-8.36619
潤	-8.36633
卿	-8.36633
燈	-8.36904
頻	-8.36918
邑	-8.37302
伏	-8.37328
揚	-8.37339
私	-8.3736
陰	-8.37446
宮	-8.37489
綠	-8.37527
吉	-8.37584
仰	-8.37608
耶	-8.37704
會	-8.37787
戰	-8.37797
圍	-8.37798
慰	-8.37867
旋	-8.37923
韓	-8.37956
須	-8.37959
蘇	-8.38019
江南	-8.38154
累	-8.38534
藉	-8.3854
塞	-8.38626
消	-8.38658
廢	-8.38796
根	-8.39003
勿	-8.39025
務	-8.39061
牛	-8.39198
訓	-8.39212
冠	-8.39372
説	-8.3946
咸	-8.3947
職	-8.39479
末	-8.39497
魏	-8.39621
位	-8.3981
釋	-8.39915
維	-8.39934
錄	-8.40154
律	-8.40431
昌	-8.40447
博	-8.40458
諭	-8.40471
遥	-8.40558
徑	-8.40691
榮	-8.40716
詔	-8.40819
飲	-8.40845
丹	-8.40866
儒	-8.40891
壽	-8.41248
錦	-8.41353
舍	-8.41657
麥	-8.41733
條	-8.41825
碑	-8.42101
漫	-8.42211
衰	-8.42424
鼓	-8.42486
甘	-8.42844
叔	-8.4293
寳	-8.42933
欣	-8.42944
儀	-8.43037
祀	-8.43176
丁	-8.43177
盖	-8.43195
執	-8.43258
誤	-8.43393
秀	-8.43583
銘	-8.43686
恒	-8.43869
禁	-8.44133
那	-8.44193
季	-8.44448
免	-8.44521
投	-8.44677
鴻	-8.44795
莊	-8.44851
虞	-8.45148
君子	-8.45163
造	-8.45377
米	-8.45493
鏡	-8.45728
胡	-8.45833
編	-8.45925
角	-8.46015
闕	-8.46249
院	-8.46293
井	-8.46417
敎	-8.46661
妙	-8.46785
采	-8.46865
乾	-8.47168
荷	-8.4729
夀	-8.47405
歴	-8.47904
雄	-8.47926
㡬	-8.47975
器	-8.48018
柳	-8.48164
恨	-8.48598
訪	-8.48643
館	-8.48751
聚	-8.49397
農	-8.49403
管	-8.49438
胥	-8.49462
選	-8.49537
甲	-8.49571
頗	-8.49596
顯	-8.49613
讀書	-8.49728
乗	-8.50205
較	-8.50226
均	-8.50302
奇	-8.5036
抱	-8.50494
招	-8.50508
兄	-8.50664
稍	-8.50671
晚	-8.51196
琴	-8.51307
郎	-8.51435
格	-8.51496
壁	-8.5154
射	-8.52045
候	-8.52057
借	-8.521
二首	-8.52227
殷	-8.52331
納	-8.52382
吹	-8.52902
歡	-8.52994
禪	-8.53041
駐	-8.53098
慮	-8.53111
渡	-8.53144
機	-8.53172
談	-8.53306
孟	-8.5331
舞	-8.53341
謹	-8.53385
况	-8.53417
額	-8.53708
凉	-8.54118
畢	-8.5412
征	-8.54128
別	-8.54179
質	-8.54243
眼	-8.54431
只	-8.54487
靜	-8.54595
差	-8.54704
歎	-8.54711
披	-8.55054
威	-8.5537
冷	-8.55403
侍	-8.55473
洞	-8.55702
麗	-8.55913
族	-8.56031
寛	-8.56119
憐	-8.56258
略	-8.564
不敢	-8.56413
升	-8.56445
夕	-8.56682
陶	-8.56896
康	-8.57058
孔	-8.57208
底	-8.57228
避	-8.57486
退	-8.57663
羽	-8.57704
杜	-8.57955
赴	-8.58099
傍	-8.58196
盈	-8.58234
慈	-8.58393
走	-8.5844
富	-8.58642
貞	-8.58751
給	-8.58778
姑	-8.59035
貧	-8.59471
逸	-8.59616
鮮	-8.59709
耕	-8.59716
符	-8.59907
宅	-8.60364
逐	-8.60405
藥	-8.60536
顔	-8.60771
斜	-8.60948
攻	-8.61016
毛	-8.61105
骨	-8.61549
於是	-8.6171
惠	-8.61748
覽	-8.61748
覆	-8.61775
跋	-8.61863
住	-8.61947
竊	-8.62021
僕	-8.62114
鼎	-8.62183
續	-8.62232
乘	-8.62249
棄	-8.62536
三年	-8.6256
今日	-8.62644
答	-8.62918
第	-8.6307
席	-8.63083
熟	-8.63284
狂	-8.6344
昨	-8.63485
頌	-8.63637
環	-8.63745
短	-8.64143
領	-8.64168
天子	-8.64193
眀	-8.64201
旁	-8.64267
騎	-8.64284
供	-8.64388
而後	-8.64462
岸	-8.64505
愚	-8.6455
霞	-8.64562
墓	-8.64585
傾	-8.64668
跡	-8.65089
展	-8.65282
罪	-8.65339
籍	-8.65361
祗	-8.65387
庶	-8.65471
菴	-8.65587
步	-8.65744
充	-8.65899
築	-8.65939
嗣	-8.66109
參	-8.66114
馳	-8.66215
響	-8.66413
赤	-8.66515
案	-8.6656
葬	-8.66587
十二	-8.66737
之後	-8.66784
印	-8.66803
繁	-8.66838
泥	-8.66903
占	-8.66967
増	-8.67083
縱	-8.67308
召	-8.67355
希	-8.67485
輪	-8.67611
古人	-8.67856
茶	-8.67911
費	-8.67931
郭	-8.67936
社	-8.68257
聊	-8.68299
叢	-8.68321
優	-8.68384
鹿	-8.68458
逆	-8.68476
詎	-8.68565
蕭	-8.68577
迴	-8.68584
鎮	-8.68646
康熙	-8.68687
錫	-8.68865
辰	-8.68988
浪	-8.69022
强	-8.69086
想	-8.69172
閱	-8.69243
瑞	-8.69394
豫	-8.69512
科	-8.69666
製	-8.70079
背	-8.70311
側	-8.70356
低	-8.70576
怨	-8.70576
謂之	-8.70783
廷	-8.708
助	-8.70896
寶	-8.70989
裁	-8.715
值	-8.71651
俾	-8.71718
界	-8.71788
誦	-8.71819
衛	-8.71841
匪	-8.72004
履	-8.72405
假	-8.72415
返	-8.72423
乞	-8.72483
瞻	-8.72534
宴	-8.72546
三月	-8.7255
十年	-8.72648
疎	-8.72901
淚	-8.73007
之事	-8.73183
輿	-8.73282
僅	-8.7333
喪	-8.73443
擊	-8.7353
孺人	-8.73547
紛	-8.73571
呉	-8.7371
察	-8.73713
鐘	-8.73832
危	-8.74206
薦	-8.74272
堅	-8.74322
介	-8.74377
振	-8.7451
之言	-8.74526
品	-8.74611
虛	-8.74709
扶	-8.74805
斗	-8.74826
閲	-8.75025
滋	-8.7511
允	-8.75216
其所	-8.75438
桂	-8.75733
兄弟	-8.75734
停	-8.75781
統	-8.75832
銅	-8.75964
泰	-8.76001
增	-8.76025
隆	-8.76079
一日	-8.76139
氷	-8.7615
漏	-8.76251
何以	-8.76352
託	-8.764
萬里	-8.76448
卜	-8.76494
夫人	-8.76501
材	-8.76628
文章	-8.76799
隠	-8.76897
哭	-8.77011
淺	-8.77027
温	-8.7711
圗	-8.77148
夷	-8.77215
公之	-8.77408
畧	-8.77443
駕	-8.77487
宇	-8.77573
糧	-8.77591
肅	-8.77598
潮	-8.78244
講	-8.78261
滅	-8.78393
勸	-8.78579
烈	-8.78771
否	-8.78812
啟	-8.78947
委	-8.79455
姓	-8.7957
眠	-8.79601
謁	-8.79636
暮	-8.79643
痛	-8.79714
圓	-8.79722
趨	-8.79807
掌	-8.79886
專	-8.79995
署	-8.8004
霑	-8.8018
尾	-8.80184
添	-8.80257
役	-8.80259
蜀	-8.80287
干	-8.80307
鳳	-8.80354
是以	-8.80434
權	-8.80868
洪	-8.81051
千里	-8.81111
班	-8.81189
階	-8.81223
祝	-8.81282
屏	-8.81407
奔	-8.81478
防	-8.81521
險	-8.81597
豪	-8.81711
浦	-8.81721
㫖	-8.81851
塘	-8.81859
涼	-8.81885
而已	-8.81956
晨	-8.81996
祥	-8.82293
牧	-8.82414
校	-8.82414
毎	-8.82438
遵	-8.82609
以來	-8.82645
拂	-8.8266
洗	-8.82736
速	-8.83069
雷	-8.83116
量	-8.83133
寓	-8.83235
衡	-8.83328
倫	-8.8338
午	-8.8342
尺	-8.83428
畏	-8.83471
狀	-8.8352
繫	-8.8357
戴	-8.83628
一時	-8.83717
暗	-8.83767
雁	-8.83812
伊	-8.83861
尚書	-8.83895
抑	-8.83933
效	-8.84048
湯	-8.84062
貢	-8.84085
逮	-8.84219
責	-8.84402
孔子	-8.8441
纔	-8.84542
澄	-8.84554
淵	-8.84752
趣	-8.84754
懼	-8.84956
敗	-8.8502
旗	-8.85075
不足	-8.85266
審	-8.85286
舒	-8.85304
完	-8.85538
黨	-8.85557
徴	-8.85557
董	-8.85633
壯	-8.85754
標	-8.85764
循	-8.85955
鄕	-8.85997
藻	-8.86139
妻	-8.86198
宻	-8.86203
京師	-8.86234
鄰	-8.86352
刑	-8.86533
繞	-8.86689
尙	-8.86752
州縣	-8.86797
規	-8.86875
味	-8.869
抵	-8.86924
漁	-8.86978
慕	-8.86988
何處	-8.87156
童	-8.8721
羊	-8.87236
憑	-8.87261
盧	-8.87299
倍	-8.87307
㸔	-8.87328
催	-8.87375
郊	-8.87389
至於	-8.87484
朔	-8.87616
撰	-8.87714
丘	-8.87886
淮	-8.88071
爰	-8.8822
乍	-8.88233
邉	-8.88249
縁	-8.88356
愧	-8.88464
不及	-8.8875
刀	-8.88766
簾	-8.88867
凝	-8.88937
卧	-8.88974
雞	-8.88993
䇿	-8.89192
岀	-8.8923
孰	-8.89231
亦有	-8.89294
救	-8.89316
無不	-8.89343
燭	-8.89392
言之	-8.89447
户	-8.8949
輩	-8.89503
震	-8.89613
齒	-8.89797
勒	-8.89803
內	-8.89826
學士	-8.8986
䝉	-8.90043
之間	-8.90161
映	-8.90289
天地	-8.90305
枕	-8.90433
輸	-8.90555
歩	-8.90703
偕	-8.90722
督	-8.90877
智	-8.90953
怒	-8.9105
融	-8.91114
䕶	-8.9113
之學	-8.9167
將軍	-8.91699
人之	-8.91977
穿	-8.92043
乆	-8.92101
付	-8.92421
茂	-8.92459
録	-8.9246
躬	-8.92481
排	-8.92489
眉	-8.92541
際	-8.92564
聴	-8.92567
湘	-8.92619
不見	-8.92684
查	-8.92915
減	-8.93096
奪	-8.93273
枯	-8.93304
譜	-8.93316
途	-8.93337
翼	-8.93706
綺	-8.93828
妄	-8.93995
悟	-8.94165
憲	-8.94256
配	-8.94506
無所	-8.94537
渾	-8.94587
冊	-8.94636
厯	-8.94657
彌	-8.95087
絕	-8.95134
苑	-8.95305
至今	-8.95305
吐	-8.95411
諱	-8.95418
掩	-8.9545
聖人	-8.95516
徃	-8.95542
嗚呼	-8.95548
篤	-8.95614
艱	-8.95685
鹽	-8.9572
操	-8.95778
争	-8.95865
桃	-8.95904
炎	-8.96067
於此	-8.96205
桑	-8.96278
廬	-8.96538
閩	-8.96567
輒	-8.96586
旅	-8.96616
叶	-8.96622
未嘗	-8.96652
之文	-8.96691
呈	-8.96731
蒙	-8.9702
地方	-8.97147
獄	-8.97153
奚	-8.97251
緩	-8.97261
侵	-8.97289
敦	-8.97339
朱子	-8.97408
密	-8.97419
註	-8.97431
今年	-8.97531
困	-8.97578
之意	-8.97587
沒	-8.97596
禽	-8.97716
證	-8.97769
慎	-8.97849
厥	-8.97914
繡	-8.97961
欽	-8.98004
式	-8.98097
菊	-8.98137
愈	-8.98363
鍾	-8.98512
探	-8.98597
沉	-8.9871
買	-8.98724
策	-8.99019
濃	-8.9904
迷	-8.99118
爽	-8.99206
津	-8.9921
巧	-8.9923
杖	-8.99408
煩	-8.99619
蓮	-8.99918
寜	-8.99946
㸃	-8.9996
畱	-9.00003
巴	-9.00099
恰	-9.0041
牽	-9.0051
弱	-9.00577
徧	-9.0068
棲	-9.00701
術	-9.00733
疊	-9.00819
缺	-9.00953
泛	-9.01038
把	-9.01059
塔	-9.01236
怪	-9.01302
朗	-9.01326
鳯	-9.01449
遍	-9.0148
毋	-9.01499
倒	-9.01506
脫	-9.01639
究	-9.01742
兆	-9.01784
大夫	-9.01837
谿	-9.01916
佐	-9.01927
害	-9.02192
刺	-9.0223
壇	-9.02241
遭	-9.02281
畔	-9.02408
范	-9.02512
然而	-9.02551
蔵	-9.02903
穆	-9.03201
禹	-9.03224
窺	-9.03389
患	-9.03685
之說	-9.03698
暖	-9.03749
淡	-9.03854
皇上	-9.0394
暢	-9.03946
貽	-9.0398
粉	-9.03983
其後	-9.04136
監	-9.04319
庸	-9.04333
援	-9.04357
當時	-9.04397
邪	-9.04416
俯	-9.04455
屯	-9.04494
錯	-9.04563
邀	-9.0473
戸	-9.04795
血	-9.04848
鐵	-9.04976
悔	-9.05061
爵	-9.05143
蔡	-9.05143
珍	-9.0528
窗	-9.05435
有餘	-9.05569
二月	-9.05629
然則	-9.05685
啼	-9.05816
㣲	-9.05848
澗	-9.05983
古今	-9.06428
硯	-9.06524
賴	-9.06769
洲	-9.06779
靡	-9.06792
擁	-9.06896
柱	-9.07077
束	-9.07452
鬼	-9.07482
隄	-9.0753
災	-9.07531
東南	-9.07615
渠	-9.07671
層	-9.07678
騰	-9.07823
泣	-9.07828
柔	-9.07838
汪	-9.07841
座	-9.07842
擇	-9.07951
饒	-9.07963
崖	-9.08176
府君	-9.08191
決	-9.08409
巨	-9.08442
亟	-9.08588
霧	-9.08668
違	-9.08675
奮	-9.08723
仕	-9.08743
邦	-9.08757
幼	-9.08818
冀	-9.08826
澹	-9.08863
己	-9.08892
茅	-9.08902
暑	-9.08918
戲	-9.09072
贊	-9.09095
敵	-9.09206
子孫	-9.09245
籌	-9.09258
提	-9.09314
瓊	-9.09374
普	-9.09376
山水	-9.09442
不同	-9.09527
帆	-9.09544
巡	-9.09597
嗟	-9.09615
其人	-9.09731
頓	-9.0983
五月	-9.09847
勇	-9.09879
衞	-9.09882
○	-9.10025
凌	-9.10046
互	-9.10061
左右	-9.10068
協	-9.10181
曠	-9.10237
驅	-9.10467
垣	-9.10498
奴	-9.10516
銜	-9.10651
植	-9.10656
苗	-9.10709
堯	-9.10711
風雨	-9.10717
紙	-9.10734
膏	-9.10809
詣	-9.10852
馮	-9.10931
貫	-9.1098
苟	-9.11019
酬	-9.11046
未有	-9.11055
進士	-9.11068
潛	-9.11236
蒲	-9.11253
了	-9.11341
牙	-9.11488
讓	-9.11567
倉	-9.11739
弄	-9.11822
嫌	-9.11898
暫	-9.1193
溝	-9.1193
宵	-9.12072
故人	-9.12143
肆	-9.1215
屈	-9.12185
璧	-9.12248
春風	-9.12354
晝	-9.1242
以後	-9.12594
賈	-9.1269
祇	-9.12709
姿	-9.12714
襲	-9.12916
學者	-9.12957
爲之	-9.12996
唱	-9.13108
廻	-9.13121
塗	-9.13204
稽	-9.13208
一人	-9.1322
係	-9.13295
採	-9.13475
鸞	-9.13688
健	-9.13712
巢	-9.1374
不如	-9.13791
點	-9.13951
之義	-9.13986
阻	-9.14032
剛	-9.14076
輔	-9.14104
啓	-9.14114
雕	-9.14171
厲	-9.14177
六月	-9.14236
有所	-9.14275
即事	-9.14277
歳	-9.14329
預	-9.14454
岡	-9.14482
契	-9.14516
橫	-9.14745
課	-9.14834
逃	-9.14963
酌	-9.15037
第一	-9.15156
筵	-9.15162
寸	-9.15214
乾隆	-9.15216
藩	-9.15295
七十	-9.153
快	-9.15353
昏	-9.15374
副	-9.1539
風流	-9.15715
司馬	-9.15762
忍	-9.15763
大臣	-9.15779
勉	-9.15963
圃	-9.16071
諸生	-9.16288
丈	-9.16328
誇	-9.16361
何如	-9.16393
囘	-9.16479
必有	-9.16607
之中	-9.16677
驛	-9.16696
派	-9.16723
激	-9.16997
鎭	-9.17041
蠻	-9.17053
腹	-9.17155
其事	-9.17182
帖	-9.1725
長安	-9.17389
可謂	-9.17587
牆	-9.17623
絃	-9.17807
曰吾	-9.17877
染	-9.17989
該	-9.18091
盜	-9.18125
穀	-9.18162
五十	-9.18184
四月	-9.18229
之人	-9.18237
毫	-9.18257
桐	-9.18288
為之	-9.1832
冰	-9.184
績	-9.18465
矢	-9.18664
肯	-9.18732
如是	-9.18781
也夫	-9.18783
之地	-9.1881
項	-9.18889
逾	-9.18925
魂	-9.18934
之心	-9.19128
傅	-9.19188
足以	-9.19295
也其	-9.19443
練	-9.19493
算	-9.19583
鑒	-9.19619
掃	-9.19667
脩	-9.19693
犯	-9.19734
籠	-9.19744
洛	-9.19797
繩	-9.19798
緣	-9.19841
牀	-9.19938
旬	-9.20126
賔	-9.2015
闢	-9.20242
削	-9.20349
随	-9.20379
殆	-9.20665
山東	-9.20683
國家	-9.20696
不必	-9.20701
緒	-9.20761
杯	-9.20833
人間	-9.20897
旌	-9.20922
其中	-9.20992
員	-9.2111
蕩	-9.21139
導	-9.21265
疆	-9.21339
日月	-9.2134
上下	-9.21361
伴	-9.21611
迹	-9.21712
産	-9.21735
南北	-9.21984
千秋	-9.21991
飄	-9.2201
墜	-9.22025
扇	-9.22047
壺	-9.22105
寡	-9.22113
畵	-9.22212
伐	-9.22304
旦	-9.22317
䖍	-9.22675
壓	-9.22711
藝	-9.22766
禍	-9.22771
肉	-9.22828
話	-9.23017
是也	-9.23062
價	-9.23102
彈	-9.23125
弓	-9.23224
白雲	-9.23261
以此	-9.23276
瓦	-9.23371
超	-9.23384
飽	-9.23471
之士	-9.2351
之書	-9.23673
濕	-9.23692
誌	-9.23743
不過	-9.23786
歟	-9.23838
蓬	-9.23844
磨	-9.23965
劍	-9.24112
沿	-9.24128
零	-9.2429
篆	-9.243
吴	-9.24387
如何	-9.24441
寢	-9.24517
穴	-9.24545
現	-9.24684
徙	-9.24789
霽	-9.24799
今嵗	-9.24871
純	-9.2496
育	-9.25039
競	-9.2505
奏報	-9.25124
没	-9.25243
知其	-9.25302
淳	-9.25357
祈	-9.25372
叅	-9.25579
蹟	-9.25627
山中	-9.25716
暇	-9.25964
二十	-9.26054
輝	-9.26079
單	-9.26123
態	-9.26262
芝	-9.26311
稀	-9.26371
荆	-9.26438
卑	-9.26489
后	-9.26515
攜	-9.26631
鑑	-9.26679
八月	-9.26689
況	-9.26694
二年	-9.271
敷	-9.27128
然後	-9.27137
俟	-9.27146
觸	-9.27155
▁(	-9.27193
咏	-9.27205
頂	-9.2723
恵	-9.27288
竝	-9.27418
飯	-9.27432
銷	-9.27459
限	-9.27544
岳	-9.27609
塲	-9.2772
靖	-9.27893
百年	-9.27969
帳	-9.28068
革	-9.28162
厭	-9.28173
陣	-9.28222
衝	-9.28228
捐	-9.2825
貯	-9.28296
正月	-9.2853
戎	-9.28533
囊	-9.28548
誅	-9.28592
遽	-9.28606
潔	-9.28674
唯	-9.28705
肥	-9.28915
未能	-9.28984
逹	-9.29084
潭	-9.29129
堤	-9.29142
擅	-9.29147
焚	-9.29264
什	-9.29358
飾	-9.29464
之道	-9.29556
韋	-9.29557
平生	-9.29691
墻	-9.2979
者亦	-9.30159
七月	-9.30176
蟲	-9.30187
髪	-9.30342
臯	-9.30489
孟子	-9.30681
卦	-9.30788
熱	-9.3079
也今	-9.30902
袁	-9.30989
十六	-9.31087
享	-9.31125
攷	-9.31128
浙	-9.31176
苔	-9.3134
鞭	-9.31351
三日	-9.31496
當年	-9.31516
壑	-9.31521
淨	-9.31615
敏	-9.31724
弟子	-9.31728
古文	-9.31845
慙	-9.31851
寂	-9.32009
其言	-9.32039
詢	-9.32046
賀	-9.32051
尹	-9.32719
賣	-9.32792
之時	-9.33055
秉	-9.33115
黙	-9.33265
以下	-9.33306
襄	-9.3332
十五	-9.33343
灑	-9.33404
亦不	-9.33416
姚	-9.3356
窓	-9.3356
之名	-9.33613
網	-9.3363
嘆	-9.33676
基	-9.33803
儲	-9.33811
不復	-9.34132
乳	-9.34164
彭	-9.34228
歷	-9.34246
丗	-9.34276
衍	-9.343
劇	-9.34366
距	-9.34394
頒	-9.34456
書屋	-9.3447
十三	-9.34722
濤	-9.34826
桃花	-9.34835
皇帝	-9.34878
者皆	-9.3491
後世	-9.35019
夫子	-9.35201
嶽	-9.3524
齡	-9.35285
従	-9.35289
觴	-9.35479
欽定四庫全書	-9.3555
粟	-9.35786
郞	-9.35824
踰	-9.35847
姜	-9.35848
鬱	-9.35873
織	-9.3594
鋪	-9.35955
蔚	-9.36162
之曰	-9.36222
有司	-9.3632
蔽	-9.36433
貪	-9.36469
勵	-9.36628
廉	-9.36629
綴	-9.36783
翰	-9.36787
霖	-9.36909
卓	-9.36923
辦	-9.36939
徹	-9.36976
周公	-9.37023
得雨	-9.37083
梅花	-9.37113
八十	-9.37276
創	-9.37321
榖	-9.37328
河南	-9.37366
中有	-9.3741
寅	-9.37448
賑	-9.37557
輯	-9.3767
後人	-9.37729
是日	-9.37754
父母	-9.37755
而無	-9.37946
頃	-9.37953
叟	-9.38001
雀	-9.38034
幕	-9.38091
局	-9.38197
摩	-9.38337
遙	-9.38343
恤	-9.38468
庵	-9.38491
矜	-9.3855
踏	-9.3857
麟	-9.38692
墮	-9.38712
遼	-9.38738
料	-9.38743
晦	-9.38782
涉	-9.38996
侍郎	-9.39011
臥	-9.39071
辟	-9.39089
行宫	-9.39094
四首	-9.39166
䖏	-9.39298
謬	-9.39323
譽	-9.39351
姬	-9.39406
遐	-9.39407
玩	-9.39528
汗	-9.39553
邱	-9.39758
渚	-9.39783
損	-9.40015
之日	-9.4004
像	-9.40161
覩	-9.40381
六十	-9.4044
凍	-9.40457
畨	-9.40491
鄙	-9.4065
獵	-9.40673
巡撫	-9.40777
天下之	-9.40888
十八	-9.40939
宛	-9.41066
渥	-9.41092
廊	-9.41134
勲	-9.41259
之法	-9.41431
紹	-9.41529
逝	-9.41533
簷	-9.41534
醫	-9.4161
諫	-9.41685
旱	-9.41721
財	-9.41748
大學士	-9.41751
燒	-9.41757
包	-9.41772
陋	-9.41811
夾	-9.41974
咨	-9.42145
踈	-9.42248
不以	-9.42296
堆	-9.42315
賓	-9.42418
忌	-9.42426
鴉	-9.42521
佩	-9.42581
宰	-9.42619
十一	-9.42622
戀	-9.42799
討	-9.42811
綿	-9.42832
西北	-9.42858
御史	-9.42898
㫁	-9.42986
菜	-9.43053
樸	-9.43064
隴	-9.43122
斥	-9.43195
閑	-9.43237
襟	-9.4324
幻	-9.43371
腰	-9.43411
宏	-9.43549
往往	-9.43606
娶	-9.43615
巷	-9.4364
可憐	-9.43652
羡	-9.43879
鑿	-9.43893
繇	-9.44016
活	-9.44044
諸臣	-9.44158
閉	-9.44168
裘	-9.44188
宦	-9.44367
漲	-9.44454
熊	-9.44546
灰	-9.44685
倣	-9.44709
山川	-9.4483
崔	-9.45037
旨	-9.45055
之作	-9.4509
西南	-9.45134
憩	-9.45387
翔	-9.45735
風吹	-9.4576
朝廷	-9.45936
樵	-9.45951
需	-9.46093
藤	-9.46126
敘	-9.46244
飮	-9.46294
九月	-9.4636
葛	-9.46367
何必	-9.46511
阮	-9.46527
依然	-9.4654
之際	-9.46549
浄	-9.46582
戍	-9.46608
誓	-9.46616
吿	-9.46668
喻	-9.4685
太守	-9.46864
搆	-9.46923
暨	-9.46973
箋	-9.46998
欺	-9.47011
主人	-9.47063
舜	-9.47146
餉	-9.47259
西山	-9.47283
架	-9.47405
玄	-9.47449
槐	-9.47479
東西	-9.47482
痕	-9.4752
夙	-9.47531
換	-9.47555
皆有	-9.47607
叩	-9.47664
夜雨	-9.4774
羞	-9.47882
三十	-9.479
不然	-9.47941
撥	-9.47948
人心	-9.47956
繪	-9.47991
俊	-9.48031
黎	-9.48061
肩	-9.48129
所云	-9.48158
雍	-9.48396
挂	-9.48503
熙	-9.48557
五年	-9.48587
縈	-9.486
佑	-9.48622
舎	-9.48626
蒸	-9.48872
隣	-9.49009
陟	-9.49025
壘	-9.49043
喧	-9.49077
足下	-9.49113
鈔	-9.49132
鱗	-9.49135
迥	-9.49228
賤	-9.49259
黍	-9.49356
其子	-9.49511
辛	-9.49529
生平	-9.49554
禾	-9.49565
史記	-9.49587
遜	-9.4963
斬	-9.49681
几	-9.49701
浙江	-9.49706
得其	-9.49817
泊	-9.4984
之詩	-9.50131
文字	-9.50287
髮	-9.5047
奸	-9.50602
逼	-9.50604
警	-9.50806
子弟	-9.50843
柏	-9.50848
研	-9.50902
貌	-9.50917
草堂	-9.50957
秩	-9.50976
嵐	-9.51056
也而	-9.51248
番	-9.51293
寨	-9.51346
安得	-9.51434
鈎	-9.51473
椒	-9.51482
坊	-9.51544
促	-9.51546
笛	-9.51592
一切	-9.51763
漕	-9.51768
舌	-9.51974
即景	-9.52049
函	-9.52114
属	-9.52149
片	-9.52456
殁	-9.52545
一二	-9.52643
十月	-9.52691
輦	-9.52711
臂	-9.52783
不勝	-9.52829
灌	-9.52932
百里	-9.52972
蔣	-9.52978
瑶	-9.52991
倘	-9.53112
君之	-9.53166
勅	-9.53179
割	-9.53198
之外	-9.53232
總督	-9.53371
明年	-9.53398
蟬	-9.53463
綵	-9.5348
溢	-9.53506
嫁	-9.53521
逕	-9.53533
饑	-9.53564
評	-9.5361
先生之	-9.53652
諸侯	-9.53807
鶯	-9.53819
桓	-9.53893
哈	-9.54008
竿	-9.54099
沛	-9.54143
帥	-9.54183
摹	-9.54202
蠲	-9.54319
黑	-9.54346
辱	-9.54369
蘆	-9.54372
揚州	-9.54425
確	-9.54453
打	-9.54465
惑	-9.54467
靣	-9.5454
輙	-9.54553
愼	-9.54559
檄	-9.54624
皮	-9.54631
千古	-9.54681
攀	-9.54795
坡	-9.54891
芙蓉	-9.54892
邨	-9.5496
梵	-9.55012
區	-9.55017
謙	-9.55033
誣	-9.5512
是時	-9.55207
擢	-9.5529
世之	-9.55298
整	-9.55388
釣	-9.55404
拔	-9.55453
巾	-9.55478
前後	-9.55511
不忍	-9.55531
秋風	-9.55618
毁	-9.55676
庶幾	-9.55716
滴	-9.55743
版	-9.55776
蝶	-9.55873
尚未	-9.559
皇祖	-9.55929
弊	-9.55948
韶	-9.55982
霄	-9.56008
以上	-9.56018
陪	-9.56023
榻	-9.56075
人也	-9.56254
攬	-9.56255
荅	-9.56471
倦	-9.56483
官兵	-9.56527
也故	-9.56634
袖	-9.56682
寵	-9.56747
剪	-9.56821
以示	-9.56846
四十	-9.56862
其間	-9.57013
御園	-9.57084
扉	-9.57099
决	-9.57179
裕	-9.57198
公子	-9.57201
揮	-9.57219
尚有	-9.57335
捕	-9.57385
何人	-9.57608
欄	-9.57674
諸子	-9.57712
飭	-9.5785
眺	-9.57919
裝	-9.5795
圭	-9.57968
驗	-9.57987
街	-9.58028
挾	-9.58048
觧	-9.58053
盼	-9.58087
幷	-9.58214
遮	-9.58237
截	-9.58238
徘徊	-9.58239
十里	-9.58244
廵	-9.58261
板	-9.58298
諸公	-9.58308
蓄	-9.58325
夕陽	-9.58462
千載	-9.5848
敝	-9.58491
場	-9.58536
竄	-9.58564
錢糧	-9.58575
四方	-9.58582
一片	-9.58609
靄	-9.58651
之子	-9.58651
彰	-9.58669
郷	-9.58703
陷	-9.58732
戈	-9.58746
浩	-9.58863
絳	-9.59015
勘	-9.59163
閏	-9.59248
無人	-9.59324
去嵗	-9.59374
檢	-9.59508
怡	-9.5952
三首	-9.59549
慧	-9.59622
粤	-9.5964
溯	-9.59727
湛	-9.59757
惕	-9.59789
戚	-9.59849
者乎	-9.59992
廿	-9.60046
摘	-9.60059
埋	-9.60066
妃	-9.6023
恃	-9.60268
儉	-9.60285
罕	-9.60302
爛	-9.60389
衢	-9.60422
漢書	-9.60723
豆	-9.60804
妾	-9.60871
茲	-9.60963
妍	-9.61323
太夫人	-9.61334
摧	-9.61335
香山	-9.61466
十四	-9.61501
脚	-9.61513
域	-9.61534
涵	-9.61542
籬	-9.61583
潘	-9.61585
藴	-9.6167
榭	-9.61681
奠	-9.61823
之故	-9.6191
不為	-9.61912
僞	-9.6194
坤	-9.61956
朋	-9.62023
叠	-9.62236
徽	-9.62255
江西	-9.62292
伍	-9.62296
捷	-9.62397
諧	-9.62477
其餘	-9.62634
哲	-9.62667
幅	-9.62668
彩	-9.62678
先後	-9.62755
訟	-9.62759
麻	-9.62823
抽	-9.62869
壩	-9.62931
則有	-9.63032
醇	-9.6314
裂	-9.6314
灘	-9.63144
駐蹕	-9.6316
𢎞	-9.63203
其地	-9.63297
薛	-9.63346
綱	-9.63395
沐	-9.6341
倡	-9.63436
床	-9.63527
二人	-9.63553
忩	-9.6371
萬物	-9.63773
誥	-9.6383
灣	-9.63832
出於	-9.6389
又曰	-9.6393
棹	-9.63982
箭	-9.63994
㳺	-9.64062
庫	-9.64104
仗	-9.64147
千年	-9.64158
醒	-9.64267
叙	-9.64336
恥	-9.64338
暴	-9.64429
東風	-9.64455
孝子	-9.64498
其文	-9.64551
搜	-9.64612
捧	-9.64725
冶	-9.64804
拉	-9.64825
黔	-9.6486
砌	-9.64873
誰能	-9.64935
遁	-9.64976
衷	-9.64991
之句	-9.65131
釐	-9.65353
不相	-9.65404
山莊	-9.65434
龜	-9.65447
耀	-9.65689
崇禎	-9.65725
判	-9.65725
者其	-9.65823
訛	-9.65839
析	-9.65928
睡	-9.65957
少年	-9.65973
瓜	-9.66009
次第	-9.66091
碎	-9.66117
札	-9.66244
絮	-9.66286
沾	-9.66376
突	-9.66383
携	-9.66389
禦	-9.66406
隋	-9.66407
喚	-9.6649
亦可	-9.66518
眷	-9.6672
纎	-9.66775
隅	-9.66803
抗	-9.6681
洋	-9.66818
強	-9.66913
闌	-9.67053
口號	-9.67121
亮	-9.67188
峻	-9.67207
鼔	-9.6724
綸	-9.67284
自是	-9.6735
詩以誌事	-9.67528
此時	-9.67532
稔	-9.67569
太平	-9.67595
竭	-9.677
十日	-9.67705
乏	-9.6775
弔	-9.67798
畝	-9.68013
㴱	-9.68023
茗	-9.68036
障	-9.68089
曰此	-9.681
楹	-9.68195
莽	-9.68201
雨後	-9.68332
膺	-9.68377
緯	-9.68476
慚	-9.68503
偉	-9.68506
軸	-9.68507
一年	-9.68517
所見	-9.68532
挽	-9.68684
拈	-9.68751
阜	-9.68759
渭	-9.6876
之所以	-9.68863
處士	-9.68879
拒	-9.69096
譏	-9.6914
梧	-9.69153
認	-9.69172
豈不	-9.69184
祿	-9.6939
海内	-9.69422
冒	-9.69792
明月	-9.69805
翰林	-9.69923
擾	-9.69978
又有	-9.69982
二十年	-9.70019
稻	-9.7002
綏	-9.70086
大小	-9.7016
士大夫	-9.70164
不可以	-9.70324
莫不	-9.70353
核	-9.70372
腸	-9.70451
者則	-9.70532
于是	-9.70576
之徒	-9.70644
禄	-9.70648
一帶	-9.70668
黒	-9.70759
淑	-9.70764
恣	-9.70771
嘯	-9.70784
柯	-9.70837
偃	-9.71015
舫	-9.71097
懿	-9.71154
岑	-9.71166
嬌	-9.71277
邵	-9.71328
閭	-9.71372
訝	-9.71389
壤	-9.71412
弦	-9.71462
肇	-9.71544
浸	-9.71556
盆	-9.71621
訂	-9.71899
牖	-9.7194
欵	-9.72065
荘	-9.72084
今朝	-9.72155
拙	-9.72217
書院	-9.72231
迨	-9.72243
侍御	-9.72322
昧	-9.72356
故曰	-9.72422
去年	-9.72422
衫	-9.72442
透	-9.72478
樞	-9.72551
岐	-9.72617
各有	-9.72666
其時	-9.72707
踐	-9.7275
斂	-9.72833
褒	-9.72908
閨	-9.72956
元年	-9.73101
栖	-9.73126
淪	-9.73166
喬	-9.73216
飢	-9.73314
伸	-9.73352
滯	-9.73514
播	-9.73518
渉	-9.73546
父子	-9.73554
六年	-9.73589
歇	-9.73604
摇	-9.7368
測	-9.73702
鳩	-9.73718
之功	-9.73743
樽	-9.73878
纂	-9.73884
無一	-9.73921
弁	-9.73938
紗	-9.73967
門外	-9.73969
吏部	-9.74009
勾	-9.74059
眾	-9.74067
晏	-9.74093
虹	-9.74239
可知	-9.74249
蚤	-9.74251
狐	-9.74252
鴈	-9.74274
鵲	-9.74438
杏	-9.74448
脱	-9.74499
九日	-9.74503
刪	-9.74585
卉	-9.74639
洽	-9.74776
帷	-9.74871
護	-9.75083
得句	-9.75092
之不	-9.75127
托	-9.75282
玊	-9.75425
十七	-9.75463
媚	-9.75508
刋	-9.75515
潦	-9.75533
漾	-9.75599
餐	-9.75632
牕	-9.75657
雉	-9.75713
此地	-9.75811
不在	-9.7586
秘	-9.7596
子之	-9.75967
中丞	-9.75989
鐙	-9.76005
爐	-9.76035
彦	-9.76082
攝	-9.76261
見於	-9.76309
梓	-9.7631
溫	-9.76332
淹	-9.76456
東坡	-9.76648
魄	-9.76685
西湖	-9.76707
峙	-9.76771
四年	-9.76771
一首	-9.76791
自古	-9.76822
韵	-9.76925
往來	-9.76964
之餘	-9.77097
未必	-9.7715
數十	-9.77173
流水	-9.77252
聞之	-9.77393
滌	-9.77395
躍	-9.77397
見其	-9.7745
叛	-9.77496
一卷	-9.77504
以前	-9.77508
不盡	-9.7766
天涯	-9.77668
之於	-9.77679
西風	-9.77681
驕	-9.77699
册	-9.77793
吕	-9.78027
斧	-9.78037
瀾	-9.78156
鷗	-9.78252
禱	-9.7827
青山	-9.78291
今之	-9.78295
銘曰	-9.78336
蘿	-9.78541
文武	-9.78576
匿	-9.78867
一百	-9.78915
誕	-9.78969
古之	-9.79025
者有	-9.79083
者以	-9.79117
數年	-9.79299
盟	-9.79414
雖然	-9.79426
幹	-9.79427
焦	-9.79455
湧	-9.79527
其二	-9.79528
呂	-9.79541
用之	-9.79614
自有	-9.7962
濯	-9.79676
掠	-9.7986
歛	-9.79865
以致	-9.79874
屠	-9.79912
團	-9.79936
槩	-9.79942
尼	-9.79982
賦得	-9.80001
者必	-9.80156
箇	-9.8021
羨	-9.80367
知之	-9.80389
檻	-9.80405
十二月	-9.80469
驟	-9.80489
豁	-9.80522
牢	-9.80522
詩人	-9.80527
江上	-9.80546
裳	-9.80593
浴	-9.80613
城南	-9.80681
一字	-9.80739
庚	-9.80819
三千	-9.8091
曷	-9.80975
所得	-9.80979
三百	-9.81035
毒	-9.8114
擒	-9.81175
此日	-9.81237
禮部	-9.81238
相思	-9.81242
柴	-9.81314
鑄	-9.81385
五日	-9.8141
芒	-9.81481
覲	-9.81572
薪	-9.8168
籟	-9.81694
譚	-9.81702
以自	-9.81704
着	-9.81711
十一月	-9.8181
嗜	-9.81862
人生	-9.81987
稿	-9.82043
䟽	-9.82093
不用	-9.82158
藍	-9.8226
鷹	-9.8229
鬢	-9.8246
暉	-9.82478
傲	-9.82487
是非	-9.82611
螺	-9.8269
峽	-9.82713
演	-9.82797
聨	-9.82821
掛	-9.82828
鼻	-9.8292
楓	-9.82924
漿	-9.82943
獸	-9.8302
榜	-9.83041
郵	-9.83145
鴨	-9.83149
不肯	-9.83168
十九	-9.83209
之盛	-9.83209
濡	-9.83249
批	-9.83294
等語	-9.83295
淫	-9.83369
媿	-9.83393
搖	-9.83566
株	-9.83574
詭	-9.83609
霏	-9.83646
準	-9.83727
森	-9.83799
金陵	-9.83898
壞	-9.83913
撲	-9.83954
孚	-9.83972
不爲	-9.83973
草木	-9.84012
劒	-9.84031
杭	-9.84083
闈	-9.84135
疇	-9.84137
尙書	-9.84146
十分	-9.84157
枉	-9.84159
沃	-9.84176
匹	-9.84286
侍郞	-9.84296
霈	-9.84355
相見	-9.84684
說文	-9.84686
不足以	-9.84697
濶	-9.84723
亞	-9.84749
聘	-9.8483
皆以	-9.84849
肖	-9.8487
矣而	-9.84875
肰	-9.84944
技	-9.8495
未可	-9.85037
翦	-9.85048
江湖	-9.85063
潰	-9.85064
捲	-9.85089
使君	-9.85122
周禮	-9.85138
氏之	-9.85162
臘	-9.85198
也然	-9.85213
甲子	-9.85238
檀	-9.85277
汲	-9.8538
瀑	-9.85452
汀	-9.85526
猿	-9.8553
洵	-9.85541
豈非	-9.85636
擲	-9.85641
酣	-9.857
内外	-9.85719
樊	-9.85842
邁	-9.8586
寕	-9.85877
得之	-9.85894
顏	-9.85952
烹	-9.86078
隊	-9.86106
滑	-9.86115
從容	-9.8612
油	-9.86205
何事	-9.86209
同年	-9.86224
概	-9.86243
王氏	-9.86274
偷	-9.86347
一言	-9.86376
男	-9.86396
栗	-9.86471
蠶	-9.86488
咎	-9.8656
分明	-9.86618
不易	-9.86673
天上	-9.86678
鮑	-9.86707
人皆	-9.8675
粧	-9.8689
拾	-9.86944
暎	-9.86956
朶	-9.8696
詰	-9.87163
亦無	-9.87184
督撫	-9.87216
小人	-9.87234
悦	-9.87248
無事	-9.87345
屐	-9.87367
怕	-9.87374
冩	-9.87609
緬	-9.87643
之志	-9.87763
謨	-9.87803
檐	-9.87847
培	-9.87854
魁	-9.87915
恬	-9.87999
島	-9.88066
逋	-9.88081
鄂	-9.88084
麓	-9.88334
裔	-9.88372
年年	-9.88402
酉	-9.88424
畜	-9.88442
厓	-9.88479
儒者	-9.88542
以其	-9.88694
岫	-9.88719
凶	-9.8875
之則	-9.88751
墳	-9.88847
萃	-9.88872
歉	-9.88913
同時	-9.89125
忙	-9.89163
竇	-9.8917
無以	-9.89213
明堂	-9.89309
未嘗不	-9.89492
鳬	-9.89514
濁	-9.89521
其家	-9.89533
七年	-9.89543
四時	-9.89657
苞	-9.8974
㧞	-9.89753
歸來	-9.89791
坦	-9.89873
帛	-9.8992
一笑	-9.89956
牘	-9.89973
相逢	-9.89974
栽	-9.90242
出入	-9.90277
墓誌銘	-9.90297
棟	-9.90307
紛紛	-9.90318
金石	-9.90341
誼	-9.90462
奥	-9.90561
慿	-9.90593
瓶	-9.90593
太祖	-9.90625
瘦	-9.90709
葵	-9.90734
文王	-9.90735
臻	-9.90748
昆	-9.90897
台	-9.90913
斑	-9.90926
文學	-9.90928
則又	-9.90946
他日	-9.90948
二麥	-9.90951
拱	-9.90965
碩	-9.91023
無可	-9.91026
蕃	-9.91178
蹈	-9.91179
鐫	-9.91314
莭	-9.91347
之説	-9.91541
家人	-9.91548
詩書	-9.91619
詩以誌慰	-9.91667
崩	-9.91685
釵	-9.91686
其名	-9.91709
匡	-9.91751
鉅	-9.91876
亷	-9.91877
岱	-9.91992
騐	-9.92035
収	-9.92131
欠	-9.92319
乙	-9.92338
帙	-9.9239
傑	-9.92477
猶未	-9.92585
者矣	-9.92612
君臣	-9.92756
相與	-9.92776
從此	-9.92833
偽	-9.92919
諒	-9.93019
拘	-9.93086
䘮	-9.93091
䟦	-9.93135
蹤	-9.93164
諾	-9.93236
道中	-9.93244
雖有	-9.93283
至于	-9.93331
八分	-9.93341
筠	-9.93355
春雨	-9.9342
騷	-9.93427
羲	-9.93447
構	-9.93523
庾	-9.93585
蔬	-9.93641
賡	-9.93657
笙	-9.93692
也又	-9.93721
也余	-9.93789
握	-9.93818
上元	-9.93847
豈有	-9.9397
著書	-9.94004
降㫖	-9.94077
此書	-9.94093
漳	-9.94187
僻	-9.94212
又何	-9.94246
其意	-9.94319
國之	-9.94334
闡	-9.94365
六經	-9.94459
軌	-9.94466
由來	-9.94567
㕔	-9.94573
不與	-9.94773
卻	-9.94873
繹	-9.94887
𤣥	-9.94922
二子	-9.95022
牡丹	-9.95026
窟	-9.95034
儼	-9.95049
電	-9.95127
混	-9.95133
蕪	-9.95236
炳	-9.95249
自然	-9.95253
溺	-9.95262
邸	-9.95293
衣冠	-9.95382
迂	-9.95386
厪	-9.95395
東北	-9.95407
嬰	-9.95446
不識	-9.95589
黛	-9.95601
而又	-9.95656
見之	-9.95741
猷	-9.95781
三代	-9.95801
未及	-9.95818
所稱	-9.95863
寇	-9.95871
彚	-9.95901
駿	-9.95971
公以	-9.95992
以是	-9.95995
咫尺	-9.96053
縷	-9.96087
濬	-9.96122
顛	-9.96311
𠞰	-9.96418
八年	-9.96458
山西	-9.96461
而有	-9.96464
歐陽	-9.96485
宸	-9.96519
涕	-9.96669
因之	-9.96738
隙	-9.96771
花開	-9.96774
刼	-9.96801
尸	-9.96886
踵	-9.96888
其說	-9.96921
之氣	-9.96975
人情	-9.97009
迅	-9.97059
四海	-9.97096
釀	-9.97206
惟有	-9.9723
也若	-9.97235
風俗	-9.97296
不免	-9.97312
榆	-9.97371
稼	-9.97385
毅	-9.97389
不須	-9.97452
襍	-9.97548
老人	-9.97577
扁舟	-9.97608
爾雅	-9.97632
之上	-9.9776
精神	-9.97819
蟠	-9.9782
跳	-9.97828
劾	-9.97852
枚	-9.97861
等處	-9.97923
脂	-9.97966
三十年	-9.98065
康熈	-9.98123
猛	-9.98195
級	-9.98227
簪	-9.98238
海上	-9.98286
之爲	-9.98412
罔	-9.98456
阡	-9.98484
侣	-9.98489
溜	-9.98492
勁	-9.98609
三十六	-9.98626
耳目	-9.98628
先是	-9.98673
訊	-9.98681
所作	-9.98785
萬年	-9.98811
詩序	-9.98831
赫	-9.98868
匠	-9.98875
紋	-9.98904
三人	-9.98958
美人	-9.98986
粗	-9.98999
鬬	-9.99007
鬚	-9.99014
百姓	-9.9908
茫茫	-9.9913
聖賢	-9.99158
編修	-9.99182
之處	-9.99295
訖	-9.99301
相對	-9.99327
堡	-9.99386
仿	-9.99542
文集	-9.99634
不自	-9.99653
親王	-9.99679
不忘	-9.99711
未得	-9.99728
不言	-9.99768
抛	-9.99808
准	-9.99819
瑟	-9.99846
陂	-9.99853
蕭蕭	-9.99903
洞庭	-9.99925
琢	-9.99948
鄒	-9.99985
中外	-9.9999
江山	-9.99992
嚮	-10.0003
不至	-10.0011
不成	-10.002
棗	-10.0033
古者	-10.0034
偶然	-10.0034
淮南	-10.0035
民之	-10.0035
畦	-10.0036
賦詩	-10.0039
嗟乎	-10.0041
參差	-10.0043
亾	-10.0044
戯	-10.0054
段	-10.0055
以詩	-10.0056
罰	-10.0056
梢	-10.0057
人物	-10.0059
迫	-10.0061
其義	-10.0063
一枝	-10.0072
姪	-10.0075
陌	-10.0081
鏤	-10.0097
何時	-10.0119
笠	-10.0119
帝王	-10.0123
平原	-10.0126
神仙	-10.0136
丸	-10.0152
之下	-10.0163
消息	-10.0165
未知	-10.0171
滇	-10.0179
陞	-10.0183
萊	-10.0187
千金	-10.0191
紆	-10.0191
不覺	-10.0199
姓名	-10.0203
二日	-10.0205
凋	-10.0205
措	-10.0205
奕	-10.0213
奄	-10.0216
二三	-10.0221
芬	-10.0221
乖	-10.0223
艸	-10.023
填	-10.0235
擕	-10.0249
祚	-10.0249
膝	-10.0258
租	-10.0259
無窮	-10.0267
㱕	-10.0279
不當	-10.0297
其心	-10.0302
不出	-10.0306
一旦	-10.0313
胸	-10.0325
禮樂	-10.0325
峭	-10.0326
挈	-10.033
居然	-10.0337
暄	-10.0338
畆	-10.0342
各省	-10.0349
書之	-10.0354
灾	-10.0356
尉	-10.0359
至此	-10.036
轍	-10.0371
斜陽	-10.0372
雨中	-10.0381
敞	-10.0384
霍	-10.0384
矣然	-10.0386
由是	-10.0391
嵩	-10.0392
若夫	-10.0398
旭	-10.0399
併	-10.0401
蛇	-10.0405
何所	-10.0407
亨	-10.0413
乾坤	-10.0415
範	-10.042
名曰	-10.0422
冥	-10.0427
耆	-10.0428
𥿄	-10.0439
南山	-10.044
仇	-10.0448
駭	-10.0465
富貴	-10.047
誰知	-10.0477
何妨	-10.048
倪	-10.0483
拓	-10.0484
現在	-10.0487
泛舟	-10.051
七日	-10.0513
聖人之	-10.0515
及其	-10.0517
者非	-10.0519
𤓰	-10.0523
矯	-10.053
中原	-10.053
裙	-10.0532
弼	-10.0536
所有	-10.054
湖上	-10.0546
巒	-10.055
慢	-10.0551
妖	-10.0553
順治	-10.0559
太史	-10.0562
磬	-10.0564
有序	-10.0565
系	-10.0566
仙人	-10.0567
左傳	-10.0572
蕉	-10.0572
苐	-10.0578
沼	-10.0578
貨	-10.0578
憤	-10.0585
蔓	-10.0586
丞相	-10.0589
控	-10.0593
二十四	-10.0595
㕘	-10.0595
詩文	-10.0597
新正	-10.06
亥	-10.0603
馭	-10.0606
情形	-10.0607
山房	-10.0608
山荘	-10.0613
以及	-10.0617
吞	-10.0636
悠悠	-10.0648
故事	-10.066
丞	-10.0669
白日	-10.0673
艶	-10.0678
直𨽻	-10.0683
而下	-10.0701
縮	-10.0706
大兵	-10.0707
爻	-10.0709
一篇	-10.072
徼	-10.0722
廣陵	-10.0723
堦	-10.0723
惟是	-10.0725
挑	-10.073
頑	-10.0732
攸	-10.0733
翳	-10.0734
山人	-10.0736
楷	-10.0744
白頭	-10.0746
躋	-10.0748
一一	-10.0749
喇	-10.0754
流傳	-10.0756
颺	-10.076
睿	-10.0763
窻	-10.0764
髩	-10.0765
懶	-10.0767
云云	-10.0772
若干	-10.0772
數日	-10.0773
簿	-10.0778
嬉	-10.0779
之禮	-10.0779
所居	-10.0789
洩	-10.0789
冕	-10.079
辯	-10.0792
太常	-10.0794
上年	-10.0798
未免	-10.0799
何須	-10.08
道之	-10.0801
鼠	-10.0803
巫	-10.0804
艾	-10.0804
梯	-10.0816
縛	-10.0818
之理	-10.0827
奈	-10.0832
鋒	-10.0833
民生	-10.0833
嶂	-10.0834
二百	-10.0837
虧	-10.084
太宗	-10.0843
尢	-10.0848
疲	-10.0848
一事	-10.0856
天地之	-10.0858
祐	-10.0862
犬	-10.0862
宐	-10.0864
芽	-10.0865
不是	-10.087
萬古	-10.0874
絡	-10.0877
之才	-10.0881
栢	-10.0881
尋常	-10.0887
二字	-10.0891
龔	-10.0892
一家	-10.0894
溥	-10.0905
髻	-10.0905
太子	-10.0906
久矣	-10.0906
惆悵	-10.0908
癡	-10.0923
簫	-10.0926
不聞	-10.0933
者不	-10.0934
杳	-10.0934
侈	-10.0937
鈞	-10.0938
筍	-10.0951
隸	-10.0953
㨗	-10.0967
當日	-10.0969
邇	-10.0969
䕫	-10.0981
而其	-10.0989
相傳	-10.0989
熈	-10.0992
瀛	-10.0993
墅	-10.1002
者曰	-10.1006
成功	-10.1006
凛	-10.1007
公諱	-10.1007
邈	-10.1008
蜂	-10.1008
渺	-10.101
與君	-10.1011
譌	-10.1013
於斯	-10.1014
専	-10.1014
瑣	-10.1021
耗	-10.1023
讀之	-10.1025
涯	-10.1031
天之	-10.1033
皇考	-10.1035
膠	-10.1036
揆	-10.1037
福建	-10.1037
雛	-10.1038
拍	-10.1038
又云	-10.104
其書	-10.1046
昌黎	-10.1046
葺	-10.1046
墟	-10.105
收成	-10.1061
僚	-10.1062
其詩	-10.1066
募	-10.1066
挹	-10.1068
嶠	-10.107
糾	-10.1072
之閒	-10.1073
黄河	-10.1074
此則	-10.1082
慘	-10.1082
人所	-10.1085
黄金	-10.1088
行之	-10.1089
既而	-10.1098
夣	-10.1101
其一	-10.1108
更有	-10.1119
其志	-10.1134
遂以	-10.1134
之例	-10.1139
箕	-10.114
誘	-10.1142
裴	-10.1144
中秋	-10.1145
王公	-10.1149
祁	-10.1149
諡	-10.1154
醜	-10.1156
括	-10.1157
隘	-10.1172
賛	-10.1174
涸	-10.1176
題句	-10.1177
名山	-10.1177
㦸	-10.1186
籲	-10.119
至是	-10.1191
從來	-10.1194
集卷	-10.1197
求之	-10.1202
駢	-10.1204
太孺人	-10.1206
妥	-10.122
漪	-10.1231
俄	-10.1233
相望	-10.1244
耽	-10.1247
䦨	-10.1248
𥘉	-10.1252
䝉古	-10.1257
無端	-10.1261
所至	-10.1261
馴	-10.1261
槎	-10.1261
篋	-10.1266
之遺	-10.1266
舘	-10.1268
聼	-10.1279
不待	-10.128
償	-10.128
大義	-10.1283
渡江	-10.1284
而巳	-10.1285
弘	-10.1286
萬世	-10.1296
陜西	-10.1301
俠	-10.1304
鄧	-10.1306
萌	-10.1307
稅	-10.1308
娛	-10.1308
稠	-10.131
棘	-10.1317
湖南	-10.1322
覔	-10.1323
九年	-10.1328
購	-10.1336
是故	-10.1337
友人	-10.134
樂府	-10.1345
司空	-10.1348
濫	-10.1349
慣	-10.1353
槖	-10.1354
又以	-10.1357
久之	-10.1359
未見	-10.1362
而非	-10.1362
之難	-10.1362
寂寞	-10.1366
慷慨	-10.1367
俞	-10.1367
若此	-10.1377
區區	-10.1381
漆	-10.1384
怯	-10.1384
瀆	-10.1386
之語	-10.1391
値	-10.1393
揭	-10.1397
倩	-10.1397
犀	-10.1398
落日	-10.1399
港	-10.14
插	-10.1415
饗	-10.1427
聳	-10.1428
其實	-10.1429
袍	-10.143
壻	-10.143
炙	-10.1431
不朽	-10.1436
蠟	-10.1439
周官	-10.1443
百餘	-10.1443
亦以	-10.1444
箴	-10.1445
組	-10.1456
頽	-10.1459
所載	-10.1461
者而	-10.1466
店	-10.1467
荀	-10.1471
萬事	-10.1472
恪	-10.1473
一朝	-10.1473
甕	-10.1474
昔人	-10.1481
綜	-10.1488
其父	-10.149
唐宋	-10.1495
中書	-10.15
琳	-10.1501
娥	-10.1503
煥	-10.1504
梗	-10.1505
不欲	-10.1506
的	-10.1506
甯	-10.1507
之數	-10.151
頼	-10.1519
不少	-10.152
纓	-10.1522
䕃	-10.1533
蹙	-10.1533
冡	-10.1535
經史	-10.1541
本朝	-10.1545
不應	-10.1547
貲	-10.155
閘	-10.1556
細雨	-10.1561
鄞	-10.1566
鄭氏	-10.1573
懲	-10.1581
冦	-10.1582
五色	-10.1583
耐	-10.1586
雍正	-10.159
子曰	-10.1598
悼	-10.1606
鈴	-10.161
杭州	-10.161
論語	-10.1621
朝夕	-10.1623
曙	-10.1624
之制	-10.1629
鎗	-10.163
臧	-10.1643
蹕	-10.1648
不肖	-10.1655
挺	-10.166
奈何	-10.1661
天津	-10.167
幢	-10.1673
蟻	-10.1677
覈	-10.1692
霸	-10.1703
錢塘	-10.1703
一月	-10.1705
太君	-10.1723
繭	-10.1735
跨	-10.1738
婢	-10.1739
勃	-10.1741
恭人	-10.1742
廓	-10.1744
臺灣	-10.1753
嘉靖	-10.1764
睂	-10.1767
讌	-10.177
趂	-10.1771
坎	-10.1775
有二	-10.1782
轡	-10.1787
㓜	-10.1788
遞	-10.1789
父老	-10.179
望雨	-10.1795
君不見	-10.1796
得失	-10.1798
先君	-10.1799
䑓	-10.1802
禮記	-10.1803
而不能	-10.1806
九十	-10.1809
汎	-10.1831
羈	-10.1832
濳	-10.1833
御製	-10.1843
懋	-10.1849
布衣	-10.1851
缾	-10.1852
一身	-10.1852
金川	-10.1853
歐	-10.1857
之大	-10.1861
贏	-10.1863
丈夫	-10.1863
提督	-10.187
𨽻	-10.1874
兵部	-10.1875
甸	-10.1878
瑤	-10.1878
春日	-10.1879
斃	-10.1883
猶有	-10.1887
東山	-10.1888
功名	-10.1889
以至	-10.1892
諸家	-10.1905
懇	-10.1911
潜	-10.1914
嫩	-10.1915
牌	-10.1927
埽	-10.1929
様	-10.1931
駁	-10.1933
企	-10.1933
馨	-10.1939
羮	-10.1943
題詩	-10.1946
堰	-10.1952
娘	-10.1959
㝠	-10.196
春光	-10.197
顚	-10.1975
繋	-10.1979
湏	-10.1986
無恙	-10.1999
淑人	-10.2001
則以	-10.2007
元氣	-10.2009
剖	-10.201
抒	-10.2011
濵	-10.2015
唐人	-10.2023
氛	-10.2025
蠧	-10.2028
講學	-10.2036
公卿	-10.2045
㝡	-10.2045
木蘭	-10.2047
堵	-10.2059
吾友	-10.2063
賊匪	-10.2079
鉤	-10.2079
掖	-10.2092
南巡	-10.2093
陀	-10.2098
門人	-10.2105
聯	-10.2105
經營	-10.2106
塡	-10.2106
鎖	-10.2108
福康安	-10.2129
山下	-10.2135
鵠	-10.2136
叨	-10.2141
俸	-10.2144
時時	-10.2149
觀之	-10.2151
諳	-10.2157
蛟	-10.2158
拳	-10.216
多少	-10.2162
而今	-10.2167
仲春	-10.217
百世	-10.2171
彊	-10.2173
卒於	-10.2175
阿桂	-10.2179
替	-10.2186
膚	-10.2188
瀉	-10.2188
葦	-10.2189
十載	-10.2191
墩	-10.2199
江東	-10.2213
皇太后	-10.2216
五百	-10.2217
者又	-10.2218
圜	-10.2223
艷	-10.2223
捨	-10.2225
有以	-10.2227
将軍	-10.2231
帯	-10.2238
䘏	-10.2243
所著	-10.2248
時有	-10.2257
橘	-10.2257
明日	-10.2263
精舍	-10.2269
轅	-10.2273
扈	-10.2279
亦非	-10.2283
鷺	-10.2283
儂	-10.2287
勦	-10.2287
年來	-10.2287
咽	-10.2288
蕙	-10.2289
人事	-10.2291
之論	-10.2294
舉人	-10.2301
不死	-10.2301
複	-10.2307
未盡	-10.2311
此事	-10.2313
之謂	-10.2316
不合	-10.2319
三寸	-10.2327
行人	-10.2329
亦何	-10.2331
抄	-10.234
經過	-10.2341
孺	-10.2342
不堪	-10.2344
山之	-10.2346
豈無	-10.2356
竣	-10.2357
曦	-10.2357
或有	-10.2358
春色	-10.2363
世祖	-10.2369
乎其	-10.2369
未敢	-10.237
沸	-10.2374
觀其	-10.2374
髙下	-10.2382
刑部	-10.2385
燦	-10.2392
則其	-10.2396
經術	-10.2399
棺	-10.2406
孝廉	-10.2407
摺	-10.2409
轂	-10.242
緝	-10.242
悵	-10.2425
其身	-10.2429
日夜	-10.2439
柄	-10.2448
諷	-10.2455
冲	-10.2456
豔	-10.2457
不妨	-10.2457
姊	-10.2458
嗤	-10.2458
上人	-10.246
未幾	-10.246
逓	-10.246
河北	-10.2471
性情	-10.2473
艇	-10.2482
塢	-10.2491
衙	-10.2497
終日	-10.2501
於世	-10.2505
牋	-10.2508
訴	-10.2508
蘋	-10.2509
東海	-10.2537
牲	-10.2539
它	-10.2541
鉢	-10.2541
所為	-10.2542
簇	-10.2543
罵	-10.2544
有感	-10.255
歸去	-10.2554
俯仰	-10.257
詩韻	-10.2575
大田	-10.2577
弛	-10.2578
故其	-10.2581
海棠	-10.2581
也自	-10.2582
一律	-10.2588
牒	-10.2591
犢	-10.2592
沖	-10.2592
一例	-10.2597
淤	-10.2598
甌	-10.2601
隻	-10.2602
狼	-10.2609
各屬	-10.2609
軰	-10.261
五經	-10.2617
六朝	-10.2624
拖	-10.2625
鬼神	-10.2626
衾	-10.2627
左氏	-10.2628
麥收	-10.2632
从	-10.2632
賚	-10.2634
穫	-10.2656
仁義	-10.2656
綃	-10.2663
名士	-10.2663
裹	-10.2664
不可不	-10.2664
無異	-10.2675
爪	-10.2677
豕	-10.2678
頤	-10.2679
入海	-10.2689
山色	-10.2692
穹	-10.2696
蛾	-10.2699
數百	-10.2699
忠孝	-10.2702
也以	-10.2702
紀事	-10.2712
撤	-10.2715
帽	-10.2716
憾	-10.2723
欲以	-10.2727
女子	-10.2732
逞	-10.2733
拏	-10.2734
閔	-10.2734
軫	-10.2738
分别	-10.2743
揖	-10.2748
鋤	-10.2751
一書	-10.2763
粥	-10.2764
之類	-10.2765
先儒	-10.2765
本無	-10.2767
尖	-10.2768
芸	-10.2783
十餘	-10.2785
者多	-10.2786
奬	-10.2786
譯	-10.2787
之本	-10.2787
十七年	-10.2794
太白	-10.2794
以来	-10.2798
菱	-10.28
太息	-10.2804
濟南	-10.2804
炊	-10.2812
也吾	-10.2813
擘	-10.282
廵撫	-10.2821
五行	-10.2824
扣	-10.2833
以待	-10.2834
而去	-10.2842
而爲	-10.2851
刃	-10.2852
踞	-10.2855
憫	-10.2855
同心	-10.2857
蘓	-10.2858
乃知	-10.2862
孝友	-10.2865
誨	-10.2872
蟾	-10.2876
十三年	-10.2877
亦未	-10.2887
赦	-10.2887
螢	-10.2887
詩云	-10.289
閭閻	-10.2892
十二年	-10.2896
門前	-10.2897
玲瓏	-10.2907
酷	-10.2909
用兵	-10.291
三四	-10.2911
官員	-10.2915
三江	-10.2921
所屬	-10.2924
相國	-10.2928
冬至	-10.2933
晝夜	-10.294
為君	-10.2943
童子	-10.2951
四川	-10.2956
丙	-10.2957
覊	-10.2962
登臨	-10.2962
蓮花	-10.2964
謫	-10.2969
漠	-10.2971
不止	-10.2975
安能	-10.2975
悅	-10.298
中庸	-10.2987
廣東	-10.2993
之變	-10.2997
武帝	-10.3001
被災	-10.3016
清明	-10.3017
江水	-10.3018
呌	-10.3018
不受	-10.3029
隕	-10.3031
俘	-10.3032
乙酉	-10.3033
舍人	-10.3037
祕	-10.3045
秋色	-10.305
聰	-10.3052
不獨	-10.3062
金山	-10.3066
雨澤	-10.3066
輓	-10.3067
黜	-10.3067
凖	-10.3067
膳	-10.3068
之役	-10.3069
牟	-10.307
鬻	-10.307
秋水	-10.3074
工部	-10.3081
狗	-10.3081
彤	-10.3087
其爲	-10.3087
以求	-10.3089
珮	-10.309
恢	-10.3091
磴	-10.3094
是年	-10.3095
進退	-10.3102
葩	-10.3105
雨雪	-10.3106
誡	-10.3106
芳草	-10.311
諸書	-10.3116
之内	-10.3117
省城	-10.3122
别有	-10.3124
得此	-10.313
或曰	-10.3131
意氣	-10.3132
隂陽	-10.3133
慨	-10.3133
其為	-10.3135
諸儒	-10.3136
也此	-10.3136
殫	-10.3138
若是	-10.314
鞠	-10.3142
依舊	-10.3144
庚子	-10.3146
矩	-10.316
苖	-10.3162
則曰	-10.317
豹	-10.3175
虬	-10.3179
擔	-10.3179
有時	-10.3182
河東	-10.3184
依稀	-10.3186
効	-10.3189
曁	-10.3191
之至	-10.3192
悶	-10.3193
則是	-10.3197
四面	-10.3203
年少	-10.3207
囚	-10.3211
舛	-10.3212
宜人	-10.3226
生於	-10.3228
公曰	-10.323
產	-10.323
粒	-10.3231
使人	-10.324
模	-10.3246
睦	-10.3247
袂	-10.3249
何有	-10.325
棠	-10.3255
以成	-10.3256
昊	-10.3256
于此	-10.3266
奢	-10.3266
翹	-10.3266
兎	-10.3267
總兵	-10.3274
白居易	-10.3276
始知	-10.3282
得以	-10.3285
丑	-10.3286
昨嵗	-10.329
經義	-10.3291
一曲	-10.3296
豈可	-10.3298
耿	-10.33
兔	-10.3305
􁀙	-10.3307
鴛鴦	-10.331
鑾	-10.3317
煖	-10.3324
朂	-10.3325
無復	-10.3325
何足	-10.3328
秋日	-10.3331
小民	-10.3332
開元	-10.3345
妻子	-10.3349
落花	-10.3351
覃	-10.3357
之矣	-10.3358
㝷	-10.336
盪	-10.3361
揺	-10.3365
次韻	-10.3378
夜半	-10.3379
宋史	-10.3382
當世	-10.3388
不宜	-10.3391
攘	-10.3397
鯨	-10.3397
帑	-10.3402
逺近	-10.3404
終身	-10.3404
也公	-10.3406
陜	-10.3407
不可得	-10.3408
豈知	-10.3413
昇	-10.3423
平定	-10.3428
矧	-10.3432
胎	-10.3432
亘	-10.3434
薩	-10.3435
謡	-10.3435
航	-10.3436
可也	-10.344
十餘年	-10.3441
我皇上	-10.3445
太原	-10.3446
蹇	-10.3453
國史	-10.3456
於今	-10.3457
不知其	-10.3458
二十八	-10.346
而不知	-10.346
是書	-10.3462
不禁	-10.3463
之初	-10.3465
或以	-10.3465
宋人	-10.3465
刹	-10.3466
虜	-10.347
股	-10.3485
雖不	-10.3487
軟	-10.3491
脈	-10.3493
觀察	-10.3495
劫	-10.3506
盗	-10.3507
芻	-10.3508
丕	-10.351
匣	-10.3511
惬	-10.3513
之世	-10.3514
城中	-10.3515
涇	-10.3516
昨日	-10.352
愆	-10.3525
遘	-10.3528
得雪	-10.3529
儔	-10.353
沽	-10.3544
僃	-10.3545
磯	-10.3557
跪	-10.3564
十四年	-10.3564
戌	-10.3565
恕	-10.3567
眸	-10.3567
壮	-10.3569
髯	-10.3571
百尺	-10.3572
騁	-10.3577
曩	-10.3578
竈	-10.3581
今春	-10.3582
取其	-10.3584
詩曰	-10.3588
是則	-10.359
之辭	-10.3592
廑	-10.3594
盛京	-10.3598
稚	-10.3598
雲南	-10.36
有此	-10.3605
今古	-10.3605
而能	-10.3606
作者	-10.3609
夏日	-10.3612
春水	-10.3613
而未	-10.3616
不啻	-10.362
蘭亭	-10.3621
閟	-10.3623
膽	-10.3625
乃以	-10.3625
清風	-10.3627
豈能	-10.3639
狎	-10.3642
有言	-10.3642
英雄	-10.3643
酸	-10.3643
滙	-10.3643
儘	-10.3645
何其	-10.3649
杪	-10.3652
欹	-10.3659
蓼	-10.366
日日	-10.366
婦人	-10.366
所在	-10.3662
妹	-10.3663
大吏	-10.3663
妝	-10.3664
求其	-10.3668
漂	-10.3676
晶	-10.3677
江寧	-10.3677
太學	-10.3678
汴	-10.3681
諸君	-10.3682
矣夫	-10.3683
銓	-10.3684
綬	-10.3684
殉	-10.3685
鞍	-10.3691
之官	-10.3693
慨然	-10.3699
噶	-10.3701
朔日	-10.3706
家法	-10.3713
筐	-10.3718
第二	-10.3719
不得不	-10.3723
具奏	-10.3727
鬟	-10.3727
雲山	-10.3733
由来	-10.3734
舂	-10.3735
戾	-10.3735
不致	-10.3739
之用	-10.374
零落	-10.3742
泰山	-10.3744
視之	-10.3756
怠	-10.3757
使者	-10.3759
閻	-10.3761
失其	-10.3763
作詩	-10.3765
卯	-10.3771
曜	-10.3775
繆	-10.3776
貸	-10.3777
茵	-10.3778
鬭	-10.3779
有一	-10.378
無定	-10.3784
歎息	-10.3789
長者	-10.3794
恍	-10.3796
神明	-10.3797
姦	-10.3798
秧	-10.3799
落落	-10.3803
王孫	-10.3805
流涕	-10.3806
死者	-10.3806
雨過	-10.3807
舅	-10.3809
將以	-10.3809
九卿	-10.3811
通省	-10.3813
三尺	-10.3814
憎	-10.3815
須臾	-10.3815
勑	-10.3816
安人	-10.3826
慟	-10.3832
胄	-10.3834
㫄	-10.3835
糜	-10.3835
徂	-10.3836
墓表	-10.3837
張氏	-10.3837
詐	-10.3837
張公	-10.384
言其	-10.3852
詡	-10.3854
梳	-10.3858
之民	-10.3861
七言	-10.3861
暝	-10.3866
處處	-10.3867
纖	-10.3871
擎	-10.3874
另	-10.3874
殷勤	-10.3876
厨	-10.3876
詩有	-10.3877
一體	-10.388
城西	-10.388
未至	-10.3883
佚	-10.3887
世間	-10.389
遯	-10.3892
椀	-10.3895
岩	-10.3896
㢤	-10.3897
一曰	-10.3897
除夕	-10.3902
傷心	-10.3903
奎	-10.391
數十年	-10.3912
作歌	-10.3913
寒食	-10.3914
壬午	-10.3916
然其	-10.3918
道路	-10.3919
不改	-10.3923
鷄	-10.3925
駒	-10.3925
遺書	-10.3927
佇	-10.3929
逈	-10.3934
佈	-10.3938
龍門	-10.394
可見	-10.394
貺	-10.394
篁	-10.3945
茸	-10.3952
妨	-10.3957
熱河	-10.3961
民間	-10.3961
者爲	-10.3967
四五	-10.3967
腐	-10.3968
婚	-10.3971
武王	-10.3977
執事	-10.3981
上有	-10.3986
絶句	-10.3991
屈指	-10.3992
䑕	-10.3992
先王	-10.4
始於	-10.4007
我亦	-10.4021
嘉慶	-10.4026
學問	-10.4028
貂	-10.4034
舟中	-10.4036
故國	-10.4036
士之	-10.4045
風塵	-10.4049
甲申	-10.405
襄陽	-10.405
歙	-10.405
蕊	-10.4053
迄	-10.4053
再題	-10.4057
大學	-10.4061
大江	-10.4067
知縣	-10.407
昬	-10.4071
杏花	-10.4071
昔年	-10.4073
蒐	-10.4074
太僕	-10.4075
安徽	-10.4079
大抵	-10.4082
之年	-10.4084
而言	-10.4086
罏	-10.4086
不許	-10.4087
餅	-10.4089
倐	-10.409
臆	-10.4091
冐	-10.4092
不幸	-10.4092
十五年	-10.4093
丙辰	-10.4095
湖山	-10.4099
二寸	-10.4105
檢討	-10.4108
斤	-10.411
其所以	-10.4122
劣	-10.4127
落葉	-10.4128
茹	-10.413
挿	-10.4132
鞏	-10.4133
李氏	-10.4141
億	-10.4142
有三	-10.4145
君子之	-10.4146
天然	-10.4147
白首	-10.4148
拊	-10.4149
燈火	-10.4152
太極	-10.4155
而成	-10.4158
第三	-10.4162
白石	-10.4162
而卒	-10.4167
所能	-10.4181
聖祖	-10.4183
諸人	-10.4184
孝經	-10.4187
縱横	-10.4188
璽	-10.4193
殤	-10.4193
此皆	-10.4195
祖宗	-10.4196
奔走	-10.4199
凄	-10.4202
雲氣	-10.4206
渴	-10.4208
如意	-10.4209
居士	-10.4216
博士	-10.4217
鄴	-10.4219
貝	-10.4219
不信	-10.4224
因以	-10.4225
也且	-10.4228
篷	-10.4228
雲中	-10.423
熏	-10.4232
始終	-10.4232
吳中	-10.4235
所言	-10.4236
前此	-10.424
歸政	-10.4246
戮	-10.4252
㡌	-10.4252
衮	-10.4252
讐	-10.4262
其下	-10.4264
也然則	-10.4264
宰相	-10.4265
儻	-10.4268
中國	-10.4268
箱	-10.427
噫	-10.427
粹	-10.4272
湖北	-10.4276
十萬	-10.4279
君家	-10.4281
太傅	-10.4282
闔	-10.4282
唐書	-10.4285
凱	-10.4287
此中	-10.4291
轄	-10.4293
捫	-10.4294
九分	-10.4298
郡縣	-10.4298
他人	-10.4309
椎	-10.4311
遏	-10.4311
罹	-10.4312
瘠	-10.4313
蘄	-10.4313
麾	-10.4313
線	-10.4316
於其	-10.432
微雨	-10.432
吳越	-10.4326
覓	-10.4331
矗	-10.4333
太公	-10.4339
萬夀	-10.4346
議論	-10.4346
有作	-10.4347
此間	-10.4347
實為	-10.4349
禾黍	-10.435
猜	-10.4351
緘	-10.4352
掣	-10.4357
東方	-10.4363
惹	-10.4372
羙	-10.4373
崑	-10.4376
先世	-10.4385
宥	-10.4389
嘲	-10.4389
偈	-10.4392
相繼	-10.4395
松風	-10.4396
天道	-10.4398
逄	-10.4399
其三	-10.4412
此亦	-10.4413
當是時	-10.4418
五言	-10.4424
崑山	-10.4435
廡	-10.4435
何年	-10.4449
艱難	-10.4453
蝕	-10.4454
棧	-10.4459
汛	-10.4462
紳	-10.4462
方伯	-10.4462
所爲	-10.4463
新詩	-10.4467
大節	-10.4468
寮	-10.4471
噶爾丹	-10.4474
行館	-10.4475
惟恐	-10.4476
恱	-10.4477
幔	-10.4478
遶	-10.4478
吾母	-10.4485
蘇州	-10.4488
宛轉	-10.4491
曾祖	-10.4491
花落	-10.4491
矦	-10.4492
風雅	-10.4493
家居	-10.4494
幣	-10.4495
庻	-10.4497
贖	-10.4498
貼	-10.45
相應	-10.4505
嵗月	-10.4512
年七十	-10.4513
夫婦	-10.4516
煎	-10.4518
不容	-10.4522
颯	-10.4522
爲文	-10.4525
之屬	-10.4528
千餘	-10.453
艮	-10.4531
曼	-10.4533
朋友	-10.4546
殱	-10.4547
之樂	-10.455
五湖	-10.4553
人家	-10.4558
布政使	-10.4558
祔	-10.456
四百	-10.4563
道人	-10.457
之前	-10.4573
軼	-10.4576
京兆	-10.4578
昂	-10.458
所藏	-10.4581
巘	-10.4585
六韻	-10.4587
長沙	-10.4591
空山	-10.4596
婉	-10.4599
禘	-10.46
鎻	-10.4601
可惜	-10.4601
廽	-10.4601
之交	-10.4602
敕	-10.4603
吾師	-10.4605
優渥	-10.4618
闊	-10.462
緜	-10.4621
碣	-10.4621
犁	-10.4623
伎	-10.4624
也是	-10.463
而已矣	-10.4633
不孝	-10.4642
踪	-10.4643
窈窕	-10.4643
社稷	-10.4645
馥	-10.4646
厄	-10.4662
鐡	-10.4664
蟹	-10.4664
謚	-10.4667
汾	-10.4669
齋居	-10.467
近日	-10.4671
起居	-10.4675
賁	-10.4676
卡	-10.4677
城東	-10.468
斟	-10.4685
鵞	-10.4687
畿	-10.4697
避暑	-10.4698
婁	-10.4699
上書	-10.4704
蕭然	-10.4706
簮	-10.4707
薫	-10.4707
也乃	-10.4711
戸部	-10.4712
盛事	-10.4721
回首	-10.4722
山隂	-10.4722
僊	-10.4723
剡	-10.4726
愷	-10.4728
聖主	-10.473
墀	-10.4733
之勢	-10.4735
不動	-10.474
聞道	-10.4742
指揮	-10.4743
即今	-10.4744
曳	-10.4748
一心	-10.475
有云	-10.4751
珊瑚	-10.4752
塟	-10.4752
藕	-10.4753
蒼茫	-10.4755
前輩	-10.4757
樓臺	-10.476
莖	-10.4762
使之	-10.4764
者乃	-10.4766
謂其	-10.4767
夲	-10.4771
愴	-10.479
蘚	-10.4794
墾	-10.4795
埃	-10.4801
爲人	-10.4801
其在	-10.4803
而死	-10.4809
餞	-10.4812
詩以	-10.4812
辛丑	-10.4817
両	-10.4817
僉	-10.482
甚矣	-10.4822
言也	-10.4828
衙門	-10.4831
趁	-10.4834
桃李	-10.4834
山林	-10.4837
顒	-10.4838
數千	-10.4849
剔	-10.4854
宋元	-10.4855
南陽	-10.4858
庥	-10.4858
呵	-10.4859
陡	-10.4862
礙	-10.4874
異同	-10.4877
蹊	-10.4879
日暮	-10.4883
竺	-10.4888
終不	-10.4888
冢	-10.4899
禹貢	-10.4899
里中	-10.4901
戢	-10.4902
桞	-10.4903
未成	-10.4904
前人	-10.4904
花下	-10.4909
之水	-10.4911
本末	-10.4915
緇	-10.4921
詒	-10.4924
賢者	-10.4927
一面	-10.4934
衣食	-10.4935
稷	-10.494
参	-10.4942
萬曆	-10.4944
四寸	-10.4946
集序	-10.4955
新月	-10.4963
壊	-10.4967
喀	-10.4967
税	-10.4969
廣西	-10.4972
堯舜	-10.4974
濱	-10.4985
百家	-10.4986
徵君	-10.4991
明府	-10.4992
人以	-10.4993
無逸	-10.4998
其母	-10.5
减	-10.5009
忱	-10.501
歸於	-10.5015
江左	-10.5018
九州	-10.5019
為詩	-10.5019
滄海	-10.5023
十一年	-10.5025
政事	-10.5027
簟	-10.5027
濠	-10.5027
自此	-10.5027
鵝	-10.5029
人才	-10.5032
瞻禮	-10.5032
脉	-10.5034
失之	-10.5037
為人	-10.5039
浮雲	-10.5044
髙士	-10.5046
甲辰	-10.5047
所傳	-10.5048
者或	-10.5048
瑩	-10.5054
蟄	-10.5054
淀	-10.5064
復有	-10.5064
鯉	-10.5066
繕	-10.5071
啄	-10.5072
故園	-10.5075
令其	-10.5076
旃	-10.5076
猶在	-10.5077
得一	-10.5077
昨夜	-10.5078
一夜	-10.5083
顔色	-10.5087
二十五	-10.5087
蕭條	-10.509
箸	-10.5091
飬	-10.5094
綽	-10.5094
貴州	-10.51
鈿	-10.5101
士民	-10.5103
陽明	-10.5111
死而	-10.5116
貝勒	-10.5119
南渡	-10.5121
八分有餘	-10.5129
陳氏	-10.5132
詆	-10.5137
肝	-10.5141
甄	-10.5142
四明	-10.5145
户部	-10.5147
剏	-10.5147
長子	-10.5148
相如	-10.5148
斯人	-10.5148
玉泉	-10.5152
月明	-10.5155
臨風	-10.5161
扼	-10.5164
流連	-10.5165
薰	-10.5167
圎	-10.5169
不作	-10.5169
無他	-10.5171
饋	-10.5182
而止	-10.5183
滄浪	-10.5185
贍	-10.5185
澆	-10.5188
之賢	-10.5188
職方	-10.5191
隷	-10.5201
洛陽	-10.5201
和尚	-10.5203
集中	-10.5205
萍	-10.5207
屛	-10.5207
饌	-10.5208
莅	-10.5212
暘	-10.5217
寥	-10.5219
大師	-10.5219
寰	-10.5221
間有	-10.5226
櫂	-10.5227
其才	-10.5227
笥	-10.5229
騶	-10.5231
躡	-10.5231
丙申	-10.5235
薊	-10.5235
并序	-10.5236
先人	-10.5237
五六	-10.5238
道士	-10.5239
風光	-10.5241
無言	-10.5245
萬一	-10.5246
一名	-10.5251
訣	-10.5252
頴	-10.5253
剰	-10.5254
苕	-10.5255
譬	-10.5267
腴	-10.5268
其有	-10.5269
目前	-10.5271
四人	-10.5272
滕	-10.5274
豎	-10.5275
丹青	-10.5281
穎	-10.5297
也哉	-10.5299
縫	-10.53
而知	-10.5309
天命	-10.531
朽	-10.5313
㑹同	-10.5313
弆	-10.5315
當其	-10.5315
沮	-10.5316
暈	-10.532
西河	-10.532
不到	-10.5321
㳟	-10.5321
有㑹	-10.5324
歸里	-10.5328
翰墨	-10.5328
湖水	-10.5334
榛	-10.534
郢	-10.5342
兵丁	-10.5345
出門	-10.5355
云爾	-10.5357
而得	-10.5361
藪	-10.5364
給事中	-10.5369
蹄	-10.5376
侍衛	-10.5381
熾	-10.5385
囬	-10.5385
餓	-10.5385
杜甫	-10.5386
才子	-10.5387
琉璃	-10.539
焉而	-10.539
幽人	-10.5392
桃源	-10.54
始得	-10.5401
保定	-10.5401
者為	-10.5403
二十一	-10.5405
榦	-10.5408
禧	-10.5409
孽	-10.541
螭	-10.541
妬	-10.5413
蠲免	-10.5414
為文	-10.5418
輟	-10.5423
陛	-10.5424
其四	-10.5428
行事	-10.543
江都	-10.543
年六十	-10.5431
六十年	-10.5431
喜晴	-10.5453
彥	-10.5453
屑	-10.5455
酋	-10.5457
如斯	-10.5457
世家	-10.5459
無有	-10.5462
不失	-10.5466
猶存	-10.5468
司農	-10.5476
㓂	-10.5479
則必	-10.5487
十九年	-10.5497
秀才	-10.5497
無非	-10.5497
鵬	-10.5499
八日	-10.55
囂	-10.5502
只有	-10.5503
而復	-10.5513
盤山	-10.5517
從前	-10.5521
貳	-10.5523
娱	-10.5526
在此	-10.5527
恭紀	-10.5528
五人	-10.5541
其辭	-10.5544
綻	-10.5547
迭	-10.5547
者如	-10.555
吾家	-10.5552
十六年	-10.5566
翎	-10.5571
矣其	-10.5575
詹	-10.5576
斌	-10.5576
歲月	-10.5584
之力	-10.5586
湖廣	-10.5588
白馬	-10.5588
四日	-10.559
斛	-10.559
鈍	-10.5591
潁	-10.5594
前代	-10.5598
久而	-10.5604
此意	-10.561
同知	-10.5611
七夕	-10.5611
銳	-10.5615
仄	-10.5617
夭	-10.5617
孜孜	-10.5619
西域	-10.5622
之禍	-10.5622
成進士	-10.5623
其他	-10.5624
十卷	-10.5626
五字	-10.5631
小學	-10.5631
荆州	-10.5635
爲一	-10.5636
藜	-10.5639
之風	-10.5642
沁	-10.5643
販	-10.5643
不負	-10.5644
憶昔	-10.5653
皓	-10.5662
虗	-10.5662
晤	-10.5663
龕	-10.5663
詩集	-10.5665
蕆	-10.5669
城下	-10.5671
變化	-10.5679
貶	-10.5679
無多	-10.5681
莫能	-10.5682
再拜	-10.5684
棋	-10.5685
山陽	-10.5685
鴛	-10.5687
郁	-10.5687
鐸	-10.5688
弧	-10.5689
群	-10.5689
彞尊	-10.569
西安	-10.5692
互相	-10.5694
本年	-10.5694
成王	-10.5699
少陵	-10.57
玉泉山	-10.57
輕重	-10.5702
雲間	-10.5704
看花	-10.5713
懽	-10.5715
萬民	-10.5725
告成	-10.5728
灼	-10.573
堂堂	-10.5734
晷	-10.5735
二十二	-10.5736
一巻	-10.5736
不惜	-10.5742
吳門	-10.5746
何當	-10.5748
與其	-10.5751
反覆	-10.5753
剝	-10.5754
縦	-10.5756
加恩	-10.5756
琵琶	-10.5758
㪅	-10.5759
事者	-10.5759
廩	-10.5759
受命	-10.5759
巵	-10.5759
中流	-10.576
一路	-10.576
車馬	-10.5761
汶	-10.5763
流離	-10.5764
有詩	-10.5765
節婦	-10.577
而歸	-10.5776
非所	-10.5778
泮	-10.5779
滄	-10.5779
汙	-10.578
夸	-10.5781
翅	-10.5782
亢	-10.5782
煮	-10.5783
愜	-10.5783
而不可	-10.5785
其上	-10.5788
者惟	-10.5792
儒林	-10.5796
懈	-10.5803
顆	-10.5806
與余	-10.5807
永樂	-10.5807
晰	-10.5807
下有	-10.5815
五更	-10.5819
之流	-10.5822
詮	-10.5825
大雅	-10.5825
塍	-10.5827
龎	-10.5827
實有	-10.5831
妓	-10.5833
九江	-10.5836
其道	-10.5843
悖	-10.5848
曰是	-10.5852
荼	-10.5852
針	-10.5853
何用	-10.5861
有人	-10.5861
六日	-10.5864
不若	-10.5866
聖母	-10.5872
者謂	-10.5873
儀禮	-10.5875
重修	-10.5879
穉	-10.5879
門下	-10.588
曡	-10.5881
辛未	-10.5884
人者	-10.5886
趾	-10.589
豫省	-10.5891
而上	-10.5893
茍	-10.5896
嬴	-10.5897
周旋	-10.5899
其親	-10.5901
捉	-10.5901
彷彿	-10.5902
靳	-10.5903
有志	-10.5904
周易	-10.5915
章句	-10.5915
歌舞	-10.5919
荷花	-10.5919
塞外	-10.592
兇	-10.5923
蓬萊	-10.5925
程子	-10.5927
陰陽	-10.5928
天恩	-10.5928
敲	-10.5931
癸未	-10.5937
迄今	-10.5949
公孫	-10.5949
遑	-10.5951
相近	-10.5952
李公	-10.5955
何異	-10.5957
吁	-10.5958
柴門	-10.5959
大事	-10.5968
生死	-10.5971
内地	-10.5973
大功	-10.5975
如故	-10.5976
新安	-10.5976
大人	-10.5978
造物	-10.5978
閉門	-10.5979
河間	-10.5981
大父	-10.5983
文公	-10.5997
不特	-10.5997
噪	-10.5999
成龍	-10.5999
五代	-10.6001
那得	-10.6004
清河	-10.6008
之末	-10.6009
有事	-10.601
御書	-10.6016
㝛	-10.6018
立春	-10.6019
吳江	-10.6019
十二日	-10.6021
之始	-10.6025
一門	-10.6028
必以	-10.6028
昔者	-10.6029
無能	-10.6029
都督	-10.6034
何日	-10.6035
不能自	-10.604
洒	-10.6042
亦復	-10.6042
鍊	-10.6043
皎	-10.6044
宵旰	-10.6048
湍	-10.6048
千人	-10.6049
碉	-10.6052
韜	-10.6059
未足	-10.606
昇平	-10.606
皆可	-10.6062
民情	-10.6066
僮	-10.6066
風月	-10.6069
凭	-10.6069
厰	-10.6072
之臣	-10.6072
寒山	-10.6075
翰林院	-10.6075
未聞	-10.6081
也曰	-10.6083
之詞	-10.6084
自得	-10.6084
王子	-10.6085
攻克	-10.6088
四十年	-10.6088
裡	-10.6089
軀	-10.609
經學	-10.609
洪武	-10.6091
浹	-10.6091
羸	-10.6092
忤	-10.6093
是為	-10.6095
蜃	-10.6096
甥	-10.6096
亦自	-10.6098
太古	-10.61
天氣	-10.61
與人	-10.6103
禎	-10.611
老矣	-10.6112
前朝	-10.6113
不獲	-10.6113
武昌	-10.6113
扈從	-10.6115
吏治	-10.6116
莎	-10.6116
悚	-10.6117
惱	-10.6117
無心	-10.6122
之計	-10.6123
千尺雪	-10.6125
重來	-10.6127
玆	-10.6128
石渠	-10.6128
似此	-10.613
中人	-10.6133
其學	-10.6134
憚	-10.6138
匝	-10.6138
也予	-10.614
湮	-10.614
侶	-10.614
秋月	-10.614
躭	-10.614
南昌	-10.6147
已而	-10.615
想見	-10.6151
不克	-10.6155
𧖟	-10.6158
刊	-10.6161
何也	-10.6161
癖	-10.6164
之罪	-10.6164
姓氏	-10.6167
渡河	-10.6167
祉	-10.6168
原韻	-10.6168
蔭	-10.6168
檣	-10.6169
浣	-10.6171
數月	-10.6172
風前	-10.6174
存者	-10.6174
元旦	-10.6182
諸君子	-10.6184
尔	-10.6185
桺	-10.6186
兩人	-10.6187
泯	-10.619
証	-10.6192
迺	-10.6195
我來	-10.6198
南海	-10.6203
所由	-10.6207
隐	-10.6213
鄭康成	-10.6214
八首	-10.6214
畿輔	-10.6222
之失	-10.6225
主事	-10.6225
書曰	-10.6236
往事	-10.6237
脅	-10.6237
穢	-10.6238
盎	-10.6241
珪	-10.6242
雋	-10.6244
置之	-10.6251
豫章	-10.6253
而行	-10.6258
髣髴	-10.6264
嬾	-10.6265
盍	-10.6265
衲	-10.6268
忝	-10.6268
謾	-10.6268
睢	-10.6271
巔	-10.6276
佳人	-10.6277
液	-10.6283
之典	-10.6284
明朝	-10.6284
此言	-10.6285
而出	-10.6285
肌	-10.6286
天人	-10.6288
藁	-10.6289
鸚鵡	-10.6289
悽	-10.629
以告	-10.6296
八九	-10.63
固有	-10.6303
一代	-10.6305
雨水	-10.6311
沅	-10.6312
有子	-10.6315
筝	-10.6315
迓	-10.6316
頥	-10.6316
崑崙	-10.6319
不善	-10.6321
誰與	-10.6322
諸將	-10.6327
地方官	-10.6328
憇	-10.633
忠臣	-10.6334
碑文	-10.6334
天台	-10.6335
唾	-10.6336
靈巖	-10.6338
盂	-10.6339
瘴	-10.6341
優霑	-10.6345
内府	-10.6348
通鑑	-10.6349
題名	-10.635
矣今	-10.6351
所當	-10.6353
南國	-10.6358
窩	-10.6368
秋禾	-10.6369
一生	-10.6372
無過	-10.6374
實錄	-10.6375
所聞	-10.6378
較之	-10.638
嘉定	-10.6383
做	-10.6385
磵	-10.6388
駝	-10.6388
辜	-10.6388
瞿	-10.6389
八旬	-10.6394
乎此	-10.6399
有聲	-10.6402
者一	-10.6404
有功	-10.6408
推之	-10.6409
揣	-10.6414
十三日	-10.6414
汰	-10.6414
鬯	-10.6415
惶	-10.6416
笏	-10.6421
甚多	-10.6425
十五日	-10.6434
經年	-10.6438
□	-10.6439
賽	-10.6439
婆	-10.6441
蛩	-10.6441
穗	-10.6443
厠	-10.6445
山僧	-10.6446
大士	-10.6448
先師	-10.645
三更	-10.645
諭内閣	-10.6452
甘霖	-10.6454
相同	-10.6457
狹	-10.6463
紈	-10.6464
之精	-10.6466
沂	-10.6473
傳曰	-10.6474
而自	-10.6479
感激	-10.6482
公羊	-10.6486
夙夜	-10.6486
此其	-10.6489
摭	-10.6489
茁	-10.649
烝	-10.649
今人	-10.6492
郎中	-10.6495
之師	-10.6496
王師	-10.6496
六首	-10.6497
登髙	-10.65
山居	-10.6503
繼之	-10.651
歎曰	-10.6512
不厭	-10.6514
噴	-10.6516
亦必	-10.6517
籖	-10.6519
丁丑	-10.6523
壬	-10.6524
粲	-10.6526
再三	-10.6533
等日	-10.6536
恆	-10.6539
為一	-10.6541
縹緲	-10.6543
一見	-10.6543
檜	-10.6545
正義	-10.6545
之情	-10.6549
登樓	-10.655
東林	-10.6558
景物	-10.6561
言者	-10.6564
頺	-10.6568
池上	-10.6577
十八日	-10.6579
雒	-10.658
圖書	-10.6588
書生	-10.6593
臚	-10.6593
燼	-10.6594
􁔪	-10.6603
事而	-10.6604
誰家	-10.6604
太倉	-10.6608
虞山	-10.6609
西成	-10.6615
同日	-10.6617
釁	-10.6619
瓢	-10.6619
河水	-10.662
翩	-10.662
有竒	-10.6628
无	-10.6632
十首	-10.6635
何能	-10.6639
闥	-10.6641
冺	-10.6644
叱	-10.6647
憔悴	-10.6648
藏書	-10.665
於人	-10.665
國朝	-10.6653
故云	-10.6655
五首	-10.6655
一編	-10.666
於時	-10.6663
不遇	-10.6665
北方	-10.6667
垢	-10.6667
與夫	-10.667
曾孫	-10.667
售	-10.6671
安南	-10.6674
槃	-10.6697
溪山	-10.6697
庚戌	-10.67
為此	-10.6701
人主	-10.6701
亭亭	-10.6705
出其	-10.6707
也則	-10.6707
即以	-10.6708
承恩	-10.671
祖父	-10.6711
汚	-10.6718
治之	-10.6723
幄	-10.6724
瀛臺	-10.6735
太湖	-10.6736
縣令	-10.6736
山陰	-10.6737
不得已	-10.674
無遺	-10.6741
愍	-10.6743
琅	-10.6744
黄花	-10.6745
愉	-10.6746
論文	-10.675
事也	-10.6752
之命	-10.6754
未易	-10.6754
依依	-10.6758
不起	-10.6763
醴	-10.6765
以死	-10.6766
佞	-10.6768
虐	-10.6771
紹興	-10.6774
倖	-10.6774
笋	-10.6777
戊戌	-10.6777
南歸	-10.6779
江陵	-10.6779
驄	-10.6781
而公	-10.6787
江蘇	-10.6795
從之	-10.6796
悍	-10.6797
書法	-10.6798
春夏	-10.6799
道也	-10.6801
球	-10.6802
甲乙	-10.6804
王母	-10.6806
石經	-10.6806
重陽	-10.6809
疊舊作韻	-10.681
李白	-10.6812
嘉興	-10.6812
者何	-10.6821
不入	-10.6825
焚香	-10.6828
功成	-10.683
壬子	-10.6835
長城	-10.6835
成都	-10.6837
風雲	-10.6838
余與	-10.6842
茫	-10.6847
脣	-10.6848
之㫖	-10.6849
耄	-10.6853
文帝	-10.6854
古人之	-10.6856
風景	-10.6864
寐	-10.6866
副使	-10.687
秋雨	-10.6873
炤	-10.6874
㳒	-10.6874
山河	-10.6874
駟	-10.6878
淒	-10.6879
訃	-10.6879
千百	-10.6883
璫	-10.6884
侍讀	-10.6885
注云	-10.6886
不解	-10.6888
遣使	-10.6894
羣臣	-10.69
不下	-10.6904
禮成	-10.6906
順天	-10.6906
芍藥	-10.6907
即此	-10.6908
哨	-10.6908
装	-10.691
丙午	-10.691
漠漠	-10.6911
髙樓	-10.6913
先公	-10.6917
余曰	-10.6925
太和	-10.6925
狄	-10.6926
聿	-10.6929
穩	-10.6929
罄	-10.6933
弩	-10.6933
丁酉	-10.6936
屆	-10.6937
山寺	-10.6945
茅屋	-10.6947
不一	-10.6949
無限	-10.6954
戶	-10.6955
此非	-10.6955
剥	-10.6956
朴	-10.6957
壠	-10.6957
縞	-10.6958
燃	-10.6958
令人	-10.696
加以	-10.6963
被水	-10.6963
半月	-10.6966
吁嗟	-10.6971
萬頃	-10.6971
其説	-10.6972
無數	-10.6973
好事	-10.6976
詹事	-10.6979
稽首	-10.6981
於後	-10.6983
明史	-10.6984
坂	-10.6984
歿	-10.6985
鼐	-10.6986
㠶	-10.6987
悠	-10.699
江淮	-10.6996
飲酒	-10.7001
夢中	-10.7003
鉛	-10.7005
蒼蒼	-10.701
庇	-10.7011
腕	-10.7013
戊辰	-10.7014
其先	-10.7016
想像	-10.7016
老子	-10.7018
以備	-10.7025
件	-10.7026
上林	-10.7027
大有	-10.7031
聰明	-10.7031
多有	-10.7032
捍	-10.7033
彪	-10.7034
故有	-10.7035
頰	-10.7039
不顧	-10.7041
笳	-10.7043
幀	-10.7044
其可	-10.7047
㑹稽	-10.7049
爲詩	-10.7051
為我	-10.7052
開府	-10.7053
試問	-10.7054
之德	-10.7054
功臣	-10.7056
丙子	-10.7058
兌	-10.7058
歆	-10.7058
回部	-10.7063
彛	-10.7064
餌	-10.7064
城郭	-10.7064
方寸	-10.7066
黯	-10.707
鳶	-10.707
三載	-10.7071
自昔	-10.7072
曲折	-10.7075
七字	-10.7078
皆不	-10.7079
好古	-10.7082
死生	-10.7084
必先	-10.7086
宫中	-10.7087
梨	-10.7089
贅	-10.7089
犖	-10.7091
邢	-10.7091
姻	-10.7092
亦云	-10.7093
伺	-10.7093
稽古	-10.7097
到處	-10.7098
積雪	-10.7099
楊柳	-10.7101
故鄉	-10.7103
一聲	-10.7108
霑足	-10.7109
非常	-10.7109
若何	-10.711
後先	-10.7111
萬樹	-10.7111
南京	-10.7112
春來	-10.7114
昉	-10.7115
苛	-10.7116
運河	-10.7117
風雪	-10.7119
嗣後	-10.7127
祭酒	-10.713
從事	-10.7131
竹林	-10.7133
塾	-10.7133
吾聞	-10.7135
終始	-10.7136
松江	-10.7137
不逮	-10.7141
一夕	-10.7142
攫	-10.7142
裒	-10.7142
一經	-10.7143
闇	-10.7143
以文	-10.7145
長洲	-10.7145
寃	-10.7147
庚寅	-10.7149
靡不	-10.715
稱其	-10.7152
有無	-10.7156
他年	-10.716
以次	-10.7161
老夫	-10.7162
之區	-10.7165
全書	-10.7167
兒童	-10.7168
纒	-10.717
知已	-10.7171
芥	-10.7175
何曾	-10.7176
寂寂	-10.7177
翟	-10.7179
六七	-10.7182
月令	-10.7182
其本	-10.7182
溟	-10.7183
乙未	-10.7188
學之	-10.7188
幕府	-10.719
至意	-10.7193
秋成	-10.7193
弭	-10.7196
歸田	-10.7197
諌	-10.7199
諮	-10.7199
經傳	-10.72
未經	-10.7202
千萬	-10.7202
給事	-10.7205
口占	-10.7206
周之	-10.7208
若有	-10.7209
小憩	-10.7214
文獻	-10.7222
秊	-10.7225
砥	-10.7226
曵	-10.7226
琬	-10.7227
惻	-10.7232
二十七	-10.7235
十六日	-10.7237
後來	-10.7244
白髪	-10.7246
据	-10.725
葆	-10.7251
敖	-10.7254
裾	-10.7254
款	-10.7255
彼此	-10.7258
古寺	-10.7259
寒暑	-10.7264
上官	-10.7274
謗	-10.7276
誚	-10.7281
明之	-10.7281
凜	-10.7281
九分有餘	-10.7287
礟	-10.7288
起家	-10.7291
者哉	-10.7293
徃徃	-10.7294
▁臣	-10.7295
覇	-10.7305
絹	-10.7308
鍼	-10.7309
無何	-10.7311
捜	-10.7313
其能	-10.7314
深透	-10.7318
多士	-10.7326
發明	-10.7331
平陽	-10.7332
不問	-10.7332
北山	-10.7333
武功	-10.7335
殯	-10.7336
驥	-10.7337
北海	-10.7337
程朱	-10.734
水流	-10.7341
此際	-10.7342
矣故	-10.7344
羃	-10.7359
雌	-10.7361
次日	-10.7362
園中	-10.7363
届	-10.7364
賄	-10.7366
瀕	-10.7367
山谷	-10.7368
因命	-10.7369
二卷	-10.7372
暮春	-10.7374
一室	-10.7375
過雨	-10.7379
有道	-10.7382
七十二	-10.7385
當以	-10.7386
弑	-10.7386
辛苦	-10.7391
不離	-10.7392
瑕	-10.7394
迸	-10.7395
譁	-10.7395
形勢	-10.7396
宋之	-10.7398
已成	-10.7401
百萬	-10.7406
不辭	-10.7414
自謂	-10.7418
估	-10.742
霰	-10.742
炬	-10.742
媒	-10.7423
之術	-10.7433
泓	-10.7436
有大	-10.7441
斯文	-10.7441
不甚	-10.7445
三分	-10.7445
泐	-10.7448
吝	-10.7449
及此	-10.7449
會稽	-10.7453
民力	-10.7454
九重	-10.7461
晨夕	-10.7461
南望	-10.7462
侍從	-10.7464
三世	-10.7464
二千	-10.7464
瓣	-10.7464
尚可	-10.7465
者此	-10.7468
西京	-10.747
既已	-10.7474
兹據	-10.7477
之體	-10.7477
太史公	-10.7478
旂	-10.7479
臣等	-10.7488
三十二	-10.7492
珍重	-10.7496
竹垞	-10.7496
我欲	-10.7497
學術	-10.7497
漬	-10.75
識者	-10.7502
京口	-10.7502
隈	-10.7505
無盡	-10.7511
書畫	-10.7515
蠅	-10.7522
雞鳴	-10.7523
睹	-10.7526
搏	-10.7528
奏請	-10.7528
禀	-10.7529
則不	-10.7531
盃	-10.7534
蕚	-10.7534
前往	-10.7537
欣慰	-10.7537
不暇	-10.7544
何為	-10.7544
張子	-10.7545
剽	-10.7556
搴	-10.7557
勤政	-10.7558
壬寅	-10.7559
貞觀	-10.756
奩	-10.756
紓	-10.7561
楮	-10.7561
爲我	-10.7561
搶	-10.7563
肩輿	-10.7566
避暑山莊	-10.7566
取之	-10.7575
之弊	-10.7576
畫舫	-10.7577
於天	-10.7582
菽	-10.7584
侮	-10.7585
攢	-10.7587
剿	-10.7591
之音	-10.7595
時節	-10.7598
行狀	-10.76
廷臣	-10.7602
淮安	-10.7606
安知	-10.7609
固已	-10.7612
狥	-10.7615
嶼	-10.7615
萬人	-10.7616
我心	-10.7617
深處	-10.7619
馬上	-10.762
姚江	-10.762
著述	-10.7623
宗廟	-10.7624
翠微	-10.7628
盜賊	-10.7633
生計	-10.7633
兒女	-10.7638
壹	-10.7643
悄	-10.7646
悃	-10.7647
盻	-10.7647
年八十	-10.7648
有異	-10.765
曰我	-10.765
四字	-10.7652
州府	-10.7653
性命	-10.7657
新城	-10.7658
徒以	-10.766
也嗚呼	-10.766
悠然	-10.7668
錢唐	-10.7668
凢	-10.7668
城北	-10.7672
穰	-10.7676
蛟龍	-10.7676
之先	-10.7681
天心	-10.7683
同人	-10.769
胸中	-10.7691
葱	-10.7694
二公	-10.7694
光明	-10.7697
第五	-10.7698
褐	-10.7698
廼	-10.77
默	-10.77
無所不	-10.77
氊	-10.77
婆娑	-10.7701
嵇	-10.7702
不傳	-10.7702
旣而	-10.7703
夏至	-10.7704
甘肅	-10.7705
庚辰	-10.7706
多矣	-10.7707
中間	-10.7709
特諭	-10.7711
從而	-10.7713
之兵	-10.7715
之思	-10.7721
縣知縣	-10.7721
天子之	-10.7721
掉	-10.7724
猶是	-10.7727
般	-10.773
畫圖	-10.7731
寔	-10.7732
鄉試	-10.7733
枋	-10.7733
三十里	-10.7735
攅	-10.7735
斫	-10.7737
燕子	-10.7738
甲寅	-10.7738
何不	-10.774
因思	-10.7742
楊栁	-10.7743
烟波	-10.7743
此心	-10.7747
無疆	-10.7748
男女	-10.7748
家之	-10.7749
瞽	-10.7749
右軍	-10.7749
入山	-10.7751
荔	-10.7754
而况	-10.7757
騫	-10.7759
屨	-10.7759
濺	-10.7759
訾	-10.776
徐州	-10.776
國語	-10.7769
愛民	-10.7772
世人	-10.7772
忠義	-10.7773
五福	-10.7776
老成	-10.7785
惇	-10.7786
淋漓	-10.7787
名家	-10.7788
燄	-10.7791
以資	-10.7794
者三	-10.7798
遺民	-10.7811
居民	-10.7812
聖祖仁皇帝	-10.7813
个	-10.7815
舊有	-10.7816
齎	-10.7816
洊	-10.7817
泠泠	-10.7818
烘	-10.7818
君諱	-10.7818
二十九	-10.7819
渇	-10.7821
兩月	-10.7822
春山	-10.7832
知有	-10.7833
辛巳	-10.7833
相公	-10.7837
如有	-10.7839
流光	-10.784
二十三	-10.784
園林	-10.7843
之門	-10.7847
蔥	-10.7848
躬行	-10.785
無私	-10.7851
貢生	-10.7854
秦漢	-10.7854
白玉	-10.7855
吾民	-10.7855
然亦	-10.7857
水經	-10.7858
硯銘	-10.7865
十四日	-10.7866
夥	-10.7872
昻	-10.7872
男子	-10.7873
今已	-10.7877
皴	-10.7877
唘	-10.7877
些	-10.7878
萬壑	-10.7883
垂楊	-10.7887
格物	-10.7887
殺之	-10.7888
終古	-10.7889
矣又	-10.7889
無論	-10.7891
鴟	-10.7898
門戸	-10.7898
孤城	-10.7899
宗伯	-10.7899
雖未	-10.7899
正當	-10.79
文選	-10.79
犂	-10.7903
蘇軾	-10.7907
壅	-10.7907
南苑	-10.7908
大儒	-10.791
一官	-10.7913
記得	-10.7917
烽	-10.7923
數人	-10.7924
明珠	-10.7928
不行	-10.7929
淵明	-10.793
䰟	-10.7932
賸	-10.7932
生民	-10.7933
賭	-10.7934
未發	-10.7934
城外	-10.7935
萬餘	-10.7935
孫子	-10.7935
秃	-10.7936
名臣	-10.7936
十有二	-10.7937
大將軍	-10.7937
生子	-10.7939
相似	-10.7939
記曰	-10.7939
庭前	-10.7945
字子	-10.7947
甲午	-10.7949
復何	-10.7951
相去	-10.7952
妣	-10.7955
必不	-10.796
綰	-10.7961
胷	-10.7961
立秋	-10.7963
石門	-10.7967
之利	-10.797
五十年	-10.7973
海內	-10.7981
西園	-10.7989
舟行	-10.7989
髓	-10.7991
考之	-10.7991
氓	-10.7994
晋	-10.7996
此語	-10.7997
之可	-10.7999
公與	-10.8
迤	-10.8001
乎曰	-10.8008
璣	-10.8011
璞	-10.802
萼	-10.802
掘	-10.8021
和闐	-10.8022
抹	-10.8022
月上	-10.8022
少時	-10.8023
癸丑	-10.8023
翩翩	-10.8023
往還	-10.8024
衣裳	-10.8025
太行	-10.8026
及之	-10.8029
甘泉	-10.8036
林下	-10.8039
便是	-10.8041
司徒	-10.8046
月下	-10.8046
日出	-10.8048
膩	-10.8048
也葢	-10.8048
閃	-10.8052
宣和	-10.8053
轟	-10.8054
有年	-10.8057
有情	-10.8058
經筵	-10.8059
又復	-10.8063
太師	-10.8068
亦曰	-10.8069
載酒	-10.8077
瀟湘	-10.8078
廹	-10.808
曝	-10.8081
萱	-10.8081
丙戌	-10.8082
週	-10.8082
址	-10.8083
状	-10.8085
君王	-10.8089
樓閣	-10.8094
侍講	-10.8095
不惟	-10.8106
汨	-10.8109
窄	-10.811
槳	-10.811
柬	-10.8111
四書	-10.8111
頸	-10.8112
飄零	-10.8115
源流	-10.8115
石橋	-10.8122
子姓	-10.8127
提要	-10.8127
不絶	-10.813
兀	-10.813
則無	-10.8132
靑山	-10.8132
蒿	-10.8132
烈婦	-10.8133
家世	-10.8133
時文	-10.8134
諦	-10.8137
漢魏	-10.8139
屹	-10.8139
慵	-10.814
溼	-10.814
瀟灑	-10.814
鋭	-10.8141
飲食	-10.8143
一方	-10.8149
奏聞	-10.815
其年	-10.8152
雨暘	-10.8156
一行	-10.8161
萬厯	-10.8163
身後	-10.8164
奉命	-10.8164
目錄	-10.8165
日以	-10.8167
此次	-10.8167
繙	-10.817
拆	-10.8173
燬	-10.8174
丁未	-10.8174
造化	-10.8175
盈尺	-10.8178
入都	-10.8183
也先生	-10.819
有不	-10.8191
所知	-10.8191
雪後	-10.8193
兩家	-10.8193
可望	-10.8196
賖	-10.8199
驂	-10.8199
觥	-10.8201
斯言	-10.8202
各属	-10.8202
洪範	-10.8203
孔子之	-10.8204
聆	-10.8205
毓	-10.8205
賔客	-10.8213
西陵	-10.8219
知君	-10.8223
難得	-10.8223
盈盈	-10.8223
人人	-10.8223
之患	-10.8223
時若	-10.8225
穂	-10.8227
匆匆	-10.8228
惰	-10.8229
殖	-10.823
數萬	-10.8232
欣然	-10.8233
是爲	-10.8233
理學	-10.8235
甲戌	-10.8235
天竺	-10.8237
不食	-10.8239
然也	-10.8243
北斗	-10.8244
可乎	-10.8249
經文	-10.8251
三春	-10.8255
長河	-10.8256
溷	-10.8259
宼	-10.8259
浚	-10.826
忻	-10.8261
銖	-10.8261
脆	-10.8262
刷	-10.8263
翡翠	-10.8264
撒	-10.8269
其詞	-10.8272
况復	-10.8272
花枝	-10.8277
鉞	-10.828
即位	-10.8281
入土	-10.8284
元日	-10.8285
分數	-10.8286
笻	-10.8287
幡	-10.8287
菩薩	-10.8287
第四	-10.8287
有意	-10.8288
渙	-10.8289
薨	-10.829
皋	-10.8292
之喪	-10.8293
曺	-10.8293
庚午	-10.8295
其功	-10.8296
廓爾喀	-10.8299
可得	-10.8301
之勝	-10.8308
禪師	-10.831
立言	-10.8313
秋收	-10.8315
不已	-10.8316
孔氏	-10.8317
甘膏	-10.8318
瘞	-10.832
一千	-10.832
撓	-10.8321
峩	-10.8321
千尺	-10.8321
不樂	-10.8322
林泉	-10.8324
旄	-10.8324
不息	-10.8331
歸而	-10.8332
天門	-10.8332
祈年	-10.8336
海外	-10.8337
中央	-10.8342
論詩	-10.8343
淵源	-10.8343
豈必	-10.8345
亦多	-10.8347
古詩	-10.8348
熹	-10.8349
事宜	-10.8349
駱	-10.8349
官吏	-10.8351
儆	-10.8352
明矣	-10.8353
科舉	-10.8356
予以	-10.8357
天啓	-10.8358
出處	-10.8359
癸	-10.836
卽以	-10.8362
武陵	-10.8363
三間	-10.8365
十七日	-10.8367
石城	-10.8368
部議	-10.8369
皆在	-10.8369
吾鄕	-10.837
山左	-10.8379
我朝	-10.8381
徇	-10.8382
坼	-10.8383
之美	-10.8388
出于	-10.839
不辨	-10.8401
同里	-10.8403
連朝	-10.8405
已過	-10.8407
謳	-10.8407
尤為	-10.8408
瑜	-10.841
甡	-10.841
䧟	-10.8412
蜜	-10.8413
迪	-10.8414
每嵗	-10.8415
綘	-10.8415
伊犁	-10.8416
縠	-10.8416
花朝	-10.8419
夜月	-10.8421
刺史	-10.8423
舉行	-10.8426
底事	-10.8426
及時	-10.8427
五臺	-10.8428
竟日	-10.8428
假借	-10.8431
爾等	-10.8433
疵	-10.8439
筆墨	-10.8442
駮	-10.8445
漢人	-10.8448
壬辰	-10.8449
乃得	-10.8452
人知	-10.8454
乂	-10.8459
讎	-10.8473
閎	-10.8474
阮亭	-10.8475
潞	-10.848
華亭	-10.848
長歌	-10.8484
百餘年	-10.8488
非有	-10.8491
臨川	-10.8492
詩句	-10.8497
聞其	-10.8498
抉	-10.8498
涌	-10.8505
一寸	-10.8505
出而	-10.8505
我聞	-10.8505
搨	-10.8506
按察使	-10.851
列傳	-10.8511
櫛	-10.8512
門生	-10.8516
世事	-10.852
未央	-10.852
四子	-10.8522
丹陽	-10.8525
於天下	-10.8526
一語	-10.8527
平日	-10.8529
宋儒	-10.8529
大家	-10.853
者故	-10.8532
滿洲	-10.8533
鞅	-10.8533
好學	-10.8534
親見	-10.8535
囑	-10.8539
蛾眉	-10.854
不知何	-10.8542
也君	-10.8543
四庫	-10.8545
上帝	-10.8545
見者	-10.8548
不載	-10.8548
南方	-10.8553
陛下	-10.8555
幾何	-10.8556
殺賊	-10.8557
吾子	-10.8557
後有	-10.8558
無子	-10.8561
不通	-10.8563
彝	-10.8563
傭	-10.8564
芟	-10.8565
孤山	-10.8567
稟	-10.8568
療	-10.8569
家有	-10.857
寥寥	-10.857
翮	-10.857
押	-10.857
韶光	-10.8571
瓠	-10.8573
固不	-10.8576
聨句	-10.8578
由此	-10.858
馬蹄	-10.8587
鬛	-10.859
而先生	-10.8592
一尺	-10.8594
驢	-10.8595
拯	-10.8597
乃有	-10.8598
識其	-10.8598
擷	-10.8601
邇日	-10.8607
萬石	-10.8608
孝弟	-10.861
試看	-10.8614
魚龍	-10.8616
孝亷	-10.8617
我兵	-10.8618
水勢	-10.8619
春草	-10.8619
無極	-10.862
於中	-10.8626
大同	-10.8628
松柏	-10.8628
柑	-10.8629
古來	-10.8629
嫡	-10.8632
潢	-10.8632
人言	-10.8633
水旱	-10.8644
諭户部	-10.8646
金門	-10.8652
正是	-10.8655
人倫	-10.8659
之治	-10.866
擴	-10.8661
京城	-10.8662
藐	-10.8664
囿	-10.8664
潄	-10.8665
宗室	-10.8665
牐	-10.8665
大都	-10.8667
何由	-10.8669
也蓋	-10.8669
獅	-10.8672
羅漢	-10.8673
十丈	-10.868
博學	-10.8681
江浙	-10.8686
近世	-10.869
在兹	-10.8693
閫	-10.8694
拭	-10.8694
一錢	-10.8694
遄	-10.8695
而反	-10.8697
一等	-10.8699
撫臣	-10.8699
塊	-10.8701
之能	-10.8703
平湖	-10.8706
望澤	-10.8709
也非	-10.8721
巽	-10.8722
一道	-10.8723
㤗	-10.8723
五寸	-10.8725
閙	-10.8725
鑰	-10.8726
碑記	-10.8726
猶然	-10.8727
蹉跎	-10.8727
竅	-10.8729
星辰	-10.873
八旗	-10.873
雲林	-10.8732
豈其	-10.8734
知我	-10.8735
玉堂	-10.8736
巍	-10.8736
世宗	-10.8736
有神	-10.8737
之使	-10.8737
曲江	-10.8739
清和	-10.874
十八年	-10.874
夜深	-10.8741
悞	-10.8752
氣象	-10.8754
粘	-10.8755
荻	-10.8757
穠	-10.8758
璋	-10.8758
天際	-10.8759
燠	-10.8759
迢迢	-10.876
欒	-10.8784
庖	-10.8785
彞	-10.8785
咲	-10.879
棚	-10.8791
所生	-10.8791
譙	-10.8792
朝來	-10.8793
也雖然	-10.8802
八百	-10.8803
之舊	-10.8805
直隸	-10.8807
不數	-10.8809
有四	-10.8809
封疆	-10.8811
朝鮮	-10.8811
蠡	-10.8814
予嘗	-10.8814
更無	-10.8815
舊事	-10.8815
二十六	-10.8817
葭	-10.8818
家傳	-10.8818
勺	-10.882
净	-10.8824
淙	-10.8824
太歲	-10.8825
今宵	-10.8826
楣	-10.8829
不寐	-10.8833
之任	-10.8839
蒼生	-10.8841
七分	-10.8841
獨坐	-10.8846
者多矣	-10.8847
樓上	-10.8848
於朝	-10.8848
已有	-10.8848
圻	-10.8849
纏	-10.8851
墉	-10.8852
袒	-10.8852
幾時	-10.8853
詘	-10.8853
藹	-10.8853
不異	-10.8854
爾時	-10.8854
喇嘛	-10.8855
舉其	-10.8856
遺文	-10.8858
連日	-10.886
公爲	-10.886
軍營	-10.8861
嘗謂	-10.8862
其不	-10.8868
内閣	-10.887
地下	-10.8871
小樓	-10.8878
三五	-10.8878
喉	-10.8879
筒	-10.8879
幸而	-10.8882
至誠	-10.8882
炭	-10.8882
一葉	-10.8883
窘	-10.8884
雲霞	-10.8885
纍纍	-10.8886
未有不	-10.8888
飛來	-10.8889
鏡中	-10.889
南宋	-10.8893
隨時	-10.8894
我師	-10.8899
能無	-10.8899
落成	-10.8903
兩岸	-10.8904
韓愈	-10.8905
所宜	-10.8905
子夏	-10.8906
以慰	-10.8908
刦	-10.8908
之節	-10.891
前年	-10.891
秋山	-10.8911
寸不等	-10.8911
江流	-10.8912
㝎	-10.8914
以俟	-10.8914
筭	-10.8918
猶可	-10.8919
書堂	-10.8919
醪	-10.892
名之曰	-10.8922
師友	-10.8924
有明	-10.8925
葬於	-10.8925
叔父	-10.8929
諸王	-10.893
昆明	-10.8931
寄語	-10.8932
而弗	-10.8933
淮揚	-10.8935
中夜	-10.8935
三卷	-10.8936
㟁	-10.8947
僵	-10.8948
宇宙	-10.8949
檠	-10.8949
鼇	-10.895
劉氏	-10.8954
於心	-10.8955
自言	-10.8955
曾子	-10.8955
華山	-10.8958
壁間	-10.8959
假山	-10.896
者固	-10.896
不廢	-10.896
記之	-10.8964
入門	-10.8967
白髮	-10.8968
上方	-10.8969
於民	-10.8969
君以	-10.8969
詞臣	-10.8972
仁和	-10.8975
無益	-10.8975
安民	-10.8976
十數	-10.8978
超然	-10.8978
稜	-10.8981
是謂	-10.8982
尊者	-10.8985
畿南	-10.8986
賓客	-10.8988
且以	-10.899
餘姚	-10.8992
雖無	-10.8993
花前	-10.8996
今昔	-10.9
余之	-10.9001
㢘	-10.9004
近代	-10.9004
寸心	-10.9013
磔	-10.9014
釋文	-10.9016
之旨	-10.9017
無聲	-10.9018
誄	-10.9018
𬒳	-10.9019
磊落	-10.902
當前	-10.9021
皇后	-10.9026
昔日	-10.9028
三朝	-10.9031
可知矣	-10.9038
中山	-10.9039
杉	-10.9042
癸卯	-10.9042
具在	-10.9044
波濤	-10.9046
戊午	-10.9047
世俗	-10.9048
恠	-10.9049
其弟	-10.905
可信	-10.9052
應知	-10.9054
仲子	-10.9054
絲竹	-10.9056
生意	-10.9059
御製詩	-10.9059
部院	-10.9062
石壁	-10.9064
杜牧	-10.9066
秋光	-10.9069
對酒	-10.907
亦當	-10.9073
之性	-10.9074
煦	-10.9076
麤	-10.9077
匏	-10.9081
陸續	-10.9081
或謂	-10.9082
後漢書	-10.9086
矣余	-10.9094
播種	-10.9098
祠堂	-10.9103
之期	-10.9105
天文	-10.9105
將士	-10.9106
頗有	-10.9106
敢不	-10.9106
人閒	-10.9111
兢	-10.9111
璜	-10.9113
劵	-10.9114
多情	-10.9115
弋	-10.9117
山雲	-10.9118
公主	-10.9118
畊	-10.9118
取士	-10.9119
桐城	-10.9121
輕輿	-10.9125
閣下	-10.9126
吾心	-10.9127
千頃	-10.9128
精舎	-10.9131
漢唐	-10.9132
京華	-10.9132
長江	-10.9138
楫	-10.9143
玉樹	-10.9147
穡	-10.9147
窪	-10.9148
無疑	-10.9151
展轉	-10.9156
獨立	-10.9157
供奉	-10.9159
極目	-10.9159
三山	-10.9164
弱冠	-10.9165
不意	-10.9169
施行	-10.917
僭	-10.9172
泗	-10.9173
裊	-10.9173
昆弟	-10.9174
漢儒	-10.9175
卓然	-10.9176
餽	-10.9177
屍	-10.918
儷	-10.9181
江北	-10.9188
家貧	-10.9189
王父	-10.919
外藩	-10.9193
三公	-10.9198
眼前	-10.92
口糧	-10.9203
摛	-10.9205
罨	-10.9208
予之	-10.9208
形容	-10.921
眩	-10.9211
位置	-10.9212
攄	-10.9215
詩成	-10.9219
矣此	-10.922
不能盡	-10.9228
皇子	-10.923
變而	-10.923
臨江	-10.923
軍中	-10.9231
宣城	-10.9235
卒于	-10.9238
少卿	-10.924
冤	-10.924
詳見	-10.9241
容易	-10.9242
中興	-10.9244
諺	-10.9244
長發	-10.9244
樣	-10.9245
翊	-10.9247
扎	-10.9248
雖云	-10.9249
寂寥	-10.925
譲	-10.925
禮成述事	-10.9251
支離	-10.9251
庚申	-10.9252
儕	-10.9253
也昔	-10.9258
而外	-10.926
世界	-10.9267
鐘聲	-10.9273
幾人	-10.9274
初度	-10.9274
豈易	-10.9275
以相	-10.9276
糓	-10.9277
閬	-10.9277
燎	-10.9278
礪	-10.9279
亦知	-10.9281
風物	-10.9281
掲	-10.9283
元韻	-10.9283
児	-10.9284
而獨	-10.9286
焉其	-10.9288
吳興	-10.929
孺子	-10.9295
歡喜	-10.9301
何曽	-10.9302
五世	-10.9303
一水	-10.9307
紐	-10.9309
鄧尉	-10.931
芃	-10.931
炫	-10.9312
剩	-10.9312
之業	-10.9312
邃	-10.9313
脊	-10.9313
䄂	-10.9315
淩	-10.9316
肘	-10.9317
摩挲	-10.9317
墊	-10.9317
柵	-10.9323
悲歌	-10.9325
賑濟	-10.9325
濛濛	-10.9326
纂修	-10.9327
歲在	-10.933
前嵗	-10.933
水經注	-10.9334
表裏	-10.9334
何敢	-10.9335
加賑	-10.9336
世所	-10.9337
於古	-10.9337
為民	-10.9339
有成	-10.934
啜	-10.9345
櫓	-10.9345
規模	-10.9345
瑾	-10.9347
烟霞	-10.9347
山田	-10.9348
泉石	-10.9348
蕭瑟	-10.9349
之傳	-10.9351
杜陵	-10.9351
經世	-10.9352
戊申	-10.9353
來往	-10.9353
底須	-10.9353
那能	-10.9354
青雲	-10.9357
秋聲	-10.9357
典禮	-10.936
南湖	-10.9361
疇昔	-10.9361
葉前	-10.9362
素心	-10.9364
新秋	-10.9367
亦已	-10.9368
戊子	-10.9369
無間	-10.9371
猗	-10.9375
圉	-10.9376
嵌	-10.9382
椿	-10.9384
有名	-10.9385
亦足	-10.9386
以養	-10.9387
明季	-10.9388
正值	-10.9389
不明	-10.939
而不得	-10.939
京畿	-10.9393
無餘	-10.9397
紫陽	-10.9398
並無	-10.9398
嵗時	-10.9399
者即	-10.9401
孫女	-10.9402
諭㫖	-10.9403
生而	-10.9403
均霑	-10.9405
謙益	-10.9407
南廵	-10.9407
以歸	-10.9408
遺事	-10.9411
者葢	-10.9412
觚	-10.9414
七八	-10.9414
蹋	-10.9416
痩	-10.9418
頻年	-10.9418
招提	-10.9418
之母	-10.942
中州	-10.9425
初六日	-10.9427
㢲	-10.9434
時雨	-10.9435
自知	-10.9435
闕里	-10.9436
異日	-10.9438
婺	-10.9439
仁者	-10.9441
厄魯特	-10.9443
之暇	-10.9445
於余	-10.9446
用以	-10.9446
浙東	-10.9446
季子	-10.9447
頋	-10.9448
飼	-10.945
流俗	-10.945
唇	-10.9451
過此	-10.9451
莫如	-10.9452
輈	-10.9456
高祖	-10.9457
而東	-10.9459
或可	-10.9461
土人	-10.9464
至尊	-10.9475
軾	-10.9479
蓴	-10.9479
耒	-10.9479
人世	-10.948
綾	-10.948
僉事	-10.948
中年	-10.9482
戕	-10.9482
三徑	-10.9485
自成	-10.9485
蛙	-10.9486
個	-10.9486
浮屠	-10.949
去其	-10.949
今夕	-10.9492
知音	-10.9493
城市	-10.9495
水仙	-10.9495
千山	-10.9495
原本	-10.9498
或云	-10.9499
者今	-10.9502
忠介	-10.9502
白雪	-10.9505
之要	-10.9506
官軍	-10.9507
識之	-10.9512
著作	-10.9512
臼	-10.9514
卵	-10.9515
懦	-10.9515
引河	-10.9516
仆	-10.9517
坑	-10.9518
辛亥	-10.952
豈獨	-10.952
癸巳	-10.9521
迤邐	-10.9521
有客	-10.9524
青天	-10.9526
居官	-10.9529
濛	-10.9529
與子	-10.9529
春雲	-10.9529
使其	-10.953
江漢	-10.9531
二者	-10.9532
亦可以	-10.9533
晉書	-10.9537
彖	-10.954
紅葉	-10.9543
者雖	-10.9545
明經	-10.9545
腳	-10.9548
哥	-10.9549
彎	-10.9549
非無	-10.955
傳聞	-10.9552
覧	-10.9552
在天	-10.9554
二十餘年	-10.9556
潺湲	-10.9557
兩年	-10.9559
附近	-10.9562
以正	-10.9569
中和	-10.957
合龍	-10.957
離騷	-10.957
實録	-10.9571
成什	-10.9572
吾父	-10.9573
然自	-10.9574
何似	-10.9574
山靈	-10.958
春寒	-10.958
東漢	-10.9584
肻	-10.9585
上天	-10.9586
則亦	-10.9587
辛卯	-10.9587
蕋	-10.9587
恧	-10.9588
覯	-10.9588
可不	-10.9589
所司	-10.9594
尙有	-10.9595
觀者	-10.9596
西苑	-10.9596
玉蘭	-10.9602
光武	-10.9606
孔孟	-10.961
聖天子	-10.9611
之稱	-10.9613
時則	-10.9613
四壁	-10.9613
菁	-10.9618
釡	-10.9619
致仕	-10.9619
監察御史	-10.9619
詫	-10.9619
鶻	-10.9623
鹵	-10.9623
長句	-10.9623
漣	-10.9624
諸葛	-10.9626
視其	-10.9629
山海	-10.9631
都統	-10.9631
石刻	-10.9642
三秋	-10.9642
之習	-10.9643
五十里	-10.9643
水火	-10.9643
承平	-10.9644
耦	-10.9649
花間	-10.9649
驪	-10.965
毗	-10.965
筞	-10.9651
侑	-10.9652
長生	-10.9654
蹴	-10.9655
王者	-10.9657
迴蹕	-10.9658
腦	-10.9659
農民	-10.966
夔	-10.9661
玉女	-10.9666
奉㫖	-10.9666
以禮	-10.9672
次年	-10.9677
歲星	-10.9677
山東巡撫	-10.9679
余嘗	-10.9682
人士	-10.9684
骸	-10.9686
啖	-10.9688
勻	-10.9689
尚在	-10.969
臣子	-10.9692
水利	-10.9693
知者	-10.9694
躬親	-10.9704
風波	-10.9705
豳	-10.9705
吹簫	-10.9705
第十	-10.9706
酹	-10.971
裨	-10.9716
庶㡬	-10.9718
莫敢	-10.972
嗔	-10.9724
柩	-10.9725
青蓮	-10.9725
野老	-10.9727
者與	-10.9728
麋	-10.9729
义	-10.9729
用此	-10.9738
等奏	-10.974
喬木	-10.9741
碑跋	-10.9742
郡王	-10.9744
思之	-10.9748
所撰	-10.9749
泠	-10.9751
部落	-10.9751
清口	-10.9753
阨	-10.9755
琯	-10.9757
械	-10.9758
有五	-10.9759
文正	-10.9759
幃	-10.9759
癸亥	-10.976
撼	-10.9761
丙寅	-10.9762
他時	-10.9763
哦	-10.9764
子也	-10.9765
退而	-10.9765
年五十	-10.9766
元稹	-10.9771
者蓋	-10.9771
知名	-10.9774
金錢	-10.9776
友朋	-10.9777
偉業	-10.9778
椽	-10.9781
彈指	-10.9781
峪	-10.9785
此又	-10.979
樾	-10.9792
合於	-10.9793
睇	-10.9795
舸	-10.9796
亶	-10.9796
蝗	-10.9796
穏	-10.9796
洎	-10.9796
而終	-10.9798
渝	-10.9798
經濟	-10.9798
台吉	-10.9799
崧	-10.9799
笑語	-10.98
微風	-10.9801
曰汝	-10.9805
臣民	-10.9806
天性	-10.9807
關中	-10.9808
指示	-10.9809
武林	-10.9814
北地	-10.9815
猶能	-10.9815
只今	-10.9816
江右	-10.9817
華嚴	-10.9825
生擒	-10.9826
義理	-10.9828
氤氲	-10.9829
耘	-10.9829
爲君	-10.983
今夜	-10.9831
生徒	-10.9831
躔	-10.9834
两	-10.9837
殺人	-10.9838
一作	-10.9838
骨肉	-10.9839
劉向	-10.9839
干戈	-10.9842
帶兵	-10.9845
沿途	-10.9847
已久	-10.9848
西江	-10.9849
蒙古	-10.985
廿年	-10.985
扁	-10.9856
已經	-10.9862
鷓鴣	-10.9866
鬰	-10.9866
柘	-10.9866
題王	-10.9867
拚	-10.9867
石上	-10.9867
榕	-10.9867
此去	-10.9869
廬山	-10.9873
可知也	-10.9874
聖賢之	-10.9875
之實	-10.9878
舊時	-10.988
豐稔	-10.9885
地勢	-10.9887
教之	-10.9891
塞上	-10.9893
之象	-10.9896
猥	-10.9898
砲	-10.9898
督臣	-10.99
杜詩	-10.99
訶	-10.99
而余	-10.99
應時	-10.99
燥	-10.9902
舅姑	-10.9903
無情	-10.9903
江城	-10.9905
元和	-10.9907
流泉	-10.9908
有益	-10.9914
於前	-10.9916
用是	-10.9917
河流	-10.9918
行而	-10.9918
信宿	-10.992
長嘯	-10.9923
僑	-10.9927
國子	-10.9931
愾	-10.9933
之善	-10.9933
杵	-10.9936
斾	-10.9937
不果	-10.9937
邏	-10.9939
嚢	-10.9939
藏之	-10.994
人多	-10.9941
哈薩克	-10.9942
譬如	-10.9944
偶成	-10.9944
圖畫	-10.9945
秦淮	-10.9949
屯田	-10.9956
非也	-10.9956
各州縣	-10.9956
相從	-10.9959
父兄	-10.996
天風	-10.9962
天理	-10.9965
唐虞	-10.9965
同學	-10.9965
起而	-10.9967
蔑	-10.9972
㒺	-10.9972
威儀	-10.9972
羌	-10.9974
之職	-10.9974
席上	-10.998
名園	-10.9985
勤民	-10.9987
之感	-10.9988
德之	-10.999
史館	-10.9992
禮義	-10.9995
以行	-10.9996
鑪	-11.0006
通判	-11.0006
涓	-11.0007
矚	-11.0008
逍遥	-11.0009
麝	-11.0012
瓷	-11.0013
三子	-11.0013
和平	-11.0014
雨露	-11.002
文殊	-11.0021
雷雨	-11.0021
獨有	-11.0021
人等	-11.0025
尚存	-11.0029
不可復	-11.003
小兒	-11.0031
無足	-11.0034
光祿	-11.004
縑	-11.0042
璇	-11.0043
砧	-11.0043
乙丑	-11.0044
窰	-11.0045
嚼	-11.0045
手書	-11.0046
遒	-11.0046
寝	-11.0047
狡	-11.0049
咨嗟	-11.0049
種種	-11.005
琅玕	-11.0051
守之	-11.0053
所欲	-11.0056
難忘	-11.0058
甞	-11.0058
亦不能	-11.0059
金華	-11.007
不愧	-11.007
嘆曰	-11.007
陬	-11.0077
離離	-11.0078
無愧	-11.0079
不遑	-11.0079
即用其韻	-11.0079
泌	-11.0079
人有	-11.0081
譬之	-11.0081
勳	-11.0081
偪	-11.0082
曉行	-11.0085
感慨	-11.0087
正學	-11.0089
浩浩	-11.009
之誤	-11.009
七尺	-11.0091
監司	-11.0096
之死	-11.0096
禋	-11.0097
今則	-11.0099
之南	-11.0106
積水	-11.011
筮	-11.0113
月夜	-11.0114
槪	-11.0115
經理	-11.0116
杞	-11.0118
吼	-11.0118
齊魯	-11.0119
嗇	-11.0119
日夕	-11.0119
乙卯	-11.0121
卞	-11.0123
之家	-11.0127
見于	-11.0128
師古	-11.0129
知府	-11.013
相識	-11.0132
安在	-11.0134
之訓	-11.0134
和之	-11.0139
一章	-11.0141
賊巢	-11.0142
小山	-11.0142
曆	-11.0147
臨水	-11.0149
䨇	-11.015
脯	-11.0151
注疏	-11.0152
豪傑	-11.0152
債	-11.0153
逵	-11.0153
大雨	-11.0154
紺	-11.0154
峴	-11.0155
賠	-11.0159
可與	-11.016
皆得	-11.0167
不加	-11.0172
斜日	-11.0173
多所	-11.0176
是何	-11.0176
其理	-11.0177
北風	-11.0179
聖學	-11.0181
漕糧	-11.0182
殄	-11.0183
羔	-11.0184
禆	-11.0184
余以	-11.0185
煽	-11.0187
御極	-11.0188
豚	-11.0189
梟	-11.019
𣺌	-11.019
倭	-11.0192
東省	-11.0192
万	-11.0194
掌故	-11.0197
岷	-11.0198
不屑	-11.0201
天池	-11.0203
相接	-11.0204
其門	-11.0204
父之	-11.0205
河工	-11.0208
小子	-11.0211
維摩	-11.0213
至若	-11.0214
新舊	-11.0215
獅子	-11.0217
萬方	-11.0218
將來	-11.0224
毀	-11.0226
乕	-11.0227
覘	-11.0229
與予	-11.0229
仕宦	-11.0233
借問	-11.0235
在上	-11.0238
而予	-11.0238
所自	-11.0238
八景	-11.0241
陣雨	-11.0242
燕市	-11.0243
雪中	-11.0244
湖光	-11.0244
牽牛	-11.0247
因而	-11.0255
農功	-11.0256
論之	-11.0256
魔	-11.0257
即席	-11.0258
俶	-11.026
舶	-11.0261
畹	-11.0262
諛	-11.0262
齋中	-11.0263
㤀	-11.0263
皷	-11.0265
冗	-11.0265
之所謂	-11.0266
太液	-11.0266
之不可	-11.0266
相看	-11.0266
梧桐	-11.0268
癸酉	-11.0269
青青	-11.0272
年正月	-11.0273
五里	-11.0275
飛鳥	-11.0277
四卷	-11.0277
物也	-11.0278
初十日	-11.028
毛詩	-11.0281
表章	-11.0282
開國	-11.0286
山梁	-11.029
缶	-11.0297
朱氏	-11.0298
來者	-11.0299
遨	-11.0301
惲	-11.0301
諭大學士伊桑阿阿蘭泰	-11.0302
緊	-11.0302
㾗	-11.0303
伶	-11.0304
滄桑	-11.0304
卹	-11.0304
芷	-11.0305
大海	-11.0305
秋夜	-11.0306
齋宫	-11.0306
上舍	-11.0307
櫻桃	-11.0307
成書	-11.0308
相期	-11.0312
門户	-11.0316
二十餘	-11.0323
聖恩	-11.0326
軍務	-11.0327
莊子	-11.0335
谷口	-11.0335
也因	-11.0336
揀	-11.0338
一念	-11.0339
挫	-11.034
優游	-11.0342
昨年	-11.0344
前一日	-11.0347
其始	-11.0347
風日	-11.035
河源	-11.0358
功徳	-11.0368
菰	-11.0372
坪	-11.0373
伯仲	-11.0373
酥	-11.0374
之東	-11.0375
臭	-11.0375
恭奉皇太后	-11.0376
巗	-11.0376
亳	-11.0378
以明	-11.0379
事業	-11.038
死於	-11.038
以南	-11.0383
揚子	-11.0383
萬象	-11.0387
班固	-11.0389
比之	-11.0393
與我	-11.0394
却是	-11.0394
之議	-11.0398
孫氏	-11.0404
日下	-11.0405
六旬	-11.0407
髙閣	-11.0409
笈	-11.041
渟	-11.0411
制曰	-11.0411
罍	-11.0414
颸	-11.0416
叚	-11.0417
未識	-11.0417
彬	-11.0418
于今	-11.0418
公車	-11.042
夹	-11.0421
本是	-11.0426
是編	-11.0427
生員	-11.0428
之責	-11.043
學校	-11.043
於是乎	-11.043
茫然	-11.0431
時人	-11.0431
祖母	-11.0431
此等	-11.0432
是處	-11.0432
府屬	-11.0433
誰識	-11.0437
賊衆	-11.0437
無算	-11.0439
老而	-11.0441
風氣	-11.0444
土司	-11.0445
書與	-11.0445
其兄	-11.0447
丰	-11.0448
眇	-11.0448
利害	-11.0449
曇	-11.045
盞	-11.0451
報國	-11.0451
棣	-11.0452
旻	-11.0452
踊	-11.0452
刈	-11.0453
一條	-11.0454
貴人	-11.0455
梅村	-11.0458
微言	-11.046
旌旗	-11.0461
人力	-11.0462
夜夜	-11.0466
如許	-11.0466
歸路	-11.0466
有加	-11.047
虎丘	-11.0472
彭蠡	-11.0473
無用	-11.0478
有如	-11.0481
薑	-11.0483
十有八	-11.0484
歲時	-11.0484
送客	-11.0485
得名	-11.0485
囘首	-11.0486
晞	-11.0488
淆	-11.0489
毬	-11.049
蹶	-11.0491
未到	-11.0491
侔	-11.0492
無塵	-11.0492
田家	-11.0492
詩集序	-11.0493
一種	-11.0495
未許	-11.0499
堂上	-11.0501
最是	-11.0501
閒情	-11.0503
康成	-11.0503
幾度	-11.0504
陸氏	-11.0505
手自	-11.0507
劉公	-11.0508
入夜	-11.0511
也然而	-11.0513
先朝	-11.0517
王君	-11.0518
先聖	-11.0519
可為	-11.0519
亦得	-11.052
艘	-11.052
腥	-11.0522
蘂	-11.0524
摶	-11.0525
炯	-11.0526
耿耿	-11.0526
三府	-11.0529
斟酌	-11.0529
逺山	-11.0531
今來	-11.0532
中宵	-11.0532
片時	-11.0533
誰為	-11.0536
尺寸	-11.0537
高下	-11.0541
置酒	-11.0547
耆舊	-11.0548
清秋	-11.0551
氷雪	-11.0553
月初	-11.0554
向來	-11.0554
金粟	-11.0555
麥苗	-11.0557
兩日	-11.0559
詁	-11.0562
興亡	-11.0562
觀音	-11.0562
之請	-11.0563
先期	-11.0563
内有	-11.0567
家學	-11.0567
也如	-11.0568
四庫全書	-11.0568
同官	-11.0572
之極	-11.0574
文人	-11.0577
科名	-11.0579
一再	-11.0583
可考	-11.0584
詞賦	-11.0585
夏秋	-11.0586
時事	-11.0587
開封	-11.0591
人日	-11.0594
而猶	-11.0594
則為	-11.0595
吸	-11.0596
蓑	-11.0597
􁁊	-11.0598
可無	-11.0599
圮	-11.06
肺	-11.06
君父	-11.0601
鳳凰	-11.0602
煞	-11.0602
讞	-11.0603
以文章	-11.0603
巋然	-11.0604
鐺	-11.0604
煌煌	-11.0605
甓	-11.0605
唐之	-11.0606
白露	-11.0606
諭大學士	-11.0606
春膏	-11.0612
風起	-11.0613
一半	-11.0614
東門	-11.0615
翕	-11.0616
後進	-11.0617
人亦	-11.0619
壚	-11.0629
墓志銘	-11.0629
快晴	-11.063
徐公	-11.0634
牡	-11.0634
楨	-11.0636
糶	-11.0637
瞰	-11.0637
田地	-11.0638
缸	-11.0638
而君	-11.0642
篙	-11.0644
張君	-11.0645
至矣	-11.0649
銀河	-11.0651
先生以	-11.0651
陳公	-11.0652
高陽	-11.0654
一分	-11.0654
文靖	-11.0655
菊花	-11.0658
趙氏	-11.0659
先生曰	-11.066
然以	-11.0661
甘露	-11.0661
行旅	-11.0661
所學	-11.0662
膏澤	-11.0664
敢忘	-11.0666
荷葉	-11.0667
自號	-11.067
又如	-11.0672
忿	-11.0673
題畫	-11.0674
哺	-11.0675
食之	-11.0676
涎	-11.0676
禰	-11.068
郤	-11.068
老去	-11.068
勤勞	-11.0681
飈	-11.0681
滄洲	-11.0682
禅	-11.0683
掄	-11.0684
一本	-11.0689
以孝	-11.0691
乙巳	-11.0695
本紀	-11.0696
大宗	-11.0697
士子	-11.0698
斯民	-11.0699
到此	-11.0707
繁華	-11.0709
宗子	-11.071
南江	-11.0712
大河	-11.0715
在昔	-11.0715
纈	-11.0717
安石	-11.0717
逗	-11.0717
蜚	-11.0717
輅	-11.0718
布政司	-11.0724
扶桑	-11.0731
不無	-11.0735
年譜	-11.0735
孤舟	-11.0735
通志	-11.0741
所引	-11.0744
詠古	-11.0746
湄	-11.0752
琮	-11.0755
生于	-11.0755
奏稱	-11.0755
孔子曰	-11.0757
劃	-11.0757
鞋	-11.0758
辛酉	-11.0759
突兀	-11.076
膓	-11.0761
清流	-11.0764
易之	-11.0764
乎哉	-11.0765
其體	-11.0766
原無	-11.0767
千林	-11.077
又據	-11.0774
鄉人	-11.0777
緩急	-11.0778
旬日	-11.0778
此詩	-11.0779
頃刻	-11.0781
不能無	-11.0784
損益	-11.0785
喀爾喀	-11.0791
踰年	-11.0792
難為	-11.0794
同異	-11.0796
埭	-11.0796
未完	-11.0796
煑	-11.0796
山頭	-11.0799
劭	-11.0799
而欲	-11.08
夕照	-11.0801
先帝	-11.0803
縱橫	-11.0803
祀典	-11.0804
其勢	-11.0806
臨清	-11.0808
雜詠	-11.0808
題壁	-11.0812
唱和	-11.0813
登山	-11.0814
握手	-11.0815
儼然	-11.0816
三家	-11.0818
豐年	-11.0819
為政	-11.0828
不能不	-11.0829
藉以	-11.0829
埀	-11.083
掇	-11.0831
忠貞	-11.0832
具題	-11.0833
兩字	-11.0834
喙	-11.0835
卅	-11.0836
各處	-11.0836
最為	-11.0837
自笑	-11.084
深山	-11.084
旺	-11.0846
徙倚	-11.0852
有奇	-11.0852
者吾	-11.0855
晴雨	-11.0855
督師	-11.0856
太廟	-11.0861
八韻	-11.0861
萬壽	-11.0862
此處	-11.0864
聞而	-11.0865
余言	-11.0865
蕭山	-11.0866
直上	-11.087
綦	-11.0871
不稱	-11.0871
玉河	-11.0872
先王之	-11.0872
窈	-11.0873
閥	-11.0874
杜鵑	-11.0875
罩	-11.0875
可稱	-11.0883
天半	-11.0883
㺯	-11.0883
者當	-11.0886
對雨	-11.0886
都尉	-11.0887
設法	-11.0888
綱目	-11.0888
書成	-11.0889
故能	-11.0889
入覲	-11.0889
孫男	-11.0893
君墓誌銘	-11.0898
萬松	-11.09
塋	-11.0903
疾苦	-11.0904
通州	-11.0904
過之	-11.091
摯	-11.0911
滛	-11.0911
蘧	-11.0911
拄	-11.0912
旛	-11.0912
鎬	-11.0914
忭	-11.0915
聾	-11.0915
失所	-11.0915
蹲	-11.0917
萬夀山	-11.0917
如今	-11.0919
逥	-11.092
據奏	-11.0921
特命	-11.0921
六藝	-11.0925
吾兄	-11.0932
不等	-11.0934
隱居	-11.0936
閩中	-11.0938
碧雲	-11.0939
金剛	-11.0941
天成	-11.0941
祜	-11.0942
之主	-11.0942
蠢	-11.095
江海	-11.0951
髙堂	-11.0951
自當	-11.0951
颿	-11.0952
繄	-11.0953
拮据	-11.0953
韭	-11.0955
命之	-11.0956
四十里	-11.0957
訓詁	-11.0958
者自	-11.0959
戊	-11.0962
歴代	-11.0964
周子	-11.0966
日久	-11.0971
於詩	-11.0974
其閒	-11.0975
酒酣	-11.0976
受業	-11.0977
首尾	-11.0977
乎夫	-11.0979
其於	-11.098
樂善	-11.0985
州刺史	-11.0989
戊寅	-11.0991
鄕試	-11.0991
撐	-11.0991
綂	-11.0992
鶉	-11.0992
淇	-11.0993
孟陽	-11.0993
梭	-11.0994
娯	-11.0996
臨安	-11.0996
數千里	-11.0998
佔	-11.1
聞者	-11.1001
之私	-11.1005
燕山	-11.1008
根本	-11.1008
若無	-11.1009
罅	-11.1009
石鼓	-11.101
所存	-11.101
可觀	-11.1011
釋氏	-11.1014
戯題	-11.102
而起	-11.102
那知	-11.1022
真蹟	-11.1024
觸目	-11.1024
之恩	-11.1026
世有	-11.1028
山樓	-11.1029
哂	-11.1032
逡巡	-11.1033
古木	-11.1033
茟	-11.1035
江天	-11.1036
泉聲	-11.1036
丁亥	-11.1038
忠信	-11.1041
時方	-11.1042
以故	-11.1045
之敎	-11.1051
紅塵	-11.1054
此後	-11.1055
曰子	-11.1057
厺	-11.1062
行者	-11.1063
五千	-11.107
辦理	-11.107
窠	-11.1071
讀史	-11.1071
諄	-11.1071
顥	-11.1072
湔	-11.1073
稱之	-11.1073
搗	-11.1074
汁	-11.1074
行禮	-11.1074
邇來	-11.1075
大略	-11.1077
牛羊	-11.1077
其情	-11.1077
髙低	-11.1077
貧賤	-11.108
幫	-11.1083
日得雨	-11.1083
感舊	-11.109
出自	-11.1091
花發	-11.1092
次之	-11.1092
則已	-11.1093
疑是	-11.1094
閒居	-11.1094
途中	-11.1094
白沙	-11.1095
之言曰	-11.1098
之西	-11.1098
卽位	-11.1098
以見	-11.1102
於家	-11.1104
筋	-11.1105
薇	-11.111
閤	-11.111
鞵	-11.1111
懾	-11.1111
書來	-11.1111
之誼	-11.1111
稗	-11.1111
串	-11.1111
涖	-11.1112
古稀	-11.1112
鏗	-11.1112
黼	-11.1113
諄諄	-11.1114
如水	-11.1114
戦	-11.1115
副都統	-11.1115
兾	-11.1116
一節	-11.1117
折衷	-11.1121
其故	-11.1121
無知	-11.1123
一隅	-11.1123
徐氏	-11.1123
仲尼	-11.1125
㸃綴	-11.1128
兩朝	-11.1131
祥符	-11.1132
道德	-11.1138
持盈	-11.1143
傳諭	-11.1143
㑹心	-11.1147
亭子	-11.1149
閹	-11.1154
無礙	-11.1154
見聞	-11.1154
者是	-11.1156
之教	-11.1157
也凡	-11.1157
壬戌	-11.1157
該督撫	-11.1158
文昌	-11.1161
也惟	-11.1161
分寸	-11.1164
初九日	-11.1166
元明	-11.1166
果然	-11.1167
渥澤	-11.1172
山堂	-11.1176
而入	-11.1177
夫以	-11.1177
唐寅	-11.1182
獨行	-11.1183
而為之	-11.1184
發其	-11.1189
画	-11.1191
不求	-11.1192
繚	-11.1194
巳而	-11.1194
駛	-11.1195
諉	-11.1195
儒學	-11.1196
杜門	-11.1196
各官	-11.1197
復得	-11.1202
與公	-11.1203
大道	-11.1204
都御史	-11.1205
今世	-11.1206
庠	-11.1208
勉之	-11.1209
男兒	-11.1211
伯兄	-11.1212
竹枝	-11.1213
傳云	-11.1216
神廟	-11.1221
啟蹕	-11.1221
銀兩	-11.1222
在焉	-11.1224
來歸	-11.1224
百花	-11.1227
庀	-11.1232
猝	-11.1233
髫	-11.1233
白衣	-11.1233
庄	-11.1236
贑	-11.1237
此是	-11.124
梨花	-11.1242
於外	-11.1244
嶺南	-11.1246
嘶	-11.1246
此身	-11.1251
彼時	-11.1251
水雲	-11.1252
庠生	-11.1257
俱有	-11.1259
知公	-11.126
料理	-11.126
遣人	-11.1264
在東	-11.127
寤	-11.1271
無妨	-11.1272
不分	-11.1272
絀	-11.1273
肄	-11.1273
泪	-11.1273
賫	-11.1273
冉	-11.1275
郝	-11.1276
嫗	-11.1276
不謂	-11.1277
惜其	-11.1281
努力	-11.1282
石林	-11.1283
老僧	-11.1283
𦵏	-11.1284
安瀾	-11.1286
幽居	-11.1286
才名	-11.1286
無此	-11.1287
自今	-11.1287
歸舟	-11.1288
者凡	-11.1289
可識	-11.1292
最後	-11.1292
應是	-11.1294
遂至	-11.1297
數里	-11.1297
始有	-11.1298
五嶽	-11.1298
能以	-11.1298
近年	-11.13
東籬	-11.1306
其罪	-11.1307
可爲	-11.131
往復	-11.1312
甎	-11.1314
甃	-11.1315
緡	-11.1315
榴	-11.1315
飱	-11.1315
受其	-11.1317
赭	-11.1317
挐	-11.1317
㸑	-11.1317
𥙷	-11.1318
澣	-11.1319
果有	-11.132
四十九	-11.132
二十一年	-11.1321
㪚	-11.1322
不似	-11.1322
情形詩以誌慰	-11.1324
却笑	-11.1328
太尉	-11.1328
之君子	-11.133
作賦	-11.1333
絶勝	-11.1342
具官某	-11.1343
不期	-11.1343
合葬	-11.1343
士女	-11.1344
世逺	-11.1345
無聊	-11.1346
雯	-11.1347
學政	-11.135
所及	-11.1354
七旬	-11.1355
入城	-11.1356
浥	-11.1359
烽火	-11.1359
舄	-11.136
萎	-11.136
石室	-11.1364
而求	-11.1364
三百年	-11.1375
三百篇	-11.1377
本於	-11.1377
公事	-11.1379
絶頂	-11.138
承歡	-11.1381
南華	-11.1384
忘其	-11.1388
善長	-11.1388
稍稍	-11.1389
一則	-11.1392
別有	-11.1393
掞	-11.1394
小雅	-11.1394
額手	-11.1394
緗	-11.1395
惜哉	-11.1395
幟	-11.1396
縻	-11.1396
𧺫	-11.1396
漉	-11.1397
故以	-11.1397
神宗	-11.1399
紀年	-11.1401
嫂	-11.1403
不亦	-11.1411
旦夕	-11.1412
盛衰	-11.1412
匡廬	-11.1412
彈琴	-11.1413
樂天	-11.1419
貞女	-11.1422
予曰	-11.1423
國事	-11.1427
故里	-11.1428
賂	-11.1434
惓惓	-11.1435
冉冉	-11.1436
詩卷	-11.1438
篠	-11.1438
翫	-11.1439
槁	-11.1439
乙亥	-11.1441
斯世	-11.1445
疊前韻	-11.1446
禮也	-11.1447
然且	-11.1449
三十五	-11.145
過於	-11.1451
前賢	-11.1452
一幅	-11.1455
矣乃	-11.1456
一氣	-11.1459
無由	-11.1459
萬山	-11.1461
赤子	-11.1461
改元	-11.1462
則非	-11.1462
無力	-11.1463
闋	-11.1464
國子監	-11.1465
汝南	-11.1467
看山	-11.1469
對月	-11.1472
皆非	-11.1474
於道	-11.1475
故也	-11.1476
厎	-11.1478
櫺	-11.1479
謠	-11.148
翰林院編修	-11.1483
𣲖	-11.1484
櫟	-11.1485
之孫	-11.1486
士卒	-11.1488
凡有	-11.1489
紱	-11.149
丈人	-11.1492
山行	-11.1492
又見	-11.1494
明初	-11.15
還宫	-11.15
治天下	-11.1501
黃金	-11.1501
性之	-11.1503
▁天	-11.1504
之道也	-11.1505
衆生	-11.1505
之仁	-11.1507
堂集	-11.1509
留心	-11.151
水月	-11.151
稍有	-11.1515
貧民	-11.1515
長短	-11.1515
不去	-11.1517
治亂	-11.1517
宋玉	-11.1518
僖	-11.1519
疴	-11.1519
粱	-11.152
噉	-11.152
糟	-11.152
雲霄	-11.1521
臬	-11.1522
鰲	-11.1522
可傳	-11.1522
無意	-11.1522
柝	-11.1522
殘月	-11.1523
朝陽	-11.1525
一舉	-11.1525
邂逅	-11.1525
丹砂	-11.1526
褚	-11.1528
封侯	-11.1529
擒獲	-11.153
枝頭	-11.1531
野人	-11.1534
以進	-11.1537
享年	-11.1538
不窮	-11.1544
亦然	-11.1546
百官	-11.155
國初	-11.155
戰國	-11.1552
無已	-11.1552
冬日	-11.1555
之資	-11.1556
所請	-11.1557
人意	-11.1559
撞	-11.156
奏報得雨	-11.1561
稾	-11.1561
孕	-11.1563
椘	-11.1565
顰	-11.1565
鄉里	-11.1566
讒	-11.1566
董其昌	-11.1566
二十七日	-11.1575
數百年	-11.1579
拾遺	-11.1579
多事	-11.1582
奉使	-11.159
原有	-11.1592
又謂	-11.1595
始祖	-11.1597
雲容	-11.1599
廿四	-11.16
漢之	-11.16
牽連	-11.1602
登高	-11.1603
文成	-11.1605
耻	-11.1606
黽勉	-11.1606
制度	-11.1607
紛紜	-11.1607
農田	-11.1607
媪	-11.1608
淄	-11.1609
尅	-11.1609
拾級	-11.161
不平	-11.1613
忠烈	-11.1614
獅子林	-11.1618
自漢	-11.1621
相顧	-11.1626
河西	-11.1628
彭城	-11.1633
何物	-11.1633
甘省	-11.1636
水面	-11.1636
何限	-11.1636
中朝	-11.1637
對曰	-11.1638
者耶	-11.1641
寧夏	-11.1642
十有六	-11.1643
遂有	-11.1644
藝文志	-11.1647
遡	-11.1648
已見	-11.1648
薙	-11.1649
諸山	-11.165
瞑	-11.1651
縹	-11.1651
本傳	-11.1653
不煩	-11.1654
垂老	-11.1655
必欲	-11.1657
凡三	-11.1658
石湖	-11.1658
大典	-11.166
而民	-11.166
一望	-11.1661
難以	-11.1661
即可	-11.1661
北上	-11.1663
加意	-11.1663
所不能	-11.1667
萬卷	-11.1668
洞天	-11.1668
之學者	-11.1669
法也	-11.167
烟雨	-11.1671
不逺	-11.1672
一綫	-11.1673
子雲	-11.1674
其次	-11.1675
教化	-11.1676
惟此	-11.1677
能言	-11.1679
里人	-11.1679
學道	-11.168
田盤	-11.168
見示	-11.1684
過從	-11.1684
杲	-11.1684
無錫	-11.1687
衿	-11.169
事務	-11.1691
前明	-11.1692
纘	-11.1693
百嵗	-11.1693
樗	-11.1694
逭	-11.1694
嘘	-11.1694
壬申	-11.1694
揮毫	-11.1695
泳	-11.1696
纜	-11.1697
而至	-11.17
漢志	-11.1704
笑曰	-11.1704
不計	-11.1704
今又	-11.1707
之篇	-11.171
行行	-11.171
波光	-11.1712
奏到	-11.1712
甚至	-11.1713
或問	-11.1718
泛月	-11.1721
人語	-11.1722
廬陵	-11.1723
高士	-11.1726
沓	-11.1727
珥	-11.1727
硏	-11.1731
𬗋	-11.1732
魯公	-11.1732
訥	-11.1733
冝	-11.1733
潼	-11.1733
閼	-11.1734
其力	-11.1734
廂	-11.1736
繾	-11.1737
之墓	-11.1738
清溪	-11.1739
農事	-11.1743
忠毅	-11.1745
之父	-11.1745
人臣	-11.1745
聲色	-11.175
别業	-11.1751
溪上	-11.1751
先君子	-11.1759
莫知	-11.176
賊人	-11.1761
序之	-11.1764
不苟	-11.1764
擇其	-11.1768
舊聞	-11.1769
才人	-11.177
惜乎	-11.177
一杯	-11.1771
二十六日	-11.1771
肎	-11.1773
盲	-11.1774
晩年	-11.1774
應制	-11.1777
卭	-11.1778
疉	-11.1778
花香	-11.1778
諭吏部	-11.1778
碧玉	-11.1781
徬徨	-11.1781
修竹	-11.1783
屬之	-11.1786
以供	-11.1786
别離	-11.1787
初四日	-11.1787
孫士毅	-11.1789
釋奠	-11.179
狩	-11.1791
所用	-11.1793
何嘗	-11.1794
浩蕩	-11.1794
魏公	-11.1799
一嵗	-11.1804
頭白	-11.1804
疑其	-11.1806
花影	-11.1807
光景	-11.1807
瘁	-11.1809
揚雄	-11.1812
原非	-11.1814
泝	-11.1816
躅	-11.1817
盥	-11.1819
僅存	-11.182
徳州	-11.182
壽序	-11.1821
汲汲	-11.1821
撮	-11.1822
幘	-11.1822
槽	-11.1823
黄帝	-11.1824
之福	-11.1825
亦皆	-11.1827
廟堂	-11.1828
韓偓	-11.1828
窮理	-11.1828
何意	-11.1831
太陰	-11.1833
行圍	-11.1833
陳子	-11.1838
復以	-11.1839
不屈	-11.1843
我軍	-11.1844
二十五日	-11.1844
異於	-11.1844
宋時	-11.1845
子長	-11.1852
其形	-11.1853
六合	-11.1853
酈	-11.1855
山澤	-11.1856
該撫	-11.1858
筑	-11.1858
邯鄲	-11.186
伽	-11.1861
錐	-11.1861
亦如	-11.1862
萬國	-11.1863
扆	-11.1863
詶	-11.1864
石梁	-11.1864
琦	-11.1867
討論	-11.187
那堪	-11.187
東陵	-11.1871
籜	-11.1872
兩浙	-11.1872
語曰	-11.1876
面目	-11.188
道學	-11.1881
李商隱	-11.1881
可能	-11.1883
松下	-11.1883
誰是	-11.1884
者誰	-11.1885
學使	-11.1886
因循	-11.1887
今以	-11.1889
短長	-11.1889
寓意	-11.189
庾信	-11.1891
六書	-11.1894
不著	-11.1897
子美	-11.19
氣候	-11.1903
屣	-11.1909
釜	-11.1909
鑱	-11.191
之分	-11.1912
羅浮	-11.1912
瑛	-11.1912
某年月日	-11.1914
論曰	-11.1917
之謂也	-11.1917
峡	-11.1917
不書	-11.1923
人君	-11.1923
豈徒	-11.1928
而益	-11.1929
東京	-11.193
始末	-11.193
天外	-11.1932
懐古	-11.1932
題宋	-11.1933
四十八	-11.1936
所奏	-11.1936
還家	-11.194
至京師	-11.1942
要之	-11.1943
太學生	-11.1943
能知	-11.1945
節次	-11.1946
燿	-11.1946
刻石	-11.1947
家語	-11.1948
諏	-11.195
扃	-11.195
帚	-11.1952
堞	-11.1952
晃	-11.1954
鬱鬱	-11.1957
億萬	-11.1958
中郎	-11.1962
有聞	-11.1965
燈前	-11.1967
請以	-11.1974
同志	-11.1981
堂前	-11.1984
萬家	-11.1986
南郊	-11.1986
如此則	-11.1987
屬余	-11.1988
春花	-11.1989
贈公	-11.1989
不知所	-11.199
多年	-11.199
茨	-11.1992
固非	-11.1992
殞	-11.1993
潑	-11.1994
侍中	-11.1994
描	-11.1994
顧氏	-11.1996
啣	-11.1996
訐	-11.1996
籥	-11.1998
不斷	-11.2002
某氏	-11.2003
無際	-11.2004
制府	-11.2005
卒以	-11.2005
書後	-11.2008
焦山	-11.201
年二十	-11.201
五帝	-11.2014
所出	-11.2019
入於	-11.2019
元孫	-11.2022
黄門	-11.2023
遭逢	-11.2024
之目	-11.203
子厚	-11.2031
楊氏	-11.2033
憂患	-11.2034
存亡	-11.2037
欝	-11.2038
一樹	-11.2038
塹	-11.2039
箇中	-11.204
古意	-11.2041
滓	-11.2042
故知	-11.2044
能使	-11.2045
次子	-11.2046
乃復	-11.2046
夢裏	-11.2046
縣學生	-11.2046
湖州	-11.2046
真是	-11.2046
使臣	-11.2048
若斯	-11.2048
莫之	-11.2049
卜居	-11.205
披襟	-11.2054
後學	-11.2055
設使	-11.2056
行間	-11.2073
歴歴	-11.2075
郞中	-11.2078
宕	-11.208
叫	-11.2081
維揚	-11.2081
燔	-11.2082
之列	-11.2083
擣	-11.2083
袠	-11.2084
䡖	-11.2086
筦	-11.2087
大司馬	-11.2087
相依	-11.209
循名	-11.209
進而	-11.2091
而作	-11.2094
西來	-11.2103
贈君	-11.2113
初八日	-11.2114
終於	-11.2114
得罪	-11.2117
六人	-11.2117
胡氏	-11.2118
敎之	-11.212
此圖	-11.212
不利	-11.2121
向年	-11.2124
驀	-11.2125
泚	-11.2126
蝴蝶	-11.2128
此二	-11.2129
之位	-11.213
碁	-11.213
鳯凰	-11.2131
太初	-11.2131
當事	-11.2132
矛	-11.2132
棊	-11.2132
忽然	-11.2132
相合	-11.2133
烏衣	-11.2135
焉能	-11.2135
山光	-11.2136
己酉	-11.214
農夫	-11.2142
㑹試	-11.2143
尊人	-11.2146
古松	-11.2148
秋來	-11.2149
非是	-11.2153
河上	-11.2158
其用	-11.2164
召見	-11.2165
屏風	-11.2165
曉諭	-11.2166
考功	-11.2166
少保	-11.2166
票	-11.2168
北望	-11.2168
桀	-11.217
毳	-11.2172
元夕	-11.2172
畀	-11.2173
黠	-11.2174
云何	-11.2174
宻雲	-11.2174
參軍	-11.2175
重華	-11.2175
祭祀	-11.2178
避暑山荘	-11.2178
芳菲	-11.2179
暇日	-11.2181
地理	-11.2185
龍眠	-11.2187
非徒	-11.219
南朝	-11.219
二分	-11.219
玉壺	-11.2191
臨池	-11.2194
引見	-11.2195
天章	-11.2198
佳句	-11.2198
保甲	-11.2199
之政	-11.2205
砂	-11.2209
陲	-11.221
主之	-11.221
北極	-11.2211
珂	-11.2211
知人	-11.2211
守備	-11.2213
籌畫	-11.2213
搔	-11.2213
勛	-11.2214
蘆花	-11.2215
祫	-11.2216
埒	-11.2217
髦	-11.2217
廪	-11.2219
彫	-11.2219
各報	-11.2219
如雲	-11.222
之亂	-11.222
􁢃	-11.2221
道上	-11.2221
樓船	-11.2222
陽春	-11.2222
荇	-11.2223
所以為	-11.2224
霔	-11.2224
所未有	-11.2226
詩中	-11.2231
聲名	-11.2234
笙歌	-11.2234
奮勇	-11.2234
而爲之	-11.2235
如來	-11.2237
問安	-11.2237
常年	-11.2237
得免	-11.2237
天邊	-11.2239
文章之	-11.2239
雲生	-11.2239
後生	-11.2239
一變	-11.224
元史	-11.2242
佳話	-11.2242
常州	-11.2243
得意	-11.2243
飛泉	-11.2244
漕運	-11.2244
意在	-11.2246
督學	-11.2246
候選	-11.2247
賜宴	-11.2247
麥田	-11.2249
邑之	-11.2249
移居	-11.2249
地也	-11.225
至性	-11.2251
范氏	-11.2253
多方	-11.2254
書齋	-11.2254
辨之	-11.2255
乎余	-11.2255
江村	-11.2257
花紅	-11.2258
佃	-11.2259
建安	-11.2259
萬幾	-11.226
天意	-11.226
無暇	-11.226
實心	-11.226
逶迤	-11.2262
老樹	-11.2265
者十	-11.2266
山麓	-11.2266
王道	-11.227
之女	-11.2271
推官	-11.2272
軫念	-11.2272
黄葉	-11.2275
嘉禾	-11.2275
覃恩	-11.2275
得透雨	-11.2276
言語	-11.2278
數典	-11.2278
瀝	-11.2278
羽林	-11.2279
不藉	-11.228
而我	-11.228
一世	-11.2281
婦女	-11.2281
夜來	-11.2282
未曾	-11.2283
盡心	-11.2285
古樹	-11.2285
往年	-11.229
霄漢	-11.2291
當爲	-11.2294
屬予	-11.2296
江河	-11.2297
灤	-11.2299
請於	-11.23
積素	-11.2301
兖	-11.2302
相親	-11.2303
之憂	-11.2303
聮	-11.2303
兢兢	-11.2305
欲問	-11.2306
潯	-11.2308
行在	-11.2308
莾	-11.2308
偵	-11.2309
煌	-11.2309
眄	-11.231
寖	-11.2311
人之所	-11.2311
豐碑	-11.2312
譴	-11.2313
桃葉	-11.2315
朱顔	-11.2316
皇極	-11.2316
體仁	-11.2316
枝葉	-11.2317
不從	-11.2317
夢寐	-11.2319
問之	-11.232
平地	-11.232
在位	-11.2323
乎吾	-11.2328
三十三	-11.2328
佳處	-11.2329
即有	-11.2329
不安	-11.233
止於	-11.2331
相憶	-11.2333
退之	-11.2333
夫子之	-11.2335
則知	-11.2335
王家	-11.2335
震澤	-11.234
通行	-11.2341
大雪	-11.2343
遂成	-11.2346
不可勝	-11.2346
孑	-11.2347
其性	-11.2348
洄	-11.2349
綆	-11.2349
劈	-11.235
孳	-11.235
此外	-11.2351
娟	-11.2352
晴霽	-11.2353
目録	-11.2353
長松	-11.2354
以通	-11.2354
孩	-11.2356
東臯	-11.2357
聚散	-11.2362
直省	-11.2364
子瞻	-11.2366
處分	-11.237
聲聞	-11.2372
待詔	-11.2373
半生	-11.2373
加贈	-11.2376
髙祖	-11.2378
題額	-11.2378
矣公	-11.238
飛瀑	-11.2382
田園	-11.2382
故道	-11.2384
勞苦	-11.2385
得詩	-11.2387
之夫	-11.2388
月二十日	-11.239
應有	-11.2391
少而	-11.2391
知是	-11.2392
鄭注	-11.2395
先賢	-11.2396
嫓	-11.2398
嵯峨	-11.2398
滹沱	-11.2398
恊	-11.2398
於戲	-11.24
娃	-11.24
濩	-11.24
蝸	-11.24
口外	-11.24
譎	-11.24
諤	-11.2401
締	-11.2401
庶吉士	-11.2402
百丈	-11.2409
一雙	-11.2413
水中	-11.2415
流入	-11.2418
兵部尚書	-11.2422
木葉	-11.2428
機宜	-11.2428
合而	-11.2429
取次	-11.243
小閣	-11.2435
都門	-11.244
廣平	-11.244
不變	-11.2441
太恭人	-11.2442
霾	-11.2443
桂林	-11.2443
燧	-11.2444
騖	-11.2446
霙	-11.2446
南浦	-11.2447
任其	-11.2447
七人	-11.2447
洗心	-11.2448
明道	-11.2448
而可	-11.245
餘生	-11.2451
禩	-11.2452
聊以	-11.2453
臨流	-11.2454
明鏡	-11.2454
人材	-11.2454
皇甫	-11.2455
無憾	-11.2458
所遇	-11.246
忽忽	-11.2462
國公	-11.2462
却憶	-11.2463
天寒	-11.2467
有待	-11.2467
湖海	-11.2467
且夫	-11.2469
百餘里	-11.2469
其生平	-11.247
棲遲	-11.247
彭澤	-11.247
澄泥	-11.2472
諸部	-11.2473
文辭	-11.2476
同一	-11.2477
如雪	-11.2478
亦惟	-11.2479
玉山	-11.2479
里居	-11.248
吾所	-11.2483
錮	-11.2484
月十九日	-11.2485
盾	-11.2486
鎔	-11.2488
鈐	-11.2489
垓	-11.2489
彴	-11.2489
安國	-11.249
日用	-11.249
麽	-11.249
箐	-11.249
髀	-11.2491
綢繆	-11.2494
襪	-11.2496
箔	-11.2497
之異	-11.2498
園賦	-11.2499
曉起	-11.25
有常	-11.25
何况	-11.25
瓣香	-11.25
詩篇	-11.25
甬上	-11.2503
聽其	-11.2504
工夫	-11.2504
詩歌	-11.2506
黃帝	-11.2507
長春	-11.2507
别墅	-11.251
厥後	-11.2512
祀之	-11.2514
從子	-11.2517
不礙	-11.2518
然後知	-11.2518
室中	-11.2521
照例	-11.2522
其源	-11.2523
匱	-11.2524
新春	-11.2532
茆	-11.2533
聫	-11.2534
戛	-11.2536
嶙峋	-11.2536
榼	-11.2537
黃河	-11.2537
雨餘	-11.2537
嘏	-11.2538
頷	-11.2538
薄暮	-11.2539
罷官	-11.2539
遺跡	-11.2539
月照	-11.254
晁	-11.254
稼穡	-11.2543
絜矩	-11.2543
扈蹕	-11.2544
錢氏	-11.2545
今歲	-11.2545
二十一日	-11.2545
深入	-11.2549
我國家	-11.2552
屢經	-11.2552
興起	-11.2553
軍民	-11.2555
松竹	-11.2555
訓導	-11.2556
恰似	-11.2558
不敢以	-11.2561
力行	-11.2565
儀封	-11.2565
書史	-11.2565
而立	-11.2567
冰雪	-11.2568
精微	-11.257
身心	-11.2571
之源	-11.2573
十餘里	-11.2576
河山	-11.2579
老翁	-11.258
未曽	-11.2581
怙	-11.2582
俎	-11.2582
匀	-11.2582
吳山	-11.2584
性也	-11.2584
琛	-11.2586
鶯花	-11.2588
飫	-11.2589
㕍	-11.259
經緯	-11.2594
古書	-11.2594
珠簾	-11.2594
報恩	-11.2595
王䝉	-11.2596
江干	-11.2596
吾道	-11.2598
將歸	-11.2599
大理	-11.2599
遂使	-11.2599
易曰	-11.2599
花時	-11.2601
欲其	-11.2602
傳後	-11.2602
王維	-11.2604
薩載	-11.2607
片刻	-11.2608
心事	-11.2609
道徳	-11.2609
紅豆	-11.2611
國士	-11.2611
平時	-11.2612
或者	-11.2613
不學	-11.2614
東郊	-11.2614
重重	-11.2616
而來	-11.2616
溪水	-11.2618
祖諱	-11.2619
煉	-11.2621
天籟	-11.2621
凌雲	-11.2623
下馬	-11.2623
誰云	-11.2624
不倦	-11.2625
黄鐘	-11.2625
不願	-11.2626
學官	-11.2627
片石	-11.2627
澳	-11.2628
不減	-11.2628
輕舟	-11.2629
頓首	-11.2629
鬪	-11.2629
劑	-11.263
駑	-11.263
之北	-11.263
䋲	-11.2631
有過	-11.2631
二十三年	-11.2632
朔風	-11.2632
蔗	-11.2633
祺	-11.2633
撃	-11.2634
副將	-11.2636
亦在	-11.2639
鍾山	-11.2642
從軍	-11.2644
又得	-11.2646
廟碑	-11.2646
寸餘	-11.2647
達於	-11.2648
又嘗	-11.2648
今觀	-11.2649
諸經	-11.2649
韓子	-11.2651
其氣	-11.2653
固無	-11.2653
正直	-11.2655
三字	-11.2655
笑我	-11.2658
家家	-11.2661
和琳	-11.2664
次序	-11.2665
二十里	-11.2665
隰	-11.2666
所属	-11.2666
海門	-11.2668
雜記	-11.2671
懷古	-11.2675
方丈	-11.2676
豐收	-11.2676
踴躍	-11.2677
徃來	-11.2678
查明	-11.2679
丁卯	-11.2679
洋洋	-11.2679
芋	-11.268
闘	-11.2682
省方	-11.2683
首夏	-11.2686
煙霞	-11.2688
以言	-11.2692
于世	-11.2692
何幸	-11.27
雲外	-11.2701
則爲	-11.2703
百五十	-11.2703
皆由	-11.2706
臣工	-11.2709
孟子曰	-11.2712
覆奏	-11.2715
功德	-11.2716
逸興	-11.2716
致知	-11.2718
可通	-11.2718
噬	-11.272
行也	-11.272
辟雍	-11.2721
雖非	-11.2721
已覺	-11.2722
風土	-11.2722
進攻	-11.2723
大令	-11.2724
泣下	-11.2724
髭	-11.2725
清泉	-11.2726
夫豈	-11.2726
簸	-11.2726
貎	-11.2727
三禮	-11.2728
夘	-11.2728
者猶	-11.2729
語言	-11.273
魏晉	-11.273
暮雨	-11.2731
史家	-11.2731
空谷	-11.2732
無從	-11.2732
古道	-11.2734
千五百	-11.2734
修身	-11.2735
傍晚	-11.2736
其官	-11.2736
豈惟	-11.274
㕔州縣	-11.2742
夜分	-11.2744
未定	-11.2745
通籍	-11.2746
參政	-11.2746
正色	-11.2748
居人	-11.2748
日新	-11.2748
物外	-11.2749
未了	-11.275
豳風	-11.2754
誠有	-11.2755
倉卒	-11.2756
此數	-11.2759
循吏	-11.2762
此本	-11.2763
國家之	-11.2764
否則	-11.2764
軍前	-11.2765
所致	-11.2766
蕆事	-11.2767
園亭	-11.2768
漢武	-11.277
聖朝	-11.277
遅	-11.2774
瀨	-11.2775
一端	-11.2775
前題	-11.2775
須㬰	-11.2775
之㑹	-11.2779
乎且	-11.2779
燕京	-11.2781
驟雨	-11.2782
唐太宗	-11.2784
碧天	-11.2785
進兵	-11.2785
猶自	-11.2786
城頭	-11.2788
千峰	-11.279
風動	-11.2792
覽奏	-11.2795
數語	-11.2795
愛之	-11.2796
永嘉	-11.2798
結習	-11.2799
使我	-11.2804
因風	-11.2804
松栢	-11.2805
飛去	-11.2805
其子孫	-11.2806
楞	-11.2815
之以爲	-11.2816
泄	-11.2817
絡繹	-11.2817
沈周	-11.2819
糞	-11.282
因緣	-11.282
只在	-11.282
撾	-11.2821
盡日	-11.2823
以事	-11.2824
車駕	-11.2825
文士	-11.2825
自稱	-11.2828
虎豹	-11.2829
畢沅	-11.283
三輔	-11.283
矣吾	-11.283
酌量	-11.2834
以傳	-11.2834
河南巡撫	-11.2837
楊花	-11.2838
劄	-11.284
大府	-11.2841
識語	-11.2841
吳氏	-11.2845
極其	-11.2846
石泉	-11.2846
相視	-11.2847
悵望	-11.2849
水上	-11.285
會試	-11.2852
倡和	-11.2855
璘	-11.2857
毘	-11.2859
質之	-11.2859
蠱	-11.2859
自立	-11.286
攷之	-11.2861
牧齋初學集	-11.2862
蜿蜒	-11.2863
前身	-11.2863
送君	-11.2864
◍	-11.2865
町	-11.2866
米價	-11.2866
畬	-11.2868
不云乎	-11.2869
日長	-11.287
喘	-11.2871
偹	-11.2871
濮	-11.2871
而南	-11.2877
舊史	-11.288
列於	-11.2881
精藍	-11.2881
紀載	-11.2881
六寸	-11.2882
東陽	-11.2883
史官	-11.2884
避地	-11.2885
杯酒	-11.2886
淮水	-11.2887
幸得	-11.2887
朱門	-11.2887
扶風	-11.2889
樹杪	-11.2889
萬㡬	-11.2891
官舍	-11.2894
君恩	-11.2895
諭兵部	-11.2895
不但	-11.2898
忘言	-11.29
十人	-11.2902
塵埃	-11.2907
未嘗有	-11.2908
江聲	-11.2908
講求	-11.2909
披圖	-11.2911
入室	-11.2914
冨	-11.2915
吻	-11.2915
更為	-11.2915
一徑	-11.2916
滂	-11.2917
箏	-11.2917
侍臣	-11.2917
圯	-11.2917
慄	-11.2918
流風	-11.2918
總河	-11.2918
子女	-11.292
勒石	-11.292
地丁	-11.2921
能詩	-11.2921
聖明	-11.2925
臘月	-11.2926
公在	-11.2926
初五日	-11.2927
錦繡	-11.2931
對此	-11.2931
勝地	-11.2931
是皆	-11.2934
金風	-11.2937
定例	-11.2937
龍山	-11.2938
不乏	-11.2939
一般	-11.2939
烟火	-11.2939
豈是	-11.294
于時	-11.2941
農桑	-11.2941
自信	-11.2945
著於	-11.2948
日落	-11.2948
西望	-11.2949
進取	-11.2949
民艱	-11.295
凄凉	-11.2951
雅頌	-11.2953
書中	-11.2955
祖考	-11.2956
題和闐玉	-11.2958
許之	-11.2959
躁	-11.296
宸翰	-11.2961
薈	-11.2962
翬	-11.2963
橈	-11.2964
故舊	-11.2964
孝宗	-11.2964
敬亭	-11.2964
翥	-11.2964
謐	-11.2966
書室	-11.2966
南都	-11.2967
敎授	-11.2968
巴圖魯	-11.2968
壙	-11.2969
朕心	-11.2969
東流	-11.2969
佛法	-11.2969
堕	-11.297
聲音	-11.2971
二十四日	-11.2974
襍詠	-11.2975
霜雪	-11.2978
詢問	-11.298
丁巳	-11.2983
清江	-11.2986
中正	-11.2989
八卦	-11.2993
何在	-11.2993
後漢	-11.2994
近體	-11.2995
載之	-11.2995
咸陽	-11.2997
石田	-11.2997
但見	-11.2998
姑蘇	-11.2998
辨其	-11.2999
戲題	-11.3002
而不敢	-11.3002
其難	-11.3004
總裁	-11.3006
且有	-11.3006
而致	-11.3007
蓍	-11.3007
皖	-11.3007
黏	-11.3007
每年	-11.3008
二十八年	-11.3009
層樓	-11.3009
羇	-11.301
無地	-11.301
繳	-11.3011
九分者	-11.3011
閽	-11.3012
愕	-11.3013
寺僧	-11.3013
澷	-11.3013
龍泉	-11.3014
㝢	-11.3015
足矣	-11.3016
緫	-11.3016
楞嚴	-11.3018
名實	-11.3018
未全	-11.3019
府屬之	-11.302
像贊	-11.302
何期	-11.3025
棲霞	-11.3026
温庭筠	-11.3027
長年	-11.3032
闌干	-11.3036
伯玉	-11.3039
收拾	-11.3041
吉祥	-11.3041
之物	-11.3044
史氏	-11.3045
無如	-11.3046
手足	-11.3047
文采	-11.3047
所重	-11.3054
自憐	-11.3054
田疇	-11.3055
而進	-11.3057
怵	-11.3058
磧	-11.3059
窅	-11.306
趙孟頫	-11.3062
羽翼	-11.3062
可期	-11.3062
曬	-11.3063
糴	-11.3063
草色	-11.3063
樓頭	-11.3063
殃	-11.3064
荃	-11.3065
雜詩	-11.3065
生日	-11.3065
錦衣	-11.3066
必無	-11.3067
靈臺	-11.3069
何可	-11.3069
春深	-11.3069
書傳	-11.3072
中心	-11.3072
嘗以	-11.3072
莫若	-11.3073
可疑	-11.3074
河臣	-11.3077
紅粉	-11.3078
以濟	-11.308
之狀	-11.3082
波瀾	-11.3085
日影	-11.3086
落照	-11.3089
死矣	-11.3093
誠意	-11.3094
何來	-11.3094
承明	-11.3095
其職	-11.3096
何也曰	-11.3097
不教	-11.3098
人民	-11.31
為善	-11.3103
齋先生	-11.3105
熒	-11.3105
弟兄	-11.3107
前進	-11.3107
隧	-11.311
之譌	-11.3112
溶	-11.3114
圖中	-11.3114
䧏	-11.3116
圖經	-11.3117
之靈	-11.3118
若干卷	-11.3118
水師	-11.3118
一部	-11.3121
水晶	-11.3122
皆能	-11.3124
當代	-11.3126
者卽	-11.3126
不雨	-11.3127
最髙	-11.313
不畏	-11.3131
恵齡	-11.3132
至則	-11.3134
不自知	-11.3134
大軍	-11.3134
皇太子	-11.3135
詞章	-11.3135
一物	-11.3137
溪橋	-11.3137
白水	-11.3139
與否	-11.3141
板橋	-11.3143
南下	-11.3145
花鳥	-11.3149
黄州	-11.315
約收	-11.3151
庋	-11.3157
二縣	-11.3158
堠	-11.3158
茭	-11.3159
丐	-11.316
已是	-11.3161
謔	-11.3161
闖	-11.3161
嫉	-11.3161
䓁	-11.3162
府属	-11.3163
未詳	-11.3163
瑰	-11.3163
撑	-11.3164
非吾	-11.3164
各自	-11.3165
年華	-11.3165
招同	-11.3168
慟哭	-11.3168
英英	-11.3168
縣南	-11.3169
物理	-11.3172
志在	-11.3172
樊榭	-11.3173
央	-11.3174
數百里	-11.3177
也故曰	-11.3179
風味	-11.3179
年十月	-11.3183
生涯	-11.3184
閶	-11.3186
糧價	-11.3186
可比	-11.3195
笄	-11.3204
以昭	-11.3205
菲	-11.3206
飮酒	-11.3208
繼以	-11.3208
安危	-11.3208
戞	-11.3208
蓬蒿	-11.3209
睫	-11.3209
槍	-11.3209
驤	-11.321
下流	-11.3211
改正	-11.3211
休息	-11.3211
雲漢	-11.3212
祛	-11.3212
四圍	-11.3213
中天	-11.3213
踪跡	-11.3215
民瘼	-11.3216
員外郎	-11.3217
新晴	-11.322
極為	-11.3221
北宋	-11.3225
有光	-11.3226
曩時	-11.3227
羣從	-11.3227
西洋	-11.3228
遲遲	-11.3229
闗山	-11.3229
前有	-11.323
益切	-11.323
是亦	-11.3231
逺矣	-11.3231
曲阜	-11.3232
明白	-11.3235
館閣	-11.3236
鏡裏	-11.3239
登舟	-11.3242
漢家	-11.3243
據實	-11.3249
當春	-11.3251
不輟	-11.3252
齧	-11.3255
不立	-11.3255
纛	-11.3255
雪浪	-11.3256
淋	-11.3257
蛤	-11.3257
東閣	-11.3257
史冊	-11.3258
箑	-11.3258
當在	-11.3258
禊	-11.3258
古今體	-11.3259
廖	-11.3259
澀	-11.3259
囀	-11.326
嶔	-11.326
㩦	-11.3261
縳	-11.3261
百戰	-11.3262
北岸	-11.3262
餘年	-11.3264
一員	-11.3267
之辰	-11.3267
俱已	-11.3268
益深	-11.3269
前日	-11.3272
加之	-11.3272
長樂	-11.3273
痛哭	-11.3275
睢陽	-11.3276
一晌	-11.3276
一縷	-11.3276
尔等	-11.3277
又言	-11.3277
長老	-11.3279
兩省	-11.328
夙昔	-11.3281
龍蛇	-11.3281
道旁	-11.3286
周書	-11.3288
網羅	-11.329
不住	-11.3291
水陸	-11.3293
二尺	-11.3294
其法	-11.3295
摩詰	-11.3296
不取	-11.3301
惟應	-11.3302
子思	-11.3306
月十一日	-11.3306
姒	-11.3307
幽蘭	-11.3308
嵓	-11.3309
㽞	-11.3309
雞犬	-11.3309
沔	-11.3309
森森	-11.331
濆	-11.331
徤	-11.3311
坳	-11.3311
不置	-11.3313
地理志	-11.3315
層層	-11.3315
月色	-11.3316
伯克	-11.3316
不具	-11.3321
蒼松	-11.3325
溪亭	-11.3325
噶爾	-11.3329
日益	-11.3329
十有七	-11.3332
西方	-11.3332
公墓誌銘	-11.3332
多寡	-11.3333
行路	-11.3333
湖中	-11.3334
太后	-11.3337
麥秋	-11.3338
二十三日	-11.3341
立身	-11.3346
綺羅	-11.3349
馳驛	-11.3352
用心	-11.3352
我今	-11.3353
賢良	-11.3355
異常	-11.3356
刁	-11.3357
成立	-11.3358
皂	-11.3358
鶚	-11.336
麒麟	-11.3361
牝	-11.3362
留别	-11.3363
躑躅	-11.3363
鍵	-11.3363
諸弟	-11.3366
事君	-11.3367
趕	-11.3367
移家	-11.3368
詢之	-11.3369
伏生	-11.3371
相沿	-11.3377
題曰	-11.3379
不遺	-11.338
枕上	-11.338
追隨	-11.338
逆賊	-11.3381
一代之	-11.3381
不測	-11.3382
山雨	-11.3382
天生	-11.3383
白鶴	-11.3384
扵此	-11.3385
作何	-11.3386
諸賢	-11.339
在京師	-11.3391
瀑布	-11.3392
病中	-11.3392
伊川	-11.3393
後之人	-11.3393
家風	-11.3394
右丞	-11.3394
不使	-11.3397
三十餘年	-11.3397
海寧	-11.3397
劬	-11.3399
之工	-11.3401
陌上	-11.3403
憨	-11.3403
新聲	-11.3404
出師	-11.3408
懌	-11.3408
白鹿	-11.3408
贄	-11.3409
文弨	-11.3409
栝	-11.341
五分	-11.3412
隳	-11.3413
當作	-11.3414
科道	-11.3414
伊尹	-11.3415
者不過	-11.3415
槿	-11.3415
轉運	-11.3416
松隂	-11.3417
事親	-11.3418
自序	-11.342
神道碑	-11.342
世子	-11.3422
伊等	-11.3423
以補	-11.3425
等十	-11.3425
清凉	-11.3425
獨是	-11.3425
相遇	-11.3425
郡邑	-11.3426
烏程	-11.3427
之徳	-11.3431
御筆	-11.3432
吾生	-11.3432
也是故	-11.3433
華陽	-11.3434
春雪	-11.3434
南來	-11.3438
恭謁	-11.3443
水西	-11.3443
保泰	-11.3444
大體	-11.3448
有收	-11.3448
不經	-11.3449
蒼苔	-11.345
杓	-11.3451
近逺	-11.3453
諸天	-11.3453
不多	-11.3454
甲第	-11.3455
相知	-11.3458
硬	-11.3458
元人	-11.3459
薤	-11.3459
異數	-11.346
朝暮	-11.346
褁	-11.346
棃	-11.346
筌	-11.346
世祖章皇帝	-11.346
劔	-11.3461
遺蹟	-11.3461
瞥	-11.3462
乎抑	-11.3462
莊嚴	-11.3465
譔	-11.3465
羣書	-11.3465
太宜人	-11.3466
名字	-11.3468
賦此	-11.3469
不察	-11.3469
之什	-11.347
斯為	-11.347
罨畫	-11.3471
祝釐	-11.3472
又聞	-11.3473
甚為	-11.3474
▁皇祖	-11.3475
幾日	-11.3475
漢中	-11.3476
偶爾	-11.3476
封禪	-11.3476
五雲	-11.3478
奉天	-11.3479
讀者	-11.348
存焉	-11.348
名賢	-11.3481
奉行	-11.3483
正法	-11.3483
蝦	-11.3483
釣魚	-11.3485
循環	-11.3486
紅燭	-11.3488
碑銘	-11.3491
郡守	-11.3493
二十六年	-11.3494
酒人	-11.3496
徹夜	-11.3497
所經	-11.3497
吟詩	-11.3498
伊人	-11.3499
芭	-11.3501
孝陵	-11.3501
漫漫	-11.3501
清水	-11.3502
乃在	-11.3503
㸃筆	-11.3503
百川	-11.3504
赤城	-11.3508
芹	-11.3509
霓	-11.351
經籍	-11.351
卸	-11.3511
鶩	-11.3511
執手	-11.3512
月初二日	-11.3512
鸛	-11.3512
稱爲	-11.3515
嗚咽	-11.3515
蹤跡	-11.3517
以紀	-11.3518
郡國	-11.3518
永平	-11.3518
黄昏	-11.3518
宜其	-11.3519
行樂	-11.352
其師	-11.3521
秋冬	-11.3523
成化	-11.3524
一歲	-11.3526
古今體一百	-11.3526
衆人	-11.3531
遠近	-11.3532
發之	-11.3535
行世	-11.3536
吹笛	-11.3538
後儒	-11.354
大率	-11.3542
興廢	-11.3542
胡為	-11.3547
内廷	-11.3552
之妙	-11.3553
不道	-11.3554
南還	-11.3554
滿地	-11.3556
分爲	-11.3556
西溪	-11.3558
二十五年	-11.3558
也若夫	-11.3559
兕	-11.3559
𫾣	-11.356
兩三	-11.3561
有懷	-11.3562
峨	-11.3563
袴	-11.3563
黷	-11.3565
土膏	-11.3565
少師	-11.3566
滁	-11.3567
進𠞰	-11.3568
成就	-11.357
蒼梧	-11.357
滇南	-11.357
以降	-11.357
秉燭	-11.3572
何堪	-11.3572
北門	-11.3573
給諫	-11.3574
初夏	-11.3574
亦豈	-11.3575
廳	-11.3576
然猶	-11.3579
逆旅	-11.3579
尊前	-11.358
桓公	-11.3581
者是也	-11.3582
此生	-11.3582
行吟	-11.3587
未竟	-11.3588
暢茂	-11.3589
患難	-11.3595
苦心	-11.3599
露華	-11.3602
本色	-11.3605
雩	-11.3607
鯤	-11.3607
金人	-11.361
舉進士	-11.361
空庭	-11.3611
怖	-11.3611
丹靑	-11.3612
漁父	-11.3612
帕	-11.3613
詬	-11.3613
垠	-11.3614
瞭	-11.3615
寥廓	-11.3615
簒	-11.3616
絢	-11.3616
暢春園	-11.3616
鱠	-11.3616
立朝	-11.3617
入夏	-11.3618
相得	-11.3618
偏宜	-11.3618
緑雲	-11.3619
不休	-11.3619
賑恤	-11.3621
己亥	-11.3622
詔書	-11.3623
只是	-11.3624
四山	-11.3624
大業	-11.3627
授受	-11.3628
數行	-11.3631
之意也	-11.3634
騎馬	-11.3634
經書	-11.3635
必不可	-11.3636
精力	-11.3636
必得	-11.3637
雲起	-11.3638
所願	-11.3639
雲霧	-11.3639
與物	-11.364
兵民	-11.3649
仲夏	-11.365
舊日	-11.3655
山館	-11.3656
極盛	-11.3657
復命	-11.3657
碧落	-11.3657
興化	-11.3658
紂	-11.3659
郡城	-11.366
常熟	-11.366
報雨	-11.3661
虀	-11.3661
耑	-11.3661
柁	-11.3663
髙山	-11.3664
蒼然	-11.3665
蒂	-11.3666
何謂	-11.3666
宜興	-11.3667
澇	-11.3667
實在	-11.3667
蒔	-11.3668
忒	-11.3668
廣文	-11.3668
蟋蟀	-11.3669
規矩	-11.367
聶	-11.3672
己丑	-11.3675
雖欲	-11.3679
談笑	-11.368
世無	-11.368
庶常	-11.3682
欲去	-11.3682
鄕里	-11.3684
守令	-11.3686
邇来	-11.3691
成敗	-11.3693
不齊	-11.3695
吾鄉	-11.3702
發帑	-11.3703
朅	-11.3704
上流	-11.3706
走馬	-11.3707
竟以	-11.3709
厦	-11.3711
望中	-11.3712
五尺	-11.3712
即行	-11.3713
抑亦	-11.3713
付之	-11.3714
菑	-11.3717
糠	-11.3719
絜	-11.372
漚	-11.3721
父諱	-11.3722
奏報得雨詩以誌慰	-11.3723
溪流	-11.3724
鮫	-11.3725
乙夘	-11.3726
鼓吹	-11.3727
早春	-11.3728
為主	-11.3729
第六	-11.3729
迅速	-11.3731
天下後世	-11.3731
侍衞	-11.3731
掩映	-11.3735
莫非	-11.3736
縣人	-11.3736
遥望	-11.3736
斷腸	-11.3737
盤桓	-11.3737
正在	-11.3741
兩漢	-11.3741
雲烟	-11.3742
萬姓	-11.3743
兵馬	-11.3745
無不可	-11.375
浩然	-11.3752
不嫌	-11.3754
聊復	-11.3756
宛然	-11.3758
僦	-11.3759
髙人	-11.3759
洮	-11.3762
那更	-11.3762
科第	-11.3763
善惡	-11.3765
珠玉	-11.3765
櫻	-11.3767
無量	-11.3768
三省	-11.3768
縟	-11.3769
稲	-11.377
榷	-11.3771
肴	-11.3771
䏻	-11.3773
牎	-11.3773
者咸	-11.3775
不便	-11.3775
深林	-11.3779
爾乃	-11.378
者以爲	-11.3782
滿庭	-11.3783
留京王大臣	-11.3785
南中	-11.3786
之事也	-11.3787
文正公	-11.3787
在彼	-11.379
民食	-11.379
喜雨	-11.3791
待月	-11.3795
可用	-11.3796
向東	-11.3796
赤壁	-11.3797
爽氣	-11.3798
罔不	-11.38
天下事	-11.3802
萬兩	-11.3802
不仕	-11.3804
幷序	-11.3808
白蓮	-11.3813
金谷	-11.3813
不爽	-11.3816
沫	-11.3817
空翠	-11.3818
客來	-11.3818
籙	-11.382
紵	-11.382
月落	-11.3821
十九日	-11.3822
雲散	-11.3822
時聞	-11.3823
讙	-11.3824
飜	-11.3824
踐阼	-11.3824
嬗	-11.3825
鄖	-11.3825
敢言	-11.3827
祈榖	-11.3828
忠節	-11.3828
所取	-11.3829
柰	-11.383
寰宇	-11.383
其端	-11.3831
傳經	-11.3835
畢竟	-11.3835
草草	-11.3836
翠華	-11.3836
十有一	-11.3836
家門	-11.3837
北平	-11.3838
永安	-11.3838
三十餘	-11.3839
乞食	-11.3839
山村	-11.3841
東都	-11.3842
武進	-11.3843
制科	-11.3844
對時	-11.3845
畫裏	-11.3848
身世	-11.385
祭文	-11.385
相隨	-11.3856
午夜	-11.3858
禮法	-11.3859
性理	-11.386
傾城	-11.3864
喪服	-11.3865
邕	-11.3866
秋林	-11.3869
少壯	-11.387
睠	-11.3871
該省	-11.3871
李杜	-11.3872
渰	-11.3873
幌	-11.3873
龍潭	-11.3873
竽	-11.3873
舊制	-11.3874
根柢	-11.3874
我行	-11.3875
滄溟	-11.3876
今日之	-11.3876
亦宜	-11.3877
啞	-11.3877
爇	-11.3878
坍	-11.3881
祧	-11.3881
也至於	-11.3885
之原	-11.3886
効力	-11.3886
廣大	-11.3886
者歟	-11.3888
翠羽	-11.3889
地名	-11.3889
南樓	-11.389
几席	-11.389
三章	-11.3891
甘雨	-11.3892
下河	-11.3892
追憶	-11.3892
大梁	-11.3893
以外	-11.3893
以報	-11.3894
空中	-11.3895
相送	-11.3895
至其	-11.3897
管絃	-11.3901
倉皇	-11.3905
道光	-11.3907
擊之	-11.391
在京	-11.3912
應徵	-11.3915
碧海	-11.3916
尤甚	-11.3918
曾經	-11.3918
叩頭	-11.3921
原任	-11.3922
帖子	-11.3923
考其	-11.3923
清暉	-11.3923
掀	-11.3924
秀水	-11.3925
但以	-11.3925
瑟瑟	-11.3928
么	-11.3928
瀹	-11.3929
沉吟	-11.3929
嚙	-11.393
爨	-11.3931
河漢	-11.3932
大約	-11.3932
蘸	-11.3933
㓕	-11.3934
三品	-11.3935
半夜	-11.3936
花飛	-11.3937
平安	-11.3937
蕎	-11.3938
衡山	-11.3941
太乙	-11.3942
亦因	-11.3945
關山	-11.3946
功令	-11.3948
數十萬	-11.3948
六百	-11.3951
孟堅	-11.3952
老農	-11.3952
放翁	-11.3955
碣石	-11.3955
知己	-11.3961
晦日	-11.3961
事事	-11.3964
兵火	-11.3964
初七日	-11.3969
誰復	-11.3976
櫬	-11.3976
要害	-11.3978
何地	-11.3978
㵼	-11.3979
議者	-11.3979
漢玉	-11.3979
莫愁	-11.3982
吾輩	-11.3983
近於	-11.3983
珊	-11.3984
繽紛	-11.3984
荆棘	-11.3984
三歎	-11.3985
嘻	-11.3985
自在	-11.3985
漳浦	-11.3986
塌	-11.3986
汜	-11.3988
督率	-11.3991
吉凶	-11.3991
守成	-11.3992
李奉翰	-11.3992
古法	-11.3994
桑麻	-11.3994
闕下	-11.3996
爛漫	-11.3997
二萬	-11.3997
禮經	-11.3998
夷齊	-11.4003
重九	-11.4003
名流	-11.4005
元祐	-11.4006
見憺	-11.4008
金吾	-11.4008
計日	-11.4009
萬户	-11.4009
賊勢	-11.4009
賊首	-11.4013
焉則	-11.4017
賜之	-11.4021
山南	-11.4022
所難	-11.4023
西直門外	-11.4023
詩情	-11.4025
藩司	-11.4025
族人	-11.4027
西路	-11.4028
茂陵	-11.4028
相率	-11.4028
所過	-11.4028
崛	-11.4029
删	-11.4031
繢	-11.4031
苴	-11.4032
鬂	-11.4032
劉君	-11.4033
琴書	-11.4033
覿	-11.4033
李君	-11.4034
禮部尚書	-11.4034
何益	-11.4037
圓明園	-11.4037
中道	-11.4037
吏部尚書	-11.4038
𦂳	-11.4038
說法	-11.4038
秣陵	-11.404
御製詩四集巻	-11.404
庶子	-11.4041
世世	-11.4041
經行	-11.4042
䇿馬	-11.4042
視此	-11.4045
不殊	-11.4048
不遠	-11.4048
郊外	-11.4049
夜宿	-11.405
知道	-11.405
墓誌	-11.4053
二十日	-11.4054
楚人	-11.4055
之選	-11.4056
山泉	-11.4057
梁園	-11.4057
數十人	-11.406
亦難	-11.4063
正氣	-11.4063
秦人	-11.4066
國藩	-11.4066
經旬	-11.4067
唐詩	-11.407
緩徵	-11.407
奏章	-11.4072
大喜	-11.4073
縣北	-11.4074
三十四	-11.4074
年老	-11.4078
杼	-11.4082
烏鵲	-11.4082
陽城	-11.4084
舟次	-11.4085
一區	-11.4086
囷	-11.4087
甍	-11.4088
水村	-11.4088
荀子	-11.409
紉	-11.4091
涕泣	-11.4092
垂垂	-11.4092
遠矣	-11.4092
髠	-11.4093
后稷	-11.4093
斵	-11.4093
海蘭察	-11.4094
首逆	-11.4094
小臣	-11.4097
軒轅	-11.4097
出塞	-11.41
滔	-11.4102
高宗	-11.4103
之害	-11.4103
今復	-11.4104
四分	-11.4108
積欠	-11.411
矣予	-11.4112
世系	-11.4121
八尺	-11.4122
大笑	-11.4128
心情	-11.4128
遺經	-11.4128
傳神	-11.4128
亦不可	-11.4128
下注	-11.413
所書	-11.413
七百	-11.413
等閒	-11.4132
處所	-11.4132
黨人	-11.4133
丹楓	-11.4134
池塘	-11.4135
自喜	-11.4137
子貢	-11.4139
枰	-11.414
於兹	-11.4141
徜徉	-11.4142
下士	-11.4144
馘	-11.4144
崔嵬	-11.4144
扺	-11.4145
慳	-11.4145
三軍	-11.4146
糢糊	-11.4148
酪	-11.4148
荏苒	-11.415
潯陽	-11.415
天水	-11.4151
舟楫	-11.4152
翛然	-11.4155
宣王	-11.4155
棄之	-11.4156
同居	-11.4158
三十九	-11.4159
絲綸	-11.4159
太皇太后	-11.4159
鬲	-11.4162
平沙	-11.4162
是誰	-11.4163
羣公	-11.4164
江夏	-11.4166
其徒	-11.4167
親臨	-11.4167
塵土	-11.4168
喟然	-11.417
眀月	-11.4171
察其	-11.4174
終無	-11.4175
新年	-11.4176
下車	-11.4177
整齊	-11.4177
夫人之	-11.4182
到門	-11.4183
饑寒	-11.4186
禍福	-11.4186
貿	-11.4186
吾儕	-11.4187
淺深	-11.4188
詩賦	-11.419
文定	-11.4192
過午	-11.4195
行省	-11.4195
袤	-11.4196
皺	-11.42
巉	-11.42
冥冥	-11.42
齋戒	-11.4201
怪石	-11.4201
荄	-11.4202
瞥眼	-11.4203
縣東	-11.4204
北征	-11.4205
麻姑	-11.4207
溝壑	-11.4209
原是	-11.421
畫像	-11.4211
如是則	-11.4213
漁舟	-11.4217
忽聞	-11.4219
以病	-11.4219
殉難	-11.422
作客	-11.4221
入畫	-11.4221
吳人	-11.4223
受知	-11.4227
仁人	-11.4229
昆明湖	-11.423
曽經	-11.423
清涼	-11.423
南宫	-11.4234
河橋	-11.4236
爲諸生	-11.4236
金碧	-11.4237
恢復	-11.4239
滿目	-11.4242
簿書	-11.4243
之季	-11.4243
學宫	-11.4246
吠	-11.4248
山容	-11.4248
玷	-11.4249
煜	-11.4252
篝	-11.4253
大成	-11.4254
多病	-11.4254
蹔	-11.4254
蘇門	-11.4255
咀	-11.4256
窖	-11.4256
别後	-11.4258
移時	-11.4258
攪	-11.4258
偁	-11.426
不喜	-11.4261
冽	-11.4262
歌聲	-11.4263
之義也	-11.4265
未開	-11.4267
漁樵	-11.4268
奉和	-11.4272
浮圖	-11.4273
三十一	-11.4276
齊梁	-11.4276
好生	-11.4279
高樓	-11.4279
上巳	-11.428
等官	-11.4283
衛輝	-11.4283
志士	-11.4283
修葺	-11.4284
經師	-11.4284
饑民	-11.4285
篋中	-11.4287
農家	-11.4287
五載	-11.4289
且喜	-11.429
愼行	-11.4291
即是	-11.4292
大禹	-11.4294
風度	-11.4294
十有五	-11.4295
第七	-11.4297
四十餘	-11.4297
蕺山	-11.4298
軍士	-11.4298
神靈	-11.4298
不難	-11.4299
九曲	-11.4302
二部	-11.4303
此景	-11.4304
必致	-11.4304
餘杭	-11.4305
儒臣	-11.4307
臺上	-11.4309
諭令	-11.4309
冬雪	-11.431
㤙	-11.431
跂	-11.4311
愿	-11.4312
龍鱗	-11.4312
壯士	-11.4312
䜟	-11.4312
甜	-11.4313
燮	-11.4313
之所為	-11.4314
相距	-11.4314
婦子	-11.4314
琰	-11.4315
烟水	-11.4315
山亭	-11.4316
古今體詩	-11.4318
一雨	-11.4321
為學	-11.4328
雖曰	-11.4328
心力	-11.4329
清光	-11.4329
諸孫	-11.4331
軍需	-11.4332
聞君	-11.4332
暮雲	-11.4339
荒唐	-11.4342
服官	-11.4343
蕩平	-11.4343
庶可	-11.4344
意欲	-11.4345
逰山	-11.4346
元案	-11.4348
巨源	-11.4353
無煩	-11.4353
廬江	-11.4353
無幾	-11.4355
徴君	-11.4357
取義	-11.4357
好惡	-11.436
安居	-11.436
嶧	-11.4362
寄題	-11.4364
和碩	-11.4364
御製詩三集巻	-11.4365
縹緗	-11.4366
脛	-11.4366
見寄	-11.4367
階前	-11.4368
俛仰	-11.4368
挟	-11.4369
爲主	-11.4371
京洛	-11.4373
拂衣	-11.4374
古音	-11.4378
用事	-11.4384
二百餘	-11.4384
指日	-11.4385
兼之	-11.4387
竹罏	-11.4388
粤西	-11.4391
著錄	-11.4394
連年	-11.4399
形勝	-11.4401
責之	-11.4402
前來	-11.4402
誰憐	-11.4405
閣部	-11.4405
林木	-11.4406
秋花	-11.4407
開門	-11.4407
新詞	-11.4408
相宜	-11.4412
驍	-11.4412
流落	-11.4412
楸	-11.4413
長吏	-11.4414
白門	-11.4415
予謂	-11.4415
舁	-11.4417
祈雨	-11.4417
蒞	-11.4418
罥	-11.4418
哉余	-11.4418
萇	-11.4418
窶	-11.4419
嬪	-11.4419
棐几	-11.442
糊	-11.4421
鏞	-11.4422
亂後	-11.4423
死事	-11.4424
顛倒	-11.4425
溉	-11.4426
焉故	-11.4426
中書舍人	-11.4426
瓌	-11.4426
遂與	-11.4429
田廬	-11.443
直𨽻總督	-11.4431
耕種	-11.4433
東平	-11.4433
一丈	-11.4437
武夷	-11.4437
未備	-11.4437
方外	-11.444
者無不	-11.4443
一色	-11.4444
忽見	-11.4446
相向	-11.4447
尚能	-11.445
一死	-11.445
驅車	-11.445
紅旗	-11.445
謝公	-11.4451
舅氏	-11.4451
深知	-11.4452
少長	-11.4453
聖心	-11.4454
畫中	-11.4456
吾邑	-11.4457
之碑	-11.446
披衣	-11.4467
亦稱	-11.4467
入直	-11.4467
普霑	-11.4469
蒯	-11.4473
三白	-11.4474
驚心	-11.4474
諍	-11.4475
等項	-11.4476
總兵官	-11.4476
憊	-11.4476
隱隱	-11.448
廸	-11.448
紊	-11.448
不可得而	-11.4482
興安	-11.4483
隔年	-11.4484
含情	-11.4484
秋氣	-11.4487
清蹕	-11.4487
樹下	-11.4488
長蘅	-11.4489
早稻	-11.449
余讀	-11.4491
朝宗	-11.4493
小字	-11.4494
花滿	-11.4495
今本	-11.4496
長史	-11.4496
風拂	-11.45
半年	-11.4503
之歲	-11.4503
吾將	-11.4504
下旬	-11.4505
所建	-11.4506
備矣	-11.4506
驛路	-11.4508
登臺	-11.4508
初一日	-11.4509
蒼龍	-11.4511
十畝	-11.4512
三千里	-11.4516
東壁	-11.4516
所指	-11.4517
史傳	-11.4519
中式	-11.4521
風霜	-11.4521
是否	-11.4522
怡情	-11.4523
春江	-11.4526
卓午	-11.453
薔薇	-11.4532
焰	-11.4532
檝	-11.4532
一統志	-11.4533
淖	-11.4534
扄	-11.4534
沆	-11.4535
鷁	-11.4535
磚	-11.4535
厯年	-11.4535
緬甸	-11.4535
深意	-11.4538
緋	-11.4538
愛惜	-11.4539
自持	-11.4541
鴻臚	-11.4542
憶舊	-11.4542
戎馬	-11.4543
恵山	-11.4544
萬斛	-11.4544
萬六千	-11.4547
編年	-11.4547
落木	-11.455
進呈	-11.455
西施	-11.4551
侵尋	-11.4552
九經	-11.4553
陳君	-11.4554
益都	-11.4557
觀瀑	-11.4557
放歌	-11.4558
創業	-11.4559
不聽	-11.4559
遂致	-11.456
事蹟	-11.4561
弗能	-11.4567
治平	-11.4568
同遊	-11.4572
一株	-11.4573
講堂	-11.4574
與民	-11.4575
淸明	-11.4577
㣲雨	-11.4578
用意	-11.4578
花木	-11.4581
霖雨	-11.4582
貰	-11.4584
德尹	-11.4584
灝	-11.4584
上疏	-11.4587
颯颯	-11.4587
無須	-11.4587
蚓	-11.4587
光禄	-11.4588
滸	-11.4588
莢	-11.459
賃	-11.459
祲	-11.459
必能	-11.459
蘊	-11.459
盌	-11.4591
這	-11.4591
纍	-11.4592
觜	-11.4593
詠和闐玉	-11.4596
猶記	-11.4596
書目	-11.4597
可勝	-11.46
精義	-11.4604
十有九	-11.4605
而行之	-11.461
片言	-11.4612
皇皇	-11.4612
實非	-11.4614
嘗讀	-11.4614
安定	-11.4614
何殊	-11.4614
果能	-11.4617
先天	-11.4619
樂事	-11.462
附於	-11.4623
視事	-11.4624
我皇	-11.4626
在外	-11.4626
篇章	-11.4627
正統	-11.4627
執政	-11.4628
文敏	-11.4628
昭陽	-11.4629
馳驅	-11.463
誤也	-11.463
小亭	-11.4632
業已	-11.4633
御前	-11.4638
馬匹	-11.4638
本草	-11.4639
古北口	-11.4639
許氏	-11.464
蓺	-11.4642
佳景	-11.4643
都下	-11.4643
盱	-11.4643
澮	-11.4643
千二百	-11.4644
琪	-11.4644
䜿	-11.4646
氐	-11.4648
晟	-11.4648
鬚眉	-11.465
法華	-11.465
仭	-11.4652
縂	-11.4653
瑪	-11.4653
畞	-11.4653
柴桑	-11.4657
山頂	-11.4657
腸斷	-11.466
杜預	-11.4663
虎邱	-11.4666
重過	-11.4667
接踵	-11.4667
古蹟	-11.4669
卿大夫	-11.4669
最愛	-11.4669
聖人之道	-11.467
比於	-11.4672
向南	-11.4673
親切	-11.4678
顔子	-11.468
安樂	-11.4681
化工	-11.4683
竟無	-11.4683
連天	-11.4684
撫軍	-11.4684
酒徒	-11.4687
徃事	-11.4688
眼中	-11.4691
西臺	-11.4692
瑚	-11.4697
二十四年	-11.47
蜨	-11.47
如之何	-11.4702
皥	-11.4702
晳	-11.4703
竪	-11.4703
卓犖	-11.4705
孱	-11.4705
鵷	-11.4705
府城	-11.4705
當是	-11.4705
鼉	-11.4706
毘陵	-11.4706
天寶	-11.4706
下筆	-11.4706
俚	-11.4706
緐	-11.4707
筏	-11.4708
霏霏	-11.4708
月二十八日	-11.4713
岱宗	-11.4713
豈敢	-11.4713
未逮	-11.4713
了了	-11.4714
七十里	-11.4714
停止	-11.4716
邑人	-11.4717
此固	-11.4717
大計	-11.4718
桂樹	-11.4718
樽前	-11.472
敬天	-11.4723
雨勢	-11.4723
沽酒	-11.4724
昨宵	-11.4725
攤	-11.4727
國子監生	-11.4729
叅政	-11.473
海口	-11.4733
巡幸	-11.4734
金沙	-11.4737
宫詞	-11.4738
淹留	-11.4738
夜泊	-11.4738
二十七年	-11.474
長吟	-11.474
亦嘗	-11.4744
制義	-11.4745
其妻	-11.4745
曰某	-11.4747
題詠	-11.4749
可得而	-11.475
葑	-11.4752
高堂	-11.4755
鏃	-11.4755
千峯	-11.4756
苓	-11.4758
漁陽	-11.4758
統兵	-11.4761
琬琰	-11.4762
妒	-11.4763
醸	-11.4764
臉	-11.4765
養心殿	-11.4767
芸編	-11.4773
舊遊	-11.4774
分兵	-11.4779
方言	-11.4779
平糶	-11.478
無主	-11.4783
薊門	-11.4784
一泓	-11.4785
太保	-11.4787
六月初	-11.4787
統領	-11.4789
亦弗	-11.4789
神功	-11.4789
年来	-11.4791
先民	-11.4792
靑天	-11.4793
門庭	-11.4794
嵗嵗	-11.4795
藍田	-11.4795
適可	-11.4795
愚山	-11.4796
淳化	-11.4798
高郵	-11.48
延年	-11.4803
西漢	-11.4806
淮隂	-11.4806
白華	-11.4811
東觀	-11.4812
內外	-11.4813
雲龍	-11.4813
艱致	-11.4813
睨	-11.4814
皇天	-11.4815
登堂	-11.4815
東望	-11.4816
脾	-11.4816
礎	-11.4817
涙	-11.4818
趺	-11.4818
醖	-11.482
啇	-11.4821
遴	-11.4822
古學	-11.4822
蕭寺	-11.4824
瞻仰	-11.4825
肅然	-11.4827
司主事	-11.4828
仁宗	-11.4829
不孤	-11.4829
余亦	-11.4831
各府	-11.4834
通典	-11.4835
竹杖	-11.4836
里門	-11.4837
忘機	-11.4837
郭外	-11.4838
舊游	-11.4839
暝色	-11.4839
莫道	-11.4842
樓前	-11.4842
絶無	-11.4842
四十五	-11.4843
豈得	-11.4844
東皇	-11.4845
大祀	-11.4848
璿	-11.4849
而況	-11.4849
景光	-11.4851
晚年	-11.4854
石榴	-11.4857
也於是	-11.4859
設如	-11.486
始見	-11.4861
向西	-11.4862
兑	-11.4864
鳥道	-11.4871
元配	-11.4872
建立	-11.4872
野水	-11.4873
淘	-11.4874
噩	-11.4874
嘔	-11.4874
餒	-11.4876
伯夷	-11.4877
惠山	-11.4877
屧	-11.4877
縣西	-11.4877
兵燹	-11.4878
菌	-11.4879
取道	-11.4879
孟氏	-11.488
襯	-11.488
詈	-11.488
昔賢	-11.488
橅	-11.488
竦	-11.4881
茅茨	-11.4881
玉臺	-11.4882
淮海	-11.4882
良友	-11.4883
辛夘	-11.4884
子胥	-11.4885
示余	-11.4885
石舫	-11.489
三十七	-11.489
髙宗	-11.4892
科目	-11.4892
丘壑	-11.4893
便宜	-11.4893
泫然	-11.4894
沉沉	-11.4895
銅雀	-11.4896
白晝	-11.4896
離宫	-11.4897
津逮	-11.4897
無負	-11.4898
過訪	-11.4901
六十里	-11.4902
雲根	-11.4902
漢時	-11.4906
西陂	-11.4909
富春	-11.491
何氏	-11.4911
盼望	-11.4912
思量	-11.4913
馬氏	-11.4914
陪臣	-11.4914
籬落	-11.4918
雲開	-11.492
接濟	-11.4921
雨足	-11.4923
十有四	-11.4924
實難	-11.4926
謝客	-11.4927
王莽	-11.4928
而巳矣	-11.493
亹	-11.4932
佀	-11.4934
傖	-11.4935
躊躇	-11.4935
奉母	-11.4936
股肱	-11.4936
俯視	-11.4937
心期	-11.4938
碓	-11.4938
刮	-11.4939
萋萋	-11.4939
懷抱	-11.494
閶闔	-11.494
蘖	-11.494
俎豆	-11.494
不衰	-11.4941
九原	-11.4949
也又曰	-11.4949
世居	-11.4953
贏得	-11.4957
不返	-11.4959
因即	-11.496
嘆息	-11.496
醉後	-11.4962
野花	-11.4962
出郭	-11.4964
封事	-11.4969
盛典	-11.4973
竭力	-11.4975
法度	-11.4976
行走	-11.4977
滿眼	-11.4979
小院	-11.4979
昭穆	-11.498
瀋	-11.498
種樹	-11.498
都城	-11.498
史臣	-11.4981
迎鑾	-11.4982
曽祖	-11.4982
晏子	-11.4984
以誌	-11.4985
相通	-11.4986
棉	-11.4987
一家之	-11.499
◍◍	-11.499
揜	-11.4991
縵	-11.4991
繅	-11.4993
尙未	-11.4993
澁	-11.4994
韞	-11.4995
躓	-11.4995
帨	-11.4996
鋟	-11.4996
釘	-11.4997
㫺	-11.4997
羗	-11.4998
妻孥	-11.4999
兒孫	-11.4999
讚	-11.5
相承	-11.5001
袪	-11.5001
蛻	-11.5002
嘿	-11.5002
所記	-11.5003
儒術	-11.5003
屺	-11.5004
過眼	-11.5008
天佑	-11.501
龍井	-11.5011
制作	-11.5011
誰謂	-11.5011
鳥獸	-11.5012
往来	-11.5015
直抵	-11.5015
出沒	-11.5017
自傷	-11.5019
黄雲	-11.502
觀民	-11.5021
幾年	-11.5022
臨御	-11.5022
慈寧	-11.503
四十三	-11.5032
總是	-11.5033
致身	-11.5033
良知	-11.5034
大畧	-11.5035
風送	-11.5037
碧水	-11.5039
封建	-11.5041
牧仲	-11.5043
持節	-11.5043
田禾	-11.5044
六卷	-11.5047
謝家	-11.5047
舟過	-11.5048
鱸	-11.505
舉業	-11.505
崢嶸	-11.505
耜	-11.5051
南書房	-11.5051
匍匐	-11.5052
俛	-11.5053
靚	-11.5055
佗	-11.5055
斷續	-11.5056
雲門	-11.5056
飴	-11.5056
九龍	-11.5057
爬	-11.5057
俄羅斯	-11.5057
颷	-11.5057
文廟	-11.5058
諸史	-11.5059
之謬	-11.506
儒生	-11.5061
團圞	-11.5061
不憚	-11.5062
松楸	-11.5062
笞	-11.5062
香雪	-11.5064
義士	-11.5064
永定河	-11.5065
塞山	-11.5065
從今	-11.5065
漕船	-11.5066
見滕	-11.507
二句	-11.5071
李賀	-11.5071
事理	-11.5071
四野	-11.5072
臯陶	-11.5073
催科	-11.5076
閭里	-11.5079
辛夷	-11.5081
南路	-11.5082
問誰	-11.5086
南屏	-11.5088
士君子	-11.5089
冬夜	-11.509
一燈	-11.509
歸順	-11.5091
商賈	-11.5091
養生	-11.5092
亂離	-11.5093
先憂	-11.5094
者謂之	-11.5096
者何也	-11.5099
道心	-11.51
考證	-11.5103
廿五	-11.5103
澧	-11.5104
西東	-11.5105
員外	-11.5105
苧	-11.5107
今秋	-11.5108
遺老	-11.5109
凱旋	-11.5109
全無	-11.511
五星	-11.5112
相尋	-11.5112
縶	-11.5112
昔時	-11.5112
不類	-11.5113
蓂	-11.5114
河朔	-11.5115
長干	-11.5116
藎	-11.5117
㵎	-11.5118
年四十	-11.5118
行役	-11.5118
老屋	-11.5118
栴檀	-11.5118
四十二	-11.5122
近畿	-11.5123
東園	-11.5124
贓	-11.5127
軍書	-11.5127
能文	-11.5129
前事	-11.5129
孰與	-11.513
大昕	-11.513
鄭重	-11.5134
三代之	-11.5135
五子	-11.5137
大半	-11.5137
難矣	-11.5139
何哉	-11.5142
無忘	-11.5145
急雨	-11.5145
依例	-11.5146
曽無	-11.5146
近來	-11.5146
兩次	-11.5146
疾病	-11.5147
交遊	-11.515
烟雲	-11.515
父母之	-11.5151
南岸	-11.5151
秦王	-11.5152
叔子	-11.5152
物色	-11.5152
濟寧	-11.5152
河圖	-11.5153
東湖	-11.5155
林巒	-11.5157
三里	-11.5157
一朶	-11.5159
銘銘曰	-11.5159
月初三日	-11.516
武侯	-11.516
楓葉	-11.5161
㡬度	-11.5161
諸軍	-11.5162
紅藥	-11.5165
捷音	-11.5167
簧	-11.517
不可見	-11.5171
二月初	-11.5172
程氏	-11.5173
寘	-11.5173
苻	-11.5174
今来	-11.5175
雲物	-11.5175
掾	-11.5176
昊天	-11.5176
甦	-11.5176
輪囷	-11.5177
噐	-11.5177
軋	-11.5177
凹	-11.5177
硃	-11.5178
艤	-11.5179
幛	-11.5179
伏羲	-11.5179
騾	-11.5179
喬松	-11.518
即用	-11.518
鑣	-11.518
沮洳	-11.5181
窆	-11.5181
予心	-11.5181
歊	-11.5182
嬋娟	-11.5182
吾言	-11.5182
三縣	-11.5183
每日	-11.5184
六代	-11.5186
梁肯堂	-11.5187
澹泊	-11.5187
閉户	-11.5188
來朝	-11.5188
光隂	-11.5189
二篇	-11.5189
吳郡	-11.5191
必須	-11.5191
隙地	-11.5191
户口	-11.5192
静室	-11.5195
盡力	-11.5195
九百	-11.5196
名花	-11.5199
黄山	-11.52
視學	-11.5204
胡不	-11.5204
千餘里	-11.5207
王肅	-11.5209
四部	-11.521
之效	-11.521
十全	-11.521
終朝	-11.5211
八卷	-11.5212
同姓	-11.5212
旗亭	-11.5213
無涯	-11.5214
未暇	-11.5216
截留	-11.5216
行慶	-11.5217
宫商	-11.5218
千門	-11.5221
蕪湖	-11.5221
月餘	-11.5227
無忝	-11.5227
正定	-11.5229
過江	-11.5229
府属之	-11.523
正供	-11.523
膴	-11.5231
府志	-11.5231
蓀	-11.5232
紏	-11.5232
一線	-11.5233
潞河	-11.5233
飇	-11.5234
東華	-11.5234
水漲	-11.5236
渦	-11.5236
霆	-11.5237
皤	-11.5237
䢴	-11.5238
鏘	-11.5239
初年	-11.524
􁈁	-11.524
宿雨	-11.5241
楊公	-11.5241
縉	-11.5241
所述	-11.5242
行營	-11.5243
越王	-11.5246
小坐	-11.5248
城隍	-11.5249
浙西	-11.5251
明德	-11.5252
忽憶	-11.5255
可喜	-11.526
暘雨	-11.526
王郎	-11.5263
午日	-11.5266
今天下	-11.5267
西銘	-11.5268
良可	-11.5268
司馬遷	-11.5271
無賴	-11.5273
匹夫	-11.5274
亭臺	-11.5279
歌詩	-11.528
遇雨	-11.528
詞客	-11.5289
屈原	-11.5292
合計	-11.5293
性命之	-11.5293
賞給	-11.5293
千樹	-11.5294
十有三	-11.5294
農務	-11.5294
犧	-11.5295
鑠	-11.5296
誰道	-11.5296
莘	-11.5297
璠	-11.5297
䦨干	-11.5299
餼	-11.5299
澈	-11.53
唘蹕	-11.5301
讜	-11.5302
蒹葭	-11.5302
釃	-11.5303
毫釐	-11.5304
林爽文	-11.5305
滚	-11.5306
碭	-11.5306
異姓	-11.5306
頗覺	-11.5308
過客	-11.5308
千仞	-11.5309
神武	-11.5311
不違	-11.5312
天香	-11.5312
烹茶	-11.5313
服闋	-11.5315
曉日	-11.5315
江鄉	-11.5317
永寧	-11.5318
四世	-11.5318
此夕	-11.5318
玉局	-11.532
權衡	-11.5321
杜氏	-11.5321
東萊	-11.5322
去國	-11.5322
滿漢	-11.5325
校書	-11.5325
毋乃	-11.5325
玉盤	-11.5327
序余	-11.5328
不避	-11.5328
莫可	-11.5329
吾意	-11.5329
他鄉	-11.533
煙波	-11.5331
諭刑部	-11.5331
詩意	-11.5337
取諸	-11.5338
即目	-11.5338
一峯	-11.534
仞	-11.534
匯	-11.5345
登場	-11.5346
舍利	-11.5349
章奏	-11.5349
還朝	-11.535
調御	-11.535
粉本	-11.5352
珩	-11.5353
夫何	-11.5354
班氏	-11.5356
朢	-11.5356
九五	-11.5358
南征	-11.5358
列國	-11.5358
豢	-11.5359
兩先生	-11.536
霓裳	-11.5361
風露	-11.5361
廨	-11.5362
敉	-11.5362
徭	-11.5364
歷歷	-11.5364
素尚齋	-11.5364
莫問	-11.5365
夜雪	-11.5365
奨	-11.5365
玉門	-11.5367
團扇	-11.5368
琴瑟	-11.5368
堯典	-11.5369
非禮	-11.537
貴賤	-11.5371
禆益	-11.5371
荀卿	-11.5373
小舟	-11.5373
閏月	-11.5374
不可以不	-11.5376
祝融	-11.5378
敢云	-11.5379
三百里	-11.538
六尺	-11.5381
者如此	-11.5381
築室	-11.5381
孟夏	-11.5381
新建	-11.5385
郊原	-11.5387
北郊	-11.5387
經綸	-11.5388
紀綱	-11.5389
旁午	-11.5392
宿遷	-11.5393
交游	-11.5396
大用	-11.5397
交情	-11.5398
吾弟	-11.5398
殆盡	-11.5399
怡然	-11.5401
日照	-11.5405
羣芳	-11.5406
往嵗	-11.5407
縣志	-11.5408
所以爲	-11.5408
帝京	-11.5413
春秋傳	-11.5414
編次	-11.5416
定論	-11.5417
漸次	-11.5418
漫口	-11.5418
驩	-11.5421
㶑	-11.5421
頫	-11.5422
碌碌	-11.5422
金馬	-11.5423
戡	-11.5424
呼吸	-11.5424
爼	-11.5424
琚	-11.5424
溶溶	-11.5425
莓苔	-11.5425
磁	-11.5425
先人之	-11.5425
創得齋	-11.5426
佯	-11.5426
自愛	-11.5427
休養	-11.5428
愛此	-11.5431
往返	-11.5432
水災	-11.5432
大全	-11.5433
劉禹錫	-11.5434
記云	-11.5435
其弊	-11.5436
稱觴	-11.544
兖州	-11.5441
不得志	-11.5443
者莫如	-11.5444
順天府	-11.5445
汪氏	-11.5449
小像	-11.5452
四顧	-11.5453
青門	-11.5454
京邸	-11.5459
堂下	-11.5459
仲冬	-11.546
漢陽	-11.5463
早已	-11.5465
僕射	-11.5465
切切	-11.5467
而不知其	-11.5468
宣化	-11.5469
舟車	-11.5471
癢	-11.5474
車騎	-11.5474
雲棲	-11.5474
小雨	-11.5475
萬歲	-11.5477
鹿鳴	-11.5478
天壤	-11.5479
殘碑	-11.548
涂	-11.5483
薌	-11.5483
怳	-11.5484
菘	-11.5486
兩度	-11.5487
况乎	-11.5488
賒	-11.5491
致祭	-11.5491
弹	-11.5493
署中	-11.5493
精誠	-11.5498
非獨	-11.5499
歲寒	-11.55
保障	-11.55
蘇氏	-11.5502
嚴飭	-11.5502
曽孫	-11.5503
九華	-11.5504
智者	-11.5505
銀米	-11.5507
吾黨	-11.5508
和風	-11.5508
辦事	-11.5509
疏請	-11.551
治河	-11.5511
吹笙	-11.5511
七里	-11.5512
舊本	-11.5513
識字	-11.5514
史稱	-11.5514
入夢	-11.5515
殘雪	-11.5516
和闐玉	-11.5516
相待	-11.552
銀燭	-11.5523
舊作韻	-11.5524
不幸而	-11.5526
附㑹	-11.5526
飛揚	-11.5527
刻本	-11.5527
離合	-11.553
幸甚	-11.5533
晉陽	-11.5533
輻	-11.5536
鷲	-11.5536
惺	-11.5537
貞元	-11.5538
先生諱	-11.5538
德州	-11.5539
其位	-11.5539
愠	-11.5541
寬	-11.5543
嗚呼哀哉	-11.5543
圅	-11.5544
墖	-11.5544
忠厚	-11.5546
乗時	-11.5546
聒	-11.5546
歴年	-11.5547
盒	-11.5547
霪	-11.5548
歐陽公	-11.5549
本意	-11.5549
端陽	-11.5549
侃	-11.5549
瀦	-11.5549
鄕人	-11.555
姥	-11.5552
勝國	-11.5554
載道	-11.5555
片雲	-11.5557
庶人	-11.5558
相類	-11.5559
關河	-11.5561
前度	-11.5561
閣臣	-11.5564
頁	-11.5565
詩話	-11.5567
欲使	-11.5567
扶杖	-11.5567
聽雨	-11.5568
字句	-11.5569
微茫	-11.5569
道傍	-11.5569
不給	-11.5572
勢必	-11.5575
餘暇	-11.5576
宗族	-11.5577
涕淚	-11.558
留連	-11.5582
較量	-11.5582
離别	-11.5582
勞勞	-11.5583
繪事	-11.5583
親戚	-11.5584
看得	-11.5588
天末	-11.559
者莫不	-11.559
帝子	-11.5592
孤負	-11.5593
千百年	-11.5595
此所謂	-11.5597
目擊	-11.5597
築城	-11.5597
塔影	-11.5598
紳士	-11.5603
日午	-11.5604
秫	-11.5604
輭	-11.5604
爍	-11.5605
孤臣	-11.5605
亭林	-11.5605
餳	-11.5606
掬	-11.5606
佟	-11.5607
月影	-11.5607
㑹議	-11.5608
喝	-11.5609
矣哉	-11.5609
鉉	-11.5609
沭	-11.561
四十七	-11.561
御製詩二集巻	-11.561
嶺外	-11.5611
一飯	-11.5611
欷歔	-11.5611
阪	-11.5611
慤	-11.5611
湯泉	-11.5612
碾	-11.5614
垂釣	-11.5614
益増	-11.5614
濟濟	-11.5614
偶一	-11.5616
把酒	-11.5616
言志	-11.5616
秋霖	-11.5618
紅橋	-11.5618
佳氣	-11.5622
無雙	-11.5624
無敢	-11.5625
氣節	-11.5629
焉夫	-11.563
方略	-11.5631
工程	-11.5632
池上居	-11.5633
三楹	-11.5636
山齋	-11.5636
兄子	-11.5638
府知府	-11.5638
問學	-11.5638
片片	-11.564
風雷	-11.5643
御苑	-11.5643
流沙	-11.5645
路便	-11.5648
不假	-11.5648
南枝	-11.5648
流隂	-11.5648
結實	-11.565
俗學	-11.5652
神物	-11.5652
一句	-11.5657
鳥語	-11.5663
織女	-11.5663
玠	-11.5664
此理	-11.5665
地氣	-11.5665
那可	-11.5666
亦未嘗	-11.5666
曝書亭集卷第	-11.5667
過半	-11.5668
滋擾	-11.5669
自矜	-11.5669
隋唐	-11.567
羹	-11.567
瓚	-11.567
斚	-11.567
翺翔	-11.5671
邳	-11.5671
輕薄	-11.5671
良辰	-11.5672
諶	-11.5672
通經	-11.5672
開霽	-11.5673
睛	-11.5673
雎	-11.5674
轆轤	-11.5674
三農	-11.5674
諸篇	-11.5676
五百年	-11.5676
矮	-11.5677
瑯琊	-11.5679
田間	-11.568
室家	-11.568
從祀	-11.568
事畢	-11.5681
亦如之	-11.5683
筋力	-11.5683
四尺	-11.5684
倐忽	-11.5685
黃氏	-11.5688
晨昏	-11.5689
所據	-11.5689
蘭若	-11.569
小園	-11.5691
同調	-11.5692
監生	-11.5692
懐抱	-11.5695
世道	-11.5698
不讓	-11.5698
一段	-11.5699
召公	-11.57
二十二年	-11.5701
見贈	-11.5703
菴先生	-11.5704
春園	-11.5705
嚴禁	-11.5706
花卉	-11.571
善政	-11.571
山鬼	-11.5711
白蘋	-11.5713
比肩	-11.5718
保全	-11.5723
無功	-11.5724
秋麥	-11.573
楞伽	-11.573
老母	-11.5731
竹樹	-11.5731
千六百	-11.5732
湖口	-11.5732
蒨	-11.5732
晚晴	-11.5733
㦯	-11.5734
中憲大夫	-11.5734
埏	-11.5735
鉏	-11.5735
升降	-11.5735
㡳	-11.5735
摸	-11.5735
偃蹇	-11.5736
廕	-11.5737
跌	-11.5738
黄水	-11.5739
疋	-11.5739
王大臣	-11.5739
軺	-11.5739
鰥	-11.5739
等州縣	-11.574
從来	-11.5741
愬	-11.5742
實政	-11.5742
白楊	-11.5743
全集	-11.5744
座主	-11.5746
老病	-11.5746
膝下	-11.5747
夜坐	-11.5748
洛下	-11.5749
世襲	-11.5749
都司	-11.5752
拈毫	-11.5754
厯厯	-11.5754
涵養	-11.5759
當筵	-11.5759
革職	-11.5761
治理	-11.5763
誥封	-11.5765
五卷	-11.5766
固守	-11.5769
立廟	-11.5773
墓在	-11.5773
旋即	-11.5774
東昌	-11.5775
公卒	-11.5779
不可解	-11.5782
石磴	-11.5784
聖訓	-11.5786
明亮	-11.5789
禁中	-11.579
日食	-11.579
綉	-11.5791
不以爲	-11.5792
涔	-11.5792
泰安	-11.5795
桷	-11.5799
名勝	-11.5799
二章	-11.5801
朦朧	-11.5801
旒	-11.5802
凑	-11.5803
江樓	-11.5804
喫	-11.5804
峩峩	-11.5804
集解	-11.5805
所著有	-11.5806
四十四	-11.5806
非謂	-11.5807
參議	-11.5808
缺雨	-11.581
不得已而	-11.5812
吾廬	-11.5813
志氣	-11.5814
空林	-11.5818
供養	-11.5821
猶憶	-11.5822
月二十二日	-11.5822
其族	-11.5824
金蓮	-11.5825
主簿	-11.5825
速行	-11.5827
翁洲	-11.5831
獨憐	-11.5832
關係	-11.5836
十笏	-11.5837
之所能	-11.584
三冬	-11.5844
亭口號	-11.5848
名節	-11.585
指顧	-11.585
河陽	-11.585
金縷	-11.5852
鶯啼	-11.5855
濂	-11.5856
湫	-11.5857
荆公	-11.5858
花信	-11.5858
積雨	-11.5859
扞	-11.5861
麯	-11.5862
半壁	-11.5863
踟蹰	-11.5864
葡萄	-11.5864
畸	-11.5864
渺渺	-11.5865
天眷	-11.5866
兩路	-11.5866
鞫	-11.5866
主客	-11.5867
秪	-11.5868
撩	-11.5868
避人	-11.5869
南宮	-11.587
耨	-11.587
捐軀	-11.587
報得雨	-11.587
攔	-11.5872
孰謂	-11.5875
經典	-11.5876
沈氏	-11.5876
監國	-11.5877
絶塵	-11.5879
節義	-11.588
終其身	-11.5884
周氏	-11.5885
范公	-11.5885
話舊	-11.5887
動靜	-11.5888
元宵	-11.5888
元老	-11.5889
殉節	-11.5889
西峪	-11.5891
率兵	-11.5892
四十六	-11.5893
盛時	-11.5893
對瀑	-11.5894
長卿	-11.5894
白鷺	-11.5901
博物	-11.5902
該處	-11.5906
義門	-11.5914
快意	-11.5916
型	-11.592
敎諭	-11.592
田功	-11.5921
銀漢	-11.5921
一併	-11.5922
悳	-11.5922
倂	-11.5922
餙	-11.5924
襃	-11.5925
天宇	-11.5926
埜	-11.5926
貍	-11.5927
定州	-11.5928
滃	-11.5928
糝	-11.5929
麋鹿	-11.593
婣	-11.593
入告	-11.5931
蔡邕	-11.5931
邾	-11.5932
沚	-11.5933
猾	-11.5934
風節	-11.5934
凉風	-11.5935
福寧	-11.5935
䭾	-11.5936
十一日	-11.5936
内大臣	-11.5939
玉帶	-11.594
維崧	-11.5941
言性	-11.5944
水部	-11.5945
藝林	-11.5946
空濛	-11.5947
曲宴	-11.5948
頗多	-11.595
情事	-11.5951
酹酒	-11.5952
象山	-11.5953
廣寒	-11.5953
關外	-11.5954
盛世	-11.5956
韻二首	-11.5958
闐	-11.5959
上苑	-11.5961
伏乞	-11.5963
陵谷	-11.5964
別爲	-11.5969
兩世	-11.5973
平泉	-11.5974
旋蹕	-11.5974
馬融	-11.5977
悲夫	-11.5978
恐後	-11.5979
孤亭	-11.598
弇	-11.5982
林間	-11.5984
祠下	-11.5987
維時	-11.5987
胃	-11.5988
七寸	-11.5989
颭	-11.599
遣官	-11.599
秣	-11.5991
幙	-11.5991
舉世	-11.5992
仿彿	-11.5992
監軍	-11.5993
筴	-11.5993
宗周	-11.5993
螯	-11.5993
慝	-11.5994
麴	-11.5994
安撫	-11.5997
府州縣	-11.5998
授經	-11.5998
魚鳥	-11.6
媵	-11.6
重来	-11.6
菰蒲	-11.6001
頭目	-11.6002
勸君	-11.6004
天街	-11.6004
政治	-11.6004
閨中	-11.6013
升堂	-11.6013
蔓草	-11.6019
未就	-11.6022
遼東	-11.6022
楊子	-11.6024
留題	-11.6026
循良	-11.6028
不得與	-11.6029
百折	-11.6031
入京	-11.6031
鳥雀	-11.6033
軍機	-11.6033
浣花	-11.6036
蒼翠	-11.6037
非敢	-11.6037
横塘	-11.6038
爲之序	-11.6039
泉流	-11.6041
投誠	-11.6047
曲徑	-11.6048
康熙三十五年	-11.605
請余	-11.6055
己未	-11.6056
焜	-11.6058
籃輿	-11.6059
縊	-11.606
絰	-11.6061
今年春	-11.6061
絲絲	-11.6061
都察院	-11.6063
側室	-11.6063
吭	-11.6063
煒	-11.6064
邠	-11.6064
玻璃	-11.6065
灔	-11.6065
黄庭	-11.6066
置身	-11.6067
伊犂	-11.6068
沿革	-11.6069
詠漢玉	-11.607
潦倒	-11.607
文詞	-11.6071
乾元	-11.6072
未獲	-11.6074
紅杏	-11.6074
汗漫	-11.6079
撫綏	-11.608
不足信	-11.608
墓志	-11.6083
陸子	-11.6084
海鹽	-11.6088
扵是	-11.6091
竊謂	-11.6093
結搆	-11.6093
天下士	-11.6096
崖口	-11.6096
被旱	-11.61
飛龍	-11.6102
泥塗	-11.6107
清音	-11.6107
笑他	-11.6107
平蕪	-11.6108
報稱	-11.6111
吉甫	-11.6116
賢人	-11.6119
淮徐	-11.6119
儗	-11.612
舊例	-11.612
屬國	-11.6122
闚	-11.6122
瀰	-11.6123
清曉	-11.6124
隴其	-11.6124
狷	-11.6125
亡命	-11.6125
郯	-11.6126
燾	-11.6127
竢	-11.6127
仰天	-11.6127
修築	-11.6129
倜儻	-11.6129
鍳	-11.6129
毖	-11.613
𨳩	-11.613
舷	-11.613
你	-11.6131
曩者	-11.6131
百篇	-11.6133
俄頃	-11.6134
澤國	-11.6137
孰能	-11.6139
再世	-11.614
數百人	-11.6141
也或曰	-11.6143
進宫	-11.6144
說經	-11.6145
七首	-11.6147
明帝	-11.6147
千尋	-11.6152
載籍	-11.6152
可不謂	-11.6152
一帯	-11.6152
玉露	-11.6153
緑隂	-11.6153
屏山	-11.6154
座中	-11.6154
亭午	-11.6155
眼底	-11.6157
燕趙	-11.6159
般若	-11.6161
異端	-11.6165
究其	-11.6165
攤書	-11.6165
黄鶴	-11.6169
二十卷	-11.6171
佳節	-11.6171
山巔	-11.6172
半日	-11.6174
立功	-11.6174
夢魂	-11.6176
佛寺	-11.6179
家國	-11.6183
七十餘	-11.6184
厯代	-11.6186
青海	-11.6186
𣏌	-11.6187
虢	-11.6187
陽羡	-11.6188
逖	-11.619
諭戸部	-11.6191
詎可	-11.6192
齟齬	-11.6192
棱	-11.6193
頡	-11.6193
會同	-11.6194
刳	-11.6194
佺	-11.6194
先大夫	-11.6194
元帝	-11.6195
最多	-11.6195
蚊	-11.6195
芙蕖	-11.6195
飄然	-11.6196
一品夫人	-11.6197
壕	-11.6197
謖謖	-11.6197
壌	-11.6198
餅餌	-11.6198
秋草	-11.6202
滄波	-11.6203
静寄	-11.6204
蘇松	-11.6205
困於	-11.6206
彌望	-11.6207
霽景	-11.6207
統計	-11.621
稼軒	-11.6211
仲秋	-11.6212
百歲	-11.6215
江州	-11.6219
再過	-11.6219
光輝	-11.6223
法師	-11.6224
小憇	-11.6224
二律	-11.6225
馬頭	-11.6226
急難	-11.6226
問訊	-11.6232
致逺	-11.6234
安慶	-11.6236
碧山	-11.6237
本義	-11.6237
千家	-11.6242
國恩	-11.6243
迷離	-11.6243
終老	-11.6245
黯然	-11.6247
成災	-11.6247
紅顔	-11.6249
樓口號	-11.625
避世	-11.6252
橋下	-11.6255
而愈	-11.6256
林壑	-11.6256
蚌	-11.6257
箠	-11.6257
但知	-11.6258
海潮	-11.6259
桂花	-11.6259
韙	-11.626
咫	-11.6261
袷	-11.6262
竆	-11.6262
澂	-11.6262
澘	-11.6263
勗	-11.6264
宿草	-11.6264
落筆	-11.6264
厮	-11.6265
邪教	-11.6265
謝恩	-11.6266
蘇子瞻	-11.6267
樁	-11.6268
沈約	-11.627
向陽	-11.627
本府	-11.6276
而彌	-11.6277
無庸	-11.6278
孔雀	-11.6279
春愁	-11.6281
寒林	-11.6282
耕耤	-11.629
墨蹟	-11.629
絶壁	-11.6292
襄公	-11.6293
歲暮	-11.6294
翕然	-11.6295
老幼	-11.63
浮沉	-11.6302
廣州	-11.6303
三十八	-11.6306
乆矣	-11.631
别駕	-11.631
飢寒	-11.631
騷人	-11.6312
香草	-11.6312
親詣	-11.6313
白鳥	-11.6314
葉落	-11.6316
未覺	-11.6318
吟咏	-11.6318
低頭	-11.6319
康熙三十六年	-11.632
延陵	-11.632
獮	-11.6322
㕑	-11.6323
連宵	-11.6324
玻瓈	-11.6324
夐	-11.6326
其大者	-11.6327
只合	-11.6327
也嗟乎	-11.6327
伉	-11.6327
絶倫	-11.6328
箬	-11.6328
紫光閣	-11.6329
世宗憲皇帝	-11.6329
赫赫	-11.6329
搘	-11.633
唫	-11.633
石渠寳笈	-11.633
成是什	-11.633
跣	-11.6331
緹	-11.6332
管仲	-11.6332
蜩	-11.6334
隨意	-11.6335
罌	-11.6335
典籍	-11.6339
山西巡撫	-11.634
髙齋	-11.6342
黄梅	-11.6345
無形	-11.6345
題錢維城	-11.6348
可笑	-11.635
京國	-11.6351
火器	-11.6352
矣雖然	-11.6355
綫	-11.6358
相連	-11.6361
宛平	-11.6362
苗匪	-11.6362
遷延	-11.6362
梁溪	-11.6367
樹色	-11.637
絕句	-11.6371
松陵	-11.6373
碧雲寺	-11.6374
昭陵	-11.6375
神祠	-11.6375
待澤	-11.6376
守禦	-11.6376
名姓	-11.6379
蘅	-11.638
苦吟	-11.6386
嶷	-11.6387
奉詔	-11.639
胥吏	-11.6392
松濤	-11.6393
仰見	-11.6393
漕項	-11.6394
疫	-11.6394
雷霆	-11.6394
倬	-11.6398
殪	-11.6398
團團	-11.6398
廚	-11.6398
擯	-11.6398
緱	-11.6399
卽今	-11.6399
在案	-11.64
春曉	-11.6401
惄	-11.6401
絺	-11.6402
好事者	-11.6403
最憐	-11.6403
古之人	-11.6404
窑	-11.6407
髙峯	-11.6407
燈花	-11.6409
暮年	-11.6409
請命	-11.6412
詎止	-11.6414
士氣	-11.6414
苟非	-11.6418
青松	-11.6418
去冬	-11.6419
司寇	-11.642
權輿	-11.6424
桑乾	-11.6428
持論	-11.6429
盛德	-11.6431
慈母	-11.6436
㡬人	-11.644
書籍	-11.6443
直指	-11.6443
盛名	-11.6444
坐對	-11.6448
向隅	-11.6448
迦	-11.645
蕩蕩	-11.6453
寒梅	-11.6453
三面	-11.6455
偶題	-11.6458
砭	-11.6459
澍	-11.646
鏡光	-11.646
淛	-11.646
箕子	-11.6461
羿	-11.6461
巍巍	-11.6461
便可	-11.6462
崚嶒	-11.6463
槧	-11.6463
大端	-11.6464
悴	-11.6464
請假	-11.6464
薜	-11.6464
彬彬	-11.6465
􁎘	-11.6465
䧺	-11.6466
滔滔	-11.6466
固然	-11.6467
善本	-11.6467
逡廵	-11.6468
韓退之	-11.6469
泖	-11.647
節物	-11.647
阡陌	-11.6471
裨益	-11.6471
剛柔	-11.6473
憲臺	-11.6473
不妄	-11.6473
蒿目	-11.6474
禫	-11.6475
訪求	-11.6481
土木	-11.6482
窮經	-11.6482
豁免	-11.6482
太宰	-11.6484
條理	-11.6486
井田	-11.6493
厪念	-11.6493
發憤	-11.6496
不及見	-11.6497
魚鱗	-11.6497
手澤	-11.6499
徐子	-11.6505
詔獄	-11.6505
曽聞	-11.6507
之志也	-11.651
東巡	-11.6516
所遺	-11.6517
輕寒	-11.6518
綴景	-11.652
坐客	-11.6521
奪其	-11.6522
講席	-11.6525
益加	-11.6526
桴	-11.6527
土爾扈特	-11.6528
膏雨	-11.6531
淥	-11.6531
洙泗	-11.6532
瀧	-11.6532
殽	-11.6532
彤管	-11.6533
撝	-11.6533
姝	-11.6533
櫝	-11.6534
醬	-11.6534
未肯	-11.6534
澌	-11.6534
媛	-11.6536
雙雙	-11.6538
肱	-11.6538
襦	-11.6539
晴光	-11.6539
砥礪	-11.654
雞豚	-11.654
晡	-11.6541
穿鑿	-11.6543
泠然	-11.6543
管子	-11.6544
四季	-11.6544
放舟	-11.6545
教授	-11.6545
涿州	-11.6546
此巻	-11.6547
放晴	-11.6551
夾岸	-11.6551
香氣	-11.6552
樊川	-11.6552
朝朝	-11.6553
合肥	-11.6556
序註	-11.656
睢州	-11.656
人員	-11.6562
絶域	-11.6564
廣川	-11.6566
固宜	-11.6566
讀易	-11.6566
露布	-11.6566
衡門	-11.6568
不踰	-11.6571
問津	-11.6572
滋事	-11.6572
撰述	-11.6572
適當	-11.6572
壁上	-11.6573
陽縣	-11.6574
匹馬	-11.6579
曉發	-11.6579
楓林	-11.6579
悉心	-11.6582
載筆	-11.6583
虚名	-11.6583
指點	-11.6584
迤南	-11.6586
勑曰	-11.6591
賾	-11.6597
雲煙	-11.6597
安期	-11.6598
語錄	-11.6598
苫	-11.6599
榔	-11.6599
婿	-11.6599
黍禾	-11.66
十五里	-11.6601
隖	-11.6601
石塘	-11.6601
詎惟	-11.6602
殮	-11.6603
饕	-11.6603
嘈	-11.6605
魂魄	-11.6605
劚	-11.6606
文淵閣	-11.6607
岧嶤	-11.6607
酒旗	-11.6608
諜	-11.6608
道中作	-11.6608
枵	-11.6608
豸	-11.6608
虞氏	-11.6612
哉夫	-11.6613
日得雪	-11.6614
紅樹	-11.6614
羲皇	-11.6614
桑梓	-11.6615
曼殊	-11.6618
未消	-11.6618
車輪	-11.662
盤谷	-11.6621
校勘	-11.6622
吾祖	-11.6623
浮名	-11.6625
考古	-11.6628
示我	-11.6628
常侍	-11.6629
篤行	-11.6636
照耀	-11.6636
奉常	-11.6639
廿載	-11.664
先兄	-11.6642
可愛	-11.6644
不可知	-11.6645
浙省	-11.665
星衍	-11.665
重建	-11.6653
誌銘	-11.6655
廿二	-11.6659
射虎	-11.6659
記憶	-11.666
異哉	-11.6661
孰非	-11.6667
遲暮	-11.6668
營兵	-11.6669
擺	-11.6669
堪憐	-11.6669
熠	-11.6669
疚	-11.6669
皇父	-11.6671
閣學	-11.6671
北闕	-11.6671
号	-11.6672
荔支	-11.6675
酒杯	-11.6675
畛	-11.6675
醅	-11.6675
未遑	-11.6677
恭和御製	-11.6677
襆被	-11.6677
扳	-11.6677
雪霽	-11.6677
滇黔	-11.6678
未忘	-11.668
米芾	-11.6681
經畧	-11.6681
平章	-11.6682
高閣	-11.6682
民物	-11.6682
寒泉	-11.6683
丹徒	-11.6689
哀哉	-11.6689
僅得	-11.6689
溪堂	-11.6691
毛氏	-11.6691
追陪	-11.6692
春隂	-11.6693
悵然	-11.6694
朅來	-11.6696
一觴	-11.6697
論交	-11.6699
春帖子	-11.67
巖壑	-11.6701
屬吏	-11.6704
比似	-11.6708
躬耕	-11.6709
一貫	-11.6711
肅宗	-11.6713
来往	-11.6717
文忠	-11.6718
聖徳	-11.6722
者甚多	-11.6723
忘憂	-11.6724
鳳陽	-11.6727
從頭	-11.6728
劉郎	-11.673
温泉	-11.6733
授簡	-11.6735
微雪	-11.6738
司理	-11.6739
未審	-11.6739
和氣	-11.674
恫	-11.674
嘉樹	-11.674
星斗	-11.6741
攖	-11.6742
昭然	-11.6743
詩以紀事	-11.6743
繖	-11.6743
了無	-11.6744
鷙	-11.6744
术	-11.6745
萬歴	-11.6745
動静	-11.6746
纒綿	-11.6746
張玉書	-11.6746
桁	-11.6747
鼙	-11.6747
莱	-11.6748
有所思	-11.6748
菰蘆	-11.6748
紘	-11.6748
蛺蝶	-11.6749
撿	-11.675
盆梅	-11.6751
銷魂	-11.6753
芭蕉	-11.6753
廣厦	-11.6753
龍舟	-11.6754
逆奄	-11.6755
並令	-11.6757
馳諭	-11.6758
屢次	-11.6758
墓門	-11.676
白社	-11.6762
須知	-11.6762
振衣	-11.6763
司業	-11.6765
墓碑	-11.6766
節度	-11.6768
傾倒	-11.6768
關門	-11.6769
水源	-11.6769
詩巻	-11.677
招魂	-11.6772
誌事	-11.6773
安仁	-11.6773
奕葉	-11.6774
天啟	-11.6778
家藏	-11.678
篇什	-11.6782
文忠公	-11.6785
江潮	-11.6786
文苑	-11.6792
穀梁	-11.6793
晨起	-11.6796
指授	-11.6797
頒賜	-11.68
淸流	-11.6801
貓	-11.6805
班師	-11.6806
華林	-11.6806
埴	-11.6812
捎	-11.6812
神女	-11.6812
座上	-11.6812
卿士	-11.6813
鳧	-11.6813
窒	-11.6813
砦	-11.6813
簽	-11.6814
范蠡	-11.6815
挍	-11.6815
紈扇	-11.6815
馬首	-11.6816
﨑嶇	-11.6816
薫風	-11.6816
蘭臺	-11.6819
廐	-11.6821
董仲舒	-11.6822
乾清宫	-11.6824
碧空	-11.6824
抗拒	-11.6827
籽種	-11.6828
慙愧	-11.6833
所自出	-11.6833
蜀道	-11.6833
明皇	-11.6835
摛詞	-11.6836
劉峩	-11.6836
崇祀	-11.6837
雪滿	-11.6839
具區	-11.6839
勅諭	-11.6839
國計	-11.6843
南嶽	-11.6846
隴西	-11.6849
劄子	-11.685
奏疏	-11.685
來京	-11.6856
忠定	-11.6858
雪澤	-11.6863
起舞	-11.6864
家庭	-11.6868
游戲	-11.6868
却喜	-11.6868
無慮	-11.687
悲風	-11.6871
山之麓	-11.6872
慶典	-11.6872
柰何	-11.6873
何忍	-11.6875
友愛	-11.6876
廣韻	-11.6878
蓬瀛	-11.6878
歧	-11.6879
遺風	-11.6879
套	-11.6882
建炎	-11.6884
雝	-11.6884
菀	-11.6884
琨	-11.6884
永樂大典	-11.6884
峭蒨	-11.6886
諭大學士伊桑阿	-11.6886
刑名	-11.6887
徨	-11.6887
猊	-11.6887
淙淙	-11.6888
跽	-11.6889
飛鴻	-11.689
成均	-11.689
麈	-11.689
宵衣	-11.6893
安排	-11.6893
圜丘	-11.6894
禽獸	-11.6894
沈沈	-11.6895
兵革	-11.6896
縣治	-11.6897
繪圖	-11.6899
濁酒	-11.69
藝苑	-11.6901
堵築	-11.6903
必待	-11.6903
垂虹	-11.6907
雜著	-11.691
防守	-11.691
藏弆	-11.6912
固知	-11.6913
不講	-11.6914
掃除	-11.6919
白帝	-11.6921
斗酒	-11.6924
定鼎	-11.6928
封章	-11.6928
大敗	-11.6928
無那	-11.6932
紅袖	-11.6934
折節	-11.6938
宛在	-11.6941
夏侯	-11.6942
宫闕	-11.6942
發揮	-11.6942
因縁	-11.6944
二十九年	-11.6947
吏民	-11.6948
膾	-11.6951
五十八	-11.6952
孃	-11.6952
何礙	-11.6953
腆	-11.6955
癭	-11.6955
兜	-11.6956
棼	-11.6956
可嘉	-11.6956
姊妹	-11.6956
玦	-11.6957
枳	-11.6959
靨	-11.696
繫辭	-11.6961
競渡	-11.6961
塜	-11.6961
貝子	-11.6962
繒	-11.6962
萬邦	-11.6963
兠	-11.6964
蕤	-11.6964
羣小	-11.6965
女兒	-11.6967
稚子	-11.6967
忠誠	-11.6967
直廬	-11.6968
旁及	-11.697
之大者	-11.6971
沙門	-11.6972
道塲	-11.6972
題張宗蒼	-11.6973
泉源	-11.6975
燈下	-11.6976
軍興	-11.6979
北固	-11.6979
內閣	-11.6981
宣尼	-11.6982
於其間	-11.6985
新漲	-11.6985
兵備	-11.6989
昭明	-11.6992
綠楊	-11.6993
喟	-11.6993
鴻雁	-11.6996
停雲	-11.6996
殿試	-11.6997
昨朝	-11.6999
特賜	-11.7
早晚	-11.7001
逆首	-11.7005
毅然	-11.7005
葉葉	-11.7006
數十里	-11.7011
俄而	-11.7011
蔡氏	-11.7012
堯舜之	-11.7014
年三十	-11.7015
韶華	-11.7016
委曲	-11.7016
窮愁	-11.7017
駘	-11.7017
俾得	-11.7018
最著	-11.702
无咎	-11.7022
南村	-11.7025
少宰	-11.7025
母序	-11.7026
撻	-11.7026
鴿	-11.7028
謄	-11.7028
厤	-11.7029
罟	-11.703
璅	-11.703
暌	-11.7031
褰	-11.7031
棍	-11.7031
涕泗	-11.7032
罇	-11.7034
皐	-11.7034
蠟屐	-11.7035
光祿大夫	-11.7036
眉山	-11.7037
千巖	-11.7039
倚樓	-11.7041
尺幅	-11.7042
迴鑾	-11.7044
收成分數	-11.7044
禀報	-11.7045
福康安和琳	-11.7046
靈光	-11.705
伏波	-11.7052
分眀	-11.7059
邇年	-11.7062
分別	-11.7063
室口號	-11.7064
畫屏	-11.7064
花底	-11.7066
天顔	-11.7067
罕有	-11.7067
朝野	-11.7068
秘書	-11.7068
騁望	-11.7072
力學	-11.7075
須彌	-11.7076
粤東	-11.7077
教諭	-11.7079
連城	-11.708
清暇	-11.7081
斐	-11.7082
所欣	-11.7083
貽上	-11.7083
設立	-11.7085
翼日	-11.7086
尔部	-11.7088
以迄	-11.7089
六十四	-11.709
擬議	-11.7092
百畝	-11.7092
己巳	-11.7092
樹影	-11.7096
居庸	-11.7097
沍	-11.7098
醢	-11.7101
篝燈	-11.7102
薜蘿	-11.7102
婚嫁	-11.7103
籃	-11.7103
𠂻	-11.7105
仔	-11.7105
僨	-11.7105
初冬	-11.7106
侍讀學士	-11.7106
倪瓉	-11.7106
隼	-11.7106
髥	-11.7107
未艾	-11.7108
何況	-11.7108
疇咨	-11.7109
沴	-11.7109
稊	-11.7109
荆榛	-11.711
康樂	-11.7111
況復	-11.7111
煙雲	-11.7111
題鄒一桂	-11.7111
紫薇	-11.7113
守節	-11.7113
劉歆	-11.7113
雕漆	-11.7114
祈禱	-11.7114
額爾	-11.7115
橋邊	-11.7115
草廬	-11.7118
解衣	-11.7118
就近	-11.7119
始皇	-11.712
汲古	-11.7125
於後世	-11.7126
㨗音	-11.713
黄鵠	-11.7134
福州	-11.7134
三百六十	-11.7134
諱某	-11.7135
峭壁	-11.7136
災黎	-11.714
角巾	-11.714
路轉	-11.7141
成例	-11.7144
苦辛	-11.7145
雙闕	-11.7147
鹿門	-11.7147
二百里	-11.7151
諭議政大臣	-11.7155
縣丞	-11.7156
翠㣲	-11.7163
逢迎	-11.7163
倒影	-11.7165
良民	-11.7166
沱	-11.7166
之所在	-11.7167
涪	-11.7172
某某	-11.7173
鈕	-11.7173
腔	-11.7174
兪	-11.7174
堇	-11.7174
咄咄	-11.7174
鄱陽	-11.7175
懵	-11.7177
誑	-11.7177
鵰	-11.7178
玳瑁	-11.7178
蠭	-11.7179
皎皎	-11.7179
茗椀	-11.7179
無稽	-11.718
董邦達	-11.718
絞	-11.718
繕寫	-11.718
祝嘏	-11.718
衣服	-11.718
太子太保	-11.7181
翰林院檢討毛竒齡撰	-11.7181
副都御史	-11.7182
櫽括	-11.7183
欹枕	-11.7183
忡	-11.7183
渤海	-11.7183
贋	-11.7183
賈誼	-11.7185
秋霜	-11.7186
詳議	-11.7186
貿易	-11.7186
考亭	-11.7188
領兵	-11.7188
月二十九日	-11.719
瀛洲	-11.7197
縣界	-11.7201
寥落	-11.7201
節鉞	-11.7201
直隷	-11.7202
地畝	-11.7204
採藥	-11.7206
講筵	-11.7206
節制	-11.7207
偉人	-11.7209
數椽	-11.7209
先妣	-11.7211
鐘鼓	-11.7214
約束	-11.7215
層巒	-11.7215
栁條	-11.7218
十二卷	-11.7219
階下	-11.722
具疏	-11.7221
山桃	-11.7224
庭樹	-11.7226
運米	-11.7228
馬嘶	-11.7229
紅樓	-11.7233
音義	-11.7237
涇陽	-11.7237
非闗	-11.7238
終身不	-11.7238
錫山	-11.7239
長途	-11.7245
薄海	-11.7246
張衡	-11.7248
該督	-11.7248
湊	-11.725
亦不過	-11.725
豈足	-11.7251
湜	-11.7252
用前韻	-11.7253
貢士	-11.7254
茂才	-11.7255
帖括	-11.7255
手植	-11.7256
僧舍	-11.7256
謖	-11.7257
無害	-11.7257
八寸	-11.7259
暵	-11.7259
䝉古王公	-11.7262
追思	-11.7262
青陽	-11.7262
禁止	-11.7263
吾徒	-11.7266
法司	-11.7267
險阻	-11.7269
勢甚	-11.7269
趙州	-11.7279
宣徳	-11.7279
稍長	-11.7279
後一日	-11.728
吉士	-11.7284
雍容	-11.7287
朕躬	-11.7289
喪亂	-11.729
收穫	-11.7291
一點	-11.7295
故址	-11.7298
不染	-11.7298
綱常	-11.7303
耳食	-11.7304
隔岸	-11.7307
翼翼	-11.7308
先輩	-11.7308
哀辭	-11.7309
張照	-11.7311
樂業	-11.7314
就擒	-11.7314
議奏	-11.7315
感動	-11.7316
江陰	-11.7318
子三人	-11.7319
文定公	-11.732
嫻	-11.7322
祓	-11.7322
各異	-11.7323
媧	-11.7324
愽	-11.7325
藺	-11.7325
淬	-11.7325
制舉	-11.7327
肢	-11.7327
文林郎	-11.7327
琱	-11.7327
衎	-11.7328
坌	-11.733
趙北口	-11.733
面面	-11.7335
比部	-11.7338
節度使	-11.7338
松杉	-11.734
查勘	-11.7343
圃序	-11.7344
一瞬	-11.7346
宜暘	-11.7347
貴妃	-11.7347
寰區	-11.7349
可畏	-11.7358
賈生	-11.7359
諸矦	-11.736
歐公	-11.7364
駐防	-11.7365
筆削	-11.7368
金銀	-11.7368
修撰	-11.7368
惻然	-11.7369
芳樹	-11.7371
力田	-11.7371
虧空	-11.7372
靈隱	-11.7373
碧血	-11.7375
猶恐	-11.7377
海塘	-11.7382
清芬	-11.7383
性善	-11.7387
廷敬	-11.739
飛絮	-11.7391
五十餘	-11.7395
竊惟	-11.7395
伊誰	-11.7396
屈曲	-11.7396
蘭舟	-11.7397
吳楚	-11.7397
河梁	-11.7398
贛	-11.7398
䜛	-11.7399
爛熳	-11.7399
芊	-11.74
菜花	-11.74
覬	-11.74
奕奕	-11.7402
輞川	-11.7402
叠前韻	-11.7403
行誼	-11.7403
瀏	-11.7403
晨星	-11.7404
瓏	-11.7404
優劣	-11.7405
蕨	-11.7405
北面	-11.7407
重華宫	-11.7408
春暮	-11.7408
雩祭	-11.7411
其父母	-11.7414
其爲人	-11.7415
丙舍	-11.7415
無奈	-11.7419
問答	-11.7425
雕蟲	-11.7426
蟲魚	-11.7428
志衍	-11.7428
景福	-11.7431
陟降	-11.7432
主恩	-11.7432
合歡	-11.7432
烈士	-11.7439
傾心	-11.7447
保舉	-11.7452
停車	-11.7453
益勵	-11.7455
帶領	-11.7456
大塊	-11.7456
西樵	-11.746
天地間	-11.7463
春耕	-11.7467
乞降	-11.7467
熄	-11.7468
議叙	-11.7468
矣嗚呼	-11.7469
南雷	-11.7469
歘	-11.7469
胤	-11.7471
較前	-11.7473
漑	-11.7474
坏	-11.7475
螘	-11.7475
礫	-11.7476
九卿詹事科道	-11.7476
溽	-11.7477
漫漶	-11.7478
浮橋	-11.7478
簾櫳	-11.748
矯矯	-11.7481
釭	-11.7482
爆竹	-11.7482
忠恕	-11.7482
裊裊	-11.7483
冢宰	-11.7484
漢宫	-11.7486
屐齒	-11.7487
四句	-11.7487
夀序	-11.7489
感恩	-11.7493
譜牒	-11.7495
鳳翔	-11.7495
詰戎	-11.7496
徒步	-11.7499
攬景	-11.75
招集	-11.75
青葱	-11.7502
甲兵	-11.7503
中孚	-11.7503
桑田	-11.7503
户外	-11.7504
村居	-11.7504
松雪	-11.7505
聲律	-11.7506
鳩工	-11.7506
泗水	-11.7509
北郭	-11.7512
名儒	-11.7513
晚坐	-11.7516
河洛	-11.7518
第八	-11.7519
攝山	-11.752
士庶	-11.7521
小艇	-11.7524
門巷	-11.7529
征南	-11.7533
千七百	-11.7533
綠雲	-11.7534
遭遇	-11.7535
船頭	-11.7535
閨門	-11.7536
僇	-11.7538
五十六	-11.7539
藳	-11.7539
文集序	-11.7543
灑然	-11.7544
鉦	-11.7548
单	-11.755
揣摩	-11.755
不佞	-11.755
駸駸	-11.755
癯	-11.7551
奧	-11.7553
醯	-11.7553
蒜	-11.7553
橐	-11.7553
賙	-11.7553
滂沱	-11.7554
相機	-11.7554
衝寒	-11.7554
敺	-11.7554
獺	-11.7554
甘棠	-11.7556
蓊	-11.7557
必有所	-11.7557
杰	-11.7557
至於今	-11.756
早卒	-11.7561
汪洋	-11.7561
第九	-11.7563
大理寺	-11.757
吐蕃	-11.7571
伯父	-11.7572
錫宴	-11.7573
早稲	-11.7574
福康安等	-11.7578
仰視	-11.7581
服膺	-11.7582
方畧	-11.7588
列仙	-11.7589
大宛	-11.7589
千八百	-11.7591
貴陽	-11.7592
司命	-11.7593
曹氏	-11.7596
底用	-11.7597
積翠	-11.7598
千總	-11.7605
講官	-11.7606
暗香	-11.7607
召對	-11.7607
濃隂	-11.7608
飮食	-11.7611
郊祀	-11.7612
淮西	-11.7613
何煩	-11.7614
巨石	-11.7615
翩然	-11.7618
體物	-11.7619
三昧	-11.7619
佳音	-11.7621
海宇	-11.7623
洞口	-11.7626
陸機	-11.7626
求賢	-11.7626
薺	-11.7627
可否	-11.7627
呶	-11.7627
篔	-11.7628
固辭	-11.7628
歳月	-11.7628
考工記	-11.7629
十萬石	-11.7629
故郷	-11.7629
墓田	-11.7629
火樹	-11.763
琳瑯	-11.7631
舠	-11.7631
畚	-11.7631
菩提	-11.7631
鉄	-11.7632
邦國	-11.7632
瞠	-11.7633
彂	-11.7633
貽書	-11.7634
丹鉛	-11.7635
嵬	-11.7636
古昔	-11.7637
芰荷	-11.7638
雙飛	-11.7638
崕	-11.7638
終不能	-11.7638
典型	-11.7639
額勒登保	-11.764
徵士	-11.7641
萬騎	-11.7641
遊擊	-11.7643
叩門	-11.7644
家大人	-11.7645
呼童	-11.7645
虹橋	-11.7645
神聖	-11.7646
之爲人	-11.7655
抵掌	-11.7655
細細	-11.7659
十餘萬	-11.7664
烏啼	-11.7666
杜宇	-11.7666
山腰	-11.7667
董子	-11.7669
商量	-11.7669
千丈	-11.767
辛勤	-11.7671
了不	-11.7673
榴花	-11.7674
兵餉	-11.7675
五月初	-11.7677
瀚	-11.7685
阿誰	-11.7685
再疊	-11.7687
澄懐	-11.7688
家訓	-11.7692
七月初	-11.7694
鸚	-11.77
吾郷	-11.77
嘴	-11.7701
煇	-11.7701
薦紳	-11.7702
抺	-11.7702
廓然	-11.7703
燐	-11.7704
饜	-11.7704
奉直大夫	-11.7705
楯	-11.7705
老莊	-11.7706
籩	-11.7707
楠	-11.7707
堇浦	-11.7707
珣	-11.7707
勅諭諭	-11.7707
赤松	-11.7707
伏惟	-11.7708
酲	-11.7709
壼	-11.7709
瀘	-11.771
兩江總督	-11.771
筮仕	-11.771
擠	-11.771
蘉	-11.7711
戒滿	-11.7712
佽	-11.7712
蠲租	-11.7712
四十餘年	-11.7713
帑金	-11.7713
池館	-11.7719
掉頭	-11.7725
進講	-11.7727
奉皇太后	-11.7728
配享	-11.7728
宗社	-11.773
西郊	-11.7732
風騷	-11.7735
謫仙	-11.7739
家譜	-11.774
三十八年	-11.774
荆門	-11.7744
康强	-11.7748
畫眉	-11.7749
三百餘	-11.7749
懸崖	-11.7749
良久	-11.7751
于闐	-11.7751
危坐	-11.7751
忠肅	-11.7756
漸覺	-11.7758
圖二首	-11.776
十二首	-11.7761
四座	-11.7762
朱鳥	-11.7769
滋潤	-11.7771
我輩	-11.7772
策馬	-11.7775
吉林	-11.7777
莒	-11.778
儁	-11.778
澄觀	-11.7781
弔古	-11.7781
璉	-11.7782
踣	-11.7782
踔	-11.7782
騎驢	-11.7784
舲	-11.7784
江淹	-11.7784
胸臆	-11.7786
茘	-11.7786
舩	-11.7787
耋	-11.7787
毆	-11.7787
董邦逹	-11.7788
其謬	-11.7788
武英殿	-11.779
把總	-11.779
釋褐	-11.7791
檀弓	-11.7792
恤民	-11.7792
闗外	-11.7794
祖徳	-11.7795
纔過	-11.7795
豐臺	-11.7798
液池	-11.7799
于鱗	-11.7801
趨庭	-11.7803
分付	-11.7804
陳迹	-11.7804
尺素	-11.7804
英華	-11.7806
縱目	-11.7807
王勃	-11.7811
白骨	-11.7812
十倍	-11.7814
不拘	-11.7815
奕世	-11.782
阿母	-11.7821
離羣	-11.7821
孟冬	-11.7825
考試	-11.7825
考終	-11.7828
臨軒	-11.783
東風吹	-11.7831
羽毛	-11.7832
經略	-11.7832
回頭	-11.7834
嗟夫	-11.7835
豁然	-11.7837
嗜好	-11.7837
長虹	-11.7842
約略	-11.7845
玉衡	-11.7846
宫殿	-11.7847
將帥	-11.7848
短歌	-11.7851
西嶺	-11.7854
清宵	-11.7854
燕喜	-11.7855
紫翠	-11.7856
孔安國	-11.7858
匈奴	-11.786
𤨏	-11.7862
棒	-11.7862
桮	-11.7863
渺茫	-11.7863
嫠	-11.7864
确	-11.7864
涴	-11.7865
筯	-11.7865
坻	-11.7865
峒	-11.7866
濘	-11.7866
月中旬	-11.7868
謹按	-11.7868
提學	-11.7869
渌	-11.7869
奚必	-11.7869
熒熒	-11.7869
左氏傳	-11.7869
圏	-11.787
婪	-11.787
合計通省	-11.7877
羊腸	-11.7878
情形詩以誌事	-11.7878
恩澤	-11.7879
弗敢	-11.7882
嗟哉	-11.7883
歸途	-11.7884
節孝	-11.7884
雲梯	-11.7888
失守	-11.789
臨岐	-11.789
收藏	-11.7891
天下之大	-11.7893
傳餐	-11.7899
何䖏	-11.7901
緑樹	-11.7902
蕪城	-11.7906
五岳	-11.7907
年逾	-11.7911
楚辭	-11.7911
嗣昌	-11.7911
督兵	-11.7915
漢軍	-11.7917
里巷	-11.7917
規制	-11.7922
端倪	-11.7922
午熱	-11.7923
連綿	-11.7924
彌月	-11.793
揮手	-11.793
累世	-11.7931
隂晴	-11.7931
伏讀	-11.7933
天貺	-11.7933
于成龍	-11.7933
百千	-11.7935
夜郎	-11.7936
該部	-11.7936
橙	-11.7937
蝨	-11.7937
曛	-11.7938
膜	-11.7939
莞	-11.7941
秦皇	-11.7941
芾	-11.7941
驃騎	-11.7944
翺	-11.7946
崆峒	-11.7946
簏	-11.7947
曉晴	-11.7949
得雨詩以誌慰	-11.795
入閩	-11.7953
前軰	-11.7953
候補	-11.7954
指掌	-11.7958
嵗久	-11.7958
汝等	-11.7959
太華	-11.7961
􁇐	-11.7962
村落	-11.7963
遥遥	-11.797
羙人	-11.797
渾河	-11.7972
恰值	-11.7973
老友	-11.7978
按狀	-11.7984
子男	-11.7985
烈女	-11.7986
卜築	-11.7986
别號	-11.7989
黎庶	-11.7989
乗興	-11.7989
野史	-11.799
子皇帝	-11.7994
霏微	-11.7997
賢豪	-11.8
􁈍	-11.8004
太監	-11.8004
石罅	-11.8005
最宜	-11.8005
暾	-11.8009
逸少	-11.8013
百代	-11.8014
鴞	-11.8015
鶱	-11.8015
雹	-11.8018
比鄰	-11.8018
頡頏	-11.802
瘳	-11.8023
眎	-11.8023
唳	-11.8023
讖	-11.8024
娟娟	-11.8024
酌酒	-11.8024
匕	-11.8025
濁醪	-11.8025
悌	-11.8025
礦	-11.8026
𣙜	-11.8026
臙脂	-11.8027
欽哉	-11.8028
忘年	-11.8029
八音	-11.8029
入座	-11.8029
籞	-11.8029
元吉	-11.8031
某原	-11.8031
賊目	-11.8035
丹梯	-11.8037
邵子	-11.8037
龍尾	-11.8038
荔枝	-11.8039
氏族	-11.804
農諺	-11.8041
炎蒸	-11.8043
加封	-11.8045
晩節	-11.8046
隔嵗	-11.8048
途次	-11.8048
窮蹙	-11.8049
欽承	-11.8052
飄飄	-11.8057
筆札	-11.806
六十一年	-11.8061
羲經	-11.8062
其先世	-11.8064
嶺表	-11.8065
逾年	-11.8065
固陋	-11.8066
詳悉	-11.8067
治罪	-11.8068
船隻	-11.807
九齡	-11.8077
小吏	-11.8078
忠憲	-11.8079
庭院	-11.8081
竄入	-11.8083
所恃	-11.8086
軹	-11.8089
體例	-11.8093
稍慰	-11.8094
狂歌	-11.8095
罽	-11.8095
夾道	-11.8096
斯須	-11.8097
甑	-11.81
䆒	-11.81
慇	-11.8101
焙	-11.8101
羣賢	-11.8102
稜稜	-11.8102
□□	-11.8102
颶	-11.8104
及第	-11.8104
􁁬	-11.8104
達賴喇嘛	-11.8105
裵	-11.8105
僱	-11.8106
黻	-11.8106
雇	-11.8107
㐮	-11.8107
蘗	-11.8107
二十韻	-11.8108
七星	-11.8108
誾	-11.8109
霜露	-11.8109
寓目	-11.811
二千石	-11.811
陕	-11.8111
胭脂	-11.8111
癸夘	-11.8112
溧陽	-11.8113
尠	-11.8114
台州	-11.8115
狼籍	-11.8115
奉旨	-11.8116
㙮	-11.8117
麻城	-11.8118
義例	-11.812
弓矢	-11.8121
軒口號	-11.8129
屢豐	-11.8131
白傅	-11.8132
評事	-11.8133
輕隂	-11.8133
所需	-11.8135
前驅	-11.8135
雷塘	-11.8139
執筆	-11.8139
被淹	-11.814
轉移	-11.8144
固不可	-11.8146
不竭	-11.8149
博聞	-11.8149
最高	-11.8152
頓覺	-11.8154
騎射	-11.8154
河干	-11.816
不媿	-11.8161
殷殷	-11.8162
史局	-11.8162
歲歲	-11.8164
廟貌	-11.8167
依韻	-11.8167
蘭陵	-11.8169
幽棲	-11.817
把筆	-11.8171
玩物	-11.8174
兵戈	-11.8174
無一人	-11.8179
旦暮	-11.818
緑楊	-11.8182
㕓	-11.8183
酈道元	-11.8183
五百里	-11.8183
蘢	-11.8184
涿鹿	-11.8185
皁	-11.8185
悸	-11.8186
霞標	-11.8186
鋏	-11.8186
蹏	-11.8186
黝	-11.8187
𫀆	-11.8187
客舍	-11.8187
嫵	-11.8188
吕氏	-11.8189
爼豆	-11.8189
駐劄	-11.8189
彷	-11.819
殊恩	-11.819
哀樂	-11.819
屋角	-11.819
拂拭	-11.8191
叔孫	-11.8192
文恪公	-11.8194
肅肅	-11.82
竹鑪	-11.82
告竣	-11.82
山東河南	-11.8202
南陔	-11.8203
卷帙	-11.8203
朋黨	-11.8204
畢沅奏	-11.8206
遼陽	-11.8206
鄂輝	-11.8207
虞夏	-11.8208
几案	-11.8209
長麟	-11.821
蕭疎	-11.8213
全體	-11.8214
西直門外作	-11.8218
津門	-11.8219
昭示	-11.8219
旌門	-11.8221
天柱	-11.8223
數尺	-11.8224
截漕	-11.8225
功業	-11.8226
門下士	-11.8229
繼母	-11.8236
絶塞	-11.8236
吟詠	-11.8243
沿海	-11.8244
憶昨	-11.8245
困苦	-11.8247
里許	-11.8247
白鷗	-11.8248
推恩	-11.8248
滄江	-11.825
莫漫	-11.8255
礀	-11.8255
鄣	-11.8257
鵑	-11.8259
窳	-11.8261
百步	-11.8261
最喜	-11.8262
肫	-11.8265
喈	-11.8265
鑽	-11.8265
琤	-11.8266
支硎	-11.8267
綈	-11.8268
昃	-11.8268
瀬	-11.827
蔕	-11.827
披覽	-11.8272
黄鸝	-11.8273
摛藻	-11.8274
鑿空	-11.8276
廿八	-11.8276
轉覺	-11.8277
麥苖	-11.8277
靄靄	-11.8278
風濤	-11.8279
禁近	-11.828
忠愍	-11.828
延佇	-11.8281
神農	-11.8282
蠲賑	-11.8282
賞罰	-11.8284
家塾	-11.8284
貝葉	-11.8286
六月十	-11.8289
縣八分者	-11.8292
聖謨	-11.8292
金匱	-11.8294
利病	-11.8298
命駕	-11.8299
長庚	-11.8305
全盛	-11.8307
拈花	-11.8307
從事於	-11.8308
慰勞	-11.8311
登岸	-11.8317
地僻	-11.8317
婁東	-11.8317
瞻拜	-11.832
結廬	-11.8322
師儒	-11.8322
河渠	-11.8323
退食	-11.8323
震川	-11.8324
鼓舞	-11.8325
䝉恩	-11.8333
繼室	-11.8335
典試	-11.8335
少婦	-11.834
厝	-11.8341
鬆	-11.8342
嵗暮	-11.8343
詳加	-11.8343
淮陰	-11.8344
牛馬	-11.8344
斲	-11.8345
礱	-11.8348
鷗鷺	-11.8348
畎	-11.8349
穹窿	-11.8349
斸	-11.835
遺像	-11.835
鼯	-11.8351
淑氣	-11.8351
灌溉	-11.8351
仁孝	-11.8352
怍	-11.8352
肺腑	-11.8352
輜	-11.8352
天禄	-11.8353
醵	-11.8353
漓	-11.8354
紇	-11.8355
凖噶爾	-11.8355
艦	-11.8356
形骸	-11.8356
郭璞	-11.8356
鳴琴	-11.8356
永恬居	-11.8357
太室	-11.8357
校尉	-11.8361
抱膝	-11.8361
從兄	-11.8362
穆穆	-11.8366
虎頭	-11.8367
浙江巡撫	-11.8369
列聖	-11.837
二絶句	-11.8371
平津	-11.8372
孰知	-11.8373
平山堂	-11.8374
澄清	-11.8377
傑閣	-11.8377
捐納	-11.8379
瀚海	-11.838
申飭	-11.8384
東征	-11.8386
疏濬	-11.8387
月初旬	-11.8387
萬巻	-11.8394
海隅	-11.8394
清濁	-11.8394
丁香	-11.8398
髙堰	-11.84
流鶯	-11.8401
逆匪	-11.8404
底定	-11.8408
卒業	-11.8412
龍虎	-11.8415
學使者	-11.842
神禹	-11.8421
但覺	-11.8423
瞳	-11.8425
沂州	-11.8427
栁色	-11.8427
二千餘	-11.8428
坰	-11.8429
軻	-11.8429
碩人	-11.8429
数	-11.8429
爕	-11.8429
瞪	-11.843
倏	-11.843
悰	-11.8432
孤忠	-11.8433
秔	-11.8435
箧	-11.8436
聖駕	-11.8438
怦	-11.8438
跛	-11.8438
叠舊作韻	-11.8438
搃	-11.8438
桑榆	-11.8439
廛	-11.8439
翰苑	-11.8441
異代	-11.8441
忠賢	-11.8442
寉	-11.8442
嵩山	-11.8443
髙枕	-11.8445
上㳺	-11.8446
祈穀	-11.8449
迤西	-11.8449
歸葬	-11.845
繾念	-11.845
石栁鄧	-11.8451
荆南	-11.8451
率衆	-11.8451
府同知	-11.8451
芃芃	-11.8453
偃仰	-11.8456
盛徳	-11.8461
休沐	-11.8462
根株	-11.8464
泰州	-11.8464
啻	-11.8466
川原	-11.8466
衰病	-11.8469
二百年	-11.8478
湛露	-11.8478
省城於	-11.848
虚堂	-11.848
建業	-11.8481
渡口	-11.8481
講論	-11.8484
各有所	-11.8489
臘雪	-11.8491
拓本	-11.8493
颯然	-11.8495
鄉黨	-11.8498
王粲	-11.8502
賢否	-11.8502
獻賦	-11.8503
潺潺	-11.8509
陛見	-11.8512
㨿	-11.8514
咄	-11.8515
喪禮	-11.8516
𪷟	-11.8517
竚	-11.8517
曄	-11.8517
溝洫	-11.8518
枻	-11.8519
櫪	-11.852
檇李	-11.852
盤旋	-11.8521
縉紳	-11.8521
輿情	-11.8521
奭	-11.8521
纚	-11.8523
鱸魚	-11.8523
匄	-11.8524
欣逢	-11.8525
職掌	-11.8527
碑版	-11.8529
城闉	-11.8534
隄防	-11.8538
昊蒼	-11.8538
磐石	-11.8542
宴坐	-11.8551
峰頭	-11.8552
芝蘭	-11.8554
無日不	-11.856
慈恩	-11.8561
謁選	-11.8562
鳥啼	-11.8568
泫	-11.8571
耆定	-11.8572
永昌	-11.8572
萬籟	-11.8573
塞北	-11.8574
姑息	-11.8581
涿	-11.8584
淮南子	-11.8586
稿序	-11.8588
灌園	-11.8592
紛綸	-11.8593
離披	-11.8594
詩四首	-11.8595
御殿	-11.8596
炷	-11.8597
佻	-11.8598
戴記	-11.8598
迤北	-11.8598
澨	-11.8599
■	-11.8599
璵	-11.86
娣	-11.8601
壖	-11.8601
夤	-11.8602
灼灼	-11.8602
帘	-11.8603
豊	-11.8603
隗	-11.8604
槎枒	-11.8606
斡	-11.8606
悳州	-11.8606
臭味	-11.8607
粮	-11.8607
僮僕	-11.8608
饔	-11.8608
文肅公	-11.8609
奉政大夫	-11.8609
揷	-11.8609
者以其	-11.861
圖即用其韻	-11.8611
膚寸	-11.8611
建康	-11.8612
陳廷敬	-11.8614
題金廷標	-11.8617
渭水	-11.8617
尺牘	-11.8618
鐘磬	-11.8621
泊舟	-11.8624
嘉䕃	-11.8624
特簡	-11.8631
暑氣	-11.8633
長堤	-11.8634
雒陽	-11.8634
孝㢘	-11.8636
白駒	-11.8636
假令	-11.8637
討賊	-11.8638
泰伯	-11.8639
禮器	-11.8642
庶民	-11.8643
採蓮	-11.8648
落英	-11.8649
四十五年	-11.8652
呂氏	-11.8654
深淺	-11.8666
譬諸	-11.8666
墨池	-11.8667
耐可	-11.8671
變幻	-11.8675
探梅	-11.8677
僣	-11.8681
霅	-11.8682
蕞	-11.8684
煬	-11.8685
桕	-11.8685
奐	-11.8686
羯	-11.8686
碍	-11.8688
以副朕	-11.8688
愀	-11.8688
楝	-11.8688
鯁	-11.8688
剞劂	-11.8688
錡	-11.8688
顦顇	-11.8689
惋	-11.8689
婉孌	-11.869
無疑也	-11.8691
餬口	-11.8691
返照	-11.8691
矻矻	-11.8692
臠	-11.8692
祕書	-11.8693
舉於鄉	-11.8695
最盛	-11.8696
棨	-11.8697
性靈	-11.8698
参差	-11.8698
濤聲	-11.8699
烽烟	-11.87
貟	-11.87
滿院	-11.8701
漁洋	-11.8704
憑欄	-11.8705
州知州	-11.8705
錦瑟	-11.8705
飛騰	-11.8705
提舉	-11.8705
乾惕	-11.8707
七分有餘	-11.8708
被灾	-11.8712
金湯	-11.8712
投壺	-11.8716
黎元	-11.8717
學博	-11.8719
津梁	-11.872
碧波	-11.8723
金焦	-11.8724
抗疏	-11.8725
積習	-11.873
憲副	-11.8731
忘情	-11.8733
大夫士	-11.8733
収成	-11.8734
四十二年	-11.8736
仰體	-11.8736
登眺	-11.874
三十一年	-11.8742
幸逢	-11.8743
漕米	-11.8751
節儉	-11.8751
屏營	-11.8754
氷霜	-11.8756
十三經	-11.8756
向背	-11.8757
招隱	-11.876
宣帝	-11.8765
琉球	-11.8767
要務	-11.8767
痊	-11.8768
泱	-11.8768
氣質	-11.877
諗	-11.8772
豬	-11.8773
犒	-11.8773
悛	-11.8773
糗	-11.8774
輻輳	-11.8774
嶤	-11.8774
婪尾	-11.8775
捩	-11.8776
趺坐	-11.8776
員外郞	-11.8776
討源書屋	-11.8777
器械	-11.8778
纊	-11.8779
耶抑	-11.8785
毎嵗	-11.879
佐領	-11.8793
西陲	-11.8794
布政	-11.8795
碧峯	-11.8802
澹蕩	-11.8803
血氣	-11.8804
感歎	-11.8807
闔門	-11.8807
苟且	-11.8809
闗係	-11.881
誦讀	-11.8811
雨歇	-11.8812
燕雀	-11.8815
伏枕	-11.8817
外戚	-11.8819
榆林	-11.8822
旌表	-11.8825
寓齋	-11.8826
勒保	-11.883
眷佑	-11.8839
簡編	-11.8843
寧須	-11.8846
藕花	-11.8849
為之序	-11.8849
嬝	-11.885
站	-11.8853
張鵬翮	-11.8855
翰林院庶吉士	-11.8855
采蓮	-11.8856
牀頭	-11.8857
傚	-11.8858
苾	-11.8859
俳	-11.8861
嗅	-11.8861
祖妣	-11.8861
瓊島	-11.8861
各項	-11.8861
昴	-11.8861
顱	-11.8862
黄岡	-11.8863
翰林院檢討	-11.8864
攀龍	-11.8865
荳	-11.8865
駰	-11.8867
咿	-11.8867
滑稽	-11.8867
社稷壇	-11.8868
懃	-11.8869
敷陳	-11.8874
御史大夫	-11.8875
常雩	-11.8876
梵宇	-11.8878
衡陽	-11.8878
猿鶴	-11.8879
阮籍	-11.8882
盡瘁	-11.8882
山之陽	-11.8884
勉强	-11.8886
四十一年	-11.8888
訓練	-11.8889
有功於	-11.8891
契丹	-11.8894
境内	-11.8894
漫溢	-11.8895
予小子	-11.8896
建昌	-11.8899
乞假	-11.8901
夢醒	-11.8903
積貯	-11.8903
皇祖御	-11.8904
頭陀	-11.8908
厚齋	-11.8909
伏念	-11.8914
何湏	-11.8915
㡬暇	-11.8918
竟陵	-11.8919
部覆	-11.892
髙郵	-11.8922
所著書	-11.8923
軍旅	-11.8924
憺	-11.8926
援筆	-11.8928
嚴加	-11.8938
睡起	-11.8939
黼黻	-11.894
指㸃	-11.8941
告之曰	-11.8941
青郊	-11.8941
叵	-11.8943
墨妙	-11.8944
郭氏	-11.8946
嚇	-11.8947
巫山	-11.8947
煤	-11.8947
綈几	-11.8947
琥珀	-11.8949
洱	-11.8949
捕魚	-11.8949
頎	-11.895
舖	-11.8951
登陴	-11.8952
貞珉	-11.8952
匙	-11.8953
瀲	-11.8954
程朱之	-11.8955
猺	-11.8956
登第	-11.8957
騮	-11.8958
弇州	-11.8959
府州属	-11.8961
分巡	-11.8962
力戰	-11.8966
要領	-11.8966
片帆	-11.897
錯落	-11.8977
十洲	-11.8982
負薪	-11.8984
傅恒	-11.8984
含毫	-11.8988
班荆	-11.8994
萬戸	-11.8996
碧桃	-11.8996
後之君子	-11.8997
䕶軍	-11.8998
灌木	-11.9001
羲和	-11.9001
秋毫	-11.9006
耆老	-11.901
憂勤	-11.9014
懐柔	-11.9016
紬	-11.9028
迆	-11.9029
頳	-11.903
阿睦爾撒納	-11.9033
紿	-11.9035
凊	-11.9036
渫	-11.9036
繾綣	-11.9036
痕都斯坦	-11.9036
讋	-11.9037
篡	-11.9037
熖	-11.9037
惴惴	-11.9038
遹	-11.9038
沐浴	-11.9039
含經堂	-11.904
河道總督	-11.9042
窣	-11.9042
清舒山館	-11.9043
礼	-11.9043
别館	-11.9045
維舟	-11.9049
顚倒	-11.9049
馳赴	-11.9051
慚愧	-11.9052
丈餘	-11.9052
賞賚	-11.9053
貫穿	-11.9054
糧餉	-11.9055
觔	-11.9056
神鬼	-11.9059
翹首	-11.9063
明太祖	-11.9067
歉收	-11.9068
稽察	-11.9068
承乏	-11.9073
維艱	-11.9074
塔銘	-11.9075
紫禁	-11.9077
廟祀	-11.9089
按察	-11.9089
村村	-11.9093
萬斯年	-11.9094
幽谷	-11.9098
察吏	-11.9101
乞休	-11.9103
殘燈	-11.9104
精廬	-11.9105
不匱	-11.9113
枝枝	-11.9121
凸	-11.9124
彀	-11.9125
涓涓	-11.9126
元亮	-11.9127
勩	-11.9128
畯	-11.9128
忼慨	-11.9128
朙	-11.9128
雉堞	-11.9129
萋	-11.913
朞	-11.913
塑	-11.913
聖祖仁皇帝御製文第三集巻	-11.913
柿	-11.913
列女傳	-11.9131
勿替	-11.9131
揖讓	-11.9132
古文辭	-11.9132
莫怪	-11.9133
惘然	-11.9133
恂	-11.9134
棄置	-11.9135
潘岳	-11.9139
月三十日	-11.914
逆酋	-11.9141
繞砌	-11.9142
然諾	-11.9144
雨霽	-11.9146
籌辦	-11.9148
筩	-11.9148
壁壘	-11.9149
開創	-11.915
䘮亂	-11.9154
亭畔	-11.9156
沾衣	-11.9162
四十六年	-11.9165
養性	-11.9166
萬八千	-11.9166
仙源	-11.9171
􁇾	-11.9209
黽	-11.9209
臞	-11.9212
仝	-11.9215
籀	-11.9215
詼	-11.9215
嚬	-11.9217
蹌	-11.9217
嶄	-11.9219
滎	-11.922
悒	-11.9221
咳	-11.9299
殢	-11.9301
鞾	-11.9302
顓	-11.9304
鮓	-11.9304
荑	-11.9306
籤	-11.9306
醺	-11.9307
楗	-11.9308
閴	-11.9308
狃	-11.931
畤	-11.931
獰	-11.9311
熨	-11.9311
戱	-11.9312
徯	-11.9313
撇	-11.9314
溘	-11.9389
耉	-11.9393
軓	-11.9395
䆳	-11.9396
濼	-11.9396
餔	-11.9399
璁	-11.94
拿	-11.9401
吮	-11.9401
懴	-11.9402
牓	-11.9402
艫	-11.9403
膂	-11.9403
嶻	-11.9403
帔	-11.9404
恚	-11.9406
蝉	-11.9408
麰	-11.9409
嚳	-11.941
嵎	-11.941
鐃	-11.9484
郅	-11.9487
瞶	-11.9489
喑	-11.949
蝟	-11.9491
壟	-11.9491
抃	-11.9493
沄	-11.9494
忖	-11.9495
澠	-11.9497
怏	-11.9501
猱	-11.9501
埸	-11.9581
簣	-11.9582
瘡	-11.9582
曖	-11.9584
凟	-11.9585
箎	-11.9585
殲	-11.9585
迢	-11.9585
罾	-11.9586
哽	-11.9586
堊	-11.9586
診	-11.9587
脰	-11.9587
塚	-11.9589
褉	-11.9589
𣪚	-11.9589
哩	-11.9592
􁄭	-11.967
糲	-11.967
弃	-11.9671
瀼	-11.9675
茜	-11.9675
籓	-11.9676
斕	-11.9676
卬	-11.9677
淞	-11.9678
䍐	-11.968
㮄	-11.9681
磷	-11.9681
恁	-11.9682
䂓	-11.9683
圩	-11.9688
潺	-11.9688
卄	-11.9696
庳	-11.9768
濊	-11.9768
㽔	-11.9769
殻	-11.977
菟	-11.9773
缷	-11.9773
塩	-11.9774
鼂	-11.9775
猩	-11.9776
䌫	-11.9776
鰕	-11.9777
藿	-11.9777
猴	-11.9778
簋	-11.9781
篚	-11.9781
塤	-11.9782
顙	-11.9864
霤	-11.9865
薏	-11.9867
叉	-11.9867
虯	-11.9869
烱	-11.9869
槊	-11.987
皦	-11.987
瑋	-11.9871
𬞞	-11.9871
异	-11.9872
棻	-11.9873
樷	-11.9873
㩁	-11.9875
醮	-11.9876
揑	-11.9876
𥪡	-11.9877
哆	-11.9878
皈	-11.9955
鋐	-11.9958
喃	-11.9959
腎	-11.996
帬	-11.9963
袛	-11.9966
儋	-11.9966
渤	-11.9967
賅	-11.9967
摉	-11.9969
錬	-11.9969
纉	-11.9969
刲	-11.9972
剌	-11.9972
犍	-11.9973
斿	-11.9974
珉	-12.0059
㓗	-12.006
揉	-12.0062
鼈	-12.0062
撚	-12.0062
弈	-12.0064
芍	-12.0064
搦	-12.0064
庿	-12.0065
阬	-12.0066
喆	-12.0066
謇	-12.0067
蘩	-12.0068
霹	-12.0072
埤	-12.0156
暁	-12.0158
珎	-12.0161
跼	-12.0161
瓿	-12.0162
匳	-12.0163
痴	-12.0165
鵶	-12.0166
晻	-12.0167
蕖	-12.0167
狙	-12.017
鑲	-12.0173
槀	-12.026
爆	-12.026
戺	-12.026
胞	-12.0261
芡	-12.0262
飣	-12.0262
椶	-12.0263
蓉	-12.0263
軿	-12.0263
撈	-12.0264
靦	-12.0264
趯	-12.0265
虺	-12.0266
湓	-12.0266
螻	-12.0268
螳	-12.0268
鏁	-12.0269
洧	-12.0271
諴	-12.0272
漱	-12.0273
腋	-12.0273
嘎	-12.0347
闉	-12.035
蔀	-12.0351
辠	-12.0354
芰	-12.0357
窱	-12.0359
貤	-12.036
灞	-12.036
瘢	-12.0364
饞	-12.0364
鬥	-12.0365
寗	-12.0366
霎	-12.0366
埠	-12.0367
嗁	-12.0369
脇	-12.0369
慾	-12.0369
酤	-12.0371
蜡	-12.0373
佶	-12.0373
珏	-12.0373
娑	-12.046
慊	-12.0462
堙	-12.0463
􁑻	-12.0465
㬪	-12.0466
簑	-12.0466
撡	-12.0466
漭	-12.0466
稳	-12.0466
儈	-12.0467
衘	-12.0467
匾	-12.0468
嚶	-12.0468
姸	-12.047
煨	-12.0471
鍚	-12.0472
訌	-12.0473
巓	-12.0474
呢	-12.0476
衽	-12.0562
茀	-12.0564
榱	-12.0565
梔	-12.0568
勖	-12.0568
䔩	-12.0568
樅	-12.057
棖	-12.0571
縝	-12.0572
蠕	-12.0572
芙	-12.0574
灧	-12.0574
呀	-12.0575
朏	-12.0576
彜	-12.0576
磐	-12.0644
坫	-12.0648
昱	-12.0666
塏	-12.0668
蹻	-12.067
衒	-12.0675
猨	-12.0675
櫜	-12.0675
蓽	-12.0676
恝	-12.0676
痼	-12.0676
唼	-12.0677
遝	-12.0679
隤	-12.0682
瑁	-12.0688
蝀	-12.0774
酺	-12.0778
幬	-12.0779
跖	-12.078
鋩	-12.078
捃	-12.0781
僰	-12.0782
悮	-12.0785
麄	-12.0785
侏	-12.0786
肪	-12.0786
禇	-12.0787
鎛	-12.0787
酡	-12.0788
晾	-12.0789
呦	-12.079
暱	-12.0878
僂	-12.088
絆	-12.0881
駴	-12.0881
澡	-12.0882
笵	-12.0883
腮	-12.0884
縋	-12.0885
菼	-12.0885
欎	-12.0886
噤	-12.0886
噱	-12.0887
卣	-12.0887
鍔	-12.0888
匜	-12.0888
舵	-12.0888
緻	-12.0889
喔	-12.089
顫	-12.0891
糅	-12.0892
鉗	-12.0892
霶	-12.0898
裛	-12.0985
鸝	-12.0986
攲	-12.0988
胙	-12.0988
莠	-12.0989
歗	-12.099
揄	-12.0991
嗚	-12.0992
拗	-12.0992
姨	-12.0993
崦	-12.0994
憬	-12.0998
淼	-12.0999
炮	-12.1
澎	-12.1002
砰	-12.1099
嵒	-12.1099
糈	-12.1101
洶	-12.1102
竁	-12.1103
搢	-12.1103
樟	-12.1103
緖	-12.1104
獠	-12.1105
褪	-12.1105
敇	-12.1106
腫	-12.1107
﨑	-12.1107
券	-12.1108
桒	-12.1109
磊	-12.1126
𦙍	-12.1203
粢	-12.121
㘭	-12.1211
賺	-12.1211
臍	-12.1211
姹	-12.1212
吊	-12.1212
捄	-12.1212
祼	-12.1212
埓	-12.1213
儓	-12.1218
昶	-12.1221
𬈑	-12.1223
耤	-12.1288
咒	-12.1306
􁀇	-12.1313
陔	-12.1314
彘	-12.1316
奡	-12.132
𦕈	-12.1322
朧	-12.1322
揩	-12.1326
骼	-12.1326
牂	-12.1326
錘	-12.1326
蓐	-12.1327
褎	-12.1327
阯	-12.1327
瀠	-12.1328
鎧	-12.1329
􁧹	-12.133
迕	-12.1331
亰	-12.1331
狸	-12.1331
縴	-12.1332
冣	-12.1339
晌	-12.1395
甬	-12.1406
痘	-12.1425
褶	-12.143
柟	-12.143
㶚	-12.143
怛	-12.143
糺	-12.1432
嗛	-12.1433
緦	-12.1434
呱	-12.1435
赧	-12.1435
霂	-12.1435
貔	-12.1436
􁋚	-12.1436
犇	-12.1436
嬛	-12.1436
蹂	-12.1437
邅	-12.1438
摐	-12.1438
眚	-12.1438
爱	-12.1439
瘝	-12.1439
偓	-12.1439
綍	-12.1439
魴	-12.1448
刖	-12.145
夬	-12.1533
眈	-12.1542
啁	-12.1543
濓	-12.1546
郛	-12.1546
錚	-12.1547
禔	-12.1548
蒋	-12.1548
嫺	-12.1549
垞	-12.1549
隲	-12.1551
沬	-12.1552
灕	-12.1553
旐	-12.1553
菅	-12.1554
搤	-12.1554
躪	-12.1557
罙	-12.1558
抜	-12.1559
鄘	-12.1649
汭	-12.1655
徊	-12.1658
涘	-12.1661
唶	-12.1662
蕾	-12.1663
鹺	-12.1663
鞶	-12.1663
擿	-12.1664
崟	-12.1665
鞮	-12.1665
噲	-12.1665
欷	-12.1665
蜺	-12.1666
暍	-12.1666
喁	-12.1666
紡	-12.1666
跑	-12.1667
屩	-12.1667
搓	-12.1667
齕	-12.1669
葄	-12.1669
瞀	-12.167
㮣	-12.1672
輞	-12.1676
褥	-12.1681
唁	-12.1775
昵	-12.1776
緼	-12.1777
螟	-12.1777
醑	-12.1778
槲	-12.1778
圈	-12.178
瑗	-12.1781
隃	-12.1782
瀟	-12.1783
嵋	-12.1785
訕	-12.1786
㳫	-12.1788
􁔷	-12.1788
獞	-12.1788
嘅	-12.179
溲	-12.1892
瘵	-12.1892
殳	-12.1893
鬖	-12.1893
湻	-12.1893
蠆	-12.1894
努	-12.1894
汧	-12.1896
刓	-12.1897
芮	-12.1897
鏐	-12.1897
涑	-12.1897
瑀	-12.1899
囓	-12.19
鯖	-12.1903
詛	-12.1903
纁	-12.1903
鄢	-12.1903
韘	-12.1982
烺	-12.2007
岵	-12.2008
酢	-12.2009
皜	-12.2009
禳	-12.201
豨	-12.2011
鬘	-12.2013
賻	-12.2014
貉	-12.2014
轢	-12.2014
豓	-12.2014
滉	-12.2015
韉	-12.2016
岔	-12.2016
紼	-12.2018
檮	-12.2019
煢	-12.202
麐	-12.202
倅	-12.202
鬐	-12.2021
茄	-12.2022
瑄	-12.2022
譟	-12.2023
喩	-12.2026
𢷬	-12.2026
樺	-12.2033
赬	-12.2136
阼	-12.2137
鷖	-12.2138
漙	-12.2138
茒	-12.2139
皛	-12.2139
粃	-12.2139
洑	-12.2139
扛	-12.2142
蜷	-12.2144
嚕	-12.2144
杙	-12.2144
噓	-12.2146
辧	-12.2146
嫣	-12.224
喋	-12.2251
咍	-12.2252
渣	-12.2252
誶	-12.2254
沜	-12.2254
睎	-12.2254
棫	-12.2255
黌	-12.2257
刎	-12.2258
巇	-12.2259
玅	-12.226
鰣	-12.226
瓞	-12.226
鸎	-12.2261
湼	-12.2261
睪	-12.2261
搭	-12.2267
鬴	-12.2269
翆	-12.2271
昕	-12.236
翌	-12.2375
礬	-12.2376
眙	-12.2378
酧	-12.2381
徕	-12.2381
􁂜	-12.2383
礲	-12.2384
崒	-12.2384
憒	-12.2385
琖	-12.2385
厖	-12.2385
瞞	-12.2387
鼕	-12.2387
韝	-12.2387
跬	-12.2497
旰	-12.2504
溱	-12.2504
倔	-12.2506
陁	-12.2506
䙝	-12.2506
弢	-12.2507
瞢	-12.2507
萹	-12.2507
鋸	-12.2508
兗	-12.2508
礮	-12.2509
讃	-12.2509
甆	-12.2509
簞	-12.251
满	-12.251
磽	-12.2511
醻	-12.2513
瓮	-12.2514
跟	-12.2515
埔	-12.2519
杠	-12.252
渢	-12.2523
邶	-12.2627
聃	-12.2628
髽	-12.2628
㬉	-12.2631
蠖	-12.2632
釧	-12.2633
瞋	-12.2633
贔	-12.2634
翾	-12.2637
殛	-12.2638
畋	-12.2639
屡	-12.2639
咋	-12.2639
岏	-12.2639
誹	-12.2641
珅	-12.2645
扑	-12.2755
黟	-12.2757
噍	-12.276
灺	-12.2761
闓	-12.2762
窔	-12.2762
饁	-12.2762
褊	-12.2763
笮	-12.2764
螽	-12.2765
籛	-12.2766
崗	-12.2767
輊	-12.2767
孛	-12.2768
慱	-12.2768
鞚	-12.277
郗	-12.2776
瓉	-12.288
矇	-12.2883
澑	-12.2884
嶴	-12.2885
螫	-12.2886
焯	-12.2887
吃	-12.2889
趼	-12.2892
騏	-12.2893
呪	-12.2896
謭	-12.2896
脗	-12.2896
飡	-12.2896
㛰	-12.2896
褭	-12.2897
闞	-12.2897
忼	-12.2898
翀	-12.2898
攣	-12.2898
剴	-12.2899
􁀁	-12.2899
癘	-12.29
琶	-12.2902
熬	-12.2903
淅	-12.298
鍰	-12.3013
麒	-12.3016
濰	-12.3016
蕡	-12.3017
剜	-12.3018
劘	-12.3019
矞	-12.3019
刄	-12.302
彗	-12.3021
跗	-12.3022
諂	-12.3022
豺	-12.3023
泡	-12.3024
瘧	-12.3024
觶	-12.3025
璟	-12.3026
洫	-12.3026
朓	-12.3027
浃	-12.303
饘	-12.3032
剗	-12.3033
黿	-12.3152
訇	-12.3155
扢	-12.3156
愒	-12.3156
褫	-12.3156
昜	-12.3156
咻	-12.3157
絫	-12.3158
禺	-12.3158
寍	-12.316
毯	-12.316
蔟	-12.3163
擡	-12.3163
昺	-12.3163
菓	-12.3164
矰	-12.3164
祟	-12.3165
臾	-12.3165
捋	-12.3165
鹹	-12.3166
傀	-12.3277
戔	-12.3288
鍋	-12.3288
汞	-12.3289
筥	-12.3289
莧	-12.329
蠣	-12.329
蛛	-12.3291
晼	-12.3292
慬	-12.3292
苹	-12.3293
兊	-12.3293
讕	-12.3294
抝	-12.3295
餱	-12.3295
襞	-12.3296
橡	-12.3296
卌	-12.3297
欿	-12.3298
髹	-12.3298
膊	-12.3299
牣	-12.33
楼	-12.33
嵯	-12.3305
斁	-12.3402
玕	-12.3418
鄮	-12.3419
宓	-12.342
躚	-12.3421
瓘	-12.3423
篘	-12.3426
隩	-12.3426
疢	-12.3427
敭	-12.3429
耡	-12.3429
㯶	-12.3429
噭	-12.343
􁑀	-12.3431
叜	-12.3431
鞬	-12.3431
狠	-12.3431
癉	-12.3431
鴂	-12.3432
嘒	-12.3432
鎪	-12.3432
凰	-12.3433
腊	-12.3433
鄊	-12.3434
崿	-12.3435
哇	-12.3436
癰	-12.3437
挖	-12.3446
爓	-12.3559
擗	-12.3561
羶	-12.3562
汊	-12.3566
蟇	-12.3567
岌	-12.3567
罣	-12.3568
歕	-12.3569
􁚳	-12.357
氾	-12.357
嗾	-12.3571
栅	-12.3571
鷂	-12.3571
璐	-12.3572
攙	-12.3572
鼪	-12.3572
澶	-12.3572
唏	-12.3575
惨	-12.3576
拽	-12.3578
㠀	-12.3578
鯀	-12.3583
丱	-12.3704
辤	-12.3704
槌	-12.3706
鄠	-12.3706
卮	-12.3708
袵	-12.3709
糕	-12.371
沲	-12.371
璆	-12.371
蹐	-12.3711
銛	-12.3711
媼	-12.3715
駞	-12.3715
詵	-12.3716
侗	-12.3718
翃	-12.3719
愫	-12.372
檥	-12.372
愓	-12.3722
擄	-12.3723
墠	-12.3847
洙	-12.3849
贗	-12.3849
紲	-12.3849
痺	-12.385
湎	-12.385
偎	-12.3851
惸	-12.3852
鏖	-12.3853
鑚	-12.3853
畇	-12.3854
鴒	-12.3854
樛	-12.3854
瘖	-12.3854
楩	-12.3855
禡	-12.3855
裸	-12.3855
羆	-12.3855
歔	-12.3855
掦	-12.3856
摠	-12.3857
暦	-12.3857
摻	-12.3857
騅	-12.3858
椅	-12.3858
閧	-12.3858
蠺	-12.3859
蹷	-12.386
珀	-12.3861
䬃	-12.3863
􁴆	-12.3864
饟	-12.3991
􁄢	-12.3993
葯	-12.3993
醲	-12.3996
菉	-12.3997
嬖	-12.3997
袞	-12.3998
屭	-12.3998
䑛	-12.3998
麞	-12.3999
滲	-12.3999
絨	-12.4
玖	-12.4001
諑	-12.4001
咮	-12.4001
孜	-12.4001
匭	-12.4004
蔆	-12.4005
秒	-12.4015
隍	-12.4116
姤	-12.4133
漈	-12.4134
枌	-12.4136
噎	-12.4139
􁀼	-12.4142
橢	-12.4142
柈	-12.4143
鼃	-12.4143
顗	-12.4143
絙	-12.4143
鱣	-12.4143
鰓	-12.4143
鋋	-12.4144
偫	-12.4144
唄	-12.4144
袋	-12.4144
洸	-12.4144
郄	-12.4145
魅	-12.4145
姫	-12.4146
猪	-12.4146
櫩	-12.4147
諼	-12.4147
懺	-12.4149
搰	-12.4149
嫰	-12.415
輳	-12.415
咤	-12.4154
睽	-12.428
玲	-12.4286
揲	-12.4287
慼	-12.4287
浯	-12.4289
􁀫	-12.429
撙	-12.429
衂	-12.4291
曈	-12.4291
闍	-12.4291
銃	-12.4291
糖	-12.4292
騈	-12.4292
𣑽	-12.4294
垤	-12.4294
慴	-12.4295
韈	-12.4296
症	-12.4296
澥	-12.4296
􁅟	-12.4298
囅	-12.4298
莵	-12.4299
㗋	-12.4303
猫	-12.4305
䟎	-12.4305
鶡	-12.4305
鞲	-12.4309
狆	-12.4312
瞬	-12.4404
粵	-12.443
眯	-12.4434
豗	-12.444
籹	-12.444
袝	-12.4441
芼	-12.4441
倕	-12.4441
爝	-12.4443
澱	-12.4444
熇	-12.4445
焕	-12.4445
捻	-12.4446
剸	-12.4446
鐍	-12.4447
趋	-12.4447
簉	-12.4447
譖	-12.4448
饍	-12.445
嘹	-12.445
𢡟	-12.4451
嶢	-12.4451
麅	-12.4451
􁇒	-12.4451
砑	-12.4452
詿	-12.4452
姆	-12.4454
鱷	-12.4454
煟	-12.4456
垻	-12.4586
嶓	-12.4588
枲	-12.4591
赩	-12.4591
尻	-12.4592
壝	-12.4593
偸	-12.4596
呻	-12.4598
蘀	-12.4598
拷	-12.4599
蹠	-12.46
殂	-12.4601
籒	-12.4601
忺	-12.4601
摽	-12.4603
𨗳	-12.4603
秕	-12.4603
适	-12.4603
甿	-12.4603
礧	-12.4604
堉	-12.4604
馡	-12.4604
傔	-12.4605
簌	-12.4605
凴	-12.4607
湟	-12.4609
娠	-12.4745
黥	-12.4747
蜑	-12.475
鍤	-12.4752
蜻	-12.4753
㫋	-12.4753
噦	-12.4753
袐	-12.4754
旴	-12.4754
倨	-12.4755
醍	-12.4755
􁌫	-12.4756
轔	-12.4757
汍	-12.4759
帋	-12.476
躐	-12.476
鎰	-12.476
􁯳	-12.4762
挨	-12.4762
丫	-12.4763
栞	-12.4764
縀	-12.4764
躗	-12.4765
硤	-12.477
閠	-12.4903
𬎼	-12.4906
繻	-12.4907
㳂	-12.4907
轖	-12.4909
鈺	-12.491
眢	-12.4911
靴	-12.4911
葠	-12.4912
嬈	-12.4912
怎	-12.4913
抂	-12.4913
罋	-12.4914
滏	-12.4914
旉	-12.4914
垜	-12.4915
鎸	-12.4915
衺	-12.4916
鵾	-12.4916
蠏	-12.4916
骫	-12.4917
㝱	-12.4918
檟	-12.4919
踽	-12.492
莩	-12.4926
夗	-12.4932
聱	-12.5063
菡	-12.5066
汐	-12.5066
娜	-12.5069
珙	-12.5069
濞	-12.5069
詖	-12.507
凾	-12.5071
鐶	-12.5071
𬒮	-12.5071
郃	-12.5072
陴	-12.5072
偘	-12.5073
匼	-12.5073
㞕	-12.5073
壎	-12.5074
霡	-12.5075
淦	-12.5075
摵	-12.5075
萟	-12.5078
邴	-12.5078
嚅	-12.5078
驁	-12.5079
晒	-12.5079
腑	-12.5079
恉	-12.5079
蛉	-12.5082
鬧	-12.5083
鄜	-12.5087
胝	-12.5087
汩	-12.509
翛	-12.5214
毶	-12.523
輛	-12.5232
鯈	-12.5236
眥	-12.5238
篴	-12.524
徠	-12.524
皚	-12.524
秬	-12.5245
嶭	-12.5245
笨	-12.5246
勰	-12.5246
劌	-12.5246
鑼	-12.5248
烜	-12.525
裀	-12.5251
剙	-12.5251
関	-12.5257
砢	-12.5345
銑	-12.5395
宧	-12.5399
泅	-12.54
枹	-12.5401
耔	-12.5402
璈	-12.5403
訢	-12.5403
爺	-12.5404
坱	-12.5404
襮	-12.5405
箝	-12.5405
戅	-12.5405
掎	-12.5405
蟫	-12.5406
凈	-12.5407
潏	-12.5407
􁌆	-12.5408
嵂	-12.5408
眡	-12.5409
瓻	-12.5409
觝	-12.5409
帀	-12.541
瑯	-12.541
擥	-12.5411
𥙿	-12.5411
囈	-12.5411
謌	-12.5412
琲	-12.5412
櫃	-12.5413
碪	-12.5413
崙	-12.5416
氲	-12.5418
匈	-12.5567
韁	-12.5568
銍	-12.5571
蜮	-12.5572
纇	-12.5574
鴆	-12.5574
繐	-12.5575
硎	-12.5575
瀁	-12.5575
榘	-12.5575
甪	-12.5576
玫	-12.5577
佘	-12.5577
鏑	-12.5577
籯	-12.5577
碕	-12.5577
憝	-12.5577
蒱	-12.5578
斆	-12.5578
枷	-12.5578
莪	-12.558
碌	-12.558
㙜	-12.5581
蠓	-12.5581
䲭	-12.5581
騃	-12.5583
剋	-12.5585
伇	-12.5587
恙	-12.5698
扮	-12.5741
穨	-12.5743
憙	-12.5743
潨	-12.5744
筓	-12.5744
芘	-12.5746
鍜	-12.5747
摰	-12.5747
縲	-12.5748
璩	-12.5748
姧	-12.5748
餖	-12.5748
磋	-12.575
綣	-12.575
跕	-12.575
蠃	-12.5751
􁆖	-12.5752
郫	-12.5752
媳	-12.5753
篛	-12.5753
覉	-12.5754
噏	-12.5755
耰	-12.5756
刱	-12.5757
䳌	-12.5758
咱	-12.5759
觱	-12.576
蜕	-12.5761
鄆	-12.5913
龐	-12.5915
掊	-12.5915
鍥	-12.592
瀌	-12.5921
歈	-12.5921
裼	-12.5922
敍	-12.5923
隮	-12.5923
漩	-12.5924
翣	-12.5924
靉	-12.5924
鼾	-12.5924
嫚	-12.5925
䰅	-12.5926
鷇	-12.5926
勣	-12.5926
洼	-12.5926
酎	-12.5926
懟	-12.5927
蹀	-12.5927
䛕	-12.5928
冏	-12.5929
杌	-12.593
砉	-12.593
鵩	-12.5931
盦	-12.5931
秖	-12.5932
磈	-12.5933
㴻	-12.5935
鷟	-12.5939
悻	-12.5939
瞍	-12.6087
縢	-12.609
窯	-12.609
寀	-12.6092
櫳	-12.6093
穽	-12.6095
襜	-12.6096
綮	-12.6097
𢋫	-12.6098
哢	-12.6098
嗒	-12.6098
捴	-12.6099
􁎐	-12.6101
嘷	-12.6102
蜿	-12.6102
鄚	-12.6103
睞	-12.6104
冄	-12.6106
嶪	-12.6107
捶	-12.6107
颼	-12.6108
隟	-12.6108
踠	-12.611
騧	-12.611
橛	-12.6272
撟	-12.6276
椰	-12.6277
乹	-12.6277
猖	-12.6277
輾	-12.6278
脞	-12.6278
稌	-12.6279
獷	-12.6279
朘	-12.628
呿	-12.628
簴	-12.6282
媕	-12.6282
鯽	-12.6284
繰	-12.6284
篾	-12.6284
腓	-12.6284
虔	-12.6284
姢	-12.6285
閾	-12.6285
哄	-12.6285
裠	-12.6286
馱	-12.6287
霨	-12.6287
鮭	-12.6287
硠	-12.6288
頊	-12.6288
覼	-12.6288
縧	-12.6288
縆	-12.6288
肋	-12.629
漯	-12.6291
簍	-12.6293
蠛	-12.6293
綯	-12.6293
妤	-12.6296
帟	-12.6296
憮	-12.6443
嗃	-12.6451
罝	-12.6458
鋮	-12.6461
媲	-12.6461
詗	-12.6463
囉	-12.6464
稡	-12.6464
孀	-12.6464
陘	-12.6465
犵	-12.6466
傎	-12.6466
陿	-12.6468
邗	-12.6468
獘	-12.6469
茝	-12.6469
矍	-12.6469
藟	-12.6469
忉	-12.647
鷃	-12.647
篪	-12.6471
洹	-12.6471
幰	-12.6471
霉	-12.6471
鷦	-12.6472
踧	-12.6473
賨	-12.6473
葷	-12.6474
蟒	-12.6475
絅	-12.6475
暹	-12.6475
媮	-12.6475
􁁜	-12.6477
嘐	-12.6479
盬	-12.6482
鉶	-12.6487
洨	-12.6645
蟈	-12.6647
駉	-12.6647
瓴	-12.6647
紕	-12.6648
仡	-12.6651
愳	-12.6652
豉	-12.6655
孥	-12.6655
晜	-12.6655
疥	-12.6655
􁃊	-12.6655
駔	-12.6656
羚	-12.6656
菹	-12.6656
哮	-12.6656
躄	-12.6657
韎	-12.6657
蹉	-12.6657
邐	-12.6657
琇	-12.6657
綎	-12.6658
懣	-12.6658
淝	-12.6658
鎩	-12.6659
宙	-12.6659
鮚	-12.666
鵜	-12.666
螿	-12.666
銼	-12.666
鳷	-12.666
埂	-12.6661
綳	-12.6661
槭	-12.6661
𦍑	-12.6662
􁂫	-12.6663
痌	-12.6663
屇	-12.6664
换	-12.6666
狺	-12.667
俺	-12.6671
冪	-12.6838
扐	-12.684
葅	-12.6843
鄗	-12.6844
籐	-12.6845
䓗	-12.6845
忮	-12.6847
醆	-12.6848
窽	-12.6849
慽	-12.6849
僾	-12.6849
騂	-12.6849
杆	-12.6851
涅	-12.6851
郟	-12.6851
伋	-12.6852
狖	-12.6852
飀	-12.6853
骳	-12.6854
沗	-12.6855
仳	-12.6855
㳤	-12.6856
燝	-12.6857
噞	-12.6858
獧	-12.6861
羾	-12.6863
咈	-12.7031
畺	-12.7038
􁁪	-12.7041
槨	-12.7041
閡	-12.7044
呴	-12.7045
蘐	-12.7045
㸐	-12.7046
𥚑	-12.7046
犴	-12.7046
鈇	-12.7046
醁	-12.7046
蝎	-12.7047
朐	-12.7047
斒	-12.7047
踳	-12.7048
淶	-12.7048
鴦	-12.7049
軔	-12.7049
篩	-12.7049
鑊	-12.7049
崢	-12.7049
羝	-12.7051
蕕	-12.7051
罡	-12.7051
唔	-12.7052
吚	-12.7053
𬋩	-12.7053
銕	-12.7054
阽	-12.7056
邛	-12.7057
憀	-12.7235
呑	-12.7235
珈	-12.7238
邯	-12.7239
驌	-12.724
倥	-12.7241
嚄	-12.7241
嶮	-12.7241
絓	-12.7241
膈	-12.7241
璚	-12.7241
荈	-12.7241
嶲	-12.7242
攏	-12.7242
踆	-12.7242
䖝	-12.7243
惴	-12.7243
槗	-12.7243
榰	-12.7243
挼	-12.7244
鍧	-12.7244
簔	-12.7244
泬	-12.7245
抨	-12.7246
搬	-12.7246
㳙	-12.7247
鐔	-12.7247
齦	-12.7247
愔	-12.7249
嚲	-12.7249
蒭	-12.725
彧	-12.7251
帢	-12.7251
踖	-12.7251
劼	-12.7252
㦲	-12.7252
睍	-12.7253
錠	-12.7253
雭	-12.7254
繯	-12.7254
􁌄	-12.7254
臈	-12.7255
枘	-12.7256
芑	-12.7258
孶	-12.7259
嶒	-12.7435
􁄄	-12.7441
㠯	-12.7443
靧	-12.7444
朦	-12.7444
雰	-12.7445
柅	-12.7445
絏	-12.7445
狻	-12.7446
椷	-12.7447
瘃	-12.7447
恇	-12.7448
呐	-12.7448
襁	-12.7449
銚	-12.745
菶	-12.7451
鸘	-12.7451
呷	-12.7452
鍛	-12.7452
踴	-12.7452
鸇	-12.7452
竜	-12.7452
妺	-12.7452
嘬	-12.7452
襖	-12.7453
剷	-12.7453
攟	-12.7453
糚	-12.7453
怱	-12.7455
牗	-12.7455
粻	-12.7455
覷	-12.7455
痰	-12.7456
螗	-12.7456
軨	-12.7457
燁	-12.7457
蠹	-12.7458
簠	-12.7473
㷀	-12.7645
蹁	-12.7646
鱉	-12.7649
窬	-12.765
雈	-12.7652
柚	-12.7653
橦	-12.7653
緌	-12.7654
啗	-12.7655
蓞	-12.7656
廁	-12.7656
縐	-12.7656
抔	-12.7657
藂	-12.7657
壷	-12.7657
觳	-12.7657
劖	-12.7657
㷖	-12.7657
􁇶	-12.7657
灂	-12.7657
獒	-12.7659
鑷	-12.7659
覡	-12.766
郴	-12.766
䍦	-12.7661
齔	-12.7662
勌	-12.7662
琹	-12.7662
肚	-12.7663
蹬	-12.7663
蛸	-12.7663
踟	-12.7664
捆	-12.7665
齪	-12.7665
蚕	-12.7666
籽	-12.7668
淂	-12.7669
嵜	-12.767
厫	-12.767
忸	-12.7671
廌	-12.7674
廰	-12.7675
螂	-12.7676
亯	-12.7849
畈	-12.7857
娵	-12.7858
睒	-12.7858
翽	-12.7861
禕	-12.7861
嬀	-12.7862
篲	-12.7866
縕	-12.7867
惎	-12.7867
崎	-12.7867
㑴	-12.7868
甗	-12.7868
溆	-12.7868
嫖	-12.7869
娼	-12.7869
蕐	-12.787
墄	-12.787
偨	-12.7871
殍	-12.7871
趫	-12.7871
疽	-12.7871
儵	-12.7871
􁃼	-12.7872
嗑	-12.7873
襆	-12.7873
穪	-12.7873
黮	-12.7873
檔	-12.7874
艣	-12.7875
滬	-12.7877
㫤	-12.7877
賮	-12.7877
楽	-12.7878
轝	-12.7878
埼	-12.7879
棅	-12.7881
剉	-12.7883
祏	-12.7883
称	-12.7883
轎	-12.7883
浡	-12.7886
宁	-12.8065
臏	-12.8078
桶	-12.8078
芉	-12.8078
饉	-12.8079
殣	-12.8081
蟊	-12.8082
鄱	-12.8082
嘽	-12.8082
栩	-12.8082
俑	-12.8082
骩	-12.8083
瀍	-12.8083
瘉	-12.8085
麕	-12.8085
伻	-12.8085
怫	-12.8085
稏	-12.8086
勷	-12.8086
􁊥	-12.8087
洺	-12.8087
碶	-12.8087
醋	-12.8087
蒺	-12.8088
琠	-12.8088
囁	-12.8088
毉	-12.8089
蔦	-12.8089
𬗟	-12.809
皸	-12.809
頹	-12.809
樨	-12.8091
漘	-12.8091
㲲	-12.8091
鄽	-12.8091
噢	-12.8092
􁎊	-12.8092
佾	-12.8093
䣊	-12.8094
祊	-12.8094
闒	-12.8094
胾	-12.8094
褷	-12.8095
嗎	-12.8096
鸑	-12.8097
崐	-12.8097
氅	-12.8098
㕠	-12.8098
􁁺	-12.8099
𦦨	-12.8102
鄯	-12.8114
賵	-12.8302
儡	-12.8303
槅	-12.8304
㵸	-12.8305
敡	-12.8305
簀	-12.8305
崚	-12.8306
逌	-12.8307
阱	-12.8307
貙	-12.8308
搯	-12.8309
蓓	-12.8309
苡	-12.8309
尫	-12.831
邰	-12.831
曕	-12.8311
滳	-12.8311
琫	-12.8312
􁇢	-12.8313
皭	-12.8313
棐	-12.8313
闤	-12.8313
褓	-12.8314
桉	-12.8314
沕	-12.8314
晬	-12.8314
鷯	-12.8314
䨴	-12.8314
訏	-12.8314
跫	-12.8314
駈	-12.8314
崤	-12.8315
咬	-12.8316
灩	-12.8316
嬙	-12.8316
污	-12.8317
鶺	-12.8317
鑕	-12.8318
紞	-12.8319
晅	-12.8322
懊	-12.8322
唆	-12.8324
戟	-12.8326
胠	-12.8326
蝻	-12.8326
餻	-12.8327
檗	-12.8332
釅	-12.8521
鏜	-12.8531
褌	-12.8531
粔	-12.8532
岈	-12.8532
炘	-12.8532
釂	-12.8534
蘼	-12.8536
逑	-12.8536
堁	-12.8537
璸	-12.8537
萁	-12.8537
昩	-12.8537
􁭤	-12.8537
篸	-12.8537
馣	-12.8538
姍	-12.8538
崋	-12.8538
齾	-12.8539
踉	-12.8539
皃	-12.854
麏	-12.854
瀵	-12.854
蓁	-12.8541
歃	-12.8541
艎	-12.8541
抶	-12.8542
狭	-12.8542
貅	-12.8543
䕷	-12.8543
笱	-12.8545
齮	-12.8546
渼	-12.8547
痏	-12.8547
汸	-12.8549
筸	-12.8549
馗	-12.8553
惘	-12.8739
莂	-12.8758
崱	-12.8759
䌓	-12.8759
禴	-12.876
孌	-12.8762
樑	-12.8764
熸	-12.8764
咯	-12.8765
憖	-12.8765
赳	-12.8766
竑	-12.8766
纑	-12.8767
澉	-12.8767
緞	-12.8767
蘤	-12.8768
篥	-12.8768
䆉	-12.8768
柞	-12.8768
鍠	-12.8769
踝	-12.8769
恖	-12.877
襠	-12.877
奘	-12.877
蘺	-12.8771
褏	-12.8771
􁝪	-12.8771
磑	-12.8771
嶙	-12.8773
驃	-12.8773
朒	-12.8773
蚡	-12.8774
桅	-12.8774
𫐠	-12.8775
狴	-12.8775
魃	-12.8776
麌	-12.8776
􁇟	-12.8776
轘	-12.8778
畮	-12.8778
埰	-12.8778
恡	-12.8778
撏	-12.8779
翏	-12.8779
乩	-12.878
𡨕	-12.8781
鑅	-12.8786
嫄	-12.8981
敶	-12.8986
炰	-12.8994
鵓	-12.8994
胆	-12.9001
獎	-12.9003
拇	-12.9003
酖	-12.9003
愊	-12.9003
辮	-12.9004
罫	-12.9004
廋	-12.9005
侠	-12.9006
溧	-12.9006
鷫	-12.9007
伾	-12.9008
蠨	-12.9008
諠	-12.9009
猧	-12.9009
鏟	-12.9009
囱	-12.9011
敧	-12.9012
戽	-12.9012
逡	-12.9013
栻	-12.9014
麦	-12.9014
嚥	-12.9014
柙	-12.9015
梃	-12.9015
㡡	-12.9015
氍	-12.9015
袿	-12.9015
頬	-12.9015
荏	-12.9017
𤱔	-12.9017
􁩉	-12.9017
泒	-12.9024
慍	-12.9026
椓	-12.9236
圬	-12.9237
泲	-12.9242
滹	-12.9242
獬	-12.9243
簜	-12.9244
胯	-12.9245
籕	-12.9246
梏	-12.9246
璹	-12.9247
醨	-12.9248
椁	-12.925
湞	-12.925
珽	-12.925
厂	-12.9251
楔	-12.9251
㿽	-12.9251
萝	-12.9251
廏	-12.9251
靠	-12.9252
橄	-12.9253
苒	-12.9253
趍	-12.9254
箆	-12.9254
騄	-12.9255
蕘	-12.9255
桔	-12.9255
尭	-12.9256
蚩	-12.9256
蜘	-12.9256
㡧	-12.9256
軃	-12.9256
𤇺	-12.9257
奶	-12.9259
瑑	-12.9259
枿	-12.9259
螙	-12.9261
窋	-12.9261
椹	-12.9266
听	-12.9266
泇	-12.9271
瀣	-12.9493
𣢾	-12.9496
縡	-12.9496
葳	-12.9498
麫	-12.9499
酇	-12.9499
逶	-12.9499
鄫	-12.9499
躇	-12.9499
驦	-12.95
匶	-12.95
蜾	-12.95
胔	-12.9501
淟	-12.9501
檉	-12.9501
嶫	-12.9501
矟	-12.9502
䀌	-12.9502
飤	-12.9502
蠁	-12.9503
舗	-12.9504
憗	-12.9504
辣	-12.9504
謎	-12.9504
憸	-12.9505
騘	-12.9505
槥	-12.9505
瑱	-12.9505
痒	-12.9505
蜆	-12.9505
欖	-12.9506
釦	-12.9506
綢	-12.9506
襌	-12.9506
禨	-12.9507
暜	-12.9507
疣	-12.9507
蹣	-12.9507
艭	-12.9507
穟	-12.9507
蚋	-12.9507
綌	-12.9507
蝇	-12.9508
爚	-12.9508
咆	-12.9508
㬋	-12.9509
齲	-12.951
鶼	-12.951
眊	-12.9511
嬃	-12.9512
騑	-12.9513
梱	-12.9513
䆠	-12.9513
党	-12.9516
佼	-12.9519
錞	-12.952
羖	-12.9739
鷴	-12.9745
􁰛	-12.9746
醕	-12.9748
咥	-12.9751
罘	-12.9752
靺	-12.9752
燹	-12.9752
湥	-12.9752
噀	-12.9752
偬	-12.9753
湢	-12.9754
终	-12.9754
姞	-12.9754
轗	-12.9755
儺	-12.9756
蠙	-12.9756
鮪	-12.9757
鬒	-12.9757
幐	-12.9758
啾	-12.9758
种	-12.9758
襏	-12.976
㢙	-12.976
冑	-12.976
踘	-12.976
撦	-12.976
玳	-12.976
墐	-12.9761
褘	-12.9761
岝	-12.9761
鵒	-12.9762
郇	-12.9762
驔	-12.9762
􁋊	-12.9762
嫮	-12.9762
逬	-12.9762
忪	-12.9763
渲	-12.9763
睆	-12.9763
姱	-12.9763
蛆	-12.9764
罛	-12.9764
痾	-12.9765
邜	-12.9765
沌	-12.9765
稭	-12.9765
磕	-12.9766
萑	-12.9766
菏	-12.9767
姣	-12.9774
嗸	-12.9776
怲	-12.9777
卲	-12.9778
穜	-13.0011
諟	-13.0012
莆	-13.0014
蓆	-13.0014
屴	-13.0017
瘍	-13.0017
嶸	-13.0018
輢	-13.0019
擫	-13.002
滻	-13.002
鬨	-13.002
楛	-13.0021
捽	-13.0022
趲	-13.0022
虵	-13.0022
沇	-13.0022
疁	-13.0023
盋	-13.0023
滮	-13.0023
梠	-13.0023
殀	-13.0023
鵪	-13.0023
霮	-13.0024
㯽	-13.0024
㪺	-13.0024
凘	-13.0024
蓏	-13.0024
嚌	-13.0024
艑	-13.0025
跚	-13.0025
褂	-13.0025
媸	-13.0025
㐲	-13.0025
櫨	-13.0025
褻	-13.0026
騕	-13.0026
黧	-13.0028
慫	-13.0028
噌	-13.0028
紃	-13.0029
􁂰	-13.0029
衹	-13.0029
嬋	-13.0029
湑	-13.003
棽	-13.0031
竞	-13.0031
罸	-13.0032
臟	-13.0032
双	-13.0032
楡	-13.0033
褕	-13.0034
䙰	-13.0034
峋	-13.0036
蔌	-13.0036
攽	-13.0036
諐	-13.0037
韲	-13.0276
巋	-13.0278
傘	-13.028
􁰈	-13.0281
㟏	-13.0283
訒	-13.0284
稹	-13.0284
雺	-13.0285
愎	-13.0286
塈	-13.0286
岧	-13.0288
肓	-13.0288
檎	-13.0288
贉	-13.0289
悱	-13.0291
􁎗	-13.0293
媾	-13.0294
㟪	-13.0294
煴	-13.0295
霛	-13.0295
彯	-13.0295
侂	-13.0295
籋	-13.0296
莛	-13.0296
餕	-13.0296
趄	-13.0297
臛	-13.0297
吰	-13.0297
􁄑	-13.0297
槱	-13.0298
裯	-13.0298
巑	-13.0298
韤	-13.0298
尝	-13.0299
橊	-13.0299
蹖	-13.03
稧	-13.0301
絇	-13.0302
晹	-13.0302
􁇵	-13.0302
悁	-13.0305
縚	-13.0306
炧	-13.0312
聵	-13.055
郿	-13.0551
瘏	-13.0555
劓	-13.0556
壒	-13.0558
癃	-13.056
餬	-13.0561
幪	-13.0563
柎	-13.0567
躳	-13.0567
焞	-13.0567
傋	-13.0567
虱	-13.0567
筤	-13.0568
骴	-13.0568
阸	-13.0568
柂	-13.0568
㟧	-13.0569
牏	-13.0569
譾	-13.0569
鼛	-13.0569
悢	-13.057
鎌	-13.057
惓	-13.057
蚨	-13.057
皪	-13.0571
蔫	-13.0571
躧	-13.0571
瘐	-13.0571
菖	-13.0571
艨	-13.0571
髿	-13.0573
璊	-13.0573
胼	-13.0573
榾	-13.0573
鄼	-13.0574
襫	-13.0574
飰	-13.0574
醼	-13.0575
惚	-13.0575
昫	-13.0575
諲	-13.0576
牯	-13.0577
缽	-13.0577
糒	-13.0577
筲	-13.0578
㩀	-13.0578
柮	-13.0578
儳	-13.0578
袚	-13.0579
筰	-13.0581
酔	-13.0586
繂	-13.0832
泜	-13.0842
岕	-13.0843
醊	-13.0847
碻	-13.0848
藋	-13.0848
肸	-13.0849
幇	-13.0849
倆	-13.085
酴	-13.085
餗	-13.085
嵕	-13.085
騤	-13.0851
秸	-13.0851
洚	-13.0851
齶	-13.0851
熛	-13.0851
媺	-13.0851
晢	-13.0851
鬵	-13.0851
􁒊	-13.0851
臝	-13.0852
撕	-13.0852
洢	-13.0852
驘	-13.0852
爌	-13.0853
髴	-13.0854
舡	-13.0854
虓	-13.0854
觕	-13.0854
睟	-13.0854
霣	-13.0855
疃	-13.0855
蒟	-13.0856
魈	-13.0856
縗	-13.0856
挏	-13.0857
菆	-13.0857
坿	-13.0857
㬰	-13.0858
瘥	-13.0858
鎡	-13.0858
荐	-13.0858
禖	-13.0858
靁	-13.086
悝	-13.0861
呫	-13.0861
鯫	-13.0862
裌	-13.0862
痿	-13.0862
宄	-13.0863
醳	-13.0863
鉥	-13.0863
莓	-13.0863
淜	-13.0867
賕	-13.0868
薔	-13.0868
蟆	-13.0869
嚻	-13.0869
􁅯	-13.087
湣	-13.087
丏	-13.087
倧	-13.0871
砍	-13.0872
蕺	-13.092
鋌	-13.1132
們	-13.1138
芣	-13.1139
灊	-13.1141
栲	-13.1142
窞	-13.1143
頣	-13.1143
驊	-13.1143
㭬	-13.1144
摋	-13.1145
啅	-13.1146
堀	-13.1147
掐	-13.1147
蚪	-13.1147
蠒	-13.1148
堧	-13.1148
痁	-13.1148
葓	-13.1148
鞞	-13.1148
湃	-13.1149
浼	-13.1149
瑔	-13.1149
蹢	-13.1149
蒻	-13.115
駪	-13.115
汕	-13.115
煕	-13.1151
􁠟	-13.1151
釗	-13.1151
剃	-13.1151
偭	-13.1152
艟	-13.1152
轓	-13.1152
褵	-13.1152
份	-13.1152
㗖	-13.1152
窌	-13.1152
鱖	-13.1152
煗	-13.1153
㢠	-13.1154
雊	-13.1154
􁈔	-13.1154
緅	-13.1155
嘱	-13.1155
旟	-13.1155
嚘	-13.1156
阹	-13.1157
薖	-13.1157
􁃔	-13.1159
麑	-13.1159
虫	-13.116
茌	-13.116
靷	-13.1162
甔	-13.1165
儧	-13.1166
櫍	-13.1168
肹	-13.1439
蒓	-13.1441
瑮	-13.1442
緤	-13.1443
拌	-13.1444
􁜂	-13.1444
湱	-13.1444
嵳	-13.1445
魘	-13.1445
鷰	-13.1445
韡	-13.1447
総	-13.1447
薶	-13.1449
虒	-13.1449
蹩	-13.1449
絛	-13.1449
峚	-13.1451
􁦍	-13.1451
凂	-13.1452
㯭	-13.1452
猘	-13.1452
佹	-13.1453
㦷	-13.1454
鷽	-13.1454
唤	-13.1454
鷓	-13.1455
鬑	-13.1455
剟	-13.1455
萸	-13.1455
杕	-13.1456
宷	-13.1458
穣	-13.1458
笆	-13.1458
摴	-13.1458
􁂻	-13.1458
㫪	-13.1459
鍇	-13.1459
麚	-13.1459
黂	-13.146
薯	-13.1462
搥	-13.1462
慥	-13.1463
薾	-13.1465
戹	-13.1465
陊	-13.1467
冞	-13.1468
媯	-13.1746
喞	-13.1749
亙	-13.175
􁇲	-13.175
蕢	-13.1751
彙	-13.1753
澚	-13.1755
癥	-13.1755
鞘	-13.1755
碞	-13.1755
痂	-13.1756
溍	-13.1758
臿	-13.1758
尨	-13.1759
憯	-13.1759
灸	-13.176
翶	-13.176
戇	-13.1761
岨	-13.1762
蜼	-13.1762
愐	-13.1762
侻	-13.1762
綷	-13.1762
咡	-13.1762
䑳	-13.1763
䙫	-13.1763
螣	-13.1763
稺	-13.1763
蔔	-13.1763
篳	-13.1763
䋣	-13.1763
鮎	-13.1764
􁡾	-13.1764
餠	-13.1765
貊	-13.1765
砆	-13.1766
鏇	-13.1766
橑	-13.1766
㐫	-13.1766
搊	-13.1766
璥	-13.1767
猒	-13.1767
虡	-13.1767
姁	-13.1768
献	-13.1769
鯿	-13.1769
艅	-13.1769
玘	-13.177
敓	-13.177
漵	-13.177
埶	-13.1771
螾	-13.1771
欬	-13.1771
抆	-13.1772
聦	-13.1772
跧	-13.1772
踦	-13.1773
勍	-13.1773
烙	-13.1773
葸	-13.1781
栱	-13.2068
餧	-13.2074
涷	-13.2077
誖	-13.2077
匆	-13.2078
笇	-13.2079
澦	-13.2081
㬥	-13.2081
箯	-13.2081
棓	-13.2082
㒒	-13.2082
訿	-13.2083
徉	-13.2084
䔥	-13.2084
娖	-13.2084
􁍑	-13.2084
蚯	-13.2084
凥	-13.2085
鯢	-13.2085
弥	-13.2085
麁	-13.2085
蝥	-13.2086
寞	-13.2086
儇	-13.2087
㒷	-13.2087
秭	-13.2087
韐	-13.2087
嗢	-13.2087
磻	-13.2087
躱	-13.2087
擱	-13.2088
峿	-13.2088
畣	-13.2088
杗	-13.2088
篹	-13.2088
椏	-13.2089
蝯	-13.2089
鮒	-13.209
閜	-13.209
瓤	-13.209
嫋	-13.209
鵂	-13.2091
爥	-13.2091
厀	-13.2091
脹	-13.2091
鮐	-13.2091
橇	-13.2092
瞩	-13.2094
髄	-13.2094
鍪	-13.2094
眴	-13.2095
禠	-13.2095
盭	-13.2095
毸	-13.2096
涬	-13.2096
櫚	-13.2096
倀	-13.2098
䕬	-13.21
鼒	-13.21
頲	-13.2101
𤼵	-13.2105
􁃯	-13.2105
酳	-13.2105
􁏖	-13.2111
湲	-13.2382
筧	-13.2409
􁃶	-13.2413
譍	-13.2413
喣	-13.2414
骹	-13.2415
鐮	-13.2415
梲	-13.2415
蜊	-13.2415
氂	-13.2416
斮	-13.2416
㓙	-13.2417
蟉	-13.2417
屝	-13.2417
顑	-13.2418
熻	-13.2418
擩	-13.2418
焱	-13.2418
菩	-13.2418
飃	-13.2419
隹	-13.242
楂	-13.242
嚚	-13.2421
臲	-13.2421
牿	-13.2422
𤏡	-13.2423
氿	-13.2423
价	-13.2423
龢	-13.2423
􁂬	-13.2424
幨	-13.2424
蝡	-13.2425
㠑	-13.2425
竛	-13.2425
扯	-13.2425
刌	-13.2425
趠	-13.2425
筇	-13.2425
麂	-13.2425
磡	-13.2425
蠋	-13.2425
澐	-13.2426
慷	-13.2426
枮	-13.2426
穅	-13.2426
艧	-13.2426
鶹	-13.2426
㠝	-13.2427
粳	-13.2427
齠	-13.2427
喊	-13.2428
䠞	-13.2428
鞿	-13.2434
遛	-13.2435
捭	-13.2436
婕	-13.2438
帮	-13.244
佪	-13.2743
轊	-13.2745
卍	-13.2746
湩	-13.2749
觿	-13.2749
蕅	-13.2751
櫞	-13.2754
煊	-13.2755
慗	-13.2755
疹	-13.2755
椉	-13.2756
魍	-13.2756
窕	-13.2757
惙	-13.2757
甁	-13.2758
讁	-13.2758
黦	-13.2758
􁐍	-13.2758
䨲	-13.2758
戩	-13.276
敔	-13.276
墢	-13.2761
洌	-13.2761
棕	-13.2761
攴	-13.2762
琌	-13.2762
􁰹	-13.2762
峥	-13.2763
胏	-13.2763
紝	-13.2764
葊	-13.2765
檳	-13.2765
囏	-13.2765
䯢	-13.2765
簦	-13.2765
蚶	-13.2766
眂	-13.2766
碔	-13.2766
蔎	-13.2767
㨂	-13.2767
洏	-13.2767
醿	-13.2767
輠	-13.2768
刅	-13.2768
胛	-13.2768
炁	-13.2768
茇	-13.2769
爟	-13.2769
澔	-13.277
蜎	-13.277
譆	-13.277
㠎	-13.277
蟣	-13.277
炌	-13.2771
敂	-13.2771
茈	-13.2771
硌	-13.2771
鄶	-13.2771
歠	-13.2771
齏	-13.2771
輀	-13.2772
􁭘	-13.2772
旓	-13.2773
幞	-13.2773
嫜	-13.2774
䋞	-13.2775
偝	-13.2775
琥	-13.2775
􁚐	-13.2776
麇	-13.2777
㴞	-13.2777
闃	-13.2779
豋	-13.2782
綹	-13.2786
䓻	-13.2788
詧	-13.2798
鋝	-13.3101
釲	-13.3107
􁃝	-13.311
姗	-13.3112
嶞	-13.3112
灃	-13.3113
噆	-13.3114
眵	-13.3114
鬈	-13.3115
葚	-13.3115
齅	-13.3116
綋	-13.3117
曀	-13.3117
䥘	-13.3117
蔿	-13.3117
帣	-13.3117
斨	-13.3118
鋼	-13.3119
欱	-13.3119
􁨳	-13.3119
歜	-13.3119
􁬸	-13.312
衋	-13.312
鎦	-13.3121
軛	-13.3121
耏	-13.3121
墁	-13.3122
揵	-13.3122
秤	-13.3122
廱	-13.3122
滆	-13.3122
玼	-13.3122
糯	-13.3123
睋	-13.3123
􁂪	-13.3123
皿	-13.3123
㟢	-13.3124
炕	-13.3124
纕	-13.3124
憍	-13.3124
楙	-13.3124
陗	-13.3124
鞳	-13.3124
荍	-13.3124
殚	-13.3124
蓱	-13.3125
䴡	-13.3125
㦤	-13.3125
磝	-13.3125
漻	-13.3125
澓	-13.3125
癲	-13.3126
姐	-13.3126
莬	-13.3127
噂	-13.3127
刧	-13.3128
􁈊	-13.3128
嘑	-13.3128
赶	-13.3129
鴃	-13.3129
鬌	-13.3129
郜	-13.313
忞	-13.3131
鋗	-13.3131
鶗	-13.3132
􁋆	-13.3133
匵	-13.3135
怔	-13.3135
卺	-13.3135
濈	-13.3135
擦	-13.3153
杬	-13.3176
杻	-13.3473
鞨	-13.3476
蛬	-13.3476
剚	-13.3479
閈	-13.348
麵	-13.3481
膰	-13.3481
柢	-13.3481
鏦	-13.3483
珵	-13.3483
􁀒	-13.3485
絝	-13.3485
艙	-13.3485
菂	-13.3486
柷	-13.3487
吒	-13.3487
韺	-13.3488
禜	-13.3488
魋	-13.3489
霢	-13.3491
廈	-13.3491
蟂	-13.3491
㬅	-13.3491
籪	-13.3492
郸	-13.3492
薉	-13.3492
眦	-13.3492
侫	-13.3493
氤	-13.3493
灋	-13.3493
弸	-13.3493
悕	-13.3493
喂	-13.3493
烖	-13.3493
讔	-13.3494
磺	-13.3494
僛	-13.3494
遟	-13.3495
絍	-13.3495
靅	-13.3495
脽	-13.3496
尟	-13.3497
揃	-13.3498
哳	-13.3498
餈	-13.3498
訽	-13.3498
嚦	-13.3499
俜	-13.3499
躠	-13.35
膢	-13.35
蟁	-13.3501
繍	-13.3501
麀	-13.3501
頖	-13.3502
鏹	-13.3502
慆	-13.3503
騋	-13.3504
晛	-13.3504
椑	-13.3505
謿	-13.3505
紥	-13.3507
叡	-13.3508
嘛	-13.3508
竸	-13.3509
嗉	-13.3512
䧿	-13.385
繠	-13.3855
鱟	-13.3857
狫	-13.3859
􁈭	-13.3863
璨	-13.3863
鎞	-13.3863
桭	-13.3864
牷	-13.3866
鴐	-13.3868
􁀾	-13.3869
􁳋	-13.3869
蝮	-13.3869
𡵨	-13.387
謦	-13.387
餋	-13.3872
崥	-13.3872
惛	-13.3872
閷	-13.3873
躃	-13.3873
丝	-13.3874
娬	-13.3874
僝	-13.3875
遫	-13.3875
燀	-13.3875
璲	-13.3876
輹	-13.3876
􁆡	-13.3876
劎	-13.3877
騭	-13.3877
褱	-13.3877
輴	-13.3877
婭	-13.3878
瑇	-13.3878
􁉤	-13.3878
磥	-13.3878
衖	-13.3879
孼	-13.3879
幺	-13.3879
媢	-13.3881
黁	-13.3881
蹡	-13.3881
䏸	-13.3882
痡	-13.3882
嚆	-13.3882
鞺	-13.3882
靃	-13.3882
􁃞	-13.3883
愞	-13.3883
郉	-13.3883
醞	-13.3884
皞	-13.3884
湋	-13.3884
躞	-13.3885
蜴	-13.3885
迍	-13.3886
宬	-13.3886
鞓	-13.3887
呰	-13.3888
韀	-13.3888
亝	-13.3889
蚿	-13.3889
欸	-13.389
瓛	-13.389
蜥	-13.3891
薿	-13.3893
躕	-13.3895
蹯	-13.3896
喤	-13.3897
难	-13.3899
祅	-13.39
瘤	-13.4252
諝	-13.4256
鴣	-13.4264
甖	-13.4265
迯	-13.4268
瞚	-13.427
醽	-13.427
朵	-13.4271
鮞	-13.4271
邲	-13.4272
灉	-13.4272
蛀	-13.4272
鶬	-13.4272
瑒	-13.4272
硉	-13.4272
矑	-13.4272
倌	-13.4272
䦧	-13.4273
齗	-13.4273
驎	-13.4273
骭	-13.4274
揎	-13.4275
蝌	-13.4275
鴝	-13.4275
侁	-13.4275
礽	-13.4276
謏	-13.4277
蔞	-13.4277
眶	-13.4277
涊	-13.4278
鸊	-13.4278
罐	-13.4279
棬	-13.4279
驑	-13.4279
鬋	-13.4279
濾	-13.428
伹	-13.428
渗	-13.428
􁀧	-13.4281
峝	-13.4281
砫	-13.4281
􁈋	-13.4281
茰	-13.4281
惔	-13.4282
嵼	-13.4283
釚	-13.4283
玥	-13.4283
漶	-13.4283
耼	-13.4284
矱	-13.4284
囤	-13.4284
袨	-13.4284
惽	-13.4285
窹	-13.4285
􁆬	-13.4285
埡	-13.4286
榑	-13.4287
􁉓	-13.4287
獍	-13.4287
塒	-13.4288
圴	-13.4289
髲	-13.4289
猙	-13.429
畷	-13.429
絪	-13.4291
􁃣	-13.4291
炅	-13.4292
腯	-13.4292
断	-13.4293
枒	-13.4295
猓	-13.4299
齁	-13.4303
蕣	-13.4304
暠	-13.4306
挩	-13.4668
芈	-13.467
柍	-13.4678
鈹	-13.4681
䏈	-13.4681
餭	-13.4681
菭	-13.4682
蕝	-13.4683
晭	-13.4683
僎	-13.4685
璱	-13.4685
啐	-13.4685
㜑	-13.4685
𤾂	-13.4686
塼	-13.4686
臀	-13.4687
爯	-13.4688
璃	-13.4688
盝	-13.4688
繘	-13.4689
䧹	-13.469
瓖	-13.469
汳	-13.469
盩	-13.4691
邽	-13.4691
崹	-13.4692
岢	-13.4692
鬣	-13.4692
礌	-13.4692
煆	-13.4693
钁	-13.4693
譓	-13.4693
􁦵	-13.4693
𤯝	-13.4693
箜	-13.4694
儐	-13.4694
毷	-13.4694
穾	-13.4695
笴	-13.4695
媟	-13.4695
荂	-13.4695
懔	-13.4695
㙷	-13.4696
􁒍	-13.4696
礴	-13.4697
蛭	-13.4697
謟	-13.4697
顋	-13.4697
􁎍	-13.4697
怩	-13.4697
縓	-13.4697
瀺	-13.4698
戣	-13.4698
腿	-13.4698
嫏	-13.4698
槔	-13.4698
卼	-13.4699
拕	-13.47
剳	-13.47
摟	-13.47
暐	-13.47
苶	-13.47
蛱	-13.4701
搒	-13.4701
􁌿	-13.4702
岞	-13.4702
靮	-13.4702
嶇	-13.4703
飪	-13.4703
氈	-13.4703
璀	-13.4703
𥜗	-13.4704
硪	-13.4705
廙	-13.4705
埵	-13.4706
滫	-13.4706
謩	-13.4707
儤	-13.4707
媫	-13.4707
狰	-13.4708
曨	-13.4708
捺	-13.4711
漊	-13.4712
媐	-13.4714
焮	-13.4716
􁉃	-13.5079
輥	-13.5107
潠	-13.5108
狁	-13.5113
酗	-13.5115
螞	-13.5116
苣	-13.5116
蔴	-13.5117
桿	-13.5118
弨	-13.5118
鼷	-13.5119
蛋	-13.5119
苢	-13.5119
畟	-13.512
畼	-13.512
簁	-13.512
㡿	-13.5121
坯	-13.5121
􁂥	-13.5121
徘	-13.5121
啿	-13.5122
樝	-13.5123
拲	-13.5123
嶕	-13.5124
馚	-13.5125
歹	-13.5125
餫	-13.5126
鮆	-13.5127
嶁	-13.5127
􁣖	-13.5127
􁲓	-13.5128
醰	-13.5128
搉	-13.5128
薅	-13.5129
酆	-13.513
碡	-13.513
蠍	-13.5131
􁣕	-13.5131
瓔	-13.5131
牸	-13.5131
剞	-13.5132
匃	-13.5133
庨	-13.5133
􁀨	-13.5133
惧	-13.5134
綖	-13.5134
蛄	-13.5134
灎	-13.5134
􁉅	-13.5134
􁂭	-13.5134
萐	-13.5134
紜	-13.5135
駹	-13.5135
駾	-13.5135
髁	-13.5136
趵	-13.5137
鴇	-13.5138
捱	-13.5138
袜	-13.5138
􁔛	-13.5138
鬅	-13.5139
缿	-13.5139
蚖	-13.5139
圇	-13.5139
嵰	-13.5139
黴	-13.514
䦱	-13.5141
飥	-13.5141
㮚	-13.5141
熲	-13.5142
跅	-13.5144
郾	-13.5145
􁱆	-13.5146
虩	-13.5151
㬌	-13.5158
軶	-13.5171
嚭	-13.5538
酏	-13.554
肜	-13.5561
蜋	-13.5568
踸	-13.5569
葡	-13.5572
頞	-13.5573
㡢	-13.5574
桄	-13.5574
欑	-13.5575
悪	-13.5576
笯	-13.5577
穸	-13.5577
崣	-13.5578
〇	-13.5578
碟	-13.5578
㣧	-13.5579
扠	-13.558
葹	-13.558
鳸	-13.5581
諆	-13.5582
䓤	-13.5582
礁	-13.5582
􁁵	-13.5583
侄	-13.5583
鼗	-13.5583
磅	-13.5583
澒	-13.5583
俻	-13.5584
倞	-13.5584
嚏	-13.5584
猋	-13.5584
鬃	-13.5585
嗽	-13.5585
氳	-13.5585
蜒	-13.5586
擧	-13.5586
麛	-13.5586
黹	-13.5586
􁞘	-13.5587
遌	-13.5587
罃	-13.5587
轃	-13.5588
箾	-13.5588
昰	-13.5589
蝝	-13.5589
䱉	-13.5589
芚	-13.559
媍	-13.559
儹	-13.559
碗	-13.559
瀜	-13.5592
挶	-13.5592
耩	-13.5592
蚣	-13.5592
洴	-13.5592
䨑	-13.5592
銹	-13.5592
㵳	-13.5593
坨	-13.5594
嵁	-13.5594
㕙	-13.5594
汃	-13.5594
䬯	-13.5594
儦	-13.5594
駵	-13.5595
妁	-13.5595
轆	-13.5596
鑛	-13.5597
掫	-13.5598
夯	-13.56
㹀	-13.5601
􁑋	-13.5603
䔍	-13.5604
茱	-13.5605
刨	-13.5605
輗	-13.5655
睘	-13.6035
玁	-13.6038
礿	-13.6038
鄤	-13.6041
㪟	-13.6043
烕	-13.6044
􁨆	-13.6045
腷	-13.6046
雱	-13.6047
肈	-13.6047
汋	-13.6047
􁅗	-13.6048
郕	-13.6048
矐	-13.6049
倓	-13.6049
嫫	-13.605
駬	-13.605
胚	-13.605
凷	-13.6052
籝	-13.6053
甾	-13.6053
臕	-13.6054
惝	-13.6054
漴	-13.6055
糵	-13.6055
曶	-13.6055
俍	-13.6057
攓	-13.6057
迮	-13.6057
鞉	-13.6057
辴	-13.6057
頮	-13.6058
硝	-13.6058
瑺	-13.6058
傒	-13.6059
旡	-13.6059
􁎠	-13.6059
跜	-13.606
矼	-13.606
嗷	-13.6061
焄	-13.6061
扒	-13.6062
嬺	-13.6062
鰈	-13.6063
墍	-13.6063
吷	-13.6063
蝱	-13.6063
懍	-13.6064
虖	-13.6064
纆	-13.6064
􁳴	-13.6065
菔	-13.6065
屼	-13.6066
蜈	-13.6066
窃	-13.6066
稂	-13.6067
硫	-13.6067
搪	-13.6067
鰐	-13.6068
浽	-13.6068
籔	-13.6068
啚	-13.6068
蜍	-13.6068
䎫	-13.6069
秈	-13.6069
嶨	-13.6071
顴	-13.6071
鬙	-13.6071
靶	-13.6071
掔	-13.6072
鰱	-13.6072
簺	-13.6072
禿	-13.6073
楖	-13.6073
羼	-13.6075
薬	-13.6078
􁢍	-13.6078
㵝	-13.6079
硐	-13.6081
㷊	-13.6085
鱧	-13.6091
鄃	-13.654
筳	-13.6542
鈆	-13.6543
脤	-13.6544
枸	-13.6544
倮	-13.6546
灮	-13.6546
䌨	-13.6547
睱	-13.6547
㣶	-13.6548
跏	-13.6548
悆	-13.6548
㷼	-13.6549
扱	-13.6549
扅	-13.655
骰	-13.655
籧	-13.6551
劻	-13.6551
哱	-13.6551
賍	-13.6552
􁄽	-13.6553
泂	-13.6555
阞	-13.6555
袱	-13.6556
䝟	-13.6556
浭	-13.6556
譛	-13.6556
残	-13.6558
􁅃	-13.6558
邙	-13.6558
媌	-13.6559
􁯤	-13.6559
𣆀	-13.6559
筈	-13.6559
蜓	-13.656
痗	-13.656
虙	-13.656
舀	-13.6561
屓	-13.6561
艚	-13.6561
蝃	-13.6561
頀	-13.6562
俔	-13.6562
衕	-13.6562
稑	-13.6562
鑨	-13.6562
蚴	-13.6563
广	-13.6563
繽	-13.6563
嘖	-13.6563
蜣	-13.6563
燋	-13.6563
䥥	-13.6563
㛹	-13.6563
堋	-13.6563
偟	-13.6563
唎	-13.6563
倜	-13.6564
􁢤	-13.6564
箊	-13.6565
莝	-13.6565
㚄	-13.6565
鶵	-13.6566
弻	-13.6566
咢	-13.6566
侲	-13.6567
舋	-13.6567
􁧂	-13.6568
稉	-13.6568
澼	-13.657
軷	-13.657
鎚	-13.657
霦	-13.657
􁌣	-13.6571
􁥈	-13.6571
韍	-13.6572
勱	-13.6573
榿	-13.6573
襧	-13.6574
䠥	-13.6575
鷸	-13.6577
鐻	-13.6579
璪	-13.6579
妆	-13.6583
枑	-13.6586
棜	-13.6596
姼	-13.7056
娿	-13.7067
甋	-13.7068
􁆣	-13.7071
墪	-13.7075
􁰣	-13.7075
袽	-13.7077
彄	-13.7077
貭	-13.7078
傞	-13.7078
賧	-13.7078
䖟	-13.7078
旊	-13.7079
娭	-13.7079
霿	-13.7079
簃	-13.7079
囋	-13.7079
痀	-13.7081
貐	-13.7081
蚉	-13.7081
轇	-13.7082
嵊	-13.7082
躙	-13.7082
獐	-13.7082
澴	-13.7083
疼	-13.7083
禈	-13.7083
昀	-13.7083
􁿩	-13.7083
录	-13.7084
鄔	-13.7084
濚	-13.7084
婃	-13.7084
斝	-13.7084
􁦹	-13.7084
嶊	-13.7085
桯	-13.7085
贐	-13.7085
瀡	-13.7085
滾	-13.7086
蜇	-13.7087
犛	-13.7087
靸	-13.7087
㰱	-13.7088
昒	-13.7088
糁	-13.7088
蓲	-13.7089
凃	-13.7089
雘	-13.7089
黓	-13.7089
柹	-13.709
鳦	-13.7091
紒	-13.7091
驆	-13.7091
釪	-13.7091
丽	-13.7091
嶰	-13.7091
繊	-13.7092
騙	-13.7093
􁧥	-13.7093
倶	-13.7093
齬	-13.7093
熺	-13.7094
䫇	-13.7095
咷	-13.7095
旿	-13.7095
癬	-13.7095
嶃	-13.7095
䣛	-13.7096
菇	-13.7096
觽	-13.7096
潸	-13.7096
泔	-13.7097
駃	-13.7097
舳	-13.7097
唪	-13.7099
黈	-13.7099
泆	-13.7099
􁋡	-13.71
迾	-13.7102
儍	-13.7113
瑳	-13.7116
潧	-13.7616
塨	-13.7622
蓨	-13.7622
婷	-13.7623
稞	-13.7623
獝	-13.7624
􁇠	-13.7625
轑	-13.7626
鶖	-13.7627
潙	-13.7627
蛹	-13.7628
絻	-13.7628
揅	-13.7629
楘	-13.7629
霱	-13.7629
䀨	-13.7631
滷	-13.7632
奫	-13.7632
穮	-13.7632
礓	-13.7633
裓	-13.7633
鼍	-13.7634
繣	-13.7634
洳	-13.7635
洿	-13.7635
遰	-13.7636
㬢	-13.7636
􁂮	-13.7636
隒	-13.7636
翿	-13.7636
䰄	-13.7637
䆗	-13.7637
􁦞	-13.7637
壄	-13.7637
陼	-13.7637
傫	-13.7638
謊	-13.7639
鬷	-13.7639
絼	-13.7639
謼	-13.7639
蝤	-13.7639
齩	-13.7639
􁴮	-13.7639
謈	-13.764
嶅	-13.764
饎	-13.7641
㵲	-13.7641
􁯠	-13.7642
鏌	-13.7642
淰	-13.7642
旍	-13.7642
𥅆	-13.7642
􁔾	-13.7642
􁱝	-13.7642
孴	-13.7642
錙	-13.7643
眘	-13.7643
尒	-13.7643
埧	-13.7643
弒	-13.7643
襚	-13.7643
槮	-13.7644
涞	-13.7644
惆	-13.7644
湝	-13.7645
􁂚	-13.7645
雴	-13.7645
讇	-13.7645
衅	-13.7645
伃	-13.7645
剄	-13.7645
匽	-13.7645
鉧	-13.7645
螉	-13.7646
􁱷	-13.7646
䞇	-13.7646
􁉔	-13.7647
砮	-13.7647
鰍	-13.7647
􁑛	-13.7647
嬲	-13.7648
嶟	-13.7649
馤	-13.7649
箖	-13.7649
嚨	-13.7651
醎	-13.7651
箒	-13.7651
絁	-13.7652
嶐	-13.7652
飧	-13.7653
揔	-13.7653
萧	-13.7654
歾	-13.7654
玢	-13.7654
腠	-13.7654
櫽	-13.7655
匉	-13.7655
耙	-13.7656
蛺	-13.7656
鬉	-13.7656
􁒷	-13.7657
贜	-13.7657
歅	-13.7658
㗳	-13.7658
􁬿	-13.7658
杅	-13.7659
㠖	-13.7659
惮	-13.766
瑊	-13.7662
􁇨	-13.7665
橜	-13.8192
荚	-13.8208
瞎	-13.8208
圠	-13.8212
珞	-13.8212
􁲰	-13.8214
廧	-13.8216
傴	-13.8217
楬	-13.8218
孿	-13.8218
蓘	-13.822
賷	-13.822
䗶	-13.822
矉	-13.822
蓧	-13.8222
痞	-13.8222
溓	-13.8223
峘	-13.8223
餵	-13.8223
􁐟	-13.8224
硜	-13.8224
䀹	-13.8224
嵿	-13.8224
蝘	-13.8225
軑	-13.8225
􁂎	-13.8225
祸	-13.8225
鏄	-13.8225
踶	-13.8226
鰉	-13.8226
垸	-13.8226
鄄	-13.8226
蟨	-13.8227
怗	-13.8227
靛	-13.8227
獾	-13.8227
榨	-13.8227
晧	-13.8227
棷	-13.8228
祘	-13.8228
篨	-13.8228
茷	-13.8228
􁄚	-13.8228
􁇴	-13.8228
鵙	-13.8229
艓	-13.823
彍	-13.823
㲄	-13.823
醤	-13.823
惷	-13.8231
􁐾	-13.8231
蝴	-13.8231
椵	-13.8231
􁒐	-13.8231
玀	-13.8232
鰌	-13.8232
嵲	-13.8232
醥	-13.8232
楄	-13.8232
飂	-13.8233
鏊	-13.8233
庤	-13.8233
裎	-13.8233
􁁄	-13.8234
蠐	-13.8235
裱	-13.8235
掆	-13.8235
趿	-13.8236
丣	-13.8236
爉	-13.8236
𠢐	-13.8236
沠	-13.8237
匊	-13.8238
盇	-13.8238
杈	-13.8239
鰷	-13.8239
龡	-13.8239
𫉬	-13.8239
頦	-13.824
耞	-13.824
疻	-13.8243
謪	-13.8243
􁅔	-13.8243
跱	-13.8244
咭	-13.8244
瞷	-13.8245
􁇦	-13.8248
熷	-13.8248
啽	-13.8249
亊	-13.8249
􁿻	-13.825
璡	-13.825
韅	-13.8252
𩃱	-13.8253
甒	-13.8254
􁇌	-13.8259
萩	-13.8261
瘼	-13.8827
􁀉	-13.8831
鄩	-13.8832
坵	-13.884
捖	-13.884
▫	-13.8841
揕	-13.8841
蒍	-13.8841
龠	-13.8842
㸌	-13.8843
鮦	-13.8844
䘚	-13.8844
[...]
