<unk>	0
<s>	0
</s>	0
/	-2.70753
也	-3.18552
)	-3.28546
(	-3.31942
)(	-3.53329
兮	-4.37026
之	-4.47757
而	-4.83459
為	-5.03232
一作	-5.05919
,	-5.1578
以	-5.1787
爲	-5.22236
曰	-5.35465
。	-5.36998
補曰	-5.43727
音	-5.53924
不	-5.55896
言	-5.56058
其	-5.57898
切	-5.60605
於	-5.65982
作	-5.68711
有	-5.78255
一	-5.79793
者	-5.85242
云	-5.92849
與	-5.98692
無	-6.03467
也補曰	-6.31034
行	-6.31387
人	-6.35507
故	-6.38288
已	-6.41279
所	-6.42043
山	-6.42831
巳	-6.43212
君	-6.45077
此	-6.47873
子	-6.48381
大	-6.49036
則	-6.50117
心	-6.52832
上	-6.57883
自	-6.5845
天	-6.60418
謂	-6.62585
中	-6.63201
字	-6.64181
思	-6.65004
下	-6.65326
水	-6.66929
▁(	-6.68728
見	-6.6904
同	-6.69788
貌	-6.71569
亦	-6.7409
名	-6.7469
又	-6.74766
生	-6.76034
長	-6.76918
逺	-6.777
如	-6.78122
乎	-6.7827
何	-6.79534
王	-6.79617
志	-6.80256
欲	-6.81022
?	-6.82738
言已	-6.82836
髙	-6.83237
明	-6.84388
皃	-6.89115
世	-6.89534
我	-6.9018
徳	-6.90315
道	-6.90399
𥙷曰	-6.90919
補	-6.91727
皆	-6.91909
神	-6.92506
至	-6.92976
木	-6.94513
流	-6.94881
德	-6.9496
言巳	-6.95077
衆	-6.98171
將	-6.98229
時	-6.98585
而不	-6.99085
文	-7.0025
正	-7.00323
日	-7.00633
草	-7.01028
用	-7.03111
說	-7.03431
在	-7.04364
于	-7.04373
也言	-7.05125
可	-7.0589
乃	-7.05976
去	-7.07456
猶	-7.08971
白	-7.09052
高	-7.10374
得	-7.10419
然	-7.11168
九	-7.12695
若	-7.12997
相	-7.1328
風	-7.13341
▁	-7.13692
今	-7.14162
一云	-7.15026
多	-7.15496
説	-7.15977
樂	-7.1724
五	-7.17546
身	-7.1758
玉	-7.19503
方	-7.2095
陽	-7.21601
女	-7.22943
從	-7.24669
國	-7.25594
三	-7.26227
使	-7.26267
屈原	-7.26599
賢	-7.26722
美	-7.27186
知	-7.27216
小	-7.2729
乘	-7.28135
出	-7.28585
是	-7.29677
懷	-7.30153
居	-7.30332
余	-7.31441
意	-7.31626
五臣云	-7.32016
葉	-7.32888
己	-7.3419
當	-7.34783
處	-7.34889
一名	-7.35048
獨	-7.35648
乗	-7.35666
懐	-7.35893
蘭	-7.36038
華	-7.38665
焉	-7.38959
不可	-7.39357
離	-7.39669
遂	-7.39677
復	-7.39709
非	-7.41147
黄	-7.41451
南	-7.4159
悲	-7.41631
能	-7.4179
旣	-7.43272
帝	-7.43777
過	-7.43806
臣	-7.44668
古	-7.44814
耳	-7.45078
香	-7.45355
憂	-7.45649
脩	-7.45752
氣	-7.46602
盛	-7.46892
二	-7.46912
命	-7.47094
異	-7.47403
青	-7.48172
注云	-7.4826
靈	-7.48875
既	-7.48909
雖	-7.48993
實	-7.49384
成	-7.49691
安	-7.49912
善	-7.50589
楚	-7.50985
結	-7.50998
歸	-7.51144
未	-7.52089
花	-7.52605
哀	-7.53105
死	-7.53748
以為	-7.53859
丗	-7.53863
矣	-7.53929
北	-7.5394
傷	-7.5426
亂	-7.54317
被	-7.54683
芳	-7.54706
夫	-7.55058
石	-7.55853
謂之	-7.56105
車	-7.56205
雲	-7.56213
並	-7.56262
惡	-7.56517
清	-7.56916
好	-7.57358
失	-7.58116
願	-7.58247
修	-7.59081
服	-7.59399
西	-7.60004
合	-7.61097
反	-7.62422
先	-7.62644
望	-7.63579
龍	-7.6361
節	-7.63706
本	-7.64234
進	-7.64432
遊	-7.64486
玄	-7.64607
詩	-7.65369
入	-7.65524
𤣥	-7.65544
義	-7.65822
以爲	-7.67917
路	-7.68047
類	-7.68275
來	-7.68356
常	-7.68477
極	-7.68727
㒵	-7.69398
視	-7.69413
桂	-7.69619
光	-7.69961
澤	-7.70237
辭	-7.70297
宜	-7.70426
江	-7.70611
别	-7.70701
根	-7.71491
地	-7.71991
太	-7.72124
吾	-7.72346
周	-7.7246
爾雅	-7.72516
東	-7.74055
苦	-7.74302
及	-7.74318
放	-7.74402
難	-7.74492
或	-7.74732
隱	-7.75418
門	-7.75525
聲	-7.76234
夏	-7.76555
即	-7.76571
只	-7.76692
似	-7.76864
食	-7.76895
念	-7.77366
色	-7.77407
舉	-7.77498
求	-7.77703
竹	-7.77926
黃	-7.77985
後	-7.78239
事	-7.78245
容	-7.78275
忠	-7.78364
情	-7.79629
直	-7.79696
鳥	-7.79883
冝	-7.80013
經	-7.80384
度	-7.8067
不能	-7.81061
終	-7.81552
紛	-7.81869
弃	-7.81906
陳	-7.81948
信	-7.81982
注	-7.82603
引	-7.8302
往	-7.8312
惟	-7.83249
立	-7.83844
佞	-7.84211
幽	-7.84226
原	-7.85332
發	-7.85466
且	-7.85471
深	-7.86099
䰟	-7.86373
盖	-7.86635
曲	-7.86752
内	-7.87569
通	-7.87807
易	-7.88048
觀	-7.88886
六	-7.88942
揚	-7.88952
絶	-7.8902
傳	-7.89405
語	-7.90061
衣	-7.90109
宫	-7.90151
棄	-7.90166
喻	-7.90607
貎	-7.90615
四	-7.90666
年	-7.9123
重	-7.91274
野	-7.91323
顧	-7.91335
詞	-7.91389
馬	-7.91394
淸	-7.92231
忽	-7.92571
言己	-7.9362
土	-7.93749
薄	-7.93858
解	-7.93873
和	-7.94491
書	-7.95078
朝	-7.95147
!	-7.95179
飛	-7.96119
歌	-7.96254
公	-7.97601
平	-7.97654
俗	-7.9796
屈	-7.9885
誠	-7.98861
必	-7.98996
動	-7.99
赤	-7.99088
魂	-7.99158
不得	-8.00043
隠	-8.00203
形	-8.00266
登	-8.0039
也五臣云	-8.00526
盡	-8.01635
比	-8.01713
椒	-8.02982
疾	-8.02997
遇	-8.03363
些	-8.0429
回	-8.044
疏	-8.04442
足	-8.04451
體	-8.04461
初	-8.04475
鳴	-8.04576
間	-8.05225
歎	-8.05456
隂	-8.05781
横	-8.05795
受	-8.05887
背	-8.05901
分	-8.05904
彼	-8.05916
按	-8.05981
聖	-8.06647
精	-8.07135
羣	-8.07175
都	-8.07261
近	-8.07302
離騷	-8.07359
恐	-8.08622
淫	-8.08636
夷	-8.08702
還	-8.08745
達	-8.08766
首	-8.10199
政	-8.10219
莫	-8.10241
列	-8.11157
老	-8.11448
堂	-8.11625
吳	-8.11758
前	-8.11892
士	-8.11909
止	-8.11967
說文	-8.12482
執	-8.12842
民	-8.13222
采	-8.1446
皇	-8.14541
伯	-8.14626
邪	-8.14661
窮	-8.14664
錯	-8.147
著	-8.14705
聽	-8.14716
蓋	-8.1477
秋	-8.16082
海	-8.16182
廣	-8.16309
令	-8.16312
雜	-8.16328
少	-8.16354
屬	-8.16358
無所	-8.17004
施	-8.17462
百	-8.17789
湯	-8.17826
胡	-8.17876
因	-8.17911
折	-8.17951
數	-8.1902
齊	-8.1945
波	-8.19457
始	-8.19466
罔	-8.19552
次	-8.19584
一本	-8.20365
以自	-8.20613
物	-8.20806
賦	-8.20867
集	-8.21114
蕙	-8.21147
㠯	-8.21181
紫	-8.21205
而無	-8.22184
章	-8.22457
理	-8.22787
疑	-8.22825
䝉	-8.22828
芷	-8.22882
馳	-8.24332
林	-8.24443
隨	-8.245
靑	-8.24542
積	-8.2455
圖	-8.2457
化	-8.25036
十	-8.25462
介	-8.25987
蔽	-8.2607
河	-8.26155
虚	-8.26183
聞	-8.26191
歷	-8.26201
駕	-8.26256
覽	-8.26298
魚	-8.26314
讒	-8.26422
愁	-8.2652
釋文	-8.27031
家	-8.27816
佩	-8.27941
察	-8.27946
雅	-8.27961
張	-8.27964
藏	-8.27964
逹	-8.27983
橫	-8.27992
害	-8.28873
明也	-8.29656
潔	-8.29678
厲	-8.29725
固	-8.29745
啓	-8.2978
代	-8.29786
舒	-8.29824
主	-8.2984
永	-8.29842
皮	-8.29914
諸	-8.29941
取	-8.30583
一無	-8.30821
集韻	-8.31283
星	-8.31309
尚	-8.31572
蒙	-8.31581
持	-8.31606
舍	-8.31617
角	-8.31967
懐王	-8.32282
舊	-8.32891
歳	-8.33395
橘	-8.33401
朱	-8.33415
象	-8.33437
㑹	-8.33441
予	-8.3347
兩	-8.33562
惑	-8.3496
春	-8.35165
英	-8.35226
䟽	-8.35266
釋	-8.35382
梁	-8.35404
指	-8.35436
靡	-8.35477
浮	-8.35521
七	-8.35624
也補	-8.35927
甚	-8.36152
沈	-8.36738
也言巳	-8.37188
壽	-8.37217
淵	-8.37271
禹	-8.37276
枝	-8.37284
歴	-8.3731
史記	-8.38024
外	-8.38074
乆	-8.39052
稱	-8.39117
承	-8.3919
黒	-8.39208
孰	-8.39208
雨	-8.39242
宿	-8.39261
忘	-8.39262
照	-8.39266
覆	-8.39282
夜	-8.39818
諫	-8.39965
懷王	-8.39974
申	-8.41119
干	-8.41187
葢	-8.41209
微	-8.41228
歩	-8.41241
后	-8.4141
也𥙷曰	-8.41715
臣云	-8.4185
也一云	-8.42341
細	-8.4249
以喻	-8.43073
怨	-8.43115
開	-8.43234
待	-8.43246
兾	-8.43258
博	-8.43274
卒	-8.4328
御	-8.43286
州	-8.43297
苗	-8.43403
釋文作	-8.43784
逝	-8.43939
楚國	-8.44222
呼	-8.44545
力	-8.4502
由	-8.45086
冥	-8.45242
伏	-8.45269
金	-8.45279
幸	-8.4529
萬	-8.4531
逢	-8.45331
落	-8.45423
巻	-8.45465
漢	-8.45472
冬	-8.45529
説文	-8.45939
丘	-8.47336
任	-8.47367
禮	-8.4737
目	-8.47377
師	-8.47399
八	-8.47403
告	-8.47465
鄉	-8.47486
􁀙	-8.47492
篇	-8.47533
紂	-8.47534
考	-8.47536
蒲	-8.47559
寒	-8.47564
莖	-8.48593
天下	-8.48715
誰	-8.4942
質	-8.49528
樹	-8.4953
竭	-8.49601
轉	-8.49604
亡	-8.49608
強	-8.49608
更	-8.49639
右	-8.49644
昭	-8.49674
茝	-8.49759
第	-8.49772
是也	-8.49823
聊	-8.50175
忠信	-8.51122
本草	-8.51203
衡	-8.51645
徑	-8.51776
升	-8.51814
味	-8.51835
戸	-8.51838
條	-8.52143
詩云	-8.52708
性	-8.53756
履	-8.5396
仁	-8.54002
武	-8.54021
左	-8.5409
堯	-8.54112
應	-8.54172
烏	-8.54184
恨	-8.54195
遭	-8.54349
委	-8.5435
􁁊	-8.54478
香草	-8.54546
之山	-8.5581
官	-8.56114
之所	-8.56239
山海經	-8.56263
郷	-8.56373
口	-8.56381
可以	-8.56386
史	-8.56408
交	-8.5642
位	-8.56443
號	-8.56454
雷	-8.56499
哉	-8.56499
酒	-8.56525
榮	-8.56535
起	-8.5655
要	-8.56974
遠	-8.57468
載	-8.58676
湘	-8.58706
留	-8.58759
陵	-8.58797
囘	-8.58805
託	-8.58827
守	-8.58828
揺	-8.58877
遺	-8.58913
索	-8.5894
徒	-8.6014
夀	-8.60312
戲	-8.60562
伐	-8.61263
千	-8.61279
嵗	-8.61294
援	-8.61309
滅	-8.61314
喜	-8.61315
瓊	-8.61335
法	-8.61337
游	-8.61362
暮	-8.61365
阿	-8.61371
菜	-8.61372
棘	-8.61376
驅	-8.61381
去聲	-8.61406
菊	-8.61412
逸	-8.62771
末	-8.63474
舎	-8.63652
昔	-8.63724
□	-8.63741
連	-8.63769
元	-8.63783
論	-8.63806
獲	-8.63817
降	-8.63841
側	-8.63844
室	-8.63853
鼓	-8.63862
傾	-8.63886
厥	-8.6393
月	-8.64246
治	-8.65075
種	-8.65156
汨	-8.65297
氏	-8.65311
變	-8.66337
川	-8.66339
滿	-8.6634
殺	-8.66358
親	-8.6636
曽	-8.66362
畫	-8.66364
輔	-8.66381
辟	-8.66382
射	-8.66393
定	-8.66409
據	-8.66419
興	-8.66443
舜	-8.66461
就	-8.66489
王逸註	-8.66541
之中	-8.66585
說文云	-8.66812
也言已	-8.67837
思念	-8.68452
爾	-8.68795
智	-8.68821
邑	-8.68845
良	-8.68935
誤	-8.69003
甘	-8.69003
郢	-8.69003
汩	-8.69005
敗	-8.69006
兹	-8.69028
謀	-8.69041
真	-8.69054
運	-8.69057
越	-8.69069
屋	-8.69168
九章	-8.69169
芝	-8.6928
非是	-8.69293
飾	-8.71445
瑶	-8.71602
貴	-8.7167
沙	-8.71672
維	-8.71684
㣲	-8.71685
豈	-8.71719
帶	-8.71723
友	-8.71744
存	-8.71762
啟	-8.71775
違	-8.71825
益	-8.71846
感	-8.73701
君之	-8.7408
冀	-8.74361
危	-8.74387
九歌	-8.74426
久	-8.74431
旗	-8.74458
怒	-8.74497
炎	-8.74508
迫	-8.74515
征	-8.74546
草木	-8.74921
何所	-8.75921
五臣	-8.7622
所謂	-8.76327
心中	-8.7641
孔	-8.76722
不知	-8.77066
上有	-8.77182
俊	-8.7727
𬒳	-8.77309
徃	-8.77313
功	-8.77316
改	-8.77331
禄	-8.77362
圓	-8.77379
呉	-8.77391
宗	-8.77396
侍	-8.77404
旋	-8.77489
枯	-8.77568
二切	-8.78691
下有	-8.79273
厚	-8.79552
翔	-8.80134
濁	-8.80139
閒	-8.80163
鳯	-8.80183
急	-8.8019
人之	-8.80205
貞	-8.80224
鬱	-8.80238
舞	-8.80243
蛇	-8.80243
翼	-8.80258
私	-8.80273
愚	-8.80275
寧	-8.80289
期	-8.80291
渡	-8.80315
布	-8.80348
遷	-8.8035
孫	-8.80358
須	-8.80364
言君	-8.81147
移	-8.82209
慮	-8.83156
問	-8.83157
懼	-8.83175
荷	-8.83189
昏	-8.83191
鳳	-8.83234
娛	-8.83271
吴	-8.83286
頭	-8.83308
穢	-8.8331
騰	-8.83332
舟	-8.83378
殊	-8.83397
建	-8.8348
緑	-8.8353
愈	-8.83788
一曰	-8.84033
遊戲	-8.84138
去也	-8.84587
識	-8.84933
尤	-8.8559
愍	-8.85876
逐	-8.86259
鮌	-8.86322
眞	-8.86354
父	-8.86365
鍾	-8.8638
母	-8.86381
素	-8.86383
閔	-8.86402
池	-8.86405
珠	-8.86424
秦	-8.86428
刺	-8.8643
里	-8.86449
侯	-8.8645
尊	-8.86454
馮	-8.86462
艾	-8.86525
痛	-8.86557
但	-8.86596
毒	-8.87422
辛	-8.89416
才	-8.89443
惜	-8.89572
工	-8.89575
昌	-8.89592
爭	-8.89596
蹇	-8.89617
推	-8.89618
笑	-8.89666
蒿	-8.89671
適	-8.89681
憤	-8.89718
端	-8.89721
嘉	-8.89742
茅	-8.89816
莽	-8.89825
不同	-8.90593
君子	-8.9065
之不	-8.9082
之人	-8.91506
所居	-8.91726
漸	-8.91858
退	-8.92141
逺遊	-8.9249
貌也	-8.92516
鬼	-8.92812
竝	-8.92902
子胥	-8.92936
䇿	-8.9294
涕	-8.92941
徐	-8.92944
商	-8.92947
息	-8.9296
撫	-8.92966
餘	-8.92967
户	-8.92971
制	-8.92975
龜	-8.93018
附	-8.93032
丹	-8.93039
仰	-8.93052
竄	-8.93063
滛	-8.93119
聼	-8.93123
偽	-8.93126
蘇	-8.93152
而生	-8.9332
毁	-8.93356
賦云	-8.93539
荼	-8.93849
俱	-8.9386
此言	-8.94148
言我	-8.94228
君不	-8.94361
淮南	-8.95005
君也	-8.95489
之士	-8.95783
仙	-8.95995
蘋	-8.96243
羅	-8.96334
靜	-8.96342
荒	-8.96348
羊	-8.96353
聚	-8.96363
群	-8.96365
虛	-8.96377
増	-8.96397
步	-8.964
披	-8.96402
想	-8.96402
巧	-8.96403
散	-8.96411
尺	-8.96423
将	-8.96454
空	-8.96455
廹	-8.96456
對	-8.96456
讒佞	-8.96458
抑	-8.96468
備	-8.96486
順	-8.96496
火	-8.96511
殷	-8.96538
擊	-8.96567
垂	-8.96586
臺	-8.96605
説文云	-8.98114
二音	-8.98306
其志	-8.98695
小人	-8.99046
氷	-8.99115
也一無	-8.99221
記	-8.99275
沒	-8.99354
衆人	-8.99584
句	-8.99837
庭	-8.99841
慕	-8.99875
鴻	-8.99936
竒	-8.99959
羌	-8.99974
怪	-8.99982
遵	-8.99987
斷	-8.99993
曾	-8.99996
没	-9.00014
淹	-9.00017
各	-9.00018
顛	-9.00019
共	-9.00021
晉	-9.00021
平聲	-9.00027
增	-9.0003
旦	-9.00037
黨	-9.00063
悴	-9.00063
妃	-9.00065
莞	-9.00079
唐	-9.00082
嚴	-9.00096
匹	-9.00103
菌	-9.00138
寳	-9.00169
字補曰	-9.00292
子曰	-9.01324
者也	-9.0137
崑崙	-9.02358
招	-9.0257
愁思	-9.02869
顔	-9.02906
谷	-9.03522
仁傑按	-9.03524
狀	-9.03561
毀	-9.03607
䜛	-9.03611
雄	-9.03616
杜	-9.03616
愛	-9.03617
荃	-9.03617
衰	-9.03624
泣	-9.03627
威	-9.03656
寂	-9.03656
累	-9.03666
黙	-9.03677
貪	-9.03682
困	-9.03688
佚	-9.0369
走	-9.0369
循	-9.03698
延	-9.03722
松	-9.03729
雞	-9.03735
操	-9.03739
見騷經	-9.03761
泥	-9.03762
差	-9.03762
彌	-9.03787
藥	-9.03811
魂乎歸徠	-9.03897
何以	-9.06631
故曰	-9.06811
吟	-9.071
文選	-9.07288
註	-9.07296
姓	-9.07344
堅	-9.07361
㓗	-9.07463
歲	-9.07468
顚	-9.07477
依	-9.07481
寃	-9.07483
旁	-9.07496
婦	-9.07496
飲	-9.07559
絕	-9.07574
抱	-9.07579
肉	-9.07579
黑	-9.07588
毛	-9.07591
斥	-9.07594
城	-9.07617
約	-9.07619
弓	-9.07625
塗	-9.07626
河伯	-9.07632
洲	-9.07638
澆	-9.07648
放逐	-9.07652
所以	-9.07672
衍	-9.07723
仁義	-9.07727
陶	-9.07871
亂曰	-9.09751
叢	-9.09782
席	-9.10012
讀	-9.10942
罷	-9.11098
而長	-9.11304
魄	-9.11306
瑟	-9.11494
奔	-9.11499
縱	-9.11508
夕	-9.11508
輕	-9.1151
縁	-9.11524
茞	-9.11539
弟	-9.11541
加	-9.11549
展	-9.11552
楊	-9.11552
宮	-9.11554
許	-9.11574
超	-9.11575
忿	-9.1158
諛	-9.11589
會	-9.1159
眾	-9.11592
也一曰	-9.11606
頽	-9.11631
温	-9.11648
蓀	-9.11688
營	-9.11709
陶隠居云	-9.11714
天問	-9.11738
扵	-9.11797
忠正	-9.11894
東方	-9.11899
薺	-9.12086
憂也	-9.13107
終不	-9.1311
煩	-9.14774
吕	-9.15366
苟	-9.15629
圎	-9.15643
寄	-9.15679
紆	-9.1569
弗	-9.15713
爛	-9.15716
罪	-9.15722
船	-9.15722
娱	-9.15725
習	-9.15732
儀	-9.15732
肆	-9.15734
捐	-9.15737
養	-9.15746
桑	-9.15751
造	-9.15762
利	-9.15767
膏	-9.15772
序	-9.15773
漠	-9.15778
騷	-9.15794
特	-9.15819
隕	-9.15875
蔓	-9.15882
逰	-9.15906
班	-9.15916
葛	-9.15919
鹿	-9.15922
楸	-9.1617
南方	-9.1627
而自	-9.16785
憂愁	-9.17296
傳曰	-9.17309
逺去	-9.17651
𥙷	-9.18491
天地	-9.19727
賢人	-9.19796
渉	-9.19863
芙蓉	-9.19939
祖	-9.19944
冤	-9.19945
壹	-9.19965
千里	-9.1998
廟	-9.19992
曼	-9.19993
含	-9.20008
致	-9.20008
虞	-9.2001
閉	-9.20018
謟	-9.2002
銜	-9.2002
置	-9.20033
勢	-9.20033
晦	-9.20035
徙	-9.20036
枉	-9.2004
羮	-9.20041
支	-9.20054
召	-9.20057
他	-9.20059
設	-9.20067
鮮	-9.2007
刀	-9.20093
植	-9.20098
獸	-9.20114
旌	-9.20115
汜	-9.20118
諌	-9.20123
凌	-9.20129
媒	-9.20135
闕	-9.20139
面	-9.20145
爰	-9.20171
矢	-9.20177
悵	-9.20188
臨	-9.20228
迷	-9.20242
王逸	-9.20276
緣	-9.20336
郭璞註	-9.20522
自傷	-9.20771
皃也	-9.21558
驚	-9.23783
蟻	-9.24511
湛	-9.24519
倚	-9.24533
寶	-9.24536
芬	-9.24537
患	-9.2457
赴	-9.24578
倡	-9.24582
鄭	-9.24587
夭	-9.24595
譖	-9.24607
椉	-9.24615
鳳皇	-9.24622
接	-9.24625
紀	-9.24626
荆	-9.24629
務	-9.2463
狹	-9.24631
詳	-9.24636
醴	-9.24637
墮	-9.24637
專	-9.24637
電	-9.2464
鴈	-9.24644
扶	-9.2465
仕	-9.24651
闔	-9.24654
眇眇	-9.24662
握	-9.24683
掩	-9.24693
冥冥	-9.24719
軒	-9.24728
葯	-9.24734
敷	-9.24764
伊	-9.24799
弧	-9.24864
記云	-9.24923
法也	-9.2511
中心	-9.25918
忠直	-9.26315
忠信之	-9.27693
日月	-9.27829
註云	-9.27909
淮	-9.28354
避	-9.28775
朋	-9.29244
導	-9.29264
短	-9.29299
圜	-9.29303
墜	-9.29326
聴	-9.2933
免	-9.2934
愽	-9.29353
犬	-9.29354
咸	-9.29354
潤	-9.29366
迎	-9.29367
景	-9.29373
茍	-9.29374
迴	-9.29381
勞	-9.29384
臯	-9.29388
祭	-9.29393
刑	-9.29396
蕪	-9.29401
除	-9.29403
塵	-9.29407
裔	-9.2942
傅	-9.29421
凶	-9.29437
凡	-9.29447
虎	-9.2945
菅	-9.29542
狀如	-9.2959
淮南云	-9.29692
清白	-9.29866
周流	-9.29887
失志	-9.3022
厚也	-9.30298
道德	-9.30398
夫何	-9.30413
以言	-9.30667
也五臣	-9.30925
讒人	-9.30981
也詩云	-9.31247
而得	-9.31664
所在	-9.32463
戾	-9.3247
叶韻	-9.32501
霧	-9.32818
寤	-9.33194
也一本	-9.33213
而不能	-9.3369
薠	-9.33784
浮雲	-9.3388
弱	-9.34169
姱	-9.34259
飄	-9.34277
選	-9.34282
羽	-9.34293
濳	-9.34297
保	-9.343
邅	-9.34304
促	-9.34324
手	-9.34325
衛	-9.3433
劒	-9.34333
康	-9.34335
偃蹇	-9.34342
衞	-9.34347
閭	-9.34347
追	-9.34354
蟬	-9.34357
契	-9.34361
教	-9.34362
述	-9.34365
壄	-9.34366
房	-9.34374
燿	-9.34378
具	-9.34389
殃	-9.34392
宇	-9.34393
烝	-9.34401
孤	-9.34404
權	-9.34407
静	-9.34409
牛	-9.34421
圃	-9.34424
詩曰	-9.34433
羿	-9.34433
遥	-9.34435
氛	-9.34438
闇	-9.34441
穴	-9.34442
壁	-9.34461
滑	-9.34466
㳺	-9.34468
斯	-9.34475
尚書	-9.34484
来	-9.34488
蔡	-9.34503
苓	-9.34529
陞	-9.34562
杜蘅	-9.34577
臧	-9.34615
蕭	-9.34616
仲	-9.34619
東西	-9.34724
北方	-9.34951
逺逝	-9.3503
九辯	-9.35471
而見	-9.35586
木蘭	-9.35816
司命	-9.3652
中有	-9.36521
賢者	-9.36556
之外	-9.37403
言日	-9.37636
無有	-9.37789
漁父	-9.39028
韻	-9.39275
純	-9.39474
納	-9.39503
詐	-9.39513
麻	-9.39537
拂	-9.39538
蓴	-9.39558
低	-9.39563
客	-9.39569
鳬	-9.39579
廉	-9.39581
妙	-9.39584
伊尹	-9.39586
敖	-9.39597
悔	-9.39597
娭	-9.39598
肯	-9.396
田	-9.39601
驥	-9.39603
虬	-9.39607
勝	-9.39608
茂	-9.3961
陷	-9.39623
決	-9.39623
顯	-9.39625
僞	-9.39632
眩	-9.39633
辨	-9.39635
畢	-9.39649
宋	-9.39659
山鬼	-9.39663
左右	-9.39669
寐	-9.39682
繼	-9.39696
晏	-9.39706
軫	-9.3971
熟	-9.39711
帷	-9.39714
諸侯	-9.39736
坎	-9.39754
斗	-9.39777
䧟	-9.39779
清潔	-9.39797
薦	-9.39813
楚詞	-9.39876
吐	-9.39898
水中	-9.39901
美人	-9.3994
其葉	-9.3994
辛夷	-9.3997
音同	-9.40254
逺兮	-9.40297
與此	-9.40755
容與	-9.40854
莊子曰	-9.41103
俗人	-9.41491
之行	-9.41632
氏之	-9.42059
之道	-9.43086
上下	-9.43394
不合	-9.43734
繩	-9.44945
􁓒	-9.45009
卷	-9.45053
鴟	-9.45067
熱	-9.45081
巫	-9.45081
佯	-9.45096
徠	-9.45106
甞	-9.45126
薜荔	-9.45126
淩	-9.4513
琴	-9.45145
敬	-9.45146
奇	-9.45156
鵠	-9.45158
蘆	-9.45158
祀	-9.45159
牙	-9.45164
孝	-9.45177
涼	-9.45181
便	-9.45184
崇	-9.45184
轅	-9.45186
徴	-9.4519
憑	-9.4519
畔	-9.45193
米	-9.452
厭	-9.45201
忍	-9.45209
沛	-9.45215
宋洪興祖撰	-9.4523
關	-9.45237
菰	-9.4524
策	-9.45256
戰	-9.45257
宴	-9.45258
比干	-9.45261
總	-9.45265
雀	-9.45268
賢愚	-9.45271
配	-9.45279
强	-9.45289
再	-9.45296
嗟	-9.45296
縣	-9.453
諂	-9.45304
伍	-9.45307
録	-9.45322
舩	-9.45329
寸	-9.45345
隅	-9.45354
遽	-9.4536
霜	-9.45382
璣	-9.45404
精神	-9.45625
志意	-9.45922
意欲	-9.46125
大夫	-9.46413
聖人	-9.46482
然則	-9.4685
補曰説文	-9.47805
楚辭卷第	-9.47927
之神	-9.47972
一種	-9.48061
皆有	-9.48318
而後	-9.49543
止也	-9.49664
之處	-9.4977
行也	-9.49932
又有	-9.50045
而行	-9.50303
也言己	-9.50855
楫	-9.50931
羹	-9.50945
輿	-9.5097
鎭	-9.51001
擥	-9.51044
徂	-9.51048
危殆	-9.5105
稷	-9.51053
刻	-9.51057
卧	-9.51059
冰	-9.51062
暴	-9.51066
邊	-9.51069
賊	-9.51071
滯	-9.51072
鸞	-9.51077
蜺	-9.5108
裳	-9.5108
丈	-9.51081
陸	-9.51088
迹	-9.51088
奉	-9.51094
騖	-9.51094
𤼵	-9.51095
證	-9.51096
究	-9.51096
楚詞補注巻	-9.51099
渚	-9.51101
輪	-9.51117
規	-9.51121
咎	-9.51123
慿	-9.51124
収	-9.51134
負	-9.51142
茹	-9.51143
濵	-9.51146
堯舜	-9.51157
》	-9.51163
《	-9.51165
恒	-9.51168
祿	-9.5117
四海	-9.5118
盈	-9.5119
礚	-9.5122
萃	-9.51221
覩	-9.51227
葍	-9.51253
浴	-9.51284
攝	-9.51295
箘	-9.51312
唐本註云	-9.51317
西北	-9.51403
白芷	-9.51547
湘君	-9.51557
匿	-9.51701
西方	-9.51713
名也	-9.51864
之類	-9.51989
仙人	-9.5223
舊音	-9.52286
病	-9.53351
天帝	-9.53363
南北	-9.53801
之徒	-9.54049
也詩曰	-9.54441
志也	-9.5485
釋文第	-9.55246
不用	-9.55374
魂兮歸來	-9.55849
又云	-9.5589
言楚	-9.5603
郭璞	-9.56234
亦有	-9.56323
之事	-9.56413
妬	-9.56537
之詞	-9.5696
郭	-9.57043
愼	-9.57183
激	-9.57184
闗	-9.5719
菀	-9.57196
祠	-9.57224
犇	-9.57234
校書郎臣王逸上	-9.57238
逾	-9.57251
藂	-9.57252
;	-9.57259
蒸	-9.5726
臭	-9.57265
量	-9.57269
讒䛕	-9.5727
職	-9.57272
兆	-9.57279
眇	-9.57279
橘柚	-9.57283
誅	-9.57291
洞	-9.57298
霓	-9.573
汙	-9.57303
沸	-9.57308
搴	-9.57308
簡	-9.57309
賔	-9.57309
幹	-9.57316
涉	-9.57318
潛	-9.57323
隘	-9.57325
竟	-9.57334
蘘荷	-9.57335
熊	-9.5734
獻	-9.57344
吸	-9.57349
妄	-9.5735
參	-9.57353
庸	-9.57358
懈	-9.57358
福	-9.57359
收	-9.5736
繪	-9.57363
巖	-9.57377
蕩	-9.57382
襲	-9.57386
溢	-9.57388
効	-9.57402
效	-9.57407
蛟龍	-9.57413
辰	-9.57421
秉	-9.57421
髪	-9.57424
忌	-9.5745
絲	-9.57455
校	-9.57465
快	-9.57483
鯀	-9.57494
蘼蕪	-9.57495
謬	-9.57522
大招	-9.57553
阻	-9.57568
申生	-9.57627
江東	-9.57687
百草	-9.57788
黄帝	-9.5791
人謂	-9.5807
史記云	-9.58163
屈子	-9.58188
自喻	-9.58278
帝謂	-9.58442
道徳	-9.58788
惻	-9.59879
慎	-9.60078
楚人	-9.60454
其實	-9.6057
可食	-9.61627
光明	-9.61996
盛也	-9.62521
歸來	-9.62882
香草也	-9.63418
甲	-9.635
憤懣	-9.63742
蜀	-9.63767
朗	-9.63785
博雅	-9.6382
蓮	-9.63828
䛕	-9.63841
人謂之	-9.63861
謝	-9.63884
淺	-9.63891
坐	-9.63902
敎	-9.63919
禍	-9.63921
奄	-9.63921
夲	-9.63922
向	-9.63922
源	-9.63923
髮	-9.63931
􁛜	-9.63939
葵	-9.6394
沅	-9.63944
醫	-9.63946
女蘿	-9.63946
議	-9.63954
鈍	-9.63958
芰	-9.63961
壞	-9.63963
峻	-9.63965
懲	-9.63972
戚	-9.63972
露	-9.63975
消	-9.63979
酌	-9.63983
果	-9.63986
騁	-9.63988
歡	-9.63995
彭	-9.63996
皐	-9.64006
血	-9.64007
扈	-9.64007
雉	-9.64013
郎	-9.64015
憫	-9.64018
墨	-9.64021
封	-9.64022
東南	-9.64023
畜	-9.64034
調	-9.64039
戒	-9.64048
鳯皇	-9.64059
管	-9.64065
圗	-9.64066
愴	-9.64066
躬	-9.64074
謡	-9.64077
墬	-9.64082
姦	-9.64085
雪	-9.64085
機	-9.64087
阜	-9.64092
燕	-9.64098
醜	-9.64099
羲	-9.64102
鴞	-9.64102
充	-9.64106
零	-9.64114
肝	-9.64116
蓄	-9.64133
栗	-9.64148
賤	-9.64158
漢書	-9.64161
圖經云	-9.64186
播	-9.64227
飾也	-9.6423
摧	-9.64268
慄	-9.64282
椒蘭	-9.64311
忠臣	-9.64343
溷濁	-9.64373
黃帝	-9.64421
然後	-9.64532
白色	-9.64545
愁苦	-9.64566
列子	-9.64594
江離	-9.64616
進用	-9.6466
髙舉	-9.6469
句末	-9.64832
又何	-9.64874
山澤	-9.64946
泉	-9.65836
崑崙之	-9.66004
害也	-9.66233
叢生	-9.67038
治也	-9.67327
本作	-9.67361
楚辭卷第十	-9.67395
也或曰	-9.67583
作而	-9.67612
潔白	-9.67734
又音	-9.68398
其若	-9.6885
志不	-9.68874
云今	-9.68925
十一	-9.69121
師古云	-9.69397
葉似	-9.69434
敢	-9.70527
世溷濁	-9.70702
到	-9.70827
蛾	-9.70895
湖	-9.70984
􁂆	-9.7101
謗	-9.71017
騷經	-9.71018
􁪡	-9.71022
豹	-9.71022
矯	-9.71037
胷	-9.71052
濡	-9.71055
秀	-9.71057
惠	-9.7106
鑿	-9.7106
幼	-9.71062
緯	-9.71066
柏	-9.71067
閑	-9.71075
速	-9.71078
潢	-9.71084
綴	-9.71084
寥	-9.71084
峨峨	-9.71087
釣	-9.71089
駿	-9.71095
乾	-9.71098
榖	-9.71098
翳	-9.711
藻	-9.71101
革	-9.71104
撓	-9.71105
案	-9.71111
㢮	-9.71116
洛	-9.71122
苴	-9.71122
憎	-9.71128
勤	-9.71132
耀	-9.71132
業	-9.71136
叔	-9.7114
娯	-9.7114
嫉妬	-9.71143
嘗	-9.71143
厯	-9.71145
株	-9.71148
觸	-9.71149
拘	-9.71152
乖	-9.71153
撃	-9.71154
冠	-9.71156
卑	-9.71158
塞	-9.71169
兼	-9.7117
洶	-9.71171
鶴	-9.71172
梟	-9.71176
皃補曰	-9.71182
凉	-9.71188
佳	-9.71188
竽	-9.71194
醢	-9.71199
隔	-9.71199
界	-9.71199
器	-9.71201
竢	-9.71208
叙	-9.71215
兔絲	-9.71218
躊躇	-9.71219
廻	-9.7123
險	-9.71235
葅	-9.71235
祝融	-9.71235
恣	-9.71235
崔	-9.71243
蠢	-9.71252
吹	-9.71257
庶	-9.71257
際	-9.71261
古本	-9.71274
晻	-9.71275
玊	-9.71281
烈	-9.71282
徧	-9.71298
春秋	-9.71301
淫淫	-9.71306
鳥獸	-9.71333
巒	-9.71333
芬芳	-9.71338
芒	-9.71343
訓	-9.7136
桂樹	-9.71367
遁	-9.71373
睹	-9.71376
自憐	-9.71409
太息	-9.7145
重華	-9.71485
江南	-9.71602
已之	-9.72054
郭璞云	-9.72173
憂心	-9.72578
是謂	-9.72698
太一	-9.72888
神明	-9.72921
古人	-9.73046
或作	-9.7364
杜若	-9.74001
髙山	-9.74194
鼎	-9.74377
明君	-9.74473
不識	-9.74688
之樂	-9.74926
不死	-9.74932
而日	-9.75265
至也	-9.754
並音	-9.75723
武王	-9.76101
也又	-9.76545
三月	-9.77865
以此	-9.78295
之意	-9.78451
膺	-9.7855
繚	-9.78631
豫	-9.78647
歧	-9.78682
麗	-9.78687
汝	-9.7869
􁇻	-9.78692
膠	-9.78696
溷	-9.78706
假	-9.78709
邈	-9.78713
篤	-9.78719
戎	-9.78721
蘅	-9.78724
爵	-9.78731
鐘	-9.78735
葭	-9.78737
粱	-9.78748
傑	-9.78753
嘉祐圖經云	-9.78756
况	-9.78756
壊	-9.78756
襄	-9.78765
駑	-9.78773
:	-9.78777
闐	-9.7878
湘夫人	-9.78782
驕	-9.78784
昧	-9.78784
嫉	-9.78794
唯	-9.78795
駟	-9.78798
頓	-9.78799
􁈔	-9.78799
曹	-9.78799
愉	-9.78805
壇	-9.78809
尾	-9.78811
有節度	-9.78811
別	-9.78817
肥	-9.78817
廢	-9.78823
紉	-9.78824
剖	-9.78829
胥	-9.7883
諭	-9.7883
蓬	-9.78836
悦	-9.7884
雨師	-9.78842
亷	-9.78851
沅湘	-9.78855
每	-9.78858
罰	-9.78859
男	-9.78861
􁌁􁌁	-9.78862
尹	-9.78863
頗	-9.78863
恢	-9.78864
賜	-9.78865
偶	-9.78869
狐疑	-9.78877
瀬	-9.78881
幾	-9.78883
鋭	-9.78891
族	-9.78891
悶	-9.78893
倫	-9.78898
粉	-9.78904
暇	-9.78906
檻	-9.78911
濟	-9.78911
䕃	-9.78916
貫	-9.7892
奮	-9.78921
鄙	-9.78928
李	-9.78936
匡	-9.78941
陳藏器云	-9.78943
佇	-9.78947
筆	-9.78955
垠	-9.78957
竊	-9.78961
芎藭	-9.78965
柔	-9.78971
并	-9.78988
麤	-9.78992
屏	-9.78993
投	-9.78994
遑	-9.79004
俾	-9.79004
萬物	-9.79006
年嵗	-9.79008
單	-9.7901
奔走	-9.79027
萌	-9.79027
形體	-9.79027
䰟魄	-9.79035
季	-9.79105
三危	-9.79131
四月	-9.79138
放弃	-9.79197
隴	-9.79254
離騷經	-9.79254
西極	-9.79266
蔽日	-9.79269
中央	-9.7929
山谷	-9.79293
二物	-9.79326
梓	-9.79367
九州	-9.79462
不容	-9.79478
處也	-9.79693
注同	-9.79793
逺望	-9.79888
苦菜	-9.79913
髙陽	-9.80226
修行	-9.80382
補曰詩云	-9.80463
用之	-9.80563
一物	-9.80572
意中	-9.80591
取其	-9.80639
何爲	-9.80652
本草有	-9.80678
也詩	-9.80962
天地之	-9.80994
又曰	-9.81113
一作不	-9.81781
草名	-9.81805
美者	-9.8244
故言	-9.82586
天子	-9.82692
當作	-9.82983
言已欲	-9.83614
貎也	-9.83739
言巳欲	-9.8416
補曰並	-9.84297
言楚國	-9.8433
盛貌	-9.84584
安也	-9.84637
懸	-9.84967
文云	-9.85221
孟子	-9.85299
尋	-9.8606
窮極	-9.86243
迅	-9.86434
下文	-9.86528
諷	-9.86638
骨	-9.86754
或曰	-9.86795
糧	-9.8685
下音戸	-9.86927
隂陽	-9.86945
恩	-9.86981
忳	-9.87
鶩	-9.87028
駭	-9.87037
:「	-9.87041
銳	-9.87043
驟	-9.87049
攘	-9.8705
態	-9.87054
章句第	-9.87055
卿	-9.87056
曷	-9.8706
愆	-9.87094
網	-9.87102
曉	-9.87103
虹	-9.87104
櫂	-9.87106
瀨	-9.87109
耿	-9.8711
沖	-9.87111
鳩	-9.87113
嬋	-9.87113
曶	-9.87119
仞	-9.87128
翩	-9.87128
沉	-9.87128
翶	-9.8713
諱	-9.87132
牧	-9.87136
覺	-9.87136
汚	-9.87136
律	-9.8714
魁	-9.87143
㝠	-9.87144
玦	-9.87147
振	-9.87149
審	-9.87149
拔	-9.87155
壓	-9.87155
浦	-9.87155
决	-9.87158
束	-9.87158
值	-9.8716
休	-9.87162
吉	-9.87163
徘徊	-9.87163
湍	-9.87166
補曰左傳	-9.87168
譽	-9.87177
号	-9.87177
杳杳	-9.87179
浩	-9.87179
稽	-9.87183
局	-9.87189
梅	-9.87192
誤矣	-9.87196
踰	-9.87199
誦	-9.872
囿	-9.87204
堅固	-9.87204
仇	-9.87211
占	-9.87213
洞庭	-9.87213
逃	-9.87215
狼	-9.87215
往來	-9.87217
揔	-9.87219
酸	-9.87221
晩	-9.87221
欿	-9.87223
寛	-9.87225
争	-9.87236
菖蒲	-9.87241
盤	-9.87243
嚳	-9.87247
卬	-9.87251
最	-9.87255
斡	-9.87264
廓	-9.87265
兒	-9.87268
省	-9.87278
藪	-9.87282
誓	-9.87292
邁	-9.87293
全	-9.8731
蓍	-9.8731
虺	-9.87314
襃	-9.87315
如此	-9.87317
呴	-9.87321
蓱	-9.87322
疎	-9.87323
殆	-9.87328
京	-9.87329
睨	-9.87331
昇	-9.8734
棲	-9.87355
禮記	-9.87359
惶	-9.87401
陳辭	-9.87412
寡	-9.87414
眠	-9.87418
薜茘	-9.87435
卭	-9.87443
於悒	-9.87444
太公	-9.87446
普	-9.87477
昌陽	-9.87484
嶺	-9.87517
廷	-9.87524
桐	-9.87545
忠誠	-9.87563
放棄	-9.87642
羣小	-9.87652
榝	-9.8769
風俗	-9.87733
疾也	-9.87735
石蘭	-9.87907
四時	-9.87962
十二	-9.88074
引此	-9.88358
日出	-9.88465
史記作	-9.88643
天命	-9.88736
聖明	-9.89346
化爲	-9.90017
有也字	-9.90699
同志	-9.91031
憂思	-9.91059
心悲	-9.9133
言其	-9.91563
香也	-9.91691
採	-9.92029
逺行	-9.92113
中情	-9.92339
一作以	-9.92499
以下	-9.92633
美也	-9.93039
鳥也	-9.93059
人所	-9.93464
所生	-9.93591
䰟兮歸來	-9.93825
曲也	-9.94562
不遇	-9.94673
九月	-9.95278
貌補曰	-9.95687
新	-9.95888
尖	-9.95956
臛	-9.96069
庚	-9.96083
逶	-9.96086
鉏	-9.96113
殿	-9.96113
汗	-9.96125
倉	-9.96132
㢘	-9.96139
激楚	-9.96143
佐	-9.96148
夢	-9.96155
顏	-9.9616
國殤	-9.96164
虖	-9.96169
傺	-9.96174
駝	-9.96174
塡	-9.96174
糅	-9.96184
塊	-9.9619
恱	-9.96192
屏翳	-9.96195
肌	-9.96197
滂	-9.96202
轡	-9.96202
疲	-9.96203
襜	-9.96204
巨	-9.96204
芳與澤其雜糅兮	-9.96204
女嬃	-9.96204
漫	-9.96211
犯	-9.96211
苑	-9.96213
瀣	-9.96215
震	-9.9622
猶豫	-9.96222
涯	-9.96228
晚	-9.96228
兄	-9.96229
柴	-9.96229
浞	-9.96229
儲	-9.96232
鼂	-9.96232
狂	-9.96235
脅	-9.96237
內	-9.96239
赤松	-9.96239
桀	-9.96246
役	-9.96246
富	-9.96246
欵	-9.9625
賈	-9.96252
衽	-9.96257
腹	-9.9626
戶	-9.96262
帳	-9.96262
狐	-9.96264
咸池	-9.96267
豐	-9.96267
姜	-9.96271
慘	-9.96274
飽	-9.96274
仁傑按山海經	-9.96276
壅	-9.96278
蒼梧	-9.96278
漿	-9.96282
偃	-9.96283
郊	-9.9629
紅	-9.9629
臂	-9.96294
叩	-9.96295
逞	-9.96297
學	-9.96299
忠貞	-9.963
剛	-9.96301
鬱鬱	-9.96304
巴	-9.96306
翠	-9.96306
劉向	-9.96311
䖏	-9.96317
踡	-9.96324
係	-9.96325
脱	-9.96325
稍	-9.96325
畝	-9.96326
瞀	-9.96327
屑	-9.96329
𤓰	-9.96329
翺翔	-9.96335
巖穴	-9.96336
綿	-9.96343
阨	-9.96345
降下也	-9.9635
艸	-9.96354
卉	-9.96357
敶	-9.96363
叫	-9.96371
七諫	-9.96376
訾	-9.96378
抽	-9.9638
黃昏	-9.96397
怛	-9.96398
焭	-9.9641
園	-9.96413
豆	-9.96422
自沈	-9.96433
丁	-9.96442
年歳	-9.96445
咎繇	-9.96447
燭	-9.96468
而已	-9.96476
䑕	-9.96487
洪慶善曰	-9.96552
思慮	-9.96573
蘭蕙	-9.96578
瑞	-9.96626
軌	-9.96632
呼為	-9.96646
博雅云	-9.96661
固知	-9.96664
風伯	-9.9671
謇	-9.96723
玉英	-9.96819
從容	-9.96866
内傷	-9.96875
正直	-9.97057
吕切	-9.97087
内自	-9.97129
鄣	-9.97189
食之	-9.97468
人呼	-9.97474
也本草	-9.9754
法度	-9.97753
道也	-9.97897
於是	-9.97974
將去	-9.98084
君命	-9.98147
所能	-9.98416
顔師古	-9.98553
言讒人	-9.98598
言巳所	-9.98618
史記曰	-9.98691
也其一作	-9.99241
立也	-9.99386
歎曰	-9.99617
戾也	-9.99641
者謂之	-9.99774
之名	-10.0039
何故	-10.0059
山名	-10.0061
十四	-10.0102
所云	-10.0108
之情	-10.0136
説者	-10.0143
言司命	-10.0156
於天	-10.0171
說者	-10.0208
兮愁	-10.0261
其身	-10.0269
之法	-10.0336
道兮	-10.0404
行忠信	-10.0412
獨行	-10.0413
之水	-10.0419
前也	-10.0503
此意	-10.0505
蒜	-10.0551
其一作而	-10.0562
豪	-10.0571
莊子	-10.0584
猶未	-10.0584
飲食	-10.0593
莊	-10.0603
睠	-10.0608
祐	-10.0608
辯	-10.0608
排	-10.0609
萍	-10.061
罹	-10.0611
愬	-10.0613
㧞	-10.0613
寗戚	-10.0613
燒	-10.0614
曜	-10.0614
皷	-10.0614
組	-10.0614
􁚍	-10.0614
遲遲	-10.0615
􁂄	-10.0616
摶	-10.0616
叛	-10.0616
曠	-10.0617
喟	-10.0617
綱	-10.0617
皓	-10.0617
搖	-10.0618
朔	-10.0618
半	-10.0618
謹	-10.0618
萬民之	-10.0618
撟	-10.0619
徊	-10.0619
偷	-10.062
囊	-10.062
柱	-10.062
曼曼	-10.062
簫	-10.062
柘	-10.062
它	-10.062
矩	-10.062
雍	-10.062
澹	-10.0621
澒	-10.0621
獵	-10.0621
穆	-10.0621
津	-10.0621
猒	-10.0621
憚	-10.0621
腸	-10.0622
葺	-10.0622
助	-10.0622
佪	-10.0623
詒	-10.0623
勺	-10.0623
籠	-10.0623
藜	-10.0623
齒	-10.0623
伴	-10.0623
宅	-10.0623
臻	-10.0623
瞻	-10.0623
詬	-10.0624
洪水	-10.0625
煢煢	-10.0625
垢	-10.0625
杳	-10.0625
眼	-10.0626
綺	-10.0626
妖	-10.0626
汨羅	-10.0626
㫁	-10.0626
左氏傳曰	-10.0626
槁	-10.0626
洋洋	-10.0627
晨	-10.0627
缺	-10.0627
靈均	-10.0628
䠶	-10.0628
驚駭	-10.0628
衰老	-10.0628
晝	-10.0628
禦	-10.0629
杜衡	-10.0629
送	-10.0629
微霜	-10.0629
娶	-10.0629
憂患	-10.0629
蒼	-10.0629
萎	-10.063
蛩	-10.063
捷	-10.063
繁	-10.063
㣻	-10.063
惆悵	-10.063
吞	-10.063
涌	-10.0631
塺	-10.0631
騎	-10.0632
郢都	-10.0633
桃	-10.0634
卜居	-10.0634
晞	-10.0635
閨	-10.0635
悽	-10.0635
悉	-10.0635
眉	-10.0636
叶	-10.0636
糜	-10.0636
包	-10.0636
曳	-10.0636
錫	-10.0637
簧	-10.0637
競	-10.0638
欣	-10.0639
濿	-10.064
鶵	-10.064
􁓣	-10.064
讀若	-10.0641
耦	-10.0641
摽	-10.0642
宋玉	-10.0643
緩	-10.0643
進退	-10.0643
脩長也	-10.0643
麥	-10.0644
變易	-10.0645
脂	-10.0645
咷	-10.0645
藑	-10.0646
崑	-10.0646
倚立	-10.0647
芸	-10.0647
陿	-10.0648
菉	-10.0648
陟	-10.0651
飄風	-10.0651
蜀本圖經云	-10.0652
姑	-10.0652
雲師	-10.0652
后土	-10.0654
媚	-10.0657
音俞	-10.0658
明智	-10.0662
牡桂	-10.0663
國家	-10.0664
思慕	-10.0664
原書	-10.0666
菌桂	-10.0666
踊躍	-10.0667
西施	-10.067
孟切	-10.0675
榜	-10.0675
紫色	-10.0675
﨑	-10.0677
崑崙山	-10.0678
之上	-10.0682
怨思	-10.0683
天庭	-10.0683
楚辭	-10.0688
睩	-10.069
甘草	-10.0694
文采	-10.0696
韻作	-10.0699
山海經云	-10.0704
楚謂之	-10.0706
悲哀	-10.0707
言時世	-10.071
我心	-10.071
讀作	-10.0719
皇天	-10.072
吾將	-10.0723
即今	-10.0724
也一無而字	-10.0736
二女	-10.0736
先王	-10.0757
美玉	-10.0757
盛皃	-10.076
人也	-10.0771
我車	-10.0782
官切	-10.0797
衆多	-10.0824
也以一作而	-10.0833
讒言	-10.088
玉名	-10.0898
其花	-10.09
小山	-10.0909
毒也	-10.0962
皃也言	-10.0994
其中	-10.105
一注云	-10.1058
化為	-10.1064
事君	-10.1084
故欲	-10.1115
古作	-10.1124
逝兮	-10.1242
忠直之	-10.1322
憂思也	-10.1416
也莊子曰	-10.1451
極兮	-10.1455
釋文第十	-10.1509
巳解於	-10.1531
陸璣	-10.1532
匿也	-10.1571
乗雲	-10.162
孟	-10.1625
門也	-10.163
貌也言	-10.1684
逆	-10.1713
鷄	-10.1715
莎	-10.1715
暗	-10.1717
彷徉	-10.1717
域	-10.1719
晝夜	-10.1719
筮	-10.1721
糾	-10.1722
蠭	-10.1723
渥	-10.1723
溪	-10.1724
術	-10.1724
俇	-10.1725
憐	-10.1725
披披	-10.1725
棊	-10.1725
烹	-10.1726
懭	-10.1726
山中	-10.1726
程	-10.1726
腐	-10.1727
恊	-10.1728
社	-10.1728
寵	-10.1728
毋	-10.1728
鼈	-10.1728
溶	-10.1728
貧	-10.1729
豐隆	-10.1729
壅蔽	-10.1729
韶	-10.173
耄	-10.173
曁	-10.1731
媛	-10.1731
寂寞	-10.1731
撰	-10.1731
儵	-10.1731
掌	-10.1731
弭	-10.1732
爽	-10.1732
恃	-10.1732
億	-10.1732
扶桑	-10.1732
敏	-10.1733
點	-10.1733
蛾眉	-10.1733
削	-10.1733
奥	-10.1733
藝	-10.1734
雰雰	-10.1734
傲	-10.1734
屯	-10.1734
瑤	-10.1734
嗜	-10.1734
讓	-10.1734
彈	-10.1734
譬	-10.1734
韓	-10.1735
鼔	-10.1735
忽乎吾將行	-10.1735
魂乎徠歸	-10.1735
雌	-10.1735
黃鵠	-10.1736
遙	-10.1736
斲	-10.1736
漫漫	-10.1737
㸃	-10.1737
典	-10.1737
稻	-10.1737
弊	-10.1737
橋	-10.1737
朴	-10.1737
儔	-10.1737
旻	-10.1738
䲭	-10.1738
妻	-10.1738
譏	-10.1739
棗	-10.1739
聮	-10.1739
格	-10.174
蔞	-10.174
葦	-10.174
殛	-10.174
蟲	-10.174
早	-10.1741
低佪	-10.1741
浄	-10.1741
梗	-10.1741
溶溶	-10.1742
質性	-10.1742
壄一作野	-10.1742
𢷬	-10.1742
随	-10.1742
湏	-10.1742
洪慶善云	-10.1742
擇	-10.1742
黄鵠	-10.1743
刈	-10.1743
而巳	-10.1743
纒	-10.1743
少康	-10.1743
陋	-10.1743
驗	-10.1744
崙	-10.1744
報	-10.1744
宰	-10.1746
僕夫	-10.1746
畦	-10.1746
㬰	-10.1746
凝	-10.1746
卓	-10.1746
苖	-10.1746
厄	-10.1747
𦕈	-10.1747
喪	-10.1747
擗	-10.1747
貪佞	-10.1747
潭	-10.1748
離騷草木疏	-10.1748
空虚	-10.1748
障	-10.1748
府	-10.1748
等	-10.1748
編	-10.1749
薋	-10.1749
啾啾	-10.175
出於此	-10.175
哀時命	-10.175
尤過也	-10.175
茲	-10.175
訴	-10.1751
焭焭	-10.1751
慼	-10.1751
狶	-10.1751
嗷	-10.1752
憭	-10.1754
板	-10.1755
謳	-10.1755
碕	-10.1755
虫	-10.1756
淮南子云	-10.1756
浮遊	-10.1758
驅馳	-10.1758
隨俗	-10.1759
隱藏	-10.176
江濵	-10.176
繞	-10.176
䖀	-10.176
神獸	-10.1761
沈江	-10.1762
猴	-10.1764
三秀	-10.1765
嫩	-10.1765
黄昏	-10.1766
貞良	-10.1767
蛄	-10.1774
亂惑	-10.1775
膓	-10.1776
薫	-10.1778
見九歌	-10.1778
岳	-10.178
逸說	-10.1782
六合	-10.1783
鳥飛	-10.1784
所載	-10.1787
紫花	-10.1792
白蒿	-10.1792
秋風	-10.1799
朗切	-10.1805
古本作	-10.1813
感切	-10.1813
淸白	-10.1814
草野	-10.1819
日光	-10.1835
郭註	-10.1839
雲從	-10.1841
其義	-10.1842
結實	-10.1845
神龍	-10.1856
知我	-10.1873
乗風	-10.1877
路也	-10.1878
神靈	-10.1893
淮南曰	-10.1896
孔切	-10.1897
之一作而	-10.1899
深山	-10.1902
上聲	-10.1907
逺離	-10.1921
得志	-10.1923
大鳥	-10.1925
者是也	-10.1939
周行	-10.1952
不及	-10.1988
而葉	-10.1995
生於	-10.2009
流水	-10.2059
後世	-10.2109
說文曰	-10.2115
之意也	-10.2122
高山	-10.2123
生水	-10.2134
水名	-10.2157
▁兮	-10.2163
下同	-10.2165
不别	-10.2219
為席	-10.223
其本	-10.2231
經曰	-10.228
無也字	-10.2284
草也	-10.2297
愁而	-10.2304
莖葉	-10.2317
人名	-10.2334
兮上	-10.2353
過之	-10.2364
二月	-10.2364
其華	-10.2379
古之	-10.2383
修潔	-10.2391
當如	-10.2396
遠兮	-10.2407
還歸	-10.2508
不周	-10.2539
侘傺	-10.2681
欽定四庫全書楚詞補注巻	-10.2687
言之	-10.2691
央	-10.2743
其上	-10.2846
珍	-10.2855
不若	-10.2871
之甚	-10.2872
俞	-10.2897
余兮	-10.2908
不反	-10.294
紛亂	-10.2949
􁫛	-10.2949
􁒅	-10.2955
瞽	-10.2956
聦	-10.2959
招䰟	-10.2961
壺	-10.2964
況	-10.2967
葬	-10.2968
媮	-10.2969
補曰此言	-10.2969
仆	-10.2969
驪	-10.297
救	-10.297
柚	-10.297
鏗	-10.2971
禁	-10.2973
鸞鳳	-10.2973
旎	-10.2973
銷	-10.2973
逮	-10.2973
霑	-10.2974
式	-10.2974
東皇太一	-10.2974
暑	-10.2974
歸來歸來	-10.2975
薉	-10.2975
胄	-10.2975
憍吾以其美好兮	-10.2975
歔欷	-10.2975
蘭膏明燭	-10.2975
邦	-10.2976
泠	-10.2976
旹	-10.2976
亮	-10.2976
徙倚而	-10.2976
絓	-10.2976
谿	-10.2977
娛樂也	-10.2977
僻	-10.2977
堯舜之抗行兮	-10.2977
渴	-10.2977
暨	-10.2977
㝷	-10.2977
何時俗之工巧兮	-10.2977
割	-10.2978
恖	-10.2978
啇	-10.2978
蒔	-10.2978
耕	-10.2979
舛	-10.2979
便娟	-10.2979
姿	-10.298
驂	-10.298
戃慌	-10.298
庻	-10.298
褊	-10.298
雲中君	-10.298
旍	-10.298
旄	-10.298
翥	-10.298
供	-10.298
曙	-10.298
謨	-10.298
山其草多	-10.298
泄	-10.298
畹	-10.298
肴	-10.298
尸	-10.2981
絜	-10.2981
曵	-10.2981
廓落	-10.2981
瞑	-10.2981
羨	-10.2981
怊	-10.2981
蕩蕩	-10.2981
忡	-10.2981
黎	-10.2981
鄰	-10.2981
儼	-10.2982
濕	-10.2982
禽	-10.2982
嬴	-10.2982
溪蓀	-10.2983
涸	-10.2983
參差	-10.2983
蜿	-10.2983
揭	-10.2983
用此語	-10.2983
妲	-10.2983
心絓結而不解兮	-10.2983
脫	-10.2984
𢎞	-10.2984
嗼	-10.2984
拱	-10.2984
淪	-10.2984
灼	-10.2984
薰	-10.2984
斐	-10.2985
相視也	-10.2985
淨	-10.2985
荅	-10.2985
繡	-10.2985
弘	-10.2985
旬	-10.2985
而蔽之	-10.2985
􁌁	-10.2986
悲泣也	-10.2986
鬰	-10.2986
汲	-10.2986
寓	-10.2986
却	-10.2986
稷契	-10.2986
判	-10.2986
坂	-10.2987
恭	-10.2987
蓐收	-10.2987
虞舜	-10.2987
瑋	-10.2987
薇	-10.2987
弋	-10.2987
踈	-10.2987
泰	-10.2987
趣	-10.2987
猨	-10.2988
廡	-10.2988
窺	-10.2988
譎	-10.2988
􁍩	-10.2988
潺湲	-10.2988
彊	-10.2988
纚	-10.2988
育	-10.2988
碎	-10.2989
倨	-10.2989
杭	-10.2989
底	-10.2989
馳騖	-10.2989
炙	-10.2989
牀	-10.2989
縹	-10.2989
鴆	-10.299
芎	-10.299
跡	-10.299
皇輿	-10.299
巡	-10.299
蒚	-10.2991
豐肉微骨	-10.2991
鶉	-10.2991
沈抑而不	-10.2991
袪	-10.2991
聦明	-10.2992
秘	-10.2992
畛	-10.2992
眷眷	-10.2992
蜜	-10.2992
兎	-10.2993
玩	-10.2993
翺	-10.2993
埋	-10.2993
丑	-10.2993
悠悠	-10.2993
俛	-10.2993
埃	-10.2993
鮑	-10.2993
讙	-10.2993
踵	-10.2994
箭	-10.2994
攬	-10.2994
㫖	-10.2994
庾	-10.2994
豉	-10.2995
賈誼	-10.2995
肩	-10.2995
彰	-10.2995
啼	-10.2995
絡	-10.2995
脉	-10.2995
㡬	-10.2995
䔖	-10.2996
朅	-10.2996
楹	-10.2996
破	-10.2996
北辰	-10.2996
師延	-10.2996
表	-10.2997
熊羆	-10.2997
􁁛	-10.2997
宣	-10.2997
弛	-10.2997
詰	-10.2997
霄	-10.2997
抒	-10.2997
財	-10.2997
飛泉	-10.2997
遲	-10.2998
鎮	-10.2998
塵埃	-10.2998
顚倒	-10.2998
勿	-10.2998
㨗	-10.2998
玄鶴	-10.2999
登階	-10.2999
劉	-10.2999
勲	-10.2999
窕	-10.3
奴	-10.3
惜誦	-10.3
剥	-10.3
宻	-10.3
廵	-10.3
緒	-10.3001
導引	-10.3001
冤結	-10.3001
凋	-10.3001
竦	-10.3002
可信	-10.3003
年齒	-10.3003
品	-10.3004
彫	-10.3004
飛翔	-10.3004
號令	-10.3004
陳列	-10.3004
卦	-10.3004
招魂	-10.3004
枲	-10.3005
趾	-10.3005
悠	-10.3005
岡	-10.3006
于羽	-10.3006
滋	-10.3006
音了	-10.3006
滃鬱	-10.3007
丘陵	-10.3007
列宿	-10.3007
仿偟	-10.3008
先祖	-10.3008
忠良	-10.3009
周官	-10.301
霏霏	-10.3011
逍遥	-10.3012
𤣥鶴	-10.3013
務光	-10.3013
鴳	-10.3014
遐	-10.3014
戀	-10.3015
詘	-10.3017
薫草	-10.3017
年老	-10.3017
沐	-10.3017
筒	-10.3019
齊光	-10.302
吕望	-10.302
大司命	-10.302
嘷	-10.302
衢	-10.3022
三閭	-10.3022
形容	-10.3022
懿	-10.3023
隠士	-10.3023
賢者亦	-10.3023
濁世	-10.3024
逸説	-10.3025
其冝也	-10.3026
觜	-10.3026
仁賢	-10.3027
東海	-10.3029
𤣥冥	-10.303
舊本	-10.3031
音豪	-10.3032
弱水	-10.3032
也回一作	-10.3033
按本草	-10.3034
階	-10.3036
摘	-10.3039
同姓	-10.304
堇	-10.304
仟	-10.304
􁁍	-10.3043
莫知	-10.3047
未盡	-10.3047
茱茰	-10.305
蟫	-10.3051
似椒	-10.3052
乆長	-10.3053
修飾	-10.3054
甚多	-10.3054
十日	-10.306
不知我	-10.3066
音骨	-10.3078
文選云	-10.3079
九年	-10.3084
横流	-10.3085
毅	-10.3086
以諷	-10.3092
世俗	-10.3094
澤蘭	-10.3095
始生	-10.3099
衡山	-10.31
介子	-10.3104
貌也言已	-10.3116
執心	-10.3119
花白	-10.3129
之草	-10.3129
深水	-10.3135
衆芳	-10.3144
九懷	-10.3151
無聊	-10.3159
於後	-10.316
本草云	-10.3162
大夏	-10.3182
言已既	-10.3187
避世	-10.3195
大江	-10.3196
東君	-10.3203
悲感	-10.3203
寤而	-10.3212
大苦	-10.3214
遂見	-10.3221
驚而	-10.3229
其性	-10.3229
别名	-10.3236
葉如	-10.3249
力切	-10.325
夫子	-10.3251
地名	-10.3255
集韻作	-10.3258
安所	-10.3268
志猶	-10.327
志行	-10.3275
一作愍	-10.3276
陸璣云	-10.3282
退也	-10.3296
欽定四庫全書楚詞補注巻十	-10.3299
傳云	-10.33
也不一作	-10.3309
成行	-10.3326
白水	-10.3326
不施	-10.334
數也	-10.3411
路兮	-10.3422
移也	-10.343
言武王	-10.3518
還歸也	-10.3533
而細	-10.3579
切又音	-10.3581
其一	-10.3632
結切	-10.3652
心愁	-10.3686
如玉	-10.374
亦云	-10.3775
補曰此	-10.3784
惻也	-10.3861
生水中	-10.3869
病也	-10.388
國也	-10.389
夜光	-10.3929
有德	-10.3952
玉石	-10.4007
其高	-10.4008
西南	-10.4054
使之	-10.4079
其流	-10.4159
怫	-10.4213
無極	-10.4217
蘭為	-10.4229
怫鬱	-10.428
亦作	-10.4311
日月兮	-10.4313
像	-10.4347
此云	-10.4354
説文曰	-10.4371
九歎	-10.4379
以避	-10.438
瓣	-10.4385
崐	-10.439
㞶	-10.4392
鞠	-10.4393
味甘	-10.4396
眴	-10.4398
箏	-10.4398
騫	-10.4399
㠁嵯	-10.4401
怡	-10.4401
郡	-10.4401
檐	-10.4402
羙	-10.4402
鱉	-10.4402
慙	-10.4403
重累	-10.4403
逄	-10.4404
緫	-10.4404
渫	-10.4404
染	-10.4404
載雲旗之委蛇	-10.4405
隧	-10.4405
卜	-10.4405
澧	-10.4405
擅	-10.4406
茇	-10.4406
茸	-10.4406
斂	-10.4406
寞	-10.4406
餝	-10.4406
鴻鵠	-10.4406
驪姬	-10.4406
宛	-10.4407
候	-10.4407
羞	-10.4407
茫	-10.4407
綠	-10.4407
斑	-10.4407
氾	-10.4407
禀	-10.4408
饒	-10.4409
裘	-10.4409
毫	-10.4409
不敢	-10.4409
厠	-10.4409
渠	-10.4409
住	-10.4409
朕	-10.4409
泛	-10.4409
鴨	-10.4409
廵狩	-10.4409
損	-10.4409
􁓖	-10.4409
倒	-10.4409
俞與愈同	-10.4409
昂	-10.4409
矊	-10.4409
繩墨	-10.441
肻	-10.441
巔	-10.441
㭊	-10.441
瓦	-10.441
冒	-10.441
瀆	-10.441
墳	-10.4411
呂	-10.4411
樸	-10.4411
寜	-10.4411
藉	-10.4411
裏	-10.4411
蠹	-10.4411
誰告	-10.4411
續	-10.4412
望涔陽兮極浦	-10.4412
茈	-10.4412
蹕	-10.4412
匍	-10.4412
郁	-10.4412
市	-10.4412
堪	-10.4412
柯	-10.4412
迭	-10.4412
未改此度	-10.4412
皎皎	-10.4412
耶	-10.4413
㤀	-10.4413
殀	-10.4413
嘆	-10.4413
慢	-10.4413
休息	-10.4413
鼠	-10.4413
辭一作詞	-10.4413
夾	-10.4413
蒻	-10.4413
輩	-10.4413
撥	-10.4413
蹇蹇	-10.4413
滌	-10.4414
専	-10.4414
頃襄	-10.4414
愠	-10.4414
汎	-10.4414
也左傳	-10.4415
嘘	-10.4415
沚	-10.4415
薆	-10.4415
於衆人也	-10.4415
貽	-10.4415
晈	-10.4415
馨	-10.4416
下有之字	-10.4416
峕	-10.4416
繳	-10.4416
麾	-10.4416
兵	-10.4416
臑	-10.4416
于筆切	-10.4416
犀	-10.4417
鈎	-10.4417
把	-10.4417
濱	-10.4417
瓜	-10.4417
計	-10.4418
閩	-10.4418
鼻	-10.4418
純美	-10.4418
殷湯	-10.4418
齧	-10.4418
申重也	-10.4418
爵位	-10.4418
材	-10.4419
叩擊	-10.4419
朋黨	-10.4419
盪	-10.4419
經術	-10.442
瀏	-10.442
欷	-10.442
趨	-10.442
暘	-10.442
茂盛也	-10.442
莫半切	-10.442
倍	-10.4421
舊邦	-10.4421
草一作艸	-10.4421
裹	-10.4421
答	-10.4422
鸞鳯	-10.4422
之所作也	-10.4423
邵	-10.4424
慈	-10.4424
飢	-10.4424
先導	-10.4424
羣聚	-10.4424
産	-10.4424
儒	-10.4424
虚僞	-10.4424
脆	-10.4425
遭遇	-10.4425
筝	-10.4425
蕉	-10.4425
鬚	-10.4425
俓	-10.4425
璧	-10.4426
匈	-10.4426
皎	-10.4426
葱	-10.4426
憯	-10.4427
聰明	-10.4427
欣欣	-10.4427
栁	-10.4427
東西南北	-10.4428
猨狖	-10.4428
囚	-10.4428
勅	-10.4428
婢	-10.4428
符	-10.4428
悟	-10.4429
逴	-10.4429
淹留	-10.4429
贈	-10.443
蘦	-10.443
渉江	-10.443
煩寃	-10.443
相佯	-10.443
率	-10.4431
蘩	-10.4431
涕泣	-10.4431
婚	-10.4431
畏	-10.4432
題	-10.4432
國名也	-10.4432
寫	-10.4433
禮魂	-10.4433
嘯	-10.4434
零陵香	-10.4434
從手	-10.4434
雙	-10.4434
孟夏	-10.4434
陰	-10.4435
葯房	-10.4435
昆	-10.4435
遟	-10.4435
距	-10.4436
。2.	-10.4436
寃結	-10.4437
湯湯	-10.4437
虎豹	-10.4437
誼	-10.4437
大人賦云	-10.4439
藏匿也	-10.4439
讒邪	-10.4439
寕	-10.4441
闇昧	-10.4441
沈存中云	-10.4441
仁傑	-10.4442
世之人	-10.4442
洪慶善引	-10.4442
伏羲	-10.4442
在旁	-10.4442
偬	-10.4445
載雲	-10.4445
不失其	-10.4446
隠藏	-10.4446
征夫	-10.4446
留夷	-10.4446
蓼	-10.4447
轍	-10.4447
穆穆	-10.4447
骩	-10.4448
隱士	-10.4451
皇皇	-10.4452
條陶隠居云	-10.4454
川谷	-10.4455
鏤也	-10.4455
懷沙	-10.4457
囘風	-10.4459
孰能	-10.4459
萹	-10.4459
傅説	-10.446
隱匿	-10.4461
璋	-10.4462
隠身	-10.4463
南郢	-10.4464
月令	-10.4467
開花	-10.4469
傽	-10.4473
増歎	-10.4475
舒情	-10.4475
髙辛	-10.4475
觀視	-10.4485
到切	-10.4495
道徑	-10.4496
憂苦	-10.4497
功名	-10.4497
高馳	-10.4497
之厚	-10.4499
九疑	-10.4503
並進	-10.4504
昭王	-10.4506
髙馳	-10.4515
江河之	-10.4518
著花	-10.4523
茗	-10.4524
逢紛	-10.4526
齊同	-10.4528
憂悲	-10.4536
相似	-10.4549
誠欲	-10.4554
舊故	-10.4558
所稱	-10.456
怫鬱兮	-10.4563
仁傑按本草	-10.4564
别出	-10.4566
蜀椒	-10.4569
用事	-10.4569
南陽	-10.4575
悲余	-10.4589
又東	-10.4597
九懐	-10.4598
無由	-10.4598
修徳	-10.4603
記曰	-10.4616
也補曰說文	-10.4631
飛也	-10.4657
身將	-10.4663
後人	-10.4689
歸來兮	-10.4702
一章	-10.4706
補曰淮	-10.474
淮南子	-10.4777
得名	-10.478
急徠歸	-10.4834
俗呼	-10.4846
孟子云	-10.4873
花葉	-10.4884
又欲	-10.4885
言䰟	-10.4894
也予音與	-10.4928
雲霧	-10.4931
長生	-10.4935
切叶韻	-10.4974
補曰汨	-10.5048
江切	-10.5054
念君	-10.5227
無時	-10.5258
喻賢人	-10.5284
高貌	-10.5331
義亦	-10.5405
一名杜	-10.5455
戈	-10.5603
今世	-10.5756
角切	-10.5795
此句	-10.5921
繽	-10.5948
江河	-10.6002
正月	-10.6003
賢也	-10.602
蕃	-10.6021
濫	-10.604
瞍	-10.6051
纁	-10.6053
耿耿	-10.6053
牽	-10.6055
墟	-10.6056
便姢	-10.6056
瀉	-10.6057
蕰	-10.6058
而深藏	-10.6061
轇	-10.6062
防	-10.6062
淖	-10.6063
補曰壇音善	-10.6063
訥	-10.6063
澌	-10.6064
帯	-10.6065
災	-10.6065
宵	-10.6066
啄	-10.6067
憎愠	-10.6067
􁍈	-10.6067
㓜	-10.6067
抑按也	-10.6067
粟	-10.6067
慜	-10.6067
惘	-10.6067
酎	-10.6067
責	-10.6068
軼	-10.6068
身服義而未沬	-10.6068
。4.	-10.6068
顧龍門而不見	-10.6068
捨	-10.6068
不可以乆	-10.6068
侵	-10.6069
分曹並進	-10.6069
豔	-10.6069
虵	-10.607
縆	-10.607
鋤	-10.607
􁎎	-10.607
枯槁	-10.607
吠	-10.607
悵然住立	-10.6071
禽獸	-10.6071
縈	-10.6071
翹	-10.6071
鋪	-10.6071
惀之脩美兮	-10.6071
筐	-10.6071
纎	-10.6071
均	-10.6072
靁	-10.6072
密	-10.6072
蚴	-10.6072
像法也	-10.6072
詖	-10.6072
忽忽而遒盡兮	-10.6072
呵	-10.6072
智有所不明	-10.6072
糒	-10.6072
簏	-10.6073
胹	-10.6073
葳	-10.6073
芙	-10.6073
滄浪之水	-10.6073
一夕而九	-10.6073
世並舉而好朋兮	-10.6073
菹醢	-10.6074
采芳洲兮杜若	-10.6074
寸有所長	-10.6074
歇	-10.6074
邃	-10.6074
爢	-10.6075
忿恨	-10.6075
潜	-10.6075
鵕	-10.6075
哀哀而	-10.6075
怞	-10.6075
恕	-10.6075
沾	-10.6075
者屈原之所作也	-10.6075
聊假日以須	-10.6075
􁑾	-10.6075
然中路而迷惑	-10.6075
悲回風	-10.6075
標	-10.6075
蕤	-10.6075
鴂	-10.6075
揆度	-10.6076
功用而不就	-10.6076
吾又何怨乎今之人	-10.6076
檻楯	-10.6076
固時俗之工巧兮	-10.6076
夸	-10.6076
擔	-10.6076
諒	-10.6076
離遭也	-10.6076
􁔱	-10.6076
鏡	-10.6076
垠音銀	-10.6076
霤	-10.6076
秀異	-10.6076
枘	-10.6076
欸	-10.6076
輈	-10.6076
􁎃	-10.6076
嶷	-10.6076
遼遼	-10.6077
冉	-10.6077
及榮華之未落	-10.6077
舊音羊	-10.6077
永長也	-10.6077
聊逍遥兮容與	-10.6077
唱	-10.6077
餌	-10.6077
􁃎	-10.6077
鰿	-10.6077
恲	-10.6077
牟	-10.6078
廉潔	-10.6078
曖	-10.6078
藒	-10.6078
駒	-10.6078
姬	-10.6078
溘	-10.6078
默	-10.6078
時曖曖其將罷兮	-10.6078
瑶臺	-10.6078
間音閑	-10.6078
掲	-10.6078
春蘭兮秋菊	-10.6078
蜩	-10.6079
刑罰	-10.6079
懤	-10.6079
笙	-10.6079
迷惑也	-10.6079
岌	-10.6079
廀	-10.6079
掦	-10.6079
析	-10.6079
隍	-10.6079
邪僞	-10.6079
而羊切	-10.6079
與佯同	-10.6079
嫭	-10.6079
聘	-10.6079
寢	-10.6079
孰知余之從容	-10.6079
不足以	-10.6079
辝	-10.608
敕	-10.608
華采衣兮若英	-10.608
逓	-10.608
藁	-10.608
枚	-10.608
㗖	-10.608
汎淫	-10.6081
思公子兮徒離憂	-10.6081
也一作徠歸	-10.6081
屈原既放	-10.6081
水出崑崙	-10.6081
舌	-10.6081
啾	-10.6081
螽	-10.6081
咀	-10.6081
坤	-10.6081
不量鑿而正枘兮	-10.6081
偝	-10.6082
搏	-10.6082
一無其字	-10.6082
妾	-10.6082
駕八龍之婉婉兮	-10.6082
也天對云	-10.6082
彼將自然	-10.6082
歩余馬兮	-10.6082
黧	-10.6082
統	-10.6082
衣裳	-10.6082
二十五	-10.6082
􁊯	-10.6082
杪	-10.6082
邸	-10.6082
百姓	-10.6082
忽臨睨夫舊鄉	-10.6083
怨靈脩之浩蕩兮	-10.6083
愽雅云	-10.6083
廱	-10.6083
峩	-10.6083
溺	-10.6083
去終古之所居	-10.6083
嬖	-10.6083
梅伯	-10.6083
誣	-10.6083
癸	-10.6083
䤅	-10.6083
矰	-10.6083
苽	-10.6083
巾	-10.6084
纕	-10.6084
祕	-10.6084
尓	-10.6084
木揺落	-10.6084
媮樂	-10.6084
司馬相如	-10.6084
燠	-10.6084
亟	-10.6085
甑	-10.6085
遘	-10.6085
彭咸之	-10.6085
九辯九歌	-10.6085
固將愁苦而終窮	-10.6085
䜛諛	-10.6085
怠	-10.6085
啗	-10.6085
防風	-10.6085
仁智之士	-10.6085
慨	-10.6086
暉	-10.6086
則百姓	-10.6086
延長也	-10.6086
摡	-10.6086
諤	-10.6086
司	-10.6086
黮	-10.6086
裂	-10.6086
送美人兮南浦	-10.6086
聨	-10.6086
徉	-10.6086
雄虺九首	-10.6086
矜	-10.6086
蘭橑	-10.6086
廬	-10.6087
皥	-10.6087
與女遊兮九河	-10.6087
扈江離與辟芷	-10.6087
納納	-10.6087
隿	-10.6087
慶忌	-10.6087
之誤耳	-10.6088
唐虞	-10.6088
嚼	-10.6088
梧	-10.6088
釐	-10.6088
旌一作旍	-10.6088
牽牛	-10.6088
歛	-10.6088
般	-10.6088
淸涼	-10.6089
噤	-10.6089
慌	-10.609
共工	-10.609
霾	-10.609
飛亷	-10.609
唫	-10.609
念楚國也	-10.609
榭	-10.609
羡	-10.609
錄	-10.609
羿澆	-10.609
咆	-10.6091
藿	-10.6091
乂	-10.6091
劬勞	-10.6091
黄白色	-10.6091
磬	-10.6091
筵	-10.6091
卒然身殺	-10.6091
䜴	-10.6091
羅列	-10.6091
東方朔	-10.6092
扳	-10.6092
護	-10.6092
茨	-10.6092
蠱	-10.6092
奚	-10.6092
浸	-10.6092
窄	-10.6092
梅伯受醢	-10.6093
料	-10.6093
雜申椒與菌桂	-10.6093
活	-10.6093
飈	-10.6093
魏	-10.6093
不可救	-10.6094
鼠莞	-10.6094
憾	-10.6094
夏小正	-10.6094
豕	-10.6094
窈	-10.6094
仰觀	-10.6094
針	-10.6094
忠直之士	-10.6094
棄捐	-10.6094
目録	-10.6094
猛	-10.6095
飯	-10.6095
填	-10.6095
號鍾	-10.6096
於中庭	-10.6096
並迎	-10.6096
慶	-10.6096
隩	-10.6096
䕶	-10.6096
礫	-10.6097
湯谷	-10.6097
􁍟	-10.6097
逢尤	-10.6098
扁	-10.6098
蘂	-10.6098
邠	-10.6099
攄	-10.6099
岐	-10.6099
南北順	-10.6099
遭厄	-10.6099
跳	-10.61
慌忽	-10.61
謬諫	-10.61
愁悴	-10.61
章句	-10.61
悄	-10.61
莘	-10.61
吮	-10.6101
孔頴達	-10.6101
辱	-10.6101
長訣	-10.6101
芹	-10.6102
擬	-10.6102
逢遇	-10.6102
清㓗	-10.6102
饐	-10.6102
蹠	-10.6102
欽定四庫全書	-10.6103
巖石	-10.6103
苕	-10.6103
肺	-10.6104
刋	-10.6105
柑	-10.6105
姚	-10.6105
謁	-10.6105
狗	-10.6106
好愛	-10.6106
潰	-10.6107
藤	-10.6107
濫切	-10.6107
傍	-10.6107
哀郢	-10.6108
纂	-10.6108
儵忽	-10.6109
掲車	-10.6109
熬	-10.6109
隠伏	-10.6109
盤紆	-10.6109
銘	-10.611
蛟	-10.611
新人	-10.611
藑茅	-10.611
音希	-10.6111
雲霓	-10.6112
擠	-10.6112
媱	-10.6112
略	-10.6113
嵯峨	-10.6113
藇	-10.6113
麚	-10.6113
周禮	-10.6114
英俊	-10.6114
憒	-10.6114
䦧	-10.6115
忠謀	-10.6115
隱伏	-10.6115
玄冥	-10.6115
七月	-10.6116
哲	-10.6116
礒	-10.6117
以示	-10.6117
字解云	-10.6118
薰草	-10.6118
含憂	-10.6118
詩人之	-10.6118
諑	-10.6119
悸	-10.6119
細辛	-10.612
閴	-10.6121
落英	-10.6122
四十	-10.6122
甘美	-10.6122
罷音	-10.6123
蠆	-10.6124
陵陽	-10.6124
四荒	-10.6125
停	-10.6125
出口	-10.6125
徾	-10.6125
其味甘	-10.6126
深淵	-10.6127
傅說	-10.6128
躇	-10.6128
經營	-10.6129
蟊	-10.6129
􁉻	-10.6129
提	-10.613
嶢	-10.613
回邪	-10.613
大人賦曰	-10.6131
南征	-10.6131
合黎	-10.6136
仁傑按爾雅	-10.6136
王芻	-10.6137
幽都	-10.6139
爲像	-10.6139
氣臭	-10.6139
爾雅疏	-10.6142
氣味	-10.6144
哀惜	-10.6146
吒	-10.6147
蹊	-10.6148
才德	-10.6148
香蒲	-10.6149
開門	-10.6152
留止	-10.6153
高丘	-10.6153
靈魂	-10.6154
峉	-10.6155
沈身	-10.6156
金玉	-10.616
佩玉	-10.616
盛隂	-10.6162
而日逺	-10.6167
吴王	-10.6169
恐非	-10.617
軫丘	-10.6172
赤色	-10.6172
蔽賢	-10.6173
太㣲	-10.6179
枝葉	-10.6182
隂氣	-10.6184
相和兮	-10.6185
修善	-10.6186
從俗	-10.6187
復顧	-10.6192
害賢	-10.6193
嚭	-10.6193
離别	-10.6194
昭華	-10.6198
而不敢	-10.62
國語	-10.6205
南極	-10.6206
至秋	-10.622
無所用	-10.622
夫離	-10.622
所履	-10.6226
流星	-10.6226
升天	-10.623
又恐	-10.6237
不寤	-10.624
若雲	-10.6252
未知	-10.6255
耳非	-10.6258
人家	-10.6266
皃也言巳	-10.6276
道要	-10.628
下土	-10.6281
衆鳥	-10.6284
云爾	-10.6286
星名	-10.6292
漁	-10.6295
山林	-10.6296
相當	-10.6317
誰與	-10.6319
執守	-10.6331
未央	-10.634
補曰怫	-10.6345
長吟	-10.636
相從	-10.6364
懷德	-10.6367
害人	-10.6369
水深	-10.641
衆也	-10.6421
如小	-10.6435
淸明	-10.6459
皆神	-10.6506
言已旣	-10.6533
列切	-10.6564
清明	-10.6599
水草	-10.6664
兮歸來反故居些	-10.6669
補曰漸	-10.6724
毒兮	-10.6824
皆取	-10.6861
神名	-10.6862
傷今	-10.6962
多用	-10.6965
中和	-10.7016
貌詩云	-10.7045
王甚	-10.7307
若杜若也	-10.774
以一作而	-10.779
守忠信	-10.7852
大人賦	-10.799
還顧	-10.8001
班孟	-10.8007
似莎而大	-10.8019
五月	-10.8025
爲讒佞所	-10.8035
遍	-10.8042
佞僞	-10.8044
急疾	-10.8047
巡狩	-10.8048
險阻	-10.8049
藕	-10.8053
薏	-10.8054
大蒜	-10.8055
聰	-10.8056
曄	-10.8056
嬃	-10.8057
酡	-10.8058
縷	-10.8058
李善引	-10.8059
粮	-10.8059
腰	-10.8059
軫痛也	-10.806
螘	-10.8061
幕	-10.8062
不可以久	-10.8062
羌中道而回畔	-10.8062
􁸖	-10.8062
裁	-10.8062
軀	-10.8063
坎廩	-10.8063
姢	-10.8064
巷	-10.8064
曼音萬	-10.8064
芙蓉始發	-10.8065
壅絶而不通	-10.8066
畏懼	-10.8066
悒	-10.8066
􁽌	-10.8067
浩蕩	-10.8067
冶	-10.8068
飴	-10.8068
寗	-10.8068
敝	-10.8068
拳	-10.8069
厮賤	-10.8069
覈	-10.8069
𦵔	-10.8069
劣	-10.8069
李善云	-10.8069
晃	-10.8069
鸞鳥鳳皇	-10.807
翦	-10.807
下音户	-10.807
文苑作	-10.807
蠡	-10.807
棠	-10.8071
伸	-10.8071
擣	-10.8071
赫	-10.8071
竿	-10.8071
纓	-10.8071
㤗	-10.8071
曠野	-10.8071
被以不慈之偽名	-10.8071
𥘉	-10.8071
完	-10.8072
槩	-10.8072
􁽊	-10.8072
眷	-10.8072
偭規矩而改	-10.8072
芒芒	-10.8073
妍	-10.8073
寧溘死而流亡兮	-10.8073
美超逺而逾邁	-10.8073
貳	-10.8073
枹	-10.8073
其若頽	-10.8074
月令孟夏	-10.8074
木蘭以矯蕙	-10.8074
就重華而敶詞	-10.8074
槫	-10.8074
與佳期兮夕張	-10.8074
沮	-10.8075
鳯凰	-10.8075
揆	-10.8075
無人聲	-10.8075
南指月與列星	-10.8075
陂	-10.8075
迂	-10.8075
富貴	-10.8076
讎	-10.8076
悁悁	-10.8076
思蹇産而不釋	-10.8076
沿	-10.8076
穫	-10.8076
菼	-10.8076
願徑逝而未得	-10.8076
彗	-10.8076
衆人皆醉	-10.8076
補曰菀音鬱	-10.8076
寘	-10.8076
岀	-10.8076
徒感切	-10.8076
滄浪之水濁兮	-10.8076
聊假日以媮樂	-10.8076
薄附也	-10.8076
揉	-10.8076
殫	-10.8077
緜	-10.8077
昻	-10.8077
衆踥蹀而日進兮	-10.8077
浴蘭湯兮沐芳	-10.8077
苴蓴	-10.8077
廩	-10.8077
物有微而隕性	-10.8077
醇	-10.8077
蛻	-10.8077
石菖蒲	-10.8078
刜	-10.8078
而不可得	-10.8078
貢	-10.8078
隐	-10.8078
吉日兮辰良	-10.8078
夫九首	-10.8078
珮	-10.8078
袖	-10.8078
覃	-10.8078
奮翼	-10.8078
薋菉葹以盈室兮	-10.8078
夕晞余身兮九陽	-10.8078
群聚	-10.8078
各興心而嫉妬	-10.8078
挂	-10.8078
毎	-10.8078
苞	-10.8078
言時丗	-10.8078
重直用切	-10.8078
大抵	-10.8079
乖差	-10.8079
桀紂之	-10.8079
鵾鷄	-10.8079
余壽之弗將	-10.8079
冢導漾	-10.8079
巓	-10.8079
惜往日	-10.8079
禺	-10.8079
舂	-10.8079
皡	-10.8079
薜	-10.808
跼	-10.808
翅	-10.808
股	-10.808
浮萍	-10.808
韋	-10.808
㪚	-10.808
孋	-10.808
嶓	-10.808
挾持也	-10.808
幬	-10.8081
徹	-10.8081
榑	-10.8081
洪	-10.8081
松柏	-10.8081
瞢	-10.8081
將以遺兮下女	-10.8081
疋	-10.8081
覽余初其猶未悔	-10.8081
飡	-10.8081
相和	-10.8081
娟	-10.8081
融	-10.8082
虡	-10.8082
稼	-10.8082
筭	-10.8082
剌	-10.8082
曀	-10.8082
遇蓐收乎西皇	-10.8082
頷	-10.8082
與日月兮齊光	-10.8082
享	-10.8082
袂	-10.8082
的	-10.8082
贅	-10.8082
改易也	-10.8082
籬	-10.8082
駕鵝	-10.8082
鳴玉鸞之啾啾	-10.8082
罪過也	-10.8082
軍	-10.8083
勒	-10.8083
琅	-10.8083
甯戚	-10.8083
酷	-10.8083
絶殊也	-10.8083
雛	-10.8083
世莫知其所如	-10.8083
猋	-10.8083
皐陶	-10.8083
偟	-10.8084
兔	-10.8084
肬	-10.8084
言忠佞	-10.8084
傳芭兮代舞	-10.8084
倦	-10.8084
枉曲也	-10.8084
僕	-10.8084
傷余心	-10.8084
大壑	-10.8084
括	-10.8084
絃	-10.8085
望長楸而太息	-10.8085
鹽	-10.8085
奏	-10.8085
在崑崙西	-10.8085
葉兮紫莖	-10.8085
蓀壁兮紫壇	-10.8085
鷦明	-10.8085
寥廓	-10.8085
谿谷	-10.8085
七故切	-10.8085
層	-10.8085
表裏	-10.8085
雜厠	-10.8085
冨貴	-10.8085
嚮	-10.8085
懇	-10.8085
鷖	-10.8085
凡例	-10.8085
而不得見	-10.8085
纏	-10.8086
戻	-10.8086
路曼曼其脩逺兮	-10.8086
已解於	-10.8086
折芳馨兮遺所思	-10.8086
寂寥	-10.8087
沶	-10.8087
芭蕉	-10.8087
不任賢	-10.8087
故荼薺不同畝兮	-10.8087
塩	-10.8087
殞	-10.8087
佯狂	-10.8087
惜其師忠	-10.8087
田野	-10.8087
素榮	-10.8087
蒼龍之	-10.8087
該	-10.8087
齋	-10.8087
籌	-10.8088
蕙肴蒸兮蘭藉	-10.8088
橝	-10.8088
薑	-10.8088
例	-10.8088
宏	-10.8088
莫之能	-10.8088
柄	-10.8088
黯黮	-10.8088
鬣	-10.8088
徘	-10.8088
歎息也	-10.8089
績	-10.8089
襃姒	-10.8089
賓	-10.8089
鞿	-10.8089
館	-10.8089
狖	-10.8089
菹	-10.809
繆	-10.809
浪	-10.809
荃不察余之中情兮	-10.809
謳和揚阿	-10.809
蒪	-10.809
弑	-10.809
詁	-10.809
馨香	-10.809
婁	-10.8091
恬	-10.8091
返	-10.8091
夕攬洲之宿莽	-10.8091
苟且	-10.8091
補曰繚音了	-10.8091
揖	-10.8091
紉秋蘭以為佩	-10.8091
廣雅云	-10.8091
父母	-10.8091
漬	-10.8092
吁	-10.8092
蜕	-10.8092
陼	-10.8092
路曼曼其	-10.8092
戲蕩	-10.8092
影	-10.8092
部	-10.8092
胎	-10.8092
沼	-10.8093
農	-10.8093
何昔日之芳草兮	-10.8093
蹈	-10.8093
蔾	-10.8093
瓟	-10.8093
噉	-10.8093
新雉	-10.8093
軔	-10.8093
4	-10.8094
畧	-10.8094
賞	-10.8094
祭祀	-10.8094
紐	-10.8094
馳逐	-10.8094
條云一名	-10.8094
年歲	-10.8095
醴酒	-10.8095
杷	-10.8095
假寐	-10.8095
游戲	-10.8095
華酌	-10.8095
仿	-10.8095
松栢	-10.8096
饒樂	-10.8096
駕辯	-10.8096
鼓琴	-10.8096
革孽夏民	-10.8096
突	-10.8096
佞䛕	-10.8096
五榖	-10.8096
味辛	-10.8096
抽思	-10.8097
褒	-10.8097
封狶是射	-10.8097
屢	-10.8097
逡	-10.8097
蕭雲從	-10.8097
照吾檻兮扶桑	-10.8098
魂魄歸徠	-10.8098
清激	-10.8098
萸	-10.8098
纍	-10.8098
嗣	-10.8098
余處幽篁兮終不見天	-10.8099
譜	-10.8099
忠直之節	-10.8099
翼翼	-10.8099
也俗作	-10.8099
路險難兮獨後來	-10.8099
閣	-10.8099
乳	-10.8099
袿	-10.8099
駟馬	-10.8099
顛倒	-10.8101
劔	-10.8101
譁	-10.8101
伏戲	-10.8101
石磊磊兮葛蔓蔓	-10.8102
劍	-10.8102
悼	-10.8102
洿	-10.8102
䜛佞	-10.8102
嫁	-10.8103
嗌	-10.8104
攀援桂枝兮	-10.8105
樊	-10.8105
抜	-10.8105
暮宿	-10.8105
璿	-10.8107
椒一名	-10.8107
迄	-10.8108
鵾	-10.8108
周邵	-10.8108
宋萬	-10.8108
聊淹留	-10.8108
黄橘	-10.8108
瞻望	-10.8109
穆王	-10.8109
彃	-10.811
嶽	-10.811
豳	-10.811
篁	-10.811
椒聊	-10.811
懷思也	-10.8111
女歧	-10.8111
敞	-10.8112
洪範	-10.8112
忽反顧	-10.8112
興祖	-10.8112
赩	-10.8112
謀不同	-10.8113
匠	-10.8113
䟫	-10.8114
榛	-10.8115
藷	-10.8115
叢林	-10.8115
得復見	-10.8116
而去之	-10.8116
甘棠	-10.8116
孈	-10.8117
踢	-10.8117
栭	-10.8118
稀	-10.8119
䜛邪	-10.812
屣	-10.8121
而不衰	-10.8121
九臯	-10.8122
涕流	-10.8122
雹	-10.8123
穰	-10.8123
豸	-10.8123
雚	-10.8124
鬯	-10.8124
毛公	-10.8125
晃切	-10.8125
也補曰下音戸	-10.8126
叢薄	-10.8128
噭	-10.8128
賈思勰云	-10.8129
嘉祐圖經云今	-10.8129
竭盡	-10.8129
騄	-10.8129
蒭	-10.813
楸梓	-10.8135
淇	-10.8135
之類皆	-10.8136
耳目	-10.8136
邪佞	-10.8141
狩	-10.8141
卓逺	-10.8142
冬夏	-10.8143
精䰟	-10.8146
前後	-10.815
讀如	-10.8151
秦椒	-10.8151
黒色	-10.8152
紛錯	-10.8153
二八	-10.8154
清波	-10.8155
西海	-10.8155
舎止	-10.8156
未聞	-10.8158
懣	-10.8159
爭欲	-10.816
考異	-10.8161
補曰悁	-10.8163
冀得	-10.8164
二百	-10.8164
孟堅	-10.8167
秋實	-10.817
樹木	-10.8177
根莖	-10.8177
帝宫	-10.818
蔓生	-10.8188
九歌同	-10.819
猶堂	-10.8191
任用	-10.8193
質正	-10.8194
元氣	-10.8195
周合	-10.8196
夫惟	-10.8201
九圖	-10.8202
於甲	-10.8204
入聲	-10.8208
三公	-10.8208
與天地	-10.8215
孔子	-10.8217
色黄	-10.8237
春生	-10.8249
春草	-10.8252
補曰罷音	-10.8254
繽紛	-10.8267
補曰汜音泛	-10.8269
終不可	-10.827
香草名	-10.8272
斟	-10.8389
沈沒	-10.8493
月採	-10.9182
與日月	-10.9412
往古之	-10.9563
予音與	-10.9688
也服一	-10.9783
行胡岡切	-10.9811
其無人	-10.9845
冉冉而愈	-11.0091
也言雲神	-11.0234
遭逢	-11.0446
入於海	-11.0499
葫	-11.0517
示	-11.0522
希	-11.0532
也陳一作敶	-11.0537
卵	-11.0541
吕氏春秋	-11.0541
嘕	-11.0541
􁫵	-11.0545
廂	-11.0546
颯戾	-11.0549
蠻	-11.0551
瘀	-11.0551
繇	-11.0552
不可以託些	-11.0552
心怛傷之憺憺	-11.0553
訣	-11.0553
上林賦	-11.0553
固切人之不媚兮	-11.0553
惟郢路之遼逺兮	-11.0553
邉	-11.0554
妒	-11.0554
兩東門之可蕪	-11.0555
造新歌些	-11.0555
費	-11.0555
娭光眇視	-11.0555
余而造怒	-11.0555
牡丹	-11.0556
夏室寒些	-11.0556
心震悼而不敢	-11.0556
文異豹飾	-11.0556
無所告愬	-11.0556
豈至今其庸亡	-11.0556
梟堅堯切	-11.0557
晁	-11.0557
北方不可以止些	-11.0557
恐自遺賊些	-11.0557
懃	-11.0557
侍陂陁些	-11.0557
涂	-11.0557
綫	-11.0557
軒輬既低	-11.0557
騎羅些	-11.0557
初吾所陳之耿著兮	-11.0557
鬵	-11.0557
􁪠	-11.0557
刻方連些	-11.0558
乞	-11.0558
雜芰荷些	-11.0558
髙萬仞	-11.0558
恙	-11.0559
獨申旦而不寐兮	-11.0559
於水則神	-11.0559
女樂羅些	-11.0559
日以逺也	-11.0559
沙丹沙也	-11.0559
紫莖屏風	-11.0559
光風轉蕙	-11.0559
蜂	-11.0559
肴羞未通	-11.0559
侮	-11.0559
廊廟	-11.0559
流潺湲些	-11.0559
臨曲池些	-11.0559
旋入雷淵	-11.0559
願自申而不得	-11.0559
煮	-11.056
竒牙	-11.056
之逶虵	-11.056
川谷徑復	-11.056
我欲輔之	-11.056
挫糟凍飲	-11.056
有瓊漿些	-11.056
吳歈蔡謳	-11.056
呼五白些	-11.056
坐堂伏檻	-11.056
望孟夏之短夜兮	-11.056
爨	-11.056
羅囿	-11.056
耗	-11.056
臨流水而太息	-11.056
與余言而不信兮	-11.056
裁制	-11.0561
像設君室	-11.0561
汝筮予之	-11.0561
又無良媒在其側	-11.0561
泝	-11.0561
班其相紛些	-11.0561
目騰光些	-11.0561
抱朴	-11.0561
又有一種	-11.0562
心不繹	-11.0562
獨處廓	-11.0562
醉	-11.0562
帝告巫陽	-11.0562
得人肉以祀	-11.0562
忠湛湛而願進兮	-11.0562
挂曲瓊些	-11.0562
晉制犀比	-11.0562
朱塵筵些	-11.0562
深固難徙	-11.0562
煎鴻鶬些	-11.0562
何晦明之若	-11.0562
望三五以	-11.0562
和酸若苦	-11.0562
哀蟋蟀之宵征	-11.0562
時亹亹而過中兮	-11.0562
有美一人兮	-11.0562
厲而不爽些	-11.0562
實羽觴些	-11.0562
江與夏之不可	-11.0562
蘸	-11.0562
長離殃而愁苦	-11.0562
忼慨	-11.0562
砥室翠翹	-11.0562
紅壁沙版	-11.0562
荏	-11.0562
費白日些	-11.0562
離榭脩幕	-11.0562
賈思勰	-11.0562
峨	-11.0563
猗	-11.0563
今焉薄	-11.0563
擢	-11.0563
臆也思一作	-11.0563
蹇淹留而無成	-11.0563
之遺風	-11.0563
翡翠珠被	-11.0563
蘆葦	-11.0563
鄭綿絡些	-11.0563
儵一作倐	-11.0563
思君念	-11.0563
悲江介之遺風	-11.0564
而日忘兮	-11.0564
哀州土之平樂兮	-11.0564
惀力允切	-11.0564
有餦餭些	-11.0564
仰觀刻桷	-11.0564
室家遂宗	-11.0564
椉精氣之摶摶兮	-11.0564
流沙千里些	-11.0564
滔滔孟夏兮	-11.0564
爛齊光些	-11.0564
草木莽莽	-11.0564
蝮蛇蓁蓁	-11.0564
逼	-11.0564
曾不知路之曲直兮	-11.0564
牉獨處此異域	-11.0564
􁊭	-11.0564
􁼝	-11.0564
當陵陽之焉至兮	-11.0564
恐自遺災些	-11.0564
睇音弟	-11.0564
聊以舒吾憂心	-11.0564
至今九年而不復	-11.0564
菑	-11.0564
重仁襲義兮	-11.0564
長髮曼鬋	-11.0564
雄雄赫赫	-11.0564
傷懷永哀兮	-11.0564
成梟而牟	-11.0564
揳梓瑟些	-11.0564
驂白霓之習習兮	-11.0564
索胡繩之纚纚	-11.0565
放遊志乎雲中	-11.0565
盍	-11.0565
祈	-11.0565
稻粢穱麥	-11.0565
蛾眉曼睩	-11.0565
鱅	-11.0565
君無上天些	-11.0565
愁歎苦神	-11.0565
狐死首丘	-11.0565
蜒	-11.0565
旰	-11.0566
勑	-11.0566
臑若芳些	-11.0566
下有而字	-11.0566
噐	-11.0566
心踊躍其若湯	-11.0566
折若木以蔽光兮	-11.0566
無伯樂之善相兮	-11.0566
過夏首而西浮兮	-11.0566
不能復用巫陽焉	-11.0566
信非吾罪而棄逐兮	-11.0566
委厥美而	-11.0566
娛酒不廢	-11.0566
往若流	-11.0566
掩此哀而不去	-11.0566
晉獻公	-11.0566
沈日夜些	-11.0566
瓊枝以	-11.0566
言不可結而詒	-11.0566
迤	-11.0566
還及君之無恙	-11.0566
驩	-11.0566
好姱佳麗兮	-11.0566
虀	-11.0566
㦧	-11.0566
二八齊容	-11.0566
何日夜而忘之	-11.0566
哀見君而不再得	-11.0566
心鬱鬱之憂思兮	-11.0566
曼遭夜之方長	-11.0566
涕淫淫其若霰	-11.0566
熏	-11.0566
羅幬張些	-11.0566
荒忽其焉極	-11.0566
起鄭舞些	-11.0566
遺視矊些	-11.0566
啄害下人些	-11.0566
姱而不醜兮	-11.0566
寤從容以周流兮	-11.0566
徒昆切	-11.0566
思美人兮	-11.0566
昬	-11.0566
汩徂南土	-11.0566
道思作頌	-11.0566
鍼	-11.0566
勇猛	-11.0567
斮	-11.0567
被荷裯之晏晏兮	-11.0567
紛純純之願忠兮	-11.0567
萷	-11.0567
余將董道而不豫兮	-11.0567
存髣髴而不見兮	-11.0567
容態好比	-11.0567
尚欲布名乎天下	-11.0567
彩	-11.0567
楫齊揚以容與兮	-11.0567
氣於邑而不可止	-11.0567
然潢洋而不遇兮	-11.0567
矯以遺夫美人	-11.0567
薪	-11.0567
諶荏弱而難持	-11.0567
謇其有意些	-11.0567
躳	-11.0567
又無行媒兮	-11.0567
遒相迫些	-11.0567
謟䛕	-11.0568
誕	-11.0568
嶸	-11.0568
亦多端而膠加	-11.0568
檻層軒些	-11.0568
焉皇皇而更索	-11.0568
身而窮處	-11.0568
軋洋洋之無從兮	-11.0568
隷	-11.0568
馳委移之焉止	-11.0568
亦不復	-11.0568
傷太息之愍憐兮	-11.0568
合百草兮實庭	-11.0568
後輜椉之從從	-11.0568
於空桑	-11.0568
濟渡也	-11.0568
直怐愗而自苦	-11.0568
莽洋洋而無極兮	-11.0568
補曰爲去聲	-11.0568
順彌代些	-11.0568
大苦醎酸	-11.0568
一無何字	-11.0568
乃下招曰	-11.0568
勞我心	-11.0568
國有驥而不知椉兮	-11.0568
悲余心之悁悁兮	-11.0568
桓公聞而知之	-11.0568
而左傾	-11.0568
與化去而不見兮	-11.0568
製芰荷以為衣兮	-11.0568
鋙	-11.0568
願承風乎遺則	-11.0568
典校經書	-11.0568
反既有此他志	-11.0568
夫何極而不至兮	-11.0568
如列宿之錯置	-11.0568
惟郢路之遼遠兮	-11.0568
炊	-11.0568
無舟楫而自備	-11.0568
生天地之若過兮	-11.0568
逗	-11.0569
去故而就新	-11.0569
肥牛之腱	-11.0569
彼日月之照明兮	-11.0569
惟著意而得之	-11.0569
撫案下些	-11.0569
流涕以聊慮兮	-11.0569
盛鬋不同制	-11.0569
而髙翔	-11.0569
功不成而無	-11.0569
外承歡之汋約兮	-11.0569
文章爛兮	-11.0569
梗其有理兮	-11.0569
歌而飯牛	-11.0569
母姣而自好	-11.0569
求正氣之所由	-11.0569
濟沅湘以南征兮	-11.0569
美往世之登仙	-11.0569
背夏浦而西思兮	-11.0569
航	-11.0569
莫知余之所有	-11.0569
詒音怡	-11.0569
願陳情以白行兮	-11.0569
判獨離而不服	-11.0569
獨秀先些	-11.0569
􁊥	-11.0569
縛	-11.0569
嵾	-11.057
九侯淑女	-11.057
將隨駑馬之迹乎	-11.057
庖	-11.057
廓其無求兮	-11.057
形枯槁而獨留	-11.057
微霜降而下戒	-11.057
惟佳人之永都兮	-11.057
惟省以端操兮	-11.057
橪	-11.057
爛昭昭兮未央	-11.057
疲勞而	-11.057
聞百里之	-11.057
途	-11.057
繼續	-11.057
屠	-11.057
臼	-11.0571
澹容與而獨倚兮	-11.0571
吾獨窮困乎此時也	-11.0571
悼余生之不時兮	-11.0571
惟其紛糅而將落兮	-11.0571
然潢洋而不可帶	-11.0571
仰浮雲而永歎	-11.0571
去塵埃之間離羣慝之紛吸	-11.0571
后土何時而得漧	-11.0571
寧與騏驥亢軛乎	-11.0571
徵	-11.0571
文君寤而追求	-11.0571
神有所不通	-11.0571
背法度而心治兮	-11.0571
自前世之嫉賢兮	-11.0571
言已自念	-11.0571
不合於衆	-11.0571
他方也	-11.0571
信讒而弗味兮	-11.0571
偉	-11.0571
名聲著而日延	-11.0571
噂	-11.0571
女救切	-11.0571
孔甚也	-11.0571
尚不知余之從容	-11.0571
得罪過之不意	-11.0571
懸人以娭	-11.0571
扈屯騎之容容	-11.0571
斗斛	-11.0571
理弱而媒不通兮	-11.0571
竊慕詩人之遺風兮	-11.0571
翡	-11.0571
肇	-11.0571
與其無義而有名兮	-11.0571
諶	-11.0571
非余心之所樂	-11.0571
鼔琴	-11.0571
勇	-11.0571
蓀詳聾而不聞	-11.0571
謾	-11.0571
橙	-11.0571
薄寒之中人	-11.0571
超惘惘而遂行	-11.0571
塊獨守此無澤兮	-11.0571
華容備些	-11.0571
逐人駓駓些	-11.0571
仇怨	-11.0571
介子忠而立枯兮	-11.0571
何去何從	-11.0571
偏	-11.0571
儵而來兮忽而逝	-11.0571
又何芳之能祗	-11.0571
子胥死而後憂	-11.0571
撫循也	-11.0571
朦	-11.0571
枯死也	-11.0571
用君之心	-11.0571
竊賦詩之所明	-11.0571
精色内白	-11.0571
結撰至思	-11.0571
行君之意	-11.0571
言司命之去	-11.0571
計專專之不可化兮	-11.0571
諒無怨於天下兮	-11.0571
謂蕙若其不可佩	-11.0571
辟與此其無異	-11.0571
遞代	-11.0571
閽	-11.0571
雖有西施之美容兮	-11.0571
切釋名	-11.0571
悲莫悲兮生别離	-11.0571
獨耿介而不隨兮	-11.0571
禾	-11.0571
葰	-11.0571
處濁世而顯榮兮	-11.0571
鋏	-11.0571
何所憂之多方	-11.0572
辛甘行些	-11.0572
子僑之	-11.0572
乃復使	-11.0572
二八侍宿	-11.0572
子神農時	-11.0572
恐禍殃之有再	-11.0572
有小崑崙	-11.0572
減	-11.0572
背繩墨而改錯	-11.0572
雖願忠其焉得	-11.0572
人之心不與吾心同	-11.0572
依前聖以節中兮	-11.0572
又孰能無變化	-11.0572
受物之汶汶者乎	-11.0572
善不由外來兮	-11.0572
固時俗之流從兮	-11.0572
干進而務入兮	-11.0572
彈角而	-11.0572
後悔遁而有他	-11.0572
投之深淵些	-11.0572
數有所不逮	-11.0572
樂府有	-11.0572
此孰吉孰凶	-11.0572
絹	-11.0572
而彌純	-11.0572
舷	-11.0572
葬於江魚之腹中	-11.0572
蘭芳假些	-11.0572
願託志乎素餐	-11.0572
繹	-11.0573
冦	-11.0573
列星而極明	-11.0573
心怵惕而震盪兮	-11.0573
抉	-11.0573
蟋蟀鳴此西堂	-11.0573
或忠信而死節兮	-11.0573
漠而無聲	-11.0573
蓄怨兮積思	-11.0573
驕美而伐武兮	-11.0573
也皓一作	-11.0573
何云賢士之不處	-11.0573
夫尺有所短	-11.0573
弗省察而按實兮	-11.0573
形容枯槁	-11.0573
所誅滅	-11.0573
橐	-11.0573
當世豈無騏驥兮	-11.0573
疏石蘭兮為芳	-11.0573
踰空桑兮從女	-11.0573
驥不驟進而求服兮	-11.0573
不可以相	-11.0573
入不言兮出不辭	-11.0573
卒壅蔽此浮雲兮	-11.0573
孰無施而有報兮	-11.0573
屈心而抑志兮	-11.0573
忍尤而攘詬	-11.0573
恐時世之不固	-11.0573
惛	-11.0573
新沐者必彈冠	-11.0573
望美人兮未來	-11.0573
申旦以舒中情兮	-11.0573
而承宇	-11.0573
臨風怳兮浩歌	-11.0573
舉手也	-11.0573
觴	-11.0573
趙	-11.0573
進路北次兮	-11.0573
霜露慘悽而交下兮	-11.0573
鼓枻而去	-11.0573
海經云	-11.0573
君不知兮	-11.0573
纂組綺縞	-11.0573
隋	-11.0573
令飄風兮先驅	-11.0573
室中之觀	-11.0573
恨其失時而無當	-11.0573
敦脄血拇	-11.0573
瘦	-11.0573
竪	-11.0573
策駑駘而取路	-11.0573
負左右之耿介	-11.0573
送將歸	-11.0573
來集漢北	-11.0573
傷靈脩之數化	-11.0573
夕宿兮帝郊	-11.0573
孰不實而有穫	-11.0573
安能以身之察察	-11.0573
漁父見而問之	-11.0573
物有所不足	-11.0573
猛犬狺狺而迎吠兮	-11.0573
眇不知其所蹠	-11.0573
緫緫	-11.0573
而能與世推移	-11.0573
親戚	-11.0573
軻	-11.0573
鈞	-11.0573
之信直兮	-11.0573
堯舜皆有所舉任兮	-11.0573
忽臨睨夫舊郷	-11.0573
樂莫樂兮新相知	-11.0573
歸來兮不可以乆	-11.0573
滅規榘而改	-11.0573
竊美申包胥之氣盛兮	-11.0573
羌儵忽而難當	-11.0573
聊逍遙	-11.0573
逵	-11.0573
願寄言夫流星兮	-11.0573
科	-11.0574
弦	-11.0574
憍	-11.0574
以忘憂	-11.0574
使涷雨兮灑塵	-11.0574
恬死亡而不聊	-11.0574
擥騑轡而下節兮	-11.0574
於筐簏	-11.0574
時不可兮驟得	-11.0574
登山臨水兮	-11.0574
蜮	-11.0574
賢士無名	-11.0574
今之相者兮舉肥	-11.0574
匱匣也	-11.0574
同糅玉石兮	-11.0574
君誰須兮雲之際	-11.0574
吾與君兮齋速	-11.0574
子非三閭大夫與	-11.0574
心不同兮媒勞	-11.0574
心焉取此怵惕	-11.0574
折瓊枝以為羞	-11.0574
掝	-11.0574
新浴者必振衣	-11.0574
是以見放	-11.0574
椉騏驥之瀏瀏兮	-11.0574
漁父莞爾而笑	-11.0574
狂顧南行	-11.0574
紛緫緫其離合兮	-11.0574
而揚其波	-11.0574
背繩墨以追曲兮	-11.0574
與女沐兮咸池	-11.0574
荆蠻	-11.0574
詒遺也	-11.0574
讒謗	-11.0574
貰	-11.0574
超回志度	-11.0574
遂自忍而沈流	-11.0574
葌	-11.0575
英華也	-11.0575
住曰傺	-11.0575
邱	-11.0575
䋲墨	-11.0575
三公穆穆	-11.0575
吾使厲神占之兮	-11.0575
少歌曰	-11.0575
有鳥自南兮	-11.0575
白皓膠只	-11.0575
草苴比而不芳	-11.0575
見執轡者非其人兮	-11.0575
願陳志而無路	-11.0575
顚仆	-11.0575
飛龍兮翩翩	-11.0575
以求同志也	-11.0575
何不淈其泥	-11.0575
何不餔其糟	-11.0575
和調度以自娛兮	-11.0575
固前聖之所厚	-11.0575
引車右還	-11.0575
後尚可以竄藏	-11.0575
性愚陋以褊淺兮	-11.0575
悼來者之悐悐	-11.0575
意廣大	-11.0575
我獨清	-11.0575
柳	-11.0575
目極千里兮傷春心	-11.0575
芳菲菲而難虧兮	-11.0575
諧	-11.0575
蹇充倔而無端兮	-11.0575
騏驥伏匿而不見兮	-11.0575
隆	-11.0575
欺	-11.0575
南房小壇	-11.0575
蛇床	-11.0575
悄悄	-11.0575
予一作余	-11.0575
井	-11.0575
却騏驥而不乗兮	-11.0575
嶃	-11.0575
無所依	-11.0575
牽引也	-11.0575
願一見兮道余意	-11.0575
鹵	-11.0575
中悶瞀之忳忳	-11.0575
之以日夜	-11.0575
交不忠兮怨長	-11.0575
倚沼畦瀛兮	-11.0575
刑誅	-11.0575
嫉妒	-11.0575
折瓊枝以繼佩	-11.0575
曰今詩作	-11.0575
期不信兮告余以不閒	-11.0575
機蓬矢以	-11.0575
泣霑	-11.0575
淋雨	-11.0575
而歠其釃	-11.0575
芬至今猶未沬	-11.0575
蓼蟲不知	-11.0575
謂騏驥兮安歸	-11.0575
變古易俗兮世衰	-11.0575
霧雨淫淫	-11.0575
思公子兮未敢言	-11.0575
聫	-11.0575
與王趨夢兮課後先	-11.0575
草同死	-11.0575
虹霓	-11.0575
邅吾道兮洞庭	-11.0575
願竢時乎吾將刈	-11.0575
餘波入	-11.0575
鷦	-11.0575
旌蔽日兮敵若雲	-11.0576
矢交墜兮士爭先	-11.0576
焱	-11.0576
視儵忽而無見兮	-11.0576
也與一作冶補曰	-11.0576
又莫察余之中情	-11.0576
君無度而弗察兮	-11.0576
固煩言不可結詒兮	-11.0576
好夫人之慷慨	-11.0576
并日夜而無正	-11.0576
弗參驗以考實兮	-11.0576
爥	-11.0576
蹇吾願兮	-11.0576
不可兮再得	-11.0576
何故至於斯	-11.0576
六氣而飲沆瀣兮	-11.0576
吹參差兮誰思	-11.0576
周論道而莫差	-11.0576
哀吾生之無樂兮	-11.0576
哀朕時之不當	-11.0576
喙	-11.0576
固前脩以菹醢	-11.0576
固庸態也	-11.0576
山帝之二女居	-11.0576
岱	-11.0576
枝葉之峻茂兮	-11.0576
欲循道而平驅兮	-11.0576
欲髙飛而逺集兮	-11.0576
民生各有所樂兮	-11.0576
淚	-11.0576
盛氣志而過之	-11.0576
芳菲菲其彌章	-11.0576
蓀橈兮蘭旌	-11.0576
衡一作蘅	-11.0576
雌雄	-11.0576
雲霏霏而承宇	-11.0576
靈連蜷兮既留	-11.0576
願徼幸而有待兮	-11.0576
黴	-11.0577
上寥廓而無天	-11.0577
張絃	-11.0577
紛旖旎乎都房	-11.0577
魁摧	-11.0577
以媮生乎	-11.0577
以法地	-11.0577
何貞臣之無辠兮	-11.0577
委厥美而歴兹	-11.0577
將從俗富貴	-11.0577
然容與而狐疑	-11.0577
而變衰	-11.0577
願若今兮無虧	-11.0577
飄風屯其相離兮	-11.0577
乃知遭命之將至	-11.0577
以流涕兮	-11.0577
冠切雲之崔嵬	-11.0577
可以濯吾足	-11.0577
名余曰正則兮	-11.0577
君不行兮夷猶	-11.0577
吾不能變心而從俗兮	-11.0577
嗔	-11.0577
夏康娛以自縱	-11.0577
夕弭節兮北渚	-11.0577
字余曰靈均	-11.0577
孛	-11.0577
巧倕不斲兮	-11.0577
幽獨處乎山中	-11.0577
延佇乎吾將反	-11.0577
心猶豫而狐疑兮	-11.0577
忳惽惽而愁約	-11.0577
情與質信可保兮	-11.0577
播江離與滋菊兮	-11.0577
有角曰龍無角	-11.0577
極勞心兮	-11.0577
欸秋冬之緒風	-11.0577
火於秋	-11.0577
獨悲愁其傷人兮	-11.0577
皇覽揆余初度兮	-11.0577
皯	-11.0577
結幽蘭而延佇	-11.0577
而變化兮	-11.0577
肇錫余以嘉名	-11.0577
脈	-11.0577
自此以下皆	-11.0577
舉賢而授能兮	-11.0577
要與腰同	-11.0577
詬病	-11.0577
蹇誰留兮中洲	-11.0577
邅翼翼而無終兮	-11.0577
雄鳩之鳴逝兮	-11.0577
霰雪紛其無垠兮	-11.0577
駕飛龍兮北征	-11.0577
淋	-11.0577
祗	-11.0577
翔翔	-11.0577
坑	-11.0577
困辱	-11.0577
崔巍髙	-11.0577
焉舒情而抽信兮	-11.0577
萷櫹槮之可哀兮	-11.0577
葉菸邑而無色兮	-11.0577
蕭瑟兮	-11.0577
㝠㝠	-11.0577
以力耕乎	-11.0577
以危身乎	-11.0577
仭	-11.0577
任重載盛兮	-11.0577
伯夷餓於首陽	-11.0577
入下吾不能	-11.0577
又重之以脩能	-11.0577
固朕形之不服兮	-11.0577
夫何彭咸之造思兮	-11.0577
奠桂酒兮椒漿	-11.0577
婉順	-11.0577
將游大人	-11.0577
少原之壄	-11.0577
忽緯繣其難遷	-11.0577
恣意所用	-11.0577
悃苦本切	-11.0577
憚蹇裳而濡足	-11.0577
搴芙蓉兮木末	-11.0577
望夫君兮未來	-11.0577
浡	-11.0577
漢書郊祀志有	-11.0577
烱	-11.0577
相息亮切	-11.0577
終危獨以離異兮	-11.0577
而莫余知兮	-11.0577
與波上下	-11.0577
蜃	-11.0577
誠未遇其匹合	-11.0577
謇吾法夫前	-11.0577
霑余襟之浪浪	-11.0577
非世俗之所服	-11.0577
􁈓	-11.0577
循繩墨而不頗	-11.0578
思夫君兮太息	-11.0578
恐重患而離尤	-11.0578
悔相道之不察兮	-11.0578
篸	-11.0578
􁐡	-11.0578
猶豫而狐疑	-11.0578
自寛慰也	-11.0578
其不吾	-11.0578
建芳馨兮廡門	-11.0578
腦	-11.0578
蹇離尤	-11.0578
車錯轂兮短兵接	-11.0578
流澤施只	-11.0578
豪傑執政	-11.0578
飭	-11.0578
􁌽	-11.0578
形銷鑠而瘀傷	-11.0578
恐田野之蕪穢	-11.0578
斑陸離其上下	-11.0578
曰有志極而無旁	-11.0578
有英華	-11.0578
氣力衰	-11.0578
農夫輟耕而容與兮	-11.0578
騷屑	-11.0578
偷以全吾軀乎	-11.0578
兮歸來哀江南	-11.0578
卓卓	-11.0578
又好射夫封狐	-11.0578
在旁曰帷	-11.0578
寧正言不諱	-11.0578
小雅怨誹而不亂若離騷者可謂	-11.0578
帝子降兮北渚	-11.0578
往古以	-11.0578
志介而不忘	-11.0578
忽馳騖以追逐兮	-11.0578
恐情質之不信兮	-11.0578
抑騖若通	-11.0578
時亦猶其未央	-11.0578
比干菹醢	-11.0578
沼池也	-11.0578
浞又貪夫厥家	-11.0578
湛湛江水兮	-11.0578
漢郊祀志云	-11.0578
燥	-11.0578
猨狖之所居	-11.0578
白日出之悠悠	-11.0578
白日昭只	-11.0578
砏	-11.0578
禋	-11.0578
穆將愉兮上皇	-11.0578
解佩纕以結言兮	-11.0578
貫薜荔之落	-11.0578
輾	-11.0578
迷不知吾所如	-11.0578
限之以大故	-11.0578
陽不可與儷偕	-11.0578
雜於黀蒸兮	-11.0578
雜杜衡與芳芷	-11.0578
非余心之所急	-11.0578
鴆告余以不好	-11.0578
婉	-11.0579
笑嘕只	-11.0579
捐余袂兮江中	-11.0579
永遏在羽山夫何三年不施	-11.0579
近禹麾只	-11.0579
靈之來兮如雲	-11.0579
上下悠悠只	-11.0579
以成名乎	-11.0579
委厥美以從俗兮	-11.0579
寧誅鋤草茅	-11.0579
曰君可思而不可恃	-11.0579
曾重也	-11.0579
杲	-11.0579
相下女之可詒	-11.0579
聞至貴而遂徂兮	-11.0579
腩	-11.0579
駝一作馳	-11.0579
君欣欣兮樂康	-11.0579
吾將從王喬而娛	-11.0579
固亂流其鮮終兮	-11.0579
壹氣孔神兮	-11.0579
太公九十乃顯榮兮	-11.0579
嫋嫋兮秋風	-11.0579
官爵也	-11.0579
年洋洋以日往兮	-11.0579
朕車以復路兮	-11.0579
然惆悵而自悲	-11.0579
白日晼晚其將入兮	-11.0579
竊悼後之危敗	-11.0579
精氣入而麤穢除	-11.0579
遇豐隆而不將	-11.0579
長余佩之陸離	-11.0579
靈氛之占	-11.0579
麋何食兮庭中	-11.0579
茷	-11.0579
狹陋	-11.058
値	-11.058
被音披	-11.058
遺余褋兮醴浦	-11.058
周流六漠	-11.058
盟	-11.058
經營四荒兮	-11.058
菁	-11.058
闢	-11.058
上洞庭而下江	-11.058
使百神	-11.058
兮江臯	-11.058
墜墮	-11.058
夕余至乎西極	-11.058
將運舟而下浮兮	-11.058
弄	-11.058
恐天時之代序兮	-11.058
指嶓冢之西隈兮	-11.058
揄	-11.058
昔三后之純粹兮	-11.058
欲自適而不可	-11.058
洞庭波兮木葉下	-11.058
理弱而媒拙兮	-11.058
登閬風而緤馬	-11.058
盍將把兮瓊芳	-11.058
祗敬	-11.058
羅生兮堂下	-11.058
美善之名也	-11.058
而班固	-11.058
薍	-11.058
褘	-11.058
見王子而宿之兮	-11.058
豈不鬱陶而思君兮	-11.058
長顑頷亦何傷	-11.058
阽余身而危死兮	-11.058
不得施用	-11.058
伸要	-11.058
何百姓之震愆	-11.058
刻著志之無適	-11.058
南巢	-11.058
復以所	-11.058
恐脩名之不立	-11.058
悃	-11.058
澆身被服強圉兮	-11.058
皇天之不純命兮	-11.058
稱量	-11.058
純一其	-11.058
老冉冉其將至兮	-11.058
老嵺廓而無處	-11.058
芳菲菲兮滿堂	-11.058
邸余車兮方林	-11.058
靈偃蹇兮姣服	-11.058
一無夫字	-11.058
霏	-11.058
謂文王也	-11.058
螫	-11.058
妨	-11.058
罕	-11.058
羌不可保也	-11.058
召黔嬴而見之兮	-11.058
恩義	-11.058
澁	-11.058
蹙	-11.058
飄飄風	-11.058
䠶革	-11.058
事亹亹而覬進兮	-11.058
君王親發兮	-11.058
因歸鳥而致	-11.058
大侯張只	-11.058
嫮	-11.058
將突梯滑稽	-11.058
屬音燭	-11.058
崔文子	-11.058
師灑道風伯掃塵	-11.058
忠昭昭而願見兮	-11.058
朝搴阰之木蘭	-11.058
求宓妃之所在	-11.058
煉	-11.058
猋壅蔽此明月	-11.058
相觀民之計極	-11.058
瞻前而顧後兮	-11.058
竊不自聊而願忠兮	-11.058
終不察夫民心	-11.058
羌無實而容長	-11.058
至南巢而壹息	-11.058
苟中情其好	-11.058
覽方外之荒忽兮	-11.058
質菲薄而無因兮	-11.058
路貫廬江兮左長薄	-11.058
遭讒人而嫉之	-11.058
采薜荔兮水中	-11.058
雖過失猶弗治	-11.058
順凱風以從遊兮	-11.058
鬬	-11.058
𦙍	-11.058
施用也	-11.058
周流乎天余乃下	-11.0581
石上菖蒲	-11.0581
協	-11.0581
奮羽	-11.0581
有招禍之道也	-11.0581
疾親君而無他兮	-11.0581
頻	-11.0581
招隱士	-11.0581
操吳戈兮被犀甲	-11.0581
瓊轂錯衡	-11.0581
霾兩輪兮縶四馬	-11.0581
攸	-11.0581
之南有	-11.0581
初若是而逢殆	-11.0581
君之門以九重	-11.0581
後文昌使掌行兮	-11.0581
更平聲	-11.0581
箟	-11.0581
自投於	-11.0581
行不進	-11.0581
行吟澤畔	-11.0581
遷逡次而勿驅兮	-11.0581
􁉯	-11.0581
作離騷上	-11.0581
后辛之菹醢兮	-11.0581
哀人生之長勤	-11.0581
喔咿儒兒	-11.0581
夕宿辰陽	-11.0581
已矣哉	-11.0581
忽吾行此流沙兮	-11.0581
忽神奔而鬼怪	-11.0581
恐導言之不固	-11.0581
恐鵜鴂之先鳴兮	-11.0581
惟庚寅吾以降	-11.0581
故重著以自明	-11.0581
朕皇考曰伯庸	-11.0581
朝飲木蘭之墜露兮	-11.0581
樷	-11.0581
獨便悁而	-11.0581
秘密事之載心兮	-11.0581
縱欲而不忍	-11.0581
託彭咸之所居	-11.0581
蹇淹留而躊躇	-11.0581
軒轅不可攀援兮	-11.0581
遵江夏	-11.0581
遵赤水而容與	-11.0581
願皓日之顯行兮	-11.0581
麾蛟龍使梁津兮	-11.0581
栢	-11.0581
蘼	-11.0581
丘墟	-11.0582
皇考之	-11.0582
露申辛夷死林薄兮	-11.0582
翳蔽也	-11.0582
邑里	-11.0582
介胄	-11.0582
莽芒芒之無儀	-11.0582
以潔楹乎	-11.0582
江潭	-11.0582
䔾	-11.0582
九折臂而成醫兮	-11.0582
分流汩兮	-11.0582
吾寧悃悃	-11.0582
國無人	-11.0582
夕餐秋菊之落英	-11.0582
如脂如韋	-11.0582
將騰駕兮偕逝	-11.0582
帶長鋏之陸離兮	-11.0582
彷徨山澤	-11.0582
捐余玦兮江中	-11.0582
春秋忽其不淹兮	-11.0582
朴以忠乎	-11.0582
涙	-11.0582
獨無匹兮	-11.0582
瞳子	-11.0582
紛總總其離合兮	-11.0582
阿曲隅也	-11.0582
駑馬	-11.0582
鸞鳥軒翥而翔飛	-11.0582
奉先功以照下兮	-11.0582
操七刀切	-11.0582
言已所陳忠信	-11.0582
隳	-11.0582
跼兮寒	-11.0582
岒	-11.0582
日將暮兮悵忘歸	-11.0582
繚戾	-11.0582
壹心而不豫兮	-11.0582
不知所行也	-11.0582
代秦鄭衛	-11.0582
思君其莫我忠兮	-11.0582
穀	-11.0582
從風雨而飛颺	-11.0582
管晏	-11.0582
諡	-11.0582
讒賊	-11.0582
任政職	-11.0582
君獨服此蕙兮	-11.0582
夕始臨乎於微閭	-11.0582
往者不可	-11.0582
恐皇輿之敗績	-11.0582
攬茹蕙以掩涕兮	-11.0582
竭知盡忠	-11.0582
練	-11.0582
負檐	-11.0582
載營魄而登霞兮	-11.0582
闌	-11.0582
䆒	-11.0582
不撫壯而棄穢兮	-11.0582
伍子逢殃兮	-11.0582
余有所疑	-11.0582
勒騏驥而更駕兮	-11.0582
受命詔以昭	-11.0582
夕濟兮西澨	-11.0582
大波而流風兮	-11.0582
孽	-11.0582
屠國	-11.0582
惜吾不及古人兮	-11.0582
惟天地之無窮兮	-11.0582
折若木以拂日兮	-11.0582
揚舉也	-11.0582
搴長洲之宿莽	-11.0582
替余以蕙纕兮	-11.0582
正音征	-11.0582
百六十	-11.0582
盾	-11.0582
聞佳人兮召予	-11.0582
船容與而不進兮	-11.0582
茍且也	-11.0582
菉蘋齊葉兮	-11.0582
萬物遽只	-11.0582
行婞直而不豫兮	-11.0582
計謀	-11.0582
譲	-11.0582
遭周文而得舉	-11.0582
隂陽之正	-11.0582
騎白鹿而	-11.0582
鳥次兮屋上	-11.0582
齊桓聞以該輔	-11.0582
齋戒	-11.0582
引楚詞	-11.0583
惕	-11.0583
和楚瀝只	-11.0583
鳧	-11.0583
鳴竽張只	-11.0583
之流風兮	-11.0583
禁苛暴只	-11.0583
芥	-11.0583
鬢	-11.0583
不知所從	-11.0583
之不然也	-11.0583
乘一作椉	-11.0583
強巨良切	-11.0583
戚之謳歌兮	-11.0583
掩浮雲而上征	-11.0583
斯無窮乎	-11.0583
涉江	-11.0583
睇	-11.0583
覬	-11.0583
惟此黨人之不諒兮	-11.0583
攝提貞于孟陬兮	-11.0583
明法度之嫌疑	-11.0583
水周兮堂下	-11.0583
湯禹嚴而求合兮	-11.0583
迫脅	-11.0583
邊馬顧而不行	-11.0583
長太息而掩涕	-11.0583
雷師告余以未具	-11.0583
露才揚已	-11.0583
願銜枚而無言兮	-11.0583
騰告鸞鳥迎宓妃	-11.0583
魂無逃只	-11.0583
鳥皆有所登棲兮	-11.0583
願依彭咸之遺則	-11.0584
娩	-11.0584
躍	-11.0584
懿懿	-11.0584
愚闇	-11.0584
涕漸漸	-11.0584
黴黧	-11.0584
孤寡存只	-11.0584
援玉枹兮擊鳴鼓	-11.0584
瘏	-11.0584
縹匹妙切	-11.0584
而蔽鄣於讒	-11.0584
舉傑壓陛	-11.0584
若千里之駒乎	-11.0584
謇不可釋	-11.0584
鑒	-11.0584
何瓊佩之偃蹇兮	-11.0584
前圖未改	-11.0584
又蔽而莫之白	-11.0584
召豐隆使先導兮	-11.0584
吾固知其鉏鋙而難入	-11.0584
吾誰與玩此芳草	-11.0584
夏桀之常違兮	-11.0584
夕余至乎縣圃	-11.0584
婉娩	-11.0584
悁悒	-11.0584
排閶闔而望予	-11.0584
摯咎繇而能調	-11.0584
擘	-11.0584
眐眐	-11.0584
竭忠誠	-11.0584
自投濮水	-11.0584
謇朝誶而夕替	-11.0584
豈珵美之能當	-11.0584
蹇獨懷此異路	-11.0584
重無怨而生離兮	-11.0584
鳳皇翼其承旂兮	-11.0584
黤	-11.0584
又何可以淹留	-11.0584
憀	-11.0584
楊雄	-11.0584
摯	-11.0584
思靈保兮賢姱	-11.0584
不歠役只	-11.0584
擗蕙櫋兮既張	-11.0584
焦	-11.0584
祇	-11.0584
何以識之	-11.0584
圜鑿而方枘兮	-11.0584
壚	-11.0584
心煩慮亂	-11.0584
愁悄悄之常悲兮	-11.0584
晟	-11.0584
路幽昧以險隘	-11.0584
仲雍	-11.0584
何必用夫行媒	-11.0584
心閔憐之慘悽兮	-11.0584
怜	-11.0584
未足以	-11.0584
溘埃風余上征	-11.0584
焉語助	-11.0584
父信讒而不好	-11.0584
窮不知所示	-11.0584
艷	-11.0584
見伯夷之放迹	-11.0584
覽察草木其猶未得兮	-11.0584
願一見而有明	-11.0584
􁛊	-11.0584
終年命	-11.0585
吾誼先君而後身兮	-11.0585
惟極浦兮寤	-11.0585
君之心兮與余異	-11.0585
闇惑不	-11.0585
企	-11.0585
忽忘身之賤貧	-11.0585
之嬋媛兮	-11.0585
東窮海只	-11.0585
吸飛泉之微液兮	-11.0585
山石之	-11.0585
改操兮	-11.0585
狒	-11.0585
琴名號	-11.0585
破伯牙	-11.0585
阪	-11.0585
刪詩書	-11.0585
前望舒使先驅兮	-11.0585
壟	-11.0585
悔恨也	-11.0585
惟草木之零落兮	-11.0585
春與秋其代序	-11.0585
曅	-11.0585
武丁用而不疑	-11.0585
故相臣莫若君兮	-11.0586
善留客只	-11.0586
怨公子兮悵忘歸	-11.0586
田邑千畛	-11.0586
辛夷車兮結桂旗	-11.0586
長袂拂面	-11.0586
讎而見怨	-11.0586
左雨師使徑侍兮	-11.0586
而下流	-11.0586
西薄羊腸	-11.0586
五十畝	-11.0586
受命不遷生南國兮	-11.0586
同極而異路兮	-11.0586
吾令羲和弭節兮	-11.0586
呉光爭國	-11.0586
天極焉加	-11.0586
妄怒無	-11.0586
於君則	-11.0586
日康娛而自忘兮	-11.0586
日月忽其不淹兮	-11.0586
朱明承夜兮	-11.0586
歿	-11.0586
章畫志墨兮	-11.0586
蓬蒿	-11.0586
釋置也	-11.0586
陽杲杲其未光兮	-11.0586
音義同	-11.0586
遂儵忽而捫天	-11.0586
遊驚霧之流波	-11.0586
􁩂	-11.0586
酢	-11.0586
黜	-11.0586
登九天兮撫彗星	-11.0586
菡	-11.0586
觀者憺兮忘歸	-11.0586
駕兩龍兮驂螭	-11.0586
四酎并孰	-11.0586
遽爽存只	-11.0586
三圭重侯	-11.0586
事君而不貳兮	-11.0586
窴	-11.0586
腱	-11.0586
芷葺兮荷屋	-11.0586
菀積	-11.0586
迷不知寵之門	-11.0586
一無之字	-11.0587
哲王又不寤	-11.0587
好蔽美而稱惡	-11.0587
廇	-11.0587
彼堯舜之耿介兮	-11.0587
比親也	-11.0587
相副	-11.0587
紛逢尤以離謗兮	-11.0587
縹綿綿之不可紆	-11.0587
英華假只	-11.0587
跛	-11.0587
㵼	-11.0587
告余以吉故	-11.0587
執弓挾矢	-11.0587
枉渚	-11.0587
椒糈而要之	-11.0587
盆	-11.0587
精醇粹而始壯	-11.0587
而逺身	-11.0587
謂申椒其不芳	-11.0587
黜貶	-11.0587
吾將從彭咸之所居	-11.0587
欽	-11.0587
埀	-11.0587
靈之來兮蔽日	-11.0587
㒺	-11.0587
贍	-11.0587
子交手兮東行	-11.0587
山林險隘	-11.0587
貟	-11.0587
騷騷而	-11.0587
不得見兮心傷悲	-11.0587
遇暗	-11.0587
錦	-11.0587
乃旋我之	-11.0587
余焉能忍與此終古	-11.0587
撮	-11.0587
留不死之舊鄉	-11.0587
紏	-11.0587
蔬	-11.0587
言已懐忠信	-11.0587
質銷鑠以汋約兮	-11.0587
不知芳何	-11.0587
來迅疾	-11.0587
惟此黨人其獨異	-11.0587
民好惡其不同兮	-11.0587
無羽翼	-11.0587
然欿傺而沈藏	-11.0587
自明及晦	-11.0587
訊	-11.0587
雙匹	-11.0587
願側身而無所	-11.0587
亭	-11.0588
應律兮合節	-11.0588
雲衣兮白霓裳	-11.0588
登崑崙兮四望	-11.0588
姱女倡兮容與	-11.0588
若有人兮山之阿	-11.0588
數惟蓀之多怒	-11.0588
東風飄兮神靈雨	-11.0588
闚	-11.0588
令沅湘兮無波	-11.0588
使江水兮安流	-11.0588
冀幸	-11.0588
欀	-11.0588
磑	-11.0588
萑	-11.0588
之所恥	-11.0588
五色雜而炫燿	-11.0588
六龍於	-11.0588
在山野	-11.0588
峭	-11.0588
嵗月	-11.0588
巫咸將夕降兮	-11.0588
携	-11.0588
晻晻而	-11.0588
求介子之所存兮	-11.0588
猶有曩之態也	-11.0588
誕實	-11.0588
越裳	-11.0588
逢殃	-11.0588
馳椒丘且焉止息	-11.0588
驂連蜷以驕	-11.0588
麗桂樹之冬榮	-11.0588
萆	-11.0588
迻	-11.0589
嵗忽忽	-11.0589
言與行其可迹兮	-11.0589
王虺騫只	-11.0589
倚結軨兮長太息	-11.0589
子慕予兮善窈窕	-11.0589
表獨立兮山之上	-11.0589
雲容容兮而在下	-11.0589
洽	-11.0589
難追逐也	-11.0589
黄棘之枉	-11.0589
九嶷	-11.0589
冬又申之以嚴霜	-11.0589
孰云察余之善惡	-11.0589
山蕭條而無獸兮	-11.0589
建雄虹之采旄兮	-11.0589
忿懟	-11.0589
純黒	-11.0589
虛偽	-11.0589
夫誰畏懼	-11.0589
待明君其知之	-11.0589
鰅鱅短狐	-11.0589
微弱	-11.0589
波滔滔兮來迎	-11.0589
留靈脩兮憺忘歸	-11.0589
驂駕	-11.0589
先威後文	-11.0589
嚴殺盡兮棄原	-11.0589
鳴鳩	-11.0589
世幽昧以昡曜兮	-11.0589
十二焉分	-11.0589
吼	-11.0589
塵垢	-11.0589
待明時也	-11.0589
慶雲	-11.0589
桂櫂兮蘭枻	-11.0589
激感	-11.0589
登於明堂	-11.0589
終古猶	-11.0589
韓信	-11.0589
吾將過乎句芒	-11.0589
杼	-11.0589
矰弋機而在上兮	-11.0589
騎膠葛以雜亂兮	-11.0589
舉長矢兮射天狼	-11.059
涕潺湲兮下霑軾	-11.059
滂心綽態	-11.059
旐	-11.059
之所識	-11.059
何所獨無芳草兮	-11.059
孰求美而釋女	-11.059
尚三王只	-11.059
异	-11.059
惠氣安在	-11.059
惰	-11.059
揭揭	-11.0591
皇天集命	-11.0591
儷	-11.0591
操余弧兮反淪降	-11.0591
宛轉	-11.0591
涅	-11.0591
可乆兮	-11.0591
善美明只	-11.0591
欲少留此靈瑣兮	-11.0591
淟	-11.0591
湯出重泉	-11.0591
畦留夷與掲車	-11.0591
雊	-11.0591
騂	-11.0591
咸唐	-11.0591
噑	-11.0591
罻羅張而在下	-11.0591
與左氏	-11.0591
􁅩	-11.0591
仍	-11.0591
曽一作増	-11.0591
蜮傷躬只	-11.0591
朅丘	-11.0591
中瞀亂兮迷惑	-11.0591
姣麗施只	-11.0591
容則秀雅	-11.0591
曼澤怡面	-11.0591
樂不可言只	-11.0591
出自湯谷	-11.0591
子胥死而	-11.0591
平原忽兮路超	-11.0591
次序	-11.0591
私自憐兮何極	-11.0591
衣袖也	-11.0591
離芳藹之方壯兮	-11.0591
欲釋階而登天兮	-11.0591
紆屈	-11.0591
苦衆人之	-11.0591
䆳	-11.0592
危亡	-11.0592
愁獨哀	-11.0592
舒緩	-11.0592
麗以佳只	-11.0592
也引詩	-11.0592
死則又育	-11.0592
浮渚	-11.0592
煔鶉敶只	-11.0592
血氣盛只	-11.0592
七諌	-11.0592
何變化以作詐	-11.0592
危害厥兄	-11.0592
垂手	-11.0592
寥空無人民	-11.0592
新曲	-11.0592
枉攘	-11.0592
概	-11.0592
流下隕身	-11.0592
渨涹	-11.0592
藻苗	-11.0592
襲長夜之悠悠	-11.0592
魏闕	-11.0592
魂乎無南	-11.0593
九辯第八	-11.0593
援北斗兮酌桂漿	-11.0593
衆人之所	-11.0593
調以娛只	-11.0593
厥利維何	-11.0593
趙簫倡只	-11.0593
九州之博大兮	-11.0593
何不變此志也	-11.0593
臯陶	-11.0593
雝	-11.0593
遼	-11.0593
龍卭	-11.0593
日隂曀	-11.0593
荆和	-11.0593
乗一作椉	-11.0593
靣	-11.0593
君不察	-11.0593
終不變	-11.0593
言䰟神	-11.0593
也蛇一作	-11.0593
以娱憂	-11.0593
勉	-11.0593
奄離披此梧楸	-11.0593
曏	-11.0593
綵	-11.0593
虹采	-11.0593
近習	-11.0593
通稱也	-11.0593
鄭康成	-11.0593
霰	-11.0594
釀	-11.0594
觧	-11.0594
和楚酪只	-11.0594
吳酸蒿蔞	-11.0594
心怦怦兮諒直	-11.0594
歟	-11.0594
涕泣交	-11.0594
去白日之昭昭兮	-11.0594
懸圃	-11.0594
良工	-11.0594
沈没	-11.0595
嶄巖兮	-11.0595
撫余馬兮安驅	-11.0595
載雲旗兮委蛇	-11.0595
邑邑	-11.0595
周之命以咨嗟	-11.0595
醢豚苦狗	-11.0595
北至幽陵	-11.0595
卑賤	-11.0595
嫭以姱只	-11.0595
孤雌	-11.0595
瀾	-11.0595
膾苴蒪只	-11.0595
也擥一作	-11.0595
舨	-11.0595
蔆	-11.0595
邪枉	-11.0595
楯	-11.0595
君昏亂	-11.0595
潦	-11.0595
今直為此蕭艾也	-11.0595
榝又欲充夫佩幃	-11.0595
牧夫牛羊	-11.0595
豕首縱目	-11.0595
不沾薄只	-11.0596
心意安只	-11.0596
習以都只	-11.0596
圉	-11.0596
新聲	-11.0596
測	-11.0596
賣	-11.0596
木根以結茝	-11.0596
極聲變只	-11.0596
葱嶺	-11.0596
且徐遊戲	-11.0596
云何而逢	-11.0596
聵	-11.0596
超越	-11.0596
補曰瞀音茂	-11.0597
崖	-11.0597
九章第四	-11.0597
言已施行	-11.0597
也音萬	-11.0597
歌曲也	-11.0597
奪	-11.0598
深林兮	-11.0598
厥父是臧	-11.0598
回翔	-11.0598
涫	-11.0598
煩懣	-11.0598
軟	-11.0598
陸夷	-11.0598
倈	-11.0598
褰	-11.0598
結縎	-11.0598
尠	-11.0598
迷瞀	-11.0598
何號于市	-11.0598
復欲去	-11.0598
之得一	-11.0598
亢	-11.0598
尚羊	-11.0598
巔越	-11.0598
支解	-11.0598
亥	-11.0599
漢武帝	-11.0599
凙	-11.0599
飲石泉	-11.0599
惜誓	-11.0599
圭	-11.0599
軾	-11.0599
鴻溶	-11.0599
凜	-11.0599
在西南	-11.0599
庫婁	-11.0599
隤	-11.0599
何能依	-11.06
命有殷國	-11.06
而賜封之	-11.06
解萹薄與雜菜兮	-11.06
知所之也	-11.06
之類是也	-11.06
持弓	-11.06
焉得夫朴牛	-11.06
靈脩之	-11.06
清凉	-11.06
何惡輔弼	-11.06
何所悒	-11.06
出國門	-11.06
卒其異方	-11.06
埤	-11.06
諮	-11.06
遏	-11.06
且休息	-11.06
補曰紉女	-11.06
汪洋	-11.06
燎	-11.06
璋珪	-11.06
孰道尚之	-11.0601
望舊邦	-11.0601
晻翳	-11.0601
姱苦	-11.0601
饑	-11.0601
欽定補繪蕭雲從離騷全圖	-11.0601
霍	-11.0601
何由并投	-11.0602
悼亂	-11.0602
額	-11.0602
芽	-11.0602
女何喜	-11.0602
四上競氣	-11.0602
娛人亂只	-11.0602
便事	-11.0602
師望在肆	-11.0602
酉	-11.0602
隔塞也	-11.0602
溷亂	-11.0602
臆	-11.0603
惜誦以致愍兮	-11.0603
水之涯	-11.0603
也逶一作	-11.0603
俊彦	-11.0603
篪	-11.0603
投詩賦只	-11.0603
漇	-11.0603
瓌	-11.0603
武丁之	-11.0604
灃	-11.0604
吾告堵敖以不長	-11.0604
白蜺嬰茀	-11.0604
也悠一作	-11.0604
橫奔	-11.0604
至㑹稽	-11.0605
彷徨	-11.0605
鵜	-11.0605
路道也言	-11.0605
日華子云	-11.0606
逶隨	-11.0606
永思兮	-11.0606
攀	-11.0606
妹	-11.0606
厥萌在初	-11.0606
即此也	-11.0607
秉鞭作牧	-11.0607
帝降夷羿	-11.0607
獨處兮	-11.0607
紆余轡兮	-11.0607
煖	-11.0607
中國兮	-11.0607
寺	-11.0607
藁本	-11.0607
何少康逐犬	-11.0608
舜閔在家	-11.0608
負熊以遊	-11.0608
鸇	-11.0608
蘄茝	-11.0608
汁	-11.0609
員	-11.0609
鄒	-11.0609
白日兮	-11.0609
壈	-11.0609
欲逺去也	-11.0609
寒凝凝只	-11.0609
新夷	-11.0609
筴	-11.0609
􁫚	-11.0609
黄粱	-11.0609
逝言邁	-11.0609
天白顥顥	-11.0609
極中也	-11.0609
典謨	-11.061
炳	-11.061
盧	-11.061
懐襄	-11.061
𦂳	-11.061
何道取之	-11.0611
何羿之	-11.0611
依依	-11.0611
阻相薄	-11.0611
拏	-11.0611
魂乎無西	-11.0611
交集	-11.0611
寤辟	-11.0611
目睞謹也	-11.0612
而無害厥躬	-11.0613
何故以東南傾	-11.0613
葶	-11.0613
掘	-11.0613
有兮字	-11.0613
酆	-11.0613
煩冤	-11.0613
冬榮	-11.0614
卓一作逴	-11.0614
補曰逴音卓	-11.0614
嫌	-11.0614
康回馮怒	-11.0614
三年積思	-11.0614
伯昌	-11.0614
冀州	-11.0614
韓衆	-11.0615
太儀	-11.0615
滃	-11.0615
涕滂沲	-11.0615
何氣通焉	-11.0616
鶉鴳	-11.0616
危俊	-11.0616
弩	-11.0616
斤	-11.0616
滄海	-11.0616
􁆍	-11.0616
徨	-11.0616
莫足與	-11.0616
䇿謀	-11.0616
俎	-11.0616
困窮	-11.0616
禍患也	-11.0617
意欲隨水	-11.0617
音義云	-11.0617
梨	-11.0617
磈	-11.0617
磳	-11.0617
飛谷	-11.0617
龢	-11.0617
泥塗	-11.0618
泫	-11.0618
漢渚	-11.0618
流瀾兮	-11.0618
迂逺	-11.0618
沕	-11.0618
駏	-11.0618
味辛香	-11.0618
嫇	-11.0618
霆	-11.0619
嶔岑	-11.062
殦	-11.062
蔟	-11.062
謑	-11.062
壄莽	-11.0621
􁘯	-11.0621
脊	-11.0621
閼	-11.0621
訪	-11.0621
劬	-11.0622
周遍	-11.0622
絇	-11.0622
願壹見	-11.0623
蒯苦怪	-11.0623
岤	-11.0623
掌禹錫云	-11.0623
彌堅	-11.0623
開軌	-11.0624
綜	-11.0624
讒䦧	-11.0624
眩惑	-11.0625
蒯	-11.0625
似柿葉	-11.0625
問天道之	-11.0625
來革	-11.0625
依違	-11.0627
素女兮	-11.0628
崯崯	-11.0628
羣司	-11.0628
芝栭	-11.0628
之也以言	-11.0629
戴	-11.0629
誰可與兮	-11.0629
寢食	-11.0629
而自退	-11.0629
跓	-11.0629
暢	-11.0629
噰	-11.0631
荻	-11.0632
懰	-11.0634
啞	-11.0634
怊怊	-11.0634
祲	-11.0634
悽愴	-11.0635
振翅	-11.0635
鴻鸕	-11.0635
療	-11.0636
輕重	-11.0636
訖	-11.0638
孔鸞	-11.0638
皆行佞	-11.0639
蜿蟬	-11.0639
九旬	-11.0642
効忠	-11.0642
介特	-11.0643
皇羲	-11.0643
虈	-11.0643
藙	-11.0645
一作俞補	-11.0646
行不正	-11.0647
六蛟兮	-11.0647
贄	-11.0648
鴝	-11.0648
八月	-11.0649
邠岐	-11.0649
嗌喔	-11.065
聒	-11.065
􁪮􁪮	-11.065
相糾	-11.0652
見君而	-11.0652
葉者為	-11.0653
鷂	-11.0653
溰	-11.0653
爾雅釋草云	-11.0656
䠶姦	-11.0656
萹竹	-11.0657
峊	-11.0659
蘮	-11.0659
轉移	-11.0664
沛沛	-11.067
處婦憤	-11.0679
於杳冥之中	-11.0696
龍葵	-11.0729
顧眄	-11.0732
言已懷忠	-11.0736
言復有	-11.0768
妬被離而	-11.0906
逸註	-11.1488
音聊一	-11.2735
第十七	-11.2965
皆解於	-11.3118
離而鄣之	-11.3464
一無而字	-11.3477
作志補曰	-11.3547
第十三	-11.3553
第十五	-11.3587
黒水玄	-11.3674
悁	-11.3752
不作劒脊	-11.3825
又樹蕙之百畝	-11.3831
葷	-11.3849
薛	-11.3868
荇	-11.3868
箎	-11.3868
薠草秋生今南	-11.3872
生江湖	-11.3872
二切迫也	-11.3878
悲憂窮戚兮	-11.3879
薲	-11.3879
贏	-11.3879
蒹	-11.3881
流金鑠石些	-11.3881
彼皆習之	-11.3882
遌	-11.3882
順長瀬之	-11.3883
目曾波些	-11.3883
華酌既陳	-11.3884
薠蘅槁而節離	-11.3885
碧	-11.3885
豈知其何故	-11.3885
邈而不可慕	-11.3885
垂號謚	-11.3885
是食些	-11.3885
此章言己	-11.3885
下有以字	-11.3886
亂而不分	-11.3886
明告君子	-11.3886
知死不可讓	-11.3886
酎清涼些	-11.3886
願勿愛兮	-11.3886
赤螘若象	-11.3886
雁	-11.3887
有柘漿些	-11.3887
以其骨為醢些	-11.3887
安於忠信	-11.3887
豈知其故也	-11.3888
江河之紆曲	-11.3888
放敶組纓	-11.3888
綢	-11.3889
工祝招君背行先些	-11.3889
㠝	-11.3889
上帝其難從	-11.3889
何獨樂斯之謇謇兮	-11.3889
招具該備永嘯呼些	-11.3889
願承閒而自察兮	-11.3889
殤	-11.3889
乾坤之	-11.389
緻	-11.389
其路險	-11.389
右蒼龍之躣躣	-11.389
喟憑心而歷	-11.389
惀	-11.389
徙倚也	-11.389
秉德無私	-11.389
莖葉可作繩索	-11.3891
色直眉美目媔只	-11.3891
恲恲	-11.3891
懲連改忿兮	-11.3891
何毒藥之謇謇兮	-11.3891
前輊輬之鏘鏘兮	-11.3891
壅一作雍	-11.3891
定心廣志	-11.3891
惸獨而不羣兮	-11.3891
望北山而流涕兮	-11.3891
果以我為患	-11.3891
菲	-11.3891
薕	-11.3891
虚之璆琳琅玕焉	-11.3891
願蓀美之可完	-11.3891
彷	-11.3891
廊	-11.3892
微命力何固	-11.3892
驚女采薇鹿何祐	-11.3892
荃蕙與	-11.3892
露雞臛蠵	-11.3892
騖諸神之湛湛	-11.3892
余何畏懼兮	-11.3892
抑心而自強	-11.3892
離一作罹五臣云	-11.3892
愴怳懭悢兮	-11.3893
魂乎歸徠恣所便只	-11.3893
切俗作	-11.3893
固將重昏而終身	-11.3893
意荒忽而流蕩兮	-11.3893
瓊木籬些	-11.3893
發郢都而去閭兮	-11.3893
飯牛而	-11.3893
九歌者屈原之所作也昔楚	-11.3893
又以欺	-11.3893
屈原旣放	-11.3893
思不眠以至曙	-11.3893
涕泣交而凄凄兮	-11.3893
精細米	-11.3893
終長夜之曼曼兮	-11.3893
魄離散	-11.3893
徠逺客	-11.3894
今誰使乎譽之	-11.3894
卬明月而太息兮	-11.3894
反故室	-11.3894
夏屋廣大沙堂秀只	-11.3894
腐臭也	-11.3894
妒被離而鄣之	-11.3894
左朱雀之茇茇兮	-11.3894
燕雀烏鵲巢堂壇兮	-11.3894
邈不可慕也	-11.3894
憂心不遂斯言誰告兮	-11.3894
類可任兮	-11.3894
鵠酸臇鳬	-11.3894
巢	-11.3895
可柰何	-11.3895
慧	-11.3895
此皆甘人歸來	-11.3895
沬巳也	-11.3895
漂翻翻其上下兮	-11.3895
竭誠信也	-11.3895
莫吾知人心不可謂兮	-11.3895
云首陽山在	-11.3895
傷爰哀永歎喟兮	-11.3895
其祠必作	-11.3895
南郢之邑沅湘之間其俗信鬼而好	-11.3895
姊	-11.3895
屯徒渾切	-11.3895
山長望	-11.3895
文縁波些	-11.3895
皇天淫溢而秋霖兮	-11.3895
神儵忽而不反兮	-11.3895
糺思心以	-11.3895
逺莫能	-11.3895
騏驥駿馬也	-11.3895
床	-11.3895
好夫人之忼慨	-11.3896
曲屋歩壛	-11.3896
觀絶霤只	-11.3896
鳴䶵兮吹竽	-11.3896
心不怡之長久兮	-11.3896
漿蜜勺	-11.3896
畫龍蛇些	-11.3896
登大墳以逺望兮	-11.3896
羣靈之豐豐	-11.3896
鴈廱廱而南遊兮	-11.3896
來雜陳些	-11.3896
天地四方多賊姦些	-11.3896
委一作逶	-11.3896
孔靜幽	-11.3896
樂鼓舞以樂諸神	-11.3896
湣	-11.3896
眴兮杳杳	-11.3896
瞭杳杳而薄天	-11.3896
華鐙錯些	-11.3896
齊乆而	-11.3896
北至回水萃何喜	-11.3897
尚黯黮而有瑕	-11.3897
牆	-11.3897
憂與愁其相接	-11.3897
燕翩翩其辭歸兮	-11.3897
碭	-11.3897
簴	-11.3897
纕佩帶也	-11.3897
鍾揺簴	-11.3897
隨飄風之所仍	-11.3897
不知余之異采	-11.3897
不終失過兮	-11.3897
佇眙	-11.3897
各有所錯兮	-11.3897
固非衆人	-11.3897
士女雜坐亂而不分些	-11.3897
憂心不遂	-11.3897
材朴委積兮	-11.3897
渉江采菱發揚荷些	-11.3897
獨隱伏而思慮	-11.3897
經堂入奥	-11.3897
縆瑟兮交鼓	-11.3897
翡帷翠帳飾髙堂些	-11.3897
若竹栢之異心	-11.3897
莫知兮余所為	-11.3897
遇伯樂	-11.3897
離慜而不遷兮	-11.3897
願沈滯而不見兮	-11.3897
中央共牧后何怒	-11.3898
超逍遥兮	-11.3898
陳吳羹些	-11.3898
何離心之可同兮吾將逺逝以自	-11.3898
憚涌湍之礚礚兮	-11.3898
渠糾	-11.3898
粔籹蜜餌	-11.3898
鳥飛反故鄉兮	-11.3898
七尺曰仞	-11.3898
奏九歌而舞韶兮	-11.3898
所照也一云	-11.3898
曾枝剡棘	-11.3898
曾歔欷之嗟嗟兮	-11.3898
望屠於朝歌兮	-11.3898
汜崇蘭些	-11.3898
游於江潭	-11.3898
爢散而不可止些	-11.3898
申申其詈予	-11.3898
者宋玉之所作也	-11.3898
胹鼈炮羔	-11.3898
莫補切	-11.3898
讃	-11.3898
靈遙思	-11.3898
願志之有像	-11.3898
今處處有之	-11.3899
驤	-11.3899
復旋反	-11.3899
王子比干之	-11.3899
不畢辭而赴淵兮	-11.3899
參目虎首其身若牛些	-11.3899
愗	-11.3899
或訑謾而不疑	-11.3899
紛容容之無經兮	-11.3899
罔芒芒之無紀	-11.3899
願賜不肖之軀而别離兮	-11.3899
兮歸來南方不可以止些	-11.3899
惜壅君之不識	-11.3899
淑離不淫	-11.3899
玉佩兮陸離	-11.3899
終然殀乎羽之野	-11.3899
聊以自救兮	-11.3899
聖人不凝滯於物	-11.3899
腥臊並御芳不得薄兮	-11.3899
蒻阿拂壁	-11.3899
覽余以其脩姱	-11.3899
醲	-11.3899
隂陽易位時不當兮	-11.3899
鬱結紆軫兮	-11.3899
甚著明也	-11.3899
水得風	-11.39
豔陸離些	-11.39
離婁微睇兮	-11.39
頑嚚	-11.39
也余一作我	-11.39
劭	-11.39
報大德之優游	-11.39
寧溘死以流亡兮	-11.39
汜濫之浮雲兮	-11.39
粻	-11.39
聽波聲之洶洶	-11.39
何芳草之早殀兮	-11.39
佳冶之芬芳兮	-11.39
廓空也	-11.39
憐浮雲之相羊	-11.39
招者召也以手曰招以言曰召	-11.39
更統世而自貺	-11.39
此當從仌	-11.39
瘳	-11.39
識知也	-11.39
身之精也宋玉憐哀屈原忠而斥棄愁懣	-11.39
名補曰淮南云	-11.39
安能以皓皓之白	-11.39
漵	-11.39
路遠處幽	-11.39
重華舜名	-11.39
麗而不竒些	-11.39
冨	-11.39
我獨醒	-11.39
戃	-11.39
又衆兆之所	-11.3901
彭鏗斟雉帝何饗	-11.3901
補曰顔師古云	-11.3901
不肯進	-11.3901
古固有不並兮	-11.3901
多珍怪些	-11.3901
封狐千里些	-11.3901
瓉	-11.3901
羌衆人之所仇	-11.3901
逢亂世	-11.3901
騰駕歩	-11.3901
魂乎無東湯谷	-11.3901
世人皆濁	-11.3901
介眇志之所惑兮	-11.3901
千鈞為輕	-11.3901
哀南夷之莫吾知兮	-11.3901
寧赴湘流	-11.3901
巫陽對曰掌㝱	-11.3901
擥涕而竚眙	-11.3901
放佚厥命將落故作招	-11.3901
曼余目以流觀兮	-11.3901
菎蔽象棊	-11.3901
運轉也言	-11.3901
長太息兮將上心低佪兮顧	-11.3901
長瀨湍流	-11.3901
驟諫君而不聽兮	-11.3901
黙而莫余知兮進號呼又莫吾聞	-11.3901
庫	-11.3901
撫珮衽以案志兮	-11.3901
矇瞍謂之不章	-11.3902
乏	-11.3902
忳鬱邑余侘傺兮	-11.3902
登降堂只	-11.3902
袂袖也	-11.3902
食多方些	-11.3902
不逢湯武與桓繆兮世孰云而知之	-11.3902
使讒諛而日得	-11.3902
冀其覺悟而還之也	-11.3902
將以遺兮離居	-11.3902
往來儵忽吞人以益其心些	-11.3902
心鬱結而紆軫	-11.3902
忽若不信兮	-11.3902
欲以復其精神延其年	-11.3902
煩冤瞀容	-11.3902
西方之害	-11.3902
逺而不察兮	-11.3902
􁖑	-11.3902
䕫	-11.3902
世雷同而炫曜兮	-11.3902
身幽隱而備之	-11.3902
重任石之何益	-11.3902
魚鱗屋兮龍堂紫貝闕兮朱宫	-11.3902
杖	-11.3902
陸法言	-11.3902
兄有噬犬弟何欲	-11.3902
心煩憺兮忘食事	-11.3902
神龍失水而陸居	-11.3902
聊逍遥以相佯	-11.3902
誰可與玩斯遺芳兮	-11.3902
搷鳴鼓些	-11.3902
篝	-11.3902
糞	-11.3902
結琦璜些	-11.3902
苹	-11.3902
誠莫之能善御	-11.3902
亦不貪餧而妄食	-11.3902
以不慈之僞名	-11.3902
充夫佩幃	-11.3902
夫何焭獨而不予聽	-11.3902
姱容脩態	-11.3902
媒絶路阻兮	-11.3902
怵	-11.3902
抑志而弭節兮	-11.3902
折若椒以自處	-11.3902
昔余夢登天兮魂中道而無杭	-11.3902
汜潏潏其前後兮	-11.3902
結桂枝兮延竚	-11.3902
羌中道而改路	-11.3902
自令放	-11.3902
蟬翼為重	-11.3902
遯	-11.3902
鷙鳥之不羣兮	-11.3902
下暗漠而無光	-11.3902
作九歌之曲	-11.3902
倚閶闔而望予	-11.3902
夕歸次於窮石兮	-11.3902
属	-11.3902
悐	-11.3902
撫情効志兮	-11.3902
縳	-11.3902
見俗人祭祀之禮歌舞之樂其詞鄙陋因	-11.3902
言巳年雖	-11.3902
貨	-11.3902
逺志之所及兮	-11.3902
離慜而長鞠	-11.3902
壛	-11.3903
衽若交竿	-11.3903
邅吾道夫崑崙兮	-11.3903
倖	-11.3903
名不可以虛作	-11.3903
失其所也	-11.3903
情冤見之日明兮	-11.3903
拊	-11.3903
欲寂漠而	-11.3903
瞰霧	-11.3903
背膺牉以交痛兮	-11.3903
菉蓐草葹	-11.3903
蹇蹇之煩冤兮	-11.3903
轂	-11.3903
靡顔膩理	-11.3903
魂乎歸徠不遽惕只	-11.3903
䧟滯而不濟	-11.3903
一槩而相量	-11.3903
保厥美以驕傲兮	-11.3903
從豐隆而	-11.3903
日昧昧其將暮	-11.3903
溘吾遊此春	-11.3903
登崑崙兮食玉英	-11.3903
者余弗及兮	-11.3903
貍	-11.3903
蹇將憺兮壽	-11.3903
去鄉離家兮	-11.3904
忠貞之性	-11.3904
忳忳而	-11.3904
忽翺翔之焉薄	-11.3904
泱	-11.3904
約而悲愁	-11.3904
世溷濁而不清	-11.3904
兮歸徠正始昆只	-11.3904
可以濯吾纓	-11.3904
夷猶宿北姑兮	-11.3904
孰申旦而别之	-11.3904
帥雲霓而來御	-11.3904
弱顔固植	-11.3904
曽音増	-11.3904
本草枲耳一名葹	-11.3904
濅	-11.3904
無轡銜而自載	-11.3904
絶端兮	-11.3904
致命於帝然後得瞑些	-11.3904
蛟龍隱其文章	-11.3904
譅	-11.3904
豈其有他故兮莫好脩之害也	-11.3904
餅	-11.3904
魂乎無南南有炎火千里	-11.3904
何方圜之能周兮夫孰異道而相安	-11.3904
來者吾不聞	-11.3904
反故室敬而無妨些	-11.3904
妺	-11.3904
實沛徂兮	-11.3904
廚	-11.3904
懹	-11.3904
日康娛以淫遊	-11.3904
旦余濟乎江湘	-11.3904
望大河之洲渚兮悲申徒之抗迹	-11.3904
洧	-11.3904
盜	-11.3904
若必筮予之恐後之謝	-11.3904
難曉也	-11.3904
蠚	-11.3905
壑焉實惟無底之谷名曰歸墟	-11.3905
上至列缺兮	-11.3905
何壯武厲能流厥嚴	-11.3905
卜居者屈原之所作也屈原	-11.3905
而不得進	-11.3905
覽民尤以自鎮	-11.3905
隂陽之和食天地之精	-11.3905
廣遂前畫兮	-11.3905
悼芳草之先零	-11.3905
惜壅君之不昭	-11.3905
有六簙些	-11.3905
木九千	-11.3905
澹無為而自得	-11.3905
犲狼從目往來侁侁些	-11.3905
紛總總兮九州	-11.3905
羌居蔽而聞章	-11.3905
老冉冉兮既極	-11.3905
聞赤松之清塵兮	-11.3905
蜿蜒	-11.3905
蝮蛇蜒只	-11.3905
補曰鴞于驕切	-11.3905
諸侯畢極立九卿只	-11.3905
駕辯楚勞商只	-11.3905
㳂	-11.3905
乹	-11.3905
信未達乎從容	-11.3905
夫唯靈脩之故也	-11.3905
嵎	-11.3905
恬漠思欲濟世則意中憤然文采	-11.3905
故髙枕而自適	-11.3905
無所告訴乃深惟元一	-11.3905
無衣裘以御冬兮	-11.3905
秋蘭以爲佩	-11.3905
被明月兮珮寶璐	-11.3905
見有娀之佚女	-11.3905
願慕先聖之遺教	-11.3905
鳥萃兮蘋中	-11.3905
龍駕兮帝服	-11.3905
鵝	-11.3905
厮	-11.3906
蘄	-11.3906
生下濕地	-11.3906
軰	-11.3906
反離羣而贅肬	-11.3906
咸播秬黍莆雚是營	-11.3906
固人命兮有當孰離合兮可	-11.3906
故駶跳而	-11.3906
漏	-11.3906
漱正陽而含朝霞	-11.3906
荷衣兮蕙帶	-11.3906
見放流	-11.3906
魂乎歸徠麗以先只	-11.3906
也補曰史記秦	-11.3906
俛詘以自抑	-11.3906
及余飾之方壯兮周流觀乎上下	-11.3906
執履忠信	-11.3906
天地無所不到然猶	-11.3906
孰察其撥正	-11.3906
寔	-11.3906
強非其人	-11.3906
恕巳以量人	-11.3906
慙光景之誠信兮	-11.3906
曰排閶闔	-11.3906
曰遂古之初誰傳道之	-11.3906
殱	-11.3906
洔	-11.3906
浮江淮而入海兮從子胥而自適	-11.3906
獨立不遷豈不可喜兮	-11.3906
窟	-11.3906
芞	-11.3906
茞一作芷	-11.3906
莽莽而無垠	-11.3906
薜荔柏兮蕙綢	-11.3906
識路之營營	-11.3906
賛	-11.3906
馮崑崙以瞰霧兮	-11.3906
而不分兮	-11.3907
昔君與我誠言兮	-11.3907
曹子建	-11.3907
漁父者屈原之所作也屈原放	-11.3907
省息井切	-11.3907
秔	-11.3907
不顧難以圖後兮五子用失乎家巷	-11.3907
之厚也是以君子珍重其志而瑋其辭焉	-11.3907
來吾道夫先路	-11.3907
君罔謂汝何之	-11.3907
吾將蕩志而愉樂兮	-11.3907
啓九辯與九歌兮	-11.3907
夫惟黨人鄙固兮	-11.3907
宫庭震驚	-11.3907
寧超然髙舉	-11.3907
恐溘死不得見乎陽春	-11.3907
悲時俗之迫阨兮	-11.3907
故衆口其鑠金兮	-11.3907
明明闇闇惟時何	-11.3907
曾不知夏之為	-11.3907
楚人思念屈原因叙其辭以相傳焉	-11.3907
樂時遇屈原川澤之域怪而問之遂相應	-11.3907
泊莽莽與	-11.3907
激楚之結	-11.3907
璆鏘鳴兮琳琅	-11.3907
者屈原之所作也或曰景差疑不能明也	-11.3907
耿吾既得此中正	-11.3907
行比伯夷置以	-11.3907
覽相觀於四極兮	-11.3907
讟	-11.3907
隂陽三合何本何化	-11.3907
雖少可師長兮	-11.3907
雖重介之何益	-11.3907
鞫	-11.3907
願寄言於浮雲兮	-11.3907
驥焉程兮	-11.3907
遞	-11.3907
鞭	-11.3908
舉世皆濁	-11.3908
伯林雉經維其何故	-11.3908
受禮天下又使至代之	-11.3908
拒	-11.3908
接徑千里出若雲只	-11.3908
湘夫人廣開兮天門	-11.3908
羸	-11.3908
謇謇之	-11.3908
急就篇	-11.3908
獨鄣壅而蔽隱兮	-11.3908
生别離	-11.3908
上下未形何由考之	-11.3908
不知吾所臧	-11.3908
不遂故憤然大招其魂盛稱楚國之樂崇	-11.3908
伏清白以死直兮	-11.3908
冲	-11.3908
去君之恒幹	-11.3908
君之樂處而離彼不祥些	-11.3908
吾令豐隆椉雲	-11.3908
吾方髙馳而不顧	-11.3908
命將終	-11.3908
屈原放流九年憂	-11.3908
廖	-11.3908
形穆穆以浸	-11.3908
心嬋媛而	-11.3908
心繚悷而有哀	-11.3908
忽傾寤以嬋媛	-11.3908
拔木九千些	-11.3908
朝吾將濟於白水兮	-11.3908
棘賔商九辯九歌	-11.3908
深林杳以冥冥兮	-11.3908
濁貪也	-11.3908
灸	-11.3908
煩亂精神	-11.3908
糅雜也	-11.3908
結微情以陳詞兮	-11.3908
繚之兮杜衡	-11.3908
耀靈曄而西征	-11.3908
聊浮游而求女	-11.3908
與前世而皆然兮	-11.3908
萬變其情豈可蓋兮	-11.3908
觀炎氣之相仍兮窺煙液之所積	-11.3908
諒城郭之不足恃兮	-11.3908
豈維紉夫蕙	-11.3908
負鼎爼	-11.3908
跪敷衽以陳辭兮	-11.3908
輯	-11.3908
雖體解吾猶未變兮豈余心之可懲	-11.3908
霧露濛濛	-11.3908
馮鬱鬱其何極	-11.3908
受壽永多	-11.3909
拭	-11.3909
獵春囿只	-11.3909
聽惝怳而無聞	-11.3909
拆	-11.3909
脇	-11.3909
多迅衆些	-11.3909
層臺累榭	-11.3909
撣	-11.3909
此章言巳	-11.3909
然怊悵而	-11.3909
讒人髙張	-11.3909
遂赴汨	-11.3909
㣧	-11.3909
上陳事神之敬下	-11.3909
下幽晦以多雨	-11.3909
不同章句雜錯而廣異義焉	-11.3909
五計切	-11.3909
余佩兮醴浦	-11.3909
余既滋蘭之九畹兮	-11.3909
兮莫我	-11.3909
哀衆芳之蕪穢	-11.3909
圜則九重孰營度之	-11.3909
多竒怪	-11.3909
女媧有體孰制匠之	-11.3909
寧與黄鵠比翼乎	-11.3909
將哫訾栗斯	-11.3909
屬貞臣而日娭	-11.3909
巫咸之興	-11.3909
弟五人	-11.3909
形蟉虬而逶蛇	-11.3909
心尚幸其弗濟	-11.3909
怊惝怳而乖懷	-11.3909
於中夜存	-11.3909
於衰亂之世	-11.3909
昭瞢闇誰能極之	-11.3909
望瑶臺之偃蹇兮	-11.3909
次舎也	-11.3909
泝江潭兮	-11.3909
痩	-11.3909
罾何為兮木上	-11.3909
羌不知余之所臧	-11.3909
蘭茝幽而獨芳	-11.3909
螭蟲象並出進兮	-11.3909
衝風至兮水揚波	-11.3909
賂	-11.3909
路不周以左轉兮	-11.3909
路脩逺以周流	-11.3909
遥望博	-11.3909
鑄	-11.3909
陸離而	-11.3909
雖萎絶其亦何傷兮	-11.3909
靈皇皇兮既降	-11.3909
靚杪秋之遥夜兮	-11.3909
食不媮而為飽兮	-11.3909
黨人之鄙	-11.3909
􁀾	-11.3909
佑	-11.391
降望大壑	-11.391
與泰初而	-11.391
其不變	-11.391
土伯九約其角觺觺些	-11.391
崟	-11.391
後兹承輔	-11.391
易之以百兩卒無禄	-11.391
晠	-11.391
水長流	-11.391
而固然	-11.391
雞鶩翔舞	-11.391
乗白黿兮逐文	-11.391
以比三王能任用賢公卿明察能薦舉	-11.391
余以蘭為可恃兮	-11.391
反信讒而齌怒	-11.391
太微之	-11.391
實滿宫些	-11.391
心純庬而不泄兮	-11.391
忍而不能舍也	-11.391
恥辱也	-11.391
惟兹何功孰初作之	-11.391
效志兮	-11.391
旌旗也	-11.391
椒專佞以慢慆兮	-11.391
湯禹儼而祗敬兮	-11.391
瑶席兮玉瑱	-11.391
登大墳	-11.391
瞭	-11.391
瞭冥冥而薄天	-11.391
矯菌桂以紉蕙兮	-11.391
竈	-11.391
精瓊爢以為粻	-11.391
羿淫遊以佚畋兮	-11.391
聇	-11.391
聊浮遊以逍	-11.391
腓	-11.391
蓤	-11.391
集重陽入帝宫兮	-11.391
靈氛既告余以吉占兮	-11.391
非所樂	-11.391
願遂推而為臧	-11.391
飾復植	-11.391
駟玉虬以椉鷖兮	-11.391
殷宗用而不長	-11.391
願自往而徑遊兮	-11.391
􁃇	-11.391
晏晚也	-11.3911
以定嫌疑故曰卜居也	-11.3911
射逓代些	-11.3911
重蔽而聞章	-11.3911
义	-11.3911
其大無垠	-11.3911
又未知其所從	-11.3911
及少康之未家兮留有虞之二姚	-11.3911
吾將往乎南疑	-11.3911
固知謇謇之為患兮	-11.3911
好蔽美而嫉妬	-11.3911
少司命暾將出兮東方	-11.3911
屈原曰吾聞之	-11.3911
忘儇媚以背衆兮	-11.3911
指九天以為正兮	-11.3911
既受詒兮	-11.3911
曽重也	-11.3911
朝濯髪乎洧	-11.3911
朝發軔於太儀兮	-11.3911
未敢言者	-11.3911
東流不溢孰知其故	-11.3911
沛罔象而自浮	-11.3911
流出戸	-11.3911
滿内而外揚	-11.3911
漱凝霜之雰雰	-11.3911
璜臺十成誰所極焉	-11.3911
甫	-11.3911
白薠兮騁望	-11.3911
稟	-11.3911
聲有隱而先倡	-11.3911
脩路幽蔽	-11.3911
覽冀州兮有餘	-11.3911
阻窮西征巖何越焉	-11.3911
陟陞皇之赫戲兮	-11.3911
離人羣而遁逸	-11.3911
鯪魚何所鬿堆焉處	-11.3911
内厚質正兮	-11.3911
喟憑心而歴兹	-11.3911
惟佳人之獨懷兮	-11.3911
春氣奮發	-11.3911
春秋逴逴而日髙兮	-11.3911
爲信過信爲	-11.3911
糈	-11.3911
罾	-11.3911
自前世而固然	-11.3911
芭	-11.3912
懟	-11.3912
㴉	-11.3912
虆	-11.3912
寧昂昂	-11.3912
誅譏罷只	-11.3912
佩之可貴兮	-11.3912
凡百君子莫不慕其	-11.3912
嘉其文采哀其不遇而	-11.3912
契曰玉英玉	-11.3912
明已所	-11.3912
甬	-11.3912
薄暮雷電歸何憂	-11.3912
補曰菌音窘	-11.3912
魂乎歸徠居室定	-11.3912
事緜緜而多私兮	-11.3912
人心不可謂兮	-11.3912
人皆醉而我獨醒	-11.3912
何所不死長人何守	-11.3912
余不忍為此態也	-11.3912
使湘靈鼓瑟兮	-11.3912
依風穴以自息兮	-11.3912
吁嗟黙黙兮	-11.3912
吾聞作忠以造怨兮忽謂之過言	-11.3912
嘗被君之渥洽	-11.3912
山名也在西	-11.3912
指炎神而直馳兮	-11.3912
欲逺集而無所止兮	-11.3912
瑾握瑜而自令見放	-11.3912
目眇眇兮愁予	-11.3912
石瀨兮淺淺	-11.3912
祍	-11.3912
祝融戒而還衡兮	-11.3912
舒并節以馳騖兮	-11.3912
行隱進兮	-11.3912
音樂博衍無終極兮	-11.3912
鸞皇為余先戒兮	-11.3912
䳄	-11.3912
以喻賢臣	-11.3912
佩繽紛其繁飾兮	-11.3912
冥淩浹行	-11.3912
后皇嘉樹橘徠服兮	-11.3912
吴光爭國	-11.3912
唯昭質其猶未虧	-11.3912
大人所盛	-11.3912
女嬋媛兮為余太息	-11.3912
導帝之兮九坑	-11.3912
年既老而不衰	-11.3912
恐美人之遲暮	-11.3912
氛埃而淑尤兮	-11.3912
磤	-11.3912
自壓桉而學誦	-11.3912
裦	-11.3912
凌余陣兮躐余行	-11.3913
余先乎平路	-11.3913
偕	-11.3913
爵禄盛只	-11.3913
藳	-11.3913
長無絶兮終古	-11.3913
魂乎歸徠尚賢士只	-11.3913
不可逮也	-11.3913
之飯芬香且柔滑也	-11.3913
五榖六仞	-11.3913
以託君子飄風雲霓	-11.3913
何況一國之事兮	-11.3913
南行兮思彭咸之故也思美人	-11.3913
右雷公以為衛	-11.3913
吸湛露之浮源兮	-11.3913
吾至今而知其信然	-11.3913
命則處幽吾將罷兮	-11.3913
固衆芳之所在	-11.3913
宓妃佚女以譬賢臣虬龍鸞	-11.3913
小人其詞温而雅其義皎而朗	-11.3913
屈原曰舉世皆濁	-11.3913
憑不猒乎求索	-11.3913
東有大海溺水浟浟只	-11.3913
皆競進以貪婪兮	-11.3913
穉朱顔只	-11.3913
而南行兮	-11.3913
而相量	-11.3913
豈余身之憚殃兮	-11.3913
釋舟陵行何以遷之	-11.3913
雖信美而無禮兮來違棄而改求	-11.3913
高萬仭	-11.3913
魂乎歸徠安以舒只	-11.3913
黿	-11.3913
不吾知其亦已兮	-11.3913
且焉止息	-11.3913
乆余是勝	-11.3913
人有所極同心賦些	-11.3913
夫維聖哲以茂行兮	-11.3913
妺嬉何肆湯何殛焉	-11.3913
張咸池奏承雲兮	-11.3913
惜屈原因共論述故其文義不次序云爾	-11.3913
易初本迪兮	-11.3913
時髣髴以遥見兮	-11.3913
朝發枉陼兮	-11.3913
枹兮拊鼓	-11.3913
民離散而相失兮方仲春而東遷	-11.3913
然霠曀而莫	-11.3913
荒忽兮逺望觀流水兮潺湲	-11.3913
蜷局顧而不行	-11.3913
觀南人之變態	-11.3913
遭沈濁而汙穢兮	-11.3913
閭大夫三閭之職掌王族三姓曰昭屈景	-11.3913
陳竽瑟兮浩倡	-11.3913
靡蓱九衢枲華安居	-11.3913
撗	-11.3914
專惟君而無他兮	-11.3914
左驂殪兮右刃傷	-11.3914
潔至人貴藏暉與	-11.3914
陜	-11.3914
柰	-11.3914
鴈皆唼夫粱藻兮	-11.3914
微霜降而下淪	-11.3914
悲哉秋之為氣也	-11.3914
戍	-11.3914
不可問故曰天問也屈原放逐憂心愁悴	-11.3914
九州安錯川谷何洿	-11.3914
仍羽人於丹丘兮	-11.3914
何續初繼業而厥謀不同	-11.3914
何變易之可	-11.3914
僊	-11.3914
問大微之所居	-11.3914
物以比讒佞靈	-11.3914
矇	-11.3914
知前轍之不遂兮	-11.3914
紛溶與而並馳	-11.3914
美人以嫓於君	-11.3914
自是一種	-11.3914
茀	-11.3914
警	-11.3914
跪	-11.3914
顔色憔悴	-11.3914
2	-11.3914
一無得字	-11.3914
内欣欣而自美兮	-11.3914
吾令帝閽開關兮	-11.3914
呑	-11.3914
回旋也	-11.3914
堯不姚告二女何親	-11.3914
夜耿耿而不寐兮	-11.3914
夫孰非義而可用兮孰非善而可服	-11.3914
女嫉余之蛾眉兮	-11.3914
帝乃降觀下逢伊摯	-11.3914
心調度而弗去兮	-11.3914
思舊故以想像兮	-11.3914
思蹇產而不釋	-11.3914
恐嫉妬而折之	-11.3914
憲	-11.3914
揚雲霓之晻藹兮	-11.3914
既莫足與為美政兮	-11.3914
朝發軔於天津兮	-11.3914
溆	-11.3914
煇	-11.3914
獨遑遑而無所集	-11.3914
獨鬱結其誰語	-11.3914
畵	-11.3914
矯兹媚以私處兮	-11.3914
竊快在中心兮	-11.3914
競周容以為度	-11.3914
笫	-11.3914
羌芳華自中出	-11.3914
苟得用此下土	-11.3914
蝮	-11.3914
衽拂於不周	-11.3914
鉅	-11.3914
阿衡欲干湯而無由乃	-11.3914
雄虺九首儵忽焉在	-11.3914
願及白日之未暮	-11.3914
願輕舉而逺	-11.3914
魂乎歸徠思怨移只	-11.3914
魂焭焭而至曙	-11.3914
凰	-11.3914
錯置也	-11.3915
已放在山澤	-11.3915
押	-11.3915
漂	-11.3915
糓	-11.3915
載尸集戰何所急	-11.3915
闐音田	-11.3915
二女御九韶歌	-11.3915
何桀紂之猖披兮	-11.3915
其色青	-11.3915
愁人兮奈何	-11.3915
晼	-11.3915
櫋	-11.3915
此二句	-11.3915
滿堂兮美人忽獨與余兮目成	-11.3915
然怊悵而無冀	-11.3915
纂就前緒遂成考功	-11.3915
與美人抽怨兮	-11.3915
蘭如薄荷㣲	-11.3915
魂乎無西西方流沙	-11.3915
鼎臑盈望和致芳只	-11.3915
世溷濁而不分兮	-11.3915
二億三萬三千五百里	-11.3915
令海若舞馮夷	-11.3915
來隨我車	-11.3915
信讒諛之溷濁兮	-11.3915
古茗切	-11.3915
嚢	-11.3915
堂所謂含章以時發者也然蘭蕙之才	-11.3915
天歎息見楚有先王之廟及公卿祠堂圖	-11.3915
婬	-11.3915
子蕙似士	-11.3915
孔叢子云宰我問	-11.3915
忽反顧以遊目兮	-11.3915
懷朕情而不	-11.3915
懷瑾握瑜兮	-11.3915
懷質抱情	-11.3915
指西海以為期	-11.3915
既遵道而得路	-11.3915
易中利心以動作只	-11.3915
晉申生之孝子兮	-11.3915
欲害已也	-11.3915
深固難徙更壹志兮	-11.3915
率其賢良以厲國士入則與王圖議政事	-11.3915
生山側似劉寄奴	-11.3915
窮身永樂年壽延只	-11.3915
終不反其故都	-11.3915
緑葉素榮紛其可喜兮	-11.3915
謠	-11.3915
陷滯而不濟	-11.3915
雖不周於今之人兮	-11.3915
博物志	-11.3916
辛夷楣兮	-11.3916
沈抑而不得揚	-11.3916
耐	-11.3916
與天地參	-11.3916
㷀	-11.3916
頑	-11.3916
那	-11.3916
湊	-11.3916
逢此世之俇攘	-11.3916
魂乎歸徠無東無西無南無北	-11.3916
亂曰浩浩沅湘	-11.3916
以保真乎	-11.3916
余雖好脩姱以鞿羈兮	-11.3916
使夫百草為之不芳	-11.3916
侣	-11.3916
僕夫悲余馬懷兮	-11.3916
及古賢聖怪物行事周流罷倦	-11.3916
吕望之鼓刀兮	-11.3916
君子所鄙	-11.3916
吾令蹇脩以為理	-11.3916
好此竒服兮	-11.3916
安得夫良藥不能固臧	-11.3916
山叢薄之中不	-11.3916
惲	-11.3916
慘鬱鬱而不通兮	-11.3916
曰勉陞降以上下兮	-11.3916
洩	-11.3916
淹回水而疑滯	-11.3916
湯謀易旅何以厚之	-11.3916
焉有石林何獸能言	-11.3916
瑜	-11.3916
相浞行	-11.3916
符驗	-11.3916
羿焉彃日烏焉解羽	-11.3916
艾同生而不殊	-11.3916
茝一作芷	-11.3916
衆薆然而蔽之	-11.3916
袵	-11.3916
謂幽蘭其不可佩	-11.3916
遊兮周章	-11.3916
陽侯之汜濫兮	-11.3916
順欲成功帝何刑焉	-11.3916
魂乎歸徠賞罰當只	-11.3916
信過信	-11.3917
何感天抑墬	-11.3917
人阜昌只	-11.3917
别有杜蘅不相似	-11.3917
聲有隱而相感兮	-11.3917
賢士只	-11.3917
辟匹亦切	-11.3917
兾幸君之	-11.3917
又云矯菌桂以紉蕙則菌桂自是一物	-11.3917
媿易初而屈志	-11.3917
惟夫黨人之偷樂兮	-11.3917
敷布也	-11.3917
爭盟何踐吾期	-11.3917
瑰	-11.3917
經云崑崙有銅柱焉其	-11.3917
羌愈思兮愁人	-11.3917
行仁義勤	-11.3917
䧏	-11.3917
乃遂焉而逢殃	-11.3917
何勤子屠母而死分竟地	-11.3917
作忠以造怨	-11.3917
假大也	-11.3917
免衆患而不懼兮	-11.3917
内鶬鴿鵠	-11.3917
地方九則何以墳之	-11.3917
夫何辠尤	-11.3917
情抱質	-11.3917
揖辭讓只	-11.3917
操築於傅巖兮	-11.3917
擥大薄之芳茝兮	-11.3917
昡	-11.3917
有莘國	-11.3917
汜容與而遐舉兮	-11.3917
添	-11.3917
猋逺舉兮雲中	-11.3917
畫天地山川神靈琦	-11.3917
臯蘭被徑	-11.3917
西北不周風自	-11.3917
詞賦之	-11.3917
譽配天萬民理只	-11.3917
邑犬之	-11.3917
魂乎歸徠恣志慮只	-11.3917
闊	-11.3918
無以異於衆芳	-11.3918
選署衆神以並轂	-11.3918
不勝心伐帝夫誰使挑之	-11.3918
信用䜛	-11.3918
儔匹言	-11.3918
古未有	-11.3918
天命反側何罰何佑	-11.3918
彼王紂之躬孰使亂惑	-11.3918
擊紂躬叔旦不嘉	-11.3918
而陸離	-11.3918
自容入	-11.3918
茹柔耎也	-11.3918
蒼鳥羣飛孰使萃之	-11.3918
香荆湘嶺南人家多種之此與蘭草大	-11.3918
䰟一作魂	-11.3918
也騷愁也經徑也言	-11.3918
借光景以往來兮	-11.3918
八維以自	-11.3918
其子襄王復用讒言遷屈原於江南	-11.3918
刪丹	-11.3918
北地則化而	-11.3918
又衆兆之所咍	-11.3918
吾將上下而求索	-11.3918
吾屈原自謂	-11.3918
哀民生之	-11.3918
國家為只	-11.3918
太公不遇文王	-11.3918
庶類以成兮	-11.3918
後嗣而逢長	-11.3918
後飛廉使奔屬	-11.3918
憂心煩亂不知所愬乃作離騷經離	-11.3918
打	-11.3918
接輿髠首兮桑扈臝行	-11.3918
昭質既設	-11.3918
朝發軔於蒼梧兮	-11.3918
浞娶純狐眩妻爰謀	-11.3918
炙鴰烝鳬	-11.3918
秋蘭兮麋蕪	-11.3918
羌中道而囘畔	-11.3918
聊抑志而自弭	-11.3918
蔽晦君之聰明兮	-11.3918
虛惑誤又以欺	-11.3918
行不羣以	-11.3918
製	-11.3918
跳而逺去	-11.3918
酎飲盡歡樂先故些	-11.3918
魂兮歸徠恣所擇只	-11.3918
惟何戒之	-11.3919
不歰嗌只	-11.3919
薋蒺藜	-11.3919
徐弭節而髙厲	-11.3919
發政獻行	-11.3919
馮翼惟像	-11.3919
何卒官湯尊食宗緒	-11.3919
其九以立義焉	-11.3919
叚	-11.3919
欲變節以從俗兮	-11.3919
比干何逆而抑沈之	-11.3919
渝	-11.3919
環理天下夫何索求	-11.3919
紛鴻溶而上	-11.3919
膽	-11.3919
閔竒思之不通兮	-11.3919
何所冬暖何所夏寒	-11.3919
併	-11.3919
借光景以徃	-11.3919
前飛廉以	-11.3919
固其宜也	-11.3919
國將危亡乃	-11.3919
將去君而髙翔	-11.3919
居上枝	-11.3919
恢台之孟夏兮	-11.3919
愁鬱鬱之無快兮	-11.3919
戯	-11.3919
斲冰兮積雪	-11.3919
於兩楹兮	-11.3919
時繽紛其變易兮	-11.3919
曖曃其曭莽兮	-11.3919
曰舜葬	-11.3919
曽歔欷余鬱邑兮	-11.3919
服艾以盈要兮	-11.3919
爾何懷乎故宇	-11.3919
相失國依於二斟	-11.3919
羣吠兮吠所怪也	-11.3919
羲和之未揚若華何光	-11.3919
芳椒兮成堂	-11.3919
裸	-11.3919
長太息以掩涕兮哀民生之多艱	-11.3919
鴻鵠代遊曼鷫鷞只	-11.3919
𣢾	-11.3919
甯	-11.3919
姒	-11.3919
眐	-11.392
世孰可	-11.392
思君兮陫側	-11.392
瓊玉之	-11.392
上述唐虞三后之制下序桀紂羿澆之敗	-11.392
亦余心之所善兮雖九死其猶未悔	-11.392
何環穿自閭社丘陵爰出子文	-11.392
僉曰何憂何不課而行之	-11.392
入景響之無應兮	-11.392
具往切	-11.392
又何懷乎故都	-11.392
叛陸離其上下兮	-11.392
國無人莫我知兮	-11.392
忠不必用兮賢不必	-11.392
忽奔走以先後兮及前王之踵武	-11.392
懷琬琰之華英	-11.392
故作九辯以述其志至於漢興劉向王	-11.392
數列人形之要而作九歌九章之頌以諷	-11.392
有毛不光潤方莖紫節七月八	-11.392
朝馳余馬兮江臯	-11.392
沒身而	-11.392
流亡兮	-11.392
浹	-11.392
潄	-11.392
玉色頩以脕	-11.392
皇剡剡其揚靈兮	-11.392
皤	-11.392
簡狄在臺嚳何宜	-11.392
聞省想而不可得	-11.392
脣	-11.392
菉王芻也	-11.392
補曰九章云	-11.392
詭	-11.392
隣	-11.392
雷開何順	-11.392
飲余馬於咸池兮	-11.392
虧	-11.3921
貴蘭之意	-11.3921
不復還	-11.3921
九天之際安放安屬	-11.3921
余萎約而悲愁	-11.3921
勲闔夢生少離散亡	-11.3921
受賜兹醢西伯上告	-11.3921
君覺悟反於正道而還	-11.3921
周幽誰誅焉得夫	-11.3921
忠貞之性而被讒邪傷君闇蔽	-11.3921
應劭曰	-11.3921
澂	-11.3921
無合夫焉取九子	-11.3921
築室兮水中葺之兮荷	-11.3921
而能盡究其所以情狀者歟	-11.3921
與俱歸拘留不遣卒客死於秦	-11.3921
處雌蜺之標顛	-11.3921
造旬始而觀清都	-11.3921
遂去不復與言	-11.3921
隅隈多有誰知其數	-11.3921
何后益作革而禹播降	-11.3921
君含怒而待臣兮	-11.3921
淵自沈而死	-11.3921
章援天引聖以自證明終不見省不忍以	-11.3921
岑	-11.3921
晧	-11.3922
兮盈堂	-11.3922
乘赤豹兮從文狸	-11.3922
髙四五尺	-11.3922
風颯颯兮木蕭蕭	-11.3922
飲石泉兮䕃松栢	-11.3922
愈一作俞	-11.3922
栗之屬	-11.3922
何親就上帝罰殷之命以不救	-11.3922
居戚戚而不可解	-11.3922
放子出而不還	-11.3922
日月安屬列星安陳	-11.3922
時不可以淹	-11.3922
神要眇以淫放	-11.3922
蕪乃二物也本草蘼蕪一名江離江	-11.3922
蘭茝之芬芳	-11.3922
譌	-11.3922
貼	-11.3922
載雲旗之逶蛇	-11.3922
離非蘼蕪也猶杜	-11.3922
以自清乎	-11.3922
何所營禹何所成	-11.3922
君將何以教之	-11.3922
孔雀盈園畜鸞皇只	-11.3922
日安不到燭龍何照	-11.3922
苙	-11.3922
講	-11.3922
願借神光	-11.3922
􁬭	-11.3922
雰	-11.3922
初湯臣摯	-11.3923
心飛揚兮浩蕩	-11.3923
虎豹蜿只	-11.3923
乘白黿兮逐文魚	-11.3923
靈何為兮水中	-11.3923
藐蔓蔓之不可量兮	-11.3923
㑹稽山名也	-11.3923
張景陽	-11.3923
無所歸附	-11.3923
索所革切	-11.3923
鬱彌路只	-11.3923
㐮	-11.3923
伯強何處	-11.3923
天不足西北左	-11.3923
孰期去斯得兩男子	-11.3923
授殷天下其位安施	-11.3923
曰勉逺逝而無	-11.3923
殄	-11.3923
殷有惑婦何所譏	-11.3923
獲迄古南嶽是止	-11.3923
稷維元子帝何竺之	-11.3923
穆眇眇之無垠兮	-11.3923
章者著	-11.3923
筋	-11.3923
筳	-11.3923
其字从	-11.3923
卒不見納委命自沈楚人惜而哀之	-11.3923
壤	-11.3923
夫人自有兮美子	-11.3923
復作九	-11.3923
故善鳥香草以配忠貞惡禽臭	-11.3923
氛埃辟而清涼	-11.3923
蘭芷變而不芳兮荃蕙化而為茅	-11.3923
畝而生也	-11.3924
室家盈廷	-11.3924
逴絶垠乎寒門	-11.3924
天時墜兮威靈怒	-11.3924
一名氷臺	-11.3924
廣大不可	-11.3924
日忽忽其將暮	-11.3924
筦	-11.3924
繚轉兮	-11.3924
九章者屈原之所作也屈原	-11.3924
何乞彼小臣而吉妃是得	-11.3924
何試上自予忠名彌彰	-11.3924
何闔而晦何開而明	-11.3924
失於專任	-11.3924
夷吾忠而名	-11.3924
孤子唫而抆淚兮	-11.3924
氣繚轉而自締	-11.3924
滓	-11.3924
無已時也	-11.3924
盗	-11.3924
其花最早南	-11.3924
名聲若日照四海只	-11.3924
嘐	-11.3924
四方之門其誰從焉	-11.3924
沃之土生蘼	-11.3924
濆	-11.3924
睎	-11.3924
自恣荆楚安以定只	-11.3924
詳補曰詳	-11.3924
辛夷香草以作	-11.3924
離騷之文依詩取興引類譬	-11.3924
蓉	-11.3924
董	-11.3925
噬	-11.3925
辛夷楣兮葯房	-11.3925
既含睇兮又宜笑	-11.3925
山中人兮芳杜若	-11.3925
扶桑日之陽駕	-11.3925
姱脩滂浩	-11.3925
胡終弊于有扈	-11.3925
三百里	-11.3925
何親揆發足	-11.3925
忠何罪以遇罰兮	-11.3925
華而香有餘者	-11.3925
似水薺張勃云江離出海水中	-11.3925
八柱何當東南何虧	-11.3925
揚聲后何喜	-11.3925
正青似亂髪郭恭義云	-11.3925
竊獨悲此廩秋	-11.3925
陳直徑	-11.3925
代益作后卒然離蠥	-11.3925
以徑度	-11.3925
凥	-11.3925
厎	-11.3925
師何以尚之	-11.3925
平脅曼膚何以肥之	-11.3925
思君念國憂	-11.3925
榱	-11.3925
罔極故復作九章	-11.3925
設張辟以娛君兮	-11.3925
本草白芷一名	-11.3925
榝似茱茰而小	-11.3926
彘	-11.3926
栽	-11.3926
被石蘭兮帶杜衡	-11.3926
采三秀兮於山間	-11.3926
曲眉規只	-11.3926
顇	-11.3926
亦非余心之所志	-11.3926
冩	-11.3926
北極之山曰寒門	-11.3926
證此言之不可聊	-11.3926
朽	-11.3926
爍	-11.3926
色極似石上	-11.3926
九者陽之數道之綱紀也	-11.3926
僭	-11.3926
厥利惟何逢彼白雉	-11.3926
折中兮	-11.3926
曰兩美其必合兮孰信脩而慕之	-11.3926
楚大夫宋玉之所作也辯者變也謂敶道	-11.3926
茭	-11.3926
角宿未旦曜靈安	-11.3926
邪徑急	-11.3926
魂魄歸徠無逺遥只	-11.3926
云彼采蕭兮彼采艾兮是也淮南	-11.3927
詩人采蕭蕭即艾也蕭自是香蒿古祭祀	-11.3927
陸璣草木疏云	-11.3927
斛	-11.3927
也論語曰	-11.3927
環	-11.3927
君思我兮然疑作	-11.3927
味豺羹只	-11.3927
清馨凍	-11.3927
蘭蕙叢出蒔以沙	-11.3927
試	-11.3927
首身離兮心不懲	-11.3927
悟過改更我又何言	-11.3927
不但還來	-11.3927
何繁鳥萃棘負子肆情	-11.3927
命靈氛為余占之	-11.3927
欲度世以忘歸兮	-11.3927
豈唯是其有女	-11.3927
閔妃匹合厥身是繼	-11.3927
闔而晦	-11.3927
駢	-11.3927
紫芝與蕭艾俱死蕭艾賤草以喻不肖	-11.3927
羌聲色兮娛人	-11.3927
侈	-11.3928
飲菌若之朝露兮	-11.3928
伇	-11.3928
出不入兮往不反	-11.3928
憐思心之不可懲兮	-11.3928
朱脣皓齒	-11.3928
蠵	-11.3928
雒	-11.3928
伏匿穴處爰何云	-11.3928
等謹案	-11.3928
亦失其志也	-11.3928
劘	-11.3928
斑漫衍而方行	-11.3928
祥	-11.3928
窠	-11.3928
開而明	-11.3928
逈	-11.3928
武發殺殷	-11.3928
荆勲作師夫何長	-11.3928
薜荔兮帶女羅	-11.3928
君思我兮不得閒	-11.3928
晋	-11.3928
杳冥冥兮羌晝晦	-11.3928
汪	-11.3928
乙	-11.3928
墀	-11.3929
夜光何德	-11.3929
挾秦弓	-11.3929
而顧菟在腹	-11.3929
身既死兮神以靈	-11.3929
不任汩鴻	-11.3929
先出其命何從	-11.3929
南交阯只	-11.3929
淒淒兮	-11.3929
眩弟並淫	-11.3929
綦	-11.3929
蹄	-11.3929
順風波以	-11.3929
棲宿也	-11.3929
溶溶廣大	-11.3929
長爪踞牙	-11.3929
恣所嘗只	-11.3929
該秉季德	-11.3929
月恭校上	-11.3929
車既駕兮朅而歸	-11.3929
逰戲也	-11.3929
物有純而不可為	-11.3929
皇天平分四時兮	-11.3929
何往營班禄不但還來	-11.3929
所以假延日月	-11.3929
段	-11.3929
十三年	-11.393
不可量兮	-11.393
流澌紛兮將來下	-11.393
漭洋洋只	-11.393
與女遊兮河之渚	-11.393
被髮鬤只	-11.393
於君不能	-11.393
穆王巧梅	-11.393
僅	-11.393
欲從靈	-11.393
魂宜來歸	-11.393
凱	-11.3931
其天性	-11.3931
誒笑狂只	-11.3931
雷開阿順	-11.3931
任昉述異記云木蘭	-11.3931
莞芎棄	-11.3931
忼慨絶兮不得	-11.3931
魂乎歸徠定空桑只	-11.3931
云芸蒿	-11.3931
得彼小子夫何惡之媵有莘之婦	-11.3931
相類但	-11.3931
解釋也	-11.3931
梏	-11.3932
何聖人之一德	-11.3932
箕子詳狂	-11.3932
皆喻本也	-11.3932
二序舊在	-11.3932
蔚	-11.3932
昀	-11.3932
反成乃亡其罪伊何	-11.3932
爭遣伐器何以行之	-11.3932
箕子佯狂	-11.3932
風土記	-11.3932
馬蘭踸踔而日加	-11.3932
蘠	-11.3933
矛	-11.3933
木叢生曰	-11.3933
竹田曰篁西都賦云篠	-11.3933
篁竹之中	-11.3933
篁竹墟名	-11.3933
簜敷衍編町成篁	-11.3933
名蘭槐根名芷	-11.3933
屯余車兮	-11.3933
一年之三秀近時王令	-11.3933
娥眉曼只	-11.3933
逞志究欲	-11.3933
呌	-11.3933
菀蘼蕪與菌若	-11.3933
陸費墀欽定四庫全書	-11.3933
芝賦序云離騷九歌自詩人所紀之外地	-11.3934
山在崑崙	-11.3934
所行幾里	-11.3934
花似菊而紫	-11.3934
凛	-11.3934
盼	-11.3935
西京雜記	-11.3935
萆茘	-11.3935
水兮潺湲	-11.3935
欝	-11.3935
索藑茅以筳篿	-11.3935
代水不可渉深不可測只	-11.3935
有二種	-11.3935
戒六神與嚮服	-11.3936
情與貌其不變	-11.3936
榮而不實者謂之英	-11.3936
楚詞以惡草喻惡人	-11.3936
其吉凶	-11.3936
沃	-11.3937
漱	-11.3937
藟	-11.3937
歸何憂	-11.3937
命咎繇使聽直	-11.3937
杳冥冥兮以東行	-11.3937
皆在所用	-11.3937
乾隆四十六年	-11.3937
于咸池拂于扶桑	-11.3937
境	-11.3937
時俗兮	-11.3937
無傾危之	-11.3937
􁁉	-11.3937
孰知其	-11.3938
凍	-11.3938
猪	-11.3938
令五帝以㭊中兮	-11.3938
所作忠而言之兮	-11.3939
發憤以杼情	-11.3939
者楚人名曰宿莽	-11.3939
鈕樞	-11.3939
峽	-11.3939
陶隠居云今出	-11.3939
織	-11.3941
祛	-11.3941
冬生草	-11.3941
赤莖節好生道	-11.3941
魯	-11.3941
下有子字	-11.3941
嗟嗟兮	-11.3941
束縛	-11.3941
叩鍾調磬	-11.3941
授	-11.3941
大荒之	-11.3942
殊能將之	-11.3942
二八接舞	-11.3942
淡	-11.3942
乎無北北有寒山逴龍赩只	-11.3942
是謂晨明登于扶桑爰始	-11.3942
疾脩盈	-11.3943
脩逺其	-11.3943
讒諂是服	-11.3943
榣	-11.3943
而厥身不危敗	-11.3944
竭忠誠以事君兮	-11.3944
其衍幾何	-11.3945
俾山川以備御兮	-11.3945
顔師古急就章註	-11.3945
。2.1	-11.3945
宋呉仁傑撰	-11.3945
魂兮歸徠	-11.3945
彦	-11.3945
崑崙縣圃	-11.3946
何肆犬體	-11.3946
兮蕙綢	-11.3946
鹿何膺之	-11.3947
何所億焉	-11.3947
益作革	-11.3947
其脩孰多	-11.3947
白芷一名芳香	-11.3947
杜若一名杜蘅	-11.3947
欽岑	-11.3947
薄如竹	-11.3947
何以窴之	-11.3948
洪泉極深	-11.3948
其凥安在	-11.3948
焉有虬龍	-11.3949
父何以鱞	-11.3949
巑	-11.3949
菌閣兮蕙樓	-11.3949
鴛	-11.395
仇牧荀息	-11.395
􁓊	-11.3951
余惆悵兮	-11.3951
枸	-11.3951
知誰所	-11.3951
以興讒	-11.3952
洌	-11.3952
控	-11.3952
一蛇吞象	-11.3953
厥大何如	-11.3953
嘉祐圖經云春生	-11.3953
有女如	-11.3953
翮	-11.3953
鈴	-11.3953
喻佞人	-11.3953
燦	-11.3953
河海應龍	-11.3953
而交吞揆之	-11.3953
爾雅莞苻蘺	-11.3955
女歧縫裳	-11.3955
思𤣥賦	-11.3955
暖	-11.3956
而館同爰止	-11.3956
鵙	-11.3956
補曰識音	-11.3956
荔	-11.3958
蓀獨宜兮為民正	-11.3958
覆舟斟尋	-11.3959
嚶	-11.396
而后帝不若	-11.396
時一作旹	-11.396
何獻蒸肉之膏	-11.3961
濤	-11.3962
絭	-11.3962
豈惟紉夫蕙茝	-11.3962
壮	-11.3963
幣	-11.3963
言賢無	-11.3963
崯	-11.3964
言已懐徳	-11.3964
抱朴子云	-11.3964
降省下土四方	-11.3965
云耿耿不	-11.3965
杓	-11.3966
齊謂之茝	-11.3966
骫	-11.3968
禹之力獻功	-11.397
不見進用也	-11.397
嚶嚶	-11.397
踼	-11.397
騐	-11.3972
苜	-11.3974
唐本註引	-11.3974
八字一	-11.3976
爇	-11.3976
鷄鶩滿堂壇兮	-11.3977
菽藟	-11.398
菵	-11.3984
蘭之九畹又樹蕙之百畝招	-11.3988
􁁜	-11.399
䓗	-11.3995
榎	-11.3995
蕠	-11.3995
堇荼如飴	-11.4
糳	-11.4027
咶	-11.4028
殟	-11.403
胡維嗜不同味	-11.4034
曰閒音	-11.4037
䭇	-11.404
其一角正東名曰崑崙	-11.4149
故作九	-11.4394
兮歸來君無下此幽都些	-11.4434
老冉冉而	-11.4641
傺之煩惑兮	-11.4844
爰止其女爰息其馬是謂懸車	-11.4935
言往古	-11.5556
解於九辯	-11.5573
北斗杓	-11.6114
鼎於江淮	-11.6428
黃雜糅	-11.6443
補曰許慎云	-11.6505
黄雜糅	-11.6956
反故居些	-11.7036
要乗弋等也	-11.7192
冝急徠	-11.7289
也羣一作群	-11.7326
離謗而見	-11.7391
死之草北方有不釋	-11.7431
易曰日中見	-11.7444
汜音泛	-11.8411
髙而難當	-11.8418
欷虚毅切	-11.8427
乘清氣兮御	-11.8442
泠泠而	-11.8483
眄	-11.8525
憚舉趾而緣木	-11.853
汝何博謇而好	-11.8577
行於杳冥	-11.8612
苗髙二三尺葉	-11.8686
糳申椒以	-11.8697
故之親身兮因縞素而哭之	-11.87
雲以汎濫游兮	-11.8752
悲霜雪之俱下兮	-11.878
滋蘭之九畹	-11.8801
以飲役賤之人即	-11.8811
編愁苦以	-11.8823
葉作劒脊	-11.8832
棼	-11.8838
文選民作人	-11.8839
方湖澤皆有之	-11.8841
腥	-11.8844
蒜葷菜	-11.8844
并謝與長友兮	-11.8846
音煩淮南子云路無莎薠	-11.8846
天氣𤣥黄故曰黄	-11.8851
白蘋兮騁望	-11.8857
頴	-11.8857
絟	-11.8857
夫河伯而妻彼雒嬪	-11.8858
其常也獨當憂秦吳	-11.8858
耳一作蠭蟻補曰	-11.8858
儛	-11.886
毒不以外	-11.886
毒之蟲受天命負力	-11.886
音若痛也天對	-11.886
殺也古今字	-11.8862
焉枳首歧	-11.8862
虺字天對云螝齧	-11.8862
頭蛇也韓非子曰虫有螝者一身兩口爭	-11.8862
食相齕遂相	-11.8862
上竹交下陟	-11.8863
牧注同一作枚補曰爾雅曰中有枳首蛇	-11.8863
袛	-11.8863
洪慶善	-11.8864
之意也補曰青色	-11.8865
也言美女頰有靨輔口有竒牙嘕然而	-11.8865
以喻夷狄相與忿爭君上何故當怒之乎	-11.8865
嚙	-11.8865
有美女體色	-11.8865
牧唐本	-11.8865
謂眉也媔音綿美目	-11.8865
顔眉平直美目竊眄媔然黠慧	-11.8865
青薠似莎	-11.8866
也補曰莊子曰彭祖得之上及有	-11.8866
以荷葉為衣	-11.8866
啁哳聲繁細	-11.8866
笑尤媚好也	-11.8866
虞下及五伯又曰	-11.8866
憂懼也補曰鵾鷄似鶴	-11.8868
並俱補曰此言聖賢有不	-11.8868
可俱並事君	-11.8868
同扶羽切頰車也左	-11.8868
必相剋害故	-11.8868
忠佞之臣不	-11.8868
曰豈知其何故一本此與	-11.8868
有歧首之蛇爭共食牧草之實	-11.8868
湯禹乆	-11.8868
生者故重華不可	-11.8868
輔一作䩉補曰靨於牒切䩉與輔	-11.8868
吟澤畔	-11.8868
壑	-11.8869
陽羡山中	-11.8869
下是其宵征征行	-11.8869
或曰宵征	-11.8869
有蟬燕之	-11.8869
無有候鴈鵾鷄之喜樂而	-11.8869
蟋蟀入我牀	-11.8869
謂七月在野八月在	-11.8869
内結藏也	-11.8869
半日進	-11.8869
后君也言中央之州	-11.8869
吹呴呼吸吐故納新熊經鳥伸	-11.8869
恨枕髙而唾逺	-11.8869
死日将至	-11.8869
的的中	-11.8869
老淹留草澤無	-11.8869
考無成功也五臣云蹇	-11.8869
自暮而誰饗以俾	-11.8869
蔤	-11.8869
蕖	-11.8869
薸	-11.8869
見過愁懼惶也戚一作慼文	-11.8869
言彭祖進雉	-11.8869
選作蹙	-11.8869
酒今昔言可	-11.8869
之夜行自傷	-11.8871
便猶安也言所選美女五人儀	-11.8871
喜樂而逸豫言	-11.8871
放弃與昆蟲	-11.8871
􁉊	-11.8871
􁥠	-11.8871
之士養形之人彭祖	-11.8871
常念弗解	-11.8871
彷徉無所倚廣大無所極些	-11.8871
於知人然去乆	-11.8871
曰繹抽絲也	-11.8871
考彭祖至八百	-11.8871
補曰戚慼蹙	-11.8871
澒鴻並乎	-11.8872
大川民俗異也介一作	-11.8873
界也曹子建詩云江介	-11.8873
界補曰薛君韓詩章句曰	-11.8873
南征濟沅	-11.8873
各異恣	-11.8873
列謀謨	-11.8873
天對云鏗羮	-11.8873
孤立特止居一方也五臣云	-11.8873
帝聖孰嗜味夫死	-11.8873
琢	-11.8873
窔	-11.8873
窮蹙處於空澤補曰	-11.8873
籛	-11.8873
籛名鏗帝顓頊之	-11.8873
考者之所好也	-11.8873
解也言思君之心常不	-11.8873
詳一作佯補曰詳	-11.8873
過中謂漸衰暮也	-11.8873
靨輔在頰前則	-11.8873
丹陽郡有陵陽	-11.8874
也詩云於我乎	-11.8874
人賦云反大	-11.8874
仙人陵陽子明所居也大	-11.8874
夏屋渠渠	-11.8874
孰誰也蕪逋也言郢城兩東門	-11.8874
屋楊子曰震風淩雨然後知夏屋之	-11.8874
帡	-11.8874
幪	-11.8874
彌望無棲	-11.8874
淼滉彌望無際極也渡一	-11.8874
騰馳道安極也陵一作淩補曰前漢	-11.8874
人面芬香流	-11.8874
其中廣大又以丹沙	-11.8874
其堂其形	-11.8874
所安以侍棲宿也	-11.8874
旋屈折拂拭	-11.8874
殿峻屋	-11.8874
清白皎然日明而	-11.8874
䩉	-11.8874
䩉頰邊文婦人之媚也又云	-11.8874
人重仁襲	-11.8874
君耳不聽若風過也蓀一	-11.8874
夏經殷至周年七百六十七	-11.8874
孫善養性能調鼎進雉	-11.8874
封於彭城	-11.8874
廧序之東	-11.8874
揺注云將笑故好齒	-11.8874
瑳	-11.8874
不止乃上遊	-11.8876
之庭被服雲氣而通神明	-11.8876
庭經云恍惚之間至清靈	-11.8876
焭焭獨立無朋黨也	-11.8876
荷芙蕖也裯袛裯也若	-11.8876
豪加丘加切王逸	-11.8876
貪亂者衆	-11.8876
鷩	-11.8876
㹤	-11.8876
一無夫字漫一	-11.8876
王多吉士漫汚也	-11.8876
荆棘多刺	-11.8876
非先王所作	-11.8876
五臣云俇攘	-11.8876
割切悲慘也憺談	-11.8876
小堂樓觀特	-11.8876
悲夷猶而兾進兮	-11.8876
梟鴞並進而俱鳴兮	-11.8876
樓也霤屋宇也言復有南房别室	-11.8876
櫞	-11.8876
肝膽剖破血凝滯也補曰	-11.8876
人明目能見百	-11.8876
其土爛人求水無所得些	-11.8876
墨之文居於幽冥之處則	-11.8876
孟子曰離婁	-11.8876
所不見微有所	-11.8876
朝暮之朝馮衍賦云甲子	-11.8876
氷峨峨飛雪千里些	-11.8876
無見曰矇	-11.8876
癡	-11.8876
眄盲人輕之以爲無明也言賢者遭	-11.8876
睇眄之也補曰淮南曰離朱之明	-11.8876
瞽盲者也詩云有瞽	-11.8876
矇瞍之徒以爲不明也言持	-11.8876
而太息涕下淫	-11.8876
能事帝堯堯美而饗食之補	-11.8876
記無瞍字補曰有眸	-11.8876
諸深切鏗可衡切饗有香音神仙傳云彭	-11.8876
謂眄曰睇	-11.8876
賢知之士居於山谷則	-11.8876
離婁明目無	-11.8876
臣云取其香㓗以合	-11.8877
解於九章也一云推自割	-11.8877
軀兮比干忠而剖心子推自割而飤君兮	-11.8877
卒遇譖讒而遽	-11.8877
敶鍾按	-11.8877
補曰靡美皮切飤	-11.8877
邪何可使逋廢而	-11.8877
音寺糧也	-11.8877
上觀望也霤音	-11.8877
之不長也弗一作不五臣	-11.8877
也傺住也楚	-11.8877
也補曰觀音貫釋名曰觀者於	-11.8877
也遒一作逝五臣	-11.8877
也集韻櫩與簷	-11.8877
云忽忽運行	-11.8877
兾壹反之何時	-11.8877
周閣也歩壛長砌也壛一作櫩補	-11.8877
擾謹之馬周旋	-11.8877
擾謹也言南堂之外復有	-11.8877
曰上林賦歩櫩周	-11.8877
曰霤屋水流也禮	-11.8877
曲屋周旋閣道歩壛	-11.8877
流李善云歩櫩長廊	-11.8877
與大殿宇絶逺	-11.8877
記中霤注云古者複穴是以名室	-11.8877
閻	-11.8877
鵾雞啁哳而悲鳴	-11.8877
世溷不吾知心不可謂兮	-11.8877
也好和滋味善斟雉	-11.8877
也船獨流	-11.8877
五榖不生藂	-11.8877
人蔽賢羣起而攻之舉	-11.8877
取義可也所	-11.8877
吾西征注云君子舉	-11.8877
告人說一云念不可謂兮史記	-11.8877
告語也類法也詩云永錫爾類	-11.8877
城之後十世秦	-11.8877
夏首夏水口	-11.8877
已將執忠死節故以此明白	-11.8877
巷小人親近左右也	-11.8877
忠伏節死義	-11.8877
怊字其一作之補曰前漢南	-11.8877
息自恨懷道不得	-11.8877
惜之也補曰屈子以爲知	-11.8877
愁思荒忽安	-11.8877
意自傷卒去而	-11.8877
時一無都字一	-11.8877
東廂以言賢者	-11.8877
楚都見其大道	-11.8877
死之不可讓則捨生而	-11.8877
者思古人而不得見伏節	-11.8877
自丹陽徙此後九世平王	-11.8877
藜一作䔧補曰	-11.8877
言小人相舉而論	-11.8877
言已始發郢去我閭里	-11.8877
言巳去乗船士卒齊	-11.8877
讓辭也言人知命將終可以建	-11.8877
賢者蔽而不見兮	-11.8877
郡江陵縣故楚郢都楚	-11.8877
郢徙東	-11.8877
郢閭里門	-11.8877
雖放逐不以窮困易其	-11.8877
願勿辭讓而自愛	-11.8877
魂往必釋些	-11.8877
􁀆	-11.8877
不舒我忠情	-11.8879
仆然猶竭	-11.8879
椒桂之人以被	-11.8879
盛欲漫汚人以自	-11.8879
者先祖之所	-11.8879
讒人相聚藹藹而	-11.8879
大虹能揚文采	-11.8879
矣晏晏	-11.8879
精當若彗星能耀光明舉當若鵕䴊	-11.8879
被文服纖	-11.8879
補曰被音披又如字裯音刀	-11.8879
飛能冲天也補曰	-11.8879
鵕䴊浚儀二音釋	-11.8879
上初兩下許昉切	-11.8879
不得志上口廣切下音朗又	-11.8879
也補曰愴怳失意	-11.8879
公曰乃作懷沙之賦	-11.8879
嘼一作獸補曰畜音嗅師古云嘼者人之	-11.8879
圈	-11.8879
強形弱則氣弱魂以氣強魄以形強淮南	-11.8879
所養獸是山	-11.8879
扇	-11.8879
文音奴又女家切	-11.8879
朽也糅一作楺	-11.8879
杉	-11.8879
笯一作郊補曰笯	-11.8879
笯籠落也徐廣曰	-11.8879
觀也畜一作	-11.8879
遂自投汨羅以死原	-11.8879
女於後車以侍棲宿也補曰大人賦	-11.8879
彼江南之道	-11.8879
志自有舊故執守	-11.8879
見憎惡也	-11.8879
迃	-11.8879
重傷於是歎	-11.8879
離婁古明目者	-11.8879
龍門楚東門也	-11.8879
也藝文類聚作	-11.888
五臣云怵惕	-11.888
君父及兄弟也	-11.888
思慮惕動沸若	-11.888
湯也盪一作蕩	-11.888
補曰怵音黜盪音蕩揺動	-11.888
震蕩自驚動也	-11.888
以其不立	-11.888
傳丹朱也	-11.888
坈	-11.888
展詩兮㑹舞	-11.888
朝輔政治而與麋鹿同坈鳥獸	-11.888
穽不復乆也補曰坈	-11.888
翾飛兮翠曽	-11.888
舜有卑父之謗	-11.888
言堯有不慈之過以其不	-11.888
黯鄔感切黮徒感切雲	-11.888
之至也魂附於氣氣又附	-11.888
也言思姦邪	-11.888
云載玉女而與之歸張揖	-11.888
作飄翻	-11.888
厦	-11.888
吸天元氣得其道	-11.888
志曰荆州尤	-11.888
意不得也五	-11.888
文辭尚在可求索也	-11.888
時耳目心識手足	-11.888
楫櫂低	-11.888
武注云角亢	-11.888
澤所育故爾雅	-11.888
登山入水周六合也漂一	-11.888
禧	-11.888
而一作之五臣云惟思也紛糅衆雜	-11.888
臣云愴怳懭悢皆悲傷	-11.888
謂猶說也言	-11.888
載玉女於後車	-11.888
運動啼呼	-11.888
之口望楚東門蔽而不見自傷日以逺	-11.8881
之旦而行紀時日清明者刺君不	-11.8881
也豫猶豫也言已雖見	-11.8881
以我爲法	-11.8881
先賢執忠被	-11.8881
國民衆多非明	-11.8881
多口妄鳴以喻讒佞言楚	-11.8881
害猶正身直行	-11.8881
徘徊以遊戲也一	-11.8881
從西浮而	-11.8881
旦也屈原放出郢	-11.8881
東行過夏水	-11.8881
狠	-11.8881
興賢臣難進	-11.8881
軑	-11.8881
遻	-11.8881
門心痛而思始去正	-11.8881
音忤與迕	-11.8881
芻	-11.8881
徂南土	-11.8882
茅山溪	-11.8882
秋菊之落英輔體延年莫斯之	-11.8882
善彌固手乃杖執美玉之華帶	-11.8882
曳彗星之	-11.8882
一作仰太一作	-11.8882
之作解又以自屈原終	-11.8882
居也言人君	-11.8882
懷王信用讒佞	-11.8882
政舉事必	-11.8882
晧一作皓補	-11.8882
曰晧下老切旰	-11.8882
曵引也晧旰光也彗一作篲	-11.8882
江别流出崏山東别	-11.8882
澔	-11.8882
結議連謀於明堂	-11.8882
背也言君始	-11.8882
雅多覽讀楚辭而傷愍屈原故	-11.8882
音汗相如云	-11.8882
作瓖補曰糺繩	-11.8882
勸我行當如蒼龍能屈能	-11.8882
朱爵鵕䴊皆神俊	-11.8882
甯戚謳於車下兮	-11.8882
神物自喻諸神	-11.8882
一作幡一作潘補	-11.8882
七宿曰鶉	-11.8882
下一作流補	-11.8882
中皆曰射	-11.8882
之焉至補曰委音逶焉於	-11.8882
乗太一神象之轝而遊戲也補曰淮南云	-11.8882
也然天文家朱鳥乃取象於鶉南方	-11.8882
也論語曰譬如北辰	-11.8882
也軋一作乹注云乹	-11.8882
五白簙齒也言	-11.8882
亝	-11.8882
何物但謂	-11.8882
作嘼後乃借畜	-11.8882
其俱切廣韻	-11.8882
其字從臤作擥	-11.8882
切大釡也一曰	-11.8882
十日代出	-11.8882
即朱雀神鳥	-11.8882
厯兹情	-11.8882
同補曰躣躣行	-11.8882
君若紂夫差不	-11.8882
嗈鳴鴈鴈隂起則	-11.8882
在釋獸	-11.8882
奏工章明也	-11.8882
如水洋洋雖欲軋絶之而無由也沕濳	-11.8882
射食亦切	-11.8882
將重亂以	-11.8882
居其所而衆星拱之言遂	-11.8882
左朱雀之拔拔補曰集韻	-11.8882
巫鬼重淫祀隋	-11.8882
庚之星以繼	-11.8882
後魄識少而魂識多人之生也魄盛魂強	-11.8882
思待清宴自解	-11.8882
悵恨也惝昌兩切怳詡往切驚	-11.8882
整理車駕而鼓嚴也補曰	-11.8882
文云嘼㹌也六	-11.8882
於前魂在於	-11.8882
斾	-11.8882
曰凄寒凉	-11.8882
曰擥力敢切持也掔	-11.8882
曰漂浮	-11.8882
朱鳥斗牛	-11.8882
武沈存中云朱雀莫知	-11.8882
炊土釡於堂宇之上猶言	-11.8882
爰於也喟息也言	-11.8882
牛馬羊豕即在釋畜論	-11.8882
物而不慴是也釋文遌五各切心不欲見	-11.8882
猶結玉枝申脩忠誠立長	-11.8882
獨永歎乎	-11.8882
用忠信滅國亡	-11.8882
畜之字本	-11.8882
白虎前朱鳥後	-11.8882
矇盲者也詩云矇瞍	-11.8882
立功則其	-11.8882
笯	-11.8882
粲	-11.8882
精明雖消滅	-11.8882
綴係也北辰北極星	-11.8882
義不可長保而行	-11.8882
而朱者羽族赤而翔上集必附木此火之	-11.8882
聲此則魄之靈也附氣	-11.8882
背水嚮	-11.8882
蘋蘩蕰藻之菜	-11.8882
蟬遇秋寒將入水穴處而	-11.8882
衆雜將或	-11.8882
言已放流轉	-11.8882
言欲軋沕已心仿佯	-11.8882
言衆人雖不知	-11.8882
言賢人君子其心所	-11.8882
託載日月之光耀也楚	-11.8882
謹善也豐大也	-11.8882
象也或云	-11.8882
貞良故曰帝告巫	-11.8882
責其非職語	-11.8882
道無從至	-11.8882
重祠祀屈原制九歌	-11.8882
附形之靈	-11.8882
陽氣也氣之神者曰魂	-11.8882
魂附形之靈者謂初生之	-11.8882
魂魄神靈之名本從形氣而有	-11.8882
魄曰鬼合鬼與神	-11.8882
魄附氣	-11.8882
魯班則不能别	-11.8882
麋鹿虎豹即	-11.8882
鼎大上小	-11.8882
龍參伐	-11.8882
宿不能臥寐乃至	-11.8884
倚依也言欲彷徉東西	-11.8884
塗不忍乆見貪濁	-11.8884
思委命於江流沈	-11.8884
摶也摶一作	-11.8884
槫補曰摶	-11.8884
湯湯洪水方割	-11.8884
相視也息亮	-11.8884
臣莫若君	-11.8884
興讒賊危害賢人	-11.8884
裯短衣方	-11.8884
飛翩翻也	-11.8884
驂駕素虹而東西也言	-11.8884
上攀北極	-11.8884
下國遇太子曰夷吾無禮余得請於	-11.8884
不莽莽盛茂自傷不	-11.8884
之山而望目	-11.8884
之星且中休息	-11.8884
也五臣云揳撫也以梓	-11.8884
也杳杳深冥	-11.8884
也補曰怊音超	-11.8884
云北極五星天運無窮三光迭耀而極	-11.8884
人所惡志不猶	-11.8884
以延年也五臣云精	-11.8884
以相娛樂堂下復鳴大	-11.8884
何能壯大	-11.8884
作㠯補曰晉志	-11.8884
作塊鞠兮補	-11.8884
作簙棊箸比集犀角	-11.8884
信以事於君雖	-11.8884
兄謂秦伯	-11.8884
入其羅囿出升縣	-11.8884
公子當復誰畏懼	-11.8884
則來無德則去	-11.8884
厲其勇武流其	-11.8884
及其死也	-11.8884
吸清和之氣以充空虚療飢渴也以一	-11.8884
周流行求道	-11.8884
壯大也言闔廬少	-11.8884
威嚴也補曰闔	-11.8884
字左傳云狐突適	-11.8884
小散亡	-11.8884
巳梟當成牟勝射張食棊下	-11.8884
帝矣又曰帝許	-11.8884
廬用伍	-11.8884
心愁思也升一作陞縣一作懸補曰縣音	-11.8884
心補曰釋文軋於八切此	-11.8884
忠直而遇患害	-11.8884
思蹇産之不釋兮	-11.8884
性識漸有所知此則附氣之神也魄在	-11.8884
我罰有罪矣敝於韓此	-11.8884
所以多憂者以君信	-11.8884
揳	-11.8884
揺動其格補曰	-11.8884
故呼五白以助投也兆於屈一作逃於窟	-11.8884
方我欲輔成其	-11.8884
星不移故曰居	-11.8884
昲	-11.8884
朱欲切連也	-11.8884
欲輔助之	-11.8884
氣滅聖人	-11.8884
珍瑋道士夀無窮極	-11.8884
生以事死改生之魂曰神	-11.8884
皜然如日光也	-11.8884
盤結遇四海之	-11.8884
神明則駕蒼龍驂白虎其狀蚴虬	-11.8884
糺	-11.8884
經云龍門即郢城之東門又伍端休江陵	-11.8884
臣云虡懸	-11.8884
草澤也下節按節	-11.8884
落補曰糅女救切蓬蒲孔	-11.8884
蒙君惠而獨放弃	-11.8884
蒼龍蚴虬於左驂兮白虎騁而	-11.8884
補曰墬即地	-11.8884
覆而勇益	-11.8884
見於此賦	-11.8884
言材木委積非	-11.8884
言聖人困厄	-11.8884
豫顧君心不可保知易	-11.8884
賢人則屈原也宋玉上設天意祐助	-11.8884
遂徑去障	-11.8884
遌史記作悟補曰	-11.8884
釋文作芺於表切一作茷音蒲艾	-11.8884
銵簴一作虡五	-11.8884
鏗撞也揺動	-11.8884
鏗銵並苦耕	-11.8884
陽有賢人屈原在於下	-11.8884
陽用事煦成萬物草木之類莫	-11.8884
雕飾投之	-11.8884
雖欲長驅無所及也一作馳逶	-11.8884
青虬負轂而扶轅也躣釋文作躩	-11.8884
願自沈於江流兮	-11.8884
騖杳冥之中脩善不倦休息崑崙	-11.8884
菹一作葅	-11.8885
几	-11.8885
旌雜五色以	-11.8885
明月之珠揚赤霓以	-11.8885
純粹而罔愆	-11.8885
纁一作昏注云	-11.8885
九思章句第十七楚	-11.8885
大也逶虵長	-11.8885
椒桂羅㠯	-11.8885
位之臣營	-11.8885
使之稽留因	-11.8885
則已危也補曰誼與	-11.8885
及於身也夫君安則已安君危	-11.8885
善惡所證	-11.8885
執忠信仁義者誠欲先安君	-11.8885
怨世賢士窮而	-11.8885
應對察言觀行則知其	-11.8885
折若木以蔽日	-11.8885
沱也沱釋文作沲補曰沱唐何	-11.8885
潢洋猶浩蕩不著人	-11.8885
濿杭一作航以一作	-11.8885
父然後乃	-11.8885
獨先君後身其義相反故	-11.8885
瓖	-11.8885
矣其内自有	-11.8885
結胷者言動以	-11.8885
編結也膺胷也	-11.8885
羌然辭也	-11.8885
而濿一作厲一注云	-11.8885
裯爾雅晏晏柔	-11.8885
驗之迹近取諸身	-11.8885
䰟冝來歸	-11.8885
一云言西方之土廣大遥逺無所臻極雖	-11.8885
主上則無所考校已之盛	-11.8885
乾五臣云后土地也補	-11.8885
云樓上博者射明瓊張中	-11.8885
作方補曰婞下頂切東坡曰	-11.8885
依保也一	-11.8885
傾移也一本此句與	-11.8885
兆衆也百	-11.8885
南曰善博者不欲牟不恐不勝注云博	-11.8885
咎也古本仰作卬五臣云衆人皆	-11.8885
嗟爾幼志	-11.8885
天對云光徴夢祖憾	-11.8885
天年應劭云精細也瓊玉之華也周禮有	-11.8885
將以延夫	-11.8885
山阜濡澤草木茂也而一作兮	-11.8885
巫陽巫几巫	-11.8885
帝少女追之亦	-11.8885
得仙俱去張良欲從赤松子	-11.8885
怨曰讎言	-11.8885
攀北極而一息兮吸沆瀣以充	-11.8885
明智之獸象玉之車文章	-11.8885
曰惸渠榮	-11.8885
橫而不流兮	-11.8885
涌湍危阻也以	-11.8885
濕心愁身苦憂悲且思也遇一	-11.8885
無民可依其野廣大行	-11.8885
牙也言我駕飛龍	-11.8885
物有純而不可爲	-11.8885
猶依神山而止	-11.8885
玄玉梁些	-11.8885
王齊當食玉屑	-11.8885
百鬼勿令害賢者也鬼谷一	-11.8885
移而行反觸石碕	-11.8885
立天帝及巫陽以	-11.8885
糜文選音靡反離騷云精瓊靡與秋菊芳	-11.8885
者曰凡戲	-11.8885
蘇世獨立	-11.8885
言晉國工	-11.8885
身孤特也	-11.8885
辭端補曰山海經云開明東	-11.8885
追逐奔軼之	-11.8885
遡一作泝一云	-11.8885
重歎心辛	-11.8885
電以至於天使北辰係綴	-11.8885
食玉注云玉	-11.8885
􁅊	-11.8885
一作掔音啓妍切五臣	-11.8885
三門其一名龍	-11.8885
之釡鬵言乃藏	-11.8885
也史記作窈窈補	-11.8885
也詩云泣涕漣漣言	-11.8885
云望孟夏之短夜	-11.8885
云豈不至今其庸	-11.8885
侍君之間些	-11.8885
僞其性不同也一云	-11.8885
公姬毒而獻之泣曰賊由太子太	-11.8885
升縣圃	-11.8885
城十二月戊申縊	-11.8885
執爨踖踖鬵	-11.8885
女以驪姬歸生奚齊驪姬嬖欲立其子使	-11.8885
子奔新	-11.8885
安歩徐行而勿驅也擥	-11.8885
忠信不美如毒藥也一	-11.8885
忳徒渾切惽音昬	-11.8885
新城國語云雉經	-11.8885
春草始生囿中平易	-11.8885
智近愚頑者也補曰	-11.8885
有異藝之文采也史記余作	-11.8885
此擥轡按節徐行游	-11.8885
民生有命	-11.8885
沃姬謂太子曰君夢齊姜必速祭之太子	-11.8885
瞻仰髙景	-11.8885
知禹湯不可	-11.8885
者秋夜方長而夏夜最短憂	-11.8885
遭夜之方長此	-11.8885
隂盡極也補曰上云曼	-11.8885
小存其形	-11.8887
居於陵陸之地則	-11.8887
曰著明也立也	-11.8887
設欲隨從	-11.8887
遏也被一作披	-11.8887
也氣清一作氣平	-11.8887
好然浩浩蕩蕩而不可帶又易敗也	-11.8887
有賢明之	-11.8887
遊覽學者讀離騷九章之文莫不愴然心	-11.8887
下忠之與佞在君	-11.8887
丐	-11.8887
似龍玉而	-11.8887
崙在西北	-11.8887
接續也言已念	-11.8887
易曰飛龍在天許	-11.8887
楚國將墟心常	-11.8887
瑶象以比君子之	-11.8887
結也一注云膺	-11.8887
莫之識也五臣云飛龍	-11.8887
萬一千里上有瓊玉之樹也	-11.8887
言我逺游但駕此道	-11.8887
躞	-11.8887
違廢聖典	-11.8887
㓕	-11.8887
一注云鶴白鳥也補曰瑶光	-11.8887
不與衆同趨	-11.8887
之使死於林薄之中猶言取賢	-11.8887
也一云比干紂之	-11.8887
也史記作陶陶補曰說	-11.8887
也噬犬齧	-11.8887
也安能以變四夷之俗	-11.8887
也言從曲閣之路可	-11.8887
交錯曰薄言重	-11.8887
他刀切又滔聚也	-11.8887
作庬史記朴作樸	-11.8887
俍	-11.8887
傳季子光當立遂	-11.8887
凄補曰悽痛	-11.8887
出史記作汶山列子音義	-11.8887
剛而犯上者耳若小人	-11.8887
又琴操曰卞和得玉璞以獻楚	-11.8887
君相臣動作	-11.8887
吾徐廣曰	-11.8887
喻俗人言也巳	-11.8887
堯臣也帝繫曰	-11.8887
夜光故曰和氏之璧	-11.8887
奏大呂些	-11.8887
安意遨遊長	-11.8887
將與雞鶩爭食乎	-11.8887
專心思欲竭忠情以安於君無有他志	-11.8887
履行清白内不	-11.8887
已雖忠直無所	-11.8887
帝謂天帝也女曰巫陽其名也巫一作	-11.8887
廢政事晝夜	-11.8887
弑王僚代立	-11.8887
得則止已留	-11.8887
念君在旁側也補	-11.8887
惶遽怵惕之憂也一作	-11.8887
感天抑地而誰	-11.8887
慜病也遷	-11.8887
憂也或曰娛酒不發發	-11.8887
戛	-11.8887
所依止不可得也一作仿佯五臣云仿佯	-11.8887
方仲春而東遷此云滔滔孟夏	-11.8887
旦也詩云明發不寐言日夜	-11.8887
明君子弃之山	-11.8887
曰不有屈原豈見離騷驚才風逸壯志煙	-11.8887
曰桃自有苦	-11.8887
本讎下	-11.8887
李善以招䰟	-11.8887
林素我情補曰操七	-11.8887
條直爲材壯大爲朴壯一	-11.8887
欲澄清邪惡復	-11.8887
歌云女嬋	-11.8887
氣氣之靈	-11.8887
水之人善歌舞漢	-11.8887
汭也杜預	-11.8887
汶山之清江	-11.8887
沙礫而自沈	-11.8887
瀝清酒也言使吳人醲醴和	-11.8887
火自燒至崑山上常止西	-11.8887
犬也弟秦伯弟鍼也	-11.8887
王悲啼歔欷雖	-11.8887
瑟補曰揳古	-11.8887
疢	-11.8887
疾惡讒佞欲親近君	-11.8887
石室隨風雨上下炎	-11.8887
神農能入	-11.8887
粻音張食米也鑿音	-11.8887
精鑿也爢屑也粻	-11.8887
而掃塵也通一作	-11.8887
聖眩於名實昧於施報	-11.8887
聲也唴丘亮	-11.8887
能文能質内以	-11.8887
脩二物也見周禮羞致滋味	-11.8887
脩則脯也王逸五臣以	-11.8887
脯腊精鑿玉屑以	-11.8887
舊五乎切	-11.8887
衆容容則無經緯於世人也	-11.8887
衆所怨讎欲殺已也兆一作人一	-11.8887
行與衆異	-11.8887
補曰瞭音了目明也	-11.8887
要也鶴一作鵠瑶一作揺	-11.8887
言楚國變亂舊常無定法也容容變動之	-11.8887
言皇天集禄命而	-11.8887
言祠祀九神皆先齋戒成其禮敬	-11.8887
言雖以酒相娛樂不	-11.8887
記鶩作雉補	-11.8887
讒人所危俗	-11.8887
質補曰說文云朴	-11.8887
連之心改其	-11.8887
遊四維也	-11.8887
道補曰衙衙行	-11.8887
道路也補曰思美人曰媒絶路阻兮言不	-11.8887
鄭衛妖玩	-11.8887
陽精之純者食之以禦水氣鄭司農云	-11.8887
隱伏猶思道	-11.8887
露暴也申重也叢木曰林草木	-11.8887
音陶前云	-11.8887
騰馳而臨平易又可歩行遂	-11.8887
又蔽而莫之	-11.8887
人也升一作登沛一作	-11.8888
作寥一作漻五臣云寂漻	-11.8888
升天奮揺翹羽馳使風	-11.8888
可得知故中心沸熱若湯也踊躍	-11.8888
旗旄志行清	-11.8888
明車服又殊也	-11.8888
竭智謀以輔事	-11.8888
賢君流恩百姓	-11.8888
瀞	-11.8888
言賢者不居廟堂則	-11.8888
㠁	-11.8888
不立而志不成也	-11.8888
悽悲痛	-11.8888
愴痛感動歎累息也五臣云	-11.8888
晃户廣切水深廣	-11.8888
林澤菀積而死恨功	-11.8888
櫂舟杭以	-11.8888
洋音養滉瀁水	-11.8888
濿履石渡	-11.8888
濿渡也由	-11.8888
而流故身	-11.8888
行衆善若此而	-11.8888
雧芙蓉以為裳	-11.8888
騷經云飄風屯其相	-11.8888
不見用也謇一作蹇差一音	-11.8888
也辭一作詞志一	-11.8888
仍因也言	-11.8888
冥沛濁浮	-11.8888
則哲秦繆公	-11.8888
吞舟之魚	-11.8888
天髙而氣	-11.8888
如山川之性身	-11.8888
寥釋文作嵺補曰泬音血嵺	-11.8888
山其形崔巍而	-11.8888
志意墮落長吟江澤之涯而	-11.8888
情顔色	-11.8888
慌失意上坦朗下呼晃	-11.8888
憂愁自係	-11.8888
澆也澧唐	-11.8888
澧澧回而揚澆邪引	-11.8888
澧澧波聲也回	-11.8888
畔界也濵涯也言	-11.8888
相副内外若一終	-11.8888
秋天髙朗體	-11.8888
紀言崑崙山	-11.8888
而待放屈原與楚同姓無相去之義故加	-11.8888
與麋鹿同坈	-11.8888
言與行合誠可循迹情	-11.8888
言賢愚異心何可合同知君與	-11.8888
詩云乃裹餱	-11.8888
變易也言已吐	-11.8888
足文王即位復獻之以	-11.8888
車而駕以	-11.8888
鄣音章舊本自何	-11.8888
陂池曰坈言	-11.8888
隕墮也易曰有隕自	-11.8888
㱃	-11.8888
上無所考此盛德兮	-11.8888
不值聖王而年老也五臣	-11.8888
不與衆合不	-11.8888
不豫兮鮌	-11.8888
並甘臭惡不知人者信任讒佞故忠信之	-11.8888
之使反其身	-11.8888
之山以遊觀也騖一	-11.8888
之詩隰有	-11.8888
之逺聞者也凍猶	-11.8888
也予一作與補	-11.8888
也墜一作隧	-11.8888
也或曰泬寥猶蕭條蕭條	-11.8888
也蓍曰筮尚書曰決之蓍龜言天帝哀	-11.8888
云歈歌也徐鉉曰	-11.8888
人之徽美也塵一作虚補曰列仙傳	-11.8888
人悉欲來害巳有招禍之道	-11.8888
以經緯五藏保守形體也筮卜問	-11.8888
伯長也林君也謂晉太子申生	-11.8888
何為四方些	-11.8888
余五臣云牽引古事而罵詈我	-11.8888
使不得進也補曰狺音垠犬	-11.8888
使樂正子占之言	-11.8888
來牽引數怒重詈我也詈一作罵予一作	-11.8888
倍也言選擇名工巧	-11.8888
先導聲轉轔也	-11.8888
剖視之果得美	-11.8888
史魚之直耳	-11.8888
右足抱璞不釋而泣	-11.8888
各切詩傳云東西	-11.8888
君䰟作衣乃使秦人織其	-11.8888
君輕刖而重剖石遂	-11.8888
吸之動謂之	-11.8888
哉如左氏之言皆後	-11.8888
善日吾將去君而逺行也	-11.8888
夜止曰宿言巳孤獨無耦塊然獨	-11.8888
大三百圍	-11.8888
夷楚詞鮌婞直以亡身則	-11.8888
奧	-11.8888
娛樂又曰和	-11.8888
山野多有	-11.8888
工巧也男巫曰祝背	-11.8888
常畏愼而戒	-11.8888
強史記作彊	-11.8888
往田獵於春囿之	-11.8888
心以自強勉	-11.8888
忙	-11.8888
念救傷懷之思	-11.8888
悲夷猶而冀進兮	-11.8888
悵失其明時不與賢	-11.8888
我以吉占	-11.8888
所錯安其志或	-11.8888
折取瓊枝以	-11.8888
招呼君倍道先行導以在前	-11.8888
揖云瓊樹生	-11.8888
故使巫陽筮問求索得而與	-11.8888
於羽山以變東	-11.8888
曰㞶山導江言	-11.8888
書曰若藥不瞑眩厥疾	-11.8888
極窮也補曰廣雅云	-11.8888
欲求試	-11.8888
歈謳皆歌也	-11.8888
殳矛守戈㦸助凡五兵	-11.8888
泗	-11.8888
泭以下流兮	-11.8888
洪範九疇彛倫攸	-11.8888
激楚之遺風上林賦云鄢郢	-11.8888
璧蓋純白	-11.8888
用也薄附也言	-11.8888
申申和舒之	-11.8888
申申重也言女	-11.8888
當何所告我忠信之情也一無	-11.8888
睫腥犬赤股而躁臊左傳曰薄而觀之薄	-11.8888
積辛夷露而暴	-11.8888
者如苦李之類本草云羊桃味	-11.8888
而得脱其外曠宇些	-11.8888
腐臭不可用一無也	-11.8888
腥臊臭惡也御	-11.8888
自予賊害也一云歸	-11.8888
致詩曰如	-11.8888
與王者王者何不	-11.8888
良巫也君謂原言良巫背行	-11.8888
虎豹九闗	-11.8888
血及成王即位又獻之成王曰先	-11.8888
補曰歈音俞古賦云巴俞宋蔡說文	-11.8888
言北方常寒其	-11.8888
詈原有親親之意焉九	-11.8888
詹尹乃釋策而謝	-11.8888
論語曰申申如	-11.8888
賊害也言	-11.8888
赴愬故	-11.8888
路趣敵旌旗蔽	-11.8888
躓	-11.8888
輊一作輕補曰輊音	-11.8888
辯之巫使	-11.8888
近而放逐也補曰臊音騷周禮曰豕盲視	-11.8888
迫使荒蕪穢	-11.8888
過九章亦云行婞直	-11.8888
道卓遠而日忘兮	-11.8888
道思者中道作	-11.8888
邇	-11.8888
醇醲之酒清而且	-11.8888
釋文作篝補曰	-11.8888
錙	-11.8888
雕題黑齒	-11.8888
非責其不能	-11.8888
非龍虎之所致也輅言若以參星	-11.8888
鞭風伯使先驅兮囚靈	-11.8888
願循江水逶	-11.8888
風亦急風也楚地	-11.8888
食之長生羞	-11.8888
魄者性之決也所	-11.8888
鮌婞直以亡身	-11.8888
瞳	-11.8889
小腰秀頸若鮮	-11.8889
百里奚	-11.8889
名也言巳願供	-11.889
歎譽稱其	-11.889
補曰鴟稱脂切	-11.889
賢者失時後軰亦	-11.889
鵂	-11.889
不用譬若蛟龍	-11.889
也言川水夏濁而秋	-11.889
人君無有清明之時也五臣云潦	-11.889
彰補曰被音披反離騷云亡春風之被	-11.889
怐	-11.889
欷泣歎補曰	-11.889
溝無溢濫百川	-11.889
漻	-11.889
膚變顔色也五	-11.889
蕙草芬芳以興在位	-11.889
螻音樓管子曰蛟龍水虫之神者也	-11.889
三千五百餘里日月所相避	-11.889
亦想遭明時舉	-11.889
人卞和得美玉璞於	-11.889
佐也補曰據注	-11.889
其山子推抱樹燒而死故言立枯也	-11.889
厦胡雅	-11.889
故將逺去自	-11.889
焉又淮南子注云楚	-11.889
者工之法度也仁義	-11.889
而流遁於	-11.889
荆山之下以獻武王王以示玉人	-11.889
言巳專壹忠	-11.889
言龍能登虚無	-11.889
赫之勇	-11.889
配天地體性	-11.889
飛龍也上	-11.889
馺素合切方言馺馬馳也注云疾	-11.889
鵠神龍猶如此兮	-11.889
一本結下有而字	-11.889
一無瞭字一云杳冥冥而	-11.889
上有木禾珠樹玉	-11.889
不仕而窮處者以	-11.889
不貪今人貪而不味此言貪嗜讒	-11.889
之别稱耳徐	-11.889
之國政號曰五羖大夫孟子曰	-11.889
之在淵不過一井之底虎之悲嘯不過	-11.889
之梟作鳬非	-11.889
之處故心傷而長悲	-11.889
之間煙景以集自然之道	-11.889
乗龍兮轔轔	-11.889
也一曰虫入腹食人心古者	-11.889
也菉王芻也葹枲耳	-11.889
也詩曰楚楚者薋又曰終	-11.889
五臣云抑志按節	-11.889
交錯長兵不施故用刀劒以相接擊也	-11.889
人吩人則病羅人則疾名曰㺊㺊者恙	-11.889
人歌謡蔡	-11.889
人謳吟進雅樂奏大吕五音六律	-11.889
代秦鄭衞	-11.889
以食文公文公得國	-11.889
作樂急疾擊皷以稱神意	-11.889
作秦五臣云吳蔡秦皆國名補	-11.889
促席男女雜坐比	-11.889
入脩門些	-11.889
其言煩多不可結續以遺於君欲見君陳	-11.889
其類而從其耦也傷君獨無精誠之心以	-11.889
凌犯也躐踐也言敵家來侵凌我屯陣踐	-11.889
列子古賢士也補曰列子	-11.889
則歈盖歌	-11.889
則谷風更	-11.889
合若方與	-11.889
吉日以齊戒張揖	-11.889
名禦冦其書曰子列	-11.889
吕非秦聲五	-11.889
商支切形似	-11.889
圜不可錯	-11.889
多被此毒故相	-11.889
大夫位在君左右如茱	-11.889
大荒中有獸食	-11.889
太隂之水嘘	-11.889
奏天從之於是北方人得無憂無疾謂之	-11.889
奔命於夏	-11.889
如龍可制御八方也	-11.889
子平王立和復抱其	-11.889
子有三角刺人易據于蒺	-11.889
字補曰告姑沃	-11.889
孝鳥鴞于驕切惡聲之鳥	-11.889
容貌有飢色居鄭圃	-11.889
寤覺也昔文公	-11.889
居江南之土僻	-11.889
岷同書曰岷山導江岷山在蜀郡氐道縣	-11.889
崩也一云媒絶	-11.889
巫陽對天帝言招䰟者	-11.889
弭節徐行	-11.889
後人因加此字按楚	-11.889
徐行以候	-11.889
念惑亂故重侘	-11.889
悶煩也瞀亂也忳忳憂	-11.889
惡之人而逺仁賢之士也補	-11.889
意如字一音博下文忽	-11.889
慙於身外不	-11.889
懼也補曰詩云天鑒在下有	-11.889
招召也言	-11.889
故有不慈之名莊子	-11.889
文君晉文公也	-11.889
文虚大丘也丘於切崐崘	-11.889
斬	-11.889
日月參光吾	-11.889
明之君則知已之忠也書曰知人	-11.889
曰一葦杭之魂一作䰟杭一作航補曰	-11.889
曰堯不慈舜不孝言此	-11.889
曰方兩小船	-11.889
曰激衝激急風也結風	-11.889
曰舞雲門奏大吕言	-11.889
柘藷蔗也	-11.889
梗穢菉音	-11.889
梟一作鴞補曰斥	-11.889
樹琔樹不死樹在其西沙棠	-11.889
檮音擣斷木	-11.889
注云梟勇也若六	-11.889
淺弱所通者近何能漂景雲而馳東風	-11.889
湛湛重厚	-11.889
漿飲也或曰	-11.889
無恙乎蘇鶚演義引神異經云北方	-11.889
無所用之也五臣云主守也言	-11.889
熊囏立是	-11.889
爾雅云菉王芻菉蓐也本草云藎	-11.889
牟文選梟作鳬補曰漢書梟	-11.889
牲者五羊之皮食牛以要	-11.889
申重也言衆人無知	-11.889
疑季龍言龍	-11.889
白玉兮為鎮	-11.889
百歩之中形氣	-11.889
百里奚自鬻於秦養	-11.889
盤紆氣盈胷也	-11.889
相射流矢交墮壯夫奮怒	-11.889
眾人皆醉	-11.889
祖采其聲	-11.889
精神夢遊還故居也	-11.889
紛亂也言男女共	-11.889
羌一作唴補	-11.889
羔令之爛熟取藷蔗之汁	-11.889
羔裘豹飾	-11.889
而在側也五臣云狺狺開口	-11.889
耳詩人謂之	-11.889
聲和調也文選奏	-11.889
肩齊膝恣意調戲	-11.889
能存能亡奄然失所	-11.889
自漂疾然歌樂者猶復依激	-11.889
至雲故曰雲旗委於	-11.889
與共濟	-11.889
與瞬同說文云	-11.889
與航同許	-11.889
舉由余齊桓任管仲知人	-11.889
舉與也言舉當	-11.889
芭巫所持香草名也代更	-11.889
薋音甆爾雅亦作茨布地蔓生細	-11.889
蚤死曰殀言	-11.889
蛇而長也駕八龍者言巳	-11.889
蜜胹鼈炮	-11.889
衆讒人之嫉	-11.889
被孋姬之	-11.889
補曰詩曰湛湛露斯	-11.889
言兩軍	-11.889
言其凶傷詩牆有茨	-11.889
言衆人思君皆欲自利無若	-11.889
言醉飽酣樂合罇	-11.889
言鳥獸相呼	-11.889
詒遺也詩曰詒	-11.889
詞巳有此語	-11.889
詩薋作茨菉作	-11.889
請	-11.889
賢以五羖羊皮贖之釋其囚	-11.889
躐	-11.889
身體之質名之曰形有嘘	-11.889
輅言君不見隂	-11.889
迤五臣云言我所往皆與神游故可御氣	-11.889
通和氣感神二物相扶故能興雲夫虎	-11.889
運風况龍有	-11.889
邈邈而逺莫能追及一云邁	-11.889
野甚清淨漠無	-11.889
錯司馬法曰	-11.889
陽之火下引	-11.889
陽燧在掌握之中形不出手乃上引太	-11.889
隂幽靈上	-11.889
隙	-11.889
集此言何所戒	-11.889
雲龍猶自抑案	-11.889
霜之風非東風之名是以龍者陽精以	-11.889
非玉以其欺謾斬其一足	-11.889
音赤梟不	-11.889
願思也路	-11.889
飛之化虎有文明之變招雲召風何足	-11.889
髙澤深視之冥冥	-11.889
鮌不順君意亦將遇害也殀一作	-11.889
黙黙無聲也言江南山	-11.889
龍相感無	-11.889
􁕀	-11.889
上官椒蘭也	-11.889
下遽躡其跡而屈宋逸	-11.889
乃隂陽之感化	-11.889
之意盖欲原	-11.889
候則披文而見時枚賈追風以入麗馬楊	-11.889
其衣被詞人非一代也故才	-11.889
化可興復也	-11.889
參星者虎火出則雲應參出則風到此	-11.889
唾	-11.889
壹隂兮壹陽	-11.889
寗武子之愚	-11.889
庭而獲富貴汝獨服蘭蕙守忠	-11.889
情怨則鬱伊而易感述離居則愴怏而難	-11.889
故能氣往轢古辭來切今驚采絶燄難與	-11.889
文云輬卧車音涼招魂云	-11.889
施行不與衆合以	-11.889
易曰雲從龍風從虎新序孔子曰虎嘯	-11.889
橘大曰柚柚似橙而實酢	-11.889
欬	-11.889
注云軒輬皆輕	-11.889
漬膏取其香也華謂有光華補曰鐙音登	-11.889
火星者龍	-11.889
煙	-11.889
璞而獻之平王復以	-11.889
甘如蜜也弗一作不	-11.889
生而各有	-11.889
百里傒以百	-11.889
直判然離别不與	-11.889
而景雲見淮南	-11.889
而谷風起龍興	-11.889
能矣自九	-11.889
草若能憑軾以倚雅頌懸轡以馭楚篇酌	-11.889
虎土物也谷風木風也木生於土故虎	-11.889
裁中巧者獵其豔辭吟諷者銜其山川童	-11.889
言衆人皆佩薋菉枲耳	-11.889
車名則作	-11.889
軒輬旣低	-11.889
輅共論龍動則景雲起虎嘯則谷風至	-11.889
酒尤醲	-11.889
采文采也言	-11.889
飲也役賤也言	-11.889
也刜斫也㠯	-11.8891
作以補曰刜斷也音	-11.8891
干將亦利	-11.8891
瑟吹鳴	-11.8891
禁而制之不得止也言	-11.8891
雜杜蘅與芳芷王逸	-11.8891
香美張施琴	-11.8891
䎖	-11.8891
南渡湘水極	-11.8891
威誅無狀以征不服今乃用	-11.8891
想升賢君之朝斥去貪佞	-11.8891
斫蓬蒿割熟肉非其	-11.8891
濁穢入天帝之宫言	-11.8891
申徒狄賢者避	-11.8891
訾音貲	-11.8891
不肖也駑駘喻不	-11.8891
云喻信詐僞	-11.8891
弃忠正易置禮	-11.8891
慌一作怳其一作	-11.8891
滅二者殊義不可不察也五臣	-11.8891
知天生賢不虚出也	-11.8891
者民之正路也	-11.8891
肖	-11.8891
芬香之志逺行中野	-11.8891
貂	-11.8891
七事以起發太子也猶楚	-11.8891
不純命兮	-11.8891
作七依曹	-11.8891
作七命皆七諫之	-11.8891
共王聞之乃使人理	-11.8891
其上有醴泉華池河圖云崑崙天中柱也	-11.8891
劉向王襃之徒咸	-11.8891
又曰三成	-11.8891
君心乃乖差而不	-11.8891
在西北去嵩	-11.8891
封介山而爲之禁	-11.8891
必壞敗	-11.8891
忠佞兩心不可同吾將逺	-11.8891
恃怙衆士被甲兵也	-11.8891
晨向風而舒情	-11.8891
朕我也不求曰	-11.8891
植作七啓張	-11.8891
欲竭節盡忠終不見省但	-11.8891
白如玉黛畫眉鬢黒而	-11.8891
翼遥遥其左右	-11.8891
自適焉以喻人君	-11.8891
與我同故遂屏	-11.8891
若霧而乃見之也汎一作沉澒一作鴻補	-11.8891
著脂粉面	-11.8891
超無爲以至	-11.8891
類李善云七發者	-11.8891
七諫慇懃之意忠	-11.8892
七諫章句第十三楚	-11.8892
不同按史記楚	-11.8892
世家武王卒子文王立文王卒子	-11.8892
之䰟歸楚	-11.8892
之下都方八百	-11.8892
之焉薄瞭杳杳而薄天並	-11.8892
之節也或曰七諫者法天子有爭臣七人	-11.8892
九歎章句第十六楚	-11.8892
也固一作國儃一作	-11.8892
也瞰視也	-11.8892
也言戎車相	-11.8892
也言祠祀作樂	-11.8892
二數相感故能	-11.8892
云子椒列	-11.8892
云工祝	-11.8892
五水今按山海經内崑崙	-11.8892
亡春風之被離鄣音章壅也記	-11.8892
以衰老而楚國	-11.8892
以車中軍武王自稱太子	-11.8892
何况賢者身無爵	-11.8892
作擣矯一作撟	-11.8892
作灃補曰澆女	-11.8892
俗人所困侮	-11.8892
俗人所推引	-11.8892
其狀婉婉又載雲	-11.8892
切乆立也眙直視也丑	-11.8892
吾科吾科楯之名也補曰操持也	-11.8892
坐除去威嚴放其	-11.8892
壽冉冉而日衰兮固儃	-11.8892
奏大吕些	-11.8892
小生平澤溪澗之側俗名	-11.8892
山江所出	-11.8892
崑崙萬里之山周望四方	-11.8892
左驂馬	-11.8892
帝也虞淵日所入也淮南言日出湯	-11.8892
庶人後常	-11.8892
弟弑杜敖自立是	-11.8892
心意飛揚	-11.8892
志猶念君而不能忘也補曰	-11.8892
忳忳然無所舒也	-11.8892
忽不食也補曰憺徒	-11.8892
悵住立	-11.8892
情沈抑而不逹	-11.8892
憂心煩悶	-11.8892
我行伍也躐一作	-11.8892
或偷合而	-11.8892
數遭患	-11.8892
文云戈平頭	-11.8892
文云馮懣也並音憤	-11.8892
文公覺寤追而求之子推遂不肯出文公	-11.8892
文王木主載	-11.8892
方朔字曼倩	-11.8892
於君身得爵禄而	-11.8892
昴	-11.8892
曰楚人鮫革犀兕以	-11.8892
曰犀甲壽百年荀子	-11.8892
東方朔追憫屈原故作此	-11.8892
梟螻蟻所制其困如此	-11.8892
正也謂陳法度以諫正君也古者人臣三	-11.8892
殤鬼也左傳曰晉侯夢大厲搏	-11.8892
泮	-11.8892
涼風急時疾	-11.8892
潺湲若水之	-11.8892
猶逢也下文云	-11.8892
王使還之也補曰	-11.8892
琅玕在其東絳樹在其南	-11.8892
生於楚國與君同朝長	-11.8892
用不順堯命乃殛之羽山死於中野女	-11.8892
發言奉文王以伐不敢自專	-11.8892
皇天羅宿有度	-11.8892
禀五常以生感隂陽以靈有	-11.8892
禍身困	-11.8892
禹樂也韶九韶舜樂	-11.8892
竹而細薄莖亦	-11.8892
精多則魂魄強	-11.8892
紛吾乗兮	-11.8892
義取於陳列耳俗作阜傍車非也躐	-11.8892
者歎逢時之不幸也	-11.8892
者隂精而居于	-11.8892
而哭荆山之中	-11.8892
肱	-11.8892
能蕪穢	-11.8892
自惜被服芳香菲菲而	-11.8892
與諸本異又以怨思	-11.8892
莫識言巳之心志所	-11.8892
補曰羽山東裔在海中	-11.8892
補曰顔之推云六	-11.8892
言楚有三公其位尊	-11.8892
言蛟龍升天其形	-11.8892
訟不得大官	-11.8892
該亦備也言撰設	-11.8892
誠惜芳之菲菲兮反以兹	-11.8892
諸從行者失忘子推子推遂	-11.8892
譖出奔齊楚介子推從行道乏糧割股肉	-11.8892
赤水之後黒水之前有大山名崑崙	-11.8892
趨也語曰趨進	-11.8892
通飛廉之衙衙	-11.8892
逹乎吾志	-11.8892
郎上書自	-11.8892
都入郢門欲以感激	-11.8892
采菉三者皆惡草以喻讒佞盈滿	-11.8892
金石鞈堅	-11.8892
錯交也短兵刀劒	-11.8892
門郢城門也宋玉設呼屈原	-11.8892
陳人陳雲鳥之陳左傳有魚麗之陳行陳	-11.8892
陽依木長嘯動於巽	-11.8892
隂臣也陽君也言楚王惑蔽羣	-11.8892
雪隨之飛行千里乃	-11.8892
願楚無憂君康	-11.8892
鮌治洪	-11.8892
鴟梟惡鳥	-11.8892
㝱之官所主	-11.8892
不容於世雖飢	-11.8892
中正之言而好	-11.8892
之國工作妙音	-11.8892
之在香囊妄充	-11.8892
之樹觀而視之不	-11.8892
之麴以作楚瀝其清	-11.8892
五羊之皮	-11.8892
亦有此作其詞曰沐芳莫	-11.8892
人媵百里傒亡秦走宛楚	-11.8892
以事雲神乃使靈巫先浴蘭湯沐	-11.8892
何故深思高舉	-11.8892
作踈補曰内舊音訥	-11.8892
佩帶而無芬	-11.8892
反好俗人	-11.8892
吹鳴竽箎作	-11.8892
哀涕交	-11.8892
嘯而谷風至龍	-11.8892
媿於人志愈堅固不衰	-11.8892
宅宅之東北有女須廟	-11.8892
實而列乎衆芳矣	-11.8892
巳無蘭之	-11.8892
府有沐浴子劉次	-11.8892
廣雅謂之枲耳皆以	-11.8892
徐季龍與	-11.8892
心終不徙願志行流於後	-11.8892
必彈冠新浴者必振衣又曰與	-11.8892
曰尚書厥包	-11.8892
木盛長而	-11.8892
木蘭以言小人進在顯位	-11.8892
欺斬其一	-11.8892
水也雲生水故龍舉而景雲屬管輅别	-11.8892
汝沐兮咸池晞汝髪兮	-11.8892
泆激楚之音也猶言惡	-11.8892
知日暮言	-11.8892
石猶存秭與	-11.8892
秦繆公莊子曰秦穆公以	-11.8892
紆曲也軫	-11.8892
美女酣樂	-11.8892
習習谷風	-11.8892
而君閉塞其志	-11.8892
而景雲屬注云	-11.8892
而王逸謂女	-11.8892
自勉修善身雖遭	-11.8892
與語國事繆公大說授	-11.8892
若之英以自潔	-11.8892
莊云楚詞曰新沐者	-11.8892
萇	-11.8892
蔎一作藹一注云在	-11.8892
虎嘯而谷風至龍舉	-11.8892
衆樂以樂	-11.8892
衆鳥皆有行列兮	-11.8892
補曰晉獻公虜虞君與其大夫	-11.8892
言君好賢士則英俊往而並集也補曰	-11.8892
言天帝難從掌㝱之官欲使巫陽招	-11.8892
足平王死和欲獻恐	-11.8892
輜軿侍從響雷震也補曰	-11.8892
辯綺靡以傷情逺遊天問瓌詭而惠巧招	-11.8892
鄙人執之繆公聞百里傒	-11.8892
里傒爲秦繆公夫	-11.8892
錯安也言萬民禀受天命	-11.8892
陽之阿皆潔濯之謂也李白	-11.8892
雲賦云五采備而成文衣華采之衣以其	-11.8892
餓而死幸若叔	-11.8892
副	-11.8892
自割而食君	-11.8893
䶵竽列備衆樂以樂大神䶵一作	-11.8893
滄	-11.8893
同並音池爾雅注云	-11.8893
孔上出一寸三分名翹	-11.8893
尺四寸圍三寸一	-11.8893
縣鍾磬之木也瑶簴以美玉	-11.8893
若飛似翠鳥之舉也補	-11.8893
言巳思得賢	-11.8893
靈謂巫也姱好	-11.8893
不能誅也訑一	-11.8893
中正之性	-11.8893
其華未發為菡萏已	-11.8893
哀故都之日逺	-11.8893
將入大海飛	-11.8893
山茂林之上設後時	-11.8893
干也不一作弗乗一	-11.8893
於川澤忽然乗雲汎	-11.8893
曲木截仁義進則讒佞	-11.8893
流亡不忍以	-11.8893
溘猶奄也以一作而奄一	-11.8893
而欲寄處則鴟梟	-11.8893
自疏逺也	-11.8893
言我寧奄然而死形體	-11.8893
言文公遂以介山之民封子推	-11.8893
言美女工舞	-11.8893
邅轉也楚人名轉曰	-11.8893
􁀿	-11.8893
㢮俛視水流湯焉流行而不知	-11.8893
上通天水經云崑崙	-11.8893
不能知已之獲罪是	-11.8893
主以忠事君以信結交而	-11.8893
乃奉玉璞而哭於荆	-11.8893
之曰石也又以	-11.8893
也交鼓對擊鼓也縆一作絙	-11.8893
也楚曰憑注云恚	-11.8893
五萬里地之	-11.8893
人攻之果得	-11.8893
其常也一本云兩足以之畢斮補	-11.8893
切劉向新	-11.8893
厲王使王尹相之曰	-11.8893
右足武王薨共王即位和	-11.8893
奉玉璞而獻之武王王使王尹相	-11.8893
山三重故以名云昔人引山海經西海	-11.8893
山中三日三夜泣盡而繼之以血	-11.8893
左足厲	-11.8893
序云荆人卞和得玉璞而獻之荆	-11.8893
施芳澤其芳	-11.8893
曰侅溺於馮氣	-11.8893
注簫一作蕭補曰儀禮有笙磬笙鍾周禮	-11.8893
潔潔一作絜五臣云	-11.8893
王薨武王即位和復	-11.8893
皆作有聲者以聲聞有色者以色見	-11.8893
石也王以和	-11.8893
耳目之娛各	-11.8893
萬一千里河水出其東北陬爾雅曰西北	-11.8893
雷動電發馺	-11.8893
順人意可以自侍	-11.8893
䭾	-11.8893
一之庭紫	-11.8893
一云其命難從一云命其難從	-11.8893
一作飲補曰集	-11.8893
一明者太一常居也	-11.8893
一本云當作袉徒	-11.8893
丈減切相如賦	-11.8893
不人告也不	-11.8893
不忍變心	-11.8893
不遇明時而當暗	-11.8893
不還而功	-11.8893
中一作心補曰瞀音	-11.8893
中交引而	-11.8893
中被篤疾病早殀死及	-11.8893
中道悔恨	-11.8893
中鬱邑惆	-11.8893
主有虞主練主尸神	-11.8893
乃察知萬民之	-11.8893
之丘其下	-11.8893
之芭一作巴補曰芭	-11.8893
乎一無又字代一作伐補曰	-11.8893
也宗廟之有主也示民有事也	-11.8893
也尚書簫韶九成是也	-11.8893
也補曰禮記王立七祀有	-11.8893
也貺與也言	-11.8893
云紛湛湛其差	-11.8893
五臣云坎壈困窮也	-11.8893
五采華衣飾以	-11.8893
亡三代之王是不	-11.8893
人兾其見從	-11.8893
人告誰當察我中情之善否也	-11.8893
人有贅肬之病與衆别異以得罪謫也補	-11.8893
代君與之易位自傷	-11.8893
令自寛全	-11.8893
伏戲古王者也始	-11.8893
伯樂非也王良善馭事	-11.8893
作彰音如	-11.8893
佞權臣將	-11.8893
使不得擇行	-11.8893
使異姓代之	-11.8893
信之志正終始之行必顯用也兮一	-11.8893
八龍神智之	-11.8893
其情而有他志也遁一作遯他一	-11.8893
兼通夏目而	-11.8893
冠纓舒	-11.8893
列在側則使	-11.8893
則憂思鬱結胷背分裂心	-11.8893
十洲記崑陵即崑崙中狹上	-11.8893
卜加切司馬相如	-11.8893
去之賢臣驚怖奔亡	-11.8893
受禮天下言受王者之	-11.8893
吏切文選注	-11.8893
君闇塞也言	-11.8893
君離别也傷	-11.8893
君非隨之運轉常不止息	-11.8893
因名曰秭歸縣北有原故	-11.8893
執組猶織組也	-11.8893
外困羣佞内	-11.8893
失我本志曾無有	-11.8893
如是也補曰莊子曰吾	-11.8893
始化曰魄	-11.8893
子不居爵位衆亦莫知其賢能也史記作	-11.8893
害也補曰史記武王東觀兵	-11.8893
害忠貞乃曰哀哉	-11.8893
居他邑也牉一作叛	-11.8893
屈原怨毒楚俗嫉	-11.8893
山有木禾面有九井以玉	-11.8893
工纒而縛之堅而且好也	-11.8893
左傳曰人生	-11.8893
平議國政後用讒言	-11.8893
廣故曰崑崙山有三角	-11.8893
志欲陞天思	-11.8893
忠臣貞而欲諫兮	-11.8893
忠見過非難與	-11.8893
念君信用讒言志數變易無常操	-11.8893
急欲奉行天誅	-11.8893
慕歸堯舜	-11.8893
成王則淮南	-11.8893
扶之輔其類也	-11.8893
按杜蘅爾雅所謂杜土鹵者也	-11.8893
敬愛賢	-11.8893
敶印綬班然相亂	-11.8893
昆後也言楚國公侯昭明	-11.8893
晞女髪兮陽之阿	-11.8893
曜魄寳主御羣靈秉萬	-11.8893
曰錠也徐鉉曰錠中置燭故謂之鐙又	-11.8893
書序云康	-11.8893
有弱水之淵環之又曰鍾山西六百里有	-11.8893
有開明獸守之百神之所在郭璞	-11.8893
極也廩一作壈	-11.8893
榝音殺爾雅曰椒榝醜莍注云	-11.8893
正之志欲逺去以求	-11.8893
正也言楚國俗人流從謟䛕不可	-11.8893
殁也於矯切鮌遷羽山	-11.8893
江謂之夏汭故春秋傳	-11.8893
河淮南注云申徒	-11.8893
淵言乃鞭風伯使之掃塵	-11.8893
清白皎如	-11.8893
湛茂盛	-11.8893
漢書曰聞將軍	-11.8893
為公卿也	-11.8893
無所據依也	-11.8893
無道國人中道倍畔	-11.8893
牉分也一本牉下有合字一云背膺敷牉	-11.8893
狄殷末人也不忍見紂亂自	-11.8893
王始信任	-11.8893
痛也結一作	-11.8893
碁	-11.8893
碧樹瑶樹在其北東方朔	-11.8893
禮於天下也有德則興無德則	-11.8893
穆而美上下玉	-11.8893
竭盡忠信以事	-11.8893
粤之劒又曰吳粤之	-11.8893
紂載文王木主稱太子發	-11.8893
絡齊人作綵縷鄭國之	-11.8893
綾	-11.8893
綿一作緜補曰	-11.8893
罪秦伯也晉語曰秦后子來仕其車千乗	-11.8893
美善之婉容也佳一作娃補曰娃於佳切	-11.8893
美者有梁山之犀象焉考工記	-11.8893
義受天命而	-11.8893
而不聽負石自投於	-11.8893
而不見其占以	-11.8893
而歌巫持	-11.8893
而行也或曰操	-11.8893
與河伯俱遊	-11.8893
舊居也補曰記曰樂樂其所自生禮不忘	-11.8893
芭而舞訖以復傳與他人更用	-11.8893
芮	-11.8893
若一名杜蘅葉似薑而有文理味辛香今	-11.8893
若廣雅所謂楚蘅者也其類自别古人	-11.8893
莊子云申徒狄諫	-11.8893
華采五色	-11.8893
衆山去我	-11.8893
被文服纎	-11.8893
被讀曰披反離騷曰	-11.8893
補曰牉音判傳曰夫妻牉合也字林云牉	-11.8893
補曰記云祭祀之有尸	-11.8893
言湯初舉伊尹	-11.8893
言神龍將舉陞天則景雲覆而	-11.8893
言若得值於此時而我年	-11.8893
言鐙錠盡雕琢錯鏤飾設以	-11.8893
諸侯有公厲大	-11.8893
謂使童稚好女先倡	-11.8893
谷入于虞	-11.8893
賦云諸柘巴且注云巴且草一名	-11.8893
赤色子椒佞而似義猶榝之似椒也	-11.8893
輜軿車前衣車後也從楚	-11.8893
近無有憂國之心責之也夫一作其五臣	-11.8893
逆流而上曰泝洄	-11.8893
進讒人妬害加被離析	-11.8893
遁隱也言	-11.8893
鄣而蔽之被一作披補曰	-11.8893
鄣風也縁文選作緑五臣云	-11.8893
重厚而欲	-11.8893
金錫爾雅曰南方之	-11.8893
陽伯樂姓名而張晏云王良字	-11.8893
隨從百神	-11.8893
隰	-11.8893
雄傑也一云䰟魄毅一云子魄	-11.8893
雖陞雲逺遊	-11.8893
離俗自擁石赴	-11.8893
露一云瀓霧露補曰馮	-11.8893
靈巫也楚人名巫	-11.8893
非也自賭口下沔水	-11.8893
風起吹之生文於緑波中	-11.8893
風雨水旱兵革飢饉疾	-11.8893
髙馳不顧願駕	-11.8893
鬱邑愁	-11.8893
鳥從鷦明羣鶴潔白之士過於瑶光	-11.8893
鳥獸鳴以號群兮	-11.8893
黛	-11.8893
􁌘	-11.8893
眙	-11.8894
僑	-11.8894
貺	-11.8894
下崢嶸而無地兮	-11.8895
不見進用意欲驅馳	-11.8895
也子僑王子	-11.8895
也言巫舞工巧身體翾然	-11.8895
作濟而一作於補	-11.8895
好之巫使與日神相保樂也補	-11.8895
如故終不解	-11.8895
待王子僑隨之奔走以學道	-11.8895
暾他昆切焱火華	-11.8895
曰古人云詔靈保召	-11.8895
然中心愁思	-11.8895
神巫也姱音戸叶韻舊苦胡切未	-11.8895
者曰靈保	-11.8895
之徒非其冝也論語曰割	-11.8895
住立而失志者以不能隨從	-11.8895
俗屈求容媚	-11.8895
時人所窮困憂一作自念一無	-11.8895
注云忳自念	-11.8895
簫鍾與簫聲相應之鍾歟簴其吕切爾雅	-11.8895
乃可切補曰集韻㫊倚可切其字從可	-11.8895
之又禁民不得有言燒	-11.8895
也後漢傳大秦國	-11.8895
云言秋深	-11.8895
其長袖周	-11.8895
哭之也補曰親身	-11.8895
左足武王即位和復獻之武王不	-11.8895
往啄米至輙驚却故南人名	-11.8895
悲楚人之和氏兮	-11.8895
曰抉吾兩	-11.8895
有駭雞犀注引抱	-11.8895
桺	-11.8895
犀駭雞宋哀曰角有光雞見而駭	-11.8895
王内無文	-11.8895
笙之樂注云鍾笙與鍾聲相應之笙	-11.8895
腊也萎一作委	-11.8895
言不離左右也縞音杲	-11.8895
貪濁善惡殽亂	-11.8895
邅河圖括地象言崑	-11.8895
高堂邃宇	-11.8895
七辯崔	-11.8895
不旋踵也歸來一云歸來歸來一作歸來	-11.8895
主此盛德兮	-11.8895
之法節其中和	-11.8895
之流五臣云七者少	-11.8895
也言君心戃慌而	-11.8895
云言草木殘瘁也菸	-11.8895
令我悁悒悲涕而	-11.8895
作七發傅	-11.8895
凍皓然正白回錯膠戾與	-11.8895
割股而自	-11.8895
君也前漢東	-11.8895
喟丘愧切方言云憑怒	-11.8895
喟然舒憤懣之心	-11.8895
堂亦無益	-11.8895
夏禹所稱舉	-11.8895
子曰食其不妄	-11.8895
左傾而去也一云	-11.8895
悁悒者哀念楚國信	-11.8895
惡氣天常甚雨如	-11.8895
我謀議用志速速	-11.8895
所言皆依前世聖人	-11.8895
折瓊枝以爲羞	-11.8895
故歎息憤懣而行澤	-11.8895
曰斮仄	-11.8895
毅作七激	-11.8895
汜汜鳥浮	-11.8895
注壅水冬則凝	-11.8895
涯多霧	-11.8895
澤也五臣云顔	-11.8895
為衣裳被服愈潔修善益明	-11.8895
無思慮不肯與	-11.8895
牽引也不治曰蕪多	-11.8895
牽於俗而蕪穢	-11.8895
玉世所謂和氏之	-11.8895
璧也或曰兩足畢索	-11.8895
皓膠水凍	-11.8895
相親附	-11.8895
石易别於忠佞尚	-11.8895
索盡也以言	-11.8895
者曰非義不妄食引	-11.8895
聽用我言而納受之也焭一	-11.8895
臭草也䓃草傷	-11.8895
若水中之鳬	-11.8895
草曰穢言	-11.8895
言士民所以變	-11.8895
謾皆欺也上	-11.8895
速速不親附	-11.8895
陽之數欲發陽明	-11.8895
靈氛旣告	-11.8895
㦸身被犀鎧	-11.8895
䄂	-11.8895
䄷	-11.8895
一南天帝之臣也主使十六龍知	-11.8895
三年而無決兮	-11.8895
不肯與弟鍼犬鍼以	-11.8895
不量才能視	-11.8895
中其神曰	-11.8895
中旣以邃逺	-11.8895
中明於大法賢智之	-11.8895
中有公侯伯子男執玉圭之君明於知人	-11.8895
乃立九卿以	-11.8895
之人無知我賢也	-11.8895
之時則必	-11.8895
之神使無隂冥周	-11.8895
也五臣云騏驥安	-11.8895
也天文大象賦注云天	-11.8895
也殀一作夭	-11.8895
也留止也一本靈下有子字	-11.8895
也盛古作晠	-11.8895
也補曰春秋昭元年夏秦伯之弟鍼出	-11.8895
二子復以謟	-11.8895
云吾不可聞	-11.8895
五臣云騏驥伏匿	-11.8895
亡財遺	-11.8895
人反談論廊廟之	-11.8895
人君不知其用心也	-11.8895
人愚惑惡	-11.8895
以言賢者亦然外有精	-11.8895
任負也百二十斤爲石言	-11.8895
何逺為些	-11.8895
作瑟駕辯	-11.8895
作鑒脩一作修	-11.8895
備輔翼承疑用其謀也承一作丞補曰孟	-11.8895
先用諸侯盡極	-11.8895
兮歸來入修門些	-11.8895
兮願側身	-11.8895
内勾陳口	-11.8895
冶容誨淫	-11.8895
凡臣耳後	-11.8895
出眇然逺視目若	-11.8895
出隂入陽	-11.8895
切一苦浩切	-11.8895
初始也成平也言猶議也	-11.8895
則曲木不治誰知其工巧者乎	-11.8895
劉向之所作也向以	-11.8895
勞商皆	-11.8895
化變也言我竭	-11.8895
卒行入武	-11.8895
反旣有此他志	-11.8895
叔齊伯夷弟也言已獨	-11.8895
取以得爵位或有脩	-11.8895
同本非一物詩	-11.8895
呵罵遷怒妄誅戮	-11.8895
四方人觀見之莫不	-11.8895
四鈞爲石	-11.8895
因逐鍼	-11.8895
在山間而不見用也乎	-11.8895
堂與君議	-11.8895
多雜引用爾雅	-11.8895
大帝一星在紫	-11.8895
大蛇也爾雅曰	-11.8895
女字也音須賈侍中	-11.8895
如賦云諸柘巴	-11.8895
妃失耦塊	-11.8895
嫗	-11.8895
屋複穾温室盛夏暑	-11.8895
崑崙上有九府是	-11.8895
差次衆味持	-11.8895
已數諫君而不見聽雖欲	-11.8895
年然後死事見天問左傳曰其神化	-11.8895
律法也魁大也	-11.8895
得採薪二女西施	-11.8895
復煎鮒魚臛	-11.8895
怨思移逺	-11.8895
恃怙也言君誠可思	-11.8895
惑誤不用	-11.8895
惡也補曰儇隳	-11.8895
愚賢之類别其善惡昭然若神能薦	-11.8895
愠惀若可鄙者小人之忼慨若	-11.8895
憍而恃	-11.8895
懷沙即任石也	-11.8895
投箸行	-11.8895
指彭咸以為儀	-11.8895
搴汀洲兮杜若將以遺兮逺者	-11.8895
放弃若浮	-11.8895
故可任以道而事用之也一云	-11.8895
於手而盡馬力也詩云	-11.8895
旋反舊邑入	-11.8895
昭昭明也	-11.8895
是新序之	-11.8895
曰汜濫也音泛	-11.8895
曰踥思葉切蹀	-11.8895
曲沃歸胙于	-11.8895
書又東文余亦以	-11.8895
曹憲博雅	-11.8895
有賢姊聞原放逐亦來歸喻	-11.8895
本國上有中	-11.8895
朱切五臣云濡	-11.8895
梧桐食竹實	-11.8895
椒聊香草也詩曰椒聊	-11.8895
樂憺然意安而忘歸也補曰	-11.8895
樂注云伯樂善相馬事秦繆公又王逸云	-11.8895
檻面有五門門	-11.8895
欲承順求媚以	-11.8895
此而成文於彼善御者亦動之	-11.8895
水是江流沔非沔入夏假使沔注夏其勢	-11.8895
淮南子曰太㣲者太	-11.8895
燕雀烏鵲	-11.8895
爰水經引袁崧云屈原	-11.8895
獸有英華也鐙一作雕五	-11.8895
王有始而無終也惜余年老而日衰兮	-11.8895
王自矜伐也憍矜	-11.8895
生魄陽曰魂用物	-11.8895
男同謂之諸侯三圭比子男	-11.8895
疫占不明反移	-11.8895
登蒼天而	-11.8895
白羣臣莫肯	-11.8895
百兩金誤矣兩	-11.8895
益咽喉也䬼飫也	-11.8895
眇猶逺也蹠踐也	-11.8895
石注引重任石之何益	-11.8895
石終無益於萬分也一云任重石石一作	-11.8895
神髙馳之邈邈	-11.8895
祭太一東南郊天文志曰中	-11.8895
秙	-11.8895
秙音庫禾不實也義與此異文選江賦云	-11.8895
穡	-11.8895
篤病也早死	-11.8895
粟十六升大升半又三十斤爲鈞	-11.8895
糧食飲	-11.8895
紛獨有此姱節	-11.8895
絶其後因留懐王	-11.8895
綱也舜一作	-11.8895
縶之維之言	-11.8895
縶絆也詩曰	-11.8895
織組者動之於	-11.8895
羈一無生字補曰	-11.8895
美人既醉朱顔酡些	-11.8895
美徳驕傲	-11.8895
美飲之醲滑入口消釋不苦歰令	-11.8895
羹者也柘一作蔗	-11.8895
者謂並用射禮進也五臣云遒急也	-11.8895
而舞則進退容與	-11.8895
胷臆不	-11.8895
臣正其心欲諫其君	-11.8895
色白所渠并千七百一川色	-11.8895
若水波而重華也五臣云言美人	-11.8895
苦桃惡木言君親近貪賊姦	-11.8895
蕋	-11.8895
蘭薄户樹	-11.8895
補曰歰不滑也嗌於	-11.8895
補曰神異經北方有	-11.8895
補曰秙當作䄷音石百二十斤也稻一	-11.8895
西南非尚	-11.8895
觸石碕而衡	-11.8895
言三圭之君不	-11.8895
言先進靡麗	-11.8895
言士有偷合於	-11.8895
言小人智少慮狹	-11.8895
言已放逺日以曼曼周流	-11.8895
言巳常眇然	-11.8895
言拘愚蔽闇之	-11.8895
言謂誠信之言一成而不易	-11.8895
言隆冬凍寒則有大	-11.8895
諒聰不明而蔽壅兮	-11.8895
貧士失職	-11.8895
貪濁之世	-11.8895
赭	-11.8895
越之美女越絶書曰越王	-11.8895
蹇産猶詰屈也言	-11.8895
身有光文眺視曲眄目采盼然	-11.8895
連蜷巫迎神導	-11.8895
逺客寄居孤單特也羇	-11.8895
遂處神山觀濁亂	-11.8895
遽趣也爽差也存前也言乃	-11.8895
鄭旦以獻	-11.8895
酒四器俱	-11.8895
醎	-11.8895
釋文作礚苦蓋切補曰忼苦朗切忼慨憤	-11.8895
金易之又不	-11.8895
鑣勒也銜飾口鐡也	-11.8895
門逺郊門近郊門城	-11.8895
閬野者閬風之府是也	-11.8895
闗秦伏兵	-11.8895
阜盛也昌熾	-11.8895
陽也補曰髙孤	-11.8895
陽者南方日中	-11.8895
雀勑趣宰人	-11.8895
雖願忠其焉得皆喻	-11.8895
雲之氣東西	-11.8895
音拳南都賦云	-11.8895
音牒踥蹀行	-11.8895
音而亨肉和湆也炮蒲	-11.8895
類也以言君修	-11.8895
魚葺鱗以自別兮	-11.8895
鮒	-11.8895
鴞貪鳥而集	-11.8895
鬱邑余侘傺兮	-11.8896
子曰渤海之東有	-11.8896
不諦也淮南云若士曰我游乎	-11.8896
濛之光此其下無地而上	-11.8896
竊悲夫蕙華之曽敷兮	-11.8896
西窮冥冥之黨東開鴻	-11.8896
言已思年命欲暮願且假日	-11.8896
之野北息乎	-11.8896
所以證之不逺	-11.8896
窈無聲也補曰	-11.8896
一理如綖者以	-11.8896
世無堯舜及桓文也五臣云言豈無賢才	-11.8896
也以言使賢者	-11.8896
亂也補曰挐女	-11.8896
五臣云瘀病皆	-11.8896
兵之入也死不忘國	-11.8896
副誠近	-11.8896
夏禹指麾取士一國之人悉進之也	-11.8896
子云通天犀有	-11.8896
嶷也五臣云煩	-11.8896
忠直而身放弃心迷意惑不知所	-11.8896
忳徒渾切悶也鬱邑憂	-11.8896
悒不安也	-11.8896
惡草也鞹革也論	-11.8896
曰虎豹之鞹言取澤	-11.8896
東門以觀越	-11.8896
極之浮浮	-11.8896
永歴年而無成	-11.8896
泣於荆山之下悲極血出	-11.8896
淆	-11.8896
溢積漸也罷	-11.8896
潔之行身服仁	-11.8896
玉之璞而獻之楚厲王或	-11.8896
璧以繼	-11.8896
登天庭也補曰淮南云	-11.8896
神契云神靈滋液則	-11.8896
筐滿也澤	-11.8896
築大杵也言破	-11.8896
篤因爲變服悲而	-11.8896
置羣雞中雞欲	-11.8896
聊仿佯而逍遥兮	-11.8896
肌肉空虚皮乾	-11.8896
補曰易以䜴	-11.8896
言我少小	-11.8896
言文公思子推親自割其身恩義尤	-11.8896
邑一作悒一	-11.8896
邪淫之態	-11.8896
雄雌和樂羣戲行也廱一	-11.8896
非是優游大德之	-11.8896
鞹	-11.8896
音朔萷櫂木無	-11.8896
世成敗之道而	-11.8896
主此盛徳兮牽於俗而蕪穢	-11.8896
之士孤焭特獨何	-11.8896
也淮南子曰口辨而	-11.8896
共一爵故言重侯也補曰公侯伯	-11.8896
夏五臣云穾厦重屋補曰穾深也	-11.8896
憑一作慿一作馮五臣云中	-11.8896
我依前代聖賢節度而不得用	-11.8896
擊鳥也月令曰鷹隼蚤	-11.8896
政治也補曰鞹去毛皮也本草澤	-11.8896
曰彿音費	-11.8896
氣也婉於阮切釋	-11.8896
沬注云沬	-11.8896
沬莫貝切	-11.8896
瓠	-11.8896
甘美也災害也言此物	-11.8896
用忠正之人害其善志之故一無也	-11.8896
瘦無潤	-11.8896
皆在顯位復有	-11.8896
相與朋黨並相薦舉忠	-11.8896
而藏之無益於用也以言養育小人置之	-11.8896
而身以親也	-11.8896
臨高山些	-11.8896
誤耳天對云維莞	-11.8896
謇謇有此姱	-11.8896
賦騁辭㠯讃其志則皆列於譜録世世相	-11.8896
采古道於蹇難之	-11.8896
采往古好	-11.8896
鏤綺文朱丹其縁	-11.8896
顔容變易而蒼	-11.8896
顔闔鑿坏而逃	-11.8896
髙堂邃宇	-11.8896
鷙執也謂能執伏	-11.8896
鷙脂利切	-11.8896
㲈之舞啓樂有九辯九歌又山海	-11.8896
上升蒼天	-11.8896
不可至也補曰月令云九門磔攘天子有	-11.8896
不難夫離別兮	-11.8896
不顧一無蕭字一無也字補曰	-11.8896
中國河爾	-11.8896
之以享神者艾即今之灸病者名	-11.8896
之節忠一作知補曰	-11.8896
之行衆人誰有不	-11.8896
也補曰鰅魚恭切鱅以恭切鰅	-11.8896
也言南方太陽有積火	-11.8896
事君而無其路也	-11.8896
介節也言巳能守	-11.8896
以言賢人雖居	-11.8896
但有勞極心	-11.8896
位勢視忠正之人當何如乎甚於	-11.8896
作糟丘酒池長夜之飲斷斮朝	-11.8896
佞媚之行違	-11.8896
傺止也言	-11.8896
刳	-11.8896
剔	-11.8896
占之曰人夢登天無以	-11.8896
又倚天門望而距	-11.8896
古人有言曰狐死正丘首仁也廣志曰	-11.8896
名嬋媛音蟬	-11.8896
后開始歌九招開即啓	-11.8896
吴王闔廬	-11.8896
告我家七月七日待我緱氏山頭果	-11.8896
墟其白水出其東北陬屈向東南流	-11.8896
天文大象賦曰儼閶闔以洞	-11.8896
太一佐曰五帝古者天子以	-11.8896
夷齊於首	-11.8896
孕	-11.8896
屈原姊也嬋媛猶牽引也一作撣	-11.8896
山深林其路險阨又多虎	-11.8896
平曰秦虎狼之國不可信不如無行懐王	-11.8896
幽僻闇昧也言羣臣皆行枉曲	-11.8896
心愁悽而增悲	-11.8896
忱	-11.8896
情而有他志	-11.8896
所用合脂爇	-11.8896
招䰟之具靡	-11.8896
改更先聖法度背違仁義	-11.8896
文也或曰紫莖言荷莖紫色也屏風謂荷	-11.8896
文恙憂	-11.8896
文慧也一曰利也言	-11.8896
方恐遭罪法以	-11.8896
於石而不忍	-11.8896
明使楚國闇昧將	-11.8896
星房星東方之宿蒼龍之體也傅	-11.8896
楚人謂女曰	-11.8896
欺罔戲弄	-11.8896
止沈藏但以秋氣殺物矣皆喻楚之君臣	-11.8896
毒也補曰蜿	-11.8896
求賢不得疾	-11.8896
洞庭中後漢志武陵郡有臨沅縣南臨元	-11.8896
源出牂牁且蘭縣至郡界分	-11.8896
漢有吕須取此	-11.8896
犁牛又鰅魚名	-11.8896
瘤	-11.8896
相如賦云宛雛孔鸞孔孔雀也顔師古曰	-11.8896
相羊無所據依之	-11.8896
相與耳語謀利而	-11.8896
禹所導積	-11.8896
續之用士	-11.8896
羔羊子也胹一作臑釋文作濡	-11.8896
羣衆也贅肬過也言	-11.8896
者以明堯	-11.8896
色光明旦燿	-11.8896
莖紫色風起水動波	-11.8896
蜿虎行	-11.8896
蟒王蛇也騫舉頭	-11.8896
衣不苟而	-11.8896
補曰戰國䇿	-11.8896
視意欲一還知當何時	-11.8896
語謀私	-11.8896
譛	-11.8896
變節而從之者乎疾之甚也五	-11.8896
豹匍匐蜿蜒以候伺人也鰅	-11.8896
貌也言小人在位以其愚心	-11.8896
賢聖雖終精著天也傅	-11.8896
賢臣奔亡使國荒亂而傾危也補曰軛轅	-11.8896
賦鋪也詩志也言	-11.8896
都醜也一曰	-11.8896
野廣大道路	-11.8896
鍼也天對注云百兩	-11.8896
閶闔天門也言	-11.8896
雖有執轡之御猶不能制必摧車軛而折	-11.8896
馬被刃創也補曰	-11.8896
馳騖至於暮夜乃	-11.8896
鱅短狐類也短狐鬼蜮	-11.8896
鳥獸猶知懷德兮	-11.8896
鶴靈鳥也以喻潔白之士	-11.8896
不可整理也班一作	-11.8896
乃醖釀醇	-11.8896
之行不懈怠也緤一作絏	-11.8896
乘騏驥而馳騁兮	-11.8896
也嬋媛一作	-11.8896
也淮南子曰造父	-11.8896
也無行媒	-11.8896
也言巫執事肅敬奉迎導引	-11.8896
二畝曰畹或曰田之長	-11.8896
五臣云代衰	-11.8896
五臣云滋益也釋	-11.8896
休庇也以言	-11.8896
作陳按一	-11.8896
佩服莫不盛	-11.8896
使捐於大江乃發憤馳騰氣若奔	-11.8896
倦也糳一作鑿補曰左傳曰粢食不鑿鑿	-11.8896
其色精明内	-11.8896
列偶並進技巧	-11.8896
古語云春	-11.8896
名與日月同耀一云同	-11.8896
含辭鬱結	-11.8896
坂遷延負轅而不能	-11.8896
執轡如組一無能字補曰組	-11.8896
士而用舉肥美者不言其才	-11.8896
妖玩好女也	-11.8896
子兖切臛	-11.8896
寇	-11.8896
實微霜夜	-11.8896
巳見縣圃下緤音薛	-11.8896
彼雖富貴我	-11.8896
後雖有聖我	-11.8896
心覺自傷又痛	-11.8896
忠正之行少	-11.8896
慜痛也鞠窮也言	-11.8896
撰猶博也五臣云言我能撰深	-11.8896
時闇惑也	-11.8896
曲也一本句末有兮字五	-11.8896
曲名也言伏戲氏作	-11.8896
柎	-11.8896
機神圖也其星隱	-11.8896
正補曰說文曰撥治	-11.8896
歸在於良	-11.8896
泭楚人曰柎秦	-11.8896
溷濁無相知者顧	-11.8896
災也又曰太一一	-11.8896
瑕	-11.8896
瑟造駕辯之曲楚人因之作勞商	-11.8896
申徒狄也遇闇君遁	-11.8896
矜莊形體連	-11.8896
稱所以知	-11.8896
綬屬列女傳曰詩云執轡	-11.8896
繫也言巳見中國溷	-11.8896
罪過而身殆也自前世	-11.8896
美加之忠信貞潔而遭	-11.8896
者太一之居	-11.8896
者曰太一天	-11.8896
臣云言我冠	-11.8896
舜禹湯文	-11.8896
若是詩則可	-11.8896
莊子云御六氣之辨李云平旦	-11.8896
蔽闇無有知	-11.8896
補曰國語云楚	-11.8896
言倕不以斤斧斲斫	-11.8896
言登崑崙以望四方無所適從	-11.8896
言秋時百草	-11.8896
誠信甚著	-11.8896
謂聖明之王	-11.8896
賢然猶髙行抗志終不	-11.8896
身不見也一	-11.8896
輿中塗以回畔兮駟馬驚而	-11.8896
遭伯樂仰而鳴之知伯樂之知	-11.8896
選士必於郷射	-11.8896
醉飽則	-11.8896
重糳蘭蕙和糅衆芳以	-11.8896
閬音郎又音浪道書云	-11.8896
面著赤色而鮮好也	-11.8896
馬以喻賢臣也言君	-11.8896
驂如舞孔子曰信	-11.8896
魂識路之營營何靈魂之信直兮	-11.8896
鳥赤羽者曰	-11.8896
􁨋	-11.8896
橑	-11.8897
䘳	-11.8898
偶尚哀鳴相求以	-11.8898
整	-11.8898
瓦礫進	-11.8898
云列缺曄其照夜應劭	-11.8898
天隙電	-11.8898
注云列缺天閃也文選	-11.8898
淪幽虚也嶸一作巆	-11.8898
百里大人賦云貫列缺之倒影	-11.8898
視海廣狹補曰列	-11.8898
茄	-11.8898
䊸	-11.8898
一云譬彼雲龍	-11.8898
不由階次之人非惡罷	-11.8898
以爲介推田也逸	-11.8898
入太隂之	-11.8898
大渾之樸而立至清	-11.8898
失其志也一作駭	-11.8898
子歌龍蛇而文君垂泣也封介山而爲之	-11.8898
年亦老暮亦思還返故	-11.8898
所爲無可也	-11.8898
文作箓音録補曰集韻並音	-11.8898
旖旎盛貌詩云旖旎	-11.8898
獻雞駭之犀夜光之璧於秦援	-11.8898
與道并也補曰列子曰太	-11.8898
蔽其美質失其性也以言	-11.8898
被服盛飾於	-11.8898
角置於筐簏而不帶佩	-11.8898
賢智之士於山林之中亦	-11.8898
鹿竹髙篋也戰國䇿楚	-11.8898
則居家之道	-11.8898
國也終曰與太	-11.8898
必先升用傑俊之士壓抑無	-11.8898
文云有餘賈利	-11.8898
枝柯長而殺者櫹音蕭槮音森櫹槮	-11.8898
能用也御謂御馬者補曰古者車	-11.8898
萷音梢萷蔘木枝竦也釋文文選	-11.8898
言楚國境界徑路交接方千	-11.8898
駕四馬御之	-11.8898
一作三補曰參蘇甘切	-11.8898
一作汙補曰漸子	-11.8898
上無所考此盛徳兮	-11.8898
丘光庭	-11.8898
之楣皆刻	-11.8898
也文選作蹇五臣	-11.8898
云八龍八	-11.8898
云於我乎夏屋渠渠厦	-11.8898
五臣云又刻鏤	-11.8898
五臭疇生蓮與	-11.8898
以萬數故以	-11.8898
休九諷	-11.8898
侍君之閒些	-11.8898
出國門而軫懐兮	-11.8898
同也言齊驅並	-11.8898
執躬圭故言三圭也重侯謂子男也	-11.8898
塞補曰閒一音	-11.8898
好脩直節獨	-11.8898
如牛也參	-11.8898
如虎而有三目身又肥大狀	-11.8898
婉婉龍	-11.8898
寳失其好也以言取賢	-11.8898
康回慿怒	-11.8898
心中自恃冀得竭忠而徑	-11.8898
志意遷移	-11.8898
惟魂是索些	-11.8898
憤懣悁悒而怒則	-11.8898
放斥山野發聲	-11.8898
於知人麾	-11.8898
有懈巳之時也	-11.8898
此焭獨言世俗之人	-11.8898
氣不應曰	-11.8898
淫曀闇昧也詩云不日有曀言已思	-11.8898
潘	-11.8898
然而痛不能置中正而行	-11.8898
甲之鼂吾以行	-11.8898
異之節不與衆同而見憎惡	-11.8898
發泄天	-11.8898
直者以上	-11.8898
禹聖王明	-11.8898
秦篝齊縷	-11.8898
築杵而舂敗玉	-11.8898
網户朱	-11.8898
而唫其音哀哀	-11.8898
至太卜之家稽問神明決之蓍龜卜	-11.8898
舉手也言忠直之人	-11.8898
苻之澤是也以莆	-11.8898
路闇昧遂以壅	-11.8898
身體燋枯	-11.8898
進意中懭悢心	-11.8898
選云橚	-11.8898
釋文藏作臧音藏五臣云坎	-11.8898
雕鏤連木使之方好也	-11.8898
音閑曀於計切	-11.8898
願承閒而自恃兮徑淫曀而道	-11.8898
風俗尚不肯	-11.8898
餘賢俊以	-11.8898
髙飛兮安翔	-11.8898
鼇大龜也	-11.8898
鼇戴山抃何以安之	-11.8898
上訴天帝使閽人開	-11.8898
上謂君也浸稍也言佞人	-11.8898
不畢備故	-11.8898
不空食禄而	-11.8898
之俗流行相從誰能不變節	-11.8898
之名矣當其決入之所土謂之賭口焉鄭	-11.8898
之後信有忠直美	-11.8898
之志又欲援引	-11.8898
之義斑然散亂而不可	-11.8898
之飾侍君堂隅	-11.8898
乍離乍合上下	-11.8898
九天東方皡天	-11.8898
九辯云圜鑿而方枘兮吾固知	-11.8898
也五臣云憭慄	-11.8898
也以諷其君迷不	-11.8898
也曾一作增	-11.8898
也紂惑妲	-11.8898
也菀一作苑補曰菀音	-11.8898
也言復有鰅鱅鬼	-11.8898
云發殺曷逞寒民于	-11.8898
云積羽沈舟羣輕折軸累釋文力瑞	-11.8898
云閽常以昏閉門	-11.8898
五臣云切雲冠名補	-11.8898
五谿又零陵郡	-11.8898
以自約束修善不怠也支一作枝洲一	-11.8898
伴俱也㢮	-11.8898
位而行淫慢佞	-11.8898
作儃補曰低佪疑	-11.8898
使之乎淮南言	-11.8898
使我不得入也	-11.8898
侍從之人皆衣	-11.8898
俛也補曰軒曲輈	-11.8898
偷一作愉補	-11.8898
億不信待其不可用然後弃之	-11.8898
兩藩正南開如門象者名閶闔門淮南	-11.8898
六氣也含	-11.8898
六龍以上下	-11.8898
其鉏鋙而	-11.8898
出不忘本行則思歸物之	-11.8898
分守節不隨	-11.8898
分布列前後	-11.8898
千里一曲直淮南曰河出崑崙貫渤海入	-11.8898
卒太子王僚立闔廬諸樊之	-11.8898
去其所謂吉乃吾所謂凶也此卜居所以	-11.8898
及羮詩云誰謂荼苦其甘如薺又曰	-11.8898
君心内距閉而意不開敏	-11.8898
君知淺短無	-11.8898
吾令鴆	-11.8898
周流覽於四海兮志升降以	-11.8898
天地之間以泄憤懣	-11.8898
夷齊所居此山是矣	-11.8898
好夫鴆之不可	-11.8898
始釋羌義疑此二句後人所増	-11.8898
媒審矣屈原何	-11.8898
少女建疵注云姊	-11.8898
屈原放逐竄伏其域懐憂苦毒愁思	-11.8898
山徐顧睨也輿一作與	-11.8898
山澤草木莫不茂盛	-11.8898
嵬之冠其髙切	-11.8898
已心也一本句末有也字	-11.8898
引本草云薺味甘人取其	-11.8898
從不賢之	-11.8898
志剛厲特處不羣以言忠正之士亦執	-11.8898
忠謀可以安國利民反信	-11.8898
念其居也低一作俳一	-11.8898
怙恃能實任	-11.8898
悽愴也補曰憭	-11.8898
愁歎苦神靈遥思兮	-11.8898
意欲變節	-11.8898
愚狂惑	-11.8898
應天河山海經云崑崙山有	-11.8898
成之臺淮南子曰有娀在不周之北長女	-11.8898
或曰哀泣之聲也	-11.8898
扶桑上而升天則俳佪太息顧	-11.8898
指彭咸以	-11.8898
旌旗委蛇而	-11.8898
族厲注	-11.8898
日知晏隂諧知雨	-11.8898
明智之士佯愚者	-11.8898
易位言君	-11.8898
曰野言屈原少	-11.8898
曲沃歸胙於	-11.8898
曾歔欷余鬱邑兮	-11.8898
有始而無終也	-11.8898
望之不得到舉手謝時人數日去淮南云	-11.8898
枝葉枯槁也自傷	-11.8898
梅伯是也菹一作	-11.8898
楚大夫處蘭	-11.8898
欲妄行周比茍容自入	-11.8898
欲競之也悐一作逖補曰悐它	-11.8898
此章言小人之盛君子所憂	-11.8898
此言荼苦而薺甘不同	-11.8898
死之後精神強壯魂魄武毅長	-11.8898
殪壹計切驂見	-11.8898
氣也并天地	-11.8898
水蹈波乃	-11.8898
河白河赤河黒河環	-11.8898
注云二國善	-11.8898
注至下文羌内	-11.8898
淪天門注云閶闔始升天之門也天門	-11.8898
滄浪漁父所歌也因此言之水應由	-11.8898
炙調齊和之適以窮荆吳甘酸之變	-11.8898
然光華也陁一作陀補曰	-11.8898
爾雅云蒫薺實	-11.8898
玩以侮	-11.8898
甚醜姣妖媚	-11.8898
用其語作拜	-11.8898
用羣小之言則	-11.8898
登高吾不說兮	-11.8898
白鵠住山	-11.8898
皇補曰漢書郊祀志云天神貴	-11.8898
眇之節不用於	-11.8898
空桑山名也	-11.8898
章明也言楚國有美善之	-11.8898
縠	-11.8898
而蒙世俗之塵埃乎	-11.8898
耳九章曰昔君與我誠	-11.8898
耳堯之用鯀是	-11.8898
聊逍遙以自恃	-11.8898
腫	-11.8898
萎枯故自傷悲涕泣俱下	-11.8898
葉則上文巳言緑	-11.8898
蕭艾而巳以言往日明智之士今皆佯	-11.8898
藩車也輬音	-11.8898
藿皆字之	-11.8898
虎嘯而谷風至	-11.8898
虎豹之文異	-11.8898
蜮射傷害人	-11.8898
衆樂並㑹	-11.8898
被明月之珠	-11.8898
言今謂之夏水劉澄之著永初山川記云	-11.8898
言復有水葵生於池中其	-11.8898
語注以蒲坂	-11.8898
謂侍從於君遊陂池之中赫	-11.8898
讒惡佞將	-11.8898
軒輬皆輕車名也低屯也	-11.8898
適之補曰越	-11.8898
都邑衆多人	-11.8898
閽主門者也	-11.8898
陂陁長陛也言	-11.8898
陂音頗陀音駞不	-11.8898
階陛也或曰侍陂池	-11.8898
難入夫邪佞在前而	-11.8898
音藍又云煎熬焚	-11.8898
類小人之有智者君子不逆	-11.8898
馬終不反顧示	-11.8898
馬雖死傷更霾車兩輪絆四	-11.8898
騎羅列也言	-11.8898
驥垂兩耳	-11.8898
龍舉而景雲	-11.8898
一作崐崘食一作飡五臣云	-11.8898
下而殺之使不得	-11.8898
之冰上然後飲之酒寒涼	-11.8898
之圜也以象	-11.8898
之極浦江之逺碕	-11.8898
之歌皆要妙之音可	-11.8898
九天八方中央也	-11.8898
也圃園也言已	-11.8898
以思賢人補曰撰述也定也	-11.8898
以治天下也	-11.8898
任也五臣云虬螭皆龍	-11.8898
作慄斯一作嘶一作促訾	-11.8898
又云足蹀陽阿之舞注云陽阿古之名倡	-11.8898
又長味好飲也補曰酎直又	-11.8898
周如削	-11.8898
圃玉英皆美言之	-11.8898
國䇿云昔騏驥駕鹽車上	-11.8898
墉城面方	-11.8898
天地相敝	-11.8898
居於山澤猶	-11.8898
屯車繫馬而留止也白水	-11.8898
峻也慘一作	-11.8898
帝之平圃	-11.8898
復徐惟念河	-11.8898
恒常也幹體也易曰	-11.8898
惆悵歎息而忘	-11.8898
想侍虞舜遊玉	-11.8898
戈㦸也甲鎧也言國殤始從	-11.8898
戲樂光彩	-11.8898
承顔色	-11.8898
按徐敶一	-11.8898
文謂綺繡也	-11.8898
方之寒地凍厚六尺北	-11.8898
施其智能也史記没作殁焉上有將字補	-11.8898
曰爾雅西北之美者有崐崘	-11.8898
朱赤也酡著也言	-11.8898
東去繫六龍於扶桑	-11.8898
杳㝠㝠兮	-11.8898
沒而危殆也	-11.8898
泭	-11.8898
泭一作柎補曰汜音泛泭	-11.8898
淨閬風清明言	-11.8898
渡大江南入湖	-11.8898
澤失其所也菱一作䔖文選作陽荷注云	-11.8898
濁則欲渡白水登神山	-11.8898
然昭明無	-11.8898
猶復顧念楚國無有賢臣心	-11.8898
猶言坐明	-11.8898
玕金玉實惟	-11.8898
留不死之舊郷	-11.8898
石次玉也補曰山	-11.8898
竹心空屈原自喻志通	-11.8898
糟但取清醇居	-11.8898
終不得展	-11.8898
羽者曰翠周禮曰	-11.8898
與女逰兮	-11.8898
舟汜船而渉渡也編竹木曰	-11.8898
菊各一時	-11.8898
萬里厚百丈尸子曰朔	-11.8898
虎陽物	-11.8898
蜷神則歡喜必留而止見其光容爛	-11.8898
行亟疾也一本云	-11.8898
補曰鑿音造	-11.8898
觀萬物始生皆出於仁	-11.8898
言䰟靈當扶人	-11.8898
言司命乃陞	-11.8898
言殊飾也旍一作旌一	-11.8898
談	-11.8898
謝去也巫陽言如必欲先筮問	-11.8898
貪亂遭君	-11.8898
質性謹厚	-11.8898
遇聖帝升清朝也遊一作游	-11.8898
醜惡也言橘類紛緼而盛如人	-11.8898
采取菱芰發揚荷葉喻屈原背去	-11.8898
陽氣也言虎悲嘯而吟則谷風至	-11.8898
雜糅言其外	-11.8898
韁	-11.8898
類補曰虬見騷經螭	-11.8898
飛雪千里些	-11.8898
鳥遟國	-11.8898
龍介虫隂物也景雲大雲而有光者雲	-11.8898
之傷人補	-11.8899
於證切漢樂	-11.8899
經云列缺去地一千四	-11.8899
與缺同陵陽子明	-11.8899
以食文公	-11.8899
使人召之則亡遂求其所在聞其入緜上	-11.8899
公後背之子推怒而去抱木而燔死	-11.8899
公環緜上山中而封之以爲介推田號曰	-11.8899
室未圖	-11.8899
一佩易之漸浸也管子云五沃之土	-11.8899
也罷駑也言楚國選舉	-11.8899
也陛階次也壓	-11.8899
云都大也房花	-11.8899
切列子曰帝馮怒	-11.8899
卜居章句第六	-11.8899
厭陛一作階	-11.8899
天德明只	-11.8899
居以畢其志至	-11.8899
文選作猗柅上音倚下女綺切五臣	-11.8899
有如此也旖一	-11.8899
游天地之間以泄憤懣卒從彭咸之所	-11.8899
禁絶苛刻	-11.8899
章獨不然初曰長太息而	-11.8899
竹器也言積漬衆	-11.8899
粉白黛黒施芳澤只	-11.8899
芳於汙泥臭井之中	-11.8899
追曲者枉	-11.8899
三圭謂公侯伯也公執桓圭侯執信圭	-11.8899
之所明者與	-11.8899
之行補曰博謇	-11.8899
也補曰書云東漸	-11.8899
事君反見邪惡之人相	-11.8899
人御迎也言巳	-11.8899
何須臾而忘反	-11.8899
冇	-11.8899
冥太隂之	-11.8899
切荀子云蘭	-11.8899
又遇佞人	-11.8899
名字斷絶	-11.8899
姓字斷絶形體没	-11.8899
往求同志之士欲與俱共	-11.8899
必死也霾一作	-11.8899
所遇同故	-11.8899
擊手曰抃	-11.8899
朕幼清以	-11.8899
槀本漸於蜜醴	-11.8899
相帥來迎欲使我變節以	-11.8899
神主刑殺也言	-11.8899
穾複室也厦大屋也詩	-11.8899
與屯聚謀欲離	-11.8899
芷葺兮荷屋繚之兮杜蘅	-11.8899
蘪蕪藁本白芷本草云	-11.8899
鋪陳其志以自證明也補曰古詩	-11.8899
隂堂其内寒涼	-11.8899
隨之也帥一作率	-11.8899
雕題黒齒	-11.8899
雖見放逐猶折香	-11.8899
雚一作莆藿補曰詩云維秬	-11.8899
静閒安些	-11.8899
韓楚之間謂之	-11.8899
黍禾屬而黏也莆疑即蒲字蒲水草可	-11.8899
一本有此二句王逸無	-11.8899
下也補曰并並也	-11.8899
之浩樂結激楚之遺風注云結激	-11.8899
之英千人	-11.8899
乎乃知鮌惡長滿天	-11.8899
九德之歌九	-11.8899
也史記夏商之君皆	-11.8899
也斯論似過其眞又	-11.8899
也比翼猶比肩也補	-11.8899
也脩長也盈滿也由用也言堯	-11.8899
云苦菜生於寒秋經冬	-11.8899
云蕭瑟秋風	-11.8899
五榖吸道滋	-11.8899
以全命避害不受	-11.8899
以列於篇後者亦	-11.8899
以失家巷謂五子胥也	-11.8899
似菊堪食	-11.8899
但苦耳又	-11.8899
作若若一作苦補曰荼音徒爾雅荼	-11.8899
來一作倈五臣云言神	-11.8899
促去若頽下	-11.8899
促急風	-11.8899
俱生以言忠佞亦不同	-11.8899
倐忽往來終不可逢以喻	-11.8899
傅說之託辰星兮	-11.8899
傳以國風好色而不淫小雅	-11.8899
儇佞也媚愛也背違也言已	-11.8899
其華芰菱雜錯羅	-11.8899
刺王僚	-11.8899
劉杳草木蟲魚	-11.8899
化覆冒	-11.8899
千人才爲俊一國髙爲傑也史記云	-11.8899
南曰揚鄭	-11.8899
卜居漁父皆假設問	-11.8899
去君而不仕得無謂	-11.8899
及至羿澆少康	-11.8899
周道而不傷蘧瑗持可	-11.8899
周靈王太子晉也好吹笙作	-11.8899
呼而出故吸而求新蹀虚輕舉	-11.8899
哲以保其	-11.8899
啄糠糟也五臣云雞	-11.8899
固然非獨於今比干伯	-11.8899
圜鑿受方枘而能合者誰有異道而相安	-11.8899
塵埃之外皭然泥而不滓	-11.8899
夏口是夏水之苔江之汜也所謂過夏首	-11.8899
夢卒太子諸樊立諸樊卒傳弟餘祭	-11.8899
夫而有天下者舜禹是	-11.8899
夷是也李善	-11.8899
如愚之性咸	-11.8899
如羊腸今	-11.8899
姚有娀佚女	-11.8899
娀音嵩李善引吕氏春秋曰有娀氏有二	-11.8899
媵臣後乃以	-11.8899
子十月而	-11.8899
孰云察余之中情	-11.8899
安叙離騷	-11.8899
害至於荃蕙	-11.8899
尊神祠在楚東以配東	-11.8899
尚之也補曰登立	-11.8899
就顓頊而敶詞兮考	-11.8899
尸主也集	-11.8899
居濁溷之世	-11.8899
屯余車其千乗兮	-11.8899
山野滿三年矣	-11.8899
帝故云東	-11.8899
年且老也古者	-11.8899
彼君子兮不素餐兮謂	-11.8899
忍去蔽於讒	-11.8899
志也湣一作涽一無乎字一云	-11.8899
思念暴戾心自傷	-11.8899
恐懼則心懸結詰屈而不可	-11.8899
恕已以量人	-11.8899
悁悒而不能乆忍也補	-11.8899
悒音邑憂也不安也天對	-11.8899
患故大雅曰	-11.8899
悱而不亂若離騷者可	-11.8899
憂國念君	-11.8899
懟不容沈江而死亦貶絜狂狷景行之士	-11.8899
推此志雖與日月爭光可	-11.8899
援神契云	-11.8899
敗法度而自傾危也原一	-11.8899
文云閶天門也闔門扇也	-11.8899
斗旁列子曰	-11.8899
斯庸夫惡態之人也何者	-11.8899
春得夏乃成	-11.8899
曠官也詩云	-11.8899
曰時人莫有好自	-11.8899
有文章也	-11.8899
服香淨往	-11.8899
朝而俱用也薺一	-11.8899
東門遥望首陽岑下有採薇士上有嘉樹	-11.8899
楚人名門曰	-11.8899
此章言已雖被放心在楚國徘	-11.8899
歩爲畝言枯草荼薺不同畝而	-11.8899
死而不變者楚國一人而	-11.8899
沖天區也亢	-11.8899
河東蒲坂華山之北河曲之中蘇鶚演	-11.8899
激導川水徑過園	-11.8899
濁穢之中浮游	-11.8899
爾雅水注谿	-11.8899
王怨惡椒蘭愁神苦思	-11.8899
生男起巳至寅	-11.8899
疑桀補曰淮南云知過萬人謂	-11.8899
疾暴也五臣	-11.8899
皆各以所識有所増	-11.8899
盛香之囊以喻親近言子椒	-11.8899
睹有娀氏美女思得與共事君也佚釋文	-11.8899
祭卒傳弟夷未夷	-11.8899
稱帝天對云惟德登帝帥以	-11.8899
竊不敢忘初之厚德	-11.8899
競乎危國	-11.8899
終没以來名儒博	-11.8899
縱不能知賢愚	-11.8899
翡翠之羽	-11.8899
而奔驚也	-11.8899
聊逍遥以自	-11.8899
聞之而來	-11.8899
聲也言吹竽	-11.8899
自知爲讒	-11.8899
舞賦云激楚結風陽阿之舞五臣云激急	-11.8899
芰菱也秦人謂之薢茩言池水之	-11.8899
菜秀是也葉似苦苣而細花	-11.8899
補曰易噬嗑	-11.8899
言多使君亂惑也補曰鑠書藥切鄒陽曰	-11.8899
言屈原書壁所問略訖日暮	-11.8899
言巳思望司命而	-11.8899
言武王發欲誅殷紂何所	-11.8899
言禹平水土民得並種五榖	-11.8899
謂之俊百人	-11.8899
讒佞賊害人也	-11.8899
貴矣今若屈原露才揚	-11.8899
身之賤貧	-11.8899
軄	-11.8899
通反復其流急疾又潔	-11.8899
邪當若伯夷餓於首陽而身垂功名也補	-11.8899
都紫微鈞天	-11.8899
鑠銷也言衆口所論萬	-11.8899
長嘯大呼以招君也夫嘯者隂也呼	-11.8899
間以離讒賊然責數	-11.8899
隕零肥潤去也	-11.8899
雷首山伯夷叔齊所居故云首陽山又隴	-11.8899
靜以恬愉兮	-11.8899
頭而望其狀騫然也補曰	-11.8899
饒也家一	-11.8899
鳯皇在笯兮	-11.8899
鴆運日也羽有毒可殺人以喻	-11.8899
龜策誠不能知事	-11.8899
一作命補曰海若莊	-11.8899
下有回屋仙人九府所治又一	-11.8899
不得休息也爢一作靡釋文	-11.8899
中記云湘	-11.8899
之歌九韶之舞而	-11.8899
也乎一作於補曰便平聲	-11.8899
也止制也言	-11.8899
也象罔象也皆水中神	-11.8899
乾釀提去其	-11.8899
事之幹五臣曰	-11.8899
五嶽者中嶽	-11.8899
五臣又云啓開也言禹開樹此樂謬矣	-11.8899
亦爛然有文章也補	-11.8899
人晨夜毀	-11.8899
人見利悐	-11.8899
伯而用之當未遇之時故無匹偶而與相	-11.8899
作麋非是補曰爢靡	-11.8899
假至也書曰假于上下蘭芳以喻賢	-11.8899
備行度清白也珮一作佩五臣云被猶	-11.8899
僣	-11.8899
入天所謂天柱也圍三	-11.8899
其枘則物不固而木破矣臣不度君賢愚	-11.8899
冀過不成得免	-11.8899
利之劒戴崔	-11.8899
則中心覺寤	-11.8899
區瀛逺望平	-11.8899
千里城上安金臺五所玉樓十二	-11.8899
周一作同一云方	-11.8899
味無所不具也	-11.8899
和者必先始於陽阿采菱注云陽阿采菱	-11.8899
善云凍冷也補	-11.8899
固也鴻一作洪愈一作	-11.8899
國故言氣盛也	-11.8899
天漢樂歌曰	-11.8899
太公吕尚年九十而窮	-11.8899
夷水仙人淮南言	-11.8899
子椒不見	-11.8899
山曰閶闔之門北方	-11.8899
巳屯止歩騎士衆	-11.8899
序而可歌也左氏傳曰六	-11.8899
府三事謂之九功九功之	-11.8899
心志無有過失	-11.8899
思子椒不能用	-11.8899
恐不能自全也	-11.8899
悐悐欲利	-11.8899
悲哉秋之爲氣也	-11.8899
愁思心中鬱結	-11.8899
成熟也以言	-11.8899
我也覽一	-11.8899
房心尾	-11.8899
所謂感而後	-11.8899
放流而獨不	-11.8899
故逺聞而難虧	-11.8899
文曰糲米一	-11.8899
斫也劉殺也作	-11.8899
旦明也濟渡也	-11.8899
明月之珠不能無纇注云	-11.8899
暮夜也次	-11.8899
曰崔音摧嵬	-11.8899
曰橘實初	-11.8899
曰颯蘇合切捜捜動	-11.8899
有車轔轔也釋	-11.8899
服也明月珠	-11.8899
楚人歌曲也言	-11.8899
樹種也二百四十	-11.8899
欲須賢君年齒	-11.8899
此而成文於彼	-11.8899
水之出於陽朔則觴	-11.8899
求䰟魄所在	-11.8899
汝共工莊子曰工倕旋而蓋規矩	-11.8899
江水之潭被	-11.8899
池澤其中	-11.8899
渉四逺也補曰天台賦云覩靈驗而遂徂	-11.8899
湘水出水經云沅水下注洞庭方	-11.8899
無有制止之者也以言	-11.8899
無絶於終	-11.8899
爚鶉鷃敶列衆	-11.8899
田三十畝曰	-11.8899
相離故曰渾淪又曰一者形變之始也	-11.8899
籬言所造	-11.8899
精著於房尾也補曰大火謂之大辰大辰	-11.8899
而後動不得	-11.8899
而復愁思也補曰惟思也極	-11.8899
而茂盛自恨	-11.8899
舞九韶	-11.8899
芬芳長相繼	-11.8899
著倕使銜其指說文云斲	-11.8899
行從廣千里又無舟航也從廣一作縱	-11.8899
行身雖爢碎尚	-11.8899
補曰盛多也言所任	-11.8899
補曰莊子曰獨有	-11.8899
見信用而身放	-11.8899
言乃奏樂作音而撞	-11.8899
言已放弃以明	-11.8899
言秋氣起則西風急疾而害生物使百	-11.8899
言遂貫出澒濛之氣而	-11.8899
謐	-11.8899
賢使國若此但使我	-11.8899
車敗馬奔	-11.8899
車結桂枝	-11.8899
輔舜禹以致太平奏九	-11.8899
輕重量所	-11.8899
逸豫也螭龍類	-11.8899
遂以危殆也五臣云君謂東皇也	-11.8899
遂往也初始也言往	-11.8899
酎醇酒也言盛夏則	-11.8899
鎔	-11.8899
長好之竹生於	-11.8899
閶闔文選注云閶闔天門也王者因	-11.8899
飾形容盡好無有醜惡也補曰紛音墳緼	-11.8899
騷經天問多	-11.8899
驪結駟兮	-11.8899
體而逺之四	-11.8899
𥜗	-11.8901
情本心也言	-11.8901
戇	-11.8901
狐死必首丘兮夫人孰能不反其	-11.8901
狐狸之死猶嚮	-11.8901
言乃復舒展	-11.8901
間隙補曰缺	-11.8901
乃懸書	-11.8901
何曽華之無實兮	-11.8901
傺丑利切又上	-11.8901
初有无无有无名按	-11.8901
句絶誤矣侘敕加	-11.8901
子推推亦不言禄禄亦不及介子推從者	-11.8901
文公出見其書曰此介子推也吾方憂王	-11.8901
未至隱者介	-11.8901
死以報其	-11.8901
蠧	-11.8901
靨輔竒牙宜笑嘕只	-11.8901
騷經九章皆託	-11.8901
鳳皇在笯兮	-11.8901
㫖旦夕在於君前而使忠賢之士	-11.8901
中其餘陽氣猶尚焱焱而顧欲	-11.8901
也言風揄揚水流隕	-11.8901
作志懭一作	-11.8901
冥之中山阜	-11.8901
恐懼吞聲小語消滅	-11.8901
房也喻君初好善布	-11.8901
放在屮野處於深林冥	-11.8901
晃切悢音朗	-11.8901
普愛衆	-11.8901
望之無人但見鳥獸	-11.8901
柚皮味甘	-11.8901
欲卑身下體以順風俗心	-11.8901
欲卑身而下體兮心	-11.8901
芎藭小别以其根上苗下似禾	-11.8901
言堯舜聖明今	-11.8901
譽然尚	-11.8901
賢人放竄弃	-11.8901
錯者反常而妄作背繩墨以	-11.8901
隨流而行水	-11.8901
音晃水深廣	-11.8901
風俗隨衆俛仰	-11.8901
體溶溶而東	-11.8901
上下並行遊戲	-11.8901
之中復有螭龍神獸隨流	-11.8901
之志挫我矜嚴忠直	-11.8901
也集韻云魯頌楚詞	-11.8901
二物乎抑亦以左傳國語不同兼	-11.8901
何夀夭兮在予	-11.8901
佞害已使	-11.8901
佞將逢殃咎	-11.8901
傷離散之交亂兮遂側身而	-11.8901
其狀悠悠可	-11.8901
内弗省察	-11.8901
列仙傳曰有巨靈之	-11.8901
名也營耕也言	-11.8901
咸皆也秬黍黒黍也雚草	-11.8901
土萬民皆得耕種黒黍於雚蒲	-11.8901
地志云其夷足大指	-11.8901
執忠誠而見貶黜腸中	-11.8901
奴走横奔也一作駒	-11.8901
子椒子蘭變志若此	-11.8901
居朝堂也補	-11.8901
常法身必傾危而	-11.8901
後漢書云其俗男女	-11.8901
愚而不言也漠一作嗼一作寞五臣云寂	-11.8901
扶揺羊	-11.8901
揭車與江離	-11.8901
摧挫也矜嚴也凝止也汜濫猶沈浮也	-11.8901
撚支香草也言	-11.8901
明耀靈東君日也張平子云耀靈忽其西	-11.8901
朝廷衆臣而不	-11.8901
爾秬音巨	-11.8901
用仁義之行	-11.8901
皆得中補曰若猶及也	-11.8901
禹平治水	-11.8901
維秠爾雅曰秬黒	-11.8901
罔五臣云織網於	-11.8901
而浴故曰交阯阯與趾同	-11.8901
與房漿	-11.8901
舒寫忠誠	-11.8901
讀若褰謂摳衣	-11.8901
連集韻作槤門持	-11.8901
隱詩云直是滅雚莆與圖同韻雚薍也音	-11.8901
雖憂愁猶采	-11.8901
震電西方少隂其神蓐	-11.8901
非好善之主故賢才	-11.8901
韻淮南曰荆吳芬馨以嚂其口嚂	-11.8901
題交趾注云交趾足相	-11.8901
駣五臣云言見君	-11.8901
黍秠一稃二米秠亦黒黍但中米異	-11.8901
䰟隂主魄故必	-11.8901
上而直歸	-11.8901
不可開寤語以政道尚不别繒	-11.8901
不震動驚駭復作激楚之	-11.8901
丘公接上嵩	-11.8901
並讀作側聲司馬温公云約賦但	-11.8901
中持倚之也五	-11.8901
乃就聖帝顓頊敶列	-11.8901
之山有鳥焉其狀如	-11.8901
之數道之綱紀也五臣	-11.8901
之芬芳而益暢茂也五	-11.8901
也升一作陞	-11.8901
也又云又東至江夏雲杜縣入	-11.8901
也崇充也言天雨霽日	-11.8901
也箟竹也一	-11.8901
也翹羽也五臣云以砥石	-11.8901
也譅者難也譅一	-11.8901
事遭值懷王闇不	-11.8901
二十仞大三十圍以琳琅	-11.8901
云九者陽數之極自謂否極取	-11.8901
云若必筮而招之恐後代懈	-11.8901
云騏驥抗軛謂與	-11.8901
云鳩鶻鵃也爾雅云	-11.8901
以寄意耳	-11.8901
以惑亂而	-11.8901
以翠羽相飾之補曰砥音咫礪石也書傳	-11.8901
何得投種五	-11.8901
作侵一作浸兮一	-11.8901
作徑古本作陞	-11.8901
來奄忽難當	-11.8901
來歸還古	-11.8901
來臨疾風而大歌兾神	-11.8901
來飄忽出入不言不辭	-11.8901
俗人羣黨相稱	-11.8901
倐	-11.8901
偓促拘愚之	-11.8901
傑傑一	-11.8901
傳曰南方有鳥其名爲	-11.8901
傳記本文以	-11.8901
其儀表	-11.8901
其字從木郭璞云	-11.8901
其志易徙有	-11.8901
内省審	-11.8901
内距閉而	-11.8901
冒也卒一	-11.8901
切訾音貲哫訾以	-11.8901
切通作蜺文選云雲旗	-11.8901
列而生俱盛茂也或曰倚荷謂	-11.8901
則天下兵起李竒曰旬始氣如雄雞見北	-11.8901
則更與之俱化	-11.8901
則自歌自舞見則	-11.8901
加宻石焉注云以細石磨	-11.8901
去何之乎補曰言欲髙	-11.8901
友俱遊九河	-11.8901
反還也故古也言	-11.8901
取聲律便美非霓	-11.8901
名顯彰也	-11.8901
吳王子孫世盛以伍子胥	-11.8901
吳王闔廬	-11.8901
噂沓補曰囁如	-11.8901
國而衆人俱	-11.8901
地不滿東南	-11.8901
塵也筵席也	-11.8901
塺塵也言	-11.8901
壁曼延相連	-11.8901
大象賦注云	-11.8901
天下大康寧上言鸞皇鸞	-11.8901
天天有九重	-11.8901
奥釋文作隩五臣云言	-11.8901
女起巳至申故男年始寅女年始申	-11.8901
嬋連族親也言屈原與	-11.8901
子之禮後八公與安俱	-11.8901
孟奥音一	-11.8901
守終不敢有過失也一	-11.8901
安切飲歠也音	-11.8901
安歩徐	-11.8901
宋處士諸葛楚	-11.8901
宜急來歸	-11.8901
將顚沛	-11.8901
少弟司馬子蘭也恃	-11.8901
屈原傳劉向新序嵇康	-11.8901
屈原所見祠	-11.8901
屈原承伯庸	-11.8901
屋堂畫蛟龍之文紫貝作	-11.8901
山三十餘年後來於	-11.8901
山鵲而小短尾	-11.8901
帝誰開導而尊	-11.8901
平聲也爾雅蜺	-11.8901
幽處山野而無	-11.8901
庭之内莫	-11.8901
廣志云其鳥大如鴞紫	-11.8901
引易緯	-11.8901
待放三年君命	-11.8901
徑一作俓五臣云徑	-11.8901
得之以相武丁奄有天下	-11.8901
得見五臣云司命初與	-11.8901
從崇山見驩	-11.8901
復修用但招之可也五臣	-11.8901
怠懈必去卜筮之法不能	-11.8901
息也言屈原放在山澤猶傷念君歎息無	-11.8901
愓	-11.8901
憂世之詞唐	-11.8901
憂者自哀生不當	-11.8901
懷信侘傺	-11.8901
所害心中覺寤然不可變	-11.8901
所居卓卓日	-11.8901
所謂讃賢以輔志騁詞以曜	-11.8901
扄	-11.8901
承君歡顔	-11.8901
折疏麻兮瑤華	-11.8901
拂霓又云俯而觀乎雲霓沈約	-11.8901
挂懸也曲瓊	-11.8901
損然猶未得其正也故博采經書	-11.8901
故遠聞而難虧	-11.8901
數千人作	-11.8901
方南極之山曰暑門西方西極之	-11.8901
於糞壤也今曰蘭芷不芳	-11.8901
旦早趨駕於天庭也	-11.8901
是鳥也飲食	-11.8901
曰有娀氏有美女	-11.8901
曰漢始元中黄鵠	-11.8901
曰語訥者	-11.8901
曲之徑欲急至也五臣云轉道於洞庭湖	-11.8901
朋黨成衆君稍	-11.8901
本草鳬葵即莕菜	-11.8901
朱丹也塵承	-11.8901
極之水也又淮南子云東方東極之山曰	-11.8901
歌名矣按九	-11.8901
毒食蛇蝮雄	-11.8901
汜猶汎汎揺動	-11.8901
汝謂司命九河天河也	-11.8901
江夏水名也言	-11.8901
注云應劭曰江别入沔	-11.8901
淮南曰日出湯谷浴	-11.8901
淮南王安好書招致賔	-11.8901
淼南渡之焉如	-11.8901
漠虚静以恬愉兮	-11.8901
然後與之恐後世	-11.8901
物一云列螭象而並	-11.8901
狸結桂與辛夷	-11.8901
王少離散亡放在外乃使專設諸	-11.8901
王逸注九辯云九者陽	-11.8901
班孟堅序云昔在孝武博	-11.8901
瓊枝以續佩守仁行義志彌固也	-11.8901
甚鮮好也文苑作珠宫補	-11.8901
生樹名曰瓊枝	-11.8901
生水中俗名水葵	-11.8901
用山海經而劉勰辨騷以康	-11.8901
申椒其不芳以申椒之	-11.8901
畫八卦	-11.8901
疑之不稍親近而日以	-11.8901
登長陵而四望兮	-11.8901
發遂叙妙思託配仙人與俱遊戲周	-11.8901
皇皇考也覽觀也揆	-11.8901
矣當是時守	-11.8901
矣而君猶	-11.8901
神仙傳曰八公詣門王執	-11.8901
神女周旋侍左右也	-11.8901
神祐反遇隧風大波涌起所	-11.8901
禦禁也言君國之道路	-11.8901
禹不得嗣興民	-11.8901
秋節之悲故託言秋之	-11.8901
稱崑崙冥婚宓妃	-11.8901
竢時風之	-11.8901
端門之赫	-11.8901
節猶行忠直	-11.8901
經入於此矣	-11.8901
罔以喻法言	-11.8901
置也祥善也	-11.8901
羊腸山名補曰戰國䇿注云	-11.8901
而上升也霞謂朝霞赤	-11.8901
而不得故太史	-11.8901
而大歌也浩大也補曰怳敞怳也許	-11.8901
聲以發其音也	-11.8901
自八公之徒咸慕其	-11.8901
至也五臣云以喻望君之使未至臨風	-11.8901
臺而飲食之言	-11.8901
與纁黃以	-11.8901
舉也補曰軛於革切車轅前	-11.8901
荷立生水	-11.8901
萬民登以	-11.8901
葉切嚅如朱切	-11.8901
蕩蕩空無賢人	-11.8901
蘇魏都	-11.8901
處湣湣之濁世兮今安所	-11.8901
虧歇而	-11.8901
虫獸當	-11.8901
蜮短狐也詩云	-11.8901
蜺雲之有色似龍者也	-11.8901
行純美芬芳勃	-11.8901
衣許毅	-11.8901
補曰並所立切集韻作	-11.8901
補曰列仙傳王子喬	-11.8901
補曰列子曰物有	-11.8901
補曰宿音秀	-11.8901
補曰撚音煙相如賦云	-11.8901
補曰邅池戰切文選音陟連切原欲歸而	-11.8901
西南隅謂	-11.8901
覆則其夜氣不足以存夜氣不	-11.8901
見彼王侯	-11.8901
覽古文淮南王	-11.8901
解且君子道窮命矣故潛龍不見是	-11.8901
言令之汋約然小人誠難扶持	-11.8901
言司命以孔雀之翅	-11.8901
言君心常惑而	-11.8901
言屈原枉見放	-11.8901
言已專壹忠	-11.8901
言復以翡翠之羽雕	-11.8901
言我累息而懼鬱邑而	-11.8901
言榮譽流行周遍四極無	-11.8901
言河伯所居以魚鱗	-11.8901
設意與河伯	-11.8901
詞賦莫不擬	-11.8901
詩云肆筵設机言升殿過	-11.8901
諒信也論語曰君子貞而不諒言	-11.8901
謂子産智予	-11.8901
護左都水使者光禄大夫	-11.8901
讀若迓霓五稽五	-11.8901
貴真人之休	-11.8901
賢人也囁嚅或作	-11.8901
賢才齊列也抗	-11.8901
質性忠信不能巧利	-11.8901
趙險塞名山形屈辟狀	-11.8901
趣太一星名天之	-11.8901
足以存則其違	-11.8901
載其歌曰南山矸白石爛生不遭堯與舜	-11.8901
逐其情如	-11.8901
進兮補曰螭丑知切國語曰水之	-11.8901
遊伊洛間道士浮	-11.8901
道路塞也一云閨闥五臣云雖思見君而	-11.8901
遭值文王功冠世也五臣	-11.8901
郊居賦云雌霓連蜷	-11.8901
鄭衞妖玩	-11.8901
開明之門南	-11.8901
閑情欲也補曰此	-11.8901
關梁閉而不通	-11.8901
雲游霧可謂	-11.8901
雲霓惡氣以喻佞	-11.8901
靈衣兮被被	-11.8901
風奮發動揺草木皆令有光充實蘭	-11.8901
風載雲其形	-11.8901
飛雲嵎也	-11.8901
飡吞也七	-11.8901
馮一作慿其一作之何	-11.8901
驂言君選士用	-11.8901
髙士傳或採楚詞莊	-11.8901
鴆直禁切	-11.8901
鶌鳩鶻鵃注云似	-11.8901
黒也言堂上	-11.8901
􁃦	-11.8901
㦎	-11.8901
上烝天使黒色也烝一作	-11.8901
下啓能承先志	-11.8901
不遇其時故假日游	-11.8901
丘楚地名也五臣云女神女喻忠	-11.8901
中其火延	-11.8901
中心愁悶假延日月	-11.8901
之上撫持彗星欲掃除邪	-11.8901
之禮殷勤	-11.8901
之臣虚言浮	-11.8901
乎吾之將行仍羽人於丹丘	-11.8901
乗馬走驟者有處止	-11.8901
也一作㑹晁請盟補曰	-11.8901
也或曰伏戲駕辯皆要妙歌	-11.8901
也注叩大宫則少宫	-11.8901
也淵室也淵文選作泉補曰旋泉絹切唐	-11.8901
也溘一作壒	-11.8901
也鶬鶬鶴也言復	-11.8901
云合焉者三一以統同吁炎吹泠交錯而	-11.8901
人之心而以伐桀誰使	-11.8901
以别多少補曰	-11.8901
以甲子日膠鬲還報紂㑹天	-11.8901
以能屈案心志含	-11.8901
以言君求仁	-11.8901
但甘處巖穴之中而	-11.8901
作巧匠斲一作劉一作斷	-11.8901
倕音垂書	-11.8901
先我得娀簡狄也遺一	-11.8901
先聖之法度而	-11.8901
其業育養品類故九州之物皆	-11.8901
其輕巧而不信	-11.8901
凍飲李	-11.8901
利用厚生謂之三事	-11.8901
則仁至修正則下直也一云叩	-11.8901
功引榖梁	-11.8901
及南北江獠人凡禁呪句尾皆稱些	-11.8901
古太始之	-11.8901
可辯數九功之	-11.8901
同志人也度	-11.8901
名池澤中	-11.8901
君可謂忠乎左右欲殺之太公曰不可引	-11.8901
因就衆仙於明光也丹丘晝夜常明	-11.8901
國家累世乆長之	-11.8901
在背曰被寳璐美	-11.8901
壒	-11.8901
夢於元君不能	-11.8901
天撫掃彗星言願將忠正	-11.8901
夫婦褢姙於	-11.8901
女則此湘	-11.8901
女當須媒	-11.8901
始何化所生乎補曰	-11.8901
姤	-11.8901
姧	-11.8901
姧臣之浮	-11.8901
子日至殷今報紂矣吾甲子日不到紂必	-11.8901
孔子誅少正卯也釋文詬作訽	-11.8901
孝乎以臣	-11.8901
宓妃則不	-11.8901
尤過也攘除也	-11.8901
屮	-11.8901
山山有九塞何謂九山	-11.8901
峽湖湘	-11.8901
崇廣宫室紂果作	-11.8901
崑崙在九海中	-11.8901
已同心也舊	-11.8901
師膠鬲問曰欲以何日至	-11.8901
度去也言天	-11.8901
形神物未生誰傳道	-11.8901
待人而榮二者别離命則	-11.8901
得九辯與九歌以下	-11.8901
復禹之舊績屈原設至逺方之外博求衆	-11.8901
徽繣呼麥切又音畫	-11.8901
忍罪過而不去者欲以除去恥辱誅	-11.8901
怪之談異乎經典如	-11.8901
恵	-11.8901
惡輔仁賢也五臣云飛登	-11.8901
應彈角角動此同聲相和者	-11.8901
懸鐙林木之	-11.8901
戲媮樂而巳假一作暇	-11.8901
握咿音伊嚅音儒唲	-11.8901
揳也宫角五音也言叩擊五	-11.8901
故王仲宣登樓賦云登兹	-11.8901
敢休息欲救賢者之死也遂以甲子日	-11.8901
文云摶圜也其字	-11.8901
文云芬艸初生其	-11.8901
文云語詞也沈存	-11.8901
文選桂誤作旌	-11.8901
方乎夫人須䰟而生䰟	-11.8901
於野澤煙	-11.8901
日不能夜光也補曰神	-11.8901
日月相推晝夜相代時運不停果何	-11.8901
昏昧無有明君周行	-11.8901
昔伍子胥得	-11.8901
是囚違虐立	-11.8901
時從君夜獵	-11.8901
曖曖昏昧	-11.8901
曰凡草木刺人江湘之間謂之	-11.8901
曰古初無物今惡得物自物	-11.8901
曰天地之間九州八極土有九	-11.8901
曰山海經云夏后上三嬪	-11.8901
曰雨甚軍士苦之請且休息武王曰吾許	-11.8901
曲也勞絞也以楚聲	-11.8901
朝誅紂不失期	-11.8901
木端所以入鑿	-11.8901
未形馮馮翼翼洞	-11.8901
未通則女樂倡蕩	-11.8901
樂耳今俗猶言借日度時	-11.8901
樓以四望兮聊假日以消憂	-11.8901
此事也補曰列子殷湯	-11.8901
殺之吾故不	-11.8901
江而行遂入	-11.8901
池中也楚人	-11.8901
治水土以有天	-11.8901
注云皆天帝樂名啓登天而竊以	-11.8901
涕也或云	-11.8901
游奄然至於	-11.8901
濁重者下	-11.8901
灟灟故曰大昭注云馮翼無形之	-11.8901
爢碎也言欲渉流沙少止	-11.8901
父為穆王御	-11.8901
猶區也瀛	-11.8901
皆可歌也謂之九歌水	-11.8901
皇天名也一云旬始星名	-11.8901
皎五臣云皓白喻貞	-11.8901
相敎傳	-11.8901
知象箸必有	-11.8901
石次玉曰瑶詩曰報之	-11.8901
祧	-11.8901
種樹蘭蕙附於門	-11.8901
稽泰山王屋首山太華岐	-11.8901
紂作象箸而箕子	-11.8901
絃者叩	-11.8901
繫曰瞽叟生重華是	-11.8901
羹小臇臛	-11.8901
者分以圍獸	-11.8901
而下降徐	-11.8901
而得二妃以成顯功是不欲逺去之意也	-11.8901
而痛身遭疾病長窮困	-11.8901
膠鬲以甲	-11.8901
臺十重糟丘酒池以至	-11.8901
蒸補曰顔容	-11.8901
補曰莊子云皷宫	-11.8901
見則心中牽引而痛	-11.8901
見改易前疑各作離騷經章句其餘十五	-11.8901
見求簡狄又後	-11.8901
言求媚也慄音栗謹敬也粟讀	-11.8901
言西方之地厥土不毛流沙滑滑	-11.8901
詬恥也言巳所	-11.8901
誘導也騁馳也言獵時有歩	-11.8901
誘騁先	-11.8901
謀也圜一作	-11.8901
謂之六府正	-11.8901
謂天地人三合成德其本	-11.8901
讒佞之人如	-11.8901
讒夫弄口也風颯颯者政煩擾也木蕭蕭	-11.8901
蹯豹胎如	-11.8901
身多病長窮	-11.8901
輂	-11.8901
輕佻巧利多語言而無要實復不	-11.8901
輦	-11.8901
辛幸若少康留止	-11.8901
辟實罪德之由師	-11.8901
速飲也一云作生爵	-11.8901
逺視眇然足不知當所踐蹠	-11.8901
遥逺也博平也言	-11.8901
里也楚人名里曰閈也	-11.8901
重也剡音琰方言	-11.8901
門屈原亦以	-11.8901
閶闔喻君門也	-11.8901
隂純陽一晦一明誰造	-11.8901
隱士忽與我乖	-11.8901
雨道難行武王晝	-11.8901
雷公之室轉還而	-11.8901
霣零也或曰去君之恒閈閈	-11.8901
靈乃湘水之神非湘夫	-11.8901
革曰古初有物乎夏革	-11.8901
音各以其聲感而相應也	-11.8901
音斯慄也	-11.8901
音足唐本	-11.8901
香分布沬音昧	-11.8901
駟補曰驪	-11.8901
驚駭也蕭蕭文苑作捜捜補	-11.8901
鬼魅神獸喜樂	-11.8901
鼂晁並	-11.8902
踥蹀而日進兮	-11.8902
㦧悽増欷兮	-11.8902
六律以應舞	-11.8902
皆有也字史	-11.8902
鋗	-11.8902
一帀天一作地	-11.8902
是來下從	-11.8902
絳	-11.8902
記晉初定賞從亡	-11.8902
一國之髙	-11.8903
上衣白蜺	-11.8903
之君也即道千	-11.8903
交阯西至	-11.8903
以求容媚以	-11.8903
傑壓抑	-11.8903
徠出集	-11.8903
歸一云尚進	-11.8903
為黄熊入於羽	-11.8903
牋	-11.8903
車轄並馳左右言從	-11.8903
進賢士必見進用也	-11.8903
不意明君弃其至美而逢	-11.8903
之中獨何以安之乎戴	-11.8903
之南有小山西瞻宫闕北望夷齊又阮籍	-11.8903
使之方好	-11.8903
候博物	-11.8903
兠以佞故囚	-11.8903
切比音鼻	-11.8903
厥美以從俗言子蘭之自	-11.8903
叙云屈平	-11.8903
屏風水葵也補曰	-11.8903
式其模範取其要妙竊其華藻所謂金相	-11.8903
惡心惑意迷而不自知	-11.8903
戲遊也一本螭上有白字	-11.8903
放作離騷經正詭俗而	-11.8903
文章而避之也言俗人朋黨恣	-11.8903
曰張音帳自	-11.8903
曰規方曰	-11.8903
東海人祭禹廟不用熊	-11.8903
械	-11.8903
欲急西行者將命於神務寛大也補曰	-11.8903
氣也冬飲沆瀣	-11.8903
沆瀣者北方夜半氣也夏食正陽正	-11.8903
漫汚人也補	-11.8903
無離絶之義也五臣曰	-11.8903
瑉石次玉者	-11.8903
相與離絶言	-11.8903
矩改更	-11.8903
秋食淪隂淪隂者日没以後赤	-11.8903
累其鱗則蛟龍	-11.8903
而彈徽人	-11.8903
能熊屬足似鹿然則能	-11.8903
與君同姓共祖	-11.8903
良田也一	-11.8903
蓬萊之山而抃舞戲滄海	-11.8903
補曰括地圖云馮夷常	-11.8903
解古蟹切	-11.8903
言河伯以水	-11.8903
言衆魚張其鬐尾	-11.8903
誠可貴重	-11.8903
賴皇天之厚	-11.8903
車驂駕螭龍	-11.8903
鍾毀棄	-11.8903
雷電以馳騖也靈	-11.8903
食元符也	-11.8903
飡吞日精	-11.8903
䛕者衆也補曰磊衆石	-11.8903
一作幬飾一作餝補曰	-11.8903
一作美衆一作終補曰	-11.8903
不可以窒穴尺	-11.8903
不可傳補曰曰者	-11.8903
不失過兮補	-11.8903
不惡鮌而戮殺之則	-11.8903
且衰老長爲	-11.8903
中憯惻之悽愴兮	-11.8903
之兼詩風雅而與日月爭光過矣然其文	-11.8903
之原淮南子注云窮石山名在	-11.8903
之期也補曰前漢有江夏郡應	-11.8903
之衆屯其相離言不與	-11.8903
乎衆臣女少小之人	-11.8903
也蕙香草以喻忠正之心	-11.8903
也言我指九天	-11.8903
也言隱居之人	-11.8903
也錫賜也嘉善也言父	-11.8903
事陽意不欲以筮與招相	-11.8903
于中谷又曰南有樛木葛藟纍之蔓莫干	-11.8903
云地理志遼東郡無慮縣應	-11.8903
云玉鈎挂於室中	-11.8903
云皆以五	-11.8903
云砥細於礪皆磨石也榖梁云天子之桷	-11.8903
云終不過兮一云終	-11.8903
以事上則其	-11.8903
以喻堅貞下文云	-11.8903
以治於國	-11.8903
伯水神也故託魚龍	-11.8903
何宫庭之宏敞類	-11.8903
何故得見䠶河伯曰	-11.8903
余下有于字五臣云	-11.8903
作嫚慆一作謟	-11.8903
佻輕也巧利也言又使雄鳩銜命而往	-11.8903
使知之也補曰天無私覆地無	-11.8903
侮慢日自娛樂以遊戲自恣無有事君	-11.8903
儒佳切	-11.8903
其有意而顧巳五臣云須待也兾君猶待	-11.8903
切一云微母閭補曰	-11.8903
别至南郡華容	-11.8903
劭曰沔水自江	-11.8903
勃誠難虧歇	-11.8903
南至於濮鈆北至於祝栗謂之四極邠	-11.8903
卧之室以砥石	-11.8903
古今人表有令尹子	-11.8903
句文選遊作游女作汝	-11.8903
可佩以幽蘭之别於艾也謂	-11.8903
名曰素餐也釋文作食音	-11.8903
名者取簫韶九成啓	-11.8903
吾父兄	-11.8903
啓之樂而更作淫聲放	-11.8903
圖謀也言太康不遵禹	-11.8903
坎埳坷不平也輡軻車行不平	-11.8903
堂以樂君也	-11.8903
堂入房至室奥處上則有朱	-11.8903
夏水源夫夏之	-11.8903
大夫子椒也慆	-11.8903
天不可計量也	-11.8903
天傾西北	-11.8903
天帝之庭習威	-11.8903
孔子厄於陳	-11.8903
寒氣聊戾	-11.8903
實後漢注云	-11.8903
將大有功	-11.8903
尸子云五尺犬	-11.8903
尾而比於列星音義云傅	-11.8903
屈原言巳之行度	-11.8903
巳雖欲之四方荒	-11.8903
巵	-11.8903
席可以休息也或曰朱塵筵謂	-11.8903
平而滑澤以翠鳥之羽雕飾玉	-11.8903
度也初始也覽一	-11.8903
徑過也復反也川一作谿	-11.8903
得犯汝今	-11.8903
從小至老命將窮	-11.8903
心嬋媛而傷懷兮	-11.8903
志彌堅想	-11.8903
怠去卜筮之法但以招	-11.8903
恐去聲重儲用切	-11.8903
恒在身也補曰	-11.8903
悽增欷兮	-11.8903
惑財賄也	-11.8903
慆	-11.8903
或曰儃室謂儃佪曲房也挂一作絓	-11.8903
或白色隂氣也郭氏云雄曰虹謂明盛	-11.8903
捐欲敕愼	-11.8903
故改其行五臣云	-11.8903
文霓屈虹青赤	-11.8903
新沐者彈其冠人之情也其	-11.8903
斵	-11.8903
明已年盛時任重	-11.8903
暮至東方之玉山也爾雅曰東	-11.8903
曰上於九下巨九切蟉虬盤曲	-11.8903
曰枹房尤切擊	-11.8903
曰茹文選音汝	-11.8903
曰鰿舊音	-11.8903
月雖去年	-11.8903
有以字補曰文選	-11.8903
有所短也騏驥驊騮一日	-11.8903
朋友不相逺離也補曰	-11.8903
札公子光者諸樊之子也以	-11.8903
朱丹其宫形容異	-11.8903
東行循江夏之水而	-11.8903
枉橈也駝一作馳	-11.8903
椒慆它刀切書曰無即慆	-11.8903
樂貪淫我獨好	-11.8903
次餘昧次季	-11.8903
歔許居切欷香	-11.8903
江湘之間憂愁嘆吟儀容變易而漁父避	-11.8903
流于江鄒陽曰子胥	-11.8903
流天乎一無乎字	-11.8903
淫也慢一作謾釋	-11.8903
滯卒無所逢遇也埳一作轗一	-11.8903
濛沾辱也一音昏荀子注	-11.8903
爾雅東至於泰逺西至	-11.8903
爾雅注云飄風旋	-11.8903
猶毛詩題章之	-11.8903
猶賢哲難逢謟	-11.8903
獨立堅固不可遷	-11.8903
玉鈎也言内	-11.8903
琁	-11.8903
瓊枝玉樹	-11.8903
畫承塵下則有簟筵好	-11.8903
白龍出遊天帝曰使汝深守神靈羿何從	-11.8903
皇來儀周禮	-11.8903
直不能枉性以追曲俗	-11.8903
矣何由鮌惡長滿天下乎	-11.8903
禮東北曰幽州	-11.8903
秉執也言巳執履忠正行無	-11.8903
秋曰以茹魚驅蠅蠅愈	-11.8903
立自持不隨俗人也補曰死而更生曰	-11.8903
筵藉之曰席	-11.8903
篇之目皆楚之	-11.8903
篇云茹柔也一曰菜茹五臣以茹	-11.8903
簫韶九成	-11.8903
紛而衆盛忠信勃勃而愈明	-11.8903
終不能得但見山石磊磊	-11.8903
者雌曰蜺謂	-11.8903
而彌盛至今尚未	-11.8903
而生各有所樂或樂諂佞或	-11.8903
至而不可禁則茹又	-11.8903
與君俱行政	-11.8903
色生於五岳又淮南云紫芝生於山而不	-11.8903
芝草仙藥采不可得但見葛石爾亦	-11.8903
茀白雲	-11.8903
茂長實核成熟願待天	-11.8903
葛草蔓蔓或曰三秀	-11.8903
虎豹九關	-11.8903
虧一作虧	-11.8903
蟺	-11.8903
衆不可户説兮孰云察余之中情	-11.8903
衆共疑之數	-11.8903
衆華其文爛然而同光明	-11.8903
行沖天而驅不以貧困	-11.8903
衝飇暴風也補曰此二句河	-11.8903
補曰上云謂幽蘭其不	-11.8903
補曰此章以東皇喻君言人臣陳	-11.8903
覺寤而還	-11.8903
角雕鏤	-11.8903
言尤謗之多也離遭	-11.8903
言當世俗人	-11.8903
言金性堅剛尚	-11.8903
訕身見排逐而	-11.8903
訟閭娵好女也言君親信	-11.8903
詩曰其平如砥翠鳥名	-11.8903
諧以其毛	-11.8903
謇辭也釋解也言已逢	-11.8903
賢人之同類者故	-11.8903
赤豹從文	-11.8903
轔轔然而有節度抗志	-11.8903
逶移相嬰何	-11.8903
逺也言履行忠信	-11.8903
逺放也補曰操七到切行下孟切攘而	-11.8903
遂流亡無	-11.8903
郭璞注十	-11.8903
閭顔師古曰即所	-11.8903
陸離分散也言巳游觀天	-11.8903
雌名隂	-11.8903
雞鶴知時而鳴補曰莊	-11.8903
音乂謂懲創也以可	-11.8903
香誤矣吕氏春	-11.8903
馭安用夫	-11.8903
鳳愈飄翔而	-11.8903
麗可以充城而	-11.8903
𨽻	-11.8903
䖝	-11.8903
一作圜實摶一作槫補曰曾	-11.8903
一作於一本云	-11.8903
下用之天問亦云	-11.8903
不得盛長以言君令急促剗傷百姓	-11.8903
不絶聲勺飲不入	-11.8903
不能隨從俗人傾易	-11.8903
且戲觀望以	-11.8903
丘閬風山上也無女	-11.8903
並呼漏	-11.8903
丹可愛故騷	-11.8903
之傳道道猶	-11.8903
之外自事之先朕所不知	-11.8903
之強師率之武故今伐殷合兵	-11.8903
乎四方乎一作兮一	-11.8903
也周禮訓方氏誦四方	-11.8903
也才用切豹有數種有赤豹有	-11.8903
也書曰造攻自鳴條朕載	-11.8903
也章明也言	-11.8903
也羿何罪歟	-11.8903
也芬一作芬芬勃	-11.8903
也補曰自此以下盛言畋獵	-11.8903
云天帝山有草狀似葵其臭如蘼蕪名	-11.8903
云御禦也以禦冬月	-11.8903
云獨隂不生獨陽不生獨天不生三合然	-11.8903
亡按屈原傳云國風好色而	-11.8903
亦以御冬注	-11.8903
人所䠶固其	-11.8903
今之讀者改假	-11.8903
以汲汲欲輔佐君者兾及年未晏晚以	-11.8903
以酸酢烹鵠	-11.8903
伐紂伯夷叔	-11.8903
何毀譽之昧昧	-11.8903
作傷心悲補曰心舊	-11.8903
作葰五臣云茂盛	-11.8903
佻吐凋切又土了切爾雅	-11.8903
使雄鳩銜命而往多言無實故中心狐疑	-11.8903
信哀江南賦取此	-11.8903
僞也乎一作兮	-11.8903
億也億一作意	-11.8903
兮悲蹭蹬而無歸性愚陋以	-11.8903
其意一合一離遂	-11.8903
切乾飯屑也孟	-11.8903
刈穫也草曰刈	-11.8903
初既與余成言兮	-11.8903
則屈志自抑	-11.8903
前漢志左馮翊有重泉史記曰夏桀不務	-11.8903
劉次莊云	-11.8903
力香切鑿音漕穿孔	-11.8903
動皷角角動音律同	-11.8903
包胥乃之秦請救兵	-11.8903
博訪天庭在何處也大一作太	-11.8903
原履行清潔以厲其	-11.8903
厥百榖滋	-11.8903
叔齊叔齊不肯	-11.8903
合也天期	-11.8903
和調重言	-11.8903
商㑹朝	-11.8903
啓禹子也九辯九歌禹樂也言禹平	-11.8903
地之時惟像無形窈窈	-11.8903
地出也宋	-11.8903
地可哀如	-11.8903
垢濁清也補	-11.8903
堅劉勰皆以	-11.8903
塟	-11.8903
大招章句第十楚	-11.8903
大象賦云矚	-11.8903
天地心神仙所居五帝	-11.8903
如鷹鳥羣飛誰使武王集聚之者乎詩曰	-11.8903
始去遂渡江湘之水言明旦	-11.8903
始漢武	-11.8903
姚事見左傳杜預云梁國有虞縣皇甫謐	-11.8903
子能亡之我能存之遂出奔	-11.8903
室屋沈没與天連也或曰日以	-11.8903
寒家困	-11.8903
將行恐帝嚳	-11.8903
少言有法則行	-11.8903
尚父時惟鷹揚也蒼一作倉補曰詩注鷹	-11.8903
已有文武能方圓也	-11.8903
巳具進舉在前賔主	-11.8903
帝命淮南王	-11.8903
帝嚳喻諸國賢君	-11.8903
帝謂帝履癸即桀也挑	-11.8903
帝高陽之苗裔兮	-11.8903
幽也所謂窈	-11.8903
度執守忠貞以自娛樂	-11.8903
往恐危身些	-11.8903
待人而榮補	-11.8903
徐邈音一	-11.8903
徒了切倉頡篇云挑招呼	-11.8903
得升五帝之寺	-11.8903
得賢智之士	-11.8903
徘徊於山阿兮飄風來之匈匈降乎攻切	-11.8903
徙也言蹇脩	-11.8903
御一作禦補曰御魚	-11.8903
心蕩滌也言春時澤	-11.8903
急來歸江南土地僻逺山林嶮阻誠可哀	-11.8903
情意而考	-11.8903
憤亂誠欲隨水沛然而	-11.8903
懸火懸鐙也	-11.8903
我也閶闔一	-11.8903
持其佩帶通	-11.8903
挫捉也凍冰也五臣云	-11.8903
摶又象文也以喻	-11.8903
播種也詩曰	-11.8903
據切詩云我有	-11.8903
攀縁蹈氣	-11.8903
文曰元氣起於子男左行三十女右	-11.8903
文選注云鋏刀身	-11.8903
方寒風從	-11.8903
於口秦伯哀之	-11.8903
於天陽之宇上	-11.8903
於濁穢以浮游	-11.8903
於蕭艾兮信未	-11.8903
施用背棄忠直之臣以自	-11.8903
施行萌牙之	-11.8903
旬始其怒青黒象狀如鼈	-11.8903
明書牧誓	-11.8903
明注云㑹甲也箋云㑹	-11.8903
易有太初有太始有太素氣形質具而未	-11.8903
時吾將穫取收藏而饗其	-11.8903
時甲子昧爽武王朝至	-11.8903
時草短望見千	-11.8903
晏兮孰華予	-11.8903
晦明誰能極	-11.8903
曰些蘇賀切	-11.8903
曰夕宿乎明光明光即丹丘	-11.8903
曰我必亡郢申包胥	-11.8903
曰陽氣充魄則	-11.8903
曰黃昏以為期	-11.8903
曽不知路之曲直兮	-11.8903
望逺可以滌蕩愁思之心也一	-11.8903
杳窕徒了切方言云美	-11.8903
桀先挑之也挑一作祧	-11.8903
楙	-11.8903
楚將適於吳見申包胥謂	-11.8903
歌也補曰上言二	-11.8903
正淮南子九天	-11.8903
此官屬齊駕駟馬或	-11.8903
此皆諷君之詞補	-11.8903
沖和氣者	-11.8903
泉山海經云雷澤中有雷神龍身	-11.8903
浮游以求同志也五臣云	-11.8903
淺兮自壓按	-11.8903
渠封中子紅	-11.8903
濕泥濘也補曰	-11.8903
火金木土	-11.8903
無所程量其才力也以言賢臣不遇	-11.8903
猶由柚二音顔氏家訓	-11.8903
璐音路說文云	-11.8903
瓚	-11.8903
生毛羽也補	-11.8903
申包胥楚大夫也	-11.8903
發兵救楚昭王	-11.8903
皋	-11.8903
盛爛然而明以言	-11.8903
矣淮南云調	-11.8903
知其形像乎補曰淮南言天	-11.8903
禹播降九歎云赴江湘之湍流兮順波湊	-11.8903
種植衆	-11.8903
窈注云窈幽	-11.8903
立排天門而	-11.8903
端而知其存亡善惡所終非	-11.8903
糟酒滓也可以	-11.8903
縣地是也隋以鄂渚	-11.8903
羆陸機云毛赤而文	-11.8903
美行還於君前翦讒賊	-11.8903
者以湘君在焉故也山海經曰洞庭之	-11.8903
而不滓推此志雖與日月爭光可	-11.8903
而伐楚破郢昭王出奔於是申	-11.8903
而學詩蘭蓀雜	-11.8903
肝縣結思念詰屈而不可解	-11.8903
臣興兵	-11.8903
自亳天對云湯行不類重泉	-11.8903
至兵甲	-11.8903
與伯夷無異	-11.8903
與君俱獵於	-11.8903
芠	-11.8903
菲菲猶勃勃芬香	-11.8903
萎病也絶落也	-11.8903
葬於九疑山在沅湘之南	-11.8903
蒼鳥鷹也萃集也	-11.8903
蔽霧露言能有所覆也下則泠泠	-11.8903
處也五臣云欲使原復歸	-11.8903
處也祠祀皆欲得壽故名	-11.8903
處於深林	-11.8903
虚以待之兮	-11.8903
行不容於世故欲渡沅湘之水南行	-11.8903
補曰億度也論語曰億則屢中意與	-11.8903
補曰詩云如彼雨	-11.8903
要以自開悟也一作	-11.8903
見放流猶種蒔衆	-11.8903
言天地未分溷沌無垠誰考	-11.8903
言巳依聖王法而	-11.8903
言我雖不見用猶和調	-11.8903
言我雖被斥	-11.8903
言所居深僻難遷	-11.8903
言日月晝夜清濁	-11.8903
言橘葉青其	-11.8903
言武王伐紂將帥	-11.8903
言竹被潤澤上則葳	-11.8903
言而讒人復相聚	-11.8903
言遭遇幽厄	-11.8903
詒一作詔五	-11.8903
誠可師用長老而事	-11.8903
謂之赤豹狸有虎	-11.8903
豆切目不明也	-11.8903
豫意欲自往禮又不可	-11.8903
豹有白豹詩	-11.8903
賢也詩曰有娀方將帝立子生商吕氏春	-11.8903
身神人同好故折芳馨相遺以	-11.8903
身自勉朝暮不倦也五臣云蘭蕙喻行	-11.8903
車也其字從木音同義	-11.8903
車旗言其香	-11.8903
載營魄	-11.8903
轉道於洞庭	-11.8903
轉馮馮翼翼何	-11.8903
辛夷香草也言山鬼出	-11.8903
送于南與	-11.8903
遂不食周粟而餓死屈原亦自以	-11.8903
遂至天皇之所居也旬始	-11.8903
避余且之網智	-11.8903
還意也而一作以五臣云結芳草自	-11.8903
郢故言江南之	-11.8903
郵曰太白名旬始如雄雞也補曰造至也	-11.8903
酒中補曰華采也	-11.8903
里令人愁思而傷心也或曰蕩春	-11.8903
門也昭明也所謂大明之上	-11.8903
閭霍山恒山也淮南	-11.8903
闇音暗閉門也此言幽明之理	-11.8903
陽余謂積陽	-11.8903
雄鳩多聲言使辨捷之士往聘忠賢	-11.8903
難知誰能	-11.8903
雪先集維霰霰	-11.8903
霙也一曰雨雪雜	-11.8903
青或黒連千	-11.8903
音蘇含切按詩逺	-11.8903
音鼻近也韓愈曰伯夷者特立獨行亘萬	-11.8903
顔色也五臣	-11.8903
願春日以	-11.8903
飯糗茹草江離	-11.8903
飾衆香以崇其善屈	-11.8903
骨體又葅	-11.8903
魄一作魂補曰老子曰	-11.8903
鯁	-11.8903
鶴立於秦庭啼呼悲泣七日七夜	-11.8903
麗美好也不竒	-11.8903
齊扣馬諫之曰父死不葬謀及干戈可謂	-11.8903
􁠬	-11.8903
逍	-11.8903
流乎天余乃下	-11.8904
丘穴人年老	-11.8904
言舊故忠臣日以䟽逺	-11.8904
君闇蔽	-11.8904
焉鳴號焉蹢䠱焉	-11.8904
柯彷彿而萎黄	-11.8904
黔	-11.8904
也又許候胡遘	-11.8904
也度法也言百	-11.8904
以忘歸兮	-11.8904
作岑補曰岑鉏	-11.8904
入於羽淵	-11.8904
利之石使	-11.8904
則精神浮	-11.8904
危而不可居也以言人臣不	-11.8904
可致千里	-11.8904
從枉佞苟合於	-11.8904
心怊悵以永思兮	-11.8904
心蛩蛩而	-11.8904
焱焱而	-11.8904
緹	-11.8904
義之道背弃忠直隨	-11.8904
背君門奔馳而去者以	-11.8904
臨髙山些	-11.8904
言已心愁情志慌忽	-11.8904
詬一作訽補曰並音	-11.8904
過使得罪罰也崟	-11.8904
重我絳袍采色鮮也襲一作龍	-11.8904
隨從曲木屋必傾	-11.8904
上有水字五臣云	-11.8904
不可見以大魚蛟龍	-11.8904
不解乃歎唫離騷之經以揚	-11.8904
不語以順	-11.8904
丕	-11.8904
乃屯敶我車前後千	-11.8904
之志當獲譖	-11.8904
乎無敢南	-11.8904
也錯置也言今世之工才知	-11.8904
于幽陵南至于	-11.8904
仄	-11.8904
佞臣巧好	-11.8904
儔儔一作疇一云一人	-11.8904
其言順意承	-11.8904
和調甘酸其味	-11.8904
外佩衆香此	-11.8904
子明經言春食朝霞朝霞	-11.8904
悠悠螭龍行	-11.8904
憚難也誠	-11.8904
措	-11.8904
昔堯殛	-11.8904
曰滑稽圜轉縱捨無窮之	-11.8904
更造方	-11.8904
歸徠楚	-11.8904
沙朔南	-11.8904
活生也言鮌死後化	-11.8904
瓦釜雷鳴	-11.8904
痺	-11.8904
神何妨	-11.8904
者日始欲出赤	-11.8904
者曰獸非入水之物故是鱉也一云	-11.8904
能按熊獸名能奴來切三	-11.8904
色䌌緶衣也七	-11.8904
若苦而復甘也五臣云酸苦	-11.8904
螹	-11.8904
衝風暴風也補曰	-11.8904
訖于四海史記曰北至	-11.8904
謂朝霞正陽淪隂沆瀣之氣也言	-11.8904
車駕二龍史記曰水神	-11.8904
追猶隨也繩墨所以正	-11.8904
逢也言已内行忠	-11.8904
郊三代祀之國語作	-11.8904
雲吸吸	-11.8904
音習集韻緹赤	-11.8904
駓	-11.8904
鴟夷滑稽顔師	-11.8904
鶱	-11.8904
齊玉軑而並馳	-11.8904
龜䇿誠不能知	-11.8904
6	-11.8904
一云喔咿強顔	-11.8904
七十化其體如此誰所制匠而圖之乎	-11.8904
上忌觸衆人諱	-11.8904
下流於衆庶	-11.8904
不可信用還詐告我言不好也五臣	-11.8904
不智之故欲提攜其耳乎而論者以	-11.8904
丘而歎涕兮悲吸吸而長	-11.8904
中矣夫離騷之文依託五經以立義焉帝	-11.8904
之也一無兮字	-11.8904
之僬僬受人	-11.8904
之心止與俗人	-11.8904
之紅白又以丹沙畫	-11.8904
之臣斥逐忠正背先	-11.8904
之野注云女媧古神女帝人面蛇身一日	-11.8904
乗騏驥而馳騁兮	-11.8904
乗鷖則時乗六龍	-11.8904
也文選作導夫先路一	-11.8904
也斐一作霏一云	-11.8904
也謂可受以心不可傳以言語也莊子曰	-11.8904
云旋風曲戾猶	-11.8904
云重陽集清	-11.8904
人之情狀以忠	-11.8904
人之道也士冠禮云	-11.8904
人雜用駑駿	-11.8904
今尾上有傅	-11.8904
以下申前義以明	-11.8904
以其弟子蘭	-11.8904
以宣養六氣九	-11.8904
伯庸觀我始生年時度其	-11.8904
但見曠野	-11.8904
佩忠信芳香之行彌加明	-11.8904
侯謂所射布也王者當制服	-11.8904
傷放在草澤心悲泣下霑	-11.8904
公困窮無以自	-11.8904
其小無内兮	-11.8904
其態殊異而不可合	-11.8904
内含天地之美氣	-11.8904
刻其肌以	-11.8904
化以感激風俗	-11.8904
北至徒駭其間相去二	-11.8904
北鬲津最	-11.8904
南方赤天西	-11.8904
又重有絶逺之能與	-11.8904
可喜也補曰自此	-11.8904
可掩故楚	-11.8904
名宣布也居一	-11.8904
君能任賢	-11.8904
命先戒百	-11.8904
哀故都之日遠	-11.8904
喻禮樂之士	-11.8904
嘿五臣云嘿嘿不言	-11.8904
器可謂妙	-11.8904
坤之翕闢注云	-11.8904
士飛行天下以求同志續以	-11.8904
夏水出江流	-11.8904
夏水過郡入江故曰	-11.8904
夢卒有子四人長諸樊次餘祭	-11.8904
天大雨雷電思念復	-11.8904
天西北幽天	-11.8904
太微宫垣十星在翼軫北天子之	-11.8904
奔亡兮騰駕	-11.8904
女婐也書曰	-11.8904
好如是何	-11.8904
妻子生别離傷巳當之	-11.8904
始相知之	-11.8904
娵一作娶補曰荀子曰閭姝子奢莫知媒	-11.8904
媒理斷絶無因縁也	-11.8904
子子蘭勸王行奈何絶秦歡	-11.8904
子曰蹇裳	-11.8904
子頃襄王立	-11.8904
字之曰昭告	-11.8904
季子季子即不受國光父先立即不	-11.8904
室柱下洗浴水涯	-11.8904
寖	-11.8904
寡少也屈原多才有	-11.8904
射音夜荀子曰西方	-11.8904
將陳忠䇿内	-11.8904
山之上而臨百仞	-11.8904
巫閭是縣因山	-11.8904
帝生隂陽上駢生耳目	-11.8904
師古曰鳥	-11.8904
常北顧而視郢都	-11.8904
平之道而君不用我故將欲自盡	-11.8904
幽居遇雨愁思茫	-11.8904
度我初生	-11.8904
弟四人當傳至	-11.8904
得列乎衆芳	-11.8904
復渡丹水而馳騁顧見大	-11.8904
復無彊友黨輔以保	-11.8904
心揺悦而日	-11.8904
怊悵恨貌也言	-11.8904
思神略畢憂愁復出乃長歎曰人居	-11.8904
性若金石故	-11.8904
惡以亡中知龍	-11.8904
愁且思也	-11.8904
慮之心上指九天告語神明使	-11.8904
憂乎補曰薄暮日欲	-11.8904
我殺羿天帝曰	-11.8904
我父鑒	-11.8904
所以留精思	-11.8904
放失仁義	-11.8904
故撫持之也	-11.8904
故欲自盡也唯一作惟一無也字五	-11.8904
文選作掔五臣云茹臭	-11.8904
方蒼天東北變天北方	-11.8904
於郭門之外飯牛車下望見桓公乃擊牛	-11.8904
日以喻君隂曀闇昧也言已欲	-11.8904
日夜兾相逢遇也文選云	-11.8904
明時君又闇昧年	-11.8904
星其生無父母登假三	-11.8904
春秋命曆序曰皇伯登	-11.8904
時也屈原言巳無新相知之樂而有	-11.8904
時時竊視安詳審諦志不可動也矊	-11.8904
晨來下浮雲依斐承我屋	-11.8904
智博聞	-11.8904
暗㣲者虹者隂陽交	-11.8904
曰匪陽不晞阿曲	-11.8904
曰異哉歌者非常人也命後車載之三	-11.8904
曰翡赤羽雀翠青羽雀異物志云	-11.8904
更相沈浮	-11.8904
有蜺茀氣	-11.8904
朋友之交忠則見信不忠則生怨臣忠於	-11.8904
東有鳥䑕山亦謂之首陽又杜預云洛陽	-11.8904
梧告愬聖舜已行忠直而	-11.8904
欲待明君之政	-11.8904
欲竢時於須	-11.8904
歌桓公聞之	-11.8904
此以下屈原陳已之志於	-11.8904
此作惛惛惛惛不	-11.8904
此有非人之狀而有大聖之德注云人形	-11.8904
此神列子曰女媧氏蛇身人面牛	-11.8904
此章言已初見信任楚國幾	-11.8904
比王僑而	-11.8904
求簡狄其性讒賊	-11.8904
求賢然後乃	-11.8904
汚濁故欲去也	-11.8904
江夏水經云	-11.8904
流猶引取柔耎香草以自掩拭不以悲	-11.8904
浩廣大也	-11.8904
淵木莖非能長也所立者然也注引陶	-11.8904
湍也淺淺	-11.8904
滑心中矊	-11.8904
濡我衣浪浪而	-11.8904
無常之風以興邪惡	-11.8904
牛上屠屠國文王喜載與俱歸也	-11.8904
狌	-11.8904
王不知君子小	-11.8904
王所以能純美其	-11.8904
珥謂劒鐔也劒者所以	-11.8904
琪	-11.8904
百姓成化刑不用也	-11.8904
皇飛騰兮又繼	-11.8904
目中瞳子言目	-11.8904
禦仁能	-11.8904
禽獸相似者亦如相書龜背鵠歩鳶肩鷹	-11.8904
私阿故參配天地通之神	-11.8904
稱也虖一作	-11.8904
章口東㑹	-11.8904
章句第十二楚	-11.8904
約束也補曰	-11.8904
終不可復解釋而	-11.8904
美女於離	-11.8904
美好之女	-11.8904
翀	-11.8904
者淮南小山之所作也昔淮南王安	-11.8904
者謂自竭盡	-11.8904
而君愈貪濁如氛霧	-11.8904
聖法度衆人	-11.8904
胡何也雒嬪水神謂宓妃也傳曰河伯化	-11.8904
自娛樂不顧患難不謀後世卒以失國兄	-11.8904
至骭從昏飯牛薄夜半長夜漫漫何時旦	-11.8904
船車無轡	-11.8904
茫無所依歸	-11.8904
荀子云新浴者	-11.8904
草木盛茂也	-11.8904
莫不斟酌其英華則象其從容	-11.8904
莫大於男女	-11.8904
蘭有蘭之名無蘭之	-11.8904
衆異也言謀足以安社稷智足以	-11.8904
衆賢並進職事	-11.8904
被垢濁也補曰莊	-11.8904
補曰王逸言自盡	-11.8904
補曰禮記南方曰蠻雕題交	-11.8904
要一作騕補曰並音杳應劭曰騕	-11.8904
見斥逐也補曰御侍也孟子所謂二	-11.8904
見騷經便讀作㛹毗連切	-11.8904
觀初志不可變易益	-11.8904
觀帳幕之中侍君	-11.8904
角而上者九萬里	-11.8904
解國患威能制強	-11.8904
言人交接初淺恩不甚篤則輕	-11.8904
言仰觀視屋之	-11.8904
言南方之俗其人	-11.8904
言已幽居無事下則垂	-11.8904
言方與圜	-11.8904
言百川東流不知滿溢誰有知其故也補	-11.8904
言神往來奄忽入不語言	-11.8904
語言也泄一	-11.8904
語訥鈍	-11.8904
誠信不可與期也補曰伴讀若背	-11.8904
誰能以巳	-11.8904
諭羣賢言往古夏禹殷湯周之文	-11.8904
謝去也言巳願與橘同心并	-11.8904
讒人尚復介隔蔽而障	-11.8904
讒佞僔僔相聚	-11.8904
貴也言賢者亦以不可枉屈	-11.8904
賢之位無進賢之心也	-11.8904
賢聖兮訟謂閭娵	-11.8904
趨走亦不足	-11.8904
躩歩蹇起䖍切	-11.8904
身被甲鎧猶	-11.8904
辛菜也音了魏都賦云習蓼蟲	-11.8904
連之族親恩深而義篤也嬋	-11.8904
進其耿耿小節	-11.8904
逺猶整飾儀容	-11.8904
逺見而言淺	-11.8904
遇之故遂行千	-11.8904
過五十而輡	-11.8904
道可傳而不可受謂可傳	-11.8904
遥望楚國而不得	-11.8904
釣餌於谿谷上則要	-11.8904
鈎以懸衣物也	-11.8904
鉤曲繩直	-11.8904
銷骨顔師古曰美金見	-11.8904
鍾鍾子期牙伯牙也言	-11.8904
閇	-11.8904
間悲哀莫痛與	-11.8904
隅日所行也言巳願託司命	-11.8904
隋唐書志有皇甫遵訓參解楚辭	-11.8904
雅好古招	-11.8904
離之憂也五臣云喻	-11.8904
雲依斐	-11.8904
霑濡也衣眥謂之襟浪浪流	-11.8904
靈神也脩逺也能神明逺見者君	-11.8904
非俊疑傑兮	-11.8904
頭蛇身一日	-11.8904
顔色落	-11.8904
願承君閒暇之時竭効忠言	-11.8904
飾軒版承以黒玉之梁五	-11.8904
香草執忠	-11.8904
馬赤喙	-11.8904
駱	-11.8904
髀	-11.8904
鯪一作陵所一作居鬿一作魁補曰鯪音	-11.8904
鳥覆翼之	-11.8904
鳳斥逐賢智畜養鵝鶩親近小人	-11.8904
鵠喻逸	-11.8904
5	-11.8904
䀜	-11.8904
䟆禦補曰山海經南	-11.8904
一云油油江湘補曰	-11.8904
三合而形神	-11.8904
上書云古記九河之名有	-11.8904
下以養切補曰沛流	-11.8904
不言而自弃	-11.8904
主執仁	-11.8904
乃有窮羿耳淮南云河伯溺殺	-11.8904
乃種江離蒔香菊采	-11.8904
之政害仁賢也雲霏霏而	-11.8904
之是常游于江淵澧沅之風交瀟湘	-11.8904
之淵出入多	-11.8904
乗登也鄂渚地	-11.8904
九天之神使㑹北極之星舉虹采	-11.8904
九河以殺其溢漢許商	-11.8904
也㑹二氣之和極發揮之美者不可以柔	-11.8904
也五臣云今觀我之初志終	-11.8904
也五臣云茅惡草以喻讒臣	-11.8904
也以君治之而	-11.8904
也父欲立伯夷伯夷	-11.8904
也盤一作槃	-11.8904
也言殷湯夏禹周之文	-11.8904
也郭璞注爾雅	-11.8904
也霰雪紛其無垠者殘賊	-11.8904
云呼吸沆瀣兮飡朝霞琴賦云餐沆瀣兮	-11.8904
云洞庭地穴在長沙巴陵也	-11.8904
云湯禹周文皆儼肅祗敬論議道	-11.8904
人三面一臂竒右其人不死淮	-11.8904
人皆濁史記作舉	-11.8904
人羿射其左目注云	-11.8904
人臣一去	-11.8904
今河南偃師是張晏云	-11.8904
以多雨者羣下專擅施恩惠	-11.8904
以指麾四方	-11.8904
以樂神也五臣云使曲節希緩而安音清	-11.8904
何回極之浮浮	-11.8904
作闔閶補	-11.8904
使之迅疾自傷不得順	-11.8904
供春日之食也補曰糗	-11.8904
信也余按本草引五芝經	-11.8904
傳乎漢宣	-11.8904
入漵浦余儃佪兮	-11.8904
兩龍火神也	-11.8904
公子椒者以其知已忠信	-11.8904
公子謂公子椒也言已所以	-11.8904
公曰不可武王與周公旦	-11.8904
其意矣李善注仲宣賦引荀子	-11.8904
其枝瀆耳引	-11.8904
其福祐也	-11.8904
其行直身	-11.8904
兾幸也峻	-11.8904
凱風詩	-11.8904
分江冬竭夏流故納厥稱	-11.8904
切又古豆切禮記曰	-11.8904
剛滯其用不得以隂陽分其名故歸於	-11.8904
動三江令風	-11.8904
北斗爲我	-11.8904
又夢與雒水神宓妃交接也一本胡下	-11.8904
及星辰次	-11.8904
受兄弟弃國俱去之首陽山下周武王	-11.8904
受禮遺	-11.8904
古之時有至人者益其	-11.8904
史記曰彈劒而歌曰長鋏歸來乎	-11.8904
司馬法六	-11.8904
同其志也五臣云所思	-11.8904
吾一作我五臣	-11.8904
吾怨往昔之所冀兮	-11.8904
吾與重華遊兮瑤之圃	-11.8904
和然則傳所謂天盡名其沖和之功	-11.8904
善獲官爵也補曰此言以聖	-11.8904
喻世昭明補	-11.8904
喻君山以喻臣	-11.8904
嚅唲補曰喔音	-11.8904
國名姚姓舜後也昔	-11.8904
在南耳天對云石胡不林往視西極按	-11.8904
塵埃之外不獲世之滋垢	-11.8904
夏后氏之璜璜美	-11.8904
多暇日亦承誤	-11.8904
大夫矸與岸同一作南山	-11.8904
大忘戰	-11.8904
大江名之五渚戰國䇿	-11.8904
大荒之山日月所入有	-11.8904
大龜之屬也	-11.8904
天地人非也榖梁注云古人稱萬物負隂	-11.8904
天地無有終時中	-11.8904
失則大人君	-11.8904
姓弗堪乃召湯而囚	-11.8904
孝章即位深	-11.8904
定而知之也考一作知	-11.8904
寒殺人不可乆留	-11.8904
射補曰䠶食亦切下同妻心計切此	-11.8904
尅心遵樂志	-11.8904
將候祝融與諮謀也南	-11.8904
將與百卉俱	-11.8904
將餓餒而終故曰以伯夷爲法也補曰行	-11.8904
少康夏后相之子也有虞	-11.8904
就舜敶詞自	-11.8904
尸夜切訓	-11.8904
州有蘭江	-11.8904
巢乎成湯放桀於南巢乃廬江居巢非此	-11.8904
帝嚳帝嚳次妃	-11.8904
帝姓公孫名	-11.8904
帝時九江	-11.8904
帝舜葬東入洞庭下注	-11.8904
帶也薜荔兔絲皆無	-11.8904
平東光鬲縣界中自鬲	-11.8904
年忽去日以衰老也而	-11.8904
年時亦尚未盡兾若三賢之遭遇也其一	-11.8904
并因興兵	-11.8904
度而知之乎	-11.8904
弆	-11.8904
弱心志和調	-11.8904
張掖也左傳曰后羿自	-11.8904
徂落也一云	-11.8904
徒駭胡蘇鬲津今見在成	-11.8904
得保其性	-11.8904
得又來迎候此乃豫之所以	-11.8904
徼	-11.8904
志浩蕩而傷	-11.8904
忠信又以嘉言而納於君也補曰遺	-11.8904
恐高辛之先我	-11.8904
悠悠蒼天	-11.8904
憤懣遂復作九歌以下凡二十五篇楚人	-11.8904
懼命奄忽不踰年也一	-11.8904
成猶重也淮南云桀紂	-11.8904
我志所樂終不悔恨	-11.8904
所作忠而言之兮指蒼天以	-11.8904
所在深也五臣云	-11.8904
抑止也騖馳也若順也	-11.8904
持萬民死生之命也	-11.8904
指語也九天謂中央八方也正平	-11.8904
揚其志意而常屈伏汰一作波補曰挑	-11.8904
揚蕩其波	-11.8904
數來也常以夜光	-11.8904
文云虞舜居姚	-11.8904
文曰蕩口也	-11.8904
斑文者有	-11.8904
方丙丁其	-11.8904
方祝融獸身人面	-11.8904
於綸有田一成有衆一旅能布其	-11.8904
於鄂鄂州武昌	-11.8904
旦進曰天不祐周矣意	-11.8904
暴雨注云言二女遊戲江之淵府	-11.8904
曰大社歧在右扶	-11.8904
曰天體也易	-11.8904
曰排推也大人賦	-11.8904
曰獨天不生必	-11.8904
曰綢繆束楚是也柏一作拍	-11.8904
曰羽人飛仙也爾雅曰距齊州以南戴	-11.8904
曰莞爾微笑胡	-11.8904
曰辰去速而來遲	-11.8904
月俱逝願長與橘	-11.8904
有似月光故曰	-11.8904
有光明也假一作嘏	-11.8904
有娀氏女生契言巳	-11.8904
望紂之陣引軍止之太公曰	-11.8904
朝沐浴於	-11.8904
木是矣其以申	-11.8904
極不遇賢士故結芳草長	-11.8904
槌	-11.8904
欲服芝草以延年命周旋山間	-11.8904
止息人之屋	-11.8904
此云羣飛者士以類從	-11.8904
歴吉日乎吾將行	-11.8904
歸於海自傷放流獨	-11.8904
死日將至	-11.8904
氣又云集重陽之清徴注云言上止	-11.8904
水出於窮石入	-11.8904
水經云四水同注洞庭北	-11.8904
水與天合物漂流	-11.8904
江湘之水油油長流	-11.8904
汰	-11.8904
沅有芷兮澧有蘭或曰澧	-11.8904
沅有茝兮醴有蘭	-11.8904
沅水曰澧口	-11.8904
河上雨甚雷疾周公	-11.8904
泊莽莽兮與埜草同死	-11.8904
波之氣共相交通又曰湘水出	-11.8904
洧盤水名禹大傳曰洧盤之水	-11.8904
浪之水注云漾水至	-11.8904
海居夷之意然原初未	-11.8904
淮南王安作離騷經章句則大義粲然後	-11.8904
深一作保羿	-11.8904
混濁而我獨清衆	-11.8904
渉氷凍	-11.8904
渚是也湖水廣	-11.8904
漿烹鵠鳬	-11.8904
澧水又東南注	-11.8904
瀁上摩朗	-11.8904
無所復適也補曰刻勵	-11.8904
無有差殊故	-11.8904
熬鴻鶬令之肥美也補曰鶬音倉麋鴰	-11.8904
狸一作貍五臣云赤豹文貍皆	-11.8904
猫斑者河伯云	-11.8904
獨何所窮止也補曰	-11.8904
獸也將以	-11.8904
玩之好女來雜	-11.8904
留夷杜衡雜以芳芷芬香益暢	-11.8904
畝莫後切	-11.8904
皆同論語	-11.8904
瞀亂也實是也徂去也言	-11.8904
矣補曰左傳曰天之有	-11.8904
社言已受天	-11.8904
祠城若雄雉其聲殷殷云野	-11.8904
秀材之士隱處者也言石葛者喻	-11.8904
秦與荆戰大破之取洞庭五	-11.8904
稽疑聖帝兾聞	-11.8904
稽衡山華山沂山岱山嶽山醫無	-11.8904
穢也爾雅彗星	-11.8904
窮石之室朝沐	-11.8904
窳	-11.8904
粲屈原舉吕	-11.8904
素問云上古有	-11.8904
經丹穴之山有鳥焉五彩而文曰	-11.8904
綢縛束也詩	-11.8904
緯繣乖	-11.8904
繞悷盧帝切又音列	-11.8904
纉	-11.8904
纘	-11.8904
羣姓立社	-11.8904
羽人之國不死之民或曰人得道身	-11.8904
羽翼弱水暮宿風穴注云風穴北	-11.8904
者何人乎乃堯時羿非有窮羿也	-11.8904
者吾君德行未備百姓疾怨	-11.8904
而不顧者也屈原獨立不遷	-11.8904
而言以信巳之志終不回	-11.8904
聲離居猶	-11.8904
肴羞進也	-11.8904
能結撰博專至之心以思	-11.8904
自虞帝始其於君臣之際	-11.8904
與天地兮同壽	-11.8904
與日月兮同光	-11.8904
與河伯别子	-11.8904
芳幸其枝葉	-11.8904
莧	-11.8904
菜曰羹無菜曰臛蠵	-11.8904
葛之覃兮施	-11.8904
薜荔之衣以	-11.8904
蘅補曰爾雅杜上鹵注云杜衡也似葵而	-11.8904
蠵一作蠵補曰	-11.8904
行二十俱立於	-11.8904
行彌多釋文畝作畮	-11.8904
行犬好豫在人前	-11.8904
補曰列子曰有形者生於無形則天地安	-11.8904
製芰荷以	-11.8904
觀八區也	-11.8904
觶	-11.8904
言天圜而九重誰營	-11.8904
言射河伯妻雒嬪	-11.8904
言已雖不見用猶尊髙	-11.8904
言水尚得順其經	-11.8904
詭隨也斯讀若	-11.8904
謂臣蔽君明也下幽晦	-11.8904
謂鳳皇兮安棲	-11.8904
豈太史公取其語以作	-11.8904
象即仿像也又云罔象相求注云虚	-11.8904
負檐荷以	-11.8904
賊害也姦惡也言天有虎豹地有	-11.8904
賢人賢人即自至	-11.8904
起天對云鯪魚人貌邇列姑射是也陶	-11.8904
路脩逺以多艱兮	-11.8904
輝若流星從東方來集	-11.8904
轅氏也補曰史	-11.8904
近於伯夷而置以	-11.8904
通吳之苞	-11.8904
遂居蓬萊處崑崙也補曰	-11.8904
過差故能獲夫神人之助子孫	-11.8904
道德而挾弓䠶韝獵	-11.8904
道治道也言周則包文武	-11.8904
邪故天降吾災請還師太	-11.8904
采而求之	-11.8904
釋也補曰山曲	-11.8904
量度也正方也枘所以充鑿	-11.8904
門下喻親近之人也言	-11.8904
阬文苑作岡補	-11.8904
陽沖氣以	-11.8904
陽西山上有虞城姚音遥	-11.8904
隂氣盛而多雨	-11.8904
隱居云鯪鯉形	-11.8904
雄虺同稱則當	-11.8904
雖昇青冥猶	-11.8904
離騷傳其書今	-11.8904
雰音芬詩傳雰雰雪	-11.8904
雲以象佞人山峻髙以蔽日者	-11.8904
霜露之精以自潔也補曰	-11.8904
霞五臣注云沆瀣	-11.8904
霰雪以興殘賊	-11.8904
露慘悽而交下至此	-11.8904
露雞露棲之雞也有	-11.8904
靈知於天資形於二氣故又	-11.8904
願尊節而式	-11.8904
風美陽中水	-11.8904
養衆賢以時	-11.8904
餘里日月若出没於其中湖中	-11.8904
首九章九首皆以九	-11.8904
馮珧利決封狶是	-11.8904
駕青虬兮驂白螭	-11.8904
駕龍輈兮乗雷	-11.8904
騎侍從者明異於衆也	-11.8904
騏驥不遇伯樂則	-11.8904
騰衆車使徑待	-11.8904
魚眼與珠璣	-11.8904
魯猥切詩曰	-11.8904
鳥南巢豈南方	-11.8904
鷹之飛揚按詩鷹揚指尚父	-11.8904
齗	-11.8904
龍而歸不敢隨從大道願轉江	-11.8904
展舒補曰展	-11.8906
旎旌旗從風	-11.8906
枝煩挐而交横	-11.8906
隨君嗜欲而	-11.8906
下裳也日出東方入西方	-11.8906
不甘樂猶思楚國念故	-11.8906
保壽命終百年也	-11.8906
昆明靈沼	-11.8906
曰撿押隱括也押音	-11.8906
㕑	-11.8906
七古切茅藉祭也鮑欽止本云	-11.8906
七閭子旅	-11.8906
不忠則怨而責之巳	-11.8906
也以言讒口衆多	-11.8906
也言飛鳥走獸	-11.8906
云規矩法則也	-11.8906
其方色以	-11.8906
動鳴五玉鏘鏘而和且有節度	-11.8906
北方謂之地螻一	-11.8906
去規矩	-11.8906
名也五尺曰	-11.8906
君與臣下	-11.8906
告我以不閒暇遂以	-11.8906
子曰臭過椒蘭荀	-11.8906
必失堅固敗材木也以言佞	-11.8906
星名以喻貪殘日	-11.8906
本志也補曰苴釋文	-11.8906
欲横奔而失路兮堅志而不忍	-11.8906
流沙則禹貢	-11.8906
流沙東至于蟠木淮南曰	-11.8906
浟	-11.8906
焉聚千	-11.8906
生曰草枯曰苴比合	-11.8906
盈君之耳亦可令忠直之士失其	-11.8906
相呼則芳草合其莖葉芬芳以不暢	-11.8906
稽神明也一	-11.8906
背違先聖之法以意妄造必亂政治危君	-11.8906
臣巧於言語	-11.8906
蒼含切在旁曰驂驂兩騑也螭丑	-11.8906
見太卜	-11.8906
道乃使靈巫常持好劒以辟	-11.8906
違也墨度	-11.8906
面賈誼云偭梟獺以隱處	-11.8906
䧟輕薄屈原	-11.8906
一云愚讙訟	-11.8906
一作墨五臣云雕	-11.8906
一作紫微補曰大象賦云文昌制戴匡之	-11.8906
下屠屠	-11.8906
中多蜮鬼必傷害於爾躬也乎一作兮補	-11.8906
之上以觀越之滅	-11.8906
之末父執子之右手咳而名之又曰	-11.8906
之本道東出分	-11.8906
之氣雲薄漏日日	-11.8906
之法也甫及	-11.8906
之若宋玉之九辯王	-11.8906
九野也以一	-11.8906
也文選釃作醨五臣云餔糟歠	-11.8906
也竟地猶言竟天也唐	-11.8906
也言巳積累衆善	-11.8906
也革更也孽	-11.8906
事也餔食也歠飲也糟醨皆	-11.8906
事出帝王	-11.8906
二子曉音今皆已	-11.8906
云在帝夷羿	-11.8906
云淫私逸也	-11.8906
今修飾而窺鏡兮	-11.8906
令尹然則子	-11.8906
以禹故得享備樂何以修	-11.8906
以興下見羿澆桀紂行	-11.8906
任也以一作之五臣云讒邪之人謂我善	-11.8906
何毁譽之昧昧	-11.8906
作厥孽而誣帝以降補曰左氏	-11.8906
作輡補曰埳苦闇切軻	-11.8906
侯而射之古	-11.8906
俱沐咸	-11.8906
俱物巨物二	-11.8906
倔	-11.8906
傾之者無求	-11.8906
公亦再拜太公	-11.8906
兮驂白螭	-11.8906
出國門而軫懷兮	-11.8906
切古天子風姓也山海經云女媧之膓化	-11.8906
則厥初生民時惟姜嫄也	-11.8906
則飾以翡翠羽	-11.8906
割更后相夫孰	-11.8906
匪	-11.8906
古云黃鵠大鳥一舉千里	-11.8906
可以飾幃帳顔	-11.8906
名文選注引挾秦	-11.8906
名曰鬿雀食人天對云	-11.8906
君不覺也補曰卜居言	-11.8906
商旅將任車以商於齊	-11.8906
喻庸下	-11.8906
國也補曰淮南云九州之外有八殥西	-11.8906
埳	-11.8906
夏之俗思念楚	-11.8906
夢亦如此文	-11.8906
天子之位荒淫田獵變更	-11.8906
天對云奮力	-11.8906
天祐也五臣云	-11.8906
好讀如好人提提之	-11.8906
威不軌	-11.8906
客卿備輔佐也	-11.8906
寧廉潔正直	-11.8906
居水中而沈没也	-11.8906
居閭巷失尊位也尚書序曰太康失國昆	-11.8906
帝之命因下	-11.8906
帝天帝也夷羿諸侯	-11.8906
平可法則者莫過於天養物均	-11.8906
徒駭是河	-11.8906
心而不見用意中迷惑不知得	-11.8906
忠賢讒佞所疾故云不好	-11.8906
思其麀牡	-11.8906
惠識舊	-11.8906
憂也言羿弑夏家居	-11.8906
成式云迸分竟地	-11.8906
才者也政與正同顔之推云自古文人常	-11.8906
文王親往問之吕望對曰	-11.8906
文質疏内兮	-11.8906
方飯牛叩角而商歌桓公聞之知	-11.8906
於水旁羿見䠶之眇其左目河伯上	-11.8906
旁能射人甚者至死陸機云一名射影人	-11.8906
昌賜汝名師文王再拜	-11.8906
明月銷鑠而減毁	-11.8906
曰心合於氣氣	-11.8906
曰渚洲也澌音斯從仌者	-11.8906
曰瑶音遥	-11.8906
月皆合天地之正中故	-11.8906
杜衡芳芷皆香草	-11.8906
欲列於衆	-11.8906
此度一云何不	-11.8906
求也吾之志舉	-11.8906
江陵縣東南注云江津豫	-11.8906
池乾髪陽阿齋戒潔巳兾	-11.8906
渤海之東不知幾億萬里有大	-11.8906
潔也五臣云察察潔	-11.8906
澌者欲與河伯離别也補	-11.8906
炎氣南方火也	-11.8906
焉乃逝以俳佪	-11.8906
照雨滴則	-11.8906
爾雅徒歌謂之謡謂謡言也諑竹角切方	-11.8906
爾雅衣眥謂之襟襟交領也浪	-11.8906
獸忘其國恤而	-11.8906
玉唐勒景差之徒漢興枚	-11.8906
用退而商賈宿齊東	-11.8906
百餘里是知九河所在徒駭最	-11.8906
皆舉用衆賢使居顯職故道化興而	-11.8906
相薦舉持	-11.8906
知音者誰	-11.8906
神無形聲難事易失然人竭心	-11.8906
竭盡信誠無有二	-11.8906
紀禹以勤勞修鯀之功故曰勤子也	-11.8906
縶	-11.8906
罥	-11.8906
翠被衾也補	-11.8906
翠鳥形如燕赤而	-11.8906
翼遙遙其左右	-11.8906
而分之因以	-11.8906
而有聖明之稱者	-11.8906
臣云靈脩言有	-11.8906
舜服厥弟終然	-11.8906
艾也豈一作非文選可作何五臣云言我	-11.8906
苦个切又音坎可轗音	-11.8906
萬國寧也五	-11.8906
萬民憂患天對云夷	-11.8906
蕭瑟兮草木搖落而變衰	-11.8906
被離謗而見尤	-11.8906
西南朱天南方炎天東南陽天又廣	-11.8906
見水中投人影則射之或謂含沙射人孫	-11.8906
言我乃復往觀視四	-11.8906
言我以司馬子蘭	-11.8906
記云又誰能以身	-11.8906
誰知吾之	-11.8906
誰知吾之廉貞	-11.8906
諑愬也楚以南謂之諑言衆女競	-11.8906
諸侯故名布	-11.8906
謂椒薑	-11.8906
謂隱者子路所謂	-11.8906
變其膓化	-11.8906
足出南方鬿	-11.8906
趾注云雕題	-11.8906
辭好而悲之自謂不能及也雖非明智之	-11.8906
辭賦宗後	-11.8906
進不意内無誠信之實但有長大之貌浮	-11.8906
逶移若蛇者也	-11.8906
逺在他域史記云何故	-11.8906
逺遷臣而弗思	-11.8906
遇災害	-11.8906
邪言坼剖而産則有之死分竟地未必	-11.8906
酒滓補曰釃力支切	-11.8906
醨微同其	-11.8906
長太息而增欷	-11.8906
門外桓公	-11.8906
雄曰翡青而雌曰翠翡大於羣其羽	-11.8906
雄騁極	-11.8906
雌虹也茀音拂	-11.8906
露才揚已顯暴君過劉子	-11.8906
韋昭云梁王魏瞿之美女娵音鄒集	-11.8906
馳驅以行道	-11.8906
鬿雀峙北號惟人是食注云	-11.8906
黸	-11.8906
齊同也光明也言雲	-11.8906
齊同也言牀上之	-11.8906
㝔	-11.8906
上觀初世伏節之賢士	-11.8906
下任竪刁易牙子孫相殺虫	-11.8906
下而求索之也天對曰穆懵祈招	-11.8906
下邳徐僮是也	-11.8906
不可佩也以言君親	-11.8906
不期而到皆	-11.8906
不縱兮騏驥絆而不試	-11.8906
不隱惡故也愚	-11.8906
丘上有不死樹食	-11.8906
並同國語曰親戚宴饗則有殽烝注	-11.8906
丰容豐滿	-11.8906
乃使造父	-11.8906
之善意恐重得患禍逢罪	-11.8906
之曰或問古人有言殺其身有益	-11.8906
之極石城金室未見石林所出也爾雅	-11.8906
之緩急也補曰歸藏曰乾者積石風穴之	-11.8906
之言而事用謟讒之人也	-11.8906
之陸離所謂余飾之方壯	-11.8906
之體而生得隂陽	-11.8906
乗回風兮載雲旗	-11.8906
九合諸侯一匡天	-11.8906
九州而相其君兮何必	-11.8906
也椒漿以椒置漿	-11.8906
也此言以酢	-11.8906
也決䠶韝也封	-11.8906
也程量也言	-11.8906
也緒業也言伊尹佐湯命終	-11.8906
也言紂憎輔弼不用忠直	-11.8906
也非輕重之重	-11.8906
亂邪巧	-11.8906
二國復遣妖	-11.8906
云伯益之子夏	-11.8906
云升體解	-11.8906
云南海之帝	-11.8906
云心中結怨	-11.8906
云清喻明時可以	-11.8906
云蕙蘭椒桂皆取芬芳	-11.8906
五臣云九陽數謂天也	-11.8906
五臣云猨狖輕捷之獸喻國之昏	-11.8906
五臣云蘭芷喻	-11.8906
五臣云言楚國皆好讒佞謂忠正	-11.8906
以求神僊皆	-11.8906
以興湘夫人美好亦異於衆人也	-11.8906
以蕙草蒸肴芳蘭	-11.8906
以追曲兮	-11.8906
任管仲	-11.8906
伏戲與同制量下佐堯	-11.8906
休勿休故曰叔旦不嘉也到一作	-11.8906
似鼉而短小又似鯉魚有四足吳都	-11.8906
作杳補曰瞭音了	-11.8906
使澆殺夏后相少康逃奔有虞虞因妻以	-11.8906
使靈巫緩節而舞	-11.8906
供待彌敬乃	-11.8906
僻之域猶	-11.8906
僻左也言我惟	-11.8906
儵北海之帝	-11.8906
光騰馳驚惑人心	-11.8906
兔絲也言山鬼仿佛若人見於山之阿	-11.8906
公子謂湘夫人也重以卑	-11.8906
兵伐徐遂滅之	-11.8906
具不敢寧處親舉枹擊	-11.8906
冤屈而自抑	-11.8906
冥寞五臣云冥冥暗	-11.8906
冥杳一作晦冥冥一	-11.8906
冬北風愁而	-11.8906
切桂置酒中	-11.8906
切經傳多作鰥書曰有鰥在	-11.8906
列也先儒以重華	-11.8906
列補曰六韜云武王	-11.8906
刺君不明也	-11.8906
勢羿畋將歸	-11.8906
十二國王孫厲	-11.8906
南曰有扈氏	-11.8906
南曰西方之極石城	-11.8906
南神止我令北征也還	-11.8906
博物志云昔	-11.8906
去家室也嵺	-11.8906
去楚者同姓無可去之	-11.8906
又曰徐偃王好行仁義陸地而朝者三	-11.8906
受遺玉帛將行就	-11.8906
右轉以遮獸也還一作旋一云引	-11.8906
合法度者因與同志共	-11.8906
合猶入池	-11.8906
名漾水東流至武都沮縣始爲漢水	-11.8906
名補曰楚子熊	-11.8906
吕尚耆	-11.8906
君何不馳也周公曰天	-11.8906
哀上愚蔽心不照也識一	-11.8906
國窮身長	-11.8906
國語曰夏之興也祝	-11.8906
國雖循江水涯意	-11.8906
土伯東有長人西	-11.8906
堯固告之	-11.8906
堯時羿射十日繳大風殺	-11.8906
壓一作厭桉一作按一作壓塞補曰集韻	-11.8906
夏后相相之遺腹子	-11.8906
夏禹觀河見長人魚身出曰	-11.8906
夢澤中也楚人	-11.8906
大商洛間多有	-11.8906
大舉兵而滅	-11.8906
天問云皆歸䠶鞠而無害厥躬何后	-11.8906
天對曰儵忽之居帝	-11.8906
夫何用罪法之不審也補曰辠古罪字	-11.8906
奠置祭也漢	-11.8906
女工於嫮眄好	-11.8906
好啼山海經鵲山有獸狀如	-11.8906
姦惡以賊	-11.8906
嫮眄瞻	-11.8906
子推伯夷清白之行	-11.8906
子美詩云紅豆啄餘鸚鵡粒碧梧棲	-11.8906
孰虛偽之可長	-11.8906
它國君又誣罔我	-11.8906
尼曰昔禹致	-11.8906
山林草木茂	-11.8906
山郭景純江賦云苞山洞庭巴陵	-11.8906
岫窈窕者也按吳中太湖一名洞庭	-11.8906
崇山太公金匱曰南海之	-11.8906
帝炎帝其神	-11.8906
常行雖獲罪	-11.8906
年而形遯淮南	-11.8906
幼少有大節度以應天地長大	-11.8906
度意卑禹湯不欲事	-11.8906
待之何可驅也天對云頸紂	-11.8906
後漢書曰徐夷僣號率九夷以伐宗周	-11.8906
徐偃王作亂	-11.8906
徐偃王修行仁義諸侯朝之三十餘國	-11.8906
従	-11.8906
從其俗也	-11.8906
從水者水盡	-11.8906
御一云戒其	-11.8906
御以告楚令伐徐一日而至於是楚文	-11.8906
心也以一作不補曰九	-11.8906
心志正直行無	-11.8906
志欲以輔君反	-11.8906
志純一也欵一作款五臣云悃欵懃苦	-11.8906
快其情也䠶一作射補曰馮音	-11.8906
念楚國願得君命進道北行	-11.8906
忽乃寓言	-11.8906
思念也五臣云謂神肯來斯而我作樂	-11.8906
情也導一作道坑一作	-11.8906
想若舜之	-11.8906
愛讒佞憎逺忠直而不肯近	-11.8906
所以藉飯食也易曰藉	-11.8906
所願不得失其所也補	-11.8906
括地象曰有不死之國長人	-11.8906
揺漢宫殿中多植之至霜後	-11.8906
放勲一也則重華非名也號	-11.8906
故也賈誼弔屈原云	-11.8906
故忍此禍患而不能止	-11.8906
故我悵然失志而忘歸也補曰怨	-11.8906
故變言公子也言	-11.8906
整容儀也五臣云	-11.8906
文云楓木厚葉弱枝善	-11.8906
文云豫象之	-11.8906
文王不顯顯也言美女被服綺繡	-11.8906
斬九嬰	-11.8906
於君而未肯來則吹簫作樂誠欲	-11.8906
旦周公名也嘉善也言武王始	-11.8906
明之氣御	-11.8906
易其志也補曰遺去	-11.8906
時不順龜燋不兆	-11.8906
時受封於徐至偃王	-11.8906
曰之適也坑音岡山脊也周禮職方	-11.8906
曰乾元用九乃見天則淮南	-11.8906
曰休哉周公曰雖	-11.8906
曰天地九重人亦有九	-11.8906
曰恒秉季德耳恒豈亦人名乎厥	-11.8906
曰紂可伐也白魚入	-11.8906
有仍牧正典主牛羊遂攻殺澆滅有扈復	-11.8906
有善稱無害疾也故論語曰子	-11.8906
有扈澆國名也澆滅	-11.8906
有羿字䠶一作	-11.8906
有赤水飲之不老又	-11.8906
服終自服之遂得	-11.8906
未定也故謂	-11.8906
東南至葭	-11.8906
東維託龍尾	-11.8906
東行還於九河之居我亦欲	-11.8906
楊葉圎而歧有脂而香	-11.8906
楚所滅按徐偃	-11.8906
楚文王乃春秋時相去甚逺豈春秋時	-11.8906
楚聲音韻	-11.8906
楚詞隋有僧	-11.8906
槩平也權衡皆稱	-11.8906
樂保延年	-11.8906
樂歌曰奠桂	-11.8906
欃槍彗祥	-11.8906
次淮南子言弱	-11.8906
正直之臣端其心	-11.8906
殆危也言	-11.8906
氏九州山	-11.8906
水中而言木上以喻	-11.8906
水之中有盛茂之	-11.8906
水而求薜荔登山	-11.8906
江淮諸侯服從	-11.8906
沛吾乘兮桂舟	-11.8906
治其國仁義著聞	-11.8906
波稍隨	-11.8906
洧盤之水遁	-11.8906
浦水名儃佪一作	-11.8906
海注云儵忽在莊子甚明王逸以	-11.8906
海經云弱水出自窮石窮石今之西郡	-11.8906
温泉湯谷	-11.8906
漱縮又切	-11.8906
澆扈爰踣承逸之誤	-11.8906
澧水之内有芬芳之	-11.8906
為余駕飛龍兮雜瑶象以為車	-11.8906
無信不可乆留	-11.8906
無形故衣之以	-11.8906
然而身死國亡子孫無類注云偃王	-11.8906
煔爚也言復炙鶬鴰烝	-11.8906
父是臧言	-11.8906
牧竪也天對云牧正矜矜	-11.8906
物志云偃王	-11.8906
物而生山鬼亦晻忽	-11.8906
猖洋以游輪行九	-11.8906
猶迷惑不	-11.8906
獨慷慨而	-11.8906
獨與子故伐啓啓亡之左傳少康滅澆于	-11.8906
獸也言羿不	-11.8906
獸名熊屬故有	-11.8906
王受命之君皆畏天敬賢論議	-11.8906
王當周穆王時	-11.8906
王者備位而巳五子之失乎家	-11.8906
王舟羣臣咸	-11.8906
王見諸侯朝徐者衆心中覺悟恐	-11.8906
珥	-11.8906
畏其方熾乃分東方諸侯命徐偃王主	-11.8906
畝秦孝公之制二百四十	-11.8906
畟	-11.8906
畢善切急也	-11.8906
異於衆木來服	-11.8906
登鄂渚髙岸還望楚國嚮秋	-11.8906
白好目曼澤時	-11.8906
皆言好自	-11.8906
睩睩然視精	-11.8906
矣差舊讀作蹉	-11.8906
禹舊跡	-11.8906
秉大禹之	-11.8906
種叢蘭又栽木	-11.8906
稽古帝	-11.8906
穉顔色赤	-11.8906
竅天對曰無營以成沓陽而九	-11.8906
竒也猶詩云不	-11.8906
笑蛾眉曼澤	-11.8906
筮不吉妖	-11.8906
精豈河伯也馮夷得道	-11.8906
綠葉紫	-11.8906
美橘之有是	-11.8906
羨似面切貪慕也列	-11.8906
義而亡注云有扈夏啓之	-11.8906
習南土便其風氣屈原自喻才	-11.8906
翺翔之翼翼	-11.8906
老補曰山海經不死民在交	-11.8906
老陽數也	-11.8906
者三十六國穆王聞之遣使	-11.8906
者善讀之能	-11.8906
者紀時明	-11.8906
而不祥星變又凶固	-11.8906
而滅徐也故司馬法曰國雖	-11.8906
而無武備楚文	-11.8906
聞人聲乃	-11.8906
肴骨體也蒸進也	-11.8906
能純美冝上輔	-11.8906
脛國東其人黒色夀不死	-11.8906
膓折摧也悷一作㤡補曰繚	-11.8906
臣云止馳騖者使順	-11.8906
臣云淈泥揚	-11.8906
自關而西	-11.8906
至孟津八百諸侯	-11.8906
至於壽宫歆饗酒食憺然安樂無	-11.8906
至竟陵合滄浪之水又東過三澨水觸大	-11.8906
與羌水合至江夏安陸縣名沔水故有漢	-11.8906
與豫皆未	-11.8906
舜不告而娶固不可堯命瞽使舜娶舜雖	-11.8906
舜名按書云有鰥在	-11.8906
舜曰重華與堯	-11.8906
舜與合法度而共治也	-11.8906
苟余情其信姱以練要兮	-11.8906
茅也蒸一作䒱一作烝	-11.8906
莫我知者故欲觀乎四荒以求同志此孔	-11.8906
萬睩音禄	-11.8906
蕙肴以蕙草蒸肉也藉	-11.8906
藉進桂	-11.8906
藐	-11.8906
藩籬以自蔽	-11.8906
蘭異於衆草	-11.8906
虺弗摧	-11.8906
衆貪鄙也一作世	-11.8906
行仁義不設武備楚文王滅之徐國今	-11.8906
行度如玉不以苦樂	-11.8906
行身將死亡	-11.8906
衣不茍而為温	-11.8906
補曰史記周穆王西	-11.8906
補曰泊止也莽莽莫古切草	-11.8906
西海中近列姑射山有陵魚人面人手魚	-11.8906
西至河上穆王	-11.8906
覆舟喻易尚或艱之承逸之誤也取此	-11.8906
規圜也言	-11.8906
言天道神明降與人之	-11.8906
言宓妃體好清潔	-11.8906
言山鬼所處乃在幽篁之内	-11.8906
言已正言危	-11.8906
詰屈也言已乗船	-11.8906
論曰煎魚切肝羊	-11.8906
謂巳不忠遂外	-11.8906
謂楚莊王曰王不伐徐必反朝徐乃舉	-11.8906
豫或以爾雅曰猶如麂善登木猶獸名也	-11.8906
貰赦宥罪法也宥	-11.8906
賦讀者不以	-11.8906
身見則風濤	-11.8906
辛帝嚳有天	-11.8906
迷惑也如之也言已思	-11.8906
逸云太湖	-11.8906
遇二女二女雖死猶思其神所以不敢	-11.8906
運輠渾淪	-11.8906
過非有扈也逸	-11.8906
道其惡存於楚	-11.8906
還則復無	-11.8906
還轉也言抑止馳騖者順通共獲引	-11.8906
都賦以石林與	-11.8906
都門外言夕張者猶	-11.8906
配乾坤也	-11.8906
配天也補曰書序云啓與有扈戰于甘之	-11.8906
酒椒漿以備五味也五臣	-11.8906
采旗也招指指麾也旗所以招指語人也	-11.8906
重儲用切再	-11.8906
重泉而復出之	-11.8906
金室飲氣之民不死之野國語仲	-11.8906
鉞旦孰喜之余謂	-11.8906
長狄春秋云防	-11.8906
陟遥切早也騁	-11.8906
陳列也浩大也言	-11.8906
陸地而朝者三十六國穆王後得驥	-11.8906
陸旁通幽	-11.8906
隻	-11.8906
集它方又無所之故	-11.8906
雕畫也題	-11.8906
雷塡塡者君妄怒也雨冥冥者羣佞聚也	-11.8906
電非也按莊	-11.8906
露斯源一作	-11.8906
非是地理志云扶風鄠縣是扈國	-11.8906
非賢士之	-11.8906
頥	-11.8906
類邅轉	-11.8906
飾轂以金錯衡英華照燿	-11.8906
馮挾也珧弓名	-11.8906
馮衍賦云韓盧抑而	-11.8906
騰馳也言美女之	-11.8906
高宗夢得説	-11.8906
髪垂地	-11.8906
魚網也夫鳥	-11.8906
依彭咸之遺則	-11.8906
時舞何以	-11.8907
渡汨水以自沈	-11.8907
貪惜以忠事君而志不合	-11.8907
逐江湘之順流赴陽侯之潢洋兮下石	-11.8907
㫊旎旌旗	-11.8907
恆	-11.8907
旖音倚其字從竒旖	-11.8907
死不還補曰耿古幸切	-11.8907
死誰有不	-11.8907
沕穆無間沕	-11.8907
濯	-11.8907
獸羣一作群	-11.8907
補曰禮記云今是大	-11.8907
駰	-11.8907
鳥獸失喪其羣匹越月踰時焉則	-11.8907
䌌	-11.8907
䛕也絜苦	-11.8907
千里駒展才力也	-11.8907
問造化之神以得	-11.8907
巳忠信之故得過於衆而	-11.8907
昂昂馬行	-11.8907
簪切山小而	-11.8907
自求辱也	-11.8907
順滑澤也文選作絜五臣	-11.8907
世之滋垢	-11.8907
也垢一作埃	-11.8907
云能滑柔	-11.8907
云黔嬴也天上造化	-11.8907
保年壽	-11.8907
切蹀音牒	-11.8907
原傳不獲	-11.8907
右黔雷	-11.8907
器也轉注吐酒終日不巳	-11.8907
愁心長慮憂無極	-11.8907
所至仰見飛龍翩翩而上將有所登自傷	-11.8907
放隔塞	-11.8907
文作啑諜補曰踥思	-11.8907
朝廷人有爵	-11.8907
期欲共	-11.8907
止願退我身處於貧窮而	-11.8907
江離皆香草不若椒蘭之盛也列	-11.8907
淺淺疾流而	-11.8907
無所登至也五臣云下視水石淺淺而流	-11.8907
狀一云酒	-11.8907
由由猶豫也言巳	-11.8907
相與不厚則長相怨恨	-11.8907
苾	-11.8907
蘭之芬芳而猶若是况衆臣若	-11.8907
補曰緹音提䌌	-11.8907
身相共俱生長	-11.8907
車江離者乎	-11.8907
遺墮也言	-11.8907
鑿山楹而	-11.8907
飛龍翩翩而舉物皆遂性我獨	-11.8907
𨄌	-11.8907
之則虚僞安	-11.8907
之多並運於	-11.8907
也記曰禹能	-11.8907
事故其衆交合而吞滅	-11.8907
五臣云委曲順俗也	-11.8907
人賦云掉指	-11.8907
以手循其珥也博雅曰劒珥謂之鐔鐔	-11.8907
以飾劒故取以名焉	-11.8907
余因稱乎	-11.8907
作椉文選作䇿馳一作駝	-11.8907
兮亦作閭娵	-11.8907
典論云優游按衍	-11.8907
則尚書咎繇之謀謨也登崑崙而	-11.8907
則鮌非死	-11.8907
劒鼻一	-11.8907
南至交阯北至	-11.8907
吐忽切滑也滑音	-11.8907
吸衆氣而	-11.8907
在山源谿水中聞人聲便以口中毒射	-11.8907
墮死也補曰羽山東裔此云西征	-11.8907
天乗雲伇使百神似若仙者雖身沈沒名	-11.8907
己歡喜持瑟調	-11.8907
度也言堯放鮌羽山西行	-11.8907
度越岑巖之險因	-11.8907
後詞人摭而	-11.8907
志曰水神	-11.8907
念我長生而乆僊兮不如反余之故	-11.8907
思念君也故涕漸	-11.8907
悲憂也愉一作	-11.8907
惡也射一作䠶補曰射食亦切	-11.8907
愉樂以忘	-11.8907
愍一作閔魏文帝	-11.8907
於道路此但言	-11.8907
日可致千里以言任賢智則可成	-11.8907
晉書天文	-11.8907
曰佩玉鏘鏘言	-11.8907
曰劒口一曰劒環珥耳飾也鐔所	-11.8907
柔弱曲	-11.8907
没萬物不可度	-11.8907
清商歌曲也言赤松王喬	-11.8907
渚水涯也言巳雖	-11.8907
漢藝文志	-11.8907
澹然而自	-11.8907
焉鏘佩聲也詩	-11.8907
爾疾其君初欲與	-11.8907
王之弟應薦賢	-11.8907
珥音餌鐔	-11.8907
璆琳琅皆美玉名也爾雅曰	-11.8907
相對心中澹然而自欣樂俱吸衆氣而遊	-11.8907
禹行其所無事	-11.8907
窮猶鑿山石以	-11.8907
羣臣賦四	-11.8907
者自西徂東也上文	-11.8907
耨	-11.8907
背逐人駓駓其走捷	-11.8907
處山澤無異故作招	-11.8907
蜮射人者也前漢五行志云蜮生南越亂	-11.8907
補曰廣雅嗼音莫安也	-11.8907
見信而反告我以不	-11.8907
言子蘭弃其美質正直之性隨從	-11.8907
越其流浟浟又迅	-11.8907
轉隨俗也補曰文選注	-11.8907
長矢射天狼言君當誅	-11.8907
闗梁閉而不通	-11.8907
陟險猶易聊且	-11.8907
駝即馳字	-11.8907
骨稽音雞	-11.8907
魚龍驂	-11.8907
㯐	-11.8907
䇿馬箠所	-11.8907
一作撫及一作務及文選云何不	-11.8907
七十化	-11.8907
不困貧也五臣云以此二事問其所	-11.8907
不彰故子生	-11.8907
不見有聖	-11.8907
之九歎王逸之九思其	-11.8907
之氣來塵塺人也愈	-11.8907
之言以過怒	-11.8907
也或曰糾鏘鳴兮琳	-11.8907
也據本草在草部中又生南陽川谷此云	-11.8907
也言乃以鼎鑊	-11.8907
于洛汭作五子之歌此佚篇也巷一作居	-11.8907
亦喻原之美	-11.8907
人之執竿又引阮公詩云夜干臨層城是	-11.8907
仁義交錯條理成也以言才	-11.8907
以決疑不	-11.8907
以釋字原之義名有五屈原以	-11.8907
何卜而以問詹尹何哉時之人去其所當	-11.8907
作善聲也以言君不	-11.8907
使地東南傾注云	-11.8907
值於堯而遭	-11.8907
僊人從之受道也求	-11.8907
兮歸來東方不可以託些	-11.8907
其後帝曰	-11.8907
切儒行云不充	-11.8907
十六圖	-11.8907
厲怒勢氣益盛援一	-11.8907
厲王之末發而觀之	-11.8907
又淮南言共工之力觸不周	-11.8907
可愛又能	-11.8907
名平文選以平	-11.8907
君亂臣貪不	-11.8907
含憂彷徉意中悵然惝罔長	-11.8907
命也禮記曰三	-11.8907
善惡好蔽美	-11.8907
在列肆文王親往問之對曰下屠屠	-11.8907
多糾錯而鳴其聲	-11.8907
天地之圜方	-11.8907
如使可得羈係而畜之則與犬羊無異不	-11.8907
如雄鳩	-11.8907
字誤矣正則以釋名平之義	-11.8907
家屈原傳六國	-11.8907
射干香草補曰	-11.8907
屈原願與河伯	-11.8907
山出五色流水其白水入中國	-11.8907
工氏興霸於伏羲神農之間其後	-11.8907
師望在肆昌何識鼓刀揚聲后何喜	-11.8907
年時欲暮才力	-11.8907
年而不復按楚	-11.8907
引雌蜺㛹嬛嬛與	-11.8907
快古秀皆得	-11.8907
恃其強與顓頊	-11.8907
恐犯忌而	-11.8907
或曰流澌解散屈原自	-11.8907
或言周文王夢天帝立令狐之津太公立	-11.8907
拙	-11.8907
於中庭言不知别於善惡也言人而不	-11.8907
於縁切便	-11.8907
曰上句皆原所從也下句皆原所去也卜	-11.8907
曰原故父伯庸名我	-11.8907
枹一作桴補曰援音	-11.8907
梁陶隱居云鯉魚形	-11.8907
楚之間謂	-11.8907
歆	-11.8907
武介虫之長文	-11.8907
比干執履忠直身以菹醢乃長跪	-11.8907
河之渚而流澌紛然相隨來	-11.8907
注云吕望鼓刀	-11.8907
清怨素艶幽	-11.8907
瀁	-11.8907
焉名曰射干莖長四寸生於	-11.8907
無淈滑而魂補曰淈滑並音骨	-11.8907
無禮不可與共	-11.8907
父思善應而名字之以表其	-11.8907
爾雅云注旄首	-11.8907
牙盡黒常食	-11.8907
牛上屠	-11.8907
琅糾錯也琳琅聲也謂帶劒佩衆	-11.8907
琳琅也鏘釋文作鎗	-11.8907
璆渠幽切	-11.8907
田見識所夢載與俱歸以	-11.8907
疑即此茀	-11.8907
百官也天有三宫謂紫宫太微文昌也故	-11.8907
祉	-11.8907
神變乃至飛	-11.8907
紛錯憒亂也言巳念我楚國風	-11.8907
終撫我情寂	-11.8907
而采芙蓉固不可得也	-11.8907
臑熟也致致醎	-11.8907
臑熟羹臛調和醎酸致其芬芳望之滿	-11.8907
臣云三王所以有	-11.8907
至九江叱黿鼉	-11.8907
虧也補曰日出於東方入於	-11.8907
補曰晼音宛景	-11.8907
褭	-11.8907
覆天地也補曰淮南云深閎	-11.8907
見赤松子與王喬也喬一作僑	-11.8907
言入月三五而盈三五而缺故言減	-11.8907
言白水出崑崙之山	-11.8907
言葛藟惡草乃縁	-11.8907
言遂至衆	-11.8907
言麒麟仁智之獸逺見避	-11.8907
詘於富貴充	-11.8907
誕寘之寒	-11.8907
語曰兵車之屬六乗車之㑹三孫明	-11.8907
調者莫神於地	-11.8907
論也吁一作于黙一	-11.8907
讒妒入以自代	-11.8907
車騎籠茸而競驅也補曰	-11.8907
軼迅風	-11.8907
輡軻不遇也言	-11.8907
道莫貴兮歸	-11.8907
違去也改更也言宓妃雖信	-11.8907
邪要垂衆佩周旋而舞	-11.8907
醨	-11.8907
鏗鏘九奏乃成屈原自傷不	-11.8907
開春發歲兮	-11.8907
雄有廣騷	-11.8907
雨謂之淫故淫亦訓	-11.8907
靳尚及上官	-11.8907
願承閒而	-11.8907
飲之不死於一作乎	-11.8907
駿馬太阿利劍也言君	-11.8907
魂乎歸徠静以安只	-11.8907
鯪魚鯉也一云鯪魚	-11.8907
黄鐘毁棄	-11.8907
龍勿用也駟玉虬而	-11.8907
龜與蛇交曰	-11.8907
􁥍	-11.8907
㑹一作合補曰卒終	-11.8907
㳙	-11.8907
一云命有殷之	-11.8907
一云與佳人	-11.8907
一令出平伐其功	-11.8907
一作漬補曰漸音	-11.8907
一作精補曰易云時	-11.8907
一惡天命無常罰佑之不恒也	-11.8907
一曰愁鬱鬱兮補	-11.8907
一曰美玉也瑱壓也音鎭下文云白玉兮	-11.8907
一本萃上有何字五	-11.8907
一無陟字陞一作	-11.8907
三寸首大	-11.8907
上髙巖之峭岸兮	-11.8907
下何能使其民依倚而隨之	-11.8907
下曰虞舜此言舜孝如此	-11.8907
不告何也曰帝亦知告焉則不得妻也伊	-11.8907
不獨南方之物但	-11.8907
不異賢愚若駕罷牛	-11.8907
不見天地所以來出歸有	-11.8907
中心浩蕩罔然	-11.8907
中結軫而增傷	-11.8907
乃卒是以	-11.8907
之也志足氣滿貪求無	-11.8907
之其骨節專車	-11.8907
之山也一云何所不	-11.8907
之山有木名帝休其枝五衢注云言樹	-11.8907
之從也注云離騷所	-11.8907
之志以死忠直	-11.8907
之時周流四方觀	-11.8907
之節者固乃前	-11.8907
之精明欲以	-11.8907
乘鄂渚而反顧兮	-11.8907
九岐厥圖以	-11.8907
也九章云帶長	-11.8907
也五臣云君縱相	-11.8907
也傷一作慯五臣	-11.8907
也儵忽電光	-11.8907
也周流觀乎	-11.8907
也周禮曰凡邦之張事漢書	-11.8907
也婦謂之家	-11.8907
也字五臣云恐君之敗	-11.8907
也水經云武當	-11.8907
也淮南子曰申茮杜	-11.8907
也祖迎於	-11.8907
也祗敬也儼一作嚴	-11.8907
也補曰憺徒濫切漢武帝置壽宫神君臣	-11.8907
也補曰極至也詩	-11.8907
也言患苦衆人	-11.8907
也言有雄虺一身九頭	-11.8907
也論語曰桓公九合諸侯不以兵	-11.8907
云佳善也廣雅云	-11.8907
云帝降夷羿革孽夏民馮珧利	-11.8907
云歎寂漠補曰嗼音莫	-11.8907
云辟法也機關	-11.8907
五臣云無有頗	-11.8907
五臣云靈巫何不持	-11.8907
亡周國後有夫婦賣是	-11.8907
亦名牽魚毎牽一魚獲二	-11.8907
人思與同志終不變更也五臣云欲將	-11.8907
今脩飾而窺鏡兮	-11.8907
付也娭音嬉戲也一作	-11.8907
仙傳齊人韓終	-11.8907
令衆莫不知	-11.8907
以上遊兮從	-11.8907
以况芬芳不一而	-11.8907
以威武嚴民後	-11.8907
以服事殷周之德可	-11.8907
以直鍼而	-11.8907
以致於治非獨索蕙	-11.8907
以雲神喻	-11.8907
任一人也故堯有禹咎繇伯夷	-11.8907
伏自藏執守寂寞	-11.8907
伯樂善相馬	-11.8907
伯猶周召之君	-11.8907
位淮南言日出	-11.8907
何令徹彼	-11.8907
何險巇之嫉妬兮	-11.8907
作脩廣婉	-11.8907
作車服天下	-11.8907
佞進則忠良壅也補曰猋卑遥切犬走	-11.8907
佩纕以結言同意喻求賢也遺平	-11.8907
佳善也言美女身	-11.8907
佳好也張音帳陳設	-11.8907
使家臣逢䝉射而殺之貪取其家以	-11.8907
使衆賢志士	-11.8907
來儵忽儵忽疾急	-11.8907
便其風氣一云便且遂也一云便	-11.8907
便悁一	-11.8907
保神明之清澄兮	-11.8907
倉北阪城祠之其神或	-11.8907
側無常善者佑之	-11.8907
傷不得行也補	-11.8907
儃佪猶低佪也	-11.8907
元所云謂此也按此當與下文相屬下	-11.8907
先王射官帝	-11.8907
公之心也然則盍行乎曰不可君謂我欲	-11.8907
六宗孔子曰所宗	-11.8907
六龍以御天莊子曰	-11.8907
兮期夕張五臣云佳期謂湘夫人言	-11.8907
其化流行羣下皆	-11.8907
其威儀整其服飾以異於衆也	-11.8907
其家其父頑母嚚不	-11.8907
其廣差幾何	-11.8907
其弟仲康仲康死子相立則五	-11.8907
其性也補曰禹貢淮	-11.8907
其次有聖人者形	-11.8907
冀壹反之何時	-11.8907
切至唐傳楚	-11.8907
切貪也諸本作	-11.8907
則神靈應之而雨以	-11.8907
則虺亦有大者其類不一招䰟南方曰	-11.8907
劉向列女傳舜陟方死於蒼梧	-11.8907
力者也論曰澆盪舟言澆無義淫佚其嫂	-11.8907
勉強上求明君下索	-11.8907
南也按天問所言	-11.8907
卻	-11.8907
厠俱坐	-11.8907
去讒佞無令害賢改此惑誤之度	-11.8907
又恐年歲忽過不與我相待而身老耄也	-11.8907
又曰山川之守足以綱紀天下者其守	-11.8907
又曰漢興世世常來光	-11.8907
又陳列竽	-11.8907
古書通用今澧州有佩浦因楚詞	-11.8907
叨	-11.8907
召畢是雜用	-11.8907
吉良之日齋戒恭敬以宴	-11.8907
同鬿音祈堆	-11.8907
名也又曰若	-11.8907
名曰猩猩又曰猩猩知人名其	-11.8907
君建立忠䇿必	-11.8907
君禮記舜葬於	-11.8907
君臣之賢欲往就之也	-11.8907
吹聲參差當復	-11.8907
吾君伯氏	-11.8907
周有吕旦散	-11.8907
周禮玉鎭大寶器故書作瑱鄭司農云瑱	-11.8907
呼蒼天言	-11.8907
命已猶可以用也補曰捐玦遺佩以	-11.8907
命而強者	-11.8907
命而有殷國因	-11.8907
和屈原自傷獨無和也	-11.8907
哀高丘之無女	-11.8907
啄齧也言天門凡有九重使神虎豹執	-11.8907
喻張設忠信以待	-11.8907
四方而乆不	-11.8907
四荒皆四方昏荒之國禮失而求諸野當	-11.8907
回傾地夷羿弊	-11.8907
國富強而法立兮	-11.8907
土地之主也言武王	-11.8907
土大社美太王之社遂	-11.8907
在寅正月始春庚寅之日	-11.8907
在東方少陽之	-11.8907
在長沙水經云澧水出武陵充	-11.8907
坼剖而	-11.8907
壇祭寒暑也	-11.8907
壯之時棄逺讒	-11.8907
夏謂之夏水又東	-11.8907
多回切山海經云北	-11.8907
多於所知又性	-11.8907
多於百畝矣	-11.8907
多福也屈原以	-11.8907
夜鳴以一牢祠之名曰	-11.8907
大者又老子曰豫兮若	-11.8907
天下之太社也	-11.8907
天下也論語曰三分天下有其二	-11.8907
天下以揖讓而啓用兵以滅有扈氏有扈	-11.8907
天后土生美橘樹	-11.8907
天子傳後世如	-11.8907
天災地變乃	-11.8907
太子因誤申生	-11.8907
夫人之神來此歆饗以	-11.8907
奚齊立	-11.8907
女當須媒也五臣云公子謂夫人喻君也	-11.8907
女蘿施于松上吕氏春秋云或	-11.8907
好姿故來見其容也善	-11.8907
妖怪也號呼也昔周幽王前世有童	-11.8907
妖怪執而曵戮之於市也補曰	-11.8907
妺音末嬉音喜	-11.8907
始秋薠草	-11.8907
委政忠良而遊息也補曰屬	-11.8907
姜嫄為帝嚳	-11.8907
姦回莊子曰好言人之	-11.8907
姿質鄙鈍寡所知也	-11.8907
威怒益盛刑酷烈	-11.8907
娶婦乃至於	-11.8907
娶後妻孋姬生子	-11.8907
媚於内施賂於外樹之詐慝而專其權	-11.8907
子也體性慈孝獻公	-11.8907
子云中於機辟辟毗亦切	-11.8907
子相攻身不得	-11.8907
子西征至	-11.8907
子豈有家居閭巷之理	-11.8907
孟軻云有孺子	-11.8907
孽以亡其國也	-11.8907
官也夏少	-11.8907
宣山上有桑焉其枝曰衢注云枝交	-11.8907
寵遇錫祉	-11.8907
封狐大狐也言羿	-11.8907
射食亦切弓弩發也天	-11.8907
將追之不及補曰	-11.8907
展轉反側言	-11.8907
川猶兮若畏四隣則猶	-11.8907
巧任政必	-11.8907
已願往芬芳絶異之洲采取杜若以與	-11.8907
帳與夫人期歆饗之也一本佳下有人字	-11.8907
常春藤	-11.8907
平以失情實則使衆人	-11.8907
年衰老也愈一作俞補	-11.8907
年齒巳老將	-11.8907
度無有傾失故能	-11.8907
庶毎生是也集韻云梅母罪切慙也梅母	-11.8907
康滅之賈逵云羿之先祖也	-11.8907
引陵魚曷止與逸	-11.8907
弩之機以蓬蒿之箭	-11.8907
形參差象	-11.8907
彫切揄動也汰	-11.8907
待賢主補曰諸侯之子稱公子謂子椒子	-11.8907
徐周衰其後僣號稱	-11.8907
得妺嬉肆其情意故湯放之	-11.8907
心也補曰抑沈猶九章云情	-11.8907
心悇憛而煩	-11.8907
必有車轍馬	-11.8907
忠信兾君任用而遂斥弃則	-11.8907
忠良害仁賢也夫浮雲行則蔽月之光	-11.8907
性誠以勇	-11.8907
怨也以言君不稱量士之賢愚	-11.8907
怨忽過之耳以	-11.8907
息音聲砰	-11.8907
情竭盡耳目	-11.8907
我之佩尊	-11.8907
我之冠長	-11.8907
或曰十二畝或曰三十畝九畹	-11.8907
戲以佚畋獵又射殺大狐犯	-11.8907
所以低佪猶豫	-11.8907
所周注云榘方	-11.8907
所在乎一無速字補曰虺許偉切國語	-11.8907
所聚不可居之也補曰	-11.8907
才力盛壯	-11.8907
按也桉與按同抑也止也釋文厭於鹽切	-11.8907
掃張施帷	-11.8907
撫芳武切不撫壯而	-11.8907
故復不能巳	-11.8907
故曰頌管子篇	-11.8907
數進忠言陳便	-11.8907
斃姬乃泣曰	-11.8907
文云帝嚳射	-11.8907
文筵竹	-11.8907
文辭流四海也承一	-11.8907
於㑹稽之山防風氏後至禹殺而戮	-11.8907
於人年又	-11.8907
於是申生遂自殺故曰父信讒	-11.8907
於江湘之間俗謂之湘	-11.8907
春秋命厯序曰皇	-11.8907
是以獲没於祗宫史記云周穆王得驥温	-11.8907
是善射之號此羿商時諸侯有	-11.8907
晁並朝夕	-11.8907
時亦冉冉而將至	-11.8907
曰供張東	-11.8907
曰此孔子所	-11.8907
曰醴陵名也長沙	-11.8907
曼澤也言復有異	-11.8907
曼輕細也音	-11.8907
曽枝剡棘	-11.8907
有法則秀異	-11.8907
有赤蟻南有雄	-11.8907
有醴陵縣澧醴	-11.8907
服行也用也武王數紂曰賊虐諫輔	-11.8907
木如此上下故稱猶豫水經引郭	-11.8907
未必一如	-11.8907
本草云薫草一名蕙草生下濕地陶	-11.8907
朱虎益	-11.8907
枚氏枚狀如箸	-11.8907
枝交錯相重	-11.8907
柏拍並	-11.8907
根乃蔓衍於九	-11.8907
梁棟之謀若	-11.8907
梁縣西小	-11.8907
棺赴按小白之死諸	-11.8907
楓音風爾雅楓攝攝注云似白	-11.8907
楚所敗元和姓纂	-11.8907
極竟也言君任駑	-11.8907
榘俱雨切	-11.8907
榘法也矱度也言當自	-11.8907
樂君當復誰	-11.8907
樂天神也補	-11.8907
樂畋獵不恤民事信任寒浞	-11.8907
樂而忘歸徐偃王作亂造	-11.8907
橘樹亦異於衆也	-11.8907
橫四海兮焉窮	-11.8907
欲居九夷也僻	-11.8907
欲盡忠竭其所聞陳	-11.8907
歎曰江湘油油長流	-11.8907
止王心王	-11.8907
此言文王秉鞭作牧以事紂	-11.8907
武王之事太公佐之伯夷諫之佐之	-11.8907
比干聖人紂諸父也諫紂紂怒乃殺	-11.8907
氣舊祠也注云陳	-11.8907
江漢浮浮	-11.8907
沐浴升朝廷也	-11.8907
没也濟成也言	-11.8907
河水油油	-11.8907
河津氷始合車馬不敢過要須狐行	-11.8907
河無如尾何且狐性多疑故俗	-11.8907
油油流	-11.8907
治道補曰遺去聲	-11.8907
洋洋無所歸	-11.8907
洞庭亦謂之太湖	-11.8907
洞庭按禹貢曰	-11.8907
浞寒浞羿相	-11.8907
浮蓱也山海經曰	-11.8907
海惟揚州厥包橘柚錫貢漢書	-11.8907
湛厚也詩曰湛	-11.8907
滄浪之水在荆州	-11.8907
滅規矩而改鑿	-11.8907
澤質之潤也玉堅而有	-11.8907
澧史記作醴孔安	-11.8907
濯我足清斯濯纓濁斯濯足矣自取之	-11.8907
瀐	-11.8907
火氣煙上	-11.8907
烏郭二切淮南子曰知榘彠之	-11.8907
焉祭公謀父作祈招之詩以	-11.8907
然吾君老矣子少國家多難伯氏不出而	-11.8907
然怊悵自恨心悲毒也補曰	-11.8907
然盛美神以歡欣猒飽喜樂則身	-11.8907
物量榖不知審其多少同其稱	-11.8907
犀革之盾必摧折而無所能入	-11.8907
狄于鹹長狄也射其目身	-11.8907
狐突曰	-11.8907
猶有臭書	-11.8907
猶雜用衆賢	-11.8907
獸如豕而人	-11.8907
王俱顓頊之孫有	-11.8907
王採藥王不	-11.8907
玦又遺下女以杜若好	-11.8907
珧音遥爾	-11.8907
瑟大倡作	-11.8907
璣以言君不知賢愚忠佞之士猶同玉石	-11.8907
環旋也言王者	-11.8907
瓊瑶瑱一作鎭補	-11.8907
生之言也然禮記曰	-11.8907
生平望之時	-11.8907
生述征記云	-11.8907
由復遇逍遥容與待君之命	-11.8907
申生有罪不念伯氏之言也以至	-11.8907
當何由之	-11.8907
疾行也南楚	-11.8907
病絶落何	-11.8907
瘁	-11.8907
白昭然光明草木之類皆含氣芽蘖	-11.8907
皇皇天也赫戲光明	-11.8907
盍言子之志於公乎世子曰不可君安	-11.8907
盖仲康以來羿勢	-11.8907
相錯成文則	-11.8907
眷眷獨行無有還意也	-11.8907
眼與珠璣同貫而不别也一云麤嵎	-11.8907
睩一作睇五	-11.8907
矢斧鉞使得專征	-11.8907
矢箭也言張	-11.8907
矣又有因産而遇災害者故美其無害也	-11.8907
矣謂文王也詩	-11.8907
知忠言謇謇	-11.8907
石得水仙是	-11.8907
碁即入水食魚	-11.8907
示有還意佩一作珮醴一作	-11.8907
社也記曰王	-11.8907
祀張帷帳	-11.8907
神客曰防	-11.8907
祭日也夜明祭月	-11.8907
秉季德者謂夏啓也該兼也言能兼	-11.8907
秦皇漢武託	-11.8907
種芳草當刈未刈蚤有霜雪枝葉雖蚤萎	-11.8907
穆敬也愉樂也上皇謂東皇	-11.8907
窈窕好	-11.8907
立住補曰儃知然切儃佪	-11.8907
立冢土戎醜攸行	-11.8907
竭忠而不見	-11.8907
等異物志云橘	-11.8907
箠	-11.8907
篁竹林也五臣云幽深也篁竹叢也補曰	-11.8907
精靈主行	-11.8907
紛郁郁其遠承兮	-11.8907
絶人之才者謂之能此讀若耐	-11.8907
綏萬國安天下也易曰無平不頗也	-11.8907
綽猶多也態	-11.8907
縣西北漢水中有洲名滄浪洲地	-11.8907
罇	-11.8907
美投於賢	-11.8907
美要眇兮宜脩	-11.8907
羿堯時亦有羿	-11.8907
羿諸侯也畋獵也一作田	-11.8907
者乎然日	-11.8907
者云頌容也陳	-11.8907
者佞人並	-11.8907
者六埋少牢於太昭祭時	-11.8907
而不愛也補曰禮	-11.8907
而不成也以言	-11.8907
[...]
