<unk>	0
<s>	0
</s>	0
/	-3.48755
(	-3.98026
)	-4.0791
之	-4.12791
)(	-4.26623
也	-4.74755
以	-4.92659
為	-4.93653
而	-5.00648
曰	-5.00892
有	-5.17025
於	-5.18003
其	-5.29048
不	-5.35379
人	-5.59698
者	-5.67833
無	-5.74654
王	-5.78127
見	-5.81075
大	-5.92637
言	-5.92653
子	-5.9314
一	-5.94864
中	-5.967
上	-5.99511
則	-6.05576
在	-6.06611
與	-6.08422
山	-6.10258
自	-6.12339
天	-6.13075
云	-6.1811
時	-6.19343
三	-6.19875
行	-6.2266
傳	-6.2385
所	-6.24104
至	-6.24257
如	-6.24434
此	-6.24898
故	-6.26127
公	-6.26926
生	-6.27673
文	-6.31732
書	-6.3223
乃	-6.34263
漢	-6.3453
水	-6.34791
是	-6.37442
▁	-6.37933
作	-6.39456
下	-6.39743
帝	-6.43671
長	-6.45153
日	-6.47198
風	-6.47321
出	-6.48274
道	-6.48736
名	-6.48837
謂	-6.49457
相	-6.49913
國	-6.51283
又	-6.52645
事	-6.52887
若	-6.56166
矣	-6.56247
二	-6.57041
得	-6.57255
及	-6.5812
成	-6.59513
心	-6.5966
周	-6.5968
兮	-6.59864
明	-6.5996
東	-6.60845
南	-6.6242
將	-6.62859
城	-6.62961
五	-6.64046
皆	-6.65099
世	-6.65114
使	-6.6526
君	-6.67999
臣	-6.68776
方	-6.69442
後	-6.69765
非	-6.70204
詩	-6.70473
入	-6.7065
今	-6.72224
從	-6.72448
平	-6.72689
我	-6.72963
雲	-6.73802
同	-6.73905
西	-6.74145
陽	-6.76532
何	-6.76821
神	-6.76883
乎	-6.76891
年	-6.77743
思	-6.78404
地	-6.79533
當	-6.80038
齊	-6.80612
賦	-6.80851
石	-6.81246
知	-6.81302
可	-6.82275
未	-6.82452
令	-6.82632
安	-6.82786
金	-6.82884
四	-6.8347
復	-6.83781
爲	-6.84155
歸	-6.8442
馬	-6.85113
門	-6.86892
魏	-6.86906
命	-6.87228
秦	-6.88127
已	-6.88401
九	-6.88909
多	-6.89024
遂	-6.89466
既	-6.89851
華	-6.90277
焉	-6.90861
北	-6.9096
惟	-6.9171
玉	-6.92178
亦	-6.92671
州	-6.92755
徳	-6.92805
樂	-6.92966
晉	-6.93016
居	-6.93386
梁	-6.93939
氏	-6.94037
然	-6.94258
流	-6.9429
前	-6.9537
欲	-6.95516
于	-6.95754
正	-6.96416
郡	-6.96883
用	-6.969
髙	-6.96964
禮	-6.9785
經	-6.98403
始	-6.98865
即	-6.9922
龍	-6.99436
清	-7.00139
光	-7.00645
侯	-7.00683
聞	-7.01175
去	-7.01213
本	-7.01749
望	-7.01773
和	-7.02732
能	-7.03477
六	-7.03528
封	-7.03657
朝	-7.03805
武	-7.04619
高	-7.05564
常	-7.06541
重	-7.06704
景	-7.06798
陵	-7.07271
陳	-7.07881
官	-7.08495
還	-7.08681
靈	-7.08717
飛	-7.08934
來	-7.09728
家	-7.10207
逺	-7.1107
士	-7.1137
字	-7.11381
立	-7.11917
稱	-7.1211
聲	-7.12134
義	-7.12325
楚	-7.12367
河	-7.1245
信	-7.13059
先	-7.13177
身	-7.1386
月	-7.14245
志	-7.14274
通	-7.14369
白	-7.15355
樹	-7.15621
因	-7.15943
或	-7.16234
小	-7.17591
氣	-7.17604
兵	-7.1765
江	-7.17974
諸	-7.1838
軍	-7.18782
猶	-7.19157
春	-7.19412
縣	-7.19436
死	-7.19663
車	-7.21234
實	-7.21346
七	-7.21805
情	-7.22428
元	-7.22658
起	-7.23232
注	-7.23822
物	-7.24818
宫	-7.24835
表	-7.25076
德	-7.25312
終	-7.25617
分	-7.25654
師	-7.25665
雖	-7.26058
張	-7.26304
女	-7.26818
百	-7.26876
青	-7.27562
初	-7.28039
應	-7.28283
民	-7.28474
謂之	-7.28955
等	-7.31069
觀	-7.31362
發	-7.314
黄	-7.32271
歌	-7.32306
法	-7.32413
永	-7.32846
必	-7.33245
異	-7.33641
節	-7.33653
臨	-7.33898
合	-7.34062
善	-7.35171
舊	-7.35254
林	-7.35305
難	-7.35532
八	-7.35632
酒	-7.35682
集	-7.35939
夫	-7.36153
左傳	-7.36863
服	-7.36876
吾	-7.37291
主	-7.38552
夜	-7.38983
開	-7.39282
定	-7.39369
音	-7.39486
夏	-7.39608
辭	-7.39935
載	-7.40074
星	-7.40175
意	-7.41154
獨	-7.41402
舉	-7.41416
都	-7.41534
論	-7.42069
内	-7.42547
好	-7.42646
絶	-7.42867
盡	-7.43023
秋	-7.43148
▁(	-7.43349
木	-7.4348
親	-7.4367
漢書	-7.4369
離	-7.43695
一作	-7.43861
問	-7.44026
過	-7.44029
廣	-7.44373
測曰	-7.44504
哀	-7.44622
色	-7.46217
路	-7.46573
悲	-7.46956
衣	-7.47118
皇	-7.4714
食	-7.47142
斯	-7.47205
太	-7.47208
萬	-7.47621
圖	-7.47944
巳	-7.48216
别	-7.48477
深	-7.49074
數	-7.49299
反	-7.49374
鳥	-7.49519
取	-7.4998
處	-7.49987
父	-7.50096
外	-7.50691
宗	-7.51298
𤣥	-7.5157
鳴	-7.51633
置	-7.51863
登	-7.52203
衆	-7.52534
彼	-7.52538
興	-7.52692
天下	-7.52702
守	-7.5274
伯	-7.52828
遊	-7.5291
首	-7.52925
少	-7.53186
受	-7.5328
代	-7.55221
按	-7.55391
孝	-7.55492
學	-7.55576
豈	-7.56218
易	-7.56263
草	-7.56352
火	-7.56363
古	-7.56555
乗	-7.56637
田	-7.56841
趙	-7.57224
空	-7.57326
懐	-7.57674
象	-7.58078
燕	-7.58406
屬	-7.58701
求	-7.58829
降	-7.58863
老	-7.5916
賢	-7.59239
且	-7.60173
榮	-7.6025
奉	-7.60458
章	-7.60462
曲	-7.60668
連	-7.60838
哉	-7.61736
形	-7.61996
詳	-7.62162
傷	-7.62578
土	-7.62711
新	-7.62936
功	-7.6294
兩	-7.63004
臺	-7.63039
交	-7.63266
耳	-7.6398
止	-7.64037
並	-7.6428
動	-7.64359
極	-7.65444
謝	-7.65456
以為	-7.65656
㑹	-7.66017
隂	-7.66306
詔	-7.66525
十	-7.66692
直	-7.66956
亡	-7.67044
鄭	-7.6712
足	-7.6714
寒	-7.6722
遷	-7.67331
室	-7.67342
位	-7.67725
懷	-7.68292
傳曰	-7.68562
美	-7.68647
劉	-7.68873
海	-7.6895
祖	-7.6913
不可	-7.69171
不能	-7.69693
卒	-7.69729
客	-7.69814
戰	-7.69838
更	-7.69849
建	-7.69952
餘	-7.70052
昔	-7.70415
司	-7.70649
將軍	-7.70673
失	-7.71076
紀	-7.71378
治	-7.71381
宋	-7.71804
良	-7.7225
度	-7.72557
感	-7.73187
變	-7.73209
尚	-7.73404
史	-7.7421
聖	-7.74872
亂	-7.7492
進	-7.74975
母	-7.75118
遺	-7.75384
請	-7.75444
昭	-7.75571
引	-7.75593
號	-7.77009
左	-7.77034
政	-7.77238
莫	-7.77478
體	-7.77507
典	-7.77623
授	-7.77899
竹	-7.78597
共	-7.78659
魚	-7.78797
爾	-7.78968
對	-7.79183
遣	-7.79223
結	-7.79241
拜	-7.79439
容	-7.79861
貴	-7.80132
威	-7.80164
蘭	-7.80289
盛	-7.80469
丹	-7.80736
落	-7.80875
幽	-7.81301
化	-7.81362
疾	-7.81365
願	-7.81606
解	-7.81673
吳	-7.82052
孫	-7.82327
坐	-7.82445
里	-7.82525
赤	-7.82661
浮	-7.82772
窮	-7.82957
獻	-7.82973
顧	-7.83034
理	-7.83072
朱	-7.83257
葉	-7.83261
俱	-7.83345
宜	-7.83763
雨	-7.8392
微	-7.84038
凡	-7.8406
被	-7.84195
丘	-7.84534
千	-7.84535
垂	-7.84546
羣	-7.84996
香	-7.85088
記	-7.85202
揚	-7.85221
佛	-7.85403
泉	-7.85505
武帝	-7.8562
承	-7.85902
隨	-7.85966
語	-7.86
固	-7.86074
仁	-7.86295
天子	-7.86369
憂	-7.86528
魯	-7.86657
徒	-7.87085
精	-7.87189
宣	-7.87288
才	-7.87407
尚書	-7.87501
似	-7.87663
甚	-7.87806
賜	-7.88132
後漢	-7.88222
素	-7.88291
留	-7.88432
比	-7.88567
羽	-7.88702
疑	-7.88821
花	-7.88836
右	-7.8904
射	-7.89981
著	-7.90503
愛	-7.90521
旣	-7.90823
谷	-7.90912
而不	-7.91198
咸	-7.91274
寧	-7.9132
闗	-7.91564
改	-7.91826
庭	-7.92039
野	-7.92191
勝	-7.92276
銘	-7.92533
加	-7.92545
制	-7.92722
君子	-7.92873
間	-7.93237
夷	-7.93339
邑	-7.93416
殿	-7.9363
池	-7.93663
祭	-7.94026
府	-7.94223
於是	-7.94449
昌	-7.94582
期	-7.94828
叔	-7.94881
伏	-7.95287
越	-7.95633
虎	-7.95781
送	-7.96617
頭	-7.96735
往	-7.96735
序	-7.97005
照	-7.97348
史記	-7.97424
敬	-7.97552
視	-7.97592
是以	-7.97869
韓	-7.9805
舞	-7.98304
執	-7.98407
濟	-7.98647
澤	-7.98686
俗	-7.98714
李	-7.98793
儀	-7.98829
珠	-7.99114
堂	-7.99342
藏	-7.99372
廟	-7.994
轉	-7.99616
歲	-8.00071
輕	-8.002
嵗	-8.00205
營	-8.00231
列	-8.00434
近	-8.00506
目	-8.00562
利	-8.00566
仲	-8.00605
真	-8.00719
致	-8.01074
説	-8.01311
殷	-8.01868
篇	-8.02054
次	-8.02278
兹	-8.02339
克	-8.02397
謀	-8.02454
卿	-8.02521
移	-8.02988
御	-8.03414
散	-8.03719
便	-8.03844
原	-8.03892
任	-8.04621
崇	-8.04634
尊	-8.04814
嘉	-8.04872
孤	-8.04894
人也	-8.05038
性	-8.05061
奏	-8.05092
川	-8.05287
陸	-8.05355
弟	-8.05374
力	-8.05503
碑	-8.0562
器	-8.05718
伐	-8.05861
識	-8.05882
祀	-8.05979
念	-8.06105
迎	-8.06159
所以	-8.06214
關	-8.06286
鼎	-8.06673
闕	-8.06818
羅	-8.0682
教	-8.06906
衡	-8.07514
滅	-8.08019
延	-8.0815
遇	-8.08537
雄	-8.08562
虞	-8.08827
手	-8.08859
積	-8.08946
元年	-8.09096
雙	-8.09182
含	-8.09412
波	-8.09798
嘗	-8.09913
駕	-8.09954
勞	-8.10206
滿	-8.10238
奔	-8.10253
甲	-8.105
類	-8.10508
葢	-8.10537
向	-8.11302
恩	-8.11573
口	-8.11637
告	-8.11766
各	-8.11813
飲	-8.11859
養	-8.11947
驚	-8.12305
貞	-8.12322
久	-8.12363
休	-8.12973
琴	-8.13332
質	-8.13341
江陵	-8.13351
追	-8.13685
征	-8.13773
姓	-8.13774
塵	-8.13828
衛	-8.13844
烏	-8.13968
戎	-8.14132
就	-8.14176
薄	-8.14205
修	-8.14297
業	-8.14558
夫人	-8.14597
州刺史	-8.14807
惠	-8.151
仰	-8.15338
敗	-8.15365
季	-8.15492
苦	-8.15684
本傳	-8.16276
但	-8.16323
忠	-8.16467
惡	-8.16509
存	-8.16575
忽	-8.16823
具	-8.16951
尋	-8.17236
誰	-8.17242
者也	-8.17315
諸侯	-8.17391
横	-8.17464
露	-8.17568
塞	-8.17836
之所	-8.18045
角	-8.18133
麗	-8.18147
園	-8.18244
殺	-8.18247
芳	-8.18269
喜	-8.1844
運	-8.18452
指	-8.18676
余	-8.18767
負	-8.19092
鄉	-8.19109
蜀	-8.19121
楊	-8.19246
懸	-8.19357
后	-8.19609
孔	-8.19628
三年	-8.19778
幸	-8.20015
市	-8.20211
二年	-8.20422
爵	-8.20575
報	-8.20737
洛	-8.20778
唐	-8.20889
舟	-8.20935
黃	-8.21574
不得	-8.21712
牛	-8.21811
冠	-8.21852
怨	-8.21912
胡	-8.21928
冬	-8.22328
宿	-8.22796
紫	-8.23022
造	-8.23083
聽	-8.2316
除	-8.2317
布	-8.23767
詠	-8.23787
巻	-8.24005
是也	-8.24007
顯	-8.24007
達	-8.2412
蕭	-8.24125
宅	-8.24192
吏	-8.24436
機	-8.24738
呉	-8.24868
殊	-8.25068
益	-8.25356
許	-8.25391
劒	-8.25444
仙	-8.25799
蓋	-8.25852
松	-8.25922
騎	-8.2597
說	-8.25992
寳	-8.26068
備	-8.26415
誠	-8.26677
太守	-8.26753
息	-8.26813
考	-8.2685
商	-8.27041
荆	-8.2712
枝	-8.27363
贈	-8.27585
攻	-8.28166
律	-8.28256
虚	-8.28387
掌	-8.2846
沙	-8.28768
破	-8.28791
鎮	-8.28799
賊	-8.2904
種	-8.2909
由	-8.29197
靡	-8.2931
翼	-8.29333
沉	-8.29453
端	-8.29717
太祖	-8.29807
淵	-8.30039
鼓	-8.30143
蒼	-8.30248
馳	-8.30445
𢎞	-8.30884
啓	-8.30946
部	-8.31108
施	-8.3121
升	-8.31732
千里	-8.3184
暮	-8.31844
顔	-8.32036
慶	-8.3206
盈	-8.3216
兼	-8.32166
病	-8.32276
依	-8.32462
豐	-8.32596
智	-8.32733
英	-8.32769
沈	-8.32867
職	-8.33079
憲	-8.33131
又曰	-8.33145
畫	-8.3328
徐	-8.33309
来	-8.33364
禹	-8.33527
肅	-8.33556
逢	-8.33593
穆	-8.33737
率	-8.33809
玄	-8.33852
斷	-8.33871
寶	-8.33989
晋	-8.34125
太子	-8.34468
振	-8.3458
棄	-8.34623
采	-8.34859
房	-8.35014
曹	-8.35352
持	-8.35732
接	-8.3574
康	-8.35846
危	-8.35892
婦	-8.35966
妻	-8.3604
切	-8.36111
漢書曰	-8.36408
族	-8.36415
郊	-8.36438
管	-8.36468
夕	-8.36491
要	-8.36842
申	-8.36868
竒	-8.36907
䇿	-8.36925
歎	-8.3697
罪	-8.37116
釋	-8.37151
長安	-8.37206
讓	-8.37226
後漢書	-8.37237
待	-8.37306
納	-8.37317
周禮	-8.3751
隆	-8.37922
之後	-8.38008
帶	-8.38299
樓	-8.38304
鳳	-8.38341
兄	-8.38532
雪	-8.38651
徃	-8.38673
塗	-8.38682
歡	-8.38812
喪	-8.38996
傾	-8.39032
順	-8.39069
彌	-8.39336
鏡	-8.39538
雅	-8.39762
推	-8.39833
忘	-8.39953
所謂	-8.40089
龜	-8.40179
假	-8.40535
辟	-8.40536
折	-8.40597
福	-8.40694
懼	-8.40955
恒	-8.40995
每	-8.4173
階	-8.41758
厯	-8.41771
頌	-8.41774
亭	-8.42031
雜	-8.42142
至於	-8.42172
南史	-8.42379
虛	-8.4247
予	-8.42474
議	-8.42742
厥	-8.42747
退	-8.42905
震	-8.42922
邊	-8.43305
見哀江	-8.43586
投	-8.43747
南賦	-8.43886
天地	-8.44035
恭	-8.44082
泰	-8.44386
圍	-8.44522
春秋	-8.44727
京	-8.44815
歴	-8.44882
隱	-8.45561
總	-8.45652
抱	-8.45664
聚	-8.45677
繁	-8.46008
嚴	-8.46027
桑	-8.46068
設	-8.46073
寄	-8.46196
步	-8.46197
孟	-8.46221
權	-8.46456
飾	-8.46458
陰	-8.46609
伊	-8.46925
融	-8.47265
操	-8.47311
廢	-8.47418
或謂之	-8.47485
隠	-8.47494
博	-8.47504
䝉	-8.47644
根	-8.47683
獲	-8.48002
将	-8.48081
鴻	-8.48206
疏	-8.48313
大夫	-8.48438
爰	-8.48447
刑	-8.48462
違	-8.48467
履	-8.48485
烈	-8.48806
覆	-8.48853
面	-8.48857
影	-8.48888
壽	-8.48911
井	-8.48974
璧	-8.49354
末	-8.49436
并	-8.49661
阿	-8.49669
徴	-8.49776
據	-8.49787
軒	-8.5012
果	-8.50168
汝	-8.50209
詩云	-8.5032
舍	-8.50531
嗣	-8.50642
召	-8.50909
牧	-8.50991
歩	-8.51065
大將軍	-8.51359
洛陽	-8.51595
晉書	-8.51675
計	-8.51916
干	-8.52147
刻	-8.52241
會	-8.52277
逐	-8.52343
鶴	-8.52526
參	-8.52561
襲	-8.5261
妙	-8.52675
走	-8.52788
元帝	-8.52869
旦	-8.53197
増	-8.53544
畢	-8.53571
鍾	-8.53667
户	-8.54194
茂	-8.54353
閣	-8.54528
雷	-8.54535
注云	-8.54692
符	-8.54892
厚	-8.54914
毛	-8.55218
辰	-8.5556
或曰	-8.5571
習	-8.55733
禽	-8.55752
半	-8.55805
衰	-8.56023
勤	-8.56115
甘	-8.56166
寵	-8.56212
寜	-8.56267
庶	-8.56333
慕	-8.56566
游	-8.56669
司馬	-8.56735
讀	-8.56839
柱	-8.56871
尺	-8.57024
全	-8.57072
羊	-8.57092
崩	-8.57205
朔	-8.5736
累	-8.57509
書曰	-8.57584
鳯	-8.57598
杜	-8.58032
祥	-8.58043
秀	-8.58046
招	-8.58063
詩曰	-8.58305
愁	-8.5835
恐	-8.58806
荒	-8.58821
撫	-8.58854
逆	-8.58927
維	-8.59275
超	-8.59324
句	-8.59334
乘	-8.59443
逝	-8.59804
須	-8.60029
友	-8.60111
侯景	-8.6027
悉	-8.6032
没	-8.60323
鸞	-8.60348
夢	-8.60531
答	-8.60633
吉	-8.60729
苑	-8.60752
賔	-8.60755
録	-8.60821
岸	-8.60868
害	-8.60942
附	-8.61159
郎	-8.61164
皇帝	-8.61428
墓	-8.61456
嗟	-8.61647
可以	-8.61659
想	-8.61677
船	-8.61714
銅	-8.61746
簡	-8.61802
翠	-8.62164
祠	-8.62219
屋	-8.62245
故云	-8.62311
私	-8.62469
湯	-8.62555
險	-8.6266
領	-8.62717
輔	-8.62922
郭	-8.63011
庸	-8.63038
迹	-8.63083
堯	-8.63091
避	-8.63113
慮	-8.63134
援	-8.63528
泣	-8.63589
支	-8.63645
之間	-8.63829
桂	-8.63881
省	-8.64048
煙	-8.64054
響	-8.64066
基	-8.64067
文帝	-8.64072
收	-8.64112
侍	-8.6443
恨	-8.64473
藥	-8.64593
討	-8.6465
雞	-8.6504
弱	-8.6529
靜	-8.65508
藻	-8.65511
儉	-8.65558
栁	-8.65575
傳云	-8.65723
日月	-8.66048
適	-8.6646
葬	-8.66509
席	-8.66561
舒	-8.66574
策	-8.66577
徵	-8.66769
保	-8.66924
怒	-8.67016
賞	-8.67028
旗	-8.67038
黄帝	-8.67276
遠	-8.67467
社	-8.67488
條	-8.67489
舜	-8.67507
輿	-8.67514
敢	-8.67664
雍	-8.67762
徙	-8.67966
脩	-8.68001
委	-8.68008
耶	-8.68011
廻	-8.68034
披	-8.68068
霜	-8.68281
陶	-8.68441
絲	-8.68452
宴	-8.68472
戒	-8.69032
統	-8.69045
充	-8.69078
仍	-8.69105
禍	-8.69246
宇	-8.69278
莊	-8.69336
仕	-8.69386
兒	-8.69495
屈	-8.69544
密	-8.69988
再	-8.70016
鬱	-8.70028
患	-8.70037
十二	-8.70057
銜	-8.7007
斗	-8.70408
温	-8.7051
戸	-8.70518
岳	-8.70573
早	-8.70598
宮	-8.70621
館	-8.70625
湘	-8.70829
幾	-8.71052
邪	-8.71068
資	-8.7114
周書	-8.71387
厲	-8.71497
桓	-8.71542
託	-8.71576
誅	-8.71641
吹	-8.71674
儒	-8.72009
鐘	-8.7213
錢	-8.72191
吴	-8.72233
弓	-8.72597
擬	-8.72875
壯	-8.73089
工	-8.73092
洪	-8.73131
後漢書曰	-8.73422
孔子	-8.7354
絃	-8.73634
約	-8.73651
短	-8.74028
特	-8.74144
亮	-8.74228
斬	-8.74254
津	-8.74611
源	-8.74655
丗	-8.74705
畧	-8.74719
覽	-8.74746
侍中	-8.74889
左氏傳曰	-8.75144
魂	-8.75232
察	-8.75251
瞻	-8.75275
堅	-8.7528
蒙	-8.7528
築	-8.75419
班	-8.75817
勲	-8.7588
候	-8.75899
盧	-8.75916
不知	-8.76001
司徒	-8.76005
第	-8.76079
配	-8.7615
農	-8.76241
乆	-8.76365
略	-8.76398
又云	-8.76487
五年	-8.76606
寸	-8.76774
曜	-8.76865
陣	-8.76921
翔	-8.76976
史記曰	-8.77101
辛	-8.7716
禪	-8.773
晨	-8.77303
允	-8.77391
索	-8.7744
瑞	-8.77444
聖人	-8.77476
籍	-8.77515
記曰	-8.77752
富	-8.77775
遭	-8.78012
輪	-8.78041
賈	-8.78068
擊	-8.78086
趙王	-8.78246
匈奴	-8.78495
寢	-8.78551
卷	-8.78588
洲	-8.78599
盖	-8.78601
驅	-8.78879
橋	-8.79057
調	-8.79583
雉	-8.79744
笑	-8.79776
喻	-8.79778
逰	-8.79819
髙祖	-8.8008
匪	-8.8017
校	-8.80262
回	-8.80292
師古曰	-8.80458
唯	-8.80785
竊	-8.80829
南陽	-8.81267
佐	-8.81289
蔡	-8.81307
訓	-8.81367
慙	-8.81396
傅	-8.81849
紛	-8.81908
細	-8.81992
逸	-8.82058
軌	-8.82468
先生	-8.82553
聴	-8.82559
薦	-8.8258
急	-8.82597
帳	-8.82642
雁	-8.83087
歳	-8.8312
漸	-8.83135
范	-8.83178
術	-8.83545
穀	-8.83636
放	-8.8372
映	-8.8372
撃	-8.83783
左右	-8.83886
界	-8.83989
選	-8.84161
四年	-8.84169
凌	-8.84251
背	-8.84318
鼔	-8.84336
渭	-8.84346
畏	-8.84349
子曰	-8.84611
純	-8.84809
介	-8.84928
臣聞	-8.85053
境	-8.85486
述	-8.85497
到	-8.8552
呼	-8.85532
壁	-8.85535
迴	-8.85619
霞	-8.85881
銀	-8.85929
攸	-8.86016
側	-8.86084
示	-8.8613
夀	-8.86162
淮	-8.86519
緑	-8.86637
姬	-8.86728
蒲	-8.86734
屯	-8.86758
渠	-8.86761
盟	-8.86825
邦	-8.86933
扶	-8.87073
而無	-8.87243
躬	-8.8729
爭	-8.87296
泥	-8.87367
掩	-8.87389
注曰	-8.87844
曰吾	-8.87866
血	-8.87869
齒	-8.87876
珍	-8.87904
盤	-8.87957
荀	-8.88072
中有	-8.88166
蕩	-8.88247
冥	-8.88332
遐	-8.88471
拔	-8.88479
詞	-8.88483
勢	-8.88546
悼	-8.88571
慈	-8.88589
司空	-8.88811
丁	-8.89014
曾	-8.89054
瓊	-8.89179
荷	-8.8919
帷	-8.89192
太尉	-8.89283
遵	-8.8972
談	-8.89727
辨	-8.89762
沒	-8.89789
赴	-8.89808
不敢	-8.89908
禮記	-8.90075
燭	-8.90119
蘇	-8.90125
輝	-8.90363
翻	-8.90468
兄弟	-8.90486
雀	-8.90912
旅	-8.90926
獸	-8.90937
綺	-8.91015
潛	-8.91016
啟	-8.91083
莫不	-8.91144
二十	-8.91285
童	-8.91417
繼	-8.91428
㣲	-8.91607
疑作	-8.91662
增	-8.91687
三月	-8.9189
萬物	-8.91921
狀	-8.92148
霸	-8.92214
禁	-8.92281
電	-8.92286
卜	-8.92315
皮	-8.92344
杖	-8.92418
僧	-8.92435
賦曰	-8.926
竟	-8.927
救	-8.92944
故曰	-8.92979
錦	-8.92997
於此	-8.93248
渡	-8.93369
閑	-8.93433
植	-8.93541
跡	-8.93553
某	-8.93573
圓	-8.93582
賀	-8.93612
枯	-8.93751
曠	-8.94102
禄	-8.94133
耀	-8.94222
覺	-8.94228
哭	-8.94228
吟	-8.9423
桐	-8.94248
骨	-8.94269
占	-8.94272
豫	-8.94635
凶	-8.94814
逹	-8.94852
子山	-8.94853
式	-8.94881
渚	-8.94895
文王	-8.9513
𦵏	-8.95161
論語	-8.95269
帥	-8.95304
愚	-8.9549
巖	-8.95495
本傳云	-8.95504
巢	-8.95539
浦	-8.95559
如此	-8.95567
阻	-8.95582
防	-8.95588
鬼	-8.9607
盜	-8.96173
熊	-8.96177
之事	-8.96415
穴	-8.96821
頓	-8.9683
偏	-8.96853
乾	-8.96862
獵	-8.96887
鄴	-8.96893
氷	-8.96906
妾	-8.96929
佩	-8.96991
免	-8.97052
贊	-8.97385
霧	-8.9748
䘮	-8.9749
壇	-8.97504
後周	-8.97513
莊子	-8.97526
紅	-8.97577
昏	-8.9758
勿	-8.9811
希	-8.98165
衞	-8.98172
淚	-8.98175
馮	-8.98214
柳	-8.9824
毎	-8.98245
輒	-8.98257
旁	-8.98262
燒	-8.98288
講	-8.9834
冀	-8.98671
宰	-8.98805
肉	-8.98854
尸	-8.98887
拂	-8.98916
名曰	-8.99065
庾	-8.99368
嶺	-8.99617
劍	-8.99703
人之	-8.99935
江南	-8.99947
聘	-8.99962
都督	-8.99995
炎	-9.00023
刺	-9.00199
貧	-9.00212
侵	-9.0031
秉	-9.00318
偉	-9.00333
鄰	-9.00376
一名	-9.00808
明帝	-9.00885
無所	-9.00958
不足	-9.01148
洞	-9.01638
悦	-9.01728
嶽	-9.0221
光武	-9.02221
孰	-9.02326
裔	-9.02378
量	-9.02719
射賦	-9.0301
愈	-9.03039
并序	-9.03066
差	-9.03103
遥	-9.03574
戲	-9.03728
墨	-9.03755
寛	-9.0379
貌	-9.03797
踰	-9.03803
矢	-9.03809
一首	-9.04135
鹿	-9.04403
味	-9.04446
務	-9.04455
筆	-9.04491
賓	-9.04498
卑	-9.04526
凝	-9.04541
繫	-9.05081
規	-9.0519
災	-9.05274
巴	-9.05651
三十	-9.05692
戚	-9.05789
然後	-9.05791
繞	-9.05947
縱	-9.05978
財	-9.05988
弗	-9.06042
宣帝	-9.06401
篤	-9.06574
域	-9.06593
裁	-9.067
痛	-9.06707
騰	-9.0671
惜	-9.06713
屢	-9.06715
四方	-9.06719
䕶	-9.06749
藩	-9.06763
隴	-9.07162
否	-9.07253
鮮	-9.07312
扇	-9.07373
淑	-9.07424
途	-9.07494
聊	-9.07578
對曰	-9.08096
吕	-9.08152
淫	-9.08156
錯	-9.08157
慎	-9.08184
衍	-9.08196
自然	-9.08344
廬	-9.08463
兆	-9.08789
正月	-9.08843
尾	-9.08926
雕	-9.08941
祗	-9.08955
鐵	-9.09003
耕	-9.09021
辱	-9.09626
見馬	-9.09703
辯	-9.09704
不見	-9.09735
敦	-9.09959
况	-9.1014
而後	-9.10284
桃	-9.1033
毁	-9.10382
奮	-9.10419
芝	-9.10433
蛇	-9.10437
薨	-9.10438
品	-9.10445
墳	-9.1047
績	-9.10478
試	-9.10482
杯	-9.10524
東海	-9.10525
曽	-9.10762
丈	-9.1088
漏	-9.11246
值	-9.11257
導	-9.11294
牀	-9.11304
武王	-9.11639
周公	-9.1166
河南	-9.11682
四海	-9.11717
欽	-9.11813
錫	-9.11839
寺	-9.1187
㫖	-9.1197
茍	-9.11984
揮	-9.12001
强	-9.1201
弦	-9.12024
題	-9.12026
最	-9.12046
刀	-9.12066
陛下	-9.12107
寡	-9.12317
革	-9.12652
觸	-9.12782
罷	-9.12782
卧	-9.12815
遲	-9.12833
預	-9.1284
狄	-9.12862
志曰	-9.13
京師	-9.13013
勸	-9.13153
以下	-9.13302
燈	-9.13393
旋	-9.13434
詣	-9.13568
賦云	-9.13616
虜	-9.13618
姑	-9.13661
鄧	-9.137
魏志	-9.13751
賤	-9.13811
譽	-9.14067
肆	-9.14308
享	-9.14346
紹	-9.144
乏	-9.14425
諱	-9.14645
白馬	-9.15196
不如	-9.152
旌	-9.15274
貢	-9.15371
六年	-9.15511
之以	-9.15667
黎	-9.1567
謹	-9.15819
祚	-9.15892
膺	-9.15923
循	-9.15943
秩	-9.15953
補	-9.15975
頗	-9.15988
陸機	-9.16122
倫	-9.16415
萬里	-9.1643
群	-9.16716
葛	-9.16759
静	-9.16814
宻	-9.16821
刺史	-9.16957
男	-9.17267
監	-9.17379
蓮	-9.17425
眉	-9.17578
峻	-9.17588
賛	-9.17595
矯	-9.17614
懿	-9.17635
協	-9.17644
徑	-9.17647
荆州	-9.17769
鄭注云	-9.17855
渭生曰	-9.18201
四時	-9.18234
採	-9.18366
謙	-9.18372
晏	-9.18459
榖	-9.18519
戴	-9.19123
牙	-9.19174
粲	-9.1921
勇	-9.19217
湖	-9.19249
頃	-9.19262
爽	-9.19281
繩	-9.19307
皇后	-9.19452
誕	-9.20066
厭	-9.20094
陷	-9.20101
何以	-9.20121
茅	-9.20125
誤	-9.20141
穿	-9.20163
西魏	-9.20214
舎	-9.20582
暉	-9.2092
東南	-9.20932
激	-9.20945
潜	-9.20951
助	-9.20962
貫	-9.20986
昧	-9.21005
棲	-9.21013
擁	-9.21029
箭	-9.21045
溪	-9.21682
勒	-9.21688
柔	-9.21726
巧	-9.2178
鑒	-9.218
暴	-9.2186
夭	-9.21873
也又	-9.21998
西北	-9.2202
淵明	-9.22042
襄	-9.22511
山川	-9.22617
丞相	-9.2263
幹	-9.22678
犯	-9.22708
摧	-9.22721
均	-9.22732
蔽	-9.22739
之不	-9.23187
不復	-9.23305
僕	-9.23398
邈	-9.23408
育	-9.23422
偃	-9.23455
號曰	-9.23484
幼	-9.23548
決	-9.23551
殘	-9.23584
北史	-9.23611
見和	-9.23788
聞之	-9.24074
􁀙	-9.24253
腹	-9.24397
優	-9.24409
澄	-9.24424
麟	-9.24516
溫	-9.24536
崔	-9.2465
之言	-9.24703
荅	-9.25187
播	-9.25262
倚	-9.25284
暫	-9.25296
競	-9.25308
吐	-9.25323
冰	-9.25357
停	-9.25364
髮	-9.25368
粟	-9.25379
公子	-9.25387
嘆	-9.25451
俯	-9.26063
邁	-9.26071
韻	-9.26103
隔	-9.26168
蓬	-9.2617
敵	-9.26228
樊	-9.26238
灰	-9.26283
醉	-9.26304
百姓	-9.26461
忌	-9.26752
昆	-9.26907
單	-9.27023
續	-9.27056
困	-9.27068
恱	-9.2709
恥	-9.27091
齋	-9.27139
尤	-9.27139
看	-9.2715
隋書	-9.27169
格	-9.27838
醜	-9.27985
豪	-9.2799
冢	-9.28011
綠	-9.28027
他	-9.28029
怪	-9.2808
猿	-9.28092
即位	-9.2827
淮南子	-9.28335
一人	-9.28494
徽	-9.28798
閒	-9.2881
徘徊	-9.28866
覩	-9.28866
奚	-9.28866
誓	-9.2889
獄	-9.28941
佳	-9.29224
爾雅曰	-9.29567
令㫖荅	-9.29631
之地	-9.29659
眷	-9.29799
俊	-9.29802
提	-9.29831
衝	-9.29856
韋	-9.29905
従	-9.29916
單于	-9.29922
熟	-9.29951
褒	-9.3012
高祖	-9.30128
此云	-9.30476
今日	-9.30591
鱗	-9.30686
臧	-9.30697
墜	-9.30737
矜	-9.30741
仲尼	-9.30773
錄	-9.30778
仙人	-9.30813
役	-9.30818
袁	-9.30852
晉書曰	-9.30964
調曲	-9.30985
郢	-9.31221
老子	-9.31509
甫	-9.31523
鉤	-9.31654
滋	-9.31682
潤	-9.31718
夾	-9.31742
逼	-9.31749
契	-9.31752
嬰	-9.31756
展	-9.31799
蠶	-9.31804
叅	-9.32382
割	-9.32558
乞	-9.32626
乖	-9.3268
匡	-9.32687
珪	-9.32693
誄	-9.32717
毒	-9.32767
上有	-9.33163
之間謂之	-9.33222
臯	-9.33476
督	-9.33477
涕	-9.33502
愧	-9.33612
責	-9.33617
戈	-9.33649
翰	-9.33654
圭	-9.33663
巾	-9.33674
岐	-9.33709
鋒	-9.33714
帝紀	-9.34011
哲	-9.34316
隋	-9.34342
綸	-9.34478
妄	-9.34482
髪	-9.34571
彰	-9.34602
犀	-9.34603
朗	-9.34606
遁	-9.34613
蟬	-9.34621
濵	-9.34625
抗	-9.34628
恵	-9.3465
揺	-9.34665
膏	-9.34666
蕃	-9.34686
幕	-9.34714
凉	-9.35241
小人	-9.35312
黃帝	-9.35459
寂	-9.35482
之中	-9.35506
徹	-9.35517
烟	-9.35544
竭	-9.35621
羌	-9.3565
諫	-9.35674
魏文帝	-9.36043
二首	-9.36071
之禮	-9.36306
彊	-9.36453
狐	-9.36494
晩	-9.36578
材	-9.36603
際	-9.36717
杜預曰	-9.37052
四十	-9.37058
柱國	-9.37075
住	-9.37479
案	-9.37488
弔	-9.37511
藉	-9.37562
奪	-9.37562
正義曰	-9.37567
憤	-9.37569
閉	-9.37622
枕	-9.37638
姜	-9.37667
十五	-9.38115
之功	-9.3819
緯	-9.38266
十里	-9.3839
欣	-9.38392
𬒳	-9.38477
字子	-9.38497
熈	-9.38543
牲	-9.38592
麥	-9.38622
給	-9.38623
都尉	-9.38684
其所	-9.38713
國公	-9.38771
太傅	-9.38776
譬	-9.3918
黨	-9.39352
綏	-9.39576
廟歌	-9.39584
敎	-9.39588
消	-9.39599
憐	-9.39614
傍	-9.39627
效	-9.39639
其一	-9.39753
潁川	-9.39768
説文曰	-9.39962
屏	-9.40489
倉	-9.40566
裏	-9.40577
區	-9.40596
觴	-9.40614
愍	-9.40646
黒	-9.40649
巨	-9.40659
渉	-9.40722
明月	-9.40973
中興	-9.41492
稽	-9.41548
之子	-9.41566
專	-9.41647
彦	-9.41674
淪	-9.41696
墮	-9.41732
邉	-9.41733
叢	-9.41741
棺	-9.41741
翟	-9.41761
涼	-9.41769
三公	-9.41773
之道	-9.41832
炯曰	-9.41846
是為	-9.41867
十年	-9.41885
三日	-9.41894
足下	-9.42438
以自	-9.42441
纓	-9.42619
惑	-9.42653
驗	-9.42696
緒	-9.42713
縁	-9.42727
慘	-9.42739
拒	-9.42773
胄	-9.42801
鑿	-9.42813
槐	-9.42818
焚	-9.42823
見宗	-9.43343
歌曰	-9.43566
織	-9.43632
受命	-9.43721
黙	-9.43741
裂	-9.43766
包	-9.43774
彈	-9.43832
虹	-9.43851
公孫	-9.44074
淮南子曰	-9.44122
濯	-9.44187
五十	-9.44666
百里	-9.44707
弘	-9.4472
竇	-9.44762
姿	-9.44793
東西	-9.44795
絳	-9.44843
五月	-9.44847
己	-9.4487
憑	-9.44906
羣臣	-9.44911
言其	-9.44917
普	-9.44925
埋	-9.44948
灌	-9.44963
韶	-9.44979
國之	-9.44999
泰山	-9.45053
其後	-9.45064
以來	-9.45165
陳留	-9.45364
子孫	-9.45434
零	-9.45796
趣	-9.45813
咎	-9.4582
煩	-9.45901
晝	-9.45923
妖	-9.45927
輸	-9.45932
翳	-9.4594
寇	-9.45947
摩	-9.45954
汾	-9.45975
棘	-9.46004
𢎞農	-9.46007
頻	-9.46017
校尉	-9.46031
坂	-9.46094
未有	-9.46169
之情	-9.46326
淮南	-9.46507
瑟	-9.46779
二月	-9.46844
鄙	-9.46946
環	-9.47038
敷	-9.47051
蟲	-9.47054
鑄	-9.4711
西河	-9.47131
段	-9.47168
西域	-9.47227
藝	-9.47699
芬	-9.48076
溢	-9.48114
晚	-9.48175
蠻	-9.48184
駭	-9.48186
捨	-9.48193
稍	-9.48193
酌	-9.48211
菩薩	-9.48218
壤	-9.48228
京兆	-9.48247
争	-9.48273
其中	-9.48502
汝南	-9.48524
裳	-9.48567
悟	-9.48653
如何	-9.48703
抑	-9.49137
黑	-9.49169
借	-9.49253
牆	-9.49273
緣	-9.49285
祈	-9.49297
熙	-9.49308
散騎常侍	-9.49314
缺	-9.49315
斜	-9.49385
月令	-9.49728
瑶	-9.49938
未詳	-9.5007
百年	-9.5014
尹	-9.5034
訪	-9.50366
叙	-9.50382
匹	-9.50403
窺	-9.50405
迷	-9.50409
飄	-9.50471
程	-9.50498
朝廷	-9.50573
人生	-9.50805
平原	-9.50837
将軍	-9.51034
或問	-9.51243
剛	-9.51308
遼	-9.51342
妃	-9.5139
晦	-9.51489
乙	-9.51505
豹	-9.51538
範	-9.51542
俟	-9.51546
㝠	-9.51553
慧	-9.51559
滯	-9.51567
稷	-9.51571
赫	-9.51576
那	-9.51639
之下	-9.51645
公主	-9.51668
璽	-9.51669
脫	-9.5167
應劭曰	-9.5189
一曰	-9.51943
南方	-9.5201
而已	-9.52135
禹貢	-9.5223
沛	-9.52413
七年	-9.52462
況	-9.52624
闇	-9.52668
像	-9.52708
踐	-9.52727
饗	-9.52738
淺	-9.52775
奠	-9.5278
時人	-9.52917
孟子	-9.53206
襄陽	-9.53852
却	-9.53875
崖	-9.53877
畿	-9.53893
狼	-9.53894
逃	-9.53895
轡	-9.53903
偽	-9.53909
庚	-9.53931
澗	-9.53947
壺	-9.53965
低	-9.53966
驃騎	-9.5397
午	-9.53974
供	-9.54004
叛	-9.54006
决	-9.54007
古人	-9.54102
有三	-9.54313
相如	-9.54468
者皆	-9.54666
明堂	-9.54784
公之	-9.54819
東宫	-9.54863
而去	-9.54901
隅	-9.54931
碧	-9.54967
涉	-9.55063
牽	-9.55085
逮	-9.55097
弩	-9.55106
歇	-9.55112
敏	-9.55122
損	-9.55134
椒	-9.55144
奴	-9.55147
都賦	-9.55162
攀	-9.55166
束	-9.55168
社稷	-9.55174
梓	-9.55221
河陽	-9.55246
㑹稽	-9.55291
西南	-9.55369
爾雅	-9.55496
也按	-9.55522
之上	-9.55699
一日	-9.55762
曰昔	-9.56136
長史	-9.56168
帛	-9.56215
倒	-9.56261
鴈	-9.56279
悔	-9.56286
憶	-9.56297
栖	-9.56304
岑	-9.56305
詎	-9.56307
飢	-9.5631
壘	-9.5634
籠	-9.56343
猛	-9.56346
嫁	-9.56403
㦸	-9.56425
印	-9.56427
太史	-9.56433
掾	-9.56435
揚雄	-9.56618
東魏	-9.56781
五百	-9.56784
黄金	-9.56787
也次三	-9.56992
網	-9.57268
名也	-9.57309
寅	-9.57474
朕	-9.57493
誦	-9.57563
冝	-9.57564
製	-9.57568
纂	-9.5757
歛	-9.57582
平陽	-9.57612
龍門	-9.57678
文武	-9.5768
豫章	-9.5768
五色	-9.57768
知其	-9.57867
世家	-9.58176
也次七	-9.58198
也次六	-9.58199
也次四	-9.582
也次五	-9.58205
也次八	-9.5823
也次二	-9.58247
忍	-9.58262
箴	-9.58295
使者	-9.58382
公卿	-9.58501
弄	-9.58607
斂	-9.58628
曰此	-9.58657
皓	-9.58678
嗚呼哀哉	-9.58688
侃	-9.58714
綱	-9.58718
牢	-9.58775
湛	-9.58775
座	-9.58779
屠	-9.58828
爛	-9.58839
陋	-9.58863
竝	-9.5888
東北	-9.59083
使人	-9.59383
長沙	-9.59426
文章	-9.59494
也上九	-9.59533
二人	-9.59681
齡	-9.59699
枚	-9.59787
也言	-9.59809
□(	-9.5982
悠悠	-9.59905
峯	-9.59966
舌	-9.60001
董	-9.60025
函	-9.60036
風雲	-9.60046
偶	-9.60062
柏	-9.60067
芙蓉	-9.60077
返	-9.60095
亦有	-9.60099
未詳按	-9.60144
囘	-9.60145
初一	-9.60361
也漢書	-9.60368
草木	-9.60482
者謂	-9.60585
縣注	-9.60588
胥	-9.60912
楚辭曰	-9.61054
尉	-9.6111
有一	-9.61154
丞	-9.61157
刃	-9.61174
裔碑	-9.61176
躍	-9.61204
玩	-9.61221
戮	-9.61241
膠	-9.61272
㳺	-9.61272
攝	-9.61296
罔	-9.61299
冦	-9.61347
天之	-9.61361
白日	-9.61624
殺之	-9.61706
然則	-9.61828
楚王	-9.61942
禮記曰	-9.61995
以爲	-9.62087
㤗	-9.6215
誨	-9.62419
楚辭	-9.62436
冕	-9.62492
扵	-9.62506
慰	-9.62527
天下之	-9.62537
削	-9.62542
君之	-9.62551
輟	-9.6256
速	-9.62576
戍	-9.6259
黍	-9.62609
天道	-9.62617
嵩	-9.62627
潘岳	-9.62693
婦人	-9.62703
扶風	-9.62922
奄	-9.63109
東方	-9.63197
遣使	-9.63266
有餘	-9.63288
台	-9.63478
審	-9.63564
淳	-9.63692
平生	-9.63724
雍州	-9.63733
山之	-9.63737
蹈	-9.63783
旬	-9.6379
禦	-9.63791
夙	-9.63805
貪	-9.63831
勁	-9.63862
枉	-9.63867
斧	-9.63909
卽	-9.63911
陪	-9.63914
疎	-9.63915
繡	-9.63923
山中	-9.63953
粉	-9.63984
生於	-9.64071
數十	-9.645
謁	-9.64575
項	-9.64861
十六	-9.64893
霍	-9.65042
肇	-9.65081
寫	-9.65121
百餘	-9.65132
暑	-9.65169
閭	-9.6517
暢	-9.65182
遜	-9.65183
猷	-9.65184
犬	-9.65189
腰	-9.65203
馭	-9.65206
宵	-9.65206
之間曰	-9.65288
甘泉	-9.65335
綬	-9.65358
成都	-9.65541
神明	-9.65655
可知	-9.658
弟子	-9.66141
其上	-9.66149
淹	-9.66345
父子	-9.66348
見傷	-9.66372
洗	-9.66438
慿	-9.66457
蕙	-9.66481
卦	-9.66504
饒	-9.66515
浪	-9.66526
檀	-9.66607
咸陽	-9.66857
以此	-9.66886
大都督	-9.67344
見擬	-9.67504
十餘	-9.67522
王子	-9.67528
曰我	-9.67773
限	-9.67794
恢	-9.67813
儲	-9.67836
渾	-9.67837
樞	-9.67866
閨	-9.67871
酬	-9.67878
潔	-9.67881
副	-9.67894
裴	-9.67895
饑	-9.67922
囊	-9.67923
司馬相如	-9.67925
又有	-9.68026
見步陸	-9.6804
見祀	-9.68125
之時	-9.68263
成王	-9.68277
用之	-9.68329
文學	-9.68336
宇文	-9.68427
桓公	-9.68551
若夫	-9.687
足以	-9.68799
不及	-9.68819
王褒	-9.68919
豈不	-9.6895
見司馬	-9.68989
濁	-9.69079
七十	-9.69093
䟽	-9.69094
羲	-9.69116
則有	-9.69145
瓜	-9.69149
庻	-9.6917
賴	-9.69174
擇	-9.69189
戀	-9.6919
刋	-9.69206
狂	-9.69207
鳩	-9.69219
頴	-9.6922
圜丘	-9.69223
括	-9.69263
㡬	-9.69265
㧞	-9.69269
圃	-9.6928
暗	-9.6928
鄕	-9.69281
汗	-9.69313
宗廟	-9.69428
父母	-9.69489
世祖	-9.69541
女子	-9.69578
堪	-9.69764
北海	-9.69778
以上	-9.7005
山海經	-9.70072
十三	-9.70267
閔	-9.70345
壑	-9.70587
創	-9.70647
甞	-9.70651
韜	-9.70651
榆	-9.70663
鮑	-9.70675
驂	-9.70689
冶	-9.70699
脂	-9.70708
讀法	-9.70716
鹽	-9.70726
米	-9.70745
底	-9.70762
注見	-9.70779
煥	-9.70828
之志	-9.70973
者言	-9.70999
之士	-9.71022
經曰	-9.71172
河橋	-9.71189
前後	-9.71199
者不	-9.71242
第一	-9.71248
之名	-9.71347
周易	-9.71393
建武	-9.7143
有所	-9.71509
橫	-9.7194
穢	-9.71944
俾	-9.71998
軫	-9.72008
暇	-9.72009
柴	-9.72033
讚	-9.72039
乳	-9.72044
之臣	-9.72051
坎	-9.72055
皆有	-9.72062
曉	-9.72062
莖	-9.72078
奇	-9.7208
漳	-9.72092
泛	-9.72094
賣	-9.72096
註	-9.72097
豆	-9.72107
麾	-9.72156
無以	-9.72273
上下	-9.7232
銘曰	-9.72344
滕	-9.72527
文選	-9.72559
名為	-9.72989
洄曰	-9.73221
水出	-9.73241
魄	-9.73347
晞	-9.73374
僚	-9.73376
𥘉	-9.73377
鵠	-9.73377
塘	-9.73403
謬	-9.73409
撰	-9.73417
釣	-9.73429
鞭	-9.7343
陟	-9.73467
組	-9.73512
趨	-9.73513
以其	-9.73515
梅	-9.7352
醫	-9.73528
十一月	-9.73551
帝王世紀	-9.73586
儀同	-9.73617
蔡邕	-9.73634
樂府	-9.74131
僧辯	-9.74341
疆	-9.7448
禮樂	-9.74684
祿	-9.74782
駿	-9.74805
袖	-9.74867
層	-9.74872
衢	-9.74872
媚	-9.74891
詧	-9.74896
觧	-9.74899
腸	-9.74899
冲	-9.74916
驥	-9.74935
罕	-9.74939
𤓰	-9.74943
洽	-9.74945
餐	-9.74958
署	-9.74965
擒	-9.75009
必有	-9.7505
卓	-9.7505
啼	-9.75101
劉向	-9.75223
蓋聞	-9.75392
上林	-9.75408
昭王	-9.7552
者謂之	-9.75651
諡	-9.75731
氏之	-9.7577
千載	-9.75842
出自	-9.75986
益州	-9.75991
宋玉	-9.76056
僕射	-9.76254
䰟	-9.76303
慷慨	-9.76324
靖	-9.76342
薪	-9.76372
編	-9.76375
熱	-9.76387
薛	-9.76458
圗	-9.76459
沈約	-9.76524
周之	-9.76659
琴瑟	-9.76776
故人	-9.76864
而死	-9.77082
□	-9.77288
州諸軍事	-9.77455
是謂	-9.77485
王室	-9.7753
之屬	-9.77647
梁元帝	-9.77648
梵	-9.77697
匿	-9.77772
唱	-9.77795
戊	-9.77839
故以	-9.77842
祝	-9.77861
苗	-9.7787
弊	-9.77881
無不	-9.77889
疇	-9.77899
裘	-9.77902
欒	-9.77915
勃	-9.77918
擢	-9.7794
不相	-9.78108
宗室	-9.78195
出入	-9.78207
武昌	-9.78484
歟	-9.78648
河東	-9.78686
法師	-9.78805
隂陽	-9.78865
建安	-9.78867
太平	-9.79107
箕	-9.7913
大司馬	-9.79148
愆	-9.79216
廓	-9.79258
徂	-9.79299
㓜	-9.79324
邵	-9.79338
雖復	-9.79342
嘯	-9.79368
逕	-9.79368
陂	-9.79379
鳳凰	-9.79429
可得	-9.79455
鵲	-9.79482
敖	-9.79524
之月	-9.79526
鬬	-9.79535
見齊王	-9.79792
為大	-9.79879
曰夫	-9.80058
金石	-9.8006
常侍	-9.80173
四月	-9.80242
之戰	-9.80248
古之	-9.80411
可謂	-9.80524
之義	-9.80526
宛	-9.80557
六月	-9.80757
咨	-9.80806
艱	-9.80813
綵	-9.80853
尼	-9.80856
飬	-9.80892
貽	-9.80902
勅	-9.8091
芒	-9.80915
糧	-9.80916
悽	-9.80941
棟	-9.8096
耆	-9.80989
警	-9.81005
局	-9.81076
有大	-9.81283
囚	-9.81347
博士	-9.81365
百官	-9.81409
豫州	-9.8145
測	-9.81578
童子	-9.8163
富貴	-9.817
乎曰	-9.81786
時有	-9.82032
膽	-9.82318
三千	-9.82394
謨	-9.82395
千金	-9.82433
板	-9.82433
襟	-9.8245
綿	-9.82465
㝷	-9.82465
噐	-9.82471
隕	-9.82477
驕	-9.8248
標	-9.82485
染	-9.82495
溝	-9.82502
見其	-9.82503
竈	-9.82523
國家	-9.82531
秘	-9.82531
咏	-9.82534
浴	-9.82536
功臣	-9.82537
後魏	-9.82597
二子	-9.82645
顓頊	-9.82652
風雨	-9.82685
太后	-9.82867
楚之	-9.82951
車騎	-9.83319
産	-9.83699
五日	-9.83757
彭	-9.83886
語曰	-9.83922
朋	-9.83959
恃	-9.83979
促	-9.83996
吝	-9.83996
之山	-9.8402
溺	-9.84027
滔	-9.84044
殆	-9.84046
漫	-9.84049
之日	-9.84054
強	-9.84069
賚	-9.84069
彪	-9.84074
沖	-9.84084
殞	-9.84093
祐	-9.84096
眼	-9.84101
潘	-9.84104
蒸	-9.84117
蟻	-9.84118
黜	-9.84125
頽	-9.84126
巡	-9.84166
相與	-9.84167
於時	-9.84168
憲碑	-9.84175
項羽	-9.8419
九州	-9.84212
巫	-9.84519
内史	-9.84683
取其	-9.84793
河内	-9.84802
其文	-9.85113
太常	-9.8514
毅	-9.85261
王者	-9.85297
三百	-9.85354
繁弨曰	-9.85422
肥	-9.85541
齊王	-9.85543
山有	-9.85563
寔	-9.85617
九月	-9.85618
整	-9.85642
軀	-9.85651
擅	-9.85653
怡	-9.85658
菊	-9.85661
突	-9.85703
簫	-9.85709
函谷	-9.85776
譙	-9.85787
中國	-9.85896
繫辭	-9.86001
也夫	-9.86189
北方	-9.8621
化為	-9.86266
仁義	-9.86274
非其	-9.86311
通考	-9.86355
各有	-9.86404
莊子曰	-9.87021
與之	-9.87138
南北	-9.87171
千年	-9.87192
得其	-9.87207
潭	-9.87217
見春	-9.87236
炳	-9.87248
挺	-9.87249
吉凶	-9.87273
綜	-9.87278
冡	-9.87279
儔	-9.87282
廵	-9.87298
纎	-9.87305
轂	-9.87312
樽	-9.87313
倦	-9.87322
涇	-9.87337
釁	-9.87339
逈	-9.87345
析	-9.87374
䖍	-9.87376
嬴	-9.8738
汎	-9.8738
旄	-9.87396
𦙍	-9.87428
笙	-9.87457
圓丘	-9.87534
御史	-9.87629
彭城	-9.87707
之國	-9.87784
既而	-9.88293
南山	-9.88305
也若	-9.8846
揚州	-9.88665
水經注	-9.8873
莽	-9.8876
杜預	-9.88775
眺	-9.88903
虧	-9.88903
檢	-9.8891
雌	-9.88918
遘	-9.88946
筵	-9.88954
乍	-9.88961
蕪	-9.8897
藹	-9.88974
懽	-9.88976
輅	-9.88989
亥	-9.89003
幣	-9.89008
互	-9.8901
宦	-9.89015
隣	-9.89023
臻	-9.89024
古詩	-9.89031
縈	-9.8904
握	-9.89055
呂	-9.89061
軒轅	-9.89062
綽	-9.89079
練	-9.89079
遙	-9.8908
扈	-9.89081
流水	-9.89098
不同	-9.89134
之神	-9.89172
之文	-9.89222
周禮曰	-9.89412
第二	-9.89519
遼東	-9.89544
隴西	-9.89573
中書	-9.89743
之徒	-9.89807
八月	-9.89945
陽縣	-9.90014
廣陵	-9.90048
武帝紀	-9.90248
子之	-9.90313
秦王	-9.90333
不勝	-9.90482
彫	-9.90526
上帝	-9.90553
替	-9.90566
聰	-9.90577
曰天	-9.90584
羈	-9.90593
踈	-9.90603
冒	-9.90636
寐	-9.9064
填	-9.90692
㓕	-9.90699
窟	-9.90709
兔	-9.90742
濬	-9.90751
之謂	-9.90759
也今	-9.90874
買	-9.90879
班固	-9.9089
曰臣	-9.90907
所在	-9.9105
江淮	-9.91161
上書	-9.91307
建德	-9.91395
生民	-9.91418
而成	-9.91441
之難	-9.91479
南郊	-9.91553
浮雲	-9.91678
悵	-9.92217
美人	-9.92225
成帝	-9.92231
人皆	-9.92238
収	-9.92296
郡公	-9.92319
夫子	-9.92329
墟	-9.92331
闡	-9.92339
晏子	-9.92342
丙	-9.92384
騁	-9.92389
羞	-9.92414
護	-9.92422
亟	-9.92422
赦	-9.92439
大将軍	-9.92441
娥	-9.92444
畜	-9.92458
梟	-9.92474
鏤	-9.92476
沃	-9.92478
恤	-9.92486
峽	-9.92488
笛	-9.9251
桀	-9.92523
翁	-9.92559
五帝	-9.92641
也故	-9.92705
雖有	-9.92821
子産	-9.92937
王僧辯	-9.92977
之心	-9.93061
古者	-9.9323
服之	-9.93482
新野	-9.93517
是時	-9.93564
長城	-9.93757
陽氣	-9.93905
減	-9.93918
碩	-9.94052
駟	-9.94063
柯	-9.94068
勉	-9.94089
寓	-9.94122
壬	-9.94125
濫	-9.94131
轍	-9.94135
翦	-9.94166
䕃	-9.94166
沐	-9.94177
別	-9.94177
羨	-9.94195
挾	-9.9421
寉	-9.94221
有二	-9.94224
殯	-9.94241
垣	-9.94256
狹	-9.94264
建鄴	-9.94307
東方朔	-9.94366
逞碑	-9.9439
十三年	-9.94517
韓信	-9.94889
言已	-9.95079
未嘗	-9.95243
其二	-9.95378
十八	-9.95395
西京雜記	-9.95459
序曰	-9.95469
主人	-9.95636
驪	-9.95658
之内	-9.95701
翕	-9.9579
賁	-9.95875
拘	-9.95887
鈞	-9.95917
闈	-9.95925
輙	-9.95939
闥	-9.95939
頼	-9.95951
欵	-9.95978
几	-9.95981
參差	-9.95995
碎	-9.95995
苞	-9.95999
排	-9.96
員	-9.96004
壊	-9.9601
髻	-9.96025
無復	-9.96061
吞	-9.96062
凋	-9.96064
隐	-9.96064
甘露	-9.96142
中大夫	-9.96277
山在	-9.96779
之職	-9.96824
風塵	-9.9699
七月	-9.97178
第三	-9.97292
王孫	-9.97389
清風	-9.97495
世之	-9.97507
之氣	-9.97579
紆	-9.97654
裕	-9.97673
鑠	-9.97688
銳	-9.97706
之類	-9.97717
萌	-9.97734
宏	-9.97735
栢	-9.97739
疲	-9.97804
飈	-9.97817
迄	-9.97827
寃	-9.97863
版	-9.97871
隋志	-9.97872
斤	-9.97874
州郡	-9.97894
子也	-9.97916
菱	-9.97922
文昌	-9.97952
蜀志	-9.97983
妻子	-9.98242
長平	-9.98305
逞	-9.98307
命之	-9.98621
曰今	-9.98652
水經注曰	-9.9871
思歸	-9.98744
由是	-9.98801
不言	-9.98846
蕭何	-9.98901
二句	-9.98962
南宫	-9.9923
陛	-9.99418
長子	-9.99463
欺	-9.99536
繇	-9.996
圜	-9.99604
牖	-9.99607
弼	-9.99609
戾	-9.99613
潰	-9.9963
戢	-9.99631
禱	-9.99639
紂	-9.99644
蘆	-9.9966
混	-9.99666
邱	-9.99673
構	-9.99674
旱	-9.99686
茲	-9.99691
街	-9.99704
不用	-9.99727
徧	-9.99739
屈原	-9.99776
秦晉	-9.99866
咏懐	-9.99914
江東	-10.0009
白雲	-10.0013
有五	-10.0014
園賦	-10.0028
國語	-10.0037
十月	-10.0037
之長	-10.0061
而出	-10.0063
郭璞	-10.0064
郢州	-10.0071
太清	-10.0072
地也	-10.0103
保定	-10.0122
潁	-10.0138
廉	-10.0142
耿	-10.0144
君臣	-10.0144
綴	-10.0145
顛	-10.0146
旂	-10.0146
濱	-10.0148
諧	-10.0148
斛	-10.0149
貳	-10.0151
該	-10.0151
寒暑	-10.0151
臂	-10.0151
甸	-10.0152
礙	-10.0153
轅	-10.0154
逾	-10.0155
抽	-10.0155
艾	-10.0156
諌	-10.0156
伽	-10.0157
阜	-10.0161
晉侯	-10.0173
滎陽	-10.0173
嶠	-10.0173
志云	-10.0182
明徹	-10.0185
陽郡	-10.0185
尚書曰	-10.0209
漢書地理志曰	-10.0215
之法	-10.0228
東平	-10.0231
而巳	-10.0233
佳人	-10.024
山海經曰	-10.0258
陽侯	-10.0258
安得	-10.026
而行	-10.0264
一旦	-10.0268
流星	-10.0299
十二年	-10.0307
措	-10.0312
張華	-10.0322
纍	-10.0324
禀	-10.0329
眇	-10.0332
了	-10.0335
愴	-10.0338
蹇	-10.0339
鷹	-10.0339
歷	-10.0339
馴	-10.0339
亷	-10.034
漆	-10.0342
掃	-10.0343
蹤	-10.0344
輩	-10.0346
纔	-10.0346
漂	-10.0348
俎	-10.0348
駒	-10.0349
栗	-10.0352
完	-10.0353
龔	-10.0353
抵	-10.0354
視之	-10.036
大人	-10.0362
庾信	-10.0362
代郡	-10.0366
冀州	-10.038
徐州	-10.0388
萬國	-10.0398
相見	-10.0405
縣有	-10.0416
陜	-10.0426
古今	-10.0429
漢王	-10.0438
字伯	-10.0452
華隂	-10.0459
三州	-10.0475
湑曰	-10.0482
又諮	-10.0516
不食	-10.0516
之際	-10.0517
當時	-10.0518
公侯	-10.0522
肩	-10.0525
六十	-10.0527
費	-10.053
矩	-10.0531
脱	-10.0535
探	-10.0535
鈎	-10.0537
惻	-10.0538
棠	-10.0538
袂	-10.0539
旒	-10.0541
巷	-10.0543
銷	-10.0543
奸	-10.0544
緩	-10.0544
捕	-10.0545
衿	-10.0545
塟	-10.0546
出於	-10.0546
大夏	-10.0547
證	-10.0548
價	-10.0548
撝	-10.055
杞	-10.0555
慕容	-10.0567
鬼神	-10.0572
七日	-10.0579
祭祀	-10.0579
王莽	-10.0582
太原	-10.0589
渡河	-10.0595
開府	-10.0599
山河	-10.0601
而下	-10.0601
郡國志	-10.0602
帝曰	-10.0607
中軍	-10.063
宜陽	-10.0634
八年	-10.0635
太師	-10.0636
天和	-10.0639
中山	-10.0639
疏云	-10.0643
無相	-10.0648
太公	-10.0651
卒於	-10.0683
十六年	-10.0695
江漢	-10.0695
張儀	-10.0697
琳	-10.0702
韓子	-10.0712
慨	-10.072
捐	-10.0727
有司	-10.0727
鳬	-10.0728
酋	-10.0728
訟	-10.0731
睦	-10.0731
郡有	-10.0732
漠	-10.0734
姦	-10.0734
効	-10.0734
卯	-10.0734
遽	-10.0734
誥	-10.0734
祇	-10.0736
烽	-10.0736
釐	-10.0737
彩	-10.0737
俘	-10.0739
鳯凰	-10.0739
酉	-10.074
谿	-10.074
羡	-10.0741
算	-10.0742
鉞	-10.0742
騷	-10.0742
焦	-10.0744
詐	-10.0747
恪	-10.0748
現	-10.0748
者以	-10.0751
罍	-10.0752
蘋	-10.0752
旃	-10.0755
西王母	-10.0755
不以	-10.0772
廣武	-10.0779
飲酒	-10.0789
家語	-10.0791
字仲	-10.0814
其人	-10.0819
沾	-10.084
白帝	-10.0852
九年	-10.0858
見小	-10.0889
一朝	-10.089
而未	-10.0895
大同	-10.0897
雲臺	-10.0903
楚地	-10.0908
諸將	-10.0934
怖	-10.0934
山陽	-10.0935
鼻	-10.0936
拊	-10.0937
讎	-10.0938
窓	-10.0939
不過	-10.094
迫	-10.0941
殖	-10.0942
霑	-10.0943
罰	-10.0943
穹	-10.0944
泊	-10.0945
呈	-10.0946
譲	-10.0946
紙	-10.0946
株	-10.0947
一切	-10.0947
昇	-10.0948
西方	-10.0949
賈誼	-10.095
丸	-10.0952
藪	-10.0954
丈夫	-10.0957
於天	-10.0961
不忘	-10.0961
魏志曰	-10.0965
玉帛	-10.0966
賔客	-10.0975
故名	-10.0979
始皇	-10.1
此言	-10.1009
秋風	-10.1013
白虎	-10.1015
李陵	-10.102
海内	-10.1032
魏武	-10.1033
未能	-10.1035
一篇	-10.1046
凱	-10.1062
十一	-10.1072
於齊	-10.1077
卭	-10.1087
詔曰	-10.1089
世子	-10.1092
上將	-10.1094
子貢	-10.1103
而言	-10.111
所作	-10.1125
郡守	-10.113
之兵	-10.1133
何如	-10.1135
艶	-10.1138
之師	-10.1139
馥	-10.1142
縮	-10.1145
冩	-10.1145
廼	-10.1146
絡	-10.1147
丑	-10.1147
般	-10.1147
翹	-10.1148
企	-10.1149
廊	-10.1153
婉	-10.1153
曹植	-10.1154
諒	-10.1154
邯鄲	-10.1155
油	-10.1156
弋	-10.1157
之外	-10.1157
倍	-10.1158
𨽻	-10.1158
曹子建	-10.1158
陀	-10.1159
冇	-10.116
靖節	-10.1161
滑	-10.1163
仗	-10.1164
從之	-10.1165
檀弓	-10.1165
從事	-10.1166
其先	-10.1169
使持節	-10.117
先王	-10.1179
湘東王	-10.1188
髙帝	-10.1189
地理志	-10.12
門下	-10.1208
索隠曰	-10.121
其事	-10.1216
皆以	-10.1234
漢武帝	-10.1249
漁	-10.1257
之美	-10.126
河圖	-10.1278
天官	-10.1293
之亂	-10.1294
終始	-10.1303
之意	-10.1311
喬	-10.1312
少年	-10.1313
論曰	-10.1319
參軍	-10.1354
讃	-10.1357
僉	-10.1357
隙	-10.136
繹	-10.1361
貞測曰	-10.1361
峰	-10.1361
皎	-10.1362
陌	-10.1362
寂寞	-10.1362
閶闔	-10.1362
艦	-10.1363
佇	-10.1364
毀	-10.1364
閻	-10.1365
専	-10.1365
眞	-10.1366
骸	-10.1367
譜	-10.1369
飯	-10.137
茫茫	-10.137
秦始皇	-10.1372
蟄	-10.1372
岡	-10.1373
狗	-10.1374
阮	-10.1377
姚	-10.1377
主簿	-10.1381
棊	-10.1384
禮也	-10.1392
建康	-10.1393
霜露	-10.1405
人所	-10.1407
南楚	-10.1429
梁書	-10.1453
仲禮	-10.1458
崑崙	-10.1465
中郎	-10.1471
飛燕	-10.148
南郡	-10.1486
總管	-10.1499
之聲	-10.1544
裝	-10.1552
之樂	-10.1552
永安	-10.1554
以成	-10.1564
榦	-10.1571
浩	-10.1571
鄭注	-10.1572
剖	-10.1572
邕	-10.1575
寤	-10.1575
毗	-10.1575
辜	-10.1576
匠	-10.1577
随	-10.1579
瀾	-10.158
劇	-10.1582
箱	-10.1582
樵	-10.1583
王粲	-10.1584
灾	-10.1585
眠	-10.1585
亢	-10.1586
未知	-10.1586
戯	-10.1588
慟	-10.1588
龕	-10.1588
膝	-10.1589
相思	-10.1591
戰國䇿	-10.1591
穆穆	-10.1595
有四	-10.1597
華陽國志	-10.1598
齊人	-10.1612
蘇武	-10.1614
建業	-10.162
十二月	-10.1621
神農	-10.1628
沛公	-10.1629
齊侯	-10.1632
聖人之	-10.1651
諸子	-10.1653
易曰	-10.1656
之術	-10.1664
宫室	-10.167
汲	-10.1676
十日	-10.1678
王母	-10.1681
是故	-10.1688
左傳晉	-10.1697
其子	-10.1708
漢地理志	-10.1715
有此	-10.172
十一年	-10.1734
紀曰	-10.1736
博物志	-10.1747
殿下	-10.1748
數百	-10.1753
許之	-10.1765
之北	-10.1767
者其	-10.1768
或云	-10.1775
心賦	-10.1776
之制	-10.1776
矦	-10.1786
軸	-10.1791
悠	-10.1792
寥	-10.1793
曷	-10.1795
不死	-10.1796
燧	-10.18
癸	-10.1801
敝	-10.1801
例	-10.1801
潮	-10.1803
弧	-10.1803
於東	-10.1803
臥	-10.1803
勑	-10.1804
知之	-10.1804
拱	-10.1805
札	-10.1805
以示	-10.1808
檻	-10.1808
嵇康	-10.1809
建平王	-10.1809
奢	-10.1809
弑	-10.181
柩	-10.1811
與王	-10.1811
螢	-10.1813
譏	-10.1813
金陵	-10.1823
冉	-10.1826
琨	-10.1827
聲聞	-10.1831
布衣	-10.1842
至于	-10.1845
第五	-10.1851
曰大	-10.1875
如是	-10.1887
延年	-10.1895
亦曰	-10.1901
為君	-10.1913
漁陽	-10.1924
自古	-10.1985
所居	-10.1993
文公	-10.1997
爾乃	-10.2008
山名	-10.201
翮	-10.2018
奥	-10.2022
豕	-10.2024
墻	-10.2025
臭	-10.2026
乂	-10.2027
婆	-10.2027
頂	-10.2028
毫	-10.203
忝	-10.2032
浸	-10.2032
后稷	-10.2032
㸃	-10.2034
阮籍	-10.2034
法苑珠林	-10.2035
楷	-10.2035
本紀	-10.2035
囬	-10.2035
跪	-10.2036
鬭	-10.2037
掘	-10.2037
氛	-10.2038
涯	-10.2038
縱横	-10.2039
潯陽	-10.2039
扶桑	-10.204
崤	-10.2042
邸	-10.2042
沸	-10.2044
鐸	-10.2046
如故	-10.2047
唐虞	-10.2053
荆州刺史	-10.2058
南風	-10.2065
之精	-10.2068
二千	-10.2071
毛詩	-10.2076
太康	-10.2077
者為	-10.2079
而自	-10.2084
門外	-10.2086
周太祖	-10.2096
是其	-10.2097
行人	-10.2101
四首	-10.2105
天監	-10.2106
也史記	-10.2112
不為	-10.2124
若此	-10.2125
諡曰	-10.2145
城中	-10.2152
乃作	-10.2156
三危	-10.2169
在長安	-10.2193
之辭	-10.2202
戰於	-10.2211
嘆曰	-10.2216
成功	-10.2234
時年	-10.2241
昔在	-10.2241
楹	-10.2254
苔	-10.2256
黔	-10.2258
䧟	-10.2259
廷	-10.2259
諷	-10.2263
瓦	-10.2264
搆	-10.2265
擾	-10.2267
稀	-10.227
鬢	-10.227
冊	-10.2274
覿	-10.2274
蜜	-10.2275
武庫	-10.2276
何為	-10.2279
二州	-10.2279
書云	-10.228
二千石	-10.2284
流涕	-10.2294
率衆	-10.2298
之理	-10.2304
世説	-10.2315
茂陵	-10.2317
賜姓	-10.2318
平陵	-10.2322
張衡	-10.2324
黄河	-10.2326
衆生	-10.2326
在位	-10.2327
景帝	-10.234
鄭𤣥	-10.2343
法身	-10.2347
世説曰	-10.2348
離别	-10.2354
皇夏	-10.236
肯	-10.2369
長楊	-10.2389
於周	-10.239
風俗	-10.2396
入朝	-10.2409
詩序曰	-10.2414
諸軍	-10.2415
甲子	-10.2418
寡人	-10.2418
在昔	-10.2438
天地之	-10.244
伯夷	-10.2442
又按	-10.2449
碑文	-10.2452
石室	-10.2453
之君	-10.2459
人有	-10.2469
誘	-10.2478
迭	-10.2487
曖	-10.2491
荼	-10.2491
皷	-10.2491
為一	-10.2494
明年	-10.2494
丕	-10.2494
滌	-10.2495
郷	-10.2495
敕	-10.2496
筮	-10.2498
袍	-10.2499
山谷	-10.25
啇	-10.25
寕	-10.2501
娶	-10.2501
餓	-10.2502
豎	-10.2502
虢	-10.2504
髙陽	-10.2504
跨	-10.2504
貨	-10.2504
埃	-10.2506
㫁	-10.2507
叩	-10.2507
繳	-10.2507
梁武帝	-10.2508
瑯邪	-10.2509
輦	-10.2509
挂	-10.251
棗	-10.2513
聼	-10.2513
竄	-10.2513
攜	-10.2516
肅肅	-10.2521
以喻	-10.2526
之世	-10.2527
受禪	-10.2529
其三	-10.2538
雞鳴	-10.254
咸池	-10.255
玉門	-10.2564
三輔黄圖曰	-10.2568
帝即位	-10.2569
上黨	-10.257
風吹	-10.258
朽	-10.2592
其年	-10.2602
不可以	-10.2605
周室	-10.2607
之盛	-10.2615
三事	-10.2627
西京	-10.2633
事君	-10.2642
山下	-10.2662
何時	-10.2663
之役	-10.2681
三軍	-10.2683
昔者	-10.2687
不然	-10.2698
不盡	-10.2704
今之	-10.2726
聿	-10.2728
亦云	-10.2731
萊	-10.2734
慢	-10.2734
盪	-10.2738
杼	-10.274
搖	-10.2741
于天	-10.2741
彞	-10.2742
鞠	-10.2742
付	-10.2742
揖	-10.2743
百萬	-10.2743
臨江	-10.2743
蔚	-10.2743
肝	-10.2744
億	-10.2747
悅	-10.2747
麻	-10.2747
沔	-10.2748
灼	-10.2748
傑	-10.2748
涓	-10.2748
酷	-10.2749
膳	-10.2749
人事	-10.275
孟康曰	-10.2751
晝夜	-10.2751
譯	-10.2752
仇	-10.2753
頠	-10.2753
中原	-10.2755
叟	-10.2755
桃花	-10.2755
亳	-10.2755
是非	-10.2757
活	-10.2758
車騎將軍	-10.2762
文子	-10.2768
神仙	-10.2768
其下	-10.2771
閔帝	-10.2774
齊神武	-10.2775
杖賦	-10.2797
當作	-10.2801
見崇	-10.2802
東都	-10.2805
吏民	-10.2807
非常	-10.2809
李善	-10.2819
何所	-10.2822
曹公	-10.2822
其名	-10.2825
進表	-10.283
楚人	-10.2838
惟有	-10.2854
答曰	-10.2856
死者	-10.286
石頭	-10.2861
樂也	-10.2869
雲夢	-10.2881
河曲	-10.2887
有道	-10.2893
而還	-10.2903
十四	-10.292
地名	-10.2922
字元	-10.2929
宣王	-10.2932
武成	-10.2934
孝子	-10.2937
東門	-10.2938
見鄭	-10.294
失其	-10.294
之末	-10.2941
縣東	-10.2943
不亦	-10.2962
水中	-10.2963
快	-10.2972
天官書	-10.2974
不可得	-10.2974
諮	-10.2976
以金	-10.2976
孚	-10.2976
奕	-10.2977
航	-10.2981
詭	-10.2982
槃	-10.2985
淨	-10.2988
五行	-10.2988
庫	-10.2988
係	-10.2989
鶉	-10.299
瘁	-10.2992
飄颻	-10.2992
二語	-10.2993
恬	-10.2993
稼	-10.2994
渝	-10.2995
液	-10.2996
騖	-10.2997
簾	-10.2999
灑	-10.2999
氐	-10.2999
豔	-10.3
蚩尤	-10.3
霍去病	-10.3
燮	-10.3001
甄	-10.3002
竿	-10.3003
酣	-10.3005
麋	-10.3005
繒	-10.3005
畔	-10.3006
不至	-10.3007
舘	-10.3007
彤	-10.3008
搏	-10.3008
豳	-10.3011
臨淄	-10.3012
疇昔	-10.3012
郤	-10.3014
所見	-10.3014
遂以	-10.3022
來聘	-10.3024
紀云	-10.3028
食之	-10.303
入闗	-10.3031
改曰	-10.3033
十九	-10.3034
下有	-10.3034
公曰	-10.3035
九重	-10.3036
也左傳	-10.3041
王琳	-10.3044
桂陽	-10.3049
郎中	-10.3056
之命	-10.3057
白露	-10.3065
之歌	-10.3073
華山	-10.3086
居之	-10.3091
改封	-10.3104
三輔	-10.3107
忠臣	-10.3115
之臺	-10.3117
母曰	-10.3127
之處	-10.3134
江夏	-10.3134
二十四	-10.3138
望之	-10.3147
宫中	-10.3149
國有	-10.315
得一	-10.3163
一巻	-10.317
其心	-10.3176
天帝	-10.3179
也詳	-10.3188
哀樂	-10.3196
而生	-10.3203
何得	-10.3211
明明	-10.3212
黄門	-10.3214
陳平	-10.3214
不絶	-10.3215
帝為	-10.3221
􁁊	-10.3224
置酒	-10.3226
魁	-10.3227
不出	-10.3229
儀同三司	-10.3229
如來	-10.3232
簡文	-10.3237
憚	-10.3239
絕	-10.324
誡	-10.3242
冨	-10.3243
後周置	-10.3243
衮	-10.3244
持節	-10.3246
泄	-10.3247
覇	-10.3247
萃	-10.3248
貂	-10.325
䑓	-10.325
殄	-10.3251
柄	-10.3252
盗	-10.3253
牕	-10.3253
鷰	-10.3253
牒	-10.3254
樸	-10.3254
岫	-10.3254
世說	-10.3256
舅	-10.3256
醴	-10.3257
餌	-10.3257
羣公	-10.3257
熾	-10.3261
犧	-10.3261
譚	-10.3261
光禄大夫	-10.3261
沮	-10.3262
孔融	-10.3262
坤	-10.3265
零落	-10.3266
雲氣	-10.3269
樓船	-10.3275
孔子曰	-10.3297
二十八	-10.3299
非所	-10.3301
之官	-10.3302
故稱	-10.3305
白鶴	-10.331
陰陽	-10.3311
孝武	-10.3317
出為	-10.3323
高帝	-10.3325
乃命	-10.3329
冠軍	-10.333
王逸	-10.333
誰能	-10.3332
以公	-10.3333
往來	-10.3333
改為	-10.3336
文集	-10.3362
號為	-10.3384
清河	-10.3387
陽城	-10.3392
千餘	-10.3393
辭曰	-10.3393
曲禮	-10.3409
稱其	-10.3437
俄	-10.3445
王命	-10.3446
伊何	-10.3447
為人	-10.3464
孝經	-10.3473
未及	-10.3473
再拜	-10.3483
未央	-10.3492
所得	-10.3493
稚	-10.3497
邇	-10.3502
多士	-10.3504
輯	-10.3504
炤	-10.3505
謳	-10.3506
憎	-10.3506
帝王	-10.3507
婁	-10.3508
肴	-10.351
舄	-10.3511
悴	-10.3514
葵	-10.3514
炭	-10.3515
曄	-10.3515
悽愴	-10.3515
乎其	-10.3516
紐	-10.3517
疊	-10.3517
騫	-10.3518
伍	-10.3518
倐忽	-10.3518
列子	-10.3519
侈	-10.3519
檄	-10.352
徼	-10.3521
虐	-10.3521
劫	-10.3522
溟	-10.3522
加以	-10.3522
拭	-10.3522
萍	-10.3523
穆天子傳	-10.3524
稽首	-10.3525
荆軻	-10.3525
忿	-10.3525
蜂	-10.3526
囿	-10.3526
婚	-10.3527
昴	-10.3527
即是	-10.3528
昊天	-10.3529
豆盧	-10.353
琅邪	-10.3531
稜	-10.3531
漿	-10.3532
渤海	-10.3532
詳哀江南賦	-10.3534
㳟	-10.3534
稟	-10.3537
中央	-10.3539
甕	-10.354
不載	-10.3543
諸葛	-10.3546
臺城	-10.3552
以禮	-10.3553
自此	-10.3553
管仲	-10.3557
不受	-10.3561
方之	-10.3562
况復	-10.3563
儉碑	-10.3566
賦序	-10.3567
承聖	-10.3567
晋書	-10.3576
連珠	-10.3578
不成	-10.3584
祭之	-10.3592
之始	-10.3593
在上	-10.3595
而作	-10.3599
山東	-10.3601
五行志	-10.3604
羽林	-10.3612
父老	-10.3616
江左	-10.3623
左氏	-10.3624
行臺	-10.3628
武功	-10.363
皇太子	-10.3634
王曰	-10.3636
見勸	-10.3647
無窮	-10.3649
荆山	-10.3653
廣州	-10.3653
天命	-10.3662
性命	-10.3666
禹貢曰	-10.3681
日月之	-10.3688
聞其	-10.3688
無遺	-10.369
萬年	-10.3721
哀江南賦	-10.3721
歸於	-10.3722
大雅	-10.3724
笑曰	-10.3727
三星	-10.3728
三輔黄圖	-10.3739
有九	-10.374
其色	-10.3743
左傳昭	-10.3753
地理志曰	-10.3758
紘	-10.3761
蛟	-10.3772
雛	-10.3776
鑾	-10.3776
故能	-10.3777
淡	-10.3778
蔓	-10.3778
宥	-10.3778
羇	-10.3779
恠	-10.3782
冷	-10.3782
濕	-10.3783
舂	-10.3783
喧	-10.3783
渥	-10.3784
躡	-10.3784
弭	-10.3785
祉	-10.3786
䑕	-10.3786
禾	-10.3786
釵	-10.3786
筠	-10.3787
瑤	-10.3787
涌	-10.3787
斥	-10.3787
斾	-10.3787
簿	-10.3788
障	-10.3789
控	-10.379
縛	-10.3792
奐	-10.3793
詡	-10.3793
龎	-10.3794
歎息	-10.3795
涸	-10.3795
爐	-10.3796
三十六	-10.3796
馮翊	-10.3798
沼	-10.3798
的	-10.3798
翼翼	-10.3799
系	-10.38
濛	-10.38
曼	-10.3801
於前	-10.3802
侍郎	-10.3802
皆為	-10.3802
之可	-10.3806
拾遺記	-10.3809
正徳	-10.3809
蓮花	-10.3809
鴛鴦	-10.3809
顥	-10.381
舍人	-10.3811
徐州刺史	-10.3819
年號	-10.3823
何必	-10.3826
于謹	-10.3827
之才	-10.3835
行雲	-10.3839
道也	-10.3841
馬援	-10.3847
傳注	-10.385
終不	-10.3851
少府	-10.3852
朝夕	-10.3853
無名	-10.3861
李廣	-10.3863
者必	-10.3874
博物志曰	-10.388
六國	-10.3891
神仙傳曰	-10.3896
不爲	-10.3898
而歸	-10.3902
集中有	-10.3905
藝文	-10.3907
説文	-10.3908
河洛	-10.3909
龍之	-10.3912
九十	-10.3915
之遺	-10.3921
十有二	-10.3925
郭璞曰	-10.394
一家	-10.3961
天文	-10.3963
並有	-10.3964
日中	-10.3964
霄	-10.3971
流離	-10.398
而爲	-10.3982
郡領	-10.3989
傷心	-10.3991
西山	-10.3996
故事	-10.3997
非無	-10.3999
故鄉	-10.4001
軍中	-10.4001
西伯	-10.4005
日暮	-10.4027
世尊	-10.4037
靣	-10.4051
曰王	-10.4052
僖	-10.4054
羙	-10.4055
娯	-10.4056
杵	-10.4056
叱	-10.4056
篆	-10.4056
旨	-10.4057
科	-10.406
燿	-10.4061
拾	-10.4061
襃	-10.4061
裹	-10.4062
惆悵	-10.4063
妓	-10.4065
祜	-10.4065
咽	-10.4066
汁	-10.4066
㨗	-10.4066
妨	-10.4066
汜	-10.4067
供養	-10.4068
紈	-10.4069
吳越春秋	-10.4069
梨	-10.4069
只	-10.407
捧	-10.407
不歸	-10.407
汪	-10.4072
諾	-10.4074
泝	-10.4074
笳	-10.4074
村	-10.4075
準	-10.4075
曇	-10.4076
模	-10.4076
男女	-10.4078
後漢郡國志	-10.4079
鞍	-10.4081
鮑昭	-10.4085
璋	-10.4087
鄉里	-10.4088
稻	-10.4089
此下	-10.4091
侯莫陳	-10.4091
左傳僖	-10.4091
霸先	-10.4094
梁朝	-10.4102
梁州	-10.4111
變化	-10.4114
孤竹	-10.4116
觀之	-10.4119
之遂	-10.4123
雁門	-10.4123
無常	-10.4125
立為	-10.4126
屏風	-10.413
承明	-10.4142
其言	-10.4144
逺近	-10.4146
曰秦	-10.415
千秋	-10.4151
炎帝	-10.4156
有序	-10.4159
不失	-10.416
入於	-10.4162
左氏傳	-10.4165
五千	-10.4167
狀如	-10.4177
丘陵	-10.4182
人以	-10.4184
雲中	-10.4188
之徳	-10.4205
宣子	-10.4213
闗中	-10.4221
建徳	-10.4223
死於	-10.4227
開國	-10.4229
人不	-10.4235
相國	-10.4245
武皇帝	-10.4249
之門	-10.4252
城門	-10.4254
按此	-10.4263
之重	-10.4264
東齊	-10.4265
飛鳥	-10.4276
泗	-10.4277
方澤	-10.4277
之宫	-10.4287
何處	-10.429
之至	-10.4292
玉女	-10.4307
死生	-10.4311
問之	-10.4314
仞	-10.4317
所殺	-10.4323
封禪	-10.4332
澹	-10.4335
纒	-10.4338
玊	-10.4341
縷	-10.4341
殁	-10.4343
緜	-10.4344
踵	-10.4345
耽	-10.4345
晷	-10.4346
誌	-10.4346
之禍	-10.4347
叡	-10.4347
茹	-10.4347
駐	-10.4348
媿	-10.4349
裾	-10.4349
粤	-10.4349
璞	-10.4349
森	-10.4351
敞	-10.4351
暖	-10.4352
頑	-10.4352
瑩	-10.4353
訖	-10.4354
服䖍曰	-10.4354
睿	-10.4355
畆	-10.4356
嵇	-10.4356
奈何	-10.4357
侔	-10.4357
梗	-10.4358
宇宙	-10.4359
貝	-10.436
杏	-10.436
三方	-10.4361
繭	-10.4362
邾	-10.4363
人多	-10.4364
葭	-10.4364
欄	-10.4366
蕭條	-10.4367
𤣥圃	-10.4367
零陵	-10.437
蓬萊	-10.437
盥	-10.4371
而得	-10.4372
欲以	-10.4373
織女	-10.4377
閒居	-10.4388
從此	-10.439
臨川	-10.4391
令尹	-10.4391
毛傳曰	-10.4395
詔書	-10.4411
無事	-10.4414
子弟	-10.4414
公以	-10.4416
數千	-10.4416
千乗	-10.4416
曰君	-10.4418
永嘉	-10.4433
安可	-10.4438
食邑	-10.4438
天子之	-10.4438
八十	-10.4438
竹林	-10.4439
或以	-10.444
十餘年	-10.4456
張良	-10.4461
之位	-10.4462
上谷	-10.4463
武帝時	-10.4465
神武	-10.4466
積石	-10.4468
武陵	-10.4472
莫敢	-10.4474
其母	-10.4483
周文	-10.4488
學士	-10.4493
以致	-10.4502
人間	-10.4503
吳王	-10.4511
有六	-10.4512
諸侯之	-10.4525
北地	-10.4535
終身	-10.4538
歎曰	-10.454
吕氏春秋	-10.4541
◍(	-10.4551
所能	-10.4554
金城	-10.4572
數萬	-10.4585
漢中	-10.4586
岱	-10.4599
是年	-10.4599
諦	-10.4607
昊	-10.4611
之南	-10.4611
不足以	-10.4623
扉	-10.4626
頸	-10.4627
祁	-10.4628
苟	-10.4628
侣	-10.4629
自謂	-10.4631
祕	-10.4632
故謂之	-10.4632
尚瑗曰	-10.4635
璣	-10.4635
藴	-10.4635
氓	-10.4637
逵	-10.4638
兎	-10.4638
蔵	-10.4639
烝	-10.4639
鈴	-10.4639
濳	-10.464
遏	-10.4641
陽春	-10.4641
鵬	-10.4642
潢	-10.4642
尅	-10.4643
跋	-10.4643
倡	-10.4643
摛	-10.4644
罹	-10.4644
蟠	-10.4645
軾	-10.4646
鳶	-10.4646
慚	-10.4647
抱朴子	-10.4647
闢	-10.4648
韓詩外傳	-10.4648
嫌	-10.4648
巵	-10.4648
芥	-10.4648
殤	-10.4648
神仙傳	-10.4648
儼	-10.4649
卵	-10.4649
干戈	-10.465
匱	-10.4651
犢	-10.4653
彈琴	-10.4653
楫	-10.4653
劭	-10.4654
距	-10.4654
蚌	-10.4655
葱	-10.4655
晉陽	-10.4656
檝	-10.4657
俠	-10.4658
初學記	-10.466
酈	-10.466
曹操	-10.4662
表裏	-10.4664
北齊	-10.4665
諸葛亮	-10.4666
鐘鼓	-10.4666
中郎將	-10.4667
渭水	-10.4669
文舉	-10.4671
熊耳	-10.4672
太乙	-10.4672
豫州刺史	-10.4672
親戚	-10.4675
明哲	-10.4682
外戚	-10.4683
之符	-10.4686
其妻	-10.4691
姓名	-10.4696
飲食	-10.4698
渡江	-10.4698
河北	-10.47
八風	-10.4701
蘇秦	-10.4702
伐齊	-10.4708
戲賦	-10.4708
三家	-10.4717
之業	-10.4726
流沙	-10.4743
慶雲	-10.4745
黎陽	-10.4757
徐君	-10.4761
字叔	-10.4763
東京	-10.4764
民之	-10.4766
自天	-10.4769
其功	-10.477
桓帝	-10.4771
平王	-10.4779
三尺	-10.4785
十萬	-10.4787
其地	-10.4788
樂記	-10.4789
若有	-10.4791
之數	-10.4803
大梁	-10.4804
不肯	-10.4807
先帝	-10.4812
相望	-10.4824
至孝	-10.4831
人謂	-10.4835
大將	-10.484
江上	-10.4843
後魏置	-10.4857
大臣	-10.4859
頌曰	-10.4875
西征	-10.4877
有疾	-10.4881
天柱	-10.4883
列女傳	-10.4885
詩序	-10.4892
南征	-10.4909
自是	-10.4909
帝紀曰	-10.4911
孺	-10.4913
穆公	-10.4913
重光	-10.4914
之初	-10.4917
道士	-10.4929
迥	-10.4932
誣	-10.4933
亦何	-10.4935
究	-10.4936
蔑	-10.4937
誼	-10.4938
揆	-10.4939
毘	-10.494
鄒	-10.4941
臘	-10.4942
又諮若	-10.4943
兵法	-10.4943
訊	-10.4944
馨	-10.4944
猥	-10.4945
槩	-10.4945
穎	-10.4945
恣	-10.4946
柵	-10.4946
藐	-10.4946
寗	-10.4946
薫	-10.4947
驛	-10.4947
壞	-10.4947
幄	-10.4947
挹	-10.4948
鼠	-10.4948
妍	-10.4948
亞	-10.4949
縹	-10.4949
秦州	-10.4949
聳	-10.4949
沂	-10.495
廷尉	-10.495
僑	-10.495
其餘	-10.495
蒼梧	-10.4951
椎	-10.4951
較	-10.4951
昶	-10.4952
闔	-10.4952
酸	-10.4954
莒	-10.4954
催	-10.4954
鷄	-10.4954
長者	-10.4954
淇	-10.4955
片	-10.4955
繆	-10.4956
如淳曰	-10.4956
罄	-10.4959
䧏	-10.4959
演	-10.4959
瑯琊	-10.4962
之用	-10.4963
爾時	-10.4967
梧桐	-10.4968
陸士衡	-10.4968
涪	-10.4968
之恩	-10.498
一何	-10.4986
道路	-10.4991
孺子	-10.4993
荘子	-10.4998
見長孫	-10.5002
太廟	-10.5005
萬騎	-10.5007
聲音	-10.5007
之先	-10.5011
所都	-10.5015
北辰	-10.5018
以明	-10.502
之衆	-10.5021
猶有	-10.5025
太極	-10.503
俄而	-10.5032
世界	-10.5032
語也	-10.5038
郡國	-10.504
說文	-10.5049
不就	-10.5059
好學	-10.5059
為政	-10.5065
從容	-10.5069
而能	-10.5073
襄王	-10.5077
五經	-10.508
莫能	-10.5081
自稱	-10.5089
石崇	-10.5094
六軍	-10.5094
乃以	-10.5096
兖	-10.5096
何言	-10.5099
此爲	-10.5101
一部	-10.5103
大通	-10.5105
周官	-10.5124
世間	-10.5125
止於	-10.5127
為梁	-10.5137
光明	-10.514
於河	-10.5141
其四	-10.5145
未得	-10.5157
疑即	-10.5159
氣也	-10.5171
不宜	-10.5174
於楚	-10.5177
謡	-10.5192
若水	-10.5198
郡縣	-10.5217
南海	-10.5219
不利	-10.5223
自闗而東	-10.5224
者乎	-10.5226
通語也	-10.523
言歸	-10.5233
縣南	-10.5238
紱	-10.5242
屑	-10.5245
橘	-10.5245
箋	-10.5245
實有	-10.525
燔	-10.5252
鞅	-10.5253
後世	-10.5253
斃	-10.5254
■	-10.5254
凍	-10.5255
軼	-10.5256
恊	-10.5256
弁	-10.5256
謗	-10.5256
鬻	-10.5257
遑	-10.5258
鄂	-10.5258
讌	-10.5258
鷲	-10.5258
埒	-10.5259
偕	-10.5259
印綬	-10.5261
儻	-10.5261
劾	-10.5261
伎	-10.5262
朂	-10.5262
股肱	-10.5263
㢘	-10.5263
逍遥	-10.5264
剪	-10.5265
桞	-10.5265
厄	-10.5265
衆人	-10.5265
侍御史	-10.5265
堰	-10.5266
塔	-10.5266
其道	-10.5266
佚	-10.5266
董卓	-10.5267
臯陶	-10.5267
磬	-10.5267
笋	-10.5268
東觀漢記	-10.5268
鯨	-10.5268
天人	-10.5268
塲	-10.5269
夙夜	-10.5269
姒	-10.5269
翅	-10.527
刹	-10.527
羲和	-10.5273
煮	-10.5274
陶潛	-10.5277
帝堯	-10.5282
梁簡文帝	-10.5286
之能	-10.5288
為魏	-10.5291
沙苑	-10.5291
未至	-10.53
忠貞	-10.5301
者按	-10.5303
𢎞碑	-10.5306
師曠	-10.5309
顔色	-10.5311
記室	-10.5328
四句	-10.5328
六龍	-10.5331
徐陵	-10.5342
建章	-10.5345
朔方	-10.535
海中	-10.5351
三代	-10.5354
𢎞正	-10.5354
若乃	-10.5355
邦國	-10.5355
越王	-10.5356
何謂	-10.5358
在天	-10.5361
也或曰	-10.5375
武川	-10.5386
北斗	-10.5387
𤣥武	-10.5392
夫婦	-10.5396
風起	-10.5409
周書云	-10.5412
而復	-10.5412
太白	-10.5423
北門	-10.5429
不悟	-10.5439
不自	-10.5448
樹下	-10.5449
周易曰	-10.5452
昭陽	-10.5454
帝位	-10.5457
冬至	-10.546
時也	-10.5468
北郊	-10.5469
之野	-10.5471
江表	-10.5474
至此	-10.5487
帝崩	-10.5488
與子	-10.5489
君子之	-10.549
二家	-10.5494
學者	-10.5498
也周禮	-10.5505
大道	-10.5511
自序	-10.5512
漢武	-10.5515
不獲	-10.5516
即日	-10.5518
曰子	-10.552
不識	-10.5522
矣夫	-10.5523
武子	-10.5524
卿士	-10.5525
謚	-10.5527
海水	-10.5531
取之	-10.5535
大象	-10.5544
之所歌也	-10.5557
宗伯	-10.556
其身	-10.5561
永平	-10.5564
惕	-10.5564
蠲	-10.5565
玉樹	-10.5568
○	-10.557
廹	-10.557
鬟	-10.557
螭	-10.5573
媯	-10.5573
敘	-10.5574
瑜	-10.5574
匝	-10.5575
臣某言	-10.5576
飽	-10.5576
躑躅	-10.5576
蕤	-10.5577
鮮卑	-10.5578
黛	-10.5579
木為	-10.5579
截	-10.5579
㕘	-10.5582
讐	-10.5582
巍巍	-10.5582
迦	-10.5582
關中	-10.5582
蠡	-10.5583
也漢書曰	-10.5583
羇旅	-10.5584
狩	-10.5584
驟	-10.5584
閤	-10.5585
諭	-10.5585
渴	-10.5586
琮	-10.5587
胸	-10.5588
苖	-10.5588
姊	-10.5588
建國	-10.5589
愷	-10.5591
翊	-10.5592
葩	-10.5592
華嚴經	-10.5594
漬	-10.5596
鷁	-10.5598
歸來	-10.5599
司寇	-10.5603
齊國	-10.5606
藜	-10.5607
賀拔	-10.5608
萬邦	-10.561
八百	-10.5611
從軍	-10.5612
容與	-10.5618
孝友	-10.5623
長樂	-10.5624
寺碑	-10.563
太保	-10.563
壯士	-10.5631
若木	-10.5633
進爵	-10.5636
襄城	-10.5637
不容	-10.564
其本	-10.5646
東觀	-10.5654
或有	-10.5659
靈之	-10.5663
神光	-10.5667
高歡	-10.5671
衛青	-10.5671
之廟	-10.568
豈直	-10.568
安世	-10.5681
者有	-10.5684
不欲	-10.5684
亦不	-10.569
終日	-10.5698
三寸	-10.5703
令人	-10.5704
江海	-10.5704
三世	-10.5707
同州	-10.5713
昭夏	-10.5719
陳武帝	-10.5721
而立	-10.5724
鄭注曰	-10.5725
其形	-10.5725
無聞	-10.5726
射之	-10.5728
十七年	-10.5732
弱水	-10.5733
何可	-10.5734
贈淮	-10.5734
士卒	-10.5736
雲門	-10.5737
州總管	-10.5738
見步	-10.5748
奉和	-10.5752
五人	-10.5761
趙魏	-10.5763
當世	-10.5783
新安	-10.5796
見紇干	-10.5797
貴賤	-10.5798
水上	-10.5801
之政	-10.5803
降神	-10.5813
之孫	-10.5816
廢帝	-10.5821
青州	-10.5822
所獲	-10.5824
明鏡	-10.5824
十五年	-10.5829
時為	-10.5837
不顧	-10.586
安平	-10.5864
不動	-10.5872
以聞	-10.5884
王制	-10.5884
挽	-10.5889
而弗	-10.5891
同心	-10.5896
遥望	-10.5896
嬪	-10.59
鐫	-10.5901
彛	-10.5901
丹陽	-10.5902
竦	-10.5903
緝	-10.5904
墀	-10.5908
衘	-10.5908
贍	-10.5908
卉	-10.5909
骨肉	-10.5909
剋	-10.591
畝	-10.591
簮	-10.591
柰何	-10.5912
虵	-10.5912
樹榖曰	-10.5912
怠	-10.5912
麒麟	-10.5913
滛	-10.5913
黯	-10.5914
后妃	-10.5914
瀆	-10.5914
讒	-10.5916
堤	-10.5917
褐	-10.5919
衫	-10.5919
珥	-10.5919
芻	-10.592
匏	-10.592
漢官儀	-10.5921
郊特牲	-10.5921
閎	-10.5921
壝	-10.5922
沱	-10.5923
訦	-10.5923
隊	-10.5924
菩提	-10.5924
拓	-10.5924
酸棗	-10.5924
恂	-10.5926
兇	-10.5927
妝	-10.5928
併	-10.5928
松柏	-10.5928
無方	-10.5932
楚子	-10.5933
弛	-10.5934
楊僕	-10.5934
明日	-10.5935
媒	-10.5937
匣	-10.5939
灞	-10.5939
即以	-10.594
弱冠	-10.5941
少昊	-10.5941
張衡西京賦	-10.5942
咏懷	-10.5944
▁洄曰	-10.5947
南公	-10.5949
王戎	-10.595
田單	-10.5953
駿馬	-10.5954
逸民	-10.5955
濟濟	-10.5956
日夜	-10.5956
湘東	-10.5956
北史本傳	-10.5957
𦵏於	-10.5958
海岱	-10.5962
一方	-10.5964
益州刺史	-10.5964
為丞相	-10.5966
有功	-10.5966
無疆	-10.5968
大如	-10.5973
黄鍾	-10.5974
議郎	-10.5975
撫軍	-10.5976
下文	-10.5976
見竹	-10.5976
第四	-10.5978
欽明	-10.5979
三光	-10.5981
故得	-10.5986
明德	-10.5987
則無	-10.5987
入洛	-10.5987
賢者	-10.5989
說文曰	-10.5995
南有	-10.5996
於後	-10.5997
無為	-10.5999
屬文	-10.6008
縣西	-10.6012
太史公	-10.6014
淮南王	-10.6016
處也	-10.602
襄公	-10.602
中流	-10.6024
改元	-10.6026
神人	-10.6031
拜為	-10.6032
后土	-10.6034
大者	-10.6035
天光	-10.6037
青帝	-10.6038
魏王	-10.6038
本姓	-10.6043
二部	-10.6044
西京雜記曰	-10.605
吕氏春秋曰	-10.6052
之思	-10.6061
不忍	-10.6061
别離	-10.6063
府君	-10.6081
之方	-10.6084
子雲	-10.6086
金谷	-10.6091
不在	-10.6092
明珠	-10.6096
悲風	-10.6097
有石	-10.6099
小子	-10.61
莊公	-10.6103
官屬	-10.6106
不堪	-10.6107
之利	-10.6116
四言	-10.6121
之墓	-10.6122
一州	-10.6122
不朽	-10.6126
所生	-10.6131
自得	-10.6136
三人	-10.6139
太山	-10.6145
三元	-10.6155
師子	-10.6155
鍾山	-10.6157
山林	-10.616
自非	-10.6164
風流	-10.6164
江州	-10.617
復為	-10.6174
問曰	-10.6176
睟	-10.618
豈非	-10.6182
何不	-10.6185
二方	-10.6187
河間	-10.619
赤帝	-10.6191
又以	-10.6193
雲雨	-10.6196
為國	-10.6207
楚國	-10.6207
無異	-10.6217
亦可	-10.6218
見象	-10.6221
見於	-10.6228
嗜	-10.6234
宋均曰	-10.6235
破之	-10.624
滄	-10.6248
薇	-10.6249
肩吾	-10.6249
珮	-10.6249
鑣	-10.6249
換	-10.6251
級	-10.6253
戌	-10.6254
浚	-10.6255
粧	-10.6256
昱	-10.6256
簷	-10.6256
盼	-10.6256
迅	-10.6256
樹穀曰	-10.6257
琛	-10.6257
瞽	-10.6257
餞	-10.6258
爪	-10.6259
秣	-10.6259
毋	-10.626
夔	-10.626
潼	-10.6261
幷	-10.6262
矛	-10.6262
猜	-10.6263
擕	-10.6264
燎	-10.6264
立功	-10.6264
髓	-10.6265
梧	-10.6265
届	-10.6266
壓	-10.6266
濡	-10.6266
阪	-10.6266
昨	-10.6266
鵾	-10.6268
斑	-10.6269
殫	-10.627
薰	-10.6272
淹留	-10.6273
鄧禹	-10.6273
歐陽	-10.6274
獠	-10.6274
交阯	-10.6275
燼	-10.6277
禽獸	-10.6278
杜注	-10.6279
穉	-10.628
慨然	-10.6283
之别名	-10.6284
魏地形志	-10.6285
謂其	-10.6288
大小	-10.6288
堯典	-10.6292
白石	-10.6295
杜注云	-10.6296
都䕶	-10.6297
於西	-10.63
星辰	-10.63
賓客	-10.6301
以待	-10.631
少傅	-10.6312
小兒	-10.6319
名山	-10.6331
▁湑曰	-10.6331
高陽	-10.6336
矣又	-10.634
列仙傳曰	-10.6342
古文	-10.6348
有異	-10.6348
不求	-10.6351
譬如	-10.6352
當是	-10.6363
賢人	-10.6369
非一	-10.6369
沙門	-10.637
記云	-10.6374
安樂	-10.6378
然而	-10.6382
不去	-10.6385
西海	-10.6396
姬周	-10.6399
文宣	-10.641
也聲	-10.6418
三部	-10.6427
丈人	-10.6427
起於	-10.6428
兄子	-10.6432
盛徳	-10.6434
不解	-10.6435
遊於	-10.6435
諸軍事	-10.644
其神	-10.6444
萬民	-10.645
金馬	-10.6457
處士	-10.6458
物之	-10.6459
之音	-10.646
所由	-10.6474
長生	-10.6482
見枯	-10.6484
元戎	-10.6493
集中	-10.6495
宫殿	-10.6495
西遷	-10.6502
白水	-10.6506
睢	-10.6517
經云	-10.6523
叔孫	-10.6528
當有	-10.6536
五星	-10.6542
以備	-10.6553
兵馬	-10.656
以象	-10.6572
黄龍	-10.6576
青雲	-10.6589
日出	-10.6594
詘	-10.6597
複	-10.66
撓	-10.6602
呉王	-10.6602
曩	-10.6603
雩	-10.6605
弃	-10.6606
窈窕	-10.6607
𨳩	-10.6609
渇	-10.661
庇	-10.661
夸	-10.661
驍	-10.661
禘	-10.6611
吾子	-10.6612
翩翩	-10.6613
挫	-10.6613
字文	-10.6615
額	-10.6615
璇	-10.6617
愉	-10.6618
托	-10.6619
伺	-10.6619
堯舜	-10.662
蓄	-10.662
鴟	-10.662
潦	-10.662
拙	-10.662
盎	-10.6621
洛州	-10.6622
謐	-10.6622
研	-10.6622
租	-10.6623
揖讓	-10.6623
婢	-10.6623
墖	-10.6624
蒿	-10.6625
覧	-10.6625
隄	-10.6625
苕	-10.6626
俯仰	-10.6626
老子曰	-10.6627
霓	-10.6627
爼	-10.6628
胎	-10.663
入海	-10.6631
雎	-10.6633
天和四年	-10.6634
魅	-10.6636
劉歆	-10.6637
寢疾	-10.6639
獻帝	-10.664
明徳	-10.6643
其次	-10.6644
樹賦	-10.6646
紫微	-10.6652
兆民	-10.6655
之作	-10.6656
乗輿	-10.6658
神女	-10.6658
鳥獸	-10.6659
續漢書	-10.6665
也左氏傳曰	-10.6665
家貧	-10.6665
孔傳曰	-10.6667
授使持節	-10.6671
周禮司	-10.6679
大行	-10.6684
四岳	-10.6689
蘭池	-10.6692
衣冠	-10.6704
豈有	-10.6719
入秦	-10.6727
章臺	-10.6733
景公	-10.6738
七里	-10.6744
四面	-10.6755
西陵	-10.6757
北闕	-10.6759
魏軍	-10.6761
從駕	-10.6786
為太子	-10.681
月令曰	-10.6819
食其	-10.6823
求之	-10.6825
女也	-10.6831
秦川	-10.6836
九日	-10.684
不入	-10.6843
何足	-10.6848
有命	-10.6849
城南	-10.6851
而致	-10.6856
多少	-10.6858
稱之	-10.6862
◍	-10.6879
一百	-10.6885
其國	-10.6886
納言	-10.6891
自殺	-10.6899
承制	-10.6902
可觀	-10.692
周大將軍	-10.6923
世宗	-10.6931
之主	-10.6932
見上	-10.6946
我心	-10.6959
軻	-10.6962
行雨	-10.6963
在於	-10.6964
車馬	-10.6976
墓誌	-10.6977
嘲	-10.6978
昭明太子	-10.6978
囂	-10.6978
遯	-10.6981
逌	-10.6981
湧	-10.6981
暨	-10.6982
攘	-10.6982
娛	-10.6983
兢	-10.6983
翫	-10.6983
覲	-10.6984
冐	-10.6984
愔	-10.6985
墨子	-10.6985
屬國	-10.6986
沫	-10.6986
黷	-10.6987
糓	-10.6987
韋昭曰	-10.6988
判	-10.699
亊	-10.6991
邢	-10.6991
比邱	-10.6991
菽	-10.6992
帆	-10.6992
未審	-10.6993
沿	-10.6993
此人	-10.6993
摘	-10.6993
勾	-10.6993
滄海	-10.6993
傲	-10.6993
嗚呼	-10.6994
湄	-10.6994
驃騎大將軍	-10.6995
天文志	-10.6995
刼	-10.6996
娟	-10.6996
幡	-10.6996
蕭驃騎	-10.6996
擔	-10.6996
摯	-10.6997
冬十月	-10.6998
庖	-10.6998
閼	-10.6999
嚮	-10.6999
軍事	-10.7
蛟龍	-10.7
旍	-10.7
天馬	-10.7001
壹	-10.7004
陸賈	-10.7005
鎭	-10.7006
柝	-10.7009
天和元年	-10.701
祼	-10.701
楯	-10.701
畤	-10.701
羊祜	-10.7011
䧺	-10.7012
薊北門	-10.7012
依依	-10.7012
秦穆公	-10.7012
劉琨	-10.7013
將以	-10.7014
箋云	-10.7018
舜典	-10.7022
九錫	-10.7024
陽太守	-10.7024
孫權	-10.7025
孟津	-10.7025
漢興	-10.7028
樂毅	-10.7029
位至	-10.7032
天保	-10.7036
光禄	-10.7039
其政	-10.7045
年六十	-10.7049
者曰	-10.705
抱樸子曰	-10.705
耳目	-10.7051
語見	-10.7051
惠王	-10.7054
法輪	-10.7064
無益	-10.7064
蒼蒼	-10.7067
中心	-10.7073
都長安	-10.7075
欲令	-10.708
廣漢	-10.708
不通	-10.7084
郊祀	-10.7088
歌舞	-10.709
平津	-10.7091
何用	-10.7096
謁者	-10.7098
幽州	-10.7099
車駕	-10.7104
至如	-10.7115
城下	-10.7122
七首	-10.7123
將兵	-10.7126
卿大夫	-10.7129
為上	-10.713
三萬	-10.7131
列侯	-10.7136
六星	-10.714
至矣	-10.714
六卿	-10.7149
南越	-10.7151
金精	-10.7163
而歌	-10.7177
當年	-10.7178
長松	-10.7184
兖州	-10.7184
子夏	-10.7184
地理	-10.7189
作此	-10.7202
正直	-10.7202
衣裳	-10.7206
九疑	-10.7207
榮華	-10.721
者何	-10.7213
豈可	-10.7215
平樂	-10.7218
朝日	-10.722
春日	-10.7224
本紀曰	-10.7226
尚書令	-10.7227
序云	-10.7235
簡文帝	-10.7235
亭亭	-10.7235
六合	-10.7242
寄言	-10.7245
光景	-10.7249
之威	-10.725
也周	-10.7256
觀其	-10.7266
子路	-10.7269
一千	-10.7271
巫山	-10.7276
政事	-10.7279
者非	-10.7281
故號	-10.7298
三川	-10.7298
酒泉	-10.7305
始終	-10.7307
其五	-10.7309
縣侯	-10.731
蛾	-10.7339
之語	-10.734
秦晉之間	-10.7343
自闗而西謂之	-10.7345
濤	-10.7346
之餘	-10.7348
無因	-10.735
鐡	-10.735
霏	-10.7353
有兩	-10.7356
猗	-10.7356
腐	-10.7359
雋	-10.7359
眩	-10.7361
衷	-10.7361
確	-10.7362
捜	-10.7363
不免	-10.7364
嶮	-10.7365
其聲	-10.7366
郁	-10.7366
粹	-10.7366
帙	-10.7366
掖	-10.7367
茵	-10.7367
徇	-10.7367
竹書紀年	-10.7368
葦	-10.7369
技	-10.737
閲	-10.737
頒	-10.737
祫	-10.737
沓	-10.7371
須臾	-10.7371
作詩	-10.7371
垢	-10.7371
課	-10.7371
菜	-10.7371
縫	-10.7372
閟	-10.7372
用兵	-10.7372
杳	-10.7372
挑	-10.7374
涅槃	-10.7374
鸚鵡	-10.7376
鉛	-10.7376
靑	-10.7377
籌	-10.7377
洪範	-10.7378
漢郊祀志	-10.7379
璜	-10.7379
牝	-10.7379
松栢	-10.7379
羈旅	-10.7382
迤	-10.7382
颷	-10.7382
鮑照	-10.7382
態	-10.7383
羸	-10.7385
爻	-10.7385
鷺	-10.7385
撥	-10.7386
寥廓	-10.7387
婕妤	-10.7387
㸔	-10.7387
得失	-10.7388
琰	-10.7388
僅	-10.7388
之郊	-10.7389
釋名曰	-10.739
見賀婁	-10.7391
舍利	-10.7391
天竺	-10.7392
括地志云	-10.7393
而上	-10.7398
郭注云	-10.7399
洞庭	-10.74
鴻溝	-10.74
特進	-10.7403
揺落	-10.7404
所知	-10.7405
别有	-10.7406
忘憂	-10.7407
見為閻	-10.7407
慈碑	-10.7411
隴右	-10.7413
水火	-10.7414
聰明	-10.7417
河伯	-10.7418
薨於	-10.742
昆明	-10.742
岷山	-10.7421
孝閔	-10.7422
邦家	-10.7423
安能	-10.7424
十四年	-10.7426
以和	-10.7426
如雲	-10.7428
山之陽	-10.7429
未央宫	-10.7429
存亡	-10.7432
長夜	-10.7433
不能自	-10.7436
身後	-10.7437
▁左傳	-10.7437
營丘	-10.7438
桑林	-10.7439
桂樹	-10.744
新豐	-10.7442
并州	-10.7449
樂之	-10.7453
葬於	-10.7454
後人	-10.7462
隱士	-10.7465
梁王	-10.7475
公車	-10.7476
後為	-10.7477
靈臺	-10.7481
經緯	-10.7481
城内	-10.7485
之悲	-10.7485
朝陽	-10.7486
王序	-10.749
生而	-10.7491
遂成	-10.7492
如玉	-10.7496
儀禮	-10.7499
感物	-10.7512
季夏	-10.7516
功曹	-10.7537
公私	-10.7539
孤氏	-10.7539
讀書	-10.7541
來歸	-10.7542
山海	-10.7545
將帥	-10.755
威碑	-10.7554
少時	-10.7554
得仙	-10.7555
之任	-10.7563
左傳曰	-10.7568
所欲	-10.7571
祖父	-10.7585
我皇	-10.7585
之詩	-10.7595
飛去	-10.7598
齊魯	-10.7598
曽祖	-10.76
何能	-10.7614
登髙	-10.7619
縣北	-10.7643
中和	-10.7645
異於	-10.7646
莫知	-10.7655
詩書	-10.766
宗廟歌	-10.7669
獲其	-10.7672
遂得	-10.7678
五官	-10.7679
鄭國	-10.7679
玉衡	-10.768
千萬	-10.768
太一	-10.7685
蜀郡	-10.7692
十巻	-10.7694
未聞	-10.77
今我	-10.7731
春風	-10.7738
之妙	-10.7739
我有	-10.7739
昬	-10.7743
岳陽	-10.7745
門人	-10.7745
梯	-10.7748
𬒮	-10.7757
侮	-10.7758
云爾	-10.7758
抄	-10.7761
椀	-10.7761
鋪	-10.7762
祭天	-10.7763
霖	-10.7763
䄂	-10.7766
覃	-10.7768
邀	-10.7768
綢繆	-10.7768
悶	-10.7768
蘇林曰	-10.7769
羿	-10.7769
蹕	-10.7769
陳楚	-10.7769
睹	-10.777
禰	-10.777
樊噲	-10.7771
兾	-10.7771
凄	-10.7772
伸	-10.7772
禋	-10.7772
籥	-10.7772
股	-10.7773
纖	-10.7773
交州	-10.7773
魴	-10.7773
王師	-10.7773
掠	-10.7773
瑣	-10.7773
公羊傳	-10.7774
渙	-10.7774
柘	-10.7774
赫赫	-10.7775
牋	-10.7775
欷	-10.7775
霜雪	-10.7776
膚	-10.7777
藍	-10.7777
􁇒	-10.7778
隘	-10.7778
飡	-10.7779
頡	-10.778
匹磾	-10.778
叚	-10.778
後漢光武紀	-10.778
酆	-10.778
孝亷	-10.7781
鮪	-10.7781
漾	-10.7782
肱	-10.7782
榭	-10.7783
䂓	-10.7784
琬	-10.7785
勵	-10.7786
開府儀同三司	-10.7786
煎	-10.7786
藝文類聚	-10.7786
粒	-10.7787
募	-10.7788
項籍	-10.7788
劔	-10.7788
班超	-10.7788
牽牛	-10.7789
塜	-10.7789
不測	-10.7789
侯景傳云	-10.779
梅花	-10.7793
虎賁	-10.7794
笄	-10.7794
罔極	-10.7794
古樂府	-10.7795
簪	-10.7796
凌雲	-10.7799
碣石	-10.7804
紇	-10.7806
江湖	-10.7806
説苑	-10.7807
山濤	-10.7808
隴頭	-10.7808
宇文氏	-10.7811
以定	-10.7817
陳倉	-10.7817
共工	-10.7818
碧玉	-10.7819
戚里	-10.7821
四皓	-10.7822
之族	-10.7825
也南史	-10.7826
真人	-10.7826
於外	-10.7827
重黎	-10.7829
烏孫	-10.7831
隋志云	-10.7832
宿昔	-10.7836
阿難	-10.7837
功徳	-10.7838
威儀	-10.7839
無勞	-10.7839
左丞	-10.7852
爾朱	-10.7854
魏畧	-10.7854
徙居	-10.7857
五十里	-10.786
聊城	-10.7861
河朔	-10.7865
進位	-10.7874
李斯	-10.7875
之性	-10.788
王城	-10.7883
諸王	-10.7886
三十里	-10.7887
十首	-10.7888
市朝	-10.7889
敗也	-10.7893
其體	-10.7893
乃令	-10.7894
配之	-10.7896
之儀	-10.7899
五尺	-10.7899
華蓋	-10.7908
立廟	-10.7909
精兵	-10.7911
人主	-10.7919
石門	-10.7929
呉志	-10.7942
列子曰	-10.7945
方欲	-10.7948
内外	-10.795
荆州記	-10.7956
襄子	-10.7958
七十二	-10.7978
亦見	-10.7981
日夕	-10.7985
國語曰	-10.7986
夏至	-10.7993
金波	-10.7996
與君	-10.8005
九江	-10.8007
神靈	-10.8009
所害	-10.8011
本傳作	-10.8018
神器	-10.8018
知命	-10.8019
異物	-10.8024
太和	-10.8028
華陽	-10.8034
萬人	-10.8037
以報	-10.8039
夏官	-10.8041
王啓	-10.8042
而卒	-10.8044
天神	-10.8047
九成	-10.8049
不須	-10.8056
周南	-10.8067
王公	-10.8082
城北	-10.8085
城西	-10.8086
而退	-10.8088
太陽	-10.809
日南	-10.8106
青龍	-10.811
雜詩	-10.8113
篇云	-10.8114
列仙傳	-10.8115
劉氏	-10.8123
丹書	-10.8129
八十一	-10.8139
謹啓雲再拜	-10.8144
作亂	-10.8145
家有	-10.8151
天王	-10.8153
魏人	-10.8154
洛水	-10.8157
筩	-10.8164
物也	-10.8171
矧	-10.8173
蜺	-10.8175
二巻	-10.8175
瑰	-10.8176
涵	-10.8177
之勢	-10.8178
孽	-10.8178
剝	-10.8179
䘏	-10.8181
耦	-10.8181
勳	-10.8181
而食	-10.8183
毓	-10.8183
醪	-10.8183
殲	-10.8184
狡	-10.8184
翩	-10.8184
牲牷	-10.8185
两	-10.8185
琯	-10.8186
針	-10.8186
儋	-10.8186
殉	-10.8187
鋭	-10.8187
璿	-10.8187
脅	-10.8189
庠	-10.819
坼	-10.819
噪	-10.819
瑕	-10.819
僭	-10.819
雲笈七籖	-10.8191
墉	-10.8191
寮	-10.8192
鑪	-10.8192
熒	-10.8192
靄	-10.8192
陶侃	-10.8193
欹	-10.8194
礪	-10.8194
吐谷渾	-10.8194
簧	-10.8194
闍	-10.8194
籜	-10.8194
胙	-10.8195
緬	-10.8195
榛	-10.8195
濮	-10.8196
褕	-10.8196
璠	-10.8196
販	-10.8197
徙倚	-10.8197
攬	-10.8197
王道	-10.8197
淒	-10.8198
彝	-10.8199
把	-10.82
嵓	-10.8201
謝朓	-10.8202
滴	-10.8202
暄	-10.8203
突厥	-10.8204
袁紹	-10.8204
琉璃	-10.8205
蕭瑟	-10.8205
盜賊	-10.8206
一月	-10.8206
太祖文皇帝	-10.8206
薊	-10.8209
艱難	-10.8209
厨	-10.8209
砥	-10.8211
匠石	-10.8211
楓	-10.8212
曰吾聞	-10.8213
蜀王	-10.8214
禮記月令	-10.8216
龍驤	-10.8218
八卦	-10.8218
伊洛	-10.822
朱雀	-10.8221
武遂	-10.8222
藍田	-10.8225
舂陵	-10.8226
任約	-10.8227
挽歌	-10.8229
流寓	-10.8229
字君	-10.8229
蕭蕭	-10.8233
刺舉	-10.8241
江湘	-10.8242
累遷	-10.8245
北征	-10.8247
孔安國曰	-10.8248
巴陵	-10.8249
不可勝	-10.8257
武丁	-10.8257
其間	-10.8259
述異記曰	-10.8262
金華	-10.8264
▁渭生曰	-10.8269
官渡	-10.827
前驅	-10.8271
蘇氏	-10.8273
制度	-10.828
長林	-10.8281
中台	-10.8281
音聲	-10.8292
明君	-10.8298
朝議	-10.83
應期	-10.8307
五等	-10.8309
刻石	-10.8309
輕車	-10.8312
干將	-10.8325
冬官	-10.8333
可以為	-10.8334
清廟	-10.8338
如彼	-10.8343
位在	-10.8348
六府	-10.8349
故吏	-10.8352
六首	-10.8358
十餘萬	-10.8362
人情	-10.8363
古今注	-10.8371
秋夜	-10.8374
見滕	-10.8382
入關	-10.8388
不逺	-10.8392
五采	-10.8393
曰汝	-10.8409
吳人	-10.8412
宣城	-10.8417
大敗	-10.8427
天門	-10.8429
皇天	-10.8431
叔向	-10.8433
信都	-10.8433
見辛	-10.8442
左思	-10.8447
義興	-10.8448
執事	-10.8454
功業	-10.8455
先主	-10.8463
龍首	-10.8464
山南	-10.8465
行行	-10.847
哀之	-10.847
奄有	-10.8473
幽明	-10.8474
十九年	-10.8496
貴人	-10.8508
鄭伯	-10.8509
武侯	-10.8513
小字	-10.8514
顧謂	-10.8516
之異	-10.8517
遺風	-10.8535
乃為	-10.8545
象天	-10.8551
炯	-10.8551
三首	-10.8552
欲使	-10.8557
郡注	-10.8559
二十五	-10.856
崔豹古今注	-10.8566
也淮南子曰	-10.857
舊置	-10.8575
攻城	-10.8582
兗	-10.8586
先君	-10.8587
敢不	-10.8594
冢宰	-10.8596
淄	-10.8601
大驚	-10.8604
踟蹰	-10.8606
孕	-10.8608
櫂	-10.8608
减	-10.8608
攝提	-10.8609
曙	-10.861
菲	-10.861
藹藹	-10.8614
不存	-10.8615
屣	-10.8616
稅	-10.8617
武陵王紀	-10.8617
晉安王	-10.8617
箋註陶淵明集	-10.8617
盾	-10.8617
沅	-10.8618
邃	-10.8619
貺	-10.8619
汧	-10.8619
煉	-10.8619
妹	-10.862
閩	-10.862
蓍	-10.8621
瓚	-10.8621
豺	-10.8621
訴	-10.8621
冉冉	-10.8623
諮議	-10.8624
逋	-10.8624
損益	-10.8625
島	-10.8625
貶	-10.8625
祧	-10.8626
什	-10.8626
脣	-10.8626
擣衣	-10.8626
幃	-10.8626
澧	-10.8627
通鑑	-10.8627
燃	-10.8627
藿	-10.8627
魏曹植	-10.8627
貧賤	-10.8628
縠	-10.8628
藤	-10.8629
醇	-10.8629
槨	-10.8629
雲門舞	-10.8629
飜	-10.8631
齎	-10.8632
遨	-10.8632
圉	-10.8633
絮	-10.8633
瓠	-10.8633
鬚	-10.8633
饋	-10.8634
孫氏	-10.8634
伊尹	-10.8635
旟	-10.8635
赭	-10.8635
臼	-10.8636
纊	-10.8637
遜位	-10.8637
產	-10.864
墓誌銘	-10.864
枚乗	-10.864
瀝	-10.864
保定四年	-10.8641
鄢陵	-10.8641
核	-10.8642
竇融	-10.8642
捲	-10.8643
鉅鹿	-10.8643
烽火	-10.8644
張騫	-10.8645
多所	-10.8646
鉢	-10.8647
暈	-10.8647
隧	-10.8647
延壽	-10.8647
帝嚳	-10.8648
虚詞	-10.8648
鼈	-10.8649
諸侯王	-10.865
進退	-10.8653
相似	-10.8653
薄暮	-10.8654
𢎞農郡	-10.8654
大冢宰	-10.8657
江潭	-10.8657
鄜	-10.8662
宣武	-10.8666
遊魂	-10.8671
登壇	-10.8676
遂乃	-10.8676
羽翼	-10.8678
臣等	-10.868
第七	-10.8683
羣后	-10.8684
喪亂	-10.8686
秦昭王	-10.8687
問其故	-10.8687
少保	-10.8688
上國	-10.8689
伏波	-10.8689
之城	-10.8689
新市	-10.8695
以求	-10.8695
承露	-10.8695
呉興	-10.8697
梁冀	-10.8698
無由	-10.8699
巴郡	-10.8702
其利	-10.8709
魏武帝	-10.871
嗟我	-10.8711
七百	-10.8712
大宛	-10.8713
見燕	-10.8716
謚曰	-10.8717
况乃	-10.8717
芳林	-10.8719
忠孝	-10.872
天網	-10.8723
之流	-10.8724
因名	-10.8726
風霜	-10.8728
驪山	-10.8729
雖無	-10.8729
青牛	-10.8738
伏見	-10.8743
荆楚	-10.8749
百川	-10.8752
同前	-10.8753
長驅	-10.8754
祭酒	-10.8755
簡子	-10.8759
傳贊	-10.8763
落星	-10.8767
莊周	-10.8779
師古	-10.8783
請問	-10.8792
季子	-10.8793
逺矣	-10.8797
昔我	-10.8797
之未	-10.88
其外	-10.8801
郡太守	-10.881
謂元帝	-10.8811
于時	-10.8812
李氏	-10.8813
豐城	-10.8815
便當	-10.8816
石鏡	-10.8817
軍敗	-10.882
更名	-10.8823
於穆	-10.8828
形如	-10.883
承華	-10.8832
魏明帝	-10.8833
而知	-10.8838
舎人	-10.8843
常在	-10.8852
河西	-10.8854
卿相	-10.8862
孝公	-10.8864
漢書注	-10.8868
六代	-10.8872
先登	-10.8873
秋月	-10.8874
夏日	-10.8875
年七十	-10.888
亦名	-10.888
大國	-10.8881
王姬	-10.8884
司命	-10.8887
車師	-10.8891
周王	-10.8898
風飛	-10.8911
發兵	-10.8914
焉得	-10.8915
池中	-10.8918
討之	-10.8928
中外	-10.8932
說法	-10.8943
百靈	-10.8951
六甲	-10.8951
起家	-10.8954
召南	-10.8963
服食	-10.8966
唫	-10.8973
漢使	-10.8976
賢臣	-10.8977
所作也	-10.8981
王僧	-10.8981
道徳	-10.899
常碑	-10.8996
未嘗不	-10.9003
築城	-10.9006
文君	-10.901
鄭康成	-10.9015
地方	-10.9024
真諦	-10.9028
其才	-10.9029
西都	-10.9029
有遺	-10.9039
白玉	-10.9042
自闗而西	-10.9043
凖	-10.9055
蠧	-10.9055
六經	-10.9055
扁	-10.9057
嬉	-10.9061
點	-10.9061
佞	-10.9062
曆	-10.9062
淮海	-10.9063
蹶	-10.9064
璇璣	-10.9065
鍊	-10.9066
棹	-10.9066
躁	-10.9067
萎	-10.9067
嫡	-10.9067
而求	-10.9067
闊	-10.9068
芸	-10.9069
搴	-10.907
匈	-10.9071
榜	-10.9071
苴	-10.9071
拯	-10.9072
王氏	-10.9072
倪	-10.9072
悖	-10.9072
瘳	-10.9072
糾	-10.9072
撤	-10.9073
斫	-10.9074
殃	-10.9074
虺	-10.9074
蕚	-10.9074
綿綿	-10.9074
乾坤	-10.9074
陳氏	-10.9074
碣	-10.9075
贖	-10.9075
殽	-10.9076
襜	-10.9076
厠	-10.9077
頳	-10.9077
斟	-10.9077
熏	-10.9078
振鷺	-10.908
㕘軍	-10.908
隻	-10.9081
扄	-10.9081
倩	-10.9081
騐	-10.9082
隷	-10.9083
蕭詧	-10.9083
戰國策	-10.9084
餉	-10.9084
烹	-10.9084
漁父	-10.9085
京兆尹	-10.9086
挈	-10.9086
織錦	-10.9087
覊	-10.9087
也又按	-10.9087
團	-10.9088
燉煌	-10.9088
袒	-10.9088
巒	-10.9089
螺	-10.9089
肺	-10.9089
竽	-10.909
陳思王	-10.909
隼	-10.9091
頊	-10.9092
駟馬	-10.9092
箏	-10.9092
黍稷	-10.9092
甍	-10.9093
煑	-10.9093
搜神記	-10.9093
莢	-10.9093
肌	-10.9094
會稽	-10.9095
帯	-10.9095
附庸	-10.9096
洎	-10.9096
綾	-10.9096
夏四月	-10.9096
磨	-10.9096
曲水	-10.9097
皇太后	-10.9098
譬彼	-10.9098
度遼	-10.9099
卞	-10.9099
逖	-10.9099
功名	-10.91
桃李	-10.91
縣注舊曰	-10.9101
受脤	-10.9103
時雨	-10.9103
河南尹	-10.9103
顗	-10.9104
明發	-10.9104
隲	-10.9104
推轂	-10.9109
蔡澤	-10.9111
靡靡	-10.9111
篠	-10.9112
尚書大傳	-10.9114
曾祖	-10.9115
烏桓	-10.9116
遇害	-10.9116
伯牙	-10.9118
京口	-10.9119
以来	-10.912
霍光	-10.9121
敬帝	-10.9123
𤣥鶴	-10.9137
僧辯書	-10.9138
率土	-10.9142
百世	-10.9143
百尺	-10.9144
章句	-10.9145
大破之	-10.9147
所宜	-10.9151
八尺	-10.9155
功封	-10.9159
作樂	-10.9162
遂至	-10.9163
勸進	-10.9163
不許	-10.9163
長風	-10.9167
對揚	-10.9168
濟河	-10.9174
未見	-10.9177
庾氏	-10.9179
也或問	-10.9185
北風	-10.9188
叅軍	-10.9189
愁思	-10.9193
子胥	-10.9198
帝命	-10.9214
横流	-10.9223
凡夫	-10.9229
長孫	-10.9243
經營	-10.9244
晋書曰	-10.9278
不待	-10.9282
盛德	-10.9284
本紀云	-10.9288
見燈	-10.9292
北史周	-10.9295
人倫	-10.9297
不息	-10.9298
論云	-10.9308
更始	-10.9312
縣屬	-10.9316
合𦵏	-10.9323
法度	-10.9325
北山	-10.9328
逺遊	-10.9332
如来	-10.9332
功成	-10.9336
常伯	-10.934
陽闗	-10.9355
聊以	-10.9358
自傷	-10.9385
乗馬	-10.9396
皇家	-10.9396
後宫	-10.9403
空中	-10.9403
楚師	-10.9418
也如	-10.9419
不知所	-10.9443
魏書	-10.9449
五丈	-10.9465
克明	-10.9465
論語曰	-10.9472
城郭	-10.9474
無他	-10.9475
竹杖	-10.9481
意氣	-10.9482
喻已	-10.9483
之西	-10.9495
不由	-10.9495
隨風	-10.9505
來朝	-10.9516
岷	-10.9519
名士	-10.9522
若斯	-10.9527
此章喻	-10.9528
騂	-10.953
北面	-10.9534
炙	-10.9534
騑	-10.9536
旐	-10.9537
瞰	-10.9538
而已矣	-10.954
楽	-10.9541
滎	-10.9542
漫漫	-10.9542
祟	-10.9543
嘻	-10.9543
唇	-10.9543
洋洋	-10.9544
顏	-10.9544
泱	-10.9545
摹	-10.9545
肖	-10.9545
懋	-10.9545
孜	-10.9545
悚	-10.9545
咫尺	-10.9547
簒	-10.9549
場	-10.9551
湍	-10.9551
捷	-10.9552
壚	-10.9552
粗	-10.9552
汚	-10.9553
芒芒	-10.9554
怛	-10.9554
宕	-10.9554
涼州	-10.9554
謹啓	-10.9554
曳	-10.9554
邵陵王綸	-10.9554
㳂	-10.9554
紛紛	-10.9555
姪	-10.9555
駢	-10.9555
衾	-10.9556
溉	-10.9557
遶	-10.9558
張宴曰	-10.9558
狎	-10.9559
炊	-10.9559
艷	-10.9559
瑱	-10.9559
甥	-10.9559
豺狼	-10.956
樹屏曰	-10.9561
宇文泰	-10.9562
周武帝紀	-10.9563
鉦	-10.9563
嚴霜	-10.9563
白帖	-10.9563
見與楊	-10.9564
瑗	-10.9564
隋書地志	-10.9564
腦	-10.9564
昆明池	-10.9565
蛤	-10.9565
蹙	-10.9565
暝	-10.9565
撞	-10.9565
熹	-10.9565
鐃	-10.9566
枳	-10.9566
嘆息	-10.9566
涿	-10.9566
菑	-10.9566
僣	-10.9567
法華經	-10.9568
張敞	-10.957
須彌山	-10.9571
承聖元年	-10.9571
轘轅	-10.9573
瓶	-10.9575
下邳	-10.9576
司𨽻校尉	-10.9576
謳歌	-10.9576
太中大夫	-10.9578
清濁	-10.9579
葆	-10.9579
樓煩	-10.958
兖州刺史	-10.9581
百僚	-10.9581
鴻毛	-10.9585
散騎侍郎	-10.9585
鐘鼎	-10.9587
虞舜	-10.9589
黄鵠	-10.9589
穰侯	-10.9592
河南郡	-10.9594
幕府	-10.9594
鼓吹	-10.9599
韓康	-10.9601
地理志云	-10.9602
桓𤣥	-10.9604
蓮華	-10.9605
他人	-10.9608
櫟陽	-10.961
馮異	-10.9613
經綸	-10.9616
丘園	-10.9617
雲霧	-10.9617
儒林	-10.9623
僕射書	-10.9624
玉燭	-10.9625
原野	-10.9626
四星	-10.9627
黑帝	-10.963
蕭史	-10.9632
苦寒	-10.9635
諺曰	-10.9637
落日	-10.9638
西京賦曰	-10.9643
之義也	-10.9651
白雪	-10.9652
積善	-10.9656
相繼	-10.9658
小雅	-10.9661
仲秋	-10.9665
崑崙之	-10.9671
襲封	-10.9674
行役	-10.9674
百二十	-10.9676
雲再拜	-10.9678
賢才	-10.9686
滕王	-10.9689
龍淵	-10.9696
朝露	-10.9701
何由	-10.9705
將來	-10.9706
其所以	-10.9708
丈餘	-10.9709
昔日	-10.9716
少子	-10.9726
宜春	-10.9728
臨海	-10.9732
荆門	-10.9736
玉臺	-10.9736
男子	-10.9748
朝野	-10.975
大雨	-10.9754
凉風	-10.9758
知音	-10.9762
九華	-10.9764
登歌	-10.9766
新聲	-10.9784
長安城	-10.9784
無所不	-10.9788
曹參	-10.9792
無量	-10.9792
於是乎	-10.9799
離宫	-10.9807
徵拜	-10.9811
出家	-10.9824
西京賦	-10.9825
趙武	-10.9841
由此	-10.9843
施行	-10.9846
燕趙	-10.9853
無間	-10.9862
冬夏	-10.9864
下車	-10.9875
百丈	-10.9888
秦伯	-10.9889
法和	-10.9891
天路	-10.9895
清歌	-10.9902
之色	-10.9915
十方	-10.9927
三門	-10.9931
安都	-10.9937
必欲	-10.9942
方丘	-10.9956
見鏡	-10.9971
夫何	-10.998
吏部	-11.0008
鼓琴	-11.0015
楨	-11.0018
贏	-11.002
千户	-11.002
後主	-11.0024
承天	-11.0025
巔	-11.0025
傒	-11.0026
佗	-11.0031
鷂	-11.0033
横見	-11.0035
爍	-11.0035
園中	-11.0038
堦	-11.0039
鮑氏集卷第	-11.004
恕	-11.0042
寤寐	-11.0043
汀	-11.0043
靈威仰	-11.0043
淩	-11.0044
赩	-11.0044
款	-11.0045
迺	-11.0046
鬰	-11.0047
芟	-11.0049
貍	-11.0049
區區	-11.005
未必	-11.005
宸	-11.005
寘	-11.005
襁	-11.0051
溜	-11.0051
讖	-11.0051
跂	-11.0052
闌	-11.0052
縵	-11.0052
槎	-11.0052
攄	-11.0052
濃	-11.0052
蹊	-11.0052
伋	-11.0053
税	-11.0053
鄭司農	-11.0054
曵	-11.0054
哺	-11.0054
皥	-11.0054
㷀	-11.0055
䕫	-11.0055
寂寥	-11.0055
眄	-11.0056
惶	-11.0056
刷	-11.0056
越絶書	-11.0056
蕩蕩	-11.0056
話	-11.0057
譴	-11.0057
簟	-11.0058
臆	-11.0058
碁	-11.006
綈	-11.006
筐	-11.0061
笥	-11.0062
澆	-11.0063
糜	-11.0063
崆峒	-11.0063
奩	-11.0063
魏恭帝	-11.0063
鳧	-11.0064
注見本序	-11.0065
周書本傳云	-11.0065
瞿	-11.0065
詳馬射賦	-11.0065
竇憲	-11.0066
涕泣	-11.0066
諶	-11.0066
芬芳	-11.0067
塚	-11.0069
派	-11.0069
旦夕	-11.0069
保定二年	-11.007
蒐	-11.007
司𨽻	-11.0071
山精	-11.0073
榻	-11.0074
過秦論	-11.0074
水經	-11.0074
武成二年	-11.0075
鋤	-11.0075
細栁	-11.0076
之年	-11.0081
頓首	-11.0081
壻	-11.0081
顔淵	-11.0082
昭明	-11.0082
辛苦	-11.0082
荆棘	-11.0083
王業	-11.0084
此又公之功也	-11.0084
周太祖紀	-11.0086
離騷	-11.0087
爾朱氏	-11.0089
河州	-11.009
字季	-11.0094
臯蘭	-11.0094
終南山	-11.0095
洛浦	-11.0096
楊栁	-11.0096
封疆	-11.0097
淮隂	-11.0098
太宰	-11.0103
冠葢	-11.0105
太僕	-11.0106
征伐	-11.0113
桂林	-11.0113
赤壁	-11.0113
羽儀	-11.0118
反覆	-11.0121
平原君	-11.0121
司憲	-11.0124
朝鮮	-11.0126
武都	-11.0127
廬陵	-11.0127
季孫	-11.0132
繫馬	-11.0132
疾病	-11.0134
駕言	-11.0142
箕子	-11.0143
方丈	-11.0144
領軍	-11.0146
顯宗	-11.0148
河外	-11.015
竟無	-11.0152
列女傳曰	-11.0175
謡曰	-11.0175
其辭曰	-11.0178
亦復	-11.0181
衡山	-11.0181
髙歡	-11.0186
猶存	-11.0195
吳志	-11.0207
杜若	-11.0212
廬山	-11.0214
木蘭	-11.0215
王逸曰	-11.0226
貨殖傳	-11.0236
聖主	-11.0244
兄文	-11.0244
𤣥鳥	-11.0246
士衡	-11.0253
劉表	-11.0255
西園	-11.0256
南康	-11.0257
無忌	-11.0262
濟北	-11.0264
珠玉	-11.0267
見崔	-11.0274
凱風	-11.0274
衣服	-11.0282
郭云	-11.029
八音	-11.0294
因以為	-11.0295
甚多	-11.0295
聖朝	-11.0296
洛城	-11.03
世俗	-11.031
蕩子	-11.0314
久矣	-11.0315
景福	-11.032
魚龍	-11.0331
太學	-11.0331
叔向曰	-11.0342
去病	-11.0356
吹律	-11.0367
存乎	-11.0376
周本紀	-11.0379
淮陽	-11.0405
二十七	-11.041
願得	-11.041
拜大將軍	-11.0415
野人	-11.0415
白起	-11.0422
中常侍	-11.0424
杜預注	-11.0431
著書	-11.0475
胡人	-11.0491
欲伐	-11.0496
漢書地理志	-11.0503
戎車	-11.0509
風俗通	-11.0512
雒	-11.0517
亭長	-11.052
孔安國	-11.0521
陶淵明	-11.0522
士龍	-11.0528
俗諦	-11.0534
土地	-11.0539
隨時	-11.0546
牟	-11.0553
裨	-11.0556
不仕	-11.0556
天文志曰	-11.0558
顙	-11.0561
砧	-11.0562
䦨	-11.0562
躭	-11.0563
欣然	-11.0564
本朝	-11.0565
攅	-11.0566
詢	-11.0567
棿擬之	-11.0567
樗	-11.0568
盲	-11.0569
羆	-11.057
揔	-11.057
疚	-11.0571
擲	-11.0571
劣	-11.0572
猋	-11.0572
慝	-11.0573
氲	-11.0573
之子也	-11.0574
紳	-11.0574
緇	-11.0574
羊腸	-11.0574
矰	-11.0575
舸	-11.0576
携手	-11.0576
芰	-11.0577
騶	-11.0578
沬	-11.0578
堵	-11.0579
迦葉	-11.0579
朴	-11.0579
聦	-11.0579
玠	-11.0579
寰	-11.0579
蜀都賦曰	-11.0579
瑚	-11.058
襦	-11.058
綘	-11.058
東夏	-11.058
噲	-11.0581
憇	-11.0581
窗	-11.0582
鉅	-11.0582
郅	-11.0583
蕉	-11.0583
鉏	-11.0583
嶓	-11.0584
東坡曰	-11.0584
郵	-11.0584
藺相如	-11.0584
坦	-11.0584
塊	-11.0584
苻	-11.0584
慄	-11.0584
安定公	-11.0585
壮	-11.0585
皇甫謐	-11.0586
遍	-11.0586
帷幄	-11.0586
保定元年	-11.0587
鈔	-11.0587
太清二年	-11.0587
球	-11.0588
神異經	-11.0588
漢書藝文志	-11.0588
廣雅曰	-11.0588
瑾	-11.0588
黿	-11.0588
蹄	-11.0589
桑梓	-11.059
峙	-11.059
吹簫	-11.059
紺	-11.059
釋迦	-11.0591
燄	-11.0591
聆	-11.0591
滂	-11.0591
軹	-11.0592
踐阼	-11.0592
侯景之亂	-11.0592
穗	-11.0592
齠	-11.0592
愠	-11.0592
燕歌	-11.0592
偈	-11.0593
霤	-11.0594
飄飄	-11.0595
縣注舊置	-11.0595
陳霸先	-11.0596
桓桓	-11.0597
瀨	-11.0597
慼	-11.0597
李善注云	-11.0598
皋	-11.0598
搜	-11.0598
原隰	-11.0599
瓦解	-11.0599
汶	-11.06
賈逵	-11.0601
郡注舊置	-11.0602
右扶風	-11.0602
弭節	-11.0602
釀	-11.0602
蠻夷	-11.0603
菊花	-11.0603
亦如之	-11.0604
㐫	-11.0604
濞	-11.0604
温湯	-11.0604
不返	-11.0605
芋	-11.0606
奕世	-11.0606
隋書冀州	-11.0606
尚書僕射	-11.0606
赤眉	-11.0608
細柳	-11.0609
棠棣	-11.061
江淹	-11.061
螽	-11.0613
中牟	-11.0615
說苑	-11.0615
赤雀	-11.0617
青衿	-11.0618
虛詞	-11.0619
力牧	-11.0626
羽毛	-11.0627
昆吾	-11.0628
雜記	-11.0629
十五日	-11.0629
飛狐	-11.0636
維摩經曰	-11.0636
逸士	-11.0639
報恩	-11.064
百獸	-11.0644
二十九	-11.0646
新亭	-11.065
軍旅	-11.0654
白鹿	-11.0665
千仞	-11.0673
吳志曰	-11.0678
黄鶴	-11.0683
伐鄭	-11.0686
曲池	-11.0693
五嶽	-11.0693
萬餘	-11.0698
塞外	-11.0699
司馬氏	-11.0704
留連	-11.0704
隋書地理志	-11.0705
懸車	-11.0713
陣雲	-11.0719
元后	-11.0722
忘歸	-11.0724
項王	-11.0731
夷齊	-11.0734
北燕	-11.0736
英華	-11.0737
歌辭	-11.075
上柱國	-11.075
尚書郎	-11.0765
睢陽	-11.0767
休命	-11.0772
之象也	-11.0773
太𤣥	-11.0773
諸佛	-11.0788
長短	-11.079
江河	-11.0791
引兵	-11.0805
紫宫	-11.0812
多羅	-11.0812
一時之	-11.0821
光宅	-11.083
吳起	-11.0839
顧命	-11.0842
蘭陵	-11.0853
之道也	-11.0862
召公	-11.0866
陜州	-11.0882
文皇帝	-11.0882
文帝紀	-11.089
盛年	-11.0944
起兵	-11.0947
濯龍	-11.0963
史記索隠	-11.0969
庶子	-11.0977
為皇太子	-11.0995
相承	-11.1013
未足	-11.1024
講武	-11.1033
左傳鄭	-11.1048
應劭	-11.1054
蜩	-11.1071
荘	-11.1085
蔽日	-11.1091
謝靈運	-11.1096
吁	-11.1118
腕	-11.1118
萱	-11.1119
髦	-11.1122
葳蕤	-11.1125
螟	-11.1125
鵝	-11.1126
蔬	-11.1127
竪	-11.1128
顚	-11.1128
亨	-11.1129
麟趾	-11.1129
鯉	-11.1129
亘	-11.1129
窆	-11.113
詰	-11.113
江文通集	-11.113
踦	-11.113
溶	-11.113
㐮	-11.1131
禰衡	-11.1132
洮	-11.1132
熊羆	-11.1132
聨	-11.1132
垠	-11.1132
衛尉	-11.1132
渊	-11.1133
尉遲迥	-11.1133
忤	-11.1133
厦	-11.1133
閱	-11.1134
异	-11.1134
㳙	-11.1134
黥	-11.1134
笈	-11.1134
峨	-11.1135
鞏	-11.1135
庾子山集巻	-11.1135
靨	-11.1135
睇	-11.1135
欽定四庫全書庾子山集巻	-11.1135
姻	-11.1135
璆	-11.1136
剥	-11.1136
㝢	-11.1136
荔	-11.1136
柰	-11.1137
濩	-11.1137
値	-11.1138
惲	-11.1138
孫叔敖	-11.1138
皁	-11.1139
嶷	-11.1139
桓温	-11.1139
謝滕	-11.1139
霰	-11.114
鄭箋曰	-11.114
桴	-11.114
漢武故事	-11.1141
溝洫	-11.1141
憫	-11.1141
零露	-11.1141
彭澤	-11.1142
晴	-11.1142
腥	-11.1142
昻	-11.1142
七月七日	-11.1143
世諦	-11.1144
漢禮樂志	-11.1144
鄱陽	-11.1144
遞	-11.1144
箸	-11.1144
盻	-11.1144
菴	-11.1144
武王伐紂	-11.1144
杜元凱	-11.1145
餒	-11.1145
隋書揚州	-11.1145
汙	-11.1146
扣	-11.1147
十洲記	-11.1147
鑊	-11.1147
釘	-11.1148
憒	-11.1148
羮	-11.1149
尚書中候	-11.1149
䟦	-11.1149
受詔	-11.1149
巽	-11.1149
敦煌	-11.115
吏部尚書	-11.1151
彌勒	-11.1151
韡	-11.1151
禎	-11.1151
狥	-11.1152
鍼	-11.1152
扞	-11.1152
臣瓚曰	-11.1153
䜟	-11.1153
棲遲	-11.1153
趙簡子	-11.1153
窻	-11.1153
絹	-11.1154
上林苑	-11.1154
嗜酒	-11.1154
蒲桃	-11.1155
篸	-11.1156
師古注曰	-11.1156
律厯	-11.116
劉裕	-11.116
秋菊	-11.1162
貳師	-11.1163
天水郡	-11.1164
白虎通	-11.1165
湥	-11.1165
金匱	-11.1166
管蔡	-11.1168
凌波	-11.1169
鮒	-11.117
正員	-11.1171
蝶	-11.1171
趙國公	-11.1172
周瑜	-11.1178
東萊	-11.1182
漢書武帝	-11.1182
繼體	-11.1182
神農氏	-11.1183
嵩高	-11.1184
傷心賦	-11.1185
皇甫	-11.1185
䘮亂	-11.1186
稚子	-11.1187
老幼	-11.1189
括地志曰	-11.1193
彌留	-11.1194
巢父	-11.1196
奔江陵	-11.1196
衣錦	-11.1204
況復	-11.1205
詩序云	-11.1207
二妃	-11.1207
龍鱗	-11.121
絃歌	-11.1211
司馬遷	-11.1213
竟陵	-11.1217
乎或問	-11.1218
谷口	-11.1221
上書曰	-11.1222
袁安	-11.1223
遺訓	-11.1224
避難	-11.1226
周旋	-11.123
盛衰	-11.1231
智伯	-11.1232
諸儒	-11.1241
幽蘭	-11.125
隠士	-11.1272
一枚	-11.1274
永豐	-11.1276
矣或問	-11.1281
待詔	-11.1289
形容	-11.1289
成湯	-11.1302
吏士	-11.131
衡門	-11.131
元嘉	-11.1318
齊王憲碑	-11.133
二尺	-11.1337
悲哉	-11.1339
秋草	-11.1355
燭賦	-11.1359
次第	-11.1363
之至也	-11.1368
歟曰	-11.1371
㤗山	-11.1373
不知其	-11.1374
置總管府	-11.138
京洛	-11.1382
張耳	-11.1394
元首	-11.1398
東征	-11.1409
杜云	-11.141
沾衣	-11.1411
進封	-11.1419
長吏	-11.1431
西郊	-11.1479
誰知	-11.1487
金銀	-11.1504
得免	-11.1556
萬户	-11.1559
王敦	-11.1563
罔不	-11.1588
遷都	-11.1616
伐蜀	-11.1631
十八年	-11.1666
央	-11.1668
敢告執	-11.1696
閏	-11.1704
孑	-11.1705
艮	-11.1707
泯	-11.1708
旌旗	-11.1708
蘿	-11.1709
奕奕	-11.1709
鑑	-11.1711
齊王憲	-11.1711
莘	-11.1711
菌	-11.1712
蝕	-11.1713
蘂	-11.1713
太𤣥經	-11.1714
隤	-11.1714
俛	-11.1714
怯	-11.1715
炯曰此下序	-11.1715
訾	-11.1715
懶	-11.1715
蚩	-11.1716
掛	-11.1717
隰	-11.1718
飭	-11.1718
缾	-11.1719
䋲	-11.1719
王仲宣	-11.1719
噬	-11.172
辛丑	-11.172
奰	-11.172
御史中丞	-11.172
王僧辨	-11.172
豢	-11.172
壅	-11.1721
翺翔	-11.1721
健	-11.1721
㓗	-11.1721
幔	-11.1721
湓	-11.1721
絜	-11.1721
挿	-11.1721
携	-11.1722
邙	-11.1722
籬	-11.1722
汩	-11.1722
鎧	-11.1722
烏夜啼	-11.1722
紛紜	-11.1722
揄	-11.1723
脆	-11.1723
乞骸骨	-11.1724
叨	-11.1724
羽檄	-11.1724
畋	-11.1725
濶	-11.1725
跌	-11.1725
娣	-11.1725
彷彿	-11.1725
董仲舒	-11.1726
朱异	-11.1726
緗	-11.1726
鍳	-11.1726
郡開國公	-11.1727
颯	-11.1727
琅玕	-11.1727
搗衣	-11.1727
廵狩	-11.1727
蔣	-11.1728
冤	-11.1728
􁀴	-11.1728
漱	-11.1728
隸	-11.1728
蓬莱	-11.1729
愼	-11.1729
賄	-11.1729
扃	-11.173
峴	-11.173
蜮	-11.173
孟嘗君	-11.1731
稔	-11.1731
裵	-11.1731
王子年拾遺記曰	-11.1732
趾	-11.1732
烱	-11.1732
承聖三年	-11.1732
摶	-11.1732
隗囂	-11.1732
娶妻	-11.1732
遒	-11.1733
粱	-11.1733
隗	-11.1733
鬯	-11.1733
鶉首	-11.1733
檐	-11.1734
盆	-11.1734
胡笳	-11.1735
錡	-11.1735
消息	-11.1735
訣	-11.1735
後漢馬援傳	-11.1735
籟	-11.1736
北邙	-11.1736
艫	-11.1737
爟	-11.1737
三秦記	-11.1737
廖	-11.1738
騏驥	-11.1738
鄯	-11.1738
煒	-11.1738
坑	-11.1738
鏃	-11.1738
日磾	-11.1738
兕	-11.1739
羗	-11.1739
范睢	-11.174
繕	-11.174
劉楨	-11.174
崢嶸	-11.174
磧	-11.174
漢藝文志	-11.174
猛獸	-11.174
鼇	-11.174
武成元年	-11.1742
如之何	-11.1742
渭橋	-11.1742
髙士傳	-11.1742
剡	-11.1743
冥冥	-11.1743
孔叢子	-11.1743
亾	-11.1744
拉	-11.1744
岧	-11.1744
滕王逌序	-11.1745
戈船	-11.1745
石榴	-11.1746
漢髙帝紀	-11.1746
秣陵	-11.1746
柱國大將軍	-11.1749
泰寺	-11.175
清淨	-11.175
吼	-11.175
酬薛	-11.1752
徽音	-11.1753
潁隂	-11.1753
陳琳	-11.1757
羅敷	-11.1759
殷勤	-11.176
歸鄉里	-11.176
姦臣	-11.1765
而已哉	-11.1766
羽扇	-11.1767
白環	-11.1767
金剛	-11.1768
冠蓋	-11.177
却月	-11.1773
加侍中	-11.1774
干寶	-11.1775
乞食	-11.1777
漢書音義曰	-11.1779
萬餘人	-11.178
▁繁弨曰	-11.178
魏孝武	-11.1781
枯木	-11.1782
宋衛	-11.1783
京邑	-11.1785
偃師	-11.1786
英雄	-11.1788
臨川王	-11.179
大宗伯	-11.1794
弄玉	-11.1794
康叔	-11.1795
變衰	-11.1795
廬江	-11.1799
恩碑	-11.18
皇祖	-11.1801
傅𤣥	-11.1804
見和張	-11.1806
維新	-11.181
親友	-11.1812
八荒	-11.1812
河源	-11.1813
石勒	-11.1815
枝葉	-11.1817
芳草	-11.1817
宫調	-11.1822
執政	-11.1827
沛國	-11.1831
崔豹古今注曰	-11.1831
斷絶	-11.1833
齊國公	-11.1838
大統三年	-11.184
鳴琴	-11.1841
孟春	-11.1845
烈士	-11.1847
成臯	-11.1848
三百里	-11.1848
仕魏	-11.1853
率兵	-11.1854
善惡	-11.1858
正旦	-11.1859
遊仙	-11.186
蒼龍	-11.1863
王喬	-11.1868
佐命	-11.1873
晨風	-11.1884
天官書曰	-11.1885
遺愛	-11.1888
蘭臺	-11.1891
鴻門	-11.1896
萬乗	-11.1901
尚父	-11.1911
年十五	-11.192
縣西南	-11.1927
皇極	-11.1929
來儀	-11.194
哀哉	-11.1946
崔氏	-11.1949
崑崙山	-11.1954
夷陵	-11.1962
聖德	-11.1964
集序	-11.1967
由來	-11.1968
本序	-11.1972
夏首	-11.1987
祖考	-11.2
縣界	-11.2013
忽然	-11.2027
四十里	-11.2036
郡舊置	-11.2085
十有五	-11.2091
河東郡	-11.2098
原注	-11.2122
雍州牧	-11.2133
威靈	-11.2152
京城	-11.2207
秦本紀	-11.2279
自闗而西秦晉之間	-11.2286
高誘	-11.2304
庳	-11.2314
自闗而東謂之	-11.2315
陸士龍文集卷第	-11.2317
湏	-11.2323
幘	-11.2328
盂	-11.233
瞢	-11.233
躋	-11.2331
壟	-11.2332
筋	-11.2332
黼黻	-11.2332
緼	-11.2333
譔	-11.2333
絓	-11.2335
湮	-11.2336
療	-11.2336
迪	-11.2337
妣	-11.2337
羊舌	-11.2337
岀	-11.2338
㒺	-11.2338
塋	-11.2339
錮	-11.2339
憮	-11.2339
灘	-11.2339
踊	-11.2341
蹀	-11.2341
竺	-11.2342
畒	-11.2342
邵陵	-11.2342
凢	-11.2342
恍惚	-11.2343
迨	-11.2343
熠	-11.2344
汝潁	-11.2344
玦	-11.2345
廩	-11.2345
霆	-11.2346
虬	-11.2346
廱	-11.2346
駑	-11.2347
晃	-11.2347
倕	-11.2347
弓矢	-11.2347
滸	-11.2348
笮	-11.2348
簞	-11.2348
遮	-11.2348
貸	-11.2349
蜡	-11.2349
坻	-11.2349
蹻	-11.235
天和六年	-11.235
鹵	-11.235
窈	-11.235
菟	-11.235
羔	-11.235
樹敏曰	-11.2351
嗚	-11.2351
儷	-11.2351
犂	-11.2351
潘岳西征賦	-11.2351
泠	-11.2352
蓐	-11.2352
壌	-11.2352
漢匈奴傳	-11.2352
籙	-11.2352
搢紳	-11.2352
晉公䕶	-11.2353
袪	-11.2353
脉	-11.2353
㽔	-11.2353
糞	-11.2354
延佇	-11.2354
麤	-11.2354
怵	-11.2354
胷	-11.2355
廣成子	-11.2356
日月星辰	-11.2356
晻	-11.2357
豁	-11.2357
菖蒲	-11.2357
涔	-11.2358
爪牙	-11.2358
眇眇	-11.2359
周亞夫	-11.2359
颺	-11.2359
延陵季子	-11.2359
棃	-11.2359
殪	-11.236
晉書載記	-11.236
撲	-11.236
輜	-11.236
懌	-11.2361
擄	-11.2361
漕	-11.2361
函谷關	-11.2361
誇	-11.2361
長阿含經	-11.2362
渺	-11.2362
徐廣曰	-11.2362
鉉	-11.2362
从	-11.2363
万	-11.2363
帖	-11.2363
彗	-11.2363
丹墀	-11.2364
縊	-11.2364
匡贊	-11.2365
是其事也	-11.2366
踞	-11.2366
奏皇夏	-11.2366
顔延年	-11.2366
巖巖	-11.2367
左思蜀都賦	-11.2367
啄	-11.2368
陘	-11.2368
瀘	-11.2369
大鴻臚	-11.2369
梁簡文	-11.237
百揆	-11.237
彧	-11.237
詣闕	-11.237
秋七月	-11.2372
傅巖	-11.2372
訦碑	-11.2372
翟雉	-11.2373
彎弓	-11.2373
公孫𢎞	-11.2374
闐	-11.2375
邯	-11.2375
莫那	-11.2376
岐路	-11.2376
鴛	-11.2377
由旬	-11.2379
臨卭	-11.2379
栱	-11.238
祝融	-11.238
因以為名	-11.2382
隋書梁州	-11.2382
史記正義曰	-11.2388
史記曰秦	-11.2389
賢愚	-11.239
梵語	-11.239
常住	-11.2391
峻極	-11.2391
複道	-11.2392
普通	-11.2392
朗月	-11.2393
繼踵	-11.2393
李膺	-11.2396
晉地理志	-11.2397
鼔琴	-11.2397
許由	-11.2397
牛羊	-11.2398
陳武帝紀	-11.24
譬猶	-11.2402
雲梯	-11.2403
延夀	-11.2404
淳于	-11.2406
崑山	-11.2409
四隅	-11.241
髙誘曰	-11.2412
梁甫	-11.2414
齊桓公	-11.2415
禍亂	-11.2417
品物	-11.2418
竇氏	-11.2418
謨明	-11.2422
毛萇曰	-11.2422
郡後魏置	-11.2424
瑞應	-11.2426
高誘曰	-11.2428
晉國公	-11.2429
奉璧	-11.243
緑林	-11.243
秋霜	-11.2431
昭穆	-11.2431
形影	-11.2432
織成	-11.2439
三台	-11.244
博學	-11.2441
升降	-11.2443
愛敬	-11.2445
漢西域傳	-11.2449
邈矣	-11.2454
鄭康成曰	-11.2457
夏后	-11.2462
太息	-11.2463
風俗通曰	-11.2464
同穴	-11.2466
常恐	-11.2471
劉備	-11.2471
死罪	-11.2474
遥遥	-11.2474
爾雅云	-11.2475
漢書匈奴	-11.2479
宫商	-11.2482
巴蜀	-11.2486
十餘日	-11.2492
靈龜	-11.2497
張禹	-11.2501
結客	-11.2502
河内郡	-11.2505
梁鴻	-11.2507
輕舉	-11.2513
太素	-11.2513
隠居	-11.2515
太微	-11.2517
泗水	-11.2519
造化	-11.2526
仕周	-11.2538
法駕	-11.2544
千嵗	-11.2723
軍司馬	-11.2867
括地志	-11.2943
鞶	-11.2952
洛神賦	-11.2954
櫟	-11.2955
維摩經	-11.2956
惄	-11.2986
驃騎大將軍開府儀同三司	-11.2992
拾遺	-11.2994
浹	-11.2996
泫	-11.2997
鑚	-11.2997
亶	-11.2997
嶼	-11.2999
龎涓	-11.2999
以上四段遞句退成囘文每段各増詩	-11.2999
摭	-11.3001
圻	-11.3001
櫳	-11.3002
嘏	-11.3002
壷	-11.3003
裒	-11.3003
忻	-11.3005
蠢	-11.3005
盌	-11.3005
皐	-11.3005
蝸	-11.3005
媵	-11.3006
晰	-11.3006
驤	-11.3008
懲	-11.3009
呌	-11.3009
豬	-11.3009
苛	-11.3009
始興王	-11.301
王子喬	-11.301
玫	-11.3011
笏	-11.3011
繪	-11.3012
頺	-11.3012
頥	-11.3012
彘	-11.3012
亹亹	-11.3012
三輔黄圗	-11.3012
𥙷	-11.3012
嘶	-11.3012
趙泉山曰	-11.3012
褰	-11.3012
册	-11.3012
謠	-11.3012
俊乂	-11.3013
涘	-11.3013
耄	-11.3013
夏侯嬰	-11.3013
械	-11.3013
離婁	-11.3014
黻	-11.3014
擥	-11.3015
窅	-11.3015
幻	-11.3015
鷗	-11.3015
訛	-11.3016
噎	-11.3016
郭璞注云	-11.3016
犍	-11.3016
涖	-11.3016
討平之	-11.3016
婆娑	-11.3017
昃	-11.3017
袁宏	-11.3017
漢武内傳	-11.3017
勗	-11.3017
穰	-11.3018
蹯	-11.3018
西都賦曰	-11.3018
脯	-11.3018
呂氏春秋	-11.3019
翬	-11.3019
袤	-11.3019
妬	-11.3019
玉臺新詠	-11.3019
㤀	-11.3019
緘	-11.3019
嬌	-11.302
索隱曰	-11.3021
軨	-11.3021
俄頃	-11.3021
劬勞	-11.3021
茫	-11.3021
鄣	-11.3021
嬰兒	-11.3022
克諧	-11.3022
床	-11.3022
岳陽王詧	-11.3022
償	-11.3022
磴	-11.3023
尉遲逈	-11.3023
貲	-11.3023
髣髴	-11.3023
参	-11.3023
洒	-11.3023
越裳	-11.3023
楸	-11.3023
戾止	-11.3023
詹事	-11.3023
帨	-11.3024
伏惟陛下	-11.3024
瘡	-11.3024
醴泉	-11.3024
蚤	-11.3024
漁釣	-11.3025
插	-11.3025
耿恭	-11.3025
檣	-11.3025
滋味	-11.3026
旻	-11.3026
汲黯	-11.3026
姨	-11.3026
纁	-11.3026
荻	-11.3026
易繫辭曰	-11.3027
猾	-11.3027
封禅	-11.3027
樓船將軍	-11.3027
洞房	-11.3027
脚	-11.3027
㶚	-11.3028
几杖	-11.3028
魔	-11.3028
埽	-11.3028
史記天官書曰	-11.3028
築長城	-11.3028
卜筮	-11.3029
筝	-11.3029
吠	-11.3029
矚	-11.303
垂翅	-11.303
戮力	-11.303
架	-11.303
使持節車騎大將軍儀同三司	-11.303
敢告	-11.303
科斗	-11.303
怙	-11.3031
踐祚	-11.3031
漢舊儀	-11.3031
袁盎	-11.3031
劇秦美新	-11.3031
埸	-11.3031
虹蜺	-11.3031
建章宫	-11.3032
武帝元鼎	-11.3032
墊	-11.3032
孫臏	-11.3033
釣臺	-11.3033
耻	-11.3034
臣邕	-11.3034
屈原九歌	-11.3034
唳	-11.3035
筑	-11.3035
痼	-11.3036
禍福	-11.3037
晉陽秋	-11.3037
遵渚	-11.3038
櫨	-11.3038
薩	-11.3038
屈膝	-11.3039
綰	-11.3039
佇立	-11.304
窘	-11.304
桃源	-11.3041
解嘲	-11.3042
亭障	-11.3042
葛覃	-11.3042
彭祖	-11.3043
匹夫	-11.3043
夏后氏	-11.3044
吹笛	-11.3044
蔗	-11.3044
天和三年	-11.3049
搔	-11.305
魚鱗	-11.305
畬	-11.305
爾雅釋	-11.3051
吉甫	-11.3052
鄱陽王	-11.3053
亡國之	-11.3053
浮屠	-11.3054
規矩	-11.3054
為貞陽侯	-11.3056
瞻仰	-11.3058
甘泉宫	-11.3058
地軸	-11.3058
禹迹	-11.3059
悵然	-11.306
合肥	-11.3062
漢文帝紀	-11.3064
傅説	-11.3065
龍躍	-11.3065
三十六國	-11.3068
吕尚	-11.3071
邵陵王	-11.3072
誓衆	-11.3073
衞將軍	-11.3073
絲竹	-11.3074
兵革	-11.3075
左傳楚子	-11.3077
洗馬	-11.3078
宿衛	-11.3083
碑銘	-11.3084
鹿鳴	-11.3086
兗州	-11.3086
青雀	-11.3087
狙詐	-11.3088
靈芝	-11.3096
陶淵明集	-11.3097
謁帝	-11.3098
綱紀	-11.3098
衞青	-11.3099
楚妃	-11.3101
小園賦	-11.3104
宫調曲	-11.3106
照鏡	-11.3108
二十五年	-11.311
伯姬	-11.311
曹植洛神賦	-11.311
魏公子	-11.3115
霸陵	-11.3117
别鶴	-11.312
漢武帝紀	-11.312
吳越	-11.3122
夜夢	-11.3122
朝霞	-11.3124
魯衛	-11.3126
都亭	-11.3129
仰視	-11.3133
紇豆陵	-11.3138
五百里	-11.3142
博物	-11.3148
尋遷	-11.3154
丹陽郡	-11.3165
五溪	-11.3169
師友	-11.3178
容裔	-11.3188
封禪書	-11.3214
元帝承制	-11.3317
汝等	-11.3336
汲郡	-11.3437
司馬裔	-11.35
銀臺	-11.3585
抱樸子	-11.3613
述異記	-11.3637
百四十	-11.3687
彥	-11.369
嚶	-11.3696
嵇中散集巻第	-11.3697
自闗而西秦晉之間凡	-11.3697
貟	-11.3704
愷悌	-11.3705
贅	-11.3709
磐	-11.3711
番禺	-11.3712
緫	-11.3713
邠	-11.3714
湯東澗曰	-11.3714
殂	-11.3715
猗猗	-11.3716
伶	-11.3716
斵	-11.3718
懣	-11.3718
蟀	-11.3718
廡	-11.3719
抃	-11.372
旭	-11.372
黿鼉	-11.3721
淖	-11.3721
遡	-11.3721
梢	-11.3721
藺	-11.3721
櫺	-11.3722
逓	-11.3722
罃	-11.3722
氾	-11.3722
鋸	-11.3723
状	-11.3723
皎皎	-11.3724
滔滔	-11.3724
杳杳	-11.3724
枻	-11.3724
蔥	-11.3724
票	-11.3724
洩	-11.3725
哽	-11.3725
嘘	-11.3726
猪	-11.3727
縞	-11.3727
硯	-11.3727
進爵為王	-11.3727
紊	-11.3727
廚	-11.3727
婺	-11.3727
祓	-11.3728
艘	-11.3728
歐	-11.3728
桃花源	-11.3728
溥	-11.3729
器械	-11.3729
耨	-11.373
公孫瓚	-11.373
駰	-11.373
疫	-11.373
㲲	-11.373
億兆	-11.3731
丹陽尹	-11.3731
溱	-11.3731
餅	-11.3731
嬖	-11.3731
齓	-11.3732
屍	-11.3732
陸機詩	-11.3732
蛾眉	-11.3732
燥	-11.3732
鋒鏑	-11.3732
斌	-11.3733
郞	-11.3733
丹砂	-11.3733
契濶	-11.3733
招揺	-11.3734
鴆	-11.3734
曺	-11.3734
採菱	-11.3734
饌	-11.3734
莎	-11.3734
姜嫄	-11.3734
諠	-11.3734
旰	-11.3734
髫	-11.3735
痾	-11.3735
恙	-11.3735
評	-11.3735
闋	-11.3735
仲山甫	-11.3736
梁孝王	-11.3736
交趾	-11.3737
禇	-11.3737
隈	-11.3737
耒	-11.3737
澡	-11.3737
几筵	-11.3738
鄢	-11.3738
塢	-11.3738
𡨕	-11.3738
顒	-11.3738
垓	-11.3738
吁嗟	-11.3738
喬木	-11.3738
帑	-11.3738
袁宏後漢紀曰	-11.3738
查	-11.3738
左思魏都賦	-11.3739
拓跋	-11.3739
郄	-11.3739
穫	-11.3739
捜神記	-11.3739
砥柱	-11.3739
桑榆	-11.3739
見報寄	-11.374
番	-11.374
蚊	-11.374
智慧	-11.374
皝	-11.374
栘	-11.374
譖	-11.374
胥靡	-11.3741
騮	-11.3741
簴	-11.3741
㺯玉	-11.3741
千餘里	-11.3742
暢轂	-11.3742
巡狩	-11.3742
譎	-11.3742
婁敬	-11.3742
亷頗	-11.3743
喉	-11.3743
柙	-11.3743
據鞍	-11.3743
闔閭	-11.3744
岐嶷	-11.3745
機宻	-11.3745
笠	-11.3745
朋友	-11.3746
周書武帝紀云	-11.3746
高士傳	-11.3747
覔	-11.3747
三月三日	-11.3748
蹔	-11.3748
嘉禾	-11.3748
壠	-11.3749
▁此章喻	-11.3749
薛綜曰	-11.3749
姬姓	-11.3749
開府儀同	-11.375
虢鄶	-11.3751
筭	-11.3751
岱宗	-11.3751
庶績	-11.3751
江淹别賦	-11.3751
尚書舜典	-11.3753
吴越春秋	-11.3753
丘墟	-11.3753
網羅	-11.3753
封豕	-11.3753
長樂宫	-11.3754
畦	-11.3754
冠冕	-11.3754
凰	-11.3754
蠕蠕	-11.3755
朱鳶	-11.3757
爾朱榮	-11.3758
六翮	-11.3758
瀛洲	-11.3758
祁連山	-11.3759
樞機	-11.3759
太上皇	-11.376
連鑣	-11.3762
促節	-11.3762
漢書地理志云	-11.3763
戎狄	-11.3764
宛轉	-11.3765
蕭索	-11.3765
疏勒	-11.3766
趙世家	-11.3772
度量	-11.3773
含笑	-11.3775
蓮葉	-11.3779
諸矦	-11.378
倒景	-11.3781
旗鼓	-11.3781
引領	-11.3785
芝草	-11.3786
州西魏改	-11.3788
張遼	-11.3789
曽孫	-11.3789
貴戚	-11.379
精爽	-11.3793
襲爵	-11.3795
禪位	-11.3795
純深	-11.3797
雍容	-11.3799
説文云	-11.3801
虞淵	-11.3802
二十巻	-11.3811
雒陽	-11.3817
百八十	-11.3823
何也曰	-11.3835
千齡	-11.3928
雲霄	-11.398
卭竹	-11.3989
陸逞	-11.4062
部中大夫	-11.4102
臺之上	-11.4239
毛萇	-11.4432
輶軒使者絶代語釋别國方言第	-11.4452
崑	-11.4457
滕王逌	-11.446
髙誘	-11.4461
蜻	-11.4468
斐	-11.447
掇	-11.4471
南楚之外	-11.4473
詹	-11.4475
鬲	-11.4477
惵	-11.4477
彚	-11.4479
暎	-11.4479
鵩	-11.448
蓂	-11.448
嗇	-11.4481
摽	-11.4481
漉	-11.4482
豚	-11.4484
銓	-11.4484
濆	-11.4484
獍	-11.4484
偪	-11.4485
正月上辛	-11.4485
阿含經	-11.4486
廂	-11.4486
祁連	-11.4486
刪	-11.4486
晤	-11.4486
翾	-11.4487
夐	-11.4487
四牡	-11.4488
槁	-11.4488
恧	-11.4488
鞮	-11.4488
丕顯	-11.4489
庾肩吾	-11.4489
咨嗟	-11.449
勛	-11.4491
匕	-11.4491
蜘蛛	-11.4491
嶸	-11.4491
顆	-11.4491
唾	-11.4491
汭	-11.4492
蝎	-11.4492
甑	-11.4492
鷙	-11.4492
煌煌	-11.4492
囷	-11.4492
咀	-11.4493
喟	-11.4493
櫓	-11.4493
由此言之	-11.4493
鷃	-11.4493
鄒衍	-11.4494
唘	-11.4494
麓	-11.4494
汨	-11.4494
雲門之舞	-11.4494
逄	-11.4495
厮	-11.4495
𤣥術瑩之	-11.4495
祁祁	-11.4495
牘	-11.4495
刁斗	-11.4495
暘谷	-11.4496
歆	-11.4496
譟	-11.4496
着	-11.4497
陸法和	-11.4497
姧	-11.4497
熒惑	-11.4497
瘠	-11.4497
枿	-11.4497
煇	-11.4497
周書本紀云	-11.4497
闞	-11.4498
儛	-11.4498
寝	-11.4498
嘈	-11.4499
瀼	-11.4499
塗炭	-11.4499
拖	-11.4499
宓	-11.45
楛	-11.45
線	-11.45
鯨鯢	-11.45
檥	-11.45
祛	-11.45
釧	-11.45
沌	-11.45
瞳	-11.45
絆	-11.4501
辦	-11.4501
甲戌	-11.4501
磯	-11.4502
張衡東京賦	-11.4502
綍	-11.4502
飴	-11.4502
纒綿	-11.4502
沚	-11.4502
鏘鏘	-11.4502
漢王莽傳	-11.4502
虗	-11.4502
舳	-11.4503
蔡邕獨斷	-11.4503
懇	-11.4503
少年塲	-11.4503
隋書經籍志	-11.4504
蔭	-11.4504
緹	-11.4504
輻	-11.4504
璫	-11.4504
瑒	-11.4504
縑	-11.4504
廙	-11.4504
冡宰	-11.4504
膋	-11.4505
齊七政	-11.4505
泮	-11.4505
鎩	-11.4506
盃	-11.4506
頭陀寺碑	-11.4506
昂	-11.4506
貎	-11.4506
都官尚書	-11.4506
呵	-11.4506
優劣	-11.4507
千二百	-11.4507
好事者	-11.4507
勦	-11.4507
肄	-11.4507
四瀆	-11.4507
父肩吾	-11.4507
邑五百戸	-11.4508
佑	-11.4508
圈	-11.4508
仄	-11.4508
耋	-11.4508
誕育	-11.4508
璩	-11.4509
惇	-11.4509
閽	-11.4509
中散大夫	-11.4509
摰	-11.4509
彤管	-11.4509
莞	-11.4509
戢翼	-11.451
璉	-11.451
洹	-11.451
褰帷	-11.451
昆蟲	-11.4511
蔕	-11.4511
氏之先也	-11.4511
概	-11.4511
吻	-11.4511
蘧	-11.4512
剛柔	-11.4512
禮記檀弓	-11.4512
杜龕	-11.4512
癭	-11.4512
鼂	-11.4513
漲	-11.4513
盟津	-11.4513
孝閔踐阼	-11.4513
崧	-11.4513
虎豹	-11.4513
鏖	-11.4513
凜	-11.4514
僮	-11.4514
真誥	-11.4514
郭賀	-11.4514
范蠡	-11.4515
晼	-11.4515
周禮鄭注曰	-11.4515
憔悴	-11.4515
隴坻	-11.4515
侯安都	-11.4515
橈	-11.4515
句踐	-11.4516
蜚	-11.4516
陸璣	-11.4516
椽	-11.4516
負薪	-11.4517
庚辰	-11.4517
連翩	-11.4518
張平子	-11.4518
冠帶	-11.4519
庾子山	-11.4519
琬琰	-11.452
筍	-11.4521
佳麗	-11.4522
埀	-11.4522
採桑	-11.4522
謝眺	-11.4522
漢律厯志	-11.4523
沙漠	-11.4523
紘綖	-11.4523
稼穡	-11.4523
倏	-11.4523
縣開國公	-11.4523
後漢百官志	-11.4524
聖哲	-11.4525
畫眉	-11.4526
反斾	-11.4527
楊彪	-11.4528
授使持節都督	-11.4528
開闢	-11.4528
炅	-11.4528
但恨	-11.4529
驄	-11.453
八柄	-11.4532
隋書荆州	-11.4532
凌霄	-11.4532
佾	-11.4533
寡婦	-11.4533
律吕	-11.4538
千鈞	-11.4538
藜藿	-11.4539
尒朱	-11.4539
莊嚴	-11.4539
振旅	-11.454
江陵陷	-11.454
侍宴	-11.454
偃息	-11.4541
見謝趙	-11.4542
雷電	-11.4543
祊	-11.4543
借問	-11.4544
冀州刺史	-11.4544
隋書地理志云	-11.4545
逸豫	-11.4546
周處士	-11.4547
十丈	-11.4551
乳母	-11.4554
水之陽	-11.4555
梵志	-11.4557
太公望	-11.457
謝靈運詩	-11.458
欣欣	-11.4593
告之曰	-11.4614
十有八	-11.4675
六十四	-11.4703
陳楚之間	-11.4725
征討	-11.4803
百官志	-11.4809
瑶臺	-11.4869
司馬裔碑	-11.4877
皇帝諱	-11.5097
蛉	-11.5288
牧臣司	-11.5299
之郊謂之	-11.5301
雷霆	-11.5302
牎	-11.5305
渤	-11.5308
疋	-11.5308
俛仰	-11.5308
跼	-11.5309
酢	-11.5309
寂寂	-11.531
𢷬	-11.5311
擊筑	-11.5312
頤	-11.5312
琢	-11.5313
鍵	-11.5313
聾	-11.5315
俞	-11.5315
睠	-11.5316
逍遙	-11.5316
心之憂矣	-11.5316
猨	-11.5316
繻	-11.5317
莅	-11.5317
貿	-11.5317
淸	-11.5318
罵	-11.5318
頷	-11.5318
讋	-11.5318
脊	-11.532
煴	-11.532
搗	-11.532
褘	-11.5321
瓴	-11.5321
灼灼	-11.5321
媛	-11.5321
窬	-11.5321
嘿	-11.5321
白虹貫日	-11.5322
莫大於	-11.5322
浄	-11.5322
擾擾	-11.5322
袞	-11.5322
湼	-11.5322
泬	-11.5323
虔	-11.5323
喘	-11.5324
謇	-11.5325
臺城陷	-11.5325
甖	-11.5325
舳艫	-11.5325
惣	-11.5326
嵯峨	-11.5326
燦	-11.5326
阿羅漢	-11.5326
啾	-11.5326
録尚書事	-11.5326
睨	-11.5326
贄	-11.5327
蟹	-11.5327
沴	-11.5327
晏嬰	-11.5327
昊天上帝	-11.5327
蝗	-11.5327
胃	-11.5327
悍	-11.5327
懦	-11.5328
浩浩	-11.5328
櫩	-11.5328
燋	-11.5328
周文育	-11.5328
㟁	-11.5328
裙	-11.5328
幌	-11.5329
桁	-11.5329
袴	-11.5329
郯	-11.533
讙	-11.533
畱	-11.533
箄	-11.533
奭	-11.5331
梳	-11.5331
瓢	-11.5331
踊躍	-11.5331
禋祀	-11.5331
娑	-11.5332
沐浴	-11.5332
仁恕	-11.5332
緝熙	-11.5333
畛	-11.5333
幢	-11.5333
塹	-11.5333
洋	-11.5333
炬	-11.5333
巋	-11.5334
薺	-11.5334
煜	-11.5334
受魏禪	-11.5335
坡	-11.5335
褊	-11.5335
一章十	-11.5335
鼙	-11.5335
蓬蒿	-11.5336
訝	-11.5336
沸騰	-11.5336
篋	-11.5336
幅	-11.5336
戊辰	-11.5337
酎	-11.5337
咲	-11.5337
愬	-11.5337
賑	-11.5337
櫬	-11.5337
晉灼曰	-11.5338
慤	-11.5338
嶤	-11.5338
晣	-11.5338
阿育王	-11.5339
晡	-11.5339
岨	-11.5339
三輔舊事	-11.5339
輶軒	-11.5339
締	-11.5339
衮衣	-11.5339
縢	-11.5339
靈光殿賦	-11.534
縶	-11.534
廐	-11.534
関	-11.534
促織	-11.534
三輔黃圖曰	-11.534
伍子胥	-11.5341
庾開府集箋註	-11.5341
帳裏	-11.5341
即皇帝位	-11.5341
倘	-11.5341
舍利弗	-11.5341
廏	-11.5341
琱戈	-11.5342
嫂	-11.5343
蕨	-11.5343
崛	-11.5343
捫	-11.5343
薙	-11.5343
瑞應圖	-11.5343
曝	-11.5343
奉和趙王	-11.5344
枚乗七發	-11.5344
寇恂	-11.5344
嶧	-11.5344
絺	-11.5344
埤	-11.5344
漢書西域傳曰	-11.5344
雝	-11.5345
吳都賦曰	-11.5345
鹽鐵論	-11.5345
煌	-11.5345
雌雄	-11.5345
叶	-11.5346
珉	-11.5346
釡	-11.5346
儁	-11.5347
建徳三年	-11.5347
薤	-11.5347
凊	-11.5348
盤桓	-11.5349
班固西都賦	-11.535
剖符	-11.535
羯	-11.535
棣	-11.535
御史大夫	-11.535
蓼	-11.5351
丁亥	-11.5351
椁	-11.5351
蘇峻	-11.5351
漯	-11.5352
皦	-11.5352
酤	-11.5352
第三子也	-11.5352
掩淚	-11.5352
文苑傳	-11.5352
恃險	-11.5353
桓譚新論	-11.5353
﨑嶇	-11.5353
澠池	-11.5353
湑曰左傳	-11.5354
栽	-11.5354
梁王詧	-11.5354
遐邇	-11.5354
翥	-11.5354
飮	-11.5355
光禄勲	-11.5355
韍	-11.5355
注西魏置	-11.5355
顔延之	-11.5356
宗子維城	-11.5357
郡注後魏置	-11.5359
蜃	-11.5359
校獵	-11.536
司馬彪	-11.536
漢霍光傳	-11.536
滻	-11.5361
柳莊	-11.5361
惱	-11.5362
采葛	-11.5362
陸渾	-11.5363
季札	-11.5363
妒	-11.5363
丹竈	-11.5363
飛蛾	-11.5364
玖	-11.5365
後漢書光武	-11.5365
舞雩	-11.5366
見五張	-11.5366
棧	-11.5369
抜	-11.537
蟠木	-11.5372
垂釣	-11.5373
虎牢	-11.5378
寵辱	-11.5379
寶刀	-11.5383
襄陽記	-11.5394
宣城郡	-11.5396
左傳襄十	-11.5408
見與宗	-11.5487
使持節驃騎大將軍開府儀同三司	-11.5517
州牧箴	-11.5632
魏大統	-11.5827
總管府	-11.5902
貨殖	-11.5939
使持節車騎大	-11.6009
蛄	-11.6184
漢書音義	-11.6191
咄	-11.6199
宋魏之間謂之	-11.6201
漣	-11.6206
桮	-11.6209
豨	-11.621
綉	-11.6213
㱕	-11.6213
轔	-11.6213
霽	-11.6216
姝	-11.6219
袿	-11.622
緌	-11.622
杭	-11.6221
屨	-11.6221
鴻臚	-11.6221
兌	-11.6223
艇	-11.6224
奴婢	-11.6224
愽	-11.6224
吊	-11.6224
維摩詰	-11.6225
爼豆	-11.6225
賖	-11.6226
苒	-11.6226
净	-11.6226
褥	-11.6226
猴	-11.6226
紗	-11.6226
皢	-11.6227
姦回	-11.6227
簣	-11.6228
篁	-11.6229
婉孌	-11.6229
坏	-11.623
滲	-11.623
漪	-11.623
烝烝	-11.623
信陵君	-11.6232
輶	-11.6232
槍	-11.6232
陋巷	-11.6232
軟	-11.6232
貉	-11.6233
拳	-11.6233
􁗁	-11.6233
邴原	-11.6233
吸	-11.6234
桀黠	-11.6234
娱	-11.6234
荆楚嵗時記	-11.6234
樹穀曰此下	-11.6234
秬鬯	-11.6234
豋	-11.6235
師敗績	-11.6235
瘞埋	-11.6235
瓌	-11.6236
揚雄甘泉賦	-11.6236
歔	-11.6236
攬轡	-11.6236
杪	-11.6236
魏陳思王曹植撰	-11.6236
膓	-11.6236
鎬	-11.6236
郇	-11.6236
軆	-11.6237
辛酉	-11.6237
兼而有之	-11.6237
陸費墀	-11.6237
軰	-11.6237
蘓	-11.6237
駛	-11.6238
麻姑	-11.6238
齔	-11.6238
昀	-11.6238
庚戌	-11.6239
闚	-11.6239
湫	-11.6239
鍤	-11.6239
顓	-11.6239
賂	-11.6239
菲薄	-11.624
周庾信撰錢唐倪璠纂註	-11.624
漢項籍傳	-11.624
光祿大夫	-11.624
敬想足下	-11.6241
麝	-11.6241
盍	-11.6241
採蓮	-11.6241
髟	-11.6241
嚼	-11.6241
乙亥	-11.6241
咫	-11.6241
捍	-11.6242
恡	-11.6242
戶	-11.6242
瞑	-11.6242
栴檀	-11.6242
謫	-11.6242
神道碑	-11.6242
陬	-11.6242
尚書洪範	-11.6242
厝	-11.6243
濘	-11.6243
配帝舞	-11.6243
聘於東魏	-11.6243
𣲖	-11.6243
舫	-11.6243
罽	-11.6243
崔駰	-11.6243
朞	-11.6244
煬	-11.6244
狼狽	-11.6244
疇咨	-11.6244
徊	-11.6244
馘	-11.6244
華林園	-11.6244
鈿	-11.6245
執金吾	-11.6245
呉越春秋	-11.6245
簞瓢	-11.6245
欽定四庫全書集部二	-11.6245
箇	-11.6245
丙辰	-11.6245
槌	-11.6245
睎	-11.6245
中書侍郎	-11.6246
縟	-11.6246
踴	-11.6246
溘	-11.6246
嬾	-11.6246
儕	-11.6246
莩	-11.6246
纘	-11.6246
耐	-11.6246
紏	-11.6246
璃	-11.6246
黼	-11.6247
嶰谷	-11.6247
劉熈釋名	-11.6247
廪	-11.6248
刈	-11.6248
苫	-11.6248
漢書郊祀志	-11.6248
璣明之	-11.6249
偷	-11.6249
紵	-11.6249
藁	-11.6249
湔	-11.6249
憩	-11.6249
樂天知命	-11.6249
辛氏三秦記	-11.6249
促柱	-11.6249
扆	-11.6249
貔	-11.625
蕐	-11.625
瞀	-11.625
瀍	-11.625
鶩	-11.625
有才子八人	-11.6251
舛	-11.6251
舅甥	-11.6251
阼	-11.6251
蘩	-11.6251
兆宫曰	-11.6251
洛汭	-11.6251
覯	-11.6251
幟	-11.6252
藕	-11.6252
風土記	-11.6252
述征記	-11.6252
褰裳	-11.6252
奬	-11.6253
食貨志	-11.6253
幰	-11.6253
階級	-11.6253
篡	-11.6253
督郵	-11.6253
扶疎	-11.6254
後漢逸民傳	-11.6254
騄	-11.6254
簒位	-11.6254
揚子雲集	-11.6254
州後周置總管府	-11.6255
進爵為侯	-11.6255
魯仲連	-11.6255
䍧	-11.6255
閶門	-11.6255
扶風平陵人	-11.6255
雹	-11.6255
莾	-11.6256
烟霞	-11.6256
伍員	-11.6256
孀	-11.6256
開國承家	-11.6256
瓉	-11.6256
啖	-11.6256
滇	-11.6257
倜儻	-11.6257
通直散騎常侍	-11.6257
苖裔	-11.6257
駱	-11.6258
廉頗	-11.6258
購	-11.6258
宣政元年	-11.6258
魂魄	-11.6259
隋書雍州	-11.6259
尉遲	-11.6259
鄴中記	-11.6259
詆	-11.626
罝	-11.626
潼闗	-11.626
井陘	-11.626
錐	-11.626
減竈	-11.626
歙	-11.626
栩	-11.626
左傳襄二十	-11.626
太清三年	-11.6261
張揖曰	-11.6261
詩興之	-11.6262
禮記郊特牲	-11.6262
殻	-11.6262
桓譚	-11.6263
左思呉都賦	-11.6263
魑	-11.6263
鼗	-11.6263
史記封禪書曰	-11.6263
逥	-11.6264
諜	-11.6265
蕭艾	-11.6265
紡績	-11.6265
鑿齒	-11.6266
竅	-11.6267
􁀈	-11.6267
昭陽殿	-11.6267
後漢書郡國志曰	-11.6268
尙	-11.6268
達奚武	-11.6269
公孫述	-11.6269
枹	-11.6269
也東齊曰	-11.627
報讐	-11.627
范曄	-11.6272
淄澠	-11.6272
𤣥中記	-11.6273
厓	-11.6273
鯉魚	-11.6275
漢書律厯志	-11.6276
嶢	-11.6277
㤗寺	-11.6278
聯句	-11.6278
邛	-11.6282
勱	-11.6284
州領郡	-11.6284
枯樹賦	-11.6286
秦始皇本紀	-11.6288
交頸	-11.6291
駸	-11.6303
滕王序	-11.6317
持節都督	-11.6486
漢書天文志曰	-11.6525
紇干𢎞	-11.6676
蠅	-11.7193
甌	-11.7204
䎡	-11.7209
逡	-11.7209
晉清河内史陸雲士龍	-11.7212
昊天不弔	-11.7213
鶯	-11.7217
嘖	-11.7219
卻	-11.7219
葺	-11.7219
契闊	-11.722
繢	-11.722
怨歌行	-11.7221
梁江文通集卷第	-11.7221
嗟我懐人	-11.7221
堙	-11.7222
瑋	-11.7222
蠖	-11.7222
鼉	-11.7222
憙	-11.7223
犇	-11.7223
槿	-11.7225
喙	-11.7225
燠	-11.7226
奈	-11.7226
冺	-11.7227
三青鳥	-11.7227
冗	-11.7228
濊	-11.7228
卬	-11.7228
率由舊章	-11.7228
沄	-11.7228
阡	-11.7229
撾	-11.7229
駮	-11.7229
欽定四庫全書	-11.7229
顛沛	-11.7229
鄗	-11.7229
峭	-11.723
耜	-11.723
㸑	-11.723
姢	-11.723
扛	-11.723
驢	-11.723
斚	-11.723
藩籬	-11.7231
𦕈	-11.7231
都督中外諸軍事	-11.7231
鞬	-11.7231
墾	-11.7231
榮啓期	-11.7231
猒	-11.7232
干寳搜神記曰	-11.7232
琅	-11.7232
剽	-11.7232
鞞	-11.7232
浣	-11.7232
弨	-11.7233
同年而語	-11.7233
聮	-11.7233
紓	-11.7233
萼	-11.7234
大寳二年	-11.7234
爕	-11.7234
摻	-11.7234
拏	-11.7234
孥	-11.7234
巘	-11.7235
彭蠡	-11.7235
樗里子	-11.7235
怳	-11.7235
迂	-11.7236
惋	-11.7236
貊	-11.7236
圯	-11.7236
▁是月	-11.7237
珽	-11.7237
仆	-11.7237
䓁	-11.7237
邯鄲淳	-11.7238
癸酉	-11.7238
跳	-11.7238
暌	-11.7238
皂	-11.7238
仲春之月	-11.7239
恂恂	-11.7239
喋	-11.7239
知何許人	-11.7239
春秋元命苞	-11.7239
耗	-11.724
臧文仲	-11.724
睫	-11.724
袵	-11.724
蒨	-11.724
闘	-11.724
粢	-11.724
㳫	-11.724
褵	-11.7241
簇	-11.7241
迢迢	-11.7241
罇	-11.7241
嵇康琴賦	-11.7241
膂力	-11.7241
鴉仁	-11.7241
峩	-11.7242
荀罃	-11.7242
恒河沙	-11.7242
僥	-11.7243
㵼	-11.7243
駁	-11.7243
腴	-11.7243
泳	-11.7244
淥	-11.7244
樛	-11.7244
崔豹古	-11.7244
僻	-11.7245
滑稽	-11.7245
璇詩之	-11.7245
海水羣飛	-11.7245
昵	-11.7245
碌	-11.7245
莱	-11.7245
陸機文賦	-11.7245
智度論	-11.7246
臾	-11.7246
兆騫曰	-11.7246
夘	-11.7246
四郊多壘	-11.7247
炫	-11.7247
孝經援神契	-11.7247
跖	-11.7248
焜	-11.7248
迢	-11.7248
潺湲	-11.7248
壬午	-11.7248
詮	-11.7248
伶倫	-11.7248
鏑	-11.7248
兠	-11.7249
覈	-11.7249
嫗	-11.7249
尚書左僕射	-11.7249
継	-11.7249
眡	-11.7249
宙	-11.725
氊	-11.725
茨	-11.725
撮	-11.725
北堂書鈔	-11.7251
稠	-11.7251
弢	-11.7251
續齊諧記	-11.7251
汲汲	-11.7252
蹲	-11.7252
跗	-11.7252
椿	-11.7253
訶	-11.7253
春申君	-11.7253
江陵之敗	-11.7253
注見上文	-11.7253
欽定四庫全書庾開府集箋註巻	-11.7253
麞	-11.7254
等謹案	-11.7254
忒	-11.7254
王羲之	-11.7254
六代之樂	-11.7254
准	-11.7254
籩	-11.7254
佃	-11.7254
鄅	-11.7255
渾渾	-11.7255
逸翮	-11.7255
阮瑀	-11.7255
珪璋	-11.7255
郭林宗	-11.7256
古逸詩	-11.7256
叛換	-11.7256
麈尾	-11.7256
考工記	-11.7256
佛國記	-11.7257
棼	-11.7257
叉	-11.7257
峩峩	-11.7257
牂	-11.7257
鸑鷟	-11.7258
尚書右僕射	-11.7258
懍	-11.7258
懔	-11.7258
戱	-11.7259
諸葛誕	-11.7259
宋玉招魂	-11.7259
伉儷	-11.7259
郡秦置	-11.726
班媫妤	-11.726
葅	-11.726
三皇本紀	-11.726
後漢輿服志	-11.726
夫人諱某	-11.7261
𦍑	-11.7261
蜿	-11.7261
馬長城窟	-11.7262
畵	-11.7262
茅茨	-11.7263
詵	-11.7263
鐘磬	-11.7264
岑彭	-11.7264
郗	-11.7264
韙	-11.7264
廆	-11.7265
默	-11.7265
蕪城賦	-11.7265
兑	-11.7266
禮記内則	-11.7266
輔佐君子	-11.7267
廛	-11.7267
鍜	-11.7267
耿弇	-11.7267
朱買臣	-11.7268
晉平原内史吳郡陸機士衡	-11.727
槖	-11.727
漢張良傳	-11.727
見為貞	-11.7271
杜氏通典	-11.7273
銑	-11.7273
瑪	-11.7274
驎	-11.7275
淮泗	-11.7276
榖梁傳	-11.7276
驩	-11.7277
後漢班超傳	-11.7279
邑五百户	-11.7279
弇	-11.7281
蘖	-11.7286
藋	-11.7289
賀婁慈碑	-11.731
見紇豆	-11.8191
諺	-11.8201
跙	-11.8265
其小者謂之	-11.8289
哇	-11.8305
也南楚凡	-11.8321
䓗	-11.8323
螮	-11.8324
湎	-11.8324
嬋	-11.8326
絞	-11.8326
断	-11.8326
是用錫公	-11.8327
膂	-11.8327
觚	-11.8328
閻浮提	-11.8329
裛	-11.8329
孌	-11.833
老萊子曰	-11.8331
鶡	-11.8331
矞	-11.8331
􁁜	-11.8332
儵	-11.8333
鴟梟	-11.8333
疵	-11.8334
柚	-11.8334
泠泠	-11.8335
冽	-11.8336
崚	-11.8336
料	-11.8336
竚	-11.8336
聒	-11.8336
麑	-11.8336
剞劂	-11.8337
咤	-11.8337
𪷟	-11.8337
耉	-11.8337
鯁	-11.8338
縉紳	-11.8338
巂	-11.8338
囹	-11.8339
倨	-11.8339
焱	-11.8339
沆瀣	-11.8339
糟	-11.834
龐	-11.834
睒	-11.834
佯	-11.834
嬀	-11.834
樠	-11.834
毳	-11.834
腫	-11.8341
坊	-11.8341
蓽	-11.8341
程氏妹	-11.8341
冏	-11.8341
賒	-11.8341
又諮未審	-11.8342
笙簧	-11.8342
􁈹	-11.8342
崐	-11.8342
俸	-11.8342
洶	-11.8343
􁁃	-11.8343
宓妃	-11.8343
彷徨	-11.8344
葬信作墓誌	-11.8344
皇帝初獻	-11.8344
莓	-11.8344
曬	-11.8344
筒	-11.8345
刮	-11.8345
瘞	-11.8345
三足烏	-11.8345
曦	-11.8345
絢	-11.8346
汰	-11.8346
崎嶇	-11.8347
婚姻	-11.8347
甓	-11.8347
髠	-11.8347
鶚	-11.8347
聯	-11.8348
彜	-11.8348
洙泗	-11.8348
髯	-11.8348
濠	-11.8348
媫妤	-11.8349
大赦改元	-11.8349
周書列傳云	-11.8349
尖	-11.8349
栅	-11.8349
傭	-11.8349
罟	-11.8349
鶬	-11.8349
誚	-11.8349
蛩	-11.835
將命至鄴	-11.835
鷦	-11.835
西寜州刺史	-11.835
應劭漢官儀曰	-11.835
舲	-11.835
縳	-11.8351
恚	-11.8351
鈇	-11.8351
戡	-11.8351
溼	-11.8351
芙	-11.8352
鴨	-11.8352
徐孝穆集箋注	-11.8352
聶	-11.8352
鏡機子曰	-11.8352
歿	-11.8352
錬	-11.8353
秦置屬幽州	-11.8353
墅	-11.8353
鍔	-11.8353
鏗	-11.8354
攢	-11.8354
襌	-11.8354
汁光紀	-11.8354
拆	-11.8354
虡	-11.8354
穂	-11.8354
湊	-11.8354
輈	-11.8355
蠱	-11.8355
縿	-11.8355
悝	-11.8355
晉陶潛撰	-11.8355
犁	-11.8355
碓	-11.8355
團團	-11.8355
秫	-11.8355
洊	-11.8355
熛	-11.8355
瀛	-11.8356
彎弧	-11.8356
黔婁	-11.8356
陲	-11.8356
騅	-11.8356
䆫	-11.8357
愜	-11.8357
袛	-11.8357
州大中正	-11.8357
蹋	-11.8357
呼吸	-11.8358
陁	-11.8358
昆侖	-11.8358
兀	-11.8358
邕邕	-11.8358
劉逵注云	-11.8358
櫻	-11.8359
金紫光禄大夫	-11.8359
皃	-11.8359
喚	-11.8359
机	-11.8359
褧	-11.8359
螻蟻	-11.836
隮	-11.836
僊	-11.836
䬃	-11.836
鬪	-11.836
矟	-11.8361
蒯	-11.8361
龠	-11.8361
嗚呼哀哉乃為銘曰	-11.8362
王隠晉書	-11.8362
蹉	-11.8362
噭	-11.8362
藂	-11.8362
文苑英華	-11.8362
礫	-11.8362
閫	-11.8362
三輔決録	-11.8363
渌	-11.8363
芽	-11.8363
湘中記	-11.8363
縣注梁置	-11.8363
叫	-11.8363
鹹	-11.8363
圏	-11.8364
噉	-11.8364
堋	-11.8364
揷	-11.8364
三輔故事	-11.8364
為益州總管	-11.8364
咷	-11.8364
嫉	-11.8365
龍輔女紅餘志	-11.8365
无	-11.8365
僞	-11.8366
銖	-11.8366
九月九日	-11.8367
養由基	-11.8367
崔嵬	-11.8367
舊唐書	-11.8367
囀	-11.8367
童謡云	-11.8367
糝	-11.8367
斿	-11.8368
左賢王	-11.8368
悃	-11.8368
棨	-11.8368
宋玉九辨	-11.8369
慍	-11.8369
漢揚雄傳	-11.8369
耘	-11.837
鏗鏘	-11.8371
賮	-11.8371
五世相韓	-11.8371
褕狄	-11.8372
鄆	-11.8372
漢賈誼傳	-11.8372
郿	-11.8373
它	-11.8373
潛夫論	-11.8373
珩	-11.8373
蜀志諸葛亮	-11.8373
杲	-11.8373
魯靈光殿賦曰	-11.8374
莬	-11.8374
髀	-11.8375
枲	-11.8375
耰	-11.8376
祔	-11.8376
篾	-11.8376
添	-11.8376
江淹恨賦	-11.8378
蔡中郎集	-11.8378
蓱	-11.8378
吕向曰	-11.8379
曰甚矣	-11.838
漢司馬相如傳	-11.838
榱	-11.838
與楊僕射書	-11.8383
刳	-11.8383
擯	-11.8383
㡌	-11.8384
沽	-11.8386
打	-11.8387
成安君	-11.8389
澠	-11.8391
見賀平	-11.8394
漢霍去病傳	-11.8396
羝	-11.8419
文士傳	-11.855
步陸逞碑	-11.8851
遷驃騎大將軍開府	-11.9433
礥	-11.9522
螻	-11.9536
潯	-11.9537
躔	-11.954
第一義諦	-11.954
麄	-11.9544
焭	-11.9545
𥿄	-11.9548
莠	-11.9558
獺	-11.9564
呱	-11.9565
䆳	-11.9573
阯	-11.9575
鞗	-11.9576
齧	-11.9578
坳	-11.9581
煦	-11.9581
故作是詩	-11.9581
藟	-11.9583
褭	-11.9583
軏	-11.9585
筴	-11.9585
尔	-11.9585
啞	-11.9585
薁	-11.9586
穡	-11.9586
訕	-11.9586
縯	-11.9586
隳	-11.9587
潄	-11.9587
冮	-11.9587
斁	-11.9587
顧野王	-11.9587
東齊海岱之間謂之	-11.9587
員外郎	-11.9588
月重輪	-11.9588
峚	-11.9588
艧	-11.9588
詩情明顯	-11.9589
迕	-11.9589
羹	-11.9589
曛	-11.959
脛	-11.9591
䫏	-11.9591
躓	-11.9591
㺯	-11.9591
㽞	-11.9592
赧	-11.9592
淋	-11.9592
〇	-11.9592
伃	-11.9592
光華日月	-11.9592
第一至第	-11.9593
磵	-11.9593
嚳	-11.9593
閈	-11.9593
轜	-11.9593
奨	-11.9594
舒崇曰	-11.9594
陳遣使來聘	-11.9594
榴	-11.9594
踧	-11.9594
懈	-11.9594
𥚑	-11.9595
擗	-11.9595
乾隆四十六年	-11.9595
攪	-11.9595
岏	-11.9595
菰	-11.9596
凛	-11.9596
杌	-11.9596
噴	-11.9596
鈍	-11.9596
羈縻	-11.9597
凄凄	-11.9597
櫝	-11.9597
䦯	-11.9598
黠	-11.9598
綝	-11.9598
周禮大司樂	-11.9599
靦	-11.9599
栭	-11.9599
拍	-11.96
舩	-11.96
玲瓏	-11.96
肓	-11.96
㩦	-11.9601
綖	-11.9601
筏	-11.9601
槱	-11.9601
臠	-11.9601
膾	-11.9601
櫪	-11.9601
河東王譽	-11.9602
尚書大禹謨	-11.9602
扼	-11.9602
海録碎事	-11.9602
為洛州刺史	-11.9602
旜	-11.9602
吭	-11.9602
賻	-11.9602
颸	-11.9602
九折坂	-11.9603
韎	-11.9603
驃	-11.9603
暠	-11.9603
悸	-11.9603
麴	-11.9603
𥙿	-11.9603
嘔	-11.9603
光和元年	-11.9603
犍為郡	-11.9603
慊慊	-11.9604
武王伐殷	-11.9604
鴛鴦于飛	-11.9604
皤	-11.9604
檟	-11.9604
婆羅門	-11.9605
軿	-11.9605
杜預左傳注曰	-11.9605
右旋讀得詩四首	-11.9605
左旋讀得詩四首	-11.9605
鏘	-11.9605
魏平江陵	-11.9605
曀	-11.9606
未之有也	-11.9606
欽定四庫全書陶淵明集巻	-11.9606
靳	-11.9606
巍	-11.9606
杓	-11.9606
一統志	-11.9606
㓂	-11.9607
搢	-11.9607
篚	-11.9607
踣	-11.9607
莭	-11.9607
溷	-11.9608
詁	-11.9608
文殊師利	-11.9608
櫛	-11.9608
斲	-11.9608
饕	-11.9608
跱	-11.9609
大戴禮	-11.9609
䕃數國	-11.9609
漢李廣傳	-11.9609
丼	-11.9609
後漢皇后紀	-11.961
四十二章經	-11.961
美姿儀	-11.961
鵞	-11.961
惰	-11.961
僵	-11.9611
絏	-11.9611
涂	-11.9611
輳	-11.9611
𬗟	-11.9611
解印綬去	-11.9611
嶂	-11.9611
史皇孫	-11.9611
蹛	-11.9611
仭	-11.9611
疴	-11.9611
蒜	-11.9611
醢	-11.9612
醬	-11.9612
三千大千	-11.9612
摺	-11.9613
揭	-11.9613
鄉關之思	-11.9613
羶	-11.9613
陴	-11.9613
酖	-11.9613
卣	-11.9613
嗤	-11.9613
芙蕖	-11.9614
顔師古漢書注	-11.9614
鎗	-11.9614
枌	-11.9614
澁	-11.9614
熲	-11.9614
楞嚴經	-11.9614
纈	-11.9614
脇	-11.9614
縉	-11.9615
太平御覽	-11.9615
㕓	-11.9615
封安豐侯	-11.9615
鄠	-11.9615
漢韓信傳	-11.9616
褚	-11.9616
彬	-11.9616
贈本官加	-11.9616
批	-11.9616
腮	-11.9617
柢	-11.9617
輓	-11.9617
郜	-11.9617
河南洛陽人也	-11.9617
言告言歸	-11.9617
涙	-11.9617
灣	-11.9618
漢鄒陽傳	-11.9618
進爵為公	-11.9618
斯所未喻	-11.9618
腊	-11.9619
晉羊祜傳	-11.9619
眀	-11.9619
崱	-11.9619
砂	-11.9619
【	-11.962
周靈王太子	-11.962
因人成事	-11.962
装	-11.962
刎	-11.9621
煢煢	-11.9621
崗	-11.9621
㕛	-11.9621
孩	-11.9622
胡僧祐	-11.9622
餽	-11.9622
簉	-11.9622
注見前篇	-11.9622
平西將軍	-11.9623
瘦	-11.9624
睡	-11.9624
左太沖	-11.9624
罏	-11.9625
縣開國伯	-11.9625
澣	-11.9626
踆	-11.9626
菩	-11.9626
大軍東討	-11.9626
燻	-11.9626
麕	-11.9627
李周翰曰	-11.9627
金墉城	-11.9627
䜛	-11.9628
郈	-11.9628
㮰	-11.9628
瀑	-11.9628
浙	-11.9629
僰	-11.9629
澳	-11.963
漢溝洫志	-11.963
綆	-11.963
醒	-11.963
漢書樂志曰	-11.9632
筰	-11.9632
鄶	-11.9632
傳燈録	-11.9634
報寄洛州	-11.9634
侯伯子男	-11.9635
燄燄	-11.9635
光輔五君	-11.9635
氅	-11.9636
漢衛青傳	-11.9636
璘	-11.9637
泓	-11.9638
瘼	-11.9639
覓	-11.964
繐	-11.9646
栝	-11.9647
雉朝飛	-11.9648
鴦	-11.9652
魏廢帝三年改	-11.966
州後周改	-11.9724
大統元年	-12.0045
攓	-12.0965
禔	-12.0983
諍	-12.0986
陳魏宋楚之間	-12.0987
軔	-12.0988
瀰	-12.0991
䨇	-12.0992
噍	-12.0992
噱	-12.0992
譁	-12.0994
嘒	-12.0994
綦	-12.0995
枸	-12.0997
捎	-12.0998
牡	-12.0998
䣛	-12.1
愁霖賦	-12.1
廸	-12.1
習習谷風	-12.1001
親九族	-12.1001
犴	-12.1002
也東齊海岱之間曰	-12.1003
荏	-12.1004
蟪	-12.1004
人之云亡	-12.1004
寄以名相	-12.1004
慊	-12.1005
遟	-12.1005
孳	-12.1006
纚	-12.1006
攣	-12.1007
襤	-12.1008
瀬	-12.1009
踔	-12.1009
娠	-12.101
厖	-12.1011
飱	-12.1011
惆	-12.1011
雩祭大饗	-12.1011
罘	-12.1012
撿	-12.1012
􁂍	-12.1013
虫	-12.1013
阬	-12.1013
逗	-12.1013
媪	-12.1013
崿	-12.1013
捃	-12.1014
泡	-12.1014
貞陽侯明	-12.1014
轤	-12.1014
棋	-12.1014
筞	-12.1014
𣏌	-12.1015
牛頭栴檀	-12.1015
﨑	-12.1015
妾薄命	-12.1016
五時迎氣	-12.1016
悁	-12.1017
寒蟬鳴	-12.1017
周太祖紀魏廢帝三	-12.1017
殱	-12.1017
淬	-12.1017
撩	-12.1018
祲	-12.1018
窕	-12.1018
刖	-12.1019
太子中庶子	-12.1019
搥	-12.1019
劌	-12.1019
燐	-12.1019
􁅃	-12.1019
贓	-12.1019
莫之與京	-12.102
韞	-12.102
阮嗣宗	-12.1021
蘄	-12.1021
彬彬	-12.1022
硎	-12.1022
髩	-12.1022
倐	-12.1022
含樞紐	-12.1022
緤	-12.1022
臣愚以為	-12.1022
筥	-12.1023
薌	-12.1023
娉	-12.1023
醫無閭	-12.1024
蹠	-12.1024
眥	-12.1024
圄	-12.1024
璇璣圖詩讀法	-12.1025
岳字安仁	-12.1025
隋開皇元年	-12.1025
窀穸	-12.1025
蹌	-12.1025
聘於西魏	-12.1025
張協七命	-12.1025
絙	-12.1025
蛻	-12.1025
蒞	-12.1026
鴞	-12.1026
矝	-12.1026
芮	-12.1026
􁁉	-12.1027
盭	-12.1027
𡵨	-12.1027
擣	-12.1027
探雀鷇	-12.1027
郴	-12.1027
夹	-12.1027
窳	-12.1027
春秋合誠圖	-12.1028
昕	-12.1028
㪚	-12.1028
騾	-12.1028
隩	-12.1028
齊師其遁	-12.1028
鯀	-12.1028
狸	-12.1029
辤	-12.1029
二昭二穆	-12.1029
洧	-12.1029
吃	-12.103
玳瑁	-12.103
堞	-12.103
乾鑿度	-12.1031
訏	-12.1031
陳公子完	-12.1031
慇	-12.1031
穆天子傳曰天子	-12.1031
澈	-12.1031
嶄	-12.1031
楼	-12.1031
瀕	-12.1031
蕘	-12.1031
泌	-12.1031
輀	-12.1031
倖	-12.1032
匍匐	-12.1032
子子孫孫	-12.1032
周書列傳曰	-12.1032
畚	-12.1032
糒	-12.1033
灧	-12.1033
唶	-12.1033
嵒	-12.1033
馺	-12.1033
躊躇	-12.1033
鏟	-12.1034
􁆡	-12.1034
呑	-12.1034
凈	-12.1034
凑	-12.1034
張孟談	-12.1034
腓	-12.1034
貰	-12.1035
喜霽賦	-12.1036
㨿	-12.1036
姥	-12.1036
埏	-12.1036
謝惠連	-12.1037
棫	-12.1037
歃	-12.1037
欽定四庫全書徐孝穆集箋注巻	-12.1037
姣	-12.1037
勰	-12.1037
榹	-12.1038
愾	-12.1038
忘俗忘真	-12.1038
大藏一覽	-12.1039
汲冢周書	-12.1039
嶲	-12.1039
崢	-12.1039
酹	-12.104
禊	-12.104
㢠	-12.104
諤	-12.104
尫	-12.104
賫	-12.104
將作大匠	-12.104
醖	-12.104
鎖	-12.104
漢酷吏傳	-12.1041
纉	-12.1041
王充論衡	-12.1041
西北一候	-12.1041
𢎞二教	-12.1042
胝	-12.1042
塍	-12.1042
戹	-12.1042
𬞞	-12.1042
仲虺之誥	-12.1042
幬	-12.1043
擎	-12.1043
㓙	-12.1043
䌫	-12.1043
轊	-12.1043
盱	-12.1044
漢外戚傳	-12.1044
郁久閭	-12.1044
樓炭經	-12.1044
辨亡論	-12.1044
寰宇記	-12.1045
贇	-12.1045
漢蔡邕撰	-12.1046
武成初進封	-12.1046
蒹	-12.1046
鵀	-12.1046
玉臺新咏	-12.1046
瑇瑁	-12.1046
楊惲報孫㑹宗書	-12.1046
檠	-12.1046
椘	-12.1046
郫	-12.1046
肸	-12.1047
惴	-12.1047
覘	-12.1048
攡	-12.1048
鬷	-12.1048
南正重司天	-12.1048
匄	-12.1049
霾	-12.1049
畀	-12.1049
劉熙釋名	-12.1049
紋	-12.1049
朓	-12.105
禺	-12.1051
吕延濟曰	-12.1051
淯	-12.1051
絰	-12.1052
縦	-12.1052
獫	-12.1052
舋	-12.1052
後漢明帝紀	-12.1052
笞	-12.1052
書百官公卿表	-12.1052
河圖括地象	-12.1052
郡注梁置	-12.1053
漢儒林傳	-12.1053
漢東方朔傳	-12.1054
枰	-12.1054
優波提舍	-12.1054
謔	-12.1054
三槐三公位焉	-12.1055
讟	-12.1055
鷇	-12.1055
氏次兄	-12.1055
轓	-12.1056
劉勰新論	-12.1057
博陵郡	-12.1057
嫠	-12.1057
嗷	-12.1058
盛𢎞之荆州	-12.1058
門有車馬客	-12.1058
張衡思𤣥賦	-12.1059
嚬	-12.1059
襚	-12.1059
愿	-12.106
郭璞遊仙詩	-12.1061
悌	-12.1061
兠鍪	-12.1061
灃	-12.1063
掞	-12.1064
岩	-12.1064
主父偃	-12.1065
蟣	-12.1066
楣	-12.1066
脈	-12.1067
衒	-12.1068
車軸折	-12.1068
捉	-12.1069
蘧伯玉	-12.1069
蚖	-12.1071
穟	-12.1079
歌以言之	-12.1079
鄱	-12.2605
虓	-12.262
南楚江湘之間	-12.2641
釗	-12.2642
秋菊有佳色	-12.2643
臣邕頓首死罪	-12.2643
蜉	-12.2645
感我情悲	-12.2645
梁蕭統撰	-12.2647
碩人其頎	-12.2652
瀏	-12.2653
獯	-12.2654
鰓	-12.2656
鉗	-12.2656
圎	-12.2658
掣	-12.2658
則其救也	-12.266
垤	-12.2661
􁌌	-12.2661
臊	-12.2662
涅	-12.2663
生法為體	-12.2663
沇	-12.2663
廽	-12.2663
挐	-12.2663
軺	-12.2665
一章八句	-12.2665
嚢	-12.2666
禮記明堂位	-12.2667
南冠而縶	-12.2667
遄	-12.2668
蹟	-12.2668
沁	-12.2669
釜	-12.2669
繋	-12.267
拑	-12.2671
岌	-12.2671
漭	-12.2671
乱	-12.2674
瓿	-12.2674
綣	-12.2674
絀	-12.2674
藎	-12.2675
公拜稽首	-12.2675
繾	-12.2675
􁖖	-12.2675
螳	-12.2676
倣	-12.2676
糺	-12.2676
攺	-12.2676
龢	-12.2676
怨義興理	-12.2677
佉	-12.2678
聖人之大寳曰位	-12.2678
六首合原讀	-12.2678
餼	-12.2679
楮	-12.2679
倮	-12.268
懃	-12.268
需	-12.268
史記龜䇿傳	-12.268
迁	-12.2681
􁂋	-12.2681
鰥	-12.2681
慴	-12.2681
薈	-12.2682
噏	-12.2682
蘇作興感昭恨神	-12.2682
沭	-12.2682
軍府見鍾儀	-12.2682
掃地而祭	-12.2682
繚	-12.2682
擠	-12.2683
甿	-12.2683
霹	-12.2683
靂	-12.2683
䡖	-12.2683
意降居若水	-12.2684
皖	-12.2684
餔	-12.2684
薆	-12.2684
熳	-12.2684
属	-12.2684
嫣	-12.2684
噫	-12.2684
𧖟	-12.2684
鍚	-12.2685
蔀	-12.2685
亰	-12.2685
薜	-12.2685
攫	-12.2686
秃	-12.2686
閴	-12.2686
始終曜觀華繁殷	-12.2686
檉	-12.2686
夣	-12.2687
若水降居	-12.2687
搶	-12.2687
酈元注	-12.2687
夤	-12.2687
袠	-12.2687
孔北海集	-12.2688
月辛亥	-12.2688
紲	-12.2689
隍	-12.2689
琹	-12.2689
荄	-12.2689
謝宣城詩集巻第	-12.2689
蛭	-12.2689
蜒	-12.269
僃	-12.269
鷯	-12.269
勍	-12.269
蹐	-12.2691
柔逺能邇	-12.2691
磔	-12.2691
份	-12.2691
范蔚宗	-12.2691
櫜	-12.2691
蜯	-12.2692
陕	-12.2692
勌	-12.2692
邐	-12.2692
嵸	-12.2692
鯢	-12.2692
揣	-12.2692
縲	-12.2692
掬	-12.2692
慾	-12.2693
蜓	-12.2693
傃	-12.2693
緺	-12.2693
畨	-12.2693
云先世避秦	-12.2694
欽定四庫全書揚子雲集巻	-12.2694
漢揚雄撰明鄭樸編	-12.2694
之乎玄微子曰予	-12.2694
忩	-12.2694
梁江淹撰	-12.2694
裸	-12.2694
蕖	-12.2694
唁	-12.2694
蕣	-12.2695
武王克商	-12.2695
搦	-12.2695
生榮死哀	-12.2695
蘅	-12.2695
通㣲大夫曰	-12.2695
蛛	-12.2696
張衡靈憲	-12.2696
糅	-12.2696
帽	-12.2696
渟	-12.2696
崇牙樹羽	-12.2697
天地之大徳曰生	-12.2697
㠶	-12.2697
壼	-12.2697
欽定四庫全書蔡中郎集巻	-12.2697
炮	-12.2697
禆	-12.2697
佛本行經	-12.2697
瘴	-12.2698
瘥	-12.2698
阨	-12.2698
筌	-12.2698
澌	-12.2698
罸	-12.2698
昩	-12.2698
螂	-12.2698
魏人戕帝	-12.2698
絫	-12.2698
􁃛	-12.2699
肘	-12.2699
躐	-12.2699
醅	-12.2699
祑	-12.2699
贔	-12.2699
俚	-12.2699
瞋	-12.2699
蹹	-12.27
爨	-12.27
纛	-12.27
為車騎大將軍儀同三司	-12.27
愕	-12.27
酧	-12.27
臧榮緒晉書	-12.2701
千六百軸	-12.2701
惜而不遣	-12.2701
鱠	-12.2701
三輔决録	-12.2701
澨	-12.2701
矇	-12.2701
砭	-12.2702
雘	-12.2702
僝	-12.2702
磾	-12.2702
鬐	-12.2702
武帝太初元年	-12.2702
襞	-12.2702
妲	-12.2702
渫	-12.2702
奉表以聞	-12.2703
屮	-12.2703
薳	-12.2703
邅	-12.2703
槥	-12.2703
鈕	-12.2703
艤	-12.2703
啁	-12.2704
畊	-12.2704
崟	-12.2704
孱	-12.2704
聫	-12.2704
㟧	-12.2704
炕	-12.2704
甬	-12.2704
洙	-12.2705
牗	-12.2705
辝	-12.2705
繅	-12.2705
不封不樹	-12.2705
淝	-12.2706
晳	-12.2706
晁	-12.2706
璨	-12.2706
衎	-12.2706
跛	-12.2707
樟	-12.2707
恍	-12.2707
諐	-12.2707
虱	-12.2707
渰	-12.2708
殳	-12.2708
焯	-12.2708
彖	-12.2708
孝閔帝踐阼	-12.2708
翌	-12.2708
怊	-12.2708
𫐠	-12.2708
劉敬叔異苑	-12.2708
西楚霸王	-12.2708
干寳捜神記曰	-12.2709
朏	-12.2709
周禮天官冢宰	-12.2709
庖犧氏	-12.2709
㢲	-12.2709
汝南先賢傳	-12.2709
襍	-12.2709
摐	-12.2709
謂之八元此十六族	-12.2709
轄	-12.2709
生甫及申	-12.2709
曈	-12.2709
張仲蔚	-12.2709
瘤	-12.271
揚子法言	-12.271
聃	-12.271
逅	-12.271
北荆州後周	-12.271
律師住持感應	-12.2711
公叔文子	-12.2711
都督宜州諸軍事宜州刺史	-12.2712
谷静山空	-12.2712
長安有狹邪	-12.2712
清酒漿炙柰樂何清酒漿炙柰樂何	-12.2712
倢	-12.2713
駝	-12.2713
邽	-12.2713
錞	-12.2713
􁖠	-12.2714
封定逺侯	-12.2714
椅	-12.2714
彎	-12.2714
綟	-12.2716
型	-12.2716
俴	-12.2716
牷	-12.2716
塡	-12.2717
宣貴妃誄	-12.2717
進象經賦表	-12.2717
明允篤誠	-12.2717
顱	-12.2717
綃	-12.2717
逑	-12.2717
㰱	-12.2717
奄捐館	-12.2717
䲭	-12.2717
悞	-12.2718
阽	-12.2718
竆	-12.2718
足為連類	-12.2718
三星在户	-12.2718
楚實秦亡	-12.2718
漢書鄒陽	-12.2718
鈞天廣樂	-12.2718
餚	-12.2718
勣	-12.2718
西部都尉治	-12.2718
鬛	-12.2719
緱	-12.2719
梁故豐徙	-12.2719
蝨	-12.272
周尚書𢎞正	-12.272
秦客難曰	-12.272
塗山執玉帛者萬國	-12.272
八世祖滔	-12.272
楚熊渠子	-12.2721
費長房	-12.2721
簺	-12.2721
瞬	-12.2721
鐲	-12.2722
姆	-12.2722
和宇文内史	-12.2722
歜	-12.2722
弹	-12.2723
醑	-12.2724
刄	-12.2724
後漢書輿服志曰	-12.2724
雰	-12.2724
湟	-12.2724
夾河為郡	-12.2725
鳥師而鳥名	-12.2726
世濟其美	-12.2726
保姓受氏	-12.2727
彯	-12.2727
爇	-12.2728
遭家不造	-12.2731
徠	-12.2731
彌陀疏抄	-12.2732
維嶽降神	-12.2732
拄	-12.2732
祏	-12.2732
紼	-12.2733
班彪王命論	-12.2734
鶂	-12.2736
莵	-12.2736
㻞	-12.2738
孟甞君	-12.2738
多識舊章	-12.2739
毻	-12.274
潏	-12.2741
五張寺碑	-12.2744
皜	-12.2744
南史王僧辯傳	-12.2751
滮	-12.2756
珈	-12.2756
淵重涯經網羅林	-12.3216
蝥	-12.4616
䤨	-12.4618
鐮	-12.4624
獪	-12.4637
軑	-12.4639
橿	-12.4646
欽定四庫全書昭明太子集巻	-12.4646
輆	-12.4646
韯	-12.4646
傺	-12.4652
洌	-12.4654
剗	-12.4654
啟臣某啟	-12.4656
釭	-12.4658
耇	-12.4658
畯	-12.4658
缶	-12.4659
礲	-12.466
蔆	-12.466
剔	-12.4662
怩	-12.4663
窹	-12.4664
鈐	-12.4664
以其君冠賜	-12.4664
忼	-12.4664
豝	-12.4664
月闕其博	-12.4665
飫	-12.4665
裺	-12.4665
嵇中散集卷第	-12.4665
臏	-12.4666
雲頓首頓首	-12.4666
朦	-12.4666
宅無吉凶攝生論一首	-12.4667
慺	-12.4667
鑁	-12.4668
同聲相追	-12.4668
眙	-12.4668
養生論一首	-12.467
熬	-12.467
窴	-12.4671
㩣	-12.4671
一章七句	-12.4671
逴	-12.4671
誑	-12.4671
姉	-12.4671
腯	-12.4672
屡	-12.4673
媾	-12.4673
睽	-12.4673
饘	-12.4673
四言四句二首	-12.4673
北燕朝鮮之間謂之	-12.4674
繘	-12.4674
曕	-12.4674
臝	-12.4674
蘢	-12.4674
儆	-12.4674
戅	-12.4675
娃	-12.4675
曯	-12.4675
踪	-12.4675
梁禪陳詔	-12.4676
术	-12.4676
厲節中闈	-12.4677
曁	-12.4677
氏辭懐感戚知麟	-12.4677
詩興感逺殊浮沈	-12.4677
者莫辯乎	-12.4677
邳	-12.4678
瓮	-12.4678
舉賢良方正	-12.4678
矍	-12.4678
耆闍崛山	-12.4678
昆侖旁薄	-12.4679
燕之東北朝鮮洌水之間謂之	-12.4679
在國陽七里之郊	-12.4679
䦧	-12.468
梁江文通文集卷第	-12.468
圖怨念為懐如林	-12.468
平端寃是何懐身	-12.468
杞梓皮革	-12.468
透	-12.468
劃	-12.4681
風師雨師	-12.4681
佻	-12.4681
沆	-12.4682
璣明别改知識深	-12.4682
貯	-12.4682
悙	-12.4683
鈆	-12.4683
煨	-12.4683
葐	-12.4683
姱	-12.4683
受終文祖	-12.4683
堆	-12.4684
蘺	-12.4684
匭	-12.4685
草木蟲魚疏	-12.4685
頹	-12.4685
湝	-12.4685
娼	-12.4685
扳	-12.4685
承制除御史中丞	-12.4685
苧	-12.4685
崎	-12.4686
萏	-12.4686
節八音而行八風	-12.4686
􁔛	-12.4686
萇	-12.4687
優婆夷	-12.4687
噤	-12.4687
赬	-12.4687
擘	-12.4687
駃	-12.4687
貞陽侯蕭明	-12.4687
華亭鶴唳	-12.4687
吮	-12.4687
頏	-12.4688
民不忍欺	-12.4688
甜	-12.4688
岑幽巖峻嵯峨	-12.4688
􁊿	-12.4689
召伯甘棠	-12.4689
顇	-12.4689
繁華觀曜終始心	-12.4689
朅	-12.4689
彂	-12.4689
為郢州别駕	-12.4689
芹	-12.469
揜	-12.469
波斯匿王	-12.469
蘪	-12.469
棁	-12.469
蟾	-12.469
璪	-12.469
􁂦	-12.469
擿	-12.4691
選賢與能	-12.4691
掎	-12.4691
嵎	-12.4691
文君夜亡奔相如	-12.4691
夲	-12.4691
河千年一清	-12.4691
伉	-12.4692
粳	-12.4692
軋	-12.4692
縻	-12.4693
葹	-12.4693
周風興自后妃	-12.4693
棿	-12.4693
蒼頡篇曰	-12.4693
攷	-12.4694
懟	-12.4694
訢	-12.4694
至霸上秦王子嬰	-12.4694
萑	-12.4694
三令五申	-12.4694
周庾信撰錢塘倪璠纂註	-12.4694
流干青雲而直上語時事則指而可想論	-12.4694
瀦	-12.4695
睛	-12.4695
迸	-12.4695
侶	-12.4695
坰	-12.4695
褏	-12.4695
長歎不能奮飛	-12.4695
腆	-12.4696
閡	-12.4696
妊	-12.4696
摇	-12.4696
之妙也子能從我而	-12.4696
屆	-12.4696
鳦	-12.4696
褎	-12.4696
奘	-12.4696
抱則曠而且	-12.4696
史記五帝本紀	-12.4696
掉	-12.4697
芡	-12.4697
址	-12.4697
嵆	-12.4697
檮	-12.4697
閹	-12.4697
磚	-12.4697
陵陽子明經	-12.4698
嬈	-12.4698
將文昌中星名	-12.4698
悮	-12.4698
附増第三圖	-12.4698
剸	-12.4699
比作麗辭	-12.4699
宋玉高唐賦	-12.4699
晉書職官志	-12.4699
捽	-12.4699
粥	-12.4699
蕭合馨香	-12.4699
膰	-12.47
衽	-12.47
髏	-12.47
主萃淵藪	-12.47
珣	-12.47
陸劌鄴中記	-12.4701
㤙	-12.4701
挍	-12.4701
撒	-12.4701
此亦寡人之	-12.4701
設壇場	-12.4701
些	-12.4701
汶陽之田	-12.4702
酉陽雜爼	-12.4702
桑欽水經曰	-12.4702
漚	-12.4702
晋陽秋曰	-12.4702
穸	-12.4702
㬰	-12.4702
地上之圜丘奏之	-12.4703
朧	-12.4703
司馬遷報任安	-12.4703
瀉	-12.4703
噓	-12.4703
採菊東籬下悠然見南山	-12.4703
診	-12.4703
鎌	-12.4703
遏寇虐	-12.4703
周禮職方氏	-12.4704
混一車書	-12.4704
待罪江南思北歸賦	-12.4704
鱉	-12.4704
餳	-12.4704
坯	-12.4704
窌	-12.4704
暹	-12.4705
麈	-12.4705
暦	-12.4705
是所甘心	-12.4705
咒	-12.4705
去復去兮長河湄	-12.4705
沗	-12.4705
簸	-12.4705
賾	-12.4705
體國經野	-12.4705
娩	-12.4705
舊新蘇作之	-12.4705
芍	-12.4705
𤣥鳥氏司分者	-12.4705
傳車驂駕垂赤帷裳	-12.4706
宕昌羌	-12.4706
橦	-12.4706
軷	-12.4706
移齊河陽執事	-12.4706
假道於虞以伐虢	-12.4706
唏	-12.4706
戟	-12.4706
燬	-12.4706
周書趙王招傳云	-12.4706
毁廟之主	-12.4706
数	-12.4707
木華海賦	-12.4707
怍	-12.4707
潘岳秋興賦序	-12.4707
詳和張侍	-12.4707
茀	-12.4707
年授車騎大將軍儀同三司	-12.4708
悒	-12.4708
輴	-12.4709
茘	-12.4709
章懐太子注	-12.4709
棓	-12.4709
蠒	-12.4709
申公巫臣	-12.4709
嫩	-12.4709
膜	-12.4709
寖	-12.471
通帛為旃	-12.471
洏	-12.471
橑	-12.471
汴	-12.4711
闠	-12.4711
淮沂其乂	-12.4711
堇	-12.4711
甯	-12.4711
鸚	-12.4711
縌	-12.4711
猖	-12.4711
癯	-12.4711
涔陽兮極浦	-12.4712
水又東逕	-12.4712
塾	-12.4712
琇	-12.4712
狭	-12.4712
昊天有成命	-12.4712
挟	-12.4712
窠	-12.4712
姙	-12.4712
南康王㑹理	-12.4713
憾	-12.4713
筈	-12.4713
瞶	-12.4713
栒	-12.4713
汝南王大封	-12.4714
孝感所致	-12.4714
巇	-12.4714
竢	-12.4714
阹	-12.4714
襆	-12.4715
滓	-12.4715
焰	-12.4715
凟	-12.4715
如千丈松	-12.4715
堊	-12.4716
豊	-12.4716
綷	-12.4716
粮	-12.4716
履之必有悽愴之	-12.4717
枕戈待旦	-12.4717
虞兮奈若何	-12.4717
蘊	-12.4717
謝恵連雪賦	-12.4717
婦言婦容婦功	-12.4717
鏁	-12.4717
郎中令臣雲言	-12.4718
嵇叔夜琴賦	-12.4718
蓿	-12.4718
葉葉自相當	-12.4718
轉之丹服之	-12.4718
冀馬雲屯	-12.4719
潘岳寡婦賦	-12.4719
亦猶是矣	-12.4719
苜	-12.4719
洿	-12.4719
煞	-12.4719
星從其位類為	-12.4719
隃	-12.4719
憔	-12.472
窶	-12.472
桓寛鹽鐵論	-12.472
捭	-12.472
史記刺客傳	-12.472
榮光出河休氣四塞	-12.472
糠	-12.472
臣邕頓首頓首	-12.472
䄖	-12.472
蹴	-12.472
酅	-12.472
矅	-12.4721
孤子徐陵頓首	-12.4721
倬	-12.4721
哢	-12.4721
頰	-12.4721
侟	-12.4722
籖	-12.4722
遝	-12.4723
巛	-12.4723
殛	-12.4723
李陵答蘇武	-12.4723
舡	-12.4723
徉	-12.4723
漼	-12.4724
珂	-12.4724
士者淮南小山之所作也	-12.4724
屎	-12.4724
疽	-12.4724
銅駝街	-12.4724
扈氏農正趣民	-12.4725
緄	-12.4726
伐其條枚	-12.4726
綢	-12.4726
俶	-12.4727
穽	-12.4728
蓊	-12.4728
叠	-12.4728
箎	-12.4728
茄	-12.4728
鋏	-12.4729
悛	-12.4729
潞	-12.4729
與李那書	-12.4729
析羽為旌	-12.473
肱字伯淮	-12.4731
妥	-12.4731
守丹竈而不顧	-12.4732
後漢方術傳	-12.4732
紀侯大去	-12.4732
初與郡守為銅虎符竹使	-12.4732
痕	-12.4732
䔩	-12.4733
匯	-12.4733
周書異域傳	-12.4733
後漢循吏傳	-12.4734
海錄碎事	-12.4734
灂	-12.4734
疢	-12.4735
揚雄羽獵賦	-12.4735
雊	-12.4738
秬	-12.4738
鯤	-12.4738
䤋	-12.4738
爥	-12.4738
河如帶泰	-12.4738
䰞	-12.4739
郍	-12.4739
叱羅協	-12.474
鰩	-12.4741
窋	-12.4741
迆	-12.4741
硤	-12.4742
漢游俠傳	-12.4743
邏	-12.4744
菹	-12.4751
潘岳闗中記	-12.4751
騭	-12.4754
邰	-12.4764
杶	-12.4768
虙	-12.4771
鐙	-12.4772
智懐徳聖虞唐真	-12.5301
躆	-12.7055
蟧	-12.7077
北燕朝鮮洌水之間	-12.7096
逭	-12.711
瓏	-12.7123
蜋	-12.7124
玲	-12.7125
簍	-12.7128
芉	-12.713
愮	-12.7135
弸	-12.7136
令㫖又答	-12.7138
翛	-12.7141
宄	-12.7142
猝	-12.7142
贈白馬王彪	-12.7143
盬	-12.7145
蜍	-12.7145
蛡	-12.7145
齦	-12.7146
膊	-12.7146
鴠	-12.7146
螗	-12.7147
缻	-12.7147
燕之外郊朝鮮洌水之間	-12.7148
㠋	-12.715
自然好學論一首	-12.715
窒	-12.7154
􁋉	-12.7156
駍	-12.7157
􁤽	-12.7157
玃	-12.7159
趍	-12.7159
撻	-12.716
癢	-12.716
㬥	-12.716
濜	-12.7163
晠	-12.7163
奉宣勅㫖垂	-12.7163
姡	-12.7164
鮐	-12.7164
鍇	-12.7165
鷕	-12.7165
媱	-12.7165
移風易俗莫善於樂	-12.7167
芾	-12.7167
錘	-12.7167
愄	-12.7167
􁋊	-12.7168
鄖	-12.7168
之曰此常山蛇勢	-12.7168
脾	-12.7168
禅	-12.7168
勺	-12.7168
𤯝	-12.7168
狖	-12.7168
簙	-12.7168
襪	-12.7169
中有渝水其人多居水左右天性	-12.717
暐	-12.717
疹	-12.717
臞	-12.717
荑	-12.717
門成鄒魯	-12.7171
債	-12.7171
􁄂	-12.7171
飪	-12.7172
勒功紀漢威	-12.7172
楂	-12.7172
澶	-12.7172
戞	-12.7172
桎	-12.7174
荐	-12.7174
十六首共六十四首合原讀	-12.7174
壃	-12.7174
蘚	-12.7174
年過五十少而窮苦毎以家弊東西游走	-12.7174
隣靡二仲室無萊婦抱兹苦心良獨内愧	-12.7174
螾	-12.7175
緻	-12.7175
砰	-12.7175
砌	-12.7175
塞庫羈文王	-12.7175
梏	-12.7175
刓	-12.7175
嚌	-12.7175
尭	-12.7175
忸	-12.7175
痺	-12.7175
傷慘懐慕増憂心	-12.7175
南鄭歌商流徴殷	-12.7175
邸閣儲峙	-12.7176
袊	-12.7176
胹	-12.7177
傕	-12.7177
蹂	-12.7177
隟	-12.7177
蒺	-12.7177
狠	-12.7177
慓	-12.7177
歧	-12.7178
譌	-12.7178
葛常之韻語陽秋	-12.7178
攙	-12.7178
惏	-12.7179
穣	-12.7179
鼐	-12.7179
𤏡	-12.7179
惝	-12.718
為世範行為士則	-12.718
翿	-12.7181
酋酋之包	-12.7181
悪	-12.7181
韭	-12.7181
冋	-12.7181
鰕	-12.7181
淼	-12.7181
讓太傅楊州牧表	-12.7181
扇上綵畫賦	-12.7181
盡而繼之以血	-12.7181
轢	-12.7181
鑴	-12.7181
鄱陽忠烈王	-12.7181
墐	-12.7181
鬂	-12.7181
蓧	-12.7182
識知改别明璣心	-12.7182
佟	-12.7182
有罪不逃刑	-12.7183
􁈯	-12.7183
合歡扇團團似明月	-12.7183
􁠨	-12.7183
佩長洲之茂苑	-12.7183
挻	-12.7183
咺	-12.7184
扎	-12.7184
三千七百五十二首	-12.7184
能佩六國相印乎	-12.7184
營軍梁溠蒐乗巴渝	-12.7184
胤	-12.7184
鮮美落英繽紛	-12.7184
袈	-12.7184
後為東方朔所識	-12.7185
睂	-12.7185
孫必復其始	-12.7185
趺	-12.7185
瀴	-12.7185
五斗米折腰	-12.7185
四首合原讀	-12.7185
嬛	-12.7185
泒	-12.7185
諸淫昏之鬼	-12.7185
惘	-12.7186
澍	-12.7186
蒍	-12.7186
鼯	-12.7186
志篤終誓穹蒼	-12.7186
燁	-12.7186
移虜留使文	-12.7186
髳	-12.7186
臉	-12.7187
萬四千由旬	-12.7187
懹	-12.7187
蚕	-12.7187
解稱其月二十	-12.7187
接翮夕輒偶影	-12.7187
奎	-12.7188
楗	-12.7188
㣧	-12.7188
暧	-12.7188
跌宕昭彰獨超衆類抑揚爽	-12.7188
崒	-12.7188
畫之為山雲之形	-12.7188
諸葛亮造八陣	-12.7188
之祭配天帝	-12.7189
慷	-12.7189
翺	-12.7189
砮	-12.7189
槪	-12.7189
淙	-12.7189
真加以貞志不休安道苦節不以躬耕	-12.7189
唼	-12.7189
堣	-12.7189
㤯	-12.7189
宋魏陳楚江淮之間謂之	-12.7189
左傳臧僖伯曰	-12.7189
左旋讀得詩八首	-12.7189
昔高陽氏有才子八人	-12.7189
皇帝初獻配帝奏舞一配帝謂	-12.7189
繫於苞桑	-12.7189
声	-12.719
脣亡齒寒	-12.719
奄冉而就過	-12.719
懋懋官功懋懋賞	-12.719
梁書本紀曰帝諱	-12.719
玉府若合諸侯	-12.719
覬	-12.719
設重雲之講	-12.719
也逺方圖物貢	-12.719
九牧鑄鼎象物	-12.719
鑽	-12.719
覉	-12.719
剞	-12.719
塸	-12.719
痁	-12.719
掌禮移次	-12.719
服一刀圭百日仙也	-12.719
眂	-12.719
鴸	-12.719
華旦復旦兮	-12.7191
鎰	-12.7191
▁月令云其帝	-12.7191
崔鴻十六國春秋	-12.7191
梲	-12.7191
詩家視淵明猶孔門視伯夷也	-12.7191
跕	-12.7191
靚	-12.7191
和趙王送峽中軍	-12.7192
甲觀畫堂	-12.7192
斮	-12.7192
𥜗	-12.7192
蓀	-12.7192
靃	-12.7192
痊	-12.7192
走馬長楸間	-12.7192
去留環堵蕭然不蔽風日短褐穿結簞瓢	-12.7192
廌	-12.7192
楊泉物理論	-12.7192
既官政而離逷	-12.7192
榥	-12.7193
性嗜酒家貧不能常得親舊	-12.7193
華陽西極漢水東流	-12.7193
樂用黃鐘大吕之等人帝	-12.7193
狙	-12.7193
西豐公大春	-12.7193
纏	-12.7193
周禮雲門之舞以祀	-12.7193
嵯	-12.7193
纜	-12.7193
顦	-12.7193
楬	-12.7193
周禮挈壺氏	-12.7193
既病免家居茂陵	-12.7193
壈	-12.7193
徴流商歌鄭南音	-12.7193
揉	-12.7193
月角星眉	-12.7193
馗	-12.7193
冑	-12.7194
寞	-12.7194
月中送我出逺郊	-12.7194
復𢎞農戰沙苑	-12.7194
繄	-12.7194
釋氏要覽梵	-12.7195
初懿氏卜妻敬仲	-12.7195
蓁	-12.7195
莊子曰鵬之背不	-12.7195
隴頭流水分離四下	-12.7195
觝	-12.7195
鋌	-12.7195
衆仲曰官有世功	-12.7195
芷	-12.7195
芭	-12.7195
擺	-12.7195
若雲非雲郁郁	-12.7196
㒒	-12.7196
桑弧蓬矢	-12.7196
墠	-12.7196
罻	-12.7196
宣慈恵和	-12.7196
遰	-12.7196
韋昭曰三川河伊洛	-12.7196
倂	-12.7196
佳城鬱鬱三千年見白日吁嗟滕	-12.7196
允釐百工	-12.7196
天道幽且逺鬼神茫昧然	-12.7196
邴	-12.7197
螿	-12.7197
鯷	-12.7197
園公綺里季	-12.7197
尠	-12.7197
偹	-12.7197
眸	-12.7197
魋	-12.7197
生入玉門闗	-12.7197
􁑾	-12.7197
正頼古人書	-12.7197
郁郁乎文	-12.7197
琁	-12.7197
禖	-12.7197
建章宫度為千門萬户	-12.7198
欲以十五城易趙王和氏璧	-12.7198
箭之有筠也	-12.7198
迄用康年	-12.7198
楩	-12.7198
劉僕射東山集	-12.7198
獮	-12.7198
坐拭圭鄭	-12.7198
千年見白日吁	-12.7199
丧	-12.7199
僛	-12.7199
鮫	-12.7199
堅不祀忽諸	-12.7199
魚豢典畧	-12.7199
始安王拜征虜將軍	-12.7199
屬大軍南討遂留	-12.7199
柑	-12.7199
東都門外送者車數百	-12.72
屋瓦盡振	-12.72
瑯	-12.72
𤾉	-12.72
美酒斗十千	-12.72
冬至獻襪頌	-12.72
哮	-12.72
𤣥特立一鄉	-12.72
𬎼	-12.72
勒旁鐵也	-12.72
柜	-12.72
醱	-12.72
顰	-12.72
漢楊惲傳	-12.7201
稱族而行尊君	-12.7201
控弦破左的右發摧月支	-12.7201
申包胥如秦乞師立依於	-12.7201
蜐	-12.7201
忳	-12.7201
本無情於鐘	-12.7201
結廬在人境	-12.7201
訥	-12.7202
㴱	-12.7202
屩	-12.7202
謂良曰孺子下取	-12.7202
歌曰運石甘泉口渭水為不流	-12.7202
比之今日豈可同年而語哉	-12.7202
厪	-12.7202
赫連勃勃	-12.7202
任約徐嗣徽	-12.7202
塼	-12.7202
魚中有尺素書	-12.7202
同盧記室從軍	-12.7202
釐坐宣室	-12.7202
箘	-12.7202
於河渭河渭不足北飲大澤未至	-12.7202
鎔	-12.7202
南里之南村	-12.7202
榼	-12.7202
蝑	-12.7203
叟笑而止之	-12.7203
咋	-12.7203
戻	-12.7203
衮職有闕惟	-12.7203
八表同昏平	-12.7203
懅	-12.7203
者有三危之露	-12.7203
試酌百情逺重觴忽忘天天豈	-12.7203
南正司天北正司地	-12.7203
墄	-12.7203
閾	-12.7203
麨	-12.7203
曰今將軍尚不得	-12.7204
月不居時節如流	-12.7204
不能無弦而射	-12.7204
禭	-12.7204
有媯之後將育於姜	-12.7204
鳲	-12.7204
而有文在其手	-12.7204
曰典午忽兮	-12.7205
奓	-12.7205
崕	-12.7205
𤨏	-12.7205
靈光巋然獨存	-12.7205
槊	-12.7206
嚚	-12.7206
雙發歌我袞衣	-12.7206
也一軍皆驚	-12.7206
怒而飛其翼若垂天之雲	-12.7206
武帝元封三年作	-12.7206
轆	-12.7206
官曹案牘未嘗煩	-12.7206
戎馬交馳不妨餘裕	-12.7206
蕋	-12.7206
蚪	-12.7206
諄	-12.7206
逷	-12.7206
卺	-12.7206
蘭成射䇿之年	-12.7207
胼	-12.7207
周禮冬官考工	-12.7207
揃	-12.7207
忽踐秦庭	-12.7207
建河橋於富平津	-12.7207
有役但願桑麻成	-12.7207
筦	-12.7207
籊	-12.7207
命御者褰之百城聞風自然	-12.7207
霣	-12.7208
折若木以拂日	-12.7208
漻	-12.7208
蔟	-12.7208
璿璣玉衡以齊七政	-12.7209
耼	-12.7209
酇	-12.7209
斆	-12.7209
曲赦丹陽等四郡詔	-12.7209
宼	-12.7209
曰求諸侯莫如勤王	-12.721
臍	-12.721
楞	-12.721
主人答曰難云	-12.721
春親氏辭之	-12.721
沈約郊居賦	-12.721
䆒	-12.721
基津圖怨之	-12.721
建平王慶江皇后正位章	-12.721
薏	-12.721
雕蟲篆刻	-12.721
周庾信撰吳江吳兆宜註	-12.721
𦂳	-12.721
柞	-12.7211
張協詠史詩	-12.7211
上絃驚别鶴下絃操孤鸞	-12.7211
氂	-12.7211
兮易水寒壯士一去兮不復還	-12.7211
絪	-12.7211
山若礪國以永存爰及苗裔	-12.7211
東宫舊事太子納妃	-12.7211
廊琴平端之	-12.7211
邢侯之姨	-12.7211
建平王謝賜石硯	-12.7211
倦濁酒聊自適日暮巾柴車路	-12.7211
澀	-12.7212
巓	-12.7212
玆	-12.7212
攖	-12.7212
蠓	-12.7212
犨	-12.7212
李康運命論	-12.7212
龍之害故置戈於船下	-12.7212
蕭驃騎上頓表	-12.7213
遌	-12.7213
礧	-12.7213
淆	-12.7213
袐	-12.7213
别栩陽賦五篇	-12.7213
鄴中記曰石虎	-12.7213
之家必有餘慶	-12.7213
公諱裔字遵𦙍河内溫人也	-12.7213
髙山尋雲深谷無景	-12.7213
薨於私第春秋	-12.7213
論兵於江漢之君	-12.7214
飊	-12.7214
苐	-12.7214
蕭驃騎築新亭壘埋枯	-12.7214
以屬神火正黎司地以屬民	-12.7214
爝	-12.7214
瑛	-12.7214
萬石君奮徙	-12.7214
改為汾州後齊為西汾	-12.7214
曰月穆穆以金波	-12.7214
設官分職	-12.7214
𡑞	-12.7214
𣙜	-12.7214
碭	-12.7214
流淚抱中歎	-12.7215
拭玉於西河之主	-12.7215
啻	-12.7215
剃	-12.7215
民具爾瞻	-12.7215
備乎史籍可	-12.7215
腋	-12.7215
陽二頃之田	-12.7215
有大星曰狼	-12.7215
武庫正直其墓	-12.7215
王良策馬車騎滿野	-12.7215
金如粟不以入懐	-12.7215
平疇交逺風良苗亦懷新	-12.7215
甪	-12.7215
綂	-12.7216
方之今日彼獨何人	-12.7217
㕔	-12.7217
帳頂安金蓮花	-12.7217
㕑	-12.7217
諸葛亮出師表	-12.7217
延年為協律都尉	-12.7217
晢	-12.7217
瑶琨篠簜	-12.7217
屐	-12.7217
枵	-12.7217
煖	-12.7217
四轍中繩	-12.7218
任約謝答仁	-12.7218
相國齊公十郡九錫表	-12.7218
增邑千戸	-12.7218
娑婆世界	-12.7218
大夫墓樹以柏諸侯墳	-12.7218
蓑	-12.7218
噩	-12.7218
嵬	-12.7219
洫	-12.7219
應璩百一詩	-12.7219
易曰含章可貞	-12.722
蹷	-12.722
擒竇泰復𢎞農	-12.722
鼚乎鼓之	-12.722
不有所廢其何以昌	-12.722
琱	-12.722
謖	-12.7221
竄身清漳	-12.7221
與楊德祖書	-12.7221
菩薩處胎經	-12.7221
雲暮為行雨朝朝暮暮陽臺之下	-12.7222
左傳燭之武曰	-12.7222
詔贈某官諡某公禮也	-12.7222
渠移水碓	-12.7222
飇	-12.7222
印背龜紐其文曰章	-12.7222
祖思慶建威將軍山陽太守	-12.7222
籯	-12.7222
飾文杏以為梁	-12.7222
鸛	-12.7222
裼	-12.7222
劬	-12.7223
天造草昧	-12.7224
謝開府辟召表	-12.7224
秦軍射殺趙括	-12.7224
箔	-12.7224
易通卦驗	-12.7224
者品秩第	-12.7224
臺望吾西陵	-12.7224
懆	-12.7225
伴	-12.7225
東闕北闕前殿	-12.7225
狷	-12.7225
索靖草書	-12.7225
礼	-12.7225
騏	-12.7226
王陽所畏道	-12.7226
茸	-12.7226
梁信州刺史蕭韶	-12.7227
踶	-12.7227
皡	-12.7227
𬗋	-12.7228
彀	-12.7228
諂	-12.7228
睞	-12.7228
餗	-12.7228
礌	-12.7228
䀩	-12.7229
仿	-12.7229
塗車芻靈	-12.7229
鄭僑云亡	-12.7229
苹	-12.7229
泲	-12.7229
不膠者卓矣	-12.7231
謝宣城詩集卷第	-12.7231
濬造船於蜀其木柹蔽江	-12.7231
惎	-12.7231
進爵廣饒縣	-12.7231
葳	-12.7232
儺	-12.7232
玉案推食	-12.7232
國語祭公謀父	-12.7233
湛海珍等	-12.7233
皇子封為王者	-12.7233
為猿鶴小人為沙蟲	-12.7233
謹拜表以聞	-12.7233
䴥	-12.7233
于飛其鳴鏘鏘	-12.7233
蕭領軍拜侍中刺史章	-12.7233
􁂳	-12.7233
詒	-12.7233
鸇	-12.7233
臶	-12.7234
嘽	-12.7235
鸎	-12.7235
停車小苑	-12.7235
張璠漢紀	-12.7235
戴凱之竹譜曰	-12.7235
慱	-12.7235
譛	-12.7236
稾	-12.7236
緍	-12.7236
暱	-12.7237
賃	-12.7238
㕍	-12.7238
旛	-12.7238
當春四韻同	-12.7238
澇	-12.7239
絹幼婦外孫	-12.7239
范匄趨進	-12.724
㢤	-12.724
熖	-12.724
謝法曹贈	-12.7242
淊	-12.7242
東原底平	-12.7243
擷	-12.7247
帶二江之雙	-12.7247
挺此含章	-12.7247
售	-12.7249
瑀	-12.7249
鯽	-12.7251
偲	-12.7253
蚣	-12.7256
觔	-12.7257
嵕	-12.7257
又自此而從於	-12.7257
适	-12.7258
䥴	-12.7262
浼	-12.7263
荗	-12.7267
憬	-12.7267
幪	-12.7288
妙顯華重榮章臣賢惟聖配英皇倫	-12.7474
匹離飄浮江湘津	-12.7475
蠾	-13.0364
蛒	-13.0376
蠀	-13.0376
媐	-13.0384
蟒	-13.0384
廞	-13.0395
鼅	-13.0405
蝓	-13.0412
綯	-13.0413
安得猛士兮守四方	-13.042
䰂	-13.0422
鶤	-13.0424
鼷	-13.0432
􁈿	-13.0436
奧	-13.0442
攍	-13.0442
艖	-13.0442
螉	-13.0443
喛	-13.0443
撣	-13.0445
隑	-13.0447
觥	-13.045
橐	-13.0451
迒	-13.0451
洄	-13.0454
湑	-13.0454
蚨	-13.0455
甀	-13.0455
踤	-13.0457
夥	-13.0459
矲	-13.0459
䭒	-13.0463
􁏹	-13.0465
蛆	-13.0466
蚗	-13.0466
磑	-13.0467
朝鮮洌水之間曰	-13.0467
彿	-13.0468
柲	-13.0469
錪	-13.047
娗	-13.047
㑂	-13.0472
廕	-13.0474
欸	-13.0474
繂	-13.0474
飵	-13.0474
攗	-13.0476
劓	-13.0478
箠	-13.048
縰	-13.0482
羂	-13.0482
之靡也焉可謂之義也	-13.0482
僷	-13.0482
甗	-13.0484
哨	-13.0484
嘼	-13.0484
膐	-13.0484
偒	-13.0485
弈	-13.0485
寺慧令諮曰	-13.0486
踳	-13.0486
不廢披書案	-13.0486
梁故觀寧侯蕭永	-13.0487
連茂苑於海陵	-13.0487
㳤	-13.0487
㷭	-13.0487
凌波微歩羅襪生塵	-13.0488
侠	-13.0488
䑋	-13.0488
脰	-13.049
傲東軒下聊復得此生	-13.049
淈	-13.049
無妨坐釣船	-13.049
㛯	-13.049
窽	-13.0491
裊	-13.0492
媠	-13.0492
怱	-13.0492
謾	-13.0492
晉安王國常侍王每徙鎮肩吾常隨府	-13.0493
皇后服再朞戊申祥	-13.0493
紩	-13.0493
鳥不及飛獸不	-13.0493
輵	-13.0493
惙	-13.0493
愀	-13.0493
􁅨	-13.0494
涊	-13.0494
鷟	-13.0494
跨横塘於江	-13.0495
肬	-13.0495
歰	-13.0495
轕	-13.0495
劑	-13.0495
䀡	-13.0495
書去之已逺上蔡逐獵知之何晚	-13.0496
瘖	-13.0497
樂人習之所謂巴渝舞也	-13.0497
紉	-13.0497
輣	-13.0497
􁽏	-13.0497
入境以來國祥甫邇自秋迄冬未申	-13.0497
􁖵	-13.0497
熿	-13.0499
㥾	-13.0499
兵書七巻河水浮	-13.0499
杠	-13.0499
右衛將軍封武康縣侯加散騎侍郎	-13.05
踏	-13.0501
漢武帝令張騫使大夏尋	-13.0501
癘	-13.0501
撟	-13.0501
淟	-13.0501
浡	-13.0501
吾既行年九十矣是三樂也貧者士	-13.0501
是一樂也男女之别男尊女卑故以男為	-13.0501
秪	-13.0501
篖	-13.0501
錠	-13.0501
偓	-13.0503
四言十二句四首	-13.0503
㤿	-13.0503
得為男矣是二樂也人生有不見日月不	-13.0503
磷	-13.0503
以動天地感鬼神	-13.0504
夾岸數百歩中無雜樹芳	-13.0504
圮	-13.0505
太建九年詔明徹北	-13.0505
欝	-13.0505
旴	-13.0505
癡	-13.0505
禠	-13.0505
婬	-13.0505
微至嬖女因奸臣	-13.0505
擬青青河畔草	-13.0505
斤為相如文君取酒	-13.0505
晉故豫章内史夏府君	-13.0505
磥	-13.0505
一正一隅各間一句	-13.0505
二首合原讀九十六首總	-13.0505
搉	-13.0505
辭令甚為鄴下所稱	-13.0506
褁	-13.0506
謎	-13.0507
潚	-13.0507
宗祀文王於明堂以配上帝	-13.0507
箒	-13.0507
車趨門傳呼甚寵	-13.0507
麰	-13.0507
虎賁王吉射之中而祝	-13.0507
垌	-13.0508
為東宫學士領建康令	-13.0508
徘	-13.0509
樅	-13.0509
蛙	-13.0509
辨其用與其位	-13.0509
窣	-13.0509
吿	-13.0509
螘	-13.0509
刧	-13.0509
皆降可得而禮矣	-13.0509
荚	-13.0509
佂	-13.0509
啑	-13.0509
菘	-13.0509
非玉闗之可望	-13.0509
奉和濬池初成清晨臨	-13.051
有澄清天下之志	-13.0511
撑	-13.0511
䇶	-13.0511
虖	-13.0511
益都耆舊傳曰	-13.0511
何如將情纒憂殷	-13.0511
矔	-13.0511
退一字成句以下遞退一句成章	-13.0511
齒未知禮則見客	-13.0511
脤	-13.0511
復前行欲窮其林林盡水源便得一山山	-13.0512
鯢而封之以為大	-13.0512
臚	-13.0513
戩	-13.0513
筳	-13.0513
以象天漢横橋南渡以法牽牛	-13.0513
陽特見嗟嘆賜以三公之服黼黻冕	-13.0513
嫵	-13.0513
已見東海三為桑田	-13.0513
隴頭歌有遥望秦川	-13.0513
公接上嵩山二十餘年後來	-13.0513
曰聖人皆言海中行復	-13.0513
長榆塞名王恢所謂樹榆以為塞	-13.0513
拜大司馬仍理小冢宰	-13.0513
方織畚王曰	-13.0513
牴	-13.0513
罦	-13.0513
天子始建漢家之封	-13.0513
𥚹	-13.0514
垂髫並怡然自樂見漁人	-13.0514
天水安定北地上郡西河	-13.0514
胞	-13.0514
澥	-13.0514
官守無奔問之人	-13.0514
巉	-13.0515
命屏翳以夕降式飛	-13.0515
摸	-13.0515
餙	-13.0515
至者皆拜為郎凡七百	-13.0515
蝉	-13.0515
肪	-13.0515
千棲宿其上晨去	-13.0515
陸士龍文集巻第	-13.0515
癉	-13.0515
建安五年上與袁紹戰	-13.0515
紕	-13.0515
蔣元卿之去兖州還杜陵荆棘塞門	-13.0515
襯	-13.0515
􁈷	-13.0515
做	-13.0515
欽所感想㤀淫荒心憂増慕懐慘傷	-13.0515
築長圍以絶内外	-13.0515
戚非平戎之戰	-13.0515
田曝麥於庭	-13.0515
鬼火亂於平林殤魂遊於新市	-13.0516
䕶軍慷慨忠能死節	-13.0516
夏正建寅之月	-13.0516
填之以土皆終命	-13.0516
菼	-13.0516
鋋	-13.0517
籝	-13.0517
衂	-13.0517
府皆天子私藏也	-13.0517
臛	-13.0517
伯奮仲堪叔獻季仲伯虎仲熊叔豹	-13.0517
擬青青陵上栢	-13.0517
獷	-13.0517
釋迦牟尼佛	-13.0517
冄	-13.0517
爚	-13.0517
籀	-13.0517
舊聞離天罪辜神	-13.0517
跚	-13.0517
䏁	-13.0517
䫻	-13.0517
倯	-13.0517
古曰六郡謂隴西	-13.0517
屇	-13.0517
鶝	-13.0517
向秀思舊賦序	-13.0517
沍	-13.0518
踠	-13.0518
諛	-13.0518
排青龍之戰艦	-13.0518
虯	-13.0518
過漂渚而寄食	-13.0518
忭	-13.0518
尚書論語於金華殿中	-13.0519
鱸	-13.0519
僔	-13.0519
瀄	-13.0519
䑛	-13.0519
讓東海之濵遂餐周粟	-13.0519
噀	-13.0519
少微真人天山	-13.0519
蕭驃騎讓油幢表	-13.0519
身死之日家無餘財	-13.0519
雁門山即北陵西隃雁之所出因以	-13.0519
易有太極是生兩	-13.0519
民亦惟曰怨咨	-13.0519
簳	-13.0519
飛鳶跕跕墮	-13.0519
壝徑三百歩内壝半之	-13.0519
嶃	-13.0519
惋餘人各復延至其家皆出酒食停	-13.0519
數日辭去此中人語云不足	-13.0519
桷	-13.0519
逸日休作偽心勞日拙	-13.0519
隔問今是何世乃不知有漢無論魏	-13.0519
齊王進蒼烏表	-13.0519
笛悽余思舊篇	-13.0519
鶴唳豈可復聞	-13.0519
縗	-13.0519
王歙為和親之侯班超	-13.0519
持㦸百萬秦得	-13.052
七月赴假還江陵	-13.052
憗	-13.052
秤	-13.052
鴂	-13.052
惡相求如市賈焉	-13.052
廿	-13.052
此皆為身不顧後慮	-13.052
胄落魚門兵填馬窟	-13.052
眴	-13.052
又加王精兵六萬長圍	-13.052
垂帷裳以自掩塞乎	-13.052
至渭橋有女子浴於渭	-13.052
鳻	-13.052
南有女郎山山上有女郎	-13.052
魏文帝與呉質書	-13.052
墓穴也兆塋域也	-13.052
軾曰和在鑣曰鸞	-13.052
公居此室乃𦵏	-13.0521
朶	-13.0521
一勿増二増	-13.0521
七千九百五十八首	-13.0521
下其兄弟之國者十	-13.0521
位總配神尊	-13.0521
奸因女嬖至	-13.0521
戊辰之年建亥之月大盜移國金	-13.0521
東魏文章辭令盛為鄴下所稱	-13.0521
漑	-13.0521
筯	-13.0521
聞有此人咸來問訊	-13.0521
邦之六典以佐王治邦	-13.0521
高誘曰三危西極山名	-13.0521
魏武上雜物疏	-13.0521
􁂻	-13.0521
陽城而避險臥砥柱而求安	-13.0521
余乃竄身荒谷	-13.0521
晉鄭靡依魯衛不睦	-13.0521
㓪	-13.0521
𥅆	-13.0521
鵃	-13.0522
才子併命俱非百年	-13.0522
舶	-13.0522
肉食非所望於論都	-13.0522
髭	-13.0522
惽	-13.0522
以上卿之禮饗管仲	-13.0522
蛸	-13.0522
菅	-13.0522
醊	-13.0522
曰天下洶洶將若之何	-13.0522
樂六變則天神	-13.0522
陽池日夕倒載歸酩酊無所知時	-13.0522
從征虜始安王道中	-13.0522
騩	-13.0522
時年十二以民禮	-13.0522
一戰而舉鄢郢再戰而燒夷陵	-13.0522
偭	-13.0522
烏孫國大昆彌治赤谷城去長安八千	-13.0522
西昭景薄榆桑	-13.0522
陽潛曜翳英華	-13.0522
嘉五年劉聰使呼延	-13.0523
王克開臺城門引	-13.0523
北單于於金微山	-13.0523
起横江之困獸	-13.0523
鷫	-13.0523
之賦無衣九頓首而坐秦師乃出	-13.0523
其所而衆星拱之	-13.0523
臷民之國爰有歌舞之鳥鸞鳥自歌	-13.0523
一作膺風蟬鬢亂映日	-13.0523
趙王出師在道賜詩	-13.0524
兩國之兵必至	-13.0524
懲山北之塞出入之迂也	-13.0524
林之散卒拒驪山之叛徒	-13.0524
吹落葉之扁舟飄長風於	-13.0524
延燒岸上營落	-13.0524
仙人導引尚刻三秋	-13.0524
徤	-13.0524
晹	-13.0524
鱣	-13.0524
䭾	-13.0524
圍益恩赴難	-13.0524
拔郢燒夷陵	-13.0524
湲	-13.0524
爲顧彦先贈婦	-13.0524
緦	-13.0524
至之景尺有五寸	-13.0524
千人唱萬人鉤金	-13.0524
吹萬不同而使其自巳	-13.0524
就荒松菊猶存	-13.0524
嶰	-13.0524
荆州安州江陵等總管	-13.0524
衒之伽藍記	-13.0524
奉詔向甘州迎皇后	-13.0524
子奮發勇氣咆勃	-13.0524
實總元戎身先士卒	-13.0524
文詞髙於甲觀	-13.0524
膳亦被裁抑	-13.0525
初造山雲舞以	-13.0525
詖	-13.0525
淹字文通濟陽考城人	-13.0525
懵	-13.0525
玉衡正而泰階平	-13.0525
十乗以先啓行	-13.0525
鄂坂之譏嫌	-13.0526
上益州上柱國趙王二首	-13.0526
則供珠盤玉敦	-13.0526
鏦	-13.0526
腒	-13.0526
匙	-13.0526
茅慮無中權後勁	-13.0526
帬	-13.0526
斈	-13.0526
詩序曰下武嗣文也	-13.0526
雲駕庶可飭	-13.0526
徯	-13.0526
授明徹都督湘州刺史	-13.0526
曰若得阿嬌當	-13.0526
繫帛書言武等在某澤	-13.0526
十洲記曰長洲一名青丘在南海	-13.0526
卞和抱其璞	-13.0526
取頭上葛巾漉酒	-13.0526
溆	-13.0526
漢舊儀曰上林苑方三	-13.0526
翼纒篸管	-13.0526
苣	-13.0526
茆	-13.0526
黄龍負圖出於壇畔	-13.0526
龍勒有玉門關	-13.0526
􁧂	-13.0526
左傳晉公子重耳及	-13.0527
兵法百樓不攻	-13.0527
者曰不及百年此其戎乎其禮先亡矣	-13.0527
誅茅宋玉之宅穿徑臨江之府	-13.0527
賞其虎豹之皮	-13.0527
泉嶠出諸山之頂	-13.0527
爱	-13.0527
旬不休青雲干吕連月不散	-13.0527
蕭領軍讓司空并敦勸	-13.0527
嵋	-13.0527
蕭相國拜齊王表	-13.0527
賽	-13.0527
題詩二百餘首計八百餘	-13.0527
鵕	-13.0527
鶼	-13.0527
欲與若復牽黄犬出	-13.0528
銅梁影棠樹	-13.0528
桓良曰告我家七	-13.0528
大饗亦皆祭之其祭玉用	-13.0528
渡河晨至洛陽諸軍驚散	-13.0528
雖借人之外力實蕭牆	-13.0528
腸題凑各一具	-13.0528
太元中武陵人捕魚	-13.0528
蠟	-13.0528
大驪馬及繡被衣物賜之	-13.0528
毚	-13.0528
碻	-13.0528
曰卜其宅兆而安	-13.0528
五色石以補天斷鼇足以	-13.0528
立四極聚蘆	-13.0528
胡笳互動牧馬悲	-13.0528
謌	-13.0528
闓	-13.0528
憖	-13.0528
懊	-13.0528
梔	-13.0528
灝	-13.0528
繳生絲縷也	-13.0528
謩	-13.0528
僧徒雲集不逺燉煌之城	-13.0528
嗽	-13.0528
安石求為淮海人	-13.0528
意中國有好道君	-13.0528
抆	-13.0528
疥	-13.0528
蕭上銅鐘芝草衆瑞表	-13.0528
貙	-13.0528
酲	-13.0528
𣢾	-13.0528
天授其俗謂天曰宇謂	-13.0528
宋故安成王右常侍劉喬墓誌文	-13.0528
招携以禮懐逺以徳	-13.0528
曰元始中起明堂列	-13.0528
龍文鏤剪刀	-13.0528
韓分趙裂鼓臥	-13.0528
持節中分麾下精兵二萬人遣西	-13.0529
盡山谷廣大不可空	-13.0529
西塞望江上諸山	-13.0529
水之上見大魚殺五牲以醮之天	-13.0529
仔	-13.0529
新野有生祠之廟	-13.0529
蕭驃騎發徐州三五	-13.0529
輼	-13.0529
刁	-13.0529
一丸藥光耀有五色服	-13.0529
炎帝之女溺死東海化為精	-13.053
祀夏配天不失舊物	-13.053
悠逺山川間之	-13.053
伯兮叔兮同見戮於猶子	-13.053
購得肩吾欲殺之	-13.053
索蜜不得再曰荷荷遂	-13.053
丰	-13.053
築崇徳等五城	-13.053
􁈓	-13.053
王使執燧象以奔	-13.053
震維徙族燕垂從宦	-13.053
戴延之西征記	-13.053
有銀蠶金雀以多竒物	-13.053
東魏置陽州後周改曰熊州	-13.053
許負之相條侯英布之黥而後王	-13.053
執榖璧男執蒲璧	-13.053
者皆警戒入國者皆蹕止也	-13.053
自陜以西召公主之	-13.053
别鶴以舒其憤懣故曰别鶴操	-13.053
帊	-13.053
帝愴然改容曰卿	-13.053
至聖之君以為大瑞	-13.053
苾	-13.053
赤如肝頭目口齒	-13.053
躅	-13.053
五月披裘而負薪豈取金者哉季	-13.053
人血為燐許慎	-13.053
周之受命興乎此祥	-13.053
懕	-13.053
甃	-13.053
祀昊天上帝則大裘而冕	-13.053
竹管中藥與服	-13.053
長勺之戰曹劌	-13.053
龜言此地之寒	-13.053
暘	-13.053
和闡𢎞二教應詔	-13.053
居笠轂而掌兵	-13.053
人有吹笛者發聲寥亮	-13.0531
書之曰龎涓死於此	-13.0531
美目以流眄	-13.0531
腹為燈飲頭為器	-13.0531
蕭冠軍進號征虜詔	-13.0531
帝幸𤣥都觀親御法座講	-13.0531
兵死之血為鬼火	-13.0532
但坐觀於時變	-13.0532
橧	-13.0532
虆	-13.0532
滷	-13.0532
蝘	-13.0532
墮其履圯下	-13.0532
頋	-13.0532
倐如流電驚	-13.0532
效阮公詩十五首	-13.0532
直滎陽開封人也	-13.0532
立武為趙氏後	-13.0532
剉	-13.0532
妺	-13.0532
臨淄師尚父所封	-13.0532
也好吹笙作鳳鳴逰伊洛間	-13.0532
司勲掌六卿賞地之法以	-13.0532
域傳曰河有兩源一出蔥嶺	-13.0532
夷怨南征北狄	-13.0532
宰輔恥復屈身	-13.0532
屠門而大嚼	-13.0532
建平王慶少帝登祚章	-13.0532
悋	-13.0532
曰銅虎符第一	-13.0532
欀	-13.0532
灇	-13.0532
王忳除郿令	-13.0532
男女衣著悉如外人	-13.0532
羣臣以錢一億	-13.0532
賞奴婢三百口太祖與	-13.0532
風銅烏千里風至此烏	-13.0532
鶴訝今年之雪	-13.0532
麽	-13.0532
魴魚赬尾	-13.0532
反豈得活耶	-13.0532
以竹箭五枚長	-13.0532
輕九鼎而欲問	-13.0532
象自後有劉淵之亂	-13.0532
俳	-13.0533
奉和法筵應詔	-13.0533
為恥不以無財為病自非大賢篤志與道	-13.0533
陸東海譙山集	-13.0533
張敞走馬章臺街	-13.0533
率妻子邑人來此絶境不復出焉	-13.0533
非有意於輪軒	-13.0533
尋轉尚書度支郎	-13.0533
離石有將兵都尉	-13.0533
上徳不徳是以有徳	-13.0534
㐲	-13.0534
以南復為蕭勃所據文軌	-13.0534
拜郡百姓遮道曰願從陛下	-13.0534
食魚必河之魴	-13.0534
銀璫附蟬為文	-13.0534
惚	-13.0534
枚乗七發云龍門之桐	-13.0534
勢千秋口對兵事畫	-13.0534
厥包橘柚	-13.0534
守宫槐葉晝聶	-13.0534
傜	-13.0534
文若春華思若	-13.0534
祍	-13.0534
蓴	-13.0534
駰云漢罷玉	-13.0534
凾	-13.0534
䪥	-13.0534
九月中於西田穫早稻	-13.0534
持璧睨柱秦王恐破璧乃謝相如	-13.0534
浛	-13.0534
煤	-13.0534
王子濵洛之嵗	-13.0534
膠不能止黄河之濁	-13.0534
詔憲與柱國李	-13.0534
豫之避秦共毛公	-13.0534
醞	-13.0534
陵生系系生	-13.0534
徼詰問具服罪	-13.0534
東方朔客難曰以管窺天	-13.0534
白紵舞歌詞	-13.0534
糴	-13.0534
人知西陵而誰望	-13.0534
周庾信撰吴江吴兆宜註	-13.0534
諴	-13.0534
濫逵泉之誅	-13.0535
皛	-13.0535
公卿大夫故人邑子設祖道供帳	-13.0535
堕	-13.0535
還本國為正員郎	-13.0535
信生世等於龍門辭親	-13.0535
入琵琶峽望積布磯	-13.0536
嶙	-13.0536
胊	-13.0536
苓	-13.0536
方春少陽用事	-13.0536
惛	-13.0536
書乃太公兵法也	-13.0536
犒	-13.0536
臺之偃蹇兮	-13.0536
撙	-13.0536
書地理志曰越巂郡	-13.0536
漢曰安軍宜在七	-13.0536
纆	-13.0536
㫿	-13.0536
三墳五典八索九	-13.0536
古意報袁功曹	-13.0536
拌	-13.0536
洛誥曰我乃卜	-13.0536
為長岑長駰自以逺去	-13.0536
禾飾斚翠羽承	-13.0536
酆郇文之昭也	-13.0536
銜明珠舞於庭	-13.0536
㥄	-13.0536
建平王太妃周氏行狀	-13.0536
瓞	-13.0536
山頭望廷尉不能廷尉望山頭	-13.0536
峻曰臺下云我	-13.0536
常無欲以觀其妙常有欲以觀其	-13.0537
任昉哭范僕	-13.0537
圓花釘鼓牀	-13.0537
鄭文公有賤妾曰燕姞	-13.0537
琱戈而對霸主	-13.0537
弋林釣渚之館	-13.0538
濉	-13.0538
逢赴洛之陸機	-13.0538
鋪陳曰筵藉之	-13.0538
登燕然山刻石	-13.0538
語終不及朝省政事	-13.0538
至祁連山捕首虜	-13.0538
感㑹風雲奮其智勇	-13.0538
噆	-13.0538
摠	-13.0538
為主徙都鄴是為東魏	-13.0538
臣聞良宰謀朝不必借	-13.0538
赤伏符曰王梁主衛作	-13.0538
匐	-13.0538
秦時望氣者曰東	-13.0538
西南噀之有司奏巴	-13.0538
鶵	-13.0538
狗吠深巷中雞鳴桑樹巔	-13.0538
諸侯聞之以為將軍從天而下也	-13.0538
凡蔣邢茅胙祭	-13.0538
朗鏡明光紛葩	-13.0538
盤髙二十丈大七圍以	-13.0538
絅	-13.0538
茱	-13.0538
鄽	-13.0538
酈食其曰距飛狐之口	-13.0538
闉	-13.0538
馬隊非講肆校書亦已勤	-13.0538
其官為上柱國封上爵執	-13.0538
拈	-13.0538
殚	-13.0538
者何以貴之昭陽曰	-13.0538
莋	-13.0538
蕭拜相國齊公十郡九錫章	-13.0538
蠶月得紡績素心正如此開	-13.0538
撼	-13.0538
佔	-13.0539
武安檐瓦振	-13.0539
陵尉醉呵止廣廣騎曰故李將軍尉	-13.0539
始咆哮縱横未定交	-13.0539
聚空倉而雀噪	-13.0539
首曰朕復子明辟	-13.054
蠃	-13.054
偫	-13.054
蓉	-13.054
尺一寸珠庭	-13.054
殿校書和劉儀同	-13.054
櫟社樹觀者如市	-13.054
匍	-13.054
聖賢羣輔録	-13.054
車同軌書同文	-13.054
叔向見司馬侯之子撫而	-13.054
榮以兵權在己遂有異志	-13.054
此其父之死吾蔑	-13.054
為之歎嗟所離之思多感思之離經三言	-13.054
傷中情君無家	-13.054
啣	-13.054
在金城西南河所經也	-13.054
蘼	-13.054
中興道銷窮於甲戌	-13.054
惟在閒情一賦	-13.054
捶	-13.054
潠	-13.054
為流矢所中貫其左臂	-13.054
寒歲識凋松	-13.054
惓	-13.054
攄祖宗之宿憤	-13.054
謏	-13.054
代邸而承基遷唐郊而纂祀	-13.054
陽氣踵黄泉而出	-13.054
奉和平鄴應詔	-13.054
遂崇文而㑹武	-13.054
㬓	-13.054
車側郭門筋	-13.054
凝煙露之潤	-13.0541
楶	-13.0541
江而建國始播遷於吾祖	-13.0541
戎車屯於石城	-13.0541
始含香於建禮仍矯翼於崇賢	-13.0541
書洛誥周公拜手	-13.0542
魏正光末六鎮擾亂	-13.0542
青尚平陽主與主	-13.0542
鍪	-13.0542
抒	-13.0542
碧玉宋汝南王妾	-13.0542
後漢書曰鄭𢎞為淮隂太守	-13.0542
禧	-13.0542
刀刺山飛泉湧出	-13.0542
嶔	-13.0542
曨	-13.0542
籞	-13.0542
公仗劒轅門	-13.0542
周冠軍公夫人烏	-13.0542
攻狀若鬼神鼓角	-13.0542
有長星自西南流	-13.0542
蛇盤綬笥	-13.0542
之用心是以聖人韜光賢人遁	-13.0542
妤	-13.0542
歠	-13.0542
自衒自媒者士女之醜行不忮不求者明	-13.0542
枋	-13.0542
汛	-13.0542
王論中流水戰事	-13.0542
衆於宜陽築崇	-13.0542
述孔業祖謝響然臻	-13.0542
咮	-13.0542
好文學信特䝉恩禮	-13.0542
屭	-13.0542
巴西閬中人也先主	-13.0542
魾	-13.0542
裯	-13.0542
支僧載外國	-13.0543
至道殆恐非仙才也	-13.0543
主而有汾陽之心子晉天下之儲而有洛	-13.0543
剿	-13.0543
讓前部羽葆鼓吹表	-13.0543
酒薄而邯鄲圍	-13.0543
提挈老幼闗河累	-13.0543
齊國通和封人受使	-13.0544
成東陵之故侯	-13.0544
喑	-13.0544
有鴛鴦雌雄各一恒棲樹	-13.0544
陵字孝穆東海郯人	-13.0544
漢間公卿墓則以石麒麟鎮之	-13.0544
高帝曰運籌帷幄之中	-13.0544
加兼愁悴少精神	-13.0544
鍬	-13.0544
之者皆連手縈繞投	-13.0544
幙	-13.0544
月九日飲菊花酒	-13.0544
海岱及淮惟徐州	-13.0544
盤石城虎踞	-13.0544
石釣處即太公垂釣之	-13.0544
萠	-13.0544
不為近者熱而逺者	-13.0544
兒曰日初出滄滄	-13.0544
崯	-13.0544
换	-13.0544
無道殺君謀楚故湛盧	-13.0544
空牀難獨守	-13.0544
苽	-13.0544
邑之於秦今隴	-13.0544
醯	-13.0544
存而身安道亡而身害處百齡之内居一	-13.0544
於衆事寄衆事以忘情者也有疑陶淵明	-13.0544
詩篇篇有酒吾觀其意不在酒亦寄	-13.0544
顔喪改華容	-13.0544
鳥有鳥丁令威去家千年今	-13.0544
楚有蒼雲如霓	-13.0544
賀平鄴都表	-13.0544
開國公絹布五萬疋	-13.0544
陳船欲渡臨晉而	-13.0544
重别周尚書二首	-13.0544
五鼎烹卒如其言	-13.0545
常寗喜之倫蘇秦衛鞅之匹死之而不疑	-13.0545
謂之逆旅宜乎與大塊而	-13.0545
以碁子置下加	-13.0545
韓簡挑戰穆公衡琱戈	-13.0545
黄公甪里先生	-13.0546
忱	-13.0546
单	-13.0546
壄	-13.0546
窊	-13.0546
神農本起烈山故	-13.0546
忙	-13.0546
惷	-13.0546
於羽淵實為夏郊三代	-13.0546
瘢	-13.0546
膩	-13.0546
麫	-13.0546
七綵芙蓉之羽	-13.0546
琴操曰商陵牧子娶妻五年	-13.0546
薶	-13.0546
之中倐忽比之白駒寄	-13.0546
之而不悔主父偃言生不五鼎食死	-13.0546
楚子觀周受折於孫滿霍侯驂	-13.0546
燾	-13.0546
芝桂不防身	-13.0546
豐徙豐民以實	-13.0546
貨海東之藥草或紡江南之落毛譬彼鴛	-13.0546
魏平齊栁泉蓼塢三	-13.0546
黶	-13.0546
就蒲州使君乞酒	-13.0546
男一女並得勝衣金陵喪亂	-13.0546
天元皇帝所居稱天	-13.0546
南立銅柱以表漢之極	-13.0546
紡	-13.0546
敭	-13.0547
求柱史此亦有助於風教	-13.0547
􁛀	-13.0547
初生得寒則鳴	-13.0547
池上酬劉記室	-13.0547
爟者烽火之神也	-13.0547
王尋王邑圍昆陽驅	-13.0547
其口而銘其背	-13.0547
赤山在遼東西北數千里	-13.0547
送酒至即便就酌醉而歸淵明不解	-13.0547
為人所羡今為人所憐	-13.0547
之子弟舉江東而全棄	-13.0547
詬	-13.0547
南宫敬叔師事仲尼	-13.0547
愒	-13.0547
窿	-13.0547
寡人有銅鐶靈	-13.0548
羌笳悽囀	-13.0548
郿塢人稀	-13.0548
憭	-13.0548
滉	-13.0548
盥少者奉槃長者奉水	-13.0548
破蘭之生谷雖無人而自芳	-13.0548
苗生滿阡陌雖有荷	-13.0548
蟺	-13.0548
載船觸石破	-13.0548
淮南畢萬術曰	-13.0548
公進玉律秤尺	-13.0548
刻是日長至也	-13.0548
非無北闕之兵猶有雲臺之仗	-13.0548
任放豈能戚戚勞於憂畏汲汲役於人間	-13.0548
尾閭玉之在山以見珍而	-13.0548
揚雄所謂勸百而諷一者卒無諷	-13.0548
曰大星如虹下流華渚女節	-13.0549
􁖻	-13.0549
遹	-13.0549
子八人齊聖廣淵	-13.0549
椹	-13.0549
鄭武公莊公為平王卿士	-13.0549
甚髙魏朝聞而重之接對	-13.0549
車上有壺榼	-13.0549
燒所貢香一枚以辟疫氣	-13.0549
艸	-13.0549
靈臺有相風烏遇	-13.0549
常不完三旬九遇	-13.0549
序殷周為三恪	-13.0549
侍從徐國公殿下軍行	-13.0549
兵上邙山則河橋路斷	-13.0549
圉人浴馬有	-13.0549
睚	-13.0549
短筍猶埋竹香	-13.0549
鵜	-13.0549
余馬首欲東乃歸	-13.0549
建平兵建平不下終不敢渡	-13.0549
有攻吳之計宜	-13.0549
愚夫貪士競	-13.0549
櫑	-13.0549
量亦慶弔之相及智者賢人居之甚履薄	-13.0549
括地象曰崑崙之山	-13.055
开	-13.055
臣頻結崇寵	-13.055
贗	-13.055
癸卯十二月中作與從弟敬逺	-13.055
與大司馬蜀國公圍金墉城	-13.0551
師臨洛浦則廣武營	-13.0551
都督七州諸軍事即為河州大中	-13.0551
梵唱皆植依擬所造	-13.0551
坌	-13.0551
榮華名義重虚薄報恩難	-13.0551
願生入玉門關	-13.0551
喢	-13.0551
沲	-13.0551
灰以止滔水	-13.0551
縡	-13.0551
虎牢不封金墉無援	-13.0551
袩	-13.0551
走者聞風聲鶴唳	-13.0551
其筆端惜哉亡是可也并粗	-13.0551
定其傳編之于録	-13.0551
或含毫而邈然	-13.0551
陳徐陵撰呉江呉兆宜	-13.0551
歘	-13.0552
門衢令容髙車號	-13.0552
埜	-13.0552
塞井夷竈陳於軍中而疏行首	-13.0552
擁旄裁甸服	-13.0552
還接銀沙城	-13.0552
軍一去大樹飄零	-13.0553
得玉璜刻曰姬受命吕佐	-13.0553
聞鳥見其類而後鳴何不	-13.0553
嘹	-13.0553
徥	-13.0553
懾	-13.0553
射水傍小鳥	-13.0553
時盛意麗哀遺身	-13.0553
惸	-13.0553
之上有仙人掌承露和玉屑飲之	-13.0553
千櫨綺翼浮	-13.0553
土生金故為金徳金生水故為水徳	-13.0553
洛陽城東路桃李生	-13.0553
瓜州豪傑束手歸	-13.0553
㫄	-13.0553
張衡字平子南陽西鄂人也	-13.0553
於諸侯車服不繫其夫	-13.0553
凷	-13.0553
廟宫室盡為禾	-13.0554
侃夢生八翼飛	-13.0554
禨	-13.0555
劭曰有隴坻在其西也	-13.0555
此又吾之所疑也	-13.0555
鷦鷯巢林不過	-13.0555
征繕以輔孺	-13.0555
范泰鸞鳥詩序	-13.0555
賜臣玉案之食	-13.0555
粃	-13.0555
遇太公於渭之陽	-13.0555
也南界東郡白馬	-13.0555
悆	-13.0555
曰吾家池中龍種	-13.0555
歌曰風蕭蕭兮易水寒	-13.0555
為鎮南將軍都督荆州諸軍	-13.0555
獨孤永業來寇	-13.0555
嚻	-13.0555
曰朝發黄牛暮	-13.0555
遴	-13.0555
鐔	-13.0555
􁀾	-13.0555
有純銀參帶鏡臺一	-13.0555
而合國之子弟焉	-13.0555
茗	-13.0555
罥	-13.0555
載與俱歸立為師	-13.0555
隺	-13.0555
麖	-13.0555
孫綽天台山賦	-13.0555
有楚師師曠曰不害吾驟歌北風又歌南	-13.0555
山折天柱絶地	-13.0556
辭洞庭兮落木	-13.0557
而知四十九年之非	-13.0557
解所統武進令臣	-13.0557
誺	-13.0557
􁧥	-13.0557
寛帶經而鋤	-13.0557
荇	-13.0557
魅罔兩莫能逢之	-13.0557
三階平則隂陽和風雨時	-13.0557
諸日月不刋之書也	-13.0557
􁆍	-13.0557
漆沮既從荆岐	-13.0557
為不可别已故以其旗	-13.0557
陽帝鄉多近親	-13.0557
䖏	-13.0557
同四隩既宅	-13.0557
囓	-13.0557
墱	-13.0557
幽咽遥望秦川肝腸斷絶	-13.0557
木以不材得終其天年	-13.0557
殿中無雙丁孝公	-13.0557
浥	-13.0557
邵惠公顥之少	-13.0557
箾	-13.0558
螫	-13.0558
滳	-13.0559
中生塵范史雲	-13.0559
荆州刺史東南道行臺僕射	-13.0559
梠	-13.0559
涇上流師人多死	-13.0559
堨	-13.0559
鳥舒翼以峙衡	-13.0559
不雪雁門之踦	-13.0559
人人自謂握靈虵之珠	-13.0559
劘	-13.0559
埭	-13.0559
大夏尋河源乗槎經月而至	-13.0559
𣆀	-13.0559
下有四星曰弧直狼	-13.0559
鶴列於麗譙之間	-13.0559
南陽太守岑公孝𢎞農成瑨但坐嘯	-13.0559
壊孔子舊宅以廣其	-13.0559
而歡慼並用	-13.0559
霈	-13.0559
馳四乗之傳至蜀	-13.0559
興長城下若里人	-13.0559
楚共王無冢適	-13.056
河楚竟不能曜丹	-13.056
傳世系莫考	-13.056
周庾信撰呉江呉兆宜註	-13.0561
樷	-13.0561
仟	-13.0561
陵散於今絶矣	-13.0561
䲧	-13.0561
文炳也君子豹	-13.0561
注慧日喻明	-13.0561
子藐姑射之山	-13.0561
揚雄字子雲蜀郡成都人	-13.0561
柹	-13.0561
繡栭雲楣	-13.0561
郝	-13.0561
瞹	-13.0561
授平東將軍北徐州刺史	-13.0561
趙昭儀方大幸	-13.0563
喆	-13.0563
後漢徐穉傳穉	-13.0563
韔	-13.0563
檋	-13.0563
置東京六府洛州總管	-13.0563
臺於臺堂上施	-13.0563
芣	-13.0563
菱荷菱水物	-13.0563
焚香複道詎歛遊魂	-13.0563
紅輪帔角斜	-13.0563
平曰原下濕曰隰	-13.0563
痛掌珠之愛子	-13.0564
不樂郡吏以病去官復遊	-13.0564
楚子成章華之臺	-13.0565
潸	-13.0565
鄀	-13.0565
張溥百三家集	-13.0565
謂之八愷高辛氏	-13.0565
和宇文内史入重陽閣	-13.0565
取密山之玉策	-13.0565
曰江漢英靈見於此矣	-13.0565
趋	-13.0565
百人奉送王行	-13.0565
常挾彈出洛陽道婦人遇	-13.0565
有黔夫者使守	-13.0565
薨於成都之錦城	-13.0565
賈逵入講尚書南宫雲臺	-13.0565
濯龍無流水之譏	-13.0565
而拜者神所立也	-13.0565
曰河精上為天漢	-13.0566
埓	-13.0567
陳留郡守趙季和	-13.0567
贈小司空宇文顯	-13.0567
大匠渾之十一世孫	-13.0567
憊	-13.0567
繐帷飄井幹	-13.0567
先念鴻陸之逺	-13.0567
奏記詣南徐州新安王	-13.0567
中為牂牁太守去	-13.0567
季氏之婦不淫矣	-13.0567
公時人善吹簫穆公有女號	-13.0567
忘情遂食薇	-13.0567
倉西三室山上	-13.0567
女成公之妹也	-13.0567
􁛾	-13.0567
㑹河陽公新造山池	-13.0567
温温以送女女	-13.0567
思風發於胸臆言泉流於脣	-13.0569
祖代左右將軍魏文皇帝直寢	-13.0569
跬	-13.0569
呼金輪等輪	-13.0569
梭	-13.0569
樴	-13.0569
偽以魏叛者以誘士㑹	-13.0569
哭市聞妖獸	-13.0569
於秦秦伯許之履士㑹之足	-13.0569
踝	-13.0569
履上笑曰我識鄭	-13.0569
銜甲赤文緑色	-13.0569
讞	-13.0569
遇主甚酷元帝	-13.0569
到主簿日事詣右軍建平王	-13.057
𫝊	-13.057
在北陸而藏氷	-13.057
苻堅淝水之敗其	-13.0571
江漢睢漳楚之望也	-13.0571
沕	-13.0571
大毘婆沙論	-13.0571
於魚復平沙上累石為八行相去二丈	-13.0571
無君房幃清	-13.0571
蝽	-13.0571
乃舞白鶴於吳市中	-13.0571
寺門外夾道左右有	-13.0571
洼	-13.0571
左傳晉侯使吕相絶秦	-13.0571
與交友論隱書	-13.0572
塤	-13.0573
北史庾季才傳	-13.0573
摰虞決疑要注	-13.0573
止於王屋流為赤	-13.0573
曰歌者吹律以詠八風	-13.0573
蓮子帳心垂	-13.0573
曰生燕頷虎頸	-13.0574
飛而食肉此萬里侯相也	-13.0574
大統三年河内公獨孤信	-13.0574
之立也鳯鳥適至故	-13.0574
苢	-13.0574
城東北樓上人或	-13.0575
珩璜琚瑀衝牙	-13.0575
􁏋	-13.0575
臨代代可取也	-13.0575
鶂飛傷楚戰	-13.0575
埳	-13.0576
敇	-13.0576
過曹娥碑下	-13.0576
彈彈之鶴以爪攫樓板似漆	-13.0576
琚	-13.0576
諳	-13.0576
哀帝擢鄭崇	-13.0576
𤇺	-13.0576
李廣傳文帝曰惜廣不逢時	-13.0576
移民下邑未學邊韶	-13.0576
竑	-13.0576
剏	-13.0577
濺	-13.0577
鸞鳥王甚愛之三年不鳴其夫人曰嘗	-13.0578
䌓	-13.0578
謵	-13.0578
以歜為不能事主乎	-13.0578
績文伯曰以歜之家而主猶績懼干季孫	-13.0578
埶	-13.0578
紱紆槐綬	-13.0579
菊水極甘馨	-13.058
种	-13.058
來特設一榻	-13.058
頎	-13.058
卾	-13.058
大駕幸乎平樂之	-13.058
香之氣是外國所貢一著人	-13.0581
萆	-13.0582
燒薙杏花初	-13.0582
王延夀魯靈光殿	-13.0582
執末而獻無因自持	-13.0582
澷	-13.0582
箊	-13.0584
著勲追贈柱國大將軍少	-13.0584
郈氏為之金距平子怒	-13.0584
墩	-13.0584
帝制象經成集百	-13.0584
露兮下泠泠而	-13.0585
稲	-13.0586
軍吏無犯營民不寒	-13.0586
漢紀曰衞青大克	-13.0586
簜	-13.0586
細凌聞災雹	-13.0586
奫	-13.0586
􁓣	-13.0588
樚	-13.0588
千鐵圍繞訖名	-13.0588
擏	-13.0592
壖	-13.0592
戕	-13.0592
道險卧樚櫨	-13.0592
啓某啓奉教垂賚	-13.0592
兜	-13.0593
冬盡難離和丘長史	-13.0593
璅	-13.0594
郭義恭廣志	-13.0594
采采芣苢	-13.0596
袚	-13.0596
椅桐梓漆	-13.0596
􁃵	-13.0597
刎繡頸碎錦臆	-13.0598
灊	-13.0598
玉鏡用其噬	-13.0601
篠簜既敷	-13.0602
蔏	-13.0602
澦	-13.0603
以葭莩灰抑其内	-13.0609
氣所動者其灰散人	-13.0611
䛳	-13.0615
鄷	-13.0615
襻	-13.0619
朝之法左九棘孤卿大夫位	-13.0626
妯	-13.0629
惔	-13.0634
紒	-13.0638
䁙	-13.0646
倀	-13.0646
深淵重涯經網羅	-13.3844
仁智懐徳聖虞唐	-13.3911
真妙顯華重榮章	-13.486
臣賢惟聖配英皇倫匹離飄浮江湘	-13.4896
驪山始皇陵作地市生	-13.5156
娌	-13.5324
蚰	-13.5331
蟝	-13.5334
􁎹	-13.5334
􁡍	-13.5343
䖹	-13.5372
蚼	-13.5372
蟓	-13.5375
􁒅	-13.5378
櫴	-13.5381
緉	-13.5381
􁖚	-13.5381
鍑	-13.539
㥷	-13.5403
跰	-13.5403
蓲	-13.5406
屝	-13.5406
僄	-13.5412
䠞	-13.5412
􁕵	-13.5415
揀	-13.5418
㿿	-13.5419
䀀	-13.5419
椷	-13.5419
盞	-13.5419
閜	-13.5419
􁑕	-13.5419
􁑖	-13.5419
蚭	-13.542
㡋	-13.5422
􁈀	-13.5422
􁖙	-13.5425
輨	-13.5428
􁖫	-13.5428
澂	-13.5431
欱	-13.5431
鑙	-13.5431
蝤	-13.5434
此又先王用樂之意也	-13.5434
悾	-13.5434
竘	-13.5434
䂄	-13.5437
潎	-13.5437
礚	-13.5437
㼚	-13.5437
摫	-13.5437
㽀	-13.5441
䍃	-13.5441
瓭	-13.5441
骹	-13.5441
螬	-13.5443
纑	-13.5444
㼻	-13.5444
􁁾	-13.5444
􁖱	-13.5444
淛	-13.5445
諱實字仲弓潁川許	-13.5447
􁢾	-13.5447
嫭	-13.5449
蚿	-13.545
則唐虞之世宅何同吉	-13.545
繦	-13.545
䠆	-13.545
冶容為誰翠粲葳蕤	-13.545
抌	-13.545
芔	-13.545
頜	-13.545
􁄭	-13.545
􁖦	-13.545
祖王羊二公於城南堂皇被命作	-13.5453
笫	-13.5453
蕊	-13.5453
㽹	-13.5453
不能奮飛遐路逶迤	-13.5453
劋	-13.5453
同聲之后妃窈窕之情悲	-13.5453
啙	-13.5453
眲	-13.5453
興自后妃窈窕淑姿	-13.5453
艻	-13.5453
衇	-13.5453
謹奏下敬以藉䖍欵	-13.5453
􁖲	-13.5453
蛬	-13.5456
鉼	-13.5456
則共熊侯豹侯卿大夫則共麋侯	-13.5456
碕	-13.5456
蘇林曰渭橋在長安三里跨渭水	-13.5456
呬	-13.5456
㧙	-13.5456
同聲之淑姿窈窕之相追感我之后妃	-13.5456
惃	-13.5456
饜	-13.5458
擂	-13.5459
異苑曰陳仲弓從諸	-13.5459
有知得見父母豈非至願乃延頸就刑	-13.5459
活何頼知肉味乎	-13.5459
王大射則共虎侯熊侯豹侯	-13.5459
飲之女曰今日之禍豈得	-13.5459
尊卑之條稱述品	-13.5459
黏	-13.5459
鷖	-13.5459
乃以爲佳甚以自慰	-13.5459
偟	-13.5459
剬	-13.5459
愂	-13.5459
泳彼長川言息其	-13.5459
聓	-13.5459
能自獵江鷗解獨漁	-13.5459
謂之君子固如此乎根矩根矩可以來矣	-13.5459
陟彼高岡言刈其	-13.5459
此篇言季世出處不齊士皆以乗時自奮	-13.5461
引昏鴉接翅歸金粟裹搔頭等	-13.5463
抶	-13.5463
蹵	-13.5463
儇	-13.5463
狴	-13.5463
去誰復待明朝和	-13.5463
讁	-13.5463
明廬逝將歸舊疆	-13.5463
書疏倨傲習常	-13.5466
怚	-13.5466
箙	-13.5466
鄭君乙立二年鄭負黍	-13.5466
他華不足以當此一佳字然終篇寓意	-13.5466
兩邊分讀左右遞退	-13.5466
葼	-13.5466
踽	-13.5466
隨㑹在秦賈季在翟諮仰靡所歎息增	-13.5466
星聚太史奏五百里内有賢人星聚	-13.5467
一觴雖獨進杯盡	-13.5467
邑啓萬家事極曹	-13.5467
稌	-13.5469
昈	-13.5469
桶	-13.5469
鄭注云韋弁以韎韋為弁	-13.5469
兄秀才公穆入軍贈詩十九首	-13.5469
倡樓驚别怨征客動愁心	-13.5469
勞禍福動静告慰亂階未已阻兵之雄若	-13.5469
糦	-13.5469
羈謂之相連愛八月四日	-13.5469
周徐州總管梁士彦率衆拒	-13.547
與吕長悌絶交書一首	-13.5472
䍐	-13.5472
錕	-13.5472
㹈	-13.5472
八十有三中平三年八月丙子	-13.5472
十一年韓伐鄭取陽城二十一年韓哀侯	-13.5472
曰余嘗謂古人寄懷於物而無所好然後	-13.5472
房北戸竹下圍碁勝者	-13.5472
智之所知未若所不知者衆	-13.5472
有福負者終年疾病取絲	-13.5472
登巢車以望晋軍杜預曰	-13.5472
至近在三山詩不云乎來歸自鎬我行永	-13.5472
轉行初進衫飄曲未成鸞	-13.5472
將段孝先斛律明月出軍定隴以為宜陽	-13.5472
廟一壇一墠曰考廟王考廟皇考廟	-13.5472
廟一壇考廟王考廟	-13.5472
釥	-13.5472
餥	-13.5472
􁅀	-13.5472
向使無酒但悠然見南山其樂多矣遇酒	-13.5474
喜歌舞高祖觀之曰此武王伐紂之歌也	-13.5475
狶	-13.5475
少加孤露母兄見	-13.5475
轠	-13.5475
太史子義善於謀䇿	-13.5475
􁄜	-13.5475
將軍與北單于戰於稽落山大破	-13.5475
撏	-13.5475
甂	-13.5475
鷱	-13.5475
􁖴	-13.5475
哉當以此論淵明其八青松在東園衆草	-13.5477
語洗盡古今塵俗氣東坡曰靖節以無事	-13.5477
異假顔凖而望公侯也	-13.5478
隆凖龍顔公侯之相	-13.5478
津吏醉不能渡將殺之津吏	-13.5478
仙童贈藥未均斯喜	-13.5478
鳩里戾太子死處	-13.5478
輂	-13.5478
明無膽無膽能偏守	-13.5478
貒	-13.5478
奉報趙王恵酒梁王修竹園	-13.5478
驕不渉經學性復	-13.5478
有五億萬七千三百九里	-13.5478
即陽無景逍遙北嶽凌霄引領揮霧昊天	-13.5478
周興言謨老靈魄有行言觀蒼昊清歌先	-13.5478
百代事無不異况迺金鐵國之利器風胡	-13.5478
石燥砧逾響桐虚杵絶鳴	-13.5478
矹	-13.5478
聖配天弘道風扇玄流思探神	-13.5478
風雨則飛舞如燕止則為石淮	-13.5478
㨆	-13.5478
䫵	-13.5478
厚在今必惡徒侈徒異徒鏟徒削聊舉一	-13.5478
歾	-13.5478
艐	-13.5478
必無功董叔曰天道多在西北	-13.5479
懲其波瀾蜀人至今猶名之	-13.548
瘠子羸孫虛恭實怨王人忽降大賚先臨	-13.548
曰雲從龍風從虎聖人作而	-13.548
竒姿凝霜殄異類卓然見	-13.548
少歌茍懸天兮有命永離决兮若何退以	-13.548
硉	-13.548
屈軼無佞人可指	-13.5481
篷	-13.5481
卜之盡葢理所以成相命者也	-13.5481
善藝又擇沃土復加耘耔乃有盈倉之報	-13.5481
曰不謂吉宅能獨成福	-13.5481
至江陵帝接仁恕有闕魏相安定公憾焉	-13.5481
華彫旂麗壯觀飭容充顔曜綉衣藻文	-13.5481
虓闞之將雄聲泉	-13.5481
逸氣風亮超三軍以奔厲賈餘勇	-13.5481
痏	-13.5481
䠇	-13.5482
仲𦙍北陸寘餘	-13.5482
光澤寺法雲諮曰	-13.5482
妙識飢餌神頴在	-13.5482
登燕然山去塞三千餘里刻	-13.5482
瞷	-13.5482
纗	-13.5482
虞淵凡十六所為九州七舎也	-13.5482
賽敬亭山廟喜雨	-13.5482
􁉲	-13.5482
􁖎	-13.5482
即日侍中臣惠基給事	-13.5482
妙聲無形竒色非質麗於嬪嬙精於琴瑟	-13.5482
門侍郎臣王僧珍至朱	-13.5482
幻間何事紲塵覊其九清晨聞叩門倒裳	-13.5483
挂寒柯逺望時復	-13.5483
枝連林人不覺獨樹衆乃竒提	-13.5483
誰歟田父有好懷	-13.5483
槎經月而至一處見一女織一丈夫牽	-13.5485
冠冕世禄羽儀祚𦙍俗被燕丹	-13.5485
往來熏熏得亡之門	-13.5485
澤畔方將杖挐而引其	-13.5485
吾子少而好賦曰然童子雕	-13.5485
蟲篆刻俄而曰壯夫不為也	-13.5485
曰趙武靈王北破林胡	-13.5485
注曰雁自河北渡江南瘦瘠能	-13.5485
猍	-13.5485
雄禦寇之利也大夫圖之衛人	-13.5485
事其東有大星曰狼狼角變色多	-13.5485
燕之外鄙朝鮮洌水之間	-13.5485
天下或有能說之者子而不言誰與能之	-13.5485
贈鄭曼季徃返八首	-13.5485
㕹	-13.5485
㷅	-13.5485
㷶	-13.5485
對曰吾樂甚多天生萬物惟人為貴而吾	-13.5485
憡	-13.5485
揞	-13.5485
揫	-13.5485
為是真諦為是俗諦令㫖荅	-13.5485
瘱	-13.5485
秋砧調急節亂杵變新聲	-13.5485
簋	-13.5485
誖	-13.5485
賚制㫖大湼槃經講疏	-13.5485
鎮也懸當耳旁不欲使人妄	-13.5485
陵侯秦破為布衣種	-13.5485
集微臣之軀神爽	-13.5485
饛	-13.5485
􁖤	-13.5485
􁝳	-13.5485
春秋後語曰張孟談謂趙襄子曰董	-13.5485
陽公宫之垣皆荻蒿	-13.5485
漿逺見候疑我與時乖繿縷茅簷下未足	-13.5486
日愁知形有之留滯非英靈之所要術也	-13.5486
載酒屬車幸無寃氣	-13.5486
虰	-13.5487
吾先君常侍得幸漢桓帝賜方	-13.5488
楚樊厲節中闈衞女河廣思歸	-13.5488
人膽張心動者則殺之	-13.5488
俗之時日順妖忌而逆事理	-13.5488
時日先王所以誡不怠而勸	-13.5488
蔾	-13.5488
里許便得枉人山	-13.5488
不當比而同之公暇獨取是集	-13.5488
時漢朝陵遲政以賄成原	-13.5488
曶	-13.5488
頞	-13.5488
和假道於峻岐陽烏迴翼	-13.5488
蜾	-13.5488
衛宏古今竒字序	-13.5488
􁀌	-13.5488
命太公把白旄以麾之	-13.5488
王率兵車以伐紂紂虎	-13.5488
繹師於武城河東王譽次	-13.5488
能和惟友惟孝行止中閨可象可傚我聞	-13.5488
其平吳勲一沈萬山下一沈峴	-13.5488
凱好為身後名常自言百年後必髙岸為	-13.5488
如割柰何柰何豈况至性	-13.5488
帝曰俞往三讓然後受命公	-13.5488
帰	-13.5488
捋	-13.5488
曭	-13.5488
曰何知後代不在山頭乎	-13.5488
水未清一代人先改	-13.5488
猫	-13.5488
矤	-13.5488
鼃	-13.5488
上手接白雲今行九石下親弄	-13.5488
不足聞知䕫牙焉能委悉何如明月之忌	-13.5488
兮荷葉承蓮悵何意之容與兮	-13.5488
實雨日隂陽之氣信可觀也又憶昔登鑪	-13.5488
感而作賦曰迤邐碕礒兮	-13.5488
暫緩此憂年失代上之異人	-13.5488
極之連山鰅鱅虎豹兮	-13.5488
求身毒國而為昆明所閉	-13.5488
焉於時夏蓮始舒春蓀未歇肅舲波渚緩	-13.5488
石視鱣岫之吐翕看黿梁之交積於是紫	-13.5488
荅釋難宅無吉凶攝生論	-13.5488
􁇻	-13.5489
公名具武公名敖	-13.5489
以雲聳夾丹輦以霞飛願南山之無隙指	-13.5489
聲忽散傷人復愁君王更衣露色未	-13.5489
媟	-13.5491
續漢書曰孔壺為漏浮箭為刻下漏	-13.5491
有節有度即是能平八風	-13.5491
國師古曰典屬國本秦官	-13.5491
江左並僑置雍州西魏改曰襄州	-13.5491
為羇終嵗門人謝焉	-13.5491
鼓而唱籌即移竿而標箭	-13.5491
一段讀法俱同前以上二段每段各增詩	-13.5491
亡緹縈跋渉彼匹婦也猶執	-13.5491
千金顧笑買芳年	-13.5491
失之東隅收之桑榆	-13.5491
陽縣東有王喬山山有合丹竈	-13.5491
平陵豪姓四侯登仕	-13.5491
樂土王室多難西遷鎬京聖朝勞謙疇咨	-13.5491
秋元命苞曰陽成於三故	-13.5491
螔	-13.5491
巴陵前信州刺史桂陽王慥	-13.5491
進爵為公改封萬年縣通前二千四百	-13.5491
頓江津並未之進	-13.5491
㒁	-13.5491
䁓	-13.5491
䎒	-13.5491
䑄	-13.5491
冬緒覉懐示蕭諮議虞田曹劉江二常侍	-13.5491
博學深奥退食在公	-13.5491
同歸俄而緑衣坐奪白華卧進屑骨不憐	-13.5491
和欽若昊天厯象日月星辰敬授人時	-13.5491
思傷君夣詩璇心	-13.5491
榬	-13.5491
漢徳其可謂允懐矣	-13.5491
百仞苔滑臨水石險帶溪自非巫咸采藥	-13.5491
葰	-13.5491
訩	-13.5491
蹈彼蒼何偏而不斯報昔在江陵重罹天	-13.5491
鑰	-13.5491
閣千尋起長廊四	-13.5491
雄虹赫然暈光耀水偃蹇山頂舄弈江湄	-13.5491
􁢜	-13.5491
莫不聞隴水而掩泣向闗山而長	-13.5491
也有司對曰鄭人所獻楚囚也	-13.5492
白日殊甚之禮墜於青雲祗畏驗盛若奪	-13.5493
圖天未悔禍䘮亂薦臻羌	-13.5493
鄊	-13.5493
亡其文泣蕙草之飄落憐佳人之埋暮廼	-13.5493
梯虚度九冬而廓處遥十秋以分居傷營	-13.5493
瑶序金陳桂枝嬌風素壁翠樓明月徒秋	-13.5493
祀司中司命飌師雨師	-13.5493
髙門自蕪青苔積兮銀閣澁網羅生兮	-13.5493
且長風波阻中塗此行誰使然似	-13.5493
仕故作是篇其十在昔	-13.5493
比淵明此首趙泉山曰時輩多勉靖節以	-13.5493
逺遊直至東海隅道路	-13.5493
吾喻當陽公大心大心尋	-13.5493
州拒侯景景矯詔遣肩	-13.5493
舉州降賊肩吾因逃入	-13.5493
鍾儀君子入就南冠之囚	-13.5493
三日三夜泣盡而繼以血	-13.5493
侗	-13.5494
之方得赴江陵未幾卒	-13.5494
陭	-13.5494
從外讀入五言四句	-13.5494
於臣弟則周公請命親其身則尼父不禱	-13.5494
來攻十月魏軍至襄陽梁王	-13.5494
憞	-13.5494
某啓奉教垂賚烏騮馬一匹	-13.5494
至於東首告辭西陵長往	-13.5494
霪	-13.5494
將軍儀同三司散騎常侍武定縣開國公	-13.5494
捬	-13.5494
石堰水而澆園花	-13.5494
罿	-13.5494
贈河州刺史惟公秉山岳之靈	-13.5494
骫	-13.5494
乂我徂求定策命懇惻國之	-13.5494
同寅毘陵陸懋之永嘉李升之	-13.5494
曰方春和時草木羣生之物皆	-13.5494
治疏勒城去長安九千三百	-13.5494
煕	-13.5494
迓	-13.5494
隕嫠不恤緯家之	-13.5494
􁍒	-13.5494
使匈奴二十年不降還為典屬國	-13.5494
具溢豈非性力知限鑒度有崖	-13.5494
寒沙兩岸白獵火一山紅願想懸鶉弊	-13.5494
悶悲思聞蜀郡成都司馬相如天下工	-13.5494
昔尚爾齒今優我賢	-13.5494
澱	-13.5494
䈱	-13.5494
之凋松五言四句四首	-13.5494
之啼兮月色寒究烟霞之繚繞具林石之	-13.5494
及陳之初亡也陳桓子始大於齊其後	-13.5494
咬	-13.5494
在荆州與張史君李居士連句	-13.5494
姐	-13.5494
慠	-13.5494
挴	-13.5494
曲流而南有障山東帶鈔	-13.5494
梓宮招魂幽野有丹	-13.5494
獨憐明月夜孤飛猶未	-13.5494
玉曰嘉玉幣曰量幣	-13.5494
籅	-13.5494
終休一違二違三	-13.5494
而寡和也二蘇公則不然方其得意也	-13.5494
臣孤志廣天下之惠可	-13.5494
自知費天下也復何足言	-13.5494
長夜之冥得照太陽情變鬱陶而發其蒙	-13.5494
􁖐	-13.5494
半殘雨蕭索光烟	-13.5494
南徐州大中正建昌縣開國侯	-13.5494
從祖太尉世父儀同從父司空	-13.5494
村第二首云一篇之中賓主	-13.5494
猶天之不可階日月之不可踰也	-13.5494
禹不偪伯成子高全其	-13.5494
天子履端廢朝單于長圍	-13.5494
圴	-13.5496
山形起伏既符白	-13.5496
於咸陽萬年縣之杜原	-13.5496
安邦利民者事事如右率以聞見謹簡聖	-13.5496
盈則藿質蓬性庶無矯奪不任匪晏之情	-13.5496
穆侯之夫人姜氏以條之	-13.5496
詩豳風云七月流火	-13.5496
乞留儉朝廷嘉而許之在州遂	-13.5496
廓靈緯崇樹神紀百司備列貴賤之分	-13.5496
恥况此以任何堪湧溢之賜且董督條興	-13.5496
授或體兼上才江表廣任或功	-13.5496
非盛古至乃河襄	-13.5496
首臣績陋於國不勤睿朝寵集若是非所	-13.5496
可學違巳詎非迷且共歡此飲吾駕不可	-13.5496
地未平一天猶薦瘥	-13.5496
宫觀不移故無勞於白	-13.5496
并詩桃源經曰桃源山在	-13.5496
柟	-13.5496
梁以淹袂出桂苑而	-13.5496
洛陽之伎極江南之巧窮故飾以赤野之	-13.5496
總牧三蕃兼治六輔	-13.5496
言豈足以盡之不若蕭統云淵明文章不	-13.5496
雅女宋鄭之妙工織素麗於日月傳畫明	-13.5496
為度支尚書時上流諸蕃並據	-13.5496
信年始二毛即逢	-13.5496
明徹等俘斬三萬餘人	-13.5497
答東阿王牋曰譬猶飛兔流	-13.5497
辛苦行陣勇過溺駿	-13.5497
征北世子誕育上䟽	-13.5497
愎	-13.5497
觀此寧無愧心直以物受其生於天不謝	-13.5497
詼	-13.5497
赤玉靈文下朱陵真氣	-13.5497
日薨春秋六十有六即以其年十月十日	-13.5497
楚王之子質於秦不得歸	-13.5497
身形如生芬香聞數里	-13.5497
䉛	-13.5497
少卿悼躬夷甫傷子皆泣緒如絲詎能仰	-13.5497
州牧劉表不供職貢多行僭偽遂乃郊祀	-13.5497
授同州刺史襟帶闗輔	-13.5497
無宣於國書濟河登山之威未亮於左史	-13.5497
生生於壬子歲自壬	-13.5497
臮	-13.5497
開歲倐五十若以詩	-13.5497
龍韜金匱之効又乏楹間帷中之績衛主	-13.5497
世子岌使持節儀同大將軍領兵部大夫	-13.5497
五世其昌並於正卿八世	-13.5497
以儉秩滿恐有代	-13.5497
僕射都督十五州諸軍事行荆州事	-13.5497
升降之際可明故皇極不爽國	-13.5497
姓起家車騎大將軍儀同三司襲爵為公	-13.5497
婵	-13.5497
山氏女生高陽有聖德焉	-13.5497
藜藿應見棄勢位乃	-13.5497
記曰文帝自代還有良馬九	-13.5497
𦵏於渭南章臺之東曰後百	-13.5497
不忝者乎而陛下猶崇以異禮者是	-13.5497
之末光實夫君之晩滋去	-13.5497
之音翰惟山中兮寂寞	-13.5497
人髙冠朱幘呼曰細腰細腰應諾	-13.5497
伯迎雲山而揖許由激	-13.5497
兮始秀或杜衡兮	-13.5497
其過外惜皇猷内畏私眚昔西京鼎秩漢	-13.5497
執政侍從及其失意也至下獄過嶺	-13.5497
奏金管於後陣都野宗其榮盛視	-13.5497
寐臣檢古少例廵令逾疑豈有妄叨天功	-13.5497
封尸塞富平之水	-13.5497
尚輕險情多哀思	-13.5497
幾象火滅而山紅餘形可覽殘色未去耀	-13.5497
我公重光繼文踵武	-13.5497
戚施寧踸踔於馬蘭俾後生之庶士鑒明	-13.5497
敬其炎貴臣一旦居之誰以	-13.5497
於是臨虹蜺以築室鑿山楹以	-13.5497
曰梁昭明太子傳稱陶淵明字元亮或云	-13.5497
杵也今在竈下文掘金燒杵由是大富	-13.5497
烏鳴啞啞引弓射之洞左腋陛下	-13.5497
眉視朱殿以再暮撫	-13.5497
眺同天色思絶慶未看徒使生迷惑	-13.5497
終永保於鴻名足揚光於載籍	-13.5497
而多緒風蕭條而無端猨之吟兮日光	-13.5497
臣之戾也况復肅延華勸實深窘	-13.5497
舜之時西王母來獻其白	-13.5497
蕙草可織園桃紅	-13.5497
術怡神之妙道譬	-13.5497
要福者哉臣不能遵煙洲而謝	-13.5497
豈得自稱字哉統與延之所書可信不疑	-13.5497
郺	-13.5497
阮嗣宗口不論人過吾每師之	-13.5497
𣺌	-13.5497
𧹞	-13.5497
􁋙	-13.5497
􁏜	-13.5497
􁖮	-13.5497
令鳳䕶雞時天暴雨而鳳持竿誦	-13.5498
旦賦詩云云其王事之中優	-13.5498
經不覺潦水流麥妻還怪問鳳方悟之	-13.5498
恩未曠後寵已襲上公祕鉞聲振都鄙文	-13.5499
眚	-13.5499
鳯凰鳴啾啾一母將九雛	-13.5499
失輻誚所湊雖	-13.5499
緯伊序則方率司其度用能璿紐弗虧民	-13.5499
雲璧質人不見瓊光俗詎聞願使洛靈往	-13.5499
齲	-13.5499
桂水與碧湍雲清	-13.5499
汚隆孰能如是乎此言盡之矣	-13.5499
遂徂寒蒹葭於余馬傷霧露於農夫跨金	-13.5499
之壯思惜古人之取才瞰青雲而靖意意	-13.5499
文以紫山之金空青出峨嵋之	-13.5499
營一飽少許便有餘恐此非名計息駕歸	-13.5499
疾信若人兮先覺聊與子兮如一鏡論語	-13.5499
祕成賈鄭之雄理	-13.5499
至日歸來無往此異方	-13.5499
貧而仕其十一顔生稱	-13.5499
文公曰噫西州智士死	-13.55
侃命為地道潛引	-13.55
下雄才葢代逸氣横雲濟北顔淵	-13.55
清聲滅跡何必山林	-13.55
王祥扣冰魚躍	-13.55
圖共詩六十四首新増讀法	-13.55
穨	-13.55
貕	-13.55
𤣥擬天問曰月中何有白	-13.55
婦蘇氏織錦端中作此	-13.55
尋芳者追深徑之蘭	-13.55
隴國夫人車服禮數	-13.55
三日侍宴曲水代人應詔	-13.55
勲無紀乎廊廟而乘軺服冕荷蕭張之賞	-13.55
少寵多輿人立規才薄位厚處士興議故	-13.55
燭未調道治猶鬱者臣之	-13.55
八年釋迦佛生刹利	-13.55
十逝而九傷欷潺湲兮	-13.55
帝泰階六符經曰泰階	-13.55
恍惚魄漫漫兮西東詠河兖之故俗眷徐	-13.55
梁詠河兖兮路未央道尺折而寸斷	-13.55
百首總一百六十首	-13.55
祖遜呉丞相父抗呉大	-13.55
讓豫司二州表臣某言臣傾心駐氣不	-13.55
連江之永矣蓮欲紅南有喬木葉以窮心	-13.55
闐樂樂闋以五色縷相	-13.55
黸	-13.55
䠛	-13.55
乆矣古先哲王類帝禋	-13.55
二公雖惓惓於淵明未知淵明果印可否	-13.55
今足下羣鳥獸以為娯處貧賤而不怍欲	-13.55
以上八段遞句退成回文	-13.55
佈	-13.55
又至江陵再返故云東西游走及四十一	-13.55
嘉傳稱淵明先親君之第四女嘉於先生	-13.55
嘗周陽珪三五道邈淳風日盡九流參差	-13.55
大雨沾衣上長老歎曰是	-13.55
奔水潦於逺谷汩木石於深嶼鷹隼戰而	-13.55
字淵明顔延之誄亦云有	-13.55
孜孜傷情側君在時	-13.55
實幽居士無復東西縁若年過五十時投	-13.55
實於孤介乃貽譏	-13.55
平原之何極霜繞衣而葭冷風飄輪而景	-13.55
年二十七察孝亷除郎中尚書侍郎	-13.55
序其倦游於歸去來	-13.55
張敞為婦畫眉長安中傳張京	-13.55
得理以盡性命上獲千餘嵗下可數百年	-13.55
惟江南兮丘墟遥萬里兮長蕪帶封狐兮	-13.55
感而莫懲欲模名	-13.55
擈	-13.55
曰金也在西壁下問君	-13.55
東宫出入禁闥恩禮莫與比隆	-13.55
松筆以畫虎鼓鉛刀而刻鵠身既勞而不	-13.55
槩空抱春施名仰願光威逺歲晏返柴荆	-13.55
漢魏台鼎故無此比中朝方伯罕有其年	-13.55
烟起而成雪虎踡跼而斂	-13.55
猶存遺孤滿眼如何一	-13.55
獡	-13.55
生厭離欲滅盡寂	-13.55
相推隕形逐物遷心無常	-13.55
相詩云因令適性情稍欲到平澹苦詞未	-13.55
索居乖隔楚越伊我與爾百哀是切黯黯	-13.55
細腰問向衣冠是誰	-13.55
羼	-13.55
肎	-13.55
育上言鮮卑仍犯諸郡	-13.55
腔	-13.55
與雲平喬松日夜竦紅霞旦夕生徒慙恩	-13.55
舟託翰負組假翼要瓊質圖	-13.55
草木利不愛金碧身至	-13.55
荷蓧丈人長沮桀溺於陵仲子張	-13.55
親華屋爭結綬朱門競彈巾徒	-13.55
迹豫興衰故道富一時則風行明令才乏	-13.55
避影煎流水以求氷今欲	-13.55
雲自然雅琴雖古獨有鳴絃	-13.55
丹渚曖朱草於石路霞晃朗而下飛日通	-13.55
代序而饒感知四時之足傷若乃旭日始	-13.55
以親蝮蛇九首雄虺戴鱗炎穴一光骨爛	-13.55
伏願俯矜單志賜遂前請則	-13.55
來罕見其倫今位冠朝端通侯萬	-13.55
俄而赤蜺電出蚴蚪神驤曖昧以變依俙	-13.55
俗之不固定赤舄之易遺乃鼎湖之可慕	-13.55
兮在梧楸有美一人兮欷以傷若廼崩隍	-13.55
咨嗟而躑躅聊周流而從容想	-13.55
四時而皆難况僕人之末陋也	-13.55
從石紅青兮百疊山濃淡兮萬重日下兮	-13.55
必貽俗患僶俛辭	-13.55
感孺仲賢妻之言敗絮自擁何慙兒子此	-13.55
月有環周我去不再陽眷眷徃昔時憶此	-13.55
朗於是整容投刺	-13.55
望嶔岑而下上竹	-13.55
炤燎水陽雖圖緯之有載曠代識而未逢	-13.55
爚而流水馬泮渙以追風乃踰汗漫入	-13.55
猱	-13.55
發王屋之岫碧髓挺青蛉之岑粉則南陽	-13.55
禺之廣野意丹山之喬峯禀	-13.55
而不自禁至於脩臺廣廡幽	-13.55
艱險而多阻君英明而不革講業兮齊	-13.55
隨送一力給其子書曰汝旦夕之費自給	-13.55
青史之殘誥覽朱管之遺冊惟魯	-13.55
齎銅造善覺寺塔露盤啟	-13.55
息紫臺稍逺闗山無極	-13.5501
而專精誦讀晝夜不息	-13.5501
與之琴操南音范文子曰	-13.5501
張濯纓汾射臣之志也華爵盛典非所敢	-13.5502
溢倫等朱軒躍馬光出電入貂冠紫綬寵	-13.5502
陪遊愧並作空見奉恩深奉和初秋	-13.5502
電繞北斗樞星感而懐孕二	-13.5502
霞炤臣聞闔宗奉國猶非報殉方	-13.5502
何功當處斯忝伏願道邈先帝理鏡衆寂	-13.5502
其庇亦曰海隅咸	-13.5502
命而不渝恩潤身而無極何	-13.5502
城裂域受曹鄧之爵不能翊	-13.5502
左右生華志盡輸謝終愧報効不任下情	-13.5502
殊常之秩雖寢寐矜戰曲垂哀亮而璽冊	-13.5502
氣順方涵生獲慶特輟	-13.5502
燿纓上序鏘珮中軒	-13.5502
知所以報奉淵聖輸感霄極取諸微躬長	-13.5502
矩之守任信愚陋而不肖愧金碧之琳	-13.5502
絶大賚之降比古	-13.5502
屑屑涕自滋清光澹且	-13.5502
成塵驕才雄力君何怨徒念薄命之苦辛	-13.5502
望到酒泉但願生入玉門	-13.5502
臺前欲知青都裏乗此乃登天秦女青琴	-13.5502
中繩而獲夭及薜	-13.5502
之雜色若使明鏡前兮碎孤鴈之錦翼廼	-13.5502
乎外禁瑶碧綺組之玩罕設於内宫故大	-13.5502
使民未有聞焉爾罪二也	-13.5502
屈上生班駮下布異人貴其貞精道士	-13.5502
悲哀嗣子攀號靡訴慟甚風枝	-13.5502
櫂逶迤去國旌山氣	-13.5502
燕而未息泣逺山之異	-13.5502
社故乃馳羽江郊騖燧山甸雖藏智審其	-13.5502
而穴處若季冬之嚴月風揺木而騷屑	-13.5502
而誰亮哀哉士之不遇	-13.5502
野驅馬傃寒城容裔還	-13.5502
餗而已哉自非西京上績東都名勲河右	-13.5502
魂慮斷絶精念徘徊者也彼木蘭與豫章	-13.5502
䬟	-13.5502
仁榮公言有道屢空不獲年長	-13.5502
兮水路愍晨夜之摧	-13.5502
有社稷之士入而忘歸則爭論南宫之前	-13.5502
爵宏卒子綽之嗣綽之卒子延壽嗣宋受	-13.5502
病兮秋蘭石簁簁兮蔽	-13.5502
行歌其次則堅坐崩岸僵卧深窟朝	-13.5502
還信於邑兮白露方	-13.5502
閉兮喬木橈嵐氣闇兮幽篁難忌蟪蛄之	-13.5502
雪疊疊兮薄樹車蕭條兮山逼舟	-13.5502
内土山崩賊乗之垂入	-13.5503
卒故益部為之語曰任文公	-13.5503
月七日待我緱氏	-13.5503
虹貫日要離之刺	-13.5503
驢上焚之俄盡賊又起	-13.5503
夏桀召湯而囚之夏	-13.5503
名僚於後乗猛將起而虎嘯啇	-13.5503
摉	-13.5503
饒每至還河體肥不能	-13.5503
本經訓夷羊在牧	-13.5503
履行疎徒勞交甫憶自有專城居	-13.5503
慷慨逝言感徘徊居情育安	-13.5503
縷就北斗星辰求長命	-13.5503
初諸葛亮造八陣於魚復平沙上累	-13.5503
於州界及琮之部	-13.5503
春秋感精符曰强傑並侵戰	-13.5503
豐山有九鐘焉是知霜鳴	-13.5503
元封之末衞青於軍中即拜	-13.5504
彡	-13.5504
齊興碩人其頎華觀冶容為誰	-13.5504
伏見明詔鑾輿便御親六師臣又謬惣	-13.5504
北遺憲古鼎容五斗其傍	-13.5504
子見逵路而哭之為其可以南可以北	-13.5504
建國開藩我壯我武既公既侯緇衣出鄭	-13.5504
漠其妻蘇氏秦州臨去别蘇誓不	-13.5504
煙周人尚臭煙氣	-13.5504
竊聞金火告燿昏明代	-13.5504
色香氣動蘭心待花將	-13.5504
開文徳省置學士肩吾	-13.5504
養生之正度求之於懷抱之内而得之矣	-13.5504
鷸	-13.5504
伎奉君子而輸力接河漢之雄才	-13.5504
區宇烈譽馥於一時茂名鬱乎當	-13.5504
嗚唈兮染裳若夫景公齊山荆卿燕市孟	-13.5504
嗟滕公居此室遂𦵏焉	-13.5504
山川雄烈風俗扶疎昔我闗塞㳂襲干戈	-13.5504
彌深雖守丹愚競絶蠲恕今	-13.5504
恐後人見殺而埋之矣母曰夫有	-13.5504
時出道上見兩頭蛇	-13.5504
望所思佳人獨不然戸牖絶錦綦感此増	-13.5504
槩血誠不諒於璿扆宏芬英猷遂蕪於里	-13.5504
王家放大智光明照十方世界湧	-13.5504
蛇者必死今出見之故爾母曰蛇今安在	-13.5504
遂令新市數錢忽疑	-13.5504
之内曰近某日喪事先逺日吉事先	-13.5504
云昔堯徳衰為舜所囚	-13.5504
云王太子子喬好輕舉不待	-13.5504
人與年夫子相遇即以為賢性靈造化風	-13.5504
侃作雉尾炬施	-13.5504
區宙菲躬謙度方追重華納麓之勤約情	-13.5504
千年蘭雲衣不躑躅龍駕何時還隂長生	-13.5504
土神商之將亡見於商郊牧野之地	-13.5504
夕雲映西山蟋蟀吟桑	-13.5504
定理禍福不可禁唯見雲際鵠江海自追	-13.5504
後漢書曰寇恂拜河内太守恂	-13.5504
意也其六行止千萬端誰知非與是是非	-13.5504
掌管記東海徐摛為右衛率摛子陵及信	-13.5504
昔罽賔王結罝	-13.5504
曰黃白雜毛駓郭璞	-13.5504
書時停鴻冊則人歌僉平物抱至歡	-13.5504
氣浩然蔑彼結駟甘此灌園張生一仕	-13.5504
珎	-13.5504
皆作山水好勢仙者五六雲氣生焉悵然	-13.5504
與謝尚書莊三連句	-13.5504
蕢	-13.5504
裔舜長發有祥貽我	-13.5504
覿赤鱗庖所捐白雲亦海外葐蒀起三山	-13.5504
銀丹控鶴去窈窕學	-13.5504
麁	-13.5504
一據故備言其詳以發子之	-13.5504
一百六十八首新増讀法三之	-13.5504
不在炎帝帝魁之世獨	-13.5504
之有東塾燕談曰淵明與子	-13.5504
之燿地列酒泉之郡人著㫖酒之	-13.5504
之規是以政平刑偃紫階斯廓	-13.5504
九十六首總一百六十首	-13.5504
令狐子容服甚光舉措有適而我兒蓬髪	-13.5504
以織琴瑟且鳴户牖秘兮不可見履	-13.5504
以自勤豈三省之或廢庶進徳以及時時	-13.5504
俄頃嗚呼哀哉遂使君子之陵止埋銅劒	-13.5504
僕者不一二談也僕聞狂士之行有三竊	-13.5504
兄弟何必骨肉親得歡當作樂斗酒聚	-13.5504
入橘浦兮容與心敞惘兮迷所識視煙霞	-13.5504
八十八首總一百五十二首	-13.5504
公和遷齊康公於海上	-13.5504
兮蘭莖紫秋蟲吟兮蕙實	-13.5504
其下則辭榮城市退耕巖谷塞逕絶賔杜	-13.5504
别執手未期浮雲色曉悵然	-13.5504
劇菱芡言到平澹處甚難也李白云清水	-13.5504
動兮覺人聲廼蕪階翠地繞壁	-13.5504
十五首共六十首合原讀	-13.5504
十六年大丞相總十六軍	-13.5504
坐詠琴瑟逍遥可永年假乗試行遊北望	-13.5504
堂何時復踐藐藐孤女曷依曷	-13.5504
報袁叔明書僕知之矣	-13.5504
好盈缺春華故秋凋不知北山民商歌弄	-13.5504
定人以濟萬國非酒莫以也故天垂酒星	-13.5504
客去而乆卧不起妻怪問其故	-13.5504
寥唯有馳騖士風塵在一朝輿馬相跨躍	-13.5504
將兵通南川助莊鐵	-13.5504
屈起而笑曰有是哉遂共終身	-13.5504
崖輒歸匪驕匪吝前路威夷鄭叟不合垂	-13.5504
崩壁仰顧悲凹嶮兮唯流水而馳騖遂能	-13.5504
彼山中伐木得銅斧一口古銅鑄	-13.5504
志之其竒者則以紫天	-13.5504
惟崩號興言泣血尋念平昔觸事未逺書	-13.5504
感春秋之欲暮征夫輟而在	-13.5504
早逢夙表真人之氣少微	-13.5504
昔宰北海政散人流其權安在遂與	-13.5504
更進退金石有終始光色俯仰間英艶難	-13.5504
有思致非後來詩人怵心劌目雕琢者所	-13.5504
有慚色父子恩深不覺自失耳妻曰君少	-13.5504
有為之生已逼無益之慮常勞若見明於	-13.5504
杯勸孤影日月擲人去有志不獲騁念此	-13.5504
東嶺遥遥萬里輝蕩蕩空中景風來入房	-13.5504
枕席冷氣變悟時易不眠知夕永欲言無	-13.5504
梁之客徒馬疲而不能去兎園之女雖	-13.5504
極桂之生兮山之巒紛可愛兮柯團團谿	-13.5504
此又秉志之一隅也	-13.5504
河之上使西河之民疑汝於夫子爾罪	-13.5504
猶今鏡不及古鏡今鐘不及古鐘矣昔余	-13.5504
相忘於上蒸民家足於下豈勸百姓之尊	-13.5504
知命僕息心越地採藥稽山友人幸甚去	-13.5504
禮絶羣公仁義所往事資道徳建徳元年	-13.5504
立而五路謐鴻名建而四民	-13.5504
篼	-13.5504
臣某言逆沴電熾凶妖霧舒志	-13.5504
興令鑿池又獲銅箭鏑數十枚時有人復	-13.5504
茍哀樂由聲更爲有實	-13.5504
西山之餓夫東國之黜臣而况其	-13.5504
謝不足進矣今之人多作拙易詩而自以	-13.5504
賈陸之鴻筆嚴徐之博辭食貨興志鹽	-13.5504
迫名茂才冬盡不獲有報引領	-13.5504
逺圖綏國之術祈勸力耕濟	-13.5504
邪伏身北闕之下納君	-13.5504
金陵惟留先臣獨守墳	-13.5504
銅劒一枚長三尺五寸	-13.5504
陽負郭田二頃豈	-13.5504
雄陶方回續牙伯陽東不訾	-13.5504
非獨此事按皇覽帝王	-13.5504
飾平澹而到天然處則善矣	-13.5504
餬	-13.5504
馬煩而人聳色綵旄耀而士銜威軍容有	-13.5504
驃騎公以劒卒十萬禦荆人於外郊	-13.5504
髴	-13.5504
鳴琴在膝或對故人	-13.5504
􁖍	-13.5504
一角之人帝臺北荒之際弇山西海之	-13.5504
三徑之資可乎執事者聞之以	-13.5504
上疏曰舜命九官濟濟相讓應劭曰尚	-13.5504
不夢帝城之阡陌憶故都之臺沼是以	-13.5504
丹綠其無主聞鐘鼓以失	-13.5504
公子聞而崛起雖道術之可忘亦切磋之	-13.5504
兮乃泬㵳左右虚兮如寂寞寂寞兮山室	-13.5504
典樂龍納言凡九官	-13.5504
别駕永㑹稽人䘮亡君求赴義路由永興	-13.5504
圖之若形之四方非所以杜塞邪萌	-13.5504
地無行者圜堵常閉曲突無烟同生芻之	-13.5504
堂君辭以脚疾不任拜起詔使人扶入君	-13.5504
天四友之人親受音㫖發斯談者將非窮	-13.5504
峍	-13.5504
廊桃燕水好傷身春哀散粲輕神麟	-13.5504
恥命徒御以絡繹將有事	-13.5504
有戈船樓船各數百艘	-13.5504
欲識之不能致也淵明嘗徃廬山	-13.5504
歡誅爾朱氏景以衆降	-13.5504
氣愴斷外物非救	-13.5504
溟有洞室之穹崇居	-13.5504
焉四時賦北客長欷深壁寂思空牀連流	-13.5504
神忽忽而若忘意衝衝而不定	-13.5504
秦聲楚音楚奏聞歌更泣見悲已疚實由	-13.5504
羣飛之喪侣似獨行之	-13.5504
舒巻風雲之際無妨貴仕	-13.5504
著作郎不就江州刺史王	-13.5504
蘴	-13.5504
谹	-13.5504
隂北邊永夜不曉平蕪際海千里飛鳥何	-13.5504
􁽐	-13.5504
草茅以力耕乎漢	-13.5504
蕭永等避難流寓聞敷	-13.5504
湊經綸相襲所以草昧縣㝢昭	-13.5505
之清可期不悟皇明神邈鴻	-13.5505
側遊豫碧山隅曖然時將罷臨風返故居	-13.5505
四時虧神女色姱麗乃出巫山湄逶迤羅	-13.5505
坐洞房而不悟下輕帷而嘆息也古之馭	-13.5505
必謂廵崖之慊不忽	-13.5505
撰智而錫位深乃裂組逺故分珪前人以	-13.5505
月之英色絶雲氣而厲響負青天而撫翼	-13.5505
殊寄六稔遂交及荷惣任二燿	-13.5505
者豈有降今日而莫先哉臣爰	-13.5505
之文章發麟鹿之炳絢騁神形於鐘簴舒	-13.5505
之竹兮百尺而不見日石硿礲而成象山	-13.5505
之義去金錦之巧無	-13.5505
乎方平笑曰聖人皆言海中	-13.5505
如見山水萬象丹青曲變	-13.5505
字之誤害理如此張九成曰此即淵明畎	-13.5505
心恨精影之不滯悼光晷之難惜	-13.5505
思宏晉國之大政在功與位故	-13.5505
春秋二十有八與余有青雲之交非直銜	-13.5505
望不過諸卿二千石有耕織伏臘之資則	-13.5505
果得金丹道憂傷永不至光顔如碧草若	-13.5505
民紐亂不處輿臺之下去勲捨	-13.5505
淪物起道缺事遷	-13.5505
溢第超庶后禮絶	-13.5505
物周設常刑皆節俗約訓反	-13.5505
班仰賛東序之賓平	-13.5505
班衮司之上咸以休對性業裁成	-13.5505
而同儉乖議而共治然	-13.5505
至於遵本捨末其槩一也故荀韓之立典	-13.5505
道鑒其元彫蟲篆刻	-13.5505
遷都督秦渭等十二州諸軍事秦州刺史	-13.5505
還風肅政黎心釐一民志故禮奢	-13.5505
髙風以義止利孟軻之宏規若乃文彩利	-13.5505
中坐瞰蜿虹俛伏視流星不㝷遐	-13.5505
備故膺寵無辭奉鉞不	-13.5505
兮錦質要靈人兮中	-13.5505
凝意方自驚願借若木景長照憂人情	-13.5505
周景王鑄也製作精巧獨	-13.5505
塞北隂雲鴻盡來翔擥鏡照愁色	-13.5505
奢大富大盛或傾一國之財或竭一家之	-13.5505
子厚之貶其憂悲憔悴之歎發於詩者特	-13.5505
小人亦自營結軒首	-13.5505
山岑翩翩征鳥翼蕭蕭松	-13.5505
州諸軍事餘官如故南陽文學更遇王基	-13.5505
廣成愛神鼎淮南好丹經此	-13.5505
慶臣備符寵私時深抃舞不任踴躍之情	-13.5505
振風長憂凌雨不悟遭社鳴之屬	-13.5505
推誠心而獲顯不矯然而祈譽嗟乎雷同	-13.5505
東漢一魏不變二晉未革所從來者	-13.5505
極則知耳目驚日落長沙渚曾隂萬里生	-13.5505
筭者謂迷直道者云妄坦至公而無猜卒	-13.5505
羞逐市井名幸承光誦末伏	-13.5505
至江漢始知楚塞長南	-13.5505
蘭素多意臨風黙含情方學	-13.5505
識判其奔沮然兵扈難輕義險	-13.5505
送目之賞工謝綵輪竊歸風之價臣	-13.5505
酸楚卒以憤死未	-13.5505
野亭長被馬山城早掩扉	-13.5505
銅槨三重汞池六尺玉	-13.5505
鑄銅鑪鋺燈耶然今太極殿前兩大銅鏡	-13.5505
髙選霸僚公為長史	-13.5505
不頼固窮節百世當誰傳詩眼曰近	-13.5505
卧疾怨别劉長史四時煎日夜玉露催紫	-13.5505
折片句兮忘老嘉石門之埋名憐栁子之	-13.5505
竒驚畏左右一劒之功震慄鄰國夫能者	-13.5505
長視延壽乃諸父行序云余於長沙公	-13.5505
隔嶺鐘聲度中天梵響	-13.5505
生荆棘狐兔穴其中	-13.5506
楚王載繁弱之弓忘	-13.5506
儐	-13.5507
周遣上大將軍王軌救之	-13.5507
明徹頻破之仍迮清水以灌	-13.5507
春秋佐助期曰漢相蕭	-13.5507
裴子烈曰君若决堰下	-13.5507
軍以舫載馬馬明	-13.5507
大統十六年冊授永安郡君	-13.5507
逐節工新舞嬌態	-13.5507
搤	-13.5507
人之肉川谷流人之血	-13.5507
喜晴比日思光景	-13.5507
濟伏荷深慈謹啓又謝趙王賚息絲布啓	-13.5507
異知非常人遣隨視之但見	-13.5507
霸迎勞曰甚苦食於道烏盜其肉	-13.5507
頠為前軍都督周文育破禽之	-13.5507
公之此比綽有餘榮	-13.5507
曰青衿青領也學子之所服	-13.5507
桃花源記曰武陵人捕魚為業忽逢桃花	-13.5507
氣致柔少私寡欲直行情性之所宜而合	-13.5507
祖曰我欲特賜李忠諸卿得無望乎	-13.5507
原嘗行而得遺錢拾以	-13.5507
樹枝此錢既不見取而繫	-13.5507
並皆上書詣闕連名乞留	-13.5507
事國禮義自立聲名有焉銘曰軒臺受氏	-13.5507
人不忍背吏不忍欺	-13.5507
兮一奪唯華名與芳暉兮爭日月而無沫	-13.5507
區宙况乃逆徒阻兵	-13.5507
協用五紀風若從	-13.5507
大將軍京陵王公㑹射堂皇太子見命作	-13.5507
建康遁歸江陵居宋玉故宅	-13.5507
恩山岳非重故慙屬交	-13.5507
武不定功出内帷閫升降貂綬或振迹領	-13.5507
河内之借寇恂更慙謁帝	-13.5507
滕公薨求𦵏東都門	-13.5507
硋	-13.5507
篻	-13.5507
置江陵防主統兵居於	-13.5507
藻絶麗尤善為哀誄之文	-13.5507
蜴	-13.5507
跑蹄下地得石室有銘曰佳城鬱鬱三	-13.5507
轉韻體為人作其人識節工歌	-13.5507
人道之始終罄龍圖及	-13.5507
仞難貸原煙易	-13.5507
其然哉無知音則已矣聊	-13.5507
加侍中竇憲連官單于之寳鼎可致	-13.5507
千金而不賤雖楚之夏姬越之西施趙妃	-13.5507
古無濫秩縹衣綸綬漢置前	-13.5507
后秦娥吳娃溺愛靡意	-13.5507
呀	-13.5507
富貴不歸故鄉如衣錦夜	-13.5507
嵺	-13.5507
或重古輕今者僕曰何	-13.5507
殊風共軌見之周南	-13.5507
殺而埋之歸見其母泣問其故對	-13.5507
氣無下此幽都當追帝女迹出入泛靈輿	-13.5507
水中臥念少游平生時語何可得也	-13.5507
泠而繞堂視左右而不臑具衣冠而自涼	-13.5507
玉帛之禮敢陳莊敬	-13.5507
王之新意對楚漢之	-13.5507
王立為皇太子東宫置學士陵充其	-13.5507
確紫蕪丹駮苔	-13.5507
而孤去風時時而寒出木斂柯而	-13.5507
聞宋玉宅每欲到荆州李	-13.5507
與雷電亦有曲帳畫屏素女綵扇錦色窈	-13.5507
訪五都兮異同談天理之開	-13.5507
農用八政甘作其	-13.5507
長别垂綸獨有磻石留名渭	-13.5507
陶之妙而學其詩終樂天耳胡仔苕溪漁	-13.5507
雖所未嘗嘗必美之適於口也	-13.5507
霜之蕭瑟藉綺帳與羅袿信草木之願畢	-13.5507
靈詎有移風變範	-13.5507
􁫷	-13.5507
􁵚	-13.5507
􁵰	-13.5507
䔖	-13.5507
一定之論女有不易之行信而見疑貞而	-13.5507
不復可騁然生斯時矣奚所歸悔耶雜詩	-13.5507
不騎衡如淳曰騎倚也	-13.5507
世笑之伊懷難具道	-13.5507
二人從之游時人謂之二仲亦載三輔决	-13.5507
云嗟青苔之依依兮無色類而可方必居	-13.5507
人交不茍合又深信天竺	-13.5507
人我欺萬一不合意永	-13.5507
人所制能免於患乎老萊子遂	-13.5507
以九錫命大將軍讓公將還京邑祖餞贈	-13.5507
以鞭捶可授以官	-13.5507
具鸞鶴往來盡仙靈	-13.5507
冬狩行四韻連句應詔三川羽檄馳	-13.5507
前四句興而比以言吾有定見而不	-13.5507
務滋除惡務本	-13.5507
千使援庾信質至領軍府與賊遇未陣便	-13.5507
友到臨淄稷下多談士指彼决吾疑裝束	-13.5507
可與適道未可與權	-13.5507
君惜靈骨珪璧詎	-13.5507
嗟乎斯才也斯命也天之報	-13.5507
壕	-13.5507
士傳求仲羊仲皆治車	-13.5507
好屬文學庾信體詞多	-13.5507
如陌上塵分散逐風轉此	-13.5507
室有苔焉意之所之故	-13.5507
尚有餘繞髻三匝	-13.5507
幸頗妬别在長門宫愁	-13.5507
廓樂琯登肆禮衣曵朝不	-13.5507
延安郡義川西魏為丹州	-13.5507
後之名哉故自少及長未嘗著書惟集十	-13.5507
從建平王遊紀南城恭承此嘉	-13.5507
敗絮自擁何慙兒子此	-13.5507
星跨金鞍而動月	-13.5507
櫃	-13.5507
正陽和氣萬類繁君王道合天地尊	-13.5507
死勤事則祀以勞定國則祀能禦	-13.5507
水枕滇機富春沙起	-13.5507
焉又昔夏后氏使九牧貢金鑄九鼎	-13.5507
玉如泥焉又左傳僖公十八年鄭伯始朝	-13.5507
異代應教庾信居是	-13.5507
當如何其八少時壯且厲撫	-13.5507
疲伍空貽上位則天變彰於飛流地眚見	-13.5507
皎皎雲間月灼灼葉中華豈無一時好不	-13.5507
秉笏從帷幕仄身豫休明君子未獲	-13.5507
義欲表正風化與夫	-13.5507
而不見悵浮雲而離居廼凌大壑越滄淵	-13.5507
耘遼遼沮溺耦耕自欣入鳥不駭雜獸斯	-13.5507
能聽之人而無可聽之言此淵明所以罷	-13.5507
若非金谷滿園樹即是	-13.5507
衆仙就朝於瑶水	-13.5507
託身淄右涖政淮東秦亭西逼	-13.5507
謂如此足矣重以學不	-13.5507
躧	-13.5507
近張掖至幽州飢食首陽薇	-13.5507
逺豈唯敗錦傷經	-13.5507
金不可成遷化毎如兹安用貴空名流	-13.5507
銅槨而取銅深大不可多得因此穴塞漢	-13.5507
隆眷擬余才兮前華比余文兮後彦余結	-13.5507
鹽人傳言王在國思歸京	-13.5507
齊韻而等逕輒同	-13.5507
􁁎	-13.5507
􁊛	-13.5507
㜸	-13.5507
㟿﨑嶔馭龍所不逺至駕鳯未之前	-13.5507
䍚	-13.5507
䬀	-13.5507
䴭	-13.5507
䴽	-13.5507
一毫無復意去去轉欲	-13.5507
不能動人智謀不足自逺竟	-13.5507
不言財利王夷甫之為德	-13.5507
之宣城郡出新林浦向	-13.5507
之貪鄙故口未嘗言錢	-13.5507
之間邀之淵明有脚疾使一門生二兒舁	-13.5507
也貧者士之常死者人	-13.5507
又劉向列女傳楚老萊子逃	-13.5507
君躬勤苦子安得不耕以養	-13.5507
嗌	-13.5507
在潯陽與淵明情欵後	-13.5507
如林仰綴宗稷之靈俯輯士民之効故嚴	-13.5507
始安郡經過潯陽日造淵明飲焉	-13.5507
室衣緼飲水食菽	-13.5507
對曰潜也何敢望賢志不及也道濟饋以	-13.5507
山播種五榖或言於楚王曰老萊	-13.5507
岠	-13.5507
嶬	-13.5507
川湄交酌林下清言	-13.5507
帕	-13.5507
引正淵明詩意而淵明字少意多尤可涵	-13.5507
性剛才拙與物多忤自量	-13.5507
惆悵賢臣顧瞻城闕利劒不抽青槐先絶	-13.5507
愚謂雖有重戾必宜	-13.5507
慙潤臣忝屬閫私彌抱渥洽不任下情	-13.5507
慶平賊表臣某言狂賊沈攸之棄天犯紀	-13.5507
有白光如鳥雀之狀時飛	-13.5507
樂飲在晨斯乃紫	-13.5507
毈	-13.5507
浞	-13.5507
短賦我海若之小臣具品色於滄溟	-13.5507
籃輿既至欣然便共飲酌俄頃	-13.5507
自古賢聖誰能獨免子夏有言死生有命	-13.5507
自有陳創業文檄軍書及禪授詔	-13.5507
至亦無迕也先是顔延之	-13.5507
苫草墳塋以終灰燧	-13.5507
號令不一終無勤王之效	-13.5507
蚌蛤類也春而發華有足異者戲書	-13.5507
裁交妖鋒折首凱期	-13.5507
謝靈運欲渾成而有正始以來風氣當	-13.5507
郡遣督郵至縣吏請曰應束帶見之淵明	-13.5507
里小兒即日解綬去職賦歸去	-13.5507
閉千年不復朝千年不復朝賢	-13.5507
隂兮氣曇曇江上月兮光灼灼東南出兮	-13.5507
非長沙矣先生詩云伊余云遘在長忘同	-13.5507
颼	-13.5507
􁋗	-13.5507
􁫗	-13.5507
是知零陵廟前徒尋舜管	-13.5507
景皇太子以所乗馬授王	-13.5507
濟江縛取蕭衍老公以作太平寺主歡	-13.5507
也者明也萬物皆相見南方之	-13.5507
人南面而聼天下嚮明而治	-13.5507
澤實生龍蛇彼美余	-13.5507
交易市平不得欺死人云	-13.5508
寒暑豈直吟嘯谿谷	-13.5508
之誨且昭昔牒况臣徒竭弱質忠貞未懟	-13.5508
臣某言臣以功狹賞峻	-13.5508
袁炳字叔明陳郡陽夏人其人天下之士	-13.5508
誥所讟才弱寵隆道經所	-13.5508
亡業墜刻桷丹楹禮有常序朱	-13.5508
國名爵赫曦僶俛優忝陛下	-13.5508
廻日之感所以廻懼鴻威後奔殊令者也	-13.5508
異鐫竒能得厠於軒	-13.5508
耀倫序者乎臣績不炤	-13.5508
視夕沾襟待旦翦此凶渠庶匪曠旬但遂	-13.5508
鱟履螭倦春厭秋	-13.5508
于昆吾氏之墟白若甘攙之地圖其山川	-13.5508
人臨郊皇華降庭煇燿望實	-13.5508
來不覺其露出本相者是詠荆軻一篇平	-13.5508
備宣青史何嘗不翦削浮奢銷	-13.5508
北宫之政窮盈極滿於斯	-13.5508
南楚偏君鄢郢小政執珪柱國尚不輕授	-13.5508
呉興長城夏架山有石	-13.5508
噏化而染靈比文豹而無恤方珠蛤而自	-13.5508
圖史智罕効官志闋從政方遽	-13.5508
威防所統郡縣便普三五咸依舊格以赴	-13.5508
室侍姬三四趙女數人不則逍遥	-13.5508
山之丘墟北風㭊兮絳花落流水散兮翠	-13.5508
已没千載有餘情朱文公曰淵明詩人皆	-13.5508
平錦帳終寂寞綵	-13.5508
悵徙蹕之留歡眷廻鑾之餘舞	-13.5508
所絶朝廷以尅辰纂嚴令輿夙駕吾任先	-13.5508
抏草騫葉而蕭瑟故左﨑嶬右硱磳樹嵓	-13.5508
水泓澄鎮雄蛟	-13.5508
沈攸之背慢靈極稽誅之日	-13.5508
流餘涕以沾巾恐髙臺之易晏與螻蟻而	-13.5508
淮之珠已馳光於七貴皆聲不妄美第豈	-13.5508
澹以思樹羽望楚城年積衣劒滅地逺宫	-13.5508
特停華渥書愚上請追深累懼不任下情	-13.5508
省闥皆倐忽晷景頻煩升荷雖咸罄愚識	-13.5508
秀鼎號銘共茂瑶篆永言戚慮鑒寐殷心	-13.5508
立未有伎慙湘輿	-13.5508
繪然後頌音載興澤洽式廣楚駕百馬民	-13.5508
義兼常慨挺刃投	-13.5508
蔽景輿徒競氣人	-13.5508
蕪沮物議綸言之出不追金石之謬	-13.5508
鍐	-13.5508
陸斷犀兕雖烈士銜志壯夫投槩然雲羅	-13.5508
何茫茫白楊亦蕭蕭嚴霜九月中送我出	-13.5508
兄弟共相歡樂怡怡如也旬有餘日更版	-13.5508
光蹀恩投石之師攀炤竦惠楚纊越醪方	-13.5508
兵器也周書稱穆王時征犬戎得昆吾之	-13.5508
其馳蕩故闤闠之里	-13.5508
勸學從事時亮崇修學校	-13.5508
十二年除大行臺尚書仍為大丞相司馬	-13.5508
在水則鏡帶湖沼錦匝池林春塘秀色陽	-13.5508
好客養千金軀臨化消其寶	-13.5508
學備聞士大夫言曰在國忠處家孝取與	-13.5508
學天網時踈眷言哲友振褐偕徂	-13.5508
寂寞雄劒頓無光雜佩亦銷爍秋至明月	-13.5508
居寄心清尚悠然自	-13.5508
山敬哉離人臨路悽然	-13.5508
心向徂物今悲輙流涕昔	-13.5508
恒典陛下恩周曲成	-13.5508
或遼音問其先楊誠齋曰同源分流人易	-13.5508
承先緒進不因人陛下憫臣無用舉直而	-13.5508
損褧衣隨塵而罷羅	-13.5508
族皆以族字斷句不稱	-13.5508
楚趙之門且十年矣容	-13.5508
滔滔九江山川阻逺行李時通	-13.5508
為君能歌此曲不覺心隨斷	-13.5508
無可言矣材不肖文質無所直徒以結	-13.5508
燕路且猶不數而况	-13.5508
秦皇餘石仍為雁齒之階	-13.5508
而見表至哉青苔之無用吾孰知其多少	-13.5508
胡塵幾日應盡漢月何時更圓	-13.5508
華不可炫葉非足憐	-13.5508
薯	-13.5508
褒簡穆有器識時	-13.5508
西蜀張縯辨證曰年譜以此詩	-13.5508
詩要有野意語曰質勝文則野	-13.5508
象席珠履一躡而即收鏤琴綵瑟再撫而	-13.5508
身後名一生亦枯槁死去何所知稱心固	-13.5508
選儒官以君望實故應尚徳之舉大	-13.5508
鄰里乎若僕之行止	-13.5508
菖	-13.5508
而飛鳶墮水馬援去而無歸	-13.5509
獲長狄緣斯宋公	-13.5509
歸之矢以射隨兕於	-13.5509
𦵏至東都門外馬不行	-13.5509
金馬騁光王褒行而不	-13.5509
䖟	-13.551
華觀冶容為誰宫羽同聲相追	-13.551
公卿在位及閭里士大夫莫見	-13.551
不濟遂從之乃遣蕭摩訶帥馬軍數千前	-13.551
以退軍及至清口水力微舟艦並	-13.551
得度衆軍皆潰明	-13.551
徹窮蹙乃就執	-13.551
豈可得乎不如前遣馬出適㑹明徹苦背	-13.551
對雨繁雲猶暗嶺積	-13.551
指途悲有餘臨觴歡不足我若西流水子	-13.551
行矣怨路長惄焉傷	-13.551
八十里登山嶺東望秦川四	-13.551
帚	-13.551
秦州記曰隴山東西百	-13.551
遠降聖慈曲垂矜賑	-13.551
陶侃别傳曰侃丁母憂	-13.551
散騎常侍大都督襲襄城郡公食邑二千	-13.551
者過半矣乃棄其歩	-13.551
卓王孫有女文君新寡好音故相如繆與	-13.551
塞堂為張魯治東對白馬城一名	-13.551
庾仲雍謂山為白馬	-13.551
空青賦夫赤瓊以炤	-13.551
親流念辭南澨銜怨	-13.551
不覽文章俶儻清贍出一時任心觀書不	-13.551
乃分岐邦周召之地為周公	-13.551
侯以黻冕命士會將	-13.551
冊與篆字儲西國之闕文採東京之逸記	-13.551
半耳豈將復為陸乎	-13.551
合生䃕磪堅英自非索嶮覓危	-13.551
和意罄如也常念䕃松	-13.551
垂暮氣亦何勁嚴風照天涯夢寐無端際	-13.551
多曜容君中嗟仁	-13.551
奭之采地其得聖人之化者	-13.551
章句之學其篤行則信義	-13.551
詠詩書志氣跌宕不與俗人交俛眉暫仕	-13.551
賛禁錡或騰光江甸任鈞屏翼河兖衝要	-13.551
邳圯上有一老父衣褐至良	-13.551
二十五王靡旗亂轍	-13.551
仞本在冀州之南河陽之北北山愚公年	-13.551
作貳天官允諧邦治	-13.551
執信圭伯執躬圭子	-13.551
州諸軍事增邑萬户維周革命光宅欽明	-13.551
左傳荀息曰臣竭其股肱之	-13.551
已掩氛竪未懸稽鉞竚威	-13.551
已難雖河北之爽塏猶橘柚之不遷及年	-13.551
御龍勤夏豕韋翼	-13.551
成虹伊春之秀乃華之宗山中石	-13.551
時能騎馬倒著白接	-13.551
月二十六日出次戎郊故巳望江源以軫	-13.551
木七工既掌丘陵之賦	-13.551
東南嶠外爰有九石之山乃紅	-13.551
樹崦嵫之泉西海之草炎州之烟銀臺之	-13.551
武帝探得十八因倒讀	-13.551
漾長驚澆灌逺注無時息焉青樹	-13.551
秋嚴士蓄霜斷晦	-13.551
竊以國容方穆旗章式序朝禮	-13.551
糅丹鏡日繡壑炤霞綺巒	-13.551
絜渠潏湟吐吸跳波走浪濺沫而相及	-13.551
美木艶樹誰望誰待縹	-13.551
而解冠入溆浦而捐	-13.551
若私秉軸之鈞心希在治不任懇懇之情	-13.551
蒼茫雲貌同鶴毛飄亂雪	-13.551
蕡	-13.551
見洪深重之以女妻洪洪	-13.551
赩方陋筠檟逺笑荆棘楊梅寳跨荔枝芳	-13.551
輅躬臨雲蹕親駕悚	-13.551
采炤列泉石芬	-13.551
閒席兮惆悵屢緩帶而從容論十代兮興	-13.551
間虜未滅之時下潦上霧毒氣重蒸仰	-13.551
雲圖氣學靈狀仙寳波麗水華	-13.551
露紫榮繞風引霧如電映	-13.551
中帷練甲外壘旍	-13.551
之機者也臣本瑣姿不慕聞	-13.551
亦罕兼職且麟閣之臣尚有位不及鉉全	-13.551
人辭行行停出門還坐更自思不怨道里	-13.551
何者萬乗至重天王至尊身	-13.551
僭惡極罪不容誅至於國體宜且諱之	-13.551
則喜忽然憂樂兩忘則隨所寓而皆適未	-13.551
半里許俗諺以為	-13.551
厚任妄據髙圖天道	-13.551
商殷紂暴虐鼎遷	-13.551
在朝四十一年身經一百餘戰凡任四郡	-13.551
壟平自古皆有死莫不飲恨而吞聲去故	-13.551
太后叱奴氏崩帝居倚廬朝夕共	-13.551
子之盜其兵符矯殺晉鄙公子亦自知也	-13.551
字民循素乃安聖誥遺風具騰丹冊賢言	-13.551
忽忘老之將至淹之所學盡此而巳矣	-13.551
恣所為不軌至乃郊祭天地擬儀社稷雖	-13.551
成定之國都桀有昏	-13.551
扉之右曵纓轉笏居青璅之前訪	-13.551
故人傷此别留恨滿秦川	-13.551
暮天無雲春風扇微和佳人美清夜	-13.551
棄軍走南塘㳺軍	-13.551
棻	-13.551
楚子曰古者明王伐不敬取其鯨	-13.551
欲誰待本不植高原今日復何悔東澗曰	-13.551
殷先作晉安南府長史	-13.551
治身奈何而可以長久廣成子	-13.551
無利博文有忮害廼彯	-13.551
璜其文要曰姬受命昌	-13.551
由拳縣郊外墅	-13.551
眎	-13.551
矣生十九旬而夭折乃作此辭	-13.551
紅艶桂洲山人結侣靈俗共遊時至不採	-13.551
臣某言即日侍中祕書監臣戢至奉宣詔	-13.551
與屈宋所陳何異而統大譏之此乃小兒	-13.551
藏摧悲聲發曲秦	-13.551
解遂仕通物任官登郎	-13.551
談者所眩似謂白蓮社中人也其七	-13.551
超居金鉉殊任鬱起臣心憂魄悚視丹如	-13.551
運府庫之財填盧山之壑	-13.551
金瓠予之首女雖未能言固已授色知心	-13.551
鈇鉞今先生食人之酒肉受人之官	-13.551
雲素霞必駕蓬萊白毳騂鱗咸	-13.551
青春爰謝則接武平臯素秋澄景則獨酌	-13.551
頻藩隴坻豪傑歛手	-13.551
頻遘時來感激光私未能自返烏可超	-13.551
願陛下暫停冕纊少察愚實鑒臣靦情愍	-13.551
首夏三年之中二子頻	-13.551
􁚁	-13.551
㘽	-13.551
㚟	-13.551
䢵	-13.551
䵑	-13.551
不復能鑄銅者正當不能使利如霜雪光	-13.551
之吉遷里北陵追逺大司馬有賜綬之恩	-13.551
之數年楚頃襄王病太子不得歸	-13.551
了獨詩云元龜象齒其實象牙也書	-13.551
二曰賦三曰比四曰興五	-13.551
今所記干將者亦皆非鐵明古者以銅錫	-13.551
以來得野意者淵明而已雪浪齋日記曰	-13.551
以治治則治矣非書	-13.551
兮異文錦派兮綺分珍君之言兮皦無際	-13.551
兮繡池梁伊日月之寂寂無人音與馬迹	-13.551
兵故禹貢云荆揚貢金三品余以	-13.551
其一孟夏草木長遶屋樹扶	-13.551
内維榮炫外圉方梗名慮有陋莩識沖生	-13.551
冠金口木舌談章句之	-13.551
冷况復蟪蛄鳴白露	-13.551
出遊則好令左右作挽歌類皆一時名流	-13.551
劉昆為𢎞農太守先是崤黽驛道	-13.551
匝地鴻飛以儀順道則利	-13.551
十里朝霞兮千尺千尺兮緜緜青氣兮	-13.551
去海人之仄陋充公子之嘉客儻委身於	-13.551
又汲冡中得一銅	-13.551
口無音欲視眼無光昔在	-13.551
古者語質而難解今者語文而	-13.551
后使武士縛信斬之長樂	-13.551
君諱嘉字萬年江夏鄂人也	-13.551
喀	-13.551
外山花即眼前但願長歡樂	-13.551
天子遣太僕趙岐和解關東	-13.551
始終無端顯明情詩理興義怨	-13.551
姤	-13.551
寒之禍近親不言左右莫	-13.551
寧自感思夣想勞形側君在時孜孜	-13.551
少壯時無樂自欣豫猛志逸四海騫翮思	-13.551
師襄奉操而仲尼覩文王之容	-13.551
底人如何說得這様言語出來讀山海經	-13.551
心貽此話言進簣雖微終焉	-13.551
息向君榮誰疑春光	-13.551
惻隠其心訓以慈	-13.551
擾擾摩肩轔轔方駕	-13.551
故揚聲伊余方罷秀	-13.551
故西征大將軍長史孟府君傳	-13.551
昔者賤臣叩心飛霜擊	-13.551
暫徘徊和何儀同講竟述懐無名即講道	-13.551
曰五羖大夫死秦國男女流涕	-13.551
曰帝者承天立五府蒼	-13.551
曰舉燭者尚明也尚明也者舉賢	-13.551
有儔飲河既足自外皆休緬	-13.551
有君詩乃見陶之工或譏余貴耳賤目則	-13.551
有知相見蒿里嗚呼哀哉祭從弟敬逺文	-13.551
杜預注云楚金利故也古者以銅	-13.551
柴桑人也曽祖侃晉大司馬淵明少有	-13.551
楚辭曰獻嵗發春兮泊吾南征	-13.551
此詩靖節年五十作也時義熈十年甲寅	-13.551
河淇之名謳薦西海之異品傾東岳之庶	-13.551
炭滿懷抱百年歸	-13.551
為始安王拜征虜将軍	-13.551
熢	-13.551
璧璫自耀珠綴	-13.551
畏佳人晩秋蘭傷紫莖海外果可學	-13.551
眮	-13.551
短意惻切吟空庭注欷東郊外流涕北山	-13.551
破而出錫若邪之谿涸而出銅歐冶鑄以	-13.551
秋露輕逺心惜近路促景怨長情風至衣	-13.551
素百二十有三人於山西巖下般若臺精	-13.551
羽奏壯士驚心知去不歸且有後世名登	-13.551
翳翳衡門洋洋泌流曰琴曰書顧	-13.551
者然榮辱得失之際銖銖校量而自矜其	-13.551
而不弱陶淵明之詩切於事情但不文耳	-13.551
而任之燕相白王大	-13.551
而帶索則自少壯至於長老其飢寒艱苦	-13.551
而悔之盟曰無以鑄兵故以鑄三	-13.551
而曖碧臺之錯落燿金宫之	-13.551
聘齊秋晩館中飲酒	-13.551
草合重見翠雲生江甸知禮	-13.551
蒜山𬒳始興王命作	-13.551
襠	-13.551
詩欲詞格清美當	-13.551
赫怒干戈啓陳金鉞鏡日雲旗	-13.551
起晚眠常早孰若當世士	-13.551
迵	-13.551
道誰能測窮巳須待九轉成終㑹長沙市	-13.551
遣使相隨永敦隣睦	-13.551
鋡	-13.551
隕難鯨鯢墜鱗戎	-13.551
青郊未謝兮白日照路貫千里兮	-13.551
餦	-13.551
鵗	-13.551
鶅	-13.551
鷷	-13.551
齊臺下官每讀其書未嘗不廢	-13.551
􁑑	-13.551
􁖕	-13.551
􁞚	-13.551
太清二年正月癸巳朔兩月相承如	-13.551
始除一舶見賊軍皆著鐡面遂	-13.551
九年冀登宰輔八	-13.5511
鮒也聞諸吏將為子除館	-13.5511
階含侵角路鑊滿溜	-13.5511
則峻巘層石龜穴龍壁素岸成雲頳砂如	-13.5511
后所以裁成萬品下所以各慎百司未有	-13.5511
色咸見珍於東國並	-13.5511
青苔丹草内伏玉枝瑪瑙銅	-13.5511
厲矣進止之宜更	-13.5511
居寂阻九重嚴絶徒	-13.5511
府功曹臨湘令粟之入者悉散以贍親其	-13.5511
清儀服咸貫故象革建鑣尚	-13.5511
炎天地幸郊甸或靜江山以閟文軒華劒	-13.5511
素各禮儒道二宗名墨兩	-13.5511
華與素儀冠衆寳而獨立信求之而無虧	-13.5511
避工巧杉桐梓舊麗松栝稱竒焉如	-13.5511
頻觸瑶纊丹情實理備塵珠冕而	-13.5511
中杜若嘉爾翠質不竒不俗載華載實同	-13.5511
之仕菲質焉樹廼謬仲容之職猥枉青艧	-13.5511
之侯猶或任不並台名爵無假前	-13.5511
之已盡傷故國之無際出汀	-13.5511
之次禦孽辟妖長靈乆視驂龍行天馴	-13.5511
以不恤色忤頻犯鴻威者正以方圓之景	-13.5511
光空質心懅末塵情慙洞	-13.5511
入秦庭凌厲越萬里逶迤過千城	-13.5511
公之意也詠荆軻燕丹善養士志在報強	-13.5511
兮秋風驚秋風罷兮春草生綺羅畢兮池	-13.5511
内燭徘徊眇不識届	-13.5511
匪務傍職坐而爕道必在其人若臣武未	-13.5511
南稱慈諒由掩胔廣漢流仁實存殯朽近	-13.5511
周禮馮相氏掌十有二歲十有二	-13.5511
品爰乃輔性却痾衛福蠲邪養正縹色外	-13.5511
喪至壙將窆而柩不	-13.5511
回昏亂雖大而輕及周顯王三十二年姬	-13.5511
委君玉盤山桃惟園有實惟山有叢丹蘤	-13.5511
役丹殿廵魄擎	-13.5511
情嬋娟而未罷愁爛漫而方滋切趙瑟以	-13.5511
愚臣方古悠然已	-13.5511
招集百夫良歲暮得荆卿君子死知	-13.5511
於千里重曰江南之杜蘅兮色以陳願使	-13.5511
於姑射聞道於崆峒伊臣之願過	-13.5511
明司幽軒轅陟祚首出庶物顓頊登庸作	-13.5511
昔望都才麗爵乏上班長岑聞靡身終下	-13.5511
木蘭懷蘂挺實涵	-13.5511
樹之君所以平對二儀顯臨萬國膺符受	-13.5511
浚壍古墟曩𡑞時有湮移深松茂草或	-13.5511
炊而自沸不舁而自藏不遷而自行九鼎	-13.5511
皇眷囂黷一盈慙厲彌積談天之辨不能	-13.5511
窮隂匝海平蕪帶天於是泣故	-13.5511
臣陳辭雕龍之文無以	-13.5511
蕭太尉上便宜表臣	-13.5511
言臣聞經邦緯治去華	-13.5511
迭興十代繼運非賢非睿莫預斯位若乃	-13.5511
野皆咫尺八極鏡見四荒雲烟始出日月	-13.5511
金光内映草經所珍仙圖是詠	-13.5511
靜然肅念徘徊交集不任憂感沐浴之情	-13.5511
驚朝野足震城邑殷周	-13.5511
一山西北來兮乃雙鶴池中蓮兮十色紅	-13.5511
三閭發已矣之哀悲夫寓形百年而瞬息	-13.5511
伊人是以處無懦色臣官逢昌	-13.5511
位相國總百揆封十郡為	-13.5511
傳當問從吏亮以麈尾掩口而笑諸從事	-13.5511
兮半出雲雜錯兮飛上石炤爛兮各色	-13.5511
出上黨沾縣大黽谷	-13.5511
出魯陽寒郊無留影秋日懸清光悲風撓	-13.5511
向千載人人惜其情有酒不肯飲但顧	-13.5511
吳鄧之盛功王鍾之素業孔明之居蜀茂	-13.5511
埋冥而難發何弱命之不禁遂永至於夭	-13.5511
大道方行蒼祗宅氣威靈所燭九功咸詠	-13.5511
從風而棄百民染其聲奢萬姓	-13.5511
悰徒懸優奬之降非復常	-13.5511
悼室人十首佳人永暮矣	-13.5511
憂不薄瑶色行應罷紅芳幾	-13.5511
敷道之寄管物成務惣	-13.5511
於錦屏赩丹光而電烻䬃翠氛而杳冥軒	-13.5511
是以洪澤之蛟遂挫長	-13.5511
晶	-13.5511
有孟嘉其人何在亮云在坐卿但自覔褒	-13.5511
桂復多楓水夕潮波黒日暮精氣紅路長	-13.5511
樂徒登歌舞臺終成螻蟻郭	-13.5511
歸河乏馬圖之寳天無	-13.5511
淮南子云木葉落長年悲斯之謂矣	-13.5511
清夜何湛湛孤燭映蘭幕撫影愴無從惟	-13.5511
澹深韻於白水儼	-13.5511
王公之服於是有文靡虚麗驕邪不典之	-13.5511
理屈側守圭漏伏望衷鑑而	-13.5511
生不知幾何年靈化無窮已館宇非一山	-13.5511
祖父宗以孝行稱仕	-13.5511
稱迷忉利之宫名故靈偃蹇兮姣服女嬋	-13.5511
端笏奉仁明再逢	-13.5511
者梁上楹畫為藻	-13.5511
蕭梢而可哀草林離而欲暮夜燈光之寥	-13.5511
蘺環軒兮匝池相思兮豫章戴雪兮抱霜	-13.5511
襟亦復含酸茹歎銷落湮沉若	-13.5511
識度嚴明志節清儉遂改公名儉字慶明	-13.5511
豈特大車方塵小雅有廢而巳哉將據致	-13.5511
風莫不下協河岳上踵光緯先王所以長	-13.5511
騎疊迹車屯軌	-13.5511
黙廻環祗畏躑躅猶謂遇	-13.5511
普通二年始平郡中石	-13.5512
有澗水可固乃引兵據之	-13.5512
洛神賦曰河洛之神名曰宓妃	-13.5512
營魂以探賾頓	-13.5512
燭之武之言無能為也	-13.5512
載踐宗伯出擁干旄	-13.5512
轉不堪勝臣所以自咎自傷淚繼之血	-13.5512
元偉傳大將軍納言小司空荆	-13.5513
有齊將之閉壁無燕師之臥牆	-13.5513
自郊勞至於贈賄禮成而加之以敏	-13.5513
門賞耏班使食其征謂	-13.5513
僰道應劭曰故僰侯國	-13.5513
中權始及前茅已戰	-13.5513
役無罪之人快心於狼望之北	-13.5513
曹劌曰吾視其轍亂望其	-13.5513
衙	-13.5513
蠁	-13.5513
篲	-13.5513
萍濕楊生細椹	-13.5513
之孫子度其行暮當至馬陵	-13.5513
五百里極目泯然山東人	-13.5513
以大象二年十一月十日歸	-13.5513
其蠶月殆罄桑車津實	-13.5513
某山舊墓九原悽愴趙文子其何言	-13.5513
瘵	-13.5513
輠	-13.5513
青衿敬業童子離經	-13.5513
卭令相重而以琴心挑	-13.5513
士長纓皆俊民契	-13.5513
晲	-13.5513
華輕薄篇曰蒼梧竹葉青宜城九	-13.5513
不可以智知不可以識識	-13.5513
人法地地法天天法	-13.5513
以上一段得詩二十二首以下	-13.5513
体	-13.5513
保定三年有詔贈柱國將軍少師	-13.5513
公居攝二年制禮作樂天	-13.5513
兵教士艫舳習流	-13.5513
承華内綢繆踰歲年日暮聊	-13.5513
斷折民紀豈可還風中葉逖	-13.5513
遵淮泗旦夕見梁陳服義追上列矯迹厠	-13.5513
陵文學奚景於泠道	-13.5513
陽燧要景復降綸冊徽采兼明影迹交戰	-13.5513
駕逍遥觀洛川殂	-13.5513
儀同三司司憲中大夫進爵義城縣侯	-13.5513
兒童數百各騎竹馬道次	-13.5513
四代儀同三司七世河州刺史	-13.5513
城餘石還歸舊祠	-13.5513
寒暑易節始一反焉	-13.5513
尋除涼州刺史總督河西甘𤓰諸軍事	-13.5513
幸無謝上古之淳人庶可以封之	-13.5513
後入界所到縣邑老	-13.5513
於朱方丹瓊譬而非寳緑蘭比而無芳	-13.5513
施善人何如哉何如哉	-13.5513
時天寒雪凍死者填滿溝壑不害	-13.5513
槀	-13.5513
營於朱雀航及景至信以衆先退	-13.5513
臻金鉉未宥魄慮再馳詵然改席臣局志	-13.5513
芬激譽流聲滿我筠心而松性君金采而	-13.5513
若樂九變則人鬼可得而	-13.5513
遐代者也臣才乏往賢績謝古	-13.5513
鄭伐韓敗韓兵於負黍	-13.5513
阿景洞幽復昇官清閨列版嚴闥蕞識何	-13.5513
鮑𤣥𤣥亦内學逆	-13.5513
鹿裘帶索鼔琴而歌孔子	-13.5513
䡄	-13.5513
倚樽酒而不持去室宇而逺客遵蘆葦以	-13.5513
大發徒出之而不能得焉後漢武帝	-13.5513
大衰乃淪入泗水秦始皇之初見	-13.5513
威異人罄折皆相望北闕待詔南宫而臣	-13.5513
子奉先之祀於陶丘者或	-13.5513
山之勤纒結中㝢深	-13.5513
指危冠猛氣充長纓飲餞易水上四座列	-13.5513
於是尊官上品乃貽玉振之賢鴻等懋列	-13.5513
昏槿也葉晨舒	-13.5513
時董父好龍舜命	-13.5513
欲何求東澗曰首陽易水亦寓憤世之意	-13.5513
濕暫難然銅荷承淚蠟	-13.5513
獲焉帝笑曰君談過矣是時軍書表記皆	-13.5513
硊	-13.5513
窮事自至豪主正怔營惜哉劔術	-13.5513
給呼召數十年乃不復聞聲矣	-13.5513
翅背上皆有長翰	-13.5513
苑鍾子期死而伯牙絶絃破琴知	-13.5513
蒹葭之蕭瑟知霜露之流滯對江	-13.5513
蕭蕭哀風逝淡淡寒波生	-13.5513
西涼州尋改曰甘州	-13.5513
軍移家東下作此以贈遊好非	-13.5513
雲度絃歌響星移宫殿廻青衣上少室	-13.5513
魁下六星兩兩而比	-13.5513
𤣥業兼綜練醫術	-13.5513
䕁	-13.5513
一不弭守歎誰能慰夏雲多雜色紅光鑠	-13.5513
三自顧實以陋情悲忘寵極但畏軼超疲	-13.5513
三表臣某言臣再抽慊請辭	-13.5513
上還王府永戢祕館	-13.5513
不可詮輿歌里頌	-13.5513
不忠棄君之命不信有一於此不如死也	-13.5513
丗踈慨然寤歎念兹厥𥘉	-13.5513
乃霧激離則霰分荆國	-13.5513
之所以可悲也此所謂君子於其言無所	-13.5513
之財不匱忠信之禮無繁動天無有不届	-13.5513
也人生有不見日月不免襁褓者吾已	-13.5513
云夸父不量力欲追日景逮之於禺谷	-13.5513
人豈難見以是論賢不肖之實何可欺乎	-13.5513
人鄉里無田宅客止	-13.5513
人重時暮道士情亦深	-13.5513
使各罷兵瓚因此以	-13.5513
使將將其軍歸魏而公子獨與客留趙	-13.5513
來㑹在何年五月旦作和戴主簿	-13.5513
倐忽南江隂照曜北海陽從此長往來萬	-13.5513
傷内弟劉常侍金璧自蕙質蘭	-13.5513
儓	-13.5513
公䕶迎帝於岐州立	-13.5513
公子曰洙泗遺文鄒魯餘烈其道未	-13.5513
其天真者淵明一生惟在彭澤八十餘日	-13.5513
兹寳燭夜無華金鏡晝恒微桐葉生	-13.5513
内則曰婦事舅姑左佩紛帨	-13.5513
凭	-13.5513
出宅邊菊叢中坐乆之滿手把菊忽值	-13.5513
制外儲兵襲内釁激瓊殿勢崩金闕志乗	-13.5513
則愚介介若人特爲貞夫	-13.5513
劒逢君在三川何意風雨激一訣異東西	-13.5513
去喚弟翼語之曰孟嘉故是盛徳人也君	-13.5513
古㳂圖循逺訪繪未嘗不麗選	-13.5513
右崦嵫之卿雲爛七采之炤燿漫五色之	-13.5513
合鄉故縣也漢書霍去病傳曰	-13.5513
咨爾令妹有徳有操靖恭鮮言聞善則樂	-13.5513
咽臣某中謝臣仲春之末舊患漸加雙足	-13.5513
哀之徴殷舊聞之多欽廊桃之㣲深以上	-13.5513
嘉玉惟芳嘉幣惟量	-13.5513
因之傷身嗟中之辜神以上八	-13.5513
在辛亥月惟仲秋旬有九日從弟敬逺	-13.5513
地紐謐乾樞回	-13.5513
墜心遷客海上流戍隴隂此人但聞悲風	-13.5513
士習尚如此非如今之人例以	-13.5513
大鏡夜照見影若光在	-13.5513
天子之弓合九而成規	-13.5513
奄荒南服求以先封武陽郡三千	-13.5513
妙蠱非常之玩農夫勤耨不充浮伎之資	-13.5513
子曰郢人有遺燕相國書者夜	-13.5513
就華未知所届背源從流不識其止求國	-13.5513
居三十載遂與塵事	-13.5513
山朱旗頳渚短兵	-13.5513
山饒離袂楚水多	-13.5513
峯兮若虹黛樹兮如	-13.5513
川秋至帝子降客人傷嬋	-13.5513
左據函谷二崤之阻	-13.5513
巴東三峽巫峽長猿鳴三	-13.5513
帷鼎位兼文武職惣内外非所以發夢渭	-13.5513
廬山東林寺主釋慧	-13.5513
式觀盛禮洽此嘉讙陽和既動澤漸萬邦	-13.5513
弰	-13.5513
彭澤五株栁潘岳河陽一縣花皆誤用也	-13.5513
徃必酣飲致醉	-13.5513
徒慙素絲質羇旅去舊京感遇踰	-13.5513
得返自然冷齋夜話曰東坡嘗云淵明詩	-13.5513
復降朱輪之使方枉青	-13.5513
悵然集漢北還望岨山田沄沄百	-13.5513
愛起長思喬木嘯山曲征鳥怨水湄共惜	-13.5513
愰	-13.5513
憂之相接欷美人於心底願山與川之可	-13.5513
挽詩者多矣或寓意騁辭成於暇日寛攷	-13.5513
排烟而漸滅旌拖風而未舉值解	-13.5513
握手畢黯如光絶天安得明月珠擥涕寄	-13.5513
故人車歡然酌春酒摘我園中	-13.5513
明琯東南逝精絲	-13.5513
時天降雌雄龍二于庭有劉累者	-13.5513
晨浪望崑山之夕霞窮北辰而比壽指中	-13.5513
曰取束帛以贈先生	-13.5513
曰天下之弱者有崑崙之弱水	-13.5513
曰太傅爰登相國緝	-13.5513
曰妾聞之可食以酒肉者可随	-13.5513
曰驂駕駟馬從梁來	-13.5513
有志操者加其俸禄及汝南謝連河南趙	-13.5513
本知雪光能映紙	-13.5513
東都濯冠汾陽不悟盛禮華典復臻於兹	-13.5513
枯槁中實敷腴真詩人之冠冕也平生酷	-13.5513
桐之葉兮蔽日桂之枝兮刺天百谷多兮	-13.5513
桓公與莊公既盟於壇上	-13.5513
正風鑒𢎞敏澡身浴德	-13.5513
此書兮坐空山空山	-13.5513
死於汀潭哀時命而自愜應謝主簿騷體	-13.5513
氣安以輸謝不勝荒震屏營之情	-13.5513
淫淫秋夜紫蘭生湛湛明月光偃蹇靈芝	-13.5513
淵明以少牢之奠俛而酹之嗚呼哀哉寒	-13.5513
湯而誰告魄寂寂而何語情枯槁而不反	-13.5513
潺湲夕澗急嘈噆晨鵾鳴石林上參錯流	-13.5513
濟弱淪風起扶危頽運歸	-13.5513
火不明因謂持燭者	-13.5513
炎帝之少女名曰女娃游于東海溺而不	-13.5513
為楚相而其子為郡功曹子伯	-13.5513
煩紫渥綢繆璿命身薄施厚感厲愈深遂	-13.5513
燈夜和殷長史冬盡綵葉暮金石亦	-13.5513
玘	-13.5513
琴空閨饒逺念虚堂生夜隂兹夕一何哀	-13.5513
生云有子賢與愚何其掛懷抱此固以文	-13.5513
生青苔行行詎半景余馬以長	-13.5513
白帖佛寺為紺園	-13.5513
百仞崖横千尋松直陰兔假道	-13.5513
相保觴絃肆朝日罇中酒不燥緩帶盡歡	-13.5513
瞰芝闕以窈窕見玉臺之相拒	-13.5513
矣且皇華之命居上之鴻私	-13.5513
矣盛服將朝尚早坐而假	-13.5513
石言張魯女也有小水北流入	-13.5513
碗	-13.5513
祗冥青桂羞烈沉水慙馨於是生乎澤陂	-13.5513
立孤臺兮山岫架半	-13.5513
紘曰余嘗評陶公詩語造平淡而寓意深	-13.5513
紹於是引軍南還三月上	-13.5513
終上公磻溪翼周名極列伯臣才非若人	-13.5513
終極天和某年歸窆於襄陽白沙之舊塋	-13.5513
網户周流以重積既隂	-13.5513
翥荏苒歲月頺此心稍	-13.5513
聲素女兮弄情旻天兮舒縹暮雲兮含頳	-13.5513
肆請舒衷仰謁不能曲流	-13.5513
致虹沴阻於上京蜺妖扇於下國	-13.5513
舉燭云而過書舉燭舉燭非書意	-13.5513
若夫咸康之年四方始定	-13.5513
草深廼生水而揺蕩遂出波而沉	-13.5513
草紅華長翕赩師曠操雅操延子聆竒音	-13.5513
草色斂窮水木葉變	-13.5513
莫賞此古人所以染翰慷慨屢伸而不能	-13.5513
華列神童於羽帳	-13.5513
蕙芬自有美光景詎徘徊山中忽緩駕暮	-13.5513
蜉蝣動而晝喧熠燿飛而夜朗既臨下以	-13.5513
西山之木石以堙東海	-13.5513
觚無以堪上聖樊噲解厄鴻門非豕肩鍾	-13.5513
言之也按蘇劉皆不和豈畏死耶	-13.5513
訃	-13.5513
賴藩伯鞠旅侯甸入守	-13.5513
趙盾將朝端衣整笏	-13.5513
軌不樹徽猷罕宣無以式翦冦兆載弭姦	-13.5513
近耀皇宗自大明	-13.5513
迹願洲渚以淪形故其所廵左委羽右窮	-13.5513
逢恩侍英王結劒從深景撫袖逐	-13.5513
道兮可傳可傳兮皓然挾兹心兮赴絶國	-13.5513
郢縣方焚袁劉二戾猋	-13.5513
郷之感猶有遟遟矧伊代謝觸物皆非	-13.5513
酒無以奮其怒趙之	-13.5513
醜以成妍亦反老而為少虬駕夭矯而出	-13.5513
錦名金燈麗草鑄氣含英若其碧莖凌露	-13.5513
陶令此則挽辭决非擬作從可知矣又曰	-13.5513
難盡未嘗留意於死生豈復稍論於椿菌	-13.5513
霸少立高節光武時連徴	-13.5513
霸與同郡令狐子伯為友後子伯	-13.5513
靈威仰祈穀郊壇配以	-13.5513
靖節詩文乃絶筆於祭挽	-13.5513
顥如海岸矗似	-13.5513
飛蓮井日照杏梁陽	-13.5513
高而泱漭聞疾雷於階	-13.5513
魂且謐卧堂怨已生承君客江潭先愁鴻	-13.5513
鶴徒翔舞清角自浮	-13.5513
黑以靈姑銔率	-13.5513
龍之錫元首股肱誓不可異而曠	-13.5513
􁇆	-13.5513
􁖀	-13.5513
君在河東蒲坂乗青騾	-13.5514
張公張公云魏明帝在建始殿朝㑹皆由	-13.5514
斯改期運永終欽若唐	-13.5514
於是奴僮競出盡皆得志	-13.5514
踰城投賊景以為儀同使	-13.5514
乃起賔館開東閣以延賢	-13.5514
經雄並奏拜童子郎	-13.5514
尚書事到省表臣某言臣自妄	-13.5515
異寵輕荷殊爵晝	-13.5515
緯列寵縣榮故乃俯酌瑶陛迹	-13.5515
興降上睿所以僉舉前英所以詳能今若	-13.5515
浹景祈指遂宜猶謂設品分職實以仰銓	-13.5515
佇首矯迹以銘以奏	-13.5515
効璿基方峻謝寒露之勤故宜伏影軒間	-13.5515
姹	-13.5515
山道煙岫相珍雲壑共寳不華不縟	-13.5515
戎麾主者飛火施行	-13.5515
木歛望雜草不窺長入煙氣永	-13.5515
榮海深襲恩祗冊	-13.5515
漢篆皆旌羽勿差功庸匪濫臣忝爵山重	-13.5515
素位方疚心路鑒古以惕廵	-13.5515
之一顧是時霜翦蕙兮風摧芷平原晩兮	-13.5515
取金聲之彦或有濟	-13.5515
夷難之略煇燿内	-13.5515
審夫市之無虎眩三夫之獻	-13.5515
曰芳洲之草行欲暮桂水之波不可渡絶	-13.5515
雖僅然於必知亦苦心而曠	-13.5515
不自覺良乆如厠温命取以還之	-13.5515
不變學古道恒真若作商山客寄謝丹水	-13.5515
中暖兮露始滴池上凝兮月又明	-13.5515
之來仲父獻誠言姜公乃見猜臨	-13.5515
之情空至乃西陸始秋白道月弦金波炤	-13.5515
之所紹至游夏以升降幸砥心而勿夭	-13.5515
亘虹梁之峻宻錦幔垂而杳寂桂	-13.5515
以塡滄海刑天舞干戚猛志故常在同物	-13.5515
兮江汀累青杉於澗構積紅石於林	-13.5515
其一有生必有死早終非命促昨暮同	-13.5515
出西極而擅名方翠羽而結葉比碧石而	-13.5515
務廣河汾寄深珪㝢方	-13.5515
厲翼蛟魚亦曝鰓崩壁迭枕卧	-13.5515
口所檢裁文景三郡之民舊齊故魯鞠	-13.5515
右信艱哉萬壑共馳騖百谷爭往來鷹隼	-13.5515
坐含霜一聞苦寒奏再使艶歌傷	-13.5515
坐處君歸見嘲笑而請筆作	-13.5515
変	-13.5515
威於市得碎繒輒以為	-13.5515
安西將軍庾翼府功曹再	-13.5515
客重相歡連鑣出上	-13.5515
寂島暮蘭紫莖芬披好草合流爛新光生	-13.5515
將無是耶亮欣然而笑喜褒之得君竒君	-13.5515
復花菴鬱帳裏春風盪	-13.5515
心之所同然者與苕溪漁隱曰沈彬詩陶	-13.5515
必書史不謬牘况臣連牧圉岳董率職方	-13.5515
忽臻於兹慙慨憂灼罔識其際伏願陛下	-13.5515
恩宥實生之幸不任慊欵之	-13.5515
意拾瑶草而悠然遂乃凝	-13.5515
我曰欽哉實宗之光	-13.5515
戦	-13.5515
所以揚其音也臣才蔽識淺非集譽於	-13.5515
掌詔冊並典國史	-13.5515
放命則抗節瑶祀秉號仗義幸不辱威皆	-13.5515
文武飾華麗貂縈金疊組宏猷溢俗	-13.5515
於庸臣獨隔恩耀誓守愚衷重扣雲日如	-13.5515
時在坐温命紙筆令嘲之文成示温温以	-13.5515
時湘醽徒有酌意塞不能持適見葉蕭條	-13.5515
晨張秋日蕭索浮雲無光鬱青霞之竒意	-13.5515
曰匪賢俱映日月共飡至言慟由才難感	-13.5515
曲池北山兮黛柏南江兮	-13.5515
欲以長自居故詩稱於穆令族序稱於余	-13.5515
武昌新陽縣子孫家焉遂	-13.5515
母心山海經云三珠樹生赤水上其樹如	-13.5515
氣炎日永離明火中槿榮任露蓮	-13.5515
水雖未合珠霜竊過中坐識物序晏卧視	-13.5515
江州别駕巴丘令征西大將軍譙國桓温	-13.5515
沙桓公陶偘第十女閨門孝友人無能間	-13.5515
海内名儒為博士使公卿子弟	-13.5515
海闢仄見圭緯昌浮雲抱山川遊子御故	-13.5515
溟綱紫宙兮洽萬品冠璇㝢兮濟	-13.5515
澗軒掩兮酒涵霜	-13.5515
獲性疊慮仰祈必蒙題品而威嚴窈絶斯	-13.5515
玉如割泥也周穆王時西戎獻之尸子所	-13.5515
甫之玉質笑陳王之妙顔所以樂精	-13.5515
留滯桂枝情結友愛逺岳採藥好長生常	-13.5515
當復何及哉擬挽歌辭	-13.5515
眉心濃黛直㸃	-13.5515
石閉兮紫苔傷芝原寂少色筠庭黯無光	-13.5515
石鴻鐘逺炳晉室玉璧	-13.5515
神香使者曰國有常占東	-13.5515
秩方臻元禮有序王曰念哉煇寵是與職	-13.5515
紈百味酒兮靈之集河供鯉兮靈之安却	-13.5515
素毳之至史不絶書竒葉珍柯之獻府無	-13.5515
者氣息兼以水火守	-13.5515
聞放勲立而羲和昇	-13.5515
聲封國式固故天地燀	-13.5515
臣某言以鉉司崇貴衮位淵嚴非	-13.5515
自古皆有没何人得靈長不死復不老萬	-13.5515
與風雨變長共山川在人道則不然消散	-13.5515
色和而正温甚重之九月九日温游龍山	-13.5515
芬冠古憬彼朱方亦惟宗秩	-13.5515
茂草全趙盛魏豺狼所	-13.5515
落温目左右及賔客勿言以觀其舉止君	-13.5515
蕪神州方翳思樂盛猷願厲聲頌	-13.5515
褒之所得乃益器焉舉秀才	-13.5515
言羌一氣所生不可誅	-13.5515
謝兒報坐事付治中	-13.5515
貴豈敢偷存才怯任重物所不恕故弱識	-13.5515
起而清溢女乃耀邯鄲之麗	-13.5515
軒碧桐笙歌畹右琴儛池東嗟靈王之心	-13.5515
遽發桃花渚適宿春風塲紅草涵電色	-13.5515
重林雲霞肅川漲	-13.5515
重臣愆悔無地自安便當謹恭鴻命竭身	-13.5515
銷憂非羽觴此心兾可緩清芷在沅湘贈	-13.5515
鏡含笑盈盈自看	-13.5515
鑠近古垂耀中葉揆望揣實	-13.5515
長史在朝隤然仗正順而巳門無雜	-13.5515
陛下停若鏡之明流如雲之愛方求士於	-13.5515
雅相知得有若舊交還至轉從事中郎俄	-13.5515
集懋冊頓萃諒非虚薄輕所膺符今殷夏	-13.5515
雪徒皦潔此焉空守貞暮意歌上	-13.5515
雲光平原秋色來寂聽積空意凝望信長	-13.5515
靈君臣設極三統所以式固惟生	-13.5515
頳蘭始滋不擥蘅帶無倚桂旗摘芳拾蘂	-13.5515
鱗不能起水鳥望川梁客子	-13.5515
𣑽	-13.5515
尒	-13.5515
滕王逌序信解褐授安南	-13.5515
漢武帝鑿昆明池極深悉	-13.5515
至明帝時外國道人入洛	-13.5515
賵	-13.5515
隨月盛壯以攻戰月虧則退	-13.5515
既言多於忌刻實志勇而形	-13.5516
􁆑	-13.5516
四支不利扶步有邯鄲之失	-13.5516
武寧西拒峽口自嶺	-13.5516
義熙元年宋武帝王業之始	-13.5516
歌曰巴東三峡猿鳴悲猿鳴三聲淚沾衣	-13.5516
半心枯由來兄弟别	-13.5516
鎮北之負譽矜前	-13.5516
歌聲振林木響遏行雲	-13.5516
曰列管匏中施簧管端	-13.5516
不實何也晏子曰昔者秦	-13.5516
同沈左衞過劉先生墓下作	-13.5516
善求壽强者必先知災疾之所自來然後	-13.5516
必在生前嗟乎此之樹碑異乎洙泗之水	-13.5516
滿而虧能虧能缺既無為雖	-13.5516
聞佯問者佯對	-13.5516
荀中郎連率此則中興方伯	-13.5516
一編以附于三百篇楚	-13.5516
拜燈王於石室乃假馭	-13.5516
梴	-13.5516
翫月城西門廨中	-13.5516
與弟雲書曰仁夀殿前有大	-13.5516
麥流雖逺書巻猶開	-13.5516
猶聳夜艾方驚誠以設	-13.5516
傳曰蜀漢江陵千樹橘渭川千畝竹	-13.5516
可祭祀致也宣帝使褒往祀焉褒於道病	-13.5516
島嶼憑陵波瀾衝激	-13.5516
春秋三十有二始見二毛	-13.5516
王克劉㲄宗懔殷不	-13.5516
秭	-13.5516
荘嚴寺僧旻諮曰	-13.5516
謝滕王賚猪啓某啓奉教垂賚肥豕一腔	-13.5516
雖革魏氏之樂而未臻雅	-13.5516
静尋欹案或吟長岑之	-13.5516
􁀍	-13.5516
䆠	-13.5516
䲹	-13.5516
一段讀法俱同前以上二段每段各得詩	-13.5516
不見相知人惟見古時	-13.5516
九攻而墨子九却之	-13.5516
仰逢周朝以揖讓登庸謳歌受命	-13.5516
信宿酬清話益復知	-13.5516
值山河改柯葉自摧折根株浮滄海春蠶	-13.5516
元年二月遣其行臺郎中丁和上表求降	-13.5516
出異類之衆夥故仙聖傳圖英	-13.5516
則朝無冒位之人臣免妨賢之責	-13.5516
危而幸濟感哲人之無偶淚淋浪以灑	-13.5516
周以洞房北負連闥南注長廊綺疏交映	-13.5516
嗟中君容曜多欽	-13.5516
在陳有鼓在懸騰燭象星奔水類電郊燎	-13.5516
城府猶掌筆翰相府始置仍	-13.5516
塗中宿而方迷雕	-13.5516
夀性鉗忌冀與	-13.5516
夕息西山足輕條象雲搆宻葉成翠	-13.5516
天淵之清峭或殖	-13.5516
寳刀積塵埃思君出漢北鞍馬登楚臺	-13.5516
尚父一遇周王是親赤雀既下	-13.5516
山間湧水實表忠誠	-13.5516
常著朝服持晉節	-13.5516
廊桃之時沈舊聞之滋林春哀之	-13.5516
彼乘駽以伺質明以佇神	-13.5516
忘歸也若夫墨翟商瞿之倫學兼師術才	-13.5516
是以宜城刺史直㑹鹿門	-13.5516
是以齊兵次楚唯責包茅	-13.5516
杳㝠以飛跨九層鬱律以階梯步三休而	-13.5516
棲戀之心事同於此	-13.5516
楹前鑿柱即取遺書	-13.5516
沅漢十十五五忽合而復散乃有綺雲之	-13.5516
深遺哀之多欽基自之	-13.5516
渌波而覃拖冠百草而絶	-13.5516
為地道衝棚撞城	-13.5516
烋	-13.5516
烏始照宫槐遽而欲舒顧	-13.5516
異響從石上得銅鐘一枚長二尺一寸逺	-13.5516
白沙故地仍留龍種	-13.5516
相伊邂逅之未遇爰契	-13.5516
石有能為七言詩乃得上坐	-13.5516
砂如積雪者焉碧石如圓玦者焉水鳥駕	-13.5516
祝詳史具禮備樂	-13.5516
私通生子伯玉夀	-13.5516
紆逺轡於促界悲董相之淵致屢	-13.5516
而影響亦呌嘯而	-13.5516
莫若長子故受之以震	-13.5516
虞公屈産交亂風塵	-13.5516
行旅不通昆為政三年仁風大行虎	-13.5516
西來風悠悠東去雲山川千里外言笑難	-13.5516
豈若醴泉消疾聞乎建武之朝	-13.5516
販之士無薦管庫之家寂寞四維不闡五	-13.5516
酷郁交布原滿隰平於是金塘湎演緑竹	-13.5516
金鋪紫柱玉舄煒煌熻赩硱磳	-13.5516
非少長其意云吾與子非	-13.5516
鳿	-13.5516
鶴去關惟知反顧	-13.5516
􁴢	-13.5516
䳜	-13.5516
三月三日五月五日七月七日九月九日	-13.5516
下夫膠庠之典彞倫攸先所以昭振才端	-13.5516
世踈慨然寤歎念茲厥初	-13.5516
乃假翼於皇極遂事等話言之寄任鈞符	-13.5516
乃陟上鉉寵文方輝誕錫有秩綵吹旌旗	-13.5516
之來兮蔽日鸞之集兮	-13.5516
之日無榮惡乎辱無得惡乎	-13.5516
之美見炤伊闕臣本庸人識無逺度	-13.5516
之鳴瑟若夫紅華舒春	-13.5516
九職惟宣六典式序丹青所以傳其藹磬	-13.5516
云巴子使韓服告	-13.5516
以吐秀披絳華以舒英故香氛感俗淑氣	-13.5516
以為神物於是以金為樊置於宫	-13.5516
何得晨風起悠哉凌翠氛	-13.5516
信啓伏覽制垂賜集序	-13.5516
八年以春以秋且思且顧竟不能抑	-13.5516
公卿跌宕文史齎志	-13.5516
兮芝田紫蒲兮光水紅荷兮艶泉香枝兮	-13.5516
兮邂逅相遇適我	-13.5516
其十三巖巖顯朝市帝者	-13.5516
処	-13.5516
出乎江隂見綵霞之夕照覿雕雲	-13.5516
則足故驕滿之失取鏡函	-13.5516
力在無逸更以畏友朋濫吹乖名實郭	-13.5516
勉誨鏡伏廻環憫黙失圖心魄交懅淵谷	-13.5516
北眺五陵謂長安陽茂平此五陵	-13.5516
匡臨朝闡命遏昬立綱事緜毗漢義締翼	-13.5516
及即位集公卿以下有文學者八十餘	-13.5516
及日景而傾河渭豈以走飲哉其十精衛	-13.5516
及此者因表而出之附于	-13.5516
含詠吐辭笑月出於陳歌感蔓草於	-13.5516
咿	-13.5516
多謬誤君當恕醉人	-13.5516
天也天命燕降卵於有娀氏女吞	-13.5516
天勃逆舊楚氣蹂	-13.5516
天為之笑開口流光	-13.5516
妙辨析毫釐既待問	-13.5516
始俛仰星紀奄將中南	-13.5516
孔上獲百年下者七十豈復䟽於導養	-13.5516
守仙閉方智寂術盡魄兀心亡白生不能	-13.5516
室多故余懼及焉其何所可以逃死史	-13.5516
實堯之裔累以擾	-13.5516
小為次不以天子之子為上	-13.5516
居商丘祀大火相土因之故商主大火	-13.5516
山海經云玉山王母所居又云處崑崙之	-13.5516
崽	-13.5516
康公從治命以三子	-13.5516
延日架虬柱之嚴	-13.5516
弱何以任忝伏惟淮泗猶梗趙魏未賔中	-13.5516
弿	-13.5516
彭澤令其冬解綬去職時四十一	-13.5516
役公以金僕姑射南	-13.5516
往視之鳴若隘隘二	-13.5516
從蕭驃騎新帝壘鯢妖	-13.5516
志在四海而尚恭儉心包宇宙而無	-13.5516
忞	-13.5516
恒得親舊知其如此或置酒招之造飲	-13.5516
悲行止之有節空委棄於床前願在晝而	-13.5516
慥	-13.5516
按張華博物志亦稱鑄銅之工不復可得	-13.5516
推服焉由是名冠州里聲流京邑	-13.5516
摣	-13.5516
擁褐曝前軒南圃無遺秀枯條盈北園傾	-13.5516
操知名時在君右常歎君温雅平曠自以	-13.5516
斜斫曰槎斬而復生曰枿	-13.5516
斯興閭閻懈廉退之	-13.5516
於晝夜之道了然如此古之聖賢唯孔子	-13.5516
於酒足矣妻子固請種秔乃使二頃五十	-13.5516
施無不洽廊廟求才多所任	-13.5516
日徒抱皇慈無充	-13.5516
旻靈拂采霄景汰色復交書河楚置傳江	-13.5516
易簀之言嗟哉斯人没七百年未聞有稱	-13.5516
是以器械填委既包	-13.5516
晏子曰竊説先生之義願乞所以	-13.5516
智周三傑斃於婦	-13.5516
暮秋野興賦得傾壺酒劉伶正	-13.5516
曰安有巢毁而卵不破	-13.5516
曲此曲悲且長今日樂相樂别後莫相忘	-13.5516
有主而無謀三也有謀而	-13.5516
未果尋病終後遂無問津者	-13.5516
未深思於五難先自擅於	-13.5516
東王公與玉女投壺	-13.5516
桓伊善挽歌庾晞亦喜	-13.5516
極旌心徒自懸若華想無慰憂至定傷年	-13.5516
槩觀古論得失馬服	-13.5516
樓流光正徘徊上有愁思婦悲	-13.5516
歌而編次本集者不悟乃題云擬挽歌辭	-13.5516
歌非吾事依依在耦耕投冠旋舊墟不	-13.5516
此未醉時說也若已醉何	-13.5516
殉國人哀之賦黄鳥	-13.5516
池志轢柏舉裂禮紊度	-13.5516
河隔塞殊山梁民生感曠悲路長	-13.5516
泉奔出衆皆稱萬歲	-13.5516
深謩逺鏡左輪朱	-13.5516
清揚共美賢聖同羇陳詩難别贈絹傷離	-13.5516
渭各流異恩情於此分故人贈寳劒鏤以	-13.5516
溠	-13.5516
漢之流曝以秋陽之景	-13.5516
無民四也有民而無徳五也	-13.5516
燿開霞地煦景曖山艶水波側聞	-13.5516
物宗淵懿無夐匪	-13.5516
猶言吟溟浦應有落帆還	-13.5516
玉筐少選發而視之燕遺卵而北	-13.5516
玉露曖天網絲挂	-13.5516
王充論衡羿請不死藥於西	-13.5516
王母羿妻嫦娥竊以奔	-13.5516
瑶光日闡玉繩永休謹拜表遣兼長史	-13.5516
璽書勞異曰始雖垂翅	-13.5516
用才何以廢共鯀重華	-13.5516
田不納履李下不整冠	-13.5516
異色而低斾怨街邑之綵驂弔原野之縞	-13.5516
瘠餒有日矣道濟謂曰賢者處	-13.5516
皆敬宗之義也如年譜以族祖族孫	-13.5516
皛皛川上平懷役不遑寐中宵尚孤征	-13.5516
知之求而獲焉苦加捶辱滔深以為憾	-13.5516
綜曰九龍本周時殿名也	-13.5516
縏	-13.5516
羕	-13.5516
翳哲相嶽曜神居功美	-13.5516
耀夫太常圖列星之	-13.5516
耕亦已種時還讀我書窮巷隔深轍頗	-13.5516
聲亦復歡然有喜常言五六月中北	-13.5516
脫下競圖服淆蕩實綴仁聖煇燿國靈導	-13.5516
舜禹之心臣守巢由之節則道	-13.5516
若實綾錦共文瑶貝合質	-13.5516
英布傳布反薛公曰布	-13.5516
英無輟代上朝豈惜鏡中明但見一葉落	-13.5516
荂	-13.5516
莖蘂金光而絶色藕	-13.5516
葉翡累兮翠疊非郢路之遼逺	-13.5516
蕙望春紅青莎	-13.5516
行抱朴守静君子之篤素自真風告逝大	-13.5516
行草木勿踐輟鑊歛火吹	-13.5516
術椒庭承月碧	-13.5516
觿	-13.5516
言東坡曰吾於淵明豈獨好其詩哉如其	-13.5516
詎有幾縱心復何疑趙泉山曰二詩皆直	-13.5516
詩不云乎有美一人清	-13.5516
詩侍始安王石頭緒官承盛	-13.5516
詩書敦宿好林園無俗情如何捨此去	-13.5516
誰知斯意東坡曰讀史述九章夷齊箕子	-13.5516
謐信陵佩魏印秦兵不敢出慨無	-13.5516
變化於心識浮恍惚而無涯泛靈	-13.5516
資遂抱羸疾江州刺史檀道濟徃候之偃	-13.5516
赤玉則南海輸賮	-13.5516
起飛鳥時相過搔首廣川隂	-13.5516
躇	-13.5516
軒豈方伊類捉髮躬勤	-13.5516
轉難傳飛騰水陸咀嚼靈𤣥若乃壁上真	-13.5516
郭璞註云王母亦自有離	-13.5516
醉斬白蛇無以暢其靈景帝非醉幸唐姬	-13.5516
鈲	-13.5516
長沙王又敗於河橋孟	-13.5516
長飢投耒去學仕將養不得節凍餒固纒	-13.5516
闢仁動今古四三王而六五帝不亦休哉	-13.5516
阻兮至南國迹巳徂兮心未	-13.5516
陳五禮明六詩貫穿	-13.5516
陳文帝登祚尊皇太后詔	-13.5516
陽而東踐尚葐蒀而未散乍	-13.5516
隅東八樹而成林言其大也	-13.5516
靁	-13.5516
鞭之政任重臨淄無遣獄之化自分金帝	-13.5516
順祗無涵祕稽往徴古僉欣升	-13.5516
願留就君住從今至歲寒其六	-13.5516
食見樹木交䕃時鳥	-13.5516
鬱逺域清麗瓊都國填氓負朝委事虚	-13.5516
鶊	-13.5516
麝以太芬摧阻天	-13.5516
黄蓋已先沉於杜侯	-13.5516
龍事孔甲賜之姓御	-13.5516
龍氏龍一雌死帝	-13.5516
􁖞	-13.5516
􁖥	-13.5516
􁛩	-13.5516
晝夜更直於建禮門	-13.5516
玈	-13.5516
光武欲建都洛邑篤以闗中先帝舊	-13.5517
出鎮同州世宗即位進柱國蒲州刺	-13.5517
四月景遣宋子仙襲	-13.5517
禮答之羣臣乃止於是遂申三	-13.5517
魯公領宗師二年世宗崩遺詔	-13.5517
麻之節苫廬之禮率	-13.5517
牙鉤爪遇忠信之人則噬而食	-13.5517
公卿上表固請俯就權制過葬	-13.5517
天為生食其樹名瓊枝	-13.5517
嫘祖為黄帝正妃生二子	-13.5517
懸弓靈幕繫馬寒坰	-13.5517
来訖於魏末叙為世譜	-13.5517
校經史又捃採衆書	-13.5517
禄閣夜有老人以青藜	-13.5517
談劫燼之灰飛辨	-13.5517
負譽矜前風飈凜然	-13.5517
遵前典以申㒺極	-13.5517
淳風布政常無欲至道防人能變俗	-13.5517
陸遜傳昔桓王創基兵不一旅而開	-13.5517
前而民不害是以天下樂推而不厭	-13.5518
蓋聞意氣難干非資扛鼎	-13.5518
風神自勇無待翹	-13.5518
不充給故以鐵足之鑄銅	-13.5518
以防外兵之入焉以此推之明知春秋迄	-13.5518
安經讓禮席正業理儒衣似得	-13.5518
恒輔善而佑仁夷投老以長飢回早	-13.5518
故銅兵轉少鐵兵轉多年甚一年歲甚一	-13.5518
書不事章句之學頗留精	-13.5518
秀八炤丹實四臨公子不至山客徒	-13.5518
而無同惡相濟五敗也故豺狼十萬而終	-13.5518
一榦方之舊說彌復	-13.5518
上景懵懵雲外山	-13.5518
不勝慙懅屏營之情	-13.5518
不及遜從弟立亦有才志與君同時齊譽	-13.5518
不還不還有長意長意希童顔身識本爛	-13.5518
乃深賜天衷廣映祗迹伏惟陛下騫英駕	-13.5518
之共啜盼萬騎之相泫	-13.5518
之南徐州刺史辭闕表臣過承寵靈閔	-13.5518
云骨身舍利有三種	-13.5518
五光徘徊十色陸離	-13.5518
以榮以渥且慙且	-13.5518
以長分美惡作以異途原百行之攸貴莫	-13.5518
伊余云遘在長忘同笑言未	-13.5518
伯繇之伐趙襄子初晉陽襄子金將盡問	-13.5518
依依舊楚邈邈西雲之子之逺良話曷聞	-13.5518
便賜斷表伏聞當	-13.5518
六歸於竇氏滔甚敬之然蘇	-13.5518
兹地乃閩城萬古通漢使千載連	-13.5518
制度日衰富貴之家猶或厚	-13.5518
匪惟諧也屢有良由載言載眺以	-13.5518
却掃塞門不仕左對孺人	-13.5518
君子防未然不處嫌疑	-13.5518
含聲而逺近琴吐音而有無奏神鼓於玉	-13.5518
吾與汝事夫子於洙泗之	-13.5518
唐而永歎甘貧賤以辭榮淳源	-13.5518
圃之上其四丹木生何許	-13.5518
夕復來歸量力守故轍豈不寒與飢知音	-13.5518
大國修聘禮親鄰自此敦	-13.5518
大臣才非古賢任鈞左戚祚	-13.5518
大驚問所從來具答之便	-13.5518
天下之兵鑄而象之故西京賦云	-13.5518
天人革命絶景窮居	-13.5518
天子謡曰云云其三迢遞槐江嶺是謂	-13.5518
奉上天之成命師聖人之遺書發忠孝於	-13.5518
如一藿香桂以過	-13.5518
如平常赤泉給我飲	-13.5518
宇宙之麗難息絶氣聊書竹素儻不滅焉	-13.5518
對酒數杯還已醉風雲	-13.5518
山河兼金疊組爵	-13.5518
度虹氣岨王猷上宰軫靈略宏威肅廣謀	-13.5518
延佇猶比之無色方之非侣於是彫臺繡	-13.5518
彌覯荒昧今便奉官外甸	-13.5518
復狐疑去去當奚道世俗	-13.5518
心之請丹識以傾詔	-13.5518
悲高樹之多䕃慨有時而不同願在夜而	-13.5518
惟禎國慶方夷則繩澤式茂故五	-13.5518
愛氣馥拾蘂憐色滋色滋畏沃若人事亦	-13.5518
懅生死於半氣惜百年於一光故以鑄金	-13.5518
戈堞乗嶠架烽樓燕兵歌越水代馬思	-13.5518
所悲湯東澗曰孤雲倦翮以興舉世皆依	-13.5518
所統臨城縣山中獲草一株交柯攅莖紫	-13.5518
折人文詎及藿香	-13.5518
攻恭恭厲士衆擊走	-13.5518
政實惟民天競秬獻	-13.5518
星燭波連斯乃靈迹深覃睿衷	-13.5518
昭景緯則川岳發華故寳鼎白雲瑞集軒	-13.5518
晉崔懿之傳懿之謂	-13.5518
景福咸湊芳猷允塞羽泳式造紘	-13.5518
景而藏明願在竹而	-13.5518
暮志氣非上春若無孤鳥還瀝泣何所因	-13.5518
月美目艶起秀色爛發窈窕暫見偃蹇還	-13.5518
有小口髣髴若有光便捨船從口入	-13.5518
有良田美池桑竹之屬阡陌交通	-13.5518
杳杳長役思思來使情濃恒忌光氛度	-13.5518
林川澤丘陵墳衍	-13.5518
極狹纔通人復行數十歩豁然開	-13.5518
機務位班昔良知闕前	-13.5518
歌舞之妙無出其右滔置之别所蘇氏	-13.5518
水藏珪以窮年擬若木以	-13.5518
淵明先親君之第四女也凱風寒泉之思	-13.5518
漂夜色河凝暠如霜悵哉心神晩燭	-13.5518
漢主之懷沛辭金陵之匪義降雲陽之杳	-13.5518
澤芬則照電爍日池光沼緑則明璧洞室	-13.5518
然黔首豈不戴天竊思伏皁九載齒	-13.5518
燭照玉容於兩楹悲扶桑之舒光奄	-13.5518
牀繐帳朝晡上	-13.5518
王人猥垂奬勸仰天光休俯	-13.5518
珠蘂不盈簞譬如明月色流采映	-13.5518
生連理二木隔澗縢枝相通越壑跨水合	-13.5518
用素棺不得施漆及自棺之外一無所設	-13.5518
發疎勒時尚有二十六人隨	-13.5518
相思巫山渚悵望陽雲臺膏	-13.5518
眉向珠網瀝思視青苔	-13.5518
石室素女張烟霧於海際耀光景於河渚	-13.5518
磵夐嶄崒銅山鬱縱	-13.5518
稱乃是延壽之子延壽已	-13.5518
竊以皇衢永謐則玉	-13.5518
等至重宣詔㫖猥辱百僚省睇未交心靈	-13.5518
篋笥中恩情中道絶	-13.5518
終乏郭伋并壤之信固以	-13.5518
絶餘瀝闚竈不見	-13.5518
草而品第廼崇軒服逾峻顧兹	-13.5518
蕭條隔天涯惆悵念常	-13.5518
衛瑶祀若旍金扆如綴朝野傾儀咸歸上	-13.5518
衣如可贈寧濕岨雲梁	-13.5518
袁常侍昔我别楚水秋月麗秋天今君客	-13.5518
裏貞潤暐曄自然天華採掇	-13.5518
西陵樹詎聞歌吹聲	-13.5518
見杜若之始大結琱鱗以成車懸雜羽而	-13.5518
誰賢少年歌且止歌聲斷客子	-13.5518
謝主簿宿季月寒氣重滋蘭錯無芳北風	-13.5518
譽多埃塵朝生輿馬間夕死衢	-13.5518
讒嬖之不祥却文綵之媱冶去利劒之鏗	-13.5518
貞風凌俗爰感懦夫箕子云去	-13.5518
負圖之重職惣表裏地	-13.5518
軍荆州刺史表茂寵廼臨炫奪	-13.5518
軍領軍新除尚書左僕射溳陽郡國公	-13.5518
逺規唐虞永揖之典近謩漢魏	-13.5518
道喆時遥裔雒符雜	-13.5518
道潤衍溢頌祉載繁嘉生蠲慶風雲瑞節	-13.5518
采妄賁異等荆門務要方城任積水交沅	-13.5518
陽亭擥淚訪亭	-13.5518
隆業體淹濟思情通敏功書王府	-13.5518
靈縱睿矩心明裁	-13.5518
非常之冊分天而降冠古之典	-13.5518
音問蘇氏悔恨自傷因織錦	-13.5518
風不定子欲養而親不在	-13.5518
風聒地起吹我至幽燕幽燕非我國窈窕	-13.5518
鵷	-13.5518
黄山谷曰觀淵明此詩想見其人慈祥	-13.5518
鼎之恭更懼循墟之速矧乃三司業貴上	-13.5518
帝進軍頓西昌有	-13.5518
水神遭箭山靈見鞭	-13.5519
何佟之等并撰五禮千餘巻	-13.5519
晉荀息請以屈産之乗	-13.5519
彤弓一彤矢百玈弓	-13.5519
棚	-13.5519
玉律一具并玉秤尺斗升合等始得成功	-13.5519
八嵗能賦詩初為晉安王國常侍	-13.5519
司馬子魚曰今一㑹而	-13.5519
説曰王君夫有牛名八百里駮常瑩其角	-13.5519
呴	-13.5519
别庾七入蜀峻嶺拂陽烏	-13.5519
江州刺史領義陽太守封武康侯卒	-13.5519
願子著朱鳶知余在𤣥	-13.5519
三昭三穆與太祖之廟	-13.5519
埋怪蛇爾有陰德陽報將加終為楚相卒	-13.5519
王祥之母鮮鱗是求	-13.5519
連釣浦凍塞寒流精誠有感無假沉	-13.5519
元酒同来訪蔡家	-13.5519
登山望雷居士精	-13.5519
鼎飪未和須公而正	-13.5519
吹臺山銘江寧吹嶺	-13.5519
夫人侍兒賈佩蘭説在宫	-13.5519
往有頃父亦來喜	-13.5519
抑揚詞氣曲變陽春	-13.5519
書曰御史府中列柏樹常	-13.5519
為論下筆成章逸態横生新情振起風雨	-13.5519
之永貴里私第春秋六十有四詔贈敷	-13.5519
劂	-13.5519
石墾壤箕畚運於渤海之尾	-13.5519
禺同山有金馬碧雞	-13.5519
金匱藥方一百巻肘後要急	-13.5519
三白虎出入人間送喪踰境百	-13.5519
也又曰富與貴是人之所欲	-13.5519
失情不依世其色能温其言則厲樂勝朋	-13.5519
山者亦江中眇小山也	-13.5519
山雲舞以備六代南北郊	-13.5519
曚	-13.5519
犧象交陳鬱尊四塞黍	-13.5519
竦枝碧澗卧根石林日月斷色霧雨恒隂	-13.5519
蕭𬒳尚書敦勸重讓表	-13.5519
蘆水門關茅津成觀	-13.5519
襲杞烈公爵天和末拜宗	-13.5519
西有鹽泉鐵冶橘林銅陵	-13.5519
二十萬言而愛竒尚異深	-13.5519
于沼之濵乃射宿餌魴前繳鷫鷞青黏	-13.5519
冠以五經授宋始安王劉子真略傳大義	-13.5519
前王之清誨曰天道之無親澄得一以作	-13.5519
助國征討假撫軍大將軍後	-13.5519
君従南來五馬立踟蹰使君遣	-13.5519
四十二年身經六十九戰至於多竈唱籌	-13.5519
多凍役徒㡬盡	-13.5519
夜不絶聲勺飲不入口七日秦哀公為	-13.5519
尚婉戀於樊陽潘去洛而掩涕陸出吳而	-13.5519
恥為關外民上書乞	-13.5519
敢因斯義乃作銘曰遼水之東	-13.5519
於牛斗之間雷孔章	-13.5519
於魚齒之下甚雨及之楚師	-13.5519
明試以功乃可協和萬邦咸	-13.5519
曰王粲字仲宣山陽高平人也	-13.5519
本草曰白楊北土極多人種	-13.5519
歸其太子太子得立其事秦必重而	-13.5519
氏冀慮夀害伯玉嘗置複壁中	-13.5519
滯擥九仙之輕華故抱魄寂處凝神空居	-13.5519
甎	-13.5519
神道碑公諱𢎞字廣畧原州長城縣人也	-13.5519
神飜覆而亡據夫以雄才不	-13.5519
羣臣皆得列觀及諸蠻夷君	-13.5519
育而不苗者吾家之童烏乎九	-13.5519
能屬詩十三而孤邈過庭之訓長遂博覽	-13.5519
自殊勢亦知當乖分未謂事已及興言在	-13.5519
蓋聞膏脣喋喋	-13.5519
血歌辭時恭時祀有物有則伊我上聖實	-13.5519
親去歲家南里薄作少時	-13.5519
誠惶誠恐頓首頓首死罪死罪	-13.5519
豫章記曰吳未亡時恒有紫氣	-13.5519
道陳上登渭橋咸稱萬	-13.5519
邈深晝窈鬱重虚覘炫燿而可見	-13.5519
長卿梁伯鸞之徒然未能悉行也所與神	-13.5519
鼈胾羮臑㹠柘漿窮嬉極娛雲	-13.5519
𤣥字公祖梁國睢陽	-13.5519
㘿	-13.5519
㯂	-13.5519
一何愚兀傲差若	-13.5519
一樹枯則一樹生如是	-13.5519
三良子車氏子奄息仲行鍼虎穆公	-13.5519
並有不羈之才其後各以	-13.5519
中則赤下則黑黑金是鐵赤金是銅	-13.5519
丹淵山差池而鏡壑水清明而抱天山含	-13.5519
主報仇皆託古以自見云詠三良	-13.5519
乃以蟲置酒中立消	-13.5519
乃陳好言乃著新詩一日不見如何不思	-13.5519
之豐樂何禽荒之足重	-13.5519
之間乎是其子男之國虢	-13.5519
乍風驚而射火或箭重而	-13.5519
也穆天子傳西王母宴穆王於瑶池之上	-13.5519
事及讓齊王九錫備物	-13.5519
于惠百里飡勝如歸聆善若始	-13.5519
亦柔好音梁黿棧鼉越險浮深逺	-13.5519
亦無從考見惟命子詩曰於皇仁考淡焉	-13.5519
京洛多風塵素衣化	-13.5519
亭亭明玕照落落清瑶流恨不及周穆託	-13.5519
人及豪傑兼并之家於諸陵强本弱末	-13.5519
人懽心孔洽棟宇惟	-13.5519
人温嘗問君酒有何好而卿嗜之君笑而	-13.5519
仁義禮節是所用心緹	-13.5519
仙去小臣攀龍髯	-13.5519
以及時如彼稷契孰不願之嗟乎二賢逢	-13.5519
便扶向路處處誌之及郡	-13.5519
傷好水燕桃廊琴	-13.5519
儒守一經未足識行藏休上人怨	-13.5519
兖衝要維扞中畿司牧之任宜詳其授後	-13.5519
公及邾師戰于升陘我	-13.5519
兮曉未半星雖流兮夜何央憶	-13.5519
兮霞淺淺霞兮駮雲一合兮一分映壑兮	-13.5519
其始見也若紅蓮映池其少進也如綵雲	-13.5519
其方色土與之苴以白茅歸以立社	-13.5519
其明在日其位居春	-13.5519
其畜之所多則馬牛羊逐水草	-13.5519
其詳不可得而審也且荆軻刺秦王之日	-13.5519
删	-13.5519
刹畫影象兮在丹青起淨法兮出西海流	-13.5519
前珠貝性明潤蘭玉好芳堅不以宿昔岨	-13.5519
前表猥降前詔未垂鏡恕一省驚慙再悸	-13.5519
劳	-13.5519
北山宿鳥驚東林誰謂人道廣憂慨自相	-13.5519
匝翠屏環合麝宻周彰燈爐重沓	-13.5519
取其歸三良與主同死荆卿	-13.5519
召患哀矣韓生竟死	-13.5519
同財家人無怨色詩曰	-13.5519
名名可宗兮聖風立立聖風兮兹	-13.5519
名山况我葵藿志松木	-13.5519
命劉遺民撰同誓文以申嚴斯事其間譽	-13.5519
和挹讓莊贊樂推	-13.5519
啓圖靈基再固頃	-13.5519
善自名按是時淵明年三十七中間除癸	-13.5519
喜暮止不安寢晨止不能起日日欲止之	-13.5519
嘉遊未斁誓將離分送爾于路	-13.5519
嘯青崖間秦皇慕	-13.5519
囂伊謐爰崇爰貴以望以實	-13.5519
四日甘露降於彭山松樹至九日又降如	-13.5519
國公儉忠欵昭著任寄隆深	-13.5519
圓岸伏丹瓊下視雄虹照俯看	-13.5519
在何辰雜珮雖可贈	-13.5519
大修器甲將討侯景元帝	-13.5519
奈何忘宿志而慙兒女子	-13.5519
奉先人遺體奈何數乗此險	-13.5519
威飾以崇望實可加兵二百	-13.5519
嫰	-13.5519
子公輸般為雲梯以攻宋墨子解帶	-13.5519
安可以底慎財賦交正庶	-13.5519
宗式範胄子兼掌宗伯望實惟	-13.5519
寂兮寂巳逺夜釭夜兮夜何邃嗚呼哀哉	-13.5519
寒暑有往來功名安可留擾擾當途子	-13.5519
寥亮而藏摧意夫人之在兹託行雲以送	-13.5519
將夏州刺史梁老首領今以相還尸鄉不	-13.5519
尋向所誌遂迷不復得路南陽劉子驥	-13.5519
尚或未珍不有同愛云胡以親我求良友	-13.5519
屈昭景及諸功臣於長陵後世世徙吏	-13.5519
屬當興運自昔登庸	-13.5519
山通岷峨襟帶百縣縈抱七州上	-13.5519
州祭酒乙未距庚子	-13.5519
州金笳夜一逺明月信悠悠雲色	-13.5519
帝紀曰其先出自炎帝神農氏為	-13.5519
平故秦東陵侯秦滅	-13.5519
平生歡玉牒裁可	-13.5519
年成邑二年成都而民五倍	-13.5519
府金而遺之辭金而受粟有	-13.5519
弄以寄其意貴賤造之者有酒	-13.5519
張儀勸伐之遂西舉巴	-13.5519
張遼臨於赤壁王濬下於巴	-13.5519
彈載詠爰得我娯豈無他好樂是幽居朝	-13.5519
情賦所謂國風好色而不	-13.5519
惟令之月惟嘉之辰	-13.5519
意滿辭未陳曽風漂别蓋北雲竦征人	-13.5519
感傷中夕弄清琴戾戾曙風急團	-13.5519
慷慨思南歸路遐無由	-13.5519
應四塞近獲豫州刺史劉	-13.5519
懋勲尠居斯地	-13.5519
懼失正和晦裂蜺霧之災且濫庶	-13.5519
成斯地意周祀五帝歌	-13.5519
我落其實而取其材	-13.5519
所感想㤀淫荒心堂空惟思詠和	-13.5519
承祖所殺楚之時年十七送父喪還	-13.5519
擁腫之異木卒成踴躍之妖金所謂孽由	-13.5519
擬阮公夜中不能寐	-13.5519
攀靈河漢駿奔明哲慙迹駭衷無情以處	-13.5519
敬通見抵罷歸田里閉	-13.5519
文清公曰按詩中言本志少	-13.5519
文章非我佳人莫之能解	-13.5519
文辭金石韻毫翰風飈豎	-13.5519
新秋月臨流别友生凉風起將夕夜景湛	-13.5519
新臺之青樓想上宫之邃	-13.5519
既而中塗甚雨未獲圍原	-13.5519
日月澤浸飛泳聲	-13.5519
昔東海于公僅有一節猶或	-13.5519
昔董仲舒作士不遇賦司馬子長又	-13.5519
星之綵色輟隂陽於形有	-13.5519
晉令水戰有飛燕船	-13.5519
晚節師範其萬一也趙泉山曰或疑此䟽	-13.5519
曉結摐虚金而下欷吟空	-13.5519
書亭炤妖火此而可	-13.5519
月及熒光掩朝日與赩火出金沙而延曜	-13.5519
有好容顔我欲觀其人晨去越河關青松	-13.5519
有客有客爰來爰止秉直司	-13.5519
有文朝采方藹頻煩金紐左右緹	-13.5519
有鳥如烏文首白喙赤足曰精	-13.5519
朝廷以兄弟相讓不無前史	-13.5519
東逝順流追時遷日没星與昴勢翳西山	-13.5519
柔始分清濁異位天成	-13.5519
栢寢呉臺柘館複道耿介而連雲阿閣穹	-13.5519
案盈我前親舊哭我傍欲語	-13.5519
槐鉉之任百王攸先具司是屬冠冕式	-13.5519
欲擅權紛亂諸事	-13.5519
欲東渡烏江烏江亭長檥船待	-13.5519
此讚以明古今銅鐵之兵	-13.5519
武伏川梁鎩翮由時至感物聊自傷	-13.5519
民生推逝電流光	-13.5519
民聲稜絶俗威贍殊隣宋主陵遐紫殿遏	-13.5519
永願白沙渚遊衍遂相從丹山有琴瑟不	-13.5519
沃陽縣開國公授南汾州諸軍事	-13.5519
波提東度祗夜南翻	-13.5519
泣長沙楚客悲辰陽古今雖不舉兹理亦	-13.5519
流其清洛洛平圃即	-13.5519
液瑾瑜發竒光豈伊君子寳見重我軒黄	-13.5519
淪漢武願長年皆負雄豪威棄劒	-13.5519
渠央山海經云不死民在交脛國東其人	-13.5519
游戀所生如何淹在	-13.5519
滋謙逺貞自基津	-13.5519
漅	-13.5519
潜謀貫日征輪未誓偏旗銜律原燎	-13.5519
濟國險淮泗邦塵要藩重設匪賢則親亦	-13.5519
為外人道也既出得其船	-13.5519
為子先行子隨我後	-13.5519
無以肉食資取笑	-13.5519
燎綺席生浮埃桂水日千里因之平生	-13.5519
爵假息不悟瑶離降映繩河低文遂翊言	-13.5519
王仲宣雜詩曰風飄揚塵起白日忽已	-13.5519
珮兮且一欷念錦衾兮以九傷及冴隂	-13.5519
珮委他榮鬱閶闔寵重山河皇	-13.5519
生人傲然自足抱朴含	-13.5519
生碧草沅湘含翠烟鑠鑠	-13.5519
當辨有無無疑衆寡	-13.5519
畿上有封若今時界也	-13.5519
疑上下文義不相貫遂取山海經	-13.5519
病祜饋之藥抗服之無疑心人多諫抗抗	-13.5519
痛縈盈其如帶嗚呼哀哉複林油雲重山	-13.5519
盡妖怨當忘吾師以	-13.5519
盡期在必醉既醉而退曽不	-13.5519
眼前所若同逺好臨風載悠然還故	-13.5519
知何許人也亦不詳姓字宅邊有五柳樹	-13.5519
神丹頓捨心知愛永	-13.5519
祿今子伯之貴孰與君之	-13.5519
秦時攻爭紛亂兵革互興銅	-13.5519
節當易簀之際猶不忘詔其子以人倫大	-13.5519
粲無西海之浩蕩見若木之千	-13.5519
紐未剔璽書頻降復改冊湘區分瑞衡服	-13.5519
紳裳視絶雲銜意方此時誦飾江	-13.5519
綸討景發白下中江	-13.5519
綺輿澁神行而撫文輦傍建春而南蹕徑	-13.5519
縣告靜象郡無虞	-13.5519
繯	-13.5519
義之閑西山之所以有餓夫也	-13.5519
者也今輟和毗道仄身	-13.5519
者多取一時之秀盧孔景之徒並	-13.5519
而仰漢望虬欄之	-13.5519
而無駟牡之路可廣	-13.5519
而聳慮畏崖之請取	-13.5519
聖人窮理盡性宜享遐期而堯	-13.5519
臣實空儒伊何以勝	-13.5519
臣少識猶晦哀辛方襲藉以毓采上霄	-13.5519
臨洮身長三丈足跡六尺	-13.5519
至凝亭物帷幄復使承官楚封祗	-13.5519
至汝潁間楚之少有英	-13.5519
與日競走俱至虞淵下似若無勝負神力	-13.5519
與而詎前馬寒鳴而不息掩金觴而誰御	-13.5519
與錦紳色練練而	-13.5519
良辰以保爾躬勸農悠悠上古厥	-13.5519
荆門遭廩延之戮	-13.5519
莖葉雜黍米釀之至來年九月	-13.5519
萌資待靡因誰其贍之實頼哲人	-13.5519
藻瑞益於姬帝紫雲垂	-13.5519
蘇氏忿之不與偕行	-13.5519
蜮山淵所容衣劒不貸黥赭幽	-13.5519
[...]
