<unk>	0
<s>	0
</s>	0
之	-4.23768
/	-4.62864
(	-4.67121
以	-4.68135
)	-4.95293
為	-4.98275
而	-5.16773
其	-5.22644
於	-5.33084
者	-5.35759
有	-5.35765
一	-5.50748
上	-5.60104
人	-5.62615
官	-5.70307
不	-5.72434
及	-5.74285
則	-5.80046
曰	-5.82414
自	-5.84741
王	-5.85844
也	-5.89917
)(	-5.92517
事	-5.94813
至	-5.96709
與	-6.01244
中	-6.0261
/)	-6.06388
行	-6.06604
用	-6.08437
大	-6.08537
等	-6.09433
二	-6.16794
令	-6.17291
無	-6.17806
三	-6.20287
各	-6.22895
所	-6.22918
皆	-6.24
時	-6.26088
凡	-6.28493
于	-6.29503
司	-6.29553
同	-6.30658
在	-6.33252
正	-6.33757
文	-6.36561
置	-6.37302
臣	-6.38614
▁	-6.39158
如	-6.40517
掌	-6.41333
又	-6.42715
奏	-6.43155
州	-6.43188
言	-6.4371
亦	-6.44817
内	-6.45565
今	-6.45826
書	-6.48054
四	-6.48228
故	-6.52216
使	-6.54146
五	-6.55171
下	-6.5538
命	-6.55765
出	-6.5577
名	-6.58146
府	-6.59128
進	-6.59858
後	-6.60084
子	-6.60393
禮	-6.62051
一人	-6.62287
明	-6.63441
定	-6.63529
日	-6.64083
本	-6.64201
道	-6.64423
復	-6.65238
惟	-6.67598
當	-6.68076
除	-6.68118
若	-6.68256
設	-6.6851
前	-6.68514
知	-6.70419
乃	-6.70847
此	-6.72044
相	-6.73219
是	-6.73536
公	-6.74153
分	-6.75777
或	-6.76003
入	-6.76215
兼	-6.76626
任	-6.77445
已	-6.77683
請	-6.77796
從	-6.77953
六	-6.7972
元	-6.80792
初	-6.81649
主	-6.81797
天	-6.82286
俱	-6.83232
立	-6.83579
即	-6.8372
成	-6.83809
安	-6.84012
國	-6.84238
門	-6.84663
見	-6.85611
年	-6.85822
學	-6.86699
實	-6.88481
然	-6.88741
長	-6.88933
得	-6.89008
非	-6.89082
張	-6.89209
改	-6.89264
詔	-6.90207
將	-6.90422
諸	-6.91361
賜	-6.92092
外	-6.93189
字	-6.94167
矣	-6.96038
民	-6.96119
二人	-6.96541
仍	-6.96654
陳	-6.96843
先	-6.97453
宜	-6.97485
制	-6.97616
監	-6.97997
重	-6.98354
既	-6.98818
議	-6.99601
多	-6.99846
加	-6.99889
通	-7.00653
可	-7.01023
祭	-7.01737
並	-7.02516
金	-7.03537
作	-7.04631
未	-7.06364
方	-7.06435
謂	-7.0765
罷	-7.08373
封	-7.08683
云	-7.09303
稱	-7.09514
馬	-7.09792
遂	-7.09917
生	-7.10906
奉	-7.10933
省	-7.10972
焉	-7.11702
服	-7.12108
始	-7.12397
士	-7.1264
南	-7.12797
位	-7.1284
李	-7.13507
舉	-7.14328
西	-7.14529
治	-7.14935
守	-7.15097
朝	-7.15436
充	-7.15848
領	-7.16445
授	-7.16724
軍	-7.1738
徳	-7.17665
并	-7.17756
選	-7.18529
應	-7.18552
合	-7.1964
法	-7.19825
親	-7.19851
取	-7.19912
周	-7.20032
八	-7.20422
次	-7.21123
經	-7.21273
兩	-7.21329
平	-7.21627
雖	-7.22331
東	-7.22352
職	-7.22583
因	-7.22679
兵	-7.22947
居	-7.231
九	-7.23815
節	-7.246
必	-7.24954
考	-7.26091
史	-7.26331
左	-7.26422
儀	-7.26523
師	-7.26894
右	-7.26925
十	-7.2704
何	-7.27157
陞	-7.2777
典	-7.28216
給	-7.28553
漢	-7.28856
例	-7.28924
禮部	-7.29216
建	-7.2988
傳	-7.29989
小	-7.3022
直	-7.30467
武	-7.30597
和	-7.3126
欲	-7.32275
部	-7.32432
山	-7.32489
樂	-7.32737
數	-7.33679
受	-7.34375
興	-7.34406
宗	-7.34467
由	-7.34771
天下	-7.35139
左右	-7.35761
開	-7.35909
家	-7.35952
縣	-7.36058
都	-7.36224
送	-7.36748
心	-7.37017
黄	-7.37198
尚	-7.37499
廟	-7.37734
止	-7.37785
髙	-7.37827
引	-7.38502
拜	-7.39233
世	-7.39455
表	-7.39598
卿	-7.3966
尚書	-7.40076
政	-7.40235
爾	-7.40418
朕	-7.40494
歸	-7.40898
聖	-7.41444
神	-7.41834
來	-7.42932
修	-7.43065
具	-7.43508
七	-7.43735
○	-7.43814
氏	-7.44282
宋	-7.44792
清	-7.4546
告	-7.45643
備	-7.45727
處	-7.45773
載	-7.46012
常	-7.46117
章	-7.46176
宣	-7.46618
詣	-7.46671
祀	-7.4701
每	-7.47173
新	-7.4752
承	-7.47948
屬	-7.4806
舊	-7.48313
御	-7.48333
理	-7.48636
北	-7.50048
去	-7.50091
吏	-7.50166
遷	-7.50262
聞	-7.50881
署	-7.51064
班	-7.5109
論	-7.51162
闕	-7.51334
白	-7.51816
更	-7.51924
且	-7.51935
特	-7.52136
品	-7.52263
志	-7.52553
殿	-7.52971
發	-7.53306
古	-7.53337
地	-7.53632
以為	-7.53879
觀	-7.54323
衛	-7.54466
劉	-7.54493
率	-7.5459
義	-7.54739
案	-7.54799
夫	-7.55175
遣	-7.56031
宫	-7.56149
務	-7.56807
爲	-7.56811
光	-7.57094
共	-7.57137
科	-7.57358
思	-7.57485
乎	-7.57576
益	-7.57733
卷	-7.5784
逺	-7.58201
廣	-7.58352
善	-7.58354
唐	-7.58635
帝	-7.59374
起	-7.59423
爵	-7.59803
城	-7.60262
學士	-7.60281
能	-7.60477
石	-7.61185
教	-7.61482
代	-7.61555
副	-7.6158
三年	-7.61765
堂	-7.61839
永	-7.62205
過	-7.62422
功	-7.62572
列	-7.62678
賢	-7.63115
㑹	-7.63461
二年	-7.63612
近	-7.63821
深	-7.64367
四人	-7.64423
食	-7.64873
問	-7.6514
畢	-7.65908
坐	-7.65961
恩	-7.65989
一員	-7.66304
降	-7.66522
院	-7.66936
月	-7.66942
嵗	-7.67707
盡	-7.67815
水	-7.67845
補	-7.67927
視	-7.6855
還	-7.68551
試	-7.68727
原	-7.68742
意	-7.68889
龍	-7.68951
之事	-7.68977
歴	-7.69091
皇	-7.69284
保	-7.69718
差	-7.6976
禁	-7.7022
間	-7.70485
但	-7.70513
許	-7.70557
郎	-7.70924
不可	-7.71251
陵	-7.71481
著	-7.71633
齊	-7.71922
就	-7.72047
録	-7.72108
首	-7.72661
盖	-7.72689
尊	-7.73088
比	-7.73135
易	-7.73262
物	-7.73321
進士	-7.73595
玉	-7.73868
造	-7.74142
曹	-7.74154
恭	-7.74523
京	-7.74611
少	-7.74625
錢	-7.75625
大臣	-7.76295
誠	-7.76384
隨	-7.76534
謹案	-7.7657
丞	-7.76645
依	-7.76716
卒	-7.769
致	-7.7717
衆	-7.7746
崇	-7.77489
獻	-7.77734
乞	-7.77764
力	-7.77812
寧	-7.77883
籍	-7.78029
再	-7.78096
忠	-7.78363
路	-7.78441
圖	-7.78467
伯	-7.78472
申	-7.78945
御史	-7.79593
求	-7.7965
春	-7.79865
梁	-7.79904
總	-7.79908
布	-7.80413
我	-7.80674
某	-7.80774
端	-7.81114
異	-7.81127
餘	-7.81301
别	-7.81459
員	-7.81515
退	-7.81522
望	-7.81581
難	-7.82251
君	-7.82681
鎮	-7.82737
候	-7.82827
孫	-7.8288
報	-7.83006
計	-7.83148
孝	-7.83393
工	-7.83423
留	-7.8359
贊	-7.83625
百	-7.8406
統	-7.84127
德	-7.84183
壇	-7.84925
風	-7.85226
照	-7.85545
固	-7.85605
河	-7.85633
不許	-7.86164
朝廷	-7.86171
皇帝	-7.86335
昭	-7.86399
車	-7.86681
嘗	-7.86728
辭	-7.8679
酒	-7.86947
元年	-7.86977
庫	-7.87132
萬	-7.87173
繇	-7.87321
甚	-7.87614
太	-7.87782
魏	-7.87841
嚴	-7.88132
身	-7.88378
楊	-7.88485
附	-7.88788
仁	-7.88883
召	-7.88921
化	-7.89379
罪	-7.89387
失	-7.89417
集	-7.89541
等官	-7.89727
納	-7.89896
晉	-7.9013
將軍	-7.90199
印	-7.90365
賛	-7.91054
管	-7.91433
不得	-7.91542
祖	-7.91562
謹	-7.91573
執	-7.9185
收	-7.91887
華	-7.92391
營	-7.92506
該	-7.9269
葢	-7.92848
訖	-7.93022
要	-7.93161
國子監	-7.93223
對	-7.93318
敬	-7.93331
詩	-7.93536
厚	-7.93939
寺	-7.94091
全	-7.94173
簡	-7.94409
詳	-7.94606
號	-7.94863
私	-7.95457
中書	-7.95621
體	-7.95643
係	-7.96016
猶	-7.96239
貢	-7.96304
侯	-7.96795
存	-7.9683
流	-7.9694
陽	-7.97118
各一人	-7.97359
專	-7.97634
百官	-7.97686
庶	-7.97804
衣	-7.98351
妃	-7.98388
田	-7.98442
趙	-7.98443
二員	-7.98522
准	-7.98727
獨	-7.98783
式	-7.98946
之制	-7.98954
升	-7.99745
秩	-7.99787
良	-7.99866
資	-7.99973
登	-8.00293
參	-8.00704
遇	-8.00795
増	-8.00797
記	-8.01169
局	-8.01304
嘉	-8.01533
海	-8.01659
闗	-8.01709
按	-8.01884
權	-8.02029
侍	-8.02219
銀	-8.0241
聲	-8.02528
户	-8.02588
克	-8.02641
以下	-8.02765
悉	-8.02786
冠	-8.02908
以上	-8.03193
皇后	-8.0336
父	-8.03372
題	-8.03723
業	-8.03913
青	-8.03988
郡	-8.04014
終	-8.04023
土	-8.04473
諭	-8.04678
革	-8.04726
隆	-8.04851
倉	-8.04866
跪	-8.05066
聽	-8.05081
吏部	-8.05511
房	-8.05608
臨	-8.05614
條	-8.05663
冊	-8.05785
寳	-8.06061
雲	-8.06077
行禮	-8.06295
度	-8.06386
免	-8.06548
器	-8.06653
之職	-8.06809
色	-8.06814
五年	-8.07078
毎	-8.07313
皇太子	-8.07502
賞	-8.07666
養	-8.08804
推	-8.0885
序	-8.09092
所以	-8.09156
夏	-8.09392
判	-8.09408
濟	-8.09739
江	-8.10253
上曰	-8.1027
不能	-8.10369
榮	-8.11086
才	-8.11098
太子	-8.11156
久	-8.11201
期	-8.11248
里	-8.11254
女	-8.11341
秦	-8.12037
親王	-8.12368
語	-8.12744
習	-8.13157
死	-8.1339
便	-8.13403
翰林	-8.13431
素	-8.13447
予	-8.13523
講	-8.13565
查	-8.13635
四年	-8.13651
極	-8.13656
宴	-8.13829
二十	-8.13917
侍郎	-8.13954
於是	-8.14012
階	-8.14319
調	-8.14359
慶	-8.14408
運	-8.14414
利	-8.14486
移	-8.14525
額	-8.14576
訓	-8.14649
繼	-8.15249
情	-8.15373
往	-8.15635
木	-8.15754
廢	-8.1585
三人	-8.15851
本部	-8.15974
信	-8.16091
大學士	-8.162
朱	-8.16358
均	-8.16489
十二	-8.16552
臺	-8.16663
帶	-8.16737
咸	-8.16859
三月	-8.17377
蓋	-8.17455
盛	-8.17989
老	-8.18489
薦	-8.18539
到	-8.18829
景	-8.19031
兮	-8.1914
六年	-8.19203
疏	-8.19262
九月	-8.19366
豈	-8.19583
役	-8.19589
第	-8.19601
七月	-8.19961
責	-8.20028
口	-8.20238
容	-8.2065
編	-8.20845
支	-8.21112
郎中	-8.21122
四月	-8.21141
唱	-8.2119
兹	-8.214
詞	-8.2172
林	-8.21948
耳	-8.21965
斯	-8.22089
謀	-8.2228
轉	-8.22336
有司	-8.22437
限	-8.22531
供	-8.22611
維	-8.22722
天子	-8.23663
鄉	-8.23709
勞	-8.23786
紀	-8.23834
八月	-8.23902
汝	-8.2397
徐	-8.24343
勅	-8.24384
館	-8.24615
交	-8.24666
十一月	-8.24844
翰林院	-8.24993
宰相	-8.25049
欽此	-8.25063
疑	-8.25208
羅	-8.25231
佐	-8.25303
讀	-8.25367
注	-8.25428
委	-8.25582
邊	-8.25613
順	-8.26068
十月	-8.26146
捧	-8.26551
允	-8.26613
南京	-8.26691
精	-8.26892
察	-8.26895
督	-8.26932
専	-8.26981
二月	-8.27044
香	-8.27121
氣	-8.27133
鼓	-8.27166
優	-8.27211
達	-8.27308
缺	-8.27371
花	-8.27391
肅	-8.27551
哉	-8.27744
被	-8.28106
河南	-8.28361
直𨽻	-8.28364
顧	-8.28439
福	-8.28568
甲	-8.28576
十二月	-8.28656
牧	-8.28767
縣人	-8.28837
賦	-8.28893
陛下	-8.28956
襲	-8.29003
據	-8.29062
顯	-8.29228
切	-8.29288
吳	-8.29502
獄	-8.29579
隋	-8.29677
虞	-8.29735
校	-8.30099
示	-8.30386
貴	-8.30625
延	-8.30751
識	-8.30976
享	-8.31095
解	-8.311
雜	-8.31163
刑	-8.31324
輕	-8.31383
以後	-8.31393
俾	-8.31538
謝	-8.31552
配	-8.31616
室	-8.31814
皇上	-8.31824
𨽻	-8.32063
輔	-8.32304
動	-8.32358
覆	-8.32747
待	-8.33227
真	-8.33248
将	-8.33338
給事中	-8.33429
遺	-8.33479
恐	-8.33626
變	-8.33883
郡王	-8.34314
大夫	-8.34341
靈	-8.34359
博士	-8.34799
副使	-8.34907
具官	-8.35295
回	-8.35346
旗	-8.35396
擬	-8.35571
駕	-8.35709
類	-8.35857
協	-8.36001
英	-8.36349
其後	-8.36672
付	-8.37046
泰	-8.37527
鄭	-8.37651
山東	-8.37659
威	-8.37779
懐	-8.38097
内閣	-8.38419
五月	-8.38473
奏請	-8.38561
康	-8.38619
六月	-8.38703
六人	-8.38716
彼	-8.38976
果	-8.39068
祭酒	-8.39076
戒	-8.39102
十年	-8.39343
手	-8.39542
徒	-8.39717
藏	-8.3988
從之	-8.39938
太祖	-8.40018
符	-8.40252
至是	-8.4026
尤	-8.40288
赴	-8.40383
願	-8.40527
擢	-8.40553
而不	-8.4062
祠	-8.40656
預	-8.4067
七年	-8.40751
祝	-8.40785
𫝊	-8.40835
勲	-8.40984
市	-8.41111
工部	-8.41185
謂之	-8.41228
象	-8.41308
員外郎	-8.41687
昌	-8.41969
面	-8.42208
勿	-8.42366
八年	-8.42388
追	-8.42433
夷	-8.42529
稍	-8.42548
目	-8.42791
向	-8.43176
啟	-8.43266
扵	-8.43563
樂作	-8.43727
音	-8.43734
浙江	-8.43881
以來	-8.43928
吉	-8.43979
高	-8.44036
監生	-8.44223
足	-8.44229
正月	-8.44257
美	-8.44655
錫	-8.44665
律	-8.4472
羣	-8.44805
安石	-8.44842
宗室	-8.44891
尋	-8.4544
量	-8.45538
遵	-8.45581
格	-8.45786
故事	-8.46041
仰	-8.46045
連	-8.46064
廷	-8.46065
結	-8.46281
閣	-8.46294
勤	-8.46341
主事	-8.46501
越	-8.46567
審	-8.46603
胡	-8.47012
滿	-8.47013
后	-8.47149
持	-8.47548
呈	-8.47774
他	-8.47961
莫	-8.48089
博	-8.48131
貫	-8.48166
憲	-8.48189
之意	-8.48464
疾	-8.48715
阿	-8.48778
萬厯	-8.48794
列傳	-8.48867
殊	-8.48911
欽	-8.49053
衙門	-8.4907
增	-8.49322
程	-8.49368
紅	-8.49595
又有	-8.49663
致仕	-8.49781
導	-8.49897
草	-8.50179
八人	-8.50281
垂	-8.50299
尹	-8.50378
頭	-8.50444
太常	-8.50499
尉	-8.50517
江西	-8.5073
厯	-8.50961
母	-8.50989
秋	-8.51307
春秋	-8.51454
幸	-8.51523
孔	-8.51525
稽	-8.51671
狀	-8.51837
嗣	-8.51924
併	-8.51938
減	-8.51958
官員	-8.52282
兵部	-8.52292
病	-8.52585
為之	-8.52587
席	-8.52781
九年	-8.52791
帛	-8.52813
册	-8.52942
循	-8.53082
庭	-8.53154
司馬	-8.53343
須	-8.53544
念	-8.53612
如此	-8.53908
東西	-8.53948
頒	-8.54624
内外	-8.54689
米	-8.54795
之後	-8.54933
畫	-8.55052
陜西	-8.55441
執政	-8.55451
而已	-8.55589
贈	-8.5561
儒	-8.5571
喜	-8.55885
違	-8.56032
禄	-8.56336
鼎	-8.56345
説	-8.56358
不敢	-8.56412
邦	-8.56561
諸生	-8.56657
户部	-8.56743
所謂	-8.5741
輿	-8.57537
寵	-8.57584
夀	-8.57813
制曰	-8.5805
魯	-8.5847
燕	-8.58648
澤	-8.58678
王府	-8.5872
昔	-8.58737
押	-8.5891
東宫	-8.59187
碑	-8.59196
提舉	-8.59233
乆	-8.59675
丁	-8.59898
嘉靖	-8.59945
累	-8.59991
惡	-8.6006
永樂	-8.60105
星	-8.60366
積	-8.60372
十五	-8.60396
聴	-8.60454
指	-8.60525
歌	-8.60537
孔子	-8.60615
賔	-8.60747
衡	-8.61109
末	-8.61353
帥	-8.6149
仲	-8.61589
材	-8.61648
子弟	-8.61935
祖宗	-8.61958
□	-8.6205
假	-8.62395
會	-8.62609
辨	-8.62636
屢	-8.62639
㫖	-8.62899
吕	-8.62901
歲	-8.63128
說	-8.63185
太常寺	-8.63258
祭祀	-8.63498
曽	-8.63756
國公	-8.63756
勒	-8.63794
生員	-8.63806
鹽	-8.63813
肆	-8.63815
毋	-8.63886
刑部	-8.63902
斷	-8.63998
亭	-8.64024
湖廣	-8.64082
似	-8.64173
禮部尚書	-8.64467
吾	-8.64564
迎	-8.64659
豐	-8.6486
裁	-8.64915
㕔	-8.64948
湯	-8.65007
害	-8.65192
鈔	-8.65444
散	-8.65622
眀	-8.6568
藩	-8.65709
三十	-8.65725
䝉	-8.65821
防	-8.65856
刻	-8.65884
的	-8.66049
北齊	-8.66086
洪	-8.66127
厥	-8.66235
京師	-8.66336
質	-8.66553
丞相	-8.66667
倫	-8.66672
不同	-8.66688
擇	-8.66992
坊	-8.66998
課	-8.67124
國家	-8.67212
樂止	-8.67222
䕶	-8.67637
之禮	-8.6771
太學	-8.6791
早	-8.67915
今後	-8.68196
雅	-8.68227
篇	-8.68233
編修	-8.68237
賀	-8.68248
諡	-8.68332
牛	-8.68369
座	-8.68436
儲	-8.68459
門外	-8.6847
叅	-8.68485
五人	-8.68671
遣官	-8.688
苑	-8.68846
四川	-8.69049
畧	-8.69113
性	-8.69165
休	-8.69218
敢	-8.69244
沈	-8.694
寛	-8.69444
征	-8.69552
十人	-8.69655
寶	-8.69741
亂	-8.69907
慎	-8.69968
都督	-8.7012
銜	-8.70216
茂	-8.70276
揚	-8.7029
當時	-8.70455
邑	-8.70523
祥	-8.70617
况	-8.70679
適	-8.70681
之人	-8.70734
辰	-8.70769
䇿	-8.70791
半	-8.70846
雨	-8.70847
改為	-8.70992
曲	-8.71076
銅	-8.71102
先是	-8.71172
勝	-8.7122
福建	-8.71256
商	-8.71292
曾	-8.71506
之法	-8.71901
巡	-8.71957
射	-8.72316
折	-8.72398
其事	-8.72448
傅	-8.72549
十六年	-8.72621
太宗	-8.72781
撰	-8.72865
之名	-8.73016
費	-8.73086
川	-8.73141
校尉	-8.73313
隂	-8.73433
山西	-8.7347
可以	-8.73647
太廟	-8.73735
五十	-8.73774
犯	-8.73861
族	-8.73925
好	-8.74126
江南	-8.74144
千	-8.74176
不必	-8.74183
韓	-8.74217
紙	-8.74443
火	-8.74445
綱	-8.74491
放	-8.74537
洪武	-8.74639
修撰	-8.74671
秉	-8.74725
弟	-8.7473
絶	-8.7473
黨	-8.74807
慮	-8.74816
照例	-8.74833
事例	-8.7487
在京	-8.75077
来	-8.752
靖	-8.7523
在外	-8.75365
舉人	-8.75402
醫	-8.75578
躬	-8.75609
乾隆	-8.75621
咨	-8.75692
/)(	-8.75692
然後	-8.75706
弼	-8.7581
出入	-8.75951
勉	-8.76443
囘	-8.76673
鍾	-8.76798
各一	-8.76892
池	-8.76917
三公	-8.7709
施	-8.7721
州縣	-8.77512
藥	-8.77515
叙	-8.77823
子孫	-8.77997
雍	-8.78023
啓	-8.78147
姦	-8.78327
騎	-8.78327
俸	-8.78353
乗	-8.78386
同知	-8.78448
宻	-8.78494
殺	-8.78513
一日	-8.78766
俟	-8.78788
振	-8.78857
冬	-8.78871
勘	-8.78955
奠	-8.78993
教習	-8.79005
俊	-8.79174
牲	-8.79355
滿洲	-8.79375
諸司	-8.79404
舞	-8.79405
舍	-8.79475
不知	-8.79544
未有	-8.79545
衞	-8.79736
康熙	-8.79864
庶吉士	-8.79941
施行	-8.79966
執事	-8.79988
臣等	-8.80007
齋	-8.80013
縁	-8.80367
考試	-8.80387
於此	-8.80393
虚	-8.80409
宏	-8.80616
戎	-8.80725
其餘	-8.80759
規	-8.81177
幾	-8.81181
男	-8.81247
惇	-8.81309
叔	-8.81314
弊	-8.81373
孟	-8.8155
其職	-8.81793
關	-8.81847
希	-8.8194
簿	-8.82093
宿	-8.82201
至於	-8.82217
辦	-8.82285
董	-8.82762
撫	-8.82768
葬	-8.82803
𤣥	-8.8286
最	-8.83125
盤	-8.83266
膳	-8.83373
之神	-8.83518
履	-8.8353
避	-8.83619
季	-8.83661
機	-8.83902
伏	-8.84316
釋	-8.84522
樞	-8.84836
從祀	-8.84903
農	-8.84965
公主	-8.85022
干	-8.85219
禮畢	-8.85288
烏	-8.85378
約	-8.85458
接	-8.85615
敏	-8.85724
宰	-8.8613
監察御史	-8.86176
邉	-8.86201
勢	-8.86774
魚	-8.8682
蘇	-8.87036
檢	-8.87049
至元	-8.87191
純	-8.87254
舊制	-8.87358
一年	-8.87402
助教	-8.87601
角	-8.87719
反	-8.8775
庸	-8.87793
者皆	-8.87899
之日	-8.88109
文武	-8.8851
瑞	-8.88669
决	-8.88676
之所	-8.8891
温	-8.88956
喪	-8.89007
䝉古	-8.89048
畨	-8.89132
十三	-8.89149
雲南	-8.89151
番	-8.89247
漢書	-8.89446
第一	-8.8957
邪	-8.89593
周禮	-8.89618
十二年	-8.89641
奉聖㫖	-8.89667
眷	-8.89771
錄	-8.89825
郭	-8.89853
鳯	-8.90058
以聞	-8.90177
訪	-8.90398
布政司	-8.90643
伊	-8.90645
四方	-8.90661
穆	-8.90716
源	-8.91032
瞻	-8.91079
甫	-8.9108
具奏	-8.91276
之地	-8.91287
夜	-8.91384
四十	-8.9145
富	-8.91715
誤	-8.91857
三品	-8.91922
憂	-8.92093
略	-8.92209
畏	-8.92377
爰	-8.9238
微	-8.92388
是日	-8.92448
酌	-8.92514
陳設	-8.92574
不過	-8.92666
樹	-8.92728
諸王	-8.92789
饌	-8.92835
妄	-8.93003
諫	-8.93097
筆	-8.93212
夫人	-8.93273
蔡	-8.93532
密	-8.93605
土官	-8.93673
之心	-8.93697
後漢	-8.93787
前代	-8.93896
漸	-8.93922
壽	-8.93964
令史	-8.94033
之類	-8.94041
紹興	-8.94425
之任	-8.94442
今日	-8.94469
莊	-8.94538
膺	-8.94634
撥	-8.94719
主簿	-8.94789
驗	-8.94797
場	-8.94893
遣使	-8.94989
竊	-8.95014
糧	-8.95047
上下	-8.95131
少卿	-8.95135
禮儀	-8.95239
杜	-8.95245
三日	-8.95276
筆帖式	-8.95277
弗	-8.95296
仗	-8.95403
逐	-8.9545
裕	-8.95532
濫	-8.95536
羣臣	-8.95542
亡	-8.95563
徃	-8.95594
衍	-8.9563
奪	-8.95657
奏事	-8.95831
社	-8.95858
貞	-8.95862
各處	-8.9592
凖	-8.96125
頗	-8.96127
獲	-8.96202
旦	-8.96229
通典	-8.96242
珠	-8.96476
彦	-8.96499
惠	-8.96513
職事	-8.96552
牌	-8.96739
竒	-8.96741
勸	-8.96795
蕃	-8.96928
陸	-8.97131
停	-8.97139
屯	-8.97174
之官	-8.97247
皆有	-8.97362
各官	-8.97481
財	-8.97597
羊	-8.97655
感	-8.97689
刺史	-8.97746
赤	-8.97779
冠服	-8.97857
陪	-8.97901
通事	-8.98043
十六	-8.98058
戸	-8.98076
謁	-8.98247
勑	-8.98417
長史	-8.98461
中外	-8.98576
鴻臚寺	-8.98874
呼	-8.98886
烈	-8.98912
十一	-8.99106
傷	-8.9924
令丞	-8.99259
息	-8.99434
地方	-8.9949
幣	-8.99529
帳	-8.9954
吏部尚書	-8.99584
姑	-8.99643
政事	-8.99742
郊	-8.99888
客	-8.9991
本寺	-9.00183
敵	-9.00249
寢	-9.00252
采	-9.00301
貳	-9.00329
俗	-9.00457
了	-9.00461
天下之	-9.00476
賊	-9.00677
天地	-9.00766
段	-9.00851
各有	-9.00954
翰林學士	-9.00981
愛	-9.01036
裏	-9.01104
已上	-9.01376
普	-9.01537
茶	-9.01654
朔	-9.01727
殿中	-9.01742
社稷	-9.01759
釋奠	-9.01804
等項	-9.02048
十五年	-9.02081
神主	-9.02105
人等	-9.02145
韻	-9.02158
匠	-9.02313
内侍	-9.02351
旋	-9.02579
属	-9.0258
武帝	-9.02707
十四年	-9.02813
婦	-9.0335
之數	-9.03415
繫	-9.03646
覽	-9.03694
葉	-9.03725
一體	-9.03829
十一年	-9.03868
紹	-9.03893
徴	-9.04016
堅	-9.04049
皇太后	-9.04075
妻	-9.04105
御製	-9.04111
者也	-9.04136
以次	-9.04311
仁宗	-9.04323
飛	-9.04337
基	-9.04387
後世	-9.04589
文字	-9.04618
同日	-9.04658
太師	-9.04895
亦有	-9.04916
賓	-9.05054
絹	-9.05214
廣東	-9.05295
元祐	-9.05363
十八年	-9.05371
繁	-9.05443
肇	-9.05503
奏准	-9.05584
一百	-9.05607
述	-9.05742
助	-9.05766
抑	-9.05828
少府	-9.05831
其所	-9.05847
仕	-9.05917
教授	-9.05947
馮	-9.06187
㸃	-9.06446
急	-9.06562
陶	-9.06588
皆以	-9.06604
鳴	-9.0672
僅	-9.06906
州人	-9.06978
敦	-9.06985
震	-9.0721
執事官	-9.07261
懷	-9.07277
冠帶	-9.07295
遽	-9.07306
十八	-9.07447
漢軍	-9.07496
太平	-9.07566
歳	-9.07571
途	-9.07632
智	-9.0774
沙	-9.07982
之屬	-9.08046
太僕	-9.08062
究	-9.0819
台	-9.08235
檢討	-9.08318
職掌	-9.08335
頌	-9.0843
世子	-9.08653
細	-9.08744
釐	-9.08862
父母	-9.08878
侍讀	-9.08974
秘書監	-9.09149
禮樂	-9.09301
侍講	-9.09465
聚	-9.09478
詹事	-9.09492
元豐	-9.09593
使臣	-9.09719
否	-9.09723
執事者	-9.09764
中大夫	-9.09767
園	-9.09784
學校	-9.09877
文武官	-9.0998
有所	-9.10087
答	-9.10226
十三年	-9.10298
落	-9.10303
隻	-9.10543
䘮	-9.10615
漢人	-9.10638
提督	-9.10647
負	-9.10655
謨	-9.10656
如常儀	-9.10681
文學	-9.10739
熟	-9.11034
級	-9.11175
國初	-9.11229
官制	-9.11323
愈	-9.11374
揖	-9.11448
復位	-9.11512
典儀	-9.1168
都察院	-9.11731
乾	-9.11792
句	-9.11836
猷	-9.1186
楚	-9.11907
煩	-9.12158
績	-9.12176
樓	-9.12194
參知政事	-9.12284
寫	-9.12336
後周	-9.12345
翼	-9.12504
三司	-9.12519
强	-9.12561
遼	-9.1269
亮	-9.12979
井	-9.12986
鄉試	-9.13122
續	-9.13149
慈	-9.13235
批	-9.13409
而後	-9.13573
己	-9.13683
節度使	-9.13902
哲	-9.13941
顔	-9.13947
御史中丞	-9.13959
黜	-9.14033
檜	-9.14095
五品	-9.14105
侍衛	-9.14111
擅	-9.14112
唐六典	-9.14132
徑	-9.14152
先帝	-9.14435
尺	-9.1448
諸臣	-9.14821
庻	-9.1487
敕	-9.14876
侍從	-9.1489
一曰	-9.14907
頃	-9.14985
軍民	-9.15117
者亦	-9.15153
索	-9.15257
較	-9.15274
倚	-9.15328
效	-9.15333
虎	-9.15353
術	-9.15397
罰	-9.15453
形	-9.15665
松	-9.15671
逮	-9.15804
成化	-9.16001
如有	-9.16019
輦	-9.16072
淮	-9.16276
製	-9.16343
錦	-9.16382
讀書	-9.16403
侍中	-9.16501
懋	-9.16514
漕	-9.16664
未嘗	-9.16681
㕘	-9.16815
南北	-9.16827
旁	-9.16875
官吏	-9.16973
即位	-9.17008
飲	-9.17029
刀	-9.17123
戰	-9.17214
各王府	-9.17216
褒	-9.17255
展	-9.17276
彰	-9.17306
無所	-9.17504
賈	-9.17684
麻	-9.17708
内官	-9.17764
定制	-9.17838
樞宻使	-9.17861
所司	-9.18052
復置	-9.18062
脩	-9.18063
本監	-9.18214
従	-9.18428
不復	-9.1863
長安	-9.18634
舍人	-9.18735
野	-9.18744
飾	-9.18882
知制誥	-9.18994
三代	-9.18997
順天府	-9.19191
一時	-9.19286
投	-9.19297
閲	-9.19306
只	-9.19308
沿	-9.19397
亦如之	-9.19411
辦事	-9.19685
後魏	-9.19817
六部	-9.19913
箇	-9.19961
淵	-9.20077
齎	-9.20251
等處	-9.20271
中書省	-9.20296
擾	-9.20386
添	-9.20401
貨	-9.20457
完	-9.20517
攻	-9.20634
十七年	-9.20872
所屬	-9.20874
因之	-9.20922
侍讀學士	-9.21081
南向	-9.21161
紫	-9.21258
中丞	-9.21289
自是	-9.21295
之士	-9.21351
懼	-9.21421
四品	-9.21574
恒	-9.21728
岳	-9.21838
襄	-9.21842
開元	-9.2211
柄	-9.22248
離	-9.22248
㑹試	-9.22294
指揮	-9.22318
承襲	-9.22422
之道	-9.22446
巡撫	-9.22741
足以	-9.22946
寄	-9.23146
冩	-9.23232
宇	-9.23288
知縣	-9.23299
津	-9.23398
所載	-9.23443
山川	-9.23478
唯	-9.2349
僕	-9.23495
一切	-9.23606
六十	-9.23608
尚書省	-9.23727
不及	-9.23731
板	-9.23839
拜相	-9.23839
提	-9.23864
本院	-9.23943
殷	-9.24015
八旗	-9.2403
都尉	-9.24042
帖	-9.24255
皮	-9.243
之上	-9.24301
祈	-9.2435
却	-9.24398
知府	-9.24424
豫	-9.2444
育	-9.24714
註	-9.24755
塞	-9.24839
怨	-9.2487
空	-9.2492
丞一人	-9.25076
何以	-9.25149
徵	-9.25217
茍	-9.25227
哭	-9.25229
翊	-9.2523
棄	-9.25243
不足	-9.25245
謙	-9.25254
各衙門	-9.25258
忌	-9.25292
十四	-9.25595
宗廟	-9.25633
彌	-9.25647
燭	-9.25678
丹	-9.25694
步	-9.25787
先賢	-9.25795
僉	-9.25818
長子	-9.25861
之功	-9.26002
廵	-9.26029
僧	-9.26063
卜	-9.26086
二百	-9.26089
鑒	-9.26122
宸	-9.26141
勵	-9.26159
儀仗	-9.26175
冬至	-9.26367
誥	-9.26471
三百	-9.26482
垣	-9.26537
薄	-9.26563
擊	-9.26569
内府	-9.26608
亟	-9.26619
堂上官	-9.26648
司業	-9.2676
縱	-9.26921
患	-9.26923
各二人	-9.26925
蕭	-9.27059
荒	-9.27092
彭	-9.27155
姓名	-9.27253
做	-9.2727
各一員	-9.27314
枝	-9.27318
祗	-9.2737
再拜	-9.27464
賴	-9.27466
逆	-9.27469
乘	-9.27725
損	-9.27816
范	-9.27897
雷	-9.27911
替	-9.28111
萬世	-9.28122
其制	-9.28184
熙	-9.28268
鴻	-9.28367
斤	-9.28594
巴	-9.2876
光禄寺	-9.28829
警	-9.28851
歟	-9.28864
剛	-9.28896
價	-9.28985
廣西	-9.29105
直隸	-9.29225
㣲	-9.29273
争	-9.29298
杖	-9.29299
敗	-9.29321
前後	-9.29426
宅	-9.29714
文書	-9.29756
之初	-9.2982
準	-9.29826
舊例	-9.29865
懿	-9.29916
橋	-9.30073
熈	-9.30095
之子	-9.30122
右僕射	-9.30207
陞任	-9.30232
七人	-9.30418
牒	-9.3052
晋	-9.30522
厲	-9.30581
採	-9.3059
禮官	-9.30624
經筵	-9.30629
戴	-9.30679
蜀	-9.30685
鐘	-9.30723
者為	-9.30921
税	-9.30951
環	-9.30975
叅知政事	-9.30988
𢎞	-9.31031
輒	-9.3109
實録	-9.31108
覺	-9.31159
確	-9.31177
判官	-9.31209
十九年	-9.31275
三省	-9.31327
怒	-9.31432
赴京	-9.31439
暫	-9.31461
司空	-9.31623
斗	-9.31648
正五品	-9.31699
致祭	-9.31748
㑹同	-9.3179
踰	-9.31793
帝王	-9.31794
門下	-9.31804
朝貢	-9.31849
二十人	-9.31891
宮	-9.32003
舟	-9.32035
雄	-9.32062
浚	-9.32096
紗	-9.32389
泉	-9.32396
奏聞	-9.32467
一等	-9.32467
諸侯	-9.32556
第二	-9.32692
之時	-9.32731
皇朝	-9.32774
翰	-9.32776
毁	-9.32978
策	-9.33006
輸	-9.33019
把	-9.33159
愚	-9.33254
貴州	-9.33365
自今	-9.33405
収	-9.33423
榖	-9.33423
囚	-9.33427
底	-9.33494
驛	-9.33672
敷	-9.33673
将軍	-9.33807
初置	-9.3386
淳	-9.33919
船	-9.33956
孰	-9.33985
以前	-9.3413
表裏	-9.34299
速	-9.3434
湏	-9.3441
從五品	-9.34536
使者	-9.34692
先期	-9.3476
始置	-9.34842
丕	-9.3491
閑	-9.34957
介	-9.34973
秘書	-9.35004
露	-9.35155
盧	-9.35259
大小	-9.35264
各省	-9.3528
招	-9.35315
耆	-9.35353
誕	-9.35361
遊	-9.35377
漏	-9.3539
司徒	-9.35401
綬	-9.35438
嫡	-9.35678
今改正	-9.35714
屋	-9.35797
常服	-9.35882
誦	-9.35899
錦衣衛	-9.36108
住	-9.36141
巾	-9.36289
徹	-9.36315
麗	-9.36354
決	-9.36371
汪	-9.36391
皇子	-9.3665
禍	-9.36723
創	-9.36811
丈	-9.36815
逸	-9.3687
黎	-9.36874
國朝	-9.3701
八十	-9.37105
靡	-9.37126
國學	-9.37266
侍御史	-9.37319
横	-9.37334
胥	-9.37338
珍	-9.37349
藻	-9.37358
境	-9.37376
藝	-9.37738
友	-9.37779
祇	-9.37822
二曰	-9.37914
之言	-9.38083
州刺史	-9.38134
惠卿	-9.3824
羽	-9.3829
侵	-9.38341
秦檜	-9.38394
姓	-9.38413
丹墀	-9.38449
進貢	-9.38493
疋	-9.38507
亦不	-9.38516
周官	-9.3869
買	-9.38704
韋	-9.38706
▁(	-9.38719
豆	-9.38732
佩	-9.3876
幹	-9.38795
斥	-9.38836
浮	-9.38872
正徳	-9.38961
以備	-9.38982
禮部侍郎	-9.39262
逹	-9.3928
催	-9.39294
亨	-9.3931
箴	-9.39313
借	-9.39355
仙	-9.39369
古今	-9.39421
祝文	-9.39623
織	-9.39633
榜	-9.39639
訟	-9.39658
之重	-9.39677
大將軍	-9.39833
貶	-9.3986
冕	-9.39874
誅	-9.39876
兄	-9.40084
料	-9.40206
太和	-9.40269
樂舞生	-9.40305
寒	-9.40358
閱	-9.40362
種	-9.40364
辟	-9.40415
之外	-9.40423
神宗	-9.40486
車駕	-9.40824
日月	-9.40883
壁	-9.40906
拘	-9.41121
銓	-9.41178
援	-9.41184
圭	-9.41195
紵絲	-9.41232
之間	-9.41235
哈	-9.41284
鳳	-9.41293
奸	-9.41346
頂	-9.41358
其名	-9.41457
徽	-9.41528
之曲	-9.4161
兄弟	-9.41664
肄業	-9.41675
雙	-9.4168
祭告	-9.41715
諸州	-9.41745
翟	-9.41796
洛	-9.4181
屬官	-9.41862
譽	-9.41877
圍	-9.41889
輙	-9.41901
誣	-9.41924
三等	-9.42074
哀	-9.42103
五日	-9.42111
陛	-9.42187
劾	-9.42213
學生	-9.42243
三曰	-9.42319
祐	-9.42552
纂	-9.4256
耕	-9.42611
若干	-9.4266
君臣	-9.42794
牙	-9.42816
辟雍	-9.42862
苦	-9.42945
攸	-9.42961
序班	-9.4309
本府	-9.43112
立于	-9.43278
先師	-9.43301
六品	-9.4338
版	-9.4344
偏	-9.43465
對曰	-9.43493
逢	-9.43502
疇	-9.4351
芳	-9.43519
有差	-9.43591
一次	-9.43668
請封	-9.4368
官同	-9.43705
兩京	-9.4374
卿等	-9.43741
是也	-9.43781
設官	-9.43803
不行	-9.43822
奏稱	-9.43902
太史	-9.43917
知州	-9.43972
人員	-9.44054
總督	-9.44138
呉	-9.44165
十七	-9.4428
所掌	-9.44409
者則	-9.44422
中書舍人	-9.44423
等因	-9.44451
侍班	-9.44462
刋	-9.4448
余	-9.44503
趨	-9.44516
游	-9.44551
之義	-9.44607
宣徳	-9.44614
七品	-9.4464
妾	-9.44771
單	-9.44777
行之	-9.44896
二十三年	-9.44938
鹵簿	-9.44996
四員	-9.45032
上香	-9.45127
罔	-9.45263
罷相	-9.45293
起送	-9.45299
之南	-9.4534
鑄	-9.45348
十二人	-9.45371
二十四	-9.45515
溥	-9.45516
二品	-9.45528
卓	-9.45557
誰	-9.45572
馭	-9.45617
出納	-9.45705
隂陽	-9.4597
是年	-9.4597
旌	-9.46071
下士	-9.46109
忽	-9.46113
殆	-9.46156
夾	-9.46169
謹按	-9.46197
於戲	-9.46307
窮	-9.46393
題准	-9.46398
承㫖	-9.46422
捕	-9.46443
絲	-9.46475
君子	-9.46485
題請	-9.4653
卑	-9.46606
墓	-9.4661
厨役	-9.46619
救	-9.46626
崔	-9.46671
舜	-9.46681
上以	-9.46699
盈	-9.46719
各置	-9.46787
攝	-9.47016
子女	-9.47032
匹	-9.47042
如今	-9.47191
蘭	-9.47196
蔵	-9.47215
𦵏	-9.47295
排	-9.47609
睿	-9.47712
薨	-9.47735
堯	-9.47773
第三	-9.48084
災	-9.48132
貯	-9.48211
瓶	-9.48246
毫	-9.48257
爭	-9.4832
輪	-9.48322
侍講學士	-9.48439
四拜	-9.48481
功臣	-9.48648
不當	-9.48674
姚	-9.48849
麟	-9.48879
屏	-9.4888
監丞	-9.48914
神位前	-9.49047
司馬光	-9.49061
明年	-9.49154
奏樂	-9.49209
皇朝因之	-9.49292
篤	-9.49305
舎	-9.49309
墨	-9.49354
如故	-9.49354
領之	-9.49375
潔	-9.49387
圗	-9.49423
正六品	-9.4949
之訓	-9.49755
藉	-9.49916
庶人	-9.49931
减	-9.49945
植	-9.49957
隠	-9.49985
三員	-9.50019
薛	-9.50031
託	-9.50043
看	-9.5023
而無	-9.50292
黙	-9.50489
署令	-9.50516
恪	-9.50543
譯	-9.50587
等物	-9.50677
輅	-9.50721
通行	-9.50748
算	-9.50779
雖有	-9.50853
旨	-9.50997
危	-9.51024
抄	-9.5103
一名	-9.51039
黒	-9.51047
飭	-9.51053
二日	-9.51059
側	-9.51088
徙	-9.51093
之臣	-9.51119
典簿	-9.51229
員外	-9.51257
左僕射	-9.51378
門下侍郎	-9.51502
一品	-9.51602
産	-9.51631
婚	-9.51657
駐	-9.51663
用之	-9.51664
又置	-9.51842
轄	-9.51851
旅	-9.52104
竟	-9.5219
操	-9.52243
文武百官	-9.5226
邇	-9.52278
楹	-9.52403
總管	-9.5241
正統	-9.52424
所在	-9.52427
未幾	-9.52439
府州縣	-9.52669
必有	-9.52725
就位	-9.52756
契	-9.52765
欺	-9.52769
偹	-9.52786
檢校	-9.5282
都水	-9.52824
詢	-9.52859
一應	-9.5291
見於	-9.52911
僧道	-9.53146
次日	-9.53184
四百	-9.53188
講讀	-9.53206
占	-9.5326
焚	-9.53289
欽天監	-9.53334
明日	-9.5335
絳	-9.53394
綏	-9.53439
祔	-9.53495
順天	-9.53814
璧	-9.53942
赦	-9.53978
兩廡	-9.53988
是以	-9.54021
官屬	-9.54048
蠻	-9.54078
上命	-9.54079
等事	-9.54193
秀	-9.54286
之盛	-9.54293
忘	-9.54302
洗	-9.54381
衣服	-9.54538
互	-9.54564
國之	-9.54565
太后	-9.54565
制度	-9.54628
章惇	-9.54707
則有	-9.54807
兵部尚書	-9.54836
正三品	-9.54844
我朝	-9.54876
無不	-9.54919
太監	-9.54982
超	-9.55116
繳	-9.55123
奚	-9.55137
廬	-9.5514
不與	-9.55141
閒	-9.55147
勾	-9.5516
人心	-9.5521
太保	-9.55233
蔡京	-9.55243
同平章事	-9.55323
禮部奏	-9.55397
孝宗	-9.5551
毛	-9.55639
綸	-9.55671
潘	-9.55673
戍	-9.55677
佑	-9.55714
童	-9.55722
勇	-9.55743
罕	-9.55745
儒士	-9.55763
儀注	-9.55769
太皇太后	-9.55806
鴻臚寺官	-9.559
塗	-9.55971
凡遇	-9.561
恤	-9.56128
桂	-9.56135
個	-9.56161
冊寳	-9.56185
以示	-9.56248
冒	-9.56286
古人	-9.56287
耶	-9.56307
遞	-9.56313
齡	-9.56351
唐宋	-9.56388
往往	-9.56456
七十	-9.56485
申明	-9.56506
總兵官	-9.56623
進呈	-9.56778
扶	-9.56827
齒	-9.56867
者有	-9.5687
圓	-9.56875
破	-9.56932
觧	-9.56957
都司	-9.57119
讀祝	-9.57195
病故	-9.57232
御前	-9.57335
宿衛	-9.57421
蒼	-9.57442
琦	-9.57472
北京	-9.57493
遲	-9.57498
艱	-9.57506
順治	-9.57529
龜	-9.57544
孚	-9.57571
言之	-9.5758
庶子	-9.57595
儒臣	-9.57682
事宜	-9.57735
明白	-9.57868
之際	-9.57876
入監	-9.57912
樞宻副使	-9.5795
旬	-9.57951
二十年	-9.57955
講官	-9.58009
其實	-9.58042
廩	-9.58069
踐	-9.58163
之政	-9.582
從三品	-9.58313
以致	-9.58446
大事	-9.5851
巡檢	-9.5866
管理	-9.58699
慕	-9.58732
伸	-9.58749
洽	-9.58754
倍	-9.58759
北向	-9.58762
匪	-9.58777
九卿	-9.58815
之東	-9.5897
甘	-9.5898
堪	-9.58984
舉行	-9.58987
拜位	-9.5901
出身	-9.59126
提學官	-9.59209
西向	-9.59323
䕫	-9.59384
鄧	-9.59385
惜	-9.59398
士竒	-9.59492
寜	-9.59567
討	-9.59605
是時	-9.59606
太傅	-9.59647
歴代	-9.59802
静	-9.59933
淑	-9.59956
滋	-9.5998
件	-9.60013
中書侍郎	-9.60058
郡縣	-9.60084
祀典	-9.60089
繡	-9.60218
通判	-9.60224
太常卿	-9.60296
謁者	-9.60313
翠	-9.60501
本朝	-9.60539
禹	-9.60547
貽	-9.60615
叩頭	-9.60645
不用	-9.60739
書籍	-9.60741
少監	-9.61031
者許	-9.61089
樂章	-9.61128
懸	-9.61156
弓	-9.61175
宫中	-9.6118
肉	-9.61257
慶賀	-9.61264
貪	-9.61266
邵	-9.61267
荆	-9.61298
度支	-9.61346
大理	-9.61368
進退	-9.61373
大明	-9.61487
先儒	-9.61527
也今	-9.61576
位於	-9.61597
内使	-9.618
澄	-9.618
騐	-9.61845
輝	-9.6185
輔臣	-9.6186
之政令	-9.61906
典籍	-9.61951
揆	-9.621
本年	-9.62304
之典	-9.62401
懲	-9.62443
學官	-9.62474
國子	-9.62491
禁中	-9.62522
廸	-9.6259
奎	-9.62594
百姓	-9.62605
䕶軍	-9.62642
稷	-9.62708
𢎞治	-9.62825
九十	-9.62911
駙馬	-9.62987
那	-9.62994
着	-9.63021
綿	-9.63023
内務府	-9.63042
壯	-9.63078
正副使	-9.63113
錯	-9.6313
欵	-9.63139
根	-9.63168
九品	-9.63245
有功	-9.63272
於上	-9.63523
糾	-9.6355
祖訓	-9.63612
束	-9.63676
祿	-9.63683
裳	-9.63686
燈	-9.63733
亷	-9.63755
河東	-9.6376
鸞	-9.63776
蔣	-9.63778
頼	-9.63818
範	-9.63834
吴	-9.63853
留守	-9.63892
宗正	-9.63929
四海	-9.64061
練	-9.64318
相應	-9.64339
司官	-9.64394
遠	-9.64404
二名	-9.64405
傾	-9.64412
包	-9.64424
鈞	-9.64437
背	-9.64443
迪	-9.64469
學士院	-9.64614
散官	-9.64626
其子	-9.64797
其有	-9.64803
天順	-9.64823
軍節度使	-9.64849
箋	-9.64934
籩豆	-9.64938
之文	-9.6494
毅	-9.65027
諱	-9.65038
廊	-9.6504
之例	-9.6505
潛	-9.65082
太尉	-9.65093
文章	-9.65107
孤	-9.65438
宋齊	-9.65608
之儀	-9.65631
守備	-9.65637
尚方	-9.65686
昨	-9.65762
輩	-9.65823
峻	-9.65908
莫不	-9.65916
民間	-9.65949
科舉	-9.66071
雪	-9.6618
公事	-9.66184
以待	-9.66229
曠	-9.66282
分為	-9.6629
奉先殿	-9.66302
賣	-9.66316
貧	-9.66329
潤	-9.66368
詹事府	-9.66371
韶	-9.66374
夙夜	-9.66433
夷簡	-9.66443
列聖	-9.6654
資政殿學士	-9.66624
又曰	-9.66644
為民	-9.66687
王安石	-9.66896
進講	-9.66915
待詔	-9.6695
鹿	-9.6701
懇	-9.67012
凢	-9.67023
飯	-9.67027
事務	-9.67059
虛	-9.67074
訴	-9.67076
自後	-9.67086
先後	-9.67127
古者	-9.67165
主客	-9.67251
墳	-9.67275
僚	-9.67279
二十二年	-9.67281
四曰	-9.67283
疆	-9.67397
不為	-9.67443
二十四年	-9.6758
國王	-9.67621
倣	-9.67651
讓	-9.67704
核	-9.67859
本司	-9.67929
管勾	-9.68004
銷	-9.68212
竹	-9.68262
兒	-9.68273
五百	-9.68276
銘	-9.68355
冝	-9.68359
削	-9.68372
暨	-9.68385
桌	-9.68486
依前	-9.68492
所言	-9.68673
素服	-9.68702
二人掌	-9.68775
衰	-9.68946
紛	-9.68983
托	-9.68999
險	-9.69013
租	-9.69038
偽	-9.69045
派	-9.69065
析	-9.6908
景泰	-9.69094
公卿	-9.69184
行人	-9.69205
奉㫖	-9.69235
詔書	-9.69614
典禮	-9.69619
伐	-9.69694
聼	-9.6971
故男	-9.69958
依舊	-9.6996
王妃	-9.70171
至今	-9.70209
世襲	-9.70233
命婦	-9.70274
大祀	-9.70303
穀	-9.70311
淺	-9.70331
十日	-9.70384
伍	-9.70424
談	-9.70426
者必	-9.7044
怠	-9.70459
兼領	-9.70459
已下	-9.70466
觀文殿大學士	-9.70483
員額	-9.70537
䟽	-9.70714
除授	-9.70745
小人	-9.70792
曉	-9.70943
慰	-9.70976
還宫	-9.70987
史館	-9.71005
健	-9.71039
街	-9.71046
印信	-9.71087
獸	-9.71096
屈	-9.71103
岑	-9.71109
悔	-9.71117
朔望	-9.71132
給與	-9.71138
丁未	-9.71183
都統	-9.71206
品級	-9.71411
到部	-9.71511
之北	-9.71545
追封	-9.71619
先生	-9.71675
緑	-9.7169
皇考	-9.71727
制曰朕	-9.71745
學者	-9.71765
者俱	-9.71765
暴	-9.71774
鎮守	-9.71776
提㸃	-9.71781
歡	-9.71805
靜	-9.71815
違者	-9.7192
品秩	-9.71964
謝恩	-9.71992
導引	-9.72015
廄	-9.72034
内史	-9.72371
大理寺	-9.72375
跪進	-9.72393
筵	-9.72404
從事	-9.72429
輯	-9.72505
惑	-9.7253
中尉	-9.72557
又以	-9.72583
人才	-9.72652
二等	-9.72739
煬帝	-9.7286
正德	-9.72875
璽	-9.72883
來朝	-9.72891
僕射	-9.72943
纂修	-9.73025
遜	-9.73032
舎人	-9.73064
界	-9.73203
自古	-9.73209
另	-9.73251
司農	-9.73299
三千	-9.73452
縣令	-9.73659
襲封	-9.73706
傳贊	-9.73708
覈	-9.73742
二十五	-9.73747
稅	-9.73789
袍	-9.73807
者以	-9.73847
随	-9.73852
引禮引	-9.73898
冀	-9.73901
唐制	-9.74086
正四品	-9.74151
女官	-9.74261
以来	-9.74322
出於	-9.74384
先朝	-9.74453
𤼵	-9.74547
者即	-9.74549
官一員	-9.74551
鐵	-9.74586
柱	-9.74733
而下	-9.74763
封爵	-9.74788
一千	-9.74877
教官	-9.7508
辛	-9.7519
尾	-9.75212
圜丘	-9.75231
姪	-9.75236
給事	-9.75364
愆	-9.75365
貢監生	-9.75379
四夷	-9.75577
本州	-9.75587
主之	-9.75642
侍儀	-9.75738
為一	-9.75794
桑	-9.7584
京城	-9.7591
郊祀	-9.75919
朝服	-9.76015
鑾	-9.76018
著作	-9.76032
九人	-9.76037
溪	-9.76078
長官	-9.7608
鄒	-9.76113
秦漢	-9.76167
風俗	-9.76189
奉安	-9.76215
之弊	-9.76239
復為	-9.76287
貢生	-9.76484
正旦	-9.76507
純仁	-9.76539
各府	-9.76542
或有	-9.76549
十六人	-9.76657
浩	-9.7671
傑	-9.76739
詐	-9.76746
粟	-9.76755
綾	-9.76774
其間	-9.76777
鐸	-9.76779
矧	-9.76791
康熈	-9.76808
状	-9.76817
上親	-9.76852
兵馬	-9.76873
祭一壇	-9.76996
二十一年	-9.77037
蕃王	-9.77087
槩	-9.77143
改正	-9.77218
既而	-9.77227
大使	-9.77313
隸	-9.77326
以此	-9.77333
和之曲	-9.77383
燎	-9.77396
刺	-9.77405
仍舊	-9.77439
匣	-9.77481
挾	-9.77494
疎	-9.77499
寓	-9.77501
每日	-9.77512
亞獻	-9.77518
敎	-9.77526
谷	-9.77531
起居注	-9.77534
英宗	-9.77566
恢	-9.77623
嬪	-9.77633
東南	-9.77703
由是	-9.77724
殿前	-9.7775
上言	-9.77759
勘合	-9.77878
所奏	-9.7791
)○	-9.77948
特進	-9.77975
都督府	-9.78046
昇	-9.78189
効	-9.78201
凡有	-9.78223
逃	-9.78236
曺	-9.78241
洞	-9.78242
官至	-9.78255
證	-9.78262
正中	-9.78324
梓宫	-9.78393
之下	-9.78427
千户	-9.78505
之風	-9.78587
諡文	-9.78597
之家	-9.78659
塲	-9.78666
供奉	-9.78669
獻爵	-9.7869
京官	-9.78695
起居	-9.78815
昉	-9.78895
聖人	-9.78912
饗	-9.78919
王公	-9.78939
阻	-9.78951
後漢書	-9.78959
州知州	-9.79006
瓊	-9.79015
荷	-9.79025
鄰	-9.79042
考選	-9.79044
不置	-9.79127
舘	-9.79131
門内	-9.79161
御史大夫	-9.79176
立於	-9.7919
午	-9.79252
不拘	-9.79337
也至	-9.79425
金銀	-9.79465
戚	-9.79497
朝賀	-9.7952
查得	-9.79531
之徒	-9.79541
聖祖	-9.79575
二府	-9.79576
主婚者	-9.79633
鼔	-9.7969
鑑	-9.797
分獻官	-9.79733
進封	-9.79741
恕	-9.79767
陟	-9.79769
叛	-9.79783
行事	-9.79789
廷尉	-9.79816
直學士	-9.79819
史記	-9.80021
朝㑹	-9.80042
嵗貢	-9.80097
僉事	-9.80143
掾	-9.80161
曰朕	-9.80296
幼	-9.80302
洪武元年	-9.80321
二十六年	-9.80406
漆	-9.80407
鼓吹	-9.80443
什	-9.80456
概	-9.80464
廪	-9.80495
轉運使	-9.80526
鶴	-9.80537
諸路	-9.80541
奮	-9.80545
宥	-9.80545
乏	-9.80558
廕	-9.80561
樞宻院	-9.80612
官二員	-9.80715
十五日	-9.80795
中宫	-9.80821
鴻臚	-9.80963
安南	-9.81003
復命	-9.81029
人數	-9.81054
前期	-9.81091
中興	-9.81113
其人	-9.81114
幽	-9.81159
欽定	-9.81167
柔	-9.81196
囬	-9.81217
秘	-9.81231
值	-9.81271
困	-9.81291
竭	-9.81313
成祖	-9.81326
法度	-9.81345
戸部	-9.8135
禀	-9.81355
合用	-9.81402
朝夕	-9.81477
則以	-9.81625
丘	-9.81683
髙祖	-9.8169
寅	-9.81803
夕	-9.81858
陪祀	-9.81895
拱	-9.81897
提調	-9.81899
序立	-9.81924
貞觀	-9.81934
衣冠	-9.81966
強	-9.81993
咎	-9.82025
少傅	-9.8203
遐	-9.82069
巧	-9.82091
經義	-9.82149
其中	-9.82194
十九	-9.82397
城人	-9.82411
文廟	-9.82427
每嵗	-9.8251
二千	-9.82554
門下省	-9.82703
濶	-9.82727
二十九年	-9.82731
繙譯	-9.82783
幄	-9.82786
分獻	-9.82812
換	-9.82822
内贊	-9.82835
儼	-9.82867
屯田	-9.82896
兼侍讀	-9.82931
元史	-9.82959
以時	-9.8303
六堂	-9.83365
都御史	-9.83489
衮	-9.83509
其言	-9.83555
名及第出身題名碑	-9.83564
夙	-9.83594
抗	-9.83629
徧	-9.83704
之節	-9.83757
下大夫	-9.83762
官學生	-9.83823
行在	-9.83962
持節	-9.83983
蒙	-9.84002
應襲	-9.84021
灾	-9.84135
岐	-9.84213
丞二人	-9.84246
世祖	-9.84307
之比	-9.84314
短	-9.84344
綵	-9.84408
從六品	-9.84435
帷	-9.84445
笑	-9.84518
故也	-9.84531
襲職	-9.8462
典儀唱	-9.84643
州府	-9.84659
正七品	-9.84745
宰臣	-9.8488
鮮	-9.85127
熊	-9.85133
凌	-9.85141
齋戒	-9.85165
臻	-9.85217
彛	-9.85236
厭	-9.85277
眞	-9.85297
大徳	-9.85349
乞要	-9.85361
不在	-9.85559
洪武初	-9.85648
御名	-9.85795
中書門下	-9.85801
拉	-9.85889
公著	-9.85899
䖍	-9.85925
至正	-9.85933
域	-9.85945
衍聖公	-9.85947
儉	-9.85978
獻官	-9.85986
恊	-9.86026
煥	-9.86066
三十六	-9.86076
天文	-9.86104
胄	-9.86132
老成	-9.86167
不合	-9.86203
梁陳	-9.86351
若有	-9.86387
尚書左丞	-9.86442
告襲	-9.86498
簾	-9.86663
賚	-9.86719
辱	-9.86725
喇	-9.86749
恣	-9.86762
扇	-9.86773
裴	-9.86778
驚	-9.8679
混	-9.86793
晨	-9.86798
厰	-9.86817
騰	-9.86822
俯	-9.86831
祭酒司業	-9.87019
西南	-9.87027
滿漢	-9.87036
臣僚	-9.87061
古之	-9.87111
與今	-9.87295
炷	-9.87515
融	-9.87531
晩	-9.87608
務要	-9.87609
壊	-9.8761
公侯	-9.87659
河北	-9.87707
議准	-9.87717
有㫖	-9.87723
訓導	-9.87743
庶幾	-9.87756
初獻	-9.87769
五代	-9.87863
然則	-9.87869
殿内	-9.87896
上諭	-9.8792
玉堂	-9.88117
太守	-9.88132
生母	-9.88156
有事	-9.88221
輕重	-9.88223
工尺	-9.8824
厨	-9.88333
乙	-9.88338
皇祖	-9.88359
按察司	-9.88377
誼	-9.88382
嫌	-9.88444
畜	-9.88444
偶	-9.8846
甘肅	-9.88463
西域	-9.88479
痛	-9.88481
議論	-9.88505
二十七年	-9.88596
並同	-9.88641
人主	-9.88644
文移	-9.88647
佐領	-9.88795
云云	-9.88994
迹	-9.89111
俞	-9.89181
也又	-9.89193
邱	-9.89198
機務	-9.89199
不宜	-9.8922
謫	-9.89256
之物	-9.89296
别置	-9.89345
中郎將	-9.89402
陞殿	-9.8952
是用	-9.8959
西京	-9.89727
胙	-9.89772
劄	-9.89889
太倉	-9.89919
大成	-9.89969
隊	-9.9001
頭目	-9.90057
凝	-9.90088
舒	-9.90098
中國	-9.90147
之始	-9.90155
該本部	-9.90169
嗣後	-9.90193
陞座	-9.90251
光禄	-9.90371
欽若	-9.90432
兆	-9.90446
御史臺	-9.90629
瀆	-9.90679
前一日	-9.9068
宣德	-9.90713
今之	-9.90742
隆慶元年	-9.90762
羽林	-9.90797
簽	-9.90811
燾	-9.90819
巳	-9.90836
遭	-9.90897
娶	-9.90899
渠	-9.90908
謬	-9.90922
倡	-9.90923
邁	-9.90936
緩	-9.90951
茲	-9.90971
偉	-9.9099
以供	-9.90995
蒲	-9.91041
中書令	-9.91154
張浚	-9.91207
司禮監	-9.91262
厯代	-9.91399
永樂元年	-9.91419
洪武中	-9.91468
者不	-9.91627
嚴加	-9.91681
兼管	-9.91687
軒	-9.91698
鎮國將軍	-9.91707
典事	-9.91714
打	-9.9174
鉅	-9.91756
牢	-9.91777
盗	-9.91803
始終	-9.91815
等奏	-9.91817
端明殿學士	-9.91818
聨	-9.91841
㢘	-9.9186
聖賢	-9.91886
俯伏興平身	-9.91904
之舊	-9.91911
直省	-9.92008
命禮部	-9.92017
區	-9.92085
初制	-9.92111
難以	-9.92229
之中	-9.92239
不勝	-9.92248
真宗	-9.92257
畿	-9.92265
禮部言	-9.9228
御書	-9.92294
差人	-9.92389
之内	-9.92446
十五人	-9.92478
驅	-9.92498
傍	-9.92571
爾等	-9.92594
繕	-9.92597
癸未	-9.92618
饒	-9.92623
已有	-9.92636
幕	-9.92637
衷	-9.92641
七日	-9.9265
聖㫖	-9.92653
上書	-9.92654
二字	-9.92655
馳	-9.92659
滅	-9.92673
北面	-9.92719
集賢	-9.92857
奉祀	-9.92901
奉天	-9.92946
三十人	-9.93022
明堂	-9.93088
一件	-9.9314
始以	-9.93155
更定	-9.93175
珪	-9.93197
工部尚書	-9.93219
殿下	-9.93226
禮記	-9.93283
正位	-9.93368
冐	-9.93455
佛	-9.93482
酬	-9.93533
桓	-9.93538
几	-9.93547
館閣	-9.93615
合四一四	-9.93715
㑹議	-9.93756
武官	-9.93809
未經	-9.93831
湖	-9.93833
考滿	-9.93886
陽人	-9.93948
滿洲漢人各一人	-9.93955
父子	-9.94041
冲	-9.94048
長官司	-9.94104
為宰相	-9.94178
整	-9.94207
配享	-9.94243
䑓	-9.94257
五官	-9.9432
壺	-9.94336
巖	-9.94355
沿革	-9.94376
侍立	-9.94378
築	-9.94379
波	-9.94392
蔽	-9.94407
上帝	-9.94422
提學	-9.94455
右侍郎	-9.94477
大都	-9.94479
洛陽	-9.94595
閏	-9.94708
遣人	-9.94712
受命	-9.94749
太常寺卿	-9.94752
大禮	-9.94775
六百	-9.9483
原作	-9.9484
賜宴	-9.94904
走	-9.94941
聰	-9.9499
從四品	-9.94994
祧	-9.95026
城隍	-9.95056
二十八年	-9.9508
參政	-9.95115
項	-9.95138
之西	-9.95185
居住	-9.95185
樂器	-9.95191
般	-9.95194
泥	-9.95211
架	-9.95212
緒	-9.95237
弱	-9.95238
跡	-9.95242
錢糧	-9.95246
悦	-9.95247
纔	-9.95255
慢	-9.95277
遂以	-9.95277
穿	-9.95288
沮	-9.95288
正八品	-9.95341
閤門	-9.95416
年任	-9.95554
者多	-9.95622
上士	-9.95622
輟	-9.95798
三十年	-9.95869
朕心	-9.95923
至日	-9.95974
視朝	-9.96026
填	-9.96032
行移	-9.96032
濓	-9.96062
勾當	-9.96086
麥	-9.96106
引見	-9.96109
槐	-9.96158
搢笏	-9.96219
少詹事	-9.96257
考之	-9.96318
即今	-9.96322
少保	-9.96422
應天府	-9.96434
冊封	-9.96504
遵守	-9.96586
移文	-9.96616
未及	-9.96682
所生	-9.96699
差官	-9.96722
冶	-9.96736
一人掌	-9.96791
光武	-9.96838
蒙古	-9.96847
廷臣	-9.96891
虎賁	-9.96898
鉞	-9.96927
掩	-9.9693
冊府元龜	-9.96965
滯	-9.96972
篆	-9.96985
並無	-9.97009
壻	-9.97013
遍	-9.97021
寕	-9.97035
乗輿	-9.97038
粹	-9.97042
周公	-9.97069
如今之	-9.97087
多寡	-9.97183
也然	-9.97186
觀文殿學士	-9.9719
或以	-9.97191
宗社	-9.97239
扈從	-9.97263
雍正	-9.97324
乾道	-9.97326
之號	-9.97487
億	-9.97491
稽古	-9.97611
二千石	-9.9779
儒學	-9.97825
儀同	-9.97856
巡按御史	-9.97894
禮部志稿卷	-9.97908
播	-9.97911
旣	-9.97925
陵寢	-9.97928
觔	-9.97943
國子學	-9.97975
言者	-9.97999
軸	-9.97999
銷金	-9.98028
賞賜	-9.98052
同知樞密院事	-9.98074
雞	-9.98078
曰此	-9.98103
中允	-9.98122
城門	-9.98186
中士	-9.98201
録事	-9.98295
等衙門	-9.9831
洪武三年	-9.98357
可知	-9.9837
户部尚書	-9.98447
終獻	-9.98463
臣下	-9.98508
不以	-9.98726
貼	-9.9878
從七品	-9.98793
尚書右丞	-9.98818
國史	-9.98821
袁	-9.98839
噐	-9.98863
御座	-9.98868
迨	-9.98883
樞宻	-9.98924
鎮撫	-9.9896
方物	-9.99005
從九品	-9.99014
皇城	-9.99047
者其	-9.99094
太僕寺	-9.99134
得以	-9.99145
督撫	-9.99212
南面	-9.99228
十有二	-9.99233
文帝	-9.99239
太府	-9.99262
知事	-9.9929
嘉靖九年	-9.99306
武徳	-9.99373
尚書令	-9.99383
俎	-9.9945
兼學士	-9.9948
經史	-9.9949
寡	-9.99508
二十五年	-9.99522
治罪	-9.996
以授	-9.99633
増設	-9.99649
亞	-9.99663
盜	-9.99676
先年	-9.99681
冗	-9.99709
需	-9.99731
競	-9.99776
寃	-9.99799
矜	-9.99804
竄	-9.99813
文淵閣	-9.99909
領軍	-9.99938
楊榮	-9.99944
我皇上	-10.0022
已而	-10.0026
人情	-10.0028
禄米	-10.0037
殿上	-10.0038
暇	-10.0043
戊	-10.0046
史官	-10.0049
東西相向	-10.005
上御	-10.005
措	-10.0054
卞	-10.0055
況	-10.0059
已經	-10.0061
含	-10.0061
題名	-10.0063
諒	-10.0064
餅	-10.0068
綴	-10.0069
合無	-10.0069
詰	-10.0071
他日	-10.0079
知之	-10.0097
太原	-10.0107
遂為	-10.011
西北	-10.0114
俯伏興	-10.0124
送神	-10.0125
奉聖㫖是欽此	-10.0126
每年	-10.0127
祭器	-10.0138
冦	-10.0138
湖南	-10.0143
歩	-10.0148
東西向	-10.0149
蠶	-10.015
之故	-10.015
事者	-10.015
之寄	-10.0151
其官	-10.0156
治之	-10.0157
職名	-10.0158
玩	-10.0159
殿中侍御史	-10.016
藴	-10.016
睦	-10.016
竝	-10.0164
躋	-10.0164
徼	-10.0164
三品以上	-10.0165
恵	-10.0165
教坊司	-10.017
宣宗	-10.0172
户部侍郎	-10.0176
參軍	-10.0186
萬年	-10.0189
絹一疋	-10.0195
第四	-10.0206
所用	-10.021
配位	-10.023
諸軍	-10.0232
毋得	-10.0233
東京	-10.0236
弩	-10.0243
則又	-10.0243
生徒	-10.0245
黑	-10.025
士充	-10.025
邸	-10.0251
賂	-10.0253
十三人	-10.0255
隱	-10.0255
牓	-10.0255
正字	-10.0256
甞	-10.0256
官軍	-10.0258
翔	-10.0258
二十七	-10.026
軌	-10.0261
之命	-10.0269
知其	-10.0284
郊廟	-10.0287
世宗	-10.0287
視事	-10.0287
文王	-10.0287
内閣學士	-10.0296
吏部侍郎	-10.0303
神位	-10.0305
教職	-10.0305
一百五十	-10.0321
愧	-10.0323
其地	-10.0327
鋪	-10.0339
經厯	-10.0342
折衝	-10.0342
两	-10.0343
標	-10.0343
禱	-10.0343
油	-10.0344
鳴鞭	-10.0345
聘	-10.0349
耀	-10.0353
于是	-10.0357
乂	-10.0358
所當	-10.0364
不見	-10.0366
功曹	-10.037
每歲	-10.0375
更名	-10.0378
入相	-10.0382
遇有	-10.0391
各該	-10.0391
内殿	-10.0395
等言	-10.0397
監官	-10.0406
一道	-10.0416
東向	-10.0419
𠡠	-10.0434
五曰	-10.0442
猪	-10.0443
㓜	-10.0445
繋	-10.0445
闡	-10.0446
消	-10.0446
憑	-10.0446
洵	-10.0449
悼	-10.0449
出笏	-10.0451
玉帛	-10.0453
炳	-10.0454
禮成	-10.0456
是月	-10.0459
承奉	-10.0459
於戱	-10.0459
少師	-10.0462
文獻通考	-10.0466
皆為	-10.0467
千里	-10.0476
都官	-10.0478
之前	-10.048
正二品	-10.0481
詩賦	-10.0483
屬官有	-10.0484
也原作	-10.0485
郡國	-10.0486
跪奏	-10.0486
錠	-10.0506
定奪	-10.0508
等員	-10.0513
總兵	-10.0524
同列	-10.0526
六尺工尺	-10.0531
方許	-10.0533
憲宗	-10.0534
栁	-10.0537
骨	-10.0539
矢	-10.0541
沒	-10.0544
洗馬	-10.0553
太宰	-10.0557
正官	-10.0559
朝覲	-10.056
府事	-10.0564
南郊	-10.0571
伯克	-10.0574
永樂中	-10.058
増置	-10.0581
之望	-10.0595
近侍	-10.0596
誥命	-10.0609
一分	-10.0618
夢	-10.063
行四拜禮	-10.063
欣	-10.0632
塔	-10.0634
禧	-10.0634
藍	-10.0636
闈	-10.0636
粉	-10.064
隅	-10.064
不准	-10.0641
渥	-10.0641
摩	-10.0642
政和	-10.0644
祠部	-10.0649
香案前	-10.065
正議大夫	-10.065
祚	-10.0651
年間	-10.0657
乖	-10.0672
其屬	-10.0688
弟子	-10.069
一尺	-10.0694
諸子	-10.0699
大樂	-10.0701
常侍	-10.0703
教之	-10.0713
諫官	-10.0714
次第	-10.0718
不分	-10.0721
腹	-10.0732
封號	-10.0733
陰	-10.0734
建言	-10.0736
禆	-10.0737
割	-10.0738
隆慶	-10.0738
武臣	-10.0739
陋	-10.074
照磨	-10.0741
婦人	-10.0745
恱	-10.0745
趙鼎	-10.076
徹饌	-10.0764
人材	-10.0764
五寸	-10.0774
前導	-10.0775
事故	-10.0784
代之	-10.0785
百官志	-10.0793
樂舞	-10.0802
百户	-10.0803
㡬	-10.0813
使人	-10.0815
有餘	-10.0821
為相	-10.0822
弁	-10.0828
郷	-10.083
綜	-10.0833
片	-10.0833
帯	-10.0834
謚	-10.0837
居中	-10.0837
沂	-10.0839
琳	-10.0839
輔國將軍	-10.084
梅	-10.0841
旌表	-10.0842
韓琦	-10.0844
駕部	-10.086
到京	-10.0875
股肱	-10.0891
成均	-10.0893
知樞宻院事	-10.0897
亦無	-10.09
寸	-10.091
仲淹	-10.0926
該府	-10.0931
鑰	-10.0934
等皆	-10.0936
籌	-10.0936
詠	-10.0938
衫	-10.0939
贓	-10.0939
仍令	-10.0941
都䕶	-10.0941
甸	-10.0942
就拜位	-10.0942
棟	-10.0944
劇	-10.0946
浸	-10.0946
曷	-10.0947
不可以	-10.0947
㑹典	-10.0948
宰執	-10.0951
八日	-10.0955
亦以	-10.0956
宫門	-10.0973
十八人	-10.0978
謹案宋	-10.0985
東都	-10.0989
知㑹	-10.0998
郎中員外郎	-10.1003
授封	-10.1015
建置	-10.1019
之崇	-10.102
人君	-10.1022
其時	-10.1022
年繇	-10.1024
抵	-10.1025
奏乞	-10.1032
染	-10.1035
契丹	-10.1036
犀	-10.1036
緣	-10.1038
賫	-10.104
掃	-10.104
豈可	-10.1041
嵩	-10.1041
得㫖	-10.1044
荘	-10.1046
縉	-10.1046
列於	-10.1046
寘	-10.1049
不相	-10.1056
天子之	-10.1059
熈寧	-10.1069
宜令	-10.1071
宋齊梁陳	-10.1077
直長	-10.1081
大學	-10.1082
而行	-10.1095
册立	-10.1096
奏準	-10.11
如儀	-10.1103
魏晉	-10.1109
不載	-10.1109
其在	-10.1125
某年月日	-10.1126
迄	-10.1127
山陵	-10.1129
以禮	-10.1138
奴	-10.1139
殘	-10.1141
𤓰	-10.1141
脚	-10.1142
年八月	-10.1143
每月	-10.1143
歛	-10.1144
渭	-10.1145
蕩	-10.1145
鄂	-10.1146
巨	-10.115
恃	-10.1151
彈	-10.1153
趣	-10.1156
先聖	-10.1159
賓客	-10.1161
者或	-10.1162
從二品	-10.1166
以上者	-10.1166
該部	-10.1168
宫人	-10.1173
大抵	-10.1173
分掌	-10.118
規制	-10.1189
朝見	-10.1189
尼	-10.1195
監督	-10.1204
條例	-10.1216
經書	-10.122
同上	-10.1225
迎神	-10.1227
傳制	-10.1234
辛未	-10.1237
蔚	-10.1245
四日	-10.1251
妙	-10.1251
諭禮部	-10.1251
雕	-10.1252
豪	-10.1252
紳	-10.1253
諧	-10.1253
僖	-10.1253
考官	-10.1254
光祿寺	-10.1257
謗	-10.1258
不便	-10.1263
太醫院	-10.1267
二十二	-10.1269
州郡	-10.1276
本官	-10.1276
入朝	-10.1279
禦	-10.128
位于	-10.1281
洪武二年	-10.1282
監事	-10.1282
流官	-10.1288
謹案唐	-10.1298
年老	-10.1308
楊士竒	-10.1309
科道	-10.1318
軍器	-10.132
鞠躬	-10.1321
三間	-10.1321
六尺	-10.1323
合行	-10.1325
考取	-10.1325
永樂二年	-10.1328
明史	-10.133
及諸	-10.1332
有無	-10.1336
民之	-10.1336
平章事	-10.1344
祝版	-10.135
逰	-10.135
廐	-10.1351
繩	-10.1352
牽	-10.1357
探	-10.1357
溢	-10.1357
憚	-10.1359
書令史	-10.1362
在内	-10.1362
隔	-10.1363
朋	-10.1363
飲食	-10.1365
字韻	-10.1366
視學	-10.1367
篚	-10.137
逵	-10.1372
㕘政	-10.1378
廂	-10.1379
復舊	-10.1379
左右衛	-10.1384
兵部侍郎	-10.1396
裔	-10.1397
撫按	-10.1397
乙未	-10.1397
年月	-10.1411
教化	-10.1413
議者	-10.1414
應天	-10.1419
漕運	-10.1421
常平	-10.1423
無以	-10.1423
不堪	-10.1425
乙丑	-10.143
有不	-10.1434
之誠	-10.1435
從容	-10.1435
太中大夫	-10.1445
其家	-10.1446
爐	-10.1451
羞	-10.1451
瘞	-10.1453
掌院學士	-10.1454
遥	-10.1455
逓	-10.146
繪	-10.1461
抱	-10.1461
札	-10.1461
壞	-10.1462
罄	-10.1464
聿	-10.1464
呂	-10.1465
之罪	-10.1468
鄙	-10.1469
遼東	-10.147
孟子	-10.147
玉牒	-10.1472
也原	-10.1473
刑獄	-10.1477
累朝	-10.1478
又定	-10.1481
考課	-10.1483
可謂	-10.1484
賛引	-10.1489
皆不	-10.1489
聖駕	-10.1493
之位	-10.1497
原籍	-10.1511
生民	-10.1521
一十	-10.1532
不允	-10.1537
分司	-10.1546
管事	-10.1552
箱	-10.1559
六員	-10.156
碩	-10.1561
斬	-10.1569
得人	-10.1571
旱	-10.1572
年任陞	-10.1574
樞密使	-10.1575
貸	-10.1576
之東西	-10.1579
二十一	-10.1579
蔡確	-10.1582
䝉古語	-10.1584
近年	-10.1593
落職	-10.1603
崇禎	-10.1607
丹陛	-10.1611
一百二十	-10.1611
總理	-10.1618
仍兼	-10.1637
轉運	-10.1644
以下皆	-10.1645
加封	-10.1646
甲辰	-10.1651
樂工	-10.1652
這	-10.1653
一箇	-10.1654
現	-10.1658
前鋒	-10.166
寮	-10.1664
㸔	-10.1665
鑿	-10.1667
醢	-10.1667
不可不	-10.1669
麾	-10.1669
辨其	-10.167
噶	-10.1671
犢	-10.1675
氷	-10.1677
彦博	-10.168
執中	-10.1682
行文	-10.1684
驕	-10.169
事情	-10.169
是為	-10.1699
内臣	-10.1701
宣撫使	-10.1703
兼權	-10.1707
儀賔	-10.1713
吏目	-10.1722
人皆	-10.1724
五季	-10.1725
錄事	-10.1732
不肯	-10.1739
年月日	-10.1744
都監	-10.1748
寨	-10.1757
丙辰	-10.1763
之説	-10.1766
刑名	-10.1775
正殿	-10.1776
函	-10.1781
簽書樞宻院事	-10.1781
歆	-10.1781
學正	-10.1782
又言	-10.1782
陣	-10.1782
募	-10.1784
己未	-10.1784
總裁	-10.1784
籩	-10.1785
年六月	-10.1786
沉	-10.1787
像	-10.1787
激	-10.1788
永平	-10.1791
逾	-10.1792
鳥	-10.1793
拂	-10.1794
擇日	-10.1797
回回	-10.1798
考功	-10.1798
始於	-10.1798
拔	-10.1799
仲春	-10.1802
滿洲語	-10.1802
江淮	-10.1806
著為令	-10.1808
止許	-10.1808
右丞相	-10.1819
撰文	-10.1821
贊善	-10.1829
喪禮	-10.1838
入貢	-10.1839
校書郎	-10.1839
際	-10.184
官捧	-10.184
也其	-10.1842
班首	-10.1846
禁約	-10.1849
見在	-10.1858
司務	-10.1858
陜	-10.1865
應試	-10.1866
聖明	-10.1868
文華殿	-10.1868
令其	-10.1874
以進	-10.1884
三十一年	-10.1884
復設	-10.1892
四合	-10.1894
初設	-10.1894
通政司	-10.1896
頓	-10.1897
斟酌	-10.1897
葛	-10.1898
妨	-10.1898
訥	-10.1901
漢制	-10.1902
羌	-10.1902
送部	-10.1902
靣	-10.1902
實以	-10.1902
通議大夫	-10.1903
綽	-10.1904
碧	-10.1905
几筵	-10.1905
披	-10.1908
卧	-10.1909
議得	-10.1909
六百石	-10.191
二十六	-10.1911
損益	-10.1915
帝紀	-10.1921
百人	-10.1922
前項	-10.1923
京畿	-10.1925
毎月	-10.1928
稱賀	-10.1931
道路	-10.1933
玉海	-10.1935
革帶	-10.1935
從八品	-10.1937
禮部右侍郎	-10.1938
分别	-10.1941
相近	-10.1943
歸附	-10.1943
丹陛上	-10.1947
四兩	-10.1951
取士	-10.1952
測	-10.1963
異數	-10.1965
至于	-10.1971
不至	-10.1976
是非	-10.1979
師生	-10.1981
扈	-10.1984
儀賓	-10.1985
元和	-10.1985
知樞密院事	-10.1987
癸丑	-10.1988
如是	-10.199
亦可	-10.1998
正九品	-10.1999
諸道	-10.2
瓦	-10.2003
五分	-10.2004
團	-10.2004
無定員	-10.2005
㧞	-10.2006
沆	-10.2007
阜	-10.2008
具本	-10.201
開府儀同三司	-10.2012
蹈	-10.2013
笙	-10.2014
陽王	-10.2015
盛典	-10.2016
括	-10.2016
舊封	-10.2018
嘆	-10.2019
枉	-10.202
四書	-10.2022
實為	-10.2022
蚤	-10.2023
從八品下	-10.2024
富弼	-10.2026
自有	-10.2027
衛所	-10.2034
中道	-10.2039
節制	-10.2039
太祖髙皇帝	-10.204
劄子	-10.2042
忍	-10.205
皇妃	-10.2051
又令	-10.2053
安人	-10.2053
建康	-10.2054
乃以	-10.2056
肯	-10.2069
百司	-10.2074
二兩	-10.2075
皆得	-10.208
十餘年	-10.21
本處	-10.211
禮物	-10.2111
一卷	-10.2112
庠	-10.2115
起復	-10.2115
脫	-10.2117
貌	-10.2119
防禦	-10.212
之左	-10.2122
姜	-10.2126
待制	-10.2129
零	-10.2129
賞罰	-10.2134
不一	-10.2136
案于	-10.2137
午門	-10.2141
太祝	-10.2145
大政	-10.2148
贊引	-10.2148
不如	-10.215
省牲	-10.2153
罷之	-10.2153
欽此故	-10.2156
致詞	-10.2158
時享	-10.216
王子	-10.217
五品以上	-10.2178
上謂	-10.2184
逺近	-10.2188
無窮	-10.2188
實錄	-10.2191
月日	-10.2191
聖諭	-10.2193
隋置	-10.2195
廡	-10.2204
嶽	-10.2206
家人	-10.2207
貟	-10.221
皆在	-10.2213
武庫	-10.2226
不然	-10.223
盞	-10.2234
靴	-10.2234
五員	-10.2235
晏	-10.2235
彬	-10.2236
箭	-10.2239
桃	-10.224
覩	-10.2242
纓	-10.2243
闢	-10.2245
觴	-10.2246
巡按	-10.2248
旂	-10.225
秘書省	-10.2257
丑	-10.2258
奉天門	-10.2259
推官	-10.226
食糧	-10.2265
帝后	-10.2271
處分	-10.2275
諫議大夫	-10.2279
一副	-10.228
第三品	-10.2283
一斤	-10.2287
工部侍郎	-10.2291
縣丞	-10.2291
也故	-10.2298
冕服	-10.2301
封為	-10.2302
豈不	-10.2305
禮部議	-10.2307
官職	-10.2308
之用	-10.2325
其罪	-10.2325
王爵	-10.2328
毎人	-10.2328
職方	-10.2329
帝本紀	-10.2332
尚書侍郎	-10.2339
柴	-10.2342
墜	-10.235
劄付	-10.2352
隣	-10.2354
忌辰	-10.2354
祠祭署	-10.2354
掲	-10.2354
名數	-10.2355
泛	-10.2355
瑪	-10.2357
駁	-10.2357
嚮	-10.2358
想	-10.2358
相同	-10.236
宣慰司	-10.236
軰	-10.236
如何	-10.2361
違例	-10.2362
徃徃	-10.2363
體貌	-10.2366
臨雍	-10.237
各二	-10.2371
萬户	-10.2381
其他	-10.2388
奏曰	-10.2389
刑部尚書	-10.239
戊辰	-10.2402
伏乞	-10.2403
奬	-10.2406
謹案漢	-10.2412
事體	-10.2413
之學	-10.2415
院事	-10.2417
天之	-10.2419
在樞府	-10.2423
講學	-10.2423
翰林官	-10.2432
將來	-10.2433
金人	-10.2434
開國	-10.2442
三司使	-10.2444
上表	-10.2445
相繼	-10.2448
得失	-10.2451
出使	-10.2458
菜	-10.2461
備考	-10.2462
使相	-10.2463
京都	-10.2463
開封府	-10.2466
都省	-10.2467
一月	-10.2467
丁丑	-10.2469
誘	-10.2472
没	-10.2472
飬	-10.2474
馴	-10.2474
㳺	-10.2474
𣲖	-10.2475
為國	-10.2475
責授	-10.2475
鉶	-10.2476
戾	-10.2476
偃	-10.2481
太常寺官	-10.2483
學士充	-10.2485
事理	-10.2489
位次	-10.2491
公侯伯	-10.2493
分理	-10.2506
奉行	-10.2507
自此	-10.2511
輔導	-10.2519
禮制	-10.2522
供事	-10.2524
中和	-10.2535
始有	-10.2536
覲	-10.2541
使之	-10.2548
官及	-10.2554
士大夫	-10.2556
甄	-10.2562
東北	-10.2563
奏禮畢	-10.2564
十四人	-10.2565
豕	-10.2569
醴	-10.2569
祭服	-10.2569
内贊奏	-10.2569
數月	-10.2578
炎	-10.2579
無事	-10.2581
剌	-10.2581
渾	-10.2584
未置	-10.2584
吹	-10.259
秀才	-10.2592
耗	-10.2593
著作郎	-10.2594
瑶	-10.2594
查照	-10.2597
忤	-10.2597
丙	-10.2598
爽	-10.2599
晦	-10.26
鞫	-10.2601
醇	-10.2602
表箋	-10.2608
士子	-10.2612
王奏	-10.2614
四十人	-10.2625
毎年	-10.2626
引禮	-10.2626
定為	-10.2629
中間	-10.2634
相與	-10.2643
酋	-10.2643
二分	-10.2644
最為	-10.265
調任	-10.2656
崇寧	-10.2662
節度	-10.2663
圜	-10.2664
勝非	-10.2667
八品	-10.2674
監司	-10.2675
叅政	-10.2675
演	-10.2676
三尺	-10.2677
明代	-10.2678
羣牧	-10.2679
官生	-10.2681
所為	-10.2685
一二	-10.2696
時有	-10.2699
上意	-10.2701
撤	-10.2704
五等	-10.2709
簫	-10.2711
参	-10.2712
醉	-10.2713
虧	-10.2713
多有	-10.2714
叨	-10.2716
洎	-10.2717
赫	-10.2717
儀制	-10.2718
奠帛	-10.2718
盟	-10.2719
之情	-10.2719
艱難	-10.2719
他官	-10.2719
請勅	-10.272
依前充	-10.2721
𠫭軍	-10.2724
按察使	-10.2725
蠻夷	-10.2727
從九品下	-10.2735
照舊	-10.2742
因循	-10.2756
革去	-10.2757
所宜	-10.2757
河道	-10.2761
可也	-10.2763
選用	-10.2766
親郡王	-10.2767
請㫖	-10.2768
職官	-10.2773
太樂	-10.2788
未可	-10.2789
仁祖	-10.279
文職	-10.2795
宫使	-10.28
二斤	-10.2809
奉聖㫖是	-10.2817
鑄錢	-10.2817
國子監祭酒	-10.2818
萬石	-10.2828
套	-10.2828
村	-10.2829
本院官	-10.2832
賤	-10.2833
渉	-10.2833
定例	-10.2835
柩	-10.2837
典簿㕔	-10.2837
㫁	-10.2838
彚	-10.2838
大同	-10.284
司郎中	-10.2841
漠	-10.2842
謄録	-10.2843
暢	-10.2844
四分	-10.2846
孟春	-10.2847
牲醴	-10.2847
靖康	-10.285
家令	-10.2853
以俟	-10.2853
徽宗	-10.2855
二十七日	-10.2856
王國	-10.286
以疾	-10.2864
寺丞	-10.2864
之隆	-10.2869
之祭	-10.2885
江左	-10.2889
内有	-10.2906
紹聖	-10.2914
一代	-10.2921
金石	-10.2927
未能	-10.2932
多士	-10.2932
許之	-10.2937
慶成	-10.2941
瑛	-10.2952
提舉洞霄宫	-10.2958
昧	-10.2958
涉	-10.2959
轍	-10.2959
瀛	-10.2959
校勘	-10.2959
耿	-10.296
溝	-10.2962
狥	-10.2962
次之	-10.2963
猛	-10.2964
題準	-10.2966
寺觀	-10.2966
事件	-10.2966
亶	-10.2967
官司	-10.2968
可否	-10.297
之才	-10.2973
樞密院	-10.2983
降香	-10.2983
著於	-10.2991
致齋	-10.2995
圖書	-10.2996
差遣	-10.3003
通州	-10.3005
長史司	-10.3011
之語	-10.3017
之恩	-10.3024
章奏	-10.3027
庫部	-10.3028
三師	-10.3031
府知府	-10.3032
軍國	-10.3035
石鼓	-10.3048
道士	-10.3056
學政	-10.3073
薪	-10.3073
間有	-10.3074
五經	-10.3074
閤	-10.3074
内侍官	-10.3074
誨	-10.3076
祕	-10.3078
訛	-10.3078
禎	-10.3081
尚寳司	-10.3082
牀	-10.3082
五經博士	-10.3084
喬	-10.3085
劉摯	-10.3087
荀	-10.3088
嗟	-10.3089
故有是命	-10.3091
通事舍人	-10.3091
粤	-10.3093
副都統	-10.3094
正九品下	-10.3099
選擇	-10.3101
公服	-10.3102
停止	-10.3107
入學	-10.3111
一事	-10.3113
左侍郎	-10.3117
酒尊	-10.313
湖北	-10.3141
奏搢圭	-10.3149
者矣	-10.3154
文理	-10.3155
貢舉	-10.316
十疋	-10.317
三分	-10.317
無異	-10.3186
嶺	-10.319
爵三	-10.3191
詔曰	-10.3193
簠簋	-10.3201
劍	-10.3201
訊	-10.3207
勅諭	-10.3207
窺	-10.3208
斂	-10.3211
堯舜	-10.3211
陷	-10.3215
龍朔	-10.3222
之權	-10.3222
位前	-10.3223
廏	-10.3225
不容	-10.3226
衛尉	-10.3243
御筆	-10.325
軍務	-10.3251
有缺	-10.3251
未必	-10.3254
行省	-10.3261
與其	-10.3264
挺	-10.3266
聖節	-10.3266
辛丑進士	-10.3268
進表	-10.3272
之稱	-10.3274
撥置	-10.3276
乞罷	-10.3279
朱子	-10.3282
神明	-10.3285
朝參	-10.3285
從九	-10.3292
廷試	-10.3295
太醫	-10.3299
而止	-10.3303
受冊	-10.3306
手本	-10.3307
平章	-10.3316
唐虞	-10.3318
於外	-10.3319
樂奏	-10.332
三獻	-10.3323
緯	-10.3326
以昭	-10.333
不係	-10.3331
僭	-10.3331
惕	-10.3338
妾媵	-10.3338
中書舎人	-10.3338
兼翰林院學士	-10.3341
三十二年	-10.3341
忱	-10.3342
塵	-10.3343
詆	-10.3345
四人掌	-10.3349
部落	-10.3355
寸五分	-10.3361
從七品下	-10.3363
如舊	-10.3364
定議	-10.3364
所請	-10.3368
添設	-10.337
其日	-10.3373
安危	-10.3377
尚享	-10.3384
歐陽	-10.3385
正五	-10.3386
學問	-10.3387
指揮使	-10.3388
上從之	-10.3392
開封	-10.3395
而有	-10.3398
五十人	-10.3405
米一石	-10.3412
曰吾	-10.3413
准襲	-10.3416
其意	-10.3417
天官	-10.3418
掖	-10.3419
武職	-10.3422
薦舉	-10.3424
有大	-10.3424
禁令	-10.3425
年五月	-10.3426
于此	-10.3427
宫觀	-10.3428
神龍	-10.3434
中官	-10.3437
評	-10.3438
五城	-10.344
本寺官	-10.3442
仍行	-10.3446
綵段	-10.3453
皂	-10.3458
燒	-10.3465
轎	-10.3465
匿	-10.3465
揺	-10.3467
閭	-10.3467
逼	-10.3468
上章	-10.3472
濬	-10.3473
凶	-10.3473
春官	-10.3474
淨	-10.3476
范純仁	-10.348
織金	-10.3482
無可	-10.3483
紀綱	-10.3485
從一品	-10.349
之私	-10.3493
六曰	-10.3498
如例	-10.3499
照依	-10.3506
存留	-10.351
國事	-10.3513
禮部官	-10.3513
聖母	-10.3516
萬邦	-10.352
取其	-10.3522
儀制司	-10.3522
盛京	-10.3526
四時	-10.3527
臨時	-10.3531
武王	-10.3539
永樂初	-10.3544
六日	-10.355
一官	-10.3552
多不	-10.3559
寢殿	-10.356
之任也	-10.3568
袖	-10.3573
禮部覆奏	-10.3574
乃命	-10.3574
西階	-10.3574
以爲	-10.3586
䕃	-10.3591
凱	-10.3592
辯	-10.3593
正旦冬至	-10.3594
照得	-10.3595
汾	-10.3595
剏	-10.3596
梓	-10.3596
涵	-10.3596
兇	-10.3597
蠲	-10.3598
昊	-10.36
處之	-10.36
敘	-10.36
㤗	-10.3603
者乃	-10.3604
資政殿大學士	-10.3608
獵	-10.361
試卷	-10.361
建文	-10.3611
筵宴	-10.3614
嫁	-10.3618
宗伯	-10.3618
年十月	-10.3619
名曰	-10.3624
勤勞	-10.3626
祀事	-10.3628
成周	-10.3631
獄訟	-10.3645
承天	-10.3654
品官	-10.3658
至治	-10.3659
所得	-10.3661
以便	-10.3661
諸儒	-10.367
伏惟	-10.3671
諸將	-10.3676
於前	-10.3678
徳祖	-10.3683
教養	-10.3689
得罪	-10.3689
内賛奏	-10.3692
文臣	-10.3695
直院	-10.3697
大業	-10.3698
臺諫	-10.3699
㦸	-10.3705
之世	-10.3709
所有	-10.3716
其任	-10.3716
把總	-10.3717
衙	-10.3717
羮	-10.3717
之分	-10.3719
爼	-10.372
守臣	-10.3723
大典	-10.3726
大防	-10.3727
䖏	-10.3728
奇	-10.3729
為人	-10.3729
仿	-10.373
揭	-10.3731
諸官	-10.3732
桐	-10.3733
鉉	-10.3733
沐	-10.3733
鈎	-10.3733
奔	-10.3733
悖	-10.3735
紏	-10.3737
杜佑通典	-10.3738
撫按官	-10.374
白金	-10.3742
議處	-10.3747
奉御	-10.3749
髙下	-10.3754
諸陵	-10.3761
金吾	-10.3762
史二人	-10.3764
三國	-10.3787
上林	-10.3788
宣諭	-10.3788
堂上	-10.3789
官一人	-10.3799
某氏	-10.38
先農	-10.3803
揚州	-10.3803
秦王	-10.3805
具題	-10.3815
人萬厯	-10.383
府州	-10.3835
左丞	-10.3836
祖宗之	-10.3838
案前	-10.3841
壬辰	-10.3849
數日	-10.385
提舉司	-10.3853
尤為	-10.3859
磁	-10.386
巫	-10.3862
拾遺	-10.3864
幅	-10.3867
賜之	-10.3867
賄	-10.3868
霄	-10.3868
哩	-10.387
狄	-10.3871
散騎常侍	-10.3872
誌	-10.3872
之職也	-10.3873
擁	-10.3874
狂	-10.3874
聖王	-10.3875
佳	-10.3877
秘閣	-10.3879
不欲	-10.3882
往來	-10.3886
安國	-10.3888
舉哀	-10.3891
不從	-10.3893
出閣	-10.3894
不盡	-10.3897
之議	-10.3899
香案	-10.39
文彦博	-10.3901
例該	-10.3902
具朝服	-10.3904
十名	-10.3905
隴	-10.3905
災異	-10.3909
長孫	-10.3913
大駕	-10.3914
廟堂	-10.3914
主祭	-10.392
大中	-10.3921
相承	-10.3921
轉行	-10.3922
授以	-10.3926
置于案	-10.3928
黄門	-10.3929
王氏	-10.3929
從官	-10.393
設香案	-10.3938
特恩	-10.3945
武宗	-10.3946
庚戌	-10.3951
特賜	-10.3957
大鴻臚	-10.396
於後	-10.3965
魏書	-10.3968
今改	-10.3969
而退	-10.3976
行取	-10.3981
衆官	-10.3983
樞密	-10.399
春坊	-10.3993
甚至	-10.3993
不失	-10.3994
饋	-10.3994
宣和	-10.3997
治平	-10.3998
魁	-10.3999
大中祥符	-10.4
北向立	-10.4001
萊	-10.4003
有此	-10.4004
弄	-10.4004
蓮	-10.4005
控	-10.4005
悟	-10.4006
徇	-10.4006
攷	-10.4007
若不	-10.4009
禋	-10.401
驥	-10.401
敞	-10.4011
外國	-10.4011
五代史	-10.4012
頓首	-10.4019
增置	-10.402
給賜	-10.4021
鄭康成注	-10.4021
軍士	-10.4022
奉使	-10.4025
陞授	-10.4035
作樂	-10.4039
録事一人	-10.404
自此始	-10.404
尚有	-10.4042
導上至	-10.4047
欽定四庫全書	-10.4052
某人	-10.4054
稱為	-10.4054
者仍	-10.4055
京兆	-10.4061
王珪	-10.4063
毎嵗	-10.4065
丞各一人	-10.4065
單于	-10.4068
公論	-10.409
太子太保	-10.409
不問	-10.4096
大司農	-10.4112
傳賛	-10.4113
二十三	-10.4116
六經	-10.4116
六分	-10.4116
甲子	-10.4119
國有	-10.4122
官學	-10.4122
但有	-10.4123
鹽鐡	-10.4124
故不	-10.4129
葺	-10.4129
特命	-10.413
不改	-10.4131
五府	-10.4131
宣撫	-10.4131
綵幣	-10.4132
司樂	-10.4134
然而	-10.4135
昏	-10.4136
牘	-10.4137
旒	-10.4138
鞭	-10.4139
總領	-10.414
光禄大夫	-10.4144
不設	-10.4145
北魏	-10.4145
絹二疋	-10.4145
㨗	-10.4145
等州	-10.4145
起居郎	-10.4146
迭	-10.4147
侈	-10.4147
影	-10.4147
修省	-10.4148
州牧	-10.4148
捐	-10.4148
太平興國	-10.4149
考校	-10.415
東廡	-10.4155
詭	-10.4155
本寺卿	-10.4156
睿宗	-10.4157
嘉祐	-10.4158
朕意	-10.4159
順治元年	-10.4161
景帝	-10.4164
處置	-10.4173
祭畢	-10.4178
何如	-10.4181
成帝	-10.4189
詩書	-10.419
䕶衛	-10.419
元年正月	-10.4192
一寸	-10.4195
自行	-10.4201
長男	-10.4205
五色	-10.4215
兼理	-10.4215
嘉靖十年	-10.4217
之謀	-10.4217
雍正元年	-10.4219
諸曹	-10.4225
數目	-10.4227
長丞	-10.4227
不易	-10.4228
尊崇	-10.4232
官品	-10.4236
三楹	-10.4238
覆奏	-10.425
三十五	-10.425
名實	-10.4251
伴	-10.4251
令一人	-10.4251
琉球	-10.4252
賢才	-10.4268
階下	-10.4269
汛	-10.4272
二十八	-10.4275
旗纛	-10.4277
將作	-10.4279
革爵	-10.4279
隙	-10.428
礙	-10.428
如此則	-10.4281
饑	-10.4281
約束	-10.4281
今制	-10.4282
踈	-10.4282
凉	-10.4282
潜	-10.4283
彩	-10.4283
屠	-10.4284
閉	-10.4284
莅	-10.4284
集賢院	-10.4285
坤	-10.4285
沔	-10.4286
我皇	-10.4287
奥	-10.4287
崩	-10.4287
返	-10.4287
臘	-10.4287
矩	-10.429
千秋	-10.429
庶㡬	-10.429
戈	-10.4292
壓	-10.4293
一座	-10.4293
旭	-10.4294
五品已上	-10.4296
河南尹	-10.4302
祭品	-10.4305
兼掌	-10.4306
詞臣	-10.4307
班次	-10.4307
委官	-10.4308
求去	-10.4309
於戯	-10.4311
龍亭	-10.4311
十兩	-10.4316
利害	-10.4316
如前儀	-10.432
差役	-10.4322
之務	-10.4328
喪主	-10.4329
萬歴	-10.4331
九日	-10.4339
從六品上	-10.4347
萬物	-10.4349
充軍	-10.4349
各布政司	-10.4349
朔日	-10.4354
方平	-10.4355
則是	-10.4356
萬一	-10.4359
正使	-10.4361
則曰	-10.4372
掌印	-10.4379
清明	-10.438
明初	-10.438
嘉靖四十	-10.4387
百石	-10.4387
古制	-10.4388
如前	-10.4392
俱用	-10.4393
黼	-10.4393
告成	-10.4394
官皆	-10.4396
四名	-10.4399
如初	-10.44
制誥	-10.4404
帛一	-10.4404
巡檢司巡檢	-10.4405
䘏	-10.4406
無聞	-10.4406
卒贈	-10.4407
忻	-10.4413
漢之	-10.4418
凟	-10.4418
高祖	-10.4419
一節	-10.4424
涇	-10.4425
三寸	-10.4425
蒸	-10.4425
緝	-10.4427
搆	-10.4428
漫	-10.4428
是日早	-10.4429
本色	-10.4429
協律郎	-10.443
侍臣	-10.443
狼	-10.443
匡	-10.443
後漢書百官志	-10.4431
倖	-10.4432
衞尉	-10.4432
踵	-10.4432
折鈔	-10.4434
昻	-10.4435
財賦	-10.4435
賔客	-10.4437
叶	-10.4439
冊立	-10.4442
掌之	-10.4444
俊秀	-10.4444
律令	-10.4445
欲以	-10.4445
用兵	-10.4448
類奏	-10.445
牙牌	-10.4454
親征	-10.4455
究治	-10.4457
院使	-10.4458
東階	-10.446
金山	-10.4463
書院	-10.4466
嘉靖八年	-10.4468
送至	-10.4471
樂止典儀唱	-10.4472
既有	-10.4474
六科	-10.4475
本紀	-10.4476
主簿一人	-10.4479
十斤	-10.4482
一前期	-10.4485
别有	-10.4491
竊惟	-10.4492
千人	-10.4494
館職	-10.4497
號為	-10.4501
知印	-10.4509
用金	-10.451
三斤	-10.4511
堂官	-10.4516
相見	-10.4518
儀衛	-10.4522
然考	-10.4522
侯伯	-10.4527
百里	-10.4539
亦皆	-10.4541
汗	-10.4543
殿庭	-10.4546
府學	-10.4548
封贈	-10.4549
六十人	-10.455
綺	-10.455
戊戌	-10.4552
五千	-10.4553
監肄業	-10.4555
呵	-10.4558
粮	-10.4559
候上	-10.4562
枝一兩燭	-10.4565
膏	-10.4569
降為	-10.4569
始也	-10.4569
皷	-10.4569
鎬	-10.457
奄	-10.4571
僣	-10.4573
縂	-10.4573
裝	-10.4574
淫	-10.4574
人掌固四人	-10.4574
丁亥	-10.4576
琴	-10.4577
祁	-10.4577
殫	-10.4577
新法	-10.4578
丁憂	-10.4579
天啟	-10.4579
二十九	-10.4581
免朝	-10.4583
之長	-10.4584
正統元年	-10.4584
嗚呼	-10.4586
之右	-10.4592
杭州	-10.4594
二疋	-10.4596
楪	-10.4602
千總	-10.4603
孔氏	-10.4606
某官	-10.4613
入班	-10.4614
之期	-10.4619
聰明	-10.462
聞之	-10.4628
都事	-10.463
者曰	-10.463
釐正	-10.4635
後唐	-10.4637
工尺一合	-10.4638
校書	-10.4644
擢用	-10.4646
都水監	-10.4648
統領	-10.4649
北平	-10.4655
中式	-10.4657
褥	-10.4659
無疆	-10.4661
洪武十六年	-10.4663
壬	-10.4669
隨時	-10.467
欽此故男	-10.4678
數十	-10.4679
字子	-10.4682
周之	-10.4687
參議	-10.4687
以至	-10.4688
俱與	-10.469
年例	-10.4691
就彼冠帶	-10.4692
朝官	-10.4697
月初一日	-10.4698
再三	-10.47
在西	-10.4706
潮	-10.4708
奏報	-10.471
其心	-10.4711
磨	-10.4712
管理府事	-10.4713
潞	-10.4713
庚	-10.4714
欠	-10.4716
贍	-10.4717
庾	-10.4717
儆	-10.4719
勛	-10.472
汰	-10.4721
宵	-10.4722
蘓	-10.4723
偕	-10.4723
閫	-10.4726
畝	-10.4727
弭	-10.473
閻	-10.4731
晉書	-10.4737
參軍事	-10.4744
天順元年	-10.4745
州安置	-10.4748
曰某	-10.4752
各部	-10.4753
太子少保	-10.4757
書成	-10.476
四部	-10.4762
别駕	-10.4762
遂罷	-10.4763
除參知政事	-10.4766
論語	-10.4767
叅議	-10.4768
不已	-10.4774
頒行	-10.4774
平定	-10.4775
者聽	-10.4776
神座	-10.478
後又	-10.4785
上疏	-10.4785
互見	-10.4792
等三百	-10.4792
歎	-10.4803
丙戌	-10.4804
文明	-10.4808
改元	-10.4811
千餘	-10.4818
天聖	-10.4818
額數	-10.4819
經歴	-10.4826
半年	-10.4832
宣帝	-10.4833
不忘	-10.4837
百餘	-10.4839
則為	-10.4841
率府	-10.4842
舄	-10.485
在位	-10.4852
太史令	-10.4854
歴代帝王	-10.4859
系	-10.4859
属官有	-10.4861
脱	-10.4863
都指揮使	-10.4864
栢	-10.4868
將軍中尉	-10.4868
喧	-10.4868
釁	-10.487
竇	-10.487
宗人府	-10.4873
㑹同館	-10.4874
樞密副使	-10.4874
稽考	-10.4875
恥	-10.4876
長陵	-10.4877
映	-10.4877
蘭臺	-10.4879
輔弼	-10.4882
四門	-10.4883
置于	-10.4885
考試官	-10.4891
登極	-10.4895
得之	-10.4896
柏	-10.4896
大都督	-10.4898
淳化	-10.4899
而去	-10.4904
李綱	-10.4906
曰臣	-10.4907
漢文	-10.4908
奏擾	-10.4912
科目	-10.4914
成王	-10.4915
國子祭酒	-10.4916
立法	-10.4916
不出	-10.4921
十隻	-10.4922
召對	-10.4938
於民	-10.4941
齊賢	-10.495
出則	-10.4954
三年二月	-10.4954
供給	-10.4956
四配	-10.4957
十五斤	-10.4957
世孫	-10.4957
十有二人	-10.4958
給賞	-10.496
考其	-10.496
股肱之	-10.4961
洪武十五年	-10.4962
屬於	-10.4963
文官	-10.4964
其數	-10.4965
行宫	-10.4965
人多	-10.4969
服色	-10.4974
所云	-10.4977
誥勅	-10.4981
經術	-10.4984
人臣	-10.499
為上	-10.499
都城	-10.499
中有	-10.4999
選婚	-10.5
實授	-10.5
入見	-10.5003
五斤	-10.5005
先師孔子	-10.5006
以成	-10.5008
瑄	-10.5008
之規	-10.5009
國朝官制	-10.5009
模	-10.5011
枝二兩燭	-10.5012
瑾	-10.5012
鈐	-10.5013
汴	-10.5015
頻	-10.5015
十一人	-10.5015
倪	-10.5015
灌	-10.5016
薩	-10.5017
紋	-10.5018
膠	-10.5019
諮	-10.502
迺	-10.502
籥	-10.5021
壬戌	-10.5021
翁	-10.5023
止用	-10.5023
皁	-10.5023
枚	-10.5024
滌	-10.5025
曩	-10.5026
諭徳	-10.5027
世之	-10.5027
浦	-10.5027
也若	-10.5027
群	-10.5027
翰苑	-10.5028
苐	-10.5029
擒	-10.5029
老疾	-10.5033
飲酒	-10.5034
可見	-10.504
吕公著	-10.504
患病	-10.5042
監門	-10.5044
鬼	-10.5047
行禮畢	-10.5047
來京	-10.5052
聖徳	-10.5053
夷人	-10.5062
具服	-10.5072
十餘	-10.5073
本等	-10.5076
大成殿	-10.5079
首領	-10.508
未盡	-10.5085
四寸	-10.5087
此例	-10.5096
左春坊	-10.5098
部議	-10.51
品物	-10.5101
司勲	-10.5106
成化二年	-10.5109
甲戌	-10.511
之計	-10.512
之說	-10.512
到任	-10.5122
讀祝官	-10.5126
者如	-10.5135
簽書	-10.514
臣民	-10.5144
使司	-10.5146
可為	-10.5147
倉庫	-10.5149
常朝	-10.515
天人	-10.5153
甚多	-10.5155
奉勅	-10.5155
一萬	-10.5156
様	-10.5157
五名	-10.5159
大觀	-10.5162
組	-10.5165
炭	-10.5169
稔	-10.5171
衰服	-10.5172
奕	-10.5172
辛巳	-10.5173
瓚	-10.5173
摯	-10.5175
蓬	-10.5176
解縉	-10.5177
蠧	-10.5177
之次	-10.5179
太常寺少卿	-10.5179
筭	-10.5182
故有	-10.5183
奏保	-10.5184
者悉	-10.5186
無所不	-10.5187
矯	-10.5188
賛四拜	-10.519
制也	-10.519
亦宜	-10.5197
郡守	-10.5197
我國家	-10.5202
因事	-10.5211
用人	-10.5222
自然	-10.5226
得其	-10.5232
此事	-10.5232
百年	-10.5234
初授	-10.5234
補闕	-10.5235
捧帛	-10.5241
以資	-10.5252
有成	-10.5257
一槩	-10.5259
等第	-10.5261
之志	-10.5262
所定	-10.527
明帝	-10.5276
又一	-10.5277
天命	-10.5279
用事	-10.528
宋制	-10.5295
郎將	-10.5297
四箇	-10.5306
貞元	-10.531
風雨	-10.531
其一	-10.5316
先行	-10.5316
先師廟	-10.5318
敢告	-10.5319
觀察使	-10.532
牆	-10.5322
潭	-10.5323
慿	-10.5323
藝文	-10.5323
訂	-10.5324
兩拜	-10.5324
朗	-10.5324
閩	-10.5325
洲	-10.5327
侮	-10.5329
新唐書百官志	-10.533
夲	-10.5331
俄	-10.5332
憫	-10.5333
闔	-10.5334
駭	-10.5337
邀	-10.5337
朋黨	-10.5337
壤	-10.5338
遷中大夫除	-10.5338
鐫	-10.5339
仍以	-10.534
佞	-10.534
浙江錢塘人	-10.5342
閎	-10.5343
萃	-10.5344
止於	-10.5346
尚書郎	-10.5349
陪臣	-10.5354
不免	-10.5355
千石	-10.5357
四百石	-10.5358
秘書郎	-10.536
之實	-10.5365
看詳	-10.5368
舊典	-10.5368
之資	-10.5371
司直	-10.5372
搢圭	-10.5377
跪受	-10.5382
哲宗	-10.5384
營造	-10.5395
正如今	-10.5398
叩	-10.5399
殿學士	-10.5405
不世襲	-10.5409
御藥	-10.541
諸神	-10.5413
故嫡長男	-10.5417
己丑	-10.5426
漢人一人	-10.5434
官民	-10.5437
衢	-10.5443
者並	-10.5452
建炎	-10.5456
貢使	-10.5463
笏	-10.5463
宦	-10.5467
風雲雷雨	-10.5475
韈	-10.5476
墻	-10.5477
不足以	-10.5478
正徳四年	-10.548
八百	-10.548
曲阜	-10.548
八旗官學	-10.548
譜	-10.5481
門出	-10.5482
中統	-10.5483
簇	-10.5483
丙午	-10.5483
荅	-10.5485
唐開元二十七年從祀封	-10.5485
斛	-10.5487
岸	-10.5487
宋史職官志	-10.5487
二十名	-10.5487
士遜	-10.5489
磬	-10.5489
蹟	-10.5492
百僚	-10.5494
西廡	-10.5495
賜緋	-10.5496
凛	-10.5496
廼	-10.5496
馬端臨文獻通考	-10.5496
𠫭將曰	-10.5497
幕次	-10.5497
沛	-10.5498
景祐	-10.5498
賡	-10.5498
太府寺	-10.5502
文武羣臣	-10.5503
財物	-10.5503
秋官	-10.5504
不通	-10.5505
右正言	-10.5506
不言	-10.5507
及其	-10.5508
一尺工尺	-10.5513
浙江仁和人	-10.5514
戌	-10.5515
大統	-10.5524
師傅	-10.5527
制帛	-10.5527
祭葬	-10.5529
三十五年	-10.5534
后妃	-10.5538
正一品	-10.5541
考工	-10.5542
右丞	-10.5542
方澤	-10.5547
正七	-10.5548
准他襲	-10.555
列于	-10.5553
之要	-10.5556
第四品	-10.5558
河西	-10.5558
賛跪	-10.5561
圖籍	-10.5568
同知樞宻院事	-10.557
近日	-10.5574
諳	-10.5581
𠫭	-10.5591
案上	-10.5592
見任	-10.5594
本兵	-10.5598
至京	-10.5605
香帛	-10.561
周制	-10.5612
鬼神	-10.5612
鎮駐	-10.5613
帑	-10.5621
八員	-10.5623
名號	-10.5624
萬夀	-10.5631
正六	-10.5635
𣙜	-10.5637
盛事	-10.5637
來貢	-10.5639
步軍	-10.5639
簽書樞密院事	-10.564
笞	-10.564
有違	-10.5641
於朝	-10.5643
紅羅	-10.5644
廵撫	-10.5644
建議	-10.5644
𢎞治元年	-10.5645
傘	-10.5645
利用	-10.5647
霍	-10.5647
償	-10.5648
譏	-10.5648
因而	-10.5649
衝	-10.5649
數年	-10.5651
鵬	-10.5651
駐防	-10.5653
諷	-10.5656
灼	-10.5656
開府	-10.5657
朝鮮	-10.5657
亦與	-10.5658
太子太傅	-10.5658
快	-10.5659
器械	-10.566
層	-10.5661
曰陛下	-10.5664
通鑑	-10.5669
重事	-10.567
保結	-10.5671
唐書	-10.5671
鳴贊	-10.5672
之榮	-10.5672
大用	-10.5673
州居住	-10.5674
専司	-10.5675
左右僕射	-10.5676
奉詔	-10.5683
終身	-10.5699
除叅知政事	-10.5701
校理	-10.5704
之美	-10.5704
提領	-10.5706
注意	-10.571
凡三	-10.5711
萬里	-10.5712
臣子	-10.5712
必大	-10.5719
逐一	-10.5719
在東	-10.5719
查勘	-10.5721
者三	-10.5723
班第	-10.5724
貢士	-10.5725
女直	-10.5727
藏之	-10.5732
尊諡	-10.5735
三十二	-10.5736
首領官	-10.5741
皇親	-10.5741
俱同	-10.5745
不忍	-10.5747
十萬	-10.5747
嘉靖十一年	-10.5748
增設	-10.5749
等曰	-10.5752
正副	-10.5753
八兩	-10.5754
給之	-10.5754
庚辰	-10.5757
文體	-10.5757
言事	-10.5767
八分	-10.5767
行令	-10.577
近臣	-10.5773
闕里	-10.5781
中庶子	-10.5782
都堂	-10.5782
皆如	-10.5783
終始	-10.5786
同心	-10.5789
郡主	-10.5792
工六尺	-10.5792
宣制	-10.5794
安得	-10.5795
著他	-10.5796
二年正月	-10.5797
臨御	-10.5799
拾	-10.5802
謹案元	-10.5804
緫	-10.5805
諸國	-10.5805
其父	-10.5808
明俞汝楫編	-10.5808
稿	-10.5808
晝	-10.5809
欽定四庫全書欽定國子監志卷	-10.581
味	-10.5811
受封	-10.5812
者惟	-10.5813
腰	-10.5813
紊	-10.5813
倒	-10.5814
崇聖祠	-10.5814
尚書胡濙	-10.5814
絃	-10.5814
礪	-10.5814
霞	-10.5815
非所以	-10.5815
與他	-10.5815
森	-10.5816
贊禮唱	-10.5816
醖	-10.5816
贊四拜	-10.5817
蔬	-10.5818
丙申	-10.5818
髙麗	-10.5819
禮生	-10.5819
攬	-10.5819
蘇轍	-10.582
恨	-10.5821
顧問	-10.5821
籠	-10.5822
肩	-10.5823
淳熙	-10.5824
拒	-10.5824
四品以上	-10.5825
暉	-10.5827
司𨽻	-10.5829
已故	-10.5831
又改	-10.5832
一壇	-10.5834
婦女	-10.5835
建安	-10.5836
三館	-10.5839
員數	-10.584
諭㫖	-10.5842
三十三年	-10.5844
永樂間	-10.5846
兼侍中	-10.5846
仍前	-10.5848
亦當	-10.585
后土	-10.585
典膳	-10.5854
軍事	-10.5855
楷	-10.5855
一旦	-10.5856
宗藩	-10.5856
小學	-10.5859
歴事	-10.5867
受其	-10.5867
典客	-10.5868
自翰林學士	-10.587
典故	-10.587
各色	-10.5879
布政使	-10.5882
成化元年	-10.5891
期滿	-10.5892
執爵	-10.5894
貢物	-10.5895
又奏	-10.5898
丁謂	-10.5898
衮冕	-10.59
署令丞	-10.5906
辛丑	-10.5911
兵器	-10.5911
事有	-10.5913
渡	-10.5916
五間	-10.5917
大官	-10.5926
本部查	-10.5929
之職而	-10.5929
安王	-10.5931
不常	-10.5934
詳議	-10.5941
至聖	-10.5944
加以	-10.5945
跪奏請	-10.5948
必先	-10.5951
始定	-10.5953
前去	-10.5954
大率	-10.5955
罷為	-10.5957
不預	-10.596
並置	-10.596
屬之	-10.5967
以安	-10.5968
毎名	-10.597
著作佐郎	-10.5973
李賢	-10.5973
職守	-10.5974
忿	-10.5974
欽定國子監志卷	-10.5975
芝	-10.5976
晟	-10.5976
簮	-10.5976
乙亥	-10.5977
涼	-10.5979
以防	-10.598
廉	-10.598
有常	-10.5981
月十八日	-10.5983
彊	-10.5983
焦	-10.5983
河渠	-10.5983
霖	-10.5984
髙宗	-10.5987
成功	-10.5987
忝	-10.5987
恬	-10.5987
𥘉	-10.5987
乾坤	-10.5989
諸書	-10.599
泣	-10.599
翰林院官	-10.599
懽	-10.599
上請	-10.5991
至期	-10.5992
至公	-10.5992
闗防	-10.5993
鏞	-10.5993
番僧	-10.5993
其國	-10.5995
神祇	-10.5997
仇	-10.6
夏至	-10.6
樂止典儀	-10.6001
必以	-10.6002
比部	-10.6002
聖人之	-10.6004
飾以	-10.6004
伏望	-10.6008
而復	-10.6011
即以	-10.6013
法司	-10.6013
吕惠卿	-10.6013
咨部	-10.6013
宣徽院	-10.6017
崇文	-10.6022
集議	-10.6024
保定	-10.6026
唐之	-10.6026
委署	-10.6027
公議	-10.6027
東觀	-10.6027
猶未	-10.603
奏四拜	-10.6032
正八	-10.6032
安置	-10.6032
禮部左侍郎	-10.6033
正四	-10.6035
馬匹	-10.6039
部族	-10.6049
屬國	-10.6049
副都御史	-10.6052
宰輔	-10.6052
丁未進士	-10.6052
風化	-10.6053
漢官	-10.6056
晉王	-10.6057
月初二日	-10.6063
尤重	-10.6064
大紅	-10.6065
之治	-10.6066
之處	-10.6076
故長男	-10.6077
置於	-10.6078
詔從之	-10.6079
告祭	-10.6079
提問	-10.608
請以	-10.6085
不報	-10.6087
成憲	-10.6087
差來	-10.6087
侍書	-10.609
孝經	-10.6092
所據	-10.6096
某等	-10.6096
主客司	-10.6098
前此	-10.6099
詹	-10.61
監修	-10.6102
拜位于	-10.6102
前來	-10.6118
之業	-10.6123
為重	-10.6124
陳乞	-10.6125
私自	-10.6125
蠟	-10.6131
鑲	-10.6131
縣知縣	-10.6136
朦朧	-10.6139
詔令	-10.614
依親	-10.614
洪武四年	-10.614
章疏	-10.6141
議定	-10.6142
三年一	-10.6143
修葺	-10.6144
緡	-10.6145
上林苑	-10.6145
器皿	-10.6147
兩宫	-10.6147
坦	-10.6147
祈榖	-10.6148
諾	-10.6148
一心	-10.6149
髪	-10.6149
為之貳	-10.615
授職	-10.6151
侑	-10.6151
頑	-10.6151
立石	-10.6151
沿途	-10.6151
碍	-10.6152
盥	-10.6152
免其	-10.6152
後改	-10.6153
潢	-10.6153
荐	-10.6154
十餘人	-10.6154
葵	-10.6155
顓	-10.6156
所由	-10.6156
喻	-10.6159
繄	-10.616
後復	-10.6165
戸部尚書	-10.6168
裁革	-10.6169
所置	-10.617
聖朝	-10.617
趙普	-10.6172
多所	-10.618
水衡	-10.6181
流外	-10.6181
送監	-10.6182
併入	-10.6182
金玉	-10.6183
黄帝	-10.6184
師道	-10.6194
忠義	-10.6195
延登	-10.6195
一陳設	-10.62
乙丑進士	-10.621
之選	-10.621
宗支	-10.6213
之變	-10.6215
陪祭	-10.6216
明經	-10.6218
因言	-10.6222
講章	-10.6232
其年	-10.6234
等因本部	-10.6235
互相	-10.6237
非常	-10.6237
天章	-10.6239
舊規	-10.6239
器用	-10.624
又詔	-10.6244
二州	-10.6245
各二員	-10.6246
精膳司	-10.6247
典吏	-10.6247
百五十	-10.6248
職銜	-10.6248
逺人	-10.6265
豈無	-10.6265
會議	-10.627
二十斤	-10.627
財用	-10.6272
以奉	-10.6273
傳稱	-10.6274
洪武六年	-10.6274
不應	-10.6274
謹以	-10.6276
下程	-10.6279
簿書	-10.6279
故曰	-10.6284
監國	-10.6285
去處	-10.6285
皆用	-10.6286
受之	-10.6292
為名	-10.6293
公亮	-10.6295
譯史	-10.6297
出圭	-10.6298
治事	-10.6298
召還	-10.63
著他做	-10.6301
不經	-10.6302
者得	-10.6303
大義	-10.6304
日為始	-10.6305
無子	-10.6312
戮	-10.6312
光禄勲	-10.6313
尸	-10.6317
暹羅	-10.6317
各設	-10.6318
㡌	-10.6319
漏刻	-10.6321
穹	-10.6323
舛	-10.6323
粗	-10.6323
鬱	-10.6324
寖	-10.6324
總管府	-10.6325
府尹	-10.6326
嵗終	-10.6327
馨	-10.6328
怪	-10.6329
毒	-10.633
敢不	-10.633
樸	-10.6332
吐	-10.6332
祖考	-10.6332
六曹	-10.6335
承祭官	-10.6336
奉先	-10.6338
丙子	-10.6339
儒林	-10.634
文綺	-10.6341
中都	-10.6343
導駕官	-10.6344
司門	-10.6347
經歴司	-10.6353
文武大臣	-10.6355
成婚	-10.6358
人民	-10.6359
不得已	-10.6359
若此	-10.636
後魏北齊	-10.6365
年任歴	-10.6365
具瞻	-10.6368
請給	-10.6371
建儲	-10.6372
文曰	-10.6375
掌供	-10.6376
兩制	-10.6379
二箇	-10.6381
當如今	-10.6382
開讀	-10.6385
疾病	-10.6386
而行之	-10.6387
嘉靖元年	-10.6391
四尺	-10.6392
年三月	-10.6397
河間	-10.6398
入直	-10.6399
年正月	-10.6401
三名	-10.6403
清吏司	-10.6405
左右丞	-10.6406
十四日	-10.6415
從七品上	-10.6415
然其	-10.6416
二隻	-10.6423
經過	-10.6427
退而	-10.6429
行在禮部	-10.6429
萬民	-10.643
保勘	-10.6431
俱有	-10.6432
又設	-10.6435
詳定	-10.6437
一個	-10.6437
置左右	-10.6437
康熙五十	-10.6443
職者	-10.6443
亦多	-10.6443
欽依	-10.6444
盜賊	-10.6444
所見	-10.6444
大行	-10.6446
聖廟	-10.6449
制書	-10.6458
其文	-10.6461
並為	-10.6466
部尚書	-10.6467
宋濓	-10.6469
見于	-10.6472
百世	-10.6473
大體	-10.6482
駮	-10.6482
嶽鎮海瀆	-10.6486
㝷	-10.649
該本部議得	-10.649
材官	-10.6491
十哲	-10.6492
𠂻	-10.6493
鵝	-10.6494
淹	-10.6494
弓矢	-10.6495
特穆爾	-10.6496
髦	-10.6496
四十五	-10.6496
薨逝	-10.6497
刷	-10.6497
禾	-10.6498
涖	-10.6498
香燭	-10.6499
進御	-10.65
龔	-10.65
萌	-10.65
㓂	-10.6501
拆	-10.6501
彞	-10.6501
袱	-10.6502
佚	-10.6502
隋文帝	-10.6502
禽	-10.6503
黜陟	-10.6504
肥	-10.6504
簪	-10.6505
奈何	-10.6507
淮南	-10.6507
敢有	-10.6508
尊卑	-10.6508
建武	-10.6509
諤	-10.651
烟	-10.6511
塊	-10.6512
同前	-10.6513
朝儀	-10.6518
議擬	-10.6519
正九	-10.6521
未免	-10.6529
經綸	-10.6531
固有	-10.6534
除樞宻副使	-10.6543
諭之曰	-10.6546
查無	-10.6547
至此	-10.6552
為學士	-10.6554
庫使	-10.6556
尺合四	-10.6556
寧王	-10.6563
洪武五年	-10.6566
典書	-10.6566
員缺	-10.6567
教諭	-10.657
東閣	-10.6572
者又	-10.6575
城王	-10.6577
應付	-10.6579
貢獻	-10.6579
郎官	-10.6584
神庫	-10.6585
嘉定	-10.6585
曰卿	-10.6587
皇朝置	-10.6589
未見	-10.659
亦必	-10.6591
之助	-10.6593
曽子	-10.6597
習禮	-10.6598
會試	-10.6598
兩浙	-10.6598
出院	-10.6599
送吏部	-10.6607
之設	-10.6612
不時	-10.6613
所轄	-10.6614
應得	-10.6619
道之	-10.6621
未至	-10.6621
一方	-10.6624
少府監	-10.6625
相合	-10.6636
左丞相	-10.6643
青衣	-10.6644
六品以下	-10.6644
宣徽	-10.6645
六典	-10.6651
宛	-10.6653
副將	-10.6655
軍馬	-10.6657
王旦	-10.6661
功徳	-10.6665
滿洲䝉古	-10.6665
票	-10.6665
昆	-10.6666
庻人	-10.6667
三輔	-10.6669
王者	-10.6672
麪	-10.6673
坡	-10.6673
咸亨	-10.6673
塟	-10.6674
之宜	-10.6674
祕閣	-10.6675
數百	-10.6675
弛	-10.6675
聖祖仁皇帝	-10.6676
四司	-10.6676
一部	-10.6677
狹	-10.6677
囊	-10.6677
紅棗	-10.6677
改設	-10.6679
僉都御史	-10.6679
促	-10.668
次男	-10.668
郵	-10.6681
房屋	-10.6682
琪	-10.6682
庚午	-10.6682
外其餘	-10.6683
案牘	-10.6684
騎尉	-10.6685
驟	-10.6686
南渡	-10.6687
惶	-10.669
賜坐	-10.6691
見其	-10.6692
收貯	-10.6693
親戚	-10.6694
男女	-10.6696
未央	-10.6696
姦邪	-10.6698
鳳陽	-10.6699
順天大興人	-10.67
欽哉	-10.67
安撫使	-10.6702
耳目	-10.6703
忠彦	-10.6703
俯伏	-10.6705
通志	-10.6705
長史司馬	-10.6716
之事凡	-10.6718
禮部覆	-10.672
胡廣	-10.6722
元年改	-10.6724
品第	-10.6724
東漢	-10.6725
分𨽻	-10.6726
主婦	-10.6728
人役	-10.6739
事君	-10.6746
者與	-10.6747
仍命	-10.6748
舊有	-10.6749
職在	-10.6753
一疋	-10.6755
百工	-10.6756
柱國	-10.6756
世廟	-10.6758
冬官	-10.6761
所部	-10.6764
國史院	-10.6764
依例	-10.677
親屬	-10.6774
成服	-10.6777
營繕	-10.6779
官者	-10.678
不稱	-10.6781
大定	-10.6783
廟庭	-10.6785
丞四人	-10.6787
上前	-10.6789
第五	-10.6791
法駕	-10.6792
之司	-10.6797
萬國	-10.6799
三兩	-10.6801
博士一人	-10.6804
雖不	-10.6805
二十四人	-10.6806
經籍	-10.6808
視其	-10.681
合四一尺	-10.6814
奉天殿	-10.6815
本堂	-10.6822
二年二月	-10.6822
邦國	-10.6829
嵗時	-10.683
𢎞治四年	-10.6831
庻子	-10.6833
伺	-10.6835
歸於	-10.6839
暦	-10.6843
上皇	-10.6844
統軍	-10.6846
不安	-10.6848
范仲淹	-10.6851
豈有	-10.6851
題稱	-10.6852
之體	-10.6852
眼	-10.6853
編修充	-10.6855
藁	-10.6855
庖	-10.6857
各以	-10.6857
磚	-10.6857
都水使者	-10.6858
理藩院	-10.686
各三人	-10.6861
僥倖	-10.6861
疊	-10.6863
苗	-10.6864
濯	-10.6864
恂	-10.6864
册寶	-10.6866
釋菜	-10.6867
繆	-10.6867
太常博士	-10.6867
讞	-10.6868
鬻	-10.6868
一百六十	-10.6869
兩漢	-10.6869
贊禮	-10.6871
祝帛	-10.6871
有子	-10.6872
魏晋	-10.6872
司贊	-10.6873
孔目	-10.6873
水陸	-10.6873
器物	-10.6874
匭	-10.6874
四面	-10.6874
天禧	-10.6876
後以	-10.6879
侍讀侍講	-10.6882
為大	-10.6883
曾布	-10.6885
齋宫	-10.6886
使持節	-10.689
千載	-10.6891
四年四月	-10.6894
伯叔	-10.6897
又按	-10.6901
朕方	-10.6903
累遷	-10.6904
提調官	-10.6904
大將	-10.691
朝堂	-10.6912
每旗	-10.6913
甲申	-10.6914
壝	-10.6915
遵行	-10.6915
西苑	-10.6918
當以	-10.6919
如遇	-10.6919
高宗	-10.6919
書寫	-10.6924
以正	-10.6925
在上	-10.6926
武英殿	-10.6927
改曰	-10.6932
補任	-10.6935
萬嵗	-10.6943
資政	-10.6943
因其	-10.6946
主考	-10.6947
宣仁	-10.6952
則其	-10.6954
初以	-10.6955
補用	-10.6965
於太廟	-10.6968
之禁	-10.6969
人所	-10.6976
罪人	-10.6976
矣至	-10.6977
歐陽修	-10.6979
日講	-10.6983
妣	-10.6983
殿門	-10.6988
出至	-10.6992
東面	-10.6995
相沿	-10.6996
之賢	-10.6998
劉氏	-10.7002
袋	-10.7003
補授	-10.7009
便殿	-10.701
之責	-10.7017
其次	-10.7022
講書	-10.7023
兵曹	-10.7025
神帛	-10.7025
贖	-10.7029
刪	-10.703
親詣	-10.7031
十有六人	-10.7032
九百	-10.7034
鏤	-10.7035
悅	-10.7036
邢	-10.7036
鋭	-10.7036
佃	-10.7037
臚	-10.7039
掛	-10.704
廓	-10.704
册府元龜	-10.704
培	-10.704
制置	-10.704
閒住	-10.7041
之國	-10.7041
東平	-10.7042
烝	-10.7043
蓄	-10.7043
𨽻於	-10.7044
拯	-10.7045
更不	-10.7045
畀	-10.7046
王室	-10.7047
線	-10.7047
婿	-10.7049
蔡卞	-10.7049
詎	-10.705
綵段一表裏	-10.705
溯	-10.705
僻	-10.7052
朴	-10.7053
後為	-10.7053
規模	-10.7054
星辰	-10.7054
五日一	-10.7054
驍騎	-10.7054
臧	-10.7055
二次	-10.7056
隋書	-10.7058
塘	-10.7058
之良	-10.7059
撥歴	-10.7062
睠	-10.7062
三部	-10.7063
享太廟	-10.7064
大名府	-10.7069
東宮	-10.7075
各三	-10.7082
右文	-10.7084
都指揮	-10.7085
一雙	-10.7087
為司	-10.7087
左衛	-10.7088
成化四年	-10.7093
有言	-10.7093
祠祭司	-10.7094
五兵	-10.7094
矣然	-10.7096
由此	-10.7098
令有司	-10.7099
清臣	-10.7099
大司馬	-10.71
生事	-10.7102
餘如	-10.711
精神	-10.7114
吉服	-10.7119
撓	-10.712
忠厚	-10.7126
陳循	-10.7127
焉凡	-10.7127
畨人	-10.713
髙皇后	-10.713
即行	-10.7138
膳部	-10.714
主者	-10.7141
監修國史	-10.7144
正祭	-10.7146
必須	-10.7148
無復	-10.7149
萬厯四	-10.7151
果有	-10.7152
者各	-10.7152
安定	-10.7152
之餘	-10.7153
二萬	-10.7163
十員	-10.7163
拜禮	-10.7165
曹郎	-10.7165
大将軍	-10.7166
奏祭祀	-10.7168
為王	-10.717
事畢	-10.7171
於天下	-10.7174
委任	-10.7182
有罪	-10.7182
以紀	-10.7188
孔廟	-10.7189
子為	-10.719
折銀	-10.719
從九品上	-10.7193
二百五十	-10.7202
蘇州	-10.7202
不惟	-10.7203
者聴	-10.7204
所領	-10.7205
三十七	-10.7206
人言	-10.7206
舊章	-10.7208
宦者	-10.7211
滄	-10.7217
交通	-10.7218
中門	-10.7219
謄	-10.7225
盥手	-10.7227
㪚	-10.7228
剪	-10.7229
欽定厯代職官表卷	-10.7229
啓王	-10.7229
導引官導上	-10.723
帽	-10.7231
斡	-10.7231
司香	-10.7231
祕書省	-10.7232
漁	-10.7232
吟	-10.7234
公私	-10.7234
詳衮	-10.7235
戊午	-10.7238
金金史百官志	-10.7238
庚申	-10.7238
山川壇	-10.7241
乳	-10.7241
冉	-10.7241
蹇	-10.7242
元元史百官志	-10.7242
壘	-10.7242
嘉靖六年	-10.7242
丐	-10.7242
顒	-10.7244
洪武二十六年定	-10.7244
賞賚	-10.7244
縣主	-10.7248
卿大夫	-10.7248
太公	-10.7249
於國	-10.7252
天監	-10.7255
雍正二年	-10.7257
權知	-10.7258
三年任	-10.7259
稽察	-10.7262
户口	-10.7262
不遵	-10.7264
地震	-10.7264
改封	-10.7264
降輿	-10.7266
盡心	-10.7269
迄今	-10.7272
㕘議	-10.7278
以給	-10.7283
洪熙元年	-10.7283
顯陵	-10.7284
等各	-10.7285
表文	-10.7287
濟濟	-10.7289
學術	-10.7294
好生	-10.7295
萬餘	-10.7308
酒果	-10.7309
奉迎	-10.731
降詔	-10.7311
大帶	-10.7312
文宣	-10.7313
七分	-10.7313
每名	-10.7314
醫士	-10.7321
供祀	-10.7323
年深	-10.7325
冠者	-10.7331
其情	-10.7343
諸色	-10.7344
詔以	-10.7351
察其	-10.7355
重道	-10.7359
即與	-10.736
洪武二十	-10.7361
入院	-10.7364
邦之	-10.7366
銀印	-10.7367
有犯	-10.7377
俱不	-10.7377
一面	-10.7381
専掌	-10.7384
請名	-10.7386
爾其	-10.7393
親男	-10.7399
女史	-10.7404
字籍見下	-10.7405
主事一人	-10.7406
又云	-10.741
備身	-10.7414
栗	-10.7415
元年二月	-10.7416
鏡	-10.7417
下馬	-10.7417
之職掌	-10.7417
撒	-10.7418
縫	-10.7419
鞏	-10.7421
湛	-10.7421
博士助教	-10.7421
龕	-10.7421
汲	-10.7422
摘	-10.7423
不若	-10.7423
庶民	-10.7423
豋	-10.7424
虐	-10.7424
羲	-10.7424
隘	-10.7425
貲	-10.7425
浙江鄞縣人	-10.7426
攘	-10.7426
氊	-10.7427
岡	-10.7428
畨僧	-10.7429
鈞衡	-10.7429
賁	-10.743
斧	-10.743
京兆尹	-10.743
神考	-10.743
沾	-10.743
旄	-10.743
奏定	-10.743
寔	-10.7432
叢	-10.7432
話	-10.7432
樊	-10.7435
四斤	-10.7435
之休	-10.7436
聳	-10.7437
五斗	-10.7438
祉	-10.7438
十七年實授	-10.7439
選補	-10.7439
吐蕃	-10.7439
匈奴	-10.744
直言	-10.7443
反覆	-10.7445
行幸	-10.7445
自陳	-10.7451
左門入	-10.7457
善惡	-10.7464
交易	-10.7464
七百	-10.7466
奏俯伏興平身	-10.7467
鍾山	-10.7468
奏本	-10.7469
之本	-10.7469
成命	-10.7472
算學	-10.7476
未安	-10.7478
具呈	-10.7484
日講官	-10.7487
見卿	-10.7489
河陽	-10.749
諸侯之	-10.7491
言其	-10.7491
乾隆四	-10.75
六卿	-10.7504
聽其	-10.7505
月朔	-10.7506
亭長	-10.751
兩府	-10.7511
漢唐	-10.7518
公同	-10.7521
合祭	-10.7523
金部	-10.7527
三庫	-10.7528
官皆跪	-10.7528
於奉天殿	-10.7529
崇儒	-10.7532
宣徳元年	-10.7532
者止	-10.7533
亦非	-10.7539
四千	-10.754
諸衛	-10.7541
數多	-10.7541
暮	-10.7546
日期	-10.7547
立為	-10.7553
諸公	-10.7553
嫡長男	-10.7555
俱照	-10.7557
官名	-10.7558
尚食	-10.756
禮部郎中	-10.7561
詣太廟	-10.7564
諸侯王	-10.7564
行終獻禮	-10.7566
九寸	-10.7566
矣今	-10.7567
十二日	-10.7569
通贊	-10.7571
諭曰	-10.7572
葢即	-10.7579
九等	-10.7582
行至	-10.7583
紬	-10.7589
在前	-10.7592
備查	-10.7594
唐代	-10.7594
一定	-10.7596
萬世之	-10.76
外其	-10.7603
拜罷	-10.7604
觀察	-10.7606
渝	-10.7608
請令	-10.7608
彪	-10.7608
飲福受胙	-10.7608
慤	-10.7609
覃	-10.7611
辟廱	-10.7611
贊跪	-10.7612
裙	-10.7612
㝠	-10.7612
或曰	-10.7613
鎧	-10.7614
鑾儀衛	-10.7615
芒	-10.7616
勳	-10.7619
駝	-10.7619
别無	-10.7619
舉案	-10.7619
所自	-10.7619
燦	-10.762
岱	-10.762
遏	-10.7621
莭	-10.7621
軫	-10.7622
裂	-10.7622
毗	-10.7623
邦彦	-10.7627
贊禮郎	-10.7628
稱其	-10.7629
喇嘛	-10.7629
正三	-10.763
沃	-10.7631
迥	-10.7631
己巳	-10.7631
噫	-10.7632
哭臨	-10.7632
垂拱	-10.7632
酒飯	-10.7636
一百四十	-10.7639
祭日	-10.7646
酌量	-10.7648
不詳	-10.7649
酒饌	-10.765
康伯	-10.7652
不廢	-10.7654
近者	-10.7658
大使一人	-10.7661
月二十八日	-10.7661
實封	-10.7661
出題	-10.767
驛丞	-10.7672
宫殿	-10.7673
未聞	-10.7674
告示	-10.7675
洪武間	-10.7677
吏典	-10.7678
等議	-10.7679
英廟	-10.768
踰年	-10.7683
修國史	-10.7683
聖訓	-10.7686
三十八年	-10.7687
皇朝因	-10.7689
署丞	-10.7689
孝子	-10.7692
嵗月	-10.7692
者非	-10.7692
王欽若	-10.7696
有四	-10.7697
而未	-10.77
造冊	-10.7702
兩省	-10.7704
議郎	-10.7707
司吏	-10.7707
彭時	-10.7711
庚戌進士	-10.7713
𢎞治十五年	-10.7715
之舞	-10.7715
推恩	-10.772
又命	-10.7721
年嵗	-10.7723
五尺	-10.7725
之封	-10.7726
合四	-10.7728
亦得	-10.773
景徳	-10.773
上至	-10.7733
禮義	-10.7735
有志	-10.7737
文昌	-10.7738
皆置	-10.7738
十數	-10.7739
聴其	-10.7741
七曰	-10.7747
復有	-10.7748
之論	-10.7753
合祀	-10.7753
隆慶三年	-10.7754
大興	-10.7756
一表裏	-10.7756
諸部	-10.776
夏官	-10.7762
自唐	-10.7762
二司	-10.7763
觀之	-10.7768
帷幄	-10.7769
十卷	-10.777
之勞	-10.7775
天心	-10.7777
前期一日	-10.778
書曰	-10.7784
賛禮	-10.7785
優禮	-10.7785
解見	-10.7789
敏中	-10.779
入閣	-10.7791
皇太子妃	-10.7793
此則	-10.7796
武衛	-10.7796
名臣	-10.7797
不曽	-10.7801
以充	-10.7804
貝	-10.7805
餘皆	-10.7807
餉	-10.7812
其弊	-10.7812
朶	-10.7813
認	-10.7814
穎	-10.7814
香盒	-10.7816
海内	-10.7816
洪熈元年	-10.7816
用心	-10.7816
繼妃	-10.7816
看牲	-10.7817
祈禱	-10.7818
𢎞治九年	-10.7818
贊唱	-10.7819
狩	-10.7819
未敢	-10.7819
世宗憲皇帝	-10.782
霑	-10.782
截	-10.7821
江寧	-10.7821
勁	-10.7821
鎻	-10.7822
㤙	-10.7824
枕	-10.7824
酷	-10.7824
倘	-10.7824
北門	-10.7825
分置	-10.7825
商輅	-10.7825
裘	-10.7825
今年	-10.7826
兔	-10.7826
鞍轡	-10.7826
臯	-10.7827
棘	-10.7828
揀選	-10.7828
榻	-10.7829
為正	-10.7832
祿米	-10.7833
太乙	-10.7834
王巖叟	-10.7835
吕大防	-10.7835
在監	-10.7835
逺方	-10.7835
聖神	-10.7836
出自	-10.7836
伴送	-10.7838
太常少卿	-10.7838
三班	-10.7839
滿洲二人	-10.7839
靈座	-10.7839
著述	-10.784
二王	-10.7842
選取	-10.7842
地官	-10.7843
重修	-10.7846
庚子	-10.7848
周書	-10.7848
淵聖	-10.785
擇其	-10.7851
不到	-10.7851
萬機	-10.7852
具祭服	-10.7852
各就位	-10.7853
少宰	-10.7855
考定	-10.7858
看得	-10.7858
太嵗	-10.7859
嵗貢生員	-10.7859
再入相	-10.7861
監察	-10.7862
内命婦	-10.7863
萬人	-10.7864
陪祀官	-10.7865
建炎三年	-10.7866
賜紫	-10.7869
四隻	-10.7869
進士萬厯	-10.7871
二十三日	-10.7873
稽首	-10.7875
上問	-10.7875
者雖	-10.7876
可行	-10.7877
知政事	-10.7877
臣某等	-10.7879
者為之	-10.7881
並有	-10.7881
百度	-10.7882
二尺	-10.7886
經畧	-10.7888
也唐	-10.7888
諸職	-10.7889
後省	-10.7893
執金吾	-10.7896
禮法	-10.7896
賜以	-10.7898
也漢	-10.7899
孝陵	-10.7902
亦不許	-10.7903
月俸	-10.7908
分守	-10.791
揆之	-10.7914
月十三日	-10.7918
至道	-10.792
入至	-10.7928
天地之	-10.793
數人	-10.7932
一百一十	-10.7936
遣大臣	-10.7937
朕躬	-10.7942
數千	-10.7944
上丁	-10.7946
出迎	-10.7951
供應	-10.7951
宣王	-10.7951
告於	-10.7952
下曰	-10.7961
大名	-10.7962
天文生	-10.7964
祭物	-10.7965
虚名	-10.7966
戲	-10.7968
儒者	-10.7976
國用	-10.7977
例不	-10.7978
之理	-10.7979
左傳	-10.7983
昭文	-10.7993
不明	-10.7996
奏跪	-10.8002
三十四年	-10.8004
鎮國中尉	-10.8006
宣表	-10.8007
根底	-10.801
泮	-10.8012
一百三十	-10.8014
於奉天門	-10.8015
貂	-10.8016
誓	-10.8017
証	-10.8019
技	-10.8019
奉國將軍	-10.802
歇	-10.8021
左順門	-10.8021
奢	-10.8021
鷹	-10.8022
鈿	-10.8022
定擬	-10.8022
所生子女	-10.8022
茅	-10.8023
黄門侍郎	-10.8023
斌	-10.8024
暑	-10.8024
同中書門下平章事	-10.8024
水衡都尉	-10.8025
淡	-10.8025
濠	-10.8025
纛	-10.8026
笛	-10.8026
刼	-10.8026
糴	-10.8027
戊寅	-10.8028
櫃	-10.8029
昂	-10.8029
鄭康成	-10.8029
朂	-10.803
研	-10.803
璋	-10.803
郁	-10.8031
霸	-10.8031
奉聖旨	-10.8033
煌	-10.8034
掖庭	-10.8034
哈宻	-10.8035
水旱	-10.8035
瀾	-10.8036
犧牲所	-10.8036
而為之	-10.8036
見員外郎下	-10.8038
雋	-10.8038
一行	-10.8038
潼	-10.804
詣神位前	-10.804
皆由	-10.804
廟號	-10.8041
待之	-10.8042
副榜	-10.8046
多少	-10.8047
天順八年	-10.8048
正八品下	-10.8049
食邑	-10.8051
治民	-10.8051
替職	-10.8052
四字	-10.8054
幫	-10.8056
上聞	-10.8057
司𨽻校尉	-10.8058
黄鍾	-10.806
騎都尉	-10.8061
不由	-10.8063
興平身	-10.8064
紗羅	-10.8064
聖慈	-10.8065
軍旅	-10.8066
故絶	-10.8067
平凖	-10.807
行軍	-10.807
朝臣	-10.8073
俱係	-10.8075
欽遵	-10.8075
守衛	-10.8076
髙皇帝	-10.808
三事	-10.8081
遂命	-10.8082
三十八	-10.8084
嫡子	-10.8084
四十八	-10.8084
道徳	-10.8085
江陵	-10.8086
正九品上	-10.8089
陳氏	-10.8092
本末	-10.8093
固辭	-10.8095
一嵗	-10.8095
請罷	-10.8095
引疾	-10.81
舉其	-10.8102
威儀	-10.8106
受爵	-10.8111
之書	-10.8112
嘉靖中	-10.8112
永樂七年	-10.8112
方面	-10.8113
天寳	-10.8115
賛善	-10.8115
東晉	-10.8117
中使	-10.8122
自為	-10.8122
月支	-10.8124
死者	-10.8126
永寧	-10.8128
莫如	-10.8129
言語	-10.813
承應	-10.8135
耕耤	-10.8141
勲官	-10.8141
慎重	-10.8145
無人	-10.8145
仲秋	-10.815
輔政	-10.8151
論之	-10.8152
長貳	-10.8155
都總管	-10.8156
隋書百官志	-10.816
升之	-10.8162
為太子	-10.8163
不暇	-10.8165
千古	-10.8168
貢方物	-10.8172
居之	-10.8172
禁止	-10.8174
彼此	-10.8175
嘉靖二年	-10.8178
治道	-10.8179
奉命	-10.8183
武功	-10.8185
聖學	-10.8187
入試	-10.8187
萬厯四年	-10.8188
曰今	-10.8194
儀物	-10.8195
司庫	-10.8202
和議	-10.8203
二人位於	-10.8207
無他	-10.8208
部院	-10.8211
中庸	-10.8211
萬方	-10.8212
之戒	-10.8212
准令	-10.8213
嘉靖七年	-10.822
祖母	-10.822
食貨志	-10.8221
有二	-10.8221
鈐束	-10.8221
上曰朕	-10.8222
軍功	-10.8222
内官監	-10.8223
字號	-10.8224
皇太孫	-10.8224
網	-10.8225
召見	-10.8226
隋書百官志梁	-10.8227
具皮弁服	-10.8228
翼善冠	-10.8228
豹	-10.8228
職官志	-10.8229
廵按御史	-10.8229
惰	-10.823
抽	-10.823
以内閣	-10.8231
珮	-10.8232
迴避	-10.8232
估	-10.8233
提學副使	-10.8234
弓箭	-10.8234
熹	-10.8234
勘明白	-10.8235
諸物	-10.8235
酉	-10.8235
運使	-10.8235
髮	-10.8235
毎斤	-10.8236
盗賊	-10.8236
貟外郎	-10.8236
隋初	-10.8236
徭	-10.8238
逞	-10.8238
漢時	-10.8238
年終	-10.8238
血	-10.8238
秩六百石	-10.8238
禮科給事中	-10.824
簷	-10.824
遴選	-10.8241
上乃	-10.8241
滕	-10.8242
藹	-10.8242
濮	-10.8245
直史館	-10.8247
守本官	-10.8248
新唐書	-10.8249
倚毗	-10.825
齋郎	-10.8253
各廟	-10.8253
富貴	-10.8255
五嶽	-10.8256
統之	-10.8256
皇祐	-10.8257
第七品	-10.8257
丞為之貳	-10.8258
裕陵	-10.8259
爰田	-10.8259
之樂	-10.8259
驊騮	-10.8259
皆出	-10.8264
額外	-10.8264
戊戌進士	-10.8267
萬幾	-10.8271
承天門	-10.8272
出為	-10.8272
措置	-10.8278
命有司	-10.828
以金	-10.828
職任	-10.8281
浙	-10.8282
疏請	-10.8287
琉球國	-10.829
隋開皇	-10.8291
周旋	-10.8296
再入	-10.8298
之失	-10.8301
乘輿	-10.8303
其功	-10.8303
水利	-10.8311
徐州	-10.8313
文階	-10.8313
原係	-10.8319
奉表	-10.8319
其身	-10.832
進用	-10.8322
保送	-10.8325
附近	-10.8327
典史	-10.8328
升堂	-10.8328
宣訖	-10.8332
嘉靖五年	-10.8332
右諫議大夫	-10.8333
並依	-10.8333
之詞	-10.8337
之徳	-10.8339
外任	-10.8343
復用	-10.8346
分職	-10.8346
如常	-10.8348
其職掌	-10.835
北郊	-10.835
次妃	-10.8352
三十四	-10.8354
殿中監	-10.8356
闗領	-10.8358
一百八十	-10.8362
東序	-10.8368
輔導官	-10.8369
仰惟	-10.8371
右相	-10.8372
貢監	-10.8375
嘉靖二	-10.8376
之勢	-10.8379
以重	-10.8381
本部尚書	-10.8381
謹案金	-10.8382
祫	-10.8384
未備	-10.8386
始命	-10.8386
奏復位	-10.8386
以為不可	-10.8387
望燎	-10.8387
四年二月	-10.8388
宜加	-10.8392
成化三年	-10.8392
郊社	-10.8395
于太廟	-10.8396
宋之	-10.8397
會同	-10.8398
水部	-10.8398
中賀	-10.8399
自明	-10.8399
近來	-10.8402
魏氏	-10.8402
兵事	-10.8405
之福	-10.8406
十九人	-10.8407
境内	-10.8407
司員外郎陞任	-10.841
兵馬司	-10.841
乞賜	-10.8412
御馬	-10.842
陪拜	-10.8422
常例	-10.8422
司天臺	-10.8428
大享	-10.843
以侍講學	-10.843
賢能	-10.8432
報可	-10.8434
驍騎校	-10.8435
天意	-10.8435
簋	-10.8436
杜佑	-10.844
揑	-10.8441
餙	-10.8441
醬	-10.8442
綠	-10.8443
憐	-10.8443
䙝	-10.8443
迫	-10.8443
蹕	-10.8443
吿	-10.8444
華葢殿	-10.8445
敇	-10.8445
資治通鑑	-10.8446
瑟	-10.8446
摭	-10.8446
洮	-10.8447
俘	-10.8447
昭文館	-10.8447
壩	-10.8448
年久	-10.8448
晚	-10.8449
棗	-10.8449
響	-10.845
見主事下	-10.845
銳	-10.845
醫藥	-10.845
平人	-10.845
柯	-10.8451
媿	-10.8452
至元二十四年	-10.8452
左都御史	-10.8452
稻	-10.8454
護	-10.8454
妖	-10.8455
漢官儀	-10.8455
爛	-10.8456
揚雄	-10.8456
定式	-10.8457
之力	-10.8459
懿祖	-10.8459
袍服	-10.8459
囿	-10.8461
嘉靖十七年	-10.8462
爾禮部	-10.8465
地理志	-10.8465
民力	-10.8465
若夫	-10.8465
口糧	-10.8465
奉欽依	-10.8465
年幼	-10.8466
主事二人	-10.8467
廟祀	-10.8469
隨行	-10.8471
欽承	-10.8472
廩膳	-10.8472
討論	-10.8474
戊子	-10.8478
中原	-10.8479
視牲	-10.8479
該衙門	-10.8482
法制	-10.8484
可汗	-10.8486
異同	-10.8486
將士	-10.8487
祠祭	-10.8489
軍器監	-10.8492
雜記	-10.8492
辦理	-10.8494
評事	-10.8494
職事官	-10.8495
記室	-10.8495
天神	-10.8496
翰林記	-10.8497
廷議	-10.8498
皇太子親王	-10.85
内侍省	-10.85
俱為	-10.85
無益	-10.8502
賢者	-10.8503
奏進	-10.8504
太極	-10.8513
祠堂	-10.8515
自備	-10.8515
𠫭將	-10.8518
圜橋	-10.8523
尋改	-10.8525
布政	-10.8526
本縣	-10.8529
右都御史	-10.853
萬安	-10.8531
門之外	-10.8534
者不許	-10.8535
行者	-10.8536
從八品上	-10.8541
江蘇	-10.8545
司主事	-10.8545
已後	-10.8545
子男	-10.8546
至宋	-10.8547
考察	-10.8549
殿試	-10.855
祔享	-10.8552
法令	-10.8554
俱在	-10.8559
置吏	-10.856
人倫	-10.856
權輿	-10.8567
之氣	-10.8576
蕃國	-10.8581
則必	-10.8582
前日	-10.8584
中式者	-10.8584
服其	-10.8589
誠心	-10.8596
地理	-10.8597
為先	-10.8599
閣臣	-10.8599
各四人	-10.86
記注	-10.8604
即日	-10.8604
題為	-10.8607
車馬	-10.8608
其儀	-10.8609
去位	-10.861
言路	-10.861
通考	-10.8611
禪	-10.8612
雜職	-10.8615
不幸	-10.8617
論思	-10.8618
修理	-10.8619
之役	-10.8621
西漢	-10.8624
奏差	-10.8625
乙未進士	-10.8626
三十三	-10.8626
不給	-10.8627
在朝	-10.8627
二十八日	-10.8629
按察	-10.8631
兖州	-10.8633
坐監	-10.8636
掌諸	-10.8636
禁例	-10.8639
漳	-10.8647
襪	-10.8647
尚未	-10.8649
以為常	-10.8649
襲故	-10.8651
光祿	-10.8654
坎	-10.8654
兼權直院	-10.8655
庶政	-10.8656
鵠	-10.8657
滑	-10.8657
果子	-10.8658
鑄印局	-10.8658
讐	-10.8658
永樂四年	-10.8659
以憑	-10.8659
顆	-10.8659
鼐	-10.8659
多以	-10.8659
問罪	-10.866
二丈	-10.866
后稷	-10.8661
螭	-10.8661
則服之	-10.8662
達嚕噶齊	-10.8662
閔	-10.8662
躍	-10.8663
也夫	-10.8663
袴	-10.8663
貴賤	-10.8663
緩急	-10.8665
己亥	-10.8666
之首	-10.8666
留守司	-10.8666
巷	-10.8667
題名碑	-10.8667
庇	-10.8667
納粟	-10.8667
壙	-10.8668
握	-10.8668
望瘞	-10.8669
掠	-10.867
哈喇	-10.8673
再行	-10.8674
拓	-10.8674
墀	-10.8674
許其	-10.8675
太子少傅	-10.8675
黍	-10.8676
以次出	-10.8676
後殿	-10.8677
在廷	-10.868
收買	-10.868
印綬	-10.8682
嘉靖十五年	-10.8682
亢	-10.8683
成都	-10.8684
者令	-10.8684
紀事	-10.8685
光宅	-10.8687
茶鹽	-10.8687
繫之	-10.8689
慶厯	-10.869
本於	-10.869
編類	-10.8692
製造	-10.8693
之所以	-10.8695
嘉猷	-10.8696
獻帛	-10.8697
越闗	-10.8698
土人	-10.87
黄淮	-10.8701
外命婦	-10.8702
典制	-10.8703
手詔	-10.8703
十二兩	-10.8704
安撫	-10.8705
時維	-10.8706
格式	-10.8708
皆再拜	-10.871
置於案	-10.8712
乗黄	-10.8717
王曽	-10.8717
前行	-10.8723
土司	-10.8723
位在	-10.8724
癸丑進士	-10.8727
是年正月	-10.873
昭穆	-10.8731
師儒	-10.8732
可用	-10.8732
西戎	-10.8733
金川	-10.8739
兼有	-10.8739
乾元	-10.8741
重大	-10.8741
於中	-10.8741
元符	-10.8744
合葬	-10.8745
秦官	-10.8745
物料	-10.8745
禁革	-10.8747
獻納	-10.8753
則自	-10.8754
矣又	-10.8755
元年十二月	-10.8755
露臺	-10.8755
庶務	-10.8757
兼侍講	-10.8758
維新	-10.876
所出	-10.8763
每遇	-10.8763
大功	-10.8765
西路	-10.8766
淮安	-10.8767
哀帝	-10.8769
聞喪	-10.877
郎中員外郎掌	-10.877
未知	-10.8772
南京禮部	-10.8774
景泰元年	-10.8774
監臣	-10.8776
月給	-10.8776
講畢	-10.8778
不願	-10.8782
則如今之	-10.8785
五帝	-10.8787
一條	-10.8788
千八百	-10.8788
宇文	-10.879
名為	-10.879
明制	-10.8792
一字	-10.8793
郊壇	-10.8794
宣召	-10.8794
之未	-10.8796
挺之	-10.8797
不法	-10.8799
王英	-10.88
録事參軍	-10.8803
建昌	-10.8805
名目	-10.8808
京留守	-10.8809
十有一	-10.881
請上	-10.8817
長樂	-10.8817
支給	-10.8818
發遣	-10.8818
言官	-10.8821
徑自	-10.8825
紵絲紗羅	-10.8827
江人	-10.883
嗣王	-10.883
本國	-10.883
樂正	-10.8833
起於	-10.8835
上京	-10.8835
從八	-10.8841
唐太宗	-10.8843
已久	-10.8844
親祭	-10.8848
三年四月	-10.8853
入内	-10.8854
服制	-10.8854
之利	-10.8854
立案	-10.8862
之左右	-10.8863
竦	-10.8866
漢書百官公卿表	-10.8867
俱於	-10.8867
禮志	-10.8868
複	-10.887
竈	-10.8873
弔	-10.8875
奉祠	-10.8876
以下各	-10.8876
彤	-10.8876
倉部	-10.8877
萬夀聖節	-10.8877
襖	-10.8877
烏思藏	-10.8877
斟酒	-10.8881
悞	-10.8882
肄	-10.8882
巡捕	-10.8882
皮弁服	-10.8882
龍圖閣	-10.8883
樞密院事	-10.8883
扎	-10.8883
芻	-10.8884
辛酉	-10.8884
龎	-10.8884
幢	-10.8884
哭盡哀	-10.8885
郎中令	-10.8885
不受	-10.8885
郢	-10.8885
鞋	-10.8885
繹	-10.8885
滛	-10.8886
後堂	-10.8887
機宻	-10.8887
砥	-10.8888
國子博士	-10.8888
遁	-10.8888
癸酉	-10.8889
纘	-10.8889
湘	-10.8889
瑜	-10.889
常以	-10.889
繩愆㕔	-10.8891
別	-10.8892
金陵	-10.8893
穴	-10.8893
隳	-10.8893
療	-10.8893
丁巳	-10.8895
悲	-10.8896
司冦	-10.8898
遮	-10.8898
璟	-10.8898
三旗	-10.89
兖	-10.8902
頴	-10.8903
而又	-10.8905
至大四年	-10.8906
分班	-10.8907
病故者	-10.8911
都指揮使司	-10.8912
綱紀	-10.8915
科貢	-10.8915
子思	-10.8917
編檢	-10.8918
皇極殿	-10.892
兩淮	-10.892
之益	-10.8922
解額	-10.8925
而成	-10.8927
賦詩	-10.893
罷叅知政事	-10.893
定其	-10.8931
為文	-10.8931
親弟	-10.8932
男子	-10.8934
亦曰	-10.8934
翰林院學士	-10.894
舉進士	-10.8942
少尹	-10.8942
右衛	-10.8948
大朝㑹	-10.895
恭惟	-10.8952
謹案遼	-10.8952
等府	-10.8952
兵仗	-10.8953
為治	-10.8954
掌院事	-10.896
下禮部議	-10.8962
嘗為	-10.8964
祖父	-10.8964
荆州	-10.897
白色	-10.8971
錢物	-10.8972
徳行	-10.8974
去後	-10.8976
元帥	-10.8977
公輔	-10.8978
中祀	-10.898
稱臣	-10.898
樞府	-10.8984
餘同	-10.8986
支領	-10.8988
輟朝	-10.8989
上都	-10.8989
宫門外	-10.8991
己丑進士	-10.8993
從七	-10.8996
月十一日	-10.8996
仁義	-10.9001
所稱	-10.9003
著為	-10.9005
禮部以	-10.9006
恩澤	-10.9007
武備	-10.9008
襲衣	-10.9009
二年四月	-10.9009
行下	-10.9009
以編修	-10.9009
思退	-10.901
三殿	-10.9015
不中者	-10.9019
庫掌	-10.902
虚文	-10.9028
正八品上	-10.903
充吏	-10.9038
任右侍郎	-10.9038
地祇	-10.9039
士習	-10.9042
叅奏	-10.9044
長編	-10.9045
召試	-10.905
師長	-10.9056
尤甚	-10.9058
行止	-10.9061
重者	-10.9061
皆掌	-10.9066
三衛	-10.9071
太官	-10.9072
於丹陛	-10.9076
第六	-10.9076
三疋	-10.9077
降授	-10.9077
季考	-10.9078
副監	-10.9078
男楊	-10.9079
朕惟	-10.9079
並以	-10.908
昌言	-10.9081
外官	-10.9082
改定	-10.9082
論列	-10.9084
曹參軍事一人	-10.909
一本	-10.9091
君師	-10.9093
有加	-10.9093
出處	-10.9095
幔	-10.9098
諸郡	-10.9099
從公	-10.91
鞍	-10.9101
行叩頭禮	-10.9101
鬯	-10.9105
葱	-10.9107
禮科	-10.9107
寇	-10.9107
楮	-10.9107
醮	-10.9108
相兼	-10.9109
諌	-10.9109
閽	-10.911
竣	-10.911
公差	-10.9111
脉	-10.9112
公侯駙馬伯	-10.9112
乙酉	-10.9112
三百人	-10.9112
癸卯	-10.9112
谿	-10.9112
一品二品	-10.9113
寝	-10.9113
攄	-10.9113
緬	-10.9114
覬	-10.9114
憤	-10.9115
木炭	-10.9115
軾	-10.9115
三品已上	-10.9115
應劭	-10.9116
濳善	-10.9116
俎豆	-10.9116
宸翰	-10.9117
澹	-10.9117
戢	-10.9117
摹	-10.9118
無私	-10.9118
各具	-10.9119
百二十	-10.9119
贄	-10.912
罹	-10.9121
人望	-10.9121
站	-10.9121
甲寅	-10.9121
從六	-10.9122
洋	-10.9123
廵檢	-10.9123
暗	-10.9124
韓忠彦	-10.9125
廐牧	-10.9127
覿	-10.9127
秩正三品	-10.9127
青苖	-10.9128
孟冬	-10.9128
熙寧	-10.913
二百四十	-10.913
布哈	-10.9134
侍御	-10.9135
導引官導上至	-10.9137
移咨	-10.9139
神牌	-10.914
復相	-10.914
夜明	-10.9141
婆	-10.9143
舞生	-10.9144
責成	-10.9145
具公服	-10.9146
殿東	-10.9148
同寅	-10.9151
東陽	-10.9151
喪主以下	-10.9155
叅預	-10.9156
追復	-10.9156
用印	-10.9157
膳夫	-10.9159
副尉	-10.9162
男李	-10.9163
千牛	-10.9165
當為	-10.9167
國家之	-10.9167
市易	-10.917
都䕶府	-10.917
過多	-10.9171
之禍	-10.9171
遺意	-10.9171
儀式	-10.9172
日久	-10.9173
舊名	-10.9174
内賛	-10.9174
國師	-10.9177
隋隋書百官志	-10.9177
同但	-10.9178
覆題奉武宗皇帝聖㫖	-10.9179
重臣	-10.918
三院	-10.9181
禁林	-10.9182
同惟	-10.9183
百斤	-10.9186
四方之	-10.9189
多至	-10.919
儀禮司	-10.9191
任用	-10.9192
各項	-10.9195
而出	-10.9197
後來	-10.9199
之君	-10.9201
題本	-10.9201
郎中知制誥	-10.9203
保舉	-10.9206
文選	-10.9209
左藏	-10.921
應用	-10.9213
甚者	-10.9213
刑部侍郎	-10.9216
至徳	-10.9216
之列	-10.9218
古禮	-10.9218
始立	-10.9219
奏上	-10.9227
一員從七品	-10.9229
其法	-10.9231
典刑	-10.9234
百官表	-10.9234
學行	-10.9242
張英	-10.9243
之術	-10.9249
和氣	-10.925
左右丞相	-10.9254
臣工	-10.9254
親軍	-10.9257
習學	-10.9259
未嘗不	-10.9259
經傳	-10.9262
茂陵	-10.9264
外夷	-10.9267
也謹案	-10.9271
忠臣	-10.9273
其下	-10.9275
明㫖	-10.9276
三十九	-10.9285
祭𦵏	-10.9289
署事	-10.9298
不聞	-10.93
令典	-10.9303
正直	-10.9303
已定	-10.9306
發引	-10.9308
各給	-10.9309
矣故	-10.9309
之圖	-10.9314
則與	-10.9314
則例	-10.9315
驍	-10.9316
進入	-10.9316
所居	-10.9318
易服	-10.932
一人六百石	-10.9322
所致	-10.9325
三十七年	-10.9326
則當	-10.933
霜	-10.9332
省事	-10.9332
瓘	-10.9333
五軍都督府	-10.9333
從重	-10.9333
四十九	-10.9334
晝夜	-10.9334
通政使	-10.9334
官府	-10.9334
神樂觀	-10.9335
紐	-10.9337
鐡	-10.9339
周洪謨	-10.9339
笋	-10.9339
濂	-10.9341
距	-10.9341
玷	-10.9342
鐃	-10.9343
揮	-10.9343
𦂳	-10.9343
鎮國将軍	-10.9344
勲戚	-10.9344
李時勉	-10.9344
禘	-10.9345
長史教授	-10.9345
孺	-10.9345
佐貳	-10.9346
誇	-10.9346
煙	-10.9346
賑	-10.9346
迴	-10.9347
蔑	-10.9347
遼遼史百官志	-10.9347
𦙍	-10.9348
蟲	-10.9348
洋洋	-10.9348
本注曰	-10.9348
仍將	-10.9348
壬午	-10.9348
溺	-10.9349
宰牲	-10.9349
聯	-10.9349
譴	-10.9349
盆	-10.935
乙巳	-10.935
前期三日	-10.935
彛倫堂	-10.9351
慝	-10.9352
首飾	-10.9352
㸃檢	-10.9352
丙寅	-10.9353
茹	-10.9353
受胙	-10.9353
抹	-10.9353
冰	-10.9354
今並	-10.9354
弦	-10.9356
㦸門	-10.9356
孳	-10.9357
公廨	-10.9357
廵按	-10.9358
辛亥	-10.9358
是年二月	-10.9358
奮庸	-10.9359
車輅	-10.936
管河	-10.936
二十八人	-10.9361
幷	-10.9361
臂	-10.9363
改復	-10.9365
十六日	-10.9369
九廟	-10.9369
朕所	-10.9369
復以	-10.937
銓選	-10.937
露布	-10.9372
享殿	-10.9374
額設	-10.938
除同知樞密院事	-10.9382
次子	-10.9387
不為例	-10.9387
上元	-10.9395
商英	-10.9397
頒詔	-10.9401
題奉聖㫖	-10.9401
依擬	-10.9401
内廷	-10.9403
籍貫	-10.9403
宗本紀	-10.9404
傳㫖	-10.9414
六官	-10.9415
倉曹	-10.9418
論道	-10.9422
赴部	-10.9423
掌教	-10.9425
文教	-10.9425
祀天地	-10.9427
吉日	-10.9429
奉聖㫖准他	-10.9429
不下	-10.943
謹案自	-10.9442
二年九月	-10.9444
於文華殿	-10.9444
務在	-10.9445
謁告	-10.9445
儀禮	-10.9456
南陽	-10.9456
復職	-10.9457
刑法	-10.9464
太康	-10.9468
永樂五年	-10.947
犯罪	-10.9479
上䟽	-10.9483
入翰林	-10.9483
休命	-10.9483
九重	-10.9484
三年六月	-10.949
此書	-10.949
四十二	-10.9492
聖主	-10.9492
府置	-10.9495
李東陽	-10.9497
皆跪	-10.9503
先王之	-10.9503
公座	-10.9503
之嚴	-10.9504
聖心	-10.9505
各司	-10.9507
戊辰進士	-10.9508
量加	-10.9513
開坐	-10.9513
品下	-10.9514
六工尺一	-10.9514
制作	-10.9517
民生	-10.9519
之峻	-10.9523
司其事	-10.9523
考補	-10.9533
治天下	-10.9534
具載	-10.9534
光宗	-10.9541
皆可	-10.9542
兩月	-10.9543
草制	-10.9544
橋門	-10.9545
山隂	-10.9545
李文	-10.9548
當亦	-10.9549
復召	-10.9549
然也	-10.9552
躬行	-10.9553
給假	-10.9553
輔相	-10.9555
而用之	-10.9555
械	-10.9555
出外	-10.9556
諭之	-10.9556
公署	-10.9557
改用	-10.9558
學録	-10.956
各生	-10.9562
之教	-10.9565
今欲	-10.9567
二十五人	-10.9567
可乎	-10.9567
各有差	-10.9567
名分	-10.9568
又充	-10.9568
毛血	-10.957
官爵	-10.9571
該本部查得	-10.9574
宋書百官志	-10.9575
司調任	-10.9575
縧	-10.9576
集賽	-10.9576
熱	-10.9576
嘉靖三十二年	-10.9576
䧏	-10.9577
國體	-10.9577
謹身殿	-10.9577
鑪	-10.9578
壅	-10.9578
敝	-10.9578
尊號	-10.9578
装	-10.9578
躔	-10.958
承務郎	-10.958
分左右	-10.958
合四上四	-10.9581
孝烈皇后	-10.9581
賽	-10.9581
貝勒	-10.9581
日清晨	-10.9581
經筵講官	-10.9581
崖	-10.9582
轉奏	-10.9582
販	-10.9583
隄	-10.9583
嚕	-10.9584
羽翼	-10.9584
速香	-10.9584
經理	-10.9584
卨	-10.9585
瀚	-10.9585
以侍讀學	-10.9586
芹	-10.9586
䆒	-10.9586
元帝	-10.9586
當世	-10.9587
監臨	-10.9587
訃	-10.9587
綵輿	-10.9587
鈴	-10.9587
號令	-10.9588
苛	-10.9588
起居舍人	-10.9588
搜	-10.9589
行四拜禮畢	-10.959
琮	-10.9592
掣	-10.9592
國子生	-10.9592
姻	-10.9592
渙	-10.9593
僚屬	-10.9593
講讀官	-10.9593
障	-10.9594
御府	-10.9595
故無嗣	-10.9596
勤惰	-10.9597
汚	-10.9597
曰惟神	-10.9598
永樂三年	-10.9598
其禮	-10.9598
甲午	-10.9598
本職	-10.9599
舊臣	-10.96
嘉禾	-10.96
親近	-10.96
詞訟	-10.9601
𢎞治三年	-10.9601
庵	-10.9602
廳	-10.9604
閘	-10.9604
者盖	-10.9607
朱勝非	-10.9607
風憲	-10.9607
陰陽	-10.9607
之兵	-10.9608
糾儀	-10.9613
者葢	-10.9613
他人	-10.9614
轉運司	-10.9616
巡視	-10.9616
不樂	-10.9617
宋時	-10.9621
不常置	-10.9621
太子太師	-10.9625
開具	-10.9625
一對	-10.9627
中堂	-10.9631
現在	-10.9633
等撰	-10.9634
千戸	-10.9634
王直	-10.9636
十有五	-10.9636
注云	-10.9636
此皆	-10.9638
賢否	-10.9641
北方	-10.9643
無常	-10.9644
上欲	-10.9648
書吏	-10.9649
賜白金	-10.9649
諫議	-10.9649
張氏	-10.9654
郡君	-10.9655
故違	-10.9656
保甲	-10.9661
知所	-10.9662
宋儒	-10.9663
生子	-10.9663
庶長男	-10.9663
所至	-10.9666
羣小	-10.9669
亦然	-10.9671
更張	-10.9672
於是禮部	-10.9672
永嘉	-10.9674
其私	-10.9675
嗣位	-10.9675
長成	-10.9679
供職	-10.9679
官四員	-10.9682
俱以	-10.9682
留之	-10.9685
如果	-10.9685
是年三月	-10.9686
文武官員	-10.9689
左門	-10.9692
鄉人	-10.9695
職司	-10.9704
中門出	-10.9706
加至	-10.9706
㑹稽	-10.9707
舉志	-10.9708
遣官祭	-10.9709
頒賜	-10.9709
宜從	-10.9715
此即	-10.9716
外藩	-10.9718
初為	-10.9719
欽定四庫全書欽定厯代職官表	-10.9721
嫡庶	-10.9722
文武之	-10.9724
妃王氏	-10.9726
不加	-10.9726
𢎞治十年	-10.9728
隆慶二年	-10.9731
所能	-10.9734
之難	-10.9737
隆慶六年	-10.9738
既已	-10.9738
今據	-10.9753
義理	-10.9753
先王	-10.9758
武選	-10.9758
不逮	-10.976
太學生	-10.9764
供御	-10.9767
有過	-10.977
乃復	-10.9774
色長	-10.9775
三萬	-10.9775
陳設同	-10.9778
隋唐	-10.978
大農	-10.9781
矣而	-10.9781
生儒	-10.9786
題奉欽依	-10.9787
精通	-10.9787
謹案晉	-10.979
非禮	-10.9795
帝王之	-10.9795
一併	-10.9801
以佐	-10.9805
鉶二	-10.9806
捉	-10.9807
時政	-10.9808
璁	-10.9809
埋	-10.9809
殺人	-10.981
先是上	-10.9811
灑掃	-10.9813
鷄	-10.9813
定數	-10.9813
隨朝	-10.9813
鈐轄	-10.9814
宣徳五年	-10.9815
郡公	-10.9817
南宫	-10.9817
神宫監	-10.982
帙	-10.9821
鱗	-10.9822
楫	-10.9823
齋醮	-10.9823
菹	-10.9825
華盖殿	-10.9825
賛引官賛	-10.9825
棺	-10.9826
眉	-10.9827
先農壇	-10.9828
稱有制	-10.9828
具服殿	-10.9829
蟠	-10.9829
輕車都尉	-10.9829
瞽	-10.983
蘄	-10.983
奉聖㫖准他襲欽此	-10.983
王宫	-10.983
通經	-10.9832
蒞	-10.9832
天道	-10.9832
頥	-10.9832
晏殊	-10.9834
艾	-10.9834
兼之	-10.9834
五年二月	-10.9835
靄	-10.9837
綰	-10.9837
征伐	-10.9838
廢弛	-10.9839
椒	-10.984
縣學	-10.984
内使監令	-10.9841
創業	-10.9841
鹽課	-10.9841
蘇軾	-10.9841
淳熈	-10.9841
佇	-10.9842
惟是	-10.9844
散騎	-10.9845
戊申	-10.9845
糾察	-10.9847
各掌其	-10.9847
字仲	-10.9848
不限	-10.9849
之費	-10.9851
萬户府	-10.9852
其才	-10.9853
人物	-10.9853
工匠	-10.9853
帶俸	-10.9854
謹案明	-10.9854
遷中書舍人	-10.9854
百辟	-10.9854
改作	-10.9854
造辦	-10.9856
而設	-10.9857
神祗	-10.9858
伴讀	-10.986
靈臺	-10.986
不獨	-10.9861
刪定	-10.9862
龍江	-10.9865
稽查	-10.9866
以濟	-10.9866
年轉左	-10.9868
成化十四年	-10.9869
各衛	-10.987
繇本司	-10.9871
月十七日	-10.9878
晉宋	-10.9878
次序	-10.9879
年六十	-10.9881
三百石	-10.9883
圖任	-10.9883
召入	-10.9883
同姓	-10.9887
百餘人	-10.9888
丞一員	-10.9889
月初九日	-10.9889
掌印官	-10.9893
宦官	-10.9894
北軍	-10.9895
來者	-10.9897
班齊	-10.9898
設立	-10.9908
四拜興	-10.9908
先於	-10.9912
當如今之	-10.9914
將相	-10.9917
十錠	-10.9917
選舉	-10.9924
灾異	-10.9925
安州	-10.9926
南昌	-10.9927
大成門	-10.9934
陞轉	-10.9934
銀兩	-10.9935
文義	-10.9935
月二十六日	-10.9946
即便	-10.9947
書冩	-10.9947
三嵗	-10.9948
小臣	-10.995
之民	-10.9951
者不得	-10.9954
諭内閣	-10.9954
婚禮	-10.9954
二十日	-10.9957
尚衣	-10.9959
司禮監官	-10.996
學習	-10.996
隋氏	-10.996
祭文	-10.9962
四十四	-10.9968
之異	-10.9968
文治	-10.9968
請行	-10.9971
翰林學士承㫖	-10.9971
之末	-10.9971
之勤	-10.9975
東門	-10.9977
三年五月	-10.9978
寜人	-10.9979
朕命	-10.998
引進	-10.998
也且	-10.9981
遵照	-10.9982
無敢	-10.9982
不敷	-10.9992
六年任	-10.9992
真定	-10.9992
執法	-10.9994
中正	-10.9996
入官	-10.9998
二年五月	-10.9998
一隻	-10.9999
以明	-11.0002
髙一尺	-11.0004
婚配	-11.0013
既得	-11.0014
神靈	-11.0015
岷	-11.0017
有疾	-11.0017
人洪武	-11.0019
師氏	-11.0019
該寺	-11.0024
建立	-11.0025
國語	-11.0035
下禮部	-11.0037
碑文	-11.0037
穆宗	-11.0038
非惟	-11.004
官員人等	-11.004
者謂之	-11.0041
政令	-11.0043
蔽膝	-11.0045
司員外郎	-11.0045
一十六	-11.0046
犧牲	-11.0048
大畧	-11.0053
所𨽻	-11.0059
副率	-11.0061
愍	-11.0061
工尺一四	-11.0062
既成	-11.0063
藤	-11.0065
梧	-11.0065
繇本司主事	-11.0066
𨽻焉	-11.0066
乃得	-11.0066
乞勅	-11.0067
李氏	-11.0067
纒	-11.0067
鈒	-11.0068
揀	-11.0068
鍋	-11.0068
錦衣衞	-11.0068
雩	-11.0069
殮	-11.0069
鯉	-11.007
南齊書百官志	-11.0071
倦	-11.0072
貺	-11.0073
雉	-11.0073
罍	-11.0073
圎	-11.0074
朽	-11.0074
䜛	-11.0075
張廷玉	-11.0076
濁	-11.0076
蕪	-11.0077
狐	-11.0077
尺四工合	-11.0078
晁	-11.0079
盂	-11.0079
淪	-11.0079
椿	-11.0079
成化二十三年	-11.008
招討司	-11.008
閠	-11.0081
奨	-11.0081
潁	-11.0081
舅	-11.0082
雲騎尉	-11.0082
浹	-11.0082
麒麟	-11.0083
光祿大夫	-11.0083
服闋	-11.0083
光禄卿	-11.0084
泄	-11.0084
攀	-11.0084
縹	-11.0085
瑋	-11.0085
聊	-11.0086
跋	-11.0086
監作	-11.0086
王應麟玉海	-11.0086
下詔	-11.0086
被劾	-11.0086
壬申	-11.0087
兎	-11.0087
颺	-11.0088
遣官祭告	-11.0088
提刑	-11.0089
囉	-11.0089
駿	-11.0089
活	-11.0089
檄	-11.009
正七品上	-11.009
鄆	-11.009
伊尹	-11.0092
其子孫	-11.0093
愷	-11.0094
統轄	-11.0096
陸續	-11.0096
考中	-11.0098
無有	-11.0099
得其人	-11.0101
書於	-11.0101
伺候	-11.0101
倉場	-11.0104
李清臣	-11.0104
未入流	-11.0104
特置	-11.0105
初無	-11.0111
兩廣	-11.0112
四瀆	-11.0114
各部院	-11.0114
圉	-11.0114
授官	-11.0115
置監	-11.0116
𢎞治十八年	-11.0116
工作	-11.0117
臣某	-11.0124
臨期	-11.0125
之秩	-11.0125
韓維	-11.0126
臣寮	-11.0127
本身	-11.0127
戒諭	-11.0128
應否	-11.013
為主	-11.0132
莫能	-11.0133
不滿	-11.0137
願陛下	-11.0139
待罪	-11.0141
悉以	-11.0142
即時	-11.0144
經費	-11.0146
所犯	-11.0152
内贊唱	-11.0154
具儀	-11.0155
太學博士	-11.016
犯者	-11.016
正名	-11.0162
品上	-11.0163
先一日	-11.0167
郎中一人	-11.0171
五年任	-11.0172
小民	-11.0174
内助	-11.0175
落成	-11.0178
欲乞	-11.0183
覆題奉孝宗皇帝聖㫖	-11.0184
而不知	-11.0188
右門	-11.0189
顔子	-11.019
封建	-11.019
皆稱	-11.0191
府有	-11.0191
西面	-11.0191
名器	-11.0191
切責	-11.0193
毎日	-11.02
猶有	-11.0203
嘉靖二十八年	-11.0204
城侯	-11.0206
之祀	-11.0208
建隆	-11.021
二百石	-11.0211
不絶	-11.0211
儀從	-11.0212
令一人丞一人	-11.0216
中門入	-11.0219
所著	-11.0219
也而	-11.022
清文	-11.0221
御用	-11.0223
正統二年	-11.0228
宣力	-11.0233
本生	-11.0233
大猷	-11.024
積分	-11.0242
鎮將	-11.0244
至隋	-11.0246
奏議	-11.025
典學	-11.0252
居正	-11.0254
牧監	-11.026
東西各	-11.0261
北羊	-11.0266
乞恩	-11.0268
列侯	-11.0268
胄子	-11.0268
乞將	-11.0274
政務	-11.0277
近世	-11.0278
臣聞	-11.0278
六兩	-11.0281
而非	-11.0281
庶長	-11.0284
當國	-11.0285
日食	-11.0288
來朝貢	-11.029
安民	-11.0294
赴闕	-11.0296
二十一日	-11.03
於世	-11.03
叅領	-11.03
千五百	-11.0303
埽	-11.0308
平日	-11.0313
廨	-11.0315
宫禁	-11.0317
你	-11.0318
出城	-11.0319
賛引引	-11.0319
邕	-11.0319
薊	-11.0319
朝鮮國	-11.032
鋒	-11.0321
職務	-11.0321
紵	-11.0322
賜名	-11.0324
備馬赴京	-11.0325
鍼	-11.0326
九州	-11.0326
漢武帝	-11.0326
脯醢	-11.0327
棨	-11.0327
覧	-11.0328
洙	-11.0328
硃	-11.0329
之方	-11.033
蜜	-11.033
兼管監事	-11.033
二十五日	-11.0331
壬寅	-11.0331
木柴	-11.0333
捧主官	-11.0333
府兵	-11.0333
一如	-11.0334
正統三年	-11.0334
江南長洲人	-11.0334
加官	-11.0334
扣	-11.0335
堯叟	-11.0335
女子	-11.0336
香油	-11.0336
大次	-11.0336
行手本知㑹	-11.0336
霽	-11.0337
黃	-11.0337
絛	-11.0337
疲	-11.0338
遣中使	-11.0338
甘泉	-11.0339
穰	-11.0339
琉璃	-11.0339
匱	-11.0339
典軍	-11.0341
三少	-11.0341
織染	-11.0341
丁祭	-11.0341
𢎞治十七年	-11.0341
率其屬	-11.0343
駙馬都尉	-11.0344
正奉大夫	-11.0345
侃	-11.0346
婚姻	-11.0346
宋宋史職官志	-11.0346
童貫	-11.0346
京朝官	-11.0347
國政	-11.0347
璉	-11.0347
羈縻	-11.0347
承制	-11.0347
孝慈	-11.0348
典儀唱奠帛行初獻禮	-11.0349
詹同	-11.0349
燮	-11.035
太子少師	-11.0353
欽奉	-11.0355
祥瑞	-11.0356
止令	-11.0356
樞庭	-11.0357
讀祝位	-11.0359
安撫司	-11.0359
大祫	-11.036
鼓舞	-11.036
諸人	-11.036
講堂	-11.0362
西向立	-11.0362
不論	-11.0366
申飭	-11.0366
政府	-11.0367
具冕服	-11.0368
必欲	-11.0368
於斯	-11.0368
贈太師	-11.037
北面立	-11.037
遣官行禮	-11.037
在政府	-11.0374
觀禮	-11.0377
可得	-11.0379
知道欽此	-11.038
龍朔二年改為	-11.038
二縣	-11.038
特設	-11.0382
敬天	-11.0388
十有六	-11.0394
上柱國	-11.0396
𢎞治七年	-11.0396
順治元年定	-11.0398
承制官	-11.0399
是年六月	-11.0401
阿爾	-11.0401
二年七月	-11.0402
邦家	-11.0403
居官	-11.0404
渡江	-11.0405
何人	-11.0406
㕘領	-11.0407
出榜	-11.0408
劾奏	-11.0415
一徳	-11.0416
凡此	-11.0417
女樂	-11.0419
喪服	-11.0425
行走	-11.0428
五星	-11.0429
一千五百	-11.0431
掾史	-11.0433
罷參知政事	-11.0433
衣食	-11.0434
西東向	-11.0434
不可得	-11.0434
元嘉	-11.0436
寨曰	-11.0436
鎮逺	-11.0437
兩朝	-11.044
昌朝	-11.0443
宣讀	-11.0443
安世	-11.0446
自資政殿學士	-11.0454
聲教	-11.0459
二年詔	-11.0459
大學士楊士竒	-11.0461
各以其	-11.0461
並列	-11.0461
章京	-11.0462
兼侍讀學士	-11.0463
工食	-11.0465
親臨	-11.0469
而罷	-11.0472
其初	-11.0474
首善	-11.0478
一篇	-11.0479
開皇	-11.0479
栗子	-11.048
福酒	-11.0483
乞歸	-11.0485
行臺	-11.0487
並行	-11.0487
陵廟	-11.0493
一儀注	-11.0494
八曰	-11.0495
金帛	-11.0501
進膳	-11.0502
二表裏	-11.0503
孝武	-11.0505
縣民	-11.0508
把事	-11.0509
二座	-11.0511
不得與	-11.0514
内外官	-11.0517
及第	-11.0523
終不	-11.0524
中郎	-11.0524
以獻	-11.0526
統於	-11.0526
之華	-11.0526
後周有	-11.053
二年十二月	-11.0533
乃詔	-11.0534
諸軍事	-11.0537
楷書	-11.0537
一十二	-11.0541
永昌	-11.0543
良臣	-11.0546
中軍	-11.0549
諸蕃	-11.055
與焉	-11.0557
延祐	-11.0557
學業	-11.0558
于案	-11.056
鐘鼓	-11.0565
六寸	-11.0565
權臣	-11.0567
始自	-11.0567
制詞	-11.0571
還朝	-11.0572
鉤	-11.0579
店	-11.058
鹽鐵	-11.058
字籍見主事下	-11.0582
年任館	-11.0583
羃	-11.0585
沁	-11.0585
線羅	-11.0585
宋史	-11.0586
北齊隋書百官志後齊	-11.0587
廖	-11.0587
簠	-11.0588
敬此	-11.0589
饈	-11.059
為考試官取	-11.059
燒香	-11.059
㳂	-11.0591
鎮巡等官	-11.0592
癸亥	-11.0592
華蓋殿	-11.0592
之别	-11.0592
奉令㫖	-11.0592
勺	-11.0593
盥洗	-11.0593
驃騎	-11.0593
瑁	-11.0594
癸巳	-11.0594
尚儀	-11.0595
犧	-11.0595
嶠	-11.0596
軄	-11.0596
摺	-11.0596
膝	-11.0596
集賢校理	-11.0597
綵段二表裏	-11.0597
永樂二十二年	-11.0598
轅	-11.0599
盍	-11.0599
照㑹	-11.06
其母	-11.06
亞獻終獻	-11.06
頤	-11.06
鞍馬	-11.06
庚寅	-11.0601
繞	-11.0601
檢校太尉	-11.0602
遂有是命	-11.0603
筠	-11.0603
䕶軍校	-11.0603
批答	-11.0603
嘉靖四十四年	-11.0604
進士第	-11.0604
撃	-11.0604
膳羞	-11.0604
舉麾	-11.0605
讎	-11.0605
糓	-11.0606
婚嫁	-11.0606
優者	-11.0607
入侍	-11.0607
軼	-11.0607
鏘	-11.0608
璜	-11.0609
明道	-11.0609
阮	-11.0611
宥宻	-11.0613
稽其	-11.0613
㒒	-11.0614
右春坊	-11.0614
騷	-11.0615
織造	-11.0616
駟	-11.0616
明明史職官志	-11.0617
一斗	-11.0617
轉左	-11.0617
百官箴	-11.0619
東海	-11.062
乞令	-11.062
祕殿	-11.0621
倫序	-11.0621
祥符	-11.0621
羊酒	-11.0622
丞郎	-11.0623
侍衞	-11.0624
咨送	-11.0626
勲臣	-11.0627
滿日	-11.0629
何也	-11.0629
又嘗	-11.063
檢察	-11.063
萬壽	-11.0631
泰和	-11.0632
嘉靖十四年	-11.0632
國是	-11.0632
通曉	-11.0633
又改為	-11.0633
羊豕	-11.0633
永徽	-11.0636
候駕	-11.0637
亦同	-11.0637
三年九月	-11.0638
坊局	-11.0638
援例	-11.064
二十九日	-11.0641
秘府	-11.0645
無過	-11.0647
千七百	-11.0649
學士宋濓	-11.065
特㫖	-11.0651
乘馬	-11.0651
占城	-11.0652
殿最	-11.0652
母妃	-11.0652
官貟	-11.0653
候㫖	-11.0653
注疏	-11.0655
問擬	-11.0657
縁由	-11.0658
等因奉聖㫖	-11.0659
考驗	-11.066
秦置	-11.066
銀臺	-11.0662
軍官	-11.0666
進酒	-11.0667
先入	-11.0667
月十九日	-11.0667
正統六年	-11.067
嘉靖間	-11.0678
朝因之	-11.0679
甲辰進士	-11.0679
所治	-11.068
别設	-11.068
天津	-11.0681
至京師	-11.0684
論事	-11.0686
三十一	-11.0691
一尺四合	-11.0692
漢初	-11.0693
四十六	-11.0694
止是	-11.0695
張俊	-11.0696
陳因之	-11.0699
而卒	-11.0699
辛未進士	-11.0701
三次	-11.0701
改為司	-11.0702
别立	-11.0703
六斤	-11.0706
三年十二月	-11.0711
祠祀	-11.0717
用青	-11.0718
命官	-11.0726
錦衣衛官	-11.0727
六千	-11.0729
誠敬	-11.073
盛徳	-11.073
丙戌進士	-11.0731
取用	-11.0733
告于	-11.0734
四庫	-11.0735
親親之	-11.0737
楊氏	-11.0745
寧府	-11.0747
舊職	-11.076
乾隆元年	-11.076
厥後	-11.0761
卿一人	-11.0762
始得	-11.0769
學規	-11.077
漢代	-11.077
給價	-11.0775
聖意	-11.0776
一百人	-11.0777
太宗皇帝	-11.0778
洪武十八年	-11.0783
議禮	-11.0783
預告	-11.079
餘俱	-11.079
法曹	-11.079
殿外	-11.0791
洪武七年	-11.0794
升祔	-11.0796
君子之	-11.0796
仍照	-11.0798
禮部題	-11.0803
以為言	-11.0803
誤國	-11.0804
行勘	-11.0805
掌天下	-11.0807
泗	-11.0807
請命	-11.081
江州	-11.0811
我太祖	-11.0813
太社	-11.0817
五楹	-11.0821
導至	-11.0832
原無	-11.0833
史文	-11.0839
牛羊	-11.0841
至拜位	-11.0846
敢言	-11.0847
降勅	-11.0848
例應	-11.0852
之效	-11.0854
三年三月	-11.0855
逋	-11.0855
鎭	-11.0856
卯	-11.0857
冢	-11.0858
堡	-11.0858
公孫	-11.086
匙	-11.086
溫	-11.0861
一尺二寸	-11.0861
奠玉帛	-11.0861
苖	-11.0862
脂	-11.0862
第九品	-11.0862
齊職儀	-11.0863
司儀	-11.0864
叚	-11.0864
裡	-11.0864
躐	-11.0864
剥	-11.0864
挨	-11.0865
頤浩	-11.0865
陕西	-11.0865
婁	-11.0865
涕	-11.0865
樞宻直學士	-11.0866
疫	-11.0866
法王	-11.0866
薛瑄	-11.0866
牲匣	-11.0867
䧟	-11.0868
不止	-11.0868
悠	-11.0868
皇慶元年	-11.0869
圃	-11.0869
冡宰	-11.0869
闥	-11.0869
甲乙	-11.087
醜	-11.0871
如律	-11.0871
突	-11.0871
捷	-11.0872
鈎盾	-11.0873
郕	-11.0875
暁	-11.0875
嬰	-11.0875
聶	-11.0875
翌日	-11.0875
周王	-11.0876
雹	-11.0877
奉遷	-11.0877
諮議	-11.0878
襲爵	-11.0878
位號	-11.0879
神厨	-11.0881
狥私	-11.0881
紛紛	-11.0882
瀋	-11.0884
苟	-11.0884
分司南京	-11.0885
以他官兼	-11.0885
大祀殿	-11.0886
比二千石	-11.0886
李沆	-11.0891
李昉	-11.0893
宫正	-11.0893
追奪	-11.0893
周知	-11.0894
科塲	-11.0896
太卜	-11.0897
加恩	-11.0898
其屬有	-11.0898
領兵	-11.0899
承旨	-11.09
其辭	-11.0903
二壇	-11.0904
嶺南	-11.0906
巡察	-11.0908
宣撫司	-11.0909
廢置	-11.0914
十二月奉聖㫖	-11.0915
從者	-11.0917
鹽法	-11.0921
衛將軍	-11.0922
當官	-11.0924
差使	-11.0924
十枝	-11.0925
飲訖	-11.0928
於午門外	-11.0928
前輩	-11.0929
程文	-11.093
之患	-11.0931
之法以	-11.0931
中二千石	-11.0932
明太	-11.0932
殿閣	-11.0932
比照	-11.0933
條陳	-11.0935
十三日	-11.0937
配帝	-11.0941
學生員	-11.0941
賜茶	-11.0944
父兄	-11.0947
雲龍	-11.0947
果品	-11.0948
景陵	-11.0948
左庶子	-11.0949
方得	-11.0949
祫祭	-11.0952
憲廟	-11.0952
見行	-11.0954
上怒	-11.0955
左右廂	-11.0955
主簿二人	-11.0957
奏疏	-11.096
改易	-11.096
賢良	-11.0961
㑹奏	-11.0966
肅清	-11.0967
陞南京	-11.0967
豈能	-11.0967
一時之	-11.0968
煬帝改為	-11.0969
專掌	-11.097
五采	-11.0973
賛禮畢	-11.0974
祔廟	-11.0974
億萬	-11.0974
部屬	-11.0979
司獄	-11.0986
署令一人丞	-11.099
未入	-11.0998
公弼	-11.1001
陽縣	-11.1004
文藝	-11.1006
第二品	-11.1007
習儀	-11.1007
甲戌進士	-11.1008
太子詹事	-11.1011
一尺一合	-11.1012
兼任	-11.1014
康王	-11.1022
昌平	-11.1023
下所司	-11.1023
遺詔	-11.1024
咸通	-11.1029
裁定	-11.103
西安	-11.1032
用銀	-11.1032
無遺	-11.1032
修書	-11.1033
陳奏	-11.1039
當日	-11.1043
不待	-11.1045
或謂	-11.1046
都給事中	-11.1049
副使一人	-11.1051
壬辰進士	-11.1057
龍朔二年改	-11.1058
豈非	-11.1061
上公	-11.1063
故並	-11.107
入奏	-11.1072
惠王	-11.1076
正堂	-11.108
天成	-11.1082
金吾衛	-11.1083
丹墀内	-11.1093
九分	-11.1094
師古曰	-11.1099
梁冠	-11.1101
歴陞	-11.1102
六箇	-11.1102
九成	-11.1104
甚重	-11.1104
上曰卿	-11.1104
永樂六年	-11.1106
重輕	-11.1107
已行	-11.1107
乃心	-11.1113
不識	-11.1114
斤八兩	-11.1115
二百人	-11.1118
明史職官志	-11.1118
請復	-11.1123
糖	-11.1126
司員	-11.1126
以杜	-11.1127
上即位	-11.1127
濙	-11.1127
毆	-11.113
行初獻禮	-11.1131
近例	-11.1131
蘇易簡	-11.1132
緋	-11.1132
以圖	-11.1133
刁	-11.1134
哥	-11.1135
勃	-11.1135
絰	-11.1135
餘慶	-11.1136
奉國中尉	-11.1136
纁	-11.1136
奭	-11.1136
景神殿	-11.1136
珠翠	-11.1137
鈕	-11.1137
學志	-11.1137
白麫	-11.1138
靳	-11.1139
蒋	-11.114
絹四疋	-11.1141
殁	-11.1141
懈	-11.1143
呂夷簡	-11.1144
竢	-11.1145
行在禮部尚書胡濙	-11.1145
遹	-11.1145
需索	-11.1146
州軍	-11.1146
鴈	-11.1146
隐	-11.1147
𠡠諭	-11.1147
鮑	-11.1147
楊廷和	-11.1147
孫嘉淦	-11.1147
閹	-11.1148
右順門	-11.1148
戒飭	-11.1148
薫	-11.1148
輔國将軍	-11.1148
宋初	-11.1149
鈔幣	-11.115
儻	-11.115
惻	-11.115
嫡母	-11.115
鋐	-11.115
遣祭	-11.115
衛士	-11.1151
蹤	-11.1153
共一壇	-11.1154
𢎞治十六年	-11.1154
㳟	-11.1155
典儀唱樂舞生就位執事官各司其事	-11.1156
猾	-11.1156
槖	-11.1156
紹述	-11.1156
皇貴妃	-11.1157
六尚	-11.1157
法物	-11.1157
世子郡王	-11.1157
江南武進人	-11.1158
内直	-11.116
珙	-11.1161
直集賢院	-11.1161
卦	-11.1162
韜	-11.1162
異議	-11.1164
驢	-11.1164
關防	-11.1164
正統七年	-11.1165
減半	-11.1165
株	-11.1165
不得過	-11.1167
曉諭	-11.1167
八旗官學生	-11.1169
文辭	-11.117
軍節度副使	-11.117
誕揚	-11.1173
縝	-11.1173
䕶衞	-11.1175
辦事官	-11.1175
部篇	-11.1176
至唐	-11.1177
箇月	-11.1178
在官	-11.118
號曰	-11.1181
惟演	-11.1182
安燾	-11.1187
吳敏	-11.1189
明㑹典	-11.1189
副總裁	-11.119
禮部議准	-11.1192
一前期一日	-11.1192
多矣	-11.1193
折衣	-11.1194
獻訖	-11.1194
禮部主事	-11.1195
節年	-11.1197
若盧	-11.1198
二甲	-11.1201
免役	-11.1204
雨雪	-11.1207
廣平	-11.1208
彌封	-11.121
畿内	-11.121
合為一	-11.1216
典章	-11.1218
醫師	-11.1218
之忠	-11.122
進賢	-11.1221
祀天	-11.1223
重罪	-11.1225
雍正三年	-11.1227
初即位	-11.1229
劉向	-11.1233
二年十月	-11.1234
八名	-11.1234
識者	-11.1235
帷幄之	-11.1237
分列	-11.1238
不測	-11.1243
正統五年	-11.1243
恭遇	-11.1246
南院	-11.125
文翰	-11.125
鴻臚寺設	-11.1252
神人	-11.1252
面奏	-11.1256
臣愚	-11.1257
貞觀中	-11.1257
力辭	-11.1259
正五品上	-11.1261
召公	-11.1262
山林	-11.1265
俸米	-11.1265
嘉靖二十九年	-11.1266
七寸	-11.1268
大辟	-11.1273
主事四人	-11.128
講論	-11.1282
我祖宗	-11.1282
七年任	-11.1287
具在	-11.129
恩禮	-11.1291
四時之	-11.1291
皇陵	-11.1291
永陵	-11.1294
始祖	-11.1295
𢎞治十三年	-11.1296
守禦	-11.1299
南道	-11.1299
俊卿	-11.1301
狀元	-11.1303
有天下	-11.1305
節冊	-11.1306
至御前	-11.131
左司	-11.1311
大誥	-11.1312
文簿	-11.1313
臨朝	-11.1315
率領	-11.1316
有聲	-11.1317
滿洲漢人	-11.1319
宋書	-11.1327
回還	-11.1331
臺上	-11.1333
今擬	-11.1335
悉如	-11.1336
百王	-11.1344
其説	-11.1346
屬車	-11.1347
不平	-11.1351
軍中	-11.1352
成化十一年	-11.1352
奉武宗皇帝聖㫖是欽此	-11.1352
早朝	-11.1353
山東河南	-11.1354
不能無	-11.1361
初封	-11.1361
與夫	-11.1362
十有四	-11.137
朕志	-11.1373
翰林院侍讀學士	-11.1374
序坐	-11.1374
正徳三年	-11.1375
布衣	-11.1375
講筵	-11.1377
至意	-11.1378
百七十	-11.1379
惟神	-11.1381
題曰	-11.1386
典牧	-11.1386
舊人	-11.139
洪武二十四年	-11.1393
硯	-11.1396
價銀	-11.14
家法	-11.1403
十一日	-11.1409
訓練	-11.1409
㐮	-11.1412
御製詩	-11.1415
一祝文維	-11.1416
幘	-11.1417
辜	-11.1418
三皇	-11.1418
芬	-11.1419
内地	-11.142
内管領	-11.142
編修檢討	-11.1422
取自上裁	-11.1423
槍	-11.1424
廣運	-11.1424
團練使	-11.1425
宋齊梁陳宋書百官志	-11.1425
三國魏志	-11.1425
擴	-11.1426
史館修撰	-11.1426
譚	-11.1426
典儀唱迎神	-11.1426
行八拜禮	-11.1427
師保	-11.1428
掲帖	-11.1428
泊	-11.1429
憾	-11.1429
浪	-11.143
虗	-11.143
伯宋大中祥符二年加	-11.143
籀	-11.1431
舟楫	-11.1431
博學	-11.1432
伏覩	-11.1432
蒐	-11.1434
兢	-11.1434
母后	-11.1434
宗道	-11.1435
字様	-11.1436
諏	-11.1437
翟衣	-11.1437
臨軒	-11.1438
突厥	-11.1438
捨	-11.1439
丁酉	-11.1439
匪懈	-11.144
牖	-11.1441
御幄	-11.1442
灑	-11.1444
駒	-11.1444
四年正月	-11.1445
岳飛	-11.1445
出守本官	-11.1446
元年十一月	-11.1447
雁	-11.1448
叅究	-11.1449
邊境	-11.145
皆因	-11.145
互市	-11.1451
腹心	-11.1452
在告	-11.1453
後裔	-11.1453
僊	-11.1454
區處	-11.1454
扶風	-11.1455
成化十三年	-11.1459
經邦	-11.146
奉常	-11.1462
翊衛	-11.1462
冊使	-11.1463
陳升之	-11.1464
查考	-11.1468
史浩	-11.1468
變亂	-11.147
登庸	-11.147
廟諱	-11.1472
貢馬	-11.1472
黜退	-11.1473
升為	-11.1474
遷都	-11.1477
所論	-11.1478
丁丑進士	-11.1479
太醫令	-11.1483
靖難	-11.1485
考職	-11.1488
令㫖	-11.1491
府縣	-11.1494
稍有	-11.1494
聖裁	-11.1499
𤣥宗	-11.15
臺官	-11.1501
暫免	-11.1502
飛龍	-11.1504
劉吉	-11.1507
賛者	-11.1507
管待	-11.1509
左布政使	-11.1512
居多	-11.1517
取㫖	-11.1522
就職	-11.1522
謁見	-11.1523
臨幸	-11.1528
二年三月	-11.1532
蒙正	-11.1533
辭免	-11.1539
赴監	-11.1539
昭陵	-11.154
奏對	-11.154
六工一尺	-11.154
重加	-11.1546
存問	-11.1546
外郎	-11.1546
中書省臣	-11.1548
典樂	-11.155
賜鈔	-11.1552
未得	-11.1554
前古	-11.1557
内贊贊	-11.1561
圖治	-11.1564
統制	-11.1571
謁廟	-11.1576
非常之	-11.1577
嘉靖二十四年	-11.1577
保安	-11.1578
父祖	-11.158
典寳	-11.1583
吏部左侍郎	-11.1584
西寧	-11.1587
之略	-11.1588
方丘	-11.1592
佐郎	-11.1593
永安	-11.1596
致治	-11.1598
武英殿大學士	-11.1599
左右春坊	-11.1601
右諭徳	-11.1601
其出入	-11.1601
司農寺	-11.1603
纂修官	-11.1606
興化	-11.1607
當差	-11.1609
亦須	-11.1609
乾隆二年	-11.161
籩豆各	-11.1613
回籍	-11.1615
武成	-11.1616
五十斤	-11.162
久矣	-11.1621
雖未	-11.1621
年七十	-11.1622
究問	-11.1623
省諭	-11.1625
宣徳二年	-11.1626
作養	-11.1628
明昌	-11.1634
三百六十	-11.1636
一一	-11.1637
書畫	-11.1639
尺二寸	-11.1641
入對	-11.1642
經筵官	-11.1645
行遣	-11.1645
人戸	-11.1646
後遂	-11.1648
寺監	-11.165
員外郎一人	-11.1656
請乞	-11.1657
是年四月罷	-11.1664
屬少府	-11.1669
㑹要	-11.1674
里正	-11.1678
虞部	-11.169
畫一	-11.1691
知制誥拜	-11.1691
修明	-11.1693
奏省牲	-11.1696
蟬	-11.1697
新舊	-11.1697
北嶽	-11.1698
両	-11.1699
二十二日	-11.1702
九尺	-11.1705
將兵	-11.1706
孔雀	-11.1707
太師太傅太保	-11.1707
忌辰前期十日本寺題	-11.1709
尚膳監	-11.1709
南海	-11.171
皮弁	-11.1711
黔	-11.1711
書佐	-11.1714
己卯	-11.1714
讌	-11.1714
瑣	-11.1715
晷	-11.1715
嫡長	-11.1715
釀	-11.1716
鋪排	-11.1717
祺	-11.1718
床	-11.1719
灣	-11.1719
簠簋各二	-11.1719
拏	-11.172
周禮地官	-11.1721
沐浴	-11.1721
乾清宫	-11.1721
詔㫖	-11.1721
陲	-11.1721
牋	-11.1721
牐	-11.1722
之服	-11.1722
内使監官	-11.1722
狡	-11.1722
筐	-11.1723
抃	-11.1723
喚	-11.1723
蔬菜厨料	-11.1724
浙江海寜	-11.1724
邦昌	-11.1724
撫按衙門	-11.1725
纎	-11.1726
邦國之	-11.1726
晉晉書職官志	-11.1726
底簿	-11.1726
集賢殿大學士	-11.1726
北院	-11.1727
臨安府	-11.1727
韭	-11.1727
亭侯	-11.1727
樞機	-11.1727
拊	-11.1728
文案	-11.1728
大學衍義	-11.1728
涯	-11.1728
稼	-11.1728
藏書	-11.1728
堯佐	-11.1728
懌	-11.1729
慙	-11.1729
明徳	-11.173
慚	-11.173
致齋三日	-11.173
江南吳縣	-11.1731
迎接	-11.1731
柴薪	-11.1731
諛	-11.1731
剖	-11.1733
錦衣	-11.1734
魁柄	-11.1734
藺	-11.1734
琅	-11.1735
宫闈	-11.1735
樽	-11.1735
不疑	-11.1735
蛇	-11.1735
張邦昌	-11.1735
翻	-11.1735
詮	-11.1736
求罷	-11.1737
駐劄	-11.1737
立廟	-11.1737
聫	-11.1737
嘉靖十八年	-11.1737
青苗	-11.1738
勞逸	-11.1738
景泰二年	-11.1739
鵬舉	-11.174
甘露	-11.1741
卡	-11.1741
改𨽻	-11.1742
武弁	-11.1742
江東	-11.1742
米二石	-11.1742
哈密	-11.1742
駞	-11.1743
徐溥	-11.1745
上諭禮部臣曰	-11.1746
前職	-11.1746
汝愚	-11.1747
漢漢書百官公卿表	-11.1748
是年十一月	-11.1749
詳考	-11.1749
浙江餘姚人	-11.175
藝祖	-11.175
司贊唱	-11.1751
祧廟	-11.1751
徽號	-11.1752
己未進士	-11.1752
雒陽	-11.1753
納銀	-11.1753
騎射	-11.1756
四方館	-11.1756
謀謨	-11.1756
是年九月	-11.1758
休戚	-11.1759
所自出	-11.176
神御前	-11.1765
歲貢	-11.1767
罷免	-11.1767
運判	-11.1768
發落	-11.1768
順帝	-11.1769
洪武十四年	-11.1769
與今之	-11.1773
于文華殿	-11.1773
記注官	-11.1775
翰林院編修	-11.1777
罷樞宻副使	-11.1778
之大者	-11.1779
御極	-11.178
東西向立	-11.1782
月初二日上	-11.1783
量其	-11.1783
所作	-11.1784
宿衞	-11.1785
原任	-11.179
土木	-11.1793
收支	-11.1794
進俎	-11.1795
工役	-11.18
方今	-11.1803
青海	-11.1803
紀録	-11.1803
地面	-11.1805
正四品上	-11.1805
查明	-11.1809
舊唐書	-11.1809
何所	-11.181
盡忠	-11.1814
分東西	-11.1817
得宜	-11.1817
岐陽	-11.1817
學宫	-11.1818
士論	-11.1822
四壇	-11.1822
遵奉	-11.1823
躬親	-11.1823
薦新	-11.1823
未詳	-11.1824
遷轉	-11.1824
不得不	-11.1825
者是也	-11.183
開元初	-11.1833
四十三年	-11.1834
無員	-11.1835
十二斤	-11.1838
對讀	-11.1841
青羅	-11.1842
為太傅	-11.1844
白鹽	-11.1846
月初七日	-11.1846
正統中	-11.185
左校	-11.185
謹案後漢	-11.1851
十三年任	-11.1852
依次	-11.1854
奏討	-11.1854
門禁	-11.1855
四郊	-11.1856
増廣	-11.1862
造就	-11.1862
為執政	-11.1863
服衮冕	-11.1867
孝思	-11.187
堂下	-11.1871
三斗	-11.1875
昭文館大學士	-11.1875
内附	-11.1876
治獄	-11.1878
訖奏出圭	-11.1881
該本部題	-11.1884
册封	-11.1886
百神	-11.1887
捧詔	-11.1887
罔不	-11.1887
表賀	-11.1891
不能自	-11.1899
仰成	-11.1899
必由	-11.19
冠禮	-11.1901
並非	-11.1902
納言	-11.1907
復班	-11.1911
酋長	-11.1914
不撓	-11.1914
相國	-11.1915
亦稱	-11.1916
騎兵	-11.1918
之暇	-11.1921
祖宗時	-11.1923
六藝	-11.1924
百六十	-11.1926
四十一	-11.1931
𢎞治二年	-11.1931
支俸	-11.1939
本旗	-11.194
南北向	-11.1941
未足	-11.1949
三十二人	-11.195
勸農	-11.1958
又加	-11.1959
景泰三年	-11.196
月十二日	-11.1962
定鼎	-11.1966
乞致仕	-11.1968
八佾	-11.1969
州界	-11.197
入告	-11.1974
量給	-11.1975
正色	-11.1976
刻石	-11.1978
兩五錢	-11.1981
軍政	-11.1982
是年十月	-11.1983
監牧	-11.1986
繇精膳司	-11.1992
杭	-11.1994
紅絹	-11.1996
曲直	-11.2
各五人	-11.2001
詳見	-11.2002
大門外	-11.2003
未久	-11.2006
南方	-11.2008
月二十四日	-11.2008
朝㕘	-11.2008
左相	-11.2008
瓜	-11.2009
元子	-11.201
朝日夕月	-11.2012
中奉大夫	-11.2013
七年二月	-11.2013
祕書監	-11.2013
世襲土官	-11.2014
行一拜三叩頭禮	-11.2014
碣	-11.2014
礮	-11.2015
親王府	-11.2015
花様	-11.2016
謄寫	-11.2019
軍職	-11.2019
彝	-11.2021
罵	-11.2022
喀爾喀	-11.2022
窄	-11.2022
天順二年	-11.2024
巻	-11.2024
魂	-11.2024
賽瑪爾堪	-11.2024
穢	-11.2024
文思院	-11.2025
舊唐書職官志	-11.2025
㒺	-11.2025
金㓜孜	-11.2026
三朝	-11.2026
粢盛	-11.2026
貴妃	-11.2027
闊	-11.2027
菱米	-11.2027
敢昭告於	-11.2027
嫉	-11.2027
朝議大夫	-11.2028
優劣	-11.2028
商賈	-11.2029
杯	-11.2029
冦凖	-11.2029
邈	-11.2029
兊	-11.203
購	-11.203
孔子廟	-11.203
猗	-11.203
忭	-11.203
朱熹	-11.203
諡號	-11.2031
勦	-11.2031
騶	-11.2032
偷	-11.2032
浄	-11.2032
浴	-11.2032
莖	-11.2032
尅	-11.2033
酒醴	-11.2033
濡	-11.2033
疵	-11.2033
衿	-11.2033
枷	-11.2034
筆墨	-11.2034
綍	-11.2034
樣	-11.2035
六品已下	-11.2035
蝗	-11.2035
天夀山	-11.2035
鉦	-11.2036
成化二十二年	-11.2036
己酉	-11.2036
挈	-11.2036
数	-11.2036
毎匹	-11.2037
醴泉觀使	-11.2038
顔師古注	-11.2038
郝	-11.2038
諂	-11.2039
錦繡	-11.2039
臯陶	-11.2039
一般	-11.204
樞筦	-11.204
物件	-11.204
皇極門	-11.204
百日	-11.204
棠	-11.204
峒	-11.204
苑囿	-11.2041
掄選	-11.2041
洪武十七年	-11.2042
正徳元年	-11.2042
鑄造	-11.2043
尺工尺	-11.2044
中山王	-11.2044
除簽書樞密院事	-11.2047
九嬪	-11.2048
不肖	-11.2048
長沙	-11.2049
至元十年	-11.205
江西吉水人	-11.2051
尺六寸	-11.2051
七十二	-11.2052
從其請	-11.2053
梁燾	-11.2053
查究	-11.2054
朝政	-11.2056
上中下	-11.2058
天下之事	-11.206
海道	-11.2061
仲月	-11.2062
貨物	-11.2064
即如今	-11.2065
三法司	-11.2067
選授	-11.2068
邊事	-11.2069
翰林志	-11.2071
經學	-11.2071
謀猷	-11.2071
韓絳	-11.2072
六年三月	-11.2076
部侍郎	-11.2078
恩詔	-11.2081
柱下	-11.2083
御道	-11.2084
除尚書左丞	-11.2086
權衡	-11.2088
未定	-11.2089
祭社稷	-11.209
顔師古	-11.2093
之迹	-11.2094
曽布	-11.2094
𢎞治五年	-11.2095
告廟	-11.2095
鄉君	-11.2096
品第三	-11.2098
充貢	-11.2098
六年正月	-11.2098
十七日	-11.2099
開科	-11.2108
宣府	-11.2108
五百人	-11.2111
十有四人	-11.2112
更改	-11.2119
從六品下	-11.212
到監	-11.2121
正四品下	-11.2127
八座	-11.213
庚辰進士	-11.2134
上命禮部	-11.2138
坐營	-11.214
始設	-11.2144
從六品掌	-11.2146
大哉	-11.215
長吏	-11.2151
御文華殿	-11.2151
發回	-11.2157
於京師	-11.2158
儀刑	-11.216
歲時	-11.216
不須	-11.2161
社稷壇	-11.2161
等差	-11.2162
㑹計	-11.2163
平生	-11.2163
朝叅	-11.2168
月十六日	-11.2168
鳴賛	-11.2169
過期	-11.217
與安石	-11.2172
開寳	-11.2175
土官巡檢	-11.2179
真人	-11.2184
南史	-11.2188
固已	-11.2188
上曰此	-11.2191
殿西	-11.2191
宋綬	-11.2193
題覆	-11.2193
斯文	-11.2195
莫知	-11.22
總統	-11.22
尋陞	-11.2208
妃嬪	-11.2218
光明	-11.2229
經世	-11.2232
掌院	-11.2232
神武	-11.2234
俱要	-11.2238
陽侯	-11.2238
依前官	-11.2238
右副都御史	-11.2238
入謝	-11.2245
四輔	-11.2249
永清	-11.2254
府丞	-11.2257
編修官	-11.2259
不聽	-11.226
語言	-11.2261
紀載	-11.2267
象牙	-11.2278
唐時	-11.2279
歴年	-11.2281
樂生	-11.2281
司經局	-11.2284
多方	-11.2286
八十人	-11.2288
雲中	-11.2291
甚矣	-11.23
居左	-11.23
尺工	-11.2301
親祀	-11.2302
醴齊	-11.2302
稱職	-11.2303
覆勘	-11.2304
五品以下	-11.2305
分案	-11.231
統屬	-11.2311
士庶	-11.2314
准此	-11.2316
鞠衣	-11.2323
又考	-11.2323
址	-11.2323
從第五品	-11.2324
總兵官劄	-11.2325
晴	-11.2326
粲	-11.2326
九章	-11.2327
舁	-11.2328
羊一豕一	-11.233
𢎞治十四年	-11.233
鎖	-11.2331
膚	-11.2331
收拾	-11.2333
榆	-11.2334
髤	-11.2335
天順四年	-11.2335
舅姑	-11.2336
歲暮	-11.2336
掄	-11.2337
啟閉	-11.2337
通奉大夫	-11.2337
糺	-11.2338
日月星辰	-11.2339
宗正寺	-11.2339
朔朢	-11.234
無常員	-11.234
猥	-11.2341
賜福胙	-11.2341
倂	-11.2341
叟	-11.2342
堤	-11.2342
去取	-11.2342
丁母憂	-11.2342
平之章	-11.2342
國子司業	-11.2342
張九齡	-11.2343
嗜	-11.2343
前漢	-11.2344
景㤗	-11.2344
攙	-11.2344
飼	-11.2345
當該	-11.2345
彥	-11.2345
貿易	-11.2345
章得象	-11.2345
癸	-11.2346
崇文院	-11.2346
遄	-11.2346
萬厯十年議准	-11.2346
學士承㫖	-11.2347
濕	-11.2348
獅子	-11.2348
遣使朝貢	-11.2348
四合四一	-11.2348
僞	-11.2348
寂	-11.2349
養贍	-11.2349
贇	-11.235
濤	-11.2351
誤也	-11.2352
蘊	-11.2353
适	-11.2354
曽公亮	-11.2354
司直郎	-11.2355
偁	-11.2355
南蠻	-11.2355
真定府	-11.2355
邃	-11.2356
著令	-11.2359
者方許	-11.236
淵源	-11.2361
舊徳	-11.2363
文武衙門	-11.2364
僅存	-11.2365
以慰	-11.2366
右司諫	-11.2367
親蠶	-11.2369
諸倉	-11.2369
正綂	-11.237
之所由	-11.2371
蔡攸	-11.2371
異姓	-11.2373
阿里	-11.2374
協律	-11.2378
課程	-11.2379
夏言	-11.2379
歸徳	-11.238
罷去	-11.2382
册寳	-11.2383
兩廂	-11.2387
廊廟	-11.2388
儀曹	-11.2388
二升	-11.2389
遇事	-11.2389
駕還	-11.239
加意	-11.2391
隆興	-11.2392
進士舉人	-11.2392
陪京	-11.2393
東路	-11.2394
魏國公	-11.2394
印結	-11.2397
言陛下	-11.2402
大理寺卿	-11.2402
幸甚	-11.2404
養老	-11.2404
永豐	-11.2408
非其人	-11.2409
天眷	-11.241
不避	-11.241
敷文	-11.2411
乾徳	-11.2412
茶食	-11.2414
滿洲一人	-11.2414
照常	-11.2417
宿直	-11.2419
甄官	-11.2425
一斤八兩	-11.2428
忠信	-11.2432
莫敢	-11.2433
宗尹	-11.2434
翼翼	-11.2434
衢州	-11.2434
之年	-11.2435
監規	-11.2436
大徳十一年	-11.2436
足矣	-11.2444
曽孫	-11.2444
遷延	-11.2446
四年八月	-11.2446
愛民	-11.2449
醫生	-11.2449
四疋	-11.2449
第二子	-11.245
成化五年	-11.245
青龍	-11.245
六軍	-11.2451
又稱	-11.2452
宫城	-11.2461
冊寳案	-11.2461
左門出	-11.2463
甚衆	-11.2466
律吕	-11.2472
六十四	-11.2477
冲人	-11.2478
不可考	-11.2481
更衣	-11.2482
金飾	-11.2484
直館	-11.2488
江西南昌	-11.2489
四拜樂止	-11.2489
生靈	-11.2491
二十四日	-11.2492
後隨	-11.2493
入太學	-11.2493
東廂	-11.2495
次輔	-11.2496
大司徒	-11.2496
宣徳七年	-11.2498
分撥	-11.2501
推舉	-11.2519
無間	-11.252
國論	-11.2528
應該	-11.2539
必求	-11.254
昌隆	-11.2543
鄉里	-11.2545
文淵閣大學士	-11.2545
天顔	-11.2546
莫若	-11.2546
如法	-11.2548
次詣	-11.2552
大司空	-11.2555
三年正月	-11.2555
給散	-11.2556
徳音	-11.2558
宻院	-11.256
知院事	-11.2569
十九日	-11.2573
宏治	-11.2575
改授	-11.2581
謹案隋	-11.2583
元老	-11.2587
大匠	-11.2588
遑	-11.2591
銀一兩	-11.2595
交修	-11.2596
𢎞治十二年	-11.2608
預焉	-11.2609
少保兼	-11.2613
指揮使司	-11.2615
車騎	-11.2618
前例	-11.2622
虢	-11.2628
莽	-11.2632
九年定	-11.2636
王與妃	-11.2638
峯	-11.2639
職業	-11.2642
趺	-11.2643
睿宗獻皇帝	-11.2643
供用	-11.2644
法式	-11.2645
題奏	-11.2646
醫學	-11.2646
宣慰使	-11.265
擡	-11.265
檀香	-11.265
霞帔	-11.265
啇	-11.265
誓戒	-11.2652
軍節度	-11.2652
揭帖	-11.2652
第八品	-11.2653
科道官	-11.2653
晉書職官志	-11.2653
倭	-11.2654
劑	-11.2654
五年正月	-11.2654
媒氏	-11.2655
復古	-11.2655
亥	-11.2656
土官知府	-11.2656
紅緑	-11.2656
撮	-11.2656
者罪之	-11.2657
綿布	-11.2658
陞本司郎中	-11.2659
塤	-11.2659
選充	-11.266
旻	-11.266
飄	-11.266
梯	-11.266
罇	-11.266
球	-11.266
伋	-11.266
夏原吉	-11.266
毓	-11.2661
胡椒	-11.2661
鄴	-11.2661
至聖先師孔子	-11.2662
管鑰	-11.2662
福州	-11.2662
驤	-11.2662
薰	-11.2664
纉	-11.2664
端明殿學士簽書樞密院事	-11.2664
企	-11.2664
靠	-11.2664
秩千石	-11.2664
闌	-11.2665
左氏	-11.2665
郎中員外郎主事	-11.2666
股	-11.2666
軍民人等	-11.2666
丁卯	-11.2666
萬壽聖節	-11.2666
紗㡌	-11.2667
朝退	-11.2667
悃	-11.2668
以侍讀充	-11.2668
丘濬	-11.2669
叠	-11.2669
恭知政事	-11.2669
擅婚	-11.2669
衘	-11.267
賛禮唱	-11.267
將仕郎	-11.267
漿	-11.267
宣徽南院使	-11.2671
裹	-11.2671
添註	-11.2672
苞	-11.2672
步軍統領	-11.2672
紘	-11.2673
仲舒	-11.2673
韓世忠	-11.2674
傲	-11.2674
琢	-11.2674
戡	-11.2675
籖	-11.2675
丸	-11.2675
承天門外	-11.2676
聮	-11.2676
周禮夏官	-11.2676
封駮	-11.2676
竹木	-11.2677
府一人史二人	-11.2677
副總兵	-11.2677
髙墻	-11.2678
登聞鼓	-11.2679
宥密	-11.268
刋刻	-11.2681
後改為	-11.2681
中臺	-11.2684
該本部尚書	-11.2687
防禦使	-11.2688
耆老	-11.2688
詣拜位	-11.2688
干預	-11.269
張商英	-11.2691
支米	-11.2691
郎中一人員外郎	-11.2692
長慶	-11.2692
京兆河南	-11.2693
皇妣	-11.2694
不獲	-11.27
有竒	-11.2704
環衛	-11.2704
相去	-11.2707
委曲	-11.2708
昇平	-11.2708
覈實	-11.2708
左諭徳	-11.2709
嘉靖十六年	-11.2717
東西序立	-11.2719
歴仕	-11.2719
鹽鐡使	-11.272
許衡	-11.2722
外戚	-11.2722
所欲	-11.2723
誕敷	-11.2724
頗有	-11.2725
具啓	-11.2725
漢武	-11.2728
被遇	-11.2729
取具	-11.2731
隨班行禮	-11.2731
安徽	-11.2737
郡太守	-11.2741
寵光	-11.2749
坐堂	-11.2753
神龍元年	-11.2754
違禁	-11.2754
禮部韻	-11.2759
延祐元年	-11.2759
黄履	-11.2759
鄭氏	-11.276
謹序	-11.276
郡邑	-11.276
彼處	-11.2766
講求	-11.2767
二人位于	-11.2767
五釐	-11.2771
千户所	-11.2772
宫室	-11.2773
𢎞治八年	-11.2775
欽宗	-11.2778
其政令	-11.2779
四年九月	-11.278
玉色	-11.2783
羊一隻	-11.2789
東臺	-11.2791
掖門	-11.2795
將帥	-11.2801
南仲	-11.2804
開列	-11.2804
附㑹	-11.2805
清江	-11.2805
祖父母	-11.2806
懿文	-11.2811
皆南向	-11.2811
靡不	-11.2812
集賢殿	-11.2813
一祝文	-11.2818
五年四月	-11.282
墳所	-11.2824
之訓洪武	-11.2825
月初三日	-11.283
賞例	-11.2835
吏治	-11.2844
始此	-11.2845
世職	-11.2848
遂廢	-11.2848
宋代	-11.2852
司天監	-11.2854
事下禮部	-11.2862
仍乞	-11.2866
革職	-11.2867
掌邦國	-11.2868
世忠	-11.2869
白玉	-11.2872
給度	-11.2873
月初十日	-11.2873
宫僚	-11.2874
表章	-11.2875
益重	-11.2876
優長	-11.2878
年任右侍郎	-11.288
此意	-11.2882
西廂	-11.2887
求賢	-11.289
歴法	-11.2893
降革	-11.2896
近代	-11.2899
六鄉	-11.2899
曽祖	-11.29
典儀唱徹饌	-11.29
各府州縣	-11.2905
校人	-11.2906
土官知州	-11.2909
洪武二十六年	-11.291
篚一	-11.2912
永興	-11.292
金華	-11.2921
陞禮部右侍郎	-11.2922
三十名	-11.2922
惟恐	-11.2925
奠獻	-11.2926
禮部員外郎	-11.2927
二百六十	-11.2929
音樂	-11.293
徳勝	-11.2932
乾隆三年	-11.2935
另行	-11.2936
惠帝	-11.2937
請太祖	-11.2939
弼諧之	-11.2939
嘉靖三十年	-11.2942
麻布	-11.2943
御奉天門	-11.2948
襄陽	-11.2948
罷樞宻使	-11.295
根本	-11.2952
無罪	-11.2954
功名	-11.2958
太牢	-11.2961
之道也	-11.2966
其後又	-11.2967
度牒	-11.2968
亦如今	-11.297
内院學士	-11.297
脯	-11.2977
御醫	-11.2979
隰	-11.2979
功過	-11.2979
别將	-11.2979
桶	-11.2981
佩綬	-11.2983
洩	-11.2985
租庸	-11.2985
治書侍御史	-11.2986
灋	-11.2986
二百八十	-11.2988
僎	-11.2989
方伯	-11.2989
埸	-11.2989
挽	-11.299
衣一套	-11.299
其國王	-11.299
餼	-11.299
歿	-11.2991
六科給事中	-11.2991
禮科都給事中	-11.2991
行五拜三叩頭禮	-11.2991
欽定四庫全書唐六典卷	-11.2992
户曹	-11.2992
泳	-11.2992
筆且齊	-11.2993
鳴鐘鼓	-11.2993
雇	-11.2993
鎗	-11.2993
袒	-11.2993
鞠躬拜興拜興平身	-11.2993
訃聞	-11.2995
椀	-11.2995
甎	-11.2995
帨	-11.2995
皇極	-11.2996
緝熙	-11.2996
永樂大典	-11.2996
雍正五年	-11.2996
挑	-11.2996
一前期二日	-11.2997
竿	-11.2997
醋	-11.2997
十餘萬	-11.2997
過失	-11.2997
征討	-11.2998
琛	-11.2998
倪岳	-11.2998
犬	-11.2998
臆	-11.2999
碎	-11.2999
紙劄	-11.2999
瀛洲	-11.2999
勸懲	-11.3
倬	-11.3
奉朝請	-11.3
遼史	-11.3001
飲福位	-11.3001
姬	-11.3001
配饗	-11.3001
家居	-11.3001
吉凶	-11.3002
它	-11.3002
劣	-11.3002
夏竦	-11.3003
遣官致祭	-11.3003
駢	-11.3003
加太子太保	-11.3004
訐奏	-11.3004
嵗貢生	-11.3004
順天宛平人	-11.3005
鳩	-11.3006
十兩重	-11.3006
皂𨽻	-11.3007
寒暑	-11.3007
屛	-11.3007
要當	-11.3007
近年以來	-11.3008
立春	-11.3009
暘	-11.3009
堰	-11.3009
峩	-11.3009
懇辭	-11.3009
蓬萊	-11.301
文館	-11.301
台吉	-11.301
鏜	-11.301
摧	-11.301
戸部侍郎	-11.3011
黄瓦	-11.3011
欽此嘉靖二十	-11.3012
胡儼	-11.3013
龍圖閣學士	-11.3013
璿	-11.3013
閏二月	-11.3013
疇咨	-11.3014
覺羅	-11.3015
侍郎充	-11.3016
叩首	-11.3017
宫牆	-11.3017
煌煌	-11.3018
㸔得	-11.302
錢榖	-11.3022
獻俘	-11.3023
八十一	-11.3024
三年一貢	-11.3026
永樂八年	-11.3028
宣徽使	-11.3029
機衡	-11.303
第幾	-11.3031
朝鮮國王	-11.3033
正統間	-11.3033
博士㕔	-11.3034
風教	-11.3038
進表箋	-11.3038
寳鈔	-11.3039
藩鎮	-11.304
慶元	-11.3041
中士二人	-11.3042
奠酒	-11.3043
名儒	-11.3044
大宗伯	-11.3045
教育	-11.3047
上御奉天門	-11.3049
丁度	-11.3051
石刻	-11.3053
幾務	-11.3056
父老	-11.3057
留邉	-11.3057
程式	-11.3058
依違	-11.3058
除尚書右丞	-11.3059
耳今	-11.3062
姊妹	-11.3063
糾舉	-11.3067
府長史	-11.3068
爾雅	-11.307
罷黜	-11.3071
八寸	-11.3071
七月奉聖㫖	-11.3072
各館	-11.3073
備顧問	-11.3074
檢討充	-11.3074
告假	-11.3075
庫藏	-11.3075
王黼	-11.3079
之類皆	-11.3079
重地	-11.308
恩數	-11.308
復辟	-11.3081
諡法	-11.3083
協恭	-11.3087
三孤	-11.3089
編管	-11.3089
押班	-11.3089
福胙	-11.3092
咸寧	-11.3092
憲章	-11.3096
敬謹	-11.3097
登壇	-11.3099
樂部	-11.3099
殿大學士	-11.3101
乗馬	-11.3103
曽經	-11.3107
山澤	-11.3109
易簡	-11.3112
獻皇帝	-11.3112
天語	-11.3115
五十四	-11.3117
伏見	-11.3117
擇吉	-11.312
殿門外	-11.3122
十有八	-11.3123
公羊	-11.3124
導從	-11.3126
一區	-11.3131
萬貫	-11.3132
二千五百	-11.3133
雅樂	-11.3134
祖陵	-11.3135
新城	-11.3137
厥職	-11.3137
右庶子	-11.3139
嚴禁	-11.3139
特簡	-11.3145
道監察御史	-11.3147
四年六月	-11.3149
應變	-11.3153
宰司	-11.3154
十四年任	-11.3157
凡内外	-11.3159
福建晉江人	-11.3159
授受	-11.3173
末年	-11.318
五十二	-11.3181
便服	-11.3191
文皇帝	-11.3195
魏世	-11.3197
妃家	-11.3197
紹聖元年	-11.3199
景泰四年	-11.3204
開報	-11.3208
得象	-11.3209
畢即	-11.3216
政機	-11.3217
訖樂止	-11.3219
别建	-11.322
知貢舉	-11.322
平聲	-11.322
止稱	-11.322
經營	-11.322
元輔	-11.3221
民情	-11.3221
過犯	-11.3224
筆帖式滿洲	-11.3227
配天	-11.3229
議叙	-11.3233
元世祖	-11.3245
木主	-11.3249
故當時	-11.3251
鑄印	-11.3259
洪武九年	-11.3271
則用之	-11.3271
于殿内	-11.3282
防守	-11.3283
請自今	-11.3286
左右翼	-11.3286
未嘗有	-11.3289
具列	-11.3295
此職	-11.3296
賛冠者	-11.3302
隨班	-11.3309
九員	-11.3311
選貢	-11.3311
捧冊寳	-11.3311
道德	-11.3312
夘	-11.3318
諸夷	-11.3319
扎瑪里鼎	-11.3322
䕶軍統領	-11.3324
遴	-11.3325
靖江王	-11.3326
樂暫止	-11.3328
襈	-11.3329
盾	-11.3329
扛	-11.333
劵	-11.333
債	-11.333
汙	-11.3331
太平御覽	-11.3331
襟	-11.3332
纂輯	-11.3332
杓	-11.3333
十六員	-11.3333
綂	-11.3334
奴婢	-11.3334
挐	-11.3334
舖	-11.3334
掌詹事府事	-11.3334
奔走	-11.3334
孝𤣥孫嗣皇帝某	-11.3335
世祖章皇帝	-11.3335
煒	-11.3335
繖	-11.3335
襯	-11.3336
逆瑾	-11.3336
羨	-11.3336
泌	-11.3337
酒盞	-11.3337
辛卯	-11.3337
艘	-11.3337
帛一段	-11.3337
訾	-11.3337
曜	-11.3337
耒耜	-11.3338
讀卷官	-11.3338
𦕈	-11.3338
黍稷	-11.3338
燧	-11.3339
虡	-11.3339
引班引	-11.3339
樂章迎神	-11.3339
程敏政	-11.3339
仝	-11.334
釋褐	-11.334
詞林典故	-11.334
由左門入	-11.334
合行事宜	-11.334
皇天	-11.3341
儐	-11.3341
璘	-11.3342
航	-11.3342
殤	-11.3343
啟聖祠	-11.3343
候命下	-11.3343
舞蹈	-11.3343
榛	-11.3343
福建閩縣人	-11.3343
鎮江府	-11.3344
糊	-11.3344
顔孟	-11.3344
檢校太傅	-11.3345
呈堂上官	-11.3345
招討使	-11.3345
懦	-11.3345
冡	-11.3345
晰	-11.3345
峪	-11.3345
天地宗廟社稷	-11.3346
瑗	-11.3346
撰述	-11.3346
祕閣校理	-11.3347
囑	-11.3347
餌	-11.3347
耶律	-11.3347
宣慰使司	-11.3347
錢習禮	-11.3347
構	-11.3348
菲	-11.3348
孔安國傳	-11.3348
低	-11.3348
于午門外	-11.3348
迂	-11.3348
采輿	-11.3349
額森	-11.3349
旛	-11.3349
燿	-11.335
江西泰和人	-11.335
杞	-11.335
布按二司	-11.335
貨賄	-11.3351
孽	-11.3351
宣冊	-11.3351
捧神主	-11.3351
移駐	-11.3352
東嶽	-11.3352
䂓	-11.3353
大學士李賢	-11.3353
衆官皆跪	-11.3353
僧尼	-11.3353
規矩	-11.3353
姿	-11.3354
讀祝訖	-11.3355
品第七	-11.3355
宗儀	-11.3355
上駟院	-11.3355
翰林儒臣	-11.3355
齋宿	-11.3355
大官令	-11.3355
隷	-11.3356
光祿卿	-11.3357
楊億	-11.3358
鄭𤣥	-11.3358
芸	-11.3358
大昕	-11.3358
千秋節	-11.3358
正統十四年	-11.3358
御案前	-11.3359
謹案五季	-11.336
譬	-11.336
是年七月	-11.3363
巴延	-11.3363
未㡬	-11.3364
修起居注	-11.3364
左右監門	-11.3364
著做	-11.3364
整肅	-11.3365
一人正八品下	-11.3366
迎駕	-11.3367
人驍騎校	-11.3369
祔葬	-11.3369
亳	-11.3369
排班	-11.3371
揆路	-11.3373
山西陜西	-11.3373
壬子	-11.3374
司市	-11.3375
馬融	-11.3376
繁簡	-11.3376
彥博	-11.3377
内外命婦	-11.3378
姓氏	-11.3381
隆慶初	-11.3382
源流	-11.3383
孝惠	-11.3383
退復位	-11.3383
唐六典卷	-11.3384
不顧	-11.3384
直閣	-11.3384
午門前	-11.3385
庶績	-11.3387
兼樞密使	-11.3388
𤣥孫	-11.3388
吏部篇	-11.3391
不悛	-11.3392
秦州	-11.3392
季春	-11.3393
草木	-11.3397
臺省	-11.3399
秩滿	-11.3401
泉州	-11.3401
仁夀	-11.3402
預修	-11.3403
吉林	-11.3404
授檢討	-11.3405
詞林	-11.3408
録事二人	-11.341
嘗謂	-11.3416
亦不得	-11.3417
進香	-11.3417
蔡氏	-11.3417
詔獄	-11.3419
降㫖	-11.3419
上尊號	-11.342
顯慶	-11.342
錢帛	-11.342
孝肅	-11.3422
准作	-11.3425
案呈	-11.3426
屬焉	-11.3427
侍講充	-11.3431
旬日	-11.3433
端拱	-11.3434
宴畢	-11.345
聖裔	-11.3455
𢎞治十	-11.3455
竊見	-11.3459
失職	-11.3473
武昌	-11.3474
土地	-11.3475
府州縣學	-11.3476
體國	-11.3477
青色	-11.3478
二個	-11.3483
不諳	-11.3483
社學	-11.349
朝野	-11.3495
光禄寺卿	-11.3501
太和中	-11.3502
生辰	-11.3504
布一疋	-11.3507
奬諭	-11.3507
歎曰	-11.3507
秋祭	-11.3512
葢如今	-11.3514
違法	-11.3515
重違	-11.3518
可嘉	-11.352
四孟	-11.352
變更	-11.3522
周易	-11.3523
尺一寸	-11.3523
以本官	-11.3525
月二十五日	-11.3527
濟寧	-11.3533
江西南昌人	-11.3539
官僚	-11.3545
考核	-11.3546
告歸	-11.3548
封還	-11.3557
楚王	-11.3558
閣下	-11.3559
殿廷	-11.3562
功課	-11.3564
由來	-11.3569
武徳初	-11.3574
崇祀	-11.3581
道統	-11.3585
二十六日	-11.3588
有乖	-11.3599
官之長	-11.3599
建廟	-11.3599
營建	-11.3609
還鄉	-11.3618
日厯	-11.3621
宫眷	-11.3621
鴻臚卿	-11.3624
漢教習	-11.3624
清理	-11.3624
稍南	-11.3629
不赴	-11.3638
賛復位	-11.3639
樂作四拜樂止	-11.3642
西洋	-11.3645
勘㑹	-11.3646
皇朝改	-11.3647
各十人	-11.3647
團練	-11.3653
正統四年	-11.3656
西臺	-11.3659
府同知	-11.366
几筵殿	-11.3663
採訪	-11.3671
人樂舞生	-11.3671
先務	-11.3674
守衞	-11.3675
甲第	-11.3679
盒	-11.3682
豹尾	-11.3683
拖	-11.3686
教國子	-11.3687
旺	-11.3687
四兩燭	-11.3688
太宗文皇帝	-11.3689
牟	-11.3689
陂	-11.3689
迷	-11.3689
鬢	-11.369
朝日壇	-11.369
絡	-11.369
捧祝帛饌	-11.3691
衣一襲	-11.3691
砂糖	-11.3691
粱	-11.3691
騙	-11.3692
潰	-11.3692
坫	-11.3692
蟒	-11.3693
悍	-11.3694
吳澄	-11.3694
戊戍	-11.3694
舟檝	-11.3695
烹	-11.3695
陳廷敬	-11.3696
庀	-11.3697
祈穀	-11.3697
黷	-11.3698
劒	-11.3698
教坊司跪奏	-11.3698
皓	-11.3699
犯法	-11.3699
讜	-11.3699
誡	-11.37
亞獻豫和	-11.37
狗	-11.37
慘	-11.3701
憶	-11.3701
住持	-11.3701
咨送吏部	-11.3702
撻	-11.3703
𢎞文館	-11.3703
理事官	-11.3703
怙	-11.3704
奸弊	-11.3704
紫宸	-11.3704
攜	-11.3705
嚢	-11.3705
洪範	-11.3705
麓	-11.3706
特享	-11.3706
發運使	-11.3707
悚	-11.3707
正統十年	-11.3707
繚	-11.3707
比千石	-11.3707
熺	-11.3708
羗	-11.3708
奔競	-11.3708
瘠	-11.3708
束帶	-11.3708
宣徳八年	-11.3709
濟南	-11.3709
沼	-11.3709
見郎中下	-11.371
雍熈	-11.371
涓	-11.371
牝	-11.371
武庫令	-11.3711
清漢文	-11.3711
提調學校	-11.3711
百戸	-11.3713
范祖禹	-11.3713
江浙	-11.3714
秩二千石	-11.3714
續文獻通考	-11.3715
嚴嵩	-11.3715
璇	-11.3716
碉	-11.3716
陪敦	-11.3717
在相位	-11.3718
殘疾	-11.3718
恭詣	-11.3721
撥厯	-11.3721
丗	-11.3722
氐	-11.3723
知陳州	-11.3723
太僕寺卿	-11.3725
歩兵	-11.3727
石渠	-11.3727
姑息	-11.3727
輪流	-11.373
除流官	-11.3734
丕圖	-11.3735
内三院	-11.3737
永樂三年定	-11.3737
太祖太宗	-11.3738
徽章	-11.3739
算法	-11.374
孝穆	-11.3741
看守	-11.3742
七十五	-11.3745
指揮僉事	-11.3746
㸃視	-11.3748
蒼生	-11.375
廕生	-11.3751
皇族	-11.3751
是年五月	-11.3752
本州知州	-11.3752
午後	-11.3753
降指揮	-11.3754
尚書右僕射	-11.3756
水火	-11.3761
百揆	-11.3762
侯國	-11.3763
好問	-11.3763
聖旦	-11.3763
兹遇	-11.3765
前代之	-11.3766
節該	-11.3769
稱㫖	-11.377
鹽政	-11.3775
滁州	-11.3785
㕘軍	-11.3788
八尺	-11.379
不息	-11.3791
宫殿門	-11.3792
泰陵	-11.3793
兼攝	-11.3798
五十三	-11.3802
并在外	-11.3803
五輅	-11.3804
燕居	-11.3805
廂房	-11.3806
封郡王	-11.3807
奏出圭	-11.3807
風雲	-11.3808
死罪	-11.381
似應	-11.3814
邊衛	-11.3818
秉政	-11.382
右諫議大夫除	-11.3824
某官某	-11.3832
營求	-11.3837
親王妃	-11.3838
無愧	-11.384
敢忘	-11.3841
景山	-11.3851
妻妾	-11.3852
於殿内	-11.3853
改吏部	-11.3854
臨清	-11.3856
荆南	-11.3857
贊禮畢	-11.3861
講解	-11.3862
朕念	-11.3863
金繡	-11.3867
簿籍	-11.3869
豐年	-11.3872
一尺六尺	-11.3872
莫重	-11.3876
月二十日	-11.3881
經筵日講	-11.3886
宫伯	-11.389
色目	-11.3895
教師	-11.3896
回賜	-11.3899
軍校	-11.3899
朕甚	-11.3901
衆多	-11.3937
冊表	-11.3939
不恤	-11.394
恤民	-11.3941
既久	-11.3947
俸錢	-11.3951
仰承	-11.3955
賜予	-11.3957
六館	-11.396
弋	-11.3969
二百七十	-11.3977
賜諡	-11.3984
每季	-11.3987
差委	-11.3991
第六品	-11.3992
仁宗皇帝	-11.3994
羣書	-11.3997
隆慶四年	-11.4018
奠帛行初獻禮	-11.4018
旗軍	-11.4022
幸太學	-11.4027
君父	-11.4029
奉武宗皇帝聖㫖	-11.403
雲漢	-11.403
楊溥	-11.4032
嘉靖三十一年	-11.4034
中大夫二人	-11.4034
觶	-11.4037
瓷	-11.4046
建寧	-11.4047
紗中單	-11.4055
吏司郎中滿洲漢人各一人員外郎滿洲	-11.4055
驛驛丞	-11.4056
濱	-11.4057
麓川	-11.4058
渤海	-11.4059
採桑	-11.4059
伎	-11.4059
犢一羊一豕一	-11.4059
腦	-11.4059
斤荔枝圓眼各	-11.406
兀	-11.406
煎	-11.4061
沽	-11.4063
正白旗	-11.4063
搭	-11.4063
暹	-11.4063
自漢以來	-11.4063
恁	-11.4064
鏗	-11.4064
弓弩	-11.4064
嗇	-11.4065
絨	-11.4066
三輔黄圖	-11.4066
憲宗純皇帝	-11.4066
鷺	-11.4066
點檢	-11.4066
不列於表	-11.4067
盝	-11.4067
搏	-11.4068
捜	-11.4068
繕寫	-11.4069
招撫	-11.4071
耻	-11.4071
瑩	-11.4071
舂	-11.4071
牲牢	-11.4071
逓減	-11.4072
筋	-11.4072
灰	-11.4073
譲	-11.4074
奉議大夫	-11.4074
府四人史八人	-11.4074
觸	-11.4075
整飭	-11.4075
飽	-11.4075
直祕閣	-11.4075
至大元年	-11.4076
成化十八年	-11.4076
電	-11.4076
皇地祇	-11.4077
千萬	-11.4077
巡狩	-11.4077
左司諫	-11.4078
媒	-11.4078
澈	-11.4078
湜	-11.4078
隲	-11.4079
迤北	-11.4079
燕京	-11.4079
襲替	-11.408
巢	-11.4081
㢤	-11.4081
隋煬帝置	-11.4081
檢校太師	-11.4081
賈公彦疏	-11.4082
周禮天官	-11.4083
劉定之	-11.4083
宣徳十年	-11.4084
楨	-11.4084
砌	-11.4086
陞右侍郎	-11.4087
疾苦	-11.4087
福建莆田人	-11.4088
磨勘司	-11.4089
藩邸	-11.4089
據此則	-11.409
籍記	-11.4091
扆	-11.4092
隴右	-11.4094
東西廡	-11.4095
府二人史二人	-11.4096
學正學録	-11.4097
綱目	-11.4097
𢎞治十一年	-11.4097
任祠祭司	-11.4098
阿桂	-11.4098
孟夏	-11.4098
知亳州	-11.4099
通政使司	-11.4102
月三十日	-11.4105
各該衙門	-11.4107
於奉先殿	-11.4107
上御奉天殿	-11.4111
敬慎	-11.4113
進士萬厯十	-11.4114
廩給	-11.4114
多遜	-11.4114
邊防	-11.4114
交結	-11.4118
兵柄	-11.4121
别為一	-11.4124
節鉞	-11.4125
大袖	-11.4126
指名	-11.4127
將作監	-11.4127
入塲	-11.4128
河南山東	-11.4128
簾前	-11.4129
車輿	-11.4129
獨斷	-11.4135
史冊	-11.4135
梁儲	-11.4135
第七	-11.4135
資格	-11.4136
清商	-11.4141
黄紙	-11.4146
府教授	-11.4149
除資政殿學士	-11.4152
撥給	-11.4153
皇帝陛下	-11.4156
聖躬	-11.4156
精詳	-11.4157
璽書	-11.416
齊衰	-11.4163
華亭	-11.4163
封禪	-11.4163
夏侯	-11.4165
彭年	-11.4165
天縱	-11.4167
殿中省	-11.4169
弋陽	-11.417
殿左門	-11.4171
真食	-11.4175
至正二十	-11.4175
巡檢司	-11.4177
于奉天門	-11.4177
月罷執政踰	-11.418
九族	-11.4181
察院	-11.4182
頒降	-11.4186
議大夫	-11.4187
列郡	-11.4188
冊寶	-11.4192
十有五人	-11.4193
尺一四合	-11.4201
除翰林學士	-11.4201
進士嘉靖十	-11.4202
意欲	-11.4205
昭示	-11.421
一員正八品	-11.4211
泰山	-11.4214
訪求	-11.4214
五十九	-11.4215
忠孝	-11.4222
如是則	-11.4224
甲兵	-11.4232
和林	-11.4235
程朱	-11.4236
浙江秀水人	-11.4242
黄色	-11.4249
考到	-11.425
就試	-11.4252
淮西	-11.4258
續定	-11.4276
質明	-11.4276
定䇿	-11.4279
罷在樞府凡	-11.428
因革	-11.4282
眷言	-11.4283
曰朕惟	-11.4294
祭先農	-11.43
照數	-11.4305
章獻	-11.4307
國勢	-11.431
見少	-11.4311
四十名	-11.4312
作弊	-11.4318
四品以下	-11.4323
塗金	-11.4337
五月奉聖㫖	-11.4337
八年四月	-11.434
還京	-11.4342
尚書左僕射	-11.4344
領其事	-11.4344
𢎞治中	-11.4345
煬帝改	-11.4346
賛唱	-11.4351
嫡長子	-11.4356
樂止太常卿	-11.4356
齎捧	-11.4358
左右侍郎	-11.4359
受賞官	-11.4364
列代	-11.4375
御殿	-11.438
𢎞治六年	-11.4382
時祫	-11.4387
供奉官	-11.4389
順治初	-11.4389
給誥命	-11.4389
明史選	-11.4391
具疏	-11.4391
隻雞	-11.4398
沿襲	-11.4415
江西安福人	-11.4417
御奉天殿	-11.4417
飲福	-11.4419
檀	-11.442
四十七	-11.4424
字籍見員外下	-11.4433
三司㑹奏	-11.4433
沙木斯鼎	-11.4435
葦	-11.4436
只不世襲	-11.4437
舊額	-11.4438
慈孝獻皇后	-11.444
幃	-11.444
俺	-11.4441
宣徳四年	-11.4441
包香帛黄咨紙	-11.4441
宣慰	-11.4441
欝	-11.4442
本部覆題奉聖㫖	-11.4442
奉慈殿	-11.4442
髻	-11.4442
某年某月某	-11.4442
輔國中尉	-11.4442
稼穡	-11.4444
圈	-11.4444
設而不作	-11.4445
皇天上帝	-11.4445
騷擾	-11.4445
蔓	-11.4445
㮚	-11.4445
逈	-11.4446
塋	-11.4446
世宗肅皇帝	-11.4446
郎中一人員外郎一人主事	-11.4447
逝	-11.4448
裒	-11.4448
一百九十	-11.4448
䑕	-11.4449
政治	-11.4449
曙	-11.4449
枯	-11.445
豁	-11.4451
琬	-11.4451
寰	-11.4451
沈與求	-11.4452
糶	-11.4452
馮拯	-11.4452
二十七日而除	-11.4452
扁	-11.4453
翰詹	-11.4453
犧尊	-11.4453
河隄謁者	-11.4453
遙	-11.4454
柰	-11.4454
愁	-11.4455
妥	-11.4455
禕	-11.4455
朝散大夫	-11.4455
琰	-11.4456
鈔二十錠	-11.4456
棲	-11.4456
遣内官行禮	-11.4456
煦	-11.4456
架閣庫	-11.4456
駐蹕	-11.4456
翺	-11.4456
搢紳	-11.4456
浙江平湖	-11.4457
墮	-11.4457
禮部尚書夏言	-11.4457
咸亨元年復舊	-11.4458
吝	-11.4458
凰	-11.4458
暖	-11.4459
調儀制司	-11.4459
复	-11.4459
香爐	-11.4459
呂大防	-11.4459
筦	-11.4459
焚香	-11.4459
淄	-11.446
元豐官制行	-11.446
先期一日	-11.446
敔	-11.446
柯潛	-11.446
回紇	-11.4461
怡	-11.4461
察哈爾	-11.4462
陳瓘	-11.4462
鮮卑	-11.4462
熾	-11.4462
命儒臣	-11.4463
垂簾	-11.4463
酒盞三十	-11.4463
譁	-11.4463
靴韈各一雙	-11.4464
壹	-11.4464
𣣔	-11.4464
税課	-11.4464
緝熈	-11.4465
大業三年	-11.4466
芮	-11.4466
宵旰	-11.4466
憸	-11.4467
正統九年	-11.4467
輔導等官	-11.4467
卒年七十	-11.4468
巽	-11.4468
欽奉聖㫖	-11.4468
宣奉大夫	-11.4468
綜理	-11.4469
銀青光禄大夫	-11.4469
懲戒	-11.4469
靈臺郎	-11.447
冒濫	-11.4471
虹	-11.4471
韓縝	-11.4471
延祐七年	-11.4471
洙泗	-11.4471
和羮	-11.4472
拆毁	-11.4475
樞機之	-11.4476
昌黎	-11.4477
祗候	-11.4477
入監讀書	-11.4477
懸帶	-11.4478
雲南貴州	-11.4478
珩	-11.4478
俸禄	-11.4479
李邦彦	-11.4479
䕶喪	-11.448
嵗支禄米	-11.448
増損	-11.4482
監試官	-11.4482
左中允	-11.4484
三百名	-11.4485
吏部郎中	-11.4486
新疆	-11.4486
昆明	-11.4487
百餘年	-11.4488
諡忠	-11.4489
兵部員外郎	-11.4489
皆屬焉	-11.4493
蘇木	-11.4493
陛辭	-11.4493
尋又	-11.4494
執事者各	-11.4495
考覈	-11.4495
柔逺	-11.4496
御馬監	-11.4496
守禦千户所	-11.4497
運糧	-11.4498
臨川	-11.4499
十一年繇	-11.45
印記	-11.45
俱東西相向	-11.45
熈載	-11.4501
東向立	-11.4503
洪武三年定	-11.4503
岷王	-11.4504
茍且	-11.4504
玉帶	-11.4505
龍朔二年改為司	-11.4506
撰擬	-11.4508
折色	-11.4509
核實	-11.4516
風憲官	-11.4517
十有一人	-11.4517
跪叩	-11.4518
妣慈孝貞順仁敬誠一安天誕聖獻皇后	-11.4518
繼室	-11.4521
䘏典	-11.4525
東華門	-11.4525
朱衣	-11.4526
東郊	-11.453
查革	-11.4531
里老	-11.4532
十有三人	-11.4532
錄科	-11.4534
肄業諸生	-11.4535
東門入	-11.454
哲位	-11.4543
不遑	-11.4543
六廄	-11.4544
禮部議覆	-11.4547
臣等謹	-11.455
督學	-11.4559
備員	-11.4566
陵園	-11.4568
明太祖	-11.4576
正七品下	-11.4576
依律	-11.4577
誥勑	-11.4578
上是之	-11.4581
革退	-11.4581
親迎	-11.4582
一千二百	-11.4587
萬厯三年	-11.4588
南吕	-11.4595
一員從五品	-11.4596
輔佐	-11.4606
遺表	-11.4609
鳯陽	-11.461
保全	-11.4612
清吏司郎中滿洲	-11.4612
浙江山隂人	-11.4617
絹布	-11.4618
内賛導上	-11.4621
漢髙祖	-11.4622
于奉天殿	-11.4624
甘州	-11.4626
鴻臚寺卿	-11.4628
給米	-11.4635
候補	-11.4635
本寺題	-11.4643
受冊寳	-11.4646
羣工	-11.4651
再試	-11.4652
叅知	-11.4655
山海	-11.4658
台司	-11.4659
兼翰林院侍讀	-11.4664
予欲	-11.4664
務求	-11.4669
五十名	-11.4678
聖天子	-11.468
率衆	-11.468
隆慶五年	-11.4684
之義也	-11.4687
天順三年	-11.4691
日加知制誥	-11.4692
贊善大夫	-11.4695
劉健	-11.4716
續該	-11.4732
叅軍	-11.4732
御批	-11.4736
告替	-11.4739
粳米	-11.4747
洪熙	-11.4756
謹案魏	-11.4764
俸給	-11.4765
講經	-11.4766
該管	-11.4768
来朝	-11.4772
位於丹墀	-11.478
廟宇	-11.4787
自右諫議大夫	-11.4792
廵河官	-11.4794
等因奉聖㫖是欽此	-11.4797
魏文帝	-11.4801
布政使司	-11.4801
導引官導	-11.4801
銖	-11.4802
國初設	-11.4805
秒	-11.4811
文選司	-11.4812
幾何	-11.4813
褘衣	-11.4819
蓆	-11.4819
翎	-11.4821
嘉靖三十五年	-11.4823
蘆	-11.4826
冷	-11.4831
掲帖知㑹司禮監	-11.4831
祝版本紙二張包版黄白榜紙各一張	-11.4834
日輪	-11.4834
胡三省注	-11.4836
者麽道	-11.4836
西平侯	-11.4837
實録成	-11.4839
晳	-11.4839
四品五品	-11.484
厮	-11.484
繖扇	-11.484
驛遞	-11.4841
祝版一片	-11.4842
埒	-11.4843
秘書少監	-11.4843
年繇儀制司主事陞任	-11.4843
豊	-11.4843
十枝胡桃	-11.4844
八品九品	-11.4844
鎔	-11.4844
司賓引	-11.4844
緞	-11.4845
璲	-11.4847
郴	-11.4847
康熙三十八年省	-11.4847
江南桐城人	-11.4848
長蘆	-11.4848
筯	-11.4848
搜檢	-11.4848
陳承梁	-11.4848
卭	-11.4848
所在官司	-11.4849
奉都堂鈞㫖	-11.4849
肝	-11.4849
迓	-11.4849
瑀	-11.485
霤	-11.485
縷	-11.485
㨂	-11.485
寰宇	-11.485
李光地	-11.485
穆昆	-11.485
前期十日本寺題	-11.485
該本部看得	-11.4851
餽	-11.4851
瘡	-11.4851
人掌固六人	-11.4852
翥	-11.4852
瘴	-11.4852
簨	-11.4853
綦	-11.4853
吳元年	-11.4853
國子助教	-11.4853
殖	-11.4854
千牛備身	-11.4854
禮畢請還宫	-11.4854
大徳九年	-11.4855
賻	-11.4855
尚寶司	-11.4855
炬	-11.4855
筮	-11.4855
沖	-11.4856
擠	-11.4856
五府六部	-11.4856
趍	-11.4856
欄	-11.4857
盡瘁	-11.4857
侑食	-11.4858
分為三	-11.4858
凍	-11.4858
知紹興府	-11.4858
成化二十年	-11.4858
詒	-11.4859
綵段四表裏	-11.4859
脅	-11.4859
甌	-11.4859
冐濫	-11.4859
金紫光禄大夫	-11.4859
大明㑹典	-11.4859
腴	-11.486
縀	-11.486
鄭氏云	-11.486
廻	-11.4861
成化十七年	-11.4861
司爵官	-11.4861
牒呈	-11.4862
湯思退	-11.4863
列聖相承	-11.4863
穗	-11.4863
鳬	-11.4863
數萬	-11.4863
呼萬嵗	-11.4864
正徳十六年	-11.4864
耒	-11.4864
睢	-11.4865
藉田	-11.4865
靈星	-11.4867
成化八年	-11.4867
皇長孫	-11.4867
崑	-11.4868
戩	-11.4868
丕基	-11.4868
嫌疑	-11.4869
妓	-11.4869
碩輔	-11.4869
餘悉	-11.487
壯猷	-11.487
謝鐸	-11.487
糧儲	-11.487
赴行在	-11.4871
禹錫	-11.4872
祼	-11.4874
追貶	-11.4875
左諫議大夫	-11.4876
謁者臺	-11.4877
欺罔	-11.4878
什物	-11.488
親姪	-11.488
編纂	-11.488
河南洛陽	-11.4881
擯	-11.4883
納采	-11.4886
即位之初	-11.4886
知樞宻院	-11.4886
判度支	-11.4888
嫡孫	-11.489
不自安	-11.4891
雱	-11.4892
璧水	-11.4893
掾屬	-11.4893
萬厯七年	-11.4894
戰國	-11.4894
尼山	-11.4895
啓請	-11.4895
丹陽	-11.4896
十二箇	-11.4897
皇太子諸王	-11.4897
所自始	-11.4899
奉聖㫖這	-11.49
萬厯九年	-11.49
濫收	-11.49
情弊	-11.4903
兆民	-11.4905
宗正卿	-11.4906
江隂	-11.4906
除知樞密院事	-11.4908
流俗	-11.4911
制置使	-11.4912
親王郡王	-11.4912
宣徳三年	-11.4913
逺猷	-11.4914
人丙辰進士	-11.4917
馮京	-11.4919
廵視	-11.492
四裔	-11.4923
孝弟	-11.4923
三十斤	-11.4924
以副朕	-11.4924
蒙古語	-11.4924
主事陞任	-11.4927
下項	-11.4928
肄業生	-11.4933
審刑	-11.4934
褥位	-11.4939
風采	-11.4944
伏闕	-11.4944
機政	-11.4945
倫理	-11.4952
華林	-11.4956
正統八年	-11.4956
誠恐	-11.496
丞各二人	-11.4961
永樂九年	-11.4963
李紹	-11.4964
衞士	-11.4967
刑罰	-11.4967
副指揮	-11.4967
自太中大夫	-11.4971
書板	-11.4971
成化初	-11.4973
男趙	-11.4978
同考官	-11.4985
從四品上	-11.499
大徳五年	-11.5001
堂上官一員	-11.5001
翼日	-11.5003
大行令	-11.5004
内侍官捧	-11.5008
無忘	-11.5012
可考見	-11.5013
異端	-11.5019
第一品	-11.5021
城隍之神	-11.5037
留意	-11.504
絶嗣	-11.5041
敷奏	-11.5044
四年五月	-11.5046
散館	-11.5046
洪武三十年	-11.505
斤栗子	-11.5052
正德四年	-11.5066
捧寳	-11.5067
導駕	-11.5075
此輩	-11.5079
尚書蹇義	-11.5082
行人司	-11.5088
十二卷	-11.5092
十一年任	-11.5093
諸畨	-11.5114
隋煬帝	-11.5114
英宗皇帝	-11.5126
視草	-11.5142
精膳	-11.5145
丞三人	-11.5146
十有三	-11.5163
漢人二人	-11.5166
諸王府	-11.5186
直宿	-11.5194
導遣官	-11.5196
跪搢笏	-11.5206
廕子	-11.5219
合尺一合	-11.5223
拔貢	-11.523
雍正四年	-11.5231
至元六年	-11.5232
一統志	-11.5247
綘	-11.5252
白咨紙	-11.5252
畆	-11.5253
衾	-11.5253
饔	-11.5253
行奉慰禮	-11.5253
弑	-11.5254
麒	-11.5256
托克托	-11.5257
耕藉	-11.5257
鳳翔	-11.5257
司經局洗馬	-11.5258
北魏魏書官氏志	-11.5258
領侍衛内大臣	-11.5258
跟	-11.5259
們	-11.5259
提控	-11.526
陳元龍	-11.526
襄垣王	-11.526
率更令	-11.526
趾	-11.526
剡	-11.5262
珊瑚	-11.5262
鶚	-11.5263
鍳	-11.5263
糜	-11.5263
嗣天子臣	-11.5263
粘	-11.5264
六品七品	-11.5264
導引官導皇帝	-11.5264
薛居正	-11.5265
哷	-11.5265
柘	-11.5265
璫	-11.5266
澶	-11.5266
祭二壇	-11.5266
某月某日	-11.5266
翬	-11.5266
之事丞為之貳凡	-11.5266
崇儒重道	-11.5266
㓕	-11.5267
孜孜	-11.5267
元貞元年	-11.5267
匝	-11.5267
緘	-11.5267
拙	-11.5267
陞主客司員外郎	-11.5268
怯	-11.5268
陞本司員外郎	-11.5269
䕶軍㕘領	-11.527
瀘	-11.527
菁	-11.527
行五拜三叩頭禮畢	-11.527
絳朝服	-11.527
彛倫	-11.527
圓明園	-11.527
縻	-11.527
繒	-11.527
文徳之舞	-11.5271
烽	-11.5271
閨	-11.5271
陞座樂止	-11.5271
儀同初獻	-11.5271
寤	-11.5272
丁夘	-11.5272
侔	-11.5272
飢	-11.5272
太僕寺少卿	-11.5272
憩	-11.5272
鵞	-11.5273
思善門外	-11.5273
中散大夫	-11.5273
犒	-11.5273
闗内侯	-11.5274
塩	-11.5274
拜位之北	-11.5274
如淳曰	-11.5274
仲尼	-11.5274
鄭康成註	-11.5274
行慶賀禮	-11.5274
彌縫	-11.5274
花釵	-11.5275
至元十五年	-11.5275
都督同知	-11.5275
豚	-11.5275
爕	-11.5276
六佾	-11.5276
設官分職	-11.5276
梗	-11.5276
江南無錫	-11.5276
丹陽尹	-11.5277
亘	-11.5277
莫先於	-11.5278
詹事府詹事	-11.5278
盤盞	-11.5278
秘書監裏	-11.5278
卹	-11.5278
牡	-11.5278
知經筵事	-11.5279
悌	-11.5279
治以重罪	-11.5279
中郎将	-11.5279
肘	-11.5279
珂	-11.528
芡實	-11.528
渴	-11.528
月初四日	-11.528
拱手	-11.5281
河隄	-11.5281
栻	-11.5281
沅	-11.5281
型	-11.5281
眇	-11.5281
糧餉	-11.5282
蹙	-11.5282
摶	-11.5282
灝	-11.5282
稟	-11.5282
藪	-11.5282
芾	-11.5283
宄	-11.5283
㫤	-11.5284
辛夘	-11.5284
成化七年	-11.5285
大行皇帝	-11.5285
羅衣一套	-11.5285
閏四月	-11.5285
愿	-11.5286
王鏊	-11.5286
頒行天下	-11.5287
孫抃	-11.5287
知諫院	-11.5288
京城内外	-11.5288
銀青光祿大夫	-11.5288
韓愈	-11.5288
點	-11.5289
元祐元年	-11.5289
廣東廣西	-11.5289
杜衍	-11.529
至元十三年	-11.5292
繁機	-11.5293
險夷	-11.5293
俞允	-11.5293
宋庠	-11.5293
曾公亮	-11.5294
教坊	-11.5295
占候	-11.5295
經緯	-11.5296
申棖	-11.5296
季秋	-11.5296
潤色	-11.5297
孝友	-11.5297
鈔錠	-11.5298
皇祇	-11.5303
孟秋	-11.5303
林甫	-11.5305
鎖院	-11.5305
天地壇	-11.5307
陳執中	-11.5309
洪武八年	-11.5311
萬斯年	-11.5312
褒崇	-11.5312
宛平	-11.5313
歩軍	-11.5314
寅亮	-11.5317
當為今	-11.5319
通行天下	-11.5321
品第五	-11.5322
銀十兩	-11.5322
丈夫	-11.5326
區别	-11.5326
委積	-11.5327
虞廷	-11.5335
寄禄	-11.5336
在室者	-11.5336
度越	-11.5342
大司樂	-11.5342
准他	-11.5344
一員從八品	-11.5344
妃張氏	-11.5345
至大三年	-11.5349
罰治	-11.535
食茶	-11.5352
前驅	-11.5352
對越	-11.5354
昭格	-11.5354
頒給	-11.5357
交收	-11.5359
尺八寸	-11.5359
除中書侍郎	-11.5362
嵗終則	-11.5363
敷陳	-11.5369
二十六人	-11.5372
篤實	-11.5381
侍養	-11.5382
第五品	-11.5383
朔方	-11.5383
寫字	-11.5384
天下後世	-11.5387
綱常	-11.5389
協理	-11.539
建炎元年	-11.5396
回宫	-11.5398
酌議	-11.5401
萬五千	-11.5401
唐㑹要	-11.5401
崇勲	-11.5402
四拜平身	-11.5416
釋奠先師	-11.5417
賛俯伏興	-11.5421
羣廟	-11.5423
贈太子太保	-11.5424
湖州	-11.5427
儲位	-11.5431
父母妻	-11.5449
十二年正月	-11.5456
從五品下	-11.549
入仕	-11.5491
右布政使	-11.55
限期	-11.5511
奉孝宗皇帝聖㫖	-11.5531
掌宿衛	-11.5541
壇壝	-11.5548
北京國子監	-11.5552
河漕	-11.5556
數十人	-11.5562
度量	-11.557
左右衛率	-11.5576
一百七十	-11.5583
秘書丞	-11.5585
十有七人	-11.5588
宴享	-11.5592
復位樂止	-11.5594
開皇三年	-11.5632
成化六年	-11.5633
洪武二十年	-11.5646
閏七月	-11.567
前期二日	-11.5673
栱	-11.568
央	-11.5681
棗栗	-11.5682
𤣥纁	-11.5682
台浤	-11.5685
夤縁	-11.5689
粒	-11.569
元史百官志	-11.5692
浙江餘姚縣人	-11.5693
肄業期滿	-11.5694
蔽膝隨裳色	-11.5694
肄習	-11.5696
麵	-11.5696
廣儲司	-11.5696
年繇主客司主事陞任	-11.5696
公侯伯子男	-11.5696
樁	-11.5696
黝	-11.5696
春秋左氏傳	-11.5697
太常卿跪奏	-11.5697
褐	-11.5697
禮部尚書吕震	-11.5697
雀	-11.5698
稜	-11.5698
五拜三叩頭	-11.5698
拱衛司	-11.5698
櫺星門	-11.5699
雲霞	-11.5699
四夷朝貢	-11.57
庥	-11.57
陀	-11.57
阼階	-11.5701
輟朝一日	-11.5701
上士正二命	-11.5702
燬	-11.5702
平巾幘	-11.5702
耄	-11.5703
鄭樵通志	-11.5703
閬	-11.5703
轝	-11.5703
鵲	-11.5704
司封郎中	-11.5704
湮	-11.5704
滿洲正黄旗人	-11.5704
盧多遜	-11.5705
㧞貢生	-11.5705
孟庾	-11.5705
膏火	-11.5705
左正言	-11.5705
䏻	-11.5706
漢舊儀	-11.5706
鰲	-11.5706
頡	-11.5706
孔頴達	-11.5707
轡	-11.5707
禳	-11.5707
太祖高皇帝	-11.5707
舌	-11.5707
滿洲䝉古漢軍	-11.5707
楊一清	-11.5707
歐	-11.5707
轂	-11.5708
圏	-11.5708
苴	-11.5708
􁱈	-11.5709
紵絲衣一套	-11.5709
緇	-11.5709
焦芳	-11.571
翕然	-11.571
于闐	-11.571
邠	-11.571
顥	-11.571
窰	-11.5711
伏望皇上	-11.5711
洊	-11.5711
黻	-11.5712
儘	-11.5712
垍	-11.5712
玘	-11.5713
麫	-11.5713
絲綸	-11.5713
告訐	-11.5714
尚食局	-11.5714
扉	-11.5715
巖廊	-11.5715
液	-11.5715
見行事例	-11.5715
袞	-11.5715
順天府鄉試	-11.5715
胡瑗	-11.5715
净	-11.5715
題名記	-11.5716
武備院	-11.5716
鍚爵	-11.5716
湛露	-11.5716
啓沃	-11.5717
翀	-11.5717
戎器	-11.5717
謐	-11.5718
綯	-11.5718
不啻	-11.5718
俠	-11.5718
峙	-11.5718
佗	-11.5719
僑	-11.572
平章軍國事	-11.5722
隙地	-11.5722
納徵	-11.5722
對引官	-11.5723
張璁	-11.5724
勾稽	-11.5724
鈍	-11.5724
填寫	-11.5725
穆穆	-11.5726
錫裏	-11.5728
知福州	-11.5728
奉安訖	-11.5728
禪師	-11.5729
加太子少保	-11.5729
錢穀	-11.5729
勵精	-11.5729
周必大	-11.573
慰勞	-11.573
整理	-11.5732
雨澤	-11.5733
鴻樞	-11.5734
祭塟	-11.5735
巡幸	-11.5735
每佐領	-11.5735
菜四色	-11.5736
祖宗舊制	-11.5736
除同知樞宻院事	-11.5737
播告	-11.5741
都督刺史	-11.5741
罷簽書樞宻院事	-11.5742
習射	-11.5742
紛更	-11.5744
進士嘉靖三	-11.5746
西門入	-11.5746
吉甫	-11.5747
文華門	-11.5747
海宇	-11.5747
長河西	-11.5747
誦習	-11.5747
議者謂	-11.5753
正統十三年	-11.5753
言者論	-11.5755
降輦	-11.5756
是月罷	-11.5756
拜中書舍人	-11.5756
援引	-11.5757
鑄給	-11.5758
范鎮	-11.5759
御座前	-11.576
禮部覆議	-11.5761
繼嗣	-11.5764
服䖍	-11.5767
寳座	-11.5767
威福	-11.5768
覆奉欽依	-11.5768
執事官舉	-11.577
劉基	-11.577
至午門外	-11.5772
上疏言	-11.5777
還俗	-11.5781
用太牢	-11.5782
昌期	-11.5782
議準	-11.5784
陳因之後魏	-11.5784
夢得	-11.5787
儒術	-11.5788
孟氏	-11.5791
半月	-11.5791
允資	-11.5792
紹興元年	-11.5792
服飾	-11.5792
導駕官導上	-11.5794
入就位	-11.5796
滿洲漢人各	-11.5796
京尹	-11.5797
貢賦	-11.5801
弼諧	-11.5808
入覲	-11.5817
優待	-11.5817
師㸃	-11.5817
任調吏部	-11.5823
正徳二年	-11.5829
選舉志	-11.583
十有八人	-11.584
籩豆各十	-11.5845
日本國	-11.585
不與焉	-11.5862
祠祭司郎中	-11.5869
季冬	-11.5895
月二十一日	-11.5897
欽此正德	-11.59
大學士劉健	-11.5902
簽書樞	-11.5908
祠部尚書	-11.5913
紹興二年	-11.5913
天地宗廟	-11.5919
南京禮部尚書	-11.5919
詣南郊	-11.5937
曾祖	-11.5939
嘉靖十二年	-11.5942
國朝雍正	-11.5947
丞弼	-11.5962
嘉靖二十六年	-11.5967
復位樂止典儀	-11.6021
帶一條	-11.6028
丞主簿	-11.6029
宰相之任	-11.6029
輿輦	-11.6047
十五年任	-11.6072
帝即位	-11.6092
五銖	-11.61
罪惡	-11.6112
師範	-11.6118
倉曹參軍事	-11.6119
訐	-11.6127
廱	-11.6127
一人正七品下	-11.6128
赴京朝覲	-11.6128
苾	-11.6134
夕月壇	-11.6136
提控案牘	-11.6137
鉄	-11.6142
鬚	-11.6142
嵐	-11.6143
絳紗袍	-11.6144
謡	-11.6145
朝列大夫	-11.6146
六品至九品	-11.6146
陸費墀	-11.6146
杏	-11.6146
引禮唱	-11.6146
二人正六品典	-11.6147
坑	-11.6147
滂	-11.6148
霧	-11.6148
洒掃	-11.6148
巍	-11.6149
幞頭	-11.6149
嫡長孫	-11.615
濃	-11.6151
壼	-11.6151
二人正七品掌	-11.6151
咸亨元年復故	-11.6152
成化二十一年	-11.6153
嘉靖三十八年	-11.6153
婢	-11.6153
瀝	-11.6153
中和韶樂	-11.6153
茫	-11.6153
詐偽	-11.6154
丙戍	-11.6154
賈昌朝	-11.6154
司馬光資治通鑑	-11.6154
餐	-11.6154
芹菜	-11.6154
漢書百官表	-11.6155
剔	-11.6155
褶	-11.6156
爪	-11.6156
簮導	-11.6156
上謂禮部臣曰	-11.6156
警蹕	-11.6156
擎執	-11.6156
以承事郎上	-11.6156
救䕶	-11.6157
歳暮	-11.6157
捐納	-11.6158
禡	-11.6158
勾檢稽失	-11.6158
三國吳志	-11.6159
續翰林志	-11.6159
讀講學士	-11.6159
踐阼	-11.6159
頽	-11.616
瑕	-11.616
屡	-11.616
州團練副使	-11.616
贅	-11.616
甃	-11.616
稹	-11.616
吕蒙正	-11.616
皿字號	-11.6161
媚	-11.6161
鼇	-11.6161
襲封衍聖公	-11.6161
殄	-11.6161
馳驛	-11.6161
珍羞	-11.6162
三館祕閣	-11.6162
孔安國	-11.6162
給與冠帶	-11.6163
榛仁	-11.6163
涿	-11.6164
李善長	-11.6164
曹利用	-11.6164
軺	-11.6164
上覽之	-11.6164
卽	-11.6165
徹饌雍和	-11.6165
貎	-11.6165
僱	-11.6166
贑	-11.6166
胄曹	-11.6166
緦麻	-11.6167
都督僉事	-11.6167
彝倫堂	-11.6167
神祇壇	-11.6167
兩宫皇太后	-11.6167
王堯臣	-11.6167
扃	-11.6167
卓一張	-11.6167
執㦸	-11.6167
同知樞宻院	-11.6169
土地祠	-11.6169
眩	-11.6169
赦宥	-11.617
􁲵	-11.617
知青州	-11.617
折衷	-11.617
川陜	-11.6171
允廸	-11.6171
締	-11.6171
周禮春官	-11.6172
畬	-11.6172
㐫	-11.6172
城隍廟	-11.6173
帕	-11.6174
縱横	-11.6174
長史教授等官	-11.6174
憎	-11.6175
翣	-11.6176
城門校尉	-11.6176
朶甘	-11.6176
盔	-11.6176
乞勅禮部	-11.6177
等因奉聖㫖是	-11.6178
所未有也	-11.6178
副總管	-11.6178
籲	-11.6178
堯俞	-11.6178
張元禎	-11.6179
諸司職掌	-11.6179
圻	-11.6179
七尺	-11.618
啟沃	-11.6181
太史局	-11.6181
瞻仰	-11.6181
毛紀	-11.6182
太府卿	-11.6183
張士遜	-11.6183
好惡	-11.6184
有定額	-11.6185
効力	-11.6189
茶飯管待	-11.6192
淺深	-11.6192
王莽	-11.6194
洪武十年	-11.6195
千二百	-11.6196
太子中允	-11.6196
侍中中書令	-11.6197
玉輅	-11.6201
長史各一人	-11.6201
繼述	-11.6204
遼陽	-11.6205
彭華	-11.6205
曠典	-11.6206
内帑	-11.6206
雍容	-11.6207
胥吏	-11.621
園苑	-11.621
𤣥色	-11.6212
主簿録事	-11.6215
李傑	-11.6215
陞輅	-11.6216
薄海	-11.6216
未甞	-11.6217
欣然	-11.6217
林希	-11.6222
臺閣	-11.6223
㑹饌	-11.6223
諸冶	-11.6224
死黨	-11.6225
煬帝三年	-11.6226
祖奠	-11.6226
佾舞	-11.6228
師友	-11.6236
著他襲	-11.6246
尺七寸	-11.6255
工尺合四合	-11.6256
銓注	-11.626
平身樂止	-11.6293
贊俯伏興平身	-11.6314
御西角門	-11.6316
管府事	-11.6321
成化十二年	-11.6331
隆興元年	-11.6332
嵗暮	-11.6334
十有七	-11.6369
左贊善	-11.6375
事下禮部議	-11.6378
請名封	-11.6385
蹇義	-11.6386
唐開元	-11.6387
送法司	-11.639
庫大使	-11.639
營繕司	-11.6396
至元四年	-11.6397
南北直𨽻	-11.6404
請封選婚	-11.641
左春坊大學士	-11.6422
呉元年	-11.6427
少府屬官	-11.6433
十一年正月	-11.6453
也又考	-11.6469
隴西	-11.6475
文獻通考宋	-11.6477
指揮同知	-11.6485
午門外	-11.649
運河	-11.6496
音律	-11.6501
三月奉聖㫖	-11.6511
内贊奏就位	-11.6533
端拱元年	-11.6543
照舊例	-11.6549
篋	-11.655
滁	-11.6559
年繇精膳	-11.6567
愉	-11.6572
嘉靖二十年	-11.6573
洪武十一年	-11.6575
本標中左右三營分防	-11.6575
一千一百	-11.6578
世宗皇帝	-11.6578
拿	-11.6587
雝	-11.6591
戯	-11.6593
違限	-11.6593
􁆚	-11.6602
二尺五寸	-11.6605
磨勘	-11.661
塌	-11.6616
砂	-11.6617
单	-11.6618
嘉議大夫	-11.6619
行勘未報	-11.662
喫	-11.6621
隕	-11.6621
驪	-11.6621
案香燭果品等物	-11.6622
烏紗帽	-11.6624
箠	-11.6624
千百戸	-11.6624
陸錫熊	-11.6625
侍衛親軍	-11.6625
紀昀	-11.6626
宋大中祥符二年加	-11.6626
匾	-11.6626
洪武十五年歸附十六年	-11.6626
殯	-11.6627
内贊奏四拜	-11.6627
第一甲	-11.6627
葅	-11.6628
咨都察院轉行	-11.6628
尚乗局	-11.6629
稀	-11.6629
弹	-11.663
銘旌	-11.663
箸	-11.663
褾襈裾	-11.663
緝事衙門	-11.663
鄯	-11.6631
資政殿學	-11.6631
後周通典後周	-11.6631
碗	-11.6631
盪	-11.6631
素服烏紗帽黑角帶	-11.6631
武帝太初元年	-11.6632
蟄	-11.6632
挿	-11.6632
釘	-11.6632
湧	-11.6632
骨肉	-11.6632
文林郎	-11.6633
金紫光祿大夫	-11.6633
黑角帶	-11.6633
歉	-11.6634
麤	-11.6634
努	-11.6634
縠	-11.6634
讀祝讀訖	-11.6634
卺	-11.6634
英宗睿皇帝	-11.6634
汪伯彦	-11.6634
奉禮郎	-11.6635
大小臣工	-11.6635
市舶	-11.6635
冢宰	-11.6635
䟦	-11.6636
向敏中	-11.6636
柷	-11.6636
紱	-11.6636
冨	-11.6636
至元二十二年	-11.6636
醴泉	-11.6636
膽	-11.6637
范宗尹	-11.6637
燕居服	-11.6637
内賛奏四拜	-11.6637
乙卯	-11.6637
衛喇特	-11.6638
虎鎗	-11.6638
拭	-11.6638
肩輿	-11.6638
虞允文	-11.6638
顛	-11.6639
宣徽北院使	-11.6639
掇	-11.6639
三署郎	-11.6639
漂	-11.6639
邢恕	-11.6639
傅瀚	-11.6639
𨗳	-11.6639
煜	-11.664
捍	-11.664
千百户	-11.664
江南常熟	-11.6641
在天之靈	-11.6641
焜	-11.6641
絞	-11.6642
松潘	-11.6642
錢惟演	-11.6642
羮牆	-11.6642
𤨏	-11.6642
廪餼	-11.6642
濵	-11.6643
驂	-11.6643
乞勅該部	-11.6643
三年期滿	-11.6643
尙	-11.6643
皋	-11.6643
猪羊	-11.6643
光宅元年改為	-11.6643
挨次	-11.6643
謹案北魏	-11.6643
黯	-11.6643
東北路	-11.6643
嘉靖二十二年	-11.6644
至順二年	-11.6644
尚書李至剛	-11.6644
慧	-11.6644
趙抃	-11.6645
鵷	-11.6645
祀昊天上帝	-11.6645
巍巍	-11.6645
种	-11.6645
㧞貢	-11.6646
墾	-11.6646
明賛唱曰	-11.6646
直長正八品	-11.6646
霍光	-11.6646
元帥府	-11.6646
糾劾	-11.6647
譎	-11.6648
蓍龜	-11.6649
隆興二年	-11.6649
横吹	-11.665
發帑	-11.665
官吏人等	-11.665
肺	-11.6651
鈔五十錠	-11.6651
㓗	-11.6651
耿南仲	-11.6651
庫貯	-11.6651
麟趾	-11.6651
交趾	-11.6652
副榜舉人	-11.6652
董仲舒	-11.6653
扈駕	-11.6653
圜丘壇	-11.6653
晶	-11.6654
干戈	-11.6654
萬㡬	-11.6654
瓌	-11.6654
都元帥府	-11.6655
和碩	-11.6655
斷事官	-11.6655
呂頤浩	-11.6656
璪	-11.6657
渙號	-11.6657
靖江王府	-11.6658
遣中官	-11.6658
算學生	-11.6659
三國志	-11.666
北狩	-11.666
諡文簡	-11.666
詭異	-11.666
正徳八年	-11.6661
整齊	-11.6661
陳康伯	-11.6661
我聖祖	-11.6662
匪躬	-11.6662
勿忘	-11.6666
二百一十	-11.6666
牲帛	-11.6667
正典刑	-11.6667
育才	-11.6668
住支	-11.6669
罔極	-11.6669
無辜	-11.6669
貼黄	-11.667
奉祧	-11.6671
夙興	-11.6673
紵絲羅	-11.6674
眷懐	-11.6675
首尾	-11.6676
韻略	-11.6677
源委	-11.6679
閏六月	-11.6679
引咎	-11.6682
尚饗	-11.6683
七品明伯克一人	-11.6689
講讀學士	-11.669
成化十五年	-11.6696
良弼	-11.6697
御便殿	-11.6698
訓課	-11.6701
至大二年	-11.6702
絹袋	-11.6708
詹事府少詹事	-11.671
小宗伯	-11.6718
大小官員	-11.6723
以字行	-11.6724
洪武二十九年	-11.6728
左補闕	-11.6728
泗州	-11.6739
南京國子監祭酒	-11.6755
承天府	-11.6779
正徳十年	-11.678
浙江慈谿人	-11.6804
大學士李東陽	-11.6823
耤田	-11.6825
愛君	-11.6826
四拜興平身樂止	-11.685
永樂十五年	-11.6872
追究	-11.6882
國子監祭酒司業	-11.6899
三品四品	-11.6904
繇祠祭	-11.6918
滿洲漢軍	-11.694
三百三十	-11.695
候指揮	-11.6965
州諸軍事	-11.6972
男阿	-11.6976
戌進士	-11.6987
宋真宗	-11.7026
享之禮	-11.7028
大徳四年	-11.7044
洪武十三年	-11.7047
淳化二年	-11.7071
分六釐	-11.7081
奉禮部某字幾號勘合	-11.7088
从	-11.7097
鳥鎗	-11.7098
先賢顔	-11.7101
峽	-11.7108
卓二張	-11.711
金史百官志	-11.7111
豬	-11.7114
樵	-11.7116
皇初祖	-11.7117
夥	-11.7117
黒角帶	-11.7117
亳州	-11.7118
𫝊賛百	-11.7118
汎	-11.712
纍	-11.712
崧	-11.712
禮部尚書崔亮	-11.712
遼史百官志	-11.7121
箕	-11.7122
櫛	-11.7122
回鶻	-11.7123
保姆	-11.7124
鐲	-11.7124
乘轎	-11.7125
一執事樂舞生	-11.7125
二人從九品下	-11.7126
兔醢	-11.7126
黠	-11.7126
窺伺	-11.7126
稚	-11.7127
壑	-11.7127
患疾	-11.7127
禮神制帛	-11.7128
庻吉士	-11.7128
隊舞	-11.7128
陞主客司郎中	-11.7128
煖	-11.7128
敢昭告于	-11.7129
少詹	-11.7129
檻	-11.7129
率性堂	-11.7129
猝	-11.713
潜住	-11.713
凡大祭祀	-11.713
陞精膳司郎中	-11.713
汀	-11.713
餓	-11.7131
柳	-11.7131
豎	-11.7131
尚寳卿	-11.7131
譏察	-11.7132
典籖	-11.7132
崇文館	-11.7132
踏	-11.7132
寐	-11.7132
行釋菜禮	-11.7132
診	-11.7132
夤緣	-11.7132
健鋭營	-11.7133
島	-11.7133
栽	-11.7133
滎	-11.7133
讒	-11.7134
曹參軍事一人府一人史二人	-11.7134
徳淵仁寛穆純聖恭儉敬文獻皇帝	-11.7134
亊	-11.7134
秩中二千石	-11.7134
七十七	-11.7134
鬷	-11.7134
大學士張璁	-11.7135
溉	-11.7135
讃	-11.7135
催纂	-11.7135
菁菜	-11.7135
儕	-11.7135
款	-11.7135
下第舉人	-11.7135
伊犁	-11.7135
哨	-11.7135
硃紅	-11.7135
毎斤五百文	-11.7136
𤓰哇	-11.7136
趙挺之	-11.7136
敬一亭	-11.7136
郎中一人從五品上	-11.7136
三氏子孫	-11.7136
兒男	-11.7136
厯代建置謹案	-11.7137
直𨽻華亭人	-11.7137
岩	-11.7137
胞	-11.7137
緊	-11.7137
展書官	-11.7137
躁	-11.7137
尺寸	-11.7137
葦把	-11.7137
先賢先儒	-11.7137
厯代建置三代	-11.7137
太子賔客	-11.7138
唐虞三代	-11.7138
宷	-11.7138
瓉	-11.7138
覃恩	-11.7138
氏後裔	-11.7139
右諫議	-11.7139
橐	-11.7139
伏乞勅下	-11.7139
右僕射兼中書侍郎	-11.7139
嫓	-11.7139
詣盥洗所	-11.714
吕夷簡	-11.714
懷挾	-11.714
桀	-11.714
枷號	-11.714
掞	-11.714
荃	-11.714
郡縣主君	-11.7141
屯駐	-11.7141
愕	-11.7141
彬彬	-11.7141
彌綸	-11.7141
𢡟	-11.7142
五城御史	-11.7142
傚	-11.7142
宗廟社稷	-11.7142
狎	-11.7142
嚴加禁約	-11.7142
出笏俯伏興	-11.7143
睹	-11.7143
𥙷	-11.7143
頋	-11.7144
具衮冕	-11.7144
湟	-11.7144
浙江烏程人	-11.7144
騾	-11.7144
堵	-11.7145
雍正七年	-11.7145
桷	-11.7145
挹	-11.7145
騫	-11.7146
戈盾	-11.7146
竅	-11.7146
黌	-11.7146
秩正七品	-11.7146
大徳十年	-11.7147
浙江歸安人	-11.7147
己夘	-11.7147
徠	-11.7148
檢閱	-11.7148
八旗子弟	-11.7148
覊	-11.715
牌坊	-11.715
鄭司農	-11.715
土魯番	-11.715
斵	-11.7151
魏晉以後	-11.7151
進士天啓	-11.7152
至元二十年	-11.7152
裱禙	-11.7152
䘮葬	-11.7152
林牙	-11.7152
甬道	-11.7152
縑	-11.7153
超越	-11.7153
裨	-11.7153
宗皇帝實録	-11.7153
囚徒	-11.7153
弟姪	-11.7154
撫綏	-11.7155
弔祭	-11.7155
招諭	-11.7156
雍熙	-11.7156
萼	-11.7158
進士出身	-11.7158
譯字官	-11.7158
廕監生	-11.7159
甲戍	-11.7159
休息	-11.7162
形勢	-11.7163
瀚海	-11.7164
藥材	-11.7165
齊因之梁	-11.7167
費宏	-11.7168
騏驥	-11.717
釋放	-11.717
冠冕	-11.717
大理寺丞	-11.7171
奠獻使	-11.7173
拜右丞相	-11.7174
禍福	-11.7176
降輅	-11.7177
拜褥	-11.7178
筆硯	-11.7178
都官尚書	-11.7179
陳俊卿	-11.7181
吏部右侍郎	-11.7181
右通政	-11.7186
賛襄	-11.7187
以掌院學	-11.719
演習	-11.7219
給度牒	-11.722
贊禮贊	-11.7236
中任終	-11.725
大紅紵絲	-11.7259
詣文華殿	-11.7259
伊男	-11.7262
上然之	-11.7265
照此例	-11.7291
年任左侍郎	-11.7296
農桑	-11.7303
題奉孝宗皇帝聖㫖	-11.7317
延祐三年	-11.7325
婺	-11.7328
乾隆十三年	-11.7334
康熙九年	-11.7345
儀制司郎中	-11.7361
是年八月罷	-11.7373
尼僧	-11.7406
不守法度時換了欽此	-11.7453
元符三年	-11.7464
知樞密院	-11.7488
授散官	-11.7491
襲王爵	-11.7494
至正元年	-11.7524
鴻臚寺堂上官	-11.7545
丈八尺	-11.756
奏復位上復位	-11.757
奉明㫖	-11.7573
閏五月	-11.7574
鹽井	-11.7575
賛禮賛	-11.7622
中順大夫	-11.7626
傔	-11.7635
靈丘王	-11.7635
斟	-11.7636
奉訓大夫	-11.7636
佾	-11.7637
商税	-11.764
皇明祖訓	-11.764
厠	-11.7642
麽	-11.7643
奉中書省劄付	-11.7645
脊	-11.7648
餚	-11.7649
鬭	-11.7649
山川等神	-11.765
侍即充	-11.765
用紅緑羅銷金束子	-11.7651
崈	-11.7651
中葉以後	-11.7651
徐元夢	-11.7652
塑	-11.7652
宇宙	-11.7652
漢唐以來	-11.7652
豳	-11.7652
平章政事	-11.7652
炫	-11.7653
欽定四庫全書欽定歴代職官表卷	-11.7653
欽定四庫全書翰林記卷	-11.7653
墊	-11.7653
吐谷渾	-11.7653
蝕	-11.7654
謝恩見辭	-11.7654
節度副使	-11.7654
魏書官氏志	-11.7654
覆題奉聖㫖是欽此	-11.7654
金幼孜	-11.7655
捲簾	-11.7655
廹	-11.7656
鹵	-11.7656
玉清昭應	-11.7656
窟	-11.7656
賑濟	-11.7656
梟	-11.7656
蕎	-11.7656
鞶	-11.7656
熏	-11.7656
總纂官	-11.7657
仁祖淳皇帝	-11.7657
琴瑟	-11.7657
椅	-11.7657
上具常服	-11.7658
以承務郎上	-11.7658
嫁娶	-11.7658
管理事務	-11.7658
乞要比照	-11.7658
慈懿皇太后	-11.7658
玳	-11.7659
交割	-11.7659
滿洲鑲藍旗人	-11.7659
搶	-11.7659
行三獻禮	-11.7659
怠忽	-11.7659
上嘉納之	-11.7659
時政記	-11.7659
朝請大夫	-11.7659
窩	-11.766
鹽運司	-11.766
猜	-11.766
從第六品	-11.766
濳	-11.766
賈黄中	-11.766
儀同三司	-11.7661
祜	-11.7661
觀文殿	-11.7661
鐙	-11.7661
繇殿東門	-11.7661
二十八宿	-11.7661
具禮服	-11.7661
主簿掌印	-11.7661
粥	-11.7662
侄	-11.7662
莞	-11.7662
中士正一命	-11.7662
庚戍	-11.7663
擺	-11.7663
王應麟	-11.7663
吁	-11.7663
三省長官	-11.7663
東閣大學士	-11.7663
三國三國蜀志	-11.7664
太上皇帝	-11.7664
聖武神功純仁至孝文皇帝	-11.7664
軟	-11.7664
幟	-11.7664
縵	-11.7664
大司成	-11.7664
擎	-11.7664
賙	-11.7664
王圻續文獻通考	-11.7664
腐	-11.7665
禁屠宰	-11.7665
絀	-11.7665
至元二十五年	-11.7665
薪炭	-11.7665
殃	-11.7666
順治十五年	-11.7666
粧	-11.7666
恠	-11.7666
洞霄宫	-11.7666
旅賁	-11.7666
徂	-11.7667
竪	-11.7667
繁劇	-11.7667
翹	-11.7668
卜筮	-11.7668
縉紳	-11.7668
永樂間使臣	-11.7668
羔	-11.7668
答揖	-11.7668
而有是命	-11.7668
御覧	-11.7668
札薩克	-11.7668
超軼	-11.7668
行叩頭禮畢	-11.7668
邢讓	-11.7669
吏禮二部	-11.7669
祭先師孔子	-11.7669
是用擢	-11.7669
知洪州	-11.7669
朱雀	-11.7669
昪	-11.7669
酤	-11.7669
知河南府	-11.7669
稠	-11.767
有成效	-11.7671
起居舎人	-11.7671
庠序	-11.7671
臣愚以為	-11.7671
鯨	-11.7671
梨	-11.7671
怠惰	-11.7671
禽獸	-11.7671
莱	-11.7672
降為庶人	-11.7672
口粮	-11.7673
挫	-11.7673
優渥	-11.7673
陳彭年	-11.7673
毛澄	-11.7673
成祖文皇帝	-11.7673
諄	-11.7674
禎祥	-11.7674
磐	-11.7674
狠	-11.7674
剰	-11.7674
敖	-11.7674
聆	-11.7674
奬勵	-11.7674
唾	-11.7675
諾延	-11.7675
鄭居中	-11.7675
揣	-11.7675
閭里	-11.7675
儷	-11.7676
阻回	-11.7676
諍	-11.7676
翰詹諸臣	-11.7677
謁者僕射	-11.7677
閔勞	-11.7677
植黨	-11.7678
何㮚	-11.7678
遣陪臣	-11.7678
届期	-11.7678
屹	-11.7678
繫銜	-11.7679
嘉靖十三年	-11.7679
架閣	-11.7679
著為例	-11.768
八旗教習	-11.768
奉特㫖	-11.7681
大小衙門	-11.7682
瘍	-11.7682
鳥獸	-11.7682
夷險	-11.7683
撿	-11.7683
翰墨	-11.7683
莫大於	-11.7684
鎛鐘	-11.7687
佛寺	-11.7688
買辦	-11.7689
牧塲	-11.7689
睿宗廟	-11.769
光禄寺少卿	-11.769
淮揚	-11.7693
庻幾	-11.7693
天下臣民	-11.7694
衆寡	-11.7694
之類是也	-11.7695
涵養	-11.7697
榜示	-11.7697
親王之國	-11.7698
告治朝	-11.7701
裁抑	-11.7701
一四工合	-11.7703
同知通判	-11.7703
諭輔臣曰	-11.7707
㑹官議	-11.771
以其地為	-11.7718
良家子	-11.772
切皆曰	-11.7725
倉塲	-11.7741
一上聲	-11.7742
復位奏四拜	-11.7742
嘉靖十九年	-11.7745
正徳六年	-11.7756
正陽門	-11.7775
訓誨	-11.7778
祖父母父母	-11.7788
米五斗	-11.78
捕盜	-11.7824
奉聖㫖准他替	-11.7828
不做世襲若不守法度時換了	-11.7832
欽定厯代職官表卷六十	-11.7845
遵祖訓	-11.7851
東西南北	-11.7859
月二十二日	-11.7876
請名請封	-11.7921
二品三品	-11.7926
煬	-11.7931
正德六年	-11.7933
洪武十二年	-11.7935
永樂十三年	-11.7938
閏八月	-11.7939
婺州	-11.8006
一尺五寸	-11.8038
患病男	-11.8094
三百八十	-11.8121
照前例	-11.8139
糯米	-11.8154
授主婚者主婚者受	-11.8179
都部署司	-11.8183
俳長	-11.8191
樂作禮畢樂止	-11.8192
作邑自箴卷第	-11.8192
串	-11.8193
博士捧祝版	-11.8194
少師少傅少保	-11.8195
行兩拜禮	-11.8195
桞	-11.8196
羅羅人	-11.8198
舶	-11.8198
乙夘	-11.82
承直郎	-11.82
客省使	-11.82
矛	-11.82
迤	-11.8201
罸	-11.8201
降自西階	-11.8201
尚藥局	-11.8202
郎中二人員外郎	-11.8203
韓菼	-11.8203
邴	-11.8203
六科都給事中	-11.8204
嘉靖三十四年	-11.8204
奉車都尉	-11.8204
著之於表	-11.8204
􁰽	-11.8204
樂暫止奏跪	-11.8205
届	-11.8205
皇朝復為	-11.8205
通典後魏	-11.8205
二尺四寸	-11.8206
幰	-11.8207
孫士毅總校官	-11.8207
䕶羌校尉	-11.8207
䘵	-11.8208
假令問	-11.8208
惴	-11.8208
嘉靖三十三年	-11.8208
秩從五品掌	-11.8209
辨其名數	-11.8209
不饒欽此	-11.8209
赤舄	-11.8209
滿洲鑲黄旗人	-11.8209
輟朝三日	-11.821
滴	-11.821
禮部尚書陶凱	-11.821
霜降	-11.821
辨其名物	-11.821
箎	-11.821
二丈五尺	-11.8211
交阯	-11.8211
櫝	-11.8212
彩畫	-11.8212
佩水蒼玉	-11.8212
杲	-11.8212
倐	-11.8212
送發髙墻	-11.8212
屑	-11.8213
鹿一隻兔	-11.8213
彈壓	-11.8213
警巡院	-11.8214
集書省	-11.8214
廩餼	-11.8214
祖考妣	-11.8214
菱	-11.8214
初獻夀和之曲	-11.8214
杜鎬	-11.8214
正紅旗	-11.8214
編磬	-11.8214
瑪哈穆特	-11.8214
經史子集	-11.8215
順治十六年	-11.8215
提舉太平興國宫	-11.8215
孝子順孫義夫節婦	-11.8215
珏	-11.8215
分奠官	-11.8215
籩豆各十簠簋各二	-11.8215
摠	-11.8215
奢侈	-11.8215
鉛	-11.8215
跟隨	-11.8216
天壽山	-11.8216
員外郎一人從六品上	-11.8216
覇	-11.8217
年繇南京吏部	-11.8217
餞	-11.8217
簴	-11.8217
𤣥極寶殿	-11.8217
楞	-11.8217
驀越	-11.8217
浙江江西湖廣	-11.8218
作君作師	-11.8218
莾	-11.8218
肴藏	-11.8218
跳	-11.8218
烏魯木齊	-11.8219
提督駐	-11.8219
登仕郎	-11.8219
瑑	-11.8219
進奏院	-11.8219
闕里文獻考	-11.8219
黼黻	-11.8219
張玉書	-11.822
儤直	-11.822
歐陽脩	-11.822
畋	-11.822
大夫咸亨	-11.822
庻㡬	-11.8221
覘	-11.8221
置卿少卿	-11.8221
㲄	-11.8221
月恭校上	-11.8222
昶	-11.8222
麴	-11.8222
泗水	-11.8222
清紀郎	-11.8222
斁	-11.8222
銅印墨綬	-11.8222
紵絲一疋	-11.8222
詁	-11.8222
􁑶	-11.8222
陸宗楷	-11.8223
呪	-11.8223
江南華亭	-11.8223
煉	-11.8223
𦂳要	-11.8223
鑲黄旗	-11.8223
左僕射兼門下侍郎	-11.8224
天啓四年任	-11.8224
譛	-11.8224
歷	-11.8224
端明殿	-11.8224
鉤盾	-11.8224
繭	-11.8224
一應事務	-11.8224
頥浩	-11.8224
翰苑羣書	-11.8224
顔料	-11.8225
驛逓	-11.8225
䋲	-11.8225
兾	-11.8225
顛倒	-11.8225
宣宗章皇帝	-11.8225
䧺	-11.8226
斃	-11.8226
冥	-11.8226
有兩丞	-11.8226
珥筆	-11.8227
江南溧陽	-11.8227
宅百揆	-11.8227
旃	-11.8227
鯁	-11.8227
城守尉	-11.8227
寛宥	-11.8228
四譯館	-11.8228
墉	-11.8228
獠	-11.8228
花椒	-11.8228
迤西	-11.8228
狃	-11.8229
虜	-11.8229
江南婁縣人	-11.8229
壬戍	-11.823
中兵外兵	-11.823
匀	-11.823
混淆	-11.823
兩京鄉試	-11.8231
賜進士出身	-11.8231
制曰王者	-11.8231
慷慨	-11.8231
眡	-11.8231
撾	-11.8231
杆	-11.8231
㽞	-11.8232
鴛	-11.8232
儒學生員	-11.8233
紆	-11.8233
葆	-11.8233
褒貶	-11.8234
熒	-11.8234
秉鈞之	-11.8234
嵇	-11.8235
璞	-11.8235
璣	-11.8235
受禪	-11.8236
車騎將軍	-11.8236
運籌	-11.8237
慨然	-11.8237
擕	-11.8237
郅	-11.8237
甲胄	-11.8238
攽	-11.8238
斿	-11.8238
不可不察	-11.8239
蹌	-11.824
勵翼	-11.8242
鑾輿	-11.8245
安撫大使	-11.8245
賚予	-11.8247
澥	-11.8248
閏三月	-11.8253
契勘	-11.8255
日加承㫖	-11.8259
門其内曰	-11.8264
丞掌判	-11.8277
天順七年	-11.8294
馬愉	-11.8296
學士楊溥	-11.8319
布政司按察司	-11.8336
次日早	-11.8338
職官類	-11.8344
行亞獻禮行終獻禮	-11.8348
衛指揮使司	-11.8357
一尺四寸	-11.837
年繇主客司	-11.8378
書殿之	-11.8379
右春坊大學士	-11.8429
行亞獻禮	-11.8446
奏出圭奏復位	-11.8471
儀制司主事	-11.8485
鞠躬四拜興平身	-11.8493
人壬辰進士萬厯	-11.8504
感激	-11.8506
福建晉江	-11.8512
激勸	-11.8515
浙東	-11.8536
上章乞	-11.8605
引禮導	-11.8622
一千三百	-11.8639
嘉靖四十一年	-11.8676
欽此欽遵	-11.8695
雍正八年	-11.8702
助教學正學録	-11.8747
歙	-11.875
麝	-11.8763
陕	-11.877
引見補授	-11.8772
淇	-11.8772
本寺卿同光禄寺卿	-11.8775
奉直大夫	-11.8783
文選司缺冊内查得成化	-11.8783
恩㧞副	-11.8784
千總把總	-11.8784
滿剌加	-11.8784
斆	-11.8787
殺賊有功	-11.8787
奈	-11.8787
某日午後沐浴更衣某日為始致齋	-11.8787
呵怎生	-11.8788
雒	-11.8789
摛	-11.8789
伏羲	-11.879
都察院右副都御史	-11.8791
提刑按察司	-11.8792
鉗	-11.8792
戊己校尉	-11.8793
廵狩	-11.8793
大長秋	-11.8793
奉欽依准令冠帶就彼到任管事	-11.8794
速香一斤	-11.8794
天行道肇紀立極大聖至神仁文義武俊	-11.8794
塑像	-11.8794
山東山西河南	-11.8794
犢一隻	-11.8794
匏	-11.8794
迎帝神	-11.8796
禜	-11.8796
芽	-11.8796
召對賜紫	-11.8796
褙	-11.8797
太社太稷	-11.8797
領隊大臣	-11.8797
藩臬	-11.8797
上表謝恩	-11.8798
鴨	-11.8798
斤鰝魚	-11.8798
文武百官具朝服	-11.8799
阿哈瑪特	-11.8799
菊	-11.8799
枝八兩燭	-11.8799
従九品下	-11.8799
繕冩	-11.8799
南齊書	-11.8799
明安穆昆	-11.88
孝穆皇太后	-11.88
年繇精膳司主事陞任	-11.8801
肴	-11.8801
矛盾	-11.8801
綉	-11.8801
燎爐	-11.8801
浙江嘉興	-11.8801
蒔蘿	-11.8801
大興宛平	-11.8801
至元三十一年	-11.8801
罩	-11.8802
中極殿	-11.8802
塾	-11.8803
乍	-11.8803
鑒歆	-11.8803
開元二十五年	-11.8803
冇	-11.8803
鹿醢	-11.8803
叱	-11.8803
襲封王爵	-11.8803
夔	-11.8804
石林燕語	-11.8804
冊東寳西	-11.8804
户科給事中	-11.8804
隠匿	-11.8804
壮	-11.8804
合回避	-11.8804
文東武西	-11.8804
抒	-11.8805
痊	-11.8805
茗	-11.8805
譙	-11.8805
帶領引見	-11.8805
窖	-11.8805
檐	-11.8805
承運庫	-11.8805
糗	-11.8805
皇朝因之龍朔	-11.8805
籙	-11.8805
亞中大夫	-11.8806
伊犂	-11.8806
金水橋南	-11.8806
斑	-11.8806
江蘇安徽	-11.8806
行祭告禮	-11.8806
祲	-11.8806
咱	-11.8806
通事舎人	-11.8806
羸	-11.8806
内禮部題該	-11.8806
莊肅皇后	-11.8807
崇政殿	-11.8807
娼	-11.8807
獻帛獻爵	-11.8807
𢋫	-11.8807
嬉	-11.8807
禁錮	-11.8807
琉璃瓦	-11.8807
續文獻	-11.8807
劉珝	-11.8808
兵馬指揮司	-11.8808
咏	-11.8808
珉	-11.8808
謂侍臣曰	-11.8808
後周依周	-11.8808
少卿寺丞	-11.8808
針	-11.8808
凜	-11.8809
刃	-11.8809
兵部左侍郎	-11.8809
蛟	-11.8809
慨	-11.8809
煩凟	-11.8809
曼	-11.881
縮	-11.881
江南宜興	-11.881
窘	-11.881
億兆	-11.881
卒年八十	-11.881
儒學訓導	-11.881
堯舜禹湯文武	-11.881
寥	-11.881
執政凡二年	-11.8811
閶闔	-11.8811
愽	-11.8811
拍	-11.8811
賡歌	-11.8811
騤	-11.8811
典儀唱執事官各司其事	-11.8811
鳯翔	-11.8811
杰	-11.8811
瞿	-11.8812
知潭州	-11.8812
終獻寧和	-11.8812
筍	-11.8812
代天工	-11.8813
御書樓	-11.8813
居相位	-11.8813
藎	-11.8813
以京朝官充	-11.8814
判河南府	-11.8814
中元冬至	-11.8814
殽	-11.8814
填註	-11.8814
四川巴縣人	-11.8814
焕	-11.8814
江都人	-11.8815
厪	-11.8815
宮牆	-11.8815
遘	-11.8815
軍民之家	-11.8815
大理評事	-11.8816
冗濫	-11.8816
奐	-11.8816
卉	-11.8816
璨	-11.8816
體貎	-11.8816
豪傑	-11.8817
澆	-11.8817
張家灣	-11.8818
胸	-11.8818
旦夕	-11.8818
楊守陳	-11.8819
霈	-11.882
嶽瀆	-11.882
侁	-11.882
石珤	-11.882
郯	-11.8821
岀	-11.8821
謂輔臣曰	-11.8821
繅	-11.8821
棒	-11.8821
騏	-11.8822
忠藎	-11.8822
挈壺正	-11.8822
燄	-11.8822
裾	-11.8823
分七釐	-11.8823
有學行者	-11.8824
崙	-11.8826
員每員	-11.8827
汪諧	-11.8828
巡邏	-11.8828
趨蹌	-11.8829
幸際	-11.8829
坻	-11.8833
感悟	-11.8834
酢	-11.8837
煮	-11.8838
豔	-11.8842
㑹典云凡	-11.8843
十觔	-11.8853
拿問	-11.8854
戊戌庶吉士	-11.8855
梲	-11.8862
月初六日	-11.8872
延祐六年	-11.8897
䑓諫	-11.8907
鼓篋	-11.8908
妃李氏	-11.8916
樂作四拜平身樂止	-11.8929
洪武二十五年	-11.899
詣望燎位	-11.899
尚書李時	-11.9008
延祐五年	-11.9039
司農少府	-11.9162
還不做世襲	-11.918
不係世襲	-11.9212
大徳二年	-11.9226
建炎四年	-11.9305
唐書百官志	-11.9309
等因題奉聖㫖	-11.9359
昊天上帝	-11.9383
棣	-11.9386
蔴	-11.9397
馬端臨	-11.94
怕	-11.9408
松江府	-11.9408
奉政大夫	-11.9408
人徒二十人掌	-11.9409
索諾木	-11.9411
畤	-11.9411
成賢街	-11.9411
不守法度	-11.9412
同堂異室	-11.9412
加元服	-11.9413
秘書監志卷	-11.9413
無祀鬼神	-11.9414
周天星辰	-11.9414
四庫全書	-11.9414
薑	-11.9414
靈濟宫	-11.9414
涪	-11.9414
鄉飲酒禮	-11.9415
學士劉三吾	-11.9416
竑	-11.9416
椽	-11.9418
晾	-11.9418
總兵官擬充	-11.9418
壎	-11.9419
主事一人委署主事一人	-11.9419
汪由敦	-11.942
舒庫爾齊	-11.942
毉	-11.942
遣官諭祭	-11.942
禫	-11.942
赫赫	-11.9422
牲醴庶品	-11.9422
用紅緑羅銷	-11.9422
盎	-11.9422
啟聖公	-11.9422
伶	-11.9422
孝恪皇太后	-11.9422
者麽道聖㫖了也欽此	-11.9422
賕	-11.9423
奉國将軍	-11.9423
滿洲正白旗人	-11.9423
胷	-11.9423
世宗雍正	-11.9423
汶	-11.9423
東嶽泰山	-11.9424
抹金銀	-11.9424
墩	-11.9424
葉方藹	-11.9424
蜡	-11.9424
氲	-11.9424
詣盥洗位	-11.9425
扺	-11.9425
爍	-11.9425
八兩燭八枝四兩燭	-11.9425
絁	-11.9425
十哲兩廡	-11.9425
楯	-11.9425
路置司	-11.9426
第五琦	-11.9426
樗	-11.9426
獅	-11.9426
主事二人從九品上	-11.9426
虎豹	-11.9426
万俟卨	-11.9426
讚	-11.9427
那般者欽此	-11.9427
僮	-11.9427
不可勝言	-11.9427
丞二人主簿一人	-11.9427
鐘磬	-11.9428
亢旱	-11.9428
俸餉	-11.9428
捲	-11.9428
得㫖允行	-11.9428
事無大小	-11.9428
白色禮神制帛	-11.9428
唆	-11.9429
煖閣	-11.9429
三老五更	-11.9429
蠱	-11.9429
畿甸	-11.9429
藥餌	-11.9429
欽定四庫全書宋宰輔編年録卷	-11.943
輓	-11.943
謟	-11.943
至順元年	-11.943
自慶歴	-11.943
祕書少監	-11.943
顧鼎臣	-11.9431
汧	-11.9431
初學記	-11.9431
賜紫金魚袋	-11.9431
人掌固二人	-11.9431
三師三少	-11.9431
釋奠先師孔子	-11.9431
澂	-11.9431
曽棨	-11.9431
都虞司	-11.9432
至元二十七年	-11.9432
乾興元年	-11.9432
館閣校勘	-11.9432
吕頥浩	-11.9432
埴	-11.9432
斜	-11.9432
薈	-11.9432
合四上尺	-11.9432
氛	-11.9433
筒	-11.9433
寀	-11.9433
訶	-11.9433
蠡	-11.9433
耆老人等	-11.9433
贊引引獻官	-11.9433
昩	-11.9434
内贊奏陞壇導上	-11.9434
四書五經	-11.9434
左春坊左庶子	-11.9434
禦侮	-11.9434
知無不為	-11.9435
鑲紅旗	-11.9435
慟	-11.9435
厦	-11.9436
鄂爾泰	-11.9436
復聖顔子	-11.9436
聖子神孫	-11.9437
鑲白旗	-11.9437
學士陶安	-11.9437
闇	-11.9437
從六品丞從七品掌	-11.9437
奉中書省判送	-11.9438
謇	-11.9438
徤	-11.9439
奉節官	-11.9439
上士中士	-11.9439
范寗	-11.9439
膂	-11.9439
馘	-11.944
麈	-11.944
售	-11.944
方獻夫	-11.944
展表官	-11.944
陜西涇陽人	-11.944
三上香訖	-11.944
剽	-11.9441
紂	-11.9441
琬琰	-11.9441
沸	-11.9441
浙江㑹稽人	-11.9441
邊陲	-11.9442
腿	-11.9442
襍	-11.9443
治禮郎	-11.9443
絪	-11.9444
鷹揚	-11.9445
幸其第	-11.9445
費誾	-11.9446
凋	-11.9446
噬	-11.9447
潦	-11.9447
梁克家	-11.9448
程顥	-11.9448
王汝玉	-11.9448
焯	-11.9449
戕	-11.945
烏斯藏	-11.9451
氓	-11.9452
三分之一	-11.9453
邏	-11.9453
天啓二年任	-11.9453
猪肉	-11.9454
技巧	-11.9455
永樂甲申	-11.9455
耘	-11.9455
歲貢生員	-11.9459
等處行中書省	-11.9465
各王嵗支禄米初封二千石襲封一千石	-11.9486
一丈二尺	-11.95
辭不拜	-11.9517
贊拜樂作	-11.9517
詩一章	-11.954
行賀禮	-11.9576
亞獻禮終獻禮	-11.9617
三省樞密院	-11.9745
三百一十	-11.9777
京都城隍	-11.9785
工六工尺	-11.9792
月初五日	-11.9817
考功郎中	-11.986
士一人隋	-11.9919
密院事除	-11.9921
鬰	-12.0016
内贊對引官導上至	-12.0046
洺	-12.0048
啟心郎	-12.0063
斗五升	-12.0063
茭	-12.0068
潯	-12.007
紙二張	-12.007
簽書樞宻院	-12.0071
榮禄大夫	-12.0072
罍洗	-12.0072
冄	-12.0073
兠	-12.0073
亾	-12.0074
太尉司徒司空	-12.0075
賜祭𦵏如例	-12.0076
奉聖㫖是准他襲欽此	-12.0076
窻	-12.0077
不獻帛讀祝	-12.0078
据	-12.0078
皆由特簡	-12.0078
吊	-12.0079
酧	-12.0079
釧	-12.008
釡	-12.008
保和殿	-12.008
㓜孜	-12.0081
各照品級	-12.0081
芡	-12.0082
兩六錢	-12.0082
富大用事文類聚	-12.0082
匈奴中郎將	-12.0082
尖	-12.0082
俳	-12.0082
溶	-12.0082
三皇五帝	-12.0083
聖帝明王	-12.0084
蘋	-12.0085
三國蜀志	-12.0085
碾	-12.0085
従八品下	-12.0086
江西新建人	-12.0086
一時權宜	-12.0086
昧爽	-12.0086
宣勅戒	-12.0086
芥	-12.0086
大宗正司	-12.0087
晡	-12.0087
直隸無錫	-12.0087
姑宥之	-12.0088
鏃	-12.0088
黃濳善	-12.0088
共設酒尊三	-12.0088
舡	-12.0088
䨇	-12.0088
酒二瓶	-12.0088
劔	-12.0088
宋宰輔編年録	-12.0089
胡三省通鑑注	-12.0089
啓聖公	-12.0089
㑹同四譯館	-12.0089
總督漕運	-12.0089
撲	-12.009
莭度使	-12.009
冺	-12.009
孝潔皇后	-12.0091
鞾	-12.0091
鹿一隻	-12.0091
二人正八品司	-12.0091
澗	-12.0091
年繇主客調任	-12.0091
貝勒貝子	-12.0091
速香二斤	-12.0092
吳伯宗	-12.0092
妝	-12.0092
簒	-12.0092
無定額	-12.0092
四拜舉哀興哀止	-12.0093
肖胄	-12.0093
織金紵絲衣一套	-12.0093
龍圖閣待制	-12.0093
遶	-12.0093
進賢一梁冠	-12.0093
大明集禮	-12.0094
訪挐	-12.0094
欽定四庫全書史部十二	-12.0094
銀一百兩	-12.0094
等二百九十	-12.0094
鋌	-12.0094
闐	-12.0094
建中靖國	-12.0094
酣	-12.0094
以憂去	-12.0094
鹿脯	-12.0094
櫺	-12.0095
痛加修省	-12.0095
嫻	-12.0095
年繇知縣陞任	-12.0095
棕	-12.0095
章俊卿山堂考索	-12.0095
觚	-12.0096
秤	-12.0096
諌議大夫	-12.0096
壅蔽	-12.0096
孝懿皇后	-12.0096
絺	-12.0096
模範	-12.0096
州同州判	-12.0096
儀鸞司	-12.0097
曦	-12.0097
愼	-12.0097
攅	-12.0098
涂	-12.0098
日講起居注官	-12.0098
溷	-12.0098
鏁	-12.0098
緝捕	-12.0099
詬	-12.0099
覦	-12.0099
棐	-12.0099
一祝文維皇帝遣致祭於	-12.0099
梁班第十	-12.01
扄	-12.01
逹嚕噶齊	-12.01
殉	-12.01
咒	-12.01
踴躍	-12.01
輛	-12.01
東方朔	-12.0101
愜	-12.0101
泯	-12.0101
知建康府	-12.0101
携	-12.0101
軋	-12.0101
親勲翊	-12.0101
尺工一合	-12.0102
純徳山	-12.0102
清明霜降	-12.0102
曝	-12.0102
五代㑹要	-12.0102
諉	-12.0103
咈	-12.0103
懇乞聖明	-12.0103
錞	-12.0103
土魯畨	-12.0103
券	-12.0104
咫尺	-12.0104
魏黄初	-12.0104
秬	-12.0104
神道碑	-12.0105
獬豸	-12.0105
嫂	-12.0105
郤	-12.0105
訏謨	-12.0106
平章軍國重事	-12.0106
謹天戒	-12.0107
李宗諤	-12.0107
絮	-12.0107
泰定二年	-12.0107
以回天意	-12.0107
亞聖孟子	-12.0107
保章正	-12.0107
名山大川	-12.0107
以從仕郎上	-12.0108
婉	-12.0108
朱光庭	-12.0108
奏百戲承應	-12.0108
簧	-12.0108
上中下三等	-12.0109
論道經邦	-12.0109
輻	-12.011
孜	-12.011
畯	-12.0111
譯字生	-12.0111
昱	-12.0111
嘏	-12.0112
卿一人少卿二人	-12.0112
翰林院撰祭文	-12.0112
𠫭軍事一人	-12.0112
紕	-12.0113
靼	-12.0113
酈	-12.0114
熲	-12.0114
中士二人下士四人	-12.0114
沈徳潛	-12.0114
噲	-12.0114
珵	-12.0115
天啓元年任	-12.0116
詩一首	-12.0117
夣	-12.0118
逄	-12.012
佽飛	-12.0121
至順三年	-12.0121
褚	-12.0121
蕩蕩	-12.0124
諄諄	-12.0124
諸葛亮	-12.0124
臧否	-12.0126
鄧綰	-12.0126
米三石	-12.0127
鸞旂	-12.0128
杼	-12.0128
緹	-12.0128
𤾉	-12.0128
跨	-12.0131
駑	-12.0132
妹	-12.0137
謹告一	-12.0145
等因奉聖㫖是欽此嘉靖三十	-12.0167
萬八千	-12.0196
與正月十	-12.0211
月為滿	-12.0255
道録司	-12.0296
福建侯官人	-12.0423
紅生絹	-12.0456
浙江慈谿	-12.0563
刑名稽察	-12.0731
判寺事	-12.0738
浙江仁和	-12.0758
各門燒香	-12.0779
都衛為	-12.078
鑪一鐙二	-12.0781
陳設籩豆牲隻	-12.0782
巡檢司土官巡檢	-12.0784
日月交食	-12.0786
依上施行	-12.0786
驩	-12.0788
彷	-12.0789
櫻	-12.0789
制案節案	-12.079
丁父憂	-12.0792
永為定例	-12.0792
巖叟	-12.0792
謗訕	-12.0793
將作大匠	-12.0794
鞠	-12.0795
圜丘方丘	-12.0795
如其日不朝	-12.0796
蚩	-12.0797
孝潔肅皇后	-12.0797
皇后及妃	-12.0797
梭	-12.0797
皇太子與妃	-12.0798
黒介幘	-12.0798
思善門	-12.0798
准他替	-12.0798
順天大興	-12.0798
胸背	-12.0799
忠臣烈士	-12.0799
銅青黄丹各	-12.0799
昕	-12.08
文移闗白之事	-12.08
順義王	-12.08
飫	-12.08
窒	-12.08
膴	-12.08
胡惟庸	-12.0801
徹饌奏樂樂止典儀	-12.0801
儁	-12.0801
徳成功髙皇帝	-12.0802
壅滯	-12.0802
三佛齊	-12.0802
進賢兩梁冠	-12.0802
翳	-12.0803
三年大比	-12.0803
崇徳報功	-12.0803
汲汲	-12.0803
筑	-12.0803
俄羅斯	-12.0804
穉	-12.0804
鄜	-12.0804
鎮巡官	-12.0804
憇	-12.0804
一拜叩頭	-12.0804
挂	-12.0804
喝	-12.0806
福建莆田縣人	-12.0806
讀祝官捧祝進帛官捧帛各詣燎位	-12.0806
嶷	-12.0806
畢士安	-12.0806
滿洲鑲白旗人	-12.0806
帟	-12.0806
釣	-12.0806
奏外辦	-12.0806
韮	-12.0806
毳	-12.0807
薛氏作	-12.0807
穜	-12.0807
捶	-12.0807
贏	-12.0807
宋大中祥符二年封	-12.0807
逕	-12.0807
宛大二縣	-12.0807
江南太倉人	-12.0807
劭	-12.0808
鴉	-12.0808
時務䇿	-12.0808
絡繹	-12.0808
録事二人從九品上	-12.0808
瀕	-12.0808
吏科給事中	-12.0808
胄曹參軍事各一人	-12.0809
右春坊右庶子	-12.0809
晉天福	-12.0809
願就教職者	-12.0809
幙	-12.0809
巵	-12.0809
蟻	-12.0809
誹	-12.081
如淳注	-12.081
陳敬宗	-12.081
燔	-12.081
恙	-12.081
怵	-12.081
廚	-12.081
趙國麟	-12.081
以少牢	-12.0811
獻官陪祭官	-12.0811
劉昭後漢書志注	-12.0811
羆	-12.0812
堆	-12.0812
知汝州	-12.0812
邯	-12.0812
具實奏聞	-12.0812
槀	-12.0812
敗倫傷化	-12.0812
皇帝遣致祭于	-12.0812
考睿宗知天守道洪	-12.0812
經籍圖書	-12.0813
鼓三嚴	-12.0813
咸亨元年復為	-12.0814
􁁱	-12.0814
僧録司	-12.0814
耦	-12.0814
癸夘	-12.0814
璩	-12.0814
挟	-12.0815
漣	-12.0815
娛	-12.0815
埃	-12.0815
英國公張輔	-12.0815
陌	-12.0815
張家口	-12.0816
監脩國史	-12.0816
藜	-12.0816
主簿二人從七品上	-12.0816
左春坊左諭徳	-12.0816
皥	-12.0816
夐	-12.0816
煇	-12.0817
罽	-12.0817
知鄆州	-12.0817
奏過事内一件	-12.0817
瘁	-12.0817
棫樸	-12.0817
駿奔	-12.0817
繙	-12.0817
來說欽此	-12.0817
徐處仁	-12.0817
知許州	-12.0818
蕭鎡	-12.0818
百官公卿表	-12.0818
縈	-12.0818
浙江徳清人	-12.0818
敬天勤民	-12.0818
幡	-12.0819
明俞汝楫編儀制司職掌	-12.0819
籩豆各四簠簋	-12.0819
彞倫堂	-12.0819
囂	-12.0819
督糧道	-12.082
缸	-12.082
持敬門	-12.082
謳	-12.082
扼	-12.082
霍韜	-12.082
史貽直	-12.0821
正黄旗	-12.0821
元正冬至	-12.0821
緜	-12.0821
訕	-12.0821
告大廷	-12.0821
紓	-12.0821
罙	-12.0822
楠	-12.0822
直𨽻無錫人	-12.0822
上士二人中士四人	-12.0822
甯	-12.0822
荔	-12.0822
匱乏	-12.0822
釗	-12.0822
炙	-12.0823
畱	-12.0823
仭	-12.0823
北魏魏書	-12.0823
兕	-12.0823
虺	-12.0824
山東歴城人	-12.0824
為己任	-12.0824
喉舌	-12.0824
聦	-12.0824
分别等第	-12.0825
陳獻章	-12.0825
廣東南海人	-12.0826
慾	-12.0826
奉恩將軍	-12.0826
臼	-12.0826
膠庠	-12.0826
霾	-12.0827
神霄玉清萬	-12.0827
璵	-12.0827
臾	-12.0829
煑	-12.0832
永為遵守	-12.0832
二帝三王	-12.0833
欹	-12.0833
品並第	-12.0834
伽	-12.0834
張鵬翀	-12.0834
寰區	-12.0836
劉光世	-12.0836
珣	-12.0836
掘	-12.0838
黄咨紙	-12.0838
位設于	-12.0839
江西臨川人	-12.0851
思明府	-12.0857
銀五兩	-12.0884
學士朱升	-12.089
癸未進士萬厯	-12.0898
春坊司經局	-12.0935
叩三頭一揖一躬	-12.0959
人位於丹陛	-12.0985
陞祠祭司員外	-12.1004
節度觀察	-12.1027
尺一合四	-12.1232
兵曹參軍	-12.129
服斬衰	-12.1334
少詹事兼侍讀學士	-12.1467
悛	-12.1494
肖	-12.1534
髠	-12.1546
令一人六百石本注曰	-12.1547
褾	-12.1555
戛	-12.1556
鑠	-12.1556
殻	-12.1556
芟	-12.1557
賖	-12.1557
羈	-12.1557
㦂	-12.1558
搬	-12.1558
尚享一樂章迎神	-12.1559
方心曲領	-12.156
坐糧㕔	-12.1561
祖宗列聖帝后	-12.1561
資善大夫	-12.1563
櫍	-12.1563
服通天冠絳紗袍	-12.1563
仞	-12.1563
徐有貞	-12.1563
錡	-12.1563
閟	-12.1564
折庫納	-12.1565
靺	-12.1565
些	-12.1565
合奏啓	-12.1565
授編修三甲	-12.1565
奉太祖皇帝聖㫖	-12.1565
銀章青綬	-12.1565
豺	-12.1566
大社大稷	-12.1566
年繇祠祭調任陞	-12.1566
批驗所	-12.1567
慈貞化哲順仁徽成天育聖至徳髙皇后	-12.1567
兩六錢六分六厘	-12.1567
司獄司司獄	-12.1567
訖樂復作奏俯伏興平身	-12.1567
豳風亭	-12.1568
遡	-12.1568
録尚書事	-12.1568
司禮監官捧進	-12.1568
瘦	-12.1569
謹詣祖宗列聖帝后神位前恭預告知	-12.1569
夭	-12.1569
依擬行欽此	-12.1569
不見於史	-12.1569
粃	-12.157
垢	-12.1571
文武百官各具朝服	-12.1571
昺	-12.1571
賭	-12.1572
魄	-12.1572
擔	-12.1572
青韈舄	-12.1572
􁠙	-12.1572
八兩燭二枝四兩燭	-12.1572
左右武候	-12.1572
孫岳頒	-12.1572
冠一頂	-12.1572
樂生七十二人	-12.1573
呂頥浩	-12.1574
貿	-12.1574
孕	-12.1574
史闕其員	-12.1575
檔子房	-12.1575
直隸崑山	-12.1576
彗	-12.1577
酺	-12.1577
呵怎生奏呵奉聖㫖	-12.1577
山西澤州人	-12.1577
贈太保諡文	-12.1578
拜手稽首	-12.1578
鼉	-12.1578
喇沙里	-12.1579
外郎知制誥拜	-12.1579
甥	-12.1579
濛	-12.158
㛰	-12.158
特哩衮	-12.158
芹菹	-12.158
虔	-12.158
禩	-12.158
髀	-12.158
鄉試中額	-12.158
咸平四年	-12.158
闘	-12.1581
堦	-12.1581
祾恩殿	-12.1581
沴	-12.1581
員外郎龍朔咸亨	-12.1581
羡	-12.1581
漢魏以來	-12.1581
徐元文	-12.1581
笵銅為之	-12.1581
噦	-12.1581
進賀表箋	-12.1581
奉宸苑	-12.1581
康定元年	-12.1581
掯	-12.1581
春秋二仲	-12.1582
鍜	-12.1582
江西安福縣人	-12.1582
駱	-12.1582
燔柴	-12.1582
竺	-12.1583
黄龍府	-12.1583
陬	-12.1583
乾清宮	-12.1583
錮	-12.1583
諡曰忠	-12.1583
江南金壇	-12.1584
犁	-12.1584
䋲愆㕔	-12.1584
鄂爾多	-12.1584
荳	-12.1584
鞅	-12.1584
醯醢	-12.1584
兢兢	-12.1585
乞骸骨	-12.1585
瑯	-12.1585
洮岷	-12.1585
侣	-12.1585
橘	-12.1585
賜進士及第	-12.1585
山東掖縣人	-12.1585
鼓初嚴	-12.1585
令二人丞二人	-12.1585
伏乞聖裁一	-12.1585
誑	-12.1586
皇穹宇	-12.1586
府五人史十人	-12.1587
各具吉服	-12.1587
靈駕進發	-12.1587
軍民利病	-12.1587
僦	-12.1587
都布按三司	-12.1587
譔	-12.1588
詘	-12.1588
搢笏鞠躬三舞蹈	-12.1588
提舉萬壽觀	-12.1588
髙若訥	-12.1588
董卜韓胡	-12.1588
庋	-12.1589
斚	-12.1589
聖主臨雍禮成	-12.1589
楊士奇	-12.1589
澣	-12.1589
賸	-12.1589
渤	-12.159
歸田里	-12.159
瑤	-12.159
臭	-12.159
軻	-12.159
印一顆	-12.159
㳙	-12.1591
廕生廕監生	-12.1591
知江寧府	-12.1591
鑲藍旗	-12.1591
菽	-12.1591
胡宗愈	-12.1591
蕆	-12.1591
柟	-12.1591
江南崑山人	-12.1592
珥	-12.1592
琥	-12.1592
罏	-12.1592
仁宗昭皇帝	-12.1592
詡	-12.1593
絢	-12.1593
脇	-12.1593
澧	-12.1594
鉢	-12.1594
韎	-12.1594
毖	-12.1594
淚	-12.1594
騁	-12.1594
泰昌元年	-12.1594
径	-12.1594
冏	-12.1595
寧古塔	-12.1595
猊	-12.1595
玠	-12.1596
貊	-12.1597
謾	-12.1597
諗	-12.1598
廛	-12.1599
掣籖	-12.16
莘	-12.16
瓛	-12.16
河南祥符人	-12.1601
典儀唱行亞獻禮	-12.1603
脈	-12.1604
栖	-12.1606
鼠	-12.1607
吞	-12.1607
交章論	-12.1608
緗	-12.1608
都監同監	-12.161
愠	-12.1613
集禧觀使	-12.1614
直𨽻武進人	-12.1615
通天冠	-12.1616
宴于禮部	-12.1625
洪惟我	-12.1626
月初旬	-12.1657
縣人舉人嘉靖	-12.173
七品密喇布伯克一人	-12.2003
兩七錢	-12.2133
年繇吏部左	-12.2134
年省漢人	-12.2175
工六工一	-12.2196
蕉	-12.2351
本標中左右	-12.2358
鏊	-12.2369
諭禮部臣曰	-12.2379
北極佑聖真君	-12.2385
孫在豐	-12.2388
劫	-12.2388
欽定歴代職官表卷	-12.2389
勣	-12.2389
准行令就彼冠帶	-12.239
鶻	-12.239
巴里坤	-12.239
胥十有二人徒百有二十人	-12.2391
退立于西	-12.2392
降自東階	-12.2393
康熙四十五年	-12.2393
成國公朱	-12.2393
煽	-12.2393
檔	-12.2394
蠎	-12.2395
絜	-12.2395
枋	-12.2396
直隸武進	-12.2396
承宣布政使司	-12.2396
孝𤣥孫嗣皇帝	-12.2396
筴	-12.2397
備馬赴京進貢告襲永樂	-12.2397
參知政	-12.2397
以日易月	-12.2398
宋宰輔編年錄	-12.2398
則具本題知	-12.2398
勵廷儀	-12.2398
㽔	-12.2398
賛鞠躬樂作賛四拜興平身樂止	-12.2398
縞	-12.2399
拗	-12.2399
襄陵王	-12.24
柵	-12.24
頒布天下	-12.2401
人己丑進士萬厯	-12.2401
年繇行人陞任	-12.2401
朢	-12.2401
兵部武選司	-12.2402
樂止典儀唱行亞獻禮樂作	-12.2402
鞓	-12.2402
襦	-12.2402
一品至五品	-12.2403
洛陽伽藍記	-12.2403
訣	-12.2403
覔	-12.2403
山堂考索	-12.2404
綑	-12.2404
浙江海鹽人	-12.2405
馥	-12.2405
叔梁紇	-12.2405
行安神禮	-12.2405
荀悦漢紀	-12.2406
大使副使各一人	-12.2406
孫逢吉職官分紀	-12.2406
禮部尚書鄒幹	-12.2406
璡	-12.2406
八兩燭十六枝四兩燭	-12.2406
䭾	-12.2406
醓醢	-12.2407
性理大全	-12.2407
恰	-12.2407
一儀注祭日子時	-12.2407
跪於上右	-12.2407
金聲玉振	-12.2408
行釋奠禮	-12.2408
絹六疋	-12.2408
神龍元年復故	-12.2408
柝	-12.2408
六工尺一尺合四合	-12.2408
栐	-12.2409
䝉聖恩	-12.2409
亭長二人掌固四人	-12.2409
四川廣東廣西雲南貴州	-12.2409
上可其奏	-12.2409
不可勝紀	-12.2409
耕根車	-12.2409
導上至香案前奏	-12.2409
雲雨風雷	-12.241
鬬	-12.241
牕	-12.241
文行兼優	-12.241
百世不遷	-12.241
日以承直郎上	-12.241
孫承澤春明夢餘録	-12.2411
慊	-12.2411
北面西上	-12.2411
騂	-12.2411
葛邲	-12.2412
棍	-12.2412
攢	-12.2412
啓聖祠	-12.2412
朞	-12.2412
翌	-12.2412
軀	-12.2412
無思不服	-12.2412
延和殿	-12.2412
朝奉大夫	-12.2412
内藏庫	-12.2412
讀祝官捧祝進帛官捧帛	-12.2413
右春坊右中允	-12.2413
忒	-12.2413
行三跪九叩禮	-12.2413
知蔡州	-12.2413
乣	-12.2414
詔建辟雍	-12.2414
菁莪	-12.2414
黃濳善汪伯彦	-12.2414
元旦冬至	-12.2414
滔	-12.2414
廖道南	-12.2414
蜂	-12.2414
巡城御史	-12.2415
詣望瘞位	-12.2415
顓頊	-12.2415
燫	-12.2415
礶	-12.2415
酸	-12.2415
大使一員副使一員	-12.2415
珦	-12.2415
倅	-12.2415
行五拜禮	-12.2415
直𨽻宜興人	-12.2415
襲祖爵	-12.2416
神其鑒知尚享	-12.2416
仆	-12.2416
彘	-12.2416
沓	-12.2416
躭	-12.2416
顏	-12.2416
知成都府	-12.2417
大成至聖文宣王	-12.2417
袝	-12.2418
鄧洵武	-12.2418
按摩師	-12.2418
剙	-12.2418
戬	-12.2418
博學宏詞	-12.2418
華陽國志	-12.2418
籞	-12.2419
元貞二年	-12.2419
宋洪遵編	-12.2419
聖祖康熙十	-12.2419
㕘賛大臣	-12.2419
徐乾學	-12.2419
扞	-12.2419
欽定四庫全書翰苑羣書卷	-12.242
唱排班班齊	-12.242
吕祖謙	-12.242
胥八人徒八十人	-12.242
艮	-12.242
侗	-12.242
進呈御覽	-12.242
噶匝納齊伯克	-12.242
今該前因	-12.2421
武宗毅皇帝	-12.2421
皇慶二年	-12.2421
左通政	-12.2421
閥	-12.2421
頺	-12.2421
天𢎞道髙明肇運	-12.2421
滿洲正藍旗人	-12.2421
儔	-12.2421
紈	-12.2421
詣酒尊所	-12.2421
叡	-12.2422
趕	-12.2422
太清樓	-12.2422
姒	-12.2422
饎	-12.2422
屍	-12.2422
眠	-12.2422
頒示天下	-12.2422
􁐉	-12.2422
寬	-12.2423
葉夢得石林燕語	-12.2423
愬	-12.2423
烜	-12.2423
苑馬寺	-12.2423
尚書張昇	-12.2423
俛	-12.2424
福建福清人	-12.2424
胎	-12.2424
兼羣牧制置使	-12.2425
苔	-12.2425
知頴昌府	-12.2425
礬	-12.2425
敉	-12.2425
承丕緒	-12.2426
秉國鈞	-12.2426
彜	-12.2426
自中大夫守	-12.2426
述聖子思子	-12.2426
福建漳浦人	-12.2426
延康殿學士	-12.2426
直𨽻歙縣	-12.2427
真徳秀	-12.2427
禮記王制	-12.2428
大戴禮	-12.2428
聖駕親詣太學大禮慶成	-12.2429
糕	-12.2429
洶洶	-12.2429
無忌憚	-12.2429
祓	-12.2429
乃有是命	-12.2429
河泊所	-12.243
㨿	-12.243
用素饈	-12.243
杵	-12.243
太液池	-12.2431
七月至十二月折布	-12.2431
同加修省	-12.2432
江西進賢人	-12.2433
穡	-12.2433
榦	-12.2433
欽惟我皇上	-12.2434
軨	-12.2435
直𨽻崑山人	-12.2436
大昇輿	-12.2439
鎮廵等官	-12.244
猒	-12.244
諠	-12.2441
葭	-12.2441
鍠	-12.2443
滚	-12.2443
告治廷	-12.2444
直𨽻吳縣	-12.2444
劉奉世	-12.245
朐	-12.2451
敭	-12.2454
山東諸城人	-12.2459
曰瓦述	-12.2464
直隸歙縣人	-12.2485
後屬貴	-12.2511
人庚辰進士萬厯	-12.2514
游擊將軍	-12.2774
文館大學士監修國史	-12.2884
山西蒲州人	-12.313
樂舞生就位執事官各司其事	-12.3152
縣人壬戌進士	-12.3254
本標左右二營	-12.3276
奏樂内贊奏陞壇導上至	-12.3284
迯	-12.3284
月分薦新品物品物數	-12.3284
闋	-12.3291
㙺	-12.3291
蘿	-12.3292
蓉	-12.3292
就彼承襲	-12.3294
簟	-12.3296
跪奏云太常寺	-12.3296
讀祝讀訖樂復作	-12.3297
唐古特語	-12.3297
奉太宗皇帝聖㫖	-12.3298
萇	-12.3299
欽定四庫全書禮部志稿卷八十	-12.33
良醖署	-12.3302
陞自西階	-12.3303
孔顔孟三氏	-12.3303
麩	-12.3304
禇	-12.3304
乾清門	-12.3304
日以奉訓大夫上	-12.3304
詣各神位前	-12.3304
俌	-12.3304
幇	-12.3304
祝文維洪武某年	-12.3306
縗	-12.3306
歸喪次	-12.3306
楶	-12.3306
韍	-12.3307
符璽郎	-12.3307
弧	-12.3307
陵遣官本前二日面奏奉先殿祭祀	-12.3307
褲	-12.3308
録事掌受事發辰	-12.3308
妬	-12.3308
犂	-12.3308
以緅為領縁	-12.3308
渺	-12.3308
所属刑名兼	-12.3308
大成殿甬路	-12.3309
徐堅初學記	-12.3309
塼	-12.3309
寳源局	-12.3309
絹八疋	-12.3309
以福酒跪進	-12.3309
賠	-12.331
譖	-12.3311
阿克敦	-12.3311
斾	-12.3311
榭	-12.3311
哈喇哈斯	-12.3311
搖	-12.3312
元王士㸃撰	-12.3312
某月某朔某日	-12.3312
淆	-12.3312
贛	-12.3312
綵段三表裏	-12.3312
彫	-12.3313
葷	-12.3313
糠	-12.3313
平帝元始	-12.3313
玉振金聲	-12.3314
毬	-12.3314
旗手衛	-12.3315
三國呉志	-12.3315
北齊因之隋	-12.3315
腯	-12.3315
四㕔六堂	-12.3315
惲	-12.3316
涘	-12.3316
熊賜履	-12.3316
誠如聖諭	-12.3316
職官分紀	-12.3316
候鳴鞭訖跪奏云太常寺卿臣某等謹奏	-12.3316
拷	-12.3316
佻	-12.3316
掩𤣥宫	-12.3316
聪	-12.3316
郃	-12.3316
沭	-12.3316
莫此為甚	-12.3316
笥	-12.3316
十張白咨紙	-12.3317
銅印方二寸	-12.3317
逡	-12.3317
六部都察院通政司大理寺	-12.3317
梓宫在殯	-12.3317
祅	-12.3317
窓	-12.3318
皇朝武徳中	-12.3318
該本部議照	-12.3318
少卿二人從四品上	-12.3318
校尉五人旅	-12.3318
初獻夀和	-12.3318
嘿	-12.3319
殳	-12.3319
鷩	-12.3319
逖	-12.3319
週	-12.3319
脾	-12.3319
蚪	-12.3319
又四拜禮畢	-12.3319
奏上香上三上香訖	-12.3319
晞	-12.332
湯三品雙下饅頭	-12.332
㓙	-12.332
矇	-12.332
至昭亨門	-12.332
浣	-12.332
孝宗敬皇帝	-12.332
跣	-12.3321
鑊	-12.3321
汁	-12.3321
羹	-12.3321
杳	-12.3322
蔡升元	-12.3322
附著於此	-12.3322
夬	-12.3322
褫	-12.3322
造墳安葬	-12.3322
渇	-12.3322
太常愽士	-12.3322
禰	-12.3323
㝢	-12.3323
籩十豆十	-12.3323
奉憲宗皇帝聖㫖	-12.3323
迎神太和之曲	-12.3323
知縣行取任	-12.3323
滇	-12.3324
王次翁	-12.3324
滌爵拭爵	-12.3324
菌	-12.3324
羙	-12.3324
讋	-12.3325
籬	-12.3325
舉江州太平觀	-12.3325
阿嚕台	-12.3325
甡	-12.3326
兵曹參軍事各一人	-12.3326
觥	-12.3326
熬	-12.3326
仄	-12.3327
搨	-12.3327
賜祭塟如例	-12.3327
繇祠祭司主事陞任	-12.3327
噶爾丹	-12.3327
瑰	-12.3328
遂有此除	-12.3328
三班使臣充	-12.3328
垜	-12.3328
世襲罔替	-12.3328
紃	-12.3329
関	-12.3329
逭	-12.3329
謔	-12.3329
旰	-12.3329
薇	-12.3329
佐二人史四人	-12.333
餳	-12.333
李燾續資治通鑑長編	-12.333
酇	-12.333
惹	-12.333
北齊因之後周	-12.3331
詛	-12.3331
武勝軍節度使	-12.3331
任蘭枝	-12.3332
公伯寮秦冉顔何	-12.3333
嬖	-12.3333
江朝宗	-12.3334
直𨽻常熟人	-12.3334
臬	-12.3334
一正祭是日	-12.3334
圯	-12.3334
准中書禮部闗	-12.3335
竚	-12.3335
鼻	-12.3335
酒十瓶	-12.3335
湖廣麻城人	-12.3335
忩	-12.3335
魅	-12.3335
浙江嘉善人	-12.3335
令史四人書令史九人掌固四人	-12.3336
衞喇特	-12.3336
㠯	-12.3337
朌	-12.3337
燱	-12.3337
蹄	-12.3337
知永興軍	-12.3337
一丈五尺	-12.3337
杻	-12.3337
閧	-12.3338
以違制論	-12.3338
王士禎	-12.3338
毀	-12.3338
賜同進士出身	-12.3339
公車司馬令	-12.3339
張若靄	-12.3339
人掌固八人	-12.334
品塋地周圍	-12.334
拳拳	-12.334
詣靈座前	-12.3341
陸九淵	-12.3341
韞	-12.3341
邳	-12.3342
世祖順治十	-12.3342
疚	-12.3343
罷州置郡	-12.3343
㕑	-12.3343
銀作局	-12.3343
蒲宗孟	-12.3344
倓	-12.3344
垠	-12.3346
甬	-12.3347
應天上元人	-12.3348
透	-12.3349
恍	-12.335
歧	-12.3351
昃	-12.3352
醃	-12.3354
知鄧州	-12.3355
棚	-12.3356
獮	-12.3357
呶	-12.3361
北軍中候	-12.3364
饜	-12.3373
兼翰林院侍	-12.338
切一去聲	-12.339
直隸華亭縣人	-12.3391
武舞生六十六人文舞生六十六人燒香	-12.3422
襲父職	-12.3453
尺合一四	-12.3503
斬衰三年	-12.3632
𠫭將游擊	-12.3855
縣人乙未進士繇	-12.4245
葫	-12.4265
窠	-12.4266
位引承祭官	-12.4269
崇雩壇	-12.4274
布毎段一貫	-12.4274
同中書門下三品	-12.4276
媵	-12.4279
昬	-12.4279
省牲請㫖承㫖不叩頭一躬退	-12.4283
樂舞生陳設樂器	-12.4289
萱	-12.429
栲	-12.4291
知大宗正事	-12.4294
惮	-12.4295
紗羅各四疋	-12.4296
觀象臺	-12.4298
箔	-12.4298
玉芝宫	-12.4298
躡	-12.4301
褒成侯	-12.4302
皎	-12.4303
麽道聖㫖了也	-12.4304
㕓	-12.4304
讀祝官捧祝掌祭官捧帛饌各詣燎位	-12.4304
纚	-12.4304
趂	-12.4305
傭	-12.4305
塡	-12.4306
亹亹	-12.4306
晅	-12.4306
鄂勒哲	-12.4306
㽅	-12.4307
五嶽五鎮四海四瀆	-12.4307
康熙六十一年	-12.4307
矟	-12.4307
度遼將軍	-12.4307
三十枝胡桃栗子紅棗各	-12.4307
奏搢圭上受爵奏獻爵上獻訖奏出圭	-12.4307
庫勒納	-12.4307
籩豆各二簠簋	-12.4307
銅印墨綬進賢一梁冠絳朝服	-12.4308
褘	-12.4308
斤限七十	-12.4308
耐	-12.4309
澳	-12.4309
翕	-12.4309
夤	-12.4309
藍翎侍衛	-12.431
殛	-12.431
唱送神奏樂	-12.431
擅作威福	-12.431
禮部官捧詔書	-12.4311
一祝文維孝𤣥孫嗣皇帝某敢昭告於	-12.4311
褊	-12.4311
掊	-12.4311
衛大將軍各一人正三品	-12.4311
䢩	-12.4312
媛	-12.4312
恭讓章皇后	-12.4312
祹	-12.4312
蒿	-12.4312
棫	-12.4313
奎章閣	-12.4313
鑾儀衞	-12.4313
虞夏商周	-12.4313
秣	-12.4313
賢良方正	-12.4313
請自上裁	-12.4313
態	-12.4314
隋隋書百官志髙祖受命置	-12.4314
皿	-12.4314
長子長孫鎮輔奉國將軍中尉某	-12.4314
愒	-12.4314
少師兼太子太師	-12.4314
欽定四庫全書禮部志稿卷七十	-12.4315
鋤	-12.4315
讀祝官捧祝掌祭官捧帛饌各詣瘞位	-12.4315
踪	-12.4315
捄	-12.4315
壇陳設同帛一	-12.4315
礦	-12.4315
永孚于休	-12.4316
蓍	-12.4316
訝	-12.4316
攤	-12.4316
上諭行在禮部臣曰	-12.4316
觔果子四色蔬菜厨料	-12.4316
怛	-12.4316
菴	-12.4316
欽定四庫全書禮部志稿卷九十	-12.4316
布政司咨呈	-12.4316
碌	-12.4316
欽定四庫全書禮部志稿卷三十	-12.4317
莎	-12.4317
西面北上	-12.4317
厄魯特	-12.4317
貞觀政要	-12.4317
鄭氏次居	-12.4318
帥十人隊正二十人副隊正二十人	-12.4318
疇若予采	-12.4318
奉祀祀丞	-12.4318
唐開元八年從祀二十七年封	-12.4318
典儀唱讀祝官捧祝	-12.4318
鍚	-12.4318
袤	-12.4319
翩	-12.4319
衂	-12.4319
悮	-12.4319
照驗施行須至	-12.432
袪	-12.432
為某事云云合行	-12.432
左右羽林軍	-12.432
瞞	-12.432
禮工二部	-12.432
見年若干嵗	-12.432
􁈭	-12.432
灤	-12.4321
菑	-12.4321
正藍旗	-12.4321
詿	-12.4321
英國公張懋	-12.4321
毯	-12.4321
𣺌	-12.4321
湔	-12.4321
巂	-12.4321
翦	-12.4322
欒	-12.4323
衣巾終身	-12.4323
楓	-12.4323
艧	-12.4323
縣人壬辰進士繇	-12.4323
朱彛尊	-12.4323
翫	-12.4323
合下仰照驗	-12.4323
寺卿一人從三品	-12.4323
因時制宜	-12.4323
欽定四庫全書禮部志稿卷十	-12.4323
㪷	-12.4323
印房章京	-12.4323
抺	-12.4324
湖廣孝感人	-12.4324
謝維新合璧事類	-12.4324
誆	-12.4324
娑	-12.4324
鄭王厚烷	-12.4324
猪五口北羊	-12.4324
縟	-12.4324
上天示戒	-12.4325
删	-12.4325
廆	-12.4325
篪	-12.4325
洱	-12.4325
飪	-12.4325
緌	-12.4325
驁	-12.4325
銑	-12.4325
棻	-12.4326
廣西臨桂人	-12.4326
明俞汝楫編祠祭司職掌	-12.4326
嘖	-12.4326
拖沙喇哈番	-12.4326
六品上中候各	-12.4326
碁	-12.4326
馬步軍都指揮使	-12.4327
燁	-12.4327
涎	-12.4327
恡	-12.4327
畔	-12.4328
炤	-12.4328
屆	-12.4328
螺	-12.4328
椘	-12.4328
進士改翰林院庶吉士授編修	-12.4328
鏹	-12.4328
日守本官出院	-12.4329
鄖	-12.4329
坪	-12.4329
袁宏後漢紀	-12.4329
蓼	-12.4329
上謂宰執曰	-12.4329
鈺	-12.4329
釴	-12.4329
珽	-12.4329
太常續考	-12.4329
後魏闕文北齊	-12.4329
蹶	-12.433
瓏	-12.433
書令史二人書史四人	-12.433
縳	-12.433
蕚	-12.433
欽定四庫全書禮部志稿卷二十	-12.433
襴	-12.433
恭呈御覽	-12.433
埏	-12.433
產	-12.4331
孔頴逹	-12.4331
酹	-12.4331
爰立作相	-12.4331
豢	-12.4331
橫	-12.4331
羅欽順	-12.4332
詣梓宫前	-12.4332
銀二百兩	-12.4332
拜集賢相	-12.4332
詈	-12.4332
賾	-12.4333
孝恪皇后	-12.4333
燼	-12.4333
党	-12.4333
溟	-12.4333
副都統一人協領兼佐領	-12.4333
紿	-12.4333
槽	-12.4333
袂	-12.4334
𤯝	-12.4334
荼	-12.4334
張叔夜	-12.4334
价	-12.4335
盱	-12.4335
宓	-12.4336
墟	-12.4336
判建康府	-12.4336
慣	-12.4336
髣	-12.4336
如遣官代祭	-12.4336
寗	-12.4337
蘧瑗林放	-12.4337
頷	-12.4337
狁	-12.4337
艶	-12.4337
愔	-12.4338
蘧	-12.4338
五經博士各氏後裔	-12.4338
江西南城人	-12.4338
你部裏	-12.4338
嫡第一子	-12.4339
韋執誼	-12.434
峘	-12.434
王鴻緒	-12.434
涇簡王	-12.434
暄	-12.434
礱	-12.4341
昭文相制曰	-12.4341
璀	-12.4342
駼	-12.4342
直𨽻長洲人	-12.4342
阡	-12.4342
餈	-12.4342
肱	-12.4343
笳	-12.4344
㤀	-12.4345
河南睢州人	-12.4345
髴	-12.4345
漪	-12.4346
愎	-12.4346
慄	-12.4346
泝	-12.4347
氂	-12.4348
鈔六十錠	-12.4348
爻	-12.4349
劉統勲	-12.435
此其當行者	-12.435
按酒五般果子五般	-12.4352
㝎	-12.4352
直𨽻太倉人	-12.4352
一祝文維某年	-12.4354
璠	-12.4355
曵	-12.4356
掦	-12.4357
看詳到事理施行	-12.4358
安西都䕶	-12.436
部尚書一人正三品	-12.4363
姆	-12.4365
曰霍耳	-12.4365
嬸	-12.4374
伊勒希巴	-12.4375
登聞檢院	-12.4383
辰天啓	-12.4419
漢人一人主事滿洲漢人各一人掌稽	-12.4919
年繇祠祭司員	-12.4934
制司主事陞任	-12.5251
禑	-12.5373
廣西全州人	-12.5376
授執事者執事者跪受置于北案	-12.5378
襲封文宣公	-12.538
鵰	-12.5383
防守尉一人防禦二人驍騎校一人	-12.5384
營同城一營	-12.5392
地方贊理軍務一員巡撫	-12.5393
賃	-12.5395
撒哈剌	-12.5396
人乙未進士萬厯	-12.5399
職名總目某	-12.5402
􁨹	-12.5402
揄	-12.5404
春明夢餘録	-12.5406
官詣太和殿演禮樂畢詣犧牲所看牲	-12.5408
裴松之三國志注	-12.5409
槨	-12.541
俵	-12.541
釐七毫	-12.5411
鍼取法於	-12.5411
逺逰冠	-12.5411
各舉所知	-12.5413
冊繩愆㕔司之凡	-12.5413
于太和殿朝夕演習禮樂	-12.5413
訢	-12.5413
員外郎滿洲三人	-12.5413
一供祀厨役	-12.5415
闗請照驗	-12.5416
遣使奉金葉表	-12.5416
鍵	-12.5416
准他做巡檢	-12.5416
裀	-12.5417
左右清道率府	-12.5417
吏兵二部	-12.5417
甕	-12.5417
樂韶鳳	-12.5417
陵遣官本不奏祭祀四案香燭果品等	-12.5417
達瓦齊	-12.5417
褻	-12.5417
垓	-12.5418
陵遣官本不奏祭祀	-12.5418
箇簠簋籩豆碟	-12.5418
六工尺一尺一合四合	-12.5418
某日午後沐浴更衣於本衙門宿歇某日	-12.5419
胡桃四斤栗子六斤紅棗五斤	-12.5419
縛	-12.5419
漢書西域列傳	-12.542
衕	-12.5421
熄	-12.5421
釜	-12.5421
穫	-12.5421
繇殿左門入	-12.5421
少傅兼太子太傅	-12.5422
朏	-12.5422
待制王禕	-12.5422
翹頭案	-12.5422
額爾竒木	-12.5423
抉	-12.5423
㐲	-12.5424
科爾沁	-12.5424
茵	-12.5424
太廟門西降輿	-12.5424
蔭	-12.5424
寳泉局	-12.5424
鄂爾竒	-12.5425
鎰	-12.5426
都轉運鹽使司	-12.5426
縣人嘉靖八年進士	-12.5426
衒	-12.5426
教坊司設中和韶樂及大樂	-12.5426
喉	-12.5427
榷	-12.5427
殞	-12.5427
賜緋魚袋	-12.5427
漢人各一人主事滿洲漢人各一人掌	-12.5427
開元二十三年減	-12.5427
金印紫綬	-12.5428
神霄殿	-12.5428
黍稷稻粱各	-12.5428
淋	-12.5429
凾	-12.5429
皇帝服皮弁	-12.5429
尚藥奉御	-12.5429
鎮本標五營	-12.5429
䝉古一人漢人一人	-12.5429
文武百官自本月	-12.5429
卲	-12.5429
禮部尚書牛諒	-12.5429
耤	-12.543
都水臺使者	-12.543
爵酒教坊司跪奏	-12.543
勸課農桑	-12.543
𨼆	-12.543
馹	-12.543
長史掌判諸曹	-12.5431
藕	-12.5431
燥	-12.5432
䜟	-12.5432
迎接詔赦	-12.5432
南嶽衡山	-12.5432
宁	-12.5432
岳鎮海瀆	-12.5432
品阿竒木伯克一人六品哈子伯克一人	-12.5432
珀	-12.5433
選娶内助	-12.5433
承流宣化	-12.5433
欽此正德四年該本部議得	-12.5433
大樂鼓吹振作	-12.5433
少詹事兼侍講學士	-12.5433
阿竒木伯克一人四品伊什罕伯克一人	-12.5433
饉	-12.5434
鄢	-12.5434
濩	-12.5434
樂止典儀唱行亞獻禮奏樂	-12.5434
工尺工尺一四尺合四合	-12.5434
丏	-12.5434
拜中書侍郎平章事	-12.5434
薛所藴	-12.5435
訥克布伯克	-12.5435
鱣	-12.5435
隮	-12.5436
宼	-12.5436
櫈	-12.5436
六品哈子伯克一	-12.5436
趙孟頫	-12.5437
雯	-12.5437
長河西魚通寧逺	-12.5437
魘	-12.5437
恒裕倉	-12.5437
夑	-12.5438
碟	-12.5438
聖宗統和	-12.5438
六科十三道	-12.5438
判尚書都省	-12.5438
崇政殿説書	-12.5438
廣東番禺	-12.5438
諜	-12.5438
欽定四庫全書禮部志稿卷六十	-12.5438
詫	-12.5439
骸	-12.544
穆呼哩	-12.544
之貲並第	-12.544
蔥	-12.544
江南丹徒人	-12.544
鄂爾根徹爾	-12.544
曳	-12.544
娘	-12.544
亭長六人掌固八人	-12.5441
泓	-12.5441
悼恭太子	-12.5441
年繇户部調任	-12.5441
蠅	-12.5441
憺	-12.5441
三省同奉聖旨	-12.5441
欽定四庫全書禮部志稿卷五十	-12.5441
疏禮部尚書沈鯉題為	-12.5441
訪落之初	-12.5441
恭仁康定景皇帝	-12.5441
朘	-12.5441
蕘	-12.5441
酥	-12.5441
釋奠於先聖先師	-12.5441
事無巨細	-12.5441
椎	-12.5441
一丈四尺	-12.5442
人掌固五人	-12.5442
搃	-12.5442
茄	-12.5442
鄉舉里選	-12.5442
藿	-12.5442
烙	-12.5442
厝	-12.5442
使從五品副使從六品掌	-12.5442
杜預注	-12.5442
釋道二教	-12.5442
霆	-12.5443
笈	-12.5443
斫	-12.5444
欽定四庫全書禮部志稿卷四十	-12.5444
牧民忠告	-12.5444
諺	-12.5444
勑中書門下省尚書省送到	-12.5444
銀絲紗一件	-12.5444
嘯	-12.5444
事儀制司案呈	-12.5444
景靈宫使	-12.5445
河陽三城節度使	-12.5445
迎接詔勅	-12.5445
胖	-12.5445
悒	-12.5446
禮兵二部	-12.5446
戞	-12.5446
擗	-12.5446
楊守阯	-12.5446
虬	-12.5446
倩	-12.5446
曹參軍事二人正七品下	-12.5446
拈	-12.5447
漲	-12.5448
駰	-12.5448
澇	-12.5448
峕	-12.5449
鶉	-12.5449
使斡里雅布	-12.5449
扎薩克	-12.5449
煤	-12.5449
淶	-12.545
啼	-12.545
啖	-12.545
詣香案前跪	-12.545
棖	-12.545
穏	-12.545
閤門祇侯	-12.545
霏	-12.5451
𦍑	-12.5451
峰	-12.5451
有辭於永世	-12.5451
擅自成婚	-12.5451
升白麫蕎麥麫各	-12.5452
嘱	-12.5452
蒔	-12.5452
青纊充耳	-12.5452
凑	-12.5452
肉飯酒五鍾	-12.5453
葩	-12.5453
省署抄目	-12.5453
簫笳各	-12.5453
麋	-12.5454
提舉崇福宫	-12.5454
殱	-12.5454
卻	-12.5455
譌	-12.5455
洪适𨽻釋	-12.5455
縦	-12.5456
鄞	-12.5456
羾	-12.5457
鎮輔奉國	-12.5457
牂	-12.5457
茸	-12.5458
咄	-12.5458
膊	-12.546
佶	-12.5461
郇	-12.5461
折靴韈鈔五十錠	-12.5462
提舉亳州明道宫	-12.5465
哇	-12.5465
䛕	-12.5469
爨	-12.5472
面三門中曰	-12.5473
偵	-12.5476
宗皇帝子也	-12.5525
糯	-12.5578
郎兼翰林院侍讀學士	-12.6252
賛鞠躬樂作	-12.6328
慈孝貞順仁敬誠一安天誕聖獻皇后	-12.649
右内贊奏跪奏搢圭奏飲福酒	-12.6502
光宅神龍並隨曹	-12.6613
湑	-12.6623
的孩兒	-12.6637
衙門卿臣某等謹奏本月某日臣等恭詣	-12.6641
具吉服候上	-12.6643
后土勾龍氏	-12.6649
余堯弼	-12.665
奉聖㫖著他襲欽此故	-12.665
酗	-12.6651
俁	-12.6653
儋	-12.6653
品引馬側立遇	-12.6653
品趨右讓道而行	-12.6654
人臣儆心	-12.6656
省牲畢具本復命	-12.6657
繼天立極	-12.6657
恩㧞嵗副貢生	-12.6658
被賊殺死	-12.6659
紺	-12.666
伉	-12.666
峨	-12.666
槌	-12.6661
五齊三酒	-12.6661
儀俱同初獻惟	-12.6661
肫	-12.6661
氏庶生第	-12.6662
𬋩	-12.6662
東鎮沂山	-12.6663
义	-12.6664
省民賦收支奏册兼覈	-12.6665
鍊	-12.6665
寳輿香亭	-12.6665
竽	-12.6666
鶒	-12.6666
風雨霜露	-12.6666
内贊對引官導上行	-12.6666
且准他襲還行文書去覆勘	-12.6666
鄧川州浪穹縣	-12.6666
東九五齋北向仍出示長安門一齋牌	-12.6667
箇白磁爵	-12.6667
峴	-12.6667
鈿釵禮衣	-12.6667
凴	-12.6667
時恭候聖駕致祭	-12.6667
偰	-12.6668
嗽	-12.6668
告示白榜紙三張	-12.6668
禺	-12.6668
駝毎隻	-12.6668
賛跪賛讀祝讀訖賛俯伏興平身賛	-12.6669
詣讀祝位奏跪	-12.6669
鈇	-12.6669
痼	-12.6669
屬官率鋪排執御仗紗燈進齋戒牌銅人	-12.6669
衎	-12.667
花椒蒔蘿茴香各	-12.667
儺	-12.667
熞	-12.667
汭	-12.667
章如愚山堂考索	-12.667
遅	-12.6671
八兩燭四枝四兩燭	-12.6671
梳	-12.6671
畎	-12.6671
痕	-12.6671
安於太廟神庫	-12.6671
湖廣黄岡人	-12.6672
鄠	-12.6673
鄲	-12.6673
蘇門荅剌	-12.6674
永孚於休	-12.6674
杌	-12.6674
馮相保章	-12.6674
眚	-12.6674
擘	-12.6674
户工二部	-12.6674
奉聖㫖該部知道欽此	-12.6674
年繇主客司郎中調任	-12.6674
簿典簿㕔司之凡	-12.6674
朱夢炎	-12.6674
論功行賞	-12.6675
鋟	-12.6675
錙	-12.6675
某年月日入府成婚	-12.6675
六工一尺合四合	-12.6675
蠢	-12.6675
激切屏營之至	-12.6676
鑚	-12.6676
文官五品以上武官四品以上	-12.6676
合四一四尺一合四合	-12.6676
璃	-12.6676
絇	-12.6676
渰	-12.6676
私自簮剃	-12.6676
鍪	-12.6676
薛氏次居	-12.6676
瞭	-12.6677
鑽	-12.6677
靴襪各一雙	-12.6677
今故不著於表	-12.6677
某王臣某謹奏為乞恩	-12.6677
仁孝文皇后	-12.6677
緻	-12.6677
再論遂落職	-12.6677
驄	-12.6677
前奏跪奏搢圭奏上香奏	-12.6678
左右司禦率府	-12.6678
明俞汝楫編宗藩備考藩	-12.6678
成國公朱希忠	-12.6678
湖廣江夏人	-12.6678
山東膠州人	-12.6678
份	-12.6679
楦	-12.6679
㸑	-12.6679
福建安溪人	-12.6679
上具翼善冠黄袍	-12.6679
蹇序辰	-12.6679
娣	-12.668
矍	-12.6681
蓽	-12.6681
燃	-12.6681
獻可替否	-12.6681
萍	-12.6681
王頊齡	-12.6681
猖	-12.6681
徽猷閣待制	-12.6681
枝進銅人二兩燭十六枝	-12.6682
鶴慶軍民府	-12.6682
跌	-12.6682
獗	-12.6683
事文類聚	-12.6683
三日下程一次羊	-12.6683
山西沁水人	-12.6683
上士八人中士十有六	-12.6683
畦	-12.6683
躱	-12.6683
俚	-12.6683
淺淡色衣	-12.6683
閙	-12.6683
唐貞觀二十一年從祀宋	-12.6683
行春祭禮	-12.6684
軍務一員總督	-12.6684
儈	-12.6684
大學士張孚敬	-12.6684
親填祝版於文華殿	-12.6684
隻順德府	-12.6685
頸	-12.6685
總恊戎政	-12.6685
聖躬萬福	-12.6685
孝靜毅皇后	-12.6685
敡	-12.6685
皚	-12.6685
箇毛血盤	-12.6685
武冠絳朝	-12.6685
縡	-12.6685
撼	-12.6685
焰	-12.6685
分案五置吏	-12.6685
浙江黄巖人	-12.6685
䜿	-12.6686
日遷工部侍郎知制誥	-12.6686
外妾幾人第一妾某氏	-12.6686
食糝食	-12.6686
夸	-12.6686
敺	-12.6686
同底于道	-12.6686
贊者引喪主	-12.6686
録事一人府三人史	-12.6686
鄕	-12.6686
左侍郎兼翰林院侍讀學士	-12.6686
一辦祭官一員	-12.6686
柬	-12.6686
鞨	-12.6686
喏	-12.6687
左郎將一人右郎將一人	-12.6687
減賞于全賞内起送	-12.6687
抜	-12.6687
邜	-12.6687
司郎中一人員外郎二人主事	-12.6687
江西吉水縣人	-12.6687
䩞	-12.6687
蜚	-12.6688
燉	-12.6688
徽猷閣直學士	-12.6688
牣	-12.6688
嬴	-12.6688
欽定四庫全書太常續考卷	-12.6689
庄	-12.6689
浙江蕭山人	-12.6689
山南東道節度使	-12.6689
嵌	-12.6689
戺	-12.6689
禠	-12.669
中嶽嵩山	-12.669
悽	-12.669
立賢無方	-12.669
劬	-12.669
沗	-12.669
李心傳建炎以來朝野雜記	-12.669
輈	-12.669
女出嫁為本宗	-12.669
與王府結親	-12.6691
毘	-12.6691
氈	-12.6691
狀元率諸進士	-12.6691
神主于寢殿西第	-12.6691
内賛對引導上至	-12.6691
腊	-12.6692
蘚	-12.6692
有缺而新任者未受事則	-12.6692
晝簾緒論	-12.6692
教坊司設中和韶樂	-12.6692
暎	-12.6692
王圻續文獻通考遼南面	-12.6692
觖	-12.6692
咳	-12.6692
餒	-12.6693
飰	-12.6693
宋史河渠志	-12.6693
莠	-12.6693
砦	-12.6694
經明行修	-12.6694
䙏	-12.6694
刮	-12.6694
胡宿歐陽修	-12.6694
壌	-12.6694
溱	-12.6694
睨	-12.6694
岣	-12.6695
戀	-12.6695
迅	-12.6695
嗾	-12.6696
橙	-12.6696
磔	-12.6696
埀	-12.6696
硬	-12.6696
修已治人	-12.6696
丞掌判寺事凡	-12.6696
江西高安人	-12.6697
光宗即位下求言之詔詔曰卿	-12.6697
么	-12.6697
侍御史知雜事	-12.6698
唇	-12.6698
刄	-12.6698
孔穎達	-12.6698
緼	-12.6699
㒜	-12.6699
叵	-12.6699
㬰	-12.6699
蕊	-12.6699
醒	-12.67
灘	-12.67
墁	-12.67
詹事府左右春坊司經局	-12.67
即輿服志所云	-12.67
茨	-12.67
瞎	-12.6701
山東萊陽人	-12.6701
拳	-12.6701
僃	-12.6702
代天理物	-12.6703
䍐	-12.6703
癘	-12.6703
淂	-12.6703
盥盆帨巾	-12.6704
彍	-12.6705
韙	-12.6705
秦蕙田	-12.6705
􁱵	-12.6705
江西廬陵人	-12.6706
顗	-12.6706
擣	-12.6706
霓	-12.6707
耽	-12.6707
嘻	-12.6707
擲	-12.6707
軆	-12.6709
攔	-12.6711
封國封子	-12.6712
難進易退	-12.6713
㑹昌侯孫繼宗	-12.6713
莆	-12.6713
迦	-12.6713
嶙	-12.6713
孥	-12.6713
標中軍副將	-12.6713
聖主臨雍禮成恭紀	-12.6714
筵宴一次使臣囘	-12.6716
腑	-12.6718
鈔一百錠	-12.6718
崔豹古今注	-12.6718
不兼詩賦人	-12.6718
此天恩助順者	-12.6719
痩	-12.6719
趙槩楊偉	-12.672
鉟	-12.6722
天壽節賀	-12.6726
悳	-12.6727
倥	-12.6728
頫	-12.6741
並隨曹改	-12.6761
守禦千戸所	-12.6771
鞠躬樂作四拜興平身樂止	-12.678
丙辰進士天啟	-12.6811
舞生就位執事官各司其事内贊奏就位	-12.6863
興平身上平身	-12.6895
二人漢人一人主事滿洲漢人各一人掌	-12.7264
人壬戌進士嘉靖	-12.7326
宋齊梁陳後魏北	-12.748
人七品明伯克	-12.794
逺夷則控	-12.8051
龐	-12.8056
藳	-12.8069
芙	-12.8071
显	-12.8072
鼗	-12.8075
等下大夫正三命	-12.8075
戱	-12.8076
翮	-12.8076
以后稷氏配	-12.8078
剗	-12.8079
靖逺伯王驥	-12.8081
綳	-12.8082
蔕	-12.8083
書律歴志	-12.8085
麞	-12.8086
刲	-12.8087
剿	-12.8087
為神庫神厨宰牲亭	-12.8087
提舉江州太平興國宫	-12.8087
典樂舉麾唱	-12.8087
弇	-12.8088
賜國王大統厯	-12.8088
瓣	-12.8088
兄終弟及	-12.8089
中士四人下士八人府二人	-12.8089
間施三玉環	-12.809
孫嗣皇帝御名謹遣昭告于	-12.809
𬒳	-12.809
花椒茴香各	-12.8091
貂䑕皮	-12.8092
保抱抱王	-12.8092
菓	-12.8092
鏌	-12.8093
咸安宫官學	-12.8093
一行掲帖知㑹司禮監填祝版	-12.8093
蚕	-12.8093
還著流官掌印	-12.8094
八兩燭十二枝四兩燭	-12.8094
𥙿	-12.8095
太宗仁宗兩朝實録	-12.8095
授執事者執事者跪受	-12.8095
蕃王及其從官	-12.8095
賛引導遣官行教坊司作樂賛	-12.8095
大徳十年三月十五日加	-12.8095
澮	-12.8095
勰	-12.8096
糟	-12.8096
倉各置監支納一員正七品大使	-12.8096
炯	-12.8096
墧	-12.8096
慱	-12.8096
鐶	-12.8096
詣盥洗所賛搢笏盥訖賛出笏	-12.8097
剝	-12.8097
檤	-12.8097
一登壇官員掌祭	-12.8098
引馬側立	-12.8098
隗	-12.8099
忮	-12.8099
蹂	-12.8099
廣東順徳人	-12.8099
窵	-12.8099
胃	-12.8099
拽	-12.8099
未革爵前所生	-12.8099
莢	-12.8099
嫩	-12.81
秃	-12.81
箧	-12.81
糙	-12.81
泐	-12.8101
尚輦局奉御	-12.8101
都堂鈞㫖准呈	-12.8101
太子正字桂彦良	-12.8102
十五日本寺委協律郎提調樂舞生執事	-12.8102
御案前奏搢圭上受帛奏獻帛	-12.8102
遒	-12.8103
漷	-12.8103
𤣥衣纁裳	-12.8103
領勅繳勅	-12.8103
塚	-12.8103
飴	-12.8103
梔子紅麯各	-12.8103
滙	-12.8104
􁬀	-12.8104
中士八人下士十有六人	-12.8104
受胙上受訖奏出圭俯伏興平身奏	-12.8104
璐	-12.8104
搗	-12.8104
嶧	-12.8105
盌	-12.8105
東西長安門告示太常寺為祭祀事照得	-12.8105
涸	-12.8105
長陵等十二陵	-12.8105
鑲黄正黄正	-12.8105
金章紫綬	-12.8105
嘲	-12.8105
各司視事之繁簡以為額	-12.8106
等因具啓到臣查得宗藩要例内	-12.8106
醤	-12.8106
樂作進酒如前儀樂止	-12.8106
知天守道洪	-12.8107
戶	-12.8107
吸	-12.8107
珎	-12.8107
候命下本部移咨都察院轉行	-12.8107
踊	-12.8107
炊	-12.8107
夹	-12.8107
􁃻	-12.8108
素質無文	-12.8108
二人讀祝官二人贊禮郎四人筆帖式	-12.8108
監禮監宰二兩燭十六枝	-12.8108
宗聖曾子	-12.8108
耨	-12.8108
嗤	-12.8108
渾金瀝粉蟠龍	-12.8108
杠	-12.8108
轢	-12.8109
箬	-12.8109
斷自宸衷	-12.8109
茇	-12.8109
記言記動	-12.8109
鐍	-12.8109
行一跪一叩禮	-12.8109
奏獻爵上獻	-12.8109
鞠躬拜興拜興拜興拜興平身	-12.8109
剩	-12.8109
打死人命	-12.8109
賅	-12.8109
哺	-12.811
祭畢本寺行禮官復命	-12.811
太嵗風雲雷雨嶽鎮海瀆	-12.811
木特斡里伯克	-12.811
諸曹侍郎並改為郎又改	-12.811
㦯	-12.811
年辛丑科賜	-12.811
年甲辰科賜	-12.811
柚	-12.811
悪	-12.811
橦	-12.811
溜	-12.811
佔	-12.8111
赭	-12.8111
錄事掌受事發辰	-12.8111
妃夫淑恭宜安人	-12.8111
三人正七品下司戈各五人正八品下	-12.8111
人五品商伯克一人六品哈子伯克一人	-12.8111
年戊戌科賜	-12.8111
奏受胙受訖奏出圭奏俯伏興平身奏	-12.8111
呷	-12.8111
一本寺出香燭	-12.8111
合璧事類	-12.8111
螣	-12.8111
左右翊中郎將府中郎將	-12.8111
祖來不曽開有世襲字樣奉聖㫖是	-12.8111
等物祝版一片禮神帛一段	-12.8112
西嶽華山	-12.8112
𫀆	-12.8112
大慈恩寺	-12.8112
食官典倉司藏	-12.8112
棊	-12.8112
固爾嘉渾	-12.8112
洒	-12.8112
柢	-12.8113
澁	-12.8113
熖	-12.8113
廿	-12.8113
舟檝河渠二署	-12.8113
莫提色布伯克	-12.8113
兖國復聖公	-12.8113
燻	-12.8113
漬	-12.8113
一人知印二人奏差	-12.8113
武定侯郭勛	-12.8113
孛	-12.8114
茁	-12.8114
磧	-12.8114
默	-12.8114
蕞	-12.8114
司階二人中候三人司戈五人執㦸五人	-12.8114
年乙未科賜	-12.8115
詵	-12.8115
浡	-12.8115
執刀十五人典獄十	-12.8115
一本寺委協律郎提調樂舞生	-12.8115
答禄與權	-12.8116
桴	-12.8116
中桌按酒四般果子	-12.8116
蘖	-12.8116
什和勒伯克	-12.8116
嶼	-12.8116
江南高郵人	-12.8116
哄	-12.8117
繼志述事	-12.8117
伾	-12.8117
盩	-12.8117
栅	-12.8118
腫	-12.8118
焞	-12.8118
羿	-12.8118
前奏搢圭捧爵官以爵跪進於上右	-12.8118
戎政官引號頭官執牌跪	-12.8119
黥	-12.8119
山西安邑人	-12.8119
淩	-12.8119
㺯	-12.8119
汗跨一件	-12.8119
瘳	-12.812
内賛對引官導上	-12.812
陜西渭南人	-12.812
髹	-12.812
趪	-12.8121
綢	-12.8121
琨	-12.8121
讙	-12.8121
揔	-12.8121
榜葛剌國	-12.8121
㑹靈觀使	-12.8121
致君澤民	-12.8122
鋋	-12.8122
􁂣	-12.8122
直隸吳江縣人	-12.8122
甦	-12.8122
敷文閣直學士	-12.8123
敷文閣待制	-12.8123
祥源觀使	-12.8123
殪	-12.8123
昴	-12.8123
骳	-12.8123
楙	-12.8123
楣	-12.8123
佑神觀使	-12.8123
掉	-12.8123
懃	-12.8124
郿	-12.8124
黛	-12.8124
駔	-12.8124
鑣	-12.8124
蕡	-12.8124
煃	-12.8124
烱	-12.8124
章屢却而	-12.8124
袵	-12.8124
琤	-12.8124
缶	-12.8124
宋許月卿撰	-12.8125
淺淡服色	-12.8125
翛	-12.8125
年力精壯	-12.8125
槁	-12.8126
江西鉛山人	-12.8127
酳	-12.8127
与	-12.8127
刹	-12.8127
監監一人副監一人丞一人	-12.8127
晁迥李宗諤楊億	-12.8127
俶	-12.8127
胥四人徒四十人	-12.8128
疽	-12.8128
鑼	-12.8128
臀	-12.8128
宗皇帝女也	-12.8129
笵	-12.8129
倨	-12.8129
聾	-12.8129
鼂	-12.8129
􁰖	-12.813
斨	-12.8131
眂	-12.8132
櫜	-12.8132
藐	-12.8132
表用羅一疋裏用	-12.8133
窪	-12.8133
脞	-12.8133
稌	-12.8133
人問事四人白直	-12.8134
讀祝官捧祝進帛官捧帛掌祭官捧饌各	-12.8134
埭	-12.8134
奚俟多訓	-12.8134
禙	-12.8134
湍	-12.8134
璆	-12.8134
建國君民教學	-12.8134
拌	-12.8134
冤	-12.8136
吻	-12.8136
卵	-12.8137
跬	-12.8137
瑚	-12.8139
寸袖長過手	-12.8139
峋	-12.814
狸	-12.814
鐄	-12.814
枲	-12.8141
錬	-12.8142
槃	-12.8143
罐	-12.8144
瑱	-12.8146
化民成俗	-12.8146
蒧	-12.8148
江西新淦人	-12.8149
旈	-12.8153
􁵽	-12.8155
閶	-12.8156
下大夫正三命春官	-12.8157
紼	-12.8159
􁦣	-12.8159
涂逢震	-12.8159
禬	-12.8161
行宫都部署	-12.8163
螳	-12.8163
甍	-12.8167
頭第一門曰	-12.818
姊	-12.8196
人龍朔咸亨光宅	-12.8205
密喇布伯克一人分理	-12.8869
奉孝宗皇帝聖㫖是欽此𢎞治十	-12.8962
西角門視事	-12.9188
加籠巾貂蟬	-12.9697
頖	-12.9729
舎自祖以來不曽開有世襲字様	-12.9736
硝	-12.9739
香案前奏跪奏搢圭奏上香訖	-12.9742
妣某封某氏	-12.9743
楀	-12.9743
上具祭服出導引官導	-12.9744
瀼	-12.9744
爵酒色長跪啓	-12.9745
欖	-12.9747
奉宣宗皇帝聖㫖	-12.9749
濯濯厥靈昭	-12.9749
瓮	-12.9749
楎	-12.975
一前期一日本寺卿同光禄卿省牲復	-12.975
品以上官引馬迴避遇	-12.975
執事官以爵跪進於皇帝右奏獻爵出圭	-12.9751
花椒細茶梔子紅麯各	-12.9752
港	-12.9752
棧	-12.9752
慥	-12.9752
畸	-12.9753
术	-12.9754
孩	-12.9755
康熙十六年改定為	-12.9755
二十二年五月奉令㫖照欽依例著	-12.9755
至皇祇前奏搢圭執事官以	-12.9756
臡	-12.9756
鷙	-12.9757
一行揭帖知㑹司禮監	-12.9757
做知州還不世襲欽此	-12.9758
犆	-12.9758
擦	-12.9758
坍	-12.9758
賒	-12.9758
邋	-12.9758
執事人員辦祭官一員執事樂舞生	-12.9759
摸	-12.9759
㪚雲麾使滿洲一人雲麾使漢軍	-12.9759
所掌所印冠軍使滿洲一人	-12.9759
幵	-12.9759
撝	-12.976
行揭帖知㑹司禮監填祝版	-12.976
太昊伏羲氏炎帝神農氏黄帝軒轅氏	-12.976
湎	-12.976
靑	-12.976
以授女官女官跪	-12.976
亭長六人掌固十	-12.976
繇太廟後門入	-12.976
澠	-12.976
包香帛黄咨紙五張白咨紙二張酒	-12.9761
國有大事則告	-12.9761
鎡	-12.9762
二十二年改總部為	-12.9762
某生子幾位女幾位第一子某第一女	-12.9762
宂	-12.9763
一本寺庫内出制帛香燭果品等物	-12.9763
悶	-12.9763
漓	-12.9764
厘	-12.9764
諝	-12.9764
選到某府州縣某籍某人	-12.9764
耋	-12.9764
皇上親詣先師廟釋奠	-12.9765
諼	-12.9765
井鹽課司副使	-12.9765
沌	-12.9765
謭	-12.9765
伏羲神農黄帝	-12.9765
沱	-12.9766
娱	-12.9766
奏祭祀一前期三日本寺官具公服	-12.9766
禮神帛一段降香一	-12.9766
孝慈髙皇后成祖文皇帝仁孝文皇后	-12.9766
蔞	-12.9766
崐	-12.9766
兩三錢三分三厘	-12.9766
璹	-12.9766
兵曹參軍事一人府二人史	-12.9767
斐	-12.9767
酪	-12.9767
鑌	-12.9767
紇	-12.9768
唐張九齡等撰尚書	-12.9768
枝三生管事二兩燭十二枝	-12.9768
歸化城土黙特	-12.9768
旗姓氏通譜	-12.9768
仁宗昭皇帝誠孝昭皇后	-12.9769
揜	-12.9769
孀	-12.9769
六品阿竒木伯克一人	-12.9769
槧	-12.9769
垂五采流蘇	-12.9769
栗子六斤紅棗五斤荔枝圓眼各三斤	-12.9769
直隸長洲縣人	-12.977
司香帛爵生各三名	-12.977
褡	-12.977
糈	-12.9771
饟	-12.9771
䍧	-12.9771
天𢎞道髙明	-12.9771
合用祭器白磁	-12.9771
行三跪九叩頭禮	-12.9771
鼓潘廸音訓	-12.9771
孝莊睿皇后	-12.9771
掌樂教師四兩燭	-12.9772
琇	-12.9772
自進并帶進	-12.9772
鞮	-12.9772
粢	-12.9772
生婦某氏某年月日奏報某年月日具奏	-12.9772
經學博士一人從八品下助教	-12.9772
甜	-12.9772
其屬經厯司經厯	-12.9773
禴	-12.9773
銃	-12.9773
琶	-12.9773
駙	-12.9773
劉肅大唐新語	-12.9773
丼	-12.9773
祏	-12.9774
褁	-12.9774
眎	-12.9774
壟	-12.9774
銕	-12.9774
京畿都漕運司	-12.9774
壷	-12.9774
旗氏族通譜改正	-12.9774
樂作至殿内迎湯	-12.9774
爰擇剛辰	-12.9774
醑	-12.9775
翊府中郎將各一人正四品下	-12.9775
厄	-12.9775
晃	-12.9775
擿	-12.9775
淦	-12.9775
篚一祝案一	-12.9775
您	-12.9775
煓	-12.9775
騎曹參軍事各一人正八品下	-12.9775
主匈奴單于營部	-12.9776
堧	-12.9776
畵	-12.9776
杪	-12.9776
下大夫二人上士四人中士八人	-12.9776
鹻	-12.9776
之舞舞畢教坊司跪奏	-12.9776
年繇兵部職方司	-12.9777
澔	-12.9777
貤	-12.9777
䟎	-12.9777
剸	-12.9777
淖	-12.9777
肌	-12.9777
髙納的斤	-12.9777
縢	-12.9777
繇國子監祭酒陞右侍郎兼翰林	-12.9777
府二人史四人胥四人徒四十人	-12.9777
員知事一員提控案牘一員	-12.9778
克埒穆爾齊	-12.9778
媕	-12.9778
儗	-12.9778
􁂻	-12.9778
部尚書侍郎之職掌天下	-12.9779
各該親郡王及管理府事者審實	-12.9779
喘	-12.978
献	-12.978
㩀	-12.978
蕐	-12.978
額爾奇木	-12.978
邍	-12.978
洪邁容齋隨筆	-12.9781
麀	-12.9781
命卿等持節行禮贊俯伏興	-12.9781
缷	-12.9781
軷	-12.9781
鶯	-12.9781
各一人將軍二人長史一人録事參軍	-12.9781
揩	-12.9781
昵	-12.9781
奉冊奉寳官	-12.9781
脾析豚胉	-12.9781
鞬	-12.9781
囷	-12.9781
勾龍如淵	-12.9781
繇殿左門出置御道中傳制官繇左門出	-12.9781
苻	-12.9781
仁孝慈懿誠明莊獻配天齊聖文皇后	-12.9781
年十一月南郊畢	-12.9781
擅離封域	-12.9781
謹用祭告伏惟尚享	-12.9781
鍉	-12.9781
秸	-12.9782
躅	-12.9782
於太和殿朝夕演習禮樂一前期	-12.9782
初獻夀和武功之舞	-12.9782
懾	-12.9782
麂	-12.9782
奩	-12.9782
自御史中丞遷端明殿	-12.9782
襠	-12.9782
頁	-12.9782
八人赴京餘留邊聴賞	-12.9782
艦	-12.9782
攫	-12.9783
蓐	-12.9783
泠	-12.9783
裴駰集解	-12.9783
踣	-12.9783
佟	-12.9783
匆	-12.9783
鈁	-12.9783
剃	-12.9783
悝	-12.9783
縊	-12.9783
四室南向正殿神座右第四位東向	-12.9783
徐鉉扈䝉	-12.9783
郛	-12.9784
軏	-12.9784
棹	-12.9784
梵	-12.9784
艷	-12.9784
宕	-12.9784
耜	-12.9785
爚	-12.9785
糞	-12.9785
引進使知侍儀事	-12.9785
凳	-12.9785
嘉靖十一年九月内禮部題	-12.9785
炮	-12.9785
羣臣上表賀上曰	-12.9785
奏出圭奏詣讀祝位	-12.9785
山呼百官拱手加額曰萬	-12.9785
二人府二人史四人兵曹參軍事二人府	-12.9785
蓁	-12.9786
酆	-12.9786
誚	-12.9786
亰	-12.9786
湼	-12.9786
􁈍	-12.9786
奠帛行初獻禮執事捧帛爵	-12.9786
柑	-12.9787
勱	-12.9787
予違汝弼	-12.9787
潑	-12.9787
蒜	-12.9787
妍	-12.9787
將校引俘	-12.9788
懵	-12.9788
瞰	-12.9788
綟	-12.9788
阪	-12.9788
䙆	-12.9789
麄	-12.9789
沈括夢溪筆談	-12.9789
設内贊二人引禮二人	-12.9789
袐	-12.9789
䌓	-12.9789
讀祝官取祝跪於	-12.979
搴	-12.979
摰	-12.9791
恚	-12.9791
司尊者舉羃酌	-12.9791
紞	-12.9791
宋白梁周翰	-12.9791
第三場論一首	-12.9791
娯	-12.9792
煨	-12.9792
衺	-12.9792
怫	-12.9793
敲	-12.9793
酈道元水經注	-12.9793
矼	-12.9793
鰥	-12.9793
年繇祠祭司主事任	-12.9793
鯈	-12.9793
陜西臨潼人	-12.9794
程大昌雍録	-12.9796
呻	-12.9796
蓀	-12.9796
蘂	-12.9796
杉	-12.9796
翅	-12.9796
繽	-12.9796
惋	-12.9796
文孝子皇帝御名謹遣敢昭告于皇	-12.9797
斗内食米一石折銀絹米	-12.9797
總管一人翼領二人	-12.9797
壙誌文工部造銘旌	-12.9797
塜	-12.9797
飱	-12.9797
坏	-12.9797
箙	-12.9797
琊	-12.9798
麯	-12.9798
誾	-12.9798
𬗟	-12.9799
岌	-12.9799
玖	-12.98
筩	-12.98
悵	-12.98
腆	-12.9801
瓞	-12.9801
池北偶談云	-12.9801
唐古忒學	-12.9802
葳	-12.9803
闍	-12.9803
虣	-12.9803
驌	-12.9803
捫	-12.9804
湖廣蒲圻人	-12.9804
値	-12.9804
緦	-12.9805
眀俞汝楫編	-12.9805
矗	-12.9806
楸	-12.9806
曈	-12.9807
蹲	-12.9808
擄	-12.9811
磴	-12.9811
箝	-12.9812
攺	-12.9813
除正祭外偹大山	-12.9813
獐	-12.9815
蓂	-12.9818
澍	-12.9819
攖	-12.982
賨	-12.982
司織司染	-12.9822
曹参軍事二人正七品下掌	-12.9823
瀟	-12.9827
􁰋	-12.9827
提舉嵩山崇福宫	-12.9831
頰	-12.9853
查祖來不曽開有世襲字樣奉聖㫖	-13.1241
執事官各司其事贊引贊就位	-13.1676
錦下結青絲網綬環二用	-13.1686
都廵河官下四處	-13.1702
鮫	-13.1704
壇祠祭署奉祀漢人一人	-13.1713
納吉納徵告期	-13.1715
桍	-13.1716
啻	-13.1722
搢	-13.173
自西自東自南自北	-13.1731
鳶	-13.1731
年繇詹事府少詹兼翰林院	-13.1735
嚼	-13.1738
洢	-13.1738
御書處監造兼内務府	-13.1739
羯	-13.1743
大帶隨衣色朱裏紕其外上以朱錦	-13.1743
填御名訖博士捧出安于香帛亭	-13.1744
詣案前跪正使取	-13.1745
開府儀同三司上儀同三司儀同三司	-13.1746
詣景神殿候上致辭	-13.1747
羅卜藏丹津	-13.1747
受兩拜答兩拜	-13.1748
媧	-13.1748
荻	-13.1748
暐	-13.1748
悊	-13.1748
瑢	-13.1749
繇太常寺卿管國子監祭酒事	-13.1749
鄣	-13.175
𢷬	-13.175
午後本寺官率樂舞生陳設樂器	-13.1751
謹以制幣牲齊粢盛庶品式陳明薦	-13.1751
諴	-13.1753
賛詣焚祝帛所導遣官至燎所	-13.1754
定國公徐光祚	-13.1754
定各部院筆帖式有缺	-13.1754
賛四拜賛焚祝帛執事捧祝帛	-13.1754
繇儀制司員外陞任	-13.1754
肜	-13.1754
窈	-13.1755
爇	-13.1756
其屬司務㕔司務二人	-13.1756
冕十二旒衣十二	-13.1757
醯	-13.1757
􁦝	-13.1757
淀	-13.1757
伊克集賽第一日	-13.1757
珧	-13.1757
鍛	-13.1757
燇	-13.1757
隻一合用供器祭器	-13.1757
溍	-13.1757
御製訓飭士子文	-13.1758
女史二人通掌文案	-13.1758
虯	-13.176
做巡檢還不世襲欽此	-13.176
􁐔	-13.176
進膳水龍吟	-13.1761
阨	-13.1761
瀉	-13.1761
司司印雲麾使滿洲二人	-13.1761
員順治元年改承政	-13.1761
峭	-13.1762
㗖	-13.1762
槊	-13.1762
下士二人史一人徒	-13.1762
禔	-13.1762
邾國公孟孫氏配享	-13.1762
浥	-13.1762
鬆	-13.1762
他做只不世襲不守法度時換了欽此	-13.1762
鍇	-13.1763
瓠	-13.1763
開平忠武王常遇春	-13.1763
婪	-13.1763
太傅在前少傅在後	-13.1763
薦兹酒醴成我常祀神其顧歆永言樂	-13.1763
咮	-13.1763
一人錄事參軍事一人錄事一人史二人	-13.1763
勾當裏行的人毎	-13.1763
山羊一隻猪一口一辦祭官一員	-13.1763
荔枝圓眼各三斤祝文本紙二張	-13.1763
准他做還不世襲欽此	-13.1763
捱	-13.1764
妺	-13.1764
榱	-13.1764
芘	-13.1764
賛搢笏賛上香賛出笏	-13.1764
娠	-13.1764
賛搢笏賛獻帛賛獻爵賛出笏賛復位	-13.1764
[...]
