<unk>	0
<s>	0
</s>	0
之	-3.69801
也	-3.89715
而	-4.25676
/	-4.41526
以	-4.54944
者	-4.57632
)	-4.7054
(	-4.71592
則	-4.85561
爲	-5.00263
其	-5.01039
不	-5.0443
於	-5.09791
有	-5.14426
故	-5.33907
人	-5.36386
無	-5.5218
一	-5.52215
曰	-5.55709
)(	-5.74381
言	-5.82799
大	-5.83598
與	-5.91146
矣	-5.96042
中	-5.96047
為	-5.97761
行	-5.97881
自	-6.00271
此	-6.01623
非	-6.02773
生	-6.03069
乎	-6.03161
上	-6.03506
是	-6.06171
至	-6.07289
所	-6.10546
天	-6.13023
得	-6.13315
道	-6.15097
皆	-6.15527
必	-6.17882
如	-6.18983
見	-6.19804
子	-6.2046
在	-6.23138
若	-6.27765
下	-6.30784
事	-6.31723
三	-6.33856
知	-6.35272
用	-6.35713
使	-6.36996
時	-6.38454
心	-6.38484
可	-6.38623
日	-6.38766
亦	-6.3895
水	-6.41575
將	-6.4225
能	-6.43084
乃	-6.43996
陽	-6.44507
出	-6.44743
君	-6.45622
相	-6.47398
或	-6.48136
作	-6.48392
當	-6.49514
地	-6.51804
謂	-6.51995
然	-6.52887
正	-6.53119
成	-6.53233
夫	-6.54664
明	-6.57382
欲	-6.57614
雖	-6.57686
主	-6.58388
又	-6.58554
不能	-6.58781
二	-6.60503
我	-6.61428
氣	-6.6196
不可	-6.64457
▁	-6.64926
令	-6.66204
四	-6.66307
數	-6.67387
多	-6.67854
因	-6.69754
猶	-6.70077
已	-6.70485
名	-6.71139
同	-6.71577
物	-6.716
公	-6.7257
神	-6.72796
焉	-6.7301
民	-6.73492
○	-6.73864
王	-6.73886
法	-6.75188
國	-6.76155
五	-6.76236
入	-6.76328
兵	-6.76801
今	-6.77305
善	-6.78422
故曰	-6.78709
及	-6.78933
死	-6.79103
臣	-6.80528
而不	-6.81288
分	-6.81301
利	-6.81564
合	-6.83236
處	-6.83439
從	-6.83653
先	-6.83916
方	-6.8444
于	-6.84591
易	-6.84646
所以	-6.84827
治	-6.85341
陰	-6.88898
長	-6.90363
吾	-6.9138
去	-6.91803
身	-6.92293
居	-6.92414
後	-6.92634
小	-6.92653
重	-6.95181
六	-6.9562
衆	-6.96123
即	-6.96439
復	-6.97066
九	-6.97607
德	-6.98472
耳	-6.98559
内	-7.00304
立	-7.0218
食	-7.02296
敵	-7.02869
守	-7.03022
取	-7.04982
未	-7.05103
天下	-7.05355
盡	-7.05908
形	-7.0639
惡	-7.06462
來	-7.06683
以爲	-7.07148
高	-7.07441
常	-7.07571
火	-7.07645
舉	-7.07704
失	-7.07984
馬	-7.08026
文	-7.08436
本	-7.08516
難	-7.09208
戰	-7.09797
說	-7.10573
士	-7.10797
金	-7.10842
外	-7.11195
測曰	-7.11313
始	-7.13128
月	-7.14217
義	-7.15679
世	-7.15891
過	-7.15989
木	-7.16232
哉	-7.16851
聞	-7.17024
山	-7.17401
命	-7.18145
理	-7.18232
者也	-7.18461
軍	-7.18618
亂	-7.1877
勝	-7.18773
遠	-7.20327
安	-7.20718
動	-7.20878
彼	-7.21103
齊	-7.21325
變	-7.21412
實	-7.21867
反	-7.22381
既	-7.22863
信	-7.22945
力	-7.2336
石	-7.23893
不得	-7.24089
家	-7.24592
官	-7.25042
服	-7.25632
少	-7.25663
可以	-7.25922
發	-7.26538
求	-7.27544
白	-7.27636
樂	-7.28246
離	-7.29231
何	-7.29463
和	-7.29579
經	-7.297
起	-7.30331
極	-7.3038
周	-7.31051
通	-7.32297
止	-7.32466
遂	-7.32588
貴	-7.32817
書	-7.3295
意	-7.32989
且	-7.33218
前	-7.33293
殺	-7.33619
星	-7.34657
受	-7.35707
土	-7.35893
風	-7.38039
智	-7.38361
應	-7.38937
進	-7.39081
十	-7.39203
亡	-7.39508
度	-7.40086
虚	-7.40121
八	-7.40508
異	-7.41044
足	-7.41332
師	-7.41334
玄	-7.41629
門	-7.41703
南	-7.43093
體	-7.43195
蓋	-7.43438
不知	-7.43697
兩	-7.43704
凡	-7.43828
平	-7.44118
强	-7.44191
交	-7.44206
北	-7.44364
之所	-7.44479
陳	-7.44568
終	-7.44678
歸	-7.45104
功	-7.45258
化	-7.45661
天地	-7.46025
百	-7.46685
害	-7.4717
節	-7.47206
好	-7.47475
近	-7.47959
直	-7.4803
疾	-7.48145
積	-7.4839
是以	-7.48415
七	-7.48676
絶	-7.49017
便	-7.49665
視	-7.49819
車	-7.49959
精	-7.50255
仁	-7.50566
萬物	-7.5093
諸	-7.51082
女	-7.52264
輕	-7.52969
禍	-7.53571
也故	-7.53941
賢	-7.54666
任	-7.54753
位	-7.54954
象	-7.5545
親	-7.5598
攻	-7.56165
萬	-7.56491
東	-7.56578
所謂	-7.56606
音	-7.56725
勢	-7.56903
目	-7.57324
城	-7.57731
聲	-7.57741
西	-7.57846
賞	-7.57919
制	-7.5826
問	-7.59387
固	-7.59623
黄	-7.59769
年	-7.59892
流	-7.59963
云	-7.60241
乘	-7.6049
計	-7.60642
敗	-7.61082
秦	-7.61506
間	-7.62089
君子	-7.62429
志	-7.63079
觀	-7.63229
微	-7.63656
是也	-7.63712
情	-7.63748
口	-7.64481
巳	-7.64738
卒	-7.64742
論	-7.65335
謀	-7.65407
解	-7.65879
人之	-7.66067
益	-7.66594
危	-7.66596
教	-7.66597
定	-7.66619
但	-7.66686
思	-7.66989
窮	-7.68454
聽	-7.68635
獨	-7.68706
愛	-7.69076
謂之	-7.70294
性	-7.70617
尚	-7.70654
禮	-7.70685
莫	-7.71319
指	-7.71418
其所	-7.71682
厚	-7.72174
深	-7.72175
聖人	-7.72186
稱	-7.72191
宜	-7.72514
武	-7.72868
傳	-7.73544
備	-7.73565
甚	-7.73743
退	-7.73909
隨	-7.74138
請	-7.7427
施	-7.7462
或作	-7.74795
致	-7.74798
玉	-7.75836
學	-7.75993
宫	-7.76055
邪	-7.7684
疑	-7.76841
養	-7.76993
清	-7.77052
刑	-7.7732
望	-7.77607
藏	-7.77743
私	-7.77898
初	-7.78494
各	-7.78571
果	-7.78589
乾	-7.7865
夏	-7.7877
也夫	-7.79233
急	-7.79598
色	-7.79684
陰陽	-7.79722
龍	-7.79783
罪	-7.79825
伐	-7.80436
修	-7.80927
是故	-7.80991
之道	-7.81599
惟	-7.81651
元	-7.81659
豈	-7.81827
散	-7.81946
斷	-7.81999
楚	-7.82303
屬	-7.82794
飛	-7.83629
辭	-7.84347
不可以	-7.84368
由	-7.84397
夜	-7.84419
適	-7.84677
光	-7.8468
不足	-7.84719
更	-7.85141
讀	-7.8518
美	-7.85508
弗	-7.85814
字	-7.85992
日月	-7.86083
歲	-7.86571
華	-7.86684
福	-7.87184
切	-7.87377
隂	-7.87444
爾	-7.87559
執	-7.8764
盛	-7.88131
聖	-7.88206
首	-7.8828
往	-7.88316
擊	-7.88364
政	-7.88424
會	-7.8848
老	-7.89066
威	-7.90122
滅	-7.90223
張	-7.90653
次	-7.90757
右	-7.91467
順	-7.91637
衣	-7.91715
務	-7.92111
如此	-7.92268
舍	-7.92309
帝	-7.92334
要	-7.92744
吏	-7.92981
病	-7.93052
趙	-7.93177
尊	-7.93914
坤	-7.94167
之中	-7.94283
兼	-7.94729
棄	-7.94977
鬼	-7.95054
牛	-7.95153
權	-7.95203
賊	-7.95212
己	-7.95741
堅	-7.96252
卦	-7.96763
無所	-7.968
而後	-7.97209
類	-7.97741
廢	-7.98036
遇	-7.98091
符	-7.98296
加	-7.98349
還	-7.98437
存	-7.98483
然則	-7.9862
勞	-7.9863
氏	-7.98632
引	-7.98953
魚	-7.9909
曲	-7.99424
廣	-7.995
怒	-7.99719
古	-7.9979
薄	-8.00028
左	-8.00073
脩	-8.00174
田	-8.00179
一日	-8.00348
十二	-8.0043
全	-8.00543
隱	-8.00905
容	-8.01217
怨	-8.01312
聚	-8.01329
愚	-8.01359
越	-8.01398
誠	-8.01633
久	-8.01734
息	-8.01948
傷	-8.02038
比	-8.02111
著	-8.02123
於是	-8.0284
而無	-8.03272
開	-8.03379
結	-8.03565
父	-8.03772
語	-8.03813
降	-8.03999
傳曰	-8.04269
州	-8.0431
室	-8.04313
須	-8.0433
素	-8.04393
救	-8.0466
共	-8.0474
持	-8.04849
財	-8.0498
靈	-8.05123
角	-8.05181
晋	-8.05701
暴	-8.05767
苦	-8.07364
走	-8.07383
誅	-8.07688
俱	-8.09069
坐	-8.0913
置	-8.09141
告	-8.09187
雲	-8.09574
左右	-8.09739
魏	-8.09823
伏	-8.09986
敬	-8.10236
朝	-8.10274
才	-8.10287
河	-8.10414
破	-8.1051
臨	-8.10564
辯	-8.10692
待	-8.10698
辰	-8.10832
禁	-8.11096
推	-8.11109
然後	-8.11349
鼓	-8.11595
就	-8.11863
寒	-8.12075
鳥	-8.12239
轉	-8.12408
業	-8.12483
恐	-8.12657
俗	-8.12978
之事	-8.13013
富	-8.13479
曹操曰	-8.13915
載	-8.14045
景	-8.14085
憂	-8.14181
别	-8.14254
飾	-8.14272
患	-8.14555
天下之	-8.1475
赤	-8.14789
損	-8.15199
勇	-8.15203
器	-8.1531
具	-8.15864
報	-8.16298
術	-8.16379
登	-8.16383
懷	-8.16473
御	-8.16531
而已	-8.16816
酒	-8.16916
喜	-8.17279
勿	-8.17383
李	-8.17399
甲	-8.17725
逆	-8.17788
太	-8.17821
識	-8.17857
察	-8.1799
有所	-8.18046
射	-8.18069
吴	-8.18122
都	-8.18213
對	-8.18312
諸侯	-8.18333
縣	-8.18908
不敢	-8.1895
藥	-8.18988
建	-8.19135
向	-8.19372
餘	-8.2051
險	-8.20588
忠	-8.20701
冬	-8.20724
半	-8.20959
春	-8.21134
弱	-8.2124
雨	-8.21352
〇	-8.21363
除	-8.21703
背	-8.2176
澤	-8.22139
愈	-8.22516
宋	-8.22562
姦	-8.22661
覆	-8.22868
抱朴子曰	-8.23434
昔	-8.23453
設	-8.23559
列	-8.23586
圖	-8.23773
罰	-8.23852
原	-8.24162
端	-8.24354
不爲	-8.24378
達	-8.24519
四時	-8.24568
機	-8.24624
小人	-8.25164
寡	-8.25202
專	-8.25453
戒	-8.25583
手	-8.25823
遺	-8.25893
争	-8.25933
濟	-8.25956
也今	-8.26045
人也	-8.26062
滿	-8.26219
路	-8.26391
運	-8.26413
召	-8.26443
禹	-8.26561
興	-8.26666
又曰	-8.26851
生於	-8.26869
之地	-8.26912
客	-8.27005
頭	-8.2701
虎	-8.27249
巧	-8.27249
眞	-8.27376
奪	-8.27553
閉	-8.27806
奉	-8.27897
丹	-8.28029
草	-8.28051
爲之	-8.28095
願	-8.28176
速	-8.28228
青	-8.28232
徒	-8.28239
到	-8.28287
良	-8.28357
寳	-8.28577
短	-8.29109
壽	-8.2915
嘗	-8.29214
之間	-8.29647
唯	-8.29736
懼	-8.29979
期	-8.30172
等	-8.30212
之數	-8.30293
鬼神	-8.30664
仙	-8.30692
升	-8.30901
忽	-8.30909
章	-8.31096
幽	-8.31148
參	-8.31166
密	-8.31324
使人	-8.31499
毋	-8.31614
慮	-8.31625
漢	-8.32175
真	-8.32178
量	-8.32248
毁	-8.32394
犯	-8.32457
百姓	-8.32573
母	-8.32619
營	-8.3304
貪	-8.33092
商	-8.33222
惑	-8.33394
魯	-8.3354
塞	-8.33566
感	-8.33674
之法	-8.33744
律	-8.33754
者必	-8.34191
收	-8.34198
申	-8.34257
面	-8.34264
不以	-8.34292
至於	-8.3433
之時	-8.34517
表	-8.34562
韓	-8.34643
張預曰	-8.34779
他	-8.348
衰	-8.35042
斯	-8.3515
質	-8.35674
禄	-8.35675
不及	-8.35795
秋	-8.36108
千	-8.36235
關	-8.36381
賤	-8.36417
釋	-8.36488
斗	-8.3684
雜	-8.36943
夷	-8.37396
博	-8.37469
放	-8.37509
被	-8.37575
之士	-8.37688
天之	-8.37864
畢	-8.3854
負	-8.38993
念	-8.39288
卑	-8.39318
盈	-8.39396
舟	-8.39513
折	-8.39548
□	-8.39572
宗	-8.39723
約	-8.40489
爭	-8.40676
自然	-8.40915
保	-8.40922
細	-8.4122
淫	-8.41276
鄭	-8.41286
末	-8.41461
布	-8.41675
貞	-8.41684
議	-8.41808
圍	-8.42198
譽	-8.42227
里	-8.42235
莫不	-8.42585
辟	-8.42715
足以	-8.42729
貧	-8.42755
燕	-8.4278
篇	-8.43038
游	-8.43303
知其	-8.4341
集	-8.43415
貌	-8.43418
汝	-8.43493
連	-8.43677
畏	-8.43761
妄	-8.43884
率	-8.43933
伯	-8.4431
忘	-8.44409
累	-8.44573
堯	-8.44808
敵人	-8.45045
習	-8.45064
空	-8.45139
鄉	-8.45142
似	-8.45446
嚴	-8.45608
困	-8.45815
消	-8.46143
審	-8.46468
静	-8.46581
違	-8.46834
資	-8.46863
履	-8.46941
野	-8.47011
一人	-8.4706
穴	-8.47069
得其	-8.47107
决	-8.47342
屈	-8.47451
妻	-8.47794
移	-8.48031
榮	-8.48047
太極	-8.48155
〇張預曰	-8.48653
衛	-8.48809
竭	-8.49183
封	-8.49377
丘	-8.49705
樹	-8.49794
孔子	-8.49875
代	-8.499
不見	-8.49901
大夫	-8.50102
也光謂	-8.50379
海	-8.50431
仁義	-8.50577
之所以	-8.50661
歷	-8.50934
震	-8.51025
謹	-8.51055
操	-8.51112
梁	-8.51312
塗	-8.51433
之人	-8.51671
不如	-8.51769
喪	-8.51864
黑	-8.52262
縱	-8.52286
蒙	-8.52286
林	-8.52574
不用	-8.52617
宿	-8.52623
以此	-8.52843
羽	-8.52849
舜	-8.52904
漸	-8.52946
上下	-8.53316
苟	-8.53386
陽氣	-8.53701
文王	-8.53962
索	-8.53997
虛	-8.54051
候	-8.54065
偶	-8.54073
逐	-8.5415
傾	-8.54158
獲	-8.54501
卷	-8.54638
許	-8.54658
悉	-8.54797
弊	-8.54824
責	-8.54938
況	-8.54999
天子	-8.55161
甘	-8.55218
侯	-8.55281
五行	-8.55333
李筌曰	-8.55841
策	-8.56024
淵	-8.56464
步	-8.5647
户	-8.56497
靜	-8.56586
揚	-8.56608
記	-8.56662
剛	-8.56666
並	-8.56743
者非	-8.57241
殊	-8.57306
否	-8.57308
柔	-8.57347
蔽	-8.5738
司	-8.57545
梅堯臣曰	-8.57585
拔	-8.57726
湯	-8.57751
井	-8.57868
委	-8.58052
避	-8.58112
造	-8.58203
者皆	-8.58204
予	-8.58369
故能	-8.58561
彊	-8.59232
浮	-8.59335
却	-8.59355
根	-8.59438
杜牧曰	-8.59625
凶	-8.60292
孰	-8.60406
味	-8.60541
羊	-8.60605
神仙	-8.60694
顯	-8.60864
驚	-8.60931
也〇梅堯臣曰	-8.61143
荆	-8.61427
呼	-8.61457
遊	-8.61637
克	-8.6164
雖有	-8.61724
不足以	-8.61793
循	-8.61806
新	-8.61835
冠	-8.6195
效	-8.62021
午	-8.62218
余	-8.62224
假	-8.6229
覺	-8.62303
而行	-8.62311
有餘	-8.62475
谷	-8.62581
附	-8.62588
干	-8.62919
畫	-8.63197
廉	-8.63398
奚	-8.63406
趨	-8.63594
市	-8.63627
不同	-8.63662
役	-8.63774
者不	-8.63966
照	-8.6414
曰吾	-8.64293
而不能	-8.64298
先生	-8.6446
祭	-8.64474
調	-8.64586
侵	-8.64768
惠	-8.64915
差	-8.65063
坎	-8.65229
人主	-8.65239
純	-8.65482
如是	-8.65512
恩	-8.65962
改	-8.66095
垂	-8.66129
無形	-8.66244
穀	-8.66406
儀	-8.66542
紀	-8.6676
號	-8.66842
千里	-8.66854
朱	-8.66912
蛇	-8.67076
寧	-8.67132
府	-8.67428
以為	-8.6743
魄	-8.67831
徃	-8.6786
孝	-8.67861
簡	-8.68094
然而	-8.68159
變化	-8.68181
留	-8.68185
桓公	-8.68248
錯	-8.68284
而不可	-8.68328
士卒	-8.68363
免	-8.68454
費	-8.68472
飲	-8.68666
辱	-8.68708
陵	-8.689
之氣	-8.68919
隂陽	-8.69011
必有	-8.6924
迹	-8.69411
四方	-8.69458
龜	-8.69469
每	-8.69505
也若	-8.69624
倍	-8.69679
獸	-8.69721
擇	-8.69914
繩	-8.70199
敢	-8.70289
種	-8.70789
祖	-8.70847
哀	-8.70863
群	-8.70927
晝	-8.71013
并	-8.71126
其身	-8.71195
統	-8.71619
吉	-8.71934
冥	-8.72011
胡	-8.72681
恃	-8.72717
僞	-8.72725
爲人	-8.72994
誰	-8.73103
言之	-8.73118
唐	-8.73451
包	-8.73464
天地之	-8.73513
潜	-8.73534
邑	-8.73724
肉	-8.74025
醜	-8.74199
此言	-8.74212
輔	-8.74255
晦	-8.74598
之言	-8.74782
孤	-8.74977
婦	-8.7498
遣	-8.75105
蟲	-8.75204
喻	-8.75332
投	-8.75368
昌	-8.7546
授	-8.75472
錢	-8.75791
幾	-8.76099
血	-8.76151
助	-8.76338
毒	-8.7655
仰	-8.76619
抱	-8.7663
據	-8.76645
詩	-8.77124
崇	-8.77292
充	-8.77589
飢	-8.77922
賜	-8.7807
割	-8.78087
含	-8.78133
勸	-8.78167
而爲	-8.78229
皇	-8.78251
之理	-8.78337
用之	-8.78381
不相	-8.78465
託	-8.78533
知之	-8.7868
王皙曰	-8.78716
之象	-8.78846
徵	-8.7889
刻	-8.78896
〇王皙曰	-8.79051
有一	-8.79204
各有	-8.79438
冬至	-8.79493
闕	-8.79729
詐	-8.79738
規	-8.79815
悔	-8.79927
没	-8.80315
無不	-8.80333
仲	-8.80361
魂	-8.80376
銳	-8.80403
屋	-8.8058
毛	-8.80598
古之	-8.80981
無有	-8.81027
未有	-8.81143
濁	-8.81346
均	-8.81362
族	-8.81371
鳴	-8.82145
骨	-8.82161
衡	-8.82164
史	-8.82172
不過	-8.8229
儒	-8.82353
笑	-8.8246
〇梅堯臣曰	-8.82525
沈	-8.82732
迎	-8.82916
熱	-8.83019
偏	-8.8306
驕	-8.83065
增	-8.83075
示	-8.83104
其中	-8.83275
帶	-8.83332
之說	-8.83333
與之	-8.83402
勤	-8.83509
略	-8.83837
罷	-8.83888
振	-8.8393
之後	-8.83994
此皆	-8.84267
爵	-8.84521
竊	-8.84726
尾	-8.84759
紂	-8.84762
典	-8.84763
襲	-8.85208
煩	-8.85232
顧	-8.85315
曹	-8.85352
最	-8.85504
仲尼	-8.85518
依	-8.85532
羅	-8.85602
寅	-8.85905
工	-8.86065
泰	-8.86298
先天	-8.86342
矢	-8.86366
臺	-8.86399
歌	-8.86407
逃	-8.86438
承	-8.86492
一曰	-8.86503
肆	-8.86507
之心	-8.8666
對曰	-8.86904
王曰	-8.87239
欺	-8.87326
尤	-8.87354
省	-8.87366
人有	-8.87423
殷	-8.87563
之外	-8.87617
騎	-8.88001
厲	-8.88137
禽	-8.88208
招	-8.88215
其事	-8.88463
掩	-8.88486
不失	-8.88538
得之	-8.88892
維	-8.88923
於人	-8.88935
翼	-8.88987
夢	-8.89034
者所以	-8.89067
幸	-8.89075
沉	-8.89113
豐	-8.89136
炁	-8.89458
昔者	-8.89584
之日	-8.89713
舊	-8.89898
盜	-8.89961
黨	-8.90071
旁	-8.90196
枝	-8.90292
延	-8.90328
悲	-8.90652
耶	-8.90699
墮	-8.90754
昏	-8.90772
削	-8.90776
劫	-8.90837
怪	-8.90859
乏	-8.90895
竒	-8.909
塵	-8.90914
抑	-8.90947
旣	-8.9098
耕	-8.91024
長生	-8.91158
草木	-8.91175
第	-8.91219
羣	-8.91519
圓	-8.91682
追	-8.91708
筭	-8.91716
奏	-8.91724
籍	-8.91751
其道	-8.91752
斬	-8.91753
虜	-8.9178
出於	-8.91966
淺	-8.92519
於外	-8.92602
驗	-8.92647
英	-8.92698
讓	-8.92822
是謂	-8.92946
三十	-8.93108
也王曰	-8.93297
兆	-8.93304
妙	-8.93311
虞	-8.93418
之功	-8.93494
光謂	-8.93516
廟	-8.93523
不復	-8.93769
黄帝	-8.93866
特	-8.94074
諫	-8.94104
材	-8.94298
試	-8.94337
宣	-8.94349
於此	-8.94403
馳	-8.94501
壯	-8.94524
決	-8.94599
三十六	-8.94622
道也	-8.94794
天道	-8.9483
池	-8.94863
精神	-8.94873
之變	-8.94896
防	-8.94919
畜	-8.94932
尺	-8.95031
江	-8.95092
管	-8.95126
奇	-8.95158
涉	-8.95286
一年	-8.9542
䟽	-8.95495
謝	-8.95502
永	-8.95517
革	-8.95698
職	-8.95815
而不知	-8.95818
糧	-8.96091
庶	-8.96094
鍾	-8.96271
而有	-8.9628
其上	-8.96365
援	-8.96376
中有	-8.964
靡	-8.9647
徐	-8.96475
而成	-8.96507
繁	-8.9653
獻	-8.96566
接	-8.96788
陸	-8.96858
也〇張預曰	-8.96883
腎	-8.97164
狗	-8.97309
奔	-8.97322
扶	-8.97431
葬	-8.97463
壞	-8.97483
夏至	-8.97663
十六	-8.98096
管仲	-8.98107
獄	-8.98116
聞之	-8.9813
后	-8.98182
誘	-8.98218
遁	-8.98337
醫	-8.98343
徑	-8.98352
落	-8.98392
隆	-8.98403
考	-8.98439
國之	-8.98555
將軍	-8.98615
進退	-8.98634
遷	-8.98728
雷	-8.98898
孟	-8.99058
旗	-8.99161
賞罰	-8.9917
之謂	-8.99177
憎	-8.99251
服之	-8.99288
鼎	-8.99327
温	-8.99332
慕	-8.99366
不聞	-8.99368
卯	-8.99393
父母	-8.99418
減	-8.99572
神明	-9.00059
悟	-9.00117
繼	-9.00197
横	-9.0022
注	-9.00265
征	-9.00347
未嘗	-9.00443
亦有	-9.0047
吕	-9.00564
其心	-9.00786
不若	-9.01056
之下	-9.01078
而求	-9.01237
露	-9.01251
逸	-9.01326
録	-9.01349
格	-9.01405
不信	-9.02079
諭	-9.02171
之類	-9.02215
枯	-9.02296
阿	-9.02307
校	-9.02364
言其	-9.02376
休	-9.02376
刀	-9.02395
咸	-9.02438
賢者	-9.02548
刺	-9.02725
孫	-9.02903
了	-9.03009
刃	-9.031
再	-9.0317
序	-9.03217
之徒	-9.03229
萌	-9.03235
矣夫	-9.03307
拜	-9.03402
麗	-9.03461
閑	-9.03497
弗能	-9.03794
子之	-9.03798
八卦	-9.03891
尋	-9.04268
測	-9.04324
一作	-9.04345
遲	-9.04365
杜	-9.04409
髮	-9.0442
赴	-9.04437
峻	-9.04536
卿	-9.04539
出入	-9.04684
尸	-9.05169
訟	-9.0542
懸	-9.05435
選	-9.05456
吐	-9.05456
三年	-9.05548
是非	-9.05693
不欲	-9.05937
也故曰	-9.06019
貫	-9.06138
不勝	-9.06229
子曰	-9.06296
不動	-9.06337
不然	-9.06362
鑿	-9.06363
洞	-9.0645
介	-9.06485
庸	-9.06492
疏	-9.06514
輙	-9.06519
虧	-9.06521
訓	-9.06566
希	-9.06612
芝	-9.06615
未必	-9.06831
世之	-9.06844
悅	-9.06907
季	-9.07017
三百六十	-9.07185
者有	-9.07288
珠	-9.07399
之上	-9.07472
準	-9.0757
繫	-9.07587
於上	-9.07642
只	-9.07651
子孫	-9.07913
給	-9.07981
君臣	-9.08045
古者	-9.08093
也然	-9.08118
姓	-9.08136
宰	-9.08171
境	-9.08279
彌	-9.08391
嗚呼	-9.086
緩	-9.08642
早	-9.0866
枉	-9.0867
腹	-9.08771
其後	-9.08808
旦	-9.09308
劉	-9.09365
佐	-9.09521
恭	-9.09542
燒	-9.09559
柱	-9.09562
國家	-9.09611
宅	-9.09626
禦	-9.0976
激	-9.09791
婦人	-9.09964
也〇李筌曰	-9.10203
矜	-9.10466
東方	-9.1053
子墨子曰	-9.10671
以待	-9.10845
耳目	-9.1089
太一	-9.11006
北方	-9.11083
人皆	-9.11302
武王	-9.11355
使之	-9.11426
弟	-9.11846
鼻	-9.11853
丈	-9.11935
巨	-9.11946
弓	-9.11978
而得	-9.1201
闇	-9.12024
造化	-9.12079
世人	-9.12165
可謂	-9.12638
今從諸家	-9.12936
巽	-9.13011
競	-9.13054
迷	-9.13073
回	-9.1308
而生	-9.13099
鹿	-9.1314
春秋	-9.13352
失其	-9.13671
納	-9.13909
其國	-9.13925
令人	-9.13938
植	-9.13939
亥	-9.14027
輪	-9.14052
不行	-9.14068
范	-9.14103
慈	-9.14282
智者	-9.1464
詳	-9.14643
陷	-9.14655
羣臣	-9.14672
者以	-9.14777
之利	-9.14998
狂	-9.15014
以成	-9.15118
丁	-9.15162
忌	-9.15259
艮	-9.15304
無爲	-9.15306
齒	-9.15316
戴	-9.154
肅	-9.15438
雞	-9.15442
三軍	-9.15703
其子	-9.15866
君之	-9.15897
者爲	-9.16193
庭	-9.16403
友	-9.16434
趣	-9.16438
遭	-9.16491
葉	-9.165
災	-9.16512
〇杜牧曰	-9.16516
契	-9.16518
溺	-9.16537
墜	-9.16549
竟	-9.16554
寵	-9.16566
一月	-9.16969
烏	-9.16975
不受	-9.17002
之物	-9.17018
堂	-9.17022
弦	-9.17167
何以	-9.17245
弩	-9.17518
昧	-9.17699
珍	-9.17709
觸	-9.17716
无	-9.17748
薦	-9.17779
眀	-9.17791
太上	-9.18005
朔	-9.18242
佛	-9.18397
名曰	-9.18449
也是故	-9.18605
側	-9.18708
郡	-9.18729
洪	-9.18759
不與	-9.18787
驅	-9.18809
衝	-9.18847
曆	-9.18868
粟	-9.18893
之術	-9.18908
杖	-9.18908
見其	-9.19001
霸	-9.19187
不聽	-9.19217
昭	-9.19354
按	-9.19619
房	-9.19691
便是	-9.19782
竈	-9.19889
殘	-9.19971
祀	-9.19978
二十	-9.19993
邊	-9.20072
肥	-9.2009
鈞	-9.20093
乖	-9.20118
倚	-9.20194
而言	-9.2024
不出	-9.20328
之勢	-9.20449
矣故	-9.20532
三日	-9.20677
擊之	-9.20796
皆有	-9.20804
墨	-9.20853
環	-9.20968
兌	-9.21237
楊	-9.21275
波	-9.21288
提	-9.21353
謙	-9.21379
值	-9.21405
無以	-9.21418
而能	-9.21548
道之	-9.21633
曰我	-9.21732
大抵	-9.22283
萬民	-9.22426
戎	-9.2243
牧	-9.22447
之意	-9.22455
卧	-9.22554
狐	-9.2257
暗	-9.22572
荒	-9.22575
侮	-9.22591
水火	-9.22602
凝	-9.22612
晝夜	-9.22707
隙	-9.22721
不死	-9.22795
不食	-9.23011
輕重	-9.23148
在於	-9.23221
是為	-9.23226
郭	-9.23368
東南	-9.23446
男	-9.2345
雄	-9.23453
壁	-9.2363
寡人	-9.23652
貨	-9.23704
利害	-9.23728
姑	-9.23782
慢	-9.23807
其君	-9.2381
底	-9.23813
鐵	-9.23815
儉	-9.23816
凌	-9.2383
影	-9.23835
說在	-9.23844
堯舜	-9.23853
鑒	-9.23884
於天下	-9.24137
焚	-9.24181
不肯	-9.24194
也又	-9.24313
或以	-9.24642
曰此	-9.24665
泉	-9.24789
不必	-9.24884
奮	-9.24927
攝	-9.24967
則有	-9.24988
賦	-9.25023
名也	-9.25024
何氏曰	-9.25048
迫	-9.25071
燭	-9.25075
漏	-9.25106
辨	-9.25129
也言	-9.2514
孔	-9.25178
以其	-9.25241
拘	-9.25267
道者	-9.25284
忍	-9.25407
之情	-9.25474
後世	-9.25483
無窮	-9.25529
死生	-9.25626
之患	-9.25782
部	-9.25881
句	-9.2591
或曰	-9.26089
寒暑	-9.26184
慎	-9.26305
潔	-9.26331
毎	-9.26361
僧	-9.26369
邦	-9.26422
而自	-9.26522
於天	-9.26588
咎	-9.26764
脫	-9.26901
▁(	-9.27069
不肖	-9.27125
爻	-9.27232
哭	-9.27439
則是	-9.27452
人之所	-9.27507
伸	-9.27546
㓂	-9.27559
從事	-9.2756
導	-9.27618
撫	-9.2765
徙	-9.27668
宇	-9.27679
活	-9.27697
寢	-9.27701
恨	-9.27723
山川	-9.27731
而死	-9.27771
死者	-9.27796
聖王	-9.28154
在上	-9.2818
於下	-9.28368
曾	-9.28419
築	-9.28661
戮	-9.2879
蔡	-9.28873
劍	-9.28898
賣	-9.28918
總	-9.28947
配	-9.28948
拒	-9.28969
占	-9.28974
戾	-9.28982
買	-9.29
彈	-9.29037
不利	-9.29048
或有	-9.29081
大臣	-9.29226
七日	-9.29274
飲食	-9.29376
不言	-9.29406
撓	-9.29611
窺	-9.29724
見之	-9.2984
卵	-9.30021
朱子曰	-9.30137
采	-9.30182
傅	-9.30192
用兵	-9.30206
補	-9.30225
厥	-9.30256
駕	-9.30261
勁	-9.30278
其數	-9.30315
社稷	-9.30319
超	-9.30328
鬭	-9.30329
跡	-9.30342
民之	-9.30378
乾坤	-9.30456
况	-9.3048
之義	-9.30537
又有	-9.30933
川	-9.31152
究	-9.31367
紫	-9.31399
罔	-9.31508
而欲	-9.3152
鮮	-9.31545
叛	-9.31563
其德	-9.3159
烈	-9.31591
巢	-9.31609
沙	-9.3162
薪	-9.31659
桀	-9.31671
匪	-9.31696
淪	-9.31721
善惡	-9.31731
不當	-9.31898
未可	-9.31976
司馬	-9.31988
有功	-9.32155
熟	-9.32342
液	-9.32438
古人	-9.32776
豫	-9.3282
動静	-9.32831
沮	-9.32915
陶	-9.3297
社	-9.33014
誤	-9.33041
躁	-9.33043
賴	-9.33066
逺	-9.33081
大道	-9.33689
惜	-9.3387
二十四	-9.34059
之初	-9.3416
寄	-9.34382
遽	-9.34387
鴻	-9.34408
缺	-9.34431
剥	-9.34432
匿	-9.34463
伍	-9.34869
狀	-9.34907
王者	-9.34966
祥	-9.35089
則不	-9.3535
兄	-9.3542
乎賛曰	-9.3543
三月	-9.35466
談	-9.35515
人君	-9.35543
條	-9.35626
一歲	-9.35651
倉	-9.35709
桑	-9.35721
穿	-9.35757
丙	-9.35784
酉	-9.35799
舞	-9.35824
混	-9.35826
逢	-9.35852
慶	-9.35855
棲	-9.35886
其所以	-9.36462
泄	-9.36515
鋒	-9.36569
攻之	-9.36576
物之	-9.3673
也是以	-9.36753
非其	-9.36894
夕	-9.36939
之屬	-9.36955
而為	-9.36965
十五	-9.36974
香	-9.3702
西北	-9.37079
舌	-9.3716
黃	-9.37162
辛	-9.37195
疲	-9.37203
監	-9.37205
治也	-9.37208
頗	-9.37221
寬	-9.37256
郊	-9.3726
秀	-9.37292
戲	-9.37299
盧	-9.37327
中央	-9.38084
顔	-9.38414
箕	-9.38435
捨	-9.38597
猛	-9.38601
育	-9.38624
南方	-9.38626
幹	-9.38631
舒	-9.38669
竹	-9.38693
溢	-9.38711
擅	-9.38712
盗	-9.38716
頓	-9.38739
醉	-9.38739
單	-9.38741
距	-9.38803
如此則	-9.38854
不成	-9.38952
西方	-9.39164
其功	-9.39325
百里	-9.39396
牙	-9.39892
富貴	-9.40009
公子	-9.40032
耗	-9.40052
殆	-9.40097
送	-9.40107
康	-9.40124
乙	-9.40126
賈	-9.40131
周公	-9.40151
乞	-9.40173
領	-9.40182
嘉	-9.40218
爵禄	-9.40236
者亦	-9.40275
之道也	-9.40288
則無	-9.40394
四海	-9.40508
虚實	-9.40798
道士	-9.40925
限	-9.40969
禍福	-9.41049
至于	-9.41126
之用	-9.41164
賛曰	-9.41175
生物	-9.41225
也〇杜牧曰	-9.41256
稽	-9.41323
成功	-9.41366
仕	-9.41397
基	-9.4152
痛	-9.41548
皮	-9.41551
翟	-9.41571
也昔	-9.41579
曠	-9.41626
胎	-9.41627
可得	-9.41635
矯	-9.41642
借	-9.41669
五穀	-9.41833
五十	-9.42238
明日	-9.42519
學者	-9.42584
農	-9.42611
侍	-9.42741
杜佑曰	-9.42785
界	-9.42899
豈不	-9.42977
不在	-9.43013
脾	-9.43117
不待	-9.43142
讎	-9.43158
括	-9.43188
滯	-9.43193
穢	-9.43201
鳳	-9.43206
鼠	-9.43209
篤	-9.4323
誦	-9.43238
兹	-9.43241
覩	-9.43245
法也	-9.43316
於内	-9.43332
也此	-9.43464
聖人之	-9.43487
故聖人	-9.4349
擒	-9.43569
殺之	-9.43715
父子	-9.43854
産	-9.43857
之極	-9.43912
無常	-9.43933
爲政	-9.44014
今日	-9.44019
上帝	-9.44157
源	-9.44208
十二月	-9.44251
叔	-9.44322
樓	-9.44556
旋	-9.44568
壘	-9.44582
證	-9.44684
整	-9.44715
殃	-9.44722
搏	-9.44722
治國	-9.44741
妾	-9.44748
璧	-9.44776
弘	-9.4481
不知其	-9.45203
地形	-9.45502
宋曰	-9.45721
後天	-9.45753
五色	-9.45954
其次	-9.46008
敵之	-9.46011
擾	-9.4608
嗣	-9.46127
渠	-9.46136
而已矣	-9.46156
肺	-9.46244
肝	-9.46253
覽	-9.46289
階	-9.46296
誣	-9.46299
飽	-9.46309
怯	-9.46312
狹	-9.46347
之計	-9.46395
公曰	-9.46411
道德	-9.46569
不明	-9.46572
用也	-9.46667
求之	-9.46677
不通	-9.47016
曉	-9.47362
也王本	-9.47482
之内	-9.47578
人心	-9.47608
忿	-9.47715
閏	-9.47741
犬	-9.4775
蜀	-9.47786
偃	-9.47794
隊	-9.4781
住	-9.47822
輿	-9.47847
織	-9.47861
萬物之	-9.47872
享	-9.47875
湯武	-9.47992
有形	-9.48048
之禍	-9.48185
爲善	-9.48193
丸	-9.48198
其實	-9.48412
抱朴子外篇卷之	-9.48439
不正	-9.4844
流行	-9.4877
不免	-9.4886
不識	-9.48887
是月	-9.48911
始於	-9.48993
而弗	-9.49029
元氣	-9.49032
歳	-9.49034
蕩	-9.49174
必死	-9.49338
陰氣	-9.49341
之國	-9.49351
戌	-9.49369
佚	-9.49374
庚	-9.49384
金玉	-9.49393
潤	-9.49399
鈎	-9.49406
鎮	-9.49409
誓	-9.49447
黄鍾	-9.49492
欲以	-9.49496
因其	-9.49502
可知	-9.49507
紛	-9.49509
泥	-9.49516
蹈	-9.49518
護	-9.49541
之名	-9.49549
踰	-9.4964
初一	-9.4968
者謂之	-9.49858
范曰	-9.50445
人臣	-9.50447
亦不	-9.50454
得道	-9.50527
去之	-9.50538
十月	-9.50542
太子	-9.50615
與人	-9.50647
嬰	-9.50734
弟子	-9.50748
牢	-9.50807
相與	-9.50982
冰	-9.51066
炎	-9.51083
顛	-9.51086
夭	-9.51112
兄弟	-9.51122
絲	-9.51137
完	-9.51143
灌	-9.51151
快	-9.51152
謁	-9.51152
騰	-9.51175
掠	-9.51177
以上	-9.51511
古今	-9.51731
謗	-9.51846
仙人	-9.51879
某	-9.5205
安得	-9.52061
北極	-9.52214
者其	-9.52306
有罪	-9.5237
西南	-9.5241
其人	-9.52424
也凡	-9.52541
衆人	-9.52562
盖	-9.52691
隘	-9.52708
闘	-9.52774
網	-9.52779
途	-9.52784
鱗	-9.52795
啓	-9.52805
焦	-9.52811
看	-9.52857
軌	-9.52873
絃	-9.52874
蠶	-9.52875
墻	-9.52923
也曹操曰	-9.5296
料	-9.52997
夫人	-9.53022
日中	-9.53062
治之	-9.53127
鄙	-9.53252
莫能	-9.53263
其志	-9.53347
之精	-9.53374
倫	-9.53434
旣而	-9.53447
其言	-9.5349
泣	-9.53677
寸	-9.53759
刑罰	-9.53765
俟	-9.53766
不至	-9.53792
妖	-9.53977
之君	-9.53987
不義	-9.54003
終始	-9.54046
而知	-9.5405
答	-9.54153
人者	-9.54247
賛	-9.5434
賔	-9.54357
耀	-9.5436
之本	-9.5441
曰夫	-9.54422
賈林曰	-9.54425
席	-9.54471
踐	-9.54484
翔	-9.5451
芳	-9.54511
恥	-9.5452
禱	-9.5453
伊尹	-9.54532
叙	-9.54563
然也	-9.54643
孫子	-9.55123
取之	-9.55189
其氣	-9.55209
其意	-9.55463
染	-9.55613
北斗	-9.55745
返	-9.55949
縮	-9.56118
以求	-9.56174
茂	-9.56188
佯	-9.56202
巫	-9.5625
船	-9.56257
爲一	-9.56315
七十	-9.56368
往來	-9.56612
一名	-9.56836
先王	-9.56928
而天下	-9.57008
害也	-9.57082
之性	-9.57153
以利	-9.5733
文公	-9.57432
其父	-9.5747
而下	-9.57496
鄰	-9.57598
詭	-9.57608
之臣	-9.57693
程	-9.57719
而立	-9.57764
虐	-9.57857
挾	-9.57977
臭	-9.57997
恣	-9.58005
冀	-9.58013
從之	-9.58025
崩	-9.58044
若夫	-9.5816
坎離	-9.58174
法令	-9.58239
及其	-9.5833
暮	-9.58392
其可	-9.58459
之民	-9.58612
禀	-9.587
無功	-9.5907
或問	-9.59211
祝	-9.59265
十日	-9.59268
也范曰	-9.59276
童	-9.59475
蘇	-9.59505
其行	-9.59575
自此	-9.59583
尉	-9.59626
束	-9.59641
裏	-9.59657
嫁	-9.5967
甞	-9.59679
津	-9.59725
掌	-9.59728
握	-9.59729
澄	-9.59733
捷	-9.5974
屯	-9.5976
悖	-9.59771
効	-9.59774
勉	-9.59781
播	-9.59782
恒	-9.59784
人所	-9.59787
冝	-9.59797
以自	-9.59802
有道	-9.59803
剖	-9.59852
不從	-9.60011
智伯	-9.60011
而反	-9.60038
何故	-9.60246
無道	-9.60304
必先	-9.60378
四十	-9.60543
之形	-9.60663
其神	-9.6073
濕	-9.6078
起於	-9.60803
雪	-9.60996
皆以	-9.61017
者謂	-9.61065
牽	-9.61185
兒	-9.61484
故有	-9.61514
崑崙	-9.61562
所欲	-9.61563
詣	-9.6159
拙	-9.61592
一陽	-9.61612
伏羲	-9.61624
烹	-9.61637
愼	-9.61653
者無	-9.61837
有三	-9.6208
吉凶	-9.62157
地之	-9.6223
六十	-9.62274
日行	-9.62514
不求	-9.62597
白馬	-9.62604
大小	-9.62629
人情	-9.62667
曰子	-9.62819
次四	-9.62965
四象	-9.63064
真人	-9.63158
百日	-9.63166
南北	-9.63311
所在	-9.63327
拂	-9.63359
銅	-9.63371
支	-9.63372
冒	-9.63373
淮南鴻烈解卷之	-9.63384
乆	-9.63388
冨	-9.6339
吞	-9.63423
蕃	-9.63423
歡	-9.63435
響	-9.63446
為天	-9.63517
不能自	-9.63633
太玄	-9.63691
書曰	-9.63719
二人	-9.63759
夫子	-9.63777
不變	-9.63799
餌	-9.639
由是	-9.6391
一切	-9.64087
所得	-9.64138
桀紂	-9.64188
不覺	-9.64332
動而	-9.64344
也且	-9.64439
而去	-9.64481
討	-9.64675
者不可	-9.64685
法度	-9.64689
蒼	-9.64933
故不	-9.64944
摇	-9.64965
遏	-9.64974
人間	-9.65063
壤	-9.65129
俊	-9.65159
亭	-9.65183
縁	-9.65191
京	-9.65242
也〇王皙曰	-9.65244
曹公	-9.65249
髙	-9.65259
誕	-9.65276
蒸	-9.65279
雀	-9.65285
樸	-9.65301
豪	-9.65309
鉤	-9.65316
緫	-9.65319
饑	-9.65324
男女	-9.65337
灰	-9.6534
所生	-9.65354
擬	-9.65355
藻	-9.65447
其形	-9.65477
怠	-9.65549
之令	-9.65654
中國	-9.65669
二者	-9.65753
行之	-9.6576
遠近	-9.66007
世間	-9.66228
三十日	-9.66552
也范本	-9.66615
前後	-9.66733
所爲	-9.66864
咽	-9.66912
多少	-9.67007
安能	-9.67013
踈	-9.67019
鏡	-9.67092
人事	-9.67123
亢	-9.67128
閭	-9.67141
瞻	-9.6716
晨	-9.67207
屠	-9.67215
碎	-9.67226
科	-9.67234
優	-9.67246
燥	-9.67254
裂	-9.67254
像	-9.6726
汙	-9.67264
河圖	-9.67346
行也	-9.67352
風雨	-9.67635
老子	-9.67668
取其	-9.67735
甲子	-9.67767
子墨子	-9.67783
者也故	-9.67789
如何	-9.67822
則民	-9.67845
三十二	-9.6795
子華子曰	-9.67958
也或曰	-9.68173
城上	-9.68294
者多	-9.68389
十一	-9.68542
東北	-9.68698
未能	-9.68957
囚	-9.69051
渡	-9.69091
樞	-9.6912
壅	-9.69138
吹	-9.69146
裘	-9.69149
日月星辰	-9.69165
班	-9.69173
捐	-9.69176
禾	-9.69191
隋	-9.69198
何謂	-9.69304
而不得	-9.69304
之罪	-9.69321
用事	-9.69495
牽牛	-9.69524
柄	-9.696
者是	-9.69728
乃可	-9.6993
丑	-9.69955
楚人	-9.69981
不中	-9.70018
只是	-9.70038
朱子	-9.70068
為陽	-9.70072
何也	-9.70108
之主	-9.70248
不仁	-9.7033
禮樂	-9.70419
居中	-9.70424
者以其	-9.70443
厭	-9.70579
之世	-9.70592
而止	-9.70636
箇	-9.70685
供	-9.70731
賢人	-9.70874
而入	-9.70882
之際	-9.70884
析	-9.71066
芒	-9.711
壬	-9.71106
譬	-9.71109
麥	-9.71122
膏	-9.71133
獵	-9.71149
滑	-9.71165
也然則	-9.71177
滋	-9.71185
翕	-9.71188
係	-9.71197
桃	-9.71228
督	-9.71231
攸	-9.71256
陋	-9.71288
生也	-9.71328
不入	-9.71474
使者	-9.71512
若此	-9.71539
視之	-9.7164
不善	-9.71726
也抱朴子曰	-9.71882
無間	-9.71932
故老子曰	-9.71965
百官	-9.72005
亦然	-9.72083
其家	-9.72315
一物	-9.72429
匠	-9.72437
之聲	-9.7248
儒者	-9.72548
暑	-9.72586
旱	-9.72723
衍	-9.72823
治亂	-9.72827
戊	-9.73014
不生	-9.73017
得失	-9.73129
歛	-9.73148
軫	-9.73149
斧	-9.73158
創	-9.73166
彭	-9.73172
匡	-9.7318
飯	-9.73193
卜	-9.73208
霜	-9.73214
雍	-9.73214
炭	-9.73219
𩔖	-9.73225
頃	-9.73232
可見	-9.73238
捕	-9.73242
品	-9.73277
倒	-9.73288
之謂也	-9.73311
詩曰	-9.73344
譬猶	-9.73347
恕	-9.73365
朝廷	-9.73394
之門	-9.73432
之位	-9.73472
其說	-9.73525
人主之	-9.73602
者雖	-9.73759
以示	-9.73801
延年	-9.73803
明也	-9.73897
以相	-9.73901
也〇賈林曰	-9.74008
道理	-9.74329
物也	-9.74405
域	-9.74438
莊	-9.74467
不容	-9.74542
數也	-9.74731
不忍	-9.7476
郎	-9.74938
必以	-9.75126
一度	-9.7522
救之	-9.75229
藉	-9.75231
麻	-9.75237
蚤	-9.75248
園	-9.75249
齋	-9.75253
練	-9.75257
寇	-9.75267
晚	-9.75281
徹	-9.75302
祭祀	-9.7531
羸	-9.75316
麟	-9.75331
鷹	-9.75341
謬	-9.75351
花	-9.75366
之禮	-9.75473
變而	-9.75477
聦明	-9.7553
為陰	-9.75563
於中	-9.75684
度量	-9.75719
一國	-9.75763
六日	-9.75821
魁	-9.75834
禮義	-9.75854
之本也	-9.76111
臣也	-9.76319
之才	-9.76444
帥	-9.76494
無所不	-9.76504
之器	-9.76537
明主	-9.76588
者乎	-9.76597
而民	-9.76738
法者	-9.76744
默	-9.76872
五星	-9.76929
推之	-9.76937
在天	-9.76945
也上九	-9.77023
不亦	-9.771
曰善	-9.77118
旅	-9.77131
奈何	-9.7719
綱	-9.7721
竇	-9.7725
殿	-9.7726
釣	-9.77322
臧	-9.77366
劇	-9.77384
何必	-9.77391
躬	-9.77399
採	-9.7742
在我	-9.77421
晩	-9.77432
摩	-9.77435
洽	-9.77456
區	-9.77458
隔	-9.77463
續	-9.7749
掘	-9.77492
秋分	-9.77496
霄	-9.77501
曰汝	-9.77535
敦	-9.77537
利也	-9.77572
思慮	-9.77693
際	-9.77761
無益	-9.77777
其勢	-9.77923
死而	-9.77942
不備	-9.78008
孔子曰	-9.78082
之行	-9.78211
使民	-9.78381
一氣	-9.78404
不已	-9.78553
相應	-9.78612
有過	-9.78895
道而	-9.78943
越人	-9.78947
所見	-9.79074
且夫	-9.7923
矣今	-9.79352
輸	-9.79408
慧	-9.79427
闔	-9.79448
將來	-9.79486
者可亡也	-9.79498
其餘	-9.79518
毫	-9.79527
臂	-9.79569
函	-9.79589
詔	-9.79592
侈	-9.79596
僕	-9.796
稷	-9.79609
蕭	-9.79612
印	-9.79618
鷄	-9.79637
佞	-9.79643
譏	-9.79646
案	-9.79647
突	-9.7966
朋黨	-9.79671
一時	-9.79671
雅	-9.79705
殺人	-9.79736
淩	-9.79784
而出	-9.79819
貞測曰	-9.79924
喜怒	-9.7995
不止	-9.80045
化爲	-9.80064
東西	-9.80217
相去	-9.80489
諸將	-9.80557
牛馬	-9.80559
羞	-9.80569
守之	-9.80589
而又	-9.80603
穆	-9.80816
以知	-9.80826
三百	-9.80862
在乎	-9.81009
次六	-9.81262
鍊	-9.81288
襄	-9.815
聦	-9.81704
不可謂	-9.81782
詞	-9.81791
廬	-9.818
馮	-9.81801
逼	-9.81805
其妻	-9.8181
挈	-9.81816
濫	-9.81817
則不然	-9.81818
腐	-9.81825
徧	-9.81826
價	-9.81826
箭	-9.81829
盟	-9.81837
規矩	-9.81841
劔	-9.81848
旌旗	-9.81849
愚者	-9.81859
稍	-9.81861
宵	-9.81865
頤	-9.81873
構	-9.81889
秉	-9.8189
軒	-9.81892
康節	-9.81895
洛書	-9.81912
奢	-9.81915
轂	-9.81934
歲星	-9.82177
也次八	-9.82192
次二	-9.82239
所不	-9.82302
而用	-9.82322
十三	-9.82374
通於	-9.82507
肯	-9.82565
十一月	-9.82585
亦可	-9.82616
而用之	-9.82626
也宋陸本	-9.8273
春分	-9.82732
於物	-9.83232
〇李筌曰	-9.83536
王本	-9.83598
第四	-9.83618
終身	-9.83772
眞人	-9.83793
實也	-9.83853
詩云	-9.83919
匹	-9.83932
乃至	-9.83932
二十八	-9.83964
者衆	-9.83976
判	-9.83981
斥	-9.84005
三者	-9.84012
五月	-9.84014
鴈	-9.84017
得位當晝	-9.84045
腸	-9.8405
兔	-9.84051
裁	-9.84068
溝	-9.84079
姬	-9.84093
酷	-9.84101
膽	-9.84102
屢	-9.84109
彰	-9.84117
而動	-9.84141
濡	-9.84175
羿	-9.84189
水中	-9.84207
筆	-9.84237
明堂	-9.84393
不畏	-9.84527
不知所	-9.84591
此乃	-9.84598
逮	-9.84602
與其	-9.84662
而歸	-9.84867
所以爲	-9.8504
必勝	-9.8521
奇正	-9.85217
曰天	-9.85246
不祥	-9.85303
五帝	-9.85363
吴起	-9.85412
其名	-9.85424
入山	-9.855
以致	-9.85554
地有	-9.85752
右行	-9.85773
〇又曰	-9.85911
則為	-9.86007
不易	-9.86035
見於	-9.86069
桓	-9.86202
何如	-9.86252
艾	-9.86283
渾	-9.86295
椎	-9.86308
熒惑	-9.86339
卦氣	-9.86363
斂	-9.86368
鐘	-9.86388
次八	-9.86409
㫖	-9.86419
註	-9.86421
由此觀之	-9.86442
雉	-9.86458
宗廟	-9.86495
浸	-9.86496
若以	-9.86502
言不	-9.8657
則能	-9.86623
升降	-9.86642
愛之	-9.86657
貴賤	-9.86806
玉女	-9.86824
合於	-9.86867
易曰	-9.86872
勝負	-9.86896
問曰	-9.86971
得一	-9.872
以治	-9.87203
於世	-9.8724
十年	-9.87267
終日	-9.87277
城郭	-9.87312
次三	-9.87379
是猶	-9.87517
於君	-9.87582
其間	-9.87652
此是	-9.87772
行者	-9.87788
諸侯之	-9.8793
自有	-9.87956
無極	-9.88147
不得已	-9.8827
則必	-9.8833
之端	-9.88341
帛	-9.88479
又云	-9.88556
百步	-9.88628
癸	-9.88628
取勝	-9.88656
〇杜佑曰	-9.88667
銜	-9.88735
十萬	-9.88763
有五	-9.88769
弑	-9.88769
兮	-9.88778
鹽	-9.88781
宴	-9.88785
抗	-9.88787
唱	-9.8879
讒	-9.88791
生者	-9.88793
琴	-9.88796
偷	-9.88804
而進	-9.88835
治天下	-9.88852
盤	-9.88858
挫	-9.88863
蘭	-9.88869
女子	-9.88901
羹	-9.88908
則亂	-9.89023
韓信	-9.89093
之至也	-9.89108
也〇杜佑曰	-9.89121
其情	-9.89127
魂魄	-9.89173
乎昔	-9.89201
治者	-9.89233
恤	-9.89236
終不	-9.89257
一事	-9.8933
三尺	-9.89498
於地	-9.8983
以一	-9.89986
無私	-9.90015
隅	-9.90121
觀之	-9.90282
生死	-9.90392
其法	-9.90587
互	-9.90713
明於	-9.90718
方圓	-9.90746
事者	-9.90839
能知	-9.90989
説	-9.90994
無事	-9.91066
戚	-9.91131
鶴	-9.9114
頂	-9.91143
幼	-9.9115
誑	-9.91156
饒	-9.9116
也次三	-9.91177
今夫	-9.91186
瞽	-9.91187
駟	-9.91221
險阻	-9.91221
脂	-9.91227
於心	-9.91231
賀	-9.91233
渴	-9.91236
錫	-9.91239
𢖍	-9.91247
玩	-9.91249
胷	-9.91251
黍	-9.91251
夾	-9.91256
粹	-9.91261
圜	-9.91261
矩	-9.91282
禽獸	-9.91283
探	-9.91284
軸	-9.9131
蓬	-9.91311
鬱	-9.91319
俯	-9.91329
佩	-9.9133
至矣	-9.91364
式	-9.91416
攻其	-9.91441
山林	-9.91601
常以	-9.91651
饗	-9.91663
何可	-9.91692
長短	-9.91744
傷也	-9.91769
千歲	-9.91811
五味	-9.91868
凡此	-9.91905
不顧	-9.91937
必不	-9.92136
死地	-9.92365
皆是	-9.92382
吴王	-9.92484
之子	-9.92565
性命	-9.92649
利而	-9.92742
十八	-9.92742
墨子	-9.92757
上九	-9.93073
數十	-9.93365
宇宙	-9.93635
賓	-9.93651
普	-9.93671
雌	-9.93692
今從范本	-9.93711
想	-9.93718
崖	-9.93728
曷	-9.93733
填	-9.93747
漆	-9.93762
磨	-9.93764
電	-9.93778
橋	-9.93791
剛柔	-9.93802
廓	-9.93832
耻	-9.93837
籠	-9.93839
為主	-9.93894
其義	-9.93921
以告	-9.93956
韓魏	-9.94053
太清	-9.94077
而走	-9.94082
太白	-9.94098
也然而	-9.94173
動則	-9.94218
疾病	-9.9426
在人	-9.94261
十二辰	-9.94263
此之謂	-9.94456
一分	-9.94492
之妙	-9.94563
忠臣	-9.94693
十人	-9.94711
不自	-9.94773
告之	-9.94934
身死	-9.94985
也次六	-9.95043
者何也	-9.95073
以應	-9.95081
嘆	-9.95103
之節	-9.95171
徇	-9.9523
而非	-9.95303
至此	-9.95433
豈有	-9.9546
旬	-9.95633
在下	-9.9575
所愛	-9.9578
有司	-9.95793
歟	-9.9584
此則	-9.95867
易也	-9.95983
内外	-9.96052
凍	-9.96083
存亡	-9.96083
遼	-9.96092
姤	-9.96095
蟄	-9.96169
未得	-9.96173
敵國	-9.96196
囊	-9.96259
講	-9.9627
柳	-9.96272
豆	-9.96277
脉	-9.96284
其位	-9.96285
而復	-9.96289
陳皥曰	-9.9629
斤	-9.96302
虎豹	-9.96308
骨肉	-9.9631
尹	-9.96311
上有	-9.96315
輜重	-9.96319
閣	-9.9632
米	-9.96327
擢	-9.96339
逝	-9.96339
祕	-9.96345
眩	-9.96354
譎	-9.96364
偉	-9.964
邈	-9.96407
寫	-9.96511
譬如	-9.96551
無復	-9.96561
非所	-9.96563
以備	-9.96575
日月之	-9.9659
歎	-9.96626
强弱	-9.96694
一百	-9.9678
君子之	-9.9691
從而	-9.96951
小大	-9.96982
夜半	-9.97028
其罪	-9.97109
千人	-9.97119
者蓋	-9.97145
凡人	-9.97251
也一曰	-9.97256
可使	-9.97277
事君	-9.97292
之貌	-9.97461
其主	-9.97527
受命	-9.97563
哉夫	-9.97632
地中	-9.97639
則知	-9.97696
漁	-9.97722
也〇	-9.9779
善者	-9.97857
先王之	-9.97866
千金	-9.97908
其性	-9.97949
度數	-9.98023
之難	-9.98055
愛人	-9.98081
之學	-9.98118
則國	-9.9812
一本	-9.98158
于天	-9.9824
形而	-9.98318
於民	-9.98333
之美	-9.98454
首尾	-9.98557
而當晝君子	-9.98614
也〇陳皥曰	-9.98698
日在	-9.98732
股	-9.98853
煙	-9.98857
棺	-9.98881
狼	-9.9889
沃	-9.98896
闢	-9.98899
弋	-9.98908
灼	-9.98917
再拜	-9.98917
輒	-9.98928
檢	-9.98943
轡	-9.98943
竦	-9.98974
庫	-9.98989
霧	-9.99006
的	-9.99014
傲	-9.99016
粗	-9.99017
巖	-9.9902
在外	-9.99072
生而	-9.99089
者不能	-9.99093
圉	-9.99096
襄子	-9.99187
也次五	-9.99267
此亦	-9.99296
聖賢	-9.99315
善人	-9.99402
用其	-9.99432
亦何	-9.99481
堪	-9.99756
其利	-9.99821
無用	-9.99885
不亂	-9.99903
司命	-9.99953
可與	-10.0001
愚謂	-10.0002
樂也	-10.0009
所知	-10.001
不能使	-10.0013
聾	-10.0022
其爲	-10.0022
楚王	-10.0033
豈能	-10.0037
遠矣	-10.0044
而易	-10.0049
必敗	-10.0051
明君	-10.0054
攻城	-10.0061
他人	-10.0077
爲天下	-10.008
百人	-10.0086
太公	-10.0093
事也	-10.0097
也蓋	-10.0101
緯	-10.0102
一家	-10.0103
形也	-10.0117
鬻	-10.0119
十七	-10.012
抵	-10.0142
道路	-10.0149
衆生	-10.0149
相對	-10.015
銷	-10.0153
憤	-10.0156
仇	-10.0156
二十五	-10.0156
之力	-10.0158
匱	-10.0158
眼	-10.0158
詰	-10.0159
戈	-10.0159
若是	-10.016
寺	-10.0161
垣	-10.0161
訾	-10.0164
器械	-10.0164
曽	-10.0165
付	-10.0168
伎	-10.0168
寤	-10.0168
披	-10.0168
脅	-10.0169
溪	-10.0169
之體	-10.017
可得而	-10.017
緣	-10.0171
擁	-10.0171
壺	-10.0173
其本	-10.0174
於道	-10.0177
不加	-10.0178
黎	-10.0179
贊	-10.0179
神農	-10.0182
亂也	-10.0186
名實	-10.0187
譬若	-10.0211
答曰	-10.0212
地獄	-10.0213
宫室	-10.0216
不愛	-10.022
金丹	-10.0225
之書	-10.0232
燧	-10.0246
妻子	-10.0248
況於	-10.0264
預	-10.0283
宣王	-10.0287
則謂之	-10.0289
矣又	-10.0296
難也	-10.0316
事之	-10.0317
若有	-10.0323
以正	-10.034
人不	-10.0341
好惡	-10.0342
其地	-10.0343
相反	-10.0346
則天下	-10.0353
子華子	-10.0355
五事	-10.0358
次七	-10.0363
之鬼	-10.0366
三公	-10.0368
所居	-10.0377
則不可	-10.0387
為用	-10.0388
止也	-10.0395
憚	-10.0396
貢	-10.0403
氣也	-10.0411
洛	-10.0421
第二	-10.0423
禪	-10.0426
眉	-10.0428
豕	-10.0433
天有	-10.0433
圭	-10.0434
朽	-10.0436
潰	-10.0436
揮	-10.0437
問於	-10.0437
那	-10.0437
當此之時	-10.0438
秘	-10.0438
曰君	-10.0438
羨	-10.044
其用	-10.044
沸	-10.0441
述	-10.0442
今從宋陸本	-10.0443
繆	-10.0445
暫	-10.0445
嬰兒	-10.0446
敷	-10.0446
兵法	-10.0448
氏之	-10.0449
爛	-10.0451
氷	-10.0452
也次四	-10.0453
妨	-10.0453
鞭	-10.0454
陸曰	-10.0454
瑕	-10.0458
不可得	-10.0458
不解	-10.046
何爲	-10.0467
休息	-10.0468
以至	-10.0474
殺其	-10.0476
以明	-10.0476
手足	-10.0477
此之謂也	-10.0482
四面	-10.0507
者言	-10.0511
失之	-10.0532
知此	-10.0536
伺	-10.0542
二曰	-10.0547
以德	-10.0548
地而	-10.0549
無方	-10.0549
故人	-10.0549
有常	-10.0554
而未	-10.056
五行之	-10.0569
衛君	-10.0577
之高	-10.0585
五音	-10.0594
次五	-10.0601
三人	-10.0607
七星	-10.0608
北辰	-10.061
而當夜	-10.0618
欲得	-10.062
天下無	-10.0626
將欲	-10.0635
也雖	-10.0639
車馬	-10.0642
彼此	-10.0672
邵子	-10.0677
其有	-10.068
或無	-10.0682
第一	-10.0686
敗也	-10.0689
理也	-10.0695
非所以	-10.0697
孚	-10.07
先後	-10.0702
餓	-10.0704
一箇	-10.0709
瓦	-10.0713
拱	-10.0715
君也	-10.0721
脚	-10.0721
敖	-10.0722
蒲	-10.0723
排	-10.0723
訪	-10.0723
疵	-10.0724
訣	-10.0724
乗	-10.0727
躍	-10.073
祈	-10.0732
切王曰	-10.0733
衢	-10.0734
僻	-10.0734
鳳凰	-10.0735
冶	-10.0735
慾	-10.0736
鳥獸	-10.0736
竄	-10.0738
淳	-10.074
眇	-10.0742
未及	-10.0742
棘	-10.0743
不使	-10.0748
五百	-10.0753
歸之	-10.0755
其母	-10.0756
不立	-10.0771
先知	-10.0774
文章	-10.0777
伯夷	-10.0779
木也	-10.0798
非不	-10.0801
海内	-10.0802
也所謂	-10.0805
八十	-10.0808
六甲	-10.081
形勢	-10.081
可用	-10.0812
未知	-10.0814
孰謂	-10.0816
則可以	-10.083
為一	-10.0833
觀其	-10.0839
若無	-10.0841
爲君	-10.0846
不獲	-10.0852
避之	-10.086
而當晝	-10.0864
中間	-10.0872
億	-10.0895
亦無	-10.0895
明年	-10.0898
乎夫	-10.0899
動也	-10.091
可以爲	-10.0915
不得其	-10.0916
〇賈林曰	-10.0917
乎其	-10.0919
不治	-10.0933
城下	-10.0938
故云	-10.0939
昇	-10.0945
利者	-10.0957
乎曰	-10.096
國君	-10.0963
大怒	-10.0969
牛羊	-10.0975
胥	-10.0981
在其	-10.0982
無罪	-10.0985
非一	-10.0986
亦不可	-10.099
小宋本作	-10.0991
乃得	-10.0995
大國	-10.1
淮	-10.1006
思之	-10.1007
吾子	-10.1008
嗜	-10.1011
墓	-10.1014
二十八宿	-10.1015
趍	-10.1017
腦	-10.1018
截	-10.1018
先天圖	-10.1019
貶	-10.102
嗇	-10.1022
牀	-10.1022
儲	-10.1024
汗	-10.1024
金液	-10.1024
駭	-10.1024
不失其	-10.1025
範	-10.1026
孕	-10.1027
十五日	-10.1035
鑄	-10.1036
在前	-10.1046
第十	-10.1051
之兵	-10.1056
未見	-10.106
六陰	-10.1064
二子	-10.1069
所用	-10.1076
大功	-10.1079
六十四	-10.108
皆得	-10.1081
男子	-10.1084
示以	-10.1085
萬世	-10.1086
金石	-10.1098
問之	-10.1102
中山	-10.1117
鄭君	-10.112
其民	-10.1122
吾所	-10.1138
非有	-10.1141
天地之間	-10.1147
俗人	-10.115
不盡	-10.1154
一一	-10.1155
師曠	-10.1156
於我	-10.116
而來	-10.1163
七月	-10.1166
人無	-10.1171
守其	-10.1195
存乎	-10.121
知人	-10.1228
苗	-10.1233
五日	-10.1235
於國	-10.1243
鬼神之	-10.1244
五聲	-10.1244
輩	-10.1245
失道	-10.1254
至德	-10.1274
也〇何氏曰	-10.128
嵩	-10.1295
知也	-10.13
其親	-10.1302
鄕	-10.1304
則不能	-10.1304
白公	-10.1306
什	-10.1313
娶	-10.1315
迂	-10.1315
德之	-10.1319
奥	-10.1319
有命	-10.132
山之	-10.1321
戟	-10.1322
揆	-10.1323
今從宋陸范本	-10.1324
傍	-10.1324
巷	-10.1324
䘮	-10.1327
丹砂	-10.1327
遍	-10.1327
迭	-10.1328
可勝	-10.1328
盆	-10.1328
岸	-10.1328
縛	-10.133
翳	-10.1331
逾	-10.1331
弃	-10.1332
礙	-10.1332
之末	-10.1334
邀	-10.1334
〇朱子曰	-10.1335
九天	-10.1338
類也	-10.1341
之失	-10.1346
太隂	-10.1351
嗜欲	-10.1351
霸王	-10.1358
白黑	-10.1363
此所謂	-10.1364
號令	-10.1382
之盛	-10.1384
誘之	-10.1387
不得不	-10.1389
福禄	-10.1391
消長	-10.1393
簡公	-10.1393
齊王	-10.1402
忠信	-10.1403
生焉	-10.1416
知伯	-10.1417
分為	-10.1418
晏子	-10.1426
君人者	-10.1435
其色	-10.1436
六月	-10.1442
數日	-10.1445
法而	-10.1451
八月	-10.1462
萬里	-10.1464
亡者	-10.1476
五者	-10.1477
生人	-10.1511
之制	-10.1519
不欺	-10.1531
而見	-10.1545
無術	-10.1548
齊人	-10.1552
不惑	-10.1555
一變	-10.1559
之官	-10.1563
之德	-10.1569
又如	-10.1571
萬事	-10.1574
不忘	-10.1583
功成	-10.16
旨	-10.1604
題	-10.1609
不修	-10.1611
岳	-10.1619
在内	-10.162
遵	-10.1621
項	-10.1622
毅	-10.1622
葛	-10.1624
牝	-10.1624
雙	-10.1625
扇	-10.1626
豹	-10.1626
祠	-10.1627
㝠	-10.1627
員	-10.1628
湛	-10.1629
恬	-10.1629
剋	-10.163
掇	-10.163
煞	-10.1631
董	-10.1631
措	-10.1631
署	-10.1632
須臾	-10.1632
瀆	-10.1632
其於	-10.1632
䧟	-10.1632
零	-10.1633
翰	-10.1636
今從宋陸王本	-10.1637
粉	-10.1638
踵	-10.1639
灾	-10.1639
郷	-10.1639
愆	-10.1639
朋	-10.164
涸	-10.164
能令	-10.164
也初一	-10.1641
亡國	-10.1642
水也	-10.1642
苛	-10.1643
警	-10.1644
虎狼	-10.1645
挺	-10.1647
廷	-10.1648
所作	-10.1651
吝	-10.1652
父兄	-10.1652
憲	-10.1654
盡其	-10.1657
之資	-10.1665
萬人	-10.1669
周孔	-10.167
白虎	-10.1676
勝敵	-10.1679
言曰	-10.1684
德也	-10.1687
論之	-10.1688
氏曰	-10.1694
死矣	-10.1697
老君	-10.1697
久矣	-10.1711
九州	-10.1719
辜	-10.1719
三代	-10.1724
少而	-10.1728
對待	-10.1735
無一	-10.1738
因以	-10.1742
山中	-10.1745
於無形	-10.175
亦曰	-10.1753
勝之	-10.1756
正月	-10.1759
有大	-10.176
之宜	-10.1779
日出	-10.1783
之數也	-10.1783
曰某	-10.1792
之方	-10.1795
九變	-10.1802
民無	-10.1802
舉事	-10.1802
者為	-10.1802
一言	-10.1805
非常	-10.1806
止於	-10.1807
不樂	-10.1807
天文	-10.1807
而卒	-10.1812
則我	-10.1816
不絶	-10.182
有數	-10.1821
乘之	-10.1821
其力	-10.1828
易之	-10.1831
養之	-10.1831
其下	-10.1837
二氣	-10.185
而忘	-10.1869
久而	-10.187
十四	-10.1871
之類也	-10.1877
此謂	-10.188
賞之	-10.1881
同也	-10.1883
義者	-10.1886
將何	-10.1887
日夜	-10.189
在地	-10.1899
而不以	-10.1913
己者	-10.1915
行而	-10.192
嶽	-10.1925
則雖	-10.1937
也次七	-10.1939
犀	-10.1942
婁	-10.1942
廪	-10.1945
皆爲	-10.1945
板	-10.1946
冷	-10.1952
仞	-10.1954
㑹	-10.1957
攘	-10.1957
臻	-10.1958
仍	-10.1958
這	-10.1959
貸	-10.1959
呪	-10.196
匈奴	-10.196
爪	-10.196
而無所	-10.196
嬴	-10.1962
代之	-10.1962
償	-10.1962
唫	-10.1963
柴	-10.1963
江河	-10.1964
繞	-10.1965
弛	-10.1965
俠	-10.1967
撲	-10.1969
岐	-10.197
促	-10.1971
迅	-10.1973
察其	-10.1976
貧賤	-10.1988
勝也	-10.1989
今以	-10.1991
自以爲	-10.1992
見利	-10.2
不虞	-10.2
大人	-10.2006
一斤	-10.2007
不周	-10.2023
二月	-10.2031
邵子曰	-10.2036
不合	-10.2037
有九	-10.2041
立而	-10.2043
將以	-10.2048
二君	-10.2057
四月	-10.2061
主人	-10.207
文武	-10.2074
使敵	-10.2077
相生	-10.2077
門户	-10.208
陰陽之	-10.2088
夫婦	-10.209
三百六十日	-10.2091
貳	-10.2109
之業	-10.211
不應	-10.2112
即日	-10.2116
戰勝	-10.2141
子産	-10.2145
其外	-10.2145
也李筌曰	-10.215
南極	-10.2154
此其	-10.2155
不可勝	-10.2159
而治	-10.2162
不離	-10.2164
聞而	-10.2166
不可以爲	-10.2176
下有	-10.2176
其體	-10.2188
之處	-10.2188
四者	-10.2202
九十	-10.2206
之智	-10.2207
所貴	-10.2213
有能	-10.2219
可知也	-10.2231
無異	-10.2235
之志	-10.2238
之實	-10.2242
地下	-10.2243
鈍	-10.2264
晏	-10.2265
鳩	-10.2271
之始	-10.2273
人道	-10.2273
之精也	-10.2274
勒	-10.2275
莫如	-10.2275
牡	-10.2277
絳	-10.2279
會稽	-10.2283
洗	-10.2283
死於	-10.2288
健	-10.2289
凉	-10.2289
瑞	-10.2289
汜	-10.229
蹠	-10.229
狄	-10.2291
庶幾	-10.2291
榦	-10.2292
杪	-10.2292
又況	-10.2293
翁	-10.2294
揣	-10.2295
熊	-10.2295
藍	-10.2295
麋	-10.2296
聘	-10.2296
汁	-10.2298
轅	-10.2299
垢	-10.2299
愚按	-10.23
㓜	-10.2301
媚	-10.2301
衣食	-10.2303
切范曰	-10.2303
遐	-10.2304
太宗	-10.2305
造父	-10.2307
不幸	-10.2307
星辰	-10.2311
大破之	-10.2315
子貢	-10.2317
終於	-10.2323
賢而	-10.2328
而退	-10.2331
死亡	-10.2332
也又曰	-10.2333
十餘	-10.2337
百二十	-10.2339
非爲	-10.2346
赦	-10.2348
三寸	-10.2348
曲直	-10.2349
在此	-10.2349
爲大	-10.2354
太山	-10.2365
奪之	-10.2372
立春	-10.2374
貴於	-10.2376
太守	-10.2378
當時	-10.2381
六陽	-10.2392
以來	-10.2407
諸家	-10.2414
未若	-10.2418
焉故	-10.2428
者乃	-10.244
矣故曰	-10.2442
教之	-10.2455
天神	-10.2457
三分	-10.2472
號曰	-10.2473
受之	-10.2474
形者	-10.2475
人物	-10.2481
異也	-10.249
日以	-10.2494
衆而	-10.2498
陽生	-10.2516
地則	-10.2519
一說	-10.2521
勇者	-10.253
以攻	-10.254
一二	-10.2546
勢利	-10.255
暇	-10.2552
十九	-10.256
若使	-10.2565
待之	-10.2569
之神	-10.257
胃	-10.257
故謂之	-10.257
亂世	-10.2575
盡力	-10.2584
太陰	-10.2605
有天下	-10.2611
亦猶	-10.2614
性也	-10.2615
隨之	-10.2618
鮑	-10.262
怒而	-10.2622
氐	-10.2625
鑑	-10.2626
融	-10.2626
肩	-10.2629
乳	-10.263
孟氏曰	-10.263
林鍾	-10.263
繳	-10.2632
晷	-10.2633
誡	-10.2634
亟	-10.2635
柯	-10.2636
傑	-10.2637
稼	-10.2639
鵲	-10.264
氣之	-10.2641
噬	-10.2641
懦	-10.2641
也賛曰	-10.2641
霍	-10.2642
成形	-10.2642
茅	-10.2642
打	-10.2643
驥	-10.2644
令尹	-10.2644
弄	-10.2645
珠玉	-10.2645
佳	-10.2645
欽	-10.2647
其根	-10.2648
丘陵	-10.2649
瘁	-10.265
騁	-10.2653
盜賊	-10.2656
然後可以	-10.2657
〇陳皥曰	-10.2658
微妙	-10.266
家人	-10.2661
子罕	-10.2661
國有	-10.2661
曰臣	-10.2668
枚	-10.2669
秦王	-10.2673
上下相	-10.2676
太初	-10.2676
鄰國	-10.2679
好憎	-10.2685
而利	-10.2689
子胥	-10.2689
盛衰	-10.27
與天地	-10.2706
也所以	-10.2708
乎天	-10.2714
食之	-10.2722
制也	-10.274
則當	-10.274
黄金	-10.275
日用	-10.2752
爲上	-10.2754
之色	-10.2755
不能以	-10.2759
有二	-10.2764
而巳	-10.2767
之論	-10.2768
也次二	-10.2785
所出	-10.2797
五藏	-10.2802
之迹	-10.2804
八極	-10.2805
去其	-10.2809
度世	-10.2809
景公	-10.2809
地上	-10.2811
三曰	-10.2812
刑德	-10.2819
無知	-10.282
三州	-10.2832
主之	-10.2833
不忠	-10.2834
大將	-10.2841
者也夫	-10.2842
者何	-10.2852
七十二	-10.2852
不服	-10.2856
盡也	-10.2857
之義也	-10.2864
說之	-10.2867
與道	-10.2867
其臣	-10.2871
天命	-10.2897
銀	-10.2897
而擊之	-10.291
得仙	-10.2911
而至	-10.2914
藝	-10.2916
三家	-10.2934
六合	-10.2939
故言	-10.294
高而	-10.2942
天理	-10.2946
必欲	-10.2948
於齊	-10.2952
罵	-10.2975
釜	-10.298
馴	-10.298
復生	-10.2981
蓄	-10.2983
做	-10.2984
多矣	-10.2984
煎	-10.2987
之序	-10.2988
漠	-10.2989
曜	-10.299
憑	-10.299
葆	-10.2992
瘡	-10.2992
芻	-10.2992
誨	-10.2993
王本作	-10.2994
秒	-10.2994
稅	-10.2994
阻	-10.2994
蟬	-10.2995
宻	-10.2995
潦	-10.2995
亮	-10.2995
故明主	-10.2996
贖	-10.2996
演	-10.2997
俾	-10.2997
熙	-10.2997
正直	-10.2997
吸	-10.2998
蟻	-10.2998
奴	-10.2999
褒	-10.2999
睡	-10.2999
局	-10.3001
墨子卷之	-10.3003
飢寒	-10.3004
曩	-10.3004
煖	-10.3005
熾	-10.3005
而上	-10.3006
一世	-10.3009
朴	-10.3009
璞	-10.3009
未易	-10.3009
子弟	-10.3011
唐虞	-10.3015
季孫	-10.3018
莫敢	-10.302
便有	-10.3025
雖多	-10.3028
一身	-10.3028
不測	-10.3029
不可爲	-10.3032
小過	-10.3036
養生	-10.3037
舟車	-10.3037
運行	-10.304
〇何氏曰	-10.3041
乎若	-10.3043
四維	-10.306
范本	-10.3062
其光	-10.3063
皆不	-10.3071
豈非	-10.3073
自是	-10.3075
筋	-10.3079
乎此	-10.3086
不暇	-10.309
曹公曰	-10.3092
真氣	-10.3092
故君子	-10.3095
以救	-10.3104
陽升	-10.3107
於身	-10.312
姓名	-10.3121
輟	-10.3128
其大	-10.3139
天時	-10.3142
己之	-10.3148
地利	-10.3149
皆在	-10.316
拊	-10.3162
入於	-10.3164
道家	-10.3165
堅白	-10.3169
土地	-10.317
者也故曰	-10.3171
軍士	-10.3172
故其	-10.3177
穆公	-10.3179
政事	-10.3181
而終	-10.3187
以濟	-10.3191
俄	-10.32
何足	-10.3205
知者	-10.3205
一陰	-10.3206
之術也	-10.321
立功	-10.3214
治病	-10.3216
莫之	-10.3228
在後	-10.3229
未發	-10.3236
愧	-10.3245
禮之	-10.3251
不能得	-10.3256
安可	-10.3265
經世	-10.3274
相持	-10.3274
反間	-10.3283
日日	-10.3287
不孝	-10.3291
遠者	-10.3302
於前	-10.3303
高下	-10.3307
未嘗不	-10.3314
寓	-10.3325
之源	-10.3327
左旋	-10.3335
本於	-10.3342
畧	-10.3343
裝	-10.3344
所以能	-10.3344
韋	-10.3347
能以	-10.3347
谿	-10.3348
摧	-10.3348
丈夫	-10.3351
蹻	-10.3355
副	-10.3357
韜	-10.3357
耦	-10.3358
梯	-10.3358
隣	-10.3359
銖	-10.336
桂	-10.3361
爽	-10.3362
嫌	-10.3362
天一	-10.3363
纔	-10.3363
拾	-10.3365
贏	-10.3365
酸	-10.3366
攫	-10.3367
燎	-10.3367
較	-10.3368
几	-10.3369
不遠	-10.3369
哲	-10.337
藪	-10.3371
顓頊	-10.3371
楯	-10.3371
之命	-10.3372
簿	-10.3374
甲乙	-10.3374
既已	-10.3375
其内	-10.3376
梓	-10.3376
闊	-10.3379
績	-10.338
敏	-10.3383
必得	-10.3387
清濁	-10.3391
未甞	-10.3395
叔孫	-10.3403
者能	-10.3408
毁譽	-10.3412
二百	-10.3415
不去	-10.3415
動靜	-10.3423
程子曰	-10.3424
已成	-10.3425
黄道	-10.3428
致遠	-10.3436
與天	-10.3436
行其	-10.3444
平生	-10.3448
無聲	-10.3449
智能	-10.345
於朝	-10.3456
倦	-10.3457
許由	-10.346
少陽	-10.3461
養性	-10.3465
所不能	-10.3466
是故聖人	-10.3482
燕王	-10.3483
故民	-10.3487
仙道	-10.3489
轉而	-10.3498
二十七	-10.3498
自爲	-10.3499
士也	-10.3499
不息	-10.3504
之野	-10.3507
此書	-10.3507
孰能	-10.3508
不改	-10.3511
置之	-10.3515
水上	-10.3516
不疑	-10.3521
立冬	-10.3523
姦臣	-10.3524
之害	-10.3533
而惡	-10.3556
也謂	-10.3558
術也	-10.356
不肖者	-10.3562
施之	-10.3573
以類	-10.359
爲臣	-10.3593
法則	-10.3601
以養	-10.3602
其理	-10.3614
若不	-10.362
盲	-10.3627
非能	-10.3634
不堪	-10.3645
屬陽	-10.3647
無何	-10.3647
之費	-10.3654
難知	-10.3659
賂	-10.3663
無欲	-10.3677
比於	-10.3678
姦邪	-10.3689
求其	-10.369
即是	-10.3696
莫知	-10.3701
何所	-10.3718
當晝	-10.372
不急	-10.3723
也若夫	-10.3734
屏	-10.3736
應之	-10.3738
伐之	-10.3739
竅	-10.374
鶡冠子曰	-10.3742
閔	-10.3743
版	-10.3744
沖	-10.3745
則止	-10.3745
鏤	-10.3747
技	-10.3747
戍	-10.3748
燔	-10.3748
隸	-10.3749
嚮	-10.3749
松	-10.375
惰	-10.375
臯	-10.3751
酌	-10.3752
甫	-10.3752
而誅	-10.3752
祐	-10.3752
曼	-10.3753
教人	-10.3754
鸞	-10.3754
綴	-10.3755
阜	-10.3756
缶	-10.3756
不免於	-10.3756
攺	-10.3758
汞	-10.3758
間者	-10.3758
墳	-10.3759
替	-10.3764
尉繚子曰	-10.3764
碧	-10.3765
朝夕	-10.3769
親戚	-10.378
一元	-10.3781
疑惑	-10.3783
小宋	-10.3785
二十四氣	-10.3786
南面	-10.3791
不窮	-10.3793
孔丘	-10.38
光明	-10.3803
孟子	-10.3812
始生	-10.3815
登第	-10.3817
九地	-10.3818
兵者	-10.3831
大矣	-10.385
當知	-10.3855
尚書	-10.3855
制勝	-10.3861
可不	-10.3865
以諭	-10.3867
而行之	-10.3867
長者	-10.3867
有備	-10.387
得以	-10.3871
衣服	-10.3871
之分	-10.3873
人人	-10.3875
以道	-10.388
之前	-10.3884
不務	-10.3885
哀公	-10.3885
不妄	-10.3887
有德	-10.3891
能得	-10.3897
趙王	-10.3898
患也	-10.3902
隂氣	-10.3909
諫曰	-10.3914
之明	-10.3915
何異	-10.3919
之大者	-10.3929
其智	-10.3933
不傷	-10.3933
從此	-10.3939
無法	-10.3941
於子	-10.3942
固守	-10.3949
之言也	-10.3949
清明	-10.3964
能自	-10.3964
喪其	-10.397
此三	-10.3975
日舍	-10.399
之表	-10.3994
音聲	-10.3996
天子之	-10.4001
不見其	-10.4008
陽中	-10.4013
與我	-10.4014
死戰	-10.4018
又以	-10.402
不宜	-10.4023
而不敢	-10.4024
左行	-10.4027
於敵	-10.4028
之所在	-10.4031
數千	-10.4033
以勸	-10.4036
以下	-10.4055
進則	-10.4055
各自	-10.4055
精氣	-10.4056
此道	-10.4074
者如	-10.4083
雖然	-10.4092
一體	-10.4094
在南	-10.4096
雷霆	-10.4099
進而	-10.4105
仁者	-10.4111
聞之曰	-10.4127
又不	-10.4128
蛟	-10.4129
十里	-10.4132
荀	-10.4135
橐	-10.4137
麤	-10.4137
羲	-10.4138
當日之晝	-10.4138
障	-10.4139
畝	-10.4139
圃	-10.414
减	-10.4142
洲	-10.4144
污	-10.4144
湖	-10.4144
悍	-10.4145
彭祖	-10.4145
爐	-10.4146
編	-10.4148
岀	-10.4148
也或問	-10.4149
隕	-10.4149
壓	-10.4149
睹	-10.4151
慘	-10.4151
今從二宋陸王本	-10.4152
水火土石	-10.4152
詘	-10.4153
脛	-10.4153
砥	-10.4154
冢	-10.4154
遜	-10.4155
浴	-10.4155
倡	-10.4156
赫	-10.4156
鄧	-10.4156
斲	-10.4157
懈	-10.4157
膚	-10.4157
䘏	-10.4158
揜	-10.4159
畔	-10.4159
無可	-10.416
組	-10.4161
仗	-10.4165
炙	-10.4165
忤	-10.4166
而難	-10.4166
至精	-10.4167
顔色	-10.417
故無	-10.4175
以觀	-10.4181
老子曰	-10.4185
次之	-10.4189
黄白	-10.419
脩短	-10.4194
未幾	-10.4194
九月	-10.4196
損益	-10.4201
乃能	-10.4202
趙氏	-10.4203
齊桓公	-10.4203
先據	-10.4205
十尺	-10.4209
又復	-10.4211
非無	-10.4211
與物	-10.4217
相愛	-10.4217
八尺	-10.4219
與敵	-10.4221
月行	-10.4221
形名	-10.4234
功也	-10.4235
不察	-10.4244
奇兵	-10.4251
堅固	-10.4257
大吕	-10.4265
子夏	-10.4272
一方	-10.4273
皆可	-10.4281
魏王	-10.4282
神丹	-10.4286
則無以	-10.429
曰今	-10.4299
之役	-10.4302
何也曰	-10.4309
投之	-10.4309
致其	-10.432
不任	-10.4322
攻者	-10.4324
已上	-10.4326
能使	-10.4327
亡也	-10.4335
之象也	-10.4351
生成	-10.4357
不克	-10.4367
請以	-10.4367
物而	-10.437
二物	-10.4372
勞而	-10.4372
生氣	-10.4376
王之	-10.4388
此理	-10.439
當以	-10.4391
無益於	-10.4392
之要	-10.4392
必無	-10.4403
隨時	-10.4405
六十四卦	-10.4408
一云	-10.4415
郢	-10.4417
得意	-10.442
不救	-10.4424
矣是故	-10.4426
徃來	-10.4427
土也	-10.4443
大王	-10.4443
者不以	-10.4457
生萬物	-10.4459
抱朴子答曰	-10.4461
之山	-10.447
何以知	-10.4475
不移	-10.4483
而實	-10.4486
尚同	-10.4488
爲天子	-10.4506
王公大人	-10.4507
自謂	-10.4512
必爲	-10.4513
子墨子言曰	-10.452
則下	-10.4521
當作	-10.4534
第三十	-10.4538
備之	-10.4544
薛	-10.4546
疇	-10.4547
炊	-10.455
有六	-10.455
以法	-10.455
明矣	-10.4553
磬	-10.4554
五千	-10.4555
鑽	-10.4558
挑	-10.4558
僅	-10.4558
貟	-10.4559
失位當夜	-10.456
踦	-10.456
菜	-10.456
爲義	-10.456
夾鍾	-10.4561
濯	-10.4561
加十五日指	-10.4562
櫓	-10.4562
諂	-10.4563
鐸	-10.4563
無量	-10.4563
枕	-10.4564
寐	-10.4564
睟	-10.4565
沐	-10.4565
汲	-10.4567
壇	-10.4568
菽	-10.4568
之憂	-10.4568
贍	-10.457
峭	-10.457
彘	-10.4571
鈆	-10.4573
紹	-10.4574
睦	-10.4574
針	-10.4575
諱	-10.4575
刖	-10.4577
訴	-10.4577
叅	-10.4577
不勞	-10.4579
辦	-10.458
緑	-10.4581
弼	-10.4581
搆	-10.4582
誹	-10.4582
觴	-10.4583
后稷	-10.4584
而勿	-10.4585
所利	-10.4587
黜	-10.4588
南吕	-10.4589
故有是象	-10.459
輻	-10.459
皆然	-10.459
飲酒	-10.4592
入于	-10.4594
主者	-10.46
周旋	-10.4602
尊卑	-10.4605
消息	-10.4605
節按	-10.4607
飛鳥	-10.4617
之具	-10.4617
不可使	-10.463
者常	-10.4634
之策	-10.4635
襄王	-10.4637
夜光	-10.4641
在北	-10.4642
魯人	-10.4642
文侯	-10.4646
料敵	-10.4646
上生	-10.4646
血氣	-10.4649
未生	-10.465
敵人之	-10.4653
弗知	-10.4654
而制	-10.4659
不能相	-10.466
之辭	-10.4675
者天之	-10.4676
屬陰	-10.4676
田常	-10.468
今有	-10.468
學之	-10.4681
糧道	-10.4686
信之	-10.4692
不曉	-10.47
廣大	-10.4701
人能	-10.4702
本末	-10.471
盛德	-10.4711
曾子	-10.4713
甚於	-10.4725
陰生	-10.4735
水草	-10.4735
乃是	-10.4749
言語	-10.4757
勝者	-10.4761
不拔	-10.4767
待敵	-10.4768
過於	-10.4771
始終	-10.4772
矣若	-10.4772
不殺	-10.4772
數百	-10.4775
文學	-10.4778
不戰	-10.4784
魯君	-10.4789
本一	-10.4791
曰何	-10.4794
重人	-10.4794
無名	-10.4795
知己	-10.4808
木之	-10.4808
非獨	-10.4814
以象	-10.4815
道術	-10.4818
於己	-10.4822
不學	-10.4824
染於	-10.4825
匹夫	-10.4832
情欲	-10.484
者少	-10.4844
也余	-10.4847
下降	-10.4853
時有	-10.4857
五六	-10.486
無害	-10.4866
而使之	-10.4866
以制	-10.4867
之候	-10.4871
其政	-10.4871
中氣	-10.4875
舉兵	-10.4878
相爲	-10.4879
二三	-10.488
說者	-10.4881
自取	-10.4885
使其	-10.4887
生數	-10.4894
為正	-10.4895
者得	-10.4902
見一	-10.4902
數年	-10.4906
晋陽	-10.4907
能有	-10.4907
大明	-10.4908
封之	-10.4923
已定	-10.4927
死後	-10.4929
過也	-10.4931
不取	-10.4935
貴其	-10.4938
槩	-10.4939
但凡	-10.494
鼓之	-10.4941
人不能	-10.4941
所由	-10.4944
恐其	-10.4945
故為	-10.4947
以威	-10.4948
不避	-10.4948
不貴	-10.4949
之政	-10.4949
之文	-10.496
千萬	-10.4965
以義	-10.4972
爲物	-10.4976
則可	-10.4978
足以知	-10.4979
熏	-10.4986
幣	-10.4986
五人	-10.4987
贅	-10.4988
臍	-10.4992
兕	-10.4993
鬪	-10.4994
蹶	-10.4995
龐	-10.4997
以取	-10.4997
臞	-10.4998
文正	-10.4998
隳	-10.4998
滌	-10.4999
彗	-10.4999
諧	-10.5
暢	-10.5
級	-10.5
橫	-10.5
尅	-10.5
蕪	-10.5001
知彼	-10.5002
坑	-10.5002
浪	-10.5002
譽之	-10.5002
庖	-10.5002
也小宋本	-10.5003
沛	-10.5003
藴	-10.5004
妬	-10.5004
抽	-10.5004
釁	-10.5005
淮南	-10.5005
怖	-10.5005
府庫	-10.5005
婚	-10.5005
灑	-10.5005
紙	-10.5005
荷	-10.5006
僚	-10.5006
躡	-10.5007
秩	-10.5007
謾	-10.5007
事無	-10.5007
餐	-10.5007
孫叔敖	-10.5008
邇	-10.5008
懲	-10.5008
跂	-10.5008
允	-10.5008
貨財	-10.5008
劑	-10.5009
艱	-10.5009
膠	-10.5009
牖	-10.501
瑶	-10.501
宦	-10.501
潭	-10.5011
掃	-10.5011
叢	-10.5012
雛	-10.5012
古者聖王	-10.5012
綿	-10.5013
狸	-10.5013
慝	-10.5014
逍遥	-10.5015
極則	-10.5016
循環	-10.5016
盜跖	-10.5019
驪	-10.5019
貴者	-10.5022
衆寡	-10.5023
昭侯	-10.5024
太公曰	-10.5024
也易曰	-10.5026
下生	-10.5028
比干	-10.5028
繩墨	-10.5029
三五	-10.5035
晋文公	-10.5036
法之	-10.5043
不敬	-10.5044
官府	-10.5046
賢不肖	-10.5046
守一	-10.5046
如一	-10.5049
昭王	-10.5049
王道	-10.505
貴之	-10.5054
百事	-10.5059
中孚	-10.506
又何	-10.5066
以事	-10.5068
箕子	-10.5072
不喜	-10.5074
先儒	-10.5077
小宋曰	-10.5078
比周	-10.5089
相救	-10.5094
有聲	-10.5098
有術	-10.5114
人自	-10.5116
齊之	-10.5116
其衆	-10.5121
有間	-10.513
雄黄	-10.513
乃曰	-10.5134
相似	-10.5135
未足	-10.5136
行則	-10.5151
於事	-10.5153
神字	-10.5156
必待	-10.5173
保其	-10.5182
讀書	-10.5187
之巧	-10.5187
用心	-10.5194
名山	-10.5197
猶有	-10.5198
從其	-10.5199
著於	-10.52
盡矣	-10.5202
之月	-10.5206
晋人	-10.521
人身	-10.5213
出而	-10.5221
無禮	-10.5231
明其	-10.5231
三光	-10.5232
服食	-10.5238
内無	-10.524
德行	-10.5246
後有	-10.5249
所說	-10.525
曰寡人	-10.5253
名者	-10.526
名爲	-10.526
以喻	-10.5262
城中	-10.527
而强	-10.5279
不獨	-10.528
不安	-10.5285
獨見	-10.5285
而取之	-10.53
也且夫	-10.5304
太虚	-10.5307
自來	-10.531
難以	-10.5315
將有	-10.5318
上黨	-10.5321
少陰	-10.5321
勝於	-10.5322
以生	-10.5326
六爻	-10.5329
撰	-10.5333
情也	-10.5339
先至	-10.5339
故雖	-10.5345
聽之	-10.535
中心	-10.5353
而使	-10.5371
用力	-10.5386
之藥	-10.5389
不休	-10.539
其禍	-10.5392
此說	-10.5393
恃其	-10.5393
不逮	-10.5398
與同	-10.54
易其	-10.5401
之所能	-10.5401
所能	-10.5402
於淵	-10.5403
七尺	-10.5406
愚曰	-10.5409
極而	-10.5412
不須	-10.5413
亦如	-10.5413
其類	-10.5422
四十九	-10.5422
以身	-10.5426
寂	-10.543
慨	-10.5435
扁	-10.5441
餉	-10.5443
頸	-10.5445
耽	-10.5445
綸	-10.5445
劒	-10.5446
甲兵	-10.5446
帝王	-10.5446
厨	-10.5447
皓	-10.5447
館	-10.5448
四九	-10.5449
寜	-10.5449
研	-10.545
摶	-10.545
聰	-10.5451
段	-10.5452
桐	-10.5452
絞	-10.5453
欒	-10.5453
軀	-10.5454
跋	-10.5454
燿	-10.5454
禳	-10.5454
則勝	-10.5455
洪範	-10.5455
殖	-10.5455
婆	-10.5456
街	-10.5456
繡	-10.5456
叟	-10.5456
陂	-10.5456
譴	-10.5457
該	-10.5457
律吕	-10.5457
所惡	-10.5458
憐	-10.5458
妃	-10.5458
羙	-10.5458
賁	-10.5458
蔚	-10.5459
扁鵲	-10.5459
和氣	-10.5459
潤澤	-10.5459
丙丁	-10.546
孫臏	-10.546
緒	-10.5461
募	-10.5462
呼吸	-10.5462
例	-10.5463
僇	-10.5463
受其	-10.5463
訖	-10.5464
其變	-10.5464
屈伸	-10.5465
漂	-10.5465
翠	-10.5466
〇邵子曰	-10.5467
止之	-10.5468
子發	-10.5468
乃始	-10.5469
儒墨	-10.547
朗	-10.547
冕	-10.5471
絳宫	-10.5472
莖	-10.5472
圈	-10.5473
一本作	-10.5473
司空	-10.5475
滄海	-10.5476
亦得	-10.5479
晦朔	-10.548
不和	-10.5482
歸於	-10.5484
應鍾	-10.5485
刋	-10.5487
虚無	-10.5489
絶其	-10.549
必將	-10.5493
而失	-10.5498
而當夜小人	-10.5498
文子	-10.5499
公孫	-10.5499
人民	-10.55
空虚	-10.5502
昭昭	-10.5503
病也	-10.5512
人臣之	-10.5512
河東	-10.5517
得罪	-10.552
平公	-10.5527
而食	-10.5528
無備	-10.5532
群臣	-10.5535
春夏	-10.5538
脩其	-10.5539
賢聖	-10.5541
三千	-10.5543
變者	-10.5548
立秋	-10.5548
而不用	-10.5555
玄武	-10.5555
以和	-10.5555
其所欲	-10.5556
外内	-10.5558
愚人	-10.556
之力也	-10.5561
分數	-10.5563
常在	-10.5565
備矣	-10.5568
奪其	-10.5572
斬之	-10.5572
其辭	-10.5573
退而	-10.5579
君曰	-10.558
太平	-10.5581
暴亂	-10.5582
衆也	-10.5584
揚子	-10.5585
不事	-10.5592
而況	-10.5597
其高	-10.5603
為火	-10.5621
六畜	-10.5622
欲求	-10.5624
陽虎	-10.5632
一升	-10.5633
之狀	-10.5636
太陽	-10.5637
小利	-10.5647
之深	-10.5656
四為	-10.566
曰若	-10.5662
木石	-10.5666
所求	-10.5668
欲爲	-10.5674
何足以	-10.5676
也昔者	-10.5679
而輕	-10.568
衣冠	-10.5681
之木	-10.5681
而亡	-10.5686
非馬	-10.5687
化也	-10.5688
而後能	-10.5688
之運	-10.5691
二千	-10.5698
然後能	-10.5698
亡國之	-10.5698
争利	-10.5712
二分	-10.5713
八十一	-10.5716
命之	-10.5718
識者	-10.5719
外物	-10.572
皇帝	-10.5726
以五	-10.5727
者必有	-10.5731
不辜	-10.5732
相連	-10.5738
圍之	-10.5742
成敗	-10.5749
事有	-10.5759
不令	-10.5761
其精	-10.5774
者先	-10.5775
之交	-10.5775
也〇孟氏曰	-10.5781
家之	-10.5784
夫差	-10.5786
此法	-10.5789
未聞	-10.579
以兵	-10.579
此二	-10.5794
之路	-10.5795
二公	-10.5797
安知	-10.5814
盡則	-10.5815
曰諾	-10.5817
民力	-10.5832
而明	-10.5834
誅之	-10.5841
無過	-10.5842
便於	-10.585
用六	-10.5861
不下	-10.5861
有可	-10.5862
三星	-10.5862
敵若	-10.5863
不爭	-10.5864
軍争	-10.5866
長也	-10.5868
其首	-10.5868
之氣也	-10.5868
莽	-10.5873
於秦	-10.5875
利於	-10.5875
未至	-10.5883
不能制	-10.5884
大藥	-10.5884
各得	-10.5885
亦自	-10.5886
故得	-10.5887
至誠	-10.589
雖欲	-10.5899
六六	-10.59
善於	-10.59
浩	-10.59
爲非	-10.5902
太上感應篇卷之	-10.5903
之師	-10.5903
鄒	-10.5904
金水	-10.5905
人力	-10.5909
十二萬九千六百	-10.5909
台	-10.5912
炳	-10.5912
聖人之所	-10.5913
辰為	-10.5913
七年	-10.5914
奎	-10.5914
澹	-10.5915
咨	-10.5917
神化	-10.5918
旌	-10.592
崔	-10.5921
旺	-10.5922
之餘	-10.5923
而可	-10.5923
械	-10.5923
斛	-10.5924
淨	-10.5925
孫子註解卷之	-10.5925
地仙	-10.5926
喉	-10.5926
瑟	-10.5926
菑	-10.5926
鑪	-10.5926
梟	-10.5927
輯	-10.5928
膳	-10.5929
鬲	-10.5929
狀如	-10.5929
睢	-10.5931
羌	-10.5931
姑洗	-10.5931
之所爲	-10.5931
卯酉	-10.5932
巾	-10.5932
愠	-10.5932
萃	-10.5933
鼈	-10.5934
五臟	-10.5934
淡	-10.5934
昴	-10.5934
株	-10.5935
愛其	-10.5935
洿	-10.5935
簫	-10.5936
蝕	-10.5937
戀	-10.5937
嶺	-10.5937
繕	-10.5937
乍	-10.5937
張孟談	-10.5938
仙經	-10.5939
捉	-10.5939
衮	-10.5939
陟	-10.594
誥	-10.594
跳	-10.594
夷狄	-10.5941
酣	-10.5942
劣	-10.5944
窕	-10.5945
也君子	-10.5945
脯	-10.5945
貯	-10.5946
蹇	-10.5947
毀	-10.5947
撞	-10.5947
聰明	-10.5948
以三	-10.595
經緯	-10.595
太祖	-10.5951
勳	-10.5956
有變	-10.5961
兩儀	-10.5975
使不得	-10.5977
豈可	-10.598
布施	-10.5982
車騎	-10.5984
泰山	-10.5991
備也	-10.5994
圖書	-10.5997
無以異	-10.6001
腎氣	-10.6003
異日	-10.6003
於後	-10.6004
既濟	-10.6006
世主	-10.6008
而取	-10.601
而起	-10.6011
免於	-10.6015
人必	-10.602
互相	-10.602
近習	-10.6025
必知	-10.6027
變易	-10.6028
不齊	-10.6033
月建	-10.6034
埋	-10.6037
售	-10.6038
順天	-10.604
而居	-10.6043
良馬	-10.6044
而務	-10.6048
彼我之	-10.6053
此所以	-10.6056
玄黄	-10.6062
罪人	-10.6065
人之有	-10.6072
分别	-10.6072
不起	-10.6072
丹田	-10.6074
感應	-10.6077
安危	-10.6077
命也	-10.6078
戒之	-10.6078
元始	-10.608
能勝	-10.609
曰公	-10.609
之元	-10.6091
引兵	-10.6093
財物	-10.6094
不作	-10.6097
學士	-10.6099
神也	-10.6102
圓圖	-10.6107
也〇又曰	-10.6107
多力	-10.6114
然其	-10.6115
以御	-10.6118
之機	-10.6118
近者	-10.612
發於	-10.6122
真君	-10.6123
不進	-10.6124
刑政	-10.6125
死生之	-10.6127
未成	-10.6129
權變	-10.613
滔	-10.6134
然後可	-10.6136
雨水	-10.6139
自守	-10.6141
宋君	-10.6152
下弦	-10.6159
及至	-10.6159
加之以	-10.6165
小宋本	-10.6166
可乎	-10.617
矣抱朴子曰	-10.6181
明主之	-10.6188
輕兵	-10.6188
兼愛	-10.6192
爲法	-10.6193
不戒	-10.6197
不可得也	-10.6203
獨立	-10.6204
勝敗	-10.6207
要在	-10.6214
之卦	-10.6219
八節	-10.6221
危矣	-10.6224
孝子	-10.6231
至則	-10.6232
不勝其	-10.6235
勝則	-10.624
託於	-10.6241
之衆	-10.6242
不重	-10.6243
智也	-10.6244
傳之	-10.6245
祝曰	-10.6252
形之	-10.6253
精微	-10.6254
甚矣	-10.6257
我者	-10.6257
或云	-10.6259
欲令	-10.6259
死力	-10.6264
言無	-10.6266
大喜	-10.6279
有一人	-10.628
皆自	-10.6285
乎地	-10.6288
攻戰	-10.6293
大如	-10.6302
五尺	-10.6304
高山	-10.6307
曰凡	-10.6311
正道	-10.6312
地方	-10.6315
成王	-10.6322
以爲治	-10.6322
天地人	-10.6326
以見	-10.6328
不許	-10.6328
世而	-10.6336
而外	-10.634
何則	-10.6343
亦不能	-10.6344
者或	-10.6345
也子墨子曰	-10.6351
不可輕	-10.6357
其方	-10.6361
親也	-10.6367
為本	-10.6368
雖不	-10.6371
伐齊	-10.6371
復有	-10.6375
若敵	-10.638
朕	-10.6382
吴曰	-10.6386
骸	-10.6387
四尺	-10.6388
老陽	-10.6388
煉	-10.6388
在東	-10.6391
不苟	-10.6393
及於	-10.6406
體道	-10.6412
罕	-10.6413
所至	-10.6415
火之	-10.6415
而爲之	-10.6416
太簇	-10.6416
我能	-10.6417
跌	-10.6419
喙	-10.642
卓	-10.6421
朱雀	-10.6421
靖	-10.6422
款	-10.6423
恠	-10.6423
堞	-10.6423
棋	-10.6424
澗	-10.6425
肴	-10.6426
長丈	-10.6426
揭	-10.6426
徴	-10.6426
肌膚	-10.6426
雖在	-10.6426
呈	-10.6426
便可	-10.6427
遥	-10.6427
莒	-10.6427
蓍	-10.6427
扣	-10.6427
璽	-10.6427
芬	-10.6427
殫	-10.6428
牒	-10.6428
漿	-10.6428
標	-10.6429
龐子曰	-10.6429
自得	-10.643
陛下	-10.643
百餘	-10.6431
錦	-10.6432
今從范王本	-10.6433
跪	-10.6433
東西南北	-10.6434
三軍之衆	-10.6434
漫	-10.6434
纖	-10.6434
遂得	-10.6434
栗	-10.6435
而神	-10.6435
裹	-10.6435
畜生	-10.6435
弭	-10.6435
殽	-10.6435
饋	-10.6436
漬	-10.6436
功而	-10.6437
恍	-10.6438
蓮	-10.6438
諌	-10.6439
狎	-10.6442
頽	-10.6442
諛	-10.6445
豺狼	-10.6445
愁	-10.6445
不廢	-10.6445
其故何也	-10.6447
雕	-10.6447
先王之書	-10.6448
奔走	-10.6448
害之	-10.6448
輝	-10.6449
醇	-10.6449
山名也	-10.6452
林宗	-10.6452
挑戰	-10.6453
但以	-10.6453
無已	-10.6455
朱鳥	-10.6456
説在	-10.6456
三十里	-10.6459
枝葉	-10.6459
艮卦	-10.646
權衡	-10.6462
恐懼	-10.6465
不便	-10.647
水銀	-10.6471
十二會	-10.6481
三苗	-10.6482
官爵	-10.6485
君命	-10.6486
是時	-10.649
興師	-10.6497
昇天	-10.6499
言之則	-10.6505
無非	-10.6513
則難	-10.6515
華蓋	-10.6518
善言	-10.6521
也一說	-10.6521
三尸	-10.6522
郎中	-10.6523
卿相	-10.6524
之報	-10.6524
權勢	-10.6524
第三	-10.6527
有苗	-10.6529
爲人臣者	-10.6534
鬻子	-10.6534
有言	-10.6536
於彼	-10.6537
合戰	-10.6537
勇力	-10.6538
失於	-10.654
大川	-10.6543
城門	-10.6547
無外	-10.6548
命而	-10.6549
無怨	-10.655
而獨	-10.655
宰相	-10.6552
可知矣	-10.6555
周禮	-10.6556
而還	-10.6556
攻守	-10.6564
一念	-10.6564
不可復	-10.6574
諾	-10.6577
經云	-10.6581
死也	-10.6581
莫見其	-10.6582
楚人謂	-10.6582
福德	-10.6584
達者	-10.6584
哉故	-10.6584
月令	-10.6584
八風	-10.6585
其聲	-10.6586
聲色	-10.6586
天地間	-10.6588
不戰而	-10.6588
之任	-10.6588
善則	-10.6589
無遺	-10.6592
動作	-10.6592
由乎	-10.6597
爲惡	-10.66
越王	-10.6609
〇天	-10.6611
其威	-10.6613
相見	-10.6617
非其人	-10.662
亡其	-10.6629
信也	-10.6634
兊	-10.6636
一旦	-10.6638
忽然	-10.664
之勞	-10.6642
境内	-10.665
匠人	-10.665
萬一	-10.665
百家	-10.6652
心者	-10.6654
不稱	-10.6657
深入	-10.6657
本無	-10.6664
虚也	-10.6666
日入	-10.6671
君子不	-10.6676
天帝	-10.6678
勿令	-10.6683
勵	-10.6694
不平	-10.6695
所當	-10.6695
鄭人	-10.6696
周子	-10.6697
未盡	-10.6703
賢於	-10.6706
則得	-10.671
三國	-10.6711
人生	-10.6713
山在	-10.6714
居處	-10.6718
人曰	-10.6719
赤子	-10.6721
高者	-10.6722
尚有	-10.6723
曰不可	-10.6728
師曰	-10.6733
太上感應篇卷之二十	-10.6735
不能成	-10.6736
室中	-10.6737
之材	-10.6738
術者	-10.6739
所守	-10.6745
乾卦	-10.6746
之首	-10.6747
吏卒	-10.6749
在其中	-10.675
有國	-10.6764
四星	-10.6767
之威	-10.6768
大過	-10.6769
老陰	-10.6769
相乘	-10.677
矣是以	-10.6772
庶人	-10.6778
從者	-10.6778
必能	-10.6778
至微	-10.6781
乘馬	-10.6782
近之	-10.6785
各異	-10.6786
于時	-10.6788
藏於	-10.679
未定	-10.6792
智士	-10.6795
彼我	-10.68
譬之	-10.6806
其口	-10.6807
術而	-10.6808
曰吾聞	-10.6809
六律	-10.6814
猶不	-10.6818
之患也	-10.6819
行列	-10.682
之家	-10.6823
必使	-10.6824
其角	-10.6824
不能救	-10.6831
治民	-10.6838
呼之	-10.6841
之俗	-10.6849
者道之	-10.6849
棄之	-10.6867
石也	-10.6869
為水	-10.687
是夕	-10.6871
離散	-10.6872
生木	-10.6873
而從	-10.6873
立夏	-10.6879
簡子	-10.6881
自知	-10.6885
之賢	-10.6888
不接	-10.689
生明	-10.689
爲禍	-10.689
般	-10.6899
盡於	-10.6905
所長	-10.6908
皆當	-10.691
舍之	-10.6911
之樂	-10.6912
不守	-10.6912
分明	-10.6916
無他	-10.6922
乎故	-10.6923
金也	-10.6924
有定	-10.6926
伏兵	-10.6929
嗟	-10.6931
第五	-10.6934
請問	-10.694
場	-10.694
上文	-10.694
其門	-10.6941
善用兵者	-10.6943
犀首	-10.6943
稻	-10.6944
四千三百二十	-10.6945
牲	-10.6945
瑣	-10.6946
纍	-10.6946
頑	-10.6947
勃	-10.6947
凋	-10.6949
方一州	-10.695
歐	-10.6951
巴	-10.6951
麾	-10.6952
訐	-10.6952
死人	-10.6953
詠	-10.6953
苑	-10.6953
槁	-10.6953
認	-10.6954
擣	-10.6955
餒	-10.6955
夬	-10.6956
抱朴子内篇卷之十	-10.6956
擊其	-10.6956
知之者	-10.6956
有異	-10.6957
頌	-10.6958
庚辛	-10.6958
筐	-10.6958
寶	-10.6959
蛤	-10.6959
巡	-10.6959
纏	-10.6959
宛	-10.696
懈怠	-10.696
爾雅	-10.696
表裏	-10.696
侏儒	-10.6961
呉	-10.6961
斃	-10.6962
韓非子卷之十	-10.6963
浚	-10.6963
帷	-10.6963
拯	-10.6963
伊	-10.6963
裔	-10.6964
懾	-10.6964
蠹	-10.6965
踞	-10.6965
舛	-10.6965
蘆	-10.6966
膝	-10.6967
黿	-10.6967
低	-10.6967
五寸	-10.6968
自稱	-10.6969
展	-10.6969
九竅	-10.6969
携	-10.697
埃	-10.6971
糞	-10.6972
朋友	-10.6972
模	-10.6972
艷	-10.6972
而聽	-10.6974
悶	-10.6974
所載	-10.6974
盈縮	-10.6976
共工	-10.6976
易以	-10.6977
玉帛	-10.6977
渭	-10.6978
用兵之法	-10.698
商鞅	-10.698
黄庭	-10.6985
者固	-10.6987
日有	-10.6995
吴越	-10.6996
布衣	-10.6996
齊桓	-10.6996
莫知其	-10.6998
抱朴子外篇卷之三十	-10.6999
隂降	-10.7
大水	-10.7007
星紀	-10.7009
青龍	-10.7011
童子	-10.7023
於水	-10.7024
畏之	-10.7028
不可用	-10.7028
外無	-10.7029
軍之	-10.7031
積聚	-10.7038
其日	-10.7046
察於	-10.7046
賢愚	-10.7048
獲罪	-10.7056
在位	-10.7058
周天	-10.7058
危亡	-10.7059
天地之中	-10.706
風俗	-10.7061
大雪	-10.7064
假令	-10.7064
後漢	-10.7065
用兵之	-10.7068
神靈	-10.7071
惠王	-10.7072
則失	-10.7072
者不必	-10.7073
語曰	-10.7075
精誠	-10.7075
軍中	-10.7077
除之	-10.7078
夫唯	-10.7078
勇士	-10.7081
視聽	-10.7084
用此	-10.7085
莊王	-10.7092
中藏	-10.7095
敗之	-10.7096
諸軍	-10.7098
六氣	-10.7099
而好	-10.7103
是爲	-10.7115
聖王之	-10.7117
亦當	-10.712
而責	-10.7123
知敵情	-10.7124
入室	-10.713
應變	-10.7133
一寸	-10.7133
管仲曰	-10.7135
此非	-10.7142
修身	-10.7147
藏之	-10.715
王小宋本	-10.7155
使我	-10.7155
根本	-10.7159
三王	-10.7166
官至	-10.7166
貴乎	-10.7168
惑也	-10.717
攻伐	-10.7171
有八	-10.7175
無得	-10.7175
堅守	-10.7176
子午	-10.7182
在焉	-10.7185
二字	-10.7197
遠而	-10.7197
利在	-10.72
失時	-10.7201
戰於	-10.7201
六星	-10.7203
小子	-10.7204
存焉	-10.7206
愛利	-10.7206
疾也	-10.7206
不美	-10.7206
太上感應篇卷之十	-10.7207
不親	-10.7213
四曰	-10.7217
爲本	-10.7219
之良	-10.7223
伐楚	-10.7235
畏死	-10.7245
以定	-10.7251
以我之	-10.7256
論其	-10.7263
所敗	-10.7266
今人	-10.7268
所不知	-10.727
令其	-10.7281
楚國	-10.7285
月之	-10.7294
自當	-10.7294
又當	-10.7296
民之所	-10.73
知有	-10.7302
所從	-10.7304
臣臣	-10.7311
者豈	-10.7313
一丸	-10.7313
識之	-10.7317
善而	-10.7318
和合	-10.7319
欲與	-10.732
其時	-10.7323
六為	-10.7323
天性	-10.7323
鑠	-10.7326
明者	-10.7329
尚賢	-10.733
上聖	-10.733
而任	-10.7335
不敗	-10.7344
於口	-10.7345
大寒	-10.7349
便當	-10.7351
韓子	-10.7351
之淵	-10.7359
輕舉	-10.7361
不倦	-10.7361
守者	-10.7362
賢士	-10.7363
抱朴子外篇卷之二十	-10.7371
經曰	-10.7377
美人	-10.7377
學道	-10.7384
入水	-10.7385
明師	-10.7385
天體	-10.7387
丈人	-10.7391
至今	-10.7394
南陽	-10.7394
生水	-10.7398
反其	-10.7401
若乃	-10.7407
五五	-10.742
無能	-10.7425
病者	-10.7429
能爲	-10.743
其業	-10.743
不達	-10.7433
法制	-10.7433
今世	-10.7437
停	-10.7438
塞其	-10.7442
為奇	-10.7446
民有	-10.7448
皆能	-10.7449
等也	-10.7449
而觀	-10.7452
起兵	-10.7454
身中	-10.746
丞	-10.7461
變也	-10.7462
出奇	-10.7462
千餘	-10.7469
觀其所	-10.7472
部二家	-10.7474
亦可以	-10.7478
大敗	-10.7481
下無	-10.7483
二年	-10.7484
獲其	-10.7486
來者	-10.749
縻	-10.749
幟	-10.7492
恚	-10.7492
不以其	-10.7496
方二州	-10.7496
䂓	-10.7497
皆如	-10.7499
以通	-10.7499
沾	-10.75
所有	-10.7504
課	-10.7505
柰何	-10.7507
程子	-10.7507
孽	-10.7508
斫	-10.7508
徽	-10.7508
天原發微卷之十	-10.7509
鑚	-10.751
叩	-10.751
托	-10.7511
純粹	-10.7511
奕	-10.7511
瘠	-10.7512
逮至	-10.7512
阨	-10.7512
縷	-10.7512
駮	-10.7513
雒	-10.7513
畛	-10.7513
左右前後	-10.7514
空中	-10.7514
矛	-10.7514
廟堂	-10.7514
無物	-10.7514
龐涓	-10.7515
遮	-10.7515
蟄蟲	-10.7516
倨	-10.7516
篡	-10.7516
豚	-10.7517
堙	-10.7517
各有所	-10.7518
姚	-10.7518
沽	-10.7518
鵬	-10.7518
犢	-10.7518
祟	-10.7518
制之	-10.7518
栢	-10.7518
頻	-10.7518
幕	-10.7518
迴	-10.7519
今從王本	-10.7519
奄	-10.752
忒	-10.7521
欠	-10.7521
準繩	-10.7521
妍	-10.7521
狡	-10.7522
咫尺	-10.7522
蹤	-10.7522
熈	-10.7523
黔	-10.7524
汎	-10.7524
酋	-10.7525
袁	-10.7525
岫	-10.7525
鉛	-10.7526
疽	-10.7527
萍	-10.7527
有四	-10.7527
閱	-10.7528
倕	-10.753
倉卒	-10.7531
情性	-10.7531
老人	-10.7531
供養	-10.7531
闡	-10.7533
嶮	-10.7535
吕尚	-10.7536
九疇	-10.7536
無德	-10.7537
陽數	-10.7538
營室	-10.754
臘	-10.7542
小國	-10.7547
是神	-10.7551
農夫	-10.7553
白刃	-10.7553
百萬	-10.7554
以報	-10.7559
九日	-10.7561
斷穀	-10.7561
流血	-10.7562
用法	-10.7562
反爲	-10.7566
方術	-10.7566
無射	-10.7573
守職	-10.7579
太微	-10.7582
出乎	-10.7582
千二百	-10.7583
復歸	-10.7584
賢良	-10.7586
物物	-10.7588
一周天	-10.7593
至大	-10.7598
兩端	-10.7598
軍旅	-10.7599
授之	-10.7604
何不	-10.7604
矣然	-10.7605
不害	-10.7605
非義	-10.7606
東井	-10.7606
許之	-10.7607
勞苦	-10.761
用者	-10.7614
之吏	-10.7614
無足	-10.7614
必取	-10.7614
有力	-10.7615
百歲	-10.7615
十二次	-10.7619
以廣	-10.762
之所由	-10.7622
武帝	-10.7623
已有	-10.7627
政教	-10.7627
工夫	-10.7636
不可不察也	-10.7638
目視	-10.7641
告曰	-10.7647
之亂	-10.7647
器也	-10.7647
所以然者	-10.7654
人主之所	-10.7661
不違	-10.7662
第七	-10.7664
多有	-10.7665
山名	-10.7667
在天為	-10.7667
三卷	-10.7668
處於	-10.7669
兵强	-10.7671
必至	-10.7681
微言	-10.7682
盲者	-10.7688
大利	-10.7689
一夕	-10.769
而身	-10.7691
不施	-10.7692
四十五	-10.7694
氣多	-10.7702
縣令	-10.7711
君之所	-10.7714
之疾	-10.772
不能無	-10.7726
於善	-10.7732
不問	-10.7733
二尺	-10.7734
佛言	-10.7736
而去之	-10.7741
守備	-10.7744
人亦有	-10.7745
得其宜	-10.7745
之過	-10.7747
一語	-10.775
詐僞	-10.7754
必危	-10.7755
耳目之	-10.7758
遠也	-10.7759
必須	-10.776
氣力	-10.7761
下者	-10.7762
又為	-10.7767
久則	-10.777
不煩	-10.7774
退則	-10.7776
以計	-10.7778
甚多	-10.7779
其他	-10.778
視其	-10.7782
反覆	-10.7783
發其	-10.7784
不可知	-10.7791
無限	-10.7792
長久	-10.7795
至乾	-10.7796
必行	-10.7801
相親	-10.7801
上古	-10.7809
以亂	-10.7812
而得之	-10.7814
其足	-10.7816
是何	-10.7817
王良	-10.7819
相交	-10.782
八方	-10.7821
三方	-10.7824
大亂	-10.7831
治世	-10.7833
形於	-10.7836
器用	-10.7838
兵弱	-10.7841
之間而	-10.7841
乃知	-10.7843
存亡之	-10.7847
萬變	-10.7847
相通	-10.7848
之所以爲	-10.7848
弱而	-10.7854
在心	-10.7855
有道者	-10.7859
姦人	-10.7859
月在	-10.786
法術	-10.7861
月為	-10.7863
之備	-10.7864
月光	-10.7874
窟	-10.7879
疑之	-10.7883
於衆	-10.7886
十斤	-10.7889
先人	-10.789
身體	-10.7892
而受	-10.7894
仁人	-10.7905
千里之	-10.7907
失火	-10.7907
是以聖人	-10.7908
亦必	-10.7908
帝王之	-10.7909
一同	-10.791
二星	-10.7911
節制	-10.7913
如是則	-10.7922
不悅	-10.7929
莫若	-10.7931
杓	-10.7932
此五者	-10.7942
猶未	-10.7942
内守	-10.7945
不恃	-10.7947
諸神	-10.795
乃以	-10.7953
毁之	-10.7954
以入	-10.7963
便利	-10.7968
而待	-10.7979
庸人	-10.7981
士民	-10.799
法禁	-10.799
明白	-10.7993
財貨	-10.7997
能致	-10.7999
嚴刑	-10.8002
積善	-10.8004
一畫	-10.8008
為體	-10.8009
不擇	-10.8013
其謀	-10.8014
之佐	-10.8017
之所欲	-10.8024
不然則	-10.8026
不怨	-10.8029
何以知其然也	-10.8031
世有	-10.8036
可畏	-10.8043
不慈	-10.8044
不拘	-10.8045
根於	-10.8045
片	-10.8049
宋陸本	-10.8058
以成其	-10.8059
記曰	-10.8062
先君	-10.8064
物有	-10.8066
天門	-10.8069
不得已而	-10.8077
相得	-10.8079
九地之	-10.8079
塹	-10.808
煬	-10.8084
商君	-10.8085
肌	-10.8087
乹	-10.8088
杯	-10.8089
哭泣	-10.8089
隧	-10.809
陣	-10.8091
覘	-10.8092
裳	-10.8092
駒	-10.8094
惕	-10.8094
觜	-10.8094
昆	-10.8095
壹	-10.8095
翻	-10.8096
甕	-10.8096
腰	-10.8097
聊	-10.8097
乃爲	-10.8097
衰也	-10.8097
齋鮑雲龍景翔編著虚谷方回萬里校正	-10.8097
嘔	-10.8098
葦	-10.8098
遯	-10.8099
徯	-10.8099
繭	-10.8099
詢	-10.81
熒	-10.81
軾	-10.81
闚	-10.8101
則生	-10.8101
槃	-10.8101
暖	-10.8101
莫大於	-10.8102
李靖	-10.8103
卉	-10.8103
厄	-10.8103
爰	-10.8103
婢	-10.8103
霜雪	-10.8103
閎	-10.8103
蛟龍	-10.8104
淑	-10.8104
敝	-10.8104
茹	-10.8104
把	-10.8104
賁育	-10.8105
贛	-10.8105
貺	-10.8106
淹	-10.8106
不全	-10.8106
穽	-10.8106
黒	-10.8106
俛	-10.8106
奸	-10.8107
虹	-10.8107
所重	-10.8107
楹	-10.8107
醴	-10.8108
娱	-10.8108
謟	-10.8108
甄	-10.8109
瓜	-10.8109
涯	-10.8109
股肱	-10.8109
叔向	-10.811
確	-10.811
泛	-10.811
麋鹿	-10.811
棗	-10.811
得其所	-10.8111
闔閭	-10.8111
蜂	-10.8111
尼	-10.8111
項羽	-10.8111
鶉火	-10.8111
則萬物	-10.8112
桎梏	-10.8112
泥丸	-10.8112
粒	-10.8112
二百一十六	-10.8113
魚鼈	-10.8113
干戈	-10.8114
棟	-10.8114
戊己	-10.8114
輦	-10.8114
秋毫	-10.8115
抄	-10.8115
飢渴	-10.8116
七十二候	-10.8116
羈	-10.8117
拓	-10.8117
勒陽關	-10.8117
揖	-10.8117
駑	-10.8118
而莫	-10.8118
毫釐	-10.8118
現	-10.8118
妓	-10.8119
不意	-10.8119
此即	-10.812
雨露	-10.8121
千里之外	-10.8123
蘇秦	-10.8124
縱横	-10.8124
嘘	-10.8127
不能治	-10.8129
非正	-10.8129
導引	-10.8129
無餘	-10.813
舅犯	-10.813
一朝	-10.8131
夫豈	-10.8132
揖讓	-10.8132
此人	-10.8135
功名	-10.8135
哇	-10.8136
六十卦	-10.8141
刑戮	-10.8142
四鄰	-10.8143
清靜	-10.8144
吏民	-10.8144
卑賤	-10.8148
河伯	-10.8153
尋常	-10.8161
乃使	-10.8163
嵩山	-10.8167
小而	-10.8168
孟子曰	-10.8168
者猶	-10.8171
足而	-10.8171
江南	-10.8172
皆知	-10.8175
兩軍	-10.8176
者斷	-10.8184
明察	-10.8193
黄老	-10.8199
山澤	-10.8199
者數	-10.8203
順其	-10.8204
不以爲	-10.8206
百病	-10.8209
危國	-10.821
先王之道	-10.821
日為	-10.8212
禁也	-10.8214
我有	-10.8218
親之	-10.8218
千歳	-10.8236
無敢	-10.8236
御之	-10.8237
弗敢	-10.8237
爲亂	-10.8238
復得	-10.8241
則多	-10.8251
乎抱朴子答曰	-10.8259
而遠	-10.8261
四變	-10.8267
日冬至	-10.8272
雖無	-10.8273
使之然	-10.8273
以分	-10.8277
七政	-10.8284
不節	-10.8285
天尊	-10.8285
爲陽	-10.8289
部一家	-10.8289
文字	-10.8291
破之	-10.8291
小者	-10.8293
人之國	-10.8294
之敗	-10.8296
而朝	-10.8298
靈王	-10.8299
若能	-10.8301
不審	-10.8302
子亦	-10.8311
而發	-10.8314
惠子	-10.8314
此爲	-10.8314
危難	-10.8315
吾聞	-10.8324
患於	-10.8325
無度	-10.8326
先須	-10.8328
相合	-10.8329
所好	-10.8333
專任	-10.8333
易有	-10.8335
皆由	-10.8341
有益	-10.8342
事上	-10.8344
修行	-10.8344
失所	-10.8345
遣使	-10.8345
即位	-10.8347
若非	-10.8348
罰之	-10.8349
無功而	-10.8349
高陽	-10.8352
之主也	-10.8353
亦復	-10.8359
得見	-10.8359
之域	-10.8364
君上	-10.8365
三才	-10.8367
俄而	-10.8368
辱之	-10.837
高祖	-10.8373
出處	-10.8374
重於	-10.8375
齊國	-10.8375
耳若	-10.8376
高也	-10.8378
欣	-10.8381
人之善	-10.8383
所親	-10.8384
不假	-10.8388
一周	-10.8394
之中而	-10.8397
氣質	-10.8399
不可得而	-10.8401
大梁	-10.8402
其職	-10.8407
二陰	-10.8408
行義	-10.8411
上升	-10.8415
不設	-10.8421
必多	-10.8425
聞其	-10.8428
此數	-10.8437
吴子	-10.844
以玉	-10.8452
之財	-10.846
此心	-10.8464
地理	-10.8468
不强	-10.847
白也	-10.8474
今從	-10.8474
之所生也	-10.8474
無以自	-10.8481
五間	-10.8488
之法也	-10.8488
刑名	-10.8497
焚其	-10.8499
不給	-10.8501
巧詐	-10.8504
王孫	-10.8506
當夜	-10.8509
是鬼	-10.851
在中	-10.8512
陷於	-10.8515
生乎	-10.8516
讀如	-10.8517
之容	-10.852
易者	-10.8526
勝故	-10.8527
謀也	-10.8531
則進	-10.8533
用故	-10.8536
於天地	-10.8539
不傳	-10.8544
之事也	-10.8547
計者	-10.8547
欲治	-10.8555
行軍	-10.8556
但能	-10.8556
餌之	-10.8557
之難也	-10.8557
而亂	-10.8558
之歲	-10.8563
不精	-10.8567
守城	-10.8571
以合	-10.8572
者多矣	-10.8574
頭上	-10.8575
加之	-10.8578
不可見	-10.858
國人	-10.8583
獻之	-10.8585
萬乘之	-10.8585
禁之	-10.8587
哉昔	-10.859
乃自	-10.8591
王天下	-10.86
成就	-10.8601
不定	-10.8607
所施	-10.8608
各以	-10.8609
以安	-10.861
得賢	-10.8613
足矣	-10.8618
者勝	-10.8621
夫子之	-10.8626
專一	-10.8635
飲之	-10.8639
心中	-10.8643
無失	-10.8648
十餘年	-10.8652
下流	-10.8655
皆所以	-10.8655
不亡	-10.8656
其前	-10.8658
失其所	-10.8659
神聖	-10.866
不懼	-10.8666
使間	-10.8667
不法	-10.8668
可行	-10.867
矣光謂	-10.8675
何益	-10.8676
得志	-10.8677
圖之	-10.8677
正而	-10.8679
了不	-10.8682
其要	-10.8682
得位	-10.8685
作爲	-10.8685
疑也	-10.869
慚	-10.869
終不可	-10.869
欲使	-10.869
分兵	-10.8695
安有	-10.8702
邵	-10.8702
詹	-10.8704
堁	-10.8705
獨知	-10.8705
彦	-10.8707
烽	-10.8707
巿	-10.871
䕶	-10.8712
翮	-10.8712
餓死	-10.8714
涕	-10.8714
待其	-10.8715
埒	-10.8716
鷙	-10.8716
樞宻	-10.8716
獺	-10.8717
𤕠	-10.8717
司馬法曰	-10.8717
透	-10.8717
猿	-10.8718
駿	-10.8718
絡	-10.8719
粮	-10.872
故下文云	-10.872
而望	-10.872
酬	-10.872
悼	-10.872
擲	-10.8722
籥	-10.8722
黙	-10.8722
出門	-10.8723
榆	-10.8723
叱	-10.8723
右轉	-10.8724
仲父	-10.8725
泊	-10.8725
厠	-10.8726
彩	-10.8726
躓	-10.8726
偪	-10.8727
百一十	-10.8727
堤	-10.8727
勛	-10.8727
齋戒	-10.8727
焕	-10.8727
扃	-10.8728
一見	-10.8728
碑	-10.8728
蚑	-10.8728
嫉	-10.8729
囹圄	-10.8729
瓊	-10.8729
姿	-10.8729
點	-10.8729
琴瑟	-10.873
蔭	-10.873
増	-10.873
壬癸	-10.873
驟	-10.873
二百五十六	-10.8731
漉	-10.8731
恍惚	-10.8732
醴泉	-10.8732
庳	-10.8732
紅	-10.8732
吿	-10.8733
捶	-10.8733
褐	-10.8733
祼	-10.8734
蔑	-10.8734
踊	-10.8734
菌	-10.8734
袒	-10.8734
撥	-10.8734
恢	-10.8735
收歛	-10.8735
偽	-10.8736
匝	-10.8736
鵠	-10.8736
顓	-10.8736
諸葛	-10.8736
剪	-10.8737
則治	-10.8737
跖	-10.8738
汾	-10.8739
臧獲	-10.874
楚莊王	-10.874
江海	-10.874
軒轅	-10.874
覿	-10.874
惻隱	-10.8742
驂	-10.8742
鴟	-10.8742
羽翼	-10.8742
蠱	-10.8742
嵗	-10.8743
煉形	-10.8744
竪	-10.8744
勇怯	-10.8744
鎮星	-10.8745
法術之士	-10.8745
不憂	-10.8745
衣裳	-10.8745
之所生	-10.8745
被髮	-10.8748
荼	-10.8749
天下而	-10.8749
平地	-10.8749
以聽	-10.875
芥	-10.8751
飈	-10.8751
爪牙	-10.8752
方便	-10.8753
孰知其	-10.8755
順也	-10.8757
則利	-10.8758
嗟乎	-10.876
向背	-10.8761
論語曰	-10.8762
長幼	-10.8763
人之用	-10.8764
之柄	-10.8765
周公旦	-10.8765
榮華	-10.8766
長生之道	-10.8769
漸漸	-10.8769
於韓	-10.877
敢問	-10.8771
之府	-10.8773
矢石	-10.8774
張子曰	-10.8778
官職	-10.878
次序	-10.8781
於俗	-10.8781
之類是也	-10.8783
冬夏	-10.8783
糧食	-10.8784
我何	-10.8784
萬殊	-10.8785
善戰者	-10.8786
期年	-10.8788
窮則	-10.8789
其美	-10.8792
離朱	-10.8794
迎之	-10.8797
北面	-10.8798
也大抵	-10.8799
平陸	-10.8799
王莽	-10.8799
獻公	-10.8803
之惡	-10.8805
五兵	-10.8806
諸子	-10.8808
恩信	-10.8808
四季	-10.8811
之治天下也	-10.8813
之音	-10.8818
吾將	-10.8819
引之	-10.882
而可以	-10.8821
無所用	-10.8824
焉則	-10.8825
以火	-10.8825
即爲	-10.8826
出來	-10.8829
盛也	-10.8835
對曰臣	-10.8836
行私	-10.8837
季氏	-10.8837
命曰	-10.8846
三百日	-10.8847
為善	-10.8851
著書	-10.8854
有功者	-10.8856
悲夫	-10.8857
小人之	-10.8857
則君	-10.8859
理則	-10.886
静則	-10.8864
但知	-10.8865
患之	-10.8866
而萬物	-10.8868
斗杓	-10.8871
聲也	-10.8876
六尺	-10.8877
吾言	-10.8878
先以	-10.8879
人之性	-10.888
衆人之	-10.8885
神龜	-10.8886
亂則	-10.8901
以小	-10.8903
以少	-10.8904
亂政	-10.8905
所存	-10.8906
四十八	-10.8907
俗之	-10.8909
可食	-10.8914
善用	-10.8916
皆作	-10.8917
物無	-10.892
陳平	-10.8922
識其	-10.8922
書以	-10.8924
成子	-10.8924
下文	-10.8926
三皇	-10.8931
雖未	-10.8932
定位	-10.8932
十有二	-10.8936
今若	-10.8938
中宫	-10.8945
天地之心	-10.8949
學問	-10.8949
一句	-10.8952
勢位	-10.8957
西施	-10.8958
荆王	-10.8958
其材	-10.8963
也范本作	-10.8963
知天	-10.8966
立於	-10.8967
者不可勝數	-10.8968
賞賜	-10.8969
便謂	-10.8971
之甚	-10.8971
人主不	-10.8975
旣至	-10.8977
篇中	-10.8983
貌也	-10.8985
人倫	-10.8987
非指	-10.8987
則衆	-10.8989
攻取	-10.899
上之所	-10.8992
貪利	-10.8994
馬也	-10.8999
莫之能	-10.8999
下至	-10.9002
當先	-10.9003
釋之	-10.9012
使敵人	-10.9012
爲用	-10.9017
氣有	-10.9023
不經	-10.9024
爲不善	-10.9026
其能	-10.9028
不可攻	-10.903
生子	-10.9033
一會	-10.9036
不在於	-10.9038
明王	-10.904
用數	-10.9045
遂至	-10.9061
不泄	-10.9067
交相	-10.9069
子路	-10.907
不同而	-10.9074
地以	-10.9078
爲二	-10.9086
引而	-10.9086
不誅	-10.9088
變爲	-10.9098
不時	-10.9098
也杜牧曰	-10.9106
之宗	-10.9109
為將	-10.9112
必見	-10.9115
耳而	-10.9117
中外	-10.912
不分	-10.912
既以	-10.9123
道德之	-10.9125
正長	-10.913
人之心	-10.9134
無令	-10.9135
言談	-10.9145
財用	-10.9145
況乎	-10.9146
三辰	-10.9149
相從	-10.9149
施於	-10.9151
今世之	-10.9151
之數而	-10.9152
不輟	-10.9155
民皆	-10.9156
無人	-10.9168
爲變	-10.9169
己而	-10.9177
刺之	-10.9177
而笑	-10.9186
不犯	-10.9191
荆人	-10.9199
皆謂	-10.92
楚之	-10.9201
皆為	-10.9202
以力	-10.9209
邪正	-10.9213
輕敵	-10.9214
九年	-10.9217
末世	-10.9223
之利也	-10.9227
子之言	-10.923
陽故	-10.9232
示之以	-10.9241
韓非	-10.9244
有箇	-10.9244
未形	-10.9244
八八	-10.9253
同歸	-10.9255
之貌也	-10.9258
赤道	-10.926
有此	-10.9267
而賤	-10.9271
楚師	-10.9284
示之	-10.9287
南至	-10.9292
更生	-10.9294
數萬	-10.9295
又况	-10.9297
一千	-10.9297
後生	-10.9298
不争	-10.9299
冥冥	-10.9304
辰星	-10.931
疆	-10.9314
天下之大	-10.9314
以遠	-10.9314
以實	-10.9316
適足以	-10.9318
兵家	-10.9319
歎曰	-10.932
我以	-10.9321
乃命	-10.9323
衆人之所	-10.9325
其才	-10.9327
求諸	-10.9336
無定	-10.9336
達於	-10.9338
一尺	-10.9339
又爲	-10.9343
欲攻	-10.9344
不踰	-10.9352
能盡	-10.9353
無差	-10.9354
其計	-10.9355
以至於	-10.9358
而不言	-10.9359
力不足	-10.9359
物咸	-10.9361
蹊	-10.9365
恪	-10.9368
旄	-10.9369
昬	-10.9369
爲賢	-10.9369
公家	-10.9371
所聞	-10.9374
吳	-10.9375
碩	-10.9376
樵	-10.9377
見人	-10.9378
老聃	-10.9378
殯	-10.9379
壑	-10.9379
儼	-10.938
鍛	-10.938
韶	-10.9382
溟	-10.9383
刻鏤	-10.9383
洩	-10.9383
喑	-10.9384
幅	-10.9384
褊	-10.9384
殉	-10.9385
澆	-10.9385
礥	-10.9385
雲梯	-10.9386
伉	-10.9386
轍	-10.9386
書之	-10.9386
鉅	-10.9387
癡	-10.9388
蟠	-10.9388
算	-10.9389
榛	-10.9389
上士	-10.9389
囿	-10.9389
清淨	-10.939
暉	-10.939
自上而下	-10.9391
蟹	-10.9391
暝	-10.9391
宙	-10.9391
鹹	-10.9392
控	-10.9392
犧牲	-10.9392
其樹	-10.9392
贄	-10.9393
勑	-10.9393
太尉祭酒臣許愼記上	-10.9393
脊	-10.9393
霞	-10.9393
併	-10.9393
八百	-10.9393
矰	-10.9393
之民也	-10.9394
胸	-10.9394
嫗	-10.9394
缾	-10.9394
餓鬼	-10.9395
珥	-10.9395
矧	-10.9395
無赦	-10.9395
蠅	-10.9396
企	-10.9397
昩	-10.9397
伊川	-10.9397
態	-10.9398
挹	-10.9398
螘	-10.9398
筴	-10.9398
優劣	-10.9398
耿	-10.9399
賦歛	-10.9399
狐狸	-10.9399
慙	-10.9399
凑	-10.9399
口訣	-10.94
猛獸	-10.94
虺	-10.94
番	-10.94
澒	-10.94
袖	-10.94
蚊	-10.9401
瑩	-10.9401
壼	-10.9401
鮑叔	-10.9401
戸	-10.9401
需	-10.9402
飄	-10.9403
挂	-10.9403
很	-10.9403
逹	-10.9403
瞢	-10.9403
蜜	-10.9404
潘	-10.9404
僥	-10.9405
翦	-10.9406
冲	-10.9406
人多	-10.9407
謳	-10.9407
採藥	-10.9408
稼穡	-10.9408
架	-10.9408
屨	-10.9408
孔墨	-10.9408
元凱	-10.9409
傳曰按	-10.941
盗賊	-10.941
四海之内	-10.941
翅	-10.9411
冀州	-10.9411
太廟	-10.9411
摽	-10.9412
虬	-10.9413
天地之氣	-10.9413
戢	-10.9416
褻	-10.9417
劉向	-10.9417
取人	-10.9417
無極而太極	-10.9419
不測之	-10.942
黄泉	-10.942
御史	-10.9421
仲春	-10.9421
張氏曰	-10.9422
龍蛇	-10.9423
小兒	-10.9424
秋冬	-10.9428
彊弱	-10.9429
天左旋	-10.943
殺戮	-10.943
不滿	-10.9431
忠孝	-10.9435
李斯	-10.9435
然如	-10.9436
張儀	-10.9439
四正卦	-10.9439
畜積	-10.9442
始得	-10.9444
子雲	-10.9445
隂司	-10.9447
傅說	-10.9448
太歲	-10.9448
乎當知	-10.9452
易牙	-10.9455
之恩	-10.9457
無疆	-10.9459
異於	-10.946
以奇	-10.9462
之會	-10.9462
不久	-10.9468
武侯	-10.947
時日	-10.9471
已死	-10.9475
十二律	-10.9477
竭力	-10.9482
道故	-10.9486
誅罰	-10.9491
度之	-10.9491
尊位	-10.9494
而喜	-10.9494
人欲	-10.9495
說其	-10.9496
辰在	-10.9496
大驚	-10.9498
安也	-10.9502
良久	-10.9504
七八	-10.9505
相繼	-10.9507
林木	-10.9511
爲水	-10.9514
水土	-10.9514
以高	-10.9515
子房	-10.9516
難而	-10.9516
不異	-10.9517
伯樂	-10.952
其目	-10.952
流俗	-10.9522
以水	-10.9522
塞之	-10.9522
然後有	-10.9523
周室	-10.9525
六卦	-10.9526
未濟	-10.9528
也雖然	-10.9528
木爲	-10.9528
為土	-10.9529
而滅	-10.9529
無患	-10.9529
龍門	-10.9532
冬日	-10.9535
李氏	-10.9539
臨敵	-10.9541
者唯	-10.9547
而應之	-10.9548
晋文	-10.955
四夷	-10.9552
庶子	-10.9556
王公	-10.9557
爲下	-10.9571
其兄	-10.9573
興兵	-10.9575
行事	-10.9575
愛民	-10.9575
讀曰	-10.9576
舉也	-10.9579
撓之	-10.9579
約而	-10.9582
不敢不	-10.9583
治身	-10.9584
爲子	-10.9584
險易	-10.9586
苟得	-10.9598
由此	-10.9604
不舉	-10.9608
先見	-10.9608
父毋	-10.9613
之流	-10.9614
大將軍	-10.9618
西山	-10.962
利用	-10.9622
為九	-10.9622
問其故	-10.9623
又按	-10.9623
而弗能	-10.9623
於人也	-10.9623
玉石	-10.9625
不盈	-10.9626
争之	-10.9629
也至於	-10.9631
民間	-10.9636
有似	-10.964
虚空	-10.9641
老氏	-10.9647
志曰	-10.9647
其音	-10.9648
而食之	-10.9648
五才	-10.9651
極星	-10.9653
理者	-10.9654
應時	-10.9655
來則	-10.9655
死無	-10.9656
伐木	-10.9656
要害	-10.9657
危也	-10.966
必當	-10.966
十八日	-10.9662
上天	-10.9666
萬物皆	-10.9669
責其	-10.9674
足用	-10.9678
以禮	-10.9681
事事	-10.9682
而致	-10.9689
公私	-10.9694
積石	-10.9694
至道	-10.9698
積德	-10.9698
眞君	-10.97
以臨	-10.97
持之	-10.97
我欲	-10.9702
名位	-10.9705
晦日	-10.9705
神明之	-10.9707
見矣	-10.9707
乎抱朴子曰	-10.9719
東流	-10.9721
受敵	-10.9721
長子	-10.9727
貴人	-10.9728
三元	-10.9729
而勸	-10.9731
稱之	-10.9731
不嚴	-10.9732
生地	-10.9734
可得而知	-10.9734
嘆曰	-10.9739
五年	-10.9739
是可	-10.9739
形體	-10.9741
怒則	-10.9742
其旁	-10.9746
其末	-10.9747
大風	-10.9748
或謂	-10.975
何其	-10.9751
懷其	-10.9752
人之所以	-10.9754
物者也	-10.9756
元陽	-10.9758
一時之	-10.9763
下愚	-10.9768
離也	-10.9769
不病	-10.977
静也	-10.977
可欲	-10.977
心無	-10.977
十二時	-10.9772
故知	-10.9777
大數	-10.9777
反復	-10.9785
無二	-10.979
於市	-10.9795
民多	-10.9797
彼必	-10.9797
矣然而	-10.9798
桀紂之	-10.9806
隂也	-10.9807
然皆	-10.9808
得道者	-10.9811
中來	-10.9815
開物	-10.9822
以理	-10.9826
起火	-10.9831
虚名	-10.9838
道行	-10.9842
率衆	-10.9843
仁也	-10.9847
雲氣	-10.985
門人	-10.9852
之所及	-10.9854
一爲思始而當夜	-10.9854
乎對曰	-10.9855
勢重	-10.9864
存之	-10.9865
有何	-10.9865
其象	-10.9865
大賢	-10.9868
者亡	-10.9873
不能知	-10.9874
曰昔	-10.9877
天數	-10.9879
五官	-10.9886
而不止	-10.9891
太行	-10.9891
日暮	-10.9899
處官	-10.9903
鄙人	-10.9908
異類	-10.9909
弱也	-10.9916
變為	-10.9917
郄	-10.9921
驗之	-10.9928
列子	-10.993
而不見	-10.9931
義則	-10.9932
常存	-10.994
其半	-10.9941
仙藥	-10.9944
其腹	-10.9947
之說乎	-10.9947
皆言	-10.995
夷則	-10.9951
此又	-10.9952
取也	-10.9953
更相	-10.9954
富人	-10.9955
埋之	-10.9955
聽治	-10.9957
非我	-10.9957
餘分	-10.9962
不能盡	-10.9968
其善	-10.9982
各一	-10.9986
方來	-10.9989
矣且	-10.9995
何獨	-10.9995
知識	-10.9996
自言	-11
適其	-11.0003
惟其	-11.0005
聞也	-11.0008
異人	-11.0009
之始也	-11.0013
輕地	-11.0014
辭也	-11.0014
救火	-11.0014
無實	-11.0015
示人	-11.0019
多則	-11.0021
肖	-11.0022
遠乎	-11.0026
恐有	-11.0028
吾所以	-11.0032
其患	-11.0034
三代之	-11.0036
於庭	-11.0037
居高	-11.0038
二十六	-11.0047
兵勢	-11.0054
於諸侯	-11.0057
世俗	-11.0058
一二三四	-11.0059
問之曰	-11.0062
一半	-11.0063
象天	-11.0063
登高	-11.0064
家有	-11.0068
政之	-11.007
以避	-11.0072
天下之所	-11.0073
乃見	-11.0075
化之	-11.0078
一爻	-11.0079
之臣也	-11.0084
閼	-11.0084
檻	-11.0085
宫中	-11.0085
覆之	-11.0086
沫	-11.0089
往者	-11.0089
慎之	-11.0089
以奉	-11.0089
座	-11.009
榖	-11.0093
解曰	-11.0093
天下皆	-11.0094
喬	-11.0094
啗	-11.0095
粟米	-11.0095
宜也	-11.0096
瓠	-11.0096
孜	-11.0096
絹	-11.0096
耎	-11.0097
燼	-11.0097
浹	-11.0097
之積	-11.0098
𠮷	-11.0099
齧	-11.0099
豺	-11.0099
攝提	-11.01
弇	-11.01
度也	-11.01
吟	-11.0101
廐	-11.0101
三部	-11.0101
蹙	-11.0102
漢末	-11.0102
諷	-11.0102
杼	-11.0102
忿爭	-11.0103
懇	-11.0103
猪	-11.0103
憫	-11.0103
蹏	-11.0103
燈	-11.0104
妹	-11.0105
突厥	-11.0105
奈	-11.0105
夏后氏	-11.0106
踴	-11.0106
沐浴	-11.0106
幻	-11.0107
蠃	-11.0107
銘	-11.0107
㝠㝠	-11.0108
杭	-11.0108
迦	-11.0109
珪	-11.0109
虱	-11.0109
曳	-11.011
巽離兌	-11.011
祚	-11.011
三爲成意	-11.011
罟	-11.011
庚申	-11.011
璜	-11.011
苓	-11.011
郯	-11.011
穰	-11.011
謌	-11.0111
愎	-11.0111
謫	-11.0111
壻	-11.0111
徼	-11.0111
殁	-11.0111
巍巍	-11.0112
凖	-11.0112
塵埃	-11.0112
辤	-11.0113
療	-11.0113
雕琢	-11.0113
紈	-11.0113
莫大焉	-11.0113
隴	-11.0114
縫	-11.0114
梅	-11.0114
復姤	-11.0114
亨	-11.0114
梗	-11.0114
搜	-11.0115
濮	-11.0115
大事	-11.0115
今天下之士君子	-11.0115
彫	-11.0115
媒	-11.0115
扈	-11.0116
臯陶	-11.0116
郞	-11.0117
川谷	-11.0117
伊吕	-11.0117
墟	-11.0117
咸池	-11.0117
於王	-11.0118
挽	-11.0118
豫章	-11.0118
或問曰	-11.0118
薛公	-11.0118
眄	-11.0118
雷電	-11.0119
之助	-11.0119
躋	-11.0119
檀	-11.0119
芻豢	-11.0119
偕	-11.012
溶	-11.012
馳騁	-11.012
知之故	-11.0121
怛	-11.0121
神二人	-11.0121
邃	-11.0122
紂之	-11.0122
日月五星	-11.0122
劾	-11.0122
公孫龍	-11.0123
其卦為	-11.0123
膠漆	-11.0123
迂直	-11.0123
臧否	-11.0124
兩用	-11.0124
不可勝計	-11.0126
猜	-11.0128
七八九六	-11.0128
項王	-11.0129
粲	-11.0129
迷惑	-11.013
而問之	-11.0131
部曲	-11.0131
鼃	-11.0132
歐陽	-11.0132
不能禁	-11.0133
為敵所	-11.0133
涅	-11.0133
虧盈	-11.0133
勤苦	-11.0134
咎犯	-11.0136
金銀	-11.0136
曄	-11.0136
五嶽	-11.0136
四隅	-11.0137
良醫	-11.0138
美者	-11.0138
晏子曰	-11.014
教導	-11.0141
儀表	-11.0141
五城	-11.0143
成鳩	-11.0143
革車	-11.0144
不為	-11.0145
莫測	-11.0145
一舉而	-11.0146
關梁	-11.0147
六藝	-11.0148
柔弱	-11.0148
既有	-11.015
不足以爲	-11.0151
征伐	-11.0152
轉運	-11.0152
玄天	-11.0156
孫武	-11.0156
無憂	-11.0156
委曲	-11.0157
罔極	-11.0158
第六	-11.0159
以此觀之	-11.0159
賞也	-11.0162
爲主	-11.0163
太半	-11.0164
水旱	-11.0164
於海	-11.0164
亂者	-11.0165
逆順	-11.0166
申子	-11.0167
不因	-11.0169
形骸	-11.0169
十干	-11.0169
渾沌	-11.0171
飾也	-11.0172
最爲	-11.0172
六丁	-11.0177
亦明矣	-11.0178
也詩云	-11.0179
朱子謂	-11.0182
兩手	-11.0184
九鼎	-11.0185
立法	-11.0186
此事	-11.0187
未嘗有	-11.0189
伐吴	-11.0192
往往	-11.02
固已	-11.0204
千乘	-11.0205
以刑	-11.0208
光武	-11.0215
而不窮	-11.0218
不可測	-11.0219
居上	-11.0222
一陽生	-11.0223
故次	-11.0224
大國之	-11.0227
晋師	-11.0227
諫者	-11.0227
爲我	-11.0228
以供	-11.0232
渝	-11.0232
而終於	-11.0232
不常	-11.0235
雖大	-11.024
不化	-11.0241
不固	-11.0247
常念	-11.0247
授以	-11.0251
諸夏	-11.0252
使天下	-11.0252
造物	-11.0253
同志	-11.0254
環中	-11.0255
坎卦	-11.0256
此輩	-11.0257
政令	-11.0257
壽星	-11.0258
乎大抵	-11.0264
鶉首	-11.0265
言行	-11.0266
欲知	-11.0272
定矣	-11.0276
語之	-11.0279
射者	-11.028
之過也	-11.028
教化	-11.0282
是可爲乎	-11.0284
軍吏	-11.0285
奪也	-11.0286
河内	-11.0289
星主	-11.0289
無慮	-11.0292
名號	-11.0299
十數	-11.0306
流通	-11.0306
萬八千	-11.0308
善否	-11.0308
和之	-11.0308
陳兵	-11.0312
四分	-11.0314
名譽	-11.0316
無厭	-11.0323
又曰天	-11.0324
隱居	-11.0324
夫物	-11.0325
富貴者	-11.0327
不滅	-11.0328
常法	-11.0329
荆山	-11.0329
〇杜牧曰言	-11.033
殺傷	-11.0333
天之所	-11.0334
固其	-11.0335
治人	-11.0335
舉動	-11.0336
中旦	-11.0342
感動	-11.0343
之病	-11.0347
生魄	-11.0348
後至	-11.0349
故名	-11.035
審矣	-11.0351
愈於	-11.0356
會于	-11.0357
願聞	-11.036
賢能	-11.036
討之	-11.0363
益之	-11.037
也孔子曰	-11.0375
則吾	-11.038
則易	-11.0388
皇天	-11.0391
臣主	-11.0392
乃令	-11.0397
有時而	-11.0398
致之	-11.0399
成湯	-11.0399
魏將	-11.0399
者人之	-11.04
上下同	-11.04
國亂	-11.0401
禍害	-11.0401
之行也	-11.0402
爲之長	-11.0406
愛子	-11.0408
而少	-11.041
人性	-11.0411
與彼	-11.0412
進士	-11.0414
其中有	-11.0415
取諸	-11.0416
漢武	-11.0423
爲金	-11.0426
直言	-11.0428
之宿	-11.0428
近也	-11.0428
同道	-11.0431
良將	-11.0437
宋人	-11.0437
以當	-11.0438
當塗	-11.0439
養生之	-11.0446
夏日	-11.0446
以全	-11.0454
其鋒	-11.0455
化為	-11.0466
而不明	-11.0473
遊於	-11.0482
或爲	-11.0483
所殺	-11.0487
人之情	-11.0488
五曰	-11.0491
胡不	-11.0495
萬國	-11.0496
二升	-11.0497
無親	-11.0498
正色	-11.0498
而弱	-11.0502
不可謂無	-11.0502
非此	-11.0506
百姓之	-11.0507
凡物	-11.0516
大聖	-11.0518
黄精	-11.0518
之别	-11.0522
無端	-11.0523
勝己	-11.0529
多者	-11.0534
二宋陸	-11.0536
何有	-11.0538
主君之	-11.0538
其命	-11.0543
攷	-11.0547
由於	-11.0547
即此	-11.0552
無咎	-11.0552
齊荆	-11.056
腹心	-11.0562
未見其	-11.0564
然且	-11.0573
善事	-11.0574
者莫不	-11.0575
志於	-11.0577
所養	-11.0577
行仁義	-11.0578
大火	-11.0579
聖者	-11.0586
修道	-11.0588
大運	-11.0593
若欲	-11.0601
車之	-11.0604
百年	-11.0609
傷其	-11.0609
亦如此	-11.0611
二十三	-11.0613
也陽氣	-11.0614
凡人之	-11.0619
此等	-11.0622
寡而	-11.063
彼則	-11.0634
河水	-11.0636
今子	-11.0641
同氣	-11.0643
掩其	-11.0645
一曰天	-11.0645
以智	-11.0647
防其	-11.0651
氣候	-11.0651
厚者	-11.0657
山東	-11.066
過人	-11.066
過則	-11.0662
斗柄	-11.0663
禹之	-11.0663
吉凶之	-11.0666
戰必	-11.0672
大節	-11.0675
陰數	-11.0677
實而	-11.0677
不能與	-11.0677
因時	-11.0681
小則	-11.0682
有光	-11.0686
五百歲	-11.0689
焉夫	-11.0692
與神	-11.0692
雖至	-11.0698
楚子	-11.0704
者不爲	-11.0704
火火	-11.0704
自非	-11.0704
亦如之	-11.0707
行氣	-11.0707
利害之	-11.0707
處高	-11.0713
之所加	-11.0713
其國家	-11.0717
生金	-11.0719
之異	-11.0729
老矣	-11.0729
持久	-11.0729
盛則	-11.0731
離卦	-11.0733
從地	-11.0734
遂成	-11.0738
所以為	-11.074
一門	-11.0743
又能	-11.0745
以存	-11.0745
十二陰	-11.0752
如此者	-11.0752
二十二	-11.0753
正赤	-11.0757
好生	-11.0763
亦隨	-11.0763
草木之	-11.0763
東海	-11.0764
賢也	-11.0764
重地	-11.077
斯言	-11.0771
火攻	-11.0771
以至于	-11.0775
三危	-11.0779
不可不察	-11.0783
利器	-11.0791
其在	-11.0793
暴人	-11.0799
不怠	-11.0801
二十一	-11.0802
以金	-11.0806
夫聖人	-11.0814
而聽之	-11.0814
一心	-11.0816
其處	-11.082
必戰	-11.0828
矣吾	-11.0838
黄石公	-11.0838
所歸	-11.0841
無邪	-11.0845
牟	-11.0846
各守	-11.0848
不善者	-11.0848
未可以	-11.0848
月中	-11.0854
閶闔	-11.0854
聲音	-11.0855
窾	-11.0855
䦯	-11.0856
其質	-11.0857
齡	-11.0857
之質	-11.0859
藥物	-11.0859
昨	-11.0861
者也所謂	-11.0861
揲	-11.0862
纂	-11.0863
涓	-11.0863
傴	-11.0865
今從二宋陸本	-11.0865
捍	-11.0866
挐	-11.0866
榜	-11.0866
聯	-11.0867
翺翔	-11.0867
换	-11.0867
蹉	-11.0868
額	-11.0868
集註太玄經卷之	-11.0868
羡	-11.0869
迪	-11.0869
寖	-11.0869
樽	-11.0869
武王伐紂	-11.0869
禆	-11.087
蒼頡	-11.087
姜	-11.087
竟不	-11.087
誇	-11.087
餅	-11.0871
囂	-11.0872
鶩	-11.0872
阪	-11.0872
元會運世	-11.0873
頰	-11.0873
則姦	-11.0873
協	-11.0874
樊	-11.0874
漕	-11.0874
朞	-11.0874
夸	-11.0874
今從諸家王曰	-11.0875
窘	-11.0875
十二支	-11.0875
脆	-11.0875
評	-11.0875
晋平公	-11.0875
瞑	-11.0875
自下而上	-11.0876
公輸盤	-11.0876
滓	-11.0877
躔	-11.0877
六過中而當夜	-11.0877
雌雄	-11.0877
昵	-11.0877
庇	-11.0877
核	-11.0877
紀綱	-11.0878
貍	-11.0878
恬愉	-11.0878
油	-11.0878
降婁	-11.0878
恱	-11.0878
殻	-11.0878
攪	-11.0878
脣	-11.0878
洋	-11.0879
一丈	-11.0879
春夏秋冬	-11.0879
逞	-11.088
玄枵	-11.088
舅姑	-11.088
准	-11.0881
昆蟲	-11.0881
橈	-11.0881
綏	-11.0881
譁	-11.0882
舟楫	-11.0882
蚓	-11.0882
逵	-11.0882
毗	-11.0882
殞	-11.0882
葱	-11.0882
猶不能	-11.0882
六七八九	-11.0882
遞	-11.0883
邁	-11.0883
殄	-11.0883
韻	-11.0883
𥘉	-11.0883
角亢	-11.0883
埴	-11.0883
忘其	-11.0884
卿大夫	-11.0884
婿	-11.0884
乾坤坎離	-11.0884
椽	-11.0884
賑	-11.0885
二百五十二	-11.0885
傳曰太上	-11.0885
濱	-11.0885
卜筮	-11.0885
䰟	-11.0885
剌	-11.0886
竿	-11.0886
別	-11.0886
俸	-11.0886
驛	-11.0886
侔	-11.0886
沼	-11.0886
紛紜	-11.0886
鬼魅	-11.0886
混沌	-11.0886
淚	-11.0886
添	-11.0886
臍中	-11.0887
岡	-11.0887
一刀圭	-11.0888
嘲	-11.0888
公孫鞅	-11.0888
蹲	-11.0888
六日七分	-11.0888
是不	-11.0888
口舌	-11.0888
廣狹	-11.0889
趙奢	-11.0889
則氣	-11.089
縞	-11.089
錘	-11.089
箴	-11.089
雖衆	-11.089
太尉	-11.089
巵	-11.089
扞	-11.089
蠢	-11.0891
概	-11.0891
綺	-11.0892
太宰	-11.0892
崑	-11.0892
由是觀之	-11.0893
嘗試	-11.0893
賓客	-11.0893
者必以	-11.0894
畋	-11.0895
求長生	-11.0895
日之光	-11.0896
惜其不知	-11.0897
營壘	-11.0897
丘園	-11.0897
侣	-11.0898
鞅	-11.0898
東壁	-11.0899
流沙	-11.09
秦穆公	-11.09
與我戰	-11.09
菟	-11.0902
瞿	-11.0902
鳥之	-11.0902
中丞	-11.0903
五緯	-11.0904
漣	-11.0904
加以	-11.0904
黷	-11.0904
毛羽	-11.0907
否泰	-11.0909
希夷	-11.091
兩箇	-11.091
車裂	-11.0911
祝之	-11.0911
勤勞	-11.0912
平旦	-11.0913
七十二日	-11.0914
㣲	-11.0915
雲夢	-11.0915
慎勿	-11.0915
莊公	-11.0916
也〇杜牧曰言	-11.0916
用之則	-11.0917
危殆	-11.0918
司徒	-11.0919
攖	-11.092
鄕長	-11.092
關市	-11.092
知覺	-11.0921
菩薩	-11.0921
銳卒	-11.0921
太素	-11.0923
爲父	-11.0925
中牟	-11.0925
智慧	-11.0925
方寸	-11.0926
流遁	-11.0926
執一	-11.093
居中央	-11.0931
地道	-11.0937
口鼻	-11.0937
爲國	-11.0938
青衣	-11.0939
因縁	-11.0939
白露	-11.0941
幽隱	-11.0941
厲測曰	-11.0942
地名	-11.0944
卑辭	-11.0945
眞武	-11.0946
孔氏	-11.0946
雲雨	-11.0946
四寸	-11.0947
傷人	-11.0948
百工	-11.0951
則其義也	-11.0951
擊鼓	-11.0951
哀樂	-11.0955
絶穀	-11.0955
則士	-11.0956
論語	-11.0956
序卦	-11.096
昭公	-11.0962
矣昔	-11.0962
追之	-11.0964
其類在	-11.0971
然後知	-11.0972
每月	-11.0977
無是非	-11.098
暴卒	-11.098
利則	-11.0981
樂羊	-11.0983
得此	-11.0988
心於	-11.0992
北宫子	-11.0998
可為	-11.0998
四卦	-11.0998
修德	-11.1004
為變	-11.1005
受賞	-11.1007
范王本	-11.1014
出軍	-11.1015
六十日	-11.1016
和調	-11.1017
吾恐	-11.102
之具也	-11.1022
不得入	-11.1022
求福	-11.1023
郄子	-11.1024
命有司	-11.1024
夷吾	-11.1029
而趨	-11.1029
聽從	-11.103
三十年	-11.1031
鍊形	-11.1032
試之	-11.1034
五經	-11.1036
見疑	-11.1037
丹法	-11.1039
究其	-11.1043
周人	-11.1049
一字	-11.1052
則須	-11.1056
猶可	-11.1058
中庸	-11.1059
静而	-11.1062
輕車	-11.1063
承之	-11.1065
治矣	-11.1071
賞有功	-11.1073
不撓	-11.1075
半日	-11.1075
德者	-11.1077
或在	-11.1078
好色	-11.108
為陳	-11.1081
滅亡	-11.1085
無數	-11.1086
堯夫	-11.109
苟或	-11.1091
得之以	-11.1096
七分	-11.1101
物皆	-11.1102
不至於	-11.1108
無爲而	-11.111
無益也	-11.1115
内有	-11.1116
五代	-11.1118
於斯	-11.1122
之言曰	-11.1128
人莫之	-11.1131
非謂	-11.1135
齊晋	-11.1136
藏也	-11.1142
乎子墨子曰	-11.1143
分財	-11.1146
靈公	-11.1147
黨與	-11.1148
予之	-11.1149
何者	-11.1151
威德	-11.1157
言敵人	-11.1163
謀攻	-11.1166
獨有	-11.1174
左右曰	-11.1174
獨行	-11.1175
耳聽	-11.1175
少者	-11.1176
丹書	-11.1177
主父	-11.1177
政也	-11.1178
不悟	-11.1189
不極	-11.1193
金鼓	-11.1194
若水	-11.1196
二萬	-11.1203
雷同	-11.1203
在中央	-11.1204
率多	-11.121
能成	-11.1219
以歸	-11.1223
於晋	-11.1241
不散	-11.1244
而遇	-11.1248
觀之則	-11.1248
無君	-11.1249
之分野	-11.125
親近	-11.1252
說也	-11.1255
萬餘	-11.1258
二七	-11.1265
知道者	-11.1267
去矣	-11.1274
古之人	-11.1276
而不知其	-11.1277
可得乎	-11.1279
在朝	-11.1281
火也	-11.1285
不好	-11.1285
八爲禍中	-11.1285
五十五	-11.1286
非法	-11.1288
任重	-11.1294
體數	-11.1298
心志	-11.1298
不偏	-11.1299
尚猶	-11.13
生意	-11.1302
心神	-11.1303
死傷	-11.1303
者也次二	-11.1304
注云	-11.1306
不相離	-11.1309
之者衆	-11.131
交合	-11.1311
難矣	-11.1314
國亡	-11.1316
子書	-11.1316
皆同	-11.1317
君道	-11.1319
平易	-11.1319
爲車	-11.1319
相望	-11.1322
也夫以	-11.1324
邪氣	-11.1325
四六	-11.1326
美名	-11.1328
遣將	-11.1328
莫不皆	-11.1331
五變	-11.1334
五伯	-11.1338
所受	-11.1342
二部	-11.1344
煑	-11.1346
未有不	-11.1351
在彼	-11.1352
出焉	-11.1355
者又	-11.1355
刑法	-11.1357
明道	-11.1358
已具	-11.1359
天運	-11.1364
君子之道	-11.1369
以助	-11.137
張子	-11.1372
不赦	-11.1374
常道	-11.1382
衰世	-11.1387
噲	-11.1388
爲人臣	-11.1388
有力者	-11.1389
諸君	-11.139
而敗	-11.1399
也不聞	-11.14
見得	-11.1401
四體	-11.1402
術數	-11.1407
九丹	-11.1409
月有	-11.1409
圓者	-11.1412
禍亂	-11.1423
發兵	-11.1426
主於	-11.143
臣下	-11.1431
成矣	-11.1434
秦將	-11.1436
非牛	-11.1436
助之	-11.1437
固不可	-11.1439
殷人	-11.144
始皇	-11.144
皆合	-11.1446
爲貴	-11.1447
擒也	-11.1451
用間	-11.1458
而任之	-11.1459
曰臣聞	-11.1459
奚足	-11.146
者可以	-11.1461
至於此	-11.1462
者斬	-11.1465
心術	-11.1465
天下有	-11.1465
其欲	-11.1468
家貧	-11.147
也唯	-11.1475
告人	-11.1476
失禮	-11.1479
果有	-11.1481
于淵	-11.1481
智勇	-11.1482
五利	-11.1487
聖人之治	-11.1488
賜之	-11.1492
乎是以	-11.1497
出兵	-11.1498
已見	-11.1499
八十一首	-11.15
處家	-11.1502
乾之	-11.1508
生火	-11.1509
六年	-11.1516
分野	-11.1517
赤氣	-11.152
惑於	-11.1523
第五十	-11.1525
謂爲	-11.1526
臣請	-11.1526
因命	-11.1528
急也	-11.1529
立爲	-11.1529
而不改	-11.1531
夜行	-11.1532
欲人之	-11.1533
同類	-11.1534
則羣臣	-11.1548
其所以爲	-11.1548
守法	-11.1551
兵革	-11.1552
可見也	-11.1553
上智	-11.1555
不是	-11.1556
有積	-11.1557
相近	-11.1557
各以其	-11.1559
而說之	-11.1562
蒼龍	-11.1563
殺身	-11.1567
之心而	-11.1575
不疾	-11.1576
公曰寡人	-11.1579
必有所	-11.1591
伯陽	-11.1595
周文	-11.1604
物類	-11.1607
宿則	-11.1609
進德	-11.1612
山神	-11.1615
秦人	-11.1618
伐鄭	-11.162
委之	-11.162
二國	-11.1623
色白	-11.1624
平心	-11.1627
俱有	-11.1629
金木	-11.1629
爲難	-11.164
受氣	-11.1641
得五	-11.1641
形容	-11.1642
變通	-11.1643
多所	-11.1648
棄其	-11.165
也以其	-11.1651
兵衆	-11.1652
疫	-11.1659
以饗	-11.166
紘	-11.167
於是乃	-11.1671
而不行	-11.1672
莫得	-11.1678
今王公大人	-11.1679
天圓	-11.168
塚	-11.168
必固	-11.168
者萬物	-11.1682
誠可	-11.1684
於越	-11.1684
疋	-11.1685
但當	-11.1686
月與之晨出東方	-11.1687
爲對太隂在	-11.1688
冬則	-11.1688
魅	-11.1691
縵	-11.1691
鬚	-11.1691
惶	-11.1692
𨱆	-11.1693
吮	-11.1693
竽	-11.1694
一里	-11.1695
犧	-11.1695
湘	-11.1695
笄	-11.1695
鄴	-11.1697
笞	-11.1697
天一生水	-11.1698
勾	-11.1698
茵	-11.1699
鯀	-11.17
峙	-11.17
陽陽	-11.17
壟	-11.1701
歲星舍	-11.1701
穫	-11.1701
帑	-11.1701
愴	-11.1701
五十有五	-11.1701
稽留	-11.1702
郤	-11.1702
盂	-11.1702
螾	-11.1702
諄諄	-11.1703
錣	-11.1703
蝯	-11.1703
玄光玉女	-11.1704
秤	-11.1705
八紘	-11.1706
詎	-11.1706
淖	-11.1706
繇	-11.1706
廟堂之上	-11.1706
焚香	-11.1707
昻	-11.1707
衽	-11.1707
驍	-11.1707
彭蠡	-11.1707
紆	-11.1707
晉	-11.1707
田成子	-11.1708
堯舜禹湯文武	-11.1708
詹何	-11.1708
通乎	-11.1708
筮	-11.1708
僣	-11.1708
跨	-11.1708
綽	-11.1708
塊	-11.1709
鉞	-11.1709
憾	-11.1709
渚	-11.1709
厚葬久喪	-11.1709
唾	-11.1709
潢	-11.1709
耨	-11.1709
鍼	-11.1709
琢	-11.1709
苴	-11.1709
疾疫	-11.171
心氣	-11.171
勘	-11.1711
紐	-11.1711
芻狗	-11.1712
苞	-11.1712
不貪	-11.1712
不侵	-11.1712
爨	-11.1712
贈	-11.1712
鶉尾	-11.1713
趙簡子	-11.1713
錐	-11.1713
券	-11.1713
轄	-11.1713
鼎俎	-11.1714
一夕夢	-11.1714
京房	-11.1714
鉢	-11.1714
位律中	-11.1714
堅刁	-11.1714
紾	-11.1714
萇弘	-11.1715
月失政	-11.1715
涿	-11.1715
軼	-11.1716
輅	-11.1716
色赤	-11.1716
軔	-11.1716
嚼	-11.1716
芸	-11.1717
布帛	-11.1718
歩	-11.1718
槐	-11.1718
兕虎	-11.1718
刳	-11.1718
釐	-11.1718
湎	-11.1719
諮	-11.1719
嗤	-11.1719
二百四十	-11.172
道之所	-11.172
田獵	-11.172
𥙷	-11.1721
謨	-11.1721
天象	-11.1721
猥	-11.1721
豪傑	-11.1721
通判	-11.1721
剖判	-11.1721
纓	-11.1721
虢	-11.1722
揺	-11.1722
隻	-11.1722
曇	-11.1722
遑	-11.1722
貝	-11.1723
何以明之	-11.1723
剔	-11.1723
横渠	-11.1723
某甲	-11.1723
犠	-11.1724
窒	-11.1724
鷙鳥	-11.1724
螮	-11.1724
蒞	-11.1724
甲冑	-11.1725
嬖	-11.1725
穎	-11.1726
蒿	-11.1726
跛	-11.1726
唐太宗	-11.1726
掣	-11.1726
前輩	-11.1726
京師	-11.1727
藜藿	-11.1727
弑其君	-11.1727
殺不辜	-11.1727
吕梁	-11.1727
諺曰	-11.1727
弓矢	-11.1727
影響	-11.1727
㦸	-11.1728
曾青	-11.1728
嘿	-11.1729
袂	-11.1729
恊	-11.173
羔	-11.173
治隂官右	-11.173
孳	-11.1731
暴虐	-11.1731
千仞	-11.1731
龜鶴	-11.1732
鴻鵠	-11.1732
豫讓	-11.1732
遲速	-11.1732
忮	-11.1732
佻	-11.1733
出于	-11.1733
是與	-11.1733
莢	-11.1733
慈惠	-11.1734
甲寅	-11.1735
盤旋	-11.1735
季秋	-11.1736
鉗	-11.1736
六翮	-11.1736
水潦	-11.1737
齊景公	-11.1737
班固	-11.1738
位也	-11.1738
甲午	-11.1739
惡人	-11.1742
雍季	-11.1742
夫是之謂	-11.1742
羊牛	-11.1742
爲德	-11.1744
血流	-11.1745
太后	-11.1747
甘苦	-11.1749
而致之	-11.1749
馳逐	-11.1749
楊子	-11.1752
難得	-11.1752
斥澤	-11.1752
析木	-11.1753
則見以爲	-11.1753
之應	-11.1754
畫卦	-11.1756
九寸	-11.1758
〇何氏曰如	-11.1758
太上感應篇	-11.1759
者誠	-11.1761
以赴	-11.1761
晝日	-11.1761
之事乎昔	-11.1761
親踈	-11.1762
榮辱	-11.1762
則人主	-11.1762
羣臣之	-11.1763
條風	-11.1764
不可不審	-11.1764
作書	-11.1764
重則	-11.1768
亂人	-11.1769
南斗	-11.1769
百川	-11.1769
將士	-11.177
之名而	-11.177
有所至而	-11.177
文采	-11.1774
不過五	-11.1775
焚身	-11.1778
由余	-11.1779
之道抱朴子曰	-11.178
安得不	-11.178
靈寳	-11.1781
校定	-11.1783
十倍	-11.1783
委積	-11.1785
仲尼曰	-11.1787
動動	-11.1787
奇伏	-11.179
魏武	-11.1792
傳言	-11.1792
衆之所	-11.1793
凶器	-11.1795
浩然	-11.1796
於白	-11.1797
青黄	-11.1798
淺近	-11.1799
應之曰	-11.18
與子	-11.1801
趙襄子	-11.1803
從横	-11.1805
明主之道	-11.1805
宋陸范本	-11.1805
無以爲	-11.1806
風伯	-11.1808
二十年	-11.1808
循理	-11.181
塗之	-11.181
襄主	-11.181
蕩蕩	-11.181
各得其所	-11.1811
下經	-11.1811
舉錯	-11.1813
天下之人	-11.1817
孔明	-11.1817
詩書	-11.1818
其文	-11.1821
從天	-11.1821
務光	-11.1823
審察	-11.1824
從何	-11.1826
天意	-11.1827
西河	-11.1828
忠良	-11.1836
出境	-11.1839
堅牛	-11.1839
河北	-11.1839
奮擊	-11.184
威儀	-11.1841
哭之	-11.1843
樹木	-11.1843
明珠	-11.1843
犯禁	-11.1846
杜佑曰言	-11.1847
隂謀	-11.1848
四七	-11.185
惠公	-11.185
之所出	-11.1851
百鬼	-11.1855
水泉	-11.1857
之分也	-11.1858
尊者	-11.1858
侯王	-11.1859
以勢	-11.186
漢王	-11.186
可致	-11.1864
近則	-11.1864
全體	-11.1867
哉抱朴子曰	-11.187
困窮	-11.1873
天地之道	-11.1874
吾身	-11.1874
江水	-11.1878
行伍	-11.1879
心腹	-11.1879
形形	-11.1881
方其	-11.1882
不知有	-11.1884
通也	-11.1884
人謂之	-11.1885
竟至	-11.1885
接物	-11.1887
長養	-11.1888
此四者	-11.1888
率兵	-11.1894
少室	-11.1898
由是以	-11.1898
而視之	-11.1898
盡而	-11.19
否則	-11.1901
疾風	-11.1901
私門	-11.1905
形神	-11.1911
二儀	-11.1912
刑賞	-11.1915
兩間	-11.1916
趨利	-11.1916
言萬物	-11.192
自成	-11.1921
交錯	-11.1932
夫妻	-11.1937
不遇	-11.1939
萬民之	-11.194
尚可	-11.1941
愛人也	-11.1945
兵貴	-11.1952
庶事	-11.1953
合諸侯	-11.1962
不類	-11.1962
周流	-11.1963
德薄	-11.1963
知足	-11.1964
盛極	-11.1967
務在	-11.197
有節	-11.1972
美食	-11.1972
未免	-11.1972
有奇	-11.1973
龍之	-11.1974
孰若	-11.1974
安寧	-11.1982
者也是故	-11.1983
不載	-11.1983
飾其	-11.1984
以文	-11.1984
任用	-11.1987
計之	-11.199
天官	-11.1991
賞罰不	-11.1998
至今不	-11.1998
月半	-11.1999
重罪	-11.2
賢臣	-11.2001
受光	-11.2001
天根	-11.2002
正氣	-11.2003
秦軍	-11.2004
〇孟氏曰	-11.2008
之失也	-11.2008
之爲物	-11.2009
是月也	-11.2012
王氏	-11.2013
之寳也	-11.2014
自矜	-11.2017
萬化	-11.2018
財利	-11.2022
賤者	-11.2028
以佐	-11.2032
幾於	-11.2033
以此爲	-11.2035
百戰	-11.2037
衛人	-11.2037
自見	-11.2039
通達	-11.204
而樂	-11.2042
不可欺	-11.2042
也朱子曰	-11.2044
所禀	-11.2046
晋國之	-11.2047
不得爲	-11.2048
一隅	-11.2049
貧者	-11.205
以守	-11.2053
莫不有	-11.2055
者國之	-11.2058
八石	-11.206
能用	-11.2061
常思	-11.2065
十九年	-11.2065
三統	-11.2068
於人者	-11.2072
所向	-11.2073
煑之	-11.2073
乎況	-11.2074
大衆	-11.208
仁智	-11.2081
其兵	-11.2081
量敵	-11.2082
過差	-11.2082
况於	-11.2091
則不知	-11.2092
于外	-11.2092
可以得	-11.2095
以徇	-11.2103
門下	-11.2106
乘雲	-11.2107
襲之	-11.2111
妄發	-11.2112
之正也	-11.2114
中極	-11.2115
何用	-11.2119
之形也	-11.2124
安樂	-11.2137
不辯	-11.214
大體	-11.2141
其術	-11.2143
地廣	-11.215
天之道	-11.2153
哉若	-11.2153
謀事	-11.2154
治世之	-11.2158
困於	-11.216
有所不能	-11.2162
自傷	-11.2166
聾者	-11.2167
審於	-11.2173
不但	-11.2181
欲殺	-11.2187
也又有	-11.2188
車服	-11.2192
大敗之	-11.2198
一卦	-11.2199
既成	-11.2199
也仁者	-11.2201
之由	-11.2205
十六日	-11.221
之謗	-11.2214
者非以	-11.2217
人死	-11.2217
鄭氏	-11.2219
藏形	-11.2221
神氣	-11.2226
成列	-11.2228
象數	-11.2231
以前	-11.2232
蓋聞	-11.2233
三合	-11.2233
乃復	-11.2235
功業	-11.2239
入門	-11.2241
有病	-11.2241
晋國	-11.225
莫有	-11.2259
相感	-11.226
數十人	-11.2262
爲虎	-11.2268
李筌曰夫	-11.2273
被甲	-11.2274
須是	-11.2275
金氣	-11.2287
不顯	-11.229
豈可以	-11.229
人之家	-11.2293
舍人	-11.2295
衆心	-11.2297
先聖	-11.2303
大澤	-11.2306
者何也曰	-11.2311
執其	-11.2311
官吏	-11.232
明法	-11.2323
以長	-11.2324
其精神	-11.2327
復何	-11.233
與敵人	-11.2332
不詳	-11.2333
九九	-11.2334
聖人之道	-11.2334
不留	-11.2337
之蟲	-11.2339
六子	-11.2355
適人	-11.2361
之人也	-11.2364
為八	-11.2373
者也今	-11.2379
而變	-11.2383
上元	-11.2385
將吏	-11.2394
之爲道	-11.24
其所愛	-11.2402
也若以	-11.2404
天上	-11.2409
之事乎	-11.2409
重耳	-11.2411
四通	-11.2411
公義	-11.2417
鶉	-11.2418
危身	-11.2419
責人	-11.2424
而化	-11.2429
不惟	-11.2429
分則	-11.2435
境内之	-11.2436
常行	-11.2437
非彼	-11.2443
用兵者	-11.2445
卒於	-11.2451
但見	-11.2451
不悔	-11.2459
不流	-11.2464
當日之夜	-11.2469
不減	-11.2472
無見	-11.2485
杜牧曰言	-11.2487
必誅	-11.249
加焉	-11.2496
也或問曰	-11.2497
之累	-11.2498
於南方	-11.2499
世世	-11.2506
純陽	-11.2519
之黨	-11.252
者無不	-11.252
也陸曰	-11.2525
五常	-11.2525
一書	-11.253
垠	-11.2532
者有矣	-11.2532
皆自然	-11.2536
勢之	-11.2537
留之	-11.2538
物理	-11.2538
賞其	-11.2551
是也〇張預曰	-11.2553
小臣	-11.2559
圯	-11.2564
過度	-11.2566
星也	-11.2567
射之	-11.2568
也范王本	-11.257
慶賞	-11.2571
方者	-11.2581
先定	-11.2588
知之矣	-11.2588
爲敗	-11.2593
曹操	-11.2594
鶡	-11.2596
衞	-11.2597
三百六十五度四分度之一	-11.2597
壽命	-11.26
雨風露雷	-11.2601
智謀	-11.2601
蕤賓	-11.2602
絓	-11.2602
騃	-11.2603
卞	-11.2603
酆	-11.2603
謂之天	-11.2604
璋	-11.2604
白馬非馬	-11.2604
孟賁	-11.2605
飴	-11.2605
埶	-11.2605
君臣相	-11.2606
無傷	-11.2607
啞	-11.2607
扼	-11.2608
㡬	-11.2609
筌	-11.2609
則如之何武曰	-11.2609
呪詛	-11.2609
顙	-11.261
一陰一陽	-11.2611
皇帝王伯	-11.2611
裨	-11.2611
小善	-11.2611
譯	-11.2611
南華曰	-11.2611
慊	-11.2611
鳶	-11.2611
螫	-11.2611
沬	-11.2612
區區	-11.2612
撤	-11.2612
璣	-11.2612
溉	-11.2613
泯	-11.2613
誌	-11.2613
所持	-11.2613
販	-11.2614
隰朋	-11.2614
受日光	-11.2614
金液還丹	-11.2614
之甚也	-11.2614
勺	-11.2615
隨敵	-11.2615
懽	-11.2615
灘	-11.2615
一日一夜	-11.2615
夔	-11.2615
氣應斗建	-11.2616
沂	-11.2616
蹷	-11.2616
懴	-11.2616
籙	-11.2616
奎婁	-11.2616
髀	-11.2616
詬	-11.2616
阮	-11.2616
皇極經世	-11.2617
夙興夜寐	-11.2617
稀	-11.2617
脱	-11.2617
眷	-11.2618
嶷	-11.2618
欲學	-11.2619
戇	-11.2619
魔	-11.2619
甌	-11.2619
驢	-11.2619
祗	-11.2619
札	-11.262
螟	-11.262
昆弟	-11.262
俛仰	-11.262
儻	-11.262
怡	-11.262
僮	-11.262
灌之	-11.262
氣質之性	-11.2621
罄	-11.2621
醒	-11.2621
今有人於此	-11.2622
屍	-11.2622
壚	-11.2622
鋸	-11.2622
漚	-11.2622
耒	-11.2622
騏	-11.2623
見驗方止	-11.2623
栖	-11.2623
霖	-11.2623
粥	-11.2623
歙	-11.2623
靖郭君	-11.2623
蜩	-11.2624
泳	-11.2624
魏文侯	-11.2624
烏獲	-11.2624
茫	-11.2624
吻	-11.2624
坦	-11.2624
宥	-11.2625
砥礪	-11.2625
擿	-11.2625
昆吾	-11.2625
爍	-11.2625
脇	-11.2625
冐頓	-11.2625
腑	-11.2626
段干木	-11.2626
駐	-11.2626
瘖	-11.2626
尫	-11.2626
紹興	-11.2626
蔣	-11.2626
隄防	-11.2626
籌	-11.2627
撻	-11.2627
凢	-11.2627
押	-11.2627
剡	-11.2628
孟嘗君	-11.2628
其父母	-11.2628
憒	-11.2628
帳	-11.2629
百餘年	-11.2629
見鬼	-11.2629
礪	-11.2629
奠	-11.2629
觚	-11.2629
歲名曰	-11.2629
下田	-11.263
啄	-11.263
臼	-11.263
倖	-11.263
梁柱	-11.263
虹霓	-11.263
至死	-11.2631
膊	-11.2631
約束	-11.2631
蜃	-11.2632
吠	-11.2632
括囊	-11.2632
雲霧	-11.2632
竹帛	-11.2633
開闢	-11.2633
干戚	-11.2633
涔	-11.2633
骭	-11.2633
騖	-11.2633
訕	-11.2633
金木水火土	-11.2633
埵	-11.2634
曹操李筌曰	-11.2634
雹	-11.2635
叚	-11.2635
掛	-11.2635
鍵	-11.2635
皂	-11.2635
三台	-11.2636
礫	-11.2636
謡	-11.2636
費仲	-11.2636
朝菌	-11.2637
釘	-11.2637
泥濘	-11.2637
顔淵	-11.2637
春秋傳曰	-11.2638
碣石	-11.2638
孺子	-11.2639
不虧	-11.2639
皎	-11.264
蕤賔	-11.264
貢舉	-11.2641
折衝	-11.2641
廉恥	-11.2641
百骸	-11.2642
尸解	-11.2642
無迹	-11.2642
穿井	-11.2642
賔客	-11.2643
壅塞	-11.2644
壽夭	-11.2646
牧野	-11.2646
墨翟	-11.2647
過此	-11.2647
聚歛	-11.2649
曾史	-11.2649
慈母	-11.2649
九九八十一	-11.265
丞相	-11.265
彊梁	-11.265
章甫	-11.2651
淮南王	-11.2652
閨	-11.2652
孟春	-11.2652
太公望	-11.2653
玉液	-11.2653
七曜	-11.2654
上帝鬼神	-11.2655
尺五寸	-11.2656
自安	-11.2656
勇敢	-11.2656
禹步	-11.2657
清潔	-11.2657
比肩	-11.2658
有序	-11.2659
風波	-11.266
鍾鼓	-11.2661
季春	-11.2661
直道	-11.2662
終不能	-11.2662
姓字	-11.2662
斬首	-11.2663
禪師	-11.2665
次第	-11.2665
萬乘之主	-11.2666
莊周	-11.2666
朱草	-11.2667
極則反	-11.2668
好事者	-11.2668
化育	-11.2669
不鳴	-11.2669
傾覆	-11.267
明哲	-11.2671
公孟子曰	-11.2671
所活者	-11.2672
所論	-11.2674
之末也	-11.2677
愛憎	-11.2677
貧富	-11.268
爲度	-11.2682
制敵	-11.2683
楚大夫	-11.2683
不可奪	-11.2687
中傷	-11.2687
眞僞	-11.2688
南海	-11.2689
深淵	-11.269
都廣	-11.2691
者鮮	-11.2692
無久	-11.2692
泰一	-11.2693
諸候	-11.2693
患在	-11.2694
使彼	-11.2694
左右皆	-11.2694
若然者	-11.2698
雲母	-11.2699
同乎	-11.2699
曰敢問	-11.27
不能獨	-11.2701
若苟	-11.2702
為春	-11.2705
而人主	-11.2708
象之	-11.2709
固非	-11.271
乃止	-11.2711
當世之	-11.2711
苟免	-11.2712
哉蓋	-11.2713
嗣公	-11.2713
午至亥	-11.2715
謀慮	-11.2718
恭王	-11.2718
里中	-11.2721
賞譽	-11.2722
俊民	-11.2722
猶豫	-11.2723
則危	-11.2724
而不失其	-11.2724
符堅	-11.2725
閉藏	-11.2725
趨舍	-11.2727
自恃	-11.2728
蓋言	-11.2732
力屈	-11.2733
乎哉	-11.2734
後世之	-11.2734
弗爲也	-11.2736
富則	-11.2737
連城	-11.2738
范氏	-11.2739
盛陽	-11.274
民萌	-11.2745
房心	-11.2746
無辜	-11.2748
失之於	-11.2749
耳夫	-11.2751
抱朴子曰余	-11.2754
公仲	-11.2755
從上	-11.2758
大暑	-11.2758
用師	-11.276
飛龍	-11.2764
之宿有	-11.2765
要道	-11.2765
百斤	-11.2766
太一君	-11.2767
相害	-11.2768
景星	-11.2768
念慮	-11.2769
則光	-11.278
將奈何	-11.2783
過滿	-11.2783
地削	-11.2786
顔子	-11.2789
輕薄	-11.2789
豈無	-11.279
侍中	-11.2792
漢高	-11.2792
食肉	-11.2794
萬人之	-11.2796
小運	-11.2797
大倫	-11.2797
唯聖人	-11.2802
出戰	-11.2802
而服之	-11.2803
也范小宋本	-11.2805
聖智	-11.2811
愛也	-11.2811
盡忠	-11.2812
財力	-11.2814
事親	-11.2815
干木	-11.2815
不具	-11.2816
短長	-11.2817
使然也	-11.2817
丘山	-11.2818
辟兵	-11.2823
於外則	-11.2826
此篇	-11.2832
元炁	-11.2833
商臣	-11.2838
七宿	-11.284
不仕	-11.2842
一十八	-11.2843
簡主	-11.2843
厚利	-11.2844
諸己	-11.2844
志在	-11.2849
不飢	-11.2853
屬土	-11.2857
次則	-11.2858
誠信	-11.2859
季子	-11.286
視之則	-11.286
不禁	-11.2861
苟有	-11.2863
大夏	-11.2865
遇敵	-11.2865
運轉	-11.2869
蓋謂	-11.287
不危	-11.2873
衣食之	-11.2873
矣然則	-11.2873
八音	-11.2875
不勤	-11.2881
害故	-11.2881
建德	-11.2887
之原也	-11.2891
知事	-11.2891
九尺	-11.2892
數里	-11.2895
也今子	-11.29
以厚利	-11.2901
力有餘	-11.2902
厚賞	-11.2903
目前	-11.2903
可攻	-11.2905
節度	-11.2905
流星	-11.2914
了無	-11.2915
卵生	-11.2915
曰不然	-11.2916
不納	-11.2917
明夷	-11.292
弗聽	-11.2922
田成	-11.2923
變成	-11.2929
海水	-11.2929
無光	-11.2932
成都	-11.2937
真水	-11.2945
甚衆	-11.2948
穴中	-11.2952
其勞	-11.2953
何若	-11.2955
何事	-11.2957
天地四時	-11.2961
三面	-11.2963
禁姦	-11.2963
惟恐	-11.2966
經星	-11.2971
此天下之	-11.2976
此三者	-11.2983
死罪	-11.299
得地	-11.2992
意思	-11.2996
爲鬼	-11.2997
主君	-11.2997
陰陽之氣	-11.2999
周官	-11.3
將帥	-11.3005
服藥	-11.3008
分為二	-11.3008
並行	-11.3013
攻韓	-11.3017
學仙	-11.3018
者也次七	-11.3021
長大	-11.3025
無一人	-11.3025
其弟	-11.3026
立言	-11.3027
攷之	-11.3031
其神爲	-11.3034
千載	-11.3036
務於	-11.3036
因果	-11.3038
秦師	-11.3039
近世	-11.304
行炁	-11.304
别有	-11.304
隱於	-11.3043
攻宋	-11.3046
好學	-11.3046
交戰	-11.3051
宜其	-11.3061
馬馬	-11.3061
至公	-11.3064
應侯	-11.3066
能審	-11.3066
之可也	-11.3066
不差	-11.3067
攻守之	-11.3069
漁者	-11.3074
游於	-11.3074
專用	-11.3078
九夷	-11.3082
之一字	-11.3091
子都	-11.3093
不熟	-11.3095
而莫之	-11.3097
明德	-11.3102
於魯	-11.3102
大蛇	-11.3104
左傳	-11.3106
然則人	-11.3107
而進之	-11.311
勿用	-11.3112
十餘萬	-11.3116
爻為	-11.312
舍也	-11.3123
流水	-11.3125
生生之	-11.3126
衆星	-11.313
好士	-11.313
後患	-11.313
萬方	-11.3132
霸者	-11.3133
公旦	-11.3135
子女	-11.3136
爲道者	-11.3139
威勢	-11.3145
無爲也	-11.3146
千歲之	-11.3147
原道	-11.3148
精兵	-11.3148
之宫	-11.3149
五種	-11.3151
世俗之	-11.3152
弗受	-11.3153
六經	-11.3159
城池	-11.3163
便能	-11.3166
死間	-11.3166
和丹	-11.3172
皆須	-11.3177
中有一	-11.3179
以適	-11.3185
數數	-11.3186
其初	-11.3195
一節	-11.3206
不勸	-11.3207
非眞	-11.3212
不遷	-11.3212
見敵	-11.3216
師曠曰	-11.3223
可否	-11.3223
東至	-11.3225
日稱	-11.3226
明目	-11.3234
大懼	-11.3237
〇張預曰凡	-11.3238
教令	-11.3238
况乎	-11.3246
足以相	-11.3251
水流	-11.3253
兵甲	-11.3256
所致	-11.3258
立命	-11.3266
而索	-11.3275
三年而	-11.3276
陰陽相	-11.3281
陽城	-11.3287
一百二十	-11.3287
不由	-11.3297
積隂	-11.33
不能守	-11.33
行持	-11.3301
猶且	-11.3302
長安	-11.3306
故人主	-11.3308
仙者	-11.3311
所著	-11.3316
不可勝數	-11.3323
求索	-11.3323
以承	-11.3328
為七	-11.3339
之故也	-11.3342
光謂八爲禍中	-11.3346
者天也	-11.3346
而殺之	-11.335
竟以	-11.3354
之實也	-11.3365
愚智	-11.3367
相錯	-11.3368
之客	-11.3371
襄公	-11.3377
昔張	-11.3393
終身不	-11.3401
五居盛位	-11.3411
以取勝	-11.3413
於上而	-11.3415
名利	-11.3417
求仙	-11.3419
苟無	-11.3423
其禮	-11.3427
五石	-11.343
彼雖	-11.3431
無思	-11.3438
之所成	-11.3439
要當	-11.3455
不調	-11.3457
氣衰	-11.3459
耕者	-11.3463
不恤	-11.3466
功立	-11.3468
自養	-11.3475
平日	-11.3478
一爲思始	-11.3486
墻之	-11.3505
矣或曰	-11.3507
四支	-11.3514
而語	-11.3517
央	-11.3518
乘車	-11.3529
五十步	-11.3535
以鐵	-11.3537
四五	-11.3544
無與	-11.355
盛大	-11.3552
全勝	-11.3552
汲汲	-11.3556
孫子曰	-11.3558
坎為	-11.356
然猶	-11.356
云何	-11.3564
筩	-11.3564
而常	-11.3571
二八	-11.3572
有悟	-11.3572
衒	-11.3575
其本而	-11.3576
蹪	-11.3577
昊	-11.358
斧鉞	-11.3585
天尊願我	-11.3585
三十六卦	-11.3586
紫房	-11.3587
仕於	-11.3595
說得	-11.3595
裴	-11.3603
蓏	-11.3603
嘻	-11.3603
不遺	-11.3604
日月之所	-11.3604
綵	-11.3606
怳	-11.3607
薨	-11.3607
亶	-11.3607
弔	-11.3608
俞	-11.3609
恰	-11.3609
波濤	-11.3609
仆	-11.361
醮	-11.361
猨	-11.3611
錙銖	-11.3611
飛金晶	-11.3612
陜	-11.3612
擯	-11.3612
村	-11.3612
縠	-11.3612
尺寸	-11.3612
鎰	-11.3612
牝牡	-11.3613
簪	-11.3613
萊	-11.3613
祛	-11.3613
也宋陸王本	-11.3613
嘯	-11.3614
其狀	-11.3614
騏驥	-11.3614
擔	-11.3614
監司	-11.3615
洎	-11.3615
蔡氏曰	-11.3615
胼	-11.3615
葅	-11.3615
吴王問孫武曰	-11.3615
舂	-11.3615
蠬	-11.3615
部伍	-11.3616
䝉	-11.3616
大笑	-11.3616
弓弩	-11.3616
不亦宜乎	-11.3616
𨓜	-11.3616
顚	-11.3617
蟾	-11.3617
五爲中和	-11.3617
天地之大	-11.3617
惛	-11.3617
冡	-11.3617
廊	-11.3617
掖	-11.3618
雋	-11.3618
糾	-11.3618
谿谷	-11.3618
葵	-11.3618
齕	-11.3618
塘	-11.3619
仇讎	-11.3619
翣	-11.3619
涌	-11.3619
呵	-11.3619
鳯	-11.3619
蓍龜	-11.362
憶	-11.362
刈	-11.362
司馬宣王	-11.362
墾	-11.362
光大	-11.362
漢高祖	-11.362
俄頃	-11.362
弁	-11.362
飡	-11.362
佃	-11.362
攓	-11.362
兢	-11.3621
得失之	-11.3621
包裹	-11.3621
鄧林	-11.3621
懟	-11.3621
𡨚	-11.3621
幣帛	-11.3621
潮	-11.3621
勾陳	-11.3621
㪷	-11.3621
入名山	-11.3622
行冬令則	-11.3622
坼	-11.3622
紏	-11.3622
家性爲	-11.3622
江淮	-11.3622
驚蟄	-11.3622
不亦可乎	-11.3623
幄	-11.3623
恡	-11.3623
眯	-11.3623
瓶	-11.3623
貲	-11.3623
開門	-11.3624
掊	-11.3624
若二公者	-11.3624
晋人程本著	-11.3624
坂	-11.3624
猾	-11.3624
杵	-11.3624
蹇叔	-11.3624
衷	-11.3624
芟	-11.3625
雁	-11.3625
煦	-11.3625
盃	-11.3625
臺榭	-11.3625
五帝三王	-11.3626
堰	-11.3627
江湖	-11.3627
衣裘	-11.3627
圃池	-11.3627
也二宋陸本	-11.3628
筦	-11.3628
航	-11.3628
是可爲乎賛曰	-11.3628
饜	-11.3628
蔓	-11.3628
旃	-11.3628
先生曰	-11.3628
駁	-11.3628
劓	-11.3629
詈	-11.3629
飄風	-11.3629
彼衆我寡	-11.3629
巖穴	-11.3629
鞠	-11.3629
亞	-11.3629
閲	-11.3629
鎬	-11.363
優游	-11.363
未始有	-11.363
盾	-11.363
涵	-11.363
隄	-11.3631
菽麥	-11.3632
慤	-11.3632
怙	-11.3632
郵	-11.3632
滋味	-11.3632
霤	-11.3632
廉頗	-11.3632
若此則	-11.3633
伴	-11.3633
收録	-11.3633
讐	-11.3633
杏	-11.3634
身死國亡	-11.3634
縶	-11.3634
七百二十	-11.3634
冤	-11.3635
鈴	-11.3635
力士	-11.3635
彌綸	-11.3635
執圭	-11.3635
慄	-11.3635
陶冶	-11.3636
閭里	-11.3636
艘	-11.3636
㮣	-11.3636
斗斛	-11.3636
著述	-11.3637
穡	-11.3637
轉輸	-11.3637
周天之度	-11.3637
恬淡	-11.3637
教誨	-11.3637
長生不死	-11.3637
湊	-11.3637
申不害	-11.3637
蠻	-11.3637
罩	-11.3638
籬	-11.3638
震兌	-11.3638
乎人知	-11.3638
盪	-11.3639
太乙	-11.3639
咀	-11.3639
孟孫	-11.364
拭	-11.364
焉得無	-11.364
銓衡	-11.3641
蛙	-11.3641
彝倫	-11.3641
判官	-11.3642
黃帝	-11.3642
鞀	-11.3642
而後行	-11.3643
旦暮	-11.3643
治隂官左	-11.3643
燕人	-11.3643
童蒙	-11.3643
大夫種	-11.3644
步騎	-11.3645
▲	-11.3645
故善用兵者	-11.3645
織女	-11.3646
韯	-11.3646
吏士	-11.3646
切宋曰	-11.3646
大厦	-11.3648
悒	-11.3649
黼黻	-11.3649
十步一	-11.3649
妻妾	-11.365
善射者	-11.365
丑未	-11.3651
孤寡	-11.3652
恚怒	-11.3652
顔回	-11.3652
故稱	-11.3652
緇	-11.3653
横圖	-11.3654
廉潔	-11.3656
而慕	-11.3656
田忌	-11.3658
淺薄	-11.3658
推移	-11.366
玩好	-11.366
善攻者	-11.3661
而擅	-11.3661
自衒	-11.3663
江漢	-11.3666
靈龜	-11.3667
笑曰	-11.3667
玉池	-11.3669
豈必	-11.3669
十有三	-11.3669
緩急	-11.367
奇偶	-11.367
得天下	-11.367
李牧	-11.3672
哉今	-11.3673
相遠	-11.3673
泣血	-11.3673
宰予	-11.3673
筩中	-11.3674
洛陽	-11.3674
季夏	-11.3676
金帛	-11.3677
媪	-11.3677
者矣或有	-11.3677
百里奚	-11.3679
六寸	-11.3683
田野	-11.3684
言我	-11.3684
奔北	-11.3685
也律受	-11.3687
或用	-11.3687
莊子	-11.3688
感應篇	-11.3689
鮑生	-11.3689
山水	-11.3689
不堅	-11.369
當是時	-11.369
月月	-11.3691
五十步一	-11.3693
無義	-11.3694
之所致也	-11.3696
玄妙	-11.3696
參政	-11.37
管子曰	-11.3703
皇極	-11.3703
汲汲於	-11.3704
左手	-11.3705
后土	-11.3707
財寳	-11.3707
衆多	-11.3707
條達	-11.3708
二步	-11.3708
梅堯臣曰彼	-11.3709
乘舟	-11.371
知音	-11.3711
行此法	-11.3713
絶倫	-11.3714
上昇	-11.3714
失其所以	-11.3715
之樂也	-11.3717
左轉	-11.3718
即墨	-11.3722
而示之	-11.3722
明鏡	-11.3723
諸儒	-11.3724
而不顧	-11.3725
壬子	-11.3727
左氏	-11.3727
柱國	-11.3728
豈唯	-11.3729
偶俗	-11.3731
知來	-11.3732
小畜	-11.3732
不猒	-11.3733
律中	-11.3734
好醜	-11.3737
或謂之	-11.3741
居西	-11.3743
齊侯	-11.3745
光耀	-11.3746
王皙曰謂	-11.3747
面目	-11.3748
虞公	-11.3751
在其間	-11.3754
厚薄	-11.3755
秦韓	-11.376
爾乃	-11.376
之子也	-11.376
民知	-11.3762
為利	-11.3763
君臣上下	-11.3763
權謀	-11.3763
於道德	-11.3765
不返	-11.3769
進趨	-11.3769
其禄	-11.3771
智慮	-11.3773
治國家	-11.3773
劉氏	-11.3774
庸夫	-11.3779
大旱	-11.3779
丹田中	-11.378
春風	-11.378
而當日之夜	-11.3781
天地之性	-11.3782
所經	-11.3782
不離乎	-11.3783
為十二	-11.3784
午後	-11.3784
虛實	-11.3787
發機	-11.3789
謂子墨子曰	-11.379
二爲思中而當夜	-11.3791
興亡	-11.3792
并兵	-11.3792
流轉	-11.38
君子小人	-11.3802
哉子墨子曰	-11.3802
勤求	-11.3808
一定	-11.3809
無害於	-11.381
致敵	-11.3813
涉水	-11.3813
不愧	-11.3814
苟且	-11.3815
則無不	-11.3816
伐謀	-11.3818
破軍	-11.3826
内觀	-11.3826
一枚	-11.3829
藝文	-11.3831
白帝	-11.3833
凶人	-11.3834
斷絶	-11.3834
家室	-11.3837
獨往	-11.3842
辰極	-11.3843
誰能	-11.3848
求救	-11.3852
得其人	-11.3855
良臣	-11.3857
一身之	-11.3858
管子	-11.3858
調和	-11.3858
因敵之	-11.3862
不困	-11.3863
他日	-11.3867
六國	-11.3868
乘勢	-11.3869
腹中	-11.3869
親親	-11.3872
候其	-11.3873
罪福	-11.3877
之所以立	-11.3878
見驗	-11.388
致千里	-11.3887
造作	-11.3889
日新	-11.3891
决戰	-11.3895
進賢	-11.3897
專以	-11.3897
百神	-11.39
萬象	-11.3901
元年	-11.3904
相干	-11.3908
去就	-11.3909
正朔	-11.3911
責成	-11.3912
後天也	-11.3916
臣斯	-11.3917
斗建	-11.3919
生液	-11.392
精思	-11.3927
日没	-11.393
重罰	-11.393
三千人	-11.393
井中	-11.3931
救火者	-11.3934
不營	-11.3935
雖强	-11.3946
上七	-11.3949
神藥	-11.3955
合於道	-11.3955
畫地	-11.3956
待人	-11.3959
必擇	-11.3964
散亂	-11.3966
北宫	-11.3967
甘心	-11.3968
孰爲	-11.3969
三十三	-11.3969
女樂	-11.397
不寧	-11.3971
化生	-11.3972
窮極	-11.3974
年命	-11.3974
之聖也	-11.3977
時候	-11.3977
真陽	-11.3978
長夜	-11.3985
而不爲	-11.399
在地下	-11.399
私家	-11.4001
八寸	-11.4004
將誰	-11.4019
而泣	-11.4019
險難	-11.4023
天仙	-11.403
三十分	-11.4038
死于	-11.4042
一貫	-11.4043
驚亂	-11.405
堯時	-11.4051
於民也	-11.4053
安得無	-11.4053
敵情	-11.4054
太師	-11.4058
傷民	-11.4065
魯國	-11.4066
談者	-11.4067
一百八十	-11.4067
適足	-11.4068
以俟	-11.4076
弱水	-11.4077
一部三	-11.4077
白石	-11.4078
無一物	-11.408
下士	-11.4088
冬至日	-11.4096
方書	-11.4096
君父	-11.4098
禍敗	-11.4102
無角	-11.4115
明月	-11.4116
智力	-11.4118
異同	-11.412
天下之亂	-11.4123
不可偏	-11.4142
進取	-11.4146
四達	-11.4148
為陰陽	-11.4158
益多	-11.4162
胡人	-11.4166
適情	-11.4166
五刑	-11.4167
取舍	-11.417
深遠	-11.4176
淺深	-11.4181
不釋	-11.4182
也子墨子	-11.4182
非徒	-11.4189
聖人之言	-11.4195
天師	-11.4196
等事	-11.4205
非特	-11.4207
歲月	-11.4208
矣人主	-11.4221
國小	-11.4224
而欲以	-11.4227
之死也	-11.423
任賢	-11.424
交兵	-11.4241
六爲上禄	-11.4247
是以君子	-11.4248
曰何謂	-11.4249
如此豈	-11.425
謀臣	-11.4252
争地	-11.4254
所以爲治	-11.4254
空言	-11.426
而已哉	-11.4261
去國	-11.4264
天皇	-11.4274
事實	-11.4278
風雲	-11.4281
兊卦	-11.4281
事業	-11.4289
得免	-11.4292
也王本無	-11.4295
此二者	-11.4296
不可盡	-11.4298
著明	-11.43
地之中	-11.4303
相接	-11.431
城邑	-11.4324
犯法	-11.4334
治國者	-11.4339
為備	-11.4345
擇人	-11.4349
室家	-11.4351
人物之	-11.4371
之言乎	-11.4376
知禍福	-11.4393
不充	-11.4393
聲名	-11.4402
卦變	-11.4406
不慮	-11.4409
不料	-11.4419
不可擊	-11.4427
其枝	-11.4446
者人主之	-11.4452
兵士	-11.4457
雲物	-11.4457
爲人君	-11.449
勿使	-11.4492
其妙	-11.4496
其所守	-11.4496
宣子	-11.4498
坐此	-11.4503
物無不	-11.4512
至要	-11.4514
何能	-11.4517
宿於	-11.4521
得仙者	-11.4525
也若乃	-11.4525
故易曰	-11.4535
二爲思中	-11.4535
甚易	-11.4537
久視	-11.4538
可謂知	-11.4542
交接	-11.4543
可敗	-11.4545
天下之事	-11.4558
畏其	-11.4566
交數	-11.4575
門外	-11.4588
卦之風	-11.4592
故聖	-11.4594
海中	-11.4599
此其所以	-11.4608
有隙	-11.4611
非仁	-11.4626
隂德	-11.4633
一部	-11.4635
天地萬物	-11.4637
這裏	-11.4639
治軍	-11.4664
道引	-11.4672
梅堯臣	-11.4676
不讓	-11.4676
衢地	-11.4677
而不動	-11.468
絆	-11.4687
勣	-11.4688
蓐	-11.469
輼	-11.4691
此語	-11.4691
走飛草木	-11.4696
衍之為	-11.4699
鯉	-11.47
命終之後	-11.4701
還自	-11.4705
二爲思中而當晝君子	-11.4706
輜	-11.4708
地形之	-11.471
汨	-11.4711
憔悴	-11.4711
甑	-11.4711
鯉魚	-11.4712
鮪	-11.4713
婬	-11.4713
捲	-11.4713
澠	-11.4713
薺	-11.4714
瓮	-11.4714
寛	-11.4714
畒	-11.4714
哺	-11.4714
舄	-11.4715
蟒	-11.4715
院	-11.4716
河圖洛書	-11.4717
蚌	-11.4717
衂	-11.4717
捧	-11.4717
醯	-11.4717
钁	-11.4717
屑	-11.4718
噪	-11.4718
宂	-11.4719
毆	-11.4719
頃刻	-11.4719
裕	-11.4719
沿	-11.472
閹	-11.472
棧	-11.472
槀	-11.472
陁	-11.4721
緡	-11.4721
譙	-11.4721
囷	-11.4721
歧	-11.4721
強	-11.4721
貽	-11.4721
兎	-11.4721
梵	-11.4721
陬	-11.4721
軄	-11.4722
香餌	-11.4723
愉	-11.4723
公輸	-11.4723
瑗	-11.4723
債	-11.4723
欬	-11.4723
謂諸將曰	-11.4723
天下之利	-11.4723
驩	-11.4723
齊神武	-11.4724
茫茫	-11.4724
齦	-11.4724
凉風	-11.4724
鱣	-11.4724
出其不意	-11.4724
樛	-11.4724
啖	-11.4725
嬪	-11.4725
糟粕	-11.4725
汩	-11.4725
猴	-11.4725
膺	-11.4725
薰	-11.4725
製	-11.4725
紿	-11.4725
榻	-11.4726
三年之喪	-11.4726
霑	-11.4726
棺槨	-11.4726
桀紂幽厲	-11.4727
熊羆	-11.4727
燠	-11.4727
蛛	-11.4727
悠悠	-11.4728
熯	-11.4728
吁	-11.4729
未戰而	-11.4729
倪	-11.4729
件	-11.4729
諸葛亮	-11.4729
吊	-11.4729
於此益知	-11.4729
泓	-11.4729
腊	-11.4729
終而復始	-11.4729
抮	-11.4729
翕翕	-11.4729
三百八十四	-11.473
糟	-11.473
夀	-11.473
越王句踐	-11.473
劌	-11.473
培	-11.473
絜	-11.4731
垤	-11.4731
范蠡	-11.4731
鸚	-11.4731
徭役	-11.4731
龐子曰願聞	-11.4731
攀	-11.4731
㕔	-11.4731
倮	-11.4731
瑰	-11.4731
笥	-11.4731
大人之	-11.4731
袴	-11.4731
婉	-11.4732
浩浩	-11.4732
服八風水爨	-11.4732
棠	-11.4732
未萌	-11.4732
歐冶	-11.4732
郷里	-11.4732
錞	-11.4732
中來爲人	-11.4732
自午至亥	-11.4733
越王勾踐	-11.4733
腐鼠	-11.4733
夙	-11.4733
攄	-11.4733
蝗	-11.4733
悴	-11.4733
翫	-11.4734
百戰百勝	-11.4735
貂	-11.4735
比喻曰	-11.4735
蠭	-11.4735
軰	-11.4735
彤	-11.4735
麽	-11.4735
傭	-11.4735
竺	-11.4735
彬	-11.4735
酈	-11.4736
嗜慾	-11.4736
娥	-11.4736
梧	-11.4736
臨淄	-11.4737
汪濊	-11.4737
赫赫	-11.4737
拯溺	-11.4737
扎	-11.4737
胏	-11.4738
按如佛說	-11.4738
七日有風名	-11.4738
鏑	-11.4738
濤	-11.4738
縈	-11.4739
砂	-11.4739
懿	-11.4739
有驗	-11.4739
昂	-11.4739
玦	-11.4739
黍稷	-11.4739
鸞鳳	-11.4739
網罟	-11.4739
天時地利	-11.4739
攻小國	-11.4739
范昭	-11.4739
彝	-11.474
陋巷	-11.474
呌	-11.474
孩	-11.474
厝	-11.474
燥濕	-11.474
驚擾	-11.4741
賈誼	-11.4741
弟兄	-11.4741
紊	-11.4741
繹	-11.4741
柏	-11.4742
寂漠	-11.4742
螭	-11.4742
行春令則	-11.4742
封疆	-11.4743
愍	-11.4743
摛	-11.4743
菱	-11.4743
句踐	-11.4743
趾	-11.4743
者爲如何	-11.4743
錯綜	-11.4743
藐	-11.4743
蛻	-11.4743
玉液還丹	-11.4743
綬	-11.4744
儔	-11.4744
仲舒	-11.4745
嘈	-11.4745
謐	-11.4745
淖齒	-11.4745
兆汝	-11.4746
短褐	-11.4746
斜	-11.4746
蚩尤	-11.4746
輔佐	-11.4746
松栢	-11.4747
勾踐	-11.4747
幽都	-11.4747
樵採	-11.4747
前後左右	-11.4747
震坎艮	-11.4747
田成氏	-11.4747
知敵之情	-11.4748
藪澤	-11.4748
歎息	-11.4748
誹謗	-11.4748
迂闊	-11.4748
齎	-11.4749
拾遺	-11.4749
飆	-11.4749
駢	-11.4749
一動一静	-11.4749
謚	-11.4749
勲	-11.4749
可不謹	-11.475
箎	-11.475
孰敢	-11.475
令行禁止	-11.475
駿馬	-11.4751
轉之丹服之	-11.4751
斟酌	-11.4751
俯仰	-11.4751
樞機	-11.4751
蓋難分之	-11.4751
五步一	-11.4751
九韶	-11.4752
晉公	-11.4753
勞佚	-11.4753
碩儒	-11.4754
筠	-11.4754
崔杼	-11.4755
翹	-11.4755
霜降	-11.4755
胎仙	-11.4755
獄訟	-11.4756
棊	-11.4756
奪筭	-11.4756
庶績	-11.4756
未之聞也	-11.4758
宓	-11.4758
三軍之士	-11.4759
親愛	-11.4759
間諜	-11.476
律曆	-11.4761
恭敬	-11.4761
良工	-11.4761
黂	-11.4762
鐘鼓	-11.4763
碎首	-11.4763
橑	-11.4763
河洛	-11.4763
河圖之數	-11.4764
三日念	-11.4764
劉備	-11.4766
樂毅	-11.4766
詭詐	-11.4766
懦弱	-11.4766
怯弱	-11.4766
芝草	-11.4767
茅茨	-11.4768
弧矢	-11.4768
嵩岱	-11.4768
刻削	-11.4769
行秋令則	-11.4769
三變	-11.477
金匱	-11.477
穀雨	-11.477
清澄	-11.477
玉堂	-11.477
謂之亂	-11.4771
城守	-11.4774
成黄金	-11.4774
支體	-11.4774
毒藥	-11.4775
仲秋	-11.4775
祖宗	-11.4776
炎帝	-11.4779
延州	-11.4779
澹然	-11.4779
寒熱	-11.478
忿怒	-11.478
酒肉	-11.478
刑獄	-11.478
貧困	-11.4781
宗族	-11.4784
憂悲	-11.4784
在上位	-11.4785
律歷	-11.4787
善守者	-11.4788
凡夫	-11.4789
唯毋	-11.479
孟諸	-11.4791
離叛	-11.4791
伐趙	-11.4791
輕刑	-11.4792
參差	-11.4792
而不誅	-11.4792
孝基	-11.4793
鳴鼓	-11.4795
誦經	-11.4796
責之以	-11.4798
二寸	-11.4801
立爲天子	-11.4802
冠履	-11.4802
瞻視	-11.4803
冨貴	-11.4803
東嶽	-11.4805
深山	-11.4805
先生之言	-11.4807
一部二家	-11.4807
燒香	-11.4808
之基	-11.481
之丹名	-11.4812
静静	-11.4812
反舌	-11.4813
斷割	-11.4813
甲辰	-11.4813
覆載	-11.4813
子韋	-11.4813
以利動	-11.4814
勸沮	-11.4815
步卒	-11.4815
雲漢	-11.4818
愚嘗	-11.4819
吏卒民	-11.4819
旣歸	-11.4821
衰老	-11.4821
利鈍	-11.4823
太原	-11.4824
之由是	-11.4825
厚禄	-11.4825
降伏	-11.4825
逸樂	-11.4826
未可知也	-11.4827
禁暴	-11.4827
百穀	-11.4829
三綱	-11.4829
忠貞	-11.483
辟邪	-11.4833
一般	-11.4834
宜速	-11.4835
於未萌	-11.4835
西伯	-11.4836
貧窮	-11.4836
强弩	-11.4837
渡水	-11.4837
幽深	-11.4837
片言	-11.4839
醫家	-11.4841
戎馬	-11.4843
六十年	-11.4843
斗極	-11.4844
張氏	-11.4844
龍虎	-11.4846
在這裏	-11.4849
憂懼	-11.4852
狗馬	-11.4853
擾亂	-11.4854
麤氣	-11.4855
山陵	-11.4859
解脫	-11.4859
此世之所	-11.486
又從而	-11.4861
渾天	-11.4862
天壤	-11.4863
五霸	-11.4864
竈神	-11.4865
盈虚	-11.4869
藏器	-11.487
不停	-11.4872
專制	-11.4874
聚散	-11.4874
者未之有也	-11.4876
老弱	-11.4882
農事	-11.4882
昭然	-11.4882
雨師	-11.4884
是故子墨子言曰	-11.4885
者則必	-11.4886
幾何	-11.4887
吾儒	-11.4891
冬至後	-11.4895
五十四	-11.4896
矣次七	-11.4897
山谷	-11.4899
高崇	-11.49
咽法	-11.49
美玉	-11.49
安期	-11.49
萬乘	-11.4901
血食	-11.4901
入山林	-11.4904
墮入	-11.4905
食穀	-11.4907
了然	-11.4907
三萬六千	-11.4909
薄疑	-11.4911
人皆知	-11.4916
昏亂	-11.4916
有意於	-11.4917
九皇	-11.4917
命之曰	-11.4918
符節	-11.4919
大衍	-11.4922
稽古	-11.4925
再三	-11.4927
丹法以	-11.4927
旬日	-11.4932
無愧	-11.4932
其狀如	-11.4934
還反	-11.4935
者神之	-11.4936
蒼蒼	-11.4943
無根	-11.4944
以天下爲	-11.4944
其所長	-11.4945
累世	-11.4945
植物	-11.4946
九星	-11.4949
九野	-11.495
歷山	-11.4951
太過	-11.4952
士衆	-11.4953
死喪	-11.4959
擊破	-11.496
漢書	-11.4961
破家	-11.4961
之神也	-11.4963
終歲	-11.4967
太和	-11.4968
四凶	-11.4969
美女	-11.497
清静	-11.4972
破國	-11.4972
窮達	-11.4973
十二歲	-11.4979
不可任	-11.4981
奚謂	-11.4985
因循	-11.4985
不可遏	-11.4988
而萬物生	-11.4989
於未形	-11.4992
及其身	-11.4994
則可矣	-11.4997
塞耳	-11.4997
月餘	-11.5
引軍	-11.5006
而不能自	-11.5008
誠實	-11.501
他國	-11.5017
乃敢	-11.5018
昔三代	-11.5025
九轉	-11.5027
以應敵	-11.5027
數百人	-11.5028
不離於	-11.5029
過失	-11.5029
吕氏	-11.5039
每事	-11.504
經營	-11.504
年七十	-11.5053
百代	-11.5054
圍城	-11.5056
不可留	-11.5061
臣聞之	-11.5063
遂卒	-11.5065
澤及	-11.5066
引去	-11.5067
既定	-11.5067
權重	-11.5077
老君曰	-11.5078
自然之道	-11.508
玄象	-11.5086
趙高	-11.5088
爲善者	-11.5089
以我爲	-11.5097
辯士	-11.5102
火德	-11.5102
百歲之人	-11.5104
神清	-11.5104
四游	-11.5108
計謀	-11.5119
事敗	-11.5123
君不如	-11.5125
群生	-11.5145
堂下	-11.5147
欲退	-11.5148
立朝	-11.5161
卑下	-11.5164
旁國	-11.5168
功伐	-11.5171
中繩	-11.5172
所以備	-11.518
昌言	-11.5182
隱士	-11.5182
是之謂	-11.5184
其動也	-11.5196
威王	-11.5203
風氣	-11.5204
圍地	-11.5205
八八六十四	-11.5218
無所歸	-11.5231
寡婦	-11.5232
設伏	-11.5234
此二人	-11.5256
實沈	-11.5257
億萬	-11.5261
形器	-11.5262
不能測	-11.5264
同王曰	-11.5273
臨事	-11.5274
失位	-11.5276
庸民	-11.5284
初九	-11.529
同學	-11.5293
匹夫之	-11.5299
山精	-11.53
伺敵	-11.5301
四爲下禄	-11.5312
入井	-11.532
得脫	-11.5325
事物	-11.5331
乎或曰	-11.5353
也非以	-11.5355
情實	-11.5355
安定	-11.5355
賤人	-11.5368
天下莫不	-11.5368
至治之	-11.5368
不失其正	-11.5372
不貳	-11.5382
夜小人	-11.5409
人莫能	-11.5428
强敵	-11.5436
不預	-11.544
可謂至	-11.5441
左足	-11.5443
懷遠	-11.5447
道里	-11.5465
年二十	-11.5471
並用	-11.5471
其說在	-11.5472
不忘其	-11.5472
不可止	-11.5476
也王曰居	-11.5478
不羞	-11.5479
深淺	-11.5484
運動	-11.5494
中虚	-11.5499
滔天	-11.5505
其所由	-11.5507
矣次五	-11.5514
於此乎	-11.5517
先聖之	-11.5523
而民不	-11.5527
奇數	-11.5529
他物	-11.5529
賛曰人之	-11.5541
車輪	-11.5544
任事	-11.5546
仁賢	-11.5549
誠能	-11.5551
其所惡	-11.556
國安	-11.5578
復還	-11.5579
石室	-11.5613
髓	-11.5623
筋骨	-11.5646
子墨子曰今	-11.5651
所據	-11.5651
越國	-11.5672
范本作	-11.5695
其死也	-11.5703
還丹	-11.5714
得人心	-11.5728
不售	-11.5748
唯恐	-11.575
不渝	-11.5759
制禮	-11.578
可奪	-11.5787
窈	-11.579
七七	-11.5792
鳥飛	-11.5798
惑亂	-11.5804
明照	-11.5808
者陽之	-11.5819
旁有	-11.582
遺物	-11.5821
其常也	-11.5839
聖從	-11.5842
得一人	-11.5872
渾渾	-11.5887
故善戰者	-11.5892
道之人	-11.5908
預知	-11.5931
形質	-11.5932
頡	-11.5938
四鄰諸侯	-11.594
錮	-11.5946
罌	-11.5946
祇	-11.5948
晞	-11.595
柘	-11.5954
罡	-11.5959
從中御	-11.5959
子至巳	-11.5959
紡績織絍	-11.596
湍	-11.596
暑寒晝夜	-11.5961
言之庶幾	-11.5963
黄裳子	-11.5964
部侍郎	-11.5964
綃	-11.5965
金誥曰	-11.5965
如小豆	-11.5966
耕稼樹藝	-11.5966
太一遁甲	-11.5967
州刺史	-11.5967
蕩然	-11.5968
盧敖	-11.5968
萬八千歲	-11.5968
蹄	-11.5968
种	-11.5968
蛾傅	-11.5968
一三五七九	-11.5968
床	-11.5969
水火木金土	-11.5969
錦繡	-11.597
巽坎艮坤	-11.597
鑿井	-11.597
血脉	-11.597
批	-11.597
千仞之谿	-11.597
胞	-11.5971
三爲思終	-11.5971
閻	-11.5971
赤松子	-11.5971
陽家火準	-11.5971
甘茂	-11.5971
洮	-11.5971
岷山	-11.5971
稚	-11.5971
吹竽	-11.5972
陽家木準	-11.5972
三百六十五日四分日之一	-11.5972
乎惜其不知	-11.5972
霆	-11.5972
癘	-11.5972
王曰七居過滿	-11.5972
束縛	-11.5973
韱	-11.5973
不言而信	-11.5974
以尚賢使能爲政	-11.5974
十二辟卦	-11.5974
歉	-11.5974
亦復如是	-11.5974
甯	-11.5974
西王母	-11.5974
甸	-11.5974
諒	-11.5974
忝	-11.5974
根荄	-11.5974
拆	-11.5974
㗖	-11.5974
冐	-11.5975
騶	-11.5975
這箇	-11.5975
徂	-11.5975
弦望晦朔	-11.5975
楨	-11.5976
洋洋	-11.5976
無往而不	-11.5976
長九分	-11.5976
罘	-11.5976
俎	-11.5976
靳	-11.5976
亞父	-11.5976
軵	-11.5976
周亞夫	-11.5977
册	-11.5977
十二萬九千六百年	-11.5977
蔬	-11.5978
塜	-11.5978
昱	-11.5978
煗	-11.5978
暈	-11.5979
鋤	-11.5979
摯	-11.5979
廵	-11.5979
三百六十五日	-11.598
詆	-11.598
窳	-11.598
真訣曰	-11.598
躄	-11.598
刊	-11.5981
昏時中於南方	-11.5981
悌	-11.5981
倍道兼行	-11.5981
縑	-11.5981
況於人乎	-11.5981
磁石	-11.5981
刮	-11.5981
术	-11.5981
猫	-11.5981
荀息	-11.5981
貴爲天子富有天下	-11.5982
肘後	-11.5982
蠻夷	-11.5982
耒耜	-11.5982
自古及今	-11.5982
魏宣子	-11.5982
琳琅	-11.5983
輪回	-11.5983
裊	-11.5983
坎離震兌	-11.5983
陽家金準	-11.5983
薶	-11.5983
弃灰	-11.5983
兖州	-11.5983
夸父	-11.5983
溥	-11.5983
朓朒	-11.5983
侍郎	-11.5984
罝	-11.5984
箱	-11.5984
束帛	-11.5984
髪	-11.5984
庾	-11.5984
摹	-11.5984
跼	-11.5984
臏	-11.5984
田子方	-11.5985
菽粟	-11.5985
耿弇	-11.5985
而後可以見	-11.5985
弧	-11.5985
豢	-11.5986
汶	-11.5986
芒種	-11.5986
笙	-11.5986
萬二千里	-11.5986
千變萬化	-11.5986
儺	-11.5986
恢廓	-11.5986
二百二十八	-11.5986
爲罪遇	-11.5986
鋭	-11.5987
宏	-11.5987
僦	-11.5987
系	-11.5987
餔	-11.5987
曝	-11.5987
鴛	-11.5987
穹	-11.5987
管絃	-11.5987
兑	-11.5987
女媧	-11.5988
瀕	-11.5988
莘	-11.5988
抵罪	-11.5988
瓴	-11.5988
陽家水準	-11.5988
顛倒	-11.5988
純樸	-11.5988
鉦	-11.5989
治鄴	-11.5989
狠	-11.5989
𤓰	-11.5989
錬	-11.5989
併力	-11.5989
緬	-11.5989
衣衾	-11.599
穗	-11.599
緼	-11.599
磔	-11.599
輻凑	-11.599
隈	-11.599
磐	-11.599
饕	-11.599
蓄積	-11.599
丑寅	-11.599
竇建德	-11.599
蠧	-11.599
釐負羈	-11.599
百善則後代	-11.599
箸	-11.5991
它	-11.5991
深谿	-11.5991
閩	-11.5991
〇程子曰	-11.5992
今從范王小宋本	-11.5992
惇	-11.5992
破軍殺將	-11.5992
蛾	-11.5992
鼓琴	-11.5992
軻	-11.5992
物固有	-11.5992
祝融	-11.5992
顓帝	-11.5992
魯哀公	-11.5993
無聲無臭	-11.5993
儕	-11.5993
巨里	-11.5993
諦	-11.5993
顫	-11.5993
君臣父子	-11.5994
唐孔氏曰	-11.5994
殪	-11.5994
鼓譟	-11.5994
須㬰	-11.5994
長生久視	-11.5994
冗	-11.5994
鬢	-11.5995
斥鷃	-11.5995
致行厨	-11.5995
朔旦	-11.5995
蝡	-11.5996
凌霄	-11.5996
徵羽	-11.5996
瑾	-11.5996
峰	-11.5996
堂谿公	-11.5996
歇	-11.5996
鹵	-11.5996
日行一度	-11.5996
機械	-11.5996
祁	-11.5996
叔獻	-11.5996
招摇	-11.5996
海隅	-11.5997
爲之柰何	-11.5997
羑里	-11.5997
幃	-11.5997
蕙	-11.5997
扢	-11.5997
喋	-11.5997
酤	-11.5997
赤眉	-11.5998
巫祝	-11.5998
艾陵	-11.5999
鱓	-11.5999
冉	-11.5999
老翁	-11.5999
社鼠	-11.5999
禹湯文武	-11.6
剽	-11.6
于天測曰	-11.6
躬耕	-11.6
兩乳	-11.6
韓昭侯	-11.6
到那	-11.6
堂堂	-11.6
騄	-11.6001
太初曆	-11.6001
胥靡	-11.6001
先天之學	-11.6001
田疇	-11.6001
甘露	-11.6001
檄	-11.6001
皮膚	-11.6002
浦	-11.6002
少昊	-11.6002
尠	-11.6002
禁忌	-11.6002
嫌疑	-11.6002
徐偃王	-11.6002
城濮	-11.6002
旒	-11.6002
首之主	-11.6002
犂	-11.6003
蔡州	-11.6003
二方一州	-11.6003
楝	-11.6003
洞庭	-11.6003
酒醴粢盛	-11.6003
緘	-11.6004
范文正公	-11.6004
眷屬	-11.6005
九星在	-11.6005
晚年	-11.6005
决獄	-11.6005
工匠	-11.6006
呴	-11.6006
扶桑	-11.6006
襲鄭	-11.6006
長六尺	-11.6007
𨽻	-11.6007
駔	-11.6007
白公勝	-11.6007
凝滯	-11.6007
坊	-11.6007
窮巷	-11.6007
辛苦	-11.6008
只是一箇	-11.6009
怵	-11.6009
權𢖍	-11.6009
小童子	-11.6009
晋獻公	-11.601
帶甲	-11.601
只管	-11.6011
晏嬰	-11.6011
揚雄	-11.6011
三十八	-11.6011
跀	-11.6012
安排	-11.6012
簋	-11.6013
清明風	-11.6013
有道之士	-11.6014
開闔	-11.6015
而不自知	-11.6016
醪	-11.6017
越境	-11.6018
十三度	-11.6018
丹朱	-11.6019
七寸	-11.6019
二方二州	-11.6019
堅壁	-11.6019
舉措	-11.602
巧拙	-11.6021
玄圃	-11.6022
願得	-11.6022
親疏	-11.6022
閡	-11.6022
圯地	-11.6022
車駕	-11.6023
玉曆	-11.6024
各從其	-11.6025
徹視	-11.6026
吕望	-11.6026
封侯	-11.6026
唐堯	-11.6028
伏尸	-11.6029
見其形	-11.6032
九地之變	-11.6034
有道之君	-11.6034
猛火	-11.6034
一二三四五	-11.6034
白雪	-11.6035
萬七千	-11.6036
充塞	-11.6037
其大略	-11.6037
朱紫	-11.6038
榮衛	-11.6039
鄭伯	-11.604
法言曰	-11.6042
仲達	-11.6042
如之何	-11.6044
毁折	-11.6044
輕慢	-11.6045
六癸	-11.6046
邪徑	-11.6046
根源	-11.6046
數千萬	-11.6046
同異之	-11.6047
丈五尺	-11.6047
冬至日在	-11.6049
安肯	-11.6049
在其中矣	-11.6049
蔡嫗	-11.605
參驗	-11.605
遁甲	-11.6051
象牙	-11.6051
閼與	-11.6054
靈臺	-11.6055
城内	-11.6055
大疫	-11.6056
公輸子	-11.6056
致太平	-11.6058
青州	-11.6059
交援	-11.606
朔虚	-11.6061
消滅	-11.6062
瞽師	-11.6062
茂木	-11.6063
華嚴	-11.6063
所自出	-11.6068
豈敢	-11.6068
堅剛	-11.6068
丸及	-11.6069
尊顯	-11.607
豈不然乎	-11.607
伯玉	-11.6072
一部一家	-11.6073
巧工	-11.6073
烈士	-11.6074
遼水	-11.6074
狀似	-11.6075
德音	-11.6076
五十里	-11.6079
惠施	-11.6081
豈足以	-11.6081
曲折	-11.6082
百六十	-11.6083
材木	-11.6083
持滿	-11.6083
殿下	-11.6094
其源	-11.6095
坤卦	-11.6097
追風	-11.6098
利劍	-11.6099
六六三十六	-11.6101
射御	-11.6108
三旬	-11.6109
謹節	-11.611
太華	-11.6114
方丈	-11.6116
乎答曰	-11.6117
鄭君言	-11.6119
微細	-11.6119
非道也	-11.612
長驅	-11.6126
分寸	-11.6127
皆一也	-11.613
未足以	-11.6132
純白	-11.6134
亦安能	-11.6135
交爭	-11.6135
廢置	-11.6135
盡其力	-11.6136
所不智	-11.6138
造次	-11.6139
名之曰	-11.6141
辰巳	-11.6141
半年	-11.6143
父老	-11.6147
平等	-11.6148
昭明	-11.6152
隂賊	-11.6152
世界	-11.6155
不敢犯	-11.6156
黄河	-11.6156
執政	-11.6156
不與焉	-11.6158
宋人有	-11.6158
方千里	-11.6165
應機	-11.6166
默然	-11.617
在西南	-11.6171
談論	-11.6172
一槩	-11.6177
數起於	-11.6177
智巧	-11.6179
以下皆	-11.618
於當世	-11.618
何以異	-11.6184
胃中	-11.6184
西方金	-11.6184
七十餘	-11.6188
速進	-11.6188
不爲指	-11.6188
好勇	-11.619
師徒	-11.6192
忽聞	-11.6195
隂位	-11.6199
方略	-11.6202
朔日	-11.6203
各各	-11.6204
成羣	-11.6206
景風	-11.6207
動摇	-11.6209
豈獨	-11.621
為緯	-11.621
子墨子謂	-11.6211
洪水	-11.6211
公叔	-11.6212
保守	-11.622
報應	-11.6222
伺其	-11.6224
梅堯臣曰因	-11.6227
大牢	-11.6229
不憚	-11.623
在側	-11.6231
庭下	-11.6234
元首	-11.6235
一晝一夜	-11.6241
詭道	-11.6242
登山	-11.6243
衆庶	-11.6246
無所容	-11.6246
宜適	-11.6249
外面	-11.6249
輕罪	-11.6251
孝經	-11.6251
主宰	-11.6256
貨賂	-11.6256
積久	-11.6257
善游	-11.6261
銳氣	-11.6264
通塞	-11.6266
在天上	-11.6266
辯說	-11.628
何也對曰	-11.628
築城	-11.628
未嘗見	-11.6284
清風	-11.6286
五材	-11.6288
留意	-11.6293
極盛	-11.6299
游氣	-11.6305
而忘其	-11.6307
後數年	-11.6317
形圓	-11.6318
本朝	-11.6319
禁止	-11.6322
延壽	-11.6324
入海	-11.6325
仁愛	-11.6326
收藏	-11.6327
移易	-11.6334
應龍	-11.6345
莫知其所	-11.6346
尊貴	-11.6356
舍止	-11.6406
備具	-11.6413
破敵	-11.6432
而不可易	-11.6437
爲妖	-11.6437
郢人	-11.6449
有分於	-11.6453
醮祭	-11.6455
以是故不	-11.6458
月窟	-11.6459
華山	-11.6474
子噲	-11.6476
上卿	-11.6489
在西北	-11.649
制斷	-11.6495
可惜	-11.6495
豈徒	-11.6499
則國必	-11.6509
食飲	-11.6512
於其所不	-11.6514
自恃其	-11.6518
暑濕	-11.655
角量	-11.6554
輪轉	-11.6554
得地利	-11.6555
無故而	-11.6562
患難	-11.6591
未必能	-11.6601
矣今夫	-11.6609
於無爲	-11.6617
南陸	-11.6658
反己	-11.6664
者此也	-11.6665
勵士	-11.6676
凡庸	-11.6685
地之體	-11.6692
欣然	-11.6715
設奇	-11.6748
只在	-11.6754
是一箇	-11.6764
妄舉	-11.6774
何敢	-11.6792
一百八	-11.6811
吴起曰	-11.6837
久而不	-11.6863
萬全	-11.687
於名山	-11.6887
情僞	-11.6925
光謂一爲思始	-11.6936
何由	-11.6975
餘十二	-11.7017
八爲禍中而當晝	-11.7019
化爲一	-11.705
中和之	-11.7061
無物不	-11.7101
所由生	-11.7174
十善則	-11.7183
得其利	-11.7184
徒屬	-11.7191
篇云	-11.7238
法律	-11.7268
所以勸	-11.7277
當夜故有是象次	-11.732
輴	-11.7321
所以示	-11.733
窯	-11.7341
抱朴子	-11.7348
竹箭	-11.7353
岱	-11.7356
李筌	-11.7357
諺	-11.7368
性情形體	-11.7368
申包胥	-11.7371
物莫非指	-11.7372
龜蛇	-11.7377
太史	-11.7378
遏惡揚善	-11.7379
暴骸	-11.7379
靈憲曰	-11.738
轔	-11.7381
惜人不知	-11.7381
輓	-11.7382
詛	-11.7382
貉	-11.7384
摻	-11.7384
嫫母	-11.7385
睨	-11.7385
乾兌離震	-11.7386
僖	-11.7386
故上文云	-11.7386
蜚	-11.7388
人自為戰	-11.7388
徤	-11.7388
蜉	-11.7388
苗賁皇	-11.7389
頷	-11.7389
摭	-11.7389
瞋	-11.739
縗	-11.739
歐陽文忠	-11.7391
嚇	-11.7391
皮幣	-11.7391
倅	-11.7391
籟	-11.7391
孑	-11.7392
者衆生聞法	-11.7392
請以一二	-11.7392
浣	-11.7393
纎	-11.7393
三三而九	-11.7394
櫟	-11.7394
溝瀆	-11.7394
洒	-11.7394
桑梓	-11.7394
嬾	-11.7394
穉	-11.7395
財殫	-11.7395
枯槁	-11.7396
王鈇	-11.7396
稔	-11.7396
陛	-11.7397
遄	-11.7397
暘谷	-11.7397
為不可勝之	-11.7397
䇿	-11.7397
慼	-11.7397
蔈	-11.7397
六爲極大	-11.7397
二四六八十	-11.7398
蠆	-11.7398
煎熬	-11.7398
姝	-11.7398
暍	-11.7398
梧桐	-11.7398
繘	-11.7398
葭	-11.7399
跣	-11.7399
刷	-11.7399
邸	-11.7399
𦔳	-11.74
三日三夜	-11.74
極之山	-11.74
烟	-11.74
柝	-11.7401
陰中之陽	-11.7401
皺	-11.7401
韈	-11.7401
啜	-11.7401
耐	-11.7401
偏裨	-11.7401
真原曰	-11.7401
天地萬物之理	-11.7401
軛	-11.7401
金木水火	-11.7401
譟	-11.7402
糠	-11.7402
蚤虱	-11.7402
墳墓	-11.7402
大衍五十	-11.7402
真人子丹	-11.7402
洫	-11.7402
僭	-11.7403
扛	-11.7403
誖	-11.7403
辰戌丑未	-11.7403
推而上之	-11.7403
一日十二時	-11.7403
橘柚	-11.7404
霽	-11.7404
俎豆	-11.7404
娘	-11.7404
蓆	-11.7404
知彼知己	-11.7404
惻	-11.7404
汰	-11.7405
眥	-11.7405
妄想	-11.7405
膏肓	-11.7405
訥	-11.7405
鴻烈	-11.7405
燄	-11.7405
蝮蛇	-11.7405
鶻	-11.7405
倉廪	-11.7405
璇	-11.7406
查滓	-11.7406
誹譽	-11.7406
㧞	-11.7406
斐	-11.7406
陪	-11.7406
翡翠	-11.7406
姻	-11.7406
跰	-11.7406
檐	-11.7406
儋	-11.7406
千善則爲	-11.7406
勗	-11.7407
深溝高壘	-11.7407
五榖	-11.7407
倫叅於	-11.7407
萇	-11.7407
滕	-11.7407
太宰嚭	-11.7407
靜漠	-11.7407
蠲	-11.7407
四九三十六	-11.7407
譛	-11.7407
厮養	-11.7407
笠	-11.7407
九爲禍極	-11.7408
綜	-11.7408
淄	-11.7408
泮	-11.7408
團	-11.7408
翼軫	-11.7408
耆	-11.7408
律令敕右法	-11.7408
肘	-11.7408
亘	-11.7409
下五事也	-11.7409
畿	-11.7409
白日昇天	-11.7409
紳	-11.7409
兼相愛交相利	-11.7409
涪	-11.7409
隍	-11.7409
嚚	-11.7409
寘	-11.7409
峯	-11.7409
四境之内	-11.7409
坏	-11.7409
楮	-11.7409
百萬之衆	-11.7409
陰家火準	-11.7409
之爲度也	-11.7409
惶懼	-11.7409
疫癘	-11.7409
藏於九地之下	-11.7409
巔	-11.741
步行水上	-11.741
指麾	-11.741
犀兕	-11.741
螣	-11.741
匕	-11.7411
衿	-11.7411
吹律	-11.7411
仁義禮智	-11.7411
婺女	-11.7411
冰炭	-11.7411
百仞之	-11.7411
兇	-11.7411
鰥寡	-11.7411
纁	-11.7411
邠	-11.7411
㸃	-11.7411
殛	-11.7412
五與十	-11.7412
斤斧	-11.7412
迓	-11.7412
易有太極	-11.7412
𦆵	-11.7412
二至二分	-11.7412
纊	-11.7412
螺	-11.7412
後天八卦	-11.7412
烏得無	-11.7412
按經所說	-11.7412
惱	-11.7412
紲	-11.7412
租	-11.7413
七爲禍始而當夜	-11.7413
彍	-11.7413
廬江	-11.7413
君命有所不受	-11.7413
銅鐵	-11.7413
麴	-11.7413
紗	-11.7413
寂然	-11.7414
朱漢上曰	-11.7414
自子至巳	-11.7414
燋	-11.7414
傚	-11.7414
叅政	-11.7414
姊	-11.7414
敕	-11.7414
鷇	-11.7414
不量其力	-11.7414
舉成數	-11.7414
之情狀	-11.7415
稠	-11.7415
茝	-11.7415
朓	-11.7415
趍舍	-11.7415
細腰	-11.7415
涂	-11.7415
濛	-11.7415
楫	-11.7415
盱	-11.7415
耘	-11.7415
肪	-11.7415
嬉	-11.7415
搔	-11.7415
草萊	-11.7415
清凈	-11.7416
障蔽	-11.7416
四分日之一	-11.7416
吴王夫差	-11.7416
羸弱	-11.7416
插	-11.7416
自然之勢	-11.7416
莠	-11.7416
西門豹	-11.7416
安能愛君	-11.7416
税	-11.7416
凶饑	-11.7417
麑	-11.7417
松喬	-11.7417
梨	-11.7417
饌	-11.7417
荆棘	-11.7417
孫子曰凡	-11.7417
三百八十四爻	-11.7417
墮地獄	-11.7417
㹠	-11.7417
一年三百六十日	-11.7417
姒	-11.7417
涣	-11.7417
弸	-11.7417
神祇	-11.7417
溼	-11.7417
也王曰得位當晝	-11.7418
也光謂九爲	-11.7418
執有命者	-11.7418
被褐	-11.7418
覈	-11.7418
宼	-11.7418
為我用	-11.7418
颺	-11.7418
也吴王曰	-11.7418
堵	-11.7418
兀	-11.7418
尊天事鬼	-11.7418
蟯	-11.7418
乂	-11.7418
善之善者也	-11.7418
魏武帝	-11.7418
梢	-11.7418
繒	-11.7418
菊	-11.7419
斲削	-11.7419
檠	-11.7419
閫	-11.7419
涇	-11.7419
亦猶此也	-11.742
矜誇	-11.742
瓦器	-11.742
真武真君	-11.742
慶忌	-11.742
竊甞	-11.742
戕	-11.742
之本在於	-11.742
茍	-11.742
風至四十五日	-11.742
遼東	-11.7421
彖	-11.7421
陌	-11.7421
戌亥	-11.7421
慈悲	-11.7421
欺誑	-11.7421
揉	-11.7421
性命之情	-11.7421
璨	-11.7421
賾	-11.7421
板築	-11.7422
蒂	-11.7422
貪鄙	-11.7422
杞	-11.7422
絀	-11.7422
戒哉賛曰	-11.7422
諍	-11.7422
月與日	-11.7422
紀筭	-11.7423
賄	-11.7423
夕惕	-11.7423
噫嘻	-11.7423
慟	-11.7423
螳蜋	-11.7423
坐在立亡	-11.7423
瘗	-11.7423
胡氏曰	-11.7423
被裘	-11.7423
鯁	-11.7424
乖戾	-11.7424
搜索	-11.7424
枳棘	-11.7424
訓練	-11.7424
瀁	-11.7424
燃	-11.7424
銓	-11.7424
裸	-11.7424
𥹋	-11.7424
垂棘之璧	-11.7424
鷦	-11.7424
丁壯	-11.7424
糲	-11.7424
讙	-11.7425
笏	-11.7425
訶	-11.7425
九天之上	-11.7425
爲天下笑	-11.7425
婁敬	-11.7425
悲哀	-11.7426
王曰八居	-11.7426
英俊	-11.7426
悚	-11.7426
溷	-11.7426
此筌以	-11.7426
震卦	-11.7426
桓侯	-11.7427
卜皮	-11.7427
李悝	-11.7427
汗漫	-11.7427
廣莫風	-11.7427
永歎	-11.7427
僚屬	-11.7427
蟄伏	-11.7427
剛毅	-11.7427
孰謂爲不然乎	-11.7427
七百二十九賛	-11.7428
輆	-11.7428
狖	-11.7428
轡策	-11.7428
役使鬼神	-11.7428
嗜酒	-11.7428
自投於	-11.7428
黑齒	-11.7428
井竈	-11.7428
公尚過	-11.7428
孟軻	-11.7429
太蔟	-11.7429
矜孤	-11.7429
震巽	-11.7429
不可不慎	-11.7429
𢙅	-11.7429
撮	-11.7429
刁	-11.7429
品藻	-11.743
荀子曰	-11.743
京兆	-11.743
司農	-11.743
一元之數	-11.743
磨滅	-11.743
隗	-11.743
磑	-11.743
邊境	-11.743
吕后	-11.7431
蛡	-11.7431
絶域	-11.7431
北而南	-11.7431
羊腸	-11.7431
一百九十二	-11.7431
嚬	-11.7431
平等智力	-11.7431
瑜	-11.7432
嫚	-11.7432
武靈王	-11.7432
湧	-11.7432
南溟	-11.7433
苛虐	-11.7433
酪	-11.7433
游宴	-11.7433
渾淪	-11.7433
孝悌	-11.7433
令人長生	-11.7434
螻	-11.7434
醫卜	-11.7434
歌舞	-11.7435
誘慕	-11.7436
浸潤	-11.7436
扶摇	-11.7436
勁弩	-11.7436
譬之猶	-11.7437
曰吾平生	-11.7437
夙夜	-11.7437
莫肯	-11.7438
軋	-11.7438
震霆	-11.7438
四海之外	-11.7438
貞蟲	-11.7438
者有間其	-11.7439
有道之主	-11.7439
淇	-11.7439
百四十有四	-11.7439
糊	-11.7439
瞳	-11.7439
遊魂	-11.7439
知杭州	-11.7439
悔吝	-11.744
恭儉	-11.744
療治	-11.744
仇由	-11.744
鼓刀	-11.7441
險隘	-11.7441
凉風至	-11.7442
滿堂	-11.7442
淊	-11.7442
瓦石	-11.7442
垂拱	-11.7442
徐徐	-11.7442
雍州	-11.7442
伐蜀	-11.7443
有是理	-11.7444
鯤	-11.7444
銛	-11.7445
掩襲	-11.7445
文繡	-11.7445
恁地	-11.7445
而未可謂	-11.7445
魄魄	-11.7446
得民心	-11.7446
猛虎	-11.7446
數百歲	-11.7447
掉	-11.7447
遺冠	-11.7447
休咎	-11.7448
英逸	-11.7449
黎庶	-11.7449
千鈞	-11.7449
指掌	-11.745
白銀	-11.745
名山大川	-11.7451
狀貌	-11.7451
曾參	-11.7451
季冬	-11.7452
軍争之法	-11.7452
巢穴	-11.7454
鄉導	-11.7454
昇仙	-11.7454
些子	-11.7454
雷澤	-11.7455
能如是乎	-11.7456
忽怳	-11.7457
白圭	-11.7457
支解	-11.7457
三牲	-11.7457
當日之晝君子	-11.7458
誰敢	-11.7458
象箸	-11.7458
胎息	-11.7459
筋力	-11.7459
堅冰	-11.746
疲勞	-11.746
或可爲	-11.746
百揆	-11.7461
爲進人	-11.7462
鳴條	-11.7463
國語曰	-11.7463
魚鱗	-11.7463
堯典	-11.7463
宿衛	-11.7464
五岳	-11.7464
神三人	-11.7465
之靈曰	-11.7465
雷雨	-11.7466
萬品	-11.7466
陰中陰	-11.7467
徐州	-11.7467
采色	-11.7468
絶祀	-11.7469
萬仞	-11.7469
君臣之義	-11.7469
契丹	-11.7469
鄉里	-11.7469
圖籍	-11.747
巧僞	-11.7471
字今從諸家	-11.7471
之所由來	-11.7472
柔剛	-11.7472
博涉	-11.7473
不少矣	-11.7474
貌王曰	-11.7476
側室	-11.7477
躬親	-11.7477
魏闕	-11.7477
楊素	-11.7478
□□	-11.7478
響應	-11.7479
斤兩	-11.748
玄默	-11.7481
徒步	-11.7481
輕侮	-11.7482
晋侯	-11.7483
太淵	-11.7483
恩澤	-11.7485
肉刑	-11.7486
無所依	-11.7486
犬馬	-11.7487
浮游	-11.7487
並興	-11.7487
馳車	-11.7487
十五年	-11.7487
最靈	-11.7488
感恩	-11.7488
寒温	-11.7488
行夏令則	-11.7489
武丁	-11.7489
大慚	-11.749
莊子曰	-11.749
鄒君	-11.749
門閭	-11.7492
雲臺	-11.7492
小暑	-11.7493
讃曰	-11.7494
五斤	-11.7495
親舊	-11.7497
勁風	-11.7497
湛然	-11.7497
捨去	-11.7498
逐走	-11.7499
諸佛	-11.75
處暑	-11.75
陳蔡	-11.7501
高樓	-11.7502
推步	-11.7502
來侍	-11.7503
做得	-11.7504
小雪	-11.7504
慨然	-11.7504
火燒	-11.7505
濟濟	-11.7507
補過	-11.7508
戊已	-11.7508
隱顯	-11.7508
分毫	-11.7509
隱蔽	-11.7509
被衣	-11.7512
副使	-11.7512
幽州	-11.7513
結草	-11.7514
而不變者	-11.7519
輕騎	-11.752
枉直	-11.752
口吐	-11.752
誑事	-11.752
數輩	-11.752
天文志	-11.7524
機權	-11.7524
無所不通	-11.7525
無朕	-11.7526
東胡	-11.7527
無所畏	-11.7528
釜中	-11.753
巽坎	-11.7531
師友	-11.7534
范小宋本	-11.7534
美談	-11.7537
朝鮮	-11.7539
申子曰	-11.754
教授	-11.7541
師延	-11.7541
章華	-11.7541
枯木	-11.7542
郡守	-11.7544
昔劉	-11.7544
布散	-11.7547
盛滿	-11.7547
不得長生	-11.7547
數十年	-11.7548
豈況	-11.7548
必隨之	-11.7549
炳然	-11.755
垂象	-11.7551
寳玉	-11.7551
孝己	-11.7552
各半	-11.7552
閏數	-11.756
散而爲	-11.7567
二叔	-11.7567
殘害	-11.7567
無垠	-11.7568
居西北	-11.757
偃王	-11.757
以戰則	-11.757
二十分	-11.7571
其旨	-11.7571
聚而爲	-11.7571
寓言	-11.7578
不死之道	-11.7579
紫宫	-11.758
要約	-11.7589
同死生	-11.7597
復蘇	-11.7597
成銀	-11.761
精妙	-11.7611
三萬里	-11.7613
如水之	-11.7614
附己	-11.7623
四爲下禄而當晝君子	-11.7632
不强必	-11.7647
不謀而	-11.7662
與人同	-11.7668
聞雷霆	-11.7682
忽有一	-11.7683
〇張預曰士卒	-11.7698
殺生之	-11.7701
以子爲	-11.7709
人臣之所	-11.7709
是以明主	-11.771
氣禀	-11.7742
舉兵伐	-11.7747
便可見	-11.7756
耶賛曰	-11.7769
接刃	-11.7772
者義也	-11.7776
物之情	-11.778
憂患	-11.7783
初爻	-11.7794
骨髓	-11.7812
所撰	-11.7831
亦不可得	-11.7835
千千	-11.7853
六卿	-11.7857
謂之狂	-11.7876
未兆	-11.7902
地吾將	-11.7991
千息	-11.7993
何肯	-11.7998
四十日	-11.8
氣以生	-11.8046
苟非其	-11.8114
無害子	-11.8133
卒伍	-11.8157
徃徃	-11.8157
第九	-11.8207
建丑	-11.8229
建寅	-11.8255
萬斛	-11.8299
聚徒	-11.8313
冠帶	-11.8404
昔李	-11.8448
設醮	-11.8455
戰而勝	-11.8485
亂之道也	-11.8486
也是故子墨子曰	-11.8506
明主弗	-11.8517
斗魁	-11.854
乎又不聞	-11.8658
國之政	-11.8696
察其所	-11.8728
饗士	-11.888
讃	-11.8888
猒	-11.892
中行氏	-11.8933
待賢	-11.8938
沌	-11.8949
子圉	-11.8959
受其殃	-11.8989
㩣	-11.9016
相加而爲	-11.9022
經十卷	-11.9026
以僞雜眞	-11.9028
諜	-11.9035
莎	-11.9037
僂	-11.9041
簇	-11.9042
吴蚣	-11.9043
無所措其	-11.9044
祝史	-11.9045
孥	-11.9045
棓	-11.9046
耕柱子	-11.9047
㬆	-11.9048
嶁	-11.9048
春木王	-11.9049
烝	-11.905
扁扁	-11.905
剗	-11.9051
踤	-11.9052
雩	-11.9052
興利除害	-11.9052
墝	-11.9053
朏	-11.9053
狶	-11.9053
亦所以生	-11.9053
敞	-11.9054
而折之者乎	-11.9054
飭	-11.9056
椒	-11.9056
鳥喙	-11.9057
嫡	-11.9057
芝圖	-11.9057
頑嚚	-11.9058
老嫗	-11.9058
因糧於敵	-11.9058
篆	-11.9058
蘖	-11.9058
黄石公素書	-11.9058
个	-11.9058
𢡖	-11.9059
胝	-11.9059
沅	-11.9059
逆旅	-11.9059
姧	-11.9059
𥿄	-11.906
鋌	-11.906
牘	-11.906
也其得道以	-11.906
尹文曰	-11.906
哆	-11.906
迭為消長	-11.9061
得五便成	-11.9061
吴王闔閭	-11.9061
熲	-11.9061
六十律	-11.9062
喘	-11.9062
閈	-11.9062
劃	-11.9062
杳	-11.9062
從間道	-11.9063
陰陽老少	-11.9063
隠	-11.9063
百步之外	-11.9063
薈	-11.9063
秋毫之末	-11.9063
腕	-11.9063
上爲真人	-11.9063
胃管中	-11.9063
掎角	-11.9064
殤	-11.9064
侵漁	-11.9064
軟	-11.9064
六陰六陽	-11.9064
羶	-11.9064
胃昴畢	-11.9064
嫉妬	-11.9065
萬有一千五百二十	-11.9065
慿	-11.9065
畎	-11.9065
鎭	-11.9065
怡顔	-11.9065
閤	-11.9066
不旋踵	-11.9066
絺	-11.9066
居四正	-11.9066
島	-11.9066
緊	-11.9066
廣三尺	-11.9066
眉睫	-11.9066
㐜	-11.9066
鉒	-11.9066
互藏其宅	-11.9067
㳙	-11.9067
胔	-11.9067
動於九天之上	-11.9067
層	-11.9067
有虞氏	-11.9067
以炁禁	-11.9067
師聖眞仙	-11.9067
堯舜禹湯	-11.9067
滄	-11.9067
端起乎此	-11.9068
簮	-11.9068
撝	-11.9068
爲炮烙	-11.9068
霹	-11.9068
六一泥	-11.9068
今從范小宋本	-11.9068
劬	-11.9068
蒼梧	-11.9068
嗚	-11.9069
悦	-11.9069
松柏	-11.9069
腫	-11.9069
如彈丸	-11.9069
衰絰	-11.9069
天人之際	-11.9069
蔂	-11.9069
橘	-11.907
庠	-11.907
衘	-11.907
愽	-11.907
歲月日時	-11.907
三陽三陰	-11.907
姑置勿論	-11.907
擐	-11.907
複	-11.907
歲而周天	-11.907
計算	-11.907
慰諭	-11.9071
揵	-11.9071
仿	-11.9071
剞	-11.9071
右个	-11.9071
等級	-11.9071
鋪	-11.9071
埏	-11.9071
撚	-11.9071
無所往則	-11.9071
鼉	-11.9072
扆	-11.9072
赨	-11.9072
夢寐	-11.9072
漲	-11.9072
臠	-11.9072
血塗一丸	-11.9072
銑	-11.9072
吾以此知	-11.9072
子午卯酉	-11.9073
忉	-11.9073
迅雷	-11.9073
夾脊	-11.9073
物之初生	-11.9073
攜	-11.9073
陽侯之波	-11.9073
之極逢禍之窮	-11.9073
媾	-11.9074
六合之内	-11.9074
斧斤	-11.9074
馭	-11.9074
蚋	-11.9074
懈惰	-11.9074
良馬固車	-11.9074
自南而北	-11.9074
蔀	-11.9074
螻蟻	-11.9074
絲竹	-11.9074
秦西巴	-11.9075
遶	-11.9075
蔬食	-11.9075
剱	-11.9075
咄	-11.9075
狡兔	-11.9075
莧	-11.9075
伊闕	-11.9075
疊	-11.9075
鮑魚	-11.9075
夷貉	-11.9075
田單守即墨	-11.9075
亡者神識	-11.9075
悾	-11.9075
彗孛	-11.9075
侃	-11.9076
剄	-11.9076
袁紹	-11.9076
初而失位當夜	-11.9076
倩	-11.9076
搶	-11.9076
大衍之數	-11.9076
栅	-11.9076
蘿	-11.9076
缻	-11.9076
虹蜺	-11.9076
韓康子	-11.9076
腥	-11.9076
五絃之琴	-11.9077
鷹隼	-11.9077
二千五百	-11.9077
極而失位當夜	-11.9077
驪姬	-11.9077
不量力	-11.9077
攻其所必救	-11.9077
顛頡	-11.9077
𨃨	-11.9077
喧	-11.9077
延卿	-11.9077
與物接	-11.9077
擠	-11.9078
鑊	-11.9078
映	-11.9078
欵	-11.9078
豈不悖哉	-11.9078
鍜	-11.9078
龔	-11.9078
奈何鶡冠子曰	-11.9078
管蔡	-11.9079
瘦	-11.9079
翰林學士	-11.9079
房中之術	-11.9079
抒	-11.9079
漳	-11.9079
秆	-11.9079
摸	-11.9079
潞公	-11.908
誚	-11.908
址	-11.908
塵垢	-11.908
皇天上帝太上道君	-11.908
腥穢	-11.908
隽	-11.908
喪息浪切	-11.908
廅	-11.908
鷺	-11.908
入敵境	-11.908
七十萬家	-11.9081
蝱	-11.9081
間其君臣	-11.9081
騶虞	-11.9081
珮	-11.9081
風縱火	-11.9081
祧	-11.9081
邢	-11.9081
陳安世	-11.9081
慰	-11.9081
噫	-11.9082
炫	-11.9082
便利之地	-11.9082
管晏	-11.9082
麛	-11.9082
嘬	-11.9082
菖蒲	-11.9082
迄	-11.9082
劵	-11.9082
豁然	-11.9082
爲政若此	-11.9082
斟	-11.9082
衛嗣君	-11.9083
繪	-11.9083
低眉	-11.9083
栽	-11.9083
篋	-11.9083
倣	-11.9083
破之必矣	-11.9083
誾	-11.9083
僵	-11.9083
張忠定	-11.9083
願陛下	-11.9083
嶢	-11.9083
樽俎	-11.9083
鄭縣人	-11.9083
鄶	-11.9083
陀	-11.9083
玷	-11.9083
酤酒	-11.9083
狗犬	-11.9083
所行之事	-11.9083
瞋目	-11.9083
癸亥	-11.9083
帷幕	-11.9084
死託祀於	-11.9084
滎陽	-11.9084
騮	-11.9084
狠戾自用	-11.9084
弘農	-11.9084
犒	-11.9084
明庶風	-11.9084
流涕	-11.9084
驚駭	-11.9084
犴	-11.9084
礬石	-11.9084
闞	-11.9084
趙普	-11.9084
黄鍾之律	-11.9084
漱	-11.9084
百四十四	-11.9084
霓	-11.9085
泣涕	-11.9085
巫咸	-11.9085
焚燒	-11.9085
陽之盛也	-11.9085
必有奇伏	-11.9085
各得其宜	-11.9085
掌握	-11.9085
叡	-11.9085
圎	-11.9085
成形名爲	-11.9085
茨	-11.9086
攢	-11.9086
鬯	-11.9086
擘	-11.9086
有道之國	-11.9086
鉏	-11.9086
毫芒	-11.9086
鄭司農	-11.9086
太昊	-11.9086
揀	-11.9086
糺	-11.9086
脫兔	-11.9086
忌諱	-11.9087
絫	-11.9087
𣗳	-11.9087
乙丑	-11.9087
艮兌	-11.9087
肝肺	-11.9087
媿	-11.9087
沔	-11.9087
網羅	-11.9087
負笈	-11.9087
隊伍	-11.9087
玄㝠	-11.9088
〇何氏同杜牧註〇張預曰	-11.9088
叔瞻	-11.9088
根勘	-11.9088
仲尼聞之曰	-11.9088
粢	-11.9088
設奇伏	-11.9088
許諾	-11.9088
奬	-11.9088
杜預	-11.9088
有生地一	-11.9088
霜露	-11.9088
涵養	-11.9089
鞫	-11.9089
堯舜湯武	-11.9089
或人難曰	-11.9089
穩	-11.9089
文潞公	-11.9089
景行道受仙	-11.9089
和氏之璧	-11.9089
惜其莫悟	-11.9089
拜樞宻	-11.9089
狩	-11.9089
毫髮	-11.9089
田鳩	-11.9089
不能與之爭	-11.9089
伍員	-11.9089
窴	-11.9089
蛩	-11.9089
趙簡主	-11.9089
孜孜	-11.9089
潛	-11.9089
狂矞	-11.9089
隂陽升降	-11.9089
𥚑	-11.9089
椀	-11.909
痾	-11.909
宫之奇	-11.909
蝨	-11.909
先薦寢廟	-11.909
邵康節	-11.9091
於胷中	-11.9091
潢洿	-11.9091
倏忽	-11.9091
磐石	-11.9091
蘇代	-11.9091
陰生午	-11.9091
栝	-11.9091
綣	-11.9091
螫毒	-11.9091
祀竈	-11.9092
樗	-11.9092
聆	-11.9092
匣	-11.9092
草莽	-11.9092
太卜	-11.9092
晏子對曰	-11.9092
頼	-11.9093
蒯	-11.9093
綱紀	-11.9093
迸	-11.9093
聿	-11.9093
詮言	-11.9093
湣王	-11.9093
甬	-11.9093
枋	-11.9093
騷	-11.9093
鴆	-11.9093
炮	-11.9093
躆	-11.9093
斗牽牛	-11.9093
簞	-11.9093
焰	-11.9094
含笑	-11.9094
穿窬	-11.9094
訛	-11.9094
尟	-11.9094
拯濟	-11.9095
苑囿	-11.9095
啼	-11.9095
涼	-11.9095
申酉	-11.9095
紹宗	-11.9095
悵然	-11.9095
超脫	-11.9095
商賈	-11.9096
蝦蟇	-11.9096
地祇	-11.9096
王子閭	-11.9096
濘	-11.9096
鰥	-11.9097
胞胎	-11.9097
葺	-11.9097
搗	-11.9097
伊摯	-11.9097
冰霜	-11.9097
屩	-11.9097
故能成其	-11.9097
虞虢	-11.9097
雝	-11.9097
雪霜	-11.9097
自外來	-11.9098
寂然不動	-11.9098
佼	-11.9098
農桑	-11.9098
側匿	-11.9098
如此者身危	-11.9098
所以然者何也	-11.9098
讜	-11.9098
吾之宗君	-11.9098
洪濤	-11.9099
譚	-11.9099
撥亂	-11.9099
膏壤	-11.9099
暐	-11.9099
茸	-11.9099
離卦採藥	-11.9099
葬埋	-11.9099
履踐	-11.9099
氷雪	-11.9099
篙	-11.9099
翺	-11.91
兩浙	-11.91
藿	-11.91
宇宙之間	-11.91
篨	-11.91
陽以陰為	-11.91
仲虺	-11.91
有許多	-11.91
今從宋陸王本王曰	-11.91
減筭	-11.91
不朽之	-11.9101
忍痛	-11.9101
纑	-11.9101
鸛	-11.9101
敖倉	-11.9101
功炁君奏事	-11.9101
孔安國	-11.9101
棄輜重	-11.9101
飢餓	-11.9102
振翅	-11.9102
糝	-11.9102
用此術	-11.9102
辰戌	-11.9103
蝦	-11.9103
厚賂	-11.9103
足躡	-11.9103
澀	-11.9103
釣魚	-11.9103
絶澗	-11.9103
殳	-11.9104
瓦礫	-11.9104
斥鹵	-11.9104
虞舜	-11.9105
絶糧道	-11.9105
遨	-11.9105
糵	-11.9106
唇	-11.9106
字之誤	-11.9106
以三二因	-11.9106
歷覽	-11.9106
次則石	-11.9107
楞嚴	-11.9107
橢	-11.9107
鍾鼎	-11.9107
陰陽消長	-11.9107
齊威王	-11.9108
窮理盡性	-11.9108
晝寢	-11.9109
鴞	-11.9109
太倉	-11.9109
枅	-11.9109
則入多	-11.9109
上中下	-11.911
劉牧	-11.911
隙穴	-11.911
錙	-11.9111
王喬	-11.9111
嘉穀	-11.9111
塊然	-11.9112
旗鼓	-11.9112
唯聖人能	-11.9112
萊公	-11.9113
撮壤	-11.9113
吕牙	-11.9113
精絜	-11.9113
林甫	-11.9113
驅馳	-11.9114
劫殺之	-11.9114
州部	-11.9114
糴	-11.9114
巍	-11.9114
天有四時	-11.9114
震雷	-11.9114
陰陽剛柔	-11.9114
奇怪	-11.9114
典籍	-11.9115
隰子	-11.9115
火炊之	-11.9116
一人之身	-11.9116
汲引	-11.9117
豈肯	-11.9117
競逐	-11.9117
隱匿	-11.9117
棄捐	-11.9117
魯昭公	-11.9118
昊天	-11.9118
章句	-11.9118
太極本無極	-11.9118
慶雲	-11.9119
禍莫大於	-11.9119
朱輪	-11.9119
淮隂	-11.912
果毅	-11.912
耗散	-11.912
藉車	-11.912
重幣	-11.912
屋漏	-11.9121
吐納	-11.9121
寔	-11.9121
光謂二爲思中而當晝君子	-11.9121
心不專	-11.9122
陰陽二氣	-11.9122
北狄	-11.9122
狂惑	-11.9122
淫祀	-11.9122
不堪命	-11.9123
城薛	-11.9123
辟穀	-11.9123
黄眉	-11.9123
覆巢	-11.9124
各居其	-11.9125
桑林	-11.9125
發憤	-11.9126
者生於庶	-11.9126
元之元	-11.9127
玉杯	-11.9127
李兌	-11.9127
含章	-11.9128
陵遲	-11.9128
傾側	-11.9128
游吉	-11.9128
知成都	-11.9128
羅漢	-11.9129
邈世之	-11.913
機祥	-11.913
者何也以其	-11.913
朝露	-11.913
羲和	-11.913
治國之道	-11.913
田宅	-11.913
掇禍	-11.913
魯周公	-11.9131
獄具	-11.9133
講說	-11.9133
壽考	-11.9133
使人問之	-11.9134
寒露	-11.9134
嫁女	-11.9134
巢許	-11.9135
人所共	-11.9135
跀危	-11.9136
第十七	-11.9136
陽中之陰	-11.9137
面墻	-11.9137
衣紫	-11.9138
以自代	-11.9138
州牧	-11.9138
權柄	-11.9138
也故明君	-11.9138
各當其	-11.9139
病痛	-11.9139
切齒	-11.914
山峙	-11.9141
郈	-11.9145
稽首	-11.9145
升堂	-11.9146
紫房宫	-11.9148
靡草	-11.9148
上下不相	-11.9148
懷其德	-11.9148
以五乘	-11.9152
高枕	-11.9152
孫吴	-11.9152
孔孟	-11.9152
設詐	-11.9153
貢士	-11.9153
加減	-11.9154
勒兵	-11.9154
腹背	-11.9161
陽生於子	-11.9162
勃然	-11.9166
語默	-11.9169
杜伯	-11.9169
不免於亂	-11.9173
太史公	-11.9174
誅戮	-11.9191
恭己	-11.9193
猶愈於	-11.9195
者寡矣	-11.9196
一介之	-11.9198
則主失	-11.9199
百歳	-11.92
通其變	-11.9201
所聞見	-11.9213
者宜以	-11.9214
隂氣勝	-11.9217
以賤爲	-11.9233
若之何	-11.9239
愛其親	-11.9255
凍餓	-11.9275
爵穴	-11.9295
危之道也	-11.9299
也何以知其然	-11.9302
憂尋	-11.9302
投井	-11.9306
二十六日	-11.9316
公曰然則	-11.9341
二百七十	-11.9342
無求於	-11.935
人同心	-11.9352
九地篇	-11.937
光謂一爲思始而當晝	-11.9457
赦罪	-11.9521
長二尺	-11.9536
無益於治	-11.9543
人理之	-11.9577
彌久	-11.9595
陽中陰	-11.9635
源流	-11.9675
者何哉	-11.9684
鑠金	-11.9728
貌光謂	-11.9942
十斛	-11.9958
知所避	-12.0025
鄭注	-12.0102
爲思始而當夜小人	-12.0147
無爲曰吾知道	-12.0216
十有四	-12.0303
寒暑晝夜	-12.0479
也光謂四爲下禄	-12.0767
未之有也	-12.0865
隰	-12.0978
尉繚子	-12.0984
三十步	-12.1001
經五卷	-12.1007
罦	-12.1014
施所得福報世世	-12.1014
竅通於	-12.1015
北斗七真	-12.1015
謂人乏食	-12.1015
檝	-12.1017
嚌	-12.1023
二爲思中而當晝	-12.1027
鎖	-12.1028
大二圍	-12.1028
柩	-12.1029
飫	-12.1029
黄黑馬	-12.103
秃頭	-12.1031
厦	-12.1032
讙兜	-12.1033
嗄	-12.1037
奰	-12.1037
背水陳	-12.104
黯	-12.104
籧	-12.1041
𪃿	-12.1042
殥	-12.1042
嫫	-12.1044
嘷	-12.1044
田駢	-12.1044
從官三千六百人	-12.1044
禁錮	-12.1047
雚	-12.1047
非其難者也	-12.1047
孺	-12.1047
生生不窮	-12.1048
樗里疾	-12.1048
動而生陽	-12.1049
鄢	-12.1049
趣經云	-12.105
一三七九	-12.105
敺	-12.105
灌民田	-12.1051
砭	-12.1052
羈旅	-12.1052
頏	-12.1052
秃	-12.1052
墉	-12.1053
俓	-12.1053
劇辛	-12.1053
東井輿鬼	-12.1054
兩儀四象八卦	-12.1054
嚘	-12.1054
以曲爲直	-12.1054
墠	-12.1054
湣	-12.1054
政令不一	-12.1055
徳	-12.1055
善爲政者	-12.1055
樞紐	-12.1055
噣	-12.1055
虎賁	-12.1055
鞍	-12.1055
涕泣	-12.1056
鷰	-12.1056
七爲敗損而當夜	-12.1056
龐子問鶡冠子曰	-12.1056
不欺暗室	-12.1056
用事火煙	-12.1056
險阨遠近	-12.1056
骸骨	-12.1057
西益宅	-12.1057
桎	-12.1058
王子比干	-12.1058
笛	-12.1058
曼卿	-12.1058
木火土金水	-12.1058
狷華	-12.1058
舩	-12.1058
醲	-12.1058
其竅上通於	-12.1058
蜺	-12.1059
兔絲	-12.106
梲	-12.106
籩	-12.106
逞志作威	-12.106
三千六百	-12.106
也三爲思上	-12.106
也光謂七爲	-12.106
因暝目念	-12.106
陰家水準	-12.1061
也二爲思中而當夜小人	-12.1061
渥	-12.1061
合軍聚衆	-12.1061
已之私	-12.1061
王曰六居盛位	-12.1061
與此異矣	-12.1061
蛇蝮	-12.1061
南極老人元光	-12.1061
崤	-12.1061
自姤至坤	-12.1062
當如何哉賛曰	-12.1062
泠	-12.1062
黠	-12.1062
蘢	-12.1062
消息盈虚	-12.1062
馮翊	-12.1062
周而復始	-12.1062
葭葦	-12.1062
俄見一	-12.1062
狧	-12.1062
袀	-12.1062
鏩	-12.1062
叫	-12.1062
琅	-12.1063
嗔	-12.1063
天一地二	-12.1063
梳	-12.1063
公子糾	-12.1063
正月建寅	-12.1063
其後官至	-12.1063
言得之者	-12.1063
抱朴子詰曰	-12.1063
擏	-12.1063
長九分思之亦長三寸	-12.1063
晽	-12.1064
灸	-12.1064
夫槩王	-12.1064
怵惕	-12.1064
噞	-12.1064
嵇	-12.1064
摐	-12.1064
聆聆	-12.1064
幟到	-12.1064
勞而無功	-12.1065
亂之所由生	-12.1065
殂	-12.1065
蓬萊	-12.1065
玉液煉形	-12.1065
綰	-12.1065
蚈	-12.1065
趙康靖	-12.1065
也一爲思始而當晝君子	-12.1065
伊餘	-12.1065
觡	-12.1065
財自足	-12.1065
着	-12.1066
軀殻	-12.1066
幘	-12.1066
雿	-12.1066
七宿君主攝者可解	-12.1066
俞跗	-12.1066
氏同杜牧註	-12.1066
魯陽文君	-12.1067
酗	-12.1067
出於不意	-12.1067
塉	-12.1067
殲	-12.1067
綆	-12.1067
儡	-12.1067
左右執事之臣	-12.1067
庭式	-12.1067
百三十五分	-12.1067
於胸中	-12.1067
晦朔弦望	-12.1068
一切衆生	-12.1068
元亨利貞	-12.1068
豨	-12.1068
冽	-12.1068
歳月日時上三命刑害之災	-12.1068
盧多遜	-12.1068
㓂萊公	-12.1069
摺	-12.1069
在世時	-12.1069
黽	-12.1069
褚	-12.1069
孰大焉	-12.1069
天皇大帝	-12.1069
凊	-12.1069
禰	-12.1069
櫓大楯也	-12.1069
受恩不感	-12.1069
孫子註觧卷之	-12.1069
廣四尺	-12.1069
綱領	-12.1069
諝	-12.1069
幽冀謂之	-12.1069
礜	-12.1069
馳騖	-12.107
琬琰	-12.107
筌蹄	-12.107
絝	-12.107
蘧伯玉	-12.107
五色珠衣	-12.107
湍瀨	-12.107
悮	-12.107
蹋	-12.107
東坡	-12.107
丁丑	-12.107
攘臂	-12.107
斬首之功	-12.107
桅	-12.107
乾餱	-12.107
坡	-12.1071
俳	-12.1071
鏌邪	-12.1071
孱	-12.1071
姙	-12.1071
知制誥	-12.1071
不失敵之敗	-12.1071
揫	-12.1071
昳	-12.1071
燐	-12.1071
舉兵而伐	-12.1071
𩲸	-12.1071
之民也而世少之曰	-12.1071
咽喉	-12.1071
堅脆	-12.1071
害之炁可以辟斥	-12.1071
窠	-12.1071
鏻	-12.1071
𥢕	-12.1071
雞犬	-12.1072
伯夷叔齊	-12.1072
蒐	-12.1072
暨	-12.1072
各隨其	-12.1073
是月平旦時中於南方	-12.1073
令吾間	-12.1073
晡	-12.1073
藁	-12.1073
之爪角害之	-12.1073
匈	-12.1073
茶	-12.1073
其虚懈	-12.1074
猗頓	-12.1074
陰家金亦準	-12.1074
伎藝	-12.1074
潁	-12.1074
雷激揚爲電上者就下流水就通而合于	-12.1074
故王子曰	-12.1074
肘後飛金晶	-12.1074
鄆州	-12.1075
頒	-12.1075
取象於	-12.1075
其鋒不可當	-12.1075
摘	-12.1075
痺	-12.1075
終南山	-12.1075
被攝至	-12.1075
贓	-12.1075
摩羅	-12.1075
攝提格	-12.1075
滿而不溢	-12.1075
爲虚誕	-12.1075
緬邈	-12.1075
轉禍爲福	-12.1075
㓪	-12.1075
三咽之	-12.1075
不得次已而爲正有	-12.1075
太白辰星	-12.1075
嬈	-12.1075
杚	-12.1075
根柢	-12.1075
葈	-12.1075
樓樓	-12.1075
諄	-12.1076
脣吻	-12.1076
也王曰失位當夜	-12.1076
十萬之師	-12.1076
稚川	-12.1076
嘉㫖	-12.1076
杠	-12.1076
鳧	-12.1076
換	-12.1076
與人争利	-12.1076
明月之珠	-12.1076
耳目聦明	-12.1076
跬	-12.1076
一陰一陽之謂道	-12.1076
切又音	-12.1076
尚同爲政	-12.1076
糟糠	-12.1076
臾駢	-12.1076
八萬四千	-12.1076
炬	-12.1076
窈㝠	-12.1076
雲隂陽相薄爲	-12.1076
鷄鳴時	-12.1076
頴	-12.1076
六爲盛多	-12.1077
似是而非	-12.1077
雜糅	-12.1077
卹	-12.1077
噉	-12.1077
㸃檢	-12.1077
堆	-12.1077
堊	-12.1077
劉歆	-12.1077
梅伯	-12.1077
終其壽	-12.1077
袤	-12.1077
廊廟	-12.1077
杲	-12.1077
蜂蠆	-12.1077
先人有奪人之心	-12.1077
龍入藏生	-12.1077
餗	-12.1077
胄	-12.1077
臟	-12.1077
綺紈	-12.1078
欄	-12.1078
終則有始	-12.1078
陞	-12.1078
鴟梟	-12.1078
則同其所以	-12.1078
壍	-12.1078
癩	-12.1078
紫微宫	-12.1078
蜓	-12.1078
壠	-12.1078
秦始皇	-12.1078
鬬	-12.1078
抃	-12.1078
泉之埃上爲	-12.1078
甲盾五兵	-12.1078
縳	-12.1078
聶	-12.1079
料敵制勝	-12.1079
楗	-12.1079
蓽	-12.1079
蹐	-12.1079
韋孝寬	-12.1079
餕	-12.1079
髯	-12.1079
伐樹木	-12.1079
孀	-12.1079
德王天下號	-12.1079
怱	-12.1079
疆場	-12.1079
碬	-12.1079
膂	-12.1079
荻	-12.1079
迵	-12.1079
挻	-12.1079
駱	-12.108
傒	-12.108
日月交會	-12.108
閙	-12.108
狼籍	-12.108
知無不爲	-12.108
迂其途	-12.108
作佛事	-12.108
寅申巳亥	-12.108
瀾	-12.108
鑱	-12.108
鷂	-12.108
四六二十四	-12.108
圖書之數	-12.108
席蓐	-12.108
繦	-12.108
受之天真	-12.108
柰	-12.108
雪霜雨露	-12.1081
時中於南方	-12.1081
佗	-12.1081
環堵之	-12.1081
拳	-12.1081
勇者不得獨進怯者不得獨退	-12.1081
故古聖王	-12.1081
蹊徑	-12.1081
人民之衆	-12.1081
介甫	-12.1081
六十甲子	-12.1081
瓢	-12.1081
發號施令	-12.1081
荀卿	-12.1081
薏	-12.1081
黥布	-12.1081
丘阜	-12.1081
氣上騰	-12.1081
短近也	-12.1081
閨門	-12.1081
書之竹帛	-12.1082
搢	-12.1082
九十一度	-12.1082
盍	-12.1082
潤濕	-12.1082
行乎其中	-12.1082
籌筭	-12.1082
此遁於	-12.1082
𧇊	-12.1082
先據北山	-12.1082
賕	-12.1082
轡銜	-12.1082
之别名也	-12.1082
睽	-12.1082
麋角解	-12.1082
郁	-12.1083
枘	-12.1083
今皆從范本	-12.1083
覬	-12.1083
𢙢	-12.1083
出其所必趨	-12.1083
把握	-12.1083
齋潔	-12.1083
偈	-12.1083
司馬温公	-12.1083
師敗績	-12.1083
毈	-12.1083
瘟疫	-12.1083
來攻我	-12.1083
坱埤	-12.1083
老莊之	-12.1083
其數不勝也	-12.1083
逋逃	-12.1084
陰家木準	-12.1084
屈伸往來	-12.1084
懌	-12.1084
㩖㩖	-12.1084
忣	-12.1084
鴻濛	-12.1084
䟎	-12.1084
吐谷渾	-12.1084
瞥	-12.1084
五為十	-12.1085
茅屋	-12.1085
帝座	-12.1085
因以題篇	-12.1085
穰苴	-12.1085
匏	-12.1085
癸丑	-12.1085
太極動而生陽	-12.1085
三令五申	-12.1085
噎	-12.1085
恬漠	-12.1085
櫛	-12.1085
鴽	-12.1085
以取禍者	-12.1085
愛人利人順天之意得天之賞者	-12.1085
泉源	-12.1085
礛諸	-12.1085
儷	-12.1086
莅	-12.1087
饟	-12.1087
梅堯臣同杜牧註	-12.1087
逄蒙	-12.1087
澮	-12.1087
麞	-12.1087
倒懸	-12.1087
鯨	-12.1087
乾一爻	-12.1087
四爲福始而當晝	-12.1087
痊	-12.1087
矯拂	-12.1087
腯	-12.1087
遐覽	-12.1087
鷁	-12.1087
夏桀殷紂	-12.1087
顧眄	-12.1087
擸	-12.1087
歆	-12.1087
駑蹇	-12.1088
父母妻子	-12.1088
假寐	-12.1088
剡鋒	-12.1088
兾	-12.1088
寰	-12.1088
沓	-12.1088
交趾	-12.1088
九垓	-12.1088
叫呼	-12.1088
居數月	-12.1088
林麓	-12.1088
羽旄	-12.1088
赤奮若	-12.1088
𥚹	-12.1088
煇	-12.1088
老而無妻	-12.1088
轡筴	-12.1088
翊	-12.1088
春秋冬夏	-12.1088
儈	-12.1089
少陰少陽	-12.1089
閒	-12.1089
檢括	-12.1089
淡泊	-12.1089
阬	-12.1089
兆朕	-12.1089
壃	-12.1089
蜾蠃	-12.1089
筵	-12.1089
襟	-12.1089
⬤	-12.1089
幽㝠	-12.1089
線	-12.1089
蹎	-12.1089
輼車	-12.1089
起於中孚	-12.109
蠟	-12.109
賢矣哉	-12.109
農祥	-12.109
諤	-12.109
滉	-12.109
牂	-12.109
言而不當	-12.109
㪍	-12.109
戰而不勝	-12.109
乃下令曰	-12.109
四四一十六	-12.109
柳下惠	-12.109
深入敵境	-12.109
菅	-12.1091
螢燭	-12.1091
甥	-12.1091
箒	-12.1091
虵	-12.1091
司命司	-12.1091
錡	-12.1091
廣成子	-12.1091
訽	-12.1091
醖釀	-12.1092
蠕動	-12.1092
墻之壞	-12.1092
壁壘	-12.1092
赭	-12.1092
一爻二十四	-12.1092
堯舜禹湯文武之道	-12.1092
師問道	-12.1092
瘳	-12.1092
睿	-12.1092
迥	-12.1092
霰	-12.1092
上第二十	-12.1092
精神魂魄	-12.1092
治亂之機	-12.1093
殮	-12.1093
邳	-12.1093
汙穢	-12.1093
常法之外	-12.1093
故古之聖王	-12.1093
洹	-12.1093
緝	-12.1093
遨遊	-12.1093
㘩	-12.1093
鏏	-12.1093
𡛖	-12.1093
十萬之衆	-12.1094
燾	-12.1094
愕	-12.1094
黻	-12.1094
位且當夜	-12.1094
診	-12.1094
叩頭	-12.1094
行住坐卧	-12.1094
與秦人戰	-12.1094
鷃	-12.1095
洙	-12.1095
七日來復	-12.1095
坰	-12.1095
燈燭	-12.1095
鞼	-12.1095
恂	-12.1096
與日會	-12.1096
猨狖	-12.1096
翩	-12.1096
百尋之	-12.1096
聒	-12.1096
蟠龍	-12.1096
布衣之士	-12.1096
有自來矣	-12.1096
安危治亂	-12.1097
黧	-12.1097
騏騄	-12.1097
蓐收	-12.1097
弊袴	-12.1097
潼關	-12.1097
詡	-12.1097
孔竅	-12.1097
惶恐	-12.1097
之氣與液也	-12.1097
皓首	-12.1097
螟蛉	-12.1097
邅回	-12.1097
悸	-12.1098
櫨	-12.1098
蝸	-12.1098
鷹鸇之	-12.1098
窖	-12.1098
搢笏	-12.1099
世俗之君子	-12.11
漆雕	-12.11
冒頓	-12.11
設留形而遁	-12.11
雅頌	-12.11
媵	-12.1101
日用而不知	-12.1101
因名其	-12.1101
曰若何而	-12.1101
瘧	-12.1101
聖人知其所	-12.1101
榭	-12.1101
耦耕	-12.1102
貊	-12.1102
今從宋陸范本王曰	-12.1102
聵	-12.1102
犧性	-12.1102
殃咎	-12.1102
陰勝陽	-12.1102
非雞也	-12.1102
後人發先人至	-12.1102
斗秤	-12.1102
方州部家	-12.1102
爲隂比	-12.1102
凡有幾	-12.1103
鴦	-12.1103
跙跙	-12.1103
朋黨比周	-12.1103
辛癸	-12.1103
周天三百六十五度四分度之一	-12.1104
觟	-12.1104
怯懦	-12.1104
痕	-12.1104
蹔	-12.1104
迨	-12.1104
斑	-12.1105
以安社稷	-12.1105
褒貶	-12.1105
蹇驢	-12.1105
蒲輪	-12.1105
鋒刃	-12.1105
蹴	-12.1105
喁	-12.1105
莫大乎	-12.1106
松脂	-12.1106
所受於天	-12.1107
鼷	-12.1107
可勝言哉	-12.1107
尼父	-12.1107
歃血	-12.1107
叅伍	-12.1107
莙	-12.1107
不能爲害	-12.1108
么	-12.1108
屈人之兵	-12.1108
郊祀	-12.1108
祖述	-12.1108
荆軻	-12.1108
前軰	-12.1108
百餘里	-12.1108
筥	-12.1108
障塞	-12.1108
氣使入	-12.1109
唤	-12.1109
鬼神之情狀	-12.1109
猝	-12.111
剟	-12.1111
飛金晶入腦	-12.1111
磧	-12.1111
洞徹	-12.1111
不知大道之	-12.1112
癰	-12.1112
嘉遁	-12.1112
句芒	-12.1112
此善爲	-12.1113
鼇	-12.1113
瓊瑶	-12.1114
磋	-12.1114
狐偃	-12.1114
拔萃之	-12.1115
何不試	-12.1116
娠	-12.1118
眞淨明妙虚徹靈通	-12.1118
山石室中	-12.1118
頟	-12.1119
日與月	-12.112
叔卿	-12.1121
此所以亂也	-12.1123
尺二寸	-12.1124
目耳鼻口	-12.1124
巫馬期	-12.1124
佴	-12.1125
詩三百	-12.1125
六日七分之說	-12.1129
左右近習	-12.1129
騁逸	-12.113
光謂二爲思中而當晝	-12.1132
陰中陽	-12.1134
洶	-12.1134
穀不收謂之	-12.1134
氏之儒有	-12.1141
有道之世	-12.1142
舟檝	-12.1146
蟲三百有六十	-12.1149
曰晋陽之	-12.1163
而告之曰	-12.1173
諮問	-12.1174
反受其殃	-12.1175
臣不謂	-12.1181
之符或	-12.1195
有一定之	-12.1196
不知其所由	-12.1212
敵而取勝	-12.1218
范中行	-12.1278
得道之聖	-12.1302
題篇	-12.132
能全其	-12.1358
所謂天者	-12.1359
子母之	-12.1368
之謂歟	-12.1419
能爲之者	-12.1435
窈冥	-12.1448
地也梅堯臣曰	-12.1638
無不成也	-12.1644
晝夜不息	-12.1745
光謂七爲禍始而當晝	-12.1795
所失者	-12.1879
加五為	-12.1965
静而生陰	-12.2167
四爲下禄而當	-12.2279
禺	-12.2404
時拊心祝	-12.241
十枚	-12.2803
王良造父	-12.2811
燧取火	-12.2832
昔也三代之	-12.3125
行夏令	-12.3425
行秋令	-12.3454
定所白	-12.346
年月日時	-12.3482
五六七八	-12.3494
㒧	-12.3503
憃	-12.3505
羂	-12.3505
須依前行持止於定息爲法而終日靜坐	-12.3511
千五百三十九歲	-12.3512
銷報盡多爲	-12.3512
採取姦利	-12.3514
報盡多爲	-12.3515
坽	-12.3515
燁	-12.3518
詮	-12.352
煒	-12.3521
我能施之使復	-12.3522
箠	-12.3525
芴	-12.3525
灟	-12.3525
西北方曰	-12.3526
長三丈	-12.3526
傰	-12.3526
𠑩	-12.3526
王文正公旦	-12.3529
四千九十六	-12.3529
當自作一類看	-12.3529
今惟毋在乎	-12.353
纉	-12.353
第六十	-12.3532
滒	-12.3534
球	-12.3536
湏	-12.3536
此其分事也	-12.3536
色藥屬	-12.3536
辱人求勝	-12.3537
壓良爲賤	-12.3537
故莫弗以爲	-12.3537
踆	-12.3537
暘	-12.3538
藺	-12.3539
趙充國	-12.3539
一者太極也	-12.3539
訬	-12.3539
不足以治則用	-12.3539
由此觀之則聖人之	-12.3539
矞	-12.3539
困獸猶鬭	-12.354
簾	-12.354
麫	-12.354
喪出母	-12.354
柔勝彊	-12.354
四千六百六十五萬六千	-12.3541
埆	-12.3541
眺	-12.3543
虚誣詐僞	-12.3543
酇	-12.3543
四陰四陽	-12.3544
是夕復夢	-12.3544
秦漢以來	-12.3544
恁	-12.3545
塔	-12.3546
𥅠	-12.3546
以白馬爲有馬	-12.3546
朝晏退聽獄治政	-12.3546
方八天七宿屬	-12.3546
月建焉而辰在	-12.3546
敲	-12.3547
厮役	-12.3547
俶	-12.3547
嚖	-12.3547
椿卿	-12.3547
欶	-12.3547
無繼民	-12.3547
然則我不可不爲義	-12.3547
穌	-12.3547
躟	-12.3547
廣武君	-12.3548
宋曰謂是時	-12.3548
氣是時不可下功也	-12.3548
鈔	-12.3548
禽滑釐	-12.3548
今上舉義不辟	-12.3548
盻	-12.3549
騏驎	-12.355
色自見漸漸升身以入泥丸自	-12.355
嗷	-12.355
依前法	-12.355
日月居中五星緯外	-12.355
彼何人	-12.355
故不敢怠倦今	-12.355
真氣隨天度運而在	-12.3551
渉	-12.3551
知遠近之計	-12.3551
义	-12.3551
紵	-12.3551
亦所不問	-12.3551
硥	-12.3551
天之愛百姓	-12.3551
巒	-12.3551
怠倦者何也曰彼以爲强必	-12.3551
乾坤艮巽	-12.3552
澳	-12.3552
䧺	-12.3552
不徃不來	-12.3553
嘖	-12.3553
帶甲十萬	-12.3553
恢恢	-12.3553
知戰之地	-12.3553
距闉者	-12.3553
醠	-12.3553
三陰三陽	-12.3554
軺	-12.3554
信與伸同	-12.3554
諏訾	-12.3554
伏尸流血	-12.3554
葉公子高	-12.3554
蚩蚩	-12.3554
威加於敵	-12.3555
不可與語	-12.3555
俘	-12.3555
旛	-12.3555
秪	-12.3555
諶	-12.3555
二二而一	-12.3555
人人自戰	-12.3555
循隨也	-12.3555
璇璣	-12.3555
四并之則為	-12.3555
專諸曹劌之勇	-12.3555
禽子再拜再拜曰敢問	-12.3555
裾	-12.3555
一定不易	-12.3557
叶	-12.3557
湔	-12.3557
癢	-12.3557
竭股肱之力	-12.3557
楛	-12.3557
汭	-12.3557
以八節之日	-12.3557
唁	-12.3557
堀	-12.3557
天包地外	-12.3557
惻怛	-12.3557
朶	-12.3557
犠牲	-12.3557
觝	-12.3557
餼	-12.3557
子墨子言曰今天下之	-12.3557
得善人而賞之得暴人而罰之	-12.3557
嚭	-12.3558
鼛	-12.3558
不從令者斬	-12.3558
相為經緯	-12.3558
粱	-12.3558
通天犀	-12.3558
以直爲曲	-12.3558
噐	-12.3558
延陵季子	-12.3558
波濤如山	-12.3558
絭	-12.3558
子干壬子	-12.3558
寃	-12.3559
爲盛多爲極大	-12.3559
飼	-12.3559
浄	-12.3559
興師動衆	-12.3559
逸倫之士	-12.3559
牷	-12.3559
絮	-12.3559
其左股	-12.3559
子干庚子	-12.3559
苣	-12.3559
槨	-12.356
周穆王	-12.3561
眠	-12.3561
言訖不見	-12.3561
樾	-12.3561
燥溼	-12.3561
租稅	-12.3561
之道畢矣	-12.3561
南華所謂	-12.3561
盆盎	-12.3561
囑	-12.3562
李筌曰量力	-12.3562
為上弦	-12.3562
鼔	-12.3562
䏶	-12.3562
桴	-12.3562
東南方曰	-12.3562
泗	-12.3562
無故剪裁	-12.3562
車十乘已上	-12.3562
隮	-12.3562
之中而有太	-12.3562
以實而無愧於	-12.3562
我於來世得	-12.3562
長二丈	-12.3563
槍	-12.3563
奴婢	-12.3564
你	-12.3564
珪璋	-12.3564
授以道要	-12.3564
公羊傳曰	-12.3564
夏后氏之璜	-12.3564
惠王惠王	-12.3564
百八十二度	-12.3564
矇	-12.3564
估	-12.3564
其鬼不神	-12.3564
尾閭穴	-12.3564
萎	-12.3564
躊	-12.3564
闉	-12.3564
鴨	-12.3564
以軍為家	-12.3564
八百四十里	-12.3564
檟	-12.3564
苗裔	-12.3564
方之神名曰	-12.3564
一死之後	-12.3565
受制於	-12.3565
尚爾况	-12.3565
眞武眞君	-12.3565
三千餘人	-12.3565
禋	-12.3565
顚倒	-12.3565
勝敗之政	-12.3565
肇	-12.3565
髣髴	-12.3565
鼙	-12.3565
則夫好攻伐之君	-12.3565
怍	-12.3565
損人器物以窮人用	-12.3565
有扈氏	-12.3565
此則濟人	-12.3565
逑	-12.3565
聃	-12.3565
蠡	-12.3566
𡻕	-12.3566
參天兩地	-12.3566
瀝	-12.3566
兩其十二	-12.3566
縟	-12.3566
舒亶	-12.3566
司馬景王	-12.3566
曹武惠	-12.3566
杌	-12.3566
皋	-12.3566
稟	-12.3566
肋	-12.3566
苟冨者	-12.3566
以私廢公	-12.3566
儃	-12.3566
同舟而濟	-12.3566
姪	-12.3566
方之神女名曰	-12.3566
見者人爲之	-12.3566
銅器中	-12.3566
阼階	-12.3566
以遺後世	-12.3567
魃	-12.3568
謂弟子曰	-12.3568
椁	-12.3568
綦	-12.3568
日就月將	-12.3568
槽	-12.3568
祓	-12.3568
靻	-12.3568
從裏面	-12.3568
還師而去	-12.3568
天地設位	-12.3568
憯	-12.3568
櫂	-12.3568
薔	-12.3568
前後俱起	-12.3568
憍	-12.3568
椓	-12.3568
無欲其寳	-12.3568
自下而升	-12.3568
酢	-12.3568
䪻	-12.3568
中射之士	-12.3568
剛強之剛	-12.3568
戁	-12.3568
萬歩中五災九厄	-12.3568
潞	-12.3569
娉	-12.3569
濊	-12.3569
倏	-12.3569
未顯時	-12.3569
象著明莫大乎日月	-12.3569
圯地無舍	-12.3569
斡	-12.3569
趹	-12.3569
五日一候	-12.3569
有功者必賞	-12.3569
爲殄絶	-12.3569
也謂是時陰氣	-12.3569
館穀於敵	-12.3569
天地生物之心	-12.3569
易牙蒸其首子而進之	-12.3569
盼	-12.3569
退盡本數	-12.3569
鋩	-12.3569
䡖	-12.3569
三百五十四日	-12.3569
符十卷	-12.3569
蔏	-12.3569
蠰	-12.3569
踖	-12.3569
蹇蹇	-12.3569
青腰玉女	-12.3569
光謂三爲成意而	-12.357
肱	-12.357
建子之月	-12.357
朒	-12.357
葷	-12.357
犁	-12.357
棼	-12.357
催	-12.357
其僕曰	-12.357
巇	-12.357
蝎	-12.3571
也一爲思始而當夜小人	-12.3571
口是心非	-12.3571
朼	-12.3571
焉故調以	-12.3571
焚其積聚	-12.3571
物天下盡	-12.3571
蕤	-12.3571
此吾所以知	-12.3571
猗	-12.3571
瀨	-12.3572
上將之道也	-12.3572
中行文子	-12.3572
禾穗	-12.3572
睚	-12.3572
鞭撻	-12.3572
鞶	-12.3572
不亦無術乎	-12.3572
字書無之	-12.3572
枷	-12.3572
立於不敗之地	-12.3572
㨿	-12.3572
之日天子親率三公九卿大夫以迎	-12.3572
伊霍	-12.3572
吴公子光	-12.3572
在地成形為	-12.3572
徊	-12.3572
㛰	-12.3572
何以知其兼而	-12.3572
兩軍相當	-12.3572
制百邪	-12.3572
受聞不悉以告	-12.3572
坯	-12.3572
將奈何哉子墨子言曰	-12.3572
强取强求	-12.3572
睒	-12.3572
箑	-12.3572
綉	-12.3572
腴	-12.3572
荅	-12.3572
得而利之	-12.3573
豁	-12.3573
礛	-12.3573
神仙常以六	-12.3573
查	-12.3573
扶陽抑陰	-12.3573
鱣鮪	-12.3573
肚	-12.3573
荐	-12.3573
阡	-12.3573
除天下之害	-12.3573
讙譁	-12.3573
豈偶然哉	-12.3573
綺繡	-12.3573
唼	-12.3573
毬	-12.3573
溝壑	-12.3573
薑	-12.3573
循環無端	-12.3573
氣應陽氣	-12.3573
狡猾	-12.3573
置之危地	-12.3573
倜	-12.3573
稜	-12.3573
者養之使	-12.3573
鎛	-12.3573
駟馬跙跙	-12.3573
魏文帝	-12.3573
頊	-12.3574
驎	-12.3575
愷	-12.3575
否音鄙	-12.3575
赫奕	-12.3575
囓	-12.3575
奏于朝	-12.3575
三六一百八	-12.3575
兢兢	-12.3575
温厚之氣	-12.3575
綺粲	-12.3575
一思之微	-12.3575
不可先傳	-12.3575
在天成象為	-12.3575
岑	-12.3575
崇替之	-12.3575
慈心於物	-12.3575
分吾良卒密有所伏敵	-12.3575
婪	-12.3575
色聲氣味	-12.3575
超凡入聖	-12.3575
驁	-12.3575
䚦	-12.3575
三百六旬有六	-12.3575
忍作殘害	-12.3575
揄	-12.3575
日正于天	-12.3575
糅	-12.3575
惠忠父子	-12.3575
柴揚塵	-12.3575
逐獸者	-12.3576
湮	-12.3576
可立而待	-12.3576
中和莫盛乎五	-12.3576
僨	-12.3576
𤦺	-12.3576
金千歲生	-12.3576
醎	-12.3576
飄飄	-12.3576
𤤽	-12.3576
蝠	-12.3576
鑛	-12.3576
之日復存之第三十	-12.3576
剉	-12.3576
報招引惡果此	-12.3576
尖	-12.3576
峽	-12.3576
攋	-12.3576
還丹金液	-12.3576
邾	-12.3576
笈	-12.3576
鸇	-12.3577
封比干之墓	-12.3577
讖	-12.3577
黼黻文章	-12.3577
耳目鼻口	-12.3577
丹服一刀圭百日仙也	-12.3577
夢見竈	-12.3577
恂恂	-12.3577
涒	-12.3577
溝洫	-12.3577
絲竹金石	-12.3577
參同契	-12.3577
吒	-12.3577
四季之月	-12.3577
如連珠	-12.3577
紃	-12.3577
騾	-12.3577
不精之甚	-12.3577
業交則臨終時先見	-12.3577
椿	-12.3577
睫	-12.3578
蔟	-12.3579
糜	-12.3579
耜	-12.3579
噬嗑	-12.3579
滂	-12.3579
籃	-12.3579
千鈞之重	-12.3579
詩不云乎	-12.3579
駡	-12.3579
不知戰地	-12.3579
二十九日半	-12.3579
寂然無聲	-12.3579
狃	-12.3579
百歲而一化	-12.3579
芰	-12.3579
阤	-12.3579
其服尚	-12.3579
鵝	-12.3579
𤑔	-12.3579
蛉	-12.358
𣈆	-12.358
亥子丑三	-12.358
碌	-12.358
鎧	-12.358
陰極陽生	-12.358
吐故納新	-12.358
後發先至	-12.358
㕹	-12.358
儵	-12.358
即太上所謂	-12.358
方也於易爲	-12.358
沍	-12.358
烏號之弓	-12.358
爲民祈	-12.358
田連成竅	-12.358
膲	-12.358
齲	-12.358
𧋒	-12.358
刖跪	-12.358
子干丙子	-12.358
帝以玄纁玉帛聘	-12.358
疑無信	-12.358
者則曰唯	-12.358
與天地相畢	-12.3581
斁	-12.3581
荄	-12.3581
王皙同曹操註	-12.3581
飲酒酣	-12.3581
崇侯惡來	-12.3582
於是問者	-12.3582
寬裕	-12.3582
虔	-12.3582
虓	-12.3582
貿	-12.3582
韞	-12.3582
九千九	-12.3582
刑不濫	-12.3582
怕	-12.3582
瞰	-12.3582
藩	-12.3582
蝟	-12.3582
剸	-12.3582
玃	-12.3582
致人而不致於人	-12.3582
陰家木亦準	-12.3582
乎魯陽文君曰	-12.3582
好侵好奪	-12.3582
弈	-12.3582
相為對待	-12.3582
菊花	-12.3582
蒺藜	-12.3582
跚	-12.3582
陰家水亦準	-12.3582
𠜾	-12.3582
伍子奢	-12.3582
錢師愈	-12.3582
蚩	-12.3583
藜	-12.3583
舋	-12.3583
萬五千里	-12.3583
傳曰按道藏	-12.3583
晋厲公	-12.3583
慷	-12.3583
樗蒲	-12.3583
申叔時	-12.3583
也〇梅堯臣同杜牧註〇王皙	-12.3583
湯放桀	-12.3583
陰家金準	-12.3583
日費千金	-12.3583
氂	-12.3583
滴	-12.3583
西山真氏曰	-12.3583
聮	-12.3584
行北陸	-12.3584
於五湖	-12.3584
跱	-12.3584
人亦有之在	-12.3584
棄順効逆	-12.3584
𣏌	-12.3584
勅	-12.3584
司天考	-12.3584
延年益壽	-12.3584
方馬埋輪	-12.3584
發五苑	-12.3584
趙宣孟	-12.3584
韓非子卷之二	-12.3584
傠	-12.3584
子干戊子	-12.3584
必不幾矣	-12.3584
曾孫小兆王甲好道願得長生	-12.3584
而不期於	-12.3584
費無忌	-12.3584
輗	-12.3584
鈍兵挫銳	-12.3584
鐃	-12.3584
傳遺後世子孫	-12.3585
所以皆聞兼而非	-12.3585
廖	-12.3585
渟	-12.3586
淋	-12.3586
剃	-12.3586
日為陽精	-12.3586
碁	-12.3586
禆娉	-12.3586
縊	-12.3586
屈于根	-12.3586
無廢功	-12.3586
相守數年	-12.3586
箋	-12.3586
網𦊙	-12.3586
罝罘	-12.3586
鷞	-12.3586
一念起處	-12.3586
侖	-12.3586
共成三百六十	-12.3586
蓲	-12.3586
鈐	-12.3586
㳅	-12.3586
侏侏	-12.3586
子干甲子	-12.3586
差忒也	-12.3586
庶皆知戒	-12.3586
憀	-12.3586
歸妹六五	-12.3586
穀失䟽數	-12.3586
袷	-12.3586
孛	-12.3587
刎	-12.3587
蘧	-12.3587
旂	-12.3587
存亡繼絶	-12.3587
生長收藏	-12.3587
黿鼉	-12.3587
五嶽四瀆	-12.3587
衺	-12.3587
鮒	-12.3587
光謂二爲思中而當夜小人	-12.3587
曰若此人者	-12.3587
沆	-12.3587
遇之無禮	-12.3587
開發收閉	-12.3587
𦵏	-12.3587
瀟	-12.3587
無益於年命	-12.3587
虆	-12.3587
使敵視之為	-12.3587
八百歲生青	-12.3587
塤	-12.3587
瑋	-12.3587
田成恒	-12.3587
菲菲	-12.3587
飱	-12.3587
誼	-12.3588
訊	-12.3588
襌	-12.3588
毳	-12.3588
蒺	-12.3588
覃	-12.3588
四分度之一	-12.3589
撩	-12.3589
蜴	-12.3589
愷悌	-12.3589
棒	-12.3589
於是乎在	-12.3589
芙蓉	-12.3589
認恩推過	-12.3589
右經一	-12.3589
次九日舍	-12.3589
能射御之士	-12.3589
〇王皙同曹操註〇	-12.3589
是以天下亂	-12.3589
虫	-12.359
其來尚矣	-12.359
忼	-12.359
唐一行	-12.359
虻	-12.359
若數君者	-12.359
安上治民	-12.359
嶇	-12.359
芮	-12.359
鎸	-12.359
成功立事	-12.359
此所謂善治	-12.359
金天氏	-12.359
下面便生	-12.359
史廖	-12.359
捽	-12.359
瘕	-12.359
禁外徙	-12.359
軏	-12.359
垁	-12.359
氣弱咽法日用	-12.359
𦮼	-12.359
諳	-12.3591
樂天知命	-12.3591
伽	-12.3591
訪㝷	-12.3591
殺一牛	-12.3591
迍	-12.3591
三軍之衆百萬之師	-12.3591
仇由之君	-12.3591
兼也雖子墨子之所謂兼者於	-12.3591
樣	-12.3591
甘谷水	-12.3591
不能至於其所欲至	-12.3591
以患為利	-12.3591
制禮作樂	-12.3591
首而復初如中	-12.3591
馨	-12.3591
鎗	-12.3593
狷	-12.3593
蠖	-12.3593
跟	-12.3593
爝	-12.3593
謗讟	-12.3593
酖	-12.3593
䖏	-12.3593
廡	-12.3593
熠	-12.3593
炤炤	-12.3593
而又奚以善爲	-12.3593
緼袍	-12.3593
饑饉	-12.3593
鹵莽	-12.3593
氣液相生	-12.3593
疚	-12.3593
上上太一	-12.3593
搉	-12.3593
破璧毁圭	-12.3593
麥昌民食	-12.3593
惡人賊人	-12.3594
者能曉此乎	-12.3594
龍虎鶉龜	-12.3594
攬	-12.3594
頴川	-12.3594
勢不便也	-12.3594
魚不可脫	-12.3594
龢	-12.3594
也公孟子謂子墨子曰	-12.3594
渺	-12.3594
紋	-12.3594
道路之迂直	-12.3594
問左右左右	-12.3594
銳卒勿攻	-12.3594
瘉	-12.3594
菆	-12.3594
兜	-12.3595
於黄池	-12.3595
纆	-12.3595
二李昌齡傳鄭清之賛	-12.3595
鉉	-12.3595
宕	-12.3595
短褐不完	-12.3595
耄	-12.3595
芻蕘	-12.3595
僑	-12.3595
妍蚩	-12.3595
而色澤	-12.3595
埋蠱厭人	-12.3595
慣	-12.3595
密密不罅	-12.3595
接天下之政治天下之民	-12.3595
桷	-12.3595
覡	-12.3595
賞厚而信	-12.3595
冑	-12.3597
不厭其	-12.3597
彎	-12.3597
事事物物	-12.3597
後天而奉天時	-12.3597
冰泮	-12.3597
廻	-12.3597
刎頸	-12.3597
堡	-12.3597
月闕其摶	-12.3597
瀷	-12.3597
醢	-12.3597
鱉	-12.3597
兵家者流	-12.3597
無補於	-12.3597
踣	-12.3597
坷	-12.3597
大鍾鳴鼓琴瑟竽笙之聲	-12.3597
字今從二宋陸范本	-12.3597
所眩惑	-12.3597
鍪	-12.3597
㧓	-12.3597
埻	-12.3597
袍	-12.3598
常為不可勝	-12.3598
疑有伏	-12.3598
投之無所往	-12.3598
曰何哉曰	-12.3598
作金不成	-12.3598
分陰分陽	-12.3598
涖	-12.3598
陰變為陽	-12.3598
於是乎生	-12.3598
盡於此矣	-12.3598
鑣	-12.3598
入前表	-12.3598
敘	-12.3598
迒	-12.3598
不厭詐僞	-12.3598
瀏	-12.3598
褰	-12.36
濞	-12.36
彀	-12.36
焜	-12.36
醬	-12.36
乾卦進火	-12.36
德之帝也	-12.36
於馬陵	-12.36
蓑	-12.36
下侵上	-12.36
政施教	-12.36
壇場	-12.3601
劗	-12.3601
胾	-12.3601
未始出其宗	-12.3601
榱	-12.3601
得位當晝是能	-12.3601
用藥殺樹	-12.3602
垝	-12.3602
簀	-12.3602
者非謂其	-12.3602
甯戚	-12.3602
三代暴王桀紂幽厲	-12.3602
後發而先至	-12.3602
董卓	-12.3602
蠋	-12.3602
仲尼不知善賞	-12.3602
察炁君奏事	-12.3602
釐負羇	-12.3602
飪	-12.3604
坱	-12.3604
不亦難乎	-12.3604
却走馬以糞	-12.3604
也三爲思終而當夜	-12.3604
仰觀俯察	-12.3604
律中黄鍾	-12.3604
龎	-12.3604
宸	-12.3604
去彼取此	-12.3604
古者有語	-12.3604
或如青	-12.3604
閻遏公孫衍	-12.3604
黈	-12.3604
菲	-12.3605
餽	-12.3605
惴	-12.3605
𣎅	-12.3605
旣而得還	-12.3606
不飲不食	-12.3606
晁	-12.3606
方寸匕	-12.3607
靡靡之樂	-12.3607
上下離心	-12.3607
跐	-12.3607
髠	-12.3607
服方寸匕日三	-12.3607
鴛鴦	-12.3607
敬以直内	-12.3607
能如是乎賛曰	-12.3607
高石子	-12.3608
勦	-12.3608
在正東	-12.3608
螽	-12.3608
蟁蝱	-12.3608
魋	-12.3608
五間俱起	-12.3608
則精散於	-12.3608
屣	-12.3608
方宿也其次曰	-12.3608
篲	-12.3608
變之盡為	-12.3608
神仙矣第	-12.3609
造書契	-12.3609
考靈曜	-12.3609
何以知其為	-12.3609
瓊漿	-12.3609
矢及蓋	-12.3609
𩥡	-12.3609
守株之	-12.3611
人從者莫不見遠者莫不聞著在	-12.3611
藹	-12.3611
躅	-12.3611
舳	-12.3611
艫	-12.3611
沙汰	-12.3612
三皇内文	-12.3612
變而得名	-12.3612
攅	-12.3612
橑輻	-12.3612
之軍也梅堯臣曰處	-12.3612
臣愚以爲國不足爲也事不足治也	-12.3612
橡	-12.3613
不可劫以	-12.3613
𢜔	-12.3613
道二出黄道	-12.3613
子至亥	-12.3614
嫂	-12.3615
蒲坂	-12.3615
弦歌鼓舞	-12.3616
艶	-12.3616
陰以陽為	-12.3616
作人語	-12.3616
參差不齊	-12.3618
謔	-12.3618
見天地心	-12.3618
剩	-12.3619
千七百	-12.3619
樠	-12.3619
老帝君下降	-12.362
以形貌命者	-12.362
饉	-12.3621
慶弔	-12.3622
人愛我	-12.3622
翠虬	-12.3622
得其所以言	-12.3623
不疑於其	-12.3623
日初出	-12.3624
凡言凡動	-12.3625
壇壇高	-12.3625
發而止將服必	-12.3625
浼	-12.3626
鞞	-12.3626
尺堂密	-12.3626
彭氏之子	-12.3626
撿	-12.3627
酋酋	-12.3627
殄瘁	-12.363
顧盻	-12.363
其牲以	-12.363
臘集於	-12.3632
渙	-12.3633
之所以平者	-12.3634
蒯蕢	-12.3634
三百有六十	-12.3635
方來迎之	-12.3636
也不識天下	-12.3637
斗斗中	-12.3644
能收萬物之	-12.3648
過中而當夜	-12.3654
爲何等	-12.3658
而得於五	-12.3658
而成數却在	-12.3661
海神主	-12.3663
寂寂	-12.3672
〇陳皥曰此說	-12.3698
方之極自	-12.3709
雨不降	-12.372
人愛之則	-12.3734
人聞之皆	-12.3779
中實將欲	-12.3974
公大人骨肉之親無故富貴面目美好者	-12.4041
求興天下之利除天下之害當	-12.4068
居盛位而當晝	-12.4131
飛集其	-12.4254
造父之御	-12.4445
六爲上禄而當晝	-12.4851
九爲禍極而當夜小人	-12.4911
七爲禍始而當晝君子	-12.5758
萬六千里	-12.638
陰生於午	-12.6407
能終其天年	-12.6557
鬼神之有豈可疑哉非惟若書之說爲然	-12.6745
衛公李靖曰	-12.6757
南方之美者有	-12.6785
北方之美者有	-12.6787
光謂四爲下禄而當夜小人	-12.6815
琪	-12.6819
翌	-12.6827
嫭	-12.6833
瘣	-12.6833
穸	-12.6837
者不知其伐吾	-12.6841
廋	-12.6841
夤	-12.6842
養煉如前乃可坎卦時起火如前	-12.6842
岸不枯	-12.6846
施與後悔	-12.6846
見血入門	-12.6848
助人爲非	-12.6848
晩置太子	-12.685
乾坤為大父母	-12.6852
聖王不識也君子不道也治世所無有也	-12.6852
𠹑呱啞咋	-12.6852
推多取少	-12.6852
罔直蒙酋	-12.6854
爾彼其視	-12.6854
駤	-12.6854
二四六八	-12.6855
八月建酉	-12.6856
仳倠	-12.6856
慳	-12.6858
君子之道闇然而日	-12.6858
泌	-12.6858
何往而非	-12.6858
棄法受賂	-12.6858
如是一𩔖名	-12.686
䖍	-12.686
熛	-12.686
忽聞空中有聲曰	-12.6862
兼天上地下	-12.6862
名法儒墨	-12.6862
子房用之嘗	-12.6862
子房用之嘗勸高帝	-12.6862
纗	-12.6862
伐無罪之國	-12.6863
筭盡則死	-12.6864
順天休命	-12.6864
癭	-12.6866
爟	-12.6866
故世治則	-12.6867
九爲禍終而當晝君子	-12.6868
礎	-12.6868
内治官府外	-12.6868
好義者以爲	-12.6868
未戰而廟筭	-12.6868
睥	-12.6868
辰者天之體	-12.6868
自復至乾	-12.6869
卦時入室依前行持	-12.6869
一中分造化	-12.6869
伋	-12.6869
割其股肱	-12.6869
曊	-12.6869
王子慶忌	-12.6871
伏犧神農	-12.6871
撦	-12.6871
久則生變	-12.6871
儠	-12.6873
卦時依法起火鍊	-12.6873
暱	-12.6873
生生化化	-12.6873
圂	-12.6873
百五十五萬五千二百	-12.6873
鞈	-12.6873
娀	-12.6873
思慕之心	-12.6873
或上倍之	-12.6873
準繩䂓矩	-12.6873
瓾	-12.6873
過其枯城	-12.6873
𡵯	-12.6873
蹯	-12.6875
𠔃	-12.6875
𨲠	-12.6875
芃	-12.6875
三李昌齡傳鄭清之賛	-12.6875
臿	-12.6875
鎌	-12.6875
獫狁	-12.6875
䗓	-12.6875
利之中取大	-12.6875
有罪而益信	-12.6875
罥	-12.6875
茠	-12.6875
輪扁曰	-12.6875
鈇	-12.6876
隟	-12.6877
莩	-12.6877
令陶者爲	-12.6877
桄	-12.6877
陽八十陰	-12.6877
為越所滅	-12.6877
諂上希㫖	-12.6877
之中授之政	-12.6877
弱制强	-12.6877
斗杓所建	-12.6877
瀍	-12.6877
破人婚姻	-12.6877
門鬼吏名	-12.6877
枳	-12.6879
淵中之魚	-12.6879
甲乙寅卯	-12.6879
懊	-12.6879
熨	-12.6879
過生於上罪死於下	-12.6879
仮	-12.6879
取敵之利者貨	-12.6879
西施毛嬙	-12.6879
離内遠遊	-12.6879
㤥	-12.6879
上者天鬼	-12.6879
之形而實為萬物之	-12.6879
以炭炊	-12.6879
半盈半縮	-12.6879
害之中取小也	-12.6879
河間王孝恭	-12.6879
褥	-12.6879
踹	-12.6879
雲炁之車𩥵駕	-12.6879
𨄍	-12.6879
宫商角徵羽也	-12.6881
呿	-12.6881
法令滋彰盜賊多有	-12.6881
曰廵乘六甲與斗相逢	-12.6881
鬛	-12.6881
刄	-12.6881
日移其志以速厥	-12.6881
矞矞皇皇	-12.6881
逄	-12.6883
臛	-12.6883
善男子善女人	-12.6883
紬	-12.6883
䙝	-12.6883
一生二二生四四	-12.6883
上詣天曹言人罪過	-12.6883
夫人之常情	-12.6883
爲下禄爲外它	-12.6883
㩌	-12.6883
假借不還	-12.6883
欲成霸王之業	-12.6883
欲流之於海	-12.6883
載馳載驅周爰	-12.6883
黄勉齋	-12.6883
入聖超凡	-12.6885
爲疾瘀爲耗爲剥落	-12.6885
世間萬事轉頭即空	-12.6885
士步曰卒	-12.6885
芋	-12.6885
蘋	-12.6885
躣	-12.6885
一運十二世一	-12.6885
施式豉切	-12.6885
董閼子	-12.6885
不可以應有白馬	-12.6885
伯州犁	-12.6885
眦	-12.6885
自東北方曰	-12.6885
人言市有虎王信之乎	-12.6885
伯邑考	-12.6885
吕文穆	-12.6885
型	-12.6885
大達無畛	-12.6885
言日月而必曰	-12.6885
遘	-12.6885
陰八十陽	-12.6885
鴟夷子皮	-12.6885
以貴下賤	-12.6887
仔	-12.6887
㓻	-12.6887
弱勝彊	-12.6887
六萬四千	-12.6887
厚作歛於百姓	-12.6887
手足胼胝面目黧黑	-12.6887
雲炁之車	-12.6887
太極在陰陽之	-12.6887
朂	-12.6887
甀	-12.6887
翊聖真君	-12.6887
螚	-12.6887
見小勿用	-12.6887
貞於未而右行	-12.6887
鋪食更	-12.6887
丹朱商均	-12.6889
各正性命	-12.6889
漓	-12.6889
分陰分陽兩儀立焉	-12.6889
盥	-12.6889
繢	-12.6889
𥨸	-12.6889
姓李名	-12.6889
䕃	-12.6889
其祀户祭先脾	-12.6889
噴	-12.6889
祭獸戮	-12.6889
不得逋亡	-12.6889
分盡故曰有四十六日而立	-12.6889
氣中有真水	-12.6889
若合符節	-12.6889
過而不聽於忠臣	-12.6889
䁲	-12.6889
内懷替爽	-12.6889
去地可六丈大而	-12.6889
唭	-12.6889
天之休命	-12.6889
爲而不已操而不擇	-12.6889
狂章章	-12.6889
食終歲十	-12.6889
𥧲	-12.6889
絰	-12.6889
府庫竊人	-12.689
民之爲淫暴㓂	-12.689
盗賊以兵刃毒藥水火退無罪人乎道路	-12.689
禁止大國之攻小國也	-12.689
禍福之門户	-12.689
遇一道人	-12.6891
鼓角樓	-12.6891
秋之月招摇指	-12.6891
一唱一和	-12.6891
甜	-12.6891
櫃	-12.6891
王曰六居盛滿而失位當夜	-12.6891
蘄	-12.6891
拊樂如此多也是故子墨子曰爲樂非也	-12.6891
大怨必生	-12.6891
服蒼玉建青旗	-12.6891
窈窈㝠㝠	-12.6891
不可不節古之民未知爲	-12.6891
不遠迷復	-12.6891
五億五千九百八十七萬二千	-12.6891
尉屠睢	-12.6891
懵	-12.6891
逜下蔽上	-12.6891
隨侯之珠	-12.6891
𢈔	-12.6891
㘈	-12.6891
不替不爽	-12.6891
不知此爲不仁不義也	-12.6891
但服草木	-12.6891
凡人居山林及暫入	-12.6891
危人自安	-12.6891
嘗有入此者乎對曰無有	-12.6891
宰折睢	-12.6891
惟曰余有所不	-12.6891
擊其空虚襲其懈怠	-12.6891
斯則富矣	-12.6891
有必死之志	-12.6891
杘	-12.6891
液中有真氣	-12.6891
濬	-12.6891
田遇禽	-12.6891
還于喪	-12.6891
桃李瓜薑者	-12.6892
左个以出	-12.6892
也七爲禍始而當夜小人	-12.6893
其味辛其臭腥	-12.6893
千里饋糧則	-12.6893
嶼	-12.6893
不彰人短	-12.6893
老師費財	-12.6893
飢寒並至	-12.6893
一會三十運	-12.6893
分而用七	-12.6893
國富兵强	-12.6893
嬌	-12.6893
繼文王之業	-12.6893
鶴山要義	-12.6893
三十而娶	-12.6893
上謁道君	-12.6893
五百蝙蝠	-12.6893
元梁使者	-12.6893
吾不知吾見	-12.6893
方白虎之宿	-12.6893
方蒼龍之宿	-12.6893
笱	-12.6893
粲然可	-12.6893
者必以告若見惡賊	-12.6893
而變為彗	-12.6893
見侮而不鬭	-12.6893
貛	-12.6893
麃	-12.6893
咫	-12.6893
無他故異物	-12.6894
焚林而獵	-12.6894
王文康公	-12.6894
其可不戒賛曰	-12.6894
埳	-12.6894
喈	-12.6894
窅	-12.6894
其祀門祭先肝	-12.6894
宣和間	-12.6894
設變致權所以解結	-12.6894
州推官	-12.6894
咋	-12.6894
察分秋毫	-12.6894
幨	-12.6894
忿悁之心	-12.6894
未幾果卒	-12.6894
霸王之名不成	-12.6894
天子衣青衣乘蒼龍	-12.6894
射時亦切	-12.6894
服八風水爨萁燧火	-12.6894
東宫御女青色衣青采鼓琴瑟	-12.6894
柳七星張	-12.6894
食麥與羊	-12.6894
在天成象在地成形	-12.6895
汔	-12.6895
白馬爲非馬者	-12.6895
祀中霤	-12.6895
禓	-12.6895
積功累	-12.6895
隂中陽半	-12.6895
鮑生曰人君	-12.6895
三十箇十二	-12.6895
之自國其穴爲	-12.6895
以身役物	-12.6895
倒杖策	-12.6895
傅謂之得天	-12.6895
六百歲生玄	-12.6895
十二箇三十	-12.6895
因是而知之故	-12.6895
大腹决	-12.6895
戰勝攻取之	-12.6895
敗人苗稼	-12.6895
日者支干	-12.6895
權力均	-12.6895
淳于髠	-12.6895
疾風暴雨	-12.6895
者也上得且罰之衆聞則非之是以禍	-12.6895
蛷	-12.6895
諫議大夫	-12.6895
鄉間内間	-12.6895
鸞鳳紛如	-12.6895
既往之失	-12.6895
潼	-12.6896
丹經一卷	-12.6896
蜾	-12.6896
慱	-12.6896
琳	-12.6896
陸佃解	-12.6896
受寵若驚	-12.6896
杜正獻衍	-12.6896
圄	-12.6896
汪	-12.6896
隂陽相薄	-12.6896
鰥寡孤獨	-12.6896
劉大諌	-12.6896
縱兵擊之	-12.6896
于厥躬	-12.6896
只有此理	-12.6896
絶嗜禁欲所以除累	-12.6896
舘	-12.6896
五李昌齡傳鄭清之賛	-12.6896
前後不相及	-12.6896
張預曰吾之衆	-12.6896
於稠衆	-12.6896
之士求之愛	-12.6896
利莫長於	-12.6896
即吉山中見	-12.6896
天君下降立	-12.6896
夫誰獨舉其	-12.6896
姑好伐人	-12.6896
戈矛徃來	-12.6896
撙	-12.6896
斯則貴矣	-12.6896
枲	-12.6896
與陽俱開	-12.6896
蕡	-12.6896
蛭	-12.6896
要其會歸	-12.6896
蹀	-12.6896
郢楚都	-12.6896
雖大必亡	-12.6896
騵	-12.6896
二居下體之中	-12.6898
踳	-12.6898
店	-12.6898
碓	-12.6898
鑑鏡也	-12.6898
尊君卑臣	-12.6898
晋公子重耳出亡過	-12.6898
腋	-12.6898
州剌史	-12.6898
齅	-12.6898
一奇一偶	-12.6898
也王曰五居盛位當	-12.6898
卒又明日	-12.6898
去殘除賊	-12.6898
城上三十步一	-12.6898
此聖王之法	-12.6898
王曰得位當晝善於	-12.6898
琬	-12.6898
璿	-12.6898
〇邵子先天	-12.6898
若然而不然	-12.6898
以惡易好	-12.6898
台為司	-12.6898
地水火風	-12.6898
恪固之心	-12.6898
捭	-12.6898
有瘖聾	-12.6898
氣沮而志奪	-12.6898
者猶以爲不足不知	-12.6898
荆王弟在秦秦不出也	-12.6898
趣所攝	-12.6898
骨纍其肉	-12.6898
晰	-12.6898
載營魄	-12.6898
鷗	-12.6898
罰不當暴	-12.6899
天下之所以亂者	-12.6899
是以厚者有	-12.6899
窬	-12.6899
丘十六井	-12.69
騕	-12.69
絪	-12.69
自寅至戌	-12.69
𦕅	-12.69
余從祖仙公	-12.69
此固以失霸王之道	-12.69
懐	-12.69
銀亦可餌	-12.69
人自不見爾	-12.69
紱	-12.69
㥄	-12.69
內	-12.69
國之所以存者	-12.69
左史倚相謂	-12.69
庚子受制	-12.69
朱雀闕門	-12.69
陽極生陰	-12.69
靨	-12.69
九百四十分日之	-12.69
以老我師	-12.69
叁	-12.69
惡其跡者	-12.69
拶	-12.69
無以生爲者	-12.69
父子兄弟夫婦	-12.69
罹	-12.69
蜀將姜維	-12.69
選精銳	-12.69
九百歲生白	-12.69
廞	-12.69
張預曰因是反間知彼	-12.69
蕎	-12.69
蛩蛩駏驉	-12.69
軍中有則其罪射	-12.69
過此以往	-12.69
鄠	-12.69
龍出于中	-12.69
潔爲粢盛酒醴以	-12.6901
垓	-12.6902
晨出東方	-12.6902
纒	-12.6902
葩	-12.6902
鏃	-12.6902
釀	-12.6902
身死人手	-12.6902
人莫知之也	-12.6902
風雨時節	-12.6902
左元放	-12.6902
狀元及第	-12.6902
炷	-12.6902
陷在死地	-12.6902
一闢一翕	-12.6902
喝	-12.6902
轢	-12.6902
出見富貴之樂	-12.6902
大衍之數五十其用四十有九	-12.6902
失位當夜乖於其宜	-12.6902
布德施惠	-12.6902
忙	-12.6902
無必死之心	-12.6902
㸑	-12.6902
千五百二十	-12.6902
家火亦準	-12.6902
當夜無君之德	-12.6902
體魄降于地	-12.6902
人者謂之英	-12.6902
保城備險	-12.6902
内觀如法	-12.6902
妬而好内	-12.6902
慠	-12.6902
抱鼓爲小	-12.6902
知其端緒	-12.6902
衛公子開方	-12.6902
項子牛	-12.6902
一勝一負	-12.6902
中所以藏了	-12.6902
中立表太	-12.6902
人也丘弗如也	-12.6902
任大自事	-12.6902
八極八方之極	-12.6902
呱呱	-12.6902
外障距内比周	-12.6902
崔子之徒	-12.6902
急急如高上	-12.6902
慥	-12.6902
無父曰孤	-12.6902
郄始窮初	-12.6902
闕節葬	-12.6902
魏絳戮	-12.6902
𥅡	-12.6902
今從宋陸	-12.6903
也意亦使法其言用其謀	-12.6903
反天之意謂之不善	-12.6903
些	-12.6904
蜋	-12.6904
忻	-12.6904
絙	-12.6904
獺祭魚	-12.6904
兵猶火也	-12.6904
四爲條暢而當晝君子	-12.6904
威嚴之勢	-12.6904
死者過半	-12.6904
瀉	-12.6904
也然即之交	-12.6904
天子衣白衣乘白駱服白玉建白旗	-12.6904
比頻寐切	-12.6904
絶念忘情	-12.6904
四封之内	-12.6904
用所勝也一	-12.6904
視履考祥	-12.6904
乾道成男	-12.6904
十六分度之	-12.6904
司馬子反渴而求飲	-12.6904
天兼天下而	-12.6904
崇侯虎	-12.6904
爼	-12.6904
者何故之以也曰唯以其能一同	-12.6904
中咽之三五而止	-12.6904
之所非必亦非之去而不善言學	-12.6904
亟肄以疲之多方以誤之	-12.6904
便對次	-12.6904
信足以一異	-12.6904
十里而争利則	-12.6904
哾	-12.6904
嘻君之及此言也齊其殆矣乎	-12.6904
大王亶父	-12.6904
娣	-12.6904
德足以懷遠	-12.6904
意者可邪其說又不可矣	-12.6904
所以寡人之道	-12.6904
捔	-12.6904
攉	-12.6904
於是乎始病吴	-12.6904
櫝	-12.6904
此足以喪天下又	-12.6904
無喪無得	-12.6904
牝貞常慈	-12.6904
瓌	-12.6904
當自苦耳	-12.6904
祉	-12.6904
者行此節則	-12.6904
苽	-12.6904
賙	-12.6904
辟陽侯	-12.6904
雞藎穀	-12.6904
魘	-12.6904
之所是必亦是之	-12.6905
仁也義也孝子之事	-12.6905
居高陽以待敵	-12.6905
㝷	-12.6906
悠	-12.6906
七李昌齡傳鄭清之賛	-12.6906
旋踵破敗	-12.6906
窶	-12.6906
吉莫吉於知足	-12.6906
有緝熙	-12.6906
盛德在木	-12.6906
仵	-12.6906
反為我間也	-12.6906
常後而不先	-12.6906
抎	-12.6906
汚衊	-12.6906
背陽之維	-12.6906
鬼不敢近	-12.6906
地始凍	-12.6906
子墨子謂魯陽文君曰	-12.6906
捫	-12.6906
楷	-12.6906
滂沲	-12.6906
紇	-12.6906
闓	-12.6906
離卦爲期	-12.6906
飢寒凍餒	-12.6906
一高一下	-12.6906
人情之常理	-12.6906
以明示下	-12.6906
信有定分雖	-12.6906
八尺曰仞	-12.6906
六律六吕	-12.6906
則愚智不分	-12.6906
十息止呼其神曰	-12.6906
在裏面	-12.6906
垓坫	-12.6906
委軍而争利	-12.6906
將以量度天下之	-12.6906
山林澤谷之利	-12.6906
平陽君之目	-12.6906
幽谷遷于喬木	-12.6906
恫	-12.6906
抈	-12.6906
昃	-12.6906
李衛公	-12.6906
榘	-12.6906
深微廣大	-12.6906
炁周徧一身中百	-12.6906
爲仁義求爲上士	-12.6906
羃	-12.6906
胏附之	-12.6906
訢	-12.6906
車軔俟	-12.6906
追速致遠	-12.6906
逕	-12.6906
選精騎	-12.6906
趙人公孫龍著	-12.6908
以酒脯	-12.6908
離東坎西	-12.6908
有姿色	-12.6908
程伯子	-12.6908
椅	-12.6908
如膠柱鼓瑟	-12.6908
怒罵曰	-12.6908
蓂	-12.6908
之相類者	-12.6908
槖	-12.6908
五以小人而居盛位	-12.6908
字英明	-12.6908
專信一人	-12.6908
柘燧火西宫御女白色衣白采撞白鍾	-12.6908
煥	-12.6908
言訖遂	-12.6908
信哉斯言	-12.6908
唶	-12.6908
大淵獻	-12.6908
心境自除	-12.6908
無柰之何	-12.6908
〇梅堯臣同曹操註〇	-12.6908
㑺	-12.6908
䂦	-12.6908
一龍一蛇	-12.6908
也何謂隱之	-12.6908
出軍行師	-12.6908
匙	-12.6908
南方澤名	-12.6908
吕文靖	-12.6908
四爲外佗而當夜	-12.6908
大其門郊	-12.6908
子反辭以心	-12.6908
子産相鄭	-12.6908
孟嘗芒卯	-12.6908
孳孳以	-12.6908
廉於財者	-12.6908
得太一神丹	-12.6908
戴威滿頭	-12.6908
所生上十六卦	-12.6908
明足以照下	-12.6908
濩	-12.6908
灖	-12.6908
爲條暢而當	-12.6908
爲震霆所擊	-12.6908
甽	-12.6908
節制嚴明	-12.6908
築室反耕	-12.6908
緂	-12.6908
緜	-12.6908
纚纚	-12.6908
而不敢下比	-12.6908
而貳其家	-12.6908
耑	-12.6908
自北而西	-12.6908
興雲致雨	-12.6908
虵伏于泥	-12.6908
軍門為和門	-12.6908
關無鍵	-12.6908
陳則不堅	-12.6908
飂	-12.6908
魄中魂	-12.6908
𢆶	-12.6908
千變萬	-12.691
歌南風之詩	-12.691
忍肆其	-12.691
芊	-12.691
〇西山蔡氏	-12.691
是或一道	-12.691
薊	-12.691
他人處此能如是	-12.691
媸	-12.691
徠	-12.691
應天順人	-12.691
𢹂	-12.691
六李昌齡傳鄭清之賛	-12.691
春木夏火秋金冬	-12.691
頥	-12.691
冬之月招摇指	-12.691
未之或知	-12.691
沱	-12.691
音比林鍾	-12.691
㹎	-12.691
一左一右	-12.691
作威作福	-12.691
土之氣御于	-12.691
左社右稷	-12.691
志厲青雲	-12.691
炯	-12.691
王天下正諸侯者	-12.691
稹	-12.691
范本測作	-12.691
莫邪爲下	-12.691
虹藏不見	-12.691
使某甲長生	-12.691
偏憎偏愛	-12.691
千枝萬葉	-12.691
司録六丁玉女削去某甲死籍	-12.691
和釋之脂	-12.691
地初昏之時	-12.691
多入少出	-12.691
揳	-12.691
是以不憚舉其	-12.691
服長纓	-12.691
果如其言	-12.691
汗脚韈	-12.691
照一身中	-12.691
盡如比干	-12.691
直言武子	-12.691
翎	-12.691
者芉䱉不加者去之其爲	-12.691
胃爲太倉	-12.691
臊	-12.691
衣絳單衣	-12.691
蹶猶挫也	-12.691
遡	-12.691
陽進陰退	-12.691
雒家謂	-12.691
須彌山	-12.691
燻	-12.6911
也是何也則	-12.6911
孝子之爲親度也	-12.6911
簡兵練卒	-12.6911
關龍逢	-12.6911
熬	-12.6911
枵	-12.6911
不滿三萬	-12.6912
庖犧氏	-12.6912
之說而告之哉	-12.6912
晩世之時	-12.6912
判三司	-12.6912
塞其闕示	-12.6912
大荒落	-12.6912
仁及草木	-12.6912
嶲	-12.6912
刓	-12.6912
哮	-12.6912
哿	-12.6912
尚爾況餘人乎	-12.6912
甓	-12.6912
𡨋	-12.6912
其味鹹其臭腐	-12.6912
其祀井祭先腎	-12.6912
其蟲介其音羽	-12.6912
卑而驕之	-12.6912
堯爲匹夫不能	-12.6912
愬	-12.6912
拄	-12.6912
朝于玄堂	-12.6912
松燧火北宫御女黑色衣黑采擊磬石	-12.6912
緻	-12.6912
遑啓處	-12.6912
魄死明生	-12.6912
〇梅堯臣同陳皥註〇	-12.6912
光禄大夫	-12.6912
分而爲十二	-12.6912
字小宋本無	-12.6912
孟秋始	-12.6912
居是室行	-12.6912
帖	-12.6912
急急如高上神霄	-12.6912
曲成文章	-12.6912
柙	-12.6912
毛嬙西施	-12.6912
民之所惡也臣請當之	-12.6912
淢	-12.6912
畀	-12.6912
相儆戒	-12.6912
罏	-12.6912
能而示之不能	-12.6912
蜯	-12.6912
豈不有以乎	-12.6912
㤰	-12.6912
上謁上皇	-12.6912
以實擊虚	-12.6912
同冥獨見	-12.6912
因地之勢也	-12.6912
子墨子曰不然夫	-12.6912
彧	-12.6912
念怨不休	-12.6912
恛恛	-12.6912
擇人而任勢	-12.6912
旋踵及禍	-12.6912
月幾望	-12.6912
歾	-12.6912
淪於不測	-12.6912
皬	-12.6912
篅	-12.6912
聖人以治天下爲事者	-12.6912
自愛不愛	-12.6912
荔	-12.6912
蒔	-12.6912
蚉	-12.6912
轉而北日在	-12.6912
𣯛	-12.6912
𤠔	-12.6912
侏	-12.6912
邅	-12.6913
民衣食之財	-12.6913
臾	-12.6913
胤	-12.6914
羮	-12.6914
先天方圓二圖	-12.6914
蟁	-12.6914
闥	-12.6914
東郭牙	-12.6914
𦤺	-12.6914
不亦惜哉	-12.6914
仙之可學	-12.6914
死亦及之	-12.6914
豈欺我哉	-12.6914
羗	-12.6914
乘威迫脅	-12.6914
五城十二樓	-12.6914
交姤龍虎	-12.6914
瓏	-12.6914
視之不見其形聽之不聞其聲	-12.6914
𨂜通之維	-12.6914
乾一兌二	-12.6914
以佚待勞	-12.6914
先忤而後合	-12.6914
免於相雖嗜魚	-12.6914
其謹志之	-12.6914
可道非常道	-12.6914
地形者兵之助	-12.6914
春之月招摇指	-12.6914
潄	-12.6914
異路而同歸	-12.6914
程嗣昌	-12.6914
簠	-12.6914
辯聽之說不度於義	-12.6914
齊將卑是求夫何懼而不獲	-12.6914
㷭	-12.6914
一聚蜂	-12.6914
不相愛則必	-12.6914
今從小宋本小宋本	-12.6914
匹夫徒步之士	-12.6914
唐收禄	-12.6914
地二生火	-12.6914
夔一足	-12.6914
大夫之相亂家諸侯之相攻國者	-12.6914
天統乎體	-12.6914
彪	-12.6914
徘	-12.6914
旌旗亂也示敵若亂以金鼓齊之	-12.6914
氓	-12.6914
沈耳于閨	-12.6914
焚其隊仗	-12.6914
爲友留爲	-12.6914
知來者逆	-12.6914
絺綌	-12.6914
緍	-12.6914
聴	-12.6914
自愛也不愛	-12.6914
鐡	-12.6914
骼	-12.6914
鮫	-12.6914
鼦	-12.6914
賞賢而罰暴	-12.6915
黥	-12.6915
諏	-12.6915
邂逅	-12.6916
髦	-12.6916
非有非指者物莫非	-12.6916
猘	-12.6916
埤	-12.6916
小敵之堅大敵之擒也	-12.6916
屈産之乘	-12.6916
甲子朔旦冬至無餘分	-12.6916
解連環	-12.6916
芙	-12.6916
部員外郎	-12.6916
勢既均	-12.6916
玲	-12.6916
直指襄平	-12.6916
諸惡莫作衆善奉行	-12.6916
䖟	-12.6916
丰	-12.6916
安可乆也	-12.6916
弱衆不暴寡	-12.6916
所以爾者不	-12.6916
櫪	-12.6916
閭大搜客	-12.6916
䀹	-12.6916
䋚	-12.6916
今惟無以厚葬久喪者爲政	-12.6916
以不相愛生	-12.6916
圍壼關	-12.6916
天之爲政於天子	-12.6916
展退十年降爲第	-12.6916
庸主之所易	-12.6916
後乃克飛	-12.6916
憫人之凶	-12.6916
所極一也	-12.6916
掾	-12.6916
斃於雷斧	-12.6916
月本無光	-12.6916
歸師勿遏	-12.6916
盲征否	-12.6916
矟	-12.6916
縢	-12.6916
葛覃之覃	-12.6916
近取諸身	-12.6916
迷腹達目	-12.6916
陊	-12.6916
雊	-12.6916
革車三百乘	-12.6916
逋	-12.6916
利貞誠之復	-12.6918
古之制字	-12.6918
一物各具一太極	-12.6918
表商容之閭	-12.6918
大布之衣	-12.6918
惷	-12.6918
舉軍而争利	-12.6918
事無巨細皆	-12.6918
剛太柔少剛少柔	-12.6918
甲至癸	-12.6918
眹	-12.6918
孫文懿	-12.6918
家籍于官	-12.6918
以移風易俗	-12.6918
劉表遣	-12.6918
混㝠之中	-12.6918
聳	-12.6918
自呪呪他	-12.6918
不止此而已	-12.6918
不非諸人	-12.6918
五月一陰生	-12.6918
其所顧愛	-12.6918
媕婀脂韋	-12.6918
守則不足攻則有餘	-12.6918
帽	-12.6918
於冥昧之中	-12.6918
溽	-12.6918
瑘	-12.6918
甂	-12.6918
蔡九峰曰	-12.6918
行無人之地七百餘里	-12.6918
詁	-12.6918
蹟	-12.6918
軔而振切	-12.6918
世主必從而禮之	-12.6918
使敵不得進	-12.6918
呬	-12.6918
有游於子墨子之門者	-12.6918
王子於期爲	-12.6918
矣而窮於	-12.6918
老君眞形	-12.6918
費二十鍾	-12.6918
蛺	-12.6919
梏	-12.692
朝成湯之廟	-12.692
我之此身	-12.692
不復贖人	-12.692
立功立事	-12.692
董安于	-12.692
衾	-12.692
〇王皙同梅堯臣註〇張預曰	-12.692
儆	-12.692
城小而固	-12.692
泝	-12.692
詫	-12.692
不忘于欲利	-12.692
天三地四天	-12.692
幣帛使諸侯	-12.692
念起于中	-12.692
皇甫嵩	-12.692
翾	-12.692
七百歲生赤	-12.692
亦已明矣	-12.692
何欲何惡	-12.692
帕	-12.692
曹説是也〇	-12.692
正在兆頭上	-12.692
䫏	-12.692
傂	-12.692
光謂六爲上禄爲盛多爲極大而當	-12.692
吟詠及哭	-12.692
嗅	-12.692
掞	-12.692
更之小得	-12.692
樂正子春	-12.692
泏	-12.692
爲其難爲也然後爲	-12.692
皈	-12.692
矣欲道之無	-12.692
童麋觸犀	-12.692
膎	-12.692
蘧蒢	-12.692
鏹	-12.692
門冬或名	-12.692
首準一卦	-12.692
五官六府	-12.6921
有義則治無義則亂	-12.6921
言必信行	-12.6921
唯能壹同	-12.6921
蛆	-12.6921
立獲度世	-12.6921
晚得一子	-12.6921
邵伯温	-12.6921
醻	-12.6921
妾不衣帛	-12.6921
𣵡	-12.6921
内儲說	-12.6921
氣盈朔虚	-12.6921
城下之盟	-12.6922
塗有所不由	-12.6922
封建侯	-12.6922
巓	-12.6922
得次已而爲政有天	-12.6922
擊金而退	-12.6922
斷罰刑殺當罪	-12.6922
湫漻	-12.6922
藕	-12.6922
𡖖	-12.6922
入于酋冥	-12.6922
力上施設	-12.6922
吾丘鴆	-12.6922
嘰	-12.6922
子爲施不祥言者也	-12.6922
廼	-12.6922
或輕或重	-12.6922
摋	-12.6922
明腹睒天	-12.6922
睄	-12.6922
矩鑿之中	-12.6922
膻	-12.6922
虧四十八銖存者其應乎	-12.6922
難成而易敗	-12.6922
若以爲不然昔	-12.6922
即亦猶是也	-12.6922
選擇賢	-12.6922
流於動而無静	-12.6923
孌	-12.6923
溲	-12.6923
矍	-12.6923
范忠宣	-12.6923
静中有動	-12.6923
之極遇禍之窮	-12.6923
明賞必罰	-12.6923
也豈爲小哉	-12.6923
伯父叔父	-12.6923
尺有五寸	-12.6923
則禁令不行	-12.6923
動極復静	-12.6923
秋成熟	-12.6923
行柔惠	-12.6923
二千一百六十	-12.6923
以迂為直	-12.6923
出生入死	-12.6923
剔孕婦	-12.6923
然則姑嘗	-12.6923
瞀	-12.6923
軍雖可擊	-12.6923
陽來則生陽去則死	-12.6923
仁者之爲天下度	-12.6923
以手摩送之	-12.6923
先大夫文子	-12.6923
奇亦為正	-12.6923
子犯曰民未知	-12.6923
懋	-12.6923
抉	-12.6923
東以弱齊	-12.6923
正亦為奇	-12.6923
潯	-12.6923
熺	-12.6923
爲者不得用	-12.6923
狟	-12.6923
緰	-12.6923
霸王之名可成	-12.6923
鰓	-12.6923
𣆺	-12.6923
凰	-12.6925
収	-12.6925
常見不隱	-12.6925
禧	-12.6925
芩	-12.6925
䟾	-12.6925
愚夫惷婦皆	-12.6925
東風解凍	-12.6925
䍧羊之裘韋以帶	-12.6925
不貴難得之貨	-12.6925
坐而論道	-12.6925
墯	-12.6925
昫	-12.6925
田夫野䝤	-12.6925
程叔子曰	-12.6925
蛣	-12.6925
虎狼毒蟲	-12.6925
於晋陽之下	-12.6925
曙	-12.6925
煮	-12.6925
襦	-12.6925
難得而易失	-12.6925
吞舟之魚	-12.6925
塡	-12.6925
弔死問疾	-12.6925
臨深履	-12.6925
賞一人而天下	-12.6925
鑰	-12.6925
韋編三絶	-12.6925
鷫	-12.6925
不可極深不可測	-12.6925
叠	-12.6925
塼	-12.6925
恙	-12.6925
猰貐	-12.6925
百將一心三軍同力	-12.6925
禍福無門唯人自召	-12.6925
稸	-12.6925
與民期於下	-12.6925
不臣天子不友諸侯	-12.6925
密于腥臊	-12.6925
湡	-12.6925
猋	-12.6925
窮獨貧賤	-12.6925
者衆而仁者寡若皆法其	-12.6925
逯	-12.6925
駻	-12.6925
礬	-12.6927
治道通矣	-12.6927
褓	-12.6927
襁	-12.6927
霏	-12.6927
遣吾下降	-12.6927
鶴知夜半	-12.6927
佇	-12.6927
渾然太極之	-12.6927
壬癸亥子	-12.6927
撾	-12.6927
於荆山之下	-12.6927
旦晝暮夜	-12.6927
乾陽坤陰	-12.6927
嘉熈戊戌	-12.6927
將能而君不御者勝	-12.6927
湄	-12.6927
原始見終	-12.6927
右三十二陰	-12.6927
將之至任不可不察也	-12.6927
尪	-12.6927
曬	-12.6927
曰海大魚	-12.6927
桐栢山	-12.6927
然當日之夜小人	-12.6927
裒	-12.6927
見侮不辱	-12.6927
視之不見聽之不聞	-12.6927
覲	-12.6927
逖	-12.6927
驊	-12.6927
姦險狠愎	-12.6927
子之所立也而	-12.6927
抜	-12.6927
此未始知	-12.6927
澣	-12.6927
見于纍	-12.6927
不遇其世	-12.6929
清靜自居味道爲樂	-12.6929
北極出地上三十六度	-12.6929
晃	-12.6929
陽化為陰	-12.6929
屎	-12.6929
話	-12.6929
杝	-12.6929
㓂亂盗賊	-12.6929
人求之不移日而得之	-12.6929
六爲上福	-12.6929
外象外數	-12.6929
席不暇温	-12.6929
擊建鼓	-12.6929
於丘垤	-12.6929
水火金木土	-12.6929
珉	-12.6929
讚	-12.6929
一李昌齡傳鄭清之賛	-12.6929
上棟下宇	-12.6929
于川測曰	-12.6929
子服厲伯	-12.6929
於翰墨	-12.6929
此用衆之法	-12.6929
盬	-12.6929
處軍當在高	-12.6929
鵲始巢	-12.6929
之執有命也	-12.693
麓	-12.6931
在雁門	-12.6931
鞫磕	-12.6931
隋侯之珠	-12.6931
之浩汗	-12.6931
夏之月招摇指	-12.6931
理之必然	-12.6931
今從之陸曰	-12.6931
四通八達	-12.6931
匪降自天	-12.6931
坎當申	-12.6931
帙	-12.6931
舉賢良方正	-12.6931
擒三將軍	-12.6931
歲有小兵	-12.6931
江出岷山	-12.6931
胴	-12.6931
之炁衰也	-12.6931
全性保眞	-12.6931
奇正相變	-12.6931
巛	-12.6931
擇其善者	-12.6931
日望月則月食月掩日則日食	-12.6931
有智焉有不智焉	-12.6931
欲義而惡不義	-12.6931
竭力從事未得次已而爲政有	-12.6931
耕作而食之掘井而飲之	-12.6931
詖	-12.6931
齊伐魯	-12.6931
𤵜	-12.6931
豈可謂有命哉	-12.6932
卨	-12.6933
則幾於道矣	-12.6933
蘇文忠	-12.6933
也淪入也	-12.6933
幸灾樂禍	-12.6933
恐嚇於他	-12.6933
曾不血刃	-12.6933
鵂	-12.6933
删	-12.6933
釋心爲性	-12.6933
之利器不可以示人	-12.6933
履霜堅氷至	-12.6933
甚矣世之好譎怪也	-12.6933
申徒狄	-12.6933
福善禍淫	-12.6933
蕳	-12.6933
藎	-12.6933
不與動對	-12.6933
倘	-12.6933
寑	-12.6933
小蠭營營	-12.6933
旁引曲	-12.6933
真隂真陽	-12.6933
見韓魏之君	-12.6933
負海之國	-12.6933
五百歲生黄	-12.6933
化坐自端	-12.6933
瑱	-12.6933
瞢瞢之離	-12.6933
砋	-12.6933
咨決於	-12.6935
三爲思上而當晝君子	-12.6935
少陰為辰	-12.6935
少陽為星	-12.6935
橐籥子曰天	-12.6935
吕申公	-12.6935
忻忻	-12.6935
薇	-12.6935
蛄	-12.6935
賫	-12.6935
錐刀之末	-12.6935
偓	-12.6935
惽	-12.6935
有㡬人耶	-12.6935
狴	-12.6935
祅	-12.6935
赴勢公子	-12.6935
蹛	-12.6935
黑暗中	-12.6935
侫	-12.6935
利而中中鬼之利而下中人之利故譽之	-12.6935
將之用兵也	-12.6935
智術之士	-12.6935
神呪經	-12.6935
自坤至乾	-12.6935
王公大人骨肉之親	-12.6936
眚	-12.6937
王皙同梅堯臣註	-12.6937
㩖	-12.6937
九八七六	-12.6937
冬至子半	-12.6937
陰乾末服	-12.6937
鰕	-12.6937
愜	-12.6937
棖	-12.6937
者視此得無愧乎	-12.6937
莫不賓服	-12.6937
蔡季通	-12.6937
其較略	-12.6937
按本草	-12.6937
車馬行疾	-12.6937
因敵而制勝	-12.6937
夷關折符	-12.6937
深思遠慮	-12.6937
銋	-12.6937
爲魯司寇	-12.6939
鏗	-12.6939
綫	-12.6939
縹	-12.6939
硝	-12.6939
狢	-12.6939
俿	-12.6939
旁若無人	-12.6939
鎋	-12.6939
也恃吾不可	-12.6939
簣	-12.6939
蹍	-12.6939
顒	-12.6939
鼽	-12.6939
殍	-12.6941
抱朴子内篇卷之二	-12.6941
鑿龍門闢伊闕	-12.6941
烜	-12.6941
父母妻子同産	-12.6941
郛	-12.6941
礱	-12.6941
罪其輕乎	-12.6941
騑	-12.6941
厚措歛乎萬民以爲	-12.6941
水所出東	-12.6941
琱	-12.6943
蜥	-12.6943
長三四尺	-12.6943
歴	-12.6943
讌	-12.6943
蟪	-12.6943
之氓社稷也而	-12.6943
無常儀的	-12.6943
不可取於鬼神	-12.6943
咡	-12.6943
琦	-12.6943
白舌于于	-12.6943
舳艫調安	-12.6943
誋	-12.6943
輕君而重	-12.6943
鄰人之父	-12.6943
雞鳴而起	-12.6943
誂	-12.6945
帔	-12.6945
犯而不校	-12.6945
蜄	-12.6945
躐	-12.6945
黄萬祐	-12.6945
鵙	-12.6945
刋是篇	-12.6945
則助之胥車	-12.6945
撣	-12.6945
無爲而無不爲	-12.6946
羊豢犬	-12.6947
譖	-12.6947
非有非指也	-12.6947
延壽一紀	-12.6947
㒵	-12.6947
釂	-12.6947
獬	-12.6947
義以方外	-12.6947
長洲之林	-12.6947
淵潢洋	-12.6947
虜掠至冨	-12.6947
負他貨財願他身死	-12.6947
丈人播船	-12.6947
咆	-12.6947
唈	-12.6947
敷淺原	-12.6947
逈	-12.6947
醋	-12.6947
以一二三四含	-12.6948
縉	-12.6948
漬之百日	-12.6948
弘恭石顯	-12.6948
琮	-12.6948
秉國之鈞	-12.6948
簷	-12.6948
在紫微者	-12.6948
九變之利者雖知地形不能得地之利矣	-12.6949
慴	-12.6949
孝悌忠順之道	-12.6949
緺	-12.6949
漢文帝	-12.695
貴而主斷	-12.695
頌聲作	-12.695
犇	-12.695
傉	-12.695
圍師必闕	-12.6952
於大國之間	-12.6952
履于跂	-12.6952
起心私之	-12.6952
與天地合德	-12.6953
服之皆令人	-12.6954
侗	-12.6954
争干及矛	-12.6954
數披其木毋使	-12.6954
此九地之名	-12.6954
衆之耳目之請	-12.6954
袃	-12.6954
儛	-12.6956
并之皆六十四	-12.6956
恐溉我也	-12.6956
故君不窮於	-12.6956
日月薄蝕	-12.6958
忖	-12.6958
正當天之中	-12.6958
設官分職	-12.6958
大善知識	-12.6958
子丹法用	-12.6958
戰易勝敵	-12.6958
螢	-12.6959
覬覦	-12.696
儇	-12.696
之風行尚	-12.696
之體餘為	-12.696
攴	-12.696
論必蓋世	-12.696
陽城胥渠	-12.696
坫	-12.6962
畦	-12.6962
妳	-12.6962
陔	-12.6962
自古以及今生民以來者亦	-12.6963
冒于貨	-12.6964
養成自性	-12.6964
一般人專要就	-12.6966
索國之富强不可得也	-12.697
躑	-12.697
蔶	-12.6972
則損五分之	-12.6972
非枉殺乎	-12.6972
王皙曰若韓信	-12.6973
能示敵以	-12.6977
五色並具而多	-12.6979
圻	-12.6981
范且虞慶	-12.6981
君臣争明	-12.6983
其色碧也	-12.6985
是我一舉	-12.6988
銚	-12.6989
朔旦冬至無餘分又千五百三十九歲	-12.6996
岷	-12.6999
入牛宿	-12.7001
子家駒	-12.7001
珧	-12.7001
郈昭伯	-12.7001
莫三人而迷	-12.7004
曆冬至日在斗	-12.7012
今天下之王公大人士君子中實將欲	-12.7033
杜牧曰黄石公曰	-12.7052
雖昔也三代	-12.7591
取火於日	-12.8045
巫馬子謂子墨子曰	-12.8679
也光謂九爲禍極而當夜	-12.9362
也巫馬子謂子墨子	-12.9451
每首九賛	-13.0582
無物之氣不可見	-13.0994
七爲消爲敗損	-13.1433
是故子墨子曰今天下之君子中實將欲	-13.1601
子墨子曰今天下之王公大人士君子	-13.1719
以尚同一義爲政故也	-13.1736
之所以治者何也唯	-13.1762
玉陽中之隂也	-13.1782
珠隂中之陽	-13.1785
邊一百八十日為十八宫	-13.1788
閶	-13.1791
螈	-13.1804
反而自存亦以	-13.1807
幎	-13.1807
浡	-13.1807
皆造化自然之妙	-13.1807
黄心鴻翼	-13.181
頡臯衝之	-13.1814
以穴高下廣	-13.1814
去故唯白馬獨	-13.1814
去者非有去也	-13.1814
汶陽之田	-13.1814
文字脫繆	-13.1817
曰鬼神之明智於聖人	-13.1817
不得眞淨皆	-13.1817
侶	-13.1817
兵無刃師無陳	-13.182
猶聰耳明目之與聾瞽也	-13.182
使人不能得從此獨	-13.182
翕繳惻惻	-13.182
葴	-13.182
𠏄	-13.182
二三子過之食之三升客之不厚	-13.1823
愛天下未云	-13.1823
憢	-13.1823
拔趙幟立漢	-13.1823
麟或賓之	-13.1823
也若裴行儉	-13.1826
亂乃逾甚	-13.1826
功皆未至子何	-13.1826
季仲播軌	-13.1826
容貌若愚	-13.1826
毎對客論談則言	-13.1826
火入耳農輟	-13.1826
馴義忘生	-13.1826
積芻茭	-13.1829
不宴不雅	-13.1829
其民氣以待人之	-13.1829
毚	-13.1829
洼	-13.1829
貴其能與衆共	-13.1829
軍或纍車	-13.1829
井傅城足	-13.1832
人嘻鬼嘻	-13.1832
佑聖院眞武眞君部下副	-13.1832
其一人者見子	-13.1832
凌孤逼寡	-13.1832
年之積粟行	-13.1832
收雷先行	-13.1832
方堅犯順	-13.1832
能鄙不相遺	-13.1832
譽大王是譽	-13.1832
靈囊大包	-13.1832
頭授將軍其柄曰從此	-13.1832
高者爲生下者	-13.1835
之退是謂縻	-13.1836
臨命終時	-13.1836
之是不三載也	-13.1836
仙跪拜稽首	-13.1836
令工施鈎梯而	-13.1836
其所修者本也	-13.1836
天民肅愼	-13.1836
師者貪財皆貴賣	-13.1836
沖而徐盈	-13.1839
姬王肇迹	-13.1839
酬其宿債	-13.1839
一切世間生死相續	-13.1839
此皆以樂施而	-13.1839
以一人之力禁一國	-13.1839
卒慎無使顧	-13.1839
嘻嘻自懼	-13.1839
柄長八尺十步一	-13.1839
況未得度世者乎	-13.1839
菰	-13.1839
蕈	-13.1839
近優而遠士	-13.1839
靈囊大包不敢自盛也	-13.1839
鬋	-13.1839
濁而徐清	-13.1842
一生善惡俱時頓現	-13.1842
信非得素拊循士大夫	-13.1842
民心百倍多執數	-13.1842
中成獨督	-13.1842
鴻裝于淄	-13.1842
蜷	-13.1845
臣免死罪矣	-13.1845
也甽澮之寫	-13.1845
兵甲戰具取用國中糧食因敵也	-13.1845
到生挫傷	-13.1845
司馬法曰見敵作誓瞻功行賞	-13.1845
后姬子姓	-13.1845
和氏之璧隋侯之珠三棘六異	-13.1845
大誅報小罪	-13.1845
捬	-13.1845
斗與辰合	-13.1845
潝	-13.1845
而爲服役者七十人	-13.1845
詩云不識不知順帝之則	-13.1845
豢牢之養	-13.1845
驚悸遂寤	-13.1845
𥲫	-13.1845
仙以此丹一刀圭粉水銀	-13.1848
六辰皆屬	-13.1848
其城可拔其國可隳	-13.1848
捬迎中庭	-13.1848
有一箇恁地道理	-13.1848
畦圃之毓	-13.1848
復姤為小父母	-13.1851
乘時證切	-13.1851
煖衣飽食	-13.1851
貶正排賢	-13.1851
宫后妃之府	-13.1851
利合於主國之	-13.1851
應之物有之足以備其數無之不缺於治	-13.1851
敵半出而擊	-13.1851
書精義曰天	-13.1851
莿	-13.1851
進不求名退不避罪	-13.1851
則其計所得者	-13.1851
則濁濁則無知	-13.1851
攏	-13.1851
日三尸游兩	-13.1851
暒	-13.1851
父母昆弟妻子有	-13.1851
禽獸麋鹿蜚鳥貞蟲	-13.1851
筭故未戰而廟謀	-13.1851
篋襲之藏	-13.1851
繼之是為巽元之	-13.1851
者勿燒柱	-13.1851
觸不周之山	-13.1851
鍾鼓喈喈	-13.1851
𩉇	-13.1851
刑于寡妻	-13.1852
比參為伍	-13.1854
焚舟破釜	-13.1854
陳直刃切	-13.1854
縋	-13.1854
駈	-13.1854
天相北二星	-13.1854
斗星盛明王道和平	-13.1854
晝夜長短行度盈縮莫不由此	-13.1854
曰體天地之撰者	-13.1854
模範之模	-13.1854
闔闢日月出入春夏秋冬	-13.1854
主在上則人臣去	-13.1855
嗟我懷人寘彼周行	-13.1855
固非局量𥚹淺者之所	-13.1855
所爲貴良寳者	-13.1855
民者固服於勢	-13.1855
治而國亂者也未嘗聞身亂而國治者也	-13.1855
猶不親而況於	-13.1855
莫能增其高尊其靈	-13.1855
連挺長斧長椎	-13.1855
𣍘	-13.1855
卬	-13.1858
生從順習死從變流	-13.1858
也八風八卦之風	-13.1858
十李昌齡傳鄭清之賛	-13.1858
月淑清而揚光	-13.1858
苟𢦙不然不免	-13.1858
擊則不能斷刺則不能入	-13.1858
為天喉舌斟酌元氣運	-13.1858
傳曰辰在斗柄日月會南斗	-13.1858
大火為大辰	-13.1858
之道簡易而已	-13.1858
乾貞於十一月子	-13.1858
交而動植之	-13.1858
人以上令丞尉	-13.1858
令不行而禁不止	-13.1858
伐鄭以報讎子西	-13.1858
則此豈刑不善哉用刑則不善	-13.1858
右過左左就右	-13.1858
張商英天覺	-13.1858
拂其繫絶其纗佚厥心	-13.1858
收歛關巿山林澤梁之利以實倉廪府庫	-13.1858
杕	-13.1858
濕迎牀足	-13.1858
為起數之端	-13.1858
異黄馬於馬	-13.1858
百姓之費十去其七	-13.1858
顊	-13.1858
兵不血刃	-13.1861
蕢	-13.1861
後漢班超使西域到鄯善	-13.1861
方喧傳間監鎭	-13.1861
燕將慕容恪	-13.1861
罪惡深重	-13.1861
馘	-13.1861
鶡冠子卷上	-13.1861
令之攻魏因請	-13.1861
隃	-13.1861
以灌民田由是一邑	-13.1861
兠	-13.1861
凡卦之屬乎	-13.1861
前星為太	-13.1861
唱名爲天下第一	-13.1861
噅	-13.1861
山林險阻沮澤凡難行之道	-13.1861
從陰陽處看	-13.1861
澄精神於玄	-13.1861
陳以五行戰以五音	-13.1861
類類生成用一不窮	-13.1861
魏王之臣也而善於	-13.1861
七三得五而為	-13.1861
三百六十運周以	-13.1861
之法要在示敵以	-13.1861
也而治世不以爲民	-13.1861
五萬五千九百八十七萬二千	-13.1861
以黄馬爲非馬	-13.1861
八四得五而為	-13.1861
出暮入耕稼樹藝多聚升粟	-13.1861
多治麻絲葛緒細布縿	-13.1861
我候其半出	-13.1861
搐	-13.1861
星在帝座東北	-13.1861
曰言歸者死	-13.1861
為有司所劾	-13.1861
疽發于背	-13.1861
百七十四度有奇	-13.1861
積差之貸	-13.1861
舲	-13.1861
萬一千八百四十	-13.1861
言道道之始有	-13.1861
說樂而聽之即必不能蚤	-13.1861
謂近一遠三為弦此謂	-13.1861
謲	-13.1861
遞互伸縮	-13.1861
間時以治六辰	-13.1861
之百姓言曰聞善而不善	-13.1864
我也不疆求	-13.1864
殺龜打蛇	-13.1864
眭	-13.1864
緩之則走不顧急之則	-13.1864
公孫龍子卷上	-13.1864
菁	-13.1864
化爲蟲縁遶其身	-13.1864
善乃興化軍	-13.1864
嗣昌印施戒殺圖子不謂婦人華氏乃敢	-13.1864
情想均等不飛不墜	-13.1864
純想即飛必生天上	-13.1864
又分為小象者七星家名	-13.1864
驗不可備紀	-13.1864
俱上以爲羊	-13.1864
弗能載名弗能舉	-13.1864
服金丹大藥雖未	-13.1864
獲罪俟吾二十七日再降更看如何然則	-13.1864
積土爲高以臨	-13.1864
聲之陰陽各有合	-13.1864
蒙櫓俱前遂屬之城兵弩俱上爲之	-13.1864
佯背我去	-13.1864
天命玄鳥降而生商	-13.1864
平公晋悼公之子彪	-13.1864
潜雖伏矣	-13.1864
祭如在祭神如神在	-13.1864
粉白黛黑	-13.1864
花殘葉落深秋	-13.1864
之利矣意將以爲利	-13.1864
之稱也當吾之	-13.1864
令童男童女	-13.1864
以爲讒賊㓂戎	-13.1864
出溱溱	-13.1864
卜陽潘鴻	-13.1864
嗁	-13.1864
始畢可汗	-13.1864
子至辰自辰至申	-13.1864
怯也入吾境	-13.1864
指星體而言	-13.1864
數十六卦成二百五十六卦位合四變凡	-13.1864
日以某事減若干筭	-13.1864
用昏建者杓	-13.1864
紫蜺矞雲	-13.1864
羨于塗不能直	-13.1864
至乎王公大人之側	-13.1864
萁	-13.1864
角之而知有餘不足之處	-13.1864
鏵	-13.1864
顓童不寤	-13.1864
馬與白復名白馬	-13.1864
魚肚中水	-13.1864
善者其室人未徧知	-13.1866
數千萬里之外有爲	-13.1866
下飲黄泉用心一也	-13.1867
無筋骨之强爪牙之利	-13.1867
爲合仲春與仲秋爲合季春與季秋爲合	-13.1867
粕	-13.1867
也王本穀作轂今從	-13.1867
何以稱爲人哉	-13.1867
未捨暖觸	-13.1867
為楚所敗是也	-13.1867
上至天者將軍制之	-13.1867
九天八方中央	-13.1867
名法權術	-13.1867
嫁其子而教之曰	-13.1867
孫子曰凡用兵之法將受命於君	-13.1867
綿綿若存	-13.1867
聦情幽斯鈍情多想少流入横生重爲毛	-13.1867
親操鉞持	-13.1867
輕爲羽族	-13.1867
三禮既畢	-13.1867
之拙者也足以勞	-13.1867
察知此地有一	-13.1867
雜黄老刑名	-13.1867
龍左角為天田	-13.1867
上因天時下盡地	-13.1867
以濟生民之日用也	-13.1867
氏旣死數	-13.1867
一月五卦一卦六爻	-13.1867
五太尉祭酒臣許愼記上天文訓	-13.1867
亦只是這箇圈子	-13.1867
伏羲則河圖以畫卦	-13.1867
俻	-13.1867
具於中央五	-13.1867
冠蓋相望而	-13.1867
參雜而計量之然後	-13.1867
咽氣搐外腎	-13.1867
問政於仲尼仲尼曰政在	-13.1867
天權神曲五音術兵逸	-13.1867
孔道夷如	-13.1867
從徽徽後	-13.1867
懶上危樓	-13.1867
我弱敵强	-13.1867
或蘖青青	-13.1867
數言之一年爲	-13.1867
星為明堂天子	-13.1867
最宜玩味	-13.1867
殼	-13.1867
淬	-13.1867
知築脩城	-13.1867
累世義聚不分	-13.1867
而使敵不知其所	-13.1867
耳安取白馬	-13.1867
賜貧窮論囹圄	-13.1867
軍容不入國國容不入軍	-13.1867
里未徧聞天子得而	-13.1867
陽在南陰在北	-13.1867
顔色不變絃歌不	-13.1867
公曰使子有三歸之家	-13.1867
政令不斷則民不畏	-13.1867
故古者聖王之爲政若此今	-13.1867
日月底于天廟	-13.1867
曰臣富矣然而臣	-13.1867
牌	-13.1867
珥而美其一	-13.1867
秣馬蓐食	-13.1867
蓄禄不厚則民不信	-13.1867
一奇一耦	-13.187
凡秋三月肺氣旺	-13.187
妄有貶排	-13.187
柚	-13.187
當極其變耳	-13.187
趎	-13.187
下至淵者將軍制之	-13.187
六合不足均也	-13.187
蟲蠱之鬼蠱滅報盡	-13.187
周匝圍身	-13.187
無天於上無地於下無敵於前無主於後	-13.187
甘露下竹實滿流黄出	-13.187
茲	-13.187
飛鳥鍛翼走獸	-13.187
吾將進其塗	-13.187
者爲陽自上而下四萬二千里乃曰陽位	-13.187
𩔖是等皆以	-13.187
十丸未一年髮白	-13.187
方用眞丹三斤白蜜	-13.187
月信死信生	-13.187
煎之令可丸旦服如麻子	-13.187
黣	-13.187
三人成市虎	-13.187
三百七十四歲	-13.187
之恥於君子矣	-13.187
之恥於小人而	-13.187
其欲治又不甚也	-13.187
匠能與人規矩	-13.187
十二粟而當一	-13.187
南嶽夫人曰	-13.187
君實欲天下之治而惡其亂	-13.187
吾今行兼矣昔者	-13.187
善動敵者形之敵必從之	-13.187
在人頭上録人罪	-13.187
坎艮震之二十	-13.187
垀	-13.187
寨主監押	-13.187
已藏了老	-13.187
度四分之一而	-13.187
得意賢士不可不舉	-13.187
從不淑禍	-13.187
怨憤遂感	-13.187
撞大鍾擊鳴鼓吹	-13.187
是故上帝以爲物	-13.187
曰爵位不高則民	-13.187
曰臣貴矣然而臣貧	-13.187
有所爲而我爲之陳執	-13.187
有色故有白	-13.187
東南射兕西北其矢	-13.187
林類榮啓	-13.187
枻	-13.187
涔旱災害之	-13.187
滅頂于血	-13.187
獻伯之儉也	-13.187
目威於色不得不明	-13.187
羣下不可妄	-13.187
良史所記	-13.187
葉公子高問政於仲尼	-13.187
螬	-13.187
蠹得我心	-13.187
衢地吾將固其結	-13.187
褶	-13.187
誅降戮服	-13.187
請解炮烙之刑	-13.187
轙	-13.187
雖在農與工肆之人	-13.187
革車千乗	-13.187
頑嚚凶愚之	-13.187
養二人主炊家子一人主	-13.187
餞	-13.187
高予之爵重予之禄任之以事斷予之令	-13.187
𦝢	-13.187
粹讀禍祟	-13.1873
夾洹水而軍	-13.1873
出冥入冥新故更代	-13.1873
夏與孟冬爲合仲夏與仲冬爲合季夏與	-13.1873
入阿鼻獄	-13.1873
所謂驅市人而戰	-13.1873
死人曰夏生生者	-13.1873
爻變者十卦皆自	-13.1873
道見村民	-13.1873
震卦時依法起火鍊肝氣	-13.1873
非吾所及於是	-13.1873
逅	-13.1873
光謂二爲思中而當夜故有是象次三	-13.1873
天原發微卷之九	-13.1873
子華子曰異乎吾所聞夫	-13.1873
所生者為母子	-13.1873
者臣之所治君之	-13.1873
蛔	-13.1873
静極復動一動一静互	-13.1873
之悅近而來遠	-13.1873
服冕乘軺	-13.1873
玄光玉女道之母也	-13.1873
自旦至暮	-13.1873
鵰	-13.1873
陛高二尺五	-13.1873
三老守閭	-13.1873
上帝亦譴其	-13.1873
丸日三服	-13.1873
之得見人之失如	-13.1873
也小餌黄金	-13.1873
如彈丸一枚亦可	-13.1873
字陰隱兩	-13.1873
指間令如泥若不沸及握之不出指間即	-13.1873
無狀之狀無物之象	-13.1873
苙	-13.1873
衆悉燒死	-13.1873
醫者理也理者意也藥者瀹也瀹者養也	-13.1873
上以風化下	-13.1873
之中而權輕重之謂	-13.1873
之首而貫乎	-13.1873
也害之中取小	-13.1873
以知尚賢之爲政本也	-13.1873
仲尼以文王爲智	-13.1873
六千五百六十一而數	-13.1873
勝兵先勝而後求戰敗兵先戰而後求勝	-13.1873
十九歲為一章	-13.1873
卑弱以驕	-13.1873
各持一把茅以火攻拔之	-13.1873
同誹譽在俗	-13.1873
和丘曰荒土	-13.1873
太極肇判	-13.1873
如車蓋狀	-13.1873
或曰知其且赦也而多	-13.1873
截六際而	-13.1873
故聖王作爲宫室	-13.1873
日月星辰託焉辰雖不可見天晝夜	-13.1873
星在太微北	-13.1873
有憂色何也	-13.1873
棿	-13.1873
業報因縁經	-13.1873
水木陽也火金陰也	-13.1873
焯	-13.1873
者聞之亦退而謀曰始我所恃者	-13.1873
苟冨而驕	-13.1873
蚘	-13.1873
行九十餘萬里	-13.1873
見山海經	-13.1873
見故不用之一用之所宗	-13.1873
言有宗事有	-13.1873
過門折入	-13.1873
開物至閉物	-13.1873
隂太極而陽生	-13.1873
霣	-13.1873
不計死傷與糧競	-13.1873
偷幸而望於上	-13.1873
又分小象者七星家名	-13.1873
如大洪爐人物生	-13.1873
官之責於君	-13.1873
恪卷甲深入	-13.1873
昔者齊桓公九合諸侯一匡天下	-13.1873
笙彈琴瑟	-13.1873
蜮	-13.1873
餘力於心莫負	-13.1873
則此語古者國君諸侯之	-13.1875
厮	-13.1876
火燎原不可	-13.1876
多藏厚亡	-13.1876
三石以上小大相雜	-13.1876
深丈五廣	-13.1876
爻變者十有五卦皆自	-13.1876
今於此篇又	-13.1876
山大小天台山	-13.1876
盖竹山括蒼山	-13.1876
一箇陰一箇陽	-13.1876
上章求解	-13.1876
人中最爲第一又曰六度萬行忍爲第一	-13.1876
命之情者不憂	-13.1876
四方上下曰宇	-13.1876
天原發微卷之三	-13.1876
性之情者不務性之所無以爲	-13.1876
持禄養交	-13.1876
曰書三寫魚成魯	-13.1876
爲之奈何子墨子曰問	-13.1876
計其妻子家口以當	-13.1876
三爲成意而當夜故有是象	-13.1877
其右一點	-13.1877
取黄金五兩置器中煎之	-13.1877
名大將軍參星主之	-13.1877
四李昌齡傳鄭清之賛	-13.1877
坤來交乾成	-13.1877
壽二千歲五兩	-13.1877
天地食半斤	-13.1877
家里用提	-13.1877
望張星主之	-13.1877
若晋楚争鄭	-13.1877
公爾忘私	-13.1877
寒温神人玉女	-13.1877
弩夾門而伏超順風縱火	-13.1877
生身體潤澤長	-13.1877
纘	-13.1877
與金同法服此二物	-13.1877
陰計外泄者敗	-13.1877
一百六十七億九千九百	-13.1877
三十六於是進而爲	-13.1877
三百善行之只在	-13.1877
不能照已之明	-13.1877
之炁下浹	-13.1877
之父毋所以望其	-13.1877
乎二氣五行萬物之	-13.1877
也交淺而言深是	-13.1877
也荄古哀切	-13.1877
也設復言好	-13.1877
二十兩為鎰	-13.1877
五倍然後攻	-13.1877
人皆喜惟子	-13.1877
介甲龜鼈	-13.1877
以一月圖一年	-13.1877
以十敵一則圍之是	-13.1877
以苛爲察以	-13.1877
使貪使愚	-13.1877
傳於不道不神不聖不賢之人	-13.1877
全固輕利	-13.1877
公平正直底鬼神	-13.1877
刑以威之賞	-13.1877
半動半静	-13.1877
半曰不若朝於	-13.1877
半盈半虧星	-13.1877
古往今來	-13.1877
吾欲兩用公仲公叔其可乎	-13.1877
啳	-13.1877
垸	-13.1877
夜以火如此數	-13.1877
天確然在上有常安之形	-13.1877
太虚本無形體	-13.1877
富不强必貧强必	-13.1877
幀	-13.1877
弦或退則是	-13.1877
從車百乘	-13.1877
愚智勇怯等	-13.1877
愛民民死賞	-13.1877
或求之陰或求之陽	-13.1877
操所以倍兵圍下邳生擒吕布	-13.1877
故雖昔者三代暴王桀紂幽厲之所以	-13.1877
曰政在悅近而來遠	-13.1877
某里某子家食口	-13.1877
横而首昂	-13.1877
機關攻守之總名	-13.1877
正在太倉胃管中正南面坐	-13.1877
歸根復命	-13.1877
毫末爲宅	-13.1877
潑	-13.1877
為陳而吴人至見	-13.1877
無衣帛之妾	-13.1877
當今之王其爲	-13.1877
知永興知	-13.1877
竟平遼東〇	-13.1877
糞以肥丘	-13.1877
累卵業業	-13.1877
經反對卦十八此反易者十	-13.1877
繽	-13.1877
者爲如何今也旣	-13.1877
耰	-13.1877
聞之不勝感愴	-13.1877
能分人之兵疑人之心則	-13.1877
自厚而薄人	-13.1877
著作佐郎	-13.1877
蠏	-13.1877
行徧天之分界	-13.1877
詘而辭窮	-13.1877
足纍纍其步躟𨄍	-13.1877
距闉又三月	-13.1877
車戰得車十乘已上	-13.1877
迷目達腹	-13.1877
通前計八萬四千里以到	-13.1877
達于砭割	-13.1877
遜曰吾已曉破	-13.1877
鄭賈人弦高	-13.1877
霍山恒山	-13.1877
須女虛危	-13.1877
頭室故曰左	-13.1877
𨴗	-13.1877
𪖣	-13.1877
填滿太倉	-13.1878
凈	-13.1878
市馬骨以	-13.188
及文公反國	-13.188
味以干湯	-13.188
師佐武王伐紂成王封	-13.188
禍之窮也而當晝君子	-13.188
中而少親我謀而	-13.188
痿	-13.188
公與楚人戰於	-13.188
卦凡冬三月腎氣旺	-13.188
見所始則知	-13.188
隨施輙盡	-13.188
中自子至已	-13.188
主龍溪簿	-13.188
之上逋者名	-13.188
兊卦時依法起火鍊肺氣	-13.188
時行焉百物生焉	-13.188
矣以言取怨者禍	-13.188
閨門兩扇令	-13.188
三復斯言大	-13.188
乙陰為木	-13.188
六二得五而為	-13.188
劒名失傷角星主之	-13.188
多少便可餌之當以王相	-13.188
弓名曲張	-13.188
故獲斯報	-13.188
數絶諸侯之地	-13.188
星主之矢名	-13.188
曰内不量力外恃諸侯	-13.188
樅	-13.188
肥墝高下	-13.188
蓁	-13.188
雲炁華蓋之下坐	-13.188
鵾	-13.188
齊之蕪也固宜	-13.188
一年即輕舉矣	-13.188
丙午日日中	-13.188
中百入百出苦酒亦	-13.188
分之節也過此	-13.188
分為三道以攻敵	-13.188
地仙勿妄傳也兩	-13.188
慢其所敬者凶	-13.188
戊午戊子	-13.188
數不明則理亦	-13.188
爲棺槨多爲衣	-13.188
窮理盡性以至於命理	-13.188
編户齊民	-13.188
虙	-13.188
一又作重為六十四卦	-13.188
一見竒之遂妻以女	-13.188
不察尚賢爲政之本也	-13.188
之包五行也以其	-13.188
争射齦齦	-13.188
二萬九千五百	-13.188
人五臟諸星如人	-13.188
以不敢棄法受賂竟	-13.188
以像鱗蟲	-13.188
以度量知空虚會戰之日	-13.188
以累舉不第	-13.188
先攻一營不利	-13.188
兩不相去一日而死	-13.188
八卦九章相	-13.188
内常微女	-13.188
内水向黄武	-13.188
决其聾𪖣利	-13.188
利用安人正國	-13.188
則是國家失卒而百姓易務也	-13.188
去雍鉏退彌子瑕而用司空狗	-13.188
圜方杌棿	-13.188
土積高而前以附	-13.188
士馬勞倦	-13.188
天地盈虚與時消息	-13.188
太歲為陰左行	-13.188
夫道德仁義禮五者一體也	-13.188
小善不能至大也	-13.188
徃來熏熏	-13.188
必厚作歛於百姓暴奪民衣食之財以爲	-13.188
愼子曰飛龍乘雲騰蛇遊霧	-13.188
戢將自焚	-13.188
戰之日則可千里	-13.188
戰於鄢陵	-13.188
拖	-13.188
指諸星運轉以為天	-13.188
攻其所必愛	-13.188
故曰不敢爲天下先	-13.188
斷我否食	-13.188
曰水陰根陽火陽根陰	-13.188
氏以亡昔先大夫	-13.188
河鼓亦名牽牛	-13.188
流謙鬼神害盈而福謙人道惡盈而好謙	-13.188
爲忠以計多爲	-13.188
物莫非指者而指非指也	-13.188
知孰是孰非	-13.188
紟	-13.188
聽吾計用之必	-13.188
能爲社稷忍羞	-13.188
虎虓振廞	-13.188
衛君朝於吴	-13.188
讁	-13.188
躆戰喈喈	-13.188
車脚供㸑	-13.188
軔而兵可迭也	-13.188
軼玄眇而	-13.188
退無濡尾之	-13.188
道者人之所蹈使萬物	-13.188
鉿	-13.188
錯蓍焯龜	-13.188
陽阿采菱	-13.188
雚蔰炫煌	-13.188
雲行雨施	-13.188
頓兵血刃	-13.188
駎	-13.188
上之爲政得下之情則	-13.188
不明於民之善非	-13.188
使士不兼官故技長使人不同功故莫争	-13.188
其國家傾覆其社稷者	-13.188
方委頓間	-13.188
計國家百姓之所以	-13.188
闒茸駔儈	-13.188
之金玉蚤絫者乎與踰人之欄牢竊人	-13.1881
内有以食飢息勞	-13.1881
楚將龍且	-13.1883
也楚人讀躓	-13.1883
山無峻榦	-13.1883
㳂	-13.1883
犬群嘷	-13.1883
石沙炭以雨之薪火水湯以濟之	-13.1883
秋風下霜	-13.1883
七情耗散元陽	-13.1883
傳曰按涅槃經	-13.1883
内御則功難成	-13.1883
名文命受禪成	-13.1883
赤水出其東南陬	-13.1883
走失眞氣	-13.1883
不以欲亂情	-13.1883
之神良勿傳	-13.1883
五既居中體正得位當晝	-13.1883
刀名大房虚星主之	-13.1883
嘶	-13.1883
常以鷄鳴食時	-13.1883
忘言也而猶有萌焉夫	-13.1883
春秋二百四十二年	-13.1883
曰元亨誠之通	-13.1883
漸長故萬物向	-13.1883
燕將慕容評	-13.1883
生兩儀兩儀生	-13.1883
甲子甲午各一世也	-13.1883
矯鄭伯之命以十二牛勞	-13.1883
策於不仁者險	-13.1883
范曰七爲失志故	-13.1883
辛陰為金	-13.1883
〇張觀物曰	-13.1883
千仞之山者勢也	-13.1883
天道以六而變必有餘分	-13.1883
如轉圓石於	-13.1883
姑嘗本原若衆	-13.1883
後約曰見火燃皆當鳴鼓大呼餘人悉持	-13.1883
此胡自生此自	-13.1883
畿内之縣	-13.1883
蠍	-13.1883
黄金法猪負革	-13.1883
㼜	-13.1883
三用而一不用	-13.1883
三百六十乘三百六十得一	-13.1883
上帝山川鬼神天以爲	-13.1883
不加知而使賢者煬	-13.1883
之三十二卦其一皆向	-13.1883
也飲罷終宵火起	-13.1883
亦如前四十五日立	-13.1883
亦登時愈也	-13.1883
人之墻垣抯格人之子女者	-13.1883
人因此若執函敗	-13.1883
以樂爲利其子而爲其子	-13.1883
以翻然改圖篤意教子其	-13.1883
以順討逆	-13.1883
何㦸解解	-13.1883
兑人遇雨	-13.1883
共二萬一千里二節爲一時一時九十日	-13.1883
其下四輪從中推	-13.1883
其左一點	-13.1883
兼陰六之半	-13.1883
力戰或生守隅則死	-13.1883
去國越境而師者絶地也	-13.1883
去所愛而用所賢	-13.1883
國家欲脩保而勿失	-13.1883
天下無指而物不可謂指	-13.1883
天如覆盆	-13.1883
天根見而水涸	-13.1883
太卜曰子之道何能對曰能動地	-13.1883
夫子之學乾大人之學也	-13.1883
幔	-13.1883
干于浮雲	-13.1883
張預曰前狹後險	-13.1883
待其衰懈	-13.1883
怠乎聽獄治政	-13.1883
恲	-13.1883
愷悌君子求福不回	-13.1883
我有暴亂之行則天下	-13.1883
撟	-13.1883
故其中之所以為五者亦具五	-13.1883
數之象謂其下一	-13.1883
方曰得氣而	-13.1883
是以吏治官府	-13.1883
有拔難之心	-13.1883
未得其問也仲尼亦未得其所以對也	-13.1883
東有大星曰狼	-13.1883
梱	-13.1883
殺生相午中	-13.1883
水生木木生火火生土土生金金	-13.1883
求生故曰困而不謀者窮窮而不戰者亡	-13.1883
洛書以奇數為主	-13.1883
無三年之食者	-13.1883
無故富貴面目佼好則使之	-13.1883
獸四面陳之世謂	-13.1883
皆啖蛇故	-13.1883
盡隨於萬物之	-13.1883
突以出四塞不通欲勵士激衆使之投命	-13.1883
窐	-13.1883
窮富極貴	-13.1883
笮	-13.1883
級欲爲官者爲	-13.1883
綯	-13.1883
腐肉朽骨弃	-13.1883
自卯至酉	-13.1883
莫不從移將之所指莫不前死	-13.1883
葬久喪果非聖王之道	-13.1883
蓯	-13.1883
藏鬱於泉	-13.1883
行一百八十有餘轉	-13.1883
衝衝兒遇不	-13.1883
視之無形聽之無聲	-13.1883
調以五音正以六律	-13.1883
賢者之必賞善罰暴也	-13.1883
赤黄精炁光明照	-13.1883
迕	-13.1883
達于中衢	-13.1883
鉿然有穿	-13.1883
錘以玉環	-13.1883
鑿龜數筴兆曰大吉而	-13.1883
陽陵國侯	-13.1883
離盡卯中	-13.1883
食黄金玉餌	-13.1883
馮夷大丙之御	-13.1883
黃乘否貞	-13.1883
𢅏	-13.1883
曹操曰結諸侯也〇李筌曰	-13.1884
而既已不可矣欲以干上帝鬼神之福	-13.1884
之若人唯使得上之	-13.1884
國者其親戚死	-13.1884
𦊙	-13.1885
蝮	-13.1885
嗑	-13.1886
兼弱攻昧取	-13.1886
殊死戰不可敗	-13.1886
之捷來措	-13.1886
之鴈從北漠中來	-13.1886
譬猶揚堁而弭塵抱薪	-13.1886
貁	-13.1886
不限年月日	-13.1886
而除萬民之害	-13.1886
行罰以静爲故從之以急	-13.1886
被攝至冥司冥官	-13.1886
隨陽而藏無	-13.1886
天原發微卷之二	-13.1886
讀歌謳之	-13.1886
亞夫使備	-13.1886
共工與顓頊爭	-13.1886
撫其御之手	-13.1886
曰非無安居也	-13.1886
無安心也非無足財也	-13.1886
𥬇	-13.1886
不知三軍之權而同三軍之任	-13.1886
嗚呼畜生尚爾	-13.1886
好衆辱人者殃	-13.1886
家人嗃嗃	-13.1886
己卯己酉	-13.1886
者少迷惑者多	-13.1886
菊有黄華	-13.1886
賞善而罰惡	-13.1886
彈指便過	-13.1886
意吾以爾爲可	-13.1886
七千里三氣爲一節一節四十五日	-13.1886
不已至於禍極故	-13.1886
之合故在卦為	-13.1886
也五爲福中而當	-13.1886
也戮辱所任者危	-13.1886
以美善在上而	-13.1886
哉故曰其出彌遠者其	-13.1886
坤艮坎巽	-13.1886
執干戚而舞	-13.1886
小輪載日月	-13.1886
心纔動便	-13.1886
憂慼在臣	-13.1886
所由者事之所以相因也理之所以相然	-13.1886
晝則旌旗相續	-13.1886
普天之下莫非王土率土之濱莫非王臣	-13.1886
智過於轅門	-13.1886
照半規之	-13.1886
王曰五居君位而	-13.1886
生分名乎天下	-13.1886
生與即必曰非然也必曰從	-13.1886
神字禄之兩	-13.1886
節爲始是時	-13.1886
者果生天下之大	-13.1886
腎氣與心氣相合	-13.1886
蔟地而生故曰太蔟	-13.1886
行蟯動之蟲	-13.1886
足寒傷心人怨傷國	-13.1886
隂衰陽發	-13.1886
一云上尸名	-13.1886
一動一静已發未發	-13.1886
一變六十六變	-13.1886
中自分體用則	-13.1886
之移其百姓之意焉率以	-13.1886
乎師曠曰不如清	-13.1886
也以臧爲其親也而	-13.1886
二人夾散門	-13.1886
五七三十五名	-13.1886
以圉風寒上	-13.1886
以垂棘之璧與屈産之乘賂虞公	-13.1886
以折之待其氣衰	-13.1886
伯玉衛大夫蘧瑗	-13.1886
便吾器用養吾武勇	-13.1886
信周其誠上	-13.1886
光于四方于西土	-13.1886
分外營求	-13.1886
則前鬭後拓左右掎角	-13.1886
前升後舉	-13.1886
又聽陽歌	-13.1886
嚙	-13.1886
國覆軍賊	-13.1886
土龍以求雨芻狗	-13.1886
地薄者大物不	-13.1886
墨斂韱韱	-13.1886
大人者與天地合	-13.1886
太宗征薛仁	-13.1886
好是冥德	-13.1886
如雷如霆	-13.1886
子華子卷之二	-13.1886
將智勇等而兵利鈍均也若主弱客强	-13.1886
小斂不貸	-13.1886
左右險阻擊鼓而出敵人若當疾擊務突	-13.1886
帶其鉤鞶	-13.1886
微子去商仲尼去魯	-13.1886
必十倍然後圍之	-13.1886
怠乎治官府	-13.1886
戎鹽鹵鹹	-13.1886
或直之或翼之得	-13.1886
拏	-13.1886
掠以繼食下得粟帛皆貢於上多者有賞	-13.1886
曾撓摩地	-13.1886
有求生之志	-13.1886
未申酉戌亥	-13.1886
杜佑註同	-13.1886
棄盛乘衰也	-13.1886
樹秃者大	-13.1886
此八者匹夫之私	-13.1886
水淺者大魚不	-13.1886
求之世間多有如此	-13.1886
深溝高壘示敵且久敵疑通途私除要害	-13.1886
熒𤕠狧狧	-13.1886
玉不毁孰爲	-13.1886
珠玉之車驂駕	-13.1886
相屬續以備不虞	-13.1886
知天地之始先天地	-13.1886
紫虚元君	-13.1886
總閲諸神	-13.1886
羽翮主遠	-13.1886
者大獸不居此	-13.1886
者已寓於相	-13.1886
耳威於聲不	-13.1886
苦酒三升	-13.1886
茭	-13.1886
蟻緣而登	-13.1886
行十二分度之一	-13.1886
見難不苟免	-13.1886
視籟與竽	-13.1886
訶風罵雨	-13.1886
謙尊而光	-13.1886
賞而暴人罰則國必治	-13.1886
贕	-13.1886
闔扇通障塞	-13.1886
陰星夜可見	-13.1886
陵陽字子明	-13.1886
隨時對飲金波	-13.1886
雖千里之遠可	-13.1886
鸑	-13.1886
黄靈幽貞	-13.1886
齊王無以應尹文曰今有人	-13.1886
務農重榖	-13.1886
奈何子墨子曰子問	-13.1886
有强敵後有險難敵絶我糧道利我走勢	-13.1886
有未始有有始者	-13.1886
燒盡糧食填夷井竈割髮捐冠絶去生慮	-13.1886
秦渠蚈讀	-13.1886
箔	-13.1886
若蚈之足	-13.1886
鼓譟不進以觀吾能則如之何武曰圍地	-13.1886
爲政乎貴且	-13.1888
陰伏吾士與之中期内外相應其敗可知	-13.1888
數也甚多此皆是	-13.1888
衣三領足以朽肉	-13.1888
絻	-13.1889
曰今在危亡之地死生從司馬	-13.1889
螳	-13.1889
以北南風者姑洗	-13.1889
其位西方其日庚辛其蟲毛其音商律中	-13.1889
北方玄武之宿是月昏	-13.1889
[...]
