<unk>	0
<s>	0
</s>	0
。	-2.07904
)	-3.65837
(	-3.65898
也	-4.684
者	-4.88734
引	-5.04087
二合	-5.09538
之	-5.23701
以	-5.30494
故	-5.32975
為	-5.40306
而	-5.53217
一	-5.53273
即	-5.55187
二	-5.59155
此	-5.63026
是	-5.65405
於	-5.7008
有	-5.75777
中	-5.78221
心	-5.80501
三	-5.82288
若	-5.84621
則	-5.88698
如	-5.89863
無	-5.9418
其	-5.9517
不	-5.959
等	-5.96045
上	-5.99426
法	-6.06504
相	-6.07073
見	-6.08194
。】「	-6.12545
生	-6.14139
名	-6.1551
。」【	-6.16051
大	-6.23366
一切	-6.24763
非	-6.25664
時	-6.27717
▁	-6.28521
謂	-6.29849
四	-6.31117
得	-6.31536
言	-6.32395
佛	-6.33296
明	-6.33399
身	-6.34409
及	-6.3569
人	-6.40382
自	-6.40552
阿難	-6.42668
作	-6.43409
多	-6.45663
入	-6.46454
諸	-6.47535
彼	-6.48417
成	-6.48662
皆	-6.48831
如來	-6.49437
行	-6.50561
因	-6.51965
下	-6.52998
所	-6.54026
說	-6.54292
至	-6.54476
亦	-6.55554
又	-6.55703
云	-6.57552
▁*	-6.57683
與	-6.5791
如是	-6.58502
五	-6.58975
我	-6.59187
菩薩	-6.59663
或	-6.60752
,	-6.62575
地	-6.63441
印	-6.6595
從	-6.6634
空	-6.67579
觀	-6.69604
義	-6.71097
處	-6.71196
去	-6.71273
前	-6.71355
曰	-6.7243
在	-6.72836
性	-6.73817
今	-6.73865
能	-6.74103
當	-6.759
初	-6.80123
同	-6.81985
用	-6.82269
眾生	-6.82756
出	-6.84369
後	-6.8453
知	-6.84741
然	-6.84992
六	-6.86254
耶	-6.86341
、	-6.87627
矣	-6.87881
應	-6.88052
阿	-6.88532
金剛	-6.88937
合	-6.89081
已	-6.91423
令	-6.9145
囉	-6.93705
本	-6.94336
次	-6.95856
天	-6.95893
欲	-6.96099
經	-6.96674
事	-6.96769
由	-6.97415
現	-6.97935
色	-6.98162
識	-6.99105
唵	-6.99892
住	-7.00057
取	-7.01367
賀	-7.01424
智	-7.01643
破	-7.01838
乃	-7.02708
離	-7.02802
汝	-7.03416
起	-7.03912
常	-7.03936
指	-7.04383
意	-7.04434
分	-7.04953
水	-7.05052
巳	-7.0639
耳	-7.06485
妄	-7.07126
滅	-7.07531
聞	-7.07654
野	-7.08519
想	-7.09121
即是	-7.09268
定	-7.09295
既	-7.0934
先	-7.10256
修	-7.10668
迦	-7.1085
結	-7.12336
七	-7.12438
正	-7.13024
字	-7.13837
發	-7.14003
顯	-7.1402
體	-7.14076
復	-7.14666
解	-7.15544
故云	-7.16228
具	-7.16452
理	-7.16559
可	-7.16813
喻	-7.16848
清淨	-7.1691
受	-7.16952
真	-7.17021
問	-7.1774
盡	-7.18061
世尊	-7.18231
八	-7.1855
嚩	-7.19309
十	-7.19596
王	-7.19751
根	-7.1976
道	-7.20022
乃至	-7.20092
隨	-7.20538
持	-7.20947
淨	-7.21131
雖	-7.21144
婆	-7.2134
。△	-7.21402
來	-7.21761
真言	-7.22678
供養	-7.2306
但	-7.23088
成就	-7.24225
那	-7.24337
依	-7.24617
門	-7.25096
覺	-7.25199
方	-7.25283
通	-7.2532
眾	-7.25655
難	-7.26123
俱	-7.26318
內	-7.28734
證	-7.29789
乎	-7.29862
他	-7.29873
緣	-7.30838
摩	-7.31037
云何	-7.31084
善	-7.31922
妙	-7.32073
食	-7.32504
日	-7.34096
物	-7.34516
外	-7.35025
果	-7.35079
境	-7.35128
業	-7.35263
教	-7.36406
聲	-7.36571
求	-7.3679
故曰	-7.37493
娑嚩	-7.38239
羅	-7.39236
各	-7.39239
圓	-7.3961
別	-7.39894
所謂	-7.40532
塵	-7.40551
位	-7.41375
火	-7.4169
句	-7.41953
何	-7.4337
執	-7.43499
立	-7.43616
頭	-7.43756
帝	-7.44211
念	-7.44497
眼	-7.45215
呪	-7.46196
願	-7.46328
〕	-7.46844
迷	-7.46893
必	-7.4756
】	-7.48171
寶	-7.48609
斷	-7.48745
反	-7.48888
種種	-7.49133
計	-7.49914
文	-7.50179
尾	-7.50429
勝	-7.50798
」	-7.51324
底	-7.52092
示	-7.52246
香	-7.52411
界	-7.52515
實	-7.52994
三昧	-7.53705
光	-7.53957
形	-7.54119
子	-7.5481
利	-7.5532
悟	-7.55337
未	-7.55498
異	-7.55619
力	-7.55993
重	-7.56038
名為	-7.56123
除	-7.56465
答	-7.56532
轉	-7.56589
麼	-7.56848
分別	-7.57424
疏	-7.58465
開	-7.59113
九	-7.59267
諸佛	-7.59513
不能	-7.59696
釋	-7.60202
著	-7.61454
觸	-7.61534
魔	-7.63304
二合引	-7.64566
誦	-7.65736
安	-7.66043
動	-7.66369
更	-7.66867
曩	-7.67323
方便	-7.67625
苦	-7.6813
滿	-7.68595
深	-7.68603
世間	-7.69204
對	-7.69326
惡	-7.69724
娑	-7.70256
請	-7.70619
語	-7.70904
論	-7.70921
悉	-7.71119
捨	-7.71483
度	-7.71817
世	-7.72687
華	-7.72725
便	-7.73003
哩	-7.73007
戒	-7.73067
師	-7.73146
約	-7.73312
真言曰	-7.73565
菩提	-7.74129
無量	-7.74461
將	-7.74582
稱	-7.74824
餘	-7.74852
風	-7.75467
慧	-7.75616
月	-7.75914
味	-7.76151
夜	-7.76419
吒	-7.76563
唯	-7.76632
樂	-7.77006
左	-7.77036
加持	-7.77944
極	-7.78699
神	-7.79372
法界	-7.79424
還	-7.79814
手	-7.79909
置	-7.80232
主	-7.80424
爾時	-7.80576
。○	-7.80803
生滅	-7.81015
化	-7.81036
因緣	-7.81171
吽	-7.81185
無明	-7.81342
目	-7.8142
使	-7.81612
攝	-7.8204
舉	-7.82221
屬	-7.83127
向	-7.83219
自然	-7.83665
兩	-7.83747
涅槃	-7.83929
鬼	-7.84209
箋云	-7.84631
是故	-7.84924
斯	-7.85356
過	-7.85489
流	-7.86127
虗空	-7.86302
疑	-7.87482
母	-7.87808
且	-7.87888
會	-7.88201
蓋	-7.89089
須	-7.89108
功德	-7.89186
世界	-7.89435
拏	-7.90515
陀	-7.90604
十二	-7.91281
所有	-7.91405
不知	-7.92082
南	-7.92528
小	-7.92752
不可	-7.93132
信	-7.93599
類	-7.94218
十方	-7.94239
遍	-7.94453
白	-7.94763
廣	-7.95611
不得	-7.96136
所以	-7.96459
儞	-7.96512
施	-7.9703
訶	-7.97059
藏	-7.97125
山	-7.97478
像	-7.97652
足	-7.97749
數	-7.97753
六根	-7.9787
輪	-7.97923
波	-7.97958
總	-7.98204
藥	-7.98934
尊	-7.99009
散	-7.99838
愛	-7.99855
怛	-8.00082
畫	-8.00187
口	-8.0022
元	-8.00419
失	-8.00745
尼	-8.0084
猶	-8.01402
一切眾生	-8.01581
護	-8.01725
土	-8.02061
邪	-8.02073
歸	-8.02293
一切如來	-8.02444
無有	-8.02613
表	-8.02736
報	-8.02813
音	-8.03139
嚩日囉	-8.03189
惑	-8.0377
摩賀	-8.03853
若有	-8.03935
伽	-8.03984
聖	-8.04057
國	-8.04255
坐	-8.04627
止	-8.04951
照	-8.05092
木	-8.05348
病	-8.05459
長	-8.05516
惟	-8.05866
光明	-8.06168
了	-8.06548
情	-8.06585
花	-8.0684
生死	-8.07223
解脫	-8.07716
似	-8.09558
障	-8.1025
▁二	-8.10329
煩惱	-8.10548
和	-8.10955
僧	-8.11052
居	-8.11176
自在	-8.11305
面	-8.11356
嚕	-8.11892
現前	-8.12127
故名	-8.12225
直	-8.12645
)。】「	-8.12945
共	-8.13033
金	-8.13088
法門	-8.13274
和合	-8.13452
徧	-8.13792
密	-8.13835
普	-8.13888
此云	-8.14081
始	-8.14086
種	-8.14097
以為	-8.141
思	-8.14103
德	-8.14994
顛倒	-8.15172
娜	-8.15455
全	-8.15523
次第	-8.15523
要	-8.15821
凡	-8.16235
變	-8.16579
辨	-8.16591
加	-8.17247
設	-8.17445
沙	-8.17527
精	-8.17539
獲	-8.17555
具足	-8.17592
諸法	-8.17981
毘	-8.18049
一一	-8.18156
例	-8.18373
縛	-8.18678
乘	-8.18697
行者	-8.18787
鼻	-8.18886
達	-8.19213
圓通	-8.19227
順	-8.19455
相應	-8.19937
劫	-8.20052
莊嚴	-8.20617
壇	-8.20622
摩訶	-8.20644
然後	-8.20902
頂	-8.21036
不動	-8.21083
修行	-8.21256
以此	-8.21767
海	-8.21785
兼	-8.21909
宗	-8.21949
竟	-8.22084
命	-8.22201
蓮華	-8.22309
復次	-8.22343
伏	-8.22371
家	-8.22591
不見	-8.22604
平等	-8.2283
少	-8.22994
微	-8.23011
誐	-8.23596
▁一	-8.23991
哉	-8.24108
略	-8.24472
曳	-8.24608
造	-8.24616
氣	-8.24701
末	-8.24723
皆是	-8.2476
真實	-8.24766
女	-8.24895
身心	-8.2495
細	-8.24954
并	-8.25349
惹	-8.25487
陀羅尼	-8.25692
舍	-8.25844
歡喜	-8.25974
路	-8.26279
右	-8.26509
弭	-8.26772
死	-8.26856
布	-8.2703
經云	-8.2713
終	-8.27497
於此	-8.2822
福	-8.29033
習	-8.29084
我今	-8.29315
不同	-8.29679
鉢	-8.29708
息	-8.30172
。「	-8.30374
夫	-8.30542
雙	-8.30609
外道	-8.30772
○	-8.31133
就	-8.3128
攞	-8.31283
圓滿	-8.31398
罪	-8.3205
見性	-8.32346
虗妄	-8.3245
祕密	-8.32452
爾	-8.32516
半	-8.33096
假	-8.33161
亡	-8.33163
陰	-8.3319
三摩地	-8.3334
暗	-8.33704
交	-8.33847
豈	-8.34549
貪	-8.34743
薩	-8.34931
妄想	-8.34986
燒	-8.35096
覩	-8.35196
衣	-8.35243
此是	-8.35381
第一	-8.35608
之相	-8.35842
當知	-8.36319
十六	-8.3633
趣	-8.3642
機	-8.36447
被	-8.37299
獨	-8.37405
跛	-8.37561
馱	-8.37858
量	-8.38093
有情	-8.38119
標	-8.38168
龍王	-8.38375
第二	-8.38821
蘇	-8.38968
遂	-8.39106
之心	-8.39185
此經	-8.39194
于	-8.39702
鉢囉	-8.39867
無礙	-8.39934
近	-8.39998
首	-8.40096
莫	-8.40205
猶如	-8.4101
之中	-8.41132
遠	-8.41276
究竟	-8.41713
十一	-8.41725
𩕳	-8.41941
往	-8.41988
樹	-8.42272
彌	-8.42438
屈	-8.42878
龍	-8.42906
之法	-8.42912
宿	-8.43053
並	-8.43139
致	-8.43181
切	-8.43198
等者	-8.4323
進	-8.43379
所說	-8.43826
不生	-8.44171
契	-8.44181
虛空	-8.4422
葢	-8.44254
根本	-8.44286
行人	-8.44458
百	-8.45068
真如	-8.45135
漸	-8.4522
親	-8.45442
器	-8.45717
聽	-8.46375
好	-8.465
怛囉	-8.47231
尚	-8.47418
部	-8.47567
法身	-8.47687
舌	-8.47883
一心	-8.47961
灌頂	-8.47966
易	-8.48022
呬	-8.4828
發明	-8.4849
墮	-8.4879
益	-8.48931
雜	-8.4912
此中	-8.49256
年	-8.49278
提	-8.49804
禮	-8.50263
都	-8.50421
里	-8.50461
虗	-8.50463
寂	-8.50846
諦	-8.50851
無所	-8.50942
學	-8.50945
邊	-8.51099
殺	-8.51264
喜	-8.51367
比	-8.51475
告	-8.51548
之時	-8.5192
佛言	-8.51971
脫	-8.52029
感	-8.52204
品	-8.52293
悉地	-8.52379
行陰	-8.52503
比丘	-8.52582
千	-8.52588
染	-8.52605
雨	-8.52608
三昧耶	-8.52681
。」【(	-8.53073
燈	-8.53158
高	-8.53161
本尊	-8.53264
。」【【	-8.53273
四大	-8.53353
之所	-8.53505
歷	-8.53989
地獄	-8.54028
亦不	-8.54035
自性	-8.54142
弟子	-8.54167
之義	-8.54514
況	-8.54859
一切法	-8.55285
文殊	-8.55604
智慧	-8.55869
常住	-8.5601
復有	-8.5601
禪	-8.56048
境界	-8.56055
窮	-8.56141
吠	-8.56173
大乘	-8.56393
五陰	-8.56544
辯	-8.56705
平	-8.56731
說法	-8.56938
雲	-8.57343
超	-8.5741
泥	-8.57502
第三	-8.57728
亦名	-8.58101
念誦	-8.58312
間	-8.58426
遮	-8.58431
而不	-8.58442
留	-8.5846
唎	-8.58715
悉皆	-8.58821
何以故	-8.59362
許	-8.59609
慈	-8.59809
如前	-8.59999
含	-8.6003
壞	-8.60649
靜	-8.60652
決定	-8.61171
根塵	-8.61434
座	-8.61437
互	-8.61555
神通	-8.61602
如此	-8.61735
是也	-8.61766
眷屬	-8.62596
諸天	-8.62616
頓	-8.63118
毒	-8.63129
十三	-8.63223
竪	-8.63721
所生	-8.63729
灑	-8.63956
寧	-8.64053
恐	-8.64272
萬	-8.64577
最上	-8.64728
溫陵曰	-8.6502
呼	-8.65309
無邊	-8.6544
影	-8.65675
增	-8.65807
星	-8.66019
跢	-8.66274
即得	-8.66366
集	-8.66421
大悲	-8.66435
齊	-8.66614
珠	-8.66647
無相	-8.66662
亦復如是	-8.66683
十四	-8.67042
覆	-8.67116
出生	-8.67694
遇	-8.6772
室	-8.68038
却	-8.68141
存	-8.68144
哆	-8.68161
三界	-8.68198
幻	-8.68528
最	-8.68674
而巳	-8.69017
而有	-8.69337
最勝	-8.6954
絕	-8.69772
汝等	-8.69782
十八	-8.69897
譬如	-8.70076
國土	-8.7026
宜	-8.704
不應	-8.70559
傳	-8.70699
般若	-8.70716
推	-8.7077
誰	-8.71292
書	-8.72107
大眾	-8.72154
內外	-8.72156
薩嚩	-8.72316
觀音	-8.72581
一句	-8.73244
銷	-8.73483
一念	-8.73572
奉	-8.73604
甚	-8.73632
畢	-8.73821
治	-8.74114
曩謨	-8.74193
到	-8.74324
亦無	-8.74452
無上	-8.74527
缽囉	-8.7455
播	-8.74619
融	-8.74687
佉	-8.74745
降伏	-8.74867
十五	-8.74932
堅固	-8.74971
不成	-8.75099
述	-8.75159
凡夫	-8.75177
宮	-8.75259
無盡	-8.75381
詳	-8.75438
功	-8.75451
菩提心	-8.75477
。【	-8.75752
而為	-8.7587
害	-8.76093
背	-8.76281
成佛	-8.76305
之人	-8.76345
是人	-8.76508
讚	-8.76611
鏡	-8.76655
之性	-8.76686
廣大	-8.76867
鬼神	-8.76991
退	-8.77086
由此	-8.77275
勢	-8.77492
因果	-8.77622
開示	-8.77643
縱	-8.77689
拳	-8.77816
焉	-8.77825
受持	-8.78092
之處	-8.78224
蓮花	-8.78242
吉祥	-8.78329
敘	-8.78715
差別	-8.78849
是名	-8.79288
承	-8.79372
種子	-8.79652
實相	-8.79752
昔	-8.79762
圓明	-8.79933
周	-8.79936
訖	-8.80019
久	-8.80159
授	-8.80165
速	-8.80372
護摩	-8.80459
「	-8.80529
忍	-8.8053
(〔	-8.80631
若不	-8.80633
塞	-8.80636
莎訶	-8.80656
聲聞	-8.80656
阿闍梨	-8.80745
思惟	-8.8105
漫荼羅	-8.81132
闍	-8.8137
號	-8.81385
掌	-8.81391
一時	-8.81824
本無	-8.81832
梨	-8.81915
卷	-8.82058
)。(△〔	-8.82064
備	-8.82256
及諸	-8.8246
真性	-8.82472
吉	-8.82502
冥	-8.82572
驗	-8.8258
亦是	-8.82653
繫	-8.82738
皆悉	-8.82808
所作	-8.82993
仙	-8.83105
無不	-8.832
道場	-8.83275
素	-8.83281
下文	-8.83299
固	-8.83324
只	-8.83348
支	-8.8348
明王	-8.83599
喃	-8.8363
悲	-8.83721
恒	-8.83917
烏	-8.8404
無漏	-8.84118
聚	-8.84342
二十	-8.8441
無生	-8.8492
者謂	-8.85218
自心	-8.85267
清	-8.85326
徵	-8.85478
微細	-8.85553
倒	-8.85622
特	-8.85699
持誦	-8.85871
際	-8.85991
〔	-8.86099
消	-8.86426
象	-8.86427
瑜伽	-8.86517
狂	-8.86541
塗	-8.86656
㗚	-8.8689
)􂏥	-8.86969
若欲	-8.87076
勿	-8.87676
二種	-8.87921
一者	-8.88155
真心	-8.88357
不思議	-8.88522
而生	-8.88544
隷	-8.88578
枳	-8.88684
爾時世尊	-8.887
童子	-8.88953
飲食	-8.89065
橫	-8.89115
等也	-8.89384
列	-8.89735
中道	-8.89742
心中	-8.89836
禰	-8.89861
二十五	-8.89919
科	-8.90328
之事	-8.90432
旨	-8.90538
.	-8.90602
獻	-8.9067
咸	-8.90794
二乘	-8.90806
二者	-8.90807
曼拏羅	-8.90849
偏	-8.9085
修證	-8.90904
由是	-8.91071
觀察	-8.91104
按	-8.91836
堅	-8.91986
嚴	-8.92025
記	-8.92069
合掌	-8.92552
三合	-8.92657
沒	-8.92824
佛告阿難	-8.92963
梵	-8.93026
微塵	-8.93098
祖	-8.93134
盛	-8.93276
修習	-8.93522
注	-8.93584
陳	-8.93639
忘	-8.93682
步	-8.94137
輕	-8.9425
放	-8.94363
節	-8.94366
亂	-8.94367
又云	-8.94472
其心	-8.94577
▁三	-8.94776
菩薩摩訶薩	-8.94841
帶	-8.94929
之體	-8.95061
黑	-8.95132
汝今	-8.95443
發心	-8.95484
誦呪	-8.95498
據	-8.95565
石	-8.95601
城	-8.95887
飛	-8.9593
此名	-8.95962
仰	-8.96076
佛說	-8.96142
吾	-8.96186
徹	-8.96198
捺	-8.96384
圓融	-8.96398
依法	-8.96453
決	-8.96487
揀	-8.96517
落	-8.9677
麤	-8.96841
犯	-8.97584
佛頂	-8.97649
󲊛	-8.97654
藥叉	-8.97664
無畏	-8.97681
於是	-8.97697
蛇	-8.97739
法華	-8.97846
旋	-8.98171
勸	-8.98344
附	-8.9857
叉	-8.98573
每	-8.98626
輪迴	-8.98628
日月	-8.98644
譯	-8.98649
點	-8.98802
小乘	-8.98857
玅	-8.98908
十七	-8.98923
劍	-8.99038
婬	-8.99056
救	-8.99093
遣	-8.99094
痛	-8.99456
利益	-8.99555
制	-8.99586
勞	-8.99665
肉	-8.99759
故有	-8.99797
刀	-8.99826
第四	-8.99863
臂	-8.99896
三世	-8.99988
我等	-9.00005
是為	-9.00041
知見	-9.00063
不離	-9.00149
服	-9.00312
於中	-9.00315
隨順	-9.00388
則無	-9.00624
質	-9.00725
靈	-9.00827
責	-9.009
識陰	-9.01081
伊	-9.011
䭾	-9.01208
葉	-9.01244
厭	-9.01394
敬	-9.01539
簡	-9.01632
隱	-9.01634
審	-9.01757
觀想	-9.01767
如法	-9.02277
)􂉓	-9.02277
認	-9.0238
怛嚩	-9.02411
盧	-9.02495
神呪	-9.02509
宣說	-9.02902
垂	-9.03109
甲	-9.03282
各各	-9.0355
阿字	-9.03622
儀	-9.03748
新	-9.03805
視	-9.03813
夢	-9.0407
中間	-9.04272
十九	-9.04275
本來	-9.04311
微妙	-9.04646
索	-9.04669
牛	-9.04704
出家	-9.0471
談	-9.04723
河	-9.04779
憶	-9.04815
偈	-9.04985
左右	-9.05015
若無	-9.05103
令其	-9.05215
違	-9.05334
乳	-9.05411
於彼	-9.05499
䟽	-9.05575
過去	-9.05606
遠離	-9.05624
可知	-9.05863
相續	-9.05954
而成	-9.06143
瓶	-9.06203
父母	-9.06485
之類	-9.06557
謂之	-9.06572
善根	-9.06909
垢	-9.06918
能令	-9.06928
黃	-9.07218
至於	-9.07269
呵	-9.0742
仍	-9.07512
蒙	-9.07633
能生	-9.07872
從此	-9.08106
諸眾生	-9.0811
所見	-9.08384
翻	-9.08386
賊	-9.08449
如是等	-9.08604
慢	-9.08767
遊	-9.088
降	-9.08889
強	-9.09092
各有	-9.09409
此則	-9.09409
色陰	-9.09601
四種	-9.0962
青	-9.09965
殊	-9.10005
單	-9.10204
然此	-9.10315
灰	-9.10335
收	-9.10351
聞性	-9.10391
半音	-9.10554
應當	-9.10639
薩婆	-9.10799
大小	-9.10933
次結	-9.11153
源	-9.11175
六塵	-9.11226
二十一	-9.11391
了知	-9.11406
摩尼	-9.11577
愚	-9.117
舒	-9.11828
金剛手	-9.11901
即成	-9.11919
擁護	-9.1205
右手	-9.12106
能所	-9.12145
權	-9.12156
棄	-9.12175
牒	-9.12226
徒	-9.12238
義也	-9.1259
抳	-9.12668
自身	-9.12712
三十	-9.12934
蜜	-9.13049
皆得	-9.13068
畢竟	-9.13197
精進	-9.13309
此等	-9.13616
三種	-9.1362
百千	-9.13635
礙	-9.13699
本覺	-9.13816
西	-9.13837
再	-9.13908
不空	-9.14093
今此	-9.14221
赤	-9.14389
草	-9.14841
林	-9.1508
安樂	-9.15184
此法	-9.15254
領	-9.15335
露	-9.15524
幢	-9.15591
乞	-9.15817
妄見	-9.15823
名字	-9.15882
見精	-9.16064
佛法	-9.16114
如上	-9.16117
興	-9.16125
欲界	-9.16128
□	-9.16176
變化	-9.16397
壽	-9.1646
怛他	-9.1651
容	-9.16526
歸命	-9.16708
財	-9.16726
古	-9.16762
耳根	-9.16772
塔	-9.16889
多聞	-9.16893
演	-9.16921
儀軌	-9.16954
嚧	-9.17057
望	-9.17088
誠	-9.17325
現在	-9.1746
熱	-9.17763
供	-9.17817
覺明	-9.17976
妙覺	-9.18082
矩	-9.18224
待	-9.18282
法性	-9.1858
瞋	-9.18615
之理	-9.18617
故知	-9.18814
努	-9.18819
是則	-9.18938
楞嚴	-9.19087
音聲	-9.19309
安住	-9.19401
則有	-9.19543
曲	-9.19555
濁	-9.19645
如來藏	-9.19717
擇	-9.19898
拔	-9.19953
何況	-9.19993
非是	-9.2008
亦有	-9.20237
言之	-9.20382
左手	-9.20422
七日	-9.20489
則知	-9.20515
第六	-9.20516
【	-9.207
怖	-9.20777
不覺	-9.20991
名曰	-9.2119
一切有情	-9.21241
判	-9.21243
迴	-9.21274
焰	-9.21301
中有	-9.2145
既無	-9.21467
無常	-9.21563
湛	-9.21566
若以	-9.21647
熏	-9.21749
𤙖	-9.21808
通達	-9.21865
能見	-9.21867
斥	-9.21873
茶	-9.22034
七大	-9.22394
懸	-9.22676
滿足	-9.22717
彰	-9.22749
循	-9.22828
六識	-9.22928
此即	-9.22962
參	-9.23058
未來	-9.23083
補	-9.23283
越	-9.23299
三寶	-9.23341
沙門	-9.23445
經文	-9.23453
隨意	-9.23473
招	-9.23564
公	-9.23567
身中	-9.23569
俗	-9.23578
宣	-9.23641
莎	-9.23674
積	-9.23677
天王	-9.24074
虛	-9.24083
忽	-9.24087
申	-9.24103
一百	-9.24164
永	-9.24218
亦非	-9.24373
酥	-9.24414
不可得	-9.24436
云云	-9.24494
此明	-9.24505
剎	-9.24647
羯	-9.24654
患	-9.24753
謬	-9.24895
祇	-9.25045
沉	-9.25183
助	-9.25185
此呪	-9.25293
誤	-9.25379
太	-9.25397
諸菩薩	-9.25434
翳	-9.25503
曾	-9.25546
無因	-9.2555
二十四	-9.256
角	-9.25714
可見	-9.25919
增長	-9.25973
跋	-9.26017
無始	-9.26087
浮	-9.2609
隔	-9.26219
尊者	-9.26234
二句	-9.26331
誦真言	-9.26347
輸	-9.265
;	-9.26557
此心	-9.2667
見聞	-9.26676
禁	-9.2672
瑟	-9.26795
婆羅門	-9.26833
非真	-9.26864
摩那婆	-9.26891
遺	-9.26904
側	-9.26999
又復	-9.27081
北	-9.27171
無體	-9.27204
資	-9.27243
第五	-9.27326
殊勝	-9.27333
生於	-9.27365
昏	-9.27455
迦囉	-9.27521
四方	-9.27526
志	-9.27671
寂滅	-9.27672
邪見	-9.27676
三十二	-9.27685
同上	-9.27768
脩	-9.27801
不為	-9.27832
呪曰	-9.28411
二十三	-9.2854
三摩	-9.28541
初心	-9.28575
善男子	-9.28834
色空	-9.28937
守	-9.28967
寂靜	-9.29037
羯磨	-9.29065
普賢	-9.29075
作法	-9.29156
正法	-9.29201
前後	-9.29248
福德	-9.29353
原	-9.29382
吳興曰	-9.29405
十方如來	-9.2948
端	-9.29488
劣	-9.29595
大明	-9.29684
歎	-9.29706
無異	-9.29717
如何	-9.29866
迴向	-9.29887
毀	-9.29948
二十二	-9.29977
運	-9.29999
純	-9.30027
之意	-9.30034
二十八	-9.301
澄	-9.303
四十	-9.30461
出世	-9.30864
金剛杵	-9.30873
而作	-9.30925
甘露	-9.3108
亦如是	-9.31097
調伏	-9.31395
彼等	-9.31553
無為	-9.31576
安置	-9.31588
二初	-9.3174
骨	-9.31799
)「	-9.31836
東	-9.31855
所成	-9.32051
差	-9.32057
專	-9.3212
亦然	-9.32254
奪	-9.32281
念佛	-9.32285
寫	-9.32307
禪定	-9.32509
其中	-9.32516
巧	-9.32591
毗	-9.32787
手執	-9.32799
召	-9.32808
纔	-9.33017
說此	-9.33029
十地	-9.33081
淺	-9.3314
災	-9.33159
返	-9.33167
南無	-9.33223
尋	-9.33229
鐵	-9.33296
穢	-9.3336
車	-9.33408
薩哩嚩	-9.33425
之身	-9.33486
阿難言	-9.33487
癡	-9.33537
最初	-9.33538
序	-9.33539
一體	-9.33633
不相	-9.33663
止觀	-9.33761
有所	-9.33796
大力	-9.33977
應知	-9.34103
逆	-9.34117
銘	-9.34143
法者	-9.34354
意謂	-9.34466
瓔珞	-9.34468
惱	-9.34523
七遍	-9.3476
迹	-9.34945
第八	-9.35095
者也	-9.35098
受陰	-9.35163
入嚩	-9.35198
今經	-9.35308
無垢	-9.35479
懷	-9.35489
該	-9.35609
無知	-9.3563
此陀羅尼	-9.35647
觀世音	-9.35818
意識	-9.36054
即以	-9.36111
事業	-9.36129
定慧	-9.36137
餓鬼	-9.36348
律	-9.36491
投	-9.36519
總持	-9.36645
彼人	-9.36665
塗香	-9.3669
酬	-9.36852
十種	-9.3698
乾	-9.36989
所求	-9.36993
頌	-9.36993
華嚴	-9.37012
二十七	-9.37055
動靜	-9.37276
禪那	-9.37284
萬法	-9.37315
是時	-9.37323
建立	-9.37461
香水	-9.37487
曩莫	-9.37507
而得	-9.37537
觧	-9.37553
網	-9.37645
慈悲	-9.37961
神力	-9.3798
恭敬	-9.38091
不淨	-9.38245
頂禮	-9.38332
大海	-9.38412
升	-9.38453
得大	-9.38454
池	-9.38466
甚深	-9.38524
忿怒	-9.38524
或有	-9.38599
以其	-9.38636
濕	-9.38699
不出	-9.38702
擲	-9.3889
閉	-9.38964
妙明	-9.38989
更無	-9.39005
亦云	-9.39039
無二	-9.39058
𤚥	-9.39107
金剛薩埵	-9.39192
帝釋	-9.39251
獄	-9.39408
四句	-9.39532
藏性	-9.39536
而言	-9.3956
畜	-9.39629
二字	-9.39644
馬	-9.39646
天魔	-9.39818
意根	-9.3982
守護	-9.3987
同於	-9.39904
擊	-9.40077
No	-9.40089
亦爾	-9.40109
係	-9.40139
闕	-9.40314
斷滅	-9.40523
二十六	-9.40551
陁羅尼	-9.40567
流出	-9.40568
三藏	-9.40676
色相	-9.40703
傷	-9.40727
不斷	-9.41211
前文	-9.41252
若能	-9.41286
法師	-9.41312
者即	-9.41312
鳥	-9.41543
其身	-9.4171
熟	-9.4184
法中	-9.41893
賢	-9.41991
雖有	-9.4209
鼓	-9.42102
譬	-9.42203
有為	-9.42227
故以	-9.42241
分明	-9.42269
真妄	-9.42276
謨	-9.42359
戲論	-9.42366
誓	-9.42388
登	-9.42426
章	-9.42607
一人	-9.42645
客	-9.42873
有二	-9.42915
豈非	-9.43021
持戒	-9.43043
髮	-9.43099
西方	-9.43139
故也	-9.43176
故能	-9.4322
七寶	-9.43326
蘊	-9.43407
頗	-9.43738
皆有	-9.43862
之境	-9.43989
可得	-9.43992
明暗	-9.4401
波羅	-9.44011
三業	-9.4402
波羅蜜	-9.44026
孤山曰	-9.44179
玄	-9.44191
當得	-9.44194
調	-9.44253
段	-9.44254
薩埵	-9.44321
邏	-9.44464
流轉	-9.44471
頭指	-9.44495
展轉	-9.44656
所依	-9.4479
故名為	-9.44892
東方	-9.45023
無非	-9.45053
乃是	-9.45201
結界	-9.45281
諸如來	-9.45326
智者	-9.45326
醯	-9.45334
之本	-9.4539
所證	-9.45405
胎	-9.45448
即從座起	-9.4557
洗	-9.45669
堂	-9.45803
幽	-9.45903
頂上	-9.45922
若人	-9.46008
師子	-9.4609
而後	-9.46218
第十	-9.46364
逐	-9.46428
周徧	-9.46462
隨緣	-9.46595
獲得	-9.46641
眚	-9.46804
昧	-9.46818
一切諸佛	-9.46893
看	-9.46918
無間	-9.46943
二手	-9.47022
人天	-9.47206
磨	-9.47229
之後	-9.47256
今日	-9.47262
若於	-9.47446
梵天	-9.47557
互相	-9.47581
亦得	-9.47646
五種	-9.4768
法塵	-9.47837
羅剎	-9.47881
一百八遍	-9.47888
生起	-9.47906
三者	-9.47993
眼根	-9.48012
倫	-9.48022
一分	-9.48031
疾	-9.48046
以明	-9.48048
􂏥	-9.48125
佛告	-9.48263
何故	-9.48264
莎呵	-9.48356
三十六	-9.48591
老	-9.4867
有漏	-9.48734
是以	-9.48774
字門	-9.48784
毛	-9.48823
的	-9.48922
二十九	-9.48983
􂏩(	-9.4902
不定	-9.49192
是非	-9.49239
怖畏	-9.49361
孤山云	-9.49722
若此	-9.49856
g	-9.499
皆由	-9.49964
何以	-9.5001
牙	-9.50071
無上菩提	-9.50094
自他	-9.50098
當機	-9.50131
杵	-9.50134
打	-9.50144
憶念	-9.50174
不生滅	-9.50198
識心	-9.50219
軍	-9.50253
暫	-9.50456
三觀	-9.50507
想陰	-9.5055
讚歎	-9.5056
語言	-9.50606
乾慧	-9.5063
妄心	-9.50686
。○(	-9.50687
涉	-9.50872
亦如	-9.50884
漏	-9.5092
俱胝	-9.50974
麻	-9.50997
夜叉	-9.51043
舍利弗	-9.51051
金色	-9.51096
準	-9.51117
三諦	-9.51157
急	-9.51236
移	-9.51283
所知	-9.51297
其所	-9.51305
蓮	-9.51616
建	-9.5165
不變	-9.51736
即此	-9.51736
一切諸法	-9.51762
六十	-9.51768
無性	-9.51785
此人	-9.51823
曼荼羅	-9.51886
美	-9.51987
改	-9.52072
觀世音菩薩	-9.52075
又法	-9.52197
潤	-9.52212
􂉗(	-9.52228
即同	-9.52293
三十七	-9.52336
謗	-9.52484
一字	-9.52544
父	-9.52546
相也	-9.52553
如是乃至	-9.52698
分二	-9.52758
釋迦	-9.52807
觀行	-9.52923
至此	-9.53148
本性	-9.53357
執持	-9.53424
:「	-9.53429
奢摩他	-9.53553
四禪	-9.53574
旦	-9.53579
唧	-9.53612
念念	-9.53634
淨土	-9.537
究	-9.53745
大地	-9.53791
復以	-9.538
揭	-9.53803
張	-9.53813
怨	-9.53899
有一	-9.54053
寄	-9.5408
五十	-9.54179
毗藥	-9.54202
逼	-9.54206
損	-9.54266
之見	-9.5446
拂	-9.54621
不壞	-9.54654
井	-9.54688
嚩囉	-9.54709
舊	-9.54799
宮殿	-9.54932
如是一類	-9.54948
讀	-9.5498
其人	-9.54982
佛性	-9.54993
大智	-9.55203
及與	-9.55255
正覺	-9.55282
男	-9.55294
能知	-9.55404
如意	-9.55428
受用	-9.55474
限	-9.5549
而起	-9.5554
im	-9.55639
中指	-9.55647
哩野	-9.55654
滯	-9.55659
此方	-9.55665
因緣自然	-9.56021
五百	-9.56022
體性	-9.56065
薄	-9.56146
無復	-9.56239
放光	-9.5627
住於	-9.56306
詣	-9.56338
相似	-9.56383
<	-9.56406
亦可	-9.5643
見者	-9.56699
觀自在	-9.56764
諦觀	-9.56784
血	-9.56824
衣服	-9.5684
如幻	-9.56861
大明曰	-9.56965
而白佛言	-9.56981
空中	-9.57098
諸惡	-9.57136
沈	-9.57255
寺	-9.57296
依此	-9.57312
男女	-9.57323
拘	-9.57325
適	-9.57405
􂉓	-9.5774
出現	-9.57756
消滅	-9.57801
經中	-9.57854
淫	-9.57874
明了	-9.57983
歲	-9.58077
無想	-9.58087
第七	-9.58174
有無	-9.58259
天台	-9.58339
心不	-9.58342
十界	-9.5843
發起	-9.58461
心生	-9.58468
圓覺	-9.58514
自有	-9.58591
▁初	-9.58596
草木	-9.58647
㘑	-9.58685
見聞覺知	-9.58812
是故當知	-9.58819
族	-9.58994
勅	-9.59048
前云	-9.59127
心性	-9.59181
名之為	-9.59191
之因	-9.59238
不可思議	-9.59327
可以	-9.59351
惡業	-9.59386
預	-9.59571
。】「○(	-9.59664
押	-9.59701
詮	-9.59753
上音	-9.5992
箇	-9.60071
八識	-9.60071
誦持	-9.60128
不了	-9.60149
墜	-9.60232
無別	-9.60235
鬘	-9.60289
錯	-9.60305
亦能	-9.60408
發菩提心	-9.60435
萬行	-9.60525
局	-9.60575
佗	-9.60687
鉤	-9.60776
精明	-9.60815
遭	-9.60863
任	-9.60939
諸佛菩薩	-9.60946
為因	-9.60965
三十三	-9.61066
愈	-9.611
而無	-9.61259
三遍	-9.61411
現身	-9.61423
諸有情	-9.61427
離諸	-9.61433
甞	-9.61566
而能	-9.61613
飲	-9.617
】【	-9.61722
根境	-9.61743
稍	-9.61856
則不	-9.61914
折	-9.62046
負	-9.62162
一切佛	-9.62185
覺知	-9.62228
若是	-9.62384
則能	-9.62399
代	-9.62614
迦羅	-9.62619
秪	-9.62696
觀自在菩薩	-9.62736
纏	-9.62854
但是	-9.62947
使者	-9.62953
別有	-9.62966
果報	-9.62996
威德	-9.63011
院	-9.63039
避	-9.63062
又以	-9.63087
祕密主	-9.63105
私	-9.63126
剎那	-9.63169
安隱	-9.63232
群	-9.63277
虎	-9.63305
未得	-9.63353
白色	-9.63354
多羅	-9.63361
會中	-9.63377
阿修羅	-9.63539
終不	-9.63629
是知	-9.63645
威	-9.63674
冠	-9.6372
苦惱	-9.63815
勤	-9.63872
開悟	-9.64027
准	-9.64069
諸相	-9.64084
一法	-9.64089
泯	-9.64116
二頭指	-9.64157
三十一	-9.64159
真常	-9.6416
履	-9.64196
泮吒	-9.64323
於其	-9.64382
敷	-9.64426
壽命	-9.64481
不起	-9.64545
未能	-9.64553
皆以	-9.64565
論云	-9.64622
執金剛	-9.64978
塵勞	-9.65212
奴	-9.65323
般	-9.65338
善惡	-9.6538
樓	-9.65399
燒香	-9.65466
配	-9.65475
倍	-9.65598
等覺	-9.65602
一日	-9.65705
三十四	-9.65723
捻	-9.65951
憂	-9.65971
同一	-9.65972
漸次	-9.6599
梵語	-9.66137
若見	-9.66206
俱生	-9.6626
習氣	-9.66409
去聲	-9.66525
借	-9.66564
令彼	-9.66588
元無	-9.66628
祕	-9.66632
懺悔	-9.66689
奢	-9.66701
飯	-9.66743
唯識	-9.66818
途	-9.66864
不著	-9.66989
四十二	-9.67072
天人	-9.67112
如人	-9.67123
所得	-9.67159
水火	-9.67176
幾	-9.67188
尸	-9.67191
慕	-9.67311
不復	-9.67317
欲求	-9.67368
四十九	-9.67383
見佛	-9.6743
小指	-9.67439
所緣	-9.67491
而住	-9.67502
擬	-9.6753
姓	-9.67686
魚	-9.67756
不住	-9.68059
狀	-9.68088
命終	-9.68189
疏云	-9.68449
缺	-9.68477
貴	-9.68505
連	-9.68581
三乘	-9.6861
不失	-9.68619
畜生	-9.68719
聖人	-9.68719
畔	-9.68835
逢	-9.68869
力故	-9.69028
富	-9.69034
託	-9.69059
皤	-9.69102
大士	-9.69123
辭	-9.69162
娑麼	-9.69352
五根	-9.69401
天子	-9.6957
三十五	-9.69583
臨	-9.69819
休	-9.69863
無我	-9.70066
耆	-9.70117
出入	-9.70202
其義	-9.70258
文殊師利	-9.70307
防	-9.70331
故言	-9.70337
莽	-9.70368
怒	-9.70578
曼	-9.70677
吸	-9.70746
歸依	-9.70751
超越	-9.70783
故稱	-9.70932
示現	-9.70977
擾	-9.70979
不聞	-9.70991
無色	-9.71005
發生	-9.71101
▁「	-9.71239
一切諸	-9.71247
濕嚩	-9.71269
風輪	-9.71352
月輪	-9.7137
此之	-9.71413
遷	-9.71435
無有是處	-9.71477
期	-9.71494
納	-9.7156
所明	-9.71591
長水	-9.7162
豈不	-9.7166
咄	-9.71712
竭	-9.71801
濟	-9.71841
不然	-9.72005
第	-9.72157
齋	-9.72176
三摩提	-9.7221
泮	-9.72253
然則	-9.72293
研	-9.72302
文字	-9.72341
或以	-9.72448
蘖	-9.72459
不捨	-9.72497
輩	-9.72504
)。(○〔	-9.72532
輪轉	-9.72572
灌	-9.72573
本有	-9.7258
阿羅漢	-9.72649
圍繞	-9.72813
大慈	-9.72828
伸	-9.72855
房	-9.72927
觀之	-9.72929
畏	-9.72937
前塵	-9.72984
均	-9.73
真空	-9.73043
正明	-9.73052
析	-9.73088
良以	-9.73098
晝夜	-9.73161
奉獻	-9.73189
或見	-9.73265
無學	-9.73289
以顯	-9.73293
戍	-9.73303
歇	-9.73306
滿慈	-9.73346
戰	-9.73405
堪	-9.73465
▁四	-9.73497
文二	-9.73552
導	-9.7356
初禪	-9.73661
欲令	-9.73722
護身	-9.73956
世人	-9.73985
番	-9.74056
於諸	-9.74224
恐怖	-9.74245
題	-9.74316
凝	-9.74447
荼	-9.74453
故此	-9.74477
揚	-9.74547
亦復	-9.74582
同時	-9.74604
手持	-9.74672
為一	-9.74765
符	-9.74823
茲	-9.74852
六十二	-9.74931
無著	-9.74978
怪	-9.75017
盤	-9.75175
枝	-9.75269
線	-9.7529
囊	-9.75297
!	-9.75329
當於	-9.75474
受生	-9.75535
二義	-9.75599
官	-9.75692
陽	-9.75756
正是	-9.75759
鞞	-9.75939
人間	-9.75966
關	-9.75971
非有	-9.76037
禮拜	-9.76038
得成就	-9.76163
捺囉	-9.76278
若謂	-9.76281
心也	-9.76359
相合	-9.76406
去音	-9.76455
之間	-9.76478
裏	-9.76586
敬愛	-9.76593
良	-9.76622
唐	-9.76623
不是	-9.76683
演說	-9.76777
史	-9.76838
妙心	-9.76883
臣	-9.76893
依正	-9.76897
魯	-9.7692
皮	-9.76961
復說	-9.77221
即前	-9.77223
惠	-9.77261
入於	-9.77376
富樓那	-9.77383
:>	-9.77506
盜	-9.77506
有人	-9.77647
一切世間	-9.77752
見暗	-9.77759
了義	-9.77766
以是	-9.77849
二大指	-9.77856
聖者	-9.77954
𥠖	-9.77991
非見	-9.78156
隨喜	-9.78318
南方	-9.78404
虛妄	-9.78468
若作	-9.78483
得成	-9.7851
熾盛	-9.78547
補遺云	-9.78666
北方	-9.78666
十信	-9.78718
白佛言	-9.78723
之物	-9.78755
希	-9.7877
得見	-9.78863
亦應	-9.78896
最後	-9.7892
▁【	-9.78937
皆為	-9.78979
某甲	-9.79174
扇	-9.79187
未盡	-9.79288
傍	-9.79338
諸聖	-9.79378
長者	-9.79385
識性	-9.79389
巳竟	-9.79467
婆羅	-9.7951
寸	-9.79551
八萬四千	-9.79567
一切智	-9.79592
魔事	-9.79592
羅漢	-9.79626
故得	-9.79666
一向	-9.79669
如彼	-9.79739
黎	-9.79759
護持	-9.79855
呪師	-9.79878
頂禮佛足	-9.79933
圓成	-9.79961
進力	-9.80008
園	-9.8002
真見	-9.8003
擔	-9.80045
所在	-9.8009
洲	-9.80138
於佛	-9.80154
我於彼前	-9.80161
初住	-9.80188
影像	-9.80249
大菩薩	-9.80281
下明	-9.80332
知其	-9.80495
愛樂	-9.8053
圖	-9.80563
國王	-9.80637
唯一	-9.80647
摧	-9.8083
總結	-9.80842
嘗	-9.80969
以成	-9.80971
諸根	-9.8105
令得	-9.81059
商	-9.81069
恒沙	-9.81076
室哩	-9.81092
斯為第一	-9.81145
不自	-9.81157
必有	-9.81168
上文	-9.81205
所願	-9.81272
八十	-9.81309
曉	-9.8138
養	-9.81511
既不	-9.8153
安立	-9.81543
種族	-9.81618
所現	-9.81638
三十八	-9.81681
白芥子	-9.81834
二相	-9.81852
即能	-9.81904
遷流	-9.82012
妙圓	-9.82026
作護摩	-9.82056
峯	-9.82097
曜	-9.82122
不敢	-9.82201
1	-9.82206
悟入	-9.82222
發吒	-9.82239
脚	-9.82273
及以	-9.82372
十八界	-9.82413
始終	-9.82569
今云	-9.82599
上聲	-9.82641
統	-9.82658
接	-9.8273
不退	-9.82772
無能	-9.82878
魔王	-9.82882
三十九	-9.82905
同分	-9.82909
琉璃	-9.83028
攬	-9.83032
香華	-9.83078
但以	-9.83087
不受	-9.83151
億	-9.83229
吽吽	-9.83305
陵	-9.83325
士	-9.83369
分三	-9.83484
攝受	-9.83502
蟲	-9.83507
丁	-9.8351
以上	-9.83518
毘那夜迦	-9.83544
自知	-9.8359
笑	-9.83604
則是	-9.83643
覺性	-9.83773
之言	-9.83813
葛	-9.83819
敵	-9.8385
皆從	-9.83914
神變	-9.83943
准前	-9.84075
清淨本然	-9.84084
心地	-9.84109
四十一	-9.84224
善知識	-9.84269
否	-9.84346
萬物	-9.84347
能為	-9.84403
魅	-9.84456
把	-9.84499
瑟吒	-9.84508
本自	-9.84547
油	-9.84693
檀	-9.8471
當以	-9.84721
增益	-9.84814
四面	-9.84906
臺	-9.85057
破壞	-9.85066
羣	-9.85108
尺	-9.85116
無數	-9.85154
明矣	-9.85193
則汝	-9.85203
斗	-9.8537
善哉	-9.85387
寂然	-9.85431
入三摩地	-9.85499
引一句	-9.8552
混	-9.85531
有相	-9.85542
空性	-9.85553
跋折囉	-9.85603
貫	-9.85717
腹	-9.85774
遏	-9.85924
一百八	-9.85974
至心	-9.86021
乾闥婆	-9.86034
不二	-9.86093
無定	-9.86144
之用	-9.86158
是心	-9.86197
腰	-9.86307
延	-9.86345
而說	-9.86418
乙	-9.8643
睡	-9.86457
田	-9.86522
減	-9.86544
你	-9.86598
溺	-9.86627
煙	-9.86631
誦此呪	-9.86658
妄計	-9.86758
此約	-9.8689
作大	-9.86907
諸魔	-9.8693
云何獲圓通	-9.86953
四十八	-9.86966
某	-9.86975
溫陵云	-9.86999
不異	-9.87003
聖眾	-9.87038
天女	-9.87047
苦樂	-9.87077
香花	-9.87236
術	-9.87263
證得	-9.87333
我於	-9.87342
免	-9.87356
何處	-9.87368
更有	-9.87483
映	-9.87548
非和合	-9.87651
是佛	-9.87696
觀此	-9.87741
默	-9.87852
希有	-9.87984
豈有	-9.87984
四門	-9.88
直竪	-9.88008
發願	-9.88025
米	-9.88055
佛子	-9.88119
兜	-9.88266
毘盧遮那	-9.88266
善哉善哉	-9.88341
障礙	-9.88341
色身	-9.88358
兵	-9.88385
瑠璃	-9.88385
肘	-9.88406
四十五	-9.88411
繩	-9.88414
丸	-9.88419
不及	-9.88485
二俱	-9.88548
冤	-9.8865
天台曰	-9.88721
回	-9.88735
讀誦	-9.88744
顯現	-9.88781
為人	-9.88783
大佛頂	-9.88846
摩羅	-9.89002
疑惑	-9.89088
不明	-9.89093
慮	-9.89121
不從	-9.89136
一切菩薩	-9.89142
鑁	-9.89154
浴	-9.89215
蕩	-9.89247
達磨	-9.89345
一遍	-9.89377
之果	-9.89382
此真言	-9.89422
恨	-9.89439
甘	-9.89474
像前	-9.89513
誡	-9.89563
?	-9.89565
圓教	-9.89597
淡	-9.89657
無見	-9.89767
勃	-9.89792
牽	-9.89836
令人	-9.89944
枲	-9.89973
晝	-9.90086
婆嚩	-9.90157
便是	-9.90172
諸尊	-9.9021
詰	-9.90308
謂此	-9.90322
邊際	-9.904
生也	-9.90427
卑	-9.90462
謝	-9.90604
威力	-9.90606
因此	-9.90649
潛	-9.90651
註	-9.90682
無分別	-9.90696
我心	-9.90831
而自	-9.90962
大威德	-9.91056
俱非	-9.91128
博	-9.91161
之力	-9.91205
廣說	-9.91235
本心	-9.91274
寒	-9.91298
充	-9.91304
首楞嚴	-9.91319
宅	-9.91327
臥	-9.91361
相好	-9.91373
第一義	-9.91407
以至	-9.91433
持誦者	-9.91461
不假	-9.91497
哀	-9.91543
箭	-9.91608
試	-9.91629
住處	-9.91661
仁	-9.91672
四十四	-9.91695
梵王	-9.91725
結成	-9.91807
變易	-9.91831
無作	-9.92013
敬禮	-9.92077
渴	-9.92132
此文	-9.92252
翼	-9.92319
侵	-9.92326
衰	-9.92341
鈍	-9.92394
隨其	-9.92421
屹囉	-9.92476
為我	-9.92489
下同	-9.92507
幡	-9.92517
錄	-9.92554
空華	-9.92605
昇	-9.92719
此印	-9.92797
杖	-9.92818
今以	-9.92823
煖	-9.92841
欠	-9.92901
十方諸佛	-9.93028
即於	-9.93132
者是	-9.93139
誑	-9.93154
膝	-9.93168
何者	-9.93267
拶	-9.93286
口中	-9.93306
有見	-9.93348
陀羅	-9.93367
乞食	-9.93396
氷	-9.93499
海雲	-9.93522
惡趣	-9.93526
敢	-9.93537
法也	-9.9355
迦葉	-9.93577
四天王	-9.9362
四十六	-9.93643
啟	-9.93677
善法	-9.93693
或云	-9.93718
成道	-9.93729
有三	-9.9374
而入	-9.93777
佛問圓通	-9.93839
無生滅	-9.93862
水中	-9.93953
若從	-9.93961
四十三	-9.93981
是真	-9.9404
秘密	-9.94061
奔	-9.94126
持呪	-9.94186
鉢羅	-9.94198
自體	-9.94263
其體	-9.94264
除滅	-9.94284
修羅	-9.94357
密言	-9.94409
抑	-9.94489
次說	-9.94536
窟	-9.94567
而出	-9.94606
忽然	-9.94667
上下	-9.94702
六結	-9.94714
誦此真言	-9.94757
之名	-9.94777
勝義	-9.94812
牟	-9.94943
他人	-9.94972
性空	-9.9502
從何	-9.95095
搖	-9.95116
即指	-9.9513
金剛部	-9.95181
威儀	-9.95197
隨心	-9.95256
見其	-9.95302
自巳	-9.95319
五色	-9.95329
麼攞	-9.95336
佛所	-9.95351
黃色	-9.95439
猛	-9.95466
嚩底	-9.95487
為體	-9.95547
疊	-9.95576
真覺	-9.9558
誰為	-9.9561
夏	-9.95634
無量無邊	-9.9567
無可	-9.95695
沒馱	-9.95696
爐	-9.95735
緣覺	-9.95741
二中指	-9.95762
色界	-9.95926
之智	-9.96043
周遍	-9.9605
九十	-9.96137
無情	-9.96178
齅	-9.9639
賢聖	-9.96436
嚲	-9.96554
膩	-9.96617
陀羅尼經	-9.96678
累	-9.96762
之相也	-9.96994
又如	-9.9703
書寫	-9.97058
同異	-9.971
覽	-9.97111
不達	-9.97192
根性	-9.97212
饒益	-9.97288
舍利	-9.97317
議曰	-9.97333
截	-9.97409
所修	-9.97462
殘	-9.97474
五十七	-9.97497
能成	-9.97527
此天	-9.97562
有大	-9.97566
四十七	-9.97791
緣起	-9.97824
沫	-9.97842
性相	-9.97855
慶	-9.97898
禪智	-9.9799
何不	-9.98104
悅	-9.98138
何所	-9.98153
七趣	-9.98196
無聞	-9.98258
臍	-9.98271
之行	-9.98273
囕	-9.98315
有知	-9.98344
因地	-9.98348
所攝	-9.98387
於我	-9.98482
壁	-9.98502
三摩耶	-9.98504
囉拏	-9.98518
成就法	-9.98564
一處	-9.98574
五十二	-9.98621
法王	-9.98689
即有	-9.9871
所言	-9.98721
非無	-9.98758
繞	-9.98784
聲塵	-9.98905
一身	-9.9896
之者	-9.98965
寐	-9.98971
禪師	-9.99123
說是	-9.9913
赤色	-9.99207
淺深	-9.99361
業果	-9.99402
增進	-9.99403
洞	-9.99461
熏聞云	-9.99506
義故	-9.99507
五塵	-9.99534
辦	-9.99548
持明者	-9.99555
之與	-9.99563
麗	-9.99591
短	-9.99602
廢	-9.99687
太子	-9.998
第九	-9.9988
受持讀誦	-9.9991
大自在天	-9.99932
缽	-10.0007
對治	-10.0019
成正覺	-10.0019
女人	-10.0019
修道	-10.0021
當來	-10.0022
孤	-10.0024
授記	-10.0027
諸佛如來	-10.0028
豆	-10.0034
普遍	-10.0035
五十五	-10.0039
在於	-10.0044
冷	-10.0046
歌	-10.0049
栴檀	-10.006
手印	-10.0064
不取	-10.0064
恩	-10.0068
佛身	-10.0068
之曰	-10.0069
三句	-10.007
同前	-10.0072
悔	-10.0076
全體	-10.0078
學者	-10.0078
髻	-10.0081
山河	-10.0083
此見	-10.0087
大師	-10.0092
彌勒	-10.0093
緣心	-10.0099
有四	-10.0101
加被	-10.0103
州	-10.0108
四者	-10.0108
得聞	-10.0122
君	-10.0136
如來藏性	-10.0137
此識	-10.014
名號	-10.0141
諸有	-10.0148
澡浴	-10.016
藉	-10.0166
五十一	-10.0167
不與	-10.0169
伐	-10.0173
迷悟	-10.0175
加行	-10.0178
心呪	-10.0186
嗔	-10.0186
殿	-10.0187
所造	-10.0196
尊重	-10.0204
成阿羅漢	-10.0205
之地	-10.0217
眼識	-10.0217
五十三	-10.022
十方世界	-10.0224
真諦	-10.0228
吽字	-10.0237
民	-10.0238
三德	-10.0243
不過	-10.0244
粗	-10.0248
二十一遍	-10.0256
羂索	-10.026
光焰	-10.0267
走	-10.0272
。(〔	-10.0282
紫	-10.0288
或復	-10.029
功用	-10.0296
穀	-10.0301
周徧法界	-10.0315
妙法	-10.032
孤山	-10.0324
文三	-10.0328
作是	-10.0332
五十四	-10.0337
一根	-10.0337
當心	-10.0338
大空	-10.034
覺心	-10.0341
隣	-10.0341
若離	-10.0342
彼諸	-10.0349
染淨	-10.0352
生者	-10.0353
嚩日	-10.036
己	-10.0365
七十	-10.0367
故須	-10.0368
即為	-10.0369
故今	-10.0371
旁	-10.0372
離塵	-10.0376
則為	-10.0378
銅	-10.0379
梵音	-10.038
夢中	-10.0381
地位	-10.0386
則成	-10.0387
者即是	-10.0388
六十四	-10.039
驚	-10.0401
九十九	-10.0403
為真	-10.0403
而非	-10.0416
或於	-10.0417
喚	-10.0417
不生不滅	-10.0421
捧	-10.0421
往昔	-10.0425
咎	-10.0433
和尚	-10.0433
弘	-10.0446
心無	-10.0453
應作	-10.0458
攀緣	-10.0463
日日	-10.0465
辛	-10.0466
有何	-10.0468
柱	-10.0471
無住	-10.0472
麼麼	-10.0482
以右手	-10.0483
貪欲	-10.0488
以二手	-10.049
若在	-10.0491
此下	-10.0498
是中	-10.0502
長水云	-10.0503
毗盧遮那	-10.0506
舞	-10.0511
必須	-10.0524
聞法	-10.0525
轉法輪	-10.0528
斯則	-10.053
結印	-10.0533
唯心	-10.0538
唯願	-10.0541
閼伽	-10.0541
若言	-10.0544
有異	-10.0555
清涼	-10.0561
藍	-10.0564
惡人	-10.0567
汝心	-10.0578
吐	-10.0579
巳上	-10.059
莫不	-10.059
持明	-10.0603
造作	-10.061
囉抳	-10.061
續	-10.0617
少分	-10.0618
羯囉	-10.0619
劒	-10.0624
尚無	-10.0634
初地	-10.0639
之旨	-10.0642
不合	-10.0643
幻化	-10.0644
而復	-10.0644
亦同	-10.0648
見思	-10.0655
問曰	-10.0659
布施	-10.0677
正破	-10.0688
宋	-10.0688
詞	-10.0689
相對	-10.0695
珍寶	-10.0707
內心	-10.0714
宛然	-10.0716
之道	-10.0718
二百	-10.0722
頻	-10.0727
噉	-10.0728
一真	-10.0743
是見	-10.0759
之說	-10.076
無自性	-10.0764
此身	-10.0765
金剛手菩薩	-10.0765
托	-10.0777
我以	-10.0787
信解	-10.0789
在外	-10.0802
真言者	-10.0814
跛囉	-10.0814
金剛三昧	-10.0816
無名指	-10.0817
苟	-10.0818
務	-10.0825
能除	-10.0828
酒	-10.0832
循業發現	-10.0836
於心	-10.0837
二邊	-10.0846
五十六	-10.0851
所執	-10.0851
秋	-10.0853
流通	-10.0857
若得	-10.0859
緊那羅	-10.0862
典	-10.0862
罔	-10.0868
圓頓	-10.0868
洗浴	-10.0876
部多	-10.0878
即真	-10.0879
妙用	-10.0881
即當	-10.0887
貌	-10.0889
豎	-10.089
不信	-10.0893
輪王	-10.0893
之外	-10.09
現行	-10.0902
通曰	-10.0913
騰	-10.0916
三千	-10.0917
眼見	-10.0922
大指	-10.0925
停	-10.0926
造業	-10.0927
此正	-10.0937
親近	-10.0944
四諦	-10.0946
此菩薩	-10.095
割	-10.0962
詐	-10.0963
地水火風	-10.0963
驚怖	-10.097
息災	-10.0971
滋	-10.0974
洛	-10.0984
喇	-10.0986
私謂	-10.0988
櫱	-10.0988
兒	-10.0989
逈	-10.099
銷滅	-10.0991
哀愍	-10.0999
速得	-10.1001
見道	-10.1003
湛然	-10.1008
汝當	-10.1015
修學	-10.1017
三日	-10.1025
心真言	-10.1026
貧	-10.1031
壇中	-10.1031
唱	-10.1033
置於	-10.1033
載	-10.1036
不盡	-10.1039
枯	-10.104
心者	-10.1045
偈云	-10.1058
察	-10.1058
不滅	-10.106
去引	-10.1069
三千大千世界	-10.1071
此乃	-10.1074
為界	-10.1076
瞻	-10.1077
上來	-10.1083
胡	-10.1083
答曰	-10.1083
天眼	-10.11
行道	-10.1103
開合	-10.1106
是法	-10.1107
佛果	-10.111
中之	-10.1111
明妃	-10.1115
正定	-10.1137
諸比丘	-10.1146
與彼	-10.115
額	-10.1165
奇	-10.1167
我當	-10.1167
齒	-10.1169
能破	-10.1172
二小指	-10.1183
薩怛嚩	-10.1183
二羽	-10.1197
身相	-10.1204
若因	-10.1206
知覺	-10.1212
以手	-10.1218
丈夫	-10.122
為大	-10.1223
得入	-10.1223
五蘊	-10.1226
不識	-10.1227
婁	-10.1235
修行者	-10.1237
欽	-10.1241
作此	-10.1245
言說	-10.1246
大王	-10.1247
非汝	-10.1249
五十八	-10.1249
即便	-10.1253
喇怛曩	-10.1256
以下	-10.1266
為復	-10.127
無障礙	-10.1271
在內	-10.128
但有	-10.1281
不善	-10.1286
佛剎	-10.1289
未曾	-10.129
支分	-10.1292
法音	-10.1294
所問	-10.1295
跡	-10.1295
如實	-10.1297
此二	-10.1298
金剛拳	-10.1305
一門	-10.1311
救護	-10.1313
於一切	-10.1314
亂想	-10.1314
善巧	-10.1318
良由	-10.1323
三密	-10.1325
佛心	-10.1327
之門	-10.133
今既	-10.133
漢	-10.1336
為說	-10.1336
火天	-10.1348
重重	-10.1359
𦦨	-10.136
緊	-10.1367
則得	-10.1367
弱	-10.1369
條	-10.137
即見	-10.1374
本然	-10.1374
重罪	-10.1374
若有眾生	-10.1375
又二	-10.1377
本不生	-10.1377
顯示	-10.1385
弩	-10.1387
之業	-10.1388
能作	-10.1392
􂗩	-10.1396
是一	-10.1399
心境	-10.14
暮	-10.1405
生處	-10.1409
溫陵	-10.141
早	-10.1414
巾	-10.1415
彼此	-10.142
時彼	-10.1423
別業	-10.1425
蔽	-10.1431
偽	-10.1435
任運	-10.1437
紇哩	-10.1437
盖	-10.1439
解結	-10.1441
諸大	-10.1441
十二類生	-10.1446
那謨	-10.1448
佛眼	-10.1456
自證	-10.1459
動搖	-10.1461
數珠	-10.1463
雞	-10.1466
十方界	-10.1477
為正	-10.1485
向下	-10.1491
最初方便	-10.1491
妄生	-10.1494
變成	-10.1497
訖哩	-10.1508
一千八遍	-10.1509
二明	-10.1512
憾	-10.1527
揭囉訶	-10.154
末世	-10.1544
為本	-10.1544
不須	-10.1544
涅	-10.1548
次以	-10.1551
一切皆	-10.1553
十住	-10.1569
作是念	-10.1583
下二句	-10.1586
㘕	-10.1599
祈	-10.1616
五十九	-10.1617
譯云	-10.1621
稽首	-10.1622
頑	-10.1624
聖位	-10.1634
不在	-10.1635
則非	-10.1638
眠	-10.164
憑	-10.1642
曇	-10.1656
訥	-10.166
曼茶羅	-10.1661
玉	-10.1662
七十七	-10.1673
是諸	-10.1674
消除	-10.1689
三禪	-10.169
章句	-10.1693
既有	-10.1695
無餘	-10.1701
選	-10.1705
復次阿難	-10.1711
水性	-10.1712
閻浮提	-10.1712
為彼	-10.1713
嗢	-10.1716
乞义	-10.1725
處也	-10.1727
猶未	-10.1728
隨所	-10.1733
一經	-10.1733
余	-10.1736
蘭	-10.1737
不言	-10.1739
如佛	-10.1743
)。(􂨳	-10.1747
深入	-10.1748
八十一	-10.1748
應以	-10.175
朗	-10.1751
如水	-10.1752
悉能	-10.1755
付	-10.1756
寤	-10.1757
今文	-10.1763
准提	-10.1764
青色	-10.1768
最為	-10.1769
譬如有人	-10.177
底哩	-10.177
初中	-10.1773
方得	-10.1775
羅剎女	-10.1781
見分	-10.1785
常住真心	-10.1789
竝	-10.1794
危	-10.1795
以是因緣	-10.1803
恒河沙	-10.1804
弟	-10.1804
宿命	-10.1809
何等	-10.1812
得名	-10.1815
即空	-10.1815
此亦	-10.182
妻	-10.1821
尒	-10.1824
所持	-10.1826
無實	-10.1829
我身	-10.1831
娑婆	-10.1831
文中	-10.1834
不立	-10.1835
諸大菩薩	-10.1835
囑	-10.1837
如如	-10.1839
即說	-10.1843
入道	-10.1851
吳興云	-10.1858
屍	-10.1858
七十二	-10.186
由旬	-10.186
真體	-10.1864
須彌	-10.1864
身根	-10.187
發遣	-10.1875
所觀	-10.188
故說	-10.1887
欣	-10.1888
當作	-10.1888
八萬劫	-10.189
其相	-10.1894
故不	-10.1896
今言	-10.1896
與諸	-10.1897
若有人	-10.1909
言其	-10.1911
體用	-10.1912
入此	-10.1913
人中	-10.1914
承上	-10.1922
觀照	-10.1923
定力	-10.1933
如我	-10.1936
櫱多	-10.1939
不必	-10.1941
妙音	-10.1941
六十一	-10.1955
諦聽	-10.1955
誓願	-10.1957
速疾	-10.1966
恃	-10.1968
而立	-10.1969
山河大地	-10.1969
琰	-10.1977
觀心	-10.1977
唵嚩日囉	-10.1983
四角	-10.1984
飾	-10.1985
菩	-10.1986
委	-10.1989
斫	-10.1989
嚴飾	-10.1989
瘡	-10.1992
於一	-10.1995
活	-10.1997
形像	-10.2002
向上	-10.2011
於空	-10.2018
愚癡	-10.2019
=	-10.2022
大定	-10.2022
頭上	-10.2023
二禪	-10.2028
授與	-10.203
摩頂	-10.2031
即時	-10.204
瞿	-10.2042
既非	-10.2045
六道	-10.2051
客塵	-10.206
九界	-10.2065
撥	-10.2067
人身	-10.207
舌根	-10.2075
盲	-10.2082
顧	-10.2082
有此	-10.2085
而坐	-10.2088
野娑嚩	-10.2089
烟	-10.2094
何有	-10.2095
之妄	-10.2103
今則	-10.2104
訖㗚	-10.2112
二破	-10.2116
䭾囉	-10.2129
誨	-10.213
非同	-10.2133
六十五	-10.2135
之文	-10.2139
加護	-10.2141
為欲	-10.2148
開敷	-10.2148
不可得故	-10.2151
健	-10.2152
六十三	-10.2154
朝	-10.2157
跛哩	-10.216
財寶	-10.2162
相著	-10.2166
皆依	-10.2172
陁羅𡰱	-10.2174
輔	-10.2176
告言	-10.2182
欲得	-10.2185
警	-10.2185
即入	-10.2187
空有	-10.2188
此皆	-10.219
一切事	-10.2191
冀	-10.2196
二空	-10.22
六十六	-10.2204
本因	-10.2205
見空	-10.2208
皆同	-10.2209
密語	-10.2213
破之	-10.2215
憐愍	-10.2222
呪者	-10.2226
始覺	-10.2228
承事	-10.223
偶	-10.2231
又於	-10.2234
天神	-10.224
躡前	-10.2253
儗	-10.226
麼抳	-10.2264
不因	-10.2266
尅	-10.2268
傾	-10.227
八十八	-10.2284
見有	-10.2287
令我	-10.2289
尊勝	-10.2289
不實	-10.229
浮塵	-10.229
豈可	-10.2294
正顯	-10.2298
所感	-10.2301
頌曰	-10.2302
校	-10.2315
用此	-10.2317
而發	-10.2319
辯才	-10.2319
頭相拄	-10.232
四重	-10.2321
縒	-10.2322
故佛	-10.2326
響	-10.2326
識界	-10.2327
諸行	-10.233
思惑	-10.2332
繼	-10.2333
正報	-10.2333
大涅槃	-10.2339
愍	-10.2341
自生	-10.2341
人民	-10.2344
此呪心	-10.2355
火中	-10.2357
須知	-10.2358
ā	-10.2358
六十八	-10.2364
無動	-10.2365
性具	-10.2366
等事	-10.2368
行相	-10.2368
伽羅	-10.2378
綿	-10.238
相分	-10.2383
沒囉	-10.2387
優	-10.2389
二約	-10.2395
唯有	-10.24
人之	-10.2402
文云	-10.2405
若復有人	-10.2406
證真	-10.2409
出世間	-10.241
毒藥	-10.2414
離於	-10.2416
菩提涅槃	-10.2417
所聞	-10.2419
無能勝	-10.2422
若諸眾生	-10.2427
震	-10.2429
大仙	-10.2429
以前	-10.2438
如是故有	-10.2441
羊	-10.2443
不忘	-10.2445
於前	-10.2448
律儀	-10.2448
集會	-10.2456
護法	-10.2462
緣生	-10.2462
豐	-10.247
前之	-10.2474
鹽	-10.2476
六度	-10.2486
作禮	-10.2491
登伽	-10.2493
債	-10.2494
從是	-10.2499
當用	-10.2502
分段	-10.2509
有二種	-10.251
勇	-10.2511
大法	-10.2513
陀那	-10.2514
值	-10.2519
所發	-10.252
跋折羅	-10.2521
諸事	-10.2522
汝身	-10.2526
金剛三摩地	-10.253
十善	-10.253
摩登伽	-10.253
所為	-10.2532
奢摩	-10.2536
其類充塞	-10.2543
三角	-10.2544
先以	-10.2544
孔雀	-10.2548
麁	-10.255
妙性	-10.256
圓影	-10.2568
身口意	-10.2571
正念	-10.2574
濫	-10.2574
勒	-10.2576
當體	-10.2577
方等	-10.2583
若復	-10.2595
所起	-10.2596
泉	-10.2603
此科	-10.2608
水輪	-10.2615
空寂	-10.2621
誐多	-10.2623
不還	-10.2626
四指	-10.2627
何得	-10.2628
實有	-10.2629
直至	-10.2636
杜	-10.2636
自覺	-10.2636
稱讚	-10.2637
本空	-10.2645
六十七	-10.2652
縷	-10.2661
每日	-10.2663
心所	-10.2672
之異	-10.2677
我說	-10.2678
胸	-10.2681
乖	-10.2682
甚麼	-10.2682
了別	-10.2685
元是	-10.2685
聖性	-10.2686
三百	-10.2688
穿	-10.269
珍	-10.2691
八部	-10.2693
色心	-10.2701
賴	-10.2705
沒䭾	-10.2706
碎	-10.2714
刻	-10.2715
場	-10.2717
五處	-10.2728
法爾	-10.2734
佛菩薩	-10.2736
心印	-10.2737
用之	-10.2741
因心	-10.2742
前來	-10.2748
喝	-10.275
覺觀	-10.2754
故為	-10.2766
又曰	-10.2767
蓮華部	-10.277
俱嚕	-10.2776
七十一	-10.2776
六十九	-10.2784
更不	-10.2793
以來	-10.2798
覓	-10.2803
此三	-10.2807
性覺	-10.2812
第八識	-10.2814
諸位	-10.2815
寶冠	-10.2822
三結	-10.2822
橛	-10.2822
不息	-10.2825
達摩	-10.283
無疑	-10.283
端嚴	-10.2832
凡有	-10.2832
不礙	-10.2833
佛之	-10.2837
增上	-10.2839
體也	-10.2842
所以者何	-10.2846
或作	-10.2847
嚩路枳帝濕嚩	-10.286
信心	-10.2862
師子座	-10.287
聲聞緣覺	-10.2879
吳興	-10.288
無心	-10.2881
而為說法	-10.2884
矩嚕	-10.2884
勇猛	-10.2884
諾	-10.2887
所有一切	-10.2889
壓	-10.2889
可謂	-10.289
必無	-10.2892
默然	-10.29
定中	-10.2905
嚕抳迦	-10.2908
稟	-10.2909
捉	-10.2914
己身	-10.2915
無諸	-10.2916
證入	-10.2916
不唯	-10.2928
得解脫	-10.2932
矯亂	-10.2932
階	-10.2932
九十二	-10.2932
法輪	-10.2933
此義	-10.2933
威神	-10.2934
偷	-10.2936
天竺	-10.2936
留礙	-10.2939
帛	-10.294
竹	-10.2945
測	-10.2948
令其成就	-10.2949
七十五	-10.2949
略說	-10.2953
忍願	-10.2958
踰	-10.2961
梵行	-10.2964
三時	-10.2968
低	-10.2969
右邊	-10.297
較	-10.2971
吞	-10.2973
童女	-10.2974
散亂	-10.2975
遺失	-10.2979
於意云何	-10.2987
戴	-10.2993
真言唵	-10.2993
名稱	-10.2995
以印	-10.2995
作拳	-10.3002
湯	-10.3007
囉野	-10.3011
所變	-10.3018
別教	-10.3022
岐	-10.3025
伽陀	-10.3026
無形	-10.3028
了然	-10.3043
不久	-10.3044
若作聖解	-10.3047
似有	-10.3063
之語	-10.3071
炎	-10.3076
圍遶	-10.3079
不令	-10.308
及餘	-10.308
莖	-10.3081
為性	-10.3081
塵垢	-10.3082
披	-10.3083
所行	-10.3083
本如來藏	-10.3084
懼	-10.3085
此處	-10.3095
大印	-10.3097
七十三	-10.3105
請召	-10.3109
成就者	-10.3111
償	-10.3111
乞叉	-10.3113
不但	-10.3119
汁	-10.3121
護念	-10.3126
旋轉	-10.3127
匿王	-10.3141
業障	-10.3143
依報	-10.3144
同體	-10.3145
得此	-10.3145
報盡	-10.315
不依	-10.3151
陀囉	-10.3161
我見	-10.3162
樓閣	-10.3163
全是	-10.3164
誦此	-10.3165
雷	-10.3167
結示	-10.3174
諸經	-10.3175
瑞	-10.3175
無比	-10.3176
𧹞	-10.3177
省	-10.3178
諸漏	-10.3178
暴	-10.3183
環	-10.3185
非心	-10.319
弗	-10.3191
我慢	-10.3193
阿難下	-10.3195
業識	-10.3202
紛	-10.3202
實際	-10.3204
長壽	-10.3206
無緣	-10.3208
所歸	-10.3209
魂	-10.3209
見之	-10.3217
不可以	-10.3218
奧	-10.3218
㰤	-10.322
得無	-10.3225
辟支佛	-10.3228
靜慮	-10.3229
柴	-10.3231
俱舍	-10.3235
非自然	-10.3242
不作	-10.3243
普賢菩薩	-10.3246
白衣	-10.3246
既是	-10.3248
性也	-10.3252
一月	-10.3257
妬	-10.3263
喻如	-10.3267
真修	-10.3268
壇場	-10.3268
八葉	-10.3276
佛世尊	-10.3281
即知	-10.3285
孔	-10.3285
次當	-10.3286
本具	-10.3298
不墮	-10.3299
知此	-10.3303
佛母	-10.3309
快樂	-10.331
除一切	-10.3311
等法	-10.3312
終無	-10.3313
精氣	-10.3314
所住	-10.3317
情想	-10.3318
毘藥	-10.3318
法執	-10.332
阿難及諸大眾	-10.3323
五濁	-10.3324
有體	-10.3324
方圓	-10.333
相叉	-10.3332
汝之	-10.3334
楞伽	-10.3336
吼	-10.3339
開發	-10.3339
若依	-10.3343
9	-10.3344
死後	-10.3344
上有	-10.3344
七十四	-10.3348
六種	-10.3349
釋迦牟尼佛	-10.3352
訶囉	-10.3358
密因	-10.336
銀	-10.3361
干	-10.3364
搖動	-10.3367
周匝	-10.3371
闇	-10.3376
一味	-10.3377
俗諦	-10.3378
諸趣	-10.3379
彈指	-10.3384
之由	-10.3385
無生忍	-10.3386
奈	-10.3387
功能	-10.3393
無色界	-10.3394
九十一	-10.3394
佛地	-10.3402
若約	-10.3405
火燒	-10.3406
一切處	-10.3407
見明	-10.341
遍照	-10.3411
須彌山	-10.3412
陛	-10.3413
小兒	-10.3414
往來	-10.3426
病者	-10.3426
。」【△	-10.343
螺	-10.3439
非空	-10.3439
交光	-10.3442
了無	-10.3442
七十八	-10.3444
併	-10.3448
七十六	-10.3455
迷悶	-10.3459
賜	-10.3461
化生	-10.3463
寬	-10.3463
其意	-10.3465
難陀	-10.3466
真言加持	-10.3467
降三世	-10.3467
衝	-10.3468
都無	-10.347
之功	-10.3472
般若波羅蜜	-10.3473
火輪	-10.3474
紅	-10.3476
安慰	-10.3488
孕	-10.3489
心體	-10.3491
鑒	-10.3492
若非	-10.3493
所不能	-10.3494
大千	-10.3497
普門	-10.3498
赴	-10.3498
化佛	-10.3501
妄執	-10.3505
緣塵	-10.3508
覺悟	-10.3511
指示	-10.3512
意也	-10.3515
企	-10.3521
有學	-10.3523
疎	-10.3526
斛	-10.3529
觀見	-10.353
佛語	-10.3534
鉢頭	-10.3534
左邊	-10.3541
臭	-10.3544
受報	-10.3547
皆令	-10.355
怛儞也	-10.3552
獸	-10.3572
端正	-10.3572
此言	-10.3582
云何名為	-10.3582
說之	-10.3584
八十四	-10.3585
我所	-10.3586
梅	-10.3586
金剛界	-10.3586
不容	-10.3588
櫱跢	-10.359
床	-10.3591
弊	-10.3591
羽	-10.3597
精真	-10.3599
密印	-10.3599
問答	-10.3608
畫像	-10.3608
辟除	-10.3608
勿令	-10.3611
居士	-10.3615
牟尼	-10.3617
執著	-10.3629
七十九	-10.3631
佛道	-10.3632
阿難白佛言世尊	-10.3632
感應	-10.3635
所因	-10.3636
雪	-10.3638
病人	-10.364
顯真	-10.3643
之根	-10.3656
彼佛	-10.3662
筆	-10.3664
聖賢	-10.3666
持金剛	-10.3672
古人	-10.3674
刺	-10.3675
化為	-10.3681
十萬遍	-10.3692
又有	-10.3693
進修	-10.3702
金銀	-10.3705
以左手	-10.3712
數量	-10.3712
拽	-10.3712
妄語	-10.3715
非一	-10.3716
所詮	-10.3733
侍	-10.3735
尤	-10.3737
佐	-10.3738
紙	-10.374
而此	-10.3744
陀羅尼門	-10.3753
底曳	-10.3756
之內	-10.3757
贊	-10.376
▁五	-10.3763
皆得成就	-10.3763
發揮	-10.3764
六入	-10.3765
即說呪曰	-10.3766
氏	-10.3768
自在天	-10.3769
見此	-10.3776
妨	-10.3778
空生	-10.3788
不入	-10.3791
漚	-10.3792
梵本	-10.3793
苕溪云	-10.3794
此為	-10.3794
誐囉	-10.3795
裂	-10.3795
莎嚩訶	-10.3796
稱名	-10.3797
頂戴	-10.3798
為緣	-10.3801
根元	-10.3805
寂照	-10.3805
與前	-10.3807
曷	-10.3814
見相	-10.3817
第一義諦	-10.382
唵字	-10.3822
通塞	-10.3824
又此	-10.3826
繁	-10.3827
師曰	-10.383
后	-10.3831
亦皆	-10.3831
不食	-10.3831
至誠	-10.3833
如云	-10.3841
從心	-10.3843
是我	-10.3847
而不知	-10.3854
八十二	-10.3856
心念	-10.3858
此翻	-10.3859
為非	-10.386
印呪	-10.3867
柳	-10.3868
卒	-10.3869
上品	-10.387
次應	-10.387
二無名指	-10.3871
依於	-10.3872
雜亂	-10.3874
童	-10.3875
不用	-10.3885
黑色	-10.3889
憎	-10.3891
得未曾有	-10.3892
向外	-10.3894
孽	-10.39
作此印	-10.3902
因也	-10.3902
祭	-10.3902
身分	-10.3904
𠼝	-10.3905
伴	-10.3908
法眼	-10.3908
相生	-10.391
吹	-10.3922
砂	-10.3924
曩莫阿	-10.3925
頸	-10.3925
a	-10.3927
一乘	-10.393
器界	-10.394
呪力	-10.394
得其	-10.394
」「	-10.3942
展	-10.3943
行也	-10.3944
前三	-10.3948
化身	-10.3957
常在	-10.3959
名相	-10.3977
如鏡	-10.3978
空也	-10.3979
社	-10.3983
吃	-10.3985
逸	-10.399
漫	-10.3992
雲海	-10.3993
兩手	-10.3996
果也	-10.3997
便成	-10.3998
禁戒	-10.3998
其實	-10.4002
一往	-10.4003
界外	-10.4006
意在	-10.4007
殺盜婬	-10.401
次明	-10.401
何為	-10.4011
不隨	-10.4011
真理	-10.4011
去來	-10.4015
鈴	-10.4018
此意	-10.4021
)。(􂨱	-10.4021
有五	-10.4026
故成	-10.403
午	-10.4041
三法	-10.4046
當知此	-10.4047
春	-10.4051
基	-10.4051
須臾	-10.4057
思念	-10.4061
則同	-10.4065
轉計	-10.4069
火焰	-10.4071
哥	-10.4072
經卷	-10.4072
教體	-10.4072
即無	-10.4073
三麼	-10.4074
三毒	-10.4075
。」【〔	-10.4075
瞻仰	-10.4077
得道	-10.4078
握	-10.4078
而實	-10.4078
眾寶	-10.4082
狗	-10.4083
陷	-10.4085
自見	-10.4097
何者是	-10.4099
蹉	-10.4108
梵云	-10.4113
則此	-10.4114
成就教理	-10.4121
次於	-10.4122
凡聖	-10.4123
污	-10.4129
煩	-10.413
受苦	-10.414
追	-10.4148
以喻	-10.415
諸龍	-10.4152
顯其	-10.4155
虎𤙖	-10.4159
冠註此	-10.416
妙明心	-10.416
未破	-10.417
一一皆	-10.4178
鉤召	-10.4178
罪障	-10.4179
作意	-10.418
毘盧遮那如來	-10.4181
也又	-10.4183
塵沙	-10.4184
十方佛	-10.4195
不名	-10.4201
捨離	-10.4204
日輪	-10.4204
心愛	-10.4206
險	-10.4207
不待	-10.4209
印契	-10.4209
冒	-10.4213
種類	-10.4214
雖未	-10.4219
從彼	-10.4223
外境	-10.4228
言此	-10.4231
阿難白佛言	-10.4235
誘	-10.4238
排	-10.4241
佛事	-10.4245
無所不	-10.4246
粉	-10.4249
本明	-10.4252
故無	-10.4256
成辦	-10.4264
軌則	-10.4265
孰	-10.4272
趨	-10.4273
譬喻	-10.4273
相和	-10.4274
阿鼻	-10.4277
輕重	-10.4279
業報	-10.4282
一生	-10.4283
作此法	-10.4284
即心	-10.4285
八十三	-10.4287
正見	-10.4291
淨水	-10.4292
頓悟	-10.4293
墮無間獄	-10.4294
行法	-10.4295
合成	-10.4299
所居	-10.4301
訖囉	-10.4302
二處	-10.4306
呪之	-10.431
互用	-10.4313
漏盡	-10.4316
本非因緣	-10.4317
今初	-10.4319
韈㗚	-10.4329
非為聖證	-10.4332
翅	-10.4334
乃能	-10.4334
鳴	-10.4337
鑑	-10.4341
焚	-10.4342
然而	-10.4345
抱	-10.4346
正受	-10.435
九十六	-10.4352
妖	-10.4356
遍滿	-10.4357
本非因緣非自然性	-10.4359
曩莫三滿多沒馱喃	-10.4365
召請	-10.4365
上中下	-10.437
能以	-10.4378
此大	-10.4381
圓光	-10.4383
腕	-10.4386
麼底	-10.4387
印相	-10.4388
九十五	-10.4389
身命	-10.4389
禮佛	-10.439
天地	-10.439
俱無	-10.439
是謂	-10.4393
佛土	-10.4398
明之	-10.4398
先須	-10.4399
五穀	-10.4399
怛羅	-10.44
八十七	-10.4401
答言	-10.4406
不妨	-10.4406
之色	-10.441
丹	-10.4411
尚不	-10.4411
三部	-10.4414
具有	-10.4414
白佛言世尊	-10.4418
應云	-10.4418
修多羅	-10.4419
而行	-10.4423
議	-10.4424
觀智	-10.4424
皆能	-10.4424
非自然性	-10.4426
彼真言曰	-10.4427
之妙	-10.4429
其餘	-10.443
二法	-10.4432
喉	-10.4432
薩縛	-10.4433
離合	-10.4441
安於	-10.4443
人所	-10.4445
羯南	-10.4446
本非	-10.4449
戶	-10.4454
懺	-10.4463
多少	-10.4463
狐	-10.4468
底瑟姹	-10.4471
毘舍	-10.4472
祗	-10.4473
說也	-10.4474
有生	-10.4476
是則名為	-10.4478
之義也	-10.4484
如上所說	-10.4484
娑囉	-10.4485
由前	-10.4489
狹	-10.4494
尚未	-10.4495
何謂	-10.4498
命終之後	-10.4499
敗	-10.4499
喪	-10.4502
講	-10.4504
寶藏	-10.4509
枳孃	-10.4511
忽生	-10.4515
教中	-10.452
金輪	-10.452
伏藏	-10.4521
火光	-10.4522
不悟	-10.4522
亦以	-10.4534
諍	-10.454
產	-10.4543
夷	-10.4545
掌中	-10.4545
常為	-10.4546
定心	-10.4549
此四	-10.4551
故於	-10.4551
慈心	-10.4558
初果	-10.4562
槃	-10.4566
方是	-10.4566
寶珠	-10.4567
欺	-10.4572
拈	-10.4575
跛野	-10.4581
八十六	-10.4584
僧伽	-10.4586
中說	-10.4587
天下	-10.4621
若求	-10.4625
不和合	-10.4626
八十五	-10.4628
射	-10.4628
厚	-10.4632
藝	-10.4633
克	-10.4634
選擇	-10.4634
i	-10.4635
一種	-10.4635
耽	-10.4639
主人	-10.4646
其形	-10.4647
躡	-10.4648
取著	-10.4653
證果	-10.4666
或為	-10.4667
速證	-10.4671
心開	-10.4673
九十八	-10.4678
恣	-10.4681
若彼	-10.4682
以彼	-10.4687
十五日	-10.469
而來	-10.469
為心	-10.4691
一切世界	-10.4697
袈裟	-10.4701
醫	-10.4705
案	-10.4705
牒前	-10.4707
覺體	-10.4708
是經	-10.4714
捨心	-10.4715
心想	-10.4716
誹謗	-10.4724
薄伽梵	-10.4724
海中	-10.4725
豈能	-10.4725
此以	-10.4727
出於	-10.4729
眾中	-10.473
軫	-10.4734
黨	-10.4736
資中曰	-10.4736
八十九	-10.4739
巳得	-10.4741
實無	-10.4742
滅盡	-10.4743
總名	-10.4747
法相	-10.475
三義	-10.4751
等皆	-10.4751
既云	-10.4756
諸物	-10.4757
佛部	-10.4762
頃	-10.4763
獨覺	-10.4764
三止	-10.4767
凌	-10.4768
想念	-10.477
婆囉	-10.478
薩嚩怛他	-10.4781
四陰	-10.4784
言教	-10.4787
聞此	-10.4788
三漸次	-10.4788
類也	-10.4795
亦當	-10.4795
天龍八部	-10.4798
振	-10.48
能現	-10.4802
之上	-10.4805
依教	-10.4812
字輪	-10.4816
前文云	-10.4816
九十三	-10.4817
立名	-10.482
無窮	-10.4821
回向	-10.4821
分為	-10.4825
保	-10.4826
理也	-10.483
是妄	-10.4835
耳根圓通	-10.484
故非	-10.4848
作之	-10.4849
攝心	-10.4851
而為說法令其成就	-10.4853
教法	-10.4856
處所	-10.4858
金剛寶	-10.4858
心目	-10.4859
五辛	-10.486
無所有	-10.4865
故感	-10.4866
蘖多	-10.4867
庶	-10.4869
摩尼寶	-10.487
證知	-10.4871
撮	-10.4872
世出世間	-10.4874
相違	-10.4874
倚	-10.4874
戀	-10.4875
籠	-10.4876
不現	-10.4877
釋成	-10.4878
二習	-10.4879
元明	-10.488
從佛	-10.4881
作一	-10.4883
現量	-10.4884
酪	-10.4887
不行	-10.4892
迎	-10.4903
假名	-10.4904
未有	-10.4904
瑩	-10.4905
喫	-10.4908
當知是	-10.4914
穴	-10.4916
復用	-10.4916
必定	-10.4919
覺了	-10.4922
巳成	-10.4927
熾	-10.4927
已上	-10.4928
流逸	-10.4933
悉得	-10.4935
婬欲	-10.4941
遶	-10.4941
綱	-10.4941
唯是	-10.4944
一肘	-10.4946
作如是	-10.495
獲大	-10.4953
目前	-10.4956
誦大明	-10.4956
圍	-10.4957
思量	-10.4957
一類	-10.4959
芥子	-10.4961
冩	-10.4962
拜	-10.4962
方可	-10.4967
能入	-10.4971
給	-10.4973
灾	-10.4974
三指	-10.4977
於後	-10.4977
取其	-10.4979
相交	-10.498
將此	-10.4981
明曰	-10.4983
經典	-10.4987
復於	-10.4988
真淨	-10.4988
等者謂	-10.4989
位中	-10.4996
於人	-10.4998
馱囉	-10.5
離欲	-10.5011
惟願	-10.5012
鷄	-10.5012
疾病	-10.5013
得清淨	-10.5015
束	-10.5018
滅除	-10.5019
天帝釋	-10.502
永斷	-10.5022
我為	-10.5028
毘盧遮那佛	-10.503
波羅蜜多	-10.5031
彌陀	-10.5033
觀門	-10.5036
之一	-10.504
極果	-10.5043
遵	-10.5044
破戒	-10.5045
瞋恚	-10.5046
儒	-10.5047
鹿	-10.5048
五指	-10.5052
缽納麼	-10.5053
胃	-10.5053
中現	-10.5058
浪	-10.5059
坻	-10.507
剛	-10.5072
得自在	-10.5075
請問	-10.5076
項	-10.5083
邪正	-10.5084
惱亂	-10.5084
其性	-10.5086
一名	-10.5088
脂	-10.509
枚	-10.5092
萬象	-10.5093
即誦	-10.5096
徧計	-10.5102
下云	-10.5102
所用	-10.5107
意生	-10.5109
地大	-10.5111
生死根本	-10.5111
率	-10.5111
而現	-10.5112
假使	-10.5118
位也	-10.5123
違順	-10.5124
他方	-10.5125
有邊	-10.5126
惡道	-10.5132
可畏	-10.5135
大慈悲	-10.5136
終不能	-10.5139
一切鬼神	-10.5141
淨除	-10.5143
既巳	-10.5143
快	-10.5145
南麼三曼多勃馱喃	-10.5153
施無畏	-10.5154
地中	-10.5161
九十四	-10.5162
於佛前	-10.5162
而彼	-10.5163
岸	-10.5168
梵志	-10.5169
金剛縛	-10.5173
心見	-10.5176
應用	-10.5176
正示	-10.5179
即應	-10.5181
相見	-10.5184
馳	-10.5184
須菩提	-10.5185
屋	-10.5186
不可說	-10.5187
剖	-10.5188
而見	-10.5189
括	-10.5189
雞囉夜彌	-10.519
予	-10.5191
金剛鉤	-10.5191
二分	-10.5191
作佛	-10.5193
阿字門	-10.5195
身上	-10.5196
將何	-10.5205
今欲	-10.5214
訓	-10.5217
雖復	-10.5218
西門	-10.5218
崇	-10.5219
威光	-10.5221
娑羅	-10.5222
▁○	-10.5223
長行	-10.5226
汝見	-10.5231
挽	-10.5233
計度	-10.5235
惟一	-10.5235
本體	-10.5236
一千	-10.5239
我亦	-10.5241
長水曰	-10.5242
囉惹	-10.5248
嘆	-10.5252
飛行	-10.5252
薰	-10.5259
囉怛曩	-10.526
佩	-10.5263
性中	-10.5265
嚩怛他	-10.5265
智印	-10.5273
之位	-10.5274
軌	-10.5275
諸師	-10.5276
佛陀	-10.5277
右旋	-10.5286
分位	-10.5291
對待	-10.5292
以自	-10.5296
得生	-10.5296
成熟	-10.5296
煎	-10.53
九十七	-10.5302
信受	-10.5306
罰	-10.5307
透	-10.5307
一卷	-10.5308
為宗	-10.5308
遲	-10.5311
妙理	-10.5313
入定	-10.5323
為主	-10.5326
四生	-10.5326
是其	-10.5329
以種種	-10.533
府	-10.5331
南謨	-10.5331
未悟	-10.5332
聞聲	-10.5339
變為	-10.5343
富貴	-10.5347
能滅	-10.5348
以諸	-10.5348
後文	-10.5351
皆屬	-10.5352
若實	-10.5359
仙人	-10.536
潔	-10.5362
七處	-10.5364
總是	-10.5366
婦	-10.5367
貧窮	-10.5368
而言之	-10.5368
慶喜	-10.5372
嚩日哩	-10.5373
啟請	-10.5376
嚩哩	-10.538
利他	-10.5381
法藏	-10.5386
唵阿	-10.5387
初句	-10.5387
迷惑	-10.5388
寶幢	-10.5397
如大	-10.5399
若為	-10.5399
時分	-10.5404
餘習	-10.5405
冰	-10.5412
不求	-10.5414
上首	-10.5422
戲	-10.5425
寶光	-10.5426
是有	-10.5429
2	-10.5431
智也	-10.5433
而證	-10.5436
阿闍棃	-10.5438
相者	-10.5441
仗	-10.5442
前境	-10.5443
無智	-10.5451
入流	-10.5451
有三種	-10.5453
迦哩	-10.5454
辰	-10.5456
吒野	-10.5456
佛前	-10.5458
大將	-10.5459
妙吉祥	-10.5461
呪法	-10.5466
乏	-10.5471
而修	-10.5472
標指	-10.5473
炭	-10.5476
丙	-10.5476
賓	-10.5476
皇	-10.5477
器仗	-10.5478
如是如是	-10.5478
唅	-10.5479
出入息	-10.548
耳識	-10.5482
字是	-10.549
漸漸	-10.5491
起滅	-10.5492
空如來藏	-10.5493
麥	-10.5494
持此	-10.5498
末那	-10.5502
半月	-10.5505
與我	-10.5507
三處	-10.5508
四百	-10.5512
不有	-10.5516
四字	-10.552
即差	-10.5524
一切惡	-10.5528
縮	-10.5544
之有	-10.5546
斷惑	-10.5546
三字	-10.5547
非但	-10.5548
眾多	-10.5549
人法	-10.5549
亦不能	-10.555
遙	-10.555
徑	-10.5551
四隅	-10.5559
心為	-10.5559
等相	-10.5563
佛意	-10.5571
下劣	-10.5571
其地	-10.5572
利樂	-10.5575
法故	-10.5576
非色	-10.5581
彈	-10.5584
無還	-10.5584
所覺	-10.5594
中陰	-10.5598
如意寶	-10.5598
南無婆伽婆帝	-10.5599
本部	-10.5602
眾會	-10.5602
佛教	-10.5609
指頭	-10.5612
敕	-10.5615
共生	-10.5618
幸	-10.5622
枉	-10.5626
送	-10.5628
菓	-10.5636
會通	-10.5646
破其	-10.5649
輕安	-10.5651
論曰	-10.5654
諸餘	-10.5656
為汝	-10.5656
物象	-10.5658
糞	-10.566
法要	-10.5665
宿習	-10.5673
識精	-10.5673
拄	-10.5674
離一切相	-10.5675
不具	-10.5677
迷真	-10.5679
本經	-10.5686
無所得	-10.5687
當觀	-10.5687
誦此陀羅尼	-10.5689
度生	-10.5689
衛	-10.569
鳩	-10.5692
窮盡	-10.5693
為食	-10.5693
弓	-10.5694
三世諸佛	-10.5695
楞	-10.5702
又非	-10.5703
為其	-10.5703
卵	-10.5705
災難	-10.5705
膠	-10.5708
身體	-10.5709
有色	-10.571
資中	-10.5718
先明	-10.5718
燈明	-10.5718
尋常	-10.572
花鬘	-10.5722
分證	-10.5725
明覺	-10.5725
薩囉	-10.5726
江	-10.5727
兄弟	-10.5728
薪	-10.5729
取一	-10.573
柔	-10.5731
武	-10.5731
本無所有	-10.5732
不分	-10.5737
不能自	-10.5738
訛	-10.5743
是事	-10.5744
與汝	-10.5747
作如是言	-10.5758
遊戲	-10.5759
眾生界	-10.576
三塗	-10.5772
忙	-10.5772
生佛	-10.5774
天龍	-10.5775
恒常	-10.5779
䛧	-10.5789
形色	-10.579
罪業	-10.5792
正脈云	-10.5796
一切真言	-10.5796
蒙佛	-10.5799
世諦	-10.5801
復生	-10.5803
中心	-10.5807
不惟	-10.5811
跓	-10.5819
故先	-10.5821
作種種	-10.5822
法則	-10.5822
而今	-10.5823
皆成	-10.5824
遊行	-10.583
與佛	-10.5833
況復	-10.5834
哩也	-10.5838
憐	-10.5839
藏識	-10.5839
阿難陀	-10.5842
無上道	-10.5845
言我	-10.5846
圓常	-10.5847
掘	-10.5848
壇法	-10.5849
矯	-10.5849
黏	-10.5849
頂輪王	-10.585
而未	-10.5852
惜	-10.5852
麌	-10.5854
雖不	-10.5855
娑婆訶	-10.5857
左手執	-10.5859
不由	-10.5863
法合	-10.5868
金剛印	-10.587
心上	-10.5878
四天	-10.5879
嬈	-10.5882
右押左	-10.5883
以示	-10.5888
天上	-10.5895
隨力	-10.5898
而觀	-10.5898
亦令	-10.5901
宛	-10.5902
繫縛	-10.5904
在家	-10.5907
有二義	-10.5907
五欲	-10.5908
若諸	-10.5912
人也	-10.5913
大母指	-10.5916
其名	-10.5916
何異	-10.5917
憍尸迦	-10.5919
大佛頂如來密因修證了義	-10.592
刃	-10.5921
阿難大眾	-10.5925
住持	-10.5925
妙行	-10.5928
有如是	-10.5935
𢈔	-10.5942
極樂	-10.5949
非因緣	-10.5949
庾	-10.5953
法王子	-10.5953
非相	-10.5956
同彼	-10.5957
五逆	-10.596
末法	-10.5963
變現	-10.5966
地瑟恥	-10.5968
怨家	-10.5969
心之	-10.5969
或用	-10.5971
由彼	-10.5974
更問	-10.5978
僧問	-10.5984
同是	-10.5984
多曳	-10.5987
四果	-10.5988
優劣	-10.5992
如來藏心	-10.5993
能斷	-10.5995
決擇	-10.5995
咩	-10.5998
即非	-10.5999
虞	-10.6001
為所	-10.6002
釋之	-10.6003
棒	-10.6005
考	-10.6011
熾然	-10.6012
想心	-10.6013
阿彌陀佛	-10.6014
離一切	-10.6015
織	-10.6015
常得	-10.6019
月光	-10.602
善住	-10.6021
如說	-10.6024
鈔	-10.603
荅	-10.6031
流轉國土	-10.6036
本是	-10.6036
香氣	-10.6039
檢	-10.604
栗	-10.6041
丁以反	-10.6041
天衣	-10.6042
喜樂	-10.6042
不止	-10.6043
故下	-10.6044
而論	-10.6044
陀羅尼曰	-10.6044
吒吒	-10.605
引一	-10.605
或可	-10.6053
聽法	-10.6057
根本無明	-10.6059
流注	-10.606
劫濁	-10.6061
金剛智	-10.6063
此諸	-10.6064
但能	-10.6066
不空羂索	-10.6072
川	-10.6074
錢	-10.6076
金剛藏	-10.6076
震動	-10.6079
夾	-10.6079
捨身	-10.608
巳滅	-10.608
如來說	-10.6083
地也	-10.6088
釘	-10.6089
㫊暮伽	-10.6091
得無生忍	-10.6093
諸人	-10.6096
方能	-10.6096
大悲心	-10.6097
為之	-10.6101
大菩提	-10.6102
團	-10.612
坑	-10.6121
那伽	-10.6123
8	-10.6125
稱為	-10.613
勝妙	-10.613
滿月	-10.6132
包	-10.6132
事也	-10.6137
明其	-10.6137
自相	-10.6139
境也	-10.6141
結答	-10.6142
諸菩薩萬行首楞嚴經	-10.6143
知者	-10.6146
一六	-10.6147
是大	-10.6148
未甞	-10.6149
說偈	-10.6151
見見	-10.6153
肥	-10.6155
嫌	-10.6155
巘	-10.6156
并諸	-10.6158
畢竟無體	-10.6159
下結	-10.6159
眉	-10.616
未證	-10.6162
於外	-10.6164
䟦	-10.6167
朱	-10.6168
啞	-10.6168
遍一切處	-10.6171
入佛知見	-10.6175
虫	-10.6176
圓照	-10.6177
如何是	-10.6186
下文云	-10.6188
形如	-10.6188
導師	-10.6191
三身	-10.6191
晨朝	-10.6195
阿那	-10.6196
捏	-10.6205
句義	-10.6205
訟	-10.6206
於如來	-10.6206
有無量	-10.6208
不共	-10.6213
囉字	-10.6219
猶是	-10.622
隨彼	-10.6221
是汝	-10.6226
色塵	-10.6227
廣明	-10.6228
持此呪	-10.6232
紹	-10.6233
虧	-10.6234
結跏趺坐	-10.6234
竊	-10.6235
確	-10.6237
掩	-10.6238
鍾	-10.6246
三十三天	-10.6247
不能知	-10.6253
鑿	-10.6259
天帝	-10.6261
惹野	-10.6267
作佛事	-10.6269
佛界	-10.6269
正說	-10.6269
而去	-10.6269
斷絕	-10.6269
白言	-10.6271
身語心	-10.6271
性明	-10.6275
次云	-10.6275
曼拏羅中	-10.6278
皆可	-10.6278
以金剛	-10.6279
塢	-10.628
觀者	-10.6281
佛像	-10.6285
大日	-10.6292
作諸	-10.6293
王子	-10.6295
大明王	-10.6298
性故	-10.63
勸請	-10.6301
鎖	-10.6305
不死	-10.6306
各別	-10.631
徧十方界	-10.6312
尚有	-10.6314
為能	-10.6317
菩薩見	-10.632
下破	-10.632
大慧	-10.6321
能成就	-10.6326
心住	-10.6326
起信	-10.6334
達囉	-10.6336
一如	-10.6344
胝	-10.6345
白佛	-10.6352
五字	-10.6355
結解	-10.6359
結前	-10.6366
實性	-10.6369
佛問	-10.6369
淨心	-10.6369
四眾	-10.6372
準前	-10.6372
十二處	-10.6375
貪愛	-10.6379
界內	-10.6379
天眾	-10.638
器中	-10.6386
成菩提	-10.6386
第六識	-10.6389
之真	-10.6391
五戒	-10.6392
馬頭	-10.6393
牆	-10.6393
騐	-10.6398
一劫	-10.64
充滿	-10.64
火大	-10.64
巴	-10.6402
本願	-10.6403
教化	-10.6405
陰陽	-10.6408
遷變	-10.6408
微塵數	-10.6411
云何為	-10.6414
無妄	-10.6415
不動尊	-10.6416
)󲊛	-10.6423
大願	-10.6424
生住異滅	-10.643
激	-10.6432
路枳	-10.6433
誐誐曩	-10.6433
猛火	-10.6435
諸妄	-10.6436
非謂	-10.6438
不生滅性	-10.644
見色	-10.6443
瓦	-10.6445
不通	-10.6446
為他	-10.6447
二塵	-10.6447
亦為	-10.6451
於世間	-10.6452
則見	-10.6452
閑	-10.6454
八種	-10.6454
事理	-10.6458
處處	-10.6464
如其	-10.6464
驅	-10.6464
而又	-10.6466
之要	-10.6468
發現	-10.6469
九品	-10.6469
其本	-10.6471
逾	-10.6474
檀慧	-10.6474
便有	-10.6476
皆名	-10.6477
此三昧	-10.6482
依前	-10.6482
松	-10.6484
爭	-10.6485
得果	-10.6486
雪山	-10.6486
3	-10.6488
路迦	-10.6489
嬭	-10.6491
摧伏	-10.6492
比丘尼	-10.6496
乾慧地	-10.6499
五通	-10.6509
法空	-10.6511
心法	-10.6513
酢	-10.6514
為義	-10.6518
教以	-10.6519
下句	-10.6525
之德	-10.6527
十力	-10.6528
三滿多	-10.6529
大覺	-10.6531
承佛	-10.6544
惡心	-10.6547
是如來	-10.655
不被	-10.6553
無記	-10.6554
禍	-10.6555
設咄嚕	-10.6558
掃	-10.6559
憶持	-10.6559
換	-10.6559
如意珠	-10.6559
此計	-10.6561
闊	-10.6564
汝觀	-10.6566
三事	-10.6568
同佛	-10.657
聞者	-10.6573
剎土	-10.6573
鼻根	-10.658
直指	-10.6583
病苦	-10.6588
御	-10.659
聖道	-10.6591
墨	-10.6598
著新淨衣	-10.6598
同居	-10.6599
式	-10.6599
五者	-10.6601
遂成	-10.6602
三重	-10.6602
粳米	-10.6605
菴	-10.6606
顯見	-10.6608
之惑	-10.6614
之緣	-10.6617
知味	-10.6618
之元	-10.6619
自謂	-10.662
二人	-10.6626
是無	-10.6631
迦樓羅	-10.6633
不解	-10.6634
為上	-10.6636
曬	-10.6636
理智	-10.6641
能緣	-10.6641
之機	-10.6642
法生	-10.6643
扶	-10.6644
餅	-10.6649
旃檀	-10.665
e	-10.6651
墮於	-10.6655
離苦	-10.6655
分齊	-10.6661
方所	-10.6662
身口	-10.6663
巳盡	-10.6669
住此	-10.6669
將來	-10.667
既得	-10.6671
一切諸佛菩薩	-10.6673
淪	-10.6673
能觀	-10.6675
了達	-10.6679
歸於	-10.6685
聚落	-10.669
𪘨	-10.669
顯密	-10.6691
陀羅尼真言	-10.6694
如是我聞	-10.6697
顯發	-10.6702
所欲	-10.6705
根中	-10.6705
貪求	-10.6706
能詮	-10.6714
道理	-10.6715
凶	-10.6717
飽	-10.6717
所計	-10.6718
晦	-10.6721
熱惱	-10.6722
逆流	-10.6722
淨菩提心	-10.6724
屬於	-10.6724
相故	-10.6724
虛空界	-10.6727
藥叉羅剎	-10.673
淨戒	-10.673
不退轉	-10.6734
富那	-10.6735
無差別	-10.6743
障難	-10.6745
於大	-10.6754
榮	-10.6758
總標	-10.676
沐浴	-10.676
頞	-10.6761
密言曰	-10.6761
從空	-10.6761
同名	-10.6763
令汝	-10.6763
鏡中	-10.6764
等諸	-10.6767
剋	-10.6769
用也	-10.6773
故令	-10.6774
中央	-10.6774
光照	-10.6775
身有	-10.6777
十方虗空	-10.6778
往生	-10.678
之前	-10.6789
三十二應	-10.6793
如虛空	-10.6793
毛孔	-10.6796
鉢底	-10.6801
妄明	-10.6803
財物	-10.6805
乞灑	-10.6806
如斯	-10.6809
囉怛那	-10.681
安悉香	-10.6811
綵	-10.6812
明相	-10.6814
齋戒	-10.6816
入空	-10.6821
入道場	-10.6823
鉢訥摩	-10.6823
三七日	-10.6824
一切智智	-10.6824
菩提薩埵	-10.6828
雄	-10.6831
閻浮	-10.6833
文義	-10.6837
皆具	-10.6841
一切煩惱	-10.6842
位次	-10.6842
髑髏	-10.6843
即名	-10.6844
度脫	-10.6844
謎	-10.6845
法喻	-10.6849
得證	-10.6849
卍	-10.685
採	-10.685
相現	-10.6853
㧊	-10.6858
前人	-10.6858
斷除	-10.6859
徧滿	-10.6863
之謂	-10.6864
羝	-10.6867
所須	-10.6873
是等	-10.6877
以無	-10.6879
室中	-10.6881
名也	-10.6885
善能	-10.6887
非實	-10.6888
修禪	-10.6892
意云	-10.6895
妙湛	-10.6902
相捻	-10.6903
天中	-10.6906
王如來	-10.6906
尾戍	-10.6908
缾	-10.6912
聰	-10.6912
安得	-10.6916
地上	-10.6919
說呪	-10.692
此字	-10.6921
針	-10.6922
甲冑	-10.6923
摩醯首羅	-10.6924
或得	-10.6926
戒律	-10.6931
溪	-10.6932
安布	-10.6932
分為二	-10.6934
云何知	-10.6937
既盡	-10.6941
寂滅現前	-10.6942
三細	-10.6943
必不	-10.6945
樹下	-10.6947
亢	-10.6948
其光	-10.6949
如今	-10.696
圓湛	-10.6962
閻	-10.6963
若有善男子善女人	-10.6963
所顯	-10.6966
厭離	-10.6967
直心	-10.6969
業相	-10.6972
亦須	-10.6972
渾	-10.6973
十行	-10.6973
華鬘	-10.6975
猶有	-10.6981
與此	-10.6983
聞佛	-10.6987
百億	-10.6988
根身	-10.6989
壇上	-10.6989
因緣故	-10.6994
皆如來藏	-10.6997
出三界	-10.6998
依止	-10.7002
慎	-10.7005
間斷	-10.7007
生於世間	-10.7008
出生死	-10.7009
鄔	-10.7009
正徧知	-10.701
縱有	-10.7011
妙樂	-10.7012
台	-10.7016
萬遍	-10.7018
無量功德	-10.702
初標	-10.7027
迴心	-10.7028
便得	-10.7033
復為	-10.7034
輸藍	-10.7039
歷劫	-10.7041
師云	-10.7046
夭	-10.705
速得成就	-10.705
肇	-10.7052
鍊	-10.7054
勘	-10.7055
炬	-10.7055
祥	-10.7058
舉喻	-10.706
療	-10.7064
心即	-10.7065
所立	-10.7069
用心	-10.707
相拄	-10.7072
滅後	-10.7072
一面	-10.7072
皆空	-10.7072
應念	-10.7079
五重	-10.7081
無染	-10.7084
陰魔	-10.7084
五行	-10.7087
聖凡	-10.7095
如我所證	-10.7095
持之	-10.7096
爪	-10.7097
鎮	-10.7098
而知	-10.7108
今汝	-10.7108
離此	-10.7116
苦行	-10.712
不能見	-10.7123
須陀洹	-10.7131
何也	-10.7132
穆	-10.7132
燃	-10.7135
知之	-10.7137
飢	-10.7146
惡鬼	-10.7149
奏	-10.7149
覺觸	-10.7156
隨類	-10.7158
能持	-10.7159
薩怛	-10.716
謂以	-10.7162
下品	-10.7162
食之	-10.7172
或時	-10.7173
既成	-10.7176
婆夜	-10.7178
識體	-10.7181
其處	-10.7182
相即	-10.7182
矚	-10.7182
為一體	-10.7184
淨妙	-10.7184
香爐	-10.7184
鑛	-10.7185
有聲	-10.7188
營	-10.7188
大自在	-10.7193
纏縛	-10.7193
之極	-10.7193
面向	-10.7194
有餘	-10.7194
之初	-10.7194
從初	-10.7195
冤家	-10.7195
眾人	-10.7198
月輪中	-10.7199
又何	-10.7201
以心	-10.7201
餘皆	-10.7204
耳門	-10.7205
遠近	-10.7205
皆不	-10.7207
是故阿難	-10.7207
多囉	-10.7211
門中	-10.7215
道者	-10.7217
此定	-10.7221
駄	-10.7224
真言行	-10.7225
既爾	-10.7225
藏心	-10.7225
名大	-10.7225
云何名	-10.7226
生天	-10.7234
絲	-10.7236
警覺	-10.7237
作壇	-10.7237
之報	-10.7239
冥諦	-10.724
由心	-10.7241
初發心	-10.7245
不修	-10.7249
胎藏	-10.7251
度眾生	-10.7251
發光	-10.7256
加持故	-10.7261
真際	-10.7262
相涉	-10.7263
妙覺明	-10.7266
嚴身	-10.7268
皆然	-10.727
之辭	-10.7272
不染	-10.7273
是人罪畢	-10.7274
教授	-10.7276
而不休息	-10.728
臨終	-10.7283
又善男子	-10.7284
後二	-10.7284
應時	-10.7293
微屈	-10.7294
斡	-10.7294
證菩提	-10.7298
佛國	-10.7299
世尊我	-10.7304
佛菩提	-10.7306
我執	-10.7309
澤	-10.7311
為異	-10.7312
明淨	-10.7312
蠱	-10.7315
請佛	-10.7316
競	-10.7318
釋曰	-10.7324
狂走	-10.7324
為眾生	-10.7325
令諸	-10.7325
指前	-10.7326
妄念	-10.7329
目連	-10.7329
阿難當知	-10.7329
所云	-10.7336
此說	-10.7337
明見	-10.7339
諸世界	-10.734
能得	-10.7343
耳聞	-10.7356
有十	-10.736
娜麼	-10.7361
猪	-10.7362
自利	-10.7365
愛敬	-10.7366
解說	-10.7367
之過	-10.7367
誐拏	-10.7373
俱空	-10.7373
姥	-10.7376
定性	-10.7377
聰明	-10.7379
性體	-10.7379
我有	-10.7379
知是	-10.738
妄習	-10.7381
妄識	-10.7382
現世	-10.7388
謨伽	-10.7391
不以	-10.7393
已後	-10.7394
如來藏中	-10.7396
之主	-10.7397
因明立所	-10.7398
鬼魅	-10.74
〕〔	-10.74
日夜	-10.7403
政	-10.7404
其事	-10.7404
高下	-10.7405
蒸	-10.7405
龜	-10.7406
永離	-10.7407
是空	-10.741
伹	-10.741
將欲	-10.741
可解	-10.7411
相背	-10.7413
這	-10.7414
)􂢈	-10.7419
之狀	-10.7423
入聲	-10.7426
而不能	-10.7426
此地	-10.7427
汝識	-10.744
囉嚩	-10.7442
能發	-10.7443
諸世間	-10.7444
綰	-10.7447
脣	-10.7448
本如來藏妙真如性	-10.7448
正當	-10.7448
阿耨多羅三藐三菩提	-10.7449
孝	-10.7449
區	-10.745
呈	-10.7452
解釋	-10.7455
爛	-10.7455
尾曩	-10.7459
奎	-10.7465
具云	-10.7466
呪心	-10.747
無量壽	-10.747
婆伽梵	-10.7475
斷見	-10.7475
各以	-10.7476
熏習	-10.7477
不空王	-10.7484
白檀	-10.7489
入壇	-10.7493
練	-10.7495
偈曰	-10.7496
此由	-10.7497
專注	-10.7499
澁	-10.75
觀自在菩薩摩訶薩	-10.75
神我	-10.7501
生時	-10.7508
什	-10.7512
前二	-10.7512
二釋	-10.7512
r	-10.7514
不屬	-10.7515
十法界	-10.7515
巖	-10.7517
無際	-10.7519
及彼	-10.7519
轉輪王	-10.7519
結顯	-10.752
運心	-10.7523
幖幟	-10.7525
酤	-10.7526
那莫	-10.7526
時有	-10.7526
眾生心	-10.7528
無過	-10.7529
巳來	-10.7534
浮根四塵	-10.7536
天宮	-10.7537
妄塵	-10.7538
邑	-10.7539
瞢	-10.7539
祠	-10.7542
谷	-10.7544
即彼	-10.7545
氐	-10.7547
𠸪乞义	-10.7555
色目	-10.7557
但云	-10.7561
不爾	-10.7562
明性	-10.7562
破和合	-10.7562
先當	-10.7563
印法	-10.7564
莎嚩	-10.7566
如來所說	-10.7567
勝解	-10.7568
空處	-10.7569
然彼	-10.7576
供具	-10.7576
區宇	-10.7578
合掌恭敬	-10.7581
不肯	-10.7584
放大光明	-10.7584
眉間	-10.7585
奚	-10.7588
剌	-10.7591
推破	-10.7593
坐道場	-10.7593
舌識	-10.7596
恨拏	-10.7596
無憂	-10.7598
現相	-10.7599
八方	-10.7599
一相	-10.7602
而求	-10.7606
薩哩斡	-10.7606
曼殊室利	-10.7608
二示	-10.7609
大拇指	-10.7615
有四種	-10.7616
精舍	-10.7616
專心	-10.7616
分四	-10.7618
知識	-10.7618
今謂	-10.762
奇特	-10.7621
妄覺	-10.7623
三科	-10.7624
正因	-10.7625
以有	-10.7626
權實	-10.7629
悉皆消滅	-10.763
耀	-10.763
取捨	-10.7632
蒲	-10.7636
一切人	-10.764
祖曰	-10.7642
杓	-10.7646
牛黃	-10.7646
以反	-10.7647
所出	-10.7649
有想	-10.765
涅哩	-10.7653
頌云	-10.7656
莊	-10.7659
虛空藏	-10.766
儜	-10.7661
利根	-10.7662
逝	-10.7664
但言	-10.7667
十二因緣	-10.7667
無聲	-10.7667
洎	-10.7667
是物	-10.7668
妃	-10.7668
▁2	-10.767
空界	-10.7671
得其便	-10.7677
悉底	-10.7678
淨居	-10.768
見也	-10.768
十萬	-10.768
桑	-10.7685
上句	-10.7685
船	-10.7686
苦海	-10.7687
內院	-10.7693
而反	-10.7695
不兼	-10.7698
修三摩地	-10.7698
宗鏡	-10.7698
即從座起頂禮佛足而白佛言	-10.7699
與如來	-10.77
其間	-10.77
聖智	-10.7703
一約	-10.7703
則與	-10.7708
此事	-10.7709
脉	-10.7709
大輪	-10.771
八大	-10.771
乳酪	-10.7715
若汝	-10.7717
醍醐	-10.7717
結加趺坐	-10.7719
人非人等	-10.7719
儀則	-10.772
祐	-10.772
放逸	-10.772
三分	-10.7723
)。(􂨲	-10.7728
自無	-10.7729
無戲論	-10.773
而為上首	-10.7731
大梵天王	-10.7731
五大	-10.7732
雖得	-10.7732
種性	-10.7734
真精	-10.7735
c	-10.7739
恭敬供養	-10.7739
凡所	-10.7741
菩薩戒	-10.7741
弊泮	-10.7741
恒河	-10.7747
於法	-10.7748
毫	-10.7749
若知	-10.7751
上妙	-10.7752
第二月	-10.7752
大陀羅尼	-10.7753
祇陀林	-10.7758
蜜㗚	-10.7758
身印	-10.7759
噁	-10.776
勉	-10.7763
毗舍	-10.7764
乍	-10.7766
如汝	-10.7766
印可	-10.7766
範	-10.7767
善男子善女人	-10.7771
得阿羅漢	-10.7772
觸塵	-10.7783
迷妄	-10.7784
十四日	-10.7788
潛根	-10.7789
如下	-10.7792
手足	-10.7794
來者	-10.7796
恚	-10.7803
麼囉	-10.7804
又彼定中諸善男子	-10.7805
能於	-10.7809
有八	-10.7812
融通	-10.7814
不可見	-10.7816
照明	-10.7817
初明	-10.782
諸障	-10.7823
畫作	-10.7825
反聞	-10.7828
大日如來	-10.7828
之一字	-10.7829
𡆆	-10.7829
t	-10.7831
八百	-10.7837
佛為	-10.7838
亦即	-10.7838
種種供養	-10.7838
歸真	-10.7838
識也	-10.7839
悲愍	-10.7841
二如來	-10.7852
刀兵	-10.7858
所解	-10.7858
懈怠	-10.7858
其色	-10.7858
爍	-10.786
擎	-10.786
經歷	-10.786
般若波羅蜜多	-10.7875
􂏖	-10.7876
三有	-10.7882
通名	-10.7884
二體	-10.7886
通指	-10.7889
從根	-10.7897
又法若	-10.79
隨業	-10.7903
流布	-10.7906
四義	-10.7914
搵	-10.7915
霜	-10.7916
受此	-10.792
生識	-10.792
胡麻	-10.7922
主宰	-10.7929
俱是	-10.7933
循環	-10.7934
能覺	-10.7936
所入	-10.7936
徧法界	-10.7945
推之	-10.7945
此與	-10.7946
因何	-10.7951
應有	-10.7953
漂	-10.7954
四天下	-10.7955
舟	-10.7958
所斷	-10.7958
曩野	-10.7958
䭾野	-10.796
迦嚕	-10.796
)。(􂨰	-10.7963
福智	-10.7968
頑空	-10.7973
以一	-10.7974
心精	-10.7975
釋迦牟尼	-10.7981
圓根	-10.7985
秫	-10.7986
身識	-10.7986
正以	-10.7986
皆無	-10.7987
非人	-10.7988
此一	-10.799
□□	-10.7993
其像	-10.7997
遍身	-10.8
突	-10.8002
皆因	-10.8004
修此	-10.8005
表示	-10.8006
明白	-10.8008
酒肉	-10.8012
惑業	-10.8014
之教	-10.8014
佛所說	-10.8015
經說	-10.8018
鮮	-10.8028
敷座說法	-10.8029
之際	-10.8029
雜染	-10.8032
密語曰	-10.8032
涅槃云	-10.8033
一千八	-10.8039
願力	-10.804
奉請	-10.8041
得大自在	-10.8043
故生	-10.8046
行之	-10.8047
令諸眾生	-10.8048
出離	-10.8048
皆如	-10.8055
不說	-10.8055
仁王	-10.8057
山中	-10.8059
自行	-10.806
此位	-10.8061
不無	-10.8063
㫊	-10.8065
聽聞	-10.8066
如一	-10.8069
厄	-10.8069
二月	-10.8072
此因	-10.8074
向前	-10.8074
名言	-10.8076
秘	-10.8076
先後	-10.8081
一切諸天	-10.8084
陰入處界	-10.8087
貞	-10.8089
勢力	-10.8089
咸皆	-10.8089
永不	-10.8089
有分別	-10.809
這一節經	-10.809
謹	-10.809
歇即菩提	-10.8091
因中	-10.8094
真際曰	-10.8097
七識	-10.81
拔濟	-10.8103
為妄	-10.8103
二正	-10.8108
墮地獄	-10.8109
正觀	-10.811
我是	-10.8113
菩薩等	-10.8113
之知	-10.8114
▁六	-10.8114
墮落	-10.8117
如來應正等覺	-10.8118
依他	-10.812
能觸	-10.8121
者如	-10.8125
與之	-10.8129
寶王	-10.8129
六解一亡	-10.8136
大光明	-10.8136
外院	-10.8138
阿毘	-10.8141
無依	-10.8142
精勤	-10.8142
填	-10.8143
芻	-10.8143
閱	-10.8145
妙蓮華	-10.8147
冬	-10.8149
由因世界	-10.8149
金剛王	-10.8149
然亦	-10.8149
水陸	-10.8155
煩惱障	-10.8155
此土	-10.8158
無有異	-10.8159
智力	-10.816
食肉	-10.816
學人	-10.8162
出其	-10.8167
祿	-10.8167
殺害	-10.8169
山曰	-10.8169
雜色	-10.8171
瘧	-10.8171
荷	-10.8172
面目	-10.8173
常說	-10.8173
虗明	-10.8176
理趣	-10.8176
由此計度	-10.8176
婦人	-10.8178
波囉	-10.818
起首	-10.8182
泛	-10.8186
經論	-10.8187
是善男子	-10.8188
爾時世尊告	-10.8188
手把	-10.8188
行願	-10.819
紇	-10.819
臘	-10.819
種種莊嚴	-10.8191
怛姪他	-10.8192
三七	-10.8193
電	-10.8194
大劫	-10.8197
黑月	-10.82
如金剛	-10.8201
見惑	-10.8207
三摩地中	-10.8213
恭	-10.8215
山王	-10.8215
萬德	-10.8216
退散	-10.8225
說者	-10.8225
即一切法	-10.8226
苾芻	-10.8229
彌勒菩薩	-10.8229
此見精	-10.8229
只是	-10.823
總攝	-10.8231
復想	-10.8234
之疑	-10.8236
初生	-10.8237
西域	-10.8239
黑暗	-10.8241
大梵天	-10.8246
真俗	-10.8249
前問	-10.8253
同聲	-10.8253
本無生滅	-10.8257
s	-10.8257
五句	-10.8263
三十二相	-10.8264
有種種	-10.8265
能除一切	-10.8266
但見	-10.8267
及一切	-10.8268
鉢多	-10.827
侍者	-10.827
酥蜜	-10.8273
緣影	-10.8274
摩摩	-10.8276
得便	-10.8277
資糧	-10.828
天主	-10.8285
諸有為相	-10.8286
身為	-10.8288
三果	-10.8289
逃	-10.8292
是故應知	-10.8294
報身	-10.8294
童真	-10.8295
不如	-10.8296
執此	-10.8299
身如	-10.8302
究竟堅固	-10.8303
翻為	-10.8308
從來	-10.8314
鬼王	-10.8316
不祥	-10.8316
豈知	-10.8319
未嘗	-10.8322
李	-10.8322
𡁠	-10.8327
無所依	-10.8328
安心	-10.8331
五體投地	-10.8331
往詣	-10.8332
今說	-10.8336
忉利天	-10.8338
屹	-10.834
之形	-10.834
慧命	-10.8346
相貌	-10.8349
形相	-10.8349
大聖	-10.835
盡其	-10.835
魘	-10.8352
狂華	-10.8354
牛糞	-10.8354
證明	-10.8359
又言	-10.8359
相成	-10.8362
右手執	-10.8367
數數	-10.8369
一偈	-10.837
仁者	-10.8373
窣覩	-10.8375
則名	-10.8378
嘉	-10.8379
二風	-10.838
四臂	-10.8383
相待	-10.8383
前五	-10.8386
皆應	-10.8387
是諸佛	-10.8389
汝應	-10.8389
今於	-10.8392
生故	-10.8393
那羅延天	-10.8394
宣示	-10.8396
聞是	-10.8402
怛哩	-10.8402
峰	-10.8402
此理	-10.8404
我今說	-10.8404
境智	-10.8406
諸苦	-10.8407
之分	-10.8409
自恣	-10.8411
休息	-10.8415
金剛輪	-10.8416
是同	-10.842
人心	-10.842
即如來藏	-10.8421
反下同	-10.8421
若論	-10.8421
住在	-10.8422
方廣	-10.8423
軍荼利	-10.8425
在此	-10.8427
妄為明覺	-10.8427
殃	-10.843
帝那	-10.843
半加趺坐	-10.8432
葛哩	-10.8433
無所畏	-10.8434
真言行者	-10.8436
辣	-10.8436
非法	-10.8439
椀	-10.844
忘失	-10.8441
雖曰	-10.8442
三初	-10.8442
見妄	-10.8442
饑	-10.8444
釋迦牟尼如來	-10.8445
饒	-10.8447
謂於	-10.845
明心	-10.8451
陳那	-10.8453
四王	-10.8454
畢竟無	-10.8459
常隨	-10.8459
圓妙	-10.8463
善業	-10.8463
折囉	-10.8463
結此印	-10.8463
金剛手菩薩摩訶薩	-10.8464
作是言	-10.8466
慳	-10.8468
又三	-10.847
阿脩羅	-10.8475
見內	-10.8475
摩囉	-10.8476
淚	-10.8476
全無	-10.8477
生歡喜	-10.8478
狀如	-10.8478
離塵無體	-10.8479
所覆	-10.8481
復得	-10.8484
有眾生	-10.8484
所受	-10.8489
之空	-10.849
參合	-10.8492
復能	-10.8496
皆言	-10.8497
諸大眾	-10.8497
於一切法	-10.85
不昧	-10.8505
水天	-10.8506
瓢	-10.8511
能聞	-10.8511
甲上	-10.8511
即時如來	-10.8511
殊不知	-10.8519
耨	-10.852
大臣	-10.8522
淨穢	-10.8526
之苦	-10.8528
根身器界	-10.853
酸	-10.8533
司	-10.8533
弄	-10.8536
瑟抳	-10.8541
極微	-10.8544
天等	-10.8545
復入	-10.8545
諸外道	-10.8546
答云	-10.8551
一標	-10.8552
略舉	-10.8554
不來	-10.8558
訥瑟吒	-10.8558
等同	-10.856
為喻	-10.8563
大寶	-10.8564
成其伴侶	-10.8567
真言門	-10.8571
十指	-10.8572
此界	-10.8573
悉令	-10.8573
因迷	-10.8574
不許	-10.8574
曼陀羅	-10.8574
執身	-10.8577
􂢈	-10.858
八萬	-10.8581
下正	-10.8582
種智	-10.8582
今為	-10.8582
捷	-10.8583
宇	-10.8585
室囉	-10.8586
怨敵	-10.8586
徵起	-10.8587
賒	-10.8588
則應	-10.8588
若謂此	-10.8589
義者	-10.859
閇	-10.859
舉一	-10.8594
妙真如性	-10.8595
深心	-10.8595
謂其	-10.86
其上	-10.86
江河	-10.8601
末二句	-10.8602
暗中	-10.8602
不循	-10.8604
性德	-10.8605
三昧耶印	-10.8605
雙非	-10.8608
三相	-10.8608
離見	-10.8609
不足	-10.8611
則曰	-10.8616
嚕拏	-10.862
及諸菩薩	-10.8621
皆須	-10.8622
隅	-10.8622
諱	-10.8623
大金剛	-10.8623
成立	-10.8624
依之	-10.8626
於大眾中	-10.8627
溼	-10.8628
積集	-10.8629
)􂏖(	-10.863
睡眠	-10.863
俾	-10.863
大會	-10.8631
達哩	-10.8632
」【	-10.8637
二門	-10.8639
誦七遍	-10.864
此佛所說	-10.8647
煉	-10.8648
首楞嚴王	-10.865
為是	-10.8651
方名	-10.8652
與眾生	-10.8656
善心	-10.8661
嚩婆	-10.8669
通教	-10.867
過患	-10.8672
圓滿菩提	-10.8674
顏	-10.8674
還復	-10.8677
外物	-10.8681
鐘	-10.8682
之謂也	-10.8683
提婆	-10.8683
誦念	-10.8692
鈍根	-10.8692
真智	-10.8693
下方	-10.8695
自作	-10.8696
常當	-10.8696
櫱帝	-10.8698
法用	-10.8699
蘇悉地	-10.8702
性淨	-10.8706
)。(○	-10.8708
即是如來	-10.8711
曾無	-10.8713
諸佛世尊	-10.8713
名義	-10.8715
身語意	-10.8716
之明	-10.8719
徧圓	-10.8719
戌	-10.872
諸鬼神	-10.8723
憍	-10.8724
忿	-10.8728
寤寐	-10.8729
紀	-10.8729
繒	-10.873
研究	-10.8731
微笑	-10.8734
性本	-10.8736
旱	-10.8736
非想	-10.8737
永無	-10.8737
易知	-10.8738
不迷	-10.8738
正行	-10.8738
無處	-10.8739
以何為	-10.8742
廣果	-10.8746
思議	-10.875
有形	-10.8752
正修	-10.8755
罪人	-10.8757
右手持	-10.8757
因依	-10.8758
妙色	-10.8762
空無	-10.8766
八字	-10.8766
自是	-10.8771
異也	-10.8771
四攝	-10.8773
三陰	-10.8776
離念	-10.8777
唯見	-10.8777
離垢	-10.8781
中夜	-10.8782
一國	-10.8786
破妄	-10.8789
漿	-10.8789
四肘	-10.879
娜囉	-10.8791
照了	-10.8793
中作	-10.8796
持地	-10.8797
不能為害	-10.8797
塵相	-10.8799
初二句	-10.8799
二指	-10.8803
對境	-10.8804
舉事	-10.8806
如世間	-10.8814
復作	-10.8818
正道	-10.8818
生勝解者	-10.8819
無差	-10.882
諦理	-10.8821
若誦	-10.8822
大教	-10.8831
巨	-10.8832
所招	-10.8834
絹	-10.8836
男子	-10.8836
管	-10.8837
瞿曇	-10.8838
席	-10.8842
大梵	-10.8843
莫能	-10.8845
紇㗚	-10.8845
熏修	-10.8847
左手持	-10.8847
為首	-10.8855
涉入	-10.8857
千二百	-10.886
阿含	-10.8864
觀法	-10.8865
享	-10.887
釋云	-10.887
右膝著地	-10.8875
呪水	-10.8878
巳知	-10.8878
見濁	-10.8879
呪一百八遍	-10.8885
乃可	-10.8892
違越	-10.8894
愛染	-10.8894
盞	-10.8896
不絕	-10.8897
城中	-10.8899
誦三遍	-10.8899
三匝	-10.89
應身	-10.89
▁一正	-10.8901
見於	-10.8903
昴	-10.8907
所疑	-10.891
發於	-10.8911
至等覺	-10.8913
雖然	-10.8914
精研	-10.8916
不曾	-10.8917
賤	-10.8923
斯經	-10.8925
今復	-10.8926
以是義故	-10.8929
孫	-10.893
并諸眷屬	-10.8931
其數	-10.8933
恬	-10.8937
奉行	-10.8938
惟是	-10.8938
不安	-10.8938
不成就	-10.8939
金剛合掌	-10.8942
喻之	-10.8942
未知	-10.8944
地前	-10.8945
捫	-10.8946
尾灑	-10.8951
之法也	-10.8951
亦不得	-10.8953
因有	-10.8955
失其	-10.8955
道也	-10.8956
五輪	-10.8956
真珠	-10.8957
百字	-10.896
哩抳	-10.896
个	-10.8961
成無上道	-10.8963
娑訶	-10.8967
明悟	-10.8971
無所見	-10.8974
此非	-10.8975
謂從	-10.8976
訶字	-10.8977
普賢行	-10.8978
染著	-10.8979
諸弟子	-10.8979
如汝所言	-10.8983
可還	-10.8985
逮	-10.8987
整	-10.899
質多	-10.8991
癹吒	-10.8996
無量百千	-10.8997
擣	-10.8997
教令	-10.8997
領納	-10.8997
堅執	-10.8998
蘗	-10.8998
無想天	-10.9
六者	-10.9003
既知	-10.9008
未見	-10.9009
別名	-10.9011
身而為說法	-10.9013
當依	-10.9016
菩薩眾	-10.9018
觀其	-10.9018
多人	-10.9019
東門	-10.9022
一破	-10.9023
片	-10.9023
寧有方所	-10.9028
等物	-10.9029
以表	-10.903
其名曰	-10.9031
滿馱	-10.9032
座上	-10.9035
効	-10.9035
斯義	-10.9035
善現	-10.9036
但為	-10.9038
不亂	-10.9038
二別	-10.9038
智論云	-10.904
粘	-10.904
言語	-10.9041
娑曩	-10.9042
來去	-10.9043
破無明	-10.9044
非我	-10.9048
事相	-10.9048
獻閼伽	-10.905
其文	-10.905
所破	-10.9052
焚燒	-10.9052
山林	-10.9055
後世	-10.906
4	-10.9066
設有	-10.907
行門	-10.9073
結名	-10.9075
品中	-10.9079
寅	-10.908
奉教	-10.908
阿僧祇	-10.9081
能令眾生	-10.9082
隨方	-10.9083
在大眾中	-10.9083
付囑	-10.9084
複	-10.9084
役	-10.9088
汝今諦聽	-10.909
功力	-10.9091
刑	-10.9092
佛法僧	-10.9093
釤	-10.9094
謀	-10.9096
護世	-10.9098
次復	-10.9101
降魔	-10.9101
四加行	-10.9103
肩	-10.9103
無限	-10.9104
修定	-10.9106
由其	-10.9107
我從	-10.911
八地	-10.9113
維	-10.9113
之塵	-10.9119
除去	-10.912
本位	-10.9121
隣虗	-10.9121
此結	-10.9123
心相	-10.9127
實智	-10.9128
柯	-10.9129
發化	-10.9129
陸	-10.9131
下至	-10.9131
以此為	-10.9131
增減	-10.9138
時節	-10.914
二十五聖	-10.9142
無遺	-10.9143
經行	-10.9143
身觸	-10.9145
無同異	-10.9146
空觀	-10.9147
匠	-10.9148
如虗空	-10.9148
今之	-10.9149
誐嚩帝	-10.9152
市	-10.9152
如是則	-10.9154
發真	-10.9155
般涅槃	-10.9155
旃陀羅	-10.9161
則於	-10.9163
為涅槃	-10.9163
香臭	-10.9165
色法	-10.9166
然有	-10.9166
能與	-10.9168
生死涅槃	-10.9169
之聲	-10.9171
剎利	-10.9173
又問	-10.9175
五智	-10.9176
世界中	-10.9181
▁三結	-10.9182
因聲	-10.9189
隙	-10.9193
星宿	-10.9193
無邊際	-10.9195
罵	-10.9197
無優劣	-10.9199
商佉	-10.9199
此問	-10.92
大精進	-10.92
惡星	-10.9201
魄	-10.9201
諸罪	-10.9201
炙	-10.9205
銷殞	-10.9207
苾	-10.9208
一行	-10.9209
燒之	-10.9209
亦不可得	-10.9209
賀曩賀曩	-10.921
普照	-10.921
共成	-10.9212
用前	-10.9215
壇內	-10.9217
五十五位	-10.9218
其有	-10.9219
巳下	-10.922
由斯	-10.922
淨名	-10.9221
以見	-10.9223
皆當	-10.9226
枝葉	-10.9227
如來所	-10.9231
不徧	-10.9232
斷常	-10.9234
次句	-10.9236
千遍	-10.9238
地神	-10.9244
揑	-10.9244
別釋	-10.9246
汝雖	-10.9248
鬪	-10.9251
惟心	-10.9254
一精明	-10.9259
天也	-10.9261
驢	-10.9262
總相	-10.9264
卜	-10.9265
念處	-10.9268
娑婆世界	-10.927
應是	-10.9278
若生	-10.9279
虛空藏菩薩	-10.9281
化他	-10.9283
阿羅	-10.9285
即與	-10.9288
則不能	-10.9289
手中	-10.9291
所對	-10.9297
職	-10.9298
如空華	-10.93
鈎	-10.9304
入流亡所	-10.9305
候	-10.9305
馳走	-10.9306
醒	-10.9307
羯哩	-10.9308
脾	-10.931
骨嚕	-10.9311
即離	-10.9312
諸佛所說	-10.9313
三曼多	-10.9313
𠸪	-10.9315
功夫	-10.9319
相鉤	-10.9322
入圓通	-10.9326
為常	-10.9329
別明	-10.9333
淨行	-10.9335
拇指	-10.9336
即性	-10.9339
亦言自得無上涅槃	-10.934
賀囉	-10.9342
既以	-10.9343
今何	-10.9343
詳明	-10.9343
非和非合	-10.9344
真言印	-10.935
如文	-10.9351
一百二十	-10.9351
正在	-10.9352
由汝	-10.9353
摶	-10.9356
餉	-10.9356
相容	-10.9357
汝言	-10.9358
皷	-10.9359
積聚	-10.9361
而如來藏	-10.9364
顛	-10.9364
四教	-10.9364
字義	-10.9367
諸佛所	-10.9368
先見	-10.9369
矩嚕矩嚕	-10.9371
而顯	-10.9371
為最	-10.9379
已來	-10.9381
異相	-10.939
部主	-10.939
求佛	-10.9391
悅意	-10.9392
目佉	-10.9393
胎生	-10.9397
六種震動	-10.9399
瞪	-10.94
當處	-10.9401
字為	-10.9403
何能	-10.9406
見與見緣	-10.941
執受	-10.941
不相應	-10.9412
筋	-10.9412
颯	-10.9415
維摩	-10.9419
庭	-10.9419
身也	-10.9421
𠯆	-10.9425
唯願世尊	-10.9426
化成	-10.9428
尸羅	-10.943
因之	-10.943
尾囉	-10.943
千歲	-10.9433
義理	-10.9436
䭾𩕳	-10.9438
u	-10.9439
妙德	-10.9439
成形	-10.944
入涅槃	-10.9445
得菩提	-10.9445
流入	-10.945
十方一切諸佛	-10.9451
無覺	-10.9459
識精元明	-10.9463
諂	-10.9467
以為其本	-10.9467
如理	-10.9469
見我	-10.947
根本印	-10.9471
二障	-10.9471
即生	-10.9473
菩薩真言曰	-10.9475
各隨	-10.9481
旋復	-10.9482
令眾生	-10.9483
王言	-10.9483
日中	-10.9484
既曰	-10.9485
額上	-10.9485
法事	-10.9486
底野	-10.9486
▁|□	-10.9493
湛明	-10.9494
盈	-10.9494
內相叉	-10.9495
大忿怒	-10.9498
勤修	-10.9502
浮根	-10.9505
思之	-10.9505
萬億	-10.9505
一塵	-10.9508
證此	-10.9508
通別	-10.9509
未必	-10.951
因緣和合	-10.951
十二類	-10.9511
丈	-10.9513
今觀	-10.9513
滅之	-10.9515
惱害	-10.9523
先說	-10.9525
淨居天	-10.9526
天仙	-10.9528
奉持	-10.9528
於道場	-10.9528
之下	-10.9529
求成就	-10.9534
器世間	-10.9538
海印云	-10.9539
這一節經世尊	-10.9542
諸緣	-10.9543
觀也	-10.9544
隨有	-10.9546
華嚴云	-10.9546
d	-10.9548
ra	-10.9549
卵生	-10.9549
而用	-10.9549
永滅	-10.955
清水	-10.9551
伺	-10.9552
六句	-10.9552
因於	-10.9555
少許	-10.956
前四	-10.9561
飛精附人	-10.9561
妄有	-10.9561
上座	-10.9563
日光	-10.9566
大曼拏羅	-10.9567
令知	-10.9568
以後	-10.9571
樂欲	-10.9572
今者	-10.9573
馱野	-10.9574
四性	-10.9575
今當	-10.9576
親見	-10.9576
陀羅尼呪	-10.9576
麼努	-10.9577
唧多	-10.9577
從前	-10.9577
鹹	-10.9581
毒蛇	-10.9583
過於	-10.9583
分析	-10.9583
執為	-10.9586
雖云	-10.9586
離相	-10.9588
紅色	-10.9597
福慧	-10.9599
想陰盡	-10.9599
諸煩惱	-10.9605
迷本	-10.9607
未到	-10.9613
六字	-10.9616
之深	-10.9616
妙寶	-10.9618
又為	-10.9619
觀世音菩薩摩訶薩	-10.9619
憾麼	-10.9623
拍	-10.9624
歟	-10.9624
而云	-10.9625
音樂	-10.9627
咽	-10.963
之始	-10.963
超過	-10.9631
為翼從	-10.9632
鬪諍	-10.9633
又二一	-10.9634
略示	-10.9635
儼	-10.9636
起信云	-10.9638
卷中	-10.9638
無上覺	-10.9639
佛智	-10.9639
富樓那言	-10.9641
乞史	-10.9644
身子	-10.9644
身內	-10.9649
資中云	-10.9651
首楞嚴經	-10.9652
無生法忍	-10.9653
復告	-10.9654
之別	-10.9654
亦成	-10.9656
六趣	-10.9657
如前說	-10.9659
服之	-10.9662
聞之	-10.9665
汦	-10.9667
如上說	-10.967
所能	-10.9671
相去	-10.9678
衛護	-10.9678
彼處	-10.9679
措	-10.9681
挃	-10.9682
不也世尊	-10.9683
羯羅	-10.9685
工	-10.9687
深信	-10.9688
塗地	-10.9688
覺緣	-10.9688
絕待	-10.9689
工夫	-10.9689
壯	-10.9691
岐路	-10.9694
腑	-10.9698
為令	-10.97
毘沙門	-10.97
達麼	-10.9701
當為	-10.9701
要知	-10.9702
業力	-10.9702
旃	-10.9703
非合	-10.9704
幢幡	-10.9706
異類	-10.9707
色等	-10.9713
各各有	-10.9717
解者	-10.9722
勝劣	-10.9723
於壇	-10.9723
白月	-10.9724
又汝	-10.9727
遠離諸	-10.9728
婬心	-10.9729
但取	-10.9729
悉馱	-10.973
之識	-10.9731
根也	-10.9732
上畫	-10.9733
正遍知	-10.9734
艾	-10.9734
以淨	-10.9736
即結	-10.9737
即自	-10.9738
茅	-10.9744
醉	-10.9746
閒	-10.9748
非異	-10.975
若了	-10.9751
家之	-10.9752
無等	-10.9752
五佛	-10.9759
何因	-10.9762
如火	-10.9762
洛叉	-10.9767
風大	-10.9769
鼻識	-10.9772
摩訶薩埵	-10.9781
無遮	-10.9781
大性	-10.9784
無滅	-10.9785
有諸	-10.9785
自此	-10.9785
使其	-10.9786
二喻	-10.9786
變異	-10.9788
一切大眾	-10.9791
唯除	-10.9791
無量光	-10.9793
入者	-10.9797
嗅	-10.9797
見相二分	-10.9799
剩	-10.9799
村	-10.98
娜野	-10.9802
諭	-10.9803
荒	-10.9804
而說偈言	-10.9804
四大天王	-10.9805
亭	-10.9806
主空	-10.9807
白傘蓋	-10.9809
櫱底	-10.9809
無端	-10.9819
心光	-10.9822
餘根	-10.9826
堅牢	-10.9827
虛空中	-10.9832
於身	-10.9833
十年	-10.9835
豈得	-10.9835
萬劫	-10.9836
二結	-10.9839
方位	-10.9842
僕	-10.9843
及諸大眾	-10.9843
以一切	-10.9844
本末	-10.9846
忍辱	-10.9847
囉迦	-10.9848
為第一	-10.9851
隸	-10.9851
〕-【	-10.9853
初又二一	-10.9855
躬	-10.9855
解除	-10.9855
京	-10.9856
非物	-10.986
囉曷	-10.9861
窒	-10.9862
十因	-10.9865
是呪	-10.9868
並竪	-10.9871
之大	-10.9879
三摩曳	-10.9882
為倒	-10.9883
5	-10.9884
匝	-10.9884
無所著	-10.9884
為根本	-10.9885
上節	-10.9885
暗室	-10.9886
若爾	-10.9886
性者	-10.9887
那羅延	-10.9889
七種	-10.9889
未聞	-10.9893
疫	-10.9897
入掌	-10.9901
應須	-10.9902
妄本	-10.9902
鳩槃茶	-10.9904
娑摩	-10.9904
神王	-10.9907
炤	-10.9909
本真	-10.9912
若欲成就	-10.9912
轉輪	-10.9915
義利	-10.9917
渠	-10.9917
擾亂	-10.9918
徙	-10.992
捺哩	-10.9921
之覺	-10.9922
誦前	-10.9922
層	-10.9922
絡	-10.9922
外分	-10.9927
之氣	-10.993
必得	-10.9931
問言	-10.9932
賴耶	-10.9933
以二大指	-10.9938
是菩薩	-10.9941
當知是人	-10.9954
此又	-10.9955
諸善男子	-10.9956
如鉤	-10.9957
妄情	-10.996
▁△	-10.996
倪也	-10.996
悶	-10.996
此類	-10.996
滅度	-10.9961
適悅	-10.9962
昭	-10.9962
所著	-10.9964
無二無別	-10.9964
前說	-10.9968
自得	-10.9969
替	-10.997
三明	-10.997
燒安悉香	-10.997
解孤山曰	-10.9972
三目	-10.9975
上方	-10.9976
瞋怒	-10.9976
聞說	-10.9978
五月	-10.9979
這一節經承前	-10.9984
龍女	-10.9987
無量眾生	-10.9988
當有	-10.9993
棄捨	-10.9994
此但	-10.9995
果地	-10.9998
之子	-10.9999
7	-11.0001
手掌	-11.0001
轉依	-11.0002
所指	-11.0004
正為	-11.0005
梁	-11.0006
果位	-11.0009
中觀	-11.0011
即如	-11.0012
何物	-11.0013
人皆	-11.0013
土木	-11.0015
隨念	-11.0019
所獲	-11.0019
嚩字	-11.0023
)􂉄(	-11.0024
淨信	-11.0026
曠野	-11.0027
佛知見	-11.0029
徧知	-11.003
誅	-11.0031
曩麼	-11.0033
𡀔	-11.0035
筏	-11.0035
楚	-11.0035
妄因	-11.0036
始得	-11.0038
空大	-11.0047
話	-11.0049
成大	-11.0054
0	-11.0059
反觀	-11.0059
自應	-11.0064
行婬	-11.0065
不能害	-11.0066
所觸	-11.0067
是人墜入	-11.0072
芽	-11.0073
等無差別	-11.0074
誦真言曰	-11.0075
修持	-11.0077
魔境	-11.0079
無殊	-11.008
大圓鏡智	-11.0082
捐	-11.0082
著地	-11.0084
於內	-11.0086
鬱	-11.0086
身外	-11.0088
游	-11.0089
籍	-11.0089
不停	-11.0092
娑囉娑囉	-11.0093
已說	-11.0097
座下	-11.0098
煩惱根本	-11.0101
無量劫	-11.0102
因陀羅	-11.0113
一境	-11.0115
光中	-11.0115
方為	-11.0116
三惑	-11.0116
縱廣	-11.0125
計我	-11.0129
贍部洲	-11.0134
旗	-11.0135
各具	-11.0136
執心	-11.0138
作業	-11.0139
落叉	-11.0139
貯	-11.0139
詢	-11.014
僊	-11.014
隳	-11.014
宣揚	-11.014
二別示	-11.0141
晦昧	-11.0141
多有	-11.0141
之喻	-11.0141
乎此	-11.0143
不雜	-11.015
如是法	-11.015
非明	-11.015
欲說	-11.015
聲呼	-11.0152
左曩	-11.0153
所知障	-11.0153
如是阿難	-11.0153
如針	-11.0154
)。(􂨯	-11.0154
曹	-11.0155
佛種	-11.0156
中品	-11.0159
誦之	-11.0159
誦一遍	-11.0161
雄黃	-11.0161
那律	-11.0164
到此	-11.0167
佛名	-11.0168
心王	-11.017
白檀香	-11.0175
友	-11.0176
妙覺明心	-11.0177
百遍	-11.0178
當須	-11.0179
常行	-11.0183
本妙	-11.0184
十字	-11.0187
補註曰	-11.0188
止息	-11.019
常樂	-11.0191
根識	-11.0195
優婆塞	-11.0195
肉身	-11.0195
空故	-11.0196
有生滅	-11.0196
圓證	-11.0199
策	-11.0199
背涅槃城	-11.0199
轉成	-11.02
舜	-11.02
限量	-11.0203
部母	-11.0204
滴	-11.0205
隆	-11.0205
忌	-11.0206
菩提樹	-11.0207
埋	-11.0207
畢已	-11.021
沸	-11.0211
互融	-11.0212
難得	-11.0214
三處都無	-11.0214
見面	-11.0215
廣破	-11.0217
且約	-11.0217
佛言如是	-11.0218
此法門	-11.023
面門	-11.0231
我之	-11.0231
金石	-11.0233
遞	-11.0235
雖在	-11.0236
吽發吒	-11.024
大意	-11.0245
不違	-11.0245
便能	-11.0251
師子吼	-11.0251
瑜	-11.0252
圓覺云	-11.0253
頻那夜迦	-11.0253
攝一切	-11.0254
總明	-11.0256
念珠	-11.0256
攞野	-11.0257
宰	-11.0258
悟則無咎	-11.0259
得安樂	-11.026
聞根	-11.026
迫	-11.0262
鑽	-11.0265
雖是	-11.0265
當生	-11.0265
可也	-11.0266
智光	-11.0267
長養	-11.0268
海會	-11.0269
異熟	-11.027
生善	-11.0271
持真言者	-11.0273
文句	-11.0273
聞香	-11.0273
何法	-11.0274
不散	-11.0277
辟支	-11.0277
合明	-11.0278
非和	-11.0279
入三昧	-11.0282
㡧	-11.0283
必先	-11.0285
訖唎擔	-11.0286
不翻	-11.0286
毗陀夜闍瞋陀夜彌	-11.0287
皆非	-11.029
圓淨	-11.0291
然燈	-11.0291
迦吒	-11.0293
夕	-11.0294
作成就	-11.0295
善神	-11.0302
殊妙	-11.0304
不見有	-11.0305
力用	-11.0307
一洛叉	-11.0308
之水	-11.0309
盡無餘	-11.0309
命濁	-11.0309
花香	-11.0313
植	-11.0314
􂏩	-11.0314
輒	-11.0315
疑也	-11.0316
三月	-11.0317
瞿摩夷	-11.0319
鬼趣	-11.0319
長生	-11.032
崖	-11.0321
唐言	-11.0324
三昧印	-11.0327
死生	-11.0328
一真法界	-11.033
油麻	-11.0331
插	-11.0333
先破	-11.0333
戒也	-11.0337
二諦	-11.034
不免	-11.0341
佛以	-11.0342
四相	-11.0346
故稱為	-11.0349
照耀	-11.0349
何者為	-11.035
從緣生	-11.0351
意顯	-11.0361
心外	-11.0363
世界眾生	-11.0365
為用	-11.0366
相類	-11.0368
秪是	-11.0369
若干	-11.037
先作	-11.0373
嚩日囉二合	-11.0373
雖無	-11.0374
有所得	-11.0375
更加	-11.0376
等持	-11.0377
滑	-11.0379
二性	-11.0381
𠆙	-11.0382
能變	-11.0384
庸	-11.0387
種種色	-11.0389
座主	-11.0391
一切種智	-11.0391
兮	-11.0391
內分	-11.0392
隨機	-11.0392
如是之人	-11.0393
全身	-11.0393
播捨	-11.0394
以能	-11.0398
外塵	-11.0399
甜	-11.0401
欲心	-11.0402
不落	-11.0402
心行	-11.0403
外無	-11.0405
兩頭	-11.0407
亦兼	-11.0407
奢摩他路	-11.0408
在前	-11.0408
六凡	-11.0409
若常	-11.0411
世間一切	-11.0418
即佛	-11.0419
末劫	-11.0421
次想	-11.0424
五眼	-11.0429
彼岸	-11.043
所結	-11.043
諸鬼	-11.043
寂光	-11.0431
肝	-11.0432
輙	-11.0433
掣	-11.0434
輝	-11.0434
初總	-11.0435
誕	-11.0435
親證	-11.0437
之難	-11.0437
暖	-11.0438
滅罪	-11.044
魑魅	-11.0443
宛轉	-11.0444
為業	-11.0446
俱時	-11.0447
無對	-11.0447
妙莊嚴	-11.0448
上科	-11.0448
茂	-11.0449
雅	-11.045
既能	-11.045
古今	-11.0451
煩惱濁	-11.0452
在身	-11.0452
靡不	-11.0456
真明	-11.0456
癹	-11.0457
殺盜	-11.0458
寶覺	-11.0461
嚴淨	-11.0467
育	-11.047
聖果	-11.047
精見	-11.0472
大蓮華	-11.0474
二肘	-11.0475
破也	-11.0484
又能	-11.0486
暗相	-11.0486
暉	-11.0488
則以	-11.0488
闡	-11.0495
氣分	-11.0496
醜	-11.0496
不變隨緣	-11.0496
華果	-11.0498
諸菩薩等	-11.0498
洪	-11.0498
五住	-11.05
彩	-11.0501
△	-11.0503
從本	-11.0503
置之	-11.0504
而欲	-11.0505
如教	-11.0507
唯以	-11.0508
個	-11.051
五股	-11.0511
其類	-11.0513
了了	-11.052
別示	-11.0521
摩登	-11.0524
摩那	-11.0528
者由	-11.0528
焰摩	-11.0528
一切事業	-11.0529
之想	-11.053
三種相續	-11.0533
久住	-11.0534
神鬼	-11.0536
群生	-11.0537
囇	-11.0541
心明	-11.0541
次作	-11.0543
勑	-11.0546
妄境	-11.0546
者乎	-11.0555
祖師	-11.0562
風吹	-11.0562
相狀	-11.0562
有為法	-11.0564
人者	-11.0565
俱現	-11.0565
大智慧	-11.0567
跢姪他	-11.0569
極惡	-11.057
虎狼	-11.057
普通	-11.0572
一定	-11.0575
痴	-11.0575
縛囉	-11.0575
明鏡	-11.0575
此上	-11.0576
如世	-11.0579
所有眾生	-11.0579
步多	-11.058
慈氏	-11.0586
我聞	-11.0587
肉眼	-11.0589
研窮	-11.059
唯改	-11.0591
領悟	-11.0596
妙香	-11.0599
囉婆	-11.06
言音	-11.0604
現證	-11.0607
玅明	-11.0607
則無所	-11.0609
六天	-11.0611
與其	-11.0611
珂	-11.0612
轉大法輪	-11.0613
天趣	-11.0614
以佛	-11.0614
正等覺	-11.0616
結集	-11.0616
三天	-11.0617
當在	-11.0617
摸	-11.0619
輻	-11.0622
價	-11.0623
俱無處所	-11.0625
過去世	-11.0626
能轉	-11.0626
賣	-11.0627
全性	-11.0628
是故如來	-11.0629
辟	-11.063
意欲	-11.0631
印呪曰	-11.0632
三名	-11.0633
呪七遍	-11.0633
一切罪障	-11.0634
故復	-11.0635
先於	-11.0637
為空	-11.0638
進退	-11.0639
如實知	-11.064
若果	-11.0641
法印	-11.0642
色聲	-11.0642
祕密法	-11.0647
▁唵	-11.0648
自性清淨	-11.0649
翻譯	-11.0651
跋陀	-11.0654
三結示	-11.0654
是因	-11.0656
大地獄	-11.0657
誠心	-11.0657
于時	-11.066
畢竟空	-11.0661
或自	-11.0661
此三種	-11.0662
則彼	-11.0665
六波羅蜜	-11.0669
性真圓融	-11.067
皆來	-11.0671
妙淨	-11.0672
品云	-11.0672
為作	-11.0674
清涼云	-11.0674
非彼	-11.0677
慚愧	-11.0677
梟	-11.0677
於像前	-11.0678
熱病	-11.0681
貪著	-11.0682
之光	-11.0684
明呪	-11.0684
此指	-11.0686
殺生	-11.0689
踏	-11.0692
尾捨	-11.0695
僧祇	-11.0695
妄謂	-11.0695
股	-11.0697
色如	-11.0699
皆云	-11.07
為有	-11.0701
本覺妙明	-11.0702
法法	-11.0709
當住	-11.071
儞哩	-11.0712
娑頗	-11.0713
附人	-11.0716
一正	-11.0719
微密	-11.072
迦葉波	-11.0721
多體	-11.0722
呪術	-11.0722
為果	-11.0725
之體也	-11.0725
埵	-11.0726
何須	-11.0727
色陰盡	-11.0729
而何	-11.073
蓮華上	-11.0731
又若	-11.0732
為拳	-11.0733
在心	-11.0735
進趣	-11.0738
分真	-11.0738
搏	-11.0739
又法取	-11.0741
勢至	-11.0744
鄧	-11.0746
淵	-11.0746
粥	-11.0746
又取	-11.0747
刀杖	-11.0748
寔	-11.0748
藏教	-11.0749
費	-11.075
吽泮吒	-11.0752
瑟拏	-11.0753
徧十方	-11.0755
實義	-11.0756
𠻴	-11.0756
喻明	-11.0758
其手印相	-11.0758
不常	-11.0761
作金剛拳	-11.0762
驅使	-11.0764
勃陀	-11.0764
之流	-11.0765
妄認	-11.0773
納婆	-11.0774
願我	-11.0774
應如是	-11.0775
成印	-11.0777
牒上	-11.0777
一切佛法	-11.0777
遍法界	-11.0779
二名	-11.0779
首楞	-11.0781
入一切如來	-11.0784
如第二月	-11.0787
高山	-11.0787
愍念	-11.0789
惡魔	-11.079
應畫	-11.0793
功行	-11.0798
引證	-11.0799
俟	-11.08
隨緣不變	-11.0803
戟	-11.0803
鉢娜麼	-11.0804
文殊師利菩薩	-11.0805
􂉗	-11.0807
六根互用	-11.081
釧	-11.081
妄緣	-11.081
質礙	-11.0815
誐嚩底	-11.0815
未曾有	-11.0817
覩嚕覩嚕	-11.0817
於汝	-11.0818
總徵	-11.082
現境	-11.0821
生生	-11.0821
月在	-11.0824
而為供養	-11.0825
上云	-11.0827
龍神	-11.083
俱舍云	-11.0832
常寂	-11.0832
受教	-11.0842
廓	-11.0846
尾儞	-11.0849
若患	-11.085
變起	-11.0852
倫次	-11.0853
菩提之心	-11.0856
龍樹	-11.0862
其印	-11.0862
兆	-11.0865
所應	-11.0866
眾德	-11.0866
鋒	-11.0866
即現	-11.0867
但由	-11.0867
傘蓋	-11.0868
秉	-11.087
鄉	-11.0873
滿怛囉	-11.0875
金剛心	-11.0877
若聞	-11.088
現形	-11.0883
誐挽	-11.0886
慈力	-11.0886
三面	-11.0887
即名為	-11.0888
佛境界	-11.0891
含藏	-11.0892
四空	-11.0892
三途	-11.0893
大阿羅漢	-11.0893
自說	-11.0895
云何得	-11.0895
當令	-11.0897
五品	-11.0899
遍一切	-11.0899
更說	-11.0901
於生死	-11.0903
兼二	-11.0904
開顯	-11.0905
水大	-11.0907
十方三世	-11.0909
先世	-11.0909
供養佛	-11.091
羅睺	-11.091
嚩囉拏	-11.0913
便為	-11.0915
亦不可	-11.0916
別破	-11.0916
百歲	-11.0917
體相	-11.0919
起於	-11.092
眾苦	-11.092
燈光	-11.0924
救度	-11.0925
利生	-11.0928
崩	-11.093
無失	-11.0931
規	-11.0932
飄	-11.0932
菩薩言	-11.0933
仡哩	-11.0934
闥	-11.0934
淪溺	-11.0934
圓理	-11.0934
不移	-11.0939
所示	-11.094
融室云	-11.094
故又	-11.094
當取	-11.0944
柏	-11.0946
大雲	-11.0947
下釋	-11.0948
神仙	-11.0954
精神	-11.0955
次下	-11.0957
變滅	-11.0958
此性	-11.0962
娑多	-11.0962
果德	-11.0962
四分	-11.0965
作者	-11.0966
圓修	-11.0969
心陁羅尼	-11.0971
妻子	-11.0972
尼迦	-11.0974
瑟致	-11.0978
為求	-11.0982
𠺁	-11.0984
本誓	-11.0986
知有	-11.0987
善知	-11.0987
得少為足	-11.0989
他物	-11.0991
膚	-11.0991
是陀羅尼	-11.0992
修禪定	-11.0992
鬼等	-11.0992
布惹	-11.0993
叱	-11.0994
色究竟天	-11.0995
既銷	-11.0995
檀越	-11.0997
是故十方一切如來	-11.0997
未明	-11.0999
囒	-11.1
兄	-11.1
裹	-11.1001
風性	-11.1001
命根	-11.1001
當下	-11.1005
心眼	-11.1005
高聲	-11.1005
一物	-11.1008
返觀	-11.1009
是文殊	-11.1009
百寶	-11.101
亦隨	-11.1011
照曜	-11.1013
以此印	-11.1016
玅覺	-11.1016
福聚	-11.1017
那野	-11.1017
黃金	-11.1018
三摩野	-11.1018
千里	-11.1019
幽暗	-11.1022
具德	-11.1023
遠行	-11.103
入無間獄	-11.103
有佛出世	-11.1033
此句	-11.1033
超出	-11.1034
如蓮華	-11.1041
挍	-11.1041
責其	-11.1042
大神通	-11.1044
何關汝入	-11.1047
又善男子窮諸行空	-11.1048
切身	-11.1049
唐云	-11.1053
一總	-11.1056
囉他	-11.1058
又法欲	-11.106
福田	-11.1061
歸元	-11.1061
印真言	-11.1064
腫	-11.1066
見彼	-11.1066
能見之	-11.1067
不殺	-11.1068
夜叉羅剎	-11.1069
猛利	-11.1072
準提	-11.1072
施與	-11.1074
通用	-11.1075
封	-11.1075
能說	-11.1078
最上乘	-11.1078
妄起	-11.1079
周法界	-11.1081
故下文云	-11.1083
性常	-11.1085
百八	-11.1086
捨麼	-11.1086
啞吽	-11.1086
若據	-11.1086
乃以	-11.1087
作麼生	-11.109
由我	-11.1091
可說	-11.1092
未出	-11.1095
為證	-11.1099
我時	-11.1099
奉詔譯	-11.1103
能摧	-11.1103
見大	-11.1104
仇	-11.1111
故以為名	-11.1111
為一切眾生	-11.1111
囉怛	-11.1114
目犍連	-11.1114
􂏔	-11.1114
目契	-11.1114
大德	-11.1115
或是	-11.1119
陀羅尼法	-11.1119
解云	-11.1121
眾生世界	-11.1123
詩	-11.1124
得度	-11.1126
築	-11.1127
善友	-11.1127
若必	-11.1128
十四無畏	-11.1128
除障	-11.1129
效	-11.113
阿那含	-11.113
結責	-11.113
意樂	-11.1131
而常	-11.1135
豁然	-11.1136
者是也	-11.1136
名大佛頂	-11.114
承前	-11.1142
緫	-11.1151
聖教	-11.1153
濘	-11.1155
釋者	-11.1156
有頂	-11.1156
香湯	-11.1156
循聲	-11.1158
我法	-11.1158
修因	-11.116
根塵識三	-11.1161
食時	-11.1161
稱性	-11.1162
應供	-11.1163
即滅	-11.1163
結云	-11.1165
結歸	-11.1166
二阿難下	-11.1167
八臂	-11.1169
無實體	-11.1176
惑菩提性	-11.1177
當自	-11.1177
若取	-11.118
兩邊	-11.118
疲	-11.1181
日用	-11.1182
景	-11.1183
六麤	-11.1183
族姓	-11.1185
躭	-11.1186
妄相	-11.1186
得除滅	-11.1188
津	-11.1189
指出	-11.119
緒	-11.119
嗣	-11.1192
不正	-11.1192
真月	-11.1193
解脫門	-11.1194
心心	-11.1196
出過	-11.1197
正如	-11.1199
囉闍	-11.1202
見處	-11.1206
無病	-11.1206
結護	-11.121
非不	-11.1214
了不可得	-11.1217
在身內	-11.1218
隨其所	-11.1218
金剛菩薩	-11.1219
一切如來心	-11.122
》	-11.1231
百千萬	-11.1231
曼拏羅印三昧耶	-11.1237
禮敬	-11.1237
相織妄成	-11.1237
之眾	-11.1238
意生身	-11.1238
作何	-11.1238
所悟	-11.1239
在其中	-11.1239
妙智	-11.1244
足下	-11.1244
義同	-11.1248
又汝所明	-11.1249
富單那	-11.125
霧	-11.125
部中	-11.1251
我即	-11.1251
青黃赤白	-11.1251
於其中間	-11.1252
肢	-11.1253
是即	-11.1254
安立道場	-11.1254
明知	-11.1255
傳法	-11.1256
暇	-11.1256
實報	-11.1256
斬	-11.1258
不真	-11.1258
之路	-11.1258
若使	-11.1259
他心	-11.1261
阿閦	-11.1262
分之	-11.1264
香鑪	-11.1264
受其	-11.1268
仰掌	-11.127
魔軍	-11.1274
識大	-11.1275
不堪	-11.1275
一切金剛	-11.1276
金剛密迹	-11.1276
天像	-11.1276
直下	-11.1277
返聞	-11.1278
傍生	-11.1283
一段	-11.1284
囉娑	-11.1287
多羅菩薩	-11.1288
徃	-11.1293
十類	-11.1293
劫數	-11.1295
一切功德	-11.1295
三如來藏	-11.1296
百千俱胝	-11.1296
正智	-11.1299
今我	-11.13
施食	-11.1302
合離	-11.1305
塵剎	-11.1306
貪瞋癡	-11.1306
欝	-11.1306
其壇	-11.1307
故我	-11.1308
初學	-11.1308
始於	-11.1309
莎賀	-11.1311
值佛	-11.1312
亦復然	-11.1312
示其	-11.1312
渾濁	-11.1312
文四	-11.1312
踐	-11.1312
本所	-11.1314
然其	-11.1316
利益眾生	-11.1316
鄰	-11.1319
促	-11.132
作金剛	-11.132
百千萬億	-11.1325
即以此	-11.1327
山頂	-11.1327
當念	-11.1328
母捺囉	-11.1332
身境	-11.1333
肯	-11.1335
惟識	-11.1336
迦字	-11.1337
眼中	-11.1338
毒氣	-11.1345
十心	-11.1348
大用	-11.1348
諸毒	-11.1348
作用	-11.1349
忿怒王	-11.1352
不犯	-11.1353
得勝	-11.1356
難可	-11.1358
作印	-11.1359
)。「	-11.1359
深密	-11.1363
退失	-11.1363
食者	-11.1365
那羅	-11.1365
口說經法	-11.1366
次第而	-11.1367
穌	-11.1369
供養已	-11.137
盡皆	-11.1371
貝	-11.1374
菩薩印	-11.1375
一切菩薩摩訶薩	-11.1377
奉送	-11.1379
法華云	-11.138
與人	-11.1381
中節	-11.1383
大妄語	-11.1384
燄	-11.1384
窺	-11.1385
皆大歡喜	-11.1385
阿婆	-11.1386
毘羅	-11.1386
瓦礫	-11.1386
絞	-11.139
八千遍	-11.1392
象馬	-11.1397
志心	-11.1406
一千遍	-11.1407
六道眾生	-11.1408
或言	-11.1409
諸功德	-11.1414
三輪	-11.1418
色受想	-11.1421
觀成	-11.1422
六根清淨	-11.1423
呼召	-11.1425
方成	-11.1426
彼善男子	-11.1428
淨治	-11.1429
寶莊嚴	-11.1434
清淨本然周徧法界	-11.1435
韈	-11.1438
持呪者	-11.1439
降臨	-11.1443
此顯	-11.1445
前印	-11.1445
南門	-11.1452
姹	-11.1453
周遍法界	-11.1453
那囉	-11.1454
緣塵分別	-11.1454
波斯匿王	-11.1455
子曰	-11.1457
􂢄	-11.1462
亦說	-11.1462
林木	-11.1466
智度	-11.1467
樹木	-11.1468
施主	-11.1469
難陀龍王	-11.1469
本根	-11.147
脈	-11.1471
三股	-11.1475
梵字	-11.1481
無始來	-11.1484
能依	-11.1484
種種變化	-11.1485
實法	-11.1486
總示	-11.1489
滿盛	-11.149
邪思	-11.1491
雖殊	-11.1492
為名	-11.1492
理體	-11.1493
一明	-11.1499
婀	-11.1503
顯然	-11.1504
修治	-11.1506
一大	-11.1507
歌詠	-11.1508
何必	-11.1508
金剛法	-11.1509
獲益	-11.151
依舊	-11.151
問佛	-11.1511
域	-11.1512
善逝	-11.1514
當從淪墜	-11.1515
除諸	-11.1515
瞬	-11.1515
姪	-11.1518
即汝	-11.1518
燥	-11.1519
白蓮華	-11.152
從一	-11.1521
篇	-11.1521
求其	-11.1521
勝義根	-11.1521
楞嚴大定	-11.1529
正釋	-11.153
准上	-11.1531
何等為	-11.1532
底迦	-11.1533
問此	-11.1533
希求	-11.1534
法體	-11.1539
於他	-11.154
二手合掌	-11.1541
阿鉢囉	-11.1544
巳破	-11.1544
隨處	-11.1547
取之	-11.155
受陰盡	-11.1551
利養	-11.1551
身入	-11.1552
佛覺	-11.1553
麤重	-11.1559
於三界	-11.1561
燈見	-11.1562
軟	-11.1569
或現	-11.1571
故如	-11.1571
臨命終時	-11.1575
蹋	-11.1575
觀佛	-11.1577
但約	-11.1583
復云何	-11.1584
洒	-11.1585
方知	-11.1585
閣	-11.1587
緩	-11.1589
從空生	-11.159
簸	-11.1591
如本	-11.1595
綺	-11.1595
由因	-11.1596
青蓮華	-11.1598
虜	-11.1601
麤細	-11.1601
三昧也	-11.1601
阿迦	-11.1603
於十方	-11.1606
如日	-11.1606
羅婆	-11.1607
為利	-11.1608
受持者	-11.1609
真我	-11.161
次誦	-11.1612
遞相	-11.1618
晴	-11.162
八難	-11.1621
猶存	-11.1624
清潔	-11.1625
一性	-11.1627
性真	-11.163
天龍藥叉	-11.1631
因由	-11.1631
彼時	-11.1633
四科	-11.1638
暢	-11.1638
想自身	-11.1638
必當	-11.1641
函	-11.1641
頭痛	-11.1642
嚼	-11.1646
操	-11.1647
巳滅生滅	-11.1647
壅	-11.1647
撥無因果	-11.1648
姑	-11.1648
又以此心	-11.1649
厥	-11.1649
)【	-11.165
頂王	-11.165
寶華	-11.165
難思	-11.1651
空色	-11.1651
藥王	-11.1652
摧碎	-11.1653
每日三時	-11.1653
之所以	-11.1653
大海水	-11.1654
塊	-11.1658
長短	-11.1663
道路	-11.1664
之源	-11.1671
助道	-11.1671
徵心	-11.1673
開解	-11.1677
六時	-11.1681
唯此	-11.1682
一切成就	-11.1684
不勞	-11.1686
藏中	-11.1687
何名	-11.1688
惡夢	-11.1689
會解	-11.169
取證	-11.1691
魍魎	-11.1694
)􂛶	-11.1696
嚩迦	-11.1698
勝上	-11.17
諸部	-11.1702
不遭邪慮	-11.1702
潔淨	-11.1702
㡧像	-11.1704
加以	-11.1705
異名	-11.1705
涌	-11.1706
􂗶	-11.1707
已下	-11.1714
播囉	-11.1715
宿債	-11.1716
為勝	-11.1717
正指	-11.1719
破云	-11.172
劫中	-11.172
中畫	-11.172
陣	-11.172
真金	-11.1722
苗稼	-11.1723
且如	-11.1724
不宜	-11.1725
於頂上	-11.1726
本源	-11.1727
五部	-11.1727
謂彼	-11.1729
能造	-11.173
詰其	-11.1736
濕吠	-11.1736
下正明	-11.174
從緣	-11.1742
令他	-11.1744
為生	-11.1749
入其心腑	-11.175
無所有處	-11.1752
未成	-11.1752
佛乘	-11.1754
於掌中	-11.1756
猶在	-11.1756
沒地	-11.1757
其時	-11.1757
十卷	-11.1758
無是見	-11.176
已得	-11.176
次二句	-11.1763
但於	-11.1763
燭	-11.1766
破妄心	-11.1767
即用	-11.1769
自當	-11.177
鐘聲	-11.177
忿怒明王	-11.177
反下同音	-11.1771
成空	-11.1772
鑪	-11.1773
乘此	-11.1776
阿波	-11.1777
婢	-11.1779
玩	-11.1779
悟得	-11.1779
鐸	-11.178
受戒	-11.178
尚不能	-11.178
之問	-11.1781
溫	-11.1782
甜苦	-11.1782
三障	-11.1783
嫉妬	-11.1783
終而復始	-11.1785
二百五十	-11.1785
寢	-11.1786
眾聖	-11.1786
經言	-11.1787
腎	-11.1789
奢摩他中	-11.1791
十日	-11.1793
廣大供養	-11.1793
觀身	-11.1793
本元	-11.1794
具足萬行	-11.1794
拭	-11.1794
例知	-11.1795
故經云	-11.1797
眾生顛倒	-11.1797
而下	-11.18
婬習	-11.1802
天妙	-11.1803
各自	-11.1804
劒播	-11.1806
審詳	-11.1807
三藐三	-11.1808
生信	-11.1809
三品	-11.181
蓮花部	-11.1813
反顯	-11.1814
以二頭指	-11.1815
以求	-11.1817
屹哩	-11.1819
婦女	-11.1822
根塵識	-11.1823
]	-11.1826
6	-11.1827
同業	-11.1829
法成就	-11.183
七者	-11.1832
無眼	-11.1833
然以	-11.1834
叵	-11.1836
佛告下	-11.1837
令一切眾生	-11.184
分為三	-11.1843
蠱毒	-11.1843
摩醯首羅天	-11.1847
真言法	-11.1847
見物	-11.1847
眾緣	-11.1848
要須	-11.1849
遂有	-11.185
舜若多	-11.1853
非時	-11.1854
夢見	-11.1855
失於正受	-11.1856
亡者神識	-11.1856
廣行	-11.1856
苑	-11.1856
添	-11.1856
火聚	-11.1857
焦	-11.1857
殑	-11.1858
魔業	-11.1859
我所說	-11.1862
唯佛	-11.1862
湛圓	-11.1863
難勝	-11.1864
薦	-11.1864
掌內	-11.1865
毒蟲	-11.1866
發明二相	-11.1868
從無始來	-11.1868
廟	-11.1869
不別	-11.1873
十度	-11.1873
界道	-11.1881
賛捺	-11.1883
想盡	-11.1887
次畫	-11.1891
塗身	-11.1892
必有所	-11.1893
諸真言	-11.1894
安然	-11.1895
何時	-11.1895
次破	-11.19
純真	-11.1901
智照	-11.1906
􂏖(	-11.1912
六臂	-11.1912
奇哉	-11.1912
大悲胎藏	-11.1913
動而	-11.1913
喚作	-11.1914
魔不得便	-11.1914
正宗	-11.1918
三破	-11.1918
審觀	-11.192
身著	-11.1921
勝相	-11.1922
攝伏	-11.1923
大勢至	-11.1923
三摩地門	-11.1928
創	-11.1928
旛	-11.193
大毘盧遮那	-11.193
憎愛	-11.1931
華屋	-11.1932
乃為	-11.1934
滅則	-11.1935
生疑	-11.1936
犁	-11.1936
陀隣尼	-11.1937
揀擇	-11.1939
瀑流	-11.1939
黃土	-11.194
降雨	-11.1941
香等	-11.1941
在我	-11.1943
婆伽	-11.1943
違背	-11.1943
扇底迦	-11.1944
能證	-11.1948
頂上散	-11.1951
所由	-11.1953
速成	-11.1954
學道	-11.1957
蓋以	-11.1957
如眼	-11.1957
本不生故	-11.1958
十方眾生	-11.196
末句	-11.1961
法忍	-11.1961
亦復不	-11.1962
浮塵根	-11.1968
北門	-11.1968
捨野	-11.1968
四魔	-11.1971
吾今	-11.1973
呪王	-11.1974
聞已	-11.1976
大麥	-11.1976
沇	-11.1977
垂手	-11.1981
失於正受當從淪墜	-11.1984
用心交互	-11.1984
嚩曩	-11.1984
未至	-11.1985
坎	-11.1986
此陀羅尼者	-11.1986
千萬	-11.1987
威猛	-11.199
撰	-11.199
阿僧祇劫	-11.1991
無煩	-11.1992
鄙	-11.1992
增上慢	-11.1992
飲酒	-11.1993
彼彼	-11.1993
方法	-11.1993
慇懃	-11.1994
攻	-11.1995
實語	-11.2
性海	-11.2001
光聚	-11.2001
渡	-11.2002
雖則	-11.2003
眾生濁	-11.2004
梁言	-11.2005
散花	-11.2009
之樂	-11.2009
保持	-11.2009
異生	-11.201
火性	-11.201
正知	-11.2012
法相應	-11.2015
形體	-11.2015
首陀	-11.2016
生身	-11.2017
諸聖眾	-11.2018
會眾	-11.202
白拂	-11.2024
得福	-11.2026
權小	-11.2027
法教	-11.2031
愛念	-11.2036
既破	-11.2038
囉耶	-11.2039
影事	-11.2039
亦由	-11.205
如海	-11.205
諮	-11.2051
即菩提	-11.2053
同是菩提瞪發勞相	-11.2054
此喻	-11.2055
是理	-11.2056
七信	-11.2057
之罪	-11.2059
交蘆	-11.206
內有	-11.206
逗	-11.2062
生死相續	-11.2062
鑄	-11.2062
東西南北	-11.2062
別無	-11.2063
嚩日羅	-11.2065
夜弭	-11.2066
智身	-11.2066
遽	-11.2067
鬚	-11.207
和上	-11.2072
持明仙	-11.2072
蟻	-11.2074
或在	-11.2075
方有	-11.2078
曩莫塞訖	-11.208
藥叉大將	-11.2081
乃成	-11.2085
生長	-11.2087
四卷	-11.2087
眼前	-11.2088
面東	-11.2091
輕呼	-11.2091
𤙖𤙖	-11.2094
觀空	-11.2095
如是種種	-11.2095
於世	-11.2096
恁麼	-11.2099
終始	-11.2101
動念	-11.2104
▁七	-11.2105
言汝	-11.2106
如是說	-11.2109
若執	-11.2109
所具	-11.2109
體即	-11.211
面前	-11.2114
八百遍	-11.2116
五天	-11.2118
欲知	-11.212
攝持	-11.2124
之數	-11.2126
銷亡	-11.2127
藥叉女	-11.2128
為火	-11.213
果海	-11.213
歡	-11.213
谷響云	-11.213
現種種	-11.213
流水	-11.2131
樞	-11.2134
爾時如來	-11.2134
柰	-11.2136
窣	-11.2137
認賊為子	-11.2137
竿	-11.2143
木佉跛哩嚩	-11.2144
未了	-11.2146
携李	-11.2146
人道	-11.2147
囉尼	-11.215
戒定慧	-11.215
撲	-11.215
伽藍	-11.2151
如來頂	-11.2154
勞相	-11.2154
今佛	-11.2154
有二意	-11.2155
夜叉女	-11.2159
慧眼	-11.216
同類	-11.2162
底瑟吒	-11.2164
復何	-11.2167
魔羅	-11.2167
具說	-11.2168
十方國土	-11.2169
無念	-11.217
諸塵	-11.2171
三際	-11.2171
今得	-11.2173
至于	-11.2174
佛法中	-11.2174
常見	-11.2176
薩羅	-11.2177
灑淨	-11.2177
青蓮	-11.2178
k	-11.218
▁svāhā	-11.218
雖非	-11.2184
知彼	-11.2185
爾時金剛	-11.2185
庚	-11.2187
謂由	-11.2189
滿願	-11.2191
香嚴	-11.2192
而至	-11.2195
八千	-11.2197
惑亂	-11.2198
顯見性	-11.22
大菩提心	-11.2201
見見非見	-11.2201
疫病	-11.2201
又想	-11.2202
能壞	-11.2202
諸方	-11.2202
即無明	-11.2212
自在王	-11.2212
歷然	-11.2212
未離	-11.2218
五日	-11.2219
五色線	-11.222
今時	-11.222
認為	-11.2224
當時	-11.2226
不動道場	-11.2228
忿怒相	-11.2228
之餘	-11.2231
嗚呼	-11.2238
行陰盡	-11.2238
久遠	-11.2246
合眼	-11.225
va	-11.2252
行位	-11.2253
拏嚩日囉	-11.2256
究其	-11.2256
酉	-11.2258
岳	-11.2261
壇印三昧耶	-11.2261
王難	-11.2264
若夫	-11.2264
如前所說	-11.2265
麼帝	-11.2266
教我	-11.2267
那含	-11.2269
譯人	-11.2271
種子字	-11.2271
:>(	-11.2272
▁二破	-11.2274
呪詛	-11.2274
伎	-11.2275
復言	-11.2276
曼殊	-11.2276
野吽	-11.2276
月十五日	-11.2277
紺	-11.2277
勿生	-11.2278
郭	-11.2279
毀謗	-11.2279
速成就	-11.2279
鎔	-11.228
法華經	-11.228
搩	-11.2281
陰界	-11.2281
革	-11.2282
問云	-11.2283
六亂妄想	-11.2284
月天	-11.2284
何耶	-11.2285
又是	-11.2286
不順	-11.2286
謁	-11.2287
顆	-11.2288
種種方便	-11.2289
鞭	-11.2291
縣	-11.2291
異於	-11.2296
自成	-11.2296
夫人	-11.2298
奮怒王	-11.2299
人趣	-11.23
囉底	-11.2301
初又二	-11.2302
亦作	-11.2305
婬女	-11.2306
出聲	-11.2309
彼天	-11.2311
岳師	-11.2311
龍腦香	-11.2317
世界顛倒	-11.2318
契印	-11.2318
復誦	-11.232
迦嚕抳迦	-11.232
麼賀	-11.2321
想相	-11.2321
何關	-11.2322
修觀	-11.2327
想成	-11.2327
內對	-11.2331
亥	-11.2331
未發	-11.2333
上堂	-11.2333
算	-11.2333
非有色	-11.2336
次觀	-11.234
寶山	-11.234
鄰虗	-11.234
寶瓶	-11.2341
中指無名指	-11.2343
成等正覺	-11.2344
初二	-11.2345
今約	-11.2346
又三摩中諸善男子	-11.2346
巳離	-11.2347
微密觀照	-11.2347
記云	-11.2349
日月燈	-11.235
法已	-11.2351
但知	-11.2352
恠	-11.2353
亦空	-11.2354
侶	-11.2354
朅	-11.2355
之藏	-11.2356
吉凶	-11.2357
禽獸	-11.2359
一呪一燒	-11.2361
第二重	-11.2364
小果	-11.2364
但觀	-11.2367
彼之	-11.2369
石蜜	-11.2369
蘖帝	-11.237
心佛	-11.2374
真因	-11.2375
無益	-11.2376
若我	-11.2376
助因	-11.238
能分別	-11.2384
何由	-11.2385
此語	-11.2388
七佛	-11.239
一期	-11.2393
那由他	-11.2394
應觀	-11.2394
無惑	-11.2397
大護	-11.2397
首楞嚴三昧	-11.24
今乃	-11.2401
果子	-11.2401
悟道	-11.2402
向後	-11.2403
丑	-11.2405
多劫	-11.2406
毗盧	-11.2408
以智	-11.2408
六用	-11.2411
n	-11.2411
復當	-11.2411
經所說	-11.2411
得除差	-11.2412
攝取	-11.2413
純情	-11.2415
通也	-11.2415
文殊師利法王子	-11.2418
中流出	-11.2419
帳	-11.2419
妙門	-11.2419
一字頂輪王	-11.2421
乃名	-11.2421
普為	-11.2422
勇健	-11.2423
結勸	-11.2423
太虗	-11.2424
血肉	-11.2425
真如性	-11.2426
丘	-11.2426
不對	-11.2427
釋迦如來	-11.2428
渴仰	-11.243
屠	-11.243
幻師	-11.2432
。】「○	-11.2433
普供養	-11.2436
無障	-11.2436
金剛座	-11.2439
▁二正	-11.2439
祕藏	-11.244
薄福	-11.244
柔軟	-11.2441
非無想	-11.2441
薺	-11.2441
及其	-11.2444
諸法實相	-11.2444
普皆	-11.245
若兼	-11.245
餓	-11.2452
河沙	-11.2453
施設	-11.2456
如空	-11.2456
如意輪	-11.2458
不遠	-11.2459
蘇摩	-11.2462
下約	-11.2469
明王真言	-11.2471
世出世	-11.2472
於一切時	-11.2472
以智慧	-11.2473
准此	-11.2474
見外	-11.2475
從頂	-11.2476
等類	-11.2476
風雨	-11.2477
蓮華座	-11.2477
囉囉	-11.2483
乾陀	-11.2485
猶云	-11.2486
詶	-11.2488
悞	-11.2489
始從	-11.2489
脩證	-11.2489
泡	-11.249
從座而起	-11.249
冠註此明	-11.249
猶言	-11.2492
初起	-11.2492
於妙圓中	-11.2492
一手執	-11.2495
等種種	-11.2496
三摩地智	-11.2498
願求	-11.2499
才	-11.25
合掌頂禮	-11.25
晚	-11.25
非無色	-11.25
端坐	-11.25
一半	-11.2501
作是思惟	-11.2502
使人	-11.2502
爽	-11.2502
衡	-11.2504
迦攞	-11.2507
鑠	-11.251
變壞	-11.251
鼠	-11.2511
同歸	-11.2511
所樂	-11.2512
同共	-11.2512
經名	-11.2513
光耀	-11.2513
起立	-11.2515
六月	-11.2516
播抳	-11.2519
本處	-11.2521
世間無知	-11.2522
淨衣	-11.2522
遍數	-11.2522
則當	-11.2523
未免	-11.2523
未斷	-11.2524
躡上	-11.2529
他化自在天	-11.2529
於一一	-11.2536
在汝	-11.2537
水精	-11.2538
教勅	-11.2544
脩行	-11.255
不易	-11.255
恒河沙數	-11.2555
欲境	-11.2556
初問	-11.2557
類生	-11.2558
魅鬼	-11.256
周圓	-11.256
鬼病	-11.2561
坐於	-11.2562
解私謂	-11.2564
我今為汝	-11.2566
數息	-11.2566
根元目為清淨四大	-11.2567
本無自性	-11.2567
不作聖心	-11.2569
自能	-11.2571
火不能燒	-11.2571
唯心所現	-11.2572
艱	-11.2573
顯妄	-11.2575
虐	-11.2576
加持七遍	-11.2576
剃	-11.2576
何待	-11.2577
一日一夜	-11.2578
妄業	-11.2578
故謂之	-11.2578
汝等當知	-11.258
轉舌	-11.2583
如是循環	-11.2583
讚言	-11.2583
充足	-11.2583
此香	-11.2585
頭面	-11.2585
所見之	-11.2588
從真	-11.2589
宿曜	-11.2597
通於	-11.2599
又說	-11.26
則生	-11.2602
諸業	-11.2603
菩提路	-11.2606
尚在	-11.2608
未詳	-11.261
一事	-11.2611
三緣	-11.2612
空空	-11.2612
常與	-11.2613
母馱	-11.2615
亦無所	-11.2617
空相	-11.2618
汝問	-11.2622
下示	-11.2624
難知	-11.2624
雲集	-11.2626
嘴	-11.2633
破佛律儀	-11.2637
經家敘	-11.2639
於一切處	-11.2642
清明	-11.2645
倦	-11.2645
鶴	-11.2646
起用	-11.2647
一門深入	-11.2647
為因地心	-11.2647
悋	-11.2647
澄清	-11.2648
過去未來現在	-11.2651
嚩南	-11.2654
苗	-11.2654
最極	-11.2655
初破	-11.2656
拔折羅	-11.2657
行事	-11.2657
金剛鎖	-11.2658
必至	-11.2659
至極	-11.2659
利益安樂	-11.2661
互為	-11.2662
得失	-11.2663
▁一標	-11.2664
隨汝	-11.2669
制止	-11.267
而於	-11.2671
尊貴	-11.2671
長夜	-11.2677
為究竟	-11.2677
暴流	-11.2682
若用	-11.2684
何藉	-11.2684
淨處	-11.2684
自受用	-11.2688
拔苦	-11.2691
無由	-11.2699
不圓	-11.2699
牛乳	-11.2702
《	-11.2704
末後	-11.2705
而曰	-11.2705
總別	-11.2706
觀本尊	-11.2706
謂是	-11.2707
引入	-11.2709
識陰盡	-11.2709
嬉戲	-11.271
摩睺羅伽	-11.2711
銷除	-11.2713
離緣	-11.2713
體是	-11.2713
之日	-11.2713
占	-11.2714
我滅度後	-11.2715
如來身	-11.2715
不能動	-11.2717
鬼神等	-11.2719
增勝	-11.272
叫	-11.272
不遷	-11.272
晨	-11.272
洗滌	-11.272
紐	-11.2722
摩呵	-11.2722
迷佛菩提	-11.2723
行住坐臥	-11.2723
蔓	-11.2724
蝕	-11.2727
之精	-11.2727
我某甲	-11.2728
冐	-11.2729
探	-11.273
非常	-11.273
十地菩薩	-11.273
我於爾時	-11.2731
第二院	-11.2732
大龍王	-11.2732
皆成就	-11.2733
前巳	-11.2734
莎縛訶	-11.2734
是法印呪	-11.2735
聾	-11.2736
各安	-11.2737
理事	-11.2737
俱有	-11.2738
比量	-11.2739
四德	-11.2741
一切佛剎	-11.2741
彩色	-11.2742
巳是	-11.2745
無自體	-11.2748
宗鏡云	-11.2748
能推	-11.2751
於虗空	-11.2751
曳反	-11.2752
極重	-11.2754
娑擔	-11.2754
素囉	-11.2757
此神呪	-11.2757
老死	-11.276
有力	-11.2761
現業	-11.2761
如金	-11.2763
三慧	-11.2768
惹曳	-11.2771
悟此	-11.2772
除愈	-11.2772
將謂	-11.2773
頂法	-11.2774
呪二十一遍	-11.2775
散動	-11.2779
所住處	-11.2779
除疑	-11.278
合為一	-11.2781
只此	-11.2781
西天譯經三藏朝散大夫試	-11.2781
四聖	-11.2784
常途	-11.2785
名聞	-11.2787
亡失知見	-11.2789
紫金	-11.2789
同見	-11.2792
臆	-11.2792
黏湛發	-11.2793
餘經	-11.2794
元非	-11.2794
真際云	-11.2795
名和合	-11.2795
云何忽生山河大地	-11.2797
演若達多	-11.2798
用諸妄想	-11.2798
吳	-11.2799
向內	-11.2807
􂛲	-11.2808
樣	-11.2808
具此	-11.2808
願佛	-11.2808
諸神	-11.281
皆妄	-11.281
園林	-11.2811
東北角	-11.2813
空輪	-11.2813
無間獄	-11.2813
娜謨	-11.2816
按定	-11.2816
總指	-11.2817
受法	-11.2821
今在	-11.2823
告阿難言	-11.2825
於如來前	-11.2831
金寶	-11.2833
重請	-11.2837
地界	-11.2841
耶答	-11.2843
牒計	-11.2845
又法若欲	-11.2846
若更	-11.2846
如雲	-11.2847
􂗩(	-11.2847
未忘	-11.2849
飲之	-11.285
自悟	-11.285
過失	-11.2851
或曰	-11.2856
所以然者	-11.2858
結使	-11.2861
三七遍	-11.2861
不知其	-11.2862
億劫	-11.2862
藏通	-11.2863
比丘比丘尼優婆塞優婆夷	-11.2864
華言	-11.2865
長跪	-11.2866
詐習	-11.2869
一尺	-11.2869
空義	-11.2873
所取	-11.2873
得阿耨多羅三藐三菩提	-11.2876
飢渴	-11.2878
波浪	-11.2878
窮未來際	-11.2879
真正	-11.2879
妙定	-11.2883
外緣	-11.2884
大惡	-11.2885
沈水香	-11.2885
跏	-11.2885
綠色	-11.2885
大同	-11.2886
間錯	-11.2887
救世	-11.2889
祀	-11.289
白淨	-11.289
晴空	-11.2894
度人	-11.2895
出定	-11.2896
賢首	-11.2898
嚩路	-11.2898
遮那	-11.2904
東南	-11.2904
華藏	-11.2907
白栴檀香	-11.2911
寂滅樂	-11.2911
加持白芥子	-11.2912
諸惡鬼神	-11.2912
以例	-11.2913
除其	-11.2914
說神呪	-11.2916
靡	-11.2918
不虛	-11.292
宰官	-11.292
世俗	-11.2921
所使	-11.2922
成佛道	-11.2924
之首	-11.2924
識處	-11.2927
大吉祥	-11.2929
跋折	-11.2931
遇佛	-11.2934
火中燒	-11.2935
邪道	-11.2935
持明人	-11.2936
爐中	-11.2937
遮羅	-11.2937
未及	-11.2938
諸菩薩摩訶薩	-11.2939
􂛶	-11.2941
踊	-11.2941
吾今問汝	-11.2942
倪	-11.2943
於諸佛	-11.2944
從目出	-11.2944
晦昧為空	-11.2944
鬪戰	-11.2945
年老成魔	-11.2946
墮落外道	-11.2947
三科七大	-11.2947
貪婬	-11.2947
阿素洛	-11.295
毗婆舍那	-11.2951
妄立	-11.2952
幽隱	-11.2953
軀	-11.2953
別業妄見	-11.2955
無名指小指	-11.2959
所化	-11.296
於自心	-11.296
悲仰	-11.2962
𠶹哩	-11.2962
惡相	-11.2964
桃	-11.2964
度嚕度嚕	-11.2967
令其解脫	-11.2973
受想	-11.2976
生人道中	-11.2977
王宮	-11.2978
右轉	-11.2979
明暗等	-11.2979
餘三指	-11.298
慈氏菩薩	-11.2982
惡見	-11.2984
若善男子善女人	-11.2991
之像	-11.2991
廣示	-11.2991
流行	-11.2992
沈香	-11.2992
娑婆賀	-11.2995
祕密藏	-11.2995
內根	-11.2997
大樂	-11.2998
觀彼	-11.2998
與空	-11.3001
東面	-11.3002
我昔	-11.3002
天龍夜叉	-11.3003
如常	-11.3006
手作	-11.3007
風火	-11.3007
不知此	-11.3008
卯	-11.3009
與佛同	-11.3011
百由旬	-11.3012
能照	-11.3016
下四句	-11.3017
唯識云	-11.3017
蹈	-11.3022
念念生滅	-11.3022
板	-11.3023
怛那	-11.3024
都無實義	-11.3025
補特伽羅	-11.3027
聞所聞盡	-11.3028
神通力	-11.3028
菜	-11.3029
一年	-11.3029
治地	-11.3029
同分妄見	-11.303
但得	-11.3031
軍茶利	-11.3031
聞佛所說	-11.3032
蛻	-11.3032
難以	-11.3033
與暗	-11.3033
車輅	-11.3034
即得成就	-11.3035
可知矣	-11.3035
即云	-11.3035
糝	-11.3035
眼耳	-11.3037
髓	-11.3037
兔	-11.3037
𢙣	-11.3037
聞熏	-11.3037
鉞斧	-11.3038
賀囉賀囉	-11.3039
一千八十遍	-11.3039
呵呵	-11.305
空假	-11.3053
毘舍遮	-11.3053
寶部	-11.3055
一剎那	-11.3058
毗尼	-11.3058
虗無	-11.3063
皆不能	-11.3065
結破	-11.3068
怛麼	-11.3068
輕舉	-11.3071
直入	-11.3072
滅盡定	-11.3073
不樂	-11.3074
汝執	-11.3074
應先	-11.3076
亦滅	-11.3076
窮空	-11.3079
ṁ	-11.308
力能	-11.308
空藏	-11.3081
業種	-11.3083
言辭	-11.3084
比舍	-11.3084
國界	-11.3085
出纏	-11.309
既亡	-11.309
意明	-11.3091
前以	-11.3091
持念	-11.3095
計以為常	-11.3095
受樂	-11.3096
從今	-11.3097
帝釋天	-11.3097
㳷	-11.3098
性覺妙明	-11.31
毗舍遮	-11.3101
發識	-11.3105
嚕嚕	-11.3108
廁	-11.3108
夢想	-11.3108
愚鈍	-11.3109
母嚕母嚕	-11.311
目呿波利簸梨	-11.3111
城邑	-11.3112
救世者	-11.3112
慤	-11.3113
巳證	-11.3116
成就之法	-11.3116
砌	-11.3116
瑜伽者	-11.3119
無數劫	-11.3122
推求	-11.3123
如恒河沙	-11.3126
波利	-11.3127
今明	-11.3135
斤	-11.3136
同伴	-11.3136
魔怨	-11.3141
真言王	-11.3144
莫非	-11.3144
能於十方	-11.3144
勝願	-11.3153
左定	-11.3155
耶輸	-11.3155
阿囉	-11.3156
不到	-11.3158
色邊際	-11.3158
初入	-11.3159
謗法	-11.316
騰空	-11.3162
娜莫	-11.3163
入法界	-11.3164
空明	-11.3165
一時佛在	-11.3166
三年	-11.3167
生計度者	-11.317
寒熱	-11.3171
見體	-11.3171
教人	-11.3172
攝授	-11.3175
風天	-11.3177
辱	-11.3178
虗妄本非因緣非自然性	-11.3181
災厄	-11.3182
凍	-11.3182
通明	-11.3183
遍入	-11.3184
篋	-11.3185
披露	-11.3185
巡	-11.3186
髮髻	-11.3189
藥師	-11.3192
吒迦	-11.3194
習漏	-11.3196
阿賴耶識	-11.3196
湛寂	-11.3197
波羅密	-11.3197
無慧	-11.3197
智斷	-11.32
葉上	-11.32
敷演	-11.3204
喻顯	-11.3208
之殊	-11.3208
無行	-11.321
與諸大眾	-11.3211
林中	-11.3212
屈二頭指	-11.3212
焚香	-11.3213
世間人	-11.3216
大唐	-11.3219
八月	-11.3222
九地	-11.3226
若加持	-11.3229
形狀	-11.3234
十惡	-11.3238
四處	-11.3241
利眾生	-11.3245
認妄	-11.3246
定光	-11.3246
懈	-11.3252
復有無量	-11.3253
◎	-11.3253
正意	-11.3254
而且	-11.3256
着	-11.3257
譽	-11.3257
跢囉	-11.3257
破妄顯真	-11.3259
波羅夷	-11.326
色香味觸	-11.3261
刪	-11.3262
持誦人	-11.3262
昌	-11.3263
藥草	-11.3264
洞徹	-11.3265
犬	-11.3265
恰	-11.3266
常恒	-11.327
未達	-11.327
地瑟姹	-11.3271
搜	-11.3271
隨應	-11.3272
解了	-11.3273
目為	-11.3275
尖	-11.3276
折伏	-11.3278
忽於	-11.3284
惟願如來	-11.329
香水海	-11.3292
何曾	-11.3293
亦通	-11.3295
見吾	-11.3296
憂惱	-11.3297
幻妄	-11.3298
法界眾生	-11.3299
審諦	-11.3302
智論	-11.331
不思	-11.3311
據此則	-11.3312
皆得解脫	-11.3314
娑野	-11.3318
然火	-11.3319
次結金剛	-11.3322
令入	-11.3322
十一面	-11.3323
聲色	-11.3326
或名	-11.3328
與明合	-11.3328
隨時	-11.3329
十身	-11.333
殞	-11.3331
若就	-11.3334
夜叉住	-11.3334
隨合	-11.3334
自利利他	-11.3336
不獨	-11.3337
法會	-11.3338
舍那	-11.3339
事事無礙	-11.3342
謙	-11.3342
瘦	-11.3343
諫	-11.3344
愁	-11.3344
獲圓通	-11.3344
論師	-11.3347
牢	-11.3347
豈唯	-11.3348
中指背	-11.3348
受灌頂	-11.3349
復次祕密主	-11.3349
相並	-11.3351
摧壞	-11.3353
猴	-11.3353
騎	-11.3354
係係	-11.3354
第十一	-11.3354
暴惡	-11.3355
結壇	-11.3359
二十八宿	-11.3365
此偈	-11.3365
迎請	-11.3366
之意也	-11.3366
悲願	-11.3366
世間相	-11.3367
毒害	-11.3371
決定義	-11.3371
不空如來藏	-11.3373
何用	-11.3374
能攝	-11.3374
毛端	-11.3375
如月	-11.3378
染污	-11.3381
空智	-11.3381
不觀	-11.3382
消息	-11.3382
正等	-11.3384
環師	-11.3384
復白佛言	-11.3386
邪魔	-11.3388
於虛空中	-11.3396
一切諸魔	-11.3399
諸佛同	-11.3399
以兩手	-11.3402
達多	-11.3404
毘摩	-11.3404
一位	-11.3405
盧舍那	-11.3406
細相	-11.3408
野迦	-11.3408
疑網	-11.3409
實證	-11.341
吸此塵象	-11.3412
三度	-11.3412
聖諦	-11.3413
妄成	-11.3414
為同為異	-11.3415
室左	-11.3416
朽	-11.3419
义	-11.3419
摩呼羅伽	-11.3424
釋名	-11.3425
娜夜	-11.3425
則臨終時	-11.3426
溥	-11.3427
在虗空	-11.3428
歡喜踊躍	-11.3428
勸修	-11.3429
浩	-11.3429
諸天眾	-11.343
忻	-11.343
厲	-11.343
戾	-11.343
蓮華臺	-11.343
詳示	-11.3431
地動	-11.3436
眾罪	-11.3437
眼入	-11.3438
一切病	-11.3439
唾	-11.344
見非是見	-11.3442
海水	-11.3444
傳授	-11.3445
無上正等菩提	-11.3445
欝金香	-11.3449
而得自在	-11.3451
左囉	-11.3453
普現	-11.3454
雖具	-11.3454
如來部	-11.3456
阿耨	-11.3461
執取	-11.3464
吽吽吽	-11.3464
各異	-11.3466
根結	-11.3467
識知	-11.3469
還得	-11.3472
豈無	-11.3475
八句	-11.3475
世尊說	-11.348
龍宮	-11.3481
盲人	-11.3483
純一	-11.3486
餘五	-11.349
熏聞	-11.3493
豁	-11.3495
偏袒右肩	-11.3495
孰為	-11.3498
妙吉祥童子	-11.3498
掉	-11.35
問意	-11.3502
散之	-11.3502
是故下結	-11.3504
六用不行	-11.3504
籌	-11.3504
罔象	-11.3505
隨境	-11.3506
但舉	-11.3507
虔	-11.3508
曆	-11.3509
得脫	-11.3509
無人	-11.3509
濕生	-11.351
下界	-11.3511
寶蓮	-11.3511
增加	-11.3512
之慧	-11.3512
徐	-11.3512
跪	-11.3513
安穩	-11.3513
不謬	-11.352
娑他	-11.3524
此見性	-11.3527
聖尊	-11.3529
語已	-11.353
最尊	-11.3534
尾濕嚩	-11.3534
別指	-11.3535
繫念	-11.3536
入室	-11.3536
堅固妄想	-11.3538
乳粥	-11.3539
麤相	-11.354
乃知	-11.3542
地藏菩薩	-11.3545
終日	-11.3549
妙力	-11.355
ma	-11.3551
實體	-11.3558
雜修	-11.3559
v	-11.356
別相	-11.356
賢劫	-11.3563
華嚴經	-11.3564
印加持	-11.3565
念慮	-11.3568
教示	-11.3569
標幟	-11.3572
摩訶薩	-11.3574
安有	-11.3575
毗喻	-11.3575
秦	-11.3578
毘沙門天王	-11.3579
汝但	-11.358
郝	-11.3581
修進	-11.3582
經意	-11.3583
力士	-11.3583
百劫	-11.3583
佛出世	-11.3584
自餘	-11.3584
歌舞	-11.3585
數滿	-11.3586
皆稱	-11.3587
諸惡趣	-11.3587
世第一	-11.3587
轉變	-11.3588
四不思議	-11.359
矜	-11.359
護嚕護嚕	-11.3591
乏少	-11.3592
缽納	-11.3594
寓	-11.3594
獨股	-11.3594
沒第	-11.3595
役使	-11.3595
堪任	-11.3597
欲愛	-11.3598
底賀多	-11.3598
妄動	-11.3599
一切障	-11.36
水火風	-11.3602
四事	-11.3603
皎然	-11.3603
出胎	-11.3604
一切賢聖	-11.3607
第三院	-11.3613
究盡	-11.3615
更生	-11.3615
安坐	-11.3619
內證	-11.3624
m	-11.3625
細惑	-11.3626
將破	-11.3627
能使	-11.3628
所出生	-11.3632
至十五日	-11.3634
密移	-11.364
現生	-11.364
味塵	-11.3641
琉璃光	-11.3643
薩多	-11.3644
初卷	-11.3646
諸願	-11.3652
不交	-11.3652
未來世	-11.3654
加之	-11.3656
復觀	-11.3659
神足	-11.3659
之命	-11.366
皺	-11.366
恡	-11.366
性覺真空	-11.3662
解行	-11.3662
窮生類本	-11.3663
華臺	-11.3664
今且	-11.3665
圓通本根	-11.3665
竅	-11.3666
五位	-11.3668
韻	-11.3669
苦難	-11.3671
所愛	-11.3671
欝金	-11.3672
秀	-11.3672
壹	-11.3672
澡	-11.3674
泰	-11.3675
諸眾生等	-11.3677
誤認	-11.3678
自來	-11.3679
正性	-11.3685
顯說	-11.3685
毫相	-11.3686
楞嚴經	-11.3687
庵	-11.369
悲智	-11.3691
成無上菩提	-11.3693
口出	-11.3693
虗融	-11.3696
瓔珞莊嚴	-11.3696
大慈大悲	-11.3697
起行	-11.3701
五無間	-11.3702
皆獲	-11.3706
大勇猛	-11.3709
持犯	-11.3711
弭跢	-11.3719
因聞	-11.372
種種飲食	-11.3721
忽有	-11.3723
一切如來金剛	-11.3723
善事	-11.3725
依根	-11.3725
無令	-11.3727
ṇ	-11.3728
不可言	-11.3728
百年	-11.3728
如法供養	-11.3729
八日	-11.373
得悟	-11.3733
善財	-11.3733
劑	-11.3735
明徹	-11.3735
口舌	-11.3736
遍於	-11.3738
哩曳	-11.3743
嚩訥瑟吒	-11.3746
頂禮佛足而白佛言	-11.3747
非非想	-11.3747
觀其所由	-11.3749
是義不然	-11.3749
罣礙	-11.375
多野	-11.3751
愆	-11.3754
曠劫	-11.3755
勵	-11.3755
迥	-11.3757
倐	-11.3757
最為第一	-11.3758
定性聲聞	-11.3758
六處	-11.3758
纖	-11.3759
畝	-11.376
飛騰	-11.3761
還從	-11.3761
勤求	-11.3762
損害	-11.3774
初信	-11.3775
三麼耶	-11.3775
摩細	-11.3776
化理	-11.3778
愛欲	-11.3787
通稱	-11.3788
未亡	-11.3788
跋囉	-11.3792
大忿怒明王	-11.3793
如風	-11.3797
後結	-11.3802
設若	-11.3804
具戒	-11.3818
二別明	-11.382
􂨠	-11.382
違遠圓通背涅槃城	-11.3821
汙	-11.3824
死後有相	-11.383
塵境	-11.3832
鎧	-11.3834
作是語已	-11.3835
抄	-11.3836
六字大明	-11.3836
佛言下	-11.3836
令悟	-11.3837
左攞	-11.3837
但有言說	-11.3838
四支	-11.3839
螫	-11.3839
格	-11.3839
見根	-11.3839
毘盧	-11.384
西北	-11.3841
𠷑吒	-11.3844
弭野	-11.3845
斡資囉	-11.3848
雹	-11.3849
宮中	-11.385
浸	-11.3852
仡囉	-11.3853
齲	-11.3854
臭穢	-11.3855
不巳	-11.3856
娑跢	-11.3857
此二句	-11.386
悉帝	-11.386
還元	-11.3863
勤苦	-11.3865
十向	-11.3865
生理	-11.3867
下手	-11.387
國師	-11.3871
長老	-11.3872
嚩沒䭾	-11.3873
然我	-11.3876
受想行識	-11.3878
跏趺	-11.3882
不疑	-11.3883
地水	-11.3888
洞然	-11.3888
以大悲	-11.3889
當胸	-11.3889
巳後	-11.3889
樹葉	-11.389
無縛	-11.389
合空	-11.3891
三災	-11.3898
康	-11.3908
業果相續	-11.3909
在身外	-11.3909
阿彌陀	-11.3915
帥	-11.3918
咒	-11.3918
刳	-11.3919
覺所覺空	-11.3922
逼迫	-11.3923
口業	-11.3926
無功用道	-11.3926
襪	-11.3927
三昧門	-11.3927
內縛	-11.3928
弓箭	-11.3928
建立道場	-11.3928
憍慢	-11.3929
瀉	-11.3929
五遍	-11.3931
如法華	-11.3931
祖嚕祖嚕	-11.3931
猶如虗空	-11.3932
穆佉	-11.3932
摩訶迦葉	-11.3935
印度	-11.3935
門外	-11.3939
悉檀	-11.3942
綖	-11.3943
權教	-11.3943
波哩	-11.3948
罪垢	-11.3952
第四卷	-11.3955
縱令	-11.3956
供養諸佛	-11.3959
之情	-11.3959
計常	-11.3961
於空中	-11.3963
一呪一	-11.3965
爾時佛告	-11.3966
第三重	-11.3967
釋種	-11.3971
依空	-11.3974
種種寶	-11.3978
愛見	-11.3979
一切諸惡	-11.3982
呪三七遍	-11.3983
平地	-11.3987
生滅去來	-11.399
之見性	-11.3993
萌	-11.3995
苦集	-11.3998
迭	-11.3999
墯	-11.3999
據此	-11.4
合前	-11.4001
金剛掌	-11.4002
寂音	-11.4004
大威力	-11.4005
委曲	-11.4005
法界生	-11.4006
呾	-11.4006
虹	-11.4008
身業	-11.4008
純熟	-11.4008
不殊	-11.401
粖	-11.401
沙門婆羅門	-11.4011
承事供養	-11.4011
供給	-11.4012
蜂	-11.4013
曳娑嚩	-11.4015
在世	-11.4015
廣博	-11.4015
亦名為	-11.4016
次第遷流	-11.4017
慧性	-11.4017
賢瓶	-11.4018
䭾曩	-11.4019
孕反	-11.402
鼎	-11.402
十習因	-11.4021
香塗	-11.4025
略明	-11.4026
又分二	-11.4026
㖿	-11.4027
婆帝	-11.4027
聞見	-11.4028
此示	-11.4029
若其	-11.403
因悟	-11.4031
淨法界	-11.4031
出現於世	-11.4032
梨耶	-11.4038
號為	-11.404
遠離一切	-11.4041
羯吒	-11.4045
因鑿	-11.4051
師資	-11.4052
花果	-11.4053
動轉	-11.4057
證圓通	-11.4058
赤白	-11.4065
初約	-11.4067
所求皆得	-11.4067
在會	-11.4068
跢他伽多耶	-11.4069
其猶	-11.4074
依然	-11.4074
入曼拏羅	-11.4075
感果	-11.4077
諸類	-11.4077
幡蓋	-11.4077
樹枝	-11.4077
一重	-11.4084
交互	-11.409
熙怡	-11.4092
尚能	-11.4092
違遠圓通	-11.4092
件	-11.4095
如意寶珠	-11.4097
經百千劫	-11.4098
完	-11.4098
加持一百八遍	-11.4098
牧	-11.4098
非有非無	-11.4099
身心俱	-11.4099
抽	-11.41
為畜生	-11.41
施願	-11.4101
二決定義	-11.4101
入胎	-11.4101
大哉	-11.4102
羅睺羅	-11.4102
玄義	-11.4103
豪	-11.4104
往彼	-11.4104
六交報	-11.4104
)。(􂨬	-11.4107
二十四聖	-11.4107
入地獄	-11.4108
亦具	-11.4109
萬里	-11.4109
第七識	-11.411
尾舍	-11.4112
二種根本	-11.4112
嚩囉娜	-11.4116
經家	-11.4118
紫檀	-11.4121
願垂	-11.4123
世界相續	-11.4125
東北	-11.4125
若悟	-11.4132
右手把	-11.4139
能感	-11.414
其說	-11.4142
之影	-11.4143
開通	-11.415
都嚧雍	-11.415
雖多	-11.4154
合腕	-11.416
所念	-11.4161
戰拏	-11.4165
阿修羅王	-11.4165
爾時金剛手菩薩摩訶薩	-11.4171
波旬	-11.4172
怛摩	-11.4175
後學	-11.4178
阿蜜哩	-11.4178
勗	-11.4178
沈水	-11.4179
報佛恩	-11.4179
坐禪	-11.4179
安立聖位	-11.4179
紆	-11.4179
彗	-11.4179
滿馱滿馱	-11.418
腦	-11.4181
嫉	-11.4182
請示	-11.4183
阿羅訶	-11.4183
潤生	-11.4184
極樂世界	-11.4185
失真	-11.4186
釋要云	-11.4187
陶	-11.4187
鳳	-11.4188
之詞	-11.419
娑賀娑囉	-11.419
膊	-11.4192
滿七日	-11.4198
正脉	-11.4199
寂常	-11.42
散華	-11.4201
安能	-11.4202
無量壽佛	-11.4202
不辨	-11.4204
古德	-11.4206
猶若	-11.4207
酬足復形	-11.4208
神用	-11.4211
悉是	-11.4213
難調	-11.4214
但依	-11.4214
補瑟	-11.4225
華香	-11.4226
疑問	-11.4226
拏曳	-11.423
足知	-11.4231
來集	-11.4232
誐哆	-11.4234
句召	-11.4236
他生	-11.4244
中胎	-11.4245
迦摩	-11.4246
在手	-11.4248
能令一切	-11.4251
作曼拏羅	-11.4251
妄說	-11.4254
大迦葉	-11.4256
大科	-11.4256
直示	-11.4256
魔障	-11.4257
匿	-11.4258
許說	-11.4258
慰	-11.4259
方顯	-11.4263
胎卵	-11.4264
壤	-11.4265
入門	-11.4265
是無常	-11.4265
性覺必明	-11.4265
娑普	-11.4266
灌頂云	-11.4266
啖	-11.4266
能施	-11.4266
屏	-11.4269
肯綮	-11.4269
上味	-11.427
懇	-11.4271
身形	-11.4272
必然	-11.4272
來往	-11.4272
呪神	-11.4274
並是	-11.4274
睺	-11.4274
肆	-11.4276
嗟	-11.4276
厄難	-11.4276
討	-11.4277
滿拏攞	-11.4277
河岸	-11.4279
持世	-11.428
堪忍	-11.4281
七徵	-11.4285
願聞	-11.4287
皤囉	-11.4288
對前	-11.429
塗之	-11.4296
之根本	-11.4298
闡提	-11.43
多種	-11.4301
隨逐	-11.4302
莊子	-11.4305
一日三時	-11.4306
散灑	-11.4308
首句	-11.4313
身長	-11.4314
圓鏡	-11.4316
鉢頭摩	-11.4318
但隨	-11.432
若能如是	-11.4324
誦此密語	-11.4324
成果	-11.4327
壬	-11.4329
眾生相續	-11.433
菩薩位	-11.4331
▁一總	-11.4331
有三義	-11.4333
利益一切眾生	-11.4334
經初	-11.4336
縱使	-11.4338
婆伽婆	-11.434
牛頭	-11.434
忉利	-11.4344
前雖	-11.4344
裔	-11.4345
本無因	-11.4346
取境	-11.4347
四邊	-11.4348
常樂我淨	-11.4348
審定	-11.435
跛娜	-11.4351
欲流	-11.4352
睇	-11.4353
信住行向	-11.4354
轉輪聖王	-11.4354
凝結	-11.4356
雖異	-11.4356
六根中	-11.4356
佇	-11.4358
有為無為	-11.4359
烈	-11.436
偃	-11.436
削	-11.436
色性	-11.4361
衢	-11.4365
詳審	-11.4365
普光	-11.4367
囉叉	-11.4367
勝處	-11.4368
十重	-11.4369
西南	-11.4381
圓悟	-11.4384
現今	-11.4385
同一體	-11.4385
屈入掌中	-11.4387
頓漸	-11.4389
首二句	-11.4389
指陳	-11.4392
河王	-11.4396
不拒	-11.4396
諸病	-11.4397
達羅	-11.4398
何事	-11.4398
前位	-11.4402
陳如	-11.4403
餘人	-11.4404
便謂	-11.4406
唵跋日囉	-11.4406
如來密因	-11.4407
一部	-11.4407
究竟覺	-11.4408
年歲	-11.4408
因眼	-11.4409
相連	-11.441
優波	-11.4412
記憶	-11.4417
薩婆若	-11.4421
之量	-11.4424
迷情	-11.4426
方壇	-11.4428
名利	-11.443
為諸眾生	-11.4431
如夢	-11.4431
既離	-11.4434
豈是	-11.4438
徒眾	-11.444
坐寶蓮華	-11.4441
迷惑不知	-11.4441
一為無量	-11.4442
烏芻瑟摩	-11.4443
業因	-11.4444
死後斷滅	-11.4444
本來不生	-11.4445
牀	-11.4445
不從人得	-11.4446
阿賴耶	-11.4446
爾時觀世音菩薩摩訶薩	-11.4447
未除	-11.4448
及阿羅漢	-11.4448
有五種	-11.4448
義不成	-11.4449
懃	-11.445
喜悅	-11.4451
婆訶	-11.4451
煮	-11.4451
首戴	-11.4452
誣	-11.4452
為復因	-11.4452
容貌	-11.4453
魔入其心腑	-11.4454
邦	-11.4454
無減	-11.4455
閻摩	-11.4457
廂	-11.4457
復問	-11.4457
茅草	-11.4465
如是次第	-11.4466
不相離	-11.4466
引四	-11.447
諸字	-11.4473
阿閦如來	-11.4476
愛心	-11.4477
鈔云	-11.4478
兜率	-11.4479
而獨	-11.4481
同別	-11.4485
魔力	-11.4487
此阿字	-11.4488
三摩地法	-11.4492
律中	-11.4496
若行者	-11.4498
徧觀	-11.4499
雖知	-11.4499
訶羅	-11.4499
大佛頂如來密因修證了義諸	-11.45
日出	-11.45
心量	-11.4505
為害	-11.4508
慈愍	-11.4509
觀視	-11.4511
知一切法	-11.4518
論議	-11.452
念誦時	-11.4521
端身	-11.4523
長命	-11.4525
圓成實	-11.4526
薩哩	-11.4526
誥	-11.4528
名善境界	-11.4532
誑習	-11.4532
見精明元	-11.4533
波晝	-11.4534
朋	-11.4535
譏	-11.4536
魃鬼	-11.4539
無因生	-11.4541
轍	-11.4542
蘂	-11.4543
銜	-11.4546
阿鼻地獄	-11.4547
巳前	-11.4547
侯	-11.4548
雜華	-11.4551
輕清	-11.4552
保護	-11.4552
顧視	-11.4553
月影	-11.4554
父子	-11.4555
垢障	-11.4555
飽滿	-11.4561
為法王子	-11.4563
他國	-11.4567
眚病	-11.4569
精微	-11.4571
唵薩嚩怛他	-11.4572
寶印	-11.4572
佉佉	-11.4574
能降伏	-11.4575
於心上	-11.4575
揀選	-11.4577
東西	-11.4578
閉目	-11.4579
新淨	-11.4579
世尊下	-11.4582
毘那	-11.4582
由迷	-11.4584
西天	-11.4584
所求願	-11.4585
首楞嚴定	-11.4587
即法身	-11.4588
一總標	-11.4593
道力	-11.4595
別圓	-11.4596
是般若母	-11.4597
唯願如來	-11.4599
􂔗	-11.4601
第二義	-11.4602
雙照	-11.4605
相續不斷	-11.4608
隨眾生心應所知量	-11.4611
臺上	-11.4614
二大拇指	-11.4615
惟其	-11.4617
:	-11.4619
大事因緣	-11.462
介	-11.4621
懸崖	-11.4622
衍	-11.4622
覆護	-11.4623
於虛空	-11.4623
所致	-11.4624
庫藏	-11.4624
娑嚩賀	-11.4627
穰	-11.4627
𡀩	-11.4627
右遶	-11.4628
空所空滅	-11.4628
讓	-11.463
說因緣	-11.4631
蒼	-11.4631
敏	-11.4631
懵	-11.4633
行菩薩道	-11.4633
金剛幢	-11.4634
婆呵	-11.4634
偈頌	-11.4634
聿	-11.4636
左囉左囉	-11.4636
駕	-11.4636
膏	-11.4636
每一	-11.4639
唏	-11.4641
塔中	-11.4642
右羽	-11.4643
嗔怒	-11.4645
面向東	-11.4645
復次善男子	-11.4645
摩尼珠	-11.4646
刀印	-11.4646
昔日	-11.4647
億數	-11.4648
瘧病	-11.465
其家	-11.4651
被甲	-11.4653
嚩覩	-11.4655
災障	-11.4656
千佛	-11.466
無量壽如來	-11.4661
見眚	-11.4662
巳斷	-11.4662
大道	-11.4663
心意識	-11.4663
說此陀羅尼	-11.4666
香塵	-11.4669
地獄苦	-11.4669
阿難答言	-11.4672
娑怛	-11.4672
如華嚴	-11.4676
疑悔	-11.4678
一切聖眾	-11.4678
重疊	-11.4679
最上成就	-11.4679
沒㗚	-11.4683
意思	-11.4689
右肩	-11.4689
金剛鈴	-11.4691
無是非是	-11.4691
入理	-11.4695
阿囉訶帝	-11.4696
化眾生	-11.4696
相陵	-11.4698
得成佛	-11.4699
秖	-11.4702
相反	-11.4704
跋捺囉	-11.4705
不可盡	-11.4708
揮	-11.4709
口中好言	-11.471
無量無數	-11.471
得成菩提	-11.4715
如來應供正遍覺	-11.4716
湧	-11.4716
未生	-11.4717
汝體	-11.4717
孩	-11.4717
獅子	-11.4718
棘	-11.4719
尋伺	-11.4719
果人	-11.472
本覺明心	-11.472
何言	-11.4721
零	-11.4721
坦	-11.4721
汗	-11.4722
冷熱	-11.4723
怨賊	-11.4723
凡小	-11.4723
罽	-11.4723
枷鎖	-11.4724
茫然	-11.4724
馳散	-11.4726
巨海	-11.4727
蹬	-11.4731
興福	-11.4732
火神	-11.4732
自稱	-11.4736
隨眾生心	-11.474
五道	-11.474
擊鐘	-11.4743
梵書	-11.4744
似乎	-11.4746
誦滿	-11.4748
地輪	-11.4748
為畜	-11.475
􂉄(	-11.4753
怕	-11.4754
寶塔	-11.4756
隨分	-11.4757
惟有	-11.4757
魔民	-11.4759
形貌	-11.4767
精色	-11.4768
猶如虛空	-11.4768
外相叉	-11.4774
誦明	-11.4776
甘露味	-11.4777
八還	-11.4786
永明	-11.4786
現起	-11.4788
能了	-11.4789
海印	-11.4789
見病	-11.4791
如是思惟	-11.4792
一巾	-11.4793
向身	-11.4793
之由也	-11.4797
旬	-11.4798
六品	-11.4803
賀曩	-11.4803
一七遍	-11.4804
如環	-11.4806
不存	-11.4806
徧周法界	-11.4806
孟	-11.4807
能生諸緣	-11.4808
阿蘇羅	-11.481
課	-11.481
蠢	-11.4811
佛弟子	-11.4814
晉言	-11.4816
大經云	-11.4817
舊說	-11.4818
斷盡	-11.4819
愚人	-11.482
曀	-11.482
慧菩薩	-11.4825
惡風	-11.4825
宿業	-11.4826
補澁	-11.4827
隨事	-11.4828
􂤇	-11.4829
中有一	-11.4831
仍是	-11.4832
肘量	-11.4834
冥感	-11.4835
誦真言三遍	-11.4835
鼻入	-11.4838
盜賊	-11.4848
頭冠	-11.4849
色像	-11.485
勤勇	-11.4851
穆訖	-11.4853
安居	-11.4855
諸家	-11.4856
跛哩布	-11.4858
麼𥠖	-11.486
念佛三昧	-11.4861
淨業	-11.4863
神通自在	-11.4867
夜耶	-11.487
藐	-11.487
難破	-11.4871
麼護	-11.4872
第二第三	-11.4873
澄心	-11.4873
三賢	-11.4881
ga	-11.4882
真言七遍	-11.4885
惡毒	-11.4888
俱亡	-11.4888
印捺囉	-11.4889
無非見	-11.4892
畫像法	-11.4892
撿	-11.4894
㰠	-11.4894
二別顯	-11.4894
寶蓮華	-11.4896
儀式	-11.4898
無礙智	-11.4899
伽囉	-11.4899
根器	-11.4905
瓶中	-11.4907
薩里嚩	-11.4907
諸佛子等	-11.4908
揑目	-11.491
侵害	-11.4911
湛然常住	-11.4911
樺皮	-11.4912
寡	-11.4913
未審	-11.4916
妄性	-11.4917
不滯	-11.4919
有三摩提	-11.492
其量	-11.4923
狂解	-11.4924
婆誐嚩底	-11.4924
光明照	-11.4926
不復更	-11.4927
補處	-11.4928
二大母指	-11.4929
智德	-11.4929
行布	-11.493
世出世法	-11.4931
尊像	-11.4932
攝入	-11.4932
金剛慧	-11.4935
觀自身	-11.4937
縛訶	-11.4938
復結	-11.4939
是諸如來	-11.4947
等無有異	-11.495
餘處	-11.495
劫壞	-11.4953
舌入	-11.4955
注云	-11.4957
非有想	-11.4963
兜率天	-11.4965
遍滿虛空	-11.4966
瑟尼	-11.4966
竺	-11.4967
交報	-11.4968
h	-11.4973
地藏	-11.4973
ya	-11.4974
既滅	-11.4978
純想	-11.4978
墮落外道惑菩提性	-11.4979
威勢	-11.4984
觀念	-11.4986
愚謂	-11.4987
母胎	-11.499
百二十	-11.499
皆是識心分別計度	-11.499
之文也	-11.4991
帝惹	-11.4992
背覺合塵	-11.4993
但當	-11.4994
見猶離見	-11.4997
返妄歸真	-11.4998
荊	-11.4998
殷勤	-11.4999
麟	-11.4999
為能生	-11.5
奸	-11.5
耳鼻舌身意	-11.5002
狼	-11.5003
買	-11.5007
妙義	-11.5007
綠	-11.5007
如影	-11.5008
忠	-11.5009
鉢哩	-11.5011
動止	-11.5015
垂下	-11.5015
其命	-11.5016
圓觀	-11.5018
色力	-11.502
又法以	-11.502
毘俱胝	-11.502
相接	-11.5021
尾惹野	-11.5024
眾色	-11.5024
曾不	-11.5027
極令	-11.5029
分段生死	-11.5033
薄伽	-11.5033
或居	-11.5036
以空為	-11.5037
諸聲聞	-11.504
一時俱	-11.5042
背上	-11.5046
任持	-11.5047
破除	-11.505
諸世間人	-11.5051
廣果天	-11.5052
金剛堅固	-11.5054
即時阿難	-11.5055
聲聞眾	-11.5056
寶座	-11.506
如來名號	-11.5061
衣食	-11.5066
金剛乾慧	-11.5068
起計	-11.5069
三藐三菩陀耶	-11.507
不藉	-11.5073
如琉璃	-11.5078
心思	-11.5078
空不空	-11.5082
大藥叉	-11.5084
知見立知	-11.5084
所生處	-11.5087
攞入嚩	-11.5087
棃	-11.5088
重呼	-11.5089
執金剛祕密主	-11.5089
欲愛乾枯	-11.5091
䇿	-11.5092
目睛	-11.5092
妙覺性	-11.5093
認物為巳	-11.5093
足踏	-11.5094
隱身	-11.5094
有十種	-11.5094
終非	-11.5094
殆	-11.5095
模	-11.5096
白月八日	-11.5097
豈惟	-11.5098
流動	-11.5098
派	-11.5098
壇中心	-11.5102
鉗	-11.5105
輕慢	-11.5105
月一日	-11.5105
万	-11.5106
訪	-11.511
阿闍黎	-11.5111
舊註	-11.5112
金剛阿闍梨	-11.5113
與夫	-11.5113
娜迦	-11.5114
得往生	-11.5115
眼色	-11.5118
末羅	-11.5123
食噉	-11.5126
純是	-11.5127
枯木	-11.5133
利鈍	-11.5136
報恩	-11.5141
楞伽云	-11.5142
羯磨印	-11.5145
有大威力	-11.5145
本識	-11.5148
矩攞	-11.5149
死人	-11.515
七返	-11.515
所施	-11.515
舉手	-11.5152
徧常	-11.5152
心在內	-11.5158
必獲	-11.5158
法愛	-11.5165
燒火	-11.5166
菩提道	-11.5168
下三句	-11.5169
臟	-11.5169
上文云	-11.5171
於自身	-11.5177
一邊	-11.5177
於壇中	-11.5181
掬	-11.5181
開演	-11.5181
寶蓋	-11.5183
妙慧	-11.5184
罔象虗無	-11.5185
欲樂	-11.5186
爇	-11.5188
染汙	-11.5188
作是語巳	-11.5189
肺	-11.5189
薩怛鑁	-11.5189
繇	-11.5189
南面	-11.5189
灌其頂	-11.519
大丈夫	-11.5191
一百一十	-11.5193
酥蜜酪	-11.5193
淳	-11.5194
未圓	-11.5194
六十聖位	-11.5194
起立白佛	-11.5195
稽	-11.5195
諂曲	-11.5196
隨根	-11.5197
契經	-11.5198
無餘涅槃	-11.5199
聖證	-11.5201
各捻	-11.5204
咃	-11.5205
涌出	-11.5205
枝末	-11.5207
化城	-11.5208
阿難是善男子	-11.5209
舍利塔前	-11.521
中諦	-11.521
破惡	-11.5211
甕	-11.5215
嚕唵	-11.5226
菩提樹下	-11.5227
木石	-11.5229
▁南無	-11.5239
悉第	-11.524
▁二明	-11.5241
一節	-11.5242
眼目	-11.5245
尾嚕	-11.5249
皎	-11.5252
暗字	-11.5258
童男	-11.5264
而作是言	-11.5267
離物	-11.5267
𠰢	-11.5268
?」	-11.527
加持已	-11.5271
所談	-11.5271
▁二約	-11.5272
捨𩕳	-11.5276
地薩怛嚩	-11.5277
髀	-11.5279
堅凝正心	-11.528
􂃅	-11.5281
倘	-11.5281
擕李	-11.5283
生天上	-11.5283
泥洹	-11.5284
僅	-11.5284
俯	-11.5285
威怒	-11.5285
仙趣	-11.5285
大佛頂首楞嚴經	-11.5285
七日七夜	-11.5285
慾	-11.5286
之號	-11.5286
幻妄稱相	-11.5287
僧曰	-11.5287
垂範	-11.5287
法雲地	-11.5288
般若經	-11.529
汩	-11.529
愧	-11.529
融通妄想	-11.529
禽	-11.529
疑慮	-11.5291
欺誑	-11.5292
妙華	-11.5293
亦猶	-11.5293
大城	-11.5293
枳哩枳哩	-11.5294
蔭	-11.5294
肅	-11.5295
種姓	-11.5295
蟒	-11.5295
毘舍佉	-11.5297
聞此陀羅尼	-11.5297
講堂	-11.5298
拾	-11.5301
頭指中指	-11.5302
此亦如是	-11.5302
隻	-11.5303
疑請	-11.5303
溈	-11.5303
平正	-11.5309
諸善根	-11.5309
契合	-11.5311
慢習	-11.5311
別列	-11.5312
嗚	-11.5313
妙觀	-11.5315
讚佛	-11.5315
真妄和合	-11.5317
或被	-11.5317
可度	-11.5318
皆得圓滿	-11.5318
布列	-11.532
未開	-11.5321
夜摩	-11.5321
圓具	-11.5322
皈依	-11.5333
尚非	-11.5334
例此	-11.5336
所縛	-11.5343
經旨	-11.535
於曼拏羅	-11.535
全在	-11.5351
同源	-11.5359
法式	-11.5362
偈中	-11.5364
根本智	-11.537
供養恭敬	-11.537
􂨡	-11.5374
得無罣礙	-11.538
剎帝利	-11.5383
息災增益	-11.5385
假觀	-11.5389
消殞	-11.5389
末他	-11.5389
曩莫三曼多沒馱喃	-11.539
灼	-11.5391
就喻	-11.5391
現其身	-11.5392
日三時	-11.5393
接引	-11.5393
□□□□□	-11.5395
一心三觀	-11.5396
復次成就法	-11.5396
此頌	-11.5398
受八戒	-11.5399
侘	-11.5401
棗	-11.5401
總報	-11.5403
念誦法	-11.5404
作是說	-11.5407
回心	-11.5407
持呪人	-11.5407
相織	-11.5407
第十二	-11.5408
經無量劫	-11.5408
賛拏	-11.5408
幹	-11.5408
若有女人	-11.5413
誤墮	-11.5413
千劫	-11.5415
悟證	-11.5418
灌頂法	-11.5421
不差	-11.5422
教化眾生	-11.5423
古反	-11.5425
常念	-11.5432
什麼	-11.5434
焰鬘	-11.5437
脩羅	-11.5437
二初明	-11.5438
不越	-11.5441
入阿字門	-11.5443
當為汝說	-11.5444
洗手	-11.5447
並皆	-11.5447
真言主	-11.5454
梵天王	-11.5455
性比丘尼	-11.5457
諷	-11.5457
野馬	-11.5458
延壽	-11.5462
除差	-11.5463
現在前	-11.5466
部多女	-11.5467
圖畫	-11.5468
迷佛菩提亡失知見	-11.5468
緣慮	-11.5473
惡鬼神	-11.5473
炳	-11.5475
真實義	-11.5476
窮諸行空	-11.5477
地獄餓鬼畜生	-11.5478
妄無因	-11.5479
非汝而誰	-11.5481
阿那律陀	-11.5481
夙	-11.5481
汎	-11.5482
頰	-11.5482
正助	-11.5482
嘛	-11.5484
貼	-11.5486
涅槃經	-11.5487
過去未來	-11.5487
四無量心	-11.5488
重頌	-11.5488
璫	-11.5489
顛倒行事	-11.549
喧	-11.5491
媒	-11.5491
盻	-11.5492
石榴	-11.5493
千臂	-11.5495
涎	-11.5496
手鑑云	-11.5497
夜半	-11.5499
解脫道	-11.5499
嗚𤙖	-11.5501
緣覺聲聞	-11.5502
傷害	-11.5502
眾惡	-11.5502
恥	-11.5505
壇外	-11.5506
初又三	-11.551
摩訶迦羅	-11.5512
一切佛菩薩	-11.5513
妙覺明性	-11.5517
世世	-11.5517
嚩播	-11.5519
困	-11.5523
諸賢聖	-11.5523
方始	-11.5523
孤起	-11.5524
閼伽水	-11.5527
初總標	-11.5528
循業	-11.5528
三卷	-11.5531
盈滿	-11.5531
能伏	-11.5534
娑嚩訶	-11.5542
妙體	-11.5543
逐妄	-11.5545
所照	-11.5545
千年	-11.555
科中	-11.5552
受記	-11.5555
且汝	-11.5559
十迴向	-11.5563
影子	-11.5564
方便門	-11.5566
破因緣	-11.5567
析色	-11.557
具壽	-11.5571
軍吒利	-11.5572
鈷	-11.5576
諸國	-11.5577
納受	-11.5578
壽量	-11.5581
若能轉物	-11.5582
舒縮	-11.5582
羸	-11.5583
大吉	-11.5583
三結答圓通	-11.5586
瑕	-11.5587
吻	-11.5588
遺失真性	-11.5588
絃	-11.5588
說此真言	-11.5589
梵網	-11.5591
明暗色空	-11.5591
阿蘇囉	-11.5593
薑	-11.5595
曩謨阿	-11.5595
異乎	-11.5599
虗實	-11.56
釋文	-11.5601
正答	-11.5603
啼	-11.5603
伯	-11.5603
穆契	-11.5606
刀劍	-11.5607
狂亂	-11.5607
深淺	-11.5608
尾瑟	-11.5613
俱屬	-11.5618
非惟	-11.5619
統攝	-11.5623
一丈	-11.5624
君子	-11.5624
現瑞	-11.5625
女子	-11.5625
火爐	-11.5631
二手內相叉	-11.5632
修三摩提	-11.5634
如來今日	-11.5636
𤙖泮吒	-11.5639
毒龍	-11.5642
以大指	-11.5642
憶忘	-11.5649
甚多	-11.565
呪仙	-11.565
彼諸眾生	-11.565
何等為四	-11.5651
滿十萬遍	-11.5652
一手把	-11.5654
癸	-11.5655
無等等	-11.5657
惑障	-11.5667
難解	-11.5667
厭足心生去彼人體	-11.567
箕	-11.567
大夫	-11.5671
甄	-11.5671
半音二	-11.5672
瑟吒囉	-11.5672
圓定發明	-11.5674
滌	-11.5676
銳	-11.5676
吾復問汝	-11.5677
不空成就	-11.5677
寶樓閣	-11.5677
惱亂是人	-11.5678
讀誦受持	-11.5681
淨室	-11.5681
姦	-11.5681
灑拏	-11.5682
寶生如來	-11.5682
得不退轉	-11.5682
例破	-11.5683
虔誠	-11.5686
胡跪	-11.5689
四聖諦	-11.5692
祁	-11.5692
杳	-11.5693
勾	-11.5694
櫱多木佉跛哩嚩	-11.5695
阿蘭若	-11.5695
第一重	-11.5695
所惑	-11.5695
莊飾	-11.5696
善巧方便	-11.5697
初夜	-11.5698
燒沈水香	-11.5699
尚不知	-11.57
芥子油	-11.5703
布字	-11.5706
慳貪	-11.5709
菩薩萬行	-11.5709
不涉	-11.571
光焰圍繞	-11.571
粒	-11.5711
作法時	-11.5714
無始無明	-11.5714
推窮	-11.5714
著衣	-11.5714
贊拏	-11.5716
亡所	-11.5717
胎中	-11.5717
為二一	-11.5721
心明曰	-11.5721
稱歎	-11.5723
道眼	-11.5733
曩迦囉	-11.5733
酥酪	-11.5733
不改	-11.5733
劫火	-11.5734
消散	-11.5739
照鏡	-11.5746
欲貪	-11.5749
貪習	-11.575
百八遍	-11.5753
根境識三	-11.5754
成就菩提	-11.5756
龍腦	-11.5764
作擁護	-11.5768
作障難	-11.577
虎吽	-11.5771
我我所	-11.5771
焰光	-11.5775
淨器	-11.5776
』	-11.5778
虛心合掌	-11.5778
憚	-11.5782
根塵同源	-11.5782
癩	-11.5786
蘆	-11.5786
優婆夷	-11.5787
薩婆怛他揭多	-11.5787
沾	-11.5788
一路涅槃門	-11.5788
性色真空	-11.5788
國王大臣	-11.5788
拙	-11.5789
悶絕	-11.579
骸	-11.5793
卷第二	-11.5793
擊鼓	-11.5794
生滅既滅	-11.5794
三結成	-11.5795
撫	-11.5796
祝	-11.5796
見見之時	-11.5799
一點	-11.58
翳係曳	-11.5802
酧	-11.5803
斷食	-11.5804
神識	-11.5807
一切無著	-11.5808
恩愛	-11.5808
於其中	-11.5808
蓮花座上作	-11.5811
遏㗚	-11.5814
第四禪	-11.582
悉䭾	-11.5822
業煩惱	-11.5826
獲福	-11.5827
雙遮	-11.5827
圍之	-11.5829
正倒	-11.5831
設使	-11.5831
志求	-11.5836
修行人	-11.5837
長聲	-11.5837
聖觀自在菩薩	-11.5839
勃馱	-11.5842
潮	-11.5844
逆順	-11.5845
摩醯	-11.5847
為上首	-11.5847
大旨	-11.585
差殊	-11.5852
大笑	-11.5852
頓證	-11.5858
為有邊	-11.586
大興善寺三藏沙門不空奉詔譯	-11.5869
▁□	-11.5872
右脚	-11.5873
悟解	-11.5876
訟習	-11.5877
去彼人體	-11.5877
本來清淨	-11.5878
不於空生	-11.5879
孛	-11.5881
誦此明	-11.5882
別請	-11.5884
豈同	-11.5884
㝹	-11.5884
哆囉	-11.5885
能生識	-11.5885
應所知量	-11.5887
袒	-11.5887
粘湛發	-11.5888
憍陳那	-11.5889
阿練若	-11.5889
優波尼沙陀	-11.5889
迷惑不知墮無間獄	-11.589
喏	-11.589
羅剎娑	-11.5892
來無所從	-11.5892
忤	-11.5893
𦴭	-11.5894
攪	-11.5898
空性圓明	-11.5898
撞	-11.5899
金錢	-11.5899
蠟	-11.5899
馱曩	-11.59
洩	-11.5901
金剛藏王	-11.5901
邪婬	-11.5901
魔外	-11.5902
身口意業	-11.5904
乃至七日	-11.5904
秫第	-11.5905
金剛橛	-11.5906
旎	-11.591
了悟	-11.5913
穢惡	-11.5913
一箇	-11.5916
而供養之	-11.5917
為利益	-11.5918
積劫	-11.5921
善哉善哉善男子	-11.5921
聖力	-11.5926
常無常	-11.5927
將軍	-11.5931
諸佛剎	-11.5932
先標	-11.5936
文殊師利言	-11.5939
軍眾	-11.5941
如幻三昧	-11.5942
有情無情	-11.5944
復加	-11.5944
及諸眾生	-11.5947
誦一百八遍	-11.5949
塔耶	-11.5949
各不相	-11.5949
銷散	-11.5951
底孕	-11.5952
誐哩	-11.5953
金剛手祕密主	-11.5953
全真	-11.5956
精靈	-11.5957
圓徧	-11.5957
浮想	-11.5958
結縛	-11.5958
怛囕	-11.5963
同虗空	-11.5965
p	-11.5969
迷倒	-11.5972
樂聞	-11.5972
必哩	-11.5977
酬足復形生人道中	-11.5982
普現色身	-11.5983
奮迅	-11.5984
而於寂滅精妙未圓	-11.5985
顰眉	-11.5985
瘴	-11.5986
舍野	-11.5986
應不見暗	-11.5987
四天王天	-11.5987
稅	-11.5989
排擯	-11.5989
垣	-11.599
嵐	-11.599
鹿苑	-11.5991
四十四心	-11.5991
王舍城	-11.5992
揆	-11.5992
俄	-11.5994
災害	-11.5994
禱	-11.5997
內瑩發光	-11.5997
奮	-11.5999
於四方	-11.6
苦果	-11.6
一百三十	-11.6001
錫	-11.6002
能超	-11.6005
第二手持	-11.6006
䭾囉䭾囉	-11.6007
猫	-11.6008
之異名	-11.6008
▁二示	-11.6008
虗偽	-11.6009
陜	-11.601
性命	-11.6013
不了義	-11.6016
空點	-11.6022
淨名云	-11.6022
支節	-11.6023
白牛	-11.6024
前五識	-11.6027
成八萬四千	-11.6028
染婆	-11.603
檀那	-11.6033
亦無有	-11.6035
右邊畫	-11.6036
真源	-11.6038
西面	-11.6039
哩尼	-11.6043
古佛	-11.6044
依法持誦	-11.6047
次阿闍梨	-11.6048
無間斷	-11.6049
所熏	-11.6051
阿難譬如有人	-11.6055
蘇囉	-11.6056
金剛祕密	-11.6062
行列	-11.6062
任意	-11.6068
本師	-11.607
不得自在	-11.6072
獘泮	-11.6074
密呪	-11.6076
央	-11.6077
年老成魔惱亂是人	-11.6085
水牛	-11.6085
註云	-11.6086
異口同音	-11.6087
佛頂印	-11.6088
合掌向佛	-11.6089
於一毛端	-11.6091
不久當	-11.6093
無所在	-11.6093
珮	-11.6093
未得謂得	-11.6094
感報	-11.6095
咨	-11.6095
齡	-11.6096
里迦	-11.6097
聲教	-11.6097
塗香末香	-11.6098
垢穢	-11.6098
綴	-11.6099
身心快然	-11.61
開眼見明	-11.6102
農	-11.6103
㜸	-11.6103
十二部經	-11.6105
妙果	-11.6105
乳糜	-11.6107
阿閦佛	-11.6108
宿直日	-11.6109
二別釋	-11.6109
由結此印	-11.6109
漱口	-11.6109
副	-11.6109
白㲲	-11.6112
貿	-11.6113
搗	-11.6113
斜	-11.6114
非幻	-11.6114
演底	-11.6116
在一處	-11.6117
寧吉反	-11.6117
拋	-11.6119
序分	-11.6121
隨宜	-11.6123
白毫	-11.6125
薰陸香	-11.6126
從空出	-11.6128
入掌中	-11.6131
合如來藏	-11.6132
特嚩	-11.6136
雙徵	-11.6138
五髻	-11.6142
揀非	-11.6142
眼識界	-11.6145
金翅鳥	-11.6146
十億	-11.6149
正信	-11.6151
和水	-11.6151
懸示	-11.6152
其功	-11.6153
眾僧	-11.6158
朗然	-11.6158
說此呪	-11.6159
悉體	-11.6172
破斥	-11.6172
如佛所說	-11.6173
既稱	-11.6175
供物	-11.6178
世尊大毘盧遮那如來	-11.6178
如來藏妙真如性	-11.6179
𥁞	-11.618
sa	-11.6182
不空羂索心王陀羅尼真言	-11.6184
世間出世間	-11.6188
爾時天魔候得其便	-11.6189
所宣說	-11.6191
非實有	-11.6192
薩婆怛他	-11.6194
提獎	-11.6199
迅	-11.62
痕	-11.62
含攝	-11.6201
磔	-11.6201
顏貌	-11.6202
膽	-11.6203
全同	-11.6205
頡	-11.6205
燕	-11.6205
冒地	-11.6206
末法之中	-11.6206
縈	-11.6206
斧	-11.6209
災禍	-11.6209
慈誨	-11.6209
偏真	-11.621
悉𠆙	-11.6211
造惡業	-11.6211
十習	-11.6211
自陳	-11.6211
佛之知見	-11.6212
疼痛	-11.6213
本寂	-11.6215
泊	-11.6215
頭指側	-11.6216
猶如空華	-11.6216
山川	-11.6217
計都	-11.6219
摩儞	-11.622
肉團	-11.6221
埿	-11.6222
優波離	-11.6224
卷第一	-11.6231
徵釋	-11.6232
遂計	-11.6233
月八日	-11.6237
諸菩薩眾	-11.6239
交接	-11.6239
大論云	-11.624
決定成就	-11.6249
便可	-11.625
夕見	-11.6251
□□□	-11.6256
頂髻	-11.6256
聖觀自在	-11.6258
諸仙	-11.6263
奈何	-11.6265
清淨四大	-11.6272
莎訶金剛	-11.6274
一切人民	-11.6278
有多種	-11.6278
ri	-11.6282
囉納	-11.6283
有礙	-11.6286
戊	-11.6288
諸鬼神等	-11.6288
ś	-11.6288
海眼	-11.6291
段食	-11.6292
陀羅尼句	-11.6293
後文云	-11.6294
晉	-11.6299
密教	-11.6301
􂔹	-11.6301
若諸菩薩	-11.6304
觀彼幽清常擾動元	-11.6304
進火中	-11.6306
曠	-11.6308
清淨明誨	-11.631
違拒	-11.631
令弟子	-11.631
金剛甲冑	-11.6312
如下文云	-11.6313
精研妙明	-11.6313
朋友	-11.6313
慚	-11.6313
傘	-11.6314
整衣	-11.6315
傲	-11.6315
不隔	-11.6316
兩楹	-11.6317
圓壇	-11.6317
曼拏攞	-11.6317
叢林	-11.6318
瑳	-11.6318
四方各	-11.6323
於定中	-11.6325
娑縛	-11.6325
愛著	-11.6327
不斷婬	-11.6327
憙	-11.6328
一切業障	-11.6331
怨對	-11.6342
荅麼	-11.6346
里支	-11.6348
闍羅	-11.6355
速來	-11.6361
北面	-11.6363
詳辨	-11.6363
圓寂	-11.6367
為汝說	-11.6367
四大和合	-11.6371
無功用	-11.6374
伏惑	-11.6376
續生	-11.6381
旨趣	-11.6381
廣釋	-11.6384
假令	-11.6385
必待	-11.639
資具	-11.639
兩重	-11.6394
偏圓	-11.6394
生滅門	-11.6395
隨煩惱	-11.6397
悉怛	-11.6405
右手作拳	-11.6407
更非他物	-11.6408
無不成就	-11.6408
槩	-11.6411
富樓	-11.6412
一生補處	-11.6412
非因非緣	-11.6414
互相涉入	-11.6414
煖觸	-11.6414
寒林	-11.6415
忽見	-11.6416
緣所遺者	-11.6417
伎樂	-11.6418
臻	-11.6418
暫得如是	-11.6418
山間	-11.6418
耗	-11.6421
匪	-11.6421
卿	-11.6423
銖	-11.6424
由結此印誦真言	-11.6426
咤	-11.6426
三藐三佛陀	-11.6426
洗浴著新淨衣	-11.6426
桐洲	-11.6428
郎	-11.6429
纖毫	-11.6429
灌頂章句	-11.6429
二途	-11.6429
呪一遍	-11.6432
稻	-11.6433
帝三𦴭三沒䭾	-11.6435
蹙	-11.6435
几	-11.6437
宿日	-11.644
不隨分別	-11.6441
兩足	-11.6442
一番	-11.6443
聽受	-11.6443
警悟	-11.6444
吉祥草	-11.6448
大權	-11.6448
菓子	-11.6449
治病	-11.6449
無分別智	-11.645
倣此	-11.6453
摩拏	-11.6453
這裏	-11.6456
菩提道場	-11.6459
學處	-11.6465
所集	-11.6465
慧力	-11.6466
覩嚕	-11.6466
蘇合	-11.6466
不思議境	-11.6467
起信論	-11.6469
都無所	-11.6469
惡獸	-11.6469
作曼荼羅	-11.6473
屈如鉤	-11.6474
成結界	-11.6476
暫時	-11.6479
藍婆	-11.6479
頭髮	-11.648
經題	-11.6496
電光	-11.6497
即如來藏性	-11.6497
始本	-11.6498
能成辦	-11.6498
之士	-11.6498
色是我	-11.6505
虗空界	-11.6505
㘕字	-11.651
破惑	-11.6511
不可壞	-11.6511
深妙	-11.6513
我輩	-11.6514
選根	-11.6517
心懷	-11.6518
那庾多	-11.6518
熾焰	-11.6519
在何處	-11.6519
執情	-11.652
能招報	-11.6522
性圓周徧	-11.6522
明珠	-11.6524
季	-11.6525
於夢中	-11.6525
識元	-11.6525
赦	-11.6526
遜	-11.6528
徧照	-11.6528
殑伽沙	-11.6529
則汝今者	-11.6529
進退合明	-11.653
􂨢	-11.6531
持禁戒	-11.6532
勒叉	-11.6533
從真起妄	-11.6534
交遘	-11.6535
荊公云	-11.6535
圓照法界	-11.6536
了了分明	-11.6536
俱空不生	-11.6537
善住天子	-11.6538
偷盜	-11.6538
即得解脫	-11.6539
墻	-11.654
寧逸反	-11.6541
攝召	-11.6542
梯	-11.6543
以此真言	-11.6543
招引惡果	-11.6543
此大神呪	-11.6543
曩莫三滿多沒䭾	-11.6544
尿	-11.655
一念不覺	-11.655
救濟	-11.6551
縵	-11.6552
爾時釋迦牟尼如來	-11.6553
陵滅	-11.6553
高舉	-11.6554
諸行人	-11.6554
害人	-11.6557
禁縛	-11.6558
頓教	-11.6559
敬重	-11.6563
尾惹曳	-11.6566
光音	-11.6569
八肘	-11.6571
䭾寧	-11.6574
轉釋	-11.6577
見諦	-11.6577
生淨土	-11.6578
淨潔	-11.6579
成壞	-11.658
方隅	-11.6585
水土	-11.6589
沉淪	-11.6595
助行	-11.661
會歸	-11.6614
徧體	-11.6619
凡外	-11.662
遂令	-11.6622
羯摩	-11.663
隨心所	-11.6631
七番	-11.6632
金剛藏菩薩	-11.6633
仡	-11.6634
眷	-11.6636
無同無異	-11.6636
以要言之	-11.6636
為本修因	-11.6636
能害	-11.6637
聞熏聞修	-11.6637
吏	-11.6639
盎	-11.664
迅疾	-11.6641
陽燧	-11.6642
迷巳為物	-11.6643
見不能及	-11.6644
伴侶	-11.6644
泣	-11.6645
甄別	-11.6645
婆誐鑁	-11.6646
湛入合湛	-11.6646
薜	-11.6647
雙舉	-11.6647
森羅	-11.6647
薩嚩薩怛嚩	-11.6648
到彼岸	-11.6649
靂	-11.665
曼殊室利菩薩	-11.665
咽喉	-11.665
速獲	-11.6653
捕	-11.6653
唇	-11.6654
流傳	-11.6655
卓	-11.6655
怨害	-11.6657
真實語	-11.6657
猶如琉璃	-11.6658
戒方	-11.666
湖	-11.666
僕從	-11.6662
頭陀	-11.6663
禪門	-11.6664
常住不滅	-11.6665
比丘比丘尼	-11.6666
瞋習	-11.6669
無妨	-11.667
摩抳	-11.6675
靈驗	-11.6677
非不和合	-11.6678
咎徵	-11.6681
般若云	-11.6681
放光明	-11.6681
四維	-11.6683
和酥	-11.6692
元由	-11.6694
不顧	-11.6695
結元	-11.6706
獲法身	-11.6711
葛囉	-11.6718
右慧	-11.6727
摧滅	-11.6728
大曼荼羅	-11.6729
至此則	-11.6729
卷末	-11.6732
為物所轉	-11.6743
决	-11.6747
梨帝	-11.6749
未敢	-11.6749
又阿字者一切法無	-11.6749
聞佛示誨	-11.675
覺非所明	-11.6752
離即離非	-11.6753
起慈心	-11.6753
娑毗迦羅	-11.6753
裸	-11.6754
羞	-11.6754
調御	-11.6755
過去諸佛	-11.6755
合中知	-11.6755
屢	-11.6756
著淨衣服	-11.6756
白傘	-11.6757
沐	-11.6757
僻	-11.6758
阿若多	-11.6759
舂	-11.6759
閙	-11.676
駝	-11.676
】*	-11.6764
啟白	-11.6764
錦	-11.6765
膿血	-11.6765
曩莫室戰	-11.6766
霓	-11.6767
泮泮泮	-11.6767
藥乞叉	-11.677
阿那律	-11.677
楊	-11.677
頓歇	-11.677
落謝	-11.6771
死屍	-11.6772
香花飲食	-11.6772
前所說	-11.6774
一一字	-11.6778
縱橫	-11.6778
􂪙	-11.678
妙嚴	-11.678
婬室	-11.6781
答塔葛達	-11.6782
各各不同	-11.6785
焰魔	-11.6786
偏空	-11.6787
資財	-11.6792
二正示	-11.6793
權乘	-11.6796
蘇蜜	-11.6796
一念不生	-11.6801
救護眾生	-11.6805
讚嘆	-11.681
發大願	-11.6811
娑怖	-11.682
老人	-11.6821
號曰	-11.6824
惡報	-11.6825
吉祥天女	-11.6827
依法作	-11.6829
安忍	-11.6829
剎海	-11.6829
樹林	-11.6837
捺羅	-11.684
福利	-11.6841
聞佛說	-11.6846
準上	-11.6848
至佛所	-11.6849
如前文云	-11.6853
釋梵	-11.6854
光普照	-11.6854
父王	-11.6857
變易生死	-11.686
慴	-11.686
苾芻苾芻尼	-11.6861
本妙圓心	-11.6862
富樓那彌多羅尼子	-11.6865
煥	-11.6865
都攝六根	-11.6868
三補吒	-11.6868
妙淨明心	-11.6868
尸陀林	-11.6868
由塵發知	-11.6869
燈燭	-11.687
幼	-11.687
樂脫其倫	-11.6872
躍	-11.6875
理事無礙	-11.6876
罷	-11.6876
製	-11.6876
詎	-11.6877
叩	-11.6878
鬬	-11.688
剝	-11.688
說是呪	-11.688
阻	-11.6883
櫱蹉	-11.6883
揩	-11.6884
邊畔	-11.6888
遷改	-11.6888
若人欲得	-11.689
毫無	-11.689
音聞	-11.6894
所求事	-11.6895
尾麼𥠖	-11.6895
乾枯	-11.6906
末尼	-11.6908
下賤	-11.691
誦真言七遍	-11.6911
我與如來	-11.6911
東北方	-11.6912
見圓影	-11.6914
除蓋障	-11.6914
宿世	-11.6917
所有功德	-11.692
無窮盡	-11.6922
則諸世間	-11.6925
千眼	-11.6928
兩忘	-11.6934
妙花	-11.6936
一闡提	-11.6942
制底	-11.6946
摩竭	-11.6951
密迹	-11.6953
地水火風空	-11.6953
誐誐	-11.6954
誰能	-11.6955
堅持	-11.696
ī	-11.696
初述	-11.6962
羯麼	-11.6963
彌伽	-11.6965
金剛忿怒	-11.6965
辦事	-11.6965
往往	-11.6967
自責	-11.6968
尾惹	-11.6969
汝當先覺不入輪迴	-11.6971
雲門	-11.6973
勝進	-11.6973
受陰虗妙	-11.6977
執金剛菩薩	-11.6978
文略	-11.6982
欄	-11.6983
呪一千八遍	-11.6983
深廣	-11.6983
擴	-11.6984
熠熠	-11.6985
瓔	-11.6986
臍下	-11.6986
顯露	-11.6986
二習相交	-11.6987
叔	-11.6988
掛	-11.6991
呿	-11.6992
聊	-11.6992
糖	-11.6993
泐潭曰	-11.6994
流溢	-11.6994
息滅	-11.6994
左肩	-11.6994
犢	-11.6997
圓元	-11.6997
華座	-11.7002
播拏曳	-11.7002
若生於空	-11.7003
即中云	-11.7009
人非人	-11.7011
果地覺	-11.7012
鼻孔	-11.7018
反覆	-11.7019
謨賀	-11.7019
而為眷屬	-11.7021
趺坐	-11.7025
無盡莊嚴	-11.7025
總舉	-11.7026
水灑	-11.7029
非關	-11.7034
不休	-11.7036
遍十方	-11.7042
色蘊	-11.7045
自在無礙	-11.7047
百日	-11.705
無盡流	-11.705
十番	-11.7052
矩捨	-11.7053
胸前	-11.7056
嚩囉嚩囉	-11.7059
步惹	-11.706
涯	-11.7066
尾特	-11.7069
誐麼	-11.707
指來去呪曰	-11.707
逐破	-11.7071
金剛索	-11.7072
▁sarva	-11.7076
執金剛祕密主菩薩摩訶薩	-11.7083
諸障難	-11.7085
汝當先覺	-11.7086
弟子與師	-11.7087
窣堵波	-11.7089
正宗分	-11.709
驗知	-11.7091
礫	-11.7092
邪計	-11.7093
詔	-11.7093
焰鬘得迦	-11.7095
踰繕那	-11.7095
劇	-11.7096
􂘢	-11.7097
合成一界	-11.7098
末香	-11.7099
但有言說都無實義	-11.71
觜	-11.71
摩訶衍	-11.7101
童男童女	-11.7102
一念妄動	-11.7102
舊解	-11.7102
如寶形	-11.7102
縊	-11.7103
婚	-11.7103
受陰明白	-11.7104
赫奕	-11.7106
搆	-11.7107
瞥	-11.7108
英	-11.7109
若人欲	-11.7109
劬勞	-11.711
琴	-11.711
所染	-11.711
有何差別	-11.7113
哭	-11.7115
嘮	-11.7118
命元	-11.712
測度	-11.7123
從因緣生	-11.7123
沙糖	-11.7124
文可解	-11.7124
䋾	-11.7126
加持自身	-11.7129
乃是過去	-11.7134
捺㗚	-11.7136
形影	-11.7136
勸持	-11.7137
得安隱	-11.7139
直申	-11.714
賊難	-11.7142
溈山	-11.7151
子孫	-11.7155
鑁字	-11.7157
有佛性	-11.716
四姓	-11.716
正脈	-11.7161
性本無	-11.7164
羅闍	-11.7169
惹曩	-11.7172
一毫	-11.7173
爾時金剛手	-11.7176
諍論	-11.7177
十波羅蜜	-11.7179
丈六	-11.7183
強記	-11.7184
印二手	-11.7184
佛復告	-11.7187
超勝	-11.7188
調柔	-11.7189
呪索	-11.7197
所傳	-11.7201
雷音	-11.7202
性色真空性空真色	-11.7203
弟子與師俱陷王難	-11.7206
西北方	-11.7207
耄	-11.7208
所覺之	-11.7209
如我思惟	-11.7213
攘	-11.7213
藪	-11.7214
盡未來際	-11.7216
冶	-11.7217
自覺覺他	-11.7218
俊	-11.7219
靺	-11.7222
的指	-11.7222
賈	-11.7223
此三勝流	-11.7223
擯	-11.7224
黑闇	-11.7224
諸變化相	-11.7224
爹	-11.7224
洋	-11.7224
錯亂修習	-11.7226
腸	-11.7228
尾秫第	-11.723
栖	-11.7231
現佛身	-11.7231
嫁	-11.7231
天冠	-11.7232
尾補攞	-11.7232
缽底	-11.7233
慈恩	-11.7233
柁	-11.7234
湛了	-11.7234
損益	-11.7234
少選	-11.7235
領解	-11.7235
燃燈	-11.7235
菩地薩埵	-11.7236
影響	-11.7237
翁	-11.7238
休徵	-11.7238
囉乞灑	-11.7244
白月十五日	-11.7246
隋云	-11.7248
祕密法門	-11.725
佛形像	-11.7253
闍梨	-11.7255
無諍	-11.7257
即得除愈	-11.7257
得意生身	-11.7258
妙吉祥菩薩	-11.7259
節節	-11.7261
右頭指	-11.7273
怛他揭多	-11.7275
持明藏	-11.7278
我敬禮	-11.7281
福愛	-11.7289
放捨	-11.7293
然猶未	-11.7295
梵眾	-11.7296
不動明王	-11.7296
喻以明	-11.7302
況顯	-11.7303
十二年	-11.7303
皆不可得	-11.7308
坊	-11.7321
室戰	-11.7321
從定出已	-11.7322
厭足心生	-11.7324
妙明真心	-11.7325
死後俱非	-11.7326
縛脫無二	-11.7327
眼耳鼻舌	-11.7329
攸	-11.7329
宴	-11.733
伊舍那	-11.7331
燼	-11.7331
一百四十	-11.7332
此印三昧	-11.7334
哈	-11.7334
非因所因	-11.7335
無始以來	-11.7337
生生世世	-11.7337
希望	-11.7337
胷	-11.7337
金剛不壞	-11.7338
釋提桓因	-11.7339
程	-11.7339
泄	-11.7339
校量	-11.734
悲泣	-11.7341
酤嚕	-11.7341
跛娜麼	-11.7341
情與無情	-11.7341
誣罔	-11.7342
虗明妄想	-11.7343
珊	-11.7344
殺盜淫	-11.7345
撚	-11.7345
左轉	-11.7345
旋湛	-11.7348
潭	-11.7348
不自知	-11.7349
繫項	-11.735
儉	-11.7351
不可破壞	-11.7352
尾覲曩	-11.7354
殊異	-11.7355
作如是說	-11.7356
夾註	-11.7357
􂤔	-11.7357
左脚	-11.7357
能成就一切	-11.7359
大妄語成	-11.736
誦持此呪	-11.736
開敷蓮華	-11.7361
惡友	-11.7362
盆	-11.7363
入嚩攞	-11.7364
大抵	-11.7364
詑	-11.7366
無量為一	-11.7373
怪鬼	-11.7374
如是等種種	-11.7375
交織	-11.7375
為有定處	-11.7378
西國	-11.7383
妙奢摩他	-11.7385
末世眾生	-11.7387
凡愚	-11.7387
尾捺囉	-11.7388
不測	-11.7389
王臣	-11.7392
呬佉	-11.7392
初心方便	-11.7393
顯如來藏	-11.7397
機宜	-11.7409
誦陀羅尼	-11.7413
亦不應	-11.7421
顯真見	-11.7428
府儀同三司特進試鴻臚卿肅國公食邑	-11.7428
金山	-11.7434
右大指	-11.7434
名無量光	-11.7435
聲香味觸	-11.7436
總屬	-11.7437
抵	-11.7438
無去來	-11.7442
色質	-11.7444
用中相背	-11.7447
本不動搖	-11.7448
璿	-11.7448
佛又問言	-11.7449
分量	-11.7452
妙淨明體	-11.7453
優樓頻螺	-11.7453
秫弟	-11.7455
眇	-11.7456
同生基	-11.7456
室羅城	-11.7457
醋	-11.7457
獄卒	-11.7457
絣	-11.7459
妙性圓明	-11.746
持珠	-11.7461
含十方界	-11.7462
天堂	-11.7462
允	-11.7463
此非汝心	-11.7463
甯	-11.7463
驕	-11.7463
豐饒	-11.7464
安息香	-11.7465
弘誓	-11.7466
歸無所得	-11.7466
猶屬	-11.7467
遜婆	-11.7467
補曰	-11.7468
戮	-11.7468
普眼	-11.7468
脇	-11.7471
辯才無礙	-11.7471
金剛三業	-11.7471
短命	-11.7472
稱彼名	-11.7473
主伴	-11.7473
色聲香味觸	-11.7474
掬水	-11.7481
橫竪	-11.7485
叵得	-11.7486
古德云	-11.7492
瑜伽行者	-11.7496
昏暗	-11.7498
所生之處	-11.7499
馱羅	-11.7503
菩提場	-11.7503
計為常	-11.7504
大勤勇	-11.7504
良久	-11.7505
趣向	-11.7506
幻術	-11.751
為實有	-11.7513
過咎	-11.7513
山石	-11.7517
日日三時	-11.7517
速令	-11.7518
業所感	-11.7531
交涉	-11.7533
遲速	-11.7534
散祖	-11.7535
謬矣	-11.7538
圓彰	-11.754
於未來世	-11.7541
薩囉嚩	-11.7552
更無餘	-11.7563
有人來問	-11.7568
火壇	-11.7568
菩提涅槃元清淨體	-11.7568
性中相知	-11.7569
疱	-11.7569
煞	-11.757
不守自性	-11.7571
隨所發行	-11.7573
善聽	-11.7574
幟	-11.7574
云何得知是我真性	-11.7576
應念化成無上知覺	-11.7577
所觀之境	-11.7577
妙覺湛然	-11.7578
漸次深入	-11.7578
布單那	-11.7578
元清淨體	-11.7578
隨所合處	-11.7578
無上寶印	-11.7579
詈	-11.7579
渧	-11.758
熾然成異	-11.758
統領	-11.758
忖	-11.7581
工巧	-11.7582
說此法	-11.7583
貪瞋	-11.7583
我等今者	-11.7583
砧	-11.7584
鷲	-11.7584
虺	-11.7586
晏	-11.7589
茗	-11.7589
耕	-11.759
腰側	-11.759
攸往	-11.7592
腋	-11.7592
􂪦	-11.7593
動靜二相	-11.7593
持誦真言	-11.7594
算數	-11.7596
𦙘	-11.7599
裙	-11.7599
叫喚	-11.76
秦言	-11.76
為障者	-11.76
權智	-11.7601
作如是念	-11.7602
妙法蓮華	-11.7606
不空成就如來	-11.7607
聚集	-11.7611
四洲	-11.7617
虗假	-11.7618
利牙	-11.762
惟願世尊	-11.762
阿含云	-11.7621
既久	-11.7623
教誨	-11.7627
四念處	-11.7628
在茲	-11.7629
大圓鏡	-11.7631
老僧	-11.7638
羅網	-11.7643
默念	-11.7645
塗壇	-11.7648
囉儜	-11.7649
千由旬	-11.7649
這一節經承上	-11.7661
初阿難下	-11.7673
字變成	-11.7674
亦不離	-11.7676
界限	-11.7681
疾得	-11.7686
擾動	-11.7686
修真言行	-11.7689
大指頭	-11.7689
陀羅尼一首	-11.769
成就儀軌	-11.7691
違其現業	-11.7694
摩訶菩提薩埵	-11.7694
自己	-11.7695
花菓	-11.7698
朔	-11.77
爍迦羅	-11.77
斯陀含	-11.7702
報障	-11.7703
幽隱妄想	-11.7704
馬鳴	-11.7705
隨願往生	-11.7706
挾	-11.7706
三緣斷故	-11.7707
歛	-11.7707
生老病死	-11.7707
值遇	-11.7708
入菩薩乘	-11.7708
口中水出	-11.771
販	-11.7711
郡	-11.7711
匹	-11.7711
念誦儀軌	-11.7711
鋪	-11.7711
勤精進	-11.7712
閻羅	-11.7712
稚	-11.7714
級	-11.7714
憂愁	-11.7715
古釋	-11.7715
西南角	-11.7716
突瑟吒	-11.7717
㗚拏	-11.7718
柘	-11.7721
閑靜	-11.7725
趙州	-11.7729
質多羅	-11.7731
夫婦	-11.7731
種習	-11.7739
古師	-11.7742
禁止	-11.7745
拒	-11.7747
增壽	-11.7749
貴人	-11.7751
室唎	-11.7752
門戶	-11.7752
欲漏	-11.7755
登地	-11.7756
有實體	-11.7757
三洛叉	-11.7762
得無生法忍	-11.7762
一片	-11.7764
威神力故	-11.7765
請益	-11.7767
淪墜	-11.7771
本性清淨	-11.7773
百千劫	-11.7773
耶捺麻	-11.7777
罪畢	-11.7778
鼻詵	-11.7781
沒哩	-11.7785
侍從	-11.7791
旋遶	-11.78
左頭指	-11.78
凝然	-11.7803
釋教最上乘秘密藏陁羅尼集卷第	-11.7804
大菩薩身	-11.7811
般剌	-11.7814
天竺三藏	-11.7815
非於根出	-11.7816
揭多	-11.7817
元明心妙	-11.7819
遏蒲曇	-11.7819
初總明	-11.782
頂輪	-11.7821
意知根	-11.7821
故現斯事	-11.7821
悉怛多般怛囉	-11.7822
㸦	-11.7825
元是菩提妙淨明體	-11.7826
聖胎	-11.7826
內外明徹	-11.7826
無人能	-11.7827
又善男子受陰虗妙	-11.7827
性空真色	-11.7828
此想不真	-11.7829
精研七趣	-11.7831
邀	-11.7831
縫	-11.7832
班	-11.7832
㲲	-11.7833
瞻視	-11.7836
服餌	-11.7837
姊妹	-11.7841
受職	-11.7841
咬	-11.7842
櫱陛	-11.7843
起惑造業	-11.7843
妙高山	-11.7844
綻	-11.7845
地瑟耻	-11.7845
秫提	-11.7848
面向西	-11.7848
沒溺	-11.7849
種善根	-11.785
尊那菩薩	-11.7852
萬歲	-11.7853
無有障礙	-11.7857
讖	-11.7857
諸天神	-11.7861
萬二千	-11.7863
旋舞	-11.7866
頭指來去	-11.7868
白言世尊	-11.7869
矩麼	-11.787
見性周徧	-11.7878
第一節	-11.7881
無處所	-11.7887
持地菩薩	-11.7893
薩埵金剛	-11.7896
其形如	-11.7905
還歸	-11.7908
破鏡	-11.7909
牛酥	-11.791
殊特	-11.7912
例餘	-11.7923
流通分	-11.7923
識之界	-11.7926
深祕	-11.7929
谷響	-11.793
▁vi	-11.7932
𦗟	-11.794
離即離非是即非即	-11.794
䟦陀婆羅	-11.7943
花臺	-11.7943
一切障難	-11.7944
前後圍遶	-11.7947
離言說	-11.7947
疲倦	-11.7948
因何所出	-11.7948
千二百五十人	-11.7948
更互	-11.7949
不相留礙	-11.795
遠諸魔事	-11.7951
識生其中	-11.7952
不覺知	-11.7953
根無所偶	-11.7953
雀	-11.7955
誌	-11.7955
知見無見	-11.7955
柄	-11.7955
伽伽那	-11.7956
儗哩	-11.7958
菽	-11.7958
另	-11.7958
所礙	-11.7959
虗空藏菩薩	-11.7959
狂性自歇	-11.7959
遮文茶	-11.796
憶想	-11.796
糠	-11.7961
薩婆薩埵	-11.7962
歧	-11.7962
睹	-11.7965
從聞思修	-11.7966
作此觀	-11.7966
是心非眼	-11.7967
津液	-11.7968
所生之識	-11.7968
瓜	-11.7969
母陀羅尼真言	-11.7971
兩肩	-11.7971
袋	-11.7972
一匝	-11.7974
涕	-11.7974
悔過	-11.7975
一切部多	-11.7977
熾盛光	-11.7979
覆藏	-11.798
癰	-11.798
嚩嚕拏	-11.7981
不思議力	-11.7981
毫髮	-11.7981
廓然	-11.7986
抧	-11.7988
離垢地	-11.799
爾時觀世音菩薩	-11.7993
銷落	-11.7993
呪白芥子	-11.7994
墮獄	-11.7997
皆悉成就	-11.8009
左大指	-11.8011
現前一念	-11.8013
頭相著	-11.8022
告之曰	-11.8028
誦此密言	-11.8028
東南方	-11.8036
折羅	-11.8036
薩普	-11.8039
相似位	-11.8042
惡龍	-11.8053
運心供養	-11.8053
獻食	-11.8054
畢哩	-11.8058
雲如來南無	-11.8063
十界俱	-11.8064
生續	-11.8066
聽許	-11.8066
哿	-11.8066
首卷	-11.8068
涅槃經云	-11.8069
頭面禮足	-11.807
襲	-11.8071
若於所歸	-11.8071
不如此說即波旬說	-11.8073
波瀾	-11.8073
見色陰銷受陰明白	-11.8075
室利	-11.8075
得無疑惑	-11.8076
哦	-11.8076
慈悲喜捨	-11.8077
自心取自心	-11.8078
歡悅	-11.8078
迷真起妄	-11.8079
如汝所說	-11.808
提頭賴吒	-11.8082
􂨣	-11.8082
情少想多	-11.8083
情多想少	-11.8084
暈	-11.8084
帚	-11.8084
不滅不生	-11.8085
從一切如來心	-11.8086
有淺深	-11.8087
貪嗔癡	-11.8087
欣厭	-11.8087
六受用根	-11.8087
一遍一擲火中	-11.8089
昵	-11.8089
睒	-11.8089
跛哩嚩	-11.809
一人發真歸元	-11.809
肉髻	-11.809
竪二中指	-11.8093
㭊	-11.8095
復入一切如來	-11.8095
稱之為	-11.8096
故有輪轉	-11.8096
藤	-11.8096
細曩缽	-11.8097
檀波羅蜜	-11.8098
領受	-11.8099
櫱妬	-11.8101
曩謨窣覩	-11.8103
月蝕	-11.8105
含容	-11.8106
豐足	-11.8106
須達	-11.811
說偈言	-11.8112
大空點	-11.8113
伽伽	-11.8114
昭然	-11.8116
猶如微塵	-11.8116
諷誦	-11.8117
咄嚕	-11.8129
伐底	-11.813
妖魅	-11.8133
兜羅	-11.8142
變移	-11.8147
水洗	-11.8148
器盛	-11.8153
西南方	-11.8162
卷第三	-11.8176
白蓮	-11.8177
竭囉	-11.8177
宗趣	-11.8177
若有行人	-11.8179
淫欲	-11.8182
一切天神	-11.8182
半劫	-11.8185
為因心	-11.8185
屈曲	-11.8194
所既妄立生汝妄能	-11.8198
傳示	-11.82
復次宣說	-11.82
漏無漏	-11.82
三千大千	-11.8201
大富	-11.8201
作禮而去	-11.8205
膜	-11.8205
隋	-11.8208
孺	-11.8208
瞪發勞相	-11.8209
殄滅	-11.8209
訶訶訶	-11.821
裁	-11.8211
揖	-11.8211
饌	-11.8212
卷第四	-11.8213
摩努	-11.8213
醎	-11.8213
逃逝	-11.8215
空覺極圓	-11.8216
不歷僧祇獲法身	-11.8216
沃	-11.8217
囚	-11.8218
瓮	-11.8218
依前法	-11.8219
蝎	-11.8219
懶	-11.8221
軍陣	-11.8222
五不還天	-11.8222
昏昧	-11.8223
無處不	-11.8223
碧	-11.8223
急呼	-11.8224
蓮華化生	-11.8225
諸經論	-11.8225
誐嚕拏	-11.8225
嗜	-11.8228
西北角	-11.8229
勃馱南	-11.823
堦	-11.8231
賀染母	-11.8231
迦囉迦囉	-11.8232
昨	-11.8234
分劑	-11.8234
無涯	-11.8237
佛頂輪王	-11.8243
資益	-11.8247
尚不可得	-11.825
誦呪七遍	-11.825
從何而	-11.8254
無咎	-11.8255
統論	-11.8258
訥瑟	-11.8258
許宣	-11.8261
橫死	-11.827
軍持	-11.8287
堅實	-11.8289
蓮臺	-11.8296
澄湛	-11.8296
奮怒王真言	-11.8316
一切諸佛菩薩摩訶薩	-11.8316
供養三寶	-11.8317
汝今當知	-11.8319
ṣ	-11.8319
四空天	-11.8321
(○○	-11.8322
從自心出	-11.8322
美妙	-11.8331
縛日羅	-11.8333
部類	-11.8333
大孔雀呪王	-11.8335
天如補註曰	-11.8335
輭	-11.8335
壽命百年	-11.8336
迄	-11.8337
心動念	-11.8338
優鉢羅華	-11.8339
不入輪迴	-11.8339
此了知心	-11.8339
勝淨明心	-11.834
於我滅後	-11.834
覺察	-11.834
空生大覺中	-11.834
霽	-11.8341
溢	-11.8341
覺非眚中	-11.8342
誦密言	-11.8342
朕	-11.8343
生於空	-11.8343
依空立世界	-11.8343
水不能溺	-11.8343
根境不偶	-11.8344
是即非即	-11.8344
因定發慧	-11.8345
尚在遙遠	-11.8345
妙莊嚴海	-11.8345
復是何物	-11.8346
天人阿修羅	-11.8346
軸	-11.8346
月光童子	-11.8347
三無漏學	-11.8347
生汝妄能	-11.8348
苟能	-11.8349
無所從來	-11.8352
阿難所請	-11.8352
哲	-11.8353
面西	-11.8353
遙見	-11.8353
定果色	-11.8354
置於頂上	-11.8354
法華文句	-11.8354
脛	-11.8355
較量	-11.8355
辨才	-11.8356
巢	-11.8356
馺	-11.8357
助伴	-11.8358
跛左跛左	-11.8361
楊枝	-11.8362
隨意所	-11.8362
隱沒	-11.8363
不相干	-11.8365
週	-11.8366
形容	-11.837
三麼曳	-11.837
狂怖	-11.8371
拼	-11.8375
嚕捺囉	-11.8376
千葉	-11.8377
對像前	-11.8379
皎潔	-11.8379
縱許	-11.8385
惑為因緣	-11.8388
唵嚩日羅	-11.8391
斥迷	-11.8391
海潮	-11.8392
第三漸次	-11.8395
並吉	-11.8397
舍利塔	-11.8398
洞山	-11.84
強覺	-11.8401
妙旨	-11.8407
弘經	-11.8407
身金色	-11.8411
翻覆	-11.8412
是故汝今	-11.8416
青黃	-11.8418
菩陀	-11.8418
空不空如來藏	-11.8421
從緣起	-11.8423
純淨	-11.8428
羅叉	-11.8429
隱形	-11.8438
精魅	-11.844
輸馱	-11.8441
八葉蓮華	-11.8446
有方所	-11.846
三德祕藏	-11.8462
七俱胝佛母	-11.8462
攀	-11.8463
潛行貪欲	-11.8464
呤	-11.8466
佛滅度後	-11.8467
彼天像	-11.8468
彼暗與通	-11.8468
仲	-11.8468
性覺妙明本覺明妙	-11.8469
如鳥出籠	-11.847
宴安	-11.8471
純覺遺身	-11.8471
嚩曰囉	-11.8472
如惡叉聚	-11.8473
酬其宿債	-11.8473
蠲	-11.8474
如是說已	-11.8474
鎣	-11.8475
恆	-11.8475
無明住地	-11.8475
刊	-11.8475
一作禮陳白	-11.8476
塵既不緣	-11.8476
昏鈍	-11.8477
佛言大王	-11.8477
箜篌	-11.8477
十方微塵國土	-11.8478
酸澀	-11.8478
觀河之見	-11.8478
鶖	-11.8478
所既妄立	-11.8478
縠	-11.8478
烏芻	-11.8479
一門超出	-11.8479
串	-11.8481
蒭	-11.8481
扣	-11.8481
􂏍	-11.8483
迦旃延	-11.8483
戈	-11.8484
菖蒲	-11.8487
槊	-11.8487
鈴鐸	-11.8488
真言及手印	-11.8489
矩吒	-11.8489
枕	-11.8492
怖魔	-11.8494
微妙開示	-11.8497
三種漸次	-11.8498
嚲詑誐跢	-11.85
食三白食	-11.8501
錢財	-11.8501
粳米飯	-11.8501
有幾種	-11.8502
曼拏	-11.851
滋味	-11.8511
字為種子	-11.8513
摧破	-11.8516
變怪	-11.8517
詵	-11.8528
各各自	-11.8531
坐臥	-11.8533
稱揚	-11.8539
起大悲心	-11.8541
并眷屬	-11.8542
現在未來	-11.8542
孽多	-11.8542
道品	-11.8545
作訖囉	-11.8548
三甜	-11.8562
臍輪	-11.8563
如虗空華	-11.8578
踊躍	-11.8578
護摩爐	-11.8579
加持二十一遍	-11.858
凖	-11.8585
勿使	-11.8585
從何處	-11.8586
o	-11.8587
二種顛倒	-11.8591
說此頌曰	-11.8593
鼻舌身	-11.8594
此閻浮提	-11.8594
此見及緣元是菩提妙淨明體	-11.8596
葱	-11.8602
旅泊	-11.8604
摩阿難頂	-11.8604
惶悚	-11.8605
寂而常照	-11.8605
我曠劫來	-11.8605
小中現大	-11.8605
各各自謂成無上道	-11.8607
傾奪	-11.8607
蚊蚋	-11.8607
二初正明	-11.8608
返流全一	-11.8609
怠	-11.8609
飜	-11.861
問阿難言	-11.861
遷謝	-11.861
真言明仙	-11.8611
離諸名相	-11.8612
攝心為戒	-11.8612
眼色為緣	-11.8612
於是阿難及諸大眾	-11.8612
不增不減	-11.8613
嘍	-11.8614
貨	-11.8614
盡聞不住	-11.8614
展舒	-11.8614
啼泣	-11.8615
株	-11.8615
最後垂範	-11.8616
䠒	-11.8616
摘	-11.8616
九情一想	-11.8616
潤澤	-11.8616
莾	-11.8616
瞋恨	-11.8617
慳悋	-11.8618
戶牖	-11.8618
癘	-11.8618
僧伽梨	-11.8618
𡫸	-11.8619
枳里枳里	-11.862
唄	-11.8621
唬吽	-11.8623
救苦	-11.8624
而說呪曰	-11.8624
斂	-11.8626
雌黃	-11.8626
赤眚	-11.8626
見諸佛心	-11.8626
諮問	-11.8626
大勢至菩薩	-11.8627
悌	-11.8627
本周法界	-11.8627
開佛知見	-11.8627
延命	-11.8629
遐	-11.8629
𠰒	-11.863
精耀	-11.863
振動	-11.8631
向東	-11.8632
讒	-11.8633
各依本	-11.8641
曼多	-11.8644
驚疑	-11.8648
倍加	-11.8652
左𥠖	-11.8656
疾疫	-11.8663
喫食	-11.8672
神驗	-11.8676
重擔	-11.868
藥叉神	-11.8684
此陀羅尼句	-11.8697
空閑	-11.8704
雜和	-11.8713
薩嚩怛他蘖多	-11.8717
土梟	-11.8723
徹底	-11.8724
威德自在	-11.8724
y	-11.8724
f	-11.8725
-	-11.8725
作是法	-11.8729
佛問圓通如我所證	-11.873
窮生類本觀彼幽清常擾動元	-11.8731
梵世	-11.8736
滅塵合覺	-11.8738
庫	-11.874
氣分交接	-11.874
如是十種禪那現境	-11.874
則不隨其生死相續	-11.8742
聚緣內搖	-11.8745
因根有相	-11.8745
傳示末法	-11.8746
赫	-11.8746
富饒	-11.8747
即受羣邪	-11.8748
匱	-11.8749
大教王經	-11.8749
亘	-11.875
暎	-11.8751
如淨琉璃	-11.8751
言語道斷	-11.8751
龜毛兔角	-11.8752
得宿命智	-11.8752
入阿鼻獄	-11.8753
復用前像	-11.8753
啄	-11.8754
雲棲	-11.8754
葷	-11.8754
飡	-11.8755
世界相涉	-11.8756
貴賤	-11.8757
卦	-11.8757
緯	-11.8758
橋	-11.8758
藥塗	-11.8759
無有休息	-11.8761
訣	-11.8762
諾賀諾賀	-11.8762
佉陀羅木	-11.8762
仰山	-11.8763
多聞天王	-11.8764
寶鬘	-11.8764
熟銅	-11.8764
祕要	-11.8765
燒香供養	-11.8765
東南角	-11.8768
眩	-11.8769
天龍鬼神	-11.877
金剛舞	-11.8781
低頭	-11.8783
無染著	-11.8783
目眚	-11.8786
脩習	-11.8789
釋論云	-11.879
冷煖	-11.8791
病患	-11.8794
惑為菩薩	-11.8796
直舒	-11.88
鏡像	-11.8805
髀上	-11.8805
身心圓明	-11.8808
律反	-11.8812
檀香	-11.8816
起大慈悲	-11.8817
有出入	-11.883
諸菩薩萬行首楞嚴	-11.8833
流浪	-11.8851
印兔那麼麼寫	-11.886
盜貪	-11.8867
信受奉行	-11.8871
先非水火	-11.8873
癘鬼	-11.8875
縛脫	-11.8877
召集	-11.8882
發覺初心	-11.8882
跋日囉	-11.8883
剎那剎那	-11.8884
殑伽沙俱胝那庾多百千	-11.8884
認悟中迷	-11.8884
詠	-11.8884
烏波	-11.8884
雉	-11.8885
兜率陀天	-11.8885
前後圍繞	-11.8887
無見頂相	-11.8887
宏	-11.8887
十惡五逆	-11.8887
聯	-11.8887
枉習	-11.8887
流逸奔色	-11.8888
貴敬	-11.8889
分成六和合	-11.8889
二羽金剛縛	-11.889
袪	-11.889
滓	-11.8891
編	-11.8891
鴻	-11.8891
從法化生	-11.8892
全體大用	-11.8892
十二區分	-11.8893
九次第定	-11.8893
無業果色	-11.8893
汝將誰見	-11.8894
億那由他	-11.8895
唧哩唧哩	-11.8897
一切法本不生	-11.8897
明不循根	-11.8898
因動有聲	-11.8899
如幻三摩提	-11.8899
曩莫三曼多沒馱	-11.8899
本覺明妙	-11.89
湛不搖處	-11.89
鄔波	-11.89
從口入	-11.89
湯藥	-11.8901
如上所	-11.8903
裡	-11.8903
滅一切罪	-11.8903
五色粉	-11.8904
技	-11.8904
大仙人	-11.8906
蝦	-11.8906
阿㝹	-11.891
頻伽	-11.8912
牛馬	-11.8912
損壞	-11.8912
顏色	-11.8918
水罐	-11.8919
閻羅王	-11.8921
臨濟	-11.8922
侍衛	-11.8923
若人患	-11.8933
三世四方	-11.8943
櫱婆	-11.8946
一切世間出世間	-11.8952
宿命通	-11.8953
善男子汝	-11.8958
夜叉王	-11.8965
爾時世尊說此	-11.8973
所愛樂	-11.8974
飛光	-11.8982
所緣境	-11.8993
▁|○	-11.9005
十緣生句	-11.901
又三摩中諸善男子堅凝正心魔不得便	-11.9012
噬臍	-11.9013
眼能見	-11.9013
悟則無咎非為聖證	-11.9015
寶杖	-11.9016
汝猶未明	-11.9017
盈縮	-11.9018
若作聖解即受群邪	-11.9019
嬰	-11.902
般刺	-11.9021
以觀觀者	-11.9022
脗	-11.9023
如海一漚發	-11.9024
大中現小	-11.9024
逕	-11.9025
淨念相繼	-11.9026
亦有徒眾	-11.9027
入一無妄	-11.9028
系	-11.9029
覈	-11.9029
憍梵鉢提	-11.9029
迷妄有虗空	-11.903
與眼對	-11.903
妹	-11.903
十方洞開	-11.9031
背相著	-11.9032
吾今為汝	-11.9033
蔽尸	-11.9033
海印發光	-11.9034
料揀	-11.9035
尸棄	-11.9037
發本明耀	-11.9037
誦真言一千八遍	-11.9037
振裂	-11.9038
得大隨順	-11.9038
賀賀賀	-11.904
咓	-11.9041
衫	-11.9041
拶咄	-11.9043
誐蹉	-11.9044
擬議	-11.9044
無畏施	-11.9044
澄濁	-11.9044
畢陵	-11.9045
能覺之	-11.9045
亦有亦無	-11.9053
密跡主	-11.9055
哹	-11.9056
巘馱	-11.9059
柳枝	-11.9059
剎那頃	-11.9061
筆受	-11.9063
詳辯	-11.9071
野干	-11.9071
左邊畫	-11.9072
寶瓔珞	-11.9073
最上祕密	-11.9082
宗旨	-11.9082
百萬	-11.9082
必得成就	-11.9093
在掌中	-11.9093
中指上節	-11.9105
善惡業	-11.9114
魔得其便	-11.9126
更有何	-11.9127
舍衛國	-11.9128
速得圓滿	-11.913
吠舍	-11.9139
屈入掌	-11.9143
徧一切處	-11.9144
酥燈	-11.9149
睛	-11.9156
諦聽善思念之	-11.9164
殂	-11.9164
以動為境	-11.9166
鐘鼓	-11.9166
怙	-11.9166
曼荼	-11.9167
踊躍歡喜	-11.9167
白世尊言	-11.9168
樂變化天	-11.9169
𠸪乞	-11.9169
廿	-11.9169
是義云何	-11.9169
林泉	-11.917
讐	-11.917
􂏨	-11.9171
無作妙力	-11.9171
不能為礙	-11.9173
大藥叉將	-11.9173
是種種地	-11.9173
矍	-11.9173
開圓解	-11.9173
因戒生定	-11.9174
一六義生	-11.9174
今復問汝	-11.9176
想相為塵	-11.9176
浮漚	-11.9179
定林云	-11.9181
有大神力	-11.9182
因緣生法	-11.9182
五現涅槃	-11.9184
燋	-11.9184
錯亂	-11.919
有想無想	-11.919
簡擇	-11.9193
隔礙	-11.9194
寶藏神	-11.9195
怨習	-11.9202
福愛天	-11.9202
麼矩吒	-11.9203
護摩一千八遍	-11.9203
光音天	-11.9206
鮮白	-11.9211
滿一千八遍	-11.9214
大槩	-11.9214
字門一切法	-11.9221
併銷	-11.9226
玄沙	-11.9233
成阿耨多羅三藐三菩提	-11.9234
無法可	-11.9236
悉底哩	-11.9245
普門品	-11.9249
兩臂	-11.9253
證初果	-11.9267
神力加持	-11.9268
賢護	-11.9272
右臂	-11.9277
夜摩天	-11.9288
受想行	-11.9289
滿一切願	-11.9289
猒	-11.929
盡虛空遍法界	-11.9295
爾時天魔候得其便飛精附人口說經法	-11.9297
十方三世一切	-11.93
身心相知	-11.9301
籌量	-11.9302
見見之時見非是見	-11.9304
暫得如是非為聖證	-11.9304
金剛頂經	-11.9305
本發心路	-11.9308
矢	-11.9309
芥	-11.931
若諸有學	-11.931
藥王藥上	-11.931
圓滿菩提歸無所得	-11.931
塵不可出	-11.9311
鉢訥	-11.9311
從互用中	-11.9311
梓	-11.9312
妓	-11.9313
疑誤眾生	-11.9314
帖	-11.9316
千手千眼	-11.9316
彈指超無學	-11.9316
痔	-11.9317
稠	-11.9317
惟垂大慈	-11.9317
非色非空	-11.9318
我今當說	-11.932
漆	-11.932
硬	-11.9321
軌儀	-11.9321
依法觀想	-11.9322
庶幾	-11.9322
明暗空塞	-11.9322
二中指直竪	-11.9326
裝	-11.9326
槌	-11.9328
黯	-11.9328
肖	-11.9329
捨念清淨	-11.9329
纈	-11.9329
手執蓮華	-11.9332
肚	-11.9334
二食指	-11.9334
五臟	-11.9338
誠諦	-11.9339
竪臂	-11.9339
須陀洹果	-11.934
竪二大指	-11.934
䞘	-11.934
塞建	-11.9344
唵斡資囉	-11.9347
這箇	-11.9349
鼻端	-11.9353
為復自然	-11.9355
諸修行人	-11.9355
持誦行人	-11.9365
七曜	-11.9366
尸利	-11.9371
惡賊	-11.9371
梵眾天	-11.9372
一切時中	-11.9373
全彰	-11.9374
隨其所應	-11.938
從初發心	-11.9382
睺睺	-11.9384
擔尾	-11.9389
歎未曾有	-11.939
壇四角	-11.9394
偈讚	-11.9407
不自覺知	-11.9411
二空指	-11.9432
獨存	-11.9438
潔白	-11.9439
蓮花座	-11.9441
幾種	-11.9442
無同異中熾然成異	-11.9448
金剛頂瑜伽	-11.9449
憫	-11.9451
嗔陀夜彌	-11.9451
􂨟	-11.9452
刳其正性	-11.9452
羼提	-11.9453
本出塵勞	-11.9456
建大法幢	-11.9457
威神之力	-11.9458
保持覆護	-11.9458
知覺乃眾生	-11.946
亡正徧知	-11.946
地如佛地	-11.946
闢	-11.9461
幽溪曰	-11.9461
秘藏	-11.9461
起為世界	-11.9461
霄	-11.9462
摩利支	-11.9463
徐徐	-11.9464
清水現前	-11.9464
辛勤	-11.9464
拘絺羅	-11.9466
寒暑	-11.9466
識情為垢	-11.9467
悚	-11.9467
此見及緣	-11.947
魃	-11.9471
頭自搖動	-11.9471
三漫多	-11.9471
􂟶	-11.9471
不可窮盡	-11.9473
豹	-11.9475
衣服飲食	-11.9476
釰	-11.9477
邇	-11.9477
素嚕素嚕	-11.9478
貶	-11.9479
壑	-11.948
嚙	-11.948
髆	-11.948
陰隱	-11.948
瑟膩	-11.9482
𦽆	-11.9483
􂟾	-11.9483
災患	-11.9485
沫㗚	-11.9495
爾時金剛手菩薩	-11.9498
堪受	-11.95
池沼	-11.9501
薩嚩播	-11.9508
了無所得	-11.9509
長老阿難	-11.9514
飲光	-11.9515
海岸	-11.9518
疑謗	-11.9521
支提	-11.9521
參禪	-11.9522
善不善	-11.9527
汝當受持	-11.9531
科判	-11.9531
來至此	-11.9534
受別請	-11.9545
滿一百八遍	-11.9548
外別有	-11.9558
等覺位	-11.9565
曩莫三滿多	-11.9568
跛囉麼	-11.9587
久久	-11.9588
hā	-11.9589
安國寺	-11.9592
三昧大教王經卷第	-11.9594
纂	-11.9599
眾生頑迷不自忖量	-11.96
其性真為妙覺明體	-11.9601
摩利支天	-11.9602
若於空出	-11.9602
晝夜六時	-11.9603
當在中間	-11.9604
褫	-11.9605
日劫相倍	-11.9607
所妄既立	-11.9608
一迷為心	-11.9609
蒲盧	-11.9609
厭禱	-11.9609
贅	-11.9609
香泥塗	-11.9609
想相為身	-11.961
惑為因緣及自然性	-11.961
斷性亦無	-11.961
趣外奔逸	-11.961
聲聞辟支佛	-11.9611
情想均等	-11.9611
磬	-11.9612
身能出礙	-11.9613
文殊師利童子	-11.9613
瞞	-11.9613
無生無滅	-11.9614
長跪合掌	-11.9614
殖	-11.9614
寂常心性	-11.9614
餐	-11.9615
遊履	-11.9615
覧	-11.9615
迦毗羅	-11.9616
連環	-11.9617
𠻱	-11.9617
屎尿	-11.9617
錫杖	-11.9617
一根既返	-11.9618
善星比丘	-11.9619
采	-11.962
祛	-11.962
諸有智者	-11.9621
護身結界	-11.9623
毛髮	-11.9623
栢	-11.9623
霑	-11.9623
孃	-11.9625
粟	-11.9625
鼻曬	-11.9626
永嘉	-11.9626
媚	-11.9626
善見天	-11.9626
帝釋天王	-11.9627
虎皮	-11.9627
呬哩呬哩	-11.963
准前根本印	-11.963
反聞自性	-11.9631
底瑟恥	-11.9633
秫䭾	-11.9635
些	-11.9636
無量劫來	-11.9636
寸許	-11.964
)。(△	-11.9643
恩德	-11.9648
赤黃	-11.9649
何因緣故	-11.9652
敷座	-11.9658
怛他蘖多	-11.9664
左手把	-11.9667
返照	-11.9667
紅蓮華	-11.9669
百步	-11.9688
非因緣非自然	-11.9691
除蓋障菩薩	-11.9697
超日月	-11.9697
須彌山頂	-11.9711
b	-11.974
五法具足	-11.9743
叅	-11.9743
大廣智	-11.9747
曷囉	-11.9748
怛闥阿竭	-11.9752
洲潬	-11.9753
墮阿鼻獄	-11.9755
觀性元真	-11.9755
無令天魔得其方便	-11.9756
左第一手	-11.9757
三了妄即真	-11.9757
自劫家寶	-11.9758
分劑頭數	-11.9759
遠塵離垢	-11.9759
畢陵伽婆蹉	-11.9759
塵勞先起	-11.976
從佛口生	-11.9761
三緣斷故三因不生	-11.9761
唯妙覺明	-11.9761
含吐十虗	-11.9761
迂	-11.9761
荷負	-11.9761
不死矯亂	-11.9762
鳩槃荼	-11.9762
無色羯南	-11.9762
覺明為咎	-11.9762
香水灑	-11.9762
平等性智	-11.9763
本所不見	-11.9763
重復悲淚	-11.9763
殷	-11.9764
二無因論	-11.9764
出無佛世	-11.9765
閻浮檀金	-11.9765
啻	-11.9766
一切眾生從無始來	-11.9766
嬌	-11.9767
殻	-11.9767
明了知性	-11.9768
先得人空	-11.9769
承受聖旨	-11.9769
宵	-11.9769
諸根互用	-11.977
福德聚	-11.9771
娛樂	-11.9772
麵	-11.9774
緋	-11.9774
無上知覺	-11.9775
醯醯	-11.9776
無一物	-11.9777
曩莫三滿多嚩日囉	-11.9778
彥達嚩	-11.9779
猶如瑠璃	-11.978
我等輩	-11.9782
漉	-11.9784
尾娑普	-11.9786
祭祀	-11.9787
麌拏	-11.9787
油燈	-11.9787
違犯	-11.9789
光澤	-11.9791
羣邪	-11.9794
有邊無邊	-11.9795
蘇合香	-11.9797
香潔	-11.9797
現其前	-11.9798
十歲	-11.9799
供獻	-11.9805
驚覺	-11.9808
娑嚩二合賀	-11.9809
祕密漫荼羅	-11.9811
皈	-11.9847
阿耨菩提	-11.985
救拔	-11.9864
敘昔	-11.9865
不從他	-11.9871
魘鬼	-11.9872
調和	-11.9876
阿蜜㗚	-11.9884
諸大菩薩摩訶薩	-11.9895
皆大歡喜信受奉行	-11.9897
滿多沒馱	-11.9898
不避譏嫌	-11.9903
當於結心	-11.9903
罵詈徒眾	-11.9904
唯佛與佛	-11.991
生滅既滅寂滅現前	-11.991
房融筆受	-11.9911
莎波呵	-11.9911
明暗通塞	-11.9912
無可指陳	-11.9913
嶽	-11.9913
色雜妄想	-11.9914
閉眼見暗	-11.9914
六為賊媒	-11.9914
更無他物	-11.9914
死此生彼	-11.9915
承佛神力	-11.9915
如澄濁水	-11.9916
環釧	-11.9917
童耄	-11.9917
皆來集會	-11.9917
聖性無不通	-11.9918
蛔	-11.9918
□□□□	-11.9919
大小便利	-11.992
念念不停	-11.992
旋繞	-11.992
雖非正修真三摩地	-11.992
寄根明發	-11.992
勞見發塵	-11.9921
矧	-11.9921
期剋	-11.9922
鴿	-11.9922
心生愛樂	-11.9923
休咎精明	-11.9924
魁	-11.9926
賞	-11.9926
修證了義	-11.9926
性淨明體	-11.9926
無為心佛	-11.9926
攃	-11.9927
補遺	-11.9928
所緣之境	-11.9928
常光現前	-11.9929
摽	-11.9931
勝義諦	-11.9931
誦奮怒王真言	-11.9931
罕	-11.9931
此名何等	-11.9931
獵	-11.9931
霞	-11.9931
三分之二	-11.9933
字為體	-11.9933
鏟	-11.9933
塗飾	-11.9934
雪浪	-11.9935
鳥獸	-11.9935
客塵煩惱	-11.9935
二俱遠離	-11.9937
無有邊際	-11.994
嚟	-11.9941
真言及印	-11.9944
羯磨部	-11.9946
阿毘遮嚕迦	-11.9961
賀哩抳	-11.9965
妄本無因	-11.9969
寶生佛	-11.9974
莊嚴其身	-11.9978
舍衛	-11.9984
以此呪呪	-11.9984
防護	-11.9985
得除愈	-11.9988
伺求	-11.9995
內外中間	-11.9995
一百五十	-11.9996
違逆	-12.0025
夫妻	-12.0042
承上文	-12.0044
...	-12.0051
默然而住	-12.0057
箋	-12.0057
可憐愍	-12.0059
生死結根	-12.0062
誦密言曰	-12.0063
凝明正心	-12.0063
觀相元妄	-12.0063
除其助因	-12.0063
山河大地諸有為相	-12.0065
汝言覺了能知之心	-12.0065
妙淨見精	-12.0065
乘悟併銷	-12.0066
瑟姹	-12.0066
世世生生	-12.0067
縱有多智禪定現前	-12.0067
不曾散失	-12.0067
遞相為種	-12.0069
意法為緣	-12.007
而告之言	-12.007
:『	-12.007
理則頓悟	-12.0071
陰處界	-12.0071
稻穀	-12.0073
身心泰然	-12.0073
擅	-12.0073
登無上覺	-12.0074
四部眾	-12.0074
屈指飛光	-12.0075
慰喻	-12.0075
春秋	-12.0076
尾覲	-12.0076
所入既寂	-12.0076
如來悉知	-12.0076
伏還元覺	-12.0076
如來印我	-12.0076
承佛威神	-12.0076
稽首歸命	-12.0076
毋	-12.0076
了不相觸	-12.0077
嚩路枳多	-12.0078
怯	-12.0079
諳	-12.008
閃	-12.008
中中流入	-12.0081
禰嚩南	-12.0083
毅	-12.0083
魔境現前	-12.0084
白月一日	-12.0084
髯	-12.0085
􂨱	-12.0085
萎	-12.0085
以右手大指	-12.0085
南嶽	-12.0085
筌	-12.0086
液	-12.0086
佛頂尊勝陀羅尼	-12.0086
長者居士	-12.0087
揣摩	-12.0087
傅	-12.0089
絲毫	-12.0089
𡰱	-12.009
伊蘭	-12.009
傾動	-12.009
破空生	-12.0092
𡩋	-12.0095
屎	-12.0095
結金剛縛	-12.0099
泥以反	-12.0103
譯如是我聞	-12.0112
二十八部	-12.0117
右手頭指	-12.0121
遍十方界	-12.0122
豈容	-12.0132
含育	-12.0134
孫陀	-12.0164
白肉色	-12.019
漫荼	-12.0202
生死流轉	-12.0205
上都大	-12.0214
捨此身	-12.0218
雙計有無	-12.0219
况	-12.0222
心悟實相	-12.0222
不作聖心名善境界	-12.0225
趺	-12.0225
偏袒右肩右膝著地	-12.0226
諄	-12.0227
造種種業	-12.0227
圓滿一千二百功德	-12.0227
妙音密圓	-12.0228
永無諸委曲相	-12.0229
違現業	-12.0229
從是漸修	-12.0229
即說陀羅尼曰	-12.0229
候得其便	-12.0229
養育	-12.023
重增迷悶	-12.023
跟	-12.0231
械	-12.0231
受大苦惱	-12.0231
萬由旬	-12.0231
非一非六	-12.0232
擘	-12.0232
六時行道	-12.0233
胎卵濕化	-12.0233
決定惑為色身之內	-12.0233
弦	-12.0234
初於聞中	-12.0234
綜	-12.0235
純是智慧	-12.0235
痰	-12.0235
城邑聚落	-12.0236
妻妾	-12.0236
魏	-12.0238
涕唾	-12.0238
呌	-12.0238
七情三想	-12.0238
甘蔗	-12.0238
修瑜伽者	-12.0239
傳送	-12.0239
瘴惡	-12.024
淨光天	-12.0241
混濫	-12.0241
垢染	-12.0241
階級	-12.0242
態	-12.0243
奔走	-12.0243
湫	-12.0244
同異發明	-12.0244
援	-12.0244
沬	-12.0245
苫	-12.0246
羯㗚灑	-12.0247
韋陀	-12.0247
煑	-12.0248
猶豫	-12.0248
蓬	-12.025
雲霧	-12.0251
非想非非想處	-12.0251
福生天	-12.0256
師印呪可知	-12.0259
曼拏囉	-12.0265
百萬遍	-12.0265
吐氣	-12.0272
𠽾	-12.0273
衣裳	-12.0278
厭蠱	-12.0279
生滅不停	-12.0296
證無上正等菩提	-12.0321
無法不	-12.0341
心不在內	-12.0356
點額	-12.0358
穩	-12.0363
志心歸命	-12.0368
誦是呪	-12.0371
傳密教超悟大師賜紫三藏沙門行琳	-12.0371
ta	-12.0371
野吽泮	-12.0378
熙	-12.0382
汝教世人修三摩地	-12.0382
正等正覺	-12.0383
慇	-12.0383
鐶釧	-12.0385
入無所入	-12.0386
請入華屋	-12.0386
精妙未圓	-12.0386
普佛世界	-12.0387
妙奢摩他三摩禪那	-12.0387
當爾之時	-12.0388
覺齊佛覺	-12.0388
聞思修	-12.0388
毗奈耶	-12.0389
惟垂大悲	-12.0389
幽溪云	-12.0389
性水真空	-12.0389
影見俱眚	-12.0389
成聖果	-12.039
目眚所成	-12.039
仕	-12.0391
無二亦滅	-12.0391
不相踰越	-12.0391
唯然世尊	-12.0392
墻宇	-12.0394
四維上下	-12.0394
蝡	-12.0395
五無間罪	-12.0395
想澄成國土	-12.0395
不自忖量	-12.0396
中道純真	-12.0396
汝身汝心	-12.0397
坼	-12.0397
智度論云	-12.0397
裝嚴	-12.0397
吝	-12.0398
元我覺明	-12.0398
手自開合	-12.0398
汝當奉持	-12.0399
乾闥婆城	-12.0399
舉一即三	-12.0399
桓	-12.0399
畵	-12.0399
七處徵心	-12.04
䫂	-12.0401
三因不生	-12.0401
無有窮盡	-12.0401
六道四生	-12.0402
磔開	-12.0403
翹	-12.0404
名不動地	-12.0405
星辰	-12.0405
問訊	-12.0406
寶覺真心	-12.0406
於法自在	-12.0406
出離生死	-12.0407
麻曷	-12.0408
努瑟吒	-12.0408
郁	-12.0409
蹤跡	-12.0409
躁	-12.0409
西北隅	-12.041
棲	-12.041
齒木	-12.0414
抂	-12.0415
脯	-12.0416
汝當諦聽	-12.0416
無卜居	-12.0417
矟	-12.0417
憂懸	-12.0422
結根本印	-12.0428
百丈	-12.0429
蓮花臺	-12.0429
雪竇	-12.0431
誦此大明	-12.044
幽室	-12.0444
泉池	-12.0445
屬前塵	-12.0467
白銀	-12.0485
滿八千遍	-12.0492
修菩薩行	-12.0495
訥嚕	-12.0511
首楞嚴經義海卷第	-12.0518
能滿一切	-12.0519
輪廻	-12.0534
ū	-12.0534
△〔	-12.0537
破佛律儀潛行貪欲	-12.0545
去泥純水	-12.0548
首尾相換	-12.0548
同是菩提	-12.0548
羯邏藍	-12.055
燧	-12.055
玦	-12.055
隨為色空	-12.0551
憶識誦習	-12.0552
汝今聞不	-12.0552
見色陰消受陰明白	-12.0555
動靜二相了然不生	-12.0555
今何所在	-12.0556
纏繞	-12.0556
沈淪	-12.0556
父母所生之身	-12.0556
胞	-12.0557
圓明精心	-12.0558
從佛出家	-12.0559
說是語巳	-12.056
見無所動	-12.0561
放種種光	-12.0561
諠	-12.0561
淮	-12.0562
此根初解	-12.0562
梵輔天	-12.0563
親友	-12.0563
隨心應量	-12.0563
相去一寸	-12.0564
爛壞	-12.0565
於我法中	-12.0566
飢饉	-12.0566
馱囉馱囉	-12.0567
陟	-12.0567
滿䭾滿䭾	-12.0567
倉	-12.0567
憨	-12.0569
剪	-12.0569
成法解脫	-12.057
曩莫三滿多沒馱南	-12.0571
三叉戟	-12.0571
膺	-12.0571
嗔恚	-12.0572
赤銅	-12.0573
我今略說	-12.0573
右壓左	-12.0575
眼睛	-12.0576
是一法印	-12.0578
破根生	-12.058
䓛	-12.0583
於諸法中	-12.0584
皆悉消滅	-12.0587
永絕	-12.0588
火鑪	-12.0588
帝釋天主	-12.0591
能見所見	-12.0594
衲	-12.0598
大指押	-12.061
中指中節	-12.0622
照燭	-12.0622
合掌當心	-12.064
麼努娑	-12.0661
七金山	-12.0671
諦聽諦聽	-12.0689
属	-12.0701
佛說一切如來真實攝大乘現證	-12.0705
即空假中	-12.0706
巳滅生滅而於寂滅精妙未圓	-12.0707
三耶三菩	-12.0713
見眚非病	-12.0716
虛空藏菩薩摩訶薩	-12.0716
空見不分	-12.0716
無而忽有	-12.0718
訂	-12.0718
曩莫三曼多	-12.0718
單複十二	-12.0718
不空羂索神變真言經卷第	-12.0719
起計度者	-12.072
當處發生	-12.072
過現未來	-12.0721
牛呞	-12.0721
少光天	-12.0722
惟心所現	-12.0723
三滿跢	-12.0723
慢過慢	-12.0723
綱紐	-12.0725
去無所至	-12.0725
慜	-12.0725
殷重	-12.0725
六根門頭	-12.0726
覺見即眚	-12.0726
煬	-12.0726
怡	-12.0727
若作聖解即受羣邪	-12.0727
不動周圓	-12.073
后妃	-12.073
毗俱胝	-12.073
講錄	-12.073
漠	-12.073
儔	-12.073
依正二報	-12.0731
搯	-12.0731
必無所知	-12.0732
料簡	-12.0732
發露懺悔	-12.0732
良醫	-12.0732
盂	-12.0733
摩里支菩薩	-12.0733
瓦石	-12.0733
諧	-12.0734
膳	-12.0735
揵	-12.0735
屍陀林	-12.0736
天上人間	-12.0736
百官	-12.0737
閼伽瓶	-12.0738
廣狹	-12.0739
彥	-12.0741
流淚	-12.0742
非不自然	-12.0742
讒賊	-12.0743
乞士	-12.0743
街	-12.0746
百千那由他	-12.075
雙泯	-12.0755
拄杖	-12.076
墮惡道	-12.0774
怛㘕	-12.078
大人相	-12.0801
右手掌	-12.0816
光遍照	-12.0825
左手掌	-12.0832
包含	-12.0838
賛	-12.0851
延年	-12.0853
面向北	-12.0853
bha	-12.087
dha	-12.0871
ha	-12.0871
韋	-12.0873
塲	-12.0879
漫茶羅	-12.0881
爾時世尊欲重宣此義	-12.0881
抨	-12.0883
勝妙現圓	-12.0885
彼善男子修三摩提	-12.0885
一時薄伽梵	-12.0885
慧覺圓通	-12.0885
等覺後心	-12.0885
奮怒	-12.0885
兩足尊	-12.0886
娶	-12.0887
成七寶色	-12.0888
解結因次第	-12.0889
里弭里	-12.0889
潬	-12.0889
今正是時	-12.089
陳列灌頂	-12.089
禦	-12.0892
地行羅剎	-12.0892
整衣服	-12.0892
內含寶月	-12.0893
陪	-12.0893
吉慶	-12.0895
書寫此呪	-12.0895
將罷法座	-12.0897
見所緣眚	-12.0897
無熱天	-12.0897
賖	-12.0898
屣	-12.0898
辜	-12.0899
詭	-12.0899
何因有妄	-12.0899
鼻香為緣	-12.0899
佛告大王	-12.0899
鄭	-12.09
朵	-12.09
存想固形	-12.09
汝何所見	-12.09
輪王佛頂	-12.09
旅	-12.09
覔	-12.09
眾私同分	-12.09
監	-12.0902
惺	-12.0902
覲	-12.0902
佛母大孔雀明王	-12.0903
自然非物	-12.0904
瞪目	-12.0904
金銀銅	-12.0906
稜	-12.0906
糞穢	-12.0906
佛告富樓那	-12.0907
誦真言一遍	-12.0907
塚間	-12.0909
清凉	-12.0909
皆得消滅	-12.0913
舍宅	-12.0914
棓	-12.0916
南西北方	-12.0932
並二大指	-12.0936
覆蔽	-12.0941
魍魎鬼	-12.0964
他化自在	-12.098
而不自覺	-12.0984
什婆	-12.0992
金翅鳥王	-12.0997
三千戶賜紫贈司空諡大鑒正號大廣智	-12.1036
右脇	-12.105
却住一面	-12.105
及諸群塞	-12.1051
爾時世尊大毘盧遮那如來	-12.1053
􂨞	-12.1054
安樂妙常	-12.1054
為非同異	-12.1056
滅妄名真	-12.1058
異性入同	-12.1059
身觸為緣	-12.1059
正等無異	-12.106
如是十種禪那	-12.1061
壞其可壞	-12.1062
受佛氣分	-12.1062
金剛王寶覺	-12.1064
若非見者	-12.1066
若不爾者	-12.1066
塗拭	-12.1066
執心不起	-12.1067
如我此說	-12.1067
末伽黎	-12.1067
𠼐	-12.1068
常自思惟	-12.1068
戶牖開豁	-12.107
蘇嚕蘇嚕	-12.1071
不真何待	-12.1071
鴦	-12.1072
陋	-12.1072
航	-12.1072
發業潤生	-12.1073
獲本妙心	-12.1073
癬	-12.1074
地哩地哩	-12.1074
右手揚掌	-12.1075
惶	-12.1075
姤	-12.1075
日月星辰	-12.1075
中道第一義諦	-12.1076
遷移	-12.1076
云何成見	-12.1076
罄	-12.1076
囉剎娑	-12.1076
疆	-12.1077
二無名指二小指	-12.1079
價直	-12.1081
釐	-12.1083
柔順	-12.1085
臡	-12.1086
飛鳥	-12.1086
薩嚩怛他誐哆	-12.1086
)。(􂨮	-12.1088
短呼	-12.1092
路枳諦濕	-12.1093
黃檗	-12.1094
圍陀	-12.1097
儗𩕳	-12.1107
坐蓮華座	-12.1121
毘庾	-12.1125
牢固	-12.1129
ni	-12.1187
乂	-12.1218
塔廟	-12.1221
跋闍囉	-12.1225
周圍	-12.1226
我讚禮	-12.1227
不相妨礙	-12.123
㨖	-12.123
孫陀羅難陀	-12.1231
前正議大夫同中書門下平章事	-12.1231
師子奮迅	-12.1232
十方如來一門超出妙莊嚴路	-12.1232
爾今聲不	-12.1235
合掌恭敬而白佛言	-12.1235
本來無有世界眾生	-12.1235
𠿒	-12.1235
汝暫舉心	-12.1236
心光發宣	-12.1236
佛頂光聚	-12.1237
撓	-12.1238
犍	-12.1239
不於根出	-12.1239
未與如來法流水接	-12.1239
五十五位真菩提路	-12.1239
羯羅藍	-12.124
人法二執	-12.124
故不名見	-12.124
有所非覺	-12.1241
情想合離	-12.1241
說是語已	-12.1241
似現前境	-12.1242
常住真心性淨明體	-12.1242
罐	-12.1242
生相無明	-12.1242
旅亭	-12.1242
永無魔事	-12.1242
元依一精明	-12.1242
揣	-12.1243
胎因情有	-12.1244
三摩鉢提	-12.1244
奴婢	-12.1244
輕賤	-12.1245
怯弱	-12.1245
捨身受身	-12.1246
綰巾	-12.1248
耳聲為緣	-12.1248
亮	-12.1248
又汝心中	-12.1248
二無所目	-12.1249
能緣之心	-12.1249
繒綵	-12.125
數取趣	-12.125
觀其音聲	-12.1251
帝網無盡	-12.1251
唯是一心	-12.1251
蒱	-12.1251
後得智	-12.1252
迸	-12.1252
金剛密跡主菩薩	-12.1252
無所非明	-12.1252
所住之處	-12.1252
遷流不住	-12.1253
捺麻	-12.1254
鬢	-12.1254
廢忘	-12.1255
智者大師	-12.1256
遁	-12.1256
面向東坐	-12.1257
博叉	-12.1257
字形現	-12.1261
三界九地	-12.1262
牛羊	-12.1263
世界眾生業果	-12.1264
)。(▽	-12.1266
跋馹囉	-12.1268
檻	-12.127
嘻	-12.1272
是非是義	-12.1279
乾坤	-12.1279
檗	-12.128
捻無名指	-12.1292
有定處	-12.1312
左手大指	-12.1361
和雅	-12.1373
為魔所	-12.1382
▁|△	-12.1397
世間無知惑為因緣及自然性	-12.1403
光祿卿明教大師臣法賢奉詔譯	-12.1404
圓定發明三摩地中	-12.1406
皰	-12.1406
雲如來南無婆伽婆帝	-12.1409
知見立知即無明本	-12.141
縱經塵劫	-12.1412
與明和	-12.1412
結色成根	-12.1414
見病為影	-12.1414
真性有為空	-12.1414
妙修行路	-12.1414
全性起修	-12.1416
頭本自然	-12.1416
受命元由	-12.1416
隘	-12.1416
因異立同	-12.1416
流變三疊	-12.1417
不可說不可說	-12.1417
囄	-12.1417
掖	-12.1417
無漏真淨	-12.1417
麼多木佉跛哩嚩	-12.1417
發菩薩願	-12.1418
千百億	-12.1418
應不俱聞	-12.1418
谿	-12.1418
兜羅綿	-12.1419
覺所覺眚	-12.1419
四衢道	-12.142
犖	-12.142
炷	-12.1421
舌味為緣	-12.1421
非生非滅	-12.1421
枷	-12.1422
見無舒卷	-12.1422
一字佛頂輪王	-12.1422
頭破作七分	-12.1422
元是何物	-12.1423
晃耀	-12.1423
說偈讚佛	-12.1423
不應說言	-12.1424
曩謨三滿多沒馱南	-12.1424
作諸事業	-12.1424
四威儀中	-12.1424
心猶未開	-12.1425
駐	-12.1425
魂魄	-12.1425
鄰虗塵	-12.1426
婆沙論	-12.1428
建姹	-12.1429
此方之機	-12.143
歡喜畢具	-12.143
須臾間	-12.143
墓	-12.1431
吠灑䭾	-12.1432
聳	-12.1432
悉哩悉哩	-12.1434
多囉多囉	-12.1434
昝	-12.1434
槃特	-12.1435
發大心	-12.1435
稱彼人名	-12.1436
左攞左攞	-12.1438
勳	-12.1438
啼哭	-12.144
一心奉請	-12.1442
西南隅	-12.1442
蘇婆呼童子	-12.1445
陽焰	-12.1447
芸	-12.1451
無盡意菩薩	-12.1462
菴摩羅識	-12.1484
䟦陀	-12.1496
困苦	-12.1536
邊滅之	-12.1554
藏師子座海雲	-12.1568
即般若事業	-12.1579
脚踏	-12.1581
突然而出	-12.1587
俱陷王難	-12.1589
既不見明	-12.1591
與大比丘眾	-12.1592
經恒沙劫	-12.1593
十方如來清淨海眼	-12.1593
光極知見	-12.1594
旋見循元	-12.1595
陀那微細識	-12.1595
䑛	-12.1595
此實見見	-12.1596
異彼所異	-12.1596
如旋火輪	-12.1597
號性顛倒	-12.1597
戲笑	-12.1598
狠	-12.1598
必落魔道	-12.1598
以動為身	-12.1599
同性亦滅	-12.1599
將呪往護	-12.1599
精神化為土木金石	-12.16
珊瑚	-12.16
作何形相	-12.16
何預於汝	-12.1601
我今問汝	-12.1601
枯槁	-12.1601
非幻成幻法	-12.1602
生因識有	-12.1603
迴佛慈光	-12.1603
歸來佛所	-12.1603
一人專忘	-12.1604
若悟菩提	-12.1604
因明發性	-12.1604
如佛所言	-12.1605
不明自發	-12.1605
狸	-12.1605
東北隅	-12.1606
於夜分	-12.1606
感應道交	-12.1606
見明色發	-12.1606
寶明妙性	-12.1607
一入六淨	-12.1607
収	-12.1608
照而常寂	-12.1608
悉地王真言	-12.1609
秫馱	-12.161
牢獄	-12.161
堆	-12.161
黑月八日	-12.1611
如是迷因	-12.1611
韶	-12.1613
化樂天	-12.1613
居身內	-12.1613
如夢幻	-12.1615
賽	-12.1616
四科七大	-12.1616
以定慧手	-12.1617
膿	-12.1617
曩謨婆誐嚩帝	-12.1618
群臣	-12.1619
娜莫縒曼嚲	-12.162
椎	-12.1621
天台止觀	-12.1621
破境生	-12.1629
圭	-12.1633
牙齒	-12.1634
詫	-12.1641
捻頭指	-12.1671
觀彼幽清	-12.1701
佛告文殊師利	-12.1711
菴摩羅	-12.1712
字門解一切法	-12.1748
是般若業	-12.1751
窹	-12.1754
倣	-12.1756
薩怛他伽都瑟尼釤	-12.1761
麄	-12.1765
法界量滅	-12.1774
字為真言體	-12.1775
保持覆護成無上道	-12.1778
婬怒癡	-12.1779
當業輪轉	-12.1779
自相渾濁	-12.1779
言妄顯諸真	-12.178
重發真妙	-12.178
本妙覺心	-12.1781
此根初解先得人空	-12.1781
得法眼淨	-12.1781
來詣佛所	-12.1781
我教比丘	-12.1782
遶佛三匝	-12.1782
及自然性	-12.1782
明相精純	-12.1783
真勝義性	-12.1783
是人即獲無生法忍	-12.1784
將毀戒體	-12.1784
入於如來妙莊嚴海	-12.1784
表以成人	-12.1784
因緣所生法	-12.1785
覺明空昧	-12.1785
堅明立礙	-12.1786
若見是物	-12.1787
從妄見生	-12.1787
生滅與不生滅	-12.1788
我法二執	-12.1788
覺不生迷	-12.1788
云何不成無上知覺	-12.1789
災祥	-12.1789
眾生頑迷	-12.1789
枷鎻	-12.1789
此大講堂	-12.1789
不即不離	-12.179
一切事究竟堅固	-12.179
二障所纏	-12.179
佛體真實	-12.179
梵夾	-12.179
誰當其根	-12.1791
不從空來	-12.1791
云何立界	-12.1791
城隍	-12.1792
隨處滅盡	-12.1792
振鈴	-12.1795
膾	-12.1795
饑饉	-12.1795
同上呼一	-12.1797
鵝	-12.1798
如汝文殊	-12.1799
猿	-12.1799
呪咀	-12.18
違害鬼	-12.1801
耨佉	-12.1804
毘舍闍	-12.1804
埽	-12.1807
緊那囉	-12.1808
魔波旬	-12.181
稻穀華	-12.181
【△	-12.1817
彈舌呼	-12.1818
􂦡	-12.1826
為欲利益	-12.1855
佛告舍利弗	-12.1941
選耳根	-12.1947
毒虫	-12.1955
六湛圓明	-12.1961
發阿耨多羅三藐三菩提心	-12.1962
譚	-12.1967
大遍照金剛如來	-12.1968
我憶往昔	-12.1969
因此復立無同無異	-12.197
無為無起滅	-12.197
妄真同二妄	-12.197
刳正性	-12.1971
彼六知根一時清淨	-12.1972
渤	-12.1972
去住自由	-12.1973
妙觸宣明	-12.1973
善得中道	-12.1973
五疊渾濁	-12.1973
妙明元心	-12.1974
捶	-12.1974
咸是妙明真心中物	-12.1974
妙觀察智	-12.1974
綏	-12.1974
白骨微塵	-12.1974
因緣別離	-12.1974
無量淨天	-12.1975
非有想非無想	-12.1975
驀	-12.1976
寒氷	-12.1976
無非不非	-12.1976
筭	-12.1976
因色顯發	-12.1976
滅從色除	-12.1977
心佛二同	-12.1978
殫	-12.1978
嚨	-12.1978
見色陰銷	-12.1978
同業相纏	-12.1979
念念遷謝	-12.198
蠶	-12.198
蚊虻	-12.198
正修行處	-12.1981
銷滅諸漏	-12.1981
寂滅場地	-12.1981
燒香散華	-12.1981
各從其類	-12.1981
六根成解脫	-12.1981
竭汦	-12.1981
名發心住	-12.1981
徤	-12.1982
矛	-12.1982
二分文各破	-12.1983
損減	-12.1984
溟	-12.1984
八功德水	-12.1984
大威怒王	-12.1984
當處出生	-12.1985
淨極光通達	-12.1985
狗牙上出	-12.1986
跨	-12.1987
騫	-12.1987
嘮捺囉	-12.1988
劉	-12.199
塑	-12.199
囉濕弭	-12.1991
作說法相	-12.1992
燒焯	-12.1992
屈在掌中	-12.1992
軌範	-12.1992
滲	-12.1994
稻穀花	-12.1996
成業性	-12.1997
彥達嚩女	-12.1999
勇猛精進	-12.2002
𡃝	-12.2003
跋涅	-12.2007
慎勿	-12.2014
驅役	-12.2016
之餘習也	-12.2029
手作施願	-12.2076
佛之威神	-12.208
竭多目呿波利簸梨	-12.2133
j	-12.2145
nā	-12.2146
說此自部	-12.2147
如應觀想	-12.2154
族姓男族姓女	-12.2156
如觀掌果	-12.2159
若從根出	-12.216
法喻不齊	-12.216
靜成虗空	-12.216
杌	-12.216
在在處處	-12.2161
諸類不召	-12.2161
貪求善巧	-12.2161
無問自說	-12.2162
心猶未明	-12.2162
妙精明心	-12.2163
伊首羅天	-12.2163
有空無體	-12.2163
虗妄病緣	-12.2164
旋元自歸	-12.2164
現塵現界	-12.2164
由我不自觀音	-12.2164
芭蕉	-12.2165
心外無法	-12.2165
汝應諦聽	-12.2166
沮壞	-12.2166
泐潭	-12.2167
覺通如來	-12.2167
非空非有	-12.2167
噫	-12.2168
神鬼精靈	-12.2168
盡真如際	-12.2168
若一體者	-12.2168
覺了能知之心	-12.2168
皆現其中	-12.2168
獲二殊勝	-12.2168
坤	-12.2169
聽不出聲	-12.2169
去佛不遠	-12.217
敦	-12.217
浣	-12.217
波濤	-12.2171
翫	-12.2171
同業相感	-12.2171
因了發相	-12.2171
及其眷屬	-12.2172
緇	-12.2173
涼	-12.2173
覺海性澄圓	-12.2173
成智慧火	-12.2174
有無二無	-12.2174
乾有其慧	-12.2174
滅受想定	-12.2174
蘿蔔	-12.2174
隨拔一根	-12.2175
汝負我命	-12.2175
珍羞	-12.2176
流急不見	-12.2176
叢	-12.2177
聚見於眼	-12.2177
莎婆訶	-12.2178
糅	-12.2179
如是作已	-12.2179
優鉢羅花	-12.2179
跳	-12.218
顛狂	-12.218
動少靜多	-12.218
五分法身	-12.218
摩護囉誐	-12.2181
濯	-12.2182
度曩度曩	-12.2182
澇	-12.2182
一超直入	-12.2182
此名為結	-12.2183
嚕地囉	-12.2183
粟散	-12.2183
直指人心	-12.2184
瓷	-12.2187
大佛頂首楞嚴經疏解蒙鈔卷第	-12.2187
忒	-12.2187
羯𪘨	-12.2188
羶	-12.2188
麝香	-12.2188
撒	-12.2195
四禪四空	-12.2195
酪飯	-12.2289
怕怖	-12.2313
瑟恥	-12.2338
嗢陀南	-12.2349
汝當先覺不入輪迴迷惑不知墮無間獄	-12.2349
無狀異生	-12.2351
㲉	-12.2352
如來密因修證了義	-12.2352
因妄有生	-12.2353
初於聞中入流亡所	-12.2353
知見無見斯即涅槃	-12.2354
如水成氷	-12.2354
昆	-12.2355
謐	-12.2356
裨	-12.2357
欲身自在	-12.2358
糓	-12.2358
廻	-12.2358
入如來種	-12.2358
贍	-12.2358
忽然超越世出世間	-12.2359
蛤	-12.2359
由結此印及誦真言	-12.236
如汝所明	-12.2361
圓妙開敷	-12.2361
逈無所有	-12.2361
性空真水	-12.2362
有見無覺	-12.2362
覺湛明性	-12.2362
焦腑	-12.2362
願我等及諸有情	-12.2362
無去無來	-12.2362
我真文殊	-12.2363
而於寂滅	-12.2363
見不超色	-12.2363
閡	-12.2363
貧賤	-12.2363
本元由處	-12.2363
執心虗明	-12.2363
發兵討除	-12.2364
聆	-12.2364
各命由緒	-12.2364
彼太虗空	-12.2364
妙色密圓	-12.2364
因空生搖	-12.2365
十種異生	-12.2365
薄蝕	-12.2365
憍陳如	-12.2366
非一非異	-12.2366
蝮	-12.2366
明妄非他	-12.2367
薩㗚嚩	-12.2367
耳往聲處	-12.2367
香嚴童子	-12.2367
聲有亦非生	-12.2367
鴉	-12.2368
是諸人等	-12.2368
明見想成	-12.2368
風金相摩	-12.2369
如幽室見	-12.2369
念念受熏	-12.2369
離合俱非	-12.2369
化以離應	-12.237
而演說之	-12.2371
𡃤	-12.2372
陂	-12.2372
不如此說	-12.2372
氈	-12.2373
書寫讀誦	-12.2373
筵	-12.2373
貢高	-12.2373
怖懼	-12.2374
擒	-12.2374
發真歸元	-12.2375
薩迦耶	-12.2375
厨	-12.2375
斫羯囉	-12.2376
峻	-12.2376
嬈亂	-12.2378
敲	-12.2378
嚩路枳帝	-12.2379
屈中節	-12.2381
絺	-12.2386
謾	-12.2387
例此可知	-12.2387
釣	-12.2388
男子女人	-12.2389
虎嚕虎嚕	-12.2391
宣說諸部	-12.2412
荷葉	-12.2423
那落迦	-12.2529
刼	-12.2543
如上是為諸部	-12.2546
物非體知	-12.2547
擁	-12.2548
業火燒乾	-12.255
洹	-12.2551
五體同放寶光	-12.2551
化為澄水	-12.2553
未全道力	-12.2554
不和諸色	-12.2555
音響雙絕	-12.2555
不空羂索心王	-12.2555
尚不名一	-12.2555
從麤至細	-12.2556
相待生勞	-12.2557
壽命長遠	-12.2557
勞久發塵	-12.2557
毀經像	-12.2558
能入菩薩金剛乾慧	-12.2559
內脫身心	-12.2559
蔑	-12.2559
迦陵頻伽	-12.2559
阿毗達磨	-12.2559
特進試鴻臚卿	-12.256
二陳白之言	-12.256
不改前印	-12.256
明極即如來	-12.2561
三分闕一	-12.2561
塞其兩孔	-12.2561
成所作智	-12.2561
尚紆疑悔	-12.2561
二轉依號	-12.2561
應不見塞	-12.2562
自然非彼不見之相	-12.2562
求長命者	-12.2562
除器觀空	-12.2562
利彌利	-12.2562
金剛喻定	-12.2562
淩	-12.2562
前塵自暗	-12.2562
皓	-12.2563
明理不踰	-12.2563
然後圓成果地修證	-12.2563
媛	-12.2564
漚滅空本無	-12.2564
非真求復	-12.2565
神光內凝	-12.2565
退藏密機	-12.2565
婇女	-12.2566
單複	-12.2566
即受群邪	-12.2566
何當復生	-12.2567
善超諸有	-12.2567
竈	-12.2567
為他解說	-12.2567
精覺妙明	-12.2567
舒結倫次	-12.2568
則土出時	-12.2568
形雖出動	-12.2568
自語相違	-12.2568
褥	-12.2569
聲分別心	-12.2569
燒眾名香	-12.2569
起滅無從	-12.2569
識陰若盡	-12.257
鵠	-12.257
愕	-12.257
滅生俱盡	-12.2571
結暗為色	-12.2571
疲勞	-12.2572
征	-12.2572
僉	-12.2573
言三即一	-12.2574
離眾生相	-12.2574
一日一夜不食	-12.2574
鐵圍山	-12.2574
芒	-12.2576
孚	-12.2576
怨讎	-12.2576
𠸪乞灑	-12.2576
抗	-12.2577
􂤂	-12.2578
知見旋復	-12.2578
龕	-12.258
剚	-12.2582
罏	-12.2582
性非生滅	-12.2583
緊那囉女	-12.2583
穆乞义	-12.2583
以真方便	-12.2583
禳	-12.2586
蠅	-12.2587
捲	-12.2587
埃	-12.2589
鮮潔	-12.2594
躓	-12.2596
涯量	-12.2602
誦本真言	-12.2639
有陀羅尼名	-12.2695
大指來去	-12.2697
讚言善哉善哉	-12.2712
布囉迦	-12.2723
頭指直竪	-12.2737
非想非非想	-12.2743
訖唎檐	-12.2744
ḍ	-12.2745
hi	-12.2746
俱滅俱生	-12.2747
ka	-12.2747
一切世界微塵等如來身	-12.2748
西天譯經三藏朝奉大夫試光祿卿	-12.275
圭峯	-12.2752
於汝意云何	-12.2752
又善男子受陰虗妙不遭邪慮圓定發明	-12.2753
訐露人事	-12.2755
咲	-12.2756
知無知執	-12.2757
瑜祇	-12.2758
阿難大眾俱白佛言	-12.2759
色實在燈	-12.276
曼茶囉	-12.276
觀自在王如來	-12.2761
習漏未除	-12.2761
如所如說	-12.2761
抖擻	-12.2761
面各三目	-12.2762
一倍瞻視	-12.2762
從體起用	-12.2762
當見山河	-12.2762
外遺世界	-12.2762
疇	-12.2762
儻	-12.2764
順逆皆方便	-12.2765
猶未亡一	-12.2765
勝解現圓	-12.2765
脫黏內伏	-12.2766
想愛同結	-12.2766
無狀忽生	-12.2766
蜺	-12.2767
交妄發生	-12.2767
窮空不歸	-12.2768
若於先心	-12.2768
性入元澄	-12.2768
以世涉方	-12.2769
本此無住	-12.2769
盲人矚暗	-12.2769
有大勢力	-12.2769
謂言登聖	-12.2769
緝	-12.277
不苦不樂	-12.277
樞穴	-12.277
先德云	-12.2771
必隷多	-12.2771
知見妄發	-12.2772
心行處滅	-12.2772
惰	-12.2772
說妄因緣	-12.2772
宮掖	-12.2772
吾不見時	-12.2773
為是眾生妄習生起	-12.2773
況復諸三有	-12.2773
佳	-12.2774
暗成無見	-12.2774
定慧均等	-12.2774
羊死為人	-12.2774
識從聲生	-12.2775
腭	-12.2775
雷雹	-12.2775
机	-12.2776
因次第盡	-12.2776
伏歸元真	-12.2777
精行仙	-12.2777
守於真常	-12.2777
庇	-12.2777
三股金剛杵	-12.2777
携	-12.2778
鑊湯	-12.278
體真止	-12.278
應拔圓脫	-12.2781
磋	-12.2781
󰹺	-12.2781
􂪔	-12.2782
迦攞迦攞	-12.2783
糜	-12.2784
跛囉跛囉	-12.2784
鑌鐵	-12.2786
虎狼師子	-12.279
是見非見	-12.2794
賦	-12.2795
天童頌云	-12.2801
顒	-12.2802
稽首白佛	-12.2804
手執香爐	-12.2882
吾當為汝	-12.2896
說是大明	-12.2921
從是三摩地出已	-12.2956
踈	-12.2962
應供正等正覺	-12.2964
而求佛乘不生不滅	-12.2965
名為初伏客塵煩惱	-12.2966
汝元不知如來藏中	-12.2966
如來應供正遍知	-12.2966
因所因執	-12.2967
逢此現前	-12.2967
物能見我	-12.2968
淤泥	-12.2969
名為永斷根本無明	-12.2969
生無生執	-12.2969
三股杵	-12.297
潛伏根裏	-12.297
以佛神力	-12.2971
四徧常論	-12.2971
轉蛻飛行	-12.2971
還味旋知	-12.2971
􂨤	-12.2972
足不離地	-12.2972
天大將軍	-12.2973
惶怖	-12.2974
真發明性	-12.2974
東南隅	-12.2974
流愛為種	-12.2975
依真起妄	-12.2975
性火真空	-12.2975
一分常論	-12.2976
摩伽陀國	-12.2976
兼目與勞	-12.2976
詣何為界	-12.2976
薰陸	-12.2976
毗羅胝	-12.2976
溥遍心印真言	-12.2977
廼	-12.2978
十方如來得成菩提	-12.2978
呰	-12.2978
鞘	-12.2978
青木香	-12.2978
聞復翳根除	-12.2979
於一念中	-12.2979
以人食羊	-12.2979
陶鑄無礙	-12.298
輟	-12.298
火性無我	-12.298
繖	-12.2981
造諸惡業	-12.2982
剉	-12.2982
碍	-12.2982
將欲復真	-12.2983
熒	-12.2983
并所想相	-12.2984
攢	-12.2985
周而復始	-12.2985
痢	-12.2986
因聲有色	-12.2986
一真如心	-12.2988
雕	-12.2988
稼	-12.2989
剔	-12.299
淹	-12.299
楷	-12.299
咥	-12.299
漬	-12.299
內守幽閑	-12.2991
􂡠	-12.2992
白膠香	-12.2992
纓絡	-12.2993
齧	-12.2994
𡄦	-12.2995
晡	-12.2995
覺清淨心	-12.3068
生大歡喜	-12.3105
薀	-12.3159
𥧌	-12.3163
na	-12.3167
不與暗合	-12.3169
霾	-12.317
如理而住	-12.3171
誠實言	-12.3172
佛頂如來密因脩證了義諸菩薩萬行首	-12.3174
能非能執	-12.3177
廣大明王央俱捨真言	-12.3177
噬	-12.318
巳獲其同	-12.318
自體相破	-12.3181
聲名句文	-12.3181
作是語巳五體投地	-12.3183
滅除度相	-12.3183
一十百千	-12.3183
心額喉頂	-12.3183
消磨六門	-12.3183
冀佛冥授	-12.3185
崛	-12.3185
性非眚者	-12.3186
如母憶子	-12.3186
死從變流	-12.3187
如淨瑠璃	-12.3187
阿庾多	-12.3188
火所燒	-12.3188
無因無果	-12.3189
性妄見生	-12.3189
四大不織	-12.319
蚊	-12.319
底瑟咤	-12.3191
蹤	-12.3192
三日三夜	-12.3193
我還汝債	-12.3193
吒枳迦羅	-12.3193
胤	-12.3193
不汝還者	-12.3193
宛成非相	-12.3193
荊棘	-12.3193
從假入空	-12.3193
右旋三匝	-12.3194
望如恬靜	-12.3194
拆	-12.3194
餌	-12.3195
乘此心開	-12.3195
四天大王	-12.3196
合離成化	-12.3197
脹	-12.3197
慠	-12.3197
獨行無交	-12.3197
半分微細	-12.3197
無狀狂走	-12.3197
耐	-12.3199
零陵	-12.3199
莎呵誦呪三遍	-12.32
碾	-12.3202
從迷積迷	-12.3203
瞑	-12.3204
釁	-12.3205
彼慶也	-12.3206
誰為搖動	-12.3207
巷	-12.3207
評	-12.3207
㧙	-12.3208
馨	-12.3208
)。(􂗰	-12.3208
􂌞	-12.3208
豺狼	-12.3208
啝	-12.321
酌	-12.3211
為無文殊	-12.3212
𠕀	-12.3217
浦	-12.3226
大興善寺	-12.3372
pa	-12.3384
成敵兩立	-12.3387
獎	-12.339
成就祕密教理	-12.3392
諸相入非	-12.3393
妙德瑩然	-12.3393
發聞居中	-12.3393
除一切蓋障	-12.3395
二隨計牒破	-12.3396
人及非人	-12.3396
緜	-12.3397
貪求契合	-12.3398
水勢劣火	-12.3398
非心非空	-12.3399
皆住本國	-12.3399
感應懸絕	-12.34
我以不滅不生合如來藏	-12.34
貪非貪執	-12.34
明了其家所歸道路	-12.3401
躄	-12.3401
唥	-12.3401
物亦見汝	-12.3401
魔醯首羅	-12.3402
貪求宿命	-12.3402
靜深不動	-12.3402
作將來眼	-12.3402
汝今諦聽當為汝說	-12.3403
開權顯實	-12.3403
旋令覺知	-12.3403
見精映色	-12.3403
勸弘宣	-12.3404
歸無歸執	-12.3404
滔	-12.3404
疙	-12.3405
流不及地	-12.3405
輔行云	-12.3405
經微塵劫	-12.3405
優婆塞優婆夷	-12.3405
四有邊論	-12.3405
以湛旋其虗妄滅生	-12.3405
雖憶何為	-12.3406
無可憑據	-12.3406
戒禁取	-12.3406
赩	-12.3406
增上妙理	-12.3407
曾無覺悟	-12.3407
相待成搖	-12.3407
印成無學	-12.3407
晃曜	-12.3407
六解一亦亡	-12.3408
姿	-12.3408
琴瑟	-12.3408
若空來者	-12.3408
惹野惹野	-12.3408
新新不住	-12.3409
嚮	-12.3409
方便有多門	-12.3409
三婆吠	-12.3409
向佛安住	-12.3409
架	-12.341
妙見圓澄	-12.341
隨染緣	-12.3411
璞	-12.3411
爰	-12.3411
盼	-12.3411
妃后	-12.3412
澁滑	-12.3412
寱	-12.3412
鎚	-12.3412
藕	-12.3413
緣見因明	-12.3413
踰膳那	-12.3414
徵心辨見	-12.3414
十種深喻	-12.3415
見聞如幻翳	-12.3416
神龍元年	-12.3417
鞠	-12.3418
以滅窮研	-12.3419
覿	-12.342
至第七日	-12.342
桂	-12.342
瀝	-12.3421
唬	-12.3421
㮈	-12.3422
嘚	-12.3423
凡外權小	-12.3424
雷電	-12.3426
挂	-12.343
蜀	-12.343
疫癘	-12.3442
生生死死	-12.3453
不可名無	-12.3474
胡麻油	-12.3602
ebhyaḥ	-12.3606
周帀	-12.3609
昬	-12.361
。(○〔	-12.3613
俱胝那庾多百千	-12.3613
識動見澄	-12.3614
日照則明	-12.3615
承佛聖旨	-12.3617
顯於離知	-12.3617
十方一切剎土	-12.3618
除去毒蜜	-12.3618
身知有觸	-12.3618
緣生故如幻	-12.3619
貪求經歷	-12.3619
從何名解	-12.362
百六十心	-12.362
能取所取	-12.362
訐	-12.362
莂	-12.3622
物不觸知	-12.3622
竄	-12.3622
大妄語成墮無間獄	-12.3623
若我滅後	-12.3624
茫	-12.3624
交光相羅	-12.3626
十方薄伽梵一路涅槃門	-12.3626
有利根者	-12.3627
本頭不失	-12.3627
性空真火	-12.3628
無有遺餘	-12.3628
何不自聞聞	-12.3628
熙怡微笑	-12.3628
昔本無迷	-12.3629
發大誓願	-12.3629
反妄歸真	-12.3629
作頻那夜迦天像	-12.3629
持國天王	-12.3629
怖頭狂走	-12.363
俱來集會百千	-12.363
霜雹	-12.363
邪師說法	-12.3631
互來相噉	-12.3631
拱	-12.3631
生成法則	-12.3632
名信心住	-12.3632
踵	-12.3632
槍	-12.3633
涸	-12.3633
嬰兒	-12.3633
屈五輪指	-12.3633
觀聽旋復	-12.3633
濕以合感	-12.3633
失彼精了	-12.3633
救護親因	-12.3633
所去隨願	-12.3633
豫	-12.3633
受氣猛火	-12.3634
覺觀出思惟	-12.3634
阿迦尼吒天	-12.3634
從何立界	-12.3635
釆	-12.3635
吁	-12.3635
如是皆以三增進故	-12.3635
佷	-12.3635
如急流水	-12.3636
炮	-12.3636
字之誤	-12.3637
彷彿	-12.3638
室羅筏城	-12.3638
是一印呪名如來	-12.3639
纂註	-12.364
諸供養具	-12.3641
皂	-12.3641
滅身歸無	-12.3642
祇桓	-12.3643
發成精行	-12.3644
戚	-12.3645
馹	-12.3645
牝	-12.3647
二萬一千	-12.3649
梢	-12.3656
囉的捺	-12.3661
蕭	-12.3664
翠	-12.3668
稱我名	-12.3699
𡨋	-12.3826
告金剛手言	-12.3828
ṭ	-12.3833
自身語心業	-12.3839
艮	-12.3839
我初出家	-12.384
突瑟吒質多	-12.384
當處出生隨處滅盡	-12.3841
有三摩提名大佛頂首楞嚴王具足萬行	-12.3841
由是引起塵勞煩惱	-12.3843
非離身心	-12.3843
合開成就	-12.3843
均名七大	-12.3844
其人見故	-12.3844
瑟耻	-12.3845
有竅則明	-12.3845
皆由不知常住真心性淨明體	-12.3846
褁	-12.3846
蜾	-12.3846
心地涉知	-12.3846
三白食	-12.3846
真言歸命如前	-12.3847
允所瞻仰	-12.3848
舍衛國祇樹給孤獨園	-12.3848
枉入諸趣	-12.3849
因色空有	-12.3849
啊	-12.385
七斷滅論	-12.385
諒	-12.385
闠	-12.385
因心成體	-12.385
不如一日修無漏業	-12.385
作無為解	-12.3851
乃至別成聲聞緣覺	-12.3851
大可畏明王央俱捨真言	-12.3852
交遘發生	-12.3852
妙湛總持不動尊	-12.3852
鹹淡甘辛	-12.3852
常非常執	-12.3852
云何於中有是非是	-12.3852
或帶身上	-12.3853
身真金色	-12.3853
甲長髮生	-12.3854
檐	-12.3854
妙香密圓	-12.3854
游戲	-12.3854
發真如用	-12.3854
同分生機	-12.3855
殄	-12.3855
寶明生潤	-12.3855
我雖識此見性無還	-12.3856
覺際入交	-12.3856
見十方空	-12.3856
俱為戲論	-12.3856
若逢不逢	-12.3857
如百千日	-12.3857
末伽梨	-12.3857
渚	-12.3857
惛	-12.3858
權實二智	-12.3858
有明明覺	-12.3858
畜聞成過	-12.3858
吟	-12.3858
分別我容	-12.3858
妙玄云	-12.3859
惑業苦三	-12.3859
在堂不見如來	-12.3859
遇風成形	-12.386
反流全一	-12.386
茹	-12.386
蒜	-12.3861
窮色性性	-12.3861
尠	-12.3861
栴陀羅	-12.3862
巍巍	-12.3863
銷落諸念	-12.3863
嚩曰羅	-12.3864
三白飲食	-12.3864
袖	-12.3864
不覺心動	-12.3866
摩訶迦嚧尼迦	-12.3866
曩莫三滿多沒馱	-12.3867
返窮流根	-12.3868
羯吒布單那	-12.3868
閭	-12.3869
淨福性生	-12.387
謹潔無犯	-12.387
鬼子母	-12.387
蛆	-12.3874
園苑	-12.3875
弭理弭理	-12.3875
熊	-12.3876
賺	-12.3877
其病即差	-12.3878
篩	-12.3883
𠹀	-12.3888
輿	-12.389
斡資哩	-12.3902
三滿多跋捺囉	-12.3941
毗陀耶闍瞋陀夜彌	-12.4062
薩怛多般怛囉	-12.4065
uru	-12.4065
鉾	-12.4075
眾塵隔越	-12.4075
周利槃特迦	-12.4079
磁	-12.408
牘	-12.408
體非羣相	-12.408
未敢認為本元心地	-12.408
相傾相奪	-12.4081
無痛痛覺	-12.4081
▁(△〔	-12.4081
晴明空	-12.4082
瞪以發勞	-12.4082
蹲踞	-12.4083
我又思惟	-12.4083
心重世名	-12.4083
理窮於是	-12.4083
心目為咎	-12.4083
顙	-12.4084
頹	-12.4084
蘊處界	-12.4084
世為遷流	-12.4085
真非真恐迷	-12.4085
真陀摩尼	-12.4085
魚鳥龜蛇	-12.4085
胡椒	-12.4085
如是見性是心非眼	-12.4086
悟諸色性	-12.4086
忽悟水因	-12.4086
妙信常住	-12.4086
覽塵斯憶	-12.4086
痾	-12.4087
心精遺聞	-12.4087
聞是語已	-12.4087
以方涉世	-12.4087
雜糅精瑩	-12.4087
端坐安居	-12.4087
各各自知心徧十方	-12.4088
發此十心	-12.4088
成無學道	-12.4088
承斯善利	-12.4088
從始至終	-12.4089
汝既見物	-12.4089
欲習初乾	-12.4089
福備眾生	-12.4089
乃至證得無上菩提	-12.4089
那拏天	-12.4089
轉識成智	-12.4089
迷不自識	-12.4089
芬馥	-12.409
苕	-12.409
因各各私	-12.4091
其人無故	-12.4091
見何虧損	-12.4091
籤	-12.4092
故受輪轉	-12.4093
息機歸寂	-12.4093
如存不存	-12.4093
所立照性亡	-12.4094
中所現物	-12.4094
聞性不昏	-12.4094
塚	-12.4094
前無新證	-12.4095
噓	-12.4095
遑	-12.4095
拯濟	-12.4095
阿顛迦	-12.4095
實行力故	-12.4096
惑汝真性	-12.4096
蹄	-12.4097
虛心合	-12.4097
慣	-12.4098
薩囉薩囉	-12.4098
聲唱言	-12.4099
憶忘如一	-12.41
我頭自動	-12.41
崑崙	-12.41
嗽	-12.4101
輞	-12.4101
本圓明妙	-12.4101
淆	-12.4101
悖	-12.4102
未盡形累	-12.4102
做	-12.4105
拓	-12.4108
身與觸	-12.4108
羯吒羯吒	-12.4109
尾枳囉	-12.411
呂	-12.4112
硯	-12.4116
正法念經	-12.4117
南謨薄伽	-12.4117
日初出時	-12.4138
以無所得為方便	-12.4303
三摩呬多	-12.431
擊久聲銷	-12.4314
云何是中更容他物	-12.4314
真得所如	-12.4317
樂見照明	-12.4317
後方全暗	-12.4318
精真洞然	-12.4318
告執金剛祕密主言	-12.4318
鐶	-12.4318
一見則通	-12.4319
無明又非覺湛明性	-12.4319
異質相成	-12.432
一顛迦	-12.432
得四諦空	-12.432
無復馳逸	-12.4321
織妄相成	-12.4321
威音王	-12.4321
非即非離	-12.4321
結為高山	-12.4321
宣勝義中真勝義性	-12.4321
心佛眾生三無差別	-12.4322
使汝流轉	-12.4322
遭枝岐	-12.4322
十方佛母陀羅尼呪	-12.4322
不縱不橫	-12.4324
總無明心	-12.4324
互為賓主	-12.4324
攬七寶几	-12.4324
納想為胎	-12.4324
界為方位	-12.4325
用餉他國	-12.4325
名覺知性	-12.4325
千里遠行	-12.4325
螟蛉	-12.4325
求我哀愍	-12.4325
皆獲一乘寂滅場地	-12.4325
斯則如來真三摩地	-12.4325
以蝦為目	-12.4325
土失留礙	-12.4325
識不知香	-12.4325
內懸明月	-12.4325
行盡識現	-12.4326
空色二無	-12.4326
荊溪云	-12.4326
目有赤眚	-12.4326
生從順習	-12.4327
認一浮漚	-12.4327
其心不偷	-12.4328
不漏落	-12.4328
識自為味	-12.4328
隨淨緣	-12.4328
頭相跓	-12.4328
空散銷沉	-12.4329
心目開明	-12.4329
失憶為忘	-12.4329
歸失故居	-12.4329
久離病緣	-12.4329
食馬麥	-12.4329
鉢納麼	-12.4329
勞倦則眠	-12.4329
若男若女	-12.433
汲	-12.433
歸元性無二	-12.433
一處成休復	-12.433
芬	-12.433
熏以成業	-12.4333
紜	-12.4333
若盡非盡	-12.4333
湛不搖	-12.4334
如鏡現像	-12.4334
性空真風	-12.4334
虗妄相想	-12.4334
蒲桃	-12.4335
蓄	-12.4336
元明照生所	-12.4336
妍	-12.4336
壽命延長	-12.4336
半拏囉嚩	-12.4337
澡罐	-12.4338
澹	-12.4338
圓光成音	-12.4338
猶為法塵分別影事	-12.4338
粹	-12.4339
寂照含虗空	-12.4341
綸	-12.4341
照行仙	-12.4341
嶺	-12.4347
紋	-12.4348
圈	-12.4349
見汝面	-12.435
緘	-12.435
􂟮	-12.4362
􂡿	-12.4368
力除毒	-12.4535
車夜揭囉訶	-12.4547
娑嚩二合引訶引	-12.4549
日月蝕時	-12.4552
皆是識心分別計度但有言說都無實義	-12.4554
并其眷屬	-12.4555
旋法歸無	-12.4555
雌	-12.4555
結前生後	-12.4557
失於本心	-12.4557
能入圓元	-12.4559
性識明知覺明真識	-12.4559
貪求靜謐	-12.4559
非所非盡	-12.4559
不死矯亂徧計虗論	-12.456
為在為無	-12.4562
觀鼻端白	-12.4563
中無定方	-12.4563
圓悟精理	-12.4563
穆佉跛哩嚩	-12.4563
不由前塵所起知見	-12.4564
好遊族姓	-12.4564
向涅槃路	-12.4565
腰鼓顙	-12.4565
有漏微塵國	-12.4565
中間自無是月非月	-12.4565
成圓明淨妙	-12.4566
但一月真	-12.4566
聖凡無二路	-12.4566
見覺明圓	-12.4566
攝受親因	-12.4567
無始時來	-12.4567
一時開現	-12.4567
面目瞋怒	-12.4567
滅音圓聞	-12.4567
彗孛飛流	-12.4567
本自其然	-12.4567
我乃無心	-12.4568
瞻蔔	-12.4568
風雨順時	-12.4568
誰明空質	-12.4568
鏡交光處	-12.4568
若因土出	-12.4569
心光密迴	-12.4569
容現六塵	-12.4569
應法師云	-12.4569
皆了元由	-12.4569
氷還成水	-12.457
眼生色相	-12.457
立五陰中	-12.4571
去佛漸遠	-12.4571
惑聲為聞	-12.4571
有生有滅	-12.4572
人相不缺	-12.4572
醜陋	-12.4572
汝愛我心	-12.4572
性真常中	-12.4573
兼境兼根	-12.4573
心未發光	-12.4573
研交無地	-12.4573
尹	-12.4574
外洎山河	-12.4574
別得生理	-12.4574
食其肉	-12.4574
名治地住	-12.4575
五逆十惡	-12.4575
軒	-12.4577
拯	-12.4577
發於違拒	-12.4577
渺	-12.4578
身心不能及	-12.4578
以香為知	-12.4578
當名何等	-12.4579
姻	-12.458
默然自失	-12.4581
琶	-12.4581
伴惹伴惹	-12.4581
廬	-12.4582
誤為真實	-12.4582
熏陸香	-12.4583
繡	-12.4584
苦練木	-12.4584
􂏦	-12.4584
識心都滅	-12.4585
界相自無	-12.4585
瘂	-12.4585
稀	-12.4588
幅	-12.4589
緊曩囉	-12.459
弼	-12.4592
館	-12.4592
謫	-12.4595
錐	-12.4599
在甚麼處	-12.46
楞嚴會上	-12.4608
補瑟徵迦	-12.4619
以左右手	-12.4663
金剛密跡	-12.4762
龍王慈我	-12.4793
從座起	-12.4795
摩怛唎伽拏	-12.4796
艸	-12.4797
是人愚迷惑為菩薩	-12.4804
事非頓除因次第盡	-12.4804
不作聖心名善境界若作聖解即受羣邪	-12.4806
二用心邪正	-12.4808
方廣菩薩藏文殊師利根本儀軌經卷第	-12.4809
由此四纏	-12.4809
輦	-12.481
識性無源	-12.481
貪求深空	-12.481
後貯甘露	-12.481
因生有滅	-12.4811
從何方便入三摩地	-12.4812
未得無身	-12.4812
我見如來三十二相	-12.4813
寤寐恒一	-12.4813
訶利帝母	-12.4813
發明便解脫	-12.4814
熟寐寱言	-12.4814
二人相憶	-12.4814
性汝不真	-12.4814
一病目人	-12.4814
及諸羣塞	-12.4814
經一百日	-12.4815
波野吽吽𠷑吒	-12.4816
一一類中	-12.4816
氛	-12.4816
甥	-12.4816
得虗明性	-12.4817
恍	-12.4817
非得法性	-12.4817
融則成水	-12.4818
淺深同說法	-12.4818
還同本悟	-12.4818
艶	-12.4818
爪生髮長	-12.4818
此是微塵佛	-12.4819
猥	-12.4819
昂	-12.4819
吽鑁斛	-12.482
沒𠆙沒𠆙	-12.482
漱	-12.4821
那拏酤鉢囉	-12.4821
無慧自持	-12.4821
幻法云何立	-12.4821
汝我同氣	-12.4822
迪	-12.4822
取涅槃道	-12.4822
𡋯	-12.4823
三遍或七遍	-12.4823
皆合涅槃清淨妙德	-12.4823
三結成外論	-12.4823
流入橫生	-12.4823
窓	-12.4824
塵相自滅	-12.4824
根結若除	-12.4824
見思二惑	-12.4824
讎	-12.4824
覺迷迷滅	-12.4824
雖則自招	-12.4824
壽千萬歲	-12.4824
合然俱離	-12.4824
異舌知味	-12.4825
二物不來	-12.4825
有何艱險	-12.4825
觀大觀小	-12.4825
融形復聞	-12.4825
弭哩弭哩	-12.4825
加以明悟	-12.4826
十處一時聞	-12.4826
諸所緣法	-12.4826
頗羅墮	-12.4826
逐諸生滅	-12.4826
踞	-12.4826
師子之座	-12.4827
廸	-12.4827
路計濕嚩	-12.4827
遇物成形	-12.4828
去無思憶	-12.4828
得妙隨順	-12.4828
誰能留汝形	-12.4828
方便隨緣止	-12.4828
失汝元常	-12.4829
浮幢王剎	-12.4829
七八二識	-12.483
窮十二變	-12.4831
音聲性動靜	-12.4831
關鍵	-12.4832
緤	-12.4833
南麼三曼多伐折囉	-12.4833
悉殿覩滿怛囉	-12.4835
牝娜牝娜	-12.4836
可不慎	-12.4836
窣嚩訶	-12.4837
致大饒富	-12.4838
悠	-12.484
廳	-12.484
芳	-12.484
甫	-12.4843
主嚕主嚕	-12.4847
裴	-12.4847
訶贍部	-12.4851
􂤄	-12.4852
妙明明妙	-12.4872
同一密合	-12.5043
清淨蓮華明王央俱捨真言	-12.5053
南無悉羯唎多耶	-12.5056
現我知中	-12.506
􂚲	-12.5061
欲何分別	-12.5061
森	-12.5061
不異空日	-12.5062
不相觸摩	-12.5062
阿唎耶多囉	-12.5063
更不求進	-12.5064
庖	-12.5065
從眾緣生	-12.5066
毘樓博叉	-12.5066
汝心昏迷	-12.5066
覺明空昧相待成搖	-12.5066
寂靜妙常	-12.5067
圓擾動元	-12.5067
闤	-12.5067
汝等必須將如來語	-12.5068
亦有即是亦無	-12.5068
教理行果	-12.5068
􂨝	-12.5068
猜	-12.5069
右繞三匝	-12.5069
前方全明	-12.507
彌戾車	-12.507
隨往無礙	-12.507
空晦暗中結暗為色	-12.5071
有百千色	-12.5071
從細至麤	-12.5071
故發真如妙覺明性	-12.5071
下皆倣此	-12.5071
鬼業既盡	-12.5071
慧力過定	-12.5072
種種取像	-12.5072
汝復應知	-12.5072
不相乖異	-12.5072
世間和合麤相	-12.5073
三賢十聖	-12.5073
離一合雙	-12.5073
業流灣環	-12.5074
青赤白蓮	-12.5074
觀味之知	-12.5075
裘毳	-12.5075
我亦保護是修行人	-12.5075
聲來耳邊	-12.5075
得循圓通	-12.5075
半生半滅	-12.5075
惺惺	-12.5075
舐	-12.5076
說空為一	-12.5076
擿	-12.5076
如師子王	-12.5076
誰明空色	-12.5076
身中貿遷	-12.5076
決定自知成佛不謬	-12.5076
烏瑟膩沙	-12.5076
或有或無	-12.5076
暗時無明	-12.5077
汝在室中	-12.5077
纓	-12.5077
界從何立	-12.5077
軀命不同	-12.5077
終從變滅	-12.5077
流息無恒	-12.5077
憤	-12.5077
呢	-12.5077
光光相然	-12.5077
此句方名無戲論法	-12.5078
挺	-12.5078
跋利沙	-12.5078
我今欲令阿難開悟	-12.5078
性心失真	-12.5078
心慮灰凝	-12.5078
不為不思無	-12.5078
獲法眼淨	-12.5079
波頭摩	-12.5079
何不見吾不見之處	-12.5079
燒種種香	-12.5079
倉庫	-12.508
帙	-12.508
八萬行中	-12.508
下有微礙	-12.508
蟯蛔	-12.508
受領無失	-12.508
黶	-12.5081
六根各造	-12.5081
生滅二圓離	-12.5081
爾時放光如來	-12.5081
何方便門得易成就	-12.5082
鬧	-12.5082
是則常真實	-12.5082
遇畜成形	-12.5084
不知身心顛倒所在	-12.5084
癲	-12.5084
􂠹	-12.5085
人死為羊	-12.5085
悴	-12.5085
離欲心現	-12.5087
臼	-12.5087
尾唧怛囉	-12.5088
繽	-12.5089
三戟叉	-12.5089
搥	-12.509
枳理枳理	-12.509
𣐍	-12.509
杻械枷鎖	-12.509
縛曰羅	-12.5092
瞖	-12.5093
絡腋	-12.5093
舅	-12.5093
此方真教體	-12.5093
虱	-12.5094
􂪖	-12.5097
叭	-12.5098
聹	-12.5098
離則兩合	-12.5098
步嚕步嚕	-12.51
町以反	-12.5102
自住三摩地	-12.5104
◑	-12.5104
岩	-12.5117
經律異相	-12.5118
習為因也	-12.5118
毗盧遮那成佛神變加持經義釋	-12.5314
故敬禮無所觀	-12.5314
大法炬陀羅尼經卷第	-12.5317
揭囉訶若闍	-12.5318
大興善寺三藏沙門大廣智不空奉詔譯	-12.532
外不相知	-12.5322
波斯匿	-12.5322
分別味因	-12.5324
唯汝六根	-12.5324
住佛掌中	-12.5325
願樂一成	-12.5325
隨所合處心則隨有	-12.5326
非日非空	-12.5326
與諸眾生同一悲仰	-12.5326
水外無流	-12.533
此方真教體清淨在音聞	-12.533
上求下化	-12.533
憒	-12.5331
修道入滅	-12.5332
眚即見勞	-12.5333
勝妙殊絕	-12.5333
不起于座	-12.5334
上下無位	-12.5334
頭相柱	-12.5334
純潔精真	-12.5334
婬躬撫摩	-12.5335
如來說為可憐愍者	-12.5335
祗陀林	-12.5335
如蒲萄朵	-12.5335
鉢左鉢左	-12.5335
壅令留礙	-12.5336
悕	-12.5336
我常不開演	-12.5336
空性圓明成法解脫	-12.5336
還來收一	-12.5336
合掌承聽	-12.5336
洽	-12.5336
取我求實	-12.5337
交發立堅	-12.5337
研磨不休	-12.5337
成妄計果	-12.5338
愛心永脫	-12.5338
旋流獲無妄	-12.5338
願今得果成寶王	-12.5338
寂湛生光	-12.5338
碩	-12.5338
貪求永歲	-12.5338
魔附之	-12.5338
閃電	-12.5339
覺明真識	-12.5339
下洞火輪	-12.5339
紊	-12.534
愛不能離	-12.534
若出未出	-12.534
性無搖動	-12.534
銷磨六門	-12.534
無熱惱池	-12.534
舒金色臂	-12.534
娑伽羅龍王	-12.5341
善能成就五十五位真菩提路	-12.5341
怛儞野	-12.5341
其心不婬	-12.5341
力不自由	-12.5341
云何名為乾慧之地	-12.5341
我憐汝色	-12.5341
六用皆不成	-12.5341
阿蜜哩多軍荼利	-12.5342
以此大孔雀王呪	-12.5342
如避火坑	-12.5342
慈陰妙雲	-12.5342
即波旬說	-12.5343
同諸土木	-12.5343
頭自動搖	-12.5343
給孤獨園	-12.5343
篤	-12.5344
藻	-12.5344
我今白世尊	-12.5345
發無窮悲	-12.5345
堵	-12.5345
㤄	-12.5345
圓澄覺元妙	-12.5345
若棄生滅	-12.5346
銷我億劫顛倒想	-12.5346
面有三目	-12.5346
不得漏盡成阿羅漢	-12.5347
不惜身命	-12.5347
玻	-12.5347
齩	-12.5347
無聲號無聞	-12.5348
若目明朗	-12.5348
味如嚼蠟	-12.5348
汝稱覺明	-12.5348
愛河乾枯	-12.5348
島	-12.5348
餘惑未盡	-12.5349
鵬	-12.5349
螢	-12.5349
上師三寶	-12.535
潰	-12.5352
威儀不缺	-12.5352
竇	-12.5352
彼彼發業各各私受	-12.5352
尾哩尾哩	-12.5352
寗	-12.5353
此覺知性	-12.5353
悉殿覩	-12.5353
若依非依	-12.5353
料	-12.5354
鴛鴦	-12.5354
脊	-12.5355
娜麼三曼多勃馱	-12.5355
惕	-12.5357
窠	-12.5359
清淨在音聞	-12.5359
鱗	-12.536
矩畔拏	-12.536
護虜護虜	-12.536
娘	-12.5362
枳帝攝	-12.5365
迦拏迦拏	-12.5368
非幻尚不生	-12.5464
不取無非幻	-12.5482
爾時世尊大遍照如來	-12.5582
物體雜亂	-12.559
弟子與師多陷王難	-12.5591
均名六大	-12.5595
世尊毘盧遮那佛心	-12.5595
皆領深恩	-12.5596
是非鋒起	-12.5597
故能令汝出指非指	-12.5597
整理衣服	-12.5598
若欲除結	-12.5598
進力二度	-12.56
闌	-12.5601
誰為是月	-12.5601
悟心無際	-12.5602
願樂欲聞	-12.5602
迺	-12.5602
猶非真非真	-12.5603
得成菩提妙奢摩他三摩禪那最初方便	-12.5603
火騰水降	-12.5603
依他起性	-12.5603
中途成狂	-12.5604
心言直故	-12.5604
迷晦即無明	-12.5604
堅覺寶成	-12.5604
婬殺盜妄	-12.5604
諸幢王剎	-12.5605
婆嚩喃劍波	-12.5605
同異失準	-12.5605
掇	-12.5605
不歷僧祇	-12.5605
吸引同業	-12.5605
不皺非變	-12.5605
不自熟食	-12.5606
皺者為變	-12.5606
恕	-12.5606
卉	-12.5606
皆是妙明真精妙心中所現物	-12.5606
發見居中	-12.5606
如失乳兒忽遇慈母	-12.5606
是覺始獲金剛心中初乾慧地	-12.5606
娛	-12.5607
靴	-12.5607
我巳宿齋	-12.5607
見必我真	-12.5607
若不見吾不見之地	-12.5608
從始洎終	-12.5608
捨生趣生	-12.5609
有名鬼倫	-12.5609
一切世間諸所有物	-12.5609
不禮塔廟	-12.5609
隨形好	-12.5609
常擾動元	-12.561
密圓淨妙	-12.561
發妄不息	-12.561
汝妄自造	-12.561
蚌	-12.561
若取肉形	-12.5611
誦母陀羅尼真言祕密心真言	-12.5611
將聞持佛佛	-12.5611
寄於諸緣	-12.5611
哨	-12.5611
觀聽返入	-12.5612
四維虧一半	-12.5612
歿	-12.5612
化迷不息	-12.5612
如太虗空	-12.5612
驕梵鉢提	-12.5612
天諸衣服	-12.5612
頂禮雙足	-12.5613
性合真空	-12.5613
訶那訶那	-12.5613
亞	-12.5613
此湛非真	-12.5613
遐邇俱可聞	-12.5613
不因鑿出	-12.5613
名饒益行	-12.5614
六根銷復	-12.5614
若頭與手	-12.5614
曩謨三滿哆沒馱	-12.5614
知妄所起	-12.5614
明前不明後	-12.5614
昏擾擾相	-12.5614
此陀羅尼法本	-12.5615
持業釋	-12.5615
機括獨行	-12.5615
死逆生順	-12.5615
開我道眼	-12.5615
智力衰微	-12.5616
琵	-12.5618
陞	-12.5618
談說酢梅	-12.5618
蠍	-12.5618
此道為復本來自有	-12.5619
馥	-12.5619
出世獲常住	-12.5619
初半劫滅	-12.5621
心外有法	-12.5621
親奉覺胤	-12.5621
心迹尚交	-12.5622
閼	-12.5622
寵	-12.5626
繆	-12.5626
鸚	-12.5627
𨽻	-12.5629
鞋	-12.563
潑	-12.5632
枳抳枳抳	-12.5633
啐	-12.5633
∴	-12.5636
韓	-12.5645
𠲎	-12.5672
幽清擾動	-12.5732
禮大慈大悲本尊教主	-12.5855
補丹那揭囉訶	-12.5861
應非見明	-12.5864
阿利沙	-12.5864
妙月長者	-12.5871
萸	-12.5871
珥	-12.5872
依主釋	-12.5874
非離空水	-12.5875
眼色為緣生於眼識	-12.5875
常加守護	-12.5876
毘首羯磨	-12.5876
𦘕	-12.5876
緣斷勝性	-12.5876
苾芻苾芻尼優婆塞優婆夷	-12.5877
時阿闍梨觀想	-12.5877
將大明悟	-12.5878
空非有外	-12.5878
心離其形	-12.5878
名善慧地	-12.5878
即實空性	-12.5879
初發心時便成正覺	-12.5879
將求密義	-12.588
急畜其鼻	-12.588
次補佛處	-12.588
俱得明了	-12.588
錍	-12.5881
吾當為汝分別開示	-12.5881
成就眾生出世間智	-12.5881
三十二相八十種好	-12.5881
而不拒彼諸相發揮	-12.5881
呵閻浮提卑	-12.5882
虗受照應	-12.5882
三結酬所問	-12.5882
多陷王難	-12.5882
生機全破	-12.5883
希更審除微細惑	-12.5883
腠	-12.5883
辮	-12.5883
非彼方來	-12.5883
要因門入	-12.5883
名生貴住	-12.5884
嚂	-12.5884
合空成色	-12.5884
粮	-12.5884
徧能含受十方國土	-12.5884
明覺立堅	-12.5884
不亦宜乎	-12.5885
結解同所因	-12.5885
心生形取	-12.5885
若子逃逝	-12.5886
毘盧遮那佛於內心	-12.5886
楯	-12.5886
何體為汝	-12.5886
成佛子巳	-12.5886
那謨囉怛那怛囉	-12.5887
音性圓銷	-12.5887
遘	-12.5887
隔垣聽音響	-12.5887
名善現行	-12.5887
知身即觸	-12.5887
聖境冥現	-12.5887
皆即見眚	-12.5887
無名天趣	-12.5888
法流水接	-12.5888
叛	-12.5888
能生勝氣	-12.5888
雙厭苦樂	-12.5888
憶佛念佛	-12.5888
逢此因緣	-12.5888
即為飛仙	-12.5888
名發光地	-12.5888
無量淨光	-12.5888
心未開悟	-12.5889
南無歸依供養	-12.5889
纖塵不立	-12.5889
踴躍	-12.589
不由他悟	-12.589
圍繞華鉢	-12.589
此法亦緣	-12.589
為香為臭	-12.589
輕舉非遠	-12.5891
心存佛國	-12.5891
異見成憎	-12.5891
名戒心住	-12.5891
澀滑	-12.5891
聲無既無滅	-12.5891
明極覺滿	-12.5891
杻械	-12.5891
僮	-12.5892
烹	-12.5892
目為全潮	-12.5892
無復幽黯	-12.5892
疥癩	-12.5893
如寶蓮香比丘尼	-12.5894
毀一戒	-12.5894
鍮	-12.5895
澍	-12.5895
饍	-12.5896
繩木絞校	-12.5896
後半劫生	-12.5896
酷	-12.5897
屈第三節	-12.5897
非是無流	-12.5897
欲習既除	-12.5897
為利兵刃	-12.5897
縱汝形銷	-12.5897
母曩曳	-12.5897
鴆	-12.5898
為承為忍	-12.5898
我說即是空	-12.5898
諸礙既銷	-12.5898
佛手不住	-12.5899
鎗	-12.5899
𡅏	-12.59
癲癎	-12.5901
逢欲暫交	-12.5901
阿𠼝耶	-12.5901
別修妄念	-12.5902
匣	-12.5902
成就破亂	-12.5903
繪	-12.5903
非破律儀	-12.5903
雷電霹靂	-12.5904
獨妙真常	-12.5904
耀性發明	-12.5907
叮嚀	-12.5907
暑	-12.5907
巫	-12.5907
麼他麼他	-12.5909
瘥	-12.5911
嚩遏喇	-12.5911
頂禮供養歸依	-12.5914
淋	-12.5915
𡆗	-12.5921
姊	-12.5928
娑補怛	-12.5932
裳	-12.6099
吉祥如來南無	-12.6141
精心陰速	-12.6156
謂先通說一切如來	-12.6156
青龍寺	-12.6156
禮佛而退	-12.6158
不遊三界	-12.6158
我以妙明不滅不生合如來藏	-12.616
鐘聲若擊	-12.6161
三四四三	-12.6161
而如來藏唯妙覺明圓照法界	-12.6161
矴	-12.6162
了知味性	-12.6162
其目周視	-12.6162
悉怛多般怛羅	-12.6163
真根既成	-12.6163
為生為滅	-12.6163
若總解除	-12.6163
隨得一緣	-12.6164
四部弟子	-12.6164
勝性現圓	-12.6164
應立量云	-12.6165
難行苦行	-12.6165
明圓滅漏	-12.6165
心熱發火	-12.6166
因入流相	-12.6166
鉢羅奢佉	-12.6167
初成此觀	-12.6167
遠諸留患	-12.6167
更不前進	-12.6167
乾為洲潬	-12.6167
冥無所觀	-12.6168
妙法開明	-12.6168
汝教世人	-12.6168
沙土自沉	-12.6168
空體無方	-12.6169
退坐一面	-12.6169
腐	-12.6169
眼根八百功德	-12.6169
空有二俱非	-12.6169
貪愛同滋	-12.617
非明暗來	-12.617
因果相酬	-12.617
既不洗塵	-12.617
淘	-12.617
佛國本同	-12.617
性識明知	-12.617
十方國土皎然清淨	-12.617
土勢劣水	-12.617
後行菩薩清淨律儀	-12.617
非菩提咎	-12.6171
圓伏五住	-12.6171
裨販如來	-12.6171
東西各行	-12.6171
六根虗靜	-12.6171
無然非自	-12.6171
麋	-12.6172
至何漸次得修行目	-12.6172
但如鏡中無別分析	-12.6172
我憶往昔恒河沙劫	-12.6172
柅	-12.6172
涉勢若成	-12.6172
鏁	-12.6173
皆即菩提妙明元心	-12.6173
則諸暗相永不能昏	-12.6173
鈿	-12.6173
如一眾生未成佛	-12.6173
吸撮內塵	-12.6173
彼見真精	-12.6173
品第二十	-12.6173
由明暗等二種相形	-12.6174
縱得妙悟	-12.6174
綮	-12.6174
洗心非正	-12.6174
積妄發生	-12.6174
終不於此取泥洹	-12.6174
盲聾瘖瘂	-12.6174
名願心住	-12.6175
運運密移	-12.6175
銷礙入空	-12.6175
業繫苦相	-12.6175
如空中華	-12.6176
徧生慈力	-12.6176
感激過分	-12.6177
嫡	-12.6177
哆姪他	-12.6177
事義相類	-12.6177
生天魔種	-12.6178
入徧知海	-12.6178
情均天倫	-12.6178
巵	-12.6178
即從坐起	-12.6178
遡	-12.6179
上歷聖位	-12.6179
覺身為礙	-12.6179
富多那	-12.6179
棟	-12.6181
出土一尺	-12.6181
久滅意根	-12.6181
奏諸音樂	-12.6181
何藉劬勞肯綮修證	-12.6181
臭則非香	-12.6181
栽	-12.6181
欲何為滅	-12.6181
性無違順	-12.6182
迷頭認影	-12.6183
羖	-12.6184
深厭自生	-12.6184
狩	-12.6184
牖	-12.6185
疥	-12.6185
向外馳求	-12.6185
朴	-12.6185
不戀三界	-12.6185
待華更生	-12.6185
六情四想	-12.6186
澆	-12.6188
唼	-12.6188
宛轉零落	-12.6188
室羅筏	-12.6189
弘範三界	-12.6189
概	-12.619
萄	-12.6191
鉢納摩	-12.6191
隨氣變	-12.6193
茫茫	-12.6194
駛	-12.6196
啉	-12.6198
天童拈	-12.6207
鵲	-12.6211
戎	-12.6215
如日初出	-12.6416
一切世界極微塵量等	-12.6442
一校了	-12.6447
性見覺明覺精明見	-12.645
驛	-12.645
玉呬野	-12.6451
若因觸生	-12.6451
娑嚩二合引賀引	-12.6452
『	-12.6454
陁	-12.6456
或同非同	-12.6456
清淨蓮華明王	-12.6457
應無所矚	-12.6457
而猶未明如是覺元	-12.6457
磣	-12.6458
有藏則暗	-12.6458
七日不眠	-12.6458
拔我疑根	-12.6458
名遠行地	-12.6459
栴	-12.6459
迷中倍人	-12.6459
非體非影	-12.646
失於猛利	-12.646
各各功德有千二百	-12.646
是諸大眾得未曾有	-12.646
必落神道	-12.646
根中積生無始虗習	-12.646
隨所緣出	-12.646
屯	-12.646
尚未親聞	-12.646
叟	-12.6461
如對目前	-12.6461
頓入如來寶明空海	-12.6461
由法生故種種心生	-12.6462
身心忽空	-12.6462
言有方分	-12.6462
用攀緣心為自性者	-12.6463
迷有漏天	-12.6463
五根所不齊	-12.6463
巳有精色	-12.6463
恒令此人所作如願	-12.6463
覺聞知見	-12.6464
果招紆曲	-12.6464
水亡清潔	-12.6464
極汝見源	-12.6464
心發通悟	-12.6465
一滴之雨	-12.6465
汝體先因父母想生	-12.6465
無得疲怠妙菩提路	-12.6466
生纏空種	-12.6466
陰信冥通	-12.6466
啗	-12.6466
斯有是處	-12.6466
且吾與汝	-12.6466
猶不能返	-12.6466
經律論	-12.6466
或蒙授記	-12.6466
住所住相	-12.6466
生倒圓種	-12.6466
合時能覺	-12.6466
滿中擎空	-12.6466
處從誰立	-12.6466
口兼獨言	-12.6467
不能照室	-12.6467
誰作誰受	-12.6467
香非知有	-12.6467
某等一切眾生	-12.6467
香界不成	-12.6467
皆是無始見病所成	-12.6467
不其然乎	-12.6467
我說佛法從因緣生	-12.6467
在給孤園	-12.6468
俞	-12.6468
覺圓心體	-12.6468
如忍事人	-12.6468
相有則在	-12.6468
阿毗曇	-12.6468
同悟宿因	-12.6468
湛了終無見	-12.6468
生斷滅種	-12.6468
償足自停	-12.6468
愽	-12.6469
火光上蒸	-12.6469
餘塵尚諸學	-12.6469
不如實知真如法一	-12.6469
胯	-12.6469
或不因師	-12.6469
無不包容	-12.6469
居日月宮	-12.647
精性妙淨	-12.647
遇衰成形	-12.647
匙	-12.647
同想成愛	-12.647
盤陀盤陀	-12.647
有牛呞病	-12.6471
十身靈相	-12.6471
明能破暗	-12.6471
色因為上	-12.6471
以塗場地	-12.6471
日夜相代	-12.6471
秤	-12.6471
內抑過分	-12.6472
蝶	-12.6472
要以一機抽	-12.6472
反息循空	-12.6472
細羅為粉	-12.6472
礰	-12.6472
母𩕳母𩕳	-12.6473
生於汝鼻	-12.6473
水能害巳	-12.6473
良哉觀世音	-12.6473
識因香有	-12.6473
汝今欲逆生死欲流	-12.6473
云何名為等覺菩薩	-12.6474
當欲誰還	-12.6474
降甘雨	-12.6474
卵唯想生	-12.6474
半跏趺坐	-12.6474
實本真淨	-12.6474
鵠白烏玄	-12.6474
現前雖成九次第定	-12.6474
安膳那	-12.6474
即寂而照	-12.6475
若因耳生	-12.6475
將此深心奉塵剎	-12.6475
薩㗚末	-12.6475
猶如夢中事	-12.6475
優曇鉢	-12.6476
緻	-12.6476
不過分寸	-12.6476
燈能顯色	-12.6477
救世悉安寧	-12.6477
覰	-12.6478
力洞無畏	-12.6478
跌	-12.6478
單犯一業	-12.6479
霖	-12.6479
𦜮	-12.6479
方行等慈	-12.6479
日別三時	-12.6479
榆	-12.648
降大雨	-12.648
結方隅界	-12.648
而我見性尚無有止	-12.6481
奘	-12.6481
雍	-12.6482
自蔽妙明	-12.6482
駭	-12.6483
久在輪迴	-12.6484
鷹	-12.6484
戶嚕戶嚕	-12.6485
毀佛涅槃	-12.6485
帀	-12.6486
謟	-12.6486
稗	-12.6487
駮	-12.649
丁儞反	-12.6496
喯	-12.6497
滿鄧迦嚧	-12.6497
丁禮反	-12.6499
死死生生	-12.6707
十方一切剎土三世一切如來	-12.6749
了明非暗	-12.675
說此大明時	-12.6751
上出為鬼	-12.6752
發彼神識	-12.6752
金剛上味陀羅尼	-12.6756
故於是中觀大觀小	-12.6756
成最正覺	-12.6756
忽蒙天王賜與華屋	-12.6758
二牒證結答	-12.6758
發於相恃	-12.6758
赧	-12.6759
日明雲暗	-12.6759
麤為大地	-12.676
俱是無始見妄所生	-12.676
徧令眾生開悟斯義	-12.676
酬還宿債	-12.676
我常說言	-12.6761
搖明風出	-12.6762
雖終日行	-12.6762
或異非異	-12.6762
報答無定	-12.6762
生倒知種	-12.6763
十信十住十行十	-12.6763
見必異明	-12.6763
於中實無是非二相	-12.6763
拔苦與樂	-12.6764
二習相然	-12.6764
身意輕安	-12.6764
繞佛三匝	-12.6765
悉滅無餘	-12.6765
從始入終	-12.6765
贈	-12.6765
助佛轉輪	-12.6765
他皆倣此	-12.6765
成一圓融清淨寶覺	-12.6765
云我在色	-12.6766
目揵連	-12.6766
一彈指頃	-12.6766
因名眼體	-12.6766
六入十二處十八界	-12.6766
原始要終	-12.6767
藍地迦	-12.6767
皆由不知二種根本	-12.6767
我亦從中證	-12.6767
殷勤啟請十方如來	-12.6767
非燈非見	-12.6768
用目循歷	-12.6768
曩莫悉底哩野	-12.6768
肅恭齋法	-12.6768
恍惚	-12.6768
尚留觀聽	-12.6768
從肉髻中	-12.6768
體性紛雜	-12.6768
受用三摩地智故	-12.6769
首楞嚴王世希有	-12.677
修習畢功	-12.677
抽為草木	-12.677
汝面雖皺	-12.677
一專為憶	-12.677
鼻尚無名	-12.677
憐念眾生	-12.677
還度如是恒沙眾	-12.677
云何復名覺聞知見	-12.677
窮十二變為一旋復	-12.6771
正陳悟旨	-12.6771
有出有入	-12.6771
曩莫糝曼多沒馱喃	-12.6771
知觸即身	-12.6771
喘	-12.6771
銓	-12.6771
竦	-12.6771
迨	-12.6772
先有願教	-12.6772
癊	-12.6772
均名五大	-12.6772
各說最初成道方便	-12.6772
因該果海	-12.6772
悲欣交集	-12.6773
如阿梨樹枝	-12.6773
根有利鈍	-12.6773
圓窮捨道	-12.6773
集知居中	-12.6773
嚴整威儀	-12.6774
令誰受滅	-12.6774
欲真巳非真真如性	-12.6774
却留塵勞	-12.6774
色性應銷	-12.6774
同於聲聽	-12.6775
心慮虗凝	-12.6775
安立居處	-12.6775
生大寶𦦨	-12.6775
號清明眼	-12.6775
欲氣麤濁	-12.6775
同來佛所	-12.6775
開府儀同三司	-12.6775
詃	-12.6776
囂	-12.6776
佉禰囉木	-12.6776
疽	-12.6776
愛極發狂	-12.6776
大寂滅海	-12.6776
名傳送鬼	-12.6776
精了不能徹	-12.6777
嶮	-12.6777
顛倒淪替	-12.6777
令離憂苦	-12.6777
失却本心	-12.6778
未捨煖觸	-12.6778
礦	-12.6779
縱滅一切見聞覺知	-12.6779
倡	-12.6779
至非意識界	-12.6779
蓽	-12.678
主人若迷	-12.678
刮	-12.6781
事非頓除	-12.6781
由是故有眾生顛倒	-12.6782
鼻色訖	-12.6782
不從掌出	-12.6782
沽	-12.6782
相生相殺	-12.6783
咸受幽氣	-12.6783
貳	-12.6783
刈	-12.6784
未能違戾	-12.6784
千輻輪	-12.6784
匡	-12.6785
內守幽閒	-12.6785
成猛火聚	-12.6787
實際理地	-12.6788
瞎	-12.6789
撦	-12.679
幕	-12.679
七遍誦之此是	-12.679
無肯反	-12.6791
􂙒	-12.6792
娜賀娜賀	-12.6793
侈	-12.6796
襄	-12.6798
􂣪	-12.6801
悉波呵	-12.6829
合則中離	-12.7048
云何復問不相容者	-12.7062
從世尊心下	-12.7063
傳法大師賜紫沙門臣施護等奉詔譯	-12.7066
拕	-12.7069
說伽他曰	-12.7069
寧有雙覺	-12.7069
性無移改	-12.7071
多絰他	-12.7071
能為鑊湯洋銅	-12.7071
捐捨小乘	-12.7071
憂悲苦惱	-12.7072
此勞同結	-12.7072
〇	-12.7072
地鉢哆曳	-12.7072
縱發汝識	-12.7072
了罔陳習	-12.7072
長不傾逝	-12.7072
晝夜隨侍	-12.7073
聞實云無	-12.7073
因果今殊感	-12.7073
妄依真起	-12.7074
因慧獲諸輕清	-12.7074
又誰非月	-12.7075
咨決心疑	-12.7075
息久發明	-12.7075
見與見緣并所想相如虗空華本無所有	-12.7075
習氣成暴流	-12.7075
而欲證圓通耶	-12.7075
斯是如來無見頂相	-12.7076
反聞聞自性	-12.7076
身毛皆竪	-12.7076
坐微塵裏轉大法輪	-12.7076
眾同分中兼有元地	-12.7076
斯癹囉納三麻耶	-12.7076
焬	-12.7076
凝明不動	-12.7077
汝觀交中性	-12.7077
方盡妙覺成無上道	-12.7077
我誠不覺	-12.7078
左右旁觀	-12.7078
生顛化種	-12.7078
怱	-12.7078
心聞洞十方	-12.7078
心知非眼	-12.7078
則復滅除諸生死因	-12.7078
識見雜三和	-12.7079
不逮修習	-12.7079
新證未獲	-12.7079
且限十年	-12.7079
背塵合覺	-12.7079
如聲度垣	-12.7079
廉	-12.7079
日鏡相遠	-12.708
云何汝今以動為身	-12.708
都言此身死後全滅	-12.708
解脫法巳俱空不生	-12.7081
若讀若誦	-12.7081
狂怖妄出	-12.7081
堪以教阿難	-12.7081
識性流出無量如來	-12.7082
一切天龍藥叉羅剎	-12.7082
窮盡瀛渤	-12.7082
如是重重單複十二	-12.7082
用心別見	-12.7082
笛	-12.7082
鬚髮自落	-12.7082
想明斯聰	-12.7083
如雙垂爪	-12.7083
亡失恒審	-12.7083
惟妙覺明圓照法界	-12.7083
變其文耳	-12.7083
猶如片雲點太清裏	-12.7083
佛母真三昧	-12.7083
佛興慈悲	-12.7084
同他心量	-12.7084
空晦暗中	-12.7084
獨得解名	-12.7084
齋畢旋歸	-12.7085
星火迸灑	-12.7085
變者受滅	-12.7085
生妄延種	-12.7085
盡其涯際	-12.7086
塵質搖動	-12.7086
誰動誰靜	-12.7086
一日二日三日四日	-12.7086
為甜為苦	-12.7087
汝今欲知奢摩他路	-12.7087
發於誣謗	-12.7087
齎	-12.7087
翰	-12.7087
擲著火中	-12.7087
葬	-12.7087
若取齅知	-12.7088
吸習中歸	-12.7088
無目而見	-12.7088
不容習妄	-12.7088
黏妄發光	-12.7088
安怛陀那	-12.7088
悍	-12.7088
慄	-12.7089
松直棘曲	-12.7089
誠如法王所說	-12.7089
􂦍	-12.7089
不遑僧次	-12.7089
􂞅	-12.7089
名方便具足住	-12.7089
皆由不知常住真心	-12.7089
濃	-12.7089
補陀洛山	-12.709
芙	-12.709
餒	-12.709
豈憶靜搖	-12.709
久必壞生	-12.709
㵎	-12.7091
釵	-12.7091
扸	-12.7092
溝	-12.7092
八情二想	-12.7093
不從梅生	-12.7093
眼能顯色	-12.7093
此宿生人	-12.7093
臂腕骨髓	-12.7093
同時飯僧	-12.7093
被陰所迷	-12.7094
漫拏攞	-12.7094
底滿旎	-12.7095
溉	-12.7095
趁	-12.7097
名絕行仙	-12.7098
倒懸其頭	-12.7098
淨飯王	-12.7099
榜	-12.71
若行若坐	-12.71
隨力所辦	-12.7101
擡	-12.7102
丁逸反	-12.7103
衷	-12.7103
廡	-12.7103
􂨭	-12.7104
諸餘雜業	-12.7105
曝	-12.7106
褐	-12.7108
瑯	-12.7109
銕	-12.711
毘遙反	-12.7117
𧜟	-12.7129
左手屈臂	-12.7144
沼	-12.7347
而高聲唱是言	-12.7377
一心歸命禮	-12.7378
vati	-12.7383
非和合生及不和合	-12.7388
金剛薩埵三摩地極堅牢故	-12.7388
閻曼德	-12.7389
烝	-12.739
毗舍浮佛	-12.7393
撻	-12.7394
現前殘質不復續生	-12.7394
璧	-12.7394
􂢬	-12.7394
唯答一字	-12.7394
徒獲此心	-12.7394
令汝速證安樂解脫	-12.7395
我今猶如旅泊之人	-12.7395
和明非義	-12.7396
苦集滅道	-12.7396
倐然隳裂	-12.7396
同是六根更非他物	-12.7396
鏤	-12.7396
精色不沉	-12.7396
諸法所生唯心所現	-12.7397
婆吒霰尼	-12.7397
覺知通㳷	-12.7397
方得亡身	-12.7397
淨心功極	-12.7397
阿難承佛悲救深誨	-12.7398
取白牛乳	-12.7398
黍	-12.7398
皆是我心變化所現	-12.7398
比類發明	-12.7398
歸當見根	-12.7398
佛敕文殊	-12.7398
乾闥婆阿修羅迦樓羅緊那羅摩睺羅伽	-12.7398
三分言功	-12.7399
此見業交	-12.7399
以金剛步而漸進	-12.7399
皆即狂勞顛倒華相	-12.74
洗滌其器	-12.74
自生艱險	-12.74
若能於此悟圓通根	-12.74
大唐天竺三藏菩提流志譯	-12.7401
因絞成水	-12.7401
誰是我體	-12.7401
遠契如來常樂我淨	-12.7401
皆是妄緣風力所轉	-12.7401
是兵要當知賊所在	-12.7401
即以此心中中流入	-12.7401
冰還成水	-12.7401
毘詵左	-12.7402
能令六根一時清淨	-12.7402
指陳示我	-12.7402
虗空云何隨汝執捉	-12.7403
成住壞空	-12.7403
若復欲令入無方圓	-12.7403
於此門無惑	-12.7403
騰逸奔波	-12.7403
貯於靜器	-12.7403
卷聲成根	-12.7404
覩佛聞法	-12.7404
施佛七錢	-12.7404
依不生滅圓湛性成	-12.7404
毛端現剎	-12.7404
擎山持杵	-12.7404
審除細惑	-12.7404
拾出蟯蛔	-12.7405
百味飲食	-12.7405
兜樓婆香	-12.7405
故心巳亡	-12.7405
誤入諸欲	-12.7405
名超日月光	-12.7405
念緣非離物	-12.7406
於灌頂部錄出別行	-12.7406
畢殫其類	-12.7406
則汝亦可見吾之見	-12.7406
後及庭際	-12.7407
身以合方知	-12.7407
由是意銷	-12.7407
兼了別性	-12.7407
欲漏不先除	-12.7407
由是六根互相為用	-12.7407
心精通㳷	-12.7407
開悟先成者	-12.7407
置十六器	-12.7407
嬾	-12.7408
瞿醯云	-12.7408
積波為水	-12.7408
使其形影重重相涉	-12.7408
[...]
