<unk>	0
<s>	0
</s>	0
/	-3.66323
)	-4.15446
(	-4.17577
之	-4.18759
)(	-4.611
以	-4.79703
為	-4.92549
丨丨	-4.97029
也	-4.97765
而	-5.00824
曰	-5.27015
有	-5.27321
其	-5.36163
者	-5.4088
於	-5.47899
不	-5.49519
▁	-5.55064
人	-5.63794
丨	-5.68838
一	-5.78457
詩	-5.84039
上	-5.85895
則	-5.85972
王	-5.87783
子	-5.8978
大	-5.91033
中	-5.94092
無	-5.95105
與	-6.01619
自	-6.04122
見	-6.06032
下	-6.11546
時	-6.11969
至	-6.15542
行	-6.17062
如	-6.225
在	-6.24485
三	-6.25897
傳	-6.26434
言	-6.28267
山	-6.29881
又	-6.30626
事	-6.31519
書	-6.32105
出	-6.33099
生	-6.33108
所	-6.33599
皆	-6.38061
公	-6.39875
使	-6.39877
水	-6.40578
天	-6.42363
文	-6.4237
及	-6.44258
故	-6.44522
于	-6.46548
乃	-6.4661
日	-6.4777
得	-6.48327
此	-6.49002
相	-6.49748
道	-6.50145
令	-6.51203
後	-6.53899
二	-6.56455
名	-6.58138
作	-6.58854
入	-6.59858
長	-6.60421
官	-6.65779
五	-6.68236
明	-6.70428
帝	-6.71398
云	-6.72112
爲	-6.72818
用	-6.73158
州	-6.73389
成	-6.73777
多	-6.73991
矣	-6.74076
是	-6.74559
將	-6.74607
若	-6.74958
方	-6.75724
馬	-6.75815
今	-6.75884
金	-6.76342
元	-6.76605
國	-6.77359
四	-6.77909
君	-6.78002
知	-6.7808
風	-6.78496
當	-6.7876
謂	-6.7963
從	-6.79966
石	-6.80082
正	-6.81335
非	-6.81411
南	-6.82243
地	-6.82501
欲	-6.82863
同	-6.82877
平	-6.83783
乎	-6.84304
可	-6.85375
白	-6.85606
命	-6.8901
漢	-6.89011
髙	-6.89182
亦	-6.89315
復	-6.89358
李	-6.89967
居	-6.90559
心	-6.90867
張	-6.90961
重	-6.91076
家	-6.91279
禮	-6.91391
立	-6.91437
臣	-6.91845
焉	-6.92091
因	-6.92947
門	-6.93071
前	-6.93525
周	-6.93573
然	-6.94586
何	-6.97407
遂	-6.9806
城	-6.98832
玉	-6.9978
歸	-6.99864
兵	-6.99913
安	-7.00316
東	-7.00382
丨丨丨	-7.0048
食	-7.02407
我	-7.02582
清	-7.03107
常	-7.03189
陽	-7.03621
小	-7.03725
即	-7.03812
已	-7.04134
必	-7.04316
民	-7.04771
等	-7.04806
初	-7.05218
軍	-7.05407
來	-7.05436
唐	-7.05532
陳	-7.05642
西	-7.05884
聞	-7.05913
賦	-7.06534
法	-7.06538
通	-7.06602
經	-7.06975
能	-7.08042
未	-7.08138
九	-7.08571
雲	-7.08621
去	-7.08636
取	-7.08667
神	-7.10271
朝	-7.10793
分	-7.11848
數	-7.12724
先	-7.13131
龍	-7.13771
光	-7.13925
六	-7.13954
齊	-7.14397
或	-7.14711
氏	-7.1498
樂	-7.15545
士	-7.15642
月	-7.16003
善	-7.16746
晉	-7.17013
北	-7.17179
死	-7.17551
師	-7.17981
春	-7.18695
義	-7.19129
物	-7.195
劉	-7.20121
和	-7.20174
字	-7.20805
請	-7.21459
始	-7.21582
主	-7.21696
注	-7.21942
諸	-7.2208
氣	-7.22323
既	-7.22721
内	-7.23064
過	-7.23137
舉	-7.23317
黄	-7.23762
雖	-7.24047
夫	-7.24317
徳	-7.24393
年	-7.24497
外	-7.24923
起	-7.25443
花	-7.25585
世	-7.25769
流	-7.26153
置	-7.26261
本	-7.2653
問	-7.27761
聲	-7.28123
思	-7.28649
封	-7.29252
宋	-7.2959
服	-7.2965
還	-7.29912
實	-7.29962
處	-7.29966
盡	-7.30037
華	-7.30282
進	-7.30879
守	-7.31357
逺	-7.31368
志	-7.31781
發	-7.31828
身	-7.31929
車	-7.32004
衣	-7.32178
武	-7.32386
合	-7.32738
梁	-7.33087
吾	-7.33236
夜	-7.35356
制	-7.35406
以為	-7.35443
觀	-7.35525
宜	-7.35557
酒	-7.35824
兩	-7.35872
詔	-7.359
少	-7.36018
史	-7.36019
易	-7.3609
深	-7.36507
女	-7.3666
望	-7.36871
節	-7.36886
又曰	-7.36964
秦	-7.38256
縣	-7.38471
惟	-7.38488
木	-7.38619
飛	-7.39084
天下	-7.39114
應	-7.39288
古	-7.39962
開	-7.40901
青	-7.4107
定	-7.41109
賜	-7.41529
並	-7.41538
府	-7.41644
治	-7.41714
學	-7.41817
興	-7.42314
田	-7.42397
新	-7.42439
記	-7.42616
稱	-7.42706
宫	-7.42767
郡	-7.43137
父	-7.43252
甚	-7.43323
秋	-7.43917
好	-7.44649
論	-7.45012
意	-7.45462
直	-7.45493
耳	-7.4553
求	-7.45851
八	-7.46672
色	-7.46675
廣	-7.46958
親	-7.47691
土	-7.47736
侯	-7.47806
魏	-7.48068
猶	-7.48348
坐	-7.48814
都	-7.49674
江	-7.50009
七	-7.50226
嘗	-7.50536
異	-7.50659
受	-7.50729
衆	-7.50792
拜	-7.52254
度	-7.52269
十	-7.52348
火	-7.52393
奏	-7.5263
難	-7.52961
且	-7.53369
宗	-7.5404
左	-7.5434
魚	-7.54485
老	-7.54827
送	-7.54935
樹	-7.5512
間	-7.55346
㑹	-7.55494
百	-7.55535
不能	-7.56317
林	-7.56428
尚	-7.56533
獨	-7.56665
集	-7.56701
加	-7.5693
任	-7.56962
不可	-7.57614
河	-7.57839
雨	-7.57921
司	-7.58217
草	-7.58963
理	-7.593
趙	-7.59368
信	-7.5998
夏	-7.60074
凡	-7.60251
頭	-7.60733
表	-7.60803
客	-7.61484
更	-7.62062
舊	-7.62083
海	-7.6269
伯	-7.62753
卿	-7.63087
母	-7.63969
錢	-7.64682
楚	-7.64699
香	-7.65391
路	-7.65519
奉	-7.65922
景	-7.66061
各	-7.6642
吏	-7.66692
語	-7.66732
臨	-7.66749
口	-7.67163
寒	-7.67422
絶	-7.6759
象	-7.67712
丨丨丨丨	-7.68028
朱	-7.68255
建	-7.68552
星	-7.68734
獻	-7.68767
靈	-7.69133
屬	-7.69302
政	-7.69378
辭	-7.69796
素	-7.70027
萬	-7.70201
别	-7.70257
利	-7.70398
足	-7.71242
賢	-7.71385
失	-7.71503
登	-7.71745
修	-7.71941
共	-7.72172
遣	-7.72537
歌	-7.72978
臺	-7.73056
降	-7.73235
紀	-7.73397
章	-7.73463
兮	-7.73501
謝	-7.73668
餘	-7.7377
位	-7.73871
引	-7.73942
卒	-7.73965
反	-7.74074
除	-7.74466
德	-7.74906
楊	-7.75355
貴	-7.75984
動	-7.7634
孫	-7.7672
御	-7.76991
隂	-7.77018
戰	-7.77758
固	-7.78075
致	-7.78216
音	-7.78432
著	-7.78516
便	-7.78569
終	-7.78604
遷	-7.79089
對	-7.7937
功	-7.79779
鄭	-7.80002
亂	-7.80153
聖	-7.80223
載	-7.80316
止	-7.80361
輕	-7.81053
祭	-7.8131
美	-7.8138
謂之	-7.81382
陵	-7.81471
許	-7.81553
仁	-7.8188
殺	-7.81986
竹	-7.81997
葉	-7.82256
執	-7.82375
力	-7.82398
改	-7.82589
兼	-7.82598
首	-7.82636
圖	-7.82983
代	-7.83004
敬	-7.8314
鳥	-7.83346
祖	-7.83424
遊	-7.83427
目	-7.83445
部	-7.8346
盛	-7.83482
次	-7.83598
議	-7.83692
掌	-7.83999
授	-7.83999
哉	-7.84455
化	-7.84584
號	-7.84594
牛	-7.84686
亡	-7.85135
近	-7.85498
賊	-7.85727
每	-7.85758
比	-7.86043
益	-7.87019
原	-7.87435
而不	-7.87517
召	-7.8788
勝	-7.88044
空	-7.88153
精	-7.88249
赤	-7.88728
曲	-7.8978
職	-7.89941
爾	-7.89964
疾	-7.90053
冠	-7.90246
天子	-7.90268
手	-7.90299
才	-7.90381
宣	-7.90466
不得	-7.9051
交	-7.90554
畫	-7.90946
列	-7.90992
解	-7.91013
似	-7.91099
殿	-7.91248
變	-7.91345
典	-7.91353
韓	-7.91725
太	-7.92183
視	-7.92249
率	-7.92259
布	-7.9228
泉	-7.92469
器	-7.92711
所以	-7.9272
隨	-7.9306
室	-7.93078
極	-7.93232
威	-7.93456
告	-7.93644
性	-7.93721
留	-7.93771
就	-7.93876
里	-7.93995
曹	-7.94152
連	-7.94264
紫	-7.94337
燕	-7.94496
情	-7.94599
右	-7.94781
▁(	-7.94811
病	-7.94846
教	-7.94928
詩丨丨	-7.94944
野	-7.95187
體	-7.953
省	-7.95333
飲	-7.95576
池	-7.96014
設	-7.96038
落	-7.96073
備	-7.96187
具	-7.96242
羅	-7.9628
詳	-7.96367
寳	-7.96494
胡	-7.96625
承	-7.96744
計	-7.96794
惡	-7.96952
懐	-7.97043
容	-7.97193
紅	-7.97339
莫	-7.97341
良	-7.97632
羣	-7.97814
鳴	-7.98035
衛	-7.98062
孝	-7.98139
昭	-7.98439
遺	-7.98543
真	-7.98633
嵗	-7.99429
伏	-8.00247
杜	-8.00459
吳	-8.00771
延	-8.00877
乗	-8.01122
散	-8.01174
遇	-8.01664
高	-8.01681
選	-8.01762
持	-8.01954
仙	-8.02017
忠	-8.02109
向	-8.02691
豈	-8.02721
左右	-8.0276
徐	-8.02779
嚴	-8.02855
𤣥	-8.02856
皇	-8.0298
崇	-8.03401
往	-8.03575
幸	-8.03881
射	-8.04079
被	-8.0411
堂	-8.04177
造	-8.04373
俱	-8.04446
虎	-8.04648
千	-8.04974
滿	-8.05331
破	-8.05382
廟	-8.05906
濟	-8.06142
權	-8.06211
叔	-8.06468
珠	-8.06653
儀	-8.06711
市	-8.06768
形	-8.06896
尊	-8.06967
丹	-8.0699
謀	-8.0709
半	-8.07307
彼	-8.07441
轉	-8.07453
要	-8.08216
垂	-8.08243
果	-8.08256
太守	-8.08615
顧	-8.08739
種	-8.08778
嘉	-8.0921
厚	-8.09525
宿	-8.09878
將軍	-8.1007
積	-8.10335
越	-8.10439
寄	-8.10459
喜	-8.10491
雪	-8.10643
増	-8.10858
廢	-8.1117
於是	-8.1136
尚書	-8.11499
結	-8.11669
説	-8.1191
将	-8.12008
斯	-8.12097
后	-8.1219
禁	-8.12264
微	-8.12278
刑	-8.12515
庭	-8.12723
俗	-8.12875
簡	-8.12907
收	-8.13053
業	-8.13207
榮	-8.13258
誠	-8.13282
大夫	-8.13455
擊	-8.13623
雜	-8.13652
三年	-8.13654
汝	-8.1387
魯	-8.14236
卷	-8.14275
仲	-8.14292
愛	-8.14326
鎮	-8.14338
角	-8.14402
永	-8.1447
但	-8.146
𫝊	-8.14627
休	-8.14728
舞	-8.14732
養	-8.14765
恩	-8.1485
澤	-8.1489
指	-8.15184
郎	-8.15922
離	-8.15944
序	-8.15967
藏	-8.16118
順	-8.16424
松	-8.16579
昔	-8.16795
諸侯	-8.169
寺	-8.16998
悉	-8.17284
咸	-8.17403
寧	-8.17452
罪	-8.17974
感	-8.18317
攻	-8.18336
伐	-8.18413
類	-8.18504
依	-8.18547
夷	-8.18801
羊	-8.18944
贈	-8.19141
斷	-8.19325
丘	-8.19622
露	-8.19955
夢	-8.19971
邊	-8.20113
太子	-8.20638
篇	-8.20826
罷	-8.21127
期	-8.21161
羽	-8.21221
疑	-8.21319
願	-8.21659
孔	-8.21757
疏	-8.22165
陸	-8.22181
樓	-8.22247
邑	-8.22387
孤	-8.22421
太祖	-8.22708
營	-8.22985
務	-8.23104
報	-8.23309
詩曰	-8.23376
質	-8.2341
薄	-8.2347
領	-8.23644
納	-8.23676
由	-8.23761
說	-8.23932
徒	-8.23962
移	-8.24023
聽	-8.24137
蓋	-8.24194
升	-8.24417
賞	-8.24572
鄉	-8.24769
端	-8.24924
勞	-8.24943
帶	-8.25038
傷	-8.25126
筆	-8.25469
敗	-8.25541
苦	-8.25603
切	-8.26245
谷	-8.26293
驚	-8.26332
充	-8.26502
枝	-8.26593
鼓	-8.26618
録	-8.26628
蜀	-8.2669
慶	-8.26813
可以	-8.26919
負	-8.27137
恐	-8.27198
騎	-8.2725
商	-8.27263
崔	-8.27606
施	-8.27683
推	-8.27777
春秋	-8.27801
折	-8.27839
考	-8.27972
運	-8.28034
毛	-8.28087
浮	-8.2825
舟	-8.28251
僧	-8.28289
顯	-8.28508
闕	-8.286
識	-8.28682
亭	-8.28858
尋	-8.28862
私	-8.28987
退	-8.29361
給	-8.29569
唯	-8.29784
冬	-8.30029
窮	-8.30157
竒	-8.30211
幽	-8.30713
特	-8.30803
孟	-8.30865
補	-8.31096
保	-8.31215
甲	-8.31506
烏	-8.31663
題	-8.32042
不敢	-8.32274
昌	-8.32546
試	-8.32847
并	-8.32901
閣	-8.33131
久	-8.33212
全	-8.33279
放	-8.33317
妻	-8.33358
井	-8.33402
弟	-8.33494
存	-8.33739
資	-8.33762
歴	-8.34084
不知	-8.34091
舍	-8.34201
游	-8.34243
虞	-8.34253
▁又	-8.34349
州刺史	-8.34441
姓	-8.34495
之所	-8.3452
川	-8.34546
溪	-8.34557
迎	-8.34669
薦	-8.34701
户	-8.34727
郭	-8.34732
哀	-8.34841
詞	-8.34928
工	-8.35059
温	-8.35176
兒	-8.35654
急	-8.35659
獲	-8.35786
面	-8.36448
適	-8.36468
宴	-8.36715
英	-8.36767
免	-8.36841
祀	-8.36854
待	-8.36869
申	-8.37014
智	-8.37023
附	-8.37167
律	-8.37178
達	-8.37252
末	-8.37373
監	-8.37464
符	-8.37504
到	-8.37962
據	-8.38191
憂	-8.38356
陛下	-8.38424
按	-8.38647
虚	-8.38797
韋	-8.38819
息	-8.38917
蘭	-8.39121
調	-8.39319
追	-8.39494
走	-8.3969
塞	-8.40198
懼	-8.40443
沈	-8.40557
圍	-8.40682
滅	-8.40895
畢	-8.40926
揚	-8.4113
盧	-8.41147
蕭	-8.41426
呉	-8.41525
一人	-8.41948
房	-8.42013
覆	-8.42212
照	-8.42257
盖	-8.42287
條	-8.42329
習	-8.4247
殷	-8.42654
園	-8.42745
来	-8.42747
含	-8.42884
惠	-8.43113
管	-8.43124
呼	-8.43243
賀	-8.43409
堅	-8.43482
參	-8.43923
統	-8.4403
雄	-8.44251
秀	-8.44275
沙	-8.4431
二年	-8.44587
恭	-8.44656
聚	-8.44876
履	-8.44907
横	-8.45075
忽	-8.45205
季	-8.45222
豐	-8.45431
康	-8.45435
蘇	-8.45582
百姓	-8.45618
博	-8.45684
雅	-8.45736
怒	-8.45748
屋	-8.45763
元年	-8.45794
藥	-8.45807
衡	-8.46038
龜	-8.46155
君子	-8.46228
邪	-8.46356
髙祖	-8.46537
𢎞	-8.46545
乾	-8.46638
約	-8.46659
者也	-8.4667
候	-8.46713
隋	-8.46732
席	-8.46935
細	-8.47205
須	-8.47289
察	-8.4737
雞	-8.47593
訓	-8.47765
克	-8.47879
漢書	-8.47908
銀	-8.47983
洞	-8.48069
福	-8.48139
害	-8.48221
婦	-8.48343
乘	-8.48466
敵	-8.48683
接	-8.48811
歲	-8.48815
勢	-8.48881
殊	-8.49056
笑	-8.49058
誅	-8.49493
錦	-8.50178
朕	-8.50769
賈	-8.51151
雙	-8.51235
吉	-8.51362
船	-8.51431
肉	-8.51486
投	-8.5206
戎	-8.52427
班	-8.52447
祠	-8.52553
富	-8.5274
機	-8.52771
宅	-8.52832
之後	-8.52839
危	-8.53074
醉	-8.53151
耶	-8.53242
厯	-8.53282
十二	-8.53294
晉書	-8.53295
湖	-8.53314
友	-8.53387
戒	-8.53455
波	-8.53541
總	-8.537
爵	-8.53728
霜	-8.53756
司馬	-8.53947
逐	-8.54321
京	-8.54374
懸	-8.5448
塵	-8.5457
詣	-8.54867
院	-8.5488
奔	-8.55027
再	-8.55209
太宗	-8.55382
逆	-8.55402
銅	-8.5555
委	-8.55758
刀	-8.55817
假	-8.5589
唐書	-8.55905
甘	-8.56071
第	-8.56137
翼	-8.56396
毎	-8.56451
辟	-8.56532
郊	-8.5659
侍	-8.56873
采	-8.56896
絲	-8.5692
尾	-8.57038
犯	-8.57081
牧	-8.57115
鼎	-8.57252
懷	-8.57298
棄	-8.57335
歩	-8.57375
征	-8.57415
嗣	-8.57428
闗	-8.57436
根	-8.57621
關	-8.57741
丁	-8.57947
怨	-8.57988
仍	-8.58088
隆	-8.58123
乞	-8.58285
籍	-8.58304
族	-8.58327
累	-8.58364
武帝	-8.58573
最	-8.58661
所謂	-8.58695
如此	-8.58833
寶	-8.58895
鶴	-8.59009
駕	-8.59035
讓	-8.59195
曰吾	-8.59197
皮	-8.59408
麗	-8.59581
赴	-8.59713
無所	-8.59724
栁	-8.59779
差	-8.59828
史記	-8.59969
繼	-8.60245
佛	-8.60485
釋	-8.60507
飾	-8.6085
隠	-8.60858
影	-8.6086
隱	-8.61083
早	-8.61115
寵	-8.61168
逸	-8.61191
茂	-8.61225
翠	-8.61806
而已	-8.61927
盤	-8.61929
鹽	-8.6206
役	-8.6212
貢	-8.62142
斗	-8.62263
振	-8.62333
辨	-8.62657
曉	-8.62725
禹	-8.62759
天地	-8.62961
佐	-8.63125
骨	-8.6363
討	-8.63714
朝廷	-8.63844
桑	-8.6428
孔子	-8.64367
阿	-8.644
背	-8.64407
夕	-8.64631
米	-8.6466
壁	-8.64988
示	-8.65127
蒙	-8.65144
貞	-8.65268
尤	-8.65272
緑	-8.65321
墨	-8.65334
徴	-8.65379
䇿	-8.65484
詠	-8.65485
雷	-8.6557
勸	-8.65812
宻	-8.65866
味	-8.65924
刺	-8.65965
敢	-8.66155
後漢書	-8.66488
兄	-8.6649
寛	-8.66519
予	-8.66523
歳	-8.66527
勿	-8.66561
千里	-8.66644
責	-8.66786
對曰	-8.66906
儒	-8.66953
勤	-8.67023
范	-8.67204
輔	-8.67206
黒	-8.67399
蔡	-8.67427
案	-8.6755
夀	-8.67673
念	-8.67919
顔	-8.67969
淵	-8.68071
均	-8.68457
爭	-8.685
碧	-8.68578
芳	-8.68767
曰此	-8.68798
頗	-8.68944
熟	-8.68989
粟	-8.69087
憲	-8.6926
量	-8.6942
馳	-8.69432
弱	-8.6967
貫	-8.69701
喪	-8.69843
曽	-8.69903
然後	-8.69954
財	-8.7004
朔	-8.70088
宰相	-8.7016
刻	-8.70323
誰	-8.70436
避	-8.70603
夫人	-8.70612
湯	-8.70699
京師	-8.70796
諫	-8.70801
救	-8.7097
鳯	-8.70977
農	-8.71008
强	-8.71017
徃	-8.71079
覺	-8.71149
維	-8.71314
洛	-8.71369
讀	-8.7141
徙	-8.71497
畏	-8.71537
專	-8.71574
長安	-8.71772
患	-8.71781
襲	-8.7186
狀	-8.7186
仰	-8.71918
縱	-8.71985
杖	-8.71998
品	-8.72
獄	-8.72123
齋	-8.72148
是以	-8.72211
之間	-8.7228
貧	-8.72335
吕	-8.72403
勇	-8.725
幾	-8.72865
屈	-8.72891
震	-8.73008
漸	-8.73018
索	-8.73042
暴	-8.73194
術	-8.73393
撫	-8.73394
周禮	-8.7344
畧	-8.73513
源	-8.73651
葢	-8.73787
式	-8.73864
衰	-8.74023
慮	-8.74171
鏡	-8.74189
一日	-8.74298
洪	-8.74316
肅	-8.74332
弓	-8.74409
巖	-8.74426
悲	-8.74518
一名	-8.74626
穆	-8.75024
橋	-8.75042
亮	-8.75064
館	-8.75223
至於	-8.75323
側	-8.75475
戴	-8.76268
茶	-8.76289
苑	-8.7644
述	-8.76521
薛	-8.76558
材	-8.76799
操	-8.76822
陶	-8.77104
鹿	-8.7732
後漢	-8.77385
妙	-8.77638
階	-8.77638
琴	-8.7767
獸	-8.77749
却	-8.77942
環	-8.78128
斬	-8.78271
謹	-8.78427
輿	-8.7851
梅	-8.78526
泰	-8.78777
况	-8.78864
招	-8.78907
戲	-8.78927
裴	-8.78999
之事	-8.79162
先生	-8.79182
支	-8.79185
愈	-8.7926
賔	-8.79277
革	-8.79635
傾	-8.79941
弗	-8.79985
齒	-8.8005
鬼	-8.80084
擇	-8.80096
盈	-8.80104
珍	-8.80158
允	-8.80256
社	-8.80284
鳳	-8.80293
脩	-8.80305
旗	-8.8091
渠	-8.80983
短	-8.81011
署	-8.81063
暮	-8.81211
回	-8.81246
不足	-8.81275
屯	-8.8132
啓	-8.81346
庶	-8.81708
皇帝	-8.81803
印	-8.81968
密	-8.82127
徵	-8.82128
荒	-8.82192
莊	-8.82213
竊	-8.82662
他	-8.82834
註	-8.82873
程	-8.82883
卜	-8.82943
頌	-8.82966
舜	-8.83145
聖人	-8.83184
規	-8.83205
違	-8.83247
干	-8.8327
超	-8.83432
助	-8.83458
四年	-8.83481
尹	-8.83537
左傳	-8.84071
蛇	-8.84091
耕	-8.84344
談	-8.84376
泥	-8.84483
宮	-8.84557
鴻	-8.84571
厥	-8.84627
慎	-8.84704
鍾	-8.84993
彌	-8.84994
堯	-8.85034
講	-8.85141
晚	-8.85181
兹	-8.85689
凝	-8.85845
兄弟	-8.85976
忘	-8.86034
謁	-8.86089
續	-8.86108
丞相	-8.86238
桂	-8.86244
荆	-8.86254
繁	-8.86284
為之	-8.86457
旦	-8.8647
巧	-8.86529
看	-8.86632
逢	-8.8669
植	-8.86855
煙	-8.86919
淮	-8.87101
略	-8.87185
蒲	-8.87195
桃	-8.8723
蒼	-8.87478
岸	-8.87559
五年	-8.87648
丞	-8.87688
徑	-8.87829
占	-8.87857
烈	-8.87889
壇	-8.87898
配	-8.8793
余	-8.88046
禄	-8.88214
鐵	-8.88214
眀	-8.88282
不如	-8.88357
舒	-8.88484
二人	-8.8851
侵	-8.88517
祥	-8.88569
費	-8.88698
險	-8.8881
牙	-8.88818
傅	-8.88852
壽	-8.88954
榖	-8.89126
葬	-8.89195
逹	-8.89317
覽	-8.89337
繫	-8.89403
竟	-8.89468
瑞	-8.89475
輒	-8.89595
嶺	-8.89846
境	-8.89938
皇后	-8.90135
副	-8.90136
雍	-8.90727
策	-8.90818
仕	-8.90859
帥	-8.90865
抱	-8.90919
校	-8.90931
愚	-8.90977
塗	-8.91025
彦	-8.91079
燭	-8.91216
而後	-8.91249
人也	-8.9142
扵	-8.91498
答	-8.91924
會	-8.91975
宋史	-8.92303
訪	-8.9252
稍	-8.92656
宰	-8.92687
奴	-8.92819
尺	-8.92891
陰	-8.92968
旁	-8.92998
殘	-8.931
劒	-8.932
增	-8.93229
巨	-8.93263
格	-8.93298
晨	-8.93324
㣲	-8.93326
享	-8.93373
桓	-8.93443
中有	-8.93939
是也	-8.94156
柱	-8.94268
防	-8.944
科	-8.94661
純	-8.94796
眼	-8.94878
錫	-8.94885
辰	-8.94923
損	-8.95032
虜	-8.95159
銘	-8.95411
吹	-8.95511
禍	-8.95547
䘮	-8.95606
其所	-8.95844
卧	-8.9585
輙	-8.95971
錄	-8.96077
麥	-8.96106
句	-8.96207
侍中	-8.96253
決	-8.96311
遵	-8.96452
勲	-8.96499
採	-8.96505
何以	-8.96737
穴	-8.96821
日月	-8.96864
虛	-8.9691
傳曰	-8.97042
步	-8.97244
儉	-8.97436
人之	-8.97505
輪	-8.97593
毁	-8.97653
吐	-8.9769
裏	-8.97733
碑	-8.97875
津	-8.98334
静	-8.98335
衞	-8.98534
翁	-8.98627
之地	-8.98737
贊	-8.9881
審	-8.9882
其後	-8.98949
矢	-8.99295
築	-8.99309
倚	-8.99455
乆	-8.99461
軒	-8.99477
劍	-8.99576
援	-8.99755
賤	-8.99773
供	-8.99844
寢	-8.99847
恨	-8.99854
陣	-8.99922
優	-8.99925
壯	-9.00033
希	-9.00077
學士	-9.00211
璧	-9.0028
倉	-9.00345
己	-9.00429
吴	-9.00463
厲	-9.00557
㫖	-9.00562
蟲	-9.00637
怪	-9.0079
奪	-9.00836
愁	-9.01042
黨	-9.01129
鐘	-9.01159
决	-9.01336
謙	-9.01357
有所	-9.01591
頃	-9.01596
茍	-9.01786
潤	-9.01786
趨	-9.01901
彈	-9.01922
産	-9.02058
廬	-9.02113
介	-9.02191
辛	-9.02202
歎	-9.02291
甫	-9.02386
柔	-9.02396
界	-9.02444
御史	-9.02701
編	-9.02707
刺史	-9.02951
妾	-9.02965
循	-9.03109
瓊	-9.03124
紙	-9.03139
馮	-9.03278
詩見	-9.03441
某	-9.03441
秩	-9.03562
柳	-9.0372
吟	-9.03895
不見	-9.03965
禽	-9.04041
書曰	-9.04112
督	-9.04297
渡	-9.04338
導	-9.04345
妃	-9.04705
啟	-9.04722
韻	-9.0474
圓	-9.05116
不及	-9.05209
卑	-9.0539
僕	-9.05486
腹	-9.05521
袁	-9.05752
歡	-9.05863
莫不	-9.0629
聞之	-9.06331
貪	-9.06393
豪	-9.06516
黄帝	-9.06544
慈	-9.06577
子孫	-9.06612
姑	-9.06754
南史	-9.06808
四方	-9.06837
掩	-9.07061
血	-9.07145
牀	-9.0723
蕃	-9.07558
映	-9.07568
融	-9.07633
有司	-9.0772
賣	-9.07754
撰	-9.07772
氷	-9.07817
岳	-9.07996
巢	-9.07998
記曰	-9.0807
争	-9.08075
奮	-9.08129
肆	-9.08153
之士	-9.08269
赦	-9.08321
宇	-9.08433
拂	-9.08484
勒	-9.0855
文帝	-9.08567
幹	-9.08699
羣臣	-9.08744
員	-9.08838
詔曰	-9.08916
童	-9.0894
之法	-9.0899
墓	-9.09079
佩	-9.09171
禮記	-9.09241
飯	-9.09336
旣	-9.0944
靡	-9.0958
鑄	-9.09994
糧	-9.10006
瞻	-9.1003
尉	-9.10039
董	-9.10052
巳	-9.10062
鄧	-9.10113
紹	-9.10118
誦	-9.10188
買	-9.10439
偏	-9.10615
使人	-9.10672
姦	-9.10949
杜甫	-9.1104
沉	-9.11171
以來	-9.11242
伊	-9.11259
霧	-9.11465
二十	-9.11559
而無	-9.11592
鸞	-9.11696
者皆	-9.1197
閒	-9.12032
穿	-9.12098
託	-9.1227
眞	-9.12598
之道	-9.12679
子曰	-9.12723
犬	-9.12758
困	-9.12818
擬	-9.12928
名曰	-9.13153
拔	-9.13318
祝	-9.13331
冰	-9.13355
竇	-9.13676
效	-9.13851
太后	-9.1389
扇	-9.14157
晝	-9.14217
邉	-9.14239
以爲	-9.14434
宏	-9.14664
燒	-9.14695
騰	-9.14754
三月	-9.14866
燈	-9.14899
未嘗	-9.14908
六年	-9.15056
豫	-9.1513
父母	-9.15203
蠻	-9.15244
寡	-9.15261
峻	-9.15329
恒	-9.1541
扶	-9.15524
即位	-9.15545
俊	-9.15812
昏	-9.15855
庸	-9.16032
輸	-9.16097
擢	-9.16175
凉	-9.16186
披	-9.16197
卦	-9.16203
東南	-9.16242
付	-9.16288
縁	-9.16305
響	-9.16411
誤	-9.1643
隔	-9.16498
之言	-9.16546
萬物	-9.1678
潛	-9.16833
司徒	-9.1704
旌	-9.17199
基	-9.17258
男	-9.17291
佳	-9.17551
辱	-9.17616
麻	-9.17667
大將軍	-9.17794
慕	-9.1785
帳	-9.17875
枕	-9.17921
而去	-9.18049
不過	-9.18246
狗	-9.1833
速	-9.18364
絳	-9.18374
不復	-9.18423
驅	-9.18471
從之	-9.1849
翰	-9.18491
叛	-9.18546
旋	-9.18644
貨	-9.18731
雀	-9.18931
災	-9.18982
閉	-9.19104
舎	-9.19132
減	-9.19142
天下之	-9.19239
㸃	-9.19261
踰	-9.19392
畜	-9.19509
銜	-9.19559
跡	-9.19588
邦	-9.19615
鮮	-9.19668
使者	-9.19813
逰	-9.19872
倫	-9.19903
堪	-9.20054
屢	-9.20128
三日	-9.20205
荀	-9.20244
毒	-9.20401
忌	-9.20468
惜	-9.20579
遣使	-9.20614
獵	-9.20663
敏	-9.20715
澄	-9.20823
閑	-9.20864
停	-9.2088
肥	-9.20896
荷	-9.20977
黑	-9.20982
敦	-9.21179
屏	-9.21231
偶	-9.21391
蔽	-9.21445
勅	-9.21499
匈奴	-9.21576
判	-9.2159
百官	-9.21667
旅	-9.21947
烟	-9.22096
盜	-9.22182
有丨丨	-9.22222
漏	-9.22236
寜	-9.22265
軌	-9.22268
之中	-9.22657
曰我	-9.22811
裘	-9.22852
狐	-9.22984
圗	-9.23192
以上	-9.23273
競	-9.23274
帛	-9.23274
十年	-9.23292
迹	-9.23341
躬	-9.23376
藻	-9.23412
偽	-9.2356
例	-9.23589
婦人	-9.23643
公子	-9.2365
剛	-9.23676
限	-9.23738
於此	-9.23785
䕶	-9.23882
霞	-9.23899
戸	-9.23908
洛陽	-9.23933
芝	-9.23942
葛	-9.24018
否	-9.2417
廷	-9.24186
今日	-9.24626
庫	-9.24676
傍	-9.24924
五色	-9.2507
粉	-9.25103
曾	-9.2511
不為	-9.25274
知其	-9.25326
叙	-9.25333
育	-9.25335
熱	-9.25394
襄	-9.25516
巾	-9.25607
哭	-9.25641
激	-9.25764
雉	-9.25856
足以	-9.25857
靜	-9.25933
未有	-9.25963
白居易	-9.26043
三公	-9.26346
當時	-9.26782
熊	-9.26872
靖	-9.27078
裁	-9.27153
河南	-9.27195
遲	-9.27319
頓	-9.27346
盗	-9.27366
饑	-9.27424
潔	-9.27429
由是	-9.27572
之時	-9.27857
也故	-9.27897
也今	-9.27925
欽	-9.2793
之禮	-9.27974
戍	-9.27986
𨽻	-9.28069
曜	-9.28136
周公	-9.28256
織	-9.28294
墜	-9.28308
髪	-9.28411
江南	-9.28488
又有	-9.28508
捕	-9.28512
河東	-9.28527
蓮	-9.2856
煩	-9.28575
村	-9.28722
禪	-9.28746
翔	-9.28799
遥	-9.28833
繇	-9.29009
麟	-9.29042
故事	-9.29055
繡	-9.29144
峰	-9.29159
豆	-9.29193
光武	-9.29311
文章	-9.29333
割	-9.29513
五十	-9.29593
殺之	-9.29599
強	-9.29828
洲	-9.29946
故曰	-9.30013
太尉	-9.30021
單	-9.30089
盟	-9.30166
儲	-9.30248
契	-9.30265
𤓰	-9.30285
見上	-9.30436
削	-9.30441
将軍	-9.30469
孰	-9.3047
囊	-9.30604
妄	-9.3067
鼔	-9.3067
冦	-9.30704
萬里	-9.30725
出入	-9.30734
凶	-9.30757
奚	-9.30805
有一	-9.30914
爰	-9.30989
主簿	-9.30996
弊	-9.31033
蕩	-9.31055
暉	-9.3107
郎中	-9.31076
七年	-9.31224
淺	-9.31316
上下	-9.31431
疎	-9.31497
遭	-9.3152
鑿	-9.31577
八月	-9.31583
晦	-9.31592
罰	-9.31617
湘	-9.31678
司空	-9.31694
公主	-9.31697
竭	-9.31816
菜	-9.31821
藩	-9.31831
翻	-9.31874
不同	-9.32102
價	-9.32105
廻	-9.32125
痛	-9.32131
姬	-9.32228
貌	-9.32231
預	-9.32337
朗	-9.32364
補藻	-9.3238
藝	-9.32385
攝	-9.324
長史	-9.32478
一曰	-9.32503
猛	-9.32628
節度使	-9.3285
侍郎	-9.3293
冷	-9.3301
三十	-9.33042
偃	-9.33128
霸	-9.33258
旱	-9.33325
篤	-9.33374
錯	-9.33518
練	-9.33525
文王	-9.336
國家	-9.3361
晏	-9.33657
没	-9.33717
製	-9.33803
彊	-9.33923
蠶	-9.34063
沒	-9.34097
斜	-9.34196
局	-9.34203
文武	-9.34571
浦	-9.34679
諭	-9.34714
泣	-9.34868
抑	-9.34871
必有	-9.34893
崖	-9.35026
圭	-9.35097
博士	-9.35116
賓	-9.35132
辯	-9.35211
之心	-9.35216
正月	-9.35244
整	-9.35266
庾	-9.35266
衍	-9.35335
凌	-9.35444
五月	-9.35625
茅	-9.35654
箭	-9.3566
綱	-9.35746
驗	-9.35765
隂陽	-9.35768
桐	-9.3583
逃	-9.35939
洗	-9.35975
大臣	-9.36015
穀	-9.36039
幕	-9.36155
束	-9.36161
諱	-9.36202
四時	-9.36342
繩	-9.36575
膏	-9.36577
賛	-9.36684
底	-9.36932
消	-9.36978
與之	-9.36983
枯	-9.37104
繞	-9.37335
冀	-9.37354
叢	-9.37393
中書	-9.37409
十五	-9.37457
十月	-9.37612
綺	-9.37662
鄰	-9.37674
棲	-9.37702
以此	-9.37749
稽	-9.37755
淮南	-9.37828
惑	-9.37914
弟子	-9.37943
之子	-9.38028
尸	-9.38039
倒	-9.38109
提	-9.38148
徽	-9.38154
上有	-9.38566
酬	-9.38618
後魏	-9.38794
晴	-9.38851
乏	-9.38954
醫	-9.39087
擁	-9.39122
之上	-9.39183
績	-9.3922
岐	-9.39241
夾	-9.39316
渉	-9.39394
鄙	-9.39401
宋書	-9.39537
渾	-9.39644
範	-9.39671
姚	-9.39696
之制	-9.39708
籠	-9.39791
帝曰	-9.39847
徹	-9.3994
浪	-9.39961
染	-9.39992
狂	-9.39999
只	-9.40017
古之	-9.4016
觸	-9.40173
前後	-9.40196
暗	-9.40478
驛	-9.40487
國之	-9.40619
湛	-9.40641
以下	-9.40648
聘	-9.40703
座	-9.40814
人皆	-9.40841
喻	-9.40859
像	-9.40992
遽	-9.41101
鼻	-9.41178
壺	-9.41234
澗	-9.41322
皆有	-9.4152
檢	-9.41531
亦有	-9.4154
三百	-9.41547
都督	-9.41661
寫	-9.41754
倍	-9.41914
巴	-9.42025
草木	-9.42042
攸	-9.42148
兆	-9.42151
杯	-9.42164
淮南子	-9.42168
藉	-9.42172
𩔖	-9.42193
諌	-9.42196
鞭	-9.42209
毋	-9.42306
竝	-9.42353
弄	-9.42398
悟	-9.42449
悦	-9.42539
古今	-9.42687
抗	-9.42726
焚	-9.42788
嶽	-9.43057
廵	-9.43076
借	-9.4324
褒	-9.43248
炎	-9.43419
公卿	-9.43546
嵩	-9.43599
幼	-9.43816
冲	-9.43818
丈	-9.43896
想	-9.43916
囚	-9.43929
□	-9.44058
勑	-9.44203
潭	-9.4427
峯	-9.44349
時人	-9.44352
黃	-9.44389
秉	-9.44405
厭	-9.44425
暑	-9.445
課	-9.4452
犀	-9.44536
荆州	-9.44588
第一	-9.44729
鑒	-9.44768
恵	-9.4483
數十	-9.4493
六月	-9.44963
擾	-9.45109
不以	-9.45113
拒	-9.45202
西北	-9.45246
絃	-9.45248
缺	-9.453
賦曰	-9.45438
彭	-9.45492
輦	-9.45571
遠	-9.45577
曰君	-9.45689
雕	-9.45764
内外	-9.45776
乳	-9.45798
誕	-9.45822
滋	-9.45837
魏書	-9.4585
展	-9.45873
譜	-9.45905
鱗	-9.45921
誓	-9.45926
太常	-9.45988
衝	-9.45992
住	-9.46001
包	-9.46004
樊	-9.46051
豹	-9.46127
鄴	-9.46178
仗	-9.4622
淫	-9.46282
亷	-9.46285
訟	-9.46389
可謂	-9.46398
舌	-9.46474
髮	-9.46611
㑹稽	-9.46688
九月	-9.46897
所在	-9.47182
網	-9.47618
時有	-9.47647
瓦	-9.47761
無不	-9.47785
其子	-9.4779
逼	-9.48193
之名	-9.48256
灌	-9.48275
北史	-9.48481
主人	-9.48516
脚	-9.48562
敷	-9.48571
開元	-9.48593
渚	-9.48683
字子	-9.48794
眉	-9.48855
曰臣	-9.48861
有餘	-9.48864
巫	-9.4894
東西	-9.48948
之意	-9.49061
羙	-9.49079
牲	-9.49103
其事	-9.49133
晋	-9.49469
絹	-9.49526
臂	-9.49551
鴈	-9.49583
聴	-9.49599
普	-9.49724
額	-9.50368
敎	-9.50399
緩	-9.50477
之義	-9.50484
釣	-9.50677
潮	-9.50706
蟬	-9.50715
其中	-9.5078
垣	-9.50835
用之	-9.50956
嬰	-9.51001
弼	-9.5103
詐	-9.51241
殆	-9.51244
食之	-9.51329
二月	-9.51347
宗廟	-9.51349
播	-9.51453
祐	-9.51497
緒	-9.51534
鼠	-9.51563
漆	-9.51604
阻	-9.51785
俾	-9.51902
羞	-9.52052
自是	-9.5206
曠	-9.52322
偉	-9.52349
切並音	-9.52386
午	-9.52456
憶	-9.52465
陂	-9.52603
蘇軾	-9.52771
詩云	-9.52933
十三	-9.52997
恃	-9.53124
八年	-9.53149
爽	-9.53206
妖	-9.53272
黄金	-9.53318
晩	-9.53334
譽	-9.53411
牽	-9.53444
窺	-9.53516
姿	-9.53594
彰	-9.53608
驕	-9.53741
不可以	-9.5376
恥	-9.53821
欺	-9.53853
墮	-9.54014
唱	-9.54113
泛	-9.54172
棗	-9.54352
十六	-9.54425
父子	-9.54765
迴	-9.54767
四海	-9.54897
伍	-9.54902
韓愈	-9.55017
曰昔	-9.55159
揺	-9.55214
迷	-9.55248
公孫	-9.55252
擅	-9.55608
小人	-9.55664
七月	-9.55677
十八	-9.55993
彩	-9.56153
高祖	-9.56248
溝	-9.56267
警	-9.56289
屠	-9.56407
本朝	-9.5651
太原	-9.56571
悔	-9.56729
爾雅	-9.56731
寸	-9.56781
為人	-9.56812
道士	-9.56949
腰	-9.56957
以其	-9.57002
酌	-9.57065
呂	-9.57193
貶	-9.57193
匹	-9.57224
觧	-9.57292
弔	-9.57443
弩	-9.57508
臧	-9.57579
坡	-9.57584
四月	-9.57702
戚	-9.57781
黍	-9.57943
鋒	-9.58014
社稷	-9.58134
濕	-9.58153
得其	-9.58174
咎	-9.58229
之日	-9.58271
暢	-9.58277
頻	-9.58331
膳	-9.5837
壘	-9.58415
蓬	-9.58429
臯	-9.58446
淳	-9.585
磨	-9.58558
中國	-9.58592
鈎	-9.58592
邵	-9.58628
山川	-9.58653
明堂	-9.58691
遼	-9.58709
趣	-9.58775
冝	-9.58782
坊	-9.58819
綵	-9.58878
勉	-9.58941
低	-9.58973
區	-9.58982
李白	-9.59069
挺	-9.59114
十二月	-9.59143
稻	-9.59173
膺	-9.59209
創	-9.59344
溢	-9.59415
耀	-9.59466
有大	-9.59474
西南	-9.59513
隅	-9.59561
單于	-9.59573
菊	-9.59603
莖	-9.59655
樞	-9.59743
翟	-9.59788
百里	-9.59896
段	-9.59939
武王	-9.59992
稅	-9.59994
稷	-9.60012
苗	-9.60025
牢	-9.60155
不受	-9.60257
視之	-9.6035
則有	-9.60418
節度	-9.60498
帷	-9.60627
胥	-9.60861
専	-9.60923
風雨	-9.60945
羌	-9.60966
戈	-9.60999
槐	-9.61007
忍	-9.61016
䑕	-9.61074
俯	-9.61121
之功	-9.61122
子弟	-9.6117
從事	-9.61174
冕	-9.61316
饒	-9.61331
言之	-9.61421
饗	-9.61428
鳩	-9.61451
者不	-9.61525
明日	-9.61543
其人	-9.61569
浩	-9.61574
○	-9.61622
王者	-9.61747
栗	-9.61808
覩	-9.6194
綴	-9.61973
囘	-9.62001
是時	-9.62022
冊	-9.62077
玩	-9.62197
綬	-9.62214
滑	-9.62271
狄	-9.62364
幣	-9.62422
薪	-9.62527
㦸	-9.62556
貳	-9.6258
雁	-9.62626
之人	-9.62678
出於	-9.62679
至于	-9.62881
何如	-9.629
東海	-9.62903
爛	-9.62921
脱	-9.62942
㓜	-9.63011
愧	-9.63012
湏	-9.63036
同上	-9.63041
匪	-9.63064
㧞	-9.63085
距	-9.63101
懿	-9.63212
祈	-9.63225
碎	-9.6345
閭	-9.63457
裳	-9.63463
躍	-9.63484
六十	-9.63537
簾	-9.63595
七十	-9.63726
廉	-9.63848
蒸	-9.63905
電	-9.63965
莊子	-9.63966
郡國	-9.64034
荅	-9.64103
後世	-9.6414
注云	-9.64146
擒	-9.64213
哲	-9.64251
滯	-9.64251
號曰	-9.64285
▁丨	-9.64345
婢	-9.64351
賔客	-9.64428
其上	-9.64455
諸將	-9.64594
受命	-9.64764
旬	-9.64767
敕	-9.64777
者為	-9.64831
渭	-9.64865
黎	-9.6499
握	-9.64998
魏志	-9.65024
五百	-9.65031
㡬	-9.65051
憐	-9.65148
有功	-9.65203
卓	-9.65238
黙	-9.65362
嗟	-9.65374
祿	-9.65403
祚	-9.65438
雖有	-9.65521
突	-9.65555
進士	-9.65592
灰	-9.65653
寇	-9.65768
勁	-9.65802
誥	-9.65875
隴	-9.65922
九年	-9.65936
綿	-9.65981
活	-9.66034
脫	-9.66174
裂	-9.66392
恤	-9.66398
排	-9.66581
之數	-9.66604
夫子	-9.66622
板	-9.6666
斂	-9.667
僕射	-9.66722
讀書	-9.66737
薨	-9.66924
輝	-9.67009
又云	-9.6702
不肯	-9.67054
嫁	-9.67074
飲酒	-9.67102
禮樂	-9.67391
曰卿	-9.67455
肇	-9.67587
數百	-9.67587
髙宗	-9.67617
踐	-9.67632
飢	-9.67668
羮	-9.67779
際	-9.67842
摩	-9.6787
鈞	-9.67928
弦	-9.6801
把	-9.68031
祗	-9.68037
斥	-9.68317
項	-9.68327
綠	-9.68351
駭	-9.6836
陪	-9.68458
取其	-9.6849
簿	-9.68533
掠	-9.68668
袍	-9.68701
十一	-9.68726
甞	-9.68764
棘	-9.688
鵲	-9.68832
綏	-9.69007
奇	-9.69104
焦	-9.69175
橘	-9.69187
濁	-9.69207
訖	-9.69257
不相	-9.69269
太平	-9.69276
慙	-9.69438
熙	-9.69494
枚	-9.69518
韶	-9.69572
明帝	-9.69621
矜	-9.69684
柏	-9.69695
醜	-9.6975
潘	-9.69759
紛	-9.69813
之則	-9.69903
見之	-9.69909
也又	-9.69931
東北	-9.69972
緯	-9.70066
十一月	-9.7008
坤	-9.70201
亦不	-9.70266
壊	-9.7037
慰	-9.70435
西域	-9.70474
硯	-9.70529
校尉	-9.70565
捨	-9.70569
也又曰	-9.70574
生於	-9.70595
而死	-9.70604
不與	-9.70644
析	-9.70693
吏部	-9.70804
君之	-9.70948
玄	-9.70985
也夫	-9.7099
准	-9.70992
協	-9.71062
劾	-9.7117
崩	-9.71202
南陽	-9.71265
南北	-9.71266
昇	-9.71426
随	-9.7153
值	-9.71611
皆以	-9.71626
之外	-9.71662
抵	-9.71716
北齊	-9.71726
圃	-9.71728
輩	-9.71752
古者	-9.71765
陷	-9.71804
潜	-9.71819
喬	-9.71821
皇太子	-9.71917
不用	-9.71959
収	-9.72055
州縣	-9.7218
其言	-9.72266
者以	-9.72318
矯	-9.72581
壤	-9.7273
駿	-9.7279
鷹	-9.72928
譏	-9.73034
宛	-9.731
一時	-9.73131
艾	-9.73164
世祖	-9.73443
戮	-9.73462
聊	-9.73499
了	-9.73561
曰今	-9.73653
姜	-9.73722
啼	-9.73741
豕	-9.73743
取之	-9.73754
遐	-9.73805
飄	-9.7392
河北	-9.73935
各有	-9.74138
鬱	-9.74316
謨	-9.74321
㠯	-9.7437
孟子	-9.74466
沛	-9.74473
禦	-9.74545
摧	-9.74684
俟	-9.74716
之際	-9.74745
毫	-9.7483
遜	-9.74911
有三	-9.74936
觴	-9.74957
兔	-9.74962
古人	-9.74978
中興	-9.74987
徧	-9.74998
几	-9.75186
筵	-9.7542
掾	-9.75452
無以	-9.75484
頂	-9.75577
裔	-9.75631
歛	-9.75637
洽	-9.75729
蜜	-9.75772
狼	-9.7593
乖	-9.76147
漁	-9.76207
漢書曰	-9.76253
嫌	-9.76388
都尉	-9.76411
遁	-9.76502
成都	-9.76603
丗	-9.7668
標	-9.76931
二百	-9.76968
虹	-9.77007
拘	-9.77234
袖	-9.77251
恱	-9.77367
不出	-9.77404
域	-9.77589
帖	-9.77627
為丨丨	-9.7778
丸	-9.77953
途	-9.77974
四十	-9.7804
上書	-9.78139
纓	-9.78157
塘	-9.78198
二千石	-9.7821
柄	-9.78255
宵	-9.78355
内史	-9.78461
漿	-9.78493
障	-9.78534
牆	-9.78604
注曰	-9.78697
揮	-9.78826
鎭	-9.78855
輅	-9.78951
化為	-9.78952
其家	-9.79013
纔	-9.79014
不食	-9.79045
揚州	-9.79174
如是	-9.79202
陋	-9.79221
淑	-9.79232
揖	-9.79284
以示	-9.79348
飲食	-9.79353
鑑	-9.79421
中丞	-9.79465
誣	-9.79574
枉	-9.79586
秦王	-9.79679
篆	-9.79707
汗	-9.79806
而為	-9.79846
濫	-9.79937
税	-9.79967
暫	-9.80025
三千	-9.80025
暖	-9.80032
邁	-9.80149
阜	-9.8017
匿	-9.80209
天之	-9.80235
淡	-9.80273
寓	-9.8028
算	-9.80285
歎曰	-9.80326
天地之	-9.80383
𥘉	-9.80521
豫章	-9.80627
鬚	-9.80884
其名	-9.8089
魂	-9.80929
漕	-9.81003
挾	-9.81011
之屬	-9.81071
東坡	-9.81126
之下	-9.81194
十四	-9.81233
層	-9.81247
驢	-9.81285
虧	-9.81294
判官	-9.8131
而出	-9.81341
文學	-9.81443
珪	-9.81501
三人	-9.81516
先是	-9.81554
衢	-9.81698
突厥	-9.81734
五代	-9.81735
飽	-9.8178
靣	-9.81816
㳺	-9.8182
君臣	-9.81852
料	-9.81854
歟	-9.81883
山在	-9.81931
苞	-9.81998
濯	-9.82023
冶	-9.82046
補註	-9.82066
舍人	-9.82112
富貴	-9.82272
諧	-9.82273
斛	-9.82321
自然	-9.82336
猿	-9.82368
陟	-9.82398
鬬	-9.82402
先王	-9.82426
瑶	-9.8256
奢	-9.82615
䧟	-9.82702
不許	-9.82771
鵠	-9.82832
見其	-9.82875
淚	-9.83095
南方	-9.83132
棺	-9.83174
女子	-9.83186
欲以	-9.83195
人有	-9.83229
属	-9.83237
所居	-9.83271
油	-9.83433
謬	-9.83467
文公	-9.83476
臘	-9.83498
山中	-9.83554
娶	-9.8356
寂	-9.83568
擊之	-9.83569
知之	-9.83792
轡	-9.83796
之徒	-9.83892
脂	-9.83894
黜	-9.8391
而下	-9.83986
妻子	-9.84053
東方	-9.84063
磬	-9.84255
截	-9.84289
鮑	-9.84346
探	-9.84354
刃	-9.84367
不勝	-9.8442
公曰	-9.84488
見一	-9.84488
莽	-9.84531
風俗	-9.84604
是故	-9.84767
丨丨而	-9.84788
憑	-9.84793
齊書	-9.84894
宣帝	-9.84914
汴	-9.84925
王子	-9.84976
得之	-9.84996
然則	-9.85005
斧	-9.85009
號為	-9.85014
曰夫	-9.85075
檀	-9.85129
芒	-9.85191
東都	-9.85212
慧	-9.85212
䝉	-9.85259
剪	-9.85285
答曰	-9.85335
大如	-9.85398
也其	-9.85402
台	-9.85477
皓	-9.85487
縣令	-9.85511
檄	-9.8554
貝	-9.85699
本草	-9.85888
誘	-9.85974
腸	-9.86032
隐	-9.86059
彪	-9.86097
之職	-9.86126
鬼神	-9.86192
勃	-9.86252
一作	-9.86275
斤	-9.86303
毅	-9.86312
壑	-9.86452
纂	-9.86536
者必	-9.86611
門外	-9.86648
鬭	-9.86712
諷	-9.86714
募	-9.86733
翰林	-9.86797
舊唐書	-9.86801
匡	-9.86831
婚	-9.86833
頒	-9.86868
濤	-9.8692
係	-9.86927
郢	-9.87064
級	-9.87066
叅	-9.87157
京兆	-9.87325
婁	-9.87354
郡縣	-9.87406
昧	-9.87447
纎	-9.87499
百餘	-9.87506
一百	-9.87506
八十	-9.87618
之内	-9.8768
紹興	-9.878
死者	-9.87915
恢	-9.87925
函	-9.87929
漫	-9.87963
𦵏	-9.88494
諸軍	-9.88519
壓	-9.88525
邱	-9.88716
竈	-9.88719
墳	-9.8872
政事	-9.8884
沃	-9.88944
霄	-9.89095
妓	-9.89109
大小	-9.89205
笛	-9.89229
巷	-9.89275
以自	-9.89276
租	-9.89304
四人	-9.8933
有人	-9.89355
其餘	-9.89375
上言	-9.89434
改為	-9.89472
眠	-9.89481
不言	-9.8949
少府	-9.89495
寃	-9.89574
矩	-9.89625
椒	-9.89681
浸	-9.89695
疆	-9.89714
賴	-9.89812
柴	-9.8986
涼	-9.89877
䑓	-9.89895
着	-9.89961
桓公	-9.90028
箴	-9.90039
不從	-9.90245
括	-9.90247
卵	-9.90266
士卒	-9.90271
乂	-9.90365
䖍	-9.90429
餅	-9.90448
穢	-9.9049
禾	-9.90641
罔	-9.90647
萌	-9.9069
舅	-9.90697
完	-9.90753
呈	-9.90789
五行	-9.90789
蓄	-9.90815
寅	-9.90894
訴	-9.91147
裕	-9.91169
水經注	-9.91441
人以	-9.91463
吞	-9.91497
孔子曰	-9.91512
葵	-9.91543
奸	-9.91588
跪	-9.91624
岡	-9.9165
月令	-9.91681
􁀙	-9.91733
南山	-9.91761
尼	-9.91795
海内	-9.91833
詢	-9.9184
逮	-9.91907
得一	-9.92025
杏	-9.92102
雒	-9.92122
促	-9.92149
緣	-9.92188
梓	-9.9221
聼	-9.92219
返	-9.92288
志曰	-9.92302
廷尉	-9.9232
曰汝	-9.92406
許之	-9.92415
仁宗	-9.92457
而行	-9.92581
那	-9.92603
然而	-9.92611
之類	-9.92739
在位	-9.9275
溺	-9.92798
山有	-9.92801
坎	-9.92864
檢校	-9.92909
叟	-9.92917
胄	-9.93038
之任	-9.93043
膝	-9.93063
阮	-9.93187
既而	-9.93244
憚	-9.93262
場	-9.93289
侈	-9.93311
祭祀	-9.93324
成王	-9.93336
不至	-9.93345
隊	-9.93394
元帝	-9.93476
璽	-9.93513
齊王	-9.93521
東宫	-9.93521
仇	-9.93536
鬻	-9.93688
學者	-9.93699
契丹	-9.93779
故也	-9.93785
十餘	-9.93793
咨	-9.9384
无	-9.93923
其地	-9.93946
貞觀	-9.9397
夲	-9.94078
萬人	-9.941
而有	-9.94252
貯	-9.94261
冢	-9.94273
巡	-9.94368
明年	-9.9447
數千	-9.9448
恣	-9.94514
庚	-9.94557
至是	-9.94572
衣服	-9.94667
埋	-9.94713
肩	-9.94716
太學	-9.94759
不在	-9.94833
宗室	-9.94958
山東	-9.94969
竿	-9.94978
泊	-9.95062
州郡	-9.95125
十萬	-9.9515
論語	-9.9519
而成	-9.95208
蜂	-9.95227
餌	-9.95229
膠	-9.95348
孚	-9.95548
粲	-9.9556
門下	-9.95606
媚	-9.95639
軫	-9.9569
混	-9.95705
禱	-9.9573
之官	-9.95738
相與	-9.9574
二子	-9.95759
詰	-9.95776
何也	-9.95777
沮	-9.95784
版	-9.95825
涉	-9.95854
絡	-9.95855
其母	-9.95856
觀之	-9.95892
五日	-9.95918
詩丨	-9.95969
至今	-9.96008
不忍	-9.96142
凍	-9.96194
谿	-9.96399
陸機	-9.96531
鳬	-9.96618
上帝	-9.96635
老子	-9.96647
昆	-9.96668
街	-9.96734
王莽	-9.96812
畝	-9.96826
傑	-9.96828
二曰	-9.9684
本傳	-9.96863
岑	-9.96933
笑曰	-9.97031
云云	-9.97161
箕	-9.97174
吐蕃	-9.97222
汲	-9.97332
液	-9.97477
炙	-9.97517
俄	-9.97527
晏子	-9.9755
䟽	-9.9762
頸	-9.97661
疲	-9.97669
劇	-9.97795
欣	-9.97886
浴	-9.97906
杜牧	-9.97915
従	-9.97916
問曰	-9.97959
不行	-9.97959
隣	-9.97977
服之	-9.98032
測	-9.98095
糾	-9.98118
百萬	-9.98125
輕重	-9.98143
仲尼	-9.98172
管子	-9.98188
元和	-9.98271
亞	-9.98313
敝	-9.98357
贍	-9.98367
是為	-9.98398
參軍	-9.98561
悼	-9.98567
元稹	-9.98574
衣冠	-9.98595
併	-9.98606
奠	-9.98692
以成	-9.98694
綸	-9.98702
寡人	-9.98732
人間	-9.9875
奈何	-9.9875
遍	-9.98765
瑩	-9.98814
榆	-9.98881
萊	-9.98915
賁	-9.98922
隋書	-9.99017
今之	-9.99082
語曰	-9.99092
駒	-9.99096
塲	-9.99109
鷄	-9.99175
其間	-9.99239
亟	-9.99268
壞	-9.993
山谷	-9.9931
劉禹錫	-9.9931
减	-9.99344
以待	-9.99352
罕	-9.99366
曰丨丨	-9.99646
或曰	-9.99656
冬至	-9.99699
片	-9.99793
筠	-9.99834
秘	-9.9993
灑	-9.99935
貽	-9.99998
第二	-10.0006
有二	-10.0009
郭璞	-10.0012
潰	-10.0016
二十四	-10.0016
五帝	-10.0024
欵	-10.0025
奕	-10.0026
國朝	-10.0033
荘	-10.0033
於丨丨	-10.0034
之利	-10.0036
剖	-10.0045
仄	-10.0049
衮	-10.0054
飬	-10.0056
蔣	-10.0062
僚	-10.0066
拾	-10.0071
攀	-10.0077
掃	-10.0078
太公	-10.0079
熈	-10.0083
状	-10.0098
沈約	-10.0098
銷	-10.0102
健	-10.0103
霍	-10.0114
太傅	-10.0116
浚	-10.0117
恕	-10.012
傳云	-10.0125
江陵	-10.013
乙	-10.0145
究	-10.0146
饌	-10.0146
話	-10.0157
㓂	-10.0164
藤	-10.0174
猷	-10.0176
佞	-10.0176
慢	-10.0178
膽	-10.0202
如何	-10.0203
仙人	-10.0208
勵	-10.021
島	-10.021
之國	-10.0216
上曰	-10.0217
言其	-10.0217
南海	-10.0219
擲	-10.0222
江淮	-10.0232
邢	-10.0234
千金	-10.0237
楚王	-10.0238
頴	-10.0242
襄陽	-10.0249
令人	-10.0258
不足以	-10.026
饋	-10.0265
檻	-10.0273
軍中	-10.0273
泰山	-10.0274
牒	-10.0276
異之	-10.0278
効	-10.0282
故人	-10.0283
譬如	-10.0289
初為	-10.03
樵	-10.0305
水中	-10.0307
太廟	-10.0308
入朝	-10.0313
廣韻	-10.0313
北方	-10.0323
誨	-10.0326
宫中	-10.0331
下有	-10.0332
綽	-10.0334
挂	-10.034
國公	-10.0355
明月	-10.0362
庾信	-10.0363
閔	-10.0369
準	-10.0369
麾	-10.0371
芙蓉	-10.0378
一年	-10.0378
終日	-10.0384
安得	-10.0386
十七	-10.0387
脯	-10.0389
諸子	-10.0393
餉	-10.0399
其國	-10.0402
五經	-10.0402
烹	-10.0405
聰	-10.0415
百年	-10.0417
凖	-10.0421
冒	-10.0431
不欲	-10.0451
梁簡文帝	-10.0453
盆	-10.0456
太史	-10.0462
伺	-10.0462
白馬	-10.0475
氏之	-10.0477
軸	-10.0485
而還	-10.0493
掘	-10.0496
之氣	-10.0501
者有	-10.0509
魁	-10.0525
誡	-10.0526
蟻	-10.0532
後周	-10.0534
闢	-10.0537
眷	-10.0543
閲	-10.0544
其父	-10.0548
朋	-10.0551
蘆	-10.0552
人主	-10.0557
琳	-10.0558
諸州	-10.0561
稀	-10.0563
睡	-10.0582
文選	-10.0589
蔡邕	-10.0591
苔	-10.0597
脉	-10.0601
畿	-10.0604
仁義	-10.0615
琰	-10.0619
僅	-10.062
譚	-10.0622
樂府	-10.0629
廣陵	-10.0634
互	-10.0635
銓	-10.0646
之精	-10.0646
鉤	-10.0653
尚書令	-10.0654
姓名	-10.0655
神明	-10.0655
貸	-10.0657
爐	-10.0657
株	-10.0658
睦	-10.0665
于是	-10.0674
民之	-10.0675
神仙	-10.0676
駐	-10.0677
元史	-10.0677
怠	-10.0682
捧	-10.0683
蹈	-10.0698
搆	-10.0699
不然	-10.0701
臥	-10.0714
甸	-10.0723
甕	-10.0726
功臣	-10.0732
帝王	-10.0734
州府	-10.0737
弁	-10.0742
乍	-10.0742
為一	-10.0745
愍	-10.0753
兎	-10.0755
豈不	-10.076
柯	-10.0768
孝文	-10.0775
襟	-10.0779
窟	-10.0779
快	-10.0783
孝武	-10.0802
車駕	-10.0812
煥	-10.0819
莫能	-10.0823
曰子	-10.0825
少年	-10.0826
粥	-10.0828
得失	-10.0834
雌	-10.0834
歌曰	-10.0837
詭	-10.0842
䕫	-10.0846
梨	-10.0855
恪	-10.0865
再拜	-10.0865
邀	-10.0872
筍	-10.0872
疊	-10.0874
巻	-10.0877
太師	-10.0879
丨之丨	-10.0884
馭	-10.0887
丨丨丨丨丨	-10.0898
十里	-10.0899
塔	-10.0903
叱	-10.0904
犢	-10.0912
蟹	-10.0915
是謂	-10.0916
邈	-10.0917
譬	-10.0918
瑟	-10.0928
孝經	-10.096
團	-10.0963
嶠	-10.0966
祁	-10.0967
拾遺	-10.0971
散騎常侍	-10.098
羡	-10.0987
三曰	-10.0987
諒	-10.1
其妻	-10.1
何為	-10.1001
笏	-10.1008
童子	-10.1015
時為	-10.1019
畔	-10.1023
三代	-10.1027
晝夜	-10.1029
家人	-10.1032
敞	-10.1044
翳	-10.1047
斑	-10.1048
冥	-10.1053
一切	-10.1054
忿	-10.1056
榜	-10.1056
倦	-10.1059
或以	-10.1065
員外	-10.107
諸王	-10.1071
窗	-10.1071
而歸	-10.1071
狹	-10.1084
宥	-10.1085
殺人	-10.1088
之術	-10.109
三十六	-10.11
其實	-10.1103
夏侯	-10.1109
澹	-10.1114
紂	-10.1117
閏	-10.1117
鞍	-10.1123
男女	-10.1125
演	-10.1126
徳宗	-10.1132
崑崙	-10.1133
之樂	-10.1135
岀	-10.1154
如故	-10.1162
之文	-10.1164
鏤	-10.1173
乃以	-10.1175
桀	-10.1189
唐韻	-10.1206
甄	-10.1206
人心	-10.1209
綜	-10.1209
縷	-10.1218
戾	-10.1221
樽	-10.1223
上疏	-10.1226
瓶	-10.1227
西方	-10.1239
者亦	-10.1239
數年	-10.1239
匠	-10.124
數日	-10.1243
中郎將	-10.1244
肝	-10.1258
敖	-10.126
之臣	-10.126
足下	-10.1262
自古	-10.1262
諸生	-10.1263
通典	-10.1264
宣王	-10.1273
耗	-10.1281
構	-10.1283
組	-10.1284
之聲	-10.1285
朴	-10.1289
禘	-10.1297
三品	-10.1297
肯	-10.1312
較	-10.1319
平生	-10.1322
陛	-10.1323
丨丨丨丨丨丨丨丨	-10.1326
隙	-10.1326
好學	-10.133
諡	-10.133
淹	-10.1332
催	-10.1332
郷	-10.1333
聳	-10.1342
伎	-10.1346
暇	-10.1348
頼	-10.1355
城中	-10.1359
千餘	-10.1365
邸	-10.1367
摘	-10.1369
證	-10.1381
謗	-10.1383
蔓	-10.1384
抽	-10.139
戯	-10.1396
璋	-10.1398
其身	-10.1412
鋭	-10.1414
天文	-10.1417
春風	-10.1417
不識	-10.1431
蕪	-10.1432
人物	-10.1433
慕容	-10.1437
布衣	-10.144
中書令	-10.1441
憤	-10.1441
先帝	-10.1442
謂曰	-10.1443
坦	-10.1446
白雲	-10.1449
其心	-10.1449
膚	-10.1455
其下	-10.147
平原	-10.1472
歐陽	-10.1473
世家	-10.1475
之故	-10.1476
炭	-10.1478
釵	-10.1479
㨗	-10.1487
逺近	-10.1488
終不	-10.1489
翅	-10.1494
攜	-10.1497
及其	-10.1498
元祐	-10.1499
賢者	-10.1513
吏民	-10.1514
闇	-10.1516
帝紀	-10.152
裝	-10.153
零	-10.1535
虢	-10.1543
者其	-10.1546
札	-10.1547
壻	-10.1551
先主	-10.1554
霽	-10.1555
已上	-10.1567
衫	-10.1577
駟	-10.1588
逝	-10.1593
狀如	-10.1594
簫	-10.16
山海經	-10.1603
中外	-10.1603
庻	-10.1605
墻	-10.1605
元豐	-10.1606
邕	-10.1606
欒	-10.1613
汝南	-10.1616
淨	-10.1622
不聽	-10.1625
相見	-10.1626
箋	-10.1628
正韻	-10.1631
縈	-10.1632
國人	-10.1662
龎	-10.1667
添	-10.167
瑜	-10.1678
副使	-10.168
辦	-10.1683
豈可	-10.1685
閱	-10.1686
況	-10.1694
不宜	-10.1694
處士	-10.1696
第三	-10.1699
齎	-10.1701
汙	-10.1704
郡守	-10.1707
使君	-10.171
魄	-10.1718
鐸	-10.1718
潁	-10.1719
所得	-10.1721
譙	-10.173
曹植	-10.1736
叅軍	-10.1737
億	-10.1739
踈	-10.1746
大怒	-10.175
為大	-10.1751
逕	-10.1751
益州	-10.1752
相如	-10.1759
讐	-10.1762
𤣥宗	-10.1765
周官	-10.1766
堤	-10.1778
俠	-10.1779
裙	-10.1782
三軍	-10.1783
功曹	-10.1784
不絶	-10.1786
説文	-10.1788
道路	-10.1789
溫	-10.1792
蛟	-10.1794
七日	-10.1801
不聞	-10.1806
笙	-10.1813
文字	-10.1821
懲	-10.1821
小兒	-10.1823
栖	-10.1834
斬之	-10.1834
的	-10.1837
紗	-10.1837
射之	-10.1848
嘯	-10.1849
濬	-10.1853
大司馬	-10.1858
醴	-10.1864
大王	-10.1875
俄而	-10.1878
筭	-10.188
無事	-10.1895
之勢	-10.1895
臣聞	-10.1904
五代史	-10.1905
九州	-10.1907
貴人	-10.1911
十九	-10.1912
濡	-10.1914
曰天	-10.1916
御史大夫	-10.1917
髻	-10.192
淪	-10.1921
鶯	-10.1926
芻	-10.1928
劉向	-10.1932
圎	-10.1938
什	-10.1947
中山	-10.1951
打	-10.1952
逾	-10.1953
活套	-10.1958
蔚	-10.196
態	-10.1961
宰臣	-10.1966
漢王	-10.1968
太和	-10.2003
閤	-10.2005
拱	-10.201
陸游	-10.2011
衙	-10.2018
鬢	-10.2021
耳目	-10.2022
十日	-10.2023
晉侯	-10.2033
洞庭	-10.204
滴	-10.2043
旄	-10.2046
以告	-10.2053
筮	-10.2062
事類	-10.2065
肅宗	-10.2067
煮	-10.2071
俸	-10.2077
禁中	-10.2078
相國	-10.208
研	-10.2084
觀其	-10.2088
之志	-10.209
未能	-10.2091
無窮	-10.2091
二字	-10.2092
曰朕	-10.2093
者非	-10.2093
魏文帝	-10.2096
城南	-10.2102
郡太守	-10.2102
峽	-10.2104
名也	-10.2108
亦曰	-10.211
從容	-10.2112
成帝	-10.2118
金石	-10.2119
偷	-10.2125
丨丨之丨	-10.2126
沸	-10.2131
羸	-10.2135
嗜	-10.2135
其意	-10.2138
長沙	-10.2139
揚雄	-10.2141
朽	-10.2149
刼	-10.215
聖人之	-10.2152
跨	-10.2152
㝠	-10.2157
栢	-10.2165
河内	-10.2166
旨	-10.2168
毗	-10.2168
三尺	-10.217
遼東	-10.2172
議者	-10.2172
進退	-10.2174
之位	-10.2174
周書	-10.2174
蟠	-10.2175
不入	-10.2175
架	-10.2178
建武	-10.2179
祖宗	-10.2183
以禮	-10.219
瀆	-10.2193
艱	-10.2195
廼	-10.2208
藴	-10.2209
侃	-10.221
不應	-10.2212
尅	-10.2214
疇	-10.2218
而生	-10.2219
牟	-10.2219
遮	-10.2221
勾	-10.2221
西京	-10.2222
綾	-10.2224
釐	-10.2225
宫室	-10.2228
郡王	-10.2232
蠲	-10.2248
其一	-10.2248
轂	-10.2261
少卿	-10.2266
奥	-10.2269
之美	-10.2272
王曰	-10.2278
王公	-10.2281
大業	-10.2282
汁	-10.2283
絮	-10.2284
酸	-10.2286
婆	-10.229
填	-10.2325
濵	-10.2327
也若	-10.2327
不忘	-10.2334
其文	-10.2335
史記曰	-10.234
張華	-10.234
子産	-10.2343
藍	-10.2349
十一年	-10.235
有罪	-10.2361
僻	-10.2364
國有	-10.2374
未知	-10.2376
十二年	-10.2377
故名	-10.2379
黄門	-10.238
太平御覽卷第	-10.2383
嘆	-10.2385
真宗	-10.2386
夙	-10.2387
殿中	-10.2387
奉和	-10.239
則不	-10.2392
喧	-10.2396
替	-10.2401
鄒	-10.2402
無復	-10.2405
侍御史	-10.2407
紋	-10.2413
北海	-10.2418
南郊	-10.2419
捷	-10.2419
厨	-10.242
管仲	-10.2425
之衆	-10.2428
耆	-10.2429
為相	-10.243
臻	-10.2442
之所以	-10.2443
千人	-10.2463
閩	-10.2469
贖	-10.2469
江淹	-10.2471
文曰	-10.2473
忠臣	-10.248
陳留	-10.2482
鴨	-10.2491
通鑑	-10.2491
不失	-10.2497
乃止	-10.2497
金銀	-10.2501
床	-10.2521
廊	-10.2526
山水	-10.2527
明皇	-10.253
妹	-10.2532
士大夫	-10.2536
煎	-10.2538
三輔	-10.2549
讎	-10.2549
銳	-10.2555
沐	-10.2569
揆	-10.2573
漢武	-10.2574
穎	-10.2588
愆	-10.2592
護	-10.2606
皷	-10.2606
轅	-10.2606
伸	-10.2609
驥	-10.2616
叩	-10.262
持節	-10.2623
寔	-10.2623
不通	-10.263
㫁	-10.2632
瑕	-10.2633
不當	-10.2636
之才	-10.2637
屯田	-10.2637
軰	-10.2637
十三年	-10.2641
彭城	-10.2643
縛	-10.2643
換	-10.2643
為政	-10.2667
丕	-10.2673
不死	-10.2677
流涕	-10.2679
莫敢	-10.2685
國語	-10.2685
男子	-10.269
長者	-10.269
朝夕	-10.2691
之民	-10.2691
備用	-10.2696
甘露	-10.27
班固	-10.2706
碩	-10.2712
貞元	-10.272
之初	-10.2722
賂	-10.2722
圜	-10.2722
者則	-10.2724
詔書	-10.2731
簪	-10.2733
之謂	-10.2739
罵	-10.274
䕃	-10.275
捐	-10.2752
也然	-10.2754
成對	-10.276
有五	-10.276
丈夫	-10.2762
之用	-10.2764
知名	-10.2765
褐	-10.2767
彤	-10.2768
宇文	-10.2769
五人	-10.277
譲	-10.2772
虐	-10.2778
孝子	-10.2778
▁丨丨	-10.278
祭酒	-10.2783
梟	-10.2784
沿	-10.2791
言曰	-10.2792
禮部	-10.2794
以聞	-10.2802
奏事	-10.281
泄	-10.2812
矛	-10.2815
謁者	-10.2818
聞其	-10.2824
致仕	-10.283
顒	-10.283
者曰	-10.2833
置酒	-10.2833
孫權	-10.2835
亢	-10.2841
羲	-10.2842
車馬	-10.2842
晉陽	-10.2845
諸道	-10.2849
叚	-10.2856
制度	-10.2857
湧	-10.2866
裹	-10.2868
噐	-10.2869
當世	-10.2871
率衆	-10.2874
萬餘	-10.2874
姊	-10.2884
山林	-10.2884
子也	-10.2886
滕	-10.2886
與人	-10.2888
傲	-10.2891
糴	-10.2894
寕	-10.2898
昨	-10.29
餞	-10.2903
堯舜	-10.2905
龍門	-10.2908
於天	-10.291
行之	-10.2913
般	-10.2913
禀	-10.2914
後為	-10.2917
技	-10.293
庶人	-10.2935
家貧	-10.2939
人所	-10.294
幽州	-10.2946
葦	-10.2946
燧	-10.295
繒	-10.2953
儼	-10.2954
四百	-10.2959
夭	-10.2966
不若	-10.2971
也言	-10.2974
江東	-10.2975
粹	-10.2979
賓客	-10.298
帝以	-10.298
屑	-10.2983
俞	-10.2985
齡	-10.2986
愼	-10.2993
弋	-10.2999
娥	-10.3004
之役	-10.3007
宦	-10.3008
瓜	-10.3009
度支	-10.3009
封禪	-10.3014
天子之	-10.3015
縑	-10.3017
人情	-10.302
四曰	-10.3022
雒陽	-10.3027
或有	-10.3027
幘	-10.3029
沖	-10.3035
而不能	-10.3035
牋	-10.3039
苖	-10.304
人君	-10.3041
至此	-10.3056
常侍	-10.3061
涕	-10.3062
是非	-10.3065
天寳	-10.3067
胎	-10.3067
醒	-10.307
邇	-10.3073
給事中	-10.3076
遏	-10.3079
之情	-10.3088
陜	-10.309
李賀	-10.3095
赫	-10.3104
十人	-10.3109
僖	-10.3112
大事	-10.3114
之盛	-10.3122
漢武帝	-10.3146
曰公	-10.315
唐太宗	-10.3155
美人	-10.3156
蹇	-10.3161
中宗	-10.3161
以備	-10.3163
之節	-10.3164
無人	-10.3166
扈	-10.3171
搏	-10.3171
斫	-10.3177
汪	-10.3181
宸	-10.3183
墟	-10.3186
酉陽雜俎	-10.3187
賜之	-10.3192
濃	-10.3204
車騎	-10.3204
不成	-10.3211
趙王	-10.3217
爪	-10.3225
笞	-10.3226
腐	-10.3229
賦詩	-10.3231
甲子	-10.3247
鳥獸	-10.325
亥	-10.3263
不堪	-10.3266
伴	-10.3269
之説	-10.3271
顗	-10.3272
縮	-10.3272
皮日休	-10.3274
迫	-10.3275
皇甫	-10.3277
弛	-10.3279
神農	-10.3281
駢	-10.3282
山下	-10.329
榻	-10.3292
釁	-10.3292
逵	-10.3296
其罪	-10.3299
芬	-10.3299
陌	-10.3307
鋪	-10.3308
踵	-10.3309
該	-10.3309
氐	-10.3313
用兵	-10.3321
甘泉	-10.3325
瓠	-10.3325
顔色	-10.3331
睿	-10.3332
御史中丞	-10.334
荅曰	-10.3342
煬帝	-10.3344
汾	-10.3345
鄉里	-10.3346
雋	-10.3348
炊	-10.3357
粗	-10.3372
千萬	-10.3373
王維	-10.3375
蹄	-10.338
酷	-10.3382
風吹	-10.3386
破之	-10.3388
㢘	-10.3393
馴	-10.3403
失其	-10.3409
一旦	-10.3414
闊	-10.3417
拾遺記	-10.3419
常以	-10.342
徼	-10.3425
廓	-10.3428
都賦	-10.3429
舊制	-10.3431
稼	-10.3436
徐州	-10.3439
又以	-10.3441
三寸	-10.3453
臣之	-10.3456
蠧	-10.3457
彛	-10.3458
僣	-10.3458
琮	-10.3459
臭	-10.3459
册	-10.3462
簟	-10.3466
鐡	-10.3467
奄	-10.3472
八百	-10.3474
五品	-10.3482
九日	-10.3482
凢	-10.3486
而復	-10.349
乾坤	-10.3494
若此	-10.3494
挽	-10.3498
汎	-10.3498
渙	-10.3501
大者	-10.3504
賈誼	-10.3505
寺詩	-10.3509
牖	-10.3512
劔	-10.3513
羽林	-10.3516
拙	-10.3516
覇	-10.3518
棊	-10.3518
妨	-10.3519
灼	-10.3523
𬒳	-10.3524
則天	-10.3525
自此	-10.3528
之患	-10.353
三司	-10.3531
神武	-10.3532
陀	-10.3537
稜	-10.354
鸚鵡	-10.3547
執政	-10.3553
隄	-10.3563
李嶠	-10.3567
不易	-10.3568
髙麗	-10.3569
何處	-10.357
正義	-10.3571
蠟	-10.3581
謫	-10.3582
者謂之	-10.3583
咏	-10.3584
觀察使	-10.3591
隸	-10.3592
琛	-10.3599
涯	-10.3601
之政	-10.3611
撥	-10.3612
曷	-10.3613
贓	-10.3621
諸葛	-10.3623
數萬	-10.3627
延年	-10.363
相公	-10.3634
春日	-10.3643
畆	-10.3643
竦	-10.3647
不合	-10.3647
切音	-10.365
蝶	-10.3664
翊	-10.3668
輟	-10.3677
鞠	-10.368
耿	-10.3681
二十五	-10.3683
字伯	-10.3683
唐書曰	-10.3689
自稱	-10.3689
脈	-10.3692
威儀	-10.3693
撃	-10.3695
璞	-10.3701
償	-10.3704
汚	-10.3704
嶺南	-10.3712
齊人	-10.3715
丨其丨	-10.3716
戀	-10.3716
悅	-10.3723
九十	-10.3732
沔	-10.3733
將士	-10.3733
昔者	-10.3741
琵琶	-10.3742
惡之	-10.3742
後主	-10.3745
股	-10.3746
潁川	-10.3747
虵	-10.375
桞	-10.3757
讒	-10.3759
父老	-10.3761
來朝	-10.3762
往往	-10.3762
鈴	-10.3769
之餘	-10.3771
望之	-10.3773
遂以	-10.3778
閻	-10.378
寮	-10.3782
郊祀	-10.3788
傳見	-10.3789
先王之	-10.3791
訊	-10.3801
狎	-10.3801
往來	-10.3804
繕	-10.3809
顛	-10.3813
一卷	-10.3813
有異	-10.3813
各一人	-10.3814
不知其	-10.3815
粒	-10.3816
吉凶	-10.3816
不動	-10.382
起居	-10.383
而止	-10.383
渴	-10.3834
晟	-10.3834
幅	-10.3837
躡	-10.3838
獻之	-10.3838
之家	-10.3838
簷	-10.3839
為左	-10.3843
瓌	-10.3845
求之	-10.3847
羈	-10.3848
屨	-10.3851
籌	-10.3854
迭	-10.3859
廣州	-10.386
誼	-10.3865
不盡	-10.3871
兾	-10.3871
岱	-10.3873
貲	-10.3874
代之	-10.3883
賚	-10.3886
而立	-10.389
壅	-10.389
記云	-10.3893
殖	-10.3893
未可	-10.3897
繭	-10.3899
天道	-10.39
故以	-10.39
翹	-10.3908
人多	-10.3912
別	-10.3913
帆	-10.3914
齊侯	-10.3917
因以	-10.3921
籬	-10.3922
卞	-10.3924
啄	-10.3926
貴賤	-10.3932
毛詩	-10.3932
故能	-10.3937
見於	-10.3938
稚	-10.3941
贄	-10.3942
凱	-10.3944
恬	-10.3948
長吏	-10.395
韜	-10.3951
帽	-10.3952
酉	-10.3952
跳	-10.3953
始皇	-10.3964
潘岳	-10.3964
行人	-10.3965
炳	-10.3966
景帝	-10.3966
敘	-10.3967
討之	-10.3971
餐	-10.3972
袴	-10.3976
員外郎	-10.398
太僕	-10.3981
蔬	-10.3983
雛	-10.3985
楷	-10.3986
𦙍	-10.3986
若有	-10.399
見前	-10.3992
隴西	-10.3995
用事	-10.4001
荀子	-10.4002
老人	-10.4004
竄	-10.4004
貂	-10.4006
曰若	-10.4016
霑	-10.4016
郤	-10.4017
不覺	-10.4018
諸侯之	-10.402
祕	-10.402
孕	-10.4022
桃花	-10.4028
其聲	-10.4028
愷	-10.403
於上	-10.4032
十五年	-10.4044
不免	-10.4046
幡	-10.4051
核	-10.4052
歐陽修	-10.4072
廬山	-10.4086
曰臣聞	-10.4086
建安	-10.4097
丹陽	-10.4098
軾	-10.4102
世之	-10.4105
儀禮	-10.4107
曰王	-10.4107
於人	-10.4107
者多	-10.4109
歇	-10.4116
之難	-10.412
踏	-10.413
東觀	-10.4135
控	-10.4139
豈有	-10.4146
銘曰	-10.4148
婉	-10.415
未及	-10.4153
螭	-10.4154
太極	-10.4156
變化	-10.4161
問之	-10.4165
華山	-10.4167
莒	-10.4168
疋	-10.4169
欽定四庫全書	-10.417
茹	-10.4174
峙	-10.4176
不容	-10.4177
舎人	-10.4182
翦	-10.4183
纒	-10.4183
太山	-10.4183
豚	-10.4183
諸儒	-10.4184
多少	-10.4184
部郎中	-10.4189
五星	-10.4196
以功	-10.4197
闈	-10.4197
十四年	-10.4201
滌	-10.4201
何不	-10.4202
藪	-10.4204
可汗	-10.4204
五千	-10.4208
今年	-10.4212
皆為	-10.4212
邦國	-10.4212
者乎	-10.4216
殿前	-10.4219
丨丨丨丨丨丨	-10.4223
驂	-10.4223
越王	-10.4224
梵	-10.4225
之命	-10.4234
脅	-10.424
武徳	-10.4241
繪	-10.4243
謝靈運	-10.4245
於外	-10.4256
神宗	-10.4268
針	-10.427
蘓	-10.4275
安國	-10.4276
曹公	-10.428
日中	-10.4289
歆	-10.4292
王勃	-10.4294
髙帝	-10.4295
而退	-10.43
萃	-10.4305
秀才	-10.4306
匱	-10.4313
沼	-10.4313
蕙	-10.4317
之世	-10.4319
誄	-10.4322
召見	-10.4325
之處	-10.4325
縣有	-10.4325
官屬	-10.4326
苛	-10.4329
沾	-10.4333
昻	-10.4335
東方朔	-10.4337
侮	-10.4338
山之	-10.434
堆	-10.4349
形如	-10.435
嘉之	-10.4351
治之	-10.4351
人不	-10.4352
之君	-10.4354
押	-10.4356
久之	-10.4356
倡	-10.4366
為侍中	-10.4367
刋	-10.437
侍御	-10.4382
平王	-10.4383
羔	-10.4387
録曰	-10.439
之罪	-10.4394
并州	-10.4397
蝗	-10.4398
騷	-10.4403
監察御史	-10.4408
鷺	-10.4411
冐	-10.4411
終身	-10.4427
之物	-10.443
四字	-10.4431
人臣	-10.4442
彫	-10.4443
孟郊	-10.4446
之乃	-10.4453
左傳曰	-10.4456
慘	-10.4458
沂	-10.446
何所	-10.4461
上元	-10.4466
叶	-10.4468
麋	-10.447
清河	-10.447
掖	-10.4475
光禄大夫	-10.449
之風	-10.4497
謂其	-10.45
二十年	-10.451
故有	-10.4517
千餘人	-10.4522
寤	-10.4522
他日	-10.4522
燎	-10.4528
朔方	-10.453
憲宗	-10.4531
有四	-10.4535
賑	-10.4538
渤海	-10.4547
梧	-10.455
各一	-10.4553
梁元帝	-10.4554
之重	-10.4558
棟	-10.4562
驟	-10.4565
白日	-10.4566
衛將軍	-10.4568
爻	-10.4569
其功	-10.4572
禽獸	-10.4573
㕔	-10.4583
江夏	-10.4586
楹	-10.4589
漢中	-10.4589
相傳	-10.4593
一朝	-10.4597
肺	-10.46
已下	-10.4601
郁	-10.4603
坑	-10.4605
之變	-10.4616
捉	-10.4623
灘	-10.4623
大将軍	-10.4629
萬國	-10.4631
繇是	-10.4634
大敗	-10.4635
擔	-10.4635
武后	-10.4642
吏部尚書	-10.4653
東漢	-10.4653
蘿	-10.4654
青州	-10.4657
王氏	-10.4658
太白	-10.4659
何必	-10.4661
宫人	-10.4661
及第	-10.4661
嬌	-10.4663
臣等	-10.4666
番	-10.4669
總管	-10.4677
温庭筠	-10.4681
群	-10.4682
鵞	-10.4685
軟	-10.4685
摶	-10.4688
以後	-10.4688
昱	-10.47
攘	-10.47
復置	-10.4705
不顧	-10.4707
禇	-10.4708
二千	-10.4709
鯉	-10.471
周之	-10.471
囂	-10.471
咽	-10.4716
太宰	-10.4718
詎	-10.4727
書云	-10.4729
可得	-10.4734
所生	-10.474
縫	-10.4741
嗚呼	-10.4741
鉢	-10.4744
西山	-10.4751
之象	-10.4751
怯	-10.4752
國史	-10.4753
易林	-10.4754
列子	-10.4755
歙	-10.4759
第五	-10.4764
應制詩	-10.4767
韋應物	-10.4775
謂之丨丨	-10.4775
箱	-10.478
轍	-10.4782
亨	-10.4782
是日	-10.4788
西河	-10.479
謡	-10.4798
迥	-10.4798
金玉	-10.4806
前漢	-10.4807
僭	-10.4809
耻	-10.4819
杞	-10.4828
問其故	-10.4828
淮南子曰	-10.483
鵝	-10.4836
菱	-10.484
字仲	-10.484
之道也	-10.4848
扉	-10.4849
飲之	-10.485
亭詩	-10.4851
丨丨注	-10.4864
王建	-10.4868
以求	-10.4877
尚書郎	-10.488
曰陛下	-10.4881
不利	-10.4884
攻之	-10.4885
䨇	-10.4888
秋風	-10.4891
於前	-10.4896
受之	-10.4897
欄	-10.4905
徐陵	-10.4908
三字	-10.4911
艮	-10.4912
文子	-10.4912
陽侯	-10.4918
永嘉	-10.4919
戢	-10.4921
抱朴子	-10.4923
滛	-10.4929
曙	-10.4929
冨	-10.4935
教授	-10.4939
棠	-10.4941
諸葛亮	-10.4943
自今	-10.4946
萬年	-10.4947
大驚	-10.4957
鴟	-10.4958
為太子	-10.4958
四面	-10.4958
之月	-10.4959
軍事	-10.4961
諸公	-10.4962
萍	-10.4965
君子之	-10.4965
梁書	-10.4967
雜記	-10.497
蔵	-10.4976
河中	-10.4978
之本	-10.4979
癡	-10.4979
㸔	-10.4986
楚子	-10.4988
太保	-10.4991
朱子	-10.4995
雍州	-10.4999
之始	-10.5
大明	-10.5
言於	-10.5
風流	-10.5003
不信	-10.5003
撓	-10.5005
而能	-10.5008
厠	-10.501
人為	-10.5014
之徳	-10.5019
戰國	-10.5021
沙門	-10.5029
賦丨丨	-10.5041
拳	-10.5041
乃命	-10.5042
上林	-10.5046
聨	-10.5046
梅花	-10.5052
不自	-10.5054
楊萬里	-10.5058
菽	-10.5058
有此	-10.506
大將	-10.5063
多所	-10.5063
脊	-10.5064
濮	-10.507
而不知	-10.507
白虎	-10.5071
邯鄲	-10.5073
冀州	-10.5084
山詩	-10.5085
是月	-10.5086
堰	-10.5087
日夜	-10.5101
謚	-10.5103
竅	-10.5109
梯	-10.5116
於天下	-10.5117
人名	-10.5117
河西	-10.5126
可為	-10.5129
城門	-10.513
芽	-10.5133
博學	-10.5142
屏風	-10.5142
貎	-10.5147
隕	-10.515
鉞	-10.5153
愛之	-10.5154
俎	-10.5156
豔	-10.5157
戰國䇿	-10.5159
文宗	-10.516
以金	-10.5161
蠅	-10.5161
寒暑	-10.5163
長子	-10.5163
執事	-10.5163
洋	-10.5164
九卿	-10.5165
聞而	-10.5167
醢	-10.5167
褚	-10.5168
代宗	-10.5171
三分	-10.5172
線	-10.5172
舂	-10.5175
為天下	-10.5177
傳記	-10.5177
穹	-10.5178
其形	-10.5184
姪	-10.5184
拯	-10.5189
張衡	-10.519
則為	-10.519
之書	-10.5193
中央	-10.5197
之服	-10.5197
可也	-10.5197
舄	-10.5202
不必	-10.5205
逋	-10.5206
剥	-10.5209
萬民	-10.5213
熾	-10.5213
一員	-10.5214
千載	-10.5216
冩	-10.5221
苟	-10.5222
兖州	-10.5223
世説	-10.5234
此其	-10.5237
珮	-10.5245
曇	-10.5248
俘	-10.5249
後至	-10.5249
出自	-10.5252
烝	-10.5255
清風	-10.5256
晉書曰	-10.5258
友人	-10.5267
大笑	-10.5278
托	-10.5278
孺	-10.5284
旂	-10.5287
漲	-10.5289
牡丹	-10.5291
為右	-10.5291
椎	-10.5292
徘徊	-10.5293
起於	-10.5294
未至	-10.5298
請以	-10.53
闥	-10.5311
少時	-10.5312
洎	-10.5315
于丨丨	-10.5317
蒿	-10.5319
繆	-10.532
之狀	-10.5321
令史	-10.5328
土地	-10.5341
忝	-10.5342
楚人	-10.5346
丑	-10.5351
咸陽	-10.5357
或云	-10.5358
腦	-10.5361
注丨丨	-10.5363
翫	-10.5367
不已	-10.537
領軍	-10.5374
上表	-10.5374
歐	-10.5375
垢	-10.5376
四夷	-10.5377
嘆曰	-10.5378
紆	-10.5381
梁武帝	-10.5381
武陵	-10.5384
酣	-10.5384
以供	-10.5392
暨	-10.5393
馥	-10.5409
僉	-10.5416
▁李	-10.5418
蓮花	-10.5421
閨	-10.5427
易之	-10.5434
迅	-10.5439
經曰	-10.544
禹貢	-10.5445
與其	-10.5448
奎	-10.545
𨕖	-10.5452
真人	-10.5455
偕	-10.5456
黄河	-10.5457
江西	-10.5458
皎	-10.5458
武昌	-10.5458
年少	-10.5462
位至	-10.5468
它	-10.5469
百官志	-10.5476
宗正	-10.5478
曼	-10.5488
旒	-10.5491
征伐	-10.5494
為國	-10.5495
因名	-10.5496
忤	-10.5497
出為	-10.5507
百人	-10.5507
緝	-10.5508
畨	-10.5511
稱其	-10.5515
騁	-10.5519
百餘人	-10.552
祇	-10.5524
之主	-10.5526
斃	-10.5528
晞	-10.5529
石室	-10.5534
爾雅曰	-10.5537
祫	-10.554
自有	-10.5541
施行	-10.5543
列侯	-10.5557
韓信	-10.556
數百人	-10.5564
此人	-10.5567
有道	-10.557
流水	-10.5571
蓬萊	-10.5571
以獻	-10.5573
劭	-10.5577
綰	-10.5579
煖	-10.5582
提舉	-10.5583
而自	-10.5585
西漢	-10.5588
在於	-10.5589
切集韻韻㑹	-10.559
無異	-10.5591
𢃄	-10.5591
天命	-10.5594
未必	-10.5594
藏之	-10.5595
宣武	-10.5596
東陽	-10.5596
樸	-10.5597
有才	-10.5597
為名	-10.5597
之學	-10.5598
金吾	-10.5598
所宜	-10.5598
名為	-10.5599
夫婦	-10.5599
官至	-10.5601
杜甫詩	-10.5603
鼈	-10.5607
范成大	-10.5607
生子	-10.5609
籥	-10.5618
舘	-10.5622
九江	-10.5626
法度	-10.5631
者謂	-10.5638
司農	-10.5645
小者	-10.5645
以致	-10.5646
所司	-10.5646
栁宗元	-10.5646
三十里	-10.5649
喚	-10.5654
誇	-10.5656
模	-10.5666
後唐	-10.5666
平陽	-10.5669
復為	-10.5673
漂	-10.5674
居之	-10.5678
而入	-10.5687
其民	-10.5688
嘲	-10.5692
王室	-10.5694
勘	-10.5695
其志	-10.5696
之計	-10.5706
不可不	-10.5709
禮儀	-10.5711
南越	-10.5717
糞	-10.5725
糓	-10.5728
張説	-10.5731
螺	-10.5733
所殺	-10.5741
有聲	-10.5749
不就	-10.5755
三王	-10.5756
寘	-10.5757
猶有	-10.5757
惲	-10.5757
系	-10.5761
遣人	-10.5766
水旱	-10.5767
鎧	-10.5767
唐虞	-10.5768
殯	-10.5779
五曰	-10.5787
聰明	-10.5794
甌	-10.5796
龔	-10.5798
参	-10.58
廂	-10.5803
悍	-10.5804
在此	-10.5807
安定	-10.5808
無有	-10.5808
城下	-10.5809
伊尹	-10.5809
夏至	-10.5813
瑾	-10.5818
寒食	-10.5823
然也	-10.5826
道也	-10.5827
琦	-10.5827
賄	-10.5827
琢	-10.5828
已而	-10.5831
武子	-10.5834
評	-10.5834
大理	-10.5835
相望	-10.5835
金陵	-10.5837
粤	-10.5841
筋	-10.5843
六尺	-10.5851
慚	-10.5853
八卦	-10.5854
子路	-10.5856
鷗	-10.5868
之師	-10.5883
亦無	-10.5883
訣	-10.5884
紺	-10.5885
固辭	-10.5886
若不	-10.5889
訛	-10.5891
秦始皇	-10.5892
啖	-10.5895
分為	-10.5896
閎	-10.5898
萬世	-10.5898
嚮	-10.59
鄭𤣥	-10.5903
凋	-10.5907
翰林學士	-10.591
莊宗	-10.5913
鄂	-10.5913
嫡	-10.5914
不知所	-10.5916
幄	-10.5916
氊	-10.5916
釋名	-10.5918
歴代	-10.5919
粧	-10.5924
之說	-10.5927
劉氏	-10.5929
若夫	-10.5931
瘡	-10.5938
京城	-10.594
㑹要	-10.5942
須臾	-10.5943
驪	-10.5953
而得	-10.5954
一月	-10.5959
貟	-10.5961
晷	-10.5965
不肖	-10.5966
措	-10.5968
百僚	-10.597
兵馬	-10.5972
鉛	-10.5974
妍	-10.5976
亦可	-10.5979
周易	-10.5988
牘	-10.599
杜預	-10.5998
亦以	-10.6001
神龍	-10.6003
詩書	-10.6005
拊	-10.6006
故謂之	-10.6006
隘	-10.6007
五尺	-10.6009
漳	-10.6009
王安石	-10.6011
賦見	-10.6012
▁杜甫	-10.6013
豎	-10.6014
斾	-10.6016
詹	-10.6016
千年	-10.6022
袂	-10.6034
嬴	-10.6039
褥	-10.604
海中	-10.604
篋	-10.6041
問其	-10.6043
常山	-10.6047
譯	-10.6049
字文	-10.6051
奏曰	-10.6054
三萬	-10.6055
帝即位	-10.6056
謐	-10.6059
相去	-10.606
瓘	-10.606
衣食	-10.6062
慿	-10.6068
兄子	-10.6069
詩話	-10.607
曵	-10.607
曰何	-10.6071
叡	-10.6073
濶	-10.6081
瘦	-10.6081
無常	-10.6082
後漢書曰	-10.6083
麓	-10.6091
昂	-10.6092
水火	-10.6092
巒	-10.6095
必先	-10.6097
千秋	-10.61
人事	-10.6102
乃得	-10.6102
弭	-10.6106
縠	-10.6107
開府	-10.6109
妬	-10.611
顥	-10.6112
國子	-10.6117
療	-10.612
諫議大夫	-10.6122
邾	-10.6124
王孫	-10.6125
不疑	-10.6128
城郭	-10.6129
明經	-10.6131
公羊	-10.6137
作丨丨	-10.6144
蛤	-10.6145
魏王	-10.6146
鵬	-10.6146
金史	-10.6146
天竺	-10.6152
遶	-10.616
在上	-10.6161
白玉	-10.6166
駱	-10.6167
陽氣	-10.6167
其義	-10.6169
恊	-10.617
其次	-10.6171
曰是	-10.6172
茗	-10.6172
之音	-10.6176
平章事	-10.6181
蹤	-10.6182
陸龜蒙	-10.6186
陽縣	-10.6188
丙	-10.619
呼為	-10.6192
曄	-10.6195
猗	-10.6195
恂	-10.6197
河圖	-10.6203
軀	-10.6206
雩	-10.6213
河陽	-10.6216
森	-10.6217
后稷	-10.6218
駮	-10.6219
蕭何	-10.6221
奐	-10.6224
雲中	-10.6225
所出	-10.623
廩	-10.6232
為丞相	-10.6234
待之	-10.6235
晉王	-10.6241
蠻夷	-10.6247
大人	-10.6247
以象	-10.6251
之弊	-10.6253
以相	-10.6254
更始	-10.6255
成功	-10.6261
鳯凰	-10.6264
屍	-10.6264
近臣	-10.6265
胃	-10.6278
明一統志丨丨	-10.6278
冡	-10.628
掛	-10.6284
之長	-10.6289
楓	-10.6294
說文	-10.6294
先君	-10.6296
廹	-10.6298
累遷	-10.6298
佗	-10.6305
豈非	-10.6305
其職	-10.6308
𤼵	-10.6312
禮也	-10.6313
匣	-10.6313
殻	-10.6316
必以	-10.6325
利害	-10.6325
留守	-10.6325
庇	-10.6325
曳	-10.6328
論曰	-10.633
麒麟	-10.6333
一枝	-10.6333
涇	-10.6333
則無	-10.6335
參差	-10.6335
頥	-10.6337
黄鍾	-10.6337
妝	-10.6338
屐	-10.6341
冉	-10.6342
廐	-10.6343
江左	-10.6346
不待	-10.6348
無益	-10.635
永平	-10.635
於地	-10.6351
輯	-10.6351
上詳	-10.6351
二十八	-10.6357
頽	-10.6361
漠	-10.6365
兕	-10.6366
鄉人	-10.6368
賞罰	-10.637
髯	-10.6373
師道	-10.6375
悖	-10.6378
之理	-10.6379
而進	-10.6381
兖	-10.6389
及諸	-10.6394
何謂	-10.6394
十六年	-10.6406
弑	-10.6406
國王	-10.641
而至	-10.6416
翮	-10.6419
相繼	-10.6424
搜	-10.6427
項羽	-10.6427
宜令	-10.6428
百八十	-10.6429
無私	-10.6431
未聞	-10.6431
之亂	-10.6432
乃令	-10.6438
殿下	-10.6438
王母	-10.6444
世宗	-10.6448
言語	-10.6448
中原	-10.6449
字元	-10.6451
庖	-10.6452
中書門下	-10.6455
騶	-10.6459
艦	-10.6462
噉	-10.6464
栽	-10.6466
王師	-10.6466
槩	-10.6468
衆人	-10.647
怖	-10.6473
搖	-10.6476
埤雅	-10.6477
械	-10.6477
諸司	-10.6478
景公	-10.6482
六合	-10.6482
或問	-10.6482
將帥	-10.6486
張說	-10.6491
東觀漢記曰	-10.65
曰吾聞	-10.65
四品	-10.6504
剡	-10.6511
正色	-10.6512
行事	-10.6514
人家	-10.6519
涵	-10.6521
不止	-10.6525
蹙	-10.6527
精神	-10.6531
奴婢	-10.6531
而反	-10.6535
者所以	-10.6535
蚌	-10.6535
在外	-10.6538
卯	-10.654
餓	-10.6541
數人	-10.6543
騫	-10.6543
顓頊	-10.6544
制曰	-10.6545
劫	-10.6546
弃	-10.6546
闔	-10.6547
禮義	-10.6549
給事	-10.6555
矣然	-10.6559
泗	-10.6561
揚子	-10.6561
有石	-10.6563
侔	-10.6581
囿	-10.6582
蓼	-10.6584
渥	-10.6587
旃	-10.6597
郵	-10.66
中尉	-10.66
銖	-10.6602
叩頭	-10.6603
武帝紀	-10.6606
其才	-10.6606
眺	-10.6608
名山	-10.6609
事君	-10.6609
廪	-10.6611
大國	-10.6612
家有	-10.6612
京兆尹	-10.6613
笥	-10.6616
一言	-10.6618
不善	-10.6618
史官	-10.6619
寝	-10.6619
肌	-10.6619
嘗與	-10.662
州人	-10.662
彬	-10.6624
于此	-10.6625
瀛	-10.6626
直言	-10.663
寐	-10.6632
挹	-10.6634
玉堂	-10.6636
之末	-10.6636
跋	-10.6639
衛尉	-10.6647
皁	-10.6647
頤	-10.6647
憎	-10.6648
滄	-10.665
後有	-10.6661
左氏	-10.6665
於民	-10.6667
十有二	-10.6669
中人	-10.6672
嶷	-10.6676
水經	-10.6679
衷	-10.6681
壮	-10.6683
牡	-10.6684
軒轅	-10.6684
販	-10.6685
東平	-10.6686
地理志	-10.6688
以報	-10.669
此則	-10.6691
綃	-10.6694
不祥	-10.6694
官吏	-10.6697
公事	-10.6698
亘	-10.67
奬	-10.6702
昶	-10.6706
天文志	-10.6707
建康	-10.671
巽	-10.6714
前代	-10.6715
江湖	-10.6724
世子	-10.6726
六典	-10.6726
江水	-10.6727
三十年	-10.6728
曰善	-10.6732
無遺	-10.6741
惻	-10.6746
軍士	-10.675
駁	-10.675
沿革	-10.675
杲	-10.6751
岫	-10.6754
所見	-10.6755
十七年	-10.6756
鈔	-10.6757
古詩	-10.676
由此	-10.676
嬪	-10.6761
稱之	-10.6761
吳王	-10.6762
灾	-10.6765
一寸	-10.6771
蘋	-10.6778
珠玉	-10.6779
救之	-10.6779
以前	-10.6781
奉使	-10.6783
而上	-10.6789
亦如之	-10.6794
㤗	-10.6794
珥	-10.6794
後人	-10.6794
菴	-10.6795
大抵	-10.6802
狩	-10.6803
司馬相如	-10.6803
侯景	-10.6808
昭王	-10.6813
鴛鴦	-10.6814
醇	-10.6814
虎賁	-10.6814
汶	-10.6816
諫曰	-10.6817
渡江	-10.6818
數十人	-10.6821
宋朝	-10.6821
南郡	-10.6829
諸國	-10.683
徂	-10.6833
印綬	-10.6836
娘	-10.6836
令尹	-10.684
媒	-10.6842
懐詩	-10.6843
金城	-10.6844
菩薩	-10.6845
本紀	-10.6846
物也	-10.6847
武帝時	-10.6849
為君	-10.6851
琉璃	-10.6852
覃	-10.6855
其君	-10.6855
其能	-10.6858
外戚	-10.6859
古文	-10.686
曰大	-10.6865
少有	-10.6871
喙	-10.6871
溉	-10.6879
鍊	-10.6879
奏請	-10.688
北斗	-10.6882
陞	-10.6884
玊	-10.6886
狡	-10.689
東京	-10.6891
十餘年	-10.6896
皇太后	-10.6897
望見	-10.6898
其本	-10.6906
北面	-10.6909
秦漢	-10.691
猥	-10.6918
▁又曰	-10.6921
蛾	-10.6922
眇	-10.6922
盾	-10.6923
兵部	-10.6923
陽城	-10.6925
可乎	-10.6927
别駕	-10.6937
清明	-10.6938
無忌	-10.694
陸游詩	-10.6942
特進	-10.6943
之性	-10.6945
俛	-10.6949
徇	-10.6952
議郎	-10.6952
辜	-10.6961
五寸	-10.6961
猪	-10.6966
緋	-10.6972
之號	-10.6975
后土	-10.6976
紈	-10.6977
既至	-10.6979
二十七	-10.6979
桓温	-10.698
宗紀	-10.6981
繹	-10.6982
噫	-10.6988
造化	-10.6988
開皇	-10.6988
乃使	-10.6989
頑	-10.6991
上黨	-10.6992
道徳	-10.6998
衣裳	-10.6998
百九十	-10.6998
洩	-10.6999
鉅	-10.7006
任昉	-10.7007
釡	-10.7007
圉	-10.701
鯨	-10.7015
覧	-10.7016
彘	-10.7021
叔父	-10.7022
涸	-10.7023
水上	-10.7027
河間	-10.7028
禆	-10.7033
所用	-10.7034
若乃	-10.7039
一家	-10.7039
愿	-10.7041
自謂	-10.7045
之業	-10.7048
薊	-10.705
第四	-10.7051
愔	-10.7052
欲令	-10.7054
子貢	-10.7058
趾	-10.7058
相對	-10.7064
葱	-10.707
所至	-10.7074
民間	-10.7077
靈帝	-10.7077
而言	-10.7082
非常	-10.7082
十餘萬	-10.7082
中書舍人	-10.7087
軍旅	-10.7088
潞	-10.709
佚	-10.7091
其利	-10.7092
秋日	-10.7094
諾	-10.7094
黯	-10.7097
砌	-10.7101
騐	-10.7102
瘞	-10.7105
不得已	-10.7105
)○	-10.7108
鮑照	-10.7112
以明	-10.7114
鍼	-10.7114
縞	-10.7122
未盡	-10.7122
百七十	-10.713
峭	-10.7133
鴉	-10.7134
關中	-10.7134
長生	-10.7137
其數	-10.7137
何故	-10.7138
卿大夫	-10.7138
可見	-10.7142
雖不	-10.7146
一物	-10.715
若是	-10.715
世說	-10.7152
闗中	-10.7155
詩序	-10.7158
經史	-10.7158
加以	-10.716
扶風	-10.7162
朝服	-10.7165
姻	-10.7167
其色	-10.7167
吾子	-10.7168
而不可	-10.7168
賜以	-10.7172
虬	-10.7175
兵法	-10.7177
當以	-10.7182
其衆	-10.7185
陰陽	-10.7186
莊子曰	-10.7191
東門	-10.7192
賢人	-10.7193
久矣	-10.7199
芸	-10.7199
岩	-10.7212
七百	-10.7214
南齊	-10.7228
縱横	-10.7231
之矣	-10.7232
守之	-10.724
其道	-10.7242
逞	-10.7245
襄公	-10.7252
盗賊	-10.7259
雲笈七籖	-10.7264
冗	-10.7267
人謂	-10.7268
懇	-10.7268
王元	-10.727
羗	-10.7274
南面	-10.7274
汜	-10.728
甥	-10.7283
不去	-10.7285
禎	-10.7291
怒曰	-10.7295
齧	-10.7297
臨川	-10.7297
佇	-10.7302
漬	-10.7302
夜半	-10.7304
辭曰	-10.7305
山南	-10.7305
弓矢	-10.7306
張九齡	-10.7307
殄	-10.7312
六經	-10.7313
滎陽	-10.7313
從者	-10.7316
𥙷藻	-10.7318
城西	-10.7325
侍宴	-10.7327
武功	-10.7327
麴	-10.7327
親戚	-10.7329
之神	-10.7333
棋	-10.7334
職事	-10.7335
所欲	-10.7337
得罪	-10.7337
册府元龜卷	-10.7339
中軍	-10.7345
逄	-10.7347
數月	-10.7353
知人	-10.7354
縣西	-10.7354
桃李	-10.7356
頰	-10.7362
說文曰	-10.7362
安帝	-10.7366
大軍	-10.7366
此言	-10.7369
璣	-10.7371
十九年	-10.7372
因之	-10.7375
鼓吹	-10.7378
裾	-10.7379
所知	-10.7379
㡌	-10.7385
弘	-10.7386
讌	-10.7392
光明	-10.7393
對曰臣	-10.7399
涓	-10.74
欠	-10.74
耽	-10.7403
西王母	-10.7406
所作	-10.7412
十八年	-10.7414
李氏	-10.7418
所言	-10.7419
噬	-10.7425
詡	-10.7427
不改	-10.7427
七十二	-10.7443
易曰	-10.7444
薰	-10.7451
扣	-10.7455
百寮	-10.7456
自知	-10.7456
晋書	-10.7456
禮記曰	-10.7458
辟雍	-10.7463
五六	-10.7463
壹	-10.7464
公私	-10.7465
乗輿	-10.7466
文獻通考	-10.7474
號令	-10.7476
水出	-10.7481
畦	-10.7482
視其	-10.7483
九品	-10.7485
未得	-10.7486
梗	-10.749
伽	-10.7495
胸	-10.7497
抄	-10.7498
之力	-10.7498
行者	-10.7501
有差	-10.7501
穗	-10.7502
陜西	-10.7504
隗	-10.7507
之恩	-10.7513
伏羲	-10.7514
不加	-10.7516
遂為	-10.7516
儒者	-10.7518
竟不	-10.752
鞏	-10.7522
作樂	-10.7529
庠	-10.7533
有疾	-10.7533
燃	-10.7534
一也	-10.7536
一字	-10.7536
内有	-10.7539
鳳凰	-10.754
五里	-10.754
豫州	-10.7549
倪	-10.7551
球	-10.7554
明宗	-10.7557
不亦	-10.7558
骨肉	-10.756
渡河	-10.7561
長孫	-10.7563
黄門侍郎	-10.7574
中郎	-10.7577
之形	-10.7579
摯	-10.7584
魏武	-10.7585
覲	-10.7585
重之	-10.7585
名臣	-10.759
惰	-10.7594
酪	-10.7595
善惡	-10.7602
譴	-10.7604
千户	-10.7608
甚多	-10.7611
酺	-10.7611
啇	-10.7615
為上	-10.7618
自言	-10.7618
者乃	-10.7622
撲	-10.7623
表曰	-10.7627
様	-10.7628
酋	-10.7631
事也	-10.7633
始於	-10.7633
長短	-10.7634
於朝	-10.7637
楯	-10.7638
曰某	-10.7641
于時	-10.7642
大功	-10.765
將兵	-10.7651
論衡	-10.7654
户部	-10.7654
昴	-10.7658
之儀	-10.7658
侍讀	-10.7663
盎	-10.7668
黔	-10.7671
埽	-10.7671
夘	-10.7671
於時	-10.7672
股肱	-10.7674
黛	-10.7679
玠	-10.7692
挈	-10.7695
羨	-10.7696
之門	-10.7699
欲得	-10.7703
爲之	-10.7703
鎬	-10.7705
而天下	-10.7707
猴	-10.7708
失之	-10.7711
教之	-10.7711
夏日	-10.7712
常有	-10.7717
為我	-10.7718
元年正月	-10.7718
鬛	-10.7718
為主	-10.7719
人掌	-10.7721
鶻	-10.7725
梅堯臣	-10.7733
不解	-10.7734
有常	-10.7735
堡	-10.7739
百二十	-10.7744
不避	-10.7745
後宫	-10.7746
畋	-10.7747
暈	-10.7747
同心	-10.7749
不安	-10.7752
始也	-10.7752
嫗	-10.7752
敢不	-10.7754
堵	-10.7758
者三	-10.7771
棃	-10.7773
之兵	-10.7773
而卒	-10.7776
字叔	-10.7777
上天	-10.7777
至徳	-10.778
章句	-10.778
艶	-10.7781
即日	-10.7781
宼	-10.7782
毬	-10.7783
筒	-10.7783
郡公	-10.7785
歎息	-10.7787
博物志	-10.7789
瘠	-10.7791
受其	-10.7794
蟄	-10.7794
驍	-10.7795
誅之	-10.7797
廬江	-10.7802
而民	-10.7804
一尺	-10.7806
脣	-10.7811
何足	-10.7811
錐	-10.7811
也吾	-10.7813
六軍	-10.7814
人倫	-10.7818
安能	-10.782
晉人	-10.7822
矣而	-10.7822
在前	-10.7823
人生	-10.7823
明府	-10.7824
煑	-10.7828
宋史樂志	-10.783
不息	-10.783
文書	-10.7833
儔	-10.7833
日暮	-10.7833
䘏	-10.7837
曽子	-10.7838
大喜	-10.784
題詩	-10.7841
脾	-10.7844
而未	-10.7845
盜賊	-10.7847
膾	-10.7852
虗	-10.7856
五榖	-10.7857
白鹿	-10.7857
簮	-10.7857
青龍	-10.7858
大破之	-10.7859
乾元	-10.7859
檜	-10.7862
惇	-10.7864
之要	-10.7868
聖賢	-10.7869
屈原	-10.7872
不問	-10.7874
狥	-10.7876
納之	-10.7877
不能自	-10.7878
與語	-10.788
枝葉	-10.7884
𢎞農	-10.7884
坂	-10.7884
卉	-10.7886
而作	-10.7891
大旱	-10.7893
儻	-10.7894
青雲	-10.7894
賞賜	-10.7896
自殺	-10.7901
復有	-10.7904
叔孫	-10.7905
飾以	-10.7908
不暇	-10.7909
政和	-10.7911
緘	-10.7914
其法	-10.7916
螢	-10.7918
王道	-10.7918
元嘉	-10.7919
禪師	-10.7921
複	-10.7925
損益	-10.7927
筐	-10.7931
猶未	-10.7932
更名	-10.7933
章帝	-10.7934
梁王	-10.7937
於道	-10.7938
拍	-10.7938
建中	-10.7939
雲氣	-10.794
傭	-10.7947
薫	-10.7948
舊事	-10.7952
携	-10.7952
飭	-10.7956
釋名曰	-10.7957
可用	-10.7959
日出	-10.796
礪	-10.7961
棹	-10.7962
確	-10.7963
鞅	-10.7965
畤	-10.7966
謂之曰	-10.7969
柘	-10.7969
宗伯	-10.7969
記室	-10.7973
四尺	-10.7973
迺	-10.7973
指揮	-10.7985
西京雜記	-10.7988
縳	-10.7992
未幾	-10.8
三國	-10.8003
鋤	-10.8005
牛馬	-10.8006
浄	-10.8008
高宗	-10.8012
不明	-10.8014
木為	-10.8018
闡	-10.8022
去之	-10.8022
河水	-10.8023
有神	-10.8026
以賜	-10.8026
以給	-10.8028
一嵗	-10.8032
拭	-10.8043
以来	-10.8044
瑀	-10.8045
航	-10.8046
二萬	-10.8048
㓕	-10.805
懋	-10.805
丨丨丨丨丨丨丨	-10.8051
終始	-10.8054
下詔	-10.8057
挫	-10.8058
光禄	-10.806
不樂	-10.8062
紳	-10.8067
太上	-10.8068
置之	-10.8069
而致	-10.8073
尖	-10.8073
無他	-10.8077
三世	-10.8077
潦	-10.808
嵇康	-10.8081
兇	-10.8082
透	-10.8088
有九	-10.809
燔	-10.8092
墉	-10.8092
玉海	-10.8093
襄王	-10.8095
睢	-10.81
犧	-10.8104
濳	-10.8105
元日	-10.8106
之體	-10.8109
長樂	-10.8109
亦作	-10.811
鮮卑	-10.8111
而求	-10.8111
衡山	-10.8112
海上	-10.8115
斬首	-10.8116
鹵	-10.8119
槖	-10.812
不下	-10.8121
訥	-10.8124
食邑	-10.8125
有詔	-10.8126
獨不	-10.8126
止於	-10.8129
刁	-10.8133
謝安	-10.8136
棄之	-10.8137
巵	-10.8137
故云	-10.8138
厄	-10.814
瞽	-10.8144
縣南	-10.8144
江上	-10.8144
芥	-10.8145
年老	-10.8148
侍從	-10.815
多矣	-10.8157
怡	-10.8158
楚辭	-10.8159
劵	-10.816
曲江	-10.8163
倩	-10.8165
墀	-10.8173
桓帝	-10.8173
昆弟	-10.8173
捲	-10.8174
晃	-10.8175
陳書	-10.8176
他人	-10.8177
中書侍郎	-10.8183
炬	-10.8184
次韻	-10.8184
娛	-10.8185
為郎	-10.8186
藁	-10.8186
紇	-10.8195
認	-10.8195
法令	-10.8199
弧	-10.82
待詔	-10.8202
其勢	-10.8203
六百	-10.8205
戰於	-10.8206
塹	-10.8207
豁	-10.8208
穫	-10.8215
摇	-10.8217
孺子	-10.8219
此乃	-10.822
蚊	-10.8227
太清	-10.8235
五官	-10.8241
於庭	-10.8241
衘	-10.8243
當有	-10.8243
刑罰	-10.8244
燥	-10.8254
之實	-10.8256
依舊	-10.8256
有白	-10.8256
寨	-10.8258
承天	-10.8259
壯士	-10.8261
旌旗	-10.8261
侍臣	-10.8262
阮籍	-10.8264
塩	-10.8264
痕	-10.8265
孽	-10.8267
處分	-10.8268
左僕射	-10.8268
蒐	-10.8272
戊	-10.8272
行營	-10.8276
宋玉	-10.8276
知制誥	-10.8279
彥	-10.828
丨又	-10.828
泌	-10.8283
穆宗	-10.8285
岑參	-10.8289
琬	-10.8291
宦者	-10.8291
一丈	-10.8292
玉女	-10.8294
萬户	-10.83
蕊	-10.83
願陛下	-10.8301
干戈	-10.8303
顆	-10.8304
髙下	-10.8304
吝	-10.8305
示之	-10.8306
糜	-10.8308
一篇	-10.8308
唾	-10.8308
觜	-10.8308
濱	-10.8311
忠信	-10.8312
山澤	-10.8314
江海	-10.8314
未嘗不	-10.8314
孝宗	-10.8319
蠱	-10.8319
盂	-10.8319
牛羊	-10.8322
鶉	-10.8322
風雲	-10.8323
一石	-10.8326
皇朝	-10.8331
以兵	-10.8331
梢	-10.8333
神人	-10.8333
黄龍	-10.8333
鑄錢	-10.8337
分野	-10.8337
子夏	-10.834
也且	-10.8341
所為	-10.8347
灣	-10.835
悠悠	-10.835
數千人	-10.835
慷慨	-10.8353
釀	-10.8358
事不	-10.8358
順帝	-10.8359
猾	-10.8363
太一	-10.8366
之憂	-10.8376
衾	-10.8377
鄭伯	-10.8378
魏志曰	-10.8381
隻	-10.8381
茵	-10.8382
所以為	-10.8383
之㑹	-10.8386
驃騎	-10.8387
榛	-10.8388
槃	-10.8388
南宫	-10.8388
溥	-10.8388
封侯	-10.8389
奉詔	-10.8394
也遂	-10.8395
詣闕	-10.8398
士人	-10.84
尚書省	-10.84
慶厯	-10.84
八人	-10.8402
韓非子	-10.8402
而弗	-10.8404
不測	-10.8406
朝士	-10.8407
因其	-10.8407
於是乎	-10.8408
中庸	-10.8409
無敢	-10.8415
下車	-10.8419
二州	-10.8422
城東	-10.8426
鹽鐵	-10.8428
元帥	-10.8429
蒼梧	-10.8429
故其	-10.8433
盃	-10.8434
嘉禾	-10.8435
貴妃	-10.8436
不起	-10.8437
諮	-10.8438
朶	-10.8441
嘗有	-10.8442
鎖	-10.8443
肴	-10.8443
安石	-10.8444
▁宋史	-10.8445
茲	-10.845
前有	-10.845
奉天	-10.8454
則是	-10.8459
捍	-10.846
沛公	-10.8463
詵	-10.8464
惠帝	-10.8471
纖	-10.8471
五十里	-10.8473
產	-10.8473
忽有	-10.8476
在天	-10.8476
雖然	-10.8477
而食	-10.8477
北山	-10.848
▁白居易	-10.848
寗	-10.8481
珊瑚	-10.8484
焦氏易林	-10.8485
大義	-10.8493
之辭	-10.8493
王命	-10.8494
轉運使	-10.8496
䕶軍	-10.8497
大赦	-10.8502
溟	-10.8503
蔑	-10.8506
滔	-10.8506
迄	-10.8507
外國	-10.851
柑	-10.8511
璫	-10.8513
杳	-10.8514
無罪	-10.8517
百餘里	-10.8518
裴度	-10.852
圖書	-10.852
色如	-10.8521
天寶	-10.8522
當為	-10.8524
鈿	-10.8529
▁王	-10.8531
非其	-10.8531
誰能	-10.8533
者何	-10.8534
而來	-10.8536
所部	-10.8541
會稽	-10.8542
遯	-10.8547
插	-10.8548
醪	-10.8548
赭	-10.8552
有事	-10.8554
萬嵗	-10.8557
李商隠	-10.8563
州都督	-10.8564
之禍	-10.8565
山海經曰	-10.8568
舉兵	-10.8571
而知	-10.8572
六人	-10.8577
艱難	-10.8577
蜀志	-10.8578
功名	-10.8579
呵	-10.858
與諸	-10.858
死而	-10.8582
五百里	-10.8583
以正	-10.8583
嘗為	-10.8584
責之	-10.8587
王褒	-10.859
無可	-10.8596
腎	-10.8599
匝	-10.8601
釋之	-10.8604
拓	-10.8605
引兵	-10.8614
莊公	-10.8616
鄭谷	-10.8621
夷狄	-10.8621
襦	-10.8623
鑾	-10.8624
王粲	-10.8625
浣	-10.8627
遙	-10.8627
入于	-10.8628
琴瑟	-10.8629
南有	-10.863
歸之	-10.863
魏晉	-10.8643
薑	-10.8646
朝㑹	-10.8647
一夕	-10.8653
小字	-10.8656
師曠	-10.8657
伶	-10.866
曺	-10.8661
捜	-10.8663
者如	-10.8665
不獲	-10.8666
可以為	-10.8668
為司徒	-10.8673
説苑	-10.8673
馬援	-10.8676
朝野	-10.8681
歌舞	-10.8682
吕氏春秋	-10.8683
腥	-10.8683
蓍	-10.8684
禮之	-10.8685
大都督	-10.8688
百家	-10.8688
視事	-10.8689
轄	-10.8695
鳶	-10.8698
人者	-10.8699
文昌	-10.8703
生而	-10.8704
馬融	-10.8705
誌	-10.871
氛	-10.8712
漢之	-10.8713
臯陶	-10.8717
陁	-10.8718
戌	-10.8719
入海	-10.872
傳注	-10.8725
州牧	-10.873
黄庭堅	-10.873
物之	-10.8731
矣夫	-10.8731
公侯	-10.8732
芋	-10.8736
宣宗	-10.8736
將以	-10.8739
城北	-10.8743
劣	-10.8744
退而	-10.8746
諸路	-10.8747
觀者	-10.8752
倖	-10.8753
刪	-10.8755
此皆	-10.8755
父兄	-10.8756
亳	-10.8759
丨丨兮	-10.8764
立功	-10.8766
無功	-10.8766
惟有	-10.8767
宿衛	-10.8776
遞	-10.8777
大司農	-10.8777
朝臣	-10.8783
漢興	-10.8788
濛	-10.8792
諸郡	-10.8792
乎其	-10.8792
國用	-10.8794
浮雲	-10.8801
人之所	-10.8803
攬	-10.8804
匏	-10.8805
聿	-10.8807
懈	-10.8808
嬉	-10.8809
皂	-10.8811
㕘	-10.8811
二寸	-10.8815
劉長卿	-10.8817
曝	-10.8822
太陽	-10.8824
盍	-10.8826
未見	-10.8831
軍國	-10.8831
涌	-10.8833
而欲	-10.8833
耦	-10.8834
稱為	-10.8836
又何	-10.8844
貍	-10.8849
幢	-10.8851
廡	-10.8855
至矣	-10.8855
著作	-10.8857
嫂	-10.8859
紐	-10.8862
幕府	-10.8867
天官	-10.8872
刻石	-10.8872
蜃	-10.8872
椽	-10.8873
孟嘗君	-10.8873
可使	-10.8874
一枚	-10.8878
養之	-10.8886
欲使	-10.889
王導	-10.889
之流	-10.8893
𣙜	-10.8895
轉運	-10.8896
歸於	-10.8897
柵	-10.8898
縹	-10.8901
邠	-10.8906
其弟	-10.8908
釋奠	-10.8908
無道	-10.8916
澆	-10.8918
南康	-10.8918
非一	-10.8921
發兵	-10.8923
秘書	-10.8924
傳論	-10.8924
罄	-10.8927
御史臺	-10.8934
乗馬	-10.8936
之女	-10.8937
后妃	-10.8938
奈	-10.8939
紛紛	-10.8943
之遂	-10.8947
輔政	-10.8951
以問	-10.8953
之遺	-10.8953
麤	-10.8954
因而	-10.8955
萇	-10.8957
祜	-10.8957
於東	-10.8964
而已矣	-10.8965
諸軍事	-10.8966
十數	-10.8972
靄	-10.8973
二十餘	-10.8974
莫如	-10.8975
逍遥	-10.8977
作亂	-10.8979
謂人曰	-10.8986
葺	-10.8989
蘇軾詩	-10.8993
丹青	-10.8994
二日	-10.8997
而起	-10.9001
不稱	-10.9003
立春	-10.9005
二十一	-10.9007
韭	-10.9007
車騎將軍	-10.9013
牽牛	-10.9016
廣漢	-10.9017
嬖	-10.9018
樂天	-10.9019
也此	-10.9019
作詩	-10.902
大雨	-10.902
疫	-10.9026
何人	-10.9035
淳化	-10.9036
璜	-10.904
立於	-10.9046
嵩山	-10.9047
地理	-10.9049
靑	-10.9051
考功	-10.9055
李徳裕	-10.9059
謝朓	-10.9062
縣東	-10.9067
孔雀	-10.9068
行臺	-10.9068
不生	-10.9069
▁唐書	-10.907
錢塘	-10.9072
竒之	-10.9075
蛟龍	-10.9075
賦云	-10.9076
樹下	-10.908
哀帝	-10.9081
蚤	-10.9081
王敦	-10.9082
閉門	-10.9082
良久	-10.9083
八尺	-10.9084
主之	-10.9085
至尊	-10.9088
疾病	-10.9089
稽首	-10.909
訾	-10.909
貺	-10.9091
夙夜	-10.9091
周旋	-10.9092
袁紹	-10.9092
馨	-10.9093
詔令	-10.9095
祉	-10.9102
猜	-10.9104
鄭注	-10.9105
祧	-10.9107
塊	-10.9109
簇	-10.9112
患之	-10.9113
倣	-10.9114
之南	-10.9117
攷	-10.9119
王儉	-10.9119
奔走	-10.9121
牝	-10.9121
渝	-10.9126
交趾	-10.9127
忠孝	-10.9131
初置	-10.9136
者即	-10.9136
吏部侍郎	-10.9138
人無	-10.9138
足矣	-10.9138
或謂	-10.9138
國初	-10.9139
之費	-10.9142
籙	-10.9145
刈	-10.9148
正直	-10.9151
太武	-10.9152
山陽	-10.9154
石頭	-10.9154
境内	-10.9158
母曰	-10.9161
校書	-10.9163
未足	-10.9169
二尺	-10.9171
矣故	-10.9173
裒	-10.9174
凉州	-10.9177
帯	-10.9179
云此	-10.9182
睂	-10.9184
次之	-10.9184
珣	-10.919
矣今	-10.9191
述異記	-10.9193
能為	-10.9197
與我	-10.9198
之分	-10.9198
笋	-10.9199
朂	-10.92
緇	-10.9203
昉	-10.9207
郎官	-10.9209
賜爵	-10.9211
欹	-10.9212
星辰	-10.9213
杼	-10.9213
鑠	-10.9214
以身	-10.9216
牕	-10.9229
祕書	-10.9229
亦名	-10.9229
荼	-10.9231
則民	-10.9235
埃	-10.9242
熒惑	-10.9242
大同	-10.9244
又置	-10.9247
學校	-10.9247
者以為	-10.9249
穰	-10.9251
於齊	-10.9253
東風	-10.9257
宣子	-10.926
庶子	-10.9264
春夏	-10.9264
改元	-10.9268
毓	-10.9269
同姓	-10.9269
二十二	-10.9269
猛獸	-10.927
江漢	-10.9271
翡翠	-10.9273
都䕶	-10.9275
揭	-10.928
禍福	-10.928
弱冠	-10.9285
柰	-10.9286
乃有	-10.9288
傳初	-10.929
不變	-10.9293
其首	-10.9294
慝	-10.9294
綦	-10.9296
陸雲	-10.9298
各有差	-10.9299
十餘人	-10.9299
㐮	-10.9299
新羅	-10.9301
免官	-10.9304
佑	-10.9306
如丨丨	-10.9307
颺	-10.9311
盪	-10.9314
為司空	-10.9315
尊卑	-10.9316
數里	-10.9316
大悦	-10.9317
三老	-10.9321
撤	-10.9324
從此	-10.9326
惠王	-10.9326
延夀	-10.9329
踊	-10.933
不便	-10.933
人謂之	-10.9335
何時	-10.9338
曩	-10.9339
儁	-10.9342
殃	-10.9348
朋友	-10.9352
覈	-10.9356
于天	-10.9357
隴右	-10.9361
竪	-10.9364
昔有	-10.9364
宣城	-10.9369
以事	-10.9371
錡	-10.9372
幔	-10.9372
瞿	-10.9373
右僕射	-10.9373
豈能	-10.9374
不滿	-10.9375
即今	-10.9378
於内	-10.9379
縣北	-10.9382
石勒	-10.9384
宋之問	-10.9384
虎豹	-10.9384
六曰	-10.9388
因此	-10.9388
太康	-10.939
應之	-10.9397
有文	-10.9398
得人	-10.9403
茸	-10.9403
有竒	-10.9404
夔	-10.9404
分明	-10.941
不治	-10.9412
𫝊曰	-10.9412
愛其	-10.9414
大風	-10.9415
袒	-10.9417
隷	-10.9418
一品	-10.9423
無所不	-10.9424
呌	-10.9427
之野	-10.9433
門生	-10.9437
於中	-10.9442
㝷	-10.9445
紘	-10.9445
箇	-10.9447
為尚書	-10.9447
有光	-10.9448
董仲舒	-10.9448
蹕	-10.9449
隰	-10.945
二十三	-10.9451
歷	-10.9452
皇子	-10.9452
殫	-10.9453
槍	-10.9455
將相	-10.9457
一等	-10.946
白石	-10.946
元好問	-10.9462
試之	-10.9463
椿	-10.9463
濟南	-10.9466
▁劉	-10.9468
臣下	-10.9469
不可得	-10.947
湍	-10.9471
汀	-10.9477
先後	-10.9489
者無	-10.9492
而走	-10.9495
道者	-10.9496
補闕	-10.9497
堦	-10.9498
藕	-10.9503
間有	-10.9504
不取	-10.9505
燕王	-10.9506
慟	-10.9508
素問	-10.9508
載記	-10.9509
其門	-10.9509
店	-10.951
渇	-10.9512
道人	-10.9514
䜟	-10.9515
其徳	-10.9515
滂	-10.9519
議論	-10.9526
晁	-10.9529
范陽	-10.953
鵰	-10.953
當今	-10.9531
與弟	-10.9531
陳平	-10.9534
乃出	-10.9536
者得	-10.9537
有兩	-10.9538
字公	-10.954
起兵	-10.9544
緜	-10.9545
悠	-10.9549
恠	-10.955
服其	-10.9552
甑	-10.9556
祔	-10.9561
皆不	-10.9561
得以	-10.9561
之異	-10.9563
旻	-10.9566
璘	-10.9567
李商隱	-10.9569
之教	-10.9573
不須	-10.9574
石榴	-10.958
扆	-10.9581
武庫	-10.9581
宗族	-10.9585
可觀	-10.9586
旬日	-10.9587
酈	-10.9588
軍節度使	-10.9589
聖王	-10.9589
等皆	-10.959
漢有	-10.9592
大水	-10.9594
顔延之	-10.9597
不敬	-10.9599
土人	-10.96
其屬	-10.9601
起居注	-10.9603
躁	-10.9604
可愛	-10.9605
於市	-10.9607
有六	-10.9608
漢末	-10.9608
門人	-10.9609
即此	-10.9611
彧	-10.9612
吠	-10.9614
腹心	-10.9615
著作郎	-10.9619
之器	-10.9622
盲	-10.9622
商賈	-10.9624
紀綱	-10.9625
髓	-10.9628
靈臺	-10.9632
之極	-10.9632
萬石	-10.9634
堂上	-10.9635
日月之	-10.9636
同時	-10.9636
從弟	-10.9636
秃	-10.964
脆	-10.9642
不求	-10.9644
孫子	-10.9645
两	-10.9645
有名	-10.9647
天上	-10.9648
粮	-10.9648
舉進士	-10.965
嵗時	-10.9651
葩	-10.9652
批	-10.9653
於後	-10.9655
蒯	-10.9656
嘉祐	-10.9658
臣竊	-10.9658
東山	-10.9659
為文	-10.9669
名士	-10.9671
蠡	-10.9676
或作	-10.9677
昬	-10.9678
洪範	-10.9679
之權	-10.968
得免	-10.9685
閬	-10.9688
之又曰	-10.9691
則知	-10.9698
吸	-10.9699
十丈	-10.9703
一千	-10.9706
詹事	-10.9706
溜	-10.9708
天監	-10.9709
礙	-10.9712
之謀	-10.9712
送之	-10.9715
錦繡	-10.9719
毳	-10.972
祥符	-10.9724
愉	-10.9725
梳	-10.9727
陶侃	-10.9728
不畏	-10.973
霍光	-10.9731
寥	-10.9734
雞鳴	-10.9736
彖	-10.9736
史館	-10.9737
其先	-10.9737
丨詳	-10.9739
叔向	-10.9739
董卓	-10.974
邃	-10.9743
祭之	-10.9744
食貨志	-10.9747
禮曰	-10.9748
所能	-10.9749
形似	-10.9752
酒酣	-10.9753
周人	-10.9754
北齊書	-10.9759
醬	-10.976
不服	-10.9761
荘子	-10.9761
櫻桃	-10.9761
和氣	-10.9764
緡	-10.9769
城内	-10.9771
江州	-10.9779
各以	-10.978
樂章	-10.9781
不平	-10.9787
表裏	-10.9788
飛去	-10.9788
治天下	-10.9792
西戎	-10.9795
中正	-10.9802
智者	-10.9803
實録	-10.9803
為司	-10.9803
癸	-10.9807
臨海	-10.9808
唇	-10.981
喉	-10.981
柳宗元	-10.9814
孟浩然	-10.9815
盧綸	-10.982
先人	-10.982
蘇秦	-10.9822
闌	-10.9826
二十里	-10.9834
又名	-10.9834
深入	-10.9838
曰天子	-10.984
不離	-10.9841
二女	-10.9844
臼	-10.9844
教化	-10.9845
曰今日	-10.9845
可知	-10.9848
蚩尤	-10.9848
涕泣	-10.9851
上䟽	-10.9853
永明	-10.9853
兊	-10.9856
於世	-10.9856
貧賤	-10.9857
粱	-10.9858
之妙	-10.9859
財物	-10.986
禮畢	-10.9866
眩	-10.9867
切集韻	-10.9867
德宗	-10.9868
識者	-10.987
王府	-10.9871
隂陽之	-10.9877
呉王	-10.9877
覿	-10.9879
欣然	-10.9879
於河	-10.988
大戴禮	-10.9881
華陽	-10.9882
大司徒	-10.9883
彞	-10.9884
姓氏	-10.9884
萬餘人	-10.9885
投之	-10.9886
奏之	-10.9886
子胥	-10.9888
瘴	-10.9891
樂志	-10.9895
鑰	-10.9898
三十二	-10.9899
乎對曰	-10.99
浙	-10.9902
江總	-10.9906
諫官	-10.9906
鹵簿	-10.9907
盡其	-10.9909
獨孤	-10.9911
内侍	-10.9913
莫若	-10.9923
太府	-10.9925
手足	-10.9926
嘉其	-10.9927
而食之	-10.993
之路	-10.9933
詔以	-10.9935
泓	-10.9935
不幸	-10.9938
山河	-10.9938
罹	-10.994
開府儀同三司	-10.9942
之前	-10.9943
於下	-10.9943
之首	-10.9943
魴	-10.9946
售	-10.9947
可不	-10.9949
入於	-10.9951
人或	-10.9952
大道	-10.9952
承㫖	-10.9954
姒	-10.9958
豬	-10.9961
蘂	-10.9962
出門	-10.9962
司馬光	-10.9963
黄道	-10.9964
之域	-10.9965
善之	-10.9967
▁蘇軾	-10.9971
髠	-10.9971
鹹	-10.9974
天門	-10.9975
中大夫	-10.9975
人少	-10.998
禕	-10.998
有天下	-10.998
大學	-10.9984
砂	-10.9986
次第	-10.9987
▁下詳	-10.999
大呼	-10.999
至則	-10.9991
四分	-10.9992
從軍	-10.9997
官軍	-10.9999
第十	-11
稔	-11.0003
讃	-11.0003
盛徳	-11.0007
莫之	-11.0011
為太尉	-11.0011
六寸	-11.0016
不任	-11.0016
萼	-11.0019
孔融	-11.0021
塢	-11.0023
法也	-11.0024
府君	-11.0025
山隂	-11.0025
嘗以	-11.0025
曰非	-11.0027
宫殿	-11.003
乎曰	-11.0033
太常卿	-11.0034
瀾	-11.0034
曹操	-11.0035
稠	-11.0036
去其	-11.0036
先賢	-11.0039
水陸	-11.0042
胷	-11.0047
撞	-11.0048
仆	-11.0049
覬	-11.0049
猶在	-11.0051
鉏	-11.0053
菌	-11.0056
藍田	-11.0062
肘	-11.0062
空中	-11.0065
蜀人	-11.0066
便宜	-11.0067
杭州	-11.0069
鄭氏	-11.0072
斌	-11.0073
賦序	-11.0075
五采	-11.0076
使臣	-11.0079
扶桑	-11.008
其大	-11.008
湖南	-11.0082
顓	-11.0082
國子監	-11.0084
事者	-11.0085
詆	-11.0085
王融	-11.0085
卭	-11.0089
飛鳥	-11.009
明珠	-11.0091
菰	-11.0096
善射	-11.0097
忽見	-11.0097
帝王之	-11.0097
應劭	-11.0101
明主	-11.0101
家語	-11.0102
天台	-11.0108
沈佺期	-11.0108
著書	-11.011
笠	-11.0112
李白詩	-11.0115
瑗	-11.0116
其俗	-11.0117
二年正月	-11.0118
峴	-11.0121
七尺	-11.0121
之交	-11.0121
乃作	-11.0128
千石	-11.0133
山上	-11.0136
杵	-11.0138
郊廟	-11.0139
暠	-11.0142
行幸	-11.0145
魯人	-11.0147
䖏	-11.0152
無聲	-11.0154
授之	-11.0156
崧	-11.0156
三原	-11.0157
甜	-11.0158
旭	-11.0159
現	-11.0161
僑	-11.0162
右軍	-11.0166
揔	-11.0168
中使	-11.017
元氣	-11.0176
也乃	-11.0179
金帛	-11.0179
北門	-11.018
頗有	-11.0182
朝政	-11.0182
獻公	-11.0183
韻詩	-11.0184
終於	-11.0185
藝文類聚	-11.0186
閼	-11.0187
髙士	-11.0187
郄	-11.0189
精兵	-11.019
何事	-11.0191
窻	-11.0191
西湖	-11.0191
殞	-11.0192
者衆	-11.0192
獺	-11.0193
豫州刺史	-11.0194
開元中	-11.0195
蘇頲	-11.0196
其制	-11.0198
綘	-11.0198
嵇	-11.0204
梁州	-11.0205
榦	-11.0205
石上	-11.0206
以安	-11.0206
之北	-11.0206
張儀	-11.021
城縣	-11.021
龕	-11.021
者或	-11.0212
之孫	-11.0212
矟	-11.0215
墨子	-11.0216
風俗通	-11.0217
侍講	-11.0219
聽之	-11.0224
諸君	-11.0224
卿等	-11.0225
菁	-11.023
忻	-11.0235
門户	-11.0236
媿	-11.0237
以通	-11.0241
大厯	-11.0241
師古曰	-11.0241
白鶴	-11.0241
大破	-11.0241
慤	-11.0243
矧	-11.0243
薤	-11.0247
蝨	-11.0248
蜀郡	-11.0248
亦何	-11.025
阪	-11.0251
顏	-11.0253
秋冬	-11.0256
形勝	-11.0261
瑣	-11.0261
嘗謂	-11.0263
卿士	-11.0265
容貌	-11.0271
挑	-11.0273
小國	-11.0275
躋	-11.0275
蔥	-11.0275
匹夫	-11.0277
監軍	-11.028
斵	-11.028
湊	-11.0282
居士	-11.0287
耐	-11.0287
所有	-11.0288
吳興	-11.0289
左丞	-11.0289
夸	-11.029
先聖	-11.0291
臣請	-11.0292
熙寧	-11.0292
獻帝	-11.0293
國中	-11.0294
小吏	-11.0294
艘	-11.0294
蝦	-11.0294
通判	-11.0297
死生	-11.03
方今	-11.0301
忠義	-11.0302
寡君	-11.0303
所由	-11.0304
大赦天下	-11.0305
翕	-11.0306
如意	-11.0306
序曰	-11.0306
連珠	-11.0307
疑其	-11.0311
文宣	-11.0314
賢良	-11.0315
丈人	-11.0316
燉煌	-11.0317
李紳	-11.0317
十卷	-11.0319
艷	-11.032
一夜	-11.032
曽孫	-11.0326
皆在	-11.0329
流血	-11.0335
者是	-11.0336
箸	-11.0337
非所	-11.0338
三百六十	-11.0344
續漢書	-11.0344
禳	-11.0345
爼	-11.0346
北有	-11.0346
窠	-11.0347
四寸	-11.0352
惕	-11.0358
挿	-11.0359
非有	-11.0362
切説文	-11.0362
虺	-11.0362
霜雪	-11.0364
石門	-11.0368
詩集	-11.0368
罷之	-11.0369
青山	-11.0373
蛙	-11.0373
勝之	-11.0374
樂也	-11.0374
嫉	-11.0375
氣也	-11.0376
郡人	-11.0378
户口	-11.0379
▁張	-11.038
苴	-11.0382
熲	-11.0386
杭	-11.0388
苻堅	-11.0388
􁁊	-11.039
長慶	-11.039
三百里	-11.0393
戰國策	-11.0394
律令	-11.0394
二十九	-11.0394
以濟	-11.0397
羆	-11.0398
嫩	-11.0399
子儀	-11.0401
未成	-11.0403
官制	-11.0406
雷霆	-11.0407
或謂之	-11.0413
人以為	-11.0415
非所以	-11.0418
樞宻	-11.0426
靈公	-11.0426
過人	-11.0428
宇宙	-11.0428
九重	-11.043
别有	-11.043
十餘里	-11.0431
必不	-11.0432
皇天	-11.0432
姥	-11.0433
羿	-11.0433
之可	-11.0434
方干	-11.0434
始置	-11.0435
相似	-11.0439
睿宗	-11.0439
中常侍	-11.0442
舡	-11.0447
逺矣	-11.0447
法師	-11.045
孔帖	-11.0455
筯	-11.0456
集賢	-11.0464
車服	-11.0465
死於	-11.0466
樗	-11.0468
即事詩	-11.0469
經術	-11.0472
菑	-11.0479
丈餘	-11.0482
進賢	-11.0483
聖徳	-11.0483
安西	-11.0485
霖	-11.0485
宣和	-11.0492
苻	-11.0492
平地	-11.0492
之别	-11.0492
筝	-11.0492
軼	-11.0495
池中	-11.0496
還家	-11.0497
椀	-11.05
磧	-11.0505
曰寡人	-11.0505
▁詩	-11.0506
庭中	-11.0506
滄海	-11.0506
大帝	-11.0509
剽	-11.051
字季	-11.0511
謳	-11.0512
東流	-11.0514
蘄	-11.0515
哺	-11.0515
愬	-11.0518
長三尺	-11.0519
其外	-11.0525
在丨丨	-11.0532
京邑	-11.0534
消息	-11.0534
觀察	-11.0536
待制	-11.0537
仞	-11.0538
黼	-11.054
雲母	-11.054
奪其	-11.0542
遇之	-11.0544
從其	-11.0546
天人	-11.0547
都官	-11.0548
萬物之	-11.0549
張籍	-11.0554
庶幾	-11.0554
部落	-11.0555
陸贄	-11.0556
者矣	-11.0558
淮西	-11.0561
蘇轍	-11.0567
唐李	-11.0569
葭	-11.0573
臆	-11.0576
百丈	-11.0576
昭帝	-11.0577
一種	-11.0585
皎然	-11.0587
李斯	-11.0593
自以為	-11.0593
則必	-11.0594
七品	-11.0595
莎	-11.0598
牓	-11.0599
主上	-11.06
薦之	-11.0601
雪詩	-11.0605
叨	-11.0606
以手	-11.0607
酤	-11.0608
韻㑹	-11.0612
瓢	-11.0614
駝	-11.0617
爲人	-11.0618
長城	-11.0618
張良	-11.0618
太元	-11.0619
蟾	-11.062
豪傑	-11.0622
其所以	-11.0622
不立	-11.0623
之議	-11.0626
昭宗	-11.0629
是何	-11.0636
率兵	-11.0638
千嵗	-11.0643
不逮	-11.065
柩	-11.0652
琨	-11.0653
徳之	-11.0653
懦	-11.0654
明公	-11.0655
曰彼	-11.0658
唐書地理志	-11.0659
之歌	-11.0659
衆皆	-11.066
變而	-11.0663
窘	-11.0664
婚姻	-11.0665
形勢	-11.0665
風起	-11.0667
逐之	-11.0667
東觀漢記	-11.0668
西川	-11.067
皆得	-11.067
書生	-11.0674
之失	-11.0679
何得	-11.0681
弇	-11.0682
墾	-11.0684
腕	-11.0684
言事	-11.0687
同郡	-11.0688
六帖	-11.069
甚厚	-11.0691
二丈	-11.0692
之典	-11.0694
髙陽	-11.0696
也从	-11.0696
光照	-11.0697
噴	-11.0698
其年	-11.07
下邳	-11.0701
二原	-11.0702
稟	-11.0703
成公	-11.0704
為天子	-11.0708
吐谷渾	-11.0709
不可勝	-11.0709
之資	-11.0713
中和	-11.0714
秋夜	-11.0716
殺其	-11.0717
鼇	-11.0721
其神	-11.0724
之子也	-11.0725
悉以	-11.0726
烽	-11.0728
之謂也	-11.0729
暝	-11.0731
百疋	-11.0733
為本	-11.0733
縣官	-11.0734
瓚	-11.0736
農夫	-11.0737
百司	-11.0738
稼穡	-11.0739
𨼆	-11.0742
三禮	-11.0746
金華	-11.0748
公羊傳	-11.075
乃遣	-11.0751
首領	-11.0752
縣屬	-11.0753
大雅	-11.0754
藹	-11.076
琪	-11.076
三等	-11.0765
生民	-11.0768
兖州刺史	-11.077
以應	-11.0771
行至	-11.0772
相應	-11.0775
於國	-11.0777
罽	-11.0777
部員外郎	-11.0778
日行	-11.0784
嶼	-11.0787
授以	-11.0787
食其	-11.0789
零陵	-11.0792
士之	-11.0794
昭公	-11.0794
國子祭酒	-11.0794
功徳	-11.0795
四十里	-11.0796
櫛	-11.0796
掇	-11.0798
盞	-11.0801
熹	-11.0802
數十里	-11.0802
八十一	-11.0803
之次	-11.0803
英雄	-11.0804
穆公	-11.0804
暄	-11.0807
髦	-11.0809
鍾山	-11.0811
漢官儀	-11.0812
以奉	-11.0816
之勞	-11.0818
伐之	-11.0818
以進	-11.0818
先天	-11.0821
皆是	-11.0822
至孝	-11.0826
六國	-11.0829
曰凡	-11.0833
一時之	-11.0835
乃與	-11.0836
山西	-11.0839
企	-11.0839
槎	-11.084
為宰相	-11.0845
猫	-11.0847
問於	-11.0848
亭長	-11.0852
河南尹	-11.0854
嘏	-11.0855
拒之	-11.0856
即以	-11.0858
不克	-11.086
至道	-11.0866
安樂	-11.0866
佳人	-11.0868
錢起	-11.087
㪚	-11.087
勣	-11.0871
噪	-11.0871
南蠻	-11.0871
至京師	-11.0874
繋	-11.0876
不倦	-11.0876
壬	-11.0877
自立	-11.0879
吏人	-11.0879
左手	-11.0883
野人	-11.0883
甲兵	-11.0883
此之謂	-11.0883
應天	-11.0885
遂與	-11.0886
暹	-11.0887
必死	-11.0888
有司奏	-11.089
笳	-11.089
海棠	-11.0893
如初	-11.0894
二十六	-11.0895
太平興國	-11.0895
髀	-11.0895
泮	-11.0897
於秦	-11.0898
以歸	-11.0899
芍藥	-11.0901
為郡	-11.0902
言者	-11.0902
之具	-11.0903
者言	-11.0904
也非	-11.0905
熏	-11.0906
宓	-11.0913
扼	-11.0914
人言	-11.0914
幾何	-11.0916
荆南	-11.0919
数	-11.0919
時號	-11.0925
則天下	-11.0925
迨	-11.0927
閫	-11.0928
可食	-11.093
藏於	-11.0931
鎻	-11.0931
卽	-11.0934
十五里	-11.0935
哈	-11.0939
拆	-11.0942
器也	-11.0942
追之	-11.0944
碁	-11.095
装	-11.0954
自非	-11.0955
此二	-11.0955
斐	-11.0956
丨為丨	-11.0961
璟	-11.0963
五行志	-11.0966
以觀	-11.0974
懽	-11.0975
樓詩	-11.0977
國傳	-11.0977
新安	-11.0979
志云	-11.0979
百六十	-11.0981
聾	-11.0982
更相	-11.0984
踞	-11.0984
永安	-11.0984
及至	-11.0984
鞫	-11.0985
用也	-11.0985
齊桓公	-11.0989
長官	-11.0991
鷰	-11.0993
宋史食貨志	-11.0995
冬日	-11.0995
隧	-11.0996
泝	-11.0999
上人	-11.0999
供奉	-11.1007
選舉	-11.1009
商人	-11.1012
逓	-11.1012
百工	-11.1012
為吏	-11.1014
芮	-11.103
召公	-11.103
三子	-11.1034
黿	-11.1035
三足	-11.1037
不納	-11.1039
賜物	-11.104
君王	-11.104
瓉	-11.1049
扁鵲	-11.105
如玉	-11.1051
倭	-11.1052
淸	-11.1053
巴蜀	-11.1054
西征	-11.1057
殽	-11.1059
頓首	-11.1059
州諸軍事	-11.1063
㳂	-11.1064
不修	-11.1066
飴	-11.1066
書記	-11.1069
檐	-11.107
洪武	-11.1078
北伐	-11.1078
五原	-11.1079
百歩	-11.1083
獅子	-11.1085
摛	-11.1085
從官	-11.1088
酢	-11.1091
五聲	-11.1093
許渾	-11.1098
荆州刺史	-11.1099
師古	-11.1106
北郊	-11.1107
自若	-11.1109
有過	-11.1109
所載	-11.1111
諺曰	-11.1121
砥	-11.1122
新論	-11.1124
以授	-11.1124
以養	-11.1124
愽	-11.1125
慄	-11.1127
嚼	-11.1129
曰願	-11.113
之西	-11.1131
貴戚	-11.1131
天聖	-11.1132
出身	-11.1132
聶	-11.1132
莘	-11.1135
茫	-11.1135
䜛	-11.1137
民有	-11.1138
瀉	-11.1142
自守	-11.1143
受業	-11.1144
出納	-11.1144
寂寞	-11.1145
棣	-11.1146
鈍	-11.1149
自後	-11.115
懌	-11.115
和之	-11.1152
立為	-11.1153
花詩	-11.1156
酒泉	-11.1158
肱	-11.1159
長於	-11.1159
洛水	-11.1161
以次	-11.1163
相思	-11.1169
鏃	-11.1172
鏗	-11.1173
廣平	-11.1173
吾聞	-11.1176
吕氏	-11.1177
良馬	-11.1178
帝乃	-11.1179
録事	-11.1185
林邑	-11.1189
江都	-11.1189
主者	-11.119
始有	-11.119
引見	-11.1192
出則	-11.1192
山人	-11.1192
淇	-11.1195
道德	-11.1196
孔氏	-11.1197
京口	-11.1198
奭	-11.1199
可得而	-11.1199
需	-11.1199
王羲之	-11.12
亦然	-11.12
唯有	-11.1202
已來	-11.1203
無一	-11.1206
令曰	-11.1213
當其	-11.1213
敬宗	-11.1216
鴻臚	-11.1217
建元	-11.1218
笄	-11.1219
器物	-11.1222
刹	-11.1223
乃至	-11.1224
焉其	-11.1226
也臣	-11.1226
隋煬帝	-11.1233
並同	-11.1233
文辭	-11.1235
死罪	-11.1235
是用	-11.1243
大夏	-11.1245
漢書地理志	-11.1254
雖無	-11.1256
有小	-11.1258
州節度使	-11.1259
王制	-11.1261
交州	-11.1261
可與	-11.1263
慨然	-11.1267
逺方	-11.1272
師子	-11.1274
乃知	-11.1275
髙山	-11.1275
舶	-11.1276
榭	-11.1276
櫓	-11.1277
功成	-11.1277
豳	-11.1278
儒學	-11.1282
常平	-11.1287
曰爾	-11.1287
之德	-11.1287
區區	-11.1287
宋史禮志	-11.1288
侣	-11.1288
帝問	-11.1289
姚合	-11.129
咸平	-11.1292
安車	-11.1295
白衣	-11.1295
其辭	-11.1296
逖	-11.1298
洒	-11.1301
七人	-11.1301
腴	-11.1302
府庫	-11.1303
切集韻韻	-11.1304
通天	-11.1304
僮	-11.1305
羊祜	-11.1306
文帝紀	-11.1307
冇	-11.1307
嵐	-11.131
棧	-11.1312
督郵	-11.1316
人力	-11.1319
罍	-11.1319
囷	-11.1323
穉	-11.1324
不廢	-11.1326
第六	-11.1328
牌	-11.133
異於	-11.133
已有	-11.1332
戰于	-11.1333
所害	-11.1336
言也	-11.1337
元年詔	-11.1339
濠	-11.1344
使我	-11.1344
離騷	-11.1345
開門	-11.1346
受禪	-11.1346
不舉	-11.1349
之義也	-11.1349
郗	-11.1353
議曰	-11.1353
璠	-11.1354
廸	-11.1354
涪	-11.1355
悵	-11.1356
石為	-11.136
永樂	-11.136
職方	-11.1362
窓	-11.1364
文侯	-11.1365
▁晉書	-11.1365
僊	-11.1367
是其	-11.137
字君	-11.137
草書	-11.1371
昭穆	-11.1372
越人	-11.1372
使其	-11.1379
祭天	-11.1379
天帝	-11.1379
九寸	-11.1379
上疏曰	-11.1381
謹按	-11.1381
大㑹	-11.1381
憫	-11.1382
其位	-11.1382
其氣	-11.1382
使民	-11.1383
五等	-11.1384
右手	-11.1385
八寸	-11.1385
賈逵	-11.1386
太行	-11.1386
漾	-11.1389
何能	-11.1394
輿地	-11.1404
所致	-11.1407
楚之	-11.1408
楮	-11.1409
性命	-11.141
鄭注云	-11.1417
稱善	-11.1419
鉉	-11.142
恚	-11.1421
安撫	-11.1421
七星	-11.1422
時政	-11.1423
内則	-11.1423
覆之	-11.1425
於今	-11.1427
三嵗	-11.1428
梧桐	-11.1428
稹	-11.1429
吉甫	-11.143
夣	-11.143
徐州刺史	-11.1431
耨	-11.1432
數百里	-11.1438
祼	-11.1438
登髙	-11.144
陽太守	-11.144
和帝	-11.1445
以是	-11.1445
言行録	-11.1446
一身	-11.1448
永昌	-11.1449
郡中	-11.1449
大恱	-11.145
三四	-11.1452
單衣	-11.1454
藜	-11.1455
仁者	-11.1455
羲和	-11.1456
成敗	-11.1457
五萬	-11.1457
果然	-11.1458
二三	-11.1459
令狐	-11.146
之論	-11.146
頋	-11.146
平原君	-11.1461
聖主	-11.1464
䧏	-11.1464
勺	-11.1466
使持節	-11.1468
是年	-11.1468
文士	-11.1469
鬰	-11.1471
俶	-11.1472
撻	-11.1473
賈島	-11.1474
賦得	-11.1476
婦女	-11.1477
其性	-11.1477
簡文	-11.1478
甚衆	-11.1479
與王	-11.1481
古今注	-11.1483
餽	-11.1485
郝	-11.1486
齊國	-11.1488
大官	-11.1489
鍳	-11.1491
三丈	-11.1491
皆如	-11.1492
為天	-11.1493
六百石	-11.1493
哀公	-11.1494
地而	-11.1496
澣	-11.1497
廢帝	-11.1498
少而	-11.1498
秦之	-11.1499
疵	-11.1499
存亡	-11.1499
在州	-11.1501
聞之曰	-11.1506
有徳	-11.1509
炫	-11.151
諸将	-11.1511
贏	-11.1511
何用	-11.1511
徃來	-11.1512
驩	-11.1515
髙適	-11.1517
楚國	-11.1519
松柏	-11.152
未央	-11.1522
太史公	-11.1525
之田	-11.1527
蔕	-11.1531
當死	-11.1533
北征	-11.1533
無子	-11.1535
賞之	-11.1537
以充	-11.1537
之色	-11.1537
佯	-11.154
亶	-11.154
瑤	-11.1546
楫	-11.1551
刑部	-11.1552
與兄	-11.1552
雍州刺史	-11.1553
禮志	-11.1553
隂氣	-11.1555
中流	-11.1555
遣使者	-11.1558
吳志	-11.1559
八音	-11.1559
明徳	-11.1559
所造	-11.156
雲夢	-11.156
近世	-11.156
冊府元龜	-11.1561
掣	-11.1565
居處	-11.1566
福建	-11.1566
朝日	-11.1576
乃自	-11.1577
杓	-11.1577
犯法	-11.1578
綈	-11.1579
乾道	-11.158
从	-11.1582
山上有	-11.1582
年年	-11.1583
宋書禮志	-11.1586
金人	-11.1586
絺	-11.1587
豈得	-11.1588
遣其	-11.1593
龍朔	-11.1595
恐其	-11.1595
為三	-11.1596
僖公	-11.1596
自號	-11.1597
鄱陽	-11.1599
齊民要術	-11.1599
年八十	-11.1601
行而	-11.1612
初仕	-11.162
武侯	-11.1623
嘶	-11.1624
以定	-11.1624
扁	-11.163
勰	-11.1632
不正	-11.1634
韓魏	-11.1635
桂陽	-11.1635
顯宗	-11.1636
迂	-11.1638
司馬遷	-11.1638
為貴	-11.1638
孝友	-11.1639
為民	-11.164
黙然	-11.1641
在下	-11.1643
幃	-11.1643
山濤	-11.1645
徃徃	-11.1646
君也	-11.1647
之威	-11.1654
擕	-11.1658
可憐	-11.1658
器用	-11.1659
至元	-11.1662
莭	-11.1664
文心雕龍	-11.1666
蔗	-11.1666
人知	-11.1666
殤	-11.1668
菲	-11.1669
一見	-11.167
張氏	-11.1674
一代	-11.1674
酒食	-11.1676
少子	-11.1677
太初	-11.1678
升降	-11.168
蜡	-11.1681
兵部尚書	-11.1683
王肅	-11.1685
鹽鐵論	-11.1685
云是	-11.1689
憾	-11.169
鶩	-11.1695
黍稷	-11.1698
清濁	-11.1705
而坐	-11.1706
曰天下	-11.1709
與子	-11.1712
缶	-11.1712
韓偓	-11.1713
富人	-11.1715
不願	-11.1716
宋璟	-11.1719
百尺	-11.1719
馮翊	-11.1723
小雅	-11.1726
鄜	-11.1726
明矣	-11.1728
臨淄	-11.173
醴泉	-11.1733
白頭	-11.1733
之妻	-11.1733
其政	-11.1733
廵狩	-11.1735
淮陽	-11.1735
在朝	-11.1739
景徳	-11.174
祖父	-11.1741
安平	-11.1742
無禮	-11.1743
百斤	-11.1745
二十萬	-11.1748
而忘	-11.1753
白水	-11.1754
鬯	-11.1755
帝命	-11.1762
臨江	-11.1763
器械	-11.1764
不逺	-11.177
北極	-11.1772
職官	-11.1773
者又	-11.1774
聮	-11.1776
今以	-11.1779
也所以	-11.178
元康	-11.178
從兄	-11.178
如今	-11.1781
為吏部尚書	-11.1782
簡子	-11.1783
優劣	-11.1784
世人	-11.1786
殿上	-11.1789
其主	-11.1791
也於是	-11.1794
鉅鹿	-11.1795
告之	-11.1798
二王	-11.1799
五嶽	-11.18
農桑	-11.1801
廖	-11.1801
外有	-11.1803
所向	-11.1804
二年詔	-11.1805
垂拱	-11.1806
顧謂	-11.1808
鼉	-11.1809
不拜	-11.1814
州總管	-11.1814
入山	-11.1815
焚之	-11.1817
人民	-11.1817
卜筮	-11.1818
李廣	-11.182
者莫不	-11.1821
大亂	-11.1822
飛龍	-11.1824
也昔	-11.1826
武成	-11.1828
開國	-11.1829
在後	-11.183
攻城	-11.1831
其弊	-11.1831
蹲	-11.1832
帝令	-11.1833
出其	-11.1833
施於	-11.1835
汲黯	-11.1835
范蠡	-11.1839
韓文	-11.1839
讚	-11.1844
有金	-11.1846
十斤	-11.1847
䋲	-11.1849
此時	-11.185
罪人	-11.1851
九天	-11.1852
神道碑	-11.1856
規矩	-11.1858
白帝	-11.186
翩	-11.186
于闐	-11.1861
召之	-11.1861
陶潛	-11.1862
治國	-11.1867
田宅	-11.1867
郭子儀	-11.1869
霓	-11.187
徽宗	-11.1875
舉人	-11.1876
㳟	-11.1877
咄	-11.1878
慨	-11.1879
以禦	-11.1882
白虎通	-11.1882
紫微	-11.1883
安危	-11.1883
天成	-11.1886
鮓	-11.1887
又作	-11.1889
獠	-11.1893
而用之	-11.1895
治平	-11.1896
季孫	-11.1896
渭水	-11.1899
孫氏	-11.19
脛	-11.19
仲舒	-11.1902
估	-11.1902
布帛	-11.1902
復舊	-11.1903
延英	-11.1903
鎔	-11.1904
絞	-11.1905
正字	-11.1906
束帛	-11.1907
骸	-11.1912
鑪	-11.1914
荻	-11.1914
財用	-11.1914
部曲	-11.1917
以治	-11.192
緫	-11.1921
求其	-11.1923
室中	-11.1926
覔	-11.1928
襃	-11.1928
吏部郎	-11.1928
其書	-11.193
熈寧	-11.193
宋齊	-11.1935
廬陵	-11.1938
難得	-11.1942
姨	-11.1944
用此	-11.1948
於斯	-11.1949
竽	-11.1949
相承	-11.1949
文明	-11.195
威將軍	-11.1951
未甞	-11.1951
相連	-11.1955
雨雪	-11.1955
三五	-11.1956
於君	-11.1956
也注	-11.1958
聦	-11.1958
考之	-11.1959
紀曰	-11.1959
其行	-11.1961
不厭	-11.1966
尚書左丞	-11.1966
識之	-11.1967
薩	-11.1968
自此始	-11.1969
子良	-11.197
繳	-11.197
反覆	-11.1971
經畧	-11.1971
石崇	-11.1971
鶚	-11.1972
躔	-11.1973
廨	-11.1973
稽古	-11.1973
甚矣	-11.1973
所及	-11.1977
蝕	-11.1979
選人	-11.1979
則其	-11.198
列於	-11.1981
珂	-11.1982
然其	-11.1983
非也	-11.199
士庶	-11.1991
力士	-11.1992
晉武帝	-11.1994
必欲	-11.1995
北地	-11.1996
白居易詩	-11.1996
一舉	-11.1999
蹊	-11.1999
百金	-11.2
魯國	-11.2005
受詔	-11.2006
庾肩吾	-11.2007
察之	-11.2007
七八	-11.2008
廏	-11.2015
乆之	-11.2015
織女	-11.2016
說苑	-11.2021
神女	-11.2029
如此則	-11.2029
經云	-11.2029
淮南王	-11.2032
遼史	-11.2034
願得	-11.2042
毀	-11.2043
有七	-11.2045
舟中	-11.2049
賜帛	-11.2049
俗呼	-11.205
孟子曰	-11.2051
耒	-11.2052
折衝	-11.2052
之化	-11.2052
之舊	-11.2054
不中	-11.2055
三卷	-11.2055
列女傳	-11.2055
璽書	-11.2056
從而	-11.2056
草堂	-11.2057
思之	-11.2057
雲雨	-11.2062
凄	-11.2063
官司	-11.207
張文	-11.2072
一百二十	-11.2073
以避	-11.2074
夜夢	-11.2076
有頃	-11.2077
不仕	-11.2077
肅然	-11.2078
伯夷	-11.2082
琅邪	-11.2085
兢	-11.2085
臣也	-11.2086
鼓琴	-11.2086
五湖	-11.2086
元宗	-11.2086
二増	-11.209
志在	-11.2091
司𨽻	-11.2091
尚有	-11.2091
雹	-11.2092
沅	-11.2092
音樂	-11.2093
宋書符瑞志	-11.2094
廟堂	-11.2096
布政	-11.2098
皆用	-11.2099
燮	-11.2099
八九	-11.21
不仁	-11.2101
綱紀	-11.2104
一云	-11.2105
詶	-11.2108
鄭人	-11.2108
數十萬	-11.2112
萬騎	-11.2115
獨立	-11.2115
爾乃	-11.2117
光祿大夫	-11.2118
駱賔王	-11.212
一斗	-11.2126
悽	-11.213
得道	-11.213
神靈	-11.2132
伊川	-11.2132
武威	-11.2132
百五十	-11.2133
三皇	-11.2134
𫉬	-11.2138
衿	-11.2139
留後	-11.2142
切正韻	-11.2144
詔曰朕	-11.2145
舫	-11.2152
殿中侍御史	-11.2152
掲	-11.2153
方丈	-11.2153
山海	-11.2154
下士	-11.2155
禋	-11.2156
淄	-11.2157
社稷之	-11.2158
刑法	-11.2162
一原	-11.2164
擣	-11.2166
列傳	-11.2169
佃	-11.2169
荆公	-11.217
蘭臺	-11.217
四方之	-11.2171
羽翼	-11.2171
凡有	-11.2171
東郡	-11.2173
黷	-11.2175
自陳	-11.2177
以利	-11.2178
狸	-11.2179
颯	-11.218
定國	-11.2181
輿服志	-11.2182
嬰兒	-11.2183
鸛	-11.2183
蠕蠕	-11.2183
建平	-11.2183
周室	-11.2184
絲竹	-11.2186
帝謂	-11.2187
飛燕	-11.219
安可	-11.2194
儋	-11.2194
惶	-11.2194
餙	-11.2197
本無	-11.22
百户	-11.22
百日	-11.22
貫休	-11.2201
事有	-11.2202
武臣	-11.2204
韓子	-11.2205
形於	-11.2205
舊章	-11.2206
世傳	-11.2209
皇極	-11.2211
仰視	-11.2212
為御史大夫	-11.2213
之象也	-11.2214
傳時	-11.2214
魯公	-11.2217
天王	-11.2217
所稱	-11.2218
祝融	-11.2219
劉子	-11.222
臨淮	-11.222
人人	-11.222
頷	-11.222
蕉	-11.2221
無疆	-11.2221
迦	-11.2228
傅𤣥	-11.2228
獻子	-11.2228
者當	-11.223
其味	-11.2231
為小	-11.2232
曰余	-11.2233
蹶	-11.2238
為博士	-11.224
鳯翔	-11.2242
不歸	-11.2242
圖詩	-11.2242
扞	-11.2244
一二	-11.2249
養生	-11.2249
庾亮	-11.2251
浹	-11.2253
樓上	-11.2255
勛	-11.2256
李靖	-11.2262
五味	-11.2262
建炎	-11.2266
門内	-11.2267
孝武帝	-11.2267
之宜	-11.2269
若無	-11.227
有鳥	-11.2273
能言	-11.2273
京都	-11.2274
少昊	-11.2274
始興	-11.2275
日食	-11.2275
燄	-11.2278
迎之	-11.2283
瑒	-11.2283
世間	-11.2287
夜光	-11.2287
甚有	-11.2288
舊典	-11.2289
辨其	-11.2292
劑	-11.2293
西有	-11.2293
數千里	-11.2296
年十五	-11.2296
娯	-11.2298
日在	-11.2299
駑	-11.2299
出師	-11.2302
入水	-11.2302
禄山	-11.2308
避之	-11.231
瑯琊	-11.231
天性	-11.231
河朔	-11.231
在焉	-11.2315
聖朝	-11.2315
數尺	-11.2316
去年	-11.2316
常在	-11.2317
隋文帝	-11.2318
所聞	-11.2318
之東	-11.2318
七里	-11.232
何其	-11.232
莫知	-11.2322
晉國	-11.2324
配天	-11.2324
闘	-11.2326
中書舎人	-11.2328
餒	-11.2328
此亦	-11.2334
子雲	-11.2336
燿	-11.2338
走馬	-11.2339
未易	-11.2343
以私	-11.2346
之賢	-11.235
來降	-11.235
再三	-11.2351
變為	-11.2354
煉	-11.2355
在東	-11.2357
司直	-11.2358
北軍	-11.2359
改名	-11.236
延壽	-11.236
淳于	-11.2362
興元	-11.2363
供養	-11.2363
𤨏	-11.2365
鄆	-11.2369
麝	-11.2371
頡	-11.2372
各自	-11.2374
閶闔	-11.2375
地方	-11.2375
猶存	-11.2379
察其	-11.2379
也是以	-11.2379
參政	-11.2379
所獲	-11.2381
清白	-11.2383
燼	-11.2384
宗即位	-11.2388
漢魏	-11.239
丨丨坡	-11.239
太牢	-11.2391
寺碑	-11.2394
經卷	-11.2395
如有	-11.2396
虞世南	-11.2397
禮部尚書	-11.2398
天神	-11.2398
派	-11.2399
千乗	-11.24
子思	-11.2401
日月星辰	-11.2403
綂	-11.2403
官府	-11.2405
乘輿	-11.2406
醯	-11.2406
景仁	-11.2407
百川	-11.2408
臨軒	-11.2408
長編	-11.241
䦨	-11.241
沓	-11.2411
同年	-11.2413
購	-11.2414
大體	-11.2414
逈	-11.2415
前世	-11.2416
輻	-11.2416
無極	-11.2417
吕氏春秋曰	-11.2419
黜陟	-11.2421
徳行	-11.2422
吳郡	-11.2423
峨	-11.2425
自相	-11.2425
樓船	-11.2426
昕	-11.2428
不踰	-11.2429
韻並	-11.2432
永徽	-11.2435
杪	-11.2435
安南	-11.2436
竺	-11.2436
沆	-11.2436
秘書監	-11.2437
有志	-11.244
便是	-11.2442
稱職	-11.2443
吁	-11.2443
亭侯	-11.245
箏	-11.2451
畱	-11.2453
行道	-11.2455
監司	-11.2455
不由	-11.2456
盥	-11.2456
本末	-11.2459
緬	-11.246
劉歆	-11.2462
臺閣	-11.2466
其處	-11.2467
其可	-11.2467
霹靂	-11.2468
鴈門	-11.2468
浙西	-11.2468
白首	-11.2469
多有	-11.2471
衡陽	-11.2471
汰	-11.2472
安世	-11.2474
宦官	-11.2475
鮪	-11.2476
馬上	-11.2479
花開	-11.2479
彈琴	-11.2479
之䇿	-11.2481
順天	-11.2483
橫	-11.2483
非禮	-11.2483
在内	-11.2484
月中	-11.2485
於西	-11.2486
庵	-11.249
工部尚書	-11.2492
一門	-11.2495
醖	-11.2495
至公	-11.2499
隨時	-11.25
在西	-11.2501
太隂	-11.2506
漁陽	-11.2507
謝莊	-11.2508
諶	-11.2509
而好	-11.251
掉	-11.2511
釘	-11.2511
跖	-11.2513
二員	-11.2515
袤	-11.2515
趍	-11.2515
無用	-11.2515
大宛	-11.2521
難以	-11.2525
詩人	-11.2526
抜	-11.2527
緹	-11.2528
識其	-11.2533
杉	-11.2535
駙馬	-11.254
天水	-11.2541
天時	-11.2542
諤	-11.2542
雖復	-11.2543
人才	-11.2548
港	-11.2549
隼	-11.2549
玦	-11.2549
咸亨	-11.2552
集序	-11.2552
諸人	-11.2557
闕下	-11.2558
也是故	-11.2561
昊天	-11.2563
齊名	-11.2564
小子	-11.2564
果有	-11.2566
先朝	-11.2567
月餘	-11.2568
歩騎	-11.2572
治民	-11.2574
欲其	-11.2574
鯤	-11.2575
皆出	-11.2576
八風	-11.2576
伏見	-11.2576
第七	-11.2582
宣慰	-11.2582
嶂	-11.2583
過之	-11.2585
不悦	-11.2586
二年二月	-11.2587
讞	-11.2587
㓙	-11.2599
無定	-11.2603
百四十	-11.2603
冬月	-11.2606
堂下	-11.2606
又為	-11.2606
修撰	-11.2607
耆老	-11.2609
同列	-11.261
天福	-11.2611
閭里	-11.2612
纊	-11.2613
不義	-11.2614
秦人	-11.2615
紱	-11.2615
不好	-11.2615
西海	-11.2619
四門	-11.2619
鳳翔	-11.2621
謝曰	-11.2621
曲禮	-11.2626
有時	-11.2626
禮官	-11.2626
烏孫	-11.2626
訝	-11.2628
河伯	-11.2629
淒	-11.2629
經籍	-11.263
纁	-11.2634
博物	-11.2635
獄訟	-11.2637
推之	-11.2638
五音	-11.2639
河上	-11.2639
城上	-11.2641
與同	-11.2644
祓	-11.2645
債	-11.2648
雲南	-11.2654
苑中	-11.2655
青衣	-11.2655
江河	-11.2656
建國	-11.2658
公車	-11.2659
行軍	-11.266
人亦	-11.2661
輈	-11.2661
而易	-11.2661
以玉	-11.2662
東向	-11.2663
行則	-11.2663
黄初	-11.2664
數也	-11.2667
晉公	-11.2668
得此	-11.267
莞	-11.2672
岌	-11.2677
萬乗	-11.2679
季氏	-11.2679
首尾	-11.2681
時年	-11.2691
六七	-11.2692
子厚	-11.2693
貞觀中	-11.2693
㒺	-11.2695
皆可	-11.2696
楊素	-11.2696
雲霧	-11.2698
鄣	-11.2702
之治	-11.2703
丐	-11.2704
之期	-11.2705
千餘里	-11.2706
論者	-11.2709
過於	-11.2709
忽然	-11.271
周禮曰	-11.2715
尚書僕射	-11.2717
者何也	-11.2717
歸來	-11.2718
沫	-11.272
周文	-11.2723
鬟	-11.2727
矣又	-11.2728
者並	-11.2732
伏以	-11.2738
但以	-11.2739
多士	-11.2742
武德	-11.2744
悶	-11.2749
食者	-11.2749
各置	-11.2749
荔枝	-11.275
二十一年	-11.2751
夏后氏	-11.2753
六卿	-11.2756
復何	-11.2757
復以	-11.2757
定州	-11.2757
故得	-11.2757
蘚	-11.2757
炎帝	-11.2758
為廷尉	-11.2758
項王	-11.2759
弗能	-11.276
中書省	-11.2761
智伯	-11.2761
▁後漢書	-11.2762
不進	-11.2765
豺	-11.2766
太湖	-11.2766
戎狄	-11.2766
滇	-11.2768
炯	-11.2772
南征	-11.2774
有女	-11.2777
也疏	-11.2778
直學士	-11.2782
翥	-11.2783
酥	-11.2784
白雪	-11.2785
與天	-11.2785
最為	-11.2785
七夕	-11.2788
漢制	-11.2788
問之曰	-11.279
媪	-11.2793
六品	-11.2793
治亂	-11.2795
之險	-11.2795
道術	-11.2796
者名	-11.2797
荔	-11.2798
龜兹	-11.2802
外傳	-11.2803
武安	-11.2804
漢家	-11.2804
楊氏	-11.2804
著於	-11.2805
平公	-11.2806
而又	-11.2806
秦州	-11.2807
欲與	-11.2807
其狀	-11.2808
攅	-11.281
俯仰	-11.281
絰	-11.2813
制置	-11.2813
工部	-11.2817
奏聞	-11.2818
王充論衡	-11.2819
犂	-11.282
苕	-11.2822
訶	-11.2822
禮部侍郎	-11.2822
其力	-11.2822
糟	-11.2823
相逢	-11.2826
猨	-11.2826
寰	-11.2826
每至	-11.2827
蒼生	-11.2827
明道	-11.2829
臨朝	-11.2831
陳蕃	-11.2831
太平御覽	-11.2835
飼	-11.2835
近代	-11.2836
時雨	-11.2836
伏惟	-11.2837
如其言	-11.2837
一雙	-11.2837
休息	-11.2838
聞奏	-11.2839
清異録	-11.284
職官志	-11.2842
勤勞	-11.2842
頌曰	-11.2842
有遺	-11.2845
將至	-11.2848
者先	-11.2851
齋戒	-11.2852
藿	-11.2854
入見	-11.2857
三年正月	-11.2858
居中	-11.2858
刄	-11.2859
三代之	-11.286
揚州刺史	-11.2862
襪	-11.2865
蹋	-11.2867
麾下	-11.2867
朝堂	-11.2869
王侯	-11.2869
乃召	-11.287
揣	-11.2871
覘	-11.2873
並為	-11.2873
相率	-11.2878
破賊	-11.288
奏議	-11.2881
萬邦	-11.2882
籟	-11.2883
平章	-11.2883
羯	-11.2883
瀝	-11.2884
邏	-11.2884
盼	-11.2885
固守	-11.2887
榴	-11.2887
某官	-11.2888
方士	-11.2889
名丨丨	-11.2889
風俗通曰	-11.2889
官爵	-11.2889
大海	-11.2891
宋書樂志	-11.2894
之至也	-11.2894
萬事	-11.2899
講武	-11.29
聞於	-11.2902
也補	-11.2903
寖	-11.2907
▁又丨丨	-11.2913
慶雲	-11.2915
一分	-11.2916
文徳	-11.2918
賫	-11.292
朞	-11.2926
琅	-11.2928
納言	-11.2929
所當	-11.2929
東至	-11.2931
矣又曰	-11.2933
醮	-11.2934
法言	-11.2937
仰天	-11.2937
者雖	-11.2939
一室	-11.2943
小大	-11.2943
拜為	-11.2944
吼	-11.2944
此山	-11.2944
還宫	-11.2945
黠	-11.2946
鐫	-11.2947
之望	-11.2947
者惟	-11.2949
五丈	-11.2955
民無	-11.296
唐制	-11.296
山北	-11.2962
蘇武	-11.2964
甚盛	-11.2965
殁	-11.2967
紏	-11.2968
漢官	-11.2971
明王	-11.2973
芹	-11.2973
之序	-11.2973
每嵗	-11.2976
曰諾	-11.2984
蓴	-11.2985
號丨丨	-11.2988
泠	-11.2989
瓣	-11.2989
唐人	-11.2991
撫軍	-11.2991
為害	-11.2992
志丨丨	-11.2994
為尚書令	-11.2994
塵埃	-11.2994
水土	-11.2995
翌日	-11.2997
兵革	-11.2997
貧者	-11.3
觚	-11.3
水精	-11.3001
抛	-11.3002
公孫𢎞	-11.3004
潄	-11.3007
止之	-11.3008
韋莊	-11.3008
春秋曰	-11.3009
曰古者	-11.3012
見人	-11.3016
於心	-11.3018
也後	-11.3019
憚之	-11.3019
龍虎	-11.302
鴿	-11.3021
洞天	-11.3021
賛曰	-11.3023
華隂	-11.3023
以救	-11.3025
郃	-11.3025
韓詩	-11.3025
欝	-11.3026
少陽	-11.3028
應聲	-11.3029
異也	-11.3029
門之外	-11.3032
八分	-11.3033
擘	-11.3033
嗜酒	-11.3035
何由	-11.3036
征討	-11.3036
吳人	-11.3037
箠	-11.3037
和尚	-11.3038
塜	-11.3038
芳草	-11.3038
不作	-11.304
無餘	-11.3041
出丨丨	-11.3043
安知	-11.3043
將來	-11.3045
塟	-11.3045
未定	-11.3047
長老	-11.3048
山陵	-11.3048
勉之	-11.3049
亦為	-11.3049
㢲	-11.3051
少師	-11.3053
圜丘	-11.3056
誚	-11.3056
左思	-11.3057
莢	-11.3064
豐年	-11.3065
味甘	-11.3066
漢初	-11.3066
在乎	-11.3066
隠居	-11.3068
閒居	-11.3071
其情	-11.3072
桂林	-11.3072
隱居	-11.3072
祀之	-11.3075
隳	-11.3075
遂使	-11.3076
遺事	-11.3076
青青	-11.3076
豈無	-11.3077
亡國	-11.3077
讀之	-11.3077
武都	-11.3079
秣	-11.3081
主客	-11.3081
鮫	-11.3082
後魏書曰	-11.3082
耆舊	-11.3084
楊栁	-11.3085
是知	-11.3087
柱國	-11.3088
學官	-11.3089
中書監	-11.3091
岷	-11.3091
南唐	-11.3092
舟楫	-11.3096
下馬	-11.3097
伉	-11.3102
徭	-11.3102
僃	-11.3102
萬機	-11.3105
貢舉	-11.3105
儀同	-11.3108
五穀	-11.3109
謟	-11.3109
擎	-11.311
蘇子	-11.3111
入城	-11.3112
地中	-11.3113
處處	-11.3113
𥙷註	-11.3115
痩	-11.3117
出于	-11.3118
井中	-11.3119
倨	-11.3119
故為	-11.3119
都統	-11.3123
楸	-11.3124
雷電	-11.3124
駞	-11.3125
泚	-11.3128
少監	-11.3129
睛	-11.3129
一曲	-11.313
以助	-11.313
撮	-11.3131
鎰	-11.3133
也然則	-11.3133
萬五千	-11.3134
奨	-11.3136
召入	-11.3137
漢髙祖	-11.3138
簧	-11.3139
掖庭	-11.3141
鷂	-11.3143
景雲	-11.3143
㸑	-11.3143
悌	-11.3145
訢	-11.3145
汴州	-11.3146
吳越	-11.3148
白露	-11.3149
進曰	-11.315
此非	-11.3151
抱朴子曰	-11.3151
不常	-11.3152
都城	-11.316
湯武	-11.3162
賜錢	-11.3162
立廟	-11.3163
一行	-11.3163
吿	-11.3166
先儒	-11.3166
善政	-11.3167
每有	-11.3168
武宗	-11.3169
建隆	-11.3175
令丞	-11.3178
輓	-11.3182
一片	-11.3183
餘慶	-11.3184
呉志	-11.3185
學問	-11.3186
無由	-11.3187
花落	-11.3189
不爲	-11.3191
籖	-11.3192
畵	-11.3192
冬夏	-11.3193
取諸	-11.3196
魏徴	-11.3198
朝賀	-11.3198
駟馬	-11.3201
友善	-11.3201
無量	-11.3202
瞳	-11.3204
拖	-11.3207
奩	-11.3208
南風	-11.3208
泰始	-11.3209
無過	-11.3213
百世	-11.3213
之運	-11.3218
避暑	-11.3219
知我	-11.3219
輕薄	-11.322
戴叔倫	-11.322
雲笈七籤	-11.322
而况	-11.322
生死	-11.322
有能	-11.3221
東郭	-11.3221
三千人	-11.3221
之尊	-11.3223
珉	-11.3226
瘳	-11.3227
季秋	-11.3232
野王	-11.3232
大鴻臚	-11.3234
合於	-11.3236
▁庾信	-11.3236
總論	-11.3237
㝢	-11.3244
復見	-11.3244
三省	-11.3247
得志	-11.3251
雖欲	-11.3253
何者	-11.3255
騏驥	-11.3255
佩刀	-11.3257
幻	-11.3257
五百人	-11.3257
有一人	-11.3258
既成	-11.3259
有八	-11.3259
詔賜	-11.3261
東有	-11.3264
所著	-11.3265
上柱國	-11.3267
涎	-11.3267
之竒	-11.3267
浙江	-11.3268
雅樂	-11.3268
鏁	-11.327
登山	-11.3271
自得	-11.3271
僵	-11.3273
䟦	-11.3273
事詳	-11.3275
以和	-11.3276
王戎	-11.3277
今人	-11.3278
▁李白	-11.3281
蕭蕭	-11.3281
吾所	-11.3283
夜行	-11.3284
王后	-11.3286
存焉	-11.3286
春分	-11.3287
正言	-11.3288
仲春	-11.3289
縉	-11.329
之吏	-11.3294
開封府	-11.3295
而非	-11.3297
淮隂	-11.3297
也謂	-11.3298
無知	-11.3298
齊書曰	-11.3299
鉗	-11.3303
薨子	-11.3303
叫	-11.3306
騖	-11.3306
懾	-11.3307
三十五	-11.3308
道中	-11.3308
▁漢書	-11.3309
先登	-11.3309
大雪	-11.331
晏子曰	-11.3312
以防	-11.3317
萬頃	-11.3318
乆矣	-11.3319
獨坐	-11.3321
此所謂	-11.3321
後進	-11.3321
度量	-11.3321
甚美	-11.3322
十疋	-11.3323
國君	-11.3323
輔國	-11.3325
等州	-11.3326
世俗	-11.3329
百神	-11.333
因循	-11.333
紵	-11.333
而亡	-11.3332
東夷	-11.3335
可否	-11.3335
進爵	-11.3338
瑱	-11.3339
立秋	-11.3344
與君	-11.3344
失色	-11.3345
為皇太子	-11.3347
鄭公	-11.3347
讜	-11.3354
東郊	-11.3354
成人	-11.3356
不拘	-11.3359
為御史中丞	-11.3359
弓弩	-11.3359
築城	-11.3361
四瀆	-11.3361
萬斛	-11.3366
近日	-11.3367
七曰	-11.337
謂左右曰	-11.337
等並	-11.3371
楊維楨	-11.3372
成子	-11.3373
崑	-11.3375
金錢	-11.3377
所重	-11.3378
朋黨	-11.3378
洮	-11.3379
卒於	-11.3379
𧰼	-11.338
曾子	-11.3381
范仲淹	-11.3381
清廟	-11.3381
七寸	-11.3383
之弟	-11.3383
豊	-11.3385
仍令	-11.3387
一里	-11.3387
王禹偁	-11.3387
前驅	-11.339
諸侯王	-11.3391
夷吾	-11.3392
和親	-11.3393
窈窕	-11.3396
磔	-11.3398
遣將	-11.3399
不遇	-11.3401
封建	-11.3404
文粹	-11.3404
續漢書曰	-11.3405
為善	-11.3407
駿馬	-11.3409
帝親	-11.3414
呪	-11.3414
今後	-11.3416
迪	-11.3417
之表	-11.342
頃之	-11.3421
國家之	-11.3422
經營	-11.3422
者以其	-11.3424
積石	-11.3425
遺之	-11.3427
缾	-11.3427
監門	-11.3428
呼之	-11.3428
即是	-11.3429
同日	-11.3432
乃可	-11.3432
三十萬	-11.3433
十五日	-11.3433
一匹	-11.3434
遘	-11.3434
二十人	-11.3435
經義	-11.3435
職掌	-11.3437
一生	-11.3438
尤甚	-11.3439
倉卒	-11.3439
新序	-11.3439
二品	-11.3439
所執	-11.3441
知己	-11.3444
貢獻	-11.3444
而長	-11.3447
在南	-11.3448
宛轉	-11.3448
又曰王	-11.3448
聲聞	-11.3449
今欲	-11.3449
僞	-11.345
善為	-11.3451
無能	-11.3453
驃騎將軍	-11.3455
而東	-11.3455
敲	-11.3456
李勣	-11.3457
州司馬	-11.3458
潯陽	-11.3458
劉備	-11.3462
茨	-11.3463
不設	-11.3465
英宗	-11.3467
牧守	-11.3469
兩京	-11.3469
景龍	-11.3471
一方	-11.3472
康王	-11.3473
甲乙	-11.3474
其體	-11.3476
昊	-11.3477
又改	-11.3477
夕陽	-11.3477
芟	-11.3478
纛	-11.3479
㕔事	-11.348
而可	-11.348
杜詩	-11.348
弟也	-11.3482
刑獄	-11.3483
為樂	-11.3483
㓗	-11.3484
吻	-11.3486
朝鮮	-11.3487
鱠	-11.3488
攫	-11.3494
顧問	-11.3494
李陵	-11.3496
來者	-11.3499
三里	-11.35
一度	-11.35
收其	-11.35
樞宻院	-11.3502
夏后	-11.3504
之稱	-11.3506
張公	-11.3507
麞	-11.3508
瀨	-11.3508
七廟	-11.351
髙祖紀	-11.3514
將有	-11.3518
以法	-11.3519
三十餘	-11.3519
伐齊	-11.3522
丹砂	-11.3522
故知	-11.3523
蕚	-11.3524
數丈	-11.3526
歌丨丨	-11.3526
万	-11.3527
肅肅	-11.3534
入室	-11.3536
神主	-11.3538
晳	-11.3539
朔望	-11.354
鴛	-11.3541
末年	-11.3541
權衡	-11.3541
復生	-11.3545
之迹	-11.3545
園中	-11.3549
海水	-11.355
必當	-11.3554
呼曰	-11.3555
鞋	-11.3557
文王之	-11.3558
固有	-11.3561
木蘭	-11.3563
查	-11.3563
得無	-11.3567
入宫	-11.3567
秋月	-11.3571
比之	-11.3572
枳	-11.3573
魏武帝	-11.3573
終身不	-11.3573
覓	-11.3574
波斯	-11.3576
桴	-11.3577
一體	-11.3578
三朝	-11.3578
搜神記	-11.3578
今君	-11.3579
傳序	-11.3579
置於	-11.358
始終	-11.358
兼領	-11.3581
下獄	-11.3584
無聞	-11.3586
浮屠	-11.359
年七十	-11.3592
石虎	-11.3594
若水	-11.3595
以天下	-11.3595
性好	-11.3597
上古	-11.3601
張仲	-11.3601
而西	-11.3601
太官	-11.3602
長卿	-11.3603
孟夏	-11.3603
傳贊	-11.3604
天下無	-11.3605
飱	-11.3606
侍衛	-11.3607
閽	-11.3608
捶	-11.3609
敇	-11.3609
所過	-11.3609
靡不	-11.3611
畏之	-11.3611
潢	-11.3611
鉦	-11.3611
國獻	-11.3612
其兄	-11.3612
柿	-11.3615
圖畫	-11.3617
長公主	-11.3618
椹	-11.3618
以死	-11.3619
乃復	-11.3621
侯伯	-11.3626
囬	-11.3626
鮒	-11.3627
霆	-11.3631
笑而	-11.3633
君命	-11.3636
司命	-11.3636
又問	-11.3636
秋水	-11.3639
泳	-11.364
腹中	-11.3641
上聞	-11.3642
譎	-11.3646
荆楚	-11.3648
和平	-11.3649
可知也	-11.3651
聫	-11.3652
可畏	-11.3652
講論	-11.3653
卒子	-11.3655
是則	-11.3655
執法	-11.3656
華林園	-11.3657
瞰	-11.3658
諂	-11.3659
睹	-11.3661
生于	-11.3662
乃詔	-11.3664
學生	-11.3665
穆王	-11.3666
去官	-11.3666
篁	-11.3669
帥師	-11.3669
賜金	-11.367
鳯皇	-11.3672
眸	-11.3673
非其人	-11.3673
安在	-11.3674
毘	-11.3674
瑋	-11.3676
親王	-11.3681
相接	-11.3683
宣公	-11.3684
城外	-11.3684
霖雨	-11.3686
黄鐘	-11.3686
𣗳	-11.3687
朝貢	-11.3689
刳	-11.3691
巔	-11.3692
悴	-11.3695
所服	-11.3695
非吾	-11.3696
而不得	-11.3697
合而	-11.3698
忙	-11.3698
至誠	-11.37
何異	-11.3701
積年	-11.3701
宋公	-11.3701
公輔	-11.3701
合歡	-11.3703
故鄉	-11.3703
涼州	-11.3708
譟	-11.3713
百辟	-11.3716
音律	-11.3718
新城	-11.372
邨	-11.3723
蓐	-11.3723
諌曰	-11.3725
去聲	-11.3732
松栢	-11.3734
入門	-11.3735
彭祖	-11.3736
一株	-11.374
孟冬	-11.374
開封	-11.3743
閹	-11.3744
光禄勲	-11.3744
為亂	-11.3745
無故	-11.3746
鴞	-11.3746
治道	-11.3748
韓琦	-11.3749
文成	-11.375
之先	-11.3752
哲宗	-11.3753
遊於	-11.3754
貉	-11.3755
不以為	-11.3757
趙氏	-11.3758
詁	-11.3759
乃還	-11.376
齊魯	-11.3762
法苑珠林	-11.3764
朝議	-11.3765
蒼蒼	-11.3767
春色	-11.3769
而不敢	-11.377
五兵	-11.3771
元載	-11.3771
左右曰	-11.3774
翩翩	-11.3774
或言	-11.3774
落花	-11.3775
有力	-11.3775
入内	-11.3775
啜	-11.3776
而莫	-11.3776
貼	-11.3778
司𨽻校尉	-11.3778
甲寅	-11.378
二世	-11.3781
凡三	-11.3781
膩	-11.3784
制禮	-11.3784
於衆	-11.3784
開成	-11.3786
好惡	-11.3787
日南	-11.3788
諸色	-11.3788
釜	-11.3789
水流	-11.3791
譖	-11.3792
珽	-11.3792
杏花	-11.3793
小學	-11.3794
未嘗有	-11.3795
亡命	-11.3796
大江	-11.3796
新書	-11.3797
國在	-11.38
有美	-11.38
不朽	-11.3804
韓詩外傳	-11.3806
金剛	-11.3807
亦猶	-11.3809
不異	-11.381
建徳	-11.382
正始	-11.382
陳氏	-11.382
字士	-11.3822
大梁	-11.3822
仲秋	-11.3824
謀反	-11.3825
吾將	-11.3826
腋	-11.3828
京畿	-11.3834
其親	-11.3835
未發	-11.3835
昔在	-11.3835
喜曰	-11.3835
之㫖	-11.3836
义	-11.3836
鄉侯	-11.3837
交阯	-11.3842
汭	-11.3843
楊子	-11.3845
秋分	-11.3845
陽春	-11.3846
諜	-11.3846
大使	-11.3851
魏公	-11.3851
西園	-11.3853
幷	-11.3854
葛洪	-11.3855
而為之	-11.3855
銑	-11.3858
山堂肆考	-11.3864
此事	-11.3864
赫赫	-11.3865
夢見	-11.3865
軻	-11.3868
東魏	-11.3869
而歌	-11.3871
槽	-11.3872
塚	-11.3874
舸	-11.3875
典禮	-11.3875
禮記月令	-11.3877
永興	-11.3877
定公	-11.3879
一聲	-11.3882
在京	-11.3882
悛	-11.389
唐書李	-11.3891
之室	-11.3891
月明	-11.3892
奪之	-11.3893
愴	-11.3893
荆軻	-11.3893
之祥	-11.3898
縉紳	-11.3899
如雲	-11.3901
尉遲	-11.3901
圖經	-11.3905
澧	-11.3905
云何	-11.3907
魏氏	-11.3907
則又	-11.3907
大司空	-11.3918
冠冕	-11.3919
炤	-11.3919
越絶書	-11.3919
始生	-11.3921
黄雀	-11.3922
江山	-11.3922
初學記	-11.3924
咫尺	-11.3925
宗廟之	-11.3926
縦	-11.3926
伋	-11.3926
覊	-11.3928
伯玉	-11.3932
登樓	-11.3932
中官	-11.3932
漢文帝	-11.3933
州城	-11.3933
爪牙	-11.3935
兩頭	-11.3936
䄂	-11.3938
時事	-11.3939
遂至	-11.394
落日	-11.3941
培	-11.3942
大中	-11.3943
千二百	-11.3949
宋書曰	-11.3951
相持	-11.3954
澤中	-11.3957
不給	-11.3957
澮	-11.3958
江中	-11.3961
而行之	-11.3961
宋人	-11.3963
之飾	-11.3969
公府	-11.3969
忩	-11.397
車輪	-11.397
少傅	-11.397
霰	-11.397
異記	-11.3971
欲求	-11.3971
靴	-11.3971
神仙傳	-11.3974
孰能	-11.3975
臍	-11.3977
一國	-11.3978
帑	-11.3979
帝嚳	-11.3983
相遇	-11.3983
其説	-11.3988
成周	-11.3988
世稱	-11.3988
嗇	-11.3989
送李	-11.3993
謩	-11.3994
縻	-11.3995
不備	-11.3997
為治	-11.3999
其精	-11.4
奉和聖製	-11.4003
蘇州	-11.4004
千五百	-11.4004
盡心	-11.4006
哥	-11.4007
漁父	-11.4009
為御史	-11.4009
之右	-11.4011
四五	-11.4012
六藝	-11.4012
有赤	-11.4013
儲光羲	-11.4019
光宅	-11.402
成文	-11.4024
玉帛	-11.4025
四時之	-11.4025
夷簡	-11.4026
字彦	-11.4033
槿	-11.4034
老父	-11.4035
衆生	-11.4036
女為	-11.4036
得丨丨	-11.4037
梁武	-11.4038
延之	-11.4039
兵士	-11.4043
帙	-11.4044
件	-11.4044
於海	-11.4046
緼	-11.4047
軍節度	-11.4049
乃是	-11.4049
年春正月	-11.4052
河洛	-11.4053
亭亭	-11.4053
異姓	-11.4055
六十四	-11.4056
沽	-11.406
盡力	-11.4062
本州	-11.4062
無名	-11.4064
天雨	-11.4064
産業	-11.4064
祖母	-11.4065
之舞	-11.4069
小而	-11.407
玲瓏	-11.4071
其官	-11.4072
恐懼	-11.4072
命有司	-11.4073
羣公	-11.4076
處之	-11.4077
鑚	-11.408
舛	-11.4081
縣界	-11.4084
井田	-11.4084
公田	-11.4086
亦自	-11.4086
更生	-11.4087
渤	-11.4089
不答	-11.4089
霏	-11.409
四子	-11.4091
征西	-11.4091
毛詩曰	-11.4091
正位	-11.4092
當年	-11.4092
推官	-11.4092
褰	-11.4093
璇	-11.4094
豢	-11.4094
捜神記	-11.4094
菖蒲	-11.4095
兩人	-11.4095
不可復	-11.4101
漕運	-11.4101
經傳	-11.4102
胙	-11.4105
出塞	-11.4106
衛侯	-11.4107
扶南	-11.4108
湫	-11.411
捫	-11.411
脇	-11.4113
以義	-11.4114
麄	-11.4116
閤門	-11.4117
許敬宗	-11.4117
考課	-11.4118
進止	-11.4118
一萬	-11.4124
表請	-11.4125
李膺	-11.4126
魅	-11.4128
遂成	-11.4131
帷幄	-11.4132
徤	-11.4133
九華	-11.4134
張掖	-11.4136
聲色	-11.4137
梁冀	-11.4143
風塵	-11.4145
櫂	-11.4146
擯	-11.4147
驪山	-11.4148
論議	-11.4151
都指揮使	-11.4152
嵗月	-11.4152
莫有	-11.4153
之本也	-11.4153
太微	-11.4156
公權	-11.4157
自然之	-11.416
子男	-11.4161
爍	-11.4161
而南	-11.4161
乃為	-11.4163
璿	-11.4164
人語	-11.4165
鐃	-11.4165
食肉	-11.4168
詘	-11.4168
不移	-11.417
七十里	-11.4171
葅	-11.4172
久而	-11.4172
濟濟	-11.4173
紊	-11.4174
行禮	-11.4174
大禮	-11.4176
㕘軍	-11.4177
磯	-11.418
雷雨	-11.4181
未敢	-11.4181
二十五年	-11.4187
朝陽	-11.419
不一	-11.4191
眞人	-11.4192
天氣	-11.4193
通於	-11.4194
若使	-11.4194
縣地	-11.4194
摭	-11.4195
鑣	-11.4195
共工	-11.4195
楊炯	-11.4196
唐史	-11.4197
峩	-11.4198
何敢	-11.42
終無	-11.42
劉毅	-11.4202
信之	-11.4202
張耒	-11.4204
遂得	-11.4205
一事	-11.4206
宋王欽若等撰	-11.4207
而動	-11.4208
固請	-11.4209
天柱	-11.4211
申公	-11.4211
少好學	-11.4212
近者	-11.4212
邯	-11.4214
中間	-11.4214
惆悵	-11.4214
進封	-11.4215
豺狼	-11.4218
世本	-11.4219
節儉	-11.4219
王珪	-11.422
二卷	-11.422
韓子曰	-11.4222
戸部	-11.4228
不喜	-11.4229
祖考	-11.423
禺	-11.4232
猶可	-11.4232
澈	-11.4232
字景	-11.4233
兩儀	-11.4233
吏士	-11.4233
各以其	-11.4233
侑	-11.4235
年二十	-11.4239
每年	-11.424
望風	-11.4243
樞宻使	-11.4244
疾苦	-11.4244
不屈	-11.4246
士民	-11.4246
季子	-11.4248
騶虞	-11.425
青陽	-11.4253
所歸	-11.4253
而笑	-11.4253
㑹昌	-11.4258
茂陵	-11.4261
務在	-11.4265
六日	-11.4266
濟北	-11.4266
朏	-11.4269
夏官	-11.427
上書言	-11.427
之曲	-11.4272
能使	-11.4272
荆山	-11.4276
司空圖	-11.4277
建章	-11.4278
本名	-11.4278
巫山	-11.4279
相隨	-11.4279
四星	-11.4282
人面	-11.4285
京兆府	-11.4287
委以	-11.4288
不意	-11.4293
不得不	-11.4294
五品以上	-11.4298
是嵗	-11.4301
儀注	-11.4301
儷	-11.4303
每月	-11.4304
李晟	-11.4304
埒	-11.4304
千仞	-11.4305
文襄	-11.4305
山頂	-11.4306
函谷	-11.431
太簇	-11.4312
隨之	-11.4313
群臣	-11.4314
萬方	-11.4315
籩	-11.4316
皮弁	-11.4317
力戰	-11.4317
甯	-11.4317
大禹	-11.4318
刷	-11.432
尚書左僕射	-11.432
凌雲	-11.4321
逢吉	-11.4324
偹	-11.4324
帝幸	-11.4325
丹陽尹	-11.4328
乃取	-11.4329
權徳輿	-11.433
顚	-11.4332
之害	-11.4334
相謂曰	-11.4334
李泌	-11.4336
甲午	-11.4336
部尚書	-11.4336
為京兆尹	-11.4337
其禮	-11.4339
益州刺史	-11.4341
今陛下	-11.4343
𢎞正	-11.4345
亦云	-11.4345
已成	-11.4345
禊	-11.4345
怕	-11.4346
亦謂之	-11.4348
出奔	-11.435
白樂天	-11.4352
互相	-11.4353
天府	-11.4357
安都	-11.436
以徳	-11.4361
敵人	-11.4364
明一統志	-11.4365
黄庭	-11.4366
燕趙	-11.4366
▁陸游	-11.4366
火燒	-11.437
歌行	-11.4372
篇曰	-11.4373
鞮	-11.4373
嗤	-11.4374
太乙	-11.4374
匃奴	-11.4374
四望	-11.4379
狀元	-11.4381
委任	-11.4383
養老	-11.4386
以白	-11.4389
譛	-11.4393
州長史	-11.4393
從事中郎	-11.4395
舅姑	-11.4395
吾家	-11.4398
上皇	-11.4398
晉大夫	-11.4398
玉牒	-11.4399
萬計	-11.4403
流沙	-11.4404
按察	-11.4407
者哉	-11.4408
繼之	-11.4408
頭上	-11.4408
諳	-11.4413
風土記	-11.4413
政令	-11.4414
之粟	-11.4415
曲水	-11.4418
不輟	-11.442
京官	-11.4421
典籍	-11.4422
西門	-11.4423
其名曰	-11.4423
仲文	-11.4425
眄	-11.4427
髙昌	-11.4427
簿書	-11.4427
讙	-11.4428
庚子	-11.4432
流星	-11.4433
竹林	-11.4434
不虞	-11.4434
此物	-11.4435
鞾	-11.4436
絶人	-11.4437
篚	-11.4441
曾孫	-11.4441
郅	-11.4442
歸家	-11.4442
口中	-11.4443
其業	-11.4443
其背	-11.4444
色青	-11.4444
睢陽	-11.4444
鍾離	-11.4444
陬	-11.4448
復還	-11.4449
尊號	-11.445
貧民	-11.445
四十五	-11.4451
怒而	-11.4452
省中	-11.4456
華陽國志	-11.4456
菊花	-11.4459
地名	-11.446
景祐	-11.446
仁傑	-11.4461
幽明	-11.447
腫	-11.4479
田獵	-11.4483
胡人	-11.4492
泣曰	-11.4493
絢	-11.4493
聞見	-11.4497
肄	-11.4497
在郡	-11.4499
客有	-11.45
國子博士	-11.4502
之始也	-11.4506
中道	-11.4506
九族	-11.4507
太常博士	-11.4507
為首	-11.4508
湜	-11.4508
儒術	-11.451
笑之	-11.4511
都邑	-11.4512
鷁	-11.4513
雎	-11.4513
碣	-11.4513
虞舜	-11.4514
姑洗	-11.4514
名之曰	-11.4515
崔浩	-11.4516
汨	-11.4516
所奏	-11.4517
飇	-11.4517
左右皆	-11.4518
同知	-11.4518
緩急	-11.452
盡忠	-11.4521
學道	-11.4522
流離	-11.4522
上谷	-11.4523
歸去	-11.4525
槊	-11.4526
管子曰	-11.4526
鷙	-11.4527
於楚	-11.4528
惡其	-11.4529
池上	-11.453
槁	-11.453
字道	-11.4531
怪之	-11.4531
夏禹	-11.4532
太始	-11.4532
方正	-11.4532
莫知其	-11.4532
愛人	-11.4535
封為	-11.4543
乃去	-11.4547
地利	-11.4549
狄仁傑	-11.4551
與民	-11.4551
禦之	-11.4554
位在	-11.4556
分别	-11.4557
髙平	-11.4561
曰不然	-11.4566
桓子	-11.4566
犁	-11.4568
种	-11.4569
在官	-11.4569
髣髴	-11.457
鄧禹	-11.4571
堂堂	-11.4574
先祖	-11.4575
建業	-11.4576
内殿	-11.4576
始得	-11.4577
帝嘗	-11.4578
比干	-11.4578
如之何	-11.4578
少孤	-11.4579
其用	-11.4582
功業	-11.4582
明一統志丨丨在	-11.4583
與夫	-11.4589
輔臣	-11.4592
死矣	-11.4593
疑之	-11.4594
王衍	-11.4596
水草	-11.4597
上方	-11.4597
泛舟	-11.4599
賭	-11.4599
五更	-11.4601
天寒	-11.4604
澡	-11.4604
曲阜	-11.4605
㤙	-11.4605
仲夏	-11.4607
翼翼	-11.4607
久不	-11.4609
無憂	-11.4609
化爲	-11.461
籍田	-11.4611
聖明	-11.4612
經緯	-11.4612
見寄詩	-11.4613
孔安國	-11.4613
酉陽雜爼	-11.4616
芝草	-11.4616
一増	-11.4616
異同	-11.4618
動而	-11.4619
香爐	-11.462
長興	-11.4621
剔	-11.4621
羣生	-11.4623
摹	-11.4624
躭	-11.4625
大駕	-11.4625
鬲	-11.4626
蜩	-11.4627
出兵	-11.4627
宰輔	-11.4632
騎都尉	-11.4633
謠	-11.4635
亦當	-11.4635
頡利	-11.4637
聯	-11.4639
汧	-11.4642
攄	-11.4643
堞	-11.4643
根本	-11.4644
陳造	-11.4646
勇士	-11.4646
暐	-11.4646
我心	-11.4647
五世	-11.4649
東萊	-11.4649
求賢	-11.465
欲殺	-11.4651
二百里	-11.4651
入丨丨	-11.4652
桷	-11.4653
其狀如	-11.4653
詩賦	-11.4655
抃	-11.4656
爨	-11.4656
坼	-11.4658
不親	-11.4659
禧	-11.466
樓臺	-11.4661
旰	-11.4662
萬緡	-11.4662
霤	-11.4663
織成	-11.4664
孫綽	-11.4664
不違	-11.4671
中夜	-11.4672
雨露	-11.4672
燾	-11.4676
義兵	-11.4677
而巳	-11.4677
簞	-11.4677
重耳	-11.4678
林甫	-11.4678
一百五十	-11.4679
燦	-11.4679
太上皇	-11.468
災異	-11.4683
螯	-11.4683
昭儀	-11.4685
中二千石	-11.4685
孰與	-11.4686
孫皓	-11.4689
善屬文	-11.469
長江	-11.4692
黄色	-11.4694
撾	-11.4695
五刑	-11.4698
團練	-11.4698
殷勤	-11.4703
昌邑	-11.4705
衛大將軍	-11.4705
西都	-11.4706
立碑	-11.471
李固	-11.4712
逆旅	-11.4715
來歸	-11.4715
所敗	-11.4716
矦	-11.4719
其根	-11.4719
不害	-11.472
開寳	-11.4722
不學	-11.4724
上問	-11.4725
蒜	-11.4726
交通	-11.4728
濩	-11.4728
糠	-11.4729
帝怒	-11.4729
處置	-11.4732
朱泚	-11.4736
委之	-11.474
兒童	-11.4742
新豐	-11.4743
形容	-11.4745
之宫	-11.4745
迸	-11.4746
烏桓	-11.4747
謾	-11.4747
滓	-11.4747
顙	-11.4748
鬪	-11.4748
取士	-11.475
二里	-11.4752
糶	-11.4752
瀑布	-11.4752
大觀	-11.4754
穀梁	-11.4756
帝遣	-11.4758
桀紂	-11.4758
西魏	-11.4761
百嵗	-11.4761
所親	-11.4761
剝	-11.4761
三光	-11.4764
壟	-11.4765
𥙷	-11.477
終南	-11.4771
薺	-11.4771
世世	-11.4772
五月五日	-11.4773
皇祐	-11.4776
蟋蟀	-11.4777
不時	-11.4778
三年詔	-11.4779
所愛	-11.4782
囚徒	-11.4782
江表	-11.4782
劉孝綽	-11.4783
明一統志丨丨山在	-11.4784
耜	-11.4785
漣	-11.4786
琥珀	-11.4786
曲直	-11.4788
邑人	-11.479
黃帝	-11.479
簒	-11.479
周公之	-11.4792
之符	-11.4792
神䇿	-11.4793
初生	-11.4793
李林甫	-11.4794
虞集	-11.4794
師傅	-11.4797
釋文	-11.4797
始知	-11.4801
遒	-11.4801
二分	-11.4802
立祠	-11.4802
其音	-11.4805
耘	-11.4806
先師	-11.4807
水晶	-11.481
切說文	-11.4811
懶	-11.4814
零落	-11.4816
馬祖常	-11.4816
人主之	-11.4817
樂器	-11.4819
葉如	-11.482
連山	-11.4821
浮圖	-11.4823
一角	-11.4823
阨	-11.4823
君子以	-11.4823
廷珪	-11.4824
惔	-11.4827
禰	-11.4828
必能	-11.4828
一夫	-11.4831
太倉	-11.4831
哭之	-11.4835
神州	-11.4836
鶡	-11.4837
趙孟	-11.4837
玳瑁	-11.4837
諦	-11.4839
其理	-11.4841
紿	-11.4842
忘其	-11.4842
宣帝時	-11.4844
隗囂	-11.4844
以俟	-11.4846
可知矣	-11.4846
律吕	-11.4848
漢水	-11.4851
安邑	-11.4852
本作	-11.4853
續補	-11.4853
尚方	-11.4855
櫟	-11.4855
四十九	-11.4857
洛中	-11.4858
赤眉	-11.4858
經書	-11.4858
帔	-11.486
亦非	-11.486
茫茫	-11.4861
東井	-11.4862
隲	-11.4864
封疆	-11.4864
奢侈	-11.4867
姚崇	-11.4867
甘露降	-11.4867
伏兵	-11.487
墅	-11.4871
腊	-11.4872
萎	-11.4874
个	-11.4875
漢書云	-11.4875
偈	-11.4876
譬之	-11.4877
鍔	-11.488
獲其	-11.4884
王者之	-11.4884
塗山	-11.4885
一子	-11.4885
春官	-11.4887
進士第	-11.4887
攢	-11.4887
要害	-11.4889
冢宰	-11.4889
丨丨而丨丨	-11.489
三十三	-11.4892
漢陽	-11.4894
不窮	-11.4896
且夫	-11.4899
贅	-11.49
光弼	-11.4901
何可	-11.4904
太史令	-11.4906
斷其	-11.4906
雲漢	-11.4907
驤	-11.4908
其德	-11.4908
不登	-11.491
日光	-11.4911
無形	-11.4913
合浦	-11.4913
相近	-11.4913
周瑜	-11.4913
謂侍臣曰	-11.4915
絜	-11.4915
伐木	-11.4917
後果	-11.4918
昵	-11.4918
玷	-11.4919
四十八	-11.492
乘馬	-11.4921
郭子	-11.4922
夢中	-11.4922
山石	-11.4926
斿	-11.4931
輜重	-11.4931
五岳	-11.4932
喜怒	-11.4932
羣書	-11.4935
薔薇	-11.4938
不恱	-11.4938
登第	-11.4939
剛柔	-11.494
楨	-11.494
用心	-11.4943
三星	-11.4943
湖州	-11.4944
狙	-11.4945
其任	-11.4946
兵部侍郎	-11.4947
玉樹	-11.4948
三辰	-11.4949
百官表	-11.4949
談論	-11.4951
神異經	-11.4952
涖	-11.4952
險阻	-11.4954
前殿	-11.4957
死亡	-11.4959
螫	-11.496
俱為	-11.496
色白	-11.4961
桓𤣥	-11.4963
執金吾	-11.4965
永和	-11.4968
本漢	-11.4968
歐公	-11.4969
婿	-11.4969
蜀王	-11.497
臨安	-11.497
叔孫通	-11.4972
𦍑	-11.4973
百王	-11.4974
畀	-11.4974
珎	-11.4975
之應	-11.4976
謇	-11.4977
喟然	-11.4978
李益	-11.498
倘	-11.4981
荆棘	-11.4981
如來	-11.4985
失所	-11.4985
崇文	-11.4988
良乆	-11.4989
温泉	-11.4989
帝堯	-11.499
灞	-11.499
不能得	-11.4991
一杯	-11.4992
箜篌	-11.4993
畎	-11.4993
南極	-11.4993
癘	-11.4994
於路	-11.4996
臣恐	-11.4996
餳	-11.4996
也按	-11.4998
糖	-11.5002
幟	-11.5003
目之	-11.5005
等使	-11.5007
甲辰	-11.5008
伏誅	-11.5009
喘	-11.501
文子曰	-11.5012
六韜	-11.5013
晉陵	-11.5014
房𤣥齡	-11.5014
假節	-11.5015
仲子	-11.5017
鳧	-11.5019
小臣	-11.502
出遊	-11.5024
武公	-11.5025
廙	-11.5026
屣	-11.5027
嶺表	-11.5028
毛羽	-11.5029
五侯	-11.5029
孫叔敖	-11.503
鑊	-11.5031
夫子之	-11.5035
隋唐	-11.5035
鯀	-11.5037
年十二	-11.5037
如舊	-11.5037
論事	-11.5037
冊府元龜曰	-11.5039
重陽	-11.504
君臣之	-11.504
麋鹿	-11.5041
數十年	-11.5041
朱衣	-11.5041
不妄	-11.5041
之大者	-11.5042
斟	-11.5043
老母	-11.5043
田家	-11.5045
車載	-11.5047
堯舜之	-11.5048
故吏	-11.505
民力	-11.5052
戰功	-11.5059
之容	-11.506
容止	-11.5062
何哉	-11.5064
臠	-11.5064
樹木	-11.5064
帝御	-11.5065
南渡	-11.5067
五行之	-11.5067
焚香	-11.5068
早春	-11.5069
呉興	-11.507
元年四月	-11.5071
嗟乎	-11.5073
輕騎	-11.5074
天中記	-11.5076
百一十	-11.5081
時稱	-11.5084
經典	-11.5084
必得	-11.5085
同異	-11.5087
周制	-11.5088
二郡	-11.509
在地	-11.5091
手詔	-11.5098
卬	-11.5101
嘗從	-11.5102
闋	-11.5104
但見	-11.5106
在其中	-11.5106
厯數	-11.5108
入蜀	-11.5109
不知何	-11.511
𦕈	-11.5111
山多	-11.5113
藉田	-11.5113
擢為	-11.5114
蒲萄	-11.5116
魏文侯	-11.5116
恩澤	-11.5116
搴	-11.5118
珏	-11.512
千六百	-11.5122
天馬	-11.5123
東歸	-11.5124
髙堂	-11.5125
褊	-11.5127
溝洫	-11.5127
鹿鳴	-11.5127
蒼龍	-11.5128
薛能	-11.513
放之	-11.513
因問	-11.5131
經學	-11.5131
其黨	-11.5132
漢祖	-11.5132
之瑞	-11.5132
榖梁	-11.5133
不殺	-11.5137
廣志曰	-11.5138
二公	-11.5139
官職	-11.514
穆穆	-11.5141
安民	-11.5141
款	-11.5142
欲知	-11.5142
娱	-11.5144
又遣	-11.5144
太子太傅	-11.5144
冏	-11.5145
深山	-11.5148
隋書曰	-11.515
靈武	-11.515
正旦	-11.5153
善相	-11.5153
親友	-11.5156
幌	-11.5157
牧羊	-11.5159
為刺史	-11.516
秋毫	-11.516
羲之	-11.5161
而問之	-11.5161
黼黻	-11.5162
南昌	-11.5163
所獻	-11.5163
元始	-11.5164
須㬰	-11.5164
王僧孺	-11.5164
御定淵鑑𩔖函卷	-11.5164
安期	-11.5166
國事	-11.5167
起家	-11.5168
白色	-11.517
方寸	-11.5171
丨丨之丨丨	-11.5171
不報	-11.5173
緗	-11.5176
檣	-11.5177
一部	-11.5177
謝承後漢書曰	-11.5179
伐楚	-11.518
縟	-11.518
與衆	-11.5182
碧玉	-11.5183
九成	-11.5183
搔	-11.5194
騂	-11.5196
而罷	-11.5196
澳	-11.5196
夢得	-11.5197
悰	-11.5198
宣撫	-11.5201
户部侍郎	-11.5206
縣尉	-11.5206
營田	-11.5208
昆明池	-11.5208
▁元稹	-11.5211
翠羽	-11.5213
蜀中	-11.5213
問何	-11.5216
憩	-11.5216
曦	-11.5217
異物	-11.5221
經年	-11.5224
音聲	-11.5224
非禮也	-11.5226
明君	-11.5227
廣徳	-11.523
祠部	-11.523
黏	-11.5232
心腹	-11.5233
四年正月	-11.5233
磴	-11.5234
柞	-11.5235
十倍	-11.5235
不雨	-11.5236
飡	-11.5237
孩	-11.5238
七嵗	-11.5238
散騎侍郎	-11.5241
裨	-11.5243
真珠	-11.5249
張湯	-11.5251
親親	-11.5251
二十六年	-11.5253
蘖	-11.5255
偪	-11.5255
黥	-11.5255
元年二月	-11.5256
摠	-11.5258
吾君	-11.5258
臣子	-11.5259
河源	-11.5262
砦	-11.5262
譬猶	-11.5263
旦夕	-11.5264
贊曰	-11.5266
守令	-11.5266
术	-11.5266
雲臺	-11.5268
離離	-11.5272
師友	-11.5274
柰何	-11.5275
儒林	-11.5277
歌之曰	-11.5285
𤣥武	-11.5287
不假	-11.5287
存者	-11.5288
白龍	-11.5289
上人詩	-11.529
三月三日	-11.5291
尺寸	-11.5292
羽毛	-11.5294
冠帶	-11.5295
能致	-11.5301
涿	-11.5302
八座	-11.5302
六律	-11.5303
齊桓	-11.5303
墓誌	-11.5305
門前	-11.5305
軍吏	-11.5312
不孝	-11.5312
孟春	-11.5314
縶	-11.5315
韞	-11.5315
耄	-11.5317
焉故	-11.5318
又詔	-11.5318
改封	-11.5319
列宿	-11.5319
愠	-11.5319
鱣	-11.5319
之材	-11.532
所不能	-11.532
猶如	-11.5321
詩見一	-11.5321
名曰丨丨	-11.5322
宣帝紀	-11.5322
之基	-11.5324
千古	-11.5325
冠軍	-11.5329
鐘鼓	-11.5329
鋸	-11.533
夫差	-11.5334
▁南史	-11.5335
沐浴	-11.5335
無足	-11.5335
林木	-11.5335
大澤	-11.5335
不事	-11.5336
美女	-11.5337
以待之	-11.5342
朱雀	-11.5343
公孫述	-11.5348
為中書令	-11.5348
塋	-11.5354
定天下	-11.536
舩	-11.5361
並見	-11.5361
趙簡子	-11.5361
不愛	-11.5362
代王	-11.5364
徳音	-11.5365
送客	-11.5367
雖在	-11.5368
陶𢎞景	-11.5368
川澤	-11.5368
所貴	-11.5369
戶	-11.537
衮冕	-11.537
行狀	-11.5371
玉山	-11.5372
為業	-11.5372
年十三	-11.5374
墓誌銘	-11.5378
薇	-11.5381
彝	-11.5385
遣使獻	-11.5385
昆吾	-11.5388
城邑	-11.5388
事實	-11.5389
紹聖	-11.539
蝸	-11.5391
便殿	-11.5391
女樂	-11.5395
張敞	-11.5395
不勞	-11.5395
襄子	-11.5396
化成	-11.5401
編修	-11.5403
二年三月	-11.5403
孝明	-11.5407
文集	-11.5408
灋	-11.5408
石壁	-11.5416
壬子	-11.5417
乳母	-11.5418
永寧	-11.5419
龍蛇	-11.5419
今若	-11.5422
律厯志	-11.5422
穴中	-11.5425
徳裕	-11.5426
蔬食	-11.5426
互見	-11.5426
劉晏	-11.5427
昨夜	-11.5428
門下省	-11.543
勝負	-11.5431
兩省	-11.5431
神龜	-11.5432
蠢	-11.5433
長七尺	-11.5436
九尺	-11.5437
棄官	-11.5437
盌	-11.5437
豈惟	-11.5438
二十三年	-11.5442
黎陽	-11.5444
同平章事	-11.5445
㑹于	-11.5446
水又東	-11.5446
實封	-11.5448
羅隠	-11.545
司天	-11.545
刮	-11.5451
於野	-11.5453
上殿	-11.5455
魚鼈	-11.5455
率土	-11.5458
無厭	-11.5458
我我	-11.5458
季夏	-11.5459
兵車	-11.5461
百匹	-11.5462
何憂	-11.5463
黒色	-11.5463
几杖	-11.5463
進位	-11.5464
和元年	-11.5465
咸池	-11.5466
翎	-11.5467
秀實	-11.5468
跛	-11.5469
葉似	-11.547
磁	-11.5472
貨殖	-11.5476
居易	-11.5477
千葉	-11.5478
故稱	-11.5479
勸農	-11.5479
蛩	-11.5479
呂氏春秋	-11.548
永元	-11.5483
娟	-11.5483
已前	-11.5484
廊廟	-11.5485
軍民	-11.5486
齊已	-11.5487
日用	-11.5489
應對	-11.5489
彚	-11.549
萬二千	-11.549
困於	-11.5491
四原	-11.5492
曖	-11.5495
公綽	-11.5495
戰士	-11.5495
校書郎	-11.5496
諫議	-11.5497
雌雄	-11.5499
庚申	-11.5499
以祀	-11.5499
傅咸	-11.5499
失道	-11.55
耳今	-11.5501
其半	-11.5501
恭儉	-11.5506
紬	-11.5507
南京	-11.5509
尚可	-11.5514
臨水	-11.5517
至德	-11.552
戎馬	-11.5527
千疋	-11.5527
彭蠡	-11.5528
鯁	-11.5529
郎將	-11.553
刖	-11.5532
忱	-11.5535
衆心	-11.5542
凡十	-11.5542
蕭條	-11.5545
振旅	-11.5547
莾	-11.5548
文武官	-11.5548
翕然	-11.5549
散騎	-11.5549
恭惟某官	-11.555
諡曰	-11.5552
鄭康成	-11.5552
謚曰	-11.5558
節制	-11.5559
月夜	-11.556
大學士	-11.556
思歸	-11.5563
者悉	-11.5564
喈	-11.5567
追封	-11.5567
後來	-11.5569
駙馬都尉	-11.5572
京房	-11.5573
伐鄭	-11.5573
貞元中	-11.5575
都督府	-11.5577
君長	-11.5578
漁者	-11.5578
惱	-11.5579
君子不	-11.558
入侍	-11.5581
才學	-11.5583
者甚衆	-11.5584
田園	-11.5585
濟河	-11.5587
方岳	-11.5588
湟	-11.5588
上卿	-11.5591
考其	-11.5592
宣室	-11.5593
亾	-11.5595
瀛洲	-11.5595
從征	-11.5598
吹笛	-11.5598
諌議大夫	-11.5599
命婦	-11.5599
入貢	-11.56
齊師	-11.56
生徒	-11.56
▁韓愈	-11.56
定制	-11.5601
憲章	-11.5601
若干	-11.5602
臉	-11.5602
杜荀鶴	-11.5602
十餘日	-11.5605
地形	-11.5607
寺僧	-11.5608
有似	-11.5608
建初	-11.5608
郡縣丨丨	-11.5609
梁書曰	-11.5611
賊衆	-11.5611
魏徵	-11.5611
咸通	-11.5612
籩豆	-11.5613
百花	-11.5616
馳騁	-11.5616
因謂	-11.5617
酉陽	-11.5617
一斤	-11.5619
相屬	-11.562
二十八宿	-11.562
廣大	-11.5621
胡廣	-11.5621
賢士	-11.5622
鵷	-11.5626
孝王	-11.5627
簋	-11.5628
地勢	-11.5628
元年改	-11.5628
宕	-11.5629
沁	-11.5629
曹掾	-11.5632
魏明帝	-11.5633
為人所	-11.5636
僖宗	-11.5637
入秦	-11.5642
不禁	-11.5644
東晉	-11.5644
世隆	-11.5646
屩	-11.5647
三百人	-11.5647
元忠	-11.5649
青州刺史	-11.5649
菹	-11.5651
熊羆	-11.5652
之句	-11.5652
領兵	-11.5653
四川	-11.5654
宫門	-11.5657
公族	-11.5659
彗	-11.566
投壺	-11.5661
羣芳譜	-11.5661
何益	-11.5663
箕子	-11.5665
宫闕	-11.5665
今天下	-11.5666
喫	-11.5667
大中祥符	-11.5668
冀州刺史	-11.567
九章	-11.567
跌	-11.567
韓王	-11.5671
修身	-11.5672
▁劉禹錫	-11.5672
飈	-11.5673
庚午	-11.5675
其他	-11.5681
饑寒	-11.5683
周禮司	-11.5687
知音	-11.5687
六十里	-11.5688
絶句	-11.569
御製	-11.569
其術	-11.569
古人之	-11.5691
瑰	-11.5691
博通	-11.5693
西施	-11.5694
邦之	-11.5696
直上	-11.57
周天	-11.5702
之為言	-11.5705
魏博	-11.5705
尺餘	-11.5706
羅隱	-11.5707
扃	-11.571
上流	-11.5713
其徒	-11.5714
春秋時	-11.5715
瘁	-11.5716
張祜	-11.5717
語云	-11.5719
丁亥	-11.572
伐蜀	-11.572
李咸用	-11.5721
劉表	-11.5723
博物志曰	-11.5724
得意	-11.5725
衆多	-11.5727
躬自	-11.573
清流	-11.5731
煌煌	-11.5732
増又曰	-11.5732
赦之	-11.5733
嘻	-11.5734
凡所	-11.5734
百揆	-11.5734
郾	-11.5734
崤	-11.5734
乞骸骨	-11.5735
儉約	-11.5735
意氣	-11.574
長驅	-11.574
見稱	-11.574
十餘丈	-11.5741
御府	-11.5742
崔駰	-11.5744
若能	-11.5744
母弟	-11.5746
鍾繇	-11.5746
鴆	-11.5746
塡	-11.5747
入關	-11.5748
皇甫謐	-11.575
纉	-11.5752
儆	-11.5753
儀同三司	-11.5754
賜姓	-11.5754
七十餘	-11.5755
忽聞	-11.5757
藝文	-11.5761
信都	-11.5764
娣	-11.5768
螟	-11.5769
過江	-11.5771
縣西北	-11.5772
煦	-11.5774
七寳	-11.5774
財貨	-11.5774
公家	-11.5776
大辟	-11.5777
列國	-11.5778
始祖	-11.5778
尚書右僕射	-11.5781
飲水	-11.5782
礫	-11.5784
三輔黄圖	-11.5785
林鍾	-11.5788
何承天	-11.5791
燠	-11.5792
瀕	-11.5793
屯兵	-11.5795
衞將軍	-11.5795
四年詔	-11.5797
往見	-11.5798
一名丨丨	-11.5798
郎中令	-11.5798
永初	-11.5801
莫知所	-11.5802
氈	-11.5802
浙東	-11.5803
追贈	-11.5805
時論	-11.5806
靈運	-11.5806
土木	-11.5807
篠	-11.5807
其源	-11.5808
同州	-11.5808
不遺	-11.5809
明旦	-11.5809
遂令	-11.5809
虫	-11.5812
故號	-11.5812
嘔	-11.5814
無愧	-11.5814
洋洋	-11.5814
何遜	-11.5815
席上	-11.5817
江北	-11.582
誰與	-11.5821
發明	-11.5822
陸龜䝉	-11.5822
宋史藝文志	-11.5823
周勃	-11.5826
第八	-11.5826
卻	-11.5826
致逺	-11.5826
四十餘	-11.5826
晉卿	-11.5827
溉田	-11.5828
凡此	-11.583
翺翔	-11.5831
雜録	-11.5832
謔	-11.5832
方知	-11.5832
張禹	-11.5835
然猶	-11.5836
所賜	-11.5838
禘祫	-11.5841
七月七日	-11.5845
海外	-11.5848
文中子	-11.585
賃	-11.585
屛	-11.5851
跂	-11.5852
上書曰	-11.5854
王世充	-11.5855
無患	-11.5855
濮陽	-11.5856
不減	-11.5861
渾天	-11.5861
南詔	-11.5861
孝亷	-11.5862
十歩	-11.5866
南州	-11.5871
圻	-11.5871
戊午	-11.5871
魏郡	-11.5873
入地	-11.5874
霜露	-11.5875
黄鵠	-11.5875
貊	-11.5875
於魯	-11.5876
太祝	-11.5877
有寵	-11.5877
掌邦	-11.5878
暮春	-11.5879
治兵	-11.5879
曰先生	-11.5881
靈王	-11.5882
時人謂之	-11.5883
舉手	-11.5886
蕤	-11.5888
魏收	-11.5888
昔人	-11.5889
相識	-11.5889
唐書百官志	-11.5889
南陽太守	-11.589
百濟	-11.589
擿	-11.5891
九錫	-11.5892
山寺	-11.5893
日新	-11.5893
正朔	-11.5893
集賢院	-11.5893
赤道	-11.5895
耒耜	-11.5895
斟酌	-11.5896
而祭	-11.5897
孛	-11.5898
戊申	-11.59
未詳	-11.5902
精舍	-11.5902
臣僚	-11.5904
天意	-11.5907
顯慶	-11.5908
嗣位	-11.5909
觥	-11.591
鑽	-11.591
倅	-11.5913
可取	-11.5914
曰妾	-11.5914
傳遷	-11.5915
垠	-11.5915
録尚書事	-11.5916
尚未	-11.5917
雅頌	-11.5922
焉又曰	-11.5923
教民	-11.5923
石渠	-11.5927
書院	-11.5929
潘尼	-11.593
稗	-11.593
數寸	-11.5932
南向	-11.5932
太極殿	-11.5933
滋味	-11.5933
夫妻	-11.5933
厯代	-11.5935
晉文公	-11.5938
唐初	-11.594
九齡	-11.5947
著述	-11.5947
光輝	-11.5955
闔閭	-11.5956
于河	-11.5959
身死	-11.5962
橙	-11.5967
朝覲	-11.5968
肖	-11.5968
御前	-11.5969
内附	-11.5972
助教	-11.5972
嚢	-11.5974
辛巳	-11.5975
諸山	-11.5975
義理	-11.5976
旡	-11.5976
樂毅	-11.5979
下流	-11.598
論道	-11.5981
西京雜記曰	-11.5982
威名	-11.5985
天祐	-11.5987
昭明	-11.5987
瀑	-11.5988
遇害	-11.5989
一歲	-11.5992
升堂	-11.5993
賽	-11.5993
民皆	-11.5993
繚	-11.5993
稱疾	-11.5993
貿	-11.5993
自給	-11.5995
嘉靖	-11.5996
尓	-11.5997
仭	-11.5997
犒	-11.5997
膏腴	-11.5998
馬蹄	-11.5998
簡易	-11.6001
安縣	-11.6003
象牙	-11.6003
日照	-11.6007
赤色	-11.6011
宋史輿服志	-11.6014
無恙	-11.6015
劾奏	-11.6015
意欲	-11.6017
鈐	-11.6017
國士	-11.6017
宣州	-11.6019
新野	-11.6025
遷都	-11.6025
天保	-11.6026
在坐	-11.6026
袁宏	-11.6027
輔國將軍	-11.6027
文館	-11.603
經筵	-11.6031
司冦	-11.6032
琅玕	-11.6033
畫地	-11.6033
繡衣	-11.6034
澀	-11.6034
太子詹事	-11.6035
本司	-11.6036
此所以	-11.6038
江州刺史	-11.604
廣雅曰	-11.6042
為散騎常侍	-11.6043
郞	-11.6043
帳中	-11.6045
十分	-11.6046
後代	-11.6047
與天地	-11.6048
顔回	-11.6048
陜州	-11.6049
牀下	-11.6052
敢言	-11.6053
如此者	-11.6054
郴	-11.6055
春秋繁露	-11.6055
義士	-11.6055
季冬	-11.6057
莅	-11.6059
靳	-11.6061
淤	-11.6062
朕甚	-11.6062
韻會	-11.6063
蘭陵	-11.6064
沴	-11.6065
尺二寸	-11.6066
置左右	-11.6066
刑部尚書	-11.6069
百代	-11.607
為誰	-11.6071
陳琳	-11.6072
宋史河渠志	-11.6073
防禦	-11.6074
名號	-11.6074
一世	-11.6075
親征	-11.6077
夀春	-11.6079
魏軍	-11.6079
萬六千	-11.6083
獄吏	-11.6085
抱朴子外	-11.6086
中國之	-11.6086
五方	-11.6087
日磾	-11.6089
武平	-11.6089
不到	-11.6092
籜	-11.6092
為之語曰	-11.6093
劉琨	-11.6095
指揮使	-11.6095
張騫	-11.6102
俗謂之	-11.6102
諛	-11.6103
無怨	-11.6104
嵗餘	-11.6104
縣東南	-11.6106
不可勝數	-11.6106
賈人	-11.6108
軍門	-11.6112
封爵	-11.6115
屬縣	-11.6118
渺	-11.6118
奏言	-11.6118
娠	-11.6122
岳陽	-11.6125
亦復	-11.6128
鯉魚	-11.6129
政教	-11.613
為大將軍	-11.6131
曰予	-11.6131
周穆王	-11.6132
端午	-11.6133
萬古	-11.6133
馬歩	-11.6134
孔叢子	-11.6137
為翰林學士	-11.6139
彦博	-11.6143
歸國	-11.6145
都下	-11.6146
唐明皇	-11.6152
鄧艾	-11.6153
蘓軾	-11.6154
裊	-11.6155
熒	-11.6156
琯	-11.6158
邴	-11.6159
甃	-11.616
媵	-11.6161
二十二年	-11.6164
山之陽	-11.6166
簴	-11.6166
元鼎	-11.6166
盛夏	-11.6167
人呼	-11.6168
天禧	-11.6168
高帝	-11.6168
奉法	-11.6171
一疋	-11.6172
存乎	-11.6172
九疑	-11.6174
天降	-11.6175
唐六典	-11.6176
大衍	-11.6176
道武	-11.6177
其類	-11.6178
一斛	-11.6179
百物	-11.618
其皮	-11.6184
中書郎	-11.6184
纘	-11.6184
奉朝請	-11.6187
雨師	-11.6187
法駕	-11.6187
辛丑	-11.6189
毆	-11.619
石季龍	-11.6191
南嶽	-11.6194
洪水	-11.6195
數嵗	-11.6197
鷓鴣	-11.6197
巴陵	-11.6198
勇力	-11.62
鱉	-11.6203
枹	-11.6203
論語曰	-11.6204
醫藥	-11.6204
能知	-11.6206
湖中	-11.6206
悚	-11.6206
二十八年	-11.6207
為大司馬	-11.6207
良史	-11.6208
怙	-11.621
四世	-11.6214
伯樂	-11.622
三十人	-11.6221
上客	-11.6222
些	-11.6222
盛德	-11.6222
紫色	-11.6224
禮儀志	-11.6224
家語曰	-11.6224
蹟	-11.6226
丁未	-11.6228
癭	-11.6229
為太傅	-11.6229
蜘蛛	-11.623
四皓	-11.6231
不盈	-11.6232
鐘磬	-11.6234
三載	-11.6235
士女	-11.6235
李端	-11.6237
辛未	-11.6239
臺省	-11.624
陸賈	-11.624
帚	-11.624
臺上	-11.6242
三川	-11.6242
菩提	-11.6243
兀	-11.6244
犬馬	-11.6245
言我	-11.6246
玉藻	-11.6248
風化	-11.6249
驄	-11.6249
王旦	-11.625
無雙	-11.625
大寒	-11.625
至於此	-11.6252
丙午	-11.6252
周文王	-11.6255
之美者	-11.6255
行軍總管	-11.6256
使天下	-11.6256
吕后	-11.6258
璩	-11.6258
八千	-11.626
諸縣	-11.6261
黄門郎	-11.6262
樞密	-11.6263
騾	-11.6264
若何	-11.6268
逶迤	-11.6269
四海之	-11.6269
留意	-11.6269
賢才	-11.6271
墨子曰	-11.6273
雜志	-11.6273
之功也	-11.6273
幽王	-11.6273
巍巍	-11.6274
乗車	-11.628
於諸侯	-11.6283
翬	-11.6284
優游	-11.6284
晉中興書曰	-11.6284
元年三月	-11.6286
梭	-11.6286
成帝時	-11.6286
净	-11.6287
巘	-11.6287
綉	-11.6288
箔	-11.6289
造父	-11.6289
蒨	-11.6289
興師	-11.6291
澁	-11.6292
侍者	-11.6294
行部	-11.6297
螽	-11.6297
挑戰	-11.63
袁桷	-11.6302
成湯	-11.6303
十嵗	-11.6306
而殺之	-11.6309
盻	-11.6311
東川	-11.6311
鎗	-11.6311
臣願	-11.6317
筴	-11.6318
坐客	-11.6318
數萬人	-11.6319
朝官	-11.632
華州	-11.632
故舊	-11.6321
驍勇	-11.6323
大畧	-11.6324
義興	-11.6326
欽若	-11.6327
為三公	-11.6329
丘陵	-11.6329
財賦	-11.633
睨	-11.6331
泫	-11.6331
佛法	-11.6331
不忠	-11.6331
橈	-11.6333
樂安	-11.6333
衛士	-11.6335
以此為	-11.6336
羽儀	-11.6338
詳定	-11.6341
不負	-11.6342
以鐵	-11.6344
北京	-11.6344
矢石	-11.6348
二十七年	-11.635
穆天子傳	-11.6351
淋	-11.6351
蜚	-11.6352
符瑞	-11.6353
婕妤	-11.6354
以為然	-11.6354
下筆	-11.6357
帳下	-11.6358
封泰山	-11.636
旗幟	-11.6361
尊師	-11.6362
翰林院	-11.6363
瑛	-11.6366
長二尺	-11.6369
繆公	-11.637
崇寧	-11.637
佺	-11.6371
璉	-11.6372
洞冥記	-11.6373
驎	-11.6374
婺	-11.6374
瀘	-11.6374
禖	-11.6376
筦	-11.6379
大吕	-11.6379
不煩	-11.638
髙第	-11.6383
顔師古	-11.6383
卿相	-11.6384
祖宗之	-11.6385
青天	-11.6386
所藏	-11.6387
岷山	-11.6388
二十餘年	-11.6389
四十二	-11.639
少尹	-11.6391
袋	-11.6392
光彩	-11.6392
張載	-11.6394
璹	-11.6397
中庭	-11.6397
郯	-11.6397
壽春	-11.6398
虀	-11.6398
拉	-11.6399
摽	-11.64
其私	-11.64
只是	-11.6401
林寺	-11.6401
武皇帝	-11.6402
辛亥	-11.6405
不得入	-11.6408
日夕	-11.641
改容	-11.6412
酎	-11.6412
砧	-11.6412
否則	-11.6413
漢世	-11.6415
姊妹	-11.6416
經略	-11.6416
錬	-11.6416
橘柚	-11.6416
陸倕	-11.6417
騎兵	-11.6424
連理	-11.6424
維摩	-11.6425
闚	-11.6425
雲起	-11.6425
御書	-11.6427
一升	-11.6427
恒山	-11.6428
回紇	-11.6428
無疑	-11.6429
道家	-11.6432
李羣玉	-11.6433
旛	-11.6433
盛衰	-11.6434
廟碑	-11.6434
經綸	-11.6435
二百四十	-11.6436
儒生	-11.6436
餼	-11.6439
蔭	-11.6439
樂正	-11.6441
復來	-11.6443
雲門	-11.6443
河南府	-11.6446
也故曰	-11.6446
諸曹	-11.6448
宗祀	-11.6448
隋書禮儀志	-11.6451
居民	-11.6451
孝悌	-11.6452
郡吏	-11.6458
地震	-11.646
滄浪	-11.6461
鈕	-11.6461
晡	-11.6461
家家	-11.6462
遣使朝貢	-11.6463
老夫	-11.6464
濟隂	-11.6467
驃騎大將軍	-11.6468
之政令	-11.6469
之罪也	-11.6473
兵馬使	-11.6478
先鋒	-11.6479
已死	-11.6481
入闗	-11.6483
杜陵	-11.6484
風月	-11.6487
鴻漸	-11.6488
俄頃	-11.649
春草	-11.6493
制作	-11.6499
未央宫	-11.6499
櫻	-11.65
檝	-11.6501
金紫	-11.6501
糗	-11.6502
進軍	-11.6502
西郊	-11.6502
行路	-11.6504
誑	-11.6506
韋昭	-11.6506
琚	-11.6506
勒兵	-11.6507
撿	-11.6508
溷	-11.6508
三十七	-11.6509
媛	-11.6509
由來	-11.6509
諍	-11.6509
㕓	-11.651
三千里	-11.6511
與俱	-11.6513
不聴	-11.6515
相次	-11.6515
紫雲	-11.6515
後園	-11.6516
創業	-11.6518
不順	-11.6519
徐夤	-11.652
蔡州	-11.6521
左將軍	-11.6521
國學	-11.6523
楚師	-11.6525
義方	-11.6526
洧	-11.6526
摯虞	-11.6527
紓	-11.6529
潞州	-11.6529
屬文	-11.653
方圓	-11.653
斬其	-11.653
壬午	-11.6532
宫詞	-11.6532
家世	-11.6532
陸㳺	-11.6534
聞君	-11.6537
洛書	-11.6537
三才	-11.6542
童謡	-11.6544
四部	-11.6547
亦宜	-11.6549
衆軍	-11.6549
硬	-11.655
扈從	-11.6551
千八百	-11.6551
繅	-11.6551
傷人	-11.6552
中有一	-11.6552
荀朂	-11.6552
爕	-11.6553
虞卿	-11.6553
殉	-11.6553
一隻	-11.6556
親故	-11.6557
唐書禮樂志	-11.6558
若今	-11.656
松江	-11.656
工人	-11.6561
自投	-11.6561
諮議	-11.6564
釋氏	-11.6567
平陵	-11.6568
蹴	-11.6569
鞬	-11.657
瓮	-11.6573
之力也	-11.6573
圖籍	-11.6574
開花	-11.6575
吕覽	-11.6575
兌	-11.6576
西伯	-11.6577
琇	-11.6577
北風	-11.6579
正殿	-11.658
姑蘇	-11.658
蕭望之	-11.6581
下大夫	-11.6585
涿郡	-11.6585
兩浙	-11.6587
萬八千	-11.6587
醋	-11.6589
洵	-11.6592
白帖	-11.6594
繖	-11.6597
單父	-11.6599
獨行	-11.6599
平定	-11.6602
岱宗	-11.6602
朕意	-11.6602
與賊	-11.6604
抱朴	-11.6605
鼔吹	-11.6605
東園	-11.6606
長八尺	-11.6606
老翁	-11.6606
潤州	-11.6607
乎哉	-11.6607
西平	-11.6608
縣西南	-11.6609
辛苦	-11.661
車師	-11.661
手自	-11.661
解衣	-11.6611
搗	-11.6612
而歎曰	-11.6612
滁	-11.6612
徐鉉	-11.6613
玉帶	-11.6614
屬國	-11.6615
王濬	-11.6616
色黄	-11.6616
氓	-11.6616
褘	-11.6616
漢兵	-11.6617
瑞應	-11.662
第九	-11.6621
雖多	-11.6622
離宫	-11.663
闍	-11.6631
靈芝	-11.6631
嘗聞	-11.6633
璆	-11.6634
聲名	-11.6634
夤	-11.6635
刑法志	-11.6636
渦	-11.6637
咀	-11.6639
僂	-11.6639
親近	-11.664
隨風	-11.6641
鮑叔	-11.6642
謡曰	-11.6645
名儒	-11.6645
累世	-11.6648
涇原	-11.6649
亦能	-11.6651
冽	-11.6658
五嵗	-11.6658
羣下	-11.6658
得其人	-11.666
齊景公	-11.6661
兆民	-11.6662
陲	-11.6663
遑	-11.6663
䛕	-11.6664
統軍	-11.6665
别傳曰	-11.6666
列子曰	-11.6667
今世	-11.6668
閣下	-11.6669
賈充	-11.667
乃更	-11.6672
史記天官書	-11.6674
旣而	-11.6674
莫大於	-11.6675
何物	-11.668
北堂書鈔	-11.6681
百草	-11.6683
世界	-11.6683
郝經	-11.6684
趙充國	-11.6685
故老	-11.6686
古制	-11.6686
飜	-11.6687
風動	-11.669
國之大	-11.6691
棄其	-11.6693
衆庶	-11.6694
秘閣	-11.6695
禁止	-11.6695
孤竹	-11.6696
文獻	-11.6699
元吉	-11.6701
鵲巢	-11.6703
璵	-11.6704
未㡬	-11.6705
司勲	-11.6705
太平之	-11.6708
泣下	-11.6708
交易	-11.671
臣愚	-11.671
討賊	-11.6717
臨終	-11.6718
博覽	-11.6718
揖讓	-11.6719
漉	-11.6721
法制	-11.6723
撝	-11.6726
玉壺	-11.6727
蔡京	-11.6727
參知政事	-11.6728
洙	-11.6728
嶲	-11.6728
壬寅	-11.6729
姓苑	-11.673
碑銘	-11.6731
無限	-11.6734
異苑	-11.6737
羣后	-11.6738
小學紺珠丨丨	-11.6738
事親	-11.6739
温嶠	-11.6739
分兵	-11.674
囀	-11.6742
窄	-11.6742
老弱	-11.6742
仁人	-11.6743
艇	-11.6745
倐	-11.6746
縢	-11.6749
憇	-11.6751
衆寡	-11.6752
校獵	-11.6753
百獸	-11.6754
事畢	-11.6754
官品	-11.6755
穂	-11.6756
輕車	-11.6757
之意也	-11.6759
生靈	-11.676
吾欲	-11.6761
水仙	-11.6764
蕡	-11.6765
六代	-11.6765
九鼎	-11.6766
萬歲	-11.6767
顔子	-11.6767
撒	-11.6768
無辜	-11.677
張喬	-11.6771
欲殺之	-11.6773
景福	-11.6774
檀弓	-11.6776
甘棠	-11.678
梅堯臣詩	-11.678
賜宴	-11.6787
思慮	-11.6787
原隰	-11.6788
㽔	-11.6789
功德	-11.679
琅琊	-11.6792
俚	-11.6793
祲	-11.6793
袵	-11.6795
九州之	-11.6797
右丞	-11.6798
中牟	-11.6803
來獻	-11.6804
四足	-11.6805
恨不	-11.6808
王昌齡	-11.6808
虯	-11.6813
剌	-11.6814
縣侯	-11.6815
甲申	-11.6816
騎士	-11.6817
閟	-11.6817
怛	-11.6818
億萬	-11.682
雲霞	-11.6823
惠公	-11.6826
顔淵	-11.6827
尋常	-11.6828
千牛	-11.6829
百步	-11.6829
有隙	-11.6829
佐命	-11.683
驃	-11.6832
熬	-11.6833
州别駕	-11.6833
鏘	-11.6834
元和中	-11.6835
李綱	-11.6835
以下皆	-11.6836
揀	-11.6836
負薪	-11.6838
櫝	-11.6838
西南夷	-11.6841
已定	-11.6847
下第	-11.6848
北宫	-11.6848
首陽	-11.685
王業	-11.6853
愕	-11.6855
霓裳	-11.6856
芷	-11.6858
好事者	-11.6859
蝦蟇	-11.686
𦂳	-11.6861
之制也	-11.6862
武將軍	-11.6862
壝	-11.6863
應劭曰	-11.6863
禁軍	-11.6863
方伯	-11.6865
仍舊	-11.6872
太中大夫	-11.6872
安禄山	-11.6875
滄州	-11.6876
荀卿	-11.6878
三十四	-11.6881
黄老	-11.6881
瑪瑙	-11.6882
戊寅	-11.6883
䑛	-11.6885
而哭	-11.6886
軋	-11.6886
鏑	-11.6886
二十四年	-11.6887
與汝	-11.6889
鎮州	-11.6889
▁杜牧	-11.6891
千乘	-11.6891
鄉黨	-11.6891
真定	-11.6893
汝等	-11.6893
上封事	-11.6895
庠序	-11.6897
魔	-11.69
画	-11.6902
仁夀	-11.6903
虱	-11.6904
歧	-11.6904
耕者	-11.6904
繢	-11.6905
馳道	-11.6906
司業	-11.6907
溪水	-11.6907
方鎮	-11.6908
既已	-11.6908
不擇	-11.6909
穽	-11.691
歿	-11.6911
許昌	-11.6914
臨事	-11.6915
呉郡	-11.6921
兵器	-11.6922
為荆州刺史	-11.6923
不撓	-11.6923
河渠	-11.6924
文詞	-11.6926
駘	-11.6928
鍜	-11.6929
鮮于	-11.693
騎射	-11.693
秦伯	-11.6934
楊柳	-11.6935
粢盛	-11.6937
太𤣥經	-11.6937
千丈	-11.6937
天河	-11.6939
號泣	-11.694
匕	-11.6943
達於	-11.6945
音義	-11.6945
勞苦	-11.6947
為賊所	-11.6947
枲	-11.6949
悝	-11.6954
屹	-11.6954
不恤	-11.6957
名位	-11.6959
李吉甫	-11.696
項籍	-11.696
百斛	-11.6962
網羅	-11.6963
李頎	-11.6964
天錫	-11.6965
自隨	-11.6967
今古	-11.6969
湘東王	-11.6973
鄴中記	-11.6973
淘	-11.6974
宋均	-11.6975
諸葛恪	-11.6977
剋	-11.6979
花木	-11.698
動静	-11.6981
於南郊	-11.6983
孔光	-11.6987
聖德	-11.6987
崑山	-11.6988
每日	-11.6989
將吏	-11.6989
姝	-11.6992
纍	-11.6993
増置	-11.6993
蛾眉	-11.6994
佛寺	-11.6996
乗勝	-11.6997
睇	-11.6998
椁	-11.6999
凡六	-11.7
翰墨	-11.7001
陳後主	-11.7003
赤烏	-11.7003
充國	-11.7004
府長史	-11.7005
都監	-11.7006
不失其	-11.7008
古今姓纂	-11.7013
谷口	-11.7013
范雲	-11.7013
秉政	-11.7014
登歌	-11.7016
淮水	-11.7018
鞶	-11.7019
竊見	-11.7019
厮	-11.702
稱臣	-11.7021
明帝紀	-11.7023
擊破之	-11.7033
餓死	-11.7034
誰家	-11.7034
形體	-11.7034
白雀	-11.7036
越州	-11.7037
凉風	-11.7037
黄鉞	-11.7041
貢士	-11.7042
老病	-11.7043
過失	-11.7044
馬燧	-11.7047
箎	-11.7047
肌膚	-11.7047
藏書	-11.705
庚寅	-11.7051
曹參	-11.7051
温公	-11.7052
登城	-11.7053
别置	-11.7056
麈尾	-11.7056
詰之	-11.7058
盤龍	-11.706
秫	-11.7063
鐺	-11.7064
十匹	-11.7066
女媧	-11.7066
黄花	-11.7068
太妃	-11.7071
桂樹	-11.7073
太學博士	-11.7075
竇憲	-11.7076
葡萄	-11.7076
藩鎮	-11.7078
必須	-11.7083
樓賦	-11.7084
次于	-11.7087
髙樓	-11.7087
主司	-11.709
斯文	-11.7091
餘杭	-11.7097
女妻	-11.7098
宜春	-11.7098
集韻	-11.7099
聰敏	-11.7101
源流	-11.7101
荇	-11.7103
二年四月	-11.7105
林宗	-11.7105
累日	-11.7105
豈敢	-11.7105
北辰	-11.7107
椘	-11.7109
非徒	-11.7109
隈	-11.7109
媯	-11.711
朝野僉載	-11.7111
三十日	-11.7111
氏掌	-11.7112
三升	-11.7112
本草丨丨	-11.7113
承明	-11.7114
生男	-11.7114
名譽	-11.7115
一面	-11.7116
湮	-11.7116
獄中	-11.712
鄉飲酒	-11.712
滑稽	-11.712
以為不可	-11.7123
吞之	-11.7123
各有所	-11.7124
吴王	-11.7125
西陵	-11.7128
文德	-11.7131
髙允	-11.7134
仲冬	-11.7135
顔真卿	-11.7135
湏臾	-11.7136
▁元史	-11.7138
終南山	-11.7138
牧馬	-11.7139
戊辰	-11.714
租賦	-11.714
曰此兒	-11.7142
宫商	-11.7142
待罪	-11.7144
西向	-11.7147
夏商	-11.7149
漢光武	-11.7149
旁有	-11.715
唐末	-11.7155
莫非	-11.7155
出鎮	-11.7155
儕	-11.7158
明鏡	-11.7158
十洲記	-11.7159
堂前	-11.716
趙嘏	-11.7161
堙	-11.7161
同中書門下平章事	-11.7161
棟梁	-11.7162
年十四	-11.7162
棄市	-11.7164
樞機	-11.7166
劉楨	-11.7169
不聼	-11.717
年月	-11.7171
魚龍	-11.7173
疏云	-11.7175
六宫	-11.7175
鼙	-11.718
東征	-11.718
蛻	-11.7182
龍泉	-11.7183
𧖟	-11.7184
實錄	-11.7188
無害	-11.7189
埋之	-11.719
良田	-11.719
▁宋書	-11.7194
仲尼曰	-11.7194
規模	-11.7197
九里	-11.72
己巳	-11.7201
親屬	-11.7202
膠東	-11.7203
淳熙	-11.7205
引軍	-11.7206
秤	-11.7207
虞夏	-11.721
罟	-11.721
㤀	-11.7212
子敬	-11.7217
承慶	-11.7217
固已	-11.7219
幸得	-11.722
宣徽	-11.7223
厓	-11.7223
文采	-11.7223
叠	-11.7224
嶧	-11.7227
昌言	-11.7229
建武中	-11.7229
改作	-11.723
賻	-11.7234
多寡	-11.7235
左氏傳	-11.7235
長孫無忌	-11.7237
東宮	-11.7238
蒼頭	-11.724
渭橋	-11.724
老子曰	-11.7243
盧仝	-11.7244
國政	-11.7245
河間王	-11.7245
峒	-11.7249
舍利	-11.7249
貓	-11.7249
洹	-11.725
癖	-11.7251
於明堂	-11.7253
犯者	-11.7254
娑	-11.7254
乃退	-11.7255
知政事	-11.7256
守節	-11.7259
賢能	-11.7261
黄滔	-11.7261
鄭元	-11.7263
提刑	-11.7265
縣東北	-11.7266
丙子	-11.7266
興國	-11.7268
田疇	-11.7268
大潰	-11.7269
赴闕	-11.727
堕	-11.727
掾屬	-11.727
神光	-11.727
筩	-11.7271
騎馬	-11.7277
文雅	-11.728
甲戌	-11.7283
武皇	-11.7285
仲宣	-11.7287
新聲	-11.7288
有五色	-11.7288
波濤	-11.7289
劉禹	-11.7292
敝邑	-11.7292
太室	-11.7294
碾	-11.7295
大中大夫	-11.7295
黄巾	-11.7295
縵	-11.7296
瑯	-11.7299
浩浩	-11.7305
月照	-11.7306
孳	-11.7307
禍亂	-11.7308
襄城	-11.7313
獲罪	-11.7316
經過	-11.7316
莱	-11.7319
龍池	-11.732
戰敗	-11.732
都鄙	-11.7321
睫	-11.7321
爇	-11.7322
荔支	-11.7324
短長	-11.7325
暴雨	-11.7327
雜俎	-11.7328
妣	-11.733
避難	-11.7331
召對	-11.7333
絶倫	-11.7336
其族	-11.7336
彎	-11.7338
伏惟陛下	-11.7339
左拾遺	-11.7341
蕨	-11.7341
諲	-11.7342
壠	-11.7343
少室	-11.7344
萬歳	-11.7346
無敵	-11.735
縊	-11.7351
利用	-11.7355
說苑曰	-11.7355
採藥	-11.7358
何曽	-11.7363
褒貶	-11.7363
五彩	-11.7363
蜺	-11.7364
酒肉	-11.7364
崑崙山	-11.7367
棒	-11.7368
掘地	-11.737
衞尉	-11.7372
樞密院	-11.7373
冤	-11.7374
戊子	-11.7374
積薪	-11.7377
四角	-11.7379
非獨	-11.738
白鷺	-11.738
地祗	-11.7383
姦邪	-11.7383
血氣	-11.7384
介甫	-11.7384
藝文志	-11.7385
輜	-11.7385
道中詩	-11.7385
廚	-11.7387
魏畧	-11.7387
合肥	-11.7388
許由	-11.7395
闞	-11.7395
淳于髠	-11.7395
茅山	-11.7396
疽	-11.7396
中郎将	-11.7398
㑹同	-11.7399
徭役	-11.7401
𣲖	-11.7401
呼吸	-11.7405
供奉官	-11.7406
而遣之	-11.7407
癸亥	-11.7407
萬乘	-11.7408
白虎通曰	-11.7408
宗社	-11.7409
異苑曰	-11.741
無忘	-11.7411
曹唐	-11.7411
各異	-11.7412
三年二月	-11.7415
萬貫	-11.7417
佩玉	-11.7418
軿	-11.7418
畿内	-11.7418
魏略曰	-11.742
六曹	-11.742
▁齊書	-11.742
國史補	-11.7423
積雪	-11.7423
五十餘	-11.7425
䙝	-11.7425
䂓	-11.7428
廣州刺史	-11.7433
振武	-11.7433
清泉	-11.7436
奏樂	-11.7436
盧照鄰	-11.7437
靚	-11.7437
周禮考工記	-11.7438
討論	-11.7439
殿庭	-11.744
燋	-11.744
可致	-11.7441
也然而	-11.7442
豨	-11.7443
諫諍	-11.7443
異物志曰	-11.7443
唳	-11.7444
陕	-11.7445
欽明	-11.7447
凛	-11.7447
恭敬	-11.7448
備矣	-11.7449
甲士	-11.7455
招討使	-11.7455
神器	-11.7456
啞	-11.7461
千門	-11.7461
鄭國	-11.7462
殳	-11.7463
葆	-11.7463
成公綏	-11.7464
字孝	-11.7465
禹錫	-11.7468
歲時	-11.7468
孜孜	-11.7469
賾	-11.7469
孜	-11.747
孫逖	-11.7471
在東宫	-11.7471
墮地	-11.7472
㑹稽太守	-11.7474
陽公主	-11.7474
診	-11.7475
而不用	-11.7476
燕雀	-11.7476
乾徳	-11.748
冡宰	-11.7486
糝	-11.7487
粘	-11.7488
大赦改元	-11.7489
劉曜	-11.749
𡨕	-11.749
弹	-11.7491
望氣	-11.7492
諺	-11.7499
萬四千	-11.7506
伯父	-11.7507
直指	-11.7508
筌	-11.7508
亞夫	-11.751
五祀	-11.751
干將	-11.7511
汾隂	-11.7512
抹	-11.7512
交錯	-11.7512
鞞	-11.7513
甍	-11.7514
柝	-11.7517
恍	-11.7517
考工記	-11.7518
果得	-11.7518
亦不能	-11.7521
閩中	-11.7523
法律	-11.7525
少好	-11.7525
霍山	-11.7525
敏中	-11.7526
氣力	-11.7533
褭	-11.7533
埀	-11.7536
厲王	-11.7536
祥瑞	-11.7539
常衮	-11.7539
一百四十	-11.754
遣吏	-11.7541
到官	-11.7542
回鶻	-11.7544
尚存	-11.7545
石橋	-11.755
横行	-11.755
動揺	-11.7551
隍	-11.7552
布被	-11.7554
芰	-11.7554
金盤	-11.7554
樂工	-11.7554
河海	-11.7556
匡衡	-11.7557
農事	-11.7559
論功	-11.7561
揉	-11.7562
國語曰	-11.7565
子貢曰	-11.7566
新語	-11.7567
丁酉	-11.7569
賢臣	-11.7572
壬申	-11.7573
丨而丨	-11.7578
橐	-11.7578
秔	-11.7579
雝	-11.7583
呉人	-11.7587
躬耕	-11.7592
晁錯	-11.7592
泯	-11.7593
太常少卿	-11.7594
猶能	-11.7597
引去	-11.7597
長鳴	-11.7597
戰勝	-11.76
爵位	-11.7602
故君子	-11.7602
錄事	-11.7603
正統	-11.7605
黻	-11.7607
麽	-11.7609
緌	-11.761
善騎射	-11.761
▁水經注	-11.7611
糊	-11.7611
夏侯湛	-11.7611
愛民	-11.7612
蒞	-11.7618
漢紀	-11.7618
元年七月	-11.762
成臯	-11.7621
有事於	-11.7624
改易	-11.7626
户部尚書	-11.7628
吏卒	-11.7628
年五十	-11.763
遺風	-11.7631
龍鱗	-11.7631
犇	-11.7632
好古	-11.7633
千匹	-11.7634
漑	-11.7634
康節	-11.7635
循吏	-11.7635
著作佐郎	-11.7636
冬至日	-11.7636
莊周	-11.7637
築室	-11.7637
凜	-11.7639
明帝時	-11.7642
筆談	-11.7644
鴻鵠	-11.7644
踐祚	-11.7645
丁巳	-11.7646
伊洛	-11.7646
苑囿	-11.7647
龍首	-11.7648
歌聲	-11.7649
來聘	-11.765
嗔	-11.7652
皥	-11.7653
孟氏	-11.7653
大慙	-11.7655
兜	-11.7655
元年八月	-11.7656
嘗問	-11.7658
孔明	-11.7658
嘘	-11.7659
妥	-11.766
巍	-11.7661
乙亥	-11.7661
馘	-11.7661
從祀	-11.7662
太真	-11.7662
譁	-11.7664
一莖	-11.7665
饑饉	-11.7668
元景	-11.7668
為第一	-11.7669
人呼為	-11.767
神祗	-11.7671
比年	-11.7673
相攻	-11.7679
州里	-11.7681
管絃	-11.7683
建議	-11.7685
金匱	-11.7689
祏	-11.7689
邊境	-11.7693
吉日	-11.7694
盧氏	-11.7695
夏月	-11.7695
陳蔡	-11.7697
田野	-11.7697
班超	-11.7698
戮力	-11.7699
師旅	-11.77
渾儀	-11.7704
長一丈	-11.7705
錦衣	-11.7707
即皇帝位	-11.771
勗	-11.771
殷周	-11.7712
寢疾	-11.7715
高麗	-11.7715
癸巳	-11.7716
貨財	-11.7718
班師	-11.7718
浩然	-11.7722
龍驤	-11.7723
仰觀	-11.7726
元年十月	-11.7727
從政	-11.7727
兩手	-11.7727
萬三千	-11.7727
王筠	-11.7728
退朝	-11.7728
茅屋	-11.7731
仇池	-11.7732
謝𤣥	-11.7733
弈	-11.7733
切並	-11.7734
酷吏	-11.7737
龍朔二年改	-11.7738
嶮	-11.7741
外内	-11.7741
三司使	-11.7742
黄鍾之	-11.7742
壬辰	-11.7743
慾	-11.7743
罸	-11.7743
墳墓	-11.7746
韓翃	-11.7749
寡婦	-11.7749
孝恭	-11.7751
寂寥	-11.7751
大荒	-11.7754
鄠	-11.7756
煜	-11.7757
噲	-11.7758
推誠	-11.7762
新亭	-11.7763
明徹	-11.7764
丁丑	-11.7764
文皇帝	-11.7765
庚辰	-11.7765
六畜	-11.7766
物色	-11.7767
猛虎	-11.7769
聞其名	-11.7771
爵禄	-11.7771
子罕	-11.7772
頲	-11.7774
西面	-11.7777
太華	-11.7779
圈	-11.778
樂舞	-11.778
皃	-11.778
旐	-11.7782
暘	-11.7783
綱目	-11.7786
乙丑	-11.7788
己亥	-11.779
壼	-11.7791
祕書監	-11.7792
自矜	-11.7795
結實	-11.7796
園林	-11.7797
能屬文	-11.7797
擊鼓	-11.7797
太𤣥	-11.7801
典刑	-11.7802
劉孝威	-11.7802
世號	-11.7804
殷浩	-11.7805
跣	-11.7807
殪	-11.7808
綝	-11.7808
二百餘	-11.7809
武陵王	-11.7809
希烈	-11.7813
五斗	-11.7814
徙居	-11.7817
以丨丨為	-11.7818
等議	-11.7819
五絃	-11.7819
禽經	-11.7821
月十五日	-11.7821
端拱	-11.7826
可容	-11.7828
餘衆	-11.7829
酋長	-11.783
三十卷	-11.783
樊噲	-11.7831
暇日	-11.7831
蹻	-11.7832
所滅	-11.7833
桓榮	-11.7833
玉篇	-11.7833
轉輸	-11.7836
近侍	-11.7837
遺愛	-11.7837
市井	-11.7837
凑	-11.7838
在側	-11.7839
珠璣	-11.784
絃歌	-11.7841
一級	-11.7841
洛陽令	-11.7843
忠良	-11.7846
竟陵	-11.7848
豪右	-11.785
管内	-11.7851
異志	-11.7851
録云	-11.7852
秬	-11.7855
潼	-11.7856
所作也	-11.7857
▁北史	-11.7858
鎛	-11.786
任重	-11.786
鄩	-11.7861
約束	-11.7861
元年五月	-11.7863
九月九日	-11.7867
累年	-11.7868
逺遊	-11.787
㺯	-11.7875
斷獄	-11.7876
李尤	-11.7876
視朝	-11.7876
右將軍	-11.7878
百榖	-11.7878
坻	-11.7881
昌黎	-11.7885
鄰人	-11.7885
宴羣臣	-11.7886
阡陌	-11.7887
會要	-11.789
終不能	-11.7892
龜山	-11.7896
絶域	-11.7898
素服	-11.7899
豈知	-11.79
羣臣皆	-11.79
所推	-11.7901
忠貞	-11.7904
跗	-11.7905
請降	-11.7906
臺榭	-11.7906
他官	-11.7907
七政	-11.7907
束晳	-11.7907
瑇瑁	-11.7907
千斛	-11.7908
熠	-11.7911
劄	-11.7913
仕宦	-11.7914
宣徳	-11.7914
勾踐	-11.7914
征虜將軍	-11.7916
奉迎	-11.7929
悲鳴	-11.793
屬車	-11.7931
蟾蜍	-11.7934
小學紺珠	-11.7934
千三百	-11.7935
摩訶	-11.7935
太息	-11.7949
張昭	-11.795
保定	-11.795
苧	-11.7951
圯	-11.7958
兠	-11.7958
夐	-11.796
殺傷	-11.796
大儒	-11.7962
㨿	-11.7965
當此之時	-11.7966
芡	-11.7969
罔不	-11.797
誰謂	-11.7971
私第	-11.7975
比丘	-11.7976
劉基	-11.7977
莊王	-11.7978
漪	-11.7978
炮	-11.798
連年	-11.7982
還京師	-11.7982
曰吾欲	-11.7986
皎皎	-11.7987
昨日	-11.7988
留侯	-11.7988
罌	-11.799
建昌	-11.7993
千戸	-11.7997
過半	-11.7998
因縁	-11.7999
傍有	-11.8
空虚	-11.8001
孟津	-11.8006
百畝	-11.8006
楊國忠	-11.8006
總領	-11.8007
瀟	-11.8007
衣錦	-11.801
玉衡	-11.801
孑	-11.8011
在兹	-11.8013
三十一	-11.8015
一百三十	-11.8016
不見其	-11.8017
不能用	-11.8017
李絳	-11.802
司馬彪	-11.8021
嫁娶	-11.8023
洛邑	-11.8023
昆明	-11.8024
世系	-11.8024
宴集	-11.8025
頌序	-11.8028
鎮撫	-11.8029
牛酒	-11.8031
異常	-11.8031
敵國	-11.8034
禰衡	-11.8036
特賜	-11.8037
華林	-11.8043
唐無名氏	-11.8043
賊帥	-11.8044
隋開皇	-11.8044
不可以不	-11.8047
大理寺	-11.8047
金谷	-11.8051
秋霜	-11.8052
四十年	-11.8055
清淨	-11.8056
梁沈約	-11.8056
馮道	-11.8058
榱	-11.8059
幰	-11.8059
閑居	-11.806
敗績	-11.806
辰星	-11.806
桃源	-11.8061
礬	-11.8062
曰善哉	-11.8063
呉越	-11.8063
稍稍	-11.8064
吕布	-11.8064
壌	-11.8066
聆	-11.8067
風雷	-11.8073
謝罪	-11.8073
輿服	-11.8074
王祥	-11.8074
變易	-11.8074
鄒陽	-11.8074
先驅	-11.8076
惟恐	-11.8076
珍寳	-11.8077
朝霞	-11.8078
安仁	-11.8082
風霜	-11.8083
採桑	-11.8083
梁昭明太子	-11.8084
碣石	-11.8086
三十八	-11.8086
室家	-11.809
徐廣	-11.809
别離	-11.8091
女工	-11.8093
前漢書	-11.8095
一㸃	-11.81
威武	-11.81
九真	-11.8101
紫宸	-11.8102
閏月	-11.8103
兩端	-11.8103
縣丞	-11.8104
誰知	-11.8105
衛将軍	-11.8107
賢愚	-11.8108
瀟湘	-11.8108
顧命	-11.8108
田單	-11.8109
登科	-11.811
王逢	-11.8113
趙普	-11.8113
郢州	-11.8115
丙辰	-11.8117
軺	-11.8117
教坊	-11.8118
揲	-11.8123
華嶠	-11.8123
家富	-11.8127
能否	-11.8128
崔光	-11.8129
承露	-11.8132
善畫	-11.8135
南岳	-11.8135
山下有	-11.8136
畚	-11.8136
㳙	-11.8139
龍尾	-11.8139
親臨	-11.8139
羅浮	-11.8142
中孚	-11.8144
簡文帝	-11.8145
顧况	-11.8145
碑文	-11.8147
不可得而	-11.8147
何罪	-11.8148
甲胄	-11.8148
不勝其	-11.815
衆星	-11.8158
端門	-11.8159
劉裕	-11.8162
淖	-11.8162
唐堯	-11.8164
李德裕	-11.8165
第五倫	-11.8166
百三十	-11.8167
吳越春秋	-11.8167
茅茨	-11.8168
耕種	-11.8168
洗馬	-11.8169
精誠	-11.817
福州	-11.8178
易林丨丨	-11.8179
蓑	-11.8179
宋史兵志	-11.8183
喬木	-11.8184
非常之	-11.8187
太甲	-11.8187
皋	-11.8187
草創	-11.8188
人也少	-11.8188
邽	-11.819
瞋目	-11.8191
三族	-11.8193
杜氏	-11.8193
睠	-11.8194
景星	-11.8198
闗東	-11.8199
龍驤將軍	-11.8199
四郊	-11.8202
壁立	-11.8206
曬	-11.8209
顔氏家訓	-11.8209
吴志	-11.821
薛道衡	-11.8211
昜	-11.8213
犧牲	-11.8215
斷絶	-11.8216
膂力	-11.8219
河橋	-11.8219
貨賄	-11.822
勿復	-11.822
源出	-11.8222
勿令	-11.8226
承嗣	-11.8227
元年六月	-11.8229
正員	-11.8229
康叔	-11.823
焚其	-11.8236
舉孝亷	-11.8238
備禮	-11.8239
滉	-11.8239
將何以	-11.8239
烈士	-11.8239
蒂	-11.824
禁兵	-11.8241
鷲	-11.8242
配享	-11.8242
禹湯	-11.8242
泗水	-11.8242
楚辭曰	-11.8244
天下之士	-11.8246
宮中	-11.8246
未免	-11.8247
億兆	-11.8254
衲	-11.826
勻	-11.826
慣	-11.826
伯禽	-11.8261
巨源	-11.8263
才能	-11.8264
文繡	-11.8266
出征	-11.8266
錢帛	-11.827
仁恕	-11.8271
無所用	-11.8272
沛國	-11.8273
有虞氏	-11.8273
鍾㑹	-11.8273
異物志	-11.8275
學士院	-11.8279
上下相	-11.8283
妒	-11.8285
飄飄	-11.8286
鬱林	-11.8287
鳳閣	-11.8288
髭	-11.8289
菅	-11.8289
詮	-11.8291
何晏	-11.8292
阿房	-11.8292
址	-11.8293
詬	-11.8296
大司樂	-11.8297
青牛	-11.8298
聚衆	-11.8298
仲淹	-11.8299
倉庫	-11.8299
義倉	-11.8302
公卿大夫	-11.8304
萬匹	-11.8309
麈	-11.831
紀勝	-11.831
朝歌	-11.8312
焰	-11.8315
旟	-11.8315
藺	-11.8315
風采	-11.8318
追尊	-11.8319
軍容	-11.8321
乙酉	-11.8322
賦役	-11.8324
博聞	-11.8325
獲免	-11.8327
上林苑	-11.8327
芬芳	-11.8327
竟陵王	-11.8328
梨花	-11.8328
遐邇	-11.8329
不可得也	-11.8329
孝弟	-11.8332
賢良方正	-11.8333
魯君	-11.8335
溺死	-11.8336
臛	-11.8338
堇	-11.8339
冬官	-11.834
宋史選舉志	-11.834
黎庶	-11.8341
金帶	-11.8344
魏舒	-11.8345
自今已後	-11.8346
愜	-11.8348
季龍	-11.8348
韋氏	-11.8349
頺	-11.835
不寐	-11.8351
臨洮	-11.8352
天涯	-11.8353
彗星	-11.8355
長沙王	-11.8358
請罪	-11.8358
恭惟	-11.8358
孫楚	-11.836
必敗	-11.836
乙巳	-11.8361
五藏	-11.8362
黄鳥	-11.8364
皇皇	-11.8364
列仙傳	-11.8366
萬錢	-11.8369
大饗	-11.8371
廆	-11.8372
晦日	-11.8372
王隱晉書曰	-11.8373
國夫人	-11.8375
一介	-11.8377
五銖	-11.8385
萱	-11.8388
曰此非	-11.839
語録	-11.8392
掬	-11.8393
青色	-11.8393
厚薄	-11.8393
兵甲	-11.8395
憂國	-11.8395
増唐	-11.8396
風波	-11.8396
狠	-11.8397
巴郡	-11.8399
貢禹	-11.8399
詈	-11.8399
漁人	-11.84
坡詩	-11.8404
秣陵	-11.8406
本姓	-11.8407
㕑	-11.8415
雊	-11.8416
諸部	-11.8417
貳師	-11.8418
權貴	-11.842
起居郎	-11.8421
五十萬	-11.8421
丙寅	-11.8422
逗	-11.8423
縝	-11.8423
歉	-11.8425
伏願	-11.8425
太醫	-11.8427
窒	-11.8427
元年九月	-11.843
成章	-11.843
已久	-11.8433
孝廉	-11.8438
拂衣	-11.844
渭南	-11.844
千百	-11.8441
八十里	-11.8446
蝟	-11.8448
蚓	-11.8448
谷永	-11.8449
失火	-11.845
張正見	-11.8451
南史齊	-11.8452
虡	-11.8454
敗走	-11.8454
丹墀	-11.8456
慶忌	-11.8457
吳楚	-11.8458
千騎	-11.8459
丨以丨	-11.8461
四十六	-11.8461
白璧	-11.8462
偓	-11.8465
元帝時	-11.8469
長幼	-11.8469
年十八	-11.847
异	-11.8471
碓	-11.8471
盟于	-11.8473
精騎	-11.8473
洺	-11.8475
褁	-11.8475
通鑑唐	-11.8475
輔弼	-11.8475
釣魚	-11.8477
甚急	-11.848
中庶子	-11.848
王惲	-11.8481
護軍	-11.8484
韓愈詩	-11.8486
辛酉	-11.8486
千斤	-11.8491
姬姓	-11.8491
告之曰	-11.8492
堯時	-11.8495
急就篇	-11.8496
暎	-11.8497
翺	-11.8497
太和中	-11.8497
豸	-11.8498
長嘯	-11.8498
切集韻韻會	-11.85
垓	-11.8501
萬姓	-11.8501
勾當	-11.8504
為給事中	-11.8504
肢	-11.8504
堅守	-11.8511
去就	-11.8511
十二律	-11.8512
感激	-11.8515
輔相	-11.8516
命之曰	-11.852
號稱	-11.8522
大匠	-11.8525
永康	-11.8527
慈母	-11.853
不自安	-11.8535
風飄	-11.8536
鼓瑟	-11.8542
行旅	-11.8546
酈道元水經注	-11.8547
李邕	-11.8548
鳳皇	-11.8548
盧思道	-11.855
楊億	-11.855
儺	-11.855
盈尺	-11.8551
長一尺	-11.8552
鯖	-11.8553
寳應	-11.8553
孝景	-11.8553
无咎	-11.8555
測曰	-11.8558
天下之大	-11.8559
張融	-11.856
白雉	-11.8564
定陶	-11.8566
監察	-11.8568
和糴	-11.8573
姚興	-11.8573
騮	-11.8574
帝從之	-11.8575
六十四卦	-11.8576
大理卿	-11.8578
詛	-11.8578
肅清	-11.8582
范曄	-11.8585
一統志	-11.8587
鰥寡	-11.8588
太常寺	-11.8592
豈獨	-11.8592
姤	-11.8594
蕩蕩	-11.8596
全忠	-11.8597
王荆公	-11.8602
荷花	-11.8603
巴西	-11.8603
淵明	-11.8604
宴樂	-11.8605
秦昭王	-11.8606
墾田	-11.8606
磚	-11.8608
匈	-11.8608
方術	-11.861
朐	-11.861
金縷	-11.8612
團扇	-11.8614
嫌疑	-11.8615
可惜	-11.8617
遥望	-11.8619
遄	-11.8619
令狐楚	-11.862
當是時	-11.8625
疇昔	-11.8627
刀筆	-11.8627
曰此是	-11.8629
誰敢	-11.8629
濺	-11.863
憔悴	-11.8633
為侍御史	-11.8635
歩兵	-11.8635
彀	-11.8635
䞇	-11.8635
瘧	-11.8636
商君	-11.8636
篙	-11.8637
紙筆	-11.8639
十斛	-11.8639
四靣	-11.8641
匠人	-11.8641
隄防	-11.8642
從駕	-11.8643
語人曰	-11.8647
茄	-11.8649
歐陽公	-11.865
潭州	-11.8653
山堂肆考曰	-11.8655
匭	-11.8656
楚詞	-11.8657
年九十	-11.8661
殱	-11.8662
叔度	-11.8663
三欽定四庫全書	-11.8663
一百六十	-11.8668
舟師	-11.867
貞觀初	-11.8671
丙申	-11.8674
海陵	-11.8681
管輅	-11.8681
夜宿	-11.8682
陌上	-11.8686
闗内侯	-11.8691
圓丘	-11.8691
行於世	-11.8693
東面	-11.8693
彚苑	-11.8694
富民	-11.8695
溝壑	-11.8696
通事舍人	-11.8697
豹尾	-11.8699
驍騎	-11.8699
乙未	-11.87
不遜	-11.87
太平公主	-11.8701
羣吏	-11.8702
謝恩	-11.8705
馮異	-11.8708
供給	-11.8711
被甲	-11.8711
嬾	-11.8712
矰	-11.8713
撼	-11.8715
漚	-11.8716
壷	-11.8718
超然	-11.8719
若之何	-11.8721
將校	-11.8723
良工	-11.8725
僥倖	-11.8726
尺許	-11.8727
承制	-11.8727
殿最	-11.8727
不悟	-11.8727
蒼頡	-11.8728
沙漠	-11.8729
田租	-11.873
咸寧	-11.8734
帝崩	-11.8735
紛紜	-11.8736
豈徒	-11.8737
舊宅	-11.8738
壚	-11.8739
萬七千	-11.874
注師古曰	-11.874
漢舊儀	-11.8741
漱	-11.8742
遨	-11.8742
儂	-11.8742
五日一	-11.8743
彦章	-11.8743
酆	-11.8744
絕	-11.8745
出獵	-11.8745
安息	-11.8745
彭澤	-11.8746
博陵	-11.8747
鈆	-11.8748
選舉志	-11.8749
黝	-11.875
合璧	-11.8751
之所由	-11.8751
三台	-11.8752
燕昭王	-11.8754
宰執	-11.8755
冠軍將軍	-11.8756
梁孝王	-11.8757
號哭	-11.8758
赤壁	-11.8759
杜陽雜編	-11.8763
十有五	-11.8763
鷃	-11.8769
婆娑	-11.877
尭	-11.877
蘭亭	-11.877
奉表	-11.877
宋謝維新撰	-11.8772
四塞	-11.8772
青絲	-11.8773
評事	-11.8774
㵼	-11.8776
蜀漢	-11.8776
虎狼	-11.8776
考績	-11.8778
嫁女	-11.878
州界	-11.8782
何患	-11.8786
姑臧	-11.8786
所撰	-11.8786
黄霸	-11.8787
官員	-11.8788
天寳中	-11.879
段成式	-11.879
韓維	-11.8794
灌夫	-11.8796
歡喜	-11.8796
符堅	-11.8797
括地	-11.8798
元狩	-11.8799
癸酉	-11.8799
刻木	-11.88
周顗	-11.88
郊特牲	-11.8803
癸未	-11.8804
蹔	-11.8806
郭氏	-11.8806
順宗	-11.8806
鹽鐡	-11.8808
太皇太后	-11.8814
東壁	-11.8816
盤石	-11.8819
常恐	-11.8819
舉秀才	-11.8819
誠能	-11.882
兩岸	-11.8821
賜絹	-11.8821
榼	-11.8821
起舞	-11.8822
堊	-11.8822
懿宗	-11.8822
蠙	-11.8822
侶	-11.8823
麵	-11.8823
陸遜	-11.8826
偏將軍	-11.8827
度支尚書	-11.8827
流矢	-11.8827
瑞應圖	-11.8827
鷙鳥	-11.8828
舟車	-11.8829
昭昭	-11.883
菓	-11.883
郭林宗	-11.8831
湘州	-11.8831
烱	-11.8831
浮橋	-11.8832
狀若	-11.8832
方千里	-11.8833
還京	-11.8835
不預	-11.8836
關東	-11.8837
開闢	-11.8843
繫獄	-11.8845
後嗣	-11.8845
内侍省	-11.8845
丞郎	-11.8847
何以知之	-11.8847
富弼	-11.8848
児	-11.8853
洄	-11.8853
熨	-11.8854
幽居	-11.8856
門閭	-11.8859
甿	-11.8859
遡	-11.886
前鋒	-11.8862
訐	-11.8862
鎮軍	-11.8865
戸口	-11.8865
黄巢	-11.8865
參議	-11.8867
單騎	-11.8868
途中	-11.8869
状如	-11.8871
羣飛	-11.8872
左傳云	-11.8879
璡	-11.8879
不竭	-11.8879
洪州	-11.8881
肋	-11.8881
銅錢	-11.8885
種種	-11.8885
穡	-11.8886
忒	-11.8886
定襄	-11.889
其為人	-11.889
郡丞	-11.8891
恩信	-11.8894
釀酒	-11.8894
往来	-11.8895
竹杖	-11.8896
鄰國	-11.8896
曹參軍	-11.8898
斗牛	-11.8898
躬親	-11.8898
雷震	-11.8899
忘憂	-11.89
啾	-11.8903
八極	-11.8904
潼關	-11.8904
陳陶	-11.8906
頔	-11.8907
入覲	-11.8908
淮海	-11.8908
慱	-11.891
窈	-11.8911
季春	-11.8912
沈約宋書曰	-11.8912
宋祁	-11.8913
将士	-11.8914
甘心	-11.8916
巡狩	-11.8916
射雉	-11.8917
日蝕	-11.8917
汾陽	-11.8924
萬福	-11.8928
陳倉	-11.8931
清異錄	-11.8931
對䇿	-11.8931
歴年	-11.8932
太子舍人	-11.8932
帝舜	-11.8936
斧鉞	-11.8941
元年十二月	-11.8942
崔氏	-11.8945
之間謂之	-11.8947
威震	-11.8947
二十卷	-11.8948
左遷	-11.8948
晉中興書	-11.8948
服飾	-11.8949
水出焉	-11.895
黎元	-11.8951
康居	-11.8952
紫芝	-11.8953
太子少傅	-11.896
虔	-11.8963
湄	-11.8964
祈雨	-11.8966
侏儒	-11.8966
莠	-11.8967
曹郎	-11.8969
慟哭	-11.8972
涇州	-11.8974
承恩	-11.8974
慶歴	-11.8975
胸中	-11.8976
四欽定四庫全書	-11.8977
十圍	-11.8979
天下之人	-11.8984
裔孫	-11.8985
租庸	-11.8987
挽歌	-11.8989
癸丑	-11.8993
劓	-11.8994
二枚	-11.8994
糲	-11.8995
糺	-11.8995
尤善	-11.8999
己丑	-11.9003
應詔詩	-11.9005
邵陵	-11.9009
四岳	-11.9009
二年八月	-11.9009
總章	-11.901
酲	-11.9014
喝	-11.9016
三品以上	-11.902
諸大夫	-11.902
穠	-11.9021
瑶池	-11.9021
嚙	-11.9021
冨貴	-11.9022
别墅	-11.9022
塤	-11.9023
綢繆	-11.9025
萬卷	-11.9025
武夷	-11.9027
𠂻	-11.9031
就第	-11.9032
毫釐	-11.9033
季札	-11.9034
漏刻	-11.9035
位次	-11.9037
▁皮日休	-11.9037
儒雅	-11.9038
雍容	-11.9038
所繇	-11.9039
存問	-11.904
臣之所	-11.9043
庶民	-11.9043
娃	-11.9044
元史世祖紀	-11.9045
陘	-11.9047
棼	-11.9047
楊雄	-11.9048
襜	-11.9051
椅	-11.9052
亊	-11.9053
贑	-11.9054
霜降	-11.9054
太夫人	-11.9054
堯典	-11.9054
匕首	-11.9057
狐裘	-11.9057
漠漠	-11.9057
八陣	-11.9058
協律	-11.9059
錦袍	-11.906
鸞鳯	-11.9064
北闕	-11.9066
鮑溶	-11.9068
聽政	-11.9068
為中書侍郎	-11.9072
震動	-11.9073
關内侯	-11.9073
幙	-11.9073
羶	-11.9073
知貢舉	-11.9074
楛	-11.9074
熖	-11.9075
科舉	-11.9075
崗	-11.9077
三昧	-11.9077
濞	-11.908
戱	-11.908
孥	-11.9083
總載	-11.9084
白髪	-11.9085
叢生	-11.9087
句踐	-11.9091
楊萬里詩	-11.9092
俸禄	-11.9093
兑	-11.9094
北史魏	-11.9094
南吕	-11.9095
痺	-11.911
三十九	-11.9112
變色	-11.9114
失職	-11.9116
西羌	-11.9116
短小	-11.9118
三年三月	-11.9118
周書曰	-11.912
臧否	-11.9122
秦穆公	-11.9122
貧窮	-11.9126
則不然	-11.9127
周成王	-11.9128
遜位	-11.9129
感動	-11.913
郷里	-11.913
尤重	-11.9131
咸稱	-11.9132
丁謂	-11.9132
饔	-11.9132
泗州	-11.9134
敢忘	-11.9136
無名氏	-11.9137
辟邪	-11.9138
吹笙	-11.914
千四百	-11.914
竹葉	-11.914
磐	-11.9147
犬戎	-11.9149
是之謂	-11.9152
服䖍	-11.9152
二年六月	-11.9153
發憤	-11.9153
苦寒	-11.9157
餗	-11.916
逃亡	-11.9162
商音	-11.9162
王畿	-11.9163
依依	-11.9164
宋書武帝紀	-11.9164
晉書天文志	-11.9166
商旅	-11.9177
忠直	-11.9177
淺深	-11.9179
稱疾不	-11.918
黔首	-11.9183
千歳	-11.9184
薦舉	-11.9185
宮室	-11.9187
閃	-11.9188
瑶臺	-11.9188
剰	-11.9189
季布	-11.919
嵓	-11.919
貢賦	-11.9191
閥	-11.9191
鄆州	-11.9191
蘧	-11.9191
湖廣	-11.9192
逸民	-11.9194
露布	-11.9195
究其	-11.9197
己酉	-11.9198
上中下	-11.9198
仁孝	-11.9201
死傷	-11.9203
僚屬	-11.9206
𥜗	-11.9206
溲	-11.9211
騏	-11.9213
宣示	-11.9213
聨句	-11.9214
安敢	-11.9214
郇	-11.9215
攪	-11.9216
頠	-11.9223
羅鄴	-11.9223
嵗星	-11.9224
惋	-11.9224
珠簾	-11.9225
少牢	-11.9232
􁈍	-11.9232
傅元	-11.9234
導引	-11.9235
一百八十	-11.9239
讖	-11.9241
神仙傳曰	-11.9241
氂	-11.9242
麑	-11.9245
漢書五行志	-11.9246
罩	-11.9247
菟	-11.9248
襖	-11.9248
夜郎	-11.9253
倉廩	-11.9254
酌酒	-11.9255
鄭箋	-11.9257
應鍾	-11.9257
二年五月	-11.9258
孝孫	-11.9258
感悟	-11.9259
軍糧	-11.926
祈禱	-11.926
豆盧	-11.926
鞍馬	-11.9261
螻	-11.9262
射殺	-11.9263
寓居	-11.9264
聖王之	-11.9271
濓	-11.9271
威靈	-11.9271
徐幹	-11.9272
皇孫	-11.9274
春申君	-11.9276
牛僧孺	-11.9277
為中書舍人	-11.9278
裸	-11.928
扄	-11.9282
原杜氏通典曰	-11.9283
啻	-11.9285
事物紺珠	-11.9287
女弟	-11.9287
户牖	-11.9288
仙芝	-11.9288
牛尾	-11.9291
真卿	-11.9296
嵬	-11.9301
柟	-11.9302
蘩	-11.9303
阡	-11.9304
槌	-11.9305
司寇	-11.9305
埶	-11.9308
纚	-11.9308
内庫	-11.9308
年六十	-11.931
掾史	-11.9312
兒女	-11.9312
家僮	-11.9318
韓愈送	-11.9318
即墨	-11.932
嘉話	-11.9323
林逋	-11.9324
丞一人	-11.9324
生擒	-11.9325
翠微	-11.9328
儒林傳	-11.9328
衒	-11.9329
赫連	-11.9329
茭	-11.9331
武元衡	-11.9331
溱	-11.9331
牂	-11.9332
國貢	-11.9332
崔鴻	-11.9332
鐙	-11.9335
瓛	-11.9336
埭	-11.9337
陳思王	-11.9337
武王伐紂	-11.9338
嘿	-11.9338
戎服	-11.934
孝宣	-11.934
夬	-11.934
魯恭	-11.9342
疾篤	-11.9342
蘇峻	-11.9346
倐忽	-11.9347
九嬪	-11.9347
攝提	-11.9349
粳	-11.9354
荆門	-11.9356
補案	-11.9356
尸子曰	-11.9356
拄	-11.936
遁去	-11.9361
鷹揚	-11.9361
揜	-11.9366
璨	-11.9367
性剛	-11.9369
開元初	-11.9369
韓滉	-11.937
暌	-11.937
劒南	-11.937
為河南尹	-11.9374
援筆	-11.9375
鬱鬱	-11.9375
祕閣	-11.9376
崔融	-11.9376
承業	-11.9378
楊梅	-11.9379
養性	-11.938
齊神武	-11.938
五十五	-11.938
晁補之	-11.9382
二百五十	-11.9384
嗇夫	-11.9385
因氏焉	-11.9385
匄	-11.9385
魯望	-11.9387
玭	-11.939
乾祐	-11.9391
纈	-11.9392
嚶	-11.9392
祛	-11.9392
狀似	-11.9393
書禹貢	-11.9395
伍子胥	-11.9395
守禦	-11.9397
袁盎	-11.9397
留别	-11.9397
交結	-11.9397
五年正月	-11.9399
徐勉	-11.94
孟軻	-11.9406
崔寔	-11.9408
永泰	-11.9409
大厦	-11.9409
晉平公	-11.9409
身長八尺	-11.9409
書事詩	-11.9411
使君詩	-11.9412
山崩	-11.9412
魯連	-11.9415
駛	-11.9416
漢武内傳	-11.9417
四年二月	-11.9422
那得	-11.9422
家財	-11.9422
北狄	-11.9422
清浄	-11.9424
縗	-11.9424
迤	-11.9426
矚	-11.9426
色赤	-11.9428
御座	-11.9429
甲科	-11.9431
不返	-11.9436
塞外	-11.9436
遼西	-11.9438
唐武徳	-11.9439
考試	-11.9439
視聽	-11.9442
吏部郎中	-11.9444
棨	-11.9444
楊炎	-11.9445
李商隐	-11.9447
二千人	-11.9447
峡	-11.9447
賢不肖	-11.9449
澶	-11.9451
塼	-11.9452
筆硯	-11.9453
落葉	-11.9455
妻妾	-11.9455
孝伯	-11.9458
言訖	-11.9464
洛陽伽藍記	-11.947
衆咸	-11.9473
曽祖	-11.9474
君不見	-11.9476
荆州記	-11.9478
瞑	-11.9479
佶	-11.948
帕	-11.9481
延陵	-11.9482
彎弓	-11.9482
樣	-11.9483
㩁	-11.9483
嗚	-11.9483
牛角	-11.9483
營室	-11.9483
廣川	-11.9484
絪	-11.9486
談笑	-11.9487
扵是	-11.949
所不及	-11.9492
買臣	-11.9492
西階	-11.9495
銓衡	-11.9496
十畝	-11.95
惹	-11.95
史記封禪書	-11.9502
月俸	-11.9502
陸士衡	-11.9506
煒	-11.9508
悄	-11.9509
抉	-11.9509
講學	-11.9513
二十九年	-11.9514
墩	-11.9514
希夷	-11.9516
祖廟	-11.9522
潔白	-11.9523
曹爽	-11.9524
秘書郎	-11.9524
貴嬪	-11.9529
楊震	-11.953
漢書郊祀志	-11.9533
碭	-11.9534
園池	-11.9534
倕	-11.9534
央	-11.9534
鮮明	-11.9537
誰可	-11.9538
拏	-11.9538
張翥	-11.954
機務	-11.9542
援琴	-11.9543
桓譚	-11.9547
捕魚	-11.9547
廣雅	-11.9549
元稹詩	-11.955
家貧無	-11.9551
白茅	-11.9552
頃刻	-11.9558
駰	-11.9562
帷帳	-11.9563
豉	-11.9564
槨	-11.9571
粲然	-11.9572
果毅	-11.9574
莫測	-11.9576
應璩	-11.9578
牛𢎞	-11.9579
黎民	-11.9583
玉璽	-11.9584
五臟	-11.9587
年四十	-11.959
炷	-11.9591
鴻臚卿	-11.9593
榮辱	-11.9593
貟外	-11.9594
錮	-11.9595
對曰臣聞	-11.9595
咒	-11.9596
韓詩外傳曰	-11.9596
絆	-11.9597
龐	-11.9598
崔豹古今注	-11.96
萱草	-11.96
峩峩	-11.9601
皇朝事實	-11.9601
惴	-11.9604
〇	-11.9604
續㑹要	-11.9607
䆒	-11.9608
辛卯	-11.9608
四十萬	-11.9609
宿衞	-11.9611
列仙傳曰	-11.9611
羅浮山	-11.9613
然後知	-11.9614
吕蒙	-11.9615
麻姑	-11.9616
盤庚	-11.9617
萬全	-11.9617
飢寒	-11.9618
薩都拉	-11.9619
徐邈	-11.962
鹿角	-11.9621
吃	-11.9624
美惡	-11.9625
陳子昂	-11.9626
中山王	-11.9626
叚成式	-11.9627
太子洗馬	-11.9627
蝎	-11.9629
瀬	-11.9629
䆳	-11.9629
制誥	-11.963
蔡襄	-11.9631
奉養	-11.9631
楚莊王	-11.9631
塾	-11.9632
鬐	-11.9633
摭言	-11.9635
鍾離意	-11.9636
范睢	-11.9638
百餘年	-11.9643
時人稱	-11.9648
後漢書輿服志	-11.9648
望之如	-11.9651
鐶	-11.9653
曰大丈夫	-11.9655
歘	-11.9658
助祭	-11.966
蚯蚓	-11.9663
薛宣	-11.9666
唐韻集韻韻㑹正	-11.9667
十二欽定四庫全書	-11.9672
千鈞	-11.9686
刑政	-11.9688
狐狸	-11.9688
雇	-11.9688
窶	-11.9689
洫	-11.969
歎服	-11.969
曲阿	-11.969
珩	-11.9691
番禺	-11.9691
筏	-11.9692
王涯	-11.9693
窮極	-11.9696
宣諭	-11.9702
潯	-11.9704
巴東	-11.9705
頊	-11.9707
新婦	-11.9708
張衡西京賦	-11.971
朓	-11.9711
比肩	-11.9711
鷸	-11.9714
吹簫	-11.9714
貙	-11.9715
罝	-11.9715
蒔	-11.9716
羇	-11.9719
委曲	-11.9729
周武王	-11.973
朕躬	-11.9732
帝王世紀曰	-11.9737
淅	-11.9741
烽火	-11.9741
嗅	-11.9744
祟	-11.9744
帟	-11.9745
異端	-11.9747
岑文本	-11.9748
十一欽定四庫全書	-11.9748
蓬蒿	-11.9749
蒋	-11.9749
枷	-11.9749
視之乃	-11.975
歎曰吾	-11.9752
工部侍郎	-11.9752
唐開元	-11.9752
澄清	-11.9754
元昊	-11.9754
娶妻	-11.9756
丁卯	-11.9756
循環	-11.9757
渠帥	-11.9757
戎車	-11.9759
五千人	-11.9761
驚駭	-11.9761
唐書食貨志	-11.9764
光祿	-11.9764
沉香	-11.9765
侍坐	-11.9765
三百五十	-11.9765
氏族	-11.9766
州縣官	-11.9767
歐陽詹	-11.9771
區宇	-11.9773
▁下見	-11.9773
闐	-11.9774
斛律	-11.9775
因以名	-11.9779
人事部	-11.9779
離别	-11.9781
掃除	-11.9781
發揮	-11.9784
耿介	-11.9784
雞犬	-11.9785
罔極	-11.9786
賦歛	-11.9786
概	-11.9789
三峽	-11.9791
討平之	-11.9793
喪亂	-11.9799
雙闕	-11.9802
蚩	-11.9805
絙	-11.9805
禮記曲禮	-11.9808
俳	-11.9808
權勢	-11.981
做	-11.9811
鐘聲	-11.9812
醤	-11.9813
甘蔗	-11.9816
蜀志曰	-11.9817
黔中	-11.982
水潦	-11.982
擊破	-11.9822
修國史	-11.9832
鄭司農云	-11.9834
翣	-11.9834
烏程	-11.9834
御定駢字類編卷	-11.9834
聖㫖	-11.9836
磑	-11.9836
清儉	-11.9837
沬	-11.9838
曲折	-11.9839
堠	-11.9839
稲	-11.9839
陴	-11.9848
胷中	-11.9848
煬	-11.985
吉祥	-11.985
哭泣	-11.9855
蕭瑀	-11.9856
駑馬	-11.9857
讜言	-11.9857
枇杷	-11.986
苓	-11.986
黄昏	-11.9862
黄庭内景經	-11.9865
枸	-11.9868
舁	-11.9869
乙卯	-11.9872
恡	-11.9873
尊賢	-11.9873
各二人	-11.9874
殛	-11.9874
良醫	-11.9876
魯哀公	-11.9877
什一	-11.9878
十六欽定四庫全書	-11.988
并州刺史	-11.9881
庻人	-11.9883
府城西	-11.9887
孝敬	-11.9888
五十四	-11.9888
韈	-11.9889
十五欽定四庫全書	-11.9891
趂	-11.9891
三年四月	-11.9891
薳	-11.9895
謝承後漢書	-11.9898
都虞候	-11.9899
幽蘭	-11.99
湎	-11.9905
証	-11.9907
穿井	-11.9912
品物	-11.9914
奮擊	-11.9916
肉刑	-11.9918
左右丞	-11.9922
不遑	-11.9923
漢書禮樂志	-11.9923
屬官有	-11.9924
鶡冠子	-11.9925
二年七月	-11.9928
慈恩寺	-11.9929
賀知章	-11.9929
庶政	-11.9931
大智度論	-11.9933
婆羅門	-11.9934
千尋	-11.9935
犍	-11.9936
偃蹇	-11.9938
科斗	-11.9941
袁粲	-11.9941
十八欽定四庫全書	-11.9942
閭閻	-11.9945
員外詩	-11.9948
靈龜	-11.995
李光弼	-11.995
蛛	-11.9955
晏然	-11.9956
冉冉	-11.9958
僧孺	-11.9959
鍵	-11.996
両	-11.9961
趺	-11.9961
庚戌	-11.9963
悸	-11.9964
突騎	-11.9965
挟	-11.9967
館職	-11.9968
列仙	-11.9968
十七欽定四庫全書	-11.9972
寛饒	-11.9973
親愛	-11.9974
擊匈奴	-11.9974
百餘萬	-11.9976
漢明帝	-11.9982
元年十一月	-11.9983
虎符	-11.9984
釧	-11.9986
飫	-11.9986
輔佐	-11.9987
澠	-11.9987
磊	-11.9988
閨門	-11.9989
黄庭堅詩	-11.9989
東都事畧	-11.999
周必大	-11.999
貰	-11.9994
荐	-11.9995
廽	-11.9996
疚	-11.9998
己未	-12.0001
百里奚	-12.0001
屈伸	-12.0009
十九欽定四庫全書	-12.0009
謹案	-12.0012
形狀	-12.0016
饋食	-12.0017
荑	-12.0018
恰	-12.0018
隤	-12.002
槀	-12.0023
膓	-12.0023
眡	-12.0024
扁舟	-12.0025
珙	-12.0027
一千五百	-12.0027
鰌	-12.0029
誹謗	-12.0031
時珍曰	-12.0033
學術	-12.0037
侍御詩	-12.0037
杜佑	-12.0039
反叛	-12.0045
菘	-12.0045
漳水	-12.0046
祀典	-12.0046
複道	-12.0048
汾水	-12.0048
李嘉祐	-12.005
僧尼	-12.0051
軛	-12.0052
竣	-12.0052
鵾	-12.0053
滸	-12.0054
骸骨	-12.0054
埏	-12.0055
造次	-12.0055
貂蟬	-12.0055
衽	-12.0056
戡	-12.0059
猶豫	-12.0063
晶	-12.0064
旺	-12.0064
莊嚴	-12.0074
舊例	-12.0075
被誅	-12.0076
攻戰	-12.008
螢火	-12.0081
歸鄉里	-12.0083
殺戮	-12.0083
鷟	-12.0084
袪	-12.0084
麕	-12.0085
逸少	-12.0086
裼	-12.0086
哀矜	-12.0086
逌	-12.0087
將作大匠	-12.0087
壍	-12.0087
袁術	-12.0088
霍去病	-12.0089
賀蘭	-12.0094
未之有也	-12.0095
容儀	-12.0095
宛然	-12.0096
長安城	-12.0096
東西南北	-12.0098
咨嗟	-12.0104
芃	-12.0112
宋元嘉	-12.0113
茀	-12.0113
如淳曰	-12.0113
賖	-12.0113
劉峻	-12.0114
羃	-12.0115
煌	-12.0116
贛	-12.0117
傘	-12.0117
謂曰卿	-12.0121
魯大夫	-12.0123
威福	-12.0124
朱博	-12.0124
止之曰	-12.0125
儼然	-12.0125
藩籬	-12.0131
荘宗	-12.0134
十二辰	-12.0135
掾吏	-12.0137
戰陣	-12.0139
丗祖	-12.0142
夢溪筆談	-12.0145
荃	-12.0145
品以上	-12.015
淮北	-12.015
晦朔	-12.0151
崔嵬	-12.0151
藺相如	-12.0151
倉廪	-12.0157
巨萬	-12.0165
近郊	-12.0165
八荒	-12.0169
治獄	-12.0176
䏻	-12.0176
黿鼉	-12.0176
墊	-12.0178
酹	-12.0178
靺鞨	-12.018
喉舌	-12.018
璀	-12.0183
遴	-12.0184
郅支	-12.0186
詔有司	-12.0186
寳鼎	-12.019
二年九月	-12.019
魯肅	-12.0194
萬一千	-12.0199
叔向曰	-12.0202
雲霄	-12.0207
之行也	-12.0209
未見其	-12.0209
矍	-12.0211
鵜	-12.0212
囹圄	-12.0214
皦	-12.0216
趙王倫	-12.0221
禁錮	-12.0223
熟視	-12.023
三墳	-12.0236
兼御史大夫	-12.0237
藐	-12.024
藂	-12.0241
礎	-12.0241
格物總論	-12.0243
櫃	-12.0244
徠	-12.0245
瞬	-12.0246
帝曰朕	-12.0246
古樂府	-12.0248
步騎	-12.0249
栅	-12.025
羣書考索	-12.0251
判度支	-12.0251
魚躍	-12.0252
甘泉宫	-12.0253
為前鋒	-12.0255
安撫使	-12.0255
涇渭	-12.0255
丨丨丨坡	-12.0264
疾疫	-12.0265
晉起居注	-12.0269
洞㝠記	-12.027
躅	-12.0275
照耀	-12.0277
錢榖	-12.0278
奕奕	-12.0278
緱氏	-12.0279
㗖	-12.0281
宗正卿	-12.0285
毛詩正	-12.0289
千畝	-12.0293
樓閣	-12.0294
台州	-12.0295
閘	-12.0295
麫	-12.0303
甓	-12.0306
纍纍	-12.0307
釋迦	-12.0309
櫜	-12.0309
襲爵	-12.0309
掌書記	-12.0313
二三子	-12.0314
鼗	-12.0315
嘉賔	-12.0315
掃地	-12.0315
猩猩	-12.0315
餘姚	-12.0315
萬斤	-12.0319
婚禮	-12.0323
爾雅翼	-12.0324
伯牙	-12.0326
以本官	-12.033
夾鍾	-12.0332
犨	-12.0333
鈐轄	-12.0334
㪷	-12.0335
伽藍	-12.0335
樞密使	-12.0335
㠶	-12.0336
九疇	-12.0336
哨	-12.0337
薈	-12.034
扶持	-12.0341
締	-12.0346
傾覆	-12.0349
驄馬	-12.035
沙苑	-12.0351
隋書音樂志	-12.0353
四十三	-12.0355
鄭玄	-12.0355
遷徙	-12.0358
先零	-12.0361
蘇軾次韻	-12.0361
銛	-12.0363
二年十月	-12.0365
晢	-12.0366
鸜鵒	-12.0367
簸	-12.0368
獼猴	-12.0368
筑	-12.0368
委質	-12.0369
范成大詩	-12.037
竟陵王子良	-12.0372
忳	-12.0372
犬吠	-12.0375
徒跣	-12.0379
祖逖	-12.0382
劉克莊	-12.0386
駕幸	-12.0386
食貨	-12.0388
雁門	-12.0389
赬	-12.0397
邦家	-12.0398
涂	-12.0399
祈福	-12.04
摰	-12.04
羹	-12.0401
蠃	-12.0403
厝	-12.0403
掖門	-12.0405
摸	-12.0407
噎	-12.0408
淆	-12.0411
笈	-12.0419
糚	-12.0423
邳	-12.0444
鄢	-12.0462
値	-12.0465
鍤	-12.047
鯽	-12.047
栝	-12.0497
蓽	-12.0501
勔	-12.0504
轝	-12.0505
綻	-12.0517
蹀	-12.056
綆	-12.0564
憙	-12.0565
夹	-12.0567
崛	-12.0571
慵	-12.0589
幬	-12.0595
籃	-12.0595
襍	-12.0596
躓	-12.0601
㐫	-12.0602
罇	-12.0603
𨗳	-12.0605
烘	-12.0625
煇	-12.0628
瀹	-12.063
獮	-12.0633
斲	-12.0633
涔	-12.066
頳	-12.0661
瞋	-12.0662
䧺	-12.0662
壙	-12.0663
涘	-12.0663
薜	-12.0664
㛰	-12.0665
苐	-12.0666
瘤	-12.0672
擠	-12.0697
瀍	-12.0706
珊	-12.0726
蓺	-12.0726
鸚	-12.0758
鷖	-12.0759
羖	-12.0759
郛	-12.0762
芾	-12.0762
楠	-12.0765
斡	-12.0766
蚡	-12.0788
偁	-12.0792
蓊	-12.0795
桶	-12.0796
虓	-12.0797
釗	-12.0798
喇	-12.0804
穏	-12.0826
澍	-12.0828
踣	-12.0831
鷩	-12.0834
陔	-12.0837
莪	-12.0838
觶	-12.084
櫳	-12.0858
垍	-12.086
紡	-12.0862
緄	-12.0862
苾	-12.087
巉	-12.0893
踴	-12.0896
斚	-12.0896
哩	-12.0899
献	-12.0901
甖	-12.0926
曛	-12.0929
淬	-12.096
棚	-12.0961
吊	-12.0966
瑄	-12.0967
泱	-12.0968
囑	-12.097
畯	-12.097
鶬	-12.0992
磾	-12.0993
瀦	-12.0998
銚	-12.0999
錞	-12.1001
兗	-12.1001
溧	-12.1002
刎	-12.1002
弥	-12.1004
闓	-12.1004
芊	-12.103
猱	-12.1031
宂	-12.1032
僦	-12.1035
斆	-12.1037
煤	-12.1061
暾	-12.1064
皝	-12.1065
攣	-12.1065
罅	-12.1066
螘	-12.1067
窳	-12.1068
蛆	-12.1073
鄖	-12.1098
淙	-12.1098
匙	-12.1099
檠	-12.1101
鼃	-12.1105
莧	-12.1126
滎	-12.1131
笮	-12.1135
蠭	-12.1142
繻	-12.1166
𢷬	-12.1167
瑊	-12.1174
殂	-12.1178
伾	-12.118
鰕	-12.1183
咤	-12.1205
疉	-12.1205
苫	-12.1206
顱	-12.1208
紉	-12.1209
嵌	-12.1212
霈	-12.1214
嚬	-12.1242
纜	-12.1242
𠖇	-12.1243
蹂	-12.1243
蛉	-12.1243
坰	-12.1244
魋	-12.1269
襯	-12.1274
淩	-12.1275
掎	-12.1279
簣	-12.1284
畛	-12.131
緻	-12.1313
鰥	-12.1315
悞	-12.1315
湓	-12.1315
獅	-12.1316
憊	-12.1318
紼	-12.1345
樟	-12.1353
禜	-12.1354
蘅	-12.1378
粢	-12.1382
昺	-12.1383
鑷	-12.1386
絛	-12.1414
郈	-12.1418
揄	-12.1421
蚕	-12.1421
枋	-12.1424
匀	-12.1449
荏	-12.145
邙	-12.1451
溽	-12.1451
刅	-12.1461
傴	-12.1461
𫀆	-12.1486
櫪	-12.1488
個	-12.1489
洿	-12.149
丼	-12.1512
覯	-12.1524
栩	-12.1524
眚	-12.1529
騑	-12.1559
嘴	-12.1561
癰	-12.1563
櫬	-12.1569
斁	-12.157
閠	-12.1595
枵	-12.1597
鰲	-12.1599
鄘	-12.1601
鋏	-12.1628
葑	-12.1633
肚	-12.1634
饉	-12.1635
蠖	-12.1636
瑑	-12.1637
断	-12.1638
軹	-12.1638
郍	-12.164
紲	-12.1641
凰	-12.1659
緊	-12.1668
濊	-12.1674
瘼	-12.1676
潑	-12.1702
琱	-12.1704
单	-12.1708
圏	-12.1708
枌	-12.1708
聒	-12.1708
窖	-12.171
羝	-12.171
亰	-12.1711
黽	-12.1712
沚	-12.1713
頎	-12.1714
訂	-12.1716
溼	-12.1743
焙	-12.1766
鸝	-12.1773
瑚	-12.1777
濆	-12.1781
胞	-12.1781
搦	-12.1781
氾	-12.1783
郟	-12.1783
綯	-12.1818
柚	-12.1853
矮	-12.1853
椰	-12.1856
嶓	-12.1856
秪	-12.1858
樁	-12.1858
窑	-12.1862
凭	-12.1888
蒍	-12.189
篾	-12.1893
莆	-12.1893
觔	-12.1895
擐	-12.1899
茁	-12.1922
嫣	-12.1924
怱	-12.1928
􁁜	-12.2
眊	-12.2003
檉	-12.2005
籀	-12.2005
篡	-12.2006
鵶	-12.204
敺	-12.2041
垤	-12.2045
㾗	-12.2077
閙	-12.2078
鄗	-12.208
檟	-12.208
楣	-12.2081
潺	-12.2081
罘	-12.2081
樛	-12.2081
儛	-12.2082
畞	-12.2083
訕	-12.2083
勍	-12.2085
剏	-12.2086
埸	-12.2087
蝮	-12.2087
套	-12.2098
鏐	-12.2107
氅	-12.2116
鸇	-12.2119
糅	-12.212
膊	-12.2121
櫨	-12.2121
慊	-12.2125
皺	-12.215
赧	-12.2152
擷	-12.2158
諝	-12.2158
焯	-12.2161
煞	-12.2162
這	-12.2164
蹌	-12.2166
湔	-12.2192
蠆	-12.2192
蜻	-12.2195
呻	-12.22
嫚	-12.22
儵	-12.2201
紞	-12.2201
杠	-12.2228
櫺	-12.223
鋌	-12.2233
娉	-12.2235
酧	-12.2235
滻	-12.2236
點	-12.2237
窅	-12.2239
簽	-12.225
腑	-12.225
皤	-12.2269
𣺌	-12.2273
甬	-12.2273
痍	-12.2283
鱸	-12.2303
鍚	-12.2305
臚	-12.231
鐔	-12.2311
瀼	-12.2311
麛	-12.2313
鉶	-12.2313
貔	-12.2316
橡	-12.2346
鸎	-12.2349
掊	-12.2349
賵	-12.2358
墠	-12.2359
撩	-12.2384
閶	-12.2385
囓	-12.239
沱	-12.2427
関	-12.243
吮	-12.243
縋	-12.2431
輶	-12.2433
庳	-12.2435
勦	-12.2439
嚚	-12.2465
膜	-12.2469
爱	-12.247
蹷	-12.2472
哂	-12.2473
咳	-12.2474
搶	-12.2477
罏	-12.251
矇	-12.2514
欎	-12.2553
臟	-12.2554
皿	-12.2554
秧	-12.258
麯	-12.2587
翾	-12.2589
箧	-12.2589
腆	-12.259
缸	-12.262
翽	-12.2627
霾	-12.2628
嘒	-12.2629
嬙	-12.263
剗	-12.2631
邛	-12.2634
舖	-12.2634
𥙿	-12.2637
皐	-12.2639
翛	-12.2663
蟣	-12.2667
訏	-12.2672
鵩	-12.2694
纏	-12.2702
㽞	-12.2708
鄞	-12.271
鷇	-12.2711
諠	-12.2711
絀	-12.2711
弢	-12.2716
綍	-12.2722
黶	-12.2741
艫	-12.2754
遹	-12.2756
楞	-12.2787
捋	-12.279
顰	-12.2791
䰅	-12.2794
蔟	-12.2797
袞	-12.2826
藟	-12.2826
韝	-12.283
䓁	-12.2832
轔	-12.2832
譔	-12.2834
轢	-12.2834
閈	-12.2836
衂	-12.284
詧	-12.2869
颼	-12.287
咋	-12.287
莵	-12.2871
骼	-12.2872
蔀	-12.2872
扑	-12.2875
姧	-12.2875
淝	-12.2882
拈	-12.2902
浥	-12.2906
鉄	-12.2909
韵	-12.2912
礱	-12.2914
矗	-12.2915
騄	-12.2916
厎	-12.2918
妺	-12.2919
靨	-12.2956
盱	-12.2958
戛	-12.2959
濂	-12.2959
曁	-12.296
悒	-12.2961
鼷	-12.2962
緦	-12.297
箬	-12.2993
腮	-12.2993
埤	-12.2996
佾	-12.2998
蕢	-12.2999
蒭	-12.3
駈	-12.3002
狷	-12.3005
尒	-12.3035
衎	-12.3039
蕖	-12.3074
茘	-12.3075
劌	-12.3079
鋋	-12.3079
軨	-12.3079
蠒	-12.3079
疥	-12.3082
畹	-12.3082
餔	-12.3084
嚕	-12.3084
洊	-12.3091
鴦	-12.3095
簏	-12.3123
輞	-12.3123
鏞	-12.3125
柬	-12.3126
姉	-12.3129
梔	-12.3155
么	-12.3161
齕	-12.3164
廞	-12.3164
鍛	-12.3165
䜿	-12.3167
巋	-12.3168
襁	-12.3169
戣	-12.3171
脰	-12.3176
鄫	-12.32
鏄	-12.3202
侠	-12.3204
禅	-12.3208
粃	-12.3209
沇	-12.321
郿	-12.321
賡	-12.3212
鷴	-12.3241
鑱	-12.3247
筥	-12.325
磻	-12.3253
沍	-12.3254
跼	-12.3255
迓	-12.3256
䖝	-12.3262
呀	-12.3289
韍	-12.3302
麪	-12.3333
炅	-12.3336
晻	-12.3336
咮	-12.3336
䍐	-12.3337
煨	-12.3338
縂	-12.334
晙	-12.3344
騅	-12.3371
擺	-12.3377
扛	-12.3377
獬	-12.3377
䲭	-12.3378
磽	-12.338
騭	-12.3381
贇	-12.3384
痼	-12.3384
畮	-12.3384
蛄	-12.3392
昃	-12.3405
埴	-12.3422
眥	-12.3423
嵎	-12.3427
醅	-12.346
宙	-12.3462
畬	-12.3464
轟	-12.3469
帨	-12.347
嘈	-12.347
狭	-12.3473
冺	-12.3475
氍	-12.3504
臊	-12.3505
噓	-12.3511
褎	-12.3511
蠋	-12.3515
嚳	-12.3516
驁	-12.3517
澇	-12.3518
届	-12.3521
𤯝	-12.3521
葷	-12.3554
肜	-12.3554
穩	-12.3555
噀	-12.3556
偵	-12.3558
劈	-12.3558
尫	-12.3559
慼	-12.3565
霅	-12.3599
僥	-12.3606
玘	-12.3609
扎	-12.3642
徊	-12.3642
肪	-12.3644
棫	-12.3644
唘	-12.3647
戩	-12.3649
瀰	-12.365
龠	-12.3659
阼	-12.3686
樅	-12.3687
鼯	-12.369
瘖	-12.369
湼	-12.3692
壕	-12.3695
篷	-12.3729
轓	-12.3735
㹠	-12.3736
凟	-12.374
緍	-12.3744
橦	-12.3773
歊	-12.3775
紕	-12.3778
㬰	-12.3778
棻	-12.378
憬	-12.3782
鼐	-12.3782
隩	-12.3786
仝	-12.3806
芼	-12.382
赩	-12.3822
茆	-12.3822
澌	-12.3823
頹	-12.3825
㟁	-12.3825
邜	-12.3827
捽	-12.3827
馗	-12.3862
狖	-12.3867
姫	-12.3867
侁	-12.3871
膴	-12.3873
渌	-12.3875
党	-12.391
牐	-12.3916
嶸	-12.3917
剄	-12.3918
龢	-12.3918
晤	-12.3919
皖	-12.392
跱	-12.392
椶	-12.3953
蔞	-12.3955
鍪	-12.3959
摺	-12.396
搢	-12.3961
懔	-12.3961
瑁	-12.3961
哇	-12.3962
孱	-12.3964
錠	-12.3965
簀	-12.3965
緱	-12.3993
蕋	-12.4002
瀧	-12.4003
蘊	-12.4005
惣	-12.4012
榷	-12.4017
洳	-12.4051
栱	-12.4052
迢	-12.4052
郕	-12.4052
臞	-12.4063
𡊮	-12.4078
糕	-12.4092
裛	-12.4094
胾	-12.4099
廕	-12.4103
灃	-12.4104
獒	-12.4105
鞘	-12.4143
戞	-12.4148
䍧	-12.4148
褾	-12.4148
侗	-12.4149
颷	-12.4151
昩	-12.4155
扐	-12.4165
廌	-12.4189
瞞	-12.4191
踦	-12.4195
硎	-12.4196
褌	-12.4197
笻	-12.4231
趁	-12.4232
穟	-12.4235
蠏	-12.4238
礿	-12.4238
䰟	-12.4243
灊	-12.4247
蜋	-12.4248
毉	-12.4253
卣	-12.4256
爆	-12.4276
肻	-12.4283
輭	-12.4283
烜	-12.4285
蜿	-12.4288
綖	-12.4288
趫	-12.429
蜮	-12.4291
砲	-12.4296
掄	-12.4297
汞	-12.4332
蓂	-12.4334
蹠	-12.4339
㶚	-12.4341
鯢	-12.4341
狃	-12.4346
臾	-12.4369
繰	-12.4374
炁	-12.4376
縚	-12.4382
籞	-12.4382
芍	-12.4382
淥	-12.4383
磷	-12.4385
箒	-12.4385
喑	-12.4389
殮	-12.439
巗	-12.4431
崦	-12.4433
掦	-12.4436
厦	-12.4451
騧	-12.4473
蓀	-12.4478
町	-12.4479
櫚	-12.4479
莩	-12.4479
耋	-12.448
諴	-12.4483
灸	-12.4484
惨	-12.4486
頵	-12.4488
猩	-12.4522
伃	-12.4522
㫤	-12.4527
憮	-12.4534
罃	-12.4566
鄯	-12.4567
釭	-12.4572
掞	-12.4582
禴	-12.4583
絁	-12.4622
郜	-12.4624
犴	-12.4625
涙	-12.4626
鎚	-12.4627
凾	-12.4629
韲	-12.463
酖	-12.4632
􁇋	-12.4632
愎	-12.4633
稌	-12.4674
峘	-12.4675
䭾	-12.4677
諏	-12.4678
嘷	-12.4678
灝	-12.468
勳	-12.4681
絇	-12.4681
枻	-12.4681
曈	-12.4719
鞚	-12.4721
<	-12.4723
t	-12.4724
曆	-12.4725
頫	-12.4726
靁	-12.4729
懣	-12.4731
齪	-12.477
适	-12.4772
䖟	-12.478
窩	-12.478
删	-12.4782
砭	-12.4783
劃	-12.4785
謖	-12.4788
蹯	-12.482
珝	-12.4823
𬎼	-12.4824
嶢	-12.4824
澥	-12.4826
攽	-12.4873
篲	-12.4875
桮	-12.4875
僰	-12.4878
拽	-12.4878
毖	-12.4884
釃	-12.4922
薌	-12.4922
韙	-12.4923
阬	-12.4923
鯈	-12.4925
壖	-12.4929
渟	-12.4929
滲	-12.4931
帬	-12.4941
糯	-12.4963
朧	-12.4974
覡	-12.4977
筲	-12.4978
篪	-12.498
挍	-12.498
蚶	-12.4984
恧	-12.4984
醸	-12.5019
茝	-12.5026
絫	-12.5028
賕	-12.503
蒱	-12.503
硤	-12.5033
蕞	-12.5033
媾	-12.5043
銍	-12.5078
鬷	-12.5079
剃	-12.508
欬	-12.5083
瑪	-12.5083
戕	-12.5086
醎	-12.5088
鈺	-12.5122
鈇	-12.5129
暦	-12.513
枰	-12.513
玖	-12.5132
骰	-12.5132
鄕	-12.5132
欷	-12.5132
芑	-12.5133
饜	-12.5134
娼	-12.5135
楙	-12.5136
邅	-12.5136
撗	-12.5137
尔	-12.5138
鱷	-12.5138
獷	-12.5141
肸	-12.5184
詒	-12.5184
鬴	-12.5185
詫	-12.5185
遟	-12.5185
哮	-12.5187
㷀	-12.5188
萹	-12.5227
菀	-12.5231
炰	-12.5231
漓	-12.5232
剸	-12.5232
鴂	-12.5232
暁	-12.5233
塑	-12.5237
愀	-12.5238
虖	-12.5238
滙	-12.524
鑕	-12.5241
怳	-12.5242
喋	-12.5242
默	-12.5244
猖	-12.5249
饕	-12.528
琥	-12.5285
廛	-12.5286
甎	-12.5286
苹	-12.5286
瓴	-12.5286
棐	-12.5287
樝	-12.5288
柢	-12.5288
渫	-12.5288
郫	-12.5289
啗	-12.5289
啣	-12.5289
蠣	-12.529
苒	-12.529
姆	-12.5291
髽	-12.5328
禫	-12.5333
鎌	-12.5336
珧	-12.5339
脹	-12.5347
焞	-12.5391
鋩	-12.5392
嚭	-12.5393
蛭	-12.5394
縲	-12.5398
傚	-12.54
掀	-12.5441
濘	-12.5446
溶	-12.5447
熛	-12.5448
躄	-12.5448
潏	-12.5448
徯	-12.5449
讟	-12.5449
喁	-12.5451
瓷	-12.5489
隃	-12.5497
橑	-12.5499
焜	-12.5501
讁	-12.5501
敳	-12.5501
閡	-12.5504
㝡	-12.5505
褕	-12.5508
蒻	-12.5548
娵	-12.5552
蓆	-12.5552
礦	-12.5553
蕘	-12.5555
臝	-12.5556
斸	-12.5602
扺	-12.5603
倬	-12.5604
鏌	-12.5605
砮	-12.5605
噤	-12.5606
褫	-12.5609
曀	-12.5611
罾	-12.5617
叉	-12.5651
蜕	-12.5653
椑	-12.5655
蚋	-12.5656
鞵	-12.566
脤	-12.5663
袐	-12.5706
襴	-12.5713
彜	-12.5713
糒	-12.5717
癃	-12.5717
蚪	-12.5718
呦	-12.572
秭	-12.572
揩	-12.5721
焬	-12.5721
噭	-12.5764
剉	-12.5765
柙	-12.5767
癯	-12.577
祊	-12.5771
鉷	-12.5772
砢	-12.5772
暵	-12.5773
耉	-12.5774
槳	-12.5774
疴	-12.5775
璪	-12.5777
券	-12.5777
琖	-12.5778
觝	-12.5779
賙	-12.5781
搭	-12.5818
旍	-12.5824
崙	-12.5824
暕	-12.5828
簨	-12.5828
螣	-12.5829
耰	-12.583
晰	-12.5837
疢	-12.5838
蹏	-12.5872
葳	-12.5875
襠	-12.5876
塍	-12.5883
沭	-12.5885
韡	-12.5886
臬	-12.5887
踝	-12.5888
僨	-12.5889
峪	-12.5889
苣	-12.5924
蝱	-12.5929
亹	-12.593
溍	-12.5931
茜	-12.5932
傒	-12.5932
瘍	-12.5934
雰	-12.5935
嗛	-12.594
湣	-12.5942
慆	-12.5942
撚	-12.5981
儐	-12.599
芙	-12.599
㐲	-12.5992
䥫	-12.5993
灤	-12.5996
歜	-12.5998
窬	-12.6
繄	-12.6002
惓	-12.601
窣	-12.6041
誹	-12.6046
駉	-12.6046
劬	-12.6048
癢	-12.6053
裵	-12.6053
闉	-12.6054
穣	-12.6056
晊	-12.6102
桁	-12.6103
㦯	-12.6105
戔	-12.6105
柈	-12.6106
姙	-12.6107
咬	-12.6108
袿	-12.611
嶰	-12.6111
怵	-12.6113
憒	-12.6157
苽	-12.6159
鴇	-12.6162
珦	-12.6163
醑	-12.6163
瞶	-12.6165
玫	-12.6165
壎	-12.6174
籤	-12.6217
漭	-12.6217
醲	-12.6221
慳	-12.6221
梏	-12.6222
宁	-12.6225
胤	-12.6232
賸	-12.6271
拷	-12.6276
韉	-12.6277
坫	-12.6282
罋	-12.6283
嶔	-12.6284
柁	-12.6334
稾	-12.6335
橛	-12.6336
丰	-12.6337
串	-12.6337
揷	-12.6337
汩	-12.634
襚	-12.6341
薙	-12.6342
鶖	-12.6342
內	-12.6343
憺	-12.6344
慴	-12.6344
𤦺	-12.6381
瀚	-12.6391
琲	-12.6391
搥	-12.6394
牣	-12.6396
暱	-12.6397
梲	-12.6399
鄼	-12.6402
瘥	-12.6403
餕	-12.644
凈	-12.6448
屧	-12.6448
吭	-12.6455
軔	-12.6459
旴	-12.6461
㲲	-12.6504
儈	-12.6508
駔	-12.651
灔	-12.6511
楩	-12.6514
盭	-12.6514
胔	-12.6514
鋼	-12.6515
屎	-12.6516
𥿄	-12.652
綢	-12.6564
飣	-12.6566
刓	-12.6572
抒	-12.6573
秸	-12.6576
狶	-12.6577
隟	-12.6581
㢤	-12.6581
秒	-12.6587
恙	-12.6602
蘢	-12.6627
崿	-12.6627
蹉	-12.663
匆	-12.6632
螾	-12.6633
冄	-12.6634
倮	-12.6636
痊	-12.6639
搤	-12.664
莬	-12.6641
聃	-12.6686
萁	-12.6686
趯	-12.6686
綫	-12.669
鏹	-12.669
笱	-12.6691
䜴	-12.6692
鍇	-12.6693
捃	-12.6695
哽	-12.6695
栻	-12.6696
腓	-12.6696
躐	-12.6698
淯	-12.67
澨	-12.675
擡	-12.6751
臑	-12.6751
歠	-12.6753
坌	-12.6754
鴒	-12.6755
辠	-12.676
痤	-12.6761
瞀	-12.6762
㩦	-12.6763
猺	-12.6767
啁	-12.6809
褧	-12.6809
窕	-12.6811
懴	-12.6813
暍	-12.6814
菔	-12.6814
焱	-12.6815
荄	-12.6815
姣	-12.6815
靷	-12.6819
爝	-12.6819
昫	-12.6819
憕	-12.682
咫	-12.6869
癉	-12.6872
爚	-12.6874
竚	-12.6877
𣆀	-12.6878
洶	-12.6879
甗	-12.688
洸	-12.688
辝	-12.6881
誾	-12.6881
犄	-12.6888
榕	-12.6928
璃	-12.6929
碗	-12.693
蓏	-12.6931
餚	-12.6942
彄	-12.6943
踪	-12.6943
窪	-12.6992
蘸	-12.6993
緤	-12.6995
訃	-12.6998
萑	-12.6999
傀	-12.6999
錚	-12.7
㥄	-12.7001
蟒	-12.7001
哦	-12.7002
盬	-12.7002
粽	-12.7046
蓉	-12.7053
檿	-12.7056
悮	-12.7058
辣	-12.7059
崐	-12.7061
蝤	-12.7063
讋	-12.7066
倏	-12.7068
蜼	-12.7071
夥	-12.7074
捄	-12.7075
牸	-12.7117
确	-12.7117
棉	-12.7118
骹	-12.7123
伷	-12.7123
攤	-12.7124
瀏	-12.7126
袷	-12.7132
笁	-12.7132
䌫	-12.7134
嘖	-12.7181
廿	-12.7184
枿	-12.7186
毌	-12.7188
叵	-12.7189
肓	-12.7189
濰	-12.719
鄄	-12.719
鵙	-12.7193
孌	-12.7194
扳	-12.7194
瘵	-12.7196
悃	-12.7196
凹	-12.72
僎	-12.7203
鼕	-12.7245
腳	-12.7247
唼	-12.7248
胯	-12.7252
璅	-12.7252
佻	-12.7253
賒	-12.7254
噏	-12.7256
柷	-12.7257
惸	-12.7257
逡	-12.7305
棖	-12.7308
翃	-12.7312
跬	-12.7314
罨	-12.7315
瞥	-12.7315
秕	-12.7316
罥	-12.7317
玃	-12.7319
摐	-12.7319
挐	-12.732
辮	-12.732
簜	-12.732
濼	-12.7321
楝	-12.7322
号	-12.7322
鄷	-12.7323
繶	-12.7324
鱟	-12.7325
覦	-12.7326
柤	-12.7368
菼	-12.7374
踧	-12.7378
饁	-12.7378
偘	-12.7379
琶	-12.7379
刲	-12.738
妲	-12.7382
槧	-12.7383
臡	-12.7383
撑	-12.7384
韎	-12.7385
蜯	-12.7386
迯	-12.7393
蠐	-12.7394
鶂	-12.7436
嬈	-12.7439
臏	-12.7445
萋	-12.7445
蔔	-12.7446
傖	-12.7447
霣	-12.7449
卨	-12.745
蘤	-12.7506
鷦	-12.7508
睽	-12.7509
襞	-12.7509
淼	-12.7513
饟	-12.7513
涅	-12.7514
腠	-12.7515
忖	-12.7517
逥	-12.7517
赳	-12.7519
螗	-12.7521
怍	-12.7522
蚣	-12.7526
䕷	-12.7573
捎	-12.7573
駵	-12.7573
疹	-12.7574
嚇	-12.7577
窆	-12.7577
嚥	-12.7577
週	-12.7579
蜣	-12.7581
詖	-12.7581
桎	-12.7582
祺	-12.7583
埜	-12.7583
佟	-12.7588
卲	-12.7638
娀	-12.7638
捻	-12.7638
㫋	-12.764
攙	-12.7641
嵋	-12.7641
憧	-12.7643
坳	-12.7644
篝	-12.7644
磋	-12.7644
淛	-12.7645
庀	-12.7647
䡄	-12.765
颶	-12.7651
澒	-12.7651
䔩	-12.7702
朦	-12.7703
挼	-12.7708
麂	-12.771
蚳	-12.7712
婪	-12.7713
蓁	-12.7715
蹐	-12.7718
𬞞	-12.772
蟜	-12.7766
鍠	-12.7775
痒	-12.7778
戹	-12.778
䴡	-12.778
柂	-12.778
沲	-12.7781
忉	-12.7782
酳	-12.7782
藷	-12.7783
䡖	-12.7841
𠻳	-12.7842
滏	-12.7847
芉	-12.7847
稿	-12.7848
泡	-12.7848
礴	-12.7849
蚺	-12.7849
傕	-12.7849
咆	-12.7849
筓	-12.7849
畒	-12.7858
檎	-12.7895
鬆	-12.7899
艸	-12.7909
鄲	-12.791
酏	-12.791
黌	-12.7915
瀋	-12.7916
崒	-12.7917
甽	-12.7919
靦	-12.7921
皴	-12.7973
娜	-12.7976
鄊	-12.7982
餧	-12.7983
滚	-12.7983
祅	-12.7984
痾	-12.7984
顇	-12.7987
尙	-12.7987
籕	-12.7992
踘	-12.8047
犖	-12.8048
瘢	-12.8048
燻	-12.8049
妊	-12.8049
絓	-12.805
漼	-12.8051
棓	-12.8051
嫫	-12.8053
刧	-12.8053
豋	-12.8055
鱧	-12.8056
荳	-12.8056
鱓	-12.8057
琉	-12.8057
蛸	-12.8058
呴	-12.8058
拇	-12.8113
坏	-12.8113
辤	-12.8114
鮐	-12.8116
楼	-12.8117
岨	-12.8118
懵	-12.8119
淀	-12.8119
縡	-12.8122
闤	-12.8123
瑘	-12.8124
忭	-12.8124
噍	-12.8125
桔	-12.8126
崟	-12.8127
藎	-12.813
嵒	-12.8182
觱	-12.8185
㫄	-12.8187
箘	-12.8188
箙	-12.8188
雚	-12.8188
韤	-12.8189
芘	-12.819
猊	-12.819
酇	-12.8191
鞉	-12.8193
蟊	-12.8194
筞	-12.8198
𤾉	-12.82
杷	-12.8243
笴	-12.8252
踶	-12.8254
髩	-12.8254
賨	-12.8256
簳	-12.8258
冑	-12.8258
爬	-12.826
燁	-12.8262
芣	-12.8263
擗	-12.8263
斮	-12.8263
圮	-12.8264
闠	-12.8264
輼	-12.8266
猝	-12.8269
鄔	-12.832
穄	-12.8324
邰	-12.8333
筰	-12.8333
徉	-12.8336
据	-12.8336
汛	-12.8337
浟	-12.8394
鄶	-12.8394
蝀	-12.84
尢	-12.8402
髫	-12.8404
寬	-12.8405
裠	-12.8405
羕	-12.8409
嫠	-12.8412
痿	-12.8416
唅	-12.846
毦	-12.8466
諼	-12.8469
摻	-12.847
垜	-12.847
薁	-12.847
麏	-12.8472
幪	-12.8475
麩	-12.8478
丱	-12.8478
涑	-12.8479
賍	-12.848
𫐠	-12.848
麰	-12.8532
毯	-12.854
芭	-12.8541
巂	-12.8545
仡	-12.8545
稑	-12.8546
蝥	-12.8547
錘	-12.8548
匯	-12.8548
鶵	-12.855
揵	-12.8551
孀	-12.8552
鷫	-12.8554
禭	-12.8555
僇	-12.8555
硃	-12.8559
篩	-12.8613
葯	-12.8614
蛹	-12.8615
樺	-12.8616
襌	-12.8616
厖	-12.8617
佼	-12.8619
磎	-12.8619
舷	-12.8621
䘖	-12.8624
豻	-12.8624
胊	-12.8626
牎	-12.8626
鐍	-12.8627
梃	-12.8693
岵	-12.8693
嶄	-12.8694
鳷	-12.8696
迕	-12.8696
脁	-12.8696
㓪	-12.8699
袠	-12.87
㴞	-12.8703
壩	-12.8718
鴽	-12.8756
穜	-12.8763
皪	-12.8763
鏖	-12.8766
硫	-12.8767
鐲	-12.877
磵	-12.8771
鱖	-12.8773
悪	-12.8773
﨑	-12.8774
蕈	-12.8782
翌	-12.8832
瓏	-12.8833
蝉	-12.8836
襆	-12.8839
艤	-12.8844
痔	-12.8852
烙	-12.8855
唶	-12.8911
觳	-12.8914
篳	-12.8914
騣	-12.8914
蟪	-12.8915
机	-12.8916
恁	-12.8917
鼂	-12.892
卸	-12.892
吒	-12.892
㢮	-12.892
鍮	-12.8921
懊	-12.8922
嚻	-12.8923
裡	-12.8982
斕	-12.899
廋	-12.899
駹	-12.8991
髹	-12.8993
邲	-12.8993
忸	-12.8995
尨	-12.8995
瓿	-12.8996
𣪚	-12.8997
閾	-12.8998
戅	-12.8999
鬂	-12.9059
糵	-12.9059
轎	-12.9065
皡	-12.9067
塉	-12.9069
徨	-12.9072
瞭	-12.9075
鍰	-12.9076
惬	-12.9077
諐	-12.9078
浞	-12.9079
韠	-12.908
蕕	-12.9143
皛	-12.9143
踔	-12.9144
眭	-12.9144
醆	-12.9144
饘	-12.9145
尻	-12.9145
鎩	-12.9148
犛	-12.9149
瀁	-12.915
㬋	-12.9153
絍	-12.9153
𥅆	-12.9153
鰓	-12.9156
螬	-12.9157
詿	-12.9161
獰	-12.9213
餤	-12.9213
芎	-12.9216
湩	-12.9218
闒	-12.9222
禠	-12.9222
塿	-12.9223
凊	-12.9227
昞	-12.9228
砰	-12.923
胏	-12.9232
騤	-12.9232
灂	-12.9235
㳫	-12.9293
瞢	-12.9294
竞	-12.9295
堨	-12.9297
票	-12.9297
䆫	-12.9298
棱	-12.9299
瘕	-12.93
騃	-12.9301
栲	-12.9303
惮	-12.9304
絏	-12.9305
楔	-12.9305
𬒮	-12.9306
膈	-12.9307
玢	-12.9307
鞀	-12.9308
魍	-12.9308
匐	-12.9312
狴	-12.9313
褏	-12.9373
綌	-12.9374
描	-12.9375
騕	-12.9376
瓤	-12.9379
咿	-12.9379
朅	-12.9382
韌	-12.9384
褶	-12.9384
柎	-12.9388
疣	-12.939
軄	-12.9395
跕	-12.9457
琵	-12.9457
瓞	-12.946
稂	-12.9461
鑛	-12.9462
獯	-12.9463
綮	-12.9464
簉	-12.9466
彍	-12.9468
蟈	-12.947
尠	-12.9473
儗	-12.9532
騘	-12.9536
蜊	-12.9537
樾	-12.9538
杻	-12.9539
灕	-12.9539
腯	-12.9542
囉	-12.9542
碏	-12.9544
栟	-12.9545
磅	-12.9546
獐	-12.9546
燬	-12.9547
鰐	-12.9551
菖	-12.9616
婼	-12.9619
菡	-12.962
閿	-12.9623
煴	-12.9623
諗	-12.9626
㯶	-12.9626
鶘	-12.9629
籓	-12.9632
闑	-12.9641
渼	-12.9696
拌	-12.9697
禡	-12.9698
懍	-12.9703
詼	-12.9703
渢	-12.9704
瞪	-12.9704
摳	-12.9704
麃	-12.9705
乱	-12.9705
蠕	-12.9707
漯	-12.9711
翡	-12.9768
剩	-12.9779
僱	-12.9781
臈	-12.9782
杆	-12.9784
鬒	-12.9784
惘	-12.9786
宄	-12.9786
崕	-12.9789
麀	-12.979
閴	-12.9791
𠡠	-12.9791
麒	-12.9852
嫖	-12.986
躞	-12.9861
菻	-12.9861
寞	-12.9863
玳	-12.9864
倓	-12.9864
撐	-12.9864
稳	-12.9865
悱	-12.9866
稊	-12.9868
淦	-12.9871
煽	-12.9872
卹	-12.9873
爟	-12.9875
蠁	-12.9876
窋	-12.9876
廁	-12.9877
鰒	-12.9878
酃	-12.9943
鍭	-12.9944
眘	-12.9946
努	-12.9949
溆	-12.995
蜓	-12.995
唧	-12.9951
沗	-12.9952
眈	-12.9952
匾	-12.9952
罼	-12.9954
鵂	-13.0011
醺	-13.0025
褉	-13.0027
餬	-13.003
佽	-13.0031
箑	-13.0034
囁	-13.0034
餱	-13.0035
嗽	-13.0037
凸	-13.0037
柸	-13.004
噶	-13.0043
鱮	-13.0045
纇	-13.0115
攴	-13.0115
蘺	-13.0116
簦	-13.0117
仔	-13.0117
䴥	-13.0117
韁	-13.0118
菩	-13.0118
觿	-13.012
滈	-13.012
噦	-13.0121
譌	-13.0122
匜	-13.0127
巇	-13.0127
罻	-13.0128
廄	-13.0129
諉	-13.0131
膂	-13.0186
厙	-13.0193
澱	-13.0198
胝	-13.0199
隮	-13.0201
菉	-13.0201
㨂	-13.0204
籧	-13.0205
竢	-13.0205
釂	-13.0207
黟	-13.0207
裯	-13.0208
缻	-13.0209
祸	-13.0211
瑨	-13.0211
蜨	-13.0284
你	-13.0288
餈	-13.0288
噱	-13.029
䄡	-13.029
瞎	-13.0291
聪	-13.0292
跟	-13.0293
蝝	-13.0293
茇	-13.0296
祍	-13.0296
媮	-13.0297
肫	-13.0298
鮎	-13.0306
玻	-13.0371
䢴	-13.0371
踖	-13.0374
炒	-13.0376
劎	-13.0376
訇	-13.0377
鶺	-13.0378
僬	-13.0379
帀	-13.038
妳	-13.0381
輾	-13.0381
輴	-13.0381
撙	-13.0382
㰱	-13.0385
坯	-13.0385
懟	-13.0387
嬛	-13.0455
䓗	-13.0456
嶇	-13.0463
蛑	-13.0464
裀	-13.0465
蓞	-13.0466
姞	-13.0467
頞	-13.0468
躒	-13.0469
禬	-13.0469
哆	-13.0474
惎	-13.0476
湥	-13.0487
捩	-13.0549
涴	-13.0549
杙	-13.055
喔	-13.0551
潾	-13.0552
姹	-13.0554
陿	-13.0554
蠓	-13.0556
遝	-13.0557
磥	-13.0558
葚	-13.0628
鯔	-13.0638
膢	-13.0638
繐	-13.0639
篸	-13.0639
换	-13.0641
綷	-13.0641
紒	-13.0643
顦	-13.0645
洑	-13.0646
豭	-13.0647
蠍	-13.0658
拗	-13.0718
杰	-13.0723
㮚	-13.0724
韮	-13.0728
薏	-13.0731
皚	-13.0732
倢	-13.0732
嶙	-13.0736
㹅	-13.074
琕	-13.0742
燐	-13.0815
儘	-13.0816
牷	-13.0816
籹	-13.0819
䍦	-13.082
颭	-13.0821
綣	-13.0821
箆	-13.0824
邐	-13.0826
雘	-13.0827
婣	-13.0827
憸	-13.0828
顕	-13.0829
蘘	-13.0829
庄	-13.083
眙	-13.0831
蟛	-13.0838
榔	-13.0907
矞	-13.0909
茈	-13.0912
帢	-13.0913
晧	-13.0913
遫	-13.0914
邶	-13.0915
卺	-13.0916
蟇	-13.0916
崎	-13.0916
璚	-13.0917
攔	-13.0917
簠	-13.0918
佷	-13.0919
痢	-13.092
魎	-13.092
鼖	-13.0922
皜	-13.0925
廥	-13.1006
恆	-13.1006
骭	-13.1008
躰	-13.1011
牱	-13.1012
贔	-13.1012
箄	-13.1013
酗	-13.1016
泲	-13.1017
莓	-13.11
㹀	-13.1101
澘	-13.1103
窿	-13.1103
怜	-13.1104
砍	-13.1105
媟	-13.1105
飀	-13.1106
齓	-13.1106
咷	-13.1107
牾	-13.1108
槱	-13.1108
䃭	-13.1111
貘	-13.1111
咈	-13.1113
泆	-13.1113
汐	-13.1116
玕	-13.1118
紃	-13.1186
裦	-13.1186
饞	-13.1189
茟	-13.119
鯿	-13.1191
餻	-13.1193
磝	-13.1195
薯	-13.1196
蕝	-13.1196
矻	-13.1197
佖	-13.1197
瑭	-13.1197
鈒	-13.1198
荽	-13.1198
腔	-13.1201
猳	-13.1202
齔	-13.1204
蟫	-13.1204
悁	-13.1208
倀	-13.1215
窊	-13.1275
縐	-13.1277
娩	-13.1284
姐	-13.1284
踆	-13.1285
嬀	-13.1287
墁	-13.1289
鶼	-13.129
厩	-13.129
溈	-13.129
貛	-13.129
肹	-13.1291
懃	-13.1292
旎	-13.1292
开	-13.1293
禿	-13.1293
晬	-13.1293
嵫	-13.1296
寀	-13.1297
譆	-13.1297
蝘	-13.1298
声	-13.1308
楶	-13.1375
鬧	-13.1381
靸	-13.1382
螮	-13.1383
荈	-13.1385
躧	-13.1385
畊	-13.1387
槲	-13.1387
橊	-13.1388
蜒	-13.1393
嵊	-13.1395
屡	-13.1395
魃	-13.1397
鶹	-13.1462
釦	-13.1473
耏	-13.1475
鬃	-13.1476
饅	-13.1478
璲	-13.1479
闟	-13.1481
噆	-13.1484
縕	-13.1486
艎	-13.1489
坪	-13.1489
巓	-13.149
鸘	-13.1492
焕	-13.1492
珤	-13.1493
閇	-13.1497
㮏	-13.1557
挲	-13.1569
媧	-13.157
鞦	-13.1573
阯	-13.1575
呑	-13.1579
鼛	-13.158
醨	-13.158
蛣	-13.1582
型	-13.1585
阸	-13.1586
倔	-13.1588
牴	-13.1589
饍	-13.159
琁	-13.1592
齅	-13.1669
聱	-13.167
崘	-13.1677
蜾	-13.1677
鏜	-13.1677
睒	-13.1677
軷	-13.1679
袚	-13.1679
枘	-13.1682
帗	-13.1682
蒺	-13.1683
韣	-13.1684
賮	-13.1685
苢	-13.1685
蜞	-13.1686
鍋	-13.1687
逭	-13.1689
咥	-13.1689
膿	-13.169
塪	-13.1693
顫	-13.1771
砑	-13.1772
脽	-13.1773
藭	-13.1776
碍	-13.1777
􁋢	-13.178
聵	-13.1781
跑	-13.1781
㮣	-13.1783
楂	-13.1783
鏟	-13.1784
栒	-13.1784
絨	-13.1784
踉	-13.1784
崱	-13.1785
𣏌	-13.1786
甒	-13.1788
惙	-13.1789
穸	-13.179
疼	-13.1794
噩	-13.1794
鶗	-13.1876
齮	-13.1878
簵	-13.1879
墐	-13.1879
逶	-13.1882
婀	-13.1883
眎	-13.1885
戇	-13.1885
趄	-13.1886
怫	-13.1887
𥚑	-13.1887
坱	-13.1891
艋	-13.1893
擴	-13.1894
颸	-13.1972
酩	-13.1975
漙	-13.1979
蜎	-13.198
侖	-13.1981
搘	-13.1985
猋	-13.1986
耼	-13.1988
㻛	-13.1988
蕾	-13.1989
跽	-13.1989
梱	-13.199
矅	-13.1992
慺	-13.1993
舴	-13.1994
鄱	-13.203
㚟	-13.2077
蕎	-13.2081
㶑	-13.2082
嵸	-13.2083
歃	-13.2084
睪	-13.2085
蚖	-13.2085
圄	-13.2085
杕	-13.2085
沄	-13.2087
厰	-13.2087
罐	-13.2088
蹬	-13.2089
睆	-13.2089
慠	-13.209
蕣	-13.2091
杌	-13.2092
憝	-13.2093
俅	-13.2094
滬	-13.2096
宐	-13.2098
㴱	-13.21
銙	-13.2183
旖	-13.2187
廳	-13.2188
髄	-13.2188
劚	-13.2188
歕	-13.219
倂	-13.219
㬥	-13.2192
䌓	-13.2192
姢	-13.2193
蚨	-13.2193
愾	-13.2194
䔉	-13.2194
瘉	-13.2196
醼	-13.2198
箝	-13.229
褠	-13.2291
搯	-13.2292
鷮	-13.2294
痁	-13.2294
楗	-13.2297
飰	-13.2298
歔	-13.2298
鏻	-13.23
鰩	-13.2301
涣	-13.2304
攖	-13.2305
僶	-13.2307
瀵	-13.2392
鵡	-13.2396
韀	-13.2398
抶	-13.2399
嫵	-13.2399
駃	-13.2399
蚿	-13.24
蹢	-13.2401
劘	-13.2402
禈	-13.2402
鮭	-13.2403
饎	-13.2404
埆	-13.2404
栘	-13.2405
𥚹	-13.2406
靃	-13.2408
忮	-13.2408
鞌	-13.2408
膰	-13.2409
戻	-13.241
膻	-13.2415
鄽	-13.2416
偼	-13.2502
鼬	-13.2503
旉	-13.2504
檮	-13.2506
糈	-13.2506
㲄	-13.251
虙	-13.251
䂊	-13.251
𥪡	-13.2511
䈥	-13.2511
柹	-13.2512
鋹	-13.2512
唁	-13.2512
陡	-13.2514
嗌	-13.2516
畸	-13.2517
婭	-13.2517
馹	-13.2519
䬃	-13.2521
勱	-13.2521
綟	-13.2522
犗	-13.2608
蠹	-13.2609
菆	-13.2611
漦	-13.2612
􁏉	-13.2613
笭	-13.2616
蜆	-13.2618
塌	-13.2619
儡	-13.2624
􁈓	-13.2626
蝍	-13.2632
齗	-13.2632
湑	-13.272
胖	-13.2723
犫	-13.2724
秖	-13.2724
蔦	-13.2727
蝇	-13.2727
騩	-13.2728
犆	-13.2729
盝	-13.2729
罶	-13.2733
迁	-13.2733
徜	-13.2734
厪	-13.2734
孶	-13.274
抔	-13.2744
蟁	-13.2827
泬	-13.2835
蕷	-13.2836
鼲	-13.2837
憍	-13.2839
鈸	-13.2839
嶁	-13.284
㘴	-13.284
嘽	-13.2842
渰	-13.2842
朒	-13.2844
觽	-13.2844
璈	-13.2845
舳	-13.2848
頬	-13.2848
継	-13.2848
䱉	-13.2852
舃	-13.2866
縰	-13.2938
萸	-13.2944
灧	-13.2944
嫋	-13.2945
帊	-13.2946
㪍	-13.2947
醁	-13.2949
埓	-13.2949
殲	-13.2952
齍	-13.2953
迮	-13.2954
鐏	-13.2954
鞹	-13.2956
鮦	-13.2957
姱	-13.2957
份	-13.2957
敔	-13.2957
觖	-13.2958
𧺫	-13.2959
洱	-13.296
𣢾	-13.2963
䫇	-13.2964
圩	-13.2974
浯	-13.2975
湝	-13.2981
鏊	-13.305
屝	-13.3054
綀	-13.3056
絝	-13.3056
撇	-13.3058
篥	-13.3059
硝	-13.306
珀	-13.306
黧	-13.3063
鵓	-13.3064
慍	-13.3064
鎡	-13.3066
媼	-13.3067
馛	-13.3067
岏	-13.3067
唄	-13.3067
洌	-13.3068
栴	-13.3069
燀	-13.3069
呐	-13.3072
礜	-13.3074
灮	-13.3077
婷	-13.3172
噣	-13.3173
汋	-13.3173
玲	-13.3177
蹵	-13.3178
驊	-13.3179
戺	-13.3179
諄	-13.318
臀	-13.318
虒	-13.3181
勌	-13.3181
靶	-13.3183
慥	-13.3183
楬	-13.3185
阱	-13.3186
碪	-13.3186
鐻	-13.3186
鱔	-13.3189
鱨	-13.3189
褖	-13.3201
碯	-13.3287
蔿	-13.329
轑	-13.3291
埳	-13.3294
剜	-13.3295
蒟	-13.3295
洟	-13.3295
騟	-13.3298
嘹	-13.3299
麌	-13.3299
墝	-13.3299
癩	-13.33
痏	-13.33
飪	-13.33
阽	-13.3303
欻	-13.3303
鮆	-13.3304
咺	-13.3305
浡	-13.3306
輠	-13.3309
獍	-13.3309
鰋	-13.3309
惚	-13.3313
暅	-13.3317
㲪	-13.3405
蕳	-13.3407
毚	-13.3408
􁆁	-13.3409
䪥	-13.341
儇	-13.341
楪	-13.3411
汔	-13.3411
澦	-13.3414
艨	-13.3414
昪	-13.3414
睞	-13.3415
黈	-13.3416
摴	-13.3417
蘗	-13.3418
徬	-13.3419
熄	-13.342
韔	-13.342
襮	-13.3421
眂	-13.3421
輬	-13.3422
惛	-13.3423
牿	-13.3431
碼	-13.3523
狒	-13.3524
茷	-13.3528
蟺	-13.3528
秠	-13.353
玈	-13.353
逷	-13.3531
毹	-13.3531
幨	-13.3532
籯	-13.3534
懺	-13.3537
擥	-13.3538
籝	-13.3538
醳	-13.3538
翶	-13.3538
蠛	-13.3539
莋	-13.354
媺	-13.354
舋	-13.3542
禔	-13.3543
㕍	-13.3544
髢	-13.3544
殍	-13.3545
竑	-13.3547
离	-13.3642
匽	-13.3645
酊	-13.3646
膋	-13.3647
蜑	-13.3648
豵	-13.3649
甆	-13.365
塈	-13.3651
銕	-13.3651
髲	-13.3651
墯	-13.3651
裌	-13.3652
襈	-13.3652
俑	-13.3653
侫	-13.3653
輊	-13.3654
齷	-13.3656
醵	-13.3656
䔧	-13.3656
搨	-13.3658
褻	-13.3659
穪	-13.3659
欃	-13.3661
䂖	-13.3669
薔	-13.3764
窰	-13.3765
藋	-13.3765
豝	-13.3767
幞	-13.3771
臓	-13.3774
臰	-13.3774
遅	-13.3775
冋	-13.3775
繾	-13.3777
枅	-13.3777
岣	-13.3778
郪	-13.378
鞲	-13.3782
䄖	-13.3783
嵕	-13.3784
籛	-13.3786
蓓	-13.3786
闖	-13.3791
擄	-13.3794
蘀	-13.3887
徘	-13.389
嫓	-13.3893
酡	-13.3893
勮	-13.3895
鸊	-13.3896
幗	-13.3896
媸	-13.3897
鎪	-13.3898
隥	-13.3898
桯	-13.39
霪	-13.3901
钁	-13.3901
彠	-13.3903
喆	-13.3904
鞔	-13.3905
齟	-13.3906
沌	-13.3906
遰	-13.3907
礲	-13.3907
悆	-13.3912
鱒	-13.3913
淞	-13.3916
疈	-13.3919
曨	-13.4012
龑	-13.4014
鵑	-13.4018
侲	-13.4019
贐	-13.4019
很	-13.402
硏	-13.4021
臿	-13.4023
艑	-13.4023
鬵	-13.4024
彯	-13.4025
抨	-13.4026
睎	-13.4027
荗	-13.4027
酅	-13.4027
舲	-13.4027
爺	-13.4027
繙	-13.4028
纆	-13.403
愊	-13.403
䦧	-13.403
搬	-13.4031
頁	-13.4032
轜	-13.4033
衺	-13.4033
撈	-13.4034
胠	-13.4034
羜	-13.4143
栭	-13.4143
眴	-13.4144
丏	-13.4145
鹺	-13.4146
瀲	-13.4146
盒	-13.4147
舠	-13.4148
滍	-13.4148
蠔	-13.4149
檖	-13.415
篨	-13.4154
乹	-13.4155
䠞	-13.4157
儦	-13.4158
囯	-13.4159
罡	-13.4159
澎	-13.416
慓	-13.4163
𤇺	-13.4167
鞓	-13.4268
慷	-13.4271
翀	-13.4273
琫	-13.4274
滃	-13.4275
岠	-13.4276
㼐	-13.4277
礧	-13.4277
蔲	-13.4278
縧	-13.4278
忡	-13.4279
晒	-13.4279
抝	-13.428
鑼	-13.428
颿	-13.4281
謄	-13.4281
睟	-13.4283
棕	-13.4284
愒	-13.4285
瀺	-13.4288
呶	-13.4289
痰	-13.4289
涷	-13.4289
苡	-13.4393
匳	-13.44
嗑	-13.44
桒	-13.4403
釅	-13.4403
騋	-13.4404
毿	-13.4405
桉	-13.4405
耑	-13.4406
喏	-13.4407
頟	-13.4408
繦	-13.4409
仳	-13.4412
碻	-13.4414
眯	-13.4416
磕	-13.4417
慬	-13.4417
齬	-13.4417
蝪	-13.4417
喣	-13.4419
㛐	-13.4421
鬘	-13.4421
猘	-13.4423
炕	-13.4524
甪	-13.4532
璬	-13.4534
醽	-13.4535
幛	-13.4535
袨	-13.4537
圬	-13.4538
鍍	-13.4538
撅	-13.4538
忼	-13.4539
謎	-13.4539
捭	-13.4542
藳	-13.4543
搃	-13.4543
刊	-13.4543
齲	-13.4546
巃	-13.4546
鹻	-13.4546
𬗟	-13.4548
鉸	-13.4548
嵳	-13.4549
婬	-13.4551
陥	-13.4553
擦	-13.4554
鄏	-13.4554
鯊	-13.465
褪	-13.4659
漵	-13.4662
纑	-13.4663
喟	-13.4663
櫩	-13.4667
鈹	-13.467
殣	-13.4671
俁	-13.4672
耎	-13.4673
偲	-13.4676
鎁	-13.4676
㴠	-13.4679
姁	-13.4679
轊	-13.468
禨	-13.468
憨	-13.4681
蒢	-13.4683
韐	-13.4686
銃	-13.4796
粔	-13.4802
鴣	-13.4804
洼	-13.4804
璝	-13.4806
杇	-13.4807
齠	-13.4809
妆	-13.4809
鏵	-13.481
噞	-13.481
柅	-13.4811
轘	-13.4811
崚	-13.4813
誖	-13.4813
戬	-13.4813
枇	-13.4813
檛	-13.4814
袜	-13.4814
棬	-13.4816
祋	-13.4819
烖	-13.4824
鴰	-13.4938
廱	-13.494
窌	-13.4941
泅	-13.4941
猒	-13.4942
醍	-13.4943
㔾	-13.4945
嚅	-13.4945
牗	-13.4945
凴	-13.4945
㰖	-13.4948
怦	-13.4948
䊸	-13.4948
泂	-13.4949
鶱	-13.495
罛	-13.495
趦	-13.4951
窀	-13.4956
鰻	-13.4959
剴	-13.4959
爓	-13.4959
飂	-13.496
腒	-13.5065
鄅	-13.5073
郳	-13.5078
㗋	-13.508
痴	-13.5081
樠	-13.5082
奘	-13.5082
笇	-13.5084
屆	-13.5084
抺	-13.5084
鯷	-13.5084
嗢	-13.5085
哢	-13.509
􁂜	-13.5091
旝	-13.5092
蜥	-13.5092
惺	-13.5093
䱹	-13.5094
溘	-13.5099
鋬	-13.5126
嗁	-13.5206
尿	-13.5219
堋	-13.5221
枮	-13.5222
㡳	-13.5222
繂	-13.5224
趋	-13.5224
槥	-13.5227
劼	-13.5228
詗	-13.5229
嗉	-13.5229
誶	-13.5231
泔	-13.5231
峋	-13.5233
刦	-13.5233
䱜	-13.5234
脡	-13.5237
箾	-13.5239
濇	-13.5256
拚	-13.5355
鱻	-13.5357
萐	-13.5357
鵻	-13.5357
駙	-13.5358
鵒	-13.5361
琤	-13.5362
蒹	-13.5363
蔌	-13.5363
煗	-13.5364
漻	-13.5364
褷	-13.5364
猰	-13.5366
劂	-13.5368
豗	-13.5368
傞	-13.5369
扱	-13.5369
剞	-13.5369
簁	-13.537
蜷	-13.537
豶	-13.537
獫	-13.5371
茢	-13.5372
脞	-13.5372
竆	-13.5372
逯	-13.5373
鵽	-13.5374
嶪	-13.5374
頍	-13.5374
价	-13.5376
鑲	-13.5376
嗾	-13.5376
栰	-13.5377
耔	-13.5378
憯	-13.5379
籲	-13.5385
䄍	-13.5386
斶	-13.5396
仵	-13.5499
狨	-13.5503
雈	-13.5504
麇	-13.5504
篛	-13.5504
喃	-13.5509
䳌	-13.5509
靮	-13.5511
拲	-13.5511
驌	-13.5512
旜	-13.5513
礼	-13.5514
甦	-13.5514
頖	-13.5515
蠵	-13.5515
裋	-13.5517
醊	-13.5518
􁇒	-13.5519
愞	-13.5521
遛	-13.5521
熯	-13.5522
翿	-13.5524
緺	-13.5527
剙	-13.5529
澂	-13.5529
繽	-13.5625
嘬	-13.564
􁰎	-13.5646
鸂	-13.5652
攏	-13.5653
璁	-13.5655
碌	-13.5658
嚌	-13.5659
抆	-13.5659
榨	-13.566
蝌	-13.5661
夌	-13.5662
芫	-13.5662
郸	-13.5662
簺	-13.5663
姸	-13.5664
瀌	-13.5665
啐	-13.5668
惏	-13.5668
仿	-13.5668
犠	-13.5669
礟	-13.5672
鳸	-13.5789
㨾	-13.579
菂	-13.5794
醞	-13.5797
鄃	-13.5799
粼	-13.5801
喤	-13.5802
跧	-13.5804
稃	-13.5805
玗	-13.5806
岧	-13.5808
蜧	-13.5808
礚	-13.5809
砆	-13.5809
瘟	-13.581
灩	-13.5811
鏦	-13.5811
緉	-13.5812
閧	-13.5813
楅	-13.5813
嚏	-13.5815
羭	-13.5815
髥	-13.5816
謌	-13.5817
昀	-13.582
癬	-13.5826
蛬	-13.5955
逍	-13.5957
梠	-13.5958
麨	-13.5959
朢	-13.5959
獎	-13.5959
毾	-13.5959
藨	-13.596
茒	-13.5961
敭	-13.5961
玅	-13.5963
禝	-13.5963
蠨	-13.5965
捺	-13.5967
搉	-13.5967
袗	-13.5968
伹	-13.5974
畟	-13.5977
欖	-13.6098
黂	-13.6104
䢵	-13.6106
攲	-13.6108
筤	-13.6109
稭	-13.611
瞫	-13.6111
侏	-13.6112
媱	-13.6112
醻	-13.6113
鍥	-13.6114
棰	-13.6115
鱐	-13.6115
棁	-13.6115
躪	-13.6115
輳	-13.6115
萯	-13.6116
矉	-13.6117
崪	-13.6117
奫	-13.6117
橄	-13.6118
媢	-13.6119
紝	-13.6119
鶤	-13.6119
罭	-13.612
􁌰	-13.612
憗	-13.612
贜	-13.6122
䓤	-13.6123
恟	-13.6128
籊	-13.613
驘	-13.6261
噠	-13.6262
􁋃	-13.6263
㒒	-13.6265
玼	-13.6267
螿	-13.6267
霂	-13.6267
潨	-13.6267
焼	-13.6268
咍	-13.6268
唫	-13.627
鱄	-13.627
碔	-13.6271
儳	-13.6272
黮	-13.6273
屭	-13.6273
艟	-13.6273
鞙	-13.6274
牯	-13.6276
蓧	-13.6276
蹁	-13.6278
煚	-13.6278
雱	-13.6278
袓	-13.6279
篔	-13.6282
靺	-13.6287
褓	-13.6422
嵯	-13.6425
禓	-13.6427
絖	-13.6427
佉	-13.6427
跚	-13.6427
旼	-13.6427
泖	-13.6428
鋈	-13.6428
蜴	-13.6428
傔	-13.6429
躇	-13.6429
裩	-13.643
唤	-13.6432
䴵	-13.6433
輗	-13.6433
擭	-13.6433
胛	-13.6435
躶	-13.6436
墄	-13.6438
帡	-13.6438
昳	-13.6439
嚨	-13.6439
窽	-13.6441
鐐	-13.6442
另	-13.6443
飊	-13.6546
偎	-13.6578
馵	-13.658
豌	-13.6584
袛	-13.6587
鵀	-13.6589
槭	-13.6589
鷓	-13.6591
碕	-13.6591
淶	-13.6592
欀	-13.6594
𡵨	-13.6595
轕	-13.6597
謼	-13.6598
墖	-13.6599
磈	-13.66
崞	-13.66
迍	-13.6603
鰍	-13.6603
𤏡	-13.6606
矴	-13.6608
惽	-13.661
莛	-13.6742
飩	-13.6743
戟	-13.6743
嶴	-13.6744
珌	-13.6744
屮	-13.6744
嫳	-13.6745
嚲	-13.6747
弰	-13.6749
㵸	-13.6749
氲	-13.6749
鋝	-13.675
晼	-13.675
旞	-13.6751
薿	-13.6752
咢	-13.6752
胼	-13.6753
幍	-13.6753
硠	-13.6754
葍	-13.6754
飥	-13.6755
羵	-13.6755
㟧	-13.6756
囧	-13.6756
芩	-13.6757
熇	-13.6757
躚	-13.6758
嶕	-13.6759
湃	-13.6759
螃	-13.6759
杶	-13.676
撣	-13.6761
蛀	-13.6761
佀	-13.6762
麚	-13.6762
㴻	-13.6762
謦	-13.6762
盩	-13.6763
佔	-13.6763
洚	-13.6763
漘	-13.6765
桺	-13.6766
馺	-13.6768
狺	-13.6771
蠺	-13.6911
燖	-13.6912
喓	-13.6913
茰	-13.6915
鶊	-13.6916
鄮	-13.6917
聓	-13.692
軏	-13.692
歈	-13.692
嫰	-13.692
窱	-13.692
瞍	-13.6922
麦	-13.6922
堲	-13.6922
薶	-13.6923
鋗	-13.6924
彴	-13.6925
褵	-13.6925
猢	-13.6925
䄠	-13.6926
螖	-13.6926
斨	-13.6927
蚑	-13.6927
簌	-13.6927
狌	-13.693
站	-13.693
泐	-13.6931
敡	-13.6934
杮	-13.7069
豽	-13.7071
稈	-13.7076
薖	-13.708
嚈	-13.7083
幺	-13.7083
藇	-13.7085
笨	-13.7087
縿	-13.7087
踢	-13.7088
籐	-13.7091
煢	-13.7092
呷	-13.7094
驦	-13.7094
涗	-13.7095
朘	-13.7095
屺	-13.7096
甝	-13.7097
曕	-13.7097
囏	-13.7098
硜	-13.7101
俵	-13.7103
栧	-13.7105
蚝	-13.7105
􁬾	-13.711
賧	-13.7113
珈	-13.7244
嫏	-13.7247
鵄	-13.7255
汸	-13.7255
丫	-13.7257
􁔷	-13.7257
蟆	-13.7258
莝	-13.7258
眦	-13.7258
踽	-13.7259
枤	-13.7259
髤	-13.726
簔	-13.7261
溠	-13.7262
麹	-13.7262
湞	-13.7263
㕙	-13.7264
腵	-13.7264
桅	-13.7264
篘	-13.7264
箜	-13.7265
骫	-13.7265
暏	-13.7265
芄	-13.7266
傃	-13.7266
杅	-13.7267
侄	-13.7267
瓀	-13.7268
壈	-13.7269
㬅	-13.727
襏	-13.727
腿	-13.7271
櫽	-13.7272
椇	-13.7272
疃	-13.7272
蝡	-13.7273
霫	-13.7274
䳺	-13.7419
蘼	-13.7431
㢠	-13.7434
霡	-13.7434
醓	-13.7434
鈃	-13.7435
櫑	-13.7435
恫	-13.7435
蟨	-13.7436
瞠	-13.7436
孃	-13.7437
挨	-13.744
鼫	-13.744
蓨	-13.7441
踠	-13.7441
蟉	-13.7442
觡	-13.7442
鰭	-13.7443
嶒	-13.7443
琡	-13.7443
嗸	-13.7444
斝	-13.7444
㩀	-13.7445
䘵	-13.7446
堧	-13.7447
𦵔	-13.7447
葶	-13.7448
愻	-13.7448
崍	-13.7451
脗	-13.7457
驑	-13.7604
萄	-13.7606
怎	-13.7607
媠	-13.7608
傉	-13.7611
稉	-13.7611
嬋	-13.7612
椓	-13.7615
㚄	-13.7618
糭	-13.7619
圡	-13.7619
氤	-13.762
鷞	-13.762
趐	-13.762
?	-13.7621
楢	-13.7621
宷	-13.7622
轇	-13.7622
悤	-13.7622
龡	-13.7623
嶤	-13.7624
苪	-13.7625
悺	-13.7625
牏	-13.7629
擩	-13.7793
鱅	-13.7793
葴	-13.7793
鷯	-13.7795
枑	-13.7796
溳	-13.7796
惷	-13.7798
菶	-13.7798
箛	-13.7799
泜	-13.78
靿	-13.78
僝	-13.78
緅	-13.7803
璐	-13.7804
萭	-13.7805
眤	-13.7805
柲	-13.7806
鰣	-13.7807
鼄	-13.7808
焭	-13.7811
哷	-13.7812
彷	-13.7812
輛	-13.7812
靼	-13.7812
㝏	-13.7815
䏰	-13.7819
獞	-13.7823
榿	-13.7972
粺	-13.7973
貆	-13.7973
芈	-13.7976
壄	-13.7977
薍	-13.7978
瓝	-13.7979
縯	-13.7979
綪	-13.798
怏	-13.7981
㝛	-13.7981
蓯	-13.7982
搊	-13.7983
艚	-13.7984
岢	-13.7984
耡	-13.7984
荚	-13.7985
􁏩	-13.7985
衊	-13.7986
矼	-13.7987
瘃	-13.799
㘭	-13.799
狢	-13.799
圑	-13.799
岊	-13.7992
訌	-13.7992
怩	-13.7993
㺅	-13.7993
蜘	-13.7993
㣧	-13.7994
觕	-13.7994
瘻	-13.7994
冪	-13.7997
鼜	-13.8159
榧	-13.8159
羚	-13.8163
橢	-13.8164
睍	-13.8164
髕	-13.8165
橰	-13.8166
篣	-13.8166
埵	-13.8166
浿	-13.8166
冔	-13.8167
瞷	-13.8168
蛺	-13.8168
霙	-13.817
㮄	-13.8172
獪	-13.8172
薆	-13.8172
慜	-13.8172
舐	-13.8173
劖	-13.8173
魮	-13.8174
麖	-13.8175
薹	-13.8176
魘	-13.8176
縭	-13.8177
蓻	-13.8179
昝	-13.8179
𣅿	-13.8179
嶻	-13.818
耤	-13.818
丒	-13.8181
翂	-13.8184
噂	-13.8184
㱕	-13.8185
鮞	-13.819
煆	-13.819
弣	-13.8352
黁	-13.8357
鳦	-13.8357
鄚	-13.8358
瑲	-13.8359
跏	-13.836
蔆	-13.8361
筈	-13.8361
灎	-13.8362
蜍	-13.8364
瓔	-13.8364
痂	-13.8364
嗈	-13.8366
躑	-13.8367
哄	-13.8369
蝯	-13.8369
溵	-13.8371
揑	-13.8372
鼮	-13.8372
鵁	-13.8372
蕰	-13.8373
腷	-13.8374
橿	-13.8374
葫	-13.8375
澼	-13.8375
鞸	-13.8375
䆠	-13.8376
謏	-13.8378
圠	-13.8378
曅	-13.8381
胚	-13.8382
●	-13.8443
葽	-13.8546
樏	-13.8546
餛	-13.8548
燉	-13.8549
鎦	-13.8551
㲣	-13.8551
塒	-13.8553
俔	-13.8553
顋	-13.8554
驀	-13.8555
葠	-13.8557
鞿	-13.8557
汊	-13.8561
嗷	-13.8562
螳	-13.8563
餁	-13.8563
溯	-13.8563
蕆	-13.8564
瑙	-13.8566
襫	-13.8566
觩	-13.8566
剟	-13.8568
􁋊	-13.8569
邘	-13.857
竁	-13.8574
膞	-13.8574
踟	-13.8576
畷	-13.8576
墢	-13.858
閌	-13.8589
𪷟	-13.8743
㔻	-13.8748
毼	-13.8751
髣	-13.8752
襭	-13.8753
簑	-13.8754
蟀	-13.8755
滷	-13.8755
憖	-13.8756
筳	-13.8756
蚉	-13.8756
穬	-13.8756
趠	-13.8757
㸙	-13.8759
挏	-13.8759
􁁣	-13.8759
坩	-13.8761
螉	-13.8761
鴳	-13.8762
崌	-13.8762
鶠	-13.8762
頮	-13.8763
紾	-13.8763
犉	-13.8765
皸	-13.8766
眕	-13.8766
逑	-13.8766
帘	-13.8767
淠	-13.8768
鴠	-13.8768
晛	-13.8768
桌	-13.8769
䙱	-13.8769
惄	-13.8769
㠓	-13.8771
呫	-13.8771
蚧	-13.8771
鱘	-13.8772
玹	-13.8773
譊	-13.8773
悻	-13.8774
掔	-13.8775
曏	-13.8782
惝	-13.8782
疝	-13.8784
喀	-13.8786
鏝	-13.8944
裲	-13.8946
髴	-13.8946
秅	-13.8946
􁹙	-13.8949
糉	-13.8952
䙰	-13.8953
妘	-13.8953
䃡	-13.8958
㭬	-13.8961
漰	-13.8961
􁌽	-13.8961
䨴	-13.8961
畺	-13.8961
梐	-13.8961
榎	-13.8962
㴩	-13.8962
廧	-13.8963
軥	-13.8964
囤	-13.8964
穨	-13.8966
洴	-13.8966
蔴	-13.8966
䴢	-13.8966
硌	-13.8968
糸	-13.8968
瓖	-13.8969
穊	-13.897
䀻	-13.8971
譸	-13.8971
玟	-13.8971
缿	-13.8971
眶	-13.8971
咂	-13.8972
鑢	-13.8973
壒	-13.8976
嘑	-13.8976
􁂴	-13.8977
癥	-13.8977
紑	-13.8981
犲	-13.8982
剿	-13.8994
紜	-13.9099
簭	-13.9156
瑳	-13.9163
羱	-13.9164
嘵	-13.9166
轆	-13.9168
慁	-13.9169
仐	-13.9171
萆	-13.9171
葼	-13.9172
蚴	-13.9172
飮	-13.9173
氄	-13.9173
咲	-13.9173
罫	-13.9174
糁	-13.9174
抖	-13.9174
菭	-13.9174
睚	-13.9175
虣	-13.9175
咻	-13.9175
卮	-13.9176
鰈	-13.9176
睅	-13.9176
蓱	-13.9177
墬	-13.9178
罦	-13.9179
滹	-13.9179
傋	-13.918
㲈	-13.9181
悊	-13.9181
蠯	-13.9183
醝	-13.9184
箐	-13.9184
鼩	-13.9185
鍑	-13.9186
欂	-13.9187
撡	-13.9187
俻	-13.919
輮	-13.9191
􁆋	-13.9194
㬌	-13.9375
櫞	-13.9375
螓	-13.9377
酴	-13.9377
鸑	-13.9379
􁊁	-13.938
騵	-13.9381
橧	-13.9381
鷕	-13.9382
沕	-13.9382
恇	-13.9383
萵	-13.9383
緵	-13.9384
姍	-13.9384
挶	-13.9385
虩	-13.9385
㸐	-13.9388
圅	-13.9389
娌	-13.939
霹	-13.939
擻	-13.939
媞	-13.939
艅	-13.9391
狻	-13.9391
胆	-13.9392
邡	-13.9392
澭	-13.9393
鼪	-13.9393
𪠘	-13.9394
犮	-13.9394
嘱	-13.9395
涒	-13.9399
拐	-13.9399
檇	-13.94
愓	-13.9402
甡	-13.9404
粻	-13.9592
靧	-13.9595
濾	-13.9595
輣	-13.9596
刜	-13.9597
鄀	-13.9598
䴏	-13.9599
瑇	-13.9599
泪	-13.9599
縓	-13.96
箵	-13.96
讇	-13.9601
綳	-13.9602
揶	-13.9602
漷	-13.9602
倛	-13.9603
觫	-13.9604
腄	-13.9605
堁	-13.9606
幂	-13.9606
薧	-13.9606
悾	-13.9606
鐓	-13.9606
髖	-13.9607
渻	-13.9607
鉼	-13.9607
瘣	-13.9608
潬	-13.9608
紖	-13.9608
朌	-13.9609
嗃	-13.961
樕	-13.961
篴	-13.961
轗	-13.9611
殚	-13.9611
螈	-13.9611
訿	-13.9613
軆	-13.9614
屼	-13.9614
㓨	-13.9615
𣑽	-13.9615
蝓	-13.9616
稺	-13.9617
鯪	-13.9617
癎	-13.9617
荓	-13.9617
岍	-13.9619
臶	-13.962
茞	-13.98
讕	-13.9801
􁋑	-13.9808
奧	-13.981
瘐	-13.9812
䭔	-13.9816
穭	-13.9817
忞	-13.9818
侻	-13.9819
樲	-13.9819
檗	-13.9821
䟱	-13.9823
纕	-13.9823
猲	-13.9824
謷	-13.9825
啑	-13.9825
蹭	-13.9826
嫪	-13.9826
嬿	-13.9826
柜	-13.9827
櫰	-13.9829
凥	-13.983
騞	-13.983
􁎃	-13.983
妯	-13.9831
漈	-13.9832
鮧	-13.9832
珞	-13.9832
窹	-13.9832
諓	-13.9832
氳	-13.9834
蕺	-13.9834
擫	-13.9835
妮	-13.9835
琭	-13.9836
凂	-13.9836
蚱	-13.9843
靽	-14.0036
蟯	-14.0039
鸕	-14.0044
驒	-14.0044
椏	-14.0046
蝠	-14.0046
鄾	-14.0046
鯫	-14.0046
崈	-14.0049
蛚	-14.005
覉	-14.0051
鴝	-14.0055
喭	-14.0055
㫪	-14.0056
㪺	-14.0056
寠	-14.0057
浼	-14.0059
歂	-14.0059
贒	-14.006
胹	-14.006
㠝	-14.0061
俴	-14.0061
觹	-14.0061
􁀤	-14.0062
䓑	-14.0062
􁂋	-14.0065
痱	-14.0065
嬃	-14.0065
痟	-14.0071
饈	-14.0075
鍧	-14.008
蘪	-14.0251
鬋	-14.0275
紩	-14.0276
滮	-14.0278
痣	-14.0278
絅	-14.0279
椵	-14.0279
獳	-14.028
硉	-14.0281
篌	-14.0282
崢	-14.0284
倜	-14.0284
凘	-14.0284
豜	-14.0285
豦	-14.0285
犦	-14.0286
剕	-14.0286
蝴	-14.0287
䗶	-14.0288
檥	-14.0288
砉	-14.0289
倥	-14.0289
揫	-14.029
淊	-14.0291
嫻	-14.0292
鼾	-14.0292
鯸	-14.0293
痡	-14.0293
迃	-14.0294
殀	-14.0295
􁊀	-14.0295
桄	-14.0295
􁇪	-14.0296
糢	-14.0296
踳	-14.0297
瘈	-14.0298
艣	-14.0299
螵	-14.0305
豷	-14.0306
􁁏	-14.0307
駼	-14.0505
髾	-14.0508
囙	-14.0513
籋	-14.0513
綅	-14.0515
顴	-14.0516
茱	-14.0516
𠢐	-14.0517
鸒	-14.0518
痗	-14.0518
榘	-14.0519
檍	-14.0519
虆	-14.0519
鸜	-14.052
躩	-14.052
琊	-14.0521
笆	-14.0522
鷽	-14.0522
䥶	-14.0522
淈	-14.0522
蹹	-14.0523
鸖	-14.0523
虻	-14.0524
䥴	-14.0525
㦲	-14.0525
湋	-14.0526
䣛	-14.0526
􁸹	-14.0527
濉	-14.0528
筊	-14.0528
霎	-14.0528
呱	-14.0529
呿	-14.053
䳒	-14.0531
飃	-14.0531
鈌	-14.0531
趕	-14.0532
眢	-14.0533
蝃	-14.0534
橜	-14.0534
􁕏	-14.0537
蜢	-14.0539
翜	-14.0539
蹰	-14.0541
腧	-14.0544
𦦨	-14.056
掐	-14.0754
􁝜	-14.0754
佘	-14.0757
𤱔	-14.0758
奡	-14.076
笫	-14.076
濈	-14.0761
幦	-14.0761
氿	-14.0762
鸃	-14.0765
臋	-14.0766
鐮	-14.0768
輹	-14.0768
䏶	-14.0769
欓	-14.0769
衵	-14.077
嫘	-14.0771
嶭	-14.0771
䱥	-14.0772
鶋	-14.0773
舵	-14.0773
笲	-14.0773
橤	-14.0774
鄹	-14.0774
橚	-14.0774
㽅	-14.0775
衜	-14.0776
樨	-14.0777
瘝	-14.0779
攟	-14.0781
􁞗	-14.0784
萟	-14.0786
桕	-14.0787
獗	-14.0792
柶	-14.0796
■	-14.0838
娙	-14.0992
䳇	-14.1005
祴	-14.1005
匼	-14.1005
哿	-14.1006
緎	-14.1009
槬	-14.1011
釳	-14.1011
貀	-14.1011
魈	-14.1013
髆	-14.1013
搒	-14.1015
鵔	-14.1015
􁀒	-14.1017
鸀	-14.1018
鱏	-14.1018
揕	-14.1019
鴘	-14.1019
䔿	-14.1022
諟	-14.1022
郲	-14.1022
晥	-14.1023
蓲	-14.1023
壃	-14.1023
楦	-14.1023
噰	-14.1024
阤	-14.1024
椌	-14.1024
蓘	-14.1024
軑	-14.1024
豖	-14.1024
挃	-14.1027
㧾	-14.1027
穈	-14.1027
蟧	-14.1028
羾	-14.1031
礮	-14.1033
珓	-14.1035
鯋	-14.1042
􁁆	-14.1058
嘍	-14.1258
䵄	-14.1259
梜	-14.1261
穋	-14.1264
鬉	-14.1264
蔫	-14.1265
𢾗	-14.1265
齩	-14.1266
䝁	-14.1267
弨	-14.1268
鋙	-14.1269
頏	-14.1269
磶	-14.1269
罣	-14.127
圂	-14.1271
滫	-14.1272
谼	-14.1273
鄐	-14.1274
勠	-14.1274
錙	-14.1275
嫮	-14.1275
卄	-14.1276
駬	-14.1276
鮀	-14.1276
䥥	-14.1276
悢	-14.1277
渒	-14.1277
靬	-14.1277
窐	-14.1277
嵰	-14.1277
𧦬	-14.1277
祑	-14.1279
薅	-14.1279
陊	-14.1279
鮝	-14.1281
满	-14.1281
䱇	-14.1282
骩	-14.1283
偞	-14.1283
紽	-14.1284
疐	-14.1284
摟	-14.1285
􁅾	-14.1285
梡	-14.1286
蜉	-14.1286
蠚	-14.1286
偫	-14.1286
齦	-14.1287
敓	-14.1288
檦	-14.1288
䠠	-14.1293
耬	-14.1294
憃	-14.1523
猕	-14.1524
斄	-14.1525
趹	-14.1525
䓻	-14.1525
餫	-14.153
佋	-14.1531
吚	-14.1531
鞟	-14.1531
􁚫	-14.1531
厹	-14.1531
欸	-14.1532
佪	-14.1532
棡	-14.1532
鸐	-14.1533
麢	-14.1533
垝	-14.1534
酟	-14.1534
芧	-14.1534
鼒	-14.1535
􁀳	-14.1535
􁂪	-14.1536
硾	-14.1538
䍽	-14.1538
窫	-14.1539
黳	-14.1539
搰	-14.1539
䭀	-14.1539
篦	-14.154
踡	-14.154
憀	-14.1541
溓	-14.1541
醹	-14.1542
閷	-14.1543
靉	-14.1543
匍	-14.1543
莨	-14.1544
襧	-14.1544
嘂	-14.1544
嵂	-14.1545
䔍	-14.1545
旤	-14.1547
誎	-14.1548
􁘠	-14.1548
戭	-14.1548
􁑿	-14.155
蚰	-14.156
縌	-14.1561
圊	-14.1566
儤	-14.1567
甂	-14.1787
貜	-14.1792
酘	-14.1793
槮	-14.1795
鵪	-14.1795
搓	-14.1797
贋	-14.1799
鵊	-14.1799
鞗	-14.18
㶏	-14.18
貒	-14.18
骻	-14.1801
騢	-14.1801
蟋	-14.1801
歅	-14.1803
毨	-14.1803
駏	-14.1804
毡	-14.1805
晜	-14.1805
揃	-14.1806
麐	-14.1806
㕁	-14.1807
邗	-14.1807
窞	-14.1807
璺	-14.1808
鄋	-14.1808
洭	-14.1809
傜	-14.1809
敧	-14.181
𫾣	-14.181
餖	-14.1812
淟	-14.1812
䬼	-14.1812
譓	-14.1813
𢡟	-14.1813
鷔	-14.1813
榣	-14.1813
揳	-14.1813
䱐	-14.1814
殼	-14.1814
岝	-14.1815
愐	-14.1815
慌	-14.1815
挻	-14.1815
旓	-14.1816
樑	-14.1816
㢸	-14.1816
禒	-14.1817
􁀨	-14.1818
㩜	-14.1818
鰂	-14.1818
犵	-14.1818
㵎	-14.1819
浃	-14.182
碟	-14.182
趪	-14.1821
蹛	-14.1821
蠪	-14.1822
瑝	-14.1822
[...]
