<unk>	0
<s>	0
</s>	0
之	-4.18005
以	-4.69218
而	-4.84168
/	-4.89733
為	-4.94084
其	-5.17432
者	-5.24165
也	-5.25917
有	-5.26187
(	-5.40574
公	-5.42899
於	-5.44586
不	-5.45079
人	-5.49411
)	-5.59376
曰	-5.60458
)(	-5.63259
則	-5.77855
與	-5.80142
自	-5.82966
一	-5.83451
無	-5.86059
至	-5.88161
上	-5.89038
時	-5.92156
事	-5.95113
大	-6.01737
言	-6.0332
王	-6.05175
子	-6.13334
中	-6.13607
所	-6.1363
又	-6.16264
皆	-6.16579
及	-6.18667
知	-6.18866
行	-6.19016
矣	-6.22325
得	-6.23078
如	-6.24162
在	-6.25402
復	-6.27682
▁	-6.2778
是	-6.333
見	-6.34873
此	-6.35378
先生	-6.36582
亦	-6.37002
使	-6.37086
乃	-6.37585
出	-6.37633
故	-6.39684
然	-6.41153
道	-6.44515
氏	-6.46615
明	-6.47101
非	-6.48289
即	-6.48324
于	-6.48799
官	-6.49368
兵	-6.52262
後	-6.52952
三	-6.53837
心	-6.54169
等	-6.55044
當	-6.57231
書	-6.58374
遂	-6.58799
山	-6.58961
文	-6.59198
用	-6.59438
今	-6.59653
乎	-6.59852
從	-6.60776
欲	-6.62165
臣	-6.6313
已	-6.63272
生	-6.63967
歸	-6.64474
可	-6.64517
命	-6.65614
多	-6.6585
下	-6.66724
正	-6.66953
相	-6.67039
必	-6.67533
學	-6.67765
名	-6.6835
令	-6.68835
將	-6.68997
州	-6.69037
若	-6.70176
入	-6.71041
安	-6.71869
方	-6.72614
理	-6.73542
孫	-6.75209
二	-6.75954
民	-6.76596
天	-6.76805
善	-6.77168
成	-6.77851
同	-6.78382
請	-6.78852
進	-6.79616
謂	-6.80406
徳	-6.82794
立	-6.83438
國	-6.84745
字	-6.85129
來	-6.87743
焉	-6.88072
初	-6.88096
因	-6.88387
陳	-6.88905
日	-6.88949
聞	-6.89803
軍	-6.90925
雖	-6.91616
能	-6.91891
未	-6.92029
常	-6.92123
且	-6.92502
去	-6.92534
死	-6.92549
世	-6.92971
何	-6.94157
長	-6.94267
張	-6.94429
詔	-6.9467
禮	-6.94776
君	-6.94898
問	-6.96157
處	-6.96196
卒	-6.97352
吾	-6.97553
家	-6.99004
守	-6.99243
我	-6.99715
居	-6.99854
意	-6.99924
圖	-7.00081
李	-7.00376
爾	-7.0107
定	-7.0111
作	-7.01298
先	-7.01799
實	-7.03455
本	-7.0347
南	-7.03484
任	-7.03719
外	-7.04496
既	-7.04801
馬	-7.05038
元	-7.05251
平	-7.07063
法	-7.07215
克	-7.07437
四	-7.08104
前	-7.08848
傳	-7.09022
論	-7.09044
重	-7.09103
議	-7.09109
惟	-7.09632
諸	-7.09679
分	-7.09878
義	-7.10361
不可	-7.10612
云	-7.107
賊	-7.11457
城	-7.13173
始	-7.13475
地	-7.1409
士	-7.14256
天下	-7.1437
盡	-7.14459
齊	-7.14724
舉	-7.15662
取	-7.16291
師	-7.16481
治	-7.16507
甚	-7.16588
和	-7.16769
以為	-7.17276
通	-7.1731
起	-7.17354
達	-7.17848
或	-7.18082
原	-7.18396
易	-7.18587
數	-7.18594
授	-7.18722
金	-7.1876
思	-7.18797
五	-7.18888
水	-7.19384
由	-7.20409
夫	-7.20438
求	-7.21023
發	-7.21537
都	-7.2181
特	-7.22218
拜	-7.22415
/)	-7.22458
帝	-7.22467
布	-7.2253
海	-7.22542
不能	-7.23273
過	-7.23962
宜	-7.24611
石	-7.24646
親	-7.25268
清	-7.26208
武	-7.26282
年	-7.26503
稱	-7.27239
除	-7.27462
身	-7.27838
益	-7.28156
劉	-7.28213
耳	-7.28318
性	-7.28338
志	-7.28554
縣	-7.28733
還	-7.2915
深	-7.29173
直	-7.29502
奏	-7.29745
間	-7.30432
德	-7.30464
衆	-7.31175
内	-7.31198
古	-7.3125
朝	-7.31262
遷	-7.31434
氣	-7.31728
賜	-7.3191
獨	-7.32832
宗	-7.32846
西	-7.33304
周	-7.33535
語	-7.34566
門	-7.35096
合	-7.35799
信	-7.35912
改	-7.3687
原任	-7.3705
修	-7.38064
哉	-7.38185
應	-7.38227
色	-7.39269
阿	-7.39638
納	-7.39672
嘗	-7.39949
東	-7.40259
主	-7.4057
父	-7.40913
凡	-7.40995
髙	-7.41215
固	-7.4144
著	-7.4172
俱	-7.42022
逺	-7.42159
力	-7.42313
兼	-7.42378
加	-7.42487
經	-7.42609
賢	-7.42751
物	-7.42842
保	-7.42992
少	-7.43071
㑹	-7.43507
誠	-7.43746
仁	-7.43999
漢	-7.4424
封	-7.44749
樂	-7.45024
動	-7.45481
説	-7.45492
兩	-7.45627
其子	-7.45714
次	-7.45715
興	-7.46012
難	-7.46094
白	-7.46259
府	-7.46375
濟	-7.46968
政	-7.46981
爲	-7.46996
風	-7.47075
遣	-7.47171
觀	-7.47985
小	-7.47989
忠	-7.49135
猶	-7.49322
便	-7.49813
降	-7.50246
辭	-7.51325
章	-7.51447
黄	-7.5164
好	-7.51774
泰	-7.52015
受	-7.52102
尚	-7.52227
集	-7.529
坐	-7.5323
功	-7.53643
神	-7.53902
卿	-7.53986
服	-7.54149
林	-7.543
吏	-7.54348
止	-7.54403
召	-7.54665
陽	-7.54666
格	-7.54727
新	-7.55681
萬	-7.56184
往	-7.57084
異	-7.57133
終	-7.57135
致	-7.58091
所以	-7.58558
真	-7.58865
屬	-7.59215
江	-7.59217
六	-7.59378
留	-7.59426
宋	-7.59796
伯	-7.60304
舊	-7.60626
制	-7.60691
聖	-7.60928
就	-7.61146
食	-7.61388
朝廷	-7.61707
北	-7.61742
敬	-7.62447
近	-7.63754
光	-7.64223
計	-7.64571
敵	-7.64735
穆	-7.65039
解	-7.66044
福	-7.66199
如此	-7.66339
要	-7.66533
楊	-7.66822
節	-7.66831
老	-7.66938
更	-7.67191
開	-7.67215
各	-7.67251
失	-7.67703
不得	-7.68174
考	-7.68444
吳	-7.68824
詩	-7.69284
教	-7.69532
九	-7.6982
晉	-7.69897
率	-7.70134
號	-7.70478
再	-7.70653
視	-7.71023
戰	-7.71422
病	-7.7155
郡	-7.71723
流	-7.71846
察	-7.71858
望	-7.71872
所謂	-7.71902
陛下	-7.7208
廣	-7.72591
謀	-7.72743
司	-7.72809
首	-7.72817
遇	-7.72866
河	-7.72885
田	-7.73146
寧	-7.73291
登	-7.73301
但	-7.73764
置	-7.74298
素	-7.74346
罪	-7.74416
對	-7.74527
百	-7.74958
口	-7.75396
鄉	-7.75436
建	-7.75705
而不	-7.75851
絶	-7.76072
亂	-7.76213
蘇	-7.76383
利	-7.7663
聲	-7.77155
職	-7.78182
祖	-7.78311
隨	-7.79109
羅	-7.79242
嚴	-7.79512
奉	-7.79603
悉	-7.80268
果	-7.80762
耶	-7.80789
學者	-7.80894
邊	-7.80921
體	-7.80923
省	-7.81337
魯	-7.81357
别	-7.8148
母	-7.81514
尋	-7.81584
具	-7.81697
務	-7.81895
部	-7.81908
愛	-7.81916
罷	-7.8202
許	-7.82189
惡	-7.82891
退	-7.83045
精	-7.83093
木	-7.83238
備	-7.83588
每	-7.83614
恩	-7.83803
良	-7.83837
史	-7.83931
才	-7.84396
反	-7.84598
疏	-7.84629
選	-7.84646
度	-7.84758
化	-7.84954
唐	-7.84974
予	-7.85225
權	-7.85257
龍	-7.85708
朕	-7.8571
代	-7.85817
嵗	-7.85946
極	-7.85998
里	-7.86056
並	-7.86161
巴	-7.86182
貴	-7.86196
三年	-7.86439
富	-7.86582
侯	-7.86813
疑	-7.8704
位	-7.87102
養	-7.87497
攻	-7.87645
豈	-7.87772
存	-7.8801
贈	-7.8808
地方	-7.88282
引	-7.88384
左	-7.88541
厚	-7.88614
恐	-7.88919
雲	-7.8924
楚	-7.89407
疾	-7.89903
不知	-7.9024
諭	-7.90339
尤	-7.90464
久	-7.90651
額	-7.90807
推	-7.90835
喜	-7.90912
博	-7.91002
領	-7.91049
孝	-7.91436
變	-7.9147
告	-7.91755
私	-7.91943
雅	-7.9209
趙	-7.92162
端	-7.92242
殺	-7.9229
亡	-7.92335
八	-7.92356
顯	-7.92461
襲	-7.92747
按	-7.92761
吉	-7.92828
路	-7.92896
識	-7.92944
乞	-7.92992
敗	-7.93032
交	-7.931
崇	-7.93252
比	-7.93526
顧	-7.93766
春	-7.9394
全	-7.94098
念	-7.94853
會	-7.94881
載	-7.94902
七	-7.95897
遺	-7.96092
元孫	-7.96103
葢	-7.96112
記	-7.96445
永	-7.96489
持	-7.96568
庫	-7.96827
薦	-7.97148
順	-7.97183
廟	-7.97308
附	-7.97488
轉	-7.97808
營	-7.97874
大臣	-7.97968
移	-7.97987
汝	-7.98332
他	-7.9853
勒	-7.98536
承	-7.99431
情	-7.99513
追	-7.99616
女	-7.99856
太	-8.00086
彼	-8.00128
弟	-8.00208
鎮	-8.00459
表	-8.00562
録	-8.00957
謝	-8.01031
錫	-8.01199
竒	-8.01223
簡	-8.01468
伊	-8.02263
給	-8.02375
不敢	-8.02511
錢	-8.02771
徐	-8.02876
繼	-8.03032
願	-8.03135
現任	-8.0334
臨	-8.03535
勿	-8.03733
秦	-8.0406
設	-8.0411
擢	-8.04297
二年	-8.04852
於是	-8.05107
某	-8.05161
右	-8.05338
恭	-8.05504
宫	-8.05805
而已	-8.05886
約	-8.05911
夜	-8.05999
向	-8.06358
感	-8.06437
被	-8.06491
胡	-8.06492
威	-8.06888
十	-8.06999
餘	-8.07776
衛	-8.07808
足	-8.07825
陞	-8.0789
廢	-8.08224
哈	-8.08333
塞	-8.08551
勞	-8.0856
仲	-8.08665
充	-8.08772
幸	-8.0887
第	-8.09054
夏	-8.09096
玉	-8.09109
執	-8.09159
華	-8.09224
曽孫	-8.09417
手	-8.09482
業	-8.09634
土	-8.09769
鄭	-8.09811
朱	-8.09817
列	-8.0987
村	-8.1025
岱	-8.10356
指	-8.10908
君子	-8.1092
盛	-8.10951
尊	-8.11006
校	-8.11103
曹	-8.11333
蓋	-8.11455
昭	-8.11842
斯	-8.12109
報	-8.12166
獻	-8.1218
高	-8.1249
臺	-8.128
赴	-8.12869
陵	-8.1288
破	-8.12902
魏	-8.13278
習	-8.13345
仍	-8.13443
英	-8.13574
月	-8.14441
者也	-8.14707
延	-8.14826
容	-8.14868
共	-8.1561
勝	-8.15651
莫	-8.15697
據	-8.15975
歴	-8.16133
堂	-8.16177
須	-8.1674
御史	-8.16846
儀	-8.1687
禁	-8.17039
補	-8.17202
塔	-8.1726
音	-8.17832
叔	-8.17981
積	-8.18122
適	-8.18135
宣	-8.18365
紀	-8.18422
窮	-8.18923
可以	-8.18933
景	-8.18938
未嘗	-8.18955
将	-8.18991
嘉	-8.19078
之學	-8.19139
殿	-8.19161
滿	-8.19166
屯	-8.1918
敏	-8.19638
郎	-8.19638
累	-8.20029
調	-8.20098
尚書	-8.20852
輕	-8.21115
無所	-8.21528
幾	-8.21587
連	-8.21679
御	-8.21698
愈	-8.21724
典	-8.21884
講	-8.22734
美	-8.23088
赫	-8.23209
鄂	-8.23229
進士	-8.23248
說	-8.23419
只	-8.2352
擊	-8.23573
韓	-8.23678
原任驍騎校	-8.23727
一日	-8.2377
待	-8.23882
盖	-8.23923
衣	-8.24109
覺	-8.24255
元年	-8.24284
舍	-8.24338
散	-8.24419
辨	-8.24502
梁	-8.24675
有所	-8.24836
烏	-8.24903
闗	-8.24997
静	-8.25095
急	-8.25279
靈	-8.25295
原任䕶軍校	-8.25352
謹	-8.25534
頭	-8.25573
序	-8.25653
强	-8.25811
邑	-8.25827
扵	-8.25853
拉	-8.25871
倫	-8.26036
隂	-8.26109
免	-8.26469
試	-8.26555
狀	-8.26845
撫	-8.26928
公曰	-8.27186
徙	-8.27209
目	-8.27473
逆	-8.2751
賞	-8.27613
聖人	-8.27641
憂	-8.27666
責	-8.27859
祠	-8.28278
讀	-8.28356
造	-8.28613
皇	-8.28685
怒	-8.28774
蜀	-8.29028
征	-8.29182
懼	-8.29272
却	-8.29349
錄	-8.29368
科	-8.29442
籍	-8.2945
迎	-8.2949
草	-8.2978
𫝊	-8.29784
舟	-8.29901
五年	-8.29908
工夫	-8.29942
車	-8.30042
天子	-8.30083
呉	-8.30149
侍	-8.30204
泉	-8.30716
族	-8.30772
戒	-8.30773
最	-8.30847
越	-8.30887
朱子	-8.30927
期	-8.31099
弗	-8.31303
藏	-8.31458
器	-8.31467
索	-8.31691
質	-8.32022
根	-8.32044
空	-8.32142
孟	-8.32304
獄	-8.32414
咸	-8.32708
聽	-8.33161
詳	-8.33227
慶	-8.33342
春秋	-8.33359
兮	-8.33414
之心	-8.33555
黨	-8.33576
曽	-8.33802
屢	-8.33819
帥	-8.34084
并	-8.34308
偽	-8.3465
棄	-8.34671
榮	-8.34878
慮	-8.34949
現	-8.34984
左右	-8.35113
来	-8.35197
京師	-8.35235
伏	-8.3543
監	-8.35561
明年	-8.35638
統	-8.35874
負	-8.36151
斷	-8.36363
獲	-8.36385
京	-8.36505
齋	-8.36775
切	-8.36963
昌	-8.37137
四年	-8.37364
后	-8.37488
資	-8.37593
讀書	-8.37645
逹	-8.37666
曰吾	-8.3767
牧	-8.37678
離	-8.37779
慎	-8.37869
息	-8.37974
儒	-8.38158
形	-8.38543
虚	-8.38726
㫖	-8.38742
專	-8.38856
亮	-8.39036
憲	-8.39037
孔子	-8.3907
溪	-8.39125
悟	-8.39513
密	-8.39785
送	-8.39796
友	-8.39994
飛	-8.40205
羣	-8.40268
懐	-8.40425
青	-8.40529
而後	-8.40549
沙	-8.40811
費	-8.40977
喀	-8.41037
希	-8.41086
到	-8.41103
渾	-8.41127
叛	-8.41192
喪	-8.41335
闕	-8.41357
游	-8.41411
擇	-8.41414
昔	-8.41482
爵	-8.41608
禄	-8.4169
訓	-8.41738
總	-8.41764
似	-8.41767
謂之	-8.41828
輔	-8.41912
收	-8.41925
微	-8.42053
將軍	-8.42154
面	-8.42332
其孫	-8.42516
曾孫	-8.42542
副	-8.42709
犯	-8.42719
宻	-8.42787
温	-8.42878
俗	-8.42916
隆	-8.42956
智	-8.43019
運	-8.43319
巳	-8.4337
邪	-8.43404
珠	-8.43611
害	-8.4367
騎	-8.43681
卷	-8.44013
之間	-8.44066
撰	-8.44214
柱	-8.44222
敢	-8.44429
苦	-8.44515
冦	-8.44648
客	-8.44688
勢	-8.4489
走	-8.45067
機	-8.45214
澤	-8.45324
余	-8.45448
避	-8.45482
瑚	-8.4551
輒	-8.45596
畏	-8.45966
孤	-8.45981
郭	-8.46043
為之	-8.46114
祭	-8.46229
良知	-8.46244
蔡	-8.46284
賦	-8.46404
舒	-8.46638
滅	-8.4671
依	-8.46935
學士	-8.47514
瑪	-8.4757
顔	-8.47632
嗣	-8.47721
秋	-8.47722
康	-8.47875
雜	-8.47906
諫	-8.47914
川	-8.4804
人心	-8.48185
千	-8.48198
其所	-8.48525
刑	-8.48631
回	-8.49579
放	-8.49589
誅	-8.49601
至於	-8.49771
對曰	-8.49821
碑	-8.49953
傷	-8.49986
虛	-8.50023
葉	-8.50174
寺	-8.50315
援	-8.5033
工	-8.50503
惠	-8.50514
室	-8.50741
圍	-8.50798
夷	-8.50967
趨	-8.51021
洪	-8.51173
寛	-8.51238
仕	-8.51463
呼	-8.51572
頗	-8.51839
祀	-8.52254
稍	-8.52278
示	-8.52293
勇	-8.52327
釋	-8.52564
允	-8.52564
商	-8.52608
忘	-8.52617
不足	-8.52657
徒	-8.52696
甫	-8.5271
酒	-8.52951
火	-8.52987
揚	-8.52996
四世孫	-8.53032
曾	-8.53205
勸	-8.5333
歲	-8.53345
聚	-8.5335
兄	-8.53476
施	-8.53512
徃	-8.53657
竟	-8.5382
勤	-8.54063
孔	-8.54194
助	-8.54284
卒其子	-8.54409
象	-8.5454
訥	-8.54548
遊	-8.54557
危	-8.54647
那	-8.54751
謁	-8.54778
之後	-8.54991
松	-8.55086
哀	-8.55091
關	-8.55239
操	-8.55345
之所	-8.55348
答	-8.55537
薄	-8.55599
偕	-8.55737
畢	-8.55997
六年	-8.56039
振	-8.56222
寳	-8.56262
宰相	-8.56295
休	-8.56321
患	-8.56483
程	-8.56573
廷	-8.56628
不為	-8.56882
天地	-8.56891
之意	-8.56908
刻	-8.56951
堅	-8.57237
䇿	-8.5724
人也	-8.57352
忽	-8.57384
曰此	-8.5747
佛	-8.57559
怨	-8.57595
之子	-8.57727
旗	-8.57741
姓	-8.57815
條	-8.57917
差	-8.57967
申	-8.58358
尼	-8.58388
杜	-8.5847
維	-8.58629
市	-8.59005
佐	-8.59089
了	-8.59278
源	-8.59352
編	-8.59416
不及	-8.59533
八年	-8.59725
什	-8.59775
普	-8.59894
敦	-8.60127
野	-8.6035
莊	-8.60436
詞	-8.60495
結	-8.60575
肅	-8.60763
原任筆帖式	-8.60955
何以	-8.61012
其後	-8.61033
落	-8.61261
末	-8.61322
漸	-8.61631
然後	-8.61636
隠	-8.61737
純	-8.61741
茂	-8.62018
)○	-8.62092
宿	-8.62221
述	-8.62335
院	-8.62347
托	-8.62534
便是	-8.62725
季	-8.62815
役	-8.62908
厯	-8.6317
奪	-8.63282
偏	-8.63352
震	-8.63416
署	-8.63733
筆	-8.63787
委	-8.63832
彦	-8.63841
茍	-8.63895
甲	-8.64157
境	-8.64272
決	-8.64545
户	-8.64618
馳	-8.64626
蘭	-8.64837
爭	-8.64967
丹	-8.65053
燕	-8.6534
吕	-8.65404
丁	-8.65649
剛	-8.65782
斬	-8.65782
防	-8.65802
之言	-8.66032
班	-8.66227
七年	-8.66471
湖	-8.6652
妻	-8.66838
襲職	-8.66872
大夫	-8.66918
傅	-8.66948
早	-8.66971
寵	-8.66995
掌	-8.67419
之功	-8.67467
沈	-8.67561
於此	-8.67614
妄	-8.67629
庭	-8.67745
遣使	-8.67817
靜	-8.67834
階	-8.67888
牛	-8.67893
嶺	-8.68027
范	-8.68114
誰	-8.68197
之説	-8.68289
之道	-8.68496
優	-8.68536
葬	-8.6861
畧	-8.68667
河南	-8.68854
假	-8.68855
孟子	-8.68955
三月	-8.6913
縱	-8.69361
禪	-8.69372
只是	-8.69403
現任筆帖式	-8.69677
十年	-8.69801
半	-8.70052
太宗	-8.70243
虎	-8.70604
禍	-8.70624
陸	-8.70693
例	-8.70839
糧	-8.70859
貧	-8.70904
可謂	-8.71123
接	-8.71151
一人	-8.71187
救	-8.71199
未幾	-8.71291
篇	-8.71303
伐	-8.71529
貞	-8.71573
以來	-8.71686
國家	-8.71744
圗	-8.72128
之士	-8.72137
畫	-8.72382
夫人	-8.72398
閣	-8.72429
聞之	-8.72467
逐	-8.72629
今日	-8.72674
從之	-8.72761
横	-8.72894
乆	-8.73035
未有	-8.73119
督	-8.73122
承襲	-8.73193
米	-8.73252
俊	-8.73258
寜	-8.73286
一時	-8.73371
乾	-8.73383
冠	-8.73403
丞相	-8.73428
判	-8.73721
否	-8.74067
邦	-8.74087
䕶	-8.74143
庶	-8.74152
由是	-8.74234
誣	-8.74254
招	-8.74306
毎	-8.74351
係	-8.74364
竊	-8.74509
天理	-8.74556
照	-8.74681
有司	-8.74723
閩	-8.74888
管	-8.74894
夀	-8.75075
原任佐領	-8.75086
違	-8.75218
徴	-8.75219
抑	-8.75332
岳	-8.75442
詣	-8.75667
介	-8.75689
愚	-8.75692
財	-8.75782
者皆	-8.75991
致仕	-8.75994
自是	-8.761
貢	-8.76223
現任驍騎校	-8.7651
界	-8.7656
冬	-8.76584
衡	-8.76623
薩	-8.76638
篤	-8.76731
奔	-8.76795
談	-8.76886
㣲	-8.76897
毋	-8.77023
䝉	-8.77045
現任䕶軍校	-8.77087
量	-8.7711
謙	-8.7746
折	-8.77657
殊	-8.77911
其言	-8.77952
劾	-8.78365
人之	-8.78383
曲	-8.78452
淵	-8.78675
墓	-8.79003
江西	-8.79052
革	-8.79144
又曰	-8.79203
衞	-8.79206
陜西	-8.79219
卓	-8.79387
乘	-8.79412
董	-8.79447
諸將	-8.79467
至是	-8.79481
鼎	-8.79573
靖	-8.79606
俾	-8.79761
翁	-8.7981
偉	-8.79874
均	-8.79874
尉	-8.79905
知其	-8.80162
辟	-8.80304
如何	-8.80326
四方	-8.80421
僧	-8.80437
南京	-8.80474
乗	-8.80504
的	-8.80801
貝勒	-8.80908
太子	-8.81258
險	-8.81275
脩	-8.81396
類	-8.81597
當時	-8.81675
小人	-8.8198
大軍	-8.81986
討	-8.8205
占	-8.82052
己	-8.82241
貫	-8.82395
浮	-8.82426
亭	-8.82431
自然	-8.82489
雨	-8.82544
勲	-8.82649
黙	-8.82661
晚	-8.82713
藩	-8.83062
銘	-8.83455
之孫	-8.83472
覆	-8.83481
増	-8.83517
參	-8.83567
之事	-8.83934
掠	-8.84004
誤	-8.84061
魚	-8.84075
星	-8.84095
式	-8.84303
仰	-8.84389
浚	-8.8447
丘	-8.84542
札	-8.84958
晏子	-8.85016
尹	-8.85104
兄弟	-8.85211
决	-8.85239
賀	-8.8524
斥	-8.85307
八月	-8.85402
亟	-8.8541
讓	-8.85412
争	-8.85418
豐	-8.85459
百姓	-8.85464
屈	-8.85579
升	-8.85621
困	-8.85799
略	-8.85806
花	-8.8601
賴	-8.86298
子孫	-8.86329
奮	-8.86411
策	-8.86654
預	-8.8668
抵	-8.86735
無不	-8.86736
寨	-8.86855
多爾濟	-8.86929
遁	-8.87087
笑	-8.87144
親王	-8.87172
聖賢	-8.8721
循	-8.87244
烈	-8.87261
講學	-8.87463
仁宗	-8.87533
躬	-8.87667
效	-8.87698
駐	-8.87839
上曰	-8.87925
▁(	-8.87946
驚	-8.88077
邉	-8.88099
恨	-8.88161
言之	-8.88456
襄	-8.88489
奸	-8.88489
住	-8.88555
捕	-8.886
潛	-8.88651
孰	-8.88789
遽	-8.88887
古人	-8.8891
門人	-8.88976
貪	-8.89075
二人	-8.89156
諸生	-8.89253
不復	-8.89469
題	-8.89502
𩔖	-8.89554
飲	-8.89594
啟	-8.89644
十月	-8.89795
暴	-8.89819
不以	-8.89863
唯	-8.89956
况	-8.8998
雄	-8.90071
誦	-8.90602
規	-8.90681
之地	-8.90693
船	-8.90725
旦	-8.90753
夢	-8.90792
干	-8.90825
案	-8.90926
陷	-8.91038
遜	-8.91125
垂	-8.91139
懷	-8.91142
侵	-8.91178
夫子	-8.91266
吏部	-8.91274
熟	-8.91308
材	-8.9131
知之	-8.91514
毁	-8.9179
不同	-8.92058
肆	-8.92095
是以	-8.92414
必有	-8.92425
先是	-8.92646
逮	-8.92765
台吉	-8.92808
其家	-8.92921
中書	-8.92944
陽明	-8.92994
賚	-8.9301
太守	-8.93097
輩	-8.93137
虞	-8.93153
綱	-8.9321
寒	-8.93329
足以	-8.9335
扎	-8.93452
山東	-8.93513
寶	-8.93653
喇	-8.93696
謨	-8.93836
訪	-8.94348
久之	-8.94413
而無	-8.94423
席	-8.94424
付	-8.94439
倚	-8.94446
兒	-8.94453
看	-8.94479
厲	-8.94545
執政	-8.94617
弊	-8.9468
逸	-8.94762
勉	-8.94827
審	-8.94837
九年	-8.94913
巻	-8.95171
欽	-8.95208
鼓	-8.95243
衰	-8.95337
庸	-8.95534
蔽	-8.95697
來歸	-8.957
是時	-8.95704
亷	-8.95927
履	-8.95969
第一	-8.95999
樹	-8.9604
天下之	-8.96137
橋	-8.96202
有功	-8.96226
也今	-8.96316
兼佐領	-8.96382
檄	-8.96516
諱	-8.96577
細	-8.96622
𨽻	-8.9666
築	-8.96866
弼	-8.96871
戎	-8.96886
妾	-8.96899
謫	-8.97165
此心	-8.97171
慕	-8.97409
射	-8.97442
五月	-8.97444
𢎞	-8.97726
論曰	-8.97727
其事	-8.97763
四月	-8.97914
父母	-8.98085
盜	-8.98252
本體	-8.98419
陶	-8.98643
律	-8.98909
歌	-8.99114
六月	-8.99221
碩	-8.99293
嵩	-8.99393
銀	-8.99466
壯	-8.99486
得其	-8.99501
淮	-8.99536
原任員外郎	-8.99537
聴	-8.99545
内外	-8.99576
九月	-8.99677
隱	-8.99722
徹	-8.99854
投	-9.00142
徵	-9.00298
注	-9.00464
佳	-9.00584
擒	-9.00638
太后	-9.00687
館	-9.00689
以此	-9.00757
宏	-9.00793
公之	-9.00804
之時	-9.00987
卜	-9.01301
貶	-9.01483
五世孫	-9.0165
洛	-9.01753
佳氏	-9.01888
噶爾丹	-9.02104
文公	-9.02135
谷	-9.0217
二月	-9.02183
姑	-9.0244
鼐	-9.02689
究	-9.02773
寢	-9.03194
已而	-9.03386
鹽	-9.03702
之人	-9.03753
樓	-9.03754
僅	-9.03841
逃	-9.03899
秉	-9.04054
一切	-9.04095
姦	-9.04143
粟	-9.04242
原任防禦	-9.04359
太祖	-9.04468
不然	-9.04472
上下	-9.04706
洞	-9.05066
不過	-9.05165
娶	-9.05172
擬	-9.05185
原任郎中	-9.05209
十一月	-9.053
儲	-9.05375
諾	-9.05425
纔	-9.05444
禮部	-9.05517
兆	-9.05667
格物	-9.05699
祿	-9.05757
其心	-9.05781
痛	-9.05791
雍	-9.05936
故事	-9.0594
金人	-9.06015
堪	-9.06129
七月	-9.06347
没	-9.0635
支	-9.06376
傾	-9.06382
印	-9.06489
候	-9.06521
壁	-9.06542
不如	-9.06634
恒	-9.06681
從征	-9.06794
佐領	-9.06822
婦	-9.06881
皇帝	-9.06945
嗚呼	-9.07007
中庸	-9.07121
輙	-9.07226
國公	-9.07234
眀	-9.07268
完	-9.07359
竹	-9.07605
赦	-9.08021
賈	-9.08135
兹	-9.08138
雷	-9.08237
激	-9.08274
中外	-9.08447
豪	-9.08479
諡	-9.08513
寂	-9.08583
舎	-9.08711
蕭	-9.08727
種	-9.08749
使人	-9.08802
喀爾喀	-9.08886
沒	-9.08917
宴	-9.08969
井	-9.09013
駕	-9.09019
士大夫	-9.09237
步	-9.09284
旁	-9.09375
盟	-9.09389
戴	-9.09393
廉	-9.09412
陣	-9.09623
遵	-9.09878
藥	-9.09978
未發	-9.10048
鍾	-9.10079
勅	-9.1023
荒	-9.10366
學問	-9.10652
言者	-9.10835
墨	-9.10868
慈	-9.10924
缺	-9.11117
既而	-9.11168
給事中	-9.11209
減	-9.11479
哲	-9.11517
桑	-9.11802
厥	-9.11837
褒	-9.11881
配	-9.11895
提	-9.12003
黜	-9.12035
寡	-9.12311
郡王	-9.12535
即位	-9.12541
旋	-9.12707
是也	-9.1273
訟	-9.12786
悔	-9.12791
扎薩克	-9.12816
宇	-9.12989
太極	-9.13021
祥	-9.13123
惑	-9.13134
人皆	-9.1314
秀	-9.13321
禦	-9.13439
基	-9.13443
殆	-9.13461
政事	-9.13828
平生	-9.13882
遭	-9.13941
甘	-9.1396
卒子	-9.1398
莫不	-9.14099
舜	-9.14126
諸侯	-9.14181
妙	-9.14381
幼	-9.14405
弱	-9.14459
託	-9.14515
俟	-9.14583
壽	-9.14709
翰林	-9.14847
萬物	-9.14935
戍	-9.15016
叙	-9.1514
辱	-9.15486
幽	-9.1553
裁	-9.15542
倉	-9.15693
渠	-9.1583
之曰	-9.15883
續	-9.1622
巖	-9.1626
崔	-9.1634
房	-9.16432
歳	-9.16433
耕	-9.16439
十二月	-9.16487
虜	-9.16702
丞	-9.16767
鄧	-9.16852
速	-9.16892
超	-9.1723
繫	-9.17237
噶	-9.17322
植	-9.1748
鳴	-9.17601
池	-9.17623
上疏	-9.17652
羣臣	-9.17656
子弟	-9.17675
擾	-9.17811
亦不	-9.17838
即是	-9.17846
翼	-9.17976
不見	-9.17988
不許	-9.18184
閩書	-9.18188
農	-9.18236
如是	-9.18236
符	-9.18256
出入	-9.18398
損	-9.18401
績	-9.18405
秩	-9.18416
故曰	-9.18424
太平	-9.18553
削	-9.18607
屏	-9.18622
味	-9.18638
贊	-9.18732
背	-9.18841
攝	-9.18882
渡	-9.18904
大學士	-9.19
倡	-9.19059
郎中	-9.19192
上書	-9.19242
也故	-9.19891
澄	-9.20021
輸	-9.20086
雪	-9.20307
湯	-9.20352
奇	-9.20392
詩云	-9.20413
江南	-9.20501
先帝	-9.20561
導	-9.20597
哭	-9.20645
寄	-9.20673
榜	-9.20683
諌	-9.2073
盗	-9.20787
輝	-9.20907
薨	-9.20981
汪	-9.21062
通判	-9.21075
其人	-9.21345
何如	-9.21381
嘉靖	-9.21385
恃	-9.21505
拒	-9.2155
同族	-9.21632
術	-9.21658
軍校	-9.21821
坦	-9.21838
閒	-9.21856
後世	-9.21868
竄	-9.22103
抗	-9.22214
馮	-9.22241
禹	-9.22306
得之	-9.22308
侍郎	-9.22372
汗	-9.22422
行之	-9.2255
古今	-9.22552
拔	-9.2257
洪武	-9.2259
祖宗	-9.2278
徑	-9.2279
帶	-9.22933
一姓世居	-9.23154
杖	-9.23176
災	-9.23324
賔	-9.23354
跡	-9.23416
誘	-9.23807
為人	-9.23973
瓦	-9.24161
不可以	-9.24161
伊川	-9.24494
紹	-9.24651
阿爾	-9.25053
員	-9.25053
専	-9.25104
是非	-9.25123
堯	-9.25202
僕	-9.25237
賽	-9.25317
曉	-9.25324
頃	-9.2539
忤	-9.25493
殷	-9.25494
皆有	-9.25622
出於	-9.25702
趣	-9.2573
正月	-9.25742
泊	-9.25786
襲職時削去	-9.25809
浙江	-9.25902
整	-9.25935
飾	-9.25982
寓	-9.25988
郊	-9.26058
覽	-9.2615
園	-9.26201
享	-9.26312
盧	-9.2632
幹	-9.26348
之際	-9.26363
蒙	-9.26449
居正	-9.26483
也夫	-9.26495
屋	-9.26605
䘮	-9.26661
二十年	-9.26672
不肯	-9.26675
又有	-9.26743
傑	-9.26836
𦵏	-9.26853
朔	-9.26996
景公	-9.27151
大學	-9.27233
無事	-9.27261
永樂	-9.27265
辯	-9.27295
文章	-9.2731
啓	-9.27326
彌	-9.2748
先生曰	-9.27498
所部	-9.2764
明日	-9.27663
惜	-9.27932
恤	-9.28279
淺	-9.28313
環	-9.28355
紹興	-9.28368
契丹	-9.2838
泣	-9.28508
俸	-9.28534
繁	-9.28589
産	-9.28658
綽	-9.28698
樞	-9.28808
之法	-9.28838
不出	-9.28961
父子	-9.29166
乾隆	-9.29271
邁	-9.29412
不容	-9.29431
赤	-9.2945
輿	-9.29451
彰	-9.29463
司馬	-9.29464
公言	-9.2957
副使	-9.29646
靡	-9.29678
借	-9.29702
彭	-9.2984
前後	-9.29937
瞻	-9.3008
旣	-9.30179
與之	-9.30456
戚	-9.30493
十二	-9.30541
歎	-9.30562
河北	-9.30569
餉	-9.30591
融	-9.30612
津	-9.30834
峻	-9.30839
叅	-9.31038
戸	-9.31063
員外郎	-9.31163
㠯	-9.31174
使者	-9.31181
扶	-9.312
見其	-9.31323
句	-9.31386
警	-9.31782
姚	-9.31904
敎	-9.31947
巨	-9.32014
所得	-9.32166
做	-9.32185
鐵	-9.32214
欺	-9.32297
之義	-9.32382
不必	-9.32424
晦	-9.32435
買	-9.32473
之中	-9.32524
至今	-9.32549
竭	-9.32593
吴	-9.3267
凖噶爾	-9.3272
終日	-9.32777
露	-9.32891
不忍	-9.32923
勵	-9.331
途	-9.33139
廬	-9.33292
不在	-9.33318
不從	-9.33344
數十	-9.33354
潔	-9.33363
河東	-9.33404
翰	-9.33644
台	-9.33686
諭曰	-9.33693
宅	-9.33729
不受	-9.33764
以下	-9.33772
逢	-9.33826
滯	-9.33877
遼	-9.34178
㡬	-9.34203
之理	-9.34246
淳	-9.34274
𤣥	-9.34298
瑞	-9.34355
羊	-9.34501
證	-9.34583
忍	-9.34623
恕	-9.34679
五十	-9.34755
裕	-9.34772
達理	-9.34795
社	-9.34856
采	-9.34934
宰	-9.34957
艱	-9.34977
綬	-9.35131
等處	-9.35203
明道	-9.35205
州刺史	-9.35241
遠	-9.35244
殘	-9.35281
伍	-9.35294
東南	-9.35409
魁	-9.35436
檜	-9.35477
旨	-9.35479
佟	-9.35591
併	-9.35601
創	-9.35637
之日	-9.35793
育	-9.3583
○	-9.35852
岸	-9.36012
提舉	-9.36055
邵	-9.36119
聘	-9.36162
其曽孫	-9.36181
縁	-9.36185
冀	-9.36209
洲	-9.3621
鮮	-9.36222
次子	-9.36335
薛	-9.36431
卑	-9.36468
七十	-9.36607
桂	-9.36614
品	-9.36623
之外	-9.36627
迹	-9.36653
梅	-9.36683
㓜	-9.36683
頌	-9.36704
驗	-9.36931
課	-9.36985
不當	-9.36992
不至	-9.37107
皇上	-9.37112
不是	-9.37164
亦有	-9.37229
檢	-9.37264
殺之	-9.37304
角	-9.37437
厭	-9.37506
所至	-9.37525
俄	-9.3763
無以	-9.37643
雲南	-9.37662
見之	-9.37677
姜	-9.377
踰	-9.38014
騰	-9.38077
恥	-9.38171
從容	-9.38196
盤	-9.38282
歩	-9.38361
議論	-9.38407
尺	-9.38615
上言	-9.387
致知	-9.38744
三日	-9.38797
弟子	-9.38816
用兵	-9.38891
社稷	-9.38954
字子	-9.39004
萬厯	-9.39056
抱	-9.39348
怪	-9.39372
教授	-9.39548
貝子	-9.39589
悦	-9.39662
義理	-9.39755
安石	-9.39828
毛	-9.39829
斗	-9.39871
十二年	-9.39887
個	-9.39898
都督	-9.39912
為滿洲一姓此	-9.39948
雙	-9.40006
忌	-9.40165
三人	-9.40321
芳	-9.40325
拱	-9.40369
諸公	-9.40765
用之	-9.4086
以示	-9.41201
天命	-9.41207
稽	-9.41277
懿	-9.4131
十三年	-9.41397
康熙	-9.41428
巴爾	-9.41432
肯	-9.41475
努	-9.41481
絡	-9.41489
閲	-9.41578
歟	-9.41584
確	-9.41598
彬	-9.41745
不報	-9.41831
包	-9.41836
原任步軍校	-9.41854
沉	-9.41864
緩	-9.41877
值	-9.4189
斂	-9.42088
潰	-9.42151
簿	-9.42386
波	-9.42408
欲以	-9.42411
衝	-9.42412
寇	-9.42429
鄙	-9.42452
總兵	-9.4247
公為	-9.42478
所著有	-9.42531
增	-9.42691
成化	-9.42787
浩	-9.42789
幣	-9.42879
不用	-9.42884
二十	-9.42906
廵	-9.43083
現任佐領	-9.43204
其曾孫	-9.43218
姬	-9.43255
廣東	-9.4327
仙	-9.43347
其間	-9.43443
而去	-9.43556
供	-9.43615
悲	-9.4362
者必	-9.43645
不行	-9.43657
錯	-9.43699
窺	-9.43796
饑	-9.4385
副都統	-9.43899
古之	-9.4395
骨	-9.43961
脱	-9.43975
者亦	-9.43978
罕	-9.44101
底	-9.44183
狂	-9.44221
之則	-9.44408
貨	-9.44479
四十	-9.44509
豫	-9.44512
譽	-9.44567
不免	-9.44628
巡撫	-9.44649
活	-9.44697
驕	-9.4476
毅	-9.44997
子曰	-9.45027
阻	-9.45124
堯舜	-9.45194
都統	-9.45232
現係	-9.45238
採	-9.4531
内閣	-9.45349
裔	-9.45457
東林	-9.45462
麟	-9.45515
闢	-9.4552
丈	-9.45629
側	-9.45723
像	-9.45761
許之	-9.45769
不相	-9.45861
長子	-9.45863
于是	-9.45923
氣質	-9.45982
壘	-9.46061
以其	-9.46115
袁	-9.46148
儉	-9.46192
正統	-9.46203
驛	-9.46246
凝	-9.46281
追封	-9.46339
囚	-9.46383
豈不	-9.46383
奈何	-9.46401
文字	-9.46426
一百	-9.46517
祝	-9.46572
黒	-9.46575
現襲職又	-9.46842
紫	-9.46982
潜	-9.47093
禮部尚書	-9.4725
飭	-9.47337
相繼	-9.47338
焚	-9.47343
往往	-9.4748
皇太子	-9.47488
衮	-9.47556
逰	-9.47597
塘	-9.4767
也然	-9.47792
囘	-9.47941
包衣	-9.47955
掩	-9.47972
他日	-9.47982
也其	-9.48034
所在	-9.48063
擅	-9.48136
茶	-9.48143
童	-9.48386
扎布	-9.48386
蘓	-9.48407
珍	-9.48499
氣象	-9.48572
憤	-9.48612
洋	-9.48734
吏部尚書	-9.48735
儒者	-9.48799
諸子	-9.48833
公以	-9.48876
其中	-9.48914
鳯	-9.48922
利害	-9.48934
地方人	-9.48977
不已	-9.49194
流行	-9.49216
喻	-9.49268
湖廣	-9.49313
十一年	-9.49342
尾	-9.49496
眞	-9.49537
熊	-9.49578
矯	-9.49586
又言	-9.49587
錦	-9.49601
軒	-9.49716
驅	-9.49758
書院	-9.49779
妃	-9.49799
刺	-9.49801
四川	-9.49943
柄	-9.49974
血	-9.49997
遂以	-9.50015
祐	-9.50049
矜	-9.50115
従	-9.50131
白沙	-9.50133
保住	-9.50184
罰	-9.50314
相與	-9.50346
倭	-9.50478
以聞	-9.50629
塵	-9.50653
昏	-9.50665
菴	-9.50709
莽	-9.50719
程子	-9.50729
潮	-9.50779
峯	-9.50782
道理	-9.50887
大將軍	-9.50895
搆	-9.5092
諸軍	-9.50954
進退	-9.50955
税	-9.50966
福建	-9.51022
滋	-9.5123
貸	-9.5126
亨	-9.51344
頼	-9.5138
召為	-9.51524
至此	-9.51554
富貴	-9.51633
香	-9.5175
夕	-9.51842
碧	-9.51998
煩	-9.52083
公與	-9.52124
遲	-9.52306
神宗	-9.52321
君臣	-9.52324
輯	-9.52341
䕶軍校	-9.52348
北京	-9.52401
崖	-9.5274
消	-9.5279
真宗	-9.52812
匿	-9.52854
豈可	-9.52935
峰	-9.53145
堡	-9.53148
榖	-9.53178
詩曰	-9.53344
衍	-9.53438
愧	-9.53574
麗	-9.53678
文集	-9.53687
伸	-9.53723
募	-9.53785
挾	-9.53792
窮理	-9.53824
耀	-9.53987
誠意	-9.54062
噶爾	-9.54103
恩詔加	-9.542
中國	-9.54256
隂陽	-9.54301
喬	-9.54532
鑑	-9.54534
岡	-9.54597
善惡	-9.5461
動静	-9.54918
元祐	-9.55066
蕃	-9.55205
蕩	-9.55232
乏	-9.55345
中原	-9.55371
三十年	-9.55448
逼	-9.5549
不足以	-9.55529
藉	-9.55565
黎	-9.55631
十四年	-9.55718
編修	-9.55721
醫	-9.55738
準	-9.55761
奬	-9.55779
局	-9.55794
大事	-9.55878
求之	-9.5592
數日	-9.56081
騎校	-9.56092
停	-9.56093
漕	-9.56289
布衣	-9.56376
八十	-9.56384
不合	-9.56463
列傳	-9.56499
有餘	-9.56718
沮	-9.5694
得失	-9.56992
呂	-9.57023
太學	-9.57111
潘	-9.57149
矢	-9.5717
盈	-9.57241
䟽	-9.57253
賑	-9.57428
辦	-9.57433
較	-9.57484
兵部尚書	-9.57512
男	-9.5758
忠義	-9.57596
誓	-9.57795
也若	-9.57858
鑒	-9.57879
限	-9.57881
額爾	-9.57898
其學	-9.57911
不與	-9.58085
人情	-9.58092
港	-9.58136
奚	-9.58158
往來	-9.58164
強	-9.58165
者非	-9.58222
憚	-9.5843
綏	-9.58446
㸃	-9.5852
千里	-9.58661
畜	-9.5871
文武	-9.58714
人物	-9.58717
卧	-9.58766
排	-9.58852
百官	-9.5891
蠻	-9.5896
擁	-9.58998
坤	-9.58999
國之	-9.59018
旌	-9.59025
偶	-9.59089
世居	-9.59094
蘭泰	-9.59295
銓	-9.59347
凌	-9.59562
契	-9.5963
原任主事	-9.59634
之臣	-9.59711
小名	-9.59718
之體	-9.59719
淫	-9.59728
英宗	-9.59913
州縣	-9.59959
瓊	-9.59982
禮樂	-9.60005
辰	-9.60084
賛	-9.60233
練	-9.60259
名臣	-9.60357
之謂	-9.60389
距	-9.6058
慰	-9.60607
十五年	-9.60731
疆	-9.60799
倍	-9.6087
不勝	-9.60895
道之	-9.60907
為學	-9.6092
凖	-9.61032
玩	-9.61108
歎曰	-9.61146
以自	-9.61232
又以	-9.61236
聰	-9.61386
東宫	-9.61497
短	-9.61913
先聖	-9.62082
詢	-9.62105
涉	-9.62115
無窮	-9.62146
賤	-9.62251
潤	-9.62284
杭	-9.6233
這	-9.6235
鄒	-9.62369
六經	-9.62383
不宜	-9.62422
驍騎校	-9.62436
徽	-9.62484
十六	-9.625
數年	-9.62541
用事	-9.62574
三十	-9.62575
之氣	-9.62667
詠	-9.62741
可也	-9.62815
召還	-9.62928
懸	-9.6298
上以	-9.62994
以待	-9.63064
皇后	-9.63132
性命	-9.63139
自有	-9.63257
以兵	-9.63285
未能	-9.63298
璧	-9.63309
突	-9.63336
齒	-9.63392
詐	-9.63396
展	-9.63611
是年	-9.63626
罔	-9.63629
終身	-9.63654
巡	-9.63847
閱	-9.63992
緒	-9.64045
世祖	-9.64046
國初	-9.6432
耳目	-9.6441
暮	-9.64482
舉進士	-9.64493
勑	-9.64584
陰	-9.6459
六十	-9.64604
塗	-9.64618
疎	-9.6465
大同	-9.64669
拘	-9.64726
以是	-9.64802
曰我	-9.64904
束	-9.6491
柔	-9.64938
數月	-9.64938
嬰	-9.64991
山西	-9.65063
之所以	-9.65069
皆以	-9.65109
死者	-9.65183
祁	-9.65235
其身	-9.65262
𢎞治	-9.65359
同知	-9.65362
長安	-9.654
可見	-9.65475
日用	-9.6551
敕	-9.65536
稱其	-9.65544
旅	-9.65646
宮	-9.65652
三代	-9.65776
未嘗不	-9.65878
級	-9.66082
歡	-9.66252
協	-9.66301
及其	-9.66339
䝉古	-9.66377
侍講	-9.66377
海内	-9.66405
荆	-9.6645
總督	-9.66508
際	-9.66621
士卒	-9.66644
其地	-9.66765
一事	-9.66839
詭	-9.66881
刀	-9.66914
羌	-9.66933
擊敗	-9.66973
妻子	-9.66983
修撰	-9.67083
栁	-9.67138
紳	-9.67161
未至	-9.67372
六世孫	-9.67421
葉赫地方	-9.67456
騎都尉	-9.67461
閉	-9.67469
入覲	-9.67516
而有	-9.67518
禮部侍郎	-9.67519
先後	-9.67522
戮	-9.67653
塟	-9.67887
鳥	-9.679
知縣	-9.67955
森	-9.68058
其意	-9.68082
頓	-9.68104
不忘	-9.68124
詆	-9.68233
青海	-9.68286
世忠	-9.68451
範	-9.68497
一言	-9.68515
饒	-9.68525
而下	-9.68682
數百	-9.68771
鶴	-9.68805
二子	-9.68818
而言	-9.68876
任驍騎校	-9.6897
葛	-9.69057
恪	-9.69063
之罪	-9.69065
數萬	-9.69215
諸臣	-9.69223
為文	-9.69228
輔國公	-9.69246
仁義	-9.69279
寃	-9.69346
不欲	-9.69375
瑾	-9.69402
之㫖	-9.69406
之門	-9.69432
眷	-9.69477
妖	-9.69507
澳	-9.69548
不息	-9.69623
返	-9.69665
日月	-9.69673
鳳	-9.69677
於朝	-9.69796
収	-9.69841
捷	-9.69845
謬	-9.69866
然而	-9.6988
詰	-9.69969
十餘	-9.70014
其先	-9.70059
栢	-9.70152
氏曽祖	-9.70257
浙	-9.7029
以疾	-9.70351
叙功	-9.70352
該	-9.70525
諷	-9.7057
多所	-9.70583
自古	-9.70628
雅圖	-9.70688
蒼	-9.70718
想	-9.70784
遣人	-9.70798
歛	-9.70893
轍	-9.70906
聖學	-9.70963
況	-9.70977
洛陽	-9.71001
何也	-9.7103
而已矣	-9.71044
十三	-9.71107
之初	-9.7115
隔	-9.71161
豈有	-9.71176
壊	-9.71217
嫌	-9.71244
冊	-9.71245
隙	-9.71254
厄魯特	-9.71322
認	-9.71368
一旦	-9.71404
一物	-9.71406
觀之	-9.71557
建康	-9.71561
料	-9.71564
匪	-9.7158
忿	-9.71581
一念	-9.71588
仇	-9.71649
以求	-9.71888
安得	-9.71947
潭	-9.71976
帖	-9.7199
誥	-9.72054
勘	-9.72128
俞	-9.72198
總管	-9.72246
濫	-9.72249
旱	-9.72298
未必	-9.72432
始終	-9.72506
之故	-9.72512
桓	-9.72571
咎	-9.72587
者為	-9.72608
知府	-9.72778
時有	-9.7278
博士	-9.72875
凶	-9.729
措	-9.72904
都御史	-9.72946
所居	-9.72954
弓	-9.72966
未及	-9.73001
霸	-9.73072
受命	-9.73078
君之	-9.73084
嘆	-9.7313
得罪	-9.7317
崩	-9.73205
不言	-9.73245
糾	-9.73251
㧞	-9.73268
第二	-9.73324
冒	-9.73334
此理	-9.73372
浦	-9.73478
不聽	-9.73484
標	-9.7352
障	-9.7361
從事	-9.73657
扎薩克一等台吉	-9.73678
慨然	-9.73703
出為	-9.73721
原任典儀	-9.73793
太原	-9.7383
寸	-9.73863
郡守	-9.73908
繩	-9.7398
墮	-9.73991
人主	-9.74023
把	-9.74104
諸儒	-9.74138
然則	-9.74227
文學	-9.74303
筆帖式	-9.74358
論語	-9.74497
百餘	-9.74583
查	-9.74601
地方人其孫	-9.74617
紅	-9.74628
王氏	-9.74634
塲	-9.74676
莫敢	-9.74681
家人	-9.74742
主事	-9.7485
註	-9.74892
現任防禦	-9.74924
大抵	-9.74934
將士	-9.74997
磨	-9.75007
頒	-9.75033
其父	-9.75117
不易	-9.75142
有二	-9.75214
妣	-9.75233
者以	-9.75241
十五	-9.75282
之志	-9.75305
有一	-9.75322
猛	-9.75412
巧	-9.7542
㠘	-9.75428
岐	-9.75458
中有	-9.75586
其實	-9.75675
公卿	-9.75686
所言	-9.75689
也而	-9.75725
蹈	-9.75767
謗	-9.7577
城中	-9.75805
撤	-9.7597
鄰	-9.76107
邀	-9.76115
官至	-9.7617
則有	-9.76214
成都	-9.76225
性之	-9.76232
汛	-9.76261
其志	-9.76263
挺	-9.76408
蒲	-9.76444
於心	-9.7646
訴	-9.76465
来歸	-9.76474
廣西	-9.76601
而歸	-9.76734
見得	-9.76812
等兵	-9.76814
劇	-9.76864
千餘	-9.7691
奏事	-9.76916
其罪	-9.77045
鑲紅旗	-9.77144
議者	-9.77271
溺	-9.77384
韋	-9.77441
囊	-9.77537
蓄	-9.77545
判官	-9.7755
當世	-9.77594
庶幾	-9.77624
不動	-9.77718
以上俱附載	-9.77732
恩詔所	-9.77842
不善	-9.77844
諡文	-9.77857
鹿	-9.77873
矩	-9.7791
㓂	-9.77934
兵部	-9.78022
龜山	-9.78028
雖有	-9.78028
天地之	-9.78071
家居	-9.78165
晝	-9.78212
書曰	-9.78226
懋	-9.78252
㨗	-9.7827
誌	-9.78278
快	-9.78292
涵養	-9.78309
觸	-9.78334
昇	-9.78386
者多	-9.78527
江淮	-9.78656
風俗	-9.78657
天之	-9.78687
臣等	-9.78796
衣冠	-9.78797
羽	-9.78848
單	-9.78875
敗之	-9.78878
二字	-9.78932
自得	-9.78937
知制誥	-9.78977
劍	-9.79017
探	-9.79021
楞	-9.79057
擊之	-9.79076
不可不	-9.79101
主宰	-9.7919
碩色	-9.79257
鴻	-9.79273
奠	-9.79327
貌	-9.7935
其衆	-9.79366
懲	-9.79383
飢	-9.79401
晝夜	-9.79433
艾	-9.79528
析	-9.79643
肉	-9.79793
毒	-9.79797
以上	-9.79846
有言	-9.79856
者乎	-9.79986
三百	-9.80036
精神	-9.8014
鄉里	-9.80146
其弟	-9.80159
稅	-9.80171
帛	-9.80206
縣令	-9.80239
四人	-9.80404
健	-9.80443
周公	-9.80457
亦無	-9.8046
不識	-9.80468
軍中	-9.8047
曰臣	-9.80497
有㫖	-9.80507
襲職卒其子	-9.80513
競	-9.80516
姪	-9.80541
人才	-9.80563
之語	-9.80635
纂	-9.80679
鄉人	-9.80706
帝曰	-9.80725
來朝	-9.80843
仗	-9.80869
徇	-9.80893
胥	-9.80906
留守	-9.8093
世之	-9.80969
坊	-9.81046
朗	-9.8105
以告	-9.81093
琥	-9.81101
怠	-9.81131
十六年	-9.81184
實録	-9.81246
溢	-9.81285
飲食	-9.81355
未知	-9.81363
十一	-9.81409
任筆帖式	-9.81517
之名	-9.81522
鑿	-9.81628
軾	-9.81714
第三子	-9.81758
宦	-9.81764
昭烈	-9.8184
人以	-9.81963
貝	-9.81971
嫁	-9.81992
教人	-9.82004
佞	-9.8202
而不知	-9.82163
之禮	-9.82208
性也	-9.82279
麻	-9.8232
苑	-9.82351
奴	-9.82359
僚	-9.82383
夾	-9.82521
邸	-9.8272
宣徳	-9.82747
譏	-9.82798
壞	-9.82816
効	-9.83003
長史	-9.83011
命公	-9.83012
不幸	-9.83016
絳	-9.83019
隋	-9.83142
迫	-9.83188
玠	-9.83215
之計	-9.83221
大義	-9.83221
即日	-9.83247
監察御史	-9.8326
終不	-9.83267
哈達	-9.83348
心之	-9.8339
為善	-9.83413
圓	-9.83456
鋭	-9.83494
勁	-9.83561
弔	-9.83584
原任牧長	-9.83612
藝	-9.83644
轉運使	-9.83687
各有	-9.83705
敷	-9.83795
同列	-9.83862
其功	-9.83868
亦是	-9.83896
曠	-9.83917
三千	-9.8393
不得已	-9.83953
所屬	-9.84114
咨	-9.84326
上命	-9.84331
鐘	-9.84348
為主	-9.84382
矣然	-9.84394
聰明	-9.84401
墜	-9.84405
南北	-9.8441
韶	-9.84509
鈔	-9.84541
改元	-9.84559
笑曰	-9.84639
垣	-9.84706
辛	-9.84871
不失	-9.84943
此書	-9.85054
不少	-9.85085
朝夕	-9.8527
翰林學士	-9.85286
之勢	-9.85306
𠞰	-9.85389
二百	-9.85405
僉	-9.85446
所為	-9.85479
嗟	-9.85513
卒其	-9.85554
任䕶軍校	-9.85632
長子乾隆	-9.85659
踐	-9.85748
俘	-9.85758
一也	-9.85771
耿	-9.85799
肇	-9.85827
殁	-9.85839
漁	-9.85881
莫能	-9.85884
懇	-9.85889
之徒	-9.85892
醉	-9.85905
原任歩軍校	-9.85947
未可	-9.86037
琦	-9.86196
顔子	-9.86217
陋	-9.86245
璫	-9.86247
理學	-9.86251
渉	-9.86257
軰	-9.86294
牙	-9.86305
不起	-9.86352
主簿	-9.86374
事物	-9.86415
駭	-9.86442
暇	-9.86455
天順	-9.86471
蓀	-9.86484
聖人之	-9.86552
天地萬物	-9.86623
勦	-9.86636
遏	-9.86698
本末	-9.86776
鐸	-9.86812
不若	-9.86879
宥	-9.87032
鑲藍旗	-9.87033
十七年	-9.87038
酌	-9.8704
巢	-9.87046
淑	-9.87179
鬼神	-9.87193
其元孫	-9.87199
與人	-9.87312
段	-9.87365
酋	-9.87396
轄	-9.87398
户部	-9.87411
荷	-9.87438
桑格	-9.87472
舞	-9.87532
割	-9.87766
吾心	-9.87771
屯田	-9.87813
蔣	-9.8782
恣	-9.87861
曰朕	-9.87919
三等	-9.87926
侍衛	-9.87928
如故	-9.8793
銘曰	-9.87968
中官	-9.88007
旺	-9.88028
鈕	-9.88062
一二	-9.88089
而能	-9.88145
熙	-9.88169
率兵	-9.88194
閔	-9.88297
陳氏	-9.88323
反覆	-9.88419
無一	-9.88426
五百	-9.88472
車凌	-9.88514
偵	-9.88531
萌	-9.88634
爽	-9.8865
迷	-9.88654
經筵	-9.88662
戲	-9.8869
敝	-9.88714
價	-9.88715
不問	-9.8872
不顧	-9.88727
爾泰	-9.88807
諸王	-9.88818
達色	-9.88909
巴顔	-9.8894
皮	-9.89044
之變	-9.89064
正白旗	-9.89138
為政	-9.89219
知覺	-9.89271
其才	-9.89331
以爲	-9.89346
達爾	-9.89398
之論	-9.89414
膺	-9.89417
不明	-9.89417
門下	-9.89428
鏡	-9.89456
中書舍人	-9.89484
苗	-9.89527
而卒	-9.89537
哩	-9.89546
洽	-9.89548
中興	-9.89587
諸路	-9.89617
數千	-9.89618
車駕	-9.89701
郡縣	-9.89748
暨	-9.89769
十四	-9.89771
午	-9.89851
㳺	-9.89855
上意	-9.8986
貳	-9.89881
誨	-9.89897
讐	-9.8992
之民	-9.89927
恵	-9.89932
匡	-9.89966
達什	-9.89966
粹	-9.90104
寡人	-9.90144
正紅旗	-9.90159
畨	-9.90269
東西	-9.90291
含	-9.90301
嚮	-9.90334
溫	-9.90341
之說	-9.90365
不仕	-9.90446
何為	-9.90543
公獨	-9.90548
在此	-9.90584
鬼	-9.90644
掃	-9.90661
而死	-9.90669
冕	-9.90671
暫	-9.90717
時時	-9.90717
捐	-9.90756
渡江	-9.90769
所著	-9.90843
四海	-9.90866
進士授	-9.90898
司徒	-9.90906
曽祖	-9.90908
有大	-9.9094
曰昔	-9.91076
願陛下	-9.91095
醇	-9.91118
防禦	-9.91123
倒	-9.91125
䘏	-9.91126
虐	-9.91132
晏	-9.91156
慷慨	-9.91185
公在	-9.91368
無可	-9.91377
見於	-9.91415
濬	-9.91499
傍	-9.91564
泛	-9.91578
秦檜	-9.91605
是故	-9.91667
御史中丞	-9.91672
宗室	-9.9178
大小	-9.91803
太師	-9.91847
凱	-9.91891
於人	-9.91932
祗	-9.91966
穀	-9.91967
稿	-9.91989
之上	-9.92114
貽	-9.92121
安國	-9.92235
所見	-9.92248
溥	-9.92284
不自	-9.92347
竇	-9.9236
太常	-9.92494
天性	-9.92555
復以	-9.92622
浪	-9.92793
生死	-9.92804
好學	-9.92807
俱原任筆帖式	-9.92834
刑部	-9.92857
聞見	-9.93001
不聞	-9.93125
現任員外郎	-9.93137
藍	-9.93159
黃	-9.93178
其餘	-9.93192
寅	-9.93198
淡	-9.93213
藴	-9.93217
賣	-9.93264
㕘	-9.93271
侃	-9.93295
炳	-9.93329
曰汝	-9.93341
姓名	-9.93439
十里	-9.93447
覩	-9.93458
自謂	-9.93521
廷臣	-9.93594
爾圖	-9.93613
紙	-9.93675
曰是	-9.93688
施行	-9.93717
輔臣	-9.93722
釋氏	-9.93911
而止	-9.94052
卦	-9.94074
茅	-9.94076
粗	-9.94086
評	-9.94097
曰陛下	-9.9411
刺史	-9.94191
鑲白旗	-9.94216
者則	-9.9434
之才	-9.94413
座	-9.94515
賂	-9.94549
指揮	-9.94582
西北	-9.946
延平	-9.947
神道	-9.94707
先儒	-9.94711
二十一年	-9.94852
大節	-9.94901
祚	-9.94923
正藍旗	-9.94929
僻	-9.94944
山川	-9.95073
力行	-9.95124
直言	-9.9521
二公	-9.95235
臯	-9.95361
騐	-9.95386
無他	-9.9539
至善	-9.95413
十八年	-9.95418
尸	-9.95423
福州	-9.95445
猷	-9.95517
而還	-9.9563
以後	-9.95774
効力	-9.95779
婦人	-9.95822
孔子曰	-9.95912
公諱	-9.95991
謂其	-9.96017
嘆曰	-9.9602
十八	-9.96091
朋	-9.96108
昧	-9.96115
為一	-9.96116
琳	-9.96133
而行	-9.9616
里第	-9.96236
四書	-9.96251
冝	-9.96256
弛	-9.96256
經史	-9.96257
獵	-9.96294
累遷	-9.96311
祭酒	-9.96367
甞	-9.9641
雲騎尉	-9.96476
奉命	-9.96485
司空	-9.96553
丕	-9.96564
贍	-9.96649
緣	-9.96656
藁	-9.96673
區	-9.96683
年七十	-9.96698
慢	-9.96701
十萬	-9.96769
召對	-9.96855
熈	-9.96925
僉事	-9.96958
中丞	-9.9699
不盡	-9.96993
孝友	-9.97021
霍	-9.97032
小字	-9.9707
番	-9.97123
踵	-9.97135
江陵	-9.97137
喜怒哀樂	-9.97139
徧	-9.97156
賢者	-9.97228
齎	-9.97518
汴	-9.9755
之書	-9.97673
齡	-9.9769
銅	-9.97731
互	-9.97753
節度	-9.97754
派	-9.97765
襄陽	-9.97843
乃以	-9.97853
一毫	-9.97859
於外	-9.97927
批	-9.97955
為本	-9.97983
原任驍	-9.98
十九年	-9.98002
賓	-9.98017
炎	-9.98021
掾	-9.9808
事君	-9.98212
以歸	-9.98246
三司	-9.98294
城下	-9.98311
又云	-9.9834
幕	-9.9836
正黄旗	-9.98365
宗即位	-9.98413
飬	-9.98444
濠	-9.98454
渭	-9.98464
藻	-9.98469
二十二年	-9.98495
有以	-9.98526
測	-9.98589
佛氏	-9.98612
誼	-9.98626
之弊	-9.9866
紛	-9.98661
當以	-9.98675
好惡	-9.98736
矣故	-9.98869
朴	-9.98889
其説	-9.98917
駁	-9.98929
鑄	-9.98934
人臣	-9.98934
項	-9.98946
漏	-9.98955
荘	-9.98968
程朱	-9.99097
烏珠	-9.99182
憾	-9.99239
湛	-9.99258
魂	-9.99281
奏曰	-9.9929
國朝	-9.99293
樸	-9.99342
峽	-9.99351
璘	-9.99413
租	-9.99423
萬世	-9.99504
學術	-9.99531
龍溪	-9.99562
班第	-9.99593
使之	-9.99595
曰今	-9.99651
髪	-9.99676
監司	-9.99687
為相	-9.99717
睦	-9.99744
若不	-9.99746
孚	-9.99751
悼	-9.99758
僖	-9.99778
牽	-9.99794
刼	-9.99796
以備	-9.99804
泥	-9.99826
不絶	-9.99833
爾哈	-9.99901
髙祖	-9.99967
觀其	-9.99991
原係	-10.0014
又何	-10.0017
島	-10.0018
匹	-10.0019
和碩	-10.002
之本	-10.0023
貲	-10.0027
觧	-10.0027
鎭	-10.0028
李氏	-10.0032
州人	-10.0032
廵撫	-10.0032
正徳	-10.0034
入見	-10.0034
以進	-10.0044
槩	-10.0048
參政	-10.0058
國史	-10.0061
慎獨	-10.0063
攜	-10.0067
隘	-10.0067
公主	-10.0071
也公	-10.0073
偃	-10.0075
言曰	-10.0084
億	-10.0084
哈達地方	-10.0093
故不仕祖	-10.0095
鄂爾	-10.0102
帖式	-10.0105
處之	-10.0111
閑	-10.0112
擊賊	-10.0112
心體	-10.0113
朋友	-10.0117
心也	-10.012
混	-10.0122
入朝	-10.0125
人有	-10.0126
瑜	-10.0126
地方人其子	-10.0128
龜	-10.0138
鋒	-10.014
故也	-10.015
爾等	-10.0153
掖	-10.016
萬餘	-10.0163
貴州	-10.0164
之曽孫	-10.0166
其門	-10.0166
讒	-10.0168
翰林院	-10.0179
之風	-10.0182
曰卿	-10.0198
荆州	-10.02
内侍	-10.0204
其母	-10.0206
孚敬	-10.021
禱	-10.0214
不待	-10.0216
博學	-10.022
以死	-10.0234
贈雲騎	-10.024
萬里	-10.0241
眼	-10.0247
睿	-10.0249
昨	-10.0259
淵源	-10.0261
穴	-10.0261
蠲	-10.0261
只在	-10.0266
烏喇地方	-10.027
日生外氏	-10.0279
於世	-10.0285
思之	-10.0288
澹	-10.03
鎮江	-10.0305
為國	-10.0305
驟	-10.0306
㫁	-10.0306
枉	-10.0308
而出	-10.031
釋之	-10.0312
詹	-10.0322
時政	-10.0323
▁初來歸	-10.0324
綸	-10.0344
陟	-10.0345
盡心	-10.0347
必以	-10.0349
嘗曰	-10.0351
虧	-10.0351
侍讀	-10.0354
疲	-10.0354
平日	-10.0361
元豐	-10.0363
原任䕶	-10.0363
京兆	-10.0369
以身	-10.0376
行在	-10.0378
守備	-10.0381
成功	-10.0388
裴	-10.0389
西山	-10.039
冲	-10.0392
王公	-10.0392
頴	-10.0393
嶽	-10.0396
故其	-10.0397
叟	-10.0397
賄	-10.0401
金陵	-10.0405
漳	-10.0411
世孫	-10.0411
大體	-10.0415
撓	-10.0418
脅	-10.0421
之命	-10.0427
萬人	-10.0429
士竒	-10.0435
熹	-10.0439
江東	-10.0443
吟	-10.0443
今之	-10.0451
都尉	-10.0461
曰君	-10.0465
銜	-10.0471
天道	-10.0472
羅卜藏	-10.0475
皆是	-10.0486
視之	-10.0491
不應	-10.0494
狄	-10.0494
現襲職	-10.0499
賦詩	-10.0506
至于	-10.0506
召見	-10.0508
以書	-10.0513
淮南	-10.0525
任佐領	-10.0531
一貫	-10.0544
錦州	-10.0544
禽	-10.0545
無敢	-10.0546
忠孝	-10.0552
止之	-10.0564
者其	-10.0573
論學	-10.0575
荀	-10.0582
透	-10.0582
絲	-10.0582
奄	-10.0583
氷	-10.0588
裂	-10.0591
償	-10.0594
字仲	-10.0598
衮布	-10.0598
五人	-10.0609
劉氏	-10.0613
枝	-10.0628
隴	-10.0629
訖	-10.0635
五日	-10.0637
伺	-10.0637
跪	-10.0638
惰	-10.0639
金華	-10.064
論事	-10.0645
道也	-10.0646
之文	-10.0651
域	-10.0652
隅	-10.0653
言語	-10.0671
其為	-10.0678
詩文	-10.0682
文成	-10.0682
□	-10.0685
而非	-10.0686
壤	-10.0686
躍	-10.0688
括	-10.0688
十餘年	-10.0689
脫	-10.0692
繼之	-10.0696
無有	-10.0717
為滿洲一姓此一	-10.0727
本朝	-10.0728
親弟	-10.073
影	-10.0733
揖	-10.0737
侈	-10.0737
根本	-10.0743
賞罰	-10.0745
人欲	-10.0745
十七	-10.0752
陣亡	-10.0756
卒年七十	-10.076
可乎	-10.076
以上俱係應立傳之人	-10.0767
縉	-10.0772
字伯	-10.0773
臧	-10.0773
或問	-10.0774
未免	-10.0774
仲尼	-10.0777
分别	-10.0777
原任司庫	-10.078
以禮	-10.0781
一心	-10.0782
元昊	-10.0782
染	-10.0784
者矣	-10.0787
亦以	-10.079
殺人	-10.0794
遼東	-10.0795
或有	-10.0799
望之	-10.0809
守之	-10.081
有詔	-10.0811
不獲	-10.0814
是為	-10.0818
不求	-10.0825
之要	-10.0825
械	-10.0826
湖南	-10.0827
佩	-10.0835
頤	-10.0835
聞者	-10.0838
而不能	-10.0838
陜	-10.0841
彥	-10.0841
道學	-10.0853
變化	-10.0857
分兵	-10.086
其名	-10.086
王師	-10.0871
自此	-10.0872
邇	-10.0875
一年	-10.0878
哈爾	-10.0878
誕	-10.0881
䧟	-10.0881
之役	-10.0882
奎	-10.0883
飯	-10.0883
曰子	-10.0884
琴	-10.0884
揭	-10.0884
講論	-10.0885
祜	-10.0885
灣	-10.0886
久矣	-10.0888
謚	-10.0889
大計	-10.0893
太尉	-10.0895
物也	-10.0901
發明	-10.0902
景泰	-10.0906
山中	-10.0911
軍節度使	-10.0913
麾	-10.0916
之女	-10.0917
達爾漢	-10.0925
燈	-10.0929
属	-10.0932
分明	-10.0932
天聰時来歸	-10.0946
更無	-10.0946
洗	-10.0956
在外	-10.0962
原任䕶軍	-10.0962
眉	-10.0966
𤼵	-10.0978
脚	-10.098
俯	-10.0983
西南	-10.0984
問曰	-10.0984
逺近	-10.0984
姓世居	-10.0992
若此	-10.1002
矣而	-10.1005
謂曰	-10.1015
第三	-10.102
游牧	-10.1027
屠	-10.103
播	-10.103
修身	-10.1031
浸	-10.1032
繹	-10.1034
諸郡	-10.1035
摘	-10.1036
不通	-10.1036
贓	-10.1037
燭	-10.1042
原任七品官	-10.1049
欽定四庫全書	-10.1053
原任三等侍衛	-10.1054
倦	-10.1057
門外	-10.1067
後人	-10.1068
隸	-10.107
㢘	-10.1078
圭	-10.1078
涕	-10.1079
彈	-10.1084
奏請	-10.1088
忠臣	-10.1088
縛	-10.1089
之元孫	-10.109
之禍	-10.1091
諡曰	-10.1093
坡	-10.1096
乆之	-10.1104
老成	-10.1108
周子	-10.1113
人人	-10.1119
以至	-10.112
達頼喇嘛	-10.1127
出知	-10.1128
壇	-10.1129
册	-10.1131
撥	-10.1131
粤	-10.1132
俱原任	-10.114
萬一	-10.1145
著書	-10.1147
執事	-10.1149
平居	-10.1149
用力	-10.1152
嘉祐	-10.1153
者不	-10.1156
學校	-10.1159
之盛	-10.1167
退而	-10.1183
行事	-10.1185
節度使	-10.1185
釁	-10.1186
百里	-10.119
薩哈	-10.1193
原任協領	-10.1205
所當	-10.1208
王曰	-10.1214
奉詔	-10.1217
静坐	-10.1219
死生	-10.1226
百餘人	-10.1233
梓	-10.1235
恬	-10.1235
列𫝊	-10.1237
漫	-10.1238
婚	-10.1239
扼	-10.124
按察使	-10.1242
本心	-10.1246
蒙古	-10.1246
本無	-10.1258
言行	-10.1264
經術	-10.1265
聞其	-10.1266
至則	-10.1268
曷	-10.1271
其文	-10.1274
得人	-10.1274
攸	-10.1287
焦	-10.1292
諸書	-10.1306
國事	-10.1314
故不仕父	-10.1316
塔爾	-10.1326
現係生員	-10.1327
工部	-10.1328
教諭	-10.1333
随	-10.1333
迪	-10.1334
流涕	-10.1336
上章	-10.1339
甚衆	-10.1341
必欲	-10.1349
乞休	-10.1355
截	-10.1355
之妙	-10.1358
帳	-10.1379
逾	-10.1379
譜	-10.1382
蚤	-10.1389
禀	-10.1391
悖	-10.1394
次第	-10.1398
博爾	-10.1402
者有	-10.1418
以上俱有傳	-10.1425
一見	-10.1427
費揚古	-10.1428
遇事	-10.1436
邢	-10.144
輪	-10.1441
奕	-10.1443
他人	-10.1444
弄	-10.1444
諫官	-10.1445
四十年	-10.1458
泉州	-10.1463
可為	-10.1467
人倫	-10.1468
孺	-10.147
相傳	-10.148
少卿	-10.1481
察哈爾	-10.1486
公子	-10.1488
裏	-10.1488
溝	-10.149
嘗言	-10.1491
奥	-10.1492
元帥	-10.1497
訊	-10.1499
是日	-10.1506
既至	-10.1509
之用	-10.1509
之實	-10.1513
多羅	-10.1513
若是	-10.1514
以成	-10.1521
太史	-10.1523
棟	-10.153
教之	-10.153
風雨	-10.154
服闋	-10.1548
惇	-10.1548
脈	-10.1548
逋	-10.1553
鑲黄旗	-10.1563
也乃	-10.1564
百萬	-10.1569
不安	-10.1584
諒	-10.1585
功名	-10.1587
松山	-10.1591
汲	-10.1605
法度	-10.1605
媚	-10.1608
不樂	-10.161
枕	-10.1611
一身	-10.1614
襲扎薩克一等台吉	-10.1616
是謂	-10.1617
原任三等䕶衛	-10.1624
一個	-10.1631
則無	-10.1634
誅之	-10.1637
師友	-10.1637
涵	-10.1646
丗	-10.165
正學	-10.1652
戈	-10.1654
暗	-10.1656
吏民	-10.1657
取之	-10.1658
宣和	-10.1661
失其	-10.1671
揚州	-10.1676
十卷	-10.1677
草木	-10.1682
柏	-10.1689
阿喇布坦	-10.1693
去之	-10.1699
堤	-10.1707
聼	-10.1709
暢	-10.1711
苛	-10.1713
促	-10.1715
弱冠	-10.1716
由此	-10.1717
二十里	-10.172
瑪爾	-10.1722
我軍	-10.1723
等地方	-10.1733
侍講學士	-10.1745
侍從	-10.1755
請以	-10.1759
墳	-10.176
一字	-10.176
披	-10.1767
掲	-10.1767
覈	-10.1768
無益	-10.1769
異端	-10.1769
忠信	-10.177
吾儒	-10.1782
賜之	-10.179
年五十	-10.1791
君子之	-10.1792
不便	-10.1794
旬	-10.1802
叅領	-10.1803
豈非	-10.1808
齋先生	-10.1813
者乃	-10.1817
五經	-10.1817
摧	-10.182
蛇	-10.1821
人所	-10.1829
晉江人	-10.183
二千	-10.183
其本	-10.1834
斬之	-10.1834
古者	-10.1838
大敗	-10.184
知止	-10.1842
孝宗	-10.1845
必先	-10.1847
▁初来歸	-10.1852
方是	-10.1856
第十	-10.1862
歴任	-10.1863
酬	-10.1865
無間	-10.1866
師事	-10.1866
頂	-10.1871
卽	-10.1873
祈	-10.1875
韻	-10.1876
國子監	-10.1878
行省	-10.1882
服除	-10.1883
已發	-10.1886
遣官	-10.1888
原任驍騎	-10.1903
道徳	-10.1912
所知	-10.1913
奮勇	-10.1922
樊	-10.1929
流賊	-10.1929
勛	-10.193
攘	-10.193
犬	-10.1932
闈	-10.1934
饋	-10.1935
光武	-10.1938
忠賢	-10.1944
近臣	-10.1957
将軍	-10.1969
廕	-10.1973
宰桑	-10.1974
舉人	-10.1974
平江	-10.1975
今人	-10.1975
欵	-10.1976
軍士	-10.1976
遍	-10.198
握	-10.198
烏爾	-10.198
添	-10.198
無欲	-10.1982
有聲	-10.1982
揆	-10.1983
得以	-10.1986
東平	-10.1986
薪	-10.1989
襲封	-10.199
糴	-10.1991
也又	-10.1996
之患	-10.1999
二十三年	-10.2
也吾	-10.2012
躬行	-10.2012
此則	-10.2014
同時	-10.2023
晟	-10.2024
開封	-10.2031
長沙	-10.2038
夙	-10.2039
稟	-10.2039
蠧	-10.2042
襲一次襲	-10.2042
于朝	-10.2048
有三	-10.2048
終始	-10.2056
不死	-10.2059
數人	-10.2059
諸葛	-10.2059
師道	-10.2061
此是	-10.2064
再拜	-10.2074
平定	-10.2075
宗廟	-10.2082
薦之	-10.2083
仲淹	-10.2087
無善無惡	-10.2087
聶	-10.2088
則是	-10.2091
譚	-10.2094
狐	-10.2096
状	-10.2097
綿	-10.2097
用功	-10.2097
刑部尚書	-10.2098
晨	-10.2099
數百人	-10.2099
吏部侍郎	-10.2103
南陽	-10.2108
逺矣	-10.2114
名曰	-10.2117
何所	-10.2118
軍民	-10.2122
神明	-10.213
拂	-10.2141
之餘	-10.2148
葺	-10.215
霜	-10.2153
鬭	-10.2153
巫	-10.2154
此事	-10.2155
庇	-10.2155
後學	-10.2156
思慮	-10.2159
固有	-10.2165
而自	-10.2166
敗賊	-10.2171
不倦	-10.2179
不屈	-10.2181
墨爾根	-10.2191
沁	-10.2192
諾爾布	-10.2196
吹	-10.2197
㸔	-10.2201
察罕	-10.2201
不立	-10.2205
譴	-10.2207
常州	-10.2207
二十七年	-10.2208
受業	-10.2209
闡	-10.2209
冗	-10.221
當國	-10.2211
言其	-10.2211
撃	-10.2211
動靜	-10.222
武帝	-10.2221
一姓此一姓世居	-10.2233
大怒	-10.2234
開元	-10.2237
君子謂	-10.2238
嘗謂	-10.2239
濓	-10.2241
扈從	-10.2243
之節	-10.2249
長者	-10.225
大將	-10.225
天祥	-10.2252
也先生	-10.2255
為先	-10.2255
佑	-10.2259
几	-10.2262
湘	-10.2262
此言	-10.2263
工部尚書	-10.2266
龎	-10.2266
其下	-10.2269
上怒	-10.227
亦可	-10.2272
原任八品官	-10.2276
現襲	-10.2278
俱現任筆帖式	-10.228
著述	-10.2283
率衆	-10.2287
察哈爾地方	-10.2288
官軍	-10.229
授騎都尉	-10.2291
三遇	-10.2301
不離	-10.2302
有事	-10.2304
索諾木	-10.2306
孔孟	-10.2306
衷	-10.2316
芝	-10.2318
進士第	-10.2318
代之	-10.2318
歐陽	-10.2321
年四十	-10.2322
䕫	-10.2322
遂為	-10.2322
烟	-10.2323
乞歸	-10.2323
讎	-10.2324
可用	-10.2325
牢	-10.2325
甲辰	-10.2326
公奏	-10.2329
有此	-10.233
諸人	-10.2331
考功	-10.2335
州郡	-10.2337
和議	-10.2338
其長子	-10.234
雖不	-10.234
或曰	-10.2341
治道	-10.2345
官吏	-10.2349
不信	-10.2349
三等輕車都尉	-10.235
乙	-10.2355
有差	-10.2356
大用	-10.2357
伊犁	-10.236
少師	-10.2362
千古	-10.2364
道者	-10.2369
其黨	-10.2372
治之	-10.2372
秘	-10.2374
與其	-10.2374
世宗	-10.2378
戾	-10.2378
攷	-10.2378
場	-10.2379
且曰	-10.2383
原任䕶軍叅領	-10.2384
横渠	-10.2385
有志	-10.2386
秩滿	-10.239
先君	-10.2393
甚多	-10.2393
言也	-10.2397
襲二次襲	-10.2416
之難	-10.2426
叩	-10.2429
頻	-10.2433
巾	-10.2434
繕	-10.2435
翊	-10.2435
一體	-10.2437
平章	-10.2437
乖	-10.2437
嗜	-10.2437
諜	-10.2438
未見	-10.2442
待制	-10.2442
彊	-10.2444
所能	-10.2447
惟恐	-10.2449
明白	-10.2455
以前	-10.2459
無復	-10.2461
父老	-10.2462
軍營	-10.2465
乾道	-10.2466
再三	-10.2468
禁中	-10.247
者即	-10.2487
製	-10.2489
鄉試	-10.2494
日夜	-10.2498
之下	-10.2498
猶未	-10.25
以上俱世居	-10.2501
之制	-10.2502
不下	-10.2519
少保	-10.2521
千載	-10.2531
崇禎	-10.2542
織	-10.2545
或以	-10.2545
牒	-10.2546
培	-10.2548
象山	-10.2552
搜	-10.2554
不允	-10.2555
銳	-10.2556
梗	-10.2556
鬱	-10.2558
王安石	-10.2558
汙	-10.256
斃	-10.2562
恢復	-10.2569
太監	-10.257
若有	-10.2575
事親	-10.2583
薩爾	-10.2588
車稜	-10.2594
立朝	-10.2594
以功	-10.2596
儼	-10.2598
▁初來歸其孫	-10.2598
▁初來歸其子	-10.2604
湏	-10.2607
珙	-10.2612
侮	-10.2612
刋	-10.2613
迨	-10.2615
求去	-10.2618
人君	-10.262
宣撫	-10.2622
地方人其	-10.2622
居官	-10.2623
遺書	-10.2631
甲申	-10.2632
民之	-10.2639
其一	-10.2641
二十五年	-10.265
晏子曰	-10.2652
大兵	-10.2652
庠	-10.266
鑾	-10.2664
讀之	-10.2666
寫	-10.2671
吐	-10.2672
板	-10.2673
也此	-10.2676
豪傑	-10.2677
恂	-10.2683
近世	-10.2683
提督	-10.2686
輕重	-10.2691
固辭	-10.2696
至矣	-10.27
則曰	-10.2703
功夫	-10.2714
文王	-10.2716
腹	-10.2719
駐防	-10.2719
欠	-10.2731
挈	-10.2732
摩	-10.2733
十名	-10.2733
郎阿	-10.2735
召公	-10.2735
出處	-10.2737
生平	-10.2743
侍中	-10.2744
言官	-10.2745
程氏	-10.2746
未發之中	-10.2747
未㡬	-10.2754
丁未	-10.277
身心	-10.2782
柴	-10.2783
研	-10.2787
穎	-10.2789
户部尚書	-10.2792
姿	-10.2793
知人	-10.2797
卓然	-10.2799
前日	-10.2801
二日	-10.2809
其書	-10.2809
失之	-10.282
黑	-10.2824
者又	-10.2824
十九	-10.2827
有異	-10.2832
人材	-10.2834
𤦺	-10.2836
甲子	-10.2838
真定	-10.2839
嘗與	-10.284
慧	-10.2846
冷	-10.2847
瑄	-10.2848
杭州	-10.2849
棺	-10.2849
裘	-10.2855
當是時	-10.2856
科舉	-10.2869
帝王	-10.2876
自今	-10.2877
從子	-10.288
額爾徳尼	-10.2892
年二十	-10.2892
臣聞	-10.2893
千户	-10.2894
與公	-10.2895
以事	-10.2896
至京師	-10.2898
則知	-10.29
國正白旗人世居	-10.2903
昻	-10.2903
雖然	-10.2903
至誠	-10.2905
宇宙	-10.2905
萊	-10.2907
潁	-10.291
鈞	-10.2912
控	-10.2914
魏公	-10.2917
安撫	-10.293
至元	-10.2932
為心	-10.2938
沂	-10.2943
之情	-10.2948
視事	-10.2949
生於	-10.2965
於天	-10.2969
訂	-10.297
丁丑	-10.2972
公事	-10.2976
皓	-10.2979
第四子	-10.2982
先師	-10.2988
取其	-10.2993
無非	-10.2997
不肖	-10.2998
三十里	-10.3007
不得不	-10.301
行狀	-10.3011
納木扎勒	-10.3014
為天下	-10.3017
吐魯番	-10.3018
爾岱	-10.3021
所欲	-10.3022
佛保	-10.3022
聞而	-10.3028
隊	-10.3029
非所以	-10.3031
刃	-10.3031
䕶軍	-10.3033
驥	-10.3033
灌	-10.3035
翠	-10.3035
狼	-10.3039
文帝	-10.3045
不疑	-10.3047
紀綱	-10.3048
久而	-10.3049
之教	-10.3058
閣臣	-10.306
九十	-10.3061
知名	-10.3063
宋史	-10.3063
賛曰	-10.3066
之性	-10.3067
其義	-10.3076
之議	-10.3079
正心	-10.308
長白山地方	-10.3085
諸賢	-10.309
團	-10.3091
勾	-10.3093
廩	-10.3096
庵	-10.31
仁者	-10.31
勃	-10.3104
惡之	-10.3107
豈能	-10.3114
大名	-10.312
未得	-10.3123
叅政	-10.3133
之職	-10.3135
有得	-10.3144
其道	-10.3149
安能	-10.3151
都察院	-10.3152
乃止	-10.3152
暑	-10.3153
靖康	-10.3155
叔向	-10.3155
贖	-10.3156
踰年	-10.3157
寘	-10.3159
臂	-10.3161
此意	-10.3161
無愧	-10.3163
替	-10.3163
寮	-10.3164
如此則	-10.3168
矣今	-10.3169
聖賢之	-10.3173
莫非	-10.3173
太夫人	-10.3177
畿	-10.318
安危	-10.3182
致良知	-10.3189
伊爾	-10.3189
罵	-10.3196
下獄	-10.3196
不堪	-10.3203
問之	-10.3205
三子	-10.3207
復為	-10.3207
四時	-10.3212
閏	-10.3215
爰	-10.3216
之政	-10.3219
倪	-10.322
其妻	-10.3221
俠	-10.3222
兵部侍郎	-10.3223
皆為	-10.3228
敞	-10.3231
民力	-10.3235
未盡	-10.3241
襲職又	-10.3244
中正	-10.3248
之私	-10.3249
晚年	-10.3249
有過	-10.325
一語	-10.325
不知其	-10.3253
憫	-10.3254
憲宗	-10.326
二十四	-10.3261
一等	-10.3266
張浚	-10.3266
拖	-10.3269
叱	-10.3269
卒無嗣	-10.3274
無所不	-10.3275
之知	-10.3277
等皆	-10.3278
樵	-10.3279
察其	-10.328
破之	-10.3281
膏	-10.3282
耻	-10.3283
系	-10.3283
挽	-10.3285
捨	-10.3286
贄	-10.3289
為民	-10.3289
盜賊	-10.329
漢中	-10.3291
猶有	-10.3292
衆皆	-10.3292
事業	-10.3293
之謂也	-10.3296
存心	-10.3296
者曰	-10.3303
天聰	-10.3306
飲酒	-10.3309
而得	-10.3313
形勢	-10.3319
孝弟	-10.3319
繇	-10.3321
北征	-10.3321
破賊	-10.3325
以来	-10.3326
事也	-10.3328
之力	-10.3329
額駙	-10.3329
節制	-10.3335
一清	-10.334
經義	-10.3342
阜	-10.3346
璋	-10.3348
岱青	-10.3351
之前	-10.3352
體認	-10.3354
閹	-10.3355
二十九年	-10.3359
萬事	-10.3366
未嘗有	-10.337
别有	-10.3372
氣之	-10.3374
廓	-10.3376
百年	-10.3376
者惟	-10.3381
人其子	-10.3389
鎮守	-10.3391
號令	-10.3394
我師	-10.3395
詔以	-10.3396
性善	-10.3396
▁尉其子	-10.3398
檢討	-10.34
桃	-10.3404
治亂	-10.3404
之行	-10.3405
概	-10.3407
工部侍郎	-10.3408
哨	-10.3408
内附	-10.3409
苟	-10.3413
勉之	-10.3413
以致	-10.3419
人其孫	-10.3425
所以為	-10.3426
居家	-10.3427
倭赫	-10.3427
一家	-10.3427
西路	-10.343
昆	-10.3433
二十四年	-10.3435
又謂	-10.3436
同里	-10.3454
詩書	-10.3463
家貧	-10.3465
淪	-10.3467
壬辰	-10.3472
叢	-10.3473
倘	-10.3475
倖	-10.3475
髙宗	-10.3476
徼	-10.3479
大明	-10.3489
原任六品官	-10.3492
親兄	-10.3496
起居	-10.3501
前鋒	-10.3501
自以為	-10.3506
禍福	-10.3509
金帛	-10.3511
知者	-10.3515
憐	-10.3521
生民	-10.3523
不入	-10.3524
丹津	-10.3524
緝	-10.3528
濁	-10.3529
尼堪	-10.3529
敖	-10.3529
寕	-10.3532
珠爾	-10.3533
元兵	-10.3536
歿	-10.3536
雞	-10.3536
麥	-10.3537
埀	-10.3537
自任	-10.3537
大理評事	-10.3538
公對曰	-10.3538
朋黨	-10.3547
大本	-10.3551
不利	-10.3553
豫章	-10.3555
七人	-10.3557
千萬	-10.3558
有道	-10.3564
進兵	-10.3565
二格	-10.3577
之使	-10.3581
恢	-10.3583
自為	-10.3587
軍務	-10.3592
預修	-10.3592
碎	-10.3598
它	-10.3599
邱	-10.36
减	-10.3603
膽	-10.3604
懦	-10.3605
隣	-10.3605
汚	-10.3606
存亡	-10.3606
意思	-10.3606
聖門	-10.3607
不去	-10.3609
賔客	-10.3609
可得	-10.3613
不茍	-10.3619
汝愚	-10.3619
宗社	-10.3629
之物	-10.3635
自號	-10.3637
杜門	-10.3642
者甚衆	-10.3648
斬首	-10.3649
烏梁海	-10.3652
應之	-10.3658
圍錦州	-10.3662
所載	-10.3662
而求	-10.3663
額森	-10.3666
箴	-10.3666
穿	-10.3667
鬻	-10.3669
礙	-10.3669
衢	-10.3669
袍	-10.367
下令	-10.367
喀喇	-10.367
泄	-10.3671
於天下	-10.3673
嘉定	-10.3674
表裏	-10.3674
感應	-10.3676
嗣位	-10.3687
足矣	-10.3688
不赴	-10.3689
在於	-10.3689
艱難	-10.3691
京城	-10.3691
復有	-10.3696
大理	-10.3697
道路	-10.3699
四格	-10.3703
不悦	-10.3704
而巳	-10.3709
至正	-10.371
非有	-10.3713
臣子	-10.3717
民間	-10.3718
泰原任	-10.3725
張公	-10.3729
箕	-10.3733
陪	-10.3734
愆	-10.3736
翻	-10.3738
四世	-10.3739
廪	-10.374
公亦	-10.374
南昌	-10.374
也且	-10.3744
故能	-10.3746
數十萬	-10.3746
之衆	-10.3751
有竒	-10.3757
算	-10.3757
異之	-10.3758
西京	-10.3762
俱原任佐領	-10.3765
内地	-10.3766
追至	-10.3767
不聴	-10.3768
歸於	-10.3775
珪	-10.3776
深入	-10.3776
副將	-10.378
秦州	-10.3782
人言	-10.3783
將帥	-10.3784
衣食	-10.3785
無功	-10.3786
罷之	-10.379
鞏	-10.379
不就	-10.3791
上問	-10.3792
之師	-10.3792
守臣	-10.3795
國夫人	-10.3796
彛	-10.3796
吾人	-10.3799
漢唐	-10.3801
爾賽	-10.3803
體用	-10.3807
介甫	-10.3808
在我	-10.381
㑹稽	-10.3812
臺諫	-10.3814
畝	-10.3819
未易	-10.382
亦自	-10.3829
物之	-10.383
多矣	-10.3831
問學	-10.3832
政和	-10.3832
功臣	-10.3833
置之	-10.3837
順治	-10.3837
所聞	-10.3841
巴圖	-10.3842
孔明	-10.3844
乎其	-10.3845
南海	-10.3847
侍讀學士	-10.3853
打	-10.386
揮	-10.3863
襲職任	-10.3864
准	-10.3865
篆	-10.3867
慤	-10.3868
區區	-10.3869
鞫	-10.3869
以俟	-10.3871
皇太后	-10.3871
汾	-10.3873
馭	-10.3875
招撫	-10.3877
推官	-10.3884
不可得	-10.3887
有不	-10.3887
張氏	-10.3891
辛未	-10.3892
諸司	-10.3893
有無	-10.3895
永嘉	-10.3896
而成	-10.3906
欣	-10.3907
識者	-10.391
下詔	-10.3911
通志	-10.3911
知有	-10.3915
十餘萬	-10.392
之術	-10.3923
色稜	-10.3924
臻	-10.3929
迂	-10.3933
舅	-10.3933
弁	-10.3933
戊辰	-10.3934
之先	-10.3935
渾然	-10.3937
邵武	-10.3939
封輔國公	-10.3941
尚有	-10.3946
太和	-10.3947
公至	-10.3949
便宜	-10.3962
道心	-10.3963
奉祠	-10.397
宗正	-10.3975
薩克	-10.3976
同族世居	-10.3981
不逺	-10.3982
自家	-10.3985
右係有傳	-10.3987
群	-10.3987
死之	-10.399
非是	-10.399
待之	-10.3991
在位	-10.3991
淮西	-10.3992
話	-10.3998
刑部侍郎	-10.3999
鉅	-10.4002
嫉	-10.4006
抄	-10.4015
用人	-10.4015
死而	-10.4016
楊士竒	-10.4023
宋儒	-10.4025
烏喇	-10.4027
之所謂	-10.4028
天資	-10.4033
言性	-10.4036
所宜	-10.4038
正人	-10.4039
故人	-10.4041
公自	-10.405
坑	-10.4066
斌	-10.4066
疇	-10.4066
倣	-10.4068
瑋	-10.4071
熾	-10.4073
事聞	-10.4074
太常少卿	-10.4076
存養	-10.4076
以養	-10.4078
以獻	-10.408
郡志	-10.4082
天下事	-10.4085
權貴	-10.4086
不覺	-10.4092
累官	-10.4095
人生	-10.4095
歸之	-10.4096
宦官	-10.4102
制度	-10.4102
乃知	-10.4107
𤓰	-10.4121
力戰	-10.4122
訐	-10.4125
人少	-10.4127
嘗以	-10.4127
討之	-10.4129
蹇	-10.413
羞	-10.4133
餽	-10.4135
賻	-10.4136
其兄	-10.4136
乎曰	-10.4137
嶠	-10.4138
言事	-10.4138
竟不	-10.4139
酷	-10.414
傲	-10.4142
頃之	-10.4142
而復	-10.4142
於上	-10.4143
克圖	-10.4146
何事	-10.4147
恱	-10.4147
先主	-10.4147
措置	-10.4147
布爾	-10.4156
年八十	-10.4157
㑹試	-10.4159
乙未	-10.4162
華色	-10.4168
擊賊陣亡	-10.4169
事上	-10.4169
楞額	-10.4172
是嵗	-10.4173
七世孫	-10.4178
公既	-10.4183
禧	-10.4186
嗟乎	-10.4188
嚕	-10.419
漠	-10.4192
侍衞	-10.4193
則不	-10.4194
悅	-10.4196
耆	-10.4197
處士	-10.4198
儒臣	-10.4203
閭	-10.4204
粮	-10.4207
相望	-10.4208
飽	-10.4209
二程	-10.4211
號為	-10.4212
悍	-10.4215
一曰	-10.4219
明徳	-10.4219
其所以	-10.423
戒懼	-10.4231
本貫	-10.4232
紹聖	-10.4239
雅爾	-10.4246
一本	-10.4249
實錄	-10.4251
俱原任䕶軍校	-10.426
煥	-10.4263
爾布	-10.4265
鵬	-10.4265
昂	-10.4266
矣夫	-10.4266
其可	-10.4268
桑阿	-10.4268
疏言	-10.4272
行者	-10.4272
膳	-10.4273
逵	-10.4273
殉	-10.4278
同年	-10.4278
私意	-10.4279
亢	-10.428
書云	-10.4287
毫	-10.4291
太宗曰	-10.4299
宣撫使	-10.4299
諾顔	-10.4302
大喜	-10.4304
詣闕	-10.4307
足下	-10.4307
中人	-10.4316
於時	-10.4318
二三	-10.4323
鄉薦	-10.4325
引兵	-10.4325
嘉之	-10.4326
之利	-10.4327
重之	-10.4329
沿	-10.4332
孔門	-10.4334
贊曰	-10.4338
鸞	-10.4341
魏忠賢	-10.4342
唐古特	-10.4342
霄	-10.4342
羲	-10.4346
嫡	-10.4346
靣	-10.4346
沐	-10.4347
唱	-10.4347
寖	-10.4352
壺	-10.4353
鞭	-10.4354
愛之	-10.4374
朝鮮	-10.4376
在人	-10.4379
時方	-10.4389
以為不可	-10.4391
斛	-10.4391
公議	-10.4393
葉赫	-10.4395
皇子	-10.4395
襲三次襲	-10.4399
語録	-10.4403
皆可	-10.4406
斤	-10.4411
規模	-10.4412
庻	-10.4412
於道	-10.4413
銷	-10.4413
性情	-10.4415
宰執	-10.4416
誡	-10.4418
訣	-10.442
先生之	-10.4431
力辭	-10.4441
公論	-10.4442
支離	-10.4446
用心	-10.4446
知也	-10.4447
之數	-10.445
此其	-10.4452
人多	-10.4455
還朝	-10.4456
爾吉	-10.4456
中貴人	-10.4459
告子	-10.4463
卒年六十	-10.4467
鄂齊爾	-10.4467
後進	-10.4469
治平	-10.447
不變	-10.4472
自信	-10.4474
常在	-10.4475
歸年分無考其子	-10.4477
凉	-10.4479
喀爾	-10.4479
登進士第	-10.448
耗	-10.4483
庚辰	-10.4485
愼	-10.4487
丐	-10.4488
國子祭酒	-10.449
鼔	-10.4491
弭	-10.4492
相公	-10.4493
奢	-10.4494
灘	-10.4497
答曰	-10.4502
樞宻院	-10.4503
現係䕶軍	-10.4505
歸年分無考其孫	-10.4506
後來	-10.4506
劄	-10.4531
迄	-10.4548
之機	-10.4549
千人	-10.455
魄	-10.4551
先生之學	-10.4552
浙東	-10.4558
膠	-10.4558
涯	-10.4559
學之	-10.4559
而退	-10.4566
小學	-10.4566
郤	-10.4567
三省	-10.4573
縣人	-10.4575
乎此	-10.4577
得一	-10.4583
達瓦齊	-10.4583
莫如	-10.4586
入於	-10.4588
哲宗	-10.4589
曰某	-10.4595
力學	-10.4598
莆	-10.46
侍御史	-10.4602
入為	-10.4602
入城	-10.4607
為言	-10.461
稱之	-10.461
年六十	-10.4618
巴圖魯	-10.462
敢言	-10.4621
帑	-10.4622
燧	-10.4623
饒州	-10.4623
也是	-10.4624
禎	-10.4625
柵	-10.4631
翌日	-10.4632
承宗	-10.4634
襟	-10.4635
公所	-10.4636
遣兵	-10.4637
而未	-10.4643
著有	-10.4645
妨	-10.4652
臣之	-10.4654
動而	-10.4661
來歸年分無考其子	-10.4664
其在	-10.4666
建炎	-10.4667
不避	-10.467
不止	-10.467
格爾	-10.4671
知公	-10.4673
然其	-10.4674
訓導	-10.4674
曰公	-10.4675
沛	-10.4676
庚	-10.4681
二等	-10.4681
無異	-10.4683
此一	-10.4697
携	-10.4697
歴官	-10.47
弩	-10.4702
愍	-10.4703
己巳	-10.4711
十數	-10.4717
三十五年	-10.4721
詔書	-10.473
主上	-10.473
孔氏	-10.4732
之分	-10.4735
而知	-10.474
事有	-10.4749
處州	-10.4752
有罪	-10.4753
時事	-10.4753
現任主事	-10.4753
又嘗	-10.4754
不知所	-10.4756
之曾孫	-10.4758
品官	-10.476
即以	-10.4761
毅然	-10.4761
十日	-10.4762
可否	-10.4763
也非	-10.4766
以安	-10.477
谿	-10.477
之屬	-10.4772
演	-10.4773
挫	-10.4773
蔚	-10.4773
辛酉	-10.4775
殱	-10.4775
乙丑	-10.4775
郷	-10.4776
東北	-10.4778
亦非	-10.4779
濤	-10.478
從此	-10.4781
則又	-10.4785
家傳	-10.4788
嘉納	-10.4794
護	-10.48
巴什	-10.4801
建安	-10.4805
為二	-10.4807
卿等	-10.481
需	-10.4818
孫男	-10.4819
巴海	-10.4823
二十六年	-10.4827
遁去	-10.483
極論	-10.4832
右係應立傳之人	-10.4834
年三十	-10.4834
之美	-10.4837
廣州	-10.4838
始得	-10.4839
造化	-10.4839
不果	-10.4844
濶	-10.4845
不暇	-10.4848
二十餘	-10.4849
貟外郎	-10.4849
當其	-10.4852
未行	-10.4856
士民	-10.4856
萃	-10.4856
也自	-10.4857
翕然	-10.4859
講官	-10.486
鎮國公	-10.486
皇考	-10.4861
闗中	-10.4864
固山貝子	-10.4864
則為	-10.4868
生生	-10.4868
司馬光	-10.487
國初来歸	-10.4872
起復	-10.4872
敘功	-10.4873
斯文	-10.4876
堯夫	-10.4876
子貢	-10.4876
腹心	-10.4883
為性	-10.4885
學於	-10.4885
無二	-10.4886
奉使	-10.4889
贈太師	-10.4894
十人	-10.4898
而實	-10.4903
之弟	-10.4907
致之	-10.491
右翼	-10.4911
疏請	-10.4911
而生	-10.4914
夫婦	-10.4916
滿洲	-10.4917
庶吉士	-10.4919
匠	-10.4924
慙	-10.4924
全體	-10.4925
晉侯	-10.4927
將以	-10.4928
本於	-10.493
遥	-10.4935
丙子	-10.4936
語曰	-10.4941
從而	-10.4941
手詔	-10.4941
開國	-10.4945
省察	-10.4946
之主	-10.4947
渡河	-10.4948
子思	-10.4948
阿睦爾撒納	-10.4963
即此	-10.4964
以故	-10.4966
救之	-10.4967
稱為	-10.4976
成就	-10.4976
兵馬	-10.4978
譬	-10.4978
乃命	-10.4981
現係馬甲	-10.4984
何不	-10.4984
箇	-10.4988
以正	-10.4988
居民	-10.4989
柯	-10.499
荅	-10.4997
廸	-10.4997
辛丑	-10.4998
楷	-10.4998
羡	-10.5
正是	-10.5003
畱	-10.5003
感激	-10.5008
夙夜	-10.501
極言	-10.5011
言動	-10.5017
典禮	-10.5018
其行	-10.5018
自知	-10.502
生而	-10.5022
非常	-10.5023
無私	-10.5025
丹陽	-10.5026
東海	-10.5029
彦博	-10.503
伯克	-10.5033
至京	-10.5033
學者稱	-10.5034
文子	-10.5045
文定	-10.5046
天啟	-10.5055
少傅	-10.5058
歸化城	-10.5059
陛	-10.506
所云	-10.5061
給事	-10.5062
澗	-10.5066
相見	-10.5066
公公	-10.5066
哈薩克	-10.5069
翔	-10.5069
遮	-10.5069
諤	-10.507
聖徳	-10.5071
戢	-10.5072
未聞	-10.5072
加一雲騎尉	-10.5072
手足	-10.5073
繪	-10.5074
入對	-10.5074
復命	-10.5075
巷	-10.5076
饗	-10.5076
隆阿	-10.5076
姻	-10.5077
太皇太后	-10.5078
不正	-10.5078
沆	-10.5084
匱	-10.5084
參軍	-10.5085
屢敗	-10.5086
學派	-10.5089
擊敗賊	-10.5091
其能	-10.5091
所論	-10.5097
原任頭等䕶衛	-10.5098
然有	-10.5111
不食	-10.5113
所向	-10.5121
亞	-10.5126
七日	-10.5127
敵人	-10.5127
要害	-10.5129
字元	-10.5137
氣節	-10.5138
劒	-10.5139
百世	-10.5139
東陽	-10.5141
自言	-10.5142
璟	-10.5144
為名	-10.5145
癸丑	-10.5146
廟堂	-10.5148
蹙	-10.5148
丙午	-10.5149
遐	-10.5151
枯	-10.5151
成額	-10.5152
神道碑	-10.5153
縮	-10.5154
三十一年	-10.5154
人世居	-10.5155
廼	-10.5155
拒之	-10.5155
由閒散	-10.5157
數十人	-10.5158
謂之曰	-10.5162
文簡	-10.5162
章句	-10.5168
懈	-10.517
原任内管領	-10.5173
者是	-10.5179
服其	-10.5186
男女	-10.5189
靈阿	-10.5189
授雲騎尉	-10.5199
宣諭	-10.5204
中書令	-10.5214
何謂	-10.5214
其用	-10.5214
心而	-10.522
頑	-10.522
扣	-10.522
授為	-10.5221
籌	-10.5222
龔	-10.5223
李公	-10.5224
癸未	-10.5226
六格	-10.5226
乃得	-10.5226
稷	-10.5227
中和	-10.5233
緩急	-10.5237
奏議	-10.5238
諸葛亮	-10.5241
兼學士	-10.5244
或謂	-10.525
先王之	-10.5252
災異	-10.5253
一一	-10.5254
因以	-10.5257
行人	-10.5264
臨安	-10.5266
不著	-10.5273
此時	-10.5274
山下	-10.5277
者或	-10.5277
過人	-10.5277
待罪	-10.5279
䕃	-10.5279
而起	-10.5282
而入	-10.5287
云云	-10.529
知識	-10.5291
國太夫人	-10.5292
二等輕車都尉	-10.5297
闔	-10.5301
涼	-10.5301
大驚	-10.5303
諸部	-10.5306
牌	-10.5306
愁	-10.5306
輦	-10.5306
獨不	-10.5307
夔	-10.5307
以文	-10.5307
祔	-10.5308
乾坤	-10.5308
佚	-10.531
王道	-10.5311
則必	-10.5313
便殿	-10.5324
無罪	-10.5326
佛老	-10.5338
之道也	-10.5342
矣又	-10.5343
若無	-10.535
布政	-10.5359
世襲	-10.536
安置	-10.5361
斯道	-10.5362
色布騰	-10.5362
名儒	-10.5363
莫若	-10.5365
正直	-10.5366
名士	-10.537
衆人	-10.5375
原任三等䕶衞	-10.5377
孽	-10.5377
琮	-10.5379
燒	-10.5383
五千	-10.5385
矣公	-10.5386
文莊	-10.5389
又與	-10.5392
仕至	-10.5394
無極	-10.5395
畧曰	-10.5399
必不	-10.5399
己未	-10.54
胸中	-10.5403
周旋	-10.5408
知本	-10.5419
諡忠	-10.542
不能自	-10.5421
之辨	-10.5422
五行	-10.5423
景公問	-10.5423
益州	-10.5427
張子	-10.5427
之原	-10.5428
公私	-10.5429
不朽	-10.5432
棄之	-10.5432
索柱	-10.5435
諌官	-10.544
五代	-10.5444
桐	-10.5444
綱常	-10.5445
旒	-10.5445
巴哈	-10.545
為宗	-10.5452
顏	-10.5453
左翼	-10.5454
錡	-10.5454
釐	-10.5457
總裁	-10.5457
慘	-10.5458
八百	-10.5458
庚戌	-10.5459
熱	-10.5459
丙辰	-10.5459
常平	-10.5459
武昌	-10.546
墩	-10.5463
狥	-10.5464
墻	-10.5464
無過	-10.5465
也遂	-10.5466
迺	-10.5466
肅然	-10.5466
匈奴	-10.5467
拾遺	-10.5467
輟	-10.5468
江州	-10.5468
忠厚	-10.5469
出師	-10.5471
可與	-10.5471
輝發地方	-10.5471
村地方	-10.5475
原任二等侍衛	-10.5477
僧格	-10.5481
靡不	-10.5484
曰彼	-10.5484
意見	-10.5484
政府	-10.5487
感動	-10.5489
儒學	-10.5493
原任筆帖	-10.5493
大破之	-10.5496
漳州	-10.5499
得免	-10.5504
登第	-10.5505
朝議	-10.5509
於家	-10.552
綺	-10.5521
求其	-10.5521
辭曰	-10.5521
現係監生	-10.5523
異同	-10.5525
贈雲騎尉其子	-10.5525
俱原任驍騎校	-10.553
城守	-10.5532
璉	-10.5532
廖	-10.5534
戕	-10.5534
宛	-10.5535
甘肅	-10.5536
大理寺丞	-10.5537
盍	-10.5538
袖	-10.5541
廣大	-10.5544
原任驍騎校孫	-10.5548
趙氏	-10.5549
泰山	-10.5553
子羽	-10.5555
先天	-10.5559
號曰	-10.556
言路	-10.5564
蔡京	-10.5565
其屬	-10.5585
聖明	-10.5592
平時	-10.5602
郡邑	-10.5605
諸道	-10.561
數十年	-10.5615
膚	-10.5618
吝	-10.5619
拯	-10.5619
闇	-10.5621
絹	-10.5621
疑之	-10.5624
公乃	-10.5624
柳	-10.5627
孝子	-10.5628
而上	-10.5628
勤勞	-10.5634
百户	-10.5636
以次	-10.5636
安世	-10.5637
十餘人	-10.5638
心性	-10.5638
之類	-10.5649
凡所	-10.565
圖爾	-10.565
䕶軍叅領	-10.5657
吾之	-10.5659
人者	-10.5661
清明	-10.5669
學行	-10.567
土爾扈特	-10.5673
永感下第	-10.5676
湖州	-10.5678
曰若	-10.568
呈	-10.5684
廹	-10.5692
一代	-10.5693
肥	-10.5694
胄	-10.5694
屍	-10.5694
浄	-10.5694
召入	-10.57
不加	-10.5704
綜	-10.5705
白金	-10.5709
削籍	-10.5709
所學	-10.5717
夏人	-10.5722
無疑	-10.5727
縣丞	-10.5729
不法	-10.5732
以明	-10.5733
濟南	-10.5735
至大	-10.5744
尼雅	-10.5748
閩中	-10.5748
可知	-10.5749
邊事	-10.5751
故不仕本貫	-10.5753
尋以	-10.5754
軍功	-10.5755
之内	-10.5757
都城	-10.5759
若干	-10.5763
鑲藍旗人世居	-10.5763
夸	-10.5764
此皆	-10.5766
萬户	-10.5768
而欲	-10.5769
正白旗人	-10.577
韜	-10.5772
户部侍郎	-10.5775
寒暑	-10.5775
而反	-10.5776
異於	-10.5777
箭	-10.5777
太保	-10.5778
其他	-10.5778
文忠	-10.5781
喜曰	-10.5783
僭	-10.5784
瀋陽地方	-10.5785
醜	-10.5787
紫陽	-10.5788
廬陵	-10.579
不亦	-10.5793
及門	-10.5793
理氣	-10.5794
来歸年分無考	-10.5796
之失	-10.5797
者公	-10.58
者何	-10.5803
把總一兵	-10.5805
合而	-10.5806
欣然	-10.5808
何必	-10.5811
無物	-10.5817
太傅	-10.582
之亂	-10.582
因其	-10.5822
二十五	-10.5823
父兄	-10.5824
男子	-10.5824
應詔	-10.5834
散秩大臣	-10.5838
上御	-10.5842
為滿洲一姓其氏族	-10.5842
喇嘛	-10.5843
敢不	-10.5844
正紅旗人	-10.5846
岩	-10.5849
心則	-10.585
皆不	-10.5852
額敏和卓	-10.5852
引去	-10.5857
大王	-10.5858
芻	-10.5859
肩	-10.586
艘	-10.586
為詩	-10.586
為我	-10.586
興化	-10.5861
郢	-10.5862
繋	-10.5862
訛	-10.5862
兇	-10.5862
便有	-10.5863
以為然	-10.5864
汰	-10.5864
宸	-10.5869
童子	-10.587
弑	-10.5873
人事	-10.5873
嘗有	-10.5878
以報	-10.588
夫子之	-10.588
原任副都統	-10.5881
山林	-10.5883
祭祀	-10.5886
事事	-10.5887
宗族	-10.5887
叔父	-10.5887
公品級	-10.5888
之害	-10.5896
姓此一姓世居	-10.5899
間有	-10.5901
從祀	-10.5902
墓誌銘	-10.5903
阿哈	-10.5906
考其	-10.5908
少年	-10.5917
金石	-10.5927
而又	-10.5931
欲為	-10.5932
以上俱係國初來歸之人	-10.5933
刑部主事	-10.5935
西安	-10.5938
親叔	-10.5938
壬午	-10.5939
噫	-10.5941
叚	-10.5941
命也	-10.5941
不思	-10.5941
睹	-10.5944
憑	-10.5946
行於世	-10.5946
球	-10.5947
若夫	-10.5954
與語	-10.5955
無人	-10.5956
識之	-10.5958
攻之	-10.5959
千餘人	-10.5962
原任三等侍衞	-10.5964
人性	-10.5965
監國	-10.597
吾子	-10.5971
禮義	-10.5972
也上	-10.5973
不須	-10.5979
喜怒	-10.5982
無形	-10.5983
天人	-10.5985
一子	-10.599
進講	-10.599
内大臣	-10.5993
親征	-10.601
㤗	-10.6012
何故	-10.6013
度支	-10.6016
舊制	-10.6018
舌	-10.6019
牘	-10.602
卒於	-10.6021
庫爾	-10.6022
進曰	-10.6023
又請	-10.6023
與夫	-10.6025
甲戌	-10.6026
桓公	-10.6026
傳之	-10.6027
拓	-10.6027
畔	-10.6029
人以為	-10.6033
一夕	-10.6034
加恩	-10.6038
罷去	-10.6038
責之	-10.6041
孟子曰	-10.6042
稱善	-10.6044
常綬	-10.6044
成敗	-10.6049
經學	-10.605
授以	-10.605
統之	-10.6051
二先生	-10.6054
二十餘年	-10.6055
康齋	-10.6061
江上	-10.6069
子産	-10.6072
不克	-10.6072
西銘	-10.6072
思哈	-10.6074
吾心之	-10.6074
四百	-10.6075
主之	-10.6077
騷	-10.6077
遣歸	-10.6078
廷和	-10.608
所用	-10.6086
之𩔖	-10.6092
驍	-10.6101
仁義禮智	-10.6103
不測	-10.6103
新法	-10.6103
鑲黄旗包衣旗鼓人世居瀋陽地方來	-10.6104
者衆	-10.6106
狹	-10.6106
聊	-10.6107
鈎	-10.6108
乂	-10.6112
迭	-10.6113
婢	-10.6115
體也	-10.612
其君	-10.613
珠瑚	-10.6134
二十八年	-10.6137
不一	-10.6138
安民	-10.6138
所作	-10.6139
經畧	-10.6139
蘇爾	-10.6142
莫之	-10.615
援兵	-10.6151
軌	-10.6153
未始	-10.6158
敘	-10.6159
大業	-10.6161
於前	-10.6163
南安	-10.6164
通阿	-10.6166
矣此	-10.6171
五品	-10.6174
疏入	-10.6175
劉公	-10.6179
員外	-10.6179
矣其	-10.6185
萬古	-10.6186
鮑	-10.6187
愷	-10.6188
元氣	-10.6189
戊戌	-10.6189
鉞	-10.6189
中使	-10.6189
籠	-10.6189
異日	-10.6191
慶元	-10.6192
䑓	-10.6192
教化	-10.6192
紛紛	-10.6192
而民	-10.6193
墓誌	-10.6194
望風	-10.6208
公著	-10.6209
瓘	-10.6209
太僕	-10.621
大畧	-10.6211
出兵	-10.6217
也哉	-10.6218
在朝	-10.623
手書	-10.623
二府	-10.6234
邑人	-10.6234
為滿洲一姓其氏	-10.6236
卒年五十	-10.6237
倉卒	-10.6239
年老	-10.624
些	-10.6245
其親	-10.6246
遇之	-10.6254
立功	-10.6255
有能	-10.6257
準噶爾	-10.6257
而立	-10.6259
安撫使	-10.626
公等	-10.626
禕	-10.6261
山谷	-10.6268
零	-10.627
筭	-10.6273
不可得而	-10.6274
䜛	-10.6274
聳	-10.6275
壻	-10.6277
同志	-10.6278
㝠	-10.6278
灼	-10.6279
曩	-10.6279
貯	-10.6281
禮記	-10.6282
綴	-10.6284
檢校	-10.6289
作詩	-10.629
臣下	-10.6294
重兵	-10.63
之病	-10.6301
以病	-10.6302
亦何	-10.6303
行至	-10.6306
魯人	-10.6308
執中	-10.631
無嗣	-10.6312
正藍旗人	-10.6313
感悟	-10.6315
子也	-10.6316
永平	-10.6318
未定	-10.632
濮	-10.6333
及第	-10.6334
推之	-10.6336
移書	-10.6336
稱㫖	-10.6337
等䕶衞	-10.6337
數千人	-10.6337
土黙特	-10.6344
現係廕生	-10.6345
則可	-10.6345
講讀	-10.635
建議	-10.6352
受之	-10.6352
疏上	-10.6353
鉉	-10.6356
慟	-10.6357
文華殿	-10.6359
棲	-10.6359
瑩	-10.636
裝	-10.6361
踈	-10.6361
中間	-10.6362
節義	-10.6362
霞	-10.6362
牀	-10.6363
奨	-10.6363
留之	-10.6363
兩遇	-10.6364
豆	-10.6365
陂	-10.6365
交阯	-10.6365
暉	-10.6365
兼侍讀	-10.6366
歆	-10.6366
君父	-10.6367
其私	-10.6368
吾道	-10.6372
無遺	-10.6374
中山	-10.6376
䖍	-10.6376
之子也	-10.6377
聲色	-10.638
門户	-10.6385
奏言	-10.6387
自立	-10.6389
嶺南	-10.6391
三曰	-10.6391
抗疏	-10.6392
監軍	-10.6392
達哈	-10.6397
人亦	-10.6399
二萬	-10.6399
見聞	-10.6404
考亭	-10.6407
光世	-10.641
南都	-10.6411
逝	-10.6413
又問	-10.6418
多少	-10.6423
上親	-10.6424
立志	-10.6425
崇徳	-10.6427
各一	-10.6434
發其	-10.6436
芬	-10.6436
此語	-10.6436
文辭	-10.6436
官屬	-10.6437
原任䕶軍校孫	-10.6438
哈納	-10.644
諧	-10.6442
戌	-10.6443
丁酉	-10.6445
一書	-10.6445
冥	-10.6447
▁尉	-10.6447
布政使	-10.6447
堰	-10.6447
兼侍講	-10.6447
兩宫	-10.6447
謝曰	-10.6448
原任驍騎校元孫	-10.6449
庾	-10.6449
鱗	-10.6449
根敦	-10.6451
南康	-10.6454
譬之	-10.6455
皇祐	-10.6457
軫	-10.6459
楊氏	-10.6461
伏誅	-10.6461
不取	-10.6461
賊衆	-10.6462
南山	-10.6465
泗	-10.6466
現任步軍校	-10.6476
異時	-10.6477
易之	-10.6484
疑其	-10.6485
上帝	-10.6487
巴勒	-10.6489
甚厚	-10.6489
百人	-10.6489
等書	-10.6492
南渡	-10.6492
不喜	-10.6494
不妄	-10.6496
主敬	-10.6498
軍事	-10.6499
其年	-10.65
心者	-10.6501
晉江	-10.6503
都爾	-10.6509
之遺	-10.6509
城門	-10.6513
授扎薩克	-10.6514
非所	-10.6515
鑲白旗人世居	-10.6516
丕勒	-10.6517
拾	-10.6524
取士	-10.6527
天地間	-10.6527
進取	-10.6528
治天下	-10.6532
峙	-10.6533
一生	-10.6534
縝	-10.6534
䖏	-10.6535
菜	-10.6538
砦	-10.6539
太常博士	-10.6544
書成	-10.655
熙寧	-10.6551
平陽	-10.6562
本傳	-10.6562
慶厯	-10.6566
孝經	-10.6568
聞公	-10.6568
之兵	-10.6569
外無	-10.6572
子男	-10.6572
俘獲	-10.6573
安排	-10.6574
六人	-10.658
内臣	-10.6581
戸部	-10.6583
使臣	-10.6586
明安	-10.6586
為諸生	-10.6588
公請	-10.6589
武宗	-10.659
之始	-10.6594
來歸年分無考其孫	-10.6596
濵	-10.6596
召試	-10.6608
詔世襲罔替	-10.6609
知所	-10.6613
着	-10.6616
侂胄	-10.6617
賁	-10.6617
戊申	-10.6619
滕	-10.662
鑲黄旗包衣管領下人世居瀋陽地方	-10.662
扎爾	-10.6621
渙	-10.6621
諫議大夫	-10.6621
冶	-10.6623
薩穆哈	-10.6624
甲午	-10.6625
羸	-10.6625
温公	-10.6629
與王	-10.663
言於	-10.6631
現任八品官	-10.6634
錦衣	-10.6636
人不	-10.6639
先公	-10.6639
初授	-10.6639
行也	-10.6646
建言	-10.665
瑚什	-10.6654
以道	-10.6655
見公	-10.6655
任員外郎	-10.6656
不解	-10.6657
邪正	-10.6659
哈密	-10.6659
受其	-10.666
朱氏	-10.6663
其性	-10.6666
皆在	-10.6669
財用	-10.6669
中節	-10.6673
于此	-10.6673
俄羅斯	-10.6683
同官	-10.6684
三十六年	-10.6691
此非	-10.6693
如也	-10.6695
卒其孫	-10.6695
以謂	-10.6702
臨事	-10.6702
歙	-10.6702
有意	-10.6703
祀之	-10.6705
竈	-10.6705
毫釐	-10.6706
守禦	-10.6706
𣙜	-10.6709
就道	-10.671
偽總兵	-10.671
作亂	-10.6711
婁	-10.6711
柩	-10.6712
狗	-10.6715
晦翁	-10.6716
逞	-10.6716
約束	-10.6716
以見	-10.6716
壬子	-10.6721
有五	-10.6723
伊洛	-10.6727
徃徃	-10.673
奔走	-10.6733
太虛	-10.6734
公嘗	-10.6735
幾何	-10.6735
而動	-10.6737
其為人	-10.6738
二聖	-10.674
一員	-10.674
滄	-10.6741
之憂	-10.6744
人父	-10.6745
對曰臣	-10.6746
原任御史	-10.6748
前代	-10.6756
與焉	-10.6757
不負	-10.6766
尚書令	-10.677
國用	-10.6771
吾輩	-10.6774
疾病	-10.6775
之望	-10.6775
鑲黄旗人世居	-10.6775
氣也	-10.6784
否則	-10.6786
次適	-10.6788
開封府	-10.6789
事皆	-10.6789
主於	-10.679
進攻	-10.6791
不惟	-10.6791
丙申	-10.6792
奉天	-10.6794
十事	-10.6797
禆	-10.6797
史館	-10.6798
有定	-10.68
核	-10.6802
上疏曰	-10.6802
乙酉	-10.6802
壓	-10.6802
定國	-10.6802
沔	-10.6804
媿	-10.6806
上蔡	-10.6807
知州	-10.6807
寔	-10.6809
噶哈	-10.6816
安南	-10.682
之正	-10.6821
其次	-10.6824
庚子	-10.6824
明兵	-10.6826
四十里	-10.6829
何物	-10.683
二曰	-10.683
烏什	-10.6834
前此	-10.6836
原任前鋒校	-10.6839
多羅貝勒	-10.6842
發兵	-10.6844
無算	-10.6844
竒之	-10.6845
流俗	-10.6846
三十六	-10.6848
發之	-10.6849
光明	-10.685
覲	-10.685
固守	-10.685
大江	-10.685
主管	-10.6851
先生以	-10.6853
又明年	-10.6854
襲輔國公	-10.6854
生擒	-10.6858
極其	-10.6859
人之所	-10.686
守將	-10.6866
三公	-10.6868
次曰	-10.6869
扎薩克輔國公	-10.6871
獲罪	-10.6874
正白旗人世居	-10.6874
之權	-10.6875
駐蹕	-10.6875
剿	-10.6877
卒年八十	-10.6877
不答	-10.688
苖	-10.6883
之靈	-10.6883
史官	-10.6884
布禄	-10.6887
牟	-10.6887
原任叅領	-10.6888
黄氏	-10.6888
歉	-10.6888
牆	-10.6888
天聖	-10.6889
洙	-10.6892
繞	-10.6892
艮	-10.6892
踐履	-10.6893
凢	-10.6894
之賢	-10.6896
觴	-10.6896
姊	-10.6899
廷試	-10.69
亦多	-10.6902
諸君	-10.6903
之樂	-10.6904
騎尉	-10.6908
臣恐	-10.6912
五里	-10.6913
荆南	-10.6914
秀才	-10.6917
爾瑚	-10.6921
愛民	-10.6922
理會	-10.6924
稱職	-10.6925
任事	-10.6925
現任三等侍衛	-10.693
蘇氏	-10.6933
髮	-10.6934
俱原	-10.6946
吉林烏喇地方	-10.6951
爭之	-10.6955
繼母	-10.6959
前輩	-10.6959
温州	-10.696
以公為	-10.696
奪其	-10.6962
莆田	-10.6962
不輟	-10.6965
▁加之職承襲	-10.6965
周易	-10.6968
原任五品官	-10.6968
一篇	-10.697
閻	-10.6972
從征雲南	-10.6972
則心	-10.6976
國正黄旗人世居	-10.6976
守令	-10.6977
聨	-10.6978
栗	-10.6978
層	-10.6978
戒慎恐懼	-10.6979
釣	-10.698
徃來	-10.6982
友諒	-10.6982
羈	-10.6982
壮	-10.6982
國鑲黄旗人世居	-10.6983
叩頭	-10.6983
懽	-10.6983
蘆	-10.6984
槐	-10.6985
窘	-10.6986
示之	-10.6988
詔獄	-10.6989
長樂	-10.699
錢塘	-10.6992
出而	-10.6995
而不可	-10.6996
樞密院	-10.6998
方畧	-10.7
之業	-10.7001
晏子對曰	-10.7005
不滿	-10.7007
班師	-10.7007
兩浙	-10.701
王室	-10.7016
成進士	-10.7029
晏子諫	-10.703
其勢	-10.7042
令人	-10.7042
正黄旗人世居	-10.7043
河西	-10.7048
自己	-10.7049
諭以	-10.705
相似	-10.7052
逆瑾	-10.7054
否曰	-10.7057
惟公	-10.706
知此	-10.7061
二十八	-10.7062
李先生	-10.7062
原任佐領孫	-10.7062
緑	-10.7063
本原	-10.7067
掇	-10.7068
戊午	-10.7069
揺	-10.7069
囂	-10.707
所行	-10.7071
購	-10.7072
技	-10.7073
態	-10.7073
主静	-10.7074
憶	-10.7075
剖	-10.7077
棘	-10.7077
騎都尉兼一雲騎尉	-10.7078
督學	-10.7079
朱文公	-10.7083
以老	-10.7085
士之	-10.7087
宫中	-10.7089
故有	-10.709
信之	-10.7092
河朔	-10.7096
閉門	-10.7097
涇	-10.7106
落職	-10.7109
順昌	-10.7112
都督府	-10.7113
官兵	-10.7114
道南	-10.7114
第五	-10.7116
始知	-10.7119
天也	-10.7121
條理	-10.7124
使其	-10.7126
黑龍江地方	-10.7129
大禮	-10.713
曰天	-10.713
之䇿	-10.7131
經略	-10.7132
二十一	-10.7132
尋陞	-10.7133
周禮	-10.7134
大典	-10.7135
蜀人	-10.7139
令其	-10.7142
提學	-10.7143
由䕶軍校從征	-10.7146
後有	-10.7147
之極	-10.7148
胡什	-10.7149
原是	-10.7153
辦事	-10.7154
語及	-10.7158
原任廐長	-10.7159
理也	-10.7161
其子孫	-10.7162
二十萬	-10.7162
非禮	-10.7162
斜	-10.7163
近日	-10.7163
搏	-10.7164
渥	-10.7164
瑗	-10.7166
網	-10.7166
矧	-10.7166
扁	-10.7168
僣	-10.7168
不以為	-10.7168
僑	-10.7168
妹	-10.7169
名節	-10.7169
沃	-10.717
斧	-10.7171
慊	-10.7172
允文	-10.7174
明德	-10.7174
最為	-10.7177
廬州	-10.7177
子路	-10.7179
品級	-10.7183
左遷	-10.7186
其徒	-10.7187
晦菴	-10.7188
一路	-10.719
其體	-10.7192
曰先生	-10.7193
涕泣	-10.7195
嘗為	-10.7196
賜宴	-10.7197
善長	-10.72
職方	-10.7202
為治	-10.7203
一名	-10.7205
曰非	-10.7206
只有	-10.7208
也葢	-10.7215
君子小人	-10.7221
乞致仕	-10.7224
若水	-10.7225
經傳	-10.7233
京東	-10.7236
車布登	-10.7236
額爾克	-10.7237
而後已	-10.7237
杜爾伯特	-10.7237
樞密	-10.7238
黙然	-10.7239
徳之	-10.7242
亡何	-10.7242
聖祖	-10.7245
禡木特	-10.7247
左氏	-10.7248
現任郎中	-10.7248
所過	-10.7249
同心	-10.725
惟陛下	-10.7251
宣子	-10.7252
黯	-10.7252
因言	-10.7253
之資	-10.7254
縁事	-10.7254
不給	-10.7256
浹	-10.7257
殄	-10.7257
赤子	-10.7257
慚	-10.7261
頓首	-10.7261
復召	-10.7261
冐	-10.7262
仆	-10.7265
鯉	-10.7273
於學	-10.7275
祖父	-10.7276
則其	-10.7279
臨川	-10.728
武王	-10.7283
此之謂也	-10.7292
上前	-10.7297
人無	-10.7298
始有	-10.7311
千五百	-10.7313
心為	-10.7316
臣所	-10.7324
辜	-10.7325
凡有	-10.7327
正黄旗人	-10.7329
實有	-10.7329
班珠爾	-10.733
以全	-10.7332
都理	-10.7333
元和	-10.7335
兀	-10.7343
禽獸	-10.7344
刪	-10.7345
燮	-10.7345
正白旗包衣管領下人世居瀋陽地方	-10.7346
蝗	-10.7347
峒	-10.7349
資政殿學士	-10.735
悠	-10.7351
疋	-10.7351
蛟	-10.7352
灑	-10.7355
押	-10.7355
濱	-10.7355
纎	-10.7356
百家	-10.7357
祥符	-10.7357
綂	-10.7361
不逮	-10.7362
阿拉	-10.7362
然也	-10.7362
提刑	-10.7367
可以為	-10.7368
明堂	-10.7371
人或	-10.7372
吾身	-10.7372
樞宻使	-10.7373
福王	-10.7378
於是乎	-10.7384
承㫖	-10.7384
以便	-10.7385
世俗	-10.7387
至公	-10.7391
臣竊	-10.7395
三等男	-10.7396
不治	-10.7397
有加	-10.7399
河陽	-10.7401
城外	-10.7402
皆出	-10.7403
御前	-10.7405
誠心	-10.7406
究其	-10.7411
功業	-10.7411
危坐	-10.7412
一息	-10.7413
先生與	-10.7415
錫喇	-10.7421
生事	-10.7421
老子	-10.7425
八旗滿洲氏族通譜卷	-10.7426
喇布坦	-10.7427
旺扎勒	-10.7428
門生	-10.7431
亦未	-10.7431
薊	-10.7432
甚矣	-10.7432
精兵	-10.7432
入内閣	-10.7435
襲職三遇	-10.7436
䇿妄阿喇布坦	-10.7436
曰爾	-10.7437
達海	-10.7439
其職	-10.7439
尚未	-10.744
䕶軍統領	-10.7443
任防禦	-10.7443
己丑	-10.7444
軸	-10.7444
乍	-10.7445
閎	-10.7446
丁内艱	-10.7446
僥倖	-10.7448
禮也	-10.7448
霽	-10.7448
怯	-10.7449
惟其	-10.7449
自守	-10.745
無聲無臭	-10.7451
壬戌	-10.7451
然亦	-10.7451
襲職卒其	-10.7454
陛辭	-10.7456
墟	-10.7458
不可為	-10.7458
太常卿	-10.7459
原任頭等侍衛	-10.746
之謀	-10.7461
居之	-10.7464
此處	-10.7465
全活	-10.7467
所掠	-10.7468
寺丞	-10.7468
由佐領	-10.7468
四字	-10.7472
遂與	-10.7485
一巻	-10.7485
蘇州	-10.749
者自	-10.7491
於我	-10.7491
涇原	-10.7495
世傑	-10.7502
御史大夫	-10.7503
國鑲白旗人世居	-10.7512
齊賢	-10.7518
之妻	-10.7519
祖宗之	-10.752
敦多布	-10.7521
璽	-10.7522
今上	-10.7522
其民	-10.7525
者哉	-10.7525
樞宻	-10.7525
字叔	-10.7526
今為	-10.7532
濂	-10.7532
司農	-10.7535
辛亥	-10.7538
響	-10.7541
日益	-10.7542
版	-10.7542
惶	-10.7542
壬寅	-10.7542
麄	-10.7543
鳳翔	-10.7544
廡	-10.7544
霧	-10.7545
纂修	-10.7545
嘉其	-10.7546
洶洶	-10.7546
小心	-10.7547
穢	-10.7547
株	-10.7548
饌	-10.7548
瀕	-10.7549
辛巳	-10.7549
翺	-10.7549
行而	-10.7551
甲寅	-10.7551
羨	-10.7553
先朝	-10.7553
女子	-10.7554
圃	-10.7554
氣質之性	-10.7563
語人曰	-10.7567
不成	-10.7567
地方人其曽孫	-10.7568
受學	-10.7577
所存	-10.7577
上表	-10.7577
其上	-10.7578
無内外	-10.758
不祥	-10.758
最後	-10.7582
納之	-10.7583
浙西	-10.7585
相去	-10.7585
泰現任	-10.759
之末	-10.759
為此	-10.759
武臣	-10.7591
塔哈	-10.7591
還京	-10.7593
擊敗之	-10.7596
無用	-10.7604
原任筆	-10.7606
徐州	-10.7608
經濟	-10.7609
偏侍下第	-10.7616
帝王之	-10.7617
此乃	-10.7617
士人	-10.7617
羅卜藏丹津	-10.7621
有文	-10.7621
粲	-10.7621
陳公	-10.7622
復起	-10.7623
京口	-10.7627
也公曰	-10.763
隐	-10.7631
瀚	-10.7633
也故曰	-10.7634
報國	-10.7635
以私	-10.7635
水火	-10.7635
而終	-10.7635
國正藍旗人世居	-10.7636
覿	-10.7637
本院	-10.7637
鷄	-10.7637
則不可	-10.7638
件	-10.7638
坎	-10.7638
竝	-10.7642
著作佐郎	-10.7642
繆	-10.7643
聖人之道	-10.7643
摭	-10.7646
笞	-10.7647
壅	-10.7647
恚	-10.7648
瘠	-10.7648
縣主簿	-10.7649
一等輕車都尉	-10.765
黒龍江地方	-10.765
嶷	-10.7652
削去	-10.7654
嬖	-10.7654
仁也	-10.7655
三軍	-10.7658
無禮	-10.7659
㕘政	-10.766
椘	-10.766
其弊	-10.7663
特進	-10.7663
去其	-10.7665
貴人	-10.7667
詹事	-10.7668
二千石	-10.7668
何嘗	-10.7668
也及	-10.7671
登城	-10.7672
乃復	-10.7672
當然	-10.7675
髙明	-10.7676
一雲騎尉	-10.7676
兩淮	-10.7678
何可	-10.768
相率	-10.7682
胡公	-10.7687
北方	-10.7694
制置	-10.7696
却是	-10.7701
可行	-10.7704
布祿	-10.7704
天聰時	-10.7705
拙	-10.7706
貞觀	-10.7707
為文章	-10.7708
固已	-10.7709
何處	-10.7709
此之謂	-10.771
家事	-10.771
以濟	-10.7718
時為	-10.7718
叔祖	-10.772
時人	-10.7724
恰	-10.7725
論議	-10.7725
見上	-10.7726
且言	-10.7726
九江	-10.7726
扎薩克圖汗	-10.7727
踰月	-10.7728
雕	-10.7731
淹	-10.7734
抃	-10.7737
巡按	-10.7737
侃侃	-10.7738
躋	-10.7738
戊寅	-10.7739
更有	-10.774
闕下	-10.7742
上有	-10.7742
膝	-10.7742
售	-10.7742
之長子	-10.7743
非其	-10.7745
埋	-10.7746
罹	-10.7746
一舉	-10.7746
躁	-10.7747
時年	-10.7749
子二長	-10.775
甘泉	-10.7757
譬如	-10.7766
為大	-10.7766
婺州	-10.7767
海上	-10.7767
惜之	-10.7769
正色	-10.7771
之句	-10.7774
者三	-10.7778
太廟	-10.7779
累贈	-10.7782
兀魯特地方	-10.7782
機務	-10.7782
乃可	-10.7784
太極圖	-10.7787
江右	-10.7788
之四世孫	-10.7789
及此	-10.7794
絶人	-10.7795
人心之	-10.7795
二者	-10.7796
其四世孫	-10.7798
之流	-10.7801
上官	-10.7801
明經	-10.7803
召至	-10.7805
之㑹	-10.7805
之典	-10.7806
一則	-10.7809
原任䕶軍校元孫	-10.7814
人自	-10.7814
過之	-10.782
韓公	-10.7821
三十二年	-10.7822
見而	-10.7823
葉爾羌	-10.7824
不得其	-10.7827
憂國	-10.7828
頥	-10.783
電	-10.7831
北平	-10.7831
皆非	-10.7834
副都御史	-10.7834
筠	-10.7836
參知政事	-10.7836
殯	-10.7839
也即	-10.7839
寝	-10.7839
逆賊	-10.7839
矣乃	-10.784
規矩	-10.7841
鈍	-10.7841
左侍郎	-10.7841
餓	-10.7842
楹	-10.7845
搖	-10.7846
原任筆帖式元孫	-10.7846
一㸃	-10.7846
天聰時來歸其	-10.7847
歎息	-10.7848
左都御史	-10.7848
𦙍	-10.785
年少	-10.7852
所親	-10.7852
荆襄	-10.7854
起為	-10.7854
臺諌	-10.786
卞	-10.7863
墓碑	-10.7863
其親弟	-10.7867
徽宗	-10.7869
麾下	-10.7872
允之	-10.7881
親戚	-10.7881
不附	-10.7882
其辭	-10.7882
上疏言	-10.7886
不納	-10.7894
集賢	-10.7897
所司	-10.7899
世儒	-10.7902
曰臣聞	-10.7905
青州	-10.7908
先王	-10.791
文正公	-10.7911
文選	-10.7911
臨江	-10.7911
李文	-10.7911
從者	-10.7916
不學	-10.7918
惕	-10.7918
一室	-10.7924
沾	-10.7926
恩澤	-10.7927
御製	-10.7928
蓮	-10.7929
致其	-10.793
宗㫖	-10.7932
心無	-10.7933
脉	-10.7933
畀	-10.7934
繡	-10.7937
阮	-10.7938
貟	-10.7939
忝	-10.794
淮東	-10.794
簾	-10.794
却之	-10.7942
有年	-10.7942
柱國	-10.7942
馴	-10.7943
人力	-10.7944
湧	-10.7944
所自	-10.7944
春坊	-10.7944
公復	-10.7947
分為	-10.7952
誤國	-10.7954
不違	-10.7956
意氣	-10.7956
𣣔	-10.7962
常明	-10.7963
不願	-10.7966
須是	-10.7966
太上	-10.7966
富弼	-10.7967
由委署	-10.7968
又奏	-10.7969
意也	-10.7976
無能	-10.7977
之傳	-10.7979
統制	-10.7986
事不	-10.7993
太子太保	-10.7993
林氏	-10.7997
大中	-10.7998
喇什	-10.8
武功	-10.8004
必為	-10.8008
攻城	-10.8009
純仁	-10.801
從學	-10.8012
性理	-10.8016
多羅郡王	-10.8023
分無考	-10.8024
進封	-10.8027
阿爾台	-10.8027
入貢	-10.8028
甌	-10.8034
范公	-10.8035
牲	-10.8035
緯	-10.8036
蓬	-10.8036
扇	-10.8038
冰	-10.8039
擠	-10.8039
躡	-10.8039
桀	-10.804
遑	-10.804
交趾	-10.804
理㑹	-10.804
腐	-10.8041
淳熙	-10.8042
何足	-10.8043
外郎	-10.8043
淚	-10.8043
不能無	-10.8046
函	-10.8046
未有不	-10.8047
栻	-10.8047
科給事中	-10.8048
流於	-10.8049
無心	-10.805
逆璫	-10.805
上聞	-10.805
上䟽	-10.8051
於民	-10.8055
有才	-10.8055
弇	-10.8055
十巻	-10.8055
陰陽	-10.8056
祖妣	-10.8057
隆慶	-10.8065
一月	-10.8066
講明	-10.8066
其城	-10.8069
曹操	-10.8073
賽音	-10.8076
尤為	-10.8078
旬日	-10.8078
其說	-10.808
遊擊	-10.8081
歸年分無考其曽孫	-10.8084
討賊	-10.8085
族人	-10.809
君實	-10.8091
永安	-10.8092
於物	-10.8096
可惜	-10.8102
守正	-10.8104
來降	-10.8105
相繼承襲	-10.8111
就擒	-10.8112
大政	-10.8114
理之	-10.8116
太宰	-10.812
而為之	-10.8121
俊卿	-10.8124
從弟	-10.8124
烏巴什	-10.8126
只為	-10.8127
原任二等䕶衛	-10.8127
滑	-10.8129
得志	-10.813
日以	-10.813
原任城門尉	-10.813
伯淳	-10.8131
愬	-10.8133
國正紅旗人世居	-10.8133
正白旗包衣管領下人世居	-10.8133
文華	-10.8134
填	-10.8135
諳	-10.8136
冺	-10.8137
閤	-10.8137
改知	-10.8138
臭	-10.8139
延安	-10.8139
禮部右侍郎	-10.8139
都是	-10.814
疊	-10.8141
証	-10.8143
塊	-10.8143
稔	-10.8144
恊	-10.8145
吐蕃	-10.8145
顛	-10.8146
天下國家	-10.8147
光禄大夫	-10.8147
戊子	-10.8148
潞	-10.815
同安	-10.8152
滛	-10.8153
篤行	-10.8155
寗	-10.8155
忠誠	-10.8156
不仁	-10.8156
以詩	-10.8157
科爾沁	-10.8163
聞之曰	-10.8163
所致	-10.8167
公生	-10.8168
刑獄	-10.8168
善者	-10.8173
者以為	-10.8178
獨知	-10.8182
靖難	-10.819
都司	-10.8201
望見	-10.8208
所稱	-10.8211
之南	-10.8214
告歸	-10.8214
郡人	-10.8217
如初	-10.8218
告之	-10.8221
以行	-10.8224
國初来歸其	-10.8225
洪武初	-10.8227
數千言	-10.8229
送之	-10.823
王文	-10.823
配享	-10.8231
兵備	-10.8232
今日之	-10.8232
山陵	-10.8234
征明	-10.8236
褚	-10.8236
瑛	-10.8236
擕	-10.8236
彞	-10.8238
舟師	-10.8238
第四	-10.8239
校尉	-10.8239
天下之人	-10.8242
架	-10.8242
換	-10.8243
紘	-10.8243
庚午	-10.8243
冉	-10.8244
煙	-10.8244
不論	-10.8244
鼻	-10.8244
噐	-10.8245
諮	-10.8246
笏	-10.8248
緘	-10.8248
寂然	-10.8251
輔政	-10.8253
有四	-10.826
可言	-10.8262
侍臣	-10.8266
太學生	-10.8267
歐	-10.8267
陽明先生	-10.8268
而用之	-10.8272
輔導	-10.8272
正藍旗人世居	-10.8273
正大	-10.8277
愛人	-10.8278
講求	-10.8278
布哈	-10.828
天則	-10.8282
西域	-10.8285
入冦	-10.8286
當死	-10.8287
自少	-10.8288
通州	-10.8292
扎薩克台吉	-10.8292
䏻	-10.8296
不由	-10.8298
物而	-10.8301
安在	-10.8305
其氣	-10.8307
生意	-10.8307
來者	-10.8309
可畏	-10.8311
為亂	-10.8311
其族	-10.8316
得㫖	-10.8317
出來	-10.8319
學案	-10.8324
怡	-10.8328
鑲紅旗人世居	-10.8331
忠獻	-10.8332
之君	-10.8332
一等台吉	-10.8335
大凌河	-10.8335
仔	-10.8335
宣公	-10.8336
襲四次襲	-10.8337
經世	-10.8338
瀾	-10.8339
催	-10.834
麓	-10.8342
夲	-10.8343
色爾	-10.8344
三山	-10.8344
和囉理	-10.8344
扎木素	-10.8345
四夷	-10.8346
隻	-10.8347
冩	-10.8347
倅	-10.8348
日與	-10.8349
常保	-10.8349
必能	-10.8349
畆	-10.835
范仲淹	-10.8351
天命之性	-10.8352
法司	-10.8353
悉以	-10.8353
瑕	-10.8354
之治	-10.8355
中道	-10.8355
也初	-10.8356
之善	-10.8358
泌	-10.8359
安定	-10.8364
善巴	-10.8365
不厭	-10.8366
東門	-10.8367
水旱	-10.8372
宰臣	-10.8374
仍兼	-10.8379
北路	-10.8379
劾之	-10.8381
我兵	-10.8382
存之	-10.8385
若以	-10.8385
毫髪	-10.8385
康節	-10.8391
穆爾	-10.8393
惟有	-10.8395
而來	-10.8398
亦曰	-10.8399
也又曰	-10.84
府事	-10.84
諾爾	-10.84
貴賤	-10.8401
不可復	-10.8402
不恤	-10.8402
扈	-10.8406
品典儀	-10.8408
蕭然	-10.8415
會試	-10.8416
老而	-10.8418
賜諡	-10.8427
不敬	-10.8427
瑚爾	-10.8427
府君	-10.8427
説得	-10.8428
恩詔	-10.8429
荆公	-10.843
靜坐	-10.8435
不廢	-10.8436
一卷	-10.8437
龍門	-10.8439
著加恩	-10.8442
孔子之	-10.8445
問其故	-10.8447
模	-10.8449
别號	-10.8453
剪	-10.8456
克其城	-10.8456
狎	-10.8456
校元孫	-10.846
考察	-10.8462
池州	-10.8463
斯人	-10.8467
保現任	-10.8467
削爵	-10.8468
三十餘	-10.8471
保定	-10.8472
也惟	-10.8475
和托	-10.8475
城南	-10.8475
府庫	-10.8477
雖欲	-10.8485
餘黨	-10.8488
留意	-10.8497
阿喇	-10.8502
有成	-10.8502
直指	-10.8504
其要	-10.8507
民心	-10.8508
偽將	-10.8508
向髙	-10.8511
叙功授雲騎尉	-10.8515
立言	-10.8516
泣下	-10.8517
而行之	-10.8518
外史氏曰	-10.8519
有疾	-10.852
動也	-10.8524
敬之	-10.8524
鑲白旗人	-10.8529
兩人	-10.8531
鎮撫	-10.8533
庶人	-10.8534
當下	-10.8534
威儀	-10.8536
霍集斯	-10.8536
朝政	-10.8538
萬餘衆	-10.8541
塋	-10.8547
奏上	-10.8549
持節	-10.8549
勲徳	-10.8551
現係舉人	-10.8552
捍	-10.8552
世家	-10.8552
家世	-10.8553
礪	-10.8557
殿中侍御史	-10.8557
廷議	-10.8557
管領	-10.8559
小臣	-10.856
無餘	-10.856
漲	-10.8561
洎	-10.8561
醒	-10.8561
黔	-10.8561
薩穆	-10.8562
二十二	-10.8563
棠	-10.8563
胡氏	-10.8563
峩	-10.8564
乳	-10.8564
諛	-10.8564
築城	-10.8564
鬚	-10.8564
識得	-10.8564
琰	-10.8566
跋	-10.8566
日食	-10.8568
至其	-10.8569
宣慰	-10.8569
殖	-10.857
惠卿	-10.8571
收斂	-10.8572
定州	-10.8572
也因	-10.8574
廷尉	-10.8574
常存	-10.8575
熈寧	-10.8575
哀毁	-10.8576
國人	-10.8576
諸将	-10.858
小人之	-10.858
僚屬	-10.858
幕府	-10.8581
國子	-10.8581
也如	-10.8583
率性	-10.8584
副將軍	-10.8588
陵寢	-10.8588
欽定外藩䝉古回部王公表傳卷之	-10.8589
吉州	-10.859
事宜	-10.8595
曾祖	-10.8596
河間	-10.8597
也昔	-10.8597
文正	-10.8598
山先生	-10.8604
不知也	-10.8605
乃是	-10.8606
不平	-10.8612
少時	-10.8612
楊榮	-10.8613
文皇	-10.8614
簡易	-10.8616
何人	-10.8617
蹟	-10.8618
王府	-10.8621
賢良	-10.8623
有名	-10.8632
所遺	-10.8633
乾元	-10.8634
地震	-10.8636
可知矣	-10.8637
陽縣	-10.8637
閩中理學淵源考卷	-10.8642
天意	-10.8642
授為二等輕車都尉	-10.8649
右正言	-10.865
也臣	-10.8653
諭之曰	-10.8653
先世	-10.8654
駿	-10.8656
不使	-10.8656
欽定四庫全書八旗滿洲氏族通譜卷	-10.8659
爾濟	-10.866
輅	-10.8661
欲用	-10.8661
為法	-10.8664
祇	-10.8664
獸	-10.8665
窟	-10.8666
國鑲藍旗人世居	-10.8666
以奉	-10.8667
譖	-10.8668
壬申	-10.8669
臘	-10.867
貎	-10.867
失守	-10.8671
蕪	-10.8671
毁譽	-10.8676
建昌	-10.8676
旦夕	-10.8678
軍節度	-10.868
早卒	-10.8683
未敢	-10.8685
終身不	-10.8686
新安	-10.8693
考官	-10.8694
南方	-10.8696
孟氏	-10.8698
一朝	-10.8704
學官	-10.8706
係隸滿洲旗分之蒙古一	-10.8707
之徳	-10.8709
不假	-10.871
而天下	-10.871
之次子	-10.8716
得疾	-10.8718
體仁	-10.8718
歸年分無考其元孫	-10.872
長吏	-10.8722
大行	-10.8723
宣宗	-10.8734
行義	-10.8734
不存	-10.8736
千百	-10.8736
贈騎都	-10.8739
音布	-10.874
以資	-10.8744
者謂	-10.8745
罷歸	-10.8746
揚阿	-10.8746
父為户第	-10.8756
不難	-10.8759
賜金	-10.876
鑲藍旗人	-10.8761
將相	-10.8763
大敗之	-10.8763
何者	-10.8765
瓜	-10.8766
凱旋	-10.8767
癸酉	-10.8768
廣平府知府李清馥撰	-10.8769
其力	-10.8771
愕	-10.8771
另	-10.8772
襲職現任	-10.8772
丁母憂	-10.8772
攬	-10.8773
野史氏曰	-10.8773
蔬	-10.8773
豹	-10.8774
瀆	-10.8776
龍圖閣直學士	-10.8776
湮	-10.8776
彩	-10.8776
低	-10.8779
見在	-10.8781
洩	-10.8782
宸濠	-10.8782
求仁	-10.8782
不能盡	-10.8784
學以	-10.8787
之費	-10.8788
求諸	-10.8788
死不	-10.8788
正白旗包衣	-10.8793
未上	-10.8794
於中	-10.8795
軍叅領	-10.8797
何時	-10.8797
軍國	-10.8799
乃為	-10.8799
居敬	-10.88
事而	-10.8803
與人交	-10.8805
者悉	-10.8809
久不	-10.8809
在天	-10.8814
問公	-10.8815
而進	-10.8816
老矣	-10.8817
若何	-10.882
台州	-10.8821
南郊	-10.8824
軍馬	-10.8825
目之	-10.8825
善也	-10.8829
始以	-10.883
兖州	-10.8831
瓦爾喀	-10.8832
鑲黄旗人	-10.8839
參議	-10.8839
三品	-10.8844
大悦	-10.8845
與我	-10.8846
未甞	-10.8847
怒曰	-10.8847
巴圖爾	-10.8848
養之	-10.8851
精微	-10.8851
遣之	-10.8852
者如	-10.8856
有子	-10.8859
優賚	-10.8859
孰能	-10.8862
民有	-10.8864
不意	-10.8865
委任	-10.8865
生靈	-10.8866
目前	-10.8866
親切	-10.8867
阿克蘇	-10.8869
駝馬	-10.8875
達爾扎	-10.8875
原任中書	-10.8877
裳	-10.8877
生理	-10.8878
之官	-10.8879
為陛下	-10.888
師魯	-10.888
舶	-10.888
捧	-10.888
梧	-10.8881
朝奉郎	-10.8882
庚申	-10.8882
于上	-10.8882
軍旅	-10.8882
擔	-10.8883
是心	-10.8883
訓詁	-10.8884
覧	-10.8885
骸	-10.8885
油	-10.8887
海中	-10.8888
克之	-10.8888
無知	-10.8889
程子曰	-10.889
濕	-10.8892
道體	-10.8893
見性	-10.8893
彚	-10.8894
尼雅哈	-10.8896
入門	-10.8896
尋常	-10.8897
夷狄	-10.8897
委曲	-10.8897
欽定四庫全書閩中理學淵源考卷	-10.8898
上曰朕	-10.8898
字徳	-10.8904
納穆	-10.8906
建寧	-10.8912
加以	-10.8914
殿下	-10.8921
一般	-10.8926
常以	-10.8928
嗣昌	-10.8929
巴克	-10.8929
奉㫖	-10.8933
孺子	-10.8933
直道	-10.8935
左丞	-10.8935
三司使	-10.8935
人謂	-10.8935
荆湖	-10.8937
可觀	-10.894
大呼	-10.8943
引疾	-10.8949
只此	-10.895
晉封	-10.8951
在上	-10.8955
一節	-10.8955
境内	-10.8956
胸	-10.8957
舍人	-10.8957
與同	-10.8959
建州	-10.8961
是性	-10.8962
城人	-10.8966
化之	-10.8967
處分	-10.8968
長子康熙	-10.8968
來歸年分無考	-10.8969
黄門	-10.897
法令	-10.8971
生徒	-10.8973
棄官	-10.8973
一句	-10.8976
卒以	-10.8976
無善	-10.8982
昉	-10.8985
以上俱係來歸年分無考之人	-10.8985
衢州	-10.8987
榻	-10.899
劵	-10.8993
原任庫掌	-10.8994
詡	-10.8994
甚急	-10.8995
貧賤	-10.8997
岑	-10.8998
隨事	-10.8998
犒	-10.8998
世為	-10.9
建文	-10.9003
所由	-10.9003
鋪	-10.9003
吳爾	-10.9003
禾	-10.9003
嵗餘	-10.9005
敵兵	-10.9007
譯	-10.9007
嵗月	-10.9007
東萊	-10.901
由䕶軍校	-10.9017
三萬	-10.9017
䕶衛	-10.9021
兩廣	-10.9021
必死	-10.9022
寧逺	-10.9022
克什	-10.9025
何其	-10.9028
特恩	-10.903
乃能	-10.9034
識其	-10.9035
漕運	-10.9037
進士仕至	-10.904
十五里	-10.9041
之恩	-10.9042
一等男	-10.9044
責其	-10.9047
互相	-10.9049
諸州	-10.905
乎對曰	-10.9054
安慶	-10.9057
致祭	-10.9058
土木	-10.9058
餘衆	-10.9069
死於	-10.9073
洪武中	-10.9075
一千	-10.9075
司業	-10.9077
官制	-10.908
中大夫	-10.9088
車臣汗	-10.9089
二十七	-10.9093
徳性	-10.9093
賜號	-10.9095
張俊	-10.9095
仕進	-10.9097
和州	-10.9101
職事	-10.9101
蔵	-10.9102
第八	-10.9102
絃	-10.9103
奏乞	-10.9104
不移	-10.9107
改隸	-10.9108
猜	-10.9108
乙亥	-10.9109
甄	-10.9109
掛	-10.911
裹	-10.911
校書郎	-10.9111
須臾	-10.9111
蔑	-10.9112
莅	-10.9112
縉紳	-10.9113
彪	-10.9114
軍政	-10.9115
為己任	-10.9115
頃刻	-10.9117
慝	-10.9118
再遷	-10.9121
公謂	-10.9126
傳卷之	-10.9127
冬十月	-10.9128
盡力	-10.9131
焚之	-10.9132
之方	-10.9132
有物	-10.9134
祖諱	-10.9136
請罷	-10.9139
四子	-10.914
東坡	-10.914
卓爾	-10.9143
陛下之	-10.9143
管仲	-10.9148
易曰	-10.9148
朝士	-10.915
緡	-10.9152
下手	-10.9152
古文	-10.9154
性體	-10.9155
一次襲	-10.9155
地方來歸年分無考	-10.9159
四十八年	-10.9168
論其	-10.9175
許多	-10.9178
子儀	-10.9179
丈夫	-10.9184
論之	-10.9186
奈	-10.9188
自見	-10.919
黄金	-10.9192
三世	-10.9193
忠良	-10.9196
具慶下第	-10.92
徙知	-10.9203
議事	-10.9205
偷	-10.9208
亦原任	-10.9208
無乃	-10.9208
把總	-10.9208
公即	-10.9211
有云	-10.9214
祕	-10.9214
下車	-10.9215
也帝	-10.9215
狩	-10.9217
公孫	-10.9217
去就	-10.9218
諸君子	-10.9219
忱	-10.9219
夣	-10.9221
錮	-10.9221
嬉	-10.9222
爛	-10.9222
鞠	-10.9222
髙下	-10.9223
址	-10.9223
夜半	-10.9223
剽	-10.9224
黼	-10.9224
樞宻副使	-10.9225
邏	-10.9226
端倪	-10.9227
誠敬	-10.9228
餞	-10.9229
峭	-10.923
謂人曰	-10.9232
宼	-10.9232
拊	-10.9234
任之	-10.9236
種種	-10.9238
中書省	-10.9239
惻然	-10.9239
矣上	-10.9244
自明	-10.9245
所及	-10.9248
物格	-10.9254
相對	-10.9256
能知	-10.9256
改𨽻	-10.9256
氏封	-10.9259
友人	-10.9261
畢竟	-10.9262
四千	-10.9263
京西	-10.9264
道義	-10.9264
趙鼎	-10.9265
乃與	-10.9265
義利	-10.9266
知開封府	-10.9267
五名	-10.9267
太宗皇帝	-10.9269
卒贈	-10.927
徙居	-10.9271
請老	-10.9273
矣若	-10.9275
與天地	-10.9275
科爾沁地方	-10.928
黙識	-10.928
乃還	-10.9283
勤王	-10.9286
征雲南	-10.9286
一門	-10.9292
無錫	-10.9298
有何	-10.9298
尚書省	-10.9299
昔者	-10.9301
後為	-10.9307
原任佐	-10.9308
於易	-10.931
尚可	-10.9311
和氣	-10.9311
近侍	-10.9316
奉行	-10.9317
欽宗	-10.9317
祖考	-10.9318
乎哉	-10.9323
不欺	-10.9326
楫	-10.9327
稍長	-10.9329
主一	-10.9329
様	-10.933
映	-10.9333
頽	-10.9336
其主	-10.9338
婉	-10.9338
覘	-10.9338
股肱	-10.9339
國子博士	-10.9339
廐	-10.934
販	-10.934
茹	-10.934
侂冑	-10.934
縳	-10.9341
蒞	-10.9341
孜孜	-10.9342
詎	-10.9342
吞	-10.9343
何異	-10.9346
上流	-10.9346
應天府	-10.9351
是月	-10.9358
蘇完地方	-10.936
石亨	-10.9363
補外	-10.9367
著於	-10.9367
大戰	-10.9369
則亦	-10.9369
兄子	-10.9372
稍稍	-10.9374
文宣王	-10.9374
月餘	-10.9374
世子	-10.9374
公因	-10.9377
招降	-10.9379
略曰	-10.9385
與弟	-10.9389
道周	-10.9397
伏望	-10.9401
延州	-10.9401
烏蘇	-10.9404
寧夏	-10.9406
等官	-10.9407
一理	-10.941
係隸滿洲旗分之䝉古	-10.9411
長白山地方人	-10.9414
武子	-10.9419
自陳	-10.9421
餘皆	-10.9422
浩然	-10.9427
公曰吾	-10.943
丙	-10.9431
于家	-10.9431
賴以	-10.9431
辭不受	-10.9431
一時之	-10.9434
水陸	-10.9435
形氣	-10.9437
藤	-10.9438
霍集占	-10.9438
機宜	-10.9438
竦	-10.9438
原係雲騎尉	-10.944
厥後	-10.9442
道南源委	-10.9444
之碑	-10.9448
其議	-10.9449
煽	-10.9449
粥	-10.9451
襄公	-10.9453
寂然不動	-10.9453
頥浩	-10.9454
苐	-10.9455
鞍馬	-10.9455
砲	-10.9456
俄而	-10.9457
濡	-10.9458
椒	-10.9458
滌	-10.9458
剛柔	-10.9459
濯	-10.9459
鑰	-10.946
青苗	-10.9461
非吾	-10.9461
曰夫	-10.9462
先生謂	-10.9462
仁宗皇帝	-10.9463
汲汲	-10.9463
莆田人	-10.9464
賓客	-10.9468
忤㫖	-10.9469
為三	-10.947
方今	-10.9471
巴朗	-10.9472
以寛	-10.9473
考績	-10.9474
萬石	-10.9475
始至	-10.9476
襲扎薩克輔國公	-10.9478
順天	-10.9478
松阿	-10.9478
忠貞	-10.9484
曰吾聞	-10.9485
過失	-10.9488
軍前	-10.9491
皆從	-10.9494
吉甫	-10.9494
實為	-10.9494
髙皇帝	-10.9494
朽	-10.9499
族孫	-10.95
不第	-10.9503
襲扎薩克多羅郡王	-10.9503
天下無	-10.9504
數千里	-10.9505
四曰	-10.9505
徳行	-10.9505
以罪	-10.9507
遺事	-10.9507
川陜	-10.9511
九卿	-10.9512
安縣	-10.9513
為仁	-10.9513
者謂之	-10.9515
者固	-10.9516
福清	-10.9519
即命	-10.9524
生子	-10.9525
原任驍騎校曽孫	-10.9526
經歴	-10.9526
後生	-10.9528
静中	-10.9529
以慰	-10.9531
天啓	-10.9533
一分	-10.9536
不服	-10.9536
喜怒哀樂未發	-10.9541
宣府	-10.9541
章獻	-10.9543
三者	-10.9544
四十餘	-10.9551
愿	-10.9551
果然	-10.9554
烏里雅蘇台	-10.9554
原籍無考	-10.956
一無所	-10.9563
个	-10.9563
厄	-10.9564
淨	-10.9567
兾	-10.9568
掘	-10.9568
覃	-10.9569
爻	-10.9569
琛	-10.9569
厰	-10.9569
瀛	-10.9569
凋	-10.957
飄	-10.957
保全	-10.9572
為多	-10.9573
其忠	-10.9573
郁	-10.9574
嗾	-10.9574
淳熈	-10.9576
忻	-10.9577
紓	-10.9577
鐡	-10.9577
故謂之	-10.9578
帙	-10.9578
叅知政事	-10.9579
不衰	-10.9582
裒	-10.9583
征伐	-10.9583
後漢	-10.9586
謂此	-10.9587
其理	-10.9589
縱横	-10.959
集義	-10.9598
親伯	-10.96
守者	-10.9601
有個	-10.9603
起家	-10.9604
淺深	-10.9604
其位	-10.9608
可考	-10.961
起兵	-10.9611
為難	-10.9612
遣中使	-10.9612
多見	-10.9616
典籍	-10.9617
不敢以	-10.9618
先人	-10.9618
阿克	-10.9621
又從	-10.9622
廬墓	-10.9624
文獻	-10.9627
之賜	-10.9629
封爵	-10.9629
亦不能	-10.963
臣願	-10.9631
使至	-10.9631
盗賊	-10.9633
二百餘	-10.9635
昆弟	-10.9637
充國	-10.9637
問答	-10.9639
權臣	-10.9641
何由	-10.9643
欲使	-10.9649
患難	-10.9649
當自	-10.9653
羣小	-10.9654
城縣	-10.9654
三載	-10.9655
石門	-10.9657
偽學	-10.9657
一變	-10.9659
右都御史	-10.9661
二十三	-10.9661
於内	-10.9663
壬	-10.9663
無幾	-10.9667
臣請	-10.9668
喀爾喀部人姓博爾濟吉特	-10.9673
札爾	-10.9673
皆得	-10.9675
海州	-10.9677
帕	-10.968
現係副䕶軍校	-10.9681
幻	-10.9681
道士	-10.9682
蟲	-10.9682
鑲	-10.9686
士氣	-10.9687
丙戌	-10.9688
猝	-10.9689
丁亥	-10.9689
街	-10.969
瑟	-10.969
懾	-10.9691
和碩齊	-10.9691
亘	-10.9691
厓	-10.9696
之精	-10.9696
宋濂	-10.9696
惡其	-10.9697
窒	-10.9697
殞	-10.9698
蔓	-10.9699
逖	-10.9699
既歸	-10.97
駢	-10.97
竿	-10.97
景祐	-10.9701
來歸年分無考其曽孫	-10.9702
盛徳	-10.9703
長白山	-10.9704
器械	-10.9705
隠居	-10.9705
巴林	-10.9705
令尹	-10.9706
滿都	-10.971
而南	-10.9713
袤	-10.9718
精明	-10.9718
開門	-10.9719
處置	-10.9719
上曰卿	-10.9719
遂定	-10.9723
利病	-10.9723
將兵	-10.9723
善政	-10.9724
者雖	-10.9728
一姓其氏族世居	-10.9729
戰守	-10.9734
知行	-10.9734
大水	-10.9736
尤甚	-10.9737
四十二年	-10.9737
赫訥	-10.9738
作用	-10.9738
源流	-10.9738
血氣	-10.9743
都指揮使	-10.9744
從征湖廣	-10.9744
好古	-10.9746
恐懼	-10.9746
指為	-10.9748
安人	-10.9749
經書	-10.9752
肖	-10.9756
學也	-10.9757
止於	-10.9758
猶在	-10.9764
推恩	-10.977
不甚	-10.977
而後有	-10.9771
天生	-10.9771
後征	-10.9774
邪説	-10.9779
不好	-10.9782
心術	-10.9783
賜祭	-10.9788
今襲	-10.9788
不屑	-10.979
使民	-10.9791
語錄	-10.9795
察罕丹津	-10.9795
告以	-10.9795
外戚	-10.9796
宣德	-10.9796
亦皆	-10.9797
閫	-10.9801
㪚	-10.9802
顧問	-10.9802
處事	-10.9803
以上俱係國初来歸之人	-10.9806
不可勝	-10.9807
貂	-10.9807
付之	-10.9808
大理寺	-10.9808
承天	-10.9809
布原任	-10.9809
孰為	-10.9811
或勸	-10.9811
夭	-10.9812
豈無	-10.9812
為御史	-10.9815
中行	-10.9815
怖	-10.9816
帷	-10.9817
囑	-10.9819
上亦	-10.9819
所生	-10.982
命有司	-10.982
消息	-10.9821
扎木	-10.9821
瑚錫	-10.9821
四十六	-10.9822
得力	-10.9822
納海	-10.9824
公為人	-10.9825
枝葉	-10.9825
合於	-10.9825
片	-10.9826
恩詔所加之職	-10.983
之東	-10.9831
師還	-10.9832
私欲	-10.9833
始於	-10.9833
文肅	-10.9836
乆矣	-10.9836
璽書	-10.9836
文書	-10.984
撫州	-10.9846
尤多	-10.9848
不豫	-10.9849
四十三年	-10.9849
劉豫	-10.9849
金兵	-10.985
字文	-10.9858
圖庫	-10.9866
出其	-10.9866
時相	-10.9867
遂罷	-10.9868
顔氏	-10.9868
詔封	-10.9869
如之何	-10.987
矣先生	-10.987
利用	-10.9874
以語	-10.9875
是則	-10.9876
叅將	-10.9878
推誠	-10.9878
總兵官	-10.9879
只要	-10.988
必得	-10.988
四十九	-10.9884
王者	-10.9885
之所以為	-10.9885
真心	-10.9886
志在	-10.9888
般	-10.9892
而弗	-10.9894
直學士	-10.9894
初為	-10.9895
謂公	-10.9896
山隂	-10.9896
禦之	-10.9899
水軍	-10.9901
威福	-10.9902
土人	-10.9905
輕車都尉	-10.9905
歸年分無考	-10.9905
言陛下	-10.9907
蘇尼特	-10.9911
圖原任	-10.9911
其國	-10.9914
二氏	-10.9914
授為三等輕車都尉	-10.9915
色勒	-10.9915
西寧	-10.9915
授為騎都尉	-10.9917
不備	-10.9918
盡忠	-10.992
盡矣	-10.9923
當阿	-10.9925
入太學	-10.9927
襲扎薩克固山貝子	-10.9927
分無考其曽孫	-10.9927
涖	-10.9929
辨之	-10.993
▁初来歸其子	-10.9932
者多矣	-10.9932
迴	-10.9932
中軍	-10.9932
焚其	-10.9933
不事	-10.9933
叅領兼佐領	-10.9934
端明殿學士	-10.9934
將來	-10.9934
其徳	-10.9935
灰	-10.9935
加太子太保	-10.9936
開府儀同三司	-10.9936
癸巳	-10.9936
紿	-10.9936
狡	-10.9936
光宗	-10.9937
浮屠	-10.9937
果有	-10.9938
肝	-10.9938
皷	-10.9938
分道	-10.9939
吿	-10.9939
晴	-10.9942
江北	-10.9945
山在	-10.9945
大儒	-10.9946
日新	-10.9949
祖母	-10.9949
假借	-10.995
姒	-10.995
風采	-10.9951
第五子	-10.9953
即所謂	-10.9956
下詔獄	-10.9956
丕揚	-10.9956
元定	-10.996
後主	-10.9961
今年	-10.9961
當先	-10.9967
看得	-10.9969
哈理	-10.9969
之家	-10.9969
恩格	-10.997
形容	-10.9971
萬殊	-10.9972
星阿	-10.9974
特賜	-10.9975
之基	-10.9979
國家之	-10.998
少有	-10.9984
太息	-10.9987
阿布	-10.9989
氏族世居	-10.9994
豈得	-10.9996
授一等台吉	-10.9999
自相	-11
不設	-11.0001
以通	-11.0004
降者	-11.0008
齊克	-11.0008
大猷	-11.0008
殆盡	-11.0008
大旱	-11.001
下有	-11.0011
婺	-11.0013
一介	-11.002
後宫	-11.0023
自稱	-11.0024
李綱	-11.0024
先登	-11.0028
海道	-11.003
朋素克	-11.0031
全斌	-11.0032
後以	-11.004
未足	-11.0042
領兵	-11.0043
詔授	-11.0047
瓦爾達	-11.0049
藹	-11.0049
陀	-11.005
爾漢	-11.005
丙寅	-11.0052
弓矢	-11.0052
咸平	-11.0052
軀	-11.0053
揣	-11.0054
不敢言	-11.0056
隳	-11.0056
具奏	-11.0057
憎	-11.0058
槖	-11.0058
竅	-11.0058
正言	-11.0058
讜	-11.0058
猾	-11.006
也既	-11.0061
禮儀	-11.0061
裨	-11.0062
諂	-11.0063
翟	-11.0063
瘴	-11.0063
出戰	-11.0063
摯	-11.0063
靳	-11.0064
甥	-11.0064
磯	-11.0065
喟然	-11.0065
曾子	-11.0066
五世	-11.0067
扞	-11.0068
韓琦	-11.0069
吁	-11.0069
既得	-11.007
單騎	-11.0071
稽古	-11.0072
不可謂	-11.0072
經綸	-11.0073
名教	-11.0074
上諭	-11.0075
在京	-11.0075
錫爾	-11.0076
合一	-11.0077
現任中書	-11.0078
復還	-11.008
江夏	-11.0081
西川	-11.0082
御史臺	-11.0085
城郭	-11.0087
稽首	-11.0087
逹色	-11.009
復用	-11.009
與李	-11.0094
卒其親弟	-11.0099
論者	-11.0101
語言	-11.0102
復請	-11.0106
公始	-11.0108
論性	-11.011
必須	-11.0116
存焉	-11.0123
五十餘	-11.0124
人之心	-11.0125
關中	-11.0126
察之	-11.0129
南軒	-11.0129
五十八	-11.0131
八人	-11.0134
也問	-11.0135
交章	-11.0135
字季	-11.0136
不愧	-11.0138
叔孫	-11.014
公名	-11.0142
上遣	-11.0143
文靖	-11.0144
來歸年	-11.0144
不作	-11.0148
廣平	-11.015
其情	-11.015
要在	-11.0151
不踰	-11.0153
四日	-11.0153
嵗時	-11.0155
稜	-11.0158
英額	-11.0159
從上	-11.0164
墾	-11.0165
梯	-11.0167
冬至	-11.0168
壩	-11.0171
檀	-11.0171
椿	-11.0171
阿濟格	-11.0171
馨	-11.0171
原任親軍校	-11.0172
九日	-11.0175
而致	-11.0176
端坐	-11.0176
攀	-11.0179
輜重	-11.018
㤀	-11.0181
濓溪	-11.0183
擯	-11.0184
譁	-11.0184
轅	-11.0184
衙	-11.0185
綰	-11.0185
乙巳	-11.0185
純粹	-11.0186
珏	-11.0186
詹事府	-11.0186
頸	-11.0187
釋奠	-11.0188
間斷	-11.0189
臥	-11.019
現任六品官	-11.0191
自若	-11.0192
江浙	-11.0193
北面	-11.0194
卒于	-11.0194
欒	-11.0196
學教授	-11.0198
岱原任	-11.02
築室	-11.02
商賈	-11.02
衡州	-11.0201
夏四月	-11.0203
和理	-11.0206
彥博	-11.021
清河	-11.0213
為體	-11.0214
薦為	-11.0215
唐虞	-11.022
發憤	-11.0221
天心	-11.0222
都指揮	-11.0224
士皆	-11.0224
易簡	-11.0226
死矣	-11.0226
浩善	-11.023
且以	-11.023
魯齋	-11.0234
官爵	-11.0235
備禦	-11.0236
富民	-11.0237
兵三千	-11.0238
王珪	-11.0238
忠節	-11.0242
出身	-11.0243
擢為	-11.0244
章奏	-11.0247
哈喇	-11.0249
保原任	-11.0251
自成	-11.0252
人望	-11.0253
未襲	-11.0253
顔色	-11.0257
難矣	-11.026
食邑	-11.0263
也於是	-11.0266
遼陽地方	-11.0266
鄆	-11.0268
入海	-11.027
與兄	-11.027
討論	-11.0272
雍正元年	-11.0277
之所為	-11.0277
不改	-11.0279
獄中	-11.0284
克錫	-11.0288
南征	-11.0289
之列	-11.0289
也陛下	-11.0292
兗州	-11.0294
學派按	-11.0295
進用	-11.0296
猶可	-11.0296
煜	-11.0296
雖未	-11.0296
官保	-11.03
天子之	-11.03
福寧	-11.03
和卓	-11.03
冢	-11.0301
褐	-11.0301
其孤	-11.0302
琨	-11.0303
邠	-11.0304
安之	-11.0305
天下後世	-11.0306
讞	-11.0306
遯	-11.0307
其害	-11.0307
庚寅	-11.0307
歷	-11.0307
廂	-11.0308
舘	-11.0308
遞	-11.0309
礦	-11.0309
於後	-11.031
幅	-11.031
赴闕	-11.0311
戀	-11.0311
垢	-11.0311
譛	-11.0311
絀	-11.0311
焞	-11.0312
縷	-11.0313
念頭	-11.0313
圉	-11.0315
克己	-11.0315
攀龍	-11.0316
摇	-11.0317
覬	-11.0318
一世	-11.0318
孝孺	-11.0318
箋	-11.0318
稼	-11.0318
只是一個	-11.032
鄭氏	-11.032
欲求	-11.0321
慶歴	-11.0321
七十二	-11.0322
永興	-11.0324
諾穆	-11.0328
萬計	-11.0329
有功授雲騎尉	-11.033
理原任	-11.033
不畏	-11.0332
先正	-11.0333
隨大軍	-11.0334
三朝	-11.0335
萬全	-11.0336
大雨	-11.0339
在内	-11.034
公輔	-11.034
三格	-11.0341
復遣	-11.0343
去位	-11.0343
采石	-11.0347
為首	-11.0348
之西	-11.0348
徙牧	-11.0348
天地之心	-11.0348
此身	-11.035
廣徳	-11.0352
魏徴	-11.0354
楚材	-11.0354
八日	-11.0355
諸家	-11.0355
損益	-11.0357
史記	-11.0357
天機	-11.0358
寐	-11.0358
只是一	-11.0358
烏蘭	-11.036
龍山	-11.036
上方	-11.0361
瑚理	-11.0365
不可用	-11.0365
事實	-11.0365
黒龍江	-11.0367
召問	-11.0367
給之	-11.0367
操存	-11.0367
原任員外	-11.0367
殺其	-11.0371
專以	-11.0372
凡三	-11.0374
無所得	-11.0374
今天下	-11.0375
闕里	-11.0378
公知	-11.0379
外物	-11.0379
訥殷地方	-11.0379
具疏	-11.038
以法	-11.0384
切責	-11.0386
格致	-11.0388
六百	-11.0388
興起	-11.039
泰州	-11.0391
旗分	-11.0394
賊兵	-11.0396
禪學	-11.0396
鄉舉	-11.0396
善而	-11.0396
立教	-11.0397
聖主	-11.0397
下至	-11.0397
也後	-11.0397
語黙	-11.0398
常山	-11.0403
舉兵	-11.0405
召之	-11.0405
復何	-11.0406
不懈	-11.0408
相近	-11.0408
賢才	-11.0409
任郎中	-11.0409
臺省	-11.041
法也	-11.0411
不務	-11.0413
待詔	-11.0413
旺舒克	-11.0416
臣愚	-11.0419
五十年	-11.0419
額琳沁	-11.0421
此道	-11.0422
朝野	-11.0424
齊國	-11.0424
在其中	-11.0426
甲科	-11.0426
有方	-11.0427
構	-11.0428
譙	-11.0429
忠肅	-11.0429
現係副驍騎校	-11.043
人能	-11.0431
正白旗包衣旗鼓人世居瀋陽地方來	-11.0432
文淵閣	-11.0433
宣撫司	-11.0434
太子太傅	-11.0435
䟦	-11.0435
武夷	-11.0436
軼	-11.0436
鷹	-11.0436
疫	-11.0437
餌	-11.0438
囬	-11.0439
獻公	-11.044
耄	-11.044
鐫	-11.0441
燔	-11.0441
恩詔授	-11.0441
汎	-11.0441
梏	-11.0442
莒	-11.0442
虢	-11.0443
髙弟	-11.0443
登極	-11.0446
視聽言動	-11.0446
篤志	-11.0447
潁川	-11.0449
相國	-11.0449
貢士	-11.045
正字	-11.045
恐其	-11.045
家學	-11.0451
部曲	-11.0451
水利	-11.0452
遵化	-11.0455
易學	-11.0456
究竟	-11.0456
諫曰	-11.0457
此之謂也頌曰	-11.0457
髙麗	-11.0458
章惇	-11.0463
維揚	-11.0467
文詞	-11.0467
邕	-11.0468
武進	-11.047
皇甫	-11.0472
世間	-11.0472
制置使	-11.0473
尉卒其子	-11.0473
學宫	-11.0473
神仙	-11.0473
曰君子	-11.0474
瓦爾喀地方	-11.0476
奪情	-11.0477
積累	-11.0482
易州地方	-11.0483
以救	-11.0485
兵於	-11.0486
從遊	-11.0487
舊臣	-11.0488
大海	-11.0492
所有	-11.0493
改過	-11.0496
勒克	-11.0501
兄之子	-11.0504
爾薩	-11.0513
費雅	-11.0516
曽子	-11.0518
亦必	-11.0519
嗜學	-11.052
與物	-11.0521
伏兵	-11.0526
殿前	-11.0527
世道	-11.0527
五萬	-11.0528
無由	-11.0529
有詩	-11.053
公薨	-11.0532
山水	-11.0534
錫爵	-11.0539
視其	-11.0539
自負	-11.0539
不獨	-11.054
固請	-11.0542
條上	-11.0543
神武	-11.0547
能盡	-11.0547
駝	-11.0547
自欺	-11.0547
千金	-11.0549
之訓	-11.0549
侍御	-11.055
而忘	-11.055
噶爾丹䇿凌	-11.0551
▁初率	-11.0552
優詔	-11.0553
卓哩克圖	-11.0553
而况	-11.0554
歴代	-11.0554
鄂木布	-11.0555
襃	-11.0556
經理	-11.0557
皆自	-11.0557
孩提	-11.0562
何益	-11.0562
武英殿大學士	-11.0563
和碩特	-11.0563
封還	-11.0563
入内	-11.0563
天下士	-11.0564
其墓	-11.0564
景仁	-11.0565
別	-11.0565
當為	-11.0566
宵	-11.0566
炙	-11.0566
考之	-11.0567
棨	-11.0567
迤	-11.0568
邈	-11.0568
自㓜	-11.0568
渚	-11.057
自為户第	-11.0571
四十九年	-11.0571
床	-11.0571
繳	-11.0571
可得而	-11.0572
則已	-11.0573
紇	-11.0573
紫峰	-11.0574
其過	-11.0574
冨	-11.0575
論列	-11.0576
左春坊	-11.0577
浦城	-11.0579
貴妃	-11.0582
也豈	-11.0583
母喪	-11.0584
良知之	-11.0584
晏子對㠯	-11.0584
公曰此	-11.0585
若謂	-11.0586
此豈	-11.059
右丞	-11.059
自處	-11.059
文敏	-11.0592
之力也	-11.0593
一段	-11.0594
力請	-11.0595
拒戰	-11.0596
儀禮	-11.0599
不中	-11.06
些子	-11.0602
理宗	-11.0603
和爾	-11.0604
李絳	-11.0606
萬餘人	-11.0606
李賢	-11.0606
韓愈	-11.0608
之不可	-11.0609
陞南京	-11.061
良臣	-11.0611
此便是	-11.0612
即有	-11.0612
秉政	-11.0616
可使	-11.0618
其鄉	-11.062
定議	-11.0626
自能	-11.0627
吕氏	-11.0628
七十餘	-11.063
助教	-11.0631
篤信	-11.0635
時已	-11.0636
置酒	-11.0638
既有	-11.0642
難得	-11.0644
恩信	-11.0644
原任知縣	-11.0649
之國	-11.065
竟以	-11.0651
鑲藍旗包衣	-11.0652
曰不可	-11.0653
矣是	-11.0653
友愛	-11.0653
此二	-11.0655
之誠	-11.0655
之重	-11.0655
濟農	-11.0656
不義	-11.0656
器之	-11.0658
六十里	-11.0663
心學	-11.0663
謚曰	-11.0664
被召	-11.0667
衣服	-11.0669
泗州	-11.0671
年九十	-11.0674
鴻臚	-11.0676
潛心	-11.0679
巴里坤	-11.068
豁	-11.068
之象	-11.0681
两	-11.0681
有不善	-11.0681
無定	-11.0682
兩朝	-11.0683
少孤	-11.0683
礟	-11.0686
氏係隸滿洲旗分之高麗	-11.0686
五格	-11.0687
以立	-11.0688
形於	-11.0688
鑲紅旗人	-11.0689
炯	-11.0691
上皇	-11.0691
宣教郎	-11.0692
何等	-11.0693
行已	-11.0693
帯	-11.0693
廊	-11.0693
一以貫之	-11.0695
第七	-11.0696
而不敢	-11.0696
燦	-11.0696
白雲	-11.0696
之舊	-11.0698
大舉	-11.0698
叡	-11.07
蝕	-11.07
壑	-11.07
都堂	-11.07
敇	-11.07
太平興國	-11.0701
貿	-11.0701
紛紜	-11.0702
知性	-11.0703
賜以	-11.0704
庶㡬	-11.0705
潦	-11.0705
梟	-11.0705
萬物之	-11.0706
擴充	-11.0706
豕	-11.0706
發而	-11.0707
尺寸	-11.0708
天變	-11.0709
餘姚	-11.0709
而心	-11.071
鍊	-11.0711
亳州	-11.0714
大亂	-11.0715
之微	-11.0715
初以	-11.0717
有功授	-11.0718
楊時	-11.0719
進呈	-11.0721
知言	-11.0722
小子	-11.0722
先生為	-11.0722
是理	-11.0724
之本體	-11.0729
誥命	-11.073
巴拜	-11.0731
乘勝	-11.0731
何哉	-11.0731
岳飛	-11.0734
又為	-11.0736
亦原	-11.0736
進學	-11.074
仍令	-11.0741
太過	-11.0742
淮陽	-11.0747
姓氏	-11.075
則天下	-11.0751
銀幣	-11.0752
有常	-11.0753
去國	-11.0753
斬其	-11.0755
去矣	-11.0757
被執	-11.0767
何敢	-11.0768
附之	-11.0769
當今	-11.0769
之任	-11.0769
驍騎	-11.077
急務	-11.077
建陽	-11.0772
等䕶衛	-11.0773
一新	-11.0774
東京	-11.078
惠安	-11.0782
四面	-11.0782
楊公	-11.0782
貫通	-11.0783
大成	-11.0783
心之所	-11.0785
亦然	-11.0787
臣不敢	-11.0788
之母	-11.0794
升之	-11.0796
永福	-11.0796
去官	-11.0798
詔令	-11.0801
鑲黄旗包衣管領下人世居	-11.0804
流民	-11.0805
聖賢之學	-11.0806
通書	-11.0807
世襲罔替	-11.0808
青衮咱卜	-11.081
殫	-11.0811
索爾	-11.0814
無考	-11.0814
六日	-11.0815
以應	-11.0815
公遂	-11.0815
係國初來歸之人	-11.0817
惜其	-11.0817
功利	-11.0817
不遺	-11.0817
做得	-11.0818
兵陣亡	-11.0822
博貝	-11.0823
畋	-11.0824
巴雅爾	-11.0825
榆	-11.0825
營撥守	-11.0825
儘	-11.0826
擴	-11.0828
宋之	-11.083
釋褐	-11.0832
諍	-11.0832
自經	-11.0833
做工夫	-11.0833
瘁	-11.0833
慄	-11.0833
腰	-11.0834
誚	-11.0834
癸卯	-11.0836
言心	-11.0836
牖	-11.0836
鄴	-11.0837
翳	-11.0837
著作郎	-11.0837
毗	-11.0838
慟哭	-11.0838
興國	-11.0838
剛毅	-11.0839
殿中丞	-11.084
沖	-11.0841
赫爾	-11.0841
中允	-11.0842
原任長史	-11.0842
柰何	-11.0845
首領	-11.0847
字彦	-11.0848
無一毫	-11.0848
山海	-11.0851
留中	-11.0851
本來	-11.0851
蘇軾	-11.0855
兼侍讀學士	-11.0856
曰今日	-11.0856
巴延	-11.0858
州教授	-11.0858
希憲	-11.086
綱紀	-11.086
勸上	-11.0861
信州	-11.0864
竭力	-11.0865
伊尹	-11.0866
之流行	-11.087
之所在	-11.0871
物欲	-11.0873
同郡	-11.0874
無子	-11.0876
執法	-11.0876
亦當	-11.0876
靈明	-11.0876
儼然	-11.0877
舉業	-11.0879
為騎都尉	-11.088
乞降	-11.0886
正德	-11.0887
事多	-11.0889
有時而	-11.0895
臨御	-11.0895
諸台吉	-11.0896
尚寳	-11.0896
授之	-11.0896
雖在	-11.09
焉則	-11.0903
世人	-11.0904
彼此	-11.0906
申公	-11.0906
卒後	-11.0907
鄉黨	-11.0907
和靖	-11.0908
為害	-11.0909
東都	-11.091
乎天	-11.091
鑲白旗包衣	-11.0911
賜白金	-11.0914
為户第	-11.0915
以實	-11.0918
卒於官	-11.0926
原任筆帖式四世孫	-11.0929
儒士	-11.0931
應天	-11.0932
司郎中	-11.0933
於理	-11.0933
助之	-11.0933
聖人之學	-11.0937
徳爾	-11.094
授受	-11.094
之德	-11.0942
楚州	-11.0942
宣王	-11.0942
良久	-11.0944
原任筆帖式曽孫	-11.0946
寡欲	-11.0947
帝怒	-11.0948
恩詔加至二等輕車都尉	-11.0949
黄河	-11.095
大觀	-11.095
成誦	-11.095
劾奏	-11.0957
國體	-11.096
以圖	-11.096
綵	-11.096
鳯翔	-11.0961
雀	-11.0962
太祖髙皇帝	-11.0962
寳慶	-11.0963
鎰	-11.0963
訾	-11.0963
僉都御史	-11.0964
大略	-11.0965
誄	-11.0965
一方	-11.0965
沙喇	-11.0967
拉哈	-11.0968
縊	-11.0968
芒	-11.0968
所造	-11.0968
塹	-11.097
岳託	-11.0972
寤	-11.0972
抽	-11.0972
徤	-11.0973
逓	-11.0973
提㸃	-11.0974
慿	-11.0974
擣	-11.0977
縣官	-11.0977
象昇	-11.0979
阿海	-11.0981
要之	-11.0982
考諱	-11.0985
㕘議	-11.0987
贒	-11.0987
宗伯	-11.0991
革退	-11.0991
明善	-11.0998
變易	-11.0999
現任三等侍衞	-11.1
悉平	-11.1001
以防	-11.1001
為戒	-11.1003
東山	-11.1004
自幼	-11.1004
又遣	-11.1004
河南府	-11.1005
當道	-11.101
忌之	-11.101
所獲	-11.1012
舒書	-11.1012
草堂	-11.1014
如何曰	-11.1015
而逝	-11.1015
兩河	-11.1018
族散處於	-11.1019
争之	-11.102
銜之	-11.1021
亦未嘗	-11.1022
等護衛	-11.1022
騎兵	-11.1024
上疏請	-11.1024
所與	-11.1029
之於是	-11.1029
朝臣	-11.1035
及諸	-11.1038
為小人	-11.104
心之體	-11.1043
一氣	-11.1044
之聲	-11.1044
季子	-11.1053
莫知其	-11.1059
黒色	-11.1061
上念	-11.1061
任步軍校	-11.1065
自覺	-11.1069
天下之事	-11.1071
色克	-11.1073
文仲	-11.1074
塞爾	-11.1075
縣尉	-11.1076
聖王	-11.1076
為盜	-11.1077
民皆	-11.1077
世職	-11.1078
上書言	-11.1078
皆欲	-11.1078
亦不可	-11.1079
土謝圖汗	-11.1079
失所	-11.1083
成衮扎布	-11.1083
俱現任	-11.1084
語之曰	-11.1084
三代之	-11.1085
養性	-11.1085
璞	-11.1087
幄	-11.1088
世蕃	-11.1088
之責	-11.1089
書生	-11.1091
格現任	-11.1092
累年	-11.1093
表章	-11.1093
扎薩克固山貝子	-11.1094
現任筆帖	-11.1095
于世	-11.1095
善人	-11.1098
十有二	-11.1098
獲其	-11.11
中郎將	-11.11
特赫	-11.11
何有	-11.11
蔡文莊	-11.1101
艦	-11.1102
賊黨	-11.1102
編佐領	-11.1102
獻子	-11.1103
妥	-11.1104
跨	-11.1104
雋	-11.1105
瀘	-11.1105
己亥	-11.1106
平生所	-11.1106
現任䕶	-11.1107
三十八年	-11.1107
慾	-11.1108
之端	-11.1108
勿忘勿助	-11.1108
襲鎮國公	-11.1109
鯁	-11.1109
瞿	-11.1109
原任藍翎侍衞	-11.1109
爾渾	-11.111
疵	-11.111
骨肉	-11.1111
杞	-11.1112
䑕	-11.1112
雒	-11.1113
蘄	-11.1113
許州	-11.1114
不覩不聞	-11.1114
與俱	-11.1115
患之	-11.1117
鏡山	-11.1118
尊號	-11.1118
二十名	-11.1121
亦不敢	-11.1121
於下	-11.1121
承襲卒其子	-11.1122
㓕	-11.1122
並進	-11.1122
與弼	-11.1124
羽翼	-11.1125
逾年	-11.1126
不惑	-11.1126
近習	-11.1129
大國	-11.1129
起而	-11.1132
自持	-11.1133
冠服	-11.1137
六十四	-11.1138
自强	-11.114
太白	-11.1141
矢石	-11.1142
乃自	-11.1143
綏分地方	-11.1143
就職	-11.1143
依舊	-11.1144
仁義之	-11.1145
五十里	-11.1147
首以	-11.1147
記曰	-11.1148
從父	-11.115
牛羊	-11.1152
郡國	-11.1152
不傳	-11.1152
瑪哈	-11.1152
魯公	-11.1154
地方人其元孫	-11.1155
宫室	-11.1156
松花江地方	-11.1158
以利	-11.1159
晏然	-11.116
存問	-11.1166
瑚圖	-11.1166
起居注	-11.1166
光禄	-11.1168
觀望	-11.1171
處也	-11.1171
髙第	-11.1172
治民	-11.1172
總是	-11.1173
雖無	-11.1173
相應	-11.1174
瑪拉	-11.1175
力言	-11.1176
當路	-11.1176
布爾哈	-11.1179
告曰	-11.1181
大要	-11.1184
視聽	-11.1187
將何	-11.1188
右丞相	-11.1189
乞罷	-11.1192
乃遣	-11.1195
擢用	-11.1198
無厭	-11.1198
白石	-11.1199
反復	-11.12
詔下	-11.12
指其	-11.1201
步軍校	-11.1204
宦者	-11.1205
施於	-11.1206
寛厚	-11.1207
明道先生	-11.121
帝以	-11.1211
原任副	-11.1212
立廟	-11.1213
江左	-11.1215
心之本體	-11.1216
者故	-11.1216
已有	-11.122
其論	-11.1221
卒於家	-11.1221
不孝	-11.1221
降襲	-11.1221
四維	-11.1221
喀什噶爾	-11.1222
有形	-11.1224
國勢	-11.1226
欽定四庫全書八旗滿洲氏族通譜目録	-11.1227
四十七年	-11.1228
▁初来歸其孫	-11.1233
避地	-11.1235
阿爾泰	-11.1235
曼	-11.1235
現任親軍校	-11.1235
萬緡	-11.1236
㤙	-11.1236
丑	-11.1238
灾	-11.1238
奮勉	-11.1238
乙卯	-11.1239
顧謂	-11.124
隕	-11.1241
糜	-11.1242
國鑲紅旗人世居	-11.1242
之為人	-11.1242
者當	-11.1244
薊州	-11.1244
皎	-11.1245
改容	-11.1245
黜陟	-11.1246
按察副使	-11.1246
舉於鄉	-11.1246
請復	-11.1247
以母老	-11.1248
堯舜之	-11.1249
既成	-11.1249
沸	-11.125
吉凶	-11.125
海口	-11.125
猥	-11.1251
䛕	-11.1252
踞	-11.1252
觀文殿學士	-11.1252
明主	-11.1253
帆	-11.1256
子厚	-11.1257
卒其弟	-11.1258
邇英	-11.1258
以避	-11.1259
地方人其曾孫	-11.126
常人	-11.126
果爾	-11.1261
刑罰	-11.1264
不阿	-11.1265
堅守	-11.1266
奮擊	-11.1268
五十九	-11.1268
金壇	-11.1269
丁巳	-11.1269
恩詔加一雲騎尉	-11.1269
歸而	-11.1269
也然則	-11.1269
難以	-11.1272
理義	-11.1272
北山	-11.1273
虛靈	-11.1274
逆黨	-11.1277
對上	-11.1278
扎薩克多羅郡王	-11.1281
典儀	-11.1282
臨朝	-11.1283
所記	-11.1283
真卿	-11.1284
他事	-11.1284
兵民	-11.1284
四十一年	-11.1285
宿衛	-11.1285
僕射	-11.1285
為國家	-11.1293
聞人	-11.1294
伊勒	-11.1295
念慮	-11.1296
鄂對	-11.1297
有欲	-11.1298
請於	-11.1299
交通	-11.13
協領	-11.1302
奏對	-11.1305
追贈	-11.1306
尋改	-11.1306
東閣	-11.1308
愛君	-11.1308
而罷	-11.131
公命	-11.1313
進士及第	-11.1313
章京	-11.1314
為惡	-11.1317
保甲	-11.1321
廟實録	-11.1322
章疏	-11.1324
兩府	-11.1327
晏子對	-11.1328
勝之	-11.1331
自殺	-11.1332
河地方	-11.1335
篤實	-11.1336
智髙	-11.1336
藏之	-11.1338
生員	-11.1338
至尊	-11.134
後先	-11.134
無主	-11.1341
罷相	-11.1341
貧者	-11.1343
現任䕶軍	-11.1343
成祖	-11.1344
瀋陽	-11.1345
斯言	-11.1349
授為一等輕車都尉	-11.1349
古理	-11.1354
分司	-11.1354
其謀	-11.1354
者葢	-11.1355
不患	-11.1357
慨	-11.1357
不失其	-11.1357
者凡	-11.136
文臣	-11.1361
唐書	-11.1367
同異	-11.1368
玉牒	-11.137
多士	-11.1378
隆興	-11.1381
右係國初來歸之人	-11.1381
莱	-11.1381
奭	-11.1382
逐之	-11.1382
扎庫木地方	-11.1382
剔	-11.1384
蟒	-11.1385
行營	-11.1385
股	-11.1386
心中	-11.1386
涪	-11.1387
儆	-11.1387
方略	-11.1387
爐	-11.1388
收其	-11.1389
科道	-11.1389
博爾濟	-11.1389
泯	-11.1389
景帝	-11.139
初無	-11.139
原任藍翎侍衛	-11.1391
昱	-11.1391
義勇	-11.1392
執之	-11.1392
黠	-11.1393
葵	-11.1393
羙	-11.1395
議郎	-11.1396
成帝	-11.1398
司直	-11.1399
愛敬	-11.1402
慰勞	-11.1403
無一人	-11.1406
兼權	-11.1407
涇陽	-11.1407
庶子	-11.1409
丹徒	-11.141
上疏論	-11.1414
敬則	-11.1414
召用	-11.1416
工詩	-11.1417
立碑	-11.1417
忠恕	-11.1418
之路	-11.1418
其材	-11.1418
成徳	-11.1421
以父	-11.1421
廓然	-11.1422
年譜	-11.1423
第六	-11.1424
訃聞	-11.1424
此學	-11.1425
者在	-11.1428
家法	-11.1432
後因	-11.1433
已定	-11.1435
父喪	-11.1435
之過	-11.1447
故任	-11.1449
儒林	-11.1449
邵子	-11.145
物理	-11.145
不知有	-11.1452
蔡氏	-11.1452
發於	-11.1456
之習	-11.1457
三路	-11.146
原任護軍校	-11.1466
獨以	-11.1469
狀元	-11.1471
督兵	-11.1471
修起居注	-11.1474
廬山	-11.1474
發見	-11.1475
七八	-11.1476
三尺	-11.1477
一軍	-11.1479
江寧	-11.1483
所守	-11.1486
泣曰	-11.1487
相顧	-11.1488
今君	-11.1488
見先生	-11.1489
佳為滿洲一姓此	-11.1489
遂行	-11.149
世有	-11.1493
千戸	-11.1495
有如	-11.1499
豈敢	-11.1501
有警	-11.1502
累日	-11.1505
青山	-11.1506
孥	-11.1507
成王	-11.1508
屯兵	-11.1512
原任頭等䕶衞	-11.1513
鎗	-11.1514
情識	-11.1516
大中祥符	-11.1516
盡性	-11.1517
授徒	-11.1518
鑲藍旗包衣人世居瀋陽地方	-11.1519
惓惓	-11.1519
仝	-11.152
上謂	-11.1521
兩路	-11.1521
完顔	-11.1521
晋	-11.1522
拈	-11.1524
曜	-11.1525
鄜延	-11.1527
虹	-11.1527
劫	-11.1527
原係副驍騎校	-11.1527
國子司業	-11.1528
無少	-11.1528
鹽鐵	-11.1529
蒐	-11.1529
鎬	-11.1529
撲	-11.153
蠱	-11.153
一郡	-11.153
有徳	-11.1531
安得不	-11.1532
之念	-11.1532
鳩	-11.1533
故相	-11.1535
屑	-11.1537
後儒	-11.1538
無意	-11.154
特命	-11.1541
酣	-11.1541
讀易	-11.1543
若干卷	-11.1543
又欲	-11.1546
能以	-11.1547
洪範	-11.1548
武安	-11.1549
犯法	-11.155
英廟	-11.1551
汀	-11.1551
其教	-11.1553
散處於	-11.1553
封多羅貝勒	-11.1554
上封事	-11.1555
花色	-11.1556
匹夫	-11.1557
享年六十	-11.1564
我朝	-11.1564
襲職遇	-11.1564
其利	-11.1566
六事	-11.1566
及至	-11.1567
忠直	-11.1568
大父	-11.1576
入境	-11.1576
通政	-11.1579
鄂州	-11.158
非其人	-11.158
首先	-11.158
而北	-11.1583
朕心	-11.1583
何得	-11.1584
感泣	-11.1585
兼佐	-11.1585
三等子	-11.1586
而不得	-11.1587
觀察使	-11.1588
思孝	-11.1588
所奏	-11.1592
北伐	-11.1593
詰之	-11.1594
耳今	-11.1594
道原	-11.1597
梯攻	-11.1597
謹按	-11.1599
既定	-11.16
行臺	-11.16
非義	-11.16
虚靈	-11.1602
新城	-11.1604
所傳	-11.161
直以	-11.1612
委署	-11.1613
然非	-11.1613
敬齋	-11.1615
七百	-11.1618
偏圖	-11.1618
馬步兵	-11.1621
蘇赫	-11.1624
四十四年	-11.1626
登科	-11.1627
胡廣	-11.1628
等事	-11.163
將吏	-11.163
王子	-11.163
獻可	-11.1631
賑之	-11.1632
放心	-11.1633
者心之	-11.1634
高祖	-11.1634
遺文	-11.1634
主者	-11.1636
講説	-11.1636
聞先生	-11.1637
存柱	-11.1639
是書	-11.1641
不爲	-11.1644
呼曰	-11.1644
舟中	-11.1646
學正	-11.1647
歐陽修	-11.1649
字君	-11.1649
祠堂	-11.1653
御書	-11.1653
貼	-11.1656
正紅旗人世居	-11.1658
示以	-11.1661
来歸年分	-11.1662
是何	-11.1663
三十二	-11.1664
二卷	-11.1664
原任三	-11.1665
屢敗賊	-11.1666
鹵	-11.1668
漆	-11.1669
今若	-11.1669
意者	-11.167
淳祐	-11.1671
丁謂	-11.1671
剴切	-11.1671
偹	-11.1672
枚	-11.1673
特穆爾	-11.1673
可任	-11.1673
復辟	-11.1673
愉	-11.1674
酉	-11.1674
三十四	-11.1674
磐	-11.1674
療	-11.1675
者莫不	-11.1677
隄	-11.1677
往復	-11.1678
也是故	-11.1681
原係監生	-11.1682
超然	-11.1682
意欲	-11.1684
駐兵	-11.1684
無恙	-11.1685
三百餘	-11.1686
東廓	-11.1687
冠帶	-11.1688
儁	-11.1688
尚在	-11.1688
劉光世	-11.1689
百僚	-11.169
韓世忠	-11.1692
有七	-11.1693
現任歩軍校	-11.1694
異也	-11.1694
復入	-11.1695
以本官	-11.1696
初學	-11.1696
事變	-11.1697
未下	-11.1699
二帝	-11.1699
休息	-11.1708
為人所	-11.1711
其首	-11.1712
日中	-11.1715
楚子	-11.1717
聖心	-11.1717
永樂中	-11.1719
辦理	-11.1721
之功也	-11.1724
開府	-11.1724
良知也	-11.1726
無辜	-11.1728
季氏	-11.1729
校官	-11.1731
得所	-11.1732
柱原任	-11.1732
以清	-11.1733
劄子	-11.1735
豈其	-11.174
考其孫	-11.1741
中傷	-11.1743
無名	-11.1748
皆然	-11.1751
出守	-11.1757
又徙	-11.1757
凡事	-11.1758
春正月	-11.1758
於其間	-11.1759
即知	-11.176
不齊	-11.1761
本然之	-11.1761
而先生	-11.1762
坐事	-11.1763
賢士大夫	-11.1763
永寧	-11.1766
遣將	-11.1769
亦可以	-11.1773
忠定	-11.1777
六七	-11.1779
續征雲南	-11.1779
以文學	-11.178
方正	-11.1783
閒居	-11.1783
敵騎	-11.1788
不拜	-11.1788
一處	-11.1789
益堅	-11.1789
什泰	-11.1789
宣州	-11.179
其㫖	-11.179
立國	-11.1793
自劾	-11.1794
無體	-11.1795
耳若	-11.1796
四品	-11.1797
從事於	-11.1798
二次襲	-11.1801
杲	-11.1801
所薦	-11.1802
在廷	-11.1803
屹	-11.1804
茫	-11.1804
此所謂	-11.1805
達克	-11.1805
七品官	-11.1806
稀	-11.1806
克塔	-11.1806
正黄旗包衣管領下人世居瀋陽地方	-11.1807
河中	-11.1809
聖意	-11.181
金山	-11.1812
郝	-11.1812
易傳	-11.1813
滔	-11.1813
禮官	-11.1814
承務郎	-11.1814
琬	-11.1814
蠡	-11.1815
岷	-11.1815
稚	-11.1816
恂恂	-11.1816
破其	-11.1816
霖	-11.1816
犀	-11.1817
薛文清	-11.1817
杯	-11.1818
綽爾	-11.1819
蟠	-11.1819
其餘無事蹟可立傳者附載於後鑲黄旗	-11.182
上親征	-11.182
空言	-11.182
頭腦	-11.182
閤門	-11.182
嘿	-11.182
洵	-11.1821
邃	-11.1821
撼	-11.1821
可矣	-11.1822
咏	-11.1824
天章閣待制	-11.1824
喧	-11.1825
以義	-11.1825
豎	-11.1825
鋤	-11.1826
襲五次襲	-11.1826
沽	-11.1826
集中	-11.1826
兩月	-11.1827
太子太師	-11.1828
追之	-11.1828
焚香	-11.1828
中立	-11.183
治國	-11.1835
立祠	-11.1836
為君	-11.1837
磨滅	-11.1837
布政司	-11.1837
以供	-11.1842
雙江	-11.1843
者宜	-11.1844
東漢	-11.1845
宣力	-11.1845
請益	-11.1847
以至於	-11.1848
統領	-11.1848
此正	-11.185
諸縣	-11.185
華亭	-11.185
出城	-11.1854
孫權	-11.1857
輝特	-11.1858
大學之	-11.1858
三十四年	-11.186
三保	-11.1862
自當	-11.1867
永泰	-11.1868
遂命	-11.1868
伏闕	-11.187
字景	-11.1871
筵	-11.1872
自奉	-11.1872
指示	-11.1872
叅議	-11.1876
日久	-11.1877
將至	-11.1877
地也	-11.1878
明覺	-11.1878
兵二千	-11.1883
大率	-11.1885
領之	-11.1886
何用	-11.1887
是之謂	-11.1891
居多	-11.1891
越州	-11.1892
渾春地方	-11.1892
大道	-11.1894
州守	-11.1897
和羅	-11.1897
薩爾圖	-11.1898
不任	-11.1899
以此為	-11.1899
動處	-11.1899
入蜀	-11.1899
江山	-11.19
居處	-11.1901
正當	-11.1902
以疾卒	-11.1902
不戰	-11.1903
以遺	-11.1906
忠武	-11.1907
不殺	-11.1907
祭之	-11.1912
訃	-11.1914
甚至	-11.1916
驚曰	-11.1917
七品	-11.1917
方其	-11.1919
所請	-11.1919
嘗問	-11.1922
阿里	-11.1923
既已	-11.1932
奏聞	-11.1933
下學	-11.1943
六部	-11.1946
相接	-11.1947
城陷	-11.1951
命乾清門行走	-11.1952
安用	-11.1952
潞公	-11.1953
卒年四十	-11.1954
哥	-11.1956
徳裕	-11.1956
由正白旗改隸	-11.1956
馥	-11.1957
原任二等䕶衞	-11.1957
不亂	-11.1958
轡	-11.1958
三州	-11.196
間道	-11.196
因病告退其子	-11.196
既還	-11.1961
汶	-11.1962
視朝	-11.1963
感而遂通	-11.1964
憂之	-11.1964
鄱陽	-11.1964
經營	-11.1966
退居	-11.1966
紐	-11.1966
使君	-11.1966
戡	-11.1967
己酉	-11.1968
這個	-11.1968
中書舎人	-11.1968
通政使	-11.1968
奐	-11.1968
認得	-11.1969
更相	-11.197
淄	-11.197
企	-11.1971
納木	-11.1971
渇	-11.1971
諄諄	-11.1972
趙南星	-11.1972
其喪	-11.1972
数	-11.1973
不啻	-11.1973
怵惕	-11.1973
鄒元標	-11.1974
潯	-11.1974
髯	-11.1974
駟	-11.1975
三十七年	-11.1976
凍	-11.1977
父諱	-11.1977
擒之	-11.1979
叙功授	-11.1983
統兵	-11.1984
山陽	-11.1988
與民	-11.1988
明矣	-11.1988
無不善	-11.1991
賞賚	-11.1993
吏部左侍郎	-11.1993
財賦	-11.1995
二十七日	-11.1995
越王	-11.1997
賢否	-11.1997
婦女	-11.1999
講習	-11.2
部衆	-11.2001
劉子	-11.2003
了翁	-11.2006
登額	-11.2006
何能	-11.2006
乎若	-11.2007
授編修	-11.2008
全在	-11.2008
失利	-11.2011
師門	-11.2012
境上	-11.2013
之具	-11.2013
長適	-11.2015
賊將	-11.2016
降詔	-11.2018
切直	-11.2018
在官	-11.2019
未詳	-11.2021
優授	-11.2021
户口	-11.2021
可勝	-11.2023
其失	-11.2026
夷簡	-11.2028
語孟	-11.203
撫順	-11.203
阿都	-11.2032
伊等	-11.2032
過於	-11.2034
唐阿	-11.2035
龍江	-11.2036
赫色	-11.2036
疾革	-11.2036
吾儕	-11.2037
隨時	-11.2039
戰功	-11.204
順應	-11.204
其部	-11.2041
不可奪	-11.2041
千秋	-11.2048
三十九年	-11.2051
襲職卒	-11.2052
為己	-11.2056
恭敬	-11.2056
多事	-11.2057
有疑	-11.2059
於斯	-11.206
院事	-11.206
死節	-11.2061
贊善	-11.2066
原任包衣大	-11.2066
告急	-11.2068
議和	-11.2068
遣子	-11.2071
詩集	-11.2072
宋人	-11.2072
不敢犯	-11.2077
始祖	-11.2078
子女	-11.2079
則可以	-11.2081
縁事革退其	-11.2086
騰機思	-11.209
惻	-11.209
過矣	-11.209
叛賊	-11.209
事功	-11.2091
嘉興	-11.2092
理藩院	-11.2093
事務	-11.2094
吉納	-11.2095
民兵	-11.2096
塾	-11.2097
五十六	-11.2101
托克托	-11.2103
沅	-11.2104
正黄旗包衣	-11.2105
文清	-11.2105
靠	-11.2107
噶爾瑪	-11.2108
朕意	-11.211
剰	-11.2112
嘗論	-11.2112
卵	-11.2113
民無	-11.2113
宜興	-11.2114
渤	-11.2114
瘞	-11.2114
蒸	-11.2114
二千餘	-11.2115
瑣	-11.2115
三泰	-11.2117
不睹不聞	-11.2118
毓	-11.2118
三才	-11.2118
埜	-11.2119
天文	-11.2119
砥	-11.2119
嘯	-11.2121
銑	-11.2121
酬酢	-11.2121
同中書門下平章事	-11.2122
聲臭	-11.2123
俯仰	-11.2123
莭	-11.2123
十餘里	-11.2124
壹	-11.2124
敗走	-11.2124
凛然	-11.2125
格物致知	-11.2126
領鄉薦	-11.2128
巍	-11.2128
由䕶軍叅領	-11.2129
朱熹	-11.2129
哭之	-11.213
指揮使	-11.2136
奏曰臣	-11.2136
泰原	-11.2137
方有	-11.2138
儒術	-11.2138
清濁	-11.214
蠻夷	-11.214
歸宿	-11.2141
正道	-11.2141
衆議	-11.2142
聽之	-11.2143
星額	-11.2144
其流	-11.2145
主靜	-11.2147
未立	-11.2148
海門	-11.2148
三十萬	-11.2149
什哈	-11.2151
里中	-11.2152
代善	-11.2154
萬世之	-11.2155
伊克	-11.2159
姑蘇	-11.2164
韶州	-11.2165
有力	-11.2166
首尾	-11.2166
墨爾	-11.2167
大器	-11.2169
察哈	-11.2169
不能容	-11.217
安圖	-11.2174
二十九	-11.2174
勝負	-11.2174
駐牧	-11.2175
三四	-11.2176
湛然	-11.2178
命下	-11.2181
之漸	-11.2184
古禮	-11.2185
天地之間	-11.2186
哈什	-11.2187
者耶	-11.2187
兖	-11.219
詞章	-11.219
力争	-11.2191
慕之	-11.2194
馬歩兵	-11.2195
襲扎薩克	-11.2195
守道	-11.2196
河内	-11.2197
一出	-11.2198
不忠	-11.22
古爾	-11.2201
松江	-11.2205
者獨	-11.2206
之學也	-11.2206
乃使	-11.2207
百餘里	-11.2208
奏罷	-11.2209
自得之	-11.221
光景	-11.221
牧長	-11.2212
不能用	-11.2216
而見	-11.2218
貽書	-11.222
安泰	-11.2221
曰不然	-11.2221
西方	-11.2222
戰死	-11.2224
無慮	-11.2225
布魯	-11.2225
治兵	-11.2225
知幾	-11.2226
原任䕶軍校曽孫	-11.2226
四端	-11.2229
郵	-11.2231
官職	-11.2236
㕔	-11.2238
自勵	-11.2243
主考	-11.2246
辭歸	-11.2248
延年	-11.2252
文淵閣大學士	-11.2252
萬安	-11.2254
擒其	-11.2256
鞍	-11.2257
一品	-11.2258
薦公	-11.2259
車布登扎布	-11.226
者十	-11.2262
策凌	-11.2265
滿丕	-11.2265
之北	-11.2265
己卯	-11.2266
軍門	-11.2267
養氣	-11.2267
襲扎薩克鎮國公	-11.2268
賡	-11.2268
楨	-11.2268
祉	-11.2268
丁父憂	-11.227
纒	-11.227
碣	-11.227
﨑	-11.227
鰲	-11.227
尅	-11.2271
襍	-11.2271
設伏	-11.2272
洙泗	-11.2272
道輔	-11.2272
教以	-11.2273
不煩	-11.2273
江湖	-11.2273
擲	-11.2274
今乃	-11.2274
嗇	-11.2275
殃	-11.2275
不恱	-11.2276
社稷之	-11.2278
玄	-11.2278
㳂	-11.2278
道德	-11.2279
一燝	-11.2279
同平章事	-11.228
种	-11.228
自足	-11.228
疾苦	-11.2281
承平	-11.2282
子三長	-11.2282
千總一兵	-11.2282
現任三等䕶衛	-11.2284
尙書	-11.2285
千餘衆	-11.2286
風雲	-11.2288
馳驛	-11.2289
阿林	-11.2289
公爵	-11.229
虚實	-11.229
發揮	-11.229
導之	-11.2291
原任驍騎校曾孫	-11.2291
尋卒	-11.2291
杏山	-11.2293
上嘗	-11.2294
九載	-11.2296
數事	-11.2296
未安	-11.2296
也至於	-11.2296
大人	-11.2297
物物	-11.2298
少詹事	-11.2299
士論	-11.2302
右布政使	-11.2302
不輕	-11.2307
紀律	-11.2308
又論	-11.2309
王爵	-11.2311
此心之	-11.2312
樞密使	-11.2312
德爾	-11.2313
九人	-11.2314
城府	-11.2315
原任二等侍衞	-11.2315
妙用	-11.2316
并州	-11.2316
勞苦	-11.2317
通鑑	-11.2319
静而	-11.2323
不得而	-11.2324
中貴	-11.2327
奪之	-11.2328
一死	-11.2329
尋除	-11.2333
歸附	-11.2333
為尚書	-11.2337
長子雍正	-11.2338
永昌	-11.234
果能	-11.234
真實	-11.234
直抵	-11.2342
盡言	-11.2346
不虞	-11.2347
可復	-11.235
乘間	-11.2351
現係副	-11.2354
擇其	-11.2357
中流	-11.2357
近溪	-11.2358
報可	-11.2358
臨終	-11.2362
倉庫	-11.2363
色原任	-11.2363
動作	-11.2363
郡中	-11.2364
仲子	-11.2366
總領	-11.2366
丹巴	-11.2367
不可及	-11.2367
同日	-11.2369
人也少	-11.2369
惟是	-11.237
十八人	-11.237
大夫也	-11.2374
郡太守	-11.2374
漢陽	-11.2374
輝發地方人其	-11.2374
北門	-11.2378
天津	-11.2381
紹興初	-11.2382
廷對	-11.2383
現任䕶軍叅領	-11.2384
心存	-11.2385
修徳	-11.2385
異議	-11.2386
孫阿	-11.2387
為太子	-11.2389
其初	-11.239
爾格	-11.2392
于外	-11.2393
安知	-11.2397
所不及	-11.2402
顧命	-11.2402
之運	-11.2409
宋公	-11.2411
明儒學案卷	-11.2412
襲職從征	-11.2416
分無考其孫	-11.2418
喫	-11.242
迪功郎	-11.2421
現係庫使	-11.2422
部尚書	-11.2422
因事	-11.2423
承事郎	-11.2424
眩	-11.2427
現任三等䕶衞	-11.2427
贈雲騎尉	-11.2427
之長	-11.2427
獨立	-11.2427
癸亥	-11.2427
堆	-11.2428
磬	-11.2428
怙	-11.2429
阨	-11.2429
豈以	-11.2429
醴	-11.2432
雁	-11.2432
𨼆	-11.2432
愠	-11.2432
跳	-11.2432
右係國初来歸之人	-11.2433
登進士	-11.2434
朱子曰	-11.2435
追擊	-11.2436
徳秀	-11.2437
屏山	-11.2437
磁	-11.2438
篋	-11.2438
子瞻	-11.2439
承制	-11.244
謫戍	-11.244
如是則	-11.2441
羞惡	-11.2442
部落	-11.2442
賊首	-11.2442
轉運司	-11.2446
相繼承襲又	-11.2446
涇野	-11.2447
四萬	-11.2449
引咎	-11.2449
兵法	-11.245
秋七月	-11.2451
禮部郎中	-11.2451
十分	-11.2458
秦漢	-11.2462
永豐	-11.2462
菴先生	-11.2463
故名	-11.2463
死罪	-11.2468
舒穆	-11.2469
皇祖	-11.2469
大司馬	-11.247
原任防	-11.247
奉勅	-11.2471
之大者	-11.2472
其手	-11.2473
宣帝	-11.2473
光祖	-11.2476
所舉	-11.2477
逹理	-11.2479
若能	-11.248
館閣	-11.2481
乆而	-11.2482
景隆	-11.2482
衆心	-11.2484
士英	-11.2485
諸經	-11.2485
順之	-11.2491
焉而	-11.2492
大任	-11.2493
湖北	-11.2494
魯國	-11.2495
交友	-11.2495
五六	-11.2497
二縣	-11.2501
風化	-11.2502
留心	-11.2504
徽州	-11.2506
相從	-11.2506
永樂初	-11.2506
端重	-11.2506
上元	-11.2507
妄言	-11.2509
世務	-11.251
流離	-11.2511
不軌	-11.2511
三十餘年	-11.2511
聞命	-11.2514
以明經	-11.2516
之喪	-11.2518
伯宗	-11.2522
剛直	-11.2522
人主之	-11.2526
參領	-11.2527
巴理	-11.2532
非徒	-11.2535
安樂	-11.2535
入侍	-11.2536
持之	-11.2541
原任二等	-11.2541
存者	-11.2542
持重	-11.2544
其詞	-11.2544
尋命	-11.2549
在焉	-11.2549
莊公	-11.2552
元帝	-11.2552
來援	-11.2557
年十八	-11.256
𣲖	-11.2564
未仕本貫	-11.2564
薦舉	-11.2565
撃敗	-11.2567
舍稜	-11.2568
特立	-11.2569
意在	-11.2573
腦	-11.2576
大震	-11.2579
捫	-11.2581
現任筆	-11.2582
阿巴泰	-11.2582
不到	-11.2584
漳浦	-11.2585
暁	-11.2585
蹤	-11.2586
蘇克	-11.2587
𠡠	-11.2587
儻	-11.2589
震悼	-11.2589
戰艦	-11.259
僮	-11.2591
覇	-11.2592
薫	-11.2592
蠶	-11.2592
卻	-11.2592
明阿	-11.2593
部郎中	-11.2596
殮	-11.2596
以授	-11.2596
渴	-11.2597
醫藥	-11.2597
中書侍郎	-11.2598
睿親王	-11.2598
怕	-11.2598
蔬食	-11.26
燾	-11.26
按察司	-11.2601
太中大夫	-11.2602
餒	-11.2602
一箇	-11.2602
干戈	-11.2602
者也故	-11.2603
騎射	-11.2605
今已	-11.2605
不即	-11.2609
金紫	-11.2609
親民	-11.261
安可	-11.2611
咸淳	-11.2611
疏論	-11.2615
天禧	-11.2615
王佐	-11.2617
虚齋	-11.2618
訓練	-11.2618
沮之	-11.2619
友善	-11.2619
夏五月	-11.262
䕶衞	-11.2623
也但	-11.2625
而東	-11.2625
事勢	-11.2627
岳州	-11.2628
百司	-11.2629
之詞	-11.2632
大振	-11.2634
但以	-11.2635
不載	-11.2635
入奏	-11.2637
鄆州	-11.2637
以言事	-11.2637
潭州	-11.2638
公雖	-11.2638
親親	-11.2641
諸將皆	-11.2642
相知	-11.2643
郎官	-11.2644
希孟	-11.2645
端平	-11.2645
孝亷	-11.2646
夢陽	-11.2646
而猶	-11.2648
選侍	-11.2649
目為	-11.2649
施之	-11.265
公奏曰	-11.2651
為變	-11.2652
聞道	-11.2654
漢軍	-11.2656
勝非	-11.2658
單于	-11.266
辭以	-11.2661
充塞	-11.2662
二次	-11.2664
日記	-11.2668
者輒	-11.2673
主張	-11.2676
現任驍	-11.2677
江隂	-11.2677
恩詔所加之職承襲騎都尉	-11.2686
曰然則	-11.2687
從兄	-11.2687
徒以	-11.2687
周程	-11.269
是歲	-11.2691
尼馬察地方	-11.2691
禮法	-11.2696
興元	-11.2698
從政	-11.2701
阿敏	-11.2703
如其言	-11.2703
一致	-11.2704
放過	-11.2704
敘功授雲騎尉	-11.2706
從征厄魯特噶爾丹	-11.2706
或言	-11.2713
南星	-11.2714
入翰林	-11.2715
從前	-11.2715
諸大臣	-11.2717
東阿	-11.2719
逺方	-11.2721
邁圖	-11.2722
諭徳	-11.2722
海原任	-11.2723
吾聞	-11.2724
謂公曰	-11.2724
一官	-11.2727
琿台吉	-11.273
人康熙時自科爾沁	-11.2732
淮安	-11.2733
二等台吉	-11.2733
數里	-11.2736
白水	-11.2739
一時名	-11.2741
其法	-11.2742
二州	-11.2742
車都尉	-11.2742
▁皇帝	-11.2743
漣	-11.2743
厦門	-11.2744
忠烈	-11.2744
諸處	-11.2744
授雲騎尉三遇	-11.2745
致力	-11.2745
且謂	-11.2747
為姦	-11.2747
家庭	-11.2748
名位	-11.2749
駕幸	-11.2749
分無考其子	-11.2751
閣下	-11.2751
黨人	-11.2751
必勝	-11.2752
繒	-11.2752
衙門	-11.2753
煉	-11.2753
訪求	-11.2753
縦	-11.2754
之本也	-11.2755
贑	-11.2756
緬	-11.2756
諸侯之	-11.2756
將作監主簿	-11.2756
也聖人	-11.2757
無一物	-11.2758
門下侍郎	-11.2758
京畿	-11.2759
睡	-11.2759
試之	-11.2763
為君子	-11.2764
嬴	-11.2766
儉約	-11.2768
一種	-11.2771
固非	-11.2772
入京	-11.2775
深矣	-11.2775
阿濟	-11.2777
講義	-11.278
不預	-11.2782
原任佐領元孫	-11.2783
與本旗	-11.2784
神保	-11.2784
可法	-11.2785
姦邪	-11.2787
之策	-11.2788
授三等輕車都尉	-11.2789
貴戚	-11.279
莆陽	-11.2794
雲中	-11.2798
因問	-11.28
平反	-11.28
保安	-11.2802
吉安	-11.2804
邊境	-11.2805
赫赫	-11.2808
守忠	-11.2809
為宰相	-11.281
老人	-11.2811
成書	-11.2813
斥之	-11.2814
甲第	-11.2816
都統制	-11.2816
隨處	-11.2817
選舉	-11.2821
分遣	-11.2821
覺羅	-11.2822
東路	-11.2823
部使者	-11.2827
里克	-11.2829
一片	-11.2829
嘗從	-11.283
必將	-11.2832
原任頭等	-11.2834
不貳	-11.2836
既去	-11.2836
毋得	-11.2838
南宫	-11.2839
内徙	-11.284
徳明	-11.2841
老氏	-11.2846
謝罪	-11.2848
緒山	-11.2848
萬兩	-11.2849
造化之	-11.285
城北	-11.2851
先鋒	-11.2852
流水	-11.2854
國本	-11.2863
帝即位	-11.2863
中州	-11.2865
攻克	-11.2865
非惟	-11.2866
于民	-11.2868
分殊	-11.2868
請行	-11.287
里人	-11.287
大功	-11.2872
靈公	-11.2875
罪人	-11.2877
困於	-11.2879
畏之	-11.2881
下士	-11.2882
天徳	-11.2882
受知	-11.2884
職又	-11.2885
天下皆	-11.2891
五十七	-11.2891
所係	-11.2892
土謝圖	-11.2893
六合	-11.2895
塔布囊	-11.2896
時務	-11.2897
議政大臣	-11.2898
親叔之子	-11.29
本係地名因以為姓	-11.2901
修身為本	-11.2901
顥	-11.2901
有遺	-11.2901
二等男	-11.2903
亳	-11.2903
有善有惡	-11.2904
由正白旗改𨽻	-11.2905
店	-11.2905
弦	-11.2906
所著書	-11.2906
惺惺	-11.291
所以能	-11.291
廻	-11.2911
䆳	-11.2911
譎	-11.2913
盪	-11.2913
鶻	-11.2913
阿哈瑪特	-11.2913
雷霆	-11.2914
磔	-11.2915
宓	-11.2917
冢宰	-11.2917
洒	-11.2917
煒	-11.2919
原任六品	-11.2919
翰林侍讀學士	-11.2919
居中	-11.2919
祧	-11.2919
瞽	-11.292
遵㫖	-11.292
閬	-11.292
瑀	-11.2921
終不能	-11.2921
右諫議大夫	-11.2922
問疾	-11.2922
九齡	-11.2923
鼠	-11.2923
其軍	-11.2923
尚書左丞	-11.2923
戸部尚書	-11.2923
閭里	-11.2924
故道	-11.2924
巴格	-11.2928
十五人	-11.2928
於上前	-11.2929
賢不肖	-11.2934
郡公	-11.2935
史氏	-11.2936
金銀	-11.2936
萬年	-11.2938
吏治	-11.2939
祕書	-11.2941
奸邪	-11.2946
掃除	-11.2946
布理	-11.2946
桂陽	-11.2946
燕京	-11.2948
趙公	-11.2949
海冦	-11.295
士風	-11.2951
賊勢	-11.2951
任協領	-11.2955
民田	-11.2955
甚力	-11.2956
光祿	-11.2957
續征	-11.2959
歎服	-11.296
二十日	-11.2961
而作	-11.2961
朔望	-11.2961
誠能	-11.2962
扶風	-11.2964
征西	-11.2966
數萬人	-11.2967
唐太宗	-11.2967
等侍衛	-11.2967
恩禮	-11.2968
亦須	-11.2974
調兵	-11.2974
消長	-11.2974
士習	-11.2974
智者	-11.2975
惜乎	-11.2975
禍亂	-11.2975
一嵗	-11.2977
公初	-11.2977
辟為	-11.2978
文升	-11.298
二十六	-11.298
亦只是	-11.2981
欽州	-11.2982
嘗語	-11.2984
不俟	-11.2986
行于世	-11.2987
士子	-11.2988
現任七品官	-11.2988
穆圖	-11.2992
詩賦	-11.2993
震怒	-11.2994
遇害	-11.2995
接人	-11.3
日講	-11.3
許國	-11.3004
三桂	-11.3006
錦衣衛	-11.3011
亡也	-11.3012
其大者	-11.3012
夏侯	-11.3012
沂中	-11.3016
比年	-11.3016
文炳	-11.3017
行誼	-11.3017
交薦	-11.302
克已	-11.3024
特克	-11.3025
伊川曰	-11.303
無得	-11.3032
現任佐領又	-11.3034
急於	-11.3035
長江	-11.3038
齊名	-11.3042
楚王	-11.3044
市易	-11.3047
謂宜	-11.3048
無妄	-11.3049
逮繫	-11.3053
先生之言	-11.3055
循理	-11.3057
亡國	-11.306
精一	-11.306
營田	-11.3061
薨于	-11.3062
襲扎薩克多羅貝勒	-11.3063
與本旗同里	-11.3064
是夕	-11.3064
宗人府	-11.3064
札魯特地方	-11.3065
▁至三等輕車都尉	-11.3065
科布多	-11.3066
上覽	-11.3069
都綂	-11.3069
末年	-11.307
擊敗賊偽	-11.307
太常寺卿	-11.3072
崧	-11.3073
酢	-11.3074
臆	-11.3075
甘心	-11.3076
緋	-11.3079
更始	-11.3079
奉議郎	-11.3079
觀文殿大學士	-11.3079
四十五年	-11.3081
菊	-11.3081
左僕射	-11.3082
滸	-11.3082
正黄旗包衣人世居	-11.3082
参	-11.3082
正黄旗包衣人世居瀋陽地方來歸年	-11.3083
右僉都御史	-11.3084
賢良方正	-11.3085
屨	-11.3085
澶淵	-11.3085
巽	-11.3086
九疇	-11.3086
徳音	-11.3087
紊	-11.3087
天下之大本	-11.3087
至老	-11.3088
知無不言	-11.3088
擿	-11.3089
優劣	-11.3089
逕	-11.309
已久	-11.309
賜銀	-11.3091
季孫	-11.3091
北狩	-11.3091
楊漣	-11.3092
恤民	-11.3092
仁孝	-11.3093
權倖	-11.3093
原任步軍	-11.3093
為丞相	-11.3094
包衣大	-11.3095
廷杖	-11.3096
也余	-11.3098
晉泰	-11.3099
簽書	-11.3099
入閣	-11.3105
三十五	-11.3106
四十八	-11.3109
無疆	-11.3113
伊川先生	-11.3116
原任通事官	-11.3117
莫知	-11.3118
嘗聞	-11.3121
五曰	-11.3122
城東	-11.3123
土地	-11.3128
對曰陛下	-11.3129
恐非	-11.3129
精思	-11.3131
協理	-11.3131
不勝其	-11.3131
之罪也	-11.3131
多言	-11.3132
所發	-11.3134
達禮	-11.3138
治行	-11.3139
何如曰	-11.3139
某日	-11.314
旁有	-11.3143
日月之	-11.3145
長驅	-11.3145
布拉	-11.3146
楞泰	-11.3146
力爭	-11.3146
忠簡	-11.3146
有變	-11.3147
卒業	-11.3148
到此	-11.3155
才識	-11.3155
擊敗賊偽將	-11.3157
軒先生	-11.3159
大徳	-11.3164
視師	-11.3167
清流	-11.3168
舉朝	-11.3171
惡者	-11.3172
叙功優授	-11.3174
鄧州	-11.3174
君子也	-11.3175
司冦	-11.3176
隱居	-11.3178
中都	-11.318
田地	-11.3194
被逮	-11.3195
未可知	-11.3198
遺詔	-11.3198
率師	-11.3199
壯士	-11.3199
此一姓世居	-11.32
華善	-11.32
族弟	-11.3202
希文	-11.3202
終無	-11.3202
練兵	-11.3203
邊將	-11.3205
雍正九年	-11.3206
出門	-11.3209
竊謂	-11.321
為朕	-11.3212
以下皆	-11.3214
乎夫	-11.3217
好色	-11.3217
訃聞上	-11.322
殿中	-11.3221
察琿多爾濟	-11.3223
原任内	-11.3224
八九	-11.3225
謚文	-11.3225
其所謂	-11.323
鄂爾多斯	-11.3234
首先登城克之	-11.3234
文忠公	-11.3235
頗羅鼐	-11.3237
涌	-11.3237
偶然	-11.3239
不急	-11.3239
遂除	-11.3241
㳺牧	-11.3241
栖	-11.3243
捉	-11.3244
藩臬	-11.3244
埒	-11.3245
太宗文皇帝	-11.3245
方人其	-11.3246
謐	-11.3246
不專	-11.3247
稍遷	-11.3248
輓	-11.3248
韙之	-11.3248
贏	-11.3249
初名	-11.325
燬	-11.325
礁	-11.3251
立身	-11.3251
仁人	-11.3251
直集賢院	-11.3252
鳶飛魚躍	-11.3252
十五日	-11.3252
文義	-11.3253
組	-11.3253
滇	-11.3253
趾	-11.3254
琅	-11.3254
折衷	-11.3254
琢	-11.3255
迅	-11.3255
糶	-11.3255
大風	-11.3258
物故	-11.3259
噶斯	-11.326
曲阜縣	-11.3261
亦嘗	-11.3263
有志於	-11.3263
欽定四庫全書明儒學案卷	-11.3264
之迹	-11.3264
相承	-11.3265
創業	-11.3266
潮州	-11.3266
須要	-11.3267
氓	-11.3268
無惡	-11.3269
曲折	-11.327
第六子	-11.327
而言之	-11.3271
姑息	-11.3274
仁厚	-11.3275
賦役	-11.3277
歐陽公	-11.3278
第巴	-11.328
造詣	-11.328
恩特	-11.3284
督府	-11.3286
而遽	-11.3287
而後行	-11.3288
淑人	-11.3289
推重	-11.329
公侯	-11.3291
不差	-11.3292
節儉	-11.3292
四明	-11.3292
家屬	-11.3293
字廷	-11.3295
艾軒	-11.3297
户部主事	-11.3297
上柱國	-11.3303
惜哉	-11.3305
科第	-11.3308
原任給事中	-11.3309
夜氣	-11.3312
直𨽻	-11.3315
厯任	-11.3317
今陛下	-11.3318
所指	-11.3321
實踐	-11.3321
執禮	-11.3322
吳氏	-11.3325
疑獄	-11.3327
國學	-11.3327
去年	-11.3328
水中	-11.3328
不自安	-11.3329
任䕶軍叅領	-11.3329
征湖廣	-11.3329
民困	-11.3332
皆能	-11.3333
定天下	-11.3342
現任協領	-11.3342
之言曰	-11.3342
吕公	-11.3343
文貞	-11.3344
論道	-11.3344
也嗚呼	-11.3346
在前	-11.3347
以給	-11.335
居常	-11.3351
為翰林學士	-11.3353
十有八	-11.3358
七嵗	-11.3358
只説	-11.3361
茍有	-11.3361
之黨	-11.3361
優授騎都尉	-11.3362
刻石	-11.3364
賜坐	-11.3365
衆論	-11.3367
也上曰	-11.3374
縁事革退	-11.3375
葉赫地方人	-11.3376
風流	-11.3377
一戰	-11.3378
多寡	-11.3379
接物	-11.3385
不雜	-11.3388
使還	-11.339
封事	-11.3391
入官	-11.3392
大都	-11.3392
襲職任佐領	-11.3397
金國	-11.3398
頭等侍衛	-11.3398
曲阜	-11.34
悚	-11.3402
衮楚克	-11.3403
召拜	-11.3406
不置	-11.3406
濟爾哈朗	-11.3407
克西克騰地方	-11.3408
十八日	-11.3409
鞅	-11.341
鄭州	-11.341
一人而已	-11.341
噶布拉	-11.3413
以為言	-11.3413
貢舉	-11.3414
壕	-11.3415
為善去惡	-11.3415
翎	-11.3417
既久	-11.3417
丹濟拉	-11.3417
侔	-11.3418
撰墓志	-11.3418
杳	-11.3418
穉	-11.3418
兢	-11.3418
頡	-11.3419
鎮海	-11.3421
豈惟	-11.3421
布顔	-11.3421
位至	-11.3421
歇	-11.3421
禮部左侍郎	-11.3421
涓	-11.3422
誇	-11.3423
翀	-11.3423
憸	-11.3423
衾	-11.3424
款	-11.3425
僧保	-11.3425
提㸃刑獄	-11.3427
喉	-11.3428
闊	-11.343
空寂	-11.343
家國天下	-11.343
隧	-11.343
俛	-11.3431
懸空	-11.3431
叔子	-11.3431
櫛	-11.3432
㨿	-11.3432
洪熈	-11.3433
羮	-11.3433
解縉	-11.3434
直史館	-11.3434
所敗	-11.3435
倫泰	-11.3435
昬	-11.3435
曹彬	-11.3436
莫可	-11.3438
洪武元年	-11.3439
宋濓	-11.3441
補官	-11.3442
心齋	-11.3442
書奏	-11.3443
何獨	-11.3444
編脩	-11.3447
次子乾隆	-11.3449
休戚	-11.3449
加禮	-11.3449
夫豈	-11.345
生物	-11.3451
李東陽	-11.3452
防秋	-11.3453
不見其	-11.3456
罷兵	-11.3457
防守	-11.3458
所殺	-11.3458
興祖	-11.3459
馳赴	-11.346
物則	-11.3461
總理	-11.3461
殺賊	-11.3461
金使	-11.3461
梁王	-11.3464
少長	-11.3464
兼佐領又	-11.3465
大司農	-11.347
寧阿	-11.347
國政	-11.3472
空虚	-11.3472
者歟	-11.3473
桓子	-11.3475
二女	-11.3475
原吉	-11.3475
交結	-11.3485
京官	-11.3487
圖巴	-11.3489
御筆	-11.3491
原任佐領其子	-11.3492
虎爾哈地方	-11.3492
為南京	-11.3493
現任委署	-11.3496
學道	-11.3497
纂官	-11.3497
方寸	-11.3504
可取	-11.3507
年十五	-11.3511
行軍	-11.3513
諸城	-11.3517
曲直	-11.3517
十三人	-11.3521
路安撫使	-11.3521
現任典儀	-11.3522
柱現任	-11.3523
詩有	-11.3524
三巻	-11.3525
州觀察使	-11.3525
先賢	-11.3528
都總管	-11.3528
講解	-11.3529
終是	-11.3529
願得	-11.3531
其所為	-11.3532
奉聖	-11.3535
改正	-11.3536
開平	-11.3537
緣事革退	-11.3539
賑濟	-11.3542
未嘗一日	-11.3544
居士	-11.3551
係隸滿洲旗分之蒙古	-11.3552
誰敢	-11.3555
復職	-11.3559
不落	-11.3561
重慶	-11.3564
仁體	-11.3567
齊布	-11.3568
名器	-11.3571
不憚	-11.3573
潼	-11.3576
甲胄	-11.3577
諸國	-11.3579
所撰	-11.358
原任鳴贊	-11.3581
燕山	-11.3581
伊勒登	-11.3582
博羅特	-11.3582
顧實汗	-11.3583
不為動	-11.3583
昶	-11.3584
▁初來歸其曽孫	-11.3585
一章	-11.3586
張獻忠	-11.3587
觀音保	-11.3588
兵五百	-11.3588
流亡	-11.3589
榮禄大夫	-11.359
裡	-11.359
盎	-11.3594
玷	-11.3595
湜	-11.3595
惻隱	-11.3596
貞元	-11.3597
蹕	-11.3597
紏	-11.3598
溯	-11.3598
夫人子男	-11.3599
舛	-11.36
檻	-11.36
樞密副使	-11.36
奉先	-11.3601
懼其	-11.3602
濂溪	-11.3602
虗	-11.3602
雖死	-11.3603
必求	-11.3603
噬	-11.3603
不可易	-11.3604
左諭徳	-11.3604
不可勝計	-11.3605
鬬	-11.3606
體認天理	-11.3607
起居郎	-11.3607
懇辭	-11.3608
祕閣	-11.3608
春秋臣傳巻	-11.3608
相持	-11.3609
晁	-11.3609
朞	-11.361
環慶	-11.361
在朝廷	-11.3611
貧民	-11.3611
肅宗	-11.3611
榦	-11.3612
武侯	-11.3612
崇安	-11.3612
也孔子	-11.3613
以字行	-11.3614
曰國家	-11.3614
本㫖	-11.3617
郊祀	-11.3617
春芳	-11.3622
州安置	-11.3623
城西	-11.3624
玉帶	-11.3628
楊墨	-11.3629
祭文	-11.3631
光弼	-11.3631
還京師	-11.3636
之效	-11.364
敗績	-11.3641
太常寺	-11.3643
宫人	-11.3645
重臣	-11.3645
家禮	-11.3648
與此書	-11.3649
正域	-11.365
一峯	-11.3653
第九	-11.3654
所忌	-11.3655
萬斛	-11.3655
長短	-11.3657
西喇	-11.3657
定鼎燕京時	-11.3658
永康	-11.3659
真儒	-11.3663
聖躬	-11.3664
福爾	-11.3665
致書	-11.3666
仁傑	-11.3666
鄭公	-11.3668
尚多	-11.3668
四路	-11.367
無所容	-11.3673
㑹議	-11.3675
䕶軍參領	-11.3675
叅軍	-11.3676
志氣	-11.3676
甚嚴	-11.3679
汝南	-11.3681
袁州	-11.3682
清白	-11.3682
一百二十	-11.3685
達禪	-11.3693
豐城	-11.3696
賜巴圖	-11.3696
以佐	-11.3699
特係隸滿洲旗分之蒙古	-11.3703
放下	-11.3704
三十七	-11.3704
博羅	-11.3705
小民	-11.3707
建武	-11.3709
元符	-11.3709
病卒	-11.3711
耳非	-11.3722
先覺	-11.3723
孔子廟	-11.3724
洪州	-11.3724
今世	-11.3725
萬變	-11.3725
襲固山貝子	-11.3727
龍圖	-11.3729
君命	-11.373
不能奪	-11.3732
嘉靖初	-11.3734
攻取	-11.3737
處便是	-11.3738
太子少保	-11.3738
齊格	-11.3741
首輔	-11.3743
便可	-11.3743
不悔	-11.3745
求賢	-11.3747
不早	-11.3748
問之曰	-11.3752
告老	-11.3752
首言	-11.3752
色理	-11.3752
策妄阿喇布坦	-11.3754
不决	-11.3754
和尚	-11.3755
歸田里	-11.3758
器也	-11.3758
縣君	-11.3761
三嵗	-11.3761
和平	-11.3761
賢士	-11.3761
巴達	-11.3761
答之	-11.3762
王莽	-11.3763
車凌烏巴什	-11.3765
忒	-11.3766
何患	-11.3767
史傳三編卷	-11.3767
平昔	-11.3768
滂	-11.3768
尋遷	-11.3768
銘其墓	-11.3768
敎人	-11.3769
諌議大夫	-11.3769
老臣	-11.377
祺	-11.3771
侗	-11.3771
悠悠	-11.3771
謡	-11.3771
茲	-11.3771
佛阿拉地方	-11.3772
獠	-11.3772
肩輿	-11.3773
橫	-11.3773
睢	-11.3773
挑	-11.3773
黍	-11.3774
棗	-11.3774
窩	-11.3774
穹	-11.3774
鎧	-11.3774
甸	-11.3775
兵部右侍郎	-11.3775
剥	-11.3775
娛	-11.3775
枋得	-11.3775
咽	-11.3777
頋	-11.3777
纓	-11.3779
將校	-11.3779
騖	-11.3779
粒	-11.378
阿拉善	-11.3781
厚恩	-11.3781
繼遷	-11.3781
想見	-11.3781
劑	-11.3782
興化軍	-11.3783
光祿大夫	-11.3784
玊	-11.3784
宗廟社稷	-11.3784
壼	-11.3785
勢必	-11.3788
城破	-11.3789
鴻臚寺	-11.379
慰諭	-11.3791
真知	-11.3792
尼喀	-11.3793
私淑	-11.3795
乘輿	-11.3795
欽定四庫全書史傳三編卷	-11.3799
形色	-11.3799
怡然	-11.38
而與之	-11.3801
擅權	-11.3803
禁止	-11.3803
係隸滿洲旗分之䝉古一	-11.3806
故贈	-11.3806
東野	-11.3807
鼎曰	-11.3808
安溪	-11.381
應龍	-11.3811
今古	-11.3811
成都府	-11.3812
左副都御史	-11.3813
征南	-11.382
英雄	-11.382
致仕歸	-11.3821
代還	-11.3821
持守	-11.3824
察哈爾布爾尼	-11.3824
入道	-11.3824
海澄	-11.3826
次日	-11.3828
進士第一	-11.3828
延夀	-11.3831
以文章	-11.3833
盛京	-11.3833
襲職歴任	-11.3838
水寨	-11.3841
不可見	-11.3842
退保	-11.3844
親故	-11.3845
號稱	-11.3849
親臨	-11.3849
立法	-11.3849
塔喇	-11.385
韓氏	-11.3851
入謝	-11.3859
功成	-11.3861
封禪	-11.3861
阿爾賽	-11.3862
甚善	-11.3867
翼日	-11.387
吾君	-11.3872
馳至	-11.3873
興學	-11.3874
其禍	-11.3875
受學於	-11.3876
安福	-11.3878
聽命	-11.3879
自省	-11.3882
連江	-11.3889
天威	-11.3891
天下之理	-11.3892
常住	-11.3893
回部	-11.3895
何罪	-11.3896
第二子	-11.3896
千總	-11.3903
是夜	-11.3903
吳越	-11.3904
天台	-11.3905
學之要	-11.3909
因循	-11.391
氏追封	-11.391
公上疏	-11.3911
直前	-11.3913
國初来歸其孫	-11.3913
兩儀	-11.3916
列聖	-11.3925
原任三等	-11.3926
樂道	-11.3927
魯克	-11.3927
而後能	-11.3928
右副都御史	-11.3928
征四川	-11.3928
生機	-11.393
欲殺	-11.393
祖為户第	-11.3933
母后	-11.3935
諱某	-11.3937
欽定外藩蒙古回部王公表傳卷之	-11.3937
同邑	-11.3939
杜稜	-11.3942
洪承疇	-11.3943
任佐領卒其子	-11.3943
從征明	-11.3943
僊	-11.3944
螺	-11.3945
益深	-11.3946
守節	-11.3946
閩縣人	-11.3946
誰能	-11.3947
朝散大夫	-11.3947
逹爾漢	-11.3948
胎	-11.3949
香山	-11.3949
學問思辨	-11.3953
椎	-11.3953
棣	-11.3953
承璀	-11.3953
狷	-11.3955
徭	-11.3955
公神道碑銘	-11.3955
怳	-11.3956
脂	-11.3956
習於	-11.3956
陕西	-11.3957
㕘知政事	-11.3957
著力	-11.3957
燄	-11.3958
朂	-11.3958
𢡟	-11.3958
榛	-11.3959
泰現任驍騎校	-11.3959
亦原任䕶軍校	-11.396
冡宰	-11.396
捄	-11.396
簒	-11.396
穰	-11.3961
廵檢司	-11.3961
悛	-11.3961
直秘閣	-11.3961
湍	-11.3962
集賢校理	-11.3962
瘳	-11.3963
贅	-11.3963
龍圖閣學士	-11.3963
雉	-11.3964
澤潞	-11.3965
印綬	-11.3965
庶乎	-11.3965
寒士	-11.3966
指授	-11.3967
兩端	-11.3968
者以其	-11.3968
彗星	-11.397
㐮	-11.397
渡淮	-11.397
睢陽	-11.397
齊旺	-11.3975
天下之大	-11.3976
無所不至	-11.3976
計較	-11.3977
六十一	-11.3979
現任藍翎侍衛	-11.3979
内帑	-11.398
固執	-11.3982
不決	-11.3983
遇賊	-11.3984
二十二日	-11.3984
加意	-11.3987
老母	-11.3987
以忠義	-11.3989
然後可以	-11.3991
原任佐領曽孫	-11.3991
永州	-11.3992
興師	-11.3994
黑龍江	-11.3994
滁州	-11.3995
寂感	-11.3995
哲爾	-11.3996
詞臣	-11.3996
韋齋	-11.3997
邦彦	-11.3998
差役	-11.3999
病痛	-11.3999
王振	-11.4
武備	-11.4001
嚴嵩	-11.4003
護軍校	-11.4003
葬於	-11.4003
不悅	-11.4004
有大志	-11.4005
瑾誅	-11.4006
兼領	-11.4008
上總	-11.4008
頭目	-11.401
甲兵	-11.401
彭城	-11.4011
勵精	-11.4012
字汝	-11.4013
名世	-11.4013
未見其	-11.4013
忠宣	-11.4014
歸路	-11.4015
二十四日	-11.4015
元齡	-11.402
門徒	-11.402
數百里	-11.4021
也是以	-11.4022
精㣲	-11.4023
七十六	-11.4025
鳯陽	-11.4025
不渝	-11.4026
浮雲	-11.4026
論奏	-11.4027
大獄	-11.4033
官府	-11.4034
入閩	-11.4036
蒼生	-11.4036
以疾辭	-11.4041
紹定	-11.4041
十倍	-11.4041
亦如之	-11.4044
良玉	-11.4047
十七人	-11.4054
綱目	-11.4054
稍有	-11.4054
尹直	-11.4056
編修官	-11.4056
鄉先生	-11.4062
此説	-11.4064
繼祖	-11.4066
大破	-11.407
阿岱	-11.4076
瓦爾	-11.4076
聖恩	-11.4082
若之何	-11.4083
昭然	-11.4089
淵聖	-11.4092
邑志	-11.4098
獨處	-11.4103
鄉試第一	-11.4104
百五十	-11.4106
世界	-11.4108
葬于	-11.411
可嘉	-11.411
㑹典	-11.4111
存乎	-11.4113
罪狀	-11.4113
起念	-11.4117
正色曰	-11.4117
上從之	-11.4119
徐公	-11.4123
莫知所	-11.4124
正白旗人来歸年分無考	-11.4127
係來歸年分無考之人	-11.4128
不擾	-11.4128
屢著戰功	-11.4129
主客	-11.4129
崇徳元年	-11.4129
益急	-11.4131
汝州	-11.4131
原係庫使	-11.4133
謹身殿大學士	-11.4133
西特庫	-11.4133
春風	-11.4134
寰	-11.4135
大帥	-11.4135
達喇	-11.4135
婿	-11.4136
沙津	-11.4136
汩	-11.4139
叅贊	-11.4139
賫	-11.414
喚	-11.414
旻	-11.4142
淤	-11.4142
簽	-11.4143
譟	-11.4143
啼	-11.4143
典故	-11.4143
反求	-11.4144
闖	-11.4145
芟	-11.4145
驩	-11.4145
真體	-11.4145
偪	-11.4145
詘	-11.4145
筦	-11.4146
上嘉納之	-11.4148
芥	-11.4148
並行	-11.4148
伏見	-11.4148
宿州	-11.4148
齊魯	-11.4152
現任驍騎	-11.4152
㢤	-11.4154
歌詩	-11.4154
平常	-11.4156
九成	-11.4158
大全	-11.4162
胷中	-11.4163
原任員	-11.4166
光斗	-11.4166
求放心	-11.4167
求道	-11.4169
制作	-11.4169
嗣子	-11.417
非獨	-11.4171
國子生	-11.4172
激切	-11.4173
頓首謝	-11.4175
不乏	-11.4175
現任前鋒校	-11.4176
金玉	-11.4177
雅哈	-11.4177
自此始	-11.4178
言之則	-11.4179
保現	-11.4185
供職	-11.4186
告之曰	-11.4189
桂林	-11.419
危言	-11.4191
化育	-11.4195
十六人	-11.4195
叛逆	-11.4196
原任六品包衣大	-11.4198
回人	-11.4198
功授	-11.4202
陜州	-11.4205
誰可	-11.4207
是冬	-11.4208
僉書	-11.4211
文節	-11.4216
行部	-11.4216
盛衰	-11.422
講道	-11.4224
以為憂	-11.4225
萬象	-11.4226
每事	-11.4227
焉耳	-11.4229
才能	-11.423
乗間	-11.4235
請留	-11.4241
南唐	-11.4242
奉公	-11.4243
北溪	-11.4243
風節	-11.4243
聲名	-11.4245
監修	-11.4247
齊侯	-11.4252
詳定	-11.4253
帝意	-11.4259
太公	-11.4259
吳王	-11.426
郡城	-11.4263
古聖賢	-11.4264
其鋒	-11.4266
右僕射	-11.4267
上聞之	-11.4267
獻王	-11.4268
遺表	-11.4269
文靖公	-11.4272
應舉	-11.4276
歐公	-11.4277
由驍騎校從征	-11.4278
太倉	-11.4279
馬察地方	-11.4281
元季	-11.4286
邑令	-11.4287
此體	-11.4287
有違	-11.4288
薦起	-11.429
性至孝	-11.4293
新鄭	-11.4293
定鼎	-11.4296
稱臣	-11.4297
同門	-11.4298
進忠	-11.43
易經	-11.43
等處屢敗賊	-11.43
軍法	-11.4302
三次襲	-11.4304
三十人	-11.4304
原任步	-11.4304
年已	-11.4304
不言而	-11.4305
孟子言	-11.4305
經制	-11.4306
伊犂	-11.4312
巴特瑪	-11.4312
仍命	-11.4313
撫臣	-11.4314
五十九年	-11.4314
帥師	-11.4314
堵	-11.4316
登城克之	-11.4316
圖現任	-11.4317
攄	-11.4319
三等台吉	-11.432
人服其	-11.432
扎薩克多羅貝勒	-11.432
知善知惡	-11.4322
繫獄	-11.4322
煎	-11.4323
所部兵	-11.4324
揀	-11.4324
掞	-11.4325
砥礪	-11.4326
文皇帝	-11.4327
之理也	-11.4327
菽	-11.4327
絲毫	-11.4328
𦍑	-11.4328
影響	-11.4329
甕	-11.4329
净	-11.433
吏部右侍郎	-11.433
以親老	-11.4331
詈	-11.4331
涿	-11.4333
想像	-11.4334
亾	-11.4334
鎖	-11.4335
提兵	-11.4336
張士誠	-11.4336
起居舍人	-11.4336
三十八	-11.4336
巒	-11.4336
孫士毅	-11.4337
昀	-11.4337
氛	-11.4338
廨	-11.4338
大理卿	-11.4339
博囉	-11.4339
大理寺卿	-11.4339
平凉	-11.434
學者稱為	-11.434
在翰林	-11.4341
頴悟	-11.4341
閽	-11.4342
盱眙	-11.4342
丐祠	-11.4343
屈伸	-11.4343
浴	-11.4344
保柱	-11.4345
江口	-11.4346
獻納	-11.4347
梓宫	-11.4348
疾作	-11.4351
沿江	-11.4352
牽制	-11.4354
地方擊賊陣亡	-11.4355
過北京征山東	-11.4355
鑲黃旗	-11.4357
商量	-11.4358
濠州	-11.4359
削奪	-11.4359
盛德	-11.4362
念菴	-11.4362
本院官	-11.4363
會稽	-11.4364
魏國公	-11.4365
小國	-11.437
再娶	-11.437
智勇	-11.437
母夫人	-11.4373
迄今	-11.4374
記誦	-11.4375
景泰初	-11.4375
而不為	-11.4376
進階	-11.4377
十六日	-11.4379
不可測	-11.4381
丞相亮	-11.4383
北兵	-11.4385
終制	-11.4385
抗章	-11.4388
既平	-11.4388
旗包衣	-11.4389
循吏	-11.4392
權奸	-11.4392
太虚	-11.4392
仍舊	-11.4394
數十里	-11.4398
終不可	-11.4399
昌期	-11.4399
昌言	-11.4402
設施	-11.4403
敎授	-11.4411
扵是	-11.4413
慶州	-11.4416
達賴	-11.4425
門戸	-11.4429
泰現任䕶軍校	-11.443
在郡	-11.4435
元末	-11.4436
本路	-11.4438
尚存	-11.444
總制	-11.4444
釋老	-11.4446
黄州	-11.4447
尋擢	-11.4447
聖朝	-11.4448
副都	-11.4458
執經	-11.4461
百餘年	-11.4464
論孟	-11.4466
吾民	-11.4472
八世孫	-11.4473
有功於	-11.4474
清苦	-11.4475
告成	-11.4476
昭昭	-11.4478
死耳	-11.4479
累封	-11.4482
臣僚	-11.4483
隂陽之	-11.4486
仙人	-11.4486
六十三	-11.4486
白都訥	-11.4487
七十八	-11.4488
富察	-11.4489
西藏	-11.4493
論死	-11.4493
古田	-11.4494
北向	-11.4499
程門	-11.4503
扎爾固齊	-11.4507
心腹	-11.4508
囉	-11.4508
年分無考其子	-11.4508
圍城	-11.4509
右係附載	-11.451
睿親王多爾衮	-11.4513
汝等	-11.4514
覺和托	-11.4515
宥之	-11.4515
其門人	-11.4516
瓌	-11.4517
蠢	-11.4517
彗	-11.4518
其半	-11.4518
愽	-11.4519
覊	-11.452
獅	-11.452
詬	-11.4521
兄弟二人	-11.4521
郭氏	-11.4521
妄念	-11.4521
右係來歸年分無考之人	-11.4522
現任司庫	-11.4522
餘悉	-11.4522
鄖	-11.4522
儋	-11.4522
呼吸	-11.4523
市舶	-11.4523
翦	-11.4523
太宗謂侍臣曰	-11.4524
右係来歸年分無考之人	-11.4524
伽	-11.4525
瞰	-11.4525
餘姚黄宗羲撰	-11.4525
藩籬	-11.4525
十二人	-11.4527
獲馬	-11.4527
加太子少保	-11.4527
撒	-11.4527
嬪	-11.4527
乞骸骨	-11.4527
濓洛	-11.4528
烏喇特	-11.4528
非禮勿	-11.4528
奉朝請	-11.4528
又敗	-11.4528
旄	-11.4529
貺	-11.453
欽定四庫全書史部七	-11.4531
房𤣥齡	-11.4532
恍	-11.4532
㫤	-11.4532
大軍𠞰	-11.4532
囿	-11.4532
蹶	-11.4533
衂	-11.4533
㦸	-11.4534
譲	-11.4534
弟子員	-11.4534
炭	-11.4535
延綏	-11.4536
徐氏	-11.4538
前軍	-11.4539
平章事	-11.454
䘚	-11.4541
郭爾	-11.4542
十九日	-11.4542
額赫	-11.4542
聖人之心	-11.4543
循循	-11.4543
洞庭	-11.4543
罸	-11.4544
十朋	-11.4545
太上皇	-11.4545
忠憲	-11.4548
晦叔	-11.455
在告	-11.4551
羣盜	-11.4552
餘杭	-11.4552
精鋭	-11.4555
反側	-11.4555
談論	-11.4555
沛公	-11.4556
海島	-11.4559
不懌	-11.4559
恭儉	-11.4559
封疆	-11.456
聖道	-11.4567
斯民	-11.457
贈太子少保	-11.4571
優游	-11.4571
五十三	-11.4571
哈宻	-11.4574
宋元	-11.4574
其寃	-11.4574
憐之	-11.4575
用工	-11.4575
提要	-11.4581
伊拉	-11.4581
亡命	-11.4581
聚散	-11.4583
為吏部尚書	-11.4584
畿内	-11.4585
澶州	-11.4588
或云	-11.4591
㕘軍	-11.4593
短長	-11.4593
曰自古	-11.4596
造次	-11.4597
按察	-11.4598
卒于官	-11.4599
托和	-11.4604
黙特	-11.4605
戰士	-11.4607
按此	-11.4608
外史氏曰先生	-11.4608
潮陽	-11.4608
去取	-11.4609
河洛	-11.4613
福禄	-11.4615
名之曰	-11.4617
十嵗	-11.4617
擬議	-11.4618
穆瑚	-11.4619
雷州	-11.4621
功績	-11.4622
奸人	-11.4625
紛然	-11.4626
順天府	-11.4635
之一字	-11.4638
已具	-11.4639
征廣東	-11.464
勞問	-11.464
天臺	-11.4642
朔方	-11.4642
至城下	-11.4643
險阻	-11.4647
姦人	-11.4651
撰墓誌	-11.4653
不撓	-11.4657
之福也	-11.4666
出征	-11.4668
出竒	-11.467
請和	-11.4671
滁	-11.4671
賢能	-11.4675
府推官	-11.4675
再按	-11.4676
套	-11.4678
家廟	-11.468
義士	-11.4684
似道	-11.4684
進𠞰	-11.4689
身先	-11.469
阿竒木伯克	-11.4691
恭順	-11.4691
歸牧	-11.4693
而後知	-11.4695
指揮同知	-11.4695
胡文定	-11.4695
縁事革	-11.4697
其所學	-11.4697
免官	-11.4698
過目	-11.4699
五巻	-11.4699
論功	-11.4703
歸田	-11.4703
前鋒統領	-11.4704
琿	-11.4705
何也曰	-11.4705
纛	-11.4708
猶能	-11.4708
由佐領從征	-11.4708
湊	-11.4709
雅爾湖地方	-11.471
闗保	-11.4711
討平之	-11.4711
同僚	-11.4711
車臣	-11.4713
鏜	-11.4713
山海闗	-11.4713
奏疏	-11.4714
盾	-11.4714
忠勇	-11.4715
廖道南曰	-11.4715
縑	-11.4715
巴克什	-11.4716
無逸	-11.4716
複	-11.4717
穆成額	-11.4717
箠	-11.4718
帽	-11.4718
誑	-11.4718
伉	-11.4718
焰	-11.4719
薩喇	-11.4719
釀	-11.4719
抒	-11.472
丁卯	-11.472
鏗	-11.472
䂓	-11.472
譔	-11.472
益重	-11.4721
驢	-11.4721
禘	-11.4721
樞宻直學士	-11.4721
帷幄	-11.4722
腔子	-11.4722
薩理	-11.4724
清節	-11.4724
騫	-11.4725
粉	-11.4725
備考	-11.4725
辛卯	-11.4725
禮部主事	-11.4725
厨	-11.4726
運糧	-11.4726
邀擊	-11.4726
思叔	-11.4726
唾	-11.4726
青苖	-11.4727
不得已而	-11.4727
熈寜	-11.4728
甘露	-11.4731
指㸃	-11.4733
車馬	-11.474
太醫	-11.474
沿海	-11.474
藝祖	-11.474
唯唯	-11.4741
招討使	-11.4741
辤	-11.4742
兼侍中	-11.4743
年十二	-11.4744
未决	-11.4745
撫按	-11.4745
無怨	-11.4746
一等公	-11.4746
側目	-11.4747
學博	-11.4747
反身	-11.4748
來歸其孫	-11.4749
秀實	-11.4751
調停	-11.4751
在彼	-11.4752
部長	-11.4752
禦敵	-11.4752
相視	-11.4754
隴西	-11.4757
等兵於	-11.4758
乎公曰	-11.4758
害民	-11.4759
師傅	-11.4762
天寳	-11.4768
高明	-11.4768
徒步	-11.477
源頭	-11.4773
學者須	-11.4773
俱原任員外郎	-11.4774
沛然	-11.4774
䕃補	-11.4774
上嘉其	-11.4774
靜中	-11.4776
書籍	-11.4778
自昔	-11.478
二年二月	-11.4781
錫理	-11.4781
殊不知	-11.4784
究心	-11.4784
伯父	-11.4787
兵二百	-11.4787
祖禹	-11.4787
師旋	-11.4788
數百年	-11.4788
嗜欲	-11.4788
諸老	-11.4788
供奉	-11.479
被害	-11.4791
元標	-11.4791
▁加之職	-11.4791
遷延	-11.4792
趙孟	-11.4793
分襲	-11.4794
儒生	-11.4794
折節	-11.4795
賞給	-11.4796
晚節	-11.4796
孟子所謂	-11.4799
不然則	-11.48
金吾	-11.4804
愛惜	-11.4804
副都統兼佐領	-11.4809
士馬	-11.481
不協	-11.4811
莽吉	-11.4812
城地方	-11.4813
賜御	-11.4816
軍需	-11.4818
無害	-11.4818
今天子	-11.482
改南京	-11.4821
持論	-11.4821
景徳	-11.4822
之墓	-11.4822
儕	-11.4825
士君子	-11.4825
精舍	-11.4827
禪布	-11.4827
日夕	-11.4828
十三日	-11.4831
功授雲騎尉卒其子	-11.4834
善繼	-11.4837
脅從	-11.4837
徳宗	-11.4838
定論	-11.4838
塔山	-11.4839
再調	-11.484
楓	-11.484
中進士第	-11.4843
渝	-11.4843
西拉木楞地方	-11.4848
一欽定四庫全書	-11.4849
聞其名	-11.4852
不拘	-11.4854
便覺	-11.4858
曽祖諱	-11.4859
禮經	-11.4861
暇則	-11.4862
定䇿	-11.4863
對䇿	-11.4866
行走	-11.487
得釋	-11.4871
饑民	-11.4874
篤學	-11.4874
主意	-11.4876
實封	-11.4883
不妨	-11.4883
四十五	-11.4883
為滿洲一姓其	-11.4884
博文	-11.4885
舉火	-11.489
先輩	-11.4895
形體	-11.4896
翕	-11.4896
清慎	-11.4896
寥	-11.4897
明年春	-11.49
七十里	-11.4902
布爾尼	-11.4903
牲畜	-11.4904
俗學	-11.4905
宣聖	-11.4907
額爾齊斯	-11.4907
▁初來歸其元孫	-11.4907
吉陽	-11.4908
謹獨	-11.4908
六十年	-11.4909
額爾徳尼昭	-11.4909
稱之曰	-11.491
謔	-11.4913
恁地	-11.4914
塗炭	-11.4915
大饑	-11.4915
麽	-11.4915
扺	-11.4916
畊	-11.4916
㝷	-11.4917
斟酌	-11.4917
縻	-11.4917
朝服	-11.4918
駐劄	-11.4919
州防禦使	-11.4919
淛	-11.4919
呵	-11.492
謇	-11.4921
戸部侍郎	-11.4922
鳥獸	-11.4922
腸	-11.4922
拳	-11.4923
淮甸	-11.4923
實地	-11.4924
乾隆元年	-11.4926
黥	-11.4926
太子中允	-11.4926
同舍	-11.4926
拭	-11.4927
閘	-11.4927
垂簾	-11.4927
無虚日	-11.4928
幟	-11.4929
璮	-11.493
顧憲成	-11.493
榜進士	-11.493
髙攀龍	-11.4931
耆舊	-11.4931
進圍	-11.4931
康熙五十	-11.4933
逰擊	-11.4934
者無不	-11.4934
春夏	-11.4935
大位	-11.4935
噶勒	-11.4935
莫大於	-11.4938
現任六品	-11.494
懇切	-11.494
次年	-11.4941
產	-11.4942
必待	-11.4942
戰國	-11.4942
堅壁	-11.4944
公彦	-11.4944
深造	-11.4946
人一舉娶	-11.4946
子姪	-11.4947
豁然	-11.495
深思	-11.4953
其餘無事蹟可立傳者附載於後正黄旗	-11.4953
脩撰	-11.4954
秋冬	-11.4954
内批	-11.4954
縣治	-11.4955
康子	-11.4955
歸葬	-11.4955
未報	-11.4958
二十人	-11.4958
山寨	-11.4971
康成	-11.4971
三等䕶衛	-11.4971
建興	-11.4972
地位	-11.4973
破敵	-11.4975
而後可以	-11.4978
祀典	-11.4978
死亡	-11.4982
靖康初	-11.4984
赫勒	-11.4987
只一	-11.4987
群臣	-11.4988
馮保	-11.4991
募兵	-11.4993
皂	-11.4997
傳記	-11.5001
覺悟	-11.5002
龍泉	-11.5003
良心	-11.5003
茍能	-11.5009
卓異	-11.5009
載籍	-11.501
寧國	-11.501
不昧	-11.5011
吉水	-11.5012
御營	-11.5016
庶政	-11.5016
免役	-11.5016
小吏	-11.5017
先哲	-11.502
向來	-11.502
大槩	-11.5022
豈容	-11.5023
奉母	-11.5027
康伯	-11.5028
六十八	-11.5029
三十三	-11.5031
轉運	-11.5035
登舟	-11.5036
州判官	-11.5039
欽若	-11.5041
永春	-11.5042
此輩	-11.5043
半年	-11.5046
而知之	-11.5047
終喪	-11.5048
其本體	-11.5049
居喪	-11.505
然後知	-11.505
亦原任佐領	-11.5052
臨清	-11.5055
部將	-11.5056
仰視	-11.5058
諭㫖	-11.5063
不䏻	-11.5063
萬幾	-11.5063
養母	-11.5065
享年	-11.5072
十九人	-11.5076
賞賜	-11.508
淮上	-11.508
定制	-11.508
敵情	-11.5081
功曹	-11.5082
移文	-11.5082
𢎞文	-11.5087
三千餘	-11.5094
燕居	-11.5094
丈人	-11.5095
侍經筵	-11.5096
來歸年分無考其	-11.5096
阿玉什	-11.5096
扎薩克鎮國公	-11.5096
天錫	-11.5097
五十一	-11.51
十有四	-11.5101
無忌	-11.5102
襲封衍聖公	-11.5106
稱疾	-11.5106
聖祖仁皇帝	-11.5107
將胡國秉	-11.5109
擊賊偽將	-11.511
五十四年	-11.511
偁	-11.5111
鑲白旗包衣人世居	-11.5113
佟國	-11.5113
璁	-11.5114
朝請大夫	-11.5115
薩哈連	-11.5115
言於上	-11.5116
峪	-11.5116
乙夘	-11.5118
郃	-11.5119
曄	-11.512
霆	-11.5121
賙	-11.5121
朝散郎	-11.5122
諦	-11.5124
辛夘	-11.5124
何思何慮	-11.5124
顯忠	-11.5124
太常丞	-11.5124
鄭成功	-11.5125
今日之事	-11.5125
原係副䕶軍校	-11.5125
遶	-11.5127
苦心	-11.5128
太常寺太祝	-11.5128
正叔	-11.5128
摹	-11.5128
零陵	-11.5129
恠	-11.5129
巢穴	-11.5129
絜	-11.513
啖	-11.513
腴	-11.5132
如公言	-11.5133
臣願陛下	-11.5134
應酬	-11.5135
畫像	-11.5136
母憂	-11.5136
京兆尹	-11.5136
往諭	-11.5136
范純仁	-11.5137
悳	-11.5137
澆	-11.5137
未仕	-11.5138
薩里罕	-11.5143
操履	-11.5145
以公貴	-11.5146
原任郎中兼佐領	-11.5152
慈湖	-11.5153
嚴毅	-11.5156
薩爾泰	-11.5161
玩好	-11.5163
浮梁	-11.5168
極力	-11.5169
本意	-11.5169
五峯	-11.5175
多鐸	-11.5176
委署䕶軍叅領	-11.5177
御極	-11.5182
抵罪	-11.5186
仕宦	-11.519
補闕	-11.5191
三卷	-11.5192
國初來歸其	-11.5194
第一子	-11.5197
五路	-11.5201
西喇塔拉地方	-11.5201
甚盛	-11.5204
勒赫	-11.5206
乏食	-11.5208
西林	-11.5209
西門	-11.5213
文藝	-11.5215
强記	-11.5215
習禮	-11.5217
知貢舉	-11.5218
墓志	-11.5227
更定	-11.523
伯祖	-11.5236
寢疾	-11.5239
三等侍衛	-11.5239
羅倫	-11.5241
劾罷	-11.5247
不審	-11.5247
人品	-11.5252
封鎮國公	-11.5255
兩京	-11.5256
政務	-11.5259
未備	-11.5265
三十名	-11.5266
一隅	-11.5269
賜錢	-11.527
最著	-11.5271
以待之	-11.5274
文毅	-11.5276
知柔	-11.5277
歩軍	-11.5278
豈獨	-11.5279
遇敵	-11.5283
敗賊偽將	-11.5287
分無考其元孫	-11.5287
贈太傅	-11.5289
屬縣	-11.529
移駐	-11.5295
知揚州	-11.5299
順帝	-11.53
嚴重	-11.53
元史	-11.5303
累朝	-11.5306
内降	-11.5307
未有如	-11.5309
不可以為	-11.5311
堡地方	-11.5313
襲六次襲	-11.5313
原任防禦元孫	-11.5313
聲援	-11.5314
恩詔加至三等輕車都尉	-11.5315
扈蹕	-11.5317
領侍衛内大臣	-11.5317
係隸滿洲旗分之䝉古一姓	-11.532
萼	-11.5321
廖道南曰予	-11.5321
涸	-11.5321
籲	-11.5322
思索	-11.5322
琪	-11.5322
郎小字	-11.5324
曙	-11.5325
蠟	-11.5326
舂	-11.5326
殪	-11.5327
講席	-11.5327
佯	-11.5328
郡夫人	-11.5328
正藍旗包衣人世居瀋陽地方來歸年	-11.5328
耐	-11.5329
舉子業	-11.5329
切磋	-11.5329
轂	-11.5329
踪	-11.533
緇	-11.5331
遙	-11.5331
訕	-11.5331
凜	-11.5332
正黄旗包衣旗鼓人世居瀋陽地方來	-11.5332
犂	-11.5333
剗	-11.5333
倨	-11.5333
黷	-11.5333
精義	-11.5333
薰	-11.5333
峨	-11.5333
致知格物	-11.5334
悞	-11.5334
天聰時來歸	-11.5334
悵	-11.5335
苻	-11.5335
雩	-11.5335
等率兵	-11.5335
太常禮院	-11.5336
𠂻	-11.5336
副總裁	-11.5336
龍谿	-11.5336
頷	-11.5337
丁外艱	-11.5337
爌	-11.5337
中常侍	-11.5337
選庶吉士	-11.5337
兵敗	-11.5338
藏於家	-11.5339
曳	-11.5339
辨析	-11.5339
大學中庸	-11.5339
沙漠	-11.5339
拳拳	-11.5339
境界	-11.534
等謹案	-11.5341
燼	-11.5342
欄	-11.5343
條奏	-11.5343
刪定	-11.5343
猖獗	-11.5343
瑶	-11.5343
婆	-11.5344
翰墨	-11.5345
庻幾	-11.5345
三十九	-11.5346
左布政使	-11.5347
迓	-11.5347
翰林修撰	-11.5347
者不過	-11.5348
學𣲖	-11.5349
紛擾	-11.535
何繼祖等	-11.535
令伊	-11.535
痛哭	-11.5352
莫測	-11.5353
霍光	-11.5363
崇禎初	-11.5368
蔡確	-11.5369
强弱	-11.537
十七日	-11.5371
太祖皇帝	-11.5373
無虞	-11.5375
良弼	-11.5376
愕然	-11.5376
用事者	-11.5378
寧古塔地方	-11.538
金錢	-11.538
敵國	-11.5381
七千	-11.5383
酋長	-11.5384
擁衆	-11.5384
割地	-11.5386
原任驍騎校四世孫	-11.5391
平仲	-11.5392
可見矣	-11.5393
鮮不	-11.5394
蘭太	-11.5395
㸃檢	-11.5395
老弱	-11.5399
年十九	-11.54
在其中矣	-11.54
不可以不	-11.5406
兵圍	-11.5407
養心	-11.5407
現任二等侍衛	-11.5408
佛爾	-11.5409
正統初	-11.541
習心	-11.5411
知潭州	-11.5411
憂患	-11.5413
楓山	-11.5416
南面	-11.5417
失色	-11.5419
故君子	-11.5421
聲震	-11.5429
虎爾哈	-11.543
白金文綺	-11.5434
號泣	-11.5442
回衆	-11.545
此所以	-11.5451
真切	-11.5451
貧不能	-11.5453
額爾格	-11.5454
步兵	-11.5457
為滿洲一姓	-11.5461
六品官	-11.5463
用其言	-11.5463
入援	-11.5465
府同知	-11.5467
尋轉	-11.5467
移疾	-11.547
寧古塔	-11.547
年分無考其曽孫	-11.5471
清源	-11.5474
原任員外郎孫	-11.5475
周孔	-11.5481
堂堂	-11.5484
秀州	-11.5493
試禮部	-11.5495
博通	-11.5495
受業於	-11.5497
西戎	-11.5501
拉庫	-11.5511
數嵗	-11.5511
西漢	-11.5513
阿玉竒	-11.5517
㳟	-11.5518
詔罷	-11.5519
渥巴錫	-11.5522
庫理	-11.5523
六師	-11.5524
范氏	-11.5525
我輩	-11.5527
金主	-11.5527
往視	-11.5531
觜	-11.5532
泳	-11.5533
任頭等侍衛	-11.5534
莽古爾泰	-11.5535
𦂳	-11.5536
詮	-11.5536
原係生員	-11.5536
形而上者	-11.5539
拆	-11.5539
眠	-11.5539
提學副使	-11.554
烹	-11.5541
羔	-11.5542
禇	-11.5542
咫尺	-11.5542
殿試	-11.5543
浯	-11.5543
晦庵	-11.5544
暘	-11.5545
舖	-11.5545
藪	-11.5546
扉	-11.5546
葦	-11.5546
糓	-11.5546
蕭何	-11.5546
瞬	-11.5547
孝悌	-11.5547
鏹	-11.5547
槃	-11.5548
糗	-11.5549
某月某日	-11.5549
蟬	-11.5549
管勾	-11.5549
拱辰	-11.5549
狠	-11.5549
悃	-11.5549
承議郎	-11.555
撮	-11.555
躐	-11.5551
盆	-11.5551
秋毫	-11.5552
賈誼	-11.5552
酸	-11.5552
斫	-11.5553
將何以	-11.5553
善念	-11.5553
彭韶	-11.5553
耒	-11.5554
州别駕	-11.5554
驂	-11.5554
憊	-11.5555
藩邸	-11.5555
鼓舞	-11.5555
二巻	-11.5555
來犯	-11.5556
襲職卒無嗣其	-11.5557
詔求直言	-11.5557
顓	-11.5557
從征江西	-11.5557
荆棘	-11.5558
織造	-11.5558
原任委署	-11.5558
竟日	-11.5558
行中書省	-11.5559
闓	-11.556
鍾山	-11.5561
殽	-11.5563
猶存	-11.5564
饑寒	-11.5564
吕公著	-11.5566
小小	-11.557
甚喜	-11.5571
百戸	-11.5571
海蘭	-11.5572
十有五	-11.5572
秋八月	-11.5577
本旗	-11.5578
陳友諒	-11.5581
源委	-11.5582
諸暨	-11.5582
顔淵	-11.5583
聚徒	-11.5583
歸順	-11.5589
廷弼	-11.5589
喬年	-11.5591
哈那	-11.5593
觀察	-11.5596
二欽定四庫全書	-11.5596
粲然	-11.5597
山十名	-11.5598
孰不	-11.5601
農桑	-11.5602
從何處	-11.5602
大丈夫	-11.5603
止至善	-11.5606
府志	-11.5606
殺身	-11.561
許衡	-11.5611
古帝王	-11.5613
甚切	-11.5615
細故	-11.5617
三年正月	-11.5618
友徳	-11.5622
坐貶	-11.5622
其親兄之子	-11.5624
崇仁	-11.5626
維持	-11.5627
巴布	-11.5632
請於朝	-11.5633
賜賚	-11.5633
二等輕	-11.5635
不可犯	-11.5641
粹然	-11.5642
田宅	-11.5645
道監察御史	-11.565
至於此	-11.5651
誣奏	-11.5653
從征福建	-11.5655
包衣管領下人世居遼陽地方	-11.5657
編次	-11.5657
傳註	-11.566
妄動	-11.5661
殺傷	-11.5662
震動	-11.5665
帥臣	-11.567
諸貝勒	-11.5673
督師	-11.5674
大駭	-11.5677
陣亡優	-11.5678
十二日	-11.5682
歲餘	-11.5682
步軍	-11.5683
屬吏	-11.5686
言事者	-11.5687
停襲	-11.5689
進擊	-11.5692
迎降	-11.5692
亦足以	-11.5695
萬五千	-11.5695
亂政	-11.5696
齊喀	-11.5697
尤精	-11.5699
贈禮部尚書	-11.5699
髙逺	-11.5701
十一年卒子	-11.5701
有條理	-11.5703
監丞	-11.5707
教習	-11.5707
請託	-11.5713
仲舒	-11.5714
歴任副都統	-11.5714
執奏	-11.5717
尼瑪	-11.5719
竣	-11.572
要地	-11.5722
風紀	-11.5722
四次襲	-11.5725
傳㫖	-11.5726
而後可	-11.5735
凛	-11.5737
吉林	-11.5742
諸孤	-11.5742
雅拉	-11.5742
廣寧	-11.5742
獎	-11.5743
伊蘭	-11.5746
任叅領	-11.5746
朱門	-11.5748
毛文龍	-11.5748
東郭	-11.5751
蘇完	-11.5752
正白旗包衣人世居瀋陽地方來歸年	-11.5753
拷	-11.5755
剛正	-11.5755
線	-11.5756
陞南	-11.5756
撻	-11.5757
遣官諭祭	-11.5757
仙遊	-11.5757
白鹿洞	-11.5758
諉	-11.5759
闥	-11.576
無一事	-11.576
榆林	-11.576
戩	-11.576
進士調	-11.576
拉塔	-11.576
椽	-11.5761
耽	-11.5761
縫	-11.5761
卯	-11.5761
斡	-11.5762
父子兄弟	-11.5763
孟軻	-11.5763
志節	-11.5763
樗	-11.5763
刁	-11.5763
霑	-11.5763
呈露	-11.5764
亹亹	-11.5764
餐	-11.5764
桀紂	-11.5764
夢昱	-11.5765
蜚	-11.5765
𥘉	-11.5766
事事物物	-11.5766
明徐紘撰	-11.5767
叨	-11.5767
渠魁	-11.5767
聿	-11.5767
直學士院	-11.5768
祫	-11.5769
儷	-11.5769
轉運判官	-11.5769
講和	-11.577
鄉閭	-11.577
加少保	-11.577
瑚什巴	-11.577
冑	-11.5771
瞑目	-11.5772
紱	-11.5772
咨訪	-11.5773
潛邸	-11.5773
安堵	-11.5774
奉聖㫖	-11.5775
佃	-11.5775
絅	-11.5775
君臣父子	-11.5776
收拾	-11.5776
馬步軍	-11.5778
駮	-11.5779
太子少師	-11.578
張邦昌	-11.578
郡庠	-11.5781
州知州	-11.5781
高麗	-11.5781
〇	-11.5781
昌邑	-11.5784
生生之	-11.5785
服膺	-11.5786
通好	-11.5787
阿睦爾撒納叛	-11.5787
忠勤	-11.5787
騷動	-11.5789
端拱	-11.5789
司主事	-11.5795
首惡	-11.5795
類此	-11.5796
毛詩	-11.5799
勉强	-11.58
伯恭	-11.5801
拜監察御史	-11.5802
城池	-11.5802
斥逐	-11.581
襲衣	-11.5813
無憾	-11.5814
繼恩	-11.5815
東昌	-11.5817
僧額	-11.5819
嶺表	-11.582
併力	-11.582
景榮	-11.5822
内翰	-11.5823
堯舜之道	-11.5823
勉齋	-11.5826
相慶	-11.583
入仕	-11.5833
罔上	-11.5834
紹興府	-11.5835
兵革	-11.5835
都監	-11.5838
里居	-11.5839
惕然	-11.5839
太平州	-11.5846
非真	-11.5849
邊患	-11.585
歴仕	-11.5851
時宰	-11.5852
光州	-11.5853
憂勤	-11.5855
諸邑	-11.5855
羣下	-11.5857
義烏	-11.5857
洗心	-11.5857
前鋒校	-11.5866
知泉州	-11.5867
俱原任防禦	-11.5877
可知也	-11.5877
追念	-11.5877
獻俘	-11.5879
迎戰	-11.588
簿書	-11.5882
謂之性	-11.5883
從大軍	-11.5884
尚書右丞	-11.5887
夾擊	-11.5889
扈駕	-11.5893
凡百	-11.5896
保原任筆帖式	-11.5901
入室	-11.5901
以為榮	-11.5904
協力	-11.5904
名譽	-11.5906
初即位	-11.5907
正黃旗人	-11.5908
寡君	-11.591
罪削爵	-11.5911
儀制	-11.5916
滄州	-11.5922
身體	-11.5923
得其情	-11.5927
識仁	-11.5929
先期	-11.593
兄弟三人	-11.593
戍兵	-11.5934
不可輕	-11.5935
賜第	-11.5942
奉表	-11.5942
後數日	-11.5955
竒塔特	-11.5957
六十五	-11.5958
平旦	-11.5958
遣大臣	-11.5959
季通	-11.596
人姓博爾濟吉特	-11.5961
未嘗少	-11.5962
貢楚克	-11.5965
肅清	-11.5967
耨	-11.5969
鄂爾坤	-11.5969
賊馬步兵二十萬衆	-11.597
卒論曰	-11.5972
京營	-11.5972
▁加之職承襲騎都尉	-11.5972
灤	-11.5974
朝議大夫	-11.5974
愚謂	-11.5975
領催	-11.5975
鑲藍旗包衣人世居	-11.5975
廵檢	-11.5976
之本然	-11.5976
按新唐書	-11.5976
張皇	-11.5977
站	-11.5977
一件	-11.5977
蘿	-11.5977
格致誠正	-11.5977
兌	-11.5979
癸夘	-11.5979
敏珠爾	-11.5979
估	-11.5981
皇太孫	-11.5981
𥙷	-11.5981
稠	-11.5984
焕	-11.5984
軟	-11.5985
羗	-11.5986
筮仕	-11.5986
兵部員外郎	-11.5986
券	-11.5987
通政司	-11.5987
煖	-11.5987
褒諭	-11.5987
易有太極	-11.5988
邾	-11.5988
糲	-11.5988
梨	-11.5988
磨勘	-11.5988
諫諍	-11.5989
嫂	-11.5989
鉤	-11.5989
左僉都御史	-11.599
兵三萬	-11.599
綵幣	-11.599
斁	-11.5991
毘陵	-11.5991
噪	-11.5991
潼闗	-11.5992
睨	-11.5992
新建	-11.5993
蜂	-11.5993
皋	-11.5993
𢷬	-11.5993
塲屋	-11.5993
旰	-11.5994
鞏昌	-11.5995
分屯	-11.5996
原任内副管領	-11.5997
宣城	-11.5999
和尚原	-11.6
趙汝愚	-11.6001
紂	-11.6001
被創	-11.6002
崑山	-11.6004
延祐	-11.6009
扎庫	-11.6009
廟庭	-11.601
閲月	-11.601
從征浙江福建	-11.601
裁抑	-11.6011
近代	-11.6012
知己	-11.6017
有大功	-11.6022
巡視	-11.6023
天澤	-11.6029
十四日	-11.6029
養士	-11.603
不可勝數	-11.603
夾攻	-11.6033
保現任筆帖式	-11.6033
佟保	-11.6035
耶律	-11.6035
然後可	-11.6038
仁恕	-11.6041
調䕶	-11.6042
烏拉	-11.6044
親屬	-11.605
三十一	-11.605
八十里	-11.6051
華陽	-11.6052
運判	-11.6053
索爾和	-11.6058
英格	-11.6062
奏免	-11.6064
管見	-11.6065
不測之	-11.6066
財利	-11.6066
兼佐領卒其子	-11.6066
邊防	-11.6069
運司	-11.6071
之至也	-11.6073
館職	-11.6074
訥殷	-11.6074
小兒	-11.6076
知永興軍	-11.6082
三十三年	-11.6082
追論	-11.6083
勢利	-11.6083
順逆	-11.6084
祖訓	-11.6088
成化初	-11.6088
保䕶	-11.6089
六品	-11.6091
溺於	-11.6094
容易	-11.61
南豐	-11.6102
秉忠	-11.6103
褒美	-11.6114
所著有易	-11.6116
不寐	-11.612
儒釋	-11.6122
講筵	-11.6124
外廷	-11.6127
原任防禦孫	-11.613
十有七	-11.6133
湖水	-11.6136
索理	-11.6137
阿蘭泰	-11.614
佟養	-11.6141
建陽人	-11.6143
遇春	-11.6146
募民	-11.6146
建儲	-11.6147
皆從之	-11.6149
上用功	-11.615
原任筆帖式孫	-11.615
崔氏	-11.6154
仍留	-11.6155
恭格	-11.6158
原任䕶軍校曾孫	-11.616
念念	-11.6163
西界	-11.6164
現任頭等	-11.6164
二十餘人	-11.6164
杏	-11.6165
地方擊	-11.6168
姓其氏族世居	-11.617
青陽	-11.617
何憂	-11.617
諭曰朕	-11.6174
靈武	-11.6174
幽州	-11.6178
國維	-11.6179
而言則	-11.6181
糧道	-11.6183
安豐	-11.6184
知杭州	-11.6188
暇日	-11.619
任副都統	-11.6192
喀喇烏蘇	-11.6192
以萬計	-11.6192
嚨	-11.6193
阿南達	-11.6196
現承襲又	-11.6197
甚詳	-11.6197
縁事降為	-11.6197
無一不	-11.6198
辭不就	-11.62
魯昭公	-11.6201
前鋒侍衛	-11.6202
由本旗包衣改	-11.6203
大潰	-11.6203
鵠	-11.6203
理藩院議	-11.6205
○○	-11.6206
將作監丞	-11.6206
傳誦	-11.6206
幼孜	-11.6206
朝奉大夫	-11.6207
廖道南曰予觀	-11.6209
錠	-11.6209
順治元年	-11.621
溉	-11.6211
緹騎	-11.6212
絰	-11.6212
縂	-11.6213
胙	-11.6213
戯	-11.6213
跌	-11.6213
熒惑	-11.6214
渺	-11.6214
責授	-11.6214
後嗣	-11.6215
刷	-11.6215
圜丘	-11.6215
両	-11.6215
遷給事中	-11.6215
額爾赫	-11.6216
莫先於	-11.6216
澧	-11.6216
等侍衞	-11.6216
惶恐	-11.6216
諺	-11.6217
硯	-11.6217
旂	-11.6218
仙源	-11.6218
妬	-11.6218
羊舌	-11.6219
卒于家	-11.6219
稻	-11.6219
百二十	-11.6219
叵測	-11.6219
謖	-11.6219
泚	-11.6219
舁	-11.6219
閒散	-11.622
髙郵	-11.622
舟楫	-11.622
鑲藍旗人来歸年分無考	-11.622
𦂳要	-11.622
狃	-11.6221
啇	-11.6222
瑚魯	-11.6222
覔	-11.6223
媒	-11.6223
通議大夫	-11.6223
倐	-11.6223
縶	-11.6225
漂	-11.6227
太學博士	-11.6227
八卦	-11.6228
征朝鮮	-11.6228
晏駕	-11.6228
尼瑪哈	-11.6229
科爾	-11.6232
撤還	-11.6233
楊龜山	-11.6235
廵視	-11.6235
讀史	-11.6237
矯㫖	-11.6237
茫然	-11.6238
條例	-11.624
市井	-11.6244
抗言	-11.6244
其親弟之子	-11.6246
千二百	-11.6248
編管	-11.6251
斬獲	-11.6252
期年	-11.6253
權勢	-11.6255
洗馬	-11.6255
夏國	-11.6258
之過也	-11.6258
文煥	-11.6259
金幣	-11.626
魏徵	-11.6261
國初来歸其子	-11.6263
藩鎮	-11.6264
綏哈	-11.6269
自誓	-11.627
帝崩	-11.6273
某云	-11.6275
濮王	-11.6277
吉林烏喇	-11.6278
索倫	-11.6278
二十六日	-11.628
老格	-11.6283
元太祖	-11.6283
文懿	-11.6285
弗聽	-11.6286
可大用	-11.6289
善類	-11.6291
片言	-11.6294
達哩	-11.6295
稱疾不	-11.6297
罵曰	-11.6309
革職	-11.6317
肅親王	-11.6318
伯夷	-11.6321
調發	-11.6324
士竒曰	-11.6325
事蹟	-11.6327
兵柄	-11.6328
先後承襲	-11.633
崇安人	-11.6336
墓道	-11.6338
人所難	-11.6346
六十餘	-11.6347
固不可	-11.6352
辨論	-11.6353
為賊所	-11.6357
訪問	-11.6358
二百里	-11.6362
那木都魯地方	-11.6363
集註	-11.638
文綺	-11.6383
天下之士	-11.6384
副驍騎校	-11.6385
塞楞	-11.6387
二年正月	-11.6387
瑞安	-11.6387
鄉貢	-11.6392
扎什	-11.6392
晚嵗	-11.6399
先生曰此	-11.6402
詔㫖	-11.6408
吏部郎中	-11.6409
雅爾泰	-11.6412
烏珠穆沁	-11.6418
哥小字	-11.6419
拉察布	-11.6419
親友	-11.6422
二員	-11.6424
良輔	-11.6425
莖	-11.6426
權要	-11.6426
張家口	-11.6427
巴泰	-11.6428
慶都縣	-11.6429
五十萬	-11.6429
征察哈爾	-11.643
蜚悠城地方	-11.643
第二登城克之	-11.643
穆克登	-11.643
鴈	-11.6432
禮畢	-11.6433
丸	-11.6433
謨爾渾	-11.6436
碩壘	-11.6437
撿	-11.6437
猖狂	-11.6438
玉素卜	-11.6439
撤回	-11.644
叅賛	-11.644
栅	-11.644
塑	-11.644
原任郎	-11.644
承奉郎	-11.644
州團練使	-11.6441
捐軀	-11.6441
瓢	-11.6441
笥	-11.6442
淆	-11.6442
醮	-11.6442
璣	-11.6442
嶼	-11.6442
鑠	-11.6443
䨇	-11.6443
棋	-11.6444
伏羲	-11.6445
鉛	-11.6445
毆	-11.6445
叠	-11.6446
窺伺	-11.6446
按察僉事	-11.6446
穿鑿	-11.6447
直龍圖閣	-11.6447
洮	-11.6447
㡌	-11.6448
瀚海	-11.6449
迥	-11.6449
債	-11.6449
幡	-11.6449
楠	-11.6449
塢	-11.6449
韐	-11.645
瘡	-11.6451
顙	-11.6452
謄	-11.6452
温體仁	-11.6453
贖罪	-11.6454
曽鞏	-11.6454
倜儻	-11.6455
舊郡志	-11.6455
寀	-11.6456
日用之間	-11.6458
新郡志	-11.6459
禆益	-11.646
伋	-11.6462
任三等侍衛	-11.6465
勞績	-11.6469
索住	-11.647
而不自知	-11.6471
䝉正	-11.6472
容貌	-11.6473
舊例	-11.6473
二十九日	-11.6477
建祠	-11.648
太原府	-11.648
警敏	-11.6481
縱火	-11.6484
滑州	-11.6485
扶持	-11.6488
興學校	-11.6488
時削去	-11.6489
高皇帝	-11.6489
日用間	-11.649
三欽定四庫全書	-11.6495
貴顯	-11.6497
仰天	-11.65
喀拉	-11.6502
四十餘年	-11.6503
雲龍	-11.6503
原任城守尉	-11.6505
寢食	-11.6505
在何處	-11.6505
色赫	-11.6507
獲免	-11.6507
熹宗	-11.6508
大名府	-11.6511
唐鄧	-11.6512
憂懼	-11.6516
温陵	-11.6522
庫車	-11.6522
舊典	-11.6522
不可得也	-11.6523
商英	-11.6525
習氣	-11.6527
由委署䕶軍校從	-11.6527
親族	-11.6536
嘗讀	-11.6536
渾厚	-11.6537
朝堂	-11.654
西征	-11.6542
不返	-11.6545
享年五十	-11.6547
猶恐	-11.6548
年十三	-11.655
截然	-11.6551
額爾登	-11.6552
聲勢	-11.6555
騎都	-11.6556
往援	-11.6558
逆順	-11.656
皇極	-11.6564
詞林	-11.6565
財物	-11.6567
戍卒	-11.6572
云論曰	-11.6572
明總兵	-11.6576
感恩	-11.6577
建康府	-11.658
六品包衣大	-11.6584
清介	-11.6587
風憲	-11.6593
是個	-11.6596
據險	-11.6599
謝恩	-11.6601
戮力	-11.6601
侍坐	-11.6603
未決	-11.6608
律令	-11.6615
兵三百	-11.6617
思量	-11.6619
石室	-11.6621
河決	-11.6624
哈逹	-11.6629
可不謂	-11.6634
什圖	-11.6648
阿巴噶	-11.6653
滅亡	-11.6655
草廬	-11.6657
賜孔雀翎	-11.6657
知秦州	-11.6658
珠爾黙特納木扎勒	-11.6661
授盟長	-11.6663
咸通	-11.6664
上征明	-11.6665
教養	-11.6666
現任叅領	-11.6666
殁於陣	-11.6667
石頭	-11.6669
嘉木湖	-11.667
政教	-11.667
顒	-11.6671
遹	-11.6671
人之善	-11.6671
泰原任筆帖式	-11.6671
䋲	-11.6672
世祖章皇帝	-11.6672
襲職兩遇	-11.6672
由鑲黄旗改𨽻	-11.6672
致仕卒	-11.6673
駒	-11.6674
正藍旗包衣	-11.6675
現任庫掌	-11.6676
圜	-11.6676
顛倒	-11.6677
劣	-11.6677
拍	-11.6677
㓜孜	-11.6678
漿	-11.6678
國子監祭酒	-11.6679
穫	-11.6679
櫬	-11.668
刑部右侍郎	-11.6681
郴	-11.6681
酹	-11.6681
你	-11.6682
欽定四庫全書今獻備遺卷	-11.6683
秘閣	-11.6683
舅姑	-11.6683
是年冬	-11.6683
汨	-11.6684
州團練副使	-11.6684
趍	-11.6684
庖	-11.6685
竑	-11.6685
逗	-11.6685
班禪喇嘛	-11.6685
戅	-11.6686
轉運副使	-11.6686
徽猷閣待制	-11.6686
劔	-11.6686
侑	-11.6687
千三百	-11.6687
赫達色	-11.6687
都督僉事	-11.6687
筋	-11.6688
征討	-11.6688
鄜	-11.669
踊	-11.669
抜	-11.669
膂	-11.669
突厥	-11.669
彈劾	-11.6692
商輅	-11.6692
盛暑	-11.6693
峝	-11.6693
維祺	-11.6694
母弟	-11.6696
任主事	-11.6698
暠	-11.6698
庠序	-11.6699
浣	-11.67
馮翊	-11.67
無時不	-11.6701
徘徊	-11.6703
談笑	-11.6704
巡幸	-11.6704
尤篤	-11.6704
楊溥	-11.6706
現任二等侍衞	-11.6709
闔門	-11.6709
乳母	-11.6709
而不知其	-11.671
直截	-11.6713
現任副䕶軍叅領	-11.6714
牧守	-11.6714
知陳州	-11.6716
希佛	-11.6716
互異	-11.6716
邦昌	-11.6716
謂左右曰	-11.6717
形迹	-11.6718
現任護軍校	-11.6719
未艾	-11.672
七十三	-11.6722
入井	-11.6723
嘉謨	-11.6724
五十四	-11.6725
不可不察	-11.6727
東湖	-11.6728
達頼	-11.6732
原任前鋒叅領	-11.6733
經畧使	-11.6735
西湖	-11.6737
郊廟	-11.6738
交遊	-11.6739
詰責	-11.674
奉養	-11.6742
象數	-11.6742
文恪	-11.6756
不怠	-11.676
博覽	-11.6763
潤州	-11.6767
頭等䕶衛	-11.6767
昌黎	-11.6767
原任都統	-11.6774
黙坐	-11.6776
范陽	-11.6778
劉基	-11.678
者此也	-11.6782
蘇松	-11.6785
達賚	-11.6785
玉堂	-11.6787
湯武	-11.6787
流落	-11.6788
兵屯	-11.6789
班布	-11.6789
東川	-11.6792
内廷	-11.6793
鄂羅	-11.6794
體察	-11.6795
鳳陽	-11.68
奮發	-11.6804
青田	-11.6805
千六百	-11.6808
調度	-11.6809
第一義	-11.6814
兵討	-11.6816
窺見	-11.6821
四欽定四庫全書	-11.6824
邵氏	-11.6828
功授雲騎尉	-11.6835
甘州	-11.6837
上大怒	-11.6839
盜起	-11.6841
致太平	-11.6845
實錄成	-11.6855
小舟	-11.6856
汀州	-11.6859
祠祀	-11.6864
南京禮部尚書	-11.6869
私第	-11.6872
詔有司	-11.6872
二百年	-11.6874
母䘮	-11.6876
進討	-11.688
爵禄	-11.6881
主帥	-11.6887
尚書郎	-11.6888
失職	-11.6891
欲速	-11.6896
崑	-11.6903
七十五	-11.6904
泌曰	-11.6907
喀喇沁	-11.6911
嫩	-11.6911
過北京征山東梯攻	-11.6912
結廬	-11.6912
原任四品官	-11.6913
薩拉爾	-11.6913
扎哈沁	-11.6914
貢駝馬	-11.6914
太常寺少卿	-11.6915
人生而静	-11.6915
琉	-11.6916
鍰	-11.6919
躭	-11.692
知行合一	-11.6921
鶚	-11.6921
儂	-11.6921
伊拉齊	-11.6921
妓	-11.6922
默	-11.6922
夷吾	-11.6923
罄	-11.6923
槁	-11.6925
喫𦂳	-11.6926
孑	-11.6926
踏	-11.6926
鈐轄	-11.6927
樞密直學士	-11.6928
聯	-11.6928
多爾衮	-11.6929
著為令	-11.6929
赫碩色	-11.6929
澥	-11.6929
徽猷	-11.693
太子少傅	-11.693
臬	-11.693
聖㫖	-11.693
敬以直内	-11.6931
禳	-11.6931
吕惠卿	-11.6931
謟	-11.6931
改吏部	-11.6931
卜筮	-11.6931
抉	-11.6932
妍	-11.6932
奔競	-11.6933
炊	-11.6933
卭	-11.6933
宣廟	-11.6934
詛	-11.6934
兎	-11.6934
鏤	-11.6934
逄	-11.6934
液	-11.6935
督撫	-11.6935
蹴	-11.6935
跋扈	-11.6935
互市	-11.6936
㮚	-11.6936
中書左丞	-11.6936
吏部員外郎	-11.6936
刈	-11.6938
櫟	-11.6938
五星	-11.6941
妻孥	-11.6942
時偉按	-11.6942
旬月	-11.6942
公以謂	-11.6944
遮道	-11.6944
劉宗周	-11.6945
深然之	-11.6946
媵	-11.6946
以父任	-11.6947
彪佳	-11.6947
忠愍	-11.6948
湖湘	-11.6949
耆老	-11.695
宰輔	-11.6951
宗登極	-11.6953
州學正	-11.6954
屹然	-11.6955
草創	-11.6958
額哲	-11.6958
議者謂	-11.696
福綬	-11.6962
無嗣其親兄	-11.6965
劉瑾	-11.6969
悚然	-11.6971
授檢討	-11.6972
終其身	-11.6975
兵部郎中	-11.6978
文定公	-11.6983
李延平	-11.6989
擒斬	-11.6989
合浦	-11.6989
分析	-11.6989
帳下	-11.6991
貢獻	-11.6994
星變	-11.6995
面目	-11.6997
唐末	-11.7004
懷光	-11.7005
其餘無事蹟可立傳者附載於後正白旗	-11.7007
日暮	-11.7008
萬物一體	-11.7011
繼隆	-11.7011
眉山	-11.7013
典章	-11.7014
厲聲曰	-11.7016
嚴肅	-11.7018
陳白沙	-11.702
龍飛	-11.7026
極諫	-11.7027
成衮	-11.7027
奉天門	-11.7027
十五萬	-11.7028
宫禁	-11.7034
招集	-11.7037
薩里	-11.7044
長子乾隆四十	-11.7049
月給	-11.705
天祐	-11.705
豈徒	-11.7051
有許多	-11.7063
卒其親兄之子	-11.7069
正紅旗包衣	-11.7078
保現任䕶軍校	-11.7085
聚衆	-11.7094
擢進士第	-11.7096
等輕車都尉	-11.71
變化氣質	-11.7101
孔顔	-11.7106
不墜	-11.7107
十一日	-11.7108
擒獲	-11.7108
竊發	-11.7108
其本心	-11.7112
原任筆帖式曾孫	-11.7116
歩軍校	-11.7122
始末	-11.7134
納噶察	-11.7142
欲殺之	-11.7148
鑲黄旗包衣	-11.7151
授為三等男	-11.7153
督戰	-11.7153
婺源	-11.7155
勸農	-11.7156
丹津多爾濟	-11.7158
慈母	-11.716
定邊左副將軍	-11.7162
任雲麾使	-11.7162
現任鳴贊	-11.7162
義理之性	-11.7163
垍	-11.7164
尉兼一雲騎尉	-11.7164
芮	-11.7164
們	-11.7165
鏞	-11.7165
太祖高皇帝	-11.7166
騷達色	-11.7166
賜祭葬	-11.7167
國初来歸其曾孫	-11.717
右係天聰時來歸之人	-11.717
苴	-11.717
冡	-11.7171
亥	-11.7171
璲	-11.7171
洊	-11.7172
莽噶里克	-11.7172
典型	-11.7173
國子助教	-11.7173
伴	-11.7174
專權	-11.7175
活潑	-11.7175
芸	-11.7175
烽火	-11.7176
延齡	-11.7176
現任佐	-11.7176
簞	-11.7176
拊循	-11.7176
娣	-11.7176
翹	-11.7177
日月星辰	-11.7178
褫	-11.7178
汲黯	-11.7178
讌	-11.7178
知覺運動	-11.7178
蟻	-11.7178
先生之門	-11.7179
通直郎	-11.7179
蕡	-11.718
塞克圖	-11.718
玘	-11.718
氊	-11.718
瑊	-11.7181
維璉	-11.7181
咨嗟	-11.7182
蘊	-11.7182
璡	-11.7182
暹	-11.7182
疚	-11.7182
悶	-11.7183
大學衍義	-11.7183
庻吉士	-11.7183
劉三吾	-11.7183
圈	-11.7184
刑部郎中	-11.7184
旗幟	-11.7184
糞	-11.7184
剡	-11.7185
僦	-11.7185
擾擾	-11.7185
逐物	-11.7186
亶	-11.7187
刮	-11.7188
仞	-11.7188
襄毅	-11.7189
白都訥地方	-11.719
烝	-11.719
㕘領	-11.719
讙	-11.7191
釡	-11.7191
兵於石門坎黄草壩	-11.7192
欺罔	-11.7195
韙	-11.7195
數百萬	-11.7198
裴度	-11.7198
申救	-11.72
律厯	-11.7201
不與焉	-11.7202
師表	-11.7206
劉錡	-11.7206
妄意	-11.7206
元璐	-11.7207
主和議	-11.7208
處即是	-11.7209
睦州	-11.721
其餘無事蹟可立傳者附載於後	-11.7211
六藝	-11.7211
筆札	-11.7212
侵擾	-11.7212
輔弼	-11.7215
它日	-11.7219
希烈	-11.722
佳為滿洲一姓此一	-11.7223
鴻儒	-11.7223
授雲騎尉卒其子	-11.7224
子貢曰	-11.7225
承襲卒其	-11.7227
朝覲	-11.7231
事竣	-11.7231
博洛	-11.7232
條目	-11.7239
臣道南	-11.7239
二十一日	-11.724
錢糧	-11.7245
一等輕車都尉兼一雲騎尉	-11.7253
襲爵	-11.7256
疾惡	-11.7261
臨安府	-11.7263
厚薄	-11.7266
長綬	-11.7268
賛善	-11.7271
形勝	-11.7273
繇是	-11.7279
寜逺	-11.7282
聘君	-11.7282
俱原任筆	-11.7283
塞勒	-11.7288
裁定	-11.7295
奪職	-11.7299
財力	-11.7303
贈少保	-11.7304
自為一	-11.7305
嘉歎	-11.7308
繼嗣	-11.7309
巴岱	-11.731
輕騎	-11.731
部侍郎	-11.7311
論劾	-11.7312
封固山貝子	-11.7314
居庸	-11.7319
授騎都尉卒其子	-11.732
降㫖	-11.7325
年十七	-11.7328
秘書	-11.7369
順流	-11.7371
遺愛	-11.7372
制勝	-11.7373
原任助教	-11.7381
太祖太宗	-11.7383
遼陽	-11.7385
七十四	-11.7389
都統兼佐領	-11.74
頲	-11.7409
元帥府	-11.7412
達瑪璘	-11.7413
沙克都爾扎布	-11.7415
昊天	-11.7415
欽定外藩蒙古回部王公表𫝊卷之	-11.7417
文林郎	-11.7418
䇿凌敦多卜	-11.7418
土謝圖汗部	-11.742
襲職任佐領卒其子	-11.7423
史館修撰	-11.7424
石門坎黄草壩	-11.7424
訶	-11.7426
鑨	-11.7427
猗	-11.7428
渾淪	-11.7428
騶	-11.7428
仭	-11.7429
萍	-11.7429
五十二	-11.7431
騁	-11.7431
煦	-11.7432
憒	-11.7432
儔	-11.7433
妤	-11.7433
肄	-11.7433
髫	-11.7433
太僕少卿	-11.7434
知樞密院事	-11.7434
資善大夫	-11.7434
摶	-11.7434
紆	-11.7434
愜	-11.7434
招徠	-11.7435
筍	-11.7435
正心誠意	-11.7435
覓	-11.7435
泝	-11.7437
起居舎人	-11.7437
瀟	-11.7437
佳為滿洲一姓其氏族	-11.7437
郛	-11.7438
佩刀	-11.7438
僵	-11.7439
尹焞	-11.7439
惻隱之心	-11.744
葉向髙	-11.744
州居住	-11.744
筮	-11.7441
條例司	-11.7442
國鑲白旗人	-11.7443
維垣	-11.7444
二帝三王	-11.7444
蹄	-11.7444
剛簡	-11.7444
栽	-11.7445
伎	-11.7445
嬰兒	-11.7445
脇	-11.7445
撰行狀	-11.7445
圯	-11.7446
彬彬	-11.7447
嘉禾	-11.7448
蕩蕩	-11.7448
閉户	-11.7449
復其官	-11.7449
潢	-11.7452
激烈	-11.7455
是一個	-11.7457
鍾離	-11.7457
廢弛	-11.7458
童貫	-11.7459
納爾泰	-11.7462
悔罪	-11.7473
沾河	-11.7475
南畿	-11.7476
獄訟	-11.7476
進士第調	-11.7478
左右翼	-11.7478
蘭溪	-11.7479
依違	-11.7484
㕔事	-11.7484
挺身	-11.7485
夏六月	-11.7486
今上即位	-11.7488
臨陣	-11.7492
雅圗	-11.7495
八陣	-11.7496
墓表	-11.7499
臧孫	-11.7501
率所部	-11.7503
騷然	-11.7508
撃賊	-11.7509
文天祥	-11.7512
六十九	-11.7514
往討	-11.7521
切要	-11.7521
一等子	-11.7526
曰善哉	-11.7532
講堂	-11.7534
旋師	-11.7541
兵討之	-11.7542
贈太子太保	-11.7543
龍川	-11.7544
拒守	-11.7551
二等侍衞	-11.7551
明年正月	-11.7555
兵五千	-11.7556
張居正	-11.7557
六尺	-11.7564
英宗即位	-11.7565
食禄	-11.7566
戒之曰	-11.7568
應接	-11.7579
憲廟	-11.7581
四年正月	-11.7584
原任叅領兼佐領	-11.7585
征達瓦齊	-11.7598
門弟子	-11.76
奬諭	-11.7606
任二等侍衛	-11.761
編年	-11.7611
恩詔加至一等輕車都尉	-11.7616
皇皇	-11.7617
統體	-11.7622
任司庫	-11.7629
前鋒叅領	-11.7633
既沒	-11.7637
勸講	-11.7651
疾馳	-11.7655
滿岱	-11.7655
石刻	-11.7657
謁告	-11.7657
弋	-11.7659
由䕶軍	-11.766
十六年卒子	-11.7663
朗阿	-11.7666
鄂謨克	-11.7676
撫逺大將軍	-11.7676
禹偁	-11.7676
叛逃	-11.7676
楚琥爾	-11.7677
賜雙眼孔雀翎	-11.7678
卓特巴	-11.7679
扎嚕特	-11.7679
親王成衮扎布	-11.7679
欽定外藩䝉古回部王公表𫝊卷之	-11.768
設佐領使統	-11.7681
晰	-11.7682
膳房總領	-11.7685
額爾徳尼額爾克托克托鼐	-11.7685
坂	-11.7686
莆陽文獻	-11.7686
劉國軒	-11.7687
二三子	-11.7687
璠	-11.7688
洺	-11.7688
康熈	-11.7689
廸功郎	-11.7689
弓匠	-11.769
痊	-11.769
為考試官取	-11.769
漓	-11.7691
髦	-11.7691
番禺	-11.7692
掊	-11.7692
知諫院	-11.7693
瓚	-11.7693
憩	-11.7693
康熙二十七年	-11.7694
槊	-11.7694
遡	-11.7694
頺	-11.7694
丁夘	-11.7694
揜	-11.7695
溟	-11.7696
陽翟	-11.7696
涵泳	-11.7697
褊	-11.7697
堕	-11.7697
鑲紅旗人来歸年分無考	-11.7697
贛	-11.7698
柘	-11.7698
館伴	-11.7698
三等輕車	-11.7698
擄	-11.7698
賜五品服	-11.7698
壙	-11.7699
駑	-11.7699
磧	-11.77
豢	-11.77
踴躍	-11.77
開封府推官	-11.7701
魯哀公	-11.7701
棹	-11.7701
工部郎中	-11.7701
君臣之義	-11.7701
謂侍臣曰	-11.7701
銖	-11.7702
左庶子	-11.7702
徭役	-11.7702
殛	-11.7703
茶鹽	-11.7703
滁陽	-11.7703
攖	-11.7703
馳騁	-11.7703
能屬文	-11.7704
掌書記	-11.7704
竺	-11.7704
忠臣義士	-11.7705
工部主事	-11.7705
槍	-11.7705
薩海	-11.7705
餙	-11.7705
過北京征山東攻	-11.7706
凖噶爾賊	-11.7706
干以私	-11.7707
愴	-11.7707
牓	-11.7708
亷恥	-11.7708
天理人欲	-11.7708
雨露	-11.7708
潁昌	-11.7708
鵝	-11.7709
黄道周	-11.7709
翰林學士承㫖	-11.771
剽掠	-11.7711
豪傑之士	-11.7711
同族其孫	-11.7711
到底	-11.7711
戎狄	-11.7711
鄂絡	-11.7713
剏	-11.7714
泠	-11.7714
遲速	-11.7714
十四年卒子	-11.7717
逆旅	-11.7717
聚斂	-11.7717
真西山	-11.7717
乗輿	-11.7718
寃獄	-11.772
商旅	-11.772
凝聚	-11.7723
賜勅	-11.7723
族姪	-11.7724
王欽若	-11.7725
鄞縣	-11.7728
十有九	-11.7728
頤浩	-11.7729
力排	-11.7729
校勘	-11.7731
拱手	-11.7732
揚雄	-11.7734
兼文淵閣大學士	-11.7735
備顧問	-11.7736
天之生	-11.7736
北界	-11.7737
面折	-11.7738
逢吉	-11.7738
俱原任郎中	-11.774
訥赫	-11.7741
紹興二年	-11.7741
往返	-11.7742
齧	-11.7742
廬江	-11.7743
方人其孫	-11.7744
勲業	-11.7746
詞賦	-11.7748
𤓰州	-11.7749
乗勝	-11.775
諸汛	-11.7752
敬姜	-11.7754
文彦博	-11.7755
僅存	-11.7756
錢帛	-11.7756
希亮	-11.7758
教育	-11.7758
危急	-11.7765
秘書監	-11.7766
亞夫	-11.7772
昇平	-11.7777
敷陳	-11.7778
追𠞰	-11.7778
施設	-11.7779
繼室	-11.778
諸蠻	-11.778
被圍	-11.7785
督責	-11.7787
窮究	-11.7787
良乆	-11.7788
入山海闗	-11.7797
悲夫	-11.7805
永興軍	-11.7807
辭不許	-11.7817
力救	-11.7818
不能支	-11.782
皆不就	-11.7821
薩哈爾察地方	-11.7826
現任八品	-11.7833
功烈	-11.7835
六千	-11.7837
原任副將	-11.7841
天地之性	-11.7841
供養	-11.7842
五欽定四庫全書	-11.785
覩聞	-11.7851
皂保	-11.7855
一百五十	-11.7857
過北京征	-11.786
銅山	-11.7863
惻隠	-11.7885
索倫地方	-11.7887
誦讀	-11.7888
敗賊衆	-11.7895
悦服	-11.7901
數倍	-11.7905
百八十	-11.7906
雨雪	-11.7908
四十二	-11.7912
任城守尉	-11.7917
鑲黄旗包衣人世居	-11.792
正白旗包衣人世居	-11.7928
舉進士授	-11.7929
風雷	-11.7929
和羅地方	-11.7931
同安人	-11.7932
蘄州	-11.7937
戊	-11.7942
獻駝馬	-11.7943
兵二萬	-11.7947
莘	-11.7949
内務府總管	-11.7949
晉封固山貝子	-11.7949
額爾德尼	-11.795
▁至二等輕車都尉	-11.7952
集若干卷	-11.7952
年襲多羅貝勒	-11.7952
噶達渾	-11.7953
噶卜倫	-11.7954
現任五品官	-11.7954
和託輝特	-11.7955
昩	-11.7955
太僕寺少卿	-11.7955
紗	-11.7956
肫	-11.7958
嗚呼此友兮	-11.7958
蔡虚齋	-11.7959
糊	-11.796
蘭谿	-11.7961
吟咏	-11.7961
理事官	-11.7961
鏊	-11.7961
由正黄旗改	-11.7962
蘖	-11.7962
傭	-11.7963
蒼梧	-11.7963
赤子之心	-11.7963
嗟悼	-11.7963
軀殻	-11.7964
雹	-11.7964
拉藏汗	-11.7964
澈	-11.7965
聫	-11.7965
薛瑄	-11.7966
散騎常侍	-11.7966
鳯凰	-11.7967
以孝聞	-11.7967
彝	-11.7967
鈐	-11.7967
輗	-11.7968
徂	-11.7969
昺	-11.7969
貫穿	-11.797
犢	-11.797
脊	-11.7971
屯田員外郎	-11.7971
餼	-11.7971
屋漏	-11.7972
峴	-11.7972
巵	-11.7972
烽	-11.7973
娯	-11.7973
泮	-11.7973
禁錮	-11.7974
窈	-11.7974
髙煦	-11.7975
藎	-11.7975
麒麟	-11.7975
柟	-11.7976
軍國重事	-11.7976
逾月	-11.7977
樁	-11.7977
形骸	-11.7977
履祥	-11.7978
曺	-11.7978
參贊	-11.7979
袂	-11.7979
響應	-11.798
號慟	-11.798
藏于家	-11.798
餽遺	-11.7981
􁀊	-11.7982
奪俸	-11.7984
燃	-11.7985
八十四	-11.7985
墅	-11.7986
暴露	-11.7989
培養	-11.799
鵬舉	-11.7991
宫殿	-11.7991
説話	-11.7991
旁午	-11.7993
彭澤	-11.7993
合肥	-11.7994
引疾歸	-11.7995
殺戮	-11.7996
等䖏	-11.7996
蹇義	-11.7997
舉孝亷	-11.7997
漢武帝	-11.7999
梁冀	-11.8001
長子康熙五十	-11.8002
十有六	-11.8002
秋九月	-11.8002
旱蝗	-11.8003
正獻公	-11.8007
現任内管領	-11.8009
給驛	-11.801
妄想	-11.801
招討	-11.801
𤣥宗	-11.8011
四十三	-11.8012
削職	-11.8013
嘉奬	-11.8013
光辰	-11.8016
雍容	-11.8017
刑賞	-11.8019
原任頭等侍衞	-11.8024
猶豫	-11.8025
祝史	-11.8025
河套	-11.8026
朱陸	-11.8026
困窮	-11.8027
邦華	-11.8027
嗟夫	-11.8027
無分於	-11.8028
國棟	-11.8034
震驚	-11.8035
貫徹	-11.804
執筆	-11.8045
遣行人	-11.8053
建寜	-11.806
昭莫多	-11.8065
勤苦	-11.8069
疏救	-11.8075
繫辭	-11.8078
千總一	-11.8082
有益於	-11.8083
布拉克	-11.8084
奮勇破賊有功	-11.8102
八品官	-11.8103
耕種	-11.8103
忌諱	-11.8104
州推官	-11.8105
元晦	-11.8113
厯代	-11.8118
授為二等	-11.8125
乾隆二年	-11.8127
伐宋	-11.8136
陜右	-11.8137
汝輩	-11.8139
歎曰吾	-11.8143
致其知	-11.8146
議不合	-11.8147
無處不	-11.8166
窮理盡性	-11.817
翁果	-11.8171
億萬	-11.8173
𠞰賊	-11.8181
丁憂	-11.8194
羊酒	-11.8194
府教授	-11.8197
竊恐	-11.8198
侍左右	-11.8202
焯	-11.8215
遷太常博士	-11.8218
四十六年諭曰	-11.8224
衛拉特	-11.8224
哲卜尊丹巴呼圖克圖	-11.8225
協理台吉	-11.8227
嶴	-11.8227
著有勞績	-11.8227
編佐領使統之	-11.8229
達賴喇嘛	-11.823
豫親王多鐸	-11.823
天下之物	-11.8232
襲職現任佐領又	-11.8233
諾木齊	-11.8233
斐	-11.8233
燎	-11.8233
樽	-11.8237
刦	-11.8238
諡恭	-11.8238
矛盾	-11.8239
針	-11.8239
資政殿大學士	-11.8239
閨	-11.824
疆場	-11.824
乾清宫	-11.8241
天章閣	-11.8241
肻	-11.8241
曽祖妣	-11.8241
城隍	-11.8243
透徹	-11.8243
挂	-11.8244
彭蠡	-11.8244
茫茫	-11.8244
酒酣	-11.8244
茗	-11.8244
装	-11.8244
肎	-11.8244
因家焉	-11.8245
戸部主事	-11.8245
蠅	-11.8246
撞	-11.8246
嵬	-11.8246
麤	-11.8246
五經四書	-11.8246
灝	-11.8247
僨	-11.8247
現任千總	-11.8247
隄防	-11.8248
滙	-11.8248
書院山長	-11.8248
倩	-11.8249
二三大臣	-11.8249
剖析	-11.825
奉議大夫	-11.825
兵部主事	-11.8251
愀然	-11.8252
何啻	-11.8253
哺	-11.8253
稷契	-11.8254
颶	-11.8254
公卿大夫	-11.8255
諄	-11.8255
唇	-11.8255
臧否	-11.8255
酒肉	-11.8255
橘	-11.8256
翼翼	-11.8256
楮幣	-11.8256
猊	-11.8256
圻	-11.8258
若干巻	-11.8258
可其奏	-11.8258
袒	-11.8258
黄裳	-11.8261
臯陶	-11.8261
程頤	-11.8262
麓川	-11.8262
鴈門	-11.8263
年老告退其子	-11.8263
與公同	-11.8264
龕	-11.8264
國史院	-11.8265
在是矣	-11.8265
子翬	-11.8266
柬	-11.8269
體貼	-11.827
精粗	-11.8271
闗陜	-11.8272
俸禄	-11.8273
宿弊	-11.8273
逺邇	-11.8274
得力處	-11.8275
羣兒	-11.8276
郊迎	-11.8277
州司户	-11.8278
家塾	-11.8278
張世傑	-11.828
卒其長子	-11.8282
偷生	-11.829
浮費	-11.8294
二十八日	-11.8294
二十三日	-11.83
火器	-11.8303
雍正二年	-11.8304
應昇	-11.8306
遠近	-11.8307
合併	-11.8308
▁國初來歸	-11.8312
聞訃	-11.8312
歲月	-11.8315
二萬餘	-11.8321
尚幼	-11.8325
輔佐	-11.8326
景濓	-11.8327
寃抑	-11.8331
䕶送	-11.8332
庶務	-11.8339
舟車	-11.8339
今之學者	-11.8364
克什圖	-11.8378
不離乎	-11.8386
任三等侍衞	-11.8397
建炎二年	-11.8406
集二十巻	-11.8408
三百年	-11.8426
躬耕	-11.8435
原任知府	-11.8439
衛指揮使	-11.8446
道問學	-11.8446
年卒子二長	-11.8457
君子之道	-11.8457
面諭	-11.8482
胷	-11.8488
賜璽書	-11.8496
䖍州	-11.8498
襲職時削	-11.8504
布拉呢敦	-11.8507
滿珠習禮	-11.851
荼	-11.8512
土謝圖汗察琿多爾濟	-11.8514
呢	-11.8514
以上俱有𫝊	-11.8515
都察院右副都御史	-11.8519
屢立戰功	-11.8519
埇	-11.852
塵埃	-11.8521
搬	-11.8521
芽	-11.8521
靄	-11.8522
必有事焉	-11.8522
繙	-11.8523
髓	-11.8523
粧	-11.8525
鯨	-11.8525
宕	-11.8525
贈太師中書令	-11.8525
原任同知	-11.8527
菲	-11.8528
孕	-11.8528
潼關	-11.8528
嘉議大夫	-11.8528
陳獻章	-11.8529
驤	-11.8529
岀	-11.8529
黄勉齋	-11.8529
珂	-11.8529
薩哈璘	-11.853
丰	-11.853
閨門	-11.853
凑	-11.853
瞭	-11.8531
涣	-11.8531
逍遥	-11.8531
晷	-11.8531
厮	-11.8532
雱	-11.8532
以憂去	-11.8532
景㤗	-11.8532
正黃旗人世居	-11.8532
將仕郎	-11.8533
盥	-11.8533
聮	-11.8533
奉使契丹	-11.8533
誾	-11.8533
承襲騎都尉	-11.8533
蠭	-11.8534
藺	-11.8534
珣	-11.8534
兢兢	-11.8535
車騎將軍	-11.8536
琬琰	-11.8536
吻	-11.8537
副元帥	-11.8537
讋	-11.8537
剝	-11.8537
秣	-11.8538
浩然之氣	-11.8538
牡	-11.8539
心即理	-11.854
誌其墓	-11.854
吕夷簡	-11.8541
揷	-11.8541
䙝	-11.8542
愽士	-11.8542
黻	-11.8542
中流矢	-11.8543
顚	-11.8543
鴟	-11.8544
天下幸甚	-11.8544
設汛	-11.8545
不亦可乎	-11.8545
經緯	-11.8545
研幾	-11.8545
皖	-11.8545
嘆息	-11.8546
茂烈	-11.8546
􁇾	-11.8547
希哲	-11.8547
安撫司	-11.8548
驍勇	-11.8549
宋璟	-11.8551
僚友	-11.8552
瑪喇	-11.8553
奥巴	-11.8553
頃零	-11.8556
叩首	-11.8558
元飇	-11.8561
侍側	-11.8562
疏劾	-11.8567
羣雄	-11.8567
淮揚	-11.8567
漸漸	-11.8568
擒獻	-11.8569
産業	-11.857
河南尹	-11.857
邉境	-11.8571
才智	-11.8572
竦然	-11.8573
先塋	-11.8575
厲聲	-11.8575
煬帝	-11.8581
隔絶	-11.8582
長子康熙四十	-11.8585
向背	-11.8586
原任員外郎元孫	-11.8586
享太廟	-11.8586
二十五日	-11.8588
鄭親王	-11.8589
三十巻	-11.859
總𫝊	-11.8591
希夷	-11.8592
黒龍江地方人其	-11.8596
委質	-11.8597
年分無考其孫	-11.8599
戒慎	-11.8607
范文正公	-11.8608
嚴憚	-11.8608
屢敗賊兵	-11.8615
柏齋	-11.8621
所從出	-11.8628
原任歩軍	-11.8628
忠憤	-11.8633
可憫	-11.8637
十二卷	-11.8643
色楞	-11.865
穆爾泰	-11.8653
八品	-11.8658
此其所以	-11.8659
餘干	-11.8659
賜鈔	-11.8668
二等侍衛	-11.8668
任驍	-11.8669
原任佐領曾孫	-11.868
征江西	-11.8692
扎薩克郡王	-11.8698
五十六年	-11.8701
卒無嗣其親叔	-11.8702
▁魯號	-11.8735
六年正月	-11.8741
現任䕶軍校元孫	-11.8744
子四長	-11.8756
任歩軍校	-11.8774
蓋州地方	-11.8775
原係副	-11.8778
色提卜阿勒氐	-11.878
千餘里	-11.8788
雲騎尉卒其子	-11.8789
旗祖次	-11.879
齊旺多爾濟	-11.8792
辭不拜	-11.8795
布嚕特	-11.88
訥黙庫	-11.8803
詔授扎薩克一等台吉	-11.8803
黄馬褂	-11.8804
兄弟二人一舉娶	-11.8806
兆恵	-11.8807
郾	-11.8808
噶爾丹策凌	-11.8808
洪果爾	-11.8809
及各地方	-11.881
蒋	-11.881
係國初来歸之人	-11.8811
綠	-11.8812
衍聖公	-11.8812
以上俱係天聰時來歸之人	-11.8812
阿哈尼堪	-11.8814
右司諫	-11.8815
年二十四	-11.8816
怍	-11.8816
包衣管領下人世居鐵嶺地方	-11.8817
天文地理	-11.8818
摸	-11.8818
烱	-11.8818
蒿	-11.8818
弓弩	-11.8819
砥柱	-11.8819
洒掃	-11.8819
籬	-11.882
磊落	-11.882
王守仁	-11.882
搗	-11.882
䜟	-11.882
青海諸台吉	-11.882
近思録	-11.8821
隲	-11.8821
己夘	-11.8821
診	-11.8822
性理大全	-11.8822
甦	-11.8822
鑲黄旗包衣旗鼓人世居	-11.8822
莾	-11.8823
票	-11.8823
坪	-11.8823
鑲藍旗包衣人世居瀋陽地方來歸年	-11.8823
熊廷弼	-11.8823
衆神保	-11.8823
原係牧副	-11.8824
宁	-11.8824
迦	-11.8824
隗	-11.8824
惴惴	-11.8824
呌	-11.8824
謾	-11.8825
戒懼慎獨	-11.8825
輟視朝一日	-11.8825
淬	-11.8825
各得其所	-11.8825
場屋	-11.8825
据	-11.8825
酤	-11.8826
牋	-11.8826
衿	-11.8826
禋	-11.8826
鋸	-11.8827
手加額	-11.8827
埽	-11.8827
荐	-11.8828
鍵	-11.8828
毀	-11.8828
滎陽	-11.8828
邯鄲	-11.8829
股栗	-11.8829
収斂	-11.8829
翰苑	-11.8829
披靡	-11.8829
尚書右僕射	-11.883
善屬文	-11.883
肄業	-11.883
叶	-11.883
任其責	-11.883
沐浴	-11.8831
茭	-11.8831
忮	-11.8831
彫	-11.8831
宣徽使	-11.8831
聦	-11.8831
陬	-11.8832
齋醮	-11.8832
秘書郎	-11.8832
阡	-11.8832
灑落	-11.8833
在相位	-11.8833
宙	-11.8833
無極而太極	-11.8833
袵	-11.8833
滴	-11.8833
鏖戰	-11.8835
顧忌	-11.8835
穎悟	-11.8835
董仲舒	-11.8836
㐫	-11.8837
中書門下	-11.8837
淂	-11.8837
吕誨	-11.8837
爱	-11.8838
訢	-11.8838
優㳺	-11.8839
元年畫界自	-11.8839
誤認	-11.8839
給事御史	-11.8841
撫綏	-11.8842
羣盗	-11.8847
堯佐	-11.8847
英毅	-11.8848
何面目	-11.8848
輪對	-11.8849
資治通鑑	-11.8849
相友善	-11.8849
彌篤	-11.8852
有力焉	-11.8854
鄂鼐	-11.8856
鴻訓	-11.8856
丁壯	-11.8856
色克圖	-11.8857
鎭江	-11.8861
鄒魯	-11.8864
應辰	-11.8876
荆門	-11.8877
轉輸	-11.8884
布顔圖	-11.8886
四十七	-11.8896
氏族散處於	-11.8902
又敗賊偽	-11.8907
年十四	-11.8909
日殫	-11.8914
論者謂	-11.8916
達爾濟	-11.8917
包衣人来歸年分無	-11.8928
眼前	-11.8932
雲梯	-11.8937
下手處	-11.8938
兵二萬餘衆	-11.8938
諡曰文	-11.8977
國子學	-11.8989
年四十七	-11.8993
三等侍衞	-11.9023
次崖	-11.9034
路轉運使	-11.9039
吏部郎	-11.9042
四年二月	-11.9045
親製	-11.905
百四十	-11.9052
邕州	-11.9055
鑲黃旗人世居	-11.9062
嘉祐二年	-11.9063
原任遊擊	-11.9075
定鼎燕京	-11.9084
固嚕什喜	-11.9104
八旗滿洲氏族通譜目錄卷	-11.9107
耘	-11.9108
以病罷子	-11.9109
内閣學士兼禮部侍郎	-11.9111
喀拉沁地方	-11.9111
卹	-11.9112
恩詔所加之職承襲雲騎尉	-11.9112
郭爾羅斯	-11.9112
扎薩克和碩親王	-11.9113
雅爾哈善	-11.9113
職時削去	-11.9114
糺	-11.9114
現任二等䕶衛	-11.9114
▁初來歸其曾孫	-11.9115
鹹	-11.9115
松山杏山	-11.9115
以上俱係天聰時来歸之人	-11.9116
右係天聰時来歸之人	-11.9116
授雲騎	-11.9116
偵噶爾丹	-11.9117
逹爾瑪	-11.9117
乞終養	-11.9118
尙	-11.9119
褘	-11.9119
形而下者	-11.912
朋素克喇布坦	-11.912
都部署	-11.912
郕	-11.9121
輟視朝	-11.9121
瞑	-11.9121
贐	-11.9121
俶	-11.9122
夢寐	-11.9122
不慮而知	-11.9123
等處屢	-11.9124
悴	-11.9124
髻	-11.9124
無考其子	-11.9124
原任博士	-11.9125
髣	-11.9125
人欲之私	-11.9125
榘	-11.9125
霾	-11.9126
溷	-11.9126
巔	-11.9126
居無何	-11.9126
無忌憚	-11.9126
駙馬都尉	-11.9127
尼喀達	-11.9127
統制官	-11.9127
熖	-11.9127
猿	-11.9128
訝	-11.9129
牝	-11.9129
猺	-11.9129
濳	-11.9129
今獻備遺	-11.9129
陴	-11.913
臨洮	-11.913
躓	-11.913
伶	-11.9131
愎	-11.9131
崇政殿説書	-11.9131
爪牙	-11.9131
蹂	-11.9131
腕	-11.9132
順治三年	-11.9132
賾	-11.9133
耳目口鼻	-11.9133
矍然	-11.9133
惋	-11.9134
丙戍	-11.9134
欝	-11.9134
涪陵	-11.9134
壅蔽	-11.9134
自成一家	-11.9135
糟	-11.9136
孝弟忠信	-11.9137
耿介	-11.9137
科都給事中	-11.9137
二十萬衆	-11.9137
箝	-11.9138
原任千總	-11.9139
團練	-11.9139
雞鳴	-11.9139
𤨏	-11.9139
勺	-11.914
邪佞	-11.914
都督同知	-11.9141
鎮撫司	-11.9141
開言路	-11.9141
句句	-11.9142
墳墓	-11.9142
疇昔	-11.9143
以謝天下	-11.9143
薩弼	-11.9143
倉廩	-11.9144
同知樞宻院事	-11.9144
砲臺	-11.9144
泗水	-11.9144
墉	-11.9145
耿耿	-11.9146
纂述	-11.9147
閒住	-11.9149
二十巻	-11.9153
展轉	-11.9155
烺	-11.9155
曰妾聞	-11.9158
駐藏	-11.9158
規畫	-11.9162
不外乎	-11.9164
熈河	-11.9165
屏息	-11.9167
雌	-11.9167
薦於朝	-11.9167
律吕	-11.917
榮辱	-11.917
胡銓	-11.9171
羽林	-11.9171
驍騎校四世孫	-11.9171
兵一千	-11.9172
藍田	-11.9172
救荒	-11.9173
程子所謂	-11.9174
輟朝	-11.9175
嚴整	-11.9177
原任委署䕶軍叅領	-11.9179
恩詔優	-11.9181
首肯	-11.9182
請告歸	-11.9191
豪右	-11.9192
直諒	-11.92
原任知州	-11.9214
與諸生講	-11.9222
千八百	-11.9224
曷嘗	-11.9237
即位之初	-11.9269
弟姪	-11.928
學訓導	-11.928
歴任都統	-11.9299
右庶子	-11.9314
都元帥	-11.9333
千七百	-11.9334
年二十六	-11.9339
授騎都尉三遇	-11.9368
縁事革退其親弟	-11.9382
五千餘	-11.9382
襲職卒無嗣	-11.9385
嵗饑	-11.9392
六欽定四庫全書	-11.9394
賊李定國	-11.9394
鄂斯璊	-11.9399
四十七代	-11.9404
曰嘻	-11.9414
吐魯畨	-11.9419
初次襲	-11.942
授所部副將軍	-11.942
齊巴克扎布	-11.942
賜三眼孔雀翎	-11.9421
䇿旺扎布	-11.9421
定鼎燕京時入山海闗擊敗流	-11.9424
屢著軍功	-11.9424
洒落	-11.9425
哲庫訥	-11.9426
瑭	-11.9426
砂	-11.9426
駱	-11.9427
逹瓦齊	-11.9428
百餘萬	-11.9429
血肉	-11.943
鄭親王濟爾哈朗	-11.943
伊爾根覺羅氏	-11.9431
貝子品級	-11.9431
鷙	-11.9431
十有一	-11.9432
包衣管領下人世居撫順地方	-11.9432
延和殿	-11.9432
鷺	-11.9432
糅	-11.9432
巴達克山	-11.9433
滬	-11.9433
溘	-11.9434
止於至善	-11.9434
詵	-11.9434
蔭	-11.9435
厦	-11.9436
娘	-11.9436
肢	-11.9436
諒祚	-11.9436
劉大夏	-11.9437
户部右侍郎	-11.9437
煞	-11.9438
瑚什塔	-11.9438
軋	-11.9438
以上俱係来歸年分無考之人	-11.9438
犖	-11.9438
鴨	-11.9439
喝	-11.9439
脆	-11.9439
濂洛	-11.9439
孟子道性善	-11.944
眺	-11.944
不學不慮	-11.944
巡狩	-11.944
隰	-11.9441
國子監直講	-11.9441
遄	-11.9441
應事接物	-11.9441
司馬温公	-11.9441
灑掃	-11.9441
珊	-11.9441
隨處體認天理	-11.9442
纍	-11.9442
摶霄	-11.9443
俘斬	-11.9443
根柢	-11.9443
罅	-11.9443
慥	-11.9444
駙馬	-11.9444
摠	-11.9444
墀	-11.9444
三班院	-11.9444
高攀龍	-11.9445
籌畫	-11.9446
嘯聚	-11.9446
蓮花	-11.9446
秘書省	-11.9447
胡瑗	-11.9447
湟	-11.9447
通事官	-11.9447
河中府	-11.9447
楊文貞	-11.9447
肱	-11.9447
勤王之師	-11.9448
巋	-11.9448
虎豹	-11.9448
剋	-11.9448
竹帛	-11.9448
宋王當撰	-11.9449
建中靖國	-11.9449
玩味	-11.9449
偃蹇	-11.945
稼穡	-11.945
捃	-11.945
顗	-11.945
暖	-11.9451
費禕	-11.9451
梅花	-11.9451
榭	-11.9452
魏大中	-11.9453
如成人	-11.9454
嗜酒	-11.9454
宵遁	-11.9455
兒童	-11.9456
梁丘據	-11.9456
束帛	-11.9457
馮從吾	-11.9457
沿邊	-11.9458
蒯	-11.9458
瞞	-11.9459
兼太子太傅	-11.946
恬退	-11.9461
奔潰	-11.9462
豫親王	-11.9462
亷潔	-11.9462
辭不允	-11.9462
天地鬼神	-11.9463
羅織	-11.9465
孝㢘	-11.9466
副總兵	-11.9466
錢穀	-11.9467
督餉	-11.9468
嬰聞之	-11.9468
虞廷	-11.9469
節鉞	-11.947
納欵	-11.947
考訂	-11.9471
謚忠	-11.9472
甲戍	-11.9474
頓悟	-11.9474
赴行在	-11.9475
闗羽	-11.9479
不足恃	-11.9479
睿宗	-11.9481
讀其書	-11.9482
剛介	-11.9488
垂訓	-11.9489
集行世	-11.9492
而言謂之	-11.9515
孔子孔子	-11.9526
其餘無事蹟可立傳者附載於後正紅旗	-11.9536
海濵	-11.9537
州司法	-11.9542
克嚕倫河	-11.9564
内管領	-11.9576
九世孫	-11.9577
論天下事	-11.958
卦爾察	-11.9592
▁加之職現襲騎	-11.9602
定鼎燕京時入山海	-11.9619
進士歴官	-11.9636
偽都督	-11.9642
東林黨	-11.9642
十有三	-11.9701
十七年卒子	-11.9704
任典儀	-11.972
麒	-11.9726
癸	-11.974
原任三等䕶	-11.9742
义	-11.9745
色布騰巴爾珠爾	-11.9746
滕吉思	-11.9746
和闐	-11.9746
斑	-11.9746
阿庫里	-11.9746
世宗憲皇帝	-11.9747
羅多理	-11.9748
和碩額駙	-11.9749
芾	-11.9751
授副盟長	-11.9751
命御前行走	-11.9751
草壩	-11.9751
兑	-11.9751
鍼	-11.9751
現任二等䕶衞	-11.9752
掄	-11.9752
薇	-11.9753
充經筵講官	-11.9754
戱	-11.9754
從征浙江舟山	-11.9755
遴	-11.9755
至聖文宣王	-11.9755
怵	-11.9756
原任䕶軍叅領兼佐領	-11.9756
著勞績	-11.9757
掌詹事府事	-11.9757
恆	-11.9758
嘲	-11.9758
兢兢業業	-11.9758
當此之時	-11.9759
熏	-11.9759
啄	-11.9759
稹	-11.9759
俎豆	-11.9759
光禄寺丞	-11.9759
藐	-11.976
知審官院	-11.976
升遐	-11.976
左春坊大學士	-11.976
肺腑	-11.9761
恁	-11.9761
氏家世學派按	-11.9761
性與天道	-11.9761
楮	-11.9762
不遺餘力	-11.9762
菩	-11.9762
巍巍	-11.9762
貰	-11.9762
蚌	-11.9763
諸葛武侯	-11.9763
大理少卿	-11.9763
黽	-11.9763
娱	-11.9764
正藍旗包衣人世居	-11.9764
孩	-11.9764
㩁	-11.9765
屛	-11.9765
炬	-11.9766
鉗	-11.9766
體用一原	-11.9766
厠	-11.9766
尚書左僕射	-11.9766
昭文館大學士	-11.9766
緍	-11.9766
博文約禮	-11.9767
霅	-11.9767
名臣言行録	-11.9767
鳬	-11.9767
鮒	-11.9768
韓侂胄	-11.9768
鹵簿	-11.9768
惻怛	-11.9768
曦	-11.9768
兼翰林院學士	-11.9768
弧	-11.9769
陋巷	-11.9769
罕篤	-11.9769
爼	-11.9769
俚	-11.9769
翰林院庶吉士	-11.977
緝熈	-11.977
壠	-11.977
通謨克	-11.977
范祖禹	-11.9771
瓖	-11.9771
媪	-11.9771
晡	-11.9771
尹和靖	-11.9772
驕恣	-11.9772
原任員外郎兼佐領	-11.9773
冦凖	-11.9774
翰林院學士	-11.9774
廊廟	-11.9774
吠	-11.9774
誅戮	-11.9774
無思無為	-11.9774
堯舜禹湯文武	-11.9774
乖戾	-11.9775
人心道心	-11.9775
檢㸃	-11.9775
鹽課	-11.9776
耴	-11.9777
優恤	-11.9777
感慨	-11.9777
租賦	-11.9777
敖漢	-11.9777
顆	-11.9777
芻粟	-11.9777
鰥寡	-11.9778
杜衍	-11.9779
貪墨	-11.978
忠讜	-11.978
召赴闕	-11.9781
硬	-11.9781
蝦	-11.9783
蒼頭	-11.9786
僚佐	-11.9786
端緒	-11.9787
昌齡	-11.9788
開禧	-11.9788
征貴州	-11.9789
元昊叛	-11.979
口舌	-11.9792
社倉	-11.9793
元昊反	-11.9793
地方来歸年分無考其	-11.9794
榻前	-11.9799
七欽定四庫全書	-11.9802
弋陽	-11.9805
董卓	-11.9807
千餘級	-11.9811
致中和	-11.9814
正黃旗	-11.9826
賜誥命	-11.9826
擊賊有功	-11.9832
不勞而	-11.9833
否先生曰	-11.9834
尼馬察	-11.9849
黑色	-11.9853
南京兵部尚書	-11.9868
心之所發	-11.9876
姓其氏族	-11.9885
御製詩	-11.9895
建寧府	-11.9896
襲職卒其親弟	-11.9916
千有餘	-11.992
同事者	-11.9947
千頃	-11.9949
来歸年分無考其子	-11.9978
授户部主事	-12.0012
其餘無事蹟可立傳者附載於後鑲白旗	-12.0019
乾隆十八年	-12.0033
乾隆二十年	-12.0038
敘功優授	-12.0058
烏黙客	-12.0074
以上俱係應立𫝊之人	-12.0075
授為二等男	-12.0075
車登扎布	-12.0076
偽將何繼祖等兵於石門坎黄草壩	-12.0079
圍錦州擊敗松山	-12.008
從征凖噶爾在和通呼爾哈腦爾	-12.008
贈騎都尉其子	-12.008
鎮國將軍	-12.008
湫	-12.0081
上駟院	-12.0081
殿閣詞林記巻	-12.0081
檝	-12.0082
鑲藍旗包衣管領下人世居瀋陽地方	-12.0082
這箇	-12.0082
航	-12.0082
刹	-12.0083
䧏	-12.0083
靑	-12.0084
抛	-12.0084
都察院右僉都御史	-12.0085
四十六年詔世襲罔替	-12.0086
忙	-12.0087
天聰時來歸之人	-12.0088
斥堠	-12.0088
清源文獻	-12.0089
悌	-12.0089
黒達色	-12.0089
克已復禮	-12.009
糧餉	-12.009
溝壑	-12.009
瀝	-12.0091
未之有也	-12.0092
埕	-12.0092
所著有四書	-12.0092
甃	-12.0092
識與不識	-12.0093
千變萬化	-12.0093
詒	-12.0093
把捉	-12.0093
昃	-12.0093
棐	-12.0093
湊泊	-12.0094
㴱	-12.0094
盈天地間	-12.0094
臚	-12.0094
賛善大夫	-12.0094
瘴癘	-12.0094
鋐	-12.0094
旃	-12.0094
即皇帝位	-12.0095
翅	-12.0095
鬰	-12.0095
謝病歸	-12.0095
發運使	-12.0096
髠	-12.0096
有惠政	-12.0096
居敬窮理	-12.0096
牛鈕	-12.0096
穡	-12.0096
當世之務	-12.0097
乾隆四十六年	-12.0097
不旋踵	-12.0097
繚	-12.0097
疽	-12.0098
衣一襲	-12.0098
匄	-12.0098
伴讀	-12.0098
執弟子禮	-12.0098
斬以徇	-12.0098
中後所	-12.0098
以城降	-12.0098
莘老	-12.0099
桓桓	-12.0099
奢侈	-12.0099
翫	-12.0099
懟	-12.01
秘書少監	-12.01
葆	-12.01
誥勅	-12.01
右係康熙時自科爾沁撤囘之人	-12.01
裾	-12.01
饟	-12.0101
莫大焉	-12.0101
天地萬物之理	-12.0101
運籌	-12.0101
愷悌	-12.0101
縋	-12.0101
倥	-12.0101
苞苴	-12.0101
纊	-12.0102
館閣校勘	-12.0102
判太常寺	-12.0102
祟	-12.0103
周程張朱	-12.0103
柴桑	-12.0103
暱	-12.0103
歐陽脩	-12.0103
鴉	-12.0103
左氏春秋	-12.0104
捲	-12.0104
頴敏	-12.0104
牴牾	-12.0104
整齊嚴肅	-12.0104
絪	-12.0105
邊邊界以外	-12.0105
晏殊	-12.0106
召赴行在	-12.0106
閣待制	-12.0107
古今治亂	-12.0107
贈太尉	-12.0107
曼卿	-12.0108
児	-12.0108
閭巷	-12.0108
屑屑	-12.0109
陌	-12.0109
㓙	-12.011
雲霄	-12.0111
掣	-12.0111
資禀	-12.0111
鄢陵	-12.0111
傳記類	-12.0112
鍔	-12.0113
桐廬	-12.0114
种師道	-12.0116
械送	-12.0118
閫外	-12.0119
暐	-12.012
阿嚕	-12.012
汴京	-12.0122
曽大父	-12.0124
座右	-12.0124
太子賔客	-12.0129
現任頭等䕶衛	-12.013
孝宗即位	-12.0131
閒暇	-12.0148
賚幣	-12.0155
墾田	-12.0157
其親伯之子	-12.0198
垓	-12.0207
把總一	-12.0224
卦爾察地方	-12.0248
乾隆三十六年	-12.0251
松花江	-12.0254
五十巻	-12.027
毫髮	-12.0282
御經筵	-12.0317
由閒散從征	-12.033
陣斬	-12.0367
耿精忠	-12.041
任内副管領	-12.0412
噶岱黙特	-12.0413
柰	-12.0413
翁牛特	-12.0415
兼一雲騎	-12.0417
襲七次襲	-12.0417
克爾森齊老	-12.0419
察罕廋爾	-12.0419
心意知物	-12.0423
原任六品典儀	-12.0423
現任副䕶軍	-12.0424
舒赫徳	-12.0424
和碩特族	-12.0425
定鼎燕京時入山海闗擊	-12.0425
費英東扎爾固齊	-12.0426
杉	-12.0428
紡	-12.0429
畚	-12.0429
㕘贊大臣	-12.0429
發而中節	-12.0429
集二十卷	-12.0429
羅卜藏錫喇布	-12.043
佺	-12.043
陕	-12.043
富貴貧賤	-12.0432
擐	-12.0432
漬	-12.0433
僞	-12.0434
别有𫝊	-12.0434
沿途	-12.0434
棊	-12.0434
里東界	-12.0435
簀	-12.0435
串	-12.0435
抹	-12.0435
裏塘	-12.0436
錦衣衞	-12.0436
阿爾布巴	-12.0436
逈	-12.0437
溍	-12.0437
滚	-12.0438
讃	-12.0438
邽	-12.0438
詗	-12.0438
翥	-12.0438
璜	-12.0439
詹事府少詹事	-12.044
嫚	-12.044
明名臣琬琰續録卷	-12.0441
觔	-12.0441
翰林庶吉士	-12.0441
視聴言動	-12.0441
酧	-12.0441
迂濶	-12.0441
刄	-12.0442
司𨽻校尉	-12.0442
澣	-12.0442
燥	-12.0442
胡敬齋	-12.0442
蕪湖	-12.0442
魏鄭公	-12.0443
卒無嗣弟	-12.0443
讞獄	-12.0444
軍節度推官	-12.0444
晤	-12.0444
李清臣	-12.0444
瓉	-12.0444
颺	-12.0444
蹊	-12.0444
李林甫	-12.0445
驪	-12.0445
翕聚	-12.0445
鄉愿	-12.0445
騏	-12.0446
戊戍	-12.0446
甓	-12.0446
項羽	-12.0446
幅巾	-12.0446
餅	-12.0446
有父風	-12.0447
李時勉	-12.0447
眇	-12.0448
子太叔	-12.0448
耆儒	-12.0448
建昌府	-12.0448
蟄	-12.0448
博果宻	-12.0449
工部員外郎	-12.0449
喙	-12.0449
紹熙	-12.0449
推轂	-12.0449
衣裳	-12.045
朱泚	-12.045
衎	-12.045
司禮監	-12.0451
負笈	-12.0451
鴆	-12.0451
奮勵	-12.0451
羿	-12.0452
賈似道	-12.0452
遘	-12.0452
右諌議大夫	-12.0453
扶溝	-12.0453
歌舞	-12.0453
旦暮	-12.0454
吕大防	-12.0454
皐	-12.0455
嫁娶	-12.0455
貨財	-12.0455
復原官	-12.0456
彤	-12.0456
上謂宰執曰	-12.0456
夏竦	-12.0457
遵巖	-12.0457
吏科給事中	-12.0458
航海	-12.0458
雇	-12.0459
建炎三年	-12.046
雲南擊敗賊偽將何繼祖等	-12.0461
供帳	-12.0461
鮑叔	-12.0462
崇禎元年	-12.0464
楊沂中	-12.0464
灾異	-12.0465
承宣使	-12.0466
掖庭	-12.0467
營繕	-12.0476
州司理	-12.0491
浩浩	-12.05
妣某氏	-12.0513
告訐	-12.0522
雍正五年	-12.0536
年四十八	-12.0545
何也對曰	-12.0606
克嚕倫	-12.0609
憂服除	-12.0662
品通事官	-12.0669
頭等侍衞	-12.0671
係監生	-12.0722
任三等䕶衞	-12.074
任八品官	-12.0756
為世所	-12.0757
索諾木達什	-12.0763
䕶軍㕘領	-12.0768
賽因諾顔部	-12.0771
穆哈連	-12.0777
山之陽	-12.0778
諾捫	-12.078
斬獲甚衆	-12.078
由正黄旗改隸	-12.0781
彖	-12.0782
原任内閣侍讀學士	-12.0782
沙克都爾曼濟	-12.0783
愚夫愚婦	-12.0786
兊	-12.0786
希佛訥	-12.0787
經略安撫使	-12.0787
滿洲都統	-12.0787
納喇氏	-12.0787
恩詔加至二等輕車都尉卒其子	-12.0787
工部右侍郎	-12.0787
原係騎都尉	-12.0787
噶爾亶多爾濟	-12.0788
敘功授雲騎尉卒其子	-12.0789
這裏	-12.0789
琯	-12.079
賊馬歩兵二十萬衆	-12.079
繄	-12.079
棼	-12.079
大同宣府	-12.079
啓沃	-12.079
埸	-12.079
莪	-12.0791
原任内管	-12.0793
好善惡惡	-12.0793
澠	-12.0794
崕	-12.0794
州觀察推官	-12.0794
蓍	-12.0794
亂臣賊子	-12.0794
殍	-12.0795
窶	-12.0796
這裡	-12.0796
尤長於	-12.0796
枷	-12.0796
正白旗包衣旗鼓人世居	-12.0797
哭之慟	-12.0797
杼	-12.0797
删	-12.0797
婚姻	-12.0798
薨年六十	-12.0798
沼	-12.0798
攙	-12.0798
鉅鹿	-12.0799
尭	-12.0799
程顥	-12.0799
遘疾	-12.0799
黙坐澄心	-12.0799
闌	-12.0799
閟	-12.0799
嗚	-12.08
宣宗皇帝	-12.08
緼	-12.08
秘書省正字	-12.08
鎔	-12.0801
光禄卿	-12.0801
中統元年	-12.0801
桷	-12.0801
啜	-12.0801
屈膝	-12.0801
嵐	-12.0801
戶	-12.0802
崑崙	-12.0802
千仞	-12.0802
寤寐	-12.0803
嶮	-12.0803
出其不意	-12.0803
嚼	-12.0803
宸翰	-12.0803
珤	-12.0803
為内應	-12.0803
兔	-12.0804
彌縫	-12.0804
挹	-12.0804
聾	-12.0804
洋洋	-12.0804
曖	-12.0805
彜	-12.0805
光禄少卿	-12.0805
覯	-12.0805
齪	-12.0805
洶	-12.0806
隂陽五行	-12.0806
﨑嶇	-12.0807
苞	-12.0807
壟	-12.0807
藜	-12.0807
堞	-12.0807
旭	-12.0807
㬰	-12.0807
宋名臣言行錄後集巻	-12.0808
懶	-12.0808
纖	-12.081
酈瓊	-12.081
諶	-12.0811
西陲	-12.0811
國子監丞	-12.0811
竪	-12.0812
掎角	-12.0813
賜金幣	-12.0814
溉田	-12.0814
添差	-12.0815
下邳	-12.0815
悆	-12.0816
蘄黄	-12.0816
豪邁	-12.0816
以自警	-12.0816
所共知	-12.0817
江寧府	-12.0817
真徳秀	-12.0818
犧	-12.0818
韓𤦺	-12.0818
庭芝	-12.0818
石麒	-12.0818
臼	-12.0819
閑邪	-12.082
么	-12.082
億兆	-12.082
神宗皇帝	-12.0828
捍禦	-12.0831
好事者	-12.0833
萬八千	-12.0845
𢎞範	-12.0855
進士授行人	-12.0861
叱之曰	-12.0869
恩詔所加之職承襲騎都尉兼一雲騎尉	-12.089
順治二年	-12.0895
拙齋	-12.09
太上皇帝	-12.0953
承襲三遇	-12.0968
来歸其曾孫	-12.0983
經筵日講	-12.0987
修元史	-12.099
正黄旗包衣管領下人世居	-12.1039
兼一雲	-12.1044
南京吏部尚書	-12.1044
𠞰達瓦齊	-12.1046
卒無嗣其親弟	-12.1076
懌	-12.1085
吉林烏喇地方人其	-12.1094
三百六十	-12.1103
儒林宗派卷	-12.1113
䕶軍恭領	-12.113
察罕喇布坦	-12.1136
正藍旗包衣人世居撫順地方來歸	-12.1136
多爾濟色布騰	-12.114
額布根	-12.1144
北極出地	-12.1147
藳	-12.1148
額色尹	-12.1149
璊	-12.115
蹠	-12.1151
車稜旺布	-12.1151
達什巴圖爾	-12.1151
車木楚克扎布	-12.1152
巴圗魯	-12.1152
賜巴圖魯號	-12.1152
克爾倫地方	-12.1153
原任藍翎	-12.1153
湸	-12.1154
布延圖	-12.1154
咱	-12.1154
笠	-12.1155
太僕寺卿	-12.1155
翌	-12.1155
圖克善	-12.1155
粘	-12.1155
扎木禪	-12.1156
娥	-12.1156
扄	-12.1157
鼇	-12.1159
庫爾禪	-12.116
荻	-12.1161
與物同體	-12.1161
原任五品典儀	-12.1161
癘	-12.1162
考試官	-12.1163
提學僉事	-12.1163
涘	-12.1163
揣摩	-12.1163
惲	-12.1163
湄	-12.1164
煌煌	-12.1164
絢	-12.1164
厝	-12.1164
懵	-12.1164
捜	-12.1165
兵馬都監	-12.1165
疴	-12.1165
筏	-12.1165
翰林檢討	-12.1165
以太牢	-12.1165
苫	-12.1166
寥寥	-12.1166
顛沛	-12.1166
濃	-12.1166
硜	-12.1167
艷	-12.1167
張元禎	-12.1167
提舉洞霄	-12.1167
原籍無考其孫	-12.1167
閼	-12.1167
入翰林為學士	-12.1168
廿	-12.1168
纎毫	-12.1168
有闕文	-12.1168
侯官人	-12.1169
紫荆	-12.1169
長白山地方人其孫	-12.1169
光祿寺丞	-12.117
箎	-12.117
區畫	-12.117
侣	-12.117
周茂叔	-12.117
衛指揮僉事	-12.117
立生祠	-12.117
惺	-12.1171
𣺌	-12.1171
渣滓	-12.1171
賜三品服	-12.1171
案牘	-12.1171
秦漢以來	-12.1172
錐	-12.1172
人生而靜	-12.1172
接伴	-12.1172
判吏部流内銓	-12.1173
湯思退	-12.1173
霈	-12.1173
謳	-12.1173
跣	-12.1173
潺	-12.1173
稗	-12.1173
炫	-12.1173
𤾉	-12.1174
片紙	-12.1174
豪猾	-12.1174
司經局	-12.1174
盲	-12.1174
刎	-12.1175
㽞	-12.1176
崛起	-12.1176
原任步軍副尉	-12.1176
皇貴妃	-12.1176
鬯	-12.1177
三綱五常	-12.1177
擾攘	-12.1177
縣太君	-12.1177
揉	-12.1178
天性孝友	-12.1178
卒無嗣其親弟之子	-12.1178
鉏	-12.1179
怙勢	-12.1179
虞允文	-12.118
袞	-12.118
瘼	-12.118
宋名臣言行錄外集巻	-12.1181
闘	-12.1181
縈	-12.1182
刑部員外郎	-12.1182
混淆	-12.1182
壓境	-12.1182
郭子儀	-12.1183
銘銘曰	-12.1183
踐祚	-12.1184
𤣥齡	-12.1186
左中允	-12.1187
儲蓄	-12.1188
悪	-12.1197
部郎官	-12.1198
寂寥	-12.1206
悼惜	-12.1206
諸先生學派	-12.1209
人原國初来歸其	-12.1224
懇懇	-12.1243
順天鄉試	-12.1245
兵數萬餘衆	-12.1266
族世居葉赫地方	-12.1279
贈淑人	-12.1281
雍正十一年	-12.1338
陸費墀欽定四庫全書	-12.1361
儲貳	-12.1363
陸費墀	-12.1368
兼一雲騎尉卒其子	-12.142
可泊北風船	-12.1442
范文正	-12.1483
喜峰口	-12.1521
東林列傳卷	-12.1526
墩五名	-12.1528
▁至一等輕車都尉	-12.1532
車凌䝉克	-12.1533
孛	-12.1536
玭	-12.1536
徳木楚克	-12.1537
初授二等台吉	-12.1537
旺沁扎布	-12.1537
正藍旗包衣旗鼓人世居瀋陽地方來	-12.1538
西拉木楞	-12.1539
隋煬帝	-12.154
晶	-12.154
諲	-12.154
明項篤夀撰	-12.154
前鋒侍衞	-12.154
柰曼	-12.1541
贊禮郎	-12.1541
恩詔加至三等輕車都尉卒其子	-12.1541
開物成務	-12.1541
安褚拉庫地方	-12.1541
祕書省校書郎	-12.1542
車稜達什	-12.1542
驃騎將軍	-12.1542
桞	-12.1542
桂萼	-12.1542
㓗	-12.1542
由鑲黄旗改隸	-12.1542
噶爾丹侵喀爾喀	-12.1542
理一分殊	-12.1543
㢲	-12.1543
袁崇煥	-12.1543
蓼	-12.1543
渾托和	-12.1544
鵲	-12.1544
璿	-12.1544
珝	-12.1544
汜	-12.1545
知性知天	-12.1545
都官郎中	-12.1545
秘閣修撰	-12.1545
枯槁	-12.1546
駞	-12.1546
縀	-12.1547
嚢	-12.1547
活潑潑地	-12.1547
鑲黄旗包衣旗鼔人世居瀋陽地方	-12.1547
州軍事推官	-12.1547
奩	-12.1548
係隸滿洲旗分之蒙古一姓	-12.1548
正白旗包衣管領下人世居遼陽地方	-12.1549
受賕	-12.1549
珦	-12.1549
擺	-12.155
克勤郡王	-12.155
包衣管領下人世居瀋陽地方	-12.155
舄	-12.155
新㑹縣	-12.155
英廟復辟	-12.1551
反身而誠	-12.1551
劭	-12.1551
珵	-12.1551
衮布扎布	-12.1552
熒	-12.1552
賵	-12.1552
邑庠生	-12.1552
仁人心也	-12.1553
顓頊	-12.1553
劘	-12.1553
氐	-12.1553
魏廣微	-12.1554
敭	-12.1554
㕘贊	-12.1554
丁外艱服除	-12.1554
畎	-12.1555
匝	-12.1555
便宜從事	-12.1555
義以方外	-12.1556
皇極經世	-12.1556
見孺子入井	-12.1556
陸贄	-12.1556
檢校太傅	-12.1556
雛	-12.1557
飫	-12.1557
鷗	-12.1557
鉢	-12.1557
成化丙戌	-12.1558
凍餒	-12.1558
南劍州	-12.1558
檣	-12.1558
愔	-12.1558
祕書丞	-12.1558
舉于鄉	-12.1558
珥	-12.1558
姥	-12.1558
迸	-12.1558
蕙	-12.1558
鎡	-12.1559
絶口不	-12.1559
纘	-12.1559
召試學士院	-12.1559
周延儒	-12.1559
踐阼	-12.1559
弃	-12.1559
賄賂	-12.156
斵	-12.156
萌芽	-12.156
鳶	-12.1561
桶	-12.1561
邴	-12.1561
自少至老	-12.1562
祲	-12.1562
者鮮矣	-12.1562
汰冗	-12.1563
弘	-12.1563
榕	-12.1563
星隕	-12.1563
供億	-12.1564
正典刑	-12.1564
赤眉	-12.1564
廕一子	-12.1564
蓍龜	-12.1565
諭以禍福	-12.1565
掛冠	-12.1566
寘之法	-12.1566
梃	-12.1566
隆興元年	-12.1566
喋	-12.1566
朱勝非	-12.1567
唐虞三代	-12.1568
斬馘	-12.157
起原官	-12.157
僇	-12.1571
改秩知	-12.1572
冏	-12.1573
不亦難乎	-12.1575
崔杼	-12.1577
欽定四庫全書東林列傳卷	-12.1577
雷電	-12.158
江西湖廣	-12.1585
有能不違指使	-12.1586
正藍旗人来歸年分無考	-12.1592
百餘級	-12.1616
欽定四庫全書名臣碑傳琬琰之集中巻	-12.1679
任佐領卒其	-12.1707
奮勇破賊有功授雲騎尉	-12.1716
人後徙	-12.1723
薩哈爾察	-12.1725
委署叅領	-12.175
任副䕶	-12.1778
綎	-12.1913
馘	-12.1924
綽囉斯	-12.1925
名臣碑傳琬琰之集下巻	-12.1926
四子部落	-12.1927
笛	-12.1928
鉦	-12.1929
揔	-12.1933
楊古利額駙	-12.1935
棟囉布	-12.1935
綽克托	-12.1935
多倫諾爾	-12.1936
考亭淵源録	-12.1936
告退其子	-12.1936
腦爾地方擊賊陣亡	-12.1937
恩詔加至三等男	-12.1937
恩詔所加之職承襲三等輕車都尉	-12.1937
碧禮克	-12.1937
妻以女	-12.1938
甚屬可嘉	-12.1939
輔國將軍	-12.1939
擊走之	-12.1939
嵓	-12.1941
阿勒達爾	-12.1941
綦	-12.1941
綽克圖	-12.1941
多岳特	-12.1942
壎	-12.1942
便宜行事	-12.1942
原任三等侍	-12.1942
陡	-12.1943
康濟鼐	-12.1943
呼圖克圖	-12.1943
明肅太后	-12.1944
集賢院學士	-12.1944
傳習録	-12.1944
籥	-12.1944
簪	-12.1945
天命之謂性	-12.1945
皦	-12.1945
嗚咽	-12.1946
饑饉	-12.1946
紬繹	-12.1947
玳	-12.1947
手不釋卷	-12.1948
瑺	-12.1948
嘔血	-12.1948
磊	-12.1949
正議大夫	-12.1949
无	-12.1949
秘書省校書郎	-12.195
張東白	-12.195
意必固我	-12.195
凟	-12.195
水陸並進	-12.1951
天然自有之	-12.1951
兩朝實録	-12.1951
白居易	-12.1951
元史入儒學傳	-12.1951
朱光庭	-12.1952
䦨	-12.1953
杰	-12.1953
殻	-12.1953
淸	-12.1953
邊陲	-12.1954
稾	-12.1954
灌溉	-12.1954
翰林院侍讀學士	-12.1954
瓶	-12.1954
允執厥中	-12.1954
赴水死	-12.1955
東莞	-12.1955
惴	-12.1955
上天之載無聲無臭	-12.1955
受國恩	-12.1956
鄠	-12.1956
喚醒	-12.1956
霍韜	-12.1956
緫	-12.1956
豚	-12.1956
障礙	-12.1956
仕元為	-12.1957
醖	-12.1957
宄	-12.1957
鉄	-12.1957
逡巡	-12.1958
悽	-12.1958
扎拉豐阿	-12.1958
怙寵	-12.1958
煌	-12.1958
昵	-12.1959
啟沃	-12.1959
祕書省正字	-12.1959
不亦宜乎	-12.1959
勍	-12.1959
鍳	-12.196
柁	-12.196
畦	-12.1961
遒	-12.1961
肘腋	-12.1961
媮	-12.1961
肘	-12.1961
韓爌	-12.1961
隷	-12.1962
麋	-12.1962
不共戴天	-12.1963
呻	-12.1963
曵	-12.1964
餽餉	-12.1965
㸑	-12.1966
鄢	-12.1966
大學士李賢	-12.1966
銜枚	-12.1967
霖雨	-12.1967
胡濙	-12.1967
立人極	-12.1968
憝	-12.1969
蔣冕	-12.1969
瘵	-12.1972
貞觀政要	-12.1972
猛獸	-12.1972
郡王品級	-12.1972
刑科給事中	-12.1972
蓐	-12.1974
匱乏	-12.1975
現任頭等侍衞	-12.1977
現任藍翎侍衞	-12.1989
璽書褒	-12.2002
▁魯號授騎都尉	-12.2039
候補筆帖式	-12.2059
從征江西湖廣	-12.2069
▁至三等	-12.2096
襲職縁事革退其	-12.2125
雍正三年	-12.2136
雍正十年	-12.2196
現係候補	-12.2243
無嗣其親伯	-12.2248
千緡	-12.229
董鄂地方	-12.2317
扎薩克一等台吉四十六年詔世襲罔替	-12.2336
原任護軍	-12.2337
三十五年上親征噶爾丹	-12.2342
浩齊特	-12.2343
阿嚕科爾沁	-12.2347
車臣汗烏黙客	-12.2347
里南北距	-12.2348
定北將軍班第	-12.2349
固爾班	-12.235
岫	-12.2351
杏壇	-12.2351
額爾濟圖	-12.2351
釗	-12.2351
係来歸年分無考之人	-12.2352
鑲藍旗包衣人天聰時来歸	-12.2353
吸	-12.2354
錫布推哈坦巴圖魯	-12.2354
岳鍾琪	-12.2354
三等鎮國將軍	-12.2355
正藍旗人世居大凌河地方來歸年	-12.2356
天順甲申	-12.2356
爪	-12.2357
武英郡王	-12.2357
世居訥殷江地方	-12.2358
彀	-12.2358
晳	-12.2358
正黄旗包衣人世居瀋陽地方來歸	-12.2358
原任司胙官	-12.2359
新會縣	-12.2359
倧	-12.2359
檢校太尉	-12.2359
塜	-12.236
宸衷	-12.236
王化貞	-12.236
博極羣書	-12.236
萬物皆備於我	-12.236
進士選庶吉士授編修	-12.236
兼東閣大學士	-12.236
旺布多爾濟	-12.2361
太廟齋郎	-12.2361
趺	-12.2361
隍	-12.2362
胞	-12.2362
宷	-12.2362
宣徽南院使	-12.2362
本來面目	-12.2362
禰	-12.2362
孫慎行	-12.2362
額貝都拉	-12.2363
下學上達	-12.2364
矩矱	-12.2364
碭	-12.2364
殊死戰	-12.2364
穪	-12.2364
蘋	-12.2365
崔呈秀	-12.2365
窪	-12.2365
贈太師諡文	-12.2366
歐陽文忠公	-12.2366
溶	-12.2366
屣	-12.2366
候閲定	-12.2367
封還詞頭	-12.2367
下錦衣獄	-12.2367
方從哲	-12.2367
庀	-12.2367
頰	-12.2367
瀑	-12.2368
鄂齊爾圖汗	-12.2368
耦	-12.2368
緝熙	-12.2368
一統志	-12.2368
茅茨	-12.2368
撙	-12.2368
列女傳	-12.2369
嚙	-12.2369
致知在格物	-12.2369
匍匐	-12.2369
康定元年	-12.2369
盂	-12.2369
兵馬鈐轄	-12.237
衽	-12.237
是役也	-12.237
謩	-12.237
格埒克延丕勒	-12.237
嗜慾	-12.2371
崇禎改元	-12.2372
𨗳	-12.2372
桴	-12.2372
簮	-12.2372
銀千兩	-12.2372
緜	-12.2372
凄	-12.2372
憇	-12.2372
嗤	-12.2373
謗訕	-12.2373
纖毫	-12.2373
聪	-12.2373
以夀終	-12.2374
不動聲色	-12.2374
卬	-12.2374
彘	-12.2374
兗	-12.2374
埃	-12.2374
鋟	-12.2374
都虞候	-12.2375
樓櫓	-12.2375
尖	-12.2375
夤縁	-12.2375
歧	-12.2375
嗔	-12.2375
票擬	-12.2375
寰宇通志	-12.2376
雝	-12.2376
蔣琬	-12.2376
掌院事	-12.2376
讚	-12.2377
适	-12.2377
窆	-12.2377
宋朱子纂集	-12.2377
刖	-12.2378
鼎鑊	-12.2378
禺	-12.2378
埀簾	-12.2378
未晚也	-12.2378
提舉常平	-12.2378
賕	-12.2379
平旦之氣	-12.2379
脗	-12.2379
醢	-12.2379
嘑	-12.238
百匹	-12.238
㟁	-12.238
肸	-12.2381
僃	-12.2381
萇	-12.2381
淖	-12.2383
事無大小	-12.2383
紅丸	-12.2384
夥	-12.2384
仄	-12.2385
禠	-12.2386
殂	-12.2386
俎	-12.2386
欽定四庫全書名臣碑傳琬琰之集下巻	-12.2386
宣仁后	-12.2387
筒	-12.2387
雇役	-12.2387
所以然者	-12.239
􁐻	-12.2406
曰何謂也	-12.246
督郵	-12.2475
從征厄魯特噶	-12.2484
盡性至命	-12.2493
懇惻	-12.2504
兀魯特	-12.2529
錦衣指揮	-12.254
征厄魯特噶爾丹	-12.2669
贈一雲	-12.2673
聰時来歸其孫	-12.2718
於石門坎	-12.2726
三都布多爾濟	-12.2773
卒其親伯	-12.2776
鳶魚	-12.2778
虬	-12.2778
阿巴哈納爾	-12.2778
喇嘛扎布	-12.278
珀	-12.2782
里東西距	-12.2783
未娶曽祖	-12.2784
英親王阿濟格	-12.2784
喀爾沁	-12.2785
性即理也	-12.2785
伯什阿噶什	-12.2785
圖拉河	-12.2786
棧	-12.2786
奮不顧身	-12.2787
埭	-12.2787
魯克沁	-12.2788
布隆吉爾	-12.2788
杭愛山	-12.2788
笙	-12.2789
奉恩將軍	-12.2791
花馬池	-12.2791
全活甚衆	-12.2793
十五日生外氏	-12.2794
獻馬助	-12.2794
資政大夫	-12.2794
鯀	-12.2795
都察院左都御史	-12.2796
埓	-12.2796
菑	-12.2797
耳目口鼻四肢	-12.2798
鞾	-12.2798
元亨利貞	-12.2799
糾察在京刑獄	-12.2799
皜	-12.2799
濙	-12.2799
泫	-12.2799
見而竒之	-12.2799
攫	-12.28
千言萬語	-12.28
金紫光禄大夫	-12.2801
晞	-12.2801
史彌逺	-12.2801
舉遺逸	-12.2802
澌	-12.2802
進士及第授編修	-12.2802
軻	-12.2802
沓	-12.2803
察哈爾林丹汗	-12.2803
咀	-12.2803
熄	-12.2803
至忘寢食	-12.2803
中奉大夫	-12.2803
腥	-12.2803
穏	-12.2804
莫善於	-12.2804
贈太保諡	-12.2804
藝文志	-12.2804
恫	-12.2805
庫庫特穆爾	-12.2805
知是知非	-12.2805
鏖	-12.2805
囹圄	-12.2805
阮大鋮	-12.2806
元名臣事畧巻	-12.2806
瑁	-12.2807
凛凛	-12.2807
瞶	-12.2807
家無餘財	-12.2807
夘	-12.2808
楯	-12.2808
萬物皆備	-12.2808
知無不為	-12.2808
葭	-12.2808
値	-12.2809
戒謹恐懼	-12.2809
蹊徑	-12.2809
秘書丞	-12.2809
琉球	-12.2809
犍	-12.281
䜿	-12.281
楊漣左光斗	-12.281
太一宫	-12.281
珉	-12.281
閥	-12.2811
啗	-12.2811
槨	-12.2811
豳	-12.2811
婣	-12.2811
譜牒	-12.2812
鄕	-12.2812
綾	-12.2812
瞢	-12.2812
環堵	-12.2812
鼈	-12.2813
鶉	-12.2813
肺肝	-12.2814
舸	-12.2814
溜	-12.2814
骨鯁	-12.2814
扆	-12.2814
苔	-12.2815
博通經史	-12.2815
釵	-12.2815
沴	-12.2815
明儒言行録	-12.2815
靦	-12.2816
崔銑	-12.2816
征山東梯攻	-12.2816
右春坊大學士	-12.2817
逭	-12.2817
存心養性	-12.2819
荔枝	-12.2819
幸其第	-12.2819
怍菴	-12.282
係副驍	-12.2821
佗	-12.2822
脯	-12.2823
繭	-12.2823
竆	-12.2828
諸葛忠武書	-12.283
所從來	-12.2903
藍翎侍衛	-12.3099
因病告退其	-12.3104
破流賊滅福	-12.311
加一雲騎尉三遇	-12.3117
鄣	-12.322
傅爾丹	-12.3222
林丹汗	-12.3224
侁	-12.3225
䝉克特穆爾	-12.3227
和託輝特逆賊青衮咱卜	-12.3233
塔密爾	-12.3235
三十年迎覲多倫諾爾	-12.3236
桑齋多爾濟	-12.3236
轟	-12.3236
通鑑綱目	-12.3238
巴顔烏蘭	-12.3238
哷	-12.3239
沌	-12.3239
晃	-12.3239
修齊治平	-12.3241
礮	-12.3241
尚寳司丞	-12.3241
▁尉無嗣	-12.3241
流賊李自成	-12.3242
伊常阿	-12.3242
和通呼爾哈腦爾地方擊賊陣亡	-12.3243
鑣	-12.3243
締	-12.3243
萎	-12.3244
跖	-12.3245
世居佟佳地方	-12.3245
海寇鄭成	-12.3245
造次顛沛	-12.3246
佟養正同族	-12.3246
凃	-12.3246
一動一静	-12.3248
程伯子	-12.3248
兵部左侍郎	-12.3249
緊	-12.3249
鄂爾齋圖	-12.3249
絞	-12.325
痼	-12.3251
碌碌	-12.3251
痕	-12.3251
僅以身免	-12.3252
經明行修	-12.3252
爚	-12.3252
徜徉	-12.3252
博碩克圖濟農	-12.3252
閈	-12.3253
時入山海闗擊敗流	-12.3253
右諸儒傳	-12.3253
集賢殿修撰	-12.3253
榮祿大夫	-12.3254
動而生陽	-12.3254
埔	-12.3254
鑲紅旗包衣人世居	-12.3254
哦	-12.3254
煮	-12.3255
皥	-12.3255
車木楚克納木扎勒	-12.3255
庄	-12.3256
合内外之道	-12.3256
闋	-12.3256
景靈宫	-12.3256
虺	-12.3257
朝請郎	-12.3257
肌	-12.3257
碁	-12.3257
墓誌銘歐陽修	-12.3257
礫	-12.3258
肴	-12.3258
喘	-12.3258
蜒	-12.3258
頎	-12.3258
鵞	-12.3258
砭	-12.3258
荔	-12.3258
菱	-12.3259
汧	-12.3259
翛	-12.3259
紵	-12.3259
娠	-12.3259
幇	-12.3259
諗	-12.3259
審刑院	-12.3259
正白旗包衣旗鼔人世居瀋陽地方	-12.326
賍	-12.326
噤	-12.326
徂徠	-12.326
饘粥	-12.326
摳	-12.326
寬	-12.3261
按貞觀政	-12.3261
鴿	-12.3261
羅整菴	-12.3261
剩	-12.3261
正藍旗包衣人来歸年分無	-12.3262
按察司副使	-12.3262
泊南風船	-12.3263
袴	-12.3263
滓	-12.3263
諤諤	-12.3263
釣磯	-12.3263
縞	-12.3264
汪文言	-12.3264
搶	-12.3264
矛	-12.3265
駸駸	-12.3265
琚	-12.3265
磴	-12.3265
鈴	-12.3266
監修國史	-12.3267
梵	-12.3267
欷	-12.3268
剌	-12.3268
釘	-12.3268
弓箭手	-12.3268
衛班領	-12.3268
判流内銓	-12.3269
盻	-12.3269
天地萬物為一體	-12.3269
正色立朝	-12.327
滲漏	-12.327
嚭	-12.3272
𧺫	-12.3272
撝	-12.3273
知諌院	-12.3273
捽	-12.3273
徔	-12.3274
畿甸	-12.3274
邂	-12.3275
糠	-12.3275
詖	-12.3276
讟	-12.3276
卒無嗣其親兄之子	-12.328
唁	-12.3281
飮	-12.3283
曰敢問	-12.3292
兵於黄草壩	-12.3326
爾固齊	-12.3334
界凡地方	-12.3366
雍正七年	-12.3387
明名臣琬琰録卷	-12.3473
欽定四庫全書明名臣琬琰録卷	-12.3528
○○○	-12.353
藍翎侍衞	-12.3597
五次襲	-12.3641
年老告退其	-12.3661
年襲扎薩克多羅杜稜郡王	-12.3674
額璘臣	-12.3698
扈駕木蘭行圍賜孔雀翎	-12.3707
塔勒納沁	-12.3707
青海和碩特人姓博爾濟吉特	-12.3708
蛋	-12.3708
知樞宻院事	-12.3711
蚊	-12.3712
畢哩克	-12.3716
一隂一陽之謂道	-12.3718
整儀尉	-12.3719
名臣碑傳琬琰之集中	-12.3719
三等奉國將軍	-12.3719
有善無惡	-12.3719
恩詔所加之職承襲二等輕車都尉	-12.3719
詔後軍功所得之職	-12.3719
由廢員	-12.372
金台石	-12.372
額琳哈畢爾噶	-12.3721
砮	-12.3722
皁	-12.3722
劬	-12.3723
嘏	-12.3723
不改其樂	-12.3724
十有餘年	-12.3725
榔	-12.3725
徳格𩔖	-12.3726
禩	-12.3726
廏	-12.3726
癡	-12.3726
博囉塔拉	-12.3726
華蓋殿大學士	-12.3726
純亦不已	-12.3727
誹謗	-12.3727
冽	-12.3727
姤	-12.3727
古北口	-12.3728
贈太師中書令兼尚書令	-12.3728
郫	-12.3728
出缺時	-12.3728
居相位	-12.3729
一言一動	-12.3729
巴逹禮	-12.3729
綻	-12.3729
監察御史裏行	-12.3729
一動一靜	-12.3729
欹	-12.3729
瑰	-12.373
眦	-12.373
亹	-12.373
氏家世學派	-12.373
鎻	-12.3731
箸	-12.3731
淇	-12.3731
賜進士出身	-12.3731
光禄寺少卿	-12.3732
無善無惡心之體	-12.3732
瘡痍	-12.3732
勣	-12.3732
瀦	-12.3732
絮	-12.3732
掉	-12.3733
民不堪命	-12.3733
羅一峰	-12.3733
奉訓大夫	-12.3733
掀	-12.3733
吉思哈同族	-12.3734
蕺	-12.3734
纚	-12.3734
惻隐	-12.3735
混沌	-12.3735
熺	-12.3735
儗	-12.3735
祠部員外郎	-12.3735
胸臆	-12.3736
沱	-12.3736
畛	-12.3736
跽	-12.3736
鍜	-12.3736
伎倆	-12.3737
窬	-12.3737
簷	-12.3737
岌岌	-12.3737
寂寞	-12.3738
籩	-12.3738
蒜	-12.3738
䘵	-12.3739
㺯	-12.3739
嘉穆錯	-12.3739
槀	-12.3739
召試館職	-12.3739
躬行實踐	-12.3739
事無巨細	-12.374
蓬萊	-12.374
倪元璐	-12.374
痛癢	-12.374
腆	-12.3741
泓	-12.3741
瑯	-12.3741
爨	-12.3741
此章與景公	-12.3742
訌	-12.3742
𬒳	-12.3742
鬢	-12.3743
禮樂刑政	-12.3743
鏑	-12.3743
凜凜	-12.3743
魔	-12.3744
秭	-12.3744
知邵武軍	-12.3745
所立爵	-12.3745
資善堂	-12.3745
㷀	-12.3746
艤	-12.3746
怛	-12.3746
圎	-12.3746
鼎燕京時入山	-12.3746
郯	-12.3746
濩	-12.3747
閭閻	-12.3747
元史有傳	-12.3748
右司員外郎	-12.3749
鑛	-12.3751
都水監	-12.3751
揑	-12.3752
爇	-12.3754
魯襄公二十	-12.3756
軍器監	-12.3756
饜	-12.3756
殲	-12.3757
耼	-12.3761
山之麓	-12.3762
杓	-12.3763
轓	-12.3782
現任副叅領	-12.3783
恩詔加至一等輕車都尉兼一雲騎尉	-12.3839
澶	-12.4079
其餘無事蹟可立傳者附載於後鑲藍旗	-12.4154
鄞	-12.4157
騰機特	-12.419
賽因諾顔	-12.4203
喀喇沙爾	-12.4207
朋素克旺扎勒	-12.421
色布騰扎勒	-12.421
䍐	-12.4212
預議政	-12.4214
封和碩親王	-12.4215
瑣諾木	-12.4215
右係應立傳之人其餘附載於後	-12.4216
澇	-12.4216
葉爾羌喀什噶爾	-12.4217
格哷爾	-12.4217
瑚倫博宜爾地方	-12.4217
孔氏祖庭廣記卷第	-12.4218
篷	-12.4218
加哈地方	-12.4218
元太祖弟哈布圖哈薩	-12.4218
緣事削去	-12.4219
緣事降為	-12.4219
於大鹵地方	-12.4219
率部屬首先来歸	-12.4219
由閑散	-12.4219
陲	-12.4219
恩詔所加之職現襲騎都尉又	-12.4219
殷達渾	-12.422
恭格喇布坦	-12.4222
嘛	-12.4222
洒掃應對	-12.4223
司經局洗馬	-12.4224
嗎哈沁	-12.4224
煑	-12.4224
兼職如故	-12.4224
詹事府詹事	-12.4224
楊守陳	-12.4226
張敬夫	-12.4226
墊	-12.4226
焜	-12.4226
轎	-12.4227
欽定宗室王公功績表傳卷	-12.4227
莎	-12.4227
聆	-12.4227
知渭州	-12.4227
黙而識之	-12.4227
窠臼	-12.4228
雎	-12.4228
知仙源縣	-12.4228
鎛	-12.4228
黿	-12.4228
飼	-12.4228
鑲藍旗包衣人天聰	-12.4229
敲	-12.4229
不舍晝夜	-12.4229
挟	-12.4229
江州太平觀	-12.4229
罩	-12.4229
欽天監	-12.423
豸	-12.423
濼	-12.4231
猪	-12.4231
喜怒哀樂之未發謂之中	-12.4231
丱	-12.4231
臟	-12.4231
敡	-12.4231
名臣言行錄	-12.4231
薌	-12.4231
聖帝明王	-12.4232
痺	-12.4232
踣	-12.4232
綢繆	-12.4232
輻輳	-12.4232
崗	-12.4232
豺	-12.4232
鳳凰	-12.4233
𤓰爾佳	-12.4233
汐	-12.4234
澍	-12.4234
都官員外郎	-12.4235
正黃旗人来歸年分無考其	-12.4235
樟	-12.4235
籓	-12.4235
缶	-12.4235
炤	-12.4235
症	-12.4236
京師戒嚴	-12.4236
昭文館	-12.4236
衒	-12.4237
褥	-12.4237
進奏院	-12.4237
嫠	-12.4237
精義入神	-12.4237
龍大淵	-12.4238
猫	-12.4238
擴而充之	-12.4238
艶	-12.4238
瓛	-12.4238
以逸待勞	-12.4238
憤懣	-12.4238
吕祖謙	-12.4239
釜	-12.4239
汝陽人	-12.4239
宵旰	-12.4239
兠	-12.424
耋	-12.424
匕	-12.424
謠	-12.424
道里費	-12.4241
甯	-12.4241
瀨	-12.4241
瀧	-12.4241
櫜	-12.4242
禫	-12.4242
㒜	-12.4243
㴶	-12.4243
鏘	-12.4243
𤯝	-12.4243
周翠渠	-12.4243
俘馘	-12.4243
九朝編年	-12.4244
赭	-12.4244
身長八尺	-12.4244
飈	-12.4244
集英殿修撰	-12.4245
興利除害	-12.4245
殤	-12.4245
巉	-12.4245
觖	-12.4245
堙	-12.4246
幙	-12.4246
羇	-12.4246
募死士	-12.4247
堠	-12.4248
進君子退小人	-12.4248
迯	-12.425
璆	-12.425
詁	-12.4251
㝎	-12.4253
羕	-12.4253
䆒	-12.4254
日有食之	-12.4265
征大同攻	-12.429
省平章政事	-12.4309
鑲白旗人世居西拉木楞地方	-12.4373
那木都魯	-12.4383
包衣人世居撫順地方來歸年	-12.4399
一等男兼一雲騎尉	-12.4455
賊偽將何繼祖等兵	-12.4557
雍正四年	-12.4644
甜	-12.4731
素達尼	-12.4735
額濟勒	-12.4737
固嚕扎布	-12.4737
李衷一	-12.4739
副都御史廵撫	-12.4742
進士改庶吉士	-12.4742
阿哩雅	-12.4742
拜音達理	-12.4743
扈駕木蘭行圍	-12.4743
呼濟爾	-12.4744
烏嚕木齊	-12.4744
勔	-12.4745
烏蘭布通	-12.4745
孱	-12.4745
逆賊王輔臣	-12.4745
瘦	-12.4746
達爾漢侍衛扈爾	-12.4746
三濟扎布	-12.4746
自私自利	-12.4746
阿喇布珠爾	-12.4747
开	-12.4747
諭廷臣曰	-12.4747
額璘沁多爾濟	-12.4747
錫特庫	-12.4749
鏃	-12.4749
所思兮	-12.4749
䭾	-12.475
寜古塔	-12.475
綘	-12.475
無惰容	-12.475
順承郡王	-12.4751
瑚畢勒罕	-12.4751
現係貢生	-12.4751
我取友兮得	-12.4751
玖	-12.4752
誹	-12.4754
祀鄉賢	-12.4754
理一而分殊	-12.4754
曇	-12.4754
把總一員兵五十名	-12.4755
彷彿	-12.4755
幷	-12.4755
篙	-12.4755
倀	-12.4755
昕	-12.4755
日用常行	-12.4755
因界設守展界稍復今從	-12.4756
主辱臣死	-12.4756
伊洛淵源錄巻	-12.4756
候閱定	-12.4757
鋹	-12.4757
閤門祗候	-12.4757
多出其門	-12.4757
人心惟危	-12.4757
醴泉觀使	-12.4757
咈	-12.4757
瀏	-12.4758
袋	-12.4758
光禄寺卿	-12.4758
簣	-12.4759
頃有竒於	-12.4759
龍圖閣待制	-12.4759
淩	-12.4759
濰	-12.4759
竢	-12.476
江西吉水人	-12.476
窄	-12.476
馹	-12.476
党	-12.4761
嘉靖以來首輔傳	-12.4761
圮	-12.4761
宋名臣言行錄前集	-12.4761
麈	-12.4761
单	-12.4762
鑚	-12.4762
哂	-12.4762
湓	-12.4762
原任七品典儀	-12.4762
牕	-12.4762
靴	-12.4762
賈昌朝	-12.4763
冤	-12.4763
大禮議起	-12.4763
嶢	-12.4764
瞋	-12.4764
虞部員外郎	-12.4764
褎	-12.4764
斆	-12.4764
纍纍	-12.4764
阡陌	-12.4765
渦	-12.4765
羅卜藏衮布阿喇布坦	-12.4765
冣	-12.4765
艫	-12.4766
趙用賢	-12.4766
把岳忒	-12.4766
勳	-12.4766
江西安福人	-12.4766
酈	-12.4766
嚚	-12.4766
斾	-12.4766
㝢	-12.4767
魴	-12.4767
闞	-12.4767
畯	-12.4767
嶄	-12.4767
囷	-12.4768
擘	-12.4768
卉	-12.4769
嫗	-12.4769
燠	-12.4769
拄	-12.4769
詫	-12.4769
筴	-12.477
故著于此篇	-12.477
窀	-12.477
踧	-12.4771
主一無適	-12.4771
孳孳	-12.4772
撾	-12.4772
榷	-12.4772
憬	-12.4772
跛	-12.4772
以某年某月某日	-12.4773
酖	-12.4774
無疾言遽色	-12.4774
迕	-12.4774
纉	-12.4775
舫	-12.4775
蹂躪	-12.4776
倬	-12.4776
㪺	-12.4776
湏臾	-12.4777
礱	-12.4777
利州路	-12.4777
隗囂	-12.4778
飴	-12.4778
僎	-12.4781
央	-12.4781
箔	-12.4781
帝嘉納之	-12.4782
笋	-12.4783
豺狼	-12.4784
飱	-12.4784
瞀	-12.4785
晏子對曰嬰聞	-12.4791
雍正六年	-12.488
撃敗賊偽	-12.5004
任親軍校	-12.5262
任五品官	-12.5279
征浙江福建	-12.5292
兄弟五人一舉娶	-12.5293
六次襲	-12.5294
係隸滿洲旗分之蒙	-12.5294
唘	-12.5295
大策凌敦多卜	-12.5296
嘴	-12.5296
彧	-12.5297
山河大地	-12.5298
大貝勒代善	-12.5298
襲郡王次	-12.5298
原任内閣侍讀	-12.53
鄂拓克	-12.53
巴圖䝉克	-12.5301
桀驁	-12.5301
今𨽻本旗	-12.5302
哈坦巴圖爾	-12.5303
塚	-12.5304
扵北鎮撫司	-12.5304
原任内副管	-12.5304
蕚	-12.5304
現任鳴賛	-12.5304
由八品官從征	-12.5304
承直郎	-12.5304
桑阿爾齋	-12.5304
色布騰旺布	-12.5304
霓	-12.5305
三司度支判官	-12.5305
奉國將軍	-12.5306
長子順治十	-12.5307
瀰	-12.5307
由七品官從征	-12.5308
睠	-12.5308
牂	-12.5308
正藍旗包衣旗鼓人世居撫順地方	-12.5308
煇	-12.5309
伊禮布	-12.531
扎克丹	-12.531
佇	-12.5311
襁褓	-12.5312
貔	-12.5312
𢎞治乙丑進士	-12.5312
薩木哈	-12.5313
先塋之次	-12.5313
刳	-12.5313
匭	-12.5313
姢	-12.5313
頃有奇	-12.5314
侄	-12.5314
胔	-12.5314
醪	-12.5314
齕	-12.5314
處之裕如	-12.5314
傚	-12.5314
棄城遁	-12.5314
淝	-12.5314
噲	-12.5314
秋毫無犯	-12.5315
掣肘	-12.5315
怎	-12.5315
上皆嘉納	-12.5315
閧	-12.5315
棚	-12.5315
治國平天下	-12.5315
尢	-12.5315
麴	-12.5316
淋	-12.5316
颯	-12.5316
秦始皇	-12.5316
裙	-12.5316
濮安懿王	-12.5316
胡惟庸	-12.5316
跂	-12.5317
躪	-12.5317
邵宏淵	-12.5317
授翰林院編修	-12.5317
若將終身	-12.5318
惟精惟一	-12.5318
蹲	-12.5319
覷	-12.5319
堦	-12.5319
蹉	-12.5319
閾	-12.532
惮	-12.532
錙銖	-12.532
物各付物	-12.532
臞	-12.5321
笑而不答	-12.5321
鼉	-12.5321
生之謂性	-12.5321
芻蕘	-12.5322
伊洛淵源録	-12.5322
儱侗	-12.5322
蚋	-12.5322
鶯	-12.5323
許敬菴	-12.5323
閙	-12.5323
鄒南臯	-12.5323
褰	-12.5323
疹	-12.5323
吊	-12.5323
恍惚	-12.5324
紋	-12.5324
顧鼎臣	-12.5324
難進易退	-12.5324
丁内外艱	-12.5325
淐	-12.5325
癯	-12.5325
[...]
