<unk>	0
<s>	0
</s>	0
/	-3.72022
(	-4.22144
)	-4.24008
之	-4.36094
)(	-4.58474
也	-4.83069
以	-5.0267
而	-5.03066
有	-5.2259
為	-5.33747
其	-5.3785
不	-5.42146
於	-5.46702
人	-5.56747
曰	-5.58461
者	-5.59036
▁	-5.62606
作	-5.70595
無	-5.75577
一	-5.76804
自	-5.92108
在	-5.93708
公	-5.98501
上	-5.98632
與	-5.99093
則	-6.00433
言	-6.01826
詩	-6.02592
中	-6.05143
時	-6.06261
行	-6.07071
如	-6.10584
大	-6.12226
見	-6.13299
此	-6.15248
山	-6.15575
爲	-6.16765
子	-6.18265
天	-6.2067
下	-6.24296
字	-6.2487
書	-6.25249
生	-6.27146
云	-6.31174
王	-6.31318
事	-6.33773
日	-6.33853
所	-6.34167
是	-6.36674
得	-6.37595
水	-6.37603
道	-6.38317
至	-6.38515
故	-6.40454
出	-6.41143
文	-6.46163
君	-6.47143
長	-6.47518
又	-6.48522
相	-6.49245
于	-6.50048
去	-6.51155
心	-6.52398
傳	-6.53281
皆	-6.53323
歸	-6.5347
三	-6.5371
來	-6.54315
多	-6.54515
名	-6.546
乃	-6.54764
今	-6.54941
風	-6.55271
同	-6.55461
謂	-6.57337
亦	-6.57398
矣	-6.59084
非	-6.59995
入	-6.62624
若	-6.63329
我	-6.6364
一作	-6.64999
切	-6.66722
後	-6.6719
知	-6.67442
雲	-6.68481
方	-6.69527
音	-6.69575
然	-6.69772
春	-6.70127
可	-6.71095
乎	-6.7201
使	-6.72288
何	-6.72602
成	-6.72732
將	-6.72916
州	-6.73698
未	-6.74116
當	-6.74493
二	-6.76129
用	-6.76742
或	-6.77033
前	-6.78159
明	-6.79441
地	-6.79977
白	-6.80344
欲	-6.80714
聲	-6.80939
官	-6.81731
復	-6.81772
從	-6.8208
及	-6.82596
聞	-6.83543
門	-6.84551
兮	-6.84962
髙	-6.85211
南	-6.85312
月	-6.85966
石	-6.87823
居	-6.88371
清	-6.8924
馬	-6.89264
逺	-6.89952
臣	-6.90688
重	-6.91508
家	-6.92288
花	-6.92387
已	-6.92881
思	-6.92998
東	-6.93386
本	-6.95044
洙曰	-6.95602
金	-6.95678
焉	-6.96245
能	-6.96264
正	-6.96348
因	-6.96815
年	-6.96853
令	-6.97897
命	-6.98041
朝	-6.98372
李	-6.98543
西	-6.99078
盡	-7.00136
新	-7.00462
意	-7.00771
平	-7.01895
漢	-7.0232
過	-7.0263
深	-7.02764
身	-7.03005
秋	-7.03258
即	-7.03305
安	-7.03337
四	-7.0348
五	-7.03769
神	-7.0404
空	-7.04041
城	-7.0474
注	-7.04743
國	-7.0484
古	-7.05587
客	-7.0585
老	-7.06328
流	-7.06806
望	-7.08452
雖	-7.08974
猶	-7.09237
元	-7.1063
張	-7.10863
江	-7.11484
賦	-7.11608
還	-7.11662
且	-7.12835
吾	-7.13099
光	-7.13562
玉	-7.14002
氣	-7.1486
常	-7.15408
死	-7.15656
應	-7.16571
小	-7.16636
開	-7.17837
飛	-7.17886
語	-7.17963
舊	-7.18029
必	-7.18041
初	-7.18154
師	-7.18209
巳	-7.1836
遂	-7.18457
問	-7.18652
起	-7.18707
先	-7.19476
酒	-7.19799
分	-7.19886
難	-7.20155
歌	-7.20433
經	-7.21078
送	-7.21513
處	-7.21922
通	-7.21988
夜	-7.2214
獨	-7.22534
樂	-7.2291
士	-7.23333
寄	-7.2442
龍	-7.25556
别	-7.25869
立	-7.26954
寒	-7.27293
和	-7.27489
北	-7.27925
實	-7.27946
物	-7.28787
合	-7.28892
樹	-7.28927
遊	-7.29092
兵	-7.29343
少	-7.29384
路	-7.29961
始	-7.29996
耳	-7.30218
周	-7.30686
帝	-7.30869
唐	-7.30966
更	-7.31091
華	-7.31126
好	-7.31197
外	-7.32591
雨	-7.32863
兩	-7.32939
情	-7.33819
世	-7.33861
惟	-7.34249
九	-7.34269
色	-7.34359
發	-7.35816
觀	-7.37058
取	-7.37121
莫	-7.37136
善	-7.3731
陳	-7.37601
守	-7.3776
六	-7.38335
志	-7.3835
贈	-7.39338
既	-7.39512
義	-7.39791
數	-7.40006
縣	-7.40179
論	-7.40391
間	-7.40494
黄	-7.40508
高	-7.40796
禮	-7.40863
衣	-7.41054
似	-7.41114
法	-7.4118
興	-7.41292
夫	-7.42006
食	-7.42462
或作	-7.42534
秦	-7.4313
終	-7.43284
軍	-7.43331
武	-7.44002
氏	-7.44373
陽	-7.44606
林	-7.45177
海	-7.45215
向	-7.45911
舉	-7.46126
諸	-7.46276
郡	-7.46408
落	-7.4686
草	-7.47097
信	-7.47143
易	-7.47433
等	-7.48018
異	-7.48319
青	-7.48593
稱	-7.48819
女	-7.49029
絶	-7.49083
求	-7.49607
○	-7.49972
曲	-7.50235
豈	-7.50743
坐	-7.5084
尚	-7.5125
近	-7.51442
直	-7.51665
表	-7.52747
賢	-7.5292
萬	-7.5328
不可	-7.54028
府	-7.5408
登	-7.54115
百	-7.54328
動	-7.54663
宫	-7.54708
封	-7.54896
謝	-7.55193
記	-7.55971
鳥	-7.56361
辭	-7.56547
節	-7.56675
楚	-7.56694
臨	-7.56923
對	-7.56977
靈	-7.57659
竹	-7.5766
首	-7.57746
理	-7.57893
宜	-7.57951
請	-7.58442
内	-7.58564
學	-7.58876
集	-7.59115
亂	-7.59125
齊	-7.59299
車	-7.60326
都	-7.62324
爾	-7.62508
七	-7.62539
香	-7.63085
力	-7.63121
才	-7.63214
足	-7.63803
景	-7.63826
幽	-7.64071
隨	-7.64116
進	-7.64237
八	-7.64351
雪	-7.64559
魚	-7.64576
悲	-7.65012
衆	-7.65341
德	-7.65379
㑹	-7.65453
徳	-7.65686
天下	-7.66086
愁	-7.66159
親	-7.66178
指	-7.664
留	-7.66573
定	-7.66692
頭	-7.6678
十	-7.6681
仙	-7.66816
聖	-7.66986
載	-7.67029
連	-7.67338
河	-7.67948
篇	-7.68212
服	-7.68327
田	-7.68573
引	-7.68728
喜	-7.68833
題	-7.6892
木	-7.69242
章	-7.69937
屬	-7.69968
野	-7.70115
餘	-7.70364
失	-7.70937
不能	-7.70941
到	-7.71273
病	-7.71323
主	-7.71801
孫曰	-7.71854
真	-7.72185
吏	-7.72406
功	-7.72472
蜀	-7.72595
共	-7.72603
甚	-7.72914
誰	-7.72944
梁	-7.73025
民	-7.73139
滿	-7.73168
晉	-7.73397
星	-7.73407
奉	-7.73499
化	-7.73503
兼	-7.73687
徒	-7.73935
制	-7.74317
史	-7.74638
臺	-7.75221
序	-7.75729
度	-7.75795
任	-7.75892
輕	-7.76092
期	-7.7641
感	-7.76716
凡	-7.76731
固	-7.76875
劉	-7.77031
窮	-7.77106
宿	-7.77576
代	-7.77698
土	-7.77842
葉	-7.77857
交	-7.77966
垂	-7.79195
容	-7.79272
疑	-7.79549
憂	-7.79705
受	-7.79772
孤	-7.79882
卒	-7.80153
隂	-7.80186
誠	-7.80634
池	-7.80704
口	-7.80795
傷	-7.80799
醉	-7.81078
夏	-7.81191
泉	-7.81434
哉	-7.81664
哀	-7.81666
驚	-7.81812
承	-7.81976
離	-7.82082
句	-7.82264
鳴	-7.8228
苦	-7.82434
比	-7.82465
趙	-7.82816
詔	-7.82888
降	-7.8296
羣	-7.83275
愛	-7.83315
以為	-7.83663
拜	-7.83789
解	-7.83963
寺	-7.84132
貴	-7.84174
千	-7.84225
休	-7.84312
加	-7.85074
次	-7.85672
胡	-7.85676
▁(	-7.85737
陵	-7.86111
勝	-7.86322
良	-7.86376
永	-7.86913
願	-7.86952
致	-7.87038
置	-7.87093
詞	-7.87262
轉	-7.8742
許	-7.87629
美	-7.87672
極	-7.87888
彼	-7.8817
散	-7.88297
紅	-7.88385
遺	-7.88651
結	-7.89205
目	-7.89224
賜	-7.89354
反	-7.89393
列	-7.89578
微	-7.89601
廣	-7.89669
右	-7.901
宗	-7.90173
太	-7.90329
但	-7.90433
利	-7.90517
素	-7.90591
而不	-7.90591
趙曰	-7.907
昔	-7.90718
塵	-7.90869
天子	-7.91171
嘗	-7.91318
皇	-7.91506
圖	-7.91686
懐	-7.91718
余	-7.91852
火	-7.91898
益	-7.91899
畫	-7.92404
顧	-7.92514
溪	-7.92715
照	-7.92758
侯	-7.92839
修	-7.93203
斯	-7.93326
松	-7.93393
便	-7.93404
幸	-7.93828
卿	-7.93918
遷	-7.94207
乗	-7.94235
俗	-7.94268
並	-7.94518
著	-7.9467
孫	-7.9481
除	-7.94882
楊	-7.95048
按	-7.9526
仁	-7.9527
庭	-7.95498
鄭	-7.9563
半	-7.96186
越	-7.96303
手	-7.96361
里	-7.96496
樓	-7.96538
變	-7.96563
遇	-7.96772
露	-7.9709
恩	-7.9715
精	-7.97251
唯	-7.97712
榮	-7.9796
號	-7.98044
往	-7.98053
左	-7.98239
吟	-7.98256
燕	-7.98367
不得	-7.98381
註	-7.98495
祖	-7.98504
疾	-7.98654
懷	-7.98749
所以	-7.98861
父	-7.98899
移	-7.98925
亭	-7.98948
授	-7.99039
邊	-7.99172
止	-7.99468
待	-7.9995
再	-7.99991
閣	-8.00123
戰	-8.00473
全	-8.00546
教	-8.00733
俱	-8.0088
室	-8.00996
忽	-8.01324
看	-8.01647
念	-8.01738
夢	-8.01924
各	-8.01935
不知	-8.01979
位	-8.02076
奏	-8.02115
獻	-8.02207
治	-8.02948
伏	-8.03123
改	-8.03359
魏	-8.03415
謂之	-8.03643
政	-8.03792
笑	-8.03945
波	-8.04033
嚴	-8.04255
飲	-8.04314
汝	-8.04725
朱	-8.04838
杜	-8.04863
堂	-8.05039
晚	-8.05269
早	-8.05393
由	-8.0608
恐	-8.06088
歲	-8.06143
盛	-8.06669
體	-8.06821
蓋	-8.06905
計	-8.06978
報	-8.07127
持	-8.07225
薄	-8.07361
伯	-8.0748
紀	-8.07848
聽	-8.08086
久	-8.08243
就	-8.08506
存	-8.08589
却	-8.08686
舟	-8.08819
亡	-8.0903
説	-8.09274
霜	-8.09286
趙云	-8.0945
枝	-8.09474
識	-8.09522
浮	-8.09632
暮	-8.09817
盖	-8.10093
視	-8.10354
宋	-8.10414
乆	-8.10563
虚	-8.10638
扵	-8.10919
適	-8.1122
𤣥	-8.11298
勞	-8.11327
烏	-8.11965
選	-8.12163
嵗	-8.12179
旣	-8.12218
殿	-8.12233
韓	-8.12408
予	-8.12434
說	-8.12718
尋	-8.12979
将	-8.13094
閑	-8.13445
殺	-8.13817
鶴	-8.13832
司	-8.13835
補注	-8.13886
建	-8.13996
紫	-8.14002
崔	-8.14026
罷	-8.14041
破	-8.14082
象	-8.14664
竒	-8.15068
狀	-8.15189
所謂	-8.15276
郎	-8.15403
原	-8.15415
愈	-8.15438
塞	-8.15761
負	-8.15909
依	-8.16298
謀	-8.16502
末	-8.16543
性	-8.16648
惡	-8.16709
議	-8.17047
閒	-8.17133
積	-8.17495
廟	-8.17507
雄	-8.17521
憶	-8.17522
果	-8.17578
沙	-8.17828
嘉	-8.17984
逢	-8.18124
雙	-8.18375
恨	-8.18516
每	-8.18563
斷	-8.18584
谷	-8.18614
形	-8.18616
川	-8.18963
忠	-8.19101
州刺史	-8.19119
藏	-8.19192
吳	-8.19278
孝	-8.19425
宣	-8.19456
威	-8.19665
具	-8.19897
考	-8.20242
備	-8.20295
關	-8.20361
珠	-8.2045
况	-8.20555
類	-8.20617
僧	-8.2073
逐	-8.21093
闕	-8.21132
推	-8.21379
丹	-8.21728
筆	-8.21754
揚	-8.21835
尚書	-8.22055
敬	-8.22118
可以	-8.2241
碧	-8.22414
舞	-8.22684
韋	-8.22725
来	-8.22775
御	-8.22921
某	-8.23139
耶	-8.23147
澤	-8.23193
簡	-8.23209
葢	-8.23285
長安	-8.23333
顔	-8.23583
寧	-8.23592
仍	-8.23776
羅	-8.23802
息	-8.24057
錢	-8.24082
煙	-8.24302
須	-8.24586
徐	-8.24835
要	-8.24921
賊	-8.24966
折	-8.24975
如此	-8.25205
赤	-8.25208
影	-8.25263
宅	-8.25699
冠	-8.25873
業	-8.25874
省	-8.26096
荒	-8.261
告	-8.26288
隱	-8.26806
丘	-8.26943
厚	-8.26965
咸	-8.27076
接	-8.27354
投	-8.27607
急	-8.28102
追	-8.28112
園	-8.28191
濟	-8.28915
游	-8.28948
雜	-8.28956
戎	-8.29043
放	-8.29079
騎	-8.29119
殊	-8.29257
賞	-8.29322
職	-8.29342
累	-8.2944
曉	-8.29488
遣	-8.29667
韻	-8.3018
尊	-8.30958
衰	-8.31068
詠	-8.3123
母	-8.31252
横	-8.31292
曹	-8.3131
芳	-8.31314
千里	-8.31587
延	-8.31665
工	-8.31701
宴	-8.31858
含	-8.31894
讀	-8.32195
虎	-8.32258
裏	-8.3227
施	-8.32507
倚	-8.3263
蘇	-8.33051
走	-8.33138
君子	-8.33309
順	-8.33324
充	-8.33408
勢	-8.33543
井	-8.3356
夷	-8.33607
牛	-8.33706
滅	-8.33841
之所	-8.33952
祭	-8.3408
碑	-8.3415
兹	-8.34165
懸	-8.34277
羽	-8.34311
陸	-8.34337
惠	-8.34475
養	-8.34516
罪	-8.34563
鎮	-8.347
昭	-8.3493
賀	-8.34931
緑	-8.35083
盧	-8.35161
覺	-8.3534
魯	-8.35349
崇	-8.35468
收	-8.35811
邑	-8.3584
赴	-8.36451
跡	-8.36495
細	-8.3653
回	-8.36601
蘭	-8.36631
儒	-8.3689
帶	-8.37014
執	-8.37113
危	-8.37385
湖	-8.37902
傾	-8.37934
巻	-8.38086
呼	-8.38118
角	-8.38158
律	-8.38213
骨	-8.38573
此詩	-8.38633
歎	-8.38694
運	-8.38822
岸	-8.3886
藥	-8.38979
忘	-8.3906
召	-8.39104
最	-8.39218
慶	-8.39259
征	-8.39519
詩云	-8.39604
栁	-8.3961
敢	-8.39619
典	-8.39634
隔	-8.39803
獲	-8.40018
闗	-8.40056
英	-8.40059
貧	-8.40152
殘	-8.40157
翠	-8.4034
退	-8.40425
種	-8.40694
冬	-8.40876
先生	-8.40913
器	-8.40984
迎	-8.41322
郭	-8.41326
衛	-8.41366
陛下	-8.41656
端	-8.41799
尤	-8.42188
船	-8.42291
權	-8.42378
迴	-8.42459
夕	-8.42467
特	-8.42539
呉	-8.4261
薦	-8.4282
弟	-8.42838
誤	-8.42936
兒	-8.43118
萬里	-8.43278
被	-8.43462
不敢	-8.43919
怨	-8.43974
邪	-8.44
商	-8.44178
率	-8.44196
試	-8.44279
隠	-8.44498
佛	-8.44521
浪	-8.44707
補	-8.44709
夫人	-8.45091
幾	-8.45382
琴	-8.45484
棄	-8.45612
歡	-8.4579
附	-8.45853
廢	-8.45923
寳	-8.46026
眼	-8.46052
卷	-8.46116
面	-8.46181
秀	-8.46234
叔	-8.46314
委	-8.46345
沈	-8.46379
淚	-8.46498
柳	-8.46566
布	-8.46709
壁	-8.46749
鄉	-8.46975
蕭	-8.4708
儀	-8.47084
調	-8.47292
甫	-8.47561
愚	-8.47681
奔	-8.47747
友	-8.47802
佐	-8.47945
市	-8.47969
克	-8.48117
達	-8.4852
三年	-8.48638
毛	-8.4877
漢書	-8.49039
資	-8.49063
逸	-8.49081
哭	-8.49111
雞	-8.49152
京	-8.49154
爭	-8.49205
根	-8.49407
駕	-8.49557
橋	-8.49604
漸	-8.49705
遠	-8.50267
維	-8.50584
郊	-8.50703
巖	-8.50748
吹	-8.51162
錦	-8.5122
房	-8.51324
避	-8.51348
天地	-8.514
逰	-8.51672
示	-8.51788
丗	-8.52149
務	-8.52171
機	-8.5231
歳	-8.52403
符	-8.52581
刻	-8.52661
齊賢曰	-8.52736
貌	-8.52987
申	-8.53004
昌	-8.53011
卧	-8.53391
仰	-8.53458
敗	-8.53471
將軍	-8.53533
繼	-8.53591
禁	-8.54151
暗	-8.54204
史記	-8.5444
籍	-8.54553
福	-8.54678
私	-8.547
苑	-8.55024
射	-8.55192
覆	-8.55323
想	-8.55468
虞	-8.55516
劒	-8.5576
烟	-8.55834
寵	-8.55915
嶺	-8.55986
洞	-8.56097
據	-8.56269
振	-8.56295
桂	-8.56329
保	-8.56477
軒	-8.56608
銘	-8.56772
太白	-8.5688
妙	-8.56894
酬	-8.56897
於是	-8.56914
校	-8.56956
造	-8.57265
鏡	-8.57447
貞	-8.5745
峯	-8.57621
質	-8.57695
非是	-8.57953
鳯	-8.57967
曾	-8.58148
勤	-8.58241
惜	-8.58611
季	-8.58954
韓曰	-8.59374
刺	-8.59478
誅	-8.59501
旅	-8.59506
玄	-8.59638
短	-8.59648
智	-8.59959
狂	-8.60015
兄	-8.60412
裴	-8.60467
條	-8.60487
后	-8.60665
懼	-8.60769
遥	-8.61085
免	-8.61169
文章	-8.6123
并	-8.61476
鼓	-8.6152
遲	-8.61631
託	-8.61694
仲	-8.61761
領	-8.61865
曽	-8.62074
雅	-8.62101
今日	-8.62185
抱	-8.62188
勿	-8.62194
怒	-8.62202
席	-8.62366
徴	-8.62401
設	-8.62428
二年	-8.62485
孟	-8.62543
盤	-8.62642
左傳	-8.62762
縱	-8.62777
族	-8.62814
静	-8.62814
鴻	-8.6286
以爲	-8.63003
險	-8.63005
歩	-8.63034
大夫	-8.63051
管	-8.63192
十二	-8.63281
絲	-8.63365
竟	-8.63426
沉	-8.63625
他	-8.63953
聚	-8.63988
不見	-8.64224
伐	-8.64345
境	-8.64503
畢	-8.64546
堪	-8.64565
翻	-8.65043
縁	-8.65181
假	-8.6522
干	-8.65312
孔	-8.65491
靜	-8.65515
殷	-8.6581
者也	-8.65862
逹	-8.65865
劍	-8.65978
拂	-8.66403
泥	-8.66412
撫	-8.66509
掌	-8.66606
壯	-8.66899
徃	-8.67057
不足	-8.67083
院	-8.67299
盈	-8.67306
釋	-8.67307
侵	-8.67424
衡	-8.67515
刑	-8.67654
妻	-8.67816
馳	-8.6784
背	-8.67892
害	-8.68066
黃	-8.68222
姓	-8.68371
無所	-8.68398
甘	-8.68642
源	-8.68665
只	-8.68743
映	-8.68772
材	-8.68896
鴈	-8.6891
麗	-8.69075
春秋	-8.69198
賈	-8.69222
悉	-8.69234
温	-8.69236
升	-8.69304
二首	-8.6934
齋	-8.69652
没	-8.69704
厥	-8.69711
訪	-8.69727
甲	-8.6992
偶	-8.69957
別	-8.70357
招	-8.70485
偏	-8.70498
廻	-8.70527
録	-8.70565
屋	-8.70779
營	-8.70873
晴	-8.70881
述	-8.70883
僕	-8.71061
康	-8.71102
顯	-8.71125
士贇曰	-8.71285
博	-8.71436
詳	-8.71704
屈	-8.71708
慮	-8.71728
鍾	-8.71788
館	-8.71901
龜	-8.71978
蔡	-8.72068
候	-8.72244
答	-8.72269
祠	-8.72306
洪	-8.72332
洛	-8.72485
䇿	-8.72577
丁	-8.72635
陶	-8.72655
擊	-8.72661
頗	-8.72819
輔	-8.7321
禪	-8.73262
披	-8.73314
婦	-8.73332
謹	-8.73353
凝	-8.73589
泣	-8.73691
茂	-8.73921
庶	-8.73967
部	-8.73988
雷	-8.74077
棲	-8.74587
㣲	-8.74599
納	-8.74914
畏	-8.75241
歴	-8.75278
側	-8.75393
諸侯	-8.75655
鳳	-8.75667
村	-8.75988
故曰	-8.7602
牧	-8.76033
昏	-8.76117
莊子	-8.76305
尉	-8.76376
參	-8.76553
約	-8.76672
堅	-8.77002
户	-8.77297
凌	-8.77297
侍	-8.77561
鼎	-8.7759
蒼	-8.776
階	-8.77807
是也	-8.77832
習	-8.77969
乘	-8.78025
竊	-8.78126
公之	-8.7825
專	-8.78507
旁	-8.78526
憐	-8.78641
頻	-8.78687
第	-8.78703
繫	-8.78789
勸	-8.78945
當時	-8.79139
之間	-8.79251
翼	-8.79383
墓	-8.79648
違	-8.79669
冷	-8.79681
魂	-8.79726
晨	-8.79803
乾	-8.79998
无	-8.8
迷	-8.80009
之意	-8.8002
隋	-8.801
厯	-8.80669
訓	-8.80709
嗟	-8.80778
怪	-8.80826
薛	-8.80878
蘇曰	-8.80981
葬	-8.80989
左右	-8.81145
步	-8.81154
耕	-8.81174
荷	-8.81279
刀	-8.81321
舍	-8.81599
人之	-8.81671
豐	-8.81865
味	-8.81877
踈	-8.82187
䝉	-8.82228
戲	-8.82671
貶	-8.82906
司馬	-8.83122
敵	-8.83187
禹	-8.83188
旗	-8.83254
慙	-8.83418
飾	-8.83585
宰	-8.83779
旋	-8.83823
徑	-8.83946
淸	-8.83957
掩	-8.84228
蒙	-8.84304
索	-8.84335
朔	-8.84451
繁	-8.8455
熟	-8.84592
朝廷	-8.84698
尹	-8.85158
童	-8.85221
辨	-8.85466
擬	-8.85561
泛	-8.85566
班	-8.85605
故云	-8.85685
富	-8.85808
履	-8.85838
住	-8.8584
嗣	-8.86036
之地	-8.86059
太守	-8.86071
煩	-8.86231
朕	-8.86437
毎	-8.8648
啓	-8.8652
壽	-8.86621
𥘉	-8.86688
戒	-8.86775
太子	-8.86842
傍	-8.86904
救	-8.86921
頌	-8.86923
後漢	-8.87008
借	-8.87212
猿	-8.87307
翁	-8.87397
血	-8.87401
恭	-8.87584
霞	-8.87684
不如	-8.87715
宰相	-8.87729
蒲	-8.87773
日月	-8.87786
慕	-8.87831
驅	-8.87853
祀	-8.87945
豪	-8.8817
操	-8.88189
皇帝	-8.88295
勇	-8.88437
貢	-8.88483
齒	-8.88539
尾	-8.88552
故人	-8.8859
峽	-8.88618
啟	-8.88654
喻	-8.88679
邦	-8.887
仕	-8.8872
夀	-8.88845
扶	-8.88872
之道	-8.88904
翰	-8.88974
冝	-8.89104
察	-8.89106
寛	-8.89305
京師	-8.89325
眞	-8.89347
蕩	-8.89366
鬼	-8.89611
或無	-8.89625
河南	-8.89644
啼	-8.89798
採	-8.89892
寶	-8.89969
燭	-8.89978
暴	-8.90025
洛陽	-8.9009
禍	-8.90243
虛	-8.90373
支	-8.90421
驛	-8.90511
攻	-8.90673
津	-8.90675
讓	-8.90733
寫	-8.91083
賤	-8.9113
略	-8.91157
湯	-8.91177
莊	-8.91209
逆	-8.91435
希	-8.91441
斗	-8.9165
强	-8.91798
燈	-8.92104
銷	-8.92122
何處	-8.92141
荆	-8.92281
輪	-8.9232
羊	-8.92391
渡	-8.92471
曠	-8.92476
眠	-8.9253
吐蕃	-8.92601
刺史	-8.92647
編	-8.92664
品	-8.92712
激	-8.92763
助	-8.92967
錫	-8.93535
嗚呼	-8.93669
暫	-8.93847
役	-8.93882
阻	-8.93972
責	-8.94137
程	-8.94217
荅	-8.94235
謁	-8.94571
均	-8.94768
疎	-8.94826
卑	-8.9508
晝	-8.9511
舒	-8.95128
總	-8.95305
又云	-8.95377
巢	-8.95407
十年	-8.95419
賔	-8.95687
慈	-8.95763
漏	-8.95803
趨	-8.95904
使君	-8.95941
恒	-8.95959
采	-8.96039
鮮	-8.96051
喪	-8.96147
乞	-8.96271
於此	-8.96306
一日	-8.96327
堯	-8.96519
叢	-8.96604
俾	-8.96608
巴	-8.96622
格	-8.96821
節度使	-8.96878
之後	-8.96914
然後	-8.96923
邉	-8.96957
困	-8.9722
苟	-8.97235
弱	-8.9727
宻	-8.97469
黒	-8.97496
釣	-8.97542
叙	-8.97587
湘	-8.97623
當是	-8.97631
辟	-8.97723
奪	-8.9776
節度	-8.97774
貫	-8.97799
途	-8.97817
烈	-8.97874
髪	-8.9791
峰	-8.98043
蕃	-8.98107
農	-8.98137
牽	-8.98218
元年	-8.98343
梅	-8.98462
給	-8.98553
辱	-8.98574
佳	-8.98948
郎中	-8.98968
祝曰	-8.99032
其所	-8.99076
環	-8.99104
防	-8.99118
銀	-8.99278
桃	-8.99319
阿	-8.99377
江南	-8.99534
超	-8.99563
彌	-8.99691
銜	-8.99762
人也	-8.99788
宮	-8.99829
患	-8.99863
宇	-8.99879
輿	-8.99989
洗	-9.00016
監	-9.00048
晩	-9.0005
枯	-9.0013
禄	-9.00286
師曰	-9.00391
遭	-9.00405
迹	-9.00569
崖	-9.00651
肅	-9.00706
聖人	-9.00738
舜	-9.00775
圍	-9.01152
斜	-9.01295
柔	-9.01451
植	-9.01458
古人	-9.01509
界	-9.01542
暖	-9.01578
歟	-9.01707
郷	-9.01743
吐	-9.01779
増	-9.01786
幕	-9.01842
淺	-9.01946
畧	-9.01959
戴	-9.0204
之事	-9.02259
不及	-9.02535
禽	-9.02537
群	-9.02638
鄭曰	-9.02691
牙	-9.02704
巧	-9.03105
攀	-9.03119
淮	-9.03248
屢	-9.03445
鄰	-9.03484
飢	-9.03537
痛	-9.03579
蓬	-9.03638
二字	-9.03645
桑	-9.03741
潮	-9.03751
倒	-9.03762
眉	-9.03786
吉	-9.03913
㡬	-9.04114
犯	-9.04121
牀	-9.04474
撰	-9.04626
潭	-9.04843
展	-9.04846
成都	-9.04856
姑	-9.04948
白雲	-9.04948
震	-9.05149
掃	-9.05249
愧	-9.0534
古詩	-9.05411
杯	-9.05524
窺	-9.05555
祥	-9.05583
至於	-9.05618
侍御	-9.05742
低	-9.05761
擁	-9.05828
中有	-9.05873
孔子	-9.06198
討	-9.06201
帥	-9.06261
霧	-9.06344
談	-9.06361
稀	-9.06421
徙	-9.06994
蟲	-9.07074
疏	-9.07255
觸	-9.07344
費	-9.07438
吕	-9.07481
銅	-9.07504
虜	-9.07533
陰	-9.07534
圓	-9.07538
方云	-9.07627
騰	-9.07677
柱	-9.07679
墨	-9.07697
綺	-9.07732
吴	-9.07889
鸞	-9.07913
岳	-9.08042
穿	-9.08323
孰	-9.08365
是以	-9.08394
強	-9.08477
閉	-9.08483
鶴曰	-9.08824
三月	-9.08859
□	-9.0919
泰	-9.09541
稍	-9.0955
署	-9.0957
酌	-9.09595
停	-9.09838
伊	-9.09913
擇	-9.09954
底	-9.10183
否	-9.102
旌	-9.1027
籠	-9.10274
㫖	-9.10353
卜	-9.1042
斬	-9.10498
白日	-9.10647
何以	-9.10653
之以	-9.10666
諱	-9.10701
覩	-9.10982
今按	-9.10988
躬	-9.11037
弓	-9.11222
羞	-9.11254
差	-9.11289
量	-9.1129
浦	-9.11296
式	-9.11336
秩	-9.1148
主人	-9.11639
勲	-9.11918
俯	-9.11925
二十	-9.11941
英華	-9.12022
有所	-9.12042
效	-9.12237
聊	-9.12455
上人	-9.12798
密	-9.12814
明月	-9.12981
倫	-9.1335
會	-9.13361
壇	-9.13432
熱	-9.13604
言其	-9.13609
曰吾	-9.13649
筵	-9.1384
珍	-9.13963
肉	-9.1404
循	-9.14057
一人	-9.1412
諫	-9.14152
鱗	-9.14231
廬	-9.14327
瞻	-9.14438
陪	-9.14494
摧	-9.146
融	-9.14708
毒	-9.14711
佩	-9.14916
術	-9.15014
脩	-9.15046
帳	-9.15106
覽	-9.15213
憲	-9.15256
貪	-9.15277
寂	-9.15314
抑	-9.15458
弄	-9.15541
蓮	-9.15626
平生	-9.15933
瑞	-9.15997
中丞	-9.16037
開元	-9.16044
墜	-9.16109
燒	-9.16319
鐘	-9.1635
峻	-9.16351
勉	-9.16433
爵	-9.16475
穴	-9.16534
与	-9.16615
丞相	-9.16816
沒	-9.16899
戀	-9.17
御史	-9.17017
如何	-9.1704
捨	-9.17106
樊曰	-9.17141
財	-9.17223
晏	-9.17274
排	-9.17301
不復	-9.17311
百姓	-9.1746
築	-9.17496
䘮	-9.17549
介	-9.17664
杖	-9.17669
之心	-9.17751
頃	-9.17876
庸	-9.1807
少年	-9.18112
戸	-9.18275
統	-9.18572
響	-9.18819
妾	-9.18822
厭	-9.18985
巨	-9.19032
繞	-9.19071
網	-9.19081
惑	-9.19116
策	-9.1914
速	-9.19234
兄弟	-9.19239
焚	-9.19384
優	-9.19449
粉	-9.195
錯	-9.19551
人間	-9.19574
渾	-9.19579
獸	-9.19613
扇	-9.19616
伴	-9.19649
爰	-9.198
凉	-9.19975
潤	-9.20034
氷	-9.20172
屏	-9.20202
絃	-9.20291
鞭	-9.20302
足下	-9.20323
甞	-9.20327
巾	-9.20398
輒	-9.20421
賛	-9.20504
渠	-9.20559
輩	-9.20599
并序	-9.20724
隴	-9.20781
喧	-9.20799
弔	-9.20805
冀	-9.20874
藩	-9.20888
蟬	-9.20902
靡	-9.20902
炎	-9.20944
之士	-9.21043
肆	-9.2118
拔	-9.21306
唱	-9.21441
藝	-9.21442
災	-9.21545
缺	-9.21608
茅	-9.21662
際	-9.21692
范	-9.21708
尺	-9.21731
當作	-9.22048
座	-9.22077
争	-9.22087
雁	-9.22179
春風	-9.22333
洲	-9.22379
决	-9.22407
而已	-9.22484
飄	-9.22628
洞庭	-9.2275
澄	-9.22799
輝	-9.22804
相公	-9.22814
靑	-9.22925
帆	-9.22948
十五	-9.22983
蔽	-9.22998
把	-9.23107
妃	-9.23124
進士	-9.23164
慰	-9.23221
詣	-9.23312
脫	-9.23322
寢	-9.2334
竇	-9.23402
辯	-9.23421
蛇	-9.23422
革	-9.23442
嘆	-9.23515
草木	-9.23516
謬	-9.23617
贊	-9.23632
枕	-9.23832
有餘	-9.23978
聴	-9.24019
鹿	-9.24053
束	-9.24106
紛	-9.24315
況	-9.24366
規	-9.24408
黨	-9.24462
不同	-9.24469
徵	-9.24479
塗	-9.24488
續	-9.24492
耀	-9.24493
瓊	-9.24951
昇	-9.24973
隅	-9.25049
奮	-9.25081
𢎞	-9.25137
無人	-9.25443
俊	-9.25454
允	-9.25456
鑿	-9.2573
宏	-9.25766
憑	-9.25788
涼	-9.25793
揺	-9.25826
嫌	-9.2593
返	-9.26084
渚	-9.26202
彈	-9.26211
層	-9.26318
襲	-9.2641
米	-9.26443
印	-9.26466
獵	-9.2648
契	-9.26555
而後	-9.26605
妄	-9.26643
澗	-9.26652
為之	-9.26784
十一	-9.26846
亦有	-9.26861
之言	-9.26881
慎	-9.26898
皮	-9.26918
副	-9.27146
四海	-9.27192
鬢	-9.27207
其後	-9.27219
忍	-9.27314
欺	-9.27482
旦	-9.27558
粟	-9.27585
悟	-9.27719
襟	-9.27745
濕	-9.27771
江陵	-9.27795
辰	-9.27885
簾	-9.28112
饒	-9.28224
頓	-9.28271
嶽	-9.28275
菊	-9.28329
競	-9.28534
隣	-9.28677
草堂	-9.28703
脱	-9.28743
寡	-9.28836
晦	-9.2891
鹽	-9.28984
舎	-9.29046
提	-9.29051
段	-9.29063
本作	-9.29284
寓	-9.29313
姿	-9.2935
傅	-9.29436
祝	-9.2944
子美	-9.2957
㸃	-9.29632
風吹	-9.29766
東南	-9.2996
秋風	-9.30043
獄	-9.30141
從事	-9.30275
彩	-9.30321
忝	-9.30497
漁	-9.30676
漫	-9.30869
穆	-9.30891
憤	-9.30933
丞	-9.30996
侍郎	-9.30998
遐	-9.31266
之人	-9.31689
價	-9.31858
藻	-9.32016
削	-9.32041
滯	-9.32112
晉書	-9.32126
諷	-9.32133
墮	-9.32141
潛	-9.32241
科	-9.32303
丈	-9.32421
東都	-9.32478
之下	-9.32523
禮記	-9.32612
鄙	-9.32622
飯	-9.32902
繡	-9.32933
遽	-9.32938
腸	-9.33472
鑒	-9.33491
弘	-9.33498
李白	-9.33502
蠻	-9.33589
竭	-9.33786
翔	-9.3384
風雨	-9.33868
講	-9.33944
肥	-9.34263
厲	-9.34392
雍	-9.34473
消	-9.34499
男	-9.34551
辛	-9.34557
之中	-9.34631
判官	-9.34669
逾	-9.34727
導	-9.34816
崩	-9.34844
偃	-9.34974
屯	-9.34981
而無	-9.35
供	-9.35101
茍	-9.3519
鷹	-9.35398
潜	-9.35411
增	-9.35414
衝	-9.35523
裁	-9.35537
䖍	-9.35617
逃	-9.35656
河東	-9.35752
儉	-9.35777
擢	-9.35806
四十	-9.35813
由是	-9.36036
明年	-9.36069
四年	-9.36071
匪	-9.36085
鬱	-9.36177
腹	-9.36282
催	-9.36292
古今	-9.36302
五十	-9.36403
一名	-9.36478
悠悠	-9.36598
必有	-9.36752
冰	-9.36762
纔	-9.36847
誓	-9.36959
未嘗	-9.3703
踰	-9.37126
冦	-9.37154
之義	-9.37328
髮	-9.37377
五年	-9.3739
飽	-9.37457
泊	-9.37605
彰	-9.37626
趣	-9.37639
享	-9.37643
戍	-9.37646
社	-9.37696
十八	-9.3791
呈	-9.37969
南山	-9.37999
湏	-9.38161
昧	-9.38181
京兆	-9.38241
知其	-9.38387
楚辭	-9.3841
公子	-9.38443
弊	-9.38543
亮	-9.38571
買	-9.38587
箭	-9.38622
謫	-9.38682
洙曰一	-9.38926
道士	-9.38946
寜	-9.38955
倍	-9.39049
▁趙云	-9.3918
樂府	-9.39214
兆	-9.39246
相如	-9.39276
周禮	-9.39337
樊	-9.39412
凶	-9.39503
滋	-9.39624
蜀本	-9.3984
岀	-9.39844
配	-9.39888
員外	-9.39976
朗	-9.40032
壺	-9.40302
淵	-9.40328
岑	-9.4061
十六	-9.40624
冥	-9.40828
杭	-9.40846
一本	-9.40977
學士	-9.41131
藉	-9.41223
前漢	-9.41253
徹	-9.41275
董	-9.41347
仗	-9.4148
又曰	-9.41548
輸	-9.41597
那	-9.41641
肯	-9.41649
踐	-9.4165
驕	-9.41686
袁	-9.41786
方作	-9.41788
付	-9.41832
奴	-9.41913
四方	-9.42109
雉	-9.42207
誌	-9.42389
墳	-9.42559
武帝	-9.42619
涕	-9.42829
促	-9.4305
旱	-9.43215
黄金	-9.43224
添	-9.43249
績	-9.43379
遵	-9.43455
之子	-9.43541
年作	-9.43563
織	-9.43644
揮	-9.43757
其人	-9.43761
天下之	-9.43766
拙	-9.438
鈎	-9.43811
肅宗	-9.43909
貽	-9.44066
注云	-9.44132
援	-9.4418
旬	-9.44395
不以	-9.44398
觴	-9.44401
有司	-9.44498
子孫	-9.44505
唐書	-9.44731
山水	-9.45
敏	-9.45044
馮	-9.45277
東西	-9.45305
秀才	-9.45316
小人	-9.45393
属	-9.45416
未有	-9.45476
至今	-9.45532
誦	-9.45565
然而	-9.45577
之際	-9.45616
譏	-9.45682
腰	-9.45716
了	-9.45723
抵	-9.45727
殆	-9.45794
裘	-9.45849
綠	-9.45958
占	-9.46101
雕	-9.4613
安得	-9.46217
鼔	-9.46227
迫	-9.4623
㸔	-9.46357
爾雅	-9.4645
樵	-9.46453
足以	-9.46536
十月	-9.46585
第一	-9.46648
忌	-9.46841
悔	-9.46981
之上	-9.46993
猛	-9.46998
話	-9.4712
洙	-9.47145
疲	-9.47239
而巳	-9.47247
上有	-9.47299
莫不	-9.47364
宵	-9.47432
逝	-9.47471
百年	-9.47534
随	-9.47617
相思	-9.4763
十四	-9.47682
秉	-9.47702
染	-9.47754
乖	-9.47755
下或	-9.47757
駭	-9.4799
之時	-9.48029
何人	-9.48037
夫子	-9.48059
奚	-9.48134
恥	-9.48154
育	-9.48406
葛	-9.48428
之不	-9.4849
山川	-9.48542
寂寞	-9.48546
麟	-9.48632
不為	-9.48882
壑	-9.48888
栖	-9.4895
損	-9.49014
練	-9.49182
國家	-9.492
西南	-9.49307
姦	-9.49307
隆	-9.49318
雀	-9.49502
陟	-9.49582
夾	-9.49585
何如	-9.49592
神仙	-9.49647
敦	-9.49739
陣	-9.49821
八月	-9.49965
出入	-9.49978
勒	-9.50059
晋	-9.501
標	-9.50128
祗	-9.50158
毫	-9.50176
璧	-9.50292
淮南子	-9.50292
者皆	-9.50319
可謂	-9.50455
元和	-9.50502
灑	-9.50527
活	-9.50536
説文	-9.50594
牢	-9.50596
嵩	-9.50675
簷	-9.5068
態	-9.50742
三十	-9.50879
綿	-9.50887
叛	-9.50986
單	-9.51097
黙	-9.51274
巫	-9.51297
健	-9.51316
㫁	-9.51329
攝	-9.51443
惆悵	-9.51493
濁	-9.51495
頂	-9.51521
限	-9.51539
乏	-9.51612
睡	-9.5163
貞元	-9.51662
駐	-9.51665
預	-9.51689
賓	-9.51753
匈奴	-9.51776
㝷	-9.51892
稽	-9.51896
正月	-9.51898
叟	-9.52134
囊	-9.52272
讀書	-9.52428
像	-9.52503
勑	-9.52524
敘	-9.52561
上下	-9.52562
五月	-9.52567
爽	-9.5259
圗	-9.5263
汗	-9.52672
彦	-9.52679
郢	-9.52693
太原	-9.52752
絳	-9.53034
公主	-9.53113
麥	-9.53356
碎	-9.53364
羙	-9.53496
剪	-9.53504
諭	-9.53669
裂	-9.53757
二月	-9.53787
江上	-9.53832
庾	-9.5386
矜	-9.53894
逼	-9.53923
枉	-9.53932
錄	-9.54079
潔	-9.54081
云云	-9.54088
何時	-9.54107
西北	-9.54179
叶	-9.5422
芙蓉	-9.54227
疊	-9.54245
緒	-9.54299
下有	-9.54331
桐	-9.54333
䟽	-9.54446
綵	-9.54748
倉	-9.54764
台	-9.54765
至于	-9.54845
以此	-9.5491
純	-9.55015
𨽻	-9.55032
茶	-9.55057
暢	-9.55077
躍	-9.55161
古之	-9.55162
剛	-9.55208
歇	-9.55333
羡	-9.55345
案	-9.55445
禄山	-9.55448
又有	-9.55478
俟	-9.55478
戈	-9.5561
瓦	-9.55716
塘	-9.55819
荆州	-9.55865
鐵	-9.55877
檢校	-9.55877
拾遺	-9.55891
曲江	-9.55933
栢	-9.55953
之外	-9.5607
翰林	-9.56075
嬰	-9.56093
曜	-9.5617
祈	-9.56186
犬	-9.56246
徽	-9.56294
拘	-9.56361
言之	-9.56464
換	-9.56493
其事	-9.56516
霑	-9.56564
下或有	-9.56579
苔	-9.56597
効	-9.56718
然則	-9.56736
膺	-9.56777
浮雲	-9.56852
懿	-9.56855
宋玉	-9.57033
盗	-9.57096
子曰	-9.57158
少府	-9.5716
審	-9.57209
臯	-9.57241
前後	-9.57248
區	-9.57278
百里	-9.57377
例	-9.57473
襄陽	-9.57475
䧟	-9.57581
希曰	-9.57707
黄帝	-9.57788
混	-9.57835
決	-9.57862
㑹稽	-9.57919
棹	-9.58046
捧	-9.58174
所居	-9.58221
四句	-9.58341
山中	-9.58363
如是	-9.58381
磨	-9.584
襄	-9.58416
姬	-9.58435
二句	-9.58503
樽	-9.58553
尸	-9.58558
蒸	-9.58703
嫁	-9.58725
渉	-9.58729
凋	-9.58746
不相	-9.58787
夭	-9.58855
江湖	-9.58879
老子	-9.5888
毁	-9.58881
靖	-9.58887
曰此	-9.58946
也今	-9.58972
妓	-9.59034
以其	-9.59096
之至	-9.59134
巡	-9.59266
熊	-9.593
歷	-9.5933
天寳	-9.59336
挂	-9.59423
囚	-9.59447
幹	-9.59481
徘徊	-9.59496
廉	-9.59546
弟子	-9.59565
埋	-9.59601
五言	-9.59609
貨	-9.59742
陷	-9.59808
宛	-9.59859
恃	-9.59883
膏	-9.60198
突	-9.60278
黎	-9.60296
檻	-9.60328
淫	-9.60438
退之	-9.60461
吞	-9.60666
山在	-9.60666
值	-9.60678
冊	-9.60762
不勝	-9.60943
寸	-9.61075
處士	-9.61221
抗	-9.61227
牆	-9.61236
渭	-9.61323
遍	-9.61392
囘	-9.61504
譽	-9.61594
三首	-9.61596
三千	-9.61677
片	-9.61756
減	-9.61784
昨	-9.61821
奇	-9.6183
基	-9.61838
紙	-9.61846
列子	-9.61883
斥	-9.61914
盃	-9.61923
青山	-9.61977
邕	-9.61981
白馬	-9.62133
長沙	-9.62143
嘯	-9.62271
衞	-9.62294
敎	-9.6241
探	-9.62429
孟子	-9.62483
赦	-9.6251
浩	-9.62545
彭	-9.62552
賣	-9.62559
一云	-9.627
㦸	-9.62724
青雲	-9.62754
太宗	-9.62777
萬物	-9.62786
魄	-9.62841
杜詩	-9.62942
麻	-9.62977
霸	-9.63009
鮑	-9.63298
弗	-9.63305
衢	-9.63322
無事	-9.63338
司徒	-9.63539
人皆	-9.6357
儲	-9.63625
匡	-9.63659
皆有	-9.63737
䕶	-9.63913
綴	-9.63959
遶	-9.63971
壓	-9.6412
鶯	-9.64127
洽	-9.6413
九月	-9.64142
是時	-9.64333
諌	-9.64347
後漢書	-9.6459
鄧	-9.64665
淡	-9.64714
伏惟	-9.64742
宦	-9.64757
闢	-9.64763
劔	-9.64853
陋	-9.64856
得其	-9.64942
舌	-9.64948
状	-9.65017
㓜	-9.65029
乾坤	-9.65032
淮南	-9.65163
壘	-9.65257
相逢	-9.65323
産	-9.6534
相見	-9.654
公卿	-9.65435
〇趙曰	-9.65439
醒	-9.6545
懇	-9.65488
敷	-9.65591
此言	-9.65643
谿	-9.65659
電	-9.65761
謙	-9.65781
暉	-9.6589
艱	-9.65988
淑	-9.66083
苗	-9.66106
狐	-9.66127
暑	-9.6618
濤	-9.66376
壤	-9.66414
亦不	-9.66498
包	-9.66548
乳	-9.66554
訛	-9.66569
陂	-9.66588
十三	-9.6667
朋	-9.66755
笛	-9.66775
淪	-9.66846
慘	-9.66868
咎	-9.66891
何所	-9.6691
緩	-9.67186
二人	-9.67186
誇	-9.67201
淨	-9.67259
欽	-9.67372
岐	-9.6738
風塵	-9.67702
一時	-9.67853
邀	-9.67856
之徒	-9.6788
縣令	-9.67906
攜	-9.6798
䏻	-9.68125
慿	-9.68185
割	-9.68289
祐	-9.6833
髙祖	-9.6835
君之	-9.68556
之句	-9.68639
周公	-9.68649
警	-9.68806
芝	-9.68882
榖	-9.68918
富貴	-9.69081
播	-9.69085
羸	-9.69113
島	-9.69271
戚	-9.69278
緣	-9.69373
樂天	-9.69374
曷	-9.69422
娥	-9.69435
臂	-9.69435
舊注	-9.69541
司空	-9.69551
五色	-9.69557
讒	-9.69574
頽	-9.69593
涉	-9.69603
證	-9.69677
灌	-9.69881
握	-9.69913
摩	-9.6992
黜	-9.70041
歸來	-9.70196
戯	-9.70217
桃花	-9.70245
此時	-9.70308
撃	-9.70405
也故	-9.7052
域	-9.7052
終日	-9.7053
梓	-9.70579
曙	-9.70579
而有	-9.70594
淳	-9.70721
矢	-9.7087
三日	-9.70891
瑶	-9.7091
太平	-9.70954
金陵	-9.71035
不用	-9.71058
崑崙	-9.71135
脚	-9.71229
七十	-9.71238
而去	-9.7131
蕪	-9.71372
柄	-9.71378
詩曰	-9.71482
垣	-9.71604
之文	-9.71615
数	-9.71675
〇	-9.71717
七月	-9.7176
鋒	-9.71787
龍門	-9.7184
見其	-9.71892
公以	-9.72021
鬼神	-9.72026
蓄	-9.72027
恣	-9.72051
褒	-9.72091
戮	-9.7217
潘	-9.72187
衍	-9.7219
鳬	-9.72223
殁	-9.72235
鎭	-9.72257
妖	-9.72316
不自	-9.72325
銘曰	-9.72475
繩	-9.72536
整	-9.72571
料	-9.72669
不忍	-9.72673
仙人	-9.72712
楚詞	-9.72868
街	-9.72888
𬒳	-9.7289
臣等	-9.72901
乍	-9.72904
日暮	-9.73007
袖	-9.73032
僚	-9.73195
庻	-9.73219
劇	-9.73348
與之	-9.73425
道路	-9.73502
杜臆	-9.73556
塔	-9.73581
無窮	-9.73603
禦	-9.73689
坊	-9.73712
逕	-9.73722
姚	-9.73724
君臣	-9.73751
靣	-9.73884
僕射	-9.73992
也又	-9.74026
人生	-9.74092
流水	-9.74121
聨	-9.74169
柏	-9.7437
偷	-9.74408
六月	-9.74434
拾	-9.74498
使人	-9.74509
醜	-9.74539
翳	-9.74566
誰能	-9.74567
哲	-9.74575
卽	-9.7463
爐	-9.74725
歛	-9.74761
墻	-9.74761
十七	-9.74774
父母	-9.748
邁	-9.7481
傑	-9.74884
敕	-9.74941
灰	-9.751
明皇	-9.75158
落日	-9.75191
澹	-9.75246
桓	-9.75321
𦵏	-9.75385
拒	-9.75408
蓬萊	-9.75419
䕫	-9.75464
阮	-9.757
山東	-9.75723
媚	-9.7574
自然	-9.75834
師古曰	-9.75884
其言	-9.75901
讎	-9.76088
太尉	-9.76198
其中	-9.76247
廷	-9.76272
伏以	-9.7628
匹	-9.76282
南史	-9.76343
其間	-9.76397
左氏	-9.76437
以自	-9.76444
揚雄	-9.76452
長史	-9.76463
恤	-9.76465
下句	-9.76465
東海	-9.76529
㝠	-9.76571
南陽	-9.76776
竄	-9.76787
河北	-9.76806
輙	-9.76828
是非	-9.76879
者不	-9.76927
春日	-9.77006
用之	-9.77125
欣	-9.77296
犀	-9.77311
黑	-9.77321
見寄	-9.7733
綱	-9.77438
羈	-9.77477
橘	-9.77478
碩	-9.77484
収	-9.77644
恵	-9.77656
巫山	-9.77657
之則	-9.77689
䑓	-9.77713
顔色	-9.77714
儻	-9.77847
邈	-9.77874
輦	-9.78034
纓	-9.78034
豁	-9.78035
樞	-9.78061
不然	-9.78362
岡	-9.78367
製	-9.78411
諸本	-9.78532
天寶	-9.78534
牒	-9.78594
屈原	-9.78596
之名	-9.78604
卓	-9.78718
聞之	-9.78816
謡	-9.78832
醫	-9.78843
場	-9.78869
十九	-9.7891
諧	-9.78922
虹	-9.78928
不可以	-9.78945
䖏	-9.79116
清風	-9.79166
祿	-9.79231
之功	-9.79278
得之	-9.79347
之志	-9.79349
豈不	-9.79363
恱	-9.79421
悼	-9.79428
茫茫	-9.79444
雖有	-9.79476
滑	-9.79483
後人	-9.79534
無以	-9.79589
溢	-9.79607
顛	-9.79624
勵	-9.79647
霽	-9.79765
欽定四庫全書	-9.79811
抽	-9.79823
昆	-9.79948
擒	-9.79984
無不	-9.80071
究	-9.80304
弃	-9.80311
普	-9.8032
姪	-9.80355
誕	-9.80357
槐	-9.80376
盜	-9.80418
帛	-9.80435
一首	-9.80616
綬	-9.80654
弦	-9.8068
文王	-9.80701
九日	-9.80708
倦	-9.80795
子之	-9.80841
矯	-9.80874
不過	-9.80889
河陽	-9.80896
霄	-9.809
故有	-9.80934
不肯	-9.81085
帷	-9.811
其道	-9.81105
灘	-9.81106
主簿	-9.81118
囯	-9.81134
罔	-9.81177
徧	-9.81262
刃	-9.81282
名曰	-9.81284
臣聞	-9.81293
濯	-9.81327
美人	-9.81343
涇	-9.81398
兎	-9.8149
薨	-9.81619
濃	-9.81636
縈	-9.81814
暇	-9.81864
可憐	-9.81914
從此	-9.81921
遮	-9.81989
石本	-9.82004
未知	-9.82111
謗	-9.82129
稻	-9.82146
翅	-9.82154
遙	-9.82192
午	-9.82221
圭	-9.82336
纎	-9.82339
絶句	-9.82406
饑	-9.82529
誘	-9.82555
之類	-9.82875
悦	-9.82884
諒	-9.82903
互	-9.82984
将軍	-9.83019
屠	-9.8302
堆	-9.83071
秘	-9.83106
何必	-9.83232
鵲	-9.83289
判	-9.83315
無任	-9.83349
棘	-9.83612
赫	-9.83613
攸	-9.83627
鑄	-9.83633
冩	-9.83664
明府	-9.83675
己	-9.83718
而言	-9.83799
勁	-9.83825
咸陽	-9.83885
妻子	-9.83899
俄	-9.83925
裔	-9.83977
閤	-9.83978
其文	-9.84152
爛	-9.84191
寇	-9.84192
擲	-9.84208
伸	-9.84355
韓愈	-9.84374
賴	-9.84383
虧	-9.84395
聳	-9.84406
傲	-9.8441
廬山	-9.84427
萍	-9.84545
涯	-9.84709
堤	-9.84742
斂	-9.84767
僻	-9.84793
畔	-9.84803
森	-9.84928
畜	-9.85137
文武	-9.85356
糧	-9.8539
頼	-9.85519
禱	-9.85536
閭	-9.85586
對曰	-9.8566
以來	-9.8566
則有	-9.85715
自古	-9.85835
𤣥宗	-9.85859
朽	-9.8587
併	-9.85914
凍	-9.85918
蘿	-9.85996
為人	-9.86053
擾	-9.86065
蹇	-9.86071
荀	-9.86082
山下	-9.86216
賔客	-9.8623
踏	-9.86316
觀察使	-9.86335
庾信	-9.86443
汚	-9.86467
藤	-9.86487
猷	-9.86562
疆	-9.86633
鷗	-9.86666
不必	-9.86676
嬌	-9.86698
籬	-9.8674
朱注	-9.86888
二子	-9.87003
國之	-9.87088
窟	-9.87117
不成	-9.87179
眷	-9.87182
竿	-9.87195
局	-9.87233
挺	-9.87239
伍	-9.8725
明日	-9.87498
一朝	-9.87584
範	-9.87609
稅	-9.87615
仲尼	-9.87634
使者	-9.87699
滴	-9.87714
皆以	-9.87767
豹	-9.87796
咽	-9.87807
相國	-9.87857
紹	-9.87871
九年	-9.87881
博士	-9.87948
溝	-9.87961
白頭	-9.88001
六年	-9.88128
蹈	-9.88176
眀	-9.88198
東山	-9.88317
十里	-9.88338
是年	-9.88371
貟外	-9.88391
組	-9.88406
截	-9.88415
肩	-9.88549
軌	-9.8855
声	-9.88565
咨	-9.8858
夲	-9.88605
江漢	-9.88606
着	-9.8861
障	-9.88757
所作	-9.88832
出於	-9.88857
南海	-9.88879
父子	-9.88901
西山	-9.8895
其心	-9.88974
時作	-9.88976
淹	-9.89008
府君	-9.89008
書曰	-9.89072
蕭條	-9.89099
析	-9.89173
媿	-9.89187
故事	-9.89189
㳺	-9.8919
吏部	-9.89285
今朝	-9.89409
何事	-9.8942
裳	-9.89508
墟	-9.89552
謝靈運	-9.89561
乙	-9.8964
風流	-9.89747
菜	-9.89768
鳯凰	-9.8977
鋪	-9.89804
人心	-9.89824
桃李	-9.89837
今年	-9.89921
文苑	-9.89974
幼	-9.89974
漿	-9.8998
餞	-9.89991
三百	-9.9004
眺	-9.90146
関	-9.90147
雛	-9.90194
逮	-9.90267
罕	-9.90364
檢	-9.90378
傳云	-9.90404
觧	-9.90408
此篇	-9.90545
浸	-9.90589
貞觀	-9.9063
千年	-9.90679
擅	-9.90751
驗	-9.90784
門下	-9.90875
天上	-9.90879
皓	-9.90895
訖	-9.9097
䕫州	-9.9102
詎	-9.91023
仁義	-9.91043
壞	-9.91165
蒼蒼	-9.91169
侣	-9.91229
遁	-9.91313
不聞	-9.91339
課	-9.9137
蝶	-9.91372
四時	-9.91382
之日	-9.9139
於人	-9.91523
寕	-9.91547
公自	-9.91642
閣本	-9.91651
之故	-9.91662
趙曰言	-9.91665
千載	-9.91721
闊	-9.91765
一百	-9.91806
其名	-9.91859
沃	-9.91949
欵	-9.9196
酣	-9.91985
以下	-9.92039
舅	-9.92103
穀	-9.92184
瑟	-9.92187
巷	-9.92307
奥	-9.9236
漲	-9.92394
抛	-9.92409
冕	-9.92472
謝靈運詩	-9.92501
其身	-9.92537
汴	-9.92612
携	-9.92752
娶	-9.92771
者以	-9.92821
之語	-9.92909
掛	-9.92999
别離	-9.93027
胥	-9.93033
去年	-9.9304
/○	-9.93125
時人	-9.93254
未能	-9.93263
快	-9.93289
不在	-9.93345
不覺	-9.93488
南北	-9.93592
刋	-9.93639
蛟龍	-9.93778
其地	-9.9379
咏	-9.94007
洎	-9.9401
摘	-9.94035
宗元	-9.94037
中書	-9.94051
僅	-9.94056
薪	-9.9416
一本作	-9.94203
盟	-9.94231
潘岳	-9.94231
或有	-9.94284
梓州	-9.94328
世説	-9.94377
七年	-9.94488
衣冠	-9.94496
蹄	-9.94513
或曰	-9.94588
夙	-9.94599
金石	-9.94611
上四	-9.94714
侍中	-9.94721
東方	-9.94796
偉	-9.94821
偽	-9.94833
兇	-9.94859
化為	-9.95123
翫	-9.95201
蹤	-9.95261
鯨	-9.95266
莽	-9.9537
阜	-9.955
不至	-9.95625
鶴曰詩云	-9.95665
旨	-9.95684
未必	-9.95685
齊賢	-9.95713
慢	-9.95714
說文	-9.95808
誣	-9.95898
舍人	-9.96006
冒	-9.96078
柯	-9.96122
㓂	-9.96133
友人	-9.9621
湛	-9.96285
再拜	-9.96401
今之	-9.96412
或无	-9.96508
白首	-9.96518
韶	-9.96544
篆	-9.96555
文字	-9.96564
往往	-9.96596
莖	-9.96641
繆本	-9.96663
各有	-9.96699
唐人	-9.96714
羌	-9.96745
亞	-9.96783
完	-9.96956
馭	-9.96959
諸公	-9.96976
睿	-9.96996
西京	-9.97073
中國	-9.97226
人事	-9.97395
賦詩	-9.97441
論語	-9.97449
執事	-9.97464
汾	-9.97492
蟠	-9.9753
者必	-9.97602
賈誼	-9.97634
懶	-9.97642
春草	-9.9766
江水	-9.97666
臧	-9.97771
幕府	-9.9778
㪚	-9.97796
與君	-9.9781
狼	-9.9795
自是	-9.97953
杳	-9.97965
協	-9.97966
天之	-9.98109
蘆	-9.98142
蕭蕭	-9.98145
鼻	-9.98181
城南	-9.98189
勃	-9.98205
佇	-9.9821
往來	-9.98252
千萬	-9.98322
羣臣	-9.98366
秋日	-9.98387
婦人	-9.9844
考之	-9.98456
千金	-9.98545
齡	-9.98574
床	-9.98679
溺	-9.98718
南方	-9.98769
轡	-9.98886
學者	-9.98999
濫	-9.99075
従	-9.99088
其子	-9.99128
蒼梧	-9.99139
騷	-9.99313
臥	-9.9936
知之	-9.99555
之亂	-9.99581
中興	-9.99642
叅	-9.99711
褐	-9.9973
第二	-9.99786
不言	-9.99818
蔓	-9.99892
之内	-9.99893
文帝	-9.99896
叨	-9.99992
額	-10.0001
紛紛	-10.0001
駿	-10.0001
構	-10.0016
慧	-10.0016
帖	-10.002
栽	-10.0022
干戈	-10.0023
狄	-10.0025
嗜	-10.0032
庚	-10.0035
陸機	-10.0038
捕	-10.0038
煥	-10.004
變化	-10.0041
玩	-10.0043
創	-10.0043
子厚	-10.0058
梟	-10.006
揚州	-10.0062
中原	-10.0068
▁詩	-10.0078
𤓰	-10.0081
距	-10.0084
縷	-10.0084
輟	-10.0085
焦	-10.0087
寒食	-10.0089
奈	-10.0105
函	-10.0107
嶺南	-10.0109
參差	-10.0115
餐	-10.0128
沛	-10.013
不應	-10.0132
者其	-10.0143
風俗	-10.015
湖南	-10.0151
瓜	-10.0154
點	-10.0155
圃	-10.0168
項	-10.0174
狗	-10.0174
公詩	-10.0176
軸	-10.0183
造化	-10.0187
滄海	-10.019
常侍	-10.0193
時有	-10.0201
單于	-10.0201
有一	-10.0205
隂陽	-10.021
大將軍	-10.0212
測	-10.0238
纒	-10.0244
挾	-10.026
東北	-10.0261
豆	-10.0263
濶	-10.0265
裝	-10.0268
武陵	-10.0274
取其	-10.0274
藍	-10.0283
驥	-10.0288
奠	-10.0291
詶	-10.0292
受命	-10.0301
零	-10.0318
之情	-10.0329
珪	-10.0329
液	-10.0331
㧞	-10.0332
之禮	-10.034
梧	-10.0353
之美	-10.0355
邵	-10.036
嚴武	-10.0374
不死	-10.0375
替	-10.0378
寃	-10.0379
餌	-10.0391
粹	-10.04
相與	-10.04
其志	-10.0405
有時	-10.0412
一曰	-10.0415
江海	-10.0418
葵	-10.0422
禮樂	-10.0423
參軍	-10.0426
東坡	-10.0427
少陵	-10.0427
其二	-10.0431
不爲	-10.0432
隙	-10.0444
鵬	-10.0445
欄	-10.0449
文選	-10.0453
員	-10.0459
簫	-10.0467
噫	-10.0468
板	-10.047
偕	-10.047
太常	-10.0474
之法	-10.0475
汲	-10.0483
鉤	-10.0491
丕	-10.0493
控	-10.0495
未得	-10.0504
冲	-10.0515
後世	-10.0516
此地	-10.0541
自有	-10.0544
罰	-10.0551
唐故	-10.0551
鈞	-10.0559
艶	-10.0559
浴	-10.056
奔走	-10.0573
墓誌	-10.0576
芒	-10.0579
行人	-10.058
子弟	-10.0582
篤	-10.0584
逈	-10.0584
禪師	-10.06
瑕	-10.0605
膳	-10.0606
八年	-10.0618
螢	-10.0628
佞	-10.0629
代宗	-10.063
訴	-10.0631
頑	-10.0632
濡	-10.0633
臘	-10.0635
賢者	-10.0638
江東	-10.0638
而死	-10.0647
皃	-10.0647
江山	-10.0652
王洙曰	-10.0662
搜	-10.0671
胄	-10.0676
扉	-10.0677
氏之	-10.068
他日	-10.0683
戾	-10.0684
填	-10.0699
栗	-10.07
其餘	-10.0701
車馬	-10.0728
舊史	-10.0732
庫	-10.0742
㤙	-10.0745
海上	-10.0746
朴	-10.0747
廵	-10.0757
武王	-10.0765
詭	-10.0766
謨	-10.0767
怠	-10.0768
膠	-10.0769
捷	-10.0771
四月	-10.0772
綏	-10.0772
㱕	-10.0773
豫	-10.079
汙	-10.0792
文集	-10.0802
非也	-10.0802
不忘	-10.0805
門外	-10.0816
滌	-10.082
匣	-10.0822
修可曰	-10.0827
不識	-10.0832
仇	-10.084
徂	-10.0843
刪	-10.0848
詩人	-10.0861
懲	-10.0866
而下	-10.0874
衣裳	-10.0875
其意	-10.0877
毅	-10.0878
狎	-10.0884
枚	-10.0885
匠	-10.0887
愆	-10.0893
粧	-10.0893
年年	-10.0896
駒	-10.0901
律詩	-10.0901
何由	-10.0907
監察御史	-10.0908
詐	-10.0911
檄	-10.0911
嚮	-10.0915
兔	-10.0915
至此	-10.0916
膝	-10.0936
烹	-10.0939
所在	-10.0958
北斗	-10.096
垢	-10.096
古樂府	-10.0961
者亦	-10.0974
十二月	-10.0975
訟	-10.0985
翦	-10.0985
一無	-10.0986
禀	-10.0987
瀟湘	-10.0992
而為	-10.0998
也夫	-10.1004
䑕	-10.1008
牋	-10.1008
出門	-10.1014
舘	-10.1018
之盛	-10.1019
大師	-10.1021
所見	-10.1027
入朝	-10.1029
几	-10.103
斑	-10.1034
弼	-10.1051
鉞	-10.1051
驟	-10.1062
天台	-10.1066
冶	-10.1081
漢武帝	-10.1083
藍田	-10.1085
女子	-10.1094
禮部	-10.1096
何足	-10.1102
宸	-10.1103
啄	-10.1104
瘴	-10.1107
指言	-10.1109
籌	-10.111
蘂	-10.111
不合	-10.1115
二百	-10.1125
水中	-10.1129
曹植	-10.1132
鳩	-10.1133
故園	-10.1144
専	-10.1153
亷	-10.1155
之氣	-10.1159
十萬	-10.1169
百官	-10.1172
鸚鵡	-10.1181
聘	-10.1181
祚	-10.1183
州司馬	-10.1188
飲酒	-10.1188
見前	-10.1192
童曰	-10.1193
無復	-10.1194
第三	-10.1198
五六	-10.1198
袍	-10.1201
也言	-10.1213
寂寥	-10.1214
鄕	-10.1216
萬人	-10.1224
之作	-10.1224
吾子	-10.1224
藴	-10.1226
陜	-10.123
邱	-10.1232
砌	-10.1236
者乎	-10.1236
蘇州	-10.1239
拱	-10.1247
嶠	-10.1248
即位	-10.1252
堦	-10.1255
青天	-10.1257
歌曰	-10.1258
廓	-10.1259
萬古	-10.1263
揖	-10.1265
進退	-10.1267
轅	-10.1268
故以	-10.1272
漂	-10.1276
遏	-10.1279
曰我	-10.1279
文學	-10.1279
社稷	-10.1279
豈無	-10.1282
山谷	-10.1283
記云	-10.1294
校書	-10.13
者為	-10.1304
飜	-10.1304
巫峽	-10.1305
斤	-10.1321
屑	-10.133
欹	-10.1331
菩薩	-10.1332
不堪	-10.1332
御史中丞	-10.1338
者有	-10.134
者非	-10.1345
椒	-10.1352
軫	-10.1355
邇	-10.1357
王孫	-10.1367
𥙷	-10.1376
妍	-10.1379
馴	-10.138
悶	-10.1381
不當	-10.1382
爲之	-10.1388
畿	-10.139
感激	-10.1397
絡	-10.1404
徼	-10.1407
蠶	-10.141
䆫	-10.1415
永州	-10.1416
七言	-10.1421
脂	-10.143
貳	-10.1433
簟	-10.1436
耻	-10.1437
集作	-10.1443
夢得	-10.1457
恠	-10.1459
昨日	-10.147
古者	-10.1471
漢武	-10.1471
乂	-10.1479
頴	-10.1479
殺之	-10.148
新史	-10.148
叚	-10.1481
臻	-10.1481
刼	-10.1485
君王	-10.1485
圎	-10.1503
蹙	-10.1504
呌	-10.1506
大臣	-10.1506
菱	-10.1507
疇	-10.1524
廊	-10.1531
洒	-10.1533
秪	-10.1534
措	-10.1535
架	-10.1536
風雲	-10.1536
鳯翔	-10.1542
聖人之	-10.1545
不幸	-10.155
沸	-10.1555
㓕	-10.1558
堯舜	-10.1558
簪	-10.1559
陌	-10.1562
簮	-10.1563
或云	-10.1576
佳人	-10.1579
衮	-10.1582
三字	-10.1583
誡	-10.1583
虗	-10.1585
月明	-10.1588
慵	-10.1589
之才	-10.1593
生於	-10.1598
从	-10.1599
闈	-10.1608
奬	-10.1609
不足以	-10.1612
未及	-10.1618
他人	-10.1622
艱難	-10.1624
誥	-10.1626
匿	-10.1632
其上	-10.1634
天子之	-10.1634
諾	-10.1638
奈何	-10.1643
名也	-10.165
姜	-10.1658
宥	-10.1659
桞	-10.1662
九州	-10.1663
丈夫	-10.1668
▁今按	-10.167
白帝	-10.1672
送李	-10.1672
郭璞	-10.1675
楓	-10.1683
翟	-10.1685
終不	-10.1686
沼	-10.1686
憲宗	-10.1697
布衣	-10.1703
數十	-10.1709
人以	-10.171
之恩	-10.1712
恢	-10.1712
童子	-10.1713
一篇	-10.1716
之辭	-10.1716
相望	-10.172
其家	-10.1722
亦曰	-10.1728
分明	-10.1735
令人	-10.1738
慚	-10.1741
鬚	-10.1742
白髪	-10.1743
春色	-10.1747
旌旗	-10.1747
麾	-10.176
自此	-10.1766
穹	-10.1766
儔	-10.1766
一字	-10.1768
下文	-10.1776
轍	-10.1787
札	-10.1788
喬	-10.1789
王粲	-10.179
護	-10.1799
而歸	-10.1808
雲雨	-10.1809
閔	-10.1812
鬬	-10.1813
貝	-10.1814
六十	-10.1816
磬	-10.1817
華山	-10.1817
跳	-10.1817
驂	-10.1818
涵	-10.1819
韜	-10.1822
掾	-10.1823
縣有	-10.1825
蒼生	-10.1833
宣城	-10.1833
天涯	-10.1834
頸	-10.184
觀其	-10.184
人情	-10.1842
怯	-10.1846
處處	-10.1847
瓶	-10.1848
亦可	-10.1849
鶴注	-10.1855
王者	-10.1857
不遇	-10.1873
豈有	-10.1877
從容	-10.1877
山之	-10.1906
二十四	-10.1909
之說	-10.1911
有此	-10.1916
黄河	-10.1919
聮	-10.192
沐	-10.192
皇甫	-10.1922
上元	-10.1923
朔方	-10.1944
丹青	-10.1945
蜂	-10.1951
愼	-10.1952
纂	-10.1952
傳曰	-10.1953
級	-10.1956
夕陽	-10.1961
漠	-10.197
蟻	-10.1971
詩序	-10.1979
而行	-10.1993
紆	-10.1999
惶	-10.2
虬	-10.2001
亟	-10.2002
括	-10.2005
唯有	-10.2008
海内	-10.2009
有大	-10.2015
溟	-10.2016
廣陵	-10.2019
十餘	-10.202
三峽	-10.2021
幽州	-10.2024
株	-10.2025
譬	-10.2032
姓名	-10.2032
峭	-10.2034
两	-10.2035
文粹	-10.2044
花落	-10.2045
新書	-10.2046
故也	-10.2047
翮	-10.2047
岫	-10.2061
魏文帝	-10.2063
其一	-10.2066
琳	-10.2084
氛	-10.2084
老人	-10.2084
苞	-10.2085
因以	-10.209
萬國	-10.2112
不易	-10.2131
不出	-10.2134
珮	-10.214
扁舟	-10.2141
絹	-10.2141
坦	-10.2141
通鑑	-10.2142
千古	-10.2146
杜陵	-10.2147
不歸	-10.2148
亦無	-10.2152
即事	-10.2157
汎	-10.2159
炙	-10.2163
豕	-10.2163
一年	-10.2163
潰	-10.2165
粗	-10.2165
憫	-10.217
詩有	-10.2176
洙曰見	-10.2177
方無	-10.2181
其下	-10.2184
軰	-10.2186
督	-10.2187
沾	-10.2188
雌	-10.2189
如今	-10.2192
舎人	-10.2198
窓	-10.2202
緯	-10.2202
以言	-10.2204
十一月	-10.2207
壊	-10.2219
孽	-10.2219
甸	-10.2221
猶未	-10.2221
艾	-10.2221
演	-10.2223
塵埃	-10.2227
之大	-10.2228
杭本	-10.2235
若是	-10.2238
秋水	-10.2239
鍊	-10.2239
礼	-10.2245
蔡曰	-10.2247
覔	-10.2247
畦	-10.2248
兵馬	-10.2252
濵	-10.2253
三十六	-10.2256
黔	-10.2261
轂	-10.2269
楹	-10.2272
豔	-10.2273
神明	-10.2274
租	-10.2276
山人	-10.2276
鸎	-10.2277
衫	-10.2279
鴛鴦	-10.2279
閱	-10.228
吁	-10.2282
王母	-10.2295
壮	-10.2302
阮籍	-10.2303
之詞	-10.2315
斾	-10.233
萌	-10.2331
揔	-10.2331
貯	-10.2336
郞	-10.2352
跪	-10.2355
不任	-10.2356
京兆尹	-10.2359
姻	-10.2359
瘦	-10.2359
之誠	-10.236
兾	-10.2362
故鄉	-10.2373
綸	-10.2382
太夫人	-10.2386
北海	-10.2396
閨	-10.2397
不與	-10.2405
平原	-10.2406
剖	-10.2409
誼	-10.241
坂	-10.2412
人所	-10.2413
箴	-10.2413
甲子	-10.2415
罹	-10.2417
公為	-10.2419
池上	-10.2423
詳見	-10.2434
摇	-10.2438
徇	-10.2442
見之	-10.2443
箋	-10.2447
二千石	-10.2448
諸將	-10.245
可知	-10.245
穢	-10.247
司馬相如	-10.2473
耆	-10.2478
紂	-10.2486
者曰	-10.2488
微之	-10.2488
誰家	-10.249
鷺	-10.249
丹陽	-10.2492
稜	-10.2496
魁	-10.2496
沮	-10.2499
朝夕	-10.2504
斧	-10.2516
不盡	-10.2521
軀	-10.2525
撥	-10.2532
評	-10.2534
記曰	-10.2541
塲	-10.2543
獨立	-10.255
上柱國	-10.2552
從之	-10.2555
躡	-10.2557
淮西	-10.2557
袂	-10.2558
可見	-10.2559
字非是	-10.2566
鞍	-10.2579
鷄	-10.2582
闇	-10.2582
㠶	-10.2584
之説	-10.2587
莫能	-10.2587
侍御史	-10.2597
本傳	-10.2598
江西	-10.2599
千秋	-10.26
汴州	-10.2607
灼	-10.2607
遼	-10.2609
眇	-10.2609
塟	-10.261
嵇康	-10.261
隴西	-10.261
未詳	-10.2611
跨	-10.2612
此章	-10.2618
九重	-10.262
日夜	-10.2629
宗廟	-10.2633
抃	-10.2636
國語	-10.2636
嬴	-10.264
蛟	-10.2641
的	-10.2645
戢	-10.2667
万	-10.2667
惕	-10.2669
山河	-10.268
楚王	-10.268
不是	-10.2681
制勑	-10.2682
有功	-10.2686
一旦	-10.2688
尼	-10.269
斈	-10.2693
棺	-10.2695
知音	-10.2696
榻	-10.2699
骨肉	-10.2703
零落	-10.2704
上書	-10.2706
􁀙	-10.2718
一言	-10.2727
猜	-10.2728
之南	-10.2732
可汗	-10.2733
一切	-10.274
鬭	-10.2752
恬	-10.2755
壯士	-10.276
西方	-10.2765
蓮花	-10.2769
諸生	-10.277
落花	-10.2772
三四	-10.2776
杏	-10.2777
殿中侍御史	-10.2782
逍遥	-10.2784
滄浪	-10.2785
而作	-10.2786
譜	-10.2797
地名	-10.2798
荆南	-10.2798
挽	-10.2798
湍	-10.281
遜	-10.2811
渴	-10.2811
憎	-10.2815
皇后	-10.282
騁	-10.284
耗	-10.2841
之任	-10.2842
駢	-10.2844
二十八	-10.2846
縱横	-10.2855
有感	-10.2857
也然	-10.2866
虐	-10.2866
寮	-10.2866
借問	-10.287
酸	-10.2871
俸	-10.2871
牟	-10.2872
某官	-10.2874
亦云	-10.2882
也公	-10.2886
此句	-10.2889
十二年	-10.2896
三軍	-10.2901
坤	-10.2901
九江	-10.2905
之臣	-10.2913
之謂	-10.2922
掖	-10.2925
梵	-10.2929
蔣	-10.2931
五首	-10.2936
無由	-10.2939
柴	-10.2944
又以	-10.295
給事中	-10.2952
衡山	-10.2956
扶風	-10.2957
豈可	-10.2958
日出	-10.2969
三公	-10.2971
十四年	-10.2974
芳草	-10.2975
地理志	-10.2982
繇	-10.2984
泰山	-10.2985
本草	-10.2989
飡	-10.299
喚	-10.299
山林	-10.2996
夔	-10.3
上句	-10.3004
白雪	-10.3007
蕭本	-10.301
太學	-10.3011
閤下	-10.3014
膽	-10.3019
儼	-10.302
狹	-10.3021
豈非	-10.3023
公孫	-10.3025
四字	-10.3029
猶有	-10.3036
王子	-10.3037
十五年	-10.3038
黍	-10.3043
旄	-10.3043
忙	-10.3045
梯	-10.3048
人不	-10.3053
有三	-10.3056
謝安	-10.3058
霍	-10.306
卦	-10.3074
鏤	-10.3077
都督	-10.3081
萬年	-10.3095
毗	-10.3099
自謂	-10.3102
漆	-10.3102
檀	-10.3104
奢	-10.3107
饋	-10.3109
殷勤	-10.3119
五湖	-10.3125
今則	-10.3126
較	-10.3137
徐州	-10.3138
梗	-10.3139
鵝	-10.3142
之狀	-10.3146
而能	-10.3158
之理	-10.3183
君子之	-10.3186
凄	-10.3188
螭	-10.3189
冨	-10.3193
悽	-10.3194
係	-10.3196
覧	-10.3197
攘	-10.3197
華州	-10.3207
之命	-10.3208
王之	-10.3208
傷心	-10.3219
饗	-10.3219
撓	-10.3224
年少	-10.3225
减	-10.3228
詢	-10.3228
昬	-10.3229
即此	-10.3233
歐陽	-10.3239
則知	-10.3246
團	-10.3254
翹	-10.3256
内外	-10.3257
衷	-10.3257
巒	-10.326
潭州	-10.3267
國公	-10.327
以文	-10.3274
於時	-10.3288
衙	-10.3291
聖賢	-10.3298
從軍	-10.33
中使	-10.33
視之	-10.3307
羽林	-10.3307
笳	-10.3311
縛	-10.3318
一枝	-10.3321
嵐	-10.3323
之矣	-10.3323
榆	-10.3324
我心	-10.3338
當在	-10.334
遣使	-10.3345
西京雜記	-10.3346
帯	-10.3346
闘	-10.3347
縮	-10.3348
掠	-10.3349
茲	-10.3349
棊	-10.3351
有二	-10.3363
師云	-10.3367
耿	-10.3369
渇	-10.3376
挈	-10.3378
聞道	-10.338
罇	-10.338
以成	-10.3381
而又	-10.3387
至是	-10.3389
書云	-10.3391
耳目	-10.3392
筠	-10.3395
歸去	-10.3395
賢人	-10.34
恕	-10.3409
秘書	-10.3409
版	-10.3409
幾時	-10.341
噴	-10.3411
油	-10.3411
相去	-10.3412
薫	-10.3412
搖	-10.3413
礙	-10.3415
考功	-10.3437
安可	-10.3448
祔	-10.3455
訣	-10.3469
什	-10.3478
家貧	-10.3488
未可	-10.3492
捐	-10.3495
系	-10.3496
銳	-10.3502
羨	-10.3503
厨	-10.3503
多病	-10.3504
畝	-10.3505
鷰	-10.3505
彊	-10.3505
同時	-10.3507
箕	-10.351
蜀本作	-10.3512
號曰	-10.3513
形容	-10.3516
丸	-10.3534
是為	-10.3548
其實	-10.3553
湧	-10.3562
闔	-10.3563
斯文	-10.3563
勅	-10.3567
梢	-10.3567
對酒	-10.3572
大厯	-10.3572
江淹	-10.3573
經過	-10.3574
時時	-10.3579
河中	-10.3585
雲臺	-10.3587
蕙	-10.359
宣州	-10.359
道也	-10.3592
之靈	-10.3594
丈人	-10.3595
濬	-10.3596
生死	-10.3608
太公	-10.3608
南國	-10.3611
城中	-10.3613
長者	-10.3614
御史大夫	-10.3623
弩	-10.3625
寔	-10.3625
侈	-10.3627
乾元	-10.3627
蔚	-10.3628
檣	-10.363
公曰	-10.363
其字	-10.3637
其時	-10.3639
州縣	-10.364
宫中	-10.3658
貺	-10.3658
漠漠	-10.3661
宇宙	-10.3661
晝夜	-10.3663
謂其	-10.3664
吾道	-10.3666
相對	-10.3667
舊唐書	-10.3673
白玉	-10.3678
之難	-10.3682
乃知	-10.3683
見上	-10.3684
鶻	-10.3686
在此	-10.3686
五百	-10.3688
稼	-10.3689
青青	-10.3689
黛	-10.3691
漳	-10.3696
羽翼	-10.3699
一身	-10.3711
於斯	-10.3712
上天	-10.3712
十三年	-10.3718
肇	-10.372
覇	-10.3721
老夫	-10.3721
曩	-10.3721
瑩	-10.3722
揆	-10.3724
知已	-10.3724
詩書	-10.3726
奉和	-10.3726
滄洲	-10.3728
百萬	-10.373
之詩	-10.3732
始知	-10.3732
殺人	-10.3746
之師	-10.375
囬	-10.3755
事見	-10.3758
未盡	-10.3766
桀	-10.3778
麓	-10.3784
婉	-10.3785
辜	-10.3786
黷	-10.3786
炳	-10.3787
者則	-10.3787
誨	-10.3789
而不能	-10.3789
大道	-10.3795
十日	-10.3798
猶在	-10.3802
二十年	-10.3806
消息	-10.3819
江淮	-10.3823
掉	-10.3836
不暇	-10.3839
鵠	-10.3841
現	-10.3849
扈	-10.3849
蛾	-10.3849
金吾	-10.3865
盡日	-10.3876
拳	-10.3879
與人	-10.3881
下四	-10.3882
離騷	-10.3883
皷	-10.3885
囂	-10.3885
准	-10.3888
悵望	-10.3891
門前	-10.3893
秦王	-10.3895
死生	-10.3896
道者	-10.3898
八句	-10.3901
班固	-10.3902
則是	-10.3902
光武	-10.3907
無限	-10.3907
王維	-10.3908
裕	-10.3909
禾	-10.3912
莭	-10.3913
亘	-10.3913
睦	-10.3915
敞	-10.3916
石門	-10.3918
之門	-10.392
為我	-10.392
潯陽	-10.3929
何為	-10.3929
秋月	-10.3931
舊本	-10.3942
功名	-10.3951
煖	-10.3951
蹉跎	-10.3952
孺	-10.3952
畱	-10.3953
鄴	-10.3956
不顧	-10.3965
明堂	-10.3966
湘水	-10.3969
將士	-10.3973
叩	-10.3975
貂	-10.3976
蟄	-10.3979
鑪	-10.3982
之西	-10.3983
厄	-10.3986
部郎中	-10.3988
飲食	-10.3989
五日	-10.3992
天地之	-10.3994
三人	-10.3997
朋友	-10.4
集中	-10.4001
暄	-10.4013
驪	-10.4014
靄	-10.4015
扣	-10.4015
橫	-10.4016
第五	-10.4019
新詩	-10.4025
隴右	-10.4027
成功	-10.4036
稷	-10.4036
緘	-10.404
乱	-10.404
問之	-10.4045
也若	-10.4049
粲	-10.4049
范陽	-10.4052
上或	-10.4063
之徳	-10.4067
膚	-10.4072
㢤	-10.4072
彫	-10.4072
洙曰言	-10.4073
郎官	-10.4074
紗	-10.4077
鋤	-10.4077
不通	-10.4078
東川	-10.4078
白露	-10.4082
劫	-10.4082
冤	-10.4083
回首	-10.4083
其先	-10.4085
雲安	-10.409
給事	-10.409
東方朔	-10.409
軍中	-10.4097
之位	-10.4102
又何	-10.411
而出	-10.4111
闌	-10.4111
敝	-10.4112
奕	-10.4112
肝	-10.4113
秦州	-10.4115
濱	-10.4115
英華作	-10.4122
不獲	-10.4124
冡	-10.414
置酒	-10.4146
沈約	-10.4155
不待	-10.4158
昨夜	-10.4163
作詩	-10.4175
不朽	-10.4177
牲	-10.4177
峙	-10.4179
衾	-10.418
億	-10.4183
廽	-10.4183
度支	-10.419
以聞	-10.4197
皎	-10.4197
神女	-10.4197
月令	-10.4198
有神	-10.4203
㪯	-10.4206
之術	-10.4208
竦	-10.4208
麒麟	-10.421
牕	-10.4213
絕	-10.4218
若干	-10.4224
明主	-10.4239
渙	-10.4242
三十里	-10.4247
死者	-10.4252
得失	-10.4254
之精	-10.4256
衣食	-10.4258
野人	-10.4269
閬州	-10.427
白水	-10.4273
是故	-10.4274
癡	-10.4278
縣南	-10.4283
霜雪	-10.4284
昭王	-10.4288
觀之	-10.4289
不食	-10.4293
東風	-10.4293
之女	-10.4303
鮑照詩	-10.4305
搏	-10.4311
暝	-10.4311
侔	-10.4312
萃	-10.4313
日日	-10.4313
牡丹	-10.4315
自知	-10.4317
之餘	-10.4318
城西	-10.432
一生	-10.4321
嗚呼哀哉	-10.4321
杜甫	-10.4324
聖朝	-10.4326
流落	-10.4326
秋夜	-10.4335
之處	-10.4336
琯	-10.434
歌詩	-10.4342
誄	-10.4345
謾	-10.4348
蠧	-10.4348
穎	-10.4349
而自	-10.4354
亦何	-10.4354
猥	-10.4376
沂	-10.4376
漾	-10.438
䰟	-10.438
芻	-10.438
酷	-10.4381
飬	-10.4382
幢	-10.4384
衆人	-10.4387
騫	-10.4401
潁	-10.4401
曹子建	-10.4402
邯鄲	-10.4415
愴	-10.4416
飈	-10.4418
甕	-10.4419
江夏	-10.4424
舉進士	-10.4424
舟中	-10.4435
失其	-10.4436
般	-10.4439
閬	-10.4441
安能	-10.4442
不動	-10.4444
者謂	-10.4444
詰	-10.4444
四人	-10.4447
奸	-10.4452
黄鶴	-10.4466
高祖	-10.447
公與	-10.4475
逺近	-10.4477
掘	-10.448
之制	-10.4481
丹砂	-10.4482
断	-10.4483
風起	-10.4485
所知	-10.4489
甘泉	-10.4491
茫	-10.4493
鮑照	-10.4497
于是	-10.4509
脉	-10.4511
衘	-10.4516
雨露	-10.4519
之力	-10.4534
所云	-10.4541
媒	-10.4547
妬	-10.4547
矧	-10.4551
汀	-10.4551
之德	-10.4552
六合	-10.4557
楚人	-10.4561
之罪	-10.4567
題詩	-10.4569
之勢	-10.4577
李陵	-10.4582
牖	-10.4586
呂	-10.4586
打	-10.4589
第四	-10.459
兩句	-10.4591
君不見	-10.4593
而得	-10.461
英雄	-10.4612
荘子	-10.4615
城東	-10.4618
鐡	-10.462
郁	-10.4621
釵	-10.4623
方從	-10.4625
無心	-10.4627
萬事	-10.463
漁父	-10.4632
次第	-10.4633
夔州	-10.4639
世間	-10.4639
道之	-10.4644
棟	-10.4645
廣韻	-10.4648
多少	-10.4651
邸	-10.4653
逄	-10.466
壻	-10.4661
東京	-10.4661
妨	-10.4668
憚	-10.4682
醴	-10.4684
相似	-10.4684
若此	-10.4691
它	-10.4692
搆	-10.4693
帝紀	-10.4694
豫章	-10.4697
寒暑	-10.471
浄	-10.4713
賁	-10.4718
隕	-10.4722
以示	-10.4722
榛	-10.4723
一巻	-10.4723
一統志	-10.4725
耽	-10.4726
頒	-10.4726
昂	-10.4729
巻註	-10.4734
復何	-10.4738
名山	-10.4739
白髮	-10.4739
劉向	-10.4741
無情	-10.4743
出處	-10.4744
笋	-10.475
亦以	-10.4753
稚	-10.4754
樸	-10.4759
翡翠	-10.4762
彭城	-10.4763
珊瑚	-10.4763
粒	-10.4765
虢	-10.4766
歌舞	-10.477
一二	-10.477
武功	-10.477
山海經	-10.4771
慨	-10.4776
梨	-10.4778
為君	-10.4783
王公	-10.4784
之風	-10.4786
盆	-10.4792
同年	-10.4793
煎	-10.4796
上或有	-10.4797
詔書	-10.4798
二公	-10.4798
宣王	-10.4801
叅軍	-10.4807
小兒	-10.481
相識	-10.4813
李杜	-10.4822
居易	-10.4824
丑	-10.4825
婚	-10.4828
三本	-10.4828
譲	-10.4829
窗	-10.483
軟	-10.483
颯	-10.4831
五里	-10.4834
駱	-10.4834
天人	-10.484
出為	-10.485
而成	-10.4855
山有	-10.486
一曲	-10.4864
勾	-10.4865
艸	-10.4865
敖	-10.4866
篋	-10.4866
少卿	-10.4866
䕃	-10.4867
咫尺	-10.4869
曵	-10.4869
西域	-10.4869
覲	-10.487
迥	-10.487
二十五	-10.4873
王師	-10.4882
副使	-10.4887
笙	-10.4888
以求	-10.4894
亊	-10.4902
龎	-10.4903
懽	-10.4904
內	-10.4905
扶桑	-10.4906
若有	-10.4906
蔡邕	-10.4907
天馬	-10.4909
留守	-10.4912
三尺	-10.4912
諸道	-10.4914
離别	-10.4916
士卒	-10.4924
中外	-10.4925
者如	-10.493
腐	-10.4935
太史	-10.4939
李公	-10.4943
拆	-10.4945
去聲	-10.495
童云	-10.4954
其義	-10.4959
白帝城	-10.4962
著書	-10.4964
呀	-10.497
凖	-10.4971
税	-10.4972
迭	-10.4972
沿	-10.4972
於天下	-10.4972
慷慨	-10.4974
無可	-10.4978
蠲	-10.4978
唐志	-10.4979
李善註	-10.498
文公	-10.4981
水經注	-10.4984
賓客	-10.4993
在長安	-10.4997
悖	-10.5008
庇	-10.5009
閶闔	-10.5012
盪	-10.5013
東流	-10.5016
不知其	-10.5016
禹貢	-10.502
未足	-10.5023
如故	-10.5024
元氣	-10.5025
驪山	-10.5031
太和	-10.5036
山南	-10.5037
瑣	-10.5041
剥	-10.5042
尚書郎	-10.5044
撲	-10.5045
弭	-10.5046
心不	-10.5046
嬉	-10.5047
壷	-10.5049
怕	-10.505
▁杜臆	-10.5053
西川	-10.5054
數百	-10.5055
五千	-10.5055
妹	-10.506
斯人	-10.5075
不絶	-10.5076
張籍	-10.5078
噐	-10.5078
渥	-10.5079
汩	-10.5081
集序	-10.5081
醇	-10.5082
踵	-10.5083
繪	-10.5085
棗	-10.5086
以喻	-10.5087
痕	-10.5087
筭	-10.5087
獨孤	-10.5089
京兆府	-10.5101
意氣	-10.5101
此乃	-10.5105
乾元二年	-10.5105
上方	-10.5107
大抵	-10.5111
之東	-10.5112
藪	-10.5115
不免	-10.5115
縣尉	-10.512
遂以	-10.512
棠	-10.5122
光輝	-10.5126
桃源	-10.5128
末句	-10.5132
乎其	-10.5136
改為	-10.5137
所得	-10.514
百餘	-10.5141
部員外郎	-10.5145
荆門	-10.5145
誰知	-10.5146
祇	-10.515
少尹	-10.5155
槎	-10.5155
熙	-10.5157
以上	-10.5161
為一	-10.5166
終南	-10.5166
方从	-10.5168
建中	-10.5169
天意	-10.518
郡王	-10.5187
曰子	-10.5188
璋	-10.519
蔬	-10.5191
寅	-10.5195
擕	-10.5195
本無	-10.5213
鄭公	-10.5217
瀆	-10.5221
蘋	-10.5222
浩浩	-10.5223
有道	-10.5223
諡	-10.5224
莎	-10.5227
昔者	-10.5228
故名	-10.5229
于此	-10.5229
陽縣	-10.523
毀	-10.5231
尙書	-10.5233
上皇	-10.5236
老病	-10.5238
中夜	-10.5243
張衡	-10.5244
星辰	-10.5245
張華	-10.5247
杭州	-10.5247
碣	-10.5253
語曰	-10.5259
狩	-10.5264
不失	-10.5265
㓗	-10.5266
閩	-10.5266
潺湲	-10.5267
蜀都賦	-10.5268
暁	-10.527
羲和	-10.527
甄	-10.5271
昭君	-10.5275
公諱	-10.5288
政事	-10.5289
入蜀	-10.5297
何日	-10.53
俠	-10.53
賖	-10.5305
者何	-10.5305
邢	-10.5308
天寒	-10.532
歌行	-10.532
無遺	-10.5321
故其	-10.5326
北風	-10.5331
評事	-10.5331
荘	-10.5339
逶迤	-10.5342
中書舍人	-10.5342
德宗	-10.5345
叔文	-10.5346
萬方	-10.5346
天門	-10.535
瀼西	-10.5351
雲中	-10.5361
時事	-10.5362
曰臣	-10.5363
太行	-10.5366
而生	-10.5366
櫻桃	-10.5369
甥	-10.5372
伺	-10.5373
椎	-10.5375
玄宗	-10.5377
其可	-10.5378
跋	-10.5378
坎	-10.538
二十二	-10.5381
嘶	-10.5381
由來	-10.5381
脅	-10.5382
籙	-10.5388
山上	-10.5388
鳥獸	-10.5394
歎息	-10.5398
河西	-10.5407
字子	-10.5408
楽	-10.5409
裾	-10.5415
琢	-10.5416
永嘉	-10.5419
得以	-10.5427
序云	-10.5432
王褒	-10.5434
東野	-10.5435
紳	-10.5437
故國	-10.544
其才	-10.5441
望之	-10.5445
帝王	-10.5446
馨	-10.5448
隘	-10.545
萊	-10.5453
之神	-10.5454
十巻	-10.5457
寂寂	-10.5457
之聲	-10.546
之樂	-10.5465
居士	-10.5468
此意	-10.547
未至	-10.547
留别	-10.5473
不若	-10.5474
在今	-10.5478
何不	-10.5479
成王	-10.5485
終身	-10.5488
貎	-10.5488
槩	-10.549
冐	-10.5491
閲	-10.5491
裙	-10.5497
渭水	-10.5503
不容	-10.5508
其年	-10.5509
山居	-10.5509
淹留	-10.551
皇太子	-10.5518
使我	-10.5523
為文	-10.5525
巔	-10.5527
稽首	-10.5541
白石	-10.5551
兵戈	-10.5557
未甞	-10.5562
大江	-10.5563
翩	-10.5564
凢	-10.5566
技	-10.5567
祁	-10.5568
挹	-10.5569
太師	-10.557
涸	-10.5571
鑾	-10.5572
功成	-10.5581
大雅	-10.5583
其聲	-10.5592
功曹	-10.5593
鄒	-10.5598
杜公	-10.5603
腥	-10.5607
廣州	-10.5609
鏁	-10.5613
江州	-10.5626
之初	-10.5627
風景	-10.5629
用兵	-10.5629
潦	-10.5641
廐	-10.5643
嘲	-10.5644
隷	-10.5646
篁	-10.5647
髻	-10.5647
歐	-10.5648
慟	-10.5648
十餘年	-10.565
圖經	-10.5651
而來	-10.5652
西都賦	-10.5652
相隨	-10.5655
上帝	-10.5658
令狐	-10.5669
西京賦	-10.5669
通典	-10.5669
登樓	-10.567
知君	-10.5671
京城	-10.5676
歘	-10.5676
璞	-10.5678
芬	-10.5681
鑑	-10.5681
惻	-10.5681
汪	-10.5682
硯	-10.5684
明經	-10.5684
鑠	-10.5685
嶂	-10.5686
右丞	-10.5691
太傅	-10.5695
竹林	-10.5703
州長史	-10.5712
一句	-10.5714
澁	-10.5723
罄	-10.5725
雷霆	-10.5727
渝	-10.5728
李太白	-10.5742
餓	-10.5744
正字	-10.5746
眼前	-10.5751
不行	-10.5752
趙次公曰	-10.5757
亢	-10.5758
十一年	-10.5761
葦	-10.5762
婢	-10.5767
鳳凰	-10.5767
皇天	-10.5768
若不	-10.5769
晁	-10.5772
至徳	-10.5774
才子	-10.5776
不受	-10.5778
自得	-10.5784
禁中	-10.5787
昌黎	-10.5795
河南府	-10.58
愜	-10.58
忤	-10.58
大小	-10.5801
行營	-10.5802
綃	-10.5802
頋	-10.5802
醪	-10.5803
江淹詩	-10.5804
忩	-10.5805
斛	-10.581
以比	-10.5812
謝朓詩	-10.5817
簿	-10.5817
回鶻	-10.5822
聖主	-10.5823
一家	-10.5826
以待	-10.5829
集巻	-10.583
兩本	-10.583
諸軍	-10.5833
緇	-10.5835
縣北	-10.5838
饌	-10.5839
驢	-10.5839
緬	-10.584
砧	-10.5841
疋	-10.5842
伎	-10.5842
終始	-10.5843
世之	-10.5854
食之	-10.5855
同心	-10.5857
祕	-10.5859
之業	-10.5871
曳	-10.5876
準	-10.5877
世人	-10.5879
悅	-10.5879
迅	-10.5879
薰	-10.5881
人有	-10.589
稚子	-10.5901
亦作	-10.5903
相憶	-10.5903
之屬	-10.591
鼇	-10.5915
及其	-10.5918
匝	-10.5918
聯	-10.5918
迨	-10.5918
杜補遺	-10.592
山寺	-10.5923
梳	-10.5925
明朝	-10.5931
聮句	-10.5934
東歸	-10.594
城上	-10.5948
奉天	-10.5955
窄	-10.5955
庖	-10.5955
継	-10.5955
得罪	-10.5956
青春	-10.5956
回紇	-10.5957
幽人	-10.5959
坼	-10.5959
逋	-10.596
稔	-10.5961
濠	-10.5962
兼御史大夫	-10.5963
自言	-10.5966
松栢	-10.5971
梅花	-10.5973
花開	-10.598
無一	-10.598
騎馬	-10.5982
孤舟	-10.5982
至尊	-10.5988
之北	-10.5989
和尚	-10.5991
嚴公	-10.5994
献	-10.5997
鬛	-10.5998
嫉	-10.5998
叱	-10.5998
兢	-10.5998
訝	-10.5999
鋭	-10.5999
躋	-10.6
見贈	-10.6
皆作	-10.6
林下	-10.6005
水流	-10.6024
用事	-10.6025
安西	-10.6027
澆	-10.6031
今本	-10.6035
羲	-10.6036
孚	-10.6037
姊	-10.6039
覊	-10.6039
鍳	-10.604
捉	-10.6043
磧	-10.6044
杜鵑	-10.6044
今古	-10.6048
夏日	-10.6053
月中	-10.6056
南宫	-10.6063
之前	-10.6063
其辭	-10.607
崆峒	-10.6076
矣故	-10.6077
溫	-10.6078
方无	-10.6079
洋	-10.608
攅	-10.608
逵	-10.608
遞	-10.6084
一片	-10.6088
建安	-10.6089
所宜	-10.6092
清河	-10.6094
不入	-10.6097
風波	-10.6108
舄	-10.6117
雖不	-10.6117
研	-10.6118
迢迢	-10.612
㳂	-10.6122
太祖	-10.613
舊書	-10.6144
新添	-10.6151
帽	-10.6155
元帝	-10.6156
婆	-10.6156
舂	-10.6156
釐	-10.6158
則不	-10.6161
校書郎	-10.6162
而未	-10.6163
思歸	-10.6163
然也	-10.6163
箇	-10.6163
聰	-10.6177
韓信	-10.6187
水出	-10.619
為大	-10.6193
山名	-10.6194
縣西	-10.6194
欲以	-10.6196
滛	-10.6199
區區	-10.62
揭	-10.6201
男兒	-10.6211
浩蕩	-10.6216
朱門	-10.6219
行狀	-10.6221
東門	-10.6221
寥	-10.6227
之所以	-10.6232
於外	-10.6237
夸	-10.6237
七日	-10.6238
琵琶	-10.6239
滂	-10.6239
幣	-10.6241
蘓	-10.6241
覓	-10.6241
飛鳥	-10.6243
簇	-10.6245
茸	-10.6245
有異	-10.6256
煙霞	-10.6261
時節	-10.6262
太山	-10.6263
絮	-10.6276
寘	-10.6278
隐	-10.6278
臆	-10.628
熈	-10.6284
陽春	-10.6284
迸	-10.6285
曹植詩	-10.6293
臣之	-10.6299
漢陽	-10.63
棧	-10.6301
叔父	-10.6302
送客	-10.6305
於上	-10.6305
都尉	-10.6306
此云	-10.6309
蜀人	-10.6318
翊	-10.6319
祉	-10.6321
戦	-10.6323
錬	-10.6328
豈知	-10.6329
山隂	-10.6334
謝公	-10.6349
繆	-10.6351
得一	-10.6356
夜深	-10.6356
之數	-10.6357
趙曰公	-10.6358
四首	-10.6358
啇	-10.636
登髙	-10.6362
不能自	-10.6368
甿	-10.637
諸子	-10.6372
老翁	-10.6373
方本	-10.6379
公在	-10.6382
獨坐	-10.6385
漢中	-10.6388
冗	-10.6402
鷁	-10.6402
禆	-10.6403
閏	-10.6406
噪	-10.6407
䄂	-10.6407
海賦	-10.6408
所思	-10.6412
知名	-10.6417
不樂	-10.6419
魏志	-10.6426
賦云	-10.643
從來	-10.6431
之職	-10.6432
先王	-10.6432
之妙	-10.6435
即今	-10.6435
亂離	-10.6438
以致	-10.6438
蜜	-10.6442
趍	-10.6445
礪	-10.6445
泯	-10.6446
蒼茫	-10.6446
攬	-10.6447
裹	-10.6447
茹	-10.6448
唐時	-10.6449
艷	-10.6449
掇	-10.6451
鎻	-10.6451
暮春	-10.6454
韻㑹	-10.6454
泗	-10.6457
人多	-10.6458
陛	-10.6463
或以	-10.6466
月夜	-10.6468
之政	-10.6473
李斯	-10.6478
陀	-10.648
周旋	-10.6485
先主	-10.6486
詩意	-10.6488
掲	-10.6489
殯	-10.6489
稠	-10.6489
而爲	-10.6491
算	-10.6493
瓢	-10.6493
靈武	-10.6494
生涯	-10.6495
中間	-10.6495
波濤	-10.6499
新安	-10.6508
兵馬使	-10.6511
見於	-10.6512
明矣	-10.6513
王氏	-10.6516
小子	-10.6517
其有	-10.6518
空山	-10.652
所為	-10.6521
途中	-10.6521
不可得	-10.6521
五字	-10.6525
駟	-10.6527
則曰	-10.6529
蹊	-10.653
飄颻	-10.653
畆	-10.6531
孔明	-10.6533
線	-10.6533
濳	-10.6535
蔵	-10.6536
隄	-10.6537
月日	-10.6538
歸路	-10.6541
華陽	-10.6541
於朝	-10.655
衆生	-10.6551
又作	-10.6552
四皓	-10.6553
不解	-10.6554
求之	-10.6564
彦輔曰	-10.6567
貴人	-10.6568
同谷	-10.657
殄	-10.6572
樓上	-10.6572
炊	-10.6574
兒童	-10.6576
道州	-10.6576
沴	-10.6577
轄	-10.6577
此語	-10.6578
二十一	-10.6583
紫微	-10.6585
取之	-10.6591
五馬	-10.6593
早春	-10.6597
至公	-10.6602
卭	-10.6606
彤	-10.6609
彪	-10.661
謳	-10.6611
杜預	-10.6615
㤗	-10.6615
伏惟陛下	-10.6617
知制誥	-10.6619
飮	-10.6619
精神	-10.6622
直道	-10.6622
此皆	-10.6625
柰	-10.6631
與其	-10.6641
如來	-10.6642
大和	-10.6642
嗣立案	-10.6646
其父	-10.6649
人家	-10.665
埃	-10.6651
不欲	-10.6652
挿	-10.6654
之物	-10.6654
洩	-10.6657
侮	-10.6659
盜賊	-10.6662
孔子曰	-10.6666
戎馬	-10.6669
太后	-10.667
石上	-10.6674
輕重	-10.6678
其能	-10.6682
不起	-10.6685
忠孝	-10.6691
别有	-10.6695
九天	-10.6699
五行	-10.67
行行	-10.6701
竝	-10.6703
之能	-10.6703
則又	-10.6706
禽獸	-10.6709
號為	-10.6709
先後	-10.6712
見為	-10.6714
尋常	-10.6717
父老	-10.6719
功德	-10.6729
漢水	-10.673
大理	-10.6734
箱	-10.6744
緝	-10.6745
閟	-10.6745
煦	-10.6746
之患	-10.6749
寰宇記	-10.675
聞其	-10.6763
航	-10.6769
前有	-10.6773
滎陽	-10.6776
鮑明逺	-10.6781
髯	-10.6782
𦙍	-10.6782
章句	-10.6783
鞠	-10.6783
乾元元年	-10.6786
筮	-10.6786
忿	-10.6787
是謂	-10.6787
拓	-10.6789
不亦	-10.679
之重	-10.6792
帙	-10.6792
歎曰	-10.6793
誤矣	-10.6796
北方	-10.68
貴妃	-10.6802
塊	-10.6803
二千	-10.6811
正直	-10.6812
工部	-10.6815
雞鳴	-10.6817
陽山	-10.6818
旭	-10.6823
留後	-10.6829
恊	-10.683
頷	-10.683
陸士衡	-10.6831
葱	-10.6831
零陵	-10.6835
春水	-10.6836
及第	-10.6837
河南尹	-10.6837
也此	-10.6839
功臣	-10.684
邠	-10.6841
誰與	-10.6845
中宗	-10.6857
丙	-10.6859
流涕	-10.686
長生	-10.6864
天命	-10.6867
鏗	-10.6871
粤	-10.6872
胎	-10.6873
聿	-10.6874
蹋	-10.6876
開元二十	-10.6878
寐	-10.6882
以詩	-10.6889
有五	-10.6889
貴賤	-10.689
王室	-10.6891
蘇武	-10.6892
深山	-10.6892
泛舟	-10.6896
千人	-10.6897
玉女	-10.6906
詹	-10.6908
爲人	-10.6909
觀察	-10.6911
代之	-10.6913
鎬	-10.6913
東平	-10.6914
瑤	-10.6915
羮	-10.6915
殞	-10.6916
慄	-10.6917
豺狼	-10.6917
茅屋	-10.6918
士大夫	-10.6919
水上	-10.692
䦨	-10.6921
江邊	-10.6923
常有	-10.6931
無私	-10.6933
惟有	-10.6934
三十年	-10.6935
用此	-10.6937
瑜	-10.695
浹	-10.6956
言語	-10.6961
虵	-10.6962
屐	-10.6965
讃	-10.6965
閉門	-10.697
武昌	-10.6974
相傳	-10.6983
我有	-10.6984
送别	-10.6985
尚有	-10.6985
草書	-10.6985
在天	-10.699
蠻夷	-10.6996
髙宗	-10.6996
之始	-10.6999
墉	-10.7
劣	-10.7003
蜀中	-10.7004
譯	-10.7004
弛	-10.7005
針	-10.7006
員外郎	-10.7008
延年	-10.7021
〇師曰	-10.7021
始終	-10.7021
談笑	-10.7023
悵	-10.7028
冥冥	-10.7028
其説	-10.7029
五陵	-10.703
詩注	-10.704
些	-10.7042
之可	-10.7042
起居	-10.7045
鬰	-10.7048
景物	-10.7048
商山	-10.7049
僊	-10.7049
矣而	-10.705
卷之	-10.7052
年正月	-10.7052
師古	-10.7053
經云	-10.7055
虎豹	-10.7055
于時	-10.7055
嵩山	-10.7056
愬	-10.7068
從弟	-10.7069
有情	-10.707
始皇	-10.7073
不到	-10.708
之至謹	-10.7081
以是	-10.7085
憶昔	-10.7091
安知	-10.7092
筒	-10.7093
巴蜀	-10.7093
玉樹	-10.7093
揚子	-10.7094
雲山	-10.7094
泝	-10.7095
霜露	-10.7101
左拾遺	-10.7103
自稱	-10.7105
馬蹄	-10.7112
言曰	-10.7113
詩話	-10.7114
今者	-10.7117
之景	-10.7117
怡	-10.712
故得	-10.7123
不許	-10.7123
相親	-10.713
其為	-10.7131
爪	-10.7134
炯	-10.7134
肌	-10.7135
曛	-10.7138
毋	-10.7139
挑	-10.714
嗟乎	-10.714
緜	-10.7141
陸機詩	-10.7165
河間	-10.7166
此則	-10.7166
於天	-10.7168
大將	-10.7172
坡	-10.7173
韓公	-10.7175
凱	-10.7176
壅	-10.718
楊柳	-10.7181
此事	-10.7181
襃	-10.7183
㕔	-10.7183
鴉	-10.7183
鴛	-10.7184
飄飄	-10.7186
複	-10.7188
潁川	-10.7189
之衆	-10.7191
於世	-10.7192
醉後	-10.7193
之利	-10.7202
不克	-10.7208
不知所	-10.7216
墀	-10.7217
風月	-10.722
曼	-10.7225
某月日	-10.7225
未見	-10.7227
伊尹	-10.7227
拭	-10.7228
數日	-10.7229
贍	-10.7234
於今	-10.7236
管仲	-10.7244
九疑	-10.7252
甘露	-10.7255
兩京	-10.7258
貧賤	-10.726
士之	-10.7262
竟不	-10.7263
趾	-10.7268
鯉	-10.7268
虺	-10.7268
潘云	-10.7274
綽	-10.7275
冢	-10.7276
透	-10.7277
滔	-10.7278
波瀾	-10.7278
譴	-10.7279
為是	-10.7282
敢不	-10.7282
不改	-10.7284
白鶴	-10.7285
千餘	-10.7286
李廣	-10.7286
將何	-10.729
或謂	-10.7301
道德	-10.7302
夢中	-10.7302
一杯	-10.7306
人者	-10.7311
沔	-10.7314
不宜	-10.7314
十九年	-10.7315
忠臣	-10.7319
認	-10.7322
憔悴	-10.7323
衡州	-10.7323
剡	-10.7329
供奉	-10.7332
皆是	-10.7339
性命	-10.734
城郭	-10.7343
教化	-10.7347
清明	-10.7348
原注	-10.7348
首尾	-10.7353
曰天	-10.7353
湫	-10.7361
利害	-10.7363
睂	-10.7366
汶	-10.7366
流沙	-10.7368
查	-10.7369
所載	-10.7375
三川	-10.738
聰明	-10.7385
舊遊	-10.7387
詩中	-10.7389
走馬	-10.739
行在	-10.7391
㑹昌	-10.7392
三載	-10.7393
數千	-10.7399
舊居	-10.7403
蒿	-10.7404
押	-10.7405
貸	-10.741
甌	-10.741
祝融	-10.7411
玊	-10.7411
紈	-10.7412
讌	-10.7413
㳟	-10.7413
既而	-10.7415
瀝	-10.7415
名為	-10.7415
迁	-10.7416
涪	-10.7416
臣某	-10.742
桓公	-10.7421
偶然	-10.7428
石壁	-10.7439
陶潛詩	-10.744
睢	-10.7444
之節	-10.7445
反覆	-10.7446
序送	-10.7446
平聲	-10.745
顚	-10.7454
猗	-10.7454
斫	-10.7455
隳	-10.7456
譚	-10.7458
矣然	-10.7462
拯	-10.7463
清秋	-10.7468
是用	-10.7478
何有	-10.7479
當以	-10.7481
鄂	-10.7482
不獨	-10.7488
而食	-10.749
唐詩	-10.7495
隻	-10.7499
註云	-10.75
死而	-10.75
緫	-10.75
炭	-10.75
燎	-10.7501
筍	-10.7502
悍	-10.7502
大者	-10.7503
讚	-10.7503
蟾	-10.7504
挫	-10.7504
茗	-10.7505
卉	-10.7506
溜	-10.7506
世界	-10.7506
時為	-10.7508
門人	-10.7509
長卿	-10.7511
年五十	-10.7513
者矣	-10.7515
薊	-10.7515
與我	-10.752
連山	-10.752
南征	-10.7525
楊子	-10.7526
長江	-10.753
一物	-10.753
必以	-10.7538
無乃	-10.7546
菰	-10.7547
羿	-10.7548
稱其	-10.7549
蓬蒿	-10.7552
頥	-10.7552
齎	-10.7552
數年	-10.7557
之孫	-10.756
衣服	-10.7564
相繼	-10.7566
唐史	-10.7569
魚龍	-10.7572
杭蜀本	-10.7572
相遇	-10.7577
處分	-10.758
浣花	-10.7588
肺	-10.759
瀾	-10.7592
尽	-10.7593
骸	-10.7593
登臨	-10.7595
孕	-10.7595
偈	-10.7596
髣髴	-10.7596
殃	-10.7597
贖	-10.7598
摭	-10.7599
行路難	-10.7601
呼為	-10.7604
元和元年	-10.7604
士贇	-10.7604
益州	-10.7609
不息	-10.761
知我	-10.761
臨江	-10.7618
辛苦	-10.7619
集有	-10.7621
忠信	-10.7624
四面	-10.7624
一聲	-10.7626
古來	-10.7627
先輩	-10.7633
飱	-10.7639
熾	-10.7641
未聞	-10.7642
犢	-10.7642
榜	-10.7645
閻	-10.7645
牓	-10.7645
軒轅	-10.7646
風霜	-10.7646
灾	-10.7649
書記	-10.765
其形	-10.7651
其書	-10.7651
與公	-10.7652
自傷	-10.7653
而復	-10.7654
卜居	-10.7654
殿中	-10.7657
相知	-10.7658
幾何	-10.7659
桂州	-10.7663
三代	-10.7664
雨中	-10.7664
陶潛	-10.7666
無聲	-10.7668
者多	-10.7669
云爾	-10.7674
不信	-10.7674
不疑	-10.7675
送張	-10.7677
興元	-10.7682
越王	-10.7683
齧	-10.7686
弁	-10.7688
補闕	-10.769
藹	-10.7691
使持節	-10.7691
車駕	-10.7693
故山	-10.7693
岷	-10.77
在乎	-10.7702
渤海	-10.7702
西王母	-10.7703
兵部	-10.7706
皆在	-10.7708
在位	-10.7708
二十六	-10.7711
江流	-10.7712
中書令	-10.7713
中人	-10.7718
氣象	-10.7724
亦未	-10.7724
而致	-10.7726
沓	-10.7729
樓臺	-10.7731
左思	-10.7731
摶	-10.7732
蕭何	-10.7732
泄	-10.7732
婁	-10.7734
真人	-10.7734
匱	-10.7738
幅	-10.7739
塩	-10.774
羗	-10.7742
録事	-10.7742
浙	-10.7744
閣下	-10.7753
服之	-10.7756
馬上	-10.7764
故謂之	-10.7765
西江	-10.7768
佳句	-10.777
有意	-10.7772
知巳	-10.7776
巴東	-10.7777
無因	-10.7778
竟何	-10.7779
者又	-10.778
矩	-10.7781
袁州	-10.7782
愉	-10.7784
禅	-10.7784
顥	-10.7785
翩翩	-10.7786
閒居	-10.7787
北闕	-10.779
穩	-10.7791
柴門	-10.7793
題云	-10.7795
子規	-10.7796
月下	-10.7798
道徳	-10.7802
衰老	-10.7811
持節	-10.7811
何用	-10.7812
之末	-10.7813
日夕	-10.7818
斉	-10.7825
嬪	-10.783
卵	-10.7831
酒酣	-10.7832
百代	-10.7833
繒	-10.7834
旻	-10.7834
曾祖	-10.7835
彛	-10.7836
鈿	-10.7836
醮	-10.7847
月某日	-10.7848
徳宗	-10.786
狀如	-10.7861
更有	-10.7864
部貟外郎	-10.7869
生人	-10.7869
十首	-10.787
曰昔	-10.787
杞	-10.7872
同遊	-10.7873
矛	-10.7878
藂	-10.7879
㨗	-10.7879
滄	-10.7881
起於	-10.7881
欒	-10.7882
乃是	-10.7887
李氏	-10.7894
賢良	-10.7896
孰能	-10.7897
巴陵	-10.7905
雲夢	-10.7906
光明	-10.7909
年六十	-10.7911
公爲	-10.7911
改元	-10.7912
茂陵	-10.7913
依舊	-10.7916
此又	-10.7917
孤城	-10.792
沽	-10.7924
洪曰	-10.7924
酉	-10.7925
雲氣	-10.7927
模	-10.7927
潼闗	-10.7928
覃	-10.793
沖	-10.793
瓌	-10.793
房琯	-10.793
派	-10.7931
岩	-10.7933
芽	-10.7934
橈	-10.7936
當年	-10.7939
杭蜀	-10.794
四夷	-10.7941
物之	-10.7946
劍南	-10.7948
屏風	-10.7953
一何	-10.7955
城下	-10.7956
其大	-10.7963
其功	-10.7967
可惜	-10.7969
閣老	-10.7974
莫敢	-10.7975
鉅	-10.7975
抱朴子	-10.7979
邨	-10.7979
又音	-10.7981
唐虞	-10.7981
二十三	-10.7989
漁陽	-10.799
周之	-10.7995
閑居	-10.7999
百川	-10.8003
今以	-10.8009
補註	-10.801
籟	-10.8013
先帝	-10.8015
王命	-10.8016
秋色	-10.8018
都賦	-10.802
有名	-10.802
乆矣	-10.8024
臭	-10.8025
洄	-10.8025
長嘯	-10.8026
倡	-10.8026
天官	-10.8027
者乃	-10.8028
綰	-10.8029
軼	-10.803
綿州	-10.803
眄	-10.803
幡	-10.8032
慟哭	-10.8032
集賢	-10.8034
形骸	-10.8034
琅玕	-10.8038
及此	-10.8039
之水	-10.804
今來	-10.804
玉堂	-10.8041
闕下	-10.8055
胡為	-10.8055
帝曰	-10.8058
致仕	-10.8058
端公	-10.8062
江頭	-10.8066
相訪	-10.8068
之化	-10.8069
扃	-10.8071
鴟	-10.8072
漣	-10.8072
該	-10.8072
碑銘	-10.8072
朙	-10.8073
三品	-10.8075
艇	-10.8076
羇	-10.8076
燧	-10.8078
相近	-10.8078
弋	-10.808
梧桐	-10.808
涙	-10.8082
之陽	-10.8082
翺	-10.8087
賈生	-10.8087
元戎	-10.8089
宫殿	-10.8101
名利	-10.8105
一方	-10.8109
何當	-10.811
龍蛇	-10.8116
但見	-10.8116
佑	-10.812
墅	-10.8121
堵	-10.8122
為正	-10.8124
上元二年	-10.8124
鞅	-10.8125
崢嶸	-10.8125
孩	-10.8126
鬻	-10.8126
闥	-10.8127
更無	-10.8127
嗤	-10.8128
讐	-10.8128
蹔	-10.8129
贄	-10.813
喬木	-10.8133
一夜	-10.8136
笙歌	-10.8139
事業	-10.8145
浩然	-10.8146
豈能	-10.8146
伏奉	-10.8147
無處	-10.8155
金城	-10.8157
帝子	-10.8168
永泰元年	-10.8173
不離	-10.8173
乎哉	-10.8173
奄	-10.8173
縫	-10.8173
兖州	-10.8175
烝	-10.8176
所由	-10.8176
恪	-10.8176
元帥	-10.8177
諳	-10.8177
麋鹿	-10.8177
須臾	-10.8178
嘗為	-10.8179
季子	-10.8179
城縣	-10.818
太平寰宇記	-10.818
之使	-10.8181
郵	-10.8181
當其	-10.8182
如雲	-10.8186
刻石	-10.8199
南極	-10.8203
送君	-10.8207
無定	-10.8215
隱居	-10.8222
碁	-10.8222
辝	-10.8222
躅	-10.8226
碧雲	-10.8227
廹	-10.8227
蔑	-10.8227
鳶	-10.8228
金玉	-10.8229
倘	-10.8231
盗賊	-10.8232
公侯	-10.8245
趙王	-10.8247
清光	-10.825
獨有	-10.826
雖然	-10.8261
大明	-10.8267
六經	-10.8267
亥	-10.8269
拖	-10.8269
哺	-10.8274
楊栁	-10.8275
瘡	-10.8275
瀑	-10.8277
遂使	-10.8295
軍事	-10.83
嘆曰	-10.8305
不載	-10.8312
未央	-10.8314
行者	-10.8316
樓船	-10.8317
以俟	-10.8318
甚矣	-10.8321
方言	-10.8321
舡	-10.8323
晉陽	-10.8323
待詔	-10.8323
牘	-10.8324
譙	-10.8324
蘚	-10.8326
無疑	-10.8326
與此	-10.8327
鈴	-10.8329
奉詔	-10.8338
公有	-10.8338
宋書	-10.8339
依依	-10.834
當世	-10.834
香爐	-10.8341
六句	-10.8341
注見	-10.8349
之本	-10.8353
始以	-10.8363
璘	-10.8365
罵	-10.8368
亭亭	-10.8369
朝散大夫	-10.837
歆	-10.8371
百丈	-10.8373
年四十	-10.8373
眩	-10.8373
翠微	-10.8374
其說	-10.8375
旂	-10.8375
鵰	-10.8377
可依前件	-10.8377
范蠡	-10.8377
下音	-10.838
餘慶	-10.8402
萬象	-10.8404
以至	-10.8405
切又	-10.8407
王逸	-10.841
相應	-10.8413
稹	-10.8416
縞	-10.8418
蹶	-10.8423
鞏	-10.8426
托	-10.8426
聆	-10.8426
之野	-10.8427
誚	-10.8427
窅	-10.8427
兖	-10.8427
惱	-10.8427
風雅	-10.8427
峴山	-10.8428
霓	-10.843
非一	-10.843
濺	-10.8431
窻	-10.8432
黃金	-10.8438
民之	-10.8438
陳琳	-10.844
春來	-10.845
織女	-10.8452
二十里	-10.8453
於我	-10.8454
長風	-10.8456
雲霧	-10.8456
聞而	-10.8458
谷口	-10.8458
之官	-10.8459
好學	-10.8461
相顧	-10.8462
羣公	-10.8465
狡	-10.8474
此中	-10.8475
股肱	-10.8477
涓	-10.8478
蜀郡	-10.8479
椘	-10.848
盞	-10.8482
左僕射	-10.8483
北史	-10.8484
店	-10.8485
上言	-10.8485
進士第	-10.8487
所能	-10.8487
不從	-10.849
并州	-10.8492
岱	-10.8492
不違	-10.8493
於是乎	-10.8493
田家	-10.8494
等州	-10.8496
老杜	-10.8497
長慶	-10.85
是詩	-10.85
西施	-10.8504
浙東	-10.8508
知者	-10.851
老去	-10.8512
非所	-10.8512
曰今	-10.8513
江左	-10.8518
人知	-10.8521
十載	-10.8521
存乎	-10.8524
竈	-10.8524
瞿塘	-10.8525
囿	-10.8526
迄	-10.8527
莫知	-10.8528
拍	-10.8528
而已矣	-10.8528
暨	-10.853
寒山	-10.8531
葺	-10.8531
上文	-10.8532
陽臺	-10.8532
牽牛	-10.8537
鄉里	-10.854
張公	-10.8541
渡河	-10.8543
新豐	-10.8547
以前	-10.8554
分司	-10.8557
歸心	-10.8557
陽城	-10.8561
我來	-10.8562
作者	-10.8564
復為	-10.8565
於前	-10.8567
仄	-10.8574
弧	-10.8575
尔	-10.8575
馮翊	-10.8576
噬	-10.8582
頭白	-10.8582
鉛	-10.8582
擺	-10.8582
俞	-10.8583
蠟	-10.8583
衡陽	-10.8584
槍	-10.8584
人之所	-10.8586
謫仙	-10.8587
瀑布	-10.8589
郡縣	-10.8595
之誤	-10.8595
校尉	-10.8596
之貌	-10.8597
王逸曰	-10.8597
輕薄	-10.8599
胷	-10.86
漢家	-10.8601
萬壑	-10.8604
月照	-10.8607
登山	-10.8607
諸葛	-10.8608
則其	-10.8609
郴	-10.8614
其所以	-10.8616
百尺	-10.862
功業	-10.8623
鹵	-10.8625
以後	-10.8628
薇	-10.8628
於道	-10.8629
苛	-10.8629
曺	-10.863
嵇	-10.863
夘	-10.8632
吾將	-10.8634
茵	-10.8637
穏	-10.8637
也吾	-10.864
由此	-10.8647
菊花	-10.8648
止於	-10.8648
吳王	-10.865
三山	-10.8651
天河	-10.8652
亦是	-10.8653
不逮	-10.8654
夷狄	-10.8655
行役	-10.866
祖宗	-10.866
久矣	-10.8666
金谷	-10.8666
則必	-10.8666
上音	-10.8667
疑是	-10.8672
不止	-10.8672
無極	-10.8675
八九	-10.8675
廟碑	-10.8676
何遜詩	-10.8678
椽	-10.8681
鈍	-10.8683
翰林學士	-10.8684
眸	-10.8684
懋	-10.8685
扄	-10.8689
太陽	-10.869
唐本	-10.8691
錦繡	-10.8692
孔融	-10.8694
湖上	-10.8696
於後	-10.8697
上林賦	-10.8697
官軍	-10.8698
後來	-10.8701
人倫	-10.8701
▁漢	-10.8702
逺遊	-10.8703
立功	-10.8704
節制	-10.8708
三千里	-10.8712
雨雪	-10.8713
枝葉	-10.8713
十八年	-10.8713
右僕射	-10.8714
豺虎	-10.8726
鼠	-10.8729
斵	-10.8733
江城	-10.8736
聼	-10.8736
驍	-10.8736
而不知	-10.8736
巘	-10.8739
隊	-10.874
命之	-10.8741
巉	-10.8741
未歸	-10.8742
張良	-10.8744
髙堂	-10.8746
若無	-10.8748
神龍	-10.8754
夙夜	-10.8756
岳陽	-10.8757
華隂	-10.8764
焚香	-10.8768
閫	-10.8771
金華	-10.8779
人物	-10.878
楼	-10.8781
烽	-10.8783
武侯	-10.8783
天道	-10.8784
皂	-10.8787
跼	-10.8787
悪	-10.8788
九域志	-10.8789
縑	-10.879
志云	-10.8791
郡守	-10.8792
■	-10.8792
之性	-10.8792
唐制	-10.8793
鄒陽	-10.8795
吟詩	-10.8801
先是	-10.8804
浙江	-10.8806
將以	-10.8814
吾師	-10.882
之期	-10.8822
謂此	-10.8823
後代	-10.8828
浮生	-10.8832
夜半	-10.8833
洛下	-10.8835
日落	-10.8836
聖明	-10.884
無有	-10.8841
承恩	-10.8843
此日	-10.8845
燃	-10.8846
趂	-10.8847
行樂	-10.8847
劒南	-10.8847
王父	-10.8848
深入	-10.8851
青門	-10.8852
洙曰詩	-10.8854
與李	-10.8862
大如	-10.8864
幸蜀	-10.8865
還家	-10.8866
未息	-10.8868
雪中	-10.8869
比之	-10.8869
西戎	-10.8875
柰何	-10.8887
楫	-10.889
愍	-10.8891
娘	-10.8893
從而	-10.8894
飢寒	-10.8894
楸	-10.8894
釁	-10.8895
熖	-10.8895
售	-10.8895
病中	-10.8896
燼	-10.8898
項羽	-10.8898
問曰	-10.8898
求其	-10.89
幻	-10.8902
威儀	-10.8902
霄漢	-10.8904
神農	-10.8905
開元中	-10.8905
而上	-10.8909
子雲	-10.891
羽毛	-10.8911
風光	-10.8916
太清	-10.892
矣今	-10.8922
翠華	-10.8924
而卒	-10.8925
南風	-10.8925
應制	-10.8937
八分	-10.8939
復有	-10.8942
杉	-10.8943
誤也	-10.8944
司馬遷	-10.8945
其母	-10.8945
紇	-10.8945
瀼	-10.8945
塢	-10.8946
吏部侍郎	-10.8949
戡	-10.895
廣徳元年	-10.895
贏	-10.895
雋	-10.895
倐忽	-10.8955
不下	-10.8956
其三	-10.8959
法師	-10.8963
寡人	-10.8967
非常	-10.8969
車騎	-10.897
宫室	-10.8972
事見前	-10.8974
重陽	-10.8976
不去	-10.8984
遊子	-10.8988
梁王	-10.8991
二女	-10.8992
今人	-10.8996
批	-10.8997
蠱	-10.8997
得意	-10.9001
出自	-10.9001
寤	-10.9002
讀之	-10.9004
奉先	-10.9009
毛詩	-10.9012
侍從	-10.9013
縣東	-10.9014
中流	-10.9014
秦始皇	-10.9015
志在	-10.9018
世家	-10.9019
公嘗	-10.9019
徃來	-10.9022
長城	-10.9028
以告	-10.9031
不安	-10.9032
年七十	-10.9036
河漢	-10.9037
胡馬	-10.9041
五品	-10.9042
以奉	-10.9044
黯	-10.9045
正義	-10.9046
驊騮	-10.9049
句法	-10.905
歧	-10.9052
輯	-10.9053
忻	-10.9056
戊	-10.9056
怳	-10.9057
禮部尚書	-10.9057
釀	-10.9058
瀘	-10.9059
祿山	-10.9059
煑	-10.9059
臨水	-10.906
嬾	-10.9061
之國	-10.9061
諦	-10.9063
清晨	-10.9064
南浦	-10.9067
親戚	-10.9071
宫闕	-10.9076
無異	-10.9077
方丈	-10.9078
此身	-10.9079
所聞	-10.908
之㫖	-10.908
雪山	-10.9082
不知何	-10.9083
尚在	-10.909
北極	-10.909
五帝	-10.9094
于今	-10.9094
中央	-10.9095
皆非是	-10.9095
庾信詩	-10.9096
謚	-10.9097
平章事	-10.9097
家人	-10.9098
同州	-10.9098
渡江	-10.91
岳州	-10.91
中山	-10.9103
古文	-10.9103
癘	-10.9107
博物志	-10.9109
在焉	-10.9109
慣	-10.9113
餉	-10.9116
桂林	-10.912
後魏	-10.9123
流離	-10.9124
吉甫	-10.9126
管絃	-10.9126
劉氏	-10.9127
中和	-10.9131
七里	-10.9137
玉山	-10.9137
登第	-10.9146
峽中	-10.9154
長樂	-10.9156
之象	-10.9156
淂	-10.9158
菁	-10.9159
珠玉	-10.9159
帰	-10.9159
卯	-10.916
至矣	-10.9162
穫	-10.9163
窮途	-10.9163
四門	-10.9163
駮	-10.9164
人謂	-10.9165
在於	-10.9165
男女	-10.9166
浚	-10.9166
笑曰	-10.9166
其他	-10.9166
叫	-10.9166
確	-10.9167
識者	-10.9167
猒	-10.9168
坑	-10.9168
芸	-10.9168
刹	-10.917
下第	-10.9174
糴	-10.9175
魏闕	-10.9176
鏡中	-10.9177
常以	-10.9181
王莽	-10.9183
庶幾	-10.9187
三輔	-10.9187
議論	-10.9191
歸去來	-10.9192
秋草	-10.9195
二切	-10.9199
何能	-10.92
顧注	-10.92
神道碑	-10.9201
潮州	-10.9201
落葉	-10.9202
曰某	-10.9206
愽	-10.9207
安危	-10.9211
字或	-10.9212
方寸	-10.9213
筐	-10.9219
恰	-10.9219
楷	-10.9219
肘	-10.922
趙曰此	-10.922
大中	-10.922
𬞞	-10.9221
牎	-10.9221
壠	-10.9222
吼	-10.9223
刮	-10.9223
窈窕	-10.9224
擔	-10.9224
四五	-10.9231
之儀	-10.9234
春光	-10.9238
死於	-10.924
為名	-10.924
洙曰一云	-10.9242
十卷	-10.9242
漢王	-10.9247
吾聞	-10.9252
為誰	-10.9253
奉使	-10.9254
關中	-10.9254
霖	-10.9255
者謂之	-10.9261
苦寒	-10.9264
韶州	-10.9265
獨酌	-10.9265
存者	-10.9268
平地	-10.9269
封侯	-10.927
覿	-10.927
州之	-10.927
旒	-10.9273
亨	-10.9274
倣	-10.9275
先王之	-10.9276
欝	-10.9276
而至	-10.9281
大厯元年	-10.9281
馨香	-10.9282
焉其	-10.9287
松柏	-10.9289
胸	-10.929
豈獨	-10.929
故公	-10.9292
白居易	-10.9293
精誠	-10.9299
陽公	-10.9301
官至	-10.9303
以禮	-10.9306
未敢	-10.9307
送王	-10.9311
白羽	-10.9316
張儀	-10.9317
亦非	-10.9318
見一	-10.9322
堞	-10.9326
讙	-10.9327
劾	-10.9328
霾	-10.9329
蚩尤	-10.933
償	-10.933
壹	-10.933
桂樹	-10.9331
鮑昭	-10.9331
櫪	-10.9331
册	-10.9332
峩	-10.9332
所用	-10.9332
此亦	-10.9332
濛	-10.9333
踟蹰	-10.9333
更名	-10.9333
應是	-10.9333
倩	-10.9334
人自	-10.9335
别駕	-10.9336
裴度	-10.9336
在東	-10.9339
在成都	-10.9339
一見	-10.934
秖	-10.934
猛虎	-10.9345
猶存	-10.9345
有才	-10.9351
宰臣	-10.9351
别後	-10.9352
先生之	-10.9357
彭澤	-10.9357
而不得	-10.936
何也	-10.9362
生靈	-10.9364
之域	-10.9364
一行	-10.9368
出師	-10.9371
孝友	-10.9372
謝校	-10.9373
加以	-10.9376
羯	-10.9382
紱	-10.9383
巽	-10.9383
將來	-10.9383
潘安仁	-10.9384
参	-10.9384
僞	-10.9384
夣	-10.9386
霏	-10.9387
駑	-10.9388
疵	-10.9389
𢎞農	-10.939
揣	-10.939
麤	-10.9392
尚未	-10.9395
碣石	-10.9402
臨風	-10.9403
白蘋	-10.9403
但以	-10.9409
左丞	-10.941
無此	-10.9411
汝南	-10.9412
一笑	-10.9413
法度	-10.9413
難得	-10.9414
是何	-10.9416
平王	-10.9418
矣又	-10.9424
物也	-10.9426
宿昔	-10.9429
且曰	-10.9431
安史	-10.9433
陶淵明	-10.9441
股	-10.9442
掣	-10.9443
歿	-10.9443
膩	-10.9443
曝	-10.9444
親友	-10.9444
諸葛亮	-10.9444
趙云言	-10.9444
異於	-10.9446
長歌	-10.9447
粮	-10.945
摩詰	-10.9451
未成	-10.9451
容易	-10.9452
如玉	-10.9455
逺矣	-10.9455
雨後	-10.9456
舊注引	-10.9457
紫氣	-10.9461
自比	-10.9463
鞍馬	-10.9464
曰汝	-10.9464
字某	-10.9466
鮑曰	-10.9468
紀綱	-10.9468
新舊史	-10.9469
之奠	-10.9476
亦然	-10.9478
翕	-10.9478
二州	-10.9479
碧海	-10.9488
一一	-10.9491
其詞	-10.9496
不返	-10.9496
寓居	-10.9496
唾	-10.9498
哂	-10.9499
磴	-10.9503
立名按	-10.9504
亦猶	-10.9504
蕭瑟	-10.9504
舟楫	-10.9505
不勞	-10.9506
荆棘	-10.9506
大業	-10.9507
入海	-10.9507
龍虎	-10.9513
無他	-10.9516
此生	-10.9517
而進	-10.9526
上客	-10.9529
之威	-10.9532
千門	-10.9533
文昌	-10.9534
縣名	-10.9534
當有	-10.9541
海中	-10.9543
繡衣	-10.9543
之遺	-10.9545
事君	-10.9549
隨風	-10.9554
躁	-10.9554
喉	-10.9554
旃	-10.9555
褰	-10.9556
敲	-10.9556
青蓮	-10.9557
盍	-10.9557
攷	-10.9558
秋浦	-10.9559
飛龍	-10.9561
之榮	-10.9561
羅浮	-10.9562
臣以	-10.9565
思明	-10.9565
而反	-10.9568
編在	-10.957
杜子美	-10.9572
沉沉	-10.9573
其本	-10.9575
昻	-10.9576
夜郎	-10.9577
亂後	-10.9579
前年	-10.9583
終南山	-10.9584
徃徃	-10.9585
巢父	-10.9586
非吾	-10.959
汝州	-10.9591
幽居	-10.9592
宗室	-10.9601
司直	-10.9601
貟	-10.9605
譬如	-10.9609
猴	-10.961
䜛	-10.961
昔日	-10.9611
灞	-10.9611
阡	-10.9615
任昉	-10.9615
闡	-10.9615
禎	-10.9616
木蘭	-10.9616
蹕	-10.9617
謔	-10.9617
蕚	-10.9618
相看	-10.9619
萋萋	-10.9619
金門	-10.9621
晞	-10.9622
江賦	-10.9622
工部尚書	-10.9623
自從	-10.9629
依然	-10.9633
髙樓	-10.9634
北山	-10.9636
腸斷	-10.9638
鳳翔	-10.964
俄而	-10.9641
三十二	-10.9643
宫人	-10.9648
蔡州	-10.9663
手足	-10.9663
聞君	-10.9664
鱠	-10.9669
杵	-10.9673
笏	-10.9673
家有	-10.9674
葭	-10.9675
而退	-10.9675
駿馬	-10.9676
逞	-10.9676
荔枝	-10.9678
之㑹	-10.968
至德	-10.9681
青松	-10.9681
而止	-10.9682
百寮	-10.9684
陰陽	-10.969
他鄉	-10.9692
建章	-10.9692
頓首	-10.9694
南岳	-10.9698
大厯二年	-10.97
太僕	-10.9701
長子	-10.9709
佳期	-10.9711
入門	-10.9714
東屯	-10.9715
塋	-10.9717
尓	-10.972
遺愛	-10.9721
厠	-10.9726
軾	-10.9727
縦	-10.9729
龕	-10.9729
得無	-10.973
瞰	-10.973
天帝	-10.973
械	-10.973
憩	-10.973
孟軻	-10.973
殫	-10.9731
摹	-10.9732
欠	-10.9732
豊	-10.9732
廩	-10.9732
鴨	-10.9733
苖	-10.9734
顏	-10.9734
十五里	-10.9741
田園	-10.9742
同歸	-10.9746
爾其	-10.9747
如此則	-10.9752
上林	-10.9754
堂上	-10.9754
顔延年	-10.9754
師道	-10.9756
明珠	-10.9757
魏晉	-10.9759
飛燕	-10.9761
墓誌銘	-10.9761
光照	-10.9762
謝朓	-10.9766
失之	-10.9767
榭	-10.977
知人	-10.977
文辭	-10.9771
飛去	-10.9775
早秋	-10.9776
議者	-10.9779
希烈	-10.9781
北齊	-10.9781
世說	-10.9781
喙	-10.9782
縶	-10.9784
文士	-10.9784
嶷	-10.9785
此書	-10.9787
兀	-10.9787
青海	-10.9789
聖人之道	-10.9789
叠	-10.979
亦足	-10.979
姑蘇	-10.9793
雙闕	-10.9794
扶又	-10.9794
蛾眉	-10.9795
為客	-10.9799
宣帝	-10.9803
韋氏	-10.9803
元濟	-10.9807
遲遲	-10.9812
太史公	-10.9818
之用	-10.9822
雲間	-10.9823
可為	-10.9829
相接	-10.9831
寳應元年	-10.9838
有子	-10.984
浮圖	-10.9842
槖	-10.9844
穰	-10.9845
謝𤣥暉	-10.9846
皋	-10.9846
瘞	-10.9847
呵	-10.9847
州府	-10.9847
二十七	-10.9848
相送	-10.9851
鷓鴣	-10.9851
之家	-10.9851
推官	-10.9852
相從	-10.9853
清溪	-10.9855
非不	-10.9857
即是	-10.9862
洛水	-10.987
陳留	-10.9871
者故	-10.9871
不須	-10.9871
河朔	-10.9872
闐	-10.9877
不明	-10.9879
嵗月	-10.9881
與天	-10.9883
八極	-10.9884
不得其	-10.9885
只作	-10.9889
未免	-10.9892
葩	-10.9893
髦	-10.9899
沈約詩	-10.9899
哥舒翰	-10.99
禰衡	-10.9901
醖	-10.9901
居之	-10.9901
蹲	-10.9902
刈	-10.9902
冇	-10.9902
戌	-10.9902
嗚	-10.9903
郄	-10.9903
t	-10.9904
="33"/>	-10.9905
<	-10.9905
搴	-10.9905
其門	-10.9905
抉	-10.9906
卧病	-10.9906
武后	-10.9906
伏惟皇帝陛下	-10.9907
㟁	-10.9908
特進	-10.991
男子	-10.9913
安定	-10.9915
突厥	-10.9915
林泉	-10.9918
洛中	-10.9921
一夕	-10.9922
和氣	-10.9926
者誰	-10.9929
可用	-10.9934
猶言	-10.9935
諱某	-10.9937
德音	-10.9937
亦自	-10.994
焉得	-10.9945
雖欲	-10.9946
人謂之	-10.9948
萬乗	-10.9948
本紀	-10.9954
長短	-10.9957
蛙	-10.9957
賜紫金魚袋	-10.9959
楚國	-10.9959
簸	-10.996
殖	-10.9961
燕趙	-10.9962
伽	-10.9963
漕	-10.9963
僉	-10.9963
忽然	-10.9964
綘	-10.9964
鎖	-10.9964
公所	-10.9964
瀨	-10.9965
琉璃	-10.9966
訾	-10.9967
飄零	-10.997
寥落	-10.9976
豎	-10.9982
之交	-10.9983
之兵	-10.9983
其神	-10.9985
通用	-10.9986
不稱	-10.9992
留滯	-10.9992
家語	-10.9998
郡國	-11.0001
大聖	-11.0006
武徳	-11.0008
飄然	-11.001
有聲	-11.0014
趙云此	-11.0014
將相	-11.0014
五十里	-11.0017
佚	-11.0017
大厯元	-11.0018
風騷	-11.0019
廼	-11.002
七八	-11.0021
上疏	-11.0022
國史	-11.0022
脊	-11.0023
儋	-11.0023
瓠	-11.0024
歲月	-11.0024
屨	-11.0024
何哉	-11.0024
剽	-11.0025
鬪	-11.0025
來者	-11.0028
陶潜	-11.003
繇是	-11.0031
以報	-11.0036
縣屬	-11.004
豈惟	-11.0044
逺山	-11.0046
贈李	-11.0047
有客	-11.0047
元日	-11.0049
者得	-11.005
暇日	-11.0051
狀右	-11.0052
之姿	-11.0052
神仙傳	-11.0056
伯夷	-11.0067
虫	-11.0081
藁	-11.0081
捜	-11.0083
巳來	-11.0083
蛻	-11.0085
宗即位	-11.0086
舸	-11.0086
早晚	-11.0093
公墓誌銘	-11.0094
長老	-11.0094
者豈	-11.0095
雖無	-11.0095
湘中	-11.0097
内史	-11.0098
州都督	-11.01
宛轉	-11.0103
莫若	-11.0106
何者	-11.0109
國風	-11.011
應劭曰	-11.011
老成	-11.0112
西極	-11.0112
萬年縣	-11.0117
廣德	-11.0121
以備	-11.0122
不逺	-11.0134
所引	-11.0135
軻	-11.0136
趙云上句	-11.0136
瀛	-11.0139
吸	-11.0139
黠	-11.014
縳	-11.014
尊師	-11.0141
文祭	-11.0141
瀬	-11.0142
拊	-11.0143
懦	-11.0144
則以	-11.0145
腦	-11.0145
郭子儀	-11.0146
寥廓	-11.0147
云此	-11.0147
恂	-11.0147
水清	-11.0153
存亡	-11.0164
農夫	-11.0166
中書門下	-11.0173
年老	-11.0177
癸	-11.0178
是日	-11.018
北征	-11.0181
觀者	-11.0184
元宗	-11.0193
今按此	-11.0194
泌	-11.0196
視其	-11.0198
窘	-11.0199
使臣	-11.0202
宼	-11.0203
賂	-11.0203
其徒	-11.0204
晷	-11.0205
麴	-11.0206
捫	-11.0207
有酒	-11.0208
水旱	-11.0208
此物	-11.0211
闗中	-11.0211
勘	-11.0212
太廟	-11.0214
南越	-11.0223
年譜	-11.0224
招魂	-11.0226
封禪	-11.0227
交情	-11.0227
八十	-11.0233
秋天	-11.0236
兒女	-11.0237
此二	-11.0237
是則	-11.0244
前事	-11.0245
㕘	-11.0253
近者	-11.0253
功徳	-11.0254
怛	-11.0259
後生	-11.026
鯤	-11.0261
遘	-11.0261
生子	-11.0263
萼	-11.0263
神功	-11.0264
閎	-11.0265
羃	-11.0267
魏武	-11.0269
以相	-11.027
鬟	-11.027
贈别	-11.0272
劉禹錫	-11.0272
百家	-11.0272
乗興	-11.0273
盛德	-11.0278
召見	-11.0278
城北	-11.0278
韓退之	-11.0278
先君	-11.0279
諸州	-11.0282
所言	-11.0285
風動	-11.0286
惟公	-11.0286
昊	-11.029
親故	-11.0292
京華	-11.0293
幾人	-11.0295
碑文	-11.0297
海水	-11.0297
清夜	-11.0299
國有	-11.03
若夫	-11.0301
再三	-11.0308
開口	-11.0309
釋氏	-11.031
人無	-11.031
太保	-11.0311
眞卿	-11.0312
不生	-11.0316
六龍	-11.0317
順宗	-11.0318
落落	-11.0318
慝	-11.032
閃	-11.0321
灣	-11.0321
朝朝	-11.0323
筋	-11.0323
上都	-11.0324
魑魅	-11.0325
菲	-11.0326
青絲	-11.0326
隈	-11.0326
禹錫	-11.0326
駞	-11.0326
蚤	-11.0327
交趾	-11.0328
槿	-11.0329
莓苔	-11.0331
劃	-11.0332
鬱鬱	-11.0333
也〇	-11.0338
所出	-11.0339
積雪	-11.0339
乃命	-11.0339
殺氣	-11.0342
攜手	-11.0344
至若	-11.0346
其行	-11.0349
者哉	-11.0357
大梁	-11.0358
天柱	-11.0362
荆山	-11.0362
廣徳	-11.0366
使之	-11.0368
焉而	-11.0371
也史記	-11.0372
滄江	-11.0373
遼東	-11.0378
倐	-11.0382
鄜州	-11.0383
雖云	-11.0384
連州	-11.0384
送人	-11.0385
颺	-11.0387
嫩	-11.0389
矦	-11.039
一舉	-11.039
而求	-11.0392
之仁	-11.0393
吏部尚書	-11.0393
迴首	-11.0396
優游	-11.0397
潤州	-11.0398
子儀	-11.0399
元稹	-11.0402
六七	-11.0404
浮屠	-11.0405
常山	-11.0408
有云	-11.0411
夫人之	-11.0412
一月	-11.0413
謹奏	-11.0414
風濤	-11.0416
秦地	-11.0418
四韻	-11.042
悠	-11.042
弟兄	-11.0422
而莫	-11.0423
蘇秦	-11.0425
塞上	-11.0426
第十	-11.0426
已來	-11.0439
何年	-11.044
猾	-11.0442
詩集	-11.0446
此文	-11.0447
畨	-11.0447
中書舎人	-11.0448
悚	-11.0449
冉	-11.045
行軍司馬	-11.045
駟馬	-11.045
筝	-11.0451
斐	-11.0451
吾君	-11.0451
瀧	-11.0451
龔	-11.0452
脆	-11.0452
兵曹	-11.0453
上元元年	-11.0455
冬日	-11.0457
水火	-11.046
甲兵	-11.0463
天竺	-11.0463
冬至	-11.0465
神武	-11.0471
殊未	-11.0474
池塘	-11.0474
美酒	-11.0475
崑	-11.0479
實録	-11.0479
有四	-11.0485
斯言	-11.0488
非其	-11.0489
魏博	-11.0491
之資	-11.0492
豈是	-11.0493
集注	-11.0497
二三	-11.0497
新亭	-11.05
石室	-11.05
文苑英華	-11.05
十七年	-11.0501
件	-11.0503
九歌	-11.0506
俛	-11.0508
子産	-11.0509
陬	-11.0509
蓍	-11.051
赭	-11.051
擘	-11.0511
畋	-11.0511
賽	-11.0511
唳	-11.0513
誰謂	-11.0513
玲瓏	-11.0514
熊羆	-11.0514
張翰	-11.0515
鄭氏	-11.0515
晶	-11.0517
黄生曰	-11.0517
文子	-11.0517
官吏	-11.0519
爍	-11.0519
道中	-11.0522
太湖	-11.0522
其妻	-11.0527
凉風	-11.0527
而終	-11.053
晏子	-11.053
耒	-11.0531
〇蘇曰	-11.0532
盛徳	-11.0533
洙曰古詩	-11.0536
將帥	-11.0541
祕書	-11.0546
能為	-11.0547
之流	-11.0548
單父	-11.0548
然其	-11.0551
同一	-11.0552
與子	-11.0556
唱和	-11.056
凄凉	-11.0562
文理	-11.0562
可得	-11.0563
韓子	-11.0569
娛	-11.0569
汜	-11.0569
寸心	-11.057
縹	-11.057
地理	-11.0571
羔	-11.0572
彬	-11.0572
不求	-11.0572
之先	-11.0572
嗔	-11.0573
經年	-11.0573
漉	-11.0574
徐陵	-11.0575
琛	-11.0575
攄	-11.0575
世事	-11.0576
之賢	-11.0577
屍	-11.0577
貞元十九年	-11.0578
侍郞	-11.0578
幄	-11.0578
棣	-11.0578
銅柱	-11.0578
犬戎	-11.058
公私	-11.0581
自憐	-11.0584
多士	-11.0585
其位	-11.0586
其力	-11.0586
張騫	-11.0587
本此	-11.059
可與	-11.0593
臣竊	-11.0594
元和十年	-11.0601
錦江	-11.0602
行道	-11.0603
公時	-11.0604
交親	-11.0605
可也	-11.0611
出塞	-11.0613
朝野	-11.062
赤城	-11.062
孝子	-11.0623
物情	-11.0623
正是	-11.0624
司業	-11.0625
僮	-11.0625
避亂	-11.0628
以明	-11.063
麋	-11.0632
非我	-11.0633
瞽	-11.0634
當今	-11.0635
𥿄	-11.0636
躑躅	-11.0636
疫	-11.0636
睢陽	-11.0637
聲聞	-11.0638
劉琨	-11.0639
冉冉	-11.064
乃作	-11.064
清江	-11.0641
崔氏	-11.0641
泳	-11.0641
觜	-11.0641
摛	-11.0642
魯連	-11.0642
許之	-11.0643
而知	-11.0643
顛倒	-11.0644
卒於	-11.0645
朱紱	-11.0646
揺落	-11.0653
之感	-11.0655
之極	-11.0656
古風	-11.0657
終於	-11.0662
量移	-11.0662
至誠	-11.0663
四十里	-11.0665
昔年	-11.0668
馬援	-11.067
次曰	-11.067
者耶	-11.0671
府中	-11.0674
為政	-11.0679
含情	-11.068
月出	-11.0681
去國	-11.0684
而可	-11.0685
緋	-11.069
長吏	-11.0692
之役	-11.0692
未幾	-11.0694
淮海	-11.0695
袒	-11.0696
語意	-11.0697
顒	-11.0697
别業	-11.0697
不肖	-11.0698
天水	-11.0698
拄	-11.0698
藝文志	-11.0698
拈	-11.07
崔嵬	-11.0701
捍	-11.0701
今為	-11.0701
侶	-11.0701
沈休文	-11.0702
菩提	-11.0702
煌煌	-11.0703
廪	-11.0704
砂	-11.0705
國忠	-11.0705
繋	-11.0705
河水	-11.0706
芳菲	-11.0707
其次	-11.0714
經營	-11.0715
留連	-11.0716
善惡	-11.0718
者三	-11.0723
僖	-11.0727
嗜酒	-11.0727
我今	-11.0727
華作	-11.073
墨子	-11.0731
白鷺	-11.0733
多矣	-11.0736
早朝	-11.0745
可知矣	-11.0747
忠義	-11.0753
好事者	-11.0755
中道	-11.0757
夢符曰右按	-11.0758
牛羊	-11.076
㢘	-11.0762
迺	-11.0762
盼	-11.0763
亳	-11.0764
况乃	-11.0765
檐	-11.0765
惲	-11.0765
藜	-11.0765
舛	-11.0766
巵	-11.0766
元和郡縣志	-11.0767
蓼	-11.0771
盲	-11.0772
囀	-11.0772
不來	-11.0777
固不	-11.0777
日照	-11.0779
錢塘	-11.0788
西陵	-11.0789
垠	-11.0791
數月	-11.0798
有詔	-11.0798
年冬	-11.08
關山	-11.0802
山陽	-11.0805
陳平	-11.0807
猶可	-11.0812
霰	-11.0815
扈從	-11.0818
縉	-11.0818
今云	-11.082
焉能	-11.0824
癖	-11.0826
荆公	-11.0827
㡌	-11.083
撞	-11.083
証	-11.083
躭	-11.0831
斃	-11.0831
璫	-11.0831
道源注	-11.0832
迂	-11.0832
大人	-11.0835
磯	-11.0835
魯曰	-11.0836
史思明	-11.084
之路	-11.0846
相連	-11.0848
雷雨	-11.085
何言	-11.0851
在兹	-11.0853
此心	-11.0853
鳥雀	-11.0856
欲使	-11.0859
不由	-11.0862
仁者	-11.0864
之典	-11.0866
皆曰	-11.0872
公自言	-11.0876
二曰	-11.0878
白樂天	-11.0878
之教	-11.088
斷腸	-11.088
所以為	-11.0881
營田	-11.0881
倪	-11.0884
丐	-11.0889
其國	-11.0889
踣	-11.089
之興	-11.0891
漢之	-11.0891
熏	-11.0891
相和	-11.0892
兕	-11.0893
孤雲	-11.0895
花下	-11.0895
則公	-11.0895
竪	-11.0896
並見	-11.0896
赫赫	-11.0897
憾	-11.0898
雍州	-11.0899
尅	-11.09
故能	-11.0901
髙山	-11.0901
黄牛	-11.0901
有遺	-11.0901
▁史記	-11.0902
幃	-11.0902
祭文	-11.0902
無功	-11.0907
南有	-11.0907
六國	-11.0909
方知	-11.0909
避地	-11.091
途窮	-11.0913
經綸	-11.0915
四百	-11.0916
後宫	-11.0919
子胥	-11.0921
一去	-11.0922
著作	-11.0922
元九	-11.0925
三分	-11.0933
窮愁	-11.0937
金銀	-11.0938
之禍	-11.0942
豈徒	-11.0942
宣慰	-11.0943
河内	-11.0946
三五	-11.0947
來朝	-11.0948
寄書	-11.0949
楚山	-11.0954
州剌史	-11.0954
覈	-11.0956
庭前	-11.0958
後有	-11.0959
朂	-11.0959
不善	-11.096
崔旰	-11.0961
賄	-11.0961
不問	-11.0962
嘻	-11.0962
嫂	-11.0962
金闕	-11.0962
炬	-11.0963
諸侯之	-11.0964
用心	-11.0968
旣而	-11.0968
潼關	-11.0968
漫漫	-11.097
曽祖	-11.097
肅肅	-11.0971
風生	-11.0972
之由	-11.0973
玉壺	-11.0974
長句	-11.0974
諸家	-11.0979
澧	-11.0982
貞元十	-11.0986
臨川	-11.0988
賦得	-11.0992
雲霄	-11.0992
送韋	-11.0995
翠羽	-11.0995
有鳥	-11.0996
而立	-11.0996
前日	-11.0999
隠居	-11.1
曰夫	-11.1003
荆楚	-11.1004
尊號	-11.1006
夫子之	-11.1006
化爲	-11.1008
物色	-11.1011
文苑英	-11.1014
白鷗	-11.1015
詩家	-11.1015
蜀道	-11.1019
即日	-11.102
杼	-11.1021
騮	-11.1021
珥	-11.1022
抜	-11.1024
東林	-11.1024
髓	-11.1024
遯	-11.1026
鵷	-11.1027
僣	-11.1027
療	-11.1028
糟	-11.103
謝本	-11.103
烽火	-11.103
刳	-11.1031
騏驥	-11.1032
天寶十	-11.1033
不似	-11.1034
今夜	-11.1037
之民	-11.1039
舊作	-11.1041
東道	-11.1042
憐君	-11.1042
黄鵠	-11.1042
少時	-11.1042
郴州	-11.1045
下車	-11.1046
康樂	-11.1047
二日	-11.1048
東漢	-11.105
矣夫	-11.1054
直言	-11.106
以獻	-11.1062
平陽	-11.1063
不仕	-11.1064
有懷	-11.1065
之道也	-11.1065
瓊樹	-11.1072
力士	-11.1076
卿等	-11.1078
廟堂	-11.1078
江樓	-11.1079
上黨	-11.1079
歸山	-11.108
青溪	-11.1081
得人	-11.1084
齊人	-11.1085
天王	-11.1085
躓	-11.1085
桴	-11.1089
嚼	-11.1089
至徳二載	-11.1091
跌	-11.1091
漢官儀	-11.1091
瘁	-11.1092
窆	-11.1093
聾	-11.1093
矣其	-11.1093
隼	-11.1093
水陸	-11.1094
風煙	-11.1094
蟋蟀	-11.1095
砥	-11.1097
舫	-11.1097
繕	-11.1099
崔公	-11.1099
鼓吹	-11.11
雜詩	-11.1101
青城	-11.1102
前件	-11.1103
之憂	-11.1104
不惜	-11.1107
嘗有	-11.111
家家	-11.1113
而起	-11.1117
元子	-11.1119
在蜀	-11.112
靈臺	-11.1124
南望	-11.1125
圖畫	-11.1126
沙門	-11.1126
心事	-11.1132
則非	-11.1133
王府	-11.1136
聞於	-11.1136
無端	-11.114
張氏	-11.114
語也	-11.1141
之主	-11.1142
紅塵	-11.1142
薤	-11.1143
夫婦	-11.1145
岷山	-11.1151
小臣	-11.1152
者或	-11.1153
峴	-11.1153
湖州	-11.1156
纖	-11.1156
便是	-11.1156
嫗	-11.1156
敬亭	-11.116
顦顇	-11.116
刑部	-11.116
刑部侍郎	-11.116
盧注	-11.1162
不䏻	-11.1162
穗	-11.1162
幘	-11.1162
萎	-11.1163
辦	-11.1163
吊	-11.1165
戎狄	-11.1169
烏鵲	-11.1173
損益	-11.1173
我獨	-11.1174
伏見	-11.1174
不測	-11.1177
昔在	-11.1179
今公	-11.118
錦城	-11.118
依前	-11.1182
弱冠	-11.1184
爲文	-11.1187
二十九	-11.1188
紫芝	-11.1189
太一	-11.1189
越州	-11.119
之善	-11.119
秦人	-11.1193
又聞	-11.1194
皆非	-11.1197
雲霞	-11.1198
王侯	-11.1199
聲名	-11.1201
月色	-11.1205
釣魚	-11.1206
栁州	-11.1208
形如	-11.1208
去去	-11.1208
伏望	-11.1209
青苔	-11.1214
幽明	-11.122
仞	-11.1221
変	-11.1221
疚	-11.1222
隍	-11.1222
芥	-11.1224
輅	-11.1224
初學記	-11.1225
從史	-11.1226
毬	-11.1226
綜	-11.1227
珉	-11.1227
芹	-11.1227
衿	-11.1227
可觀	-11.1228
遑	-11.1228
䨇	-11.1229
元和四年	-11.1229
悴	-11.1229
茅茨	-11.1229
上國	-11.123
咨嗟	-11.123
林中	-11.123
十人	-11.123
澈	-11.123
馥	-11.1231
元和五年	-11.1231
開成	-11.1232
債	-11.1232
庠	-11.1233
國子	-11.1236
困於	-11.1237
都䕶	-11.1238
因循	-11.1238
杏花	-11.124
青瑣	-11.124
失所	-11.1243
月五日	-11.1244
恐非	-11.1248
者是	-11.1249
幕中	-11.1249
蕭索	-11.125
之境	-11.1251
絶域	-11.1251
所至	-11.1255
在上	-11.1264
一葉	-11.1266
音義	-11.1269
皆無	-11.1275
光彩	-11.1279
萬户	-11.128
十六年	-11.1282
同中書門下平章事	-11.1289
豚	-11.1289
驩	-11.1289
繭	-11.129
襦	-11.129
霓裳	-11.129
詆	-11.129
泓	-11.1293
舩	-11.1293
稟	-11.1293
募	-11.1294
峡	-11.1295
娃	-11.1297
縻	-11.1297
顗	-11.1297
畒	-11.1298
年八月	-11.1299
遟	-11.1299
䟦	-11.13
僑	-11.13
是知	-11.1307
五更	-11.1313
入于	-11.1322
神人	-11.1323
琴瑟	-11.1328
瑶池	-11.1328
豈敢	-11.133
晉侯	-11.1331
曹公	-11.1333
和平	-11.1333
檝	-11.1334
恐懼	-11.1334
白衣	-11.1337
白虎	-11.1338
太華	-11.1343
感恩	-11.1346
經術	-11.135
多難	-11.135
發於	-11.1351
細雨	-11.1356
漬	-11.1356
韵	-11.136
永貞元年	-11.1362
濆	-11.1363
鹿門	-11.1363
璜	-11.1364
藕	-11.1365
廡	-11.1366
塵土	-11.1366
髙適	-11.137
光弼	-11.1373
近臣	-11.1374
天外	-11.1378
亞之	-11.1384
明鏡	-11.1384
能使	-11.1389
大賢	-11.1391
歸於	-11.1391
何爲	-11.1393
鄆	-11.1399
六十里	-11.14
大宛	-11.14
當塗	-11.14
秋雨	-11.1403
天山	-11.1409
可考	-11.141
也漢	-11.1411
涼風	-11.1416
四望	-11.1417
獨行	-11.1418
奏事	-11.1421
睨	-11.1423
燠	-11.1423
豈得	-11.1424
瘠	-11.1425
頓首頓首	-11.1425
何須	-11.1425
安南	-11.1425
杖藜	-11.1429
顆	-11.143
袴	-11.143
頰	-11.143
霏霏	-11.1431
朶	-11.1431
青草	-11.1432
松風	-11.1432
瓘	-11.1433
沫	-11.1434
渺	-11.1434
埸	-11.1434
詩句	-11.1436
甲乙	-11.144
九齡	-11.1442
山北	-11.1444
此去	-11.1446
古木	-11.1447
而忘	-11.1447
君侯	-11.145
元元	-11.1456
永泰	-11.1458
成帝	-11.146
九霄	-11.1461
榮枯	-11.1462
爲君	-11.1463
緑水	-11.1463
三巻	-11.1464
德輿	-11.1467
醉中	-11.1467
余曰	-11.147
安石	-11.1471
靈運	-11.1471
風雷	-11.1474
非無	-11.1477
而入	-11.1477
號令	-11.1481
者歟	-11.1484
贇	-11.149
玉京	-11.149
箏	-11.1491
文詞	-11.1492
率土	-11.1493
彈琴	-11.1495
竅	-11.1495
首句	-11.1498
菌	-11.1498
不利	-11.1499
涎	-11.1499
之甚	-11.15
痩	-11.1501
滕	-11.1502
詠懷	-11.1502
湄	-11.1503
鵶	-11.1504
䘏	-11.1504
疾病	-11.1505
謌	-11.1506
必先	-11.1506
估	-11.1507
阮籍詩	-11.1511
函谷	-11.1511
所稱	-11.1516
平明	-11.1518
樹下	-11.1518
燕雀	-11.1518
命駕	-11.1521
朱顔	-11.1529
之險	-11.1531
但恐	-11.1536
遲暮	-11.1539
紫泥	-11.1539
雲卿	-11.1543
荀子	-11.1543
伯樂	-11.1543
也趙曰	-11.1551
山僧	-11.1552
龍泉	-11.1561
日月之	-11.1561
梁權道編在	-11.1562
𥙿	-11.1567
紋	-11.1568
鐫	-11.1568
孟浩然	-11.1569
吕氏春秋	-11.157
憇	-11.157
駙馬	-11.1571
世系表	-11.1572
巍	-11.1572
之列	-11.1573
寰	-11.1574
筋力	-11.1574
大功	-11.1575
羅敷	-11.1575
形勢	-11.1579
鉢	-11.1579
三百里	-11.159
大父	-11.1591
孟郊	-11.1594
牢落	-11.16
中宵	-11.1603
其始	-11.1604
大厯三年	-11.1605
文宗	-11.1607
鳥飛	-11.1612
西郊	-11.1614
有九	-11.1616
子夏	-11.1619
岐路	-11.1619
半夜	-11.162
之體	-11.1623
西園	-11.1624
在西	-11.1626
之器	-11.1628
爲我	-11.1632
而望	-11.1632
愷	-11.1633
拂衣	-11.1633
贅	-11.1633
僵	-11.1634
鯨鯢	-11.1634
羶	-11.1637
瘵	-11.1638
鐸	-11.1639
企	-11.164
刷	-11.1641
愛人	-11.1643
杪	-11.1643
氊	-11.1643
縹緲	-11.1644
兼御史中丞	-11.1647
歌聲	-11.1647
雲端	-11.1656
直上	-11.1656
杜甫詩	-11.166
五嶺	-11.1661
指揮	-11.1661
台州	-11.1667
玉壘	-11.1669
薄暮	-11.167
其性	-11.1672
忠州	-11.1674
不得不	-11.1675
今在	-11.1678
年二月	-11.1678
遣興	-11.1678
十韻	-11.168
來往	-11.1682
亦名	-11.1683
西望	-11.1686
不平	-11.1686
諸人	-11.1689
昔時	-11.1691
答曰	-11.1692
皆言	-11.1693
勤勞	-11.1697
無能	-11.1698
風飄	-11.1699
方士	-11.17
七夕	-11.1701
愛其	-11.1702
佗	-11.1703
無疆	-11.1703
朝日	-11.1705
拏	-11.1705
魅	-11.1706
京邑	-11.1707
曄	-11.1708
擎	-11.171
蛩	-11.1711
鶚	-11.1712
撼	-11.1713
瞑	-11.1714
者雖	-11.1715
鯉魚	-11.1718
思君	-11.1718
郡齋	-11.1724
俯仰	-11.1726
花枝	-11.1726
蘭若	-11.1729
聖德	-11.173
皆為	-11.1731
列仙傳	-11.1733
禍福	-11.1737
之問	-11.1737
秋來	-11.1741
青冥	-11.1742
制度	-11.1748
天文	-11.1749
▁左傳	-11.1749
無益	-11.175
西河	-11.1751
四十年	-11.1757
前賢	-11.1758
武威	-11.1762
臺上	-11.1763
而思	-11.1764
蘄	-11.1764
若乃	-11.1764
往事	-11.1766
固有	-11.1766
通志	-11.1768
山色	-11.1769
凡三	-11.177
訊	-11.1771
志氣	-11.1771
平原君	-11.1772
而往	-11.1772
牡	-11.1774
良馬	-11.1774
唐六典	-11.1776
西風	-11.1776
樗	-11.1778
努力	-11.1778
王曰	-11.1778
賜緋魚袋	-11.1779
蕨	-11.1779
光禄	-11.1779
不辭	-11.1781
墊	-11.1782
頭上	-11.1782
也莊子	-11.1784
自天	-11.1784
脈	-11.1786
非有	-11.1787
花發	-11.1788
客有	-11.1788
送崔	-11.1788
以取	-11.1789
有期	-11.1791
不願	-11.1792
本朝	-11.1796
之謀	-11.1799
三萬	-11.18
世孫	-11.1801
悲風	-11.1803
明帝	-11.1804
詞賦	-11.1809
山頭	-11.181
師曰甫	-11.181
廣雅	-11.1824
雪霜	-11.1824
㐮	-11.1831
秋毫	-11.1832
登高	-11.1832
南樓	-11.1835
夫何	-11.1836
蠅	-11.1836
泠	-11.184
立為	-11.1842
告之	-11.1842
祭酒	-11.1843
曰是	-11.1844
萬姓	-11.1846
嫋嫋	-11.1847
黄昏	-11.1848
脣	-11.1848
槃	-11.1849
不才	-11.1849
閣本作	-11.185
潼	-11.185
施於	-11.1851
孺子	-11.1852
潄	-11.1853
空餘	-11.1853
張平子	-11.1853
泠泠	-11.1853
貼	-11.1854
滄溟	-11.1854
之望	-11.1855
晤	-11.1855
逗	-11.1856
耐	-11.1857
葛洪	-11.1862
自由	-11.1862
公安	-11.1862
賢愚	-11.1864
孔雀	-11.1864
戲贈	-11.1864
還京	-11.1865
至則	-11.1865
年十月	-11.187
烟霞	-11.1875
禄山反	-11.1876
世有	-11.1877
常州	-11.188
不妨	-11.188
長年	-11.188
以安	-11.188
悲歌	-11.1883
看花	-11.1884
安禄山	-11.189
中心	-11.1898
易曰	-11.1905
薛云	-11.1911
東陽	-11.1911
睿宗	-11.1913
楊氏	-11.1918
酤	-11.1919
宇文	-11.192
纜	-11.1921
処	-11.1921
如水	-11.1922
湓	-11.1923
時危	-11.1925
廣大	-11.1926
前篇	-11.1928
徤	-11.1928
輞川	-11.1931
池中	-11.1934
赤松	-11.1934
天長	-11.1935
為郎	-11.1936
梁州	-11.1937
一心	-11.1939
徴君	-11.1945
百餘里	-11.1945
萬一	-11.1945
秦川	-11.195
也然則	-11.195
縣丞	-11.1951
其色	-11.196
竹杖	-11.1961
遺跡	-11.1961
小大	-11.1963
其弟	-11.1964
時來	-11.1964
其在	-11.1965
之思	-11.1966
義山	-11.1966
宜春	-11.1971
詩酒	-11.1971
南陵	-11.1971
思量	-11.1971
不加	-11.1978
在䕫州	-11.1981
鳥道	-11.1989
枯槁	-11.199
磊落	-11.1991
銀青光禄大夫	-11.1992
芋	-11.1992
此記	-11.1993
娱	-11.1993
其生	-11.1993
胤	-11.1995
蔕	-11.1996
崒	-11.1996
巍巍	-11.1997
古道	-11.1997
孔安國	-11.1997
森森	-11.1998
聫	-11.1998
蜃	-11.1998
幔	-11.1998
寝	-11.1998
鄜	-11.1999
於下	-11.2001
乎吾	-11.2002
擣	-11.2002
南嶽	-11.2002
李謝	-11.2003
白紵	-11.2003
洪濤	-11.2004
之形	-11.2004
異之	-11.2008
孫綽	-11.2009
以慰	-11.2014
色如	-11.2014
與王	-11.2016
不仁	-11.2017
出守	-11.2017
飛揚	-11.2019
子貢	-11.2021
何故	-11.2024
人或	-11.2024
令公	-11.2025
之異	-11.2026
軍旅	-11.2028
兼呈	-11.2031
李膺	-11.2032
江亭	-11.2032
其理	-11.2035
太古	-11.2037
戰伐	-11.204
也漢書	-11.2041
空中	-11.2042
連天	-11.2043
耒陽	-11.2044
教之	-11.2045
者言	-11.2049
思禮	-11.2055
其君	-11.2057
河源	-11.2059
韓氏	-11.2061
故里	-11.2064
伶	-11.2064
攫	-11.2066
緡	-11.2068
諫議大夫	-11.2068
倖	-11.2068
玷	-11.2069
燔	-11.207
其外	-11.207
尖	-11.2071
鴟夷	-11.2072
鄭𤣥	-11.2073
顔子	-11.2074
得名	-11.2074
可使	-11.2075
四子	-11.2075
棃	-11.2076
螢火	-11.2082
中郎	-11.2083
烱	-11.2083
主客	-11.2083
無常	-11.2084
忽見	-11.2086
八荒	-11.2087
詩成	-11.2089
濮	-11.2089
移居	-11.2089
玉泉	-11.2089
謝眺	-11.2091
五雲	-11.2091
不厭	-11.2093
法曹	-11.2095
髙下	-11.2097
諸本作	-11.2097
愁思	-11.2098
君看	-11.2098
白楊	-11.2099
廣成	-11.2106
天下之人	-11.2107
友生	-11.2112
不祥	-11.2114
歲時	-11.2115
東宫	-11.2115
明君	-11.2117
兵革	-11.2118
何其	-11.2126
武德	-11.2129
智者	-11.2129
后土	-11.213
苦辛	-11.2131
上聞	-11.2134
如在	-11.2135
常恐	-11.2136
此其	-11.2136
爱	-11.2137
牝	-11.2137
璣	-11.2138
錐	-11.2138
頤	-11.2141
馬融	-11.2141
螺	-11.2143
傭	-11.2144
盂	-11.2144
洙曰莊子	-11.2145
皎皎	-11.2146
周穆王	-11.2146
亰	-11.2146
崗	-11.2148
摽	-11.2148
曹參軍	-11.2149
彂	-11.2149
秦皇	-11.215
他時	-11.2153
吉凶	-11.2155
身後	-11.2155
暎	-11.2157
生成	-11.2157
矣哉	-11.2159
三台	-11.2161
封疆	-11.2164
白蓮	-11.2164
無名	-11.2164
大官	-11.2164
陸渾	-11.2164
入秦	-11.2167
退而	-11.2167
城門	-11.2168
耆舊	-11.2169
天機	-11.2169
逆旅	-11.217
西來	-11.2172
長松	-11.2175
乗輿	-11.2177
賦曰	-11.2179
而不可	-11.2181
顧我	-11.2182
因而	-11.2183
之變	-11.2183
書勑	-11.2197
近日	-11.2197
者衆	-11.2197
鵩	-11.2201
因寄	-11.2201
離憂	-11.2204
周易	-11.2208
前人	-11.2211
薬	-11.2212
翺翔	-11.2212
下馬	-11.2212
水經	-11.2213
讜	-11.2213
扆	-11.2214
坻	-11.2216
芟	-11.2217
耿耿	-11.2217
庶子	-11.2217
肴	-11.2217
慊	-11.2218
唇	-11.2218
必能	-11.2218
騶	-11.2219
殱	-11.2219
其勢	-11.222
杳杳	-11.2221
不類	-11.2221
纍纍	-11.2222
怜	-11.2223
白鹿	-11.2227
百憂	-11.2228
俱作	-11.2228
何遜	-11.2229
泣血	-11.2234
令狐相公	-11.2235
供養	-11.2236
二妃	-11.2236
少室	-11.2236
鏡湖	-11.2237
海隅	-11.2239
如雨	-11.2243
小者	-11.2243
魚復	-11.2244
貟外郎	-11.2249
北望	-11.225
事皆	-11.2251
又見	-11.2252
對雪	-11.2253
不可見	-11.2256
此山	-11.2257
老大	-11.2258
九首	-11.2259
黄門	-11.226
蜀州	-11.226
因其	-11.226
八駿	-11.2261
無罪	-11.2265
稱之	-11.2268
盧氏	-11.2269
不定	-11.2275
承天	-11.2282
足矣	-11.2283
氓	-11.2284
愿	-11.2286
隗	-11.2287
櫓	-11.2288
喘	-11.2288
纛	-11.2288
徭	-11.229
元和十四年	-11.229
鏃	-11.2291
陲	-11.2291
飭	-11.2294
氛氲	-11.2294
蜀志	-11.2296
舊宅	-11.2297
瘧	-11.2297
不廢	-11.2298
沽酒	-11.2299
四載	-11.2302
新秋	-11.2303
漢魏	-11.2304
紫綬	-11.2305
一種	-11.2306
叔向	-11.2307
易水	-11.2309
之色	-11.2315
杏園	-11.2316
可愛	-11.2316
席上	-11.2317
人主	-11.2317
林寺	-11.2318
見示	-11.2319
外集	-11.2319
一千	-11.2319
流而	-11.2323
逸人	-11.2324
其類	-11.2328
所著	-11.2329
往復	-11.233
之年	-11.2332
凌雲	-11.2336
中庸	-11.2341
曆	-11.2342
愛之	-11.2344
其詩	-11.2344
然亦	-11.2345
鳥鳴	-11.2345
韋昭	-11.2349
有志	-11.2353
年間	-11.2354
眼中	-11.2355
淄	-11.2358
壚	-11.2358
可乎	-11.236
獠	-11.236
翥	-11.236
杲	-11.236
定功曰	-11.2362
為相	-11.2362
㤀	-11.2363
瘡痍	-11.2364
桷	-11.2364
奨	-11.2364
鄭康成	-11.2364
黄山	-11.2365
塹	-11.2365
酋	-11.2366
只是	-11.2366
仐	-11.2366
滿眼	-11.2366
瀛洲	-11.2367
諺	-11.2368
一夫	-11.2368
嚬	-11.2368
魔	-11.2368
絆	-11.2369
扼	-11.237
啜	-11.2371
辤	-11.2372
送僧	-11.2373
昆弟	-11.2374
寥寥	-11.2374
和之	-11.2374
皆得	-11.2376
一氣	-11.2378
以疾	-11.2386
其罪	-11.2387
三光	-11.2389
雲水	-11.239
不取	-11.239
服䖍	-11.2391
臨淮	-11.2392
未嘗不	-11.2392
君墓誌銘	-11.2396
伏乞	-11.2398
所從	-11.2398
尋陽	-11.2399
聖君	-11.2399
之世	-11.24
風雪	-11.2403
九華	-11.2409
處置	-11.2411
二十餘	-11.2411
烈士	-11.2411
年九月	-11.2414
清淨	-11.2416
長安志	-11.2418
孫權	-11.2418
猶自	-11.2419
本是	-11.2422
榴	-11.2424
牛馬	-11.2425
魴	-11.2429
穆王	-11.243
未為	-11.2433
瀟	-11.2434
長吉	-11.2434
恩澤	-11.2435
跖	-11.2437
荆軻	-11.2438
行路	-11.2439
論文	-11.2439
膓	-11.2441
法華經	-11.2442
三朝	-11.2442
孱	-11.2442
秃	-11.2442
糾	-11.2443
脯	-11.2443
殤	-11.2443
据	-11.2443
称	-11.2445
柩	-11.2446
覬	-11.2446
廣德二年	-11.2447
稼穡	-11.2447
嵗時	-11.2448
之勤	-11.2448
形於	-11.2449
幽獨	-11.2449
養生	-11.2454
葬于	-11.2454
鮑叔	-11.2454
避暑	-11.2456
之義也	-11.2459
有能	-11.2464
國朝	-11.2469
昊天	-11.2473
生而	-11.2476
承明	-11.2476
野老	-11.2476
南郡	-11.2478
北堂	-11.248
天漢	-11.2485
襄王	-11.2489
才名	-11.2491
之髙	-11.2492
八百	-11.2496
光景	-11.2499
永安	-11.2499
明時	-11.25
嘗與	-11.2505
登封	-11.2506
自號	-11.2507
園中	-11.2508
茨	-11.2513
飫	-11.2514
今我	-11.2515
杭本作	-11.2515
偃蹇	-11.2516
木葉	-11.2517
譁	-11.2517
鶉	-11.2517
逖	-11.2517
删	-11.2518
椀	-11.2519
怖	-11.2519
其徳	-11.252
莅	-11.252
蚊	-11.252
蠢	-11.2522
汲汲	-11.2525
開府	-11.2525
巳下	-11.2527
崇文	-11.2527
彚	-11.2528
蝕	-11.2531
丹墀	-11.2532
積水	-11.2533
入於	-11.2534
仲舒	-11.2537
報國	-11.2537
明星	-11.2537
石榴	-11.254
八尺	-11.254
存焉	-11.2541
無非	-11.2541
城闕	-11.2542
五代	-11.2545
隴西李	-11.2545
古本	-11.2545
意在	-11.2546
司農	-11.2548
如有	-11.2549
驤	-11.2549
故言	-11.255
之材	-11.255
之明	-11.2556
也〇趙曰	-11.2557
各一	-11.2559
聖慈	-11.2559
隴頭	-11.256
之宫	-11.2564
收復	-11.2565
故舊	-11.2567
心中	-11.2573
山澤	-11.2573
後主	-11.2575
草色	-11.2577
國人	-11.2578
因名	-11.2584
荷花	-11.2585
本末	-11.2585
諤	-11.2587
白屋	-11.2589
可否	-11.2589
月滿	-11.2591
不滿	-11.2591
漢髙	-11.2592
惡之	-11.2593
不假	-11.2594
岌	-11.2595
江中	-11.2595
琅	-11.2595
菽	-11.2595
畎	-11.2596
王喬	-11.2597
驃騎	-11.2597
塚	-11.2598
圜	-11.2598
彭蠡	-11.2598
東郊	-11.2598
此是	-11.2599
天文志	-11.2599
刑部尚書	-11.2599
凭	-11.2601
豪傑	-11.2602
與諸	-11.2603
迢遞	-11.2604
某等	-11.2605
制誥	-11.2605
宋本	-11.2605
胡笳	-11.2608
王羲之	-11.261
之要	-11.261
浙西	-11.2615
鄉人	-11.2621
延陵	-11.2621
九原	-11.2626
呉王	-11.2627
之竒	-11.2627
鄂州	-11.2628
始得	-11.263
為主	-11.2634
立言	-11.2636
能自	-11.2636
樽酒	-11.2638
漢文帝	-11.2642
大厯二	-11.2642
應劭	-11.2646
遂為	-11.2648
當從	-11.265
戰國	-11.265
首章	-11.2651
夜夜	-11.2652
璽	-11.2652
虚空	-11.2653
西閣	-11.2657
願得	-11.2658
長驅	-11.266
行軍	-11.2661
皆可	-11.2661
無言	-11.2662
桂枝	-11.2662
莒	-11.2664
都統	-11.2665
天氣	-11.2665
傳聞	-11.2666
蠡	-11.2667
礫	-11.2669
泚	-11.267
今兹	-11.267
娯	-11.2671
與時	-11.2672
踴躍	-11.2673
苕	-11.2673
圻	-11.2673
昴	-11.2674
軋	-11.2675
㐫	-11.2676
也按	-11.2677
勸君	-11.2678
瞿唐	-11.2678
抄	-11.268
多事	-11.2682
同官	-11.2684
其情	-11.2686
是歲	-11.2688
今夕	-11.2691
流血	-11.2694
實有	-11.2694
東望	-11.2695
終于	-11.2695
之雄	-11.2696
經曰	-11.2696
仲宣	-11.2697
已矣	-11.2697
洛城	-11.2699
榮華	-11.27
表裏	-11.2702
之勞	-11.2708
甘泉賦	-11.2709
縣西北	-11.271
始於	-11.2712
羽儀	-11.2714
支離	-11.2715
安國	-11.2716
松竹	-11.2716
所適	-11.2716
誰復	-11.2717
闗山	-11.2717
忘機	-11.2718
過此	-11.2721
有罪	-11.2726
又如	-11.2727
十數	-11.2728
李相公	-11.2729
或問	-11.2732
聦	-11.2732
梁簡文帝	-11.2733
縣界	-11.2735
昔人	-11.2736
羆	-11.2738
卿大夫	-11.2739
非常之	-11.2743
盌	-11.2744
前代	-11.2744
去矣	-11.2745
廻首	-11.2746
都官	-11.2746
登科	-11.2747
瘳	-11.2747
鴞	-11.2748
别來	-11.2749
嗷嗷	-11.2749
未始	-11.275
轟	-11.275
綾	-11.2751
莊周	-11.2751
攢	-11.2752
喫	-11.2752
曇	-11.2752
繹	-11.2753
濩	-11.2753
礎	-11.2753
糓	-11.2753
五人	-11.2753
翎	-11.2753
輈	-11.2753
蹟	-11.2754
䧏	-11.2755
顔師古註	-11.2756
青鳥	-11.2756
篠	-11.2756
有加	-11.2757
致君	-11.2758
欎	-11.276
題名	-11.276
蒼苔	-11.2761
葬於	-11.2761
文雅	-11.2761
雖在	-11.2762
仰天	-11.2762
春雨	-11.2763
城外	-11.2764
三十五	-11.2765
冀州	-11.2765
兼侍御史	-11.2766
史官	-11.2767
懐古	-11.2771
名聲	-11.2772
聖王	-11.2776
西漢	-11.2776
當為	-11.2778
唐書地理志	-11.2779
宣室	-11.2782
梁武帝	-11.2782
終古	-11.2784
第六	-11.2786
作賦	-11.2787
安平	-11.2789
光隂	-11.2791
杜牧	-11.2794
百草	-11.2795
西蜀	-11.2799
無力	-11.28
十有二	-11.2802
不得已	-11.2803
無主	-11.2803
賜臣	-11.2808
三章	-11.281
五侯	-11.2812
嘗以	-11.2819
立之	-11.2819
濟南	-11.282
寒泉	-11.2821
春江	-11.2822
驄馬	-11.2822
對月	-11.2822
萬丈	-11.2823
蛟螭	-11.2824
狂歌	-11.2826
源明	-11.2828
圯	-11.2829
盎	-11.2829
廣德元年	-11.283
邊城	-11.2832
毳	-11.2832
鄊	-11.2832
貔	-11.2833
元和九年	-11.2833
甍	-11.2834
悲夫	-11.2834
棟宇	-11.2837
殊方	-11.2837
政之	-11.2838
泥塗	-11.2839
總管	-11.2842
廊廟	-11.2842
無數	-11.2844
報恩	-11.2846
芝蘭	-11.2848
太平之	-11.285
悠然	-11.2851
風俗通	-11.2855
石頭	-11.2855
曹操	-11.2856
庶人	-11.2856
以濟	-11.2857
而為之	-11.2864
水鳥	-11.2867
出家	-11.2876
者蓋	-11.2877
蓋以	-11.288
絲竹	-11.288
嘗聞	-11.2882
朝宗	-11.2884
數人	-11.2886
嘆息	-11.2888
都邑	-11.2889
文維	-11.2889
某官某	-11.289
逺客	-11.2891
憂國	-11.2892
家事	-11.2894
性情	-11.2896
元載	-11.2898
劭	-11.2899
郡公	-11.2903
籖	-11.2903
窈	-11.2904
八首	-11.2905
左散騎常侍	-11.2905
臠	-11.2907
霈	-11.2908
蒹葭	-11.2908
啖	-11.2909
缾	-11.2909
啞	-11.291
汀洲	-11.2912
荐	-11.2912
㾗	-11.2912
之稱	-11.2912
綂	-11.2912
日斜	-11.2914
誰人	-11.2914
洙曰漢	-11.2921
中軍	-11.2921
詔曰	-11.2922
雷電	-11.2922
驅馳	-11.2923
朝天	-11.2924
滿堂	-11.2924
救之	-11.2926
齊梁	-11.2926
以義	-11.2928
勺	-11.2929
心期	-11.2929
太常卿	-11.2931
百花	-11.2932
縣東南	-11.2934
劉表	-11.2934
人力	-11.2934
▁此章	-11.2935
潞	-11.2936
行止	-11.2936
滎	-11.2938
鼎湖	-11.294
公乃	-11.2943
金紫	-11.2944
為天下	-11.2945
至如	-11.2947
王道	-11.295
將兵	-11.2951
洪州	-11.2953
馮唐	-11.2959
送友人	-11.2961
終當	-11.2962
▁莊子	-11.2965
文苑作	-11.2966
長夜	-11.2967
喪亂	-11.2969
欣然	-11.2969
焉故	-11.2971
内有	-11.2972
行舟	-11.2973
如絲	-11.2973
漢宫	-11.2978
河洛	-11.298
白璧	-11.298
清廟	-11.2982
秋興	-11.2982
猱	-11.2983
斸	-11.2983
僭	-11.2983
侃	-11.2986
笞	-11.2988
三州	-11.2988
湮	-11.2989
盥	-11.299
仆	-11.2991
舊國	-11.2991
漱	-11.2992
璿	-11.2992
賀知章	-11.2992
塜	-11.2992
赴任	-11.2993
之墓	-11.2994
净	-11.2994
億兆	-11.2995
醴泉	-11.2996
受其	-11.2997
淵明	-11.2997
在下	-11.2997
軒冕	-11.2999
天寳十	-11.2999
盖以	-11.3001
望其	-11.3002
日中	-11.3002
鶴注此	-11.3004
昇平	-11.3004
禹穴	-11.3005
秦漢	-11.3006
等使	-11.3008
慶雲	-11.3008
𥙷闕	-11.3009
得志	-11.301
南都賦	-11.3011
書生	-11.3011
何曾	-11.3012
穆公	-11.3012
伊闕	-11.3013
龍鱗	-11.3017
多故	-11.3017
愁人	-11.3022
通籍	-11.3023
本於	-11.3028
都督府	-11.303
千百	-11.3031
孔氏	-11.3034
小山	-11.3037
壬	-11.3039
故老	-11.3039
亦不能	-11.3039
所貴	-11.3047
堯之	-11.305
故郷	-11.3053
昭昭	-11.3053
造次	-11.3053
貞元中	-11.3059
曽子	-11.306
卿相	-11.306
五載	-11.3062
轉運	-11.3063
▁朱注	-11.3063
其詞曰	-11.3064
腴	-11.3064
未安	-11.3065
塡	-11.3066
誰言	-11.3067
螻蟻	-11.3069
俘	-11.3069
逓	-11.3069
蓴	-11.307
婆娑	-11.307
必在	-11.307
雲雷	-11.307
粘	-11.3071
將欲	-11.3071
紅葉	-11.3071
纊	-11.3071
劉楨	-11.3072
痊	-11.3072
霹靂	-11.3073
腕	-11.3073
掌書記	-11.3075
祧	-11.3076
梁園	-11.3077
年月日	-11.3078
夢寐	-11.3079
吹簫	-11.3079
各自	-11.3082
之母	-11.3083
之尊	-11.3084
殿前	-11.3088
之號	-11.3088
吾廬	-11.3089
招討	-11.3089
暮雨	-11.3089
嗣子	-11.309
舟行	-11.3091
維年月日	-11.3092
無消息	-11.3094
翰墨	-11.3095
神靈	-11.3098
之澤	-11.3099
謹以	-11.31
為國	-11.3105
昭陽	-11.3106
轉蓬	-11.3107
清涼	-11.3107
其四	-11.3109
湘江	-11.3109
多用	-11.311
各以	-11.3111
前輩	-11.3111
微臣	-11.3112
原野	-11.3113
在京師	-11.3115
藏之	-11.3115
泉石	-11.3119
獻之	-11.3121
孫曰謂	-11.3128
邦國	-11.3128
無塵	-11.3133
代祖	-11.3134
重疊	-11.3134
故城	-11.3135
筌	-11.3137
夜來	-11.3139
五百里	-11.314
鎩	-11.3142
在人	-11.3144
以供	-11.3144
睦州	-11.3145
暍	-11.3146
澣	-11.3148
平叔	-11.3148
妝	-11.3149
禮儀	-11.3149
秣	-11.3149
一雙	-11.315
斟	-11.315
扞	-11.3151
笠	-11.3152
病也	-11.3152
其如	-11.3153
汗血	-11.3154
將安	-11.3155
髙卧	-11.3157
五經	-11.3157
短褐	-11.3158
㡬時	-11.316
佛寺	-11.3161
流俗	-11.3164
魏王	-11.3164
好惡	-11.3166
彼此	-11.3168
然猶	-11.3168
然若	-11.317
旦夕	-11.3173
者爲	-11.3174
流年	-11.3176
監軍	-11.3177
新月	-11.3178
不啻	-11.3178
離離	-11.3179
與誰	-11.3181
獨往	-11.3183
尚存	-11.3184
楚地	-11.3185
到此	-11.3186
京口	-11.3191
精舍	-11.3191
何異	-11.3193
與夫	-11.3195
近世	-11.3197
名士	-11.3201
百辟	-11.3203
六朝	-11.3203
▁漢書	-11.3204
黄雲	-11.3206
大名	-11.3206
之意也	-11.3208
知非	-11.3208
論曰	-11.3208
陽郡	-11.3211
不開	-11.3212
滻	-11.3212
錡	-11.3215
自我	-11.3215
東征	-11.322
夜宿	-11.322
故宅	-11.322
考異	-11.3221
暮年	-11.3222
寄李	-11.3224
待之	-11.3228
蝗	-11.3228
考其	-11.3229
秋夕	-11.323
藿	-11.323
櫛	-11.3231
狖	-11.3231
貿	-11.3231
攪	-11.3233
㴱	-11.3234
橐	-11.3234
滔滔	-11.3235
弈	-11.3235
臉	-11.3235
行李	-11.3238
麄	-11.3238
有懐	-11.3238
駝	-11.3239
南遊	-11.3239
慼	-11.324
▁楚辭	-11.324
何得	-11.324
名字	-11.3242
髙帝	-11.3245
侯生	-11.3246
李善	-11.3252
相待	-11.3254
胡人	-11.3255
之弊	-11.3257
惜其	-11.326
聖徳	-11.3263
神道	-11.3264
黔中	-11.3266
凌本	-11.3269
客愁	-11.327
卿士	-11.327
北門	-11.3272
方氏	-11.3276
西域傳	-11.328
長洲	-11.3281
閭里	-11.3282
世亂	-11.3283
温泉	-11.329
水精	-11.3293
分為	-11.3293
紫雲	-11.3293
有常	-11.3294
不寐	-11.3297
始見	-11.3298
下筆	-11.3306
大海	-11.3306
琰	-11.3308
煙波	-11.3308
㒷	-11.3309
石橋	-11.331
所欲	-11.3311
荼	-11.3311
國子祭酒	-11.3311
髙僧	-11.3312
鼉	-11.3312
汨	-11.3312
刘	-11.3313
汧	-11.3314
俎	-11.3315
繳	-11.3315
鴻臚	-11.3315
顓	-11.3315
㝠㝠	-11.3316
酩酊	-11.3318
俶	-11.3319
瀉	-11.3319
豳	-11.332
掬	-11.3321
㵼	-11.3321
址	-11.3322
李賀	-11.3323
逥	-11.3323
世上	-11.3324
幌	-11.3325
舊本作	-11.3326
五尺	-11.3328
侍臣	-11.3329
唐興	-11.333
君恩	-11.333
振武	-11.3331
聦明	-11.3331
洙曰時	-11.3331
紅顔	-11.3333
無時	-11.3334
不進	-11.3336
和親	-11.3336
立身	-11.3338
嚴曰	-11.3339
淺深	-11.3339
授之	-11.3342
凄凄	-11.3342
遥望	-11.3347
雲飛	-11.3348
參謀	-11.3353
司勲	-11.3353
軍節度使	-11.3356
相呼	-11.3359
至道	-11.3362
自負	-11.3364
甘心	-11.3368
金剛	-11.3374
濟時	-11.3375
罍	-11.3377
照耀	-11.338
儒者	-11.3382
時年	-11.3385
十三載	-11.3388
莫如	-11.339
苐	-11.3391
集賢院	-11.3391
鱣	-11.3392
狙	-11.3394
屹	-11.3394
一里	-11.3395
視聽	-11.3396
謩	-11.3397
揜	-11.3397
肱	-11.3397
二語	-11.3398
開封	-11.3398
絺	-11.3399
懈	-11.3399
嵓	-11.3399
衒	-11.3399
籥	-11.3399
上官	-11.34
石鏡	-11.34
洋洋	-11.34
戞	-11.3401
騐	-11.3401
戶	-11.3401
謠	-11.3401
兵部侍郎	-11.3401
皐	-11.3402
菴	-11.3403
李尚書	-11.3404
元和六年	-11.3404
鸞鳯	-11.3404
南郊	-11.3405
之訓	-11.3405
東城	-11.3406
負薪	-11.3411
會稽	-11.3412
自適	-11.3413
終朝	-11.3413
印綬	-11.3414
見巻	-11.3414
雞犬	-11.3415
秋聲	-11.3418
書懷	-11.3418
周書	-11.342
西樓	-11.3421
北地	-11.3424
可畏	-11.3424
遺風	-11.3425
數萬	-11.3427
祭祀	-11.3427
櫻	-11.3427
日已	-11.3428
隂山	-11.3428
今又	-11.3429
厥後	-11.343
偶題	-11.343
欲盡	-11.343
不學	-11.3432
茫然	-11.3432
南面	-11.3436
展轉	-11.3437
善人	-11.3437
何曽	-11.3437
相尋	-11.3437
建封	-11.344
惜别	-11.3441
顔師古	-11.3441
入室	-11.3442
赤壁	-11.3442
逢迎	-11.3445
而行之	-11.3446
陌上	-11.345
不避	-11.3451
北渚	-11.3458
雲漢	-11.3462
不得巳	-11.3469
當代	-11.3469
垂楊	-11.347
孔子之	-11.3472
堂前	-11.3472
摯	-11.3474
將歸	-11.3475
綦	-11.3478
吾家	-11.3478
大怒	-11.3479
里閭	-11.348
挐	-11.348
其業	-11.348
無家	-11.3481
楚客	-11.3481
山簡	-11.3482
堙	-11.3482
凰	-11.3482
篙	-11.3483
逺行	-11.3483
縠	-11.3484
銓	-11.3484
三江	-11.3484
㳙	-11.3486
天威	-11.3487
伏波	-11.3487
部落	-11.3488
金波	-11.3488
鬂	-11.349
昨者	-11.3491
東遊	-11.3491
元氏長慶集卷第	-11.3491
桓温	-11.3492
協律	-11.3495
園林	-11.3497
句句	-11.3499
年月	-11.3499
許由	-11.35
陽侯	-11.3501
萬重	-11.3505
麟閣	-11.3505
黄庭	-11.3509
險阻	-11.3509
周官	-11.3512
國夫人	-11.3517
邵注	-11.3517
葢以	-11.3518
助教	-11.3519
龍池	-11.352
主將	-11.352
大風	-11.3521
君平	-11.3521
庭樹	-11.3521
二篇	-11.3529
有天下	-11.3531
尚可	-11.3536
之首	-11.3537
物外	-11.3539
華夷	-11.354
夜月	-11.3541
三皇	-11.3542
其族	-11.3543
衡門	-11.3548
戣	-11.3553
能言	-11.3555
可取	-11.3555
咿	-11.3558
彗	-11.3559
夷陵	-11.3561
吹笙	-11.3561
送鄭	-11.3561
蒐	-11.3561
吠	-11.3561
謟	-11.3562
号	-11.3563
防禦	-11.3563
禇	-11.3564
一章	-11.3564
擯	-11.3566
櫂	-11.3566
賚	-11.3567
鏘	-11.3567
甃	-11.3567
忘情	-11.3567
嬖	-11.3568
諠	-11.3568
愕	-11.3568
啾啾	-11.3569
琥珀	-11.3569
鴛鷺	-11.357
漂泊	-11.357
戰國䇿	-11.357
耘	-11.3572
蜀王	-11.3573
犧	-11.3575
阡陌	-11.3575
櫬	-11.3576
不可勝	-11.3577
表臣	-11.3581
昆明池	-11.3581
兩三	-11.3581
之辰	-11.3585
釋名	-11.3585
四鄰	-11.3587
秋霜	-11.3588
疇昔	-11.3589
▁書	-11.3591
州别駕	-11.3592
百神	-11.3593
聞奏	-11.3597
朝來	-11.3597
其官	-11.3598
列於	-11.3599
尚饗祭	-11.3599
陳許	-11.3605
秋思	-11.3606
南飛	-11.3608
漢祖	-11.361
守道	-11.3617
因此	-11.3623
皇極	-11.3625
差池	-11.3627
甚明	-11.3628
南斗	-11.3631
先天	-11.3632
詩内	-11.3632
無聞	-11.3634
雙飛	-11.3634
好古	-11.3638
史云	-11.3641
字或作	-11.3642
其德	-11.3645
不甚	-11.3645
左太冲	-11.3646
膾	-11.3646
鶡	-11.3647
郤	-11.3648
土木	-11.3649
彎	-11.365
生民	-11.365
賑	-11.3652
峨	-11.3653
詮	-11.3653
橘柚	-11.3654
贓	-11.3654
麝	-11.3654
鈆	-11.3655
賢士	-11.3656
職方	-11.3657
北平	-11.3657
承上	-11.3658
桑榆	-11.3658
㶚	-11.3658
紏	-11.3658
仭	-11.3659
栁子厚	-11.366
鹽鐵	-11.3662
垂拱	-11.3663
稍稍	-11.3663
忽憶	-11.3665
洞天	-11.3666
憶昨	-11.3668
庭中	-11.367
天台山	-11.3676
伏枕	-11.3677
趙注	-11.3678
夜坐	-11.3679
㕘軍	-11.3679
西征	-11.3681
金閨	-11.3684
長於	-11.3685
餓死	-11.3685
豐年	-11.3685
二毛	-11.3686
君諱	-11.3686
下同	-11.3688
爲政	-11.3688
洞房	-11.3688
洙曰一作	-11.3688
最髙	-11.369
諸佛	-11.3691
梨花	-11.3694
應須	-11.3696
所殺	-11.3698
七首	-11.3699
元和二年	-11.3699
日光	-11.3699
比興	-11.3701
一時之	-11.3703
合於	-11.3703
靈山	-11.3705
白骨	-11.3705
惜哉	-11.3706
號爲	-11.3707
靡不	-11.3707
獻納	-11.3711
商州	-11.3711
之源	-11.3712
同姓	-11.3713
池水	-11.3713
景龍	-11.3715
吹笛	-11.3715
伐木	-11.372
奉寄	-11.3721
而欲	-11.3721
歌云	-11.3724
殘月	-11.3724
方今	-11.3727
六義	-11.3727
孫楚	-11.3727
牛渚	-11.3733
瑀	-11.3735
沛公	-11.3735
授以	-11.3735
上聲	-11.3736
咸通	-11.3736
睹	-11.3738
粥	-11.3738
之俗	-11.3738
淒	-11.3739
餅	-11.3739
夏侯	-11.3739
𫀆	-11.374
好事	-11.374
裛	-11.374
不可得而	-11.374
庾肩吾	-11.3741
繚	-11.3741
嵌	-11.3743
闋	-11.3743
酈	-11.3743
暈	-11.3744
氏文集卷第	-11.3744
去就	-11.3744
髙枕	-11.3745
矚	-11.3746
如斯	-11.3747
賜之	-11.3748
邑人	-11.3749
黙黙	-11.375
箔	-11.3751
亭午	-11.3753
王仲宣	-11.3758
他年	-11.3763
誅求	-11.3766
欲得	-11.3767
題曰	-11.3767
瑶臺	-11.3769
童謡	-11.377
孰云	-11.377
曲水	-11.3774
長吟	-11.3776
少壯	-11.3777
上尊號	-11.3779
客星	-11.3782
多情	-11.3785
大歴	-11.3786
夜雨	-11.3788
望見	-11.3788
之謂也	-11.3788
父曰	-11.3789
聖恩	-11.3789
詞人	-11.3793
極目	-11.3795
北有	-11.3796
胷中	-11.3798
夏后	-11.3799
百鳥	-11.38
升堂	-11.3802
所奏	-11.3804
尙	-11.3804
幽棲	-11.3805
文明	-11.3806
詩題	-11.3806
既至	-11.3811
莫愁	-11.3812
屯田	-11.3813
東觀	-11.3813
其弊	-11.3813
之權	-11.3815
騃	-11.3816
八十里	-11.3816
斡	-11.3817
▁唐書	-11.3818
爼	-11.382
飲之	-11.382
番	-11.382
無形	-11.382
顓頊	-11.3821
暾	-11.3822
拳拳	-11.3822
五嶽	-11.3823
年四月	-11.3824
嬋娟	-11.3826
臼	-11.3826
洙曰前漢	-11.3826
波浪	-11.3826
周行	-11.3828
爇	-11.3828
燄	-11.3828
諍	-11.3828
惹	-11.3828
外物	-11.3829
莫相	-11.3831
甘棠	-11.3832
精靈	-11.3833
干將	-11.3833
漁樵	-11.3834
萬嵗	-11.3835
誰憐	-11.3835
棟梁	-11.384
出峽	-11.3841
其首	-11.3843
曰彼	-11.3844
欲去	-11.3847
原憲	-11.3848
儒術	-11.3848
草草	-11.3849
斬之	-11.3851
之深	-11.3852
垂釣	-11.3858
郡邑	-11.3859
土地	-11.3861
杭蜀同	-11.3861
縣西南	-11.3862
陸賈	-11.3865
孰不	-11.3868
世所	-11.3869
泥沙	-11.3869
而天下	-11.3873
詩所謂	-11.3874
制書	-11.3876
自守	-11.3882
真卿	-11.3882
大帝	-11.3883
宗族	-11.3884
行事	-11.3886
築城	-11.3897
吾兄	-11.3899
亦謂之	-11.3901
感時	-11.3908
肖	-11.3909
姒	-11.3909
成名	-11.391
霖雨	-11.391
哥舒	-11.3911
义	-11.3911
景帝	-11.3911
留客	-11.3911
月落	-11.3912
淼	-11.3913
匍匐	-11.3914
侑	-11.3914
紫閣	-11.3914
大理評事	-11.3914
蒲萄	-11.3914
湊	-11.3915
郝	-11.3916
駈	-11.3916
廣徳二年	-11.3917
溪水	-11.3917
颷	-11.3919
檀弓	-11.3921
臣某言	-11.3921
高宗	-11.3925
懷古	-11.3925
無量	-11.3925
兵部尚書	-11.3926
人望	-11.3926
其政	-11.3926
送楊	-11.3932
不住	-11.3935
後學	-11.3937
天台賦	-11.3948
西海	-11.3949
小吏	-11.395
父兄	-11.3951
簿書	-11.3955
如之何	-11.3957
目前	-11.3957
知己	-11.3957
四明	-11.3958
淮隂	-11.3958
汾陽	-11.3958
于兹	-11.3962
新唐書	-11.3965
文翁	-11.3968
遺文	-11.3968
歸田	-11.397
龍鍾	-11.3971
宣武	-11.3976
丹丘	-11.3978
一室	-11.3979
陵陽	-11.398
蘭亭	-11.3982
而巳矣	-11.3982
都護	-11.3983
一盃	-11.3986
分司東都	-11.3986
譛	-11.3991
不禁	-11.3992
林亭	-11.3993
世俗	-11.3993
鍔	-11.3994
三湘	-11.3994
涌	-11.3996
載酒	-11.3998
罩	-11.3998
芮	-11.3998
汰	-11.3999
猨	-11.4
蹭蹬	-11.4001
刖	-11.4001
駁	-11.4001
王勃	-11.4002
銑	-11.4003
朞	-11.4004
蔡琰	-11.4005
堡	-11.4005
山南東道	-11.4005
愠	-11.4006
擾擾	-11.4007
隸	-11.4007
王者之	-11.4007
亦難	-11.4007
古城	-11.4009
煩惱	-11.4009
昱	-11.4009
南昌	-11.4009
支遁	-11.4009
所經	-11.401
其利	-11.4012
鴻鵠	-11.4013
紫宸	-11.4015
玉盤	-11.4015
中大夫	-11.4015
洞庭湖	-11.4017
客居	-11.4018
左遷	-11.4021
巴西	-11.4024
西征賦	-11.4025
楊花	-11.4028
天地間	-11.403
原上	-11.4031
往還	-11.4031
大曆	-11.4034
邦家	-11.4034
何妨	-11.4035
池州	-11.4035
身世	-11.4035
後進	-11.4036
白龍	-11.4036
無涯	-11.4036
大破	-11.4036
白頭吟	-11.4037
掃除	-11.4038
甚多	-11.4038
殺身	-11.4042
扵是	-11.4044
自笑	-11.4045
乃得	-11.4045
六首	-11.4045
虞舜	-11.4047
管子	-11.4047
在外	-11.4048
斯須	-11.4049
對此	-11.4049
月十五日	-11.405
窮通	-11.4053
枕上	-11.4053
敢忘	-11.4054
不倦	-11.4057
赤縣	-11.4059
犬馬	-11.4061
戚戚	-11.4062
雲門	-11.4062
泫	-11.4065
空虚	-11.4065
李邕	-11.4067
形勝	-11.407
莫道	-11.407
趙曰以	-11.4074
萬夫	-11.4076
意欲	-11.4078
未平	-11.4079
玉臺	-11.4079
奏聞	-11.4079
昭明	-11.4081
躰	-11.4082
庚子	-11.4082
涕淚	-11.4083
捩	-11.4084
大荒	-11.4087
寶應元年	-11.4088
糞	-11.4088
慤	-11.4088
楨	-11.4089
殻	-11.4089
爛熳	-11.4089
痼	-11.4089
笄	-11.409
閼	-11.409
祓	-11.409
芍藥	-11.4091
黄石	-11.4092
把酒	-11.4093
蕉	-11.4094
江村	-11.4094
晟	-11.4095
慘澹	-11.4095
鶩	-11.4095
東西南北	-11.4096
輝光	-11.4096
圉	-11.4097
粱	-11.4098
柳州	-11.4098
甑	-11.4099
其職	-11.4099
楊國忠	-11.41
别墅	-11.4101
麻姑	-11.4101
薔薇	-11.4102
斗牛	-11.4102
廣漢	-11.4103
吳郡	-11.4105
有所思	-11.4106
此所謂	-11.4107
一望	-11.4109
秋江	-11.4116
那堪	-11.4116
北庭	-11.4116
琴操	-11.4119
石渠	-11.4119
黄龍	-11.412
讀者	-11.4121
軍使	-11.4122
人世	-11.4124
伊洛	-11.4125
臣愚	-11.4126
二十韻	-11.4127
茅山	-11.4129
諸本皆	-11.4132
朱輪	-11.4133
竽	-11.4147
滿地	-11.4151
玉篇	-11.4153
飛動	-11.4153
鳴琴	-11.4157
青龍	-11.4157
潯	-11.4159
鄴城	-11.4159
佛法	-11.4163
陁	-11.4165
萇	-11.4167
闕庭	-11.4168
大義	-11.4171
改作	-11.4172
晉公	-11.4173
中謝	-11.4173
累遷	-11.4173
鼈	-11.4175
却是	-11.4176
葆	-11.4177
蚌	-11.4178
耳今	-11.418
柴扉	-11.418
悲秋	-11.4182
鑣	-11.4182
杯酒	-11.4182
插	-11.4183
榼	-11.4184
遒	-11.4184
盱	-11.4184
開府儀同三司	-11.4184
三輔黄圖	-11.4184
鍜	-11.4184
綻	-11.4185
猛獸	-11.4185
邃	-11.4185
始自	-11.4185
䋲	-11.4186
恍	-11.4186
突兀	-11.4187
爪牙	-11.4188
按公	-11.4188
悲鳴	-11.4189
廂	-11.419
早發	-11.4191
逺望	-11.4197
宗閔	-11.4198
班超	-11.42
漢使	-11.4201
朝陽	-11.4201
王元	-11.4202
今已	-11.4207
耆老	-11.4211
陜州	-11.4213
三王	-11.4215
生計	-11.4215
詹事	-11.4215
只應	-11.4219
伯玉	-11.422
齊州	-11.4221
玉帛	-11.4221
西州	-11.4222
則吾	-11.4223
時雨	-11.4227
數千里	-11.4227
下土	-11.423
中年	-11.4231
葉落	-11.4231
江北	-11.4231
何意	-11.4233
為太子	-11.4234
列宿	-11.4235
太真	-11.4236
建康	-11.4236
渭北	-11.4237
久之	-11.4239
主上	-11.424
異域	-11.424
山鬼	-11.4241
甲科	-11.4245
渌	-11.4246
騖	-11.4247
其辭曰	-11.425
千仞	-11.4252
麾下	-11.4252
夜歸	-11.4262
永言	-11.4264
金印	-11.4268
北流	-11.4268
壬寅	-11.4268
大鵬	-11.4268
悽愴	-11.4269
埀	-11.4269
三國志	-11.427
諸弟	-11.4271
杓	-11.4271
溪上	-11.4272
迢	-11.4272
捲	-11.4273
諂	-11.4273
薜	-11.4275
年七月	-11.4275
弓矢	-11.4275
汁	-11.4276
刄	-11.4276
休息	-11.4277
宋人	-11.4277
沙漠	-11.428
國用	-11.4283
冨貴	-11.4284
一代	-11.4284
御溝	-11.4285
次山	-11.4286
王屋	-11.4287
事宜	-11.429
鴻鴈	-11.4294
大國	-11.4295
征伐	-11.4301
應物	-11.4307
交河	-11.4308
帝鄉	-11.4309
羲之	-11.431
深處	-11.4313
按此	-11.4314
東京賦	-11.4321
昆明	-11.4324
頌曰	-11.4326
京洛	-11.4326
桂陽	-11.4326
垂老	-11.4326
最為	-11.4328
放逐	-11.4331
根本	-11.4333
當道	-11.4336
渭南	-11.4338
百金	-11.4342
其術	-11.4342
不惑	-11.4345
西岳	-11.4346
少監	-11.4354
五原	-11.4355
山岳	-11.4355
耦	-11.4358
晉國	-11.4358
爲國	-11.4358
與劉	-11.4359
伾	-11.436
芰	-11.4361
𡨕	-11.4362
欲知	-11.4363
淇	-11.4363
㝢	-11.4364
都城	-11.4364
䡖	-11.4365
穉	-11.4365
詡	-11.4365
方外	-11.4366
國子博士	-11.4366
䜟	-11.4367
悸	-11.4367
悄悄	-11.4367
安居	-11.4368
嗚咽	-11.4368
如雪	-11.4369
其源	-11.4369
相依	-11.4369
惰	-11.4369
鐃	-11.4371
五岳	-11.4371
林間	-11.4373
而居	-11.4374
仾	-11.4374
元和十二年	-11.4374
口號	-11.4374
解嘲	-11.4375
病身	-11.4376
奏請	-11.4377
秉燭	-11.4378
子夜	-11.438
巴山	-11.4381
想像	-11.4382
君家	-11.4382
至京師	-11.4384
不可不	-11.4384
甲第	-11.4384
三城	-11.4385
伏願	-11.4387
携手	-11.4387
超然	-11.4387
武庫	-11.4389
頃者	-11.439
舅氏	-11.4392
襄州	-11.4394
蔓草	-11.4396
氣力	-11.4397
盤石	-11.4398
等皆	-11.4403
生平	-11.4405
客心	-11.4406
此類	-11.4407
贈崔	-11.4407
一飯	-11.4408
莫言	-11.4409
黄雀	-11.441
忽忽	-11.4411
度使	-11.4411
無忘	-11.4414
千丈	-11.4419
江河	-11.4421
竹枝	-11.4422
歌詠	-11.4422
諸王	-11.4423
銀臺	-11.4424
萬邦	-11.4433
七十里	-11.4433
石城	-11.4436
大火	-11.4437
梁元帝	-11.4442
閩中	-11.4442
况乎	-11.4447
從兄	-11.4448
言事	-11.4449
斗酒	-11.4451
冬十月	-11.4452
畬	-11.4453
年十一月	-11.4454
朝議郎	-11.4455
掎	-11.4456
踊躍	-11.4456
魚鳥	-11.4456
愔	-11.4456
婿	-11.4458
薜蘿	-11.4458
王嗣奭曰	-11.4458
霆	-11.4459
譎	-11.446
釋之	-11.4461
部曲	-11.4461
馬嘶	-11.4461
長慶元年	-11.4461
路傍	-11.4463
搗	-11.4463
洙曰後漢	-11.4465
罘罳	-11.4466
洪譜	-11.4466
今復	-11.4468
寡婦	-11.447
無憂	-11.4474
李使君	-11.4477
孫曰詩	-11.4478
東郭	-11.448
元和三年	-11.4481
酬樂天	-11.4481
兵法	-11.4483
石刻	-11.4484
其根	-11.4485
平盧	-11.4486
琴書	-11.4486
掃地	-11.4487
門户	-11.449
志士	-11.4491
轅門	-11.4494
無違	-11.4494
幕下	-11.4498
屈平	-11.4498
胡爲	-11.4499
想見	-11.4501
側身	-11.4501
世傳	-11.4505
而不見	-11.4513
無愧	-11.4514
秋氣	-11.4515
寒江	-11.4516
火雲	-11.4517
水邊	-11.452
吟詠	-11.4521
漢庭	-11.4521
林園	-11.4521
廣武	-11.4522
成都記	-11.4523
虞卿	-11.4524
髙飛	-11.4524
成敗	-11.4526
大澤	-11.4531
雜著	-11.4532
飛來	-11.4534
碧樹	-11.4537
無期	-11.4541
𤣥元	-11.4541
仰視	-11.4541
舉手	-11.4541
魏文	-11.4542
浣	-11.4544
沅	-11.4545
大丈夫	-11.4545
曦	-11.4545
𢎞正	-11.4547
汲黯	-11.4548
苴	-11.4548
穽	-11.4548
淬	-11.4549
纍	-11.4549
簞	-11.4549
倜儻	-11.455
蓊	-11.455
儆	-11.4551
蟾蜍	-11.4551
済	-11.4551
蒭	-11.4553
醅	-11.4553
畵	-11.4555
悒	-11.4555
匡山	-11.4555
􁆁	-11.4556
荻	-11.4557
凛	-11.4557
鄭餘慶	-11.4557
遂成	-11.4558
秋興賦	-11.4559
賞罰	-11.456
苦心	-11.4561
大厦	-11.4563
天寳中	-11.4564
驄	-11.4566
水部	-11.4567
糶	-11.4568
千山	-11.4572
與汝	-11.4575
逺注	-11.4575
般若	-11.4583
郡治	-11.4584
大笑	-11.4584
召為	-11.4584
諫議	-11.4587
明白	-11.459
經濟	-11.4591
智伯	-11.4591
北歸	-11.4594
曲折	-11.4594
胡不	-11.4596
元和初	-11.4601
大節	-11.4603
者盖	-11.4604
爽氣	-11.4605
不窮	-11.4605
可知也	-11.4609
嵗暮	-11.461
人臣	-11.4614
堯舜之	-11.4614
論道	-11.4617
廣文	-11.4619
記室	-11.462
何䖏	-11.4621
渝州	-11.4626
大旱	-11.4628
天際	-11.4629
至理	-11.4631
經畧	-11.4632
金粟	-11.4632
鷃	-11.4633
蘓曰	-11.4633
南州	-11.4636
訐	-11.4638
經略	-11.4639
溉	-11.4639
銀河	-11.464
子虚賦	-11.464
韓詩外傳	-11.4641
燿	-11.4642
旅食	-11.4642
鶬	-11.4643
鷦鷯	-11.4643
穠	-11.4643
槁	-11.4644
臣某言伏奉	-11.4644
匏	-11.4645
可見矣	-11.4646
様	-11.4646
勛	-11.4646
剗	-11.4646
戰國策	-11.4646
䆳	-11.4647
黄鸝	-11.4647
鳴玉	-11.4647
碧落	-11.4648
闻	-11.4649
涇渭	-11.4652
騷人	-11.4656
臺閣	-11.4659
離宫	-11.4661
愛惜	-11.4662
集韻	-11.4664
齊魯	-11.4664
維舟	-11.4667
湖水	-11.4671
永貞	-11.4675
舉世	-11.4675
四十餘	-11.4676
奉表	-11.4678
繁華	-11.4679
金盤	-11.4679
逆賊	-11.4682
太極	-11.4684
遺恨	-11.4688
歙	-11.4693
頗有	-11.4695
郞中	-11.4695
傷時	-11.4696
詩又云	-11.4698
欲何	-11.4701
所親	-11.4701
重重	-11.4708
北辰	-11.4709
朔風	-11.4711
祠堂	-11.4714
酒食	-11.4719
㕥	-11.4725
貙	-11.4726
能事	-11.4728
按唐	-11.4728
郡太守	-11.4728
謹按	-11.4731
璩	-11.4732
鉏	-11.4735
洛神賦	-11.4735
瑰	-11.4735
宗師	-11.4735
儷	-11.4736
姧	-11.4736
豈謂	-11.4736
先朝	-11.4737
磔	-11.4739
妣	-11.4739
江南西道	-11.4739
弹	-11.4739
駛	-11.474
潢	-11.474
吝	-11.4741
鷗鳥	-11.4741
湜	-11.4741
﨑嶇	-11.4742
篇章	-11.4742
肝膽	-11.4743
涔	-11.4743
搢紳	-11.4744
張九齡	-11.4745
羇旅	-11.4745
數里	-11.4745
綢繆	-11.4745
心力	-11.4747
沅湘	-11.4748
銖	-11.4748
故居	-11.4749
雲陽	-11.4749
古意	-11.475
筑	-11.4752
餘力	-11.4753
奉宣	-11.4753
灃	-11.4754
罔不	-11.4754
絶壁	-11.4756
通泉	-11.4757
渭橋	-11.4757
分憂	-11.4757
五丈	-11.4757
鯨魚	-11.4758
太白詩	-11.4765
霍光	-11.4765
羅列	-11.4765
禮樂志	-11.4771
朝市	-11.4772
採藥	-11.4775
未死	-11.4776
七百	-11.4776
洙曰晉	-11.4778
借用	-11.4778
閨門	-11.4779
太子賔客	-11.4779
未識	-11.4783
鳥名	-11.4789
白鳥	-11.4797
聚散	-11.4803
留侯	-11.4808
開襟	-11.4809
於京師	-11.4813
一本無	-11.4814
相類	-11.4815
長鯨	-11.4818
固當	-11.4819
勝事	-11.4819
澄清	-11.482
魂魄	-11.4821
不得志	-11.4823
良工	-11.4825
詬	-11.4827
盖言	-11.4827
之什	-11.4827
黄花	-11.4828
絃歌	-11.4831
且夫	-11.4832
銀漢	-11.4833
軺	-11.4833
獻賦	-11.4833
醢	-11.4833
諜	-11.4836
堰	-11.4836
愷悌	-11.4836
箜篌	-11.4838
張景陽	-11.4838
不相見	-11.4838
両	-11.4839
鼯	-11.4839
児	-11.4839
陶侃	-11.484
汗漫	-11.484
餒	-11.4841
揀	-11.4841
不聽	-11.4841
裨	-11.4842
盛時	-11.4845
棋	-11.4845
雌雄	-11.4846
爻	-11.4846
綉	-11.4848
松下	-11.4851
永日	-11.4852
尚饗	-11.4853
突騎	-11.4854
杜預註	-11.4855
平津	-11.4856
慨然	-11.4856
松門	-11.4856
東都留守	-11.4857
煙塵	-11.4858
比肩	-11.4859
珍重	-11.486
東樓	-11.4861
興亡	-11.4863
幾日	-11.4863
伊水	-11.4865
近來	-11.4865
關西	-11.4872
樂毅	-11.4872
溧陽	-11.4874
委曲	-11.4874
何况	-11.4874
畫圖	-11.4876
無虞	-11.4876
鮫人	-11.4877
徳音	-11.4878
礼記	-11.4881
互相	-11.4882
惟新	-11.4883
童稚	-11.4885
致理	-11.4886
沙苑	-11.4889
賀蘭	-11.4891
黎元	-11.4891
無垠	-11.4894
太上皇	-11.4896
忘歸	-11.4898
末章	-11.49
帝城	-11.4903
切又音	-11.4903
離羣	-11.4907
送劉	-11.4909
審言	-11.491
陳蕃	-11.4913
桃林	-11.4916
歸期	-11.4917
四座	-11.4918
熒	-11.4921
敺	-11.4922
宜乎	-11.4924
弑	-11.4925
玠	-11.4927
肌膚	-11.4928
嶼	-11.4929
惋	-11.4929
罘	-11.4929
躔	-11.493
蝸	-11.493
聒	-11.4931
柟	-11.4932
汨羅	-11.4932
飛騰	-11.4932
怙	-11.4933
州牧	-11.4933
集賢殿	-11.4933
察其	-11.4933
只有	-11.4934
拗	-11.4934
貰	-11.4935
狥	-11.4935
灔澦	-11.4936
魏都賦	-11.4936
安慶緒	-11.4937
丁酉	-11.4939
言之則	-11.4939
寶應	-11.4942
十洲記	-11.4942
御批	-11.4943
雎	-11.4943
瑯琊	-11.4944
庚申	-11.4946
臨卭	-11.4947
所致	-11.4947
哀哀	-11.4948
前件官	-11.4949
犂	-11.4949
白沙	-11.4949
羲皇	-11.495
舂陵	-11.4951
勞生	-11.4951
固難	-11.4955
李謝校	-11.4955
書懐	-11.4955
照臨	-11.4956
官職	-11.4959
佛書	-11.4959
亂世	-11.4959
罔極	-11.4959
亞夫	-11.4962
嘉州	-11.4964
未到	-11.4967
家聲	-11.4968
峨眉	-11.4968
齊桓	-11.4969
神物	-11.4969
劉稹	-11.497
劉夢得	-11.497
食邑	-11.497
五溪	-11.4972
彭州	-11.4973
火燒	-11.4975
紅粉	-11.4977
歳月	-11.4977
匹夫	-11.4978
三省	-11.498
履道	-11.498
旬日	-11.498
感懷	-11.498
忠貞	-11.4981
故用	-11.4987
南蠻	-11.4989
太上	-11.499
親近	-11.4992
綺羅	-11.4997
片雲	-11.4997
近體	-11.4999
討論	-11.5
嘘	-11.5
無所不	-11.5011
五星	-11.5018
鄭州	-11.5019
過客	-11.502
道塲	-11.502
九廟	-11.5021
壯心	-11.5025
人稀	-11.5025
譔	-11.5025
旰	-11.5027
垍	-11.5027
餘杭	-11.5027
孝悌	-11.5028
隋書	-11.5028
廳	-11.5029
𨳩	-11.503
黽	-11.503
隟	-11.503
湥	-11.503
管内	-11.5031
如彼	-11.5032
胝	-11.5032
輓	-11.5033
煮	-11.5035
販	-11.5036
局促	-11.5036
貲	-11.5036
公孫述	-11.5036
瞳	-11.5036
酒家	-11.5036
煉	-11.5037
崔君	-11.5038
琮	-11.5039
庚寅	-11.504
長安城	-11.5041
欲往	-11.5043
悠哉	-11.5044
馬嵬	-11.5046
布帛	-11.5046
州郡	-11.5048
慎勿	-11.5049
追隨	-11.5051
南渡	-11.5051
獲麟	-11.5051
七十二	-11.5054
嚴陵	-11.5058
周流	-11.5059
七星	-11.5072
石崇	-11.5076
諸儒	-11.5076
百蠻	-11.5081
為博士	-11.5081
寓言	-11.5084
羅衣	-11.5084
王侍御	-11.5087
牧馬	-11.5091
不可以不	-11.5093
千官	-11.5095
大凡	-11.5098
句非	-11.5099
自覺	-11.51
禮義	-11.51
史館	-11.51
穆宗	-11.5101
見招	-11.5105
獨宿	-11.5108
李白詩	-11.5114
奉送	-11.5119
韓文	-11.5121
奉酬	-11.5122
蒼龍	-11.5122
雲梯	-11.5123
蹴	-11.5126
清源	-11.5126
辛勤	-11.5127
謇	-11.5128
簧	-11.5128
睠	-11.5128
壌	-11.5129
蝉	-11.5129
太常博士	-11.5129
鎔	-11.5129
菑	-11.513
坰	-11.513
核	-11.513
默	-11.5131
撑	-11.5131
葳蕤	-11.5133
濁醪	-11.5133
羽檄	-11.5133
黄生注	-11.5134
漪	-11.5134
禮部侍郎	-11.5134
跂	-11.5134
宣子	-11.5135
孟嘗君	-11.5136
荇	-11.5136
或無此	-11.5136
溥	-11.5137
水經註	-11.5137
絲綸	-11.5138
要路	-11.5138
筆硯	-11.5138
兩地	-11.5138
贈我	-11.514
吾徒	-11.5141
壯觀	-11.5143
南京	-11.5144
不畏	-11.5146
豈復	-11.515
恐是	-11.5152
懸車	-11.5152
舊章	-11.5152
淮南王	-11.5154
在其中	-11.5155
名臣	-11.5156
猿啼	-11.5159
契丹	-11.516
所據	-11.516
本皆作	-11.5162
起草	-11.5163
苦雨	-11.5164
第七	-11.5165
鴈門	-11.5166
揚子雲	-11.5167
董晉	-11.5168
遥知	-11.5169
雲外	-11.5176
子房	-11.5178
新羅	-11.5179
堂堂	-11.5179
採蓮	-11.5181
發揮	-11.5181
避世	-11.5184
氷雪	-11.5186
孟氏	-11.5186
恙	-11.5188
崑崙山	-11.519
腹心	-11.519
是嵗	-11.5197
敢言	-11.5197
南紀	-11.5197
吳越	-11.5199
三更	-11.52
齊賢曰唐	-11.5202
春夏	-11.5203
一匹	-11.5205
萬世	-11.5206
杜氏	-11.5212
仙家	-11.5214
蘭陵	-11.5218
搔	-11.5221
瞿	-11.5222
未開	-11.5223
陽和	-11.5223
髙歌	-11.5223
髀	-11.5223
鄧州	-11.5224
鬐	-11.5224
洮	-11.5224
故號	-11.5225
感傷	-11.5226
囑	-11.5228
團練	-11.5228
中書侍郎	-11.5228
之大者	-11.5229
角切	-11.5229
紐	-11.5229
蔗	-11.523
炫	-11.5232
野花	-11.5233
愈再拜	-11.5233
歡喜	-11.5233
剖符	-11.5233
柵	-11.5235
觀察處置等使	-11.5235
不盈	-11.5235
主恩	-11.5235
䓁	-11.5237
分野	-11.5238
羽翮	-11.5239
嬰兒	-11.524
淚下	-11.5242
洲渚	-11.5244
荆州記	-11.5244
平臺	-11.5246
省中	-11.5247
馮夷	-11.5249
前程	-11.5249
秘書省	-11.525
芳樹	-11.5252
蜀江	-11.5252
青州	-11.5254
挽歌	-11.5255
狀論	-11.5255
折腰	-11.5256
無敵	-11.5256
夷吾	-11.5256
傅𤣥	-11.5258
浣花溪	-11.5258
網羅	-11.526
下視	-11.526
黄鶴樓	-11.5263
非獨	-11.5268
青樓	-11.5271
紫霞	-11.5276
而用之	-11.5277
文物	-11.5279
萬騎	-11.5281
連帥	-11.5282
説苑	-11.5285
造物	-11.529
淮陽	-11.529
太康	-11.5291
繆本作	-11.5293
感動	-11.5295
比干	-11.5296
胡騎	-11.53
前驅	-11.5304
故稱	-11.5305
代謝	-11.5309
難忘	-11.531
苟有	-11.5312
分散	-11.5314
鮪	-11.5316
吕氏	-11.5316
暦	-11.5317
陳氏	-11.5317
遨	-11.5324
禊	-11.5324
霍去病	-11.5326
畤	-11.5327
壕	-11.5327
朅	-11.5327
閙	-11.5327
柂	-11.5328
潏	-11.5328
邅	-11.5328
啾	-11.5328
燥	-11.5329
顙	-11.5329
奉和聖製	-11.533
列女傳	-11.533
糠	-11.533
撿	-11.5331
華清宫	-11.5331
壖	-11.5332
髠	-11.5332
崤	-11.5332
峥嶸	-11.5334
鶱	-11.5334
㨿	-11.5335
逡巡	-11.5335
门	-11.5337
見髙四篇	-11.5337
本意	-11.5337
繚繞	-11.5337
紺	-11.5337
㒺	-11.5338
妖氛	-11.5338
羣生	-11.5339
焰	-11.534
北邙	-11.5341
樹木	-11.5343
城隍	-11.5344
涕泣	-11.5346
皇太后	-11.5347
廣平	-11.5349
峽州	-11.5349
因縁	-11.535
先聖	-11.5351
楚子	-11.5353
交切	-11.5353
竹葉	-11.5354
公自注	-11.5354
者伏以	-11.5355
説文云	-11.5359
水濵	-11.536
齋戒	-11.5361
清渭	-11.5364
三十三	-11.5365
精舎	-11.5366
短長	-11.5368
率府	-11.5369
皇帝陛下	-11.537
尚書令	-11.537
苦熱	-11.5372
山頂	-11.5374
夏口	-11.5374
輕舉	-11.5376
趙公	-11.5378
相期	-11.5381
詩國風	-11.5382
余亦	-11.5384
山陵	-11.5386
裴氏	-11.5392
各異	-11.5392
酒醒	-11.5393
顔師古曰	-11.5394
幸得	-11.5396
劒閣	-11.5399
城隅	-11.5402
燕子	-11.5403
可得而	-11.5405
昭陵	-11.5409
分别	-11.541
聖代	-11.541
吁嗟	-11.5411
結交	-11.5414
寒夜	-11.5414
買臣	-11.5416
仲夏	-11.5418
念此	-11.5423
沱	-11.5425
寓意	-11.5425
頺	-11.5426
璀	-11.5427
咄	-11.5428
盾	-11.5428
稗	-11.5431
用韻	-11.5431
𣣔	-11.5431
稻粱	-11.5432
笑語	-11.5432
嶲	-11.5432
錮	-11.5432
硎	-11.5432
四門博士	-11.5433
弱水	-11.5433
儕	-11.5433
江文通	-11.5433
莘	-11.5434
立廟	-11.5434
團團	-11.5435
紓	-11.5435
氐	-11.5437
掀	-11.5437
褒貶	-11.5437
歉	-11.5437
湛湛	-11.5438
祛	-11.5439
洪範	-11.5439
罽	-11.5439
剰	-11.5441
理道	-11.5441
錄事	-11.5444
延齡	-11.5444
歲暮	-11.5446
周礼	-11.5447
向西	-11.5447
徳裕	-11.5448
幷序	-11.5449
竟日	-11.545
子建	-11.5453
池臺	-11.5456
縣東北	-11.5457
佳麗	-11.5458
百工	-11.5459
開門	-11.5461
江都	-11.5461
營營	-11.5463
勲業	-11.5464
赴舉	-11.5468
采石	-11.5469
髙陽	-11.547
首陽	-11.5473
文館	-11.5474
今天下	-11.5474
漁舟	-11.5474
扶持	-11.5475
掖垣	-11.5478
方便	-11.5479
鼓角	-11.5481
江寧	-11.5487
后稷	-11.5487
泉聲	-11.5487
銅梁	-11.5488
未易	-11.5491
愛君	-11.5492
鄆州	-11.5493
八公	-11.5493
追贈	-11.5495
二十巻	-11.5496
廵官	-11.5496
非特	-11.5497
史氏	-11.5497
射洪	-11.5497
哀鳴	-11.5498
蒼然	-11.5498
動揺	-11.5502
分手	-11.5502
風急	-11.5504
酒泉	-11.5504
豈不以	-11.5509
左氏傳	-11.5513
臨海	-11.5513
次章	-11.5513
相視	-11.5513
李翰林	-11.5515
百越	-11.5516
元和中	-11.5517
呉郡	-11.5518
房公	-11.5522
士庶	-11.5525
池邊	-11.5527
䞇	-11.5527
缶	-11.5527
書札	-11.5529
祲	-11.5532
薨于	-11.5533
廿	-11.5533
笥	-11.5533
嚚	-11.5534
奐	-11.5534
玉帳	-11.5535
抒	-11.5535
婺州	-11.5535
鷙鳥	-11.5536
諶	-11.5536
捎	-11.5537
州諸軍事	-11.5537
薙	-11.5537
韞	-11.5537
嗇	-11.5537
屡	-11.5537
鸛	-11.5538
淩	-11.5538
崧	-11.5539
寖	-11.5539
梁孝王	-11.554
妻孥	-11.554
曁	-11.5541
諮	-11.5541
謹具	-11.5543
澀	-11.5545
滄波	-11.5548
憂患	-11.5548
循環	-11.5552
琴臺	-11.5552
年六月	-11.5552
交遊	-11.5554
婦女	-11.5555
冠冕	-11.5557
諡曰	-11.5557
酒肉	-11.5561
儒行	-11.5567
所司	-11.5571
擢第	-11.5579
列侯	-11.5581
感通	-11.5585
絶頂	-11.5587
漢中王	-11.5591
百千	-11.5592
仲卿	-11.5593
堂下	-11.5593
翫月	-11.5594
在梓州	-11.5594
趙氏	-11.5596
惠王	-11.5598
開元寺	-11.5599
字皆非是	-11.5607
幽燕	-11.5608
寧知	-11.5611
理亂	-11.5613
且喜	-11.5614
城樓	-11.5618
欲求	-11.562
而作也	-11.5622
筯	-11.5628
衰年	-11.5632
姝	-11.5634
埤	-11.5634
咀	-11.5635
舉目	-11.5637
瞻望	-11.5637
阨	-11.5638
襜	-11.5639
㸑	-11.5639
董仲舒	-11.564
結切	-11.564
雒	-11.564
祕書監	-11.5641
婕妤	-11.5641
笻	-11.5641
丱	-11.5641
弇	-11.5641
霤	-11.5642
太息	-11.5643
王子猷	-11.5643
禋	-11.5644
也又曰	-11.5644
孑	-11.5644
瞬	-11.5644
孜孜	-11.5645
夐	-11.5645
涕泗	-11.5645
窒	-11.5645
陳子昻	-11.5646
酺	-11.5647
芬芳	-11.5647
歡娛	-11.5648
推轂	-11.5649
嶔	-11.565
九載	-11.565
青蠅	-11.5651
哀哉	-11.5652
郡屬	-11.5653
長慶二年	-11.5653
英乂	-11.5654
官爵	-11.5654
翛然	-11.5655
正色	-11.5655
赤霄	-11.5656
此之謂	-11.5657
蕩蕩	-11.566
指麾	-11.5663
未曽	-11.5664
窮巷	-11.5664
雪嶺	-11.5667
衛青	-11.5668
太倉	-11.5669
赤甲	-11.5671
然後知	-11.5671
奏議	-11.5672
孝武	-11.5672
勸酒	-11.5673
商量	-11.5673
倉卒	-11.5674
送陸	-11.5675
編次	-11.5676
女蘿	-11.5676
受恩	-11.5677
傷春	-11.5678
紫塞	-11.5679
殘陽	-11.568
良時	-11.5681
良辰	-11.5685
複出	-11.5685
神交	-11.5687
青陽	-11.5687
雨晴	-11.5688
未央宫	-11.5689
在䕫	-11.569
不減	-11.569
呼兒	-11.5691
良圖	-11.5693
王右丞	-11.5697
三十韻	-11.5697
子昻	-11.5698
承命	-11.5699
趙云公	-11.5703
秋七月	-11.5706
政成	-11.5706
偶作	-11.571
近代	-11.571
和樂天	-11.5712
户部	-11.5716
清濁	-11.572
賈誼傳	-11.572
淮水	-11.5721
此對天問	-11.5726
非敢	-11.573
物理	-11.5735
訂	-11.5738
黄門侍郎	-11.5738
騄	-11.5739
舶	-11.5739
斷絶	-11.574
寺僧	-11.5741
歊	-11.5741
駑駘	-11.5741
纏	-11.5742
遺我	-11.5742
藐	-11.5743
諫諍	-11.5744
鞋	-11.5744
鈔	-11.5744
幾年	-11.5745
形影	-11.5746
頡	-11.5746
貂裘	-11.5747
補遺	-11.5747
瞥	-11.5748
臨洮	-11.5748
銛	-11.5748
長楊賦	-11.5748
颯颯	-11.5749
酲	-11.5749
環堵	-11.5749
臨淄	-11.5749
剋	-11.5749
鼙	-11.575
十丈	-11.5751
貞元十五年	-11.5751
裡	-11.5753
廖	-11.5753
嵯峨	-11.5754
衲	-11.5757
謝賜	-11.5757
目極	-11.5759
引兵	-11.576
夜泊	-11.5761
衰病	-11.5763
忠誠	-11.5764
鑿齒	-11.5764
三昧	-11.5767
竟無	-11.5773
林甫	-11.5778
漢郊祀志	-11.5778
▁古詩	-11.5784
鍾山	-11.5786
野鶴	-11.5787
學道	-11.5787
飄風	-11.5793
斜日	-11.5794
樓閣	-11.5795
九衢	-11.5796
曲直	-11.5801
弟妹	-11.5801
崑山	-11.5805
松江	-11.5805
木石	-11.5806
相催	-11.5813
長揖	-11.5814
潞州	-11.5815
天衢	-11.5817
孝經	-11.582
謝上表	-11.5822
濟濟	-11.5823
城池	-11.5824
雜記	-11.5824
曲盡	-11.5827
忠烈	-11.5829
侯景	-11.583
虢州	-11.5831
孟冬	-11.5831
五丁	-11.5832
本校	-11.5834
有之字	-11.5839
渤	-11.584
韓曰公	-11.5842
轢	-11.5842
所部	-11.5843
垂白	-11.5845
千騎	-11.5846
懵	-11.5846
俚	-11.5848
夢想	-11.5849
訥	-11.5849
寳應	-11.585
鶵	-11.585
清景	-11.585
隰	-11.5851
冽	-11.5852
囷	-11.5852
溷	-11.5852
盩厔	-11.5852
襄城	-11.5853
韓非子	-11.5854
不遑	-11.5854
㯶	-11.5854
藹藹	-11.5856
葷	-11.5857
䂓	-11.5857
滓	-11.5857
况復	-11.586
吳興	-11.5862
晃	-11.5862
歡娱	-11.5865
雪滿	-11.5867
草樹	-11.5867
執誼	-11.5869
賛普	-11.587
流夜郎	-11.5871
貞元八年	-11.5874
始興	-11.5874
靈州	-11.5874
鄭䖍	-11.5875
福地	-11.5875
大将軍	-11.5877
三徑	-11.5877
水亭	-11.5878
魯公	-11.5878
碧玉	-11.5881
器用	-11.5884
藏書	-11.5886
年二十	-11.5888
星河	-11.5889
凉州	-11.589
棄官	-11.5892
山濤	-11.5892
湖中	-11.5893
孫子	-11.5901
六韻	-11.5901
景下四	-11.5901
登樓賦	-11.5903
長䇿	-11.591
孟子曰	-11.5912
萬家	-11.5913
昔遊	-11.5915
名位	-11.5916
甫自	-11.5918
北面	-11.5918
年十二月	-11.5919
昭應	-11.5919
推誠	-11.592
偃師	-11.5921
兩鬢	-11.5923
三伏	-11.5923
春晚	-11.5923
動植	-11.5926
比屋	-11.5927
沉吟	-11.5928
閽	-11.5931
倉曹	-11.5931
因題	-11.5932
李翺	-11.5936
宗伯	-11.5941
蒼翠	-11.595
弄玉	-11.5952
踊	-11.5953
鸞鳳	-11.5954
鉗	-11.5955
螫	-11.5956
輻	-11.5956
撮	-11.5956
柘	-11.5957
奭	-11.5957
鰥	-11.5958
卻	-11.5958
伉	-11.5958
裋	-11.5958
咆	-11.5958
蓬瀛	-11.5959
僃	-11.596
張説	-11.5961
恡	-11.5961
唐詩紀事	-11.5961
勍	-11.5961
㺯	-11.5962
另	-11.5962
鈐	-11.5962
一尺	-11.5963
衛將軍	-11.5963
軍士	-11.5963
褚	-11.5964
醺	-11.5964
檜	-11.5965
王宰	-11.5966
秘書監	-11.5966
僮僕	-11.5967
煬帝	-11.5967
款	-11.5969
休明	-11.597
王逸註	-11.5971
豈唯	-11.5972
𤣥圃	-11.5976
義方	-11.5976
羊腸	-11.5979
古之人	-11.598
三千人	-11.5981
六尺	-11.5984
枕席	-11.5988
林木	-11.5991
所存	-11.5993
木落	-11.5993
光華	-11.5993
私第	-11.5994
未暇	-11.5997
臣伏見	-11.6002
起兵	-11.6002
西亭	-11.601
雲母	-11.6011
崔羣	-11.6011
歡樂	-11.602
猿聲	-11.6021
河伯	-11.6022
顔回	-11.6024
帝王之	-11.6026
倒景	-11.6027
渚宫	-11.6028
相續	-11.603
宗武	-11.6035
兵符	-11.6037
少誠	-11.604
天津	-11.6041
三代之	-11.6045
經緯	-11.6046
郊居	-11.6046
流星	-11.6048
三巴	-11.605
曰吾聞	-11.6051
子敬	-11.6052
未嘗有	-11.6053
菅	-11.6053
蝨	-11.6055
東洛	-11.6059
檠	-11.6059
囙	-11.6062
謝玄暉	-11.6062
罝	-11.6062
孛	-11.6064
無聊	-11.6065
虱	-11.6065
箸	-11.6065
劉孝標	-11.6066
豈止	-11.6066
蝦	-11.6067
賢臣	-11.6067
永王璘	-11.6067
狼狽	-11.6068
劉公幹	-11.6068
禰	-11.6068
綆	-11.6069
黿鼉	-11.6069
録云	-11.6069
槌	-11.607
睥睨	-11.607
摠	-11.607
隤	-11.607
鶺鴒	-11.6072
晡	-11.6073
觥	-11.6073
琪	-11.6074
潦倒	-11.6074
籜	-11.6075
過半	-11.6076
成就	-11.6077
𣑽	-11.6077
岱宗	-11.608
貢士	-11.6081
諸郡	-11.6081
虎狼	-11.6083
艮	-11.6085
防禦使	-11.6086
盛名	-11.6088
供給	-11.6089
楊朱	-11.6089
三司	-11.6089
自喻	-11.609
無害	-11.609
大厯四年	-11.6093
徒勞	-11.6093
〇趙	-11.6096
薊門	-11.6096
樓前	-11.6097
雙雙	-11.6105
璽書	-11.6105
者多矣	-11.6107
清浄	-11.6109
別離	-11.6119
盃酒	-11.6122
赤子	-11.6126
文采	-11.6126
憲章	-11.6127
城内	-11.6129
伯仲	-11.613
總戎	-11.613
金錢	-11.6133
劍閣	-11.6134
夫如是	-11.6136
懷抱	-11.614
王業	-11.6141
晁本	-11.6142
葢言	-11.6143
酒杯	-11.6144
懷光	-11.6144
邠州	-11.6145
王叔文	-11.6147
改名	-11.6148
權知	-11.6152
刪去	-11.6154
地僻	-11.6156
謝恩	-11.6156
項王	-11.6159
疾苦	-11.616
卧龍	-11.6162
為御史	-11.6165
四巻	-11.6166
倚天	-11.6166
瑾	-11.6168
鞚	-11.6169
苜蓿	-11.617
蜿	-11.6171
泮	-11.6172
鷙	-11.6173
斍	-11.6174
三峯	-11.6174
屈曲	-11.6174
鍼	-11.6175
户部侍郎	-11.6175
小園	-11.6175
松桂	-11.6176
司録	-11.6176
塤	-11.6176
迦葉	-11.6176
黍稷	-11.6177
蓀	-11.6179
耄	-11.6179
槽	-11.618
盻	-11.618
滸	-11.618
满	-11.6183
品彚	-11.6183
螟	-11.6183
枿	-11.6183
州司户	-11.6184
闲	-11.6184
鑱	-11.6185
閥	-11.6185
蕩漾	-11.6185
俄頃	-11.6186
夤	-11.6187
貞元十二年	-11.6188
州諸軍事守	-11.6189
喟然	-11.6191
六軍	-11.6192
景陽	-11.6192
荀卿	-11.6199
莫問	-11.6199
事跡	-11.6199
沾衣	-11.6203
古寺	-11.6204
征戍	-11.6209
七尺	-11.6209
專城	-11.6215
進封	-11.622
千家	-11.6225
屏營之至	-11.6231
起予	-11.6231
無恙	-11.6231
毛羽	-11.6231
議論見	-11.6232
旌節	-11.6235
勞苦	-11.6238
追思	-11.6238
南亭	-11.624
兼寄	-11.6241
按史	-11.6244
漢宣帝	-11.6247
欲殺	-11.625
四方之	-11.6251
魏武帝	-11.6253
離披	-11.6255
洛陽城	-11.626
吞聲	-11.6264
為刺史	-11.6268
入京	-11.627
鵾	-11.6274
困窮	-11.628
冏	-11.6283
寄題	-11.6284
劬	-11.6286
褥	-11.6286
弥	-11.6286
樂府詩集	-11.6287
酹	-11.6287
無辜	-11.6288
玉繩	-11.6288
恩波	-11.6288
橡	-11.6288
一寸	-11.6289
禾黍	-11.6289
飼	-11.6289
糺	-11.6289
蛮	-11.6289
䬃	-11.6289
滉	-11.6289
眥	-11.629
撇	-11.629
諼	-11.6291
斟酌	-11.6292
右二	-11.6292
吳都賦	-11.6293
佳氣	-11.6294
糞土	-11.6294
玳瑁	-11.6294
恍惚	-11.6294
韝	-11.6295
淄青	-11.6295
鄱陽	-11.6295
梭	-11.6297
蒼鷹	-11.6298
優劣	-11.6299
安陸	-11.6301
顧元緯本	-11.6301
旌斾	-11.6301
未審	-11.6302
上第	-11.6305
千餘里	-11.6305
遷客	-11.6305
首領	-11.6306
郊祀	-11.6307
右軍	-11.6307
詠懐	-11.6307
歸舟	-11.631
同平章事	-11.6314
塗山	-11.6314
釋文	-11.6315
吹嘘	-11.6315
青袍	-11.6315
終難	-11.6316
眼看	-11.6317
漢制	-11.6317
漢髙祖	-11.6321
皇朝	-11.6322
青霄	-11.6323
爵位	-11.6323
寵辱	-11.6325
上京	-11.6325
桂管	-11.6325
百戰	-11.6325
劉闢	-11.6326
玉樓	-11.6326
律師	-11.6327
燈前	-11.6328
鴻漸	-11.633
千嵗	-11.633
多暇	-11.6331
非其人	-11.6333
行邁	-11.6338
珠簾	-11.6339
老僧	-11.6341
數十人	-11.6345
歐公	-11.6346
雪夜	-11.6347
未曾	-11.6349
碧草	-11.6353
莫知其	-11.6356
博陵崔	-11.6359
乆客	-11.636
二巻	-11.6363
飛泉	-11.6365
情性	-11.6365
神祗	-11.6368
夜宴	-11.6368
反側	-11.637
告于	-11.6373
劉備	-11.6381
山一名	-11.6381
高適	-11.6383
玉皇	-11.6386
侯伯	-11.6387
三十四	-11.6389
勤苦	-11.6391
沬	-11.6393
六代	-11.6393
緹	-11.6394
佯	-11.6394
朝謁	-11.6395
王佐	-11.6397
當是大厯元年	-11.6397
􁁊	-11.6397
壁立	-11.6399
鋩	-11.6399
曖	-11.6399
拾遺記	-11.64
䛕	-11.64
繄	-11.6401
姹女	-11.6401
尭	-11.6402
權載之文集卷	-11.6402
蜂蠆	-11.6402
捶	-11.6402
皤	-11.6402
購	-11.6402
禮法	-11.6404
三里	-11.6404
罟	-11.6404
魍魎	-11.6405
芷	-11.6405
景福	-11.6406
閭閻	-11.6406
破賊	-11.6406
装	-11.6406
須知	-11.6407
凡百	-11.6407
嵒	-11.6407
騘馬	-11.6408
朱泚	-11.6408
覉	-11.6408
踪	-11.6409
三月三日	-11.6409
釡	-11.641
杜工部	-11.6412
鱸魚	-11.6412
于京師	-11.6413
荆蠻	-11.6416
承露	-11.6417
科第	-11.6417
王承宗	-11.642
吾觀	-11.642
清塵	-11.6421
鴻名	-11.6423
淮南子曰	-11.6429
淮夷	-11.6433
伊川	-11.6434
南宮	-11.6434
校本	-11.6434
唐文粹	-11.6438
棲遲	-11.6439
俯視	-11.6442
邵平	-11.6446
異同	-11.6447
謝靈	-11.6447
感慨	-11.6454
〇鄭曰	-11.6454
召還	-11.6455
失意	-11.6457
文武之	-11.6464
寄劉	-11.6465
一杯酒	-11.6466
敢問	-11.6466
絶倫	-11.6468
不詳	-11.6472
鄙夫	-11.6474
錦水	-11.6479
躍馬	-11.6484
表請	-11.6492
親朋	-11.6501
磊	-11.6502
竹根	-11.6505
涪江	-11.6505
登臺	-11.6505
得其所	-11.6506
三十八	-11.6508
始覺	-11.6508
禎卿曰	-11.6509
棨	-11.6509
悄	-11.6511
茯苓	-11.6513
劉孝綽	-11.6513
窠	-11.6513
𥚑	-11.6513
絜	-11.6513
胃	-11.6514
至德二載	-11.6515
堕	-11.6516
毘	-11.6516
蕤	-11.6516
金紫光禄大夫	-11.6516
璨	-11.6517
毓	-11.6518
庵	-11.6518
玆	-11.6518
閈	-11.6518
户牖	-11.6518
元和八年	-11.6519
桑柘	-11.6519
䌫	-11.6519
峩峩	-11.6519
殷周	-11.6519
𤨏	-11.652
張銑註	-11.652
腹中	-11.6521
櫜	-11.6521
竢	-11.6522
有而字	-11.6524
年若干	-11.6525
尚書右丞	-11.6529
孰知	-11.6531
源出	-11.6534
京兆韋	-11.6535
聊自	-11.6537
五巻	-11.6537
杜田	-11.6538
蘭臺	-11.6543
生男	-11.6546
柴荆	-11.6546
世祖	-11.6547
范陽盧	-11.6548
道途	-11.6551
魯郡	-11.6552
誰肯	-11.6557
返照	-11.6559
秋冬	-11.6561
致身	-11.6562
夷齊	-11.6564
懷舊	-11.6564
曾孫	-11.6566
幸甚	-11.6568
閣杭	-11.657
七哀	-11.6572
戸部	-11.6575
祖諱	-11.6576
盧龍	-11.6577
晦日	-11.6578
樊曰公	-11.6578
醉眠	-11.6582
嵩陽	-11.6585
瑶草	-11.6587
潤色	-11.6588
謝病	-11.6588
安敢	-11.6589
異物	-11.6591
寢疾	-11.6593
呉興	-11.6596
紫陽	-11.6608
臣伏以	-11.6612
應接	-11.6614
分曹	-11.6617
琨	-11.6618
嗟嗟	-11.662
殛	-11.662
授官	-11.6621
狸	-11.6623
青楓	-11.6624
酎	-11.6625
迪	-11.6626
勣	-11.6626
豺	-11.6626
飛蓬	-11.6626
承宗	-11.6627
摵	-11.6627
孰謂	-11.6629
嶧	-11.6629
淘	-11.6629
緗	-11.6631
吻	-11.6631
膠漆	-11.6631
皁	-11.6631
睫	-11.6632
遭亂	-11.6632
劈	-11.6632
濛濛	-11.6632
餙	-11.6633
晳	-11.6633
涘	-11.6634
如練	-11.6634
鑚	-11.6634
楊雄	-11.6634
哮	-11.6635
傾城	-11.6637
穆穆	-11.6637
漢書注	-11.6638
懾	-11.6638
自代狀	-11.664
岑參	-11.664
清凉	-11.6641
闌干	-11.6641
無之字	-11.6642
孝思	-11.6642
犬羊	-11.6645
手持	-11.6646
元賔	-11.6646
岳陽樓	-11.6649
鐘鼓	-11.6649
清波	-11.6651
歲寒	-11.6652
九族	-11.6652
二紀	-11.666
戮力	-11.6662
萬頃	-11.6663
張掖	-11.6666
千尺	-11.6667
梁簡文帝詩	-11.6668
飛鳴	-11.6669
荒凉	-11.6669
獨歩	-11.6669
三百篇	-11.6671
端居	-11.6677
大赦	-11.6681
洪水	-11.6682
金莖	-11.6682
屋壁	-11.6689
東林寺	-11.6692
塞外	-11.6693
才能	-11.6697
不得意	-11.6699
地軸	-11.6701
憶舊	-11.6713
滿目	-11.6715
感物	-11.6731
緑楊	-11.6731
嵬	-11.6732
衆鳥	-11.6734
鄴中	-11.674
黿	-11.6741
尚書省	-11.6741
洙曰謝靈運詩	-11.6742
縟	-11.6742
漁人	-11.6743
辛丑	-11.6744
三十餘	-11.6745
懌	-11.6746
伏羲	-11.6746
縲	-11.6747
松樹	-11.6747
元和七年	-11.6747
褭	-11.6748
櫳	-11.6748
鍵	-11.6749
鑰	-11.675
乙亥	-11.6751
猪	-11.6751
起舞	-11.6751
攺	-11.6751
勾踐	-11.6751
蓑	-11.6752
片片	-11.6752
杜鴻漸	-11.6754
澤潞	-11.6754
綯	-11.6755
湘君	-11.6755
長慶三年	-11.6756
珠璣	-11.6758
野田	-11.6762
友朋	-11.6764
恩榮	-11.6765
吴王	-11.6767
湘潭	-11.6768
梅雨	-11.6768
束帶	-11.6771
開緘	-11.6772
丘壑	-11.6773
鄠縣	-11.6775
猶勝	-11.6777
舊俗	-11.6779
芝草	-11.678
令尹	-11.6787
墓碑	-11.6787
何敢	-11.6789
伯牙	-11.6792
翠㣲	-11.6794
臣某誠	-11.6798
吳楚	-11.6799
十有一	-11.68
愈孫曰	-11.6801
那得	-11.6802
夢魂	-11.681
散騎常侍	-11.681
要害	-11.6813
忘憂	-11.6813
寺碑	-11.6817
貢舉	-11.6819
霽雲	-11.6822
性靈	-11.6822
思慮	-11.6824
齊國	-11.6824
人寰	-11.683
不失其	-11.6834
魯國	-11.6841
鮮于	-11.6848
下峽	-11.6853
鎮州	-11.6854
一丈	-11.6856
州界	-11.6856
涅槃	-11.6856
瑱	-11.6858
鱷魚	-11.6859
才力	-11.6859
柝	-11.6859
喑	-11.6862
元和十一年	-11.6863
武宗	-11.6863
痺	-11.6864
茱茰	-11.6864
公羊傳	-11.6865
元和十	-11.6866
鷲	-11.6867
三秦記	-11.6867
噉	-11.6867
𣺌	-11.6868
蘖	-11.6868
乙酉	-11.6869
涿	-11.6869
鰲	-11.6869
廷尉	-11.6869
剔	-11.6869
黄屋	-11.6871
數百人	-11.6871
隧	-11.6871
博陵	-11.6872
元和十五年	-11.6872
無妨	-11.6872
婺	-11.6872
鄖	-11.6873
滁	-11.6874
巨源	-11.6875
謚曰	-11.6876
懴	-11.6877
蒼天	-11.6878
自矜	-11.6879
衆星	-11.688
七發	-11.6882
流霞	-11.6883
舜禹	-11.6886
張十八	-11.6888
嘉祐	-11.6889
先覺	-11.6889
今之人	-11.6891
二十四日	-11.6896
三十一	-11.6898
不拘	-11.6898
何益	-11.6898
王涯	-11.6901
二十一年	-11.6901
梁宋	-11.6902
莫辭	-11.6904
石笋	-11.6906
遼海	-11.6907
宫女	-11.691
襄子	-11.6912
聨句	-11.6913
䘮亂	-11.6913
伊昔	-11.6918
高樓	-11.6923
歌吹	-11.6925
百步	-11.693
柱史	-11.6931
世尊	-11.6935
登壇	-11.6935
亡友	-11.694
龍象	-11.6947
鄠	-11.6949
段各八句	-11.6954
西伯	-11.6956
屈指	-11.6957
三丈	-11.6959
千峯	-11.6962
酒熟	-11.6962
還鄉	-11.6971
介子	-11.6972
紵	-11.6973
西掖	-11.6974
驥子	-11.6975
榦	-11.6975
媪	-11.6976
莞	-11.6977
煙火	-11.6977
珣	-11.6978
澗水	-11.6978
椿	-11.6979
從叔	-11.6979
幾度	-11.6979
月十四日	-11.6979
骸骨	-11.6979
崛	-11.6979
忽驚	-11.698
苾	-11.698
璠	-11.698
汭	-11.6981
聶	-11.6982
尺素	-11.6982
豸	-11.6983
礱	-11.6984
凜	-11.6985
朝議大夫	-11.6985
妥	-11.6985
鮒	-11.6986
文彩	-11.6986
黜陟	-11.6986
纎纎	-11.6986
洙曰左傳	-11.6988
央	-11.6988
州大都督	-11.6991
著作郎	-11.6992
恊律	-11.6993
丹梯	-11.6993
不然則	-11.6994
沐浴	-11.6994
淚滿	-11.6995
淅	-11.6995
謳歌	-11.6998
結構	-11.6999
服食	-11.6999
襲羙	-11.6999
真誥	-11.7002
躬耕	-11.7003
九卿	-11.7003
倚杖	-11.7007
清談	-11.7007
涇原	-11.7009
不憚	-11.7009
重複	-11.7012
驪龍	-11.7015
亭記	-11.7018
輕舟	-11.7028
舟檝	-11.7032
天籟	-11.7033
空谷	-11.704
韓曰謂	-11.704
宣武軍	-11.7044
後嗣	-11.7046
殘花	-11.7048
道術	-11.705
鮫	-11.7052
唐堯	-11.7052
所造	-11.7055
支使	-11.7057
雕龍	-11.7057
車輪	-11.7062
無所用	-11.7063
敬祭	-11.7063
乾元二	-11.7064
仙翁	-11.7065
浩歌	-11.707
宋之問	-11.7073
英靈	-11.7074
奮飛	-11.7074
禍亂	-11.7077
歲次	-11.7078
親賢	-11.7079
公綽	-11.7082
紘	-11.7084
可證	-11.7085
郎署	-11.7089
大司馬	-11.7089
施州	-11.709
誠信	-11.7091
蘇軾曰	-11.7092
坌	-11.7092
仙掌	-11.7094
謫居	-11.7095
蟹	-11.7097
覆載	-11.7098
梁權道	-11.7099
舷	-11.7099
近侍	-11.71
貞元二十一年	-11.7101
軒車	-11.7101
嘔	-11.7102
嶢	-11.7102
趙郡李	-11.7103
顰	-11.7103
篲	-11.7104
罥	-11.7104
闔閭	-11.7104
頓挫	-11.7104
合歡	-11.7104
吕向註	-11.7105
榷	-11.7105
龍興寺	-11.7106
实	-11.7106
南陌	-11.7106
袁紹	-11.7108
賻	-11.711
顔氏	-11.711
祖父	-11.711
麒麟閣	-11.7111
暠	-11.7111
風烟	-11.7113
劉伶	-11.7113
張建封	-11.7114
崟	-11.7115
慈恩寺	-11.7115
▁鮑照詩	-11.7115
孟東野	-11.7116
仲武	-11.7116
府君諱	-11.7118
合沓	-11.712
殘春	-11.712
漁翁	-11.7121
天姥	-11.7126
吕望	-11.7127
終不能	-11.7127
辛夷	-11.7136
華軒	-11.7138
百餘人	-11.7143
深谷	-11.7146
悲傷	-11.7148
手把	-11.7149
落魄	-11.7153
叙事	-11.7157
故云云	-11.7166
兩岸	-11.7167
節度判官	-11.7168
一株	-11.7172
擇木	-11.7173
李中丞	-11.7175
九章	-11.7176
兵討	-11.7177
荷葉	-11.7181
何幸	-11.7185
懐抱	-11.7185
古詩云	-11.7186
▁庾信詩	-11.7187
官曹	-11.7189
門下省	-11.7189
光武紀	-11.719
送裴	-11.7191
鮌	-11.7195
討賊	-11.7208
急難	-11.7211
卓然	-11.7212
外郎	-11.7213
執政	-11.7215
遭逢	-11.7217
𣏌	-11.7217
瀰	-11.7218
某年	-11.7221
瀍	-11.7221
墖	-11.7223
前漢書	-11.7223
鄭谷	-11.7223
鶴注當是大厯	-11.7223
平沙	-11.7224
賃	-11.7224
寞	-11.7225
苣	-11.7225
氤氲	-11.7226
索居	-11.7226
翾	-11.7226
史朝義	-11.7227
㝎	-11.7227
羹	-11.7227
戊申	-11.7228
泗州	-11.7228
溝壑	-11.7228
魚鼈	-11.7229
苫	-11.7229
第八	-11.7229
隋煬帝	-11.7229
鉉	-11.7229
佺	-11.723
緊	-11.723
規矩	-11.723
笮	-11.723
糲	-11.7231
昶	-11.7231
惟恐	-11.7231
卞和	-11.7234
𧖟	-11.7234
枚乗	-11.7239
柳宗元	-11.7239
伏念	-11.724
逢吉	-11.724
彤庭	-11.7241
未忍	-11.7242
峴首	-11.7242
紫陌	-11.7245
詠歌	-11.7245
儂	-11.7245
蜀道難	-11.7251
蕭然	-11.7251
寒露	-11.7254
者莫不	-11.7254
壬子	-11.7257
河南令	-11.7259
塵外	-11.726
煙霧	-11.7263
牛斗	-11.7263
顔延年詩	-11.7264
江陵府	-11.7264
臨池	-11.7268
甲申	-11.7269
少陵詩	-11.727
執法	-11.7271
閬風	-11.7283
巴州	-11.7286
章章	-11.7287
貧病	-11.729
野寺	-11.729
之可也	-11.7291
陶令	-11.7291
延英	-11.7294
董生	-11.7302
晨光	-11.7303
白刃	-11.7303
晚節	-11.7304
名譽	-11.7304
逸氣	-11.7304
福建	-11.7305
仲春	-11.7306
招隱	-11.7312
江浦	-11.7315
徵君	-11.7315
粲然	-11.7317
宦者	-11.7324
苦吟	-11.7327
胸中	-11.7327
百慮	-11.7327
吉日	-11.7329
殊俗	-11.7336
臾	-11.7342
華嚴經	-11.7342
窶	-11.7342
蜺	-11.7344
珎	-11.7345
禳	-11.7346
琦	-11.7347
溶	-11.7347
梁甫吟	-11.7347
糜	-11.7347
耋	-11.7347
季布	-11.7348
蹀	-11.7348
煜	-11.7349
亾	-11.7349
荃	-11.7349
沲	-11.7349
宕	-11.7349
乙未	-11.7351
帷幄	-11.7352
悞	-11.7354
肢	-11.7357
都團練	-11.7357
賈島	-11.7358
軍節度	-11.736
華屋	-11.7361
丹誠	-11.7362
九月九日	-11.7363
李光弼	-11.7364
剡溪	-11.7366
清泠	-11.7367
斛斯	-11.737
兵甲	-11.7371
就加	-11.7374
仇池	-11.7376
羣盜	-11.7377
虎牙	-11.7377
鬢毛	-11.7377
端倪	-11.7382
潁水	-11.7386
甲午	-11.7386
鶴曰按	-11.7386
黙然	-11.7389
農事	-11.7393
白駒	-11.7398
寄楊	-11.7399
赴闕	-11.7406
屈宋	-11.7413
萬代	-11.7414
平蕪	-11.7417
金帛	-11.7419
郊廟	-11.7421
李善注	-11.7423
月窟	-11.7424
杭同	-11.7429
論衡	-11.7432
昭義	-11.7436
鍾陵	-11.7437
師友	-11.7437
厚薄	-11.7449
郫	-11.7454
周圍	-11.7455
皇恩	-11.7456
四科	-11.7459
曹溪	-11.7461
卞	-11.7462
濟世	-11.7463
纈	-11.7464
夫妻	-11.7464
先人之	-11.7466
紿	-11.7466
晋書	-11.7467
緼	-11.7469
熒惑	-11.747
膂	-11.7471
臧玠	-11.7471
形似	-11.7472
悃	-11.7473
右庶子	-11.7473
釋迦	-11.7474
方輿勝覽	-11.7474
墾	-11.7474
艘	-11.7475
如淳曰	-11.7475
燋	-11.7475
赩	-11.7476
香山詩集巻	-11.7476
瑗	-11.7476
疹	-11.7476
甜	-11.7476
酸辛	-11.7477
耒耜	-11.7477
逍遙	-11.7478
燦	-11.7478
曬	-11.7479
脛	-11.7479
押衙	-11.7479
誑	-11.7479
躊躇	-11.7479
寰區	-11.7481
鳷鵲	-11.7481
青熒	-11.7482
劘	-11.7482
鏘鏘	-11.7482
睇	-11.7483
筮仕	-11.7483
諛	-11.7483
潺潺	-11.7483
棄捐	-11.7485
舊業	-11.7485
匹馬	-11.7487
李林甫	-11.7488
旄頭	-11.7489
上䟽	-11.7489
健兒	-11.749
蹤跡	-11.749
校理	-11.7495
玉墀	-11.7497
怡然	-11.7499
藩鎮	-11.7503
蟬聲	-11.7503
鑿井	-11.7504
抑揚	-11.7506
月十七日	-11.7508
今宵	-11.7509
折衝	-11.751
杳冥	-11.7514
江潭	-11.7514
名之曰	-11.7517
䖏士	-11.7518
博學	-11.7521
青㝠	-11.7522
希夷	-11.7522
寄友人	-11.7524
洙曰謝靈運	-11.7524
縉雲	-11.7526
依稀	-11.7526
氣味	-11.7532
三十七	-11.7533
相印	-11.7536
市井	-11.7539
宴集	-11.7542
謀猷	-11.7545
寢食	-11.7551
南康	-11.7553
下情無任	-11.7554
路岐	-11.7557
進止	-11.7557
三十日	-11.7558
千餘人	-11.7559
水東流	-11.7565
萬巻	-11.7571
魚目	-11.7572
禹湯	-11.7573
丈餘	-11.7574
寰宇	-11.7575
某原	-11.7578
兩川	-11.7581
鮮明	-11.7581
巢由	-11.7584
下方有	-11.7585
竺	-11.7586
䲭	-11.7594
艫	-11.7594
貞元十八年	-11.7595
舲	-11.7597
屣	-11.7599
郇	-11.7599
周孔	-11.7599
鵞	-11.76
𬒮	-11.76
龐	-11.76
爨	-11.76
恧	-11.7601
冬夜	-11.7601
騏驎	-11.7601
㐲	-11.7602
茟	-11.7602
邴	-11.7603
紊	-11.7603
籩	-11.7604
肩輿	-11.7605
三十九	-11.7605
華陽國志	-11.7606
皇甫湜	-11.7606
鸕鷀	-11.7606
柳子厚	-11.7607
兀兀	-11.7607
綿綿	-11.7609
見二巻註	-11.761
餘如故	-11.7613
招提	-11.7617
酣歌	-11.7617
茅齋	-11.7618
左傳晉	-11.7619
昌裔	-11.7619
炎天	-11.762
毛萇	-11.762
含章	-11.762
碑誌	-11.7624
冬夏	-11.7625
車轍	-11.7629
歩兵	-11.7634
孟康曰	-11.7634
孟津	-11.7634
挂席	-11.7636
頭陀	-11.7637
先主廟	-11.7638
衰謝	-11.7639
千尋	-11.7643
八陣	-11.7644
高堂	-11.7646
悵然	-11.7646
二三子	-11.7649
珠履	-11.765
三本同	-11.7658
三界	-11.7662
死灰	-11.7666
山上有	-11.7667
天寳初	-11.7668
量力	-11.7668
六藝	-11.7675
林壑	-11.7675
歴代	-11.7676
後丗	-11.7678
飛鴻	-11.7679
是邦	-11.7679
正義曰	-11.7695
按唐書	-11.7697
盈尺	-11.7701
蓮葉	-11.7703
赤色	-11.7704
香火	-11.7706
韓文公	-11.7707
衰疾	-11.7708
坐看	-11.771
帝座	-11.7711
領軍	-11.7711
四隣	-11.7711
杭本無	-11.7713
齊侯	-11.7714
公神道碑	-11.7715
隴山	-11.7715
驃	-11.7719
踔	-11.7719
勦	-11.7719
感戴	-11.772
畹	-11.7721
揄	-11.7725
糗	-11.7725
天寳十四載	-11.7725
邏	-11.7725
㢮	-11.7726
烜	-11.7726
羽獵賦	-11.7726
襪	-11.7726
茭	-11.7727
兢惶	-11.7727
筏	-11.7728
睛	-11.7729
慇懃	-11.7729
槳	-11.7729
机	-11.7729
五百家注昌黎文集巻	-11.773
蒨	-11.773
焯	-11.7731
藝文類聚	-11.7731
擠	-11.7731
蕘	-11.7732
狐狸	-11.7732
藩籬	-11.7733
猖狂	-11.7733
磷	-11.7733
剌	-11.7733
團扇	-11.7733
泥滓	-11.7733
丘陵	-11.7734
締	-11.7734
昵	-11.7734
遑遑	-11.7735
撩	-11.7735
㑹面	-11.7736
惠連	-11.7738
藥餌	-11.7738
俸錢	-11.7739
天寳元年	-11.7741
桑麻	-11.7741
李錡	-11.7742
太𤣥	-11.7742
奴婢	-11.7742
華葢	-11.7742
今陛下	-11.7743
唯恐	-11.7744
白頭翁	-11.7748
蓬壺	-11.7748
荒蕪	-11.7749
副元帥	-11.7749
帝怒	-11.775
靡靡	-11.775
咸池	-11.7751
欣欣	-11.7751
云退之	-11.7758
官舍	-11.7758
上人院	-11.776
一麾	-11.7763
數尺	-11.7766
踞	-11.7771
京都	-11.7774
合符	-11.7781
南溟	-11.7784
月支	-11.7786
孝理	-11.7787
獨步	-11.7797
大塊	-11.78
慕容	-11.78
敢望	-11.7807
列仙	-11.7815
寵榮	-11.7816
五絃	-11.7817
年五月	-11.7826
合浦	-11.7829
仰望	-11.7831
太原王	-11.7831
滎陽鄭	-11.7831
聖祖	-11.7833
華陰	-11.7834
夢裏	-11.7836
揚雄傳	-11.7838
滔天	-11.7842
㓙	-11.7849
蝎	-11.785
琅邪	-11.7852
垤	-11.7852
蝦蟇	-11.7853
姨	-11.7853
徠	-11.7853
韓魏	-11.7854
北山移文	-11.7854
裊	-11.7855
洧	-11.7855
白鬚	-11.7855
祜	-11.7856
莠	-11.7856
玅	-11.7857
郭璞江賦	-11.7857
法苑珠林	-11.7858
噎	-11.7858
楓樹	-11.7859
頎	-11.786
鞞	-11.786
規模	-11.7861
𣲖	-11.7861
跣	-11.7861
瞋	-11.7862
者以其	-11.7862
在秦州	-11.7862
迤	-11.7863
貞元十六年	-11.7864
炅	-11.7864
蒞	-11.7865
髩	-11.7865
耨	-11.7865
慘慘	-11.7865
維摩詰經	-11.7866
詁	-11.7867
千五百	-11.7867
七寳	-11.7868
嘉禾	-11.7868
壬申	-11.7868
曠野	-11.7869
霑衣	-11.787
鶯啼	-11.787
蒿里	-11.7871
慶緒	-11.7871
松筠	-11.7876
崔侍御	-11.7877
飲啄	-11.7877
喧喧	-11.7878
友善	-11.7878
感歎	-11.7881
割據	-11.7882
浮萍	-11.7884
癸未	-11.789
李師道	-11.789
握手	-11.7892
揮手	-11.7896
呉越	-11.7897
丹穴	-11.79
竹帛	-11.7901
蕭士贇曰	-11.7901
雙旌	-11.7905
百舌	-11.7907
舍弟	-11.7908
優詔	-11.7911
東都賦	-11.7913
〇趙曰言	-11.7913
墓銘	-11.7914
君墓誌	-11.7917
八座	-11.7921
龍驤	-11.7924
祔于	-11.7929
濯錦	-11.7931
靈芝	-11.7931
宣示	-11.7942
萬歲	-11.7946
駐馬	-11.7959
建業	-11.7961
孤峯	-11.7966
佩玉	-11.7971
鴆	-11.7976
致祭	-11.7981
跛	-11.7982
絪	-11.7982
兠	-11.7983
椹	-11.7983
俻	-11.7983
食貨志	-11.7985
澠	-11.7986
㓛	-11.7988
頲	-11.7988
遡	-11.7989
訶	-11.7989
李周翰註	-11.799
蛺蝶	-11.799
綖	-11.799
裒	-11.799
須㬰	-11.799
勻	-11.7991
爕	-11.7991
隴西公	-11.7992
餽	-11.7992
刁斗	-11.7992
饕	-11.7993
盧諶	-11.7993
髙唐賦	-11.7993
霍山	-11.7994
痾	-11.7994
㽞	-11.7994
年八十	-11.7994
鸚鵡洲	-11.7995
踴	-11.7995
下邳	-11.7995
盤渦	-11.7996
阮瑀	-11.7998
百二十	-11.7998
僂	-11.8
關河	-11.8002
覲省	-11.8002
炎蒸	-11.8003
小雅	-11.8003
遨遊	-11.8004
丘墟	-11.8005
埃塵	-11.8008
阮咸	-11.8009
齒牙	-11.8011
呉楚	-11.8012
詩小雅	-11.8013
三寸	-11.8013
採訪	-11.8018
中郎將	-11.802
渌水	-11.8021
范雲	-11.8025
翰苑	-11.8026
筆力	-11.8027
梅福	-11.8028
延夀	-11.803
戚里	-11.8032
問其故	-11.8033
漢光武	-11.8036
公時為	-11.8036
知我者	-11.804
十二韻	-11.8042
四尺	-11.805
閣校	-11.8052
鳯池	-11.8058
洪波	-11.806
飽食	-11.8062
收京	-11.8063
十二句	-11.8065
陜西	-11.8065
月二十五日	-11.8079
素絲	-11.808
豪家	-11.8082
錦里	-11.8082
待罪	-11.8085
仲冬	-11.8085
省郎	-11.8086
驅馬	-11.809
右衛	-11.8092
川原	-11.8104
儀禮	-11.8111
幷	-11.8115
畚	-11.8118
擷	-11.8118
尨	-11.8119
匈	-11.812
蘇武詩	-11.812
絛	-11.812
喔	-11.8121
渼陂	-11.8121
樛	-11.8121
鋸	-11.8122
蕪城賦	-11.8122
沗	-11.8122
䌓	-11.8122
劉良註	-11.8122
埏	-11.8122
欷	-11.8123
詵	-11.8123
廨	-11.8123
彞	-11.8124
巨鼇	-11.8124
苔蘚	-11.8124
徯	-11.8124
邂	-11.8125
褊	-11.8126
蝴蝶	-11.8127
郭隗	-11.8127
絢	-11.8127
槊	-11.8127
尚書左丞	-11.8128
揖讓	-11.8129
按舊史	-11.8129
酪	-11.813
纉	-11.813
濯纓	-11.8131
塗炭	-11.8132
飄泊	-11.8133
笈	-11.8133
峘	-11.8133
鄒魯	-11.8134
鑷	-11.8136
敗績	-11.814
伏蒙	-11.8143
周瑜	-11.8143
黎庶	-11.8144
澗底	-11.8146
成都尹	-11.8146
天竺寺	-11.8146
牛頭	-11.8146
衡岳	-11.8148
鴻雁	-11.8152
百官志	-11.8152
各四句	-11.8156
戀闕	-11.8156
四岳	-11.8165
嶺外	-11.8166
百僚	-11.8168
幽谷	-11.8168
紫宫	-11.8169
竹箭	-11.817
明月峽	-11.8175
痛飲	-11.8176
珂	-11.8179
朝覲	-11.8181
胡塵	-11.8184
帝堯	-11.8185
交錯	-11.8185
京國	-11.8186
池亭	-11.8187
虛空	-11.8189
腰間	-11.8191
當是大厯二年	-11.8194
十有八	-11.8197
郡國志	-11.8199
薊北	-11.82
脩竹	-11.82
仕進	-11.8208
匡廬	-11.8213
吾友	-11.8216
東臯	-11.8217
永懷	-11.8222
忠厚	-11.8224
十有五	-11.8234
顔延之	-11.8237
客舎	-11.8239
皇皇	-11.8239
氣候	-11.8243
伯父	-11.8245
僇	-11.8247
石勒	-11.8248
無一事	-11.8248
失職	-11.8248
鞬	-11.8249
粛	-11.8251
嫖姚	-11.8252
餼	-11.8253
鸚	-11.8254
溟渤	-11.8255
熠	-11.8255
誠惶誠恐	-11.8255
謐	-11.8256
臣某言臣	-11.8256
㳒	-11.8257
瘴癘	-11.8258
中散大夫	-11.8258
鬲	-11.8259
玦	-11.8259
邛	-11.826
揷	-11.826
澒洞	-11.826
悛	-11.8261
旐	-11.8261
鄂岳	-11.8261
杜田補遺	-11.8261
迢逓	-11.8262
靴	-11.8262
偁	-11.8262
盧仝	-11.8263
攣	-11.8263
儗	-11.8264
徐泗	-11.8265
肺肝	-11.8265
炷	-11.8265
瀟灑	-11.8266
荷鋤	-11.8266
荆扉	-11.8268
晨起	-11.8268
蕭颯	-11.8269
賫	-11.8269
某年月日	-11.8269
見上巻	-11.827
陳後主	-11.8272
翶	-11.8272
炎方	-11.8274
匪躬	-11.8277
道場	-11.8278
騰騰	-11.8282
沈佺期詩	-11.8283
汲引	-11.8285
翠屏	-11.8288
謹狀	-11.8291
舎弟	-11.8292
博雅	-11.8298
獨孤及	-11.8301
沙頭	-11.8302
廬江	-11.8303
曽參	-11.8304
後昆	-11.8304
謁帝	-11.8304
交態	-11.8309
玉階	-11.8318
僖公	-11.8324
早梅	-11.8326
寓直	-11.8328
萬里橋	-11.8329
巨靈	-11.833
失墜	-11.833
晚晴	-11.8335
殊異	-11.8336
華嶽	-11.8344
患難	-11.8346
萬戸	-11.8347
八十一	-11.835
京畿	-11.835
濮陽	-11.8351
先鋒	-11.8353
鈞天	-11.8361
舊史云	-11.8363
箕山	-11.8363
監察	-11.8369
紛然	-11.8371
箋云	-11.8372
鯀	-11.8377
殊不知	-11.8379
斜陽	-11.8383
公神道碑銘	-11.8384
偪	-11.8388
獷	-11.8388
萱	-11.8388
未肯	-11.8389
傪	-11.8391
轆轤	-11.8391
萹	-11.8391
覯	-11.8391
惸	-11.8392
訕	-11.8392
杜佑	-11.8393
犖	-11.8393
彀	-11.8395
啁	-11.8396
黼	-11.8396
芡	-11.8397
嶮	-11.8397
阯	-11.8397
淋	-11.8398
埤雅	-11.8398
壼	-11.8398
皎潔	-11.8398
訃	-11.8399
𢷬	-11.8399
誰敢	-11.8399
丁亥	-11.84
撤	-11.84
𤣥元皇帝	-11.84
酆	-11.84
埽	-11.84
游俠	-11.8401
悌	-11.8401
湼槃經	-11.8402
髭	-11.8403
球	-11.8403
抃躍	-11.8403
銀鞍	-11.8403
王粲詩	-11.8404
鬬雞	-11.8404
山海經曰	-11.8405
高齋	-11.8405
閑吟	-11.8405
拂拭	-11.8406
鳯皇	-11.8408
雕蟲	-11.8409
古今注	-11.841
内供奉	-11.8412
鄭滑	-11.8423
孤燈	-11.8424
蕭灑	-11.8425
秋八月	-11.8427
七言律	-11.8429
翼翼	-11.8429
大明宫	-11.8432
髙低	-11.8433
朱雀	-11.8434
某乙	-11.8434
劉沔	-11.8435
京尹	-11.8437
容貌	-11.8438
祀典	-11.844
旦暮	-11.8441
輔佐	-11.8441
澄江	-11.8443
絳州	-11.8443
荒服	-11.8444
鴻毛	-11.8449
張徹	-11.8449
曽孫	-11.845
表臣某言	-11.8451
郷里	-11.8453
莊嚴	-11.8454
猛虎行	-11.8455
複道	-11.8455
楊墨	-11.8456
兩稅	-11.8459
外戚	-11.8461
紫㣲	-11.8462
歡呼	-11.8462
蘆花	-11.8464
桑田	-11.8466
震驚	-11.8472
鶴注此當是	-11.8476
井邑	-11.8483
詩話云	-11.8484
公卿大夫	-11.8486
虎丘	-11.8487
裴相公	-11.8488
雲屯	-11.8491
澧州	-11.8497
刑政	-11.8512
樽前	-11.8512
翛	-11.8517
詣闕	-11.8517
詔㫖	-11.8525
艦	-11.8527
憊	-11.853
縵	-11.8531
跕	-11.8532
禺	-11.8532
氛祲	-11.8532
殷仲文	-11.8532
陴	-11.8533
維摩經	-11.8533
荏苒	-11.8533
騑	-11.8534
穆天子傳	-11.8536
獰	-11.8536
庳	-11.8536
奩	-11.8536
殂	-11.8536
大厯五年	-11.8537
􁈍	-11.8537
頳	-11.8538
楞伽	-11.8538
碾	-11.854
隄防	-11.854
褷	-11.8542
遐邇	-11.8544
巨石	-11.8544
梓潼	-11.8544
腐儒	-11.8544
湘妃	-11.8545
皓齒	-11.8545
陋巷	-11.8545
乗槎	-11.855
羽觴	-11.8555
龜䝉	-11.8555
狼籍	-11.8557
銀鈎	-11.8558
校獵	-11.8559
田横	-11.856
晉天文志	-11.856
龍媒	-11.8561
農桑	-11.8563
忠良	-11.8568
七十餘	-11.8571
魯陽	-11.8573
摧折	-11.8574
童兒	-11.8577
四瀆	-11.8578
月八日	-11.8579
右拾遺	-11.8579
筆墨	-11.8579
五百人	-11.8586
右散騎常侍	-11.8586
鄧林	-11.8586
百歩	-11.8593
結廬	-11.8597
寒灰	-11.8599
巻舒	-11.86
開闢	-11.8603
東籬	-11.8608
聖㫖	-11.8614
持斧	-11.8616
溺死	-11.8622
筆端	-11.8623
桓帝	-11.8626
第九	-11.8639
尊嚴	-11.8646
郊孫曰	-11.865
華岳	-11.8651
畫角	-11.8654
廣運	-11.8656
王逸注	-11.866
漭	-11.8661
蒯	-11.8666
鎗	-11.8668
斁	-11.8669
王屋山	-11.867
橙	-11.8671
釭	-11.8671
渥洼	-11.8671
慱	-11.8672
翬	-11.8672
䴡	-11.8672
蛤	-11.8673
諌議大夫	-11.8674
驛路	-11.8674
跋扈	-11.8674
李太白集注巻	-11.8675
唐㑹要	-11.8675
庚午	-11.8676
颶	-11.8676
鋏	-11.8677
韁	-11.8677
撻	-11.8678
娟娟	-11.8678
郿	-11.8678
呉都賦	-11.8678
班彪	-11.8679
匙	-11.868
譖	-11.868
姮娥	-11.868
洺	-11.868
招䰟	-11.868
紅蕖	-11.868
体	-11.8681
彎弓	-11.8681
旟	-11.8681
匭	-11.8683
蘭蕙	-11.8684
權德輿	-11.8685
海底	-11.8686
霑巾	-11.8687
暌	-11.8687
錦袍	-11.8692
羅池	-11.8693
乗舟	-11.8694
劉毅	-11.8699
比丘	-11.87
越裳	-11.8701
艱危	-11.8701
閬中	-11.8701
不知其所	-11.8705
太乙	-11.871
大人賦	-11.871
昏昏	-11.8711
㡬何	-11.8712
瑟瑟	-11.8712
唐書百官志	-11.8712
廣平王	-11.8714
角弓	-11.8715
太清宫	-11.8718
絲管	-11.8721
豈料	-11.8725
尊卑	-11.8725
二十萬	-11.8732
成都府	-11.8735
杜宇	-11.8736
刀筆	-11.8737
萬匹	-11.874
終身不	-11.874
巴峽	-11.8741
龍潭	-11.8741
權衡	-11.8741
萬仞	-11.8747
歙州	-11.8749
櫟	-11.8761
丹霄	-11.8764
十餘里	-11.8772
溧	-11.8776
屏營	-11.8777
醉卧	-11.8788
剡中	-11.8789
各有所	-11.8793
謝惠連	-11.8796
年十五	-11.8798
泛泛	-11.8799
遷延	-11.8804
䔥	-11.8807
豈伊	-11.8808
潨	-11.881
酉陽雜俎	-11.8813
僕夫	-11.8815
澡	-11.8815
簴	-11.8816
雩	-11.8816
靦	-11.8816
賭	-11.8817
訇	-11.8817
鋒鏑	-11.8818
夷夏	-11.8818
睽	-11.8818
獺	-11.8819
夢弼曰	-11.8819
師民瞻	-11.8819
莆	-11.8819
御史臺	-11.882
薛道衡	-11.882
太子少保	-11.882
戛	-11.882
安在哉	-11.882
豢	-11.8821
徊	-11.8821
莾	-11.8821
晁錯	-11.8821
子虛賦	-11.8821
述異記	-11.8821
𪷟	-11.8822
刎	-11.8823
紗帽	-11.8823
嫡	-11.8823
歡娯	-11.8825
產	-11.8825
苧	-11.8826
四愁詩	-11.8827
稽古	-11.8827
淋漓	-11.8827
頴川	-11.8828
于頔	-11.8829
應璩	-11.883
國子監	-11.883
不然何	-11.8836
七月七日	-11.8841
醉鄉	-11.8846
險艱	-11.8847
投壺	-11.8847
休沐	-11.8852
桐廬	-11.8856
祖考	-11.8865
賓主	-11.8868
台司	-11.8871
無任感恩	-11.8871
嗣業	-11.8872
紹興	-11.8874
山海經云	-11.8886
沈沈	-11.889
嗣位	-11.8894
蕭曹	-11.8896
數百里	-11.8897
湖亭	-11.8901
東方朔傳	-11.8905
海岱	-11.891
冠帶	-11.8913
靈均	-11.8915
滑州	-11.8915
戲題	-11.8918
月二十七日	-11.8924
光耀	-11.8927
盛衰	-11.8931
與君同	-11.8933
詎知	-11.8935
素琴	-11.8936
侍女	-11.8945
檉	-11.8947
明哲	-11.8948
璡	-11.895
交歡	-11.8951
梁苑	-11.8953
蚩	-11.8954
䖝	-11.8955
大厯三	-11.8957
晢	-11.8957
女媧	-11.896
碌碌	-11.896
舞鶴賦	-11.896
嚢	-11.896
原隰	-11.896
渦	-11.8962
興慶宫	-11.8962
晉灼曰	-11.8962
崦	-11.8963
寤寐	-11.8963
丹旐	-11.8963
矯矯	-11.8963
熈熈	-11.8965
鸖	-11.8965
惧	-11.8966
戱	-11.8966
歔欷	-11.8967
鍛	-11.8967
楊子琳	-11.8967
宣歙	-11.8967
嘏	-11.8967
澶	-11.8967
契闊	-11.8968
膏腴	-11.8968
鷹隼	-11.8968
鄒衍	-11.8968
廏	-11.8968
縉紳	-11.8968
璇	-11.8969
羊祜	-11.8969
品物	-11.897
硤	-11.8971
保大本	-11.8971
提攜	-11.8978
酬恩	-11.8979
豪俊	-11.898
穿鑿	-11.898
勝槩	-11.898
太子賓客	-11.8982
陶鈞	-11.8986
佩刀	-11.8989
磨滅	-11.8993
兵部郎中	-11.8998
鳴臯	-11.8999
詩作於	-11.9005
部尚書	-11.9006
蒙恩	-11.9007
儀形	-11.9015
宋之問詩	-11.9016
臨岐	-11.9018
唐太宗	-11.9028
快意	-11.9033
本多作	-11.9038
赤岸	-11.9054
金鞍	-11.9068
嗟爾	-11.907
騎射	-11.9074
濟川	-11.9077
七百里	-11.908
丹桂	-11.9081
乞食	-11.9082
〇今按	-11.9085
殊恩	-11.9091
邙	-11.9098
郯	-11.9098
豋	-11.91
饔	-11.9102
繢	-11.9102
宙	-11.9102
鶡冠子	-11.9102
寗	-11.9103
幰	-11.9104
灧澦	-11.9104
媯	-11.9105
澒	-11.9105
趺	-11.9106
虹蜺	-11.9106
娑	-11.9107
騂	-11.9107
樟	-11.9107
哀江南賦	-11.9108
骼	-11.9108
烟塵	-11.9108
瓚	-11.9109
郡開國公	-11.9109
鼃	-11.911
蠖	-11.911
瑒	-11.911
閿	-11.911
踆	-11.9111
混沌	-11.9112
風土記	-11.9112
凾	-11.9113
楊升菴	-11.9114
幸甚幸甚	-11.9114
離筵	-11.9114
九垓	-11.9115
㩀	-11.9115
堠	-11.9115
起居舍人	-11.9115
腋	-11.9115
芙	-11.9116
菖蒲	-11.9117
屈伸	-11.9119
舁	-11.9119
搔首	-11.912
釣竿	-11.912
緱氏	-11.9122
淥	-11.9123
採訪使	-11.9124
驅車	-11.9125
赤墀	-11.9126
漆園	-11.9129
李希烈	-11.9135
張旭	-11.9139
江畔	-11.9141
樊川	-11.9142
寰海	-11.9143
烟霧	-11.915
袁州刺史	-11.915
二段各	-11.9151
五行志	-11.9153
嘉瑞	-11.9156
臺榭	-11.9161
馬援傳	-11.9165
季友	-11.9168
皎然	-11.9171
極浦	-11.9178
榮辱	-11.9181
里第	-11.9189
謝莊	-11.9196
兎絲	-11.9204
驛樓	-11.9228
謹遣	-11.9236
宝	-11.9249
輾	-11.9251
眙	-11.9252
珠翠	-11.9253
蹻	-11.9254
撝	-11.9255
巇	-11.9255
專征	-11.9255
切〇洙曰	-11.9257
殳	-11.9258
袵	-11.9258
吳越春秋	-11.9259
厝	-11.9259
鰥寡	-11.9259
廸	-11.926
茱萸	-11.926
杜䳌	-11.926
判度支	-11.9261
叔孫通	-11.9261
董卓	-11.9262
荑	-11.9262
灼灼	-11.9263
駰	-11.9263
遄	-11.9263
朋黨	-11.9263
剏	-11.9264
鹹	-11.9264
郭英乂	-11.9264
丙午	-11.9265
貞元十一年	-11.9265
厓	-11.9266
琱	-11.9267
季札	-11.9268
蕭望之	-11.9269
鄢	-11.9271
臣某等言	-11.9274
躄	-11.9274
渥澤	-11.9275
項籍	-11.9275
爛漫	-11.9276
中書省	-11.9277
少府監	-11.9277
舞袖	-11.9281
鑄鼎	-11.9281
杖䇿	-11.9282
宣尼	-11.9285
墳墓	-11.9286
【	-11.929
里巷	-11.9293
㐮陽	-11.9293
六翮	-11.9294
丁丁	-11.9295
大暦	-11.9301
嵩丘	-11.9302
鼓琴	-11.9302
激揚	-11.9313
今从	-11.9313
鹿鳴	-11.9316
商洛	-11.9319
天下之士	-11.9325
十五巻	-11.9331
飄蓬	-11.9331
典籍	-11.9336
典刑	-11.9336
于闐	-11.9338
紅燭	-11.9338
秩滿	-11.9339
滄州	-11.9342
屯兵	-11.9349
低頭	-11.9349
赤羽	-11.9355
陵寢	-11.9361
肉食	-11.9363
當塗縣	-11.9364
因緣	-11.9364
有所感	-11.9372
有以見	-11.9378
夫差	-11.9379
趙云此篇	-11.9387
澤畔	-11.939
湼槃	-11.9391
梁簡文	-11.9393
姥	-11.9393
頔	-11.9396
騘	-11.94
呶	-11.94
嚇	-11.9401
迦	-11.9402
悰	-11.9404
百九十	-11.9406
堇	-11.9406
黥	-11.9406
喁	-11.9407
惨	-11.9408
飇	-11.9409
闞	-11.9409
罅	-11.9409
矗	-11.9409
犒	-11.941
觚	-11.9411
試大理評事	-11.9411
至徳二年	-11.9413
洪慶善	-11.9413
孀	-11.9413
磻溪	-11.9413
蘧	-11.9413
脾	-11.9414
金馬門	-11.9414
犬吠	-11.9414
炎瘴	-11.9414
乙丑	-11.9415
骨髓	-11.9415
猩猩	-11.9415
獬豸	-11.9415
煞	-11.9415
梔子	-11.9415
棹歌	-11.9415
少陵原	-11.9416
曈	-11.9416
瘼	-11.9416
澮	-11.9417
舅姑	-11.9417
嘉陵江	-11.9418
九家集注杜詩巻	-11.9418
𬗟	-11.9418
興元元年	-11.9418
摩訶	-11.9418
庾亮	-11.9419
脉脉	-11.9419
劳	-11.9419
江南通志	-11.9419
燉煌	-11.9419
隲	-11.9419
倬	-11.942
灞陵	-11.9422
郾城	-11.9425
少昊	-11.9426
弘農	-11.943
叩頭	-11.9431
含蓄	-11.9432
先塋	-11.9433
科斗	-11.9434
湯湯	-11.9437
梁元帝詩	-11.9451
影響	-11.9453
榖梁	-11.9455
文中子	-11.9456
王筠	-11.946
金罍	-11.9461
嘉賔	-11.9466
愽士	-11.9466
廬陵	-11.9472
秋霖	-11.9474
泉源	-11.9478
夏五月	-11.948
靈運詩	-11.9486
江濵	-11.9487
伐叛	-11.9488
月十三日	-11.9488
天地之間	-11.9488
洛川	-11.9492
冰雪	-11.9494
勤勤	-11.9494
丗說	-11.9496
銀章	-11.9497
釣臺	-11.9504
百四十	-11.9505
畏途	-11.9515
峨眉山	-11.9523
宗社	-11.953
實錄	-11.953
氏墓誌銘	-11.9534
首陽山	-11.9546
疣	-11.9551
惘	-11.9554
媛	-11.9555
櫨	-11.9556
粳	-11.9558
漚	-11.956
淤	-11.956
十道志	-11.9562
轓	-11.9562
掄	-11.9562
鴰	-11.9562
仝	-11.9562
㘴	-11.9563
千六百	-11.9563
才調集	-11.9564
𣢾	-11.9564
魯仲連	-11.9564
駃	-11.9564
甓	-11.9564
遅	-11.9565
俳	-11.9565
惴	-11.9565
苻堅	-11.9566
鷇	-11.9566
匀	-11.9566
戸部侍郎	-11.9566
癸卯	-11.9567
賸	-11.9567
賡	-11.9567
宓	-11.9568
兢兢	-11.9568
天下幸甚	-11.9569
朧	-11.9569
菡萏	-11.9569
轝	-11.9569
厮	-11.957
𤦺按	-11.957
滂沱	-11.9571
日月星辰	-11.9573
殽	-11.9573
楊惲	-11.9575
大赦天下	-11.9576
嶪	-11.9576
劇孟	-11.958
促織	-11.958
臯陶	-11.9581
欹枕	-11.9583
贈太尉	-11.9584
芰荷	-11.9585
巢穴	-11.9585
大厯四	-11.9589
綵衣	-11.9589
細腰	-11.9591
貞元二年	-11.9593
改葬	-11.9594
毗陵	-11.9594
楓葉	-11.9597
昭穆	-11.9598
吏部郎中	-11.9601
彈冠	-11.9608
妖星	-11.9609
閶門	-11.9609
海嶠	-11.961
囘首	-11.9617
有於字	-11.9619
夏四月	-11.9622
李侍御	-11.9625
入覲	-11.9625
鄰里	-11.9632
陳倉	-11.9639
吴越	-11.9663
三十載	-11.9665
荆衡	-11.9675
百八十	-11.9681
紛綸	-11.969
十一載	-11.9695
妲	-11.9707
伋	-11.9711
虞部	-11.9712
匃奴	-11.9714
旛	-11.9715
需	-11.9715
䘚	-11.9716
扁	-11.9716
雊	-11.9716
建中元年	-11.9717
餧	-11.9717
喝	-11.9717
靳	-11.9717
狺	-11.9719
機杼	-11.9719
珩	-11.9719
袤	-11.9719
齓	-11.972
神異經	-11.9721
魯靈光殿賦	-11.9721
昉	-11.9721
唐陸宣公集卷第	-11.9722
扺	-11.9722
辛亥	-11.9722
蓂	-11.9723
彘	-11.9723
謹録奏聞	-11.9724
帀	-11.9724
楠	-11.9724
湔	-11.9725
國子司業	-11.9725
惻惻	-11.9726
睢盱	-11.9726
越絶書	-11.9726
呉越春秋	-11.9726
彥	-11.9727
太子太師	-11.9727
召募	-11.9727
薈	-11.9731
錚	-11.9731
皦	-11.9732
緱	-11.9732
八紘	-11.9733
起居郎	-11.9733
朱文公校昌黎先生集卷之	-11.9735
梨園	-11.9736
隱淪	-11.9741
採桑	-11.9743
肅穆	-11.9743
世系	-11.9745
髙力士	-11.9747
考績	-11.9748
露濕	-11.9749
漏刻	-11.9758
未可知	-11.9761
畫像	-11.9767
家僮	-11.9768
帝閽	-11.9768
摧殘	-11.9768
十洲	-11.9775
詳巻	-11.9775
佇立	-11.9776
十有六	-11.9779
囯語	-11.978
繼之以	-11.978
禄位	-11.9783
畫屏	-11.9784
華胥	-11.9784
舟航	-11.9785
鼓舞	-11.9802
棧道	-11.981
泗水	-11.9824
招隠	-11.9846
厦	-11.9846
征討	-11.9851
俗呼	-11.9854
月蝕	-11.9863
臘月	-11.9865
虎符	-11.9867
貊	-11.9867
綱紀	-11.9869
捽	-11.9871
祈雨	-11.9872
矍	-11.9873
蠹	-11.9873
裴迪	-11.9873
苹	-11.9875
柚	-11.9875
鴿	-11.9876
皥	-11.9877
正議大夫	-11.9877
舋	-11.9878
𫾣	-11.9878
甖	-11.9879
㮣	-11.9879
范睢	-11.9879
鵉	-11.988
萋	-11.988
酥	-11.988
孔穎達正義	-11.988
春申君	-11.988
檢校司空	-11.988
醨	-11.988
鸑鷟	-11.9881
霅	-11.9881
思𤣥賦	-11.9881
耿介	-11.9882
戈矛	-11.9882
釣磯	-11.9882
江西觀察使	-11.9882
李輔國	-11.9884
部員外郞	-11.9884
磵	-11.9885
咍	-11.9887
咽喉	-11.9888
挍	-11.9888
醍醐	-11.9889
金鑾殿	-11.9889
嫰	-11.9889
智慧	-11.989
長慶四年	-11.9891
琦按	-11.9892
公自謂也	-11.9892
裴冕	-11.9892
提携	-11.9892
端午	-11.9892
都䕶府	-11.9893
虖	-11.9894
燕昭王	-11.9894
刑罰	-11.9895
賢不肖	-11.9898
季冬	-11.9898
永訣	-11.9902
奴僕	-11.9905
麗藻	-11.9907
隠淪	-11.9909
錦帳	-11.9909
洙曰曹子建	-11.9914
暝色	-11.9915
傾倒	-11.9924
滻水	-11.9926
斧鉞	-11.9929
繫舟	-11.9934
元微之	-11.9936
李愬	-11.9942
落暉	-11.9946
豎子	-11.997
贈司空	-11.9985
黄金臺	-11.9987
露滴	-11.9996
侍宴	-12
獨醒	-12.0008
蠆	-12.0019
事宜狀	-12.0023
𧺫	-12.0031
璟	-12.0033
淙	-12.0033
逡廵	-12.0034
灝	-12.0035
鍤	-12.0036
踏青	-12.0037
柑	-12.0037
灔	-12.0039
衮衮	-12.004
壙	-12.0041
醯	-12.0041
帕	-12.0041
捐軀	-12.0041
陸倕	-12.0041
秘書少監	-12.0041
癸丑	-12.0041
琬	-12.0042
邯	-12.0043
扎	-12.0043
洵	-12.0044
矛㦸	-12.0046
燮	-12.0046
陞	-12.0046
睒	-12.0046
鎰	-12.0047
齟齬	-12.0048
掩扉	-12.005
肅宗即位	-12.0051
咄咄	-12.0051
缸	-12.0055
翌日	-12.0055
悠揚	-12.0056
河西尉	-12.0057
朱邸	-12.0057
廉頗	-12.0057
馳騁	-12.0058
孝亷	-12.0058
卑濕	-12.0058
十餘萬	-12.0059
丹竈	-12.0059
鵩鳥	-12.0061
彫胡	-12.0063
甲辰	-12.0063
洙曰顔延年	-12.0066
緑苔	-12.0069
瞻仰	-12.0072
王右軍	-12.0072
播遷	-12.0075
兹辰	-12.0077
閣本杭本	-12.0078
竹竿	-12.0086
律吕	-12.0086
羅網	-12.0088
九陌	-12.0089
慈惠	-12.009
何如哉	-12.0092
飄蕩	-12.0096
公之靈	-12.0099
朱絃	-12.0099
附録	-12.0104
笙竽	-12.0104
鍊師	-12.0112
二十五里	-12.0115
李紳	-12.0127
封禪書	-12.0133
臣某等	-12.0147
荆榛	-12.0152
鼔吹	-12.0166
嗟嘆	-12.0175
見二巻	-12.0184
百餘年	-12.0191
煬	-12.0195
楯	-12.0195
舠	-12.0197
崔豹古今注	-12.0197
沍	-12.0197
煌	-12.0198
蚓	-12.0199
鄯	-12.0199
黧	-12.02
喣	-12.0201
醬	-12.0201
峨嵋	-12.0201
烏夜啼	-12.0201
瑊	-12.0202
玼	-12.0203
凈	-12.0203
輊	-12.0203
燾	-12.0204
孔戣	-12.0205
箠	-12.0205
窣	-12.0206
栱	-12.0206
暘	-12.0207
岷峨	-12.0207
棼	-12.0207
迍	-12.0207
髭鬚	-12.0207
袈裟	-12.0207
楊慎曰	-12.0208
卬	-12.0208
壬辰	-12.0208
史館修撰	-12.0209
貂蟬	-12.021
江總詩	-12.0211
憬	-12.0211
劉歆	-12.0211
琚	-12.0211
簫韶	-12.0211
賒	-12.0213
户部尚書	-12.0213
萱草	-12.0214
鮐	-12.0214
咸亨	-12.0214
繐	-12.0214
菡蓞	-12.0215
梁棟	-12.0216
椒房	-12.0216
酒壚	-12.0217
端拱	-12.0218
麝香	-12.0221
毫髪	-12.0221
孟康	-12.0221
孤嶼	-12.0222
巖廊	-12.0227
癸巳	-12.0228
問訊	-12.0228
三百六十	-12.0228
滋味	-12.023
賣藥	-12.023
顔延之詩	-12.0234
陽山令	-12.0235
太常寺	-12.0236
思黯	-12.0236
蘄州	-12.0245
分閫	-12.0246
堯典	-12.0254
晚泊	-12.0256
乾符	-12.0257
虞翻	-12.0259
句踐	-12.026
神祇	-12.0262
曹參	-12.0263
敎化	-12.0264
馮宿	-12.0268
月十日	-12.0278
稷契	-12.0286
百斛	-12.0312
竭誠	-12.032
月十八日	-12.0322
億萬	-12.0337
雨霽	-12.0337
沈佺期	-12.0342
鼓瑟	-12.035
欻	-12.0363
埒	-12.0364
張晏曰	-12.0366
纇	-12.0366
李太白文集巻	-12.0366
怵惕	-12.0367
鵰鶚	-12.0367
緍	-12.0368
榱	-12.0369
篋笥	-12.0369
謹啓	-12.0369
髙士傳	-12.0369
郭景純	-12.037
迕	-12.037
惓	-12.037
擐	-12.037
阮嗣宗	-12.037
麽	-12.0371
溱	-12.0371
茘	-12.0371
宸衷	-12.0372
趙充國	-12.0372
壍	-12.0372
騶虞	-12.0372
虽	-12.0372
枻	-12.0373
剃	-12.0373
箆	-12.0373
揉	-12.0373
搜神記	-12.0374
禎卿曰此篇	-12.0374
婉孌	-12.0374
郍	-12.0374
烽燧	-12.0374
皺	-12.0375
網罟	-12.0375
蜩	-12.0375
太平御覽	-12.0376
筦	-12.0376
葵藿	-12.0376
顚倒	-12.0376
惬	-12.0377
善屬文	-12.0377
諲	-12.0378
趁	-12.0378
藜藿	-12.0379
獎	-12.0379
芭蕉	-12.038
左補闕	-12.0381
鏞	-12.0381
瞪	-12.0381
澘然	-12.0382
欽定四庫全書李太白集分類補註巻	-12.0382
今何在	-12.0383
淚痕	-12.0385
倒屣	-12.0385
嚴君平	-12.0386
東南隅	-12.0387
環珮	-12.0388
攀援	-12.0388
隱几	-12.0389
納凉	-12.039
區宇	-12.0392
奄忽	-12.0393
汎舟	-12.0402
溟海	-12.0405
莫大於	-12.0405
千鈞	-12.0408
絃管	-12.0414
姑蘇臺	-12.0416
月十二日	-12.0424
先軰	-12.0424
詔勑	-12.0425
宛陵	-12.0427
姑息	-12.0427
釣翁	-12.0435
見本巻	-12.0466
月十九日	-12.0469
戰塲	-12.0471
誠懇	-12.0472
驌驦	-12.0528
搶	-12.053
忭	-12.0533
滇	-12.0535
華州司功	-12.0535
㒹	-12.0535
楞嚴經	-12.0536
絞	-12.0537
澥	-12.0538
芊	-12.0538
豗	-12.0538
鱉	-12.0539
熒熒	-12.054
冕旒	-12.054
玳	-12.054
劉夢得文集卷第	-12.054
韡	-12.0541
夢符曰按	-12.0541
袐	-12.0541
壟	-12.0541
嶓	-12.0541
概	-12.0541
激昻	-12.0541
戈鋋	-12.0542
帝王世紀	-12.0542
熹	-12.0542
卓犖	-12.0542
箋舊書	-12.0543
懔	-12.0544
醑	-12.0544
沮洳	-12.0545
㩁	-12.0545
戴安道	-12.0546
禘祫	-12.0546
劎	-12.0546
㶚陵	-12.0547
帔	-12.0548
罏	-12.0548
熨	-12.0549
蔟	-12.055
蒯通	-12.0553
杉松	-12.0555
寨	-12.0556
井絡	-12.0557
勲庸	-12.0558
左掖	-12.056
諌議	-12.0566
鬱陶	-12.0567
月十一日	-12.0568
拜監察御史	-12.0569
謝惠連詩	-12.057
吕后	-12.0571
裴均	-12.0574
康莊	-12.0577
斥逐	-12.0578
塞垣	-12.0579
啼猿	-12.0579
秉筆	-12.0582
翕然	-12.0583
夢澤	-12.0586
倒懸	-12.0586
耿光	-12.0586
泫然	-12.0601
勒銘	-12.0629
右補闕	-12.0632
年秋作	-12.0647
叅謀	-12.0654
收拾	-12.0681
剸	-12.0704
紲	-12.0704
吿	-12.0705
奎	-12.0706
武元衡	-12.0707
晰	-12.0708
彝	-12.071
芙蕖	-12.0711
鎛	-12.0711
槧	-12.0713
接䍦	-12.0713
蘅	-12.0714
陌上桑	-12.0714
沄沄	-12.0714
觀察判官	-12.0714
繻	-12.0714
鞲	-12.0715
嗅	-12.0715
方從閣杭	-12.0716
駙馬都尉	-12.0716
枕簟	-12.0716
東川節度使	-12.0717
淒涼	-12.0717
术	-12.0717
蒼舒曰	-12.0717
八哀詩	-12.0717
劉昫唐書	-12.0717
踉	-12.0717
撾	-12.0718
尢	-12.0718
媵	-12.0718
詘	-12.0719
鐙	-12.072
渺渺	-12.0721
笠澤	-12.0721
葛巾	-12.0722
太平公主	-12.0723
李太白集分類補註巻	-12.0723
彷彿	-12.0724
短歌行	-12.0726
旰食	-12.0726
朱亥	-12.0729
炎洲	-12.073
浣紗	-12.0731
悄然	-12.0731
蕪没	-12.0735
緇衣	-12.0737
銀印	-12.0738
陷賊	-12.0738
年春作	-12.074
安祿山	-12.0743
姦邪	-12.0744
忘筌	-12.0745
十有七	-12.0746
灌口	-12.0753
姑射	-12.0753
外甥	-12.0757
蟠木	-12.0761
蕙草	-12.0764
元凱	-12.0764
杭州刺史	-12.0766
湘夫人	-12.0768
曹叅軍	-12.0774
掉頭	-12.0775
夢符曰	-12.0797
牧羊	-12.0811
百頃	-12.082
征途	-12.0838
漢明帝	-12.0843
撥亂	-12.085
月六日	-12.0853
癭	-12.0876
偵	-12.0879
溝洫	-12.0882
纆	-12.0883
月四日	-12.0883
鬯	-12.0883
殉	-12.0885
逶	-12.0885
朐	-12.0885
伍子胥	-12.0886
鱸	-12.0887
河南少尹	-12.0888
聃	-12.0888
淅淅	-12.0889
戊戌	-12.0889
鉅鹿	-12.0889
盧照隣	-12.0889
睆	-12.089
録事參軍	-12.089
瓮	-12.089
綫	-12.089
綈	-12.089
呪	-12.089
愀	-12.0891
維摩詰	-12.0891
明光殿	-12.0891
瀕	-12.0891
莧	-12.0891
騅	-12.0892
旴	-12.0892
黄鶴編在	-12.0893
傴	-12.0893
樊宗師	-12.0893
惚	-12.0893
貞元十四年	-12.0894
儲胥	-12.0895
癸酉	-12.0895
雹	-12.0896
頡利	-12.0896
的的	-12.0896
妒	-12.0896
王子喬	-12.0897
舞雩	-12.0898
衛霍	-12.0898
惶懼	-12.0898
彌綸	-12.0899
眇眇	-12.0901
亷頗	-12.0901
雇	-12.0901
諷諭	-12.0902
揮毫	-12.0904
隂鏗	-12.0904
褒斜	-12.0904
嘉蔬	-12.0905
劇談	-12.0905
貞元元年	-12.0907
盤桓	-12.0909
漂母	-12.0909
浮蟻	-12.0909
促促	-12.0913
延頸	-12.0913
爾雅翼	-12.0915
師古註	-12.0915
雍録	-12.0917
紛紜	-12.0917
庶㡬	-12.0918
后妃	-12.092
禮部員外郎	-12.0922
鹽井	-12.0925
眷屬	-12.0945
事見前巻	-12.0961
雅頌	-12.0967
爾雅釋	-12.1017
鈇	-12.1059
鯢	-12.106
齕	-12.1061
麏	-12.1062
莢	-12.1062
寗戚	-12.1063
趄	-12.1063
鯿	-12.1063
月七日	-12.1065
劉越石	-12.1065
廣絶交論	-12.1065
嗢	-12.1065
王右丞集箋注巻	-12.1065
蜻蜓	-12.1065
熬	-12.1066
蚕	-12.1067
漢武故事	-12.1067
颭	-12.1067
鑊	-12.1067
蚊蚋	-12.1068
哦	-12.1068
惣	-12.1068
徐知道	-12.1068
司議郎	-12.1069
桉	-12.1069
州刺史兼御史中丞	-12.1069
掞	-12.1069
朱瀚曰	-12.107
抹	-12.107
㪅	-12.1071
蝥	-12.1071
壬午	-12.1071
娉婷	-12.1071
俛仰	-12.1072
元和十三年	-12.1072
集目録	-12.1073
髫	-12.1073
墠	-12.1073
丙辰	-12.1074
顧盻	-12.1074
下邽	-12.1074
郃	-12.1074
西川節度使	-12.1075
荣	-12.1075
貞元二十年	-12.1077
楚辝	-12.1077
沾巾	-12.1077
鄜坊	-12.1077
皴	-12.1077
嫓	-12.1078
党項	-12.1078
秔	-12.1079
玉筯	-12.1084
筴	-12.1085
湛盧	-12.1089
羈旅	-12.1094
西南夷	-12.1098
微茫	-12.1102
渭川	-12.1104
綺麗	-12.1104
銀燭	-12.1108
郭璞註	-12.1132
百一十	-12.1137
漢匈奴傳	-12.1185
漢成帝	-12.1231
悱	-12.1234
魚袋	-12.1239
嬙	-12.1242
蓁	-12.1243
鞘	-12.1243
匕首	-12.1243
纚	-12.1244
暘谷	-12.1244
蝮蛇	-12.1244
呻	-12.1244
赬	-12.1245
輶軒	-12.1245
縊	-12.1246
斚	-12.1246
瀁	-12.1246
杇	-12.1246
洶	-12.1247
咤	-12.1248
噤	-12.1248
渤澥	-12.1248
工部侍郎	-12.1249
粃	-12.1249
檢校工部尚書	-12.1249
廵狩	-12.125
婚嫁	-12.125
懣	-12.125
迓	-12.125
太子少傅	-12.125
傚	-12.1251
譟	-12.1251
裵	-12.1251
娟	-12.1251
偘	-12.1252
胡夏客曰	-12.1252
摐	-12.1252
公孫𢎞	-12.1252
輜	-12.1252
蹴踏	-12.1252
郄詵	-12.1253
駸駸	-12.1254
楣	-12.1254
檟	-12.1254
蠻貊	-12.1254
裴令公	-12.1254
蔭	-12.1254
培	-12.1255
袪	-12.1255
祕書省	-12.1256
遁逃	-12.1256
崿	-12.1256
溘	-12.1256
吕延濟註	-12.1257
五松山	-12.1257
湎	-12.1258
芊芊	-12.1258
倀	-12.1258
几杖	-12.1258
瀚海	-12.1258
哲匠	-12.1259
値	-12.1259
榔	-12.1259
闍	-12.1259
蒼頡	-12.126
肌骨	-12.126
束縛	-12.126
漂蕩	-12.1262
橘洲	-12.1262
秣陵	-12.1263
匡衡	-12.1266
丹陛	-12.1267
元丹丘	-12.1269
竇憲	-12.127
忌諱	-12.1271
異物志	-12.1272
寳應元	-12.1276
爵禄	-12.1278
貝葉	-12.1284
松蘿	-12.1285
斧斤	-12.1305
秦昭王	-12.134
罪戾	-12.1342
玉珂	-12.1345
千株	-12.1354
晉文公	-12.1397
表臣某言臣	-12.1416
忖	-12.1426
㝛	-12.1427
瞀	-12.1427
窳	-12.1427
崔光逺	-12.1429
毉	-12.143
娣	-12.143
淅瀝	-12.143
塌	-12.1431
搦	-12.1431
坳	-12.1431
祟	-12.1431
薺	-12.1432
溟漲	-12.1433
天寳十五載	-12.1433
喉舌	-12.1434
琢磨	-12.1434
鳴鏑	-12.1434
褁	-12.1434
栁河東集巻	-12.1435
膻	-12.1435
段子璋	-12.1435
甲寅	-12.1435
盧思道	-12.1436
㽔	-12.1436
爼豆	-12.1436
聀	-12.1437
厺	-12.1438
讋	-12.1438
离	-12.1438
勗	-12.1438
鼕	-12.1439
鵷鷺	-12.144
長門賦	-12.144
旌麾	-12.1441
班固西都賦	-12.1441
犍	-12.1442
㢠	-12.1442
廷湊	-12.1443
蜘蛛	-12.1443
馹	-12.1445
衽	-12.1445
滑稽	-12.1445
嗜慾	-12.1445
枹	-12.1446
上林苑	-12.1446
栁絮	-12.1446
貞元十七年	-12.1447
斌	-12.1447
玄圃	-12.1447
拘束	-12.145
洙曰天台賦	-12.1451
瑤池	-12.1452
杓直	-12.1453
之類是也	-12.1454
澹蕩	-12.1455
秦穆公	-12.1456
蹈舞	-12.1458
殷浩	-12.146
樊籠	-12.1462
韓吏部	-12.1466
庭闈	-12.1469
宸極	-12.1471
月十六日	-12.1484
苑粹	-12.1496
禁掖	-12.1498
月二十二日	-12.1517
十有三	-12.156
杜氏通典	-12.1613
張孟陽	-12.1614
狠	-12.1614
倨	-12.1615
鏑	-12.1617
阪	-12.1618
祁連	-12.1619
戸部尚書	-12.162
考工記	-12.162
荔	-12.162
㣧	-12.162
幟	-12.1621
郛	-12.1621
過秦論	-12.1621
孔叢子	-12.1622
壃	-12.1622
衛玠	-12.1623
呦	-12.1623
緌	-12.1623
鵜	-12.1624
左金吾衛	-12.1624
顧愷之	-12.1625
涅	-12.1625
張正見詩	-12.1625
太常少卿	-12.1626
肸蠁	-12.1626
謹錄奏聞	-12.1627
都知兵馬使	-12.1627
个	-12.1628
粢盛	-12.1629
黼黻	-12.1629
茆	-12.1629
栝	-12.163
辛酉	-12.1631
搥	-12.1632
磷緇	-12.1632
毫釐	-12.1632
菰米	-12.1633
丙申	-12.1634
穹廬	-12.1634
柘枝	-12.1635
眷眷	-12.1635
簣	-12.1639
五言律詩	-12.164
赴行在	-12.164
枉渚	-12.1643
繽紛	-12.1645
緑蘿	-12.1645
臣等商量	-12.1653
典謨	-12.1656
炎凉	-12.1658
月二十日	-12.1658
府君墓誌銘	-12.1666
櫟陽	-12.1709
節度副使	-12.1738
湘浦	-12.1748
无之字	-12.1774
劌	-12.1775
徐孺	-12.1775
郊祀志	-12.178
山南西道	-12.1798
田子方	-12.1806
鞶	-12.1807
豬	-12.1809
僶俛	-12.1809
炁	-12.181
騕褭	-12.181
葅	-12.181
恚	-12.181
滲	-12.1811
驁	-12.1811
漢武内傳	-12.1811
沁	-12.1812
琅琊	-12.1812
襁	-12.1813
白鷴	-12.1813
縣開國男	-12.1813
昩	-12.1813
蜚	-12.1814
河湟	-12.1815
噭	-12.1815
嫋	-12.1815
高唐賦	-12.1815
硬	-12.1815
括地志	-12.1816
闔廬	-12.1816
噓	-12.1816
嵇叔夜	-12.1816
壬戌	-12.1816
蝦蟆	-12.1816
靚	-12.1816
襯	-12.1817
沚	-12.1817
辛卯	-12.1817
靨	-12.1817
匼	-12.1818
嫦娥	-12.1818
申涵光曰	-12.1818
丙寅	-12.1818
筋骨	-12.1819
木華海賦	-12.1819
梏	-12.182
銅雀臺	-12.182
凑	-12.182
昌黎韓愈	-12.182
畬田	-12.182
磐	-12.182
婉婉	-12.1821
亹亹	-12.1822
忱	-12.1822
虎賁	-12.1822
狼藉	-12.1823
憝	-12.1823
㩦	-12.1823
擊柝	-12.1823
蓉	-12.1823
禎祥	-12.1825
婚姻	-12.1825
巴渝	-12.1826
一百二十	-12.1827
杌	-12.1828
嶄	-12.1829
種𤓰	-12.1833
賜緋	-12.1835
並平安好遣書指不多及	-12.1835
縱橫	-12.1836
運籌	-12.1847
趙飛燕	-12.1873
冬十一月	-12.1874
閩越	-12.1878
瓊瑶	-12.1957
枸	-12.1992
嶁	-12.1998
培塿	-12.1999
嚳	-12.2002
譊	-12.2002
崪	-12.2003
輿服志	-12.2004
傖	-12.2004
醻	-12.2005
州大都督府長史	-12.2006
倔	-12.2006
畀	-12.2007
炮	-12.2007
渟	-12.2007
硉	-12.2008
鳬鷖	-12.2008
縢	-12.2008
糞壤	-12.2008
氛埃	-12.2009
爬	-12.2009
仡	-12.2009
糝	-12.2009
畯	-12.201
㙜	-12.201
燀	-12.201
厎	-12.201
魯訔	-12.2011
癸亥	-12.2011
腆	-12.2011
竸	-12.2011
黏	-12.2011
郪	-12.2011
勳	-12.2012
赧	-12.2012
闉	-12.2012
章懐太子註	-12.2012
轗軻	-12.2012
閴	-12.2013
挽歌詞	-12.2013
秭	-12.2013
悽惻	-12.2013
涿鹿	-12.2013
許孟容	-12.2014
若耶溪	-12.2014
猿狖	-12.2014
崔宗之	-12.2014
町	-12.2015
汸	-12.2015
窕	-12.2015
𫝊	-12.2015
撐	-12.2015
上柱國賜紫金魚袋	-12.2015
崙	-12.2015
鄣	-12.2016
紹述	-12.2016
低昻	-12.2016
裴延齡	-12.2016
尺寸	-12.2016
戊辰	-12.2016
溶溶	-12.2016
鞦韆	-12.2016
䙝	-12.2017
麈尾	-12.2017
俎豆	-12.2017
開元十三年	-12.2018
劵	-12.2018
吐谷渾	-12.2018
楚襄王	-12.2018
凍餒	-12.2018
篡	-12.2018
杼軸	-12.2018
琖	-12.2019
磁	-12.2019
葑	-12.2019
疊嶂	-12.202
契濶	-12.2021
溼	-12.2021
彷徨	-12.2021
歈	-12.2022
楩	-12.2023
鏟	-12.2023
廣厦	-12.2023
𦦨	-12.2023
繩墨	-12.2024
陶冶	-12.2024
摩尼	-12.2025
韋執誼	-12.2025
藤杖	-12.2026
貞元九年	-12.2027
貨財	-12.2027
鐘磬	-12.2028
邠寧	-12.203
陷京師	-12.2031
隠几	-12.2032
為賊所	-12.2033
月二十一日	-12.2034
袁宏	-12.2035
薤露	-12.2053
月二十八日	-12.207
部郞中	-12.2106
按唐史	-12.213
萬六千	-12.2151
啻	-12.2156
曹掾	-12.2186
螽	-12.2201
矉	-12.2201
璉	-12.2201
眎	-12.2202
焜	-12.2203
擿	-12.2204
未知孰是	-12.2206
騧	-12.2206
剝	-12.2207
么	-12.2207
慺	-12.2207
犁	-12.2207
瑚璉	-12.2207
薜荔	-12.2207
朓	-12.2208
伶俜	-12.2209
徔	-12.2209
賾	-12.2209
羅襪	-12.221
呻吟	-12.221
𥜗	-12.2211
𦂳	-12.2211
瑕疵	-12.2212
郅	-12.2212
蓬莱	-12.2212
苓	-12.2212
夏侯湛	-12.2213
孳	-12.2213
嵇紹	-12.2213
鳴珂	-12.2213
璆	-12.2213
贊普	-12.2214
虯	-12.2214
灕	-12.2214
彖	-12.2214
畊	-12.2215
蔥	-12.2215
鄠杜	-12.2215
朱買臣	-12.2215
纘	-12.2215
簪纓	-12.2216
𫐠	-12.2216
霊	-12.2216
見螢火賦	-12.2216
蟊	-12.2216
换	-12.2217
蓬蓽	-12.2218
臬	-12.2218
受降城	-12.2218
朱滔	-12.2219
太子詹事	-12.2219
隩	-12.2219
國史補	-12.222
偓	-12.2222
桺	-12.2222
捐館	-12.2222
束帛	-12.2222
涕零	-12.2224
豪俠	-12.2225
版築	-12.2226
蟪蛄	-12.2226
仲蔚	-12.223
霜霰	-12.2234
鵾雞	-12.2234
根株	-12.2238
唶	-12.2398
酢	-12.2405
宂	-12.2408
監察御史裏行	-12.2409
腮	-12.2409
恟	-12.2409
張燕公集巻	-12.241
烘	-12.241
鑽	-12.2411
陶𢎞景	-12.2411
瀚	-12.2411
滹	-12.2411
釘	-12.2412
沈存中	-12.2412
侏儒	-12.2412
酔	-12.2412
屧	-12.2413
錯綜	-12.2414
江淹别賦	-12.2415
韭	-12.2415
一柱觀	-12.2415
江淹恨賦	-12.2415
戊午	-12.2416
僦	-12.2416
太平廣記	-12.2416
井陘	-12.2416
牛僧孺	-12.2416
恋	-12.2416
埜	-12.2417
摶扶	-12.2417
泬	-12.2417
埭	-12.2417
吴越春秋	-12.2417
虹霓	-12.2418
緦	-12.2418
消渴	-12.2418
塾	-12.2419
謝元暉	-12.2419
慙惶	-12.2419
鼓鼙	-12.2419
鹵莽	-12.242
闚	-12.242
卨	-12.242
怱	-12.2421
䧺	-12.2421
呱	-12.2421
崐	-12.2421
搔頭	-12.2421
誹	-12.2422
碭	-12.2422
淒淒	-12.2422
裴垍	-12.2423
势	-12.2423
菼	-12.2423
璵璠	-12.2423
蒂	-12.2423
僥倖	-12.2423
彗星	-12.2425
錦官城	-12.2425
洿	-12.2426
畨禺	-12.2426
古人有言	-12.2427
𬋩	-12.2427
怡怡	-12.2428
粲粲	-12.2429
刑部郎中	-12.243
藍田尉	-12.243
把臂	-12.2431
震悼	-12.2433
㕔壁記	-12.2433
馳騖	-12.2446
頭陁	-12.2456
冥搜	-12.2473
青龍寺	-12.2474
青草湖	-12.2482
殿中監	-12.2492
昭義軍	-12.26
萇𢎞	-12.2608
麞	-12.2608
噀	-12.2611
沆	-12.2612
餬	-12.2613
坏	-12.2613
豫讓	-12.2614
磕	-12.2615
渫	-12.2615
餗	-12.2615
倕	-12.2616
膏肓	-12.2619
瑯	-12.262
睍	-12.262
餳	-12.262
濘	-12.262
郗	-12.2621
欤	-12.2621
蚡	-12.2621
昕	-12.2622
猰㺄	-12.2622
衎	-12.2622
鹵簿	-12.2622
弧矢	-12.2623
頓首頓首謹言	-12.2623
糅	-12.2623
梁父吟	-12.2624
采薇	-12.2624
阼	-12.2624
宣政殿	-12.2624
扁鵲	-12.2625
榆莢	-12.2625
赭白馬賦	-12.2625
双	-12.2625
觝	-12.2625
矰繳	-12.2626
鴻濛	-12.2626
蠢蠢	-12.2626
毛萇詩傳	-12.2626
蘋蘩	-12.2626
纁	-12.2626
偪側	-12.2627
杜詩詳註巻	-12.2627
趫	-12.2627
潘岳西征賦	-12.2628
玉川子	-12.2629
桎梏	-12.2629
嫣	-12.2629
紫宸殿	-12.2629
蝟	-12.263
皖	-12.2631
軿	-12.2631
祅	-12.2631
嚙	-12.2632
脰	-12.2632
觀察等使	-12.2632
惇	-12.2632
鄂渚	-12.2633
刓	-12.2634
仲宣樓	-12.2636
柳絮	-12.2642
髙陽池	-12.2646
懇懇	-12.2671
原禮也	-12.2796
趙次公	-12.281
炰	-12.2819
程元振	-12.2822
堊	-12.2823
輭	-12.2827
墐	-12.2828
光祿大夫	-12.2828
腫	-12.2829
詼	-12.283
贙	-12.2831
竁	-12.2831
覷	-12.2831
繾綣	-12.2831
箎	-12.2832
黻	-12.2832
貨殖傳	-12.2832
鏗鏘	-12.2832
掊	-12.2833
倅	-12.2833
皛	-12.2834
薑	-12.2834
濊	-12.2834
腥臊	-12.2835
玃	-12.2835
狴	-12.2836
雘	-12.2836
巡狩	-12.2836
賙	-12.2836
酉陽雜爼	-12.2836
唐權德輿字載之	-12.2837
犇	-12.2837
蹴踘	-12.2838
扳	-12.2838
瑞應圖	-12.2838
柱下史	-12.2838
燥濕	-12.2838
訏謨	-12.2838
髙誘註	-12.2839
伯喈	-12.2839
因以為名	-12.2839
揮霍	-12.2839
鷹鸇	-12.284
蹂	-12.284
湖南觀察使	-12.284
琬琰	-12.284
冥寞	-12.284
餔	-12.2841
杵臼	-12.2842
酡	-12.2843
碓	-12.2843
瑶瑟	-12.2843
褰裳	-12.2844
狡兔	-12.2844
饉	-12.2845
烜赫	-12.2845
别集類一	-12.2845
悽悽	-12.2845
丁卯	-12.2845
欽定四庫全書集部二	-12.2846
骨鯁	-12.2847
蒼蠅	-12.2847
窟穴	-12.2847
歐陽詹	-12.2848
廕	-12.2848
大雲寺	-12.2849
紡	-12.2851
珪璋	-12.2852
州司戸	-12.2853
謹奉狀	-12.2868
嗢沒斯	-12.2875
从諸本	-12.2965
甯	-12.2973
虎踞	-12.2986
蓐收	-12.303
等州節度	-12.3032
匕	-12.3036
岣	-12.3039
譌	-12.3042
鸜鵒	-12.3043
死罪死罪	-12.3045
地里志	-12.3046
之至謹奉表陳賀以聞	-12.3048
棻	-12.3048
邐	-12.3049
瘖	-12.3049
翣	-12.3051
蛛絲	-12.3051
䆒	-12.3052
鬒	-12.3052
脂膏	-12.3052
鯁	-12.3052
嘈	-12.3052
無任懇	-12.3052
輤	-12.3053
蝙蝠	-12.3053
膜	-12.3053
宋璟	-12.3053
噩	-12.3053
藺	-12.3053
臍	-12.3054
箕踞	-12.3054
鉦	-12.3054
筞	-12.3054
戊寅	-12.3054
貍	-12.3054
駱賔王	-12.3054
巋	-12.3054
峒	-12.3055
藜杖	-12.3055
鶴氅	-12.3055
匆	-12.3055
擁腫	-12.3055
猖	-12.3056
唁	-12.3056
应	-12.3056
左思蜀都賦	-12.3056
酈道元	-12.3056
肫	-12.3057
士贇曰樂府遺聲	-12.3057
陸費墀	-12.3058
束晳	-12.3058
颿	-12.3058
届	-12.3058
輿地志	-12.3059
粕	-12.3059
主者施行	-12.3059
坎軻	-12.3059
見四巻註	-12.306
昀	-12.306
軛	-12.306
稲	-12.3061
沆瀣	-12.3061
呼吸	-12.3061
塍	-12.3062
府君諱某	-12.3062
峨峨	-12.3063
彈碁	-12.3063
𢾗	-12.3063
稠疊	-12.3063
涕洟	-12.3064
天津橋	-12.3065
㪷	-12.3065
鷂	-12.3066
菰蒲	-12.3068
蕞	-12.3072
月恭校	-12.3074
〇修可曰	-12.309
年歲次	-12.318
垓	-12.3262
崖蜜	-12.3264
妖孽	-12.3264
枲	-12.3265
磾	-12.3266
莩	-12.3267
蜡	-12.3269
僨	-12.327
慷	-12.327
大庾嶺	-12.327
戇	-12.3271
奉宣聖旨	-12.3271
匐	-12.3271
鄭卬曰	-12.3271
兠率	-12.3272
籹	-12.3272
飴	-12.3272
拘攣	-12.3273
詠史詩	-12.3273
䆠	-12.3273
儒林傳	-12.3273
簒	-12.3274
蓐	-12.3274
淝	-12.3274
獮	-12.3274
怏怏	-12.3274
瀏	-12.3275
琤	-12.3275
洶洶	-12.3275
棠棣	-12.3275
奉表陳謝以聞	-12.3275
齗	-12.3275
顒顒	-12.3276
矻矻	-12.3276
陸長源	-12.3276
平淮西碑	-12.3276
亶	-12.3276
舳艫	-12.3277
嬋姢	-12.3277
𦕈	-12.3277
錐刀	-12.3277
婪	-12.3279
虔	-12.3279
旗幟	-12.3279
禍胎	-12.3279
坡陀	-12.3279
滕王閣	-12.3279
享年五十	-12.3279
獅	-12.3279
跼蹐	-12.328
颼飀	-12.328
间	-12.328
㦯	-12.328
順宗實録	-12.328
恢恢	-12.328
蓽	-12.328
宓妃	-12.3281
噍	-12.3281
孫士毅	-12.3281
頏	-12.3281
稳	-12.3282
汝陽王	-12.3282
鹽鐡	-12.3282
儁	-12.3282
方輿勝覧	-12.3283
䘖	-12.3283
王僧䖍	-12.3284
管輅	-12.3284
寰瀛	-12.3284
簪裾	-12.3284
軄	-12.3285
褰帷	-12.3286
錙銖	-12.3288
㝡	-12.3288
暐	-12.3288
聶政	-12.3289
混茫	-12.3291
李習之	-12.3294
山南西道節度	-12.3294
榛蕪	-12.337
薛夢符	-12.3373
屓	-12.3488
肓	-12.3491
番禺	-12.3494
蹉	-12.3495
甬	-12.3495
諌諍	-12.3496
㫄	-12.3497
丙戌	-12.3498
穰穰	-12.3498
鵁鶄	-12.3499
跬	-12.3499
嗷	-12.3499
搨	-12.35
礧	-12.35
低徊	-12.35
綍	-12.35
大理司直	-12.35
嫠	-12.35
疽	-12.3501
繰	-12.3501
悁	-12.3502
鞮	-12.3502
芻狗	-12.3503
忉	-12.3503
瓉	-12.3503
吒	-12.3504
王公大人	-12.3504
韙	-12.3504
銅鞮	-12.3504
嶸	-12.3504
馘	-12.3504
詒	-12.3505
柞	-12.3505
箇箇	-12.3505
洶湧	-12.3505
四句分截	-12.3506
砥礪	-12.3506
詈	-12.3506
珊	-12.3506
霍嫖姚	-12.3506
嶷嶷	-12.3507
誌其墓	-12.3507
咳唾	-12.3507
𡵨	-12.3507
字之訛	-12.3507
很	-12.3507
太平御覧	-12.3508
禪月集卷第	-12.3508
冺	-12.3508
糊	-12.3509
乹	-12.3509
緜緜	-12.3509
渺茫	-12.351
先賢傳	-12.351
方从閣杭	-12.351
貉	-12.3511
薩	-12.3511
范傳正	-12.3512
泱漭	-12.3512
􁒏	-12.3513
澌	-12.3514
武安君	-12.3514
裊裊	-12.3515
袞	-12.3515
恓	-12.3516
橦	-12.3517
釗	-12.3528
啅	-12.3716
苻	-12.3717
頊	-12.3721
鸝	-12.3724
璅	-12.3725
听	-12.3726
拉	-12.3728
謹以清酌	-12.3729
咬	-12.373
坡陁	-12.3731
芒碭	-12.3731
鎚	-12.3731
柬	-12.3732
胼	-12.3732
嵲	-12.3732
愔愔	-12.3732
督郵	-12.3733
姻婭	-12.3733
宋玉招魂	-12.3733
癢	-12.3734
桓譚	-12.3734
坱	-12.3735
輪囷	-12.3735
儵	-12.3735
啚	-12.3736
戕	-12.3736
单	-12.3736
佯狂	-12.3737
根柢	-12.3737
莱	-12.3737
脇	-12.3737
楊於陵	-12.3738
氂	-12.3738
巗	-12.3738
酧	-12.3738
蚪	-12.3739
張協詩	-12.3739
霓裳羽衣	-12.374
胸臆	-12.374
欃槍	-12.374
畛	-12.3741
元和郡國志	-12.3742
具悉卿	-12.3742
潘尼	-12.3743
颼颼	-12.3743
神䇿軍	-12.3743
雰	-12.3744
奕奕	-12.3745
隼旟	-12.3746
鶢鶋	-12.3746
奫	-12.3747
泓澄	-12.3749
㨂	-12.3749
疉	-12.375
縈紆	-12.3751
㕑	-12.3752
家語孔子	-12.3766
州司法	-12.3784
月二十六日	-12.393
黮	-12.3954
秬	-12.396
䄡	-12.3962
眊	-12.3963
佶	-12.3966
禘	-12.3967
茀	-12.3967
奚契丹	-12.3968
嘿	-12.3968
仿	-12.3968
溆	-12.3969
起居舎人	-12.3969
焕	-12.397
𦍑	-12.397
礦	-12.397
枳棘	-12.397
訢	-12.3971
颸	-12.3971
覘	-12.3971
蕋	-12.3972
嵆康	-12.3972
腑	-12.3972
囓	-12.3973
瓷	-12.3974
顔氏家訓	-12.3974
鐺	-12.3974
噫嘻	-12.3974
煎熬	-12.3975
宄	-12.3975
凮	-12.3975
鄭子真	-12.3975
良家子	-12.3976
釧	-12.3976
悔吝	-12.3976
蓴羮	-12.3976
郭林宗	-12.3976
矰	-12.3976
建瓴	-12.3977
菟	-12.3977
鼓枻	-12.3977
槨	-12.3977
東觀漢記	-12.3978
磷磷	-12.3978
问	-12.3978
帚	-12.3978
陸徳明	-12.3978
東武吟	-12.3979
洹	-12.3979
潑	-12.3979
痁	-12.3979
見三巻註	-12.398
羈縻	-12.398
承明廬	-12.398
攙搶	-12.3981
浥	-12.3981
蜻	-12.3981
望鄉臺	-12.3981
等謹案	-12.3981
邾	-12.3981
羾	-12.3982
射雉賦	-12.3982
増廣註釋音辯唐柳先生集卷之	-12.3982
雉堞	-12.3983
百花潭	-12.3984
萊蕪	-12.3985
靄靄	-12.3986
欸	-12.3989
枇杷	-12.3992
狎鷗	-12.4029
萬四千	-12.4031
卷之十	-12.4059
月二十三日	-12.4189
靃	-12.4198
賵	-12.4202
鼐	-12.4204
嵎	-12.4206
釃	-12.4206
頟	-12.4207
踠	-12.4208
臏	-12.4209
燬	-12.4209
臧文仲	-12.4211
祕書少監	-12.4211
咈	-12.4212
狃	-12.4213
侁	-12.4213
縗	-12.4213
翽	-12.4213
惔	-12.4214
犴	-12.4214
臲	-12.4214
亱	-12.4215
懟	-12.4215
賢良方正	-12.4215
費長房	-12.4215
砢	-12.4215
膴	-12.4216
窪	-12.4216
梁元帝纂要	-12.4217
㽵	-12.4218
東雅堂昌黎集註巻	-12.4218
觀察處置	-12.4218
趙簡子	-12.4219
枚乗七發	-12.4219
禜	-12.4219
杜正謬	-12.4219
栅	-12.422
掦	-12.422
黔婁	-12.422
闖	-12.422
葡萄	-12.422
張衡西京賦	-12.422
王昌齡	-12.4221
齠	-12.4221
箑	-12.4221
薛綜註	-12.4221
鎧	-12.4222
椅	-12.4223
杲杲	-12.4223
蜕	-12.4223
讟	-12.4223
豨	-12.4223
㗖	-12.4223
藺相如	-12.4224
㲲	-12.4224
稊	-12.4224
圬	-12.4224
羶腥	-12.4224
碪	-12.4224
見為濮	-12.4225
鏌	-12.4225
師氏曰	-12.4225
騾	-12.4225
捲簾	-12.4226
漣漪	-12.4226
蚩蚩	-12.4227
􁗠	-12.4227
胾	-12.4228
幙	-12.4235
大戴禮	-12.4235
珊珊	-12.4235
􁁚	-12.4236
個	-12.4238
琳琅	-12.4412
痔	-12.4448
麑	-12.445
菉	-12.445
紼	-12.4457
吭	-12.446
癯	-12.446
肺腑	-12.4461
扣舷	-12.4461
杠	-12.4462
裴行立	-12.4462
腎	-12.4462
鄘	-12.4463
禕	-12.4464
庥	-12.4464
彧	-12.4465
箒	-12.4465
儲光羲	-12.4465
穀梁傳	-12.4466
􁁜	-12.4466
孔文舉	-12.4466
蕊	-12.4466
灸	-12.4466
敡	-12.4466
虀	-12.4467
臣某誠惶誠恐頓首頓首	-12.4468
薾	-12.4468
李善文選註	-12.4468
萬首唐人絶句	-12.4468
穂	-12.4468
磅礴	-12.4468
娠	-12.4468
慾	-12.4469
姊妹	-12.4469
怊	-12.4469
巃嵸	-12.4469
三大禮賦	-12.4469
慳	-12.447
嘒	-12.447
炤	-12.447
撒	-12.4471
西安府	-12.4471
宋魏仲舉編	-12.4471
諸葛武侯	-12.4472
穡	-12.4472
嘐	-12.4472
箕潁	-12.4472
厖	-12.4472
㠋	-12.4472
狷	-12.4473
籓	-12.4473
擴	-12.4474
塼	-12.4474
𬗋	-12.4474
嘈嘈	-12.4475
上宰相書	-12.4476
卓文君	-12.4477
館娃宫	-12.4477
謂左右曰	-12.4477
磻	-12.4477
齷齪	-12.4478
籃轝	-12.4478
裯	-12.4479
叡	-12.4479
醮詞伏以	-12.448
竆	-12.4487
嗚呼哀哉尚饗	-12.4636
淖	-12.4702
砰	-12.4708
鏝	-12.4708
瓔	-12.4709
媧	-12.4711
盭	-12.4714
石堡城	-12.4714
㛰	-12.4715
分門集註杜工部詩卷第	-12.4716
玫瑰	-12.4716
穊	-12.4717
娜	-12.4717
埴	-12.4717
柿	-12.4717
熠燿	-12.4718
票	-12.4718
鬼谷子	-12.4718
莵	-12.4718
哥	-12.4718
梨園弟子	-12.4718
鸂鶒	-12.4718
丼	-12.4719
呷	-12.4719
涬	-12.4719
送族弟	-12.4719
夛	-12.472
塏	-12.472
硉兀	-12.4721
佽	-12.4721
訏	-12.4722
濞	-12.4722
黯黯	-12.4722
棚	-12.4722
昜	-12.4724
枳	-12.4724
浮丘公	-12.4724
閡	-12.4725
䙰	-12.4725
嘖	-12.4725
忒	-12.4725
凟	-12.4726
蹌	-12.4726
曄曄	-12.4726
島嶼	-12.4726
㡳	-12.4726
䑛	-12.4726
摸	-12.4726
醲	-12.4727
庚戌	-12.4727
餮	-12.4727
彰義軍	-12.4727
胡震亨曰	-12.4727
凌本俱作	-12.4727
沭	-12.4728
䈥	-12.4728
皇甫謐	-12.4729
李義山詩	-12.4729
曼倩	-12.4729
隗囂	-12.473
陔	-12.473
㠀	-12.473
蕕	-12.4731
者甚衆	-12.4731
蘼	-12.4731
洑	-12.4731
瑣瑣	-12.4732
輯睦	-12.4732
崕	-12.4732
漑	-12.4733
毘陵集卷第	-12.4733
苒苒	-12.4733
朱文公校昌黎	-12.4734
箬	-12.4734
詩品彚俱作	-12.4741
劉安招	-12.4751
潗	-12.4944
姫	-12.4973
長笛賦	-12.4973
喋	-12.4975
致君堯舜	-12.4975
獍	-12.4977
鍠	-12.4978
鞫	-12.4981
刑法志	-12.4981
栩	-12.4982
禠	-12.4983
舍利弗	-12.4983
祫	-12.4984
樊噲	-12.4984
螿	-12.4984
凊	-12.4985
湟	-12.4985
瘥	-12.4985
泱泱	-12.4985
欽定四庫全書東雅堂昌黎集註巻	-12.4985
浼	-12.4986
中書侍郎平章事	-12.4986
蹐	-12.4986
榿	-12.4987
閹	-12.4987
哇	-12.4987
咋	-12.4987
罌	-12.4987
容齋隨筆	-12.4987
頭陀寺碑	-12.4987
晻	-12.4989
胡應麟曰	-12.4989
鋒鋩	-12.4989
春秋元命苞	-12.499
慌	-12.499
右金吾衛	-12.4991
叱咤	-12.4991
惺	-12.4992
异	-12.4992
逭	-12.4992
胷臆	-12.4993
庀	-12.4993
諸葛孔明	-12.4994
拽	-12.4995
㕓	-12.4996
籀	-12.4996
蘢	-12.4996
蒔	-12.4996
字疑衍	-12.4996
文獻通考	-12.4996
𬈑	-12.4997
阽	-12.4998
九成宫	-12.4998
蒿萊	-12.5
甯戚	-12.509
月朔日	-12.5169
圮	-12.5238
簉	-12.5239
硠	-12.5242
聖文神武	-12.5247
奉宣聖㫖	-12.5247
鰭	-12.5247
韉	-12.5248
鑕	-12.525
鉄	-12.525
醆	-12.5251
挟	-12.5251
簋	-12.5251
雝	-12.5252
喤	-12.5252
桔	-12.5253
匌	-12.5253
左司郎中	-12.5253
胙	-12.5254
景福殿賦	-12.5254
媫妤	-12.5255
鋋	-12.5255
蘺	-12.5255
醉如泥	-12.5256
尫	-12.5256
鰓	-12.5256
甔	-12.5256
疴	-12.5256
胡三省通鑑註	-12.5256
勰	-12.5256
蒺藜	-12.5256
轔	-12.5257
蛛	-12.5257
猫	-12.5257
宋玉風賦	-12.5257
搰	-12.5257
膊	-12.5258
斖	-12.5259
博學宏詞	-12.5259
盧元昌曰	-12.5259
䭾	-12.526
蒱	-12.5261
磊磊	-12.5261
㶑	-12.5261
侫	-12.5262
葳㽔	-12.5264
肄	-12.5264
桁	-12.5266
羑	-12.5267
薏苡	-12.527
磽	-12.527
鐏	-12.5271
張守珪	-12.5272
月二十九日	-12.5313
䄍	-12.5508
楛	-12.5515
䫫	-12.552
愎	-12.5525
補注杜詩巻	-12.5525
呑	-12.5525
抶	-12.5526
殪	-12.5526
蛬	-12.5526
鐶	-12.5527
杙	-12.5527
籝	-12.5528
睎	-12.5528
菓	-12.5528
䢵	-12.5528
欽定四庫全書補注杜詩巻	-12.5528
櫚	-12.5528
㟧	-12.5529
宋黄希原本黄鶴補注	-12.5529
躑	-12.553
麕	-12.5532
螳	-12.5532
摻	-12.5532
睞	-12.5532
眚	-12.5532
噦	-12.5533
盛𢎞之荆州記	-12.5533
鄼	-12.5533
賨	-12.5534
娩	-12.5535
田弘正	-12.5535
櫝	-12.5535
李陽冰	-12.5535
蔡興宗	-12.5535
宁	-12.5536
簁	-12.5536
掁	-12.5536
釋氏要覽	-12.5536
噱	-12.5537
三足烏	-12.5538
張茂先	-12.5538
曺子建	-12.5538
矮	-12.5539
駱賓王	-12.5539
稿	-12.5539
兜	-12.554
鶗鴂	-12.554
熒煌	-12.554
闤	-12.554
罸	-12.554
偹	-12.5541
棖	-12.5541
顕	-12.5541
鏌鎁	-12.5542
瞢	-12.5543
歕	-12.5543
瓏	-12.5543
媾	-12.5544
𥚹	-12.5544
狁	-12.5545
嘹唳	-12.5545
駘	-12.5545
軋軋	-12.5545
謝莊月賦	-12.5546
煢	-12.5806
橜	-12.5806
窀穸	-12.5808
明皇御製	-12.5808
嘵	-12.581
桔橰	-12.5814
瑛	-12.5814
蜉蝣	-12.5814
屼	-12.5816
㧾	-12.5816
煇	-12.5816
含元殿	-12.5817
骭	-12.5817
酈食其	-12.5817
蔡伯世	-12.5818
褓	-12.5819
翁文堯	-12.5819
覡	-12.5819
牌	-12.582
璵	-12.582
腊	-12.582
詖	-12.5821
敢昭告于	-12.5821
愓	-12.5821
袝	-12.5822
史記索隠	-12.5822
罾	-12.5822
怱怱	-12.5823
趼	-12.5823
醸	-12.5823
趙汸注	-12.5824
鴦	-12.5824
瀦	-12.5824
此章四句起	-12.5824
嚴助傳	-12.5824
此章前二段各	-12.5824
袷	-12.5825
邐迤	-12.5825
氲	-12.5825
漢舊儀	-12.5826
飊	-12.5826
刦	-12.5826
滏	-12.5826
李肇國史補	-12.5826
儘	-12.5826
撚	-12.5827
宋景文	-12.5827
伯夷叔齊	-12.5827
痍	-12.5827
丰	-12.5827
牒奉䖏分	-12.5827
鄷	-12.5827
崷	-12.5828
未之有也	-12.5828
涖	-12.5828
楮	-12.583
汍瀾	-12.583
蝇	-12.583
孃	-12.5832
來何遲	-12.5832
凛凛	-12.5832
坎壈	-12.5832
朦朧	-12.5835
嶇	-12.5836
跧	-12.5839
樊川文集第	-12.5843
萑	-12.609
榾	-12.6097
匯	-12.61
癰	-12.61
慠	-12.61
漰	-12.6102
懊	-12.6103
揵	-12.6104
駉	-12.6105
孝祥曰	-12.6105
轇轕	-12.6106
閾	-12.6106
㸦	-12.6106
䯻	-12.6106
糈	-12.6107
徬徨	-12.6107
粻	-12.6107
棕	-12.6108
孥	-12.6108
紫極宫	-12.6108
李龜年	-12.6109
洞簫賦	-12.6109
浞	-12.6111
軔	-12.6112
秊	-12.6112
矹	-12.6112
蝮	-12.6112
詛	-12.6112
奉宣進止	-12.6112
适	-12.6114
櫺	-12.6114
㾕	-12.6114
帨	-12.6115
顱	-12.6115
譸	-12.6115
輳	-12.6115
佻	-12.6115
踶	-12.6115
剞	-12.6115
羝	-12.6116
㜸	-12.6116
進學解	-12.6116
錢塘王𤦺撰	-12.6116
倏	-12.6116
檢校尚書左僕射	-12.6116
湼	-12.6116
􁔾	-12.6117
盧世㴶曰	-12.6118
𨗳	-12.6118
崎嶇	-12.6118
叵	-12.6118
幬	-12.6118
賮	-12.6119
放生池	-12.6119
垞	-12.6119
淳于髠	-12.6119
熲	-12.6119
仲山甫	-12.6119
刁	-12.6119
朝朝暮暮	-12.6119
鄜畤	-12.612
殍	-12.612
懍	-12.6121
檢校尚書右僕射	-12.6122
帑	-12.6123
匄	-12.6125
嵳峩	-12.6125
昈	-12.6126
獫	-12.6127
㳫	-12.6127
祏	-12.6127
漼	-12.6127
媮	-12.6128
唧唧	-12.6128
曨	-12.6129
怫	-12.613
醮詞伏聞	-12.6132
抖擻	-12.6133
參同契	-12.6135
㗸	-12.6139
瑠璃	-12.614
葹	-12.6394
鄱	-12.6397
左傳昭公	-12.6398
跟	-12.64
嶙峋	-12.6403
蠭	-12.6403
禖	-12.6404
嚘	-12.6404
㲉	-12.6405
蒼舒曰右按	-12.6407
齅	-12.6407
鵂	-12.641
蕝	-12.641
夣符曰	-12.6411
笱	-12.6411
張協七命	-12.6412
鴒	-12.6413
嘷	-12.6413
盖嘉運	-12.6413
瞭	-12.6413
魋	-12.6415
薝蔔	-12.6415
跗	-12.6415
荏	-12.6415
漦	-12.6416
轔轔	-12.6416
紉	-12.6416
獯	-12.6416
吃	-12.6417
硜	-12.6417
絺綌	-12.6417
天下兵馬元帥	-12.6417
怵	-12.6418
瘍	-12.6418
甎	-12.6418
韈	-12.6419
柳河東集巻	-12.6419
左驍衛	-12.6419
哆	-12.6419
䥫	-12.6419
韲	-12.6419
剜	-12.6419
諴	-12.6419
蠁	-12.642
李文饒文集卷第	-12.642
挼	-12.642
讞	-12.642
錘	-12.642
嵽	-12.642
噂	-12.6421
揃	-12.6421
攤	-12.6421
箧	-12.6421
皮日休	-12.6422
泱	-12.6422
鼂	-12.6423
宓子賤	-12.6423
剉	-12.6423
鉶	-12.6423
籞	-12.6423
荆楚嵗時記	-12.6425
簀	-12.6425
憀	-12.6425
岨	-12.6425
怍	-12.6426
岧嶤	-12.6427
盩	-12.6427
怏	-12.6427
三館本	-12.6427
閠	-12.6427
蟣	-12.6428
唅	-12.6428
皚皚	-12.6429
左武衛	-12.643
饞	-12.6433
营	-12.6434
煽	-12.6716
蜮	-12.6719
嵂	-12.672
憒	-12.672
筐篚	-12.672
鯽	-12.6722
溲	-12.6722
輞	-12.6723
诗	-12.6723
坱圠	-12.6723
贔	-12.6723
厶	-12.6723
窽	-12.6724
瑪瑙	-12.6725
褫	-12.6725
瞠	-12.6726
黝	-12.6726
玫	-12.6726
隋開皇	-12.6726
權徳輿	-12.6726
帟	-12.6727
壒	-12.6727
抨	-12.6727
蔡邕獨斷	-12.6727
武王伐紂	-12.6727
魚朝恩	-12.6728
嗛	-12.6728
遝	-12.6728
翻譯名義	-12.6728
鵕䴊	-12.6728
羖	-12.6728
衺	-12.6729
枘	-12.673
樂史寰宇記	-12.673
􁀊	-12.673
廋	-12.6731
鋌	-12.6731
墩	-12.6731
蒋	-12.6731
謪	-12.6732
樅	-12.6732
蜿蜒	-12.6732
蹀躞	-12.6732
傳燈録	-12.6732
煒	-12.6733
咷	-12.6733
丁令威	-12.6734
將仕郎守	-12.6734
王充論衡	-12.6734
從父弟	-12.6735
窱	-12.6735
玻	-12.6736
狻	-12.6736
董彦逺	-12.6736
串	-12.6737
見七巻註	-12.6737
僰	-12.6738
臣某誠歡誠喜頓首頓首	-12.6738
姱	-12.6738
蝀	-12.6739
髒	-12.6739
長沙王太傅	-12.6739
蟇	-12.6742
鷫	-12.6743
芃	-12.6743
迃	-12.6744
太宗文皇帝	-12.6745
鞾	-12.6746
楊盈川	-12.6748
事並見前	-12.6749
顧元緯	-12.7024
蓏	-12.7037
屩	-12.7037
痡	-12.7038
茄	-12.704
砮	-12.7042
努	-12.7044
舞劒器	-12.7044
栟	-12.7044
彜	-12.7046
亀	-12.7046
粢	-12.7046
􁊨	-12.7047
其可得乎	-12.7047
潩	-12.7048
麛	-12.7048
姢姢	-12.7048
諄諄	-12.7048
桂苑茟耕集卷之	-12.7049
鳧	-12.7049
皪	-12.7049
秤	-12.7049
􁘌	-12.7049
斮	-12.7049
劉淵林	-12.705
厩	-12.705
蕖	-12.7051
㦄	-12.7052
煨	-12.7052
醥	-12.7052
五百家註柳先生集巻	-12.7052
騣	-12.7052
即皇帝位	-12.7052
騭	-12.7053
八月十五夜	-12.7053
䃘	-12.7053
筩	-12.7054
朝請大夫	-12.7054
劂	-12.7054
攙	-12.7054
隑	-12.7054
申包胥	-12.7055
蕣	-12.7055
笴	-12.7055
嬈	-12.7056
焼	-12.7056
㒒	-12.7056
盧照鄰	-12.7056
廙	-12.7056
汞	-12.7056
芾	-12.7057
挲	-12.7057
型	-12.7057
窹	-12.7057
唐栁宗元撰	-12.7058
鯖	-12.7058
籃	-12.7058
僕固懐恩	-12.7058
淛	-12.7059
蠕	-12.7059
嚶嚶	-12.7059
晬	-12.7059
鄭箋曰	-12.7059
想宜知悉	-12.7059
齪齪	-12.7059
琇	-12.7059
釜	-12.706
忡忡	-12.706
䄈	-12.706
騏	-12.7061
洸洸	-12.7061
咲	-12.7062
鞿	-12.7062
年春正月	-12.7062
筲	-12.7062
昃	-12.7062
妺	-12.7062
檮	-12.7063
絏	-12.7063
枌	-12.7064
渢	-12.7065
巂	-12.7065
蠒	-12.7065
剄	-12.7065
踦	-12.7066
逌	-12.7067
苽	-12.7068
醁	-12.7068
艤	-12.7072
寍	-12.7072
残	-12.7074
灯	-12.7366
鸊鵜	-12.7371
螾	-12.7372
叚子璋	-12.7377
茜	-12.7379
爺	-12.7379
柸	-12.7379
牣	-12.738
倛	-12.738
縣開國伯	-12.738
灋	-12.738
慜	-12.7381
左太沖	-12.7382
燻	-12.7382
蟉	-12.7382
唐李白撰	-12.7382
詫	-12.7383
銀靑光祿大夫	-12.7383
篔簹	-12.7383
仁和趙殿成撰	-12.7384
澍	-12.7384
鶖	-12.7385
蜒	-12.7385
鬧	-12.7385
爆	-12.7385
范彦龍	-12.7385
神策軍	-12.7386
幪	-12.7386
廌	-12.7386
歠	-12.7386
薌	-12.7386
諗	-12.7386
集古録	-12.7387
歐冶子	-12.7387
玭	-12.7388
跱	-12.7388
郱	-12.7388
鸂䳵	-12.7388
忸	-12.7388
竚	-12.7389
灧	-12.7389
蓺	-12.7389
梁氏編在	-12.7389
轜	-12.7389
張綖注	-12.7389
桓譚新論	-12.7389
永㤗元年	-12.7389
𧹞	-12.7389
都虞候	-12.7389
搒	-12.739
㠝	-12.739
揲	-12.739
兊	-12.739
捋	-12.7391
通議大夫	-12.7391
觖	-12.7393
曀	-12.7393
鶂	-12.7393
卸	-12.7393
拚	-12.7394
厔	-12.7394
徉	-12.7394
囹圄	-12.7395
簜	-12.7395
矟	-12.7395
黠戞斯	-12.7395
跽	-12.7396
猊	-12.7396
衂	-12.7398
篚	-12.7399
蹷	-12.7399
磋	-12.7399
泪	-12.74
嚥	-12.74
葪	-12.74
西清詩話	-12.74
鳲	-12.7402
翌	-12.771
䠞	-12.7712
鯈	-12.7716
傒	-12.7716
摰	-12.7716
珞	-12.7717
欂	-12.7717
毆	-12.7718
邰	-12.772
絙	-12.7721
公孫大娘	-12.7722
陕	-12.7722
賛善大夫	-12.7723
輶	-12.7723
疥	-12.7724
莪	-12.7724
饜	-12.7724
斆	-12.7725
荊	-12.7725
禡	-12.7726
麯	-12.7726
舳	-12.7726
兗	-12.7726
楞	-12.7727
𣸪	-12.7727
蚍	-12.7727
㓪	-12.7727
蠓	-12.7727
噏	-12.7727
蜉	-12.7727
蠛	-12.7727
潬	-12.7727
擥	-12.7727
噞	-12.7728
螗	-12.7728
猝	-12.7729
吮	-12.7729
陘	-12.7729
縣開國子	-12.7729
渊	-12.7729
谁	-12.7729
摳	-12.7729
姁	-12.7729
主父偃	-12.773
公諱某字某	-12.773
你	-12.773
京師戒嚴	-12.7731
櫩	-12.7731
熛	-12.7731
鰕	-12.7732
侗	-12.7732
剩	-12.7732
騋	-12.7732
楂	-12.7732
養由基	-12.7733
肚	-12.7733
庄	-12.7733
鼬	-12.7733
鷦	-12.7733
䏑	-12.7733
糚	-12.7733
漓	-12.7734
旖旎	-12.7734
躞	-12.7734
虓	-12.7734
溽	-12.7734
内侍省	-12.7734
摋	-12.7734
晼	-12.7735
痒	-12.7735
褕	-12.7735
蚋	-12.7735
扛	-12.7735
踟	-12.7736
仲長統	-12.7736
瑇瑁	-12.7736
贋	-12.7736
蘊	-12.7737
盬	-12.7737
綺里季	-12.7737
顔魯公文集	-12.7738
痏	-12.7738
鵑	-12.7739
塑	-12.7739
贔屭	-12.7739
婀娜	-12.7739
蠨蛸	-12.7739
搘	-12.774
倭	-12.774
肻	-12.774
捃	-12.7741
茝	-12.7741
刅	-12.7742
鐔	-12.7743
憧憧	-12.7743
骯	-12.7743
嚲	-12.7743
鸘	-12.7743
縂	-12.7744
拲	-12.7746
画	-12.7751
嗚呼痛哉	-12.7751
磑	-12.7756
梔	-12.8057
靺	-12.8061
黤	-12.8063
􁀱	-12.8065
病𧺫見	-12.8066
姹	-12.8069
穟	-12.8071
㷀	-12.8073
副大使知節度事	-12.8074
嬋	-12.8078
眡	-12.8078
粔	-12.8078
媟	-12.8078
溵	-12.8079
喟	-12.8079
浟	-12.808
鐍	-12.8081
嘬	-12.8081
宐	-12.8081
謝惠連雪賦	-12.8082
夹	-12.8083
湞	-12.8084
嘴	-12.8084
宋齊梁陳	-12.8084
劑	-12.8084
臟	-12.8085
雲笈七籖	-12.8085
佷	-12.8086
稂	-12.8086
趋	-12.8087
驊	-12.8087
澨	-12.8087
勤政樓	-12.8087
肪	-12.8088
㴩	-12.8089
觕	-12.8089
臮	-12.8089
穸	-12.8089
顇	-12.8089
哢	-12.8089
陊	-12.809
驔	-12.809
紕	-12.809
牗	-12.8091
悮	-12.8091
罃	-12.8092
戅	-12.8092
蛭	-12.8092
趙云上兩句	-12.8092
櫐	-12.8093
戺	-12.8093
轅下駒	-12.8093
篷	-12.8093
觱篥	-12.8093
古今樂録	-12.8094
睱	-12.8094
髑髏	-12.8096
陡	-12.8096
柅	-12.8096
閣李杭	-12.8096
恒河沙	-12.8097
牾	-12.8097
毛穎傳	-12.8098
秫	-12.8098
韔	-12.8098
蹮	-12.8099
涴	-12.8099
賀赦表	-12.8099
㫺	-12.8101
娼	-12.8102
功成名遂	-12.8102
𠖇	-12.8104
㸌	-12.8106
挶	-12.8426
嵆	-12.844
趑	-12.8443
摚	-12.8443
貐	-12.8448
髽	-12.8448
袋	-12.8448
聱	-12.8449
軆	-12.845
袿	-12.845
葯	-12.845
洳	-12.8451
袚	-12.8452
趯	-12.8453
倜	-12.8453
篪	-12.8454
診	-12.8454
蘇内翰	-12.8454
臚	-12.8454
还	-12.8454
唫	-12.8454
魍	-12.8455
嵫	-12.8455
咢	-12.8455
芧	-12.8455
捭	-12.8455
臑	-12.8456
簦	-12.8456
􁩂	-12.8457
十六國春秋	-12.8458
蚴	-12.8458
荳	-12.8459
鎌	-12.8459
熇	-12.8459
啗	-12.846
牂牁	-12.846
因話録	-12.846
嵇康琴賦	-12.846
徂徠山	-12.8461
闒	-12.8461
溍	-12.8462
與吳質書	-12.8462
蘸	-12.8463
晙	-12.8463
娭	-12.8463
淊	-12.8463
崆	-12.8463
屛	-12.8463
晣	-12.8464
籲	-12.8464
䜿	-12.8464
藎	-12.8465
蜯	-12.8465
瓴	-12.8465
蔦	-12.8465
喈	-12.8466
刜	-12.8467
緻	-12.8467
鄽	-12.8468
麫	-12.8469
貅	-12.8469
猘	-12.8472
覦	-12.8473
彍	-12.8475
櫃	-12.8477
毯	-12.848
郾	-12.8814
駪	-12.882
抔	-12.8822
邽	-12.8825
忮	-12.8826
䝟	-12.8827
剠	-12.8827
簳	-12.883
搪	-12.883
筳	-12.8831
焄	-12.8832
摎	-12.8833
螂	-12.8834
燒絶棧道	-12.8836
篥	-12.8836
䏰	-12.8836
孔穎達	-12.8837
慥	-12.8837
㔩	-12.8839
佃	-12.8839
臙	-12.8839
舴艋	-12.8839
恇	-12.884
凴	-12.884
輵	-12.884
碼碯	-12.884
鍪	-12.884
蜓	-12.884
郊特牲	-12.884
甪	-12.8841
􁐻	-12.8841
姢	-12.8841
松維保三州	-12.8841
螮	-12.8842
芲	-12.8842
疢	-12.8842
籺	-12.8842
籕	-12.8843
八月十五日夜	-12.8843
李文巻第	-12.8843
弢	-12.8843
澷	-12.8844
勷	-12.8844
鎪	-12.8844
斿	-12.8845
翰林院編修仇兆鰲撰	-12.8846
謹奉表以聞	-12.8846
耇	-12.8846
鰌	-12.8847
敇	-12.8847
璃	-12.8847
溔	-12.8849
漢循吏傳	-12.885
梁昭明太子	-12.885
窖	-12.8851
左㪚騎常侍	-12.8851
嘽	-12.8851
糵	-12.8851
珦	-12.8852
闟	-12.8852
擡	-12.8852
犲	-12.8853
率府胄曹	-12.8854
􁘡	-12.8856
􁃵	-12.8857
洌	-12.8858
攲	-12.8859
䓗	-12.8859
莓	-12.886
遣書指不多及	-12.8862
郜	-12.8863
閶	-12.9144
蝝	-12.9219
鱍	-12.9221
琹	-12.9227
芼	-12.9228
瑁	-12.9229
谽	-12.9229
枋	-12.923
謹以清酌庶羞之奠	-12.9231
塈	-12.9232
姉	-12.9232
窫	-12.9232
孟秋之月	-12.9232
嘨	-12.9233
痿	-12.9234
㺑	-12.9234
窬	-12.9235
綢	-12.9236
澎	-12.9236
蘩	-12.9237
湲	-12.9237
确	-12.9237
滚	-12.9238
辮	-12.9238
瑘	-12.9239
明皇雜録	-12.9239
櫸	-12.924
摺	-12.9241
爝	-12.9241
楊叛兒	-12.9241
蘗	-12.9242
豉	-12.9242
氍	-12.9242
鍧	-12.9243
攴	-12.9243
輿地廣記	-12.9243
柢	-12.9243
歜	-12.9244
戟	-12.9244
讖	-12.9244
霣	-12.9245
稌	-12.9245
窙	-12.9246
敓	-12.9246
﨑	-12.9246
烏皮几	-12.9247
澇	-12.9247
艓	-12.9248
漵	-12.9249
蟨	-12.9249
漩	-12.925
㴠	-12.9251
蜋	-12.9251
軷	-12.9251
詿	-12.9251
襖	-12.9251
碍	-12.9253
迯	-12.9253
姆	-12.9253
港	-12.9254
䋣	-12.9254
刲	-12.9254
甈	-12.9255
直言極諫	-12.9255
时	-12.9255
蜑	-12.9255
独	-12.9256
暹	-12.9257
襞	-12.9257
𤇺	-12.9258
誾	-12.9258
頞	-12.9641
砯	-12.9643
瘻	-12.9644
㪍	-12.9644
荗	-12.9645
騕	-12.9647
孔稚圭	-12.9647
灵	-12.9649
靷	-12.9649
湃	-12.965
眘	-12.965
靸	-12.9651
搉	-12.9651
門下侍郎平章事	-12.9651
筥	-12.9651
砭	-12.9651
蜥	-12.9651
哤	-12.9652
阁	-12.9653
氶	-12.9653
歔	-12.9653
怩	-12.9654
韻語陽秋	-12.9655
䨴	-12.9655
畸	-12.9655
鄆曹濮	-12.9656
昫	-12.9656
鵒	-12.9656
灊	-12.9656
傃	-12.9657
霮	-12.9657
鶹	-12.9657
爚	-12.9657
唼	-12.9658
腔	-12.9659
嚶	-12.9659
洸	-12.9659
右龍武軍	-12.9659
愾	-12.966
􁧑	-12.966
奧	-12.966
徨	-12.966
傜	-12.966
􁡾	-12.966
珽	-12.9661
隴西成紀人	-12.9661
枰	-12.9662
漻	-12.9662
霶	-12.9662
葳	-12.9663
麵	-12.9663
祼	-12.9664
肎	-12.9665
繅	-12.9665
王康琚	-12.9666
旓	-12.9666
狶	-12.9666
翆	-12.9666
亹	-12.9667
徜	-12.9667
峕	-12.9667
槲	-12.9667
魃	-12.9667
軹	-12.9667
矝	-12.9667
嗚呼哀㢤	-12.9668
任彦昇	-12.9668
戻	-12.9668
脗	-12.9668
縋	-12.9669
獬	-12.9669
语	-12.967
彯	-12.9671
􁃜	-12.9671
散大夫使持節常州諸軍事守常州刺史	-12.9675
偲	-12.9679
俙	-12.968
硩	-12.9681
啓某啓某	-12.9683
嚄	-13.0066
蟯	-13.0067
櫧	-13.0072
洫	-13.0073
䍧	-13.0076
奰	-13.0077
狄仁傑	-13.008
鱮	-13.008
惛	-13.0081
楗	-13.0084
燖	-13.0084
䏶	-13.0084
魑	-13.0084
䥴	-13.0085
懇悃之至	-13.0085
筆不停綴	-13.0087
鯪	-13.0087
敭	-13.0089
螻	-13.0089
玉樹後庭花	-13.0089
麒	-13.0089
卼	-13.009
篸	-13.009
罫	-13.009
萄	-13.009
躪	-13.009
跐	-13.0091
鮮于仲通	-13.0091
瑚	-13.0091
見帝京篇	-13.0092
曅	-13.0092
矌	-13.0092
僕固懷恩	-13.0092
搤	-13.0093
岵	-13.0093
代宗幸陜	-13.0093
秧	-13.0093
篾	-13.0094
噲	-13.0094
鵡	-13.0094
落而變衰	-13.0094
轘	-13.0094
洊	-13.0095
醱	-13.0095
汊	-13.0095
鷟	-13.0095
砉	-13.0096
髳	-13.0096
飰	-13.0096
籯	-13.0096
肹	-13.0096
觀者如堵	-13.0096
薅	-13.0096
淰	-13.0097
瞩	-13.0097
絀	-13.0097
芭	-13.0097
三輔黄圗	-13.0097
同詠裴廸	-13.0097
珏	-13.0098
飃	-13.0098
酇	-13.0098
衱	-13.0098
綣	-13.0098
裌	-13.0099
㬰	-13.0099
齊民要術	-13.01
蹰	-13.01
仳	-13.0101
藋	-13.0101
腓	-13.0101
枒	-13.0101
闠	-13.0101
圏	-13.0102
斲	-13.0102
迩	-13.0102
廚	-13.0102
龢	-13.0102
縝	-13.0104
䕭	-13.0104
执	-13.0105
􁋊	-13.0105
煤	-13.0105
襍	-13.0105
庿	-13.0105
遰	-13.0106
墯	-13.0106
惙	-13.0107
齩	-13.0107
茒	-13.0107
憗	-13.0108
癃	-13.0109
惆	-13.0109
如䝉允許	-13.0139
嬃	-13.052
媌	-13.0528
罛	-13.053
􁊥	-13.0531
睅	-13.0532
勩	-13.0533
何處春深好春深	-13.0534
眦	-13.0535
騞	-13.0536
唏	-13.0536
樂府古題要解	-13.0537
綌	-13.0538
沌	-13.0538
夬	-13.0538
檛	-13.0539
􁈡	-13.0539
絣	-13.0539
唐元次山文集	-13.054
紖	-13.0541
啣	-13.0543
崢	-13.0543
麩	-13.0543
繙	-13.0543
勠	-13.0544
氾	-13.0544
梠	-13.0544
槱	-13.0544
腠	-13.0544
劉孝威詩	-13.0545
嶰	-13.0545
枵	-13.0545
涣	-13.0545
白氏文集巻第	-13.0546
鍚	-13.0547
嫫	-13.0547
嗾	-13.0548
燐	-13.0548
胏	-13.0548
蜴	-13.0548
螯	-13.0549
櫽	-13.0549
姣	-13.0549
博學宏辭	-13.0549
捄	-13.0549
栴	-13.055
堮	-13.055
咳	-13.055
描	-13.055
􁀿	-13.0551
同中書門下三品	-13.0551
禫	-13.0551
惷	-13.0551
滳	-13.0551
景定建康志	-13.0551
捺	-13.0552
郟	-13.0552
褉	-13.0552
嚻	-13.0552
吾亦愛吾	-13.0553
兩段各十	-13.0553
斕	-13.0553
竱	-13.0553
嬀	-13.0553
燁	-13.0553
綷	-13.0553
顉	-13.0553
鸇	-13.0554
茁	-13.0555
􁊫	-13.0555
驀	-13.0555
跏	-13.0555
牴	-13.0555
眯	-13.0555
謷	-13.0556
欬	-13.0556
耴	-13.0556
乾隆四十六年	-13.0558
扑	-13.0559
惝	-13.0559
鍾嶸詩品	-13.056
􁑭	-13.0561
㰱	-13.0561
嶙	-13.0563
䆮	-13.0563
虡	-13.0563
慇	-13.0564
嚌	-13.0566
千牛備身	-13.0575
墢	-13.0575
唐賈浪仙長江集	-13.0575
憕	-13.0577
轕	-13.0991
鬤	-13.0991
姚少監詩集卷第	-13.0996
瘤	-13.0998
鮭	-13.0999
兟	-13.0999
翡	-13.1002
皿	-13.1005
靮	-13.1008
潺	-13.1008
蒻	-13.1009
邳	-13.101
犗	-13.101
倍萬恒情	-13.1011
喃	-13.1013
攟	-13.1013
漶	-13.1013
靁	-13.1014
􁑬	-13.1014
饘	-13.1015
䄖	-13.1015
髹	-13.1015
猩	-13.1016
𤏡	-13.1016
癈	-13.1016
倈	-13.1016
鬷	-13.1016
珈	-13.1016
耜	-13.1017
侹	-13.1018
吺	-13.1018
嫪	-13.1018
炉	-13.1018
梲	-13.1018
樠	-13.1019
鉟	-13.1019
瀯	-13.1019
揶	-13.102
諏	-13.102
南郭子綦	-13.1021
砅	-13.1021
秕	-13.1021
碨	-13.1022
僴	-13.1022
節度副大使	-13.1022
橑	-13.1023
迾	-13.1023
擉	-13.1024
咫	-13.1024
鮓	-13.1024
帓	-13.1025
寀	-13.1025
劼	-13.1025
謖	-13.1026
狽	-13.1026
散官勲封如故	-13.1027
悢	-13.1027
蟆	-13.1027
䘵	-13.1027
澦	-13.1027
躊	-13.1027
孔頴達正義	-13.1028
蒺	-13.1028
𧦬	-13.1028
媸	-13.1028
慴	-13.1028
淆	-13.1029
滙	-13.1029
覼	-13.1029
磎	-13.103
襚	-13.1031
詄	-13.1031
抆	-13.1032
簨	-13.1032
􁀾	-13.1032
嚵	-13.1032
周靈王太子晉	-13.1032
蹠	-13.1032
㕙	-13.1033
䔧	-13.1033
食邑三百户	-13.1034
岏	-13.1034
穣	-13.1034
續齊諧記	-13.1035
蛉	-13.1035
鋟	-13.1035
霂	-13.1036
叉	-13.1036
頖	-13.1037
齪	-13.1039
𠂻	-13.1041
仔	-13.1041
佀	-13.1042
屝	-13.1044
玕	-13.1424
蠍	-13.1458
娙	-13.1503
蠋	-13.1504
鏇	-13.1509
枅	-13.1509
伹	-13.151
抝	-13.1511
箘	-13.1512
薖	-13.1512
憙	-13.1512
螣	-13.1514
鬘	-13.1514
篩	-13.1514
佁	-13.1515
褏	-13.1515
鸂	-13.1515
跲	-13.1516
鱟	-13.1516
榞	-13.1517
僎	-13.1518
麚	-13.1518
孝經援神契	-13.1519
辞	-13.1519
瓣	-13.1519
騀	-13.1519
絍	-13.152
荄	-13.152
鈕	-13.1521
韮	-13.1521
瀹	-13.1521
阹	-13.1522
槭	-13.1522
惮	-13.1522
貶台州司户	-13.1522
㬥	-13.1523
心折骨驚	-13.1523
欱	-13.1524
鶼	-13.1524
褎	-13.1524
薛曰右按	-13.1524
觔	-13.1524
樾	-13.1524
見靈泉頌	-13.1525
倥	-13.1525
噣	-13.1525
劉随州文集卷第	-13.1525
徘	-13.1525
魈	-13.1525
憮	-13.1525
黄庭内景經	-13.1525
諄	-13.1525
墁	-13.1526
跜	-13.1527
躨	-13.1527
邵氏聞見録	-13.1527
劚	-13.1527
麂	-13.1527
驎	-13.1527
原本韓集考異巻	-13.1528
䓤	-13.1528
儜	-13.1528
耰	-13.1528
轉蓬離本根	-13.1528
歙縣汪立名編長慶集	-13.1529
鍇	-13.1529
踡	-13.1529
韓集舉正巻	-13.153
崘	-13.153
漘	-13.153
澑	-13.1531
鵙	-13.1531
竹溪六逸	-13.1531
迮	-13.1531
蹡	-13.1531
瘢	-13.1532
􁐍	-13.1532
耉	-13.1533
玲	-13.1533
襌	-13.1534
㯽	-13.1534
史記正義括地志云	-13.1534
灎	-13.1535
禂	-13.1536
焮	-13.1536
侠	-13.1536
飧	-13.1536
㛹	-13.1536
釣磯文集卷第	-13.1536
崚	-13.1537
沈下賢文集卷苐	-13.1537
㵎	-13.1537
娖	-13.1538
劉夢得外集卷第	-13.154
畣	-13.154
懃	-13.1541
揠	-13.1542
東雅堂昌黎外集註巻	-13.1542
駱賔王文集卷第	-13.1543
錢考功集卷第	-13.1544
􁈯	-13.1544
小功不稅	-13.1553
紇扢斯	-13.1572
斜又一首何處春深好春深	-13.2015
㑥	-13.203
麰	-13.2036
鰋	-13.2037
鄄	-13.2038
晱	-13.2038
唐甫里先生文集卷之	-13.2038
巓	-13.2038
誤今校正	-13.2039
牷	-13.2039
嚅	-13.2039
唐丞相曲江張先生文集卷之十	-13.204
旄頭胡星也	-13.2041
窞	-13.2041
蕷	-13.2041
銼	-13.2041
䖟	-13.2041
薯	-13.2042
鈷鉧潭	-13.2042
贛	-13.2042
呴	-13.2043
桅	-13.2043
洱	-13.2044
闑	-13.2045
糇	-13.2045
慁	-13.2045
柹	-13.2045
璲	-13.2045
抺	-13.2046
邢昺疏	-13.2046
蠔	-13.2046
脹	-13.2047
竞	-13.2048
鬖	-13.2048
娉	-13.2049
輘	-13.2049
桎	-13.2049
橛	-13.2049
屮	-13.2049
憃	-13.2049
皮日休文集卷第	-13.2049
卅	-13.205
圑	-13.205
攏	-13.205
洏	-13.205
党	-13.205
㭊	-13.2051
泆	-13.2051
駏	-13.2051
􁂦	-13.2051
柁	-13.2051
嗈	-13.2051
􁀳	-13.2051
悲哉秋之為氣	-13.2052
檗	-13.2052
臞	-13.2052
駼	-13.2052
泡	-13.2052
銕	-13.2052
奉表陳賀以聞	-13.2052
咺	-13.2052
踧	-13.2053
如虎如貔	-13.2054
裸	-13.2054
嶺表録異	-13.2054
里兮傷春心	-13.2055
劻	-13.2055
飀	-13.2055
􁐾	-13.2055
芣	-13.2056
􁩩	-13.2056
洛陽伽藍記	-13.2056
憸	-13.2056
李義山文集箋註巻	-13.2056
挻	-13.2056
萁	-13.2057
撗	-13.2057
􁀫	-13.2057
􁍇	-13.2057
縆	-13.2057
緐	-13.2057
襆	-13.2058
蘃	-13.2058
芉	-13.2058
椁	-13.2058
嚱	-13.2058
瞍	-13.2059
䍡	-13.206
遌	-13.206
虙	-13.206
汹	-13.206
躕	-13.206
闃	-13.2061
苒	-13.2061
章仇兼瓊	-13.2061
澳	-13.2061
胚	-13.2061
黟	-13.2062
􁁅	-13.2062
嶒	-13.2063
􁃔	-13.2063
筓	-13.2063
僥	-13.2064
恆	-13.2065
瓈	-13.2065
惄	-13.2066
骰	-13.2066
昺	-13.2067
筰	-13.2068
白氏長慶集	-13.2068
薿	-13.207
醤	-13.2071
甲乙集卷第	-13.2073
孜	-13.2084
犛	-13.2573
餖	-13.2577
橤	-13.2584
苕溪漁隱	-13.2586
狨	-13.2588
觿	-13.2591
刊	-13.2591
裼	-13.2591
禭	-13.2592
苜	-13.2593
嫖	-13.2593
脤	-13.2594
瘉	-13.2594
奡	-13.2594
郸	-13.2595
珀	-13.2596
掔	-13.2596
誎	-13.2597
桹	-13.2597
鴇	-13.2597
媢	-13.2597
罻	-13.2598
痞	-13.2599
獪	-13.2599
灂	-13.26
侄	-13.26
睟	-13.26
斝	-13.26
䒠	-13.2601
􁆬	-13.2602
杜陽雜編	-13.2602
蒜	-13.2602
蝘	-13.2603
㟙	-13.2603
殲	-13.2603
寬	-13.2603
繣	-13.2603
縏	-13.2603
䳵	-13.2603
懹	-13.2604
牂	-13.2604
伃	-13.2604
緖	-13.2604
嵯	-13.2604
樝	-13.2604
頵	-13.2604
騊	-13.2605
撜	-13.2605
秸	-13.2605
嫚	-13.2605
褘	-13.2605
崱	-13.2605
茢	-13.2606
嶫	-13.2606
槀	-13.2606
悻	-13.2606
𣆀	-13.2606
暴殄天物	-13.2606
挨	-13.2606
麈	-13.2607
畞	-13.2607
堋	-13.2607
拇	-13.2607
薍	-13.2607
泙	-13.2607
纕	-13.2607
㨾	-13.2607
梃	-13.2607
戩	-13.2607
盹	-13.2609
蟜	-13.2609
埇	-13.2609
各在天一涯	-13.2609
㑹昌一品制集	-13.2609
吐突承璀	-13.2609
毖	-13.2609
胔	-13.2609
妤	-13.261
逡	-13.261
擩	-13.261
颻	-13.261
夢溪筆談	-13.261
簔	-13.2611
鷔	-13.2611
酗	-13.2611
醽	-13.2611
䗫	-13.2612
奉天定難功臣	-13.2612
之奠敬祭于故	-13.2612
臊	-13.2612
藟	-13.2612
楬	-13.2613
稺	-13.2613
阿彌陀佛	-13.2613
増廣註釋音辯唐栁先生集卷之	-13.2613
佾	-13.2613
鼛	-13.2613
鄲	-13.2613
奊	-13.2614
旡	-13.2614
枮	-13.2614
頹	-13.2614
圡	-13.2614
簑	-13.2614
温飛卿詩集箋注巻	-13.2614
琶	-13.2615
偎	-13.2615
胯	-13.2616
㷔	-13.2617
矇	-13.2617
罨	-13.2617
攔	-13.2619
錫山安國刋	-13.2619
謏	-13.2619
桒	-13.262
沇	-13.262
碕	-13.2622
喆	-13.2623
皡	-13.2624
􁁪	-13.2626
㪚官勲如故	-13.2626
韋刺史詩集卷第	-13.263
短簫鐃歌	-13.2632
緅	-13.3161
薋	-13.3161
􁠣	-13.3163
晝上人集卷第	-13.3164
飣	-13.3171
笭	-13.3172
鶊	-13.3174
􁂗	-13.3175
鬿	-13.3177
銀靑光禄大夫	-13.318
眢	-13.318
䬝	-13.3182
黴	-13.3182
逍	-13.3182
􁑼	-13.3182
勔	-13.3184
㦲	-13.3184
耼	-13.3185
凥	-13.3186
駊	-13.3186
眈	-13.3186
蓞	-13.3186
擗	-13.3186
銮	-13.3186
鄶	-13.3187
蟺	-13.3187
瑋	-13.3188
潸	-13.3189
柙	-13.3189
曕	-13.319
佳人美者顔如	-13.319
輠	-13.319
孟東野詩集卷第	-13.319
鋣	-13.3191
拮	-13.3191
凘	-13.3191
熺	-13.3192
㟼	-13.3192
縭	-13.3192
珙	-13.3192
踖	-13.3192
玖	-13.3192
蠏	-13.3193
氈	-13.3193
悝	-13.3193
醎	-13.3193
繍	-13.3193
鏄	-13.3193
痗	-13.3193
鄮	-13.3193
􁯡	-13.3193
之至謹奉狀陳謝以聞謹奏	-13.3193
榻去則懸之	-13.3194
𣙜	-13.3194
瞞	-13.3194
蓆	-13.3195
膞	-13.3195
揬	-13.3195
蕳	-13.3195
朘	-13.3195
誶	-13.3195
􁒝	-13.3195
夥	-13.3195
楢	-13.3195
佪	-13.3196
变	-13.3196
倳	-13.3196
㴞	-13.3196
莝	-13.3196
硫	-13.3196
陳伯玉文集卷第	-13.3196
㓨	-13.3196
繿	-13.3197
醋	-13.3197
尺竹牒記	-13.3197
蕡	-13.3198
􁀍	-13.3198
璆琳琅玕	-13.3198
脞	-13.3198
銚	-13.3199
胆	-13.3199
蠙	-13.3199
腷	-13.3199
㛐	-13.3199
蹬	-13.32
鸕	-13.32
禧	-13.32
卲	-13.32
􁰈	-13.32
臈	-13.3201
觱	-13.3201
㹠	-13.3202
毿	-13.3202
捁	-13.3202
瞶	-13.3202
憺	-13.3202
痟	-13.3202
絰	-13.3202
圈	-13.3203
淜	-13.3203
得進奏院狀報	-13.3203
崇牙樹羽	-13.3203
襮	-13.3204
貟外置同正貟	-13.3204
躃	-13.3205
蕐	-13.3205
茰	-13.3206
河嶽英靈集	-13.3207
憔	-13.3207
𦵔	-13.3207
鑴	-13.3208
侏	-13.3209
蔇	-13.3211
灩	-13.3211
瀲	-13.3212
孌	-13.3213
叢何處生春早春生	-13.3219
磝	-13.3226
寱	-13.3228
斜何處深春好春深	-13.3247
紜	-13.3735
豽	-13.378
踸	-13.3783
疈	-13.3792
蚳	-13.3796
𠢐	-13.3796
痤	-13.3799
葚	-13.38
扤	-13.3802
玢	-13.3804
腵	-13.3804
栾	-13.3804
鲁	-13.3805
白蓮集卷第	-13.3806
檿	-13.3806
芍	-13.3806
箝	-13.3807
鄫	-13.3808
趠	-13.3808
諑	-13.3808
哳	-13.3809
鱷	-13.3809
貃	-13.3809
㚄	-13.3809
竣	-13.381
胞	-13.381
笑矣乎笑矣乎	-13.381
嵕	-13.381
搢	-13.3811
􁶁	-13.3811
祸	-13.3811
上柱國曲江縣開國男張九齡	-13.3811
剚	-13.3812
𬎼	-13.3812
轤	-13.3812
齔	-13.3812
蟒	-13.3812
輴	-13.3813
􁓓	-13.3814
勌	-13.3814
𣪚	-13.3815
桶	-13.3815
駬	-13.3815
朏	-13.3815
語不驚人死不休	-13.3815
懺	-13.3815
膋	-13.3815
笁	-13.3816
做	-13.3816
簽	-13.3816
蜨	-13.3817
蚿	-13.3817
客從逺方來遺我	-13.3817
噢	-13.3818
蓧	-13.3818
唬	-13.3818
莛	-13.3819
䥥	-13.3819
捻	-13.3819
李陵答蘇武書	-13.3819
祊	-13.3819
魘	-13.382
泂	-13.382
攉	-13.382
嵸	-13.382
傄	-13.382
汕	-13.382
黈	-13.382
堧	-13.382
禨	-13.3821
糖	-13.3821
菩	-13.3821
顑	-13.3821
絳守居園池記	-13.3822
鉥	-13.3822
湑	-13.3822
髣	-13.3822
沜	-13.3822
儇	-13.3822
瀅	-13.3822
擄	-13.3822
睥	-13.3823
蹩	-13.3823
覻	-13.3823
鄗	-13.3823
嵼	-13.3823
萵	-13.3824
漙	-13.3824
倮	-13.3824
遹	-13.3825
屺	-13.3825
鬃	-13.3825
䳟	-13.3825
䫻	-13.3825
右㪚騎常侍	-13.3826
踳	-13.3826
騠	-13.3826
柈	-13.3827
呫	-13.3827
酘	-13.3827
陸璣詩疏	-13.3827
种	-13.3827
㢲	-13.3828
惎	-13.3828
鸒	-13.3828
䡾	-13.3828
縚	-13.3828
嫜	-13.3828
河圖括地象	-13.3829
榎	-13.3829
豞	-13.383
洼	-13.383
痝	-13.383
痢	-13.3831
淦	-13.3831
瞎	-13.3831
紬	-13.3831
宋郭知達編近體詩	-13.3831
唐龍門王勃子安著明閩漳張爕紹和纂	-13.3831
箙	-13.3833
咒	-13.3834
棒	-13.3835
潾	-13.3837
愡	-13.3838
焙	-13.3839
拠	-13.384
中書舎人杜牧字牧之	-13.3842
娓	-13.3842
庐	-13.3843
􁇨	-13.3846
醵	-13.3853
曶	-13.3853
雚	-13.4417
璹	-13.4456
矻	-13.4459
㫪	-13.4463
悤	-13.4465
韎	-13.4467
滆	-13.4468
熂	-13.4469
崍	-13.447
呐	-13.447
呃	-13.4472
䏈	-13.4474
礴	-13.4474
囏	-13.4474
撡	-13.4474
倢	-13.4475
㹀	-13.4475
埓	-13.4475
𥅆	-13.4476
李文饒别集卷第	-13.4476
杷	-13.4477
魉	-13.4478
嫵	-13.4479
貜	-13.4479
饍	-13.4479
䀌	-13.4479
轞	-13.448
樑	-13.4481
礲	-13.4481
􁒭	-13.4481
睚	-13.4481
桄	-13.4481
樂府古題要觧	-13.4482
曏	-13.4482
唧	-13.4482
倂	-13.4483
恫	-13.4483
尠	-13.4483
嫈	-13.4483
嘱	-13.4484
蠃	-13.4484
㨖	-13.4484
颼	-13.4484
坲	-13.4484
国	-13.4484
掌供奉諷諫	-13.4485
咻	-13.4485
􁀌	-13.4485
怗	-13.4485
鏦	-13.4485
匍	-13.4485
鷖	-13.4486
秦東陵侯秦破	-13.4486
􁂍	-13.4486
唐張司業詩集卷	-13.4486
嗽	-13.4486
玘	-13.4486
畮	-13.4487
鞂	-13.4487
􁰽	-13.4487
㘭	-13.4487
獱	-13.4487
晜	-13.4487
銅虎符竹使符	-13.4487
饎	-13.4488
桃李不言下自成蹊	-13.4488
陿	-13.4488
矕	-13.4489
閞	-13.4489
鐎	-13.4489
猲	-13.4489
廜	-13.449
搭	-13.449
貓	-13.449
􁀨	-13.449
鴐	-13.449
􁇁	-13.449
芘	-13.4491
诸	-13.4491
薮	-13.4491
椸	-13.4491
篳	-13.4491
銊	-13.4491
泞	-13.4492
􁊓	-13.4492
餫	-13.4492
􁒓	-13.4492
遴	-13.4492
暵	-13.4492
岊	-13.4492
樁	-13.4492
矅	-13.4492
髴	-13.4492
偫	-13.4493
椰	-13.4493
襻	-13.4494
嘑	-13.4495
稭	-13.4495
􁅭	-13.4495
琵	-13.4495
淸酌庶羞之奠敬祭於故	-13.4495
伏惟睿聖文武皇帝陛下	-13.4495
岈	-13.4495
汃	-13.4496
[...]
