<unk>	0
<s>	0
</s>	0
之	-4.3245
(	-4.56474
/	-5.01674
書	-5.07416
而	-5.0969
為	-5.16777
有	-5.1953
/)	-5.22454
以	-5.23326
也	-5.26785
)	-5.2894
一	-5.35731
其	-5.36557
人	-5.4174
者	-5.48664
不	-5.55993
於	-5.63491
畫	-5.72123
圖	-5.72191
中	-5.7514
字	-5.77198
如	-5.94736
無	-5.95361
王	-5.9684
與	-5.97893
在	-5.98891
作	-5.99433
自	-6.02432
得	-6.03171
則	-6.03948
此	-6.04559
子	-6.04725
山	-6.06379
文	-6.07895
時	-6.12579
大	-6.13079
行	-6.14117
上	-6.15211
云	-6.15434
公	-6.20196
又	-6.24291
二	-6.26367
三	-6.30353
見	-6.3197
亦	-6.32435
後	-6.32524
是	-6.33377
皆	-6.36209
所	-6.36669
帖	-6.37367
然	-6.38372
筆	-6.38786
曰	-6.40266
道	-6.4162
詩	-6.41749
張	-6.41851
至	-6.42049
▁	-6.42426
出	-6.43076
于	-6.44986
)(	-6.46007
唐	-6.46113
生	-6.46414
天	-6.46736
故	-6.46931
下	-6.47026
矣	-6.47062
家	-6.48325
石	-6.49406
長	-6.50521
元	-6.51893
若	-6.52383
名	-6.52989
多	-6.53415
可	-6.53492
今	-6.54598
雲	-6.5469
古	-6.54833
李	-6.55321
相	-6.55814
非	-6.56314
髙	-6.56879
日	-6.57132
明	-6.57712
宋	-6.59383
乃	-6.60045
本	-6.60236
題	-6.60848
重	-6.61169
學	-6.61174
水	-6.61252
清	-6.63191
心	-6.63523
成	-6.64236
事	-6.64686
知	-6.6471
用	-6.65385
言	-6.66178
風	-6.66998
世	-6.68631
同	-6.68683
來	-6.69861
意	-6.70382
真	-6.71661
已	-6.72305
深	-6.72387
法	-6.72421
前	-6.73329
正	-6.7395
能	-6.74465
君	-6.74543
卷	-6.74552
及	-6.75223
傳	-6.75684
善	-6.75909
耳	-6.76393
記	-6.76657
方	-6.7675
小	-6.77125
碑	-6.77371
四	-6.7861
余	-6.79813
花	-6.80775
觀	-6.81014
老	-6.8111
復	-6.82739
入	-6.84788
陳	-6.85282
右	-6.86221
欲	-6.8858
當	-6.89315
金	-6.89431
間	-6.9069
春	-6.90807
師	-6.9083
或	-6.90898
經	-6.91437
從	-6.91632
玉	-6.92459
雖	-6.93494
五	-6.93793
去	-6.94737
臣	-6.96459
初	-6.96638
神	-6.96815
歸	-6.96989
何	-6.97555
因	-6.97602
未	-6.97797
處	-6.98799
謂	-6.99153
龍	-7.00283
州	-7.00929
月	-7.01007
思	-7.0124
氏	-7.0181
兩	-7.0223
光	-7.02324
集	-7.02347
平	-7.02824
圖一	-7.03344
寫	-7.03695
逺	-7.04101
林	-7.04427
乎	-7.0548
秋	-7.05676
周	-7.0585
竹	-7.05865
手	-7.0593
居	-7.06209
草	-7.0626
白	-7.06415
南	-7.06924
惟	-7.07777
年	-7.09686
劉	-7.1128
志	-7.11562
東	-7.1192
似	-7.12051
安	-7.12165
景	-7.12963
馬	-7.13238
即	-7.13636
令	-7.14681
使	-7.1502
過	-7.15118
我	-7.15388
通	-7.17797
焉	-7.18278
印	-7.18846
黄	-7.18943
數	-7.19696
吾	-7.20259
墨	-7.20919
好	-7.21201
予	-7.21822
遂	-7.22046
宗	-7.22277
少	-7.22353
獨	-7.23083
諸	-7.23085
雪	-7.23618
六	-7.23672
物	-7.23722
國	-7.23827
論	-7.24105
華	-7.24217
合	-7.24281
先	-7.24343
山水	-7.247
工	-7.24733
盡	-7.24826
士	-7.24828
先生	-7.25017
體	-7.25277
九	-7.25524
臨	-7.25635
妙	-7.25645
異	-7.25946
西	-7.2645
官	-7.27267
甚	-7.27597
識	-7.28038
聞	-7.28129
門	-7.28327
圗	-7.28372
立	-7.29032
朝	-7.2966
稱	-7.30024
分	-7.30176
將	-7.30516
夫	-7.30792
新	-7.3089
應	-7.31251
取	-7.31681
尚	-7.3177
流	-7.31804
章	-7.32097
常	-7.32387
起	-7.33156
徳	-7.33739
氣	-7.3383
江	-7.34077
雨	-7.34349
楊	-7.3484
近	-7.34943
色	-7.35194
趙	-7.36323
伯	-7.36929
外	-7.37148
飛	-7.37385
漢	-7.37406
猶	-7.37718
語	-7.37725
直	-7.3795
空	-7.3798
樹	-7.38614
興	-7.39427
開	-7.39471
紙	-7.40238
且	-7.40432
求	-7.40485
必	-7.40579
極	-7.40658
和	-7.40669
八	-7.40687
堂	-7.40727
精	-7.40771
仲	-7.41056
樂	-7.41191
舊	-7.41262
哉	-7.41299
寒	-7.41349
青	-7.41519
朱	-7.418
問	-7.42016
絶	-7.42021
不可	-7.42068
藏	-7.42091
凡	-7.42247
定	-7.4239
仙	-7.42495
嘗	-7.43206
等	-7.4342
晉	-7.43507
高	-7.43604
地	-7.43833
餘	-7.4391
松	-7.44332
難	-7.44546
既	-7.44612
父	-7.44676
别	-7.44702
吳	-7.4488
十	-7.45092
號	-7.45167
陽	-7.46334
並	-7.46624
目	-7.46842
百	-7.47557
實	-7.4785
孫	-7.47933
以為	-7.47954
客	-7.4797
更	-7.48141
聲	-7.48208
始	-7.48273
信	-7.48475
還	-7.48516
情	-7.49175
齋	-7.4998
勝	-7.50065
史	-7.50319
素	-7.50586
闕	-7.50629
宜	-7.50812
兮	-7.51011
七	-7.51058
不能	-7.51079
命	-7.51367
萬	-7.514
跋	-7.51814
節	-7.52583
銘	-7.52786
香	-7.52844
易	-7.53308
爾	-7.54086
豈	-7.54599
夜	-7.55
寺	-7.55131
内	-7.55297
寳	-7.55694
刻	-7.55952
葉	-7.56399
頭	-7.5661
廣	-7.56656
形	-7.57217
望	-7.57876
僧	-7.57938
著	-7.58412
發	-7.58558
翁	-7.59758
首	-7.60158
游	-7.60203
溪	-7.60297
武	-7.60313
行書	-7.60656
許	-7.60678
坐	-7.60731
足	-7.60912
像	-7.61161
但	-7.61229
全	-7.61506
顧	-7.61657
佳	-7.61714
海	-7.61746
徐	-7.6192
竒	-7.62014
力	-7.62087
祖	-7.62486
俱	-7.62624
鼎	-7.63111
卿	-7.6328
謝	-7.63394
閒	-7.6443
畵	-7.64977
尤	-7.65559
賦	-7.65684
義	-7.65718
聖	-7.65772
梁	-7.663
莫	-7.66538
身	-7.6658
𤣥	-7.66983
進	-7.67065
賢	-7.67678
落	-7.67826
/)(	-7.67931
蓋	-7.68061
載	-7.68168
圖二	-7.68465
草書	-7.68562
致	-7.68592
奉	-7.6866
向	-7.68668
喜	-7.69013
左	-7.69108
録	-7.69872
兼	-7.69978
要	-7.70526
不知	-7.70536
次	-7.70597
類	-7.7071
幅	-7.71324
酒	-7.71399
理	-7.71822
叔	-7.72215
葢	-7.72477
齊	-7.72714
禮	-7.73011
陸	-7.73058
存	-7.73181
便	-7.73463
遺	-7.73542
端	-7.73605
愛	-7.73832
秀	-7.74035
簡	-7.74082
須	-7.74151
各	-7.74934
俗	-7.75193
城	-7.75317
留	-7.75463
北	-7.75537
每	-7.75558
逸	-7.75573
野	-7.75705
半	-7.75758
㑹	-7.75829
帝	-7.76229
嵗	-7.76496
舉	-7.76778
表	-7.76858
千	-7.77467
看	-7.77963
美	-7.78046
對	-7.7807
歌	-7.78436
靈	-7.79083
沈	-7.7935
耶	-7.79424
釋	-7.79482
度	-7.79516
横	-7.7974
具	-7.79821
下有	-7.79889
仁	-7.79969
敬	-7.7999
永	-7.8072
滿	-7.8097
一卷	-7.8103
輕	-7.81034
益	-7.8109
盖	-7.81601
遊	-7.81781
亭	-7.81876
篆	-7.81936
共	-7.82464
夏	-7.82497
錢	-7.82735
轉	-7.82852
泉	-7.82943
細	-7.83179
良	-7.8321
幽	-7.8326
宫	-7.833
容	-7.83302
比	-7.83524
特	-7.83982
隨	-7.84336
貴	-7.84431
都	-7.84632
友	-7.84852
木	-7.84949
壁	-7.84953
變	-7.84991
古人	-7.85091
尊	-7.85101
勢	-7.85332
象	-7.85445
人物	-7.86186
雅	-7.86196
承	-7.86233
微	-7.87097
指	-7.87108
秦	-7.87175
按	-7.87365
後有	-7.87729
并	-7.88143
侯	-7.88171
親	-7.88224
誰	-7.88465
右軍	-7.88627
賜	-7.88938
終	-7.89135
爲	-7.90256
贈	-7.9059
寶	-7.90666
閣	-7.90707
呉	-7.90803
太	-7.90845
如此	-7.90852
韻	-7.91018
所謂	-7.91066
固	-7.91119
修	-7.91145
衣	-7.91181
幾	-7.91477
主	-7.91488
撰	-7.91904
軸	-7.92072
守	-7.92157
斯	-7.92173
臺	-7.92373
面	-7.92552
器	-7.92721
摹	-7.92772
波	-7.93286
樓	-7.93813
露	-7.93826
女	-7.94201
蘇	-7.94235
田	-7.94471
昔	-7.94592
此卷	-7.9462
民	-7.94919
殊	-7.95212
真蹟	-7.95885
到	-7.95977
失	-7.96238
夢	-7.96319
母	-7.96445
動	-7.96574
登	-7.96867
筆法	-7.97112
才	-7.97327
鶴	-7.97327
巖	-7.97475
止	-7.97562
魏	-7.9816
枝	-7.98459
解	-7.98707
路	-7.98717
軒	-7.98794
胡	-7.99129
殿	-7.99192
寄	-7.99383
梅	-7.99601
魚	-7.99845
羣	-8.00056
弟	-8.00411
顔	-8.00793
舟	-8.00793
持	-8.00982
散	-8.01109
詞	-8.01277
醉	-8.01371
疑	-8.01407
久	-8.01458
蘭	-8.01653
雜	-8.0203
雙	-8.02153
懐	-8.02311
衆	-8.02502
烟	-8.02673
府	-8.02694
鄭	-8.02938
誠	-8.03126
紅	-8.03266
任	-8.03347
原	-8.03415
篇	-8.04152
辭	-8.04206
忠	-8.04211
而不	-8.04409
書法	-8.04596
垂	-8.04644
當時	-8.04681
天下	-8.05345
杜	-8.05446
送	-8.05646
孝	-8.05896
連	-8.05912
造	-8.05967
韓	-8.06021
㸃	-8.06073
授	-8.06245
上等	-8.06366
性	-8.06501
佛	-8.06701
斷	-8.07105
翠	-8.07287
教	-8.07457
列	-8.07997
請	-8.08165
視	-8.08434
峰	-8.09254
收	-8.09328
宣	-8.09363
最	-8.09493
適	-8.09776
考	-8.09933
縣	-8.09961
序	-8.10268
季	-8.10341
感	-8.10376
想	-8.10397
品	-8.10401
口	-8.10756
虚	-8.10836
放	-8.10859
加	-8.10956
驚	-8.11214
曹	-8.11407
功	-8.11567
御	-8.11648
末	-8.11891
次等	-8.11928
賞	-8.12187
備	-8.12212
得之	-8.12696
英	-8.12718
曽	-8.13235
封	-8.13326
拜	-8.13377
化	-8.13437
骨	-8.13933
計	-8.14097
德	-8.14263
眼	-8.14474
隠	-8.14505
代	-8.14976
冩	-8.15207
蕭	-8.153
郎	-8.15327
不得	-8.15542
彼	-8.15815
影	-8.15829
兄	-8.15916
交	-8.15999
盛	-8.16041
覺	-8.16386
亂	-8.16635
院	-8.16647
第一	-8.16739
頗	-8.16986
寧	-8.17074
謂之	-8.1734
服	-8.17485
隂	-8.17597
照	-8.17682
食	-8.17716
昌	-8.18041
燕	-8.1808
来	-8.18174
説	-8.18413
皇	-8.18426
池	-8.18649
昭	-8.18965
再	-8.19242
幸	-8.19483
商	-8.19609
孤	-8.19686
碧	-8.19792
破	-8.19848
塵	-8.20147
恐	-8.20232
往	-8.20237
遇	-8.20526
得其	-8.21063
嘉	-8.2115
藝	-8.21409
就	-8.21466
湖	-8.21743
習	-8.22041
紫	-8.22269
忽	-8.22392
楚	-8.22747
改	-8.22946
谷	-8.22981
虞	-8.23062
病	-8.23373
圗一	-8.23398
建	-8.23532
句	-8.23681
河	-8.23923
趣	-8.2396
虎	-8.23974
書畫	-8.2413
第	-8.24168
狀	-8.24221
園	-8.24306
二年	-8.24307
業	-8.24391
忘	-8.24432
曾	-8.24599
徑	-8.24607
鋒	-8.24672
鳥	-8.24871
死	-8.2491
帶	-8.25007
曲	-8.25265
題云	-8.25393
休	-8.25436
附	-8.25615
陵	-8.25635
羅	-8.25684
政	-8.25787
丹	-8.2589
置	-8.25894
川	-8.25917
孟	-8.26153
博	-8.26161
菴	-8.2634
勁	-8.26372
鍾	-8.26391
蘭亭	-8.26846
結	-8.26891
謹	-8.26952
紀	-8.26964
疎	-8.27132
窮	-8.27196
笑	-8.27197
汝	-8.27236
庭	-8.27415
果	-8.27507
繼	-8.27657
迹	-8.27705
貞	-8.27857
甫	-8.28066
浮	-8.28203
尋	-8.28312
芳	-8.28405
郭	-8.28677
室	-8.2872
里	-8.29651
質	-8.29722
郡	-8.30453
種	-8.30593
者也	-8.309
霜	-8.31113
兒	-8.3136
玩	-8.31592
希	-8.31596
晴	-8.3212
鳴	-8.32343
治	-8.32622
屬	-8.32929
追	-8.33156
達	-8.33193
牛	-8.33204
司	-8.33225
車	-8.33397
舞	-8.33446
軍	-8.33474
源	-8.33496
縱	-8.33503
冠	-8.33573
受	-8.33891
八分	-8.33908
期	-8.33957
晚	-8.33962
示	-8.33973
眞	-8.34161
米	-8.34367
格	-8.349
却	-8.35083
唐人	-8.35169
巧	-8.35188
倣	-8.35431
元年	-8.35455
厚	-8.35567
嚴	-8.35663
折	-8.35714
彦	-8.35886
補	-8.36255
三年	-8.36346
戲	-8.36603
索	-8.36848
緑	-8.37019
蔡	-8.37047
移	-8.37177
稍	-8.37251
省	-8.37418
崇	-8.37539
榮	-8.37775
曉	-8.37799
宿	-8.37809
可以	-8.37894
𨽻	-8.37948
時人	-8.37964
背	-8.38018
仰	-8.38081
由	-8.38216
音	-8.38237
蜀	-8.38283
册	-8.38439
慶	-8.38453
試	-8.38564
毛	-8.38602
跡	-8.38832
一印	-8.38966
辨	-8.39184
淡	-8.39291
徒	-8.39295
惜	-8.39365
圓	-8.3949
詔	-8.39829
利	-8.39831
蒼	-8.40371
珍	-8.40461
續	-8.40799
推	-8.40854
引	-8.40886
儒	-8.40893
盧	-8.4095
制	-8.40972
星	-8.41025
念	-8.4103
而已	-8.41041
延	-8.4111
隸	-8.41162
奇	-8.41359
贊	-8.41384
卒	-8.41401
讀	-8.41424
惠	-8.41605
濟	-8.41688
夀	-8.41789
顯	-8.41887
古今	-8.42084
所藏	-8.421
儀	-8.421
只	-8.42258
邊	-8.42664
苦	-8.42796
願	-8.43057
疾	-8.43115
錦	-8.43168
短	-8.4342
邪	-8.43445
評	-8.43751
離	-8.43853
薄	-8.44101
裏	-8.44279
獻	-8.44454
栁	-8.44834
歴	-8.45057
悉	-8.45291
兵	-8.4548
所以	-8.45574
述	-8.4562
學士	-8.45625
鄉	-8.45914
琴	-8.45946
小楷	-8.46007
𫝊	-8.46081
十二	-8.46082
翰墨	-8.46437
筆意	-8.46524
魯	-8.46689
廟	-8.46764
沙	-8.46826
訪	-8.47053
陶	-8.47116
尾	-8.47313
官至	-8.47355
越	-8.47367
用筆	-8.47636
珠	-8.47747
土	-8.47771
冊	-8.48061
村	-8.48075
壽	-8.48225
差	-8.48247
一時	-8.48303
行草	-8.48372
范	-8.48448
懷	-8.48623
偶	-8.48763
正書	-8.48882
告	-8.49085
澤	-8.4937
潤	-8.49484
執	-8.49528
一日	-8.49693
側	-8.50155
峯	-8.50349
京	-8.50351
約	-8.50432
福	-8.50556
為之	-8.50566
金石録	-8.50596
橋	-8.50678
鑒	-8.50786
雄	-8.51088
之所	-8.51114
吟	-8.51323
况	-8.51472
温	-8.51515
孔	-8.51559
兹	-8.51732
夫人	-8.51941
紹興	-8.52068
角	-8.52347
部	-8.52359
略	-8.52379
頌	-8.52415
注	-8.52554
君子	-8.52651
總	-8.52673
䟦	-8.52681
采	-8.52832
怪	-8.52857
屋	-8.5292
恭	-8.53029
隱	-8.53181
寓	-8.5324
悟	-8.53436
飲	-8.53568
楷	-8.5364
至於	-8.53679
闗	-8.53689
覽	-8.53699
麗	-8.53734
亡	-8.53795
之妙	-8.53934
參	-8.5423
恨	-8.54362
盤	-8.54424
莊	-8.54515
絲	-8.5454
袁	-8.54685
蹟	-8.54859
吉	-8.55343
詳	-8.55399
淵	-8.55486
積	-8.5553
前有	-8.55759
崔	-8.5598
誤	-8.56001
施	-8.56019
鳯	-8.56121
說	-8.56404
養	-8.56965
丁	-8.57003
東坡	-8.57037
僕	-8.57041
調	-8.57184
輩	-8.57288
根	-8.5739
吴	-8.57462
舍	-8.58181
伏	-8.58269
漫	-8.58335
殆	-8.58348
程	-8.58495
倚	-8.58563
不及	-8.58755
靜	-8.58872
衛	-8.58905
克	-8.59341
子敬	-8.59498
議	-8.59543
静	-8.59562
江南	-8.59615
豪	-8.59727
懸	-8.59797
展	-8.59926
待	-8.59977
獲	-8.60074
一軸	-8.60155
遷	-8.6016
鑑	-8.6044
歎	-8.60718
宣和	-8.60748
騎	-8.60878
四年	-8.60974
智	-8.61123
依	-8.61181
缺	-8.61243
聽	-8.6143
豐	-8.61529
侍	-8.61571
典	-8.6168
運	-8.61826
茂	-8.6215
繪	-8.62169
召	-8.62197
羽	-8.62278
姓	-8.62317
不同	-8.62369
借	-8.62733
他	-8.62901
善畫	-8.63021
二印	-8.63088
宻	-8.6324
密	-8.63275
早	-8.63341
布	-8.63392
火	-8.6368
回	-8.63976
咸	-8.6404
洞	-8.64045
道人	-8.64047
報	-8.64726
姚	-8.64832
含	-8.65044
暮	-8.65171
口徑	-8.65376
不足	-8.65563
保	-8.6559
惡	-8.65884
翰	-8.65894
館	-8.66107
錄	-8.66123
維	-8.66322
順	-8.6668
烏	-8.66714
反	-8.66715
竟	-8.6675
薛	-8.66836
㣲	-8.66939
風雨	-8.66954
房	-8.67024
岳	-8.67038
凝	-8.67176
古文	-8.67188
丘	-8.67189
洪	-8.67421
超	-8.67568
是也	-8.6768
粉	-8.67687
馳	-8.67735
唯	-8.67831
隔	-8.67895
遣	-8.67929
尚書	-8.68094
冬	-8.68119
規	-8.68139
機	-8.68188
此帖	-8.68318
丹青	-8.68389
至正	-8.68656
畢	-8.68714
嗣	-8.68718
管	-8.68941
紙本	-8.68969
談	-8.69016
肅	-8.69191
韋	-8.69251
文章	-8.69454
毫	-8.69466
熟	-8.69553
拙	-8.69614
敏	-8.69621
恩	-8.69687
卧	-8.70252
康	-8.70256
董	-8.7043
墨竹	-8.70658
見之	-8.70963
戴	-8.71038
接	-8.71333
楷書	-8.71338
抱	-8.71359
位	-8.71399
揚	-8.7153
憂	-8.71579
模	-8.71735
擬	-8.71839
除	-8.72178
晩	-8.72439
書史㑹要	-8.72594
跋云	-8.72668
居士	-8.72671
住	-8.72749
自然	-8.72808
味	-8.72959
亦有	-8.73004
旁	-8.73067
敢	-8.73113
之間	-8.73335
蒙	-8.7337
態	-8.73416
段	-8.73501
筆墨	-8.73534
否	-8.73544
翰林	-8.73572
煙	-8.73816
愈	-8.74204
偏	-8.74208
降	-8.74227
肥	-8.74232
閲	-8.74237
衡	-8.74311
息	-8.74363
逸少	-8.7439
鳳	-8.74424
憶	-8.74508
愁	-8.74695
切	-8.74748
權	-8.74799
潛	-8.74806
洗	-8.75071
被	-8.752
漁	-8.75325
後人	-8.75541
履	-8.75547
製	-8.75751
此圖	-8.75912
勞	-8.75967
殘	-8.76118
累	-8.76445
𢎞	-8.7656
奏	-8.76783
勿	-8.76928
乞	-8.76977
禪	-8.77027
繁	-8.77077
廷	-8.77101
御書	-8.77144
斜	-8.77336
堪	-8.77411
可謂	-8.77467
鐵	-8.77481
輒	-8.77546
慕	-8.77572
岸	-8.77584
勒	-8.77624
狂	-8.77664
慈	-8.77679
編	-8.77805
專	-8.77863
扵	-8.7791
禽	-8.78209
淺	-8.78237
章草	-8.78242
中有	-8.78273
資	-8.7828
翼	-8.78359
率	-8.78388
律	-8.78504
闊	-8.78616
仕	-8.78646
監	-8.78698
純	-8.787
藥	-8.78759
荒	-8.7878
扇	-8.789
仍	-8.79018
遲	-8.79258
瑞	-8.79266
姿	-8.79335
後世	-8.79579
假	-8.79605
吕	-8.7974
子孫	-8.79743
其後	-8.79857
寛	-8.79877
所書	-8.79948
千里	-8.80048
開元	-8.80369
□	-8.80481
上有	-8.80487
夷	-8.80602
腹	-8.80614
强	-8.80696
冷	-8.80712
歲	-8.80721
翻	-8.80775
五年	-8.80994
步	-8.81146
太宗	-8.81159
聚	-8.81215
尹	-8.81229
祠	-8.81267
急	-8.81279
羊	-8.81301
爭	-8.81714
人間	-8.81754
啟	-8.81812
州刺史	-8.81919
勤	-8.81921
隋	-8.82015
所作	-8.82111
枯	-8.82193
鸞	-8.8223
據	-8.82352
船	-8.82466
漸	-8.82615
訓	-8.82632
將軍	-8.82724
屏	-8.82838
山谷	-8.82864
壺	-8.82909
不復	-8.83006
披	-8.83102
負	-8.83147
詠	-8.83202
掌	-8.83224
眀	-8.83252
環	-8.8345
水墨	-8.83495
㫖	-8.83615
弗	-8.83807
之後	-8.83815
圖一軸	-8.83975
鴻	-8.84191
市	-8.84235
文字	-8.84372
幼	-8.84391
白雲	-8.84483
浪	-8.84491
籍	-8.84775
荷	-8.84816
署	-8.84816
丈	-8.84935
大夫	-8.85379
畧	-8.85391
符	-8.85496
又有	-8.85629
謙	-8.85717
柳	-8.85736
道士	-8.85973
務	-8.86072
聊	-8.86126
升	-8.86283
乗	-8.8629
小篆	-8.86668
染	-8.86734
平生	-8.86981
濶	-8.87275
脱	-8.87367
筆力	-8.87519
廣一尺	-8.87521
馮	-8.87539
敦	-8.87583
傷	-8.87658
霞	-8.87991
澹	-8.88185
龜	-8.88201
慰	-8.88542
薦	-8.88617
走	-8.88684
付	-8.88687
呼	-8.88691
堅	-8.88739
大字	-8.88751
不見	-8.88823
快	-8.88907
鴈	-8.88909
絹	-8.88914
富	-8.88932
振	-8.89012
飾	-8.89218
不敢	-8.89304
啓	-8.89374
頓首	-8.89387
十年	-8.89405
坡	-8.89524
斗	-8.89616
契	-8.89639
拂	-8.89657
標	-8.89865
茶	-8.89948
乾	-8.90065
巨	-8.90235
於此	-8.90239
之意	-8.90354
㡬	-8.90609
叢	-8.90614
境	-8.90616
退	-8.90675
穆	-8.90961
司馬	-8.91074
右髙	-8.91117
掩	-8.91157
竹石	-8.91174
䕶	-8.9127
彞	-8.91299
於是	-8.91314
雷	-8.91355
左右	-8.91475
一字	-8.9158
允	-8.91596
子昻	-8.9165
覆	-8.91662
縁	-8.91705
浦	-8.91775
弱	-8.9179
二字	-8.9192
觀其	-8.92039
鎮	-8.92129
澄	-8.92158
詩云	-8.92188
疏	-8.92292
媚	-8.92397
鏡	-8.92423
屈	-8.92579
棄	-8.92603
太守	-8.92664
苑	-8.92774
遠	-8.92819
賈	-8.92838
澗	-8.92857
肉	-8.92978
裴	-8.93034
萬里	-8.93283
乆	-8.93316
阿	-8.93412
其所	-8.93476
二十	-8.93576
舒	-8.93657
上下	-8.93664
有餘	-8.93677
藁	-8.93717
往往	-8.94145
藻	-8.9425
悲	-8.94321
二王	-8.94465
鼓	-8.94709
歳	-8.94901
桂	-8.95121
梅花	-8.95133
之法	-8.95174
再拜	-8.95238
鬼	-8.95264
款識云	-8.95309
風流	-8.95332
字畫	-8.95349
見其	-8.95433
山人	-8.95463
家藏	-8.95653
婦	-8.95848
避	-8.95897
損	-8.95922
譜	-8.9603
第二	-8.96183
徴	-8.96188
讀書	-8.96214
江山	-8.96352
會	-8.96362
偽	-8.96397
壯	-8.96468
廢	-8.96632
丞相	-8.96934
鮮	-8.9705
宅	-8.97136
凉	-8.97144
菊	-8.97318
鹿	-8.9761
花鳥	-8.97623
千文	-8.97673
五代	-8.97716
童	-8.97747
映	-8.9779
雲林	-8.97981
之子	-8.981
完	-8.98118
俊	-8.98129
夕	-8.98132
迴	-8.98275
湘	-8.98291
㳺	-8.98327
傍	-8.9844
吹	-8.98468
竊	-8.9859
釣	-8.98615
吏	-8.98701
陰	-8.98704
石刻	-8.9874
貌	-8.98744
泰	-8.98869
将	-8.98889
寜	-8.98901
操	-8.98909
逐	-8.99198
祥	-8.99623
爽	-8.99777
甲	-8.9979
第三	-8.99823
爵	-8.99873
何如	-8.99958
蓮	-9
李成	-9.00079
虛	-9.00083
逰	-9.00245
○	-9.00262
渡	-9.00329
太史	-9.00335
一人	-9.00531
關	-9.00557
學者	-9.0057
飛白	-9.00613
駕	-9.00692
㸃畫	-9.00845
戒	-9.00956
危	-9.01004
烈	-9.01011
嗟	-9.01021
羲之	-9.01124
圖三	-9.01403
裝	-9.01447
充	-9.01477
叙	-9.01498
劍	-9.0162
搨	-9.01639
銀	-9.01671
皆有	-9.01903
宋人	-9.01965
然後	-9.02169
領	-9.02218
鐘	-9.02395
私	-9.02592
崖	-9.0263
妍	-9.02675
研	-9.02743
山中	-9.02791
字子	-9.0282
哀	-9.02848
進士	-9.0298
至今	-9.03124
僅	-9.03186
倫	-9.03249
墓	-9.03269
雞	-9.03304
邑	-9.0331
法書	-9.0344
誦	-9.03624
滅	-9.03624
融	-9.03628
諱	-9.03649
甘	-9.03755
射	-9.03758
賛	-9.03764
效	-9.03784
桃	-9.03802
父子	-9.03821
硯	-9.04078
傾	-9.04095
條	-9.04193
叟	-9.0456
恒	-9.04573
璧	-9.0466
了	-9.04966
歟	-9.05017
植	-9.05185
貫	-9.05299
奕	-9.05329
待詔	-9.05435
干	-9.05496
一冊	-9.05576
攜	-9.05585
井	-9.05851
又云	-9.06077
雍	-9.06183
錫	-9.06247
殷	-9.06273
赤	-9.06365
晦	-9.06505
㑹稽	-9.06628
黃	-9.067
撫	-9.06705
峻	-9.06929
紹	-9.07014
牧	-9.07031
論書	-9.07068
筆勢	-9.07225
渾	-9.07242
消	-9.07246
有銘	-9.07299
隆	-9.07401
刀	-9.07422
候	-9.07457
嶺	-9.07469
圗二	-9.07592
倒	-9.07834
歩	-9.07854
圖一卷	-9.07875
宏	-9.08074
偉	-9.08121
嘉靖	-9.082
險	-9.08219
増	-9.08254
鈎	-9.08332
麟	-9.08395
祕	-9.08412
一璽	-9.08497
尺	-9.08643
此書	-9.08739
河南	-9.08825
十六	-9.08903
憲	-9.08975
圖書	-9.09349
底	-9.09365
盈	-9.09772
設	-9.0979
宇	-9.09836
熙	-9.09888
愧	-9.0994
乏	-9.09965
善書	-9.10054
範	-9.10058
某	-9.10075
潭	-9.10078
小字	-9.10097
絹本	-9.10181
弟子	-9.1023
察	-9.10243
長安	-9.10453
真跡	-9.10697
俞	-9.10727
罷	-9.1073
吳興	-9.10742
脚	-9.1086
其書	-9.1091
式	-9.10925
獸	-9.11094
未嘗	-9.11192
老人	-9.11227
輿	-9.11432
十一	-9.11554
眉	-9.11583
之類	-9.11591
瞻	-9.11664
雀	-9.11711
購	-9.11713
人也	-9.1172
秘	-9.11771
元章	-9.11907
三月	-9.12111
幹	-9.12236
健	-9.12304
大令	-9.12338
札	-9.12398
騰	-9.124
牡丹	-9.12494
頁	-9.12599
廬	-9.12614
託	-9.12752
暗	-9.12918
貞觀	-9.12996
徵	-9.13115
旋	-9.13142
浩	-9.13264
濃	-9.13307
何處	-9.13432
均	-9.1357
衰	-9.13594
塞	-9.13631
十三	-9.13797
紋	-9.13927
神品	-9.14068
奔	-9.14099
傅	-9.14176
未有	-9.14252
逢	-9.14299
户	-9.14362
欵識云	-9.14413
塔	-9.14451
貧	-9.14465
板	-9.14659
十五	-9.1471
妄	-9.14791
趨	-9.14821
席	-9.14839
束	-9.14968
元祐	-9.15034
選	-9.15066
威	-9.15157
整	-9.15166
項	-9.15307
祝	-9.15333
褚	-9.15371
粗	-9.15465
六月	-9.15549
霧	-9.15596
職	-9.15676
湯	-9.15698
后	-9.15704
銅	-9.15842
有所	-9.16036
畫山水	-9.1609
邵	-9.1611
令人	-9.16207
王氏	-9.16287
各有	-9.16396
屢	-9.16412
孰	-9.16412
瘦	-9.16529
亞	-9.16548
書之	-9.16653
介	-9.1678
己	-9.16839
十月	-9.16975
知其	-9.17017
昇	-9.17067
几	-9.17085
篆書	-9.17092
芙蓉	-9.17119
篤	-9.17149
答	-9.17167
十八	-9.17186
鍾繇	-9.17229
六年	-9.17379
怒	-9.17441
停	-9.17497
大小	-9.17521
慎	-9.17531
不為	-9.17546
天地	-9.17579
董其昌	-9.1773
錯	-9.17812
一首	-9.17968
族	-9.1799
鬼神	-9.18034
靖	-9.18061
楷法	-9.18144
使人	-9.18153
杖	-9.18196
芝	-9.18269
前後	-9.18281
淳	-9.18382
出於	-9.18384
一紙	-9.18448
價	-9.18522
欽	-9.18522
所得	-9.18564
賀	-9.18574
耕	-9.18603
青山	-9.18621
蔵	-9.18625
覩	-9.18631
四月	-9.18654
拔	-9.18701
遥	-9.18727
之勢	-9.18815
衍	-9.18849
獻之	-9.1892
自有	-9.18966
茅	-9.1902
欣	-9.19048
公之	-9.1906
猿	-9.19166
蓬	-9.19275
助	-9.19278
供	-9.19408
泥	-9.19444
頂	-9.19455
璽	-9.19463
喬	-9.19642
溪山	-9.19746
愚	-9.1982
淮	-9.19823
佐	-9.19848
墨蹟	-9.19882
畫之傳世者	-9.19927
毎	-9.19939
庶	-9.19987
今日	-9.201
濤	-9.20207
姑	-9.20334
量	-9.20478
一幅	-9.2048
所見	-9.20643
申	-9.20747
之士	-9.2085
旅	-9.20866
奪	-9.20916
八月	-9.20959
人官至	-9.21027
之外	-9.21037
綠	-9.2109
太子	-9.211
洲	-9.21117
謀	-9.21148
較	-9.21297
諸印	-9.21379
䇿	-9.21441
術	-9.21488
馬圖	-9.21593
片	-9.21653
濕	-9.21677
隸書	-9.21742
靄	-9.21744
像一	-9.21753
桑	-9.21858
妻	-9.21876
輔	-9.21893
懐素	-9.21978
繡	-9.21999
朔	-9.22041
而後	-9.2206
下筆	-9.22088
曠	-9.22134
彩	-9.22181
迷	-9.22221
戯	-9.22288
戰	-9.22379
其間	-9.22468
勉	-9.22651
四字	-9.22698
姜	-9.22789
投	-9.22809
御筆	-9.22877
呈	-9.23142
洛	-9.23216
支	-9.2328
彭	-9.23373
輝	-9.23373
低	-9.23425
弄	-9.23527
顛	-9.23545
米元章	-9.23587
暉	-9.23668
招	-9.23736
科	-9.23871
憐	-9.23876
皇帝	-9.23909
荆	-9.23927
後漢	-9.23945
劒	-9.23965
頓	-9.24049
贊曰	-9.24051
閱	-9.24132
提	-9.24175
彌	-9.24296
痛	-9.24315
襲	-9.24319
飄	-9.24524
抑	-9.24626
無所	-9.24717
擊	-9.24722
潔	-9.24727
足下	-9.2475
柔	-9.24831
徃	-9.24936
長史	-9.2501
著色	-9.25136
氣韻	-9.25253
患	-9.25255
委	-9.25288
宴	-9.25532
偃	-9.25621
慮	-9.25693
欵云	-9.25764
一本	-9.25829
燈	-9.25933
米芾	-9.26072
凌	-9.26102
精妙	-9.26115
校	-9.26186
庸	-9.26284
岡	-9.26471
閑	-9.26563
審	-9.26575
納	-9.26651
勅	-9.26755
晝	-9.26821
譽	-9.26852
明皇	-9.26869
貢	-9.26885
刻石	-9.26929
祐	-9.2693
百年	-9.26967
詩帖	-9.27174
辱	-9.27214
十四	-9.2724
學書	-9.27304
家傳	-9.2736
厯	-9.27507
日月	-9.27597
纎	-9.27627
勾	-9.27641
兔	-9.27651
寫生	-9.27697
那	-9.27749
一尺	-9.27834
沒	-9.27871
禄	-9.28173
歐陽	-9.28207
千載	-9.28303
古木	-9.28323
之上	-9.2833
姓名	-9.28439
四十	-9.28485
採	-9.28614
謬	-9.28615
蛇	-9.28721
輿地碑目	-9.28871
草堂	-9.28965
桃花	-9.29031
涼	-9.29037
顔魯公	-9.29069
腕	-9.29147
頃	-9.29185
揮	-9.29281
圖并題	-9.2929
髙宗	-9.2937
掃	-9.29416
脫	-9.29459
樵	-9.29476
脩	-9.29531
亦不	-9.29591
襄	-9.29676
之印	-9.29735
蕩	-9.29844
把	-9.29978
倪	-9.3001
磨	-9.30045
蔡邕	-9.30049
瓊	-9.30059
囘	-9.30061
材	-9.30077
之氣	-9.30095
苔	-9.30423
循	-9.30474
五十	-9.30485
無不	-9.30497
足以	-9.30502
速	-9.30563
緩	-9.30583
仿	-9.30616
元人	-9.30682
圖畫	-9.30695
三十	-9.30711
洪武	-9.30741
者皆	-9.3078
賔	-9.30826
精神	-9.30896
宛	-9.31008
渚	-9.31264
鬱	-9.3127
副	-9.31385
千古	-9.31433
冀	-9.3147
佩	-9.31497
簾	-9.31499
潘	-9.31513
國公	-9.31531
罪	-9.31647
縱横	-9.31669
震	-9.31699
後學	-9.31828
氷	-9.31834
以此	-9.31963
寸	-9.32027
謁	-9.32096
二月	-9.32263
繞	-9.32508
也今	-9.32598
以來	-9.32792
係	-9.32904
亮	-9.32941
傑	-9.32946
王維	-9.33149
剛	-9.33201
伯時	-9.3331
所畫	-9.33352
郊	-9.33357
昨	-9.3342
小景	-9.33596
煩	-9.33673
沉	-9.33967
鷹	-9.34041
繪事	-9.34062
山隂	-9.34073
嶽	-9.34125
堯	-9.34133
旦	-9.34138
七月	-9.34143
競	-9.34221
觀之	-9.34338
魯公	-9.34406
世之	-9.34482
其人	-9.34489
座	-9.34514
京師	-9.3454
落筆	-9.34623
然則	-9.34682
欽定四庫全書	-9.3477
士大夫	-9.348
王羲之	-9.34809
慧	-9.34816
迎	-9.35062
嘆	-9.35215
靡	-9.35236
可愛	-9.35255
伊	-9.35285
罕	-9.3529
禁	-9.35302
肆	-9.35488
松雪	-9.35493
淨	-9.35518
徽	-9.35634
吐	-9.35666
九月	-9.35779
髪	-9.3578
際	-9.35811
踈	-9.35908
争	-9.3594
買	-9.35966
行草書	-9.36036
汪	-9.36096
響	-9.36132
蒲	-9.36137
衞	-9.36303
社	-9.36397
殺	-9.36532
窓	-9.36571
詣	-9.36584
雁	-9.36727
案	-9.36742
壑	-9.36745
扶	-9.3681
梢	-9.36855
奴	-9.36955
欵	-9.37015
得意	-9.37142
繫	-9.37168
圃	-9.3719
單	-9.37351
征	-9.3737
造化	-9.37398
諸公	-9.37523
兄弟	-9.37558
輪	-9.37616
界	-9.37657
昏	-9.37836
佛像	-9.37895
拘	-9.38009
俾	-9.38068
識者	-9.38079
創	-9.38265
第四	-9.38525
黙	-9.38539
張芝	-9.38682
杯	-9.3869
敗	-9.38719
棲	-9.38777
厥	-9.38949
獵	-9.38972
遒勁	-9.38977
羅漢	-9.39002
宰	-9.39095
不如	-9.39143
朗	-9.39166
夲	-9.39173
證	-9.39174
歐	-9.39202
今在	-9.3925
潮	-9.39296
樂毅論	-9.39385
觀者	-9.39562
數十	-9.39577
訣	-9.39594
話	-9.39695
塘	-9.39764
之餘	-9.39899
如何	-9.39965
況	-9.40094
乘	-9.4024
法帖	-9.40317
忩	-9.40325
楮	-9.40338
巨然	-9.40654
邈	-9.40724
寂	-9.40747
寡	-9.40754
基	-9.40793
班	-9.40937
巾	-9.40974
敵	-9.41408
包	-9.41421
赴	-9.41435
窺	-9.41491
雲山	-9.41617
廿	-9.41752
馬逺	-9.41801
裔	-9.41873
裂	-9.41889
擅	-9.41955
冰	-9.42027
清風	-9.42124
暢	-9.42307
其名	-9.4237
疊	-9.42376
谿	-9.42376
八十	-9.42476
痩	-9.42542
恵	-9.42588
蔣	-9.42604
春風	-9.42755
暇	-9.4281
牕	-9.42825
營	-9.42939
芾	-9.42952
眠	-9.43061
翎毛	-9.43085
八年	-9.43156
辰	-9.43205
農	-9.43255
挺	-9.4326
摩	-9.43274
二璽	-9.43577
祭	-9.43657
不勝	-9.43672
寺碑	-9.43681
鄙	-9.43722
蟲	-9.43747
書於	-9.4378
講	-9.43807
葛	-9.43912
畫史㑹要	-9.43914
熊	-9.43963
究	-9.44014
黄庭	-9.44049
設色	-9.44076
牽	-9.44143
李伯時	-9.44146
沈周	-9.44148
用之	-9.44178
而無	-9.44361
竿	-9.44402
二帖	-9.44421
層	-9.44673
遵	-9.44686
嗚呼	-9.44705
法度	-9.4474
鱗	-9.44879
敎	-9.44943
禹	-9.44989
集古録	-9.45004
秋山	-9.45074
肯	-9.45078
變化	-9.45079
遜	-9.45178
圖卷	-9.45237
不失	-9.45265
名畫	-9.45284
昔人	-9.45284
武帝	-9.45297
𨽻書	-9.45357
也其	-9.45399
款署	-9.45453
畏	-9.45518
大篆	-9.45568
激	-9.45587
巢	-9.45623
灑	-9.45805
春秋	-9.45964
卣	-9.45986
名家	-9.46101
讓	-9.46127
矩	-9.46258
霄	-9.46288
内府	-9.46298
圖四	-9.46331
蓄	-9.46376
柱	-9.46421
三寸	-9.46428
趯	-9.46572
皮	-9.46582
上人	-9.46705
李唐	-9.4672
處士	-9.4674
穿	-9.46828
卓	-9.46837
優	-9.46963
今觀	-9.47037
攷	-9.47037
阮	-9.47045
巻	-9.47111
斤	-9.47218
自號	-9.47248
枕	-9.47276
不在	-9.47368
莫不	-9.47386
寒林	-9.47505
剪	-9.47544
而有	-9.47595
戈	-9.47605
乙	-9.47722
探	-9.47755
戎	-9.47767
瀟湘	-9.47977
榻	-9.4803
辛	-9.48059
不過	-9.48138
倪瓚	-9.48169
州人	-9.48265
胸中	-9.48265
例	-9.48287
三日	-9.48427
何以	-9.48549
八分書	-9.48551
山林	-9.48564
遒	-9.48649
王氏跋一	-9.48802
五月	-9.48803
繇	-9.48908
形似	-9.48973
泊	-9.49029
輙	-9.49032
而下	-9.491
辟	-9.49203
尺牘	-9.49218
藉	-9.49248
自是	-9.49263
萬厯	-9.4927
網	-9.49277
没	-9.49333
収	-9.49414
也然	-9.49455
袖	-9.4947
洛陽	-9.49558
書學	-9.49575
金石	-9.49578
草木	-9.49693
得此	-9.497
逹	-9.49784
尉	-9.49839
逼	-9.49841
邁	-9.4999
泛	-9.50315
神仙	-9.50384
故人	-9.50428
尤工	-9.50457
鈞	-9.5046
一笑	-9.50548
襟	-9.50725
塗	-9.50749
熱	-9.50992
鄧	-9.51002
御府	-9.51046
侍中	-9.51242
琳	-9.51246
歡	-9.51433
諸印又	-9.5146
幻	-9.51467
廟碑	-9.51676
違	-9.51725
額	-9.51728
擇	-9.51835
不然	-9.51882
一枝	-9.51899
滯	-9.51923
李斯	-9.5198
侍郎	-9.52066
流水	-9.52205
舎	-9.52224
然而	-9.52253
勸	-9.52259
之際	-9.52357
工畫	-9.52398
半印	-9.52504
描	-9.52515
珍藏	-9.52519
款云	-9.5256
十七	-9.52626
第十	-9.52681
求之	-9.52684
併	-9.52699
以下	-9.52717
珊瑚網	-9.52771
匪	-9.52779
者有	-9.52949
墓誌	-9.52959
明月	-9.53008
汀	-9.53009
齒	-9.53017
鼻	-9.53101
題識	-9.53291
前人	-9.53304
天台	-9.53383
紛	-9.53435
題名	-9.53449
免	-9.53529
之曰	-9.53685
墨畫	-9.5372
鑄	-9.53768
碎	-9.53788
裁	-9.53907
七年	-9.53913
亨	-9.54021
十餘	-9.54034
歐陽詢	-9.54058
樹石	-9.54169
緒	-9.54262
晨	-9.54284
如是	-9.54344
未能	-9.54366
蹤	-9.54472
同時	-9.54534
渠	-9.54548
悦	-9.54561
四寸	-9.54859
以其	-9.54935
正月	-9.55064
舜	-9.55065
擢	-9.55078
肇	-9.55081
攻	-9.55095
哲	-9.55184
其事	-9.55191
活	-9.55273
何人	-9.55282
褚遂良	-9.55285
津	-9.55317
遭	-9.55344
判	-9.55438
觚	-9.55446
筠	-9.55585
圍	-9.5559
其一	-9.55603
博士	-9.5561
必有	-9.55772
河東	-9.55792
亦可	-9.55809
臥	-9.55875
二人	-9.55896
鄰	-9.55904
涉	-9.56084
能書	-9.5613
書如	-9.56189
孔子	-9.56223
蘆	-9.56248
奚	-9.56303
遍	-9.56354
爰	-9.56376
苟	-9.56389
邦	-9.56409
壇	-9.56551
策	-9.56616
混	-9.56653
墮	-9.56661
洞庭	-9.56708
李氏	-9.56752
四時	-9.56791
山川	-9.56981
書家	-9.57026
著色畫	-9.57143
専	-9.57153
練	-9.57196
主人	-9.5723
天王	-9.57232
豫章	-9.57235
是以	-9.57354
太平	-9.57389
范寛	-9.57523
銘曰	-9.57624
弼	-9.57718
憑	-9.57729
寵	-9.57916
其上	-9.57956
齡	-9.5799
字仲	-9.58032
局	-9.58083
博學	-9.58222
賦詩	-9.58327
翔	-9.58388
松石	-9.58416
繩	-9.58427
暑	-9.58434
勲	-9.58537
畫者	-9.58617
牀	-9.58809
庾	-9.58819
海棠	-9.58836
素絹本著色畫	-9.59085
昆	-9.59087
至元	-9.59133
世人	-9.59142
永樂	-9.59158
給	-9.59194
十日	-9.59251
京兆	-9.59259
菩薩像	-9.59314
書史	-9.59336
金陵	-9.59476
互	-9.59571
普	-9.59575
壓	-9.59586
牙	-9.59624
御題	-9.59663
書也	-9.5978
驅	-9.59797
之狀	-9.59805
西湖	-9.59817
秋風	-9.59854
匠	-9.60089
削	-9.60137
墜	-9.60218
鍾王	-9.60311
石田	-9.60382
煥	-9.60386
帙	-9.60412
時有	-9.60609
喻	-9.60675
滋	-9.60678
二日	-9.60739
嗜	-9.60982
作字	-9.61129
山圖	-9.61235
羊欣	-9.6124
役	-9.61247
籠	-9.61277
弓	-9.61491
雲間	-9.61502
之下	-9.61512
倦	-9.61535
麻	-9.61604
柯	-9.61777
虞世南	-9.6178
彷彿	-9.61787
今人	-9.61798
惑	-9.61808
啼	-9.61831
此碑	-9.61885
熈	-9.62067
躍	-9.62069
成化	-9.62093
箋	-9.62095
也故	-9.62164
不覺	-9.62217
祀	-9.62317
好事者	-9.62334
貽	-9.62336
古之	-9.62347
岐	-9.62347
扁舟	-9.62378
托	-9.62414
霽	-9.62494
午	-9.62613
龍眠	-9.62796
畫史	-9.62892
桐	-9.62935
統	-9.62945
逮	-9.63101
乍	-9.63191
臨摹	-9.63194
織	-9.63381
鷄	-9.63448
平逺	-9.63484
此本	-9.635
七十	-9.63523
仙人	-9.63667
瑶	-9.63682
誕	-9.63735
中書	-9.63768
添	-9.63783
鵲	-9.63792
旭	-9.63871
三字	-9.63884
之筆	-9.63894
十九	-9.6397
妃	-9.64038
周昉	-9.64092
姬	-9.64124
乳	-9.64213
碑在	-9.64308
桓	-9.64322
婉	-9.64328
預	-9.64336
御府所藏	-9.64409
裕	-9.64412
黄庭經	-9.64417
減	-9.64599
稿	-9.64618
畫院	-9.64635
六十	-9.64684
酬	-9.64913
厭	-9.64926
纂	-9.6493
㓜	-9.64933
擁	-9.6495
人家	-9.65065
六寸	-9.6523
者亦	-9.65416
敘	-9.65508
晉人	-9.65535
鵞	-9.65539
定武	-9.65677
皴	-9.65751
踏	-9.65811
頴	-9.65814
所能	-9.65818
懿	-9.65833
相似	-9.65873
天子	-9.65874
焦	-9.6594
印一	-9.65995
炎	-9.66047
耀	-9.66103
廊	-9.66159
王右軍	-9.66347
誇	-9.66359
栖	-9.6636
今見	-9.66366
燭	-9.66368
秉	-9.66395
技	-9.66413
以示	-9.66428
至于	-9.66448
嵩	-9.66469
未必	-9.66588
髮	-9.66597
其子	-9.66607
押	-9.66622
自書	-9.66647
增	-9.66662
廉	-9.66679
醒	-9.66864
戚	-9.6688
東海	-9.66884
誌	-9.66937
藤	-9.6696
旣	-9.66964
鑿	-9.66975
痕	-9.6699
規矩	-9.67011
一二	-9.67125
風吹	-9.6719
乃知	-9.67364
髣髴	-9.67554
團	-9.67558
羙	-9.67587
元趙孟頫書	-9.67662
自謂	-9.67743
緣	-9.6778
物也	-9.6781
綺	-9.6782
眷	-9.67826
江湖	-9.67833
本朝	-9.67841
三印	-9.67846
峭	-9.67852
陋	-9.67855
懶	-9.67861
飛動	-9.67874
諸家	-9.67898
吳郡	-9.67929
不逮	-9.67991
元趙孟頫	-9.67994
其家	-9.68035
聴	-9.68143
姪	-9.68151
費	-9.68158
安得	-9.68187
成都	-9.68283
古雅	-9.68451
俟	-9.68467
過之	-9.68489
眞蹟	-9.68507
後署	-9.6851
綴	-9.68727
當是	-9.68896
稽	-9.68938
出入	-9.68976
豆	-9.68987
乾隆	-9.6899
畔	-9.68994
人之	-9.6901
詩文	-9.69012
歸來	-9.69012
瓚	-9.69056
老子	-9.69063
智永	-9.69285
浄	-9.69302
字伯	-9.69302
無疑	-9.69303
晏	-9.69353
也又	-9.69382
檢	-9.69424
家有	-9.69536
徽宗	-9.69538
詹	-9.69539
摇	-9.6963
絃	-9.69651
其文	-9.69669
其中	-9.6981
鑒定	-9.69888
疇	-9.69948
取其	-9.70094
其意	-9.70123
饒	-9.70153
美人	-9.70225
醫	-9.70251
不必	-9.70351
或云	-9.70494
俯	-9.70503
荘	-9.70546
三百	-9.70607
見於	-9.7061
怡	-9.70843
檀	-9.709
孟頫	-9.71015
換	-9.71146
配	-9.71164
沐	-9.7121
未見	-9.7125
肩	-9.71295
錢塘	-9.71374
蘓	-9.71453
奮	-9.71462
簷	-9.71476
靣	-9.71481
滑	-9.71483
而成	-9.71487
徹	-9.71496
於世	-9.71497
犬	-9.715
五字	-9.71502
嵗月	-9.71518
菩薩	-9.7156
金華	-9.71603
之心	-9.71617
掛	-9.7174
題跋	-9.71745
呉興	-9.71749
様	-9.71755
詢	-9.71789
不甚	-9.71797
宮	-9.71814
同上	-9.71839
彝	-9.71948
曰此	-9.7196
湏	-9.71977
所載	-9.72003
邉	-9.72062
途	-9.72068
爛	-9.72092
不以	-9.72112
鄒	-9.72116
牋	-9.72285
襄陽	-9.72309
飯	-9.72407
帆	-9.72415
而為	-9.72452
黄筌	-9.72462
草草	-9.7255
焚	-9.72638
稜	-9.7265
誼	-9.72697
階	-9.72723
一印又	-9.72757
可見	-9.72903
郎中	-9.72917
隷	-9.72934
嘉定	-9.72948
排	-9.73025
十二月	-9.73253
項氏	-9.73276
刺	-9.73295
真書	-9.73323
之態	-9.73415
一種	-9.73427
無窮	-9.73609
值	-9.73623
逾	-9.73626
書者	-9.73687
流傳	-9.73705
王獻之	-9.73834
返	-9.73941
隅	-9.73966
當世	-9.73968
臨池	-9.73975
肖	-9.73987
趙文敏	-9.74033
三昧	-9.7412
不用	-9.74214
電	-9.74493
尖	-9.74541
三代	-9.74546
榖	-9.74578
宦	-9.74586
諫	-9.74626
知之	-9.74705
枚	-9.74787
状	-9.74796
不識	-9.74901
筋	-9.74935
嘗見	-9.74937
不可以	-9.75072
千年	-9.75094
駿	-9.75165
纔	-9.75196
書于	-9.75203
淳化	-9.75255
徐浩	-9.75261
也余	-9.75333
衣冠	-9.75361
不宣	-9.75447
巳	-9.75459
血	-9.75518
十卷	-9.75569
為人	-9.75616
無人	-9.75724
大抵	-9.75725
揭	-9.75811
禽圖	-9.75826
噫	-9.75853
的	-9.75871
腰	-9.75882
米南宫	-9.75898
咏	-9.76015
臨本	-9.76079
劣	-9.76106
近世	-9.76137
觸	-9.76152
邨	-9.76183
踰	-9.76197
渉	-9.76221
者如	-9.76285
世傳	-9.7629
張旭	-9.76345
得名	-9.7635
真人	-9.76389
二卷	-9.76389
零	-9.7645
頻	-9.765
鼔	-9.76513
遽	-9.76528
此詩	-9.7653
謂其	-9.76589
不盡	-9.76617
丞	-9.76666
以自	-9.76771
縫	-9.76787
奥	-9.76866
司徒	-9.76916
相與	-9.76979
位置	-9.77014
茍	-9.77026
論畫	-9.77037
朋	-9.7711
驗	-9.77155
賴	-9.77202
一帖	-9.77208
售	-9.7732
生平	-9.77429
渭	-9.77453
陣	-9.77455
函	-9.77468
𤓰	-9.77484
黨	-9.77496
棹	-9.77508
五寸	-9.7751
手書	-9.77511
若此	-9.77553
癡	-9.77575
卷中	-9.77599
之孫	-9.77608
董源	-9.77671
竇	-9.77739
柏	-9.77779
筆也	-9.77779
割	-9.778
樞	-9.77801
導	-9.77838
不減	-9.77845
一册	-9.77894
九年	-9.78029
員	-9.78033
填	-9.78095
綸	-9.7813
㸔	-9.78157
墨林	-9.78171
玉堂	-9.78193
仇	-9.78295
可觀	-9.78302
十一月	-9.78361
徙	-9.78385
棘	-9.78426
𢎞治	-9.78548
他日	-9.78621
合作	-9.78625
遺墨	-9.78664
長沙	-9.78672
御史	-9.78683
促	-9.7874
邕	-9.78762
夫子	-9.78796
蔽	-9.78797
素箋本	-9.78819
抵	-9.78825
尤為	-9.78872
絶句	-9.79013
吳中	-9.79068
草聖	-9.79068
綱	-9.79087
蕭蕭	-9.79095
醜	-9.79096
悠悠	-9.7912
記云	-9.79137
攀	-9.7914
儼	-9.79155
蝶	-9.79159
岑	-9.79162
太常	-9.79212
篆隸	-9.79242
之學	-9.79401
敬書	-9.79415
聨	-9.79444
鵝	-9.79462
遼	-9.79499
九日	-9.79532
趙孟頫	-9.79634
猶有	-9.79702
自得	-9.79726
丹陽	-9.79732
虹	-9.79767
酌	-9.79785
不宜	-9.7985
與之	-9.79872
甲子	-9.80034
窻	-9.80094
毁	-9.8014
七日	-9.80215
絹素	-9.80269
距	-9.80291
白描	-9.80386
可喜	-9.8039
卜	-9.80402
觀音	-9.80422
綿	-9.80433
忌	-9.80476
者則	-9.80544
顔真卿	-9.80704
荅	-9.80754
庚	-9.80758
於後	-9.80761
祗	-9.80773
迥	-9.80783
珊瑚	-9.80829
司空	-9.80836
得於	-9.80873
墨池編	-9.80888
折枝	-9.809
髯	-9.81075
躬	-9.8115
卑	-9.81159
文學	-9.8117
杏	-9.81191
閩	-9.81211
鍾鼎款識	-9.81223
閻	-9.81384
者為	-9.81404
享	-9.81446
之作	-9.81448
挂	-9.81448
梵	-9.81482
工書	-9.81489
故其	-9.81489
少年	-9.81501
花卉	-9.81523
太尉	-9.81565
吾家	-9.81587
子昂	-9.81592
者其	-9.81625
系	-9.81625
藍	-9.81641
二印又	-9.81672
麓	-9.81674
􁀙	-9.81738
題詩	-9.81767
之事	-9.81772
庫	-9.81781
禪師	-9.81962
觀於	-9.82001
啄	-9.82083
思陵	-9.82128
懼	-9.82146
誥	-9.82166
巴	-9.82191
䝉	-9.82192
展玩	-9.82201
南唐	-9.82231
春草	-9.8231
元和	-9.824
森	-9.82421
黒	-9.82461
水仙	-9.82485
也夫	-9.82507
淚	-9.82519
彈	-9.8253
絳	-9.82534
求其	-9.82612
余家	-9.82716
竝	-9.82763
珪	-9.8279
辯	-9.82811
右丞	-9.83124
囊	-9.8315
倉	-9.83177
第二十	-9.83182
禍	-9.83187
淑	-9.8321
伯英	-9.83213
郭熙	-9.83265
言之	-9.83375
亦自	-9.83378
蟠	-9.83399
諭	-9.83469
押縫有	-9.83486
毋	-9.83526
雪景	-9.83585
自成一家	-9.83624
中書令	-9.83657
尚有	-9.83781
朝廷	-9.83818
二公	-9.83865
弊	-9.83871
太祖	-9.83905
太學	-9.83907
綽	-9.8394
桞	-9.83949
宋元	-9.84003
第五	-9.84016
之趣	-9.84017
前輩	-9.84032
嘯	-9.84036
宋史本傳	-9.84039
子也	-9.84151
翩翩	-9.84211
真行	-9.84239
羲之頓首	-9.84301
第二幅	-9.8438
者以	-9.84447
番	-9.84469
欵署	-9.84511
巒	-9.84523
匹	-9.84539
貝	-9.84567
溢	-9.8458
媿	-9.8458
尤精	-9.84651
毅	-9.84819
猷	-9.84968
幀	-9.84989
妙絶	-9.85026
相傳	-9.85083
畫圖	-9.85086
石經	-9.85139
駐	-9.85225
其妙	-9.8523
摘	-9.8526
魂	-9.85279
雉	-9.85296
逺近	-9.85385
富貴	-9.85425
不知其	-9.85467
趙松雪	-9.85482
行楷書	-9.85562
嵐	-9.85572
粲	-9.85783
畫卷	-9.85794
箋本	-9.85882
邱	-9.85911
㝠	-9.85945
徧	-9.85957
稀	-9.85972
障	-9.85975
余嘗	-9.85982
起居	-9.85999
占	-9.86086
妙品	-9.86097
集賢	-9.86121
未知	-9.86143
與此	-9.86169
一筆	-9.864
一作	-9.86502
腹圍二尺	-9.86538
生動	-9.86539
張長史	-9.86614
其昌	-9.86621
知名	-9.86627
則有	-9.86643
賊	-9.86662
十五年	-9.86715
款	-9.86716
濁	-9.86724
朴	-9.8673
四方	-9.86747
杭	-9.86776
慨	-9.86778
廬陵	-9.86814
菜	-9.87038
郭忠恕	-9.87042
晋	-9.87044
笛	-9.87055
軌	-9.87057
延祐	-9.87081
世間	-9.87098
大徳	-9.87258
紙上	-9.87267
岫	-9.8732
倍	-9.87359
諸人	-9.87363
國朝	-9.87374
飽	-9.87381
夾	-9.87391
穎	-9.87432
泣	-9.87435
翫	-9.87452
卞	-9.87461
者乎	-9.87471
公子	-9.87555
汴	-9.8767
童子	-9.87676
䕫	-9.87685
之言	-9.87718
汲	-9.87752
淪	-9.87765
氣象	-9.87787
唱	-9.87812
尤善	-9.87991
湛	-9.88007
無復	-9.88033
貞元	-9.88083
髙士	-9.88089
恬	-9.88146
鬭	-9.88166
敬題	-9.883
鳩	-9.88382
掣	-9.88435
蕭子雲	-9.88478
第三幅	-9.88483
育	-9.88507
孝經	-9.88515
索靖	-9.88516
韓幹	-9.88593
出示	-9.88744
畫繼	-9.8885
漆	-9.88854
穴	-9.88856
漏	-9.89049
畫家	-9.89106
朕	-9.8916
賓	-9.89166
上方	-9.8917
懋	-9.8921
庵	-9.89219
宛然	-9.89221
暖	-9.89222
畫法	-9.89407
失其	-9.89487
洛神賦	-9.89639
作此	-9.89641
宣和書譜	-9.89646
洽	-9.89684
參差	-9.89694
六朝	-9.89815
第七	-9.89879
皆以	-9.89885
隣	-9.89966
稱其	-9.89986
厲	-9.89991
男	-9.90055
小幅	-9.90104
蜀人	-9.90128
王叔明	-9.90207
長洲	-9.90218
誓	-9.90293
旌	-9.9033
耆	-9.90337
逆	-9.90339
刋	-9.90344
携	-9.90358
磔	-9.90617
徴明	-9.90707
者不	-9.90806
者必	-9.90806
一一	-9.90821
趙子昻	-9.90898
弩	-9.90941
八法	-9.90952
卷前有	-9.91008
旨	-9.9101
銜	-9.91045
禇	-9.91045
蠶	-9.91046
鳬	-9.91085
之流	-9.91104
江上	-9.9113
好事	-9.91197
以上	-9.9122
一部	-9.91295
不知何	-9.91298
五色	-9.91308
宋徽宗	-9.91311
天寳	-9.91348
或有	-9.914
項元汴印	-9.91448
謝安	-9.91533
縮	-9.91712
一見	-9.91776
終日	-9.91801
濯	-9.91816
闌	-9.91825
妹	-9.91851
茗	-9.91872
林木	-9.919
不類	-9.91909
復有	-9.91946
幽人	-9.92127
臂	-9.9215
裹	-9.92187
決	-9.92225
瓶	-9.92258
从	-9.92464
柄	-9.9252
膏	-9.92594
禧	-9.92613
酣	-9.92616
曇	-9.92619
怨	-9.92635
梁武帝	-9.92672
隐	-9.92681
矜	-9.92846
炳	-9.92893
杳	-9.92914
伸	-9.92948
當年	-9.92988
區	-9.93012
神妙	-9.93058
敷	-9.9307
西山	-9.93079
馬和之	-9.93133
最為	-9.9314
圭	-9.93146
困	-9.9317
鷗	-9.93242
㧞	-9.93335
左方	-9.93342
犯	-9.93347
山水人物	-9.93352
見書	-9.93352
縈	-9.93367
轍	-9.93392
京口	-9.93535
貯	-9.93705
韶	-9.93716
真草	-9.93727
株	-9.93737
忍	-9.9379
晚年	-9.93791
人皆	-9.93831
鷺	-9.94073
迨	-9.941
觴	-9.94108
故物	-9.9411
諡	-9.94128
坊	-9.94139
雕	-9.94141
八寸	-9.94157
時為	-9.94241
入神	-9.94243
蕃	-9.94278
大觀	-9.94296
葵	-9.9437
三尺	-9.94373
劉松年	-9.94423
無一	-9.94436
域	-9.94442
睡	-9.94462
鬢	-9.94481
貨	-9.94502
坦	-9.94517
杏花	-9.94549
曰吾	-9.94561
甞	-9.94563
圜	-9.948
文帝	-9.94814
第七幅	-9.94821
賤	-9.94861
𦂳	-9.94861
芬	-9.94871
浸	-9.94872
第四幅	-9.94878
構	-9.9488
握	-9.94903
嫌	-9.94905
槐	-9.94948
東南	-9.94964
考之	-9.95085
籬	-9.95198
不朽	-9.95217
播	-9.95246
第六幅	-9.9525
不相	-9.95263
纖	-9.95276
識云	-9.95277
一百	-9.95431
學之	-9.95451
執筆	-9.95479
其畫	-9.95511
一篇	-9.95524
甚多	-9.95588
堆	-9.95666
一㸃	-9.95672
迅	-9.95704
明董其昌	-9.95718
鬚	-9.9572
丘壑	-9.95723
相類	-9.9574
之時	-9.95753
古法	-9.95764
之則	-9.95797
刑	-9.95947
神氣	-9.9596
伐	-9.96064
伴	-9.96066
二寸	-9.96086
亦能	-9.96088
涵	-9.96089
生意	-9.9609
湖州	-9.96201
其法	-9.96224
春山	-9.96237
永嘉	-9.9625
明日	-9.96268
草蟲	-9.96311
子京	-9.96346
篆籀	-9.96415
嘉興	-9.96433
彰	-9.96452
行筆	-9.96508
已上	-9.96564
之名	-9.96623
收藏	-9.96633
字體	-9.96662
衡山	-9.96691
第五幅	-9.96774
文殊	-9.96826
迺	-9.96841
瑩	-9.96844
㫁	-9.96848
海内	-9.96868
東風	-9.96876
鵬	-9.96881
羞	-9.96884
米老	-9.97009
涯	-9.9701
蟬	-9.97019
此畫	-9.97069
莫能	-9.97184
畫竹	-9.97204
晉唐	-9.97211
耳髙	-9.97223
藴	-9.9726
鐫	-9.97263
縷	-9.97274
淋漓	-9.97276
孺	-9.97303
當以	-9.97361
摩詰	-9.97381
元常	-9.97464
豈非	-9.9751
第八幅	-9.97564
逕	-9.97673
荀	-9.97677
大年	-9.97687
駭	-9.97688
其為	-9.97706
種種	-9.978
南北	-9.97827
向背	-9.97846
五日	-9.97903
之盛	-9.98019
麤	-9.98026
吏部	-9.98036
遐	-9.98038
宰相	-9.98079
榜	-9.98081
寢	-9.9811
姑蘇	-9.98158
唐寅	-9.98177
大癡	-9.98211
台	-9.98213
國初	-9.98218
至此	-9.98261
二首	-9.98269
廬山	-9.98342
其形	-9.9837
書名	-9.98437
欺	-9.98462
未易	-9.98463
虞集	-9.98481
二百	-9.98622
運筆	-9.98698
子瞻	-9.98757
透	-9.98818
喪	-9.98839
潜	-9.98843
𤣥宗	-9.98845
羲獻	-9.98876
入妙	-9.98883
槎	-9.98894
爪	-9.98902
周公	-9.98918
致仕	-9.99158
嵗在	-9.99166
數百	-9.99226
區區	-9.99254
鎖	-9.99276
饕餮	-9.99363
子固	-9.99384
三絶	-9.99464
筋骨	-9.99474
六書	-9.99528
三人	-9.99561
築	-9.99631
豫	-9.99633
圎	-9.99642
沙門	-9.99659
臯	-9.99702
天然	-9.9982
矣然	-9.9985
錢唐	-9.99912
秋水	-9.9993
愛之	-9.99953
匀	-10.0004
瓦	-10.0004
羲	-10.0015
妙處	-10.0015
史籀	-10.0016
當為	-10.0016
自題	-10.0019
夕陽	-10.0027
有此	-10.0031
鉤	-10.0034
東西	-10.0038
外史	-10.0044
莽	-10.0045
昻	-10.0047
鶻	-10.0051
褚河南	-10.0052
泥金	-10.0056
不易	-10.0061
瓣	-10.0082
未得	-10.0083
清勁	-10.0084
倩	-10.0089
詎	-10.009
逝	-10.0091
舊藏	-10.0091
癖	-10.0092
補之	-10.0093
圖繪寳鑑	-10.0101
架	-10.0101
李思訓	-10.011
山居	-10.0115
明年	-10.0119
王僧䖍	-10.0121
蕉	-10.0125
次韻	-10.0125
聖人	-10.0127
浴	-10.0128
版	-10.0129
帳	-10.013
畫像	-10.0132
罔	-10.0134
李邕	-10.0135
三足	-10.0137
人馬	-10.014
南宫	-10.0143
八字	-10.0157
觀此	-10.0162
石本	-10.0167
素絹本	-10.0169
橘	-10.0172
逵	-10.0172
挾	-10.0174
臨川	-10.0175
兎	-10.0177
繹	-10.0177
聳	-10.0178
凡十	-10.0185
長於	-10.0185
元暉	-10.0191
海岳	-10.0193
槩	-10.0195
重一百	-10.0195
款題云	-10.0205
蘿	-10.0212
措	-10.0214
閻立本	-10.0218
太師	-10.0219
今之	-10.0221
翰林學士	-10.0225
南陽	-10.0236
而能	-10.0241
好古	-10.0245
打	-10.0248
虬	-10.025
批	-10.0256
宸翰	-10.0256
捧	-10.0256
能詩	-10.0258
儉	-10.0262
政和	-10.0263
昂	-10.0267
參軍	-10.0267
名人	-10.0268
元豐	-10.0276
俱有	-10.0295
猛	-10.0295
揖	-10.0297
南山	-10.0299
瀟灑	-10.0299
鶯	-10.03
裘	-10.0301
諒	-10.0302
叔明	-10.0308
筆端	-10.0309
文公	-10.0323
十一年	-10.0324
千金	-10.0325
旬	-10.0328
士女	-10.0331
緊	-10.0333
往來	-10.0333
阜	-10.0338
沾	-10.0341
擕	-10.0341
宣和畫譜	-10.0341
祁	-10.0341
風神	-10.0343
禎	-10.0344
山色	-10.0348
第六	-10.035
閏	-10.0351
布置	-10.0354
故事	-10.0354
此其	-10.0354
右軍書	-10.0361
淵明	-10.0363
可與	-10.0368
拱	-10.0373
北海	-10.0375
中興	-10.0376
乖	-10.0376
顧陸	-10.0385
五分	-10.0391
不與	-10.0391
臻	-10.0391
君謨	-10.0392
百世	-10.0395
唐太宗	-10.0396
第九幅	-10.0413
蘇州	-10.0416
拖尾有	-10.0422
遙	-10.0423
碩	-10.0425
強	-10.0425
軾	-10.0425
今年	-10.0426
害	-10.0426
驟	-10.0427
字元	-10.0442
一代	-10.0447
不忘	-10.045
芒	-10.0457
百餘	-10.0458
防	-10.0463
數日	-10.0464
沖	-10.0465
洒	-10.0465
王孫	-10.0466
鐡	-10.0469
腸	-10.0469
蹈	-10.0469
灘	-10.047
黄金	-10.0471
䟦云	-10.0472
歴代	-10.0472
三分	-10.0483
不是	-10.0498
責	-10.0505
傲	-10.0506
他人	-10.0508
程邈	-10.0509
盟	-10.0511
焚香	-10.0516
其餘	-10.0518
落花	-10.0532
不應	-10.0532
宗室	-10.0538
中書舍人	-10.0546
先君	-10.0553
稚	-10.0555
穀	-10.0556
閨	-10.0557
恕	-10.0558
謫	-10.0565
昧	-10.0574
皇象	-10.0581
三十年	-10.0594
之道	-10.0596
碣	-10.0599
宵	-10.0601
十三年	-10.0616
世俗	-10.0616
蘇軾	-10.0624
次之	-10.0628
諸賢	-10.0631
豈不	-10.0632
碑隂	-10.0638
乾坤	-10.0638
摧	-10.0642
蔡君謨	-10.0643
捨	-10.0645
正徳	-10.0648
得一	-10.0652
十二年	-10.0652
三帖	-10.0656
藏之	-10.0657
掠	-10.0673
線	-10.068
維摩	-10.068
䖍	-10.0682
貶	-10.0682
薛稷	-10.0686
卷後有	-10.0687
頓首再拜	-10.0687
一寸	-10.0697
三卷	-10.0699
不成	-10.0703
睿	-10.0708
不可得	-10.0716
髙祖	-10.0718
梓	-10.0722
鋪	-10.0725
之迹	-10.0726
矢	-10.0727
蕪	-10.0728
江東	-10.0728
確	-10.073
太傅	-10.0731
别有	-10.0732
雙鈎	-10.0733
閭	-10.0734
偕	-10.0734
右高	-10.0739
書斷	-10.074
一曰	-10.0745
友人	-10.0747
間有	-10.0748
金石略	-10.0751
之義	-10.0754
軰	-10.0763
畫品	-10.0767
江西	-10.077
誨	-10.0771
汗	-10.0773
革	-10.0774
祝允明	-10.0776
書此	-10.0776
粧	-10.0778
神明	-10.0789
棠	-10.081
子弟	-10.0812
衮	-10.0813
嘗為	-10.0813
斂	-10.0814
儲	-10.0816
圖宋	-10.0816
阻	-10.0816
黑	-10.0816
勇	-10.0819
仁宗	-10.0827
白石	-10.083
天下之	-10.0833
崑山	-10.0834
徵明	-10.0835
紳	-10.0835
帝王	-10.0847
扁	-10.0853
亷	-10.0857
滴	-10.0864
厓	-10.0864
不録	-10.0867
徐熙	-10.0875
竪	-10.0896
侵	-10.0906
荆浩	-10.0913
懷素	-10.0919
同觀	-10.092
太和	-10.0921
不堪	-10.0921
人以	-10.0928
分明	-10.0944
近代	-10.0947
雲氣	-10.0949
之中	-10.0949
今世	-10.0951
一行	-10.0951
冲	-10.0951
辛丑	-10.0952
装	-10.0953
藩	-10.0955
萬物	-10.0974
于此	-10.0978
中楷	-10.0987
瑟	-10.0995
島	-10.0996
邸	-10.0999
作詩	-10.0999
所臨	-10.1003
杭州	-10.1003
可為	-10.1015
失之	-10.1016
堵	-10.1019
第十幅	-10.1035
欹	-10.1035
旗	-10.1038
析	-10.104
縣志	-10.1042
其下	-10.1044
春日	-10.1049
北苑	-10.1052
字法	-10.1055
祕閣	-10.106
二十四	-10.1075
縑	-10.1079
何必	-10.108
嶠	-10.1082
綵	-10.1085
企	-10.1087
亦非	-10.1087
抗	-10.1087
不欲	-10.1091
亦以	-10.1093
宋髙宗	-10.1093
一家	-10.1094
是時	-10.11
溥	-10.11
腹圍	-10.1104
所收	-10.1104
筆畫	-10.1113
柴	-10.1113
并題	-10.1115
帥	-10.112
蔚	-10.1121
瓘	-10.1123
張氏	-10.1125
出其	-10.1125
協	-10.1129
突	-10.113
科斗	-10.113
魏晉	-10.1133
慢	-10.1133
艶	-10.1133
王子	-10.1133
逍遥	-10.1134
箇	-10.1134
觧	-10.1134
羡	-10.1137
人生	-10.1141
定為	-10.1143
作者	-10.1149
中秋	-10.1156
之變	-10.1161
畫馬	-10.1162
一片	-10.1167
視之	-10.117
尼	-10.1171
饑	-10.1174
廓	-10.1175
也若	-10.1176
陀	-10.1179
跋語	-10.1179
斑	-10.1179
彛	-10.118
䕃	-10.1182
葬	-10.1183
淳熙	-10.1183
兩耳	-10.1186
瞿	-10.1187
以後	-10.1197
拾	-10.1217
笙	-10.1221
心經	-10.1221
産	-10.1223
所為	-10.1224
琦	-10.1225
攸	-10.1227
自古	-10.1228
陽人	-10.1232
人所	-10.1233
寳之	-10.1233
花竹	-10.1236
塲	-10.1247
蕭散	-10.1248
皇后	-10.1249
其父	-10.1256
七寸	-10.1258
巗	-10.1265
萃	-10.1272
舘	-10.1272
不免	-10.1274
妖	-10.1276
二十八	-10.1278
之徒	-10.1281
時時	-10.1284
傳之	-10.1284
不出	-10.1286
婁	-10.1301
挑	-10.1301
卷後	-10.1306
救	-10.1314
曷	-10.1316
暎	-10.1317
諸帖	-10.132
績	-10.132
御製	-10.1323
神物	-10.1323
何時	-10.1324
隠居	-10.1338
好學	-10.1342
澀	-10.1358
呉郡	-10.1361
截	-10.1361
甲辰	-10.1363
盆	-10.1363
斧	-10.1365
主簿	-10.1366
倪雲林	-10.1366
車馬	-10.1371
則其	-10.1376
褒	-10.1377
不已	-10.139
援	-10.139
用意	-10.1391
張僧繇	-10.1402
讚	-10.1403
優劣	-10.1406
然其	-10.1408
䨇	-10.141
咫尺	-10.1414
雖然	-10.1422
相對	-10.1426
刻之	-10.1426
明沈周	-10.1426
史本傳	-10.1431
善草書	-10.1432
天一	-10.1436
泰山	-10.1444
明帝	-10.1447
獄	-10.1451
結構	-10.1459
亟	-10.1462
咨	-10.1463
一段	-10.1464
和尚	-10.1464
宣王	-10.1465
圗三	-10.1466
籀	-10.1468
庶幾	-10.1469
李北海	-10.1473
畫工	-10.1486
善山水	-10.1499
該	-10.15
從事	-10.15
鬲	-10.1502
𦙍	-10.1503
竭	-10.1504
顧愷之	-10.1505
洋	-10.1506
鞭	-10.1507
未及	-10.152
秀潤	-10.1527
師於	-10.1532
無銘	-10.1537
蹲	-10.1537
曜	-10.1544
壤	-10.1546
夙	-10.1548
四大字	-10.1553
沛	-10.1554
𤣥宰	-10.1557
派	-10.1558
甲寅	-10.1558
秋日	-10.1563
宣徳	-10.1564
春雨	-10.1564
無以	-10.1572
文嘉	-10.1573
寫真	-10.1576
天真	-10.1592
帖真蹟一卷	-10.1595
拓	-10.1595
蒼頡	-10.1597
邀	-10.1602
西域	-10.1611
屏風	-10.1614
者多	-10.1616
秋色	-10.1626
二分	-10.1629
九十	-10.1631
華亭	-10.1632
石上	-10.1632
中間	-10.1642
摹本	-10.1645
欄	-10.1646
栁公權	-10.1648
嬌	-10.1649
䦨	-10.1651
瑕	-10.1651
粟	-10.167
山房	-10.1678
其次	-10.1681
小璽	-10.1682
何所	-10.1686
叅	-10.1694
算	-10.1695
乃是	-10.1695
輦	-10.1697
緯	-10.1699
奕奕	-10.17
太原	-10.1701
者非	-10.1705
供奉	-10.1707
又曰	-10.1713
所傳	-10.1715
則不	-10.1716
硬	-10.1717
文敏	-10.1727
李陽冰	-10.1731
庚子	-10.1734
閉	-10.1734
詩卷	-10.1736
惟有	-10.1738
於時	-10.1741
名蹟	-10.1745
搜	-10.1746
崇禎	-10.1748
祈	-10.175
恱	-10.1751
墻	-10.1751
二軸	-10.1755
古意	-10.1758
也此	-10.1761
流落	-10.1764
君臣	-10.1765
所存	-10.1772
五寸五分	-10.1773
由是	-10.1782
三十六	-10.1786
不暇	-10.1786
謹書	-10.1786
莖	-10.179
祚	-10.1792
纓	-10.1793
四明	-10.1794
膝	-10.1795
少時	-10.1795
不自	-10.1803
相見	-10.1817
二十年	-10.182
家法	-10.1821
形容	-10.1828
珍重	-10.1828
謨	-10.1833
紙墨	-10.1838
象形	-10.1839
貪	-10.184
珂	-10.184
淮南	-10.1841
暨	-10.1842
羨	-10.1843
宸	-10.1844
潁	-10.1847
岩	-10.1847
催	-10.1847
其先	-10.1847
賣	-10.1847
王詵	-10.1849
桃源	-10.1856
人善畫	-10.1864
吁	-10.1869
螭	-10.1873
逺山	-10.1875
凡三	-10.1876
茅屋	-10.1877
鵠	-10.1878
故也	-10.1881
牆	-10.1882
筌	-10.1885
測	-10.1888
取之	-10.1889
牘	-10.1889
冶	-10.189
絡	-10.1892
恥	-10.1892
迂	-10.1893
樊	-10.1894
屑	-10.1896
之美	-10.1899
世所	-10.1913
之至	-10.1919
匜	-10.1932
十七帖	-10.1933
昉	-10.1933
趙氏	-10.1933
駒	-10.1934
暫	-10.1939
耿	-10.194
未可	-10.1941
衢	-10.1942
戊辰	-10.1943
作也	-10.1943
長江	-10.1944
韋誕	-10.1945
戸	-10.1945
詭	-10.1945
書屋	-10.1945
或曰	-10.1952
可知	-10.1955
鑒賞	-10.1956
而去	-10.1967
府志	-10.1974
二幅	-10.1976
或謂	-10.1982
落日	-10.1983
亦無	-10.1984
溺	-10.1988
嘉禾	-10.1991
所居	-10.1992
俯仰	-10.1995
遮	-10.1995
文徴明	-10.1998
用墨	-10.1999
誰能	-10.2002
西風	-10.2003
紹聖	-10.2009
此君	-10.2022
輞川	-10.2027
海上	-10.2038
刪	-10.204
烟雲	-10.2041
悔	-10.2042
箕	-10.2044
嫩	-10.2044
少卿	-10.2045
深得	-10.205
瑯琊	-10.2051
陛下	-10.2052
未盡	-10.2067
齊名	-10.2069
其言	-10.2071
十有二	-10.2073
之功	-10.2074
龔	-10.2079
不似	-10.2085
翟	-10.2087
沂	-10.2089
警	-10.2089
紛紛	-10.209
彬	-10.2091
遁	-10.2091
世家	-10.2092
瓌	-10.2093
鄴	-10.2097
綾	-10.2099
改元	-10.2102
識其	-10.2113
彭城	-10.2116
此幅	-10.2121
大書	-10.2123
陳氏	-10.2125
不獨	-10.2128
僻	-10.2138
括	-10.2142
現	-10.2143
貎	-10.2144
覔	-10.2146
璞	-10.2147
紫芝	-10.215
亦善	-10.2153
墨妙	-10.2157
以見	-10.2157
諡文	-10.2159
皓	-10.216
子母	-10.2162
名士	-10.2165
王公	-10.2167
秋江	-10.2175
唐宋	-10.2183
禮部	-10.2185
慚	-10.2189
素箋本墨畫	-10.219
奎	-10.219
膠	-10.2191
摸	-10.2192
訛	-10.2192
料	-10.2193
扉	-10.2195
湍	-10.2197
泉石	-10.2198
滄浪	-10.2198
詞翰	-10.2199
嘗以	-10.22
結字	-10.22
或以	-10.2205
出于	-10.2207
歐虞	-10.2212
石室	-10.222
趙千里	-10.2224
言其	-10.2225
呉中	-10.2229
久之	-10.223
名手	-10.2231
所有	-10.2231
難得	-10.2234
雀圖	-10.2239
檜	-10.224
筵	-10.2242
輸	-10.2245
忙	-10.2245
簪	-10.2246
獲觀	-10.2248
米氏	-10.2252
綬	-10.2254
書畵	-10.2259
十五日	-10.2261
觀于	-10.2263
清潤	-10.2271
王蒙	-10.2275
十四年	-10.2286
篁	-10.229
李公	-10.2291
棋	-10.2292
陟	-10.2294
作畫	-10.2296
會稽	-10.23
引首	-10.2301
縑素	-10.2301
太白	-10.2304
鍾馗	-10.2305
雖不	-10.2306
張公	-10.2308
顔色	-10.2308
披圖	-10.2309
相國	-10.2309
神采	-10.231
歐陽公	-10.2314
天機	-10.2317
抽	-10.2336
九寸	-10.2338
不一	-10.2339
渴	-10.234
先後	-10.2341
劇	-10.2341
白日	-10.2342
朶	-10.2343
舍人	-10.2344
偈	-10.2345
不忍	-10.2347
乙丑	-10.2347
凍	-10.2348
繆	-10.2349
犀	-10.2351
逃	-10.2353
中郎	-10.2355
吳道子	-10.2357
又以	-10.2357
五寸二分	-10.236
将軍	-10.2361
山下	-10.2361
不作	-10.2368
皇甫	-10.2369
無此	-10.238
舟中	-10.2382
有神	-10.2382
之故	-10.2385
偶然	-10.2388
松江	-10.239
趙昌	-10.2393
府君	-10.2395
南京	-10.2395
驪	-10.2398
裳	-10.2399
頤	-10.24
崩	-10.2403
湖山	-10.2408
月明	-10.241
重一十	-10.2422
龍蛇	-10.2428
畫人物	-10.2438
又見	-10.2439
一兩	-10.2442
見示	-10.2444
艱	-10.2449
晁	-10.2452
衝	-10.2454
膚	-10.2454
白頭	-10.2457
文獻	-10.2458
王世貞	-10.2458
千萬	-10.2459
徃徃	-10.2459
雖有	-10.2467
字叔	-10.2472
杜甫	-10.2477
奈	-10.2482
者惟	-10.2483
猶未	-10.2491
題其	-10.2493
鏤	-10.2497
捲	-10.2505
㝷	-10.2508
儔	-10.2508
梅竹	-10.2511
安國	-10.2512
畆	-10.2513
遂以	-10.2522
籖	-10.2524
檢校	-10.2526
浙	-10.2529
嵗寒	-10.254
萬古	-10.254
公主	-10.2543
子雲	-10.2543
張雨	-10.2543
甚佳	-10.2544
酷	-10.2547
黎	-10.255
慘	-10.2553
暴	-10.2553
譏	-10.2554
濡	-10.2555
不凡	-10.2555
騷	-10.2555
笏	-10.2556
丙寅	-10.2556
溫	-10.2557
揚州	-10.2559
牒	-10.256
不須	-10.2561
夏珪	-10.2563
大父	-10.2568
不肯	-10.2568
諸侯	-10.257
王晉卿	-10.2573
吳寛	-10.2583
林泉	-10.2586
月既望	-10.259
五百	-10.2599
吳生	-10.26
工拙	-10.2602
毒	-10.2602
素牋本	-10.2605
財	-10.2606
蹇	-10.2607
什	-10.2609
攝	-10.261
冥	-10.261
存者	-10.2611
護	-10.2612
謹題	-10.2612
檻	-10.2614
䖏	-10.2614
睂	-10.2615
妝	-10.2616
第一幅	-10.2617
能品	-10.2621
乙未	-10.2625
金剛經	-10.2632
大中	-10.2634
般	-10.2636
吴興	-10.2638
清玩	-10.265
不聞	-10.265
誅	-10.2653
淹	-10.2654
黄帝	-10.2655
之形	-10.2659
縹緲	-10.2659
泯	-10.266
知者	-10.2662
肌	-10.2662
寂寞	-10.2663
䘮	-10.2664
己酉	-10.2666
今歸	-10.2668
氏之	-10.2672
鴨	-10.2675
諸葛	-10.2679
之語	-10.2688
公書	-10.269
平原	-10.2693
衂	-10.2702
以前	-10.2707
説文	-10.2708
工於	-10.271
松風	-10.271
薰	-10.271
㦸	-10.271
無聲	-10.2711
苐	-10.2715
擲	-10.2716
袍	-10.2716
米友仁	-10.2717
跨	-10.2719
柯九思	-10.272
頗有	-10.2737
長生	-10.2745
四海	-10.2745
淡墨	-10.2745
詩曰	-10.2745
賞鑒	-10.2753
跋尾	-10.2759
恣	-10.2764
隴	-10.2768
娥	-10.2768
以歸	-10.277
琰	-10.2775
珍玩	-10.2782
二尺	-10.2795
之文	-10.2806
從容	-10.2815
今古	-10.2816
樓閣	-10.2818
尋常	-10.2818
􁁊	-10.282
喚	-10.2821
廣二尺	-10.2822
避暑	-10.2822
脉	-10.2823
檇李	-10.2823
驥	-10.2823
花開	-10.2824
瓢	-10.2825
六字	-10.2825
歴代名畫記	-10.2827
字彦	-10.2828
潁川	-10.2832
三兩	-10.2833
擅名	-10.2836
李白	-10.284
卷首	-10.2852
唐書	-10.2856
後來	-10.2858
若夫	-10.2859
帛	-10.2861
掲	-10.287
道子	-10.287
涇	-10.2871
蛟	-10.2874
不知何許人	-10.2874
挹	-10.2875
斥	-10.2875
瀛	-10.2876
軟	-10.2877
薫	-10.2877
滌	-10.2877
倪元鎮	-10.2878
垣	-10.288
溪上	-10.2887
逼真	-10.2889
人工	-10.29
予嘗	-10.2901
遺跡	-10.292
有二	-10.2921
見此	-10.2928
鼠	-10.2931
虞永興	-10.2931
驛	-10.2931
張彦逺	-10.2933
南渡	-10.2933
識之	-10.2933
丙辰	-10.2934
踐	-10.2934
賁	-10.2936
胥	-10.2937
四人	-10.2941
恢	-10.2941
㕔	-10.2941
壬子	-10.2942
前署	-10.2945
一丈	-10.2953
方寸	-10.2963
秋林	-10.2965
卷末	-10.2967
可考	-10.2976
卦	-10.2979
孝子	-10.2982
邇	-10.2982
認	-10.2982
虧	-10.2988
未嘗不	-10.299
箴	-10.2991
墳	-10.2992
鳥獸	-10.2996
豈可	-10.3002
絶倫	-10.3003
人多	-10.3008
作一	-10.3008
多有	-10.3015
教授	-10.3016
當代	-10.3018
見者	-10.3023
與可	-10.3024
四分	-10.3029
中為	-10.303
項子京家珍藏	-10.3035
嬰	-10.3041
翳	-10.3043
閟	-10.3046
喧	-10.3048
變相	-10.3049
湧	-10.3049
圗繪寳鑑	-10.305
聖祖仁皇帝	-10.3053
物之	-10.3054
右唐	-10.3054
魏公	-10.3055
則知	-10.3057
二十五	-10.3063
名曰	-10.308
江左	-10.3091
馨	-10.3092
忠義	-10.3092
江村	-10.3092
也予	-10.3093
形勢	-10.3097
銷	-10.3098
琅玕	-10.31
倪迂	-10.31
字印	-10.3101
幕	-10.3102
粹	-10.3103
春色	-10.3104
華陽	-10.3107
率更	-10.3113
待制	-10.3116
有名	-10.3119
恍	-10.3134
之制	-10.3138
樓臺	-10.3142
鈍	-10.3143
澁	-10.3144
壊	-10.3148
梧	-10.315
吞	-10.3152
註	-10.3152
蔓	-10.3153
蘋	-10.3155
灣	-10.3155
經史	-10.3155
冢	-10.3155
孫過庭	-10.3157
圖畫見聞志	-10.3158
少師	-10.3158
韓滉	-10.3159
米元暉	-10.316
欣然	-10.3165
天下金石志	-10.317
梨花	-10.3171
數行	-10.3174
冩生	-10.3177
者矣	-10.3177
太僕	-10.3178
牛圖	-10.3183
月望日	-10.3192
後主	-10.3194
栢	-10.3198
清河	-10.3202
瑜	-10.3208
字文	-10.3208
篋	-10.3209
搖	-10.321
畜	-10.3211
歇	-10.3211
爐	-10.3212
歐陽率更	-10.3212
第九	-10.3222
一切	-10.3226
譬	-10.3233
副使	-10.3236
可憐	-10.3237
第八	-10.3237
未詳	-10.3242
稱之	-10.325
第十一幅	-10.3253
翥	-10.3253
不載	-10.3254
不到	-10.3256
方圓	-10.3258
舅	-10.326
鋭	-10.3264
鉅	-10.3265
叩	-10.3266
丁丑	-10.3267
巷	-10.3268
纒	-10.3268
演	-10.3271
昌黎	-10.3275
諸生	-10.3277
之弟	-10.328
可也	-10.3281
黄鶴	-10.3283
李公麟	-10.3286
開元中	-10.329
審定	-10.3294
閣下	-10.3299
數年	-10.3301
樓觀	-10.3308
展卷	-10.3312
不著	-10.3315
等字	-10.3316
其他	-10.3317
以俟	-10.3318
蒸	-10.3318
王原祁	-10.332
兆	-10.3322
眺	-10.3323
叚	-10.3324
人品	-10.3324
亦是	-10.3325
瑤	-10.3326
久矣	-10.3326
峽	-10.3327
者耶	-10.3328
錢舜舉	-10.3328
畫師	-10.3333
山鷓	-10.3335
墨梅	-10.3337
趙公	-10.3338
髙古	-10.3342
窠石	-10.3348
為第一	-10.335
蒼蒼	-10.3351
長松	-10.3353
神彩	-10.3354
善書者	-10.3354
五言	-10.3359
一體	-10.336
長短	-10.3361
晩年	-10.3365
武陵	-10.3367
冕	-10.3368
夏山	-10.3369
髙下	-10.3372
拳	-10.3376
雛	-10.3378
勃	-10.3379
黍	-10.338
艇	-10.3382
題詠	-10.3382
文集	-10.3385
山茶	-10.3391
甥	-10.3391
揮毫	-10.3404
易之	-10.3405
亦猶	-10.3407
數字	-10.3407
雲烟	-10.3409
四幅	-10.341
之理	-10.3412
不入	-10.3414
法也	-10.3414
功徳	-10.3419
禁中	-10.3425
多矣	-10.3427
不足以	-10.3429
紆	-10.3433
撥	-10.3435
蹙	-10.3435
醇	-10.3435
悚	-10.3436
搆	-10.3436
廻	-10.3437
贅	-10.3437
拖尾	-10.3438
蓬萊	-10.3439
畨	-10.3439
彥	-10.3439
敕	-10.3443
不審	-10.3444
黄子久	-10.3445
陂	-10.3447
者又	-10.3448
善畫山水	-10.3455
遂為	-10.3457
朝夕	-10.3467
之風	-10.3468
筆札	-10.347
舉進士	-10.3472
諡曰	-10.3476
第十二幅	-10.3483
臨安	-10.3483
怯	-10.3488
伏惟	-10.3489
辦	-10.3492
壬戌	-10.3493
六法	-10.3497
燒	-10.3497
哭	-10.3498
故實	-10.35
而復	-10.351
自言	-10.3512
獅子	-10.3512
戱	-10.3516
見畫	-10.3521
有一	-10.3527
傳世	-10.353
詩意	-10.3536
竦	-10.3548
笠	-10.3549
凄	-10.3551
壬辰	-10.3552
銳	-10.3554
名筆	-10.3555
輟	-10.3557
文彭	-10.3559
規模	-10.356
者或	-10.3564
歸去	-10.3565
蕉林	-10.3568
天府	-10.3573
題曰	-10.3577
有半	-10.3585
雪圖	-10.3599
則又	-10.3602
艸	-10.3602
鐸	-10.3604
多作	-10.3606
聖教序	-10.3607
楓	-10.3609
禾	-10.3609
今觀此	-10.361
于是	-10.361
趙文敏公	-10.3611
効	-10.3613
故曰	-10.3615
二子	-10.3615
無事	-10.3615
比之	-10.3617
不啻	-10.3619
戀	-10.3621
有竒	-10.3622
元帝	-10.3625
有法	-10.3627
大師	-10.363
十餘年	-10.3632
宣示	-10.3633
能畫	-10.3634
亦然	-10.3637
後歸	-10.364
癸	-10.3655
字學	-10.3664
胸	-10.3669
仗	-10.3671
壬午	-10.3672
弇州	-10.3674
随	-10.3675
槃	-10.3676
及其	-10.3677
永興	-10.3688
明昌	-10.3688
何也	-10.3693
十有一	-10.3693
書賦云	-10.3694
華山	-10.3701
是日	-10.3705
四日	-10.3705
摹刻	-10.3705
迄	-10.3708
慨然	-10.371
卷尾	-10.3713
山之	-10.3723
石湖	-10.3724
畦	-10.3727
準	-10.3728
凋	-10.3729
其心	-10.3729
癸丑	-10.3729
始皇	-10.3733
消息	-10.3734
丙午	-10.3734
董北苑	-10.3735
衛夫人	-10.3737
葦	-10.3738
于世	-10.3738
小兒	-10.374
嘉祐	-10.3741
君家	-10.3742
烟霞	-10.3748
過於	-10.3748
此則	-10.375
嘗謂	-10.3751
題其後	-10.3753
長卷	-10.3755
洛神	-10.3767
如新	-10.3771
棗	-10.3786
𢃄	-10.3788
瀑	-10.3788
寔	-10.3789
倉頡	-10.3789
豁	-10.379
嬉	-10.3791
峙	-10.3792
狼	-10.3793
己巳	-10.3793
不傳	-10.3798
無異	-10.3803
一十	-10.3803
其體	-10.3807
空山	-10.3809
諸子	-10.3813
即位	-10.3814
非也	-10.3816
豈無	-10.3817
篆𨽻	-10.382
聞之	-10.3824
修竹	-10.3827
九分	-10.3827
初學	-10.383
五行	-10.383
為最	-10.3834
上品	-10.3836
是其	-10.3841
七分	-10.3841
帖中	-10.3844
犧	-10.3845
宋米芾	-10.3847
牖	-10.3847
渺	-10.3848
齋集	-10.3848
新安	-10.3854
可得	-10.3854
淸	-10.3858
妾	-10.3859
界畫	-10.386
想見	-10.3867
蕭然	-10.3869
印章	-10.3871
延陵	-10.3871
中山	-10.3872
印一印	-10.3878
使君	-10.3881
精於	-10.3884
不多	-10.3885
寅	-10.3885
凌雲	-10.3889
士人	-10.3892
真賞	-10.3894
山樵	-10.3898
款書	-10.3898
狐	-10.3901
佚	-10.3906
邢	-10.391
有時	-10.391
樽	-10.391
考其	-10.3911
簇	-10.3911
綜	-10.3911
磵	-10.3912
跳	-10.3912
穠	-10.3912
闗仝	-10.3913
耽	-10.3914
驢	-10.3915
嫁	-10.3915
七字	-10.3916
祇	-10.3916
拾遺	-10.3922
寫竹	-10.393
水石	-10.3933
極其	-10.3953
留意	-10.396
藹	-10.396
之體	-10.3962
蔬	-10.3962
箭	-10.3968
禀	-10.3968
矯	-10.3968
撆	-10.3969
天上	-10.3969
脂	-10.3971
陸柬之	-10.3973
埋	-10.3975
腴	-10.3976
不待	-10.3977
君之	-10.3978
熙寧	-10.398
隂陽	-10.3986
矣今	-10.399
而得	-10.3991
詩人	-10.3994
亦云	-10.3996
山石	-10.4001
秘閣	-10.4007
骨氣	-10.4011
之説	-10.4012
師法	-10.4016
斯人	-10.4016
二寸七分	-10.4017
暇日	-10.4028
掾	-10.4029
蚤	-10.403
暈	-10.4031
抄	-10.4031
殁	-10.4032
者乃	-10.4033
丙申	-10.4033
右方下有	-10.4033
薛紹彭	-10.4033
勵	-10.4034
弔	-10.4034
間以	-10.4038
赤壁	-10.4041
李嵩	-10.4061
其實	-10.4063
愛其	-10.4065
勝國	-10.4065
拈	-10.4072
嘗作	-10.4076
小異	-10.4079
凖	-10.4082
風骨	-10.4082
文正	-10.4085
迫	-10.4092
世南	-10.4092
四寸五分	-10.4093
北齊	-10.4094
鮑	-10.4095
皋	-10.4096
不仕	-10.4097
蠻	-10.4097
禮部尚書	-10.4097
捐	-10.4098
辛酉	-10.4098
康熙	-10.41
有聲	-10.4103
不容	-10.4115
朽	-10.4115
王逸少	-10.4116
之祖	-10.4116
一分	-10.4117
堂記	-10.4118
友仁	-10.4119
歎曰	-10.4121
濛	-10.4124
最後	-10.4136
世祖	-10.414
所在	-10.4142
云是	-10.4142
小楷書	-10.4147
龍圖	-10.4147
匣	-10.4149
叠	-10.4153
三寸五分	-10.4154
諷	-10.4155
斛	-10.4155
後為	-10.4157
精絶	-10.4158
臧	-10.4158
栽	-10.4158
畫史會要	-10.4158
文徵明	-10.416
中人	-10.4161
内史	-10.4162
所蔵	-10.4165
書亦	-10.4165
建安	-10.4167
乎其	-10.4168
東陽	-10.417
然亦	-10.4184
縣令	-10.4191
前代	-10.4193
耳目	-10.4196
金碧	-10.4205
次第	-10.4211
筆迹	-10.4212
决	-10.4213
汙	-10.4213
舌	-10.4214
閣帖	-10.4215
冝	-10.4216
弁	-10.4217
髓	-10.4218
拍	-10.4218
訥	-10.422
秩	-10.422
甲午	-10.422
右方	-10.4222
弇州山人	-10.4222
行楷	-10.4222
散騎常侍	-10.4222
感慨	-10.4223
闢	-10.4224
不合	-10.4233
門下	-10.4234
五湖	-10.4242
師道	-10.4243
人物山水	-10.4248
節婦	-10.4255
論也	-10.4255
王右丞	-10.4265
文宗	-10.4268
風韻	-10.4269
烟雨	-10.427
鹽	-10.4271
周文矩	-10.4274
贍	-10.4274
不具	-10.4275
御筆題籖籖上有乾隆宸翰一璽	-10.4276
芍藥	-10.4277
顏	-10.4277
螺	-10.428
孚	-10.428
訖	-10.4281
棊	-10.4282
橅	-10.4282
郗	-10.4283
矣而	-10.4284
怪石	-10.4286
積雪	-10.429
地一	-10.4291
遺意	-10.4292
吳門	-10.4293
字形	-10.4295
四軸	-10.4299
提舉	-10.4301
不受	-10.4303
其能	-10.4311
李龍眠	-10.4317
有異	-10.4317
六分	-10.432
逺矣	-10.4322
風度	-10.4326
也因	-10.4328
私印	-10.4329
不至	-10.433
孔雀	-10.4337
明董其昌書	-10.4337
黯	-10.434
陳繼儒	-10.4342
廼	-10.4342
無欵	-10.4343
庚午	-10.4344
閔	-10.4344
佑	-10.4344
俄	-10.4346
不言	-10.4346
胄	-10.4348
武林	-10.4349
首尾	-10.4351
髙一尺	-10.4354
團扇	-10.4355
先生之	-10.4357
金粟	-10.4359
朱子	-10.4362
著色山水	-10.4368
奈何	-10.437
圖五	-10.4371
景物	-10.4371
傳於世	-10.4379
平安	-10.438
之樂	-10.438
變態	-10.438
陽冰	-10.4381
恭畫	-10.4381
有以	-10.4383
濃淡	-10.4389
六寸五分	-10.4392
營丘	-10.4398
廸	-10.4399
艷	-10.4402
馭	-10.4404
敝	-10.4404
鍊	-10.4404
㪚	-10.4405
鮮于樞	-10.4406
鬻	-10.4406
盜	-10.4408
瑣	-10.4408
窗	-10.4408
禊帖	-10.4408
衷	-10.4409
譚	-10.4411
結搆	-10.4411
博古圖	-10.4412
吏部尚書	-10.4413
右髙一尺	-10.4419
梅道人	-10.4425
題句	-10.4425
出處	-10.4426
林下	-10.4426
公碑	-10.4435
限	-10.4437
不可不	-10.4451
挫	-10.4453
此法	-10.4457
撰并書	-10.4458
聯	-10.4465
安知	-10.4465
靳	-10.4467
丸	-10.4467
欵書	-10.4468
攬	-10.4468
七言	-10.4469
韵	-10.4469
無所不	-10.447
翹	-10.447
倘	-10.447
葩	-10.4471
古者	-10.4479
風致	-10.4483
牋本	-10.4487
兩銑相距	-10.4489
萬壑	-10.449
名世	-10.4493
太保	-10.4496
竒古	-10.4498
終不	-10.4499
亂真	-10.4507
竹枝	-10.4515
髙僧	-10.4516
簋	-10.4522
西京	-10.4524
兀	-10.4527
博雅	-10.4527
結體	-10.4529
盡其	-10.4529
四寸二分	-10.4529
墨林秘玩	-10.4531
鍳	-10.4531
臨江	-10.4532
陪	-10.4534
欠	-10.4534
鉉	-10.4534
蜂	-10.4536
本紀	-10.4537
厯代名畫記	-10.4539
僊	-10.4541
斯文	-10.4542
不下	-10.4543
四行	-10.4545
以遺	-10.4545
累遷	-10.4549
平日	-10.4549
千字文	-10.4552
筆下	-10.4554
昭陵	-10.4554
子久	-10.4554
印記	-10.4555
之勝	-10.4565
芳草	-10.4569
迪	-10.4572
序云	-10.4572
一寸二分	-10.4573
也哉	-10.4574
多少	-10.4577
前賢	-10.4579
婦人	-10.4581
眉山	-10.4581
廣陵	-10.4581
瑛	-10.4583
文正公	-10.4585
凡二十	-10.4586
張懐瓘	-10.4587
東方朔	-10.4595
崔瑗	-10.4595
樸	-10.4595
陶𢎞景	-10.4598
鄱陽	-10.4599
得失	-10.4599
銕	-10.4601
翅	-10.4601
黔	-10.4601
壬寅	-10.4602
有道	-10.4602
濵	-10.4603
有意	-10.4605
郁	-10.4606
南宋	-10.4613
若是	-10.4618
奉勅	-10.462
七賢	-10.462
墨林山人	-10.4621
甘露	-10.4622
筍	-10.4624
項元汴	-10.4624
不少	-10.4625
汝南	-10.4639
之竒	-10.465
咸通	-10.4651
之末	-10.4651
瀾	-10.4653
世稱	-10.4658
它	-10.4658
門外	-10.4659
之象	-10.466
甕	-10.466
鉢	-10.4661
萬年	-10.4662
戊寅	-10.4663
節度	-10.4666
庚申	-10.4667
剡	-10.4667
呂	-10.467
唐書本傳	-10.4672
太上	-10.4675
部郎中	-10.4688
陳留	-10.4692
無限	-10.4696
東坡先生	-10.4714
安道	-10.4715
黄庭堅	-10.4721
討	-10.4723
牢	-10.4726
畱	-10.4726
巡	-10.4729
墟	-10.4731
墅	-10.4731
龎	-10.4732
衛恒	-10.4732
畫院待詔	-10.4736
中國	-10.4737
字景	-10.4738
自稱	-10.474
㸃染	-10.4752
圖明	-10.4763
是器	-10.4764
是非	-10.4766
雪霽	-10.4766
之謂	-10.477
王摩詰	-10.4771
明文徴明	-10.4772
此乃	-10.4782
甗	-10.4782
中原	-10.4784
二寸五分	-10.4789
㕘	-10.4789
針	-10.479
五尺	-10.479
顒	-10.4793
樗	-10.4794
故有	-10.4795
鸚鵡	-10.4795
臆	-10.4795
壻	-10.4796
洎	-10.4796
侣	-10.4797
胷	-10.4797
舜舉	-10.4801
丁巳	-10.4802
天竺	-10.4807
金石文字記	-10.4809
北宋	-10.4815
人工畫	-10.4816
崇寧	-10.4818
二曰	-10.482
人心	-10.4822
二十二	-10.4827
真偽	-10.4833
風雲	-10.4833
大學士	-10.4833
失真	-10.4833
滕	-10.4839
二十三	-10.4839
三千	-10.4841
名臣	-10.4841
并書	-10.4842
昶	-10.4843
聰	-10.4845
而不知	-10.4849
拜觀	-10.485
自為	-10.4853
風塵	-10.4853
方外	-10.4854
而又	-10.4855
歙	-10.4855
旻	-10.4856
瑾	-10.4858
詰	-10.4859
簽	-10.4859
綃	-10.4859
樂毅	-10.486
道徳經	-10.4861
踪	-10.4862
栗	-10.4862
故知	-10.4863
置之	-10.4864
暝	-10.4864
戴嵩	-10.4868
漢魏	-10.4873
號為	-10.4874
高宗	-10.4876
判官	-10.488
山居圖	-10.4881
房山	-10.4882
杜陵	-10.4889
僧繇	-10.4893
以是	-10.4895
遺蹟	-10.4898
之矣	-10.4898
三行	-10.4899
不易得	-10.4902
八體	-10.4904
訣云	-10.4908
蹄	-10.4908
二本	-10.4913
林屋	-10.4915
月八日	-10.4917
燦	-10.4927
灌	-10.4927
陸探微	-10.4928
油	-10.4928
戊申	-10.4929
頼	-10.4929
御臨	-10.4929
萊	-10.4929
年月	-10.4929
疊嶂	-10.4933
褾	-10.4933
内外	-10.4937
御府所蔵	-10.4951
鄉里	-10.4963
何足	-10.4964
元鎮	-10.4965
不求	-10.4969
埃	-10.4969
晉王羲之	-10.497
墨池	-10.4979
因以	-10.498
以至	-10.498
文曰	-10.4984
卉	-10.4986
寳藏	-10.4989
酸	-10.4991
捉	-10.4992
液	-10.4993
素箋本著色畫	-10.4994
戊午	-10.4994
甲戌	-10.4996
不幸	-10.4996
眩	-10.4997
朙	-10.5
䏻	-10.5001
王廙	-10.5006
始知	-10.501
其筆	-10.5015
之家	-10.5017
一旦	-10.5018
白玉	-10.502
飄逸	-10.502
書云	-10.5021
上鈐	-10.5023
宋史	-10.5025
大雅	-10.5034
今已	-10.5035
十七年	-10.5036
拜手	-10.5039
努	-10.5048
十三行	-10.5052
羅漢像	-10.5057
插	-10.5058
矣其	-10.5059
沿	-10.5059
礙	-10.5059
韜	-10.506
敞	-10.506
癸亥	-10.5061
帽	-10.5061
幷	-10.5062
留心	-10.5062
隙	-10.5063
董𤣥宰	-10.5063
汎	-10.5063
鶉	-10.5064
搨本	-10.5064
之句	-10.5065
本無	-10.5065
隻	-10.5067
節度使	-10.5072
獨立	-10.5074
承㫖	-10.5075
稷	-10.5082
稱為	-10.5086
者謂	-10.5093
大悲	-10.5095
之論	-10.5098
數語	-10.5098
以詩	-10.5103
其説	-10.5114
㢘	-10.512
紹彭	-10.5122
素箋	-10.5123
着	-10.5124
冗	-10.5125
晤	-10.5126
疑其	-10.5126
逋	-10.5126
郝	-10.5126
帷	-10.5127
徘徊	-10.5129
聼	-10.513
罍	-10.5131
歛	-10.5131
勻	-10.5131
之内	-10.5134
典刑	-10.5136
伽	-10.5137
趙子固	-10.5141
所用	-10.5144
蓮花	-10.5146
蜀中	-10.5152
五人	-10.5152
枯木	-10.5153
得見	-10.5153
謹識	-10.5155
刻本	-10.5158
坡翁	-10.5158
之所以	-10.516
執事	-10.5161
夏日	-10.5164
深處	-10.5166
斜陽	-10.5167
雨過	-10.517
見聞	-10.5171
寶之	-10.5172
吾友	-10.5178
崔白	-10.5179
以爲	-10.5189
竹樹	-10.5191
庠	-10.5191
竒絶	-10.5191
三寸二分	-10.5193
品題	-10.5194
穏	-10.5195
濠	-10.5197
辛亥	-10.5197
曩	-10.5198
猶存	-10.5198
霸	-10.5198
紗	-10.5199
簫	-10.52
峰巒	-10.5201
黛	-10.5202
𤣥度	-10.5202
閤	-10.5202
不俗	-10.5203
緘	-10.5204
之屬	-10.5206
足稱	-10.5209
椒	-10.521
呉生	-10.5211
二寸九分	-10.5213
亦佳	-10.5215
青緑	-10.5217
白首	-10.5219
與人	-10.522
名山	-10.5224
馬圖一	-10.5225
經營	-10.5236
鮮于	-10.5237
夔	-10.5238
宫殿	-10.524
珉	-10.5242
人事	-10.5245
簡縁云	-10.5249
工夫	-10.5252
故能	-10.5252
磬	-10.5258
廟堂	-10.5259
别號	-10.526
外國	-10.5262
懇	-10.5264
矧	-10.5266
㨗	-10.5267
庚寅	-10.5268
余以	-10.5268
寘	-10.5268
為文	-10.5272
所云	-10.5275
湖上	-10.5275
縣人	-10.5276
李西臺	-10.5279
山谷集	-10.5279
花果	-10.5282
八卦	-10.5284
五寸一分	-10.5285
以傳	-10.5287
垂露	-10.53
黄門	-10.5306
城南	-10.5307
集古	-10.5319
用心	-10.5319
三寸八分	-10.5324
斫	-10.5326
剥	-10.5327
其詩	-10.5328
山陰	-10.5329
髻	-10.5335
捷	-10.5336
嵇	-10.5336
躡	-10.5337
覽者	-10.5338
乙酉	-10.5338
霍	-10.5339
疲	-10.534
煮	-10.534
瀆	-10.534
魯直	-10.5342
方丈	-10.5342
甲申	-10.5343
晉宋	-10.5344
也昔	-10.5345
龍虎	-10.5345
稽首	-10.5348
聖賢	-10.5357
工山水	-10.5372
憲宗	-10.5374
然也	-10.5376
雷紋	-10.5376
侍御	-10.5382
兼善	-10.5384
之極	-10.5384
公卿	-10.5386
花草	-10.5386
評書	-10.5389
捺	-10.5391
之器	-10.5396
都下	-10.5397
至其	-10.5397
雜畫	-10.5398
艾	-10.54
霅	-10.5402
雋	-10.5405
鴉	-10.5405
揆	-10.5405
宋蘇軾	-10.5405
頑	-10.5408
楹	-10.5408
也按	-10.5409
祿	-10.5411
膺	-10.5413
三寸四分	-10.5414
横卷	-10.5418
石壁	-10.5419
至大	-10.5421
琴書	-10.5421
五寸三分	-10.5423
器也	-10.5424
以贈	-10.5424
李後主	-10.5425
故物也	-10.5428
夢中	-10.5432
各一	-10.5439
伯仲	-10.5442
前隔水有	-10.5444
列女	-10.546
藏鋒	-10.5465
張顛	-10.5468
及此	-10.5468
豹	-10.5474
楷書欵識云	-10.5474
之精	-10.5479
信然	-10.5479
渡江	-10.5481
者謂之	-10.5486
無恙	-10.5486
雪竹	-10.5491
甬	-10.5494
彦逺	-10.5494
給事中	-10.5497
所稱	-10.55
錢塘人	-10.5504
何日	-10.5506
名氏	-10.5506
可笑	-10.5507
觀音像	-10.5514
復得	-10.5515
三十二	-10.5515
者何	-10.5515
九歌	-10.5517
四寸八分	-10.5518
楊氏	-10.552
與余	-10.5522
七寸五分	-10.5526
題字	-10.5532
松雪翁	-10.5534
此意	-10.5536
匾	-10.5537
王君	-10.5538
吳人	-10.5543
天籟閣	-10.5544
𨼆	-10.5545
燥	-10.5545
飄飄	-10.5545
乙巳	-10.5546
培	-10.5546
東山	-10.5546
冒	-10.5547
耿耿	-10.5547
鍾元常	-10.5548
亦未	-10.5548
恃	-10.5549
號曰	-10.555
塢	-10.5552
净	-10.5553
二三	-10.5553
大都	-10.5557
飾以	-10.5561
張丑	-10.5562
今為	-10.557
墨色	-10.5574
造物	-10.5576
祕書	-10.5577
與夫	-10.5578
畫龍	-10.5578
無名氏	-10.558
秋月	-10.5583
水中	-10.5586
書心經	-10.5589
兩右高	-10.5591
遺法	-10.5593
風格	-10.5597
文待詔	-10.5598
荷花	-10.5599
四寸七分	-10.5603
之物	-10.5604
文辭	-10.5605
不若	-10.5606
吳江	-10.5609
未足	-10.5613
相逢	-10.5613
狹	-10.5614
匡	-10.5615
不厭	-10.5617
泗	-10.5618
伎	-10.5619
庚辰	-10.562
刹	-10.562
鬬	-10.5621
漿	-10.5623
中書侍郎	-10.5623
怕	-10.5623
呉道子	-10.5626
殘缺	-10.563
目録	-10.5639
玉山	-10.5645
二寸八分	-10.5646
辛未	-10.5648
塔銘	-10.5653
書在	-10.5655
於今	-10.5676
刺史	-10.5678
慶元	-10.568
髙人	-10.5683
鐙	-10.5683
一名	-10.5684
松竹	-10.5685
輕重	-10.5686
鄧文原	-10.5687
隊	-10.5687
道也	-10.5692
大士像	-10.5692
挽	-10.5692
闔	-10.5693
超然	-10.5696
雌	-10.5696
歴官	-10.5698
晉卿	-10.5707
宜其	-10.5708
神龍	-10.5708
建康	-10.571
圖繪	-10.5717
項子京	-10.5717
春三月	-10.5722
固不	-10.5723
米家	-10.5724
書又	-10.5724
大厯	-10.5727
絶筆	-10.573
秦漢	-10.5731
劄	-10.5735
鍾張	-10.574
骨力	-10.5743
君子之	-10.5745
欲其	-10.5747
余曰	-10.5748
古帖	-10.5751
項墨林鑑賞章	-10.5757
皎	-10.5758
丁亥	-10.5758
慙	-10.5758
三曰	-10.5758
項墨林父秘笈之印	-10.5759
名賢	-10.576
漠漠	-10.5762
灰	-10.5762
建中	-10.5764
銓	-10.5765
棟	-10.5766
寂寂	-10.577
以書名	-10.577
字季	-10.5777
悠然	-10.5777
孝宗	-10.5777
東平	-10.578
隨意	-10.5781
曲折	-10.5784
禮樂	-10.5786
善寫	-10.5789
太清	-10.579
印二印	-10.5794
僖	-10.5795
題䟦	-10.5795
得以	-10.5797
其真	-10.5797
疑是	-10.5803
十里	-10.5804
以謂	-10.5806
書譜	-10.5807
讀之	-10.5811
王洽	-10.5813
暮年	-10.5816
鸂鶒圖	-10.5818
能知	-10.5819
書金剛經	-10.5836
屠	-10.5836
軼	-10.5837
諦	-10.5838
遶	-10.5838
床	-10.5838
寄傲	-10.5839
概	-10.584
魏國	-10.584
葡萄	-10.5841
猗	-10.5842
羈	-10.5846
此語	-10.5848
掩映	-10.5848
有三	-10.5853
如意	-10.5856
鸂鶒	-10.5857
參政	-10.5858
之致	-10.5865
白髪	-10.5867
大德	-10.5867
光禄	-10.5868
題署	-10.5876
能事	-10.5878
文湖州	-10.5879
中年	-10.5884
如雲	-10.5886
陳公	-10.5888
貞節	-10.5892
茅山	-10.5894
款識	-10.5897
秀才	-10.5898
萬世	-10.5899
其志	-10.5902
詩畫	-10.5905
侈	-10.5908
涪翁	-10.591
入能	-10.5911
篆法	-10.5912
狎	-10.5912
訝	-10.5913
頽	-10.5913
半印二	-10.5914
小人	-10.5914
巘	-10.5915
課	-10.5916
巫	-10.592
是為	-10.5923
㸃綴	-10.5925
淺深	-10.5925
二十七	-10.5926
桃李	-10.5928
以畫	-10.5932
中丞	-10.5934
墨本	-10.5942
字皆	-10.5942
尚存	-10.5953
乎此	-10.5958
原博	-10.5961
所著	-10.5964
能為	-10.5965
啟南	-10.5967
小學	-10.597
四寸六分	-10.597
得其妙	-10.5972
従	-10.5976
僅存	-10.5978
書畫記	-10.5979
歎息	-10.5981
脈	-10.5981
沈石田	-10.5981
未免	-10.5981
釋氏	-10.5982
楊凝式	-10.5983
億	-10.5984
多用	-10.5986
層巒	-10.5988
翊	-10.5991
畫譜	-10.5999
龍門	-10.6002
人名	-10.6004
丙子	-10.6004
都尉	-10.6004
軸髙二尺	-10.6008
丹丘	-10.6008
誣	-10.6013
進退	-10.6017
源流	-10.602
秋七月	-10.6021
言也	-10.6021
師古	-10.6025
無錫	-10.603
吾鄉	-10.6033
同年	-10.6039
道釋	-10.6039
而未	-10.604
而此	-10.6051
八日	-10.6051
蔡襄	-10.6053
乙亥	-10.6054
七尺	-10.6054
素絹本墨畫	-10.6055
所作也	-10.6057
苞	-10.6058
簿	-10.606
東觀餘論	-10.606
丁酉	-10.6061
噴	-10.6062
沈啓南	-10.6062
濮	-10.6062
蘇長公	-10.6063
謾	-10.6064
更有	-10.6066
而為之	-10.6068
若干	-10.6071
一寸五分	-10.6071
真迹	-10.6074
十有四	-10.6077
幸甚	-10.6081
玉水	-10.6082
手筆	-10.6082
六寸八分	-10.6083
之跡	-10.6086
之初	-10.6091
十六年	-10.6093
三寸一分	-10.6094
清江	-10.6096
隱居	-10.6099
云云	-10.61
何似	-10.6104
毛詩	-10.6109
無名	-10.6109
態度	-10.6112
法師	-10.6117
貞居	-10.6119
忠孝	-10.612
貓	-10.6121
懸針	-10.6122
摺	-10.6128
浮雲	-10.613
姊	-10.613
窟	-10.6132
羸	-10.6133
苕	-10.6133
魁	-10.6134
傳神	-10.6138
廣川書跋	-10.614
丁未	-10.614
無言	-10.6141
開皇	-10.6143
真卿	-10.6148
欵識	-10.6154
一詩	-10.6156
父乙	-10.6158
史記	-10.6161
武后	-10.6163
六行	-10.6164
六日	-10.6167
知有	-10.6172
不存	-10.6173
松下	-10.6178
扶風	-10.6181
絶無	-10.6187
四寸九分	-10.6189
時稱	-10.6196
甚有	-10.6198
勑	-10.6199
君碑	-10.6202
儻	-10.6204
二寸二分	-10.6204
麾	-10.6206
躋	-10.6207
寥	-10.6207
垢	-10.6208
蕙	-10.6209
籟	-10.6209
誚	-10.621
漲	-10.621
橫	-10.6211
手澤	-10.6211
撲	-10.6212
劔	-10.6213
貺	-10.6213
𣲖	-10.6215
蟾	-10.6217
末幅	-10.6218
潑墨	-10.6219
墓碑	-10.6223
褐	-10.6223
家𫝊	-10.6224
癸未	-10.6224
漁父	-10.6226
卷舒	-10.6238
千秋	-10.624
飲酒	-10.6245
寺僧	-10.6246
五寸四分	-10.6247
卷髙一尺	-10.6249
天成	-10.6249
文太史	-10.6252
起伏	-10.6258
精工	-10.6262
非其	-10.6262
八寸四分	-10.6262
六幅	-10.6267
喜作	-10.627
明唐寅	-10.6275
議論	-10.6276
見而	-10.6278
上元	-10.6278
則無	-10.6279
所刻	-10.6281
拆	-10.6281
四面	-10.6283
縛	-10.6285
水經注	-10.6285
咎	-10.6286
憤	-10.6287
僚	-10.6289
飬	-10.629
㑹要	-10.629
楊少師	-10.6292
集中	-10.6296
趙魏公	-10.6298
十二幅	-10.6302
之遺	-10.6302
長子	-10.6302
大幅	-10.6304
意態	-10.6306
逺岫	-10.6307
古松	-10.6307
以成	-10.6308
之暇	-10.6311
鞍馬	-10.6311
秘府	-10.6312
編修	-10.6312
文休承	-10.6318
李將軍	-10.6321
書品	-10.6321
七寸七分	-10.6323
天池	-10.6328
張翼	-10.6332
七兩	-10.6332
悵	-10.6334
述書賦	-10.6336
五寸七分	-10.6338
對曰	-10.634
武功	-10.634
故以	-10.6342
父丁	-10.6345
不當	-10.6347
宣徳箋本	-10.6348
拒	-10.635
侍書	-10.6353
名流	-10.6358
終身	-10.6359
己亥	-10.6359
李嗣真	-10.636
昔年	-10.636
龕	-10.6361
風俗	-10.6361
婆	-10.6362
己未	-10.6363
遞	-10.6363
掖	-10.6364
寰	-10.6364
凱	-10.6364
者哉	-10.6365
杲	-10.6365
偷	-10.6365
展子䖍	-10.6367
蟹	-10.6368
落落	-10.6369
幢	-10.637
楨	-10.6373
祕府	-10.6377
豈能	-10.638
字字	-10.6381
思訓	-10.6386
宋搨	-10.6387
國家	-10.6403
流俗	-10.6417
史官	-10.6418
曹喜	-10.6418
大將軍	-10.6421
觀察	-10.643
之類是也	-10.643
曽見	-10.643
霖	-10.6435
書評	-10.6441
和之	-10.6441
滄洲	-10.6441
笥	-10.6441
刃	-10.6442
諤	-10.6442
仞	-10.6442
當有	-10.6443
年三月	-10.6443
袂	-10.6443
璚	-10.6444
屐	-10.6444
淞	-10.6444
庾翼	-10.6445
悼	-10.6446
矣余	-10.6447
暮春	-10.6447
五寸六分	-10.6447
徐鉉	-10.6448
真本	-10.6448
毫端	-10.6448
此又	-10.6451
三寸九分	-10.646
之寶	-10.6466
州志	-10.6467
𨽻釋	-10.6472
秋八月	-10.6472
尊師	-10.6474
為佳	-10.6478
不佳	-10.6482
二寸三分	-10.6484
石鼓	-10.6494
公家	-10.6498
柘	-10.6507
鵓鴿	-10.6507
峨	-10.651
牟	-10.6514
諧	-10.6515
相望	-10.6515
場	-10.6516
而不能	-10.6518
庚戌	-10.6519
尚未	-10.6519
大理	-10.6521
文徵仲	-10.6536
舫	-10.655
明仇英	-10.6551
絶少	-10.6551
幅前有	-10.6551
華氏	-10.6553
不惟	-10.6561
者豈	-10.6563
王著	-10.6564
正統	-10.6565
唐顔真卿	-10.6566
可辨	-10.6567
秋聲	-10.6571
初為	-10.6572
鈐	-10.6573
尚可	-10.6574
一時之	-10.6578
宋李公麟	-10.658
二寸六分	-10.6582
何其	-10.6585
二十一	-10.6587
帚	-10.6591
奄	-10.6592
刷	-10.6593
一變	-10.6596
磨滅	-10.6597
紈	-10.6598
四寸三分	-10.6598
屯	-10.6598
斬	-10.6598
禱	-10.6599
悅	-10.6599
餐	-10.6599
寮	-10.66
欵題云	-10.66
濺	-10.66
急就章	-10.6601
鴛鴦	-10.6602
萍	-10.6602
鄂	-10.6603
鈔	-10.6604
寫貌	-10.6604
可不	-10.6606
震澤	-10.6608
五星	-10.661
有感	-10.662
文武	-10.662
於人	-10.6621
宫中	-10.6622
不動	-10.6627
疎林	-10.6632
何須	-10.6632
右方上有	-10.6642
青天	-10.6643
督	-10.6644
亦工	-10.6644
越州	-10.6644
文與可	-10.6646
從之	-10.6647
仇英	-10.6649
昨日	-10.6653
丙	-10.6656
博古	-10.6658
乃其	-10.6661
此豈	-10.6662
為世	-10.6665
傳授	-10.6666
闇	-10.6671
庾肩吾	-10.6672
穢	-10.6673
歸之	-10.6675
磯	-10.6676
三幅	-10.6676
董逌	-10.6677
惱	-10.6678
驄	-10.6678
亭記	-10.6679
讃	-10.668
九兩	-10.668
妨	-10.6682
蛟龍	-10.6682
廣三尺	-10.6687
爾雅	-10.6688
内有	-10.6688
行人	-10.6688
繩墨	-10.6695
江水	-10.6696
逸品	-10.6697
余見	-10.67
宋克	-10.6708
渡水	-10.672
古器	-10.6721
部員外郎	-10.6723
郡人	-10.6726
標題	-10.6728
花木	-10.6734
購得	-10.6737
姓氏	-10.6739
第十三幅	-10.6742
加以	-10.6743
屋木	-10.6743
舊本	-10.6755
不妄	-10.6755
沮	-10.6756
翩	-10.6756
蠟	-10.6756
蟄	-10.6757
丰	-10.6757
霏	-10.6757
個	-10.6758
濱	-10.6758
嬾	-10.6758
漢書	-10.6759
逄	-10.6759
穹	-10.6759
刻於	-10.676
笈	-10.6762
胸次	-10.6768
折枝花	-10.677
建炎	-10.6771
風景	-10.6777
徵仲	-10.6778
也吾	-10.6778
㑹圖	-10.6778
我欲	-10.6783
通判	-10.6788
富春	-10.6793
字公	-10.6793
水村	-10.6795
明文徵明	-10.6795
誰知	-10.6798
堂集	-10.68
示余	-10.6807
獨步	-10.6808
何當	-10.681
五言律詩	-10.6813
不逺	-10.6816
字有	-10.6817
嚴氏	-10.6818
一世	-10.6823
未幾	-10.6826
挍	-10.6831
之工	-10.6831
上古	-10.6834
邯鄲淳	-10.6835
清逸	-10.6836
枝葉	-10.6838
据	-10.6839
馴	-10.684
毫髪	-10.684
梁鵠	-10.6841
光禄大夫	-10.6841
麄	-10.6841
無有	-10.6842
其為人	-10.6844
沼	-10.6844
伍	-10.6844
航	-10.6844
吳仲圭	-10.6846
張伯雨	-10.6849
為慰	-10.685
者歟	-10.6851
于後	-10.6853
王寵	-10.6853
國史	-10.6855
原文	-10.6855
同一	-10.6862
仲圭	-10.6863
一寸六分	-10.6864
布衣	-10.6865
北山	-10.6866
鼎銘	-10.6867
人少	-10.6872
人意	-10.6874
花落	-10.6875
十字	-10.6877
開卷	-10.6878
篆文	-10.6879
長者	-10.6879
十八年	-10.688
籀文	-10.6881
梁楷	-10.6885
江陵	-10.6886
三寸六分	-10.6888
筆鋒	-10.6888
萬歴	-10.6889
大畧	-10.6889
一寸八分	-10.6893
想像	-10.6901
七寸三分	-10.6908
重陽	-10.6909
曳	-10.691
不能盡	-10.6911
渥	-10.6913
子孫永保	-10.6913
田家	-10.6914
寐	-10.6917
畝	-10.6918
壮	-10.6918
東方	-10.6918
梁詩正	-10.6918
湮	-10.6919
茫茫	-10.6921
豈有	-10.6922
糧	-10.6922
翛然	-10.6927
七行	-10.6928
筆者	-10.6929
酒酣	-10.693
凌波	-10.6933
此名	-10.6934
深一尺	-10.6938
仲春	-10.6938
朱文	-10.6941
東坡集	-10.6943
百里	-10.6948
飛泉	-10.6948
鈕	-10.695
知為	-10.6951
矣此	-10.6953
真君	-10.6954
百餘年	-10.6954
王元	-10.6957
欲雨	-10.696
回首	-10.6963
元一	-10.6964
六寸三分	-10.6965
草法	-10.6966
馬圗	-10.6969
公以	-10.697
丈夫	-10.6971
者葢	-10.6975
烟波	-10.698
複	-10.6982
山莊	-10.6982
三寸七分	-10.6983
黄公望	-10.6984
乃以	-10.6986
青雲	-10.6991
楞伽	-10.6992
一曲	-10.6995
外録書畫舫云	-10.6995
圗一卷	-10.6996
華嚴	-10.6996
魄	-10.6996
王穉登	-10.6996
蓑	-10.6997
巵	-10.6997
恨不	-10.6998
南村	-10.6999
碁	-10.7001
俗氣	-10.7001
豔	-10.7001
瀟洒	-10.7001
善屬文	-10.7001
庻	-10.7004
犢	-10.7006
貫休	-10.7008
不知所	-10.701
如生	-10.7013
說文	-10.7017
靈芝	-10.7021
外録	-10.7021
竹林	-10.7022
八尺	-10.7022
禽鳥	-10.7023
復何	-10.7027
其勢	-10.7031
永和	-10.7032
門人	-10.7039
勝伯	-10.7041
存焉	-10.7042
猶在	-10.7042
文王	-10.7047
十九年	-10.7047
滄	-10.7054
五寸八分	-10.7057
妙於	-10.7058
杜度	-10.706
東都	-10.7061
之情	-10.7062
惲	-10.707
此紙	-10.7071
月十八日	-10.7071
耳然	-10.7073
絹上	-10.7073
嵗次	-10.708
驕	-10.7081
棺	-10.7082
枉	-10.7083
最多	-10.7084
渝	-10.7084
戊戌	-10.7084
少陵	-10.7085
梯	-10.7085
傳於代	-10.7086
茹	-10.7086
漾	-10.7086
可惜	-10.7086
八幅	-10.7087
毗	-10.7088
法書名畫	-10.7091
六藝	-10.7092
不錄	-10.7095
羲之報	-10.7095
西方	-10.7096
歐陽文忠公	-10.7097
江南人	-10.7097
七寸四分	-10.7099
乃為	-10.71
濟南	-10.7102
相去	-10.711
顔栁	-10.7117
者是	-10.7117
正如	-10.712
澤民	-10.712
而出	-10.7122
僕射	-10.7123
者盖	-10.7124
可勝	-10.7125
數本	-10.7125
至治	-10.7125
獨歩	-10.7127
耕漁	-10.7129
一過	-10.7131
一斤	-10.7137
庭堅	-10.714
心手	-10.7141
踞	-10.7146
不肖	-10.7147
不解	-10.7152
寫此	-10.7154
三寸三分	-10.7157
後先	-10.716
磊落	-10.7161
弦	-10.7161
彚	-10.7161
跋一	-10.7164
奩	-10.7164
杪	-10.7165
陜	-10.7165
朱熹	-10.7166
癸酉	-10.7166
衲	-10.7167
即日	-10.7171
乎曰	-10.7172
者蓋	-10.7174
城人	-10.7175
鎭	-10.7175
之子也	-10.7176
靈帝	-10.7181
二寸四分	-10.7181
啓南	-10.7186
喬木	-10.7186
真人像	-10.7192
猶可	-10.7195
與王	-10.7199
詩一卷	-10.72
十二字	-10.7205
齋中	-10.7206
海嶽	-10.7208
上林	-10.7213
矣故	-10.7213
當與	-10.7218
枝山	-10.722
游戲	-10.7229
飛白書	-10.723
文皇	-10.7233
五兩	-10.7237
釐	-10.7244
咒	-10.7245
修撰	-10.7246
泳	-10.725
壞	-10.725
汚	-10.7251
宗廟	-10.7252
鍾鼎	-10.7254
鯨	-10.7254
觀碑	-10.7255
日暮	-10.7256
本也	-10.7258
又謂	-10.7259
引首有	-10.7264
雖未	-10.7269
盧鴻	-10.7271
西臺	-10.7272
公為	-10.7275
閒居	-10.7275
四百	-10.7275
先世	-10.7279
大業	-10.7282
彭年	-10.7283
之状	-10.7284
詹事	-10.7286
釋道	-10.7286
相從	-10.7287
不可言	-10.7289
卷軸	-10.7289
知此	-10.7292
要之	-10.7293
外錄	-10.7301
復古	-10.7303
幽居	-10.7307
何事	-10.7311
皆能	-10.7314
十有三	-10.7328
入神品	-10.7328
沈荃	-10.7332
四尺	-10.7334
苗	-10.7334
不斷	-10.7334
魔	-10.7334
騁	-10.7335
抹	-10.7336
寕	-10.7337
蠧	-10.7337
瘞鶴銘	-10.7337
靑	-10.7339
較之	-10.7339
寶藏	-10.734
花竹翎毛	-10.734
踵	-10.7341
鄭䖍	-10.7342
駝	-10.7342
榦	-10.7343
清河書畫舫	-10.7343
溜	-10.7343
范陽	-10.7344
自成	-10.7345
中品	-10.7346
治平	-10.7347
休承	-10.7348
神道碑	-10.7348
瀑布	-10.735
亦嘗	-10.7354
珍秘	-10.7356
海鹽	-10.7365
雲霞	-10.7365
議者	-10.7368
江海	-10.7371
萬頃	-10.7374
六寸七分	-10.7376
者多矣	-10.7384
所摹	-10.7385
皆是	-10.7386
何為	-10.7388
才子	-10.739
方壺	-10.7392
文進	-10.7393
題又	-10.7397
四曰	-10.7399
長歌	-10.7403
第十四幅	-10.7409
浣	-10.7411
若有	-10.7411
恪	-10.7413
沃	-10.7417
覿	-10.7418
平生真賞	-10.7418
籕	-10.742
有古	-10.742
月下	-10.7421
丙戌	-10.7421
腐	-10.7422
譌	-10.7422
璋	-10.7422
緝	-10.7423
形制	-10.7423
珮	-10.7424
慿	-10.7424
籜	-10.7425
郢	-10.7426
易元吉	-10.7429
兢	-10.7429
筆跡	-10.7431
胡瓌	-10.7432
姿態	-10.7436
硬黄	-10.7438
寶晉	-10.7444
王仲	-10.7448
森森	-10.7449
因題	-10.7449
頗多	-10.7451
古畫	-10.7452
為我	-10.7453
購之	-10.7458
其身	-10.7458
貴人	-10.7461
皆為	-10.7463
徳常	-10.7466
當其	-10.7469
寓意	-10.7471
蜀郡	-10.7473
乾道	-10.7473
煜	-10.7478
所重	-10.748
亭亭	-10.7483
丑	-10.7486
山東	-10.7489
及見	-10.7493
其字	-10.7496
萬事	-10.7497
以来	-10.7498
星像	-10.7499
固有	-10.75
小米	-10.7501
溪集	-10.7503
扣	-10.7504
賦此	-10.7506
鶺鴒	-10.7507
貲	-10.7509
釵	-10.7509
書千文	-10.7509
嶂	-10.751
不止	-10.7512
字勢	-10.7512
乂	-10.7513
俠	-10.7513
慶厯	-10.7515
歐陽修	-10.7516
父母	-10.7518
萬象	-10.7519
大臣	-10.752
蔣廷錫	-10.752
張昶	-10.7524
三體	-10.7525
廣平	-10.7526
風氣	-10.7527
碑刻	-10.7527
萱	-10.753
必以	-10.7533
誠懸	-10.7536
璽一	-10.7539
豈知	-10.754
一寸七分	-10.754
劄子	-10.7543
小大	-10.7545
絹畫	-10.7547
四皓	-10.7552
不稱	-10.7553
其本	-10.7555
字敬	-10.7558
之能	-10.7558
同知	-10.7564
使其	-10.7573
之門	-10.7574
木葉	-10.7574
清臣	-10.7575
榴	-10.7577
筆硯	-10.758
豎	-10.758
字世	-10.7582
功名	-10.7582
相思	-10.7583
何可	-10.7584
椿	-10.7587
可知也	-10.7588
燕文貴	-10.759
搶	-10.7591
癸卯	-10.7593
七寸二分	-10.7593
陷	-10.7594
烘	-10.7594
絮	-10.7595
陌	-10.7597
晃	-10.7597
旱	-10.7597
西園	-10.7598
不可得而	-10.7601
宇宙	-10.7601
徽廟	-10.7602
零落	-10.7602
于時	-10.7603
五卷	-10.7605
石門	-10.7606
書契	-10.7608
指揮	-10.7617
曲江	-10.7617
覽之	-10.7618
之室	-10.7623
韓愈	-10.7624
原蹟	-10.7625
望之	-10.7625
直學士	-10.7625
名公	-10.764
六尺	-10.7642
始得	-10.7645
其神	-10.7645
自唐	-10.7648
太古	-10.7649
長春	-10.7649
城中	-10.7653
所自	-10.7654
冠絶	-10.7656
八行	-10.7658
不就	-10.7659
畫水	-10.766
二寸一分	-10.766
釋迦	-10.7662
重九	-10.7667
又嘗	-10.7667
世事	-10.7668
胷中	-10.7672
如玉	-10.7673
刼	-10.7674
過人	-10.7676
世昌	-10.7676
篠	-10.7677
寂寥	-10.7678
先子	-10.7678
擾	-10.7679
有力	-10.7679
動人	-10.7679
知音	-10.7681
夭	-10.7681
渙	-10.7681
黄一	-10.7682
毘陵	-10.7683
嵇康	-10.7686
從此	-10.7686
稷子	-10.7686
有大	-10.7686
自適	-10.7687
睹	-10.7687
月十九日	-10.769
戊子	-10.7696
蕭條	-10.7699
梁武	-10.77
諸王	-10.7703
希哲	-10.7703
九寸五分	-10.7703
呉寛	-10.7705
恍然	-10.7706
錫山	-10.7707
釋文	-10.771
必能	-10.7712
無他	-10.7713
雨後	-10.7716
明人	-10.7718
在乎	-10.7719
文房	-10.7724
一寸四分	-10.7725
繭	-10.7726
天涯	-10.7726
自在	-10.7735
四寸一分	-10.7737
意趣	-10.7741
萬一	-10.7748
六經	-10.7757
不特	-10.7758
天趣	-10.7758
風雅	-10.7759
長三尺	-10.776
臨寫	-10.7761
二十九	-10.7761
天性	-10.7765
杞	-10.7767
覲	-10.7767
尚方	-10.7768
漬	-10.7768
竄	-10.7768
瀉	-10.7769
溟	-10.7769
晞	-10.777
黄鶴山樵	-10.777
子京父印	-10.7771
於斯	-10.7771
郡王	-10.7773
穩	-10.7774
聘	-10.7776
膽	-10.7778
麈	-10.7779
軒轅	-10.7779
者若	-10.778
梅花道人	-10.7784
髙八寸	-10.7784
千餘	-10.7786
六寸四分	-10.7789
又得	-10.7791
世有	-10.7792
亦復	-10.7793
江都	-10.7793
茂林	-10.7794
神宗	-10.7796
秋九月	-10.7797
神駿	-10.7799
高士	-10.7799
别本	-10.781
完好	-10.7812
冬十月	-10.7814
山頭	-10.7817
絳州	-10.7818
堂帖	-10.782
所至	-10.7823
贋	-10.7824
自識云	-10.7824
古詩	-10.7827
梨	-10.7829
而作	-10.783
安能	-10.7831
山寺	-10.7831
功臣	-10.7832
而自	-10.7833
五寸九分	-10.7842
第十五幅	-10.7844
鉛	-10.7845
之難	-10.7848
益州	-10.7851
輅	-10.7854
曺	-10.7854
惋	-10.7855
尸	-10.7857
苖	-10.7859
榭	-10.7859
孔琳之	-10.7859
縦	-10.7859
殊不	-10.7859
洵	-10.7859
裙	-10.786
馥	-10.786
南史	-10.7863
薪	-10.7864
緇	-10.7865
埽	-10.7866
捕	-10.7866
八寸二分	-10.7868
劉涇	-10.7868
軀	-10.7869
挂幅	-10.787
必先	-10.7873
夜雨	-10.7875
之地	-10.7875
山水師	-10.7879
黄山谷	-10.7884
在焉	-10.7884
般若	-10.7886
天資	-10.7886
佳處	-10.7886
何異	-10.7886
書體	-10.7888
女子	-10.7891
天水	-10.7892
東吳	-10.7896
娛	-10.7901
原本	-10.7904
得所	-10.7904
書畫舫	-10.7909
精熟	-10.7909
茫	-10.791
者此	-10.7911
髙麗	-10.7912
更無	-10.7912
此事	-10.7916
一寸九分	-10.7916
髙三尺	-10.7916
藏真	-10.7917
月五日	-10.7922
常侍	-10.7926
㑹昌	-10.7926
羣臣	-10.7927
二十六	-10.7933
北方	-10.7934
佛道	-10.794
烹	-10.7942
及之	-10.7943
清溪	-10.7943
呵	-10.7943
九寸二分	-10.7944
李昇	-10.7944
涕	-10.7944
成都人	-10.7946
子孫世昌	-10.7946
録云	-10.7947
蝕	-10.7948
妓	-10.7949
胎	-10.7949
閬	-10.7949
僮	-10.795
吸	-10.7951
譙	-10.7952
簮	-10.7952
司冦	-10.7955
嚮	-10.7958
靖康	-10.7958
白居易	-10.7958
趙承㫖	-10.7959
煙雲	-10.7961
桓𤣥	-10.7963
夏五	-10.7964
墨花	-10.7965
張萱	-10.7971
可知矣	-10.799
通志	-10.799
文定	-10.799
七寸九分	-10.7995
下品	-10.7997
此器	-10.7997
文忠	-10.7997
天地間	-10.8006
其迹	-10.8015
僧䖍	-10.8019
其母	-10.8022
野人	-10.8027
為主	-10.8032
羮	-10.8036
淫	-10.8036
顆	-10.8036
仝	-10.8037
圉	-10.8038
𣺌	-10.8039
炯	-10.8039
蹔	-10.8039
股	-10.804
忱	-10.804
蒂	-10.804
頸	-10.804
氊	-10.8042
奠	-10.8042
髩	-10.8043
董巨	-10.8044
訂	-10.8044
鐵網珊瑚	-10.8044
遒媚	-10.8045
沈氏	-10.8045
滎陽	-10.8045
謝赫	-10.8046
顚	-10.8046
老夫	-10.8047
兩無銘	-10.8047
蘇子瞻	-10.8047
諸書	-10.8047
曙	-10.8048
今復	-10.8048
與前	-10.8048
予家	-10.8052
宛轉	-10.8054
四十年	-10.8055
許慎	-10.8061
凡四	-10.8062
生於	-10.8065
名重	-10.8066
七十二	-10.8068
三公	-10.8068
不離	-10.807
書七言律詩	-10.8081
尤長於	-10.8082
常熟	-10.8082
趙雍	-10.8082
家物	-10.809
書記	-10.809
工畫人物	-10.8094
意氣	-10.8094
相國寺	-10.8098
荆溪	-10.8102
天寶	-10.8104
即此	-10.8105
碧落	-10.8106
得意筆	-10.811
又如	-10.8111
惜乎	-10.8111
布景	-10.8111
久而	-10.8112
畫中	-10.8116
公權	-10.8116
結法	-10.8117
無遺	-10.8117
賢者	-10.8119
精微	-10.8121
重之	-10.8124
寥寥	-10.8126
半印不可識	-10.8127
綏	-10.8127
翕	-10.8129
墨跡	-10.813
歿	-10.813
禇遂良	-10.813
騫	-10.813
衫	-10.8131
炙	-10.8133
璘	-10.8133
欒	-10.8134
揮灑	-10.8134
替	-10.8135
三百年	-10.8136
監察御史	-10.8137
邃	-10.8137
珣	-10.8138
頰	-10.8138
汪砢玉	-10.814
沈啟南	-10.8141
皇祐	-10.8142
苕溪	-10.8143
詩句	-10.8143
王翬	-10.8144
逃禪	-10.8145
廟記	-10.8148
祭酒	-10.8152
兵火	-10.8152
清和	-10.8153
歴歴	-10.8153
王安石	-10.8158
永禪師	-10.8161
著作	-10.8163
又作	-10.8163
錢唐人	-10.8165
張伯英	-10.8169
松雪齋	-10.8169
家學	-10.8171
樹木	-10.8171
辨才	-10.8172
粉本	-10.818
他書	-10.8185
歌詩	-10.8191
亦多	-10.8194
臘	-10.8198
徳宗	-10.82
唐李	-10.8202
吳越	-10.8202
孤山	-10.8207
縉	-10.8215
金剛	-10.8215
不妨	-10.8216
侔	-10.8216
惻	-10.8223
吝	-10.8223
姻	-10.8223
覧	-10.8224
元氣	-10.8224
榆	-10.8225
卻	-10.8226
篷	-10.8226
薄紹之	-10.8227
颺	-10.8227
鯉	-10.8227
句曲外史	-10.8229
廵	-10.823
䑕	-10.823
圗四	-10.8233
敬美	-10.8233
輯	-10.8233
閉門	-10.8236
藏經	-10.8238
神情	-10.8247
南昌	-10.8252
賔客	-10.8253
長洲人	-10.8254
元符	-10.8256
輞川圖	-10.8258
既而	-10.826
於畫	-10.826
京師人	-10.8263
武夷	-10.8263
葵花	-10.8264
好事家	-10.8266
開成	-10.8266
或者	-10.8266
之寳	-10.8274
安定	-10.8282
宋蘇軾書	-10.8282
等帖	-10.8285
自此	-10.829
虎頭	-10.829
墨林子	-10.8291
壁間	-10.8292
無論	-10.8293
無足	-10.8295
天際	-10.8299
兩兩耳有珥	-10.8301
錢氏	-10.8303
不可復	-10.8303
横披	-10.8305
惜其	-10.8305
娘	-10.8306
皆可	-10.8308
延之	-10.8308
告誓	-10.8309
浚	-10.8312
論者	-10.8313
曼	-10.8314
字孟	-10.8314
倐	-10.8314
尤妙	-10.8316
著書	-10.8317
黄長睿	-10.8318
潄	-10.8319
套	-10.8319
摭	-10.832
竈	-10.832
韓擇木	-10.8321
己丑	-10.8321
為詩	-10.8322
草隸	-10.8322
坤	-10.8322
容臺集	-10.8323
擔	-10.8323
衛瓘	-10.8323
駢	-10.8324
真蹟一卷	-10.8327
漂	-10.8328
為多	-10.8329
亦如	-10.833
不負	-10.8332
猴	-10.8332
趙大年	-10.8333
是故	-10.8337
性情	-10.8341
穆王	-10.8341
舊唐書	-10.8343
信乎	-10.8343
四卷	-10.8344
太息	-10.8346
十有五	-10.8347
體勢	-10.8347
道釋人物	-10.8349
公孫	-10.835
圖元	-10.8351
燕山	-10.836
一絶	-10.8361
華亭人	-10.8362
名畫記	-10.8363
為君	-10.8364
所及	-10.8369
像碑	-10.838
于今	-10.8381
寳晉	-10.8383
道復	-10.8384
□□	-10.8386
鞍	-10.839
足為	-10.8391
秘書	-10.8391
羲之白	-10.8394
宜興	-10.8397
其制	-10.8399
青青	-10.8399
儼然	-10.8405
巔	-10.8408
項叔子	-10.8408
不工	-10.8409
翎	-10.8409
玲瓏	-10.8411
泠	-10.8412
藂	-10.8412
辛巳	-10.8412
赫	-10.8413
頒	-10.8414
翮	-10.8414
菱	-10.8414
噐	-10.8415
曼卿	-10.8418
怠	-10.8418
内翰	-10.8418
勛	-10.8418
扈	-10.8421
面目	-10.8424
不可辨	-10.8426
製作	-10.8426
芝蘭	-10.8427
彌勒	-10.8428
五經	-10.844
復見	-10.8442
子華	-10.8446
著名	-10.8447
天女	-10.8447
已有	-10.8451
又為	-10.8463
不分	-10.8464
始於	-10.8467
因得	-10.8468
詩一首	-10.847
萬卷	-10.8472
乃能	-10.8478
精舍	-10.848
劉氏	-10.848
宇一	-10.8485
停雲	-10.8485
年年	-10.849
窠	-10.8492
王謝	-10.8492
相近	-10.8494
撇	-10.8494
無可	-10.8496
雪山	-10.85
倡	-10.85
效之	-10.8503
盗	-10.8503
灼	-10.8504
駙馬都尉	-10.8504
書院	-10.8504
廿五日	-10.8504
宣城	-10.8506
琢	-10.8506
轡	-10.8507
諮	-10.8507
外録珊瑚網云	-10.8507
張璪	-10.8508
攢	-10.8509
匆匆	-10.8509
何由	-10.8509
摶	-10.851
年八十	-10.8511
償	-10.8511
貂	-10.8511
囂	-10.8511
蟻	-10.8512
謝靈運	-10.8512
烟樹	-10.8512
長慶	-10.8512
允文	-10.8513
麥	-10.8513
薨	-10.8513
賀知章	-10.8514
為上	-10.8514
騐	-10.8515
米襄陽	-10.8516
歸去來	-10.8516
牧牛圖	-10.8517
㑹稽人	-10.8519
文氏	-10.8519
六寸二分	-10.8519
精緻	-10.8521
在目	-10.8521
王子敬	-10.8522
嗜酒	-10.8524
月十一日	-10.8532
本傳	-10.8539
失於	-10.8542
文詞	-10.8546
夏五月	-10.8546
論語	-10.855
神像	-10.8554
即是	-10.8557
宇文	-10.8559
家世	-10.8561
不可識	-10.8563
亦當	-10.8563
飄然	-10.8564
蘇氏	-10.8568
小印	-10.8569
之甚	-10.8574
此為	-10.8575
月十三日	-10.8577
廣川	-10.8579
吾師	-10.8586
紙筆	-10.8586
善丹青	-10.8587
鷹圖	-10.8587
代宗	-10.8588
城東	-10.8588
武王	-10.8591
分口縱	-10.8591
素牋本墨畫	-10.8592
宗元	-10.8593
詩書	-10.8593
明人書	-10.8597
林石	-10.8598
所好	-10.8598
躑躅	-10.8598
鼇	-10.8599
裱	-10.8599
復以	-10.8599
湖石	-10.8601
出新意	-10.8603
周官	-10.8603
未敢	-10.8604
肝	-10.8605
蓼	-10.8607
知制誥	-10.8607
題於	-10.8607
字士	-10.8608
匏	-10.8609
可寳也	-10.8609
天縱	-10.861
以賜	-10.8611
舊物	-10.8613
季子	-10.8617
太倉	-10.8618
竒怪	-10.862
翰林院	-10.8625
李煜	-10.8626
李東陽	-10.8628
不拘	-10.863
也且	-10.8632
一寸一分	-10.8632
漁舟	-10.8637
八百	-10.8638
少有	-10.8639
雖無	-10.8642
碑文	-10.8644
至唐	-10.8645
仙去	-10.8651
大士	-10.8656
杭人	-10.8656
紅塵	-10.8659
為誰	-10.8661
終始	-10.8668
曲盡	-10.8668
寳鑑	-10.867
馬麟	-10.8673
庶子	-10.8674
鷂	-10.8674
然有	-10.8676
為勝	-10.8677
不虚	-10.8679
子京所藏	-10.8681
相承	-10.8682
八寸六分	-10.8685
大有	-10.8686
良工	-10.8687
其筆法	-10.8687
筒	-10.8689
潑	-10.8689
抛	-10.869
兼工	-10.869
當自	-10.869
數千	-10.8692
蘂	-10.8695
者是也	-10.8696
宗伯	-10.8697
另	-10.8697
中流	-10.8699
薇	-10.8699
茲	-10.8699
茸	-10.8699
拭	-10.8699
咽	-10.87
塑	-10.87
錐	-10.8701
繕	-10.8701
㤗	-10.8703
凜	-10.8705
珊	-10.8705
國人	-10.8706
蚊	-10.8707
國子	-10.8707
嘗於	-10.8708
安石	-10.8709
春水	-10.8713
王府	-10.872
進士第	-10.8722
中立	-10.8723
寒暑	-10.8723
開封人	-10.8724
之號	-10.873
湘江	-10.8731
之謂也	-10.8736
仲穆	-10.8739
十幅	-10.8752
六合	-10.8754
風月	-10.8758
道中	-10.8761
大節	-10.8765
祖述	-10.8765
云爾	-10.8767
家蔵	-10.8771
日日	-10.8772
相公	-10.8772
門前	-10.8775
余嘗見	-10.8775
山陽	-10.8782
之說	-10.8783
臨風	-10.8784
周天球	-10.8789
盉	-10.8789
饗	-10.8792
惇	-10.8795
球	-10.8796
既望	-10.8797
刮	-10.8797
呌	-10.8797
覓	-10.8798
憩	-10.8798
玉女	-10.8798
厄	-10.8799
穉	-10.8799
鑾	-10.88
蕭思話	-10.88
張從申	-10.8801
黜	-10.8801
虢	-10.8802
綰	-10.8802
郗愔	-10.8802
臭	-10.8803
甄	-10.8804
浩蕩	-10.8804
二紙	-10.8806
者故	-10.8809
紱	-10.881
庾亮	-10.881
精舎	-10.8811
王道	-10.8812
此皆	-10.8812
莫知	-10.8813
圖右	-10.8814
彩鸞	-10.8815
望日	-10.8815
署名	-10.8816
或問	-10.8821
徴仲	-10.8821
縉紳	-10.8824
者雖	-10.8826
年五月	-10.8827
之始	-10.8828
仕女	-10.883
至若	-10.883
中和	-10.8832
塵埃	-10.8832
孫子	-10.8834
極精	-10.8834
文同	-10.8837
張仲	-10.8838
有五	-10.8841
柬	-10.8841
仙圖	-10.8842
而獨	-10.8842
作書	-10.8846
文賦	-10.8848
四寸四分	-10.8851
觶	-10.8858
小山	-10.8858
陸治	-10.8858
非常	-10.8863
之病	-10.8865
唐世	-10.8868
諸體	-10.887
武徳	-10.887
太湖	-10.8872
一洗	-10.8873
我亦	-10.8875
可比	-10.8879
政事	-10.8881
二十日	-10.8883
圖寫	-10.8886
百代	-10.8887
廡	-10.8889
鷗波	-10.8894
周禮	-10.8895
蜂蝶	-10.8895
㤀	-10.8896
廹	-10.8899
不一一	-10.8899
恰	-10.8899
釀	-10.8899
睦	-10.8899
狄	-10.8901
正字	-10.8901
樣	-10.8901
餅	-10.8902
詮	-10.8902
遂成	-10.8905
斯言	-10.8906
肅宗	-10.8906
軍節度使	-10.8907
祝京兆	-10.8907
記語	-10.8907
小像	-10.8908
先臣	-10.891
載酒	-10.8911
相連	-10.8911
二家	-10.8916
一寸三分	-10.8918
月廿日	-10.8918
氏家藏	-10.892
文徴仲	-10.8921
間出	-10.8925
鐘鼎	-10.8926
一云	-10.8928
凡六	-10.8932
片紙	-10.8933
王珉	-10.8934
老筆	-10.8936
二印前有	-10.8942
過此	-10.8949
顔書	-10.8952
竒偉	-10.8954
無一筆	-10.8956
制度	-10.896
空中	-10.8963
爛然	-10.8969
作山水	-10.8971
而藏之	-10.8971
行於世	-10.8973
知其為	-10.8974
汾	-10.8978
之冠	-10.8982
對題	-10.8984
佳者	-10.8985
不絶	-10.8986
第十六幅	-10.8987
張懷瓘	-10.899
雨露	-10.8992
之世	-10.8993
滉	-10.8993
彪	-10.8993
飢	-10.8994
臼	-10.8994
憾	-10.8994
耐	-10.8995
擘	-10.8997
漠	-10.8997
後隔水有	-10.8998
緬	-10.8998
昊	-10.8998
法書要録	-10.8999
瀟	-10.8999
蒼茫	-10.8999
九行	-10.9
訟	-10.9001
趙伯駒	-10.9002
佞	-10.9002
七寸八分	-10.9003
迦	-10.9003
譯	-10.9003
粒	-10.9004
䟽	-10.9005
樞密	-10.9005
隔水	-10.9006
漕	-10.9006
潤州	-10.9007
兩行	-10.9008
笑曰	-10.9011
貞觀中	-10.9017
黄素	-10.9018
蘇文忠公	-10.9019
貞白	-10.9021
父癸	-10.9022
長睿	-10.9022
便是	-10.9029
處見	-10.9029
何年	-10.9029
宙一	-10.9033
稾	-10.9036
心目	-10.9037
麻紙	-10.904
故家	-10.9041
夏四月	-10.9041
定武本	-10.9046
河陽	-10.9055
而卒	-10.9055
久不	-10.9059
堂印	-10.9069
氏所藏	-10.9069
畫山水人物	-10.9072
不獲	-10.9073
工畫山水	-10.9073
不能無	-10.9073
相如	-10.9076
落照	-10.9076
出沒	-10.908
光和	-10.9082
之興	-10.9085
太公	-10.9087
三世	-10.9091
畫壁	-10.9094
押字	-10.9095
颯	-10.9095
其狀	-10.9095
砌	-10.9096
黄伯思	-10.9096
濬	-10.9097
窘	-10.9098
窈窕	-10.9098
亦曰	-10.9098
無愧	-10.9099
戾	-10.9099
媒	-10.91
外録書畵舫云	-10.91
後生	-10.91
鏁	-10.9101
薛道祖	-10.9102
春雲	-10.9102
縝	-10.9102
裾	-10.9102
拖	-10.9103
挈	-10.9103
顔平原	-10.9103
軸髙一尺	-10.9104
陶隠居	-10.9105
躭	-10.9105
傳者	-10.9108
嘗觀	-10.9109
相過	-10.9112
至寳	-10.9113
在天	-10.9113
范公	-10.9115
隴西	-10.9115
此心	-10.9115
雅好	-10.9117
録之	-10.9118
諸孫	-10.9121
香山	-10.9121
李營丘	-10.9122
所題	-10.9122
豈其	-10.9123
徐熈	-10.9125
二千	-10.9129
文忠公	-10.913
八寸一分	-10.9134
諸跋	-10.9139
登臨	-10.9139
王濛	-10.914
泰定	-10.9144
思致	-10.9146
古賢	-10.9149
八寸八分	-10.9149
一巻	-10.9153
秀色	-10.9155
雲霧	-10.9156
永年	-10.9157
此是	-10.9158
出水	-10.9159
染翰	-10.9159
月十二日	-10.916
不誣	-10.9164
角上	-10.9167
日夕	-10.9173
余因	-10.9175
之思	-10.9176
老成	-10.9176
簡易	-10.9177
則失	-10.9178
罕見	-10.9179
墓銘	-10.9181
夏侯	-10.9182
七寸六分	-10.9184
六人	-10.9186
盛時	-10.9188
攘	-10.9189
蒙古字	-10.9195
御定佩文齋書畫譜卷	-10.9195
蒨	-10.9196
三璽	-10.9196
碧山	-10.9196
乾隆宸翰二璽	-10.9197
誡	-10.9197
銖	-10.9197
天地之	-10.9197
槁	-10.9198
萌	-10.9198
大同	-10.9199
已而	-10.92
簠	-10.9202
特進	-10.9202
盤礴	-10.9202
聶	-10.9203
玠	-10.9203
湜	-10.9203
禮部侍郎	-10.9203
滄海	-10.9203
漪	-10.9203
子畏	-10.9204
吏部侍郎	-10.9204
蓋其	-10.9204
此日	-10.9204
芸	-10.9204
閶	-10.9205
糢糊	-10.9205
亦何	-10.9206
斌	-10.9206
狗	-10.9207
以獻	-10.9208
固知	-10.9209
偏旁	-10.9209
而歸	-10.9211
筆底	-10.9211
購得之	-10.9213
世無	-10.9216
菊花	-10.9217
仲尼	-10.9219
仕至	-10.9221
彦敬	-10.9222
趙子昂	-10.9222
嘗與	-10.9225
嵩山	-10.9225
獨坐	-10.9225
花枝	-10.9226
蘇公	-10.9227
移居	-10.9227
無力	-10.9231
宋箋本	-10.9235
出自	-10.9241
秋塘	-10.9243
趙吳興	-10.9243
深逺	-10.9244
亦足	-10.9245
意在	-10.9258
漢人	-10.9263
雲雷	-10.9264
仙子	-10.9266
死生	-10.9268
骨肉	-10.9275
武昌	-10.9277
少保	-10.9281
愔	-10.9281
辨之	-10.9284
伯玉	-10.929
遣使	-10.9292
兕	-10.9295
崑崙	-10.9296
圈	-10.9296
宕	-10.9297
停雲館	-10.9298
敖	-10.9299
朂	-10.93
宗道	-10.9301
字徳	-10.9301
不可及	-10.9301
余言	-10.9302
梳	-10.9303
鴿	-10.9305
潞	-10.9305
老僧	-10.9305
裡	-10.9306
羌	-10.9306
舂	-10.9307
縱逸	-10.9307
聮	-10.9309
弇州續藁	-10.931
欽定四庫全書御定佩文齋書畫譜卷	-10.9311
叶	-10.9312
立本	-10.9314
十載	-10.9314
勁健	-10.9317
何哉	-10.9318
處處	-10.9319
映帶	-10.932
徳政碑	-10.9321
三十五	-10.9324
一器	-10.9329
墓誌銘	-10.9331
豈獨	-10.9331
損益	-10.9332
諸老	-10.9336
眉公	-10.9337
知言	-10.9337
摹搨	-10.9341
或如	-10.9346
過眼	-10.9349
皴法	-10.9351
范氏	-10.9354
歸於	-10.9355
困學	-10.9357
竹圖二	-10.9358
師之	-10.9359
自云	-10.9367
藏於	-10.9367
萬福	-10.9371
能書者	-10.9382
雜詩	-10.9383
各自	-10.9387
重題	-10.939
王導	-10.939
不羣	-10.9393
精細	-10.9394
初一日敬書一洋箋本墨書欵識云康	-10.9399
鍾紹京	-10.9401
剔	-10.9402
忽見	-10.9402
愍	-10.9405
疋	-10.9405
頡	-10.9406
江夏	-10.9406
二十餘	-10.9407
由來	-10.9407
有功	-10.9407
節義	-10.9407
冦	-10.9407
煉	-10.9407
憎	-10.9408
笋	-10.9409
荇	-10.9409
匿	-10.9409
琵琶	-10.941
金陵人	-10.941
廿三日	-10.941
崛	-10.9412
礬	-10.9412
麒麟	-10.9412
蕊	-10.9413
已久	-10.9413
洪武中	-10.9414
湫	-10.9415
院體	-10.9416
御史中丞	-10.9419
凡五	-10.9419
衣裳	-10.9419
有司	-10.9425
其詞	-10.9425
受禪	-10.9434
浙江	-10.9436
六寸六分	-10.9437
翰林待詔	-10.9438
皇上	-10.9446
入蜀	-10.9447
援筆	-10.9447
家所藏	-10.9447
五曰	-10.9452
朱氏	-10.9452
郎官	-10.9452
乗興	-10.9454
長安人	-10.9455
清麗	-10.9459
者固	-10.946
於前	-10.946
宗師	-10.9462
陸氏	-10.9468
宣宗	-10.9471
得右軍	-10.9473
四帖	-10.9475
口徑五寸	-10.9478
不得其	-10.9479
署書	-10.9481
未始	-10.9481
宗皇帝	-10.9487
取諸	-10.9487
十有六	-10.949
隋唐	-10.9494
清逺	-10.9495
舊有	-10.9497
其理	-10.9499
不學	-10.95
張子	-10.9502
虞山	-10.9504
子美	-10.9507
自非	-10.9507
荔	-10.9508
貳	-10.951
什襲	-10.951
古篆	-10.9511
玅	-10.9511
嘗聞	-10.9512
瘠	-10.9512
煑	-10.9513
譔	-10.9514
鬟	-10.9514
拏	-10.9515
坐位帖	-10.9516
斵	-10.9517
徐季海	-10.9518
遑	-10.9518
姿媚	-10.9518
笠澤	-10.9521
淳熈	-10.9522
伯夷頌	-10.9522
瀨	-10.9522
冠冕	-10.9524
紹興間	-10.9526
千字	-10.9529
不備	-10.9533
篆額	-10.9538
一人而已	-10.9538
仲山	-10.9538
池上	-10.9539
獨有	-10.9539
八寸五分	-10.9541
明堂	-10.9542
六寸一分	-10.9544
子厚	-10.9546
夏六月	-10.9549
又能	-10.9551
非所	-10.9553
最佳	-10.9554
明經	-10.9554
珍賞	-10.9555
耳若	-10.9555
遺恨	-10.9557
易得	-10.9571
以此為	-10.9577
書印	-10.958
彼此	-10.9581
論其	-10.9587
余謂	-10.9587
京兆人	-10.9588
兩耳連環	-10.959
漢武	-10.959
右通葢髙	-10.9594
文采	-10.9596
亦可謂	-10.9601
道徳	-10.9601
荆公	-10.9603
儒學	-10.9604
盂	-10.9607
千百	-10.9609
等印	-10.9609
惆悵	-10.9615
畫冊	-10.9618
筆陣圖	-10.962
一印漫漶不可識	-10.962
愿	-10.9621
器銘	-10.9622
壘	-10.9623
忠恕	-10.9623
妬	-10.9623
潦	-10.9623
茟	-10.9624
陶宗儀	-10.9625
銀鈎	-10.9625
隄	-10.9629
畫記	-10.9629
南海	-10.9631
愷	-10.9631
髙四尺	-10.9633
初名	-10.9634
也此卷	-10.9635
師子	-10.9637
入石	-10.9643
優游	-10.9645
佛寺	-10.9646
幅第一幅	-10.965
詩序	-10.9653
門生	-10.9654
吳興趙孟頫	-10.9656
年少	-10.9656
正是	-10.9658
詩成	-10.966
無量	-10.9661
隷書	-10.9663
論曰	-10.9664
刻意	-10.9665
滿地	-10.9666
員外郎	-10.9673
前隔水	-10.9679
陳君	-10.9684
白鶴	-10.9688
鄉人	-10.9688
承平	-10.969
唐末	-10.969
工書畫	-10.9691
出没	-10.9691
臨書	-10.9693
也凡	-10.9694
又何	-10.9695
本色	-10.9697
嘗有	-10.9705
兼有	-10.9708
使者	-10.9712
近時	-10.9713
不變	-10.9713
月六日	-10.9715
平江	-10.9718
梗	-10.9719
真筆	-10.9719
依然	-10.9721
由此	-10.9721
戍	-10.9723
書苑菁華	-10.9724
郄	-10.9725
陞	-10.9725
鬛	-10.9725
乾隆御筆	-10.9726
藜	-10.9726
相應	-10.9727
暘	-10.9727
勘	-10.9728
蠡	-10.9728
髙陽	-10.9729
廿四日	-10.9729
奸	-10.9729
汁	-10.973
畿	-10.9731
泐	-10.9731
菩提	-10.9732
僉	-10.9732
書曰	-10.9732
哥	-10.9733
餉	-10.9735
國子監	-10.9737
晉書本傳	-10.9741
不復見	-10.9745
員外	-10.9745
隆慶	-10.9746
但見	-10.9747
事業	-10.9748
出塵	-10.9748
楊補之	-10.975
仲子	-10.975
翼之	-10.9752
議郎	-10.9753
之章	-10.9754
特為	-10.9754
洞天	-10.9755
垂釣	-10.9756
雲西	-10.9756
東漢	-10.9757
舍利	-10.9761
有才	-10.9762
天錫	-10.9766
八寸九分	-10.9769
嗟乎	-10.9778
藍田	-10.9785
原父	-10.9785
盛年	-10.9788
田園	-10.9791
寳玩	-10.9798
丈人	-10.9798
潤色	-10.9801
未聞	-10.9802
善書畫	-10.9806
撫卷	-10.981
絶塵	-10.9812
發於	-10.9814
非真	-10.9814
小詩	-10.9817
神韻	-10.9817
撮	-10.982
必須	-10.9822
世宗憲皇帝	-10.9822
清真	-10.9825
若水	-10.9826
禦	-10.9827
楚江	-10.9828
過江	-10.983
履吉	-10.9831
酉	-10.9832
不滿	-10.9833
栁誠懸	-10.9835
瑗	-10.9835
裝潢	-10.9836
街	-10.9837
棧	-10.9838
逈	-10.9838
周旋	-10.9838
遘	-10.9838
真宗	-10.9838
槖	-10.9839
阮研	-10.9839
組	-10.9839
磴	-10.984
六寸九分	-10.9843
老矣	-10.9846
過庭	-10.9847
頭陀	-10.9848
凢	-10.9848
天寒	-10.9849
世所傳	-10.9849
不信	-10.9852
芾頓首	-10.9853
嘗畫	-10.9854
文璧	-10.9856
松江志	-10.9858
孤雲	-10.9862
離離	-10.9864
定其	-10.9864
左方下有	-10.9867
依依	-10.9873
朝陽	-10.9873
松年	-10.988
立碑	-10.9887
生死	-10.9893
至正二十	-10.9896
粲然	-10.9903
初以	-10.9904
幾何	-10.9904
羣峰	-10.9905
右通蓋	-10.991
失去	-10.9923
往還	-10.9924
各以	-10.9926
岱	-10.9927
所記	-10.9929
唐摹	-10.9932
無聞	-10.9933
九成	-10.9935
如今	-10.9936
鏘	-10.9937
存良	-10.9937
七寸一分	-10.9938
其功	-10.9938
郡齋	-10.994
浹	-10.994
昨夜	-10.9941
掬	-10.9942
匡廬	-10.9945
熾	-10.9945
䑓	-10.9946
藪	-10.9947
剖	-10.9948
捜	-10.9948
幡	-10.9948
塊	-10.9948
牓	-10.9948
募	-10.9949
乙卯	-10.9949
澂	-10.9949
柘竹	-10.995
件	-10.995
鄞	-10.995
無款	-10.9951
諾	-10.9952
士女圖	-10.9952
敲	-10.9952
遯	-10.9953
琛	-10.9954
蘧	-10.9955
傳寫	-10.9955
所撰	-10.9956
峴	-10.9956
居然	-10.9957
有奇	-10.9961
屋宇	-10.9961
水邊	-10.9961
崑	-10.9962
急就	-10.9962
釋智永	-10.9963
渾厚	-10.9964
王友	-10.9965
秋光	-10.9966
風竹	-10.9972
君王	-10.9976
本末	-10.9976
三四	-10.9978
如龍	-10.9979
官奴	-10.9982
蒼古	-10.9982
二印後有	-10.9984
頗得	-10.9985
其性	-10.9986
那得	-10.9988
清泉	-10.9988
三品	-10.999
甫里	-10.9991
親書	-11
不完	-11.0001
絶妙	-11.0002
伯虎	-11.0004
書畫史	-11.0005
惜哉	-11.0005
盡矣	-11.0012
開封	-11.0016
忝	-11.0021
以寄	-11.0024
而上	-11.0026
此論	-11.0027
江右	-11.0029
王伯	-11.0032
右方上	-11.0033
上清	-11.0037
蒲萄	-11.0041
紫陽	-11.0041
尤長	-11.0042
别業	-11.0042
推官	-11.0045
深二寸	-11.0049
櫂	-11.0049
嘶	-11.005
婚	-11.0051
君不見	-11.0052
氛	-11.0053
知己	-11.0054
泠泠	-11.0054
王齊翰	-11.0055
箱	-11.0057
曄	-11.0058
昱	-11.0058
絢	-11.0058
愴	-11.0059
菲	-11.0059
檄	-11.0059
冬日	-11.0059
襪	-11.006
琚	-11.006
楊維楨	-11.006
寓意編	-11.0061
刁	-11.0061
依稀	-11.0061
倅	-11.0061
棃	-11.0062
龍眠居士	-11.0063
番部	-11.0065
近日	-11.007
内侍	-11.0071
先王	-11.0073
摹寫	-11.0073
鼓琴	-11.0073
筆蹟	-11.0077
假借	-11.0078
其所以	-11.0081
末有	-11.0082
竹木	-11.0086
秋山圖	-11.0088
呼為	-11.009
鳥跡	-11.0091
天順	-11.0109
書帖	-11.0112
一聲	-11.0114
不死	-11.0124
嘗自	-11.0124
不乏	-11.0125
禪師碑	-11.0126
鍾㑹	-11.0129
元王蒙	-11.0129
定武蘭亭	-11.013
竹西	-11.0132
詳其	-11.0141
畫佛像	-11.0142
可歎	-11.0143
荆州	-11.0143
并序	-11.0155
塵俗	-11.0158
卓然	-11.0158
看雲	-11.0161
欽定四庫全書御定佩文齋書畫譜目録	-11.0164
峩	-11.0165
盼	-11.0166
度人經	-11.0166
掉	-11.0166
腥	-11.0166
釘	-11.0167
同中書門下平章事	-11.0168
瓜	-11.0168
稠	-11.0169
巽	-11.0169
草樹	-11.017
牛馬	-11.0171
琪	-11.0171
笻	-11.0171
㺯	-11.0172
韞	-11.0173
蹊徑	-11.0173
溝	-11.0174
莊子	-11.0174
傚	-11.0174
辛卯	-11.0174
癸巳	-11.0175
廷美	-11.0175
書史會要	-11.0175
董其昌題	-11.0175
明朝	-11.0175
搜訪	-11.0176
不果	-11.0176
蜜	-11.0177
鴛	-11.0177
二器	-11.0177
樞宻	-11.0178
黄魯直	-11.0178
籌	-11.0179
义	-11.018
盎	-11.0181
葢其	-11.0182
叢竹	-11.0183
䟦尾	-11.0184
上柱國	-11.0185
伯喈	-11.0186
年六十	-11.0187
總管	-11.0191
唐初	-11.0195
每見	-11.0198
風雪	-11.0199
之前	-11.0201
孟端	-11.0204
戲作	-11.0204
無間	-11.0207
工詩	-11.0208
字希	-11.021
餘慶	-11.0212
蘆花	-11.0215
物外	-11.022
無盡	-11.0222
以待	-11.0224
了無	-11.0226
福州	-11.0228
聊以	-11.0229
亦不能	-11.0232
黄州	-11.0235
數百年	-11.0236
又題	-11.0237
義興	-11.0239
精彩	-11.024
善畵	-11.0243
太虚	-11.0244
公麟	-11.025
歲月	-11.025
筍竹	-11.0251
老樹	-11.0254
亦須	-11.0255
早年	-11.0258
有生意	-11.0262
想其	-11.0264
悠	-11.0266
書其後	-11.027
十數	-11.0271
潺湲	-11.0271
不羈	-11.0272
自題云	-11.0273
㡌	-11.0274
畫梅	-11.0275
堂上	-11.0276
緜	-11.0276
掀	-11.0278
之景	-11.0278
眇	-11.0279
寫照	-11.028
模寫	-11.028
鬰	-11.0281
愉	-11.0282
俸	-11.0282
丁卯	-11.0282
擎	-11.0283
瓿	-11.0283
諌	-11.0284
者不能	-11.0284
掇	-11.0284
王元美	-11.0285
百尺	-11.0285
許道寧	-11.0285
泓	-11.0286
竅	-11.0286
翡翠	-11.0287
璲	-11.0287
尺餘	-11.0289
罄	-11.0289
姥	-11.0289
葺	-11.029
委曲	-11.0291
槀	-11.0293
蒼龍	-11.0294
略無	-11.0303
道路	-11.0303
是知	-11.0304
又號	-11.0304
視其	-11.0315
周越	-11.0319
秋壑	-11.0322
俞和	-11.0324
息齋	-11.0335
蘇黄	-11.0335
蘭竹	-11.0335
而弗	-11.034
忠獻	-11.034
九江	-11.0341
甚富	-11.0341
宙	-11.0341
而行	-11.0342
而歸之	-11.0344
矣夫	-11.0346
云吾	-11.0348
想見其	-11.0349
古來	-11.035
其文曰	-11.035
雪霽圖	-11.0351
牡丹圖	-11.0356
品第	-11.0359
新詩	-11.036
聞見	-11.0363
兩耳有提梁	-11.0364
正叔	-11.0367
每幅	-11.0368
年矣	-11.0373
愛重	-11.0376
冊計	-11.0378
一朝	-11.0379
蟠䕫	-11.0379
天人	-11.038
飛鳥	-11.0383
可稱	-11.0389
尚在	-11.0391
逞	-11.0393
凭	-11.0393
冺	-11.0393
竇臮	-11.0394
頓挫	-11.0394
稽古	-11.0394
誘	-11.0394
丨	-11.0395
炊	-11.0395
椽	-11.0395
撰文	-11.0396
凶	-11.0396
噪	-11.0397
不得不	-11.0398
稼	-11.0398
闡	-11.0398
妍媚	-11.04
鈿	-11.04
鶚	-11.04
琮	-11.04
素絹本著色畫款云	-11.0401
躅	-11.0401
彚考	-11.0402
黄門侍郎	-11.0402
渭川	-11.0404
法華經	-11.0404
廿六日	-11.0405
祥符	-11.0408
樂府	-11.0409
筋力	-11.0411
淛	-11.0411
印文	-11.0412
猫	-11.0416
十八學士	-11.0419
飛來	-11.0421
甚工	-11.0427
老去	-11.0427
飲食	-11.043
仲蔚	-11.0434
字廷	-11.0435
以字行	-11.0436
所造	-11.0437
白髮	-11.044
髙堂	-11.044
青城	-11.0447
年七十	-11.0449
五幅	-11.045
畫牛	-11.0455
者邪	-11.0455
曽孫	-11.0455
相間	-11.0458
唐朝	-11.0462
自叙	-11.0464
廿有	-11.0473
横畫	-11.0476
大歴	-11.0477
佳趣	-11.0477
御容	-11.0477
堂堂	-11.0478
品格	-11.048
玉樹	-11.0482
絶品	-11.0482
親王	-11.0484
臻妙	-11.049
草𨽻	-11.0495
尚書令	-11.0496
衆生	-11.0496
聖人之	-11.0498
注云	-11.05
鴨圖	-11.05
塵土	-11.05
第十八幅	-11.0502
寓居	-11.0509
亘	-11.0511
彤	-11.0511
丁夘	-11.0513
盃	-11.0513
蒹葭	-11.0513
撿	-11.0513
鞏	-11.0513
煌	-11.0514
夸	-11.0515
愜	-11.0515
嘲	-11.0515
店	-11.0515
冨	-11.0516
離騷	-11.0516
永和九年	-11.0516
㟁	-11.0516
愼	-11.0516
煎	-11.0517
潼	-11.0517
憚	-11.0517
得之於	-11.0519
登進士第	-11.0521
夢寐	-11.0522
芥	-11.0523
峯巒	-11.0524
亦善書	-11.0524
皆用	-11.0526
校官	-11.0527
貴賤	-11.0529
太宰	-11.0532
厯代	-11.0535
瑶池	-11.0536
弱冠	-11.0537
李建中	-11.0538
髙逸	-11.0538
聰明	-11.0539
鍾法	-11.0541
不及也	-11.0542
元錢選	-11.0542
宜乎	-11.0546
洛陽人	-11.055
宋文帝	-11.0552
累官	-11.0557
左方上有	-11.0566
畫册	-11.0566
臨右軍	-11.0566
今昔	-11.0568
九州	-11.0568
再三	-11.0571
金吾	-11.0572
看花	-11.0572
得之矣	-11.0573
盛徳	-11.0575
餘杭	-11.0579
頃刻	-11.0579
聖祖仁皇帝御書	-11.0584
溪橋	-11.0584
歳月	-11.0586
百六十	-11.059
蕃馬	-11.0591
其辭	-11.0593
後魏	-11.0594
畫并題	-11.0596
禪院	-11.0597
景定	-11.06
客來	-11.0603
如許	-11.0606
春正月	-11.0618
洛中	-11.0619
南豐	-11.0619
并詩	-11.0626
不多見	-11.0628
圖一寫生	-11.0628
書翰	-11.0629
堦	-11.0631
吳道𤣥	-11.0631
四十三	-11.0631
嫗	-11.0631
璟	-11.0633
乾卦	-11.0634
諫議大夫	-11.0634
幣	-11.0634
萼	-11.0635
考古圖	-11.0635
蔑	-11.0635
璜	-11.0636
集賢院	-11.064
蕋	-11.0641
臻其妙	-11.0641
去年	-11.0642
浩然	-11.0642
遲遲	-11.0642
蘇子美	-11.0645
郭熈	-11.0647
制作	-11.0648
承旨	-11.065
當日	-11.065
普賢	-11.0651
二十八宿	-11.0652
徐氏	-11.0654
六卷	-11.0655
淮海	-11.0655
何用	-11.0655
金玉	-11.0659
無為	-11.0668
逺水	-11.0669
文定公	-11.067
張照	-11.0674
借觀	-11.0676
晦翁	-11.0676
未之見	-11.0677
□(	-11.0679
好竒	-11.068
進士授	-11.0684
柴門	-11.0687
氣骨	-11.069
遂良	-11.0692
孫位	-11.0696
盈尺	-11.0698
一律	-11.07
購求	-11.0701
都督	-11.0701
水流	-11.0705
數紙	-11.0707
三十九	-11.071
勒石	-11.0714
誰與	-11.0714
卷髙九寸	-11.0715
天厯	-11.0721
壽平	-11.0722
九寸六分	-11.0723
東宫	-11.0723
冊計十	-11.0723
禊	-11.0727
貓圖	-11.0732
大笑	-11.0736
雙幅	-11.0736
時代	-11.0737
退之	-11.0737
醉翁	-11.0741
空谷	-11.0743
偶得	-11.0743
隂符經	-11.0743
康熈	-11.0746
畹	-11.0746
城郭	-11.0747
娶	-11.0748
唇	-11.0749
士女圖一	-11.075
娟娟	-11.0751
昃	-11.0751
仲夏	-11.0751
吟咏	-11.0752
舛	-11.0753
曹霸	-11.0753
江隂	-11.0754
婢	-11.0754
至京師	-11.0754
迸	-11.0754
燧	-11.0754
校書郎	-11.0755
旦夕	-11.0755
撝	-11.0756
之蹟	-11.0756
庖	-11.0757
璣	-11.0757
瀚	-11.0761
嶧山	-11.0761
桓温	-11.0762
𢎞農	-11.0763
開府	-11.0764
睿宗	-11.0767
臨水	-11.0767
徐賁	-11.0768
大梁	-11.0769
戲墨	-11.0771
蕭疎	-11.0771
波濤	-11.0772
范文正公	-11.0776
相忘	-11.0779
圖書印	-11.0779
先賢	-11.0784
實録	-11.0786
具姓名	-11.0787
藹然	-11.0789
經一册	-11.0791
和靖	-11.0794
府君碑	-11.0794
一室	-11.0797
入室	-11.0798
陸機	-11.0799
焦墨	-11.08
及觀	-11.0802
畫軸	-11.0803
皆非	-11.0808
太極	-11.081
豈徒	-11.0813
善畫人物	-11.0818
誤也	-11.0823
所以為	-11.0824
丈餘	-11.0832
蔡京	-11.0832
異時	-11.0832
自愛	-11.0833
氣力	-11.0834
所遺	-11.0834
遺風	-11.0841
歸田	-11.0842
遺迹	-11.0845
樂天	-11.0849
九寸三分	-11.0851
坐對	-11.0852
所収	-11.0856
銘一字	-11.0861
畫評	-11.0862
竒字	-11.0863
十有八	-11.0863
紐	-11.0864
佇	-11.0865
師宜官	-11.0868
雙龍	-11.0869
漫漶不可識	-11.0869
淺絳色	-11.087
僭	-11.0871
罨	-11.0872
澣	-11.0872
甌	-11.0872
琅	-11.0873
蝦	-11.0873
悶	-11.0874
廿八日	-11.0874
邠	-11.0874
蛺蝶	-11.0874
侃	-11.0875
裒	-11.0875
礪	-11.0876
岷	-11.0876
慷慨	-11.0877
参	-11.0877
西北	-11.0877
珍蔵	-11.0877
不倦	-11.0878
白石翁	-11.0881
廣川畫跋	-11.0883
紛披	-11.0884
唐子畏	-11.0886
唐伯虎	-11.0887
微茫	-11.0888
成就	-11.0889
䕶持	-11.0894
推重	-11.0898
全法	-11.0899
二絶	-11.0902
超越	-11.0902
虎丘	-11.0903
尊者	-11.0908
義士	-11.0908
翠竹	-11.091
江浙	-11.0913
越石	-11.0923
尚書郎	-11.0925
善隸書	-11.0927
中峰	-11.0929
敬觀	-11.0931
曾見	-11.0933
今藏	-11.0936
四首	-11.0936
全學	-11.0939
言語	-11.0949
賢母	-11.0962
何幸	-11.0963
篆字	-11.0964
窺其	-11.0967
宋高宗	-11.0969
錞	-11.0975
評曰	-11.0976
九寸四分	-11.0977
點	-11.0981
五言古詩	-11.0982
或疑	-11.0982
聫	-11.0985
游魚	-11.0985
圓勁	-11.0986
茒	-11.0988
蘚	-11.0988
短長	-11.0989
鷂圖	-11.0992
掘	-11.0992
叱	-11.0993
平章事	-11.0994
黄公	-11.0994
璠	-11.0994
一時名	-11.0996
顓	-11.0997
頡頏	-11.0997
枇杷	-11.0998
韓公	-11.0999
周必大	-11.1
囿	-11.1
芭蕉	-11.1001
五十六	-11.1005
横斜	-11.1005
工緻	-11.1006
奎章閣	-11.1006
敬仲	-11.1007
晴巒	-11.1014
十洲	-11.1021
雍容	-11.1022
無錫人	-11.1023
三紙	-11.1027
意度	-11.1028
白華	-11.1028
孫氏	-11.1031
羅浮	-11.1032
善草隸	-11.1033
十有七	-11.1037
董元	-11.104
下有乾隆宸翰	-11.1041
吳郡人	-11.1044
書本傳	-11.105
青城山	-11.1052
春江	-11.1058
尤佳	-11.106
江州	-11.1062
可疑	-11.1069
明人畫	-11.1069
文衡山	-11.1069
圖一寫	-11.1072
唐文皇	-11.1073
清絶	-11.1076
以紀	-11.1077
先輩	-11.108
今朝	-11.108
北史	-11.1082
稱善	-11.1087
具在	-11.1088
天王像	-11.1092
辨其	-11.1096
荒一	-11.1097
腹圍三尺	-11.1098
河中	-11.1101
坡公	-11.1101
禽圗一	-11.1102
改作	-11.1103
只有	-11.1104
盥	-11.1108
木石	-11.111
乾隆甲子	-11.111
首幅	-11.1111
厨	-11.1113
証	-11.1114
餓	-11.1116
蘄	-11.1116
效顰	-11.1117
悽	-11.1117
印識	-11.1118
穰	-11.1118
烹茶	-11.1118
左僕射	-11.1118
瞰	-11.1119
好古博雅	-11.112
㑹心	-11.112
戴逵	-11.1121
顰	-11.1123
藝苑巵言	-11.1124
文伯仁	-11.1125
衞夫人	-11.1126
甲乙	-11.1129
歎其	-11.1131
陳道復	-11.1133
固已	-11.1134
禽圖二	-11.1135
灑落	-11.1136
始終	-11.1141
墨戲	-11.1141
職貢圖	-11.1143
時年七十	-11.1144
王愔	-11.1145
淵源	-11.1148
落葉	-11.1156
尊彞	-11.1157
英宗	-11.1163
其所長	-11.1166
獻公	-11.1166
避地	-11.117
僅有	-11.1171
不廢	-11.1171
月晦日	-11.1173
自序	-11.1176
希世	-11.1179
應接	-11.118
清氣	-11.1181
龍水	-11.1189
五嶽	-11.1191
流泉	-11.1195
春二月	-11.1197
忠臣	-11.1199
張羽	-11.12
天門	-11.1203
桃竹	-11.1203
鷺鷥圖	-11.1204
伯機	-11.1205
倪瓉	-11.1206
不愧	-11.1207
二王書	-11.1211
蘭亭序	-11.1216
鄭公	-11.1218
壬	-11.1219
之甥	-11.122
意思	-11.1222
西清古鑑卷	-11.1222
梁溪	-11.1225
率意	-11.1225
具存	-11.1228
鈴	-11.1229
寒食	-11.1229
運思	-11.1233
爻	-11.1233
韓氏	-11.1236
飈	-11.1237
寒山	-11.1237
滸	-11.1238
捕魚圖	-11.1238
蠅	-11.1239
渲	-11.124
馮承素	-11.1241
奈何奈何	-11.1241
曝	-11.1242
沈傳師	-11.1242
搏	-11.1242
翦	-11.1243
杵	-11.1244
鵰	-11.1244
悰	-11.1247
伶	-11.1247
贗	-11.1248
堤	-11.1248
四大家	-11.125
蠅頭	-11.1253
近古	-11.1254
蕭瑟	-11.1254
奔走	-11.1255
墨氣	-11.1258
二跋	-11.126
為時所	-11.1261
紙本水墨	-11.1262
士衡	-11.1267
黄大癡	-11.1267
畫贊	-11.1267
王孟端	-11.1268
伯雨	-11.1271
未識	-11.1271
和南	-11.1273
時年八十	-11.1274
鐵石	-11.1274
佛像一	-11.1276
悵然	-11.1278
是嵗	-11.1279
士夫	-11.1281
侍讀	-11.1285
眞跡	-11.1285
在人間	-11.1285
漢陽	-11.1288
瀟湘圖	-11.129
吁嗟	-11.129
呉門	-11.129
欲求	-11.1291
萱草	-11.1296
月十六日	-11.1296
此賦	-11.1299
滿目	-11.13
絳帖	-11.1303
呉人	-11.1304
趙模	-11.1309
郡公	-11.1313
出門	-11.1315
脩竹	-11.1319
九寸八分	-11.1319
徃來	-11.1322
分布	-11.1322
超絶	-11.1324
意外	-11.1325
十六羅漢	-11.1326
伏羲	-11.1327
在長安	-11.1327
白衣	-11.1328
臺閣	-11.1329
咸陽	-11.133
九寸七分	-11.1334
十萬	-11.1337
兒女	-11.1344
竺	-11.1344
世界	-11.1345
碧玉	-11.1347
四十八	-11.1349
東坡書	-11.1355
第十七幅	-11.1356
長樂	-11.1357
相看	-11.1357
八寸三分	-11.1359
尉遲乙僧	-11.1363
矗	-11.1364
核	-11.1364
澄心	-11.1364
樾	-11.1365
罏	-11.1366
渇	-11.1366
亢	-11.1367
亰	-11.1367
快雪時晴	-11.1368
詫	-11.137
三升	-11.137
曹娥碑	-11.1371
鮮于伯機	-11.1372
怳	-11.1372
揷	-11.1373
張即之	-11.1373
昔人謂	-11.1376
不遇	-11.1378
永徽	-11.1379
九歌圖	-11.138
圖幷題	-11.1381
秘玩	-11.1381
稟	-11.1382
荆闗	-11.1383
在京師	-11.1384
寇	-11.1384
原係	-11.1386
王次仲	-11.139
邊鸞	-11.139
三十一	-11.1393
吳氏	-11.1394
藝術	-11.1394
西涯	-11.1395
題識云	-11.1398
靡不	-11.1399
法師碑	-11.1401
此銘	-11.1404
歎賞	-11.1405
西南	-11.141
英雄	-11.1413
超逸	-11.1417
建業	-11.1418
草堂圖	-11.142
八九	-11.1425
泰和	-11.1429
元統	-11.1432
便欲	-11.1436
元人畫	-11.1438
翠微	-11.1442
郡守	-11.1446
臨流	-11.1449
重修	-11.1458
髙尚書	-11.146
髙閑	-11.1464
江干	-11.1464
架上	-11.1465
五十三	-11.1467
知足下	-11.1469
先主	-11.1472
累日	-11.1472
水牛	-11.1473
而不可得	-11.1477
舒卷	-11.1478
絶世	-11.1479
孝武	-11.1481
雲林子	-11.1481
列仙	-11.1482
竟日	-11.1483
趙郡	-11.1486
大率	-11.1486
神竒	-11.1486
五十五	-11.1486
駟	-11.1487
才翁	-11.1488
流芳	-11.1489
驂	-11.1492
虗	-11.1492
稻	-11.1493
猜	-11.1495
取法	-11.1495
瑋	-11.1496
榛	-11.1496
相隨	-11.1497
需	-11.1497
趾	-11.1498
屨	-11.1498
仆	-11.1499
聿	-11.1499
壬申	-11.15
枯樹賦	-11.15
㬌	-11.1501
娱	-11.1501
贖	-11.1501
陁	-11.1502
關仝	-11.1503
葱	-11.1503
雒	-11.1503
蝴蝶	-11.1504
奏事	-11.1504
醪	-11.1504
毫髮	-11.1507
閫	-11.1507
星辰	-11.1507
春山圖	-11.1507
浮屠	-11.1508
覩其	-11.1508
忻	-11.1508
評者	-11.1508
宋濓	-11.1509
六曰	-11.1513
跋云右	-11.1514
力學	-11.1514
豈惟	-11.1515
尉遲	-11.1518
重三斤	-11.152
懸崖	-11.1521
虞公	-11.1522
伯温	-11.1525
玉潤	-11.1526
晝夜	-11.1527
石榴	-11.1527
雖多	-11.1528
何能	-11.153
衆工	-11.1533
逺甚	-11.1534
征西	-11.1536
太宗皇帝	-11.1536
碧雲	-11.1537
城市	-11.1542
廿又	-11.1545
咄咄逼	-11.1546
所由	-11.1552
石鼓文	-11.1552
羣玉	-11.1554
鍾山	-11.1556
詩酒	-11.1557
山村	-11.1567
真贋	-11.1568
成一家	-11.1568
音律	-11.1571
致意	-11.1571
鑒藏	-11.1571
五老	-11.1572
忠簡	-11.1572
宫室	-11.1573
可貴	-11.1574
善楷書	-11.1578
其字畫	-11.1578
子由	-11.1579
清曉	-11.1587
相示	-11.159
一尺一寸	-11.1598
墨竹圖	-11.1617
貯乾清宫	-11.1621
霑	-11.1621
東京	-11.1622
駸駸	-11.1623
粘	-11.1623
悞	-11.1624
惕	-11.1624
薔薇	-11.1625
徂	-11.1626
嗤	-11.1627
丕	-11.1627
災	-11.1627
褉	-11.1628
閒雅	-11.1628
匱	-11.1629
估	-11.1629
煬帝	-11.163
訊	-11.163
故鄉	-11.163
己卯	-11.163
興化	-11.1633
鍾太傅	-11.1633
有父風	-11.1633
棐	-11.1635
圖繪寳鑑續纂	-11.1636
濯足	-11.1637
何物	-11.1638
也又云	-11.1639
一璽又	-11.1639
豳風	-11.164
詩翰	-11.1642
蘭亭叙	-11.1644
華隂	-11.1644
把玩	-11.1644
甚詳	-11.1647
賓客	-11.1648
銘三字	-11.1649
韋偃	-11.1652
入能品	-11.1653
撰并	-11.1663
可想見	-11.1664
後代	-11.1671
黄氏	-11.1672
不能辨	-11.1677
猶子	-11.1678
大約	-11.1678
題句云	-11.1683
召入	-11.1686
臨倣	-11.1689
九寸一分	-11.1694
樂道	-11.1694
歌舞	-11.1697
中秋日	-11.1697
鑑定	-11.1699
補遺	-11.1699
僧舍	-11.1699
髙致	-11.17
奉詔	-11.1702
元季	-11.1703
崑山人	-11.1705
宋人畫	-11.1709
少監	-11.1714
書畫皆	-11.1718
楮紙	-11.172
肥瘦	-11.172
此類	-11.1723
天閑	-11.1728
緑樹	-11.1735
燈下	-11.1736
月色	-11.1737
雷雨	-11.1738
唐明皇	-11.1739
評者謂	-11.174
絶藝	-11.1742
千尺	-11.1743
其一也	-11.1746
邯鄲	-11.1751
矛	-11.1751
錐畫沙	-11.1751
蠆	-11.1751
太上像	-11.1752
紉	-11.1752
濃墨	-11.1753
黼	-11.1754
嶼	-11.1754
一㸃一畫	-11.1754
王士元	-11.1756
奬	-11.1756
柳公權	-11.1757
須臾	-11.1757
庇	-11.1758
逍遙	-11.1758
鏊	-11.1758
扆	-11.1758
目前	-11.176
駁	-11.176
弛	-11.1761
顛倒	-11.1761
銀青光禄大夫	-11.1761
鞋	-11.1761
前身	-11.1761
仙山樓閣	-11.1762
手簡	-11.1763
屛	-11.1763
梧桐	-11.1763
闈	-11.1763
霅川	-11.1764
希白	-11.1764
蘭蕙	-11.1765
余所見	-11.1766
永師	-11.1767
唾	-11.1767
顥	-11.177
咸淳	-11.177
分别	-11.1772
洪崖	-11.1772
蘆鴈	-11.1773
句曲	-11.1773
卷首有	-11.1776
梁元帝	-11.1779
石恪	-11.1779
院記	-11.1779
太原人	-11.1782
卷末有	-11.1788
僧巨然	-11.1789
純素	-11.1789
寓舍	-11.179
玉泉	-11.179
野水	-11.1795
福寺	-11.1801
動静	-11.1802
臨蘭亭	-11.1807
傅色	-11.181
偽作	-11.1811
壯士	-11.1814
皇恐	-11.1818
南齊	-11.1819
化工	-11.1822
秃	-11.1824
荆南	-11.1826
快雪	-11.1832
刻絲	-11.1833
蕭寺	-11.1835
孝友	-11.1844
寺壁	-11.1845
小李將軍	-11.1849
詩塘	-11.1854
字上鈐	-11.1857
甚竒	-11.1859
只今	-11.1862
理宗	-11.1862
桓公	-11.1866
絶勝	-11.1866
集序	-11.1868
史氏	-11.187
鉦	-11.1872
顧氏	-11.1874
四十七	-11.1875
濓	-11.188
豕	-11.1883
雙禽圖	-11.1885
懲	-11.1886
氏二印	-11.1886
剝	-11.1887
屹	-11.189
芽	-11.1891
黻	-11.1891
池水	-11.1891
濫	-11.1891
字㸃去	-11.1892
參知政事	-11.1892
眸	-11.1892
詛	-11.1892
盪	-11.1893
淙	-11.1893
隈	-11.1894
所録	-11.1895
毬	-11.1896
黄溍	-11.1896
薊丘	-11.1896
戡	-11.1897
趙孟頫書	-11.1898
斗方	-11.1898
級	-11.1898
霓裳	-11.1899
不經意	-11.1899
十有九	-11.19
鳯凰	-11.19
江寧	-11.1901
醮	-11.1902
辯才	-11.1903
優孟	-11.1904
尚多	-11.1904
摹勒	-11.1905
荔枝	-11.1905
風味	-11.1905
清賞	-11.1906
世不多見	-11.1907
孝祥	-11.1907
維揚	-11.1908
百花	-11.191
司農	-11.1911
誰家	-11.1912
小篆書	-11.1912
黄華	-11.1916
揚雄	-11.1921
陽縣	-11.1924
山河	-11.1925
白描畫	-11.1925
風采	-11.1929
迄今	-11.1932
為世所	-11.1934
壁上	-11.1937
呉江	-11.1938
南都	-11.1938
文選	-11.1944
草書千文	-11.1946
二百年	-11.1947
是耶	-11.1947
運用	-11.1947
精密	-11.1948
林壑	-11.195
無塵	-11.1952
獐	-11.1956
長一尺	-11.1957
建寧	-11.1958
沈著	-11.1959
府學	-11.1963
水火	-11.1965
楫	-11.1968
之祖也	-11.1974
周氏	-11.1982
一尺二寸	-11.1982
官舍	-11.1988
蕭寺圖	-11.1989
御題詩云	-11.1992
凛	-11.1996
虞褚	-11.2
自負	-11.2003
平淡	-11.2003
妙入神	-11.2004
儋	-11.2005
宋黄庭堅書	-11.2013
熹	-11.2017
學問	-11.2018
恤	-11.2019
醉墨	-11.2019
喙	-11.2021
濂	-11.2022
硃	-11.2022
藕	-11.2022
瞳	-11.2025
彫	-11.2026
毘	-11.2026
僞	-11.2026
碑碑隂	-11.2026
絶交書	-11.2027
仲冬	-11.2027
溷	-11.2027
史惟則	-11.2028
燼	-11.2028
北斗	-11.2028
遨	-11.2028
盞	-11.2029
後一器	-11.2029
鶩	-11.2029
終南	-11.203
𦵏	-11.2031
剰	-11.2031
訴	-11.2031
畋	-11.2032
洪武初	-11.2034
淳祐	-11.2034
知府	-11.2035
堯舜	-11.2036
沸	-11.2036
民間	-11.2037
兵部尚書	-11.2037
三教	-11.2037
無由	-11.2038
契丹	-11.2044
殷勤	-11.2045
方方壺	-11.2046
汪氏	-11.2049
夏圭	-11.205
令狐	-11.205
未見其	-11.2051
山甫	-11.2052
温潤	-11.2053
周宣王	-11.2054
小橋	-11.2058
歐公	-11.2059
張翥	-11.2063
白鷗	-11.2066
惠崇	-11.2067
逸氣	-11.2069
抑亦	-11.2073
萬夀	-11.2081
九曲	-11.2087
竒石	-11.2101
起敬	-11.2101
意象	-11.2106
公私	-11.2107
兵部	-11.2112
山澤	-11.2114
題句一	-11.2124
海陵	-11.2125
三十七	-11.2133
吟詩	-11.2141
五百年	-11.2141
舟次	-11.2142
莆	-11.215
砥	-11.2151
谿山	-11.2153
闋	-11.2154
遏	-11.2157
捫	-11.2158
賡	-11.2159
前一器	-11.2159
斟酌	-11.2159
幄	-11.216
覬	-11.216
俶	-11.2161
逓	-11.2161
熒	-11.2161
贊云	-11.2162
郷	-11.2163
肺	-11.2163
夐	-11.2164
砢玉	-11.2165
侍讀學士	-11.2165
刦	-11.2165
鋤	-11.2166
弋	-11.2166
鴻臚	-11.2166
厥後	-11.2166
袁桷	-11.2167
拒霜	-11.2167
軫	-11.2167
海虞	-11.217
祝希哲	-11.217
詆	-11.2171
碧梧	-11.2171
聽雨樓	-11.2171
霆	-11.2171
國子祭酒	-11.2172
廖	-11.2172
閩書	-11.2172
曲盡其妙	-11.2175
漁艇	-11.2176
仲珩	-11.2178
士安	-11.218
三友	-11.218
復吉	-11.2181
雄偉	-11.2183
徴君	-11.2186
圓熟	-11.2186
親見	-11.2187
貴戚	-11.219
夢見	-11.2196
畧無	-11.22
収藏	-11.2202
文敏公	-11.2204
鷺鷥	-11.2208
仲温	-11.2211
史稱	-11.2212
不减	-11.2212
鳳翔	-11.2214
金壇	-11.2222
重裝	-11.2227
穆公	-11.2227
石橋	-11.2228
譬之	-11.2229
古隸	-11.223
千葉	-11.2235
表裏	-11.2235
□□□	-11.2244
齊梁	-11.2244
一堵	-11.2251
圖并題卷	-11.2251
嗜古	-11.2258
史館	-11.2264
百千	-11.2279
雪江	-11.2286
貓圖一	-11.2291
餗	-11.2293
悴	-11.2294
所蓄	-11.2294
矮	-11.2296
緫	-11.2297
擒	-11.2297
旃	-11.2297
慣	-11.2298
卽	-11.23
髦	-11.23
俎	-11.2302
緋	-11.2302
祖宗	-11.2302
無量夀	-11.2302
囬	-11.2302
項聖謨	-11.2303
縹	-11.2303
諳	-11.2303
璨	-11.2303
淳古	-11.2304
儘	-11.2304
未暇	-11.2304
漳	-11.2305
延熹	-11.2305
兼長	-11.2305
餞	-11.2306
淳化閣帖	-11.2306
懌	-11.2307
坰	-11.2307
尺許	-11.2307
李昭道	-11.2309
殊不知	-11.2309
此冊	-11.231
祕書監	-11.2311
蒼苔	-11.2312
歴代名	-11.2313
於其間	-11.2317
退密	-11.2317
在位	-11.2318
烏絲	-11.232
杜預	-11.2321
反覆	-11.2323
玉軸	-11.2323
計四十	-11.2323
扶疎	-11.2324
捕魚	-11.2329
竹鶴	-11.233
左氏	-11.2331
性命	-11.2332
李迪	-11.2333
亡其	-11.2336
頁頁髙	-11.234
工花鳥	-11.2348
半印三	-11.235
陰陽	-11.2354
翻刻	-11.2355
月十七日	-11.2356
以示余	-11.236
始見	-11.2368
闗中	-11.2369
仁夀	-11.2372
神武	-11.2373
手札	-11.2384
衣服	-11.2385
男子	-11.2389
三十八	-11.2392
二米	-11.2393
不可考	-11.2396
亡矣	-11.2399
山水一軸	-11.2404
髙低	-11.2404
周鼎	-11.2404
曽祖	-11.2411
獲見	-11.2413
亥	-11.2421
戊	-11.2423
臨王羲之	-11.2423
刓	-11.2433
襍	-11.2437
遂昌鄭元祐	-11.2438
檇李項氏世家寶玩	-11.2438
鉞	-11.2439
幛	-11.244
鰲	-11.2441
瞬	-11.2441
慟	-11.2441
坎	-11.2442
衙	-11.2442
鷓鴣	-11.2442
幔	-11.2442
姦	-11.2443
袐	-11.2444
鐡網珊瑚	-11.2444
彎	-11.2444
黄鶴山人	-11.2445
益州名畫録	-11.2445
干戈	-11.2446
㠶	-11.2446
躁	-11.2447
冡	-11.2447
奐	-11.2449
麻姑	-11.245
遡	-11.2451
渤海	-11.2451
韓退之	-11.2453
口徑一尺	-11.2454
得其法	-11.2454
缾	-11.2457
潯陽	-11.2457
金陵瑣事	-11.2458
落墨	-11.246
五十年	-11.2461
左方上	-11.2464
蟲魚	-11.2465
夜半	-11.2471
茫然	-11.2472
天啓	-11.2473
銘二字	-11.2474
仇逺	-11.2482
禽魚	-11.2483
都穆	-11.2484
立戈	-11.2485
散落	-11.2488
林亭	-11.2497
寒泉	-11.25
晉陽	-11.2507
宣德	-11.2508
集録	-11.2509
伯夷	-11.2511
四足	-11.2515
其形似	-11.2519
所能及	-11.252
僖宗	-11.2522
傳世者	-11.2522
衣食	-11.2523
作墨竹	-11.2527
端勁	-11.2528
僅見	-11.2533
沈君	-11.2541
佛殿	-11.2545
家廟碑	-11.2545
盛事	-11.2545
清雅	-11.2553
來往	-11.2559
曲直	-11.2563
魚龍	-11.2568
姜堯章	-11.2572
御筆題籖籖上有	-11.2581
赭	-11.2581
旂	-11.2581
婆娑	-11.2582
歷	-11.2584
娟	-11.2584
紈扇	-11.2586
未央	-11.2586
飡	-11.2586
讌	-11.2587
宥	-11.2587
恠	-11.2587
尚書左僕射	-11.2587
洶	-11.2588
澄心堂紙	-11.2588
巉	-11.2588
飛仙	-11.2589
粤	-11.2589
長洲沈周	-11.259
迢迢	-11.259
衛協	-11.259
西園雅集	-11.2592
畊	-11.2593
訓導	-11.2594
李日華	-11.2594
㝠㝠	-11.2595
台州	-11.2595
王羲之書	-11.2597
盛懋	-11.2599
畢宏	-11.2601
艱難	-11.2603
感激	-11.2605
熹平	-11.2606
右軍父子	-11.2607
屈曲	-11.261
徵君	-11.2611
絶似	-11.2611
侍從	-11.2612
太后	-11.2612
鄭元祐	-11.2623
給事	-11.2627
宣和殿	-11.2629
變通	-11.263
變幻	-11.263
凡七	-11.2634
晉陵	-11.2638
余觀	-11.2639
夢裏	-11.2642
幽深	-11.2643
元倪瓚	-11.2646
柬之	-11.2657
書畫印	-11.2657
胡昭	-11.2659
孔子廟	-11.2662
善𨽻書	-11.2667
四十二	-11.2667
重二百	-11.2675
不墜	-11.2679
恭和	-11.2684
舎人	-11.269
末年	-11.2691
難辨	-11.2692
仲昭	-11.2693
受命	-11.2695
舉止	-11.2701
精宻	-11.2705
誤作	-11.2711
習氣	-11.2718
珏	-11.2723
鴟	-11.2724
鍼	-11.2725
詡	-11.2726
喇	-11.2727
煖	-11.2727
熏	-11.2729
戢	-11.2729
盍	-11.2729
陀羅尼	-11.2729
朱長文	-11.273
肘	-11.2731
鱸	-11.2731
殫	-11.2731
頥	-11.2732
奢	-11.2732
著作郎	-11.2733
此卷乃	-11.2733
一印後有	-11.2734
允明	-11.2736
聖朝名畫評	-11.2737
洄	-11.2737
萬嵗	-11.2737
偃蹇	-11.2738
赫奕	-11.2739
稹	-11.2739
名跡	-11.274
惶恐	-11.2743
嬰兒	-11.2743
譲	-11.2744
晴嵐	-11.2745
垂拱	-11.2749
歸去來辭	-11.2749
陳閎	-11.2754
管夫人	-11.2755
煙雨	-11.2757
章帝	-11.2761
精到	-11.2761
縣尉	-11.2762
王逢	-11.2764
閻令	-11.2765
王履吉	-11.2767
不茍	-11.2773
詠歌	-11.2782
舉世	-11.2785
諸君子	-11.2786
蒼翠	-11.2787
智永千文	-11.279
餘俱	-11.2796
用力	-11.2799
謹奉	-11.2801
織成	-11.2801
到處	-11.2806
人姓名	-11.2808
道塲	-11.2813
手持	-11.2817
自娛	-11.2822
比肩	-11.2824
乾元	-11.2826
此軸	-11.2827
懐仁	-11.2832
溪亭	-11.2837
目力	-11.2839
通鑑	-11.284
一璽左方詩云	-11.2846
為翰林待詔	-11.2847
江頭	-11.2848
三十四	-11.285
松聲	-11.285
平沙	-11.2852
松陵	-11.2853
靈巖	-11.2857
疆	-11.2857
廙	-11.2857
擫	-11.2857
郵	-11.2859
可得而	-11.2862
影落	-11.2864
七言律詩一首	-11.2865
第十九幅	-11.2865
沈度	-11.2865
雨晴	-11.2866
龔璛	-11.2868
一百二十	-11.2868
徤	-11.287
卯	-11.2873
十二卷	-11.2874
欝	-11.2875
跂	-11.2875
舷	-11.2876
貫道	-11.2876
丐	-11.2877
泚	-11.2878
收拾	-11.2878
夏禹	-11.2878
薈	-11.2878
太常少卿	-11.2879
突兀	-11.2879
漢王元昌	-11.2879
蟬蝶	-11.288
者鮮	-11.288
袒	-11.288
籙	-11.2881
臞	-11.2881
薊	-11.2881
罅	-11.2881
偁	-11.2882
盛子昭	-11.2882
賈似道	-11.2882
寥廓	-11.2883
嬋娟	-11.2883
悌	-11.2883
校尉	-11.2883
珽	-11.2884
具眼	-11.2884
仇實父	-11.2885
貧賤	-11.2888
竇蒙	-11.2888
孰能	-11.2888
瑶臺	-11.2894
董羽	-11.2901
金沙	-11.2902
春曉圖	-11.2903
垂虹	-11.2904
獨孤	-11.2908
石柱	-11.2912
宋蔡襄	-11.2919
連印	-11.2921
侍講	-11.2922
婁江	-11.2923
南枝	-11.2931
同郡	-11.2936
追封	-11.2936
天啟	-11.2939
備矣	-11.294
太真	-11.2943
依舊	-11.2943
鴻都	-11.2948
最難	-11.2952
黄太史	-11.2954
寓目	-11.297
獨存	-11.2971
娯	-11.2977
永昌	-11.2978
吴郡	-11.2978
雙松	-11.298
髙士圖	-11.2981
無銘是器	-11.2983
宣帝	-11.2984
清曠	-11.2985
神化	-11.2987
伯父	-11.2988
描寫	-11.2993
不知何人	-11.2997
僅得	-11.3004
陛	-11.3005
容齋	-11.3006
箸	-11.3012
石鼔	-11.3015
􁁜	-11.3018
蒿	-11.3018
嬪	-11.3018
墨箋本泥金書	-11.3019
不測	-11.3021
虜	-11.3021
袠	-11.3022
肱	-11.3023
外錄書畵舫云	-11.3024
劭	-11.3025
月十四日	-11.3025
文姬	-11.3026
㴱	-11.3026
枿	-11.3026
稔	-11.3028
冉冉	-11.3028
斲	-11.3028
唐希雅	-11.3028
筭	-11.3029
迭	-11.3029
膳	-11.3029
鞠	-11.3029
耘	-11.3029
工部尚書	-11.303
璵	-11.303
崦	-11.3031
刑部尚書	-11.3031
裊	-11.3031
鳳凰	-11.3031
弟子趙孟頫	-11.3032
平園集	-11.3032
澈	-11.3032
太子少師	-11.3032
查	-11.3032
瑰	-11.3033
吹簫	-11.3033
梁清標印	-11.3033
獐猿	-11.3033
坑	-11.3034
鉏	-11.3035
匏菴	-11.3035
瓠	-11.3036
稚恭	-11.3036
彦亷	-11.3037
提梁	-11.3037
髙郵	-11.3039
黄麻紙	-11.3039
偃仰	-11.3041
髙士竒	-11.3043
御府所藏行書一	-11.3046
珠玉	-11.3048
孟夏	-11.3052
地獄	-11.3055
遒逸	-11.3057
金帛	-11.3059
莊嚴	-11.3064
髙九寸	-11.3069
諸名家	-11.3071
遺像	-11.3078
可畏	-11.308
長康	-11.3083
泉州	-11.3084
像贊	-11.3087
王右軍書	-11.3087
七夕	-11.3091
殆非	-11.3092
楚楚	-11.3094
白蓮	-11.3102
江南春	-11.3102
形體	-11.311
萬松	-11.3112
滿庭	-11.3113
孟堅	-11.312
清淨	-11.3123
蘇黄米	-11.3123
答曰	-11.3126
恐非	-11.313
唐歐陽詢	-11.3133
僧智永	-11.3135
尤喜	-11.3139
馬夏	-11.314
也雖然	-11.3142
謫仙	-11.3145
終不能	-11.3146
南康	-11.3152
數幅	-11.3152
千巖	-11.3162
八寸七分	-11.3163
貼	-11.3165
淇	-11.3167
骨法	-11.3167
造其極	-11.3174
嵓	-11.3174
中書舎人	-11.3174
襯	-11.3175
蚓	-11.3175
俛	-11.3175
謡	-11.3176
沈宗敬	-11.3177
郤	-11.3177
无	-11.3177
硏	-11.3177
張若靄	-11.3177
蜿蜒	-11.3177
北京	-11.3178
惶	-11.3178
崧	-11.3179
賚	-11.318
嶷	-11.318
藴藉	-11.318
讐	-11.318
蕚	-11.3181
檐	-11.3182
贄	-11.3182
筐	-11.3182
偹	-11.3182
流落人間	-11.3183
御臨董其昌	-11.3183
杉	-11.3184
晟	-11.3185
耒	-11.3187
勘書圖	-11.3188
可寶也	-11.3188
拱璧	-11.3188
成形	-11.3189
開府儀同三司	-11.3189
草書歌	-11.3191
他年	-11.3193
趙仲穆	-11.3194
刀銘	-11.3195
咸熙	-11.3199
豪傑	-11.32
典籍	-11.32
却憶	-11.3202
嶧山碑	-11.3203
月廿二日	-11.3203
太常卿	-11.3204
陸游	-11.321
赤壁賦	-11.3214
禹功	-11.3217
慶歴	-11.3218
奚官	-11.322
蕭翼	-11.3227
春草堂	-11.323
最妙	-11.3234
吳鎮	-11.3241
銘四字	-11.3244
勤學	-11.325
升堂	-11.3255
皇太子	-11.3264
烟靄	-11.3266
敷文	-11.3269
散逸	-11.327
此殆	-11.3273
楊栁	-11.3293
恕先	-11.3298
不害	-11.3308
精巧	-11.3309
二十卷	-11.331
睂山	-11.3311
法口訣云	-11.332
子子孫孫	-11.3325
有可觀	-11.3326
罹	-11.3328
敧	-11.3328
寺丞	-11.3328
邊幅有	-11.3329
太史公	-11.3329
砂	-11.3331
駱	-11.3334
罵	-11.3335
宣德箋本	-11.3335
氣韻生動	-11.3335
一印不可識	-11.3335
簟	-11.3335
鵪鶉	-11.3336
脊	-11.3336
緗	-11.3336
琉璃	-11.3337
戮	-11.3337
十六幅	-11.3337
膩	-11.3338
伺	-11.3339
窩	-11.334
慘淡	-11.3341
待渡圖	-11.3341
戛	-11.3341
睨	-11.3342
杜子美	-11.3342
錢選	-11.3343
鄆	-11.3345
秦檜	-11.3346
其子孫	-11.3348
漁樵	-11.335
幽篁	-11.3351
羲之死罪	-11.3351
朋友	-11.3352
雲煙	-11.3354
蒼松	-11.3356
活動	-11.3357
豈止	-11.3358
班固	-11.3359
弄筆	-11.3366
釣魚	-11.3367
疎密	-11.3368
次仲	-11.337
鷂子	-11.337
吕紀	-11.3372
宋李公麟畫	-11.3374
横塘	-11.3374
陸錫	-11.3381
比丘	-11.3387
宋黄庭堅	-11.3389
館閣	-11.3395
亦善畫	-11.3396
一幀	-11.3397
落木	-11.34
蓮社圖	-11.3402
賞識	-11.3407
磁青箋本泥金書	-11.3408
功夫	-11.3408
告身	-11.3409
體裁	-11.341
夢英	-11.3411
寶玩	-11.3411
右僕射	-11.3413
太原王	-11.3415
東壁	-11.3415
形狀	-11.3416
放縱	-11.342
方回	-11.3427
固宜	-11.343
南渡後	-11.3435
便覺	-11.3438
在京兆	-11.3442
公綬	-11.3449
師資	-11.3453
王䝉	-11.3454
嶺南	-11.3459
孤松	-11.3468
懐瓘	-11.3476
寧宗	-11.3479
控	-11.3481
泄	-11.3482
澆	-11.3483
石墨鐫華	-11.3483
茂苑文嘉	-11.3484
賖	-11.3484
䂓	-11.3484
煤	-11.3485
刊	-11.3485
擺	-11.3486
禇河南	-11.3486
霏霏	-11.3487
隼	-11.3487
謚	-11.3487
蛻	-11.3488
一派	-11.3488
嶮	-11.3488
嚼	-11.3489
愽	-11.3489
内殿	-11.3489
諶	-11.3489
盧藏用	-11.349
驊騮	-11.349
茆	-11.349
糊	-11.3491
康昕	-11.3491
畤	-11.3491
夥	-11.3491
沽	-11.3491
蘇舜欽	-11.3492
妥	-11.3492
撼	-11.3493
璹	-11.3493
先君子	-11.3493
爛熳	-11.3493
崕	-11.3493
美女	-11.3493
蔡忠惠	-11.3494
檢討	-11.3495
畫院祗候	-11.3495
御史大夫	-11.3495
等謹案	-11.3495
圏	-11.3495
姨	-11.3495
范仲淹	-11.3496
莘	-11.3496
嘆曰	-11.3497
偏傍	-11.3498
取象	-11.3501
東丹王	-11.3501
荆州刺史	-11.3502
爛漫	-11.3502
甸	-11.3503
山水樹石	-11.3505
種竹	-11.3509
松栢	-11.3511
御府所藏草書一	-11.3512
舅氏	-11.3515
無疆	-11.3515
諸印後有	-11.3518
岐陽	-11.352
良史	-11.3526
東籬	-11.3527
霄漢	-11.3529
庭堅頓首	-11.353
布政	-11.353
貓圗一	-11.3532
聲價	-11.3533
自矜	-11.3534
并識	-11.3535
唐張彦逺	-11.3538
緑隂	-11.3545
秃筆	-11.3551
平生所	-11.3557
隠隠	-11.3563
不煩	-11.3565
禹玉	-11.3566
考功	-11.3567
絶類	-11.3568
游絲	-11.3569
天王像一	-11.3571
屋漏	-11.3573
下署	-11.3576
不擇	-11.3578
憶昔	-11.3579
旁注	-11.3584
最愛	-11.3593
减	-11.3593
二印拖尾	-11.3598
殘碑	-11.3601
功德	-11.3616
李式	-11.3621
獅	-11.3625
不讓	-11.3634
雪滿	-11.3636
手蹟	-11.3636
恂	-11.3639
腫	-11.3639
婺	-11.364
浙東	-11.3641
囑	-11.3641
儂	-11.3643
詩話	-11.3643
周伯琦	-11.3644
睛	-11.3645
荻	-11.3646
昭宗	-11.3646
嵌	-11.3647
矚	-11.3647
窅	-11.3647
籀篆	-11.3647
傅朋	-11.3648
卄	-11.3648
情性	-11.3649
斾	-11.3649
髙克明	-11.3649
枝頭	-11.3649
社稷	-11.365
劫	-11.365
两	-11.3651
哈	-11.3651
蘆雁	-11.3652
齎	-11.3653
斐	-11.3653
大聖慈寺	-11.3655
惡札	-11.3656
今見帶名	-11.3656
殷仲容	-11.3656
米海岳	-11.3658
璇	-11.3658
郭若虚	-11.3658
辛苦	-11.3658
第二十幅	-11.3659
廣四尺	-11.3661
荆關	-11.3662
部主事	-11.3663
饒介	-11.3663
莫測	-11.3664
鐵崖	-11.3665
池塘	-11.3666
寒鴉	-11.3668
米顛	-11.367
抱琴	-11.3674
元黄公望	-11.3679
五陵	-11.368
談笑	-11.3682
盤谷	-11.3684
拜覆	-11.3686
晉武帝	-11.3693
明宣宗	-11.3693
張貞居	-11.3698
蓮社	-11.3701
李太白	-11.3707
張紳	-11.3707
轉運	-11.3708
二王帖	-11.3708
書此以	-11.3715
細潤	-11.3723
宋宗室	-11.3725
轉折	-11.3728
曹韓	-11.3734
碧桃	-11.3736
善草𨽻	-11.3738
畫隋朝官本	-11.3743
䟦語	-11.3753
項墨林	-11.3757
季海	-11.3757
髙七寸	-11.3758
元宰	-11.3759
湖南	-11.376
讀易	-11.3762
棄去	-11.3762
亦足以	-11.3765
宫女	-11.3771
庾云	-11.3786
睢	-11.3787
諸儒	-11.379
容二升	-11.3791
覃	-11.3795
轅	-11.3798
俓	-11.3798
繋	-11.3799
居寀	-11.3802
嵒	-11.3802
女史箴	-11.3805
糾	-11.3806
彊	-11.3806
帝釋	-11.3806
壹	-11.3807
兵部侍郎	-11.3808
浥	-11.3808
牌	-11.381
炫	-11.381
豈特	-11.381
銛	-11.381
雲山圖	-11.3811
扃	-11.3811
范曄	-11.3811
媪	-11.3812
列卿紀	-11.3813
曵	-11.3813
僉憲	-11.3814
波瀾	-11.3814
劉禹錫	-11.3814
隘	-11.3814
匏翁家藏集	-11.3815
麝	-11.3815
驃騎	-11.3816
晝錦堂	-11.3816
述書賦注	-11.3816
焞	-11.3816
祕書省	-11.3816
葆	-11.3817
琬	-11.3818
治平元年	-11.3821
惘然	-11.3828
諸名公	-11.3829
禽獸	-11.383
秋晚	-11.3832
太乙	-11.3837
吾郡	-11.3838
兒童	-11.3839
漫漫	-11.3842
松柏	-11.3843
昔賢	-11.3848
沉著	-11.3849
資政	-11.3852
每作一	-11.3853
今御府所藏一	-11.3863
忽忽	-11.3866
雨霽	-11.3871
圗一寫生	-11.3872
長嘯	-11.388
研精	-11.3884
印一又	-11.3884
王僧䖍云	-11.3887
木落	-11.3888
獨擅	-11.3888
講學	-11.3892
稱賞	-11.3893
蜀主	-11.3896
聽雨	-11.3913
郭天錫	-11.3923
漢隸	-11.3926
畵院	-11.393
六十四	-11.393
不可曉	-11.3934
忠肅	-11.3935
聖教	-11.3939
詵	-11.3943
今考	-11.3954
戲貓圖一	-11.3957
一尺三寸	-11.3963
湊	-11.3966
錡	-11.3968
管道昇	-11.3968
慤	-11.3968
家貧	-11.3968
飜	-11.3968
淒	-11.3969
溶	-11.3969
唳	-11.397
吼	-11.3971
顧野王	-11.3972
堇	-11.3973
祭祀	-11.3973
駛	-11.3973
璫	-11.3974
攅	-11.3974
穗	-11.3974
隕	-11.3975
袖卷	-11.3975
服膺	-11.3975
趙孟堅	-11.3976
御府所藏正書一	-11.3976
艮	-11.3978
昀	-11.3978
鞅	-11.3978
瑯	-11.3979
饋	-11.3979
吠	-11.398
當是時	-11.3981
鑄一鼎	-11.3981
暹	-11.3982
築室	-11.3983
吹笛	-11.3984
陳居中	-11.3984
錦囊	-11.3985
傭	-11.3985
蹤跡	-11.3985
流涕	-11.3987
几案	-11.3987
之謂乎	-11.3989
盈盈	-11.3991
盧氏	-11.3992
宋濂	-11.3994
鎮江	-11.3996
衛將軍	-11.4001
藝苑	-11.4007
衣紋	-11.4011
嘉泰	-11.4012
常熟人	-11.4015
拈出	-11.4022
借勢	-11.4026
前軰	-11.4028
元汴	-11.403
江淮	-11.4031
河北	-11.4034
行旅圖	-11.4036
雄逸	-11.4058
豈易	-11.4064
書七言絶句	-11.4073
莫知其	-11.4077
父己	-11.4083
芾頓首再拜	-11.4089
乆矣	-11.4091
䭾	-11.4093
廣政	-11.41
七言律詩款識云	-11.4106
朔日	-11.4106
尺素	-11.4111
䟐	-11.4122
修禊	-11.4126
趺	-11.4128
貍	-11.4129
職貢	-11.413
弇	-11.4131
苓	-11.4132
燾	-11.4133
皂	-11.4133
醖	-11.4135
膾	-11.4135
寤	-11.4136
徐僧權	-11.4136
吻	-11.4136
嬴	-11.4136
髭	-11.4136
扎	-11.4137
囚	-11.4137
妮古	-11.4137
叛	-11.4138
漚	-11.4139
列朝人	-11.4139
蚩	-11.4139
䆳	-11.4141
真草千文	-11.4141
碌碌	-11.4142
丿	-11.4142
璿	-11.4142
狩	-11.4143
耗	-11.4143
朏	-11.4144
祜	-11.4144
浚儀	-11.4144
鷗鷺	-11.4144
姝	-11.4144
裴行儉	-11.4144
瓉	-11.4145
孫士毅	-11.4146
郭畀	-11.4147
州司馬	-11.4148
肥痩	-11.4148
璆	-11.4149
鐵鑑	-11.415
清閟閣	-11.4153
率更令	-11.4156
維摩詰	-11.4157
出藍	-11.4157
工畫佛道	-11.4159
彈琴	-11.4161
侍御史	-11.4163
海粟	-11.4165
知書者	-11.4173
巨濟	-11.4173
封禪	-11.4178
此巻	-11.418
圖外録	-11.4183
宋思陵	-11.4188
卜居	-11.4189
畫之屬	-11.419
氣運	-11.4197
渡海	-11.4197
浩浩	-11.4203
幸蜀	-11.4209
森然	-11.4213
圖書記	-11.4213
精謹	-11.4215
形質	-11.4218
錦衣	-11.422
觀潮	-11.4221
紫微	-11.423
曲盡其	-11.4232
文靖公	-11.4238
門户	-11.424
駿馬	-11.4243
全倣	-11.4244
隋朝官本	-11.4246
逸趣	-11.4246
玉局	-11.4247
未審	-11.4253
二十餘年	-11.4254
九尺	-11.4262
官至侍中	-11.4263
泛舟	-11.4266
年月日	-11.4268
陳淳	-11.4273
年五十	-11.4273
唐虞世南	-11.429
留守	-11.4291
巍	-11.4297
左丞	-11.4298
顫	-11.4298
出師頌	-11.4299
擘窠	-11.4301
鳶	-11.4303
鏞	-11.4303
殖	-11.4304
史道碩	-11.4304
叠嶂	-11.4306
拄	-11.4306
嚴分宜	-11.4307
墀	-11.4308
猥	-11.4308
揺	-11.4308
糟	-11.4309
姚綬	-11.4309
具載	-11.4309
繚	-11.4309
屋壁	-11.4309
着色	-11.431
虞龢	-11.431
蓴	-11.431
翺翔	-11.431
柿	-11.431
闐	-11.4311
徐崇嗣	-11.4311
埜	-11.4311
鑱	-11.4311
愛荆	-11.4311
瀛洲	-11.4312
朱子文集	-11.4312
郡開國	-11.4312
諸印押縫有	-11.4312
莎	-11.4313
李徳裕	-11.4313
孜	-11.4313
緡	-11.4314
能屬文	-11.4314
月恭校上	-11.4314
驍	-11.4314
筆蹤	-11.4315
陶隱居	-11.4317
葛洪	-11.4318
茘	-11.4318
懦	-11.4319
南湖	-11.4321
江貫道	-11.4322
紹熙	-11.4323
畫舫	-11.4323
江鄉	-11.4327
煙霞	-11.4328
散失	-11.433
馬蹄	-11.433
金石畧	-11.4337
記語云	-11.4342
羲皇	-11.4343
照映	-11.4344
二十六日	-11.4344
如來像	-11.4348
以示予	-11.4358
勁利	-11.4359
千嵗	-11.436
諡曰文	-11.4363
福建	-11.4364
求售	-11.4382
度越	-11.4385
以相示	-11.4388
石田先生	-11.4395
一印左方下有	-11.4398
墓志	-11.4399
句容	-11.4411
閏月	-11.4417
淮陽	-11.4419
文不録	-11.4421
動止	-11.4429
兖	-11.4441
寒菊	-11.4455
天祐	-11.4455
襃	-11.447
縟	-11.447
赦	-11.4471
工草隸	-11.4471
唐王維	-11.4475
籃	-11.4475
素綾本	-11.4477
滚	-11.4478
虞伯生	-11.4479
張九齡	-11.4479
粥	-11.4479
暄	-11.448
韭	-11.448
檣	-11.448
鄭法士	-11.4481
月初吉	-11.4482
杜工部	-11.4482
霹	-11.4482
菰	-11.4483
正書無書撰人姓名	-11.4483
斁	-11.4483
嫂	-11.4483
皁	-11.4483
哦	-11.4483
錠	-11.4484
王庭筠	-11.4484
聾	-11.4484
褊	-11.4484
淩	-11.4485
將仕郎	-11.4486
讎	-11.4486
叅軍	-11.4486
騖	-11.4486
唐朝名畫録	-11.4486
僑	-11.4487
齊髙帝	-11.4488
芻	-11.4488
迢	-11.4489
耄	-11.4489
擣	-11.4489
漁陽	-11.449
蘇東坡	-11.449
鋒芒	-11.4491
姑射	-11.4491
皇帝諱	-11.4491
垕	-11.4492
佺	-11.4492
庶㡬	-11.4492
秉燭	-11.4492
番族	-11.4493
泖	-11.4493
寳愛	-11.4494
廷珪	-11.4496
計三十	-11.4497
蕭森	-11.4497
記語一	-11.45
殆盡	-11.4501
遒麗	-11.4504
禪師塔銘	-11.4505
煥發	-11.4508
蟲篆	-11.451
招隠	-11.4511
止存	-11.4514
陶潛	-11.4515
凛然	-11.4516
月廿七日	-11.452
倒影	-11.4521
趙呉興	-11.4525
宗炳	-11.4526
天下後世	-11.4529
忘機	-11.4531
自娯	-11.4536
小幀	-11.4537
二十四日	-11.4538
隂隂	-11.4553
勁節	-11.4564
題咏	-11.4565
金銀	-11.4567
氣格	-11.4567
一印下有	-11.4569
陸離	-11.4571
林麓	-11.4575
孔廟	-11.4575
專門	-11.4583
雙鶴	-11.4591
六十五	-11.4601
神鬼	-11.4608
王褒	-11.4621
天下碑録	-11.4632
珥	-11.4646
閎	-11.4648
驤	-11.4648
汨	-11.4649
仿彿	-11.465
仇英實父	-11.465
未署欵	-11.4651
蠒	-11.4651
懃	-11.4652
凈	-11.4652
廏	-11.4653
四體千文	-11.4653
渥洼	-11.4654
沁	-11.4655
袤	-11.4656
冐	-11.4657
朝奉郎	-11.4657
畀	-11.4657
篔簹	-11.4657
蹊	-11.4657
娃	-11.4658
檇李項氏	-11.4658
鑪	-11.4658
凹	-11.4658
疵	-11.4659
騏驥	-11.4659
侮	-11.4659
滕昌祐	-11.4659
厠	-11.4659
李陽氷	-11.4659
陳邦彦	-11.466
𧦬光	-11.466
旄	-11.4661
超軼	-11.4661
詐	-11.4661
顗	-11.4661
芷	-11.4662
博雅好古	-11.4662
滄溟	-11.4662
𤼵	-11.4662
嘔	-11.4663
汶	-11.4664
蒐	-11.4664
泌	-11.4665
虎豹	-11.4665
盤桓	-11.4665
蘇才翁	-11.4666
墩	-11.4668
數十百	-11.467
秦始皇	-11.4676
十倍	-11.4681
騎馬	-11.4689
並驅	-11.4695
烟霧	-11.4696
綱常	-11.4697
烏程	-11.4697
進呈	-11.4701
應制	-11.4703
月廿一日	-11.4707
孟蜀	-11.471
冰雪	-11.4711
滕王	-11.4715
翠羽	-11.4717
氷雪	-11.4723
漁父圖	-11.4726
華嶽	-11.4728
無忝	-11.4731
吾衍	-11.4739
徑一尺	-11.4747
昇平	-11.4747
蕭照	-11.4758
景泰	-11.4768
長二尺	-11.4775
工八分	-11.478
贋本	-11.4799
解縉	-11.4802
批答	-11.4807
髙七寸八分	-11.4814
今御府所藏二	-11.4823
宋犖審定	-11.4824
博古圗	-11.4825
後副頁	-11.4826
一百一十	-11.4826
素牋本著色畫	-11.4827
堊	-11.4828
昬	-11.4829
撞	-11.483
乀	-11.483
人工畫山水	-11.483
缶	-11.483
遺教經	-11.483
漢𨽻字原	-11.483
朢	-11.4832
青緑山水	-11.4832
勾龍爽	-11.4833
蓀	-11.4834
孫知微	-11.4834
糜	-11.4834
蔭	-11.4834
塚	-11.4834
瀋	-11.4834
术	-11.4835
覈	-11.4835
勵宗萬	-11.4835
洪谷子	-11.4836
嵯峨	-11.4836
燬	-11.4837
駙馬	-11.4837
芹	-11.4837
璉	-11.4838
欽定四庫全書子部八	-11.4838
忿	-11.4839
餌	-11.484
建中靖國	-11.4841
窄	-11.4841
醴泉	-11.4842
洙	-11.4842
沔	-11.4842
㐮	-11.4844
錢惟善	-11.4847
軒冕	-11.4849
討論	-11.4851
淨土	-11.4851
浙西	-11.4854
威儀	-11.4859
青蓮	-11.4864
禪寺	-11.4872
宗即位	-11.4876
希夷	-11.488
維摩像	-11.4886
俊逸	-11.4887
豪放	-11.4891
座右	-11.4893
體製	-11.4898
慕容	-11.4899
早嵗	-11.4913
谷口	-11.4918
九寸九分	-11.4919
哲宗	-11.4927
編次	-11.4931
大槩	-11.4931
秘藏	-11.4934
一印前有	-11.4948
稱㫖	-11.4995
虺	-11.4996
箋烏絲闌本	-11.5003
盡其妙	-11.5004
第五十	-11.5006
尅	-11.5006
蜼	-11.5006
引雛	-11.501
属	-11.501
纍纍	-11.5011
嗔	-11.5012
荼	-11.5012
偓	-11.5012
燄	-11.5012
卜築	-11.5014
𡨕	-11.5014
外錄珊瑚網云	-11.5015
跌宕	-11.5015
嚢	-11.5015
稜角	-11.5015
轄	-11.5016
甫田集	-11.5017
攫	-11.5017
楊維禎	-11.5017
賺	-11.5017
汩	-11.5017
仄	-11.5017
潰	-11.5017
袁昻	-11.5018
准	-11.5018
无咎	-11.5018
衾	-11.5018
啜	-11.5018
鏗	-11.5018
僵	-11.5018
箧	-11.5018
意在筆先	-11.5019
逖	-11.5019
有感於斯文	-11.5019
閴	-11.5019
稅	-11.5019
邜	-11.502
琨	-11.502
蕭子良	-11.502
紡	-11.502
佻	-11.5021
懈	-11.5021
謗	-11.5021
猗歟	-11.5021
贏	-11.5022
廌	-11.5022
秣陵	-11.5022
鬱鬱	-11.5023
棨	-11.5023
塗抹	-11.5023
素絹本著色畫欵云	-11.5024
翰林學士承㫖	-11.5024
漁樂圖	-11.5026
呉仲圭	-11.5027
蔡有鄰	-11.5027
辟邪	-11.5029
陸叔平	-11.503
白麻紙	-11.503
少林寺	-11.5033
廞	-11.5033
王知敬	-11.5034
太樸	-11.5038
唐岱	-11.5041
縉雲	-11.5043
宣政	-11.5044
羽翼	-11.5047
惟寅	-11.5048
千頃	-11.505
世其家	-11.5052
智果	-11.5053
髙房山	-11.5053
箋高	-11.5055
邇來	-11.5056
杜牧	-11.506
饒州	-11.5065
五十九	-11.5083
屈原	-11.5084
檢法	-11.5088
楊慎	-11.5089
永康	-11.5093
順帝	-11.5093
宋劉松年	-11.5099
獨釣	-11.5102
光堯	-11.5102
孤舟	-11.5111
朱文公	-11.5123
湛然	-11.5128
重修宣和博古圖卷	-11.5158
左角	-11.5163
腹圍一尺六寸	-11.5165
一百五十	-11.5167
鸞鳳	-11.5169
登第	-11.517
月十五日敬書一洋箋本墨書欵識云康	-11.5188
蟠螭	-11.519
央	-11.5192
薜	-11.5193
烜赫	-11.5193
斡	-11.5193
鑰	-11.5195
沓	-11.5197
畸	-11.5197
凸	-11.5198
孫克𢎞	-11.5199
瓦礫	-11.5199
呉道𤣥	-11.52
税	-11.5201
縠	-11.5201
薛尚功	-11.5201
厲歸真	-11.5201
周之冕	-11.5202
張南本	-11.5202
些	-11.5202
毗陵	-11.5203
唐書藝文志	-11.5203
忤	-11.5204
椎	-11.5204
衛覬	-11.5204
跪	-11.5204
詩意圖	-11.5204
丁雲鵬	-11.5205
圭角	-11.5205
藿	-11.5205
莒	-11.5206
㵼	-11.5206
攻媿集	-11.5207
拳拳	-11.5207
樞密院	-11.5207
磧	-11.5207
卓歇	-11.5207
水晶宫	-11.5207
淇澳	-11.5207
若水軒	-11.5208
諄	-11.5209
墨林快事	-11.5209
㾗	-11.521
頷	-11.521
盲	-11.521
塋	-11.5211
李衎	-11.5212
汗漫	-11.5212
劉珏	-11.5213
豪奪	-11.5215
中興頌	-11.5216
諧聲	-11.5219
傾倒	-11.5222
敬書前後經名下俱有貝葉文一	-11.5224
林椿	-11.5227
舊唐書本傳	-11.5228
幅髙一尺	-11.5228
贈太師	-11.523
品藻	-11.5234
酷似	-11.5235
模楷	-11.524
完菴	-11.5243
八分口徑	-11.5248
端倪	-11.5251
賞鑑	-11.5254
禊序	-11.5257
張懐瓘云	-11.5258
嗜好	-11.5259
元帥	-11.5261
孫權	-11.5263
伏想	-11.5265
長四尺	-11.527
丹誠	-11.5278
赤松	-11.528
謹封	-11.5283
釋智	-11.5283
俗姓	-11.5288
新婦	-11.5291
廣二丈	-11.5292
斝	-11.5312
史㑹要	-11.5319
蒼勁	-11.5319
高宗皇帝	-11.5338
豐城	-11.5352
州都督	-11.5368
擡	-11.5375
轂	-11.538
鎻	-11.5382
白陽山人	-11.5384
箔	-11.5385
濛濛	-11.5386
梭	-11.5389
粱	-11.5389
飭	-11.5389
陳仲醇	-11.5391
瀘	-11.5391
数	-11.5391
橈	-11.5391
詁	-11.5391
﨑	-11.5391
筆精墨妙	-11.5392
尚書右僕射	-11.5393
瀝	-11.5393
儁	-11.5395
崔寔	-11.5395
歘	-11.5396
梵隆	-11.5397
涸	-11.5397
阡	-11.5397
儒學提舉	-11.5398
綘	-11.5398
婉媚	-11.5399
藥師經	-11.5399
綽約	-11.54
孔彰	-11.5401
書小史	-11.5401
採芝	-11.5402
奎章	-11.5406
墨藪	-11.5408
龔開	-11.5413
錦繡	-11.5415
收蔵	-11.5416
浣花	-11.5422
宛陵	-11.5423
太湖石	-11.5423
虎踞	-11.5429
民瞻	-11.5429
牆壁	-11.5432
王荆公	-11.5434
意匠	-11.5438
乘興	-11.5441
烟嵐	-11.5445
放浪	-11.5446
旬日	-11.5452
滄江	-11.5455
番陽	-11.5471
蟬雀	-11.5486
十九首	-11.5487
以畫名	-11.5493
有存者	-11.5502
尺五寸	-11.5507
至正廿	-11.551
明陳淳	-11.5543
雀竹	-11.5549
容一斗	-11.556
楷書款識云	-11.5562
棣	-11.5565
容一升	-11.5568
擢第	-11.5575
薦季直表	-11.5576
窈	-11.5576
趂	-11.5576
筯	-11.5577
欽定四庫全書石渠寶笈卷	-11.5578
明王紱	-11.5578
滓	-11.5579
齪	-11.5579
揣	-11.558
殉	-11.558
弃	-11.5581
孫尚子	-11.5581
煒	-11.5581
後隔水押縫有	-11.5582
大中祥符	-11.5582
虵	-11.5583
鎬	-11.5583
幃	-11.5583
嘏	-11.5583
太平興國	-11.5583
蔡中郎	-11.5585
憒	-11.5585
綦	-11.5585
醴	-11.5585
頫	-11.5585
娜	-11.5585
飛瀑	-11.5585
曹不興	-11.5585
趙令穰	-11.5586
菁	-11.5586
筆端造化	-11.5586
勺	-11.5586
艤	-11.5587
盧楞伽	-11.5587
皎皎	-11.5587
圯	-11.5588
嫡	-11.5589
琅邪	-11.559
詹氏小辨	-11.559
謝時臣	-11.559
汗血	-11.559
蹴	-11.5591
張擇端	-11.5591
戴文進	-11.5594
藥苖	-11.5594
秘書監	-11.5596
龍興寺	-11.5597
遐想	-11.5598
淹留	-11.5598
纎毫	-11.5603
伯駒	-11.5604
道園學古録	-11.5606
教諭	-11.5606
睢陽	-11.5607
御史臺	-11.5608
簡文帝	-11.5612
植芳	-11.5614
晉明帝	-11.5617
睡起	-11.562
隱隱	-11.5621
婦女	-11.5624
魏鍾繇	-11.5625
把酒	-11.5628
至正二年	-11.5628
陳郡人	-11.563
徙居	-11.563
放牧	-11.563
度支	-11.5635
兖州	-11.5642
諡忠	-11.5646
瞻望	-11.5649
鍾陵	-11.5657
楓葉	-11.5658
漢武帝	-11.5658
七言律	-11.566
世系	-11.567
繭紙	-11.5671
楷隸	-11.5683
茂才	-11.5698
題籖	-11.5707
隐居	-11.5726
工草𨽻	-11.5733
鎰	-11.5763
晶	-11.5765
玄	-11.5772
淄	-11.5772
觔	-11.5774
舄	-11.5774
汝南公主	-11.5774
黄鸝	-11.5775
瀰	-11.5775
嗚	-11.5775
下有乾隆宸翰幾暇臨池二璽	-11.5776
茄菜	-11.5777
懽	-11.5777
爼	-11.5777
崔嵬	-11.5777
櫻	-11.5778
抉	-11.5778
睫	-11.5778
嚶	-11.5778
朝散大夫	-11.5779
觜	-11.578
渺渺	-11.5781
項又新	-11.5781
洪适	-11.5781
搗	-11.5781
屈伸	-11.5782
𢎞文館	-11.5782
磐	-11.5782
羇	-11.5782
將軍㑹稽内史	-11.5782
清明上河圖	-11.5783
廨	-11.5783
慵	-11.5784
鏐	-11.5784
紺	-11.5784
曦	-11.5785
紹興小璽	-11.5785
勗	-11.5786
米芾畫史	-11.5786
昺	-11.5787
憫	-11.5788
甲科	-11.5788
薤	-11.5788
何啻	-11.5789
夏㫤	-11.5791
天尊像	-11.5793
璩	-11.5793
㸃睛	-11.5793
餘姚人	-11.5794
黄居寀	-11.5794
濠梁	-11.5795
陜西	-11.5796
婺州	-11.5798
太沖	-11.5802
真賞齋	-11.5803
展閲	-11.5805
董展	-11.5806
銘六字	-11.581
吳縣人	-11.5812
東林寺	-11.5815
宋儋	-11.5815
芝英	-11.5815
重四斤	-11.582
杯酒	-11.582
縣尹	-11.5833
蒼潤	-11.5836
變而為	-11.5836
太康	-11.5846
刑部	-11.5847
師董源	-11.5906
冬十一月	-11.5915
宀	-11.5937
緻	-11.5937
論者謂	-11.5948
荃	-11.5956
䂖	-11.5963
斚	-11.5964
霓	-11.5969
折釵股	-11.5969
歆	-11.597
賜金帶	-11.5971
愆	-11.5971
賒	-11.5971
乾隆宸翰一璽	-11.5972
扄	-11.5973
撃	-11.5974
杼	-11.5975
駑	-11.5976
泮	-11.5976
逡	-11.5976
趙榮禄	-11.5976
麋鹿	-11.5977
虯	-11.598
肚	-11.598
徽宗皇帝	-11.598
楊循吉	-11.5981
蘸	-11.5981
凛凛	-11.5981
番馬	-11.5982
豚	-11.5982
靚	-11.5982
尺寸	-11.5982
董元宰	-11.5982
祉	-11.5983
兵燹	-11.5983
顧盼	-11.5983
療	-11.5983
羃	-11.5983
不自知	-11.5983
租	-11.5983
惰	-11.5983
抗衡	-11.5984
枯藤	-11.5984
茅茨	-11.5984
䄂	-11.5984
悍	-11.5985
秦少游	-11.5985
煨	-11.5985
漓	-11.5985
哂	-11.5985
涿	-11.5986
韓宗伯	-11.5987
王振鵬	-11.5987
鄧椿	-11.5988
霈	-11.599
懸腕	-11.599
枯木竹石	-11.599
旌旗	-11.5991
灌木	-11.5991
落魄	-11.5991
孝亷	-11.5992
腦	-11.5992
剥落	-11.5994
虎賁	-11.5995
京洛	-11.5997
白樂天	-11.5998
森嚴	-11.5999
之亞也	-11.5999
夙夜	-11.6
詒	-11.6
集賢學士	-11.6
撰正書無姓名	-11.6001
剛勁	-11.6004
瞻仰	-11.601
有生氣	-11.6011
重複	-11.6013
孫皓	-11.6014
梁太清	-11.6016
臘月	-11.6018
毎幅	-11.6021
牧放	-11.6027
能辨之	-11.603
仲瑛	-11.6032
揮翰	-11.6038
柱國	-11.6048
嚴陵	-11.6049
二十一日	-11.6055
磁青箋本泥金	-11.608
一印拖尾	-11.6082
裝背	-11.609
獐圖	-11.6097
仲姬	-11.613
孟冬	-11.6134
腹圍一尺八寸	-11.6137
鷯	-11.6156
前副頁	-11.6162
涎	-11.6167
蘇文忠	-11.617
藥苗	-11.617
閃	-11.6172
矯矯	-11.6173
酉室	-11.6174
宋箋本墨畫	-11.6176
帯	-11.6176
工部侍郎	-11.6177
噉	-11.6178
藐	-11.6179
鹿脯帖	-11.618
巍巍	-11.618
俚	-11.6181
鑠	-11.6182
㓂	-11.6183
邳	-11.6183
珙	-11.6183
徐鍇	-11.6184
騾	-11.6185
孩	-11.6185
卭	-11.6185
鄔	-11.6185
一印軸髙三尺	-11.6186
漣漪	-11.6186
垓	-11.6186
簞	-11.6186
承議郎	-11.6187
申屠	-11.6187
拊	-11.6188
臉	-11.6189
緱	-11.6189
工畫佛道人物	-11.6189
徐嶠之	-11.6189
庖丁	-11.619
歸田賦	-11.619
蓊	-11.6191
䧟	-11.6191
剛柔	-11.6191
舶	-11.6192
磅礴	-11.6192
翺	-11.6193
提刑	-11.6195
嫋	-11.6197
修國史	-11.6197
轉摺	-11.6197
廿九日	-11.6198
范瓊	-11.6199
陸師道	-11.62
倡和	-11.62
胡儼	-11.6203
周砥	-11.6204
眼底	-11.6211
竹帛	-11.6217
楞嚴經	-11.622
翰苑	-11.6221
結廬	-11.6224
溧陽	-11.623
二印押縫有	-11.6234
元倪瓉	-11.6238
少好學	-11.6241
漢章帝	-11.6244
髙八寸五分	-11.6264
伋	-11.6386
儗	-11.6387
畫羅漢圖一卷	-11.6387
夣	-11.6388
孫承澤	-11.6389
意在筆前	-11.6389
擷	-11.6389
蛾	-11.6389
孫䖍禮	-11.639
卅	-11.6391
曹知白	-11.6391
彷	-11.6392
昕	-11.6392
濫觴	-11.6392
撓	-11.6392
雙鉤	-11.6392
外錄書畫舫云	-11.6392
擢進士第	-11.6392
鶠	-11.6393
癯	-11.6393
亳	-11.6393
楊士竒	-11.6393
湄	-11.6393
颯颯	-11.6394
雷霆	-11.6394
蒼巖子	-11.6395
紛紜	-11.6395
孕	-11.6396
八駿圖	-11.6396
邢侗	-11.6396
名賢遺墨	-11.6396
焯	-11.6396
攄	-11.6396
啖	-11.6397
王紹宗	-11.6397
腆	-11.6397
喉	-11.6397
覃思	-11.6398
蓼岸	-11.6398
顧凱之	-11.64
閩畫記	-11.6401
蒼梧	-11.6401
諸葛亮	-11.6401
秘書省	-11.6401
汰	-11.6401
繙	-11.6403
淇園	-11.6404
莆陽	-11.6405
傅染	-11.6407
括蒼	-11.6408
辛夷	-11.6408
章惇	-11.6409
遥岑	-11.6409
唐棣	-11.6411
連綿	-11.6412
珍襲	-11.6416
徐霖	-11.6416
歡喜	-11.6418
几席	-11.6418
今見具姓名行	-11.642
宋仲温	-11.6421
真蹟無疑	-11.6421
雄健	-11.6422
九曜	-11.6423
孫太古	-11.6424
酒醒	-11.6427
貴妃	-11.6429
月二十八日	-11.6439
引首御題	-11.6459
墨林項元汴	-11.6475
進士官至	-11.6475
六分口徑	-11.6497
被召	-11.6549
有流有鋬	-11.6576
翬	-11.6578
翌	-11.6585
玊	-11.6586
薜荔	-11.6587
金銀錯	-11.6588
雲麾將軍	-11.6589
鎏	-11.659
喀	-11.6591
欽定四庫全書秘殿珠林卷	-11.6593
灞	-11.6593
撚	-11.6595
罰	-11.6596
二印軸髙	-11.6596
蹊逕	-11.6598
張志和	-11.6598
姜白石	-11.6598
媛	-11.6598
搦	-11.6599
溯	-11.6599
狸	-11.6599
抜	-11.6599
野鴨	-11.6601
饌	-11.6601
搔	-11.6601
不可勝數	-11.6602
鈐縫	-11.6602
瀼	-11.6603
鄜	-11.6603
裊裊	-11.6603
曛	-11.6603
陳文東	-11.6603
推篷	-11.6604
今見具姓名	-11.6604
項墨林鑒賞章	-11.6604
滂	-11.6604
寃	-11.6604
形骸	-11.6605
神品上上	-11.6605
袋	-11.6605
脅	-11.6606
范成大	-11.6606
攲	-11.6607
典型	-11.6607
畛	-11.6607
狥	-11.6607
瑚	-11.6607
子知之乎曰豈不謂	-11.6607
單條	-11.6607
薌	-11.6609
鵒	-11.6609
閻次平	-11.6609
模糊	-11.6609
殳	-11.661
盱	-11.661
雞犬	-11.661
悄	-11.661
鱸魚	-11.6612
武宗元	-11.6612
千載之下	-11.6613
嫓	-11.6613
素絹本著色畫款署	-11.6613
唐書宰相世系表	-11.6614
儕	-11.6615
謔	-11.6615
倐忽	-11.6616
丑按	-11.6616
塾	-11.6616
磨崖	-11.6618
喪亂	-11.6619
蟠桃	-11.6619
水晶	-11.6619
方絹本著色	-11.6621
嘆息	-11.6622
羅綺	-11.6623
楊妹子	-11.6626
深一寸	-11.6626
凝式	-11.663
退宻	-11.6632
黄鵠	-11.6632
庭珪	-11.6634
東坡居士	-11.6635
支離	-11.6636
雷電	-11.664
魏武帝	-11.6641
斤四兩	-11.6645
素絹本著色畫款識云	-11.6695
獲覩	-11.67
丹楓	-11.6767
王時敏	-11.6799
李含光	-11.68
磚	-11.6803
陬	-11.6807
帑	-11.681
初一日敬書一墨箋本泥金書欵識云康	-11.6811
蕕	-11.6811
崔子玉	-11.6814
歉	-11.6815
茒屋	-11.6816
瘁	-11.6816
癸夘	-11.6817
縈紆	-11.6818
嫵媚	-11.6819
一丈二尺	-11.682
炭	-11.6821
坂	-11.6822
溆	-11.6823
牝牡	-11.6823
蘅	-11.6823
書畫題跋記	-11.6823
氤氲	-11.6823
㕘軍	-11.6824
雙螭	-11.6824
王方慶	-11.6824
瘞	-11.6824
拂拭	-11.6824
朱异	-11.6825
駞	-11.6825
鋩	-11.6826
苧	-11.6826
中散大夫	-11.6827
柑	-11.6827
章友直	-11.6827
愕	-11.6827
閉户	-11.6828
陳善杭州	-11.6828
末幅款識云	-11.6829
砧	-11.6829
匕	-11.683
瞭	-11.683
江寧府志	-11.6831
釣磯	-11.6832
釣竿	-11.6832
侍講學士	-11.6832
瑪瑙	-11.6832
俛仰	-11.6833
超邁	-11.6834
艾宣	-11.6836
傅彩	-11.6837
牧童	-11.6839
翌日	-11.684
一分口徑	-11.684
修篁	-11.6842
啼鳥	-11.6842
林和靖	-11.6842
供養	-11.6846
顯晦	-11.685
山谷老人	-11.6852
只尺	-11.6853
女孝經	-11.6854
蒙恩	-11.6858
舟楫	-11.6915
拘拘	-11.6924
冬十二月	-11.6974
款識云嘉靖	-11.6984
牧馬圖	-11.7013
歐陽文忠	-11.7025
耦	-11.7029
喬簣成	-11.703
悒	-11.7033
牝	-11.7034
按此條已	-11.7034
金粟箋本	-11.7035
洩	-11.7035
群	-11.7037
握管	-11.7037
晰	-11.7038
濩	-11.7038
叫	-11.7039
嫣	-11.704
茄	-11.7041
蔡端明	-11.7041
櫛	-11.7041
褰	-11.7042
燎	-11.7042
謖	-11.7042
茆屋	-11.7043
誄	-11.7043
宓	-11.7043
頎	-11.7043
虚朗齋	-11.7044
嗇	-11.7044
曹娥	-11.7044
䘚	-11.7044
琯	-11.7044
雲烟過眼録	-11.7045
户牖	-11.7046
散落人間	-11.7046
不忍釋手	-11.7047
斟	-11.7047
賸	-11.7047
瞥	-11.7047
逶迤	-11.7048
藺	-11.7048
蠲	-11.7048
貟外郎	-11.7048
班班	-11.7049
房𤣥齡	-11.705
騶	-11.705
鷯子圖	-11.705
郭恕先	-11.705
宣和御府	-11.7051
槳	-11.7051
蕉林居士	-11.7051
淋	-11.7052
撩	-11.7052
倭	-11.7052
㫤	-11.7053
撐	-11.7054
榘	-11.7055
陶九成	-11.7055
尚書右丞	-11.7055
煙嵐	-11.7057
十一曜	-11.7058
湖灘	-11.7061
杜少陵	-11.7061
呉興趙孟頫	-11.7063
楊契丹	-11.7065
鉛華	-11.7068
熈寧	-11.7072
沈粲	-11.7079
素絹本著色畫宋人	-11.7086
授中書舍人	-11.7109
印軸髙四尺	-11.7123
米芾書史	-11.7129
國公諡	-11.7177
後赤壁賦	-11.7237
范文正	-11.724
鐃	-11.7242
書畵舫云	-11.7259
惘	-11.726
己夘	-11.7261
柘條	-11.7263
丹丘柯九思	-11.7264
𦕈	-11.7264
潢	-11.7265
个	-11.7266
枋	-11.7266
藳	-11.7267
天馬賦	-11.7267
宋宣獻	-11.7268
文天祥	-11.7269
甜	-11.7269
倜	-11.7269
竚	-11.7269
耻	-11.7269
醴泉銘	-11.7269
蒼巗子	-11.727
國子博士	-11.727
杖藜	-11.727
東里續集	-11.727
胸臆	-11.727
素箋本墨畫款題云	-11.7271
糞	-11.7271
陳白陽	-11.7271
秧	-11.7271
睇	-11.7271
趙明誠	-11.7271
李懐琳	-11.7271
黏	-11.7271
縳	-11.7272
瞑	-11.7272
米海嶽	-11.7272
門下侍郎	-11.7273
雝	-11.7273
太子少保	-11.7273
溉	-11.7274
緝熙	-11.7274
隲	-11.7274
卓犖	-11.7274
彴	-11.7275
塡	-11.7275
㽔	-11.7276
淅	-11.7276
月二十七日	-11.7277
太清樓	-11.7277
楚山清曉圖	-11.7277
轟	-11.7277
莫雲卿	-11.7278
鑛	-11.7278
仙君像	-11.7278
訶	-11.7279
薩	-11.7279
巋然	-11.7279
劃	-11.728
大癡道人	-11.728
眀董其昌	-11.728
者甚衆	-11.728
儆	-11.728
木瓜	-11.7281
幕府	-11.7281
素絹本著色畫欵識云	-11.7282
書簡帖	-11.7282
扶桑	-11.7282
髫	-11.7284
今見具姓名草書	-11.7285
祠堂記	-11.7286
穆天子	-11.7288
紫薇	-11.7291
鳯翔	-11.7292
漱	-11.7295
趺坐	-11.7296
馬文璧	-11.7298
季迪	-11.7316
斤無銘	-11.7323
至正九年	-11.7334
汾陽	-11.7334
凡四十	-11.736
斤有半	-11.7377
三分腹圍一尺	-11.7442
董文敏	-11.7448
腹圍一尺七寸	-11.7449
四分腹圍一尺	-11.7463
馗	-11.7489
簧	-11.749
豳	-11.7491
屋漏痕	-11.7494
惟精惟一	-11.7495
頋	-11.7495
譎	-11.7497
暕	-11.7498
竢	-11.7498
疴	-11.7499
瀟湘八景	-11.7499
牧羊圖	-11.75
冽	-11.75
蘇漢臣	-11.75
月二十五日	-11.7501
工畫花鳥	-11.7501
踴	-11.7502
䋲	-11.7502
巫峽	-11.7502
泫	-11.7503
歐陽永叔	-11.7503
輪扁	-11.7503
僦	-11.7503
列朝人書畫	-11.7503
蒋	-11.7504
韋仲將	-11.7504
褁	-11.7504
殿中侍御史	-11.7505
颷	-11.7505
文夀承	-11.7506
貯御書房	-11.7506
舜欽	-11.7506
畫禪室	-11.7506
趁	-11.7507
髙克恭	-11.7507
陶靖節	-11.7507
廐	-11.7507
曹弗興	-11.7507
朱存理	-11.7507
太平公主	-11.7508
剏	-11.7508
𤨏	-11.7508
過海羅漢	-11.7509
曼倩	-11.7509
梗槩	-11.7509
劈	-11.751
徐幼文	-11.751
太常博士	-11.751
鱠	-11.751
慄	-11.751
濳	-11.751
軻	-11.7511
孟浩然	-11.7511
衞瓘	-11.7511
尚書僕射	-11.7511
千巖萬壑	-11.7512
盤車圖	-11.7512
董伯仁	-11.7512
倣傚	-11.7513
屏障	-11.7514
汾隂	-11.7514
沽酒	-11.7514
黄子乆	-11.7515
厎	-11.7515
燮	-11.7516
喬柯	-11.7516
㳟	-11.7516
蔬果	-11.7517
轉運使	-11.7519
悵望	-11.752
右高一尺	-11.7522
今見正書	-11.7529
季廸	-11.7539
龍圖閣	-11.7539
煙靄	-11.7553
分重七十	-11.756
釋迦佛	-11.7575
鬯	-11.7717
璪	-11.7717
右通盖髙	-11.7721
荀朂	-11.773
昩	-11.7732
芟	-11.7732
牛戩	-11.7734
丘文播	-11.7735
辛夘	-11.7735
吮	-11.7736
拄杖	-11.7736
牡	-11.7736
燉煌	-11.7736
櫟	-11.7736
幘	-11.7737
悤	-11.7737
金錯刀	-11.7737
右通蓋高六寸	-11.7737
普門品	-11.7738
張鳯翼	-11.7738
町	-11.7738
繢	-11.7738
周興嗣	-11.7738
雲煙過眼録	-11.7738
涪	-11.7739
劉徳昇	-11.774
姚公綬	-11.774
頹	-11.774
錢良右	-11.7741
匝	-11.7741
宫保世家	-11.7741
鵲華秋色	-11.7741
孽	-11.7741
孳	-11.7741
韓晉公	-11.7741
埒	-11.7742
縞	-11.7742
脯	-11.7742
桷	-11.7742
焜	-11.7742
秘笈	-11.7742
庶吉士	-11.7743
王文恪	-11.7743
臨川危素	-11.7743
袁安卧雪	-11.7743
劉中使帖	-11.7743
秪	-11.7744
苾	-11.7744
隰	-11.7744
獰	-11.7744
利害	-11.7745
矦	-11.7745
豬	-11.7745
瑞應圖	-11.7745
釁	-11.7746
娑羅	-11.7746
諲	-11.7746
前有佛像後有韋䭾像	-11.7747
蛾眉	-11.7747
黄文節公	-11.7747
毫芒	-11.7747
王汝玉	-11.7747
倒薤	-11.7748
長江萬里圖	-11.7748
李晞古	-11.775
螢	-11.775
煮茶	-11.775
玫	-11.775
樓鑰	-11.7751
㛐	-11.7751
崢嶸	-11.7751
槲	-11.7751
至正乙巳	-11.7752
汧	-11.7752
怏	-11.7752
下有乾隆宸翰一璽	-11.7753
等圖傳扵丗	-11.7754
祗候	-11.7754
謳	-11.7756
太子太師	-11.7756
顧長康	-11.7758
騎驢	-11.7759
葑	-11.776
婺源	-11.776
酈	-11.776
境界	-11.776
清徳頌	-11.7761
坡陀	-11.7761
授翰林待詔	-11.7761
乳牛圖	-11.7764
造像記	-11.7772
錦鷄圖	-11.7774
合為一	-11.7898
子京珍秘	-11.7941
五分口徑	-11.7964
純緣	-11.7969
瘡	-11.7971
喫	-11.7972
郜	-11.7974
豊	-11.7977
恍惚	-11.7978
御筆題籖籖上有乾隆宸翰小璽	-11.798
箋烏絲䦨本	-11.7981
駘	-11.7981
麽	-11.7982
扺	-11.7982
沉著痛快	-11.7982
巙	-11.7983
陸行直	-11.7983
締	-11.7983
霰	-11.7983
虐	-11.7983
揩	-11.7984
憇	-11.7985
殻	-11.7985
馮子振	-11.7985
脆	-11.7986
米敷文	-11.7986
鹵簿	-11.7986
迤	-11.7987
澥	-11.7987
西昇經	-11.7988
劵	-11.7988
鯤	-11.7988
徇	-11.7988
庫庫	-11.7989
覊	-11.7989
讜	-11.7989
臨淄	-11.7989
支仲元	-11.7989
僃	-11.7989
拯	-11.7989
皇太后	-11.799
祺	-11.799
曹雲西	-11.7991
顧阿瑛	-11.7991
繄	-11.7991
猗猗	-11.7991
九成宫	-11.7991
謐	-11.7991
拉	-11.7991
噱	-11.7992
鼒	-11.7993
莢	-11.7993
孔子廟堂碑	-11.7993
驩	-11.7994
釋智果	-11.7994
蕺	-11.7995
恬致堂集	-11.7995
六研齋	-11.7996
米氏父子	-11.7996
䰅	-11.7997
丹砂	-11.7997
畜獸	-11.7998
鷙鳥	-11.7998
團扇絹本著色	-11.7999
憲副	-11.8001
吳傅朋	-11.8001
贉	-11.8002
番騎	-11.8006
皇明書畫史	-11.8015
忠宣公	-11.8145
諸印拖尾	-11.8153
跑	-11.8225
漣	-11.8225
厦	-11.8228
澌	-11.8228
弈	-11.8229
賂	-11.823
孫叔敖	-11.823
祼	-11.823
月二十二日	-11.823
陡	-11.8231
狡獪	-11.8233
靴	-11.8233
姸	-11.8233
簸	-11.8234
赫赫	-11.8234
褒貶	-11.8234
劾	-11.8234
坼	-11.8235
毓	-11.8235
磊	-11.8235
丗	-11.8235
胃	-11.8236
烝	-11.8236
堕	-11.8236
䛒光	-11.8237
簣	-11.8237
嘻	-11.8237
劎	-11.8237
睠	-11.8237
蔡明逺	-11.8238
郭河陽	-11.8238
瘞鶴	-11.8239
政和宣和	-11.8239
懐麓堂	-11.8239
裨	-11.824
宋學士集	-11.824
陳郡陽夏人	-11.8241
篝燈	-11.8241
蜃	-11.8241
國子司業	-11.8242
膊	-11.8242
慾	-11.8242
㝡	-11.8242
涓	-11.8242
毫釐	-11.8243
煎茶	-11.8243
畎	-11.8243
簏	-11.8243
睥睨	-11.8244
張孝師	-11.8244
陸費墀欽定四庫全書	-11.8244
䆒	-11.8244
續書譜	-11.8245
賜緋魚袋	-11.8246
金紫光禄大夫	-11.8247
賜紫金魚袋	-11.8247
耜	-11.8248
劉穆之	-11.8248
脾	-11.825
搭	-11.825
部左侍郎	-11.8252
嶤	-11.8252
唐六如	-11.8256
台座	-11.8285
容五升	-11.8472
玷	-11.8475
五代楊凝式	-11.8481
叨	-11.8483
摠	-11.8483
庭堅再拜	-11.8484
菽	-11.8485
換鵞	-11.8486
魑魅	-11.8487
卵	-11.8489
閻立徳	-11.8489
太原王穉登	-11.8489
李林甫	-11.8489
怖	-11.8489
榔	-11.849
鋸	-11.849
㷀	-11.849
惹	-11.8491
州别駕	-11.8491
邱壑	-11.8491
袵	-11.8492
覯	-11.8492
羯	-11.8492
陸探㣲	-11.8492
瑄	-11.8493
誅蚊賦	-11.8493
犍	-11.8493
魴	-11.8494
觥	-11.8494
凑	-11.8494
齊郡張紳	-11.8495
聆	-11.8495
礴	-11.8495
眎	-11.8495
栁宗元	-11.8496
御臨米芾	-11.8496
麴	-11.8496
孫知㣲	-11.8497
皺	-11.8497
鴻鵠	-11.8498
滁	-11.8498
禺	-11.8498
金章宗	-11.8499
無少異	-11.8499
赫奕恭畫	-11.8499
飫	-11.85
紙墨如新	-11.8501
囷	-11.8501
媸	-11.8502
琬琰	-11.8503
汲汲	-11.8503
沌	-11.8503
寶真齋法書贊卷	-11.8504
水竹居	-11.8504
層層	-11.8505
郗超	-11.8505
滕王閣	-11.8505
秋霽圖	-11.8507
太子太保	-11.8508
鷴	-11.851
勸農	-11.851
二印左方下有	-11.8545
瘦硬	-11.8586
尺六寸	-11.8626
髙八寸三分廣	-11.8669
獸環壺	-11.8681
押縫	-11.8688
山行旅	-11.8728
甑	-11.8737
十五頁	-11.8737
腳	-11.8739
禁經云	-11.8742
峩峩	-11.8745
覇	-11.8745
懵	-11.8746
萎	-11.8747
櫓	-11.8747
棠村審定	-11.8748
御臨蘇軾	-11.8749
烏絲闌	-11.8749
册計二十	-11.875
永字八法	-11.875
今御府所藏三	-11.8751
石渠寶笈卷	-11.8752
季直表	-11.8752
裟	-11.8752
式古堂書畫	-11.8752
繪事備考	-11.8753
膜	-11.8753
懊	-11.8753
鹵	-11.8754
騰驤	-11.8754
嶰	-11.8754
羔	-11.8754
謇	-11.8754
盧稜伽	-11.8754
忭	-11.8754
謩	-11.8755
呵呵	-11.8755
做	-11.8755
冥冥	-11.8755
希世之寶	-11.8755
宣德牋本	-11.8756
揮洒	-11.8756
蜕	-11.8756
价	-11.8756
婿	-11.8757
鴝鵒	-11.8757
唐書夲傳	-11.8757
蛛	-11.8757
扛	-11.8757
魅	-11.8758
碾	-11.8758
灔	-11.8758
照夜白	-11.8758
㕓	-11.8758
黝	-11.8759
諺	-11.8759
肻	-11.876
頊	-11.876
耕織圖	-11.876
檝	-11.8761
綻	-11.8762
薑	-11.8762
擦	-11.8763
鮫	-11.8763
讒	-11.8763
楠	-11.8763
蹶	-11.8764
潺潺	-11.8764
温日觀	-11.8765
祝枝山	-11.8766
窑	-11.8767
杳靄	-11.8767
曳杖	-11.8769
集賢大學士	-11.8769
聰敏	-11.877
八世孫	-11.8775
囗	-11.8776
御臨趙孟頫	-11.8794
别是一	-11.8852
楞嚴	-11.8967
嶧	-11.9
喈	-11.9001
鍔	-11.9008
怛	-11.9009
十五日敬書一墨箋本泥金書欵識云康	-11.9015
娑	-11.9016
珩	-11.9017
栝	-11.9017
孱	-11.9018
䘏	-11.9019
莫是龍	-11.9019
褙	-11.9019
貟	-11.902
莫廷韓	-11.902
滃	-11.902
瑱	-11.9021
幞	-11.9021
六如居士	-11.9021
脣	-11.9021
搢紳	-11.9023
楸	-11.9023
夢奠帖	-11.9023
卷中幅押縫有	-11.9023
素絹本著色畫欵署	-11.9023
冏	-11.9024
二百五十	-11.9024
闥	-11.9024
希世之寳	-11.9025
涓涓	-11.9025
箑	-11.9025
王穀祥	-11.9025
鵬翀	-11.9025
竽	-11.9025
踢	-11.9026
斃	-11.9026
孀	-11.9027
貸	-11.9027
徨	-11.9027
蛙	-11.9027
環珮	-11.9027
塜	-11.9027
纍	-11.9027
少府監	-11.9027
刑部侍郎	-11.9027
隳	-11.9028
柯敬仲	-11.9029
跛	-11.9029
麋	-11.9029
幙	-11.9029
錮	-11.9029
寖	-11.9029
磁	-11.903
姚廣孝	-11.903
祛	-11.903
紊	-11.903
扳	-11.903
枰	-11.903
嚴氏書畫記	-11.903
紘	-11.9031
斆	-11.9031
蕉林秘玩	-11.9031
瑯琊臨沂人	-11.9031
脗	-11.9031
裝褫	-11.9032
糓	-11.9032
鶴山集	-11.9032
米黻	-11.9032
虞邵菴	-11.9032
竟陵王	-11.9033
鄔彤	-11.9033
廂	-11.9034
蠢	-11.9034
薛少保	-11.9034
頺	-11.9034
地獄變相	-11.9035
曖	-11.9035
鵑	-11.9036
鄉貢進士	-11.9037
深四寸一分口	-11.9038
宷	-11.9038
朱徳潤	-11.9039
蕭翼賺蘭亭圖	-11.904
沜	-11.904
張受益	-11.9041
唐釋懐素	-11.9041
址	-11.9041
徼	-11.9042
罟	-11.9046
賽	-11.9048
七言絶句一首	-11.9048
吾子行	-11.9056
批荅	-11.9057
遊魚圖	-11.907
醉僧圖	-11.9075
韋䭾像	-11.9079
鳩子圖	-11.9094
重六斤	-11.9205
重五斤	-11.9247
鳧	-11.9282
鋬	-11.9286
犖	-11.9289
㒺	-11.929
雎	-11.929
滔滔	-11.9291
両	-11.9293
廩	-11.9293
腑	-11.9295
戩	-11.9296
㩦	-11.9296
𠂻	-11.9296
不能釋手	-11.9296
法帖刊誤	-11.9298
張孝思	-11.9298
咀	-11.9298
朱之赤	-11.9299
纚	-11.9299
嘘	-11.93
􁎻	-11.93
兩兩耳三足	-11.9301
譴	-11.9301
隧	-11.9301
户部尚書	-11.9301
哽	-11.9302
長洲文徴明	-11.9303
沈存中	-11.9303
賾	-11.9303
痴	-11.9303
緼	-11.9303
砥柱	-11.9304
傖	-11.9304
嶙峋	-11.9304
鼉	-11.9305
琅琊	-11.9305
筝	-11.9305
痼	-11.9305
禆	-11.9306
諛	-11.9306
雙鷺圖	-11.9306
蝌	-11.9306
明張丑撰	-11.9306
州觀察使	-11.9306
彧	-11.9307
班惟志	-11.9307
凝霞閣	-11.9307
舉於鄉	-11.9307
販	-11.9307
仭	-11.9307
訾	-11.9308
人那得知	-11.9308
舸	-11.9309
燿	-11.9309
徜徉	-11.9309
摛	-11.9309
包山陸治	-11.931
糠	-11.931
阿房宫	-11.931
郯	-11.931
雪江歸棹	-11.9311
蚌	-11.9311
亶	-11.9311
大長公主	-11.9313
倖	-11.9314
崔慤	-11.9314
郛	-11.9317
醉道士圖	-11.932
陸包山	-11.932
睢陽五老	-11.9321
吞吐	-11.9322
馬逺夏珪	-11.9325
六分腹圍一尺	-11.9364
幅高一尺	-11.9375
口徑長三寸	-11.949
髙七寸五分廣	-11.9523
見稱於	-11.9541
兩三足無銘	-11.9548
容四升	-11.9557
廣三丈	-11.9566
鎛	-11.9574
書畫合璧	-11.9575
孫過庭書譜	-11.9576
寀	-11.9576
稼穡	-11.9577
茘支	-11.9578
法帖譜系	-11.9579
溶溶	-11.9579
墨箋本泥金書欵識云康	-11.958
弭	-11.9581
挑剔	-11.9581
燁	-11.9582
黍稷	-11.9582
殞	-11.9582
爍	-11.9583
閘	-11.9583
太師箴	-11.9583
鎔	-11.9584
江山萬里圖	-11.9584
李時雍	-11.9585
史明古	-11.9585
霾	-11.9585
翟院深	-11.9585
篋笥	-11.9585
耑	-11.9586
世祖章皇帝御筆	-11.9586
陳用志	-11.9586
閻立夲	-11.9587
䑛	-11.9587
軋	-11.9587
蚪	-11.9588
沅	-11.9589
户部侍郎	-11.9589
玦	-11.9589
瀹	-11.9589
慳	-11.959
如印印泥	-11.959
剽	-11.9591
懴	-11.9591
禕	-11.9592
河北棠村	-11.9592
許道寜	-11.9592
瞽	-11.9592
蜨	-11.9592
寝	-11.9593
嶁	-11.9593
校勘	-11.9594
聦	-11.9594
庾肩吾書品	-11.9595
光祿大夫	-11.9595
尚書左丞	-11.9595
弧	-11.9595
秀野軒	-11.9595
韓侂胄	-11.9595
侗	-11.9596
乙夘	-11.9596
枻	-11.9596
桀	-11.9598
澶	-11.9599
汪由敦	-11.9599
丱	-11.9599
猨	-11.9601
褚登善	-11.9601
抃	-11.9602
歸去来辭	-11.9602
栩	-11.9603
邊景昭	-11.9605
水月觀音	-11.9605
無書撰人名氏	-11.9607
戱貓圖	-11.9611
圖并賦	-11.9616
恙	-11.9845
蛟螭	-11.9858
倓	-11.9866
蒯	-11.9868
本磁青箋泥金書西域字無量夀智經	-11.9869
鋼	-11.987
道德經	-11.9871
猪	-11.9875
刑部主事	-11.9875
尢	-11.9875
盻	-11.9875
茵	-11.9875
刀劍録	-11.9876
倜儻	-11.9877
等圖傳於世	-11.9877
圓覺經	-11.9877
楯	-11.9877
𣺌𣺌	-11.9877
尹繼昭	-11.9878
灾	-11.9879
歐虞褚薛	-11.9879
國史院編修官	-11.9879
竣	-11.988
悖	-11.988
養生論	-11.988
飱	-11.9881
拽	-11.9881
素箋本白描畫	-11.9881
建初中	-11.9881
娉	-11.9881
抒	-11.9882
挐	-11.9883
鑣	-11.9883
灋	-11.9883
犇	-11.9883
湯普徹	-11.9883
髙正臣	-11.9884
旃檀	-11.9884
辜	-11.9884
大姚村	-11.9884
逗	-11.9884
廪	-11.9884
擾擾	-11.9884
汝陽袁華	-11.9885
雲東逸史	-11.9885
下有文徴明印	-11.9885
唐詩紀事	-11.9886
進士及第	-11.9886
闍	-11.9886
莱	-11.9886
删	-11.9886
稳	-11.9886
債	-11.9887
稽古右文之	-11.9887
天真爛漫	-11.9887
撤	-11.9888
譁	-11.9888
僣	-11.9888
搥	-11.9888
燕穆之	-11.9888
暾	-11.9888
諂	-11.9888
沱	-11.9888
徐希秀	-11.9888
宋刻法華經	-11.9889
揉	-11.9889
腔	-11.989
壼	-11.989
儷	-11.989
猩猩	-11.9892
山海經	-11.9892
顧閎中	-11.9892
長二丈	-11.9893
乾隆四十六年	-11.9893
瘴	-11.9893
哺	-11.9893
䬃	-11.9893
侑	-11.9893
筮	-11.9894
錬	-11.9895
紹定戊子	-11.9895
血脈	-11.9896
暌	-11.9899
栻	-11.9912
冊計二十	-11.9933
鷙禽	-11.9936
兩兩耳連環右髙一尺	-12.016
牲	-12.017
幾暇怡情	-12.0173
徊	-12.0173
磊磊	-12.0174
漫漶	-12.0177
騣	-12.0177
丶	-12.0178
𥿄	-12.0178
梗概	-12.0179
閥	-12.0179
攖	-12.0181
幾暇臨池	-12.0181
巴西鄧文原	-12.0181
胡長孺	-12.0181
芋	-12.0182
種種臻妙	-12.0183
疉	-12.0183
繽	-12.0183
天慶觀	-12.0184
蓍	-12.0184
篴	-12.0184
多才藝	-12.0184
沍	-12.0185
牴	-12.0185
玫瑰	-12.0185
炤	-12.0186
篙	-12.0186
陳洪綬	-12.0186
酤	-12.0186
頓還舊觀	-12.0186
党	-12.0187
戲鴻堂帖	-12.0187
烏絲欄	-12.0187
未署款	-12.0188
鍇	-12.0188
茨	-12.0188
劑	-12.0189
蓺	-12.0189
嘅	-12.0189
酧	-12.0189
文簡公	-12.0189
庾元威	-12.019
琹	-12.019
東里集	-12.019
聒	-12.019
㤙	-12.019
狡	-12.019
弇州山人稾	-12.0191
侶	-12.0191
滔	-12.0191
二謝帖	-12.0191
籒	-12.0191
右謹具呈	-12.0191
李肇亨	-12.0194
罩	-12.0194
斂袵	-12.0195
覘	-12.0195
剩	-12.0196
嘖嘖	-12.0196
㢲	-12.0197
凂	-12.0197
文宣王廟	-12.0197
絜	-12.0197
平章政事	-12.0198
孥	-12.0198
虢國夫人	-12.0198
纘	-12.0199
年歲在	-12.0199
寗	-12.02
髙八寸八分廣	-12.0205
蠏	-12.0209
頵	-12.0211
年龍集	-12.0383
咄咄	-12.0397
深三寸二分口徑	-12.0416
腹徑五寸	-12.0419
兩背作	-12.0468
容六升	-12.0473
潯	-12.0474
恡	-12.048
䜌	-12.0482
王圖炳書	-12.0483
衎	-12.0484
釡	-12.0487
萋萋	-12.0487
殷令名	-12.0488
䜿	-12.0488
夭矯	-12.0491
雅宜山	-12.0492
渌	-12.0492
罌	-12.0492
燠	-12.0493
駐蹕	-12.0494
花竹禽鳥	-12.0494
櫳	-12.0494
叡	-12.0494
堯民擊壤	-12.0494
肓	-12.0495
萹	-12.0495
牎	-12.0495
樛	-12.0496
跌	-12.0496
櫝	-12.0496
宋陳思撰	-12.0496
五代名畫補遺	-12.0497
左中郎將	-12.0497
鮓	-12.0497
劉次莊	-12.0497
青出於藍	-12.0498
宋本五色織	-12.0498
泝	-12.0498
烏絲䦨	-12.0498
晻	-12.0498
司馬温公	-12.0498
喆	-12.0498
晉右將軍王羲之	-12.0499
蜚	-12.0499
吳興錢選舜舉	-12.0499
莓	-12.0499
沈著痛快	-12.0499
王氏法書苑	-12.0501
駮	-12.0501
公孫大娘	-12.0501
文潞公	-12.0502
洞玉經	-12.0502
兾	-12.0502
張素卿	-12.0502
王雅宜	-12.0503
頳	-12.0503
黠	-12.0503
岣	-12.0503
紓	-12.0504
髀	-12.0504
酋	-12.0505
苻	-12.0505
仇十洲	-12.0505
蝨	-12.0505
遹	-12.0505
虖	-12.0505
玳瑁	-12.0505
趙氏鐵網珊瑚卷	-12.0506
王羲之字逸少	-12.0506
獒	-12.0506
籥	-12.0506
車騎將軍	-12.0506
亾	-12.0507
鯁	-12.0507
孜孜	-12.0507
絛	-12.0507
謠	-12.0507
行第二帖	-12.0508
貞觀公私畫史	-12.0508
邵亨貞	-12.0509
装潢	-12.0509
晳	-12.0511
梔	-12.0511
蒼潤軒碑跋	-12.0515
涅	-12.0517
五世孫	-12.0519
有晉人風	-12.0589
蟠虺	-12.08
長宜子孫	-12.0807
芮	-12.0807
憔悴	-12.0808
絨	-12.081
咫	-12.0812
惲夀平	-12.0813
垠	-12.0813
半印二不可識	-12.0813
右通蓋高七寸	-12.0813
黼黻	-12.0814
楊庭光	-12.0814
雩	-12.0814
胡母敬	-12.0815
陸士仁	-12.0815
濆	-12.0815
皦	-12.0815
石揚休	-12.0816
慊	-12.0816
彀	-12.0816
滛	-12.0817
媵	-12.0817
涌	-12.0817
愠	-12.0818
禿	-12.0818
鮮于伯幾	-12.0818
啾	-12.0818
淥	-12.0818
思想帖	-12.0818
涘	-12.0818
蠱	-12.0818
奘	-12.0818
瑀	-12.0818
羝	-12.0818
槽	-12.0818
筩	-12.0819
希世之珍	-12.0819
宇文公諒	-12.0819
無虚日	-12.0819
縻	-12.082
沫	-12.082
涴	-12.082
金題玉躞	-12.0821
錢穆父	-12.0821
文淵閣	-12.0821
鍤	-12.0821
菡	-12.0821
頲	-12.0822
夹	-12.0822
猖	-12.0822
祕書少監	-12.0822
化度寺	-12.0822
綢	-12.0822
裹鮓	-12.0823
蠖	-12.0823
澧	-12.0823
煦	-12.0823
郭乾暉	-12.0823
姜立綱	-12.0823
龍圖閣直學士	-12.0823
瀬	-12.0823
發願文	-12.0824
分省人物考	-12.0824
箏	-12.0824
磻	-12.0824
崙	-12.0825
壒	-12.0825
槌	-12.0825
餙	-12.0826
媺	-12.0826
週	-12.0827
韓熙載	-12.0827
秖	-12.0829
笳	-12.083
紀功碑	-12.083
長孫無忌	-12.083
崆峒	-12.083
璀	-12.083
湘東王	-12.0831
兵符圖	-12.0831
漙	-12.0831
酥	-12.0831
弡	-12.0832
檠	-12.0832
屣	-12.0832
械	-12.0833
暁	-12.0834
怱	-12.0835
颸	-12.0839
六世孫	-12.0842
髙八寸七分廣	-12.0894
今御府所藏十	-12.0963
虞文靖	-12.0991
深自口至隔	-12.1123
翛	-12.1127
語録一部	-12.1131
綯	-12.1136
冉	-12.1138
撥鐙法	-12.1141
肴	-12.1141
么	-12.1143
甯	-12.1145
酢	-12.1145
刑部左侍郎卞永譽撰書	-12.1146
㬋	-12.1147
粼	-12.1148
國朝人書畫	-12.1148
曬	-12.1149
沓拖	-12.1149
諸跋中押縫有	-12.1149
騮	-12.1149
楊士賢	-12.1149
破羌帖	-12.1149
寤寐	-12.115
破邪論	-12.115
亹亹	-12.115
豐道生	-12.115
孔雀明王像	-12.1151
磁青箋	-12.1151
菘	-12.1151
鸎	-12.1152
碍	-12.1152
趙孟籲	-12.1152
渤	-12.1152
琤	-12.1152
蒲師訓	-12.1153
撑	-12.1153
擴	-12.1153
秣	-12.1153
偪	-12.1153
曲江錢惟善	-12.1153
苴	-12.1153
嵬	-12.1154
綉	-12.1154
綫	-12.1154
文林郎	-12.1154
蕨	-12.1154
明汪砢玉撰	-12.1155
徐有貞	-12.1155
在絹素上	-12.1155
炬	-12.1155
集賢校理	-12.1155
顙	-12.1155
啞	-12.1155
朝議大夫	-12.1155
旡	-12.1156
捩	-12.1156
蜡	-12.1156
匍	-12.1156
揀	-12.1156
蜍	-12.1156
雨初霽	-12.1157
瘳	-12.1157
浯	-12.1158
嶔	-12.1158
李安忠	-12.1158
纉	-12.1159
嶸	-12.1159
薝蔔	-12.1159
薛道衡	-12.1159
沆瀣	-12.116
表而出之	-12.116
燃	-12.116
王氏跋二	-12.1161
劬	-12.1161
跗	-12.1162
過秦論	-12.1162
端明殿學士	-12.1163
鼈	-12.1163
楊用修	-12.1163
禹治水	-12.1163
貿	-12.1164
蝸	-12.1164
邐	-12.1164
顔眞卿	-12.1164
扼	-12.1164
宼	-12.1165
戔	-12.1165
閙	-12.1168
中幅押縫	-12.1168
䜟	-12.1168
玘	-12.117
稗	-12.117
鼐	-12.1171
傳扵丗	-12.1171
徳政頌	-12.1172
阿育王	-12.1173
無銘右二器	-12.1175
垞	-12.118
海獸蒲萄鑑	-12.1411
紙本立軸	-12.1456
蹉	-12.1476
瞞	-12.1481
勍	-12.1482
道服贊	-12.1483
柰	-12.1483
紙本小挂幅	-12.1484
鷖	-12.1486
娓	-12.1487
㸑	-12.1487
鐓	-12.1489
閽	-12.149
蹉跎	-12.149
姚曇度	-12.149
顧寳光	-12.1492
托塔天王	-12.1492
秦丞相李斯	-12.1492
邾	-12.1492
冶溪漁隠	-12.1493
漁浦圖	-12.1493
窪	-12.1493
忒	-12.1493
惓惓	-12.1494
李廷珪墨	-12.1494
遄	-12.1494
未之有也	-12.1494
嶄	-12.1495
兠	-12.1496
芊	-12.1497
干禄字書	-12.1497
􁃶	-12.1497
毛惠逺	-12.1497
憨	-12.1498
大理評事	-12.1498
褫	-12.1498
陸文裕	-12.1498
醺	-12.1498
邵陵王	-12.1498
桃花源裏人家	-12.1499
庄	-12.1499
銑	-12.1499
䧺	-12.1499
荆蠻民	-12.15
刁光𦙍	-12.15
章閣待制	-12.15
􁯳	-12.15
黄居宷	-12.1501
沚	-12.1501
児	-12.1501
嫠	-12.1502
十五日敬書一洋箋本墨書欵識云康熈	-12.1502
勰	-12.1503
烟江疊嶂圖	-12.1503
溪山風雨圖	-12.1503
泱	-12.1503
驌	-12.1503
王世懋	-12.1503
旴	-12.1503
梅沙彌	-12.1503
訢	-12.1504
月儀帖	-12.1504
諗	-12.1504
徯	-12.1505
毳	-12.1505
佛鋪圖	-12.1507
米南宮	-12.1507
段成式	-12.1508
𥘉	-12.1509
團扇絹本淡色	-12.1509
糅	-12.1509
憊	-12.151
六研齋筆記	-12.151
泪	-12.1511
岵	-12.1511
兩紙共	-12.1511
張敦禮	-12.1511
鞾	-12.1511
琅琅	-12.1511
甓	-12.1512
椀	-12.1513
范忠宣	-12.1637
鷙	-12.179
􁷺	-12.181
耳髙一寸二分濶一寸	-12.1827
一印幅後有	-12.1839
猊	-12.1843
蹰	-12.1843
鈕髙一寸	-12.1844
鍑	-12.1845
盖與器銘共	-12.1848
淆	-12.1849
程南雲	-12.1849
星官像	-12.185
聖敎序	-12.185
孑	-12.185
喝	-12.1851
咄	-12.1852
趙秉文	-12.1852
吳通微	-12.1852
胝	-12.1853
种	-12.1853
衒	-12.1853
萬幾之暇	-12.1853
四十二章經	-12.1853
趙伯驌	-12.1854
盾	-12.1854
骸	-12.1854
嬈	-12.1855
峡	-12.1855
玉筯篆	-12.1855
碗	-12.1855
晷	-12.1855
烽	-12.1855
郇	-12.1855
揭鉢圖	-12.1856
蹋	-12.1856
謌	-12.1856
齧	-12.1856
鞵	-12.1857
欽定四庫全書石渠寳笈卷	-12.1858
孫夢卿	-12.1858
颼颼	-12.1858
妣	-12.1858
自書詩帖一卷	-12.1859
簒	-12.1859
跣	-12.1859
崐	-12.186
蕉林梁氏書畫之印	-12.186
肢	-12.186
袁安臥雪圖	-12.186
杠	-12.186
蘖	-12.186
袴	-12.186
司徒左長史	-12.186
渾然天成	-12.186
擯	-12.186
豸	-12.1861
齕	-12.1861
韋續九品書人論	-12.1861
磷	-12.1862
肋	-12.1862
諸葛武侯	-12.1862
董邦逹	-12.1862
嘴	-12.1863
尠	-12.1864
𣙜	-12.1864
坌	-12.1864
攪	-12.1864
瞠	-12.1864
姐	-12.1865
僧悰云	-12.1865
橐	-12.1865
壌	-12.1866
鷲	-12.1866
啇	-12.1867
湼	-12.1868
絪	-12.1868
陕	-12.1869
渟	-12.1869
六研齋二筆	-12.187
范允臨	-12.1871
竑	-12.1872
穫	-12.1872
岧	-12.1872
芙	-12.1872
掞	-12.1873
笪重光	-12.2212
躊	-12.2213
釜	-12.2213
揜	-12.2214
惺	-12.2214
狻猊	-12.2219
趙光輔	-12.222
灝	-12.2221
蜻蜓	-12.2221
著作佐郎	-12.2221
騧	-12.2221
茁	-12.2221
袪	-12.2221
皷	-12.2222
承務郎	-12.2222
冇	-12.2222
石延年	-12.2224
蘇易簡	-12.2224
賈師憲	-12.2224
鐵門限	-12.2224
你	-12.2224
檇李項氏世家寳玩	-12.2224
筞	-12.2224
狄仁傑	-12.2225
内合同印	-12.2225
搴	-12.2225
毖	-12.2226
金石遺文	-12.2226
躞	-12.2226
宁	-12.2226
垔	-12.2227
范懐約	-12.2227
陰符經	-12.2227
爇	-12.2227
㢧	-12.2228
皇帝青宫時題詩云	-12.2228
僂	-12.2228
剜	-12.2228
抺	-12.2228
千變萬化	-12.2229
鈕髙二寸	-12.2229
臙脂	-12.2229
都𤣥敬	-12.2229
豈易得哉	-12.223
莞	-12.2231
篔	-12.2231
騅	-12.2231
豢	-12.2231
商山四皓	-12.2231
摯	-12.2232
嘈	-12.2232
倕	-12.2232
𨗳	-12.2233
㩁	-12.2234
杜光庭	-12.2234
別	-12.2234
鬆	-12.2234
琥	-12.2234
趙叔盎	-12.2235
瓛	-12.2235
眙	-12.2235
坳	-12.2236
爱	-12.2236
黄文獻公集	-12.2236
脛	-12.2237
椅	-12.2237
鶱	-12.2237
兩有流有鋬四足	-12.2238
田僧亮	-12.2239
金壺記	-12.2239
朝奉大夫	-12.2241
菑	-12.2243
華陽真逸	-12.2247
輟耕録	-12.2249
鎗	-12.2249
深三寸七分口徑	-12.2311
六分腹徑	-12.2403
枚三十六各長三分重	-12.2563
枚三十六各長一寸	-12.2567
髙七寸六分廣	-12.2573
深三寸五分口徑	-12.2581
脰	-12.2584
之謂乎曰然	-12.2589
兩柱三足有鋬	-12.2592
右通蓋高九寸	-12.2594
隋書經籍志	-12.2595
笪	-12.2596
􁗩	-12.2596
寒山拾得	-12.2598
轢	-12.2598
韋應物	-12.26
戕	-12.2601
荏苒	-12.2601
今御府所藏四	-12.2601
錙銖	-12.2601
瀕	-12.2601
醯	-12.2602
乾隆御賞	-12.2602
珵	-12.2603
戶	-12.2604
上谷王次仲	-12.2604
耿嘉祚	-12.2604
墨林項季子章	-12.2605
神遊心賞	-12.2605
茂實府君	-12.2606
颿	-12.2606
髹	-12.2606
賢良方正	-12.2606
蔣長源	-12.2607
蟇	-12.2607
曈	-12.2608
硎	-12.2608
綮	-12.2608
踣	-12.2609
臠	-12.2609
釴	-12.2609
罇	-12.2609
槊	-12.2609
東武亭侯	-12.261
有乾隆御筆一璽	-12.261
淘	-12.261
玉花驄	-12.261
摛藻為春	-12.261
怵	-12.261
翽	-12.2611
拚	-12.2611
甎	-12.2611
麻姑壇記	-12.2612
陽翟人	-12.2612
金薤琳琅	-12.2612
㠖	-12.2612
湎	-12.2612
榱	-12.2613
蔡希綜	-12.2613
杜子瓌	-12.2613
呦	-12.2613
縢	-12.2613
窣	-12.2613
溽	-12.2613
房彦謙	-12.2614
王肯堂	-12.2614
犁	-12.2614
焰	-12.2615
禅	-12.2615
杜東原	-12.2615
唫	-12.2615
州防禦使	-12.2616
祭姪季明文	-12.2616
蹁躚	-12.2616
范長壽	-12.2616
李應禎	-12.2616
噬	-12.2617
襦	-12.2617
一丘一壑	-12.2618
檉	-12.2618
尊候萬福	-12.2618
撒	-12.2618
騏驎	-12.2618
韓熙載夜宴圖	-12.262
甬長四寸	-12.2621
紹興古器評	-12.2621
琱	-12.2622
鵷	-12.2624
裴孝源	-12.2624
櫺	-12.2624
攣	-12.2624
㶚	-12.2624
漉	-12.2626
䶵	-12.2626
朦	-12.2627
閼	-12.2628
詹希元	-12.2628
喟	-12.2629
橙	-12.2629
纈	-12.2631
腹徑八寸	-12.2691
九分腹圍一尺	-12.2887
自隔至底	-12.2961
鬐	-12.2994
盦	-12.2994
釋氏經軸	-12.2995
袞	-12.2998
熠	-12.2998
埶	-12.2999
飼	-12.3
慈恩寺	-12.3
弁陽老人	-12.3
睿思東閣	-12.3001
王榖祥	-12.3004
崎	-12.3004
欽定四庫全書書畫彚考卷	-12.3004
玻瓈	-12.3004
韓太史家	-12.3005
貯養心殿	-12.3005
陸放翁	-12.3006
董其昌觀因題	-12.3006
蹏	-12.3006
熈五十二年嵗次癸巳	-12.3006
漢宫春曉	-12.3007
禋	-12.3007
御筆題籖籖上有御賞乾隆宸翰二璽	-12.3008
鐶	-12.3008
黄庭外景經	-12.3008
祓	-12.3008
後有乾隆宸翰	-12.3009
㽞	-12.3009
錚	-12.3009
柢	-12.301
碓	-12.301
禩	-12.301
啣	-12.301
心正則筆正	-12.301
綳	-12.3011
揔	-12.3011
牋烏絲闌本	-12.3011
曹士冕	-12.3011
颻	-12.3011
杓	-12.3011
杜祁公	-12.3012
罽	-12.3012
陵陽牟	-12.3012
衽	-12.3012
絕	-12.3012
鞦	-12.3012
邛	-12.3012
張鳳翼	-12.3012
神仙起居法	-12.3012
淼	-12.3013
恊	-12.3013
汜	-12.3013
墖	-12.3013
隤	-12.3013
菓	-12.3014
四體書勢	-12.3014
縣開國男	-12.3014
妤	-12.3014
行穰帖	-12.3014
紫極宫	-12.3014
爨	-12.3014
汸	-12.3015
多寳塔	-12.3015
送梨帖	-12.3015
灬	-12.3016
轆轤	-12.3016
韓朝延	-12.3016
碕	-12.3016
匈	-12.3017
霤	-12.3017
劉道醇	-12.3017
敇	-12.3018
銍	-12.3018
帘	-12.3018
膾炙人口	-12.3018
芘	-12.3019
潾	-12.3019
亝	-12.3019
書畫題䟦記	-12.3019
礱	-12.3019
何良俊	-12.3019
迓	-12.3019
嫵	-12.302
攙	-12.302
榜進士題名碑	-12.3022
虞雍公	-12.3022
蕖	-12.3023
葭	-12.3024
襁	-12.3024
良常草堂	-12.3025
槿	-12.3025
惬	-12.3025
蔕	-12.3025
棚	-12.3026
泂	-12.3027
氵	-12.3027
嘿	-12.3027
文苑英華	-12.3028
靨	-12.3029
昜	-12.303
柁	-12.3032
埏	-12.3033
栱	-12.3039
深四寸三分口徑	-12.3096
深三寸三分口徑	-12.3297
沐手敬書	-12.3343
口縱四寸	-12.3395
瘍	-12.3399
貯重華宫	-12.3403
檇李李氏鶴夢軒珍藏記	-12.3407
窆	-12.3412
虫	-12.3414
箬	-12.3414
褭	-12.3415
礎	-12.3415
暐	-12.3416
楊亷夫	-12.3418
皿	-12.3419
韁	-12.342
灤	-12.3421
俞貞木	-12.3421
五十七年嵗在戊戌	-12.3422
囀	-12.3422
祭姪文	-12.3423
櫪	-12.3423
餽	-12.3423
煬	-12.3423
熈五十八年嵗在己亥	-12.3424
吿	-12.3425
駉	-12.3425
萟	-12.3425
隗	-12.3425
陲	-12.3425
羹	-12.3425
奨	-12.3425
頁第六十	-12.3426
倬	-12.3427
沈熾文	-12.3427
湔	-12.3427
湌	-12.3428
牧牛圗	-12.3428
掄	-12.3428
靁	-12.3428
眄	-12.3429
磋	-12.3429
鑽	-12.3429
諍	-12.3429
領鄉薦	-12.3429
鷃	-12.343
珊瑚網卷二十	-12.343
溍	-12.343
嚙	-12.343
都尉耿信公書畫之章	-12.343
穪	-12.343
膴	-12.3431
旹	-12.3431
太子中允	-12.3431
洸	-12.3431
比干墓	-12.3432
左司郎中	-12.3432
玻璃	-12.3432
弆	-12.3433
武英殿	-12.3433
紵	-12.3434
詧	-12.3434
帋	-12.3435
壙	-12.3435
礫	-12.3435
輓	-12.3435
匐	-12.3435
𣗳	-12.3435
七言截句	-12.3435
屧	-12.3435
寶慶乙酉	-12.3435
蹀	-12.3436
有自來矣	-12.3436
史夲傳	-12.3437
内府圖書之印	-12.3438
協律郎	-12.3438
枃	-12.3438
胡笳十八拍	-12.3438
糺	-12.3439
太平清話	-12.344
殽	-12.3441
茱	-12.3444
梁昇卿	-12.3446
斤十有四兩	-12.3453
桮	-12.3455
深五寸八分口	-12.351
哀冊文	-12.3517
口徑六寸五分腹圍	-12.3822
等字是也夫言	-12.3824
徳充符	-12.3839
下有㑹心不逺	-12.3844
釋氏經冊	-12.3844
賑	-12.3844
苛	-12.3846
跼	-12.3847
晉昌唐寅	-12.385
䪫	-12.385
海岱樓	-12.385
饞	-12.3851
蘩	-12.3852
鄢	-12.3852
躇	-12.3852
玉清昭應宫	-12.3853
極稱許之	-12.3854
乚	-12.3854
棼	-12.3854
挿	-12.3854
段每段	-12.3854
醬	-12.3855
夾竹桃花	-12.3855
劉德昇	-12.3855
姚懐珍	-12.3857
瓮	-12.3857
熬	-12.3857
皤	-12.3857
龢	-12.3858
洞天清録	-12.3859
雅宜山人王寵	-12.3859
抖	-12.386
嫉	-12.3861
艘	-12.3861
媼	-12.3862
忖	-12.3862
朱巨川誥	-12.3862
摩利支天	-12.3863
紂	-12.3863
㝢	-12.3863
躓	-12.3863
荐	-12.3863
麯	-12.3863
㢤	-12.3863
阿彌陀經	-12.3863
盌	-12.3863
絆	-12.3864
董邦達	-12.3864
萏	-12.3864
肄	-12.3864
琴鶴軒	-12.3864
廣川書䟦	-12.3865
鷁	-12.3865
䲭	-12.3865
趙氏子昻一印	-12.3865
侁	-12.3866
宰相世系表	-12.3866
彜	-12.3866
犂	-12.3867
鉗	-12.3867
阼	-12.3867
珦	-12.3867
竹懶李日華	-12.3867
墉	-12.3867
出人意表	-12.3868
舒元輿	-12.3869
程鉅夫	-12.3869
罘	-12.3869
菌	-12.387
麻皮皴	-12.387
鄠	-12.387
台候萬福	-12.387
滇	-12.387
堰	-12.3871
寳章待訪錄	-12.3871
這	-12.3871
踊	-12.3872
薛純陀	-12.3872
擠	-12.3872
葛守昌	-12.3873
野望憫言	-12.3873
翾	-12.3874
棲霞寺	-12.3875
怙	-12.3875
眈	-12.3876
格古要論	-12.3876
榼	-12.3876
姿態横生	-12.3877
漈	-12.3877
帔	-12.3877
殯	-12.3879
訐	-12.388
狄梁公	-12.3883
惎	-12.3884
漢書藝文志	-12.3911
寸一分腹圍	-12.4124
糝	-12.4286
素箋本餘俱金箋本第一幅	-12.4287
縶	-12.4296
儼齋秘玩	-12.4301
深二寸二分口	-12.4303
楣	-12.4304
猊抉石渴驥奔泉	-12.4304
檟	-12.4304
佛因地圖	-12.4305
深四寸四分口徑	-12.4305
􁧠	-12.4305
踟	-12.4305
褧	-12.4305
飇	-12.4306
甃	-12.4306
穟	-12.4306
熈六十年嵗在辛丑	-12.4308
鰕	-12.4308
右通蓋高八寸	-12.4309
初一日敬書前後經名下俱有貝葉文一	-12.4309
瓔	-12.431
亊	-12.431
莭	-12.4311
鋗	-12.4311
江山勝覽	-12.4311
下有康熙稽古右文二璽	-12.4312
朓	-12.4312
坪	-12.4312
靠	-12.4312
􁅋	-12.4313
甬長三寸	-12.4313
呪	-12.4313
塟	-12.4314
狭	-12.4314
蘼	-12.4314
聃	-12.4315
肎	-12.4315
罾	-12.4315
賄	-12.4315
燔	-12.4315
壚	-12.4315
莾	-12.4316
壅	-12.4316
弘	-12.4316
觀世音菩薩	-12.4316
亹	-12.4316
摽	-12.4317
揭傒斯	-12.4317
箠	-12.4317
法書要錄	-12.4317
韆	-12.4317
明昌七印	-12.4318
長夏江寺	-12.4318
慝	-12.4319
如意輪菩薩像	-12.4319
唘	-12.4319
猝	-12.4319
儵	-12.4319
頮	-12.4319
蝉	-12.432
裸	-12.432
夾竹海棠	-12.432
穜	-12.432
塤	-12.4321
串	-12.4321
荄	-12.4321
裴文睍	-12.4322
摩利攴天	-12.4322
葳	-12.4322
缸	-12.4323
龐	-12.4323
叉	-12.4323
顱	-12.4323
翀	-12.4324
曁	-12.4324
清心抒妙理	-12.4324
傴	-12.4324
黿	-12.4325
夏山欲雨圖	-12.4326
齔	-12.4326
拇	-12.4326
羗	-12.4327
鎦	-12.4327
眘	-12.4327
珀	-12.4328
渤海髙啓	-12.4328
晙	-12.433
駰	-12.4331
墁	-12.4332
嬖	-12.4332
軸髙五尺	-12.4332
兜	-12.4333
軸髙三尺七寸	-12.4333
朱謀垔云	-12.4334
斧劈皴	-12.4334
髙貴鄉公	-12.4336
繡纓圖	-12.4337
升三合重	-12.4395
鷓	-12.475
冤	-12.4765
耿㑹侯鑒定書畫之章	-12.4773
道氏經冊	-12.4774
潏	-12.4775
殂	-12.4776
㫺	-12.4779
狷	-12.478
羶	-12.4783
喘	-12.4783
田疇耕耨	-12.4784
剋	-12.4784
噓	-12.4785
熈五十三年嵗在甲午	-12.4786
湯彌昌	-12.4786
熈五十九年嵗在庚子	-12.4786
趍	-12.4786
醅	-12.4786
崒	-12.4786
明汪砢玉撰法書題跋	-12.4787
鄕	-12.4787
隍	-12.4788
洊	-12.4788
跚	-12.4788
屍	-12.4788
詘	-12.4788
熈五十六年嵗在丁酉	-12.4788
涔	-12.4789
刳	-12.479
繅	-12.4791
洺	-12.4791
嶒	-12.4791
衘	-12.4791
滕王元嬰	-12.4791
韈	-12.4791
璐	-12.4792
飰	-12.4792
阿爾喜普之印	-12.4792
散僧入聖	-12.4792
趙宧光	-12.4792
岱嶽觀造像記	-12.4792
滙	-12.4793
耨	-12.4793
帨	-12.4794
刈	-12.4794
腋	-12.4794
啗	-12.4794
王世貞國朝名賢遺墨有	-12.4795
酲	-12.4795
渰	-12.4795
嬙	-12.4795
騘	-12.4796
絺	-12.4796
秫	-12.4796
橛	-12.4796
狖	-12.4796
素箋本淡著色畫	-12.4796
佯	-12.4797
劖	-12.4797
菟	-12.4797
惨	-12.4797
絅	-12.4798
灑金牋本	-12.4799
单	-12.4799
輾	-12.4799
刄	-12.4799
簑	-12.4799
勣	-12.48
詹孟舉	-12.48
賭	-12.4801
雹	-12.4801
媮	-12.4801
鈕髙三寸	-12.4802
闔閭城	-12.4802
吉日癸巳	-12.4802
崗	-12.4803
崿	-12.4803
旎	-12.4803
皈	-12.4803
氓	-12.4803
廚	-12.4804
邯	-12.4804
蛩	-12.4804
世說新語	-12.4805
痊	-12.4805
石渠寳笈	-12.4805
厝	-12.4805
踘	-12.4807
嵩陽石刻記	-12.4807
蕾	-12.4807
蒔	-12.4807
頔	-12.4807
唼	-12.4808
孃	-12.4808
其昌下有董其昌	-12.4808
䙝	-12.4808
柩	-12.4809
熨	-12.4809
朧	-12.481
苫	-12.4815
耋	-12.4819
深六寸一分口	-12.4865
兩兩耳有提梁右通葢髙	-12.5269
道氏經卷	-12.527
磜	-12.5275
塍	-12.5275
阪	-12.5276
窊	-12.5278
邍	-12.528
通泠橋	-12.5281
筏	-12.5281
㓕	-12.5282
澡	-12.5282
㦂	-12.5285
樷	-12.5285
齍	-12.5285
羅暉趙襲	-12.5286
熈五十四年嵗在乙未	-12.5286
蘧道愍	-12.5286
渢	-12.5286
窖	-12.5287
沆	-12.5287
籛	-12.5287
鑚	-12.5287
徠	-12.5288
筴	-12.5289
鉄	-12.529
㝎	-12.529
饕	-12.5291
鸛	-12.5291
鞚	-12.5291
吊	-12.5291
世祖章皇帝	-12.5291
滲	-12.5291
躐	-12.5292
鬃	-12.5293
擅豪翰其蹟雜見	-12.5293
柟	-12.5293
郁逢慶	-12.5293
書法正傳卷	-12.5294
噀	-12.5294
羣玉堂法帖	-12.5294
陸費墀	-12.5294
圖繪寶鑑	-12.5294
天龍八部	-12.5295
氲	-12.5295
黌	-12.5295
康里巙	-12.5295
巃	-12.5296
萋	-12.5296
刑部左侍郎卞永譽撰畵	-12.5296
寳章待訪録	-12.5296
奭	-12.5296
引而伸之	-12.5296
在西安府	-12.5297
纇	-12.5297
進士選庶吉士	-12.5298
螻	-12.5298
磈	-12.5298
怫	-12.5299
籲	-12.5299
褓	-12.53
辠	-12.53
盡善盡美	-12.53
溪山深秀圖	-12.53
緹	-12.53
輈	-12.53
殄	-12.53
楞	-12.5301
㢠	-12.5301
堞	-12.5301
鍜	-12.5301
豺	-12.5301
贑	-12.5301
悸	-12.5302
蓽	-12.5302
酹	-12.5304
粕	-12.5304
鏜	-12.5305
眶	-12.5305
糲	-12.5305
繒	-12.5306
蚋	-12.5306
放生池碑	-12.5306
蔗	-12.5307
弇州續稾	-12.5308
鑊	-12.5308
前有佩文齋一璽	-12.5309
甍	-12.5309
咲	-12.531
跧	-12.5311
蘊	-12.5313
啻	-12.5759
秬	-12.5782
弦紋鼎	-12.579
滎	-12.5793
墨畫餘俱著色畫第一幅	-12.5794
草書五言律詩一首	-12.5795
㺅	-12.5796
踠	-12.5798
虀	-12.58
藎	-12.5801
㒳	-12.5803
戌	-12.5804
書法離鈎卷	-12.5806
拗	-12.5807
盩	-12.5807
唐粉蠟紙	-12.581
欷	-12.581
蹕	-12.581
杰	-12.581
妒	-12.581
喁	-12.5812
鐺	-12.5812
米氏畵史云	-12.5812
田家移居圖	-12.5813
熈五十一年嵗次壬辰	-12.5813
玭	-12.5813
􁉡	-12.5813
兩兩耳有提梁右通蓋高	-12.5814
汯	-12.5814
車府令趙髙	-12.5814
怪怪竒竒	-12.5815
籤	-12.5816
酆	-12.5816
墨林硯癖	-12.5816
𧺫	-12.5816
畺	-12.5817
去古未逺	-12.5817
琇	-12.5817
蕉林玉立氏圖書	-12.5817
嵸	-12.5817
幟	-12.5817
神逰心賞	-12.5818
嚥	-12.5818
猱	-12.5818
城隍廟	-12.5818
佗	-12.5819
得心應手	-12.5819
書畵彚考卷四十	-12.5819
鎩	-12.5819
匙	-12.582
滏	-12.582
臮	-12.582
直仁智殿	-12.582
巇	-12.582
儓	-12.5821
疚	-12.5821
筦	-12.5821
敷文閣待制	-12.5821
嗅	-12.5821
枒	-12.5821
澘	-12.5821
闘	-12.5822
剰水殘山	-12.5822
晉文公復國圖	-12.5823
桔	-12.5823
闓	-12.5823
鹹	-12.5824
韡	-12.5824
夢溪筆談	-12.5824
阬	-12.5824
堙	-12.5824
睎	-12.5824
鋟	-12.5824
埀	-12.5825
臬	-12.5825
紇	-12.5825
狙	-12.5826
挟	-12.5827
厮	-12.5827
焙	-12.5827
跱	-12.5827
漭	-12.5827
葷	-12.5829
槧	-12.5829
仔	-12.583
應奉翰林文字	-12.583
厪	-12.583
王奉常集	-12.5833
繳	-12.5833
褶	-12.5833
憬	-12.5834
咤	-12.5834
弹	-12.5834
撾	-12.5834
萬幾餘暇	-12.5834
㱃	-12.5835
橡	-12.5835
右寳晉米公	-12.5835
罥	-12.5836
琅邪臨沂人	-12.5836
捽	-12.5837
窿	-12.5837
癰	-12.5838
甪	-12.5839
瘧	-12.5841
壎	-12.5843
蛤	-12.5844
鷟	-12.5844
文皇哀冊	-12.6267
􁄰	-12.6295
兩兩柱三足有流有鋬	-12.6332
兩舞相距六寸	-12.6339
𣑽	-12.6341
黽	-12.6347
腹徑長五寸	-12.6348
菉	-12.635
翏	-12.6351
一寸四分濶一寸	-12.6352
斿	-12.6354
冋	-12.6355
耳髙一寸濶一寸	-12.6356
宋人畫羅漢像一軸	-12.6356
捻	-12.6357
妺	-12.6359
愻	-12.6359
佛青箋本泥金書欵識云康熙歲次甲申	-12.6361
熈五十年嵗次辛夘	-12.6361
筑	-12.6361
畫院祇候	-12.6361
衺	-12.6363
澍	-12.6363
寨	-12.6365
籋	-12.6365
灸	-12.6365
珞	-12.6366
槍	-12.6366
贛	-12.6366
舖	-12.6366
塹	-12.6367
糸	-12.6367
莧	-12.6367
蹻	-12.6367
素絹夲著色畫	-12.6368
䜛	-12.6369
嫰	-12.6369
婣	-12.6369
邅	-12.637
腎	-12.637
册計十七頁	-12.637
憙	-12.637
寸五分重一百	-12.637
氐	-12.6371
芉	-12.6371
豋	-12.6371
煕	-12.6371
倔	-12.6371
㑹心不逺二璽	-12.6371
㟧	-12.6372
南極老人像一軸	-12.6372
齠	-12.6372
吃	-12.6374
云上比崔杜不足下方	-12.6374
瀁	-12.6374
僎	-12.6375
貰	-12.6375
餳	-12.6376
燋	-12.6376
蕤	-12.6376
儀同三司	-12.6376
屡	-12.6377
凟	-12.6377
蕞	-12.6378
諜	-12.6378
篩	-12.6378
夗	-12.6379
港	-12.6379
訃	-12.6379
壠	-12.6379
寶章待訪録	-12.6379
萸	-12.6379
卞令之鑒定	-12.6379
褥	-12.638
巑	-12.638
按察僉事	-12.638
買王得羊不失所望	-12.6381
廛	-12.6381
岌	-12.6381
墨池璅録	-12.6382
賜進士出身	-12.6382
怍	-12.6382
鄣	-12.6382
捄	-12.6383
岏	-12.6383
楩	-12.6384
體元主人萬幾餘暇二璽	-12.6384
崟	-12.6384
台哈布哈	-12.6384
凴	-12.6385
㬰	-12.6385
帕	-12.6385
多力豐筋者聖無力無筋者病	-12.6386
鵾	-12.6387
方絹本淡色	-12.6387
簀	-12.6387
躔	-12.6388
諌議大夫	-12.6388
蝟	-12.6388
康里子山	-12.6388
祝氏集略	-12.6388
宋岳珂撰宋名人真蹟	-12.6389
哇	-12.6389
蜿	-12.6389
贇	-12.639
郃	-12.639
塏	-12.639
獺	-12.639
癢	-12.639
春夏秋冬	-12.639
愬	-12.6391
輭	-12.6392
漼	-12.6395
芑	-12.6395
慥	-12.6414
像俱泥金畫	-12.6828
斤十有二兩無銘	-12.6899
耳髙一寸三分濶一寸	-12.694
漑	-12.6946
齗	-12.6946
㠯	-12.6947
肜	-12.6947
醢	-12.6947
自隔至厎	-12.6948
跏	-12.695
曕	-12.6952
嵂	-12.6952
上鈐廣運之寶	-12.6952
有奉三無私	-12.6952
卸	-12.6953
獷	-12.6953
蠕	-12.6953
攤	-12.6953
卬	-12.6953
蜩	-12.6953
砭	-12.6953
懾	-12.6953
六十一年嵗在壬寅	-12.6954
抝	-12.6954
煞	-12.6954
捍	-12.6955
冫	-12.6955
瓏	-12.6957
􁁵	-12.6957
㫋	-12.6957
姒	-12.6957
兇	-12.6957
麻姑仙壇記	-12.6957
裵	-12.6957
辵	-12.6958
鐔	-12.6958
舲	-12.6959
巋	-12.6959
欵識云康熙四十五年歲次丙戌	-12.6959
旒	-12.6959
寳親王長春居士題	-12.696
郴	-12.696
嚬	-12.696
寞	-12.696
梟	-12.696
研北雜志	-12.6961
囓	-12.6962
妆	-12.6962
佃	-12.6962
噞	-12.6963
駃	-12.6963
掲傒斯	-12.6963
麒	-12.6963
屩	-12.6964
蝗	-12.6964
橰	-12.6964
幌	-12.6964
擻	-12.6964
貉	-12.6964
痺	-12.6965
下有趙子昻氏一印	-12.6965
煇	-12.6965
悃	-12.6965
磾	-12.6966
紿	-12.6966
臈	-12.6966
呻	-12.6966
運斤成風	-12.6966
墊	-12.6967
酪	-12.6967
瑒	-12.6967
公字信公珍賞	-12.6967
𠖇	-12.6967
員嶠真逸	-12.6968
颶	-12.6969
㳫	-12.6969
秤	-12.697
鍵	-12.697
覼	-12.697
茉	-12.697
伉	-12.697
换	-12.697
昭文館大學士	-12.697
敷文閣直學士	-12.697
莉	-12.6971
炷	-12.6971
跫	-12.6972
惙	-12.6972
烱	-12.6972
叵	-12.6972
咳	-12.6973
璡	-12.6974
𦍑	-12.6974
鬖	-12.6975
輞	-12.6975
刲	-12.6975
瑊	-12.6975
纜	-12.6975
白氏長慶集	-12.6976
並行書第一帖十	-12.6976
葯	-12.6976
縵	-12.6976
瑁	-12.6978
韉	-12.6981
篾	-12.6982
晒	-12.6982
茝	-12.6984
汐	-12.6986
經筵講官	-12.6987
枚三十六各長二分重	-12.7528
容八合重一斤	-12.7552
戹	-12.7553
受下吏金	-12.7554
􁊈	-12.7558
䵼	-12.7562
州團練使	-12.7567
彡	-12.7567
天地水三官像三	-12.757
㡬暇臨池二璽	-12.7572
鄖	-12.7574
舁	-12.7574
眥	-12.7575
熙四十八年歲次己丑	-12.7575
痍	-12.7575
贐	-12.7575
苶	-12.7576
清夜游西園圖	-12.7576
揾	-12.7576
御定佩文齋書畫譜	-12.7576
鸚	-12.7577
儺	-12.7577
熈四十九年嵗次庚寅	-12.7577
廽	-12.7577
麀	-12.7578
剌	-12.7578
㿃	-12.7578
睞	-12.7578
籧	-12.7578
䥴	-12.7578
酡	-12.7579
蹣	-12.7579
毶	-12.758
窰	-12.758
倨	-12.7581
姧	-12.7581
芾皇恐頓首再拜上覆	-12.7581
虔	-12.7581
相連意在筆前然後作字若平直相似	-12.7581
鎸	-12.7582
籌筆驛詩	-12.7582
薺	-12.7582
赧	-12.7582
漵	-12.7583
薿	-12.7583
產	-12.7583
褎	-12.7583
五字不損本	-12.7583
驀	-12.7584
掦	-12.7585
𠫭	-12.7585
澷	-12.7585
画	-12.7585
幅髙九寸三分廣	-12.7585
腯	-12.7586
大字促令小小字	-12.7586
麫	-12.7586
颼	-12.7587
鐍	-12.7587
朅	-12.7587
經一本磁青箋泥金書西域字	-12.7588
謄	-12.7588
褘	-12.7588
睪	-12.7588
枲	-12.7588
誑	-12.7588
悮	-12.759
沈周下有啟南石田二印	-12.759
璺	-12.759
工筆札其蹟雜見	-12.759
齷	-12.759
㡳	-12.7591
譖	-12.7591
涙	-12.7591
傘	-12.7591
心慕手追	-12.7592
明人書金剛經一册	-12.7592
窒	-12.7592
恁	-12.7592
齬	-12.7592
前有佛像後有韋䭾像俱泥金畫	-12.7592
媧	-12.7592
憧	-12.7592
匊	-12.7592
㜏	-12.7593
疫	-12.7594
㘭	-12.7594
槨	-12.7595
珊瑚木難卷	-12.7595
京洛寺塔記	-12.7595
庚子銷夏記卷	-12.7595
穂	-12.7596
俳	-12.7596
甡	-12.7596
氈	-12.7597
矱	-12.7597
剗	-12.7597
明趙琦美編	-12.7597
疢	-12.7597
鄊	-12.7598
爚	-12.7599
㕑	-12.76
垤	-12.76
礲	-12.76
旰	-12.7601
闚	-12.7601
顴	-12.7602
廖瑜杭州府志碑碣	-12.7602
偘	-12.7604
伾	-12.7606
洮	-12.7606
挼	-12.7606
下有康熙宸翰保合太和二璽	-12.7607
莪	-12.7608
􁉧	-12.7611
蓐	-12.7611
天下之能事畢矣	-12.7611
安能免參學之	-12.7616
日敬書一洋箋本墨書欵識云康	-12.7862
炁	-12.8228
㞼	-12.8235
嚱	-12.8236
􁨹	-12.8238
襌	-12.8238
囏	-12.8238
憺	-12.8238
尭	-12.8239
東都敬愛寺	-12.824
羆	-12.8241
醸	-12.8242
熙四十七年歲次戊子	-12.8243
𥻘	-12.8243
癭	-12.8244
無名氏畫釋氏圖	-12.8244
忡	-12.8244
諝	-12.8245
册計十九頁第	-12.8245
涂	-12.8246
峕	-12.8246
誾	-12.8246
鬂	-12.8247
逌	-12.8247
陳皓彭堅	-12.8248
無欵姓名見跋中	-12.8248
蘺	-12.8249
漢水耿㑹侯書畫之章	-12.8249
胤	-12.8249
焕	-12.8249
氅	-12.8249
樁	-12.8249
恧	-12.825
斸	-12.825
卷髙八寸一分廣	-12.825
珎	-12.825
薳	-12.825
磎	-12.825
擗	-12.8251
綆	-12.8251
膓	-12.8251
嶪	-12.8252
疥	-12.8252
蜉	-12.8253
倏	-12.8253
亻	-12.8253
諠	-12.8253
不及張天然過之天然不及鍾	-12.8253
郫	-12.8254
狠	-12.8254
厔	-12.8254
陔	-12.8254
癸辛雜識	-12.8254
薾	-12.8255
名人畫道氏圖	-12.8255
簌	-12.8255
蔥	-12.8255
芃	-12.8255
淤	-12.8255
夘	-12.8256
樨	-12.8256
鬘	-12.8256
禙	-12.8256
飀	-12.8257
凾	-12.8257
玢	-12.8258
驁	-12.8258
菀	-12.8258
如春蠶吐絲	-12.8258
玖	-12.8258
嵯	-12.8259
矍	-12.8259
肪	-12.8259
乾隆宸翰幾暇臨池二璽	-12.826
亅	-12.826
孫過庭字䖍禮	-12.826
枌	-12.826
纊	-12.826
阨	-12.8261
惚	-12.8261
濊	-12.8261
瀧	-12.8261
圻	-12.8261
齟	-12.8261
續𢎞簡録	-12.8262
踶	-12.8263
鵶	-12.8263
揠	-12.8263
孌	-12.8263
斕	-12.8263
鏹	-12.8263
闖	-12.8263
蓉	-12.8263
瀠	-12.8264
侄	-12.8264
凰	-12.8264
餒	-12.8264
篝	-12.8264
獬	-12.8264
掊	-12.8265
榕	-12.8265
濰	-12.8266
烟江叠嶂圖	-12.8266
含英咀華	-12.8267
瓞	-12.8267
嵎	-12.8267
旼	-12.8267
唐林藻深慰帖	-12.8267
昵	-12.8267
襆	-12.8268
蓓	-12.8268
悢	-12.8269
澒	-12.8269
萇	-12.827
書無量壽經	-12.8271
蔔	-12.8274
笄	-12.828
徽猷閣待制	-12.8281
邏	-12.8284
鱖	-12.8284
橊	-12.8289
一洋箋本墨書欵識云康熈	-12.8646
溧	-12.8842
裴耀卿等	-12.8941
尗	-12.8941
無銘第二器髙	-12.8948
敔	-12.8951
噤	-12.8951
砢	-12.8952
跕	-12.8952
杙	-12.8953
眵	-12.8953
飪	-12.8953
廕	-12.8954
阿彌陀佛	-12.8954
瘵	-12.8954
懺	-12.8955
舠	-12.8955
騕	-12.8955
箆	-12.8956
闠	-12.8956
闤	-12.8956
仲將之墨一㸃如漆	-12.8957
蕳	-12.8958
酩	-12.8959
泡	-12.8959
清森閣書畫印	-12.8959
旛	-12.896
人畫文殊像一軸	-12.896
鏃	-12.8961
􁄗	-12.8961
諸䟦中押縫	-12.8961
子猷訪戴	-12.8962
牣	-12.8963
瀏	-12.8963
嶻	-12.8963
集賢待制馮子振奉皇姊大長公主命題	-12.8964
䙀	-12.8964
棻	-12.8964
塼	-12.8964
胆	-12.8964
牂	-12.8964
􁎽	-12.8965
中峰和上老師侍者	-12.8965
軿	-12.8965
輊	-12.8966
殱	-12.8966
礦	-12.8967
艦	-12.8967
渻	-12.8967
凊	-12.8967
菹	-12.8968
蒭	-12.8968
鈇	-12.8968
靸	-12.8969
蘐	-12.8969
佶	-12.897
遝	-12.897
台候動止萬福	-12.897
芰	-12.897
喓	-12.8971
􁦝	-12.8971
欎	-12.8971
阯	-12.8971
梈	-12.8972
淬	-12.8972
鎚	-12.8972
殢	-12.8972
殪	-12.8972
禠	-12.8972
臝	-12.8972
澎	-12.8972
份	-12.8972
前無古人後無來者	-12.8973
舩	-12.8973
喃	-12.8973
枵	-12.8973
麵	-12.8974
愾	-12.8974
椘	-12.8974
粮	-12.8974
揵	-12.8974
墪	-12.8974
宣徳鏡光箋本	-12.8975
脁	-12.8976
劂	-12.8976
洹	-12.8977
㶁	-12.8977
饜	-12.8977
淦	-12.8977
縊	-12.8977
茜	-12.8977
黟	-12.8977
螯	-12.8978
璃	-12.8978
冄	-12.8978
嘹	-12.898
楼	-12.898
陊	-12.8981
脇	-12.8981
鑲	-12.8982
蹬	-12.8982
娼	-12.8982
遴	-12.8982
寶章待訪錄	-12.8984
腮	-12.8984
茰	-12.8986
䖝	-12.8987
枤	-12.8987
适	-12.8987
勌	-12.8989
瑠	-12.8989
驎	-12.8989
棒	-12.899
素邉素鼻無銘徑	-12.8991
骼	-12.8994
惴	-12.8995
兩柱三足有流有鋬銘二字	-12.8998
鶡	-12.9
􁪑	-12.9676
枚三十六各長五分重	-12.9698
絫	-12.971
禘	-12.9713
碌	-12.9714
曨	-12.9716
輳	-12.9717
輻	-12.9718
薙	-12.9718
娣	-12.9721
杌	-12.9722
無名氏畫道氏圖	-12.9723
橚	-12.9723
姹	-12.9724
敓	-12.9725
隟	-12.9725
鄱	-12.9726
􁞝	-12.9727
踔	-12.9727
莠	-12.9728
㨿	-12.9729
鼙	-12.9729
惔	-12.973
祅	-12.973
㭊	-12.9731
劘	-12.9731
世謬詞客前身應	-12.9731
籞	-12.9732
螫	-12.9732
試郭玘墨	-12.9732
樑	-12.9732
趙幹江行初	-12.9732
靈飛六甲經	-12.9732
寉	-12.9733
胼	-12.9733
鎪	-12.9734
閡	-12.9734
溲	-12.9734
骳	-12.9734
騏	-12.9735
蟉	-12.9735
庋	-12.9735
牸	-12.9735
之理極草縱之致不若	-12.9735
俘	-12.9735
窶	-12.9735
㳂	-12.9735
􁚗	-12.9736
慱	-12.9736
得罪始皇幽繫雲陽	-12.9736
鴞	-12.9736
澠	-12.9736
燐	-12.9736
歔	-12.9737
無欵姓名見䟦中	-12.9737
則古而不今字則長而	-12.9738
含經味道二璽	-12.9738
皥	-12.9739
杅	-12.9739
邲	-12.9739
寏	-12.9739
捃	-12.9739
朱熹仲晦父	-12.9739
襠	-12.9739
瀲	-12.9739
意足不求顔色似前身相馬九方	-12.9739
縂	-12.974
畣	-12.974
机	-12.974
腊	-12.9741
郾	-12.9741
擬峴臺記	-12.9741
八分書無書撰人姓名	-12.9741
鞲	-12.9741
灊	-12.9742
商邱宋犖審定真跡	-12.9742
疣	-12.9742
砑	-12.9742
昞	-12.9742
洧	-12.9743
煟	-12.9743
箄	-12.9743
鴂	-12.9743
貔	-12.9743
徭	-12.9743
彠	-12.9745
埓	-12.9745
籯	-12.9745
齓	-12.9745
値	-12.9746
磕	-12.9746
綈	-12.9746
卹	-12.9747
毿	-12.9747
鴆	-12.9747
淖	-12.9747
僥	-12.9747
姢	-12.9748
哩	-12.9748
送劉太冲序	-12.9748
䙫	-12.9748
鍛	-12.9748
死罪死罪	-12.9749
朐	-12.975
斮	-12.975
鱷	-12.975
祧	-12.975
閈	-12.975
㓙	-12.975
霎	-12.9751
覷	-12.9752
澦	-12.9752
扞	-12.9752
擥	-12.9753
桯	-12.9753
跖	-12.9753
臣米友仁鑒定恭跋	-12.9753
蒜	-12.9754
下有石谷子王翬之印二印	-12.9754
侠	-12.9755
壟	-12.9755
躚	-12.9755
埴	-12.9755
蠙	-12.9756
赳	-12.9756
書撰人姓名殘缺	-12.9756
鸝	-12.9756
鍚	-12.9758
偎	-12.9767
萄	-12.9774
䞇	-12.9775
鄦	-12.9776
筆流雲藻二璽	-13.0164
七分兩舞相距	-13.0518
􁏢	-13.0523
分枚三十六各長七分重	-13.0527
􁏦	-13.0538
蹐	-13.0541
塔一軸墨箋本泥金書欵識云康熈	-13.0544
大指下節骨	-13.0547
殹	-13.0547
房璘妻髙氏	-13.0552
衿	-13.0552
浟	-13.0556
鎡	-13.0556
禰	-13.0556
𥚹	-13.0557
膂	-13.0558
妮	-13.0558
蕢	-13.0559
錘	-13.056
踉	-13.056
醋	-13.056
出入者號令也屈折者殺戮也	-13.0561
幵	-13.0561
仲舒欲言災異	-13.0561
諴	-13.0562
椷	-13.0562
禔	-13.0562
口縱三寸七分横四寸	-13.0563
僰	-13.0563
闉	-13.0564
愎	-13.0564
道憑虚欲仙	-13.0564
羿	-13.0565
如右牒到奉行	-13.0565
殤	-13.0565
㤅	-13.0565
匆	-13.0566
堡	-13.0566
篘	-13.0566
奎章閣學士院鑒書博士柯九思	-13.0566
泬	-13.0566
巧趣精細殆同	-13.0566
欵識云康熙四十四年歲次乙酉	-13.0566
嫚	-13.0566
沬	-13.0566
桴	-13.0567
胞	-13.0567
櫃	-13.0567
㮄	-13.0567
隩	-13.0567
澨	-13.0567
豓	-13.0567
窬	-13.0567
幾暇鑑賞之璽	-13.0567
棅	-13.0567
醑	-13.0567
無款姓名見跋中	-13.0568
㛰	-13.0568
耽之若此未必謝之	-13.0569
嚦	-13.0569
知書畫用筆同矣	-13.057
櫚	-13.057
芭	-13.057
𤾉	-13.057
慼	-13.0571
椶	-13.0571
枮	-13.0571
踽	-13.0571
辶	-13.0571
骩	-13.0571
峒	-13.0572
饘	-13.0572
𬒳	-13.0572
蕡	-13.0572
屭	-13.0573
嵳	-13.0573
紬	-13.0573
甿	-13.0573
醁	-13.0573
耤	-13.0573
艫	-13.0574
艅	-13.0574
鰌	-13.0574
閿	-13.0574
确	-13.0575
歕	-13.0575
縧	-13.0575
蟀	-13.0575
經一本素箋䝉古字	-13.0575
篚	-13.0576
蟋	-13.0576
鸇	-13.0576
瞪	-13.0576
旐	-13.0577
鋐	-13.0577
靦	-13.0578
浮巒暖翠	-13.0578
愒	-13.0578
砰	-13.0578
泒	-13.0578
髽	-13.0578
汭	-13.0578
有佩文齋璽一	-13.0578
敭	-13.0579
􁎐	-13.0579
獼	-13.0579
梏	-13.058
噶	-13.058
澱	-13.058
咬	-13.058
珝	-13.058
敻	-13.0581
鍮	-13.0581
浼	-13.0581
書畵彚考卷二十	-13.0581
獾	-13.0581
縗	-13.0581
熖	-13.0582
襖	-13.0582
㴠	-13.0582
乩	-13.0582
渦	-13.0582
􁪘	-13.0583
金薤琳瑯	-13.0583
蔌	-13.0584
躑	-13.0584
鴒	-13.0585
寳真齋法書贊	-13.0587
阮孚蠟屐圖	-13.0588
圮	-13.0589
駔	-13.0589
昴	-13.0589
璅	-13.0591
唁	-13.0591
厖	-13.0591
磽	-13.0591
喑	-13.0592
筀	-13.0592
行書無書撰人姓名	-13.0592
柵	-13.0592
瞋	-13.0594
垍	-13.0595
擿	-13.0596
濼	-13.0597
姱	-13.06
甆	-13.06
灧	-13.06
鄽	-13.0601
嫘	-13.0603
鈺	-13.0615
右高四寸四分深三寸	-13.0782
乾隆宸翰攜筆流雲藻	-13.1007
只公乎歸徠	-13.1418
工欲善其事必先利其器	-13.1446
熲	-13.1457
稺	-13.1459
俅	-13.1459
寬	-13.146
臚	-13.1462
簴	-13.1463
酺	-13.1464
諼	-13.1464
籹	-13.1464
柎	-13.1465
堈	-13.1465
鬳	-13.1466
學士承㫖榮禄大夫知制誥兼修國史	-13.1466
孛	-13.1467
繖	-13.1467
册計三十九頁第	-13.1467
忼	-13.1468
韋誕書如龍威虎振	-13.1468
囉	-13.1468
券	-13.1469
也園索氏收藏書畫	-13.1469
晧	-13.1469
明潘之淙撰	-13.1469
欬	-13.1469
􁄏	-13.1469
裠	-13.147
鼂	-13.147
邴	-13.147
翨	-13.147
妳	-13.147
犒	-13.147
榾	-13.147
鵪	-13.1471
喋	-13.1471
𬒮	-13.1472
巴延布哈	-13.1472
㮚	-13.1472
旟	-13.1472
鏖	-13.1472
柈	-13.1473
右高四寸五分深三寸	-13.1473
儿	-13.1473
行間茂密實亦難過	-13.1473
罐	-13.1474
欵識云康熙四十六年歲次丁亥	-13.1474
曅	-13.1475
咿	-13.1475
鏑	-13.1475
壷	-13.1475
痾	-13.1476
溼	-13.1476
刅	-13.1476
埤	-13.1477
聵	-13.1477
􁚳	-13.1477
有八體一曰大篆二曰小篆三曰刻符	-13.1477
蝣	-13.1477
􁩉	-13.1478
妘	-13.1478
熺	-13.1478
綍	-13.1478
鏟	-13.1478
鐵圍山叢談	-13.1479
胙	-13.1479
嫻	-13.1479
韝	-13.1479
裼	-13.1479
棱	-13.1479
黔寧王子子孫孫永保之	-13.1479
湓	-13.148
珷	-13.148
坏	-13.148
憸	-13.148
夫紙者陣也筆者刀矟也墨者	-13.148
弑	-13.1481
暠	-13.1481
烜	-13.1481
朞	-13.1481
旺	-13.1481
知二合也時和氣潤三合也	-13.1481
譍	-13.1482
賫	-13.1482
臾	-13.1482
讋	-13.1482
獨右軍次至大令	-13.1482
纛	-13.1483
辣	-13.1483
􁎾	-13.1483
爆	-13.1484
玞	-13.1484
蘗	-13.1484
蛱	-13.1484
届	-13.1484
葅	-13.1484
沕	-13.1484
毣	-13.1485
箎	-13.1485
纏	-13.1485
石如飛白木如籀	-13.1485
饁	-13.1485
嬬	-13.1485
笞	-13.1485
揮霍如蓴菜條	-13.1486
西域字無量夀智經	-13.1486
撻	-13.1486
彭頓首墨林尊兄	-13.1486
颭	-13.1486
䌫	-13.1487
囦	-13.1487
鏌	-13.1487
􁁪	-13.1487
䍐	-13.1487
湃	-13.1487
云頃尋諸名書鍾張信為絶倫其餘不足	-13.1488
歗	-13.1488
蚨	-13.1488
醨	-13.1488
紕	-13.1488
佀	-13.1488
醲	-13.1489
夤	-13.1489
曌	-13.1489
褷	-13.1489
鶴山中樵者王蒙	-13.149
張時徹寧波	-13.149
礧	-13.149
澑	-13.149
彘	-13.1491
一代祖導十代祖洽九代祖珣八代祖曇	-13.1491
緄	-13.1491
慇	-13.1492
暍	-13.1492
雯	-13.1492
紫桃軒又綴	-13.1492
𣪚	-13.1493
戞	-13.1493
紫桃軒雜綴	-13.1493
蹭	-13.1493
穽	-13.1493
皇朝事實類苑	-13.1494
忉	-13.1494
頞	-13.1494
􁠸	-13.1494
垝	-13.1496
悊	-13.1497
㓗	-13.1497
溱	-13.1497
莅	-13.1497
餬	-13.1498
㳄	-13.1498
晢	-13.1498
秔	-13.1498
靉	-13.1499
爬	-13.1499
糖	-13.1499
椉	-13.1501
澮	-13.1502
雊	-13.1502
蓰	-13.1502
鶵	-13.1503
蹌	-13.1504
佟	-13.1504
䓁	-13.1504
爕	-13.1505
鼯	-13.1506
娵	-13.1508
坾	-13.1511
甦	-13.1511
鷦	-13.1514
圑	-13.1517
鞫	-13.152
篌	-13.1532
三分兩舞相距	-13.2439
分耳髙一寸五分濶一寸	-13.244
彳	-13.2445
饙	-13.2445
索靖書如飄風忽舉鷙鳥乍飛	-13.2455
沭	-13.2456
冑	-13.2456
嚕	-13.2457
諉	-13.2457
斒	-13.2458
蒞	-13.246
元僧道肯篆書金剛經	-13.246
汞	-13.246
戣	-13.246
茀	-13.2461
雇	-13.2462
鉶	-13.2463
哢	-13.2465
詬	-13.2466
􁇾	-13.2466
𧦬	-13.2467
娩	-13.2467
入鴻都觀碣十旬不	-13.2467
真以㸃畫為形質使轉為	-13.2468
裀	-13.2468
焱	-13.2469
􁡯	-13.2469
紏	-13.247
緐	-13.247
窕	-13.247
湖廣按察使王毓賢撰	-13.247
皖	-13.2471
沇	-13.2471
㬥	-13.2472
册計四十三頁第	-13.2472
劚	-13.2472
曲之勢俯察龜文鳥跡之象	-13.2472
嫮	-13.2472
蕭子雲書如上林春花逺近瞻望無處不	-13.2473
韙	-13.2473
鬴	-13.2473
𤇺	-13.2474
荑	-13.2474
未署款姓氏見跋中	-13.2474
氤	-13.2475
螘	-13.2475
心遽體留一乖也意違勢	-13.2475
殛	-13.2475
鈎筆轉角折鋒輕過	-13.2475
診	-13.2476
馹	-13.2476
坻	-13.2476
咊	-13.2477
家兄書煥若神明頓還舊觀	-13.2477
自非通靈感物不可與談斯道	-13.2478
髥	-13.2478
絙	-13.2478
醻	-13.2478
閆	-13.2478
紙墨不稱四乖也情怠手	-13.2478
紙墨相發四合也偶然欲書五合也	-13.2478
氍	-13.2479
哆	-13.2479
懟	-13.2479
鍪	-13.2479
謟	-13.2479
頙	-13.2479
兟	-13.2479
獎	-13.2479
筆愈簡而氣愈壯景愈少而意愈長	-13.248
深則伯度第一若章則勁骨天縱	-13.2481
玕	-13.2482
鼾	-13.2482
字叔夜譙國銍人	-13.2482
騄	-13.2482
蚿	-13.2482
匄	-13.2483
姜詡梁宣田彦和	-13.2483
鼕	-13.2483
䍦	-13.2484
迕	-13.2484
酎	-13.2484
顇	-13.2484
屈二乖也風燥日炎三乖也	-13.2484
殃	-13.2485
炅	-13.2485
噩	-13.2485
碟	-13.2485
嶭	-13.2485
型	-13.2486
㕍	-13.2486
閹	-13.2486
􁷽	-13.2486
枹	-13.2486
僨	-13.2487
剙	-13.2487
嘵	-13.2487
骯	-13.2487
眯	-13.2487
􁐓	-13.2488
荗	-13.2488
磑	-13.2488
庥	-13.2488
徉	-13.2489
媯	-13.2489
蒼巖子梁清標玉立氏印章	-13.2489
霣	-13.2489
趞	-13.2489
辮	-13.249
惸	-13.249
飴	-13.249
鄘	-13.2491
故當勝安云物論殊不爾子敬	-13.2491
瘼	-13.2492
麌	-13.2492
蜷	-13.2492
癘	-13.2493
箝	-13.2493
酴	-13.2494
昫	-13.2494
㩗	-13.2494
胛	-13.2495
藟	-13.2495
髠	-13.2495
畯	-13.2495
歜	-13.2495
蝀	-13.2495
皃	-13.2495
桎	-13.2495
浡	-13.2495
箒	-13.2496
秭	-13.2496
煢	-13.2496
蒓	-13.2497
尫	-13.2498
棫	-13.2498
蔀	-13.2498
珤	-13.2498
㵸	-13.25
惪	-13.25
担	-13.25
詼	-13.25
篪	-13.25
􁋺	-13.25
䊵	-13.25
郙	-13.2501
袛	-13.2501
菱花式背作	-13.2502
盧攜臨池妙訣	-13.2502
侹	-13.2504
葡	-13.2505
毆	-13.2505
妷	-13.2505
佈	-13.2505
跬	-13.2506
臍	-13.2506
特進上卿𤣥教大宗師	-13.2506
穣	-13.2508
搘	-13.2515
垂拱御扆夾竹海棠鶴圖	-13.2522
枚三十六各長六分重	-13.3547
攠	-13.3555
分枚三十六各長四分重	-13.3555
寸廣二尺五寸聖祖仁皇帝書心經	-13.356
尨	-13.3562
軹	-13.3563
􁌫	-13.3565
口縱三寸四分横四寸	-13.3566
兩有流有提梁三足右通蓋高	-13.3567
摳	-13.3567
䢴	-13.3567
硤	-13.3568
胐	-13.3568
執之在手手不主運運之在腕腕不	-13.3571
姞	-13.3571
忿怒咒第三十	-13.3571
名山比見李斯曹喜等書又之許	-13.3572
襴	-13.3572
鄷	-13.3572
􁰳	-13.3572
㬠	-13.3573
怎	-13.3574
摰	-13.3574
趕	-13.3576
染翰二璽前有樂善堂一璽	-13.3576
舐	-13.3576
灕	-13.3576
琖	-13.3576
嘛	-13.3577
趵	-13.3578
倥	-13.3578
縲	-13.3578
莩	-13.3578
蕝	-13.3578
砲	-13.3579
敺	-13.3579
筆而成偶有不連而血	-13.358
湯叔雅霜入千林圖	-13.3581
瞀	-13.3581
呆	-13.3581
嚞	-13.3582
瀞	-13.3582
騂	-13.3582
始變古文或同或異謂之	-13.3582
幇	-13.3583
鞘	-13.3583
法言不盡意遂不能成	-13.3583
噎	-13.3583
鬅	-13.3583
摻	-13.3583
橢	-13.3583
犉	-13.3583
小心布置大膽落筆	-13.3583
鯈	-13.3584
橄	-13.3584
賙	-13.3584
經一本磁青箋泥金書蒙古字	-13.3585
蹡	-13.3585
綷	-13.3585
𬎼	-13.3585
㪟	-13.3585
夫鷹隼乏彩而翰飛戾天骨勁而氣	-13.3585
廱	-13.3586
蟲書五曰摹印六曰署書七曰殳書八曰	-13.3586
㪍	-13.3587
之間多有異趣可謂幽深無際古雅有餘	-13.3587
早年行筆差細中年行筆	-13.3587
哄	-13.3587
坿	-13.3587
拐	-13.3587
孶	-13.3587
溘	-13.3587
晼	-13.3587
驊	-13.3588
㴶	-13.3588
􁴱	-13.3588
菻	-13.3588
畫如鐵石字若飛動作楷	-13.3589
𥙷	-13.3589
䧏	-13.3589
縐	-13.3589
弫	-13.3589
吾之所為皆先作意是以果能成	-13.3589
飣	-13.3589
憿	-13.359
册計三十七頁第	-13.359
下有宗伯學士董氏元宰二印	-13.359
寶親王長春居士題	-13.359
咸有生意溪橋漁浦洲渚掩映一片江南	-13.359
喏	-13.359
抔	-13.3591
鯖	-13.3591
問何不逐節分曰竹生時何	-13.3591
帬	-13.3591
是知逸少之比鍾張則	-13.3591
真行之要子敬執行草之	-13.3591
啁	-13.3591
詗	-13.3591
似崇臺重宇層雲冠山	-13.3591
檳	-13.3592
齮	-13.3592
韍	-13.3592
真行妍美粉黛無施則逸少第一	-13.3592
㪺	-13.3592
羜	-13.3592
熄	-13.3593
李韞陳基傅廷堅張紹	-13.3593
逺而望之若飛龍在天近而	-13.3593
抨	-13.3594
瀜	-13.3594
螙	-13.3594
韓熈載夜宴圖	-13.3594
諏	-13.3595
鷰	-13.3595
燀	-13.3595
曀	-13.3595
隮	-13.3595
岊	-13.3595
畚	-13.3595
擄	-13.3595
賨	-13.3595
子敬可謂武盡美矣未盡善也逸少可謂	-13.3595
楝	-13.3595
若章草古逸極致	-13.3595
下有寳親王寳長春居士二璽	-13.3595
歧	-13.3595
宂	-13.3595
籓	-13.3595
背作海獸四外輪列	-13.3595
二十四卷紙書金軸二	-13.3596
狨	-13.3597
乞居常州奏狀	-13.3597
㯶	-13.3597
匯	-13.3597
二王縑素書珊瑚軸二	-13.3598
偰	-13.3598
枘	-13.3598
而永保先業從人欲而不顧兼金	-13.3598
骫	-13.3598
盒	-13.3598
儈	-13.3598
頬	-13.3598
勦	-13.3599
嚲	-13.3599
刑部左侍郎卞永譽撰畫	-13.3599
有心急而執筆緩者有心緩而執筆急者	-13.36
㻮	-13.36
淡墨為之而水天空處全用粉填	-13.36
縆	-13.36
靆	-13.36
默	-13.3601
讖	-13.3601
厰	-13.3601
螣	-13.3601
矇	-13.3602
痿	-13.3602
黷	-13.3602
歊	-13.3602
屺	-13.3602
夬	-13.3602
驃	-13.3602
賅	-13.3602
㬅	-13.3602
唶	-13.3603
唄	-13.3603
𢋫	-13.3604
贔	-13.3604
僇	-13.3604
絸	-13.3604
佘	-13.3605
嘐	-13.3605
鋏	-13.3605
蜺	-13.3605
懍	-13.3605
㹀	-13.3605
襕	-13.3606
醿	-13.3606
陘	-13.3606
刧	-13.3606
虎兒筆力能扛鼎教字元暉繼阿章	-13.3606
蚶	-13.3607
炮	-13.3607
櫜	-13.3607
袗	-13.3608
釧	-13.3608
螟	-13.3609
應受苦報我皆代受	-13.3609
禴	-13.361
嶢	-13.361
楂	-13.361
淯	-13.361
蜑	-13.361
頟	-13.361
􁦁	-13.361
鞬	-13.361
願從今日盡未來世不復	-13.3611
蓂	-13.3612
輶	-13.3612
㮣	-13.3613
筥	-13.3614
釗	-13.3614
􁒷	-13.3614
㝛	-13.3614
𠡠	-13.3615
獧	-13.3619
煽	-13.362
䙰	-13.362
詶	-13.3621
栲	-13.3623
趋	-13.3624
蕫	-13.3626
麞	-13.3628
搰	-13.3637
前後經名下俱有貝葉文	-13.4626
六分有旋兩舞相距	-13.4795
攔	-13.4806
諵	-13.4806
仰筆趯鋒輕擡而進	-13.4808
匚	-13.4809
𥪡	-13.4811
嬋	-13.4812
踧	-13.4812
流雲邉獸鼻無銘徑	-13.4812
乾夕惕雍正宸翰二璽前有為君難一璽	-13.4812
剳	-13.4815
广	-13.4816
挖	-13.4817
恚	-13.4817
臟	-13.4818
鬙	-13.4819
饔	-13.4819
氳	-13.482
攴	-13.4821
而忙行筆勢莫以字大難而	-13.4821
為波必磔貴三折而遣毫	-13.4822
梁世摹出天下珍之	-13.4822
枷	-13.4822
㷆	-13.4822
毚	-13.4823
䛒	-13.4823
飃	-13.4823
不欲遲遲則中物不入	-13.4823
莵	-13.4823
王儀同書如晉安帝非不處尊位而都	-13.4823
卮	-13.4823
嵋	-13.4824
覦	-13.4824
亦不得急令墨不入紙若急作意思淺薄	-13.4824
襜	-13.4824
偬	-13.4824
跅	-13.4825
誹	-13.4826
𨫼	-13.4826
撡	-13.4826
分而為義則文者祖父字者子孫	-13.4826
以中指頓筆然後以大指遣至盡處	-13.4826
玲	-13.4826
櫬	-13.4828
桶	-13.4828
氾	-13.4828
名為體共習分區豈知情動形言取	-13.4828
嫫	-13.4829
撘	-13.4829
儇	-13.483
悛	-13.483
楚音習夏不能無楚過言不悒未為篤論	-13.4831
學分布但求平正既知平正務追險絶既	-13.4831
龠	-13.4831
柷	-13.4831
鍾繇字元常潁川長社人	-13.4831
耿㑹侯鑑定書畫之章	-13.4831
闒	-13.4831
運之欲活不可以指運筆當以腕運筆	-13.4831
楛	-13.4832
㐲	-13.4832
虡	-13.4832
丼	-13.4832
而變之以成今草轉精其妙字之體勢一	-13.4832
􁥾	-13.4832
黧	-13.4832
幪	-13.4832
漷	-13.4833
帀	-13.4833
癩	-13.4833
手敏難以兼通者焉	-13.4833
螽	-13.4833
騤	-13.4833
𥚑	-13.4833
鍠	-13.4833
樅	-13.4834
王獻之字子敬羲之第七子	-13.4834
篆篆者傳也傳其物理施之無窮	-13.4834
毌	-13.4834
丷	-13.4834
書代多稱習良可據為宗匠取立	-13.4834
淂	-13.4834
司空許州都督趙國公臣無忌	-13.4834
䴡	-13.4835
劻	-13.4835
異衆㸃齊列為體互乖一㸃成一字之	-13.4835
經一本磁青箋泥金書䝉古字	-13.4835
刾	-13.4835
闞	-13.4835
杆	-13.4835
猛也翬翟備色而翺翔	-13.4835
此是僕數年前寓平江光孝	-13.4835
􁱝	-13.4835
䔩	-13.4836
濘	-13.4836
㨂	-13.4836
楷法字方八分言有模楷	-13.4836
所得至正四年十月來溪上足其意時年	-13.4836
燉	-13.4837
蔞	-13.4837
蚯	-13.4837
桺	-13.4837
翿	-13.4837
空照灼而無依蘭沼漂萍徒青翠而奚	-13.4837
在故相張公齊賢孫	-13.4837
怯滯令險峻而成	-13.4837
卷餘並墜失元悌等又	-13.4837
龍跳天門虎卧鳯	-13.4837
是知偏工易就盡善難求雖	-13.4837
散漫此山谷幸乏霖雨姿何妨媚幽獨	-13.4837
黥	-13.4838
狀如算子上下方整前後齊平	-13.4838
兊	-13.4838
御史以奏事繁多篆字難成乃用	-13.4838
烺	-13.4838
睱	-13.4838
縋	-13.4839
屮	-13.4839
楷則自可背羲獻而無失	-13.4839
詈	-13.4839
曲直乍顯乍晦若行若	-13.4839
畫皆有筋骨字體自然雄媚	-13.4839
理深也今吾臨古人之書殊不學其形勢	-13.4839
巓	-13.4839
菅	-13.484
凘	-13.484
潤鼓之以枯勁和之以	-13.484
者字之手足伸縮異	-13.484
桄	-13.4841
籩	-13.4841
胚	-13.4841
皛	-13.4841
觳	-13.4841
觕	-13.4841
轎	-13.4841
兗	-13.4841
然張精熟池水盡墨假令寡人	-13.4841
弢	-13.4841
怤	-13.4841
湍流帶右天五字	-13.4841
二卷又紙書飛白章草二	-13.4841
持入秀州崇徳邑中	-13.4841
椑	-13.4841
琲	-13.4841
硾	-13.4841
蜆	-13.4841
逸少兼之擬草則餘真比真則	-13.4842
蹷	-13.4842
𫐠	-13.4842
光儀而聆其謦欬	-13.4842
枸	-13.4842
其中本六朝妙處醖釀風骨自然超逸	-13.4843
鬉	-13.4843
帝姓蕭氏諱道成字紹伯	-13.4843
亦有是梁隋官本者梁則滿騫徐僧權沈	-13.4843
務從簡易相間流行故謂之行書	-13.4843
得時不如得器得器不如得志	-13.4843
麏	-13.4843
桼	-13.4843
善筆力者多骨不善筆力者多肉多骨	-13.4843
十四卷又紙書玳瑁軸五	-13.4843
􁇛	-13.4843
猾	-13.4844
始作書契紀綱萬事垂法立制	-13.4845
潸	-13.4845
敡	-13.4845
槮	-13.4845
卩	-13.4845
鋈	-13.4845
鐻	-13.4845
馘	-13.4845
王次仲上谷人少有異志	-13.4846
皜	-13.4846
桁	-13.4846
逑	-13.4847
之縫有元章戲筆字印中間筆氣甚有如	-13.4847
四目通於神明仰觀奎星	-13.4847
祟	-13.4847
見離居情知海上三年别不寄雲間一	-13.4847
郟	-13.4847
彂	-13.4847
鸐	-13.4847
嘗謂朝臣曰書學小道初非急	-13.4847
宧	-13.4847
書之冠冕也自此以下别有	-13.4847
澇	-13.4847
㐰	-13.4847
籐	-13.4847
逥	-13.4847
綂	-13.4847
心手不齊意後筆前者敗	-13.4848
㬉	-13.4848
裓	-13.4848
開府儀同三司上柱國梁國公臣姚崇	-13.4848
搢	-13.4848
湥	-13.4848
舡	-13.4848
襞	-13.4848
黓	-13.4849
舳	-13.485
剴	-13.485
花蝶邉素鼻無銘徑	-13.485
冂	-13.485
陗	-13.485
霞舒雲卷無所間然但其體	-13.485
吒	-13.4851
瑇	-13.4851
紞	-13.4851
則變化無方則伯英第一其間備精諸體	-13.4851
塌	-13.4852
再從伯祖羲之書先有四十餘	-13.4852
鶗	-13.4852
江河是也四曰㑹意武信是也五曰轉注	-13.4852
都山仙都觀朝金殿西壁有天成	-13.4852
中宗時中書令宗楚客	-13.4853
憕	-13.4854
䰟	-13.4854
穸	-13.4855
常欲使其透過紙背	-13.4855
蔴	-13.4855
蝇	-13.4856
捎	-13.4856
沲	-13.4856
楔	-13.4856
軺	-13.4856
貞觀六年正月八日命整理御府古今	-13.4856
峪	-13.4856
鳲	-13.4857
㭿	-13.4857
俜	-13.4858
得素書八角垂芒頗似篆	-13.4858
醞	-13.4858
屓	-13.4858
濙	-13.4858
鸓	-13.4858
笱	-13.4858
蟆	-13.4858
坯	-13.4858
捶	-13.4859
獮	-13.4859
蝎	-13.4859
觀水有術必觀其瀾	-13.486
裛	-13.486
橒	-13.486
淝	-13.4861
窳	-13.4861
䘖	-13.4861
餔	-13.4862
瀦	-13.4862
炡	-13.4862
奧	-13.4863
㴞	-13.4864
者非具頂門上慧眼者不足以	-13.4865
僴	-13.4865
嚨	-13.4865
㫄	-13.4865
坵	-13.4867
澼	-13.4867
皪	-13.4868
閾	-13.4869
桿	-13.4869
鵊	-13.487
嶬	-13.4871
虱	-13.4871
嘑	-13.4871
呱	-13.4872
稊	-13.4872
汛	-13.4874
痒	-13.4876
㙮	-13.488
惛	-13.4881
矼	-13.4884
𬞞	-13.4884
濲	-13.4888
鶼	-13.489
姣	-13.6222
令取登對勿使腰中傷慢視筆取勢直截	-13.6223
鐲	-13.6226
穡	-13.6228
寸真一行二草三指實掌	-13.6229
俁	-13.6232
羅漢像一軸元人畫羅漢像一軸元人畫	-13.6234
觗	-13.6234
右軍背趯戈法上則俯而過下則曲而就	-13.6235
偲	-13.6236
医	-13.6238
輜	-13.6241
㪉	-13.6241
堠	-13.6243
㠭	-13.6243
狶	-13.6243
搓	-13.6245
叮	-13.6245
􁂧	-13.6245
蜒	-13.6247
匧	-13.6247
毹	-13.6247
此則其大較矣張伯英臨池學書池水盡	-13.6247
永師登樓不下四十餘年張公精熟號	-13.6247
以張融王僧䖍為則體用得法意氣有餘	-13.6249
槭	-13.6249
首師虞後又學史乃謂陵曰	-13.625
綌	-13.625
謝家子弟縱復不端正	-13.625
洚	-13.625
屎	-13.625
饉	-13.6251
遺墨得其一㸃一畫皆昭然絶異者以	-13.6251
耍	-13.6252
礽	-13.6252
隨人作計終後人自成一家始逼	-13.6252
屆	-13.6252
㬇	-13.6253
窮理盡性事絶言象包前孕後古今獨立	-13.6253
矩父不親教自古有之	-13.6253
十遲五急十曲五直十藏五出十起五伏	-13.6253
頓向右以大指齊頓作報	-13.6253
字總竟然後安㸃其㸃須空中	-13.6253
徕	-13.6253
下見鍾繇梁鵠書又之洛下見蔡邕石經	-13.6253
手為輔承命竭股肱之用	-13.6253
鵞獻右軍乞書黄庭經此是也	-13.6253
押等不用此勢但用	-13.6254
崺	-13.6254
􁅔	-13.6254
袓	-13.6254
驦	-13.6254
懂	-13.6255
令左短右長斜正如人上稱下載	-13.6256
摵	-13.6256
細而能壯長者不為有餘短者不為不足	-13.6256
本領者將軍也心意者副將也	-13.6256
眦	-13.6256
子雲乃以篆文為之雅合帝意	-13.6256
用轉折欲少駐駐則有力轉	-13.6256
釂	-13.6257
筆即直過惟有章草及章程行	-13.6257
稂	-13.6257
湟	-13.6257
懸針者筆欲極正自上而下端若引繩	-13.6257
魏遺墨故斷自西晉	-13.6258
云下士聞道大笑之不笑	-13.6258
貞明庚辰秋也晉都梁苑因重背之中書	-13.6258
苒	-13.6258
始以古書方廣少波勢	-13.6258
既失其情理乖其實原夫所致安有體哉	-13.6259
駪	-13.6259
灩	-13.6259
乎無際庖丁之目不見全牛	-13.6259
章草之書字字區别張芝變為今草	-13.6259
務遒勁則俗病不除	-13.6259
魑	-13.6259
禳	-13.6259
跽	-13.6259
論翼乃讀之依此法學名遂大振	-13.626
肥則形濁又不欲太	-13.626
更成大病古人作草如今人作真何嘗	-13.626
郳	-13.626
驔	-13.626
鬪	-13.626
今不可復觀唐太宗云行行若縈春	-13.626
代山谷老人自謂得長沙三昧草書之法	-13.626
生數紀之内識解不能周流天壤區區惟	-13.626
須盡一身之力而送之	-13.626
鉊	-13.6261
睒	-13.6261
悁	-13.6261
嘒	-13.6261
知起止不悟轉換隨意用筆任筆賦形失	-13.6261
蠍	-13.6262
婭	-13.6262
有學而不能未有不學而能者也	-13.6262
鞶	-13.6262
月收之其筆頭長一寸管長五寸鋒齊腰	-13.6262
鬒	-13.6262
咍	-13.6262
杇	-13.6262
鄲	-13.6262
抅	-13.6262
求筆法或有得者皆曰神妙	-13.6262
袁崧書如深山道士見人便欲退縮	-13.6262
再生筆意不若用垂露耳	-13.6262
行法小令破體皆一時之妙近古	-13.6263
尺牘必珍足無輟行手不	-13.6263
臨書易進摹書易忘經意與不經意也	-13.6263
􁐠	-13.6263
然者又一字之體率有多變有起	-13.6263
澉	-13.6264
此中妙懐素自言初不知	-13.6264
餱	-13.6264
多變濟成厥美各有攸宜篆尚	-13.6264
蜘	-13.6265
朱巨川告顔書其孫灌園	-13.6265
鍧	-13.6265
騑	-13.6265
過信乎其書之工也然其為人	-13.6265
若黍稷之垂穎藴若	-13.6265
草乖使轉不能成字真虧㸃畫猶可記文	-13.6265
中發人意氣若直取俗字	-13.6265
者拳曲而伶仃古木節多而半死寒林扶	-13.6265
絶致者也寫樂毅則情多	-13.6265
形慢拘則乏勢放又少則	-13.6265
作參政傾朝學之號曰朝體	-13.6265
繶	-13.6265
思通楷則少不如老學成規矩	-13.6265
獻之始學父書正體乃不相似至於	-13.6266
暱	-13.6266
子敬十二字氣壓鄴侯三萬	-13.6266
古文者黄帝史蒼頡所造也頡首	-13.6266
廱泮育賢今日盛彚征無復隠蒿萊	-13.6266
形俱環以結枝蒲萄垂雲邉獸鼻無銘徑	-13.6266
精一體以致絶倫伯英不真而㸃畫狼	-13.6266
齅	-13.6266
遲以取妍速以取勁	-13.6267
𥜗	-13.6267
耿昭忠信公氏一字在良别號長白山長	-13.6267
子敬之不迨逸少猶逸少之不迨元常	-13.6267
覡	-13.6267
而矜巧自與衆頗惑之	-13.6267
弮	-13.6267
愛書可於朝堂開示圉師見甚驚喜私謂	-13.6267
闕而體質存焉若遒麗居優骨氣	-13.6267
􁮖	-13.6267
遲重夫勁速者超逸之機遲留者賞	-13.6267
波常三過折筆每作一㸃常隠鋒而為之	-13.6267
潺	-13.6268
凌霜雪而彌勁花葉鮮茂與雲	-13.6268
書與遼東諸將謂許敬宗曰許圉師	-13.6268
百出而求其源流無一㸃畫不該規矩者	-13.6268
貴能古不乖時今不同弊	-13.6268
靿	-13.6268
媫	-13.6268
篆所以摹印也六曰鳥書所以書幡信也	-13.6268
造化異類而求之固不取乎	-13.6268
縚	-13.6268
雍容内涵筋骨或折挫槎枿外	-13.6269
媍	-13.6269
突過其陣自背而反	-13.6269
章草頗為知言然歐陽飛白曠古無比	-13.6269
􁊸	-13.6269
嚇	-13.6269
楫左副頁有王叔承朱朝貞題句二第	-13.6269
䣛	-13.627
對曰臣書臣中第一陛下書帝中第一	-13.627
藏字則有病病且未去能何有焉字不欲	-13.627
人家藏右軍扇上真書宣示及小王行書	-13.627
惝	-13.627
有蕉林梁氏書畫之印家在北澶二印	-13.6271
丫	-13.6271
髙積學深至心手相應變	-13.6271
㓨	-13.6271
醽	-13.6271
引手然後得之其不得者咸稱洎登	-13.6271
學不該贍聞見又寡致使成功不就	-13.6271
罣	-13.6271
鞓	-13.6271
千山耿信公書畫之章	-13.6271
鞮	-13.6271
瑑	-13.6271
荳	-13.6271
求市易道士不與百方譬	-13.6271
洌	-13.6271
睽	-13.6271
聪	-13.6271
若真書古雅道合神明則元常第一若	-13.6272
閠	-13.6272
侏	-13.6272
蕘	-13.6272
騎騾駸駸恒欲度驊騮前	-13.6272
愞	-13.6272
李邕多熱要葛粉帖	-13.6273
䪥	-13.6273
尻	-13.6273
恉	-13.6273
旓	-13.6273
古質而今妍數之常	-13.6273
世將上晉元帝二表逸少曹娥帖	-13.6273
圅	-13.6274
岀	-13.6274
囁	-13.6274
丏	-13.6274
忺	-13.6274
掎	-13.6274
楶	-13.6274
籭	-13.6274
𣢾	-13.6274
有若象夫子尚興闕里門虎賁	-13.6274
或云後漢亦有王次仲為上谷太守	-13.6274
􁦍	-13.6274
廋	-13.6274
張方之二王可謂古矣豈得無妍質之殊	-13.6274
愛妍而薄質人之情	-13.6274
叔茂體裁簡約肌骨豐	-13.6274
皐	-13.6274
柮	-13.6274
蒼巗子梁清標玉立氏印章	-13.6274
􁓸	-13.6274
逯	-13.6274
寒書似留臺差少肉	-13.6274
頀	-13.6274
茭	-13.6275
當世家西昇經不同雖有裴度	-13.6275
愳	-13.6275
部尚書莒國公臣唐儉	-13.6275
纁	-13.6276
毀	-13.6276
時或留心猶勝棄日凡諸	-13.6276
灺	-13.6276
砦	-13.6276
巧凡家之衣帛必書而後	-13.6276
瑪	-13.6276
潇	-13.6277
閧	-13.6277
㐫	-13.6277
与	-13.6277
墼	-13.6277
栟	-13.6277
蛆	-13.6277
有功無性神彩不生有性無功神	-13.6277
瓊林侍從皆預酒半	-13.6277
京云大豪郭氏分内一房欲此帖至	-13.6277
嘉熙三年冬十有一月望後	-13.6277
䛕	-13.6277
丹崖絶壑筆勢堅勁	-13.6277
八分者秦羽人上谷王次仲所作	-13.6277
深第二前發第三汝官第四昨日第五承	-13.6277
糿	-13.6277
鸂	-13.6278
頡為上篇訓纂為中篇滂喜為下篇	-13.6278
才弟子所書故特闕其祖師二名耳	-13.6278
迮	-13.6278
御武成殿示羣臣仍令中書舍人崔融為	-13.6278
紙色行墨絶相類遂定為米老所臨無疑	-13.6278
䦨五乖也乖合之際優劣互差	-13.6278
怗	-13.6279
髒	-13.6279
􁕓	-13.6279
畮	-13.6279
謝奉起廟悉用棐材右軍取	-13.6279
侍讀昭文館學士上柱國常山縣開國公	-13.6279
榿	-13.6279
鍪甲也水硯者城池也	-13.6279
體縱復晉代諸賢亦	-13.6279
嵊	-13.6279
士季之範元常猶子敬之	-13.6279
蓁	-13.628
鏄	-13.628
嚅	-13.628
鷀	-13.628
緲	-13.628
炒	-13.628
痰	-13.628
張得其肉陸得其骨顧得其神	-13.628
沴	-13.628
㶏	-13.628
麐	-13.628
珫	-13.6281
疋素自朝操筆至暮便竟首尾如一又無	-13.6281
嫺	-13.6281
此卷筆法絶類米老往見乞米帖	-13.6281
窈窕出入如飛白耿介特立如鶴頭	-13.6281
辦而無人能書府君若能自屈	-13.6282
圬	-13.6282
亦甚合奉並珍録奉後孫履分半與桓𤣥	-13.6282
王志開善寺碑猶有鍾王遺範	-13.6282
郅	-13.6282
霪	-13.6283
㰎	-13.6283
䰞	-13.6283
傒	-13.6283
鸕	-13.6283
琊	-13.6283
艎	-13.6283
坱	-13.6283
楊師道等六人於是在外乃有六本	-13.6283
延安君則快速不滯若懸流得勢	-13.6283
渼	-13.6283
霡	-13.6284
矉	-13.6285
霂	-13.6285
與六籍同功四時並運	-13.6285
蝱	-13.6286
蟣	-13.6286
􁂫	-13.6286
丁貴人彈曲項琵琶圖	-13.6286
沗	-13.6287
觝	-13.6287
漴	-13.6287
媞	-13.6288
跨羣雄曠代絶筆	-13.6288
餮	-13.6289
鷕	-13.6289
兪	-13.6289
間布白勿令偏側	-13.6289
嗒	-13.6289
各有態玉環飛燕誰敢憎	-13.629
密而無間小字難於寛綽而有餘	-13.629
玟	-13.6291
突圖自笑頂門無慧眼臨	-13.6291
緍	-13.6292
妙筆纔一二像已應焉離披㸃畫時見	-13.6292
筆老墨秀挾海上風濤之氣	-13.6292
紲	-13.6292
訏	-13.6292
㦲	-13.6292
譛	-13.6292
潨	-13.6292
龍眠那知已出曹韓上	-13.6293
鮑夫人能守師繩不輕墜可憐聞名未識	-13.6293
鰥	-13.6294
兌	-13.6294
蝙	-13.6294
滫	-13.6295
結字因時相傳用筆千古不易	-13.6295
牯	-13.6297
郿	-13.6297
媳	-13.6297
蝠	-13.6298
生事折腰為米大非得已此卷慎勿與人	-13.6298
欲得之尠有曉余所以為	-13.6298
右軍字勢古法一變其雄秀之氣出	-13.6298
菔	-13.6299
師資小王深入閫域	-13.6301
皞	-13.6304
霶	-13.6304
佹	-13.6304
琟	-13.6305
夌	-13.6307
襮	-13.6307
皚	-13.6313
畬	-13.6315
肈	-13.6346
耎	-13.7888
勿使蜂腰鶴膝放縱宜	-13.7889
湘碧宋氏穉佳書畫庫記	-13.7893
椁	-13.7895
本分間布白上下齊平均其體	-13.7897
戈法下以名指築上借勢以中指遣之	-13.7898
以中指遣至盡處以名指拒而趯之	-13.7899
諸佛世尊如來菩薩尊者神僧	-13.79
娀	-13.79
至下以名指衂鋒潛趯	-13.7902
盲者易象之談日中終不見矣	-13.7903
楊子華田僧亮劉殺鬼曹仲達	-13.7904
碡	-13.7904
鋋	-13.7905
梦	-13.7905
鈜	-13.7905
有質滯為目所視逺近不同如水在方	-13.7905
耔	-13.7905
鞞	-13.7905
咮	-13.7906
皆以熱湯半熟入粉	-13.7907
夫書先須引八分章草入	-13.7908
有康熈宸翰稽古右文二璽髙	-13.7908
筆鋒直至起筆處懐字内折筆	-13.7908
篨	-13.7909
止用其下希世小印其後仍用紹興小璽	-13.7909
余雖不習偶見其理不習而言	-13.791
哳	-13.7911
軛	-13.7911
須挫衂轉筆出鋒佇思消息則神蹤不墜	-13.7911
搨書人趙模韓道政馮承素諸葛貞	-13.7911
正鋒正則四面勢全次實指指實則	-13.7911
痔	-13.7912
𤏡	-13.7912
傀	-13.7912
繰	-13.7912
瘢	-13.7913
前賢而少對當聖代而難方	-13.7913
法二者作字得體三者輕重得宜意謂猶	-13.7913
約為主方正循紀修短合度所學草	-13.7913
䉀	-13.7913
柞	-13.7914
世之學者宗二王元常逸迹	-13.7914
殊音之發契物斯失方類相襲且或如彼	-13.7914
阝	-13.7915
雖少可得而推逸少至學鍾書勢巧形	-13.7915
怩	-13.7916
莊子曰朝菌不知晦朔蟪蛄不知春秋	-13.7917
忸	-13.7917
敏史晟何君墨京元成崔霞冷元	-13.7917
糴	-13.7917
符及神一卷咒小字五斗米道也	-13.7917
􁃚	-13.7917
邶	-13.7918
苯	-13.7918
纎毫不撓尺丈有餘故也管為將帥處運	-13.7918
􁦃	-13.7918
獸形俱環以結枝蒲萄	-13.7919
多是軒冕才賢巖穴上士	-13.7919
韻者王著勁而病韻者周越	-13.7919
葹	-13.792
好偽似葉公之懼真是知伯子之息流波	-13.792
乎天文以察時變觀乎人文以化成天下	-13.792
在丁諷學士家歸宗室令	-13.792
徐淮南書如南岡士大夫徒	-13.792
絶望之意師宜官書如鵬羽未息翩翩自	-13.792
瓤	-13.792
㴸	-13.792
大令森森焉若武庫矛㦸	-13.792
而真以轉而後遒草以折而後勁	-13.7921
代昭刻石而成名類神都之冠	-13.7921
玉而剖石即揀金而披	-13.7921
管一時齊下一為生枝一為枯	-13.7921
鄯	-13.7921
有此事使其若此知魏徳之不長安遂	-13.7921
鼓文細而刻淺理豈得存	-13.7921
献	-13.7921
栧	-13.7921
彗	-13.7921
此法更不可教人是其妙處也	-13.7921
䢱	-13.7921
其腕次輕蹲其鋒取勢	-13.7921
含風殿臨崩謂髙宗曰	-13.7921
左罨掠須峻利右	-13.7921
有王子敬之風豈足以盡書法之美哉	-13.7921
樂未可尚也至若老姥遇題扇初	-13.7921
大有生意石不甚工作凌霄花纒松亦佳	-13.7921
嫖	-13.7921
平硬如折刀頭方是漢	-13.7921
垂下端逺而望之象鴻	-13.7921
逸足伏櫪凡識知其絶羣則伯喈不足稱	-13.7922
於從兄洽處見張昶華岳碑始知學	-13.7922
㷊	-13.7922
但以方楷一字半為度一字為正體半	-13.7922
碭	-13.7922
蚱	-13.7922
蜢	-13.7922
臣昔不能拔賞隨世所貴規模子敬多	-13.7922
有大小歐陽父掌邦禮子居廟堂	-13.7922
劉纂岑伯然朱季平	-13.7922
不極象八音之迭起感	-13.7922
棕	-13.7922
顔魯公書雄秀獨出一變古法	-13.7922
令人弊見此輩吾衰老不復堪此	-13.7923
淰	-13.7923
瞢	-13.7923
心遽體留日炎風燥	-13.7923
翼書少時與右軍齊名右軍後進庾猶不	-13.7923
嵕	-13.7923
名言諸無宰制羣有何幽不貫何	-13.7923
製之用以教授謂之史書凡九千字	-13.7923
秦時李斯號為工篆諸山及銅人銘皆	-13.7923
觱	-13.7924
一畫之間變起伏於鋒杪一㸃之内	-13.7924
篡	-13.7924
戅	-13.7924
我巨唐之膺休一六合而闡幽武功定文	-13.7924
亦莫可識駑與良相骨相肉	-13.7924
已矣老夫兩眼徒茫茫但愛各各無	-13.7924
恆	-13.7924
缺者為澗顯者為近晦者為逺神領意造	-13.7924
家後進奉以規模四海知音或存觀省緘	-13.7924
瞩	-13.7924
純骨無媚純肉無力少墨浮	-13.7924
褪	-13.7924
詖	-13.7924
縕	-13.7924
祖運龍爪陳睿謀自我雄其神	-13.7925
輗	-13.7925
神怡務閒時和氣潤偶然欲書	-13.7925
轇	-13.7925
嗈	-13.7925
偶因滌硯寫從容㸃染那能似	-13.7926
蜮	-13.7926
蜻	-13.7926
晡	-13.7926
言之者未必能行能行之者未必能言何	-13.7926
𤯝	-13.7926
磓	-13.7926
唐相王鐸印後有君倩字前有絹小帖是	-13.7926
至建初中杜度善草見稱於章帝	-13.7926
轕	-13.7926
之美多以身後騰聲二王之書當世見貴	-13.7926
徐浩顔真卿鄔彤韋玩崔邈	-13.7926
邯鄲淳書應規入矩方圓乃成	-13.7926
脞	-13.7927
壖	-13.7927
葊	-13.7927
遅	-13.7927
鮊	-13.7927
洿	-13.7928
窯	-13.7928
當仁者得意忘言罕陳其要企學者希風	-13.7928
小篆自非蔡公設妙豈能詣此可謂勝寄	-13.7928
忞	-13.7928
通㸃畫之情博究始終之理鎔鑄蟲篆陶	-13.7928
體兼衆妙精能之至反造	-13.7928
世出其數書小篆古形猶存其半八分已	-13.7928
剰肉如世間美女豐肌而神氣清秀者也	-13.7928
美合而為字是曰古文孝經援神契	-13.7928
矟	-13.7928
傞	-13.7928
山甫父子之所作也永樂間流落錫山沈	-13.7928
東坡道人少日學蘭亭故其書姿媚	-13.7928
訽	-13.7928
悟執謂深淺長短之類是也使謂縱横牽	-13.7928
谹	-13.7928
未嘗不同也可謂所欲不踰矩矣大凡學	-13.7929
又須朱其背時稍致意焉	-13.7929
竊其柎鵠卒以書至選部尚書	-13.7929
逭	-13.7929
不假山石為激躍而自成迅流不借灘	-13.7929
脹	-13.7929
眊	-13.7929
尚書後以示淳而淳不别	-13.7929
草草近視之幾不類物象逺觀則景	-13.7929
枳	-13.7929
讞	-13.7929
名友文即梁祖之子後封博王王薨	-13.7929
洓	-13.7929
之深㫖習閬風而欲仙	-13.7929
淡如觀陶彭澤詩初若散緩不	-13.7929
瀍	-13.7929
珍非遇易牙不足以知其味之	-13.7929
笨	-13.7929
摴	-13.7929
萬幾餘暇二璽前有體元齋璽一軸	-13.7929
降不能兼善者有所不逮非專精也雖篆	-13.7929
筆偃則鋒出一起一倒一晦一	-13.793
用筆有緩有急有有鋒有無鋒有承接上	-13.793
之威儀多則亂少則慢不多不少要分	-13.793
行到水窮處坐看雲起時	-13.793
軨	-13.793
為環必郁貴蹙鋒而	-13.793
仲倫則快速無度馳突不	-13.793
伯喈待詔門下見役人以堊帚成字心有	-13.793
度變化多端要如魚翼鳥翅有翩翩	-13.793
漶	-13.793
疑是右軍所製雖則未詳真偽尚可	-13.793
省如何然勝人何慶等	-13.793
貌乖舛㸃畫湮訛頃見南北流	-13.793
用筆如折釵股如屋漏痕如錐畫沙如壁	-13.793
窮遂為本朝第一然行書最勝小楷次之	-13.793
陸明本將佳紙二幅用大陀石	-13.793
體運遒舉風力頓挫一㸃一拂動	-13.793
速不速所謂淹留因遲就遲詎名賞㑹非	-13.793
置酒弄芳閣荷衣未盡蓮實可登投壺奕	-13.793
羊真孔草蕭行范篆各一時	-13.7931
草書先當取法張芝皇象索靖	-13.7931
明而神竒出焉常欲筆鋒在畫中則左右	-13.7931
見成功之美不悟所致之由或乃就分布	-13.7931
𣢾識云康熙四十六年歲次丁亥	-13.7931
慍	-13.7931
騮終以駸駸不為絶賞繼	-13.7931
曰吾去時真大醉也敬乃内	-13.7931
孝穆鄙重剛毅任拙猶偏禆武夫膽勇	-13.7931
擬效之方手迷揮運之理求其妍妙不亦	-13.7931
非遇師曠不足以知其音之妙使後或非	-13.7931
功定禮樂妙擬神仙猶埏埴之罔窮與工	-13.7931
宻而無間小字難於寛綽而有餘	-13.7931
少則若枯槎架險巨石當路雖妍媚	-13.7931
孔門以書三子入室矣允為上之上崔瑗	-13.7932
元人作書經云黄庭有六分九	-13.7932
軔	-13.7932
|	-13.7932
手明日又往曰名下定無	-13.7932
騃	-13.7932
之無不大潰多用此制勝思	-13.7932
文字經藝之本王政之始	-13.7932
聓	-13.7932
郭忠厚墨一時信手作之此紙未畢	-13.7932
􁁷	-13.7932
三曰篆書八體書法一曰大篆又漢	-13.7932
之竒鴻飛獸駭之資鸞舞蛇驚之態絶岸	-13.7932
翰牘仍存觀夫致一書陳一事造次之際	-13.7932
能書者為之發其筆意可也夫鋒芒	-13.7932
薛氏故物歸居正耳唐太宗雅不喜子敬	-13.7932
曰主言承恩未為富貴適	-13.7932
梃	-13.7932
言帝令開緘傾庫悉與之延秀復	-13.7932
者不得不摹亦以節度其手易	-13.7932
巧兼優心手雙暢翰不	-13.7932
蟬翼導之則泉注頓之則山安	-13.7932
作其形容列事如左貽諸子孫永為模範	-13.7932
惓	-13.7933
孏	-13.7933
訣也山腰雲塞石壁泉塞樓臺樹	-13.7933
人也多文雖有不曉畫者寡矣其	-13.7933
異夫楷式非所詳焉代	-13.7933
翰墨味鍾張之餘烈挹羲獻之前規極慮	-13.7933
讀書如學仙朝不出户夜不眠時聞破	-13.7933
不同妍質懸隔既非所習	-13.7933
予今獲此本亦可比璵璠翰林	-13.7933
名徒彰史牒邯鄲淳之令範空	-13.7933
於道化為大鳥出在檻外翻	-13.7933
甚不渝人亡業顯或	-13.7933
者反斷當斷者反續不	-13.7933
自然之妙有非力運之能成信可謂	-13.7933
殷鑒不逺何學書為必以一時風流千里	-13.7933
返嗟其出羣故知達其源者少闇	-13.7933
馮子振奉皇姊大長公主命題	-13.7934
溈	-13.7934
濚	-13.7934
晉徐州刺史羊固晉臨海太守並善行書	-13.7934
嘬	-13.7934
山中一夜雨樹杪百重泉	-13.7934
裭	-13.7934
色掣裓而走左右果逐之及門外	-13.7934
曰定虚得名耳明日又往曰猶是近代	-13.7934
有起有止所貴長短合宜結束堅實	-13.7934
駬	-13.7934
􁒬	-13.7934
二帖王維雪圖六幅正透犀帶一條	-13.7934
所謂文質彬彬然後君子何必易雕宫	-13.7934
率爾流浪急速骨氣乍	-13.7934
王伯虎奉勅如右符到奉行	-13.7934
理今之所撰亦無取焉若乃師宜官之	-13.7934
笇	-13.7934
賞時亦罕窺優劣紛紜	-13.7934
長則轉換遲直畫不欲太多多則神癡	-13.7934
之際人書俱老仲尼云五十知命	-13.7934
武后君臨藻翰時欽順天	-13.7934
而羲獻繼之又云吾書比之鍾張	-13.7934
自愛不欲以姓名借客者與然次平之去	-13.7934
凝之妻謝道韞有才華亦善書	-13.7934
居心後皆名言也故不得中行與其工也	-13.7934
案之上亦古人所恥吾豈忘情	-13.7934
墨書欵識云康熈六十一年嵗次壬寅	-13.7934
已抑有三時時然一變極其分矣至	-13.7934
紙將動風彩帶字欲飛疑神化之所為非	-13.7934
謀而後動動不失宜時然後言言必中理	-13.7934
樟	-13.7935
京兆杜畿魏尚書僕射子恕東	-13.7935
崔子玉擅名北中跡罕南度世有得其摹	-13.7935
精神有向有背隨字異形	-13.7935
子似父不可云父似子故知	-13.7935
澐	-13.7935
貴要張以示之時薛稷崔	-13.7935
鋌	-13.7935
芒察之者尚精擬之者貴似	-13.7935
肸	-13.7935
漰	-13.7936
位置之美耳臨書易失古人位置而多得	-13.7936
願刻石作篆備書六經立於明堂	-13.7936
仁或仰則鍾繇平視衛臻如晴郊駟馬維	-13.7936
不暇草書寸紙不見遺至今世尤	-13.7936
檗	-13.7936
者也病在心力懈怠不能專精耳朕少	-13.7936
餖	-13.7936
一途編列衆工錯綜羣妙舉前	-13.7936
及不次獻之頓首字猶在一分許可識大	-13.7936
浃	-13.7936
焄	-13.7936
而克成或拘凝重蕭索家聲或利	-13.7936
夫椎輪為大輅之始以	-13.7936
專謹真不通草殊非翰	-13.7936
温使深源從其言則温不至	-13.7936
一年當大元至正十五年三月朔旦也	-13.7936
書以平正為善此世俗之論唐人之失也	-13.7936
有應如此起者當如此應各有義理	-13.7936
為評得其綱紀而未詳其始卒也且元常	-13.7936
筆意摹書易得古人位置而多失	-13.7936
邈乎嵩岱之峻極爛若列宿之麗天	-13.7936
兼太常卿扶陽縣開國男臣韋	-13.7936
斯卷也其璜也其繁弱也翁之子孫	-13.7936
末伯英時代全不相接必有晉人同號史	-13.7936
􁑋	-13.7936
伯英弟文舒者次伯英又有姜孟	-13.7936
僶	-13.7936
是史游創焉史游即章草之祖也	-13.7936
珈	-13.7936
謝宣城蕭挹輩雖不以書名世	-13.7936
之態未覩其妍窺井之談已聞其醜縱欲	-13.7936
壻武延秀在坐歸以告公主	-13.7936
昭宣使宋用臣自舒州召還見之太息云	-13.7936
知逸少嘗書此賦子敬當是習其家學	-13.7936
殊不知其卓識偉見貽書殷深源勸其交	-13.7937
予觀米襄陽為天竺大士書易	-13.7937
􁁍	-13.7937
􁵃	-13.7937
洞庭春色中山松醪二賦	-13.7937
鞭勒無不當人意然喜效其法者不過得	-13.7937
之草正諸體悉備兩袖及	-13.7937
純卒其家定直久許見歸而	-13.7937
佳境闕而未逮請俟將來今撰執使	-13.7937
多從散落歴代孤紹非其效歟試言其由	-13.7937
純骨無媚純肉無力少墨浮澀多墨笨鈍	-13.7937
鼊	-13.7937
今刪李斯筆妙更加潤色總七條	-13.7937
奥世每以能書稱襄陽而其學識乃如此	-13.7937
斯卷之所在乎或曰諸公無恙日翁多親	-13.7937
異同籀文謂之小篆亦曰秦篆	-13.7937
規模尚古飛五雲而在天運三光以窺户	-13.7937
鍾簴設張庭燎飛	-13.7937
靈可觀運用未極猶鳬雛鵠子初備羽翼	-13.7937
㸃者字之眉目全藉顧	-13.7938
斜以斜附曲然後成書而古人	-13.7938
㜷	-13.7938
御賜忠孝堂長白山索氏珍藏	-13.7938
晊	-13.7938
波狂客歸舟逸興多山隂道	-13.7938
砆	-13.7938
柂	-13.7938
三人皆五味一和五色一彩視其雕文非	-13.7938
下今以九例該此衆賢猶如𤣥圃積玉炎	-13.7938
乖互謝安素善尺牘而輕子敬之書子敬	-13.7938
今為大翮小翮山山上立祠水旱祈焉	-13.7938
公者哉蘇君昌齡請篆讀易堂三字以補	-13.7938
然長引至於西山落二翮	-13.7938
背作海獸六外輪列	-13.7938
英韶傾耳無以察其音聲殆善射之不注	-13.7938
欻	-13.7938
齁	-13.7938
襄陽論易以及於洪範五行五位五性	-13.7939
猙	-13.7939
島嶼相望蛟蜃雜出咫尺千里何其妙也	-13.7939
六法兼備有不可以語言文字形容者	-13.7939
瞍	-13.7939
㗳	-13.7939
櫺蕭颯寒聲度庭前漂麥總不知屋上捲	-13.7939
山水意在筆先丈山尺樹寸馬	-13.7939
深虚水若有聲其作雪山全師世所	-13.7939
用墨太多土石不分本朝自無人出其右	-13.7939
修國史上柱國許國公臣蘇頲銀青光	-13.7939
如益星榆之衆象無月桂之孤光	-13.7939
旤	-13.7939
𧖟	-13.7939
右軍之書末年多妙當縁思慮通	-13.7939
噦	-13.7939
斯卷未嘗不心醉神怡斯樓之名遂擅勝	-13.7939
旉	-13.7939
為八分二家俱言後漢而兩帝不同	-13.7939
見珍餘芳可折誠以驅馳並駕不	-13.7939
之書讀易堂豈以少林指心單	-13.794
五味人皆可知獨金曰從革	-13.794
從革作辛辛為辛辣使以金銀	-13.794
敬雖權以此辭折安所	-13.794
節千古依然體老壯之異時百齡俄頃	-13.794
钁	-13.794
如快馬入陣屈伸隨人	-13.794
嘷	-13.794
武帝懸著帳中及以釘壁	-13.794
勷	-13.794
晥	-13.794
品書凡五十二帙五百二十卷	-13.794
漢王童年自得書意夙承羲獻守法不二	-13.794
至陳隋間正書結字漸方唐初猶	-13.794
蒢	-13.794
青山不趂江流去數㸃翠	-13.794
凄然生隂作節處不用墨	-13.794
收李成至李冠卿大扇愛之不已為天下	-13.794
椎輪之朴不如大輅之華	-13.794
翎毛尤為注意多以生漆㸃睛	-13.794
懆	-13.794
韤	-13.794
􁝟	-13.7941
古之名書無不㸃畫振動如見	-13.7941
嗷	-13.7941
粦	-13.7941
滹	-13.7941
世希祥任樸無聞適俗不忘父輕而迅子	-13.7941
文雄累聖重光之盛業六書一藝之精工	-13.7941
率更虞永興易方為長以就姿媚後人競	-13.7941
埤倉廣雅古今字詁	-13.7941
勝父不亦過乎且立身揚名事資尊顯勝	-13.7941
洑	-13.7942
鯢	-13.7942
人物皆隨筆㸃墨而成意思簡當不	-13.7942
數尺飛動毛根出肉力健有餘	-13.7942
昌衡跌宕率爾而作雖蔑法而或乖乃	-13.7942
誕以偏藝流聲王導則列聖推能庾亮則	-13.7942
水勢如飛空中使妄評之人以李成無脚	-13.7942
獪	-13.7942
可知然史籀李斯即字書累葉之祖其所	-13.7942
法帖悉知其用筆之意乃為有益右軍書	-13.7943
瑫	-13.7943
􁇣	-13.7943
悳	-13.7943
楀	-13.7943
入國舉朝貴胄皆師	-13.7943
妙迹永絶忽見足下答家兄書煥若神	-13.7943
疾始焉草創其觸類生變萬物為象	-13.7943
遫	-13.7943
孔復何疑哉或以法可傳則輪扁不能授	-13.7943
所未盡且如抱絶俗之才孤秀之質不容	-13.7943
投之竈下香聞數里不可	-13.7943
新已離畫工之度數而得詩人之清麗也	-13.7943
慴	-13.7943
㢸	-13.7943
盼際我則離披其㸃畫衆皆謹	-13.7944
禮等殊皇賀品類兄弟	-13.7944
舉篇見字欣然獨笑如復	-13.7944
祖後得以賜王武剛未審今何在	-13.7944
令獻之已下二十八人書共十卷	-13.7944
戺	-13.7944
晝眠子敬因書其裙幅及帶欣覺	-13.7944
列十四門總一千五百件名之曰宣和睿	-13.7944
真多唐無此品在畢宏上近世神品格	-13.7944
膞	-13.7944
古今特絶而今不逮古古質而今妍夫	-13.7944
蓻	-13.7944
微言勸戒竊乎春秋之意也其不虚美不	-13.7944
哮	-13.7944
謭	-13.7944
之衣帛必先書而後練臨池學書池水盡	-13.7944
倂	-13.7944
弟書如騎騾駸駸欲度驊騮前	-13.7944
鵂	-13.7944
監修國史上柱國廣平郡開國公臣	-13.7944
故孔子曰博學深謀而不遇者衆矣何獨	-13.7944
靈帝之前工八分者非一而云方廣殊非	-13.7944
卷以求題故粗書襄陽之為人而非敢及	-13.7945
彩動人㸃不加墨口淺深暈成故最如活	-13.7945
楳	-13.7945
小黠大癡螳捕蟬	-13.7945
擅美中州李師王而意淺宋祖鍾而體	-13.7945
骱	-13.7945
有能稱羅暉趙襲不詳何許人與伯英同	-13.7945
硜	-13.7945
衆頗惑之伯英與朱寛書自	-13.7945
餘年無有知其非逺者今崇禎壬午秋付	-13.7945
作始皇見而重之以奏事繁多篆字難製	-13.7945
剛柔歐則外露筋骨君子藏器以虞為優	-13.7945
房𤣥齡特進尚書左僕射申國公髙士	-13.7945
瘖	-13.7945
缿	-13.7945
鎧	-13.7945
少有名之迹不過數首黄庭	-13.7945
衆美以成一家之言雖知不知	-13.7945
鞿	-13.7945
詿	-13.7946
戟	-13.7946
胠	-13.7946
唤	-13.7946
布巧未見其大手筆非不能也	-13.7946
獨慕前蹤至師子敬如欲登龍有宋齊之	-13.7946
矯之恐其或近衆工之事	-13.7946
蘢	-13.7947
供億甚盛感之欲以書相報見有一新棐	-13.7947
自然擺闔宋文峻削阮研載窺逸軌不	-13.7947
心意者將軍也本領者副將也結	-13.7947
古書詣闕以獻當時莫能辨其真偽遂良	-13.7947
樂毅論及雜帖數本賜長孫無忌等六人	-13.7947
源秦史草乃激流齊相跨七代而彌	-13.7947
蘭亭賜梁公房𤣥齡已下八人普徹竊	-13.7947
八卦成列八音克諧聾瞽之人不知其謂	-13.7947
咈	-13.7947
夫道不同不相為謀夫藝之在	-13.7947
籀有之變古為方不知其謂也	-13.7947
葉繪以衆色為章食以五味	-13.7947
出天下珍之自蕭阮之流莫不	-13.7947
若初學先大書不得從小善	-13.7948
子是知一致而百慮異軌而同	-13.7948
儤	-13.7948
瑮	-13.7948
思光逸才揮翰無滯超	-13.7948
􁂥	-13.7948
燥則筆枯亦不可不知也筆欲鋒長勁而	-13.7948
蒱	-13.7948
者真草之體用真貴方草貴	-13.7948
以山水古今相師少有出塵格	-13.7948
俊狂草勢而兄優謹正書而弟潤俱始登	-13.7948
殆逼前良見希後彦允為下之上	-13.7948
虛飄飄比浮名利猶堅牢	-13.7948
􁌹	-13.7948
徒勤勞乎其所未聞祈求乎其所未見今	-13.7948
逍	-13.7948
然心存委曲每為一字各象其形斯造	-13.7948
繻	-13.7949
日君家須炙手而今聊復雀堪羅老	-13.7949
一一從其消息而用之一如千里陣雲	-13.7949
平分為兩以石刻較之正居其半	-13.7949
琶	-13.7949
馣	-13.7949
例而九引類相附大等而三復為	-13.7949
狁	-13.7949
書在邑人王衷處亦巨川告也劉涇得余	-13.795
粳	-13.795
楙	-13.795
精光照人氣格凌雲力舉巨石芳逾衆芬	-13.795
出衆格而靡繼如塞路蓬轉摩霄鳶	-13.795
戬	-13.795
孝元不拘快利睢盱習寛	-13.795
首法髙以追駿處末推能相越	-13.795
字皆孫筆也凡唐草得二王法無出其右	-13.795
後先非勝負可差忒	-13.795
神功元年五月上謂鳯閣侍郎王方慶曰	-13.795
紹伯墨妙翰飛觀乎吐納僧䖍擠排子敬	-13.795
郡滕元發處滕以為智永書	-13.795
鍾張亦有所師固不可文質先後而求之	-13.795
圞	-13.7951
趄	-13.7951
如貴胄之躍駿武賁之操刀	-13.7951
有自而收蓄得所此老亦無所恨矣	-13.7951
窽	-13.7951
不尚矩度頃刻數千言可就	-13.7951
勒而成有刻板本又江南廬山多裴休題	-13.7951
客客有食寒具者仍以手捉書大	-13.7951
槻	-13.7951
袷	-13.7951
璕	-13.7951
蓞	-13.7951
賈勇之武士等相驚之戲魚	-13.7951
篤一日見語曰固願得之遂以韓馬易去	-13.7951
劉涇處換一石也此書至今在王詵處	-13.7951
鄄	-13.7951
佋	-13.7951
嬛	-13.7951
平生著碑誌詩篇賦頌章表凡十餘萬言	-13.7951
駸	-13.7952
琉	-13.7952
之飛廣厦小魚之戲大海	-13.7952
筤	-13.7952
及宣和政和小璽或用瓢印蟲魚篆文	-13.7952
嵲	-13.7952
鯔	-13.7952
疽	-13.7953
禮凡草閭閻之風千紙一類一字萬同如	-13.7953
圠	-13.7953
同調合韻差池去就羽翮齊振依蕭附王	-13.7953
興替尚瞻擊水之鵬摶且並聞天之鶴唳	-13.7953
勝草負正猶力稽牛刀水展龍性	-13.7953
邋	-13.7953
韮	-13.7954
棬	-13.7954
出凡境駟馬安車不尚馳騁	-13.7954
媠	-13.7954
岋	-13.7954
勁快多改落筆端直無	-13.7954
筆墨無在真率天然忘情罕逮猶	-13.7954
蘇公見安師文時帖尚全嘗手	-13.7954
為公子頻遭陣敵義旗之始乃平	-13.7954
黶	-13.7954
𬗟	-13.7954
一體此九人允為上之下張超	-13.7955
窀	-13.7955
墾	-13.7955
鄺	-13.7955
而迹在歎百川而身去	-13.7955
風馳綺靡婉娩縱横流離	-13.7955
世調則氣吞元常若置度内方之	-13.7955
蒻	-13.7955
世其或繼之者雖百代可知	-13.7955
菫	-13.7955
右軍之師彭祖取羲之之道任靖矯名文	-13.7956
法用以赴急本因草創之義故曰草書	-13.7956
趐	-13.7956
峿	-13.7956
碏	-13.7956
壈	-13.7956
脽	-13.7957
搯	-13.7957
洴	-13.7957
罝	-13.7957
䖃	-13.7957
襏	-13.7958
襫	-13.7958
洫	-13.7958
䠱	-13.7958
則猶片錦呈巧細流不極	-13.7958
􁀊	-13.7958
英轉車飛白掩素參差倒薤既思種栁之	-13.7958
針復想定情之製蚊脚傍低鵠頭仰立填	-13.7958
㗖	-13.7959
昇之妙鍾胡各採其美子真俊才門	-13.7959
梴	-13.7959
任縱欲如勇夫格獸徑越林麓	-13.7959
苕川李振叔後入嚴尚書府今	-13.7959
令鬼哭信無味之竒珍非	-13.7959
畞	-13.7959
鳥已分蟲仁義起於麒麟威形	-13.7959
薝	-13.7959
有輪廓而無皴法即謂之無筆有皴法而	-13.7959
真率孝武不規不矩氣有餘	-13.7959
體無所主若露滋蔓草風送驟雨	-13.7959
翰墨之外仁賢是優重則突兀嵩華輕則	-13.7959
始習新制全移古風與伯輿	-13.7959
今則萬里對面記善則惡自	-13.7959
時飄五色仙人還作兩童龜若浮溪蛇	-13.7959
騁逸氣未忘童心若横波束薪泛濫淺深	-13.7959
石草正並驅季琰桓𤣥筋力俱駿羊欣早	-13.796
一一從其消息而用之由是更妙繇曰	-13.796
躅莫究其涯雄風於焉已扇猶金玉	-13.796
爾傑出季琰露鋒芒而豁懐傍禮樂而無	-13.796
絡邇則瓊樹離披	-13.796
堧	-13.796
佉	-13.796
土地卑可審日以君道則字勢	-13.796
紹聖四年四月丙午黔中禪月樓中書	-13.796
崞	-13.7961
﨣	-13.7962
敬思敬康二孔殊芳思行則輕利峭峻	-13.7962
礿	-13.7963
之瀑溜投全牛之虚	-13.7963
吭	-13.7963
磥	-13.7964
鱉	-13.7964
呿	-13.7964
圓方者參之以圓圓者	-13.7965
􁎼	-13.7965
㵚	-13.7965
次道並資義訓兄則雜	-13.7965
非禮不言從容始昌如碩	-13.7965
痁	-13.7966
甔	-13.7966
不慢不越巧使合宜其次	-13.7967
埭	-13.7967
立後學之宗祖如殘雪滴溜映朱檻而垂	-13.7967
􁬾	-13.7969
尒	-13.7969
攽	-13.7969
厚而無法度淳和而蓄鋒芒	-13.7969
俊氣此又存乎其人然古法終不可失也	-13.7969
忠簡胡公文忠周公文節楊公	-13.7969
而子和殊鯉退而學詩	-13.797
􁃻	-13.797
鷫	-13.7972
原之英二子間生仲祖慕元常之則懐祖	-13.7972
􁇹	-13.7972
崋	-13.7973
敉	-13.7974
庳	-13.7974
騭	-13.7975
胖	-13.7976
噆	-13.7978
安知逸氣未詳筆力猶驥異真龍紫非正	-13.7979
調薄首孔肩體格惟肖如驚	-13.7981
姉	-13.7982
􁘡	-13.7982
顔氏儒門士遜墨妙大令典則中散	-13.7983
衕	-13.7983
令譽窮正驗草而罕	-13.7986
醊	-13.986
夆	-13.9879
闃	-13.9881
蜇	-13.9884
數體俱入若作一紙皆須字字意别	-13.9889
夫以屈脚之法彎彎如角弓之張	-13.9889
婬	-13.9889
之法復有數勢並悉不同或有藏鋒者大	-13.9893
存氣力視筆取勢行中廓落如勇士	-13.9893
臡	-13.9897
隺	-13.9898
尌	-13.99
坫	-13.99
􁆨	-13.99
菶	-13.9901
㳙	-13.9901
耖	-13.9902
佪	-13.9903
須上磔衂鋒下磔放出不可雙出多	-13.9903
帟	-13.9904
左之勢為卷啄按筆蹲鋒	-13.9904
掠須筆鋒左出而利啄須卧筆	-13.9904
樠	-13.9904
拕	-13.9905
妙響隨意而生握管使鋒逸態逐	-13.9905
媆	-13.9905
杻	-13.9905
呷	-13.9905
嶲	-13.9906
字是也合勒處勒士字是也凡横畫並	-13.9906
儡	-13.9907
時當收視反聽絶慮凝神心正氣和則契	-13.9907
裴休字公美孟州濟源人	-13.9908
柲	-13.9908
齊下勢盡殺筆縮鋒又始築筆而極力終	-13.9908
時人以跋質那為大尉遲乙僧為小尉遲	-13.9908
勹	-13.9909
今趙模等所搨在者一本尚直	-13.9909
而出筆磔之口訣云右送之波皆名磔右	-13.9909
[...]
