<unk>	0
<s>	0
</s>	0
(	-3.29573
/	-3.35901
)	-3.45887
者	-5.03663
之	-5.06081
也	-5.08092
以	-5.13708
兩	-5.19078
而	-5.23447
一	-5.28951
/)	-5.32594
用	-5.41693
治	-5.48976
則	-5.65721
為	-5.65836
或	-5.70118
)(	-5.72242
如	-5.79133
去	-5.80202
其	-5.80254
不	-5.85836
有	-5.8617
生	-5.9068
分	-5.93659
下	-5.95075
大	-5.95216
氣	-5.9739
方	-6.00475
三	-6.01114
中	-6.02653
熱	-6.03836
散	-6.09769
二	-6.09995
若	-6.10164
水	-6.10903
上	-6.11608
此	-6.14688
半	-6.15333
故	-6.19158
入	-6.20481
▁	-6.21221
服	-6.21703
及	-6.23448
病	-6.24005
於	-6.2542
甘草	-6.26843
炒	-6.28464
出	-6.30839
子	-6.31821
内	-6.32513
錢	-6.3485
一兩	-6.35213
無	-6.36601
湯	-6.37688
即	-6.3944
藥	-6.43171
五	-6.4446
丸	-6.45867
與	-6.46199
至	-6.47158
人	-6.49089
血	-6.49133
痛	-6.5142
心	-6.51686
後	-6.51933
取	-6.52339
又	-6.53008
在	-6.54348
風	-6.54536
白	-6.55782
作	-6.55845
食	-6.57078
寒	-6.57429
同	-6.576
時	-6.58799
加	-6.59021
主	-6.66387
皆	-6.66477
皮	-6.67713
曰	-6.68853
火	-6.69726
亦	-6.69765
是	-6.71735
和	-6.71852
多	-6.72385
乃	-6.74667
當	-6.75248
得	-6.75282
各一	-6.76067
云	-6.76596
四	-6.7723
合	-6.78856
見	-6.79251
自	-6.80291
研	-6.80635
陽	-6.81996
黄	-6.84147
令	-6.84405
酒	-6.8466
宜	-6.84755
煎	-6.85066
炙	-6.8516
頭	-6.86014
人參	-6.86406
隂	-6.87738
矣	-6.89444
經	-6.89938
發	-6.91391
日	-6.93033
當歸	-6.93908
脉	-6.94021
飲	-6.94926
末	-6.98268
可	-6.98652
毒	-6.98811
小	-6.99182
各	-6.99298
右	-6.99299
行	-6.99589
冷	-6.99691
因	-7.02229
瘡	-7.03368
必	-7.04323
外	-7.05885
少	-7.06095
肉	-7.06156
止	-7.06568
實	-7.06906
温	-7.06967
先	-7.07181
二兩	-7.08988
草	-7.09776
腫	-7.11013
根	-7.11548
不能	-7.14422
乾	-7.14423
法	-7.16603
能	-7.16644
從	-7.16742
所	-7.16843
木	-7.17265
傷	-7.17275
復	-7.17407
半兩	-7.17427
成	-7.17911
已	-7.18766
石	-7.18829
然	-7.19983
急	-7.20141
非	-7.20906
骨	-7.21399
葉	-7.21717
赤	-7.21892
附子	-7.22017
○	-7.22084
數	-7.22373
通	-7.22484
剉	-7.22544
重	-7.22721
虚	-7.22775
凡	-7.24204
土	-7.24309
汁	-7.25698
目	-7.25894
諸	-7.26053
今	-7.27305
言	-7.27432
白术	-7.27544
服之	-7.28765
傷寒	-7.28953
七	-7.29406
六	-7.30585
名	-7.30746
未	-7.31026
但	-7.31241
更	-7.32229
微	-7.32586
防風	-7.32927
黄連	-7.33256
穴	-7.33984
耳	-7.34341
細	-7.34443
一錢	-7.35595
大黄	-7.36052
半夏	-7.36299
本	-7.36654
切	-7.37123
謂	-7.37271
不可	-7.3774
正	-7.37987
金	-7.38446
邪	-7.3859
木香	-7.39266
證	-7.40063
脈	-7.40726
療	-7.40824
甚	-7.41054
肝	-7.41156
便	-7.41237
欲	-7.42268
間	-7.42589
神	-7.43178
寒熱	-7.44041
反	-7.44405
乾薑	-7.44593
長	-7.44936
利	-7.44966
刺	-7.45243
濕	-7.45703
口	-7.46212
黄芩	-7.4649
消	-7.46972
為末	-7.47198
平	-7.47382
青	-7.47591
死	-7.47729
盡	-7.48495
身	-7.48644
結	-7.48647
使	-7.48853
腎	-7.49149
清	-7.49306
雖	-7.49387
處	-7.49431
註	-7.49479
出聖	-7.49534
過	-7.49547
灸	-7.50025
前	-7.50404
燥	-7.50482
發熱	-7.50547
補	-7.50667
色	-7.50804
㣲	-7.50994
並	-7.51181
脾	-7.5179
安	-7.51906
愈	-7.52398
又方	-7.5249
别	-7.52774
化	-7.53117
并	-7.53282
動	-7.53441
解	-7.54873
足	-7.5496
生薑	-7.55069
明	-7.5537
似	-7.55421
于	-7.55877
肺	-7.56358
不得	-7.56665
三兩	-7.57024
炮	-7.57092
洗	-7.57205
論	-7.57375
膏	-7.57699
等	-7.57842
起	-7.57989
杏仁	-7.58111
常	-7.58175
疾	-7.58295
精	-7.58357
相	-7.58489
去皮	-7.58546
一名	-7.58734
汗	-7.59192
小兒	-7.59366
升	-7.59862
天	-7.59863
兼	-7.5995
苦	-7.60078
再	-7.60944
爲	-7.61052
物	-7.6117
茯苓	-7.61271
積	-7.61334
十	-7.61798
八	-7.61858
陰	-7.62411
盛	-7.62774
地	-7.63384
患	-7.63575
桂心	-7.63794
熟	-7.63911
焙	-7.64032
花	-7.64322
黒	-7.64381
吐	-7.65183
俱	-7.653
煮	-7.65689
二錢	-7.65703
候	-7.65751
蟲	-7.65847
胃	-7.66407
一分	-7.66708
痰	-7.66732
柴胡	-7.66978
各二	-7.67079
開	-7.6797
香	-7.68828
三分	-7.68945
藏	-7.69056
麝香	-7.69406
極	-7.70639
難	-7.71412
門	-7.71417
手	-7.72472
芍藥	-7.7262
細辛	-7.72782
麻黄	-7.7285
丹	-7.72956
知	-7.72977
燒	-7.73659
破	-7.74217
醫	-7.74561
新	-7.74708
除	-7.74842
右為末	-7.75383
滿	-7.76333
調	-7.76355
各半	-7.76777
疼痛	-7.77002
乳	-7.77083
不止	-7.7742
類	-7.77722
散治	-7.77809
易	-7.78252
山	-7.78588
須	-7.78594
節	-7.78889
九	-7.78965
屬	-7.79658
浸	-7.8015
形	-7.80638
各三	-7.8105
眼	-7.81944
浮	-7.82383
夫	-7.82557
年	-7.83586
虛	-7.83747
將	-7.84129
麥門冬	-7.84246
絶	-7.84298
塗	-7.84389
每	-7.84522
泄	-7.84934
定	-7.85249
汗出	-7.85542
枳殻	-7.86061
按	-7.86608
次	-7.8691
惡	-7.86989
衇	-7.87504
川芎	-7.87778
桂	-7.87918
真	-7.87929
婦人	-7.88143
惟	-7.88182
來	-7.88272
腹	-7.88391
忌	-7.88567
紅	-7.88604
損	-7.88697
手足	-7.89071
久	-7.89156
飲食	-7.89486
灰	-7.89495
變	-7.89772
桔梗	-7.90033
腹痛	-7.90228
石膏	-7.90239
益	-7.90504
五錢	-7.91407
厚朴	-7.91424
惠方	-7.91459
醋	-7.91561
小便	-7.91608
何	-7.92024
頭痛	-7.92027
勞	-7.92639
治之	-7.92901
連	-7.92921
陳皮	-7.92973
乎	-7.93171
引	-7.93405
傳	-7.93421
逆	-7.93522
隨	-7.93597
應	-7.93789
四兩	-7.93907
胎	-7.94073
蜜	-7.94683
驚	-7.9495
四肢	-7.95016
致	-7.95085
既	-7.95755
主之	-7.96074
鼻	-7.96169
面	-7.96667
堅	-7.9732
令人	-7.97389
升麻	-7.97846
勝	-7.98215
著	-7.98404
百	-7.9873
味	-7.98921
兒	-7.98928
之氣	-7.98977
魚	-7.99604
州	-8.00094
脾胃	-8.00481
枚	-8.0066
搗	-8.00935
筋	-8.01412
症	-8.01517
瀉	-8.01636
空心	-8.02569
遂	-8.02725
月	-8.03216
初	-8.03556
深	-8.03598
家	-8.04004
漸	-8.04209
米	-8.04335
痘	-8.05123
失	-8.05244
太陽	-8.05328
大便	-8.06044
道	-8.06632
三錢	-8.06681
一升	-8.06904
恐	-8.06906
指	-8.07299
附	-8.07392
五分	-8.07554
爛	-8.08044
且	-8.08102
伏	-8.08194
陽明	-8.08389
少許	-8.08454
夜	-8.08541
針	-8.08663
理	-8.08772
雄黄	-8.0892
表	-8.0901
食之	-8.0942
許	-8.09422
劑	-8.09521
白芷	-8.09619
黑	-8.0985
各一兩	-8.10309
始	-8.10317
蒸	-8.10428
鹽	-8.10524
丸治	-8.10648
轉	-8.10817
湯治	-8.11262
仍	-8.1132
好	-8.11385
餘	-8.11785
陽氣	-8.11787
暴	-8.11933
疼	-8.12051
左	-8.12167
痺	-8.12268
謂之	-8.12514
薑	-8.12744
亦可	-8.12797
善	-8.13022
隂陽	-8.13156
巴豆	-8.13221
馬	-8.13326
牛膝	-8.13353
黄耆	-8.13403
立	-8.13408
邪氣	-8.13492
右為細末	-8.13703
中風	-8.13931
性	-8.1408
所以	-8.14167
裏	-8.14423
體	-8.14591
獨	-8.14642
膿	-8.14761
五味子	-8.15184
油	-8.15552
去蘆	-8.15591
煩	-8.15618
粉	-8.15708
瘧	-8.15864
貼	-8.15994
固	-8.16159
滑	-8.16257
脚	-8.16342
緩	-8.16402
㵼	-8.16438
而不	-8.16582
毛	-8.16883
流	-8.17046
厥	-8.17069
弱	-8.17457
冬	-8.17528
熬	-8.17865
乆	-8.18355
細研	-8.18471
喘	-8.18617
下之	-8.18712
注	-8.18743
輕	-8.19063
衣	-8.19106
煑	-8.19181
强	-8.19184
之劑	-8.19372
白茯苓	-8.19653
養	-8.19679
由	-8.19718
音	-8.19799
甘	-8.20044
盖	-8.20064
王	-8.20244
字	-8.20383
元	-8.20434
仁	-8.20843
用之	-8.20953
生地黄	-8.21348
芎藭	-8.21479
鍼	-8.21713
方見	-8.22421
臍	-8.2267
而愈	-8.22711
脹	-8.23385
血氣	-8.23525
良	-8.23594
嘔吐	-8.23715
紫	-8.23782
差	-8.2401
效	-8.24069
攻	-8.24084
製	-8.24257
圓	-8.24366
氣血	-8.2438
酸	-8.24562
治小兒	-8.24666
要	-8.24751
之藥	-8.24753
全	-8.25533
腸	-8.25543
莖	-8.25595
桃仁	-8.2589
春	-8.26258
稍	-8.26945
㸃	-8.27291
文	-8.27316
沉	-8.27972
不足	-8.28066
之類	-8.28236
嘔	-8.28415
勿	-8.29168
每服	-8.2947
腹中	-8.29504
名曰	-8.29643
不通	-8.29683
桂枝	-8.29734
異	-8.2978
近	-8.29829
母	-8.29911
受	-8.29942
直	-8.30185
夏	-8.30417
枳實	-8.30528
痢	-8.30883
背	-8.30927
木通	-8.31486
知母	-8.3158
産	-8.31594
覺	-8.31909
留	-8.32043
膀胱	-8.32191
丁香	-8.32353
腫痛	-8.32641
薄	-8.32683
髙	-8.32726
舌	-8.33064
陳	-8.33369
湯下	-8.33527
收	-8.33938
壯	-8.33981
腹脹	-8.34066
出聖濟	-8.34131
喜	-8.34256
齒	-8.34545
部	-8.35153
退	-8.35382
閉	-8.35383
煨	-8.35608
蒼术	-8.35702
居	-8.35784
去心	-8.36058
酒浸	-8.36088
乳香	-8.36102
津液	-8.36194
澁	-8.3635
溫	-8.36445
一枚	-8.36531
滯	-8.37216
意	-8.37641
度	-8.37679
葢	-8.37844
少隂	-8.38306
身熱	-8.3858
交	-8.38938
辛	-8.39164
羌活	-8.39235
是也	-8.39272
蓋	-8.39442
二十	-8.39514
卷	-8.40173
也若	-8.40214
角	-8.40441
歸	-8.40455
膽	-8.40565
去滓	-8.41
書	-8.41237
阿膠	-8.41238
聲	-8.41782
獨活	-8.42047
條	-8.4215
蘆	-8.42209
集	-8.42419
蛇	-8.43188
温服	-8.43271
秋	-8.43444
各五	-8.43525
碎	-8.43543
硃砂	-8.43554
太	-8.43879
少陽	-8.43974
胃氣	-8.44321
果	-8.4461
鬱	-8.44619
等分	-8.45436
故也	-8.45619
猶	-8.4565
㯽榔	-8.45784
疳	-8.46005
食後	-8.46062
脂	-8.46086
豆	-8.46106
傅	-8.46127
忽	-8.46236
濇	-8.46347
者為	-8.46424
海	-8.46507
進	-8.46522
下利	-8.46581
宿	-8.46774
卧	-8.46854
遇	-8.47029
軟	-8.47326
事	-8.47832
却	-8.47887
惡寒	-8.47968
歌	-8.4837
走	-8.48446
一切	-8.48458
禁	-8.48482
南	-8.48837
淋	-8.48982
産後	-8.49147
赤茯苓	-8.4945
榮	-8.4946
為度	-8.49581
者宜	-8.49725
癰	-8.49847
烏	-8.49882
一方	-8.49908
一日	-8.49937
風熱	-8.50323
厚	-8.50419
力	-8.50641
麻	-8.50766
涎	-8.50836
投	-8.50883
三日	-8.50971
犀角	-8.51212
腦	-8.51366
潤	-8.51482
總録	-8.51482
絡	-8.51485
發汗	-8.51774
葱	-8.51956
不利	-8.52059
茶	-8.52204
赤芍藥	-8.52239
種	-8.52388
甲	-8.52469
大腸	-8.52491
黄茋	-8.52587
張	-8.52714
布	-8.52787
不知	-8.52923
所謂	-8.52971
老	-8.53213
詳	-8.53775
滑石	-8.5379
制	-8.53886
弦	-8.53982
減	-8.54006
元氣	-8.54083
片	-8.54156
肌肉	-8.54325
斷	-8.54525
核	-8.54662
腹滿	-8.54697
腰	-8.55021
聚	-8.55078
卒	-8.5516
誤	-8.55203
嵗	-8.55378
此藥	-8.55517
女	-8.55659
焉	-8.5572
原	-8.55798
棗	-8.55937
亦有	-8.56019
連翹	-8.5653
𦂳	-8.57165
燒灰	-8.57205
仲景	-8.57267
斤	-8.57579
衰	-8.57617
只	-8.57789
之病	-8.58023
两	-8.58079
黃	-8.5816
故曰	-8.58338
身體	-8.58536
坐	-8.58556
狀	-8.58628
上下	-8.58706
共	-8.58754
尖	-8.58772
龍	-8.5891
心痛	-8.59012
悶	-8.59065
焦	-8.59245
煩躁	-8.59276
臟	-8.59337
薄荷	-8.59431
大棗	-8.59455
葛根	-8.59464
煎服	-8.59563
濕熱	-8.59571
玉	-8.5966
潰	-8.59677
三焦	-8.59805
皮膚	-8.59809
各等	-8.60064
順	-8.60129
太隂	-8.60239
最	-8.60363
偏	-8.60483
右用	-8.60735
經絡	-8.60847
牛	-8.60948
痒	-8.61212
舉	-8.61277
時珍曰	-8.6131
命	-8.61349
淡	-8.61407
畏	-8.61411
敗	-8.61509
苗	-8.61659
一服	-8.61777
漿	-8.62111
飲之	-8.62227
悉	-8.62372
視	-8.62572
焙乾	-8.62594
十二	-8.62688
暑	-8.62815
白礬	-8.62876
氏	-8.63264
然後	-8.63349
妙	-8.63379
項	-8.63782
膈	-8.64034
痞	-8.6406
恵方	-8.64287
脱	-8.64334
余	-8.64347
此方	-8.64448
飛	-8.64532
食前	-8.64697
速	-8.64874
風寒	-8.64878
毎服	-8.651
如此	-8.65111
不用	-8.6528
前胡	-8.65383
疽	-8.65626
梔子	-8.65682
菜	-8.65706
二分	-8.65758
竹	-8.65784
白芍藥	-8.66039
天麻	-8.66187
塞	-8.66221
毎	-8.66312
熱毒	-8.66341
府	-8.66347
闗	-8.66423
尺	-8.66469
渴	-8.66481
主治	-8.66511
下血	-8.66584
爾	-8.66701
則為	-8.66953
向	-8.67123
感	-8.67191
五臟	-8.67225
得之	-8.67812
聞	-8.67943
作痛	-8.67992
泥	-8.68035
舊	-8.68142
遲	-8.68437
一斤	-8.68447
落	-8.6858
之證	-8.68589
李	-8.68619
日三服	-8.68726
両	-8.68764
龍骨	-8.68829
又云	-8.68871
肉桂	-8.69014
臭	-8.69047
渇	-8.69169
寸	-8.69217
光	-8.69278
胸	-8.69324
効	-8.6934
青皮	-8.69407
運	-8.69455
欬	-8.69606
雞	-8.69757
置	-8.69862
息	-8.69913
橘皮	-8.69991
生瘡	-8.70236
逺志	-8.70362
日三	-8.70372
病人	-8.70373
喫	-8.70455
枯	-8.70596
按之	-8.70772
人参	-8.70892
小便不利	-8.71128
亂	-8.71489
葱白	-8.71657
者以	-8.71964
杵	-8.72003
參	-8.72141
五味	-8.72316
鬼	-8.72367
臟腑	-8.72479
枝	-8.72481
驗	-8.72554
即愈	-8.72577
胸中	-8.72796
濁	-8.72954
口乾	-8.73032
瘥	-8.73094
殻	-8.7325
其人	-8.7334
脚氣	-8.73407
肥	-8.7353
降	-8.73785
予	-8.73803
地骨皮	-8.74197
之後	-8.74211
語	-8.74269
不同	-8.74512
志	-8.7457
粥	-8.74783
以為	-8.75056
其氣	-8.75074
塗之	-8.75098
其病	-8.754
宜服	-8.75509
飯	-8.75555
膝	-8.75561
咳𠻳	-8.75728
空	-8.75789
思	-8.75816
沈	-8.76033
腰痛	-8.76158
了	-8.76229
猪	-8.76256
者死	-8.76287
傅之	-8.76316
之法	-8.76367
古	-8.76382
用藥	-8.76448
硬	-8.76821
殺	-8.76863
帶	-8.76906
孔	-8.76968
𫝊	-8.7697
之間	-8.77129
糞	-8.77155
逐	-8.77215
停	-8.7725
首	-8.77561
甚者	-8.77631
厥隂	-8.77644
半錢	-8.77655
雜	-8.7792
君	-8.77957
也故	-8.78055
還	-8.78231
地黄	-8.78379
素	-8.784
關	-8.78536
華	-8.78609
自汗	-8.78748
早	-8.78857
再服	-8.78893
靈	-8.79013
端	-8.79026
已上	-8.79286
五藏	-8.79292
茯神	-8.7934
小腹	-8.79448
硫黄	-8.79533
牛黄	-8.79705
心腹	-8.79835
可以	-8.79864
風邪	-8.7988
竅	-8.80283
公	-8.80516
沸	-8.80585
量	-8.80638
澀	-8.80682
凝	-8.80687
者是	-8.8085
右以	-8.80887
所致	-8.8104
器	-8.81136
臨	-8.81234
擣	-8.81241
蘇	-8.81435
治法	-8.81478
牙	-8.81567
麩炒	-8.8198
腸胃	-8.82309
旋	-8.82356
熟地黄	-8.8277
循	-8.82811
緊	-8.82991
水煎	-8.83279
病者	-8.83386
一丸	-8.83577
磨	-8.83642
頓	-8.8366
辨	-8.83753
霍亂	-8.83806
先以	-8.83922
問	-8.84019
水煎服	-8.84156
尚	-8.8428
沉香	-8.84489
透	-8.84568
瘀血	-8.84615
荆芥	-8.8482
臂	-8.85133
㪚	-8.85177
脫	-8.85361
粒	-8.854
咽	-8.85494
具	-8.85657
秘	-8.85819
桑白皮	-8.85874
液	-8.85968
羊	-8.86026
湯主之	-8.86161
佳	-8.86169
陳橘皮	-8.86297
煩熱	-8.86499
各半兩	-8.86621
髪	-8.86835
漏	-8.87096
折	-8.87121
北	-8.87247
烏梅	-8.87298
宣	-8.87437
羅	-8.87615
無力	-8.87832
篇	-8.8801
千金	-8.88078
衝	-8.8808
臣	-8.88213
有熱	-8.88528
覆	-8.88589
兩半	-8.8862
哉	-8.88625
凉	-8.88734
東	-8.88783
皮臍	-8.88865
炒各	-8.88887
貝母	-8.88891
小腸	-8.88977
世	-8.89045
補之	-8.89068
烏頭	-8.89095
水銀	-8.89504
而為	-8.8955
取出	-8.89615
經云	-8.89683
癰疽	-8.89688
錢半	-8.89801
倍	-8.89815
煩悶	-8.89964
尤	-8.90093
鬚	-8.90206
炙各	-8.90217
吐血	-8.90405
診	-8.90478
箇	-8.90484
二升	-8.90533
竭	-8.90593
表裏	-8.90723
客	-8.90909
川	-8.91182
廣	-8.91297
薑汁	-8.91644
都	-8.9193
輕粉	-8.91937
之所	-8.92012
千	-8.92045
毒氣	-8.92087
待	-8.92198
救	-8.92198
疹	-8.92218
牡蠣	-8.92242
為細末	-8.92248
三升	-8.92259
遍身	-8.92267
樹	-8.92577
採	-8.92622
録	-8.92687
狂	-8.92734
榮衛	-8.9277
又有	-8.92797
朝	-8.92812
者有	-8.92886
㑹	-8.92991
者此	-8.93094
綿	-8.93217
亦得	-8.93297
而成	-8.933
不食	-8.93436
煆	-8.93595
龍腦	-8.93614
胡	-8.93833
一兩半	-8.9394
上焦	-8.94013
五兩	-8.94253
上氣	-8.94314
短	-8.9433
三十	-8.94417
宜用	-8.94439
看	-8.94497
研細	-8.94537
尾	-8.94566
巳	-8.94652
榖	-8.94659
喉	-8.94745
論曰	-8.94806
露	-8.94898
鼈甲	-8.9524
下焦	-8.95256
犯	-8.95257
出血	-8.95286
麫	-8.95287
活	-8.95289
痔	-8.95339
取汁	-8.9536
氣逆	-8.95372
唇	-8.95417
出本	-8.95439
之時	-8.95513
本草	-8.9563
被	-8.95664
氣虚	-8.95667
求	-8.95686
减	-8.95971
洩	-8.96093
煖	-8.96107
肩	-8.96169
常服	-8.96199
助	-8.96503
砂	-8.96506
經曰	-8.96713
艾	-8.96724
甚則	-8.96756
短氣	-8.96953
珍	-8.96973
壅	-8.97007
将	-8.97133
俞	-8.97258
男子	-8.9741
胃中	-8.97456
歲	-8.9751
萬	-8.97531
先用	-8.97554
者皆	-8.97626
紙	-8.97699
位	-8.97724
癎	-8.97895
大小	-8.98016
頂	-8.98199
灌	-8.98263
不行	-8.98331
併	-8.98354
𢷬	-8.98372
本經	-8.98386
㣲炒	-8.98453
治婦人	-8.98715
依	-8.98813
頻	-8.98842
麥	-8.9885
椒	-8.98938
勢	-8.98958
口中	-8.98988
七日	-8.99038
二味	-8.99124
左右	-8.99146
筋骨	-8.99216
以致	-8.99241
酒下	-8.99951
銀	-9.00057
丹砂	-9.00264
斑	-9.00268
疑	-9.00316
鳴	-9.00457
心下	-9.00479
脹滿	-9.00619
藿香	-9.00834
咳嗽	-9.00935
濟	-9.01062
嘔逆	-9.01096
象	-9.0121
术	-9.01347
無汗	-9.01556
各四	-9.01898
麵	-9.01929
不已	-9.01946
遺	-9.02019
穀	-9.02294
睡	-9.02487
齊	-9.02564
▁(	-9.02579
不解	-9.02581
餅	-9.0273
續	-9.02733
不出	-9.02788
者用	-9.028
治傷寒	-9.0284
心煩	-9.02958
陷	-9.03071
為主	-9.03094
代	-9.03113
鷄	-9.03318
𠻳	-9.03361
着	-9.03424
肌	-9.0343
對	-9.03556
唾	-9.03578
躁	-9.03653
鐵	-9.0367
呼	-9.03695
淨	-9.03726
入藥	-9.03796
不治	-9.0383
苦參	-9.0387
微炒	-9.03915
胞	-9.03931
虚實	-9.0399
信	-9.0411
車前子	-9.04177
疝	-9.04359
横	-9.04632
酒服	-9.04655
服藥	-9.04685
總	-9.04734
害	-9.04768
嗽	-9.04793
之人	-9.04836
黄丹	-9.04837
蠟	-9.04868
裹	-9.04928
唐	-9.05011
終	-9.05093
義	-9.05169
血虚	-9.05172
生地	-9.05189
蒜	-9.05388
屎	-9.05462
莫	-9.05467
下痢	-9.05585
周	-9.05629
有餘	-9.05671
杜仲	-9.05718
白附子	-9.05858
桃	-9.05926
沙	-9.06015
含	-9.06068
攪	-9.06143
属	-9.06205
西	-9.0628
曲	-9.06336
各一錢	-9.06376
鹹	-9.06567
胸膈	-9.06575
絲	-9.06623
来	-9.06638
銅	-9.06943
腐	-9.06976
強	-9.07067
功	-9.07096
以上	-9.07585
以水	-9.07596
赤石脂	-9.07618
雨	-9.07644
無時	-9.07681
生用	-9.07749
此為	-9.07756
精神	-9.078
者也	-9.07832
越	-9.07932
期	-9.07948
逺	-9.08198
神效	-9.08283
牡丹皮	-9.08285
困	-9.08456
大熱	-9.08495
不及	-9.08607
一合	-9.0869
就	-9.09175
天南星	-9.09183
積聚	-9.09206
澤	-9.09223
尿	-9.09352
不過	-9.0939
不能食	-9.09722
盞	-9.09832
約	-9.09847
納	-9.09856
者必	-9.09859
勿令	-9.10067
彼	-9.10157
解毒	-9.10186
遍	-9.1021
也其	-9.10223
危	-9.10231
豉	-9.10291
酥	-9.10368
治風	-9.10472
充	-9.1053
野	-9.10533
驚悸	-9.1071
摩	-9.10762
乗	-9.10805
去粗皮	-9.10905
十四	-9.1094
隔	-9.10955
例	-9.11095
嚼	-9.11106
推	-9.11358
紅花	-9.11512
大者	-9.11602
高	-9.1162
藤	-9.11624
乘	-9.11628
或因	-9.11654
膠	-9.11685
澤瀉	-9.11776
隂氣	-9.1185
夾	-9.1189
屑	-9.11937
木𤓰	-9.12047
咽喉	-9.12219
糯米	-9.12278
去皮尖	-9.12425
臓	-9.12495
自然	-9.12538
妄	-9.12574
諸藥	-9.12595
漬	-9.12687
懸	-9.12793
不安	-9.12841
女子	-9.12866
蠱	-9.12874
導	-9.12898
加減	-9.1296
縮	-9.13005
茴香	-9.13005
芒硝	-9.13092
膿血	-9.13273
丁	-9.13333
内熱	-9.13351
翳	-9.13615
津	-9.13622
青黛	-9.13682
人之	-9.13795
石斛	-9.14062
所傷	-9.14186
亡	-9.14404
溢	-9.14413
五十	-9.14495
保	-9.14546
癖	-9.14603
炙甘草	-9.14603
塊	-9.14648
男	-9.1476
暖	-9.14799
存	-9.14803
稱	-9.15024
惡風	-9.15194
壯熱	-9.15343
觀	-9.15366
右㕮咀	-9.15369
婦	-9.15438
其脉	-9.15441
守	-9.15601
又曰	-9.15632
濡	-9.15674
滴	-9.15714
取之	-9.15725
竹葉	-9.15812
倒	-9.15975
米飲下	-9.15985
一箇	-9.16053
説	-9.16249
菖蒲	-9.16314
一盞	-9.16369
𤣥參	-9.16518
出千	-9.16538
持	-9.16576
耗	-9.16739
附方	-9.1674
刀	-9.1685
下部	-9.17017
雲	-9.17024
髮	-9.17027
澤㵼	-9.17112
怒	-9.17196
國	-9.17264
山藥	-9.17381
憂	-9.17807
俗	-9.17848
冷氣	-9.17968
衆	-9.17986
時時	-9.18111
内外	-9.18116
金方	-9.18137
患處	-9.1818
蒲黄	-9.1822
耶	-9.18272
檳榔	-9.1835
半升	-9.18372
煎湯	-9.18376
脊	-9.18457
黄色	-9.18484
歳	-9.185
稀	-9.18575
一寸	-9.18665
溺	-9.18802
山梔	-9.1882
快	-9.19025
殊	-9.19352
中有	-9.19506
天門冬	-9.19511
川大黄	-9.19646
不拘時候	-9.19675
面赤	-9.1972
乍	-9.19729
去白	-9.19788
衂	-9.19835
赤白	-9.19982
惡瘡	-9.19998
三月	-9.20002
四時	-9.20028
痰飲	-9.20073
即止	-9.20199
琥珀	-9.20278
敷	-9.2044
辟	-9.20446
珠	-9.20705
在内	-9.20723
𤓰	-9.20785
豈	-9.20866
已上各	-9.20929
良方	-9.21115
施	-9.21169
不調	-9.21355
熱病	-9.21492
益氣	-9.21569
正氣	-9.21577
湯洗	-9.21578
病也	-9.21624
南星	-9.21666
五日	-9.21679
頸	-9.21721
縱	-9.21737
頭疼	-9.21831
衛	-9.21961
延	-9.22009
觧	-9.22041
承	-9.22067
潮熱	-9.22155
不下	-9.22209
一二	-9.22246
别研	-9.22309
官	-9.2234
載	-9.22426
粗	-9.22446
聖	-9.22469
皂角	-9.22545
師	-9.22666
數日	-9.22702
扵	-9.22794
内傷	-9.22822
太過	-9.2292
美	-9.22922
下氣	-9.23136
癢	-9.23267
挾	-9.2351
斯	-9.23549
口噤	-9.23652
地榆	-9.23747
移	-9.23791
空心服	-9.23824
塩	-9.23831
虚寒	-9.2388
痿	-9.23969
虚則	-9.23974
半斤	-9.24223
肚	-9.24248
明目	-9.24255
嘗	-9.24333
利小便	-9.24342
吹	-9.24342
涼	-9.24434
專	-9.24435
赤小豆	-9.24458
無毒	-9.24554
疎	-9.24563
少腹	-9.24619
麥冬	-9.24765
疏	-9.2479
者加	-9.2492
腎氣	-9.25037
同煎	-9.25038
適	-9.25062
雄	-9.25063
昏	-9.25105
証	-9.25163
不宜	-9.25217
狀如	-9.25278
香附	-9.25543
十日	-9.25553
灸之	-9.25564
支	-9.25581
蜀椒	-9.25583
虗	-9.25653
也然	-9.25757
審	-9.25852
不消	-9.25951
營	-9.26015
淫	-9.26112
髓	-9.26142
三寸	-9.26184
者亦	-9.26251
耳聾	-9.26689
熱則	-9.26722
另	-9.26739
熱氣	-9.26759
頭面	-9.2676
脇	-9.2717
瘡口	-9.27224
瘦	-9.27431
卷中	-9.27445
痰涎	-9.27457
為散	-9.27484
四分	-9.27744
十五	-9.27787
右二味	-9.27807
羚羊角	-9.27827
熨	-9.2788
泡	-9.27898
淺	-9.27907
四十	-9.27941
散治小兒	-9.28047
畧	-9.28075
臍下	-9.28194
之中	-9.28203
睛	-9.28231
水氣	-9.28384
膚	-9.28537
脾氣	-9.28578
每用	-9.28626
達	-9.28691
冝	-9.28749
一劑	-9.28765
陰陽	-9.28806
癰腫	-9.28937
此證	-9.28975
宻	-9.29084
酸棗仁	-9.29132
不拘時	-9.29189
裂	-9.29203
風濕	-9.29228
皂莢	-9.29284
膩粉	-9.29342
膜	-9.29369
湏	-9.29426
隂乾	-9.29469
五苓散	-9.29506
一人	-9.2953
梔子仁	-9.29612
一方用	-9.29664
肺氣	-9.30026
者乃	-9.30102
搐	-9.30179
飲水	-9.30269
竹瀝	-9.30285
無所	-9.30387
一種	-9.30406
任	-9.30473
肘	-9.30593
去粗	-9.30634
四物湯	-9.30645
不計時候	-9.30884
三味	-9.30957
為丸	-9.31077
星	-9.31081
實熱	-9.31204
貫	-9.31231
之邪	-9.31322
住	-9.31333
芫花	-9.31438
圖	-9.31492
各等分	-9.31784
隂虚	-9.31813
白芍	-9.31848
一宿	-9.32036
等證	-9.32076
脾土	-9.32109
百病	-9.32143
官桂	-9.32223
傷風	-9.32281
設	-9.32284
識	-9.32292
封	-9.32358
洪	-9.32371
防己	-9.32443
煉	-9.32493
放	-9.32518
而後	-9.3274
吉	-9.32825
各二兩	-9.32874
至於	-9.32939
湯調下	-9.32949
離	-9.32977
七分	-9.33123
備	-9.33171
朴硝	-9.33377
腿	-9.33479
記	-9.33526
比	-9.33539
徐	-9.33563
吞	-9.33563
不應	-9.33591
采	-9.33636
是以	-9.33705
腑	-9.33819
滓	-9.33885
虎	-9.33941
桂枝湯	-9.34018
治一切	-9.34038
噦	-9.34297
胸滿	-9.34617
集解	-9.34619
心火	-9.34702
佐以	-9.34743
為病	-9.34893
司	-9.35041
仙	-9.35229
二寸	-9.35282
肉蓯蓉	-9.35325
加味	-9.35393
當以	-9.35438
腹内	-9.35489
三四	-9.35639
紫蘇	-9.35672
靣	-9.35677
拌	-9.35692
大抵	-9.35733
濃	-9.35749
日二	-9.35749
味甘	-9.35775
心中	-9.35867
之脉	-9.35888
寳	-9.35929
江	-9.36007
多少	-9.36069
調下	-9.36178
不痛	-9.36229
曰此	-9.36289
結胸	-9.36349
有所	-9.36457
有毒	-9.36485
打	-9.36547
頓服	-9.36669
鹿茸	-9.36736
黄蘗	-9.36779
方用	-9.36786
羗活	-9.3687
肌膚	-9.3692
少氣	-9.37191
虚熱	-9.37322
他	-9.37353
孫	-9.37408
湯方	-9.37609
為之	-9.37728
不和	-9.37813
柔	-9.37909
五六	-9.37968
去黒	-9.38007
腎水	-9.3804
者謂	-9.38083
包	-9.38089
過多	-9.38089
瘕	-9.38116
五合	-9.38218
朱	-9.38264
分三服	-9.38314
研末	-9.38332
甘遂	-9.38335
咳	-9.38374
病在	-9.38442
井	-9.38447
松	-9.3853
浮腫	-9.38552
穴也	-9.38702
净	-9.38712
積熱	-9.38797
大豆	-9.38868
釋名	-9.39149
機	-9.39154
申	-9.39247
而已	-9.39252
寒邪	-9.3927
胷	-9.39288
去苗	-9.39307
二劑	-9.39318
旦	-9.3937
而生	-9.39695
藁本	-9.39729
風冷	-9.39762
眉	-9.39891
也又	-9.40006
去皮臍	-9.40015
而反	-9.4006
吐逆	-9.40073
碗	-9.40121
譫語	-9.4023
泉	-9.40257
補中益氣湯	-9.40275
東垣	-9.40429
換	-9.4057
慎	-9.40659
粳米	-9.40739
貴	-9.40779
姙娠	-9.4085
不思飲食	-9.4086
礬	-9.40889
惡血	-9.40999
太陽病	-9.41015
况	-9.41018
竒	-9.41114
上行	-9.41231
蝕	-9.4124
八分	-9.41258
不仁	-9.41322
十丸	-9.41476
川烏	-9.41539
取其	-9.41588
羸瘦	-9.41606
而安	-9.41726
一字	-9.41808
而痛	-9.41828
旺	-9.41848
楊	-9.41925
猪苓	-9.42058
細剉	-9.4211
悸	-9.42169
喘急	-9.42182
傍	-9.42322
一處	-9.42416
單	-9.42696
水中	-9.42753
桑	-9.42839
寸口	-9.42891
味苦	-9.42908
虚損	-9.42948
脇下	-9.42979
肢體	-9.4308
苖	-9.43107
實者	-9.43158
者當	-9.43299
百日	-9.43505
虚弱	-9.43563
拘急	-9.43608
抑	-9.43615
和勻	-9.43668
又療	-9.43686
銖	-9.43702
飲酒	-9.43722
蜀	-9.43741
紫苑	-9.43746
浄	-9.43753
者則	-9.43806
另研	-9.4395
五升	-9.43956
情	-9.44032
也此	-9.44185
說	-9.44189
邪熱	-9.44193
全蝎	-9.44229
小柴胡湯	-9.44282
宗	-9.44391
吸	-9.44409
貼之	-9.44411
五靈脂	-9.44411
唯	-9.44499
偶	-9.44604
燈心	-9.44796
亦不	-9.44828
欽定四庫全書	-9.44892
又以	-9.44912
重者	-9.4503
續斷	-9.45127
臥	-9.45289
蠶	-9.45394
不見	-9.45451
劇	-9.45532
温酒下	-9.45543
辰砂	-9.45558
訖	-9.45675
寒氣	-9.45676
痙	-9.45683
觸	-9.4576
熱服	-9.45852
側	-9.46012
而死	-9.46112
蜈蚣	-9.46128
喉中	-9.46201
虧	-9.46208
底	-9.46215
之則	-9.46244
肝經	-9.46297
食前服	-9.46354
中焦	-9.46545
車	-9.46567
癥	-9.46601
發明	-9.4664
喉痺	-9.46647
侵	-9.46694
狗	-9.46737
泄瀉	-9.46768
相似	-9.4682
霜	-9.46853
二合	-9.46886
不定	-9.46891
二穴	-9.46942
與之	-9.46955
醫者	-9.46984
屈	-9.47058
生於	-9.47232
鼠	-9.47237
赤色	-9.47292
去毛	-9.47343
鮮	-9.47444
匕	-9.47464
旁	-9.47482
射干	-9.47498
也凡	-9.475
夢	-9.47577
右三味	-9.47628
亁	-9.47656
靨	-9.47678
室	-9.47698
水一盞	-9.47792
寒濕	-9.47998
尅	-9.48074
更以	-9.48077
後方	-9.48088
我	-9.48094
菊花	-9.4814
細切	-9.48276
斗	-9.48286
之物	-9.48304
四錢	-9.48326
川椒	-9.48339
大如	-9.48348
生薑汁	-9.48357
増	-9.48425
黄栢	-9.48573
天雄	-9.48631
又名	-9.48651
吾	-9.48674
浴	-9.48691
荆	-9.48703
尸	-9.48844
六分	-9.48865
瘀	-9.48888
舍	-9.48902
三合	-9.4895
犀角屑	-9.48955
其證	-9.48973
吳	-9.48974
墨	-9.49019
灌之	-9.49019
奪	-9.49086
起於	-9.49124
艾葉	-9.49143
炮去	-9.49195
三陽	-9.49311
空腹	-9.49316
滋	-9.49352
湯浸	-9.49397
鼻中	-9.49549
虚勞	-9.49552
一两	-9.49555
止痛	-9.49596
附論	-9.49622
䕶	-9.4974
脾虚	-9.4977
也用	-9.49813
自愈	-9.49892
寧	-9.50009
發散	-9.50015
白蜜	-9.50054
蒼	-9.50059
一月	-9.50088
胷中	-9.50122
欬嗽	-9.50172
七枚	-9.50205
煅	-9.50256
春夏	-9.50326
寒水石	-9.50342
宫	-9.50366
去穰	-9.5053
煩渴	-9.50609
麩	-9.5064
砂仁	-9.50865
科	-9.50884
初起	-9.50921
良久	-9.50953
磁石	-9.51001
添	-9.51059
綱	-9.51185
夏月	-9.512
熏	-9.51207
調理	-9.5126
乙	-9.51389
蘆頭	-9.51442
房	-9.51537
一小兒	-9.51569
削	-9.51612
朱砂	-9.51653
小麥	-9.51751
每服三錢	-9.5188
不瘥	-9.52003
垂	-9.52174
薏苡仁	-9.52184
入腹	-9.52229
冷熱	-9.52291
粟	-9.52351
脉浮	-9.52393
卵	-9.52449
六兩	-9.52561
每日	-9.52574
發於	-9.52595
神麯	-9.52642
不散	-9.52652
古人	-9.52689
百合	-9.52715
入於	-9.52722
試	-9.52768
五色	-9.52817
之狀	-9.52865
天地	-9.52882
扶	-9.52897
雪	-9.52937
粘	-9.52964
荆芥穗	-9.5297
在上	-9.53057
久服	-9.53079
則愈	-9.53089
囊	-9.53154
特	-9.53178
水腫	-9.53211
騐	-9.53225
乾地黄	-9.53279
不愈	-9.53319
橘紅	-9.53326
秤	-9.53436
之以	-9.53441
午	-9.53527
截	-9.53553
煩渇	-9.53569
牽牛	-9.53617
鎊	-9.53631
方治	-9.53679
𤣥	-9.53722
風氣	-9.53784
今人	-9.53843
煎至	-9.53869
也今	-9.53872
苦寒	-9.5388
以其	-9.53887
風毒	-9.53897
羊肉	-9.53979
熟地	-9.5401
畢	-9.54016
不復	-9.54049
立效	-9.54063
足陽明	-9.54219
桑根白皮	-9.54348
稠	-9.54572
佐	-9.54584
二三	-9.54661
去根	-9.54736
顧	-9.5479
童便	-9.54925
須臾	-9.54973
頰	-9.55032
龜	-9.55097
堪	-9.55165
而無	-9.55171
繫	-9.55172
去節	-9.55378
金瘡	-9.55427
一方無	-9.55446
恍惚	-9.55476
切焙	-9.55493
薛	-9.55494
干	-9.55564
皮毛	-9.55578
葶藶	-9.55704
氏方	-9.55723
瓦	-9.55753
斂	-9.55755
蔵	-9.55768
丸服	-9.55779
肝木	-9.5584
五月	-9.55853
紫草	-9.55866
腸鳴	-9.55877
三服	-9.56099
三稜	-9.56113
厥逆	-9.56186
泄㵼	-9.56187
老人	-9.56227
日夜	-9.5625
管	-9.56257
右為散	-9.56351
精氣	-9.56353
暈	-9.56564
一半	-9.56578
去殻	-9.56614
癬	-9.56704
虚而	-9.56734
之症	-9.56742
按此	-9.56775
䑕	-9.56791
上攻	-9.56908
􁀙	-9.56956
欲死	-9.57068
藍	-9.57082
宋	-9.57109
蘸	-9.57145
吐之	-9.57182
没藥	-9.57324
眩	-9.57361
生乾地黄	-9.57397
可用	-9.57405
之下	-9.57439
錄	-9.57451
回	-9.5751
身重	-9.57589
吳茱茰	-9.57655
孕	-9.5767
擦	-9.57676
有汗	-9.57748
壅滯	-9.57765
脛	-9.57802
蓄	-9.57831
調和	-9.57867
兩手	-9.57931
痛不可忍	-9.57934
四味	-9.58093
或用	-9.58124
疔	-9.582
大寒	-9.58318
訶子	-9.58368
香附子	-9.58397
冷水	-9.58562
壮	-9.58588
仲	-9.58638
寒則	-9.58684
綿裹	-9.58728
工	-9.58755
硇砂	-9.58792
知其	-9.58845
食後服	-9.58881
能食	-9.58912
蠱毒	-9.58917
真氣	-9.59007
察	-9.5905
河	-9.59093
乾葛	-9.59105
疫	-9.5911
以此	-9.59141
不必	-9.59339
第一	-9.5936
煩滿	-9.59374
此皆	-9.5942
送	-9.59438
腧	-9.59463
嫩	-9.59472
鳥	-9.59481
麴	-9.59495
未盡	-9.59533
辰	-9.59617
清熱	-9.5971
墜	-9.59715
防	-9.59795
痂	-9.59873
眞	-9.59886
實則	-9.59907
葉似	-9.60013
萆薢	-9.60019
標	-9.60023
難治	-9.60064
戒	-9.60099
料	-9.60116
容	-9.60179
健	-9.60182
為陽	-9.60258
氣之	-9.60265
匙	-9.60278
吐利	-9.6029
脣	-9.60354
刻	-9.6042
等藥	-9.60425
如前	-9.60502
噎	-9.60522
何以	-9.60544
瘰癧	-9.60593
米飲	-9.6062
肝腎	-9.60735
促	-9.60793
頗	-9.60821
芎	-9.60881
之功	-9.6089
目赤	-9.6108
接	-9.61084
飽	-9.61084
内經	-9.61133
陵	-9.61178
猪脂	-9.61194
到	-9.61232
徹	-9.61315
丹參	-9.61358
氣滯	-9.61462
過度	-9.61486
陷中	-9.61803
一婦人	-9.61824
或有	-9.61954
純	-9.61966
之候	-9.61993
殺人	-9.62044
生肌	-9.62089
浸一宿	-9.62102
白殭蠶	-9.62296
雙	-9.62302
暴乾	-9.62343
勻	-9.62457
痊	-9.62516
胡粉	-9.62606
七次	-9.62651
在表	-9.62736
以生	-9.6276
瘤	-9.62787
日再	-9.62797
陽虚	-9.62868
雖有	-9.62878
倦	-9.62997
郁李仁	-9.63101
少陰	-9.63116
炭	-9.63163
蔓荆子	-9.63175
雞子	-9.63306
不差	-9.63343
不欲	-9.63405
蕪荑	-9.63421
己	-9.63428
糊	-9.63462
熱甚	-9.63513
去苖	-9.63566
欝	-9.63614
十全大補湯	-9.63968
四五	-9.63987
淚	-9.64033
是謂	-9.64071
去核	-9.64127
礬石	-9.64133
静	-9.64282
陶	-9.64335
水浸	-9.64371
烟	-9.64382
梁	-9.64426
徳	-9.6447
乳汁	-9.64515
麄	-9.64534
醉	-9.64543
轉筋	-9.64657
溫服	-9.64699
右四味	-9.6486
序	-9.64863
三五	-9.64865
欬逆	-9.64887
松脂	-9.65012
為熱	-9.65067
灸三壯	-9.65081
紫色	-9.65085
也宜	-9.65089
前後	-9.65119
互	-9.65171
曽	-9.6527
調服	-9.65298
痘瘡	-9.65414
乾漆	-9.65475
羽	-9.65544
眥	-9.65596
腠理	-9.65602
吐瀉	-9.65721
亦治	-9.65739
晒乾	-9.65825
立愈	-9.65907
煙	-9.6594
二服	-9.66048
輸	-9.6609
秦芁	-9.66092
口瘡	-9.66116
相搏	-9.66136
之理	-9.66147
線	-9.66158
濃煎	-9.6625
者是也	-9.66258
七錢	-9.66259
穿	-9.66304
麻黄湯	-9.66307
掌	-9.66327
細末	-9.66378
谷	-9.6638
否	-9.66389
槐	-9.66444
酒調下	-9.66479
水二盞	-9.66495
足太陽	-9.66506
鞕	-9.66546
冬月	-9.66564
執	-9.6661
血熱	-9.6663
苓	-9.66632
為君	-9.66633
治産後	-9.6664
穢	-9.66763
骨節	-9.66789
骨髓	-9.66797
赤腫	-9.66824
益甚	-9.6683
為寒	-9.66891
疰	-9.66951
酒炒	-9.66965
犬	-9.67103
二十丸	-9.6713
驚癎	-9.67282
七情	-9.67282
一味	-9.673
雀	-9.67301
素問	-9.67313
澄	-9.67322
鹿	-9.67327
者名	-9.67358
小便不通	-9.67396
色白	-9.67469
多食	-9.6753
尋	-9.67546
故以	-9.67649
染	-9.67673
如是	-9.67703
畜	-9.67714
頭眩	-9.67771
法當	-9.67788
䜴	-9.6781
誠	-9.67816
經脉	-9.67823
丹皮	-9.67849
在下	-9.67906
諸病	-9.67913
血脉	-9.68038
陽明病	-9.68063
右件	-9.68076
収	-9.68136
丸治小兒	-9.68189
此乃	-9.68243
屋	-9.68265
吐下	-9.68288
十八	-9.6833
南方	-9.6836
䧟	-9.6837
秋冬	-9.6839
驚風	-9.68394
熟乾地黄	-9.68438
决	-9.68441
不化	-9.6846
心氣	-9.68467
相和	-9.68517
炒黄	-9.68519
股	-9.68571
衛氣	-9.68581
之屬	-9.68801
丹溪	-9.68823
鐡	-9.68937
腎虚	-9.68978
帛	-9.6898
頭風	-9.68987
胡椒	-9.68994
則氣	-9.69006
在裏	-9.69009
圖經曰	-9.69021
初生	-9.69089
溲	-9.6915
嚥	-9.69176
故令	-9.69231
帝曰	-9.69259
葛	-9.6929
麻油	-9.69325
剉碎	-9.69334
黒色	-9.69335
咬	-9.69355
消渴	-9.69384
隱	-9.69403
受病	-9.69421
者即	-9.69468
方寸匕	-9.69475
錫	-9.69497
傾	-9.69541
縁	-9.69591
士	-9.69639
古方	-9.69682
一塊	-9.69686
邊	-9.69738
白色	-9.69796
證也	-9.69828
二枚	-9.6987
腰脚	-9.6989
橘	-9.70101
寛	-9.70179
加减	-9.7026
不效	-9.70263
此病	-9.70337
味辛	-9.70342
其中	-9.70364
鼻塞	-9.70396
温中	-9.70505
靜	-9.70639
梅	-9.70714
二日	-9.70735
此是	-9.70772
一百	-9.70817
觔	-9.70835
不問	-9.70907
每服二錢	-9.70911
肉豆蔲	-9.70917
學	-9.70953
右除	-9.71143
成膏	-9.71148
出於	-9.71153
之意	-9.71175
不盡	-9.71188
不時	-9.71206
氣味	-9.71209
石灰	-9.7121
而復	-9.7121
心神	-9.71252
杏	-9.71318
敷之	-9.71322
索	-9.71366
豬	-9.71367
其毒	-9.71375
中氣	-9.71397
去鬚	-9.71492
下行	-9.71502
吳茱萸	-9.71527
一大	-9.71535
故名	-9.71646
吐㵼	-9.71648
以手	-9.7176
麻子	-9.71771
個	-9.71801
隂中	-9.71822
惡心	-9.71834
解之	-9.71899
釋	-9.71901
民	-9.72049
乾嘔	-9.72056
藥也	-9.72142
川升麻	-9.72149
心肺	-9.72243
面目	-9.72247
湯浸去	-9.72279
係	-9.72371
品	-9.72415
藜蘆	-9.72455
慮	-9.72478
四物	-9.72487
十六	-9.72515
胡黄連	-9.72596
外邪	-9.72617
如無	-9.72645
膏治	-9.72655
以酒	-9.72679
噫	-9.7274
暮	-9.72814
抱	-9.72902
更加	-9.72938
梨	-9.72942
不生	-9.72991
竟	-9.7302
司天	-9.73038
烏藥	-9.73088
晚	-9.73089
教	-9.73119
黒豆	-9.73203
研各	-9.73228
刮	-9.73293
出肘	-9.73316
飢	-9.73348
食少	-9.73362
漿水	-9.73376
藥末	-9.73414
涕	-9.73424
號	-9.73464
擇	-9.73516
舒	-9.73562
生者	-9.73685
用補中益氣湯	-9.73699
黄蠟	-9.73738
又用	-9.73817
流注	-9.73832
而痊	-9.73919
柴	-9.73991
地龍	-9.74017
二月	-9.74104
瘡上	-9.74107
理中湯	-9.74121
日二服	-9.74123
術	-9.74135
伸	-9.7416
熱而	-9.74244
夀	-9.74287
建	-9.7434
温酒調下	-9.7439
各七	-9.74493
呼吸	-9.74516
隠	-9.74604
鬰	-9.74611
沒藥	-9.74619
榮衞	-9.7465
炒去	-9.74667
羸	-9.74693
虚者	-9.747
握	-9.74701
皆有	-9.74704
飲子	-9.74843
秦艽	-9.74897
饑	-9.74925
蒿	-9.74928
者由	-9.7494
煎至六分去滓	-9.74994
晝夜	-9.75037
化痰	-9.75097
親	-9.75224
痓	-9.75319
傷脾	-9.7534
禀	-9.75409
色赤	-9.75436
注云	-9.75533
據	-9.75693
增	-9.7572
㕮咀	-9.75723
疸	-9.75746
預	-9.75805
面色	-9.75843
汗之	-9.75844
女人	-9.75859
若因	-9.75867
烈	-9.75898
更服	-9.75951
之疾	-9.75964
於内	-9.75966
四逆	-9.76169
熱者	-9.76171
累	-9.76175
徧	-9.7622
路	-9.76253
米醋	-9.76256
假	-9.76296
壊	-9.76302
輕重	-9.76382
水調	-9.76417
二丸	-9.7643
黄蘖	-9.76583
請	-9.76684
六味	-9.76763
喘息	-9.76829
洗之	-9.76833
萬物	-9.76836
發黄	-9.76977
甘菊花	-9.76987
讝語	-9.77027
粟米	-9.77036
即瘥	-9.77079
或以	-9.77086
永	-9.77095
編	-9.77143
牽	-9.77241
受邪	-9.77482
謹按	-9.77493
虧損	-9.77522
縫	-9.77529
笑	-9.77619
也夫	-9.77619
出汗	-9.77621
甜	-9.77727
所生	-9.77753
常山	-9.77811
䖝	-9.77832
寅	-9.77918
酒調	-9.77937
一斗	-9.78022
一法	-9.78115
絹	-9.78131
乳食	-9.78188
千金方	-9.78195
姜	-9.78217
服此	-9.78315
悶亂	-9.7839
證治	-9.78494
相火	-9.78509
肺金	-9.78602
小便數	-9.78618
和匀	-9.78714
半盞	-9.78715
丙	-9.78721
俟	-9.78722
顆	-9.78827
漢	-9.78856
不拘多少	-9.78987
下後	-9.78989
刺痛	-9.79012
五臓	-9.79043
月餘	-9.79077
脇痛	-9.79087
怯	-9.79145
外感	-9.79161
内經曰	-9.79169
用此	-9.79201
鱗	-9.79212
人迎	-9.7923
攝	-9.79323
補腎	-9.79326
鼓	-9.79326
山查	-9.79397
日華子云	-9.79436
五加皮	-9.79512
酢	-9.79613
米飲調下	-9.79635
消渇	-9.79666
而出	-9.79698
有力	-9.79742
瘡疹	-9.79772
漸漸	-9.79797
蓯蓉	-9.79808
氣不足	-9.79836
腕	-9.79843
白虎湯	-9.7985
腋	-9.79923
形如	-9.79929
一條	-9.80004
八月	-9.80099
酒洗	-9.80137
鴨	-9.802
於外	-9.80259
各六	-9.8028
之若	-9.80292
白虎	-9.8037
栢子仁	-9.80372
陸	-9.80462
纒	-9.80527
符	-9.80568
三隂	-9.80606
瞿麥	-9.80655
心胸	-9.80707
慢火	-9.80787
其性	-9.80808
腫滿	-9.80819
兩脇	-9.80942
梗	-9.8105
舌上	-9.8107
權	-9.81083
第二	-9.81084
氷	-9.81121
發背	-9.81124
便血	-9.81134
每服五錢	-9.81158
漆	-9.81193
炒令	-9.81235
林	-9.81313
随	-9.8132
庚	-9.81324
者其	-9.81466
攤	-9.81537
栁	-9.81616
可治	-9.81715
冒	-9.81733
後用	-9.81748
山谷	-9.81795
乏	-9.81814
四月	-9.8183
缺	-9.81891
自利	-9.8192
杜	-9.81936
半日	-9.81981
匀	-9.81982
昔	-9.81985
列	-9.81991
酥炙	-9.82024
耳中	-9.82033
一方有	-9.82055
青橘皮	-9.82058
源	-9.82096
其根	-9.8211
又方用	-9.82159
計	-9.8218
大腹皮	-9.82184
醒	-9.82269
状	-9.82282
擊	-9.82284
一兩去	-9.82318
吐痰	-9.82322
瘡瘍	-9.82398
淘	-9.82407
甚多	-9.82571
肋	-9.82571
慢驚	-9.82603
若不	-9.82607
十枚	-9.82613
言語	-9.82687
通草	-9.82713
黄疸	-9.82719
吐出	-9.82749
熱也	-9.82905
八兩	-9.8292
次日	-9.82927
慢	-9.82934
煩燥	-9.82947
小便利	-9.82951
不禁	-9.83006
必有	-9.83033
去土	-9.83107
何首烏	-9.8311
三年	-9.83116
仰	-9.83127
二經	-9.83205
命門	-9.8322
阿魏	-9.8327
酉	-9.83278
瞖	-9.83284
崩	-9.83285
枕	-9.83347
辛熱	-9.83375
數劑	-9.83379
海藻	-9.83399
者可	-9.83406
生姜	-9.83406
大人	-9.83454
脉之	-9.83501
劉	-9.83542
五行	-9.83593
梹榔	-9.83593
虚冷	-9.83642
癥瘕	-9.83665
使人	-9.8373
瘻	-9.83755
通利	-9.83781
者多	-9.83842
椀	-9.84022
遊	-9.84076
急痛	-9.8409
懐	-9.84121
五七	-9.84123
爪	-9.84466
盜汗	-9.84512
色黄	-9.84528
白歛	-9.84601
惑	-9.84606
閉塞	-9.84697
五丸	-9.84927
薤白	-9.84948
為隂	-9.85029
蛇床子	-9.85093
三里	-9.85123
帶下	-9.85161
麪	-9.85181
石菖蒲	-9.8521
即差	-9.8522
茱茰	-9.85248
洗去	-9.8525
溏	-9.85277
腎經	-9.85301
氣虛	-9.85318
各有	-9.85417
自出	-9.8545
勞傷	-9.85466
如常	-9.8548
聖濟	-9.85587
大便不通	-9.85591
挺	-9.85598
等症	-9.85719
而致	-9.85734
腫毒	-9.85764
蜂	-9.85797
治中風	-9.85814
臨卧	-9.85838
悲	-9.85918
之精	-9.85954
兎絲子	-9.85955
一婦	-9.8597
五寸	-9.85995
褁	-9.86106
温酒	-9.86119
痩	-9.86157
癲	-9.8623
欵冬花	-9.86325
面黄	-9.86328
鹽湯	-9.86364
脹痛	-9.86469
闕	-9.86489
飲食少思	-9.86497
陽也	-9.86511
墮	-9.86555
額	-9.86625
心脾	-9.86626
經水	-9.86635
避	-9.86696
搏	-9.86703
謹	-9.86816
神効	-9.86901
庶	-9.86956
藏府	-9.87046
造	-9.87139
次用	-9.872
之火	-9.87204
拭	-9.87215
皆由	-9.87224
醎	-9.87236
局方	-9.87257
第三	-9.87269
縣	-9.87277
右為末煉蜜	-9.8729
其所	-9.87304
再用	-9.87317
水一盞半	-9.87331
發熱惡寒	-9.8734
血出	-9.87432
入胃	-9.87496
加人參	-9.87564
晝	-9.87585
曝乾	-9.87587
密	-9.87613
言之	-9.87652
煉蜜	-9.87654
棗肉	-9.87681
大㦸	-9.87729
炮製	-9.87807
或時	-9.87836
繩	-9.87893
三丸	-9.87954
而有	-9.87955
各二錢	-9.87964
各五錢	-9.88066
盤	-9.88066
拔	-9.88068
中寒	-9.88079
輕者	-9.88114
牢	-9.88132
於上	-9.88136
阻	-9.88138
望	-9.88204
蔓	-9.88212
鍾	-9.88229
當用	-9.88252
内有	-9.8845
和之	-9.88522
二穴在	-9.88542
半两	-9.88547
大小便	-9.88563
踈	-9.8867
足少陽	-9.88761
政	-9.88807
變為	-9.88814
延胡索	-9.88816
痛處	-9.88841
不去	-9.88893
之義	-9.88921
兼治	-9.88938
不收	-9.88974
拘	-9.89009
御	-9.89047
牛蒡子	-9.89048
壬	-9.89171
煎七分	-9.89211
傷於	-9.89218
莖葉	-9.89279
哭	-9.89329
啼	-9.8935
先生	-9.89367
一具	-9.89388
目眩	-9.89423
相摶	-9.89445
一物	-9.89449
其脈	-9.8951
地黄丸	-9.89536
絞	-9.89539
里	-9.89581
竹茹	-9.89585
大黃	-9.89633
於肺	-9.89641
錯	-9.89673
百壯	-9.89679
天行	-9.89708
治諸	-9.89735
乆服	-9.89842
診之	-9.89903
水飛	-9.8992
神仙	-9.89995
水煮	-9.90032
蒲	-9.90072
每服一錢	-9.90129
無不	-9.9013
樂	-9.90225
均	-9.90288
獸	-9.90339
疥	-9.90354
五倍子	-9.90385
不得卧	-9.904
涌	-9.90441
環	-9.90446
客於	-9.90475
有寒	-9.90495
盗汗	-9.90499
猪肉	-9.90518
束	-9.90557
金匱	-9.90583
前藥	-9.90617
襲	-9.9064
六七	-9.90676
攻之	-9.90696
細嚼	-9.90779
旬	-9.90831
一握	-9.90855
巴㦸	-9.90856
溼	-9.90882
其色	-9.90964
不可以	-9.90999
堅硬	-9.91056
送下	-9.91074
去渣	-9.91086
人參白术	-9.91093
瘍	-9.91119
衂血	-9.91141
痛者	-9.91159
一作	-9.91187
肺痿	-9.91227
五十丸	-9.91249
攣	-9.91261
聾	-9.91404
汗下	-9.91421
耳鳴	-9.91457
二百	-9.91487
妊娠	-9.91488
延年	-9.91521
草烏	-9.91587
薑三片	-9.91628
鼈	-9.91646
往	-9.91658
方論	-9.9166
參术	-9.91689
僧	-9.91693
右搗篩	-9.91724
八珍湯	-9.91779
雷	-9.91796
奉	-9.91805
中惡	-9.92059
蘆薈	-9.92167
篩	-9.92244
第十	-9.9234
宿食	-9.92374
不甚	-9.92501
𥙷	-9.92509
不可用	-9.92517
武	-9.92562
衞	-9.92689
頭目	-9.92721
骨蒸	-9.92767
休	-9.92795
三枚	-9.92803
山茱茰	-9.92841
空心食前	-9.92881
温補	-9.92901
病之	-9.92924
改	-9.92986
男女	-9.93088
衍義曰	-9.93101
搗碎	-9.93158
投之	-9.93218
鯉魚	-9.93223
考	-9.93248
振	-9.93248
加附子	-9.93273
户	-9.93313
月經	-9.93323
垢	-9.93326
之上	-9.93339
紀	-9.9345
質	-9.93566
脈浮	-9.93668
塵	-9.93713
癩	-9.93793
脾肺	-9.93802
氣急	-9.93802
左手	-9.93806
鱉甲	-9.93807
屢	-9.93825
形氣	-9.93857
揀	-9.93905
㸔	-9.9394
貯	-9.93964
晩	-9.93992
述	-9.93997
統	-9.94119
不能言	-9.94136
興	-9.94139
仍以	-9.94167
破血	-9.94228
研勻	-9.94262
即是	-9.94287
十餘	-9.94319
盆	-9.94385
氣不	-9.94406
少時	-9.94466
剛	-9.94601
皮肉	-9.94631
潔	-9.94701
中央	-9.94781
受之	-9.94847
嚏	-9.94858
補益	-9.94876
虫	-9.94885
去蘆頭	-9.949
芩	-9.94909
刺之	-9.9494
乳母	-9.95003
略	-9.95014
其子	-9.95047
問曰	-9.95116
秦	-9.95202
瘴	-9.95209
不起	-9.95217
面青	-9.95217
魂	-9.95259
不敢	-9.95401
結核	-9.95453
蛤粉	-9.95502
完	-9.95512
多用	-9.95551
臓腑	-9.95559
一時	-9.956
硼砂	-9.95606
有痰	-9.95609
血分	-9.95622
育	-9.95713
發搐	-9.95738
七丸	-9.95757
黄蓍	-9.9576
瘈瘲	-9.95794
天氣	-9.95856
夕	-9.95929
川烏頭	-9.96013
補脾	-9.96046
逼	-9.96092
伐	-9.96095
補氣	-9.96098
破故紙	-9.96147
栢	-9.96184
専	-9.96204
咽痛	-9.96221
六十	-9.96245
史	-9.96252
十九	-9.96253
六月	-9.96286
嗜	-9.96313
足少隂	-9.96364
每服一丸	-9.96373
茵陳	-9.96376
紋	-9.96377
虚也	-9.96387
之令	-9.96403
右為末用	-9.96484
摶	-9.96621
等分為末	-9.96628
臍腹	-9.96629
議	-9.96632
一両	-9.96641
民病	-9.96694
於此	-9.96752
鍾乳	-9.96771
右搗	-9.96784
之處	-9.96837
生地黄汁	-9.96841
濕氣	-9.96863
為末以	-9.96871
七壯	-9.9689
格	-9.96903
又治	-9.96955
七月	-9.96971
論云	-9.96972
食積	-9.96993
此症	-9.97017
壓	-9.97024
某	-9.97035
牀	-9.97041
各三分	-9.9708
表邪	-9.97106
郡	-9.97109
腹大	-9.97178
羚羊角屑	-9.97183
丑	-9.97193
治姙娠	-9.97195
邪在	-9.97232
揚	-9.97256
瘧疾	-9.97284
人參甘草	-9.97289
葵	-9.97378
胸脇	-9.97383
脉沉	-9.97449
芝	-9.97504
壽	-9.97517
滲	-9.97519
燒存性	-9.97529
會	-9.9756
牙齒	-9.97653
田	-9.97728
其血	-9.9773
燥熱	-9.97839
呉	-9.97855
杖	-9.97892
其狀	-9.97894
徐徐	-9.97955
稟	-9.97966
不然	-9.97998
諸證	-9.98003
如神	-9.98011
圍	-9.98023
山茱萸	-9.9806
多服	-9.9807
水穀	-9.98082
枇杷葉	-9.98088
皆可	-9.98108
一男子	-9.98173
狐	-9.98202
相合	-9.98247
槐花	-9.98273
射	-9.9829
中滿	-9.98293
眠	-9.98334
青鹽	-9.98338
勞役	-9.98386
出危	-9.98421
頌曰	-9.98465
肝氣	-9.98582
芎歸	-9.98593
煎取	-9.98596
薰	-9.98604
手太隂	-9.98633
温病	-9.98639
之内	-9.98726
繼	-9.98774
諸疾	-9.98841
生薑三片	-9.98848
熱盛	-9.98851
活血	-9.98874
托裏	-9.98891
其熱	-9.98919
硝	-9.98955
免	-9.98983
捻	-9.99012
小者	-9.9903
傷食	-9.99065
是為	-9.99071
火燒	-9.99105
撰	-9.99186
一片	-9.99195
腫脹	-9.99214
水榖	-9.99303
上衝	-9.99328
漏蘆	-9.99335
決	-9.9934
顔色	-9.99374
藥力	-9.99382
寐	-9.99402
龍膽	-9.99404
虛實	-9.99411
諸症	-9.99445
竈	-9.99517
只用	-9.99518
氣喘	-9.9961
湯送下	-9.99627
剉各	-9.99652
也當	-9.99729
有人	-9.99827
訶梨勒	-9.99882
右五味	-9.99884
中之	-9.99943
則病	-9.99958
假令	-10
衇浮	-10.0001
傷人	-10.0003
葵子	-10.0008
水下	-10.0008
青木香	-10.0009
鈎	-10.0013
縮砂仁	-10.0014
補虚	-10.002
總錄	-10.0024
糖	-10.003
十一	-10.0034
緑	-10.0035
纔	-10.0037
鋪	-10.0037
芩連	-10.0039
之本	-10.0042
故知	-10.0047
眀	-10.0049
幾	-10.0056
之道	-10.0059
一匙	-10.0065
謬	-10.0065
産婦	-10.0069
殭蠶	-10.0074
亦名	-10.0075
結實	-10.0081
亦能	-10.0084
發其汗	-10.0087
麸炒	-10.009
水道	-10.0093
伯	-10.0097
白皮	-10.0097
勝則	-10.01
枸杞子	-10.0107
中脘	-10.0109
顯	-10.0112
摻	-10.0117
凶	-10.0117
景	-10.0122
忍	-10.0123
有聲	-10.0126
乾燥	-10.013
不得眠	-10.0146
癸	-10.0147
除熱	-10.0151
商	-10.0152
姑	-10.0171
暗	-10.0174
禍	-10.0174
心腹脹滿	-10.0175
升麻湯	-10.0178
不寧	-10.018
烏梅肉	-10.0181
燈	-10.0185
而病	-10.0185
不渴	-10.0191
夭	-10.0192
時氣	-10.0197
良薑	-10.0224
不明	-10.0225
炮各	-10.0225
告	-10.0225
金銀花	-10.0226
也以	-10.0226
熨之	-10.0234
口鼻	-10.0235
倦怠	-10.0238
加大黄	-10.0239
龍齒	-10.024
十五丸	-10.0249
蓼	-10.0257
少隂病	-10.0259
服此藥	-10.026
小豆	-10.0263
寶	-10.0265
升降	-10.0274
飬	-10.0274
已成	-10.0275
順氣	-10.0278
名為	-10.0282
備急	-10.0285
地氣	-10.0289
瘡腫	-10.029
㫁	-10.0293
雜病	-10.03
剪	-10.0303
之外	-10.0314
木賊	-10.032
三部	-10.032
濾	-10.0321
厭	-10.0322
胡麻	-10.0323
别録	-10.0325
青蒿	-10.033
作渴	-10.0333
者非	-10.0334
抵	-10.0336
牡丹	-10.0336
𢎞景曰	-10.0342
風痰	-10.0342
黍	-10.0344
城	-10.0355
以下	-10.0361
也如	-10.0375
賊	-10.0376
生冷	-10.038
十三	-10.0382
日再服	-10.0382
麝	-10.0383
揩	-10.0383
頷	-10.0386
心腹痛	-10.0389
腰脊	-10.0389
割	-10.039
迺	-10.039
傷損	-10.0392
含之	-10.0395
立止	-10.0395
七八	-10.0396
喘促	-10.0397
圖經	-10.0399
窠	-10.0404
洞	-10.0412
𤼵	-10.0413
砭	-10.0424
十七	-10.0424
丹毒	-10.0424
召	-10.0425
腰膝	-10.043
烙	-10.0433
尤妙	-10.0436
客熱	-10.0442
羸痩	-10.0443
生薑湯下	-10.0454
糓	-10.0457
腰背	-10.0461
桑螵蛸	-10.0461
鼻衂	-10.0464
千金翼	-10.0467
右剉	-10.0467
丈	-10.0472
薑湯下	-10.0474
故能	-10.0475
伏龍肝	-10.0477
壞	-10.048
無子	-10.0482
十兩	-10.0487
自止	-10.0494
水蛭	-10.0495
令勻	-10.0496
㫖	-10.0516
蟾酥	-10.0517
詩	-10.0518
大青	-10.0519
藏器曰	-10.0519
飲冷	-10.0526
蘭	-10.0529
而下	-10.0532
胷膈	-10.0532
宜以	-10.0545
消食	-10.0549
外用	-10.0554
可知	-10.0557
妄行	-10.0559
諸瘡	-10.0564
必死	-10.0573
沈香	-10.0578
鍊	-10.0579
為衣	-10.058
内消	-10.058
晒	-10.0587
各三錢	-10.0593
薫	-10.0593
目中	-10.0595
小便難	-10.0597
悞	-10.0598
負	-10.0598
癲疾	-10.0605
一粒	-10.0606
帝	-10.0609
肘後	-10.061
察其	-10.0617
發之	-10.0619
徒	-10.0624
迫	-10.0626
四逆湯	-10.0633
蓮	-10.0635
扁	-10.0638
曉	-10.064
去麄皮	-10.064
搽	-10.0643
腋下	-10.0644
穿山甲	-10.065
二錢半	-10.0651
戊	-10.0653
欬𠻳	-10.0661
治卒	-10.0661
冐	-10.0662
不至	-10.0663
照	-10.0664
旋覆花	-10.0668
六味丸	-10.0671
之熱	-10.0677
淬	-10.0677
愚	-10.0678
如膏	-10.0683
痛甚	-10.0683
孟	-10.0684
各一分	-10.0686
易之	-10.0688
太陰	-10.0689
奔	-10.0697
餅子	-10.0699
沫	-10.0703
炮製去	-10.0708
縮砂	-10.0711
之變	-10.0713
半分	-10.0719
產	-10.0723
炭火	-10.0728
煮取	-10.0733
後人	-10.074
薯蕷	-10.0743
毎服三錢	-10.0743
炮薑	-10.0748
半月	-10.0756
隂也	-10.0756
滚	-10.0758
逆氣	-10.076
草木	-10.0761
而不能	-10.0763
症也	-10.0764
方見本門	-10.0767
日乾	-10.0772
汪	-10.0774
鎮	-10.0775
去其	-10.0776
口苦	-10.0779
數十	-10.0785
除濕	-10.0788
鍋	-10.0796
獲	-10.0803
氣短	-10.0805
氣也	-10.0807
亥	-10.0813
日久	-10.0813
京三稜	-10.0815
形體	-10.083
提	-10.0832
絞取汁	-10.0838
心經	-10.0839
夜卧	-10.0842
揉	-10.0843
因而	-10.0851
之患	-10.0857
入裏	-10.0862
四劑	-10.0862
缺盆	-10.0865
葉如	-10.087
不相	-10.0884
亡陽	-10.0886
不拘	-10.0886
邉	-10.0887
腹中痛	-10.0887
方取	-10.0889
急用	-10.0891
有之	-10.0893
句	-10.0896
酒調服	-10.0898
斜	-10.0899
即出	-10.0912
右水煎服	-10.0913
積滯	-10.0915
不勝	-10.0929
痛止	-10.0931
六七日	-10.0931
栗	-10.0933
藴	-10.0935
腮	-10.0939
錢氏	-10.094
熬成膏	-10.0941
腥	-10.0941
龍膽草	-10.0942
次下	-10.0943
罷	-10.0949
清水	-10.095
凈	-10.0957
平旦	-10.0964
得其	-10.0966
責	-10.0971
二斤	-10.0976
鬱金	-10.0982
右手	-10.0982
父	-10.0983
芤	-10.0984
忽然	-10.0984
水一大盞	-10.0988
同研	-10.099
韭	-10.0992
呉茱茰	-10.0996
足太隂	-10.0997
丈夫	-10.0998
圓治	-10.1002
癭	-10.1004
搗爛	-10.1007
人有	-10.1009
麫糊	-10.1015
六君子湯	-10.1016
手足厥冷	-10.1016
多汗	-10.1016
不言	-10.1032
利之	-10.1041
養血	-10.1043
調中	-10.1045
十月	-10.1045
窮	-10.1047
黯	-10.1048
補骨脂	-10.1055
生甘草	-10.1056
血竭	-10.1061
多因	-10.1063
白芨	-10.1063
頭上	-10.1064
牡	-10.1067
混	-10.107
紫石英	-10.1072
表證	-10.1072
淹	-10.1072
嘔噦	-10.1074
趙	-10.1076
之經	-10.1077
七粒	-10.1082
厥陰	-10.1083
空心温服	-10.109
汗不出	-10.1094
研為末	-10.1095
在外	-10.11
行於	-10.1104
鎔	-10.1108
輪	-10.111
勞倦	-10.1111
者良	-10.1116
加至	-10.1121
存性	-10.1122
黄檗	-10.1127
勿食	-10.1127
瀝	-10.1128
案	-10.113
不快	-10.1137
臘月	-10.1138
為使	-10.1141
蜜陀僧	-10.1143
等物	-10.1146
肛門	-10.1146
黃芩	-10.1153
蟹	-10.1155
瘖	-10.1163
少食	-10.1167
丸如梧桐子大	-10.1173
補中	-10.1176
穰	-10.1176
結於	-10.1178
拾	-10.1182
輩	-10.1182
逢	-10.1183
十二經	-10.1185
其形	-10.1188
砒	-10.1192
歛	-10.1192
床	-10.1193
痞滿	-10.1197
作渇	-10.1197
資	-10.1201
皮尖	-10.1205
椎	-10.1206
無毒主	-10.1206
三十丸	-10.1206
熱結	-10.1211
不開	-10.1213
當歸川芎	-10.1213
諸風	-10.1219
壁	-10.1222
五枚	-10.1225
授	-10.1233
相去	-10.1234
三次	-10.1234
脾腎	-10.1236
苦酒	-10.1236
水洗	-10.1236
兎	-10.1238
従	-10.1242
六日	-10.1242
脾經	-10.1246
毋	-10.1247
六氣	-10.1249
赤芍	-10.1249
人多	-10.1257
降火	-10.1258
其實	-10.1258
須用	-10.1263
色青	-10.1273
去之	-10.1275
療之	-10.1276
蜜丸	-10.1279
此疾	-10.128
故為	-10.128
生風	-10.1283
而數	-10.1283
榮氣	-10.1284
荳	-10.1285
炊	-10.1288
九月	-10.129
啖	-10.1293
心下痞	-10.1297
殺蟲	-10.13
廢	-10.1303
鬲	-10.1306
京	-10.1309
發時	-10.1322
鉛	-10.1323
欲絶	-10.133
安胎	-10.1335
肝脾	-10.1335
氣弱	-10.1337
發表	-10.1338
神氣	-10.134
小便赤	-10.1341
亦佳	-10.1346
托	-10.1349
眩暈	-10.135
内服	-10.1351
可服	-10.1362
三嵗	-10.1366
尤佳	-10.1369
内障	-10.1377
有病	-10.1382
便秘	-10.1385
皆因	-10.1386
寫	-10.1386
岐伯曰	-10.1389
不可食	-10.139
痃癖	-10.139
不信	-10.139
之故	-10.1397
□	-10.1402
戰	-10.1403
血脈	-10.1407
煎至七分去滓	-10.1408
水和	-10.1411
童	-10.1413
丹治	-10.1413
膿水	-10.1416
令兒	-10.1417
爲末	-10.1422
之分	-10.1425
温水下	-10.1427
蘆根	-10.1428
胃熱	-10.1428
一觔	-10.1432
突	-10.1434
賢	-10.1434
務	-10.1435
十粒	-10.1441
簡	-10.1447
康	-10.1451
日中	-10.1454
搜	-10.1458
大補	-10.146
荷葉	-10.1468
半合	-10.1469
不絶	-10.1478
数	-10.1486
潰爛	-10.1487
師曰	-10.1489
者生	-10.1492
子大	-10.1498
博	-10.1498
筒	-10.1502
切片	-10.1507
各八	-10.1508
炒一	-10.1508
聽	-10.1509
或作	-10.152
可也	-10.1525
病源	-10.1527
患者	-10.1529
氣上	-10.1532
心熱	-10.1536
足厥隂	-10.1536
而長	-10.1538
生氣	-10.1538
咽乾	-10.1538
調之	-10.1545
右件藥	-10.1548
法也	-10.1548
舌本	-10.155
相類	-10.1558
味酸	-10.1559
之名	-10.156
候冷	-10.156
維	-10.1561
不語	-10.1561
鵝	-10.1567
第四	-10.1572
七十	-10.1574
巨	-10.1574
故云	-10.1575
后	-10.1575
痘疹	-10.1578
或云	-10.1578
鞭	-10.158
凝滯	-10.1585
筋脉	-10.1593
帖	-10.1594
淡竹葉	-10.1594
樞	-10.1595
盛則	-10.1599
以藥	-10.1603
言其	-10.1608
讀	-10.1608
白者	-10.1609
即以	-10.1609
魄	-10.161
麵糊	-10.1611
實也	-10.1613
水火	-10.1633
次入	-10.1641
搗篩	-10.1642
頃	-10.1644
止血	-10.1647
分二服	-10.1652
喘滿	-10.1654
烏蛇	-10.1658
肝火	-10.1658
不死	-10.1668
智	-10.1668
取汗	-10.1672
虎骨	-10.1673
黄芪	-10.1673
肺癰	-10.1675
之脈	-10.1682
八味丸	-10.1684
瘰	-10.1686
者佳	-10.1686
二便	-10.1687
猛	-10.1687
妻	-10.1693
不大便	-10.1696
蜜和	-10.1697
臣禹錫等謹按	-10.17
拾遺	-10.17
視之	-10.17
硝石	-10.1703
如故	-10.1705
醋炙	-10.1705
瓜	-10.1709
大風	-10.1709
淚出	-10.1713
服後	-10.1716
必先	-10.1717
米泔	-10.1717
於心	-10.1722
俠	-10.1723
脆	-10.1724
温之	-10.1728
面上	-10.1737
澤蘭	-10.1742
滅	-10.1744
飲下	-10.1745
鷄子	-10.1746
省	-10.1746
消毒	-10.175
去瓤	-10.1751
右為末每服二錢	-10.1752
反胃	-10.1758
去黑	-10.1759
一小	-10.1763
不除	-10.1771
义	-10.1772
胸腹	-10.1775
噉	-10.1776
成瘡	-10.1778
於隂	-10.1784
昬	-10.179
未解	-10.1791
煎至五分去滓	-10.1794
喜怒	-10.1796
枸杞	-10.1802
好酒	-10.1802
鹿角	-10.1803
倉	-10.1804
歧伯曰	-10.1807
又方治	-10.181
仆	-10.1814
白薇	-10.182
則不	-10.182
席	-10.1822
㸃之	-10.1824
普	-10.1824
温熱	-10.1827
為佳	-10.1828
聖惠方	-10.1842
者謂之	-10.1843
之有	-10.1846
埋	-10.1851
暫	-10.1851
𢷬篩	-10.1852
陽邪	-10.1853
變成	-10.1861
潄	-10.1868
六錢	-10.1874
研匀	-10.1877
六腑	-10.1877
掃	-10.188
夫人	-10.1884
犀	-10.1887
二斗	-10.1889
不堪	-10.1892
惡氣	-10.1893
不欲食	-10.1896
脉弦	-10.1899
驢	-10.1901
地黄汁	-10.1902
澄清	-10.1906
不渇	-10.1909
裏急	-10.1912
瓶	-10.1915
湧	-10.192
精血	-10.1922
之為病	-10.1924
筋急	-10.1926
黃連	-10.1929
髀	-10.1933
研一	-10.1937
汝	-10.1938
昌	-10.194
腦子	-10.1942
其候	-10.1947
大蒜	-10.1951
登	-10.1958
楚	-10.1958
發狂	-10.1965
肉豆䓻	-10.1966
解肌	-10.1967
時行	-10.1967
口舌生瘡	-10.1972
中毒	-10.1972
祖	-10.1972
稍熱服	-10.1973
復作	-10.1984
當先	-10.1985
季	-10.1986
㧞	-10.1987
赤白痢	-10.199
生葱	-10.1992
用生	-10.2003
白湯下	-10.2007
稻	-10.2008
二物	-10.201
研極細	-10.2011
少頃	-10.2015
補血	-10.2019
追	-10.2026
掣	-10.2026
經言	-10.2027
平胃散	-10.2029
其經	-10.2036
鵞	-10.2037
二七	-10.2041
爪甲	-10.2042
咸	-10.2043
参	-10.2044
二三日	-10.2046
灼	-10.2047
一方加	-10.2048
板	-10.2056
患此	-10.2064
修	-10.2071
月水	-10.2073
徧身	-10.2084
午後	-10.2089
撮	-10.2092
沸湯	-10.2093
蒂	-10.2093
頑	-10.2094
諸方	-10.2096
一二日	-10.2098
所主	-10.2099
祕	-10.21
元參	-10.2101
得所	-10.2102
神驗	-10.2103
章	-10.2105
而愈一小兒	-10.2106
甦	-10.2108
㣲黄	-10.2112
相得	-10.2113
陷者中	-10.2114
損傷	-10.2116
一云	-10.212
北方	-10.2123
八味	-10.2133
搗汁	-10.2138
淋瀝	-10.214
筆	-10.2141
夲	-10.2152
右六味	-10.2155
輒	-10.2158
承氣湯	-10.2158
辛温	-10.2158
多有	-10.2168
山梔子	-10.2169
此則	-10.2171
自消	-10.2175
寒者	-10.2177
為佐	-10.2178
而發	-10.2181
上有	-10.2182
治眼	-10.2183
消痰	-10.2184
麯	-10.2195
肘後方	-10.2197
暢	-10.2198
皆能	-10.22
所在	-10.22
病後	-10.22
進食	-10.2203
矣故	-10.2204
不須	-10.2206
酒煮	-10.2208
風痺	-10.2211
香薷	-10.2225
童子小便	-10.2226
時有	-10.2227
腹脇	-10.2231
臼	-10.2233
碾	-10.2233
加之	-10.2234
右為末以	-10.2238
英	-10.2239
桃花	-10.2239
數服	-10.2239
化為	-10.2243
眼目	-10.2246
卽	-10.2246
泣	-10.2252
溪	-10.2256
修治	-10.226
醬	-10.226
令乾	-10.2263
吞下	-10.2264
脉數	-10.2267
結聚	-10.2271
蜘蛛	-10.2273
狂言	-10.2275
漬之	-10.2279
可見	-10.2281
麻木	-10.2284
補其	-10.2284
難産	-10.2284
腹脹滿	-10.2288
臘	-10.2289
之方	-10.2291
全愈	-10.2292
每服三錢水一盞	-10.2301
擘	-10.2302
滿悶	-10.2306
頓服之	-10.2307
𦍑活	-10.2309
四君子湯	-10.2312
所出	-10.2312
垣	-10.2312
其上	-10.2315
血崩	-10.2316
無熱	-10.2318
初服	-10.2319
麻黃	-10.232
丸如	-10.2321
癮疹	-10.2321
天竺黄	-10.2322
穴在	-10.2326
去滓温服	-10.2329
不能飲食	-10.2329
築	-10.2329
腫硬	-10.2332
虛寒	-10.2335
莽草	-10.234
盈	-10.2345
陶隱居云	-10.2346
外證	-10.2353
靈樞	-10.2359
雌	-10.2359
此法	-10.2363
白蒺藜	-10.2363
鯽魚	-10.2365
拌勻	-10.2366
蘿蔔	-10.2378
見於	-10.2379
桑寄生	-10.2379
牛乳	-10.2392
血虛	-10.2392
峻	-10.2393
鬱結	-10.2398
紫菀	-10.2399
各三兩	-10.2405
當下	-10.2407
蒸餅	-10.2408
有時	-10.2417
歸脾湯	-10.2419
無度	-10.2426
火上	-10.243
消石	-10.2433
手陽明	-10.2435
此物	-10.2452
以苦	-10.2456
孔中	-10.2461
其法	-10.2465
怪	-10.2467
筋攣	-10.2472
鎮心	-10.2472
藿香葉	-10.2474
配	-10.2474
解散	-10.2475
死者	-10.2477
虚羸	-10.2482
煩心	-10.2485
凢	-10.2485
尿血	-10.2486
其邪	-10.2491
治病	-10.2496
攪勻	-10.2499
蘓	-10.2501
毎用	-10.2503
湯泡	-10.2505
五更	-10.2506
行氣	-10.2507
壮熱	-10.2509
則生	-10.251
馬牙硝	-10.2518
肺熱	-10.2523
者名曰	-10.2523
半兩炙	-10.2523
分作	-10.2525
代之	-10.2527
泔	-10.2528
乾蝎	-10.2529
之説	-10.253
和中	-10.2532
羮	-10.2541
偏枯	-10.2545
也方	-10.2548
根本	-10.2548
去根節	-10.255
解表	-10.2552
棗二枚	-10.2553
右等分	-10.2556
癃	-10.2557
補中益氣	-10.2559
如水	-10.2561
七合	-10.2561
真珠	-10.2561
或曰	-10.2567
乾者	-10.2568
以水一斗	-10.2571
亡血	-10.2577
則死	-10.2578
仍用	-10.2579
為妙	-10.2579
髙良薑	-10.258
隂盛	-10.2583
視其	-10.2584
者爲	-10.2587
後以	-10.2587
氣壅	-10.259
有一	-10.259
胃虚	-10.2597
故其	-10.2601
麤	-10.2609
僕	-10.261
地黃	-10.2611
熱藥	-10.2613
有效	-10.2615
草豆蔲	-10.2615
震	-10.2616
翼	-10.2618
氣盛	-10.2618
綱目	-10.2621
也經曰	-10.2621
碧	-10.2623
愛	-10.2625
歴	-10.2627
軍	-10.2628
黍米	-10.2629
其功	-10.2632
胃脘	-10.2633
剉炒	-10.2634
體重	-10.2637
俗名	-10.2639
曾	-10.264
大腹	-10.264
此因	-10.2641
欠	-10.2642
搐搦	-10.2644
動氣	-10.2646
芍	-10.265
擾	-10.2653
乃止	-10.2655
明日	-10.2664
立効	-10.2664
病則	-10.2665
爾雅	-10.2665
五六日	-10.2665
履	-10.2666
發寒熱	-10.2666
微熱	-10.2667
去黒皮	-10.267
不可忍	-10.2672
七遍	-10.2674
炙黄	-10.2675
不救	-10.2677
不潰	-10.2679
硏	-10.268
之妙	-10.2682
第	-10.2682
遂以	-10.2684
右將	-10.2685
益智	-10.2685
奇	-10.2686
大便難	-10.2686
相應	-10.2687
毎服一錢	-10.269
炎	-10.2691
六經	-10.2692
血少	-10.2708
七八日	-10.2709
認	-10.2711
薑棗	-10.2711
箭	-10.2715
客忤	-10.2717
脉也	-10.272
下陷	-10.2721
甚效	-10.2723
潰後	-10.2726
每服四錢	-10.2733
川芎當歸	-10.2733
餌	-10.2739
下一寸	-10.2739
欬而	-10.274
戴	-10.2741
搗末	-10.2756
何也	-10.2763
出入	-10.2767
同炒	-10.2767
藥性論云	-10.2774
而渴	-10.2784
涸	-10.2785
入口	-10.2791
迎	-10.2793
茵蔯	-10.2793
煎八分	-10.2793
郭	-10.2795
血痢	-10.2804
各五分	-10.2807
戌	-10.2809
氣衝	-10.281
丸如梧子大	-10.2812
遺尿	-10.2815
留飲	-10.2817
神麴	-10.2818
當歸芍藥	-10.282
中暑	-10.2823
右細剉	-10.2824
白术散	-10.2826
癍	-10.2831
右七味	-10.2837
放冷	-10.284
泛	-10.2845
味鹹	-10.2846
炙一	-10.2847
誤矣	-10.2848
蟬	-10.285
炙剉	-10.2853
火氣	-10.2853
欲吐	-10.2855
斑猫	-10.2857
㣲赤剉	-10.2861
寒疝	-10.2865
堂	-10.2866
十分	-10.2866
一隻	-10.2867
微黄	-10.287
枳	-10.2872
不惡寒	-10.2872
失血	-10.2874
茅	-10.2876
氣促	-10.2877
諸經	-10.2877
此由	-10.2879
鈎藤	-10.2879
以水七升	-10.288
右粗搗篩	-10.2882
呉茱萸	-10.2883
呼為	-10.2884
參茋	-10.2885
之際	-10.2886
盌	-10.2886
潮	-10.2887
芥	-10.2898
結氣	-10.2904
當風	-10.2905
尤甚	-10.2905
若有	-10.2905
痰盛	-10.2908
蘇木	-10.291
瘡疥	-10.2911
煎至六分去滓不計時候温服	-10.2913
臑	-10.2916
金銀	-10.2918
衝任	-10.292
夜啼	-10.2921
則有	-10.2927
故有	-10.2934
侮	-10.2936
平復	-10.2936
不計時	-10.294
二種	-10.2943
失音	-10.2947
寒也	-10.2948
炙令	-10.2955
流行	-10.2958
不可下	-10.2959
的	-10.2959
却用	-10.2961
當歸身	-10.2961
磁	-10.2963
團	-10.2964
)【	-10.2965
針刺	-10.2967
齋	-10.2975
日晡	-10.2977
篇曰	-10.2979
四日	-10.2982
用人參	-10.2986
經驗方	-10.2989
障	-10.2991
右為細末每服二錢	-10.2992
㣲寒	-10.2995
往往	-10.2997
撲	-10.3002
菌	-10.3007
搗羅為末	-10.301
微寒	-10.301
革	-10.3014
久則	-10.3016
瀉之	-10.3017
麻仁	-10.3027
十箇	-10.3028
者因	-10.3029
皺	-10.303
大麥	-10.303
頸項	-10.3033
二方	-10.3035
崩中	-10.3043
半身不遂	-10.3046
洪大	-10.3046
浮而	-10.305
訣	-10.3052
則無	-10.3057
内踝	-10.3061
能治	-10.3065
餘毒	-10.3066
唐本注云	-10.3067
不能行	-10.3068
而作	-10.3072
胡桃	-10.3074
洗淨	-10.3074
發動	-10.3076
敗血	-10.3081
陽盛	-10.3082
惡露	-10.3083
亦無	-10.3087
四十丸	-10.3087
大承氣湯	-10.309
驚恐	-10.309
唾血	-10.3094
食前温服	-10.3095
把	-10.3095
甘草湯	-10.3097
不拘時服	-10.3102
房室	-10.3104
自然銅	-10.3104
並宜服之	-10.3112
痛引	-10.3112
根皮	-10.3114
不得息	-10.3115
矢	-10.3129
右同	-10.3137
八九	-10.3137
天之	-10.3139
鹽湯下	-10.314
咽中	-10.314
坑	-10.3143
滴水	-10.3144
下藥	-10.3149
變化	-10.315
齒痛	-10.315
此名	-10.3151
而止	-10.3152
欬逆上氣	-10.3153
次以	-10.3154
氣實	-10.3158
跌	-10.316
發為	-10.3161
天花粉	-10.3164
動而	-10.3173
散方	-10.3173
者不可	-10.3176
炮裂	-10.3182
者此為	-10.319
裏熱	-10.319
太陽經	-10.3192
此以	-10.3193
廼	-10.3197
燕	-10.3197
水服	-10.3198
瓤	-10.32
更用	-10.3209
以熱	-10.3212
次服	-10.3214
五種	-10.3217
臍中	-10.3217
氣上衝	-10.3218
陽明之	-10.3221
水也	-10.3224
實而	-10.3232
故用	-10.3235
安息香	-10.3235
此條	-10.3241
嘉	-10.3243
有蟲	-10.3245
方可	-10.3245
肺經	-10.3245
周身	-10.3246
毎服二錢	-10.3248
脚膝	-10.3254
不識	-10.326
熱邪	-10.326
去麄	-10.3268
收之	-10.3271
條下	-10.3272
理中	-10.3274
生薑五片	-10.3281
墮胎	-10.3285
兔絲子	-10.3288
茱萸	-10.3289
薄荷湯下	-10.3289
其陽	-10.3291
而然	-10.3292
第五	-10.3292
孕婦	-10.3293
巴	-10.3294
抽	-10.3295
弗	-10.3299
虚煩	-10.3302
煎至八分去滓	-10.3302
呷	-10.3305
其餘	-10.3306
唇口	-10.3309
妨	-10.3311
於腎	-10.3314
風水	-10.3316
錦	-10.3316
肝膽	-10.3321
疝氣	-10.3323
遂成	-10.333
秦皮	-10.3331
微赤剉	-10.3332
棘	-10.3334
滛	-10.3335
以前	-10.3337
所勝	-10.334
亦然	-10.3342
於陽	-10.3348
之陽	-10.3349
愈甚	-10.3358
肩背	-10.3361
人參茯苓	-10.3368
爽	-10.3374
黑豆	-10.3388
乳癰	-10.3391
蚯蚓	-10.3392
脯	-10.3393
四寸	-10.3393
手足逆冷	-10.3393
建中湯	-10.3393
清氣	-10.3393
也但	-10.3397
則血	-10.3399
弱者	-10.34
汗後	-10.3402
以温	-10.3406
不樂	-10.3407
不省人事	-10.3408
得汗	-10.3409
水飲	-10.3411
顛	-10.3412
作嘔	-10.3415
寒凉	-10.3416
牛蒡	-10.3419
火邪	-10.3422
宗奭曰	-10.3425
撥	-10.343
正月	-10.3432
十餘日	-10.3432
聖人	-10.3434
白术茯苓	-10.3447
脈沈	-10.3449
汁和	-10.3453
忌海藻菘菜	-10.3457
腸中	-10.3458
香油	-10.346
光明	-10.3462
不正	-10.3463
方云	-10.3464
而煩	-10.3466
而熱	-10.3467
發則	-10.3468
見之	-10.3468
十年	-10.347
煉蜜和	-10.3473
木瓜	-10.3476
炮裂去	-10.348
口燥	-10.348
引飲	-10.3482
並皆治之	-10.3484
即消	-10.3484
輔	-10.3484
鄉	-10.3487
二十日	-10.3488
細細	-10.3489
石榴	-10.3491
舎	-10.3492
皆是	-10.3494
凡此	-10.3495
山中	-10.3499
蒼耳	-10.3499
散主之	-10.3503
一證	-10.3504
即死	-10.3508
同前	-10.351
煎至七分	-10.3511
叅	-10.3512
火盛	-10.3515
治心	-10.352
排膿	-10.3528
勞復	-10.3528
乖	-10.353
温瘧	-10.3532
之前	-10.3532
減半	-10.3532
牽牛子	-10.3533
焼	-10.3533
草烏頭	-10.3534
外臺	-10.3535
毎服五錢	-10.3535
校正	-10.3537
後服	-10.3539
或如	-10.3542
之衇	-10.3545
攣急	-10.3548
六味地黄丸	-10.355
之化	-10.3551
振寒	-10.3563
赤剉	-10.3564
焮痛	-10.3567
以候	-10.3573
挑	-10.3576
妳	-10.358
風癎	-10.3581
失其	-10.3582
柳	-10.3582
小柴胡	-10.3585
故主	-10.3586
猪膏	-10.3586
侯	-10.3587
市	-10.3591
調氣	-10.3595
長生	-10.3596
汗多	-10.3602
薄荷葉	-10.3607
黑色	-10.3607
青色	-10.3608
用水	-10.3613
迷	-10.3615
氣滿	-10.3616
自然汁	-10.3618
填	-10.3625
火煆	-10.363
瘳	-10.363
赤眼	-10.3631
良乆	-10.3638
繞	-10.3639
桐	-10.3642
挼	-10.3646
犀角地黄湯	-10.3652
不退	-10.3656
飲治	-10.3657
乾姜	-10.3659
刑	-10.3667
已下	-10.367
壹	-10.367
則熱	-10.3671
東方	-10.3677
安神	-10.3679
藉	-10.3685
以醋	-10.3686
酒浸一宿	-10.3686
為臣	-10.3687
呌	-10.3693
薑黄	-10.3702
耳内	-10.3703
皆以	-10.3704
得病	-10.3704
欲得	-10.3706
脇肋	-10.3706
去油	-10.3708
殆	-10.3709
五勞七傷	-10.3713
因其	-10.3715
令熟	-10.3718
失精	-10.3719
釀	-10.3724
未成	-10.3727
踝	-10.3732
有膿	-10.3734
委	-10.3738
緩急	-10.374
共末	-10.3742
萎	-10.3743
螺	-10.3746
昧	-10.3747
雷丸	-10.3748
咬牙	-10.375
金箔	-10.3759
熾	-10.3759
甑	-10.376
之源	-10.3764
▁千金方	-10.3768
五淋	-10.3773
湯調服	-10.3774
膩	-10.3776
痒痛	-10.3776
蘗	-10.3779
作一服	-10.3783
右麄搗篩	-10.3785
熊膽	-10.3785
才	-10.3788
三斤	-10.3788
日月	-10.3788
翁	-10.3793
入水	-10.3794
臨時	-10.3795
之㑹	-10.38
輭	-10.3805
示	-10.3809
唐本	-10.3812
不動	-10.3814
學者	-10.3817
沃	-10.3818
兩足	-10.3818
隂寒	-10.3819
幸	-10.3819
氣結	-10.3822
飱泄	-10.3824
丸方	-10.3824
無問	-10.3827
悟	-10.3828
羊腎	-10.383
一曰	-10.3834
亡津液	-10.3837
腸風	-10.3839
藥中	-10.3842
惡物	-10.3843
虛勞	-10.3847
擣篩	-10.3848
施治	-10.3849
灸法	-10.3849
小便赤澁	-10.3849
小便頻數	-10.385
系	-10.3854
率	-10.3855
古今	-10.3856
芋	-10.3856
煎至七分去滓温服	-10.3856
盡為度	-10.3859
而用之	-10.386
沙參	-10.3861
熱極	-10.3865
治虚勞	-10.3869
棗三枚	-10.3874
再煎	-10.3875
者不	-10.3878
大而	-10.388
冰	-10.3885
没	-10.3887
傷則	-10.389
菊	-10.39
房勞	-10.3901
虛熱	-10.3903
於中	-10.3903
調塗	-10.3908
熱證	-10.3909
脚弱	-10.3914
漉出	-10.3915
水二鍾	-10.3917
一碗	-10.3917
露蜂房	-10.3918
浮大	-10.3927
以火	-10.3929
芒消	-10.3932
而兼	-10.3932
戴人	-10.3934
與服	-10.3935
心主	-10.3938
熬令	-10.3939
其間	-10.3941
蜜炙	-10.3942
新校正云按	-10.3942
心悶	-10.3943
稍稍	-10.3944
排	-10.3948
蝸牛	-10.3948
腫處	-10.3949
合和	-10.395
厚味	-10.395
右為末煉蜜和	-10.3953
不妨	-10.3955
出直	-10.3956
栝蔞	-10.3957
之異	-10.3957
不計時候以	-10.3963
時珍	-10.3964
等疾	-10.3964
昆布	-10.3965
白濁	-10.3967
為風	-10.3972
白花蛇	-10.3972
五月五日	-10.3972
二十一	-10.3974
加半夏	-10.3976
柏	-10.398
漫	-10.3981
治肺	-10.3985
湯浸去皮尖	-10.3989
及諸	-10.3993
百餘	-10.3995
項强	-10.3996
經行	-10.3996
人以	-10.3999
顔	-10.4001
刷	-10.4003
湯調	-10.4004
隂證	-10.4009
間有	-10.401
訶梨勒皮	-10.401
嶺南	-10.4011
日三四服	-10.4011
未嘗	-10.4012
素有	-10.4017
治腎	-10.402
髎	-10.4021
吃	-10.4022
再入	-10.4022
痞悶	-10.4028
鄭	-10.4029
黄柏	-10.403
思慮	-10.4031
生薑自然汁	-10.4031
昏憒	-10.4033
否則	-10.4033
下元	-10.4033
湖	-10.4036
室女	-10.4038
指方	-10.404
自有	-10.4041
氣分	-10.4042
甘温	-10.4042
桂附	-10.4044
而得	-10.4045
去心焙	-10.4049
大小便不通	-10.4049
圎	-10.405
彌	-10.4052
不固	-10.4054
避風	-10.4056
險	-10.4056
慾	-10.4065
末一錢	-10.4066
奔豚	-10.407
寒而	-10.4071
金石	-10.4074
扁鵲	-10.4076
吞酸	-10.4078
不當	-10.4078
肌體	-10.4079
不成	-10.4086
大劑	-10.4089
輙	-10.4092
一年	-10.4092
德	-10.4093
量兒大小加減	-10.4095
右為細末用	-10.4101
然則	-10.4103
隂毒	-10.4103
各十	-10.4105
壅塞	-10.4106
㢘	-10.4107
右一味	-10.4108
不入	-10.4114
三分去	-10.4119
在泉	-10.4123
急驚	-10.4125
醋淬	-10.4125
附子湯	-10.4125
右為粗末	-10.4126
之法也	-10.4128
絞去滓	-10.4131
此亦	-10.4134
魏	-10.4136
大便秘	-10.4136
積年	-10.4139
者先	-10.4144
陽毒	-10.4146
之如	-10.4147
倍加	-10.4147
明堂	-10.4147
香白芷	-10.4148
瀉心湯	-10.4149
頭重	-10.4151
無病	-10.4158
晉	-10.4159
芽	-10.4167
者屬	-10.4168
為之使	-10.4171
虛損	-10.4171
池	-10.4174
升陽	-10.4175
六府	-10.4175
剥	-10.4176
必須	-10.4176
其本	-10.4176
羣	-10.4177
中指	-10.4177
棗一枚	-10.4178
小便自利	-10.4178
支飲	-10.4182
先服	-10.4184
同上	-10.4186
蓽撥	-10.4192
醫家	-10.4194
者取	-10.4197
不下食	-10.4199
繁	-10.42
傷肺	-10.4202
前方	-10.4211
食後温服	-10.4211
傷暑	-10.4213
收斂	-10.4216
恣	-10.4218
報	-10.4219
治脚氣	-10.4225
賊風	-10.4225
肢	-10.423
逹	-10.424
諸般	-10.4241
疥癬	-10.4242
聖惠	-10.4243
此之謂也	-10.4243
麥芽	-10.4246
俱虚	-10.4249
原文	-10.4251
而喘	-10.4256
煮汁	-10.4257
食飲	-10.4257
炒研	-10.4261
器中	-10.4261
之用	-10.4265
蘇子	-10.4266
即下	-10.4266
方以	-10.4271
薑桂	-10.4272
粉草	-10.4279
領	-10.4279
絹袋盛	-10.428
冲	-10.4281
可與	-10.4281
盛而	-10.4283
臺	-10.4295
熱在	-10.4299
為膏	-10.4299
巴㦸天	-10.43
二陳湯	-10.43
隨證	-10.4301
火也	-10.4303
椿	-10.4303
耳後	-10.4304
甚妙	-10.4304
又方取	-10.4305
一個	-10.4305
柱	-10.4309
菉豆	-10.4313
茅根	-10.4313
一尺	-10.4318
芍藥甘草	-10.432
為邪	-10.432
手少隂	-10.4321
恭曰	-10.4325
入麝香	-10.4328
爾雅云	-10.4331
脈之	-10.4342
海桐皮	-10.4342
濾去滓	-10.4345
服方寸匕	-10.4345
虛而	-10.4345
熊	-10.4346
氣海	-10.4347
不覺	-10.4355
之性	-10.4355
灸三壯主	-10.4356
依前	-10.4359
拘攣	-10.436
乳香没藥	-10.4361
黄芩黄連	-10.4362
不過三	-10.4363
輕身	-10.4364
手太陽	-10.4366
膏藥	-10.4371
薑製	-10.4379
肢節	-10.4385
月采	-10.4386
癲癎	-10.4388
竹筒	-10.4389
鬼疰	-10.4391
翻	-10.4395
或為	-10.4396
於下	-10.4397
小便澁	-10.44
灸五壯	-10.4403
鍼灸	-10.4411
目痛	-10.4419
陰虚	-10.442
催生	-10.4421
在於	-10.4422
脾胃虚弱	-10.4425
研為細末	-10.4426
熱湯	-10.4429
所以然者	-10.4437
頭旋	-10.4439
紙上	-10.444
甫	-10.4449
不可治	-10.4455
風府	-10.4456
車前	-10.4459
其有	-10.4468
天下	-10.4469
劣	-10.4472
必用	-10.4473
分温三服	-10.4478
身痛	-10.4485
陽證	-10.4486
二十四	-10.4487
不爾	-10.4487
水一鍾	-10.4489
培	-10.449
坤	-10.4498
氣血虚	-10.45
膨脹	-10.4502
選	-10.4505
末服	-10.4506
人身	-10.4507
究	-10.451
覆盆子	-10.4516
漢防己	-10.4516
神昏	-10.4523
傷寒論	-10.4527
之使	-10.4528
而行	-10.4533
未有	-10.4533
封之	-10.4535
則是	-10.4536
尺中	-10.4536
診其脉	-10.4539
隂血	-10.454
而實	-10.454
麥蘖	-10.4542
栝樓	-10.455
右為細散	-10.4551
先煮	-10.4554
消息	-10.4555
蚘	-10.4555
無常	-10.4557
緩弱	-10.456
孰	-10.4561
令熱	-10.4566
乃可	-10.4567
以養	-10.4568
餘藥	-10.4569
如法	-10.457
三物	-10.457
鍋内	-10.4571
薑五片	-10.4573
史君子	-10.4574
語言	-10.4575
稜	-10.4576
蛀	-10.4576
憂思	-10.4582
其母	-10.4584
出者	-10.4585
經脈	-10.4586
水煑	-10.4588
皆屬於	-10.459
隂邪	-10.4592
椎下	-10.4592
通身	-10.4592
杯	-10.4593
七箇	-10.4594
受傷	-10.4594
不能自	-10.4599
班	-10.4601
頭暈	-10.4606
辭	-10.4606
用加味逍遥散	-10.4609
皆有之	-10.461
空心温酒下	-10.4612
寸口脉	-10.4617
六合	-10.4617
治傷寒後	-10.4618
卒然	-10.462
葛根湯	-10.4622
若是	-10.4624
胷滿	-10.4629
噤	-10.4631
難經	-10.4631
痰壅	-10.4632
癧	-10.4638
虛則	-10.4638
諸氣	-10.4642
憊	-10.4643
氣口	-10.4643
綠	-10.4647
兹	-10.4647
誤下	-10.4647
步	-10.4647
右取	-10.465
炙草	-10.465
令黄	-10.4653
庭	-10.4655
益精	-10.4657
王氏	-10.4658
潤燥	-10.4663
人家	-10.4664
貫衆	-10.4668
往來	-10.4671
手指	-10.4673
盧	-10.4675
亁薑	-10.4678
蝎	-10.4679
即吐	-10.4681
不熱	-10.4681
於脾	-10.4689
棄	-10.469
斃	-10.4692
不一	-10.4697
小指	-10.4698
逆也	-10.4704
凖	-10.4709
禹餘糧	-10.471
驟	-10.471
沉細	-10.4713
𫝊之	-10.4714
服食	-10.4715
進飲食	-10.4715
豈可	-10.4715
榆	-10.4717
毒藥	-10.472
佐之	-10.4722
一夜	-10.4725
余謂	-10.473
口眼喎斜	-10.473
蛤	-10.4732
之為	-10.4733
嘔血	-10.4734
雅	-10.4736
中熱	-10.4738
崑崙	-10.4739
矣然	-10.4742
火熱	-10.4743
八合	-10.4747
然而	-10.4748
日漸	-10.4755
下之則	-10.4756
害人	-10.4759
撚	-10.4759
出楊氏	-10.4761
作餅	-10.4761
七寸	-10.4762
縛	-10.4768
又方以	-10.4778
厲	-10.478
臍上	-10.4781
袋	-10.4782
熱多	-10.4782
現	-10.4782
以補	-10.4782
者不治	-10.4782
集驗方	-10.4785
淺深	-10.479
家藏方	-10.4794
矣若	-10.4797
冷痛	-10.4798
為逆	-10.4799
作痒	-10.4799
寢	-10.48
無陽	-10.4805
丸如彈子大	-10.4808
恭	-10.4809
未出	-10.4815
潤之	-10.4816
則傷	-10.4818
大柴胡湯	-10.4825
鋭	-10.4827
復發	-10.483
寒冷	-10.4834
蘿蔔子	-10.4842
補肝	-10.4842
黄水	-10.4844
作羮	-10.4844
陰氣	-10.4844
色如	-10.4846
為虚	-10.4847
巔	-10.4847
懷	-10.4848
徑	-10.4848
裡	-10.4855
由是	-10.4856
煎至一盞	-10.4857
四五日	-10.4862
調補	-10.4869
可下	-10.4871
桑皮	-10.4875
敢	-10.4879
尺脉	-10.4886
醋浸	-10.4888
表熱	-10.4889
小品	-10.4891
體倦	-10.4891
薤	-10.4891
一兩剉	-10.4894
凡人	-10.4897
敗毒	-10.4898
卯	-10.491
藥性	-10.491
益智仁	-10.4911
忘	-10.4914
脉來	-10.4915
火毒	-10.4917
研爛	-10.4917
拭乾	-10.4917
痰熱	-10.4921
丸如桐子大	-10.4921
氣息	-10.4922
不能生	-10.4922
歇	-10.4923
人參湯	-10.4927
青白	-10.493
右先	-10.4931
以後	-10.4932
筯	-10.4933
裏實	-10.4935
岀	-10.4941
經年	-10.4941
三百	-10.4943
麺	-10.4944
枚擘	-10.4947
一嵗	-10.4949
陽明經	-10.4949
不守	-10.4952
鹿角膠	-10.4956
遷	-10.4956
卿	-10.4958
有血	-10.4959
一錢半	-10.4959
腎主	-10.4966
余曰	-10.4968
𤓰蔞	-10.497
腸澼	-10.4971
猪膽	-10.4976
謝	-10.498
久不瘥	-10.4981
掘	-10.4981
君火	-10.4982
嗜卧	-10.4985
者宜用	-10.4986
貳	-10.4989
黄帝	-10.499
開胃	-10.4992
二證	-10.4996
不遂	-10.4997
皆為	-10.5
豆大	-10.5
何謂	-10.5001
因怒	-10.5004
瘟疫	-10.5009
渾身	-10.5012
十斤	-10.5015
衇沉	-10.5017
皂	-10.5018
八錢	-10.5021
念	-10.5027
苟	-10.5027
悪	-10.5031
以清	-10.5031
相反	-10.5032
初發	-10.5034
浮者	-10.5035
水一中盞	-10.5035
朴	-10.5036
心腎	-10.5036
狗脊	-10.5038
如有	-10.5039
加當歸	-10.504
不効	-10.504
膓	-10.5042
多年	-10.5046
之主	-10.5048
辯	-10.505
亟	-10.505
之别	-10.5054
此言	-10.5058
崔氏	-10.506
大凡	-10.5061
止渇	-10.5062
者但	-10.5063
水五升	-10.5069
汚	-10.507
直視	-10.5073
明矣	-10.5074
值	-10.5075
痘後	-10.5076
米泔浸	-10.5077
膿出	-10.5077
熱酒調下	-10.5078
簡誤	-10.5079
不欲飲食	-10.5081
虞	-10.5081
心之	-10.5081
而大	-10.5084
取肉	-10.5085
柴胡湯	-10.5091
右為細末煉蜜	-10.5095
僻	-10.5095
極細	-10.5102
丸梧桐子大	-10.5113
結成	-10.5116
亦用	-10.5118
又主	-10.5118
但以	-10.5119
任意	-10.5121
發熱者	-10.5123
以通	-10.5124
微汗	-10.5125
潔古	-10.5127
生血	-10.513
而嘔	-10.5132
其瘡	-10.5134
起居	-10.5136
梔	-10.5137
導赤散	-10.5137
三壯	-10.5138
嘔者	-10.514
樗	-10.514
乗熱	-10.5145
凉藥	-10.5145
用六味丸	-10.5147
停滯	-10.5147
見其	-10.515
愈後	-10.5155
貝	-10.5163
拌匀	-10.5165
是故	-10.5166
和血	-10.5168
翅	-10.517
氣味甘	-10.5171
拳	-10.5173
巻中	-10.5176
少陽之	-10.5177
雷公云	-10.5181
五斗	-10.5181
並出第	-10.5186
餳	-10.5187
分為三服	-10.5187
聖散	-10.5188
濕地	-10.5189
灸七壯	-10.5196
為害	-10.52
目睛	-10.5203
則知	-10.5205
放温	-10.5209
所用	-10.5211
煮熟	-10.5211
炷	-10.5213
滯氣	-10.5213
摘	-10.5213
每服五十丸	-10.5213
雙仁	-10.5217
予曰	-10.5217
泄痢	-10.5222
不可不	-10.5223
有三	-10.5223
或加	-10.5224
㵼之	-10.5224
遏	-10.5225
遠	-10.5227
盛者	-10.5228
粥飲下	-10.5232
活人	-10.5234
▁聖惠方	-10.5236
韓	-10.5236
諸陽	-10.5236
膏粱	-10.5237
為末用	-10.5239
芒	-10.524
沉重	-10.5242
不致	-10.5243
白豆蔲	-10.5243
乳石	-10.5243
蝟皮	-10.5244
曝	-10.5245
酒一升	-10.5249
砒霜	-10.525
蝦蟇	-10.5252
沙糖	-10.5254
歟	-10.5257
嗣	-10.5259
漏下	-10.5266
有形	-10.5268
肛	-10.5268
此即	-10.5268
其藥	-10.5272
和平	-10.5274
兼服	-10.5274
皆屬	-10.5274
嬰兒	-10.5277
枯礬	-10.5278
瘢	-10.5278
六十日	-10.5279
汗出而	-10.5279
病有	-10.528
粉霜	-10.5281
選方	-10.5281
院方	-10.5284
孫真人	-10.5285
勒	-10.5286
仲景云	-10.5287
取效	-10.5291
風虚	-10.5293
以意	-10.5295
葳靈仙	-10.5297
舌下	-10.5297
刼	-10.5299
有此	-10.53
煎湯下	-10.5301
孝	-10.5302
茸	-10.5303
赤白帶下	-10.5304
血不止	-10.5306
莧	-10.5307
升麻柴胡	-10.531
為正	-10.5324
不休	-10.5329
不舉	-10.533
禮	-10.5333
喘𠻳	-10.5334
而上	-10.5335
新補	-10.5337
漉	-10.5338
抄	-10.5343
不知人	-10.5343
食不下	-10.5344
猪肝	-10.5346
乃以	-10.5355
有二	-10.5358
䘌	-10.5363
浸酒	-10.5373
一次	-10.5373
氣絶	-10.5373
瓣	-10.5374
腫上	-10.5386
毎服一丸	-10.5388
瞼	-10.5388
血淋	-10.5389
健脾	-10.539
開花	-10.539
天地之	-10.5391
食療	-10.5392
郎	-10.5393
肝之	-10.5393
調治	-10.5396
生菜	-10.5402
飲服	-10.5404
蒺藜	-10.5404
太陽之	-10.5407
散治婦人	-10.5409
咽喉腫痛	-10.5414
燒之	-10.5417
滌	-10.5417
腸癰	-10.5418
氣力	-10.542
煎令	-10.5422
脬	-10.5422
驅	-10.5422
青黄	-10.5426
熱痛	-10.5426
不可服	-10.543
水飛過	-10.543
揺	-10.5437
斟酌	-10.5441
再以	-10.5441
海蛤	-10.5441
旣	-10.5444
偏風	-10.5444
研如粉	-10.5444
勁	-10.5445
福	-10.5445
方在	-10.5446
薑附	-10.5446
青龍	-10.5446
毎服三錢水一盞	-10.545
時珍曰按	-10.5451
而治之	-10.5454
雌黄	-10.5455
解毒湯	-10.5458
不分	-10.5458
其葉	-10.546
甚而	-10.5463
取下	-10.5469
淋洗	-10.547
煎至六分	-10.547
一對	-10.5471
研入	-10.5485
黄帝曰	-10.5486
百草霜	-10.5487
臉	-10.5488
逍遥散	-10.5491
理中丸	-10.5491
脾之	-10.5493
表裏俱	-10.5493
去柤	-10.5493
本方	-10.5497
承氣	-10.5499
動則	-10.55
而渇	-10.5505
虚邪	-10.5508
占	-10.5508
𤣥胡索	-10.5513
為末入	-10.5516
丸梧子大	-10.5517
瘡中	-10.5522
釡	-10.5523
功用	-10.5526
石上	-10.5529
九竅	-10.5532
若無	-10.5535
半夏湯	-10.5538
狼毒	-10.554
胡荽	-10.5541
白石脂	-10.5542
於胃	-10.5543
坎	-10.5543
無形	-10.5544
發作	-10.5545
甲乙	-10.5546
屬陽	-10.5546
欲作	-10.555
个	-10.5554
珍珠	-10.556
敗毒散	-10.5568
惡熱	-10.5572
丹田	-10.5577
營衛	-10.5578
久不愈	-10.558
治熱病	-10.5584
丸桐子大	-10.5584
奈何	-10.5587
第七	-10.559
脉洪大	-10.5604
鼻内	-10.5605
難以	-10.5609
去滓内	-10.561
亦不可	-10.5617
丸如梧桐子大每服三十丸	-10.5617
外臺秘要	-10.5619
别錄	-10.5619
時發	-10.5622
出醫方	-10.5622
茯苓白术	-10.5623
治霍亂	-10.5624
治肝	-10.5627
用十全大補湯	-10.5627
皰	-10.5628
亂髪	-10.5633
跳	-10.5633
幼	-10.5634
栁枝	-10.5634
小承氣湯	-10.5634
骨碎補	-10.5635
茺蔚子	-10.5636
而滑	-10.5637
茹	-10.5638
治宜	-10.5642
炮去皮	-10.5643
諸家	-10.5644
加黄連	-10.5645
瀉痢	-10.5645
自汗出	-10.5645
黒牽牛	-10.5646
各一服	-10.5647
煎七分去滓	-10.5651
胎動	-10.5655
雲母	-10.5656
地黄湯	-10.5656
怔忡	-10.5657
不為	-10.5657
治時氣	-10.5661
膿成	-10.5662
三斗	-10.5664
瞳子	-10.5666
故謂之	-10.5668
一身	-10.567
治其	-10.5675
血海	-10.5679
幽	-10.5683
遽	-10.5683
以水五升	-10.5692
動脉	-10.5696
陽起石	-10.5703
多者	-10.5705
叉	-10.5705
食則	-10.5706
寒中	-10.5711
摇	-10.5712
蘹香子	-10.5712
甚良	-10.5715
朴消	-10.5716
右藥	-10.5717
不吐	-10.5718
井花水	-10.572
入生薑半分	-10.5722
前證	-10.5722
其義	-10.5723
冠	-10.5728
男左女右	-10.5728
加茯苓	-10.5733
鉛丹	-10.5733
治療	-10.5733
之又	-10.5737
之府	-10.5743
氣衰	-10.5746
三度	-10.5747
所宜	-10.5748
校	-10.5753
脈弦	-10.5755
酌	-10.5757
戸	-10.5758
西方	-10.5758
遂愈	-10.5758
凝結	-10.5761
介	-10.5763
防風湯	-10.5765
發斑	-10.5766
漸愈	-10.5766
甆	-10.5772
大效	-10.5773
右細末	-10.5774
氣血俱虚	-10.5774
用大	-10.5776
並用	-10.5777
毫	-10.5778
鑑	-10.5778
膺	-10.5779
仙方活命飲	-10.578
凌	-10.5781
令盡	-10.5781
補肺	-10.5782
黄白	-10.5783
魚際	-10.5784
如泥	-10.5786
治男子婦人	-10.5788
上升	-10.5789
乃是	-10.579
栝樓根	-10.5791
不識人	-10.5792
加五味子	-10.5795
而入	-10.5797
脅	-10.5798
每服三十丸	-10.5801
隂陽俱	-10.5803
使之	-10.5805
疔瘡	-10.5807
習	-10.5809
醋湯下	-10.5814
裏證	-10.5815
血凝	-10.5816
成膿	-10.5818
不止者	-10.5821
人中	-10.5821
八十	-10.5824
針灸	-10.5824
明周王朱橚撰	-10.5828
猫	-10.5828
督	-10.5829
較	-10.5831
光澤	-10.5833
去穣	-10.5836
不發	-10.5837
前症	-10.5838
醋煮	-10.5842
以利為度	-10.5843
丸主之	-10.5844
蛾	-10.5847
遺溺	-10.5848
湯化下	-10.5849
死生	-10.585
利水	-10.5851
可食	-10.5852
黄土	-10.5853
紙裹	-10.5853
小腹痛	-10.5854
陽道	-10.5857
白石英	-10.5858
耎	-10.5863
不合	-10.5865
方書	-10.5866
每服半錢	-10.5867
指甲	-10.5867
白焙	-10.5869
尻	-10.5875
諸毒	-10.5876
湯治小兒	-10.5878
赤痛	-10.5882
方有執曰	-10.5882
有五	-10.5885
禽	-10.5885
托裡	-10.5885
别録曰	-10.5888
久病	-10.5888
以助	-10.589
一把	-10.5891
地上	-10.5892
之大	-10.5893
致令	-10.5895
亦如	-10.5895
寒水	-10.5896
而濇	-10.5897
熱退	-10.59
有因	-10.5903
剋	-10.5906
無定	-10.5906
羌活防風	-10.5907
衞氣	-10.5908
濕痺	-10.5908
疼痛不可忍	-10.5909
加生薑	-10.591
通氣	-10.5913
推之	-10.5919
穗	-10.5926
之極	-10.5929
失宜	-10.5931
者難治	-10.5932
黃耆	-10.5932
江南	-10.5936
般	-10.5938
驚搐	-10.594
毒物	-10.5941
煎至八分	-10.5946
湯浸去皮	-10.5947
有瘡	-10.5947
瘡毒	-10.5948
釣	-10.5952
醤	-10.5956
分别	-10.5956
衡	-10.5957
哽	-10.596
寒藥	-10.596
成塊	-10.5961
鏡	-10.5961
勿用	-10.5962
消腫	-10.5962
凉血	-10.5967
投以	-10.5971
清油	-10.5972
蹄	-10.5974
慈	-10.5975
蟬蛻	-10.598
之毒	-10.5982
心胷	-10.599
百㑹	-10.599
大便秘結	-10.5993
壅熱	-10.5997
水三升煮取一升	-10.5998
癉	-10.5999
梢	-10.5999
羊脂	-10.6001
相引	-10.6001
之言	-10.6005
猪膽汁	-10.6005
方中	-10.6007
婆	-10.6008
無疑	-10.6017
一大盞	-10.6019
徴	-10.6025
晨	-10.6026
監	-10.6028
顴	-10.6028
徤	-10.6031
膽礬	-10.6031
通用	-10.6031
五臟六腑	-10.6033
答曰	-10.6034
其痛	-10.6034
亢	-10.6037
保元湯	-10.6038
去心各	-10.6038
心虚	-10.604
惡肉	-10.604
隨其	-10.6045
内攻	-10.6048
為水	-10.6049
莭	-10.6054
㓜	-10.6054
裏急後重	-10.6055
炙半	-10.6057
異功散	-10.6058
談	-10.606
飛過	-10.6061
而不行	-10.6061
半觔	-10.6063
卒死	-10.6064
爭	-10.6066
之證也	-10.607
嚥之	-10.6071
氣有餘	-10.6071
羊肝	-10.6075
丸如梧桐子大每服	-10.608
痹	-10.608
衝心	-10.6081
兵	-10.6082
響	-10.6084
之良	-10.6089
上至	-10.6089
其方	-10.6091
木香散	-10.6097
濟生	-10.61
之氣也	-10.6104
陣	-10.6104
半兩去	-10.6106
益黄散	-10.6106
右各	-10.6108
寒熱往來	-10.6111
實邪	-10.6113
茄	-10.6116
尤宜	-10.6117
七味	-10.6121
旬日	-10.6123
形色	-10.6125
雞子白	-10.6128
猪肚	-10.6129
擁	-10.6131
牛膽	-10.6131
又灸	-10.6133
漸加	-10.6133
入心	-10.6135
過於	-10.6138
脫肛	-10.6139
焙各	-10.6139
傷處	-10.6144
煎六分去滓	-10.6146
為患	-10.6148
去目	-10.6148
掩	-10.6152
有小毒	-10.6152
紅色	-10.6154
手少陽	-10.6155
不順	-10.6158
洗浄	-10.6161
風藥	-10.6166
綿褁	-10.6167
下血不止	-10.617
後重	-10.6173
漸加至	-10.6175
服至	-10.6182
當是	-10.6186
闗節	-10.6186
頭項	-10.6187
標本	-10.6187
醫以	-10.619
欲嘔	-10.619
多則	-10.6191
補隂	-10.6198
即安	-10.6204
荆三稜	-10.6207
茂	-10.6212
並見	-10.6216
治風熱	-10.6217
螫	-10.6221
丸子	-10.6221
調經	-10.6223
不與	-10.6225
右末	-10.6226
二十枚	-10.6227
者或	-10.6231
每服二錢水一盞	-10.6231
清凉	-10.6233
煨熟	-10.6236
燒令	-10.6239
氣鬱	-10.6241
定痛	-10.6248
用力	-10.625
者何也	-10.6252
烏賊魚骨	-10.6252
二字	-10.6257
蓬	-10.6258
宛	-10.6259
火之	-10.6264
肚腹	-10.6271
咯血	-10.6272
伏熱	-10.6272
噎塞	-10.6272
形似	-10.6273
莢	-10.6275
百藥	-10.6276
表虚	-10.6277
厯	-10.628
補藥	-10.6283
應手	-10.6284
氣化	-10.6286
石韋	-10.6288
腎之	-10.629
可作	-10.6292
百部	-10.6293
在胃	-10.6295
右為末入	-10.63
懼	-10.6303
先煎	-10.6307
白鮮皮	-10.6308
助陽	-10.6308
旋復花	-10.6308
有白	-10.631
之形	-10.6311
礙	-10.6311
每服二十丸	-10.6314
凡使	-10.6315
之不	-10.6316
五藏六府	-10.6316
諸蟲	-10.6319
栝蔞根	-10.6319
足心	-10.632
石淋	-10.6324
燔	-10.6333
額上	-10.6334
水一鍾半	-10.6335
緣	-10.6336
燥濕	-10.634
毒腫	-10.6343
令匀	-10.6344
之治	-10.6345
湯浸去白	-10.6346
栢葉	-10.6347
易治	-10.6347
今之	-10.6348
小水	-10.6349
硃	-10.635
少隂之	-10.6352
燒末	-10.6355
以知為度	-10.6357
扇	-10.6361
搗為末	-10.6362
逰	-10.6363
攪匀	-10.6364
赤爛	-10.6366
吞之	-10.637
止渴	-10.6374
第六	-10.6375
兔	-10.6385
胃寒	-10.6389
􁁊	-10.6393
感寒	-10.6394
羙	-10.6395
麻痺	-10.6395
酒煑	-10.6397
不飢	-10.6403
際	-10.6403
和丸	-10.6404
鷹	-10.6406
炒焦	-10.6406
二十五	-10.6407
慢火熬	-10.641
茵芋	-10.6412
腨	-10.6417
不嗜食	-10.642
件	-10.6424
商陸	-10.6428
洞泄	-10.643
糯	-10.644
温無毒主	-10.6444
惡寒發熱	-10.6451
之至	-10.6453
清涼	-10.6454
絞汁	-10.6454
痢疾	-10.6456
在足	-10.6458
膈上	-10.6459
二次	-10.6459
木鼈子	-10.646
柿	-10.6461
糝	-10.6462
脈沉	-10.6462
岐	-10.6467
蜀漆	-10.6467
徵	-10.6468
客氣	-10.6469
防葵	-10.6469
上逆	-10.6471
也故曰	-10.6473
怯弱	-10.6475
傷肝	-10.6476
脈微	-10.6477
脉大	-10.6478
切痛	-10.6479
口渴	-10.648
無灰酒	-10.6483
病勢	-10.6484
尺寸	-10.6485
弓	-10.649
魘	-10.6491
詳見	-10.6492
一十	-10.6493
脾主	-10.6493
威靈仙	-10.6494
不可發汗	-10.6495
傳之	-10.6495
妨悶	-10.6495
泄之	-10.6496
未可	-10.6504
五斤	-10.6504
蒸之	-10.6506
色紫	-10.6509
辛夷	-10.6512
也蓋	-10.6514
四肢無力	-10.6514
屍	-10.6516
土𤓰根	-10.6517
温水	-10.6518
無他	-10.652
五積散	-10.6521
再加	-10.6522
四十九	-10.6529
入耳	-10.653
出痘	-10.653
耆	-10.6533
更有	-10.6536
四升	-10.6538
通經	-10.6538
韮	-10.6539
爐	-10.6541
久而	-10.6541
汁飲之	-10.6541
寒無毒主	-10.6542
出膿	-10.6542
丸如梧桐子大每服二十丸	-10.6544
黄赤	-10.6547
一石	-10.6549
進一服	-10.655
夷	-10.655
六寸	-10.6553
之曰	-10.6553
飲食不下	-10.6555
甘寒	-10.6556
嗌	-10.6557
久患	-10.6558
糊丸	-10.6558
之謂	-10.6561
接骨	-10.6564
東南	-10.6568
生化	-10.6569
諸醫	-10.6571
右為末蜜	-10.6572
屈伸	-10.6574
願	-10.6575
凍	-10.6579
治脾	-10.6581
忤	-10.6583
紅活	-10.6587
醋調	-10.6588
酒拌	-10.6591
之象	-10.6593
羌活獨活	-10.6593
擂	-10.6594
疝瘕	-10.6596
行血	-10.6599
糟	-10.6601
募	-10.6602
熱入血室	-10.6603
之類主之	-10.6605
多睡	-10.6605
治以	-10.6609
以甘	-10.6611
鼻乾	-10.6611
白花	-10.6614
寒暑	-10.6614
童子	-10.6621
徃	-10.6624
畫	-10.663
蒙	-10.6632
湯治産後	-10.6632
小續命湯	-10.6633
棗子	-10.6633
二年	-10.6637
代赭石	-10.6637
復傷	-10.6639
未必	-10.6639
必致	-10.664
爍	-10.6642
湯加	-10.6643
知之	-10.6644
内側	-10.6644
亦宜	-10.6645
此爲	-10.6646
新汲水	-10.6646
不斷	-10.6647
寸許	-10.6647
淵	-10.6648
開口	-10.6649
而小	-10.6653
燭	-10.6654
上條	-10.6654
瑞	-10.6655
脉浮而	-10.6657
色黒	-10.666
三因	-10.666
已出	-10.6662
最為	-10.6667
宻封	-10.6667
蘖	-10.6668
則爲	-10.6668
熱酒	-10.6668
衇也	-10.6669
臟氣	-10.6673
不任	-10.6676
災	-10.6677
畨	-10.668
炙乾	-10.668
臀	-10.668
飲食無味	-10.6681
十味	-10.6681
瞳人	-10.6683
文仲	-10.6683
皇	-10.6684
太陽陽明	-10.6684
積氣	-10.6687
文武火	-10.6696
二箇	-10.6696
毎日	-10.6696
心膈	-10.6698
合病	-10.6699
腎虛	-10.67
治痰	-10.67
所為	-10.6701
遂致	-10.671
泄利	-10.6711
梅師方	-10.6716
嚴	-10.6722
腠	-10.6722
禁忌	-10.6724
入蜜	-10.6725
鬢	-10.6727
以來	-10.6727
糊為丸	-10.6728
冷物	-10.6729
硃砂為衣	-10.6731
腫消	-10.6736
吴	-10.6737
慎之	-10.6737
中間	-10.6745
外障	-10.6745
少力	-10.6747
入鹽	-10.6748
河間	-10.6752
甄	-10.6753
每服一	-10.6756
辛甘	-10.6759
􁥥	-10.6759
眼赤	-10.6762
紫蘇葉	-10.6762
和藥	-10.6762
𤓰蒂	-10.6762
㡬	-10.6763
消毒散	-10.6763
煩疼	-10.6764
年餘	-10.6766
亦主	-10.6768
清酒	-10.677
夜半	-10.6771
見風	-10.6773
大汗	-10.6773
無根	-10.6779
溜	-10.6779
用此藥	-10.6783
則邪	-10.6787
飲食不進	-10.6787
未見	-10.6787
數次	-10.6788
為丸如梧桐子大	-10.6794
赤者	-10.6795
日服	-10.6799
彈	-10.6803
於是	-10.6803
法治之	-10.6806
如大豆	-10.6808
胎氣	-10.681
青黒	-10.6811
立差	-10.6811
運氣	-10.6814
次之	-10.6815
先將	-10.6815
下者	-10.6817
奴	-10.6817
薺苨	-10.6821
郄	-10.6821
加黄芩	-10.6823
胃經	-10.6823
其類	-10.6824
代赭	-10.6828
江東	-10.683
口内	-10.6832
於肝	-10.6832
外以	-10.6833
嘔而	-10.6838
吴茱茰	-10.6839
啜	-10.6842
用白	-10.6842
關元	-10.6844
亮	-10.6845
尋常	-10.6846
内虚	-10.6849
内經云	-10.685
兩月	-10.6851
乃愈	-10.6852
身上	-10.6852
銅人經云	-10.6855
▁普濟方	-10.6858
脾氣虚	-10.686
身冷	-10.6865
傅瘡上	-10.6866
􁣲	-10.6867
南人	-10.6869
食不化	-10.687
拒	-10.6872
不肯	-10.6873
滑者	-10.6874
出衛生	-10.6874
疳瘡	-10.6876
空心米飲下	-10.6881
調胃承氣湯	-10.6888
防已	-10.6895
酒一盞	-10.6897
往來寒熱	-10.6898
即用	-10.6898
二两	-10.69
證候	-10.6902
至夜	-10.6902
腰疼	-10.6911
體熱	-10.6912
治金瘡	-10.6914
針之	-10.6918
三四日	-10.692
去皮各	-10.6921
槩	-10.6922
兩目	-10.6922
禦	-10.6924
浸淫	-10.6924
單用	-10.6929
水病	-10.6934
心腹疼痛	-10.6942
陳氏	-10.6945
人皆	-10.6946
土炒	-10.6947
食頃	-10.6948
醋炒	-10.6948
温無毒	-10.695
曬乾	-10.695
疲	-10.695
角弓反張	-10.6951
蟬退	-10.6951
次第	-10.6954
滯下	-10.6955
痕	-10.6961
内托	-10.6962
用六君子湯	-10.6967
面腫	-10.6971
加味逍遥散	-10.6974
宣通	-10.6974
為難治	-10.6976
慢火煎	-10.6976
浮數	-10.6976
鍾乳粉	-10.6977
貧	-10.6981
脉證	-10.6981
在人	-10.6983
和胃	-10.6984
脉沈	-10.699
未知	-10.6997
為表裏	-10.6998
三五日	-10.6998
楊梅	-10.7006
鼻孔	-10.7007
想	-10.7007
飽食	-10.7008
絃	-10.7011
今反	-10.7011
各四兩	-10.7017
胆	-10.7022
胞中	-10.7023
川歸	-10.7026
槐子	-10.7027
破傷風	-10.7028
隂痿	-10.7033
多致	-10.7036
兮	-10.7037
兩傍	-10.704
大法	-10.7045
故不	-10.7045
清心	-10.7049
消散	-10.7049
半年	-10.705
神思	-10.7051
當有	-10.7051
烘	-10.7056
調其	-10.7059
急以	-10.7063
勞損	-10.7064
仰卧	-10.7069
末以	-10.707
喘嗽	-10.7073
數升	-10.7077
㸃眼	-10.7083
遺精	-10.7087
惜	-10.7088
汁出	-10.709
冷則	-10.709
三七	-10.709
可愈	-10.7091
焮腫	-10.7092
鬼臼	-10.7094
違	-10.7094
化源	-10.7095
相連	-10.7099
觀其	-10.71
痰逆	-10.71
便膿血	-10.7106
井水	-10.7107
尚未	-10.7111
鬼氣	-10.7112
雷公	-10.7114
服一丸	-10.712
手足冷	-10.7121
别有	-10.7125
虛冷	-10.7127
痔漏	-10.7129
加柴胡	-10.7131
而言	-10.7132
以新	-10.7133
則易	-10.7136
半両	-10.7136
三十六	-10.7137
入肺	-10.7138
太衝	-10.7143
乳香沒藥	-10.7146
夘	-10.7146
起發	-10.7147
流水	-10.7148
中見	-10.7148
御纂醫宗金鑑卷	-10.715
者病	-10.7155
下品	-10.7158
膈氣	-10.716
傳於	-10.716
肺之	-10.7161
初得	-10.7161
之地	-10.7163
詵	-10.7164
衣被	-10.7165
虛弱	-10.7166
煎至六分去滓温服	-10.7167
早晨	-10.7167
坐卧	-10.7168
黄精	-10.7173
春秋	-10.7174
霍	-10.7174
濕紙	-10.7175
微温	-10.7176
寒涼	-10.7181
名醫	-10.7182
利為度	-10.7182
嚥下	-10.7185
世人	-10.7187
頻頻	-10.7188
身黄	-10.7191
不愈者	-10.7195
俾	-10.7201
錬	-10.7202
之說	-10.7204
不便	-10.7205
馬齒莧	-10.7206
腠理開	-10.7206
目黄	-10.7208
甜葶藶	-10.7211
和氣	-10.7214
末之	-10.7214
湯治傷寒	-10.7215
治瘧	-10.7219
作聲	-10.7219
脈數	-10.7221
未能	-10.7223
常令	-10.7225
粥飲	-10.7225
父母	-10.7226
亂髮	-10.7228
蟬殻	-10.7229
廓	-10.7229
骨下	-10.7229
産難	-10.7232
大便不實	-10.7233
礜石	-10.7233
以水一大盞	-10.7233
藕	-10.7235
罐	-10.7237
消毒飲	-10.7237
瘙痒	-10.7237
消導	-10.7239
以綿	-10.7242
足冷	-10.7244
薑湯	-10.7246
豆蔲	-10.7248
胃口	-10.7248
枝葉	-10.7249
陽蹻	-10.725
常以	-10.7254
欎	-10.7256
霧	-10.7257
口舌	-10.7257
羌	-10.7258
病而	-10.7258
焙乾為末	-10.726
喘而	-10.7261
寒温	-10.7263
之病也	-10.7263
其時	-10.7272
神明	-10.7282
搥碎	-10.7283
治熱	-10.7283
水調下	-10.7285
退熱	-10.7286
緫録	-10.7287
日午	-10.729
魂魄	-10.7291
脱肛	-10.7291
鼔	-10.7292
水半盞	-10.7293
平人	-10.7294
煎至一盞去滓	-10.7295
漸至	-10.73
含化	-10.7303
又服	-10.7306
檀香	-10.7307
右剉散	-10.7308
殊不知	-10.7309
分再服	-10.7313
君子	-10.7314
傷心	-10.7319
姚	-10.732
洗瘡	-10.732
矣此	-10.7322
嗌乾	-10.7323
切不可	-10.7323
之義也	-10.7324
潤澤	-10.7326
有子	-10.7327
者以其	-10.7327
出也	-10.7327
日三夜一	-10.7329
藥治之	-10.733
隂火	-10.733
右爲末	-10.7331
傷其	-10.7336
兩脚	-10.7336
花粉	-10.7336
右為末每服一錢	-10.7338
川谷	-10.7338
餘熱	-10.734
三劑	-10.7344
荆防敗毒散	-10.7347
髪際	-10.735
僅	-10.735
流入	-10.7351
經血	-10.7356
以綿裹	-10.7357
生肉	-10.7358
其意	-10.7361
此屬	-10.7362
蜂房	-10.7363
大麻仁	-10.7365
更作	-10.7366
氏曰	-10.7367
二盞	-10.7369
見效	-10.737
蓽澄茄	-10.737
檀	-10.7372
虱	-10.7372
加木香	-10.7373
毎服半錢	-10.7374
倘	-10.7375
山芋	-10.7377
重舌	-10.738
除風	-10.7381
用酒	-10.7381
在中	-10.7382
積冷	-10.7382
則止	-10.7384
丸如小豆大	-10.7387
出御藥	-10.7389
熏之	-10.7395
寳鑑	-10.7399
騰	-10.7399
凡用	-10.7399
補脾胃	-10.7399
腫起	-10.74
止之	-10.7407
不老	-10.7409
煮取一升	-10.7409
强直	-10.741
人參當歸	-10.741
風池	-10.741
酒中	-10.7411
盛之	-10.7411
張仲景	-10.7412
刺入	-10.7414
𩕄	-10.7417
宜先	-10.7419
之餘	-10.7419
金丹	-10.7421
連進	-10.7421
化下	-10.7423
觀之	-10.7425
一方治	-10.7426
葶	-10.7426
宿食不消	-10.7426
括	-10.7427
鑿	-10.7432
寤	-10.7434
宜服之	-10.7435
阿	-10.7439
稷	-10.7439
一錢五分	-10.744
養生	-10.7447
當補	-10.7448
白龍骨	-10.7448
中人	-10.7449
不令	-10.7452
燒研	-10.7453
練	-10.7456
二兩半	-10.7459
與氣	-10.746
蕩	-10.7462
子母	-10.7463
黄連黄芩	-10.7463
關節	-10.747
效方	-10.747
非時	-10.7475
寒多	-10.7478
炒熟	-10.7481
脉浮大	-10.7481
不以多少	-10.7482
伍	-10.7482
量兒大小	-10.7484
散治産後	-10.7484
右九味	-10.7484
俱見	-10.7485
熟艾	-10.7486
合谷	-10.7486
桶	-10.7488
健忘	-10.749
畜血	-10.7491
酒蒸	-10.7493
火炙	-10.7504
便利	-10.7507
丸如麻子大	-10.7511
縳	-10.7511
細而	-10.7513
不慎	-10.7515
地膚子	-10.7516
口臭	-10.7519
見血	-10.752
不住	-10.752
甲乙經	-10.752
律	-10.7521
骨肉	-10.7528
牛肉	-10.7528
蓮子	-10.7529
下咽	-10.7529
炙㣲	-10.7531
吐涎	-10.7532
煑汁	-10.7535
胸痺	-10.7539
臨臥	-10.7543
痛而	-10.7547
出火毒	-10.7548
子芩	-10.7549
禹	-10.7549
悶絶	-10.755
如粉	-10.755
人參白茯苓	-10.7553
結熱	-10.7555
脉微	-10.7556
傷折	-10.7559
用生薑	-10.7564
常用	-10.7565
酒送下	-10.7565
争	-10.7566
切一	-10.7569
寄	-10.7569
一産婦	-10.757
微利	-10.7572
經宿	-10.7572
足脛	-10.7575
十二月	-10.7577
氣寒	-10.7577
右八味	-10.758
見鬼	-10.758
煮取二升	-10.7584
和解	-10.7585
棗仁	-10.7586
虚火	-10.7586
目昏	-10.7587
赤痢	-10.7588
攪令	-10.759
酪	-10.7591
清肺	-10.7591
濃汁	-10.7592
以紙	-10.7592
治發背	-10.7598
昏暗	-10.7599
猪蹄	-10.76
上品	-10.7601
治下篩	-10.7603
白膠香	-10.7603
視物	-10.7606
而利	-10.7606
人所	-10.7607
數者	-10.7608
所患	-10.7608
崔	-10.7608
之要	-10.7611
濕痰	-10.7612
醇酒	-10.7612
冬葵子	-10.7614
多生	-10.7618
表實	-10.7627
至隂	-10.7629
督脉	-10.7629
翹	-10.7633
竄	-10.7637
氣痛	-10.7639
百節	-10.764
點	-10.7642
炙令黄	-10.7648
皆不	-10.765
中心	-10.7651
三十日	-10.7659
草果	-10.766
白湯	-10.7662
三箇	-10.7662
脉㣲	-10.7669
種之	-10.7672
屬隂	-10.7674
乘之	-10.7674
根節	-10.7675
用補中益氣	-10.7676
慄	-10.7679
已潰	-10.768
好者	-10.7685
梳	-10.7693
一伏時	-10.7694
陳藏器	-10.7699
艾炷	-10.7702
𢎞	-10.7704
暑月	-10.7704
滋隂	-10.7707
叔	-10.7709
咽喉不利	-10.771
凡病	-10.7716
限	-10.772
食不消	-10.7722
有風	-10.7724
滋養	-10.7727
小而	-10.7732
在手	-10.7732
紅腫	-10.7735
多而	-10.7736
或問	-10.7736
頓愈	-10.774
㿗	-10.7742
其身	-10.7742
局	-10.7742
初覺	-10.7743
更入	-10.7744
亦當	-10.7745
以成	-10.7747
四物湯加	-10.775
之原	-10.7751
將息	-10.7753
借	-10.7755
如火	-10.7756
出百一	-10.7758
苑	-10.7759
八日	-10.7761
小青龍湯	-10.7762
鐵粉	-10.7765
令病人	-10.7768
損人	-10.7768
炙微	-10.7769
久痢	-10.777
探	-10.777
癤	-10.777
粥飲調下	-10.7772
為末每服二錢	-10.7773
丸菉豆大	-10.7773
求之	-10.7776
主之若	-10.7777
穴主治	-10.7777
而又	-10.7781
氣行	-10.7782
則不能	-10.7783
豬苓	-10.7785
為效	-10.7788
眼中	-10.7788
奪命丹	-10.7789
内用	-10.7791
後世	-10.7791
不節	-10.7795
十全	-10.7795
胸膈不利	-10.7795
氷片	-10.7799
脇下痛	-10.7803
微火	-10.7806
之日	-10.7809
相傳	-10.7809
腎氣丸	-10.781
蚘蟲	-10.781
蜣蜋	-10.7812
頥	-10.7813
界	-10.7815
求其	-10.7816
不嘔	-10.7817
偃	-10.7817
漸成	-10.782
名也	-10.782
殘	-10.782
末和	-10.7824
作湯	-10.7825
從外	-10.7829
多是	-10.7832
五十粒	-10.7835
少少	-10.7835
也與	-10.7837
只是	-10.7839
閒	-10.784
冬𤓰	-10.7841
不受	-10.7842
小便不利者	-10.7843
服一升	-10.7844
擦之	-10.7844
三陰	-10.7845
問其	-10.7846
牝	-10.7846
荆芥穂	-10.7847
至春	-10.7847
入眼	-10.7848
甕	-10.7849
謂其	-10.785
氣上逆	-10.785
並宜	-10.7851
頻服	-10.7852
患人	-10.7854
是知	-10.7856
轉動	-10.7857
委中	-10.7861
食前以	-10.7862
蒸熟	-10.7862
噙	-10.7863
受寒	-10.7865
切作	-10.7867
攻心	-10.7869
盲	-10.7869
遂用	-10.787
虎脛骨	-10.7873
洒	-10.7874
段	-10.7874
四枚	-10.7875
十數	-10.7875
上壅	-10.7876
叙	-10.7876
四肢逆冷	-10.7879
之類是也	-10.788
青皮陳皮	-10.7883
芹	-10.7885
之官	-10.7885
腎肝	-10.7886
慎勿	-10.7889
亦妙	-10.7889
調傅	-10.7894
豬肉	-10.7897
搥	-10.7898
治風毒	-10.7899
莪术	-10.79
肝主	-10.7901
弟	-10.7904
方三首	-10.7905
隔蒜灸	-10.7907
心氣不足	-10.7907
一錢匕	-10.7907
香豉	-10.7912
淸	-10.7912
肺病	-10.7912
則必	-10.7912
不病	-10.7912
外科	-10.7915
沒	-10.7916
死也	-10.7917
東流水	-10.7917
下至	-10.7918
零陵香	-10.7923
翳膜	-10.7925
宜補	-10.7925
骨節疼痛	-10.7925
瘟	-10.7926
米湯下	-10.7926
鱉	-10.7927
霍亂轉筋	-10.7928
生薑半分	-10.7929
而氣	-10.7929
不足則	-10.793
右等分為末	-10.793
下則	-10.793
息肉	-10.7935
水者	-10.7936
誤也	-10.7937
青葙子	-10.7938
由此	-10.7938
瘈	-10.7938
有燥屎	-10.7938
小便淋	-10.7939
訛	-10.794
便愈	-10.7942
纂	-10.7942
卒中	-10.7945
則成	-10.7949
囘	-10.7949
普濟方卷	-10.795
實大	-10.795
本草云	-10.7951
用四物	-10.7953
末二錢	-10.7953
楊氏	-10.7958
呪	-10.796
亦有之	-10.796
不傳	-10.7962
食後臨卧	-10.7963
水調服	-10.7964
出十便	-10.7968
浮萍	-10.7969
齗	-10.7972
疱	-10.7972
跟	-10.7974
脉不	-10.7976
筋脈	-10.7976
余曰此	-10.7978
空虚	-10.7979
白丁香	-10.7983
穀氣	-10.7984
毒攻	-10.7985
神妙	-10.7986
油調	-10.7988
不可攻	-10.7988
脉皆	-10.799
癱瘓	-10.7991
去毒	-10.7992
右㕮咀以	-10.7994
右剉如麻豆大	-10.7996
一寸半	-10.7997
如小	-10.7997
芳	-10.7997
先後	-10.7998
鼎	-10.7999
道人	-10.8001
洛	-10.8006
癘	-10.8006
如豆	-10.8007
土中	-10.801
後入	-10.8011
煮取三升	-10.8014
出經驗	-10.8017
水三盞	-10.8021
復有	-10.8023
黄芩甘草	-10.8023
下注	-10.8025
蕎麥	-10.8026
不常	-10.803
宛宛中	-10.803
以鹽	-10.803
慘	-10.8031
兩頭	-10.8033
色變	-10.8033
程知曰	-10.8033
流於	-10.8034
菰	-10.8035
氣所	-10.8036
用好	-10.8037
不可不知	-10.8038
頰赤	-10.8039
而惡寒	-10.8039
入酒	-10.804
養之	-10.8045
每服五錢水一盞半	-10.805
又當	-10.8052
兆	-10.8054
桑葉	-10.8055
五苓	-10.8057
火動	-10.8058
五七丸	-10.8059
虞曰	-10.8061
者肝	-10.8062
黄芩湯	-10.8063
亦是	-10.8064
一兩湯浸	-10.8064
丸如桐子大每服	-10.8065
而血	-10.8065
石南	-10.8066
之品	-10.8066
欲死者	-10.8069
當作	-10.807
以冷水	-10.8071
痠	-10.8071
不從	-10.8074
新書	-10.8078
救之	-10.8079
状如	-10.808
千金療	-10.8085
萎蕤	-10.8089
外有	-10.8091
集驗	-10.8092
研令勻	-10.8093
而不知	-10.8095
毎服三十丸	-10.8096
苔	-10.8096
汗解	-10.8097
亭	-10.8097
白帶	-10.8097
及一切	-10.8101
用補中益氣湯加	-10.8101
日一服	-10.8108
加白术	-10.8108
造化	-10.8109
雖不	-10.8112
半去滓	-10.8112
注於	-10.8115
頌	-10.8115
蔕	-10.812
而動	-10.8122
此謂	-10.8124
痎瘧	-10.8124
苦参	-10.8124
焮	-10.8125
搖	-10.8126
出第十	-10.8131
產後	-10.8132
立瘥	-10.8134
審其	-10.8135
此湯	-10.8136
人乳	-10.8139
蓮肉	-10.814
乗之	-10.814
用六君	-10.8141
血燥	-10.8142
鈆	-10.8143
瞤	-10.8146
罨	-10.8146
槌	-10.8147
薄荷湯	-10.8151
而能	-10.8152
蟻	-10.8152
其味	-10.8154
釅醋	-10.816
平無毒	-10.8165
渾	-10.8168
祛風	-10.817
補劑	-10.8171
長夏	-10.8171
大附子	-10.8176
鶴	-10.8177
用地黄丸	-10.8177
毒熱	-10.8179
由於	-10.8179
小腸氣	-10.8181
低	-10.8181
況	-10.8182
困倦	-10.8182
幹	-10.8183
胃實	-10.8187
其表	-10.8187
體虚	-10.8188
當吐	-10.8188
供	-10.8189
㣲温	-10.819
任脉	-10.8193
血暈	-10.8195
西北	-10.8196
如小豆	-10.8197
痰喘	-10.8201
括蔞	-10.8203
支滿	-10.8203
富	-10.8203
不息	-10.8203
稍熱	-10.8206
磚	-10.8207
克	-10.8207
去查	-10.8208
何如	-10.8208
文具	-10.8209
湯中	-10.8209
惡寒者	-10.8215
化開	-10.8215
湯藥	-10.8217
陽病	-10.8217
酸疼	-10.8218
出海	-10.8221
變蒸	-10.8224
第九	-10.8226
量兒大小加减	-10.8226
氣少	-10.8234
橘皮湯	-10.8234
無效	-10.8236
其聲	-10.8236
以行	-10.8236
足大指	-10.8241
自下	-10.8242
薏苡	-10.8242
𣪚	-10.8246
淳	-10.8247
百杵	-10.8248
喘咳	-10.8253
其症	-10.8253
炒二	-10.8254
以散	-10.8257
三五次	-10.8259
當從	-10.8259
輕則	-10.826
狂走	-10.8265
憎寒	-10.8265
夜間	-10.8265
又法	-10.8266
暑熱	-10.8268
恒	-10.8269
之色	-10.827
常有	-10.8271
酒食	-10.8272
愼	-10.8276
留滯	-10.8276
業	-10.8278
竹葉石膏湯	-10.8278
籠	-10.828
晦	-10.8281
不寐	-10.8284
巻	-10.8285
陽虛	-10.8286
外傷	-10.8287
煑取	-10.8289
氣不和	-10.829
去滑	-10.829
一撮	-10.8293
無以	-10.8295
白斂	-10.8297
下篩	-10.8297
其肉	-10.8298
柴胡升麻	-10.8298
稽	-10.8298
亦以	-10.8302
怕	-10.8306
瑩	-10.8307
獨參湯	-10.8309
煎至八分去滓温服	-10.8309
遠志	-10.8309
糠	-10.831
少加	-10.831
治瘰癧	-10.8312
微細	-10.8313
臨泣	-10.8313
入腎	-10.832
痛痒	-10.8325
牙疼	-10.8325
耐	-10.8328
乘虚	-10.8331
隂腫	-10.8331
痿弱	-10.8331
清肝	-10.8332
大痛	-10.8333
碙砂	-10.8334
亦曰	-10.8336
乍寒乍熱	-10.8336
肌表	-10.8338
此非	-10.8341
以蜜	-10.8344
益母草	-10.8346
非也	-10.8348
去滓入	-10.8348
肺虚	-10.8352
風化	-10.8354
補養	-10.8354
也有	-10.8359
未發	-10.8361
痰火	-10.8362
用六味地黄丸	-10.8367
利不止	-10.8367
茯苓半夏	-10.8371
踰	-10.8372
乃用	-10.8372
蔽	-10.8373
尅伐	-10.8373
折傷	-10.8374
虛者	-10.8383
不易	-10.8386
相生	-10.8389
作粥	-10.8391
未止	-10.8393
益人	-10.8395
煑取二升	-10.8396
間服	-10.8396
丸藥	-10.8398
不住手攪	-10.84
死矣	-10.8403
留於	-10.8403
胷脇	-10.8404
判	-10.8404
汁服	-10.8404
涎潮	-10.8406
白馬	-10.8406
流氣飲	-10.8408
榖氣	-10.841
瞀	-10.841
即此	-10.8413
寡	-10.842
每日空心	-10.842
始於	-10.8421
他藥	-10.8421
為順	-10.8423
一頭	-10.8423
初出	-10.8426
此其	-10.8429
鹽水	-10.843
其外	-10.843
結痂	-10.8434
皆可服	-10.8434
血瘕	-10.8434
服盡	-10.8434
鱠	-10.8435
窒	-10.8439
頑痺	-10.844
陽之	-10.8445
翻胃	-10.8445
月水不通	-10.8447
相對	-10.8448
但有	-10.8449
膂	-10.8451
煎之	-10.8452
也又曰	-10.8455
記云	-10.8455
㵼痢	-10.8455
人病	-10.8456
去皮心	-10.8457
展	-10.8459
通行	-10.8463
不在	-10.8464
鍼三分	-10.8465
邪在表	-10.8465
生子	-10.8467
出大全	-10.8469
甘松	-10.847
怒氣	-10.8471
也盖	-10.8471
閃	-10.8471
巢	-10.8471
候乾	-10.8472
抵當湯	-10.8476
猪腎	-10.848
溶	-10.8481
赤箭	-10.8485
所致也	-10.8489
陽脉	-10.8491
血滯	-10.8491
風眩	-10.8491
直上	-10.8492
中痛	-10.8492
抹	-10.8495
曲池	-10.8497
儒	-10.8498
巨闕	-10.8499
痠疼	-10.8499
也又云	-10.85
人呼為	-10.85
反折	-10.8501
飲食不節	-10.8502
廹	-10.8503
腎臟	-10.8504
白頭翁	-10.8504
馬蹄	-10.8505
竹葉湯	-10.8506
平無毒主	-10.8507
能除	-10.8509
期門	-10.8509
昏悶	-10.851
祛	-10.8513
之隂	-10.8513
髭	-10.8513
少愈	-10.8514
經所謂	-10.8515
及治	-10.8515
注下	-10.8515
孤	-10.8516
直者	-10.8517
千杵	-10.8517
和塗	-10.8518
四物加	-10.852
新校正云詳	-10.8522
肅	-10.8522
酒三升	-10.8522
脾虛	-10.8523
努	-10.8524
不清	-10.8525
十四枚	-10.8526
身疼	-10.8526
誤服	-10.8529
歩	-10.8531
職	-10.8535
論中	-10.8539
可謂	-10.8539
酒煎	-10.854
湯療	-10.8542
賁	-10.8544
身體疼痛	-10.8544
銅器中	-10.8547
月採	-10.855
瓷	-10.8553
薄切	-10.8553
右件為細末	-10.8553
蠐螬	-10.8555
右為散毎服	-10.8555
午時	-10.8555
者何	-10.8555
與前	-10.8556
裏虚	-10.8557
劈	-10.8557
海藻菘菜	-10.8557
傳經	-10.8558
䕡茹	-10.856
作痛或	-10.8561
燎	-10.8562
茱	-10.8564
桑枝	-10.8564
為實	-10.8565
膻中	-10.857
身之	-10.8573
藏之	-10.8574
槐枝	-10.8575
重則	-10.8576
加山梔	-10.8579
有異	-10.8585
註云	-10.8587
甘草節	-10.8587
豆豉	-10.8589
進退	-10.8592
劇者	-10.8594
冩	-10.8596
則發	-10.8597
漫腫	-10.8598
蠧	-10.8598
生死	-10.8598
火煅	-10.8599
羞明	-10.8599
激	-10.86
炒令黄	-10.86
氏云	-10.86
艱難	-10.8601
小薊	-10.8601
熬膏	-10.8602
右先將	-10.8602
部位	-10.8603
心下堅	-10.8603
而内	-10.8606
酒服方寸匕	-10.8606
心下悸	-10.8608
葫蘆巴	-10.8608
飴糖	-10.8617
治脾胃	-10.8617
去風	-10.8618
隂經	-10.8621
塌	-10.8625
瓜蔞	-10.8627
却入	-10.8627
二両	-10.8627
返	-10.8629
洪數	-10.8629
詩云	-10.8629
穏	-10.8629
半匙	-10.863
痰氣	-10.8632
入肝	-10.8637
也乃	-10.8641
亦同	-10.8642
大椎	-10.8643
久不	-10.8647
地之	-10.8647
油膩	-10.8648
然也	-10.8649
誤吞	-10.8651
隂虛	-10.8652
日進三服	-10.8654
妄言	-10.8655
令極	-10.8656
發汗後	-10.8657
噐	-10.8657
如何	-10.8659
蒴藋	-10.866
下有	-10.866
麻子仁	-10.866
參蘇飲	-10.8661
病已	-10.8661
又與	-10.8662
大渴	-10.8663
胻	-10.8663
夏至	-10.8664
蘿	-10.8665
憑	-10.8667
蟄	-10.8668
牽引	-10.8669
之初	-10.867
如前法	-10.8671
新水	-10.8671
脊骨	-10.8672
洩痢	-10.8673
卑	-10.8677
陽維	-10.8677
以解	-10.8677
所作	-10.8678
歸身	-10.8678
亷	-10.8683
九日	-10.8686
服二丸	-10.8686
則寒	-10.8686
榆白皮	-10.8692
宮	-10.8692
面色痿黄	-10.8693
出朱氏	-10.8695
中品	-10.8695
浙	-10.8696
引用	-10.8696
脹悶	-10.8699
滑泄	-10.8705
營氣	-10.8705
背上	-10.8707
孟詵云	-10.8708
鍼刺	-10.8709
血也	-10.8713
水一斗	-10.8714
微弱	-10.8721
茶清	-10.8721
蝦蟆	-10.8721
也非	-10.8723
與此	-10.8727
絳	-10.8728
娠	-10.8729
大病	-10.8729
汗岀	-10.8732
霞	-10.8732
結者	-10.8733
不隨	-10.8735
脾胃不和	-10.8735
葦	-10.875
葶藶子	-10.8751
壓之	-10.8751
差後	-10.8752
掺	-10.8752
遲者	-10.8754
冷痢	-10.8755
小兒驚癎	-10.8756
治目	-10.8757
臛	-10.8758
不轉	-10.8759
疾病	-10.876
白睛	-10.8761
茜根	-10.8763
極熱	-10.8765
糊丸桐子大	-10.8766
茗	-10.8767
入麝香少許	-10.8767
肌熱	-10.8769
量大小	-10.8773
所至	-10.8773
腐爛	-10.8777
通於	-10.8778
一切風	-10.8781
白痢	-10.8785
耳前	-10.8787
一兒	-10.8788
可得	-10.8788
風寒濕	-10.8791
摩之	-10.8793
清涕	-10.8794
脾病	-10.8794
掛	-10.8795
之位	-10.8797
八風	-10.8798
潰而	-10.88
丸散	-10.8801
毎服五十丸	-10.8801
食鹽	-10.8803
又加	-10.8805
加桂	-10.8806
入于	-10.8809
之數	-10.8809
平和	-10.8811
其化	-10.8814
不眠	-10.8814
空心食前服	-10.8815
桃枝	-10.8816
清濁	-10.8817
其衇	-10.8817
肺中	-10.8821
熱痢	-10.8824
治癰疽	-10.8824
瘇	-10.8824
捲	-10.8825
於目	-10.8826
分四服	-10.8826
出水	-10.8827
流通	-10.8829
停飲	-10.883
以救	-10.8831
腰脊痛	-10.8832
出之	-10.8834
厥冷	-10.8836
暍	-10.8838
一小盞	-10.8839
生地黃	-10.8841
神農	-10.8841
今附	-10.8842
手足温	-10.8845
黄連解毒湯	-10.8847
大指	-10.885
方寸	-10.885
善怒	-10.8852
最多	-10.8852
導之	-10.8854
二陳	-10.8856
子云	-10.886
如粟	-10.8862
脉洪數	-10.8863
彭	-10.8865
所因	-10.8865
有積	-10.8868
故病	-10.887
化為水	-10.8875
用桂枝	-10.8879
衝脉	-10.888
㣲熱	-10.888
胃火	-10.8882
紫蘇子	-10.8885
有水氣	-10.8887
等劑	-10.8887
生津	-10.8888
又能	-10.8888
惡毒	-10.8889
愚按	-10.889
抽搐	-10.8891
者可治	-10.8891
發者	-10.8892
服餌	-10.8893
蓬术	-10.8895
天癸	-10.8897
始得	-10.8897
四圍	-10.8897
緩而	-10.8899
青盲	-10.89
水之	-10.8901
欲飲水	-10.8902
血結	-10.8904
傷氣	-10.8904
二尺	-10.8905
惠	-10.891
産母	-10.8911
靣色	-10.8915
濟方	-10.8916
九味	-10.8917
但見	-10.892
温酒送下	-10.892
産後血	-10.8924
微痛	-10.8926
可下之	-10.8927
已後	-10.8928
各少許	-10.8929
文蛤	-10.8929
出如	-10.8931
至秋	-10.8931
梓	-10.8933
巖	-10.8935
死人	-10.8937
無妨	-10.8939
血多	-10.8939
在下焦	-10.8939
出而	-10.8943
瘡頭	-10.8944
脘	-10.8945
沸去滓	-10.8947
當歸散	-10.8948
入生薑	-10.8951
煎湯洗	-10.8951
豈有	-10.8953
蕤仁	-10.8953
舌强	-10.8958
太白	-10.8962
則隂	-10.8962
内實	-10.8963
丹石	-10.8963
主氣	-10.8963
每用少許	-10.8964
煎湯調下	-10.8967
爛研	-10.8968
元陽	-10.8968
側子	-10.8974
丹溪云	-10.8975
越人	-10.8976
萬病	-10.8977
蘇葉	-10.8978
藥之	-10.898
湯服	-10.8982
顱	-10.8983
澼	-10.8983
也葢	-10.8983
煎汁	-10.8983
藿	-10.8986
瘥後	-10.8988
兩尺	-10.8988
痰實	-10.8989
方四首	-10.899
也傷寒	-10.8991
不足也	-10.8991
草菓	-10.8995
之絡	-10.8995
痘毒	-10.8996
右㕮咀每服	-10.8997
朽	-10.8997
啄	-10.8997
瘁	-10.8999
寸半	-10.9
食逺	-10.9002
右剉如麻豆	-10.9004
倒靨	-10.9004
從下	-10.9005
右搗羅為末	-10.9007
食逺服	-10.9007
大都	-10.9009
鐺中	-10.901
㵼心湯	-10.901
蟲出	-10.9011
為本	-10.9012
升麻葛根湯	-10.9012
驚熱	-10.9015
肓	-10.9015
數年	-10.9015
楓	-10.902
摻之	-10.9021
挽	-10.9024
而愈後	-10.9024
寒食	-10.9026
絞痛	-10.9028
痘出	-10.9028
研半	-10.9029
㨗	-10.903
太谿	-10.9031
蔞	-10.9031
錠子	-10.9033
章門	-10.9035
豬脂	-10.9035
鹵	-10.9036
浸之	-10.9038
三歳	-10.9038
骨痛	-10.9039
用八珍湯	-10.9046
脾胃虚寒	-10.9049
狼	-10.9051
誤用	-10.9058
洗净	-10.9058
寜	-10.9059
煮粥	-10.906
去裙襴	-10.9064
游	-10.9068
氣通	-10.907
恒山	-10.907
攻其	-10.9072
寒厥	-10.9073
二者	-10.9075
自除	-10.9077
芷	-10.9078
燒作灰	-10.9078
百藥煎	-10.9079
涼血	-10.908
敷貼	-10.9086
莫能	-10.9086
陳藏器云	-10.9089
臘月猪脂	-10.909
肆	-10.909
鉄	-10.9091
却以	-10.9093
鋒	-10.9097
喉閉	-10.91
散之	-10.9101
屬肝	-10.9101
消榖	-10.9107
𤼵熱	-10.9107
廉	-10.911
之味	-10.9111
二藥	-10.9111
痞塞	-10.9117
以水一升	-10.9118
肝脉	-10.9118
不能制	-10.9118
而多	-10.9122
鮮血	-10.9123
定粉	-10.9123
水六升	-10.9124
不作	-10.9124
俗呼	-10.9128
陰中	-10.9128
藥毒	-10.9131
消風散	-10.9132
偽	-10.9133
外熱	-10.9139
或生	-10.9141
末傅之	-10.9144
不疼	-10.9146
下流	-10.9148
直指方	-10.9155
傷血	-10.9159
黄瘦	-10.9159
荷	-10.9159
弦者	-10.916
𤓰蔕	-10.916
週	-10.9161
可為	-10.9163
尊	-10.9164
去血	-10.9164
婦人産後	-10.9164
死不治	-10.9167
巧	-10.9169
面白	-10.9169
者胃	-10.917
痼疾	-10.9172
外踝	-10.9172
黄耆湯	-10.9173
四合	-10.9174
衇微	-10.9174
院	-10.9175
是其	-10.9177
白扁豆	-10.9177
書云	-10.9179
各有所	-10.918
每服十丸	-10.918
變生	-10.9181
修合	-10.9183
熱渴	-10.9184
命曰	-10.9186
令香	-10.9189
竊	-10.9197
魅	-10.9198
吐食	-10.92
威	-10.92
黏	-10.9202
用醋	-10.9204
救急	-10.9206
便是	-10.9209
之謂也	-10.9209
牛馬	-10.9211
喚	-10.9213
多熱	-10.9216
入房	-10.9219
者方	-10.922
而細	-10.9224
薑汁炙	-10.9224
盒	-10.9225
嘴	-10.9227
之論	-10.9228
酒服之	-10.9232
心下滿	-10.9232
其名	-10.9234
須㬰	-10.9234
停積	-10.9234
外寒	-10.9237
之苦	-10.9239
㑹於	-10.924
如此者	-10.9243
目暗	-10.9243
蝎稍	-10.9244
一穴	-10.9245
人參黄茋	-10.9247
腹中有	-10.9251
和塗之	-10.9251
腦疽	-10.9252
瘡痘	-10.9252
眼睛	-10.9253
淋漓	-10.9254
食即	-10.9256
瓠	-10.9257
隂脉	-10.9259
無血	-10.926
法用	-10.9267
不得汗	-10.9267
荔枝	-10.927
不流	-10.927
吐涎沫	-10.9271
長短	-10.9271
加乾薑	-10.9273
肝病	-10.9277
岐伯	-10.9277
其理	-10.9278
盛衰	-10.9278
三遍	-10.9279
則陽	-10.9284
膿潰	-10.9285
四肢浮腫	-10.9287
猶可	-10.9287
太早	-10.9287
兩旁	-10.929
礶	-10.9292
人參黄耆	-10.9295
辨之	-10.9296
其精	-10.9299
吏	-10.93
川楝子	-10.9306
椒目	-10.9307
仍服	-10.9308
招	-10.9308
䵟	-10.9312
可知矣	-10.9312
子宫	-10.9313
素問云	-10.9314
右為	-10.9319
二曰	-10.9321
消化	-10.9323
一大升	-10.9323
口喎	-10.9325
泰	-10.9326
醫方	-10.9327
出永類	-10.9328
衛生	-10.9329
作末	-10.9331
冷服	-10.9332
先取	-10.9333
五味異功散	-10.9333
法以	-10.9334
方二首	-10.9336
長而	-10.9338
字當是	-10.9338
右為麄末	-10.9339
炮去皮臍	-10.9341
拌炒	-10.9341
而取之	-10.9342
濯	-10.9344
取二升	-10.9344
四畔	-10.9345
風疾	-10.9346
形證	-10.9347
有熱者	-10.935
治一切風	-10.935
第二十	-10.9351
真陽	-10.9352
蠍	-10.9352
在心	-10.9353
傷腎	-10.9353
補心	-10.9354
消盡	-10.9355
三尺	-10.9355
包絡	-10.9356
層	-10.9357
傷胃	-10.9358
太素	-10.9358
傷冷	-10.9359
然谷	-10.9362
膊	-10.9362
俛仰	-10.9363
為末煉蜜	-10.9365
而痛者	-10.9365
醋煑	-10.9365
夢遺	-10.9367
州郡	-10.9367
無所不	-10.937
作餅子	-10.9371
炙二	-10.9371
土人	-10.9371
益元散	-10.9373
叢	-10.9373
草豆䓻	-10.9373
不惟	-10.9373
以滋	-10.9374
拜	-10.9374
令香熟	-10.9375
病必	-10.9375
之正	-10.9377
為末每	-10.9378
平澤	-10.9378
弱而	-10.9379
真隂	-10.9381
右為散每服二錢	-10.9388
下重	-10.939
陽經	-10.9393
失守	-10.9395
不滿	-10.9395
風木	-10.9397
桂心甘草	-10.9402
白梅	-10.9404
尚有	-10.9404
之血	-10.9405
外側	-10.9406
少商	-10.9409
隆	-10.9412
在左	-10.9412
活命飲	-10.9412
厠	-10.9412
乾摻	-10.9414
潛	-10.9415
佛	-10.9416
水九升	-10.9418
手心	-10.9419
診其	-10.9425
隂蹻	-10.9425
多飲	-10.9427
炒黒	-10.9428
芥子	-10.9428
余以為	-10.9429
而消	-10.943
生蟲	-10.9432
煎藥	-10.9433
脾胃虚	-10.9433
續注	-10.9434
睫	-10.9434
歸芍	-10.9436
五疳	-10.9441
有火	-10.9441
深師	-10.9454
入少	-10.9457
同研勻	-10.9457
盆中	-10.9458
動摇	-10.9459
覆取汗	-10.9464
陳米	-10.9466
痼	-10.9466
導引	-10.9466
每服四錢水一盞	-10.9467
逺近	-10.9468
四季	-10.9475
如麻豆	-10.9476
運行	-10.9476
小児	-10.9478
痰𠻳	-10.9478
犯之	-10.9481
趾	-10.9481
戾	-10.9483
炒香	-10.9484
日數	-10.9485
味甘平無毒主	-10.9486
厥者	-10.9489
煮令	-10.9489
釀酒	-10.949
煎取三升	-10.949
塗醋炙	-10.9491
生痰	-10.9492
欲其	-10.9492
和滓	-10.9493
温藥	-10.9493
治一人	-10.9493
谿	-10.9496
盃	-10.9496
不得小便	-10.9497
去沫	-10.9497
用大黄	-10.9498
而得之	-10.9499
勿服	-10.9499
肝虚	-10.9502
片腦	-10.9503
猪牙皂角	-10.9504
畔	-10.9505
茶下	-10.9507
水磨	-10.9512
之常	-10.9513
則可	-10.9515
茍	-10.9518
冲和	-10.9518
矣又	-10.9518
汞	-10.9518
療産後	-10.9518
酒服方寸匕日三	-10.952
者脾	-10.9523
行步	-10.9524
未有不	-10.9525
喘逆	-10.9526
麸	-10.9527
按之則	-10.9529
五痔	-10.9531
調敷	-10.9531
一本	-10.9535
煮食	-10.9535
言也	-10.9538
若誤	-10.9539
吮	-10.9541
糜	-10.9541
新熱	-10.9542
急者	-10.9542
炒乾	-10.9545
渣	-10.9547
涼藥	-10.9547
所化	-10.9548
痛也	-10.9549
飲食減少	-10.9551
渗	-10.9553
木也	-10.9553
煎至五分去滓不計時候温服	-10.9554
樓	-10.9554
黙黙	-10.9554
丸如菉豆大每服	-10.9556
范	-10.9556
秀	-10.9557
闗格	-10.956
滎	-10.956
羌活湯	-10.9562
大小便不利	-10.9562
匈	-10.9564
根白皮	-10.9565
亦非	-10.9566
血病	-10.9567
清利	-10.9568
臂痛	-10.9569
查	-10.957
升麻葛根	-10.957
渴者	-10.9571
分温二服	-10.9571
鬼神	-10.9572
者蓋	-10.9576
其為	-10.9576
右為細末煉蜜為	-10.9577
以水一斗煮	-10.9577
咳逆	-10.9578
二錢匕	-10.9582
之力	-10.9583
别錄曰	-10.9583
下惡物	-10.9584
目視	-10.9584
贅	-10.9585
縷	-10.9586
未除	-10.9586
右為細末煉蜜和	-10.9589
趺陽	-10.959
湧泉	-10.959
捕	-10.959
得此	-10.9591
虛也	-10.9592
瘡癤	-10.9592
聲音	-10.9594
即發	-10.9595
難得	-10.9596
為善	-10.9596
日華子	-10.9597
黒者	-10.96
在經	-10.96
酒五升	-10.96
衆醫	-10.9602
並無	-10.9606
不榮	-10.9606
恚怒	-10.9607
一椀	-10.9608
桞	-10.9608
汁調	-10.9608
小建中湯	-10.9609
時或	-10.9612
紫金	-10.9612
傷中	-10.9613
丸梧子大每	-10.9617
焚	-10.962
以水二升	-10.9622
當歸尾	-10.9622
酒疸	-10.9623
而厥	-10.9623
蛤蚧	-10.9623
傷也	-10.9623
治大人小兒	-10.9624
喪	-10.9626
三曰	-10.963
腎為	-10.9635
荅曰	-10.9638
適寒温	-10.9638
研如泥	-10.964
拌和	-10.9641
之候也	-10.9647
狼牙	-10.9649
准	-10.9651
絡脉	-10.9652
邪正	-10.9653
釣藤	-10.9658
食之令人	-10.9659
肢體倦怠	-10.966
茯苓甘草	-10.9661
酒飲	-10.9664
丸如菉豆大	-10.9664
程	-10.9664
當歸補血湯	-10.9665
而然也	-10.9665
醋和	-10.9667
水一碗	-10.9668
二三服	-10.967
氣多	-10.9671
空腹服	-10.9673
澁痛	-10.9674
益血	-10.9678
制之	-10.9678
而變	-10.9679
至此	-10.9681
煩亂	-10.9683
其疾	-10.9684
飲子治	-10.9685
味苦辛	-10.9686
以和	-10.9687
丹溪曰	-10.9688
人也	-10.9691
能生	-10.9692
末一兩	-10.9692
灑	-10.9694
駐顔	-10.9697
漱	-10.9697
四支	-10.9697
奏	-10.9699
銳	-10.97
口渇	-10.97
在腹	-10.9701
吐痢	-10.9701
至于	-10.9704
動風	-10.9704
吹入	-10.9707
田野	-10.9707
類也	-10.9707
北人	-10.9709
内托散	-10.9709
衇證	-10.971
之由	-10.9712
煎至五分	-10.9714
而未	-10.9715
二條	-10.9717
病機	-10.9721
忌食	-10.9721
菓	-10.9721
他病	-10.9725
酒二升	-10.9725
古今録驗	-10.9727
風火	-10.973
濶	-10.9731
冄	-10.9731
途	-10.9734
嚥津	-10.9734
趨	-10.9735
外䑓秘要	-10.9736
千里	-10.9737
而起	-10.9738
不知其	-10.9738
酒一斗	-10.9739
五辛	-10.9739
五箇	-10.9741
溏泄	-10.9743
資生	-10.9745
血塊	-10.9746
微腫	-10.9747
瓶内	-10.9747
藥用	-10.9748
外敷	-10.9749
而外	-10.975
即效	-10.9751
寒慄	-10.9751
以物	-10.9752
汁中	-10.9756
丸如黍米大	-10.9756
袪	-10.9756
空青	-10.9757
生翳	-10.976
二氣	-10.9762
益氣力	-10.9762
大作	-10.9764
熱中	-10.9765
宜服此方	-10.9765
婦人血氣	-10.9767
熱淋	-10.9769
蘇合香丸	-10.9772
四氣	-10.9772
乾山藥	-10.9773
勿使	-10.9774
忍冬	-10.9774
純陽	-10.9774
背痛	-10.9776
也惟	-10.9781
者雖	-10.9781
錠	-10.9781
病證	-10.9781
十片	-10.9781
骨間	-10.9782
令焦	-10.9782
搔	-10.9783
七十丸	-10.9784
隂囊	-10.9784
緩則	-10.9784
雞子黄	-10.9785
食物	-10.9787
六脉	-10.9791
治頭風	-10.9791
回陽	-10.9791
脉氣所發	-10.9791
五嵗	-10.9792
炮製去皮	-10.9795
白术甘草	-10.9797
烟盡	-10.9798
右各等分	-10.98
血溢	-10.9801
頭目昏眩	-10.9801
様	-10.9802
前湯	-10.9803
八正散	-10.9805
逆冷	-10.9805
不見火	-10.9806
庸	-10.9806
衰弱	-10.9808
瘵	-10.9809
用六君子加	-10.9813
頂上	-10.9819
蘇恭	-10.9821
琖	-10.9823
丸如梧桐子大毎服	-10.9824
清胃散	-10.9827
川牛膝	-10.9828
九十	-10.9831
内結	-10.9834
减半	-10.9836
氣之所	-10.9838
以白	-10.984
論之	-10.9841
袋盛	-10.9842
攻裏	-10.9843
冷熱不調	-10.9848
則吐	-10.9849
無所見	-10.985
屬火	-10.9851
勝也	-10.9851
亦可用	-10.9852
去滓分三服	-10.9852
血止	-10.9855
瞑	-10.9857
不離	-10.9858
范汪	-10.9859
腰腹	-10.9859
脈浮而	-10.9859
桔	-10.9862
崩漏	-10.9863
絮	-10.9864
一鍾	-10.9864
者曰	-10.9867
無窮	-10.9867
能消	-10.9869
極則	-10.9869
用補中益氣加	-10.9869
十棗湯	-10.9869
動也	-10.987
性寒	-10.9872
芍藥湯	-10.9881
黎	-10.9882
聚於	-10.9883
慶	-10.9883
煎丸	-10.9883
心病	-10.9884
所言	-10.9887
不饑	-10.989
神志	-10.989
經中	-10.9891
净洗	-10.9891
牙痛	-10.9897
不省	-10.9897
所感	-10.9899
宜服此	-10.9899
在肺	-10.9899
虚人	-10.99
日乆	-10.9901
五粒	-10.9903
而見	-10.9906
羸弱	-10.9908
叔和	-10.9909
乾枯	-10.9912
不可與	-10.9913
弔	-10.9914
勤	-10.9915
噴	-10.9917
㮣	-10.9919
取藥	-10.9919
當下之	-10.9919
十一月	-10.9923
員	-10.9924
則陽氣	-10.9924
寛中	-10.9926
之類皆	-10.9927
云凡	-10.9932
忌生葱	-10.9935
氣温	-10.9941
錢五分	-10.9941
其勢	-10.9942
中以	-10.9945
一二升	-10.9946
始生	-10.9951
治痟渇	-10.9952
乗虚	-10.9952
半夏麯	-10.9953
潰瘍	-10.9953
十二日	-10.9955
風寒暑濕	-10.9955
而痊一小兒	-10.9956
狹	-10.9956
香散	-10.996
榮血	-10.9961
痰嗽	-10.9964
拇指	-10.9965
蹻	-10.9965
云是	-10.9965
六畜	-10.9969
加芍藥	-10.997
陽中	-10.9971
利下	-10.9973
炙剉各	-10.9974
隨手	-10.9975
毛髪	-10.9975
先生云	-10.9976
硫	-10.9976
赤脉	-10.9978
大成	-10.998
治男子	-10.9981
搨	-10.9982
以瘥為度	-10.9983
三十粒	-10.9984
並主	-10.9987
渴而	-10.9987
右十一味	-10.9988
聴	-10.9989
涎出	-10.999
搔之	-10.9992
皮薄	-10.9992
輯	-10.9993
五七日	-10.9995
温酒調下二錢	-10.9995
龍眼	-10.9997
横骨	-10.9998
當時	-11.0001
受風	-11.0001
降氣	-11.0001
火丹	-11.0002
世俗	-11.0003
通赤	-11.0007
馬刀	-11.0008
太甚	-11.0009
永不	-11.001
緩者	-11.0013
多驚	-11.0013
也言	-11.0015
煎三五沸	-11.002
入肉	-11.0021
大人小兒	-11.0023
也時珍曰	-11.0025
膿水淋漓	-11.0026
五心煩熱	-11.0027
自死	-11.0028
不拘時温服	-11.0031
要藥	-11.0036
麻黄根	-11.0041
生熱	-11.0044
二七枚	-11.0045
舌乾	-11.0046
滑數	-11.0048
也且	-11.0048
蛇蛻	-11.0049
尸厥	-11.005
心忪	-11.0051
晡熱	-11.0052
氣攻	-11.0055
即生	-11.0057
風温	-11.0057
脉洪	-11.0059
在右	-11.0059
掠	-11.0061
釐	-11.0061
脩	-11.0062
嚙	-11.0063
悦	-11.0064
鐺	-11.0066
患之	-11.0066
有小	-11.0067
宅	-11.0069
鴉	-11.0071
之表	-11.0071
四種	-11.0071
少年	-11.0073
桔梗甘草	-11.0075
耳目	-11.0077
天柱	-11.008
内以	-11.0082
其内	-11.0083
焦黄	-11.0083
百丸	-11.0083
足三隂	-11.0084
雖然	-11.0084
四肢拘急	-11.0084
白芥子	-11.0085
吐者	-11.0086
地膽	-11.0086
不斂	-11.0089
野葛	-11.009
風疹	-11.009
四體	-11.009
年深	-11.009
用新	-11.0093
海螵蛸	-11.0098
如梧桐子大	-11.0099
令沸	-11.01
自生	-11.0103
薄荷湯化下	-11.0104
訶黎勒	-11.0104
决明	-11.0104
乘熱	-11.0105
試之	-11.0105
後必	-11.0106
䖟蟲	-11.0106
防風通聖散	-11.0107
姙婦	-11.0109
有瘀血	-11.0111
人亦	-11.0112
溺血	-11.0115
血不足	-11.0118
有効	-11.0119
枯燥	-11.0121
研令細	-11.0123
心悸	-11.0124
膏成	-11.0128
宜急	-11.0129
炒出汗	-11.0129
無益	-11.0129
木鱉子	-11.0132
撒	-11.0132
好醋	-11.0133
三十枚	-11.0134
準	-11.0134
出仁	-11.0134
隨年壯	-11.0135
浮沉	-11.0135
鳩尾	-11.0136
經閉	-11.0136
弩	-11.0137
未得	-11.0137
釘	-11.0138
而解	-11.0141
片子	-11.0146
治妊娠	-11.0147
稀粥	-11.015
氣脹	-11.015
存方	-11.0151
以水一盞	-11.0151
湯洗七	-11.0157
天樞	-11.0158
有毒主	-11.0158
濇者	-11.0165
甚也	-11.0168
南木香	-11.017
上文	-11.0172
拂	-11.0176
傳裏	-11.0176
巾	-11.0177
一兩五錢	-11.0178
平胃	-11.0182
滿痛	-11.0183
蔡	-11.0185
貪	-11.0185
研如膏	-11.0186
亦為	-11.0186
得吐	-11.0187
水淘	-11.0187
撮口	-11.0187
因於	-11.0187
非常	-11.019
諸熱	-11.0193
裏寒	-11.0193
為丸如菉豆大	-11.0193
味辛温	-11.0194
始發	-11.0196
過期	-11.0198
有毛	-11.0201
其説	-11.0201
採得	-11.0202
利水道	-11.0203
快利	-11.0204
羅為散	-11.0207
損其	-11.0207
井中	-11.0208
腫者	-11.0209
蟬蜕	-11.0212
并治	-11.0215
右十味	-11.0216
其蟲	-11.0217
通口服	-11.0217
以苦酒	-11.0218
求治	-11.0219
剌	-11.022
終身	-11.0221
未愈	-11.0222
瓦上	-11.0225
植	-11.0225
尺澤	-11.0227
酸棗	-11.0228
十五日	-11.0229
十指	-11.023
者盖	-11.0231
胃氣虚	-11.0232
三二	-11.0234
傅上	-11.0235
濁氣	-11.0236
再研	-11.0239
失於	-11.024
竹刀	-11.0242
銚	-11.0243
蛇毒	-11.0243
温水調下	-11.0243
時作	-11.0244
哺	-11.0246
色紅	-11.0247
惕	-11.0247
虛煩	-11.0247
無大熱	-11.0248
雉	-11.0251
上部	-11.0252
於裏	-11.0253
子死腹中	-11.0255
咀	-11.0255
而非	-11.0256
友	-11.0256
發作有時	-11.0257
骨痿	-11.0258
必效	-11.0258
兊	-11.0258
者言	-11.0259
不思食	-11.0259
不論	-11.0262
即為	-11.0266
金散	-11.0268
齒齗	-11.0269
剉一	-11.0272
矣其	-11.0272
去蘆各	-11.0274
水八升	-11.0274
五服	-11.0274
泥固濟	-11.0275
酒毒	-11.0278
不如	-11.0279
斛	-11.0281
咽燥	-11.0283
㪚治	-11.0284
狸	-11.0284
木之	-11.0284
身凉	-11.029
甘菊	-11.0291
打撲	-11.0291
薑汁炒	-11.0292
最宜	-11.0292
衍	-11.0294
自覺	-11.0294
以至	-11.0294
笋	-11.0295
一息	-11.0295
依法	-11.0297
白前	-11.0297
三十年	-11.0299
療小兒	-11.0299
右搗羅	-11.0299
忌生冷	-11.0299
沬	-11.0299
咎	-11.0299
分明	-11.0304
第八	-11.0305
草根	-11.0305
種種	-11.0307
無聲	-11.0307
仙人	-11.0309
紫黑	-11.031
交接	-11.0315
傷寒頭痛	-11.0316
靈丹	-11.0317
功效	-11.0318
外腎	-11.032
臨産	-11.0323
虚極	-11.0323
或先	-11.0326
再作	-11.033
空心日午	-11.033
覆之	-11.0331
問之	-11.0331
嬰孩	-11.0333
二陳湯加	-11.0339
内補	-11.0339
主於	-11.034
新汲水調下	-11.0341
熟水下	-11.0345
大夫	-11.0346
白麵	-11.0346
脉虚	-11.0347
也所以	-11.0348
咯	-11.0348
水濕	-11.0349
令其	-11.0351
中行	-11.0351
上以	-11.0352
月水不調	-11.0355
毎服三	-11.0357
剉微	-11.0361
金丸	-11.0361
鹹寒	-11.0361
手足厥逆	-11.0362
過經	-11.0362
則能	-11.0365
怫	-11.0366
頭尾	-11.0366
丼	-11.0369
百粒	-11.0369
未效	-11.0369
仙靈脾	-11.037
􁐍	-11.037
即時	-11.0372
量大小加減	-11.0372
胃之	-11.0372
吕	-11.0374
脈洪大	-11.0374
四肢不舉	-11.0375
手心主	-11.0375
總括	-11.0376
通神	-11.0379
建中	-11.0379
補虛	-11.038
右為細末入	-11.0382
靈砂	-11.0382
白薑	-11.0383
用針	-11.0383
惡風寒	-11.0386
楮	-11.0389
豆䜴	-11.039
瀉心	-11.039
愁	-11.0396
沐	-11.0398
未至	-11.0398
絶骨	-11.0399
不容	-11.0402
不可近	-11.0406
材	-11.0408
為上	-11.0411
哀	-11.0414
祐	-11.0414
梔子豉湯	-11.0415
太陽證	-11.0415
皆用	-11.0416
此憑	-11.0417
諸藥不效	-11.0417
銅青	-11.0418
渇而	-11.0421
股内	-11.0426
瘴瘧	-11.0428
中出	-11.0432
二十八	-11.0432
傳變	-11.0432
甄權	-11.0433
渠	-11.0434
此等	-11.0438
沈重	-11.0438
上膈	-11.0439
煎取一升	-11.0441
用時	-11.0444
銷	-11.0445
蛆	-11.0448
時復	-11.0448
煤	-11.0449
者病在	-11.0449
篤	-11.0449
悮	-11.045
樹皮	-11.045
䝉	-11.0452
鴈	-11.0452
色黑	-11.0452
見前	-11.0453
大麻子	-11.0454
其效	-11.0454
欬唾	-11.0455
罕	-11.0455
三種	-11.0462
安得	-11.0462
而緩	-11.0464
淨洗	-11.0464
而無力	-11.0466
則痛	-11.0467
逆順	-11.0469
豆許	-11.047
雞頭	-11.0471
决明子	-11.0472
内諸藥	-11.0472
足以	-11.0472
相雜	-11.0476
弦而	-11.0476
都作一服	-11.0478
其源	-11.0478
罌粟殻	-11.0482
消瘦	-11.0483
行歩	-11.0483
石膽	-11.0484
灰白	-11.0485
則發熱	-11.0485
𨗳	-11.0485
之機	-11.0485
治痢	-11.0486
水一升	-11.0486
所不勝	-11.0487
冷痺	-11.0489
如醉	-11.0489
同煮	-11.0489
賴	-11.0489
壅盛	-11.049
疳痢	-11.0491
内藥	-11.0492
析	-11.0492
夜多	-11.0494
之甘	-11.0496
温酒或	-11.0496
胕腫	-11.0504
如珠	-11.0506
豈非	-11.0506
煑粥	-11.0507
酸苦	-11.0508
出和	-11.0508
以水三升	-11.051
五氣	-11.0511
家人	-11.0511
寒無毒	-11.0513
豈不	-11.0513
偏勝	-11.0517
湯吞下	-11.0518
火旺	-11.052
必効	-11.052
根如	-11.0521
揑	-11.0521
從之	-11.0522
右闗	-11.0523
醫用	-11.0523
廣濟療	-11.0524
其主	-11.0528
者宜服	-11.0528
白茅根	-11.0528
為良	-11.0529
應之	-11.0529
續命湯	-11.053
飲湯	-11.0531
脾為	-11.0533
韭子	-11.0534
丁香木香	-11.0535
子母秘録	-11.0537
加桂枝	-11.0538
反張	-11.0539
冷即	-11.054
最良	-11.0542
氣通於	-11.0543
散治一切	-11.0543
利止	-11.0546
之道也	-11.0551
仲淳	-11.0553
桔梗湯	-11.0554
燒赤	-11.0556
二嵗	-11.0557
鉢	-11.0558
明礬	-11.0558
丸治婦人	-11.0559
峻補	-11.0559
黑牽牛	-11.056
猶有	-11.0561
無比	-11.0562
晴	-11.0562
於皮膚	-11.0563
因食	-11.0563
及婦人	-11.0564
服一錢	-11.0564
也因	-11.0565
有神	-11.0565
雄雞	-11.0565
倚	-11.0567
寓	-11.0567
王不留行	-11.0568
迴	-11.0569
丁曰	-11.0569
囓	-11.057
藏氣	-11.0571
萎㽔	-11.0573
合於	-11.0574
主風	-11.0575
莫不	-11.0576
屬於	-11.0576
薑七片	-11.0577
尺許	-11.0577
加肉桂	-11.0578
同身寸之	-11.0582
丸麻子大	-11.0584
有物	-11.0585
者乎	-11.0586
火鬱	-11.0587
治血	-11.0589
中府	-11.059
作丸	-11.0593
虚風	-11.0594
痔瘻	-11.0594
鮓	-11.0595
可救	-11.0595
中外	-11.0595
蟾	-11.0596
其道	-11.0597
散治姙娠	-11.0598
狀似	-11.0598
洗焙	-11.0601
二三錢	-11.0602
棗大	-11.0603
銅人	-11.0605
虎睛	-11.0605
乂	-11.0606
啞	-11.0607
也謂	-11.061
用鹽	-11.061
早晚	-11.0611
米粉	-11.0611
惡食	-11.0612
丘	-11.0612
園	-11.0616
煑熟	-11.0617
煑取三升	-11.062
淮南	-11.062
去頭	-11.0623
如聖	-11.0626
其隂	-11.0627
者葢	-11.0628
肺為	-11.0629
所苦	-11.0634
當汗	-11.0638
熱厥	-11.0639
母子	-11.0639
久久	-11.064
脉訣	-11.0642
蓐	-11.0643
今出	-11.0644
徃來	-11.0644
白屑	-11.0645
痿厥	-11.0646
方大黄	-11.0646
藥下之	-11.0649
複	-11.0649
瀉火	-11.0651
卧不安	-11.0655
睡中	-11.0656
臍腹疼痛	-11.0656
飮	-11.0657
兩邊	-11.0658
客邪	-11.0658
為粗末	-11.066
日進	-11.066
調藥	-11.066
内陷	-11.066
伏梁	-11.0661
吹之	-11.0665
秘方	-11.0667
或發	-11.0667
酒色	-11.0668
七錢半	-11.0669
甲子	-11.067
也先	-11.0671
甚至	-11.0673
未破	-11.0674
汲	-11.0675
服方寸匕日三	-11.0675
食已	-11.0676
白秃	-11.0676
龜甲	-11.0681
蘆薈丸	-11.0681
概	-11.0682
採無時	-11.0683
弊	-11.0687
一莖	-11.0687
行之	-11.0689
竝	-11.0689
寺	-11.069
零	-11.0694
本事方	-11.0694
薺	-11.0696
則當	-11.0697
因勞	-11.07
加味歸脾湯	-11.0701
宜温	-11.0703
小腹滿	-11.0709
不著	-11.0709
數月	-11.0709
下之後	-11.071
藥成	-11.0711
茯苓湯	-11.0713
神功	-11.0713
重湯	-11.0714
右為末每服三錢	-11.0715
痔疾	-11.0717
三十餘劑	-11.0718
勞瘵	-11.0718
煎一盞	-11.0719
姓	-11.0719
而愈一婦人	-11.0721
結為	-11.0722
皮中	-11.0723
甞	-11.0723
𤣥参	-11.0724
瀉肝	-11.0725
叚	-11.0725
麥門冬湯	-11.0726
肺主	-11.0728
摸	-11.0728
用此方	-11.0728
川黄連	-11.0729
復生	-11.0729
自安	-11.0729
起脹	-11.0729
服二錢	-11.073
開竅	-11.073
舟	-11.0733
影	-11.0733
而至	-11.0736
急服	-11.0738
筋骨疼痛	-11.0738
䟽	-11.0738
留七呼	-11.0738
袪風	-11.0738
感冒	-11.0739
與傷寒	-11.0741
陳皮甘草	-11.0742
有大毒	-11.0742
五里	-11.0743
三日後	-11.0743
乆則	-11.0744
肺主氣	-11.0745
所載	-11.0746
出第	-11.0747
根葉	-11.0748
雀目	-11.0749
一夕	-11.075
未定	-11.0754
馬藺	-11.0765
虚故	-11.0765
漬一宿	-11.0767
測	-11.0767
必是	-11.0767
山豆根	-11.0768
血瘀	-11.0769
懊憹	-11.077
用歸脾湯	-11.0772
痛穴	-11.0773
四肢厥冷	-11.0774
盛也	-11.0774
入内	-11.0774
搗羅	-11.0776
所中	-11.0777
小便多	-11.0778
劑而愈	-11.0778
若此	-11.0779
則津液	-11.0779
脈氣所發	-11.078
血妄行	-11.078
黄汗	-11.078
發渇	-11.0781
之類也	-11.0784
痺不仁	-11.0787
三沸	-11.0788
膏子	-11.0788
右為細末每服一錢	-11.0791
面黒	-11.0791
濕則	-11.0793
故凡	-11.0796
増寒	-11.0797
皂角刺	-11.0797
酒漬	-11.0797
出油	-11.0798
隂陽之	-11.0799
以差為度	-11.08
塞耳	-11.0802
如豆大	-11.0802
𢃄	-11.0806
藕汁	-11.0806
劉寄奴	-11.0808
轉側	-11.0808
努肉	-11.081
肉荳蔲	-11.0812
訪	-11.0812
方見二十四	-11.0812
攻毒	-11.0817
近世	-11.0818
葡萄	-11.0818
水化	-11.0819
氣道	-11.082
四方	-11.0822
為丸如	-11.0823
不若	-11.0824
一分炙	-11.0824
蘸藥	-11.0829
目録	-11.0831
煎成膏	-11.0832
摶於	-11.0837
扁豆	-11.0839
再發	-11.0841
東垣云	-11.0841
窌	-11.0842
治氣	-11.0842
風入	-11.0843
頭瘡	-11.0844
鷰	-11.0844
絍	-11.0845
門冬	-11.0845
傷脾胃	-11.0847
溼熱	-11.0849
沾	-11.0849
多唾	-11.085
形狀	-11.0851
逸	-11.0852
蔓生	-11.0853
飼	-11.0853
人事	-11.0853
毬	-11.0854
治寒	-11.0856
涎沫	-11.0856
服藥後	-11.0857
有四	-11.0857
香熟	-11.0862
部分	-11.0862
右切	-11.0866
腑臟	-11.0869
汁炙	-11.087
脈大	-11.0871
而言之	-11.0872
濡弱	-11.0872
在地	-11.0874
益氣湯	-11.0876
變白	-11.0877
姙	-11.0877
下三寸	-11.088
樟	-11.0881
其汁	-11.0881
動作	-11.0881
護	-11.0885
必發	-11.0885
謀	-11.0886
檢	-11.0888
渉	-11.0888
踵	-11.0888
蓬莪茂	-11.0888
早晩	-11.0889
紫河車	-11.0891
無害	-11.0892
志云	-11.0894
毎服二十丸	-11.0895
治之而愈	-11.0895
邪入	-11.0899
少陽經	-11.09
劑方	-11.0901
切忌	-11.0905
頭痛發熱	-11.0908
盆内	-11.0909
出不快	-11.091
倣此	-11.0911
風雨	-11.0911
藴熱	-11.0912
大黄湯	-11.0913
賊邪	-11.0913
一寸五分	-11.0915
水一盞入	-11.0916
調養	-11.0916
渇者	-11.0918
腥臭	-11.0919
宗筋	-11.092
踏	-11.0921
毎服四錢	-11.0923
將藥	-11.0923
裹之	-11.0925
遭	-11.0929
彊	-11.093
罪	-11.0931
兄	-11.0931
􁁜	-11.0932
傷元氣	-11.0933
大青龍湯	-11.0934
歌曰	-11.0935
折之	-11.0935
鳩	-11.0935
昭	-11.0936
二十粒	-11.0937
服前藥	-11.0937
射香	-11.0937
在脾	-11.0937
用四君	-11.0938
手臂	-11.0939
補中益氣湯加	-11.094
也又有	-11.094
五藏之	-11.0941
室中	-11.0941
乃至	-11.0942
多痰	-11.0943
巴豆霜	-11.0943
五更初	-11.0946
太乙	-11.0948
一升半	-11.0949
頭骨	-11.0949
出焉	-11.0949
少腹痛	-11.095
宜桂枝湯	-11.0952
為火	-11.0955
四曰	-11.0956
酒製	-11.0958
肝熱	-11.0959
匱	-11.0963
用黄連	-11.0963
彰	-11.0964
抱龍丸	-11.0965
病家	-11.0965
者並	-11.0965
一二錢	-11.0966
宣明	-11.0967
厥而	-11.0967
皴	-11.0968
拆	-11.0969
黄茋湯	-11.0972
松香	-11.0972
皷	-11.0972
循行	-11.0973
一方以	-11.0974
喘欬	-11.0975
玩	-11.0975
貨	-11.0977
神門	-11.0979
怫鬱	-11.098
四時之	-11.0985
不載	-11.0985
剉㣲	-11.0992
伏暑	-11.0992
之始	-11.0995
聰	-11.0997
參苓	-11.0998
入隂	-11.0999
之端	-11.1001
控	-11.1003
遮	-11.1006
南海	-11.1007
隂器	-11.1007
五十壯	-11.1008
遲則	-11.1012
䯒	-11.1014
以帛	-11.1014
邑	-11.1015
婢	-11.1016
頤	-11.1016
死胎	-11.1018
苦辛	-11.102
下一丸	-11.102
因驚	-11.102
身腫	-11.1021
復以	-11.1027
銚内	-11.1027
初病	-11.1029
又如	-11.1029
闗元	-11.103
不計時候温服	-11.103
熟水	-11.1035
脉遲	-11.1036
唾膿血	-11.1036
惡阻	-11.1038
相干	-11.1039
下膿血	-11.1039
木香㯽榔	-11.104
者多矣	-11.1041
無異	-11.1043
每服不計時候以	-11.1043
邪客於	-11.1043
蜜和丸	-11.1044
心躁	-11.1045
膕	-11.1045
八九日	-11.1046
理氣	-11.1047
客于	-11.1047
受濕	-11.1047
攪令勻	-11.1048
勞則	-11.1048
薪	-11.1049
胭脂	-11.105
夏枯草	-11.105
是矣	-11.1051
活人書	-11.1053
在皮膚	-11.1053
歸於	-11.1055
亦效	-11.1056
畏寒	-11.1057
賁豚	-11.1058
而瘥	-11.1059
右寸	-11.1059
月經不調	-11.1059
小指次指	-11.106
其變	-11.1062
之紀	-11.1062
者服之	-11.1065
人中白	-11.1068
叢生	-11.1069
腫瘍	-11.1069
塗酥	-11.1069
如蟲行	-11.1069
不汗	-11.1071
壯筋骨	-11.1071
俱有	-11.1072
皆然	-11.1073
得以	-11.1075
全無	-11.1076
尤良	-11.1076
跗	-11.1077
如雞	-11.1081
無味	-11.1085
方藥	-11.1085
卒暴	-11.1086
洗眼	-11.1087
宜灸	-11.1089
以水六升煮取二升	-11.1091
下降	-11.1092
有功	-11.1092
互相	-11.1092
燒灰存性	-11.1093
二十餘劑	-11.1093
尚可	-11.1097
上入	-11.1098
呻吟	-11.1099
川朴硝	-11.11
噙化	-11.11
痢不止	-11.11
清之	-11.1101
花實	-11.1103
經騐方	-11.1104
參耆	-11.1105
氣平	-11.1106
不待	-11.1106
大筋	-11.1107
通治	-11.1108
右為末酒糊	-11.111
六銖	-11.1112
心肝	-11.1113
先食	-11.1114
飛尸	-11.1115
隂陽相	-11.1117
山梔子仁	-11.1121
不得食	-11.1124
胞絡	-11.1124
陰乾	-11.1124
癲狂	-11.1127
疔腫	-11.1127
頰車	-11.1135
破氣	-11.1136
墻	-11.1138
乳哺	-11.1139
齧	-11.1141
易産	-11.1142
石脂	-11.1143
荒	-11.1143
甘平	-11.1145
自退	-11.1148
杖瘡	-11.115
皆宜	-11.1151
各半錢	-11.1151
用八味丸	-11.1153
三隂三陽	-11.1154
犀角散	-11.1156
竹木	-11.1157
不能起	-11.116
不醒	-11.1162
一口	-11.1162
吹鼻	-11.1163
服湯	-11.1165
和丸如梧桐子大	-11.1169
賦	-11.1169
即通	-11.117
之藥也	-11.1171
其治	-11.1171
各異	-11.1173
頭末	-11.1174
大便鞕	-11.1177
貞	-11.1177
辛散	-11.1177
揭	-11.1177
答	-11.1178
悍	-11.1179
敬	-11.1181
胎動不安	-11.1181
凉膈散	-11.1183
潄口	-11.1184
更煎	-11.1186
自是	-11.1186
不移	-11.1187
血閉	-11.1191
壅遏	-11.1193
入前藥	-11.1194
煑取一升	-11.1194
攻注	-11.1195
關上	-11.1196
午前	-11.1197
取白	-11.1198
服之又方	-11.1198
生山	-11.1201
所能	-11.1201
腦麝	-11.1203
汗不止	-11.1205
伏火	-11.1206
主療	-11.1211
真人	-11.1211
薑三片棗二枚	-11.1212
似有	-11.1216
水盞半	-11.1216
去翅足	-11.1217
服三丸	-11.1217
成珠	-11.1218
馬兠鈴	-11.1221
蛇牀子	-11.1221
掲	-11.1221
柏子仁	-11.1221
四肢疼痛	-11.1225
千金同	-11.1225
厥隂之	-11.1226
口齒	-11.1229
丸療	-11.1231
茶清調下	-11.1232
丼草	-11.1232
如不應	-11.1234
粥方	-11.1234
寒主	-11.1236
半載	-11.1238
深入	-11.1239
丸小豆大	-11.1242
氣味辛	-11.1242
丁腫	-11.1242
五勞	-11.1243
臼中	-11.1244
而短	-11.1244
荆芥防風	-11.1246
懶	-11.1248
用前藥	-11.1248
温經	-11.1251
闔	-11.1252
木皮	-11.1252
依此	-11.1253
酒浸一	-11.1255
右十二味	-11.1255
丸彈子大	-11.1255
胎毒	-11.1255
色不變	-11.1257
頭髪	-11.1258
辛苦	-11.1259
未潰	-11.126
印	-11.126
䋲	-11.1262
上視	-11.1263
附子理中湯	-11.1264
二三十丸	-11.1266
心為	-11.1266
用紙	-11.1268
半分三服	-11.1269
乳頭	-11.1269
紫黒	-11.1269
蚊	-11.127
皂角子	-11.1271
瞤動	-11.1271
澤漆	-11.1271
房事	-11.1275
居士	-11.1275
者肺	-11.1276
發熱頭痛	-11.1277
之神	-11.1278
嶺	-11.1281
出于	-11.1282
呷之	-11.1282
水入	-11.1283
生長	-11.1283
痞鞕	-11.1284
托裏散	-11.1284
取末	-11.1285
瓶中	-11.1285
相同	-11.1287
以好酒	-11.1287
能補	-11.1288
絹袋	-11.1289
天符	-11.1289
閉目	-11.1291
又何	-11.1293
清陽	-11.1293
大小腸	-11.1294
紫參	-11.1297
弛	-11.1299
當與	-11.13
盛於	-11.13
中極	-11.1301
附子一枚	-11.1302
大虚	-11.1303
湯下二十丸	-11.1303
枳术丸	-11.1304
逾	-11.1305
煉蜜為丸	-11.1306
研細末	-11.1308
六淫	-11.1309
保和丸	-11.1309
閣	-11.131
受氣	-11.1314
温煖	-11.1316
河東	-11.1322
即便	-11.1324
身疼痛	-11.1324
乃得	-11.1325
日華	-11.1328
不得下	-11.133
桃葉	-11.1331
也宜用	-11.1334
諸陽之	-11.1335
雞冠	-11.1338
若夫	-11.1339
尸疰	-11.1339
以防	-11.134
一貼	-11.1341
豐	-11.1347
梧桐	-11.1348
屬脾	-11.1348
侍	-11.1348
瘠	-11.135
忌猪肉冷水	-11.135
確	-11.1351
秘結	-11.1352
成片	-11.1353
心主血	-11.1353
遣	-11.1353
黧	-11.1354
痼冷	-11.1355
佗	-11.1357
誰	-11.1357
未復	-11.1358
温温	-11.1358
當歸甘草	-11.1359
不喜	-11.1359
衝陽	-11.1359
等病	-11.1361
三黄丸	-11.1361
浮大而	-11.1363
者惟	-11.1367
專治	-11.1368
腰腿	-11.1369
箆	-11.1372
為丸如梧桐子大每服	-11.1374
用六君加	-11.1377
於後	-11.1377
診其脈	-11.1378
此毒	-11.1383
膏和	-11.1385
爲病	-11.1386
矣今	-11.1387
炙三	-11.1389
不落	-11.139
糟粕	-11.139
犬咬	-11.1391
涉	-11.1391
四神丸	-11.1393
萍	-11.1394
以水九升煮取三升	-11.1394
蟲蝕	-11.1395
賜	-11.1395
腎藏	-11.1396
汗自出	-11.1397
變證	-11.1397
若欲	-11.1398
啓	-11.14
食醫心鏡	-11.1403
上星	-11.1404
二十七	-11.1405
四肢不收	-11.1406
依前法	-11.1406
最妙	-11.1413
之體	-11.1416
大要	-11.1417
入藥末	-11.1419
曰病	-11.142
不解者	-11.1421
温服一升	-11.1422
南北	-11.1423
稀稠得所	-11.1425
酒半盞	-11.1427
下泄	-11.1428
氣交	-11.143
百脉	-11.1431
下利不止	-11.1433
冝服	-11.1433
勞熱	-11.1434
水調塗	-11.1436
嚢	-11.1436
薛立齋治	-11.1439
别搗	-11.1439
紅藍花	-11.1439
喻	-11.1441
勝復	-11.1442
如瘡	-11.1444
月事不	-11.1444
閩	-11.1445
九分	-11.1445
三五丸	-11.1449
明之	-11.1449
三法	-11.1449
小便白濁	-11.1453
衇數	-11.1454
但當	-11.1456
發熱作渴	-11.1458
者十	-11.1458
其花	-11.146
四君子加	-11.1461
沙石	-11.1466
數劑而	-11.1467
去黑皮	-11.147
痛不可忍者	-11.1471
川連	-11.1472
聖恵方	-11.1472
者有因	-11.1473
獺	-11.1474
不以時	-11.1474
搽之	-11.1475
泠	-11.1475
不歸	-11.1477
豚	-11.1478
菘	-11.1478
差止	-11.1479
巢氏	-11.1479
沈細	-11.1483
顛倒	-11.1484
熱渇	-11.1485
行經	-11.1488
腰中	-11.1488
季夏	-11.1489
治其本	-11.1489
柴胡黄芩	-11.1491
發渴	-11.1492
痞氣	-11.1497
喎	-11.15
足少陰	-11.15
充實	-11.15
採根	-11.1502
水泡	-11.1505
桂枝加	-11.1505
薑水煎	-11.1506
調勻	-11.1508
生薑湯	-11.1508
小便不禁	-11.1508
陶云	-11.1509
肝風	-11.151
炒半	-11.151
胸背	-11.1514
入鹽少許	-11.1514
打撲傷損	-11.1514
於表	-11.1516
腫大	-11.1517
治婦人血風	-11.1517
㣲汗	-11.1519
勃	-11.1519
大汗出	-11.152
列缺	-11.1521
亦不能	-11.1521
胃弱	-11.1521
治久	-11.1521
酒浸去	-11.1523
鋸	-11.1524
石硫黄	-11.1525
丙丁	-11.1526
不得屈伸	-11.1527
傳入	-11.1527
走注	-11.1527
心包絡	-11.1527
甚者加	-11.1528
麝香少許	-11.1529
蚤	-11.1529
大者如	-11.1529
萆	-11.1529
塗之又方	-11.153
即活	-11.1531
銅器	-11.1537
補瀉	-11.1539
刺可入同身寸之	-11.154
醫學	-11.154
雞蘇	-11.1542
癰疽發背	-11.1543
收靨	-11.1545
寒痰	-11.1545
固濟	-11.1545
或在	-11.1547
間日	-11.1548
或兼	-11.1557
糊丸梧子大	-11.1558
性温	-11.1559
米飲送下	-11.1559
一經	-11.156
蒺藜子	-11.156
去皮尖雙	-11.1561
温酒調服	-11.1562
不能勝	-11.1563
禾	-11.1563
四服	-11.1564
桃仁承氣湯	-11.1566
腸間	-11.1566
續㫁	-11.1567
熱瘡	-11.1568
為粉	-11.1569
作瀉	-11.157
但是	-11.1571
醫之	-11.1572
舉之	-11.1572
壺	-11.1573
嚼下	-11.1573
心脉	-11.1573
沸湯㸃服	-11.1575
網	-11.1576
心下痞鞕	-11.158
秫米	-11.158
柏葉	-11.158
三五服	-11.1582
乃成	-11.1585
䐜脹	-11.1586
塗酥炙	-11.159
未滿	-11.159
出濟生	-11.1592
大敦	-11.1596
治吐血	-11.1597
集成	-11.1597
起于	-11.1598
止汗	-11.1598
今處處有之	-11.1599
為丸桐子大	-11.1601
在膝	-11.1603
惡候	-11.1604
搗羅為散	-11.1605
儀	-11.1608
身面	-11.1608
右為散每服三錢	-11.1609
蘄	-11.161
燒烟	-11.161
顫	-11.1612
右㕮咀每服四錢	-11.1613
軰	-11.1614
五臟之	-11.1615
菀	-11.1615
剛柔	-11.1616
槐角	-11.1618
寄生	-11.1619
温和	-11.1623
則邪氣	-11.1625
肺腎	-11.1626
異也	-11.1629
法宜	-11.1631
棗肉和	-11.1631
程應旄曰	-11.1632
甘露飲	-11.1633
牙疳	-11.1635
乆病	-11.1638
調胃	-11.1638
豆淋酒	-11.1641
嬰	-11.1641
去皮尖雙仁	-11.1641
南星半夏	-11.1642
水煎五錢	-11.1644
甚為	-11.1644
牙齦	-11.1644
毒盛	-11.1647
八珍	-11.1647
子和	-11.1648
鶴虱	-11.1648
一痘	-11.1648
急宜	-11.1651
有小毒主	-11.1652
陳皮半夏	-11.1653
禹餘粮	-11.1654
月事	-11.1654
有水	-11.1657
饒	-11.1658
戰慄	-11.1658
蕭	-11.1659
瀆	-11.1659
典	-11.166
者陽氣	-11.1663
脚腫	-11.1664
便止	-11.1666
觧毒	-11.1668
翎	-11.1668
留三呼	-11.1669
薑三片棗一枚	-11.167
陶隠居云	-11.167
所發	-11.1672
夜則	-11.1673
藏精	-11.1674
虚腫	-11.1676
瀉其	-11.1679
人謂之	-11.1679
有宿食	-11.1681
洗面	-11.1683
人患	-11.1683
大渇	-11.1684
去滓分温三服	-11.1685
忌猪肉	-11.1687
相感	-11.1688
櫻桃	-11.1689
稍緩	-11.1692
數百	-11.1692
癥癖	-11.1694
不可得	-11.1697
髄	-11.1697
無氣	-11.1697
鹽泥固濟	-11.17
菴	-11.1701
射工	-11.1702
以泄	-11.1703
用四物湯加	-11.1703
挿	-11.1704
風濕痺	-11.1706
蜜水	-11.1708
崖	-11.1709
分作三服	-11.1711
待冷	-11.1711
不觧	-11.1712
季脇	-11.1712
脉細	-11.1714
瘦弱	-11.1715
為痛	-11.1716
蒸蒸	-11.1716
張文仲	-11.172
相近	-11.1721
太一	-11.1721
痰多	-11.1723
太息	-11.1724
有驗	-11.1725
不足以	-11.1726
砂石	-11.173
塗瘡上	-11.1732
歴節	-11.1732
大効	-11.1733
炒黄色	-11.1733
乃知	-11.1733
家寳方	-11.1734
西南	-11.1738
湯浸七	-11.174
顋	-11.174
欝金	-11.174
血風	-11.1741
誦	-11.1741
而汗出	-11.1743
希	-11.1743
病得之	-11.1744
長一尺	-11.1746
冦	-11.1746
香薷飲	-11.1748
四君子湯加	-11.1751
取五升	-11.1751
紅紫	-11.1752
先煑	-11.1755
飴	-11.1755
𤓰蒂散	-11.1755
全不	-11.1758
至足	-11.1759
利膈	-11.1762
不減	-11.1763
見人	-11.1763
辣	-11.1767
不納	-11.1767
得效	-11.177
命方	-11.177
傷寒發熱	-11.1771
亦須	-11.1774
數數	-11.1774
油調塗	-11.1775
者正	-11.1776
七升	-11.1778
氣街	-11.1778
研令極細	-11.1781
石水	-11.1781
所當	-11.1782
玄	-11.1782
水二升	-11.1785
淮	-11.1786
指頭	-11.1789
温疫	-11.1789
橘皮湯下	-11.179
浄洗	-11.1791
前人	-11.1791
右為末毎服二錢	-11.1792
乾即	-11.1793
勇	-11.1793
牡荆	-11.1794
隂病	-11.1795
闗上	-11.1795
治諸風	-11.1797
而遲	-11.1797
重按	-11.1799
銚子	-11.1799
白膿	-11.18
選用	-11.18
發熱或	-11.1802
相兼	-11.1802
手脚	-11.1806
能行	-11.1807
事方	-11.181
而行之	-11.1811
如石	-11.1812
十劑	-11.1812
睡卧	-11.1814
黄栢知母	-11.1815
外感風寒	-11.1817
脉緩	-11.1817
有此證	-11.1819
每服三	-11.1819
不得臥	-11.1819
疣	-11.1823
六君	-11.1823
石門	-11.1823
皆可用	-11.1826
生薑二片	-11.1826
繭	-11.1828
㕮咀以	-11.1831
湯下三十丸	-11.1831
柳枝	-11.1832
頓止	-11.1832
脉滑	-11.1832
除煩	-11.1833
莊	-11.1833
皂子大	-11.1834
攤貼	-11.1835
鵲	-11.1835
魯	-11.1835
不可屈伸	-11.1836
茵蔯蒿	-11.1837
蛇蛻皮	-11.1837
解利	-11.1837
亦多	-11.1838
為主佐以	-11.1839
有孕	-11.1841
全者	-11.1842
魚肉	-11.1843
瘡疽	-11.1843
迷悶	-11.1843
倉卒	-11.1845
取一斗	-11.1846
所云	-11.1847
寫之	-11.1848
一二服	-11.1852
冬至	-11.1852
能使	-11.1853
臨睡	-11.1857
所養	-11.1858
諸痛	-11.1862
切碎	-11.1863
大腑	-11.1863
三两	-11.1863
氣者	-11.1864
慎不可	-11.1864
血枯	-11.1867
多寒	-11.1867
熱不退	-11.1867
假如	-11.1867
升發	-11.1868
涕唾	-11.1868
補不足	-11.1869
弦急	-11.1869
濕毒	-11.1875
研令匀	-11.1876
而不通	-11.1876
芙蓉	-11.1876
小兒驚風	-11.1876
㕘	-11.1877
中濕	-11.1877
兀	-11.1879
䗪蟲	-11.1881
能令	-11.1881
修事	-11.1883
軀	-11.1884
之意也	-11.1884
發于	-11.1885
右㕮咀每服五錢	-11.1886
熟為度	-11.1887
臘茶	-11.1887
上方	-11.1887
白豆䓻	-11.1889
年踰	-11.189
冬時	-11.1891
合之	-11.1901
衰則	-11.1902
便溺	-11.1903
性急	-11.1903
傾入	-11.1904
如彈丸	-11.1907
微火煎	-11.1907
腰以下	-11.1908
突出	-11.1911
凝水石	-11.1915
燃	-11.1916
以水四升	-11.1916
胃為	-11.1918
皆痛	-11.1918
乆痢	-11.1918
飲食不消	-11.1919
跌撲	-11.1922
抽掣	-11.1923
診得	-11.1923
風壅	-11.1925
尹	-11.1926
和丸如菉豆大	-11.1926
麗	-11.1927
用蜜	-11.1928
作小	-11.1929
龜板	-11.1929
氣盛則	-11.1929
賤	-11.1933
流出	-11.1933
之所以	-11.1935
本事	-11.1935
逐日	-11.1937
酢物	-11.1937
炙焦	-11.1938
六升	-11.1938
不思	-11.1939
粟殻	-11.1941
草龍膽	-11.1944
與夫	-11.1947
即成	-11.1947
已死	-11.1948
病雖	-11.1948
不長	-11.1948
煎六分	-11.1949
臣禹錫等謹按蜀本	-11.1949
▁千金	-11.1951
毎服二錢水一盞	-11.1954
小柴胡加	-11.1954
水一盞煎	-11.1955
眵	-11.1956
衆藥	-11.1957
其支者	-11.196
大吐	-11.196
顖	-11.1962
而浮	-11.1964
不進飲食	-11.1965
麋	-11.1966
其裏	-11.1967
兩感	-11.1967
滿口	-11.1968
肌瘦	-11.1969
加麻黄	-11.1969
船	-11.197
吐舌	-11.1971
仙方	-11.1972
賣	-11.1972
廷	-11.1973
隨病	-11.1975
毎服五錢水一盞半	-11.1975
便毒	-11.1976
合口	-11.1977
甘露	-11.1977
食令人	-11.1979
桃李	-11.1981
凡治	-11.1981
一杯	-11.1982
自落	-11.1982
認為	-11.1983
目瞑	-11.1984
血血	-11.1985
鬱怒	-11.1985
烊	-11.1985
些	-11.199
水糓	-11.1991
尺寸俱	-11.1995
若用	-11.2001
人參敗毒散	-11.2003
癰膿	-11.2004
患前症	-11.2005
甘辛	-11.2008
治咽喉	-11.2009
可汗	-11.2009
加石膏	-11.2009
長大	-11.2011
整	-11.2011
啼哭	-11.2012
釜	-11.2013
貌	-11.2013
尉	-11.2016
薦	-11.2018
面目浮腫	-11.2019
上衝心	-11.2019
紫蘓	-11.202
不可救	-11.2022
作膿	-11.2023
其人必	-11.2028
腎氣虚	-11.203
辛辣	-11.2032
糊為丸如梧桐子大	-11.2032
勞氣	-11.2033
愈矣	-11.2033
甘桔湯	-11.2033
出三	-11.2033
夏秋	-11.2034
大率	-11.2035
相宜	-11.2036
治喉痺	-11.2039
三五度	-11.2039
吐血衂血	-11.2039
蔓菁	-11.2042
于肺	-11.2043
使氣	-11.2043
㣲炙	-11.2043
同搗	-11.2045
芎藭當歸	-11.2045
口眼	-11.2047
經候	-11.2048
濕勝	-11.2049
如氷	-11.2049
肺脹	-11.2049
弦數	-11.2049
通天	-11.2052
痟	-11.2055
丹溪治	-11.2055
賔	-11.2056
氣塊	-11.2056
每服一字	-11.2058
悉主之	-11.2059
踡	-11.206
訶棃勒	-11.206
祗	-11.2063
評	-11.2064
又取	-11.2064
張子和	-11.2064
物之	-11.2065
遊風	-11.2065
中病	-11.2067
川芒硝	-11.2068
右為細末以	-11.207
當歸白芍	-11.2072
一㸃	-11.2072
水一小盞	-11.2073
分作二服	-11.2074
服一劑	-11.2074
兩耳	-11.2075
絡於	-11.2077
日日	-11.2078
炮一	-11.2079
浮洪	-11.208
鹽少許	-11.2081
生熟	-11.2082
也大抵	-11.2083
時令	-11.2085
時疾	-11.2087
堅痛	-11.2088
煎成	-11.2091
川芎甘草	-11.2091
碎微炒	-11.2092
洗浴	-11.2094
炒三	-11.2098
遶	-11.2098
薑棗水煎	-11.2099
黄芩芍藥	-11.21
㗜	-11.2104
吐後	-11.2107
之勢	-11.2108
血弱	-11.2108
每服以	-11.211
狀若	-11.2112
不可輕	-11.2112
加以	-11.2112
五蔵	-11.2113
承漿	-11.2113
魁	-11.2115
右切以	-11.2117
琇按	-11.2118
長者	-11.212
百十	-11.212
旱	-11.2122
味甘平	-11.2122
最佳	-11.2124
氣不行	-11.2127
金牙	-11.2129
譬	-11.2131
牡蠣粉	-11.2133
其心	-11.2135
行間	-11.2135
日用	-11.2135
水送下	-11.2139
竒方	-11.2141
附骨疽	-11.2142
唇青	-11.2142
裏氣	-11.2144
艱	-11.2144
病本	-11.2145
石決明	-11.2146
防風羌活	-11.2147
手足寒	-11.2147
也按	-11.2148
抝	-11.215
蟾蜍	-11.215
覽	-11.215
蓬莪术	-11.2151
小便赤黄	-11.2154
闊	-11.2155
右搗篩為散	-11.2156
結滯	-11.2158
天時	-11.216
久瘧	-11.216
右先以	-11.2166
恐懼	-11.2168
刮去	-11.217
至死	-11.2171
神應	-11.2171
吐蚘	-11.2171
通紅	-11.2172
瘍門	-11.2172
足太陰	-11.2177
為腎	-11.2177
益脾	-11.2182
附骨	-11.2184
根似	-11.2185
用參茋	-11.2188
祟	-11.2189
氣粗	-11.2191
盪	-11.2192
入於胃	-11.2192
産後血暈	-11.2195
灸五壯主	-11.2196
牡礪	-11.2196
結子	-11.2198
仝	-11.2198
釣藤鈎	-11.2198
无	-11.2198
村	-11.2199
台	-11.22
鬼魅	-11.2201
托裏消毒散	-11.2201
波	-11.2202
昇	-11.2203
蠶沙	-11.2203
腎病	-11.2203
慧	-11.2204
以應	-11.2204
為丸如桐子大	-11.2204
心中懊憹	-11.2205
心腹刺痛	-11.2205
寒熱徃來	-11.2206
失常	-11.2206
華佗	-11.2208
出聖惠方	-11.2209
詳審	-11.221
飲食勞倦	-11.2213
者俱	-11.2215
仙經	-11.2216
大忌	-11.2217
産後惡露	-11.2217
氣虚而	-11.2219
用寒凉	-11.2221
苦瓠	-11.2222
已破	-11.2227
莖中	-11.2227
紙撚	-11.2227
診脉	-11.2228
間使	-11.2228
按之不	-11.223
猶未	-11.223
使然	-11.2231
化氣	-11.2232
脉浮數	-11.2235
詵曰	-11.2235
功專	-11.2236
目疾	-11.2236
蜜煎	-11.2237
陽陵泉	-11.224
寒戰	-11.2243
夜夢	-11.2243
下文	-11.2243
日進二服	-11.2244
獻	-11.2246
胸膈痞悶	-11.2246
未發前	-11.2246
危殆	-11.2248
亨	-11.2249
鳯	-11.2249
不因	-11.225
馬鞭草	-11.225
蝨	-11.2253
重墜	-11.2253
乏力	-11.2254
何以知	-11.2255
多用之	-11.2256
曰吾	-11.2256
濾過	-11.2257
生于	-11.2257
極效	-11.2259
呃逆	-11.2259
腫潰	-11.226
其位	-11.2261
汗吐下	-11.2261
大小便秘	-11.2266
無膿	-11.2267
清火	-11.2268
苦梗	-11.2268
白牽牛	-11.2269
亦作	-11.2271
訶子肉	-11.2273
消穀	-11.2274
右都	-11.2274
之辛	-11.2275
立已	-11.2277
臍風	-11.228
孩兒	-11.2282
炒為末	-11.2283
水三升	-11.2284
川芎白芷	-11.2285
停食	-11.2286
吐沫	-11.2287
二兩去	-11.2287
不聞香臭	-11.2287
腰脚疼痛	-11.2288
甚佳	-11.2289
上喘	-11.2289
入輕粉	-11.2289
蚕	-11.229
焰	-11.229
萬物之	-11.2291
株	-11.2292
決明子	-11.2292
脾胃氣虚	-11.2292
病愈	-11.2293
如食法	-11.2294
窩	-11.2294
捫	-11.2296
五運	-11.2296
脉實	-11.2296
剖	-11.2297
長肌肉	-11.2297
亦云	-11.2298
肺俞	-11.2298
秘澁	-11.2299
喜忘	-11.23
一百二十	-11.2303
菽	-11.2303
鯁	-11.2303
庚辛	-11.2303
聲啞	-11.2304
研藥	-11.2306
清肝火	-11.231
蜜丸梧子大	-11.231
屬肺	-11.2311
立出	-11.2311
故使	-11.2312
食後臨卧服	-11.2312
塞耳中	-11.2313
敦	-11.2316
虛羸	-11.2316
寒甚	-11.2317
飲汁	-11.2319
雖多	-11.2319
叅曰	-11.232
躁煩	-11.232
極妙	-11.232
風腫	-11.2321
動揺	-11.2332
紗	-11.2333
瀉青丸	-11.2335
䨇	-11.2336
莵絲子	-11.2336
痿痺	-11.2336
腿膝	-11.234
壬癸	-11.234
叩	-11.2341
故言	-11.2342
微炙	-11.2343
補陽	-11.2343
嬰方	-11.2343
鬱而	-11.2343
丸桐子大每服	-11.2345
獺肝	-11.2346
表未解	-11.2347
右相和	-11.2348
襄	-11.2349
為之使惡	-11.235
去白焙	-11.2356
湯液	-11.2356
發汗則	-11.236
有餘則	-11.2362
其家	-11.2363
隂不足	-11.2365
入府	-11.2367
身輕	-11.2367
隔紙	-11.2369
不犯	-11.237
膿已成	-11.2371
腹疼	-11.2373
用八珍	-11.2375
臈	-11.2376
􁤹	-11.2376
搗羅為細末	-11.2378
化服	-11.2379
性熱	-11.238
不獨	-11.2381
槲	-11.2383
不伸	-11.2385
頌曰今	-11.2386
汁盡	-11.2386
澆	-11.2386
痰涎壅盛	-11.2386
𢷬末	-11.2386
唐本先附	-11.2388
苐	-11.2389
一日一夜	-11.239
膈間	-11.2391
僵仆	-11.2391
朔	-11.2392
蚛	-11.2394
如人行	-11.2394
久冷	-11.2396
去尖	-11.2397
俗呼為	-11.2399
京骨	-11.24
人參半夏	-11.2401
加川芎	-11.2403
年五十	-11.2404
瞳	-11.2405
但頭汗出	-11.2405
同入	-11.2409
新瓦	-11.241
穣	-11.2411
治水腫	-11.2414
難經曰	-11.2416
専治	-11.2416
池澤	-11.2417
不能治	-11.2417
姜汁	-11.2418
之事	-11.2421
揩齒	-11.2424
以竹	-11.2427
屬腎	-11.2428
昔人	-11.2429
捜	-11.2431
中暍	-11.2431
欲解	-11.2432
雖曰	-11.2432
蓬莪荗	-11.2433
恃	-11.2433
徃徃	-11.2434
荏	-11.2434
仲景之	-11.2436
牙硝	-11.2436
多有之	-11.2437
疳蝕	-11.2437
稠粘	-11.2437
橋	-11.244
五片	-11.2443
水二鍾煎八分	-11.2445
毒氣攻	-11.2448
而且	-11.2448
中州	-11.2449
死肌	-11.245
小便淋瀝	-11.2453
世之	-11.2457
久而不	-11.2457
浮滑	-11.2457
陽氣不足	-11.2459
俱實	-11.2463
暴痛	-11.2463
之殊	-11.2464
方見前	-11.2467
經文	-11.2468
以前藥	-11.2471
汗出惡風	-11.2473
時疫	-11.2473
為㪚	-11.2474
有疾	-11.2475
醇	-11.2475
捉	-11.2476
為末每服一錢	-11.2476
燋	-11.2477
瘀肉	-11.2479
續隨子	-11.2479
右為末每服	-11.2479
秃	-11.2481
欲出	-11.2482
胎前	-11.2483
中風口噤	-11.2483
沉而	-11.2483
非此	-11.2484
一儒者	-11.2484
註曰	-11.2484
栁木	-11.2485
收貯	-11.2485
身中	-11.2485
昏迷	-11.2486
生葱生菜	-11.2487
生犀	-11.249
萸	-11.2491
太多	-11.2493
六脈	-11.2493
之状	-11.2495
歸尾	-11.2496
不可汗	-11.2501
沉遲	-11.2503
性命	-11.2505
無恙	-11.2506
農	-11.2513
也經云	-11.2514
米湯	-11.2514
中封	-11.2515
以水八升煮取三升	-11.2515
勝濕	-11.2517
五壯	-11.2517
病因	-11.2518
右每服	-11.2519
俱病	-11.2523
螻蛄	-11.2526
膽汁	-11.2526
温脾	-11.2527
分為二服	-11.2527
相當	-11.2529
萌	-11.2529
失音不語	-11.2529
囬	-11.2531
加至二十丸	-11.2531
微赤	-11.2532
髮際	-11.2533
全蠍	-11.2534
痰癖	-11.2535
遵	-11.2535
終始	-11.2537
水二大盞	-11.2538
參茋歸术	-11.2539
者亦有	-11.254
嘔吐不止	-11.2541
每以	-11.2543
煮取四升	-11.2546
灌下	-11.2547
止痢	-11.2554
其皮	-11.2555
白术人參	-11.2555
河水	-11.2558
受熱	-11.256
荆防	-11.2561
四面	-11.2562
素問曰	-11.2564
楊曰	-11.2564
膏貼之	-11.2565
餘皆	-11.2571
服之治	-11.2571
五曰	-11.2572
久不差	-11.2573
後因	-11.2573
辨其	-11.2573
逆上	-11.2574
䖏	-11.2576
用五味異功散	-11.2576
消積	-11.2577
温服之	-11.2578
空心酒下	-11.2578
熱多寒少	-11.2579
進之	-11.2579
入脾	-11.2579
蝱蟲	-11.2579
歸脾	-11.2579
擬	-11.258
衄	-11.2583
穴歌	-11.2583
靑	-11.2585
雄黃	-11.2585
緑豆	-11.2587
棗湯下	-11.2588
腦髓	-11.259
三條	-11.2591
空腹食之	-11.2591
㿀	-11.2592
無有不	-11.2593
青州	-11.2594
欲發	-11.2596
左尺	-11.2598
紫花	-11.2598
吐血不止	-11.2598
治耳聾	-11.2598
隻	-11.26
稍加	-11.2603
在隂	-11.2604
辟惡	-11.2605
瘢痕	-11.2606
牛角	-11.2607
叄	-11.2613
疫癘	-11.2613
外因	-11.2613
水二盞煎至一盞去滓	-11.2618
腎脉	-11.2619
遍體	-11.262
不平	-11.262
至夏	-11.262
上氣喘急	-11.2621
温酒調	-11.2621
腎者	-11.2622
防風甘草	-11.2622
兒生	-11.2623
急急如律令	-11.2623
􁟡􁌸	-11.2623
白湯調下	-11.2624
空心食之	-11.2625
宜速	-11.2625
鬼箭羽	-11.2625
博濟方	-11.2626
肪	-11.2626
仲景曰	-11.2626
婁	-11.2627
温酒服	-11.2628
大能	-11.2628
也所謂	-11.2629
蕩滌	-11.2629
千金云	-11.263
而有力	-11.263
加至三十丸	-11.2631
左脇	-11.2632
鎻	-11.2632
内盛	-11.2632
蕃	-11.2634
飲食停滯	-11.2635
杉木	-11.2636
石决明	-11.2636
診視	-11.2637
矣夫	-11.2638
去滓下	-11.2639
男婦	-11.264
一女子	-11.2644
脱落	-11.2646
老少	-11.2646
蛇咬	-11.2646
右同研	-11.2647
在腎	-11.2648
空心鹽湯下	-11.265
不可妄	-11.2651
潤肺	-11.2651
有塊	-11.2652
酒醋	-11.2654
如常法	-11.2654
陽眀	-11.2657
而疾	-11.2661
三四次	-11.2662
不可過	-11.2663
如覺	-11.2666
木氣	-11.2672
翠	-11.2673
沖	-11.2673
左闗	-11.2675
十沸	-11.2675
青竹茹	-11.2676
幷	-11.2677
少腹滿	-11.2679
哲	-11.268
香丸	-11.2683
鉤	-11.2683
不腫	-11.2684
及熱	-11.2685
四順	-11.2686
以上各	-11.2687
垂死	-11.2687
半碗	-11.2691
大指次指	-11.2692
不充	-11.2693
防風荆芥	-11.2693
隨意	-11.2695
脉弱	-11.2696
有竒	-11.2698
驚啼	-11.2699
如人	-11.27
見㸃	-11.2701
屬陽明	-11.2701
擦牙	-11.2703
先與	-11.2704
乾薑甘草	-11.2705
尺脈	-11.2707
不審	-11.2708
白沫	-11.2714
助其	-11.2714
戎鹽	-11.2714
皆愈	-11.2717
粱	-11.272
田螺	-11.272
堂方	-11.2721
結胷	-11.2721
若兼	-11.2723
面色青	-11.2725
水漬	-11.2725
次早	-11.2725
忌酒	-11.2727
含嚥	-11.2728
粟米飯	-11.2728
付	-11.2731
足厥陰	-11.2735
碎㣲炒	-11.2737
加減八味丸	-11.2739
白膠	-11.274
安心	-11.274
每於食前以	-11.274
胃中有	-11.2742
癃閉	-11.2742
春氣	-11.2743
不已則	-11.2745
舉動	-11.2748
虀	-11.2749
瓶口	-11.275
温服一升日三服	-11.2751
易愈	-11.2754
定喘	-11.2758
𧖟	-11.2758
尺餘	-11.2759
不交	-11.276
色黯	-11.276
不乳	-11.2761
食進	-11.2762
自可	-11.2764
飲冷水	-11.2768
先天	-11.2769
痔瘡	-11.2769
芍藥當歸	-11.2769
漸消	-11.277
瘴氣	-11.277
以猪脂	-11.277
自此	-11.277
該	-11.2773
右水煎	-11.2774
其言	-11.2774
痏	-11.2774
曹	-11.2774
燒為灰	-11.2775
憤	-11.2775
乳鉢内	-11.2776
一陽	-11.2776
之裏	-11.2777
水液	-11.2777
舂	-11.2777
攻刺	-11.2777
項強	-11.2778
葵根	-11.2778
大驚	-11.2782
皆從	-11.2783
莨菪子	-11.2785
暴下	-11.2785
苣	-11.2785
不能轉側	-11.2787
尤多	-11.2792
相勝	-11.2794
煎取二升	-11.2795
和蜜	-11.2795
雞犬	-11.2798
漢中	-11.2798
並出	-11.2798
必愈	-11.28
丸梧桐子大每服	-11.28
下膈	-11.2801
五年	-11.2802
風瘙	-11.2802
化生	-11.2803
脾約	-11.2803
神良	-11.2804
昔有	-11.2805
年四十	-11.2806
怒則	-11.2806
訶	-11.2807
胃反	-11.2808
息賁	-11.2808
如棗核大	-11.2813
汁浸	-11.2814
所由	-11.2816
棟	-11.2816
不可合	-11.2819
便可	-11.2821
蕪菁	-11.2822
耑	-11.2822
吐膿血	-11.2823
發熱作渇	-11.2827
齦	-11.2827
菉豆粉	-11.2827
脉反	-11.2828
良醫	-11.2829
同煎服	-11.283
水土	-11.2832
滋味	-11.2835
脾脾	-11.2835
見火	-11.2837
以水一斗煮取三升	-11.2837
功力	-11.2839
巵子	-11.2841
滋腎水	-11.2842
處處有之	-11.2842
不降	-11.2845
可去	-11.2845
痰水	-11.2851
擣汁	-11.2853
和劑	-11.2854
挾熱	-11.2857
不受邪	-11.2858
炙五	-11.2859
欲食	-11.2861
真元	-11.2861
何由	-11.2864
生下	-11.2867
小便澀	-11.2867
搓	-11.2868
補元氣	-11.2869
牙闗𦂳急	-11.2869
手厥隂	-11.2869
天突	-11.287
海金沙	-11.2873
􁟍	-11.2873
二方見	-11.2874
熱勞	-11.2874
蝦	-11.2874
於腸胃	-11.2878
矣凡	-11.2879
傷于	-11.2879
戊巳	-11.288
陳藏噐	-11.2881
但欲	-11.2883
藍葉	-11.2883
二十六	-11.2889
也先用	-11.289
主小兒	-11.289
作脹	-11.289
和傅之	-11.2895
桂苓	-11.2895
本門	-11.2895
倍用	-11.2896
敷藥	-11.2896
出盡	-11.2898
散寒	-11.2899
有刺	-11.29
以好	-11.29
取四升	-11.2903
小便少	-11.2904
可療	-11.2906
太過則	-11.291
石榴皮	-11.2911
班猫	-11.2912
臭氣	-11.2914
眼疾	-11.2914
口噤不開	-11.2916
白蘚皮	-11.2919
三四服	-11.2919
殞	-11.2921
胗	-11.2922
向下	-11.2925
補氣血	-11.2925
搜和	-11.2926
癰癤	-11.2926
大便不利	-11.2927
臨卧服	-11.2927
逐水	-11.2929
向上	-11.2931
感冐	-11.2931
安神丸	-11.2934
能解	-11.2935
素弱	-11.2939
手掌	-11.2939
褐色	-11.2941
而愈一痘	-11.2942
調下二錢	-11.2942
滲泄	-11.2946
斷絶	-11.2946
藥味	-11.2946
腎中	-11.2947
右㕮咀每服三錢	-11.2947
澤蘭葉	-11.2948
腐肉	-11.2949
舍於	-11.2951
藍汁	-11.2951
内潰	-11.2953
骨立	-11.2954
化毒	-11.2956
㣲火	-11.2957
二七日	-11.2957
緑礬	-11.2958
無不愈	-11.2959
薑炒	-11.296
膿汁	-11.2964
生花	-11.2966
元氣虚	-11.2966
或謂	-11.2966
􁦝	-11.2969
嘔惡	-11.2969
與小柴胡湯	-11.2969
是皆	-11.297
每服三五十丸	-11.2971
之不同	-11.2971
郭璞	-11.2972
秦芃	-11.2973
右為粗散	-11.2975
若能	-11.2975
緒	-11.2975
酷	-11.2977
迅	-11.2978
不能消	-11.2978
隂維	-11.2978
枯槁	-11.2979
方論第十	-11.2982
下痢赤白	-11.2983
繼以	-11.2983
錯亂	-11.2984
將軍	-11.2988
隨氣	-11.2988
白蠟	-11.2988
一兩炙	-11.299
飲食如常	-11.2993
痿黄	-11.2996
初患	-11.2996
多在	-11.2998
腸痔	-11.2998
粟米大	-11.2999
停痰	-11.3001
表散	-11.3002
新瓦上	-11.3003
曰凡	-11.3003
十三日	-11.3005
二陽	-11.3006
浸七日	-11.3007
燒酒	-11.3011
烏豆	-11.3012
湯治姙娠	-11.3013
一倍	-11.3014
槽	-11.3015
甘草湯下	-11.3016
癆	-11.3017
右爲細末	-11.3018
喫食	-11.3018
愚按前症若	-11.3018
腎俞	-11.3019
山谷及	-11.3021
芫青	-11.3021
㪷	-11.3022
失志	-11.3023
蚌	-11.3024
羚羊角散	-11.3025
白术陳皮	-11.3025
十宣散	-11.3025
不歛	-11.3027
揮	-11.3027
大黄芒硝	-11.303
為肺	-11.303
狐惑	-11.3031
未退	-11.3033
心包	-11.3035
督衇	-11.3035
腹皮	-11.3036
許大	-11.3036
戎	-11.3036
黄連丸	-11.304
赤豆	-11.3041
心下有	-11.3042
水煎三錢	-11.3043
良又方	-11.3045
軟弱	-11.3046
鈴	-11.3047
八寸	-11.3047
半表半裏	-11.3048
病久	-11.3048
四君	-11.305
覈曰	-11.3051
隂股	-11.3052
飲食不化	-11.3052
太陽中風	-11.3052
常食	-11.3053
隂蝕	-11.3053
方麻黄	-11.3054
帯	-11.3056
以温水	-11.3057
所得	-11.3058
聤耳	-11.306
胃家	-11.3062
亦令	-11.3063
在天	-11.3063
生研	-11.3064
楮實	-11.3065
人言	-11.3066
荆芥湯下	-11.3069
暑濕	-11.3072
龍膽瀉肝湯	-11.3073
去渣温服	-11.3074
松葉	-11.3076
豫	-11.3077
多矣	-11.3078
煎至一鍾	-11.3078
勉	-11.308
失笑散	-11.308
黄帝問曰	-11.3084
藏於	-11.3087
湯浸蒸餅	-11.3087
漸大	-11.3091
食生冷	-11.3092
無非	-11.3095
每夜	-11.3098
十種	-11.3099
日三度	-11.31
等湯	-11.3102
淡滲	-11.3103
頓退	-11.3104
炎上	-11.3109
為細散	-11.3114
以漿水	-11.3115
古之	-11.3116
不舒	-11.3116
攻下	-11.3117
葛氏	-11.3117
人參湯下	-11.312
㨂	-11.312
屏	-11.3122
傅之又方	-11.3123
夜明砂	-11.3124
骨上	-11.3125
怠惰	-11.3125
費	-11.3126
奥	-11.3127
菘菜	-11.3128
鞋	-11.3128
㹠	-11.3128
右㕮咀每服三錢水一盞	-11.3128
生薑七片	-11.3129
血虚也	-11.3129
瀉黄散	-11.3131
白散	-11.3132
瀉肺	-11.3133
吻	-11.3133
曲泉	-11.3133
以艾	-11.3134
夫小兒	-11.3134
有數種	-11.3138
肝心	-11.3139
金匱要畧	-11.314
亦自	-11.3144
不下飲食	-11.3144
川澤	-11.3146
脉𦂳	-11.3147
始終	-11.3148
右為末每	-11.3149
大便堅	-11.315
三盞	-11.3152
腎氣不足	-11.3152
肥者	-11.3155
作瘡	-11.3157
竹茹湯	-11.3158
丸如彈子大每服一丸	-11.3158
川當歸	-11.3158
吹入鼻中	-11.3159
右為細末毎服二錢	-11.3162
治惡瘡	-11.3162
喜冷	-11.3163
氣虚者	-11.317
保生	-11.3172
髪灰	-11.3175
凹	-11.3175
白殭蚕	-11.3177
賈	-11.3182
百壮	-11.3183
運動	-11.3183
萊菔	-11.3183
括蔞根	-11.3183
花白	-11.3184
留結	-11.3184
譫妄	-11.3185
多端	-11.3186
綿濾去滓	-11.3187
太山	-11.3187
以童子小便	-11.3188
麺糊	-11.3189
成形	-11.3194
各不同	-11.3199
下墜	-11.32
不祥	-11.3201
松節	-11.3201
半兩湯浸	-11.3202
同為細末	-11.3203
無所忌	-11.3204
之象也	-11.3204
四聖散	-11.3205
脾熱	-11.3206
氣上攻	-11.3208
右四味切	-11.3208
精要	-11.321
萆麻子	-11.321
衍義	-11.321
三卷	-11.3213
厚薄	-11.3214
膈中	-11.3214
下諸藥	-11.3217
爲度	-11.3219
方家	-11.322
桑耳	-11.3222
難療	-11.3225
其效如神	-11.3226
膿清	-11.3226
權曰	-11.3226
銅緑	-11.3227
匝	-11.3227
斫	-11.3228
去黒心	-11.3228
啟	-11.323
祝	-11.323
水盡	-11.323
治小兒疳	-11.3231
一呼	-11.3233
羌活散	-11.3234
真者	-11.3236
吐水	-11.3237
去血過多	-11.3238
鬆	-11.324
甲錯	-11.324
便差	-11.324
上循	-11.324
治痘瘡	-11.3242
末酒服	-11.3243
七遍去滑	-11.3244
掌中	-11.3245
石燕	-11.3246
發歇	-11.3251
鷄子白	-11.3252
入生薑半分棗三枚	-11.3252
痛癢	-11.3253
増損	-11.3254
長流水	-11.3257
苗葉	-11.3262
隨時	-11.3263
褐	-11.3263
味厚	-11.3263
難愈	-11.3266
樹上	-11.3267
去濕	-11.3267
癘風	-11.3267
味苦寒	-11.3268
治水氣	-11.3268
虚證	-11.3268
天明	-11.3273
皮厚	-11.3273
浸三日	-11.3274
終日	-11.3275
足寒	-11.3276
細小	-11.3277
役	-11.3278
四邊	-11.3278
麒麟竭	-11.3279
多怒	-11.3281
飲食失節	-11.3281
氣味苦	-11.3281
麥冬五味	-11.3281
各隨	-11.3282
者其人	-11.3283
乳上	-11.3283
浪	-11.3284
殺之	-11.3285
入藥用	-11.3286
或吐或	-11.3287
紫蘇莖葉	-11.3287
薄荷湯調下	-11.3289
白蕪荑	-11.3289
貯之	-11.3292
煩痛	-11.3293
也是以	-11.3294
頑麻	-11.3294
無論	-11.3295
不得已	-11.3295
内寒	-11.3298
茯	-11.3298
兩月餘	-11.33
血出不止	-11.3302
掣痛	-11.3304
分五服	-11.3304
緋	-11.3306
加厚朴	-11.3306
邪風	-11.3308
少用	-11.3309
其數	-11.3309
陷下	-11.3309
十二兩	-11.331
木火	-11.3313
膏塗	-11.3313
其胎	-11.3315
枸把	-11.3315
入油	-11.3315
消痩	-11.3315
地骨	-11.3318
流涎	-11.332
白粥	-11.3321
入諸藥	-11.3322
刃	-11.3322
本無	-11.3323
停留	-11.3325
禀賦	-11.3325
駝	-11.3325
用此法	-11.3326
同研令勻	-11.3327
先寒後熱	-11.3328
釵	-11.3328
炮裂去皮	-11.333
不能語	-11.3332
喻昌曰	-11.3333
愈虚	-11.3334
乆患	-11.3334
上古	-11.3334
鼠粘子	-11.3334
手足並冷	-11.3334
果然	-11.3334
木香丸	-11.3335
七味白术散	-11.3336
一重	-11.3337
夢寐	-11.3337
手大指	-11.3338
鐵器	-11.3339
因方	-11.334
大泄	-11.3341
風勞	-11.3345
榮養	-11.3347
茶清下	-11.3348
啼呌	-11.335
未經	-11.335
陽主	-11.335
雌雞	-11.3351
不聞	-11.3353
熱如火	-11.3355
深淺	-11.3355
佐使	-11.3356
黄連末	-11.3356
直至	-11.3358
肺胃	-11.3358
囊縮	-11.3359
小兒疳	-11.3363
白膜	-11.3365
可愛	-11.3367
丸如菉豆大毎服	-11.3368
蜜調	-11.3371
然亦	-11.3374
連日	-11.3375
蜂窠	-11.3379
裏有	-11.338
養胃湯	-11.3381
陳無擇	-11.3381
滑利	-11.3381
噎膈	-11.3382
捷	-11.3384
濕家	-11.3384
靣赤	-11.3385
八月採	-11.3385
卦	-11.3386
悔	-11.3387
寒證	-11.3388
右為細末每服三錢	-11.339
生堂	-11.3391
䖟	-11.3393
嘉祐	-11.3394
雌雄	-11.3394
鉛霜	-11.3394
鼠瘻	-11.3394
成疳	-11.3395
半寸	-11.3395
訂	-11.3397
腫疼	-11.3397
氣閉	-11.3399
千下	-11.34
擘破	-11.34
目閉	-11.3407
隂陽不和	-11.3407
尖雙仁	-11.3411
天真	-11.3414
五膈	-11.3416
不得出	-11.3416
沉𦂳	-11.3417
片時	-11.3418
煎數沸	-11.3418
亦療	-11.3418
治牙齒	-11.342
曬	-11.3424
治婦人血	-11.3427
微煩	-11.3428
一料	-11.3429
空心服之	-11.343
嘈	-11.3431
如餳	-11.3432
寒瘧	-11.3432
濕土	-11.3433
疿	-11.3435
寸白蟲	-11.3435
恍	-11.3436
斆曰	-11.3437
枉	-11.3438
半兩炮	-11.3438
涌泉	-11.3438
詞	-11.3442
絕	-11.3443
圊	-11.3443
宣露	-11.3447
藥餌	-11.3447
志意	-11.3448
神方	-11.3451
肉荳䓻	-11.3451
用六君子湯加	-11.3452
宜大承氣湯	-11.3454
凡小兒	-11.3456
傷寒六七日	-11.3459
茋	-11.3459
脚心	-11.3461
膏藥貼	-11.3462
脾肺氣虚	-11.3465
取根	-11.3467
只以	-11.347
牙闗	-11.3471
尋愈	-11.3472
陽衰	-11.3474
卒得	-11.3475
痰積	-11.3475
於瘡上	-11.3477
自外	-11.3478
緩緩	-11.348
鬱熱	-11.3482
皆須	-11.3485
生南海	-11.3485
不限多少	-11.3487
傳尸	-11.3487
方五首	-11.3488
串	-11.3489
何也曰	-11.3489
熖	-11.3489
白术白茯苓	-11.349
口燥咽乾	-11.3491
殃	-11.3491
族	-11.3492
其次	-11.3493
柴胡證	-11.3494
蔬	-11.3494
方右用	-11.3495
許學士	-11.3497
䓤白	-11.3497
湯浸去皮尖雙	-11.3498
銜	-11.3499
雷鳴	-11.3499
幽門	-11.3499
吐乳	-11.3499
不収	-11.3499
鯉	-11.35
虎杖	-11.3501
堅實	-11.3501
駛	-11.3503
保命	-11.3504
泥土	-11.3504
鹽湯送下	-11.3506
彼人	-11.3507
衝上	-11.3508
米飲服	-11.351
于内	-11.3512
三經	-11.3518
至七日	-11.3521
渴欲飲水	-11.3521
者不可治	-11.3522
癥結	-11.3523
七壮	-11.3524
行履	-11.3525
味辛温無毒主	-11.3525
恐傷	-11.3526
欬者	-11.3526
一歳	-11.3527
咳而	-11.3529
豌豆	-11.353
揩牙	-11.3534
不出者	-11.3536
白麫	-11.3536
已經	-11.354
羹	-11.3541
痱	-11.3541
􁞃􁞃	-11.3542
>	-11.3542
當歸桂心	-11.3543
涼膈散	-11.3545
以新汲水	-11.3545
而𦂳	-11.3546
胃冷	-11.3547
汪琥曰	-11.3547
漏瘡	-11.3547
痰厥	-11.3547
蕈	-11.3548
蛇皮	-11.3549
脉經	-11.3549
呵	-11.3551
少陽相火	-11.3552
調塗之	-11.3552
四肢煩疼	-11.3553
養榮湯	-11.3553
足指	-11.3553
骨熱	-11.3557
不計	-11.3559
飲水多	-11.3562
未應	-11.3564
薑棗煎服	-11.3565
粉之	-11.3565
治大風	-11.3567
食不消化	-11.3568
虎口	-11.3569
白湯送下	-11.3569
寒化	-11.3569
井華水	-11.357
心血	-11.357
加炮薑	-11.357
磁器内	-11.3571
七日後	-11.3574
半兩剉	-11.3574
所論	-11.3577
日三五度	-11.3577
熱壅	-11.3578
者用之	-11.3578
治天行	-11.3583
無復	-11.3583
去义	-11.3584
滑石末	-11.3585
茄子	-11.3586
漆瘡	-11.3588
忠	-11.3595
漿水洗	-11.3597
覩	-11.3598
綴	-11.3598
頸項强	-11.3599
量兒大小以意加減	-11.3599
堇	-11.3599
炙煿	-11.3603
翕	-11.3604
血室	-11.3605
酒水各	-11.3609
之聲	-11.361
合藥	-11.3619
同為末	-11.3619
十全大補	-11.362
變色	-11.362
麻黄桂枝	-11.3621
▁肘後方	-11.3622
病處	-11.3625
自病	-11.3625
氣厥	-11.3627
水化下	-11.3629
肝肺	-11.3633
為極細末	-11.3634
煖水	-11.3636
酸臭	-11.3638
痛楚	-11.364
漸退	-11.3641
相通	-11.3643
傅之治	-11.3643
刪繁	-11.3644
薔薇根	-11.3645
服二十丸	-11.3648
脇脹	-11.365
右為麤末	-11.3651
在前	-11.3651
方附	-11.3653
參苓白术散	-11.3655
心法	-11.3657
小便赤澀	-11.3659
胃中熱	-11.3662
汗出不止	-11.3663
易老	-11.3666
悲傷	-11.3669
久積	-11.3669
所成	-11.367
飲食如故	-11.3671
辟邪	-11.3671
去裙	-11.3671
邪毒	-11.3674
不能舉	-11.3674
用異功散	-11.3676
煎至一盞去滓温服	-11.3676
寸闗	-11.3678
藴積	-11.3679
花葉	-11.368
潰膿	-11.3681
稍愈	-11.3682
煎一盞去滓	-11.3683
逺行	-11.3684
口開	-11.3685
撮痛	-11.3685
之㫖	-11.3686
經騐	-11.3687
通明	-11.3687
胃管	-11.3689
何病	-11.369
不澤	-11.3691
治破傷風	-11.3691
青布	-11.3692
膨	-11.3692
二十三	-11.3692
皯	-11.3692
去足	-11.3694
副	-11.3698
急驚風	-11.3699
奈	-11.37
瓮	-11.3701
五百	-11.3701
虚脹	-11.3704
診之曰	-11.3704
用加味歸脾湯	-11.3705
煎七分去滓温服	-11.3705
臆	-11.3705
蚌粉	-11.3706
二十丸至三十丸	-11.3706
砂糖	-11.3706
嫌	-11.3706
治赤白痢	-11.3707
支溝	-11.3707
竇	-11.3707
丸治一切	-11.3707
體痛	-11.3709
妾	-11.3709
次灸	-11.3711
緑色	-11.3712
多由	-11.3712
七月七日	-11.3713
巫	-11.3717
也内經曰	-11.3717
結塊	-11.3717
立春	-11.3718
蒸熱	-11.3719
草部	-11.372
陽谷	-11.3722
臁瘡	-11.3723
動脈	-11.3724
腰背痛	-11.3726
沃之	-11.3727
入耳中	-11.3727
五邪	-11.3729
今按	-11.373
養胎	-11.3731
傷於風	-11.3731
不可多食	-11.3733
收歛	-11.3734
于外	-11.3736
空心下	-11.3738
水一琖	-11.374
紅棗	-11.374
内因	-11.374
臨證	-11.3741
萬全	-11.3741
足跟	-11.3742
車前草	-11.3743
如雞子大	-11.3743
加味四物湯	-11.3744
微微	-11.3745
陽氣衰	-11.3745
發熱汗出	-11.3746
者為上	-11.3747
不凋	-11.3747
天冬	-11.3748
令赤	-11.375
加牛膝	-11.375
服方寸匕日三服	-11.3751
不飲酒	-11.3751
如拳	-11.3751
但得	-11.3752
火化	-11.3753
撞	-11.3753
實火	-11.3754
聲嘶	-11.3755
然必	-11.3756
五香連翹湯	-11.3758
腹中雷鳴	-11.376
可攻	-11.3761
老小	-11.3761
操	-11.3762
十嵗	-11.3762
嫰	-11.3763
四劑而	-11.3764
陽盛則	-11.3765
右為散每服五錢以水一大盞	-11.3765
大便溏	-11.3766
磁瓶	-11.3766
豕	-11.3767
苦楝	-11.377
狗膽	-11.377
濕痒	-11.3772
帶之	-11.3772
朗	-11.3772
於經絡	-11.3774
已解	-11.3776
柚	-11.3777
滋補	-11.3779
表不解	-11.3782
馬尾	-11.3784
猪脂和	-11.3787
沉伏	-11.3788
薑棗煎	-11.3788
逺視	-11.3788
塗上	-11.3788
目系	-11.3789
拭去	-11.3791
驅風	-11.3793
令爛	-11.3793
烏雞	-11.3794
一歲	-11.3795
溫酒下	-11.3795
出王氏	-11.3799
酒糊	-11.3799
頭汗出	-11.3801
膏方	-11.3801
不避	-11.3802
婦人血	-11.3805
也設	-11.3805
灸百壯	-11.3806
用好酒	-11.3808
黄花	-11.3811
每服五七十丸	-11.3812
其莖	-11.3812
棗膏	-11.3812
咽腫	-11.3813
近道	-11.3813
瘛瘲	-11.3814
簇	-11.3814
秦椒	-11.3815
呵欠	-11.3816
引之	-11.3816
所乗	-11.3816
熱物	-11.3818
海藏云	-11.3818
身寒	-11.3818
鳳	-11.3818
欽定四庫全書御纂醫宗金鑑卷	-11.3818
域	-11.3818
陰盛	-11.3819
水七升	-11.3821
冬夏	-11.3821
枸	-11.3822
後患	-11.3822
斗門方	-11.3823
身如	-11.3824
大明曰	-11.3826
熱悶	-11.3827
蓴	-11.3829
不作膿	-11.383
焮赤	-11.383
噫氣	-11.3833
發泄	-11.3835
脈證	-11.384
十餘行	-11.384
鬱火	-11.3848
強直	-11.3849
頭靣	-11.385
針入	-11.3853
二十二	-11.3853
磁盒	-11.3854
切焙各	-11.3855
自能	-11.3858
大承氣	-11.3859
脅下	-11.386
毒火	-11.3861
食減	-11.3864
凸	-11.3865
鈐方	-11.3865
環跳	-11.3865
汗出而解	-11.3868
芭蕉	-11.3868
金氣	-11.3868
心臟	-11.3869
荆瀝	-11.3869
式	-11.3869
躍	-11.387
李彣曰	-11.3871
真武湯	-11.3873
猴	-11.3874
不失	-11.3876
乾薑附子	-11.3876
水運	-11.3878
便閉	-11.3879
㽲痛	-11.3883
和合	-11.3883
五葉	-11.3884
結硬	-11.3887
於前	-11.3889
治風濕	-11.3889
而不痛	-11.3896
入目	-11.39
養氣	-11.3901
摻藥	-11.3903
而渴者	-11.3905
煎膏	-11.3906
在心下	-11.3907
竒效	-11.3908
内損	-11.3909
甚驗	-11.391
足太陽膀胱	-11.3911
汁服之	-11.3912
豈能	-11.3913
衇浮而	-11.3913
風眼	-11.3914
傷於寒	-11.3914
堅滿	-11.3915
舌卷	-11.3915
珠子	-11.3916
生津液	-11.3917
連根	-11.3917
凑	-11.3919
懸癰	-11.3919
鍋中	-11.3923
於身	-11.3924
㿗疝	-11.3925
以水五升煮取二升	-11.3925
微喘	-11.3925
厚樸	-11.3927
右剉細	-11.3928
悽	-11.3928
青黑	-11.3929
不可忍者	-11.3929
右研細	-11.3929
霧露	-11.3931
唇焦	-11.3931
于上	-11.3932
㣲利	-11.3934
柑	-11.3938
豆䓻	-11.394
易簡	-11.394
除之	-11.394
散治傷寒	-11.3941
之家	-11.3942
上一寸	-11.3944
火煨	-11.3945
共為細末	-11.3949
霍亂吐瀉	-11.3949
服訖	-11.395
温漿水	-11.395
收功	-11.395
乎此	-11.3951
何以知之	-11.3957
二片	-11.3958
口氣	-11.3958
海中	-11.396
傷隂	-11.3961
以指	-11.3963
丞	-11.3963
杵為末	-11.3965
骨傷	-11.3967
在臍下	-11.3968
色淡	-11.3968
所乘	-11.3971
雞舌香	-11.3973
湏臾	-11.3974
紙褁	-11.3978
吐下後	-11.3979
本節後	-11.3981
箕	-11.3981
粥飲調下二錢	-11.3981
血液	-11.3983
傷筋	-11.3983
研碎	-11.3985
水服方寸匕	-11.3987
諸書	-11.3988
虚乏	-11.3988
寒戰咬牙	-11.3989
内經謂	-11.3991
閉不通	-11.3993
仲景傷寒論	-11.3993
寒熱如瘧	-11.3996
氣乏	-11.3997
雞卵	-11.3998
蜀葵	-11.3998
無常處	-11.3999
處方	-11.4
赤暈	-11.4
要訣	-11.4002
苧根	-11.4003
久服輕身	-11.4004
治風痰	-11.4004
聖藥	-11.4005
此義	-11.4011
炒過	-11.4011
補㵼	-11.4013
水酒各	-11.4015
日三次	-11.4017
羞	-11.4018
右為細末每服	-11.4027
粗末	-11.4029
剜	-11.403
瘂	-11.403
太醫	-11.403
脾臟	-11.403
以備	-11.4031
立方	-11.4033
癡	-11.4036
宰	-11.4036
圗	-11.4037
羊蹄根	-11.4038
斑蝥	-11.4039
刺薊	-11.4039
背疽	-11.404
蜜和丸如梧子	-11.4041
腸風下血	-11.4041
浮緩	-11.4042
故名曰	-11.4043
逆滿	-11.4043
厯節	-11.4043
難言	-11.4044
罐子	-11.4045
隨經	-11.4046
豹	-11.4047
葛洪	-11.4048
痰結	-11.4048
其政	-11.4048
庶可	-11.4049
宜下之	-11.4052
目眥	-11.4057
治口瘡	-11.4058
所説	-11.4059
嘔家	-11.4061
走馬	-11.4065
善驚	-11.4067
枯白礬	-11.4067
水一斗二升	-11.4067
去筋膜	-11.4069
陽厥	-11.407
惺惺散	-11.407
不可不察	-11.4072
右搗羅為散	-11.4072
東海	-11.4074
髙下	-11.4075
餌之	-11.4075
産後中風	-11.4082
滋潤	-11.4084
憒	-11.4085
壅悶	-11.4085
頦	-11.4086
蔥	-11.4089
毎服十丸	-11.409
已來	-11.4091
危急	-11.4092
鎖	-11.4093
繋	-11.4093
呃	-11.4093
大腹子	-11.4094
冇	-11.4095
半夏茯苓	-11.4095
飛揚	-11.4096
右為末煉蜜為	-11.4096
刋	-11.4096
牆	-11.4097
之兆	-11.41
疊	-11.41
公孫	-11.41
偏墜	-11.4102
翅足	-11.4103
和緩	-11.4104
每服三丸	-11.4106
女萎	-11.4106
目内眥	-11.4106
病名	-11.4108
湯洗之	-11.4109
昏睡	-11.4109
山梔仁	-11.411
必成	-11.411
脾脉	-11.4112
如漆	-11.4113
日一換	-11.4113
柴胡山梔	-11.4115
清肺飲	-11.4123
停水	-11.4125
者宜之	-11.4125
歸宗湯	-11.4126
每服五丸	-11.4126
一百丸	-11.4126
痛不止	-11.4131
難開	-11.4131
三錢匕	-11.4132
入鼻中	-11.4135
紙封	-11.4136
隂瘡	-11.4136
二十九	-11.4138
肥人	-11.414
分温再服	-11.414
為癰	-11.4142
梧桐子大	-11.4143
煎温服	-11.4143
芸薹	-11.4145
噀	-11.4146
澹	-11.4147
閲	-11.4147
髀樞	-11.4147
忌生冷油膩	-11.4148
不能久立	-11.4149
漸生	-11.4149
治骨蒸	-11.415
掖	-11.415
寔	-11.4151
失度	-11.4152
服五合	-11.4155
病情	-11.4155
此草	-11.4156
面部	-11.4156
乞	-11.4157
一寸六分	-11.4162
孩子	-11.4162
則夢	-11.4163
善忘	-11.4164
痛甚者	-11.4164
鞕滿	-11.4166
俠脊	-11.4167
恱	-11.4168
百合病	-11.4171
無刺	-11.4173
吐膿	-11.4175
香䜴	-11.4175
馬齒	-11.4179
臭穢	-11.4181
乎曰	-11.4181
廣州	-11.4184
肩上	-11.4184
春生	-11.4185
赤目	-11.4187
續命	-11.4189
桂心當歸	-11.419
最難	-11.4191
未成膿	-11.4194
色蒼	-11.4194
往来	-11.42
滋腎丸	-11.4203
箭鏃	-11.4203
蔓荆實	-11.4204
乃能	-11.4206
下利清穀	-11.4207
頃刻	-11.4208
妊婦	-11.4208
暇	-11.4209
襍	-11.4209
内熱晡熱	-11.4209
䘮	-11.4209
牛黄丸	-11.421
晬	-11.4211
處處	-11.4211
氣味鹹	-11.4212
籬	-11.4213
為末蜜丸	-11.4213
小便黄	-11.4214
桐子大	-11.4219
所生病者	-11.422
者腎之	-11.422
復溜	-11.4221
鍊蜜	-11.4226
首尾	-11.4226
根窠	-11.4227
之症也	-11.4227
次年	-11.4228
右為細散每服	-11.4229
邪盛	-11.423
煮取二升半	-11.4231
之屬是也	-11.4232
三片	-11.4232
都研令勻	-11.4234
五月採	-11.4234
痰滯	-11.4237
煮取三升去滓	-11.4237
於胸中	-11.4237
枯竭	-11.4238
閉氣	-11.4238
頭足	-11.4239
如初	-11.4239
為細末用	-11.4244
勞動	-11.4245
銀箔	-11.4249
未詳	-11.425
血痺	-11.425
音聲	-11.4251
脾弱	-11.4251
光潤	-11.4252
吐清水	-11.4252
胛	-11.4252
小茴香	-11.4256
用鍼	-11.4256
可使	-11.4258
瞿麥穗	-11.4259
生生子曰	-11.426
失明	-11.4261
彦	-11.4262
裁	-11.4262
白肉際	-11.4262
醒脾	-11.4264
眵淚	-11.4264
骨節煩疼	-11.4264
私	-11.4264
靡	-11.4265
董	-11.4266
咽喉痛	-11.4266
𨼆	-11.4267
累累	-11.4267
疥瘡	-11.4268
貢	-11.4269
藕節	-11.4269
傳染	-11.4271
感風	-11.4272
貓	-11.4275
尖炒	-11.4278
小蒜	-11.4278
右㕮咀每服四錢水一盞半	-11.4283
大迎	-11.4284
不可灸	-11.4285
伏於	-11.4285
半夏生薑	-11.4289
水一盞煎至七分	-11.4289
不察	-11.4291
毛髮	-11.4292
乾生薑	-11.4292
煮取三升分三服	-11.4293
十四日	-11.4294
飲食不入	-11.4297
實非	-11.4297
三四尺	-11.43
蓮花	-11.43
每服二三錢	-11.43
俱虛	-11.4301
紅絲	-11.4301
只宜	-11.4301
三歲	-11.4302
頭汗	-11.4302
水流	-11.4304
噦逆	-11.4304
者為勝	-11.4308
氣欲絶	-11.4309
鼓脹	-11.4309
單服	-11.4309
兩腿	-11.431
察之	-11.4313
蛔	-11.4313
打糊	-11.4315
為末每服	-11.4315
搭	-11.4315
志曰	-11.4316
無不效	-11.4316
柴胡清肝散	-11.4317
如膠	-11.4318
卜	-11.4319
在胸	-11.432
男子婦人	-11.4321
主治參互	-11.4322
之才曰	-11.4323
逍遥	-11.4326
普濟方卷一百	-11.4326
惡實	-11.4328
匿	-11.4328
二十餘	-11.4328
酒下二十丸	-11.4329
照海	-11.4329
醫反下之	-11.4329
如上法	-11.4331
漸愈又	-11.4331
劑而安	-11.4331
故經曰	-11.4332
喉間	-11.4333
通谷	-11.4333
柴胡飲	-11.4333
在胸中	-11.4334
為井	-11.4335
雜證	-11.4337
為効	-11.4338
蜜丸桐子大	-11.4338
平主	-11.4341
衣服	-11.4343
不過三服	-11.4344
文義	-11.4345
必待	-11.4346
味甘平無毒	-11.4352
大良	-11.4352
足跗	-11.4355
胸脇滿	-11.4356
忌海藻菘菜生葱	-11.4357
五穀	-11.4357
戒之	-11.4357
癜	-11.4358
陽氣虚	-11.4358
之辨	-11.4358
束骨	-11.436
令消	-11.4361
上中下	-11.4361
二三次	-11.4365
日一易	-11.4365
發腫	-11.4366
熱痰	-11.4368
異常	-11.4368
埃	-11.4372
自和	-11.4372
弦𦂳	-11.4373
𤣥精石	-11.4374
水一盞煎七分	-11.4375
痣	-11.4375
赭	-11.4375
㣲弱	-11.4375
熨斗	-11.4376
油調傅	-11.4377
哮	-11.4377
有不同	-11.4377
邱	-11.4378
至數	-11.4379
藿香正氣散	-11.438
岸	-11.4382
目録欽定四庫全書御纂醫宗金鑑卷	-11.4384
稠宻	-11.4386
服三十丸	-11.4386
刪	-11.4388
打碎	-11.4388
後天	-11.4389
黒附子	-11.4389
不但	-11.4389
葱白三寸	-11.439
右細研	-11.4393
所注	-11.4394
釡中	-11.4395
塞之	-11.4396
右為細末每用	-11.4396
漏血	-11.4396
膏貼	-11.4397
龍骨牡蠣	-11.4398
多食令人	-11.4398
有輕重	-11.4399
醫人	-11.44
入腦	-11.4402
此書	-11.4402
三十圓	-11.4405
細研各	-11.4407
年老	-11.4411
陽脈	-11.4414
下三十丸	-11.4414
三因方	-11.4417
肝藏	-11.4417
性味	-11.4419
麩炒微黄	-11.4422
舌腫	-11.4422
出衞生	-11.4424
耳下	-11.4424
諸惡瘡	-11.4426
偹	-11.4431
如人行十里	-11.4431
取吐	-11.4432
桑椹	-11.4433
脉沉細	-11.4433
好食	-11.4434
鐘	-11.4434
柘	-11.4436
居處	-11.4436
水煎温服	-11.4436
蔥白	-11.4438
大杼	-11.4438
此承上條	-11.4438
腰胯	-11.4439
手太陰	-11.4442
臊	-11.4442
柰何	-11.4444
七八十丸	-11.4446
一切氣	-11.4446
帝曰善	-11.4448
治痔	-11.4453
脾風	-11.4453
紫雪	-11.4453
當審	-11.4455
犬肉	-11.4456
明云	-11.4458
藥不效	-11.446
醋拌	-11.4461
絹帛	-11.4465
䧟中	-11.447
拭之	-11.447
齒根	-11.4471
人參麥門冬	-11.4471
多忘	-11.4471
脇下滿	-11.4472
煎至五分去滓温服	-11.4472
霍亂吐㵼	-11.4473
聖恵	-11.4473
味甘辛	-11.4476
何如曰	-11.4477
此説	-11.4478
用無灰酒	-11.4479
癢痛	-11.4481
精滑	-11.4482
神聖	-11.4482
少陽陽明	-11.4483
驗方	-11.4486
一邊	-11.4488
火運	-11.4489
一周	-11.4489
槐白皮	-11.449
浸洗	-11.449
鴿	-11.449
廣茂	-11.449
斬	-11.4491
屬土	-11.4492
調匀	-11.4493
香連丸	-11.4494
沐浴	-11.4495
是動則病	-11.4496
其状	-11.4496
治諸般	-11.4496
柴胡梔子散	-11.4496
右為極細末	-11.4497
紹	-11.4498
黃茋	-11.4499
不透	-11.45
療姙娠	-11.4501
積塊	-11.4502
土地	-11.4502
益州	-11.4502
䧟者中	-11.4504
之可也	-11.4504
半錢匕	-11.4504
苺	-11.4505
右粗搗篩每服三錢水一盞	-11.4505
蔴	-11.4507
温服不拘時	-11.4507
肩井	-11.4508
瘥又方	-11.4509
脈遲	-11.451
綻	-11.451
輕輕	-11.4511
邪傳	-11.4511
助胃	-11.4513
脾氣虚弱	-11.4514
化成	-11.4515
任下	-11.4515
極多	-11.4516
腕骨	-11.4517
不能化	-11.4518
亦難	-11.4519
治之若	-11.4519
爛瘡	-11.4519
亦良	-11.4519
甚矣	-11.452
烏蛇肉	-11.4522
憂恚	-11.4525
臁	-11.4525
故爾	-11.4526
囊盛	-11.4527
其他	-11.4528
而反下之	-11.453
銅錢	-11.453
空心温酒	-11.4532
膏治一切	-11.4534
得利	-11.4536
三七日	-11.4538
口唇	-11.4539
杏子	-11.454
終不	-11.4541
體瘦	-11.4543
蘇合香	-11.4543
右為散每服	-11.4544
换	-11.4545
搯	-11.4546
感風寒	-11.4546
下三丸	-11.4548
宇	-11.4551
非謂	-11.4551
中空	-11.4551
慢火熬成膏	-11.4552
融	-11.4552
浸滛	-11.4554
喙	-11.4554
憲	-11.4555
筋脉拘急	-11.4556
脇滿	-11.4557
炳	-11.4558
閟	-11.4558
新汲水調	-11.4559
豁	-11.4561
完骨	-11.4561
茈胡	-11.4562
先煮麻黄	-11.4565
根莖	-11.4565
如糊	-11.4565
卧時	-11.4568
剉細	-11.4568
即解	-11.4571
屬胃	-11.4572
包裹	-11.4572
厥頭痛	-11.4573
勞宫	-11.4578
辛溫	-11.4579
兼見	-11.4579
塞不通	-11.4581
煎沸	-11.4583
火上炎	-11.4583
非真	-11.4586
堅固	-11.4587
燈草	-11.4588
閉口	-11.4589
搏於	-11.4589
弦細	-11.459
與兒	-11.4591
服十丸	-11.4593
治黄疸	-11.4594
二劑而	-11.4596
夜臥	-11.4599
而渇者	-11.4599
走注疼痛	-11.4601
煎一鍾	-11.4601
纒喉風	-11.4601
葫	-11.4602
比之	-11.4603
鸛	-11.4607
騎	-11.4608
和調	-11.4608
哯	-11.461
量大小加减	-11.461
隙	-11.461
粳	-11.4611
黙	-11.4611
搔痒	-11.4612
平日	-11.4614
韻	-11.4614
墜下	-11.4614
槁	-11.4615
日夜無度	-11.4615
太淵	-11.4616
䑓	-11.4617
於左	-11.4617
醴	-11.4617
循喉嚨	-11.4618
普濟方卷三百	-11.4618
有表	-11.4618
慢脾風	-11.4618
成無已	-11.4618
濕化	-11.462
血積	-11.4624
難於	-11.4624
連皮	-11.4624
客之	-11.4624
即今	-11.4625
取利	-11.4626
榖道	-11.4626
之所致也	-11.4627
使君子	-11.4628
温米飲下	-11.4629
黒陷	-11.4629
再熬	-11.4632
桑柴	-11.4635
治瘡瘍	-11.4635
温毒	-11.4636
右為㪚	-11.4637
薛按	-11.4637
牛黃	-11.4637
結于	-11.4638
清冷	-11.4639
今醫家	-11.4639
暴熱	-11.464
足陽明經	-11.4641
瓦器	-11.4642
眩運	-11.4651
肉果	-11.4651
十個	-11.4652
脊强	-11.4656
怠	-11.4656
如狂	-11.4657
亦好	-11.4658
熱甚則	-11.4661
疳氣	-11.4663
清胃	-11.4663
苧	-11.4664
舶上茴香	-11.4664
劫	-11.4667
湯浴	-11.4668
眶	-11.4668
梧	-11.4669
胃虛	-11.4669
當歸芎藭	-11.4669
唐本注云此	-11.4672
夣	-11.4672
人屎	-11.4672
挫	-11.4673
移熱於	-11.4674
急下之	-11.4674
卒痛	-11.4676
精神恍惚	-11.4676
給	-11.4676
缾	-11.4676
啘	-11.4676
其說	-11.4678
葷	-11.4679
頭痛壯熱	-11.4679
穢氣	-11.4682
治驗	-11.4684
自汗盜汗	-11.4684
年逾	-11.4684
驚狂	-11.4685
逍遙散	-11.4687
搶心	-11.469
炒㣲黄	-11.469
水漿	-11.4691
卷栢	-11.4691
形容	-11.4697
猪魚	-11.4697
桂枝芍藥	-11.4699
則殺人	-11.4702
眼昏	-11.4703
孫思邈	-11.4704
十二種	-11.4706
帛裹	-11.4706
而嘔者	-11.4706
反覆	-11.4707
魚骨	-11.4708
頻數	-11.4709
多屬	-11.471
指下	-11.4711
相接	-11.4713
焦枯	-11.4713
葫蘆	-11.4713
黑陷	-11.4713
𤓰子	-11.4713
砂子	-11.4714
肩髃	-11.4714
傷寒五六日	-11.4718
新肉	-11.4724
耗散	-11.4725
一身盡	-11.4725
治虛勞	-11.4725
腫赤	-11.4726
得睡	-11.4726
動衇	-11.4727
靣目	-11.4729
只可	-11.4731
並同	-11.4732
通聖散	-11.4732
頭髮	-11.4734
圓如梧桐子大	-11.4736
延及	-11.4736
題	-11.4737
買	-11.4737
保昇曰	-11.4737
宂	-11.4738
醋糊	-11.4738
烏金散	-11.4738
惟有	-11.474
江淮	-11.4741
翌日	-11.4741
目不明	-11.4742
痘色	-11.4743
溪毒	-11.4744
寃	-11.4744
心驚	-11.4745
人參白术茯苓	-11.4745
先從	-11.4745
若其人	-11.4749
紙包	-11.4751
口角	-11.4752
世醫	-11.4753
丈餘	-11.4754
驚邪	-11.4757
發癎	-11.4758
赤黒	-11.4759
加丁香	-11.476
前谷	-11.4761
傅瘡	-11.4762
𦂳急	-11.4768
乳食前	-11.4769
盞内	-11.4769
同類	-11.4769
木運	-11.477
採之	-11.4771
東垣曰	-11.4775
骨蒸勞	-11.4777
一盃	-11.4779
陷胸	-11.478
元氣不足	-11.4781
手足厥	-11.4782
未免	-11.4783
攻擊	-11.4783
擣末	-11.4784
温胃	-11.4784
茶酒任下	-11.4784
止後服	-11.4787
証治	-11.4787
過時	-11.4787
痠痛	-11.4789
孟詵	-11.4791
莖中痛	-11.4792
撫	-11.4792
戴人曰	-11.4792
同煎至	-11.4792
巨陽	-11.4793
晏	-11.4793
所屬	-11.4795
畱	-11.4795
依方	-11.4797
食少體倦	-11.4797
開闔	-11.4797
此候	-11.4798
隂中之陽	-11.4798
母丁香	-11.4801
邀	-11.4802
喉咽	-11.4802
如雞子	-11.4803
甚速	-11.4804
而終	-11.4805
吉凶	-11.4805
呪曰	-11.4806
之害	-11.4807
如棗大	-11.4807
相薄	-11.481
邪結	-11.4811
用十全大補	-11.4811
大怒	-11.4813
榆皮	-11.4817
灰汁	-11.4819
津液不足	-11.482
隂莖	-11.4823
腫焮	-11.4823
冷氣攻	-11.4824
狂亂	-11.4824
陽浮	-11.4825
十餘劑	-11.4826
鍊蜜和	-11.4826
差又方	-11.4827
邪干	-11.4827
又有一種	-11.4831
又按	-11.4833
即定	-11.4835
此理	-11.4835
便難	-11.4837
瞳神	-11.4838
水一小盞煎至五分去滓	-11.4842
日三夜二	-11.4842
能食者	-11.4843
後谿	-11.4844
剉炒各	-11.4844
搗取汁	-11.4844
肢節疼痛	-11.4847
枸杞根	-11.4847
益胃	-11.4848
器盛	-11.4848
除邪	-11.4849
硫黃	-11.485
訓	-11.4851
平微	-11.4852
十五丸至二十丸	-11.4852
愆	-11.4852
駁	-11.4852
清解	-11.4852
大便下血	-11.4855
妊	-11.4855
技	-11.4855
喉嚨	-11.4857
煉蜜為丸如梧桐子大	-11.4857
京師	-11.4857
補胃	-11.4863
腐潰	-11.4863
人尿	-11.4864
水瀉	-11.4866
難忍	-11.4867
濕麵	-11.4867
隂陽之氣	-11.4869
海藏	-11.4869
石蜜	-11.4869
傳云	-11.487
傷濕	-11.487
李子	-11.487
究其	-11.4872
好顔色	-11.4875
燥屎	-11.4878
三五十丸	-11.4879
轉甚	-11.4879
平補	-11.488
十餘年	-11.4881
桃仁紅花	-11.4881
益隂	-11.4882
利大小便	-11.4882
雙仁炒	-11.4888
孤陽	-11.4889
蘇頌	-11.4889
小便利者	-11.4892
善噫	-11.4892
紅豆	-11.4894
經久	-11.4898
大醉	-11.4898
和丸如梧桐子大每服	-11.4899
􁜖	-11.4901
虛邪	-11.4901
既濟	-11.4903
小兒初生	-11.4903
爐甘石	-11.4905
陽事	-11.4906
鈎藤鈎	-11.4906
瘲	-11.4907
區	-11.4908
冬瓜	-11.4909
几	-11.491
单	-11.491
不宣	-11.4911
駭	-11.4912
蒼耳子	-11.4912
旋旋	-11.4913
尚書	-11.4913
芭	-11.4914
已前	-11.4914
柰	-11.4915
浴兒	-11.4915
量虚實	-11.4915
萃	-11.4916
老弱	-11.4916
本條	-11.4916
酸漿	-11.4917
蠲	-11.4918
大麻	-11.4919
油塗	-11.492
肺風	-11.4922
麻油調	-11.4923
能化	-11.4923
得此方	-11.4927
太平	-11.4928
麻仁丸	-11.4929
桃李雀肉等	-11.493
催	-11.4931
右六味切	-11.4931
泔浸	-11.4932
每服三錢以水一盞	-11.4934
與桂枝湯	-11.4934
自解	-11.4935
休息痢	-11.494
▁肘后方	-11.4941
宜調	-11.4942
三宿	-11.4942
腦痛	-11.4942
一團	-11.4943
薑棗水煎服	-11.4944
松子	-11.4945
膝脛	-11.4945
導滯	-11.4946
渇欲飲水	-11.4946
塗患處	-11.4949
慢火炒	-11.4949
腰腎	-11.4952
水二升煮	-11.4954
二觔	-11.4955
濃煮	-11.4955
瘙癢	-11.4955
黄白色	-11.4956
不謹	-11.4958
大補氣血	-11.4958
東引	-11.4963
道家	-11.4964
煠	-11.4967
小便出血	-11.4972
㗋	-11.4973
觜	-11.4974
奄	-11.4976
疑似	-11.4977
咬處	-11.4977
麞	-11.4977
潤下	-11.4977
腹脇脹滿	-11.4979
伊	-11.498
有隂陽	-11.4982
立秋	-11.4982
水聲	-11.4983
而言也	-11.4984
劈破	-11.4984
燥渴	-11.4984
所在有之	-11.4986
四肢沉重	-11.4989
張口	-11.4991
除根	-11.4992
大病後	-11.4992
加減法	-11.4996
年月	-11.4997
發躁	-11.4998
便覺	-11.4999
六七月	-11.5
燒紅	-11.5003
傅藥	-11.5005
製剉	-11.5006
録云	-11.5006
白翳	-11.5006
澁滯	-11.5007
服五丸	-11.501
味苦甘	-11.501
俗謂之	-11.5014
桐油	-11.5016
膀胱經	-11.5018
開發	-11.5021
出徳	-11.5021
筯頭	-11.5023
疳蟲	-11.5023
聖丸	-11.5024
調下一錢	-11.5024
和丸如	-11.5024
温服不拘時候	-11.5025
口含	-11.5027
妄用	-11.5027
五十枚	-11.5029
感於寒	-11.503
斧	-11.503
危矣	-11.503
湯㸃服	-11.503
烏喙	-11.5031
煎熬	-11.5031
芸	-11.5034
人身之	-11.5034
油煎	-11.5037
飯飲	-11.5037
集驗療	-11.504
之比	-11.504
措	-11.5042
不能運化	-11.5042
象牙	-11.5044
銀器内	-11.5044
何以言之	-11.5046
出宣	-11.5046
如聖散	-11.5053
可畏	-11.5053
下瘀血	-11.5054
瘡癬	-11.5056
海藥	-11.5057
八銖	-11.5058
軟飯	-11.5062
熟附子	-11.5069
之士	-11.507
膠飴	-11.5071
本病	-11.5074
能勝	-11.5074
四字	-11.5075
楝實	-11.5076
肝俞	-11.5076
皂莢子	-11.5081
虚汗	-11.5082
甕中	-11.5084
如錐	-11.5086
年少	-11.5088
蚱蟬	-11.509
羊乳	-11.509
治肺氣	-11.509
誤食	-11.5091
足太陽經	-11.5092
諸處	-11.5093
鼻上	-11.5094
俚	-11.5097
日二夜一	-11.5098
自下利	-11.5101
不堪用	-11.5102
一斗五升	-11.5102
似乎	-11.5102
榔	-11.5102
茵陳蒿	-11.5103
馳	-11.5104
旨	-11.5104
前隂	-11.5106
治產後	-11.5107
衇遲	-11.5111
癰毒	-11.5111
陽中之隂	-11.5111
端午日	-11.5114
各一兩半	-11.5116
病名曰	-11.5116
膏肓	-11.5116
躁熱	-11.5116
陽微	-11.5118
吐酸	-11.5118
托裏藥	-11.5122
明旦	-11.5123
諸淋	-11.5125
解酒毒	-11.5126
三陽經	-11.5127
山人	-11.5131
餘邪	-11.5133
右将	-11.5135
盡處	-11.5136
㓜㓜	-11.5138
酒下三十丸	-11.514
食治老人	-11.514
作癢	-11.5144
屬金	-11.5147
輔骨	-11.5148
致成	-11.5151
清金	-11.5153
半字	-11.5155
菉豆大	-11.5156
機要	-11.5158
急治之	-11.5158
常見	-11.516
瓜蒂	-11.5161
脈細	-11.5161
張氏	-11.5161
牛旁子	-11.5163
痟渇	-11.5164
異攻散	-11.5165
精明	-11.5165
敵	-11.5165
簡要濟衆	-11.5168
内亷	-11.5168
粮	-11.5169
勝於	-11.5173
廣利方	-11.5174
七疝	-11.5175
米糊	-11.5177
辛香	-11.5177
此所謂	-11.5179
新産	-11.5182
藻	-11.5183
楓香	-11.5183
六一散	-11.5184
腰重	-11.5184
膽經	-11.5186
虚症	-11.5186
熱病汗不出	-11.5187
各七分	-11.5187
而得者	-11.5188
二十年	-11.5188
滚湯	-11.5189
同熬	-11.5196
痺痛	-11.5196
三百六十五	-11.5199
因乳母	-11.52
癎病	-11.52
卒心痛	-11.5201
調搽	-11.5204
米粥	-11.5207
吐法	-11.5208
脈虚	-11.5212
白通湯	-11.5213
白癜風	-11.5213
可知也	-11.5213
頭垢	-11.5214
每服五錢水二盞	-11.5216
鐵精	-11.5216
石蓮肉	-11.5216
之要藥	-11.5217
蕚	-11.5217
不知人事	-11.5217
飡	-11.522
神丹	-11.522
穂	-11.522
形質	-11.5222
吹鼻中	-11.5222
碍	-11.5223
肝經風熱	-11.5226
內	-11.5226
忽有	-11.5227
脾疳	-11.5227
殺鬼	-11.5228
赫	-11.5228
嗔	-11.523
甘艸	-11.523
膏治小兒	-11.5231
䘐	-11.5231
治婦人血氣	-11.5232
前法	-11.5234
關格	-11.5235
同煑	-11.5235
生翳膜	-11.5235
為末酒服	-11.5236
血餘	-11.5237
其害	-11.5238
患痢	-11.5241
逺年	-11.5243
産后	-11.5244
去白穰焙	-11.5244
琥珀散	-11.5245
用五味異功散加	-11.5246
浴之	-11.5248
益母	-11.5248
數沸	-11.5248
溢飲	-11.5249
脉濇	-11.525
効方	-11.5252
本乎	-11.5253
敗龜	-11.5253
能制	-11.5254
病在上	-11.5259
小便黄赤	-11.5259
曽青	-11.5262
而為病	-11.5263
膝痛	-11.5266
筋縮	-11.5267
肺脉	-11.5271
氣淋	-11.5271
天靈盖	-11.5279
右為散每服一錢	-11.528
紥	-11.528
惱	-11.5281
蒺䔧子	-11.5284
用八珍湯加	-11.5284
石龍芮	-11.5285
得力	-11.5285
周痺	-11.5285
関	-11.5286
辣桂	-11.5287
胡洽	-11.5287
兒枕	-11.5288
兑	-11.5288
烹	-11.5288
渇引飲	-11.5288
焙亁	-11.5289
乾濕	-11.529
壯實	-11.529
如梧子	-11.5291
東北	-11.5291
蠻	-11.5291
禁灸	-11.5292
胸膈痞滿	-11.5292
吸吸	-11.5293
嘔逆惡心	-11.5295
加味小柴胡湯	-11.5295
塗面	-11.5295
四七湯	-11.5295
有大小	-11.5297
巨勝	-11.5301
傷胎	-11.5302
艮	-11.5303
子午	-11.5304
豉汁	-11.5304
仍用前藥	-11.5306
不忘	-11.5307
十二枚	-11.5309
甘美	-11.5309
布裹	-11.5309
假熱	-11.531
不拘時候温服	-11.5311
同煎至七分	-11.5311
稍増	-11.5311
絡石	-11.5311
艾灸	-11.5312
致使	-11.5312
刺入三分	-11.5313
疳熱	-11.5314
隂汗	-11.5315
以温酒下三十丸	-11.5315
灌漿	-11.5318
銀石器	-11.532
乆不愈	-11.5321
苦葶藶	-11.5324
肘後療	-11.5324
嘔吐不食	-11.5326
黄苓	-11.5327
研成膏	-11.5328
皆以為	-11.5329
炒微黄	-11.533
加芒硝	-11.5331
塗藥	-11.5332
便瘥	-11.5333
之虚實	-11.5335
年六十	-11.5335
凡遇	-11.5335
如絲	-11.5338
腦風	-11.5338
暑毒	-11.5339
駮	-11.5342
掉	-11.5342
氣血俱	-11.5344
皁角	-11.5345
脛骨	-11.5346
寸脉	-11.5347
頬	-11.5347
酒浸去皮	-11.5348
懸蹄	-11.5348
而愈後因	-11.5349
更兼	-11.535
蠅	-11.5351
窘	-11.5351
兠	-11.5351
兩筋間	-11.5352
此肝火	-11.5354
面脂	-11.5354
勸	-11.5355
歸源	-11.5356
傳屍	-11.5357
鱓	-11.5357
滋陰	-11.5357
切作片子	-11.5358
飾	-11.5361
天井	-11.5362
神庭	-11.5364
大便秘澁	-11.5367
同出第	-11.537
漸加至三十丸	-11.537
隂弱	-11.5373
牛糞	-11.5374
呂曰	-11.5375
去芍藥加	-11.5376
白楊	-11.5377
不及則	-11.5378
每服五錢水煎	-11.5379
每服二三十丸	-11.5383
服一合	-11.5384
小異	-11.5384
表症	-11.5387
清汁	-11.5388
霍亂吐痢	-11.5388
之戒	-11.539
古法	-11.5392
不見物	-11.5392
妄語	-11.5395
瘡愈	-11.5396
七氣湯	-11.5397
本草云主	-11.5398
泄注	-11.5399
遁	-11.54
諸癎	-11.5402
俞穴	-11.5403
下疳	-11.5404
八十一	-11.5405
重重	-11.5405
以無灰酒	-11.5407
年三十	-11.5407
新和	-11.5409
榴	-11.5409
更甚	-11.5411
墟	-11.5411
脹急	-11.5411
􁏣	-11.5412
逮	-11.5412
脈㣲	-11.5412
莪	-11.5413
如人行五里	-11.5413
文火	-11.5413
方六首	-11.5413
新汲	-11.5414
疙瘩	-11.5415
四十九粒	-11.5416
白朮	-11.5416
湯火傷	-11.5417
皶	-11.5418
剝	-11.5418
茯苓澤瀉	-11.5419
白虎加人參湯	-11.542
古今録驗療	-11.542
驚駭	-11.5423
遊走	-11.5424
杵碎	-11.5427
江湖	-11.5427
俱可	-11.5428
淋汁	-11.5428
頻併	-11.5431
年不愈	-11.5432
吐衂	-11.5432
葱豉	-11.5436
小便閉	-11.5437
應是	-11.5438
發熱無汗	-11.544
反致	-11.5442
防風白芷	-11.5443
識者	-11.5443
酸痛	-11.5444
温酒下二十丸	-11.5444
之所在	-11.5445
極爛	-11.5446
譬如	-11.5446
取仁	-11.5447
瓷瓶	-11.5449
裹煨	-11.5449
藥對	-11.545
經驗	-11.5451
觧之	-11.5452
日三四	-11.5452
木香丁香	-11.5457
苦竹葉	-11.5458
欲絶者	-11.5459
荆芥湯	-11.5459
羊血	-11.546
去白各	-11.5461
年近	-11.5461
脈洪數	-11.5461
灸瘡	-11.5461
楝	-11.5464
外踝上	-11.5466
煎八分去滓	-11.5467
蜜丸如梧子	-11.5467
窻	-11.5467
乾為度	-11.5468
藁	-11.547
下之若	-11.5472
醸	-11.5473
三粒	-11.5474
瀉血	-11.5475
强志	-11.5477
堆	-11.5477
須是	-11.5477
拍碎	-11.5477
麪糊	-11.5479
撃	-11.5481
不徹	-11.5483
龎	-11.5484
米飲調	-11.5484
棺	-11.5484
小柴胡湯主之	-11.5484
高良薑	-11.5485
妬乳	-11.5485
睪	-11.5486
刮取	-11.5486
石英	-11.5489
温服無時	-11.5493
王叔和	-11.5494
身體壯熱	-11.5496
牛酥	-11.5498
日晩	-11.5501
終身不	-11.5502
田中	-11.5503
富貴	-11.5503
五六月	-11.5506
如此則	-11.5507
數欠	-11.5507
入生薑三片	-11.5509
氣亂	-11.5511
陶氏	-11.5516
怒傷肝	-11.5518
上脘	-11.5518
薑附湯	-11.552
不能攝血	-11.552
但知	-11.5525
堅筋骨	-11.5526
精微	-11.5529
臣禹錫等謹按藥性論云	-11.5529
予嘗	-11.5529
調中湯	-11.553
川谷及	-11.5532
爲陽	-11.5533
北細辛	-11.5535
薫陸香	-11.5535
十里	-11.5536
大便利	-11.5537
甚効	-11.5538
􁋄	-11.5538
羊肉餳	-11.554
肝臟	-11.5541
䰟	-11.5541
下䧟	-11.5541
散方治	-11.5542
瞖膜	-11.5542
繇	-11.5543
顙	-11.5543
之道路	-11.5543
胎衣不下	-11.5544
經候不調	-11.5544
吴茱萸	-11.5546
庻	-11.5546
水一中盞入生薑半分	-11.5547
西域	-11.5549
不可發汗發汗則	-11.555
陳皮青皮	-11.5552
手足不遂	-11.5553
右搗細羅為散	-11.5554
熾盛	-11.5555
滑胎	-11.5556
甆瓶	-11.5556
十遍	-11.5557
同研匀	-11.5557
治腎虚	-11.5557
末半錢	-11.5557
遟	-11.556
去滓溫服	-11.5561
肘臂	-11.5561
右為末毎服一錢	-11.5562
和丸如菉豆大每服	-11.5562
薊	-11.5569
篇中	-11.557
瘻瘡	-11.5571
牛屎	-11.5572
炭火燒	-11.5572
疎風	-11.5573
薄荷汁	-11.5573
瘦人	-11.5575
婦女	-11.5575
取少許	-11.5576
北五味子	-11.558
過傷	-11.558
掌中熱	-11.5581
安静	-11.5581
骨鯁	-11.5582
以水三升煮	-11.5583
煉蜜丸	-11.5585
煑取三升去滓	-11.5587
攻伐	-11.5587
追毒	-11.5588
調攝	-11.5591
不免	-11.5591
下亷	-11.5594
更妙	-11.5595
腹肚	-11.5598
發熱煩躁	-11.56
一般	-11.5602
性冷	-11.5603
肝肝	-11.5604
受氣於	-11.5604
煻	-11.5605
牛角䚡	-11.5607
瞻	-11.5608
急救	-11.5608
劄	-11.5608
食後臨臥	-11.5611
悲哀	-11.5611
脉動	-11.5612
嘘	-11.5613
慿	-11.5613
氣噎	-11.5613
寒氣客於	-11.5615
菝葜	-11.5615
長三寸	-11.5616
四君子	-11.5618
如舊	-11.5618
廬	-11.562
瀉白散	-11.5621
搗傅	-11.5622
為末毎	-11.5625
順逆	-11.5625
蔓延	-11.5625
筋膜	-11.5625
其支者從	-11.5626
㸃藥	-11.5628
傾出	-11.5628
陽明證	-11.5629
如彈子大	-11.563
有二種	-11.563
留而不去	-11.563
髮灰	-11.5631
胡桃肉	-11.5631
則死矣	-11.5635
而愈一人	-11.5641
有此疾	-11.5644
左寸	-11.5644
遺失	-11.5644
受風邪	-11.5645
表解	-11.5645
霍亂吐利	-11.5646
搐鼻	-11.5649
爛搗	-11.5651
焦黒	-11.5651
疼痛不止	-11.5659
朱氏	-11.5662
脈浮大	-11.5666
别走	-11.5667
因勞役	-11.5669
忽忽	-11.567
川山甲	-11.567
蹇	-11.5672
明耳目	-11.5675
癭瘤	-11.5676
脾胃虚冷	-11.5677
聳	-11.5677
嗚呼	-11.5679
膁瘡	-11.568
小青龍	-11.5681
令滿	-11.5681
聖愈湯	-11.5682
蓐勞	-11.5683
大便祕	-11.5683
連年	-11.5684
白穣焙	-11.5684
敗醬	-11.5684
筍	-11.5685
不知此	-11.5687
陽谿	-11.5687
臨卧時	-11.5687
輕手	-11.5687
去苗各	-11.5687
歡	-11.5687
炎暑	-11.5688
風痙	-11.5688
明堂經云	-11.5689
攻衝	-11.569
冷即易	-11.5692
瘡痂	-11.5693
出第二十	-11.5695
四肢倦怠	-11.5696
桔梗枳殻	-11.5696
保元	-11.5696
惟宜	-11.5697
産寳	-11.57
太過不及	-11.57
産前	-11.5701
大每服一丸	-11.5701
時辰	-11.5703
流溢	-11.5706
爲使	-11.5706
出膿血	-11.5709
食飲不下	-11.571
重劑	-11.5712
加葛根	-11.5713
不知何	-11.5713
起死	-11.5715
然亦有	-11.5716
綿濾	-11.5716
之術	-11.572
十壯	-11.5723
入後藥	-11.5725
也假令	-11.5726
湏用	-11.5727
小膓	-11.5727
微寒無毒主	-11.5729
百草	-11.5733
固精	-11.5733
葵菜	-11.5735
莧菜	-11.5736
他證	-11.5736
羊蹄	-11.5737
銀花	-11.5737
口苦舌乾	-11.5738
痧	-11.574
雹	-11.5741
右剉碎	-11.5741
不計多少	-11.5742
庸醫	-11.5742
雞屎	-11.5742
庶幾	-11.5744
乗脾	-11.5745
絲𤓰	-11.5746
治乳石發動	-11.5746
傷動	-11.5747
飲乳	-11.5748
雄鷄	-11.5754
衍文	-11.5758
乗於	-11.5758
右㕮咀水煎	-11.5761
廣南	-11.5763
風涎	-11.5764
尚在	-11.5765
無事	-11.5768
二粒	-11.5771
上蒸	-11.5772
雞子清	-11.5776
饑飽	-11.5779
思食	-11.578
内外皆	-11.578
結喉	-11.5781
蜀中	-11.5783
語聲	-11.5785
中部	-11.5788
六物	-11.5788
暴死	-11.5789
秋氣	-11.579
耳門	-11.5791
不辨	-11.5793
箭頭	-11.5796
桂心乾薑	-11.5797
立齋	-11.5797
味苦平無毒主	-11.5798
太盛	-11.5798
引經	-11.5799
永無	-11.58
四十枚	-11.58
不可治也	-11.5801
三指撮	-11.5805
婦人血風	-11.5805
肥兒丸	-11.5805
肖	-11.5808
祭	-11.5809
規	-11.5809
坐卧不安	-11.581
隅	-11.581
齒齲	-11.581
心系	-11.5811
鼻流清涕	-11.5811
錢乙	-11.5811
彌佳	-11.5811
調成膏	-11.5812
不宜多	-11.5812
沿	-11.5813
癥塊	-11.5813
紛	-11.5813
生麻油	-11.5818
丸如梧桐子大毎服三十丸	-11.5819
頭昏	-11.5819
右為散每服三錢水一中盞	-11.582
一中盞	-11.5821
丸如雞頭大	-11.5822
論夫	-11.5823
丸如桐子大每服三十丸	-11.5824
糯米飯	-11.5824
腦户	-11.5826
烏梅丸	-11.5826
如豆汁	-11.5826
胃氣虚弱	-11.5828
痢後	-11.5829
口禁	-11.5829
赤芍藥當歸	-11.5829
癎疾	-11.5835
腸滑	-11.5836
水二升煮取一升	-11.5837
搖頭	-11.5838
立法	-11.5838
欲知	-11.5839
杵末	-11.5843
銀鍋	-11.5844
有人患	-11.5845
味甘温無毒主	-11.5848
不睡	-11.5848
未全	-11.5849
遲緩	-11.585
味辛苦	-11.5854
蘭香	-11.5856
豬膽汁	-11.5856
黄水出	-11.5859
杉	-11.5859
熏洗	-11.5862
肯	-11.5863
一二丸	-11.5864
刀斧	-11.5865
掌後	-11.5868
右十三味	-11.5869
糕	-11.5874
飲食减少	-11.5874
胞衣不下	-11.5875
黄痩	-11.5875
面浮腫	-11.5876
洒洒	-11.5877
百骸	-11.5878
初時	-11.588
衰少	-11.588
其狀如	-11.5881
如瘧狀	-11.5884
指之端	-11.5884
絹濾	-11.5885
鹽花	-11.5887
桃膠	-11.5888
參附湯	-11.589
滲濕	-11.589
修製	-11.5892
各一两	-11.5893
下痢膿血	-11.5893
右剉散每服四錢	-11.5893
封固	-11.5894
死證	-11.5895
人參養榮湯	-11.5896
頭痛身熱	-11.5905
每於食前	-11.5906
胞衣	-11.5906
揺頭	-11.5911
㵼肝	-11.5913
趺	-11.5913
蛭	-11.5915
鷄頭	-11.5915
内廉	-11.5915
土茯苓	-11.5915
宜汗	-11.5918
生油	-11.5918
益精氣	-11.5919
共為末	-11.5922
汗下後	-11.5922
肚脹	-11.5924
知母貝母	-11.5925
蛇蜕	-11.5925
治法當	-11.5926
䓤	-11.5927
涎唾	-11.5927
牙關	-11.5928
芎歸湯	-11.593
舌根	-11.5931
珀	-11.5931
礞石	-11.5933
堕	-11.5937
萞	-11.5937
溲便	-11.5937
金鈴子	-11.5939
受病也	-11.5941
酸石榴皮	-11.5943
外泄	-11.5943
胞衣不出	-11.5944
虎頭骨	-11.5944
五臓六腑	-11.5944
廻	-11.5944
赴	-11.5944
忌羊肉餳	-11.5945
此證生於	-11.5946
旋取	-11.5947
睡卧不安	-11.5948
純隂	-11.5948
梟	-11.5949
十二經脉	-11.5949
新校正云按甲乙經	-11.5949
程林曰	-11.595
滲入	-11.5952
有潮熱	-11.5952
綿濾過	-11.5954
蔗	-11.5955
足下熱	-11.5956
茶調下	-11.5956
如小豆大	-11.5956
雞鳴	-11.5956
䑕瘻	-11.5956
烏梅一箇	-11.5958
多啼	-11.5958
任衇	-11.596
不寜	-11.596
虚滑	-11.5963
西方子云主	-11.5964
須知	-11.5965
熱熱則	-11.5965
右等分為細末	-11.5966
冷水調	-11.5967
有形之	-11.597
以下至	-11.597
去皮核	-11.5971
猪苓湯	-11.5971
五噎	-11.5971
旬餘	-11.5972
昏沉	-11.5972
諸虚	-11.5973
每服十五丸	-11.5975
瘀熱	-11.5976
增損	-11.5977
無辜	-11.5978
躑躅花	-11.5978
恐怖	-11.598
火熾	-11.5984
用童子小便	-11.5986
者為實	-11.5988
昏塞	-11.5988
取自然汁	-11.5989
上亷	-11.5993
九粒	-11.5995
養心	-11.5995
陰證	-11.5995
不逺	-11.5997
􁷙	-11.6001
内庭	-11.6004
三十五	-11.6006
右為細末酒糊	-11.6007
骨疽	-11.6008
壳	-11.6009
宗氣	-11.6009
掘地	-11.601
好肉	-11.601
虚憊	-11.6011
番	-11.6012
方見本	-11.6012
暄	-11.6012
糯米飲	-11.6013
鄙	-11.6014
口苦咽乾	-11.6015
蠡	-11.6015
蔣	-11.6016
崇	-11.6016
攢	-11.6016
繞臍	-11.6016
留連	-11.6018
心神煩悶	-11.6021
半日許	-11.6025
中氣不足	-11.6026
微惡寒	-11.6028
安五藏	-11.6031
方可用	-11.6031
相引痛	-11.6032
任性	-11.6033
凡使勿用	-11.6034
面黑	-11.6034
𤓰蔞根	-11.6034
椎下兩傍	-11.6036
諸症漸愈	-11.6036
觀音	-11.6038
忽患	-11.6038
麵糊為丸如梧桐子大	-11.6038
脾胃虛弱	-11.6039
用寒涼	-11.6039
一層	-11.6041
温覆	-11.6041
小者如	-11.6043
疳積	-11.6043
脾濕	-11.6044
待其	-11.6046
如梧子大	-11.605
前方加	-11.6051
五榖	-11.6052
諸疳	-11.6055
右腎	-11.6056
脈洪	-11.6058
雲門	-11.6059
震亨曰	-11.6059
肝主筋	-11.6061
和胃氣	-11.6062
薑四片	-11.6066
聞人	-11.6067
癱	-11.6067
暑病	-11.607
强弱	-11.607
飲一升	-11.607
交通	-11.607
抱朴子	-11.607
藥性論	-11.6071
鼻衂不止	-11.6075
薛氏醫案卷	-11.6076
貽	-11.6076
瘜肉	-11.6077
茨	-11.6078
綿裹内	-11.6078
絞汁服	-11.6078
所傳	-11.6079
頭目眩暈	-11.608
顚	-11.6081
戚	-11.6081
叫	-11.6082
忿	-11.6084
詔	-11.6084
貝齒	-11.6084
尤怡曰	-11.6085
龍膽㵼肝湯	-11.6085
蒔	-11.6086
水停心下	-11.6087
主治叅互	-11.6087
岐伯對曰	-11.609
服之良	-11.609
珊瑚	-11.6091
治膈氣	-11.6093
三十壯	-11.6094
刺期門	-11.6094
火炎	-11.6096
經渠	-11.6102
者不可下	-11.6103
不起發	-11.6103
導赤	-11.6105
如黍米大	-11.6106
肩息	-11.6106
立通	-11.6107
虚鳴	-11.6108
辛凉	-11.611
糊為丸如桐子大	-11.6111
手足陽明	-11.6111
右為末煉蜜丸如梧桐子大	-11.6112
手少隂心	-11.6114
三陽之	-11.6114
憎	-11.6114
所受	-11.6114
渴引飲	-11.6114
右研勻	-11.6115
煎至七分去滓溫服	-11.6118
好古曰	-11.6119
蜘蛛咬	-11.612
丑未	-11.6123
微甚	-11.6123
丸方治	-11.6123
䐜	-11.6124
九月採	-11.6126
虚怯	-11.6126
小承氣	-11.613
精髓	-11.6134
生薑一片	-11.6135
東行	-11.6137
肺臟	-11.6138
水二升煎	-11.614
金星	-11.6141
四两	-11.6141
最忌	-11.6142
㝠	-11.6144
僵	-11.6144
丘墟	-11.6145
銀石器内	-11.6145
十丸至十五丸	-11.6145
毉	-11.6146
隂陽易	-11.6146
側栢葉	-11.6147
剔	-11.6148
焠	-11.6148
荆芥薄荷	-11.6149
去皺皮	-11.6149
方七首	-11.6149
協	-11.615
臙脂	-11.615
凌霄花	-11.615
涕唾稠粘	-11.615
俛	-11.615
乘虛	-11.6151
玊	-11.6153
肩背痛	-11.6154
棠	-11.6155
横文	-11.6155
朶	-11.6155
龍胆	-11.6156
脾胃之氣	-11.6156
癉瘧	-11.6156
入臟	-11.6156
視之曰	-11.6158
救苦	-11.6161
瓶子	-11.6162
稀糊	-11.6163
七莖	-11.6163
去桂加	-11.6165
商陸根	-11.6167
玉枕	-11.6168
脉沉而	-11.6168
北柴胡	-11.6169
觸犯	-11.6169
天地之氣	-11.6171
膚腠	-11.6171
者為佳	-11.6171
玉泉	-11.6174
蛇頭	-11.6174
本經云	-11.6177
上件	-11.6178
天麻防風	-11.6184
烏犀	-11.6185
油調搽	-11.6185
㵼火	-11.6187
而愈一男子	-11.6188
温酒下三十丸	-11.6191
小兒頭瘡	-11.6192
龍腦麝香	-11.6195
取一升去滓	-11.6196
燒過	-11.6196
羊角	-11.6206
不湏	-11.6206
諸物	-11.6207
川楝	-11.6209
半夏麴	-11.621
攣縮	-11.621
之甚也	-11.6211
却將	-11.6212
水泉	-11.6214
川芎芍藥	-11.6215
蠏	-11.6215
商陽	-11.6215
邪客	-11.6216
華陀	-11.6217
羊髓	-11.6217
烏賊骨	-11.6217
脈弱	-11.6217
漠	-11.6217
攷	-11.6218
諸藥俱見前宜	-11.6219
彩	-11.6219
迭	-11.6219
杜蘅	-11.6219
薟	-11.6219
松蘿	-11.622
飲食漸進	-11.622
􁱫	-11.6223
右八味切	-11.6224
壤	-11.6225
姓名	-11.6228
六十丸	-11.6229
虚滿	-11.6229
大麥蘖	-11.623
波斯	-11.623
隠隠	-11.623
用六君子	-11.6231
天竺	-11.6233
衇弦	-11.6234
數枚	-11.6235
玉屑	-11.6235
立齋曰	-11.6237
八九月	-11.6237
大承氣湯下之	-11.6238
邪入於	-11.6242
明論	-11.6243
一百粒	-11.6246
氣塞	-11.6247
清神	-11.625
經隧	-11.6251
研取汁	-11.6251
蟲咬	-11.6251
謌	-11.6252
青筋	-11.6253
舌胎	-11.6256
面紅	-11.6256
薑二片	-11.6257
清化	-11.6258
肥白	-11.6258
獨行	-11.6261
大防風湯	-11.6263
右五味切	-11.6264
房中	-11.6265
妬	-11.6268
蘹香	-11.6269
黃帝	-11.6272
醫書	-11.6272
為輔	-11.6274
不歇	-11.6275
足痿	-11.6279
化痰丸	-11.628
不得睡	-11.6281
痛即止	-11.6281
醖	-11.6282
愚按前方	-11.6282
胎死腹中	-11.6285
僵蠶	-11.6285
椹	-11.6286
殿	-11.6287
夫傷寒	-11.6287
悅	-11.6288
敷瘡上	-11.6288
身形	-11.6288
無効	-11.6289
心腹絞痛	-11.629
諸症悉退	-11.6293
菴䕡子	-11.6294
亁地黄	-11.6294
薏	-11.6295
汗出愈	-11.6295
事親	-11.6295
鼠屎	-11.6297
養脾	-11.6297
露一宿	-11.6299
獨聖散	-11.63
日二三服	-11.6304
大塊	-11.6308
于胃	-11.631
新汲水下	-11.631
飯上蒸	-11.6311
未罷	-11.6311
發潮熱	-11.6312
壹兩	-11.6315
節度	-11.6315
補五臟	-11.6316
胎不安	-11.6316
為末毎服二錢	-11.6316
軟帛	-11.6317
三月三日	-11.6321
右為散每服四錢水一中盞	-11.6322
月令	-11.6323
苗似	-11.6324
四斗	-11.6324
在臟	-11.6324
雞子大	-11.6326
經藥也	-11.6326
檗	-11.6326
打破	-11.6327
秫	-11.6328
肝藏血	-11.6328
厥厥	-11.633
渇不止	-11.633
閉塞不通	-11.633
而知之	-11.6335
久坐	-11.6336
利九竅	-11.634
考之	-11.6349
煩寃	-11.6349
㾗	-11.635
藏器	-11.6351
清明	-11.6353
無名異	-11.6353
日一發	-11.6353
蝉	-11.6354
噴嚏	-11.6355
昏亂	-11.6357
稠黏	-11.6357
湊	-11.6357
冷淚	-11.6357
苦温	-11.6357
九升	-11.6357
逃	-11.6358
滄	-11.6358
鎭	-11.6359
韭汁	-11.6359
氣不升降	-11.636
裏虛	-11.636
雚	-11.6362
暴怒	-11.6363
急慢驚風	-11.6363
煎至六分去滓不計時候稍熱服	-11.6364
百日内	-11.6365
嗜臥	-11.6365
鼻淵	-11.6365
失聲	-11.6365
䪿	-11.6366
四斤	-11.6366
錫等謹按	-11.6366
淫於内	-11.637
舶上	-11.637
補陰	-11.6371
癭氣	-11.6374
掉眩	-11.6375
不可俛仰	-11.6375
切勿	-11.6376
飢飽	-11.6376
十八日	-11.6378
湯調下二錢	-11.6381
覈曰出	-11.6385
督脈	-11.6386
醉飽	-11.6387
終於	-11.6388
不可下也	-11.639
不能攝	-11.639
天府	-11.6393
不特	-11.6393
骨疼	-11.64
每服三錢匕水一盞	-11.64
離經	-11.6401
四箇	-11.6401
瘡口上	-11.6402
獖猪	-11.6404
去鬚各	-11.6404
凍瘡	-11.6405
右為散每服四錢以水一中盞	-11.6405
之常也	-11.6407
胞胎	-11.6412
用四君子湯	-11.6412
五行之	-11.6413
喉痛	-11.6416
四逆湯主之	-11.6417
痰唾	-11.6419
可發汗	-11.6421
方見大方	-11.6421
右十四味	-11.6424
譩譆	-11.6424
丸如梧桐子	-11.6425
壓去油	-11.6427
輟	-11.6427
去目及閉口	-11.6427
道士	-11.6429
乆不瘥	-11.6429
猪肉冷水	-11.6429
隐	-11.6431
肌肉消瘦	-11.6431
腎與膀胱	-11.6431
峯	-11.6432
利其小便	-11.6432
治其標	-11.6432
佩	-11.6432
邵	-11.6433
財	-11.6433
替	-11.6433
本方加	-11.6433
任脈	-11.6434
乳房	-11.6434
騏驎竭	-11.6434
出鮑	-11.6435
儒門事親	-11.6436
煎三兩沸	-11.6437
循環	-11.6439
解谿	-11.6439
膓胃	-11.6439
孔穴	-11.6439
冥	-11.6439
煮汁服	-11.6439
乳兒	-11.644
四肢少力	-11.6443
後學	-11.6443
鄭聲	-11.6444
一切惡瘡	-11.6445
晝日	-11.6445
皮骨炙	-11.6447
過劑	-11.6449
取濃汁	-11.6456
蚘厥	-11.6456
中氣虚	-11.6456
磁器	-11.6459
苓术	-11.6461
前件	-11.6462
咬人	-11.6463
祥	-11.6463
和解之	-11.6464
木舌	-11.6464
熱麵	-11.6467
崩中漏下	-11.6467
乳汁調	-11.6469
暴赤	-11.647
氣血虚弱	-11.6472
下廉	-11.6474
竹皮	-11.6478
五十餘劑	-11.6479
荳䓻	-11.6479
方寸七	-11.6479
太乙膏	-11.6479
刮去皮	-11.6482
鹿茸丸	-11.6483
用加減八味丸	-11.6483
乳鉢	-11.6483
味薄	-11.6486
三錢以水一中盞	-11.6486
活法	-11.6487
扎	-11.649
勞嗽	-11.6491
米泔水	-11.6492
而喘者	-11.6492
缸	-11.6493
而甦	-11.6493
日三四度	-11.6495
喝	-11.6495
奚	-11.6496
調順	-11.6496
水八升煮取二升	-11.6497
欺	-11.6499
鑠	-11.6499
黒神散	-11.6501
胯	-11.6501
候冷取出	-11.6502
丸如麻子大每服	-11.6502
􁳚	-11.6502
境	-11.6502
薢	-11.6503
元素曰	-11.6503
張璐曰	-11.6505
痿軟	-11.6505
不可勝	-11.6505
漐漐	-11.6507
油麻	-11.6507
芬	-11.6509
為使惡	-11.6509
被傷	-11.6511
煉蜜丸桐子大	-11.6511
以甘緩之	-11.6512
小便滑數	-11.6514
併入	-11.6514
小腹急痛	-11.6514
樝	-11.6517
脾藏	-11.6517
生肝血	-11.6518
石葦	-11.6518
柿蒂	-11.6519
眼胞	-11.6519
胠	-11.652
緋帛	-11.6521
鬼擊	-11.6521
五十九	-11.6523
桂枝麻黄	-11.6524
訶子皮	-11.6525
水一盞半生薑三片	-11.6527
血氣虚	-11.653
臍帶	-11.6532
氣虛弱	-11.6532
外搗羅為末	-11.6532
炒去汗	-11.6535
酒煎服	-11.6536
同煎至七分去滓温服	-11.6537
難經云	-11.6538
宋開	-11.6539
紅潤	-11.6539
陽輔	-11.6541
當歸赤芍藥	-11.6541
理石	-11.6544
連珠	-11.6544
障翳	-11.6546
拌蒸	-11.6549
無時候	-11.6553
牙齒疼痛	-11.6554
缺盆中	-11.6556
燒存	-11.6557
癖氣	-11.6557
肥大	-11.6558
飱	-11.6562
治腸風	-11.6562
一人患	-11.6562
養正丹	-11.6564
遮睛	-11.6564
飄	-11.6565
七個	-11.6566
麥門五味	-11.6568
太倉	-11.6568
麹	-11.6568
量兒大小以意加减	-11.6568
右㕮咀毎服	-11.657
豈知	-11.6571
掠去沫	-11.6571
泥封	-11.6572
𤣥明粉	-11.6572
冀	-11.6573
膾	-11.6573
允	-11.6574
鎮墜	-11.6575
袐	-11.6576
桞枝	-11.6576
乾蟾	-11.6576
醍醐	-11.6576
諧	-11.6576
歎	-11.6577
愚按前症	-11.6578
大連翹飲	-11.6579
麻黄附子細辛湯	-11.6581
躁擾	-11.6582
流利	-11.6583
對曰	-11.6584
脈沈細	-11.6587
其所因	-11.6588
挑破	-11.6589
紫金丹	-11.659
不能愈	-11.6591
以清酒	-11.6591
右七味切	-11.6593
管吹	-11.6593
淡紅	-11.6594
盜	-11.6595
温暖	-11.6597
瘑瘡	-11.6598
年七十	-11.6599
腎邪	-11.66
不可不辨	-11.66
太陽穴	-11.6601
熏蒸	-11.6601
取二升去滓	-11.6603
泰山	-11.6604
探吐	-11.6605
同煎至七分去滓	-11.6606
變症	-11.6606
熱麫	-11.6606
患瘧	-11.6607
濕癬	-11.6607
養胃	-11.6609
麵糊為丸	-11.6609
正誤	-11.6609
今人多	-11.6612
至午	-11.6612
願聞其	-11.6612
脈𦂳	-11.6612
丸如桐子大毎服	-11.6613
醋調塗	-11.6615
三五沸	-11.6615
乾棗	-11.6616
太陽寒水	-11.6616
藏腑	-11.6621
節飲食	-11.6622
暗風	-11.6625
甘苦	-11.6625
當辨	-11.6626
菉	-11.6627
不能制水	-11.6628
三分湯浸	-11.663
以水七升煮取三升	-11.6631
沉香木香	-11.6633
紫蘇飲	-11.6636
右為末醋糊	-11.6637
泣出	-11.6638
火灼	-11.6638
燒存性為末	-11.6639
川練子	-11.6639
杓	-11.664
腎主骨	-11.6642
主治㕘互	-11.6647
口燥舌乾	-11.6647
耳目聰明	-11.6648
苡仁	-11.6648
外廉	-11.6648
予謂	-11.6648
肺藏	-11.6649
魏荔彤曰	-11.665
此肝脾	-11.665
不運	-11.6651
三十六種	-11.6655
煎至七分去滓温服不拘時候	-11.6655
風吹	-11.6656
碁子	-11.6658
巽	-11.6658
收藏	-11.6659
隂症	-11.6665
冬青	-11.6666
相似但	-11.6669
被火	-11.6671
繫定	-11.6674
於皮毛	-11.6678
蔲	-11.6681
手法	-11.6682
令人有子	-11.6684
加柴胡山梔	-11.6684
煮糊	-11.6685
表虛	-11.6687
運化	-11.669
味苦平	-11.669
循經	-11.6692
大鍾	-11.6692
斑疹	-11.6692
速效	-11.6698
至六七日	-11.6701
金瘡止血	-11.6704
為散每服四錢以水一中盞入生薑半分	-11.6711
白蘞	-11.6712
藜	-11.6712
傷胃氣	-11.6713
裝	-11.6714
蜜少許	-11.6714
譫	-11.6715
憂愁	-11.6717
粹	-11.6718
揣	-11.6718
穩	-11.6719
嘈雜	-11.6719
再劑	-11.672
横紋	-11.672
寕	-11.672
右為末煉蜜丸	-11.672
乾柿	-11.672
集騐方	-11.6721
譜	-11.6721
草荳蔲	-11.6721
梧子大	-11.6722
穴也從	-11.6723
之經也	-11.6723
八物湯	-11.6724
不能下食	-11.6724
水溝	-11.6724
諱	-11.6726
川續斷	-11.6727
每服五錢匕水一盞半	-11.6733
夫婦人	-11.6734
再進	-11.6734
山山谷	-11.6737
些少	-11.6739
眼暗	-11.6741
百日兒	-11.6743
去脂膜	-11.6745
尤當	-11.6746
胃風湯	-11.6746
以四物湯加	-11.6746
倫	-11.6746
去頭足	-11.6747
蜜水調下	-11.6747
治丈夫	-11.6749
門户	-11.6751
按之無力	-11.6752
天行病	-11.6754
大便不調	-11.6755
欬喘	-11.6755
碗許	-11.6756
心下鞕	-11.6756
去翅	-11.6757
范汪同	-11.676
鬼邪	-11.6761
通暢	-11.6762
單方	-11.6762
承山	-11.6763
目赤痛	-11.6763
窒塞	-11.6767
為末水調	-11.6768
表裡	-11.677
去梗	-11.6774
痞結	-11.6774
普濟方	-11.6776
相續	-11.678
少澤	-11.6781
少海	-11.6781
水三斗	-11.6782
榧	-11.6784
榖精草	-11.6785
睡覺	-11.6787
矧	-11.6788
見腫瘍門	-11.6789
種陳藏器餘	-11.6789
大陷胸湯	-11.679
胸前	-11.6792
命門火衰	-11.6794
心俞	-11.6794
黶	-11.6795
九味蘆薈丸	-11.6795
披	-11.6795
營衞	-11.6796
稍加至	-11.6797
手少陰	-11.6797
黅	-11.6797
創	-11.6798
俄	-11.6798
為欲解	-11.6798
腹中絞痛	-11.6798
肉色不變	-11.6799
髭髪	-11.6799
清肅	-11.6802
苞	-11.6802
鼻柱	-11.6803
目盲	-11.6803
一斛	-11.6805
須要	-11.6806
毫毛	-11.6812
茅香	-11.6816
瘕聚	-11.6816
不可輕用	-11.6821
柔痓	-11.6823
斑㸃	-11.6829
積久	-11.6829
治鼻衂	-11.6834
用加味逍遙散	-11.6834
受風寒	-11.6835
石膏知母	-11.6838
甘溫	-11.6839
癰瘡	-11.6846
水二大盞煎至一盞	-11.6847
仲夏	-11.6848
褁煨	-11.6848
糯米粥	-11.6849
水四升	-11.6849
三品	-11.685
欲解也	-11.6852
黄去裙襴	-11.6856
磣	-11.6857
昏暈	-11.6858
喎僻	-11.6859
參附	-11.6859
補脾肺	-11.6861
雞肉	-11.6862
水三大盞	-11.6863
他處	-11.6865
术附湯	-11.6867
白瓤焙	-11.6868
漏蘆湯	-11.6868
忌如常法	-11.6868
寶鑑	-11.6868
商丘	-11.687
博物志	-11.6872
欲産	-11.6874
頭目眩	-11.6875
轉屬陽明	-11.6875
産乳	-11.6878
中蠱毒	-11.6879
風寒濕痺	-11.688
麵裹	-11.688
誤人	-11.6882
前條	-11.6882
治五痔	-11.6885
尖雙仁炒	-11.6885
江西	-11.6888
噯氣	-11.689
蔓菁子	-11.689
黃色	-11.6891
虚浮	-11.6892
布袋	-11.6894
胸中痛	-11.6896
煎至七分温服	-11.6896
驚動	-11.6898
嚥汁	-11.6898
其所勝	-11.69
生江南	-11.6901
先君	-11.6904
盖因	-11.6905
喉風	-11.6908
陽絡	-11.691
脉絡	-11.6914
丸如粟米大	-11.6916
春生苗	-11.6919
塗傅	-11.6919
右為末麵糊	-11.6919
筋痿	-11.692
瓷器	-11.6921
發汗吐下	-11.6922
而死矣	-11.6929
粱米	-11.6934
靛	-11.6935
艸	-11.6935
勞瘧	-11.6935
韋	-11.6938
批開	-11.694
口舌乾燥	-11.694
因産	-11.694
傷寒熱病	-11.6941
煎取一盞	-11.6942
蛇傷	-11.6942
迹	-11.6942
匈中	-11.6945
三陽合病	-11.6945
佛手散	-11.6945
補遺	-11.6946
仍用前	-11.6946
手足不隨	-11.6947
木部	-11.6947
唐附	-11.6949
㵼肺	-11.695
墓	-11.6951
三丸至五丸	-11.6953
炙㣲黄	-11.6955
七八月	-11.6958
碾為細末	-11.696
面色青黄	-11.696
盤腸	-11.6961
諸藥不應	-11.6963
水二盞煎至一盞	-11.6964
豌豆瘡	-11.6966
數劑而愈	-11.6967
為細末每服二錢	-11.697
二歳	-11.6971
不能伸	-11.6972
崔氏療	-11.6972
無功	-11.6973
每於食後	-11.6975
寸口脈	-11.6976
形瘦	-11.6979
所說	-11.6979
不能消化	-11.698
妄投	-11.698
五苓散主之	-11.6981
凋	-11.6982
湯洗七次	-11.6984
預防	-11.6985
鍼五分	-11.6988
見鬼神	-11.6989
者易治	-11.699
肺壅	-11.6992
陽明少陽	-11.6992
斯疾	-11.6993
説文	-11.6995
隔日	-11.6996
開寳	-11.6998
豁痰	-11.6999
煮取汁	-11.7
服一升日三	-11.7002
鹽湯洗	-11.7007
仁齋	-11.7007
各二錢半	-11.701
陳米飲下	-11.701
疵	-11.7012
梁上塵	-11.7012
奶	-11.7013
俠谿	-11.7013
阜	-11.7013
枳殼	-11.7014
鼻塞聲重	-11.7014
推陳致新	-11.7017
蘂	-11.7018
寸白	-11.7018
弄舌	-11.7018
橄欖	-11.7019
水榖不化	-11.7019
金銀箔	-11.7019
不了了	-11.7021
封口	-11.7021
曲澤	-11.7022
腰間	-11.7023
脂膏	-11.7024
如有物	-11.7024
右八味㕮咀	-11.7025
翕翕發熱	-11.7029
越婢	-11.7033
服熱藥	-11.7034
酒浸焙	-11.7034
胎漏	-11.7035
眠睡	-11.7035
茅花	-11.7037
黄去瓤	-11.7037
趺陽脉	-11.7038
不宜灸	-11.7041
咽嗌	-11.7042
大薊	-11.7045
喜笑	-11.7045
成功	-11.7049
新久	-11.705
頭腦	-11.7051
大便閉	-11.7056
治癰疽發背	-11.7056
治牙疼	-11.7057
十丸米飲下	-11.7057
丸如梧子	-11.7059
鯉魚膽	-11.706
循臂	-11.706
搗碎炒	-11.7061
油紙	-11.7062
脚氣衝心	-11.7064
噐中	-11.7065
黄帝云	-11.7069
燒令赤	-11.707
悴	-11.7073
冷水調下	-11.7082
蕋	-11.7085
齆	-11.7087
􁚲	-11.7087
較之	-11.7089
胃苓湯	-11.709
鰾	-11.709
頼	-11.709
氣血不足	-11.709
其味甘	-11.7091
生料	-11.7091
嫁	-11.7091
扣	-11.7092
心神恍惚	-11.7092
失節	-11.7093
上冲	-11.7093
蓽茇	-11.7095
萱	-11.7096
紫葳	-11.7097
葅	-11.7098
血絡	-11.7098
去滓頓服	-11.71
甘蔗	-11.7102
小水不利	-11.7102
成癰	-11.7103
隱隱	-11.7103
當改之	-11.7105
多渇	-11.7105
臣禹錫等謹按蜀本圖經云	-11.7107
余謂此	-11.7108
所侵	-11.7109
散漫	-11.7115
久而不愈	-11.7117
四肢厥逆	-11.7122
治五勞七傷	-11.7123
猪羊	-11.7123
四味肥兒丸	-11.7124
鈴方	-11.7125
燕脂	-11.7125
丸治産後	-11.7129
百餘劑	-11.7132
相擊	-11.7133
搦	-11.7135
濈然汗出	-11.7135
紅㸃	-11.7135
士人	-11.7138
三部脉	-11.7138
砂盆	-11.714
而痊一婦人	-11.7141
陰虛	-11.7145
瘥止	-11.715
秋石	-11.715
安靜	-11.7151
刀刮	-11.7153
何物	-11.7154
莨菪	-11.7155
八卷中	-11.7155
牙皂	-11.7156
縊	-11.7156
二個	-11.7158
駐	-11.7159
齒牙	-11.716
碌	-11.716
􁟖	-11.7161
斡	-11.7162
版	-11.7163
最要	-11.7163
欲倒	-11.7164
氊	-11.7164
生嶺南	-11.7165
逈	-11.7166
苛	-11.7166
歸經	-11.7166
甌	-11.7166
滚痰丸	-11.717
葳㽔	-11.7171
徃来	-11.7172
狐疝	-11.7172
牛羊	-11.7174
恊	-11.7174
煎至六分去滓不計時候溫服	-11.7174
𥘉	-11.7176
邈	-11.7177
鬱滯	-11.7177
楊氏産乳	-11.7177
月水不利	-11.7178
翳障	-11.7179
隂挺	-11.718
右五味㕮咀	-11.7185
有餘不足	-11.7187
審察	-11.7187
總論	-11.7187
例藥也	-11.7187
神魂	-11.7188
皮膚不仁	-11.7189
晡	-11.719
糊和	-11.7192
謬矣	-11.7196
湯嚼下	-11.7198
雞翎	-11.7199
霜雪	-11.72
閉口者	-11.7201
註曰此	-11.7201
聰明	-11.7201
五苓散加	-11.7205
眩冒	-11.7205
發於外	-11.7206
面䵟	-11.7207
湯治肺	-11.7207
降氣湯	-11.7209
上搶心	-11.7212
也程應旄曰	-11.7212
食前米飲下	-11.7212
調胃承氣	-11.7215
漏胎	-11.7215
作一劑	-11.7219
針砂	-11.7225
背强	-11.7226
茺蔚	-11.7227
硝黄	-11.7233
年久	-11.7233
胷背	-11.7233
受胎	-11.7234
鸕鷀	-11.7236
棱	-11.7236
隂乾為末	-11.7237
搗細羅為散	-11.7239
手背	-11.7239
燒令通赤	-11.724
柯琴曰	-11.724
治脾胃虚弱	-11.7241
凝結而成	-11.7241
煎三沸	-11.7243
東坡	-11.7243
未差	-11.7243
箇月	-11.7243
趂	-11.7244
瘧痢	-11.7244
曷	-11.7249
粥飲下三十丸	-11.7249
妙香散	-11.7251
中渚	-11.7252
勢甚	-11.7252
足膝	-11.7252
為細末煉蜜	-11.7253
遼	-11.7254
厚衣	-11.7257
氣血虛	-11.726
俗云	-11.726
補脾氣	-11.7261
其父	-11.7264
白淫	-11.7264
大膓	-11.7267
桂枝湯主之	-11.7267
奈何曰	-11.7269
銀器中	-11.7269
論曰凡	-11.7271
乆食	-11.7274
靈樞經	-11.7279
方士	-11.7279
凉膈	-11.728
理中湯加	-11.7281
無辜疳	-11.7282
隔紙炒	-11.7284
服一錢匕	-11.7285
第十一	-11.7285
太極	-11.7285
葵花	-11.7292
地坑	-11.7292
隂疝	-11.7294
各壹	-11.73
李氏	-11.7305
每服三四十丸	-11.7307
令患人	-11.7308
水一盞生薑三片	-11.7308
十五粒	-11.7309
直候	-11.731
在膈上	-11.731
煆醋淬	-11.7311
躑躅	-11.7311
相乗	-11.7313
珣	-11.7314
欵	-11.7314
右為末每服半錢	-11.7314
陶隱居	-11.7314
乾霍亂	-11.7315
茫	-11.7315
背惡寒	-11.7316
熛	-11.7316
神農本經	-11.7317
嵐	-11.7318
而殁	-11.7318
右十五味	-11.7318
神祐丸	-11.7318
如麻子大	-11.7319
分娩	-11.732
話	-11.7321
巴荳	-11.7321
瘛	-11.7321
犢鼻	-11.7322
三個	-11.7322
蛻	-11.7322
浆	-11.7322
涙	-11.7323
味甘寒無毒主	-11.7324
攅	-11.7325
捨	-11.7326
槿	-11.7328
若吐若下	-11.7329
謙	-11.733
自汗盗汗	-11.7332
留七呼灸三壯	-11.7332
四肢拘攣	-11.7333
鰕	-11.7333
附録	-11.7335
▁集簡方	-11.7336
濾取汁	-11.7337
少衝	-11.7337
於寸口	-11.7338
乾蠍	-11.734
膽星	-11.7341
歸术	-11.7346
白蒺䔧	-11.7348
以水一斗二升煮	-11.7349
人參白术散	-11.735
乾木𤓰	-11.7352
代茶	-11.7352
銅刀	-11.7353
白檀香	-11.7354
李杲	-11.7355
龍膽湯	-11.7356
味甘無毒主	-11.7357
麻桂	-11.736
出第二	-11.7363
千餘	-11.7364
百一選方	-11.7364
鬚髪	-11.7365
酥蜜	-11.7365
在半表半裏	-11.7366
通聖	-11.7367
右四味㕮咀	-11.737
但覺	-11.7373
為末每服三錢	-11.7375
色深	-11.7378
自己	-11.7379
閉藏	-11.7383
火熾盛	-11.7386
蓖麻	-11.739
甚者不過	-11.7393
丸如豌豆大	-11.7394
穀精草	-11.7396
陽氣盛	-11.7396
黄礬	-11.7398
沐頭	-11.7398
㽔仁	-11.7399
恨	-11.74
小指外側	-11.74
協熱	-11.74
温膽湯	-11.7401
窟	-11.7402
餐	-11.7402
齁	-11.7402
􁨛	-11.7405
項背	-11.7405
迨	-11.7405
張仲景治	-11.7405
榖疸	-11.7405
投酒中	-11.7406
橫	-11.7406
右為細末毎服一錢	-11.7407
嵩	-11.7407
一嵗兒	-11.7407
圖經云	-11.7407
嗆	-11.7407
薇	-11.7408
每服二錢匕	-11.7412
痩弱	-11.7413
治疔瘡	-11.7414
天之氣	-11.7415
丹参	-11.7417
用異功散加	-11.7427
倉公	-11.7427
未瘥	-11.7435
一身之	-11.7436
不得伸	-11.7437
禀受	-11.7438
神騐	-11.7438
邪在裏	-11.744
治一切惡瘡	-11.7441
囘陽	-11.7442
相離	-11.7443
治乳癰	-11.7446
遍去滑	-11.7448
驚疳	-11.745
每服一二錢	-11.7453
配合	-11.7455
自愈矣	-11.7455
次指	-11.7457
穀道	-11.7459
至四五日	-11.7459
人氣在	-11.746
養神	-11.746
胸痞	-11.7461
▁聖惠	-11.7462
湯洗七遍	-11.7465
繆	-11.7465
揾	-11.7471
金液丹	-11.7471
降真香	-11.7471
臨月	-11.7472
蓽	-11.7473
紐	-11.7473
陽池	-11.7474
木香檳榔	-11.7474
痰涎壅塞	-11.7476
歸腎	-11.7476
芡實	-11.7477
先人云	-11.7477
蕪	-11.7479
秃瘡	-11.7479
兌	-11.7479
視物不明	-11.7479
虎掌	-11.748
蕘花	-11.748
鳬	-11.7481
徃來寒熱	-11.7481
優	-11.7482
乾即易	-11.7482
閭	-11.7482
甘松香	-11.7483
憔悴	-11.7483
分肉之間	-11.7483
鴻	-11.7485
陷谷	-11.7485
兩頭尖	-11.7486
亡隂	-11.7486
蛔蟲	-11.7486
殁	-11.7488
鼽衂	-11.7488
貍	-11.7489
薑汁浸	-11.749
七片	-11.7494
鱧	-11.7494
温分三服	-11.7496
淡竹瀝	-11.7496
膕中	-11.7497
百四十	-11.75
治血痢	-11.75
明下云	-11.7501
䜴汁	-11.7501
浸蒸餅	-11.7502
輕身延年	-11.7505
口亁	-11.7506
攪令匀	-11.7507
二七壯	-11.7515
蝮蛇	-11.7515
𤣥胡	-11.7518
野雞	-11.7521
熬令黄	-11.7522
厚腸胃	-11.7524
生薑三片棗一枚	-11.7526
㦸	-11.753
數寸	-11.7531
勞力	-11.7533
耐老	-11.7533
丸如梧子大每	-11.7535
肝膽經	-11.754
心下急	-11.7542
山林	-11.7544
用小柴胡加	-11.7546
骭	-11.7549
鉛白霜	-11.755
丸如小豆大每服	-11.7551
周流	-11.7551
鶴膝風	-11.7553
十餘貼	-11.7554
沫出	-11.7555
拽	-11.7555
爆	-11.7555
磨化	-11.7555
天牖	-11.7555
鼾	-11.7556
顛狂	-11.7556
眯	-11.7557
温酒或鹽湯下	-11.7557
共研細末	-11.7558
湧出	-11.7559
劉河間	-11.7559
狂躁	-11.7559
▁外臺秘要	-11.7559
羚羊	-11.7559
闇	-11.7559
要知	-11.756
蘆笋	-11.756
雲母粉	-11.7561
潜	-11.7561
毁	-11.7562
不内外因	-11.7563
杭	-11.7563
嬌	-11.7563
成漿	-11.7563
惶	-11.7563
多淚	-11.7563
罯	-11.7563
久𠻳	-11.7563
浣	-11.7565
酒和服	-11.7567
涎盛	-11.7568
雀屎	-11.7568
錯簡	-11.7568
治産後血	-11.7568
𬗋	-11.7569
内眥	-11.7569
危困	-11.7571
如指大	-11.7572
發於陽	-11.7573
飲食起居	-11.7574
六卷中	-11.7574
者血之	-11.7575
月餘而愈	-11.7576
煎湯調	-11.7577
人乳汁	-11.758
動搖	-11.758
坑中	-11.7582
腰脇	-11.7583
黑參	-11.7585
棘刺	-11.7586
黒睛	-11.7586
味辛甘	-11.7587
血氣不足	-11.759
漸減	-11.7591
去麻黄加	-11.7592
蟯蟲	-11.7592
更佳	-11.7592
味苦寒無毒主	-11.7593
緩縱	-11.7594
天蓼	-11.7595
鎮驚	-11.7596
四十日	-11.7596
胞門	-11.7599
首烏	-11.7601
平無毒主治	-11.7602
溶化	-11.7602
直指	-11.7603
竹瀝湯	-11.7604
脉息	-11.7606
命名	-11.7609
五十日	-11.7609
婦人月水	-11.7611
胸脇痛	-11.7614
各八分	-11.7615
壹錢	-11.7615
巨虚	-11.7616
豆腐	-11.7618
葛粉	-11.762
煎七分温服	-11.762
萆麻	-11.7624
水浸蒸餅	-11.7625
頭項痛	-11.7626
批	-11.7627
取六升去滓	-11.763
恚	-11.7632
隂陽應象	-11.7632
契	-11.7634
桕	-11.7634
脾積	-11.7634
苽	-11.7636
温胃飲	-11.7637
𢷬篩為散	-11.7639
嗜慾	-11.764
不旋踵	-11.764
如稀餳	-11.7641
贊	-11.7643
每服三十丸空心	-11.7643
入麝	-11.7644
趣	-11.7645
嘔逆不下食	-11.7645
詢	-11.7645
相染	-11.7646
筋力	-11.7647
胎前産後	-11.7647
經驗後方	-11.7647
羔	-11.7648
柹	-11.7648
者肺之	-11.765
不得宣通	-11.7652
片芩	-11.7652
靈樞經曰	-11.7653
人參白虎湯	-11.7653
▁外臺	-11.7655
小腸膀胱	-11.7658
倍常	-11.7658
聖人之	-11.7659
或痛或	-11.7659
昏花	-11.7659
論篇	-11.7662
右七味㕮咀	-11.7662
蛇蟲	-11.7664
治産後中風	-11.7674
齲	-11.7675
三月四月	-11.7676
頰腫	-11.7679
麻疹	-11.768
棗許	-11.7682
腰脊强	-11.7682
水三升煮	-11.7683
貼患處	-11.7692
市人	-11.7695
相乘	-11.7702
髭髮	-11.7704
桃李雀肉	-11.7711
仍須	-11.7711
並出第十	-11.7712
右治下篩	-11.7712
御米殻	-11.7713
瘖不能言	-11.7713
鼽	-11.7714
豶	-11.7714
身涼	-11.7715
調下半錢	-11.7717
但欲寐	-11.7717
含化嚥津	-11.7717
則愈矣	-11.7718
痃	-11.7718
語聲不出	-11.7718
背膊	-11.7719
撫芎	-11.7719
茶調散	-11.772
昨	-11.772
水一斗煮	-11.772
蟠	-11.7722
肌痩	-11.7722
解顱	-11.7723
南山	-11.7723
周禮	-11.7723
大便燥結	-11.7724
𤓰蔞仁	-11.7724
矩	-11.7726
枕骨	-11.7728
煮汁服之	-11.7729
出黄水	-11.7729
童尿	-11.773
乾即易之	-11.773
升舉	-11.773
諸證悉	-11.773
真珠末	-11.7731
手足搐搦	-11.7732
米飲調服	-11.7732
調理而安	-11.7734
陽氣虚寒	-11.7743
温水送下	-11.7745
宜發汗	-11.7745
十四箇	-11.7746
海藥云	-11.7748
右六味㕮咀	-11.7749
鷄子清	-11.775
外亷	-11.7753
慈石	-11.7754
温酒調下一錢	-11.7754
浸漬	-11.7757
服補藥	-11.7758
不能為害	-11.7761
陰痿	-11.7762
去苗葉	-11.7763
上廉	-11.7764
薑五片棗一枚	-11.7765
磁器中	-11.7765
産前産後	-11.7766
治腎臟	-11.7768
甘草附子湯	-11.7771
隴西	-11.7772
用二陳	-11.7775
葛花	-11.7776
末水服	-11.778
量兒大小加減服之	-11.7781
煑食之	-11.7782
帝曰願聞	-11.7783
人之所	-11.7786
移時	-11.7789
鑚	-11.7792
拍	-11.7793
睾	-11.7793
分四服日三夜一	-11.7794
寸口衇	-11.7795
殭	-11.7797
濫	-11.7798
秉	-11.7799
證治準繩卷	-11.7799
樸	-11.7799
百七十	-11.78
内下部中	-11.7801
使然也	-11.7802
牙車	-11.7803
木防己	-11.7803
内經所謂	-11.7804
樟腦	-11.7805
困篤	-11.7805
與前藥	-11.7806
丸如櫻桃大	-11.7807
竹葉二七片	-11.7808
治肺臟	-11.7808
酒浸三日	-11.781
年三十餘	-11.781
體虛	-11.7812
竅隂	-11.7813
湯火瘡	-11.7814
附治驗	-11.7815
安卧	-11.7817
不能屈伸	-11.7818
餹	-11.782
之脉起於	-11.7821
脉浮𦂳	-11.7827
搗絞取汁	-11.7828
湯浴之	-11.7829
酒任下	-11.783
元氣虚弱	-11.7833
炒令黄色	-11.7833
食前温酒下	-11.7844
齒縫	-11.7846
手足少陽	-11.7855
衝脈	-11.7858
髪落	-11.7861
煉蜜丸如梧桐子大	-11.7864
用托裏散	-11.7864
旱蓮	-11.7865
疔毒	-11.7865
杲曰	-11.7865
太守	-11.7866
有所見	-11.7868
治風癎	-11.7873
花椒	-11.7874
臣禹錫	-11.7874
酌量	-11.7875
油調敷	-11.7877
豐隆	-11.7878
解諸毒	-11.7879
詣	-11.788
危篤	-11.7881
講	-11.7882
益智子	-11.7882
麋角	-11.7883
右㕮咀如麻豆大	-11.7885
隋	-11.7885
岳	-11.7885
獵	-11.7885
恩	-11.7886
大槩	-11.7886
焼灰	-11.7886
蒡	-11.7887
萵苣	-11.7887
頴	-11.7887
聶	-11.7887
辰戌	-11.7888
跡	-11.7888
籍	-11.7888
墮落	-11.7889
虵	-11.7889
二匙	-11.789
洲	-11.789
腹鳴	-11.7897
梅花	-11.7899
大青膏	-11.79
深師療	-11.7901
治少小	-11.7901
取五升去滓	-11.7901
養老	-11.7903
繆刺	-11.7905
側卧	-11.7905
卒中惡	-11.7907
右為細末醋糊	-11.7909
煑汁服	-11.7909
元臟	-11.7909
施化	-11.7914
食熱物	-11.7919
頂陷	-11.7921
香墨	-11.7924
令净	-11.7925
冬𤓰子	-11.7927
夢泄	-11.7928
薑一片	-11.793
通血脉	-11.793
足厥隂經	-11.7935
一方不用	-11.7938
所觸	-11.7941
出血不止	-11.7943
健脾胃	-11.7943
弦洪	-11.7943
炙微赤剉	-11.7945
地黄膏	-11.7945
增寒	-11.7951
蝦䗫	-11.7951
浸酒服	-11.7952
勢必	-11.7952
太陽之邪	-11.7953
安五臟	-11.7954
丸梧子大毎	-11.7954
薑汁製	-11.7955
巵	-11.7957
膲	-11.796
隂陽交	-11.7961
拈	-11.7961
去苗土	-11.7961
治小兒驚癎	-11.7963
吁	-11.7964
䴸	-11.7964
踐	-11.7965
景岳全書卷	-11.7965
敏	-11.7966
澈	-11.7968
四苓散	-11.7968
白頭翁湯	-11.7969
翰	-11.7969
燒灰酒服	-11.7969
蛟龍	-11.797
辦	-11.797
肺主皮毛	-11.797
彈子大	-11.7971
角吉	-11.7972
宜四逆湯	-11.7973
淖	-11.7973
齒齦	-11.7973
此說	-11.7973
新校正云按全元	-11.7973
弦緊	-11.7975
蜚	-11.7976
螫人	-11.7976
蒲黃	-11.7977
何哉	-11.798
上黨	-11.798
二神丸	-11.7981
右㕮咀每	-11.7981
嚴寒	-11.7981
立夏	-11.7984
日一度	-11.7984
少隂病下利	-11.7985
陸機	-11.7987
至百丸	-11.7995
不耐	-11.7997
中庭	-11.7999
同煎至一盞去滓	-11.8004
萬金	-11.8005
疰忤	-11.8005
風濕相搏	-11.8005
不幸	-11.8007
猪腰子	-11.801
仙丹	-11.8011
多寡	-11.8012
精液	-11.8014
去半夏加	-11.8014
病生於	-11.8019
炙㣲赤剉	-11.802
辛涼	-11.8025
燥糞	-11.8025
乆服輕身	-11.8028
宗奭	-11.8029
嘔沫	-11.8031
格陽	-11.8033
赤苓	-11.8033
十五枚	-11.8038
紫霜丸	-11.8042
庫	-11.8042
石楠	-11.8043
岐骨	-11.8044
鱔	-11.8045
烟熏	-11.8047
槌碎	-11.805
仙茅	-11.805
蕊	-11.8051
陜	-11.8053
陜西	-11.8053
四十九枚	-11.8054
燒灰細研	-11.8055
毛際	-11.8055
煎至四分去滓	-11.8056
足少隂經	-11.8057
纍纍	-11.806
善悲	-11.8061
櫟	-11.8063
論曰夫	-11.8063
控乾	-11.8063
痒塌	-11.8064
不得俛仰	-11.8064
寅申	-11.8065
溫酒調下	-11.8065
補脾土	-11.8068
太陵	-11.8068
與調胃承氣湯	-11.8068
詢之	-11.8068
加至四十丸	-11.807
珣曰	-11.807
水二碗	-11.8072
背脊	-11.8074
重湯煮	-11.8076
獨盛	-11.8076
數而無力	-11.8077
煉成	-11.808
枯涸	-11.8082
承筋	-11.8085
一身盡痛	-11.8085
即今之	-11.8086
和丸如桐子大	-11.8089
為丸如梧桐子大每服五十丸	-11.8089
脉大而	-11.8091
苦酒和	-11.8092
可丸即	-11.81
救人	-11.8102
子母俱	-11.8102
六君加	-11.8102
余嘗	-11.8106
不急治	-11.8107
宣連	-11.8108
而歿	-11.8108
勝金方	-11.811
忌桃李雀肉	-11.8122
虢	-11.8124
一婦人患	-11.8124
車螯	-11.8125
圏	-11.8127
少隂君火	-11.8128
𢷬羅為末	-11.813
不入藥用	-11.813
覔	-11.8131
化毒湯	-11.8132
榻	-11.8132
潘	-11.8132
忿怒	-11.8133
悖	-11.8135
唇口乾燥	-11.8135
原病式	-11.8137
澗	-11.8137
鬼箭	-11.8137
黄藥子	-11.8137
水一盞半生薑五片	-11.8138
無表證	-11.814
煎五七沸	-11.814
白荳蔲	-11.814
氣味甘平無毒主治	-11.8141
參蓍	-11.8141
炙微黄	-11.8142
麩炒㣲黄	-11.8142
鈎吻	-11.8142
橙	-11.8143
覆盆	-11.8143
蛛	-11.8147
粳米飯	-11.8147
波斯國	-11.8147
楮葉	-11.8149
為散每服三錢以水一中盞入生薑半分	-11.8149
皂刺	-11.8151
風市	-11.8151
洗心散	-11.8156
平塌	-11.8157
治肺痿	-11.8158
眉毛	-11.8158
壁土	-11.8159
難救	-11.8159
千百	-11.8159
詳辨	-11.8164
五十圓	-11.8169
黑睛	-11.8174
右剉散毎服	-11.8178
生油調塗	-11.8179
用新汲水	-11.818
彈子	-11.8181
慢脾	-11.8185
等證鍼	-11.8185
水一小盞入	-11.8186
宜服此藥	-11.8187
鬰結	-11.8191
小半夏湯	-11.8193
棗二枚擘破	-11.8193
右細切	-11.8195
脾受	-11.8197
魚腥	-11.82
予曰此	-11.82
蘭草	-11.8201
如其言	-11.8202
鎚	-11.8202
溺赤	-11.8203
杞	-11.8205
鵶	-11.8205
春月	-11.8206
何氣使然	-11.8207
剉如麻豆大	-11.821
氣味酸	-11.821
皮膚之間	-11.821
蝸	-11.8212
一宿取出	-11.8212
青州白丸子	-11.8213
茰	-11.8214
日漸羸瘦	-11.8214
風輪	-11.8215
每兩作	-11.8215
挟	-11.8216
霹靂	-11.8219
緻	-11.8219
咽㗋	-11.822
姪	-11.8221
和前藥	-11.8221
社	-11.8221
漸覺	-11.8222
經霜	-11.8224
蘘荷	-11.8224
苦楝根	-11.8225
搗如泥	-11.8229
女貞	-11.823
心神煩躁	-11.8233
櫻	-11.8236
桑根	-11.8236
以水二斗	-11.8237
栗子	-11.8237
丸如梧桐子大每服五十丸	-11.8237
貼瘡上	-11.8239
帯下	-11.8239
加至十丸	-11.824
内諸藥煮取三升	-11.8241
白茯	-11.8244
面色黄	-11.8245
婦人帶下	-11.8245
東向	-11.8248
每旦	-11.8249
峻利	-11.8252
脾胃虧損	-11.8252
蜜丸如梧桐子大	-11.8259
治腸風下血	-11.826
尤效	-11.8261
薛氏	-11.8261
陰囊	-11.8264
煮麫糊	-11.8267
赤茯	-11.8268
頗似	-11.8268
鷄蘇	-11.8271
汗而解	-11.8272
右㕮咀以水一斗	-11.8273
通九竅	-11.8275
蒺䔧	-11.8275
襯	-11.8284
切作片	-11.8285
熁	-11.8286
井花水調	-11.8288
治積年	-11.8288
三隂交	-11.8293
舶上硫黄	-11.8294
入髮際	-11.8295
山嵐瘴氣	-11.8299
右先将	-11.8299
文理	-11.8299
其蒸在	-11.83
蚺蛇膽	-11.8302
乾涸	-11.8303
蕉	-11.8304
括樓	-11.8304
巡	-11.8305
嗟	-11.8305
癱緩	-11.8305
隂陵泉	-11.8305
牛黄麝香	-11.8305
獨活寄生湯	-11.8306
如金色	-11.8308
尼	-11.8308
殷	-11.8308
荻	-11.8308
蛇蜕皮	-11.8309
彚	-11.8309
塘	-11.8311
朝夕	-11.8315
續名醫類案卷	-11.8316
鹹味	-11.8318
黄昏	-11.8318
茅山	-11.832
色慾	-11.8324
竹葉七片	-11.8326
交㑹	-11.8326
唇舌	-11.8326
勿怪	-11.8328
如菉豆大	-11.8328
紫金皮	-11.8328
大便自利	-11.8331
齲齒	-11.8333
景天	-11.8334
脫落	-11.8335
吐酸水	-11.8339
皂子	-11.8339
玉女	-11.834
醋磨	-11.8343
春三月	-11.8346
有是證	-11.8347
足翅	-11.8349
尺部	-11.8355
者不可與	-11.8357
糯米糊	-11.8358
夫婦	-11.8358
可免	-11.8358
腦空	-11.8359
空心温酒調下	-11.8364
不住手	-11.8367
膿未成	-11.8368
治肝臟	-11.837
根源	-11.8375
􁋜	-11.8375
理隂煎	-11.8376
尺五寸	-11.8378
汗出不惡寒	-11.8379
右為粗末每服	-11.8379
拄	-11.8381
空虛	-11.8381
肘後同	-11.8384
㾦㿔	-11.8385
聼	-11.8387
引用生薑水煎服	-11.8388
太陽病發熱	-11.8388
姜汁炙	-11.8388
定志丸	-11.8388
烏附	-11.8389
丸如鷄頭大	-11.8389
以意消息	-11.839
二寸許	-11.839
洋	-11.8391
蘼蕪	-11.8391
久嗽	-11.8392
囚	-11.8392
廣雅	-11.8393
右作一服水二鍾	-11.8393
是其候也	-11.8393
殺三蟲	-11.8393
日晡益甚	-11.8394
振慄	-11.8395
袁	-11.8395
向東	-11.8396
陽明燥金	-11.8396
玳瑁	-11.8396
雀卵	-11.8396
奭	-11.8397
咳唾	-11.8398
寒熱往来	-11.8398
兩傍各一寸半	-11.84
胸脇支滿	-11.84
風濕相摶	-11.8402
展轉	-11.8404
甆器	-11.8404
氣血凝滯	-11.8405
羊屎	-11.8405
瘡痬	-11.8408
讀書	-11.8409
紫葛	-11.8412
痞塊	-11.8413
面垢	-11.8414
消癉	-11.8414
糵	-11.8415
酒化下	-11.8416
遁尸	-11.8416
桂枝附子湯	-11.8417
啼聲	-11.8417
脾俞	-11.8424
象形	-11.8425
嚴氏	-11.8426
之過也	-11.8432
加味逍遙散	-11.8432
羊膽	-11.8433
如飴	-11.8437
乗肺	-11.844
煎至半盞	-11.8441
乆不差	-11.8445
噯	-11.8447
痬	-11.8448
薑十片	-11.845
四君加	-11.8463
雞屎白	-11.8463
麥糵	-11.8464
右為散每服四錢	-11.8464
煉蜜和丸如梧桐子大	-11.8465
非所宜	-11.847
乳癖	-11.847
治痔漏	-11.8472
休息	-11.8472
糊丸如梧桐子大	-11.8472
弹	-11.8472
蜆殻	-11.8473
糧	-11.8473
面色萎黄	-11.8475
鈹	-11.8475
京墨	-11.8475
忌一切	-11.8476
枳壳	-11.8476
􁑭	-11.8477
劍	-11.8477
蔚	-11.8478
煎至一升	-11.8478
語澁	-11.8478
罵詈	-11.8479
以意加減	-11.848
隣	-11.848
寇	-11.8481
周匝	-11.8481
韭菜	-11.8481
虺	-11.8482
㾬瘧	-11.8484
空心及晩食前	-11.8485
冶	-11.8486
邪鬼	-11.8487
條芩	-11.849
出㓜㓜	-11.8492
胃中寒	-11.8494
箆子	-11.85
曾青	-11.8503
搗絞汁	-11.8504
三十丸至五十丸	-11.8507
銀器	-11.8509
脈浮數	-11.8513
肢冷	-11.8514
貼臍	-11.8516
其常也	-11.8517
渇飲水	-11.8517
布拭	-11.8518
攣痛	-11.852
煎三上三下	-11.8524
焮熱	-11.8526
右為散每服三錢水一盞	-11.8526
蜜水調	-11.8531
對待	-11.8532
空心臨卧	-11.8535
蛇退	-11.8536
泥固	-11.8543
良驗	-11.8545
腠理閉	-11.8545
攀睛	-11.855
丁瘡	-11.8555
雍	-11.8555
挹	-11.8556
丸如黄米大	-11.8556
偏正頭疼	-11.8556
逺年近日	-11.8557
毒箭	-11.8557
俯仰	-11.8558
頭目昏痛	-11.856
閃肭	-11.8561
䧏	-11.8562
攤紙上	-11.8562
蜆	-11.8563
燠	-11.8563
抓破	-11.8563
膳	-11.8564
廟	-11.8564
土瓜根	-11.8565
扺	-11.8565
拱	-11.8565
疴	-11.8566
何以别之	-11.8566
函	-11.8567
清暑益氣湯	-11.8567
水晶	-11.8568
狂妄	-11.8568
諦	-11.8569
手少陽三焦	-11.857
馮	-11.8571
三上三下	-11.8575
竊謂	-11.8582
天池	-11.8583
不可下下之則	-11.8585
腥穢	-11.8585
指迷	-11.8587
丸如梧桐子大毎服二十丸	-11.859
忌油膩	-11.8592
用四物加	-11.8592
足少隂腎	-11.8596
百節疼痛	-11.8596
甘草乾薑湯	-11.8597
感寒邪	-11.8599
三百六十	-11.8601
弓弦	-11.8602
陳倉米	-11.8603
有三種	-11.8612
貫膈	-11.8614
用四味肥兒丸	-11.8617
通神明	-11.8619
右件為末	-11.862
茵	-11.862
腰背强	-11.8621
石蓮	-11.8622
益氣養榮湯	-11.8623
不生肌肉	-11.8624
煉蜜丸如梧子大	-11.8626
脊背	-11.863
刀圭	-11.8632
滋腎	-11.8632
備急方	-11.8633
陷伏	-11.8639
煎湯調服	-11.8639
升提	-11.8639
㗜鼻	-11.8641
没石子	-11.8642
潑	-11.8643
粽	-11.8643
先食服	-11.8644
蔓荆	-11.8644
侍郎	-11.8644
鯪鯉甲	-11.8646
茶清送下	-11.8648
罔	-11.8649
厲兊	-11.8649
鶴蝨	-11.8651
以意加减	-11.8651
嘆	-11.8652
諸症頓退	-11.8652
淋露	-11.8652
清心蓮子飲	-11.8653
皮膚瘙痒	-11.8654
天靈葢	-11.8654
馬兜鈴	-11.8655
莵	-11.8655
墜墮	-11.8655
如覆杯	-11.8656
水一盞半煎至一盞去滓	-11.8656
紫背	-11.8657
六君子加	-11.8657
纔覺	-11.8657
仰而取之	-11.8658
菱	-11.8658
尤不可	-11.8659
止消渴	-11.8659
蛇虺	-11.866
熟水調下	-11.866
癍疹	-11.8661
譚	-11.8662
瓢	-11.8662
同研令匀	-11.867
弩肉	-11.867
稠密	-11.8671
令黄去裙襴	-11.8673
蓍	-11.8678
彈丸	-11.8678
忪悸	-11.8682
棗核大	-11.8683
墜馬	-11.8686
碧色	-11.8688
蜂起	-11.8689
身無汗	-11.869
水吞下	-11.8699
新羅	-11.8709
頭痛目眩	-11.8712
瓷器中	-11.8715
桃核	-11.8717
薑湯送下	-11.8719
鐺内	-11.8721
他症	-11.8725
手足煩熱	-11.8727
千年	-11.8728
越婢湯	-11.8729
翕翕	-11.873
睛明	-11.8735
蠕	-11.8737
屠	-11.8738
驚怖	-11.8738
無憂散	-11.8738
冬𤓰仁	-11.8739
見頭部	-11.8739
几几	-11.874
𩕄㑹	-11.8741
柞	-11.8741
權衡	-11.8742
幕	-11.8742
閑	-11.8743
再換	-11.8743
妖	-11.8744
水穀不化	-11.8744
下利清榖	-11.8745
柄	-11.8745
各隨其	-11.8746
能殺人	-11.8746
後亷	-11.8746
為欲愈	-11.8748
晡熱内熱	-11.8748
蝙蝠	-11.8749
禄	-11.8749
劒	-11.875
澱	-11.875
煎取八分	-11.875
味甘苦	-11.8751
心腹痞滿	-11.8753
手陽明大腸	-11.8753
兵部手集	-11.8753
鼻中息肉	-11.876
酒煮麵糊	-11.876
元氣下陷	-11.876
右為散每服五錢	-11.8761
鐡粉	-11.8762
困乏	-11.8763
二十五度	-11.8764
寸餘	-11.8765
米醋調	-11.8766
葱椒	-11.8771
淬七次	-11.8773
沉而遲	-11.8774
微寒無毒	-11.8779
隂氣盛	-11.8782
蕪荑仁	-11.8783
治婦人産後	-11.8791
按已上	-11.8798
飲食所傷	-11.8798
暴赤眼	-11.8802
荅	-11.8804
利大小腸	-11.8805
煎熱服	-11.8808
作穗	-11.8809
風溼	-11.8812
煎七分去滓温服不拘時	-11.8813
草決明	-11.8815
出儒門	-11.8821
金箔為衣	-11.8825
右為散毎服一錢	-11.8825
覃	-11.8826
基	-11.8826
別	-11.8827
熇	-11.8831
狗咬	-11.8831
或赤或白	-11.8831
鹿角霜	-11.8832
嶽	-11.8834
衮	-11.8834
冰片	-11.8835
櫸	-11.8835
右剉散毎服三錢	-11.8836
今按陳藏器本草云	-11.8837
衘	-11.8838
宣風散	-11.8839
渡	-11.8841
入蜜少許	-11.8843
臣禹	-11.8844
百沸湯	-11.8847
驢馬	-11.8849
取七升	-11.8851
煎一二沸	-11.8853
為風邪所	-11.8856
生姜三片	-11.8857
心下痞滿	-11.8863
枸把子	-11.8866
雞冠血	-11.8867
灸二七壯	-11.8867
走馬疳	-11.887
内外俱	-11.8871
淋取汁	-11.8872
空心熱服	-11.8872
背膂	-11.8874
仆地	-11.8875
喎斜	-11.8878
交爭	-11.8879
豬膽	-11.8879
傷寒時氣	-11.8882
卒疝	-11.8885
爛嚼	-11.8896
和如泥	-11.8898
口吻	-11.8899
昏冒	-11.8901
去上沫	-11.8906
詢其	-11.8906
些小	-11.891
丸如桐子大每服五十丸	-11.8911
二陳加	-11.8912
不可拘	-11.8912
致不起	-11.8912
絲嘴	-11.8912
樺皮	-11.8919
盂	-11.8919
天漿子	-11.8919
骶	-11.8919
膿水清稀	-11.892
不灰木	-11.8921
朱砂為衣	-11.8921
右薑水煎服	-11.8922
天瘹	-11.8923
潤腸丸	-11.8924
喘嘔	-11.8924
螢	-11.8924
薑五片棗二枚	-11.8925
瞿	-11.8926
態	-11.8926
攀	-11.8927
證治凖繩卷	-11.8927
叟	-11.8928
蕭炳云	-11.8929
水一斗煑	-11.8929
成無己曰	-11.893
右為末煉蜜和丸如梧桐子大	-11.893
亂髪灰	-11.8931
鄰	-11.8931
效驗	-11.8931
潞	-11.8932
傷寒類要	-11.8932
奪命散	-11.8933
本草綱目卷	-11.8934
膝臏	-11.8935
豁然	-11.8938
腸風瀉血	-11.8938
吮乳	-11.8939
令微黄	-11.8941
四順飲	-11.8944
百三十	-11.8951
名之曰	-11.8951
屬少陽	-11.8952
賦云	-11.8953
百會	-11.8953
服十丸日三	-11.8954
旦夕	-11.8956
繞臍痛	-11.8957
豬膏	-11.8963
上下左右	-11.8964
清燥湯	-11.8965
五月六月	-11.8968
韭根	-11.8972
薫洗	-11.8973
輕身不老	-11.8977
心膜	-11.8982
嵗月	-11.8984
灌膿	-11.8984
無倫	-11.8985
通里	-11.8986
鬼瘧	-11.8988
右㕮咀每服四錢水一盞	-11.8989
夾驚	-11.8989
瓶盛	-11.8996
婦人良方	-11.8998
治小兒急慢驚風	-11.9
熔	-11.9002
篾	-11.9002
味甘酸	-11.9003
從容	-11.9007
當審其	-11.9007
簽	-11.9009
敲	-11.9009
欝結	-11.9009
口糜	-11.9009
杲	-11.901
葳蕤	-11.901
日晡發熱	-11.901
擡	-11.9011
胡豆	-11.9012
越鞠丸	-11.9013
藊豆	-11.9013
楸	-11.9014
日二次	-11.9015
秔	-11.9016
懊	-11.9017
熱傷氣	-11.9017
煮三沸	-11.9019
栽	-11.902
帳	-11.902
足太隂脾	-11.9021
鄧	-11.9021
右搗篩每服三錢水一盞	-11.9024
盗	-11.9026
菟	-11.9028
和丸梧子大	-11.9033
善饑	-11.9039
臥不安	-11.9042
糯米粉	-11.9051
煎一沸	-11.9059
愚謂	-11.906
取三升去滓	-11.9063
如棗核	-11.9064
每服七十丸空心	-11.9069
橘葉	-11.9076
柔痙	-11.9078
酸鹹	-11.9079
桑灰	-11.9083
右㕮咀毎服五錢	-11.9088
左邊	-11.9088
腭	-11.9092
久服令人	-11.9095
蜣螂	-11.9097
盆硝	-11.9098
飲服方寸匕	-11.91
水五盞	-11.91
言語蹇澁	-11.91
斆曰凡使	-11.9101
㓙	-11.9101
黄帝問	-11.9101
浸三宿	-11.9102
杵羅為末	-11.9103
荔	-11.9105
顫掉	-11.9105
鎰	-11.9105
莎	-11.9106
欒	-11.9107
蘊	-11.9108
目瞪	-11.9108
䪼	-11.9109
誅	-11.9109
諸症悉愈	-11.9109
㑹厭	-11.9109
鑒	-11.9109
橡	-11.911
感應丸	-11.911
金刃	-11.911
金匱要略	-11.911
㯶	-11.9112
拯	-11.9114
水一升半	-11.9115
嶺表	-11.9117
欽定四庫全書本草綱目卷	-11.9117
兪	-11.9118
聞食臭	-11.9118
不得轉側	-11.9118
㵼白散	-11.9119
右九味㕮咀	-11.912
出其端	-11.9122
右薑棗水煎服	-11.9123
己亥	-11.9124
隂下濕	-11.9124
蝟	-11.9127
腹滿而喘	-11.9134
陽朙	-11.9134
淡竹茹	-11.9135
杞子	-11.9136
竹管	-11.9139
便鞕	-11.9141
量兒大小加减服之	-11.9146
耳前後	-11.9147
日夜不止	-11.9156
簡便	-11.9158
輕身耐老	-11.9158
街	-11.916
悲恐	-11.9163
空竅	-11.9165
令汁盡	-11.9174
漏下赤白	-11.9178
銅筯	-11.9181
捺	-11.9183
殭蚕	-11.9183
蕤	-11.9191
映	-11.9194
浥	-11.9194
頞	-11.9194
骸	-11.9195
餛飩	-11.9196
援	-11.9197
䇿	-11.9197
清濁相干	-11.9197
㵼青丸	-11.9198
厄	-11.9198
禽獸	-11.9199
侵晨	-11.9199
治肺癰	-11.92
禱	-11.9201
鑽	-11.9202
蛹	-11.9203
慕	-11.9203
西戎	-11.9204
祈	-11.9204
獨頭蒜	-11.9204
剛痓	-11.9205
飲食少進	-11.9206
澹澹	-11.9206
呻	-11.9206
岩	-11.9206
嚮	-11.9207
軸	-11.9207
疣目	-11.9208
孫兆	-11.9209
汗多亡陽	-11.9209
蠣	-11.9211
手中指	-11.9213
服方寸七日三	-11.9216
心腹脹痛	-11.9217
薫蒸	-11.922
無汗惡寒	-11.922
嵗以上	-11.9221
膠艾湯	-11.9221
脉促	-11.9224
湯任下	-11.9227
郭璞云	-11.923
煉蜜丸如桐子大	-11.9235
煎至二盞	-11.9236
相尅	-11.9237
煮汁飲之	-11.9239
脾胃氣弱	-11.9243
月候不	-11.9244
每服一丸細嚼	-11.9247
輕身益氣	-11.9247
隴	-11.9249
柴胡飲子	-11.9253
道路	-11.9255
旋覆	-11.9257
轉胞	-11.9257
昏不知人	-11.9258
右為末煉蜜和丸如梧桐子大每服	-11.926
蜜和丸如梧桐子大	-11.9261
無他證	-11.9265
濕紙裹	-11.9269
霍亂吐下	-11.9272
末酒服方寸匕	-11.9274
火炎上	-11.9274
欹	-11.9287
闢	-11.9288
奪命	-11.929
灌溉	-11.9292
安腎丸	-11.9294
沈明宗曰	-11.9294
寒多熱少	-11.9294
簿	-11.9294
憂愁思慮	-11.9294
枳桔	-11.9296
鴟	-11.9297
頭痛如破	-11.9297
射罔	-11.9297
桂枝麻黄各半湯	-11.9298
來復丹	-11.93
鞠	-11.9301
心下有水氣	-11.9302
和劑局方	-11.9302
短濇	-11.9302
丹房鏡源	-11.9303
嘔吐酸水	-11.9303
胞轉	-11.9307
蠼螋	-11.9308
杏核	-11.9308
骨哽	-11.931
蜂蜜	-11.931
右羅為散	-11.9312
遶臍	-11.9312
百八十	-11.9313
舟車丸	-11.9315
増減	-11.9315
昏困	-11.9315
牡桂	-11.9315
他醫	-11.9318
衍義云	-11.9324
上而不下	-11.9324
水三升煎	-11.9324
為末酒糊	-11.9326
一男子患	-11.9328
消爍	-11.9328
救急療	-11.9336
黄連黄蘗	-11.9343
懶食	-11.9344
永除	-11.9345
同身寸之一寸	-11.9347
鍼經曰	-11.9348
㣲火煎	-11.9349
河西	-11.9351
茯芩	-11.9352
猘犬	-11.9355
食療云	-11.9358
孩	-11.9366
生薑十片	-11.937
塞鼻中	-11.9372
痃氣	-11.9376
㓕	-11.9384
傴僂	-11.9385
蒻	-11.9386
小陷胸湯	-11.9388
月蝕瘡	-11.9388
滳水	-11.9388
砂鍋内	-11.9389
嗄	-11.9391
燈心湯下	-11.9391
學士	-11.9391
胱	-11.9392
札	-11.9392
薈	-11.9393
舞	-11.9393
先熱後寒	-11.9393
王太僕	-11.9393
㿉	-11.9394
蒜虀	-11.9395
煎至六分去滓食前温服	-11.9396
手太陽小腸	-11.9397
偏廢	-11.9397
猪心血	-11.9399
沸騰	-11.9399
加麥門五味	-11.9399
縛定	-11.94
隨兒大小	-11.9401
七月八月	-11.9401
肥皂	-11.9402
峻劑	-11.9402
額角	-11.9407
填滿	-11.9408
瘡口不合	-11.9408
退翳	-11.9418
楮實子	-11.9418
胷脅	-11.942
唇紅	-11.9421
敷患處	-11.9424
欲卧	-11.9425
右為末每服三錢水一盞	-11.9429
五丸至七丸	-11.943
瀝青	-11.9431
空心温酒送下	-11.9433
動静	-11.9434
屋漏	-11.9436
穢惡	-11.944
菌桂	-11.9441
河北	-11.9441
只一服	-11.9441
崩中帶下	-11.9458
洪滑	-11.946
児	-11.9467
毎服五丸	-11.9468
瘭疽	-11.9475
蜥蜴	-11.9481
青箱子	-11.9482
擔	-11.9483
托裏透膿湯	-11.9483
坯	-11.9483
韶	-11.9483
籐	-11.9484
以生絹袋盛	-11.9484
日四五服	-11.9485
鶻	-11.9486
婦人崩中	-11.9486
本經上品	-11.9487
總由	-11.9487
功効	-11.9487
湯浸七遍	-11.9488
羅謙甫	-11.9488
痿躄	-11.9488
閱	-11.9488
右同為細末	-11.9488
雙解散	-11.9489
徽	-11.9489
怒動肝火	-11.9489
倪	-11.9489
䔧	-11.9489
每服二錢温酒調下	-11.9489
水一升煎	-11.9491
不惡寒反惡熱	-11.9491
青礞石	-11.9492
需	-11.9493
煎五分去滓	-11.9493
脚膝無力	-11.9494
菖	-11.9495
毎用少許	-11.9496
鼠糞	-11.9498
劉氏	-11.9501
白堊	-11.9503
多致不救	-11.9503
甲辰	-11.9505
錐	-11.9505
石臼	-11.9506
何謂也然	-11.9506
臚脹	-11.9507
悲泣	-11.9508
簡易	-11.951
綿綿	-11.9511
大小加減	-11.9517
木臼	-11.9519
搗三二百杵	-11.9519
甆器中	-11.9521
錯雜	-11.9524
開腠理	-11.9532
蜜湯調下	-11.9533
牢牙	-11.9533
灼艾	-11.9537
腸肚	-11.9541
紫黒色	-11.9544
浮而𦂳	-11.9544
右為細末每服二錢水一盞	-11.9545
碾為末	-11.9548
煉蜜和搗三二百杵	-11.9551
羯羊	-11.9551
發汗則愈	-11.9552
乳酪	-11.9552
虎狼	-11.9554
在掌後	-11.956
五味麥門	-11.9561
鶩	-11.9568
鴆	-11.9575
胖	-11.9578
黄明膠	-11.9578
牛黄清心丸	-11.9579
揑作餅子	-11.9579
褥	-11.958
天台烏藥	-11.9581
它	-11.9581
肢節煩疼	-11.9581
㬠乾	-11.9581
牛皮膠	-11.9582
手太隂肺	-11.9582
聲不出	-11.9583
紫花地丁	-11.9584
仔細	-11.9585
飲食不甘	-11.9585
蹷	-11.9586
八味地黄丸	-11.9586
陀	-11.9586
神異膏	-11.9586
如刀刺	-11.9586
周圍	-11.9586
筋攣骨痛	-11.9586
漢椒	-11.9587
上盛下虚	-11.9587
釵股	-11.9588
忌莧菜	-11.9588
嗇	-11.9588
駃	-11.9588
㵼黄散	-11.9589
牡蒙	-11.9589
以酸收之	-11.9589
磁器盛	-11.959
熟地黃	-11.959
苜蓿	-11.9591
汴	-11.9591
憒憒	-11.9592
健運	-11.9592
多血少氣	-11.9593
何謂也師曰	-11.9596
嘔吐涎沫	-11.9596
唐本注	-11.9597
鈆丹	-11.9598
步履	-11.9602
不可轉側	-11.9603
嘔吐惡心	-11.9604
味辛平	-11.9608
十八銖	-11.961
滅瘢	-11.9613
益顔色	-11.9614
𢷬碎	-11.9615
罌	-11.9617
隨證治之	-11.9618
胃氣不和	-11.9625
凉劑	-11.9626
目直視	-11.9627
每服七十丸	-11.9628
蝎尾	-11.9632
細研如粉	-11.9633
貴賤	-11.9635
保養	-11.9637
為度取出	-11.9641
第三十	-11.9645
膚脹	-11.9647
愈熾	-11.9656
毎服三五十丸	-11.9658
㽲	-11.9659
生薑自然汁調	-11.9659
以水二斗煮	-11.9664
窨	-11.9666
莾草	-11.967
瘹	-11.9672
隂陽俱虚	-11.9674
金沸草散	-11.9676
不蛀者	-11.9677
金櫻子	-11.9677
足陽明胃	-11.9678
當歸六黄湯	-11.968
痛如刺	-11.968
水二鍾煎一鍾	-11.9681
像	-11.9681
撩	-11.9682
悗	-11.9682
贈	-11.9682
灾	-11.9683
蒟	-11.9684
吼	-11.9685
軒	-11.9685
坦	-11.9685
栀	-11.9686
紫朴	-11.9687
迸	-11.9687
擂爛	-11.969
水六升煮取三升	-11.9693
皆屬于	-11.9695
䑕屎	-11.9695
狸骨	-11.9696
大安丸	-11.9698
桐君	-11.9698
心中煩悶	-11.9699
五香湯	-11.97
甘桔	-11.9701
黃蘗	-11.9706
十六日	-11.9706
於銀石器内	-11.9709
見二十四卷第六論	-11.9716
交錯	-11.9717
歴節風	-11.9724
附錄	-11.9726
三黄湯	-11.9738
服方寸七	-11.9743
何也岐伯曰	-11.9744
卑濕	-11.9744
喜睡	-11.9745
醋煮麫糊	-11.9747
太陽病發汗	-11.9748
鮑	-11.9748
腎水不足	-11.9755
分為三	-11.9755
痘疔	-11.9756
烏鷄	-11.9758
禮記	-11.9759
牛蒡根	-11.9763
承氣湯下之	-11.9764
每服一錢以水一小盞	-11.9764
▁普濟	-11.9767
為末毎服一錢	-11.9768
瘀滯	-11.9769
脂膜	-11.9769
九月十月	-11.977
螌蝥	-11.977
夜明沙	-11.9774
仕	-11.9774
芫	-11.9774
錬蜜和	-11.9775
羖羊角	-11.9776
勺	-11.9776
塜	-11.9777
耕	-11.9778
蛜	-11.9778
牙關𦂳急	-11.9778
礦	-11.9779
鞋底	-11.9781
精神昏憒	-11.9782
頭目昏重	-11.9782
怠惰嗜卧	-11.9783
右十味㕮咀	-11.9783
煎至六分去滓不計時温服	-11.9783
倐	-11.9783
百藥不效	-11.9784
眴	-11.9784
餒	-11.9784
潮搐	-11.9786
彼不信	-11.9786
薑汁炙令香熟	-11.9788
上攻眼目	-11.9789
骨之端	-11.9789
臣禹錫等	-11.979
食後溫服	-11.9792
伏兎	-11.9793
癥瘕積聚	-11.9793
肝經血虚	-11.9794
右剉散每服	-11.9798
芳香	-11.9798
鮑魚	-11.98
地菘	-11.9802
足陽明胃經	-11.9808
抱朴子云	-11.981
肝經濕熱	-11.981
昏冐	-11.9815
丸如梧桐子大每服十丸	-11.9817
表裏俱虚	-11.9819
米泔水浸	-11.9825
神授	-11.9832
恱澤	-11.9832
令烊	-11.9834
忌蕪荑	-11.9836
每服一粒	-11.9837
陰陽俱	-11.9852
滑而數	-11.9857
孫氏	-11.9861
木蘭皮	-11.9862
煆存性	-11.9864
毎服一字	-11.9865
髭鬢	-11.9867
蒴藋根	-11.987
半夏茯苓湯	-11.987
治中湯	-11.9871
突起	-11.9873
躄	-11.9874
沸湯㸃	-11.9874
璧	-11.9875
醺	-11.9875
涓	-11.9876
葯	-11.9876
倉廩	-11.9877
語言蹇澁	-11.9879
頭目不清	-11.9879
朝用補中益氣湯夕用	-11.988
嗅	-11.9881
右麤搗篩	-11.9881
䆒	-11.9882
或多或少	-11.9882
項背强	-11.9882
噤口	-11.9882
齡	-11.9882
衃	-11.9883
錬蜜	-11.9883
煎至七分去滓食前温服	-11.9883
煎濃汁	-11.9883
濕熱下注	-11.9883
五運六氣	-11.9884
椏	-11.9884
摧	-11.9885
瘀熱在裏	-11.9885
雄黄雌黄	-11.9886
玉露散	-11.9886
喬	-11.9886
振振	-11.9887
黒鉛	-11.9889
不得安卧	-11.9889
約束	-11.989
三部九候	-11.9891
黔	-11.9892
雞子清調	-11.9893
若灸者可灸三壯	-11.9894
去滓分温再服	-11.9902
針入三分	-11.9902
采無時	-11.9911
摇動	-11.9916
百部根	-11.9918
狂語	-11.992
清頭目	-11.9939
取清汁	-11.9963
壅閉	-11.9966
五六沸	-11.9967
痤	-11.9972
薰陸香	-11.9975
張渙	-11.9975
螵蛸	-11.9976
甜𤓰子	-11.9976
𬎼仁	-11.9977
方八首	-11.9979
揆	-11.9981
戲	-11.9982
遞	-11.9982
無表裏證	-11.9983
綠豆	-11.9983
堅硬如石	-11.9983
縦	-11.9984
憎寒壯熱	-11.9984
煎十餘沸	-11.9984
炊餅	-11.9985
爬	-11.9985
猬	-11.9987
丸芡實大	-11.9987
外臺祕要	-11.9988
腹中㽲痛	-11.9988
氣上升	-11.9993
當刺期門	-11.9994
𬒳	-11.9995
煩躁不得眠	-11.9998
也病苦	-11.9999
不堪入藥	-12
進士	-12.0002
心腹積聚	-12.0008
増劇	-12.001
丞相	-12.001
善飢	-12.001
萬杵	-12.0013
凉血解毒	-12.0025
十三種	-12.0028
嵗以下	-12.0031
湯浸去皮尖雙仁	-12.0032
去滓内芒硝	-12.0041
血隨氣	-12.0042
肘攣	-12.0043
味辛平無毒主	-12.0052
分作三	-12.0053
擾亂	-12.0054
治産後惡血	-12.0062
肌肉不生	-12.0071
萬靈膏	-12.0074
瓊	-12.0076
鵬砂	-12.0076
治證同前	-12.008
髖	-12.008
䑛	-12.008
丁奚	-12.0081
轄	-12.0081
臠	-12.0082
綂	-12.0082
淅	-12.0082
瘡痍	-12.0083
女勞疸	-12.0084
坎離	-12.0084
誕	-12.0085
客主人	-12.0086
格拒	-12.0086
悦澤	-12.0087
蜕	-12.0087
惕惕	-12.0087
鬼督郵	-12.0088
非其治也	-12.0089
加减八味丸	-12.0091
四肢困倦	-12.0092
喘喝	-12.0092
伏兔	-12.0092
老幼	-12.0093
雍州	-12.0095
馬蘭	-12.0095
不早治	-12.0096
仲冬	-12.0096
以水九升煮	-12.0099
羊子肝	-12.0102
胃中虚冷	-12.0102
酒煮麫糊	-12.0107
續筋骨	-12.0108
京門	-12.0109
依本方	-12.0118
令烟出	-12.012
毎服十五丸	-12.0122
卒倒	-12.0123
丸梧桐子大每服二十丸	-12.0126
汗大出	-12.0127
酢漿	-12.0143
夾脊	-12.0153
取六升	-12.0156
右三味㕮咀	-12.0157
治小兒疳痢	-12.0163
守宫	-12.0164
汁洗之	-12.0167
煿	-12.0169
生薑湯送下	-12.0169
手腕	-12.0171
叁	-12.0172
取一升半去滓	-12.0172
鰻	-12.0176
稳	-12.0177
何如歧伯曰	-12.0179
距	-12.0182
踠	-12.0183
䟦	-12.0185
汙	-12.0186
咂	-12.0186
􁋋	-12.0187
禹錫曰	-12.0187
旅	-12.0187
初虞世	-12.0188
祇	-12.0189
楸葉	-12.019
保命集	-12.0191
留十呼	-12.0192
寂	-12.0192
倚息	-12.0193
錢仲陽	-12.0194
蛙	-12.0195
霄	-12.0195
萊	-12.0195
炷香	-12.0195
峰	-12.0198
甑帶	-12.0198
王注曰	-12.0198
忌酢物	-12.0199
瞑目	-12.0202
右剉散每服四錢水一盞半	-12.0203
驚惕	-12.0205
潤心肺	-12.021
金瘡出血	-12.0217
蠍螫	-12.0219
加至五十丸	-12.0219
雀兒	-12.022
苦寒之劑	-12.0224
葱䜴	-12.023
治此者	-12.0234
桑柴灰	-12.0235
濕紙裹煨	-12.0237
蜜一匙	-12.0239
癖塊	-12.024
芒刺	-12.0247
食前熱服	-12.026
芡	-12.0262
背反張	-12.0273
參芪	-12.0278
中風不語	-12.0281
棉	-12.0281
從髙墜下	-12.0286
者何也答曰	-12.0286
匪	-12.0288
僊	-12.0289
肺與大腸	-12.029
猝	-12.0291
亞	-12.0291
甖	-12.0292
膀	-12.0292
透肌	-12.0292
右麄𢷬篩	-12.0293
箬	-12.0293
歩履	-12.0293
算	-12.0294
右為㕮咀	-12.0294
廣筆	-12.0294
範	-12.0295
經心録	-12.0295
以水五升煮取一升	-12.0295
棕櫚	-12.0298
男子女人	-12.0305
右十味切	-12.0306
每服五錢以水一盞半	-12.0306
陳米飲調下	-12.0307
豆豉餅	-12.0307
二月八月採根	-12.0313
百無一	-12.0314
𤣥府	-12.0314
移入此	-12.0318
今處處	-12.032
薛氏曰	-12.0328
茯苓甘草湯	-12.0333
虀汁	-12.0333
和搗三五百杵	-12.0335
丸梧桐子大每服三十丸	-12.0338
怖	-12.0342
足厥隂肝經	-12.0351
氣上衝胸	-12.0352
炭火煆	-12.0354
小便澁滯	-12.0359
炊飯	-12.0365
七丸至十丸	-12.0366
水煎食前服	-12.0375
溝	-12.0377
髆	-12.0381
慢火煨	-12.0383
濁涕	-12.0383
湏㬰	-12.0387
津唾調	-12.0387
孽	-12.0388
猪牙皂莢	-12.0388
緫	-12.0389
蓆	-12.0389
卷柏	-12.0389
澁難開	-12.0391
嫗	-12.0391
鹽梅	-12.0392
蚺	-12.0392
滓再煎	-12.0392
鷄舌香	-12.0392
飲水過多	-12.0393
賓	-12.0394
未利再服	-12.0395
座	-12.0396
惙	-12.0396
慓悍	-12.0397
筋惕肉瞤	-12.0398
頽	-12.04
剛痙	-12.04
胸膈滿悶	-12.04
此其候也	-12.0401
蜜和為丸	-12.0401
骨者一	-12.0401
謨	-12.0402
萹蓄	-12.0402
詐	-12.0403
毎日空心	-12.0403
元戎	-12.0404
㗋痺	-12.0404
驅逐	-12.0404
更煎一兩沸	-12.0405
桃白皮	-12.0405
口乾作渴	-12.0409
不得睡卧	-12.0409
搔破	-12.0411
手不可近	-12.0415
牛髓	-12.0417
蕨	-12.0419
食飲不	-12.0424
治下篩酒服方寸匕日三	-12.0428
主之註曰	-12.0429
輕身長年	-12.0431
昏眩	-12.0437
寒有毒主	-12.044
酒下十丸	-12.0441
邪氣實也	-12.0441
足外踝	-12.0449
煎一兩沸	-12.045
服三丸日三	-12.0452
蘘荷根	-12.0452
氣已絶	-12.0456
右件藥搗羅為末	-12.0475
蜂螫	-12.0482
漱口	-12.0487
為麄末	-12.0489
葈	-12.0492
筆管	-12.0492
斟	-12.0493
洒淅	-12.0493
名醫别録	-12.0496
做	-12.0496
掬	-12.0496
秦芄	-12.0496
聊	-12.0498
蕎	-12.0499
糁	-12.0499
帕	-12.0499
百祥丸	-12.05
腽肭臍	-12.05
急下之宜大承氣湯	-12.05
正陽陽明	-12.0502
蛇銜	-12.0505
文武火熬	-12.0505
勾	-12.0505
温酒鹽湯下	-12.0505
山茰	-12.0505
糜粥	-12.0506
解㑊	-12.0506
睥	-12.0506
孚	-12.0506
灸五十壯	-12.0507
断	-12.0507
醮	-12.0507
裏寒外熱	-12.0507
桂枝加附子湯	-12.0508
良法也	-12.0508
亶	-12.0508
䡖	-12.0508
軟癤	-12.0509
柴葛	-12.0509
琴	-12.0509
乃可攻之	-12.051
罔效	-12.0511
上氣欬逆	-12.0511
陽盛隂虚	-12.0512
疥瘙	-12.0516
陽中之陽	-12.0516
不可勝數	-12.0517
屢試	-12.0518
走疰	-12.0519
李當之	-12.0522
寸匕	-12.0523
防巳	-12.0523
武都	-12.0527
茜草	-12.0529
伏翼	-12.0531
【	-12.0534
血崩不止	-12.0539
詳察	-12.0548
交争	-12.0551
傷寒八九日	-12.0555
數服而愈	-12.0557
濈濈	-12.0562
煎至三分去滓	-12.0564
數則為熱	-12.0564
右剉散每服三錢	-12.0569
右㕮咀毎服四錢	-12.0577
舶	-12.059
抓	-12.0596
肥健	-12.0598
箱	-12.06
不可具述	-12.06
不過三度	-12.0601
蘝	-12.0602
金毛狗脊	-12.0603
粗搗篩	-12.0603
蛇螫	-12.0604
燔灼	-12.0605
習習	-12.0608
愽	-12.0609
西方子云	-12.0609
啇	-12.0609
劉宗厚	-12.061
丸如麻子大毎服	-12.0612
徤忘	-12.0612
伺	-12.0612
肱	-12.0613
去皮心膜	-12.0613
不必盡劑	-12.0613
泊	-12.0613
𢷬下篩	-12.0614
忌羊血	-12.0615
戍	-12.0616
階	-12.0617
蓬砂	-12.0619
縈	-12.0619
疤	-12.0619
䀮䀮	-12.0619
食後臨卧温服	-12.062
早辰	-12.0621
堅如石	-12.0622
食後生薑湯下	-12.0623
江浙	-12.0623
手足拘攣	-12.0624
武帝	-12.0625
善太息	-12.0627
廣志云	-12.0628
迎香	-12.063
每服一錢匕	-12.0632
百九十	-12.0639
右各等分為末	-12.0642
右為末煉蜜為丸如梧桐子大	-12.0646
糜爛	-12.0649
稽留	-12.0655
以補中益氣加	-12.0659
戴眼	-12.0659
所在皆有	-12.067
昏昏	-12.0673
罌粟	-12.0683
十四粒	-12.0684
銀屑	-12.0686
邪中於	-12.0701
麵裹煨	-12.0708
左癱右瘓	-12.0709
臋	-12.0711
攅竹	-12.0713
線縫	-12.0714
蠡溝	-12.0714
㿠	-12.0714
右十六味	-12.0715
𬎼	-12.0715
唐孫思邈撰宋林億等校正	-12.0716
入研了藥	-12.0716
或寒或熱	-12.0717
扶突	-12.0718
蝎梢	-12.0719
諭	-12.072
竪	-12.072
豬蹄	-12.072
裩	-12.072
楊子建	-12.072
荽	-12.072
蟬鳴	-12.0721
治丈夫婦人	-12.0724
遺瀝	-12.0724
瑣	-12.0725
氣味辛温無毒	-12.0726
蜀本圖經云	-12.0727
資生經云	-12.0727
孫文垣治	-12.0727
右剉散每服三錢水一盞	-12.0729
▁摘𤣥方	-12.0732
之别名曰	-12.0737
敗蒲	-12.0738
尫羸	-12.0751
知蘗	-12.0752
以水一斗煮取三升分三服	-12.0754
空心鹽酒	-12.0756
産後敗血	-12.0759
今附臣禹錫等謹按	-12.0773
虚火上炎	-12.0781
填塞	-12.0788
脛痠	-12.0788
為細末每服一錢	-12.0791
每服一錢水一盞	-12.0798
澡豆	-12.0809
等謹案	-12.081
史記	-12.0813
産後諸疾	-12.0815
五福飲	-12.082
跪	-12.0821
廪	-12.0826
入研了藥令勻	-12.0826
去麤皮	-12.0826
神麯麥芽	-12.0827
叠	-12.0828
狗頭骨	-12.0829
臯	-12.0829
以小柴胡湯加	-12.083
筋脈拘急	-12.083
毎服五七十丸	-12.083
禁不可灸	-12.083
㳺	-12.083
瘴癘	-12.083
卷第十一論	-12.0831
溷	-12.0831
食前稍熱服	-12.0831
紫草茸	-12.0832
冬傷於寒	-12.0833
㝷	-12.0833
凛	-12.0833
煎至七分去滓熱服	-12.0833
小腸疝氣	-12.0834
白藥子	-12.0835
廿	-12.0836
無補法	-12.0837
鷄犬	-12.0837
窺	-12.0838
薔薇	-12.0848
竹堂	-12.0849
吃逆	-12.085
唇裂	-12.0877
亢極	-12.0878
厥隂風木	-12.0883
氣血俱虛	-12.0887
密封	-12.09
姜三片	-12.0905
煎八分去滓温服	-12.0914
去穰麩	-12.0916
井水調	-12.0927
金銀薄荷湯下	-12.0929
沮	-12.093
酘	-12.093
烏魚骨	-12.0931
温酒鹽湯任下	-12.0932
帥	-12.0934
踞	-12.0935
右細杵羅為末	-12.0935
蕡	-12.0936
卓	-12.0937
蒌	-12.0937
大豆黄卷	-12.0938
稼	-12.094
庠	-12.0944
踒	-12.0946
帚	-12.0949
髲	-12.0959
倮	-12.0959
歿	-12.0979
膁	-12.0999
鬐	-12.1028
渫	-12.1042
􁫻	-12.1044
揷	-12.1047
演	-12.1048
仇	-12.1048
胵	-12.105
檉	-12.105
蒺	-12.105
䕃	-12.105
簷	-12.1053
婚	-12.1053
羚	-12.1053
競	-12.1056
蘘	-12.11
㭍	-12.1157
癮	-12.116
兖	-12.1161
膞	-12.1163
欣	-12.1165
掀	-12.1166
昀	-12.1167
恬	-12.1168
煞	-12.1168
痾	-12.1169
晋	-12.117
禳	-12.1171
飰	-12.1172
竿	-12.1179
豪	-12.1181
鑵	-12.1269
塡	-12.1273
􁵂	-12.1275
攘	-12.1276
罵	-12.1276
磊	-12.1278
芦	-12.128
曠	-12.1283
逓	-12.1283
柯	-12.1284
簾	-12.1284
戕	-12.1286
賀	-12.1287
荼	-12.1292
螳	-12.1292
館	-12.1292
蕙	-12.1295
蘩	-12.1295
嘶	-12.1296
燻	-12.1385
躽	-12.1388
􁕲	-12.1388
黛	-12.139
栝	-12.139
裛	-12.139
吊	-12.1391
岡	-12.1397
稚	-12.1399
弄	-12.1401
圃	-12.1401
[...]
