<unk>	0
<s>	0
</s>	0
,	-2.31629
。	-2.896
、	-3.44475
;	-4.62022
!	-4.85228
者	-5.06098
故	-5.0669
(	-5.19679
)	-5.20706
:「	-5.22977
?	-5.43699
。「	-5.50834
。」	-5.55406
為	-5.60815
於	-5.66002
如是	-5.67541
不	-5.69263
以	-5.70254
若	-5.74405
▁	-5.75282
心	-5.75419
無	-5.75784
之	-5.78496
有	-5.78875
是	-5.82941
行	-5.88002
一切	-5.88392
法	-5.89332
世尊	-5.90308
爾時	-5.93451
菩薩	-5.93911
而	-5.95912
及	-5.99083
眾生	-6.01031
得	-6.01121
如	-6.02939
時	-6.03065
言	-6.05648
如來	-6.05892
善男子	-6.11395
已	-6.14876
諸	-6.15437
身	-6.17048
此	-6.17266
等	-6.17972
中	-6.19192
生	-6.19507
我	-6.20316
佛	-6.21785
彼	-6.22371
人	-6.25186
見	-6.27078
也	-6.28677
其	-6.30553
所	-6.36347
乃至	-6.38157
二	-6.41912
相	-6.42419
一	-6.43994
即	-6.46079
名	-6.47104
說	-6.48613
大	-6.49304
.	-6.5165
能	-6.51927
或	-6.58386
皆	-6.60857
知	-6.62956
欲	-6.64051
非	-6.64984
亦	-6.65131
:『	-6.65364
智	-6.65469
常	-6.67486
自	-6.68421
三	-6.70093
入	-6.70183
多	-6.71143
受	-6.75045
當	-6.75054
處	-6.75885
:	-6.76029
令	-6.76741
作	-6.77174
住	-6.77486
樂	-6.81399
具足	-6.82041
清淨	-6.82206
?」	-6.82795
天	-6.85217
修	-6.85385
*	-6.8601
眾	-6.86019
善	-6.87321
無量	-6.88064
觀	-6.88596
則	-6.89213
道	-6.89661
無有	-6.89887
淨	-6.90262
悉	-6.90764
念	-6.91008
離	-6.91722
意	-6.92509
四	-6.9504
聲	-6.95128
復	-6.97227
云何	-6.97255
與	-6.98231
上	-6.99768
因	-6.99803
語	-7.00398
事	-7.011
汝	-7.02535
施	-7.03494
種種	-7.04159
今	-7.063
至	-7.06447
應	-7.06916
莊嚴	-7.07354
曰	-7.07501
想	-7.07662
二者	-7.07965
經	-7.08012
一者	-7.08852
願	-7.0959
是名	-7.10112
從	-7.10165
求	-7.10407
。』	-7.10671
力	-7.10811
王	-7.10894
空	-7.11743
業	-7.11952
盡	-7.12171
復次	-7.12196
戒	-7.12355
起	-7.12821
又	-7.13324
出	-7.13597
功德	-7.14321
聞	-7.1449
惡	-7.14664
善哉	-7.14953
具	-7.16106
苦	-7.16243
三昧	-7.16402
智慧	-7.16826
供養	-7.16877
色	-7.18477
捨	-7.19494
成就	-7.19526
在	-7.19791
滅	-7.19895
慧	-7.20492
一切眾生	-7.20635
諸佛	-7.20859
解脫	-7.21946
義	-7.23949
是故	-7.24448
性	-7.24744
隨	-7.24798
地	-7.25053
識	-7.25416
佛言	-7.25835
何以故	-7.26133
若有	-7.27472
現	-7.28036
謂	-7.28434
因緣	-7.29646
持	-7.30273
云	-7.30803
定	-7.31319
成	-7.3149
五	-7.31861
菩薩摩訶薩	-7.32651
精進	-7.32845
明	-7.33504
方便	-7.34595
勝	-7.35212
所謂	-7.35827
來	-7.36114
正	-7.37685
不能	-7.38791
煩惱	-7.40228
平等	-7.40478
所有	-7.41717
界	-7.41931
白佛言	-7.43287
下	-7.43342
寶	-7.43579
世間	-7.43873
八	-7.46047
本	-7.48177
遠離	-7.48515
信	-7.49721
聲聞	-7.50262
雖	-7.50971
分別	-7.51538
阿	-7.51981
耶	-7.52069
忍	-7.52401
諸法	-7.52815
然	-7.53414
利	-7.54301
亦復如是	-7.54576
難	-7.54757
取	-7.55012
無所	-7.55307
世	-7.55645
報	-7.55761
門	-7.56077
龍	-7.56958
前	-7.56984
同	-7.57147
國	-7.57162
他	-7.5789
我等	-7.58146
六	-7.5847
斷	-7.58569
生死	-7.58772
水	-7.59121
——	-7.6034
初	-7.60374
緣	-7.60398
解	-7.60981
可	-7.61025
使	-7.61435
我今	-7.61633
增長	-7.62193
問	-7.62384
三者	-7.62403
眼	-7.62564
光	-7.63611
亦不	-7.63794
七	-7.64012
光明	-7.64209
婆	-7.6433
善根	-7.65004
罪	-7.65169
既	-7.65581
果	-7.65597
依	-7.66158
過	-7.66806
分	-7.67413
斯	-7.67544
於彼	-7.67715
乃	-7.68178
句	-7.6827
菩提	-7.6897
比丘	-7.69177
十	-7.69857
根	-7.70252
不生	-7.70739
那	-7.71249
。】「	-7.71505
用	-7.71815
後	-7.71913
皆悉	-7.71952
修行	-7.72473
教	-7.72869
復有	-7.72917
思惟	-7.74153
食	-7.74164
發	-7.74267
由	-7.74431
何	-7.75491
化	-7.75897
德	-7.76094
護	-7.77032
。」【	-7.77547
壞	-7.77723
轉	-7.77742
俱	-7.78302
摩	-7.78579
各	-7.78822
夜叉	-7.78922
便	-7.79378
是為	-7.79581
。△	-7.79637
說法	-7.80061
普	-7.80783
是人	-7.80928
先	-7.81012
佛法	-7.8136
大乘	-7.81432
實	-7.82166
唯	-7.82342
耳	-7.82595
口	-7.82809
亦無	-7.83102
不得	-7.8338
除	-7.83675
福	-7.84302
布施	-7.84807
地獄	-7.85004
神通	-7.85005
譬如	-7.85058
共	-7.85555
滿	-7.85933
羅	-7.86593
種	-7.86656
虛空	-7.86679
正法	-7.87183
子	-7.87407
度	-7.87486
法界	-7.87664
深	-7.87917
妙	-7.87934
火	-7.88122
未	-7.88739
一切法	-7.89158
汝等	-7.89355
猶如	-7.89523
數	-7.8987
矣	-7.90088
眷屬	-7.90251
尊	-7.90545
音	-7.90841
廣	-7.91448
覺	-7.91762
華	-7.9221
世界	-7.92424
即是	-7.92763
物	-7.93112
命	-7.93483
迦	-7.93685
示	-7.93691
真	-7.93948
證	-7.93988
於此	-7.94247
》	-7.94452
愛	-7.94587
自在	-7.94782
所以者何	-7.94978
日	-7.94996
真實	-7.952
諸天	-7.95709
巳	-7.95736
不見	-7.96273
十方	-7.97
重	-7.97115
貪	-7.97523
獲	-7.97613
死	-7.9766
造	-7.98874
受持	-7.99378
學	-7.99449
諸菩薩	-7.99497
內	-7.99709
名為	-7.99946
四者	-8.00258
主	-8.00376
師	-8.00464
去	-8.00558
向	-8.01093
辯	-8.01241
劫	-8.01383
集	-8.01466
涅槃	-8.0174
九	-8.02505
著	-8.02611
舍利弗	-8.02898
香	-8.02958
觀察	-8.03073
如是等	-8.03906
最勝	-8.03916
之所	-8.04233
神	-8.0427
利益	-8.04298
陀	-8.04436
但	-8.0449
失	-8.04495
像	-8.04499
安	-8.04878
雨	-8.05058
所攝	-8.05187
寂靜	-8.05508
魔	-8.06097
賢護	-8.06341
乎	-8.06511
山	-8.06548
輪	-8.0657
流	-8.06865
習	-8.06897
大悲	-8.07199
不可	-8.07796
喜	-8.08118
境界	-8.0855
自然	-8.08775
安住	-8.08833
反	-8.0906
外	-8.09368
觸	-8.0968
往	-8.09915
沙門	-8.1028
餘	-8.10645
形	-8.10756
聖	-8.11042
第一	-8.11043
過去	-8.11259
無我	-8.11291
無盡	-8.11866
還	-8.12218
合	-8.12852
少	-8.12868
名曰	-8.1319
無上	-8.13304
異	-8.13636
龍王	-8.13669
白	-8.13733
立	-8.13944
僧	-8.14709
不可思議	-8.1534
國土	-8.15434
結	-8.16245
悉皆	-8.17223
好	-8.17512
是時	-8.17746
通	-8.17879
微妙	-8.18026
阿修羅	-8.18067
持戒	-8.18152
必	-8.18177
慈	-8.18339
不空見	-8.18519
無明	-8.18753
攝	-8.18862
囉	-8.19235
趣	-8.19256
其心	-8.19642
忍辱	-8.19647
修集	-8.20014
破	-8.20197
邪	-8.20834
歡喜	-8.2086
調伏	-8.21032
散	-8.21451
致	-8.21558
風	-8.22335
阿難	-8.23292
出家	-8.23361
遍	-8.23441
小	-8.23483
味	-8.23681
更	-8.23726
以此	-8.23881
婆羅門	-8.23991
無礙	-8.24192
不知	-8.24223
無邊	-8.24253
稱	-8.24554
堅固	-8.25139
到	-8.25345
若能	-8.25394
速	-8.25489
禪定	-8.25769
現在	-8.25914
次名	-8.26068
極	-8.26191
禪	-8.26237
思	-8.26254
聽	-8.26295
女	-8.26334
亦復	-8.26423
及以	-8.27297
恭敬	-8.27323
不為	-8.27373
一切諸法	-8.27389
足	-8.27741
病	-8.27869
伽	-8.28182
作如是言	-8.28229
辯才	-8.28236
動	-8.28286
若有眾生	-8.28477
或有	-8.29144
百	-8.2924
陀羅尼	-8.29316
發心	-8.29324
之法	-8.2943
坐	-8.29708
終不	-8.29766
達	-8.29862
樹	-8.2997
又復	-8.30501
猶	-8.30544
地藏	-8.30792
別	-8.31061
讀誦	-8.31154
飲食	-8.31608
海	-8.31662
設	-8.31676
恒	-8.32054
護持	-8.32083
方	-8.32366
而不	-8.32707
目	-8.32745
癡	-8.33055
藏	-8.33102
無相	-8.33171
了	-8.33174
家	-8.3331
於諸	-8.33393
及諸	-8.33789
十二	-8.34052
大眾	-8.34113
毘	-8.34339
所作	-8.34576
順	-8.34816
將	-8.35232
莫	-8.35396
迷	-8.35441
無常	-8.35794
品	-8.36474
能令	-8.36629
告	-8.36872
諸眾生	-8.36893
闍	-8.36932
善法	-8.37362
寶女	-8.37419
歸	-8.3759
所說	-8.37711
福德	-8.38015
墮	-8.3802
甚深	-8.38237
示現	-8.38481
瞋恚	-8.38517
乘	-8.38551
畢竟	-8.38906
一心	-8.39143
法門	-8.39184
三界	-8.39855
被	-8.40016
尼	-8.40184
金	-8.40293
愚癡	-8.40656
宣說	-8.40826
呵	-8.41282
梵天	-8.4133
我當	-8.41393
引	-8.41449
增	-8.41538
讚歎	-8.41863
修習	-8.42042
究竟	-8.42274
提	-8.42475
一一	-8.42968
不捨	-8.4299
母	-8.43
滿足	-8.43031
不著	-8.43191
遮	-8.4363
不思議	-8.43778
鬼	-8.43801
父母	-8.43899
夜	-8.43964
顯	-8.44464
讚	-8.44606
帝	-8.44946
智者	-8.45067
體	-8.45123
緣覺	-8.45145
印	-8.45188
各各	-8.45578
答	-8.45628
音聲	-8.45775
瞋	-8.45982
邊	-8.46264
大王	-8.467
其身	-8.46881
惡業	-8.47034
未來	-8.47052
!」	-8.47375
奉	-8.4748
萬	-8.47554
長	-8.48311
聚	-8.48476
昔	-8.4858
何謂	-8.48605
論	-8.48669
有情	-8.48755
果報	-8.48805
親	-8.48912
獲得	-8.49175
如此	-8.49217
脫	-8.4925
之心	-8.49655
己	-8.4974
覩	-8.50009
諦	-8.50126
和合	-8.5053
?』	-8.50559
佛告	-8.50771
諸惡	-8.50948
破壞	-8.51194
不可說	-8.51476
高	-8.51586
月	-8.51707
於是	-8.51769
障	-8.52026
器	-8.5215
亦如是	-8.5216
波	-8.52226
千	-8.52254
文	-8.52625
以是因緣	-8.53131
頭	-8.53196
壽命	-8.53248
總持	-8.53283
大士	-8.53387
邪見	-8.53503
安樂	-8.53837
衣服	-8.54194
應當	-8.54209
無數	-8.54226
師子	-8.54452
不動	-8.54724
須	-8.54763
境	-8.55233
梵	-8.5544
復有一法	-8.55736
守護	-8.55789
花	-8.55921
以是	-8.56636
族姓子	-8.56662
勸	-8.56797
加	-8.5713
百千	-8.57196
若人	-8.57224
當知	-8.57229
威儀	-8.57348
咸	-8.57532
大德	-8.5789
擁護	-8.5829
遊	-8.5845
廣大	-8.58799
號	-8.58821
計	-8.58991
所行	-8.5915
際	-8.59195
惱	-8.59237
餓鬼	-8.59256
付囑	-8.59271
隨順	-8.59422
魔王	-8.59575
海意	-8.59722
應供	-8.5979
無生	-8.59847
衣	-8.59952
叉	-8.6016
遠	-8.60622
毒	-8.60925
慈悲	-8.60938
乾闥婆	-8.6098
吾	-8.60989
理	-8.61084
照	-8.61128
手	-8.61165
蓮華	-8.61225
憍陳如	-8.61281
《	-8.61402
何況	-8.61433
天人	-8.61504
開	-8.61615
菩薩言	-8.61703
。」「	-8.61757
志	-8.62034
釋	-8.62131
若有菩薩	-8.62353
進	-8.62703
三寶	-8.62835
歸依	-8.6287
身心	-8.62966
經云	-8.62968
決定	-8.63016
多聞	-8.6315
勿	-8.63158
是菩薩	-8.63284
害	-8.63344
字	-8.63519
諸根	-8.63524
至心	-8.6356
興	-8.63871
建立	-8.63893
一切諸	-8.64254
疑	-8.64289
會	-8.64431
答言	-8.64774
則為	-8.64921
了知	-8.65097
土	-8.65388
相應	-8.66241
久	-8.66373
比	-8.66599
中有習	-8.66703
親近	-8.66785
終	-8.6699
。○	-8.66992
住於	-8.67111
陰	-8.67165
塵	-8.67182
類	-8.673
。』「	-8.67632
不依	-8.67644
彼佛	-8.67714
奢利弗	-8.67732
四大	-8.67821
沙	-8.67968
汝今	-8.68053
曉了	-8.68086
圓滿	-8.68144
舉	-8.68216
令其	-8.68361
甚	-8.68403
屬	-8.68416
菩提心	-8.68589
奮迅王	-8.68695
不壞	-8.68784
城	-8.68944
剎利	-8.6905
二合	-8.69348
指	-8.69359
無為	-8.6939
量	-8.69681
十六	-8.69753
居	-8.69797
鬼神	-8.70105
藥	-8.70162
置	-8.70544
億	-8.70568
彼人	-8.70717
彌	-8.70814
即得	-8.71198
人天	-8.71246
不淨	-8.71502
圓	-8.71607
寂滅	-8.71756
諸有	-8.71806
怖畏	-8.71867
退	-8.72081
顛倒	-8.72204
舍	-8.72386
要	-8.72412
聞已	-8.72513
請	-8.72526
時彼	-8.7256
如虛空	-8.72603
最上	-8.72826
悲	-8.73064
慢	-8.7314
無量無邊	-8.7337
是名菩薩	-8.73697
遇	-8.73772
正見	-8.73811
法性	-8.73915
不住	-8.74004
鼻	-8.74231
緊那羅	-8.7433
無畏	-8.74357
金剛	-8.74397
位	-8.74466
燒	-8.74678
諸煩惱	-8.74697
善女人	-8.74816
畜生	-8.74949
虛空藏菩薩	-8.75313
不以	-8.75362
之人	-8.75532
辟支佛	-8.7555
五者	-8.75553
見佛	-8.75604
永	-8.75681
發阿耨多羅三藐三菩提心	-8.76015
爾	-8.76176
未曾	-8.76348
敬	-8.76352
十三	-8.76871
益	-8.77059
之中	-8.77377
泥	-8.77721
名之為	-8.77774
棄	-8.78222
河	-8.78273
近	-8.78331
夫	-8.78587
云何當得	-8.78634
安隱	-8.78757
皆得	-8.78864
為欲	-8.79099
不善	-8.79287
亦爾	-8.79896
執	-8.80012
憍慢	-8.801
云何菩薩	-8.80105
息	-8.80106
十八	-8.80386
▁初	-8.80451
若欲	-8.80604
視	-8.80613
不離	-8.80909
不念	-8.80948
之事	-8.80961
然後	-8.80965
無能	-8.81188
經典	-8.81535
壽	-8.81604
行者	-8.81962
於法	-8.82212
悉能	-8.82581
成熟	-8.826
二十	-8.82609
彼等	-8.82969
十一	-8.82977
路	-8.83017
中有五陰	-8.83366
何故	-8.83396
懷	-8.83587
能知	-8.83733
次	-8.83824
於我	-8.83834
不退	-8.83872
演說	-8.83889
犯	-8.8418
令彼	-8.8437
不取	-8.84409
三世	-8.84427
寂	-8.84435
娑	-8.84452
疾	-8.8466
而說偈言	-8.84788
縛	-8.84827
諸仁者	-8.84977
不應	-8.85244
天女	-8.85464
一切諸佛	-8.8586
供	-8.85952
邏	-8.86023
懺悔	-8.8603
年	-8.86079
逮	-8.86133
等正覺	-8.86257
復有二法	-8.86629
離諸	-8.86648
察	-8.86894
禮	-8.86994
當來	-8.87065
而能	-8.87216
為諸眾生	-8.87388
長者	-8.87398
三乘	-8.87503
于	-8.87722
變	-8.87911
三千大千世界	-8.87984
宿	-8.88008
▁南無	-8.88117
宣	-8.88183
慈心	-8.8819
力故	-8.88194
無漏	-8.88241
希有	-8.88269
熱	-8.88332
梨	-8.88396
曾	-8.884
此經	-8.88452
非法	-8.88469
財	-8.88564
依止	-8.88606
於諸眾生	-8.8878
不起	-8.88853
底	-8.88882
以為	-8.89214
無垢	-8.89317
都	-8.89486
獄	-8.90208
象	-8.90391
堅	-8.90411
獨	-8.90444
世尊告	-8.90458
寧	-8.906
止	-8.90675
首	-8.9092
比丘尼	-8.90967
七寶	-8.91067
當得	-8.91129
六者	-8.91503
對	-8.9151
欲得	-8.91577
憶念	-8.92386
正覺	-8.92462
七者	-8.92761
教化	-8.92777
入於	-8.92779
宜	-8.92845
怨	-8.92846
其人	-8.92863
頌	-8.93059
福田	-8.93592
次第	-8.93724
受用	-8.93751
勤	-8.93756
佛土	-8.93821
波旬	-8.93923
轉入	-8.94058
帝釋	-8.94097
治	-8.9411
覆	-8.94217
不失	-8.94362
勇猛	-8.94525
氣	-8.94605
或復	-8.94761
并	-8.94782
出世	-8.94831
誰	-8.94873
熾然	-8.94991
於一切	-8.95244
而為	-8.95368
大海	-8.95657
何等	-8.95932
欲界	-8.96187
天子	-8.9637
離於	-8.96603
於一切法	-8.96764
瓔珞	-8.96794
誦	-8.97012
有一	-8.97191
誹謗	-8.97356
苦惱	-8.97415
不可得	-8.97623
一切智	-8.97673
間	-8.97817
不求	-8.97833
善逝	-8.97934
不樂	-8.9799
大慈	-8.9801
輕	-8.98256
羅剎	-8.98437
無不	-8.98602
放	-8.98741
懈怠	-8.9879
己身	-8.98804
為說	-8.98905
如法	-8.99078
是為菩薩	-8.99177
亦非	-8.9927
神力	-8.99546
若無	-8.99593
喻	-8.99792
假使	-8.99832
日月	-8.99901
假	-9.0002
雲	-9.00116
聽受	-9.00141
文字	-9.00155
凡	-9.00249
呪	-9.00438
廣說	-9.00469
釋迦如來	-9.00565
而為說法	-9.00624
破戒	-9.00657
十五	-9.00715
諸龍	-9.01077
沒	-9.01135
不復	-9.01149
表	-9.01246
面	-9.01384
摩訶	-9.01482
畢	-9.0164
殺	-9.01653
大臣	-9.01868
由此	-9.0204
鉢	-9.02265
若不	-9.02306
吉祥	-9.02311
得聞	-9.02816
聽法	-9.0297
始	-9.03032
一切世間	-9.03228
聲聞乘	-9.03268
正遍知	-9.03275
善惡	-9.03326
捨離	-9.0333
?」「	-9.0336
念佛	-9.0341
調	-9.03653
悉得	-9.03696
造作	-9.03765
一念	-9.0377
優婆塞	-9.03994
休息	-9.04084
憂	-9.04094
自身	-9.04492
有所	-9.04492
此是	-9.0452
直	-9.04563
合掌	-9.04633
宮	-9.04689
嫉妬	-9.0481
諦聽	-9.04817
伏	-9.04845
鬼王	-9.04993
受苦	-9.05092
八者	-9.0521
頂	-9.05308
善知識	-9.05395
生於	-9.05437
情	-9.05602
因緣故	-9.05609
大方等大集經	-9.0563
之處	-9.0571
穢	-9.05767
於佛	-9.05893
生滅	-9.06022
況	-9.06194
毀	-9.06462
諸法無	-9.06549
凡夫	-9.0656
故名	-9.0663
復有三法	-9.06659
即便	-9.06665
尋	-9.06711
記	-9.06779
最	-9.06795
亂	-9.0682
拔	-9.06857
人民	-9.06934
阿羅漢	-9.07037
守	-9.07203
之時	-9.07222
染	-9.07256
末	-9.07314
地藏菩薩	-9.07572
三種	-9.07693
無願	-9.07828
超	-9.07885
障礙	-9.07888
所生	-9.07969
感	-9.08095
鳩槃茶	-9.08096
星	-9.08301
惑	-9.08347
誼	-9.08497
)(	-9.08652
貪欲	-9.08939
或作	-9.08955
作是念	-9.08968
五百	-9.08994
則能	-9.09031
能得	-9.09151
差別	-9.09152
慚愧	-9.09154
畏	-9.09389
舌	-9.095
詣	-9.09544
十四	-9.09605
隨意	-9.09916
遠離一切	-9.09928
禁戒	-9.09998
空中	-9.10081
不可盡	-9.10097
如實	-9.10227
嚴	-9.10537
雜	-9.10729
蛇	-9.10757
是法	-9.10861
其所	-9.10945
三十	-9.11016
今日	-9.11103
乃能	-9.11208
佛所	-9.11238
愛樂	-9.1125
男女	-9.11323
護持正法	-9.11458
不退轉	-9.11578
棄捨	-9.11718
如幻	-9.11913
無作	-9.1203
常行	-9.12058
法師	-9.12066
唯願	-9.12186
閻浮提	-9.12473
是名為	-9.12525
法者	-9.12602
妙法	-9.12711
迴向	-9.12779
外道	-9.12794
怖	-9.12864
準	-9.13021
亦能	-9.13098
般若	-9.13127
若菩薩	-9.13137
:「『	-9.13224
彼岸	-9.13588
三十二	-9.13609
薩	-9.13634
作是言	-9.1364
之行	-9.13691
相好	-9.13987
虛空藏	-9.14079
精勤	-9.14143
諸佛世尊	-9.14157
諸魔	-9.14267
易	-9.14473
若於	-9.1449
不斷	-9.14503
賢聖	-9.14527
心不	-9.1459
他人	-9.14614
一曰	-9.1475
安置	-9.14891
不作	-9.14958
隷	-9.1504
自在王	-9.15063
無間	-9.15072
備	-9.15266
令得	-9.15311
珠	-9.15555
所以	-9.15562
和	-9.15744
發菩提心	-9.15755
聖人	-9.15843
救	-9.16131
隸	-9.16423
所願	-9.1645
智本	-9.16459
成佛	-9.16543
而無	-9.16568
呿	-9.16762
住處	-9.168
佉	-9.17043
痛	-9.17052
。「『	-9.17063
憐愍	-9.17161
厭	-9.17357
內外	-9.17384
欲令	-9.17575
是也	-9.1768
銕	-9.17791
放逸	-9.17842
誓	-9.17853
無量眾生	-9.17912
葢	-9.1793
女人	-9.18011
此法	-9.18017
冥	-9.18056
知識	-9.18111
不信	-9.18192
八萬四千	-9.18394
唯然	-9.18465
獨覺	-9.18477
命終	-9.18497
座	-9.18521
􂚲	-9.18571
兩	-9.18653
二曰	-9.18673
皆是	-9.18771
有為	-9.18892
總	-9.18928
名字	-9.18936
之業	-9.19105
通達	-9.19108
出生	-9.1924
勢力	-9.19326
富	-9.1936
哆	-9.19576
娑婆世界	-9.19579
隨其	-9.19758
不久	-9.19841
書寫	-9.2012
竟	-9.2019
心無	-9.20304
十方諸佛	-9.20519
語言	-9.20524
色相	-9.20584
有人	-9.20588
四種	-9.206
是三昧	-9.20629
跋	-9.20745
隨喜	-9.20754
根本	-9.20867
童子	-9.20898
惡道	-9.21171
威德	-9.21249
至誠	-9.21336
垢	-9.21447
而生	-9.21529
魔業	-9.21559
摩睺羅伽	-9.21616
而得	-9.21645
正念	-9.21663
亦如	-9.21937
網	-9.2195
優婆夷	-9.21984
悔	-9.22104
度脫	-9.22132
闇	-9.22144
大地	-9.22147
俗	-9.22351
此三昧	-9.22492
演	-9.22588
四天下	-9.22644
二十五	-9.22657
梵行	-9.22775
令我	-9.22817
石	-9.22859
知見	-9.22953
誓願	-9.22974
信心	-9.23028
幢	-9.23035
勤修	-9.23082
悟	-9.23143
惡趣	-9.23357
辭	-9.23416
授	-9.23606
無二	-9.23652
我見	-9.23692
攝受	-9.23696
忽	-9.23752
百億	-9.23781
般若波羅蜜	-9.2383
車	-9.23844
珍寶	-9.23862
第一義	-9.23863
寂然	-9.24025
神足	-9.24092
阿耨多羅三藐三菩提	-9.24093
十七	-9.24488
妄	-9.24518
得解脫	-9.24582
如彼	-9.24608
善友	-9.24778
一切善法	-9.24825
劫中	-9.24829
端正	-9.2484
歎	-9.24955
功	-9.24986
瞿曇	-9.25029
一切有情	-9.25033
燈	-9.25038
佛剎	-9.25329
發起	-9.25429
刀	-9.25603
因果	-9.25658
一切皆	-9.25689
自性	-9.25738
弟子	-9.25817
法身	-9.25908
導師	-9.25994
▁二	-9.26086
婆婆	-9.26178
則得	-9.26256
漏	-9.26471
法行	-9.26486
不與	-9.26486
法中	-9.26661
吒	-9.2667
違	-9.26745
若見	-9.2686
無極	-9.27106
積	-9.27145
節	-9.27214
南	-9.27304
一切佛法	-9.27656
惡心	-9.27748
國王	-9.27905
此人	-9.27983
恩	-9.28153
塵勞	-9.28393
於其	-9.28427
仙人	-9.28435
者即是	-9.28481
眾會	-9.28493
常樂	-9.2886
天人師	-9.28866
善能	-9.28885
牛	-9.28912
言辭	-9.28913
知一切法	-9.29209
說此	-9.29329
」	-9.2952
法故	-9.29526
書	-9.29544
一切聲聞	-9.29551
田	-9.29576
攝取	-9.29579
尊重	-9.29692
磨	-9.2981
不同	-9.29834
八十	-9.30163
復有四法	-9.30194
得阿耨多羅三藐三菩提	-9.30354
从	-9.30356
十力	-9.30362
周	-9.30482
無想	-9.30505
豈	-9.30537
得見	-9.3058
盛	-9.30616
四方	-9.30642
馬	-9.30703
迦樓羅	-9.30795
宮殿	-9.30818
天王	-9.31045
諸行	-9.31118
服	-9.31183
一人	-9.31328
丈夫	-9.31468
定意	-9.31471
葉	-9.31504
不也	-9.31509
毘舍	-9.31572
欲求	-9.31574
雖復	-9.31578
譬	-9.31739
十方世界	-9.31756
無所有	-9.31758
惟	-9.31903
黑	-9.32028
荼	-9.32122
夢	-9.32524
心行	-9.32554
「	-9.32631
現前	-9.32651
所見	-9.32706
強	-9.32814
三曰	-9.32902
滅度	-9.32919
牟尼	-9.32963
輩	-9.3309
絕	-9.33157
而作	-9.33163
亦當	-9.33167
見已	-9.3323
五陰	-9.33371
一切大眾	-9.3346
青	-9.3352
清淨故	-9.33578
如是奢利弗	-9.33593
正道	-9.33604
承	-9.3367
而住	-9.33739
常當	-9.33881
〈	-9.33895
變化	-9.34042
顯示	-9.34144
鞞	-9.34151
及餘	-9.34263
律	-9.3429
大集	-9.34319
開示	-9.34495
微	-9.34509
亦然	-9.34608
鬪諍	-9.34661
護持養育	-9.3477
罪人	-9.3482
十九	-9.34853
尚	-9.34909
患	-9.34988
是經	-9.35082
歲	-9.35119
往昔	-9.3513
具足故	-9.35225
其有	-9.35485
佛道	-9.35507
所可	-9.35697
而有	-9.35741
善知	-9.35761
能生	-9.35859
我於	-9.35941
制	-9.35965
略	-9.36055
父	-9.36073
降伏	-9.36173
無住	-9.36216
之力	-9.36286
蘇	-9.36361
蒙	-9.36406
不令	-9.36441
我所	-9.36562
熟	-9.369
曉	-9.36916
合掌向佛	-9.37252
所修	-9.37267
一時	-9.3748
種子	-9.37583
或為	-9.3769
容	-9.37986
五欲	-9.38108
九者	-9.38171
汝當	-9.38269
大德婆伽婆	-9.38302
降	-9.38334
若我	-9.38373
承事	-9.38437
善業	-9.38523
令諸眾生	-9.38613
人中	-9.38633
惱亂	-9.38687
老	-9.38722
檀	-9.38802
奉行	-9.38909
威神	-9.39064
美	-9.39067
無餘	-9.39239
助	-9.39248
履	-9.39345
即時	-9.39526
仙	-9.39564
何等為四	-9.39785
觀於	-9.39854
妄語	-9.39862
彌勒	-9.40085
適	-9.40146
天眼	-9.40256
密	-9.40279
浮	-9.40443
信解	-9.40579
譬如有人	-9.406
生天	-9.40637
各有	-9.40747
柔軟	-9.40806
不忘	-9.40854
哀	-9.40935
約	-9.40948
二十八	-9.40952
聞法	-9.41005
猶如虛空	-9.41081
淨戒	-9.41148
二十四	-9.41167
禮拜	-9.41175
常為	-9.41261
流轉	-9.41361
大仙	-9.41386
菩提道	-9.41446
若干	-9.41494
繫縛	-9.41559
如斯	-9.41909
蓋	-9.41984
有定名	-9.42014
無上菩提	-9.42037
相續	-9.4218
慕	-9.42334
佛及	-9.42385
塔	-9.42502
支	-9.42842
利養	-9.42896
我身	-9.42901
作是	-9.42938
差	-9.42992
消	-9.43304
許	-9.43355
男	-9.43398
仁	-9.4343
平	-9.43514
幾	-9.43636
常念	-9.43658
弘	-9.43835
眾苦	-9.43959
翻	-9.43996
城邑	-9.43998
法眼	-9.44019
四天王	-9.44049
本願	-9.44063
無色	-9.44118
無異	-9.44139
一切勇	-9.44142
不受	-9.44177
即能	-9.44178
彼諸眾生	-9.44255
布	-9.44259
悉令	-9.44569
云何名為	-9.44621
四曰	-9.44793
諸菩薩眾	-9.44843
甘露	-9.45031
登	-9.45076
竭	-9.45097
吉	-9.45122
梵王	-9.45233
毘夜也	-9.45298
亦令	-9.45458
彼菩薩	-9.45469
消滅	-9.45483
第二	-9.45523
趣向	-9.45595
幻	-9.45622
諸苦	-9.4569
真如	-9.45706
骨	-9.4577
諸有情	-9.45859
遍滿	-9.45923
赤	-9.4598
眾中	-9.46002
清	-9.4604
眾寶	-9.46207
不行	-9.46236
靜	-9.46323
窮	-9.46332
及與	-9.4635
北方	-9.46425
剎	-9.46591
或現	-9.46689
聞是	-9.46715
饒益	-9.46775
覺觀	-9.46822
心生	-9.46851
漸	-9.46937
為令	-9.47007
遣	-9.47029
非是	-9.47044
純	-9.47102
哉	-9.47182
皆令	-9.47243
二十六	-9.47292
有三昧名曰	-9.47304
能以	-9.47393
其中	-9.47417
。《	-9.47481
菩薩行	-9.47511
頂禮佛足	-9.47638
是諸	-9.47701
之相	-9.47731
五百眷屬	-9.47732
大哀	-9.47771
何謂為	-9.47775
慳貪	-9.4785
此云	-9.47873
亦無所	-9.48234
六波羅蜜	-9.48288
十者	-9.48295
歷	-9.48421
有諸眾生	-9.48444
。」《	-9.48517
似	-9.48623
交	-9.48683
愍	-9.48693
林	-9.4887
恚	-9.48884
唯願世尊	-9.48889
第三	-9.48961
盧	-9.49001
諍	-9.49083
臥具	-9.49088
此陀羅尼	-9.49125
惡人	-9.49135
肉	-9.4919
尊者	-9.49213
答曰	-9.49247
百眷屬	-9.49396
知足	-9.49401
導	-9.49473
暫	-9.49493
華果	-9.49511
亡	-9.49595
解說	-9.49607
佛身	-9.49613
今此	-9.49739
賢	-9.49801
。』」「	-9.49918
▁「	-9.49951
虛	-9.49968
亦名	-9.50003
繫	-9.50148
諸功德	-9.50207
如前	-9.50284
實際	-9.50322
步	-9.50493
復以	-9.50657
得菩提	-9.50674
身口意	-9.50682
決	-9.50704
忘	-9.50753
如是之人	-9.50759
二十一	-9.508
婬	-9.50838
諸如來	-9.51068
元	-9.51085
池	-9.5119
充滿	-9.51205
是為魔業	-9.51345
滅盡	-9.51351
所言	-9.51688
化作	-9.51703
東方	-9.51724
機	-9.51724
大智	-9.5173
斷除	-9.51824
殊	-9.51905
大慈大悲	-9.51948
所得	-9.52031
殊勝	-9.5222
西	-9.5227
離欲	-9.52311
能作	-9.52331
波羅蜜	-9.52338
復白佛言	-9.52353
髮	-9.52469
能淨	-9.52502
何等為十	-9.52546
久住	-9.52555
流布	-9.5259
發願	-9.52647
勿念	-9.52722
如空	-9.52797
眾人	-9.52858
而不可盡	-9.5289
仰	-9.5309
婆羅門等	-9.5317
深心	-9.53177
濟	-9.53214
無言菩薩	-9.53365
婆羅	-9.53414
麁	-9.53515
於眾生	-9.53518
徧	-9.5353
諸聲聞	-9.53705
後世	-9.53748
首陀	-9.53785
南方	-9.53833
而彼	-9.5399
我亦	-9.5399
無厭	-9.54077
污	-9.54086
合掌恭敬	-9.54104
士	-9.54127
誠	-9.5416
諸眾生故	-9.54217
善思惟	-9.54337
二十三	-9.54511
無障礙	-9.54541
教化眾生	-9.54587
重罪	-9.5463
遂	-9.54871
賊	-9.54922
大聖	-9.54968
奢	-9.54977
不共法	-9.54978
六入	-9.55003
却伽	-9.5508
呼	-9.55111
西方	-9.55195
云何為	-9.55199
可得	-9.55221
有二	-9.55456
修學	-9.5548
無所著	-9.55935
悅	-9.55947
香華	-9.55989
為諸	-9.56038
隨所	-9.56051
二十二	-9.56061
衰	-9.56171
緣覺乘	-9.56215
逮得	-9.56299
諸菩薩等	-9.56332
所聞	-9.56355
成熟眾生	-9.56398
泥洹	-9.56441
無上士	-9.56446
從座而起	-9.56461
說是法時	-9.56463
旃荼羅	-9.56469
拏	-9.56597
倍	-9.56669
而白佛言	-9.56722
亦有	-9.56827
正行	-9.56838
憶	-9.56861
覺了	-9.57101
色界	-9.57154
颰陀和	-9.57316
無著	-9.57331
是謂	-9.57441
奪	-9.57469
響	-9.57481
存	-9.57642
移	-9.57656
勇健	-9.57708
一劫	-9.57773
見彼	-9.57829
積集	-9.57858
救濟	-9.57918
牟	-9.58005
藥上	-9.58077
為人	-9.58083
若諸有情	-9.58136
稱讚	-9.58172
却	-9.583
濁	-9.58308
而得調伏	-9.58343
頂禮	-9.58483
二十七	-9.58513
二種	-9.58562
除滅	-9.58624
樓	-9.58777
第四	-9.58789
飲	-9.58803
縱	-9.58885
隨時	-9.58905
故曰	-9.58934
常住	-9.5898
暢	-9.59054
無分別	-9.59064
不墮	-9.59084
十二因緣	-9.59127
不分別	-9.59165
聞此	-9.59233
訶	-9.59257
多有	-9.5926
施與	-9.59271
在於	-9.59309
稽首	-9.59352
勤求	-9.59643
心常	-9.59662
不滅	-9.597
七日	-9.59705
言說	-9.59939
獸	-9.60013
諸善根	-9.60228
辟支佛乘	-9.60251
句義	-9.60336
是中	-9.60423
讀	-9.60424
聚落	-9.60485
有佛	-9.60862
顯現	-9.60942
軍	-9.60993
我以	-9.61197
修於	-9.61257
一切煩惱	-9.61325
跡	-9.61424
如來至真	-9.61456
愚	-9.61468
非色	-9.61648
諸比丘	-9.61658
驚怖	-9.61829
唯除	-9.61953
事業	-9.62037
典	-9.6204
彼諸	-9.62098
世間解	-9.62249
苦行	-9.62255
已得	-9.62331
亦得	-9.62438
晝夜	-9.62513
神變	-9.62571
成就如是	-9.62652
就	-9.62796
增上	-9.62871
橫	-9.62872
落	-9.62875
營	-9.62915
得無生法忍	-9.63014
儞	-9.63093
覩見	-9.63159
非人等	-9.63241
垂	-9.6325
調御丈夫	-9.63271
所須	-9.63293
阿羅訶	-9.63333
皆由	-9.63345
三藐三佛陀	-9.63352
地藏菩薩摩訶薩	-9.63358
減	-9.63403
怨敵	-9.63448
是則	-9.6345
不放逸	-9.63465
四諦	-9.63469
能壞	-9.63474
星宿	-9.63521
之身	-9.63619
於一切眾生	-9.63649
大虛空藏菩薩	-9.63654
黃	-9.63677
室	-9.63711
四十	-9.63719
仁者	-9.63814
諸善男子	-9.63839
不自	-9.63917
源	-9.64038
迷惑	-9.64095
礙	-9.64099
損	-9.64144
生處	-9.64154
二乘	-9.64175
師子吼	-9.64202
飛	-9.64265
十地	-9.64359
細	-9.64394
東	-9.64416
每	-9.64435
而自	-9.6449
之言	-9.64637
諂曲	-9.64695
真諦	-9.64751
無量功德	-9.64766
如是菩薩	-9.65013
精氣	-9.65022
受生	-9.65042
於諸法	-9.65076
聖道	-9.65119
精	-9.65121
不貪	-9.65131
是諸眾生	-9.65157
開化	-9.6529
聖慧	-9.65396
白言	-9.6544
希	-9.65504
望	-9.65519
短	-9.65758
惡口	-9.65763
佛說	-9.65767
今者	-9.65822
鐵	-9.65882
能為	-9.65897
迴	-9.65908
北	-9.65956
行處	-9.66044
飢饉	-9.66138
明行足	-9.66141
不可宣說	-9.66281
勤行精進	-9.66299
若復	-9.66489
惡見	-9.66567
而作是言	-9.6658
轉輪王	-9.66627
身命	-9.6676
一法	-9.66811
大梵	-9.66889
所念	-9.66905
佛智	-9.6691
勇	-9.66992
菩薩如是	-9.67
照明	-9.67118
無量阿僧祇	-9.67152
謗	-9.67193
是等	-9.67328
其意	-9.67347
伎樂	-9.67462
毘舍遮	-9.67518
資	-9.67522
三業	-9.67529
常得	-9.67534
貧窮	-9.67553
見聞	-9.67564
色像	-9.67573
虛妄	-9.67623
值	-9.67684
授記	-9.67964
復有二法難作	-9.67965
若得	-9.68013
速得	-9.6809
毛	-9.68101
五根	-9.68116
蓮花	-9.68135
喜樂	-9.68428
聞是三昧	-9.68448
無所畏	-9.68474
於中	-9.685
醯	-9.68558
為彼	-9.68587
十善	-9.68662
相故	-9.68664
釋迦牟尼佛	-9.68752
為眾生	-9.68883
為我	-9.68923
諸見	-9.6899
咩	-9.68993
炎	-9.69109
】	-9.6913
無限	-9.69206
魔眾	-9.69226
二十九	-9.69237
財物	-9.69249
章句	-9.69262
於他	-9.69322
普勇	-9.69446
作如是	-9.69488
須彌	-9.69571
勸助	-9.69743
亦不可盡	-9.69751
佛世尊	-9.69816
恭敬供養	-9.6982
俱胝	-9.69886
自他	-9.69917
出世間	-9.6992
偈	-9.70134
古	-9.70136
背	-9.70183
於如來	-9.70315
業報	-9.70335
威	-9.70376
『	-9.70394
烏	-9.70421
十種	-9.70435
銀	-9.70453
拘	-9.70495
轉輪聖王	-9.7055
報應	-9.70802
亦復然	-9.70832
互相	-9.70972
復有二法多作	-9.70975
云何名	-9.7098
得大	-9.70989
修習靜慮	-9.71011
長老阿難	-9.71028
道者	-9.7103
若以	-9.71115
得佛	-9.7117
名色	-9.71215
皆能	-9.71249
形像	-9.71253
惡鬼	-9.71285
無言	-9.71432
所施	-9.71562
無比	-9.71621
半	-9.7164
道場	-9.71669
心念	-9.71682
人所	-9.7173
名稱	-9.71842
如是等法	-9.71898
無礙智	-9.71956
無量百千	-9.71981
負	-9.71982
臨	-9.72033
鼓	-9.7205
嚴飾	-9.72134
三惡道	-9.72152
法器	-9.72158
遊戲	-9.72175
若復有人	-9.72217
草木	-9.72224
惡行	-9.72302
甚多	-9.72462
亦為	-9.72606
何所	-9.7262
法施	-9.72688
?「	-9.72798
一切善根	-9.72873
婆呵	-9.73028
一日	-9.7305
是如來	-9.73073
即說呪曰	-9.73111
則無	-9.7329
一切菩薩	-9.73307
越	-9.73345
薩婆	-9.73409
且	-9.73571
義者	-9.73573
故知	-9.73614
斫	-9.73692
輒	-9.73724
兩舌	-9.73758
富單那	-9.73791
姓	-9.73829
何者	-9.73842
舍利子	-9.73864
善道	-9.73866
如意	-9.73867
於阿耨多羅三藐三菩提	-9.73986
此等	-9.74044
悲心	-9.74064
勝妙	-9.7411
勤精進	-9.74137
默然	-9.74305
今當	-9.74341
未得	-9.74351
護法	-9.74375
無量無數	-9.7465
教他	-9.74726
與我	-9.74851
巧	-9.74947
載	-9.75031
虎	-9.7507
略說	-9.75123
或以	-9.7517
羅漢	-9.752
奢摩他	-9.75391
於佛前	-9.75494
疑惑	-9.75529
數數	-9.75567
諸眾生等	-9.7558
處處	-9.75596
阿差末	-9.75608
所依	-9.75608
於未來世	-9.75741
相貌	-9.75861
百千萬億	-9.75953
會中	-9.76121
若彼	-9.76225
無行	-9.76244
覺意	-9.76251
如法住	-9.76301
法王	-9.76383
樂說	-9.76466
六道	-9.76534
長老	-9.76547
無諍	-9.76715
新	-9.76775
諸佛法	-9.76842
所以然者	-9.76864
熾盛	-9.76882
畜	-9.76888
阿修羅王	-9.77056
見如來	-9.77078
皆為	-9.77085
心性	-9.7712
則以	-9.77153
即以	-9.77223
第一義諦	-9.77261
無盡意	-9.77372
能斷	-9.774
如是眾生	-9.77412
斷見	-9.7743
罪業	-9.77436
民	-9.7751
上妙	-9.77563
悉知	-9.77587
血	-9.77599
專	-9.77715
速疾	-9.77725
瞻禮	-9.77743
聲聞緣覺	-9.77886
見者	-9.77901
圍繞	-9.78116
訖	-9.78128
熏	-9.78169
三塗	-9.78248
為他	-9.78319
鳥	-9.78326
覺知	-9.7836
意樂	-9.78384
齋	-9.7842
有大	-9.78421
有無量	-9.7846
淨心	-9.78551
禪波羅蜜	-9.78785
慈愍	-9.78851
聽聞	-9.78854
則為行法	-9.79055
智力	-9.79135
五十	-9.79239
哩	-9.79274
釋迦	-9.79299
善行	-9.79485
善說	-9.79508
我昔	-9.79524
惡事	-9.79563
受持讀誦	-9.7958
殺生	-9.79589
乏	-9.79704
又如	-9.79787
諸天人	-9.7983
不染	-9.79872
貪著	-9.7992
全	-9.79963
徒	-9.7998
偏	-9.80016
留	-9.80174
天宮	-9.80186
說是	-9.80191
樂欲	-9.80238
以是義故	-9.80303
莎	-9.80326
損減	-9.80327
大眾咸皆讚	-9.80331
當知是人	-9.8035
惠施	-9.80379
王子	-9.80466
譬如虛空	-9.80506
恐怖	-9.80515
如夢	-9.80564
真珠	-9.80564
如我	-9.80594
今我	-9.80646
如來所	-9.80699
不聞	-9.80717
到彼岸	-9.80723
無所住	-9.80759
何因緣故	-9.80773
天下	-9.80851
尾	-9.80908
中間	-9.80917
逆	-9.80987
檀波羅蜜	-9.81032
諸人	-9.81075
世人	-9.81201
過於	-9.81234
疑網	-9.81404
御	-9.81503
栴檀	-9.81531
或有眾生	-9.81537
快樂	-9.81551
勅	-9.81595
殺害	-9.81618
傳	-9.81633
臥	-9.81652
索	-9.81674
遭	-9.81683
盜	-9.81779
大論云	-9.81865
。』」	-9.81912
右膝著地	-9.81914
焰	-9.81949
不能知	-9.82055
之本	-9.82147
所有眾生	-9.82183
不如	-9.82192
講	-9.82277
而復	-9.82295
清淨平等	-9.82326
叉婆	-9.82328
如是法	-9.82368
受教	-9.82382
不出	-9.82471
運	-9.82568
說言	-9.82656
六萬	-9.82656
多少	-9.8266
微塵	-9.82683
作惡	-9.82722
罪福	-9.82725
海意菩薩	-9.82796
摩尼	-9.82991
今既	-9.83021
邊際	-9.83057
切	-9.8306
貴	-9.83154
木	-9.83162
君	-9.83203
觀身	-9.83236
難得	-9.83248
轉法輪	-9.83264
隱	-9.83332
無人	-9.83357
五力	-9.83357
投	-9.83388
居士	-9.83458
受者	-9.83486
說如是偈	-9.83602
曠野	-9.83623
臨命終時	-9.83647
淨故	-9.83747
法忍	-9.83782
增益	-9.83788
百八	-9.83841
號曰	-9.83851
亦皆	-9.83854
惱害	-9.84078
大力	-9.84079
諸佛國土	-9.84274
彼時	-9.84281
奴	-9.84332
曜	-9.84388
其福	-9.84411
天龍	-9.8457
過失	-9.84634
列	-9.84938
財寶	-9.84953
頗	-9.84955
招	-9.85065
如實知	-9.85086
一切天	-9.8509
於菩提	-9.85131
序	-9.85145
三十一	-9.85229
乞	-9.85362
飢渴	-9.85367
豆	-9.85378
不可稱計	-9.85383
三十二相	-9.8545
莫不	-9.85471
修多羅	-9.85488
梵名	-9.85562
作者	-9.85602
幢幡	-9.85614
如來悉知	-9.85623
世尊以	-9.85626
離一切	-9.85675
佛復告	-9.85703
而行	-9.85707
如其	-9.85711
諸佛如來	-9.85732
得如是	-9.85823
災	-9.85835
我已	-9.85901
將護	-9.85928
明了	-9.85959
作如是念	-9.86009
大神通	-9.86031
剎土	-9.86093
超越	-9.86211
世俗	-9.86409
眼識	-9.86457
加護	-9.86469
即為	-9.86566
薄	-9.86613
若有善男子	-9.86626
悉見	-9.86697
度眾生	-9.86705
講說	-9.86734
唱	-9.86829
已來	-9.86889
收	-9.86937
潤	-9.86963
迦葉	-9.87
教令	-9.87011
惠	-9.8704
曲	-9.87048
付	-9.87086
寶藏	-9.87116
是為慧業	-9.8713
蜜	-9.87145
校計	-9.87181
佛告颰陀和	-9.87233
瞻	-9.87236
是為慧之業	-9.87284
迦羅	-9.8729
摩訶薩	-9.87305
二法	-9.87363
手足	-9.87374
阿婆	-9.87413
思念	-9.87432
無所得	-9.87463
復有眾生	-9.87523
中有	-9.87526
是方便	-9.87621
道法	-9.87629
端	-9.87696
故云	-9.87789
本際	-9.87792
三摩	-9.87971
惡法	-9.87989
千眷屬	-9.88003
部	-9.88171
執持	-9.8831
娑羅	-9.88371
具足成就	-9.88395
乾	-9.885
蟲	-9.88603
為眾生故	-9.88641
是則為	-9.88686
影	-9.88695
伴	-9.8887
碎	-9.889
】【	-9.88918
行施	-9.88919
信樂	-9.88929
妻子	-9.88933
私	-9.88954
園	-9.88988
娜	-9.88992
睡眠	-9.89015
湯藥	-9.89053
善巧方便	-9.89074
鳩	-9.89079
阿那	-9.89093
為本	-9.89095
所在	-9.89108
隨其所應	-9.89188
佛國	-9.89188
大莊嚴	-9.89214
養	-9.89236
十惡	-9.89329
毀謗	-9.89347
身體	-9.89357
解脫知見	-9.89392
佛語	-9.89487
大願	-9.8953
他方	-9.89692
不懷	-9.89718
人非人等	-9.89721
化生	-9.89797
貧	-9.89837
盲	-9.89853
圍遶	-9.89921
愛欲	-9.89959
伊	-9.90056
無動	-9.90071
兵	-9.90102
纏	-9.90257
處所	-9.90353
緣起	-9.90368
本末	-9.90392
彼土	-9.90405
權	-9.90409
業障	-9.90441
願力	-9.90468
不說	-9.9057
牙	-9.906
吹	-9.90611
笑	-9.90614
乘者	-9.90655
孝	-9.90667
輸	-9.90685
六十	-9.9069
雙	-9.90694
有三	-9.90717
若有比丘	-9.90728
離垢	-9.90742
打	-9.90747
舊	-9.90781
閉	-9.90812
身相	-9.90821
行於	-9.90857
莎呵	-9.90884
四無所畏	-9.91052
大會	-9.91149
往來	-9.9122
大小	-9.91249
不可見	-9.91253
不能得	-9.91295
為作	-9.91297
六根	-9.91305
為求	-9.91389
難可	-9.91411
胎	-9.91431
五道	-9.91433
華香	-9.91469
皆當	-9.91513
受樂	-9.91533
是事	-9.91641
救護	-9.91706
善巧	-9.91706
衣食	-9.91777
一味	-9.9184
天神	-9.91893
限	-9.91902
得是三昧	-9.92084
亦復不	-9.92086
不用	-9.92171
能度	-9.92179
其性	-9.92243
一切眾	-9.92262
少分	-9.92267
誑	-9.92315
在家	-9.92379
慮	-9.92451
集會	-9.92482
枝	-9.926
戲	-9.92659
以一	-9.92696
恒沙	-9.92702
於意云何	-9.92749
微笑	-9.92815
之義	-9.92846
如佛	-9.92857
諸善	-9.92882
中道	-9.9291
不可計	-9.92919
呤	-9.92932
求法	-9.92945
毘尼	-9.93092
華鬘	-9.93122
病苦	-9.93157
法輪	-9.93297
大師	-9.933
化眾生	-9.933
卷	-9.93309
何處	-9.93349
若有人	-9.93385
波羅	-9.93414
釋迦牟尼如來	-9.93474
不盡	-9.93557
是故菩薩	-9.9359
汝於	-9.93599
我是	-9.93642
成正覺	-9.93653
志性	-9.93695
未曾有	-9.9381
有漏	-9.9411
三摩地	-9.94164
諸大眾	-9.94236
兒	-9.9426
其數	-9.94336
含	-9.94384
有二種	-9.94455
令住	-9.94462
樂聞	-9.94479
諸菩薩摩訶薩	-9.94487
文殊	-9.94522
何緣	-9.94538
晝	-9.94555
擊	-9.94583
乳	-9.94599
草	-9.94628
捨於	-9.94633
此三千大千世界	-9.94651
勸請	-9.947
有如是	-9.94706
祭	-9.94708
亦說	-9.94723
身口意業	-9.94804
汝等共護	-9.94816
無取	-9.94895
能滅	-9.94935
善入	-9.95055
於生死	-9.95076
我時	-9.95079
終無	-9.95159
十方佛	-9.95172
復作是念	-9.95209
世尊即說	-9.95236
井	-9.95238
佛現	-9.95264
從彼	-9.9534
〉	-9.95362
所受	-9.95412
則是	-9.95429
若觀	-9.95505
若聞	-9.95561
諸佛所	-9.95666
戲論	-9.95676
不空見菩薩摩訶薩	-9.95711
之意	-9.95784
皆有	-9.95871
生大	-9.95884
聞者	-9.95964
儀	-9.96099
則有	-9.96134
苾芻	-9.96134
不畏	-9.9615
展轉	-9.96246
不亂	-9.96268
五濁	-9.96331
倒	-9.96366
某	-9.96373
修道	-9.96377
一名	-9.96378
當令	-9.96389
心意	-9.96395
恒河沙等	-9.96402
欺	-9.96439
觀法	-9.96457
若諸眾生	-9.96472
麼	-9.96475
體性	-9.96484
岸	-9.96489
是陀羅尼	-9.965
此道	-9.9651
擲	-9.96519
不共諸佛之法	-9.9652
若未來世	-9.9654
富貴	-9.9659
譬喻	-9.96603
應知	-9.96696
所求	-9.96745
所緣	-9.96797
能成就	-9.96863
得此	-9.97083
斷一切	-9.97188
行布施	-9.97197
養育	-9.97201
張	-9.97295
建	-9.97328
是為如來	-9.97357
臺	-9.97394
調伏眾生	-9.97476
往彼	-9.97488
苦樂	-9.97491
作大	-9.975
無上道	-9.97506
大慈悲	-9.97531
於世間	-9.97548
虛空藏菩薩摩訶薩	-9.97578
無罣礙	-9.97617
毀壞	-9.97633
蔽	-9.97684
不聽	-9.97703
所趣	-9.97713
而常	-9.9773
聲聞弟子	-9.97747
獨覺乘	-9.97789
無染	-9.97891
袈裟	-9.9801
佛前	-9.98014
常以	-9.98021
坐禪	-9.98086
諸界	-9.98133
善住	-9.98143
法華	-9.9817
此諸	-9.98178
普賢	-9.98226
不入	-9.98238
天地	-9.98291
泥犁	-9.98316
能除	-9.98339
是曰	-9.98393
免	-9.98412
退失	-9.98415
眾惡	-9.98421
露	-9.98449
欺誑	-9.98505
灌頂	-9.98516
闕	-9.98522
聞佛	-9.98709
我能	-9.9879
能破	-9.98797
彼處	-9.98841
勇猛精進	-9.98899
於佛法中	-9.98912
誰能	-9.98956
遵	-9.99086
法藏	-9.99272
惡魔	-9.99363
何等為	-9.99429
於虛空中	-9.99464
及諸菩薩	-9.99507
船	-9.99544
斷滅	-9.99586
三十三	-9.99609
快	-9.99622
內心	-9.99635
熱惱	-9.99651
五逆	-9.99745
入定	-9.99778
云何得	-9.99824
即於	-9.99973
護正法	-9.99975
娑婆	-9.9998
懺	-10.0011
禮拜供養	-10.0014
言語	-10.0025
造業	-10.003
諸餘	-10.0044
宗	-10.0046
期	-10.0053
堂	-10.0063
渡	-10.0066
安慰	-10.0069
能說	-10.0071
麁獷	-10.0071
資糧	-10.0072
是大	-10.0076
普廣	-10.008
即從座起	-10.0084
奮迅	-10.0088
那吒	-10.009
以諸	-10.0095
供具	-10.0096
恐	-10.0096
殊妙	-10.0107
於大乘	-10.0109
周遍	-10.011
蘊	-10.0128
所知	-10.0133
我法	-10.0136
舍利弗言	-10.0141
之慧	-10.0163
善修	-10.0164
於諸法中	-10.0168
床	-10.0169
五種	-10.0175
此善男子	-10.0185
諸佛世界	-10.0187
特	-10.0194
不定	-10.0202
而得解脫	-10.0206
原	-10.0206
諸外道	-10.0214
須彌山	-10.0216
傷	-10.0222
悕望	-10.0226
暗	-10.0228
堪任	-10.0229
能令眾生	-10.0235
愛敬	-10.0237
敬信	-10.0238
刺	-10.0247
賢劫	-10.0248
徹	-10.0262
無貪	-10.0266
之名	-10.0269
鏡	-10.0269
同一	-10.0271
攀緣	-10.0273
端嚴	-10.0278
令他	-10.0279
臣	-10.0279
流通	-10.0279
園林	-10.0281
野	-10.0283
隱沒	-10.0284
眾僧	-10.0284
行法	-10.0285
無諸	-10.0286
稱名	-10.0288
不可量	-10.0292
正士	-10.03
唎	-10.0307
諸所	-10.0307
四眾	-10.0307
又問	-10.0309
此世界	-10.0317
形色	-10.0325
之道	-10.0337
成佛道	-10.0338
聞說	-10.0341
阿僧祇劫	-10.0344
菩薩念佛三昧	-10.035
名號	-10.0353
其土	-10.036
恒河沙	-10.0363
貢高	-10.0367
第五	-10.0371
如所	-10.0379
􂚲(	-10.0382
五曰	-10.0383
一句	-10.0388
逼	-10.0401
聞佛所說	-10.0404
三十六	-10.0412
淨信	-10.0414
過去諸佛	-10.0418
能於	-10.0418
不覺	-10.042
唯有	-10.043
皆共	-10.0443
犯根本罪	-10.0444
專精	-10.0447
忉利天	-10.0466
旃陀羅	-10.0469
歌	-10.0475
讚言	-10.0479
天魔	-10.0482
黨	-10.0482
佛世界	-10.0482
枝葉	-10.0483
羼提波羅蜜	-10.0484
清涼	-10.0485
卷第三	-10.0487
四念處	-10.0489
痛痒	-10.0491
蒱	-10.0498
究	-10.0502
現身	-10.0503
不異	-10.0509
以偈頌	-10.0509
為我說	-10.051
▁一心頂禮	-10.0511
無上尊	-10.0511
之日	-10.0512
故名為	-10.0517
種姓	-10.0528
寺	-10.0528
之者	-10.0533
作諸	-10.0535
去來	-10.0542
普遍	-10.0546
千億	-10.0546
)」	-10.0546
大法	-10.0547
得自在	-10.0549
魔界	-10.0554
復能	-10.0566
禁	-10.0573
諍訟	-10.0576
何能	-10.0577
左	-10.0582
照曜	-10.0585
魔波旬	-10.0586
二相	-10.059
威力	-10.0595
四禪	-10.0604
虗	-10.0606
至於	-10.0609
往詣	-10.0612
一切所有	-10.0631
前後	-10.0635
此法門	-10.0636
議	-10.0641
資生	-10.0652
所應	-10.0653
詐	-10.0654
若能如是	-10.0664
良	-10.0666
寶珠	-10.0667
為眾	-10.0667
多所	-10.067
得生	-10.0676
申	-10.0683
故得	-10.0683
八正道	-10.0684
當為	-10.0684
諸相	-10.0689
臭穢	-10.0693
善護	-10.0693
怒	-10.0694
萬物	-10.0696
調御	-10.0697
聰明	-10.0698
吾我	-10.0708
發露懺悔	-10.0708
毘婆舍那	-10.0708
尸波羅蜜	-10.071
本無	-10.0713
殊特	-10.0714
諸業	-10.0715
脩	-10.0715
救拔	-10.0718
梵語	-10.0721
願佛	-10.0725
於生死中	-10.0727
第六	-10.073
六度	-10.0732
陀羅	-10.0733
茶	-10.0735
此名	-10.0739
捨諸	-10.0745
侍	-10.075
證知	-10.0753
了了	-10.0761
眾生界	-10.0761
十輪	-10.0765
我於爾時	-10.0765
作佛	-10.0771
解了	-10.0772
一乘	-10.0776
遙	-10.0781
親友	-10.0784
無色界	-10.0791
喻如虛空	-10.0796
以何因緣	-10.0802
今現在	-10.0803
修羅	-10.0809
我聞	-10.0812
具足智慧	-10.0817
悉為	-10.0821
能捨	-10.0824
勤行	-10.0824
皮	-10.0827
哀愍	-10.0834
出現於世	-10.084
戰	-10.0844
令諸	-10.0847
魔事	-10.085
等事	-10.085
此土	-10.0856
出入	-10.0875
初生	-10.0881
普照	-10.0881
官	-10.0885
靜慮	-10.0887
殃	-10.0889
竝	-10.0893
勞	-10.0894
待	-10.0899
鎧	-10.0901
?』「	-10.0904
拔陂	-10.0907
之類	-10.0909
得無生忍	-10.0909
以種種	-10.0911
澤	-10.0913
重擔	-10.0917
卑	-10.0918
須菩提	-10.0922
輪迴	-10.0927
神通力	-10.0929
低	-10.0932
觀者	-10.0935
補特伽羅	-10.0935
捨身	-10.0938
迴向阿耨多羅三藐三菩提	-10.094
寶蓋	-10.0942
舍利	-10.0943
末香	-10.0944
三十五	-10.0949
善解	-10.0965
其事	-10.0966
塗	-10.0972
而於	-10.0973
心者	-10.0974
復更	-10.0978
閻浮	-10.0981
藥王軍	-10.0987
諸大菩薩	-10.0992
唯願如來	-10.0993
為大	-10.0998
我為	-10.0998
除諸	-10.1
於己	-10.1012
那由他	-10.1013
深信	-10.1016
是故如來	-10.1017
經法	-10.1026
放大光明	-10.1027
為得	-10.1035
軍眾	-10.1036
能修	-10.1041
心得	-10.1041
如來所說	-10.1053
無知	-10.1054
常見	-10.1066
佛界	-10.1067
精進力	-10.1068
到已	-10.1078
能善	-10.1079
活	-10.1083
散亂	-10.1098
以法	-10.1102
遵修	-10.1109
具戒	-10.1114
靈	-10.1114
入涅槃	-10.1116
頒宣	-10.1116
見有	-10.1118
懼	-10.1119
本性	-10.1122
迦吒富單那	-10.1122
隨其所	-10.1126
誡	-10.1133
若天	-10.1133
瞿	-10.1134
福者	-10.1134
塞	-10.1138
代	-10.1141
墜	-10.1142
捉	-10.1143
劣	-10.1144
若在	-10.1145
毀呰	-10.1147
能觀	-10.1148
卷第二	-10.1148
此三宿日	-10.1149
呵責	-10.1151
祇	-10.1152
方便智	-10.1154
憍	-10.1156
於空	-10.1159
充足	-10.1159
震動	-10.1161
下劣	-10.1161
土地	-10.1162
初行菩薩	-10.1162
善心	-10.1163
一切種智	-10.1163
卷第十	-10.1163
禮敬	-10.1164
眾具	-10.1164
怛	-10.1164
天中天	-10.1172
歸命	-10.1176
正等正覺	-10.1182
有三摩地名為	-10.1183
諸欲	-10.1183
千劫	-10.1189
復有地獄	-10.1191
行菩薩道	-10.1196
放捨	-10.12
名聞	-10.1211
臭	-10.1224
得三昧	-10.1225
菩提薩埵	-10.1227
菩提之心	-10.1241
任	-10.1242
共相	-10.1244
如來出世	-10.1248
三十七	-10.1258
若諸菩薩	-10.1265
尊者阿難	-10.1282
能施	-10.1286
聖法	-10.1289
〉、	-10.1289
捨心	-10.129
業感	-10.1293
質	-10.1296
蠲除	-10.1302
受報	-10.1322
必當	-10.1329
惡知識	-10.1332
人間	-10.1334
走	-10.1348
我今當	-10.1353
是名如來	-10.1356
地神	-10.1357
銅	-10.1359
得入	-10.1362
法義	-10.1364
頓	-10.1366
惡友	-10.1367
驢	-10.1368
旋	-10.1369
公	-10.1369
剃除鬚髮	-10.137
有四	-10.1374
述	-10.1381
領	-10.1384
堅牢	-10.1385
於世	-10.1385
可愛	-10.1385
功勳	-10.1387
歌舞	-10.1388
以是之故	-10.1389
種諸善根	-10.1391
偏袒右肩	-10.1392
瞻仰	-10.1397
難思議	-10.14
脾	-10.1401
恃	-10.1405
宣暢	-10.1406
一切佛	-10.1414
聚集	-10.1414
乃至一切	-10.1415
是慧	-10.1417
執著	-10.1418
一相	-10.1418
難陀	-10.1423
南無	-10.1424
無量諸佛	-10.143
驚	-10.1437
自心	-10.1437
離煩惱	-10.1438
里	-10.1439
無緣	-10.1457
諸弟子	-10.1458
為令眾生	-10.1459
若此	-10.1461
諸大	-10.1476
利益眾生	-10.1483
觀一切法	-10.1487
斷諸	-10.149
以無	-10.1493
身業	-10.1494
其義	-10.1497
令汝	-10.1501
無差別	-10.1504
空寂	-10.1504
亂心	-10.1505
戒行	-10.1509
心意識	-10.1511
供養佛	-10.1514
印者	-10.1514
此中	-10.1518
如是三昧	-10.1519
問言	-10.1522
穀	-10.1526
滅除	-10.1526
施者	-10.1532
若有人能	-10.1534
或時	-10.1536
知諸法	-10.1538
是善男子	-10.1541
齊	-10.155
佛出世	-10.1556
自大	-10.1563
加持	-10.1565
遊行	-10.1568
尸	-10.1573
倫	-10.1577
身行	-10.1586
尤	-10.1603
依於	-10.1604
應時	-10.1604
一日一夜	-10.1606
教人	-10.1607
昇	-10.161
玄	-10.1612
金色	-10.1613
舍宅	-10.1616
醫藥	-10.1617
臂	-10.1619
杖	-10.1622
無央數	-10.1626
所有諸	-10.1628
如汝所說	-10.1631
諸世間	-10.1632
婆伽婆	-10.1635
得安樂	-10.1636
賒	-10.1637
從初發心	-10.1638
於大眾中	-10.1642
猛火	-10.1644
化度	-10.1646
善權	-10.1646
如人	-10.1647
印所印	-10.1648
第十	-10.1654
雖有	-10.1656
得成	-10.1658
摩那	-10.166
七十	-10.1666
亦是	-10.1668
及諸眷屬	-10.1677
憐愍眾生	-10.1677
不隨	-10.1683
右遶三匝	-10.1683
諸佛所說	-10.1689
色身	-10.1689
則不	-10.169
三十四	-10.1695
鬘	-10.1699
不共	-10.1707
正路	-10.1712
亦無有	-10.1717
不轉	-10.1724
知其	-10.173
永離	-10.1733
角	-10.1737
所造	-10.1739
甲冑	-10.1749
無得	-10.1751
幡蓋	-10.1758
之眾	-10.1759
能入	-10.176
莫能	-10.1763
上下	-10.1767
身中	-10.1769
此即	-10.1772
三有	-10.1772
能解	-10.1776
思想	-10.1778
日光	-10.1781
即當	-10.1785
恨	-10.179
柔和	-10.1793
王舍城	-10.1796
輪轉	-10.1798
能持	-10.1809
妙音	-10.1811
伺察	-10.1812
女身	-10.1813
甚深法	-10.1823
男子	-10.1824
三十八	-10.1825
皆從	-10.1826
休	-10.1833
太	-10.1835
常修	-10.1836
業緣	-10.1841
固	-10.1849
吼	-10.1851
結使	-10.1852
統	-10.1853
奴婢	-10.1854
兄弟	-10.1854
出離	-10.1855
或有變作	-10.1859
須臾	-10.186
譯	-10.186
論云	-10.1861
臨終	-10.1861
貫	-10.1863
三千大千	-10.1865
地獄中	-10.1867
無處	-10.1867
所居	-10.1868
沙門瞿曇	-10.187
慇懃	-10.1874
誹謗正法	-10.188
彼一切	-10.188
疾病	-10.1883
諸波羅蜜	-10.1887
四無量心	-10.1889
福利	-10.1889
消除	-10.1891
金銀	-10.1895
能成	-10.1895
成辦	-10.1897
我等今者	-10.1898
十八不共法	-10.1903
等心	-10.1905
心無厭足	-10.1909
即現	-10.191
牽	-10.1915
亦知	-10.1916
若遇	-10.1919
塗香	-10.1919
彼國	-10.1922
彌勒菩薩	-10.1927
其餘	-10.1936
行故	-10.1942
罪報	-10.1947
第七	-10.1954
以神通力	-10.1961
一切諸天	-10.1967
無等	-10.197
說法者	-10.197
無所依	-10.197
一切天人	-10.1972
不觀	-10.1973
常在	-10.1975
虛空目	-10.1977
善方便	-10.1978
時節	-10.1984
修行者	-10.1991
是故名為	-10.2
如上	-10.2002
文殊師利	-10.2002
意業	-10.2008
隨住	-10.201
妙香	-10.2013
無非	-10.2015
住此	-10.2021
而以	-10.2025
生怖畏	-10.2027
劫數	-10.2035
證得	-10.2036
能護法	-10.204
三十三天	-10.2045
光味	-10.2046
梵天王	-10.2046
其行	-10.2046
罵	-10.2053
平等故	-10.2062
無疑	-10.2068
麤	-10.2077
常懷	-10.2085
噉	-10.2087
寄	-10.2093
皆以	-10.2094
德本	-10.2098
訓	-10.2101
之性	-10.2107
合集	-10.2109
妬	-10.211
陳	-10.211
況復	-10.211
口業	-10.211
罵辱	-10.2111
稱揚	-10.2112
為是	-10.2115
不惜身命	-10.2118
生老病死	-10.2118
頗梨	-10.2118
奚	-10.2121
皆空	-10.2121
諸善法	-10.2125
頂上	-10.2127
以其	-10.213
邪婬	-10.213
則為誼	-10.2136
即說偈言	-10.2138
大集經	-10.2143
本淨	-10.2148
最後	-10.2149
安立	-10.2154
設使	-10.2156
得於	-10.2158
剎那	-10.2162
勤作	-10.2164
見諸佛	-10.2168
而悉	-10.2177
坻	-10.2179
說之	-10.2183
二人	-10.2183
所住處	-10.2193
一切法門	-10.2206
受我	-10.2225
靡不	-10.2226
除去	-10.2241
知色	-10.2245
而起	-10.2254
大智慧	-10.226
深妙	-10.2269
非時	-10.227
阿僧祇	-10.2276
而來	-10.228
眾生故	-10.2282
般涅槃	-10.2283
大利	-10.2287
飾	-10.2292
貪愛	-10.2293
餘人	-10.2295
修福	-10.2295
作此	-10.2296
善哉善哉	-10.2297
大苦	-10.23
念佛三昧	-10.2309
恣	-10.2312
產	-10.2318
所問	-10.2321
佛之	-10.2323
悉當	-10.233
藥草	-10.2338
形相	-10.234
非識	-10.2341
飯	-10.2345
是名菩薩摩訶薩	-10.2348
為其	-10.2348
酒	-10.2352
點	-10.2353
樹林	-10.2356
未來世中	-10.2357
堪	-10.2361
愁	-10.2362
逢	-10.2368
縱廣	-10.237
剎帝利	-10.237
尸羅	-10.2375
枯竭	-10.2376
空無相願	-10.2376
黎	-10.2376
釋提桓因	-10.2376
成阿耨多羅三藐三菩提	-10.2377
心之所興發	-10.2379
篤信	-10.2383
隨逐	-10.2386
復於	-10.2388
不生不滅	-10.239
跛	-10.2392
為說法	-10.2395
得是	-10.2396
真實福田	-10.2402
世尊復告	-10.2404
時魔波旬	-10.2406
若干種	-10.2407
嚩	-10.2412
夫人	-10.2418
當以	-10.2426
敬禮	-10.2428
則見	-10.2429
緣生	-10.2442
三十九	-10.2443
以來	-10.2444
所說法	-10.2447
樂著	-10.2449
迴向菩提	-10.2452
或因	-10.2458
知已	-10.2468
起於	-10.247
云何當得如	-10.247
云云	-10.2475
房	-10.2479
福聚	-10.2481
罣礙	-10.2486
無所行	-10.2491
由旬	-10.2493
已曾	-10.2495
左右	-10.2504
涅槃道	-10.2506
利益安樂	-10.2507
依著	-10.2507
一切法性	-10.251
於過去	-10.252
所欲	-10.2539
毘梨耶波羅蜜	-10.2549
互	-10.2551
審	-10.2552
無量億	-10.2555
累	-10.2556
缺	-10.2556
珍	-10.2557
白佛	-10.2559
妙樂	-10.2563
不瞋	-10.257
欲見	-10.2574
此身	-10.2584
應以	-10.2585
渴	-10.259
逐	-10.2592
得清淨	-10.2593
染著	-10.2594
幽	-10.26
敵	-10.2601
山王	-10.2603
同時	-10.2606
追	-10.2611
有因	-10.2613
為佛	-10.2622
匝	-10.263
墮地獄	-10.2632
有能	-10.2633
菩薩白佛言	-10.2636
修禪	-10.2638
嚧	-10.2638
茂	-10.2638
膩	-10.2641
樂法	-10.2647
惜	-10.2648
知於	-10.2652
信受	-10.2654
於當來世	-10.2655
天耳	-10.2659
作禮	-10.266
遮障	-10.2661
獄中	-10.2662
虗空	-10.2686
梵志	-10.2687
廢	-10.2687
施主	-10.2705
所住	-10.2708
此四天下	-10.2713
會中有	-10.2719
呿伽	-10.2721
復言	-10.2723
唯佛	-10.2723
意識	-10.2731
水火	-10.2736
釋梵	-10.2739
大明	-10.274
如說	-10.2744
未來世	-10.2751
心終	-10.2754
諸方	-10.2755
剎利王	-10.2759
知眾生	-10.2759
其順法者不	-10.2768
覺悟	-10.2775
永不	-10.2778
實無	-10.2783
一毛	-10.2784
【	-10.2785
何法	-10.2797
之報	-10.2802
復問	-10.2807
阿修羅等	-10.2819
忘失	-10.282
暴	-10.282
見諸	-10.2825
世法	-10.2828
實語	-10.2831
慶	-10.2835
脾蛇	-10.2836
腹	-10.2845
有三摩地名	-10.2848
頃	-10.2848
念法	-10.2851
道心	-10.2855
自作	-10.2855
如是如是	-10.2859
見之	-10.2866
升	-10.287
陽	-10.2872
阿彌陀佛	-10.2879
宅	-10.2881
觸惱	-10.2886
老死	-10.2887
接	-10.2888
亦應	-10.2889
並	-10.2889
虛空孕菩薩	-10.289
又善男子	-10.289
停	-10.2891
不相	-10.2891
此即是為	-10.2892
平等心	-10.2893
敷	-10.2894
囑	-10.2894
律儀	-10.2901
溺	-10.2902
者則	-10.2903
唐言	-10.2903
猶豫	-10.2903
一佛	-10.2906
弗	-10.2908
入道	-10.2909
那羅延	-10.291
長壽	-10.2913
受大苦惱	-10.2915
此事	-10.2917
雪山	-10.2918
佛說海意菩薩所問淨印法門經	-10.2923
大甲冑輪	-10.2925
百由旬	-10.2927
正說	-10.2927
虛誑	-10.2929
初又二初	-10.293
有如是相	-10.2932
而坐	-10.2936
大梵天王	-10.294
生念	-10.2942
若魔	-10.2944
輕慢	-10.2951
住世	-10.2954
當作	-10.2955
不息	-10.2956
自見	-10.296
師子座	-10.2963
斷絕	-10.2967
自在定	-10.2969
此佛剎	-10.2971
以何	-10.2973
信根	-10.2974
是心	-10.2981
為壞	-10.2983
諸陰	-10.2984
值遇	-10.2992
因此	-10.2996
正使	-10.2999
住者	-10.3002
凡所	-10.3009
聽者	-10.3014
所起	-10.3022
三寶種	-10.3024
長夜	-10.3026
妙色	-10.3027
知諸	-10.3029
以彼	-10.3029
惡聲	-10.3043
修行菩提道	-10.3045
非有	-10.3053
剎中	-10.3055
我慢	-10.306
二事	-10.3062
空無	-10.3062
王言	-10.3066
見此	-10.3068
歡喜踊躍	-10.307
第八	-10.3071
同共	-10.3073
從是	-10.3074
慳	-10.3074
佛正法	-10.3077
鉢囉	-10.3086
何因緣	-10.3093
洲	-10.3095
深法	-10.3098
得大利益	-10.3102
彼世界	-10.3103
善根者	-10.3104
諸眷屬	-10.3106
意行	-10.3106
毛孔	-10.3109
猛	-10.311
大將	-10.3111
送	-10.3127
是名諸法	-10.3128
隨念	-10.3135
疾得	-10.3145
無有異	-10.3147
宋	-10.3148
長阿含	-10.3152
甚難	-10.3154
猶若	-10.3155
自知	-10.3157
供給	-10.316
爛	-10.3161
煩惱障	-10.3161
毗	-10.3161
馳	-10.3162
而此	-10.3167
而死	-10.3168
菩薩所行	-10.3171
連	-10.3172
能行	-10.3172
樹木	-10.3177
焦	-10.3178
逸	-10.3178
黑闇	-10.3179
八法	-10.318
阿那含	-10.3182
廁	-10.3184
大乘法	-10.3185
對治	-10.3192
宰官	-10.3193
三摩提	-10.3194
非我	-10.3194
卷第五	-10.3195
五穀	-10.3195
姥	-10.3195
我心	-10.3196
故言	-10.3197
知之	-10.3197
三解脫門	-10.3204
諸苦惱	-10.3205
教授	-10.3205
知法	-10.3206
復為	-10.3207
嘍	-10.321
至佛所	-10.3214
如如	-10.3217
初發心菩薩	-10.3217
無一	-10.3219
今世	-10.3221
灑	-10.3223
滅百八	-10.3226
為一	-10.3231
奉事	-10.3231
之聲	-10.3233
不從	-10.3234
寶幢	-10.3235
嘙	-10.3238
求於	-10.3242
天帝釋	-10.3243
假名	-10.3245
毀戒	-10.3256
二萬	-10.3257
闍婆	-10.3258
無生忍	-10.3265
願我	-10.327
實性	-10.3272
修善	-10.3275
是為四	-10.328
二名	-10.328
若知	-10.3281
億那由他	-10.3282
宿命	-10.3284
身口	-10.3284
令不	-10.3288
四魔	-10.3293
士夫	-10.3296
取著	-10.3297
墮惡趣	-10.3297
天上	-10.3307
有佛出世	-10.3308
海慧菩薩	-10.3311
無所生	-10.3312
諸漏	-10.3321
皆大歡喜	-10.3321
勢	-10.3322
摩羅	-10.3323
應受	-10.3336
不名	-10.3336
不違	-10.3336
是謂為	-10.3338
聖女	-10.3341
心懷	-10.3346
我說	-10.3347
見諸眾生	-10.3348
不得令	-10.3348
當校計百八	-10.3352
諸陀羅尼	-10.336
便得	-10.3361
佛弟子	-10.3369
無量世中	-10.3371
於一	-10.3371
不實	-10.3379
止觀	-10.3381
是處	-10.3382
一切悉	-10.3393
得道	-10.3394
十法	-10.3398
給	-10.3404
無壞	-10.3407
白法	-10.3409
更不	-10.3414
我等當	-10.3415
坐於	-10.3418
江	-10.3421
眾生心	-10.3422
眾中有	-10.3423
注	-10.3428
專念	-10.3432
復有無量	-10.3434
)􂚲	-10.3436
於時	-10.3437
聖眾	-10.3451
冷	-10.3455
亦不能	-10.3458
滯	-10.346
懸	-10.3461
乃往古世	-10.3461
悉是	-10.3461
見我	-10.3462
箭	-10.3462
植	-10.3463
夷	-10.3463
支節	-10.3464
寒	-10.3465
房舍	-10.3465
塔寺	-10.3466
如須彌山	-10.347
是則名曰	-10.3471
非時風雨	-10.3473
摩訶衍	-10.3473
生時	-10.3474
太子	-10.3474
恐懼	-10.3474
五千眷屬	-10.3474
寶莊嚴	-10.3478
喜心	-10.3479
還復	-10.348
十善業道	-10.348
承佛威神	-10.3481
百八便	-10.3481
無始	-10.3489
關	-10.3489
敬重	-10.3491
敢	-10.3495
又於	-10.3496
無窮	-10.3498
過患	-10.3499
是故我	-10.3501
助道	-10.3502
盈滿	-10.3502
四大天王	-10.3502
妄想	-10.3507
為因	-10.3507
獨覺乘等	-10.3514
厭離	-10.3514
何名	-10.3517
之樂	-10.3522
侵	-10.3527
比丘僧	-10.3534
令此	-10.3538
分身	-10.3547
請問	-10.3549
皆見	-10.355
摧伏	-10.3551
一切智智	-10.3552
三毒	-10.3556
五通	-10.3557
勤苦	-10.3557
地界	-10.3558
那婆	-10.356
無邊際	-10.356
佛神力	-10.3562
何以	-10.3567
須陀洹	-10.3568
不在	-10.3578
所獲	-10.3582
大乘經典	-10.3583
譏毀	-10.3584
於十方	-10.3585
能示	-10.3587
右遶	-10.3587
三世諸佛	-10.3602
奉持	-10.3602
如是種種	-10.3605
經中	-10.3609
寒熱	-10.3611
藥王軍菩薩	-10.3645
至真	-10.3646
疑心	-10.365
異人	-10.3654
真實知	-10.3663
施戒	-10.3666
心故	-10.3673
來至此	-10.3676
漏盡	-10.3676
是身	-10.3677
佛號	-10.3679
麗	-10.3703
遺	-10.3713
無瞋	-10.3713
呵呵	-10.3713
能盡	-10.3718
發寶心	-10.3723
充	-10.3726
悲愍	-10.3727
測	-10.3727
無依	-10.3727
護念	-10.3733
一切法無	-10.3735
劍	-10.3735
於三世	-10.3735
能壞一切	-10.3739
壁	-10.3748
彼此	-10.3748
怛哩	-10.3749
洗	-10.375
一切勇菩提薩埵	-10.3751
所致	-10.3751
焚燒	-10.3752
身壞命終	-10.3756
辦	-10.3758
慧根	-10.3759
分布	-10.3759
憂愁	-10.3759
漂	-10.3761
澹泊	-10.3764
瓶	-10.3764
福報	-10.3766
兩足尊	-10.3768
假使有人	-10.377
九十	-10.377
上中下	-10.377
善作	-10.3771
大誓莊嚴	-10.3772
無生無滅	-10.3773
出入息	-10.3774
受想行識	-10.3774
善思念之	-10.3774
念念	-10.3775
無量無邊阿僧祇	-10.3778
如來世尊	-10.378
瞋怒	-10.378
不解	-10.378
咨嗟	-10.3781
此由	-10.3781
惡比丘	-10.3783
朋	-10.3784
光目	-10.3786
栴達囉	-10.3787
嫉	-10.3787
如大	-10.3793
人眾	-10.3796
表示一切法	-10.3796
於汝	-10.3797
心生歡喜	-10.3803
世界名	-10.3803
慚	-10.3808
四十二	-10.3811
入息	-10.3813
毒蛇	-10.3815
如是等事	-10.3818
正信	-10.3821
所歸	-10.3825
當為汝說	-10.3829
說於	-10.3831
故須	-10.3835
如是念	-10.3835
而修	-10.3839
受行	-10.3846
憂惱	-10.3851
性相	-10.3851
得須陀洹果	-10.3873
若法	-10.3874
其光	-10.3877
無本	-10.3877
菩薩大士	-10.3877
生天上	-10.3879
未盡	-10.3883
樂於	-10.3891
是觀	-10.3899
百七十	-10.3901
卷第四	-10.3902
樂見	-10.3903
以我	-10.3905
順忍	-10.3907
佛功德	-10.391
智人	-10.3914
果實	-10.3915
得人身	-10.3915
當有	-10.3939
求解脫	-10.394
汝應	-10.3941
三千	-10.3942
諸入	-10.395
以自	-10.3952
現世	-10.3952
淨土	-10.3955
於夢中	-10.3955
多羅	-10.3962
即見	-10.3963
度無極	-10.3964
義理	-10.397
善利	-10.3972
於道	-10.3975
發大	-10.3978
虛空中	-10.3978
無有是處	-10.3982
無罪	-10.3986
若為	-10.3986
輪王	-10.3987
深廣	-10.3991
如金剛	-10.3998
不自知	-10.4002
所化	-10.4003
謗毀	-10.4007
者即	-10.4009
不虛	-10.401
時不空見	-10.4013
法雨	-10.4019
諸結	-10.4026
於正法	-10.4028
信者	-10.4031
擔	-10.4032
狼	-10.4035
所興	-10.4037
音樂	-10.4039
要當	-10.4042
段	-10.4043
見一切法	-10.4043
泉	-10.4043
此菩薩	-10.4044
之苦	-10.4044
驅	-10.4044
不可以	-10.4045
樂受	-10.4045
無際	-10.4045
題	-10.405
可意	-10.4051
聲聞辟支佛	-10.4053
諸世界	-10.4054
鹿	-10.4054
罵詈	-10.4056
漸漸	-10.4057
狂	-10.4058
醉	-10.4058
分別解說	-10.4058
百六十	-10.4059
脚	-10.406
大光明	-10.4061
能斷一切	-10.4061
刀杖	-10.4062
清淨智	-10.4066
酬	-10.4067
佛境界	-10.4069
說是語時	-10.4072
與諸	-10.4073
頭陀	-10.4081
叉手	-10.4081
樹下	-10.4083
羯	-10.4085
無有退轉	-10.4087
無厭足	-10.409
咸共	-10.4092
摧	-10.4093
四十一	-10.4096
四無礙智	-10.4096
!」「	-10.4101
眷屬圍遶	-10.4101
四十五	-10.4103
在世	-10.4107
是故我今	-10.4108
所問經	-10.4109
發起精進	-10.4113
是名正見	-10.4113
不可數	-10.4114
三惡趣	-10.412
云何行	-10.4121
是虛空藏菩薩摩訶薩	-10.4124
悉共	-10.4125
最尊	-10.4131
無增減	-10.4133
根本罪	-10.4135
之後	-10.4142
摩尼寶	-10.4147
吾當	-10.4152
然後乃	-10.4156
之地	-10.416
信力	-10.4161
亦不見	-10.4162
能救	-10.4162
心始	-10.4179
因是	-10.4185
善事	-10.4191
聖行	-10.4195
象王	-10.4196
多人	-10.4197
寂定	-10.4204
不現	-10.4204
佛於是	-10.4211
根性	-10.4212
大劫	-10.4215
譏	-10.4216
汝可	-10.4217
無形	-10.4221
千萬	-10.4221
淨於	-10.4226
十二緣	-10.4226
三藏	-10.4226
炬	-10.423
解脫門	-10.423
於佛法	-10.4233
若自	-10.4233
即是精進	-10.4234
房宿	-10.424
是則名為	-10.4241
之罪	-10.4243
能與	-10.4245
自在力	-10.4246
此則	-10.4246
願行	-10.4247
空行	-10.4253
念處	-10.4256
千佛	-10.4258
愛語	-10.4266
故能	-10.4274
已能	-10.4284
為護	-10.4286
不合	-10.4288
如汝	-10.4296
心中	-10.4299
於閻浮提	-10.43
十輪經	-10.4311
場	-10.4311
光佛	-10.4312
毀禁	-10.4313
供養恭敬	-10.4313
勸化	-10.4316
等言	-10.4319
此間	-10.432
菩薩若	-10.4322
之福	-10.4323
空處	-10.4324
眾生性	-10.4328
顧	-10.4329
章	-10.4331
生疑	-10.4332
博	-10.4339
衛護	-10.4341
參	-10.4342
人身	-10.4344
作業	-10.4346
急	-10.4346
唐	-10.4347
如是說	-10.4348
即於佛前	-10.4348
無出	-10.4349
術	-10.4351
阿差末菩薩	-10.4353
瓔珞莊嚴	-10.4359
佛名	-10.436
敗	-10.4363
陵	-10.4363
族	-10.4366
召	-10.4367
避	-10.4369
舒	-10.437
伐	-10.437
畫	-10.4371
焉	-10.4372
富樓那	-10.4372
羸劣	-10.4374
寫	-10.4374
禽獸	-10.4375
諛諂	-10.4375
育	-10.4376
當念	-10.4378
聞是語已	-10.4379
象馬	-10.438
長養	-10.4383
又言	-10.4388
如上所說	-10.4389
疫病	-10.4391
無所罣礙	-10.4391
無數劫	-10.4396
又此精進	-10.4396
作是思惟	-10.4397
諸山	-10.4398
奉獻	-10.4399
而說頌	-10.4401
四聖諦	-10.4403
諸聲聞眾	-10.4405
何等為八	-10.4406
大菩薩	-10.441
輪故	-10.4411
是苦	-10.443
三惡	-10.4435
能受持	-10.4435
之故	-10.4436
輪也	-10.4439
佛教	-10.4444
時有	-10.4445
諷誦	-10.4447
於三界	-10.4452
香花	-10.4454
小乘	-10.4455
見十方	-10.4463
終不能	-10.4464
依法	-10.4485
能得成就	-10.4491
來集	-10.4493
羅網	-10.4499
行相	-10.4499
觀心	-10.4505
知彼	-10.4506
捨施	-10.4506
便能	-10.4523
雜色	-10.4525
危	-10.4525
種善根	-10.4526
能忍	-10.453
分別說	-10.4535
四王	-10.4542
供養如來	-10.4547
此會	-10.4549
何者是	-10.4552
如日	-10.4556
恭敬合掌	-10.456
不忍	-10.4562
下方	-10.4567
大德世尊	-10.4569
正修行	-10.4569
如本	-10.4576
能見	-10.4586
狀	-10.459
清淨心	-10.4591
大威德	-10.4592
得福	-10.4592
檀越	-10.4592
死魔	-10.4595
得此三昧	-10.46
百千億	-10.4601
若斯	-10.4603
未聞	-10.4604
四流	-10.4607
身分	-10.4607
爾時世尊	-10.4608
故當知是忍	-10.461
上方	-10.4617
是慈	-10.4623
智海	-10.4629
是諸菩薩	-10.4629
或在	-10.463
勝菩提	-10.4634
恭	-10.4642
無復	-10.4645
其形	-10.4645
婦女	-10.4646
瑞	-10.4648
菩薩以	-10.4649
禍	-10.4652
翼	-10.4657
得住	-10.4663
無量菩薩	-10.4665
奢摩	-10.4666
不敢	-10.4668
慧力	-10.467
令離	-10.467
司	-10.4671
觀佛	-10.4671
輕毀	-10.4678
斬	-10.4681
推	-10.4682
魔子	-10.4683
慧命	-10.4688
迹	-10.469
無量世界	-10.469
寐	-10.4693
世尊讚	-10.4693
奇	-10.4693
不肯	-10.4694
發露	-10.4695
心得自在	-10.4695
賴	-10.4696
素	-10.4698
療	-10.4698
慎	-10.4698
命終之後	-10.4699
乃得名戒	-10.4701
是何	-10.4702
狂亂	-10.4703
苗稼	-10.4705
周匝	-10.4705
及彼	-10.4706
佛眼	-10.4707
藥上菩提薩埵	-10.4707
聲聞眾	-10.4708
頻婆娑羅王	-10.4709
能護	-10.471
若曹	-10.471
白衣	-10.471
魔王波旬	-10.4711
言教	-10.4711
愍哀	-10.4711
頭面禮足	-10.4711
久遠	-10.4712
舍摩他	-10.4712
一切法中	-10.4713
弭	-10.4715
無有我	-10.4717
安隱快樂	-10.4718
若有能	-10.4719
如說修行	-10.472
生長	-10.472
歸趣	-10.4721
或有地獄	-10.4723
當如是	-10.4724
正直	-10.4728
繫念	-10.4728
亦不得	-10.473
如佛所說	-10.4732
及其眷屬	-10.4732
所宣	-10.4735
異學	-10.4738
住持	-10.4739
業果	-10.4743
悅可	-10.4744
眾生得	-10.4747
有何	-10.4748
之物	-10.4748
而不能	-10.475
有大威德	-10.475
則能為	-10.4755
八萬	-10.4757
諸菩薩摩訶薩等	-10.4757
觀諸法	-10.476
動轉	-10.4762
本來	-10.4763
識處	-10.4765
苦痛	-10.4765
若菩薩摩訶薩	-10.4766
發意	-10.4772
染污	-10.4772
菩薩亦復如是	-10.4773
師長	-10.4774
得度	-10.4775
希利	-10.4775
諂	-10.4775
不計	-10.4783
慧明	-10.4786
施設	-10.4788
柔	-10.479
正定	-10.4803
如是無量	-10.4804
得無	-10.4807
事者	-10.4807
遮羅	-10.4808
無生法忍	-10.4812
之間	-10.4819
悉入	-10.4823
信敬	-10.4827
利樂	-10.4829
賤	-10.4832
大涅槃	-10.4834
聞此三昧	-10.4844
等法	-10.4853
無病	-10.4853
此二	-10.4856
普為	-10.4858
所成	-10.486
而致	-10.486
真善	-10.4863
電	-10.4863
一切智心	-10.4868
在彼	-10.4877
如法住者	-10.4879
不修	-10.4885
惡眾生	-10.4886
求菩提	-10.4887
演說法	-10.4888
有得	-10.4893
法光明	-10.4893
燒然	-10.4904
不以為	-10.4904
無有二	-10.4905
可見	-10.4909
初禪	-10.4911
阿羅	-10.492
有如是等	-10.4924
與彼	-10.493
阿摩	-10.4934
所愛	-10.4938
無智	-10.4946
甘	-10.4954
生死罪	-10.4969
知此	-10.4974
歸敬	-10.4975
我我所	-10.4978
為諸菩薩	-10.4984
一切佛剎	-10.4984
說偈	-10.4985
歸於	-10.499
胃	-10.4991
六十四	-10.4996
世尊所	-10.5007
羅國	-10.5009
正住	-10.5011
之形	-10.5012
汝若	-10.5012
魚	-10.5012
嬈	-10.5013
愈	-10.5013
鬪	-10.5015
無明闇	-10.5016
伽羅	-10.5018
慰	-10.5021
血肉	-10.5022
中有一	-10.5023
綺	-10.5023
不具	-10.5025
怪	-10.5025
其力	-10.5028
險道	-10.5028
為首	-10.5029
而出	-10.5032
曠	-10.5035
宣揚	-10.5035
城邑聚落	-10.5037
冀	-10.5038
雞	-10.5039
稱量	-10.5041
陰入界	-10.5041
飢	-10.5042
棄捐	-10.5042
由是因緣	-10.5045
無二無別	-10.5046
在在處處	-10.5046
非想非非想處	-10.5047
復說偈言	-10.5047
與虛空等	-10.5048
悅豫	-10.505
障蔽	-10.5051
如法而住	-10.5051
法音	-10.5053
皆應供養	-10.5054
現前三昧	-10.5057
如海	-10.5057
上首	-10.5059
諮問	-10.5063
日藏	-10.5064
止息	-10.5064
瞋恨	-10.5064
常生	-10.5064
於虛空	-10.5065
習氣	-10.5067
歡樂	-10.5072
陰蓋	-10.5072
一切諸惡	-10.5075
又見	-10.5091
諸通	-10.5091
長者子	-10.5092
為供養	-10.5093
不能盡	-10.51
往古	-10.5105
無受	-10.5105
不欲	-10.511
無實	-10.5111
常與	-10.5117
如是大悲	-10.5117
不能自	-10.512
力勢	-10.5121
勿令	-10.5135
解釋	-10.5136
無眾生	-10.5136
菩薩道	-10.5138
之智	-10.5144
法座	-10.5158
能發	-10.516
令人	-10.516
修忍	-10.5161
億百千	-10.5163
更無	-10.5171
於我法中	-10.5171
庶	-10.5177
受諸	-10.5183
供養於佛	-10.5188
標	-10.5188
問佛	-10.5189
欲聞	-10.5192
種種寶	-10.5197
十五日	-10.52
大地獄	-10.52
王佛	-10.5206
加行	-10.5211
大道	-10.5212
復得	-10.522
五事	-10.5221
於聲聞乘	-10.5222
羅婆	-10.5222
菩薩眾	-10.5223
無心	-10.5227
力者	-10.5227
同於	-10.523
不雜	-10.5234
唯見	-10.5236
正勤	-10.524
遶	-10.5241
少欲	-10.5242
善觀	-10.5242
所出	-10.5243
寶性	-10.5244
修善法	-10.5247
堅住	-10.5251
因緣生	-10.5254
乏少	-10.5262
即生	-10.5266
修慈	-10.527
之門	-10.527
大集會	-10.5275
海水	-10.5279
諸天子	-10.5281
初發心	-10.5285
百五十	-10.5291
正智	-10.5291
彼善男子	-10.5296
大罪	-10.53
電光	-10.5302
歡悅	-10.531
病者	-10.5311
從何	-10.5317
之子	-10.532
彼諸菩薩	-10.5321
離相	-10.5328
無起	-10.5332
僧物	-10.5335
墮惡道	-10.5339
射	-10.5339
它	-10.5342
錄	-10.5345
所演	-10.5349
軟	-10.535
啟	-10.535
亦見	-10.535
疏	-10.5352
欣	-10.5353
無欲	-10.5353
豐	-10.5353
貝	-10.5354
乃得	-10.5354
王位	-10.5354
喪	-10.5355
沉	-10.5355
羊	-10.5356
狗	-10.5358
雅	-10.5361
氏	-10.5364
爾所	-10.5365
無性	-10.5365
兼	-10.5367
齒	-10.5369
算	-10.5372
摩醯首羅	-10.5373
念力	-10.5374
談	-10.5374
於世尊前	-10.5374
羅睺羅阿修羅王	-10.5375
丘	-10.5375
星生者	-10.5377
等無有異	-10.5378
牢固	-10.5378
是則名戒	-10.5379
輕重	-10.5379
周旋	-10.538
護世	-10.5382
質直	-10.5382
喜悅	-10.5383
咤	-10.5383
我念往昔	-10.539
知是	-10.5393
為他說	-10.5394
可說	-10.5396
大人相者	-10.5397
受諸苦惱	-10.5397
隨所在處	-10.5397
其地	-10.5397
親近善友	-10.5397
不二	-10.5397
涅	-10.5398
寶德	-10.5398
綺語	-10.5399
諸天世人	-10.5401
見法	-10.5402
從坐而起	-10.5405
諸經	-10.541
為他說法	-10.5412
速能	-10.5422
所有一切	-10.5429
不退轉地	-10.5433
六通	-10.5436
無物	-10.5436
不可取	-10.5436
於彼國土	-10.5438
於色	-10.5438
不疑	-10.544
一偈	-10.5445
作證	-10.5445
夢中	-10.5446
於人	-10.5448
覺分	-10.5451
伺察者	-10.5452
生死流轉	-10.5452
得不退轉	-10.5453
正真	-10.5456
苦海	-10.5457
淨妙	-10.5458
護戒	-10.5467
或見	-10.547
所觀	-10.5472
三行	-10.5474
隨有	-10.5475
四事	-10.5475
過去世	-10.5477
而去	-10.5481
悉無	-10.5482
盡智	-10.5486
備悉	-10.5488
攝持	-10.5488
獄卒	-10.5489
勤作者	-10.549
諸佛土	-10.5492
豐饒	-10.5493
先世	-10.55
能調	-10.5505
八種	-10.5505
功德天	-10.5506
所不能	-10.5506
正語	-10.5509
亦以	-10.5513
於戒	-10.5517
來者	-10.5521
由是	-10.5529
寶鬘	-10.5531
不安	-10.5534
又能	-10.5537
彼則	-10.5544
皆不	-10.5555
花果	-10.5557
契	-10.5558
猗	-10.5559
造惡	-10.5565
以手	-10.5569
一切外道	-10.5573
見是	-10.5578
難思	-10.5581
愧	-10.5582
各自	-10.5584
卒	-10.5589
)「	-10.5591
出現	-10.5591
而言	-10.5596
兜	-10.5602
轉增	-10.5605
此剎	-10.5611
闇冥	-10.5617
諸惡業	-10.5617
遠離於	-10.5617
閻羅	-10.563
八千	-10.5635
惡龍	-10.5637
放光	-10.5637
諸王	-10.5641
其國	-10.5643
宿等日	-10.5643
然彼	-10.5648
宿世	-10.5649
心清淨	-10.5651
即與	-10.5655
發者	-10.5658
實相	-10.566
歡	-10.5671
於彼何者	-10.5673
種種色	-10.5674
咃	-10.5682
四攝	-10.5689
力能	-10.5692
實非	-10.5694
即不能	-10.5695
恩愛	-10.5696
不害	-10.5696
黠	-10.5697
能除斷	-10.57
▁爾時	-10.5703
聽我	-10.5707
群	-10.5714
住在	-10.5716
鈍	-10.5716
灰	-10.5717
喚	-10.5717
甲	-10.5718
一字	-10.5718
一子	-10.5719
剛	-10.572
天帝	-10.572
憐	-10.5722
闍羅	-10.5723
震	-10.5726
健	-10.5726
有三種	-10.5726
朝	-10.5726
隣	-10.5727
看	-10.5727
荒	-10.573
無障	-10.573
藉	-10.5731
逮成佛道	-10.5732
九十五	-10.5732
受於	-10.5736
斯陀含	-10.5737
昏	-10.5738
竪	-10.5739
毀辱	-10.574
結加趺坐	-10.574
具大	-10.5741
慧眼	-10.5741
微細	-10.5741
穢濁	-10.5741
拔濟	-10.5741
獨步	-10.5741
正觀	-10.5742
百千萬	-10.5743
偷盜	-10.5743
狐疑	-10.5743
怨家	-10.5744
四神足	-10.5744
剎利旃陀羅	-10.5745
枯	-10.5745
欝	-10.5746
不可窮盡	-10.5746
馬瑙	-10.5747
合會	-10.5748
翅	-10.5749
此諸眾生	-10.5751
卷第一	-10.5752
願向菩提	-10.5753
斗宿	-10.5753
踰	-10.5754
憍尸迦	-10.5755
又發起者	-10.5756
徒眾	-10.5759
菩薩摩訶薩成就此輪	-10.5759
佛告梵王	-10.5762
資具	-10.5763
恒河沙數	-10.5764
一切世界	-10.5765
此閻浮提	-10.5765
汝今當知	-10.5766
法語	-10.577
佛告舍利弗	-10.5772
所得功德	-10.5772
得離	-10.5773
犁	-10.5774
真善剎利	-10.5776
彼中	-10.5776
此非	-10.5777
深義	-10.5782
駄	-10.579
一切諸來大眾	-10.5795
濘	-10.5797
福業	-10.5797
乃是	-10.5798
摧滅	-10.5804
大眾中	-10.5809
人中尊	-10.582
增減	-10.5822
弊惡	-10.5822
無聲	-10.5822
油	-10.5827
安忍	-10.5828
優	-10.5828
中出	-10.5831
昴宿	-10.5834
受是	-10.5834
方面	-10.5835
但為	-10.5835
曼	-10.5836
功德莊嚴	-10.5837
樂行	-10.5837
故有	-10.5846
慈悲心	-10.5851
修禪定	-10.5851
一切眾會	-10.5851
百千那由他	-10.5855
空三昧	-10.5864
觀音	-10.5865
皆生	-10.5867
氐宿	-10.587
一切苦	-10.587
聞此法門	-10.5871
又其	-10.5871
寶髻	-10.5872
方等	-10.5875
種種諸	-10.5876
三結	-10.5878
柳宿	-10.5879
亦悉	-10.5889
見於	-10.5897
處於	-10.5898
道中	-10.5899
眾多	-10.5902
真金	-10.5916
魔軍	-10.592
不喜	-10.5922
菩薩所	-10.5923
若離	-10.5925
甚大	-10.5925
王所	-10.5926
右	-10.5928
師子王	-10.5938
性空	-10.5939
當復	-10.5939
不及	-10.5944
又云	-10.5944
我若	-10.5945
及其	-10.5946
則知	-10.5955
淨行	-10.5957
於諸如來	-10.5959
知色無	-10.596
倚	-10.5966
彼彼	-10.5966
張宿	-10.5971
相者	-10.5971
大陀羅尼	-10.5977
三受	-10.5978
彼佛世界	-10.5983
我欲	-10.5984
同聲	-10.5986
作事	-10.5995
生信	-10.6003
兜率天	-10.6012
汝等應當	-10.6021
不悔	-10.6027
虛宿	-10.6028
進退	-10.6028
一切諸佛世尊	-10.6029
正受	-10.6032
當於	-10.6039
諸寶	-10.6041
價	-10.6044
詞	-10.6046
習行	-10.6048
譽	-10.6056
供養諸佛	-10.6056
涌	-10.6058
遍照	-10.606
是以	-10.6068
婁宿	-10.6074
五千	-10.6075
一切諸魔	-10.608
一生補處	-10.6082
判	-10.6083
聞名	-10.6085
斗	-10.6088
僕	-10.6088
凶	-10.6091
窟	-10.6093
焚	-10.6093
較	-10.6094
翳	-10.6095
三事	-10.6096
心淨	-10.6098
鳴	-10.6099
陣	-10.6101
四攝法	-10.6103
闡	-10.6103
厚	-10.6104
洗浴	-10.6104
如來知	-10.6106
以是緣故	-10.6106
慳悋	-10.6106
銷滅	-10.6106
良藥	-10.6107
是為賢聖之正見也	-10.6107
群黎	-10.6108
行住坐臥	-10.6108
吐	-10.6108
耆	-10.611
有五	-10.6112
聰慧	-10.6112
沈	-10.6112
務	-10.6113
退坐一面	-10.6113
逼迫	-10.6113
生歡喜	-10.6113
食噉	-10.6114
者名為	-10.6114
諸色	-10.6114
陰界入	-10.6115
虛偽	-10.6115
夜叉大將	-10.6115
寺舍	-10.6116
願樂欲聞	-10.6117
白彼佛言	-10.6117
擾亂	-10.6118
定力	-10.6119
王舍大城	-10.612
作大福田	-10.612
瞋忿	-10.612
繫屬	-10.6121
具大慈悲	-10.6122
作是語已	-10.6122
自言我無罪	-10.6124
若念	-10.6125
墮落	-10.6125
樂修	-10.6127
忽然	-10.6129
于時	-10.6132
發勤精進	-10.6134
瑕穢	-10.6134
穿	-10.6135
禰	-10.6143
聞正法	-10.615
真正	-10.6151
此界	-10.6155
所有功德	-10.6159
高座	-10.6164
一切行	-10.6164
威光	-10.6165
勤修精進	-10.6169
此經典	-10.6169
無量劫	-10.6171
常求	-10.6173
墮於	-10.6175
繩	-10.6179
無上大乘	-10.6179
守護供養	-10.6181
不須	-10.6181
善見	-10.6186
甚深經典	-10.6186
俗人	-10.6193
令入	-10.6194
踊躍	-10.6207
不識	-10.6209
無覺	-10.622
告言	-10.6222
無減	-10.6224
貪心	-10.6225
是定	-10.6226
不善法	-10.6226
廣說乃至	-10.6228
法味	-10.6232
清淨者	-10.6233
塵欲	-10.6236
為善知識	-10.6241
嘆	-10.6243
才	-10.6251
諸惡眾生	-10.6252
不忘失	-10.6262
宣說正法	-10.6267
令彼眾生	-10.6271
作佛事	-10.6272
菩薩摩訶薩亦復如是	-10.6274
一切勇猛	-10.6274
從本	-10.6275
大菩提	-10.6277
作沙門	-10.6277
極惡	-10.6292
其心平等	-10.6296
如是名為	-10.6299
淨光	-10.63
乾闥婆等	-10.6303
九十九	-10.6305
婁	-10.6307
魔言	-10.6311
則無有	-10.6312
凡有	-10.6328
設有	-10.6328
群生	-10.6332
如是三	-10.6335
生人天	-10.6336
眾生煩惱	-10.6337
誑惑	-10.6342
心相	-10.6343
非處	-10.6346
忿	-10.635
諦觀	-10.6355
階	-10.636
不護	-10.636
我反	-10.6366
調柔	-10.6368
意力	-10.6371
嚴淨	-10.6379
動搖	-10.6383
光照	-10.6384
至彼	-10.6386
非離	-10.6394
如月	-10.6395
所樂	-10.6395
當生	-10.64
向佛	-10.6404
無可	-10.6406
大悲心	-10.6413
如地	-10.6416
造惡業	-10.6417
若是	-10.642
法相	-10.6421
毫	-10.6421
說呪曰	-10.6427
同名	-10.6431
此處	-10.6433
國中	-10.6434
不眴菩薩	-10.6435
說偈言	-10.6435
如響	-10.6438
百四十	-10.644
於無量劫	-10.6445
得受記	-10.6449
詳	-10.645
唱言	-10.645
弟	-10.6453
競	-10.6457
何謂菩薩	-10.6462
案	-10.6462
弱	-10.6462
佛所說	-10.6463
偽	-10.6464
巧方便	-10.6464
無法	-10.6465
寤	-10.6465
天華	-10.6466
託	-10.647
所入	-10.6471
哭	-10.6472
漿	-10.6473
時舍利弗	-10.6473
雄	-10.6473
諸禪	-10.6474
有十	-10.6475
妻	-10.6475
仍	-10.6475
獻	-10.6475
寶聚	-10.6476
淚	-10.6478
爾乃	-10.6478
借	-10.6479
念心	-10.6479
黑暗	-10.648
謫罰	-10.6481
奈	-10.6482
屋宅	-10.6484
屈	-10.6485
牢獄	-10.6485
化人	-10.6486
盡力	-10.6487
諸惡趣	-10.6489
娑婆呵	-10.649
我曹	-10.6491
作是觀已	-10.6491
田宅	-10.6492
百千劫	-10.6493
日用事	-10.6494
訶䫂	-10.6494
以慧	-10.6495
枯涸	-10.6495
早	-10.6495
毒藥	-10.6496
七覺分	-10.6496
資財	-10.6496
優波離	-10.6496
憎愛	-10.6497
壯	-10.6497
三月	-10.6497
商主	-10.6497
伽樓羅	-10.6497
乃至迦吒富單那	-10.6497
一身	-10.6499
童男童女	-10.6499
得大自在	-10.65
遊步	-10.65
聖母	-10.6501
授阿耨多羅三藐三菩提記	-10.6501
不輕	-10.6502
㝹	-10.6505
即從坐起	-10.6505
生者	-10.6506
損耗	-10.6506
勒	-10.6506
大寶坊中	-10.6506
以權方便	-10.6507
佛問諸菩薩	-10.6507
能令一切	-10.6509
揭	-10.6511
世尊說	-10.6511
了達	-10.6511
諸菩薩問佛	-10.6512
攝護養育	-10.6512
讀經	-10.6513
能滿	-10.6514
禮佛	-10.6515
樂說無礙	-10.6517
跋帝	-10.6517
出息	-10.6522
栴檀香	-10.6523
非法器	-10.6524
報恩	-10.6525
菩提分法	-10.6526
禪思	-10.6529
海中	-10.6529
阿羅漢果	-10.6536
苦報	-10.6536
能分別	-10.6541
名如法住	-10.6542
聖教	-10.6543
我今以彼	-10.6547
多羅樹	-10.655
通利	-10.6552
此三	-10.6552
復令	-10.656
若作	-10.656
長短	-10.656
一切諸法亦復如是	-10.6563
念誦	-10.6565
戒禁	-10.6565
過諸	-10.6568
佛輪	-10.6573
惡報	-10.6573
何等為三	-10.6576
希求	-10.6577
分明	-10.658
是二	-10.658
著袈裟	-10.6581
十千	-10.6582
令解脫	-10.6587
墮三惡道	-10.6591
如是甚深	-10.6598
受安樂	-10.6599
何因	-10.6599
天主	-10.6602
十由旬	-10.6604
作種種	-10.661
一面	-10.6619
度彼岸	-10.6626
幻化	-10.6627
是持	-10.6629
兩手	-10.6634
得脫	-10.6641
如是一切	-10.6641
多諸	-10.6642
為菩薩	-10.6645
皆已	-10.6646
調眾生	-10.6654
行願	-10.6655
大功德	-10.666
皆發阿耨多羅三藐三菩提心	-10.6661
智故	-10.6662
無勝	-10.6663
皆同	-10.6666
尚不能	-10.6668
學是三昧	-10.6669
聞經	-10.667
蓮華上	-10.6673
定慧	-10.6674
既得	-10.6679
若入	-10.6681
是初發	-10.6684
廣宣	-10.6685
於自	-10.6689
受之	-10.6689
心如實知	-10.6693
一處	-10.6696
經行	-10.6697
我之	-10.6699
法樂	-10.6699
菩提樹下	-10.6713
我等亦	-10.6718
一塵	-10.6721
修諸	-10.6721
如來身	-10.6723
非常	-10.6723
須彌山王	-10.6724
此四	-10.6725
法已	-10.6731
水中	-10.6732
大論	-10.6732
其名曰	-10.6741
無量劫中	-10.6747
今以	-10.6749
眾善	-10.6752
四十四	-10.6757
復見	-10.6757
如我所	-10.6758
猶如大海	-10.676
於心	-10.6764
及眷屬	-10.6764
斷常	-10.6766
如是行者	-10.6768
不久當	-10.6772
而說	-10.6775
見他	-10.6779
所為	-10.6782
迦國	-10.6782
華嚴	-10.6785
法句	-10.6786
即無	-10.6796
忍力	-10.6806
無有疑	-10.6808
智光	-10.6809
平等無二	-10.6811
皆應	-10.6819
其佛	-10.682
成就無量	-10.682
之想	-10.6829
世事	-10.6829
修定	-10.6833
此之	-10.6837
為一切眾生	-10.6839
波利	-10.6839
百劫	-10.6839
返	-10.6848
殿	-10.6852
潛	-10.6857
不能動	-10.6857
欲來	-10.6858
彰	-10.686
淺	-10.6861
得勝	-10.6862
防	-10.6864
法寶	-10.6868
普勇菩薩	-10.6868
乖	-10.6872
延	-10.6872
默	-10.6873
吞	-10.6877
問訊	-10.6877
四法	-10.6878
天龍八部	-10.6879
折	-10.688
猶若虛空	-10.6881
殖	-10.6882
愆	-10.6884
嫌	-10.6886
見其	-10.6887
栽	-10.6891
所獲福聚	-10.6891
如風	-10.6892
佛告藥上菩提薩埵	-10.6892
助歡喜	-10.6894
犯根本重罪	-10.6896
珊瑚	-10.6897
却坐一面	-10.6897
呵罵	-10.6898
善家子善家女	-10.6899
來世	-10.6899
擯	-10.69
藪	-10.6902
多地也他	-10.6903
富伽羅	-10.6904
具足如是	-10.6906
得阿羅漢果	-10.6906
誦經	-10.6909
=	-10.6911
三昧正受	-10.6912
亦說無	-10.6913
不苦不樂	-10.6914
音響	-10.6914
敷演	-10.6915
良醫	-10.6916
涅槃之道	-10.6917
可畏	-10.6919
伺察門	-10.6921
活命	-10.6921
教誨	-10.6921
衣服飲食	-10.6923
請問如來	-10.6923
以偈讚	-10.6923
道意	-10.6927
根源	-10.6929
雜染	-10.693
非即	-10.6931
花鬘	-10.6933
箕宿	-10.6933
所集	-10.6937
堅持	-10.694
各異	-10.6941
毒害	-10.6941
婬欲	-10.6942
作師子吼	-10.6943
雖知	-10.6946
無有障礙	-10.6954
為人說	-10.6955
不眴	-10.6957
觀眾生	-10.6958
失行	-10.6963
與之	-10.6969
四面	-10.697
二邊	-10.6975
一切功德	-10.6975
遍知	-10.6976
度世	-10.6983
無有能	-10.6983
眼根	-10.6985
之功	-10.6986
眼色	-10.6988
無有邊	-10.6989
惟願	-10.6989
一向	-10.6991
若男	-10.6994
所著	-10.6996
來此	-10.6997
末世	-10.6999
其中眾生	-10.7001
何者為	-10.7002
眾病	-10.7013
善分別	-10.7016
十方界	-10.7017
悔過	-10.7018
非無	-10.7023
三萬	-10.7026
或求	-10.7027
天人大眾	-10.7028
般	-10.7028
彼岸故	-10.7036
能調伏	-10.7036
無間地獄	-10.7037
一切人民	-10.7041
欲入	-10.7043
髓	-10.7049
知諸眾生	-10.7052
大人	-10.7053
四十六	-10.706
盡滅	-10.7067
能使	-10.7069
何等法	-10.707
見如	-10.7075
為眾生說	-10.7078
而彼菩薩	-10.7079
非人	-10.7082
病人	-10.7085
眼目	-10.7087
行人	-10.7089
貌	-10.7092
是經典	-10.7093
往生	-10.7095
之難	-10.7096
常能	-10.7097
不還	-10.7098
聞其	-10.71
未能	-10.7101
天衣	-10.7101
離散	-10.7101
菩薩爾時	-10.7102
婆囉	-10.7103
超勝一切聲	-10.7115
辭無礙	-10.7116
滅定	-10.7119
因緣法	-10.712
大名稱	-10.7121
者是	-10.7127
亢宿	-10.7133
更有	-10.7136
有生	-10.7137
生苦	-10.7142
百八十	-10.7144
梵音	-10.7151
眾事	-10.7151
散滅	-10.7152
熾	-10.7152
彼等眾生	-10.7162
諸佛剎土	-10.7171
祭之	-10.7175
我今欲	-10.7176
世尊即	-10.718
此義	-10.7181
數量	-10.7184
若佛	-10.7186
生起	-10.7186
所有善根	-10.7189
魔眷屬	-10.7192
知我	-10.7196
瞋心	-10.72
之文	-10.7201
常為一切	-10.7203
普為一切	-10.7203
弊	-10.7205
心所	-10.7211
不斷絕	-10.7213
陀那	-10.7218
諸事	-10.7219
眾德	-10.7222
高下	-10.7222
是三昧者	-10.7225
伽陀	-10.7231
不當	-10.7237
勝智	-10.7241
險	-10.7245
如是經典	-10.7247
諸來	-10.7247
知者	-10.7254
財利	-10.7255
滅壞	-10.7259
一生	-10.7261
樓閣	-10.7263
例	-10.7266
劫名	-10.7268
於一切處	-10.7269
彼即	-10.7271
不足	-10.7272
按	-10.7272
譬如大海	-10.7276
不可稱	-10.7281
於大乘法	-10.7281
智慧莊嚴	-10.7282
塔廟	-10.7283
保	-10.7283
施福	-10.7284
諸國土	-10.7285
瘡	-10.7287
抱	-10.7288
積聚	-10.7289
灌	-10.7289
弗沙	-10.729
顏	-10.729
膝	-10.729
下賤	-10.7292
眼見	-10.7292
彼法	-10.7292
旨	-10.7292
世間眾生	-10.7294
出於	-10.7294
弘誓	-10.7297
嶮	-10.7297
踊	-10.73
改	-10.73
憙	-10.7301
同是	-10.7303
佛事	-10.7303
工巧	-10.7304
叢林	-10.7304
無命	-10.7305
選擇	-10.7305
梯	-10.7309
恒河沙等諸佛世界	-10.7311
淨居天	-10.7312
槃	-10.7312
莎波呵	-10.7312
承他音	-10.7312
說是偈已	-10.7313
恒河	-10.7313
渴愛	-10.7314
何等為五	-10.7315
伏藏	-10.7316
四正勤	-10.7316
堅強	-10.7318
諸妙	-10.7318
八聖道分	-10.7318
所說正法	-10.732
決擇	-10.732
種類	-10.7322
如意寶珠	-10.7325
汝今諦聽	-10.7325
菩	-10.7328
而知	-10.7329
佛知	-10.733
必得	-10.7332
於一念頃	-10.7333
生希有心	-10.7335
牛王	-10.7335
覆藏	-10.7338
善權方便	-10.7339
不妄置立	-10.734
為他人說	-10.7342
聽受正法	-10.7343
邪論	-10.7343
定自在王	-10.7343
猶如金剛	-10.7345
法教	-10.7346
業故	-10.7348
一百	-10.7352
入於涅槃	-10.7353
容受	-10.7359
馱	-10.7359
未生	-10.7361
十方諸	-10.7366
前際	-10.7367
不貪著	-10.7368
時王	-10.7372
諸三摩地	-10.7375
逼惱	-10.7378
而得自在	-10.7382
』	-10.7385
知識無	-10.7385
無缺	-10.7386
胃宿	-10.7388
汁	-10.7391
佛性	-10.7393
證菩提	-10.7393
有八萬四千	-10.7395
火燒	-10.7395
胡麻	-10.7396
無依行	-10.74
觀諸	-10.74
大梵天	-10.7403
摩呵	-10.7406
佛神力故	-10.7408
而現	-10.7408
得解	-10.7411
彼菩薩摩訶薩	-10.7415
一切諸行	-10.7415
能到	-10.7415
人等	-10.7418
無我我所	-10.7424
定心	-10.743
詣彼	-10.7432
煩惱魔	-10.7434
成就眾生	-10.7435
如是觀已	-10.7437
流轉生死	-10.7441
如是相	-10.7442
如今	-10.7443
大利益	-10.7446
神通變化	-10.7449
優波	-10.7454
自念	-10.746
修菩提	-10.7464
無憂	-10.7465
若住	-10.7466
可謂	-10.7467
隨彼	-10.7473
光明照	-10.7475
淨信心	-10.7475
吾今	-10.7476
眾魔	-10.7477
陀羅尼門	-10.7481
無自性	-10.7485
得法	-10.7488
之德	-10.7489
定根	-10.749
欲令眾生	-10.7491
莊嚴於	-10.7492
於身	-10.7492
大乘者	-10.7495
我者	-10.7496
於斯	-10.7501
不絕	-10.7505
佛法僧	-10.751
諸佛菩薩	-10.7517
四十八	-10.7522
滅後	-10.7528
我於彼	-10.7528
在此	-10.7531
變成	-10.7533
不厭	-10.7535
彼亦	-10.7536
當得阿耨多羅三藐三菩提	-10.7537
億劫	-10.7537
如是諸	-10.754
若說	-10.7541
舍婆	-10.7541
經卷	-10.7543
佛出	-10.7544
明識	-10.7546
其心清淨	-10.7552
獲大	-10.7553
現作	-10.7554
彼有	-10.7561
威神力故	-10.7564
遙見	-10.7573
惡王	-10.7574
想念	-10.7574
受諸苦	-10.7576
無邊身	-10.7577
出世法	-10.7577
妙華	-10.7579
向彼	-10.7581
不誑	-10.7585
五戒	-10.7591
惡言	-10.7597
獲得如是	-10.7601
問如來	-10.7604
不空見菩薩	-10.7607
謂一切法	-10.7609
將來	-10.7612
於諸有情	-10.7617
之前	-10.7617
從心	-10.7619
誘	-10.7621
所立	-10.7624
所因	-10.7625
是真	-10.7626
五趣	-10.7632
阿鼻	-10.7633
為惡	-10.7634
常處	-10.7636
有相	-10.764
諸魔眾	-10.764
無有邊際	-10.7644
退沒	-10.7646
滿中	-10.7646
大千	-10.7646
二百	-10.7648
悉來	-10.7648
下至	-10.765
常有	-10.7656
補	-10.7661
繫心	-10.7667
為愛	-10.7667
涅槃樂	-10.7674
一類	-10.7674
之上	-10.7678
除斷	-10.7682
觀世音菩薩	-10.7684
皆成	-10.7686
種種莊嚴	-10.7687
五蓋	-10.7687
相似	-10.769
那羅	-10.7691
奎宿	-10.7691
最初	-10.7691
若女	-10.7692
品第	-10.7695
常說	-10.7696
相違	-10.7697
途	-10.7697
生死海	-10.7697
徵	-10.7701
而是	-10.7702
不愛	-10.7704
牀	-10.7704
目連	-10.7712
樂求	-10.7713
自謂	-10.7713
承事供養	-10.7716
秪	-10.7717
一切法界	-10.7718
煩	-10.772
濕	-10.7721
劇	-10.7722
剋	-10.7723
胸	-10.7724
駈	-10.7727
年少眾生	-10.7727
受勝妙樂	-10.7728
常作	-10.7729
莖	-10.7733
村	-10.7734
囑累	-10.7736
天藏大梵	-10.7737
巨	-10.7737
三解脫	-10.7738
男夫婦女	-10.7738
學者	-10.7739
此娑婆世界	-10.7739
其無	-10.7741
大乘大集地藏十輪經	-10.7741
蔽礙	-10.7743
并諸眷屬	-10.7745
據	-10.7745
為難	-10.7745
涉	-10.7747
而度脫之	-10.7748
非積聚不可	-10.7748
悲泣	-10.7749
奇哉	-10.775
到於彼岸	-10.775
阿須倫	-10.775
竹	-10.775
誤	-10.7751
菩薩不退印	-10.7751
亦離	-10.7751
耽	-10.7751
得法眼淨	-10.7752
燒香	-10.7752
作是觀時	-10.7752
供養世尊	-10.7752
三脫門	-10.7753
鮮潔	-10.7755
深固	-10.7755
呪術	-10.7755
諮受	-10.7758
疲倦	-10.7759
誰當	-10.7759
藥上菩提薩埵摩訶薩埵	-10.776
塵垢	-10.776
𠼝	-10.776
善語	-10.7766
耆闍崛山	-10.7766
五十三	-10.7766
諸菩薩報佛	-10.7768
六情	-10.7769
[	-10.7769
法時	-10.7771
童女	-10.7771
皆來	-10.7772
阿那含果	-10.7773
雲集	-10.778
佛告寶女	-10.7781
穢惡	-10.7784
照耀	-10.7789
四十三	-10.7789
之內	-10.7793
翼宿	-10.7793
問答	-10.7793
三品	-10.7794
佛告阿難	-10.7796
與眾生	-10.7796
諸惡業障	-10.7799
無有差別	-10.7799
渴仰	-10.7801
法性爾	-10.7805
達摩	-10.7808
為斷	-10.7808
如是念已	-10.7808
自恣	-10.7809
以天	-10.781
!』	-10.7812
一一眾生	-10.7814
是空	-10.7818
四無量	-10.7822
有一人	-10.7823
生死河	-10.7828
山林	-10.7829
財施	-10.7829
了義	-10.783
辟	-10.783
聖智	-10.7832
於空中	-10.7832
彼王	-10.7833
非不	-10.7838
一切諸眾生	-10.7838
獨處	-10.784
復生	-10.7841
一切諸龍	-10.7842
有四種	-10.7843
而為供養	-10.7844
法無礙	-10.7849
知一切法無	-10.7849
日夜	-10.785
次復	-10.7857
流出	-10.786
龍神	-10.7864
專心	-10.7867
之數	-10.7871
咸皆	-10.7874
必定	-10.7876
彼於	-10.7878
世中	-10.7879
以智慧	-10.788
於後	-10.7882
天中	-10.7886
中生	-10.7888
八十四	-10.7888
佛菩提	-10.7892
復還	-10.7894
他故	-10.7898
魔怨	-10.79
正命	-10.7905
即名為	-10.7913
法行比丘	-10.7926
從其	-10.7928
是名為慧	-10.793
止住	-10.7933
寶手	-10.794
危宿	-10.7942
如影	-10.7943
喻如	-10.7961
如來十力	-10.7964
大捨	-10.7976
諸病	-10.7981
一一皆	-10.7983
口言	-10.7986
我又	-10.7988
念於	-10.7989
諸物	-10.799
斯等	-10.7991
行步	-10.7995
變為	-10.7996
獨覺乘法	-10.7997
有此	-10.7997
出時	-10.7999
此言	-10.8007
持禁戒	-10.8012
有所說	-10.8013
自歸	-10.8017
使令	-10.8024
念慧	-10.8024
謂菩薩	-10.803
不思	-10.803
不證	-10.8035
阿蘭若	-10.8049
井宿	-10.8057
大城	-10.8059
之所行	-10.806
行時	-10.8068
大自在	-10.807
諸聖	-10.8072
三道	-10.8074
罪過	-10.8081
口中	-10.8082
色如	-10.8089
一切眾生心	-10.8093
心所念	-10.8096
未曾聞	-10.8099
恭敬禮拜	-10.8103
大水	-10.8104
志心	-10.8109
城中	-10.811
非因	-10.8118
辛	-10.812
假令	-10.8121
菩提行	-10.8122
能過	-10.8123
自得	-10.8123
精進根	-10.8128
遮遮	-10.8132
於無量	-10.8139
各以	-10.814
法幢	-10.8143
名利	-10.8144
斷於	-10.8146
能除一切	-10.8149
大導師	-10.815
空性	-10.8151
是名曰	-10.8151
眾所	-10.8153
諸趣	-10.8154
餘乘	-10.8154
為一切	-10.8157
明見	-10.8157
六種震動	-10.8159
空相	-10.8165
耗	-10.8165
最為	-10.8166
迎	-10.8169
斧	-10.8171
算數	-10.8172
不順	-10.8172
忍者	-10.8175
幡	-10.8176
昧	-10.8176
係	-10.8178
附	-10.818
名為淨印	-10.818
彼佛言	-10.8181
橋	-10.8182
擾	-10.8185
以佛	-10.8185
諸邪見	-10.8187
滴	-10.8187
納	-10.8187
醜陋	-10.8188
截	-10.8188
軌	-10.8188
騰	-10.8189
楚	-10.8189
黎庶	-10.819
傾	-10.819
朗	-10.8191
惡毒	-10.8192
採	-10.8193
罪苦眾生	-10.8194
聾	-10.8194
善根故	-10.8195
開顯	-10.8197
人非人	-10.8197
墮於惡道	-10.8197
芽	-10.8198
囉婆	-10.8198
積累	-10.8199
覆蔽	-10.8202
法空	-10.8202
頻婆羅	-10.8203
聽許	-10.8205
南閻浮提	-10.8206
不增不減	-10.8208
恐畏	-10.8208
調戲	-10.8209
畢宿	-10.821
無上正等菩提	-10.8211
奇特	-10.8213
居家	-10.8213
一切五欲皆	-10.8213
菩薩摩訶薩言	-10.8213
不求果報	-10.8214
增進	-10.8214
神呪	-10.8214
滿足六波羅蜜	-10.8215
婆利	-10.8216
大梵王	-10.8216
令彼佛土一切	-10.8217
婆邏	-10.8217
逼切	-10.8223
燈明	-10.8223
名譽	-10.8223
有能至心稱名	-10.8223
於三寶中	-10.8223
猛利	-10.8225
攝心	-10.8227
過去未來現在	-10.8227
已到第一	-10.8228
能自	-10.8237
閻浮眾生	-10.8237
欲知	-10.8237
分散	-10.8238
汦	-10.8239
聖諦	-10.824
天眾	-10.824
衛	-10.8241
又其處者	-10.8243
諸賢聖	-10.8245
諍競	-10.8248
加害	-10.8252
青色	-10.8254
參宿	-10.8255
無底	-10.8259
無有住處	-10.826
不和合	-10.8263
惡不善法	-10.8263
隨業	-10.8263
平正	-10.8263
利眾生	-10.8265
宿命智	-10.8267
審諦	-10.8273
得未曾有	-10.8277
鬼宿	-10.8279
尋即	-10.828
普皆	-10.8282
異相	-10.8283
奉施	-10.8287
三昧力故	-10.8287
知他心	-10.8287
過去佛	-10.8291
除一切	-10.8292
法無	-10.8293
發於	-10.8296
微塵等	-10.8297
業道	-10.8297
由彼	-10.8302
以天眼	-10.8302
王等	-10.8303
半月	-10.8304
皆因	-10.8305
得淨	-10.8308
善趣	-10.8312
界中	-10.8313
如何	-10.8313
先當	-10.8317
除愈	-10.8317
菩薩得是	-10.8323
無所見	-10.8328
無言說	-10.8328
九十二	-10.8332
蓮華座	-10.8335
乃至意	-10.8337
彼族姓子	-10.8338
枉	-10.8341
脫門	-10.8343
布施供養	-10.8349
梵眾	-10.835
恥	-10.8352
有為法	-10.8353
阿鼻地獄	-10.8358
捨身命	-10.8358
毘婆	-10.836
依怙	-10.8362
色無	-10.8362
如是乃能	-10.8362
不惜	-10.8365
知一切	-10.8366
魔境界	-10.8367
法而	-10.837
無所從來	-10.837
其子	-10.8373
惟佛	-10.8374
一切法空	-10.8374
非想	-10.8374
摩摩	-10.8374
受苦惱	-10.8377
是我	-10.8377
當云何	-10.8381
不空	-10.8382
善女人等	-10.8382
四十七	-10.8386
無覺觀	-10.8388
使人	-10.8393
常應	-10.8395
有是	-10.8402
福行	-10.8403
七財	-10.8406
地上	-10.8407
觀諸眾生	-10.8409
受其	-10.8419
大石	-10.8427
豈非	-10.843
世尊知	-10.8431
無戲論	-10.8436
無上智	-10.8442
常自	-10.8445
千俱胝	-10.8453
無身	-10.8456
莊嚴其身	-10.8463
行道	-10.8463
得授記	-10.8463
妙好	-10.8466
諸國	-10.847
心寂靜	-10.847
金剛䐡	-10.8475
我常	-10.848
說法師	-10.8486
陀摩	-10.8486
食之	-10.8493
虛空界	-10.85
修因	-10.85
出要	-10.8509
讚嘆	-10.8514
苦受	-10.8516
現在諸佛	-10.8523
欲塵	-10.8524
不懈	-10.8528
大丈夫	-10.8529
耶婆	-10.8534
六種	-10.8534
如是等人	-10.8536
悋	-10.8537
取一	-10.8543
不報	-10.8545
邪道	-10.8548
亦空	-10.8548
作是說	-10.8549
施時	-10.8551
至此	-10.8552
不善業	-10.8554
聞之	-10.8555
悉具足	-10.8555
聲聞獨覺	-10.8558
波羅蜜多	-10.8561
其上	-10.8568
惡獸	-10.8568
於佛所	-10.8575
為緣	-10.8577
供養已	-10.8581
身得	-10.8584
沫	-10.8584
名瓔珞莊嚴	-10.8591
如應	-10.8596
使我	-10.8598
盡其	-10.86
諸龍王	-10.8601
所持	-10.8609
從緣	-10.8611
知苦	-10.8614
聞如是	-10.8617
欲度	-10.8618
所謂識	-10.8618
麥	-10.8619
侵奪	-10.8619
害心	-10.8622
了了知	-10.8623
毀犯	-10.8623
善現	-10.8627
空閑	-10.8627
發菩提	-10.8631
之寶	-10.8633
惡夢	-10.8636
頸	-10.8638
考	-10.8639
邪行	-10.864
獼猴	-10.864
泣	-10.8642
醫	-10.8643
出聲	-10.8644
綿	-10.8645
府	-10.8646
一切皆得	-10.8646
一切如來	-10.8648
嗅	-10.8649
誨	-10.8649
億那由他百千	-10.865
大海水	-10.865
紅	-10.8652
爭	-10.8653
釋迦牟尼	-10.8653
根本重罪	-10.8653
屋	-10.8656
南洲	-10.8658
洪	-10.8659
眾生心行	-10.8661
銷	-10.8661
而共	-10.8661
𦦨	-10.8662
增上慢	-10.8662
羸	-10.8662
稍	-10.8663
荷	-10.8665
住大乘	-10.8665
無盡意菩薩	-10.8665
柱	-10.8665
師子意	-10.8665
道果	-10.8666
能摧	-10.8666
若行	-10.8666
澄	-10.8667
優波底沙	-10.8668
頑	-10.8668
轉於	-10.8668
摸	-10.8669
集故	-10.867
次復置	-10.867
吾當為汝分別解說	-10.8671
和雅	-10.8671
將養	-10.8671
念過去	-10.8672
迫	-10.8672
無等倫	-10.8673
崖	-10.8673
愚人	-10.8674
鬚	-10.8674
俱共	-10.8675
威儀禮節	-10.8675
朋黨	-10.8676
芽莖	-10.8676
譏嫌	-10.8676
遲	-10.8676
僧伽吒	-10.8677
捐	-10.8678
娑伽羅龍王	-10.8678
默然而住	-10.8678
憂波提舍	-10.8679
怯	-10.868
佛爾時頌偈	-10.868
第四禪	-10.868
歸依三寶	-10.8682
沈水	-10.8683
觜宿	-10.8683
却住一面	-10.8684
親屬	-10.8684
說此法門	-10.8686
酤胝	-10.8686
六衰	-10.8688
月藏菩薩摩訶薩	-10.869
無量眾	-10.8691
世諦	-10.8692
人者	-10.8692
藥叉	-10.8693
懷大哀	-10.8694
蘇婆呵	-10.8695
則生	-10.8695
長跪合掌	-10.8695
䫂	-10.8697
見是事已	-10.8697
神通之力	-10.8698
獲十種功德	-10.8698
破戒比丘	-10.8698
供養地藏菩薩摩訶薩者	-10.8699
若是法器	-10.8699
種種華	-10.87
厭患	-10.87
地水火風	-10.8701
覆護	-10.8704
父王	-10.8704
菩薩若能	-10.8706
得成就	-10.8707
憶持	-10.8707
泯	-10.8707
開悟	-10.8708
聖賢	-10.8708
錯	-10.871
最大	-10.8711
蓰	-10.8712
精還	-10.8715
辟宿	-10.8715
亦與	-10.8718
與諸眷屬	-10.8719
正位	-10.8719
思量	-10.872
造罪	-10.8721
大光	-10.8724
若非法器	-10.8725
四十九	-10.8725
具足最上第一	-10.8725
為多不	-10.8727
歸依佛	-10.8728
釋梵護世	-10.8728
慈悲喜捨	-10.8729
如其所	-10.8731
可知	-10.8733
緣生法	-10.8735
持是	-10.8738
他世	-10.8742
可以	-10.8743
正慧	-10.8744
為欲利益	-10.8747
復觀	-10.8747
眾生根	-10.8748
葛	-10.8749
金剛藏菩薩	-10.8749
帝王	-10.8749
不隨他	-10.875
心平等	-10.8752
於涅槃	-10.8752
無生智	-10.8759
合成	-10.8762
至心聽	-10.8762
種性	-10.8765
初心	-10.8767
取證	-10.8768
財業	-10.877
比丘言	-10.8771
之源	-10.8771
水界	-10.8772
正法眼	-10.8772
燒身	-10.8773
更相	-10.8775
生慚愧	-10.8787
持此	-10.8787
死者	-10.8789
菩提場	-10.8795
諍論	-10.8796
好色	-10.8799
永斷	-10.8801
之所建立	-10.8809
我曾	-10.8818
生此	-10.882
作是念已	-10.8824
無處所	-10.8827
第	-10.8828
茲	-10.883
善師	-10.8831
從緣生	-10.8835
者則無	-10.8839
舉身	-10.8848
利根	-10.8851
菩提樹	-10.8852
得至	-10.8854
出家人	-10.8855
正知	-10.8862
即有	-10.8862
尊敬	-10.8865
妙行	-10.8865
道慧	-10.8867
鈍根	-10.8867
修供養	-10.8869
順從	-10.8871
安止	-10.8873
兵眾	-10.8873
願求	-10.8875
會中有一	-10.8884
自相	-10.8888
成道	-10.889
如須彌	-10.8893
三昧者	-10.8895
犯罪	-10.8897
融	-10.89
發道意	-10.8902
到彼	-10.8902
死苦	-10.8904
明智	-10.8907
說伽陀	-10.8912
心歡喜	-10.8913
帝釋天	-10.8913
無上大	-10.8914
之要	-10.8918
三昧力	-10.8922
勝上	-10.8924
清淨戒	-10.8929
勸令	-10.893
其志	-10.8933
無滅	-10.8936
如法比丘	-10.8936
心宿	-10.8936
我住	-10.8937
聽經	-10.894
千年	-10.8946
稱譽	-10.8947
觀之	-10.8953
須知	-10.8959
難及	-10.896
於四	-10.896
清淨持戒	-10.8961
菩薩摩訶薩眾	-10.8961
能作如是	-10.8962
十二者	-10.8962
助菩提	-10.8966
為除	-10.8968
其聲	-10.8972
樂寂靜	-10.8977
六十億	-10.8979
無生滅	-10.898
入空	-10.8981
善本	-10.8983
無住處	-10.8984
大師子吼	-10.8985
婆帝	-10.899
正業	-10.8991
重病	-10.8992
道德	-10.9002
自修	-10.9002
此名能	-10.9003
得安隱	-10.9004
第九	-10.9004
牛宿	-10.9007
復滅	-10.9008
皆悉平等	-10.9009
此翻	-10.9009
垢穢	-10.901
其罪	-10.9014
觀彼	-10.9017
修治	-10.9022
羣	-10.9022
我佛	-10.9028
一切惡業	-10.9029
猶如幻	-10.9037
月光	-10.9037
誦持	-10.9037
汝等當	-10.9039
成菩提	-10.904
方所	-10.9041
紫	-10.9042
寶星陀羅尼經	-10.9051
若善男子	-10.9053
本行	-10.9055
佛為	-10.9056
諸佛正法	-10.9056
鐵圍	-10.9057
首楞嚴三昧	-10.9057
醜	-10.9057
瑕	-10.9061
彼如來	-10.9062
!「	-10.9062
尾宿	-10.9066
勝法	-10.9071
生人中	-10.9071
亦復不能	-10.9074
如大海	-10.9075
自致	-10.9075
惡相	-10.908
十一者	-10.9081
咎	-10.9081
眾罪	-10.9082
稱佛	-10.9083
由此定	-10.9086
閻	-10.9087
成就阿耨多羅三藐三菩提	-10.9087
聰	-10.9088
萬億	-10.9088
諸禪定	-10.9088
省	-10.909
無退	-10.9093
為破	-10.9095
常勤	-10.9099
語汝	-10.91
熱銕	-10.9102
或於	-10.9105
一切佛法亦	-10.9106
四天王天	-10.9107
一月	-10.9116
婦	-10.9118
汝能	-10.9122
刃	-10.9125
其明	-10.9128
蘭	-10.9136
雨於	-10.9137
鷹	-10.9138
在中	-10.914
隨心	-10.9141
跋陀和	-10.9143
局	-10.9145
後際	-10.9145
雷	-10.9145
錢	-10.9147
纔	-10.9147
閻浮洲	-10.9148
淫	-10.9148
歟	-10.9149
工	-10.9151
以供養	-10.9153
不學	-10.9153
名大	-10.9154
悳	-10.9155
社	-10.9155
等日	-10.9157
兔	-10.9159
賜	-10.9161
真陀羅	-10.9161
智慧方便	-10.9162
畵	-10.9162
甞	-10.9163
竊	-10.9164
腦	-10.9164
五無間罪	-10.9166
有餘	-10.9166
想行	-10.9168
作何	-10.9169
陀利	-10.9169
崩	-10.9171
纏縛	-10.9171
繞	-10.9172
憒閙	-10.9173
讖	-10.9175
懃	-10.9175
摩伽陀國	-10.9176
之一	-10.9177
群萌	-10.9177
蜜低	-10.9177
於三乘	-10.9178
娑婆世界主大梵天王	-10.9178
紹三寶種	-10.9178
刀兵	-10.9179
賓	-10.9179
苦集	-10.918
讁罰	-10.9181
羅婆國	-10.9182
異口同音	-10.9183
安詳	-10.9184
不造	-10.9184
峯	-10.9186
光味仙人	-10.9186
旦	-10.9186
短命	-10.9187
給施	-10.919
如前所說	-10.9192
墮諸惡趣	-10.9192
承佛神力	-10.9192
救世	-10.9192
說經	-10.9194
於汝意云何	-10.9194
算數譬喻所不能及	-10.9195
諸忍諸地	-10.9195
善觀作王	-10.9195
不生驚怖	-10.9196
三名	-10.9196
現在未來	-10.9197
菩薩摩訶薩等	-10.9197
安置生天	-10.9199
按云	-10.9199
淳至	-10.92
檀那	-10.92
坐道場	-10.92
順法	-10.9205
傾動	-10.9206
生大歡喜	-10.9207
如意珠	-10.9208
有大勢力	-10.9208
佛子	-10.9212
而自莊嚴	-10.9213
當應	-10.9213
空無相無願	-10.9214
有八	-10.9214
正典	-10.9214
及與眷屬	-10.9215
本處	-10.9217
四真諦	-10.9218
業力	-10.9219
有為無為	-10.922
不生憍慢	-10.9225
之像	-10.9225
復有二種	-10.9225
聲聞之人	-10.9227
觀是	-10.9228
惡色	-10.9228
趣入	-10.9231
如是神通	-10.9232
利國	-10.9234
憂苦	-10.9235
以智	-10.9236
如是大悲出	-10.9236
諸阿修羅	-10.9237
光顯	-10.924
復欲	-10.9241
四梵行	-10.9246
以此善根	-10.9247
一切魔	-10.9248
如是言	-10.9255
獲福	-10.9256
聞是法	-10.9258
其色	-10.9261
跋陀	-10.9265
而行布施	-10.9266
世尊復	-10.9268
所獲功德	-10.9268
果證	-10.927
開化眾生	-10.927
娑囉	-10.9273
一切龍王	-10.9274
不思議事	-10.9275
度者	-10.9276
定者	-10.9276
薩婆若	-10.9277
諸華	-10.9278
行業	-10.9279
牛頭栴檀	-10.9281
共住	-10.9281
室宿	-10.9282
值佛	-10.9284
故來	-10.9284
一眾生	-10.9289
得無所畏	-10.9289
而用	-10.9289
妄言	-10.9293
色陰	-10.9294
諸罪	-10.9296
汝以	-10.93
世間人	-10.9303
六念	-10.9306
道路	-10.9307
不得行	-10.9308
四無畏	-10.9313
願說	-10.9314
四生	-10.9315
身形	-10.932
復現	-10.932
及見	-10.932
勝解	-10.9324
大龍	-10.9324
六十二	-10.9333
盛滿	-10.9334
上音	-10.9336
在會	-10.9337
名為業	-10.9338
音聲故	-10.9339
若言	-10.934
與其	-10.9343
見釋迦牟尼佛	-10.9344
今已	-10.9344
自利	-10.9347
業者	-10.9348
他化自在天	-10.9349
妙三昧	-10.935
以如是等	-10.935
』,	-10.935
又令	-10.9355
掌	-10.9357
一分	-10.9359
心法	-10.936
作如是等	-10.9364
何有	-10.9365
菩薩不共法	-10.9368
復作	-10.9368
花樹	-10.9369
於一切時	-10.9375
二字	-10.9377
大富	-10.9379
為欲欲	-10.9381
當得成佛	-10.9381
說如是	-10.9384
造立	-10.9384
時佛	-10.9385
開解	-10.9389
觀此	-10.9392
靡	-10.9397
住十地	-10.9399
不墮惡道	-10.9409
現種種	-10.941
者即是無	-10.9411
不得勝	-10.9415
可樂	-10.9416
宣布	-10.9417
寶洲	-10.9418
癡人	-10.942
有德	-10.9422
好聲	-10.9428
得阿羅漢	-10.9429
角宿	-10.9431
天身	-10.9432
作不	-10.9433
能淨於	-10.9435
現在世	-10.9441
聞是經	-10.9443
損害	-10.9443
深入	-10.9447
成就具足	-10.945
時諸	-10.9457
滿月	-10.9458
無量佛	-10.9461
菩薩持戒	-10.9464
如聞	-10.9466
以神力	-10.9468
故不可盡	-10.947
所照	-10.9472
跋陀和菩薩	-10.9478
異生	-10.9487
便為	-10.949
以不	-10.95
最上之	-10.9502
大喜	-10.9503
非空	-10.9506
道教	-10.9511
深重	-10.9513
意止	-10.9518
既聞	-10.9518
戒者	-10.952
自用	-10.9525
不可壞	-10.9525
住法	-10.9525
問世尊	-10.953
心亂	-10.9531
勝行	-10.9532
影像	-10.9533
起諸	-10.9538
善丈夫	-10.954
一音	-10.954
如是比丘	-10.9541
是故名	-10.9542
當說	-10.9545
為汝說	-10.9547
誠實	-10.9548
有罪	-10.9552
夜行	-10.9554
為利	-10.9561
我亦如是	-10.9563
手執	-10.9563
何人	-10.9566
功德聚	-10.9568
今經	-10.9569
久修	-10.9574
斯法	-10.9575
於此正法	-10.9577
世世	-10.958
最第一	-10.9581
無失	-10.9584
又以	-10.9588
遍覆	-10.9588
五無間	-10.9591
如是次第	-10.9594
不敬	-10.9594
說法時	-10.9597
彌勒菩薩摩訶薩	-10.9598
置於	-10.9603
得聞此	-10.9603
所生處	-10.9606
復應	-10.9609
此為	-10.9609
而亦	-10.9615
我當云何	-10.9615
命根	-10.9616
他身	-10.9616
蘇摩	-10.9632
復當	-10.9638
見諸法	-10.9639
彼諸如來	-10.9639
尊重恭敬	-10.9645
不恃	-10.9645
我皆	-10.9649
修菩薩行	-10.9652
無念	-10.9653
糞	-10.9653
醫王	-10.9653
』「	-10.9654
得樂	-10.9656
心自在	-10.9656
精進行	-10.9657
川	-10.9657
者也	-10.9657
諸乘	-10.966
於三寶	-10.9664
障難	-10.9666
皆來集會	-10.9669
修第一義	-10.967
弄	-10.9671
盜賊	-10.9674
諸來大眾	-10.9674
因緣著痛	-10.9674
悉以	-10.9676
心亦不	-10.9676
不去不來	-10.9676
均	-10.9678
入三昧	-10.9678
嗔	-10.9678
傍	-10.9679
賣	-10.9679
則無所	-10.9679
法炬	-10.9679
玉	-10.9682
若有男子女人	-10.9682
梁	-10.9682
擇	-10.9682
非彼	-10.9683
冤	-10.9684
戀	-10.9684
溢	-10.9685
咽	-10.9686
寶炬陀羅尼	-10.9687
滌	-10.9688
幼	-10.9689
淵	-10.9689
何也	-10.969
緊	-10.9691
溫	-10.9691
一句一偈	-10.9692
請問世尊如斯大義	-10.9693
啼哭	-10.9693
自不	-10.9695
即還入	-10.9696
卿	-10.9696
其日生者	-10.9697
斯有是處	-10.9699
剛強	-10.9699
軫宿	-10.9699
無生無起	-10.9699
厄	-10.9699
久近	-10.97
現此	-10.97
瑜伽	-10.97
鳩槃荼	-10.9701
徑路	-10.9702
啼泣	-10.9702
多伽羅香	-10.9702
虫	-10.9703
總𠢕王菩薩	-10.9704
七日七夜	-10.9704
如是行者應如實知何者名為	-10.9704
歎未曾有	-10.9705
鼻所聞好香	-10.9705
耳所聞中聲	-10.9705
耳所聞惡聲	-10.9705
鼻所聞惡臭	-10.9705
卷第六	-10.9706
祠祀	-10.9706
發大誓願	-10.9707
除其	-10.9707
摩波利婆	-10.9707
捺	-10.9707
當爾之時	-10.9708
眼所見惡色	-10.9708
是喜	-10.9708
生隨喜	-10.9708
貪恚癡	-10.9709
不見眾生	-10.9709
口所得惡味惡語言	-10.9709
鳥獸	-10.9709
無有窮盡	-10.9709
殑伽沙數	-10.9709
不可稱量	-10.9709
眼所見中色	-10.971
憺怕	-10.9711
學無學	-10.9711
我於今者	-10.9712
佛告一切勇	-10.9712
三摩跋提	-10.9712
遮止	-10.9712
咸作是言	-10.9713
亦常	-10.9714
說此法時	-10.9715
顯曜	-10.9716
鈴	-10.9716
三摩地門	-10.9716
而為上首	-10.9717
具足五滓	-10.9717
演說正法	-10.9717
譯經三藏朝散大夫試鴻臚卿	-10.9718
村落	-10.9718
阿蘭若處	-10.9719
終始	-10.9719
不受果報	-10.972
彼天	-10.9721
中有五百四十百八愛行	-10.9721
是名聞聲	-10.9721
奉敬	-10.9721
四如意足	-10.9721
瞿曇沙門	-10.9722
舉動	-10.9722
土境	-10.9723
帝幢	-10.9723
正法久住	-10.9723
賢士	-10.9724
出家弟子	-10.9726
如是功德	-10.9726
入于	-10.9728
所現	-10.9728
所得福德	-10.9728
聲聞乘法	-10.973
聽聞正法	-10.973
遍滿虛空	-10.973
離諸怖畏	-10.973
欣樂	-10.9731
風吹	-10.9733
推求	-10.9734
不止守	-10.9734
佛告藥上	-10.9735
之教	-10.9738
淨法	-10.9741
閦浮	-10.9742
興發	-10.9743
尚不	-10.9744
尊位	-10.9745
即是佛智	-10.9746
眾生所有	-10.9747
大覺	-10.9749
小王	-10.9753
理趣	-10.9754
普告	-10.9759
軟語	-10.976
倒見	-10.976
來詣	-10.976
日密	-10.976
不惱	-10.9761
功德智慧	-10.9763
於彼佛所	-10.9765
闍那	-10.9765
身不	-10.9767
阿難陀	-10.9769
奎	-10.9773
并諸	-10.9774
如來說	-10.9776
身心寂靜	-10.9777
般若波羅蜜多	-10.9777
法要	-10.9778
無損	-10.9781
我忍	-10.9783
無有休息	-10.9783
犯重罪	-10.9784
緊那羅王	-10.9785
又彼	-10.9786
有菩薩名	-10.979
便滅	-10.9795
唯除如來	-10.9797
尸利	-10.9798
教示	-10.98
若非	-10.9801
極重	-10.9802
舉聲	-10.9802
眾生精氣	-10.9802
此三摩地	-10.9807
此苦	-10.9809
是為愛	-10.9811
自言	-10.9813
虛空藏答	-10.9814
劫盡	-10.9814
種樹	-10.9814
無思	-10.9815
說頌	-10.9819
閻羅王	-10.9823
善惡業	-10.9824
便生	-10.9827
應誼	-10.9832
經於	-10.9832
乞食	-10.9833
發遣	-10.9834
得菩提時	-10.9839
身而為說法	-10.9839
如來功德	-10.9839
不惟	-10.9839
我即	-10.984
妙聲	-10.9845
􂚲􂚲(	-10.9846
寶飾	-10.9851
等苦	-10.9854
當忍	-10.986
眾生之類	-10.986
為汝	-10.986
當獲	-10.9861
一渧	-10.9862
得見佛	-10.9864
不能滅	-10.9865
願為	-10.9866
日月光	-10.9868
發誓願	-10.9869
住是	-10.9871
起惡	-10.9872
伽多	-10.9873
所疑	-10.9873
我終不	-10.9874
觀行	-10.9878
開發	-10.988
是亦	-10.9883
地獄眾生	-10.9883
慧業	-10.9884
無所分別	-10.9884
女宿	-10.9886
福智	-10.9886
五十一	-10.9886
性故	-10.9894
俱時	-10.9894
無量無邊眾生	-10.9895
乃為	-10.9896
墮道	-10.9897
月藏	-10.99
無見	-10.9902
轉復	-10.9903
不破	-10.9905
其本	-10.9906
即入	-10.9908
本清淨	-10.9909
此呪	-10.9909
不善根	-10.9912
諸佛境界	-10.9912
忍受	-10.9915
入淨	-10.9916
鴦	-10.9918
其音	-10.9925
能降	-10.9926
持是三昧	-10.9926
於前	-10.9927
五十二	-10.9928
能為眾生	-10.9928
所共	-10.9932
其母	-10.9932
永無	-10.9933
本所	-10.9937
具足神通	-10.9939
清淨行	-10.9939
勝慧	-10.994
聖王	-10.9943
其順法者	-10.9943
不變	-10.9945
水聚	-10.9947
光味菩薩	-10.9949
恒河沙劫	-10.9952
所習	-10.9952
餘處	-10.9962
立名	-10.9962
相與	-10.9963
放光明	-10.9964
釋天	-10.9964
魔宮	-10.997
今是	-10.9972
敬心	-10.9973
經論	-10.9973
不遠	-10.9974
其智	-10.9977
有一菩薩	-10.9979
四天	-10.9979
之分	-10.9982
不污	-10.9984
一切有	-10.9984
若龍	-10.9986
割	-10.9989
火中	-10.999
諸過失	-10.9994
與佛	-10.9994
樹者	-10.9995
未來眾生	-10.9999
懈	-11.0002
薩埵	-11.0009
出於世	-11.0009
施已	-11.0016
自說	-11.0016
大弟子	-11.0017
乃至沙門	-11.0017
娑婆界	-11.0017
伽邏	-11.0017
但有	-11.0017
能具	-11.0018
若比丘	-11.002
其王	-11.0022
樂故	-11.0023
欲滅	-11.0036
有四事	-11.0038
不謗	-11.0039
自思惟	-11.0039
敘	-11.0044
生已	-11.0048
天樂	-11.0053
無染著	-11.0053
我知	-11.0057
或言	-11.0057
應器	-11.0059
渧	-11.0062
文句	-11.0064
亦淨	-11.0065
觀一切	-11.0067
不可動	-11.0073
欲心	-11.0074
其德	-11.0084
婆提	-11.0089
胡	-11.0091
復以種種	-11.0093
又於過去	-11.0095
教勅	-11.0097
邪命	-11.0098
超過	-11.0099
得具足	-11.0101
五百人	-11.0102
無所作	-11.0105
是名方便	-11.0107
種種供養	-11.011
三十二事	-11.0111
人皆	-11.0112
無價	-11.0112
三德	-11.0113
即告	-11.0115
惡世	-11.0116
所學	-11.0116
無毀	-11.0123
之母	-11.0124
無別	-11.0124
為諸眾生說	-11.0132
發言	-11.014
佉羅	-11.0141
單	-11.0142
限量	-11.0144
未知	-11.0144
設供養	-11.0145
不毀	-11.0146
散華	-11.0149
謂之	-11.0161
憎	-11.0164
利他	-11.0166
普入	-11.0167
慈哀	-11.0168
降伏魔	-11.017
善學	-11.0172
祥	-11.0172
得涅槃	-11.0173
出已	-11.018
風界	-11.0185
夜叉王	-11.0186
八解脫	-11.0187
聞此陀羅尼	-11.0188
行十善	-11.019
輔	-11.0191
著於	-11.0197
白世尊	-11.0197
生人間	-11.0197
迦吒富單那等	-11.0203
因故	-11.0204
壞時	-11.0204
優鉢羅	-11.0206
於諸佛所	-11.0213
友	-11.0217
剎帝利旃荼羅王	-11.0218
猪	-11.0219
說此經	-11.022
法念處	-11.0221
奔	-11.0224
一切眾生皆	-11.0224
無文字	-11.0227
若心	-11.0227
亦等	-11.0228
膿血	-11.0228
丈	-11.0229
又復菩薩	-11.0231
鄉	-11.0233
謝過	-11.0235
揚	-11.0235
豪	-11.0235
再	-11.0236
爪	-11.0237
是為種痛	-11.0237
春	-11.0237
食者	-11.0238
餓鬼中	-11.0239
當坐因緣生死痛	-11.024
祿	-11.024
眠	-11.024
眉間	-11.024
舞	-11.0242
良由	-11.0242
困	-11.0243
孝順	-11.0244
秘藏	-11.0245
東西	-11.0245
儉	-11.0245
都無	-11.0245
貞	-11.0248
是為罪識	-11.025
為滅百八不捨淨	-11.025
忽然不現	-11.0251
脂	-11.0251
輕賤	-11.0251
警	-11.0252
祖	-11.0252
得無量	-11.0252
率	-11.0253
煖	-11.0253
十三者	-11.0254
畢竟成佛	-11.0254
絰	-11.0255
繫閉	-11.0255
卒暴	-11.0256
是為不捨盡	-11.0257
幽冥	-11.0257
滓	-11.0257
盲冥	-11.0258
染衣	-11.0258
隱蔽	-11.0258
月滿	-11.0259
傷害	-11.0259
療治	-11.026
口所得中味中語言	-11.026
此四宿日	-11.026
頂戴	-11.0261
便生栽	-11.0261
寂寞	-11.0261
鼻所聞中香	-11.0262
大方廣	-11.0262
諸天及人	-11.0262
是名進力	-11.0262
敗壞	-11.0263
若施	-11.0263
六萬八千	-11.0264
善德	-11.0264
藥王軍菩薩復	-11.0265
經無量劫	-11.0265
為他解說	-11.0265
中有百八罪不可見	-11.0265
身所得中細軟	-11.0266
形貌	-11.0267
身所得好細軟可身	-11.0268
愁惱	-11.0268
伴侶	-11.0268
忍行戒	-11.0268
懈廢	-11.0268
受身	-11.0269
菩薩要當斷是盛百八生死	-11.027
殑伽沙等	-11.027
八十億	-11.0271
是為進行入道	-11.0271
一日一夜行	-11.0271
是為墮	-11.0272
此之謂也	-11.0272
其土人民	-11.0272
頭面禮	-11.0272
車乘	-11.0274
或復有人	-11.0274
是名念力	-11.0274
聖種	-11.0275
前後圍遶	-11.0275
是名慧力	-11.0275
至心諦聽	-11.0276
阿逸多	-11.0276
水精	-11.0276
見佛身	-11.0277
遊戲神通	-11.0278
汝等今者	-11.0279
令修	-11.028
光雲	-11.028
甘露味	-11.028
其有逮得	-11.0281
八聖道	-11.0281
離惡道	-11.0281
脚跡	-11.0282
大授記陀羅尼	-11.0283
瑟	-11.0283
辛苦	-11.0284
如實了知	-11.0284
啟受	-11.0287
般涅槃後	-11.0287
便辱百八	-11.0287
是為貫生	-11.0288
散佛上	-11.0289
施行	-11.029
是為辱	-11.0291
本罪百八行	-11.0291
頭目	-11.0292
所發	-11.0292
智度無極	-11.0294
雜穢	-11.0295
弘廣	-11.0296
來會	-11.0296
為壞眾生如是	-11.0296
濟度	-11.0296
眾妙	-11.0296
若茲	-11.0297
令諸有情	-11.0297
滅中有百八後世當復生受不滅	-11.0301
高廣	-11.0301
瑞應	-11.0302
不然	-11.0305
智奮迅	-11.0306
阿耨多羅三藐三菩提記	-11.0308
▁○	-11.031
我復	-11.0311
和上	-11.0313
耳聞	-11.0313
入諸	-11.0314
故施	-11.0315
於法界	-11.0317
風雨	-11.0318
具足六波羅蜜	-11.0318
根原	-11.0318
復有四	-11.032
毒龍	-11.0321
百年	-11.0321
閑林	-11.0323
無慚	-11.0324
不想	-11.0326
欲行	-11.0326
此世	-11.0328
大迦葉	-11.0331
不濁	-11.0332
與無量	-11.0333
而心	-11.0336
自稱	-11.0337
法聲	-11.0337
如幻化	-11.0337
遍照十方	-11.0338
觀世音	-11.0338
無所有處	-11.034
是善思惟	-11.034
我觀	-11.034
九十六	-11.0343
說此陀羅尼	-11.0346
」【△	-11.0353
不捨眾生	-11.0358
耳根	-11.036
受無量	-11.036
暫時	-11.0361
無憍慢	-11.0362
隨諸眾生	-11.0363
無量有情	-11.0366
七種	-11.0367
大火	-11.0373
可反	-11.0374
大海中	-11.0374
生空中	-11.0378
憶想	-11.0378
利益故	-11.0382
堪忍	-11.0382
自守	-11.0387
兜率	-11.0391
各各自	-11.0393
說者	-11.0393
善不善	-11.0394
大神力	-11.0403
減少	-11.0406
成滿	-11.0409
之患	-11.041
十五者	-11.041
大寶	-11.0417
感動	-11.0419
去離	-11.0423
非身	-11.0424
客	-11.0426
亦不念	-11.0434
視之	-11.0436
為淨	-11.0438
已見	-11.044
三障	-11.0441
而懷	-11.0441
汝等當知	-11.0442
百九十	-11.0443
十方一切	-11.0449
萬四千	-11.0454
是故汝等	-11.0455
無闇	-11.0455
大眾皆	-11.0455
昴	-11.0456
力士	-11.0458
能引	-11.0471
無所得故	-11.0472
無上菩提道	-11.0473
百三十	-11.0478
無怨	-11.048
或復有	-11.0481
不宜	-11.0481
悲哀	-11.0482
常定	-11.0485
處在	-11.0485
山中	-11.0487
或乘	-11.0488
各得	-11.0493
諸如來所	-11.0493
於地	-11.0493
共護	-11.0496
無漏法	-11.0497
并及	-11.0497
作意	-11.0498
瞻波	-11.0501
如是大	-11.0503
欲樂	-11.0506
十四日合	-11.0507
十六者	-11.0509
得已	-11.051
識知	-11.0512
如文	-11.0514
胎藏	-11.0521
極大	-11.0522
善果	-11.0525
佛力	-11.0525
色力	-11.0526
此則名為	-11.0526
一切樂	-11.0528
聞法已	-11.0528
無記	-11.053
空故	-11.0532
好香	-11.0533
從此	-11.0535
是眼	-11.0536
四天下中	-11.0539
法海	-11.0539
念根	-11.0539
故我	-11.054
賢者	-11.0552
三乘法	-11.0554
修精進	-11.0555
法藥	-11.0556
此佛世界	-11.0559
慧自在	-11.056
盡諸漏	-11.056
有時	-11.0566
慧者	-11.0566
五十七	-11.0572
遍觀	-11.0577
此正法	-11.0578
法界性	-11.0581
從生	-11.059
端坐	-11.0592
難勝	-11.0594
念還	-11.0595
我弟子	-11.0598
之也	-11.0603
此諸菩薩	-11.0614
無有分別	-11.0619
無愛	-11.0622
初出	-11.0624
義者即	-11.0627
我今說	-11.063
一切菩薩摩訶薩	-11.063
智自在	-11.063
意念	-11.0639
蓮	-11.0639
虛空性	-11.0641
一切人天	-11.0646
若梵	-11.0646
中有習為	-11.0647
起大悲	-11.0649
隨應	-11.0651
於無上道	-11.0653
不願	-11.0654
諸種	-11.0656
受法	-11.0657
無難	-11.0658
性即是	-11.0661
已度	-11.0665
入城	-11.0667
其後	-11.0675
妙寶	-11.0676
之因	-11.0679
未出	-11.0682
字句	-11.0683
意所	-11.0691
種種瓔珞	-11.0697
出過	-11.0699
於善法	-11.0699
其慧	-11.0709
號釋迦牟尼	-11.0716
知佛	-11.0719
合掌而	-11.0723
諸佛之所	-11.0724
雨種種	-11.0725
皆知	-11.0726
皆住	-11.0726
名為根	-11.0731
貪嫉	-11.0735
是名法行	-11.0737
惟願如來	-11.074
天龍鬼神	-11.074
仇	-11.0742
童真	-11.0745
眾生類	-11.0745
無壽	-11.0749
菩薩乘	-11.0751
所覆	-11.0754
說此偈已	-11.0757
久已	-11.0758
深妙法	-11.0762
使得	-11.0763
以大	-11.0764
美味	-11.0767
五日合	-11.0767
大乘經	-11.0769
闍師	-11.0771
記莂	-11.0772
魂	-11.0775
成就故	-11.0775
以用	-11.0775
大慈心	-11.0775
思議	-11.0778
泰	-11.0778
具修	-11.0779
可怖	-11.0784
寶樹	-11.0788
非道	-11.0789
憐愍心	-11.079
無所取	-11.0792
一日合	-11.0799
十七者	-11.0803
於眾	-11.0804
旛	-11.0807
一切凡夫	-11.0812
幸	-11.0813
是義	-11.0814
要言之	-11.0814
腸	-11.0816
其法	-11.082
簡	-11.0821
化樂天	-11.0822
戶	-11.0823
入胎	-11.0824
諸佛正法護持	-11.0825
策	-11.0826
親族	-11.0826
責	-11.0826
婢	-11.0827
睡	-11.0829
勝三昧	-11.0829
生淨信	-11.083
不知為疑	-11.0831
軀	-11.0831
菴	-11.0831
黑繩	-11.0831
羅睺羅	-11.0833
鑑	-11.0833
徙	-11.0833
榮	-11.0834
扶	-11.0834
片	-11.0837
餘如上說	-11.0837
如水中月	-11.0837
披	-11.0837
從座起	-11.0838
八十種好	-11.0839
徐	-11.0839
有處示現	-11.084
坦然	-11.0841
少欲知足	-11.0842
瓦	-11.0842
亢旱	-11.0842
轉正法輪	-11.0843
顏貌	-11.0843
墮於惡趣	-11.0843
滋	-11.0843
僧眾	-11.0843
淨慧	-11.0844
當墮無間地獄	-11.0845
牢	-11.0845
必須	-11.0845
進止	-11.0845
職	-11.0845
如理作意	-11.0846
阿脩羅	-11.0846
卷第七	-11.0846
疾疫	-11.0847
顏色	-11.0847
此二宿日	-11.0848
長大	-11.0848
佛法僧寶	-11.0848
穀米	-11.0848
緊陀羅	-11.0849
與其眷屬	-11.0849
非想非非想	-11.0849
三十七品	-11.0849
得佛道	-11.085
速證	-11.085
多地夜他	-11.085
百倍	-11.085
隨諸佛國入	-11.085
錯謬	-11.0851
四大洲	-11.0852
覩是以後	-11.0852
伸	-11.0853
眼所見好色	-11.0853
奪其精氣	-11.0854
於晨朝時	-11.0854
澁	-11.0854
不為有	-11.0854
尸棄	-11.0855
得須陀洹果乃至阿羅漢果	-11.0855
悉來集會	-11.0855
憂悲苦惱	-11.0855
無有厭足	-11.0856
由延	-11.0857
侵害	-11.0857
我念過去	-11.0857
頭面作禮	-11.0858
日月星宿	-11.0858
閑居	-11.0859
所住之處	-11.0859
下至一頌	-11.086
不知為癡	-11.086
花香	-11.0862
豈不	-11.0862
如應說法	-11.0863
是名信力	-11.0863
如是等輩	-11.0863
謙下	-11.0864
修集慈心	-11.0864
乃至迦吒富單那等	-11.0865
經歷	-11.0867
何者名為	-11.0867
得作	-11.0869
何等名為	-11.087
而入	-11.0872
是故今	-11.0873
為還應戒	-11.0875
翹	-11.0875
斯陀含果	-11.0876
履反	-11.088
於如來前	-11.0882
心心數法	-11.0882
住胎	-11.0883
當辱	-11.0883
○	-11.0884
深遠	-11.0886
黠慧	-11.089
善能分別	-11.0893
教誡	-11.0896
將欲	-11.0897
怨親	-11.0897
違背	-11.0898
菩薩修定	-11.0899
大千世界	-11.09
能具足	-11.0901
娑摩	-11.0903
說是經	-11.0903
為調眾生	-11.0904
本性清淨	-11.0906
初生者	-11.0907
無吾我	-11.0908
如天	-11.0909
不缺	-11.0912
增長善法	-11.0914
無上法	-11.0914
實義	-11.0915
吾以	-11.0916
聞彼	-11.0917
自應	-11.0918
毘摩	-11.0919
在生死	-11.092
今言	-11.0922
婆那	-11.0927
之主	-11.0927
世尊聲聞弟子	-11.0929
為此	-11.093
利慧	-11.0931
在前	-11.0932
為欲欲中有五陰	-11.0935
如理	-11.0937
五欲樂	-11.0938
變異	-11.0943
飛行	-11.0945
眾生諸根	-11.0948
為他人	-11.0948
多種	-11.0949
知一切法性	-11.095
業行	-11.095
二子	-11.0951
一由旬	-11.0953
子云	-11.0959
純善	-11.096
然此	-11.0964
六神通	-11.0964
非如來	-11.0965
摩頂	-11.0966
我本	-11.0968
五神通	-11.097
能出	-11.0972
明相	-11.0973
及諸大眾	-11.0973
幾時	-11.0979
諸佛剎	-11.098
而無所著	-11.0981
欲使	-11.0981
作留難	-11.0982
無有作者	-11.0983
為化眾生	-11.0985
於諸善法	-11.0985
立於	-11.0985
以己	-11.0986
菩薩修行	-11.0986
摩訶薩言	-11.0987
為彼眾生	-11.0989
亦不可得	-11.0992
事故	-11.0997
一切有為	-11.0999
汝見	-11.0999
得忍	-11.0999
持用	-11.1
若諸菩薩摩訶薩	-11.1005
得知	-11.1006
一切無餘	-11.1007
身教化眾生	-11.1008
身證	-11.1011
十萬	-11.1011
如是思惟	-11.1012
聖因	-11.102
作諸惡	-11.1023
從今	-11.1023
之辭	-11.1025
以身	-11.1026
魔之	-11.103
柔順	-11.103
非器	-11.1033
同歸	-11.1034
所生之處	-11.1036
悉來集	-11.1036
見於眾生	-11.1037
那國	-11.1038
真實義	-11.1038
得陀羅尼	-11.1039
薄福	-11.104
能現	-11.1041
勸人	-11.1043
起瞋	-11.1044
成於	-11.1047
謗法	-11.1048
入佛法	-11.1048
為世間	-11.1048
無取著	-11.1049
如先佛	-11.105
法聚	-11.1053
之座	-11.1058
斯成	-11.1058
其城	-11.1059
大法王	-11.106
義是	-11.1064
無慚愧	-11.1065
不任	-11.1066
諸地	-11.1067
觀見	-11.1067
頂受	-11.1069
十八者	-11.107
而可	-11.1072
一切鬪諍	-11.1072
千由旬	-11.1074
伽婆	-11.1077
一切人	-11.108
一切境界	-11.1082
無學	-11.1084
說三乘	-11.1086
他國	-11.1087
當觀	-11.1089
有所得	-11.1093
持戒者	-11.1095
吾等	-11.1097
如說行	-11.1097
如火	-11.11
如來法	-11.1102
堪受	-11.1105
應念	-11.1113
故感	-11.1113
雖未	-11.1114
國界	-11.1115
我母	-11.1117
口行	-11.112
於三乘中	-11.1121
不動搖	-11.1124
成就十輪	-11.1133
所來	-11.1135
埵	-11.1137
發問	-11.114
無量世	-11.1149
凡夫法	-11.1149
火災	-11.1154
性識	-11.1154
愛著	-11.1166
以見	-11.1168
大事	-11.1168
心業	-11.117
得聞如是	-11.1171
一道	-11.1172
願故	-11.1172
五逆罪	-11.1175
所護	-11.1182
今於	-11.1183
眾生等	-11.1184
以對	-11.1185
異見	-11.1189
名香	-11.1191
戒清淨	-11.1193
如是見	-11.1195
生厭離	-11.1196
不從他	-11.1201
鬼身	-11.1202
智慧力	-11.1204
以慈	-11.1207
他心智	-11.1208
所逼	-11.1209
此忍	-11.121
之際	-11.121
之神	-11.1213
失念	-11.1214
千世界	-11.1216
六十五	-11.1232
生疑菩薩	-11.1236
我願	-11.1237
坐臥	-11.1239
柳	-11.124
能捨一切	-11.1242
諸力	-11.1246
十四者	-11.1247
能離	-11.1251
得無上智	-11.1253
涅槃界	-11.1256
五濁惡世	-11.1258
婆娑	-11.1259
而見	-11.1265
千萬億劫	-11.1268
不了	-11.1268
正法念	-11.127
性命	-11.1275
讚說	-11.1275
為世	-11.1277
轉者	-11.128
虛空相	-11.128
欲貪	-11.1285
彼諸天	-11.1291
智方便	-11.1292
一切魔眾	-11.1292
五十八	-11.1292
一切諸眾生故	-11.1294
如來具足	-11.1301
得解脫者	-11.1303
不散	-11.1304
大夜叉	-11.1306
諸法性	-11.1307
不有	-11.1307
百福	-11.1308
無差	-11.1315
入地獄	-11.1319
為體	-11.1324
死生	-11.1326
復告	-11.1337
離諸惡	-11.1338
其處	-11.1339
眾相	-11.134
王與	-11.1344
智慧光明	-11.1347
聲聞大眾	-11.1351
難陀龍王	-11.1355
寶物	-11.1359
大菩提心	-11.1362
作利益	-11.1368
所感	-11.1369
菩薩身	-11.137
識者	-11.137
相謂言	-11.1371
會中有一菩薩	-11.1371
得利益	-11.1372
是誰	-11.1373
降伏諸魔	-11.1375
一切勇菩提薩埵摩訶薩埵	-11.1378
尊貴	-11.1379
諮	-11.1382
不可說菩薩	-11.1382
清淨無垢	-11.1385
不能壞	-11.1388
於彼處	-11.1389
知恩	-11.139
邊見	-11.1392
道行	-11.1396
遠行	-11.1398
為證	-11.1398
相隨	-11.1401
越度	-11.1403
欲說	-11.1404
欲盡	-11.1405
托	-11.1406
人王	-11.1407
若諸	-11.141
寺沙門	-11.1414
十九者	-11.1414
生善道	-11.1419
儻	-11.1422
滅為	-11.1425
鮮	-11.1426
身觸	-11.1427
髻	-11.143
華蓋	-11.143
觀佛三昧經	-11.1431
聞是佛名	-11.1432
囉闍	-11.1432
清淨法	-11.1433
若被	-11.1434
毋	-11.1434
續	-11.1435
善淨	-11.1437
坑	-11.1439
善思	-11.1439
告不空見	-11.1439
毫相光	-11.1441
撲	-11.1441
塑	-11.1441
饑渴	-11.1442
聞佛說	-11.1443
滅者	-11.1444
燋	-11.1445
淳	-11.1445
品題	-11.1446
隆	-11.1447
祀	-11.1447
孔	-11.1447
準大論	-11.1447
驗	-11.145
五大河	-11.145
忉利天宮	-11.1451
而令	-11.1451
伎	-11.1452
意法	-11.1452
真善剎帝利王	-11.1452
駕	-11.1454
押	-11.1454
謀	-11.1454
只	-11.1455
如是四法	-11.1455
起大悲心	-11.1455
飽	-11.1456
孤	-11.1456
仗	-11.1456
非真	-11.1457
隔	-11.1458
谷	-11.1458
烟	-11.1459
蚊虻	-11.1459
江河	-11.146
頻	-11.146
其日得病	-11.1461
叵	-11.1461
慰喻	-11.1462
久遠劫來	-11.1463
科	-11.1464
栗	-11.1464
不可稱載	-11.1464
廣宣流布	-11.1464
之語	-11.1465
從坐起	-11.1465
未來之世	-11.1465
學法	-11.1465
莊飾	-11.1466
阿樓那	-11.1466
試	-11.1466
救度	-11.1466
屍	-11.1467
縱廣正等	-11.1467
眾生壽命士夫	-11.1467
裏	-11.1467
辟支佛作大福田	-11.1468
口所得美味好語言	-11.1468
廣博	-11.1468
則於	-11.1468
四方僧物	-11.1468
裂	-11.1468
石蜜	-11.1468
不畏後世	-11.1469
赴	-11.1469
簸	-11.147
夫菩提者	-11.147
得無誤失	-11.147
之妙	-11.147
羅剎母	-11.1471
怨憎	-11.1471
野馬	-11.1472
憎嫉	-11.1472
死屍	-11.1473
車𤦲	-11.1473
嬰	-11.1473
地平如掌	-11.1474
卷第八	-11.1474
乾竭	-11.1476
地及虛空	-11.1476
耳所聞好聲	-11.1476
悲因緣故宣說	-11.1476
破戒惡行苾芻	-11.1476
鴦耆	-11.1477
復有無量無邊眾生	-11.1477
曷囉	-11.1477
五體投地	-11.1477
歲星	-11.1478
從佛聞	-11.1478
迷亂	-11.148
起世經	-11.148
波羅提木叉	-11.148
元首	-11.1481
不耶	-11.1481
不生樂想	-11.1482
為他廣說	-11.1482
愚冥	-11.1483
復有一類	-11.1484
頞	-11.1484
阿㝹	-11.1484
轉妙法輪	-11.1485
怨賊	-11.1486
厭倦	-11.1486
紙	-11.1486
五蘊	-11.1487
彊	-11.1487
關令不動	-11.1487
次第而坐	-11.1487
吟	-11.1488
珊	-11.1488
言詞	-11.149
殊異	-11.1491
說是呪	-11.1491
心大歡喜	-11.1491
誦習	-11.1491
柘	-11.1491
羅剎子	-11.1492
佛像	-11.1492
敷具	-11.1493
歎言	-11.1494
蘊魔	-11.1495
告彼	-11.1496
但能	-11.1497
遇斯光	-11.1497
復有四事	-11.1498
不令流布	-11.1503
業因緣	-11.1504
誐	-11.1504
非大乘器	-11.1507
永除	-11.1508
幾種	-11.1509
卷上	-11.151
名金剛句	-11.1512
光曜	-11.1513
大鐵圍山	-11.1514
夢見	-11.1514
殊勝功德	-11.1515
厭悔	-11.1515
三惡道苦	-11.1516
身意	-11.1518
大集會正法	-11.1518
如法修行	-11.152
出大	-11.152
三曜	-11.1521
是輩	-11.1522
為自	-11.1523
所云	-11.1525
賀	-11.1526
分別演說	-11.1526
而無厭足	-11.1528
若如是者	-11.1528
彼無	-11.1529
寶坊	-11.153
愚癡無智	-11.153
尸羅波羅蜜	-11.153
變易	-11.1531
布施清淨平等	-11.1532
於大乘中	-11.1532
等物	-11.1533
閻浮提中	-11.1537
魔法門	-11.1537
受罪	-11.1539
若有女人	-11.1539
無上乘	-11.154
變現	-11.154
心住	-11.1542
林中	-11.1543
眾等	-11.1545
如來正法	-11.1545
住阿蘭若	-11.1546
樂處	-11.1547
給與	-11.155
攝一切法	-11.1551
語已	-11.1551
六塵	-11.1552
不種善根	-11.1553
六趣	-11.1553
六道眾生	-11.1555
受持讀誦書寫	-11.1555
命者	-11.1557
法想	-11.1559
等覺	-11.1559
其相	-11.156
日日	-11.1562
此約	-11.1563
受念處	-11.1564
羅剎女	-11.1565
氣力	-11.1565
以偈問	-11.1567
欲見佛	-11.1569
今為	-11.157
少眾生	-11.1571
生惡心	-11.1571
彼既	-11.1572
受持正法	-11.1573
行來	-11.1576
慧光明	-11.1582
是事已	-11.1582
生中	-11.1585
安住於	-11.1585
佛告不空見	-11.1589
瑞相	-11.1589
以施	-11.159
所犯	-11.1591
妙丈夫	-11.1593
佛地	-11.1598
得無上	-11.1599
惡風	-11.1602
八事	-11.1603
)【	-11.1603
護佛法	-11.1614
七分	-11.1623
犯戒	-11.1625
淨意	-11.1627
奉上	-11.1631
故而為說法	-11.1631
禪那	-11.1635
無過	-11.1636
禪定解脫	-11.1637
皆出	-11.1639
生死苦	-11.1641
城門	-11.1641
超度	-11.1643
損壞	-11.1643
覆其上	-11.1644
如意寶	-11.1645
不興	-11.1645
處非處	-11.1648
勤加	-11.1648
道品	-11.1649
過於彼	-11.1649
悉除	-11.1653
過去無量阿僧祇劫	-11.1656
正思惟	-11.1657
疑悔	-11.1662
乃至畜生	-11.1663
無蓋	-11.1664
金寶	-11.1664
之恩	-11.1664
有力	-11.1665
不生分別	-11.1674
他心	-11.1677
千歲	-11.1679
福慧	-11.168
八難	-11.168
適意	-11.1682
辯才故	-11.1683
道義	-11.1683
三昧智	-11.1686
實法	-11.1689
修智慧	-11.1695
而欲	-11.1695
三日	-11.1696
如是因緣	-11.1698
以偈	-11.1698
等如虛空	-11.1699
喜捨	-11.1701
八部	-11.1706
為宣說	-11.1707
於此法門	-11.1707
佛國土	-11.1707
過者	-11.1709
忍心	-11.1711
金剛䐡菩薩	-11.1712
及未來世	-11.1713
一切三昧	-11.1719
是慈能	-11.1722
如是法門	-11.1724
故稱	-11.1725
是故當知	-11.1731
貴賤	-11.1736
一切國土	-11.1736
右手	-11.1736
所加	-11.1738
滅煩惱	-11.1739
涅槃已	-11.1739
尊重讚歎	-11.174
佛剎土	-11.1742
七覺	-11.1743
三世平等	-11.1745
尚爾	-11.1745
給侍	-11.1748
誰有	-11.175
滅無餘	-11.1757
大音聲	-11.1764
不得解脫	-11.1765
諸佛功德	-11.1768
佛讚	-11.177
問者	-11.1774
皆大	-11.1774
久住於世	-11.1775
心及	-11.1777
深奧	-11.1777
名發起	-11.1779
修行布施	-11.1783
如來法中	-11.1787
知一切眾生心	-11.1791
人之	-11.1796
自性清淨	-11.1797
其間	-11.18
無一眾生	-11.1802
又有	-11.1805
因其	-11.1806
後生	-11.1807
不猗	-11.1812
佛時	-11.1814
常護	-11.1814
生信心	-11.1817
精進求	-11.1818
將非	-11.1818
心相續	-11.182
即此	-11.1821
癡心	-11.1825
知真實	-11.1831
為之	-11.1832
之果	-11.1837
定中	-11.1838
如來智慧	-11.184
山頂	-11.1841
禮世尊足	-11.1843
之首	-11.185
今悉	-11.1852
是人不久	-11.1853
不得自在	-11.1857
具足莊嚴	-11.1862
為成熟	-11.1863
出世間法	-11.1864
迴向無上菩提	-11.1868
愚癡人	-11.1873
怙	-11.1876
疾成	-11.188
息諸	-11.1881
必有	-11.1883
尚可	-11.1884
我此	-11.1884
不可思議功德	-11.1886
佛足	-11.1887
身見	-11.1891
繒	-11.1893
受無量苦	-11.1897
心如虛空	-11.1897
於一時	-11.19
六處	-11.1902
地中	-11.1906
於今日	-11.1906
為樂	-11.1907
法母	-11.1907
發此	-11.191
常於	-11.1911
死時	-11.1915
是人得	-11.1916
所縛	-11.1916
海印	-11.1916
不廢	-11.1916
義利	-11.1917
能了知	-11.1917
之體	-11.1917
與人	-11.1919
為根本	-11.1923
摧諸	-11.1924
得法忍	-11.1926
此皆	-11.1927
不假	-11.1927
云何菩薩摩訶薩	-11.1928
信於	-11.1935
或一	-11.1942
於四天下	-11.1942
五十六	-11.1947
現其身	-11.1952
生歡喜心	-11.1953
向菩提	-11.1954
山谷	-11.1955
愛念	-11.1958
又不	-11.1968
我悉	-11.1968
是佛	-11.1972
有八種	-11.1976
其功德	-11.1981
竟不	-11.1981
彼佛世尊	-11.1985
讚佛	-11.1985
一切樂具	-11.1987
不增	-11.1995
而受	-11.2001
於諸佛	-11.2004
親近供養	-11.2007
俗諦	-11.2008
或生	-11.201
若有菩薩修四	-11.2015
脫苦	-11.2017
供養三寶	-11.2021
種種微妙	-11.2024
分別此	-11.2024
三日合	-11.2025
然其	-11.2025
為諸聲聞	-11.2026
惡習	-11.2031
留難	-11.2031
一切過去	-11.2033
聖者	-11.2035
破戒者	-11.2036
而有所	-11.2037
如是乃至	-11.2039
那由他百千	-11.204
三垢	-11.204
不休息	-11.2045
造諸惡	-11.2047
不許	-11.2048
降魔	-11.2049
僧中	-11.2049
豫	-11.2049
三千世界	-11.2049
始終	-11.2052
惡者	-11.2053
億數	-11.2053
亦為眾生	-11.2059
雖在	-11.206
炙	-11.206
復與	-11.2061
襍	-11.2063
不能見	-11.2063
盈	-11.2066
羅摩	-11.2069
能證	-11.2074
諸法相	-11.2075
等無差別	-11.2077
所講	-11.2077
眾華	-11.2077
業盡	-11.208
到佛所	-11.2081
吏	-11.2083
墮在	-11.2085
辱	-11.2086
於此佛剎	-11.2089
聞聲	-11.209
即知	-11.2091
預	-11.2094
九日合	-11.2095
禽	-11.2097
循	-11.2097
從於	-11.2099
亂意	-11.2099
漢	-11.2101
系	-11.2101
罔	-11.2101
侶	-11.2102
吸	-11.2102
準長阿含	-11.2102
憑	-11.2102
饑	-11.2104
夙	-11.2105
鎖	-11.2106
寬	-11.2108
拜	-11.2108
虛空孕菩薩摩訶薩	-11.2108
米	-11.2109
午	-11.211
蒲	-11.2112
莊	-11.2112
一世界	-11.2112
皆作	-11.2114
存亡	-11.2114
䟦	-11.2115
秦言	-11.2115
廟	-11.2115
詮	-11.2116
獵	-11.2117
斯人	-11.2117
說是三昧	-11.2117
役	-11.2118
迴向薩婆若	-11.2119
狹	-11.2119
慧明三昧	-11.2119
酪	-11.212
街	-11.2121
謝	-11.2121
校	-11.2122
稟	-11.2122
首楞嚴	-11.2123
宇	-11.2124
刀劍	-11.2125
洞	-11.2125
奏	-11.2126
孰	-11.2126
滋味	-11.2126
擬	-11.2127
㵎	-11.2127
胡跪合掌	-11.2127
無定	-11.2127
今正是時	-11.2127
未甞	-11.2127
潔	-11.2127
方得	-11.2128
嬈害	-11.2129
從三昧起	-11.213
鞭杖	-11.213
搆	-11.213
彼世尊	-11.213
羞恥	-11.2131
遠塵離垢	-11.2132
帝利	-11.2132
映	-11.2132
忌	-11.2132
偈讚佛已	-11.2133
日輪	-11.2133
中最	-11.2133
闥	-11.2134
后	-11.2134
遏	-11.2134
綵	-11.2134
尠	-11.2135
有異	-11.2135
俱利多	-11.2135
芬	-11.2135
劫奪	-11.2135
開導	-11.2135
劬勞	-11.2135
以佛力故	-11.2136
把	-11.2136
如山	-11.2136
霑	-11.2137
潤澤	-11.2137
族姓	-11.2137
此輩	-11.2137
各與	-11.2137
籌量	-11.2138
是人能禮	-11.2138
攬	-11.2138
封	-11.2138
曾於過去	-11.2139
從初發意	-11.2139
隨所住國	-11.214
一四句偈	-11.214
發無上菩提心	-11.214
淨印三昧	-11.214
無作無	-11.214
交露	-11.214
泉池	-11.214
僕使	-11.2141
百千俱胝那庾多	-11.2141
伎術	-11.2141
三業相應	-11.2142
剎帝利旃荼羅	-11.2142
諸怖畏	-11.2142
毘奈耶	-11.2143
受眾苦	-11.2143
應如是學	-11.2143
涕	-11.2143
懈惓	-11.2143
吉凶	-11.2144
好樂	-11.2144
二句	-11.2145
愚闇	-11.2145
迦留羅	-11.2145
雄猛	-11.2145
右繞三匝	-11.2146
增長三精氣	-11.2146
籌	-11.2146
間錯	-11.2146
堪任摧壓	-11.2147
是金剛句	-11.2147
完具	-11.2147
其國土	-11.2148
多地他	-11.2148
覆蓋	-11.2148
動欲分別中有盛百	-11.2148
甘蔗	-11.2148
疲	-11.2148
而供養之	-11.2149
鮮明	-11.2149
悉集	-11.2149
趣向惡道	-11.2149
]《	-11.2149
說一切法	-11.2149
頻婆	-11.2149
嗜	-11.215
身所得惡麁堅苦痛不可身	-11.215
閑靜	-11.215
不離親近供養眾僧	-11.215
比牟	-11.215
不自知著不自知滅中有五陰	-11.215
三萬六千	-11.215
食肉	-11.2151
阿毘	-11.2151
以精進故	-11.2151
般泥洹	-11.2151
喪失	-11.2152
於是法中	-11.2152
丁	-11.2152
不關者墮罪	-11.2153
澡浴	-11.2153
世尊欲重明此義	-11.2153
此法門者	-11.2154
舉手	-11.2154
寂度無極	-11.2154
愍傷	-11.2155
侍從	-11.2155
不可限量	-11.2156
師子將軍	-11.2156
▁41	-11.2156
波履婆	-11.2157
即是我之	-11.2157
閻羅天子	-11.2157
成無上道	-11.2158
往返	-11.2159
宮內	-11.2159
第一彼岸故	-11.2159
不離聞法	-11.2159
毘舍闍	-11.216
陀羅尼自在王菩薩	-11.216
化導	-11.2161
利益之事	-11.2162
所得果報	-11.2162
調暢	-11.2163
赤色	-11.2164
佉伽	-11.2164
大支提	-11.2164
往詣佛所	-11.2164
利行	-11.2164
色無色界	-11.2165
此大地	-11.2165
五十校計	-11.2165
供養眾僧	-11.2166
雜香	-11.2166
努	-11.2166
發菩提之心	-11.2167
無窮盡	-11.2167
水災	-11.2168
因陀羅	-11.2168
橫死	-11.2169
三種精氣	-11.2169
行法比丘	-11.2169
無作無受	-11.2171
四倒	-11.2172
隨所生處	-11.2172
闍鞞	-11.2172
胎生	-11.2173
普令	-11.2173
隨從	-11.2174
婆國	-11.2176
資生所須	-11.2177
商人	-11.2177
無有慈愍	-11.2178
是名為禪	-11.2178
聞是法已	-11.2179
身心安樂	-11.218
觸身	-11.2181
地味	-11.2181
所聞法	-11.2181
毘沙門	-11.2182
瞋惡	-11.2183
摧壞	-11.2183
還家	-11.2183
阿囉	-11.2184
彼有菩薩名	-11.2184
防護	-11.2186
說偈讚	-11.2186
治國	-11.2186
不去	-11.2187
普攝	-11.2187
不處	-11.2188
之具	-11.2188
階道	-11.2188
患難	-11.2189
哂	-11.2189
如轉輪王	-11.2189
精進清淨平等	-11.2192
已於過去	-11.2192
除罪	-11.2194
豫知	-11.2195
所不能及	-11.2197
諸大龍王	-11.2197
滅中有五陰	-11.2197
修羼提波羅蜜	-11.2198
速成	-11.2199
妙定	-11.22
復有三種	-11.2201
惟願世尊	-11.2202
等者	-11.2202
大乘之法	-11.2205
八人	-11.2206
豐足	-11.2207
男子身	-11.2208
佛告諸菩薩	-11.2209
受請	-11.221
諸菩薩行	-11.2212
趣菩提	-11.2212
三千大千世界六種震動	-11.2213
跋坻	-11.2214
於如來所	-11.2216
寧可	-11.2217
如恒沙	-11.2219
志求	-11.2221
知身	-11.2224
求聲聞	-11.2228
是為菩薩超	-11.2228
離故知	-11.2229
我於過去	-11.223
所作善根	-11.2231
那耶	-11.2233
一千	-11.2233
不可稱限	-11.2234
足下	-11.2236
何由	-11.2237
其心寂靜	-11.2241
二十者	-11.2243
佛說法	-11.2244
為業	-11.2245
勸他	-11.2247
名為誑	-11.2249
法律	-11.2249
無有盡	-11.2249
一日夜	-11.2255
結縛	-11.2255
百千萬劫	-11.2255
生老死	-11.2261
修聲聞	-11.2263
一切聲	-11.2265
無違	-11.2266
高聲	-11.2266
但以	-11.2268
知生死	-11.2269
所纏	-11.2271
利益事	-11.2271
陀羅尼者	-11.2272
如來今者	-11.2273
則不能	-11.2274
即生念	-11.2277
如水月	-11.2278
寶座	-11.2278
我子	-11.2279
菩薩便	-11.2279
亦無所住	-11.2282
諸初生者	-11.2282
不依止	-11.2286
此會中	-11.2287
有大力	-11.2287
病患	-11.2289
於善	-11.229
紫金	-11.2292
十界	-11.2299
龍女	-11.2301
不成	-11.2301
無救	-11.2302
復出	-11.2306
妙藥	-11.2308
不減	-11.2317
譬如人	-11.2318
火界	-11.2318
非為	-11.2319
諸臣	-11.2321
而立	-11.2321
是人則能	-11.2324
我令	-11.2325
同利	-11.2333
施我	-11.2334
亦不可說	-11.2334
豈有	-11.2339
菩提故	-11.2343
善說如來	-11.2346
非一	-11.2346
墮阿鼻地獄	-11.2348
無少	-11.2349
呵多	-11.2349
為於	-11.2354
應如是	-11.2355
受此	-11.2355
有三十二	-11.2355
亦非空	-11.2356
明達	-11.236
不名為	-11.2361
城內	-11.2362
習惡	-11.2367
如有	-11.237
口出	-11.2371
令眾	-11.2372
八生死	-11.2373
若欲得	-11.2373
乃至不住	-11.2373
惡病	-11.2376
沙國	-11.2377
我有	-11.238
佛果	-11.2382
具行	-11.2389
淨身	-11.239
行無盡	-11.2392
歎此	-11.2395
大河	-11.2396
我等今	-11.24
一切處	-11.2402
一切大地	-11.2403
無癡	-11.2404
自莊嚴	-11.2405
皆悉成就	-11.2405
最妙	-11.2405
之誼	-11.2405
訟	-11.2406
是為忍	-11.2406
五十九	-11.2409
一切所作	-11.241
修梵行	-11.2411
月合	-11.2411
至心歸依	-11.2411
行菩薩行	-11.2412
戒律	-11.2412
諸子	-11.2412
無去來	-11.2414
僧伽	-11.2417
菩薩承佛聖旨	-11.242
所遊	-11.2421
無量無邊不可思議	-11.2427
志在	-11.2429
為當	-11.243
種種方便	-11.2431
明月	-11.2434
在佛	-11.2438
之音	-11.2441
離諸煩惱	-11.2443
四無礙	-11.2448
然燈	-11.2453
一切諸法皆	-11.2454
七星	-11.2455
其實	-11.2459
耳鼻舌身	-11.2462
為調伏	-11.2464
樂具	-11.2465
其量	-11.2471
於正法中	-11.2471
行六波羅蜜	-11.2471
佛告跋陀和	-11.2475
大婆羅門	-11.2476
饒	-11.2476
汝意	-11.2479
此正	-11.2487
以少	-11.2489
復有四種	-11.2491
度脫眾生	-11.2492
勝義	-11.2494
應生	-11.2496
十方諸佛世界	-11.2497
火光	-11.25
善守護	-11.2505
未學	-11.2506
以方便力	-11.2507
缺漏	-11.2511
道力	-11.2513
未解	-11.2515
空義	-11.2515
諸天眾	-11.2515
能受	-11.2515
百分千分百千	-11.2518
佛法中	-11.2519
婆迦	-11.2524
當學	-11.2524
為頂	-11.2525
以偈答	-11.2525
九種	-11.2527
眾邪	-11.2532
應速	-11.2533
淨水	-11.2537
未至	-11.2539
此大集會正法	-11.2545
龍身	-11.2548
諸神通	-11.2552
既見	-11.2559
及得	-11.256
語者	-11.2564
未有	-11.2568
不怖	-11.2569
魔力	-11.257
說陀羅尼	-11.257
豈能	-11.2571
真空	-11.2571
修身念處	-11.2571
思惟分別	-11.2571
當持	-11.2572
與此	-11.2574
令使	-11.2579
若未	-11.2585
利鈍	-11.2586
求佛道	-11.2587
至今	-11.2588
諸不善法	-11.2594
若其	-11.2596
度人	-11.2599
一事	-11.2605
四名	-11.2605
有所問	-11.2607
佛說如是	-11.2611
七日合	-11.2614
疲惓	-11.2619
成就一切	-11.2619
鴦伽	-11.262
乃名曰	-11.2621
住彼	-11.2623
勸發	-11.2626
人道	-11.2629
獲大利	-11.2629
已知	-11.2629
發精進	-11.2642
一行	-11.265
讀誦書寫	-11.265
無有眾生	-11.265
寶臺	-11.2653
此心	-11.2653
少聞	-11.2656
二俱	-11.2661
一種	-11.2662
譬如有	-11.2663
之家	-11.2668
悉已	-11.267
人及非人	-11.2674
猶尚	-11.2675
是非	-11.2676
彼剎	-11.2677
解脫者	-11.2682
卷下	-11.2688
於聲聞	-11.2694
於三惡道	-11.2695
種種上妙	-11.2697
取於	-11.2698
到涅槃	-11.2701
菩提記	-11.2709
百歲	-11.271
光寶	-11.2711
渚	-11.2713
不著於	-11.2716
為王	-11.2718
得免	-11.2718
參合	-11.2719
為最	-11.2723
求救	-11.2726
多劫	-11.2727
於我所	-11.2727
力也	-11.2734
悉知之	-11.2737
上至	-11.2739
無濁	-11.2743
香氣	-11.2744
度生死	-11.2744
身色	-11.2746
諸香	-11.2747
十方一切諸佛	-11.2747
業因	-11.2748
佛說是	-11.2752
身念處	-11.2757
無熱	-11.2759
入禪定	-11.276
迦葉佛	-11.2762
得值遇	-11.2762
得神通	-11.2762
眾行	-11.2766
萬歲	-11.2769
我今已	-11.2777
現證	-11.2777
無與等	-11.2779
皆歡喜	-11.2779
一切三世	-11.278
毀他	-11.2781
州	-11.2783
圖	-11.279
不堪	-11.279
虗妄	-11.2792
彼是	-11.2793
惑亂	-11.2805
色界天	-11.2806
槩	-11.2806
楞嚴	-11.2808
入海	-11.2808
而聽	-11.2808
嘉	-11.2809
鋸	-11.281
是道	-11.281
與眾等	-11.2811
捕	-11.2812
旁	-11.2814
斛	-11.2814
初名	-11.2816
逝	-11.2816
利益心	-11.2817
所執	-11.2818
發無上正真道意	-11.2819
剌	-11.2819
裴	-11.2819
滋茂	-11.282
湯	-11.2822
顛	-11.2824
陰陽	-11.2825
或閉牢獄	-11.2825
婬泆	-11.2826
是人則	-11.2826
貪瞋癡	-11.2828
支提	-11.2828
筆	-11.2828
耕	-11.2829
鬬	-11.2829
膿	-11.2831
弓	-11.2831
恭對	-11.2831
願令	-11.2831
阿跋	-11.2832
鉗	-11.2832
五百年	-11.2832
苦事	-11.2832
細軟	-11.2833
法船	-11.2833
小兒	-11.2833
是命終人	-11.2833
無始來	-11.2834
塚間	-11.2834
下中上	-11.2835
智者所	-11.2835
廣行	-11.2835
或有說言	-11.2837
兮	-11.2838
緩	-11.2838
欲往	-11.2838
妖	-11.2839
麁澁	-11.2839
魂神	-11.2839
任運	-11.2839
燃燈	-11.284
求出無期	-11.2841
衣裳	-11.2841
魏	-11.2841
奮	-11.2841
阿鼻獄	-11.2841
閻浮檀金	-11.2842
殘	-11.2842
伺	-11.2842
不斷三寶	-11.2843
率爾呵舉破戒苾芻	-11.2843
項	-11.2843
轉大法輪	-11.2844
羞慚	-11.2845
涯	-11.2845
側	-11.2846
彩	-11.2847
九十一劫	-11.2847
從何處來	-11.2847
究暢	-11.2847
亢	-11.2848
洛	-11.2848
逆罪	-11.2848
於阿耨多羅三藐三菩提而成正覺	-11.2849
八萬四千法聚	-11.285
矜	-11.285
不可樂想	-11.285
問曰	-11.285
入無畏城	-11.2851
出興於世	-11.2852
還自	-11.2852
輔行	-11.2853
較量	-11.2853
復念	-11.2853
噓	-11.2854
亦能令彼一切眾生	-11.2854
戒聚	-11.2854
出家修道	-11.2854
言已	-11.2854
所作已辦	-11.2854
布薩	-11.2854
齋日	-11.2854
出現世間	-11.2854
鬪戰	-11.2854
?』」	-11.2855
釋子	-11.2855
整理衣服	-11.2855
摩帝	-11.2855
英	-11.2855
此明	-11.2856
是為菩薩能過魔界	-11.2856
無識	-11.2856
未來現在	-11.2856
躬	-11.2856
死此生彼	-11.2857
四維	-11.2858
不倚	-11.2858
如審	-11.2859
訓誨	-11.2859
侯	-11.2859
為聽法故	-11.286
不可為喻	-11.286
篋	-11.286
甘美	-11.286
郁	-11.286
揵	-11.286
於現身中	-11.2861
橋梁	-11.2861
年歲	-11.2862
肅	-11.2862
離間語	-11.2863
傘蓋	-11.2863
如實際	-11.2863
盧遮那	-11.2863
世尊重顯此義	-11.2863
自利利他	-11.2864
謹慎	-11.2864
迴向法界	-11.2865
今生	-11.2865
城郭	-11.2865
隨眠	-11.2865
慳惜	-11.2866
千萬億	-11.2866
常得不離見一切佛	-11.2867
廣說如前	-11.2867
於其中間	-11.2868
并其眷屬	-11.2868
終無有能	-11.2869
我今敬禮	-11.2869
令得解脫	-11.287
迦留尼迦	-11.287
十號具足	-11.287
天子千眷屬	-11.2871
政	-11.2871
取蘊	-11.2872
舌味	-11.2873
如來則為讚說	-11.2873
不可言說	-11.2874
甚奇	-11.2875
不謬	-11.2875
佛言藥王軍	-11.2875
住虛空中	-11.2877
不可說法	-11.2877
以用供養	-11.2879
阿奴	-11.2879
究盡	-11.2879
不信者	-11.2879
或有得於	-11.2879
扇	-11.288
海慧	-11.288
得安隱住	-11.2881
如是菩薩摩訶薩	-11.2881
如所聞法	-11.2881
六度無極	-11.2881
皆悉消滅	-11.2883
諸惡見	-11.2884
諸龍眾	-11.2884
香象菩薩	-11.2884
家宅	-11.2885
一心歸依	-11.2885
無邪	-11.2886
施度無極	-11.2887
彼剎帝利旃荼羅王	-11.2888
得成熟	-11.2889
拘留孫佛	-11.2891
無所獲	-11.2892
色空	-11.2892
自念言	-11.2893
惹	-11.2893
遠近	-11.2894
波那	-11.2895
邏娑	-11.2896
能令菩薩摩訶薩等	-11.2896
闍梨	-11.2897
鼻香	-11.2898
呬	-11.2898
白月	-11.2899
入出息	-11.29
菩薩應當	-11.2903
諮嗟	-11.2905
而作佛事	-11.2906
耳鼻	-11.2906
興立	-11.2908
去來現在	-11.2908
此彼	-11.2908
皆發無上正真道意	-11.2908
現見	-11.2909
即能獲得	-11.291
日月光明	-11.291
五支	-11.2911
修忍辱	-11.2912
》《	-11.2915
優鉢羅華	-11.2916
而來至此	-11.2918
色無色	-11.2919
進根	-11.2921
來集會	-11.2921
從因緣生	-11.2922
波邏	-11.2925
其名	-11.2925
入胎者	-11.2931
歸向	-11.2931
方便故	-11.2931
幾何	-11.2932
之大	-11.2933
須菩提言	-11.2933
毘囉娑	-11.2935
常不	-11.2936
諸緣	-11.2936
難量	-11.2937
五十四	-11.2937
若有欲	-11.2937
受三歸	-11.2938
守是三昧	-11.2939
不顧	-11.2942
持淨戒	-11.2942
八道	-11.2944
是何等	-11.2945
而供養佛	-11.2947
眾寶莊嚴	-11.2948
有十種	-11.2951
十八界	-11.2951
美妙	-11.2953
印句	-11.2959
求阿耨多羅三藐三菩提	-11.296
寶聚如來	-11.296
光色	-11.2961
受福	-11.2961
慈悲憐愍	-11.2961
小國王	-11.2962
至心聽受	-11.2963
有限	-11.2964
所當	-11.2965
地藏本願	-11.2967
東方有	-11.2968
諸處	-11.2971
如教	-11.2974
諸佛國	-11.2974
總持方便	-11.2975
居處	-11.2978
智業	-11.2978
無說	-11.298
九萬二千	-11.2981
若有眾生樂	-11.2981
任持	-11.2982
十方無量	-11.2982
能伏一切	-11.2989
無量人天	-11.299
佛陀	-11.299
不壞故	-11.299
諸通慧	-11.2991
夜叉等	-11.2992
眾生樂見	-11.2994
夜叉千眷屬	-11.2995
禮已	-11.2996
離故	-11.2998
悉發阿耨多羅三藐三菩提心	-11.2999
問佛言	-11.3002
所作功德	-11.3005
彼輩	-11.3006
放大	-11.3007
難測	-11.3008
堅固不退	-11.3008
所供養	-11.3008
之機	-11.3009
隨宜	-11.3012
不生怖畏	-11.3017
愛取	-11.3017
巳來	-11.3017
既自	-11.3018
其座	-11.302
往彼世界	-11.3023
有諸菩薩	-11.3024
無為法	-11.3024
自覺	-11.3025
廣明	-11.3028
無分別故	-11.3029
無諂	-11.3029
梵釋	-11.303
摩睺羅伽等	-11.303
此岸	-11.3031
四恩	-11.3032
諸行無常	-11.3034
我正法	-11.3036
不覩	-11.3039
阿那婆	-11.3039
十方無量諸佛	-11.3042
於彼何者是	-11.3044
有疑	-11.3045
眼觸	-11.3047
譬如虛空無有	-11.3049
畢竟忍	-11.3051
無上涅槃	-11.3052
決了	-11.3053
諸阿羅漢	-11.3056
氐	-11.3058
敬仰	-11.3061
受持禁戒	-11.3064
作是念言	-11.3069
者何	-11.3074
諸世界中	-11.3083
難忍	-11.3084
具足戒	-11.3085
佛告地藏菩薩	-11.3086
或三	-11.3086
遇善知識	-11.3088
無所壞	-11.3089
命盡	-11.309
如大地	-11.3091
又聞	-11.3092
宜應	-11.3093
心不悔	-11.3093
不食	-11.3097
四句	-11.3099
為何所	-11.31
一體	-11.3104
陰魔	-11.3111
說大集會正法	-11.3112
者無有是處	-11.3113
一切草木	-11.3115
誠心	-11.3115
無放逸	-11.3117
寶器	-11.3118
汝身	-11.3121
愛心	-11.3122
初地	-11.3122
若起	-11.3122
勝佛	-11.3123
入此三昧	-11.3124
聞此法	-11.3125
度諸	-11.3125
別異	-11.3126
廣分別說	-11.3128
隨行	-11.3129
授與	-11.313
若若	-11.3133
發道心	-11.3134
毀滅	-11.3135
國城	-11.3137
安諦	-11.3138
受記	-11.314
勿生	-11.3152
於當來	-11.3153
而我	-11.3154
如師子王	-11.3158
諸法悉	-11.316
修慈心	-11.3161
眾俱	-11.3165
然燈佛	-11.3166
宮中	-11.3166
後世所生	-11.3166
大阿羅漢	-11.3167
得證	-11.3167
不過	-11.3171
眾生處在	-11.3172
六十一	-11.3172
去處	-11.3173
知過去	-11.3175
伊羅	-11.3178
離染	-11.3178
千生	-11.3179
中尊	-11.3179
彼比丘	-11.3181
復有一	-11.3182
福力	-11.3184
多眾生	-11.3185
非但	-11.3186
受陰	-11.3188
分二	-11.3189
汝觀	-11.319
百千俱胝	-11.3191
禮佛足	-11.3195
無有生	-11.3198
於我所說	-11.32
自行	-11.3205
忍能	-11.3206
為如來	-11.321
神通自在	-11.3212
不妄	-11.3214
善神	-11.3215
增長善根	-11.3216
諸人天	-11.3218
眾中有一	-11.322
斯為	-11.3222
業輪	-11.3226
不犯	-11.3226
不顛倒	-11.323
面見	-11.3231
為滅	-11.3232
五十五	-11.3235
不覺知	-11.3236
彼界	-11.3237
眼空	-11.3237
法誼	-11.3237
其水	-11.324
欲天	-11.3241
離貪	-11.3244
說此三昧	-11.3246
遮婆	-11.3246
空界	-11.3251
違失	-11.3252
地精氣	-11.3253
退轉	-11.3253
不通	-11.3255
失於	-11.3256
百二十	-11.3258
不越	-11.3258
惡臭	-11.3258
之屬	-11.3258
別離	-11.326
令生	-11.3263
大船	-11.3264
隨於	-11.3266
苦道	-11.3267
眾色	-11.3267
諸所有	-11.3268
人說言	-11.3269
大品	-11.327
轉輪王身	-11.327
極苦	-11.3272
屬於	-11.3272
於娑婆世界	-11.3276
超勝	-11.3276
我今為汝	-11.328
達囉	-11.3282
受持此經	-11.3284
調善	-11.3286
得果	-11.3288
佛乘	-11.329
威神之力	-11.3291
耳鼻舌身意	-11.3292
證滅	-11.3294
法會	-11.3296
自貢高	-11.3299
未曾見	-11.3302
涅槃後	-11.3305
而語	-11.3306
一切眾生心行	-11.3306
於人天	-11.3306
明解	-11.3307
於外	-11.3316
為作護	-11.3323
長時	-11.3328
樂事	-11.3332
驚恐	-11.3332
世界中	-11.3336
無變	-11.334
住戒	-11.3347
無所起	-11.3349
於禪	-11.335
自高	-11.3352
雖聞	-11.3353
正教	-11.3354
變作	-11.3357
成等正覺	-11.3358
而是菩薩	-11.3358
轉生	-11.3361
此眾	-11.3361
大神通力	-11.3362
之王	-11.3364
不堅	-11.3366
心數	-11.3369
當速	-11.3372
之聚	-11.3379
證明	-11.3379
今欲	-11.339
此乘	-11.3393
本願力故	-11.3396
當墮惡道	-11.3401
千倍	-11.3403
無量阿僧祇劫	-11.3408
下生	-11.341
故而得調伏	-11.3412
生信解	-11.3412
不難	-11.3414
一切佛法故	-11.3415
彼城	-11.3421
己國	-11.3422
餘業	-11.3425
無主	-11.3429
大沙門	-11.3447
皆歸	-11.3447
所止	-11.3453
為利眾生	-11.3454
汝已	-11.3457
一佛剎	-11.3458
除諸煩惱	-11.346
佛邊	-11.3465
梵世	-11.3466
因地	-11.3468
眾生平等	-11.3469
所謂菩薩	-11.3474
四意止	-11.3474
得供養	-11.3474
甚深微妙	-11.3474
義無礙	-11.3476
不別	-11.3476
曇	-11.348
種種珍寶	-11.3484
諸苾芻	-11.3484
諸佛前	-11.3491
計於	-11.3495
又為	-11.3495
捨命	-11.3498
其口	-11.35
阿彌陀	-11.3504
頗有	-11.3505
之初	-11.3505
如水	-11.3505
大神變	-11.3505
結上	-11.3506
受持是經	-11.3508
後時	-11.3508
當墮	-11.3509
空門	-11.3509
至于	-11.3509
所由	-11.3509
乃至菩提	-11.351
淨佛土	-11.351
懈怠者	-11.3511
秋	-11.3513
如是觀察	-11.3514
色想	-11.3516
亦不住	-11.3517
甚深佛法	-11.3518
觀已	-11.3519
言音	-11.3523
共行	-11.353
心離	-11.3536
皆悉具足	-11.354
從他聞	-11.3543
得彼	-11.3544
其根	-11.3547
巳上	-11.3549
戟	-11.3551
有大光明	-11.3552
衝	-11.3553
祐	-11.3554
善意	-11.3558
債	-11.3563
壤	-11.3565
乃至真善	-11.3566
有百千	-11.3567
得利	-11.357
供養彼佛	-11.3572
三萬二千	-11.3573
上聲	-11.3574
水月	-11.3574
邑	-11.3576
煑	-11.3576
餓鬼等	-11.3577
鷲王	-11.3578
童	-11.358
妹	-11.3581
貢	-11.3582
艸	-11.3583
遍十方	-11.3583
如是如來	-11.3585
束	-11.3585
於內	-11.3586
大精進	-11.3586
上乘	-11.3587
何等為二	-11.3587
矟	-11.3587
僧事	-11.3588
藍	-11.3591
求哀懺悔	-11.3591
閑	-11.3591
壑	-11.3592
塑像	-11.3594
業因緣故	-11.3594
禍福	-11.3595
於父母	-11.3595
番	-11.3596
跪	-11.3597
瘦	-11.3597
旃	-11.3598
利世間	-11.3598
煎	-11.3601
寶貝	-11.3602
疊	-11.3603
虎狼	-11.3605
兵仗	-11.3605
厥	-11.3605
傲	-11.3605
於剎那頃	-11.3606
目揵連	-11.3606
某甲	-11.3607
捶	-11.3607
有想	-11.3607
好醜	-11.3608
若男若女	-11.3608
僧祇	-11.3609
捷	-11.3609
蕩	-11.3609
鉤	-11.361
岐	-11.361
團	-11.3611
津	-11.3611
功德力	-11.3611
愁憂	-11.3612
迦陵頻伽	-11.3612
壓	-11.3612
圍	-11.3612
縮	-11.3613
彼以	-11.3614
阿素洛	-11.3614
如是鎧甲	-11.3614
甚為希有	-11.3615
結恨	-11.3615
踐	-11.3615
餘道	-11.3615
紹	-11.3615
復遇	-11.3616
鬪訟	-11.3616
幾所福	-11.3616
有漏無漏	-11.3616
二萬一千	-11.3616
星形如	-11.3616
芥子	-11.3617
驚動	-11.3617
乳哺	-11.3617
環	-11.3617
厄難	-11.3617
一滴水	-11.3618
治罰	-11.3618
天祠	-11.3618
庫藏	-11.3618
法欲滅時	-11.3618
繒綵	-11.3618
甚可愛樂	-11.3618
朽	-11.3619
整	-11.3619
僉	-11.3619
勉	-11.3619
伽藍	-11.3619
逮成	-11.362
谿	-11.362
無慈	-11.362
伴黨	-11.3621
廣設方便	-11.3621
毛竪	-11.3622
從空而下	-11.3622
丹藏	-11.3622
未來世此佛土中	-11.3623
由是之故	-11.3623
金縷	-11.3623
來詣佛所	-11.3623
夭	-11.3623
否	-11.3623
摧壓	-11.3624
齊限	-11.3624
憂慼	-11.3624
化變	-11.3624
開敷	-11.3624
官屬	-11.3624
默然許	-11.3624
精舍	-11.3624
隋天竺三藏那連提耶舍譯	-11.3625
非聲聞	-11.3625
東方去此	-11.3625
國王大臣	-11.3625
噉食	-11.3625
悕	-11.3626
既聞法已	-11.3626
於聲聞乘得無誤失	-11.3626
建立法幢	-11.3626
阿閦	-11.3626
朋友	-11.3627
真珠瓔珞	-11.3627
受胎者	-11.3627
於流轉中	-11.3627
祕	-11.3627
一剎那頃	-11.3628
卵生	-11.3628
上來	-11.3629
牆壁	-11.3629
而不取證	-11.3629
所愛妻子	-11.3629
不應取著	-11.3629
尋伺	-11.363
諸根不具	-11.363
護持淨戒	-11.363
市	-11.363
阿若憍陳如	-11.363
摩我頂	-11.363
毘沙門天王	-11.363
毘樓博叉天王	-11.363
常得昇進	-11.3631
山川	-11.3631
無明黑闇	-11.3632
搜	-11.3632
靡所不	-11.3632
自在王菩薩	-11.3632
告我言	-11.3632
無願順陀羅尼	-11.3632
結舌不言	-11.3633
誠諦	-11.3633
挍	-11.3633
為諸有情如應說法	-11.3633
過咎	-11.3633
麁惡語	-11.3634
稱讚貴重	-11.3634
通慧	-11.3634
毒氣	-11.3635
滿中珍寶	-11.3635
菩薩于彼興發大哀為說經	-11.3636
壽終	-11.3636
常得值遇諸善知識	-11.3637
毘樓勒叉天王	-11.3637
見聞隨喜	-11.3637
犯四重禁	-11.3638
無所猜	-11.3638
來至佛所	-11.3638
長遠	-11.3638
樂於寂靜	-11.3639
猛風	-11.3639
詣佛所	-11.3639
是其莊嚴	-11.3639
思惟其義	-11.364
遠離惡友	-11.364
為他演說	-11.364
支體	-11.364
秘密	-11.3641
菩薩見已修集	-11.3641
當得作佛	-11.3642
不退阿耨多羅三藐三菩提	-11.3642
堅固鎧	-11.3642
隨順而行	-11.3642
虛空庫藏	-11.3642
應如是知	-11.3643
為信力	-11.3643
牟尼聖人住處	-11.3643
令法久住	-11.3643
轉於法輪	-11.3644
衰惱	-11.3644
成熟有情	-11.3644
我所說	-11.3645
遮障惡眾生	-11.3645
生大怖畏	-11.3645
備足	-11.3645
窮脾	-11.3645
加惡	-11.3646
精勤修習	-11.3646
分百千萬分	-11.3646
黑山	-11.3646
失道者	-11.3648
佛頂	-11.3648
須達	-11.3648
是名說義	-11.3649
影現	-11.3649
為人說經	-11.3649
具足成滿	-11.365
勝義諦	-11.365
茂羅	-11.365
然燈如來	-11.365
無上菩提之心	-11.3652
汝等一切	-11.3652
我於今日	-11.3652
於諸善根常	-11.3652
無央數劫	-11.3653
多日夜	-11.3655
不取不捨	-11.3655
濁惡	-11.3655
諸蟲	-11.3655
勤勞	-11.3656
如汝所言	-11.3656
受大苦	-11.3656
忍波羅蜜	-11.3657
墮於地獄	-11.3658
壽命無量	-11.3659
處大眾中	-11.3659
諸塵	-11.366
十千眷屬	-11.366
一菩薩名	-11.366
佛者	-11.3661
譬如大地	-11.3661
濕生	-11.3662
聞知	-11.3663
宣示	-11.3664
繫著	-11.3664
速得自在	-11.3664
劫燒	-11.3664
魯	-11.3664
陀羅尼呪	-11.3664
證此三昧	-11.3667
普覆	-11.3668
義今說	-11.367
能大利益	-11.367
一切法體性	-11.367
諸善知識	-11.3671
支解	-11.3671
不與取	-11.3672
亦無增減	-11.3672
妙吉祥	-11.3676
善調	-11.3676
薩他	-11.3676
至心受持	-11.3677
及大聲聞	-11.3678
為菩提故	-11.368
慈氏	-11.3681
乃至夢中	-11.3682
入初禪	-11.3683
得其便	-11.3684
清白	-11.3684
供養之具	-11.3685
畢竟盡	-11.3685
迦樓羅王	-11.3686
告阿難	-11.3687
是畢竟忍	-11.3689
暫住	-11.3691
為眾生說法	-11.3692
入心	-11.3694
若有法師	-11.3695
又有眾生	-11.3695
無有覺觀	-11.3696
來到佛所	-11.37
大藏	-11.37
出沒	-11.37
不止	-11.3703
我今當說	-11.3707
驚疑	-11.3707
常觀	-11.3707
方能	-11.3708
於過去世	-11.3708
普賢如來	-11.3709
無所依止	-11.371
割截	-11.371
得如月	-11.3711
作大利益	-11.3711
於百千劫	-11.3712
發動	-11.3712
貪瞋	-11.3712
得無礙智	-11.3713
四方僧	-11.3713
一切法障	-11.3716
持此經	-11.3716
清淨梵行	-11.3717
淨口	-11.3717
常當念	-11.3718
正意	-11.3719
施其	-11.372
譬如大	-11.372
入王舍城	-11.3721
於一切定	-11.3721
倍復	-11.3723
是故奢利弗	-11.3726
佐助	-11.3726
修行善法	-11.3727
還來	-11.3729
大醫王	-11.373
取其	-11.3731
便當	-11.3731
眾生修集悲心	-11.3736
不見一法	-11.3737
死後	-11.374
得成阿耨多羅三藐三菩提	-11.3744
遮護	-11.3746
如是展轉	-11.3746
皆是如來	-11.3747
是名菩薩觀	-11.3747
薩多	-11.3747
因緣和合	-11.3747
四萬	-11.3751
鐵圍山	-11.3753
無量苦惱	-11.3754
舍摩	-11.3758
甘樂	-11.3758
不知恩	-11.376
如世	-11.3762
離癡	-11.3762
曇摩	-11.3764
現神變	-11.377
修行六波羅蜜	-11.377
猶未	-11.3771
如是正法	-11.3771
珠瓔	-11.3774
乃至得阿耨多羅三藐三菩提	-11.3775
虛假	-11.3778
世間法	-11.3778
本來清淨	-11.378
七重	-11.3781
諸女	-11.3781
知故	-11.3782
般遮	-11.3783
成形	-11.3785
閻浮提人	-11.3785
常勤精進	-11.3787
當受	-11.3787
施諸眾生	-11.3793
化成	-11.3795
所作業	-11.3795
勝福	-11.3797
塵數	-11.38
實有	-11.3801
所有事	-11.3802
實為	-11.3802
我等亦當	-11.3803
幢相	-11.3806
摩睺羅伽王	-11.3811
義趣	-11.3816
乃至無有	-11.3816
譬如世間	-11.3817
作是言已	-11.3818
精進勇猛	-11.382
清淨信	-11.3822
疑網心	-11.3823
散壞	-11.3824
當起	-11.3825
四顛倒	-11.3825
歸佛	-11.3826
若彼眾生	-11.3826
又為一切	-11.3828
嚴身	-11.3829
蒙佛	-11.383
於此世界	-11.3834
往娑婆世界	-11.3834
無間斷	-11.3837
到菩提	-11.3839
譬之	-11.3845
稱意	-11.3846
空無所有	-11.3849
水火風	-11.385
眾星	-11.3851
於其中	-11.3853
總持莊嚴	-11.3854
前世	-11.3854
持戒清淨	-11.3854
世尊為我宣說	-11.3857
由心	-11.3859
知世	-11.3859
於是中	-11.3863
詣世尊所	-11.3865
如是說者	-11.3866
尋時	-11.3875
是人能	-11.3876
皮肉	-11.3878
惡名	-11.3878
未證	-11.3881
應著	-11.3885
第一義空	-11.3885
成就無量功德	-11.3886
如是等經	-11.3886
其邊	-11.3888
眼界	-11.3889
如是等眾	-11.3889
涅槃性	-11.3889
之所供養	-11.389
是乘	-11.3892
功德海	-11.3893
亦可	-11.3897
誰為	-11.3898
自境界	-11.3906
能覺	-11.3908
呿婆	-11.3909
於五濁惡世	-11.3909
欲壞	-11.391
作福	-11.391
不相應	-11.391
隨轉	-11.3911
惡業障	-11.3912
令護	-11.3912
說妙法	-11.3912
不可得故	-11.3913
在世間	-11.3915
二十種	-11.3916
愛樂法	-11.3921
普聞	-11.3921
歸依彼	-11.3924
一切無量眾生	-11.3927
如是見者	-11.3927
王宮	-11.3929
苦諦	-11.393
菩薩於中	-11.3934
等類	-11.3934
無悕望	-11.3937
請佛	-11.3939
十一日合	-11.394
取相	-11.3941
是義不	-11.3942
精進波羅蜜	-11.3943
悉達	-11.3944
其果	-11.3944
知一切諸法	-11.3945
大人相	-11.3948
辟支佛法	-11.3948
於彼眾生	-11.3951
如是觀時	-11.3951
如佛世尊	-11.3953
復人身	-11.3955
致於	-11.3955
乘此	-11.3959
由因	-11.3968
世尊為重明此義	-11.3968
耳聲	-11.3969
四洲	-11.397
破無明	-11.3971
正顯	-11.3979
知是眾生	-11.3985
無想念	-11.3993
佛威神	-11.3996
千里	-11.3996
法僧	-11.4003
種種善根	-11.4005
得出	-11.4006
倦	-11.4009
微少	-11.401
無虛	-11.4011
諸群生	-11.4011
作惡業	-11.4013
況能	-11.4023
諸蘊	-11.4027
法等	-11.4028
得無上道	-11.4029
水天	-11.403
非聖	-11.4031
之位	-11.404
皆得解脫	-11.404
將軍	-11.4041
求是三昧	-11.4041
四果	-11.4044
無障礙故	-11.405
一切諸佛之	-11.405
相無相	-11.4053
大歡喜	-11.4053
佛形像	-11.4059
甚為	-11.4066
久生	-11.4067
諸樹	-11.4069
斯經	-11.4073
發生	-11.4075
爾許	-11.4081
若人欲	-11.4082
十三日合	-11.4083
法緣慈	-11.4084
法障	-11.4087
得之	-11.4087
彼諸善男子	-11.4088
還得	-11.4091
筋	-11.4095
其華	-11.4098
於東方	-11.4102
志願	-11.4104
於彼世界	-11.4104
具是	-11.4105
得無礙	-11.4107
此三昧者	-11.4111
所染	-11.4111
已盡	-11.4113
六十七	-11.4116
是其	-11.4116
空見	-11.4119
諸水	-11.412
眾生發阿耨多羅三藐三菩提心	-11.4121
諸願	-11.4127
上品	-11.4128
大姓	-11.4129
供養供給	-11.4133
苑	-11.4137
如王	-11.4138
八萬四千劫	-11.4144
種種香	-11.4144
金輪	-11.4144
我先	-11.4146
佛十力	-11.415
諸魔業	-11.4152
諸惡道	-11.4156
愍眾生故	-11.4156
菩薩見已修	-11.4156
比摩	-11.4156
真實語	-11.4158
獨一	-11.4159
者豈	-11.4164
慧故	-11.417
能壞眾生	-11.4171
方便智慧	-11.4173
而諸眾生	-11.4174
各不相	-11.4175
軫	-11.4181
滅界	-11.4185
已說	-11.4185
生瞋	-11.4186
獲得菩提	-11.4187
大菩薩眾	-11.4187
垢濁	-11.4187
此經法	-11.4187
無聞	-11.419
舍利弗問	-11.4202
不誹謗	-11.4207
能照	-11.4207
相見	-11.421
那伽	-11.4217
真實見	-11.4217
如法性	-11.4218
麻油	-11.4224
惡作	-11.4227
修悲	-11.4227
等像	-11.423
眾前	-11.4231
如電	-11.4233
所有福德	-11.4238
彼若	-11.4239
求名聞	-11.4241
自讚	-11.4243
金剛三昧	-11.4243
母胎	-11.4244
法師所	-11.4249
如是大士	-11.425
如法界	-11.4251
是名莊嚴	-11.4255
汝當受持	-11.4256
以何等	-11.4257
佛慧	-11.4259
未度	-11.4264
寶蓮華	-11.4268
諷	-11.4269
欲事	-11.427
一樹	-11.427
羅龍王	-11.4271
今說	-11.4271
之病	-11.4271
無所犯	-11.4274
即白	-11.4274
尼國	-11.4277
憐愍一切眾生	-11.4279
曾無	-11.4281
寧不	-11.4283
行乞食	-11.4284
於菩提道	-11.4285
坊	-11.4286
覺支	-11.4286
發行	-11.4288
經家敘	-11.4293
即令	-11.4296
於此三千大千世界	-11.4298
明淨	-11.4302
有佛世尊	-11.4302
習交	-11.431
受法者	-11.4315
著我	-11.4316
自度	-11.4317
搖	-11.432
八萬四千諸	-11.432
或能	-11.4321
亦不知	-11.4321
愍眾生	-11.4325
得成佛	-11.4326
十方無量世界	-11.4333
百種	-11.4334
有佛名	-11.4338
無瞋恚	-11.434
是人如是	-11.4343
同事	-11.4344
羂	-11.4349
聽正法	-11.435
據此	-11.4352
諸罪人	-11.4352
無依止	-11.4355
斷愛	-11.4356
聽受法	-11.4359
十住	-11.4363
能轉	-11.4365
於往昔	-11.4367
明解脫	-11.4369
一切諸佛之所	-11.437
多惡	-11.4371
商	-11.4372
廣設	-11.4372
無有餘	-11.4372
餓	-11.4372
已斷	-11.4374
金色光	-11.4377
孫	-11.4378
作善	-11.4381
宰	-11.4383
衣鉢	-11.4383
雖多	-11.4385
魅	-11.4385
三法	-11.4388
能施一切	-11.4388
業果報	-11.4393
是辰	-11.4393
佛塔	-11.4393
從定起	-11.4399
沸	-11.44
鼠	-11.4403
三萬億	-11.4404
鑊	-11.4406
牟尼尊	-11.4407
兜率陀天	-11.4408
自在菩薩	-11.4408
楞嚴云	-11.441
條	-11.4411
亦云	-11.4412
贍部洲	-11.4414
化身	-11.4415
匿	-11.4417
三十日	-11.4418
叫喚	-11.4419
無雜	-11.442
鍾	-11.442
初分二初	-11.4422
藝	-11.4424
拍	-11.4424
屠	-11.4424
京	-11.4424
立世阿毗曇	-11.4424
鑒	-11.4426
羯磨	-11.4426
刻	-11.4428
效	-11.4428
姑	-11.4429
夏	-11.4429
初分三初	-11.4429
狐	-11.443
住不退轉地	-11.443
慼	-11.4431
撥無因果	-11.4431
塑畫	-11.4431
無熱惱	-11.4432
丹	-11.4432
以此陀羅尼	-11.4433
說是偈	-11.4433
嬈亂	-11.4435
薪	-11.4436
絃	-11.4438
夜摩天	-11.4438
度諸眾生	-11.4439
紛	-11.4439
覺華定自在王如來	-11.4439
麻	-11.4439
妙花	-11.444
地藏慈尊	-11.444
陸	-11.444
阿那婆達多龍王	-11.444
娜娜	-11.4441
塊	-11.4441
振	-11.4442
龜	-11.4442
莊嚴道場	-11.4442
摧魔如來	-11.4442
事而持禁戒	-11.4442
無來	-11.4442
臍	-11.4443
是故我禮	-11.4443
我及我所	-11.4443
減損	-11.4443
衢	-11.4444
離善知識	-11.4444
即我身是	-11.4444
剃髮	-11.4445
析	-11.4445
百千生中	-11.4446
疎	-11.4447
姦	-11.4447
諸三昧門	-11.4447
蓮華藏如來	-11.4448
摩睺勒	-11.4448
蠱	-11.4448
白象	-11.4448
發弘誓願	-11.4448
巨海	-11.4448
俱胝那庾多百千	-11.4449
踈	-11.445
塹	-11.445
金剛齊	-11.445
北涼天竺三藏曇無讖譯	-11.445
於睡夢中	-11.445
八萬四千歲	-11.4451
金剛齊菩薩比丘	-11.4451
為護法故	-11.4451
先亡	-11.4451
修集慈悲	-11.4452
乃至斷命	-11.4452
舉苾芻	-11.4452
整衣服	-11.4452
徑	-11.4452
能滿六波羅蜜	-11.4453
無礙辯才	-11.4454
四梵住	-11.4454
如說而作	-11.4454
遠行安隱	-11.4454
塵沙	-11.4455
輕蔑	-11.4455
簁	-11.4455
鬪亂	-11.4456
是故如來於諸眾生而	-11.4456
他方怨敵	-11.4456
如意足	-11.4456
不捨離	-11.4456
煩惱病	-11.4457
暉	-11.4457
窓	-11.4457
薰	-11.4457
超殊	-11.4457
斫芻	-11.4457
乃往過去	-11.4457
貧匱	-11.4457
伎藝	-11.4458
瞻視	-11.4458
忻	-11.4459
此即能修	-11.4459
曼陀羅華	-11.4459
村邑	-11.4459
堪為聲聞	-11.4459
虛空之性	-11.4459
我往	-11.4459
胞胎	-11.446
細滑	-11.446
縱廣高下	-11.446
未解脫者	-11.446
九萬九千	-11.446
汝亦應令得生敬信	-11.4461
香潔	-11.4461
隣國	-11.4461
世尊復告賢護菩薩	-11.4461
及斷命根	-11.4461
從何所來	-11.4462
大力軍將	-11.4462
於獨覺乘得無誤失	-11.4462
危害	-11.4462
班宣	-11.4462
於獨覺乘補特伽羅得無誤失	-11.4462
挑	-11.4463
貪欲瞋恚愚癡	-11.4464
袈裟幢	-11.4464
造身語意	-11.4464
踊躍歡喜	-11.4464
盡形壽	-11.4464
詣寶高座住	-11.4465
常於菩提種種行願	-11.4465
既命終已	-11.4465
日行藏菩薩	-11.4466
導御	-11.4466
受諸苦毒痛切難忍	-11.4466
十八不共之法	-11.4466
諸法無我	-11.4467
戲笑	-11.4467
寄付	-11.4467
息入出	-11.4467
雖受	-11.4468
下至一切被片袈裟剃	-11.4468
命終定生無間	-11.4468
雷震	-11.4468
童男	-11.4469
受種種	-11.4469
一一毛孔	-11.4469
編	-11.447
靜室	-11.4471
信受奉行	-11.4471
不漏	-11.4471
暖	-11.4471
以妙香花	-11.4471
剃	-11.4472
夢覺	-11.4472
為彼守護	-11.4472
所作諸業	-11.4472
二別明	-11.4472
德華藏佛	-11.4473
是名護法	-11.4473
得究竟淨	-11.4473
惡麁堅苦痛不可身	-11.4473
邪業	-11.4474
履尼	-11.4474
日眼蓮華陀羅尼	-11.4474
以己神力	-11.4474
斷除一切	-11.4474
道業	-11.4475
悕求	-11.4475
不如有人	-11.4475
煙	-11.4476
為佛作禮	-11.4476
乾闥婆千眷屬	-11.4477
憙樂	-11.4477
銕圍山	-11.4477
立佛前	-11.4477
骨瑣	-11.4477
迷悶	-11.4478
囉拏	-11.4478
鉢底	-11.4479
彼釋子	-11.4479
知如是者則知緣生法	-11.4479
得增長故	-11.4479
▁40	-11.4479
不加	-11.4479
親近善知識	-11.4479
我等從今	-11.448
如是菩薩摩訶薩住第一義忍清淨平等	-11.448
場和	-11.4481
寂靜處	-11.4482
朱	-11.4482
枳	-11.4482
欄楯	-11.4482
二萬五千	-11.4483
有大因緣	-11.4483
殊致羅娑	-11.4483
糞穢	-11.4483
大乘得無誤失	-11.4484
牟嘍	-11.4484
隨機	-11.4484
不可知	-11.4485
巧方便智	-11.4485
不淨觀	-11.4485
婆羅門旃荼羅	-11.4486
聚會	-11.4487
中劫	-11.4487
汝曹	-11.4487
無所悕望	-11.4488
株	-11.4489
復有十種	-11.4489
甘露門	-11.4489
俱來集會	-11.4489
意根	-11.4489
名為自說	-11.449
如是忍者是無	-11.449
汝今當	-11.449
虛誑語	-11.4491
三牟陀	-11.4491
我於往昔	-11.4491
受妙樂	-11.4492
不作是念我起	-11.4492
神主當	-11.4493
一切皆悉	-11.4493
并餘	-11.4493
諸根圓滿	-11.4494
悉捨	-11.4495
毫相	-11.4496
法兄	-11.4497
清信	-11.4497
恣意	-11.4497
羯摩	-11.4497
聚落主	-11.4497
國邑	-11.4498
產業	-11.4499
超異	-11.4499
各五百眷屬	-11.45
阿鞞	-11.45
速成阿耨多羅三藐三菩提	-11.4501
路迦	-11.4501
常樂寂靜	-11.4505
善觀作	-11.4505
呵囉	-11.4506
女形	-11.4507
十不善業	-11.4508
箭射	-11.4509
有剎帝利旃荼羅王	-11.4509
壞亂	-11.451
磨滅	-11.4512
大乘法義	-11.4513
以為眷屬	-11.4513
五濁世	-11.4513
諸惡鬼神	-11.4514
主命	-11.4515
阿吒	-11.4518
去來今	-11.452
自觀身	-11.452
虛空之中	-11.4523
是名第二	-11.4524
度生	-11.4524
不可破壞	-11.4525
即非	-11.4525
能護持	-11.4525
無有處所	-11.4526
是名第三	-11.4526
他化自在天王	-11.4526
中央	-11.4527
闍耶	-11.4528
愛重	-11.4531
此四天下所有	-11.4531
度量	-11.4532
中陰	-11.4534
是地藏菩薩摩訶薩	-11.4535
自稱我	-11.4535
樂音	-11.4537
即入三昧	-11.4537
此是菩薩摩訶薩	-11.4537
是諸人等	-11.4539
如是人等	-11.454
供奉	-11.454
聚沫	-11.4541
能忍受	-11.4541
西天	-11.4542
本誓	-11.4543
從事	-11.4544
如斯念	-11.4546
迦邏	-11.4547
眼視	-11.4549
導利	-11.4549
是名非法	-11.4552
隨意所	-11.4552
更不復	-11.4552
一切音聲	-11.4553
能師子吼	-11.4554
沒唎	-11.4555
怖懼	-11.4557
滅沒	-11.4557
是白月	-11.4561
不審	-11.4562
某人	-11.4562
沒履呿	-11.4563
普能	-11.4564
無師	-11.4565
之精	-11.4567
便於	-11.4567
祕密章句	-11.4568
能與眾生	-11.4569
諸不善業	-11.4569
住止	-11.457
耶尼	-11.4573
為聽	-11.4573
品類	-11.4576
有漏法	-11.4577
一切法自性	-11.4578
苦擔	-11.4579
陀羅尼已	-11.458
諸天人等	-11.4583
唯舍利弗	-11.4584
得福多	-11.4587
能堪任	-11.4587
至心聽法	-11.4587
知諸法性	-11.4588
等御	-11.459
億千	-11.4595
遠聞	-11.4597
亦有二	-11.4597
我復又	-11.4597
依何	-11.4608
乃至命終	-11.4608
虛無	-11.4609
如來之身	-11.461
不持戒	-11.4611
生死涅槃	-11.4612
乃可	-11.4613
以頌讚	-11.4613
緣覺之乘	-11.4615
滿足一切眾生	-11.4615
同學	-11.4617
無疑惑	-11.4617
毒惡	-11.4617
種種音樂	-11.462
及他	-11.4621
作護	-11.4622
貪求	-11.4625
六反	-11.4626
於此大乘	-11.4627
分別辯	-11.463
而師子吼	-11.463
波囉	-11.4631
後夜	-11.4632
修十善	-11.4632
無量福	-11.4633
不捨一切眾生	-11.4633
遠離煩惱	-11.4637
依止於	-11.4638
諸如來是	-11.4639
受快樂	-11.4639
發大乘	-11.464
今復	-11.464
總示	-11.464
乃至證得	-11.4641
耀	-11.4643
威勢	-11.4646
日合箕	-11.4646
彼龍	-11.4646
己利	-11.4647
日合觜	-11.4648
光明遍照	-11.4657
三諦	-11.4659
不能測	-11.4663
汝莫	-11.4664
一切眾生境界	-11.4665
六十三	-11.4666
誘進	-11.4667
聲聞辟支佛乘	-11.4668
令我等	-11.4669
初句	-11.4669
不念我	-11.4672
更作	-11.4673
煩惱業	-11.4677
遍至	-11.468
或從	-11.4681
諸度無極	-11.4681
無量無數阿僧祇	-11.4683
未定	-11.4685
平等行	-11.4686
究竟具足	-11.4686
修集大悲	-11.4686
乃至百千	-11.469
無退轉	-11.4692
罪障	-11.4693
若約	-11.47
狀如	-11.4704
與欲	-11.4704
少有	-11.471
得罪	-11.4711
無懈倦	-11.4716
法緣	-11.4716
攝諸	-11.4722
治生	-11.4722
不復生	-11.4723
戒義	-11.4726
不調	-11.4727
諸法實相	-11.4727
所壞	-11.4734
而不退轉	-11.4738
是無為	-11.4741
與諸眾生	-11.4741
真實功德	-11.4742
林樹	-11.4746
諸仙	-11.4747
本心	-11.4751
持經	-11.4755
往佛所	-11.4755
滅諦	-11.4756
作無量	-11.4762
退還	-11.4766
能破一切	-11.4771
飲食衣服	-11.4772
日合軫	-11.4775
薩遮	-11.4776
多那	-11.4778
功能	-11.4781
名為如說	-11.4784
亦不能得	-11.4784
比一	-11.4784
惡道中	-11.4785
八萬億	-11.4785
滅已	-11.4788
堪能	-11.4789
我今以此	-11.4789
無患	-11.479
亦是菩薩	-11.4792
心得解脫	-11.4793
日合氐	-11.4794
無非是	-11.4797
聽我說	-11.4802
之根	-11.4802
善因	-11.4805
若今現在	-11.4805
於無量世	-11.4808
善順	-11.4809
作善業	-11.4809
利益世間	-11.4811
眾聖	-11.4811
悉得解脫	-11.4811
作禮而	-11.4814
難見	-11.4817
次觀	-11.482
普觀	-11.4826
令彼等	-11.4833
獨行	-11.4834
遠離諸惡	-11.4836
出苦	-11.4838
諸塵勞	-11.4841
種種苦	-11.4841
諸剎土	-11.4844
調伏諸根	-11.4845
信施	-11.4845
知其數	-11.4845
臣民	-11.4846
用力	-11.4846
在地獄	-11.4848
云何可	-11.4849
遍見	-11.4856
邊地	-11.4858
於三千大千世界	-11.4859
大山	-11.486
魔所	-11.4863
日合亢	-11.4865
十二日合	-11.4866
一切諸法無有	-11.4872
法界平等	-11.4876
清淨施	-11.4876
所稱譽	-11.488
那蛇	-11.4882
無轉	-11.4884
無作者	-11.4887
與諸菩薩	-11.4889
黃金	-11.489
於眾中	-11.4891
不死	-11.4892
成就智	-11.4892
無益	-11.4892
非著	-11.4895
無怖畏	-11.4896
勤心	-11.4897
斷諸煩惱	-11.4898
法典	-11.4899
無量眾生得	-11.4902
善聽	-11.4903
寶光	-11.4905
如是行者得	-11.4906
行檀波羅蜜	-11.4907
是不住	-11.4908
上味	-11.4912
而興	-11.4914
衣食豐	-11.4918
此光	-11.4918
大威力	-11.4925
在地	-11.4926
非受	-11.4928
却後	-11.4929
法服	-11.4934
聞三昧	-11.4934
如昔	-11.4935
永不復	-11.4947
家中	-11.4947
宣說如是	-11.4948
無慢	-11.4949
即是菩提	-11.4949
無教	-11.4951
諸威儀	-11.4952
成立	-11.4953
諸有情故	-11.4956
假使菩薩	-11.4959
佉婆	-11.496
首陀羅	-11.4961
大長者	-11.4963
鬼道	-11.4966
意識界	-11.4968
置之	-11.4969
猶如幻化	-11.497
如母	-11.4973
是為八	-11.4975
并其	-11.4979
七七日	-11.498
分身地藏	-11.4982
觸欲	-11.4985
深知	-11.4988
心所行	-11.4992
作如是觀	-11.4997
等無異	-11.5008
中香	-11.5015
生疑惑	-11.502
丸	-11.5022
於未來	-11.5023
菩薩復有四	-11.5026
恭敬尊重	-11.5031
諸小	-11.5035
令諸菩薩	-11.5037
求法者	-11.504
即是虛空	-11.5042
得須陀洹	-11.5044
修慈悲	-11.5046
魔女	-11.5047
伽闍	-11.5049
一一方	-11.5049
百千眾生	-11.5055
護之	-11.5056
眾生處於	-11.5059
日合婁	-11.5062
問其	-11.5062
沙門婆羅門	-11.5065
能害	-11.5065
二業	-11.5067
隨汝	-11.5067
妙音聲	-11.5069
呵呿	-11.5072
即是空	-11.5073
惑業	-11.5074
;『	-11.5077
二十一者	-11.5077
無歸	-11.5078
所建立	-11.5081
日合辟	-11.5083
四日	-11.5084
之所稱讚	-11.5086
令度	-11.5087
證三昧	-11.5101
有信心	-11.5102
從空	-11.5103
觸因緣	-11.5106
箕	-11.5107
諸大聲聞	-11.5108
爾時有佛	-11.5111
處胎	-11.5112
善來	-11.5115
一沙	-11.5117
願王	-11.5119
懈倦	-11.5121
若人於此	-11.513
無礙辯	-11.513
是名菩薩修行	-11.5137
識界	-11.5139
掌中	-11.5141
萬眷屬	-11.5142
智明	-11.5142
喻如虛空無有	-11.5142
瑕疵	-11.5142
自慚	-11.5143
彼二人	-11.5146
滅罪	-11.5148
是我所	-11.515
手中	-11.5151
能伏	-11.5152
國人	-11.5159
此乃	-11.5159
厭足	-11.5166
莫知	-11.5176
是地藏菩薩	-11.5176
觜	-11.518
愛因緣	-11.5181
牛頭	-11.5182
三匝	-11.5184
顯說	-11.5186
受戒	-11.5189
壞滅	-11.519
我請問	-11.5197
有過	-11.52
過惡	-11.5205
如是得三昧	-11.5211
十惡輪	-11.5216
色欲	-11.5224
菩薩具足如是	-11.5227
觀無常	-11.5232
佐	-11.5238
悉解	-11.5249
憐愍一切	-11.5253
無高	-11.5256
初稱名	-11.5259
化度眾生	-11.5263
常令	-11.5264
一百二十	-11.5265
云何菩薩得	-11.5271
大威	-11.5273
世間出世間	-11.5277
靜默	-11.5287
亦不著	-11.5288
巧說	-11.5292
見已即	-11.5303
識滅	-11.5308
謬	-11.5314
微妙經典	-11.5314
偈讚	-11.5316
波利婆	-11.5316
嘗	-11.5316
葱	-11.5317
佛法故	-11.5318
覽	-11.5319
之所為	-11.532
偷	-11.5322
逈	-11.5323
有黑子	-11.5324
雪	-11.5324
果名精進處	-11.5325
和悅	-11.5326
冬	-11.5326
譌	-11.5327
忠	-11.5328
一彈指頃	-11.5329
霜	-11.5329
豎	-11.5329
雀	-11.533
永滅	-11.5331
混	-11.5332
額	-11.5332
陶	-11.5332
該	-11.5333
妃	-11.5334
令法久熾然	-11.5337
挽	-11.5337
?』」「	-11.5338
性識無定	-11.5338
釋迦文佛	-11.5339
冠	-11.5339
回	-11.5339
藥王軍菩薩言	-11.534
婢子	-11.534
膳	-11.5342
不如意事	-11.5343
境界即佛境界	-11.5343
劒	-11.5344
符	-11.5344
享	-11.5345
閣	-11.5346
浪	-11.5346
無相無願	-11.5346
向彼魔王	-11.5346
暇	-11.5346
耆年	-11.5348
寢	-11.5348
是寶曜總持	-11.5349
昭	-11.535
醎	-11.535
金剛力士	-11.535
乃至以精進	-11.535
怛薩阿竭	-11.5351
淨潔	-11.5351
阿耨菩提	-11.5351
孤獨	-11.5351
欽	-11.5352
普密王	-11.5352
如法行	-11.5352
貯	-11.5353
慧燈三昧	-11.5353
以戒莊嚴	-11.5353
而實	-11.5353
吳	-11.5353
雹	-11.5353
飄	-11.5353
翫	-11.5353
帛	-11.5354
其順法者亦不	-11.5354
疲勞	-11.5354
不可作	-11.5354
阿惟越致	-11.5354
吾當為汝	-11.5355
毀罵	-11.5355
算師	-11.5356
凌	-11.5356
戴	-11.5356
苗	-11.5356
知恩報恩	-11.5357
流布之處	-11.5357
是為菩薩成就八法	-11.5357
懅	-11.5357
忿恨	-11.5358
功祚	-11.5358
速疾得	-11.5358
槊	-11.5358
妻妾	-11.5358
倉	-11.5358
波羅提	-11.5359
不望報	-11.5359
余	-11.5359
匹	-11.5359
包	-11.5359
權方便	-11.5359
北涼天竺三藏曇無讖	-11.536
財產	-11.536
憒亂	-11.536
提頭賴吒天王	-11.536
飲酒	-11.5361
針	-11.5361
質多羅	-11.5361
頭面敬禮	-11.5361
陰界諸入	-11.5362
復有二事	-11.5362
沓	-11.5362
蔭	-11.5362
佉羅坻	-11.5363
說此呪已	-11.5363
不怯弱	-11.5363
天然	-11.5363
審如有知	-11.5363
破和合僧	-11.5363
出微妙音	-11.5364
速滿六波羅蜜	-11.5364
區	-11.5364
而出家者	-11.5364
墮大地獄	-11.5364
灌頂剎利王	-11.5365
隨形好	-11.5365
陛	-11.5365
恣汝所問	-11.5365
慶幸	-11.5365
護世四王	-11.5366
矯	-11.5366
髓腦	-11.5366
彼精進王	-11.5366
憒	-11.5366
羅睺	-11.5366
我為是等	-11.5366
歇	-11.5367
老病	-11.5367
酒所醉無覺知者	-11.5367
遭遇	-11.5367
常不遠離	-11.5367
犯禁	-11.5368
怨憎會	-11.5368
不唐捐	-11.5368
妬嫉	-11.5369
齎持	-11.5369
崇	-11.5369
六十卷	-11.5369
隙	-11.5369
此陀羅尼有大勢力	-11.537
大涅槃城	-11.537
諸菩薩摩訶薩眾	-11.537
毘摩質多羅阿修羅王	-11.537
稀	-11.537
於聲聞乘補特伽羅得無誤失	-11.537
拘律陀	-11.537
薄少	-11.537
如說能行	-11.537
百踰闍那	-11.537
不可議	-11.5371
擊大法鼓	-11.5371
星辰	-11.5371
種種資生	-11.5371
且置	-11.5371
是為菩薩成就四法	-11.5371
能稱地藏菩薩名號	-11.5371
波羅奈	-11.5371
無受無取	-11.5371
毀呰賢聖	-11.5372
那術	-11.5372
如是生死無數劫是為顛倒	-11.5372
芻	-11.5372
患厭	-11.5372
既出家已	-11.5372
刑	-11.5372
常能熾然三寶種姓	-11.5373
面目	-11.5373
歌詠	-11.5373
體廢缺	-11.5373
不久便當	-11.5374
地藏菩薩本願經	-11.5374
現神通	-11.5374
鬚髮者	-11.5374
憂苦逼切	-11.5374
梵聲	-11.5375
居士旃陀羅	-11.5375
馳騁	-11.5375
羼提	-11.5375
於其大乘補特伽羅得無誤失	-11.5375
遊處	-11.5375
壞煩惱魔	-11.5375
企	-11.5375
不驚	-11.5375
不驚不怖	-11.5375
臭惡	-11.5376
諸佛所說念佛三昧	-11.5376
皆悉輾壞	-11.5376
微薄	-11.5376
深生敬信	-11.5376
求樂離苦	-11.5376
徹視	-11.5376
銕城	-11.5376
博叉	-11.5376
凡所演說	-11.5376
剡魔王	-11.5377
利益諸眾生	-11.5377
床座	-11.5377
四意斷	-11.5377
妓女	-11.5377
利益安樂無量有情	-11.5377
宣說法要	-11.5377
是為菩薩校計	-11.5377
楞伽	-11.5377
閻浮利	-11.5378
天妙	-11.5378
難得人身	-11.5379
隨汝意	-11.5379
恭敬圍遶	-11.538
將命終時	-11.538
赤真珠	-11.538
具大果報	-11.538
永斷一切	-11.538
慧聚	-11.5381
今地藏	-11.5381
化作床座	-11.5381
沐浴	-11.5381
領納	-11.5381
所以迴反	-11.5381
或斷其命	-11.5381
詠	-11.5381
不可計會	-11.5382
怨讎	-11.5382
永不退轉	-11.5382
第三禪	-11.5382
增上意樂	-11.5383
前為佛作禮	-11.5383
虱	-11.5383
大地六種震動	-11.5384
十惡業	-11.5384
宣說妙法	-11.5384
出大音聲	-11.5385
興發大哀	-11.5385
復有八事	-11.5385
見彼佛	-11.5385
生善處	-11.5385
予	-11.5385
令無有餘	-11.5386
跛履侈	-11.5386
飯食	-11.5386
一切文字	-11.5386
凡聖	-11.5387
善根者謂	-11.5387
端正聰明	-11.5389
降雨	-11.5389
言訟	-11.5389
所作事業	-11.539
可厭患	-11.539
正定聚	-11.539
天上世間	-11.539
勃	-11.539
大目揵連	-11.5392
美味好語言	-11.5392
潔白	-11.5392
人天樂	-11.5392
是名如來第十	-11.5392
雖欲修	-11.5393
是慢業	-11.5393
問於如來	-11.5393
一切殊勝善	-11.5393
此善男子亦復如是	-11.5393
慧光	-11.5393
在日前	-11.5394
雜類	-11.5394
磨瑩	-11.5394
和順	-11.5394
一百一十	-11.5395
向佛合掌	-11.5395
譏呵者	-11.5396
鉢利訶利	-11.5396
坐一面	-11.5396
生慈心	-11.5396
小河	-11.5398
穢厭	-11.54
於大海	-11.54
無所積聚	-11.5401
苦毒	-11.5401
所牽	-11.5403
修平等行	-11.5403
月黑月	-11.5403
百八愛	-11.5404
老病死	-11.5404
供像	-11.5405
多摩羅	-11.5405
能永斷	-11.5406
能求一切	-11.5406
身壞命終得生	-11.5408
不觀後世畏	-11.5408
迴轉	-11.5409
律教	-11.5409
勤進	-11.541
皆悉降伏	-11.541
中細軟	-11.5411
除煩惱病	-11.5411
闍藍婆	-11.5411
至世尊所	-11.5412
移轉	-11.5412
當須	-11.5412
輕安	-11.5413
軍將	-11.5414
分齊	-11.5414
入三昧已	-11.5414
能開	-11.5418
蘭若	-11.5418
苦辛	-11.5418
以方便故	-11.5419
日合翼	-11.5419
諸大菩薩摩訶薩	-11.542
錯亂	-11.5421
無受者	-11.5421
於後末世	-11.5422
勸諸眾生	-11.5422
欲界諸天	-11.5422
應機	-11.5424
隨其所樂	-11.5425
奉順	-11.5425
佛告比丘	-11.5428
於彼命終	-11.5429
廿	-11.5429
男女眷屬	-11.5429
淨身口意	-11.543
法界亦爾	-11.5431
厭惡	-11.5431
演出	-11.5433
啟問	-11.5433
罪惡	-11.5436
無限量	-11.5436
具大神通	-11.5437
三千界	-11.5437
一品	-11.5438
隨願	-11.5438
三種菩提	-11.5439
生其土	-11.544
尚未	-11.544
照了	-11.544
廣遠	-11.5441
千子	-11.5441
無所造作	-11.5441
真實了知	-11.5442
不誑諸佛	-11.5442
洋銅	-11.5443
定意莊嚴	-11.5443
聲聞辟支佛地	-11.5444
於善師	-11.5444
當來世	-11.5445
以自莊嚴	-11.5446
發心布施	-11.5447
於無為	-11.5447
同體	-11.5448
人中上	-11.5451
當知即是	-11.5451
常欺	-11.5452
遍動	-11.5453
不了義	-11.5454
無悋惜	-11.5455
遣令	-11.5457
及大菩薩	-11.5457
生慚愧心	-11.5458
汝可持	-11.5458
菩薩行道	-11.5459
有大利益	-11.546
為我等說	-11.546
眾祐	-11.546
佛隨念	-11.546
四海	-11.5466
奪精氣	-11.5467
應捨	-11.5468
帝釋天主	-11.5468
懷來	-11.5468
受人天	-11.5471
戒依止	-11.5471
專修	-11.5473
往反	-11.5473
三百眷屬	-11.5475
圓成	-11.5478
十習	-11.5479
如是等類	-11.5479
自見身	-11.5479
我涅槃後	-11.548
貪身	-11.5483
勤力	-11.5484
一切諸如來	-11.5486
業煩惱	-11.5487
輸盧	-11.5488
小果	-11.5489
不見如來	-11.5491
無暗	-11.5492
作如是說	-11.5492
婆毘	-11.5494
無礙解	-11.5498
之原	-11.5498
墮地	-11.5498
攝護	-11.55
清淨戒行	-11.5501
四姓	-11.5502
則能具足	-11.5504
八正	-11.5505
修持	-11.5513
餘報	-11.5513
親愛	-11.5514
如是知已	-11.5514
婆呵囉	-11.5514
為說之	-11.5517
日合危	-11.5517
尊者舍利弗	-11.5518
九十一	-11.5519
得無上菩提	-11.5519
最極	-11.552
其事如是	-11.5523
能通達	-11.5523
字語	-11.5524
不恐	-11.5524
明慧	-11.5526
種種病	-11.5528
成法器	-11.553
廣普	-11.5536
麁惡	-11.5538
淨不淨	-11.554
大虛空藏菩薩摩訶薩	-11.554
殺處	-11.5541
四天王等	-11.5541
須彌頂	-11.5543
一切眾生之心	-11.5548
名為善	-11.555
正法念經	-11.5551
四如意	-11.5552
具足滿	-11.5556
善念	-11.5558
彼雖	-11.5559
恒河沙等諸佛	-11.5561
所犯罪	-11.5562
汝於過去	-11.5562
救苦	-11.5562
烏闍	-11.5563
斷集	-11.5563
於三寶所	-11.5564
久處	-11.5564
一毛孔	-11.5567
我今於此	-11.5568
福德莊嚴	-11.557
日合角	-11.5572
何用	-11.5572
於經中	-11.5573
諸有情類	-11.5574
歸依處	-11.5579
世出世間	-11.558
地獄苦	-11.558
常施	-11.5581
唯佛能	-11.5585
凡愚	-11.5586
得見諸佛	-11.5588
藏中	-11.5593
世尊告不空見	-11.5595
風起	-11.5596
二顯益	-11.56
一切諸法性	-11.5602
行檀	-11.5603
陀邏	-11.5603
諸功德法	-11.5603
感應	-11.5606
作如是思惟	-11.5607
想著	-11.561
生憐愍	-11.561
得首楞嚴三昧	-11.5615
信行	-11.5615
其有眾生	-11.5615
無邊智	-11.5615
惡不善業	-11.5618
蒙世尊	-11.5618
是涅槃	-11.562
於佛正法	-11.562
無等等	-11.562
但是	-11.5622
或勸	-11.5627
故特	-11.5632
皆號	-11.5633
萬里	-11.5634
皆悉遠離	-11.5635
必能	-11.5637
如師子	-11.5637
名為梵行	-11.5639
萬二千菩薩	-11.564
於甚深法	-11.5643
偈頌	-11.5644
雨種種寶	-11.5645
得聖	-11.565
說文	-11.5651
之乘	-11.5654
分別諸法	-11.5657
無明滅	-11.5658
彼諸世尊	-11.5663
與共	-11.5667
坐處	-11.5668
遍智	-11.5668
亦無所得	-11.5669
如來行處	-11.5679
各持	-11.568
諸天人民	-11.568
所應作	-11.5681
諸善法故	-11.5681
不善思惟	-11.5683
宿主於	-11.5683
隨所樂	-11.5685
繒蓋	-11.5686
高大	-11.5686
見十方佛	-11.5688
故我今日	-11.5689
演法	-11.569
閻浮提內	-11.569
心無所著	-11.569
知宿命	-11.5698
菩薩亦如是	-11.5705
清淨微妙	-11.5707
況今	-11.5707
出三界	-11.571
乃名	-11.5714
果藥	-11.5717
未脫	-11.5718
寂靜心	-11.572
高明	-11.5724
一切沙門	-11.5724
八十八	-11.5726
身口意惡	-11.5732
世閒	-11.5732
種種相	-11.5733
作障礙	-11.5734
土中	-11.5734
不和	-11.5737
能如是知	-11.574
隨緣	-11.574
蠲除一切	-11.5744
其中所有	-11.5746
十日合	-11.5754
得自在故	-11.5755
名數	-11.5758
天耳聞	-11.576
若能觀察	-11.5761
▁薩	-11.5764
滿其中	-11.5764
問難	-11.5766
諸梵	-11.577
超過一切	-11.5773
瞻禮地藏	-11.5774
座上	-11.5775
皆生歡喜	-11.5779
無恚	-11.5782
感果	-11.5783
所講說	-11.5787
六日合	-11.5787
雜寶	-11.5787
名為菩薩摩訶薩	-11.5788
取捨	-11.5797
其月	-11.5798
第一樂	-11.58
娑利	-11.5802
白色	-11.5802
於後世	-11.5805
從地	-11.5806
諂誑	-11.5808
彼當如是見一切法	-11.5815
拔苦	-11.5818
所行處	-11.5818
世尊欲重宣此義	-11.582
無量天人	-11.5821
覩諸佛	-11.5822
在外	-11.5826
正精進	-11.5826
持正法	-11.5827
愚者	-11.5827
得正見	-11.5828
彼等皆	-11.583
無上菩提之道	-11.5834
乘最	-11.584
未到	-11.5843
知三世	-11.5844
彌利	-11.5847
受女身	-11.5848
滅智	-11.5853
奧	-11.5853
彼人言	-11.5856
為解說	-11.5859
伽他	-11.5859
於長夜	-11.5863
為喻	-11.5863
寶網	-11.5866
諸佛之法	-11.5867
歸命禮	-11.587
之益	-11.5873
知眾生心	-11.5881
彼世界中	-11.5882
下文	-11.5885
得成就阿耨多羅三藐三菩提	-11.5885
持是三昧者	-11.5886
勝功德	-11.5889
一大樹	-11.5889
法非法	-11.5891
別知	-11.5894
國主	-11.5898
同彼	-11.59
用是故	-11.5904
生邊地	-11.5909
隨處	-11.5914
非唯	-11.5922
一反	-11.5927
樹王	-11.5927
證阿耨多羅三藐三菩提	-11.5928
如來大悲	-11.5929
勝力	-11.593
宿業	-11.5932
名為涅槃	-11.5932
其神	-11.5934
婆梨	-11.5938
不自在	-11.5939
何事	-11.5941
更生	-11.5941
各別	-11.5948
斯事	-11.595
能聽受	-11.5954
十二月	-11.5957
口說	-11.5959
無礙智慧	-11.596
手掌	-11.5964
以何為	-11.5966
取彼	-11.5967
有佛世尊名	-11.5974
囉娑	-11.5974
德龍王	-11.5975
二十三者	-11.5975
不久當得	-11.5981
得聞正法	-11.5986
初住	-11.5989
惡意	-11.5989
過去業	-11.599
我禮	-11.5991
在閻浮提	-11.5995
不染著	-11.5997
聖達	-11.6002
七十六	-11.6002
真智	-11.6007
神仙	-11.6012
於五陰	-11.6015
二十四者	-11.6017
大蓮花	-11.6018
二十二者	-11.6031
大雲	-11.6039
當勤	-11.604
智者觀	-11.604
親承	-11.6045
曼陀	-11.6046
須陀洹果	-11.6053
不見諸法	-11.6054
了一切法	-11.6056
不退心	-11.6059
無心意識	-11.6061
巧便	-11.6062
汝不空見	-11.6064
藥味	-11.6074
於佛道	-11.6075
七十二	-11.6082
十方一切佛	-11.6094
現在及未來世	-11.6095
窮極	-11.6095
利智	-11.61
所食	-11.61
呪曰	-11.6105
為障礙	-11.6116
三十五佛	-11.6117
證涅槃	-11.6118
如草木	-11.6122
聖人處	-11.6122
不決定	-11.6126
識念	-11.6129
斯那	-11.6132
善願	-11.6139
女等	-11.6141
通達一切	-11.6148
或聞	-11.6151
精修	-11.6152
妙智	-11.6153
慈力	-11.6155
作惱亂	-11.6155
一微塵	-11.6157
令無所乏	-11.6158
未久	-11.6162
殺父	-11.6169
尚難	-11.617
日合室	-11.6173
墮苦	-11.618
善觀察	-11.618
真實性	-11.6182
極樂	-11.6187
因從	-11.619
何等是	-11.619
頌讚佛	-11.6191
廣演	-11.6194
師想	-11.6197
戒品	-11.6198
必獲	-11.62
華臺	-11.62
是人即得	-11.6201
靨	-11.6203
婆訶	-11.6205
覩其	-11.6208
禪支	-11.6209
佛會	-11.621
依地	-11.622
九十四	-11.6226
一百四十	-11.6229
所種善根	-11.623
為攝	-11.6233
曹	-11.6237
能作是	-11.6245
能堪忍	-11.6245
皆得無生法忍	-11.6248
求利	-11.6253
所說之法	-11.626
間斷	-11.6261
堅固精進	-11.6264
名無生智	-11.6265
無量俱胝	-11.6268
告諸大眾	-11.6268
陀羅尼力	-11.6272
十八不共	-11.6272
眾生所行	-11.6278
天香	-11.6285
三萬二千菩薩	-11.6286
攝法	-11.6287
指示	-11.6288
助成	-11.6289
顯發	-11.6291
聞佛名	-11.6294
年少	-11.6295
疫	-11.6296
難解	-11.6297
誹	-11.6299
佛身相	-11.6302
妙玄云	-11.6303
尼羅	-11.6303
百千方便	-11.6305
管	-11.6306
聚中	-11.6308
螫	-11.6308
之鬼	-11.6308
以四攝	-11.6309
七宿	-11.6311
寸	-11.6312
常念佛	-11.6312
財富	-11.6312
專一	-11.6317
海意菩薩摩訶薩	-11.632
癘	-11.6321
犬	-11.6321
檢	-11.6322
大龍王	-11.6323
佛印	-11.6323
賢愚經	-11.6323
藍婆	-11.6323
域	-11.6324
纖毫	-11.6329
孕	-11.6329
甕	-11.6329
酒肉	-11.633
眾數	-11.633
武	-11.633
惰	-11.6333
躁	-11.6334
維摩	-11.6335
允	-11.6335
巖	-11.6336
真如故則	-11.6336
住平等	-11.6336
肢節	-11.6338
利益存亡	-11.6338
渠	-11.6339
暮	-11.6339
栴陀羅	-11.6339
臻	-11.634
炷	-11.634
醒	-11.634
邦	-11.6341
長者子須達	-11.6341
為重明此義	-11.6341
盜竊	-11.6341
晨	-11.6342
遷	-11.6342
氈	-11.6342
溝	-11.6342
杜	-11.6342
稚	-11.6342
鄙	-11.6342
頭摩帝	-11.6342
粟	-11.6343
陋	-11.6343
諭	-11.6344
醫師	-11.6344
旱	-11.6345
無能及者	-11.6345
無有少法	-11.6345
是國王等	-11.6346
險難	-11.6346
戀慕	-11.6347
其發心來	-11.6347
大樹	-11.6347
唾	-11.6347
委	-11.6347
毗婆尸佛	-11.6348
剉	-11.6348
貧賤	-11.6348
裹	-11.6348
蔓	-11.6348
皇	-11.6348
啞羊	-11.6349
諸尼乾陀眾	-11.6349
華菓	-11.6349
分陀利華	-11.6349
修善業	-11.635
幾許	-11.635
撿	-11.635
聖人住處	-11.635
棒	-11.635
希望	-11.635
怨讐	-11.635
殺生乃至邪見	-11.635
犯波羅夷	-11.635
僧伽藍	-11.635
有諸國王	-11.6351
不可得思議	-11.6351
脇	-11.6351
佛告一切勇菩提薩埵	-11.6351
名曰鐵	-11.6352
抵	-11.6352
於流轉時	-11.6352
姊妹	-11.6352
齎	-11.6352
隋	-11.6353
㲲	-11.6353
亦化眾人	-11.6353
宿殃	-11.6353
無慚無愧	-11.6353
清潔	-11.6353
魔王說偈	-11.6353
踦	-11.6353
牛馬	-11.6354
殷勤	-11.6354
危脆	-11.6354
躍	-11.6354
十二部經	-11.6354
舟	-11.6354
謙	-11.6354
右繞七匝	-11.6355
基	-11.6355
泡	-11.6355
嵐	-11.6356
阿鞞跋致	-11.6356
斷三寶種	-11.6356
時婆羅門女	-11.6356
隨所有處	-11.6356
如毛髮	-11.6357
來至我所	-11.6357
六十億姟	-11.6357
織	-11.6357
羶	-11.6357
僧祇物	-11.6357
虧	-11.6357
屏	-11.6357
充遍	-11.6357
無上正真之道	-11.6357
五百妓女	-11.6357
楚毒	-11.6358
十二有支	-11.6358
無增無減	-11.6358
如來於此而起大悲	-11.6358
偶	-11.6359
晃	-11.6359
各從	-11.6359
金翅鳥	-11.6359
飽滿	-11.6359
得柔順忍	-11.6359
我從昔來	-11.636
閉塞	-11.636
品之餘	-11.636
沈水香	-11.636
阿含	-11.636
怠	-11.636
志操	-11.636
三十二相八十種好	-11.636
忍辱波羅蜜多	-11.6361
瞬	-11.6361
床敷	-11.6361
求覓	-11.6361
錢財	-11.6362
統領	-11.6362
地味精氣	-11.6362
容恕	-11.6362
財穀	-11.6362
破戒苾芻	-11.6363
嬰兒	-11.6363
地獄名號	-11.6363
毀破禁戒	-11.6363
如是比像	-11.6363
光梵大師賜紫沙門臣惟淨等奉詔譯	-11.6363
開府儀同三司	-11.6363
快哉	-11.6364
是則我師	-11.6364
旱潦	-11.6365
彼佛告言	-11.6365
興隆	-11.6365
畏懼	-11.6365
摶	-11.6365
愚戇	-11.6365
為聞法故	-11.6365
饍	-11.6365
燒沈水香	-11.6365
被縛	-11.6365
鎮	-11.6366
佛悉在前立	-11.6366
唐天竺三藏波羅頗蜜多羅譯	-11.6366
色二界中間	-11.6366
摩尼珠	-11.6367
曩	-11.6367
俱胝大菩薩眾	-11.6367
無取無捨	-11.6367
牛羊	-11.6368
一切世間不可樂想	-11.6368
簉	-11.6368
犀	-11.6368
騎	-11.6368
門戶	-11.6368
迴向於一切智	-11.6368
初中後	-11.6369
如實而知	-11.6369
我人壽命	-11.6369
災害	-11.6369
人與非人	-11.6369
無能動	-11.6369
妙寶莊嚴堂	-11.637
發心已來	-11.637
不鼓自鳴	-11.637
遶佛三匝	-11.637
無毒答曰	-11.637
願救濟我	-11.637
七千由旬	-11.637
智德峯王如來	-11.637
百千俱致那由多	-11.637
不斷佛種	-11.6371
曲躬合掌	-11.6371
捷疾	-11.6371
於一食頃	-11.6371
善住龍王	-11.6371
現種種形	-11.6371
迅疾	-11.6372
茷舍	-11.6372
近善知識	-11.6372
金剛杵	-11.6372
於我滅後	-11.6372
宗親	-11.6372
江河沙等	-11.6372
此金剛句	-11.6372
令增壽命	-11.6373
阿須輪	-11.6373
三藐三菩提記	-11.6373
各二千五百眷屬	-11.6373
釧	-11.6373
亦不授我阿耨多羅	-11.6373
修第一義諦菩薩摩訶薩	-11.6373
心生瞋忿	-11.6374
主宰	-11.6374
蠱道	-11.6374
卷第九	-11.6374
我成如是第	-11.6374
栴	-11.6374
薜荔多	-11.6374
威曜	-11.6374
妨礙	-11.6375
河沙	-11.6375
有情來生其國	-11.6375
於諸眾生其心平等	-11.6375
藥叉神	-11.6375
無有陰蓋	-11.6375
勇步	-11.6376
於四眾中	-11.6376
唯願說之	-11.6376
皆共親愛	-11.6376
同聲讚	-11.6376
須臾之頃至此忍界	-11.6376
依彼修學離	-11.6376
而為其頂	-11.6376
香湯	-11.6376
一心敬禮	-11.6376
諮啟	-11.6377
彈	-11.6377
說是伽陀	-11.6377
不共之法	-11.6377
與十江河沙等諸菩薩	-11.6377
歡欣	-11.6378
提頭賴吒	-11.6378
死尸	-11.6378
唯願仁者	-11.6378
菩薩摩訶薩應當修學	-11.6378
不可算數	-11.6379
漸次趣入	-11.6379
根器	-11.6379
修伽陀	-11.6379
退失神通	-11.6379
儒	-11.6379
亦不及一	-11.6379
持法比丘	-11.638
轉大梵輪	-11.638
鐵丸	-11.638
分別法界	-11.638
不忘不失	-11.638
􂚹	-11.638
百千酤胝	-11.638
昔所未轉	-11.6381
或復化作	-11.6381
曠劫	-11.6381
艱苦	-11.6381
時諸菩薩偈讚歎佛頭面	-11.6381
是為菩薩出世間道	-11.6381
時無數菩薩	-11.6382
微塵數	-11.6382
助菩提法	-11.6382
色貌	-11.6382
熾然三寶種	-11.6382
炎德藏菩薩	-11.6382
耳不聞聲	-11.6383
着	-11.6383
慳嫉	-11.6383
俱共發來至娑婆世界	-11.6383
新學	-11.6383
心不生悔	-11.6384
甚深十二因緣	-11.6384
所居佛土	-11.6384
節節支解	-11.6384
毘梨	-11.6385
疾得是三昧	-11.6385
第二禪	-11.6385
悉皆消滅	-11.6385
般舟三昧經	-11.6385
逮得無所從生法忍	-11.6386
宰相	-11.6386
則超魔境	-11.6387
毀呰聖人	-11.6387
復於餘剎或作	-11.6387
調御師	-11.6388
恒河沙世界	-11.6388
中味中語言	-11.6388
斷滅善根	-11.6388
而致清淨	-11.6388
元元	-11.6389
那茶	-11.6389
開示演說	-11.6389
惡風雨	-11.6389
如是生死無數劫為顛倒	-11.6389
巧妙	-11.639
梵宮	-11.6391
文辭	-11.6392
行施亦復如是	-11.6393
難稱量	-11.6393
光澤	-11.6393
乞求	-11.6394
投地	-11.6394
悔恨	-11.6394
曼多	-11.6394
彼行布施清淨平等時	-11.6395
豈可	-11.6395
過去諸如來	-11.6395
轉女身	-11.6395
住慧力時	-11.6395
住信力時	-11.6395
皆是慢業	-11.6395
上虛空中	-11.6395
爹	-11.6396
如前廣說	-11.6396
辭無礙智	-11.6396
住定力時	-11.6396
敬奉	-11.6396
方俗	-11.6396
日午之影長	-11.6396
所須之物	-11.6397
莫不歡喜	-11.6397
惡剎利王	-11.6397
無義語	-11.6398
殊勝思惟	-11.6398
一毛端	-11.6399
各皆	-11.64
久住世故	-11.6401
求財	-11.6402
毀譽	-11.6402
同一味	-11.6403
修四念處	-11.6403
救我	-11.6404
婦人	-11.6404
著淨	-11.6405
無所取著	-11.6405
非佛所說	-11.6405
資生之具	-11.6405
因緣後來	-11.6405
聞此經	-11.6406
皆來集	-11.6407
愛憎	-11.6408
迦吒	-11.6408
貪悋	-11.6409
追求	-11.641
心不懷	-11.641
眾生來生其國	-11.641
求索	-11.641
起大慈悲	-11.641
習誦	-11.6411
修諸苦行	-11.6411
皆悉除滅	-11.6413
奪他	-11.6413
傍生	-11.6414
一切諸色	-11.6414
六十二見	-11.6415
那荼	-11.6415
無字無	-11.6415
無遺	-11.6415
護養育	-11.6416
佗	-11.6416
達磨	-11.6416
持戒多聞	-11.6416
緣覺如來共	-11.6417
諸根具足	-11.6417
三不護	-11.6418
三途	-11.6418
七覺意	-11.6418
俱胝如來	-11.6418
我等昔來	-11.6419
不生貪著	-11.6419
其數無量	-11.6419
剎帝利王	-11.6419
爾時彌勒菩薩摩訶薩	-11.6421
眾德本	-11.6421
十二緣起	-11.6421
奉散	-11.6421
名為如作	-11.6421
地藏之名	-11.6422
婆羅底	-11.6423
無侶	-11.6424
賢護當知	-11.6425
初發菩提心	-11.6426
行善者	-11.6427
十種功德	-11.6428
甚少	-11.6428
以要言之	-11.6428
正師子吼	-11.6428
三律儀	-11.6429
無濁亂	-11.6429
於三界中	-11.643
受如是苦	-11.6432
大德阿難	-11.6433
黑色	-11.6434
知是眾生因	-11.6434
次明	-11.6436
是義故	-11.6436
不生不起	-11.6437
無見頂	-11.6438
和輪	-11.6439
我今歸依	-11.6439
各各異	-11.644
一切身分	-11.6441
寂滅涅槃	-11.6443
與諸大眾	-11.6444
獲安	-11.6445
卅	-11.6445
龍乃至迦吒富單那等	-11.6446
隨何	-11.6446
經書	-11.6447
問訊世尊	-11.6448
無慳	-11.6448
於諸根	-11.6451
是清淨戒	-11.6452
有四種法	-11.6452
熏修	-11.6455
離三惡道	-11.6455
囉系	-11.6455
不樂想	-11.6455
為最上	-11.6456
擁護正法	-11.6456
無量壽佛	-11.6457
受持淨戒	-11.6458
綸貫	-11.6458
諸病苦	-11.6458
愍念	-11.6459
曳	-11.646
安住涅槃	-11.6461
而以供養	-11.6461
作是願	-11.6461
緣慮	-11.6464
示諸眾生	-11.6464
諸眾生輩	-11.6465
我諸弟子	-11.6465
觀察諸法	-11.6466
宣傳	-11.6467
散失	-11.647
鞮	-11.647
漏盡智	-11.647
淨佛世界	-11.647
哂離	-11.6471
至彼岸	-11.6473
若佛弟子	-11.6473
阿邏	-11.6475
受持此陀羅尼	-11.6476
無愧	-11.6476
是名為定	-11.6477
十種力	-11.6478
是名為義	-11.6479
樂說無礙智	-11.648
造像	-11.648
無積聚	-11.6481
二千眷屬	-11.6483
所歎	-11.6484
行十五時	-11.6485
諸法門	-11.6485
一切諸乘	-11.6486
各隨所	-11.6488
種智	-11.6489
唯然已	-11.649
亦無所受	-11.649
誼理	-11.6493
博聞	-11.6493
見諸如來	-11.6493
不生瞋恚	-11.6493
習學	-11.6494
▁【	-11.6496
正號	-11.6496
若有眾生樂聞	-11.6497
甚為難	-11.6497
謗正法	-11.6499
真善居士	-11.65
無為界	-11.6501
解知	-11.6501
苦惱眾生	-11.6501
因緣力故	-11.6503
知諸有情	-11.6503
若有信心	-11.6503
是處非處	-11.6504
百一十	-11.6504
惱熱	-11.6505
無上正法	-11.6505
寶樓閣	-11.6507
皆得自在	-11.6508
不休	-11.6509
持戒比丘	-11.651
是精進力	-11.651
自活	-11.6512
菩薩形像	-11.6513
造行	-11.6514
智慧之人	-11.6515
堅意	-11.6516
汝等各	-11.6516
諸比丘等	-11.6517
愛子	-11.6517
一切菩薩摩訶薩眾	-11.6518
平聲	-11.652
天龍等	-11.6521
其誼	-11.6522
居止	-11.6524
倚著	-11.6525
腹中	-11.6525
能化眾生	-11.6529
不從他聞	-11.653
無有文字	-11.653
往聽受	-11.6531
顯明	-11.6531
頂相	-11.6532
師子吼時	-11.6532
化諸眾生	-11.6533
其佛世界	-11.6537
不傷	-11.6537
求多聞	-11.6539
限齊	-11.6541
壞破	-11.6541
恚恨	-11.6543
不久當得阿耨多羅三藐三菩提	-11.6543
第二人	-11.6543
所頒宣	-11.6544
專行	-11.6544
無不具足	-11.6548
所送	-11.655
彼阿彌陀	-11.655
王城	-11.6551
無誑	-11.6554
說種種法	-11.6554
此獄	-11.6557
是法器	-11.6557
告藥王軍菩薩言	-11.6559
真際	-11.6562
無瑕	-11.6563
樂阿蘭若	-11.6564
不如一	-11.6565
嚴麗	-11.6565
學問	-11.6565
深解	-11.6566
金光	-11.6566
法式	-11.657
福多	-11.657
致斯	-11.6572
眼耳	-11.6572
樂聽法	-11.6573
勤修習	-11.6573
諸習氣	-11.6573
一切佛事	-11.6574
無有量	-11.6577
不逆	-11.6578
滅諸煩惱	-11.658
唯是	-11.6581
無過失	-11.6585
令我得	-11.6588
▁切	-11.659
尊導師	-11.6591
辭辯	-11.6594
六十八	-11.6594
種種衣服	-11.6594
心歡悅	-11.6595
供給所須	-11.6597
淨月	-11.6598
常思	-11.6598
大獄	-11.6602
順行	-11.6604
修四正勤	-11.6604
無別異	-11.6604
火然	-11.6604
王子師子	-11.6604
成器	-11.6607
由斯	-11.6609
若未來世中	-11.6609
不動轉	-11.6616
有少	-11.6617
無所貪	-11.6618
得宿命智	-11.6619
現在世中	-11.6622
無所失	-11.6624
相清淨故	-11.6624
施與之	-11.6625
神通力故	-11.6625
老眾生	-11.6627
一切業障	-11.6629
無所乏少	-11.663
毀戒者	-11.663
山河	-11.6632
上座	-11.6636
今此會中	-11.6636
彼婆羅門	-11.6638
世依	-11.6638
報果	-11.664
起慈心	-11.6642
現大神通	-11.6645
谷響	-11.6646
諸女人	-11.6648
一燈	-11.665
明顯	-11.665
羣生	-11.665
罵者	-11.6651
是故名曰	-11.6653
成就大悲	-11.6654
時諸如來	-11.6655
遮魔	-11.6657
散亂心	-11.6658
十日	-11.6659
舍羅	-11.6661
惡行比丘	-11.6661
相應聲	-11.6663
於戒休息	-11.6664
欲度生死	-11.6665
妄見	-11.6674
彌勒佛	-11.6675
住於大乘	-11.6677
無我義	-11.6678
下根	-11.6679
王輪	-11.6679
者喻於	-11.6679
若未來	-11.668
親近諸佛	-11.6684
敬愛	-11.6685
聖明	-11.6686
愛別離	-11.6686
妄說	-11.6688
悉平等	-11.669
肉血	-11.6698
及諸眾生	-11.67
趣涅槃	-11.6701
無價寶	-11.6701
故名大乘	-11.6702
能除眾生	-11.6705
普於一切	-11.6705
於三有	-11.6707
平等覺	-11.6708
是黑	-11.6709
三禪	-11.6709
不信受	-11.6711
悉皆具足	-11.6711
割其	-11.6719
柔軟心	-11.6727
令久住	-11.6727
歸命於	-11.6733
有何等	-11.6736
一切賢聖	-11.6738
不沒	-11.6738
能離一切	-11.6741
不退菩提	-11.6744
是滅法	-11.6748
不望	-11.6748
去聲	-11.6749
亦復難	-11.6751
六十六	-11.6753
進力	-11.6754
今乃	-11.6756
於此娑婆世界	-11.6757
諸魔子	-11.6757
毘羅	-11.6758
調諸根	-11.6758
得四禪	-11.6758
柔軟語	-11.6759
說其功德	-11.6763
壞煩惱	-11.6767
說三乘法	-11.6775
罪垢	-11.6775
得大智慧	-11.6778
三世佛	-11.678
受種種苦	-11.6781
何囉	-11.6789
凡是	-11.6791
以慈悲	-11.6793
勝報	-11.6794
常好	-11.6794
故名如來	-11.6796
內空	-11.6798
無女人	-11.6798
如是見已	-11.6799
普施	-11.6804
心念處	-11.6812
六識	-11.6812
三歸	-11.6815
無法可	-11.6816
眾圍遶	-11.6817
大摩尼寶	-11.6822
得大利	-11.6831
我以如是	-11.6834
能作大	-11.6834
發大精進	-11.6842
月輪	-11.6843
有所著	-11.6849
不照	-11.6852
明星	-11.6855
怖畏眾生	-11.6861
住是三昧	-11.6861
聽聞法	-11.6861
日合昴	-11.6862
色界諸天	-11.6863
諸年少	-11.6865
觀法界	-11.6866
大勢	-11.6868
千二百	-11.687
如來了知	-11.6885
正義	-11.689
所造業	-11.689
迴向清淨	-11.6892
樂器	-11.6892
亦未	-11.6894
生盲	-11.6902
萬三千	-11.6907
法財	-11.6909
伽那	-11.691
無諍訟	-11.6921
無量阿僧祇眾生	-11.6921
復雨	-11.6927
聖果	-11.6927
時彼眾中	-11.6934
福德智慧	-11.6934
無垢穢	-11.6938
精進修行	-11.6943
捨家	-11.6946
不可說言	-11.6946
諸佛剎中	-11.6947
自由	-11.6947
大自在天	-11.6948
作饒益	-11.6949
感報	-11.6963
超越諸	-11.6964
世間所有	-11.6966
世尊告阿難	-11.6969
此經典者	-11.6969
大甲冑	-11.6971
大功德聚	-11.6972
骨髓	-11.6975
是故我等	-11.6982
明珠	-11.6988
滅度後	-11.6989
亦曾	-11.6994
都無所	-11.7005
結業	-11.7005
苦滅	-11.7007
菩提之道	-11.7008
示道	-11.7008
自體	-11.7012
復放	-11.7012
以七寶	-11.7013
欲往彼	-11.703
身口心	-11.703
與拔	-11.704
知現在	-11.704
尼迦	-11.7046
一百五十	-11.7046
問彼佛	-11.7049
護他	-11.7051
不能害	-11.7053
塗身	-11.7055
閒	-11.7061
敬事	-11.7061
一切法皆悉平等	-11.7064
心得清淨	-11.7065
菩薩見已	-11.7068
善攝	-11.707
悉覩	-11.7075
此世界中	-11.7076
除佛	-11.7078
八日合	-11.7082
以大慈悲	-11.7087
學大乘	-11.7094
無所礙	-11.7095
皆亦如是	-11.7095
見一切佛	-11.7098
末伽	-11.7098
起信	-11.71
不生瞋	-11.7111
於戒遠離	-11.7112
」「	-11.7112
遮彌	-11.7114
千萬劫	-11.7116
遠離殺生	-11.712
缺減	-11.7127
摩提	-11.7127
誰是	-11.713
證大菩提	-11.7132
為諸有情	-11.7136
究竟空	-11.714
空無相	-11.7142
在內	-11.7143
能越	-11.7145
諸大士	-11.7147
字義	-11.7148
永盡	-11.715
諸佛子	-11.715
無所造	-11.7164
大眾之中	-11.7166
為演	-11.7169
無數百千	-11.7179
證果	-11.7188
遮斷	-11.7192
名菩薩摩訶薩也	-11.7194
三稱	-11.7198
地獄一劫受苦	-11.7202
能造作	-11.7207
汝先	-11.7211
智慧無礙	-11.7216
解脫味	-11.7218
頭面禮敬右遶	-11.7219
少病	-11.722
不捨菩提	-11.7235
於諸佛法	-11.7243
則便	-11.7244
六萬億	-11.7247
叉叉	-11.7262
我亦當	-11.7262
甚深難	-11.7263
一切皆是	-11.7268
不悕望	-11.7272
如佛所	-11.7274
法雲	-11.7274
破羅	-11.7284
於何處	-11.7289
非真如	-11.729
又二初	-11.729
示現種種	-11.7294
光明普照	-11.7296
便可	-11.7297
而演	-11.7298
於佛上	-11.7302
善說法	-11.7307
雲雨	-11.7325
觀十二緣	-11.7329
非我所	-11.7331
悉了	-11.7337
現瑞	-11.7337
知根	-11.7339
莫令	-11.734
大精進力	-11.7341
當擁護	-11.7344
詐現	-11.7351
在何處	-11.7351
成熟一切眾生	-11.7355
令流布	-11.7356
是故曰	-11.7364
諸惡事	-11.737
八十五	-11.7373
慈氏菩薩	-11.7375
香華供養	-11.7379
佛告藥王軍	-11.7386
善巧智	-11.7387
時四天王	-11.7389
離斷常	-11.7396
說如是法	-11.7398
語阿難	-11.7398
篤	-11.74
盧迦	-11.74
干	-11.7401
本業	-11.7402
方便力故	-11.7403
惓	-11.7404
譏呵	-11.7405
儔	-11.7405
伯	-11.7409
<	-11.741
i	-11.741
m	-11.741
g	-11.741
柧	-11.7411
無忘失	-11.7413
信順	-11.7413
滅除一切	-11.7416
綠	-11.7417
智者應	-11.7417
維	-11.742
諦受	-11.7421
能如法	-11.7426
造十惡	-11.7428
撮	-11.7428
惡夜叉	-11.7429
諸大菩薩摩訶薩眾	-11.7429
寶衣	-11.743
卑賤	-11.743
為母說法	-11.7431
觀五陰	-11.7432
為葉及以華果	-11.7432
所生常	-11.7432
繼	-11.7433
祗	-11.7433
棲	-11.7433
落惡道	-11.7433
波頭摩	-11.7434
詩	-11.7434
不損	-11.7434
是故諸佛色目	-11.7436
仁愛	-11.7436
不爽	-11.7437
俄	-11.7437
睒	-11.7438
鹽	-11.7438
懸旛	-11.744
縣	-11.7441
陷	-11.7442
槍	-11.7442
五苦章句	-11.7444
惶	-11.7444
穴	-11.7445
帶	-11.7445
倉庫	-11.7446
光音天	-11.7446
利迦	-11.7446
函	-11.7446
優劣	-11.7447
如是十種	-11.7447
尺	-11.7448
飲血	-11.7448
去此遠近	-11.7449
一闡提	-11.7449
諫	-11.7449
野干	-11.7449
超出	-11.7451
犍	-11.7451
依了義經	-11.7452
衰耗	-11.7453
平坦	-11.7454
爵祿	-11.7454
誣	-11.7454
罰	-11.7455
淪	-11.7455
克	-11.7455
棗	-11.7456
庭	-11.7456
占	-11.7456
康	-11.7456
逃	-11.7456
右臂	-11.7456
善男女等	-11.7457
辨	-11.7457
弗沙耶若	-11.7457
先所修習一切善根皆悉	-11.7457
初發意	-11.7457
裔	-11.7457
忤	-11.7457
猛焰	-11.7457
掉	-11.7458
羽	-11.7458
震旦	-11.7458
白銀	-11.7458
斑宣	-11.7459
矩	-11.7459
艱難	-11.7459
彈指	-11.7459
窣堵波	-11.7459
庠序	-11.746
亡者神識	-11.746
眾惱	-11.746
恃怙	-11.746
不成法器	-11.7461
涌沸	-11.7461
巨富	-11.7461
而修行慈	-11.7461
於二乘法	-11.7462
來生龍中	-11.7462
仚	-11.7463
善淨境界王	-11.7463
叵思議	-11.7463
扣	-11.7464
摩拏嚩迦	-11.7464
歷劫	-11.7464
懺謝	-11.7465
大富饒財	-11.7465
味精氣	-11.7466
誠心懺悔	-11.7466
降注	-11.7466
不觀後世可怖畏事	-11.7467
不及其一	-11.7467
嬪	-11.7467
八支聖道	-11.7467
而調伏之	-11.7467
勑	-11.7468
諸樂莊嚴世界	-11.7468
墨	-11.7468
墮無間獄	-11.7468
鉾	-11.7469
跋持毘盧遮那阿修羅王	-11.7469
爾時眾中	-11.7469
絡	-11.7469
大廣智大興善寺三藏沙門不空奉詔譯	-11.7469
無慚愧僧	-11.7469
智德峯王佛	-11.747
拷	-11.747
肅國公食邑三千戶賜紫贈司空謚大	-11.747
右肩	-11.747
親戚	-11.747
掉動	-11.747
殖眾德本	-11.747
試鴻臚卿	-11.747
了義修多羅義	-11.747
戌達羅	-11.7471
令盡無餘	-11.7471
性是法性	-11.7471
波利質多羅樹	-11.7471
不敢覆藏	-11.7471
永絕	-11.7471
酸	-11.7471
七聖財	-11.7471
孔雀	-11.7471
紫磨金色	-11.7472
史	-11.7472
非常非斷	-11.7472
如車輪	-11.7472
其日病者	-11.7472
倍增	-11.7472
願佛慈悲	-11.7472
出佛身血	-11.7472
謨	-11.7473
活命之具	-11.7473
法目陀羅尼	-11.7473
實非沙門自	-11.7473
此諸人眾	-11.7473
皆是意行	-11.7473
世尊故在欲	-11.7474
啼	-11.7474
突	-11.7474
歡然	-11.7475
祈	-11.7475
敏	-11.7475
分陀利花	-11.7475
遠離邪見	-11.7475
泉源	-11.7475
愚戇凡夫不能曉了	-11.7475
奸	-11.7475
彼有世界名曰娑婆	-11.7476
九次第定	-11.7476
廣為人說	-11.7476
大威神力	-11.7476
湛然	-11.7476
須彌山頂	-11.7476
往到佛所	-11.7476
是故菩薩摩訶薩於諸眾生如	-11.7476
多摩羅跋	-11.7477
種少善根	-11.7477
阿羅呵	-11.7477
亦莫令我	-11.7477
必墮惡趣	-11.7477
蝎	-11.7477
閻浮提北方第四分	-11.7477
散於佛上	-11.7477
燒堅黑沈水	-11.7477
三千大千世界滿中	-11.7477
昇師子座	-11.7477
遍滿三千大千世界	-11.7477
剃頭	-11.7477
大師云	-11.7477
淺深	-11.7478
十八不共佛法	-11.7478
嗟嘆	-11.7478
修諸善	-11.7478
輕躁	-11.7478
熙怡	-11.7478
我說是人	-11.7478
無常苦無我	-11.7478
叚	-11.7478
無能壞者	-11.7478
迦蘭陀園	-11.7478
三天童女	-11.7479
我從今日	-11.7479
東弗婆提	-11.7479
為住何處	-11.7479
諸漏已盡	-11.7479
蒭	-11.7479
師和上	-11.7479
撰	-11.7479
江沙	-11.7479
淳熟	-11.748
迷悟	-11.748
不畏後世苦果	-11.748
阿牟	-11.748
世尊讚寶女	-11.748
非內非外	-11.748
無邊光照如來	-11.748
踊悅	-11.748
麞鹿	-11.748
大風	-11.748
紹三寶種不斷絕故	-11.748
若於諸經	-11.748
幻惑	-11.7481
稽首足下	-11.7481
涼	-11.7481
群臣	-11.7482
婆樓	-11.7482
現其前	-11.7482
幻術	-11.7482
無功用	-11.7482
哺	-11.7482
二結示	-11.7482
禮覲	-11.7482
清徹	-11.7482
損秏	-11.7483
時戒依止大魔軍主	-11.7483
著衣持鉢	-11.7483
有想無想	-11.7483
一百三十	-11.7483
馨	-11.7483
毘鉢舍那	-11.7483
稱揚讚歎	-11.7484
被服	-11.7484
於夜後分	-11.7484
深固作意	-11.7484
住不退地	-11.7484
栴檀天子	-11.7484
姓氏	-11.7484
秉	-11.7484
是大菩薩	-11.7485
在一面立	-11.7485
憂悲	-11.7485
玩	-11.7485
州城	-11.7485
羼帝	-11.7486
四部眾	-11.7486
一念之頃	-11.7486
不如施一	-11.7486
能護於戒	-11.7486
終不能得	-11.7486
廣度眾生	-11.7486
清和	-11.7486
掃	-11.7486
校量	-11.7486
悉皆銷滅	-11.7486
為其說法	-11.7486
生龍中	-11.7486
迷荒	-11.7486
寬廣	-11.7487
營理	-11.7487
金剛山童子	-11.7487
俱從座起	-11.7487
難遇	-11.7487
菴羅	-11.7487
諸來會者	-11.7487
於大眾中作師子吼	-11.7487
具足三法	-11.7488
誤失	-11.7488
七寶所成	-11.7488
在於彼土忽然不	-11.7488
一一供養彼等諸佛	-11.7488
如我今者	-11.7488
香味觸	-11.7488
名戒瓔珞	-11.7488
彼天仙七宿	-11.7488
我今問	-11.7489
四無色定	-11.7489
火坑	-11.7489
惻	-11.7489
五衰相現	-11.749
隱身不現	-11.749
給使	-11.749
笛	-11.749
不來不去	-11.749
願佛為說	-11.749
尼乾陀等	-11.749
若有真善剎帝利王	-11.749
顛狂	-11.749
如剎帝利灌頂大王	-11.749
自侵	-11.7491
相續不斷	-11.7491
懷聰明慢	-11.7491
不可計劫	-11.7491
曷羅	-11.7491
法治世	-11.7491
羅隣那竭菩薩	-11.7491
心無行動	-11.7491
為我出家	-11.7491
住於慈心	-11.7491
搖動	-11.7492
有佛世界名曰	-11.7492
想升	-11.7492
於一切法而得自在	-11.7492
譬如須彌山王	-11.7492
七寶蓋	-11.7492
有何等相	-11.7492
能壞魔業	-11.7492
婆羅門旃陀羅	-11.7492
囉惹	-11.7492
八十六	-11.7492
復有五法	-11.7492
阿練若處	-11.7493
往至佛所	-11.7493
故名無句義	-11.7493
正宗	-11.7493
悉成就故	-11.7494
不異真如	-11.7494
珂貝	-11.7494
信敬三寶	-11.7494
捨忍清淨平等	-11.7494
吃	-11.7494
不捨道心	-11.7494
共無量百千	-11.7494
善根微少	-11.7494
百千俱胝那由他	-11.7495
皆自處	-11.7495
惡味惡語言	-11.7495
即與十恒河沙等諸	-11.7495
雖得人身	-11.7495
最為殊勝	-11.7495
若能以此休息	-11.7495
婆隸	-11.7496
賀反	-11.7496
尚獲	-11.7497
富樓那彌多羅尼子	-11.7497
弘誓願	-11.7497
息出入	-11.7497
鑠	-11.7497
不依欲界	-11.7497
不出不滅	-11.7497
救母	-11.7498
護持禁戒	-11.7498
無勝意童子	-11.7498
非受持正法	-11.7498
睡夢	-11.7498
稱虛空藏菩薩名	-11.7498
郡國	-11.7498
底履	-11.7499
滿三千大千世界	-11.75
亡失	-11.75
珍妙	-11.75
豐樂	-11.75
以是持力	-11.75
名字何等	-11.7501
近遠	-11.7502
不以為難	-11.7502
寶勝光佛	-11.7502
癡闇	-11.7503
重閣	-11.7503
空解脫門	-11.7503
安置護持養育	-11.7504
住念力時	-11.7504
住進力時	-11.7504
柰	-11.7504
生希有	-11.7504
覲見	-11.7504
以至誠眼	-11.7505
彼是我師	-11.7505
清淨佛剎	-11.7505
不善之業	-11.7506
文殊師利菩薩	-11.7506
起慈悲心	-11.7506
常為眾生	-11.7506
汝當諦聽	-11.7506
故名無分別	-11.7506
傳梵大師賜紫沙門臣法護等奉詔譯	-11.7506
訶波履婆	-11.7507
見佛聞法	-11.7507
鉢囉帝	-11.7508
聞說此	-11.7508
臭處	-11.7508
無若干	-11.7509
當知皆是	-11.7509
入耆闍崛山集於佛所	-11.751
我今與汝	-11.7511
山石	-11.7511
或有禮拜	-11.7511
私婆呵	-11.7511
成敗	-11.7511
合掌向	-11.7512
根不熟	-11.7512
師子進	-11.7513
彼佛壽命	-11.7513
成最正覺	-11.7513
所說經典	-11.7513
惟除	-11.7514
皆得圓滿	-11.7514
僧伽吒經	-11.7514
發如是言	-11.7514
記云	-11.7515
身放光明	-11.7515
為斷眾生	-11.7515
趣惡道	-11.7517
常生人天	-11.7517
高顯	-11.7517
無上法王	-11.7518
無能勝者	-11.7519
是曰善權	-11.7519
不可盡極	-11.752
於諸眾生不起	-11.752
諸人天等	-11.752
是謂取	-11.7521
不見有法	-11.7521
水沫	-11.7522
速得阿耨多羅三藐三菩提	-11.7523
以何方便	-11.7523
精妙	-11.7523
四域	-11.7523
毒熱	-11.7524
為眾說法	-11.7524
於百俱胝	-11.7525
廣流布	-11.7525
語者說	-11.7526
嚕	-11.7526
此念佛三昧	-11.7526
剎多羅	-11.7527
毘樓	-11.7527
或有所行	-11.7528
不著內外	-11.7528
伽樓	-11.7529
如如意珠	-11.7529
皆悉來集	-11.7529
來到此	-11.7529
難得度脫	-11.753
坐菩提樹	-11.7532
隨所住處	-11.7532
遍計	-11.7533
無有相貌	-11.7533
暫捨	-11.7534
四聖種	-11.7535
形類	-11.7535
叉蛇	-11.7536
厭惓	-11.7536
之詞	-11.7537
血塗	-11.7539
種種所須	-11.7539
住第一義忍清淨平等	-11.754
一千年	-11.7541
斯輩	-11.7541
當與汝	-11.7541
我當擁護	-11.7541
如空聚	-11.7541
夜叉羅剎	-11.7542
說如是言	-11.7544
攝受正法	-11.7544
亦無處所	-11.7544
不祥	-11.7544
作如是願	-11.7546
橫病	-11.755
興顯	-11.7552
為說正法	-11.7553
化樂天王	-11.7553
至未曾有	-11.7554
數息	-11.7555
子息	-11.7555
日燈	-11.7556
諸善功德	-11.7556
富樂	-11.7557
或復乘	-11.7558
今準	-11.756
諸過惡	-11.756
緣而致	-11.756
性常淨	-11.7561
悅意	-11.7561
老苦	-11.7562
產生	-11.7563
修集善法	-11.7563
是名第四	-11.7564
三乘正法	-11.7564
聞是語	-11.7565
論說	-11.7565
有為界	-11.7566
為壞眾生	-11.7566
若人非人	-11.7566
容色	-11.7567
不動法界	-11.7567
愍念眾生	-11.7568
求哀	-11.7569
悉除滅	-11.7569
好喜	-11.757
於眾會中	-11.7571
當於爾時	-11.7573
修勇	-11.7573
無處不	-11.7574
一生補處菩薩	-11.7574
住無所住	-11.7575
十力四無畏	-11.7576
通別	-11.7576
營從	-11.7578
不求報	-11.758
說伽他	-11.758
普現	-11.7581
阿婆叉	-11.7582
此魔波旬	-11.7585
終不可	-11.7585
亦復不壞	-11.7585
輕易	-11.7585
始從	-11.7587
但坐	-11.7588
以是善根	-11.759
有二種人	-11.759
大聖人	-11.7591
現在諸佛世尊	-11.7592
所施與者	-11.7592
合為一	-11.7593
有為方便	-11.7593
何等三昧	-11.7595
達哩	-11.7596
無色無	-11.7596
不斷三寶種	-11.7597
時虛空藏菩薩摩訶薩	-11.7599
散提	-11.7599
違逆	-11.76
若具足者	-11.7601
不捨菩提心	-11.7602
之頃	-11.7605
普達	-11.7605
山神	-11.7606
無有二相	-11.7611
不壞法界	-11.7613
誰之所	-11.7616
皆蒙	-11.7617
多竭	-11.7617
未發心	-11.7621
不諂	-11.7621
立世	-11.7623
印可	-11.7624
種種花	-11.7628
毘舍遮王	-11.7629
獨住	-11.7629
神通境界	-11.763
真淨	-11.7632
悟入	-11.7632
出世間道	-11.7637
九界	-11.7639
能具足者	-11.764
生尊貴	-11.7642
目前	-11.7643
具足慚愧	-11.7648
能如是觀	-11.7649
應當至心	-11.7649
并與	-11.7649
七萬二千	-11.7651
十力無畏	-11.7652
文義	-11.7655
七寶莊嚴	-11.7655
亦無所著	-11.7656
沙婆	-11.7659
洲中	-11.7661
令人得	-11.7662
那由他劫	-11.7663
稱我名	-11.7666
亦應如是	-11.7666
師教	-11.7667
勝幢	-11.7669
於今現在	-11.7673
無量無數眾生	-11.7676
七寶具足	-11.7678
今此眾中	-11.768
不可說義	-11.7685
乾闥婆王	-11.7686
於如是法	-11.7689
洲渚	-11.7692
深忍	-11.7696
魔羅	-11.7698
聖行處	-11.7702
入惡道	-11.7703
調和	-11.7705
誠言	-11.7705
百萬	-11.7708
為求菩提	-11.7709
我輩	-11.7709
修諸行	-11.771
永處	-11.7712
稱歎	-11.7713
由昔	-11.7713
饒益眾生	-11.7714
觀己	-11.7716
自在天像	-11.7717
乃至一念	-11.7719
得無量福	-11.772
處于	-11.7721
但為自	-11.7722
世主	-11.7723
於諸陰	-11.7723
若有修集	-11.7726
懺法	-11.7727
供養地藏菩薩	-11.773
不能了知	-11.7733
不以色	-11.7736
勝於一切	-11.7738
遊觀	-11.7738
十方佛國	-11.7739
如掌	-11.7741
破除	-11.7744
寶花	-11.7747
濟眾生	-11.7747
此等眾生	-11.7747
修靜慮	-11.7748
為行法	-11.7753
凡夫人	-11.7756
羅剎王	-11.7756
無加行	-11.7757
無悋	-11.7757
十方所有	-11.776
眾香	-11.7764
此表	-11.7765
復說言	-11.7766
地反	-11.7771
得清淨信	-11.7772
諸惡獸	-11.7773
垢染	-11.7775
明度	-11.7776
觀內外	-11.7778
依報	-11.7783
設令	-11.7788
發明	-11.7793
不退轉印	-11.7795
以清淨心	-11.7796
暴惡	-11.7796
小善	-11.7798
過前	-11.7799
於時世尊	-11.7806
悉曉	-11.7807
即指	-11.7809
黑法	-11.781
盡漏	-11.7812
信敬心	-11.7817
講說法	-11.7819
淨陀羅尼	-11.7821
闍毘	-11.7829
遠離一切諸惡	-11.7829
入般涅槃	-11.783
復有八萬四千	-11.7833
千葉	-11.7834
侍者	-11.7834
曾作	-11.7835
我寧	-11.7835
亦知眾生	-11.7836
處胎經	-11.7837
永斷一切煩惱	-11.7839
不退沒	-11.7842
比尼	-11.785
遍照三千大千世界	-11.7855
一切眾生之類	-11.7866
珠寶	-11.7866
無相三昧	-11.7867
能令一切眾生	-11.787
菩提道場	-11.7876
於無量阿僧祇劫	-11.7878
萬倍	-11.7879
阿賴耶	-11.7881
講法	-11.7882
辟支佛人	-11.7883
智炬	-11.7888
母子	-11.7898
生死大海	-11.7898
以手摩	-11.7898
中女人	-11.7901
亦無分別	-11.7901
賢善	-11.7908
親近承事	-11.7914
況餘	-11.7916
於諸善根	-11.7916
猗著	-11.792
恒沙劫	-11.7921
度生死海	-11.7922
照觸	-11.7923
貪恚	-11.7923
若能如是觀	-11.7928
佛法之中	-11.7929
斯經典	-11.7931
求請	-11.7936
為現身	-11.7937
如父	-11.7943
發於相	-11.7945
婆羅門家	-11.7958
悉照	-11.796
都那	-11.7962
廣長	-11.7962
惡苾芻	-11.7963
為汝分別解說	-11.7967
栴檀末香	-11.7969
得菩提時成第	-11.7971
小劫	-11.7974
止處	-11.7974
福德力	-11.798
一切智人	-11.7985
令諸眾生得	-11.7986
修善行	-11.799
稱南無佛	-11.7993
東方過	-11.8002
自在天子	-11.8006
得菩提真如	-11.801
殺人	-11.8015
懷疑	-11.8019
謂一切法無	-11.8027
聞是經典	-11.8033
十方諸佛國土	-11.8034
見東方	-11.8038
於眾生所	-11.8039
外境	-11.8044
修集悲心	-11.8051
毘舍首陀	-11.8052
四攝事	-11.8057
轉五趣	-11.8061
諸闇冥	-11.8062
積德	-11.8065
無倦	-11.8065
契經	-11.8068
求無上菩提	-11.8071
護我法	-11.8072
晝夜常	-11.8079
此娑婆界	-11.8079
準正法念	-11.8081
一百六十	-11.8082
即是真實	-11.8085
愚惑	-11.8096
佛悲心	-11.8105
義無礙智	-11.8108
無缺漏	-11.8112
持戒精進	-11.8114
出大光明	-11.8123
為諸菩薩說	-11.8125
合掌頂禮	-11.8127
入無間	-11.8128
頗羅	-11.8129
說經法	-11.814
南無佛陀	-11.8145
得菩提時成	-11.8148
能開示	-11.8149
薩羅	-11.8159
恒沙佛	-11.8161
皆得安樂	-11.8165
不慕	-11.8167
此三千大千世界所有	-11.8169
菩薩所修	-11.8174
難值	-11.8198
男子女人	-11.8201
瞿曇所	-11.8201
照十方	-11.8205
種種諸物	-11.8211
於佛所說	-11.8214
學戒	-11.8217
始生	-11.8219
有持是三昧者	-11.822
維衛如來	-11.8234
世界名曰	-11.8236
於四流	-11.8238
貪染	-11.824
常存	-11.8272
通奮迅	-11.8272
學地	-11.8279
利益諸眾生故	-11.828
諸菩提薩埵	-11.8285
能轉法輪	-11.829
微妙法門	-11.8296
各神足	-11.8297
甚清淨	-11.8306
畢竟空	-11.8309
所不應	-11.8322
明相佛	-11.8323
今為汝說	-11.8325
生恐怖	-11.8337
彌尼	-11.8339
其名字	-11.8342
娑邏	-11.8345
寶手菩薩	-11.8346
諸天王	-11.8364
轉變	-11.8366
於此土	-11.8373
行法施	-11.8375
無有受者	-11.8377
邪歸	-11.8388
菩薩持戒無	-11.839
說偈答	-11.8398
無二相	-11.84
栴檀末	-11.84
破戒惡行	-11.8402
古昔	-11.8408
月光明香勝如來	-11.8415
瓔	-11.842
最無上	-11.8423
諸佛法中	-11.8423
四角	-11.8423
九月	-11.8425
諸魔外道	-11.8429
得大富	-11.8433
顯益	-11.8447
器盛	-11.8455
百俱胝	-11.8457
自性空	-11.8467
於此經	-11.8472
生驚怖	-11.8476
神識	-11.8479
此陀羅尼句	-11.8481
共集會	-11.8489
云何而得	-11.8493
普勇菩薩復	-11.8502
法中出家	-11.8503
以此因	-11.8505
諸眾生類	-11.8505
如來滅後	-11.8513
闍呵	-11.8518
是善丈夫	-11.852
修行忍辱	-11.8523
果樹	-11.8527
恭敬頂禮	-11.8531
不錯	-11.8534
能於無量	-11.8543
梵音聲	-11.8549
那庾多	-11.8562
名義無礙	-11.8566
高七多羅樹	-11.8573
盧遮	-11.8581
悋惜	-11.8585
遠離貪欲	-11.8591
千數	-11.8594
蓋幢幡	-11.8602
拘留孫	-11.8606
具足十力	-11.8618
離一切惡	-11.8619
以如是相	-11.863
最勝尊	-11.8634
妨	-11.8636
所歸趣	-11.8638
日合牛	-11.864
亦無所說	-11.8642
何物	-11.8643
能救護	-11.8644
隨念於	-11.8645
一心合掌	-11.8646
諸種子	-11.8647
淨佛國土	-11.8649
了義經者	-11.8652
懷害	-11.8652
紀	-11.8659
彼仙人	-11.866
銕圍	-11.8664
銕牀	-11.8666
的	-11.8666
辰	-11.8668
曷	-11.867
眴	-11.8672
讒	-11.8673
冰	-11.8673
一念頃	-11.8674
梵輔	-11.8676
雌	-11.8676
兄	-11.8676
印印之	-11.8676
岳	-11.8679
魚鼈	-11.8681
汗	-11.8683
魄	-11.8685
寶雨經云	-11.8686
夕	-11.8686
咽喉	-11.8687
姿	-11.8687
遮𩘌	-11.8687
秦	-11.8688
而語之言	-11.8688
住於佛前	-11.8688
。】【△	-11.8688
修行忍辱得清淨故	-11.8689
諸剎	-11.8689
別行疏	-11.869
破魔法門	-11.8691
迅	-11.8691
歸敬地藏者	-11.8691
油燈	-11.8691
雲雷音	-11.8692
鈎	-11.8692
熏習	-11.8692
風所吹	-11.8693
得聞是三昧	-11.8694
肩	-11.8694
肆	-11.8694
摧折	-11.8694
監	-11.8694
覲	-11.8695
毛端	-11.8696
苦切	-11.8696
悚	-11.8697
景	-11.8697
覓	-11.8697
殄	-11.8698
息華魔	-11.8698
生時死時	-11.8699
毳	-11.8699
應當速	-11.8701
完	-11.8701
諸法無生	-11.8701
脣	-11.8701
佛出世者即是	-11.8702
凍	-11.8703
難行苦行	-11.8703
喘息	-11.8703
禾	-11.8704
骸	-11.8704
巷	-11.8704
專注	-11.8704
蚖	-11.8705
騾	-11.8705
人身難得	-11.8705
三耶三佛	-11.8705
炭	-11.8706
造床	-11.8706
高齊天竺三藏那連提耶舍譯	-11.8706
是名初發心菩薩犯於第	-11.8707
抑	-11.8707
天台	-11.8707
〔	-11.8707
默然不答	-11.8707
剃鬚髮	-11.8707
〕-【	-11.8708
若減一劫	-11.8708
峻	-11.8709
無有於他實	-11.8709
殘害	-11.8709
四悉檀	-11.871
貧窮困苦	-11.871
未曾忽忘	-11.871
說寶幢陀羅尼	-11.871
箇	-11.871
如雨而下	-11.871
喧	-11.8711
被弘誓鎧	-11.8711
興供	-11.8711
妨廢	-11.8712
被服袈裟	-11.8712
乍	-11.8712
永不墮惡道	-11.8712
或奪	-11.8712
摩耶夫人	-11.8713
一瞻一禮	-11.8713
此二種人	-11.8713
貨	-11.8713
以惡業故	-11.8713
孫陀利	-11.8714
阿耨	-11.8714
乙	-11.8714
蠅	-11.8714
五辛	-11.8714
金色百福	-11.8714
稻	-11.8714
阿差末謂舍利弗	-11.8714
是攝正法	-11.8715
寶星陀羅尼	-11.8715
驅擯	-11.8715
地神護法	-11.8715
費	-11.8716
波羅陀阿修羅王	-11.8716
有三昧名	-11.8716
志性無定	-11.8716
臣寮	-11.8716
惛	-11.8717
煮	-11.8717
沮	-11.8717
歷耳根	-11.8718
菜	-11.8718
大威神	-11.8718
宛轉	-11.8718
睡臥	-11.8718
而開化之	-11.8718
師子獸王	-11.8719
惱患	-11.8719
而教化之	-11.8719
乃至奪命	-11.8719
寶肩如來	-11.8719
有依行輪	-11.8719
良福田	-11.8719
速得成就阿耨多羅三藐三菩提	-11.8719
琴	-11.8719
無明所覆	-11.8719
稱虛空藏菩薩摩訶薩名	-11.872
殞	-11.872
促	-11.872
贈	-11.872
柔順法忍	-11.872
鴦耆羅娑如來	-11.8721
胡跪	-11.8721
周匝圍遶	-11.8721
廣長舌	-11.8721
見聞覺知	-11.8721
以妙香華	-11.8721
厭賤	-11.8721
曼陀羅花	-11.8721
牛跡	-11.8721
智積菩薩	-11.8721
隋天竺三藏達磨笈多譯	-11.8721
服袈裟	-11.8721
祕密	-11.8721
俯	-11.8721
咥	-11.8722
如鏡中像	-11.8722
之所染污	-11.8722
椎	-11.8722
拯	-11.8722
聖旨	-11.8722
欺𣣋	-11.8722
佞	-11.8722
彌隷	-11.8722
醯履醯履	-11.8722
毗沙門	-11.8722
打罵	-11.8723
口不能語	-11.8723
以是義故名之為	-11.8723
知止足	-11.8723
踏	-11.8723
付囑於汝	-11.8724
赫	-11.8724
變怪	-11.8724
食不淨想	-11.8724
能壞死魔	-11.8724
謟	-11.8724
七菩提分	-11.8724
戰鬪	-11.8724
撥	-11.8724
所聞不忘	-11.8724
善巧方便大甲冑輪	-11.8725
器非器	-11.8725
無諸障礙	-11.8725
漸次	-11.8725
皤	-11.8725
說是語已	-11.8725
如救頭然	-11.8725
婆隷	-11.8725
尊者舍利子	-11.8725
十二由旬	-11.8725
無願解脫門	-11.8725
是故名捨	-11.8725
薜荔	-11.8726
打擲	-11.8726
散其上	-11.8726
剃除鬚髮被服袈裟	-11.8726
蹈	-11.8726
河池	-11.8726
如說而住	-11.8726
靈椉	-11.8726
刀輪	-11.8726
心之所念	-11.8726
住於閑林	-11.8726
燒滅善根	-11.8726
若菩薩成就八法	-11.8726
縵	-11.8727
伽留	-11.8727
灌頂剎利大王	-11.8727
頻頭	-11.8727
渧數	-11.8727
陂池	-11.8727
阿濕婆	-11.8727
講說經典	-11.8727
須臾之間	-11.8727
為成熟眾生故	-11.8727
恒河沙諸佛如來	-11.8727
海邊	-11.8728
豺狼	-11.8728
慎勿	-11.8728
嚴駕	-11.8728
大慈大悲大喜大捨	-11.8728
如法而說	-11.8728
拘物頭花	-11.8728
耐	-11.8728
百億四天下	-11.8728
迮	-11.8728
罷	-11.8729
以何義故	-11.8729
接引	-11.8729
熒惑	-11.8729
我之正法	-11.8729
屑	-11.8729
殺阿羅漢	-11.8729
窈冥	-11.8729
平均	-11.8729
眷	-11.873
諸善男子及善女人	-11.873
無畏大城	-11.873
日密分	-11.873
若見有人	-11.873
多陀阿伽度	-11.873
疾得是定	-11.873
拒	-11.873
香湯澡浴	-11.873
談論	-11.873
順念	-11.873
忿恚	-11.873
兩手捧	-11.8731
住蘭若	-11.8731
明哲	-11.8731
頭面禮拜	-11.8731
安庠	-11.8731
而化度之	-11.8731
身毛皆竪	-11.8731
殿堂	-11.8731
摧碎心高緣法等句陀羅尼印入差別記	-11.8732
欲作事者	-11.8732
以慧力故	-11.8732
勒叉	-11.8732
吠	-11.8732
膠	-11.8732
其佛壽命	-11.8733
瘖瘂	-11.8733
抄寫此經	-11.8733
沙門及婆羅門	-11.8733
五百由旬	-11.8733
四正斷	-11.8733
初誡聽許說	-11.8733
選	-11.8733
阿差末菩薩謂舍利弗	-11.8733
及餘種種富貴尊位	-11.8733
不可復計	-11.8733
天竺	-11.8733
於阿耨多羅三藐三菩提得不退轉	-11.8733
家室	-11.8734
敬信三寶	-11.8734
無常變異	-11.8734
尒時年少眾生	-11.8734
戰慄	-11.8734
與大比丘眾	-11.8734
為是等故	-11.8734
若身口意所作罪過	-11.8734
持閻浮提東方第四分	-11.8734
耨	-11.8734
問虛空藏	-11.8734
一時同聲	-11.8734
席	-11.8734
引導	-11.8734
定意正受	-11.8734
父母師長	-11.8734
褥	-11.8735
金剛齊比丘	-11.8735
瞻覩	-11.8735
從禪定起	-11.8735
得受阿耨多羅三藐三菩提記	-11.8735
瓦石	-11.8735
壽命長遠	-11.8735
阿惟顏	-11.8735
要期	-11.8736
最為第一	-11.8736
懷抱	-11.8736
稽首足下遶	-11.8736
健達縛	-11.8737
劣弱	-11.8737
生我國	-11.8737
眾人愛敬	-11.8737
祚	-11.8737
瞋罵	-11.8737
嗣	-11.8737
欄	-11.8737
嚌	-11.8737
捨家出家	-11.8737
著新淨衣	-11.8737
莫呼洛伽	-11.8737
三輪清淨	-11.8737
姪	-11.8738
涅盤	-11.8738
何因何緣	-11.8738
四天大王	-11.8738
膏	-11.8738
二十八宿	-11.8738
欣然	-11.8738
六和敬	-11.8739
沒不現	-11.8739
智慧之人觀是事已	-11.8739
無有遺餘	-11.8739
精味	-11.8739
四諦順忍陀羅尼	-11.8739
無所從生法忍	-11.8739
必利洟	-11.8739
親厚	-11.8739
仁和	-11.8739
大火聚	-11.8739
欝單曰	-11.8739
無我無我所	-11.8739
吝	-11.8739
憍曰兜	-11.874
好細軟可身	-11.874
分別現說	-11.874
陀那波羅蜜	-11.874
播	-11.874
講說經法	-11.874
三寶種姓	-11.874
末香塗香	-11.874
火不能燒	-11.874
睺	-11.8741
為菩薩十校計	-11.8741
志慕	-11.8741
摩納	-11.8742
流注	-11.8742
灌頂大王	-11.8742
菩提不退	-11.8742
光目女	-11.8742
蓋纏	-11.8742
因坻達菩薩	-11.8742
摩訶須薩和菩薩	-11.8743
斷除五欲	-11.8743
客塵煩惱	-11.8743
頭面著地	-11.8743
那羅達菩薩	-11.8743
灌頂王位	-11.8743
不流散	-11.8743
坐於道場	-11.8743
哀愍攝受	-11.8744
常勤修習	-11.8744
實是愚癡	-11.8744
合掌禮佛	-11.8744
起居輕利	-11.8744
富沙	-11.8744
識宿命	-11.8745
藥王菩薩摩訶薩	-11.8745
深淺	-11.8745
無所悋惜	-11.8745
常不捨離	-11.8745
三惡道中	-11.8745
不失念心	-11.8745
羈	-11.8746
大地震動	-11.8746
若菩薩摩訶薩成此	-11.8746
毫善	-11.8746
一切法亦然	-11.8746
虗空藏菩薩	-11.8747
殖德本	-11.8747
五濁世界	-11.8747
滿足禪波羅蜜	-11.8747
我橋上	-11.8747
為欲成熟諸有情故	-11.8747
有慧菩薩	-11.8747
簫	-11.8747
轉無上法輪	-11.8747
以憐愍故	-11.8747
精誠	-11.8747
所在之處	-11.8748
)􂍾	-11.8748
廣為他說	-11.8748
疾成阿耨多羅三藐三菩提	-11.8748
得歡喜心	-11.8748
地藏白言	-11.8749
s	-11.8749
悉滅無餘	-11.8749
逆順	-11.8749
逕	-11.8749
甘果	-11.8749
毘梨耶	-11.8749
久住不滅	-11.875
夙夜	-11.875
1	-11.8751
行於布施	-11.8751
亦來集會	-11.8752
疲懈	-11.8752
種種香花	-11.8752
往彼娑婆世界	-11.8753
2	-11.8754
我悉供養	-11.8754
得幾許罪	-11.8755
各各差別	-11.8755
不可覩見	-11.8755
黑白	-11.8755
五根本罪	-11.8755
誑惑世間	-11.8755
我是大乘	-11.8755
鏡像	-11.8755
在王舍城	-11.8755
汝今見此	-11.8756
係念	-11.8756
夜叉乃至迦吒富單那等	-11.8756
無言童子	-11.8757
悉令休息	-11.8757
諦聽諦聽	-11.8757
休休	-11.8757
食飲	-11.8758
徧滿	-11.8758
速證阿耨多羅三藐三菩提	-11.8758
貧苦	-11.8759
召集	-11.8759
此名曰通	-11.8759
不可譬喻	-11.8759
無緣梵行	-11.8759
畔	-11.876
捨此身	-11.876
隨其所須	-11.876
威德力故	-11.876
讚美	-11.8761
威神建立	-11.8761
娑婆世界釋迦如來	-11.8761
卑下	-11.8761
加持力故	-11.8762
到佛所已	-11.8762
婆樓那	-11.8762
初成正覺	-11.8762
藥樹	-11.8763
本來不生	-11.8763
十月	-11.8763
非作非	-11.8763
頭陀功德	-11.8763
是名初行菩薩第	-11.8763
寶橋	-11.8764
高齊天竺三藏那連提耶舍譯爾時	-11.8765
拘那	-11.8765
結網	-11.8765
禪悅	-11.8765
安住十地	-11.8766
未得法忍	-11.8767
淨修梵行	-11.8767
劫火	-11.8767
汝今不應	-11.8767
八臂	-11.8769
教導	-11.877
修七覺分	-11.877
護眾生故	-11.8771
彼出家菩薩	-11.8771
檀提	-11.8772
又復際者	-11.8772
嵠	-11.8773
諸菩薩輩	-11.8774
葉華	-11.8774
有反復	-11.8774
所有聲聞弟子	-11.8775
帝釋天王	-11.8775
旃陀羅王	-11.8775
羅麼	-11.8775
供養三世諸佛	-11.8776
皆悉充滿	-11.8776
生不樂想	-11.8776
供給供養	-11.8776
無上正真道	-11.8777
消化	-11.8777
燈燭	-11.8777
無量眾生發阿耨多羅三藐三菩提心	-11.8777
捨諸所有	-11.8778
受苦痛	-11.8778
如理修行	-11.8778
八大地獄	-11.8779
聖路	-11.8779
常得增長	-11.8779
發大莊嚴	-11.878
師恩	-11.878
生人天中	-11.878
不應親近	-11.8781
於此法中	-11.8781
若菩薩成就四法	-11.8781
侈	-11.8782
而來集會	-11.8782
未詳	-11.8783
越三界菩薩	-11.8783
尚不敢近	-11.8783
無邊量	-11.8784
天鬘	-11.8784
人中師子	-11.8785
何能觸嬈	-11.8785
何所饒益	-11.8785
至心恭敬	-11.8785
大王當知	-11.8786
高遠	-11.8786
地藏答言	-11.8786
變成七寶	-11.8786
煩惱諸結	-11.8786
來詣此	-11.8788
不退轉輪	-11.8788
豆摩	-11.8788
彌勒尊	-11.8789
黃色	-11.8789
寤已	-11.8789
釋師子	-11.8789
迦蛇	-11.8789
毘沙	-11.879
灌頂王	-11.879
其價	-11.879
終不忘失	-11.8792
即於空中	-11.8793
現在不住	-11.8794
七返	-11.8795
栖	-11.8796
至如來所	-11.8796
大鎧	-11.8797
人道中	-11.8797
猶如大地	-11.8797
然後方	-11.8798
方圓	-11.8798
可思議	-11.8798
表示	-11.88
目佉	-11.88
生大悲心	-11.88
決斷	-11.8801
令三寶種	-11.8801
戍	-11.8801
甚深之義	-11.8802
天與人	-11.8802
若犯一	-11.8804
志性清淨	-11.8805
三災	-11.8806
種種伎樂	-11.8806
戒清淨平等	-11.8807
心不貪著	-11.8809
平地	-11.8809
旃檀	-11.8809
云何可說	-11.881
空虛	-11.881
輕利	-11.881
朱盧	-11.8812
經營	-11.8812
若善不善	-11.8813
億那由他百千眾生	-11.8813
彼賢護菩薩	-11.8814
生死苦惱	-11.8815
二十四種	-11.8816
自在無礙	-11.8818
無量無邊世界	-11.8819
慧奮迅	-11.882
速成無上	-11.882
皆悉合掌	-11.8822
如是忍者是觀	-11.8824
我及眷屬	-11.8824
佛告賢護	-11.8826
即於會中	-11.8826
身心俱	-11.8827
速成就阿耨多羅三藐三菩提	-11.8827
無色定	-11.8828
速得解脫	-11.8828
若現在世	-11.8828
不著過去	-11.8829
究竟涅槃	-11.8829
了別	-11.8833
復有一人	-11.8836
純至	-11.8836
又自在王	-11.8838
勿呿	-11.8838
何須	-11.8838
第一禪	-11.8839
汝能如是	-11.884
梵德	-11.8841
用塗	-11.8841
菩薩修禪	-11.8843
悅樂	-11.8843
聞說大乘	-11.8843
尊長	-11.8843
一切諸善法	-11.8845
三有海	-11.8847
犯重	-11.8848
靡不周	-11.8848
於三世中	-11.8848
求此三昧	-11.8848
禮諸佛	-11.8849
諸天子眾	-11.885
金師	-11.885
此虛空孕菩薩	-11.8851
婆羅門種	-11.8852
獲安樂	-11.8853
無與等者	-11.8854
亦不怖畏	-11.8855
大叫	-11.8856
而修禪定	-11.8856
於生死海	-11.8857
觀一切行	-11.8858
不可說者即是	-11.8858
嚩底	-11.8858
圓明	-11.8859
修六波羅蜜	-11.886
寶坊中	-11.8861
地居	-11.8861
遠離憍慢	-11.8863
塵穢	-11.8863
若能了知	-11.8864
讀誦受持	-11.8865
於四神足	-11.8865
種種幡蓋	-11.8866
四輩	-11.8866
魔羂	-11.8867
厭離生死	-11.8869
喜足	-11.8872
遮尼	-11.8872
一切眾魔	-11.8872
辟支佛共	-11.8873
有靨	-11.8873
無差特	-11.8874
無量佛剎	-11.8875
供養佛已	-11.8875
佛告海意菩薩	-11.8875
此第十	-11.8875
得三昧已	-11.8876
大苦惱	-11.8876
為人說法	-11.8878
無願三昧	-11.8878
具足念心	-11.888
誹謗賢聖	-11.888
憐愍我故	-11.8881
諸魔眷屬	-11.8884
攝諸眾生	-11.8886
不厭生死	-11.8887
神德	-11.8887
作佛形像	-11.8889
有一種	-11.8891
功德莊嚴王	-11.8891
能仁	-11.8893
無有慚愧	-11.8895
具一切智	-11.8897
無有言辭	-11.8898
破毀	-11.8899
勝進	-11.89
脫免	-11.89
開明	-11.89
無所破壞	-11.8906
叉耶	-11.8907
即是寂靜	-11.8907
名善思惟	-11.8908
即是無上	-11.8909
修行檀波羅蜜	-11.891
是兒	-11.8911
使諸眾生	-11.8911
不著諸法	-11.8911
離殺生	-11.8912
受用種種	-11.8912
燈炬	-11.8914
有大功德	-11.8914
其頂上	-11.8917
不能親近	-11.8922
無諍三昧	-11.8925
無為方便	-11.8925
能除滅	-11.8927
解達	-11.8936
百界	-11.8936
愛染	-11.8937
覺了諸法	-11.8938
懈退	-11.8938
罪輩	-11.8939
我為彼	-11.8941
瞿沙	-11.8941
即是過去	-11.8942
教諸眾生	-11.8944
戒定慧	-11.8956
捨諸煩惱	-11.8956
根機	-11.8957
吉祥令	-11.8957
自省	-11.896
行於生死	-11.8961
非諸聲聞	-11.8975
一切有為法	-11.8976
即於佛前而說	-11.8976
道跡	-11.8976
真善婦女	-11.8977
若如是見	-11.8979
累劫	-11.898
萬二千人	-11.8992
隨彼眾生	-11.8994
修八正道	-11.8997
菩薩如說	-11.8999
無乏	-11.9007
乾陀	-11.9008
令一切眾生得	-11.9016
時諸年少	-11.9016
亦是一切	-11.9028
廣宣說	-11.9036
百千歲	-11.9043
日天子	-11.9043
那由他等	-11.9049
不為邪	-11.9049
犯禁戒	-11.9053
計著	-11.9053
聞如來說	-11.9056
頭面禮敬	-11.9057
方便波羅蜜	-11.9058
呵奢	-11.9058
阿迦尼吒天	-11.9058
堪為	-11.9063
佛滅度後	-11.9064
受人身	-11.9064
久存	-11.9069
寶階	-11.9073
眷屬圍繞	-11.9083
得空三昧	-11.909
得出離	-11.9095
趣阿鼻地獄	-11.9098
依止威儀	-11.9099
生天涅槃	-11.911
報彌勒	-11.911
以如上諸	-11.9113
為欲供養	-11.9114
在其中	-11.9123
行惡者	-11.9124
知眾生界	-11.9126
為法故	-11.9127
伽隸	-11.9128
慢慢	-11.9131
無有疲惓	-11.9135
銕丸	-11.9142
百億魔	-11.9144
因無常	-11.9145
深著	-11.9149
獄鬼	-11.915
一切法真如故	-11.9151
觀十二因緣	-11.9151
百八罪	-11.9158
大名聞	-11.9158
穀藥	-11.916
熾火	-11.9164
鬼畜	-11.9166
初敘	-11.9174
念念滅	-11.9183
力無所畏	-11.9191
無疲厭	-11.9197
受苦報	-11.9199
無高下	-11.9201
百萬億	-11.9202
華雲	-11.9208
毀損	-11.9212
是毘梨耶波羅蜜	-11.9219
等者則	-11.9221
石山	-11.9241
其父	-11.925
沙彌	-11.9252
無能勝	-11.9254
何謂三十二	-11.9254
肉眼	-11.9258
生貪著	-11.9262
日合七星	-11.9268
闇蔽	-11.9272
樹根	-11.9292
貧乏	-11.9297
其本末	-11.93
若有比丘觀	-11.9301
於世法	-11.9306
於世諦	-11.9312
修捨心	-11.9312
于大哀	-11.9313
摩兜	-11.9314
七日夜	-11.9316
閻浮提界	-11.9316
快說此	-11.932
皆來至	-11.9321
種種形色	-11.9321
況復能	-11.9324
法界無分別	-11.9326
眾生起大悲心	-11.933
大集眾	-11.934
眾人所	-11.934
▁南無文殊師利	-11.9345
我實不	-11.9351
說法教化	-11.9352
在此會	-11.9357
大德舍利弗	-11.9357
我此身	-11.9369
十不善	-11.9379
初標	-11.9383
內外空	-11.9383
莊嚴佛土	-11.9384
無復疑	-11.9388
生三十三天	-11.939
有大慈悲	-11.9399
之所宣說	-11.94
為眾說	-11.9409
之所讚歎	-11.9409
汝等若能	-11.9427
而不證	-11.9429
所獲福	-11.9429
若有眾生得聞	-11.943
近惡知識	-11.944
大施主	-11.945
告尊者阿難	-11.945
細微	-11.9451
寒熱等	-11.9452
得無礙辯	-11.9457
斷一切煩惱	-11.9459
枉習	-11.9462
分分	-11.9466
諸惡比丘	-11.9473
宮室	-11.948
大仙人	-11.9483
不懷恨	-11.9485
卷第四十	-11.9485
無懈	-11.9489
戒波羅蜜	-11.949
更發	-11.9492
七十九	-11.9497
知色真如	-11.9497
勿生疑	-11.9502
作諸惡業	-11.9507
煩惱垢	-11.9516
以如是等種種	-11.9517
萬由旬	-11.9532
尚能	-11.9543
修於念	-11.9544
思惟此三昧	-11.9551
如茲	-11.9552
三場	-11.9557
復有魔	-11.9577
大富貴	-11.9581
所建	-11.9586
有比丘名	-11.9592
日除愈	-11.9604
好衣	-11.9606
諸漏盡	-11.9607
有大名稱	-11.9609
我當為汝	-11.9617
疲厭	-11.9618
獲福無量	-11.9626
復有三萬	-11.9631
受是經	-11.9635
無阿賴耶	-11.9638
依猗	-11.9639
害命	-11.9641
月天子	-11.965
衣服臥具	-11.9655
佛寺	-11.9656
修正行	-11.9658
所說妙法	-11.9661
女人之身	-11.9665
鉢帝	-11.9671
心生念	-11.9674
寶髻菩薩	-11.9682
陰界	-11.9683
聞者皆	-11.9699
當觀此	-11.9699
香塗	-11.9699
復微笑	-11.97
退坐	-11.9716
十四日	-11.9731
此智慧依止	-11.975
在眾中	-11.9762
慈悲地藏懺法	-11.9773
護助	-11.9793
枷鎖	-11.9801
為他宣說	-11.981
式	-11.9816
山間	-11.9821
明月珠	-11.9824
方等經	-11.9827
覺阿耨多羅三藐三菩提	-11.9833
度大海	-11.9837
能善分別	-11.9851
所施與	-11.9854
過百	-11.9861
牟陀	-11.9866
彼人所作	-11.9868
此勝三昧	-11.9877
九十八	-11.9889
以世諦	-11.9895
稱沙門	-11.9898
洋	-11.9908
作導師	-11.9928
誦讀	-11.9929
益彼故	-11.9936
嘴宿	-11.9947
說大陀羅尼	-11.9952
頗能	-11.9952
神鬼	-11.9963
修集無上	-11.9965
如意分	-11.9968
八十九	-11.9978
上昇虛空	-11.9983
還生人	-11.9986
施作佛事	-12.0011
宜速	-12.0024
西晉月氏三藏竺法護譯	-12.0024
龍婦	-12.003
不能損	-12.004
悲啼	-12.0057
華葉	-12.006
鼈	-12.0061
幻炎	-12.0067
埋	-12.0069
償	-12.0086
銅柱	-12.0086
葷	-12.009
赤袈裟	-12.0092
災禍	-12.0093
饑餓	-12.0093
蠲	-12.0096
坎	-12.0097
百千年	-12.0098
渾	-12.0099
鱗	-12.01
焦爛	-12.0101
併	-12.0101
觀後世畏	-12.0102
繳	-12.0102
周流	-12.0102
斯之謂	-12.0102
八十七	-12.0103
衡	-12.0103
無上正真	-12.0104
寶肩	-12.0104
心知無	-12.0105
嶽	-12.0109
二品文二初	-12.0109
𩘌地離	-12.0109
暫停	-12.011
溟	-12.011
楞	-12.011
母生界	-12.0111
掩	-12.0111
絲	-12.0111
唎底	-12.0112
猴	-12.0112
叢	-12.0113
有情真如	-12.0114
周禮	-12.0114
咄哉	-12.0115
錫	-12.0115
掠	-12.0115
逾	-12.0115
荀	-12.0115
腋	-12.0115
七七日內	-12.0116
寡	-12.0117
凶衰	-12.0117
馳走	-12.0117
敦	-12.0117
地藏分身	-12.0118
厨	-12.0118
色聲香味觸	-12.0118
嗚呼	-12.0119
啄	-12.0119
抑豈	-12.0119
抄	-12.0119
楊	-12.0119
澆	-12.012
菩薩成就四法	-12.012
悲華經	-12.0121
桃	-12.0122
懇	-12.0123
功德光王	-12.0123
釘	-12.0123
銕蛇	-12.0124
押油	-12.0124
天仙七宿	-12.0125
嬾惰	-12.0125
拂	-12.0125
娘	-12.0125
制字	-12.0126
初二句	-12.0126
逮此總持	-12.0126
竹林	-12.0126
叔	-12.0126
即便授以修	-12.0126
阿耨多羅三耶三菩阿惟三佛	-12.0126
替	-12.0127
肥	-12.0127
夾	-12.0127
佛復問諸菩薩	-12.0127
勝義僧	-12.0127
精懃	-12.0127
籠	-12.0127
大聲聞眾	-12.0127
摩呼羅伽	-12.0127
涸	-12.0128
誅	-12.0128
祁	-12.0128
悶	-12.0128
無有出期	-12.0128
新婆沙	-12.0129
鵠	-12.0129
嫁	-12.013
墻壁	-12.013
本迹	-12.0131
艶	-12.0131
從地獄出	-12.0131
霧	-12.0131
總攝一切佛法	-12.0132
守門者	-12.0132
盪	-12.0132
唄	-12.0132
變動諸法王菩薩	-12.0132
弩	-12.0133
阿說示	-12.0133
遇佛授記	-12.0134
拘物頭	-12.0134
差別之相	-12.0134
增一阿含	-12.0135
農夫	-12.0135
晉	-12.0135
兄弟姊妹	-12.0135
千菩薩得無生忍	-12.0135
周圍	-12.0135
四事助歡喜	-12.0135
讐	-12.0135
菩薩具足如是等法	-12.0136
兵革	-12.0136
嘔	-12.0136
九十九億百千那由他	-12.0136
擣	-12.0136
於是三昧中	-12.0136
汲汲	-12.0136
茹	-12.0136
藥王菩薩	-12.0136
燒脚	-12.0136
歸敬三寶	-12.0136
蟻	-12.0137
稼穡	-12.0137
拳	-12.0137
範	-12.0138
宛	-12.0138
穌	-12.0138
慇	-12.0138
所顯示	-12.0138
時會大眾	-12.0138
來入會中	-12.0139
捧	-12.0139
文分二	-12.0139
忍辱柔和	-12.0139
酥	-12.0139
別解脫戒	-12.0139
含笑	-12.014
輯	-12.014
部黨	-12.014
虎豹	-12.014
床褥	-12.014
乞士	-12.014
毘婆尸	-12.014
清濁	-12.0141
販賣	-12.0141
瞑	-12.0141
臨命終人	-12.0141
黶	-12.0141
鎮星	-12.0141
憚	-12.0141
八千龍王	-12.0141
其等與者	-12.0141
囑累人天	-12.0141
善道及涅槃樂	-12.0142
阿練若	-12.0142
脊	-12.0142
鏁	-12.0142
啟請	-12.0142
離垢光	-12.0142
諸婆羅門外道	-12.0142
癩病	-12.0143
竊盜	-12.0143
竄	-12.0143
菩薩亦承佛神力入	-12.0143
疵	-12.0143
跢	-12.0143
博差	-12.0144
搏	-12.0144
塑畵形像	-12.0144
了知清淨士	-12.0144
不可捉持	-12.0144
聰叡	-12.0144
念總持力	-12.0144
誰於今日	-12.0144
觀三世方便	-12.0144
旹	-12.0144
咨	-12.0144
嘿	-12.0144
沒溺	-12.0144
以何緣故	-12.0144
庶民	-12.0144
病惱	-12.0145
但有名字	-12.0145
作者受者	-12.0145
糜	-12.0145
稽首佛足	-12.0145
生欲勤進	-12.0145
攝心正除	-12.0145
我以佛眼	-12.0145
游	-12.0146
鹹	-12.0146
若有剎利灌頂	-12.0146
這	-12.0146
謹	-12.0146
心數法	-12.0146
萎	-12.0146
粗	-12.0147
阿修羅城邑宮殿	-12.0147
娑樹帝	-12.0147
聞地藏菩薩名	-12.0147
泰山	-12.0147
空中有聲	-12.0147
雨淚	-12.0147
掣	-12.0147
當來之世	-12.0147
請問於如來	-12.0147
涕淚	-12.0148
為百分	-12.0148
下至無戒	-12.0148
退住一面	-12.0148
永離惡趣	-12.0148
五受陰	-12.0148
饌	-12.0148
此妙正法	-12.0148
駛	-12.0148
雕	-12.0148
惡業盡故	-12.0148
詔	-12.0149
勳	-12.0149
卑利癡比	-12.0149
芒	-12.0149
掬	-12.0149
種種器仗	-12.0149
非有想非無想	-12.0149
罪苦之事	-12.0149
感應道交	-12.0149
為重宣此義	-12.015
䩕	-12.015
跋泥	-12.015
在世尊前	-12.015
是為如來第十	-12.015
毒蟲	-12.015
常現在前	-12.015
狂象	-12.015
了了分明	-12.015
捨是身已	-12.0151
乾枯	-12.0151
挺	-12.0151
不瞋惱	-12.0151
欽敬	-12.0151
沐	-12.0151
於賢劫中	-12.0151
我等今者於世尊前	-12.0151
伽伽那	-12.0152
提婆達多	-12.0152
大通山王	-12.0152
甚可怖畏	-12.0152
苾芻尼	-12.0152
聞我說法	-12.0152
萬民	-12.0153
三天童女護持養育	-12.0153
捐棄	-12.0153
生於天上	-12.0153
發聲聞心	-12.0153
不孝父母	-12.0153
壽命短促	-12.0153
或有眾生聞說	-12.0153
以經力故	-12.0153
憶宿命	-12.0153
出入氣息	-12.0153
媚	-12.0153
慠慢	-12.0153
良田	-12.0153
未之有也	-12.0153
殃舋	-12.0153
在其人前	-12.0153
窟宅	-12.0154
病瘦	-12.0154
空無想願	-12.0154
不與聲聞辟支佛共	-12.0154
何時當	-12.0154
不譏彼	-12.0154
此賢劫初	-12.0154
令我等輩	-12.0155
於歸我法	-12.0155
普眼尊	-12.0155
醉象	-12.0155
長跪叉手	-12.0155
以言宣	-12.0155
淨居諸天	-12.0155
螺	-12.0155
月上境界如來	-12.0155
滅度之後	-12.0156
巍巍之德莫能當焉	-12.0156
不了義經者	-12.0156
所散之華	-12.0156
淤泥	-12.0156
於此四天下中	-12.0156
磨拭	-12.0156
買	-12.0156
近善友	-12.0156
莊校	-12.0156
無遺餘	-12.0156
而取滅度	-12.0156
無邊虛空處	-12.0156
福報莊嚴王	-12.0156
佷戾	-12.0156
瞿摩娑羅	-12.0156
繞佛三匝	-12.0156
凡夫之人	-12.0157
歌羅羅	-12.0157
汝應當知	-12.0157
摩尼寶珠	-12.0157
發大勇猛	-12.0157
舍利弗語無盡意	-12.0157
前後圍繞	-12.0157
加其鞭杖	-12.0157
阿吒薄俱	-12.0157
分身度脫	-12.0157
晚	-12.0157
見一切色	-12.0157
諸陀羅尼堅固大忍大甲冑輪	-12.0157
鉀	-12.0158
失譯人名今附北涼錄	-12.0158
心不見心	-12.0158
欺詐	-12.0158
復有一魔	-12.0158
過去久遠	-12.0158
及龍眷屬	-12.0159
防護當來所有罪	-12.0159
校飾	-12.0159
無始無終	-12.0159
問訊釋迦牟尼佛	-12.0159
欺陵	-12.0159
存活	-12.0159
於三昧中	-12.0159
曼殊沙華	-12.0159
城邑村落	-12.0159
令還俗	-12.0159
咄	-12.0159
閙	-12.0159
一肩	-12.0159
非時寒熱	-12.0159
歌頌	-12.0159
飢渴寒熱	-12.0159
如者反	-12.0159
慢恣	-12.0159
我念一時	-12.0159
鞭	-12.0159
令三寶種不斷絕故	-12.016
妙高山	-12.016
塵霧	-12.016
婆婁那	-12.016
浴池	-12.016
尒時藥王軍菩薩摩訶薩	-12.016
眾生得如法忍	-12.016
出離三界	-12.016
熈怡	-12.016
擁	-12.0161
彼有世界名曰	-12.0161
軍闍	-12.0161
佉羅帝山牟尼諸仙所依住處	-12.0161
慈悲喜護	-12.0161
難看	-12.0161
為利益一切眾生	-12.0161
恒受勝報	-12.0161
牟真隣陀阿修羅王	-12.0161
甘雨	-12.0162
不如聞是三昧	-12.0162
剎帝利種灌頂大王成就如是第	-12.0162
好疑問	-12.0162
或解支節	-12.0162
命欲終時	-12.0162
譯師	-12.0162
威儀庠序	-12.0162
目犍連	-12.0162
應病與藥	-12.0162
為流布故	-12.0163
西北方	-12.0163
瞻禮讚歎	-12.0163
無數億劫	-12.0163
輦	-12.0163
殊絕	-12.0163
為滿六波羅蜜	-12.0163
隨惡友行	-12.0163
諸莊嚴具	-12.0163
為火所焚	-12.0163
乾陀羅國	-12.0163
令自國土增長安樂	-12.0163
善家子	-12.0164
其功德福	-12.0164
恒伽大河	-12.0164
勝福常得增長	-12.0164
為諸眾生宣說正法	-12.0164
行大布施	-12.0164
奉迎	-12.0164
是名不共凡夫如實陀羅尼	-12.0164
波頭摩勝	-12.0164
栘	-12.0164
僧坊	-12.0164
鳩槃	-12.0165
緣是之故	-12.0165
折伏	-12.0165
其行誠諦	-12.0165
毘盧遮那	-12.0165
寂默	-12.0165
陽焰	-12.0165
剖判	-12.0165
成就無量無邊功德	-12.0165
發是言	-12.0165
沈沒	-12.0165
暴雨	-12.0166
草木叢林	-12.0166
慎莫	-12.0166
靡所不達	-12.0166
一切所化有情	-12.0166
無相解脫門	-12.0166
珍財	-12.0166
見是相已	-12.0166
丑	-12.0167
宿曜辰	-12.0167
此剎帝利灌頂大王	-12.0167
縣邑	-12.0167
填	-12.0167
獷	-12.0167
夫出家者	-12.0167
阿那波那	-12.0167
瘖啞	-12.0167
娑婆佛剎	-12.0167
起瞋恚心	-12.0168
蒙光觸身	-12.0168
無發悟	-12.0168
而護於戒	-12.0168
快得善利	-12.0168
萬六千菩薩	-12.0168
五音作樂	-12.0168
口相稱	-12.0168
侵損	-12.0168
前禮佛足	-12.0169
梓	-12.0169
經典之要	-12.0169
首楞嚴定	-12.0169
火所燒	-12.0169
尼犍	-12.0169
稟性	-12.0169
復於餘剎	-12.0169
應當容忍莫恨	-12.0169
合掌而立	-12.0169
若天若人	-12.0169
隋天竺三藏闍那崛多譯	-12.0169
於我法中而出家者	-12.0169
菩薩復有十校計	-12.0169
樹王比丘	-12.017
▁397(	-12.017
斷煩惱習	-12.017
得大勢力	-12.017
二萬五千億眾生	-12.017
百千歲中	-12.0171
迴旋	-12.0171
摩睺勒鬼神	-12.0171
以大悲故	-12.0171
以何為本	-12.0171
億百千劫	-12.0172
須夜摩天王	-12.0172
資養	-12.0172
7	-12.0172
釋梵四王	-12.0172
踊出	-12.0172
皮骨	-12.0172
盡故有盡	-12.0172
唏	-12.0173
非有非無	-12.0173
深種善根	-12.0173
進度無極	-12.0173
痛痒思想生死識	-12.0173
拘那含牟尼佛	-12.0173
以四攝法攝取眾生	-12.0173
4	-12.0173
安置養育	-12.0173
男女大小	-12.0174
各與無量百千眷屬	-12.0174
法師及聽法者	-12.0174
而返取	-12.0174
而能得之	-12.0174
香象王菩薩	-12.0174
花座	-12.0174
愛別離苦	-12.0174
須深菩薩	-12.0174
適悅	-12.0174
皆以正智如實知	-12.0174
稅	-12.0174
如一念頃	-12.0175
諸有諸趣	-12.0175
暢達	-12.0175
大眾集會	-12.0175
鞭打	-12.0175
閱叉鬼神	-12.0175
七日之中	-12.0175
頭骨	-12.0176
詞辯	-12.0176
其土有佛	-12.0176
菩薩觀諦方便	-12.0176
聞是偈	-12.0176
八萬四千由旬	-12.0176
遠離憒閙	-12.0176
千子具足	-12.0176
伺求	-12.0177
八弟	-12.0177
震越	-12.0177
菩薩及聲聞眾	-12.0177
歌讚	-12.0177
受地獄苦	-12.0178
清信士	-12.0178
分衛	-12.0179
我等要當	-12.0179
如意神力	-12.0179
文飾	-12.0179
營助	-12.018
蘇摩那	-12.018
大寶莊嚴最勝道場	-12.018
笈多	-12.018
能與一切眾生	-12.018
隱密	-12.018
杵	-12.018
皆得除滅	-12.0181
此則名為不共凡夫四諦順陀羅尼第	-12.0181
皆能除滅	-12.0181
往至彼	-12.0181
菩薩所行諸施	-12.0181
大人之相	-12.0182
無量百千萬億那由他	-12.0182
終不退轉	-12.0182
摩陀那	-12.0182
樹葉	-12.0182
遠離一切諸煩惱	-12.0182
不分別非不分別	-12.0182
乃至謝過	-12.0183
又願生生世	-12.0183
遍震	-12.0183
天女千眷屬	-12.0183
興盛	-12.0183
復於佛前以偈	-12.0183
上昇	-12.0184
末力伽	-12.0184
億載	-12.0184
雨種種華	-12.0184
聽受妙法	-12.0184
昵	-12.0184
大集經典	-12.0184
訥	-12.0185
跋帝國	-12.0185
地獄罪報	-12.0185
無若干想	-12.0185
不共聲聞	-12.0185
▁南無地藏王菩薩	-12.0186
逮得總持	-12.0186
遍吼	-12.0186
方術	-12.0186
有幾所	-12.0186
即是我心	-12.0186
善修三昧	-12.0187
􂚳	-12.0187
輔佐	-12.0188
無上正真之道為最正覺	-12.0188
牟那	-12.0188
要誓	-12.0188
法界之性	-12.0188
何處所攝	-12.0188
大眾充滿	-12.0189
種種寶衣	-12.0189
▁南無普賢	-12.0189
至心念佛	-12.0189
忍度無極	-12.0189
恒河沙等世界	-12.019
輕弄	-12.019
特尊	-12.019
形容	-12.019
賢聖正見	-12.019
迦葉佛時	-12.019
牟邏	-12.0191
熱病	-12.0191
是則不通	-12.0191
菩薩摩訶薩具足修習	-12.0191
權實	-12.0192
陀兜	-12.0192
具受眾苦	-12.0192
勤作方便	-12.0192
有大威力	-12.0192
諸女人等	-12.0192
或復有說	-12.0192
毘樓博叉	-12.0192
不可限	-12.0193
暉曜	-12.0193
戲弄	-12.0194
轉輪王像	-12.0195
名為信根	-12.0195
無復煩惱	-12.0195
從虛空中	-12.0196
為斷眾生如是	-12.0196
增損	-12.0196
譬如轉輪聖王	-12.0196
書寫讀誦	-12.0197
讚頌	-12.0197
悲號	-12.0198
頗梨色	-12.0198
即自思惟	-12.0199
說聲聞法	-12.0199
無上法輪	-12.0199
令不斷絕	-12.02
諸魔事業	-12.02
身心快樂	-12.0201
流支	-12.0201
以是力故	-12.0201
水洗	-12.0201
光影	-12.0201
復有五種	-12.0202
此據	-12.0202
地藏菩薩摩訶薩白佛言	-12.0202
姹	-12.0203
貪瞋癡等	-12.0203
兜率陀天王	-12.0203
一切智心寶	-12.0203
修諸禪定	-12.0204
金剛道場三昧	-12.0204
世尊告憍陳如	-12.0204
各千眷屬	-12.0204
眾德之本	-12.0204
修心念處	-12.0204
阿婆囉	-12.0205
大目連	-12.0205
聰明智慧	-12.0205
之所歸趣	-12.0206
無盡意菩薩摩訶薩	-12.0206
堤	-12.0206
專注心	-12.0207
頭痛	-12.0207
過去已盡	-12.0207
壽量	-12.0207
唯佛能知	-12.0207
摩醯	-12.0207
善女人輩	-12.0209
此虛空孕菩薩摩訶薩	-12.0209
於己眷屬及他眷屬	-12.021
離我我所	-12.021
賴坻	-12.021
國土一切天	-12.021
不妨	-12.021
字句義	-12.0211
叱	-12.0211
金沙	-12.0211
說此金剛	-12.0212
益加	-12.0212
入佛境界	-12.0212
深厭	-12.0212
其義云何	-12.0212
難怖	-12.0213
具善巧方便	-12.0213
遣使	-12.0213
文字句義	-12.0213
摩那婆	-12.0214
常在定	-12.0214
歡喜踊躍無量	-12.0214
最正覺	-12.0215
無出滅	-12.0215
眉間白毫	-12.0215
古今	-12.0215
闍邏	-12.0216
之所依止	-12.0216
交報	-12.0217
喃	-12.0217
波斯迦	-12.0218
無至處	-12.0218
明闇	-12.0219
遠離惡法	-12.0219
演說正法為令	-12.0219
口演	-12.022
無有罣礙	-12.0221
其心不退	-12.0222
此閻浮洲	-12.0223
薩底耶	-12.0224
無有諛諂	-12.0224
皆悉驚怖	-12.0224
其事云何	-12.0225
娑婆世界主	-12.0226
增善法	-12.0226
十方諸來菩薩	-12.0227
永脫	-12.0227
調順	-12.0228
諸天仙	-12.0229
五波羅蜜	-12.0229
口辭	-12.0229
令得安隱	-12.0231
毘沙門王	-12.0231
背捨	-12.0231
十二樹	-12.0231
亦不覺知	-12.0231
縛著	-12.0232
𧰃	-12.0232
雜華	-12.0233
致敬	-12.0233
水牛	-12.0234
我今復以	-12.0234
利益人天	-12.0234
若有說言	-12.0234
進趣	-12.0235
怛囉	-12.0235
精進而不可盡	-12.0236
像類	-12.0236
魔及魔	-12.0237
入於禪定	-12.0237
煩惱繫縛	-12.0237
萬二千眾生發阿耨多羅三藐三菩提心	-12.0239
無有諍訟	-12.0239
於彼布施清淨平	-12.024
衣被	-12.0241
能調伏一切眾生	-12.0241
心如幻化	-12.0242
阿盧	-12.0242
四種奮迅	-12.0244
檀地羅	-12.0247
求聲聞乘	-12.0248
善順思惟	-12.0249
鬼趣	-12.0249
皆稱譽	-12.0249
若有聞者	-12.025
更增	-12.0251
人樂觀	-12.0251
非非想	-12.0255
興大哀	-12.0256
邪慢	-12.0256
口宣	-12.0257
反覆	-12.0257
具無礙智	-12.0259
遇罵辱	-12.0259
得五神通	-12.0259
勤學	-12.0261
何類	-12.0266
憎惡	-12.0268
入於大海	-12.0269
常願不處諸	-12.027
持珍寶	-12.027
首流	-12.027
形質	-12.0272
所度無極	-12.0274
攝受大乘	-12.0274
。』『	-12.0274
今此世界	-12.0275
果亦然	-12.0277
大般涅槃	-12.028
希有之心	-12.0282
大麥	-12.0282
麁語	-12.0283
哥	-12.0285
十惡業道	-12.0287
色聲香味觸法	-12.0289
若如是知	-12.029
從定起已	-12.0292
惡業果報	-12.0294
十方諸佛剎土	-12.0294
無變異	-12.0294
能摧伏	-12.0302
悉能受持	-12.0302
斷一切不善法	-12.0302
口所言	-12.0303
十方佛前	-12.031
三昧之定	-12.0317
論議	-12.032
若如是觀	-12.032
所遊居	-12.032
勇進	-12.0322
獲得無上	-12.0327
誦是三昧	-12.0328
於善法中	-12.0329
降法雨	-12.0341
不違失	-12.0341
百千那庾多	-12.0343
菩薩摩訶薩具足成就	-12.0345
賢者舍利弗	-12.0345
魔網	-12.0346
永斷諸	-12.0348
於法師所	-12.035
安樂諸眾生	-12.035
補處	-12.0356
發大願	-12.0364
無量阿僧祇世界	-12.037
罪咎	-12.037
有菩薩摩訶薩名	-12.0374
其二子	-12.0377
涌出	-12.0379
香美味	-12.0383
離女身	-12.0385
真善沙門	-12.0386
求菩薩道	-12.039
戒蘊	-12.0395
為苦所	-12.0401
當觀是	-12.0406
菩薩心有所念	-12.0408
墮三塗	-12.041
萬二千天子	-12.042
詣王舍城	-12.0423
般遮羅國	-12.0428
智童真	-12.0433
乃至一切迦吒富單那	-12.0434
諸禪支	-12.0436
單那	-12.0436
我滅度後	-12.0437
至心專念	-12.0438
青蓮	-12.044
歸仰	-12.0451
何等為百八	-12.0462
心知離	-12.0468
受持讀誦書寫解說	-12.0471
其命根	-12.0475
供養無量諸佛	-12.0486
足指	-12.0498
降伏一切魔	-12.0502
勤護持	-12.0506
仇摩	-12.0509
開度	-12.0531
樓沙	-12.0531
無瑕疵	-12.0537
稽首禮	-12.0539
懷樂菩薩	-12.0544
福慶	-12.0562
世世所生	-12.0565
汝所問	-12.0573
波利質多	-12.0577
說此寶星陀羅尼	-12.0577
得迴向真如	-12.058
行於世	-12.0582
現微笑	-12.0584
於自境界	-12.0602
依倚	-12.0605
菩薩所成就	-12.0606
當成正覺	-12.0615
佛告自在王	-12.0617
見無量佛	-12.0636
颰陀和菩薩白佛	-12.0652
以本願力	-12.0654
大檀越	-12.0657
骨肉	-12.0668
無缺減	-12.067
法苑	-12.0671
俱胝佛剎	-12.068
無事不	-12.0682
未訖	-12.0682
明燈	-12.0701
維衛	-12.0707
諸佛法藏	-12.072
有男子女人	-12.0723
即是涅槃	-12.0733
於阿鼻地獄	-12.0744
為母發	-12.0747
妙珍寶	-12.0757
心知有	-12.0773
億姟	-12.0779
法滅時	-12.0783
大威勢	-12.079
筋骨	-12.0791
百三十六	-12.0792
速能得	-12.0811
更無餘	-12.0812
所侵	-12.0834
忍清淨平等	-12.0845
十五佛現	-12.0852
受教勅	-12.0858
床臥	-12.0863
若具如是	-12.0867
有王名	-12.087
慧波羅蜜	-12.0887
懷恨	-12.0896
如大山	-12.0898
萬那由他	-12.0899
淨三場	-12.0905
菩薩當校計	-12.0924
聞此語	-12.0969
無有增減	-12.098
作大光明	-12.0983
無能毀	-12.0992
閻浮樹	-12.0996
四大海	-12.1004
真如故即	-12.1024
攝諸根	-12.1024
信業報	-12.1042
詣娑婆世界	-12.1055
什	-12.1056
得如是陀羅尼	-12.1074
八萬劫	-12.109
姟	-12.111
六百萬	-12.1111
運師	-12.1127
細末	-12.1131
人天大眾	-12.1137
清妙	-12.1147
苦逼	-12.1148
悲愍諸眾生	-12.1167
△	-12.1189
十方諸世界	-12.1194
婆坻	-12.1195
諸樂具	-12.1201
今此會中有	-12.1204
不空見菩薩摩訶薩復	-12.1211
遮吒	-12.1212
宜結親友	-12.1215
能測	-12.1219
仁賢	-12.1234
客煩惱	-12.1247
令眾得	-12.1259
明星菩薩	-12.126
光耀	-12.1265
懷惡心	-12.1292
當牽	-12.1292
慚恥	-12.1298
四日合	-12.1306
成就如是無量功德	-12.1308
銕繩	-12.1324
知我真如	-12.1346
默然受	-12.1355
更不造	-12.1377
為我宣說	-12.1397
為壞貪	-12.1401
哆絰	-12.1412
休息殺生	-12.1412
不自高	-12.1413
煩惱濁	-12.1436
欲來此	-12.147
真善婆羅門	-12.1472
【△	-12.149
釋梵天王	-12.1493
如來所覺	-12.152
擁護供給	-12.1529
不可測	-12.1549
於此剎	-12.158
復雨種種	-12.1595
取滅度	-12.1612
差特	-12.1623
是施無	-12.1632
以佛威神	-12.1641
諸餘天	-12.1648
貫穿	-12.1649
休徵	-12.1663
難得值	-12.1664
是為如來二十	-12.1686
過阿僧祇	-12.1691
嗟歎	-12.1705
真如故則得	-12.171
昔來未	-12.171
岳府	-12.1717
毒箭	-12.1719
胞	-12.1725
魘	-12.1729
帥	-12.1731
霹	-12.1735
謗方等經	-12.174
燭	-12.174
九十六種	-12.1747
濫	-12.1748
西域記	-12.1748
矛	-12.1754
守獄者	-12.1755
廓	-12.1755
如來願行此道坐	-12.1756
可不慎	-12.1758
諸佛所護	-12.1758
公私	-12.1758
鬼子母	-12.1758
肖	-12.1761
諂幻	-12.1761
昔在人中	-12.1762
有來去者	-12.1763
蒼	-12.1763
膾	-12.1764
輕薄	-12.1765
故名之為空	-12.1767
燥	-12.1767
展	-12.1769
邲	-12.1769
東西南北	-12.177
晦	-12.1771
成就此輪	-12.1772
裁	-12.1772
眉	-12.1774
第一義忍清淨平等	-12.1774
三法度論	-12.1776
琦	-12.1776
亭	-12.1777
銕狗	-12.1777
鑊湯	-12.1777
地藏不思議事	-12.1777
縱橫	-12.1778
十八隔	-12.1778
頰	-12.1778
式叉	-12.1778
豐壤	-12.1779
啗	-12.1779
護國不退輪心大陀羅尼明呪章句	-12.178
鵝	-12.178
庸	-12.1781
齡	-12.1781
邪淫	-12.1782
黃帝	-12.1782
世記經	-12.1783
厲	-12.1783
茷	-12.1783
誚	-12.1784
偕	-12.1784
革	-12.1784
梟	-12.1785
江河沙	-12.1785
拋	-12.1785
搥	-12.1785
臘	-12.1786
器仗	-12.1786
主命鬼王	-12.1786
慎勿殺害	-12.1786
百返	-12.1787
尼拘陀	-12.1787
無盡故無盡	-12.1787
翔	-12.1788
韋	-12.1788
慘	-12.1788
裝	-12.1788
皿	-12.1788
殷	-12.1789
紺	-12.179
虎狼師子	-12.179
名為念根	-12.179
腐	-12.179
賓主	-12.1791
不依不了義經	-12.1791
造塔寺	-12.1791
若遇惡緣	-12.1791
逃避	-12.1792
轉讀尊經	-12.1792
又念我昔	-12.1792
觸嬈	-12.1792
優曇	-12.1792
眾合地獄	-12.1793
俟	-12.1793
偃	-12.1793
孤山	-12.1793
比梨闍藍婆	-12.1793
破用常住	-12.1793
寒氷	-12.1793
癃殘	-12.1793
悠	-12.1793
雲霧	-12.1794
轉女身得男子身	-12.1794
菓	-12.1794
慌	-12.1794
驚愕	-12.1795
心地觀	-12.1795
鋒	-12.1795
巡	-12.1795
所食之物	-12.1795
慾	-12.1795
所不能逮	-12.1795
崛	-12.1795
猛健	-12.1795
作何行業	-12.1795
端正殊妙	-12.1796
兩舌惡口	-12.1796
橙	-12.1796
三昧正受建立	-12.1796
郡	-12.1796
生住滅相	-12.1797
濯	-12.1797
無量光天	-12.1797
即汝身是	-12.1798
熱鐵	-12.1798
蹙	-12.1798
𪏭	-12.1798
觀他人法	-12.1798
爇	-12.1798
不懈慢	-12.1798
承斯功德	-12.1798
轂	-12.1799
文分三	-12.1799
得他人力	-12.1799
錦	-12.1799
時世有佛	-12.1799
坤	-12.18
箏	-12.18
降伏諸外道	-12.18
鴿	-12.18
以淨天眼	-12.18
亦無遠離境界及	-12.18
名為定根	-12.18
無量淨天	-12.18
示誨	-12.18
▁初總示	-12.18
天上人中	-12.18
三藏法師玄奘奉詔譯	-12.1801
譏刺	-12.1801
驅使	-12.1801
拘薩羅國	-12.1801
唯我一人	-12.1801
餚饍	-12.1801
占察經	-12.1802
須夜摩天	-12.1802
常樂我淨	-12.1802
姦偽	-12.1802
諂偽	-12.1802
肌膚	-12.1802
人壽百歲	-12.1802
洞然	-12.1803
願不有慮	-12.1803
餘殃	-12.1803
初結前起後	-12.1803
為善為惡	-12.1803
堅牢地神	-12.1803
不分離	-12.1803
骨節	-12.1804
茂盛	-12.1804
煒	-12.1804
屎	-12.1804
皷	-12.1804
肢	-12.1804
鮮白	-12.1804
䏶	-12.1804
床鋪	-12.1804
以後世惡業眾生為	-12.1804
肢體	-12.1804
嫌恨	-12.1805
願佛當復為我解	-12.1805
得諸三昧	-12.1805
鷄	-12.1805
介	-12.1805
鍼	-12.1805
苦集滅道	-12.1805
疇	-12.1805
永盡無餘	-12.1805
耻	-12.1805
大罪惡業根本	-12.1805
盡未來際	-12.1806
升沉	-12.1806
協	-12.1806
頗胝迦	-12.1806
騃	-12.1806
譏訶	-12.1806
訶責	-12.1806
青黃赤白	-12.1806
今地藏大士	-12.1807
娶婦	-12.1807
熱灰	-12.1807
寇	-12.1807
無去無來	-12.1807
規	-12.1808
於百劫中	-12.1808
修行忍辱波羅蜜多	-12.1808
紹王位	-12.1808
荒亂	-12.1808
此三摩地而極	-12.1808
說無因果	-12.1808
其日生人	-12.1809
茫	-12.1809
彼則以斯	-12.1809
髏	-12.1809
農	-12.1809
憂慮	-12.1809
窈	-12.1809
不懷狐疑	-12.1809
北欝單越	-12.1809
酢	-12.1809
趺	-12.181
􂌞	-12.181
揣	-12.181
威靈	-12.181
鏤	-12.181
有情緣慈	-12.181
道路安隱	-12.181
名為慧根	-12.1811
屎尿	-12.1811
於諸佛所種諸善根	-12.1811
俱舍論	-12.1811
洽	-12.1811
刑罰	-12.1811
發於阿耨多羅三藐三菩提心	-12.1811
耆舊	-12.1811
誘誑	-12.1811
宮宅	-12.1812
摧碎	-12.1812
師子奮迅具足萬行	-12.1812
迦毘羅	-12.1812
來害我	-12.1812
杻械	-12.1812
恕	-12.1812
然大法炬	-12.1812
此人福聚	-12.1812
儀式	-12.1813
勵	-12.1813
慞惶	-12.1813
詰	-12.1813
四百四種	-12.1813
妓	-12.1814
待遇	-12.1814
古鹽匡菴青蓮苾	-12.1814
令我具足般若波羅蜜	-12.1814
一沙一塵	-12.1814
敷揚	-12.1814
聞所未聞	-12.1814
如說而行	-12.1814
蹇	-12.1814
便獲大罪	-12.1814
菩薩觀緣方便	-12.1814
違本誓願	-12.1814
尒時藥王軍菩薩	-12.1814
縣官	-12.1814
欲詣彼世界	-12.1814
宴	-12.1814
汝知爾時	-12.1814
發希有心	-12.1814
三十卷	-12.1815
夢中所見	-12.1815
闍維	-12.1815
燒香供養	-12.1815
一毛一渧	-12.1815
諸助道法	-12.1815
豪富	-12.1816
所受果報	-12.1816
不起此坐	-12.1816
萬端	-12.1816
侍衛	-12.1816
亦名地藏本	-12.1816
四禪地依止心念陀羅尼	-12.1816
所獲罪業	-12.1816
語者若說	-12.1816
頸下	-12.1816
屋舍	-12.1816
不斷聖種	-12.1816
異口同聲	-12.1816
能壞陰魔	-12.1816
陂	-12.1816
請轉法輪	-12.1817
鉢頭摩	-12.1817
入城乞食	-12.1817
悉來聚集	-12.1817
毘摩羅詰	-12.1817
祭祀	-12.1817
鄰	-12.1817
生生之處	-12.1817
枷	-12.1817
倡	-12.1817
馱南	-12.1817
不如施彼遍滿三千大千世界如前數量	-12.1817
坐菩提場	-12.1817
不淨之物	-12.1817
挍飾	-12.1817
屋室	-12.1817
括	-12.1817
亘然	-12.1817
怡悅	-12.1817
阿鼻大地獄中	-12.1818
如我解佛所說義	-12.1818
自護己	-12.1818
無滯礙	-12.1818
分不及一	-12.1818
聽省	-12.1818
冥司	-12.1818
踊身虛空	-12.1818
瞳	-12.1818
迦蘭陀竹園精舍	-12.1818
一切智成就如來	-12.1818
成華蓋	-12.1819
于闐國	-12.1819
我今亦欲	-12.1819
剆	-12.1819
謙遜	-12.1819
歌歎	-12.1819
多有障礙	-12.1819
於某處	-12.1819
菩薩摩訶薩具足幾法	-12.1819
祕藏	-12.182
賢瓶	-12.182
逋	-12.182
有一星如婦	-12.182
有智之人	-12.182
蜂	-12.182
著慚愧衣	-12.182
得自然智	-12.1821
而宣說之	-12.1821
苞	-12.1821
諸業法受	-12.1821
戴仰	-12.1821
濁惡世	-12.1821
拘盧舍	-12.1821
無所愛惜	-12.1821
燒種種香	-12.1821
為幾法所攝	-12.1821
照除眾生	-12.1821
駛流	-12.1821
吾今為汝	-12.1821
唯願哀愍	-12.1821
甫	-12.1821
殖諸善根	-12.1821
示我方便	-12.1821
乃至真善戌達羅	-12.1821
剃除鬚髮被袈裟者	-12.1821
羅閱祇國	-12.1822
尚未解	-12.1822
壞龍境界	-12.1822
諸佛境界不可思議	-12.1822
不以為勞	-12.1822
應於後夜	-12.1822
輔臣	-12.1822
鍾鼓	-12.1822
掉舉	-12.1822
如是大神通事	-12.1822
為他解釋	-12.1822
出家學道	-12.1822
悴	-12.1822
伎樂而供養之	-12.1822
除鬚髮	-12.1823
雷聲	-12.1823
意有所念	-12.1823
今悉來集在世尊	-12.1823
徹照	-12.1823
無倫匹	-12.1823
瘧	-12.1823
西瞿陀尼	-12.1823
彌帝隷菩提薩埵	-12.1823
不應共住	-12.1823
親近惡友	-12.1823
如彈指頃	-12.1823
飛鳥	-12.1823
脫其袈裟	-12.1823
復有一窟名曰	-12.1823
所施四方僧物	-12.1823
撫	-12.1823
五十童子	-12.1824
柔輭	-12.1824
破碎	-12.1824
無量力王	-12.1824
威德熾盛	-12.1824
後五百歲	-12.1824
無主故無	-12.1824
盡智無生智	-12.1824
驚畏	-12.1824
種種色光	-12.1824
鳩槃茶等分張付囑	-12.1824
有滯礙	-12.1824
貧窮下賤	-12.1824
檀波羅蜜乃至般若波羅蜜	-12.1824
畵像	-12.1824
綺飾	-12.1825
渴仰欲見	-12.1825
濟拔我等	-12.1825
是為如來第二	-12.1825
文字及義	-12.1825
如水泡	-12.1825
的指	-12.1825
毅	-12.1825
法眼得久住	-12.1825
蛇毒	-12.1825
五無間業	-12.1825
教詔	-12.1825
戒行清淨平等	-12.1825
是故名曰如來至真	-12.1825
曀	-12.1825
振動	-12.1826
不求餘乘	-12.1826
羯吒布怛那	-12.1826
發菩薩心	-12.1826
佉羅帝山	-12.1826
若犯一罪	-12.1826
匙	-12.1826
金剛光明功德如來	-12.1826
鳩槃茶大將	-12.1826
世雄	-12.1826
生時長時	-12.1826
發心故不可盡	-12.1826
佛告文殊師利	-12.1827
見作隨喜	-12.1827
欲學是三昧者	-12.1827
所亦生慚愧	-12.1827
昴星	-12.1827
不求利養	-12.1827
鹿苑	-12.1827
瘡疣	-12.1827
而告之言	-12.1827
今我此身	-12.1827
佉盧虱吒仙人	-12.1827
揵沓惒	-12.1827
敷榮	-12.1827
當受持此三昧	-12.1827
我當云何不生憐愍	-12.1827
有大力勢	-12.1827
追悔	-12.1827
財首菩薩	-12.1827
紇	-12.1828
令此大眾	-12.1828
沾污	-12.1828
安隱豐樂	-12.1828
會中有一菩薩名曰	-12.1828
坐佛樹下	-12.1828
阿闍世王	-12.1828
奇異	-12.1828
師子法座	-12.1828
低頭	-12.1828
羖羊	-12.1828
其淨心者能斷	-12.1829
蹉	-12.1829
八萬歲	-12.1829
娑訶世界	-12.1829
一切法自在三昧	-12.1829
無崖底	-12.1829
癡暗	-12.1829
洹	-12.1829
姊	-12.1829
省己過	-12.1829
初未曾見	-12.1829
寤寐	-12.1829
銘	-12.183
如來所種諸善根也	-12.183
以故名曰	-12.183
呧	-12.183
或所攝受	-12.183
有雨碎	-12.183
無量無邊阿僧祇數	-12.183
伊羅跋	-12.183
識遠離故自相清淨	-12.183
娑伽羅	-12.183
短壽	-12.1831
億百千姟	-12.1831
如我今日	-12.1831
婬怒癡	-12.1831
於諸行中	-12.1831
書寫經卷	-12.1831
魔不得其便	-12.1831
終不暫捨	-12.1831
若復世尊聲聞弟子	-12.1831
佛法得久住故	-12.1832
四種發起精進	-12.1832
言行相應	-12.1832
拘毘羅	-12.1832
將諸眷屬	-12.1832
沙勒國	-12.1832
而成熟之	-12.1832
􂛄	-12.1832
本無今有	-12.1832
畜養	-12.1832
莫造斯觀	-12.1832
無動亂	-12.1832
大惡果報	-12.1832
昔所未見	-12.1832
四百四	-12.1832
於天人中	-12.1832
不懷怯弱	-12.1832
能生盡智	-12.1832
空無相無作	-12.1832
即起合掌	-12.1832
此身不淨	-12.1832
相繼	-12.1832
而來向此	-12.1833
未審	-12.1833
撾打	-12.1833
寶高座	-12.1833
充滿其中	-12.1833
若作事者	-12.1833
周匝圍繞	-12.1833
來入佛會	-12.1834
說偈讚歎	-12.1834
充溢	-12.1834
顏容端正	-12.1834
玅	-12.1834
而其內心	-12.1834
億千劫	-12.1834
多摩羅跋香	-12.1834
正法得久住	-12.1834
汝於往昔	-12.1834
瞻蔔	-12.1834
緊捺洛	-12.1834
遞	-12.1834
施戒忍辱精進禪定智慧	-12.1834
而於此處	-12.1834
塗香末香	-12.1834
奢摩他毘婆舍那	-12.1835
嚴淨佛土	-12.1835
汝於來世	-12.1835
所捨施者	-12.1835
阿毘跋致	-12.1835
羯囉	-12.1835
七識住	-12.1835
隨汝所問	-12.1835
所發一切智心寶	-12.1835
聞此偈	-12.1835
游戲	-12.1836
棄捨身命	-12.1836
佛告觀世音菩薩	-12.1836
救度一切眾生	-12.1836
眾中有一菩薩名曰	-12.1836
還復本座	-12.1836
卉木	-12.1836
䭾	-12.1836
具壽阿難陀	-12.1836
彼諸樂莊嚴世界之中	-12.1836
發意之頃	-12.1836
坌	-12.1836
得不退轉於阿耨多羅三藐三菩提	-12.1836
日初分	-12.1836
衰損	-12.1836
復有三事	-12.1836
不因離	-12.1836
紹隆三寶	-12.1836
絕望	-12.1836
今於我前	-12.1836
倍加	-12.1836
或言毀謗大乘正法	-12.1836
優曇華	-12.1837
妄執	-12.1837
迦尸	-12.1837
大叫喚	-12.1837
欲得長壽	-12.1837
非法非非法	-12.1837
初夜後夜	-12.1837
難有出期	-12.1837
8	-12.1837
為諸年少眾生	-12.1837
大記別法	-12.1837
那羅延像	-12.1837
不懷自大	-12.1838
從今以往	-12.1838
例同	-12.1838
闇昧	-12.1838
十千由旬	-12.1838
同一法界證	-12.1838
匱乏	-12.1838
摧伏天魔	-12.1838
無樔窟	-12.1838
摩睺羅	-12.1838
原夫	-12.1839
招提僧物	-12.1839
巨勝	-12.1839
億菩提薩埵俱來集會	-12.1839
清淨故得無礙	-12.1839
機感	-12.1839
尊者大迦葉	-12.1839
坐師子座	-12.1839
山帝釋王佛	-12.1839
一切眾生惡業盡陀羅尼	-12.184
令住阿耨多羅三藐三菩提	-12.184
優鉢羅花	-12.184
四念住	-12.184
永不更	-12.184
彼諸鬼神	-12.184
慶喜	-12.184
諸通敏慧	-12.184
漫	-12.184
給孤獨	-12.184
霤	-12.184
皆悉空寂	-12.184
研	-12.184
或男或女	-12.184
現大神力	-12.184
秘	-12.1841
不受後有	-12.1841
過無量劫	-12.1841
尠少	-12.1841
眠夢	-12.1841
受持如來十二部經	-12.1841
少病少惱	-12.1841
禮拜懺悔	-12.1841
西晉月支三藏竺法護譯	-12.1841
竝由	-12.1841
光暉	-12.1841
發大乘善家子善家女	-12.1841
入泥洹要	-12.1841
其數甚多	-12.1841
困苦	-12.1842
譬如灌頂剎利大王	-12.1842
昇進	-12.1842
導首	-12.1842
憍慢放逸	-12.1842
諸行諸根諸解	-12.1842
復以閻浮提中	-12.1842
眼不見色	-12.1842
哆他多	-12.1843
遮制	-12.1843
將導	-12.1843
躄	-12.1843
歸滅盡種道	-12.1843
戌	-12.1843
隱藏	-12.1844
能獲得如是三昧	-12.1844
執御	-12.1844
此四自在	-12.1844
各隨本	-12.1844
闇室	-12.1844
終沒	-12.1844
迦噌嬭	-12.1845
人中師子王	-12.1845
於大乘中而為障難	-12.1845
極善護持四根本戒	-12.1845
諮請	-12.1845
令其修學	-12.1845
者遮囉	-12.1846
永不復作	-12.1846
講堂	-12.1846
宴坐	-12.1847
屣	-12.1847
稱載	-12.1847
欣悅	-12.1847
東北	-12.1847
四方上下	-12.1847
禮節	-12.1847
而不自大	-12.1848
長存	-12.1848
蒂	-12.1848
基業	-12.1848
善師視如佛	-12.1848
微密	-12.1848
波羅奈國	-12.1848
及與壽命	-12.1848
若知此者名因緣智	-12.1848
之所致也	-12.1848
復有七種	-12.1848
不染習	-12.1848
非彼現在身證	-12.1848
應用慧	-12.1848
客塵	-12.1849
正等覺	-12.1849
娜婆軍闍	-12.1849
迦樓尼迦	-12.1849
是時必有	-12.1849
趨	-12.185
若三千大千世界所有眾生悉為	-12.185
以用布施	-12.185
輕微	-12.185
怛羅	-12.185
即時獲得	-12.1851
不能測量	-12.1851
罪舋	-12.1851
6	-12.1851
泠	-12.1851
池沼	-12.1851
隨其所宜	-12.1851
對礙	-12.1851
阿盧迦	-12.1852
講宣	-12.1852
得不起法忍	-12.1853
供奉眾僧	-12.1853
和敬	-12.1854
乃至知色如	-12.1854
痛切	-12.1854
復有三輪清淨	-12.1854
漚	-12.1855
值佛世	-12.1855
汝心喜	-12.1855
十方菩薩品	-12.1855
無來無去	-12.1855
告日行藏菩薩	-12.1855
憶念不忘	-12.1856
無量眾生得須陀洹果	-12.1857
視如佛	-12.1858
復有九種	-12.1858
無盡器陀羅尼	-12.1858
歌音	-12.1858
不能思量一	-12.1858
復有六種	-12.1859
有諸眾生樂修	-12.1859
唯願憐愍	-12.1859
相應而住	-12.1859
此三昧能速成就阿耨多羅三藐三菩提	-12.1859
開演	-12.1859
藥穀	-12.1859
及以受者	-12.1859
梨車子	-12.186
疑謗	-12.186
念其方	-12.186
顯揚	-12.186
於時寶女	-12.186
達膩	-12.1861
道品之法	-12.1861
得大果報	-12.1861
縷	-12.1861
磨治	-12.1862
捨大捨	-12.1862
如理伺察	-12.1862
眾生業果神通	-12.1862
次第生滅	-12.1862
逮得是三昧	-12.1863
此佛剎內	-12.1863
陀濘	-12.1863
一切諸佛法故	-12.1865
所言至誠	-12.1865
布散	-12.1865
四諦順忍	-12.1866
汝以神力	-12.1866
實無差別	-12.1866
淨目陀羅尼	-12.1866
其心不高	-12.1867
著鎧甲	-12.1867
至一切處	-12.1867
除諸病	-12.1867
疾得阿耨多羅三藐三菩提	-12.1867
一時佛在	-12.1868
眼乃至意	-12.1868
踟	-12.1868
信根乃至慧根	-12.1869
羞	-12.187
得法自在	-12.187
制止	-12.187
免脫	-12.1871
雨眾華	-12.1874
舍利弗問阿差末	-12.1875
二俱離	-12.1875
無能逮	-12.1875
尊重敬仰得未曾有	-12.1875
之所加持	-12.1876
子孫	-12.1877
無有塵垢	-12.1878
如意通	-12.1878
皆令滿足	-12.1878
開士	-12.1878
鄙惡	-12.1878
智成就佛	-12.188
諸菩薩皆歡喜	-12.1882
十種無依行	-12.1883
沒達離多	-12.1885
成熟一切有情	-12.1885
無數佛土	-12.1885
能曉了此	-12.1885
啅	-12.1885
希希	-12.1886
虛空邊際	-12.1886
復有八種	-12.1887
入一毛孔	-12.1889
奉禁戒	-12.1889
十八不共諸佛之法	-12.1889
䐡中	-12.189
無所依著	-12.1894
我當往彼	-12.1896
斫啾	-12.1896
哩嚩	-12.1897
跋時囉	-12.1902
天冠	-12.1905
於是人所	-12.1905
其仁愛者	-12.1906
校計百八墮	-12.1908
佛之境界	-12.1909
後邊身	-12.1915
闍呬	-12.1916
誐囉	-12.1919
堵	-12.1924
讚譽	-12.1926
酤	-12.1935
遺漏	-12.1936
沒達囉	-12.1936
彼時有佛	-12.194
阿修羅婦女	-12.1943
久住熾然	-12.1947
五陰重擔	-12.1951
穢土	-12.1953
無量那由他百千	-12.1955
靺	-12.1956
蘘	-12.1961
持用施	-12.1963
末底	-12.1964
宜作事	-12.1967
文章	-12.197
有情真如故則	-12.1977
詣如來所	-12.1978
入母胎	-12.1982
出家受具足戒	-12.1986
秋月	-12.1986
為眾演說	-12.1994
為大眾說	-12.1998
佛之正法	-12.2
如實伺察	-12.2
過阿僧祇劫	-12.2025
天上人間	-12.2051
得除愈	-12.2057
一切勇菩提薩埵摩訶薩埵白佛	-12.2066
斷其命	-12.2069
廢退	-12.2069
閻婆	-12.2071
百千萬歲	-12.2074
奪衣鉢	-12.2075
往古世	-12.2083
故思殺	-12.2091
隨所聞	-12.2093
志誠	-12.2098
唯願為我	-12.2102
劫濁	-12.2104
神力加	-12.2114
其三昧名	-12.2125
初經家敘儀	-12.2142
醜惡	-12.2153
最殊勝	-12.2166
摩咩	-12.2173
除五蓋	-12.2219
令除斷	-12.2241
知一切法真如	-12.2259
受信施	-12.2275
阿摩羅	-12.2296
神足變化	-12.2321
金剛座	-12.233
教化無量眾生	-12.234
若菩薩於一切	-12.2349
虛詐	-12.2389
莊嚴之具	-12.2441
令作護持	-12.2442
坐蓮花	-12.2464
銅汁	-12.2467
六萬劫	-12.2482
億歲	-12.2491
得往生	-12.2496
果汁	-12.2535
來侵	-12.2571
今日誰	-12.2595
日出時	-12.2596
命終生天	-12.2609
什婆	-12.2659
十種利益	-12.2677
呵泥	-12.2697
之為言	-12.2708
世界名淨	-12.2777
初修因	-12.2803
名曰娑婆	-12.2822
瑟吒	-12.2823
世尊告虛空藏菩薩	-12.2837
作是白	-12.2837
訟習	-12.2856
佛告年少	-12.2858
未曾違	-12.2867
彼當如是見一切法猶如	-12.2876
佛告彌勒	-12.2882
光遍照	-12.2885
是名如來二十	-12.2889
貪惜	-12.2917
民庶	-12.2929
迴向真如故	-12.2962
於三乘中隨	-12.299
其利益者	-12.3051
能廣分別	-12.3084
大方便力	-12.3088
摧伏諸魔	-12.3092
三昧不難	-12.3104
此六宿日	-12.3107
以天栴檀	-12.3294
外道輩	-12.3311
百億須彌山	-12.3327
解說其義	-12.3386
永斷一切煩惱習	-12.3435
常勸眾生	-12.3509
苦空無我	-12.3515
綸	-12.3547
智者所讚	-12.3558
仰瞻	-12.3573
截手足	-12.3589
叫	-12.3594
口業隨智慧行	-12.3624
肯	-12.3662
酬足復	-12.3686
圭	-12.3713
鵲	-12.3716
餒	-12.3729
寒冰	-12.3738
有一世界名	-12.3743
唇	-12.3743
抽	-12.3746
熱沸	-12.3748
庫	-12.3749
从宀	-12.375
趙	-12.375
洋銅灌口	-12.3751
鴻	-12.3752
意業隨智慧行	-12.3752
弼	-12.3754
􂛀	-12.3757
冥契	-12.3758
弛	-12.3759
則得成就現前三昧	-12.3759
毉	-12.376
統紀	-12.3762
詭	-12.3762
彼即為現	-12.3762
暎	-12.3763
格	-12.3763
蒜	-12.3764
練	-12.3766
莊園	-12.3766
夫妻	-12.3766
尼乾陀	-12.3767
五分法身	-12.3768
惜身命	-12.3768
其浪那	-12.3768
垓	-12.3769
糞屎	-12.3772
央掘	-12.3773
無懈怠者能	-12.3773
蠱毒	-12.3774
地藏威神之力	-12.3774
湊	-12.3774
舍那舍	-12.3774
財貨	-12.3774
詎	-12.3775
李	-12.3777
於一切法心無所	-12.3777
戾	-12.3777
猪狗	-12.3777
魃	-12.3778
稽	-12.3778
忿怒	-12.3778
法華文句	-12.3778
受極大苦	-12.3778
掛	-12.3779
倍於前	-12.3779
𤻧	-12.3779
修行淨戒波羅蜜多	-12.378
慧能莊嚴	-12.378
二顯施福	-12.378
邃	-12.3781
羌	-12.3781
烹	-12.3781
荊棘	-12.3782
超昇	-12.3782
含笑放光	-12.3782
盤	-12.3783
剝	-12.3783
慎五辛	-12.3783
浴	-12.3784
生恭敬心	-12.3784
寶曜總持	-12.3784
臠	-12.3784
二如來讚喜	-12.3786
慶雲毫相光	-12.3786
連綿	-12.3786
餘殘	-12.3786
招引惡果	-12.3786
能為救護	-12.3786
但燒手	-12.3786
粒	-12.3786
罕	-12.3787
上求下化	-12.3787
長老須菩提	-12.3787
千輪毫光	-12.3787
碧毫相光	-12.3788
紅毫相光	-12.3788
執慧曜如來	-12.3788
撓	-12.3788
高一由旬	-12.3789
為何等類	-12.3789
復有一魔名曰	-12.3789
暝	-12.3789
夫婦	-12.379
淨度三昧經	-12.379
砂	-12.379
祁利失王	-12.379
紫毫相光	-12.379
㘁	-12.3791
湖	-12.3791
謎	-12.3791
結惡習重	-12.3791
如影隨形	-12.3791
擎	-12.3791
不執色是	-12.3791
嚴身之具	-12.3792
無常苦空	-12.3792
陞	-12.3792
排	-12.3792
四維上下	-12.3792
廣果天	-12.3792
哀矜	-12.3792
玉毫相光	-12.3792
次有五百	-12.3792
觀他人身	-12.3792
蟒	-12.3793
稻麻竹葦	-12.3793
涅寐帝	-12.3793
湯藥一切所須	-12.3794
自號大乘	-12.3794
蔑	-12.3794
少光天	-12.3794
猷	-12.3794
涅文支	-12.3794
殊麗	-12.3795
鬱	-12.3795
一切諸法悉無有	-12.3795
動經億劫	-12.3795
穹	-12.3795
金毫相光	-12.3795
歘	-12.3795
拄	-12.3795
拾	-12.3795
滸	-12.3795
陀羅尼金剛句	-12.3795
青毫相光	-12.3796
沃	-12.3796
常願不處	-12.3796
嘲	-12.3796
屯	-12.3796
從火起	-12.3796
蚤	-12.3796
是故不應以	-12.3797
荊溪	-12.3797
少淨天	-12.3797
毗盧	-12.3797
右掌	-12.3797
卓	-12.3798
無言無說	-12.3798
船華功德	-12.3798
贍	-12.3798
屬於火天	-12.3798
枚	-12.3798
舉心動念	-12.3798
受大快樂	-12.3798
羅閱祇	-12.3798
鉢羅華	-12.3798
大光普照	-12.3799
尊者摩訶迦葉	-12.3799
揩	-12.3799
婆樓那龍王	-12.3799
赦	-12.3799
寶輪毫光	-12.3799
烈	-12.38
繫其頸	-12.38
侵凌	-12.38
說是法已	-12.38
卑劣	-12.3801
明所化機	-12.3801
熬	-12.3801
菩薩具足四法	-12.3801
波浪	-12.3801
訟理	-12.3801
瑞毫相光	-12.3801
湧	-12.3801
四十中劫	-12.3801
輿	-12.3802
粉	-12.3802
若有男子女人聞是佛名	-12.3802
面貌	-12.3802
天上天下	-12.3802
於少時間	-12.3802
十六諸天神王	-12.3802
澍	-12.3802
攻	-12.3802
百千萬億不可思	-12.3802
拜祭鬼神	-12.3802
丙	-12.3802
凝	-12.3802
如熱時焰	-12.3802
彼大臣統理國土	-12.3802
貺	-12.3802
千輻	-12.3803
發僧那	-12.3803
無涯底	-12.3803
能證得安樂涅槃	-12.3803
動經塵劫	-12.3803
如水聚沫	-12.3803
而遙擲之	-12.3803
護持我正法	-12.3803
被大德鎧	-12.3803
依倚王力	-12.3803
娶	-12.3803
無斷辯才	-12.3803
出家及受具戒	-12.3803
離安隱處失人天樂	-12.3803
壇	-12.3804
餚	-12.3804
恚怒	-12.3804
從何而來	-12.3804
水宅心陀羅尼	-12.3804
起尊重心	-12.3804
泄	-12.3804
棄愛欲作比丘	-12.3804
無言訟心	-12.3804
四句偈	-12.3804
遠塵離垢得法眼淨	-12.3804
嗟	-12.3804
囚執	-12.3804
創	-12.3805
是名初行第	-12.3805
魑	-12.3805
睒彌	-12.3805
不為煩惱所	-12.3805
犯大重罪	-12.3805
中曾作俗人	-12.3805
汝等賢首	-12.3805
猜	-12.3805
無鬪諍心	-12.3805
閜	-12.3805
吒吒吒	-12.3805
助其歡喜	-12.3806
違昔誓願	-12.3806
諧	-12.3806
斷常二見	-12.3806
闢	-12.3806
求第一菩提	-12.3806
愚騃	-12.3806
溪	-12.3806
觀他人痛痒	-12.3806
杜絕	-12.3806
鉢頭摩華	-12.3806
丶	-12.3806
化自在天	-12.3807
濤	-12.3807
去是遠近	-12.3807
經多時	-12.3807
災起時能變為	-12.3807
燃	-12.3807
饑饉	-12.3808
我隨覺觀	-12.3808
餅	-12.3808
几	-12.3808
受性弊惡	-12.3808
營齋	-12.3808
右旋	-12.3808
以山障故不令得	-12.3808
句擁護某甲莎波呵	-12.3808
不味著	-12.3808
六萬億諸菩薩等	-12.3808
官禁	-12.3808
若經一劫	-12.3808
毒蠅	-12.3809
猶如秋月	-12.3809
將非大德之所	-12.3809
受無上樂	-12.3809
母陀囉	-12.3809
自然退散	-12.3809
弓箭	-12.3809
欲修無上菩提者	-12.3809
璫	-12.3809
整其衣服	-12.3809
海雲毫光	-12.3809
為供養事供養世尊	-12.3809
而俱同塵	-12.3809
鄔波索迦	-12.3809
四根本戒	-12.3809
飢儉	-12.3809
脆	-12.381
當何名此經	-12.381
出于世	-12.381
首楞伽摩	-12.381
日輪毫光	-12.381
能障聖道	-12.381
瑩	-12.381
鞠	-12.381
師子虎狼	-12.381
無出無滅	-12.381
周給	-12.381
架	-12.381
現相集眾	-12.381
已於無量無邊佛所	-12.381
綖	-12.381
鳩摩羅臣	-12.381
不可說不可說一切諸佛	-12.3811
多饒財寶	-12.3811
入滅盡定	-12.3811
獨覺乘相應正法	-12.3811
生輕謗	-12.3811
於夜分	-12.3811
隨智行	-12.3811
蟲蟻	-12.3812
二結會古今	-12.3812
右遶三周	-12.3812
一切智者之所遠離	-12.3812
[...]
