<unk>	0
<s>	0
</s>	0
。	-2.18138
,	-4.09853
者	-4.47497
也	-4.51124
故	-4.83995
▁	-5.04768
為	-5.13141
之	-5.1682
二	-5.22297
(	-5.26775
以	-5.27821
)	-5.29164
是	-5.33228
即	-5.3425
*	-5.43209
有	-5.45631
三	-5.51214
名	-5.55255
此	-5.57778
一	-5.5889
如	-5.59956
而	-5.60009
中	-5.62129
言	-5.67513
若	-5.68829
於	-5.70306
下	-5.72667
。】「	-5.73989
不	-5.77157
等	-5.77871
無	-5.84502
、	-5.8994
。」【	-5.9103
則	-5.911
法	-5.93455
明	-5.95335
說	-5.97596
云	-5.98045
」	-6.02331
心	-6.0251
非	-6.03903
謂	-6.05351
四	-6.07188
佛	-6.07347
至	-6.07725
人	-6.10292
又	-6.12036
得	-6.12676
行	-6.14065
其	-6.15876
生	-6.16665
今	-6.19089
初	-6.20341
菩薩	-6.20572
義	-6.22976
相	-6.24655
見	-6.27723
大	-6.28425
次	-6.2966
亦	-6.32246
問	-6.32374
時	-6.37049
從	-6.39844
與	-6.4277
自	-6.42941
經	-6.43135
因	-6.43864
觀	-6.44476
皆	-6.45283
及	-6.46643
通	-6.47173
身	-6.4831
「	-6.4939
上	-6.5064
後	-6.52769
答	-6.52787
即是	-6.54364
意	-6.56411
眾生	-6.56532
事	-6.57378
文	-6.58086
五	-6.58229
前	-6.5987
釋	-6.59897
在	-6.62708
同	-6.63511
本	-6.63521
諸	-6.64149
所	-6.64326
教	-6.65117
巳	-6.65269
如來	-6.65459
用	-6.67079
出	-6.68049
別	-6.69534
我	-6.70357
彼	-6.7055
成	-6.70711
:	-6.70894
入	-6.71623
作	-6.74348
能	-6.74875
但	-6.75395
知	-6.75614
智	-6.75623
果	-6.75964
論	-6.76174
理	-6.77151
然	-6.77518
;	-6.78367
既	-6.78402
故云	-6.78912
一切	-6.78921
應	-6.80088
或	-6.80817
雖	-6.80822
修	-6.81516
起	-6.84029
道	-6.84572
耶	-6.85203
多	-6.85839
性	-6.8638
欲	-6.8695
令	-6.87877
解	-6.88961
由	-6.89819
破	-6.89838
定	-6.91534
實	-6.9168
正	-6.93357
▁二	-6.93532
。△	-6.93575
曰	-6.93875
當	-6.94646
空	-6.94755
譬	-6.95255
具	-6.95261
顯	-6.95308
聞	-6.95939
體	-6.96364
合	-6.96817
緣	-6.96912
對	-6.98389
證	-6.98901
喻	-6.98978
善	-6.99039
處	-6.99641
乃	-7.00104
等者	-7.00717
常	-7.01432
如是	-7.02169
眾	-7.0288
難	-7.04655
六	-7.05059
依	-7.0529
耳	-7.05986
可	-7.06014
先	-7.07221
開	-7.07362
住	-7.09415
約	-7.09512
名為	-7.09694
分	-7.11598
復	-7.11663
滅	-7.12106
記	-7.12195
妙	-7.12528
小	-7.12707
方便	-7.13465
受	-7.14079
涅槃	-7.14253
門	-7.15647
地	-7.17163
王	-7.17213
圓	-7.17379
二乘	-7.17382
所以	-7.1833
。「	-7.18739
取	-7.19979
離	-7.20701
十	-7.20904
示	-7.20912
不同	-7.20932
乃至	-7.21727
立	-7.22314
發	-7.22535
俱	-7.23073
苦	-7.23761
色	-7.24047
師	-7.24098
唯	-7.24801
位	-7.24966
七	-7.24985
境	-7.25397
子	-7.25801
現	-7.26385
來	-7.27148
未	-7.27163
隨	-7.27379
斷	-7.27568
廣	-7.27984
異	-7.29024
識	-7.2947
淨	-7.29635
盡	-7.3033
方	-7.32595
信	-7.32689
矣	-7.32743
引	-7.33597
餘	-7.34128
諸佛	-7.34548
會	-7.34657
》	-7.34735
是故	-7.35469
天	-7.35472
外	-7.36584
重	-7.37486
化	-7.37573
已	-7.37689
真	-7.37714
念	-7.37815
?	-7.37982
八	-7.3805
功德	-7.39554
攝	-7.40666
總	-7.4157
何	-7.42673
大乘	-7.43069
樂	-7.43279
惡	-7.43281
求	-7.44458
法華	-7.44831
指	-7.44971
轉	-7.44976
權	-7.45824
《	-7.45962
無量	-7.45974
第二	-7.46075
】	-7.46766
結	-7.47664
業	-7.48109
勝	-7.49978
各	-7.50533
須	-7.50948
數	-7.51115
聲聞	-7.514
內	-7.51837
字	-7.51862
深	-7.5194
疑	-7.52553
故名	-7.53152
頌	-7.53403
分別	-7.53737
法身	-7.54208
略	-7.5435
無明	-7.5442
將	-7.54644
去	-7.55358
世尊	-7.56368
他	-7.56441
必	-7.5645
乎	-7.56662
故言	-7.56662
不可	-7.56712
語	-7.56749
戒	-7.57354
慧	-7.58042
過	-7.58562
便	-7.58959
煩惱	-7.59063
具足	-7.59492
止	-7.6016
說法	-7.60301
舉	-7.60947
:「	-7.62232
除	-7.62269
共	-7.62947
稱	-7.6314
機	-7.63196
因緣	-7.63452
力	-7.63561
疏	-7.63635
更	-7.64456
執	-7.6453
九	-7.64951
汝	-7.64986
昔	-7.65007
請	-7.65303
云云	-7.65858
品	-7.65937
使	-7.66223
宗	-7.66269
乘	-7.66769
失	-7.66915
不得	-7.67902
兩	-7.68408
水	-7.68412
遠	-7.68655
捨	-7.69033
此經	-7.69075
第三	-7.69113
持	-7.6986
聖	-7.7033
世	-7.70626
表	-7.70886
況	-7.71106
經云	-7.71232
願	-7.71486
德	-7.71803
照	-7.71964
云何	-7.72542
聲	-7.72542
▁初	-7.72718
清淨	-7.72833
不知	-7.7297
向	-7.73122
著	-7.73615
益	-7.73621
惑	-7.73736
並	-7.73738
次第	-7.73902
覺	-7.74132
且	-7.75041
屬	-7.75922
供養	-7.76137
般若	-7.76792
第一	-7.76999
物	-7.77046
因果	-7.77443
華	-7.77602
光	-7.78558
想	-7.78693
禪	-7.7908
三昧	-7.79336
三乘	-7.79592
解脫	-7.80111
故知	-7.80257
種	-7.8042
不能	-7.81575
少	-7.82339
世間	-7.82728
止觀	-7.82849
藏	-7.83613
度	-7.84194
竟	-7.84495
近	-7.84741
報	-7.85079
種種	-7.85617
邪	-7.85654
根	-7.8603
悉	-7.86319
辨	-7.86359
極	-7.87082
生死	-7.87115
順	-7.87308
食	-7.87518
動	-7.87804
諸法	-7.88105
法界	-7.88704
實相	-7.88834
施	-7.88932
悟	-7.89005
智慧	-7.89092
利	-7.89128
假	-7.8965
就	-7.89966
▁三	-7.90138
歎	-7.90299
爾時	-7.90396
日	-7.90723
之義	-7.90855
山	-7.91085
還	-7.91103
所謂	-7.92218
國	-7.92245
凡	-7.92255
障	-7.92353
如此	-7.92434
集	-7.92797
病	-7.93098
迷	-7.93703
猶	-7.94527
權實	-7.95111
寶	-7.96128
學	-7.96323
長	-7.96373
足	-7.96682
兼	-7.97596
安	-7.97749
滿	-7.97786
思	-7.98448
居	-7.98513
之法	-7.98572
成就	-7.98905
類	-7.99029
漸	-7.99111
火	-7.99595
小乘	-7.99635
遍	-8.00185
始	-8.00712
高	-8.0115
音	-8.01331
何故	-8.01817
無有	-8.01994
似	-8.02081
一乘	-8.02224
土	-8.02944
豈	-8.03158
頓	-8.03285
二者	-8.03851
香	-8.04303
忍	-8.04451
斯	-8.04736
命	-8.04755
中道	-8.05033
究竟	-8.05152
普	-8.05199
要	-8.05505
。○	-8.06137
全	-8.06189
釋迦	-8.06237
尚	-8.06447
三界	-8.07312
三千	-8.07768
偈	-8.07777
判	-8.0817
華嚴	-8.08684
徧	-8.08759
一者	-8.09124
比丘	-8.098
終	-8.10191
形	-8.1021
此云	-8.10778
夫	-8.10941
迹	-8.10949
坐	-8.11194
皆是	-8.11198
直	-8.11405
計	-8.11434
又云	-8.11444
息	-8.1146
述	-8.12333
造	-8.12411
佛性	-8.12672
往	-8.12779
一一	-8.13365
界	-8.13453
以為	-8.13497
四句	-8.13611
家	-8.1365
愛	-8.14249
一心	-8.14474
法性	-8.14932
當知	-8.15017
故曰	-8.15677
成佛	-8.15848
無漏	-8.15865
凡夫	-8.16155
句	-8.16302
故也	-8.16316
例	-8.16402
僧	-8.16957
!	-8.17338
被	-8.1773
眼	-8.1778
世界	-8.17897
劫	-8.18022
我等	-8.18188
而不	-8.18528
序	-8.18711
偏	-8.18801
第四	-8.19003
俗	-8.19134
治	-8.19544
」,	-8.19556
菩提	-8.19571
爾	-8.19984
此是	-8.21008
父	-8.2114
平等	-8.21196
情	-8.21661
喜	-8.21871
歸	-8.22184
主	-8.22193
了	-8.22196
之人	-8.22899
絕	-8.22959
城	-8.23017
於此	-8.23109
簡	-8.23288
是名	-8.23299
。」【△	-8.2356
勸	-8.23796
莊嚴	-8.23892
領	-8.24539
不生	-8.24694
達	-8.24789
趣	-8.24954
神	-8.25223
宜	-8.25321
習	-8.25438
標	-8.26065
加	-8.26114
一念	-8.26192
歡喜	-8.26205
無生	-8.26566
蓋	-8.26778
亦名	-8.26937
下明	-8.27392
三諦	-8.27702
死	-8.27736
別教	-8.27985
福	-8.28189
修行	-8.28278
文殊	-8.28427
傳	-8.28629
感	-8.28637
口	-8.29176
流	-8.29257
之相	-8.29398
此中	-8.29803
風	-8.30108
退	-8.30242
進	-8.31004
三藏	-8.31073
自在	-8.31235
獨	-8.31857
所說	-8.32734
久	-8.32785
十方	-8.328
望	-8.32862
易	-8.33079
真如	-8.33767
佛法	-8.33838
反	-8.33847
塵	-8.33948
雙	-8.34465
車	-8.34949
弟子	-8.3495
染	-8.35267
觀心	-8.35376
差別	-8.3564
無常	-8.3574
亦不	-8.3575
彌勒	-8.35804
邊	-8.36175
海	-8.36282
據	-8.36312
切	-8.36607
伏	-8.37083
亦是	-8.37135
法門	-8.3747
散	-8.37773
橫	-8.37834
之中	-8.3806
于	-8.38908
妄	-8.38985
發心	-8.39027
部	-8.39417
衣	-8.39509
以此	-8.39882
親	-8.40082
罪	-8.40205
神通	-8.40264
遂	-8.40307
設	-8.40369
白	-8.40558
人天	-8.40619
舍利弗	-8.40674
變	-8.40994
過去	-8.41243
法師	-8.41294
授記	-8.4136
味	-8.41504
四諦	-8.41593
長者	-8.41648
目	-8.4168
陰	-8.41862
到	-8.41883
月	-8.4218
魔	-8.42589
授	-8.42598
一切眾生	-8.42695
阿難	-8.42881
列	-8.43798
圓教	-8.44252
金	-8.44266
大小	-8.44302
如何	-8.44307
外道	-8.44435
經文	-8.44443
慈悲	-8.44756
何者	-8.44832
恐	-8.45548
不見	-8.45882
年	-8.45946
女	-8.4603
致	-8.46079
之心	-8.46184
樹	-8.46323
鬼	-8.46784
待	-8.46928
無上	-8.47174
壞	-8.47248
斥	-8.47309
亦有	-8.47944
有二	-8.48023
不思議	-8.48106
齊	-8.48106
次明	-8.48216
故名為	-8.48217
無相	-8.48403
好	-8.4849
出家	-8.48555
號	-8.48781
讚	-8.4881
之意	-8.49019
哉	-8.49311
慈	-8.49479
三種	-8.49551
增	-8.49585
莫	-8.50096
禮	-8.50156
備	-8.50276
頭	-8.50535
十二	-8.50893
聽	-8.51062
生滅	-8.51433
許	-8.51536
尊	-8.51875
利益	-8.52094
像	-8.52169
歷	-8.52239
覆	-8.52535
周	-8.52771
不定	-8.52776
精進	-8.53047
密	-8.53195
未來	-8.53673
惟	-8.53685
可知	-8.53779
真實	-8.53943
蓮華	-8.54046
仍	-8.54083
吾	-8.54085
一句	-8.54125
書	-8.5457
有三	-8.54572
諦	-8.54892
麤	-8.55029
.	-8.55407
▁一	-8.55584
不動	-8.55725
光明	-8.56178
行者	-8.56541
貪	-8.56606
半	-8.56645
今經	-8.56661
下釋	-8.56687
告	-8.57099
敘	-8.57125
存	-8.57548
百	-8.57681
玄	-8.58039
護	-8.58322
章	-8.58579
并	-8.58624
不出	-8.59092
舊	-8.59185
眷屬	-8.60058
譬如	-8.60433
現在	-8.60494
通教	-8.60662
不二	-8.60679
觸	-8.60712
四教	-8.60784
若有	-8.61189
含	-8.61486
內外	-8.61495
思惟	-8.61511
玅	-8.61967
各有	-8.62186
今文	-8.62235
收	-8.62271
細	-8.62549
乃是	-8.62556
焉	-8.62634
十地	-8.62649
流通	-8.62699
第五	-8.62725
是則	-8.62805
壽	-8.62861
而為	-8.63017
科	-8.63112
無所	-8.63191
迦葉	-8.63443
大眾	-8.63502
藥	-8.63544
翻	-8.63722
甚	-8.63958
座	-8.64103
支	-8.64278
中間	-8.64622
龍	-8.64661
▁四	-8.64699
相應	-8.64708
末	-8.6486
輕	-8.65033
助	-8.65092
千	-8.65137
興	-8.65436
之所	-8.6584
輪	-8.66221
尋	-8.66311
四眾	-8.66341
身子	-8.66368
塔	-8.66639
接	-8.6692
若不	-8.67337
前後	-8.67396
寂	-8.67555
名之為	-8.67947
咸	-8.67967
却	-8.6798
註	-8.68178
雨	-8.6818
出世	-8.68403
古	-8.68536
如前	-8.69062
只	-8.69215
亡	-8.69446
欲界	-8.69502
脫	-8.69703
十界	-8.69761
之言	-8.69874
手	-8.69904
妙法	-8.69951
量	-8.70068
珠	-8.70295
廢	-8.70302
違	-8.70399
根本	-8.70403
善根	-8.70557
一切法	-8.70585
是也	-8.70698
自他	-8.7077
國土	-8.70796
諸天	-8.709
示現	-8.7108
超	-8.71173
劣	-8.71191
誰	-8.71198
本迹	-8.71322
五百	-8.71382
萬	-8.71383
三世	-8.71408
二種	-8.71442
三德	-8.71745
隱	-8.71751
之事	-8.71758
之文	-8.71841
正明	-8.72047
)。】「	-8.72154
母	-8.72274
推	-8.72356
不可思議	-8.7272
長行	-8.72795
羅	-8.72857
方等	-8.73019
亦無	-8.73047
無礙	-8.73343
汝等	-8.73465
地獄	-8.73556
豈非	-8.73693
之時	-8.73714
準	-8.7394
縱	-8.741
羅漢	-8.74114
墮	-8.74546
文云	-8.75006
始終	-8.75007
今日	-8.75012
中有	-8.75097
大經	-8.7511
果報	-8.75191
陳	-8.7525
三者	-8.75465
微	-8.75519
彰	-8.75719
不應	-8.76032
獲	-8.76255
六度	-8.76454
大論	-8.76798
常住	-8.7705
第六	-8.7709
論云	-8.77145
葢	-8.77411
不退	-8.77582
所有	-8.77658
運	-8.77842
談	-8.78006
悲	-8.78041
三觀	-8.78112
不說	-8.7846
雲	-8.78589
大師	-8.78599
器	-8.78658
虗空	-8.78859
卷	-8.79038
。」【○	-8.79137
自行	-8.79171
功	-8.79252
所以者何	-8.79377
害	-8.79635
首	-8.79903
雜	-8.80097
比	-8.80354
一時	-8.80417
事理	-8.8043
亦爾	-8.80466
強	-8.80481
融	-8.80615
聞法	-8.80974
甚深	-8.81245
〉	-8.81246
復有	-8.81911
觀音	-8.82033
為說	-8.82096
虗	-8.82708
元	-8.82962
之理	-8.82963
諸菩薩	-8.83267
此文	-8.83685
此即	-8.83744
遮	-8.83809
一人	-8.83852
無作	-8.83975
○	-8.83984
敬	-8.8426
舍	-8.84355
專	-8.8436
經言	-8.84378
雖有	-8.84544
間	-8.84739
寂滅	-8.84772
名字	-8.84924
不信	-8.85222
寄	-8.85441
善惡	-8.85443
而巳	-8.8564
亦復如是	-8.85784
初明	-8.86052
及以	-8.86072
決	-8.86108
今此	-8.86277
窮	-8.86355
四種	-8.86384
種子	-8.866
不淨	-8.86769
但是	-8.86826
贊曰	-8.8695
初心	-8.8717
其義	-8.87308
化他	-8.87332
最	-8.87713
是為	-8.87947
境界	-8.87949
五陰	-8.88441
義也	-8.888
遣	-8.8898
亦如是	-8.89265
諸經	-8.89344
三法	-8.89406
夜	-8.89471
救	-8.89656
二諦	-8.89957
二頌	-8.89982
志	-8.90019
決定	-8.90172
故以	-8.90295
十六	-8.90427
那	-8.90612
恒	-8.90717
棄	-8.90973
此則	-8.91019
得道	-8.9127
對治	-8.91318
二義	-8.91472
奉	-8.91491
草	-8.91696
印	-8.91709
邪見	-8.91715
互	-8.91989
佛言	-8.91993
冥	-8.92304
新	-8.92427
猶如	-8.92506
自然	-8.92722
經中	-8.92938
宣	-8.92958
美	-8.93041
〈	-8.93418
單	-8.93696
受持	-8.93793
曾	-8.93822
文中	-8.9408
東	-8.94098
徒	-8.94153
和	-8.94247
資	-8.94317
諸子	-8.94402
有漏	-8.94506
無不	-8.94514
固	-8.94549
財	-8.94615
初住	-8.94672
能生	-8.94714
滅度	-8.94806
有四	-8.95069
毀	-8.95107
若爾	-8.95296
次釋	-8.9538
節	-8.95383
提	-8.95392
唱	-8.95416
面	-8.95486
沙門	-8.95558
故有	-8.95637
殊	-8.95645
禪定	-8.95658
象	-8.95689
而說	-8.95815
天台	-8.96002
申	-8.96213
癡	-8.96279
賢	-8.96315
忘	-8.96446
隨喜	-8.96461
詮	-8.96666
公	-8.96684
辯	-8.96778
之名	-8.96791
毒	-8.96859
木	-8.96872
答曰	-8.96932
謂之	-8.97022
所見	-8.97047
寺	-8.97229
文句	-8.9725
何以故	-8.97267
聚	-8.97434
見思	-8.97506
疏云	-8.9759
供	-8.97599
妙音	-8.9769
二初	-8.97723
開顯	-8.97748
路	-8.97857
制	-8.98105
正法	-8.98156
皆有	-8.98178
疾	-8.98238
亦云	-8.98333
阿	-8.98342
初地	-8.98483
得名	-8.98485
夢	-8.98592
大品	-8.98641
見佛	-8.99032
中云	-8.99123
緣覺	-8.99155
脩	-8.99183
遊	-8.99205
具如	-8.99382
不受	-8.99406
然後	-8.99625
此二	-9.00004
第一義	-9.00118
信解	-9.00148
輔行	-9.00192
何以	-9.00321
佛道	-9.00327
都	-9.00486
索	-9.00725
契	-9.00757
亂	-9.00801
慢	-9.00949
講	-9.01231
遇	-9.01752
淨土	-9.02152
能所	-9.02188
逆	-9.02341
增長	-9.02435
真諦	-9.02446
者謂	-9.02678
闕	-9.02725
聖人	-9.02761
今謂	-9.0289
是人	-9.02892
有情	-9.02985
作佛	-9.03019
熏	-9.03084
消	-9.03092
弘	-9.03284
誦	-9.0349
氣	-9.03509
謗	-9.03598
西	-9.03642
無非	-9.03906
弘經	-9.04044
調	-9.04212
四明	-9.04516
置	-9.04656
下結	-9.04709
熟	-9.04798
故不	-9.04815
永	-9.0482
頂	-9.04845
注	-9.0489
誓	-9.04925
今明	-9.04932
林	-9.05123
知見	-9.05269
應知	-9.05347
老	-9.05407
故須	-9.05442
藥王	-9.05486
三業	-9.05537
成道	-9.05605
。【	-9.05657
石	-9.06014
帶	-9.06019
我今	-9.06117
縛	-9.06178
為體	-9.06249
傍	-9.06434
牛	-9.06563
平	-9.06576
而言	-9.06869
於中	-9.07055
盛	-9.07138
亦然	-9.07173
問答	-9.07178
二明	-9.07493
行人	-9.07602
金剛	-9.0766
四門	-9.07697
承	-9.07719
亦應	-9.07769
瑞	-9.07867
改	-9.07924
文殊師利	-9.07968
差	-9.08015
梵	-9.08135
此義	-9.08192
而有	-9.08215
不離	-9.08275
服	-9.08281
懷	-9.08367
亦可	-9.08405
問曰	-9.08553
濁	-9.08577
能知	-9.08686
六根	-9.08797
沒	-9.09044
儀	-9.09131
南	-9.09184
損	-9.09213
此明	-9.09449
放	-9.09485
智者	-9.09643
一法	-9.09744
神力	-9.09774
於是	-9.09875
【□	-9.09923
三身	-9.10014
倒	-9.10081
垂	-9.10085
依正	-9.10236
譯	-9.10256
之道	-9.10415
教化	-9.10827
稟	-9.10896
暗	-9.11104
現前	-9.11129
無邊	-9.1115
復次	-9.11171
頌上	-9.1121
背	-9.11215
惱	-9.11364
畢	-9.11399
波	-9.11424
父母	-9.11432
犯	-9.11495
堅	-9.11504
無學	-9.11877
有無	-9.1214
堂	-9.12175
一切智	-9.12237
則有	-9.12323
通別	-9.12473
無為	-9.12482
解釋	-9.12504
靜	-9.12656
此品	-9.1286
所言	-9.12975
何得	-9.12984
譬喻	-9.13021
清	-9.1307
嚴	-9.13232
讀	-9.13237
帝	-9.13239
安樂	-9.13272
精	-9.13286
壽命	-9.13684
導	-9.13745
曲	-9.13856
誡	-9.14204
若言	-9.14263
陀羅尼	-9.1432
大悲	-9.14347
鳥	-9.14351
此土	-9.1443
二十	-9.14492
淺	-9.14517
付	-9.14762
摩	-9.1478
之說	-9.14856
修習	-9.14884
旨	-9.1493
借	-9.14931
若以	-9.14998
三教	-9.15149
短	-9.15293
交	-9.15309
下文	-9.15318
此三	-9.15357
乳	-9.15751
普賢	-9.1579
皆悉	-9.1613
殺	-9.16208
三寶	-9.16264
」【	-9.16682
乖	-9.16778
放光	-9.16805
婆	-9.16897
色心	-9.17012
悔	-9.1743
則無	-9.17639
竪	-9.17642
為一	-9.17651
多寶	-9.17661
勿	-9.17692
穢	-9.17743
相似	-9.17823
所得	-9.17888
巧	-9.17952
此乃	-9.17966
宿	-9.18015
空中	-9.18209
愚	-9.18294
況復	-9.18359
不異	-9.18515
誠	-9.18603
之處	-9.18654
麁	-9.18839
詳	-9.1885
再	-9.19189
河	-9.19663
而無	-9.19775
速	-9.19798
不為	-9.1996
准	-9.19969
題	-9.20093
隔	-9.20205
今初	-9.20413
訖	-9.20424
阿羅漢	-9.20531
六道	-9.20621
法輪	-9.20689
佛說	-9.20691
法華經	-9.20838
之後	-9.209
自性	-9.20934
律	-9.20996
濟	-9.21101
顛倒	-9.21275
壽量	-9.21297
瓔珞	-9.21346
繫	-9.21367
第七	-9.21381
)(	-9.21385
意也	-9.21414
諸眾生	-9.21951
室	-9.21963
北	-9.22074
點	-9.2211
所化	-9.22359
由此	-9.22382
結緣	-9.22384
既云	-9.22414
陀	-9.2246
勤	-9.22473
無數	-9.22474
減	-9.22654
領解	-9.22708
不滅	-9.22732
辭	-9.22738
初文	-9.22833
不起	-9.22873
祖	-9.23082
揀	-9.23111
而生	-9.23191
呪	-9.23202
何況	-9.23253
同異	-9.23381
該	-9.23397
此下	-9.23404
擬	-9.23406
不住	-9.2351
如來藏	-9.2353
分二	-9.23623
為因	-9.23829
責	-9.23835
應身	-9.24019
▁初明	-9.24124
不可說	-9.24269
苦集	-9.24306
其心	-9.24379
特	-9.24556
五品	-9.24693
二句	-9.24906
仰	-9.24942
以明	-9.24942
所依	-9.25003
報身	-9.25031
實智	-9.25054
瞋	-9.25069
可見	-9.25256
九界	-9.25314
其人	-9.25338
和合	-9.2546
馬	-9.25483
言之	-9.25594
二智	-9.25718
觀行	-9.25723
未得	-9.25729
名曰	-9.26026
佛果	-9.26074
委	-9.26301
十一	-9.2632
菩薩摩訶薩	-9.26388
只是	-9.2641
十種	-9.26473
不然	-9.26519
舍利	-9.26578
初禪	-9.26705
十信	-9.26753
不可得	-9.27044
姓	-9.27138
患	-9.27155
靈	-9.27316
念處	-9.27363
顯實	-9.27529
留	-9.27583
約教	-9.27621
恩	-9.27746
但以	-9.27834
令其	-9.27838
入定	-9.28261
善男子	-9.28435
第八	-9.28733
燒	-9.28913
道品	-9.2895
視	-9.29001
婆羅門	-9.29037
別圓	-9.29054
若無	-9.29068
如是等	-9.29174
天人	-9.29228
三明	-9.2932
拔	-9.29352
▁○	-9.29489
但有	-9.29525
二邊	-9.2955
謬	-9.2959
懺	-9.29743
本無	-9.2975
蒙	-9.29968
之體	-9.30022
漏	-9.30098
容	-9.30122
黑	-9.30226
但云	-9.30284
附	-9.30307
影	-9.30344
熱	-9.30392
補	-9.30394
自有	-9.30408
守	-9.30508
總結	-9.3057
一向	-9.3067
道場	-9.30899
覩	-9.31034
彌	-9.31035
十住	-9.31101
化城	-9.31214
純	-9.31258
讀誦	-9.31382
修道	-9.31499
一實	-9.31515
淨名	-9.31775
一切種智	-9.31868
分身	-9.31935
佛界	-9.31943
者即	-9.32104
故得	-9.32138
蔽	-9.32149
段	-9.32249
亦非	-9.32336
至於	-9.32358
三句	-9.32479
廣說	-9.32656
根性	-9.32805
此法	-9.32829
得記	-9.32882
有人	-9.32912
不覺	-9.32969
所證	-9.33165
然此	-9.3317
三義	-9.3327
局	-9.33303
不識	-9.33352
雖復	-9.33355
垢	-9.33466
五濁	-9.33519
圓滿	-9.3357
懺悔	-9.33588
經論	-9.3366
之行	-9.33678
演	-9.33746
四禪	-9.3397
隨緣	-9.34142
無色	-9.34205
怨	-9.34327
所生	-9.34718
定慧	-9.34728
音聲	-9.34816
闇	-9.34823
圓融	-9.3496
最後	-9.35069
妨	-9.35079
歲	-9.35113
無我	-9.35181
妙覺	-9.35209
源	-9.35579
十八	-9.35604
正是	-9.35621
如文	-9.3566
色界	-9.35771
十二因緣	-9.35828
不斷	-9.35845
諸教	-9.35887
上下	-9.35936
故今	-9.35951
所作	-9.36002
感應	-9.36063
開權	-9.36305
四者	-9.36346
無別	-9.36431
相即	-9.36781
鏡	-9.36868
料簡	-9.36973
一往	-9.36979
緣起	-9.37037
持戒	-9.37107
,「	-9.37157
任運	-9.3733
否	-9.37545
發菩提心	-9.37582
寧	-9.377
導師	-9.37728
即空	-9.37786
又復	-9.37797
無盡	-9.37876
第九	-9.3793
可以	-9.37974
為二	-9.38004
法中	-9.38015
假名	-9.38072
隨順	-9.38098
肉	-9.3835
或云	-9.38397
利根	-9.38409
有二種	-9.3841
何不	-9.38459
不須	-9.38552
男	-9.38625
法相	-9.38655
釋云	-9.38817
各各	-9.39035
登	-9.39306
醍醐	-9.39373
,《	-9.39387
憂	-9.39429
佛所	-9.3946
召	-9.39539
十法	-9.39573
無情	-9.39655
鼻	-9.39704
?」	-9.39751
方便品	-9.39807
有所	-9.39934
若人	-9.39938
降	-9.39964
記云	-9.40037
五種	-9.40096
巳上	-9.40111
不解	-9.40159
體用	-9.40233
三毒	-9.40293
為三	-9.4032
爾時世尊	-9.404
不虗	-9.40407
道理	-9.40508
初二	-9.40514
法也	-9.40531
宅	-9.40612
地前	-9.40622
傷	-9.40708
端	-9.40731
得益	-9.40758
落	-9.40852
既是	-9.40893
四悉	-9.40953
此意	-9.40978
鈍	-9.41096
▁五	-9.41155
亦如	-9.41179
唯有	-9.41358
此人	-9.41395
勢	-9.4142
應云	-9.41524
以顯	-9.41564
性德	-9.41574
第十	-9.41579
鹿苑	-9.41929
之本	-9.42057
故說	-9.42078
忽	-9.42107
相對	-9.42196
今言	-9.42208
其實	-9.42253
不言	-9.42368
四大	-9.42415
值	-9.42453
期	-9.42666
悉皆	-9.42751
詣	-9.42786
是時	-9.42818
牒	-9.42841
代	-9.42899
無畏	-9.42993
一行	-9.43037
前三	-9.43102
潤	-9.43439
適	-9.43511
界外	-9.43545
權智	-9.43713
五味	-9.43723
若約	-9.4373
二字	-9.43755
無二	-9.43901
微妙	-9.44
此約	-9.44021
無間	-9.44099
佛身	-9.4418
無異	-9.44183
最初	-9.44476
不成	-9.44535
演說	-9.44603
結成	-9.4472
凡聖	-9.44766
入涅槃	-9.4481
為本	-9.44845
大士	-9.44913
不取	-9.45019
得果	-9.45088
觀法	-9.45255
際	-9.45268
而起	-9.4532
太	-9.45352
畢竟	-9.45571
並是	-9.45587
淨心	-9.45603
錄	-9.45851
昔日	-9.45886
亦得	-9.45899
若能	-9.45933
不聞	-9.46002
大意	-9.4608
法說	-9.46113
載	-9.46118
配	-9.46295
幻	-9.46302
賊	-9.46333
不及	-9.46343
所明	-9.4643
訓	-9.46506
能破	-9.46527
無量無邊	-9.46666
本有	-9.46894
五欲	-9.46904
皆名	-9.4692
此之	-9.46923
積	-9.4702
應以	-9.47082
十法界	-9.47091
己	-9.47107
池	-9.47136
舌	-9.47225
令得	-9.47234
法者	-9.47251
免	-9.47456
開合	-9.47466
合上	-9.4753
理性	-9.4756
典	-9.47703
沙	-9.47741
總別	-9.47794
骨	-9.4782
燈	-9.47871
厭	-9.47949
持經	-9.47999
心性	-9.48013
身心	-9.48038
塞	-9.48073
圓頓	-9.48083
發願	-9.48143
立名	-9.48145
希有	-9.48184
不失	-9.48284
十四	-9.4838
如彼	-9.48444
轉法輪	-9.4846
智斷	-9.48544
或有	-9.48569
若依	-9.48579
於彼	-9.48625
虛空	-9.48639
士	-9.48759
意者	-9.48764
虛	-9.49009
涉	-9.49159
安隱	-9.49212
之教	-9.49324
尼	-9.49327
十五	-9.49416
驗	-9.49468
有異	-9.49526
貴	-9.4966
住持	-9.49719
非是	-9.49769
質	-9.49835
百千	-9.49874
等覺	-9.49895
三周	-9.50028
女人	-9.50057
一家	-9.50072
防	-9.50127
有此	-9.50212
學者	-9.50229
境智	-9.50237
大法	-9.50297
廣大	-9.50342
見道	-9.50441
先明	-9.50481
修觀	-9.5052
正說	-9.50572
。」【【■	-9.50596
呼	-9.50629
剎那	-9.50688
又二	-9.50759
慮	-9.5082
相續	-9.50842
多少	-9.5086
豈可	-9.50982
彼佛	-9.50983
不復	-9.50992
久遠	-9.51108
而得	-9.51243
其意	-9.51269
名義	-9.51298
仁	-9.51456
其所	-9.51566
徹	-9.51632
黃	-9.51643
有五	-9.51652
若論	-9.51687
一品	-9.51687
礙	-9.51693
則為	-9.51709
東方	-9.51795
貪欲	-9.51827
私	-9.52039
賜	-9.52071
無復	-9.52096
預	-9.52168
迴	-9.52177
七寶	-9.52192
堅固	-9.52263
本來	-9.52275
畏	-9.52336
日月	-9.52393
阿含	-9.52399
誓願	-9.5242
曉	-9.52595
宮	-9.5274
則是	-9.52744
恭敬	-9.52777
任	-9.52789
教門	-9.52871
因中	-9.53032
今以	-9.53038
發起	-9.53167
幾	-9.53171
開權顯實	-9.53248
越	-9.53359
師子	-9.53382
八萬	-9.53427
以其	-9.53473
奪	-9.53582
伹	-9.53957
州	-9.54014
之身	-9.54088
須知	-9.54104
正因	-9.54436
是以	-9.54496
稍	-9.54498
迦	-9.54591
分明	-9.54644
無性	-9.54652
。」【(	-9.54674
即以	-9.54876
遺	-9.54919
為人	-9.54996
之由	-9.55069
臣	-9.55201
本門	-9.55221
必須	-9.55235
有一	-9.55259
之因	-9.55282
變易	-9.55301
威儀	-9.55363
四念處	-9.5542
支佛	-9.55433
五時	-9.55459
:『	-9.55565
薄	-9.55722
彼經	-9.55774
驚	-9.55851
青	-9.55855
佛智	-9.55866
之性	-9.55981
其中	-9.56027
則知	-9.5604
梵王	-9.56171
功能	-9.562
迹門	-9.56223
尊者	-9.56294
怖	-9.56398
田	-9.56453
謝	-9.56478
必有	-9.56485
急	-9.56514
生身	-9.56575
男女	-9.56579
當體	-9.56681
染淨	-9.56692
怖畏	-9.56825
皆得	-9.56938
移	-9.57165
底	-9.57179
則不	-9.57253
行相	-9.57264
之力	-9.57289
文字	-9.57298
而說偈言	-9.57331
諸文	-9.57411
性相	-9.57522
追	-9.57689
不名	-9.57783
他方	-9.5788
妙法蓮華經	-9.57984
修性	-9.58059
種性	-9.58082
養	-9.58171
最勝	-9.58173
王子	-9.58547
處處	-9.58568
增上慢	-9.58599
朝	-9.58623
四行	-9.58802
之用	-9.58856
斷惑	-9.5895
如上	-9.58961
利他	-9.59017
無始	-9.59022
懸	-9.5917
豎	-9.59232
惡業	-9.59307
星	-9.59375
二人	-9.59463
於佛	-9.59464
善知識	-9.59478
託	-9.59495
界內	-9.59643
及諸	-9.59663
無量義	-9.59675
揚	-9.59719
化身	-9.59781
天下	-9.59802
般	-9.59838
漸頓	-9.59862
暫	-9.59962
佛乘	-9.60063
布	-9.601
豈不	-9.60109
未曾	-9.60427
良	-9.605
既有	-9.60559
為實	-9.60616
人法	-9.60655
疏主	-9.60698
。】△	-9.60755
臨	-9.60802
若欲	-9.60837
不了	-9.60922
在於	-9.60955
的	-9.61107
住於	-9.6111
此等	-9.61254
民	-9.6135
折	-9.61434
堪	-9.61515
念念	-9.61561
以下	-9.61589
安住	-9.61601
天眼	-9.61612
累	-9.61641
七日	-9.61802
滅後	-9.61836
忍辱	-9.6191
是經	-9.62073
群	-9.62075
得入	-9.62084
安樂行	-9.6223
不如	-9.62386
人也	-9.62402
淺深	-9.62431
佛子	-9.62451
每	-9.62484
何所	-9.62499
餘經	-9.62562
貫	-9.62587
三十	-9.6259
幽	-9.62603
濫	-9.62662
之機	-9.62752
毛	-9.62778
相好	-9.63
按	-9.63089
初標	-9.63116
一種	-9.63225
故稱	-9.6324
上來	-9.63267
寂光	-9.6327
四法	-9.63406
是法	-9.63433
遠離	-9.63662
之旨	-9.63738
此四	-9.63766
故此	-9.6384
佛告	-9.63863
更有	-9.63869
娑婆	-9.63941
悅	-9.63962
如經	-9.64035
苦諦	-9.64055
是佛	-9.64232
世人	-9.64328
之境	-9.6448
皆以	-9.64527
二乘人	-9.64551
所詮	-9.64586
意識	-9.64587
佛慧	-9.646
關	-9.64646
八地	-9.64691
何等	-9.64773
總持	-9.64773
由是	-9.6488
苟	-9.64911
倍	-9.64913
時節	-9.64987
緣了	-9.65056
即有	-9.65076
開示	-9.65126
唯一	-9.65315
法王	-9.65331
引證	-9.65467
無差別	-9.65476
客	-9.65489
讚歎	-9.65597
釋名	-9.65649
花	-9.6572
夏	-9.65807
藉	-9.65819
福德	-9.65888
原	-9.65963
十乘	-9.65967
今家	-9.66065
布施	-9.66144
不爾	-9.66348
善法	-9.66424
胎	-9.66573
藏通	-9.66642
今云	-9.66745
破無明	-9.66792
人中	-9.66864
訶	-9.66897
此言	-9.66906
秖是	-9.66954
苦行	-9.66986
生佛	-9.66993
有餘	-9.67099
同時	-9.67277
鈍根	-9.67279
不明	-9.67394
之功	-9.67395
招	-9.67474
窮子	-9.67632
寶塔	-9.67712
疎	-9.67735
四方	-9.67771
虗妄	-9.67788
葉	-9.67839
八萬四千	-9.67953
帝釋	-9.68017
同一	-9.6803
茲	-9.6809
諸行	-9.68099
慕	-9.68134
檀	-9.6816
佛眼	-9.6822
故能	-9.68278
滯	-9.68334
所行	-9.68379
安心	-9.68416
異名	-9.68462
默	-9.68506
是菩薩	-9.68506
等也	-9.68659
不輕	-9.68845
生起	-9.68904
合掌	-9.69067
所知	-9.6909
輔行云	-9.69263
徵	-9.69407
前文	-9.69413
文義	-9.69485
付囑	-9.69523
不許	-9.69557
昏	-9.69579
泯	-9.69582
義同	-9.69591
大經云	-9.69639
諸比丘	-9.69723
諍	-9.69855
統	-9.69865
三道	-9.69985
狹	-9.69997
通達	-9.70081
無知	-9.70108
五十	-9.70129
今佛	-9.70134
億	-9.70179
利鈍	-9.70314
一部	-9.70485
亦復	-9.70498
說一乘	-9.70518
有十	-9.70525
毗	-9.70654
逢	-9.707
一生	-9.70788
惡道	-9.7089
一切諸法	-9.70924
欣	-9.70931
而論	-9.70974
魚	-9.7099
不以	-9.70999
若干	-9.71005
二釋	-9.71016
飲食	-9.71098
非但	-9.71152
擊	-9.71181
下約	-9.71192
說者	-9.712
通於	-9.71268
正釋	-9.71315
尊特	-9.71321
以是	-9.71328
嘆	-9.71406
中說	-9.7142
入空	-9.7145
無記	-9.71468
十如	-9.71473
分段	-9.71495
太子	-9.71506
絕待	-9.71544
而能	-9.71546
唐	-9.71775
親近	-9.71887
俱舍	-9.71905
途	-9.71962
不盡	-9.71969
又如	-9.72005
內心	-9.72166
五乘	-9.72211
祇	-9.72241
如實	-9.72366
大論云	-9.72438
前二	-9.72448
皆為	-9.72498
三十二	-9.72504
竝	-9.72533
既無	-9.72696
廣明	-9.72701
展轉	-9.72815
古人	-9.72845
鉢	-9.72918
應作	-9.73065
上品	-9.7315
良由	-9.73161
刀	-9.73247
即得	-9.73321
塵沙	-9.73507
兒	-9.73561
仙	-9.73607
連	-9.73731
觀察	-9.73778
畜生	-9.73871
滅諦	-9.73966
之果	-9.73971
說經	-9.7401
其身	-9.7401
波羅蜜	-9.74056
逐	-9.74144
為正	-9.74144
他人	-9.74181
凡有	-9.74208
敷	-9.74259
故無	-9.74284
泥	-9.74304
作是念	-9.74393
跡	-9.74395
議	-9.74409
道諦	-9.74416
十善	-9.74416
能令	-9.74538
心中	-9.74544
建立	-9.74559
現身	-9.74564
浮	-9.74636
天子	-9.74667
三車	-9.7471
續	-9.74728
從此	-9.74752
問訊	-9.74794
辟支佛	-9.74816
▁【	-9.74836
未盡	-9.75011
相待	-9.75148
富	-9.75422
圖	-9.75515
唯識	-9.75595
總名	-9.7585
草木	-9.75894
次約	-9.75914
大千	-9.76013
三人	-9.7629
大涅槃	-9.76299
勞	-9.76299
是實	-9.76304
一切世間	-9.76399
別釋	-9.76466
不相	-9.76471
初釋	-9.76479
一分	-9.7654
飛	-9.76544
所攝	-9.76576
投	-9.76602
龍女	-9.76698
不著	-9.76723
長短	-9.76761
昧	-9.76802
蘊	-9.76824
十行	-9.76876
不善	-9.76917
氏	-9.77002
誤	-9.77111
自心	-9.77138
章安	-9.77219
何須	-9.77261
抑	-9.7728
究	-9.77285
大車	-9.77315
早	-9.77344
光宅	-9.77391
得聞	-9.77395
赤	-9.77469
篇	-9.7763
不妨	-9.77705
雖無	-9.7777
宛然	-9.78027
三頌	-9.78051
佛土	-9.78114
皆云	-9.78169
輪王	-9.78198
不空	-9.78377
能持	-9.78381
漢	-9.78384
於諸	-9.78421
伽	-9.78441
釋曰	-9.78492
返	-9.78499
角	-9.78507
能見	-9.78624
不可以	-9.78633
此釋	-9.78966
應化	-9.79091
旋	-9.79129
初句	-9.7921
三根	-9.79289
玄文	-9.79303
之德	-9.79351
析	-9.79372
鼓	-9.794
一味	-9.79446
十三	-9.79466
善哉	-9.7947
秦	-9.79482
如佛	-9.79542
須彌	-9.79553
一性	-9.7962
非謂	-9.79625
二門	-9.79627
所成	-9.79644
建	-9.79717
露	-9.79737
寬	-9.79766
萬行	-9.79795
蓮	-9.79947
餓鬼	-9.79987
有大	-9.80047
稱歎	-9.80063
之眾	-9.80084
法體	-9.80133
欲令	-9.80137
符	-9.80194
看	-9.80242
意在	-9.80272
有云	-9.8029
六種	-9.80362
論曰	-9.80366
為緣	-9.80428
酬	-9.80457
釋迦牟尼佛	-9.80591
懈怠	-9.8061
觀者	-9.80678
入滅	-9.80738
▁「	-9.80753
不與	-9.80762
希	-9.80781
稱為	-9.80783
不退轉	-9.80789
有三種	-9.80834
無餘	-9.80861
十九	-9.80877
不共	-9.80897
俗諦	-9.81032
可得	-9.81199
通論	-9.81253
嗔	-9.81308
不求	-9.81325
觀世音	-9.81375
無住	-9.8139
無緣	-9.81439
雙非	-9.81464
種智	-9.81472
佛為	-9.81574
▁二釋	-9.81627
賢聖	-9.81746
偈云	-9.81752
三品	-9.81826
大王	-9.81838
開佛知見	-9.81894
聞經	-9.8197
恒沙	-9.81973
寶所	-9.81996
火宅	-9.82022
不具	-9.82202
上文	-9.82296
終不	-9.82349
諸惡	-9.82384
未有	-9.82588
五行	-9.82617
之與	-9.82749
應當	-9.8277
扶	-9.82792
不論	-9.82801
初後	-9.82887
妄想	-9.82981
若作	-9.83025
正觀	-9.83083
以釋	-9.83227
玄義	-9.83331
寒	-9.83377
醫	-9.8346
梵行	-9.83527
君	-9.83551
所緣	-9.83612
目連	-9.8365
論文	-9.83652
四果	-9.83721
言說	-9.8376
上根	-9.83768
愈	-9.83788
然則	-9.83811
亦以	-9.83846
頌合	-9.83894
普門	-9.83972
說三乘	-9.84005
唯在	-9.84012
又曰	-9.84014
是事	-9.84085
說也	-9.84184
彼此	-9.84234
甘露	-9.84295
阿耨多羅三藐三菩提	-9.84318
可解	-9.84329
滿足	-9.84353
乞	-9.84404
張	-9.84476
既爾	-9.84545
能通	-9.84593
妙境	-9.8468
不用	-9.84768
變化	-9.84838
▁二若	-9.84868
背捨	-9.84934
自謂	-9.84962
不在	-9.84973
若是	-9.84974
大海	-9.85074
念佛	-9.85121
愍	-9.85124
故非	-9.85163
西方	-9.85185
波若	-9.85238
相也	-9.8525
思議	-9.85266
六即	-9.85304
偽	-9.85406
釋疑	-9.85505
也又	-9.8567
豈有	-9.85693
偈頌	-9.85869
前明	-9.8587
別明	-9.85908
軌	-9.86067
為大	-9.86072
不合	-9.86085
赴	-9.86159
三智	-9.86174
一頌	-9.86208
釋之	-9.86235
寂靜	-9.86295
網	-9.86296
國王	-9.86469
剎	-9.86528
二行	-9.86535
梵天	-9.86583
行道	-9.8669
階	-9.86727
非一	-9.86741
釋籤	-9.86798
升	-9.86802
啟	-9.86849
酪	-9.86857
說之	-9.86884
里	-9.86926
古今	-9.86932
義故	-9.8697
七地	-9.87066
大機	-9.87079
微塵	-9.87121
罵	-9.87152
退大	-9.8724
所引	-9.87244
鳴	-9.87263
秖	-9.87294
非真	-9.87312
摩訶衍	-9.87339
護持	-9.87359
橫竪	-9.87359
有二義	-9.87382
佛之	-9.87403
淨穢	-9.87443
慶	-9.87465
此翻	-9.87481
出入	-9.87519
若從	-9.87567
得見	-9.87597
一切皆	-9.87629
百千萬億	-9.87734
之智	-9.8776
不壞	-9.87776
自知	-9.87877
拘	-9.88169
審	-9.88172
即此	-9.8821
二禪	-9.88321
相者	-9.88397
未能	-9.8843
中二	-9.88442
唯心	-9.88476
愚癡	-9.88526
下根	-9.88603
陽	-9.88612
隨機	-9.88686
納	-9.88805
至此	-9.88906
行因	-9.88907
是知	-9.88992
出生	-9.88999
三千大千世界	-9.89046
空寂	-9.89154
道滅	-9.89168
本是	-9.89364
聽法	-9.89386
即便	-9.89438
信受	-9.8945
右	-9.89494
沈	-9.89545
白佛言	-9.89623
鬼神	-9.89677
五道	-9.89787
弱	-9.89821
五根	-9.89855
入道	-9.89925
詞	-9.90025
一日	-9.90158
與記	-9.90183
說法華	-9.90252
心生	-9.90263
多聞	-9.90355
之位	-9.90445
勅	-9.90489
默然	-9.90492
無著	-9.90532
譬說	-9.90533
諸法實相	-9.90564
痛	-9.90663
何名	-9.90663
離合	-9.90705
梁	-9.9074
巳來	-9.90831
總明	-9.90832
十七	-9.90889
▁二頌	-9.90894
何處	-9.90914
是諸	-9.90931
於前	-9.90967
缺	-9.91054
互相	-9.91066
擇	-9.91088
思之	-9.9109
相違	-9.91199
弊	-9.91224
之語	-9.91252
▁初釋	-9.91344
即成	-9.91404
貪著	-9.91525
一相	-9.91614
中有二	-9.91645
官	-9.91773
住處	-9.91802
獄	-9.91831
行也	-9.91853
須菩提	-9.91854
冠	-9.91906
出假	-9.91915
而非	-9.91915
一處	-9.92085
此方	-9.92108
又以	-9.9219
為四	-9.92234
非實	-9.92349
說此經	-9.92365
當機	-9.92407
喚	-9.92423
憑	-9.92447
珍	-9.92457
二法	-9.92564
明其	-9.92578
依報	-9.92607
文也	-9.92642
方名	-9.92663
充	-9.92668
此亦	-9.92671
初約	-9.92681
命終	-9.92906
。』	-9.92961
厚	-9.93045
某	-9.93106
繁	-9.93164
語言	-9.93255
餘三	-9.93295
之異	-9.93356
福慧	-9.93403
一偈	-9.93427
」「	-9.93486
次引	-9.93486
玉	-9.93495
於一	-9.93528
如人	-9.9359
答言	-9.93607
正見	-9.93608
八十	-9.93613
逗	-9.93617
果也	-9.93707
血	-9.9374
妙玄	-9.93744
不思議境	-9.93821
為名	-9.93854
靈山	-9.93878
荊溪	-9.93889
酒	-9.93975
畜	-9.94013
偏圓	-9.94033
輩	-9.94058
釋成	-9.94155
無能	-9.94164
了因	-9.94172
有何	-9.94178
二子	-9.94228
摩訶	-9.9425
術	-9.94279
既不	-9.94327
顯示	-9.94408
略明	-9.94493
佛意	-9.94545
同體	-9.94689
三十二相	-9.94761
飲	-9.94802
毫	-9.94827
陵	-9.94881
七種	-9.94897
余	-9.94914
離諸	-9.95041
妙光	-9.95062
佛知見	-9.95074
蟲	-9.95082
分三	-9.95154
漸漸	-9.95165
若見	-9.95202
依止	-9.95298
論中	-9.95316
眾中	-9.95322
婆沙	-9.95381
旁	-9.95559
無差	-9.95699
戲	-9.958
威	-9.95801
生疑	-9.95973
心法	-9.95979
迴向	-9.96108
經曰	-9.96233
教道	-9.96284
唱滅	-9.96371
二十五	-9.96376
文意	-9.96426
身中	-9.9644
回	-9.96455
不行	-9.96457
生善	-9.96642
有為	-9.9673
狀	-9.96768
眾多	-9.96785
三事	-9.96788
八部	-9.96827
天王	-9.96862
世諦	-9.9693
師曰	-9.96966
暢	-9.9698
空觀	-9.96989
植	-9.97019
方法	-9.97077
比丘尼	-9.97104
理一	-9.97264
拜	-9.97387
一門	-9.97406
真俗	-9.97414
法空	-9.97476
作此	-9.97487
龍樹	-9.9753
非有	-9.97576
修證	-9.97649
之前	-9.97653
若云	-9.9767
而復	-9.97702
夜叉	-9.97704
若得	-9.97705
下引	-9.97719
修多羅	-9.97733
一體	-9.97774
江	-9.97797
幸	-9.97799
走	-9.97817
下引證	-9.97824
二空	-9.97863
他土	-9.97948
束	-9.98037
能詮	-9.98093
殘	-9.98154
雖不	-9.9822
臺	-9.98269
集諦	-9.98317
歌	-9.9837
十方佛	-9.98539
十力	-9.98625
不變	-9.98681
天竺	-9.98707
入於	-9.98721
理觀	-9.98725
緣因	-9.98763
非無	-9.98765
宋	-9.98838
誘	-9.98852
負	-9.98889
調伏	-9.98927
迹中	-9.99041
不捨	-9.99047
避	-9.99094
娑婆世界	-9.99128
其文	-9.99168
兵	-9.99238
不肯	-9.99271
實報	-9.99443
錯	-9.99453
步	-9.99468
正為	-9.99508
出三界	-9.99552
饒益	-9.9957
下品	-9.9959
尚不	-9.99628
臥	-9.99632
觀之	-9.99635
心不	-9.99639
菩薩行	-9.99697
正宗	-9.99883
一百	-9.99883
約行	-9.99975
初果	-10.0001
煩	-10.0003
牽	-10.0011
行成	-10.0011
中根	-10.0012
眠	-10.0015
宮殿	-10.0019
所破	-10.0021
十妙	-10.0025
送	-10.0026
不立	-10.003
五人	-10.0034
人間	-10.0036
庶	-10.0038
藥草	-10.0042
楞嚴	-10.0045
位也	-10.0048
聞者	-10.0052
行處	-10.0052
此心	-10.0054
知其	-10.0057
守護	-10.007
便是	-10.0083
不實	-10.0094
保	-10.0101
十方諸佛	-10.0113
有六	-10.0119
結集	-10.0121
後二	-10.0126
尸	-10.0129
三因	-10.013
法師品	-10.0134
無垢	-10.0144
因此	-10.0149
真理	-10.0165
番	-10.0174
所聞	-10.0184
不作	-10.0187
無機	-10.0189
無所有	-10.0191
囑累	-10.0194
此間	-10.0195
盲	-10.0195
少分	-10.0201
哀	-10.0202
不久	-10.0203
略說	-10.0204
一云	-10.0205
教行	-10.0209
丈六	-10.0215
方得	-10.0218
巳後	-10.0218
本末	-10.0222
四生	-10.0223
之上	-10.0226
為欲	-10.023
本願	-10.0237
其相	-10.024
之類	-10.0243
梵語	-10.0244
濕	-10.0252
法故	-10.0261
三結	-10.0268
。(△	-10.0268
隨其	-10.0277
枝	-10.0284
諸根	-10.0284
)。△	-10.0288
笑	-10.0289
第二明	-10.0291
身口	-10.0298
第	-10.0309
證得	-10.0309
性具	-10.0311
不生不滅	-10.0316
等四	-10.0321
四義	-10.0324
鈔	-10.0329
時眾	-10.0333
問何故	-10.0333
得未曾有	-10.0334
一切諸	-10.0341
吉	-10.0347
加行	-10.0359
助道	-10.0366
不敢	-10.0375
大地	-10.038
貧	-10.0381
之別	-10.0381
博	-10.0389
習氣	-10.0391
侍	-10.0393
左	-10.041
乾	-10.0416
錢	-10.0421
惜	-10.0422
是一	-10.0424
觀於	-10.0424
冷	-10.0424
非不	-10.0442
履	-10.0442
佛地	-10.0445
前來	-10.0445
小機	-10.0455
明了	-10.0457
三初	-10.046
之外	-10.0462
狂	-10.0465
是權	-10.0467
不云	-10.0471
或言	-10.0477
鐵	-10.0478
髮	-10.048
能觀	-10.0486
書寫	-10.049
迴心	-10.0493
名色	-10.0494
所起	-10.0495
鹿	-10.0496
現行	-10.0497
約理	-10.0499
智力	-10.0506
善巧	-10.0511
得解	-10.0517
俱有	-10.0527
若於	-10.0528
而今	-10.0536
如幻	-10.0538
意謂	-10.0538
性惡	-10.0542
千二百	-10.0546
予	-10.0549
攬	-10.0553
沙彌	-10.0555
施權	-10.0557
塗	-10.0562
巳去	-10.0569
閑	-10.0572
金色	-10.0578
無窮	-10.0585
六根清淨	-10.0591
無疑	-10.0598
耶答	-10.0609
空假	-10.0613
釋論	-10.0615
七方便	-10.0625
珍寶	-10.063
若就	-10.064
喪	-10.0642
甞	-10.0648
之妙	-10.065
無上道	-10.0651
得度	-10.0652
未必	-10.0654
正道	-10.0655
遷	-10.0657
向上	-10.0658
等事	-10.0658
者即是	-10.0658
或說	-10.0659
春	-10.0666
兩句	-10.0672
緣生	-10.0673
皮	-10.0683
其名	-10.0684
巳得	-10.0685
名相	-10.0685
四德	-10.0686
又有	-10.0688
與佛	-10.0695
萬德	-10.0699
延	-10.07
懼	-10.0701
教相	-10.0711
方能	-10.0713
廣釋	-10.0718
本覺	-10.0737
以成	-10.0738
大道	-10.0741
▁六	-10.0752
同居	-10.0754
皆具	-10.0757
狗	-10.076
我見	-10.076
通塞	-10.0767
釋者	-10.0767
四十	-10.0767
童子	-10.0768
明矣	-10.0772
慈心	-10.078
得此	-10.0781
自身	-10.0782
未見	-10.0788
御	-10.0804
若非	-10.0805
不虛	-10.0811
殊勝	-10.0813
洞	-10.082
雙照	-10.0826
一音	-10.0826
無所畏	-10.0833
不入	-10.0835
開發	-10.0842
信心	-10.0854
父子	-10.0855
尺	-10.0856
即能	-10.086
三禪	-10.0862
即指	-10.0866
遙	-10.0868
老死	-10.0869
。【■	-10.0878
初頌	-10.0878
或見	-10.0882
洲	-10.0884
觀世音菩薩	-10.0885
巳下	-10.0885
融通	-10.089
為妙	-10.09
均	-10.0902
二偈頌	-10.0909
拂	-10.0913
驚怖	-10.0922
四智	-10.0933
護法	-10.0937
雷	-10.0939
噉	-10.0945
利物	-10.0945
此名	-10.0946
限	-10.0949
為宗	-10.095
常在	-10.0951
此事	-10.0959
章門	-10.0961
秘密	-10.0962
傾	-10.0966
活	-10.0966
樓	-10.0967
心體	-10.0974
不過	-10.0976
為難	-10.0986
所顯	-10.0987
莫不	-10.0988
合譬	-10.0991
教化眾生	-10.0994
顧	-10.1011
聞說	-10.1013
於後	-10.1014
三假	-10.1015
依此	-10.1016
八相	-10.1016
禁	-10.1022
無方	-10.1022
秋	-10.1027
參	-10.1028
世世	-10.103
性空	-10.1033
何別	-10.1038
眾人	-10.1043
此初也	-10.1048
仙人	-10.105
大智	-10.1055
憶	-10.1056
》,	-10.1056
四悉檀	-10.108
禮拜	-10.1082
前云	-10.1089
恒河沙	-10.109
受持讀誦	-10.1095
教理	-10.1111
三行	-10.1119
所觀	-10.1122
囑	-10.1128
大聖	-10.1129
三性	-10.1132
繼	-10.1135
來意	-10.1138
心無	-10.1139
獸	-10.114
遠近	-10.1146
乃以	-10.1153
百界	-10.1163
體性	-10.1166
後一	-10.1166
沉	-10.117
生於	-10.1174
五者	-10.1177
各具	-10.1179
有相	-10.1182
不是	-10.1184
初又二	-10.1186
閻浮提	-10.1187
清涼	-10.1193
乞食	-10.1201
院	-10.1208
齒	-10.1217
務	-10.1218
祕密	-10.1223
教也	-10.1229
充滿	-10.1232
諸人	-10.1237
能證	-10.1241
涅槃經	-10.1245
增上	-10.1246
蕩	-10.1253
答疏言	-10.1253
而後	-10.1255
閉	-10.1255
為果	-10.1255
園	-10.1261
中論	-10.1264
軍	-10.1272
真性	-10.1283
得佛	-10.1288
贊	-10.129
今欲	-10.1292
呵	-10.13
等三	-10.1305
機緣	-10.131
打	-10.1312
得菩提	-10.1313
二十四	-10.1327
應供	-10.133
教中	-10.1331
於法	-10.1331
所修	-10.1337
敢	-10.134
了知	-10.1341
如意	-10.1343
菩提心	-10.1344
勸信	-10.1349
羅剎	-10.1351
餘人	-10.1353
甚多	-10.1357
與前	-10.136
說法華經	-10.1364
衣服	-10.1372
此理	-10.1374
一行半	-10.1381
奇	-10.1389
於理	-10.1389
釋義	-10.1394
侍者	-10.14
義者	-10.1401
即為	-10.1401
斷常	-10.1407
是非	-10.1413
無想	-10.1415
大事	-10.142
師云	-10.142
尅	-10.1426
而成	-10.1426
智積	-10.1427
坐道場	-10.1427
胡	-10.1429
猶未	-10.1433
燈明	-10.1438
教法	-10.1444
澤	-10.1444
雖是	-10.1446
晉	-10.1453
通名	-10.1455
武	-10.1456
稱名	-10.1458
實無	-10.1465
下正明	-10.1468
榮	-10.1472
唯佛	-10.1474
通經	-10.1477
今從	-10.1487
未知	-10.1491
說是經	-10.1495
三途	-10.1501
一身	-10.1502
瑜伽	-10.151
得失	-10.1525
皆由	-10.1536
或以	-10.1538
其體	-10.1542
經典	-10.1547
與之	-10.1547
若聞	-10.155
常樂	-10.1552
無盡意	-10.1554
引經	-10.1556
今既	-10.1558
難解	-10.1565
而作	-10.1572
行菩薩道	-10.1573
危	-10.1574
研	-10.1579
極果	-10.1586
勝劣	-10.1589
各別	-10.16
豈得	-10.1603
一一皆	-10.1609
戲論	-10.1612
補處	-10.1616
擬宜	-10.1619
自證	-10.1621
自利	-10.1622
戰	-10.1623
何謂	-10.1626
俱是	-10.1626
成佛道	-10.1628
見者	-10.1635
如云	-10.1635
復以	-10.1638
能說	-10.1638
龍王	-10.1642
在後	-10.1643
頓漸	-10.1643
妙行	-10.1644
闡提	-10.1652
觀智	-10.1653
以方便	-10.1655
能發	-10.1655
知識	-10.166
磨	-10.1664
即前	-10.1666
大慈	-10.1667
化生	-10.1671
蘇	-10.1676
一佛	-10.1677
為是	-10.1678
中之	-10.168
一切諸佛	-10.168
三門	-10.1681
根塵	-10.1682
修羅	-10.1685
開三顯一	-10.1687
但明	-10.1688
聖道	-10.1701
出世間	-10.1708
夷	-10.1709
南無	-10.171
具有	-10.1718
更無	-10.1721
▁二明	-10.1728
略舉	-10.174
婦	-10.174
之實	-10.1747
令知	-10.1747
晝夜	-10.1747
受記	-10.1748
陰入	-10.175
三百	-10.1754
二約	-10.176
柔軟	-10.1764
乾闥婆	-10.1769
而自	-10.1773
無上菩提	-10.1775
其國	-10.1778
苦惱	-10.1778
真空	-10.1789
佛語	-10.179
得悟	-10.1797
最上	-10.1797
即假	-10.1799
高下	-10.1799
兩種	-10.18
汝今	-10.18
獨覺	-10.1804
促	-10.1804
問云	-10.1804
吐	-10.1807
諸師	-10.1809
辦	-10.1812
各異	-10.1816
初中	-10.1821
亦能	-10.1824
撿	-10.1826
孤	-10.1829
伴	-10.1832
無量劫	-10.1836
先釋	-10.1839
問佛	-10.1845
正覺	-10.1852
睡	-10.1852
三慧	-10.1858
今昔	-10.1862
禪師	-10.1863
醉	-10.187
幢	-10.1878
見聞	-10.1887
有門	-10.1888
下正釋	-10.1896
非想	-10.1909
以上	-10.191
圓人	-10.1915
飾	-10.1915
為他	-10.1928
令入	-10.1932
戒環曰	-10.1936
一千	-10.1936
開三	-10.1942
令他	-10.1949
慧命	-10.1953
所釋	-10.1955
不必	-10.1959
本具	-10.1968
一名	-10.197
眾苦	-10.1971
為五	-10.1974
實有	-10.1984
增減	-10.1992
樹下	-10.1997
不殊	-10.1998
撰	-10.1998
釋中	-10.1998
等文	-10.1999
諸見	-10.2004
下方	-10.2006
不二門	-10.2021
五千	-10.2026
威德	-10.2026
檢	-10.203
同也	-10.2032
涌出	-10.2037
能得	-10.2048
為證	-10.205
作意	-10.2051
墜	-10.2052
纔	-10.2056
無智	-10.2056
八識	-10.2057
惠	-10.2057
功用	-10.2057
登地	-10.2058
初問	-10.2062
在家	-10.2065
嚴飾	-10.2067
法眼	-10.2067
不別	-10.2069
輔	-10.2071
猶是	-10.2074
侵	-10.2076
齋	-10.2077
意言	-10.2084
儒	-10.2088
苦樂	-10.209
殿	-10.2091
萬億	-10.2103
始從	-10.2105
大教	-10.2109
從初	-10.211
居士	-10.212
雖同	-10.2122
覺觀	-10.2123
洗	-10.2125
正當	-10.2129
謹	-10.2132
孔	-10.2138
良以	-10.2141
身業	-10.2142
心所	-10.2147
入實	-10.2147
于時	-10.2151
三藏教	-10.216
正報	-10.2167
知此	-10.2167
蛇	-10.2177
而為說法	-10.218
悟入	-10.2187
吹	-10.219
之子	-10.2191
三一	-10.2191
脚	-10.22
無心	-10.2204
若謂	-10.2205
不無	-10.2205
格量	-10.2208
險	-10.221
我於	-10.221
六句	-10.2212
腹	-10.2219
何異	-10.222
不足	-10.2222
衰	-10.2223
十義	-10.2224
悉是	-10.2229
可謂	-10.2232
四天下	-10.2241
人民	-10.2242
萬法	-10.2244
修善	-10.2251
夫人	-10.2253
舍那	-10.2254
克	-10.2264
生法	-10.2274
說此	-10.2274
寫	-10.2284
能為	-10.2293
機感	-10.2297
秘	-10.2299
不堪	-10.2306
圍繞	-10.2312
廣略	-10.2313
注云	-10.2314
難陀	-10.2316
又見	-10.2317
臭	-10.2323
觀境	-10.2326
有人言	-10.2326
三障	-10.2328
無色界	-10.2333
試	-10.2335
)。」【【■	-10.2335
正顯	-10.234
六塵	-10.2345
其餘	-10.2348
今依	-10.235
一期	-10.2351
出於	-10.2352
所造	-10.2354
甘	-10.2359
諸佛如來	-10.236
此頌	-10.2377
勉	-10.2377
端正	-10.2378
盜	-10.2381
楞伽	-10.2382
品中	-10.2385
別有	-10.2385
說是	-10.2388
果上	-10.2391
爾時世尊欲重宣此義而說偈言	-10.2394
九地	-10.2396
快	-10.2397
校	-10.2399
是我	-10.2401
故使	-10.2401
一代	-10.2402
即具	-10.2402
在此	-10.2403
能成	-10.2405
受用	-10.241
諸有	-10.2411
佛滅度後	-10.2412
色身	-10.2412
轉教	-10.2415
門中	-10.2419
受苦	-10.2427
為能	-10.243
體是	-10.2432
自體	-10.2433
以證	-10.2437
之樂	-10.2439
墨	-10.244
無因	-10.2444
卒	-10.2448
譬上	-10.245
竹	-10.2451
且約	-10.2451
更不	-10.2454
斷見	-10.2455
祕	-10.2455
顯一	-10.2456
孝	-10.2456
於大	-10.2457
二文	-10.2459
三段	-10.2464
諸善男子	-10.2465
經意	-10.2465
定性	-10.2468
起塔	-10.2469
義通	-10.2473
混	-10.2474
空有	-10.2475
佛教	-10.2477
六波羅蜜	-10.2488
妙理	-10.2489
用也	-10.2489
因也	-10.2496
乏	-10.2497
竊	-10.25
受生	-10.25
瞋恚	-10.2503
繩	-10.2503
圓妙	-10.2504
難信	-10.2504
後世	-10.2505
處所	-10.2508
同歸	-10.2512
成論	-10.2513
開示悟入	-10.2516
▁初標	-10.2517
三請	-10.2526
乃云	-10.2529
則非	-10.2534
即現	-10.2535
益物	-10.2544
以彼	-10.2545
而來	-10.2546
未聞	-10.2547
鶖子	-10.255
觧	-10.255
中明	-10.2556
之門	-10.2556
當來	-10.2562
長遠	-10.2575
五章	-10.2575
二云	-10.2579
柱	-10.2586
何意	-10.2586
上明	-10.2589
惡人	-10.259
而行	-10.259
修因	-10.2591
之地	-10.2593
之辭	-10.2599
未曾有	-10.2599
野	-10.26
練	-10.26
十方世界	-10.2607
見惑	-10.261
離欲	-10.2612
不通	-10.2616
法華三昧	-10.2616
不當	-10.2618
房	-10.2622
發明	-10.2624
沙門瞿曇	-10.2627
所為	-10.2627
化眾生	-10.263
斷結	-10.2631
聲聞緣覺	-10.2636
慳	-10.2636
迷悟	-10.2637
無量義經	-10.2644
恨	-10.2645
根鈍	-10.2646
成正覺	-10.2648
逼	-10.2656
方乃	-10.2656
或時	-10.2658
以喻	-10.2662
▁初正	-10.2663
金光明	-10.2668
不達	-10.2668
勸持	-10.2669
阿僧祇	-10.2673
有八	-10.268
實際	-10.2681
皆從	-10.2682
於一切	-10.2685
佛之知見	-10.2687
初一行	-10.2703
伽耶	-10.2708
則能	-10.2713
惡趣	-10.2718
▁初約	-10.2726
但言	-10.273
心者	-10.2739
事須	-10.2741
全體	-10.2746
止觀云	-10.2751
牙	-10.2752
瓶	-10.2754
上慢	-10.2759
天上	-10.2763
筆	-10.2764
機應	-10.2765
攝一切	-10.2766
鄙	-10.2771
樂欲	-10.2774
總標	-10.2781
亦同	-10.2783
四一	-10.2787
疏中	-10.2793
若據	-10.2793
寶藏	-10.2796
封	-10.2796
崇	-10.2798
三意	-10.2808
降伏	-10.281
覓	-10.2816
當時	-10.2817
有七	-10.2821
能化	-10.2823
頓教	-10.2825
既言	-10.283
下是	-10.2831
般涅槃	-10.2842
力故	-10.2852
同前	-10.2855
當得	-10.286
得解脫	-10.2865
本性	-10.2868
五塵	-10.2882
亦通	-10.2882
遊戲	-10.2885
即無	-10.2887
之權	-10.2889
下合	-10.2892
欲得	-10.2896
述成	-10.2898
十六王子	-10.2899
而作是言	-10.2899
但為	-10.2901
慧眼	-10.2903
屈	-10.2906
行法	-10.2907
掌	-10.2913
又此	-10.2916
說偈	-10.2919
正念	-10.2935
三惑	-10.2938
不待	-10.2939
神通力	-10.2945
深心	-10.2953
今取	-10.2959
肉眼	-10.2959
▁初頌	-10.296
二名	-10.2976
相望	-10.298
之大	-10.298
所立	-10.2982
義當	-10.2982
響	-10.2986
臂	-10.2988
察	-10.2991
寂然	-10.3001
出宅	-10.3002
其數	-10.3002
答云	-10.3008
三軌	-10.3008
五法	-10.3012
▁二答	-10.3013
觀成	-10.3014
優	-10.3014
潛	-10.3017
自巳	-10.302
解說	-10.3021
證道	-10.3023
體同	-10.303
五支	-10.3031
之初	-10.3036
所感	-10.3037
仁王	-10.3041
別義	-10.3044
朽	-10.3047
隨宜	-10.3051
索車	-10.3052
隣	-10.3064
不自	-10.3065
兩教	-10.3067
六十	-10.3067
結前	-10.3072
本地	-10.3074
無分別	-10.3074
意業	-10.3076
則以	-10.3078
餘二	-10.3079
諸聲聞	-10.3081
若有眾生	-10.3087
又問	-10.3089
何能	-10.3089
等法	-10.3093
舊云	-10.3096
其事	-10.3097
之失	-10.3098
詩	-10.3104
一切處	-10.3108
具三千	-10.3108
薀	-10.312
欲以	-10.312
之要	-10.3121
纏	-10.3121
自說	-10.3131
今但	-10.3137
即知	-10.3138
不次第	-10.3141
是真	-10.3141
相見	-10.3144
度眾生	-10.3152
此身	-10.3154
難得	-10.3155
為權	-10.316
得涅槃	-10.3161
有學	-10.3166
空門	-10.3169
正意	-10.3176
滋	-10.3178
其理	-10.3188
在前	-10.3194
澄	-10.3195
優劣	-10.3196
行行	-10.3197
昇	-10.3197
銷	-10.3197
考	-10.3198
其本	-10.3198
流轉	-10.32
漏盡	-10.3202
而去	-10.321
煖	-10.3213
貌	-10.3215
一理	-10.3216
飯	-10.3218
應須	-10.3219
無生滅	-10.3222
妻	-10.3226
大通	-10.3228
妙也	-10.3228
逮	-10.3235
以由	-10.3238
法華論	-10.324
攝取	-10.3241
久住	-10.3241
異故	-10.3242
勝鬘	-10.3245
緩	-10.3245
▁二又	-10.3245
學人	-10.3254
皆名為	-10.3255
正以	-10.3262
拔苦	-10.3264
以是因緣	-10.3266
假觀	-10.3266
震	-10.3269
方等般若	-10.3272
一剎那	-10.3274
顯現	-10.3286
真心	-10.329
伊	-10.3291
前四	-10.3295
宣說	-10.3295
嫌	-10.3298
文略	-10.3303
相狀	-10.3307
不依	-10.332
盈	-10.3322
自行化他	-10.3324
即法身	-10.333
不違	-10.3331
此一	-10.3334
則成	-10.3339
愛見	-10.334
此為	-10.3342
卑	-10.3347
乃成	-10.3348
此以	-10.3351
恚	-10.3354
▁初問	-10.3354
大品云	-10.3356
故成	-10.3358
籤	-10.3359
所表	-10.3372
怪	-10.3374
令人	-10.3375
聞佛	-10.3382
與授記	-10.3385
有四種	-10.339
猶有	-10.3391
相攝	-10.3391
三果	-10.3396
常行	-10.3398
覽	-10.3402
弗	-10.3404
案	-10.3404
孰	-10.3406
理具	-10.341
我身	-10.3414
問何名	-10.3416
知是	-10.3419
歸依	-10.342
百年	-10.3423
席	-10.3425
當分	-10.3428
而言之	-10.3431
一塵	-10.3432
既知	-10.3432
裂	-10.3437
為顯	-10.3444
有佛性	-10.3446
理即	-10.3446
論之	-10.345
才	-10.3452
化物	-10.3454
無生忍	-10.3455
最為	-10.3458
阿修羅	-10.3459
不曉	-10.3461
解云	-10.3463
之一	-10.3467
門者	-10.3469
兩行	-10.347
法施	-10.3472
具三	-10.3474
五義	-10.3474
等是	-10.3481
聚落	-10.3484
當得作佛	-10.3487
畫	-10.3488
闍	-10.3494
例如	-10.3496
為義	-10.3496
秪	-10.3503
地持	-10.3505
佛以	-10.3507
正行	-10.3508
雖然	-10.3509
二意	-10.351
度生	-10.3511
若不爾者	-10.3512
淨名云	-10.3514
福田	-10.3516
眾經	-10.352
我當	-10.3521
權教	-10.3521
上中下	-10.3527
我聞	-10.3532
見其	-10.3533
得成佛	-10.3539
但約	-10.3548
佛知	-10.355
此教	-10.3558
名同	-10.3559
讓	-10.3562
十門	-10.3563
一佛乘	-10.3565
所出	-10.3566
故先	-10.3567
作是	-10.3567
今當	-10.357
俱生	-10.3573
願力	-10.3585
岸	-10.3596
疏文	-10.3597
釋也	-10.3598
名號	-10.3601
大慈悲	-10.3602
條	-10.3602
答中	-10.3603
經說	-10.3607
品云	-10.3607
虛妄	-10.3613
見諦	-10.3618
所以然者	-10.3619
方便說	-10.3621
惡世	-10.3621
藏教	-10.3624
出現於世	-10.3625
疑惑	-10.3625
之間	-10.3626
阿逸多	-10.3633
逆順	-10.3636
令彼	-10.3638
初正	-10.3639
碎	-10.3639
偈中	-10.3651
而修	-10.3659
莊	-10.3659
法爾	-10.3661
二初明	-10.3663
何法	-10.3668
位中	-10.3669
陳如	-10.3672
實法	-10.3673
一界	-10.3678
生信	-10.3679
諸禪	-10.3682
婬	-10.3684
中觀	-10.3692
競	-10.3703
戒定慧	-10.3704
能作	-10.3714
三乘人	-10.3718
六趣	-10.3726
之徒	-10.3729
竭	-10.3729
是別	-10.3735
今且	-10.3735
體也	-10.3739
口業	-10.3741
無益	-10.3746
以方便力	-10.3752
息化	-10.3756
觀門	-10.3762
遭	-10.3769
之始	-10.3773
往昔	-10.3779
身土	-10.3779
弘誓	-10.378
即名	-10.3785
說於	-10.3785
對於	-10.3786
烏	-10.3787
可說	-10.3788
不一	-10.379
如前說	-10.3791
佛滅後	-10.3792
妙法華經	-10.3799
出離	-10.3804
▁初正釋	-10.3808
聞慧	-10.3815
二教	-10.3817
寸	-10.3818
禪門	-10.3819
全無	-10.3822
以對	-10.3823
誹謗	-10.3827
憍	-10.3831
非有非無	-10.3835
若知	-10.3836
枯	-10.3837
萬物	-10.3841
爭	-10.3841
天地	-10.3846
巳前	-10.3848
何必	-10.3849
既以	-10.385
為佛	-10.3855
劫數	-10.3857
橫豎	-10.3862
倚	-10.3862
常為	-10.3862
皆能	-10.3866
後三	-10.3867
刻	-10.3867
阿僧祇劫	-10.3872
屬於	-10.3875
放逸	-10.3875
皇	-10.3882
」。「	-10.3884
終至	-10.3886
亦具	-10.3886
五住	-10.3892
馳	-10.3895
序品	-10.3899
依於	-10.39
明之	-10.3902
用此	-10.3903
九品	-10.3906
盖	-10.3908
巳竟	-10.3918
遵	-10.3919
甲	-10.392
縱橫	-10.3922
小果	-10.3945
半滿	-10.3947
荷	-10.3947
須陀洹	-10.3949
即中	-10.3958
求法	-10.3959
能以	-10.3961
一雙	-10.3963
相貌	-10.3964
尊重	-10.3967
之緣	-10.3968
正智	-10.3973
別相	-10.3973
四聖	-10.3978
梵志	-10.3981
體相	-10.3987
穢土	-10.3991
種種因緣	-10.3992
能治	-10.3993
枝葉	-10.3995
光照	-10.3996
灰	-10.3996
小大	-10.3999
族	-10.4003
漸次	-10.4003
今說	-10.4003
五戒	-10.4009
調達	-10.4009
事也	-10.4016
能斷	-10.4017
之曰	-10.4018
如法	-10.4031
值佛	-10.4032
度脫	-10.4037
不唯	-10.4045
一卷	-10.4054
粗	-10.4057
令眾生	-10.4061
意根	-10.4066
始自	-10.4068
因行	-10.4068
譬喻品	-10.407
此十	-10.4088
二合	-10.4095
緊那羅	-10.4101
不分	-10.4107
本事	-10.4107
聖行	-10.4108
智照	-10.4116
見此	-10.4118
个	-10.4119
身見	-10.412
為真	-10.4121
四十年前	-10.4121
起於	-10.413
將來	-10.413
又言	-10.4131
薰	-10.414
此皆	-10.4145
不令	-10.4146
而立	-10.4148
故於	-10.4149
油	-10.4149
此說	-10.4159
為所	-10.4161
空假中	-10.4162
故經云	-10.4167
之苦	-10.4167
別論	-10.4172
我心	-10.4172
床	-10.4173
即時	-10.4174
於我	-10.4176
不修	-10.4177
彼文	-10.4188
之殊	-10.4189
上界	-10.4191
維	-10.4192
法智	-10.4194
猛	-10.4194
今約	-10.4195
高廣	-10.4199
安立	-10.4199
摧	-10.4201
覺悟	-10.4206
是方便	-10.4207
一念心	-10.4214
佛世	-10.4214
絕言	-10.4219
如止觀	-10.4222
事相	-10.4223
咎	-10.4223
但說	-10.4223
異也	-10.4228
大菩薩	-10.4229
號曰	-10.423
今為	-10.4233
賤	-10.4235
發大心	-10.4235
毘	-10.424
次位	-10.424
為門	-10.4242
過患	-10.4249
觀此	-10.4252
異熟	-10.4252
焰	-10.4257
就此	-10.4258
免難	-10.4258
皆同	-10.4268
圓觀	-10.4271
優婆塞	-10.4273
無失	-10.4275
生生	-10.4276
;「	-10.4276
法行	-10.4283
撮	-10.4283
上人	-10.4284
世俗	-10.4289
焚	-10.4291
坐禪	-10.4293
尚無	-10.4298
鑒	-10.4307
心念	-10.4309
聞之	-10.431
轍	-10.4317
習因	-10.4319
壽量品	-10.432
)。○	-10.4328
如華嚴	-10.4333
異者	-10.4336
所發	-10.4341
領上	-10.4344
輒	-10.4346
如斯	-10.4347
二觀	-10.4348
中初	-10.4348
有所得	-10.435
化儀	-10.4351
初總	-10.4353
當教	-10.4354
解行	-10.4361
斷煩惱	-10.4363
顯本	-10.4363
二千	-10.4364
亦即	-10.4364
述其	-10.4371
二百	-10.4373
信行	-10.4374
通途	-10.4381
上上	-10.4382
彼土	-10.4384
不從	-10.4384
與樂	-10.439
得其	-10.4391
次結	-10.4392
【	-10.4398
但得	-10.4401
後心	-10.4401
二十五有	-10.4404
都無	-10.4405
何妨	-10.4406
修慧	-10.441
與其	-10.4415
成熟	-10.442
四倒	-10.4422
十二部	-10.4425
此解	-10.4427
我所	-10.4429
肩	-10.443
何為	-10.4435
後文	-10.4438
忽然	-10.4438
後明	-10.4445
佛出世	-10.4448
一經	-10.445
之流	-10.4452
羊	-10.4454
或可	-10.4454
給	-10.4455
勝處	-10.4457
諸煩惱	-10.4458
顯露	-10.4459
俾	-10.4459
供佛	-10.4468
為性	-10.4468
宿世	-10.4468
而已	-10.4469
為勝	-10.4469
今問	-10.447
行位	-10.4474
能顯	-10.4477
佗	-10.4478
以譬	-10.4479
昭	-10.4481
巨	-10.4488
心王	-10.4489
是同	-10.4489
知之	-10.4492
二死	-10.4492
雨華	-10.4495
十境	-10.4498
眾德	-10.4502
聲聞人	-10.4503
佛在	-10.4504
言我	-10.4506
二果	-10.451
得無生忍	-10.451
初二句	-10.4516
史	-10.4517
栴檀	-10.452
荊谿	-10.4523
隋	-10.4525
大小乘	-10.4528
受化	-10.4528
。」【(△	-10.4533
停	-10.4537
道者	-10.4538
意云	-10.4538
外無	-10.4543
一義	-10.4545
中言	-10.4547
律儀	-10.4549
彌陀	-10.4553
尤	-10.4554
相生	-10.4555
修惡	-10.4561
根利	-10.4562
其有	-10.4564
現見	-10.4568
難思	-10.4572
曠	-10.4572
示相	-10.4574
梵音	-10.4575
神變	-10.4576
供養佛	-10.4578
箇	-10.4579
不但	-10.458
處也	-10.458
牛車	-10.458
二身	-10.4582
時有	-10.4588
於他	-10.4589
友	-10.459
歸一	-10.459
千萬億	-10.4593
師子吼	-10.4599
之益	-10.4603
能感	-10.4604
國名	-10.4606
憶念	-10.4609
價	-10.4609
採	-10.4612
冀	-10.4613
今之	-10.4623
修德	-10.4626
添	-10.4629
眾寶	-10.4633
三十七品	-10.4634
披	-10.4642
次別	-10.4644
隆	-10.4646
疑悔	-10.465
騰	-10.4651
同於	-10.4653
八種	-10.4654
始末	-10.4654
分證	-10.4656
格	-10.466
盧	-10.4665
湯	-10.4668
瞻	-10.4671
外凡	-10.4677
寂照	-10.4677
數息	-10.4679
破戒	-10.4683
無所得	-10.4691
之極	-10.4693
如今	-10.4694
南嶽	-10.4699
初文者	-10.4702
千萬	-10.4706
妙樂	-10.471
財物	-10.471
五句	-10.4715
法藏	-10.4718
以論	-10.4722
併	-10.4729
捉	-10.473
之義也	-10.4732
有佛	-10.4734
以一	-10.4736
初三	-10.4741
為我	-10.4743
評	-10.4746
亦為	-10.4751
所居	-10.4751
無人	-10.4754
言其	-10.4757
勝妙	-10.476
我為	-10.4761
雪山	-10.4763
文句云	-10.4767
苦果	-10.4767
文為二	-10.477
其父	-10.4776
僧祇	-10.4786
率	-10.4787
也然	-10.4789
尾	-10.479
為其	-10.479
欺	-10.4792
三十六	-10.4796
次文	-10.48
華嚴經	-10.4803
▁三結	-10.4803
前之	-10.4809
無殊	-10.4812
亦名為	-10.4814
樂說	-10.4818
為喻	-10.4821
言語	-10.4821
遲	-10.4824
是大	-10.4824
三土	-10.4824
所照	-10.4828
以示	-10.4833
來者	-10.4836
能除	-10.484
生老病死	-10.4847
謙	-10.4847
下文云	-10.4849
裏	-10.4851
若在	-10.4859
喻說	-10.4861
諸苦	-10.4862
初云	-10.487
理事	-10.4872
即理	-10.4872
諦觀	-10.4878
入假	-10.4879
聖教	-10.4881
妙樂云	-10.4891
孫	-10.4893
經家	-10.4896
而出	-10.4899
雖未	-10.4901
故不可	-10.4904
今意	-10.4908
之內	-10.4909
勸發	-10.4912
鄉	-10.4914
或是	-10.4915
既得	-10.492
方可	-10.4921
災	-10.4923
初一	-10.4924
亦乃	-10.4934
同是	-10.4939
他國	-10.4942
羣	-10.4947
十卷	-10.495
聽受	-10.495
能起	-10.4954
示之	-10.4958
說有	-10.4959
三轉	-10.4963
四意	-10.4964
佛自	-10.4964
般若波羅蜜	-10.4964
應是	-10.4968
與今	-10.4969
等賜	-10.497
泉	-10.4972
排	-10.4973
營	-10.4974
頌云	-10.4975
多有	-10.498
能忍	-10.4984
如向	-10.4985
是如來	-10.4988
衣食	-10.4988
下去	-10.499
當作佛	-10.4991
惱亂	-10.4992
須臾	-10.4993
雖云	-10.4995
但見	-10.5
一諦	-10.5
育	-10.5002
丈	-10.5007
多寶佛	-10.501
解者	-10.5014
三番	-10.5016
用觀	-10.5024
輙	-10.5029
今者	-10.5031
頃	-10.5032
凝	-10.5041
有三義	-10.5042
伐	-10.5046
白佛	-10.5049
理智	-10.5049
宿王華	-10.5055
為第一	-10.5057
曜	-10.5058
破壞	-10.5059
苑	-10.506
顯於	-10.506
且如	-10.5062
嫉	-10.5064
以來	-10.507
將欲	-10.5071
抱	-10.5071
四弘	-10.5081
繫珠	-10.5086
初品	-10.509
所應	-10.5094
諸佛世尊	-10.5096
嘉	-10.5101
又三	-10.5103
省	-10.5105
信者	-10.5106
一心三觀	-10.5109
治病	-10.5109
二別	-10.511
隨情	-10.5111
迦樓羅	-10.5113
勤修	-10.5117
一劫	-10.5117
三四	-10.5122
信解品	-10.5126
六識	-10.5135
萬八千	-10.5139
說三	-10.5139
別故	-10.5147
常樂我淨	-10.5152
見之	-10.5154
獲益	-10.5154
五百由旬	-10.5155
誑	-10.5156
列名	-10.5158
得阿耨多羅三藐三菩提	-10.5158
豐	-10.5161
中二先	-10.5162
喜見	-10.5163
中三	-10.5165
妙觀	-10.5166
名大	-10.5169
即當	-10.518
九想	-10.5181
既非	-10.5187
觀照	-10.5188
生時	-10.5191
求佛道	-10.5194
戒取	-10.5195
那得	-10.5203
因緣故	-10.5205
二萬	-10.5215
手足	-10.5219
下判	-10.5226
奏	-10.5232
怒	-10.5233
文雖	-10.5234
罪福	-10.5235
開悟	-10.5235
皆不	-10.5237
或作	-10.5241
但取	-10.5243
時也	-10.525
慚愧	-10.5252
鷲	-10.5254
法譬	-10.5254
門外	-10.5255
童	-10.5257
唯取	-10.5259
先列	-10.5259
殷勤	-10.526
所現	-10.5265
十二緣	-10.5265
果德	-10.5267
諸位	-10.5269
不轉	-10.5273
所由	-10.5274
安穩	-10.5276
柔	-10.5278
我滅度後	-10.5279
後方	-10.528
三釋	-10.528
g	-10.5286
m	-10.5286
由旬	-10.5287
生處	-10.5288
結云	-10.529
若觀	-10.529
通明	-10.5291
楚	-10.5292
畢竟空	-10.5294
智德	-10.5294
從佛	-10.5299
家業	-10.5303
釋經	-10.5309
末世	-10.5312
休	-10.5314
下正	-10.5316
i	-10.5317
眼根	-10.5322
別名	-10.5326
以何因緣	-10.5327
弟	-10.5336
四住	-10.5337
彈指	-10.5339
斷德	-10.5347
<	-10.535
迎	-10.5353
有緣	-10.5353
五眼	-10.5353
振	-10.5354
四事	-10.5354
使人	-10.5357
當知是人	-10.536
稟教	-10.5365
未入	-10.5369
怠	-10.5373
境也	-10.5373
本意	-10.5375
一明	-10.5376
唯是	-10.5376
括	-10.5378
二經	-10.5378
三世諸佛	-10.538
勝應	-10.538
華香	-10.5381
得成	-10.5381
者何	-10.5384
蘭	-10.5384
雖殊	-10.5385
南方	-10.5396
利生	-10.5401
和尚	-10.5402
約事	-10.5402
全身	-10.5404
依他	-10.5404
作佛事	-10.5404
皆屬	-10.5408
何也	-10.5411
憍慢	-10.5411
求佛	-10.5414
或現	-10.5416
以佛	-10.5417
眉	-10.5417
起行	-10.5419
恣	-10.5421
未生	-10.5423
茶	-10.5435
四時	-10.5437
身命	-10.544
了達	-10.5442
用之	-10.545
能照	-10.5452
微細	-10.5456
彼岸	-10.5457
難可	-10.5458
悉檀	-10.5459
學無學	-10.5464
第三句	-10.5465
所說法	-10.5474
何獨	-10.5476
雅	-10.5477
釋上	-10.5477
有二意	-10.5479
十二部經	-10.548
皆空	-10.5485
而入	-10.5486
四人	-10.549
所燒	-10.5493
䟦	-10.5498
大體	-10.5505
後得智	-10.5506
十號	-10.5508
四分	-10.551
規	-10.5511
回向	-10.5511
六行	-10.5511
測	-10.5514
不即	-10.5515
貪愛	-10.5517
遊行	-10.5521
山林	-10.5527
能滅	-10.5528
即入	-10.5529
一字	-10.5532
不忘	-10.5533
註云	-10.5534
亦當	-10.5535
佛種	-10.5545
瘡	-10.5546
三佛	-10.5546
名無	-10.5549
諸部	-10.5551
輕重	-10.5554
翻為	-10.5555
不獨	-10.5556
四頌	-10.5556
法雨	-10.5559
諸大菩薩	-10.5568
一道	-10.5571
過於	-10.5574
能入	-10.5587
釋迦牟尼	-10.5589
台	-10.5596
游	-10.5601
消文	-10.5608
曾見	-10.5609
觀也	-10.561
紹	-10.5611
記中	-10.5611
第四句	-10.5614
家之	-10.5616
持經者	-10.5617
諸功德	-10.5619
別也	-10.562
八苦	-10.5624
一番	-10.5626
示其	-10.5626
當以	-10.5629
論師	-10.5632
泛	-10.5632
天親	-10.5634
恭	-10.5635
約位	-10.5636
頻	-10.5641
取著	-10.5643
非法	-10.5643
□	-10.5643
淫	-10.5649
一類	-10.5652
教主	-10.5656
汝當	-10.5657
則曰	-10.5658
能具	-10.566
釋尊	-10.5665
深妙	-10.5666
理也	-10.567
獻	-10.5671
破之	-10.5672
重頌	-10.5673
一化	-10.5677
穴	-10.5679
眼見	-10.568
顯理	-10.568
如來滅後	-10.5682
火起	-10.5687
四教義	-10.5688
故但	-10.5689
見佛性	-10.569
古佛	-10.569
糞	-10.57
言無	-10.5702
四依	-10.5702
理體	-10.5709
所乘	-10.5709
乃至云	-10.5709
下劣	-10.5713
正助	-10.5714
我及	-10.5716
空無	-10.5716
總相	-10.5716
軟	-10.5724
不易	-10.5726
轉輪聖王	-10.5727
分真	-10.573
具四	-10.573
聞巳	-10.5733
辱	-10.5736
峯	-10.5738
墮落	-10.5743
更加	-10.5743
大德	-10.5744
快樂	-10.5745
全是	-10.5745
雖知	-10.5746
約法	-10.5747
此語	-10.5751
今更	-10.5753
依經	-10.576
勇猛	-10.5768
所在	-10.5771
北方	-10.5773
稽首	-10.5773
憂惱	-10.5773
師弟	-10.5778
疑也	-10.5781
衍	-10.5791
三菩提	-10.5792
華嚴云	-10.5796
翻譯	-10.5797
頓悟	-10.5799
不假	-10.58
辨異	-10.5802
杖	-10.5811
互融	-10.5812
古師	-10.5818
修得	-10.5825
探	-10.5829
不破	-10.5837
紀	-10.5839
炬	-10.5841
異於	-10.5844
管	-10.5846
忻	-10.5849
無以	-10.585
作念	-10.585
實理	-10.5851
▁初分科	-10.5855
後之	-10.5856
伎樂	-10.5858
第一義諦	-10.5866
四天王	-10.5867
諦理	-10.5871
萬善	-10.5871
善心	-10.5874
地上	-10.5874
今亦	-10.5874
兩處	-10.5877
已來	-10.5879
見子	-10.5894
於空	-10.5895
善知	-10.5898
刀杖	-10.5899
中無	-10.59
無染	-10.5901
權實二智	-10.5909
不現	-10.5909
能解	-10.5909
式	-10.5911
會中	-10.5911
於佛前	-10.5913
所住	-10.5914
後得	-10.5914
商	-10.5916
現瑞	-10.5918
人所	-10.5919
麤妙	-10.5924
文相	-10.5924
初言	-10.5927
合為	-10.5927
其子	-10.5933
不止	-10.5936
域	-10.5937
爾時佛告	-10.5938
邪正	-10.594
無實	-10.594
船	-10.594
耳根	-10.5952
長夜	-10.5954
且從	-10.5954
得之	-10.5956
能於	-10.5957
而不知	-10.5957
二俱	-10.5959
前五	-10.5964
略示	-10.5966
久近	-10.5966
自是	-10.5969
較	-10.5974
小劫	-10.5978
政	-10.5979
是果	-10.5987
百千萬	-10.5987
一如	-10.5995
真應	-10.6001
大樹	-10.601
六地	-10.601
丈夫	-10.6013
華德	-10.6014
二初頌	-10.6015
普賢菩薩	-10.6016
割	-10.6017
若說	-10.6018
無量眾生	-10.602
是所	-10.6028
性故	-10.603
妄語	-10.603
梵云	-10.6033
勇	-10.6035
天台云	-10.6035
即空假中	-10.6038
耆	-10.6039
化佛	-10.6039
論其	-10.604
君子	-10.6041
下別	-10.6042
離於	-10.6045
雪	-10.6045
我亦	-10.6045
入佛知見	-10.6053
為十	-10.6061
七覺	-10.6064
如水	-10.6071
頓頓	-10.6073
六通	-10.6073
化作	-10.6077
白牛	-10.6078
證理	-10.6082
施化	-10.6083
不來	-10.6087
其佛	-10.6095
歎德	-10.6096
佛答	-10.6096
欲明	-10.61
別者	-10.61
力用	-10.6102
定心	-10.6103
分齊	-10.611
虎	-10.6111
無過	-10.6113
往來	-10.6116
攝法	-10.6118
二十一	-10.6119
大旨	-10.6121
不樂	-10.6121
已下	-10.6121
八百	-10.6123
頌中	-10.6124
智度論	-10.6125
瑞相	-10.6127
進退	-10.6128
今得	-10.613
欲求	-10.6132
逾	-10.6134
文旨	-10.6134
體即	-10.6135
種類	-10.6136
泰	-10.6137
艸	-10.6139
如意珠	-10.6142
不疑	-10.6142
散亂	-10.6142
朗	-10.6143
大化	-10.6144
譬中	-10.6147
末代	-10.6147
勒	-10.6147
渴	-10.6148
方知	-10.6148
本懷	-10.6149
假使	-10.615
佛所說	-10.615
薪	-10.6151
起教	-10.6154
境觀	-10.6159
四相	-10.6163
無數劫	-10.6166
毗曇	-10.6169
證果	-10.6175
處中	-10.6175
八千	-10.6176
此諸	-10.6179
嚴淨	-10.618
此法華經	-10.6181
應有	-10.6181
佛出	-10.6182
闡	-10.6182
思惑	-10.6184
出水	-10.6196
釋此	-10.6198
二地	-10.62
安得	-10.6203
受潤	-10.6205
五逆	-10.6206
晚	-10.6214
勸修	-10.6214
皆非	-10.6215
三約	-10.6215
奢	-10.6215
四初	-10.6215
三分	-10.6216
入者	-10.6217
諸大眾	-10.6227
頗	-10.6235
名通	-10.6237
三時	-10.6238
圓通	-10.6244
金銀	-10.6248
摩羅	-10.6253
▁初列	-10.6254
醜	-10.6254
以表	-10.6254
引文	-10.6259
以大	-10.6261
此正	-10.6263
所得功德	-10.6267
今則	-10.6268
為方便	-10.627
深遠	-10.6274
其間	-10.6274
不定性	-10.6274
魔王	-10.6275
略釋	-10.6279
此五	-10.6279
白佛言世尊	-10.628
伸	-10.6285
二答	-10.6287
相成	-10.6287
轉輪王	-10.63
南山	-10.63
妙智	-10.6302
四百	-10.6302
繞	-10.6303
逼迫	-10.6304
如理	-10.6307
戶	-10.6308
外境	-10.6308
雄	-10.631
二十七	-10.631
左右	-10.6314
小教	-10.6315
之物	-10.6316
南岳	-10.6321
暴	-10.6322
屋	-10.6323
乃可	-10.6323
淵	-10.6325
故令	-10.6325
冬	-10.6326
破惑	-10.6326
教觀	-10.6334
彼彼	-10.634
變為	-10.634
約此	-10.6341
薩	-10.6348
若此	-10.6355
道種智	-10.6362
之主	-10.6363
何但	-10.6363
眾生心	-10.6366
乃能	-10.6367
言此	-10.6369
施設	-10.6373
潔	-10.6375
為境	-10.6382
攝受	-10.6386
二處	-10.6387
但名	-10.6395
明佛	-10.6398
日光	-10.6406
王三昧	-10.6408
深淺	-10.6415
銅	-10.6419
妙經	-10.6424
令我	-10.6424
側	-10.6425
此處	-10.6426
䇿	-10.643
為首	-10.6433
西域	-10.6433
乍	-10.6436
五百人	-10.6439
云何名	-10.6443
身相	-10.6445
不絕	-10.6445
之一字	-10.6447
斯經	-10.6451
不融	-10.6452
別立	-10.6456
今聞	-10.6457
是其	-10.6458
陰界入	-10.6458
良醫	-10.6461
羅睺羅	-10.6461
法愛	-10.6461
此譬	-10.6469
生空	-10.647
方是	-10.6471
匠	-10.6471
或曰	-10.6472
楊	-10.6473
如我	-10.6473
發真	-10.6475
魏	-10.6476
能造	-10.6481
次從	-10.6482
一地	-10.6482
計我	-10.6483
即真	-10.6488
琉璃	-10.6493
經卷	-10.6497
若望	-10.6499
法喻	-10.6499
百劫	-10.6505
心為	-10.6509
各得	-10.6514
谷	-10.6518
理無	-10.652
內凡	-10.652
於其	-10.6523
遙見	-10.6525
覺知	-10.6528
中有三	-10.6529
信力	-10.6531
樂小法	-10.6533
炎	-10.6535
約人	-10.6539
燒香	-10.6539
散心	-10.6539
義理	-10.6541
得大	-10.6541
為求	-10.6545
見有	-10.6546
隨意	-10.6547
場	-10.6549
不可盡	-10.655
意同	-10.6552
中先	-10.6552
得大勢	-10.6554
無諦	-10.6556
之意也	-10.6557
心境	-10.6558
若準	-10.6559
不有	-10.656
心行	-10.656
天龍	-10.6561
理實	-10.6562
自生	-10.6567
空故	-10.6567
中品	-10.6568
共相	-10.6568
但舉	-10.6569
讚佛	-10.657
復云	-10.6571
又前	-10.6578
人說	-10.6579
素	-10.658
約義	-10.6581
之過	-10.6582
是法華經	-10.6589
中下	-10.6594
之有	-10.6596
第三明	-10.6599
非道	-10.6607
皆當	-10.6608
正頌	-10.661
是苦	-10.6615
兩字	-10.6617
四趣	-10.6628
鑑	-10.6632
八品	-10.6637
從本	-10.6638
位次	-10.6638
欲顯	-10.6642
熏習	-10.6642
不等	-10.6649
別序	-10.6649
是故須	-10.665
謂佛	-10.665
諸如來	-10.6656
後人	-10.6659
智也	-10.6664
自見	-10.6665
雖在	-10.6668
未至	-10.6674
對前	-10.6679
數數	-10.6679
擾	-10.668
綱	-10.6689
塵勞	-10.6689
無行	-10.6692
四運	-10.6693
三藏中	-10.6695
王言	-10.6697
還是	-10.6704
造作	-10.6705
行果	-10.6705
心是	-10.6708
有差別	-10.6711
止息	-10.6712
▁初總	-10.6714
色像	-10.6714
位者	-10.6715
衛	-10.6719
理教	-10.6722
不能知	-10.6723
報佛	-10.6723
教一	-10.6732
下示	-10.6733
何有	-10.6736
六者	-10.6738
歸命	-10.6739
安忍	-10.6744
能受持	-10.6747
化主	-10.6748
不開	-10.6753
猶在	-10.6757
後學	-10.6767
門也	-10.6768
頌曰	-10.6768
紫	-10.677
縣	-10.6772
一異	-10.6772
天魔	-10.6778
大力	-10.6785
指前	-10.6786
善業	-10.6786
包	-10.6788
三藏菩薩	-10.6792
經行	-10.6793
第一明	-10.6803
被接	-10.6811
知眾生	-10.6813
為下	-10.6813
五識	-10.6816
相性	-10.6823
名聞	-10.6827
耀	-10.6828
展	-10.6829
聞此	-10.683
諸佛所	-10.6831
流布	-10.6831
溺	-10.6833
道樹	-10.6833
與彼	-10.6835
在昔	-10.6835
而知	-10.6837
菩薩道	-10.6838
實非	-10.6844
先以	-10.6848
之相也	-10.6857
富樓那	-10.6859
論主	-10.686
壅	-10.686
為眾	-10.6862
皆爾	-10.6864
二十年	-10.6865
瑠璃	-10.6866
永無	-10.6867
宿命	-10.6871
益也	-10.6871
出定	-10.6871
映	-10.6872
廣如	-10.6873
具明	-10.6882
多寶如來	-10.6882
恒河沙等	-10.6886
互具	-10.689
告舍利弗	-10.6892
隨所	-10.6894
那由他	-10.6896
▁初正明	-10.6897
體法	-10.6897
慈恩	-10.6898
七十	-10.6901
黨	-10.6903
佛心	-10.691
欲令眾生	-10.691
發問	-10.6911
家家	-10.6919
微塵數	-10.692
常無常	-10.6922
義兼	-10.6924
論釋	-10.6929
剋	-10.6941
阿那含	-10.6944
扇	-10.6946
得自在	-10.6947
若其	-10.695
將此	-10.6954
六十二見	-10.6955
所持	-10.6956
劫濁	-10.6957
未甞	-10.6965
二十八	-10.6969
樂小	-10.6971
毗尼	-10.6972
於大眾中	-10.6973
明如來	-10.6973
紙	-10.6973
護念	-10.6974
救護	-10.6979
祥	-10.698
所傳	-10.6982
愧	-10.6983
四釋	-10.6992
▁七	-10.6992
之師	-10.6994
餘四	-10.6999
節節	-10.7
坑	-10.7001
有作	-10.7002
我子	-10.7011
四十餘年	-10.7013
大劫	-10.7014
疑念	-10.7018
九部	-10.7018
道法	-10.702
向下	-10.7022
根熟	-10.7022
付財	-10.7024
而云	-10.703
莖	-10.7033
恐怖	-10.7034
為王	-10.7036
如海	-10.7038
初門	-10.7038
如虗空	-10.7045
長壽	-10.7047
何故不	-10.7049
孤山	-10.705
徑	-10.7051
東西	-10.7051
隱顯	-10.7055
是諸佛	-10.7056
浴	-10.7058
井	-10.706
俱名	-10.7061
如上說	-10.7063
諸弟子	-10.7065
行之	-10.7066
緫	-10.7075
舌根	-10.7079
終日	-10.7082
賴	-10.7088
之數	-10.7088
舒	-10.709
丘	-10.709
工	-10.7091
未免	-10.7092
指要	-10.7093
煩惱障	-10.7093
果中	-10.7095
八教	-10.7095
秀	-10.7098
昔所	-10.71
一乘之	-10.7111
實也	-10.7115
法執	-10.7116
所問	-10.7117
上云	-10.7117
方有	-10.7118
無可	-10.7119
瓦石	-10.712
利養	-10.7121
依教	-10.7124
六義	-10.7124
玅玄	-10.7125
以辨	-10.7138
近遠	-10.7139
釋論云	-10.7143
𦦨	-10.7151
無量百千萬億	-10.7153
發迹	-10.7154
聖位	-10.7159
善能	-10.716
所執	-10.7161
飢	-10.7162
亦未	-10.7163
如雲	-10.7163
先後	-10.7167
不淨觀	-10.717
不墮	-10.7172
道中	-10.7179
引論	-10.7181
深信	-10.7185
半行	-10.7186
奉持	-10.7193
初發心	-10.7194
離垢	-10.7194
於三界	-10.7196
障礙	-10.7198
今釋	-10.72
淳	-10.7202
舍宅	-10.7203
困	-10.7205
善修	-10.7206
身而為說法	-10.7208
本自	-10.7209
心地	-10.721
如世	-10.721
親近處	-10.7211
循	-10.7212
基	-10.7214
五蘊	-10.7214
各自	-10.7216
可信	-10.7217
康	-10.7218
住世	-10.722
如空	-10.7223
一切佛法	-10.7227
圓位	-10.7227
之觀	-10.7228
一切法趣	-10.7228
輪迴	-10.723
扣	-10.7236
影響	-10.7236
邑	-10.7237
淨名疏	-10.7239
親友	-10.7242
此句	-10.7243
而未	-10.7244
熟酥	-10.7245
米	-10.7245
判教	-10.7246
出現	-10.7248
某甲	-10.7249
生天	-10.7249
破惡	-10.7251
氷	-10.7252
多人	-10.7252
慚	-10.7253
無妨	-10.7255
若取	-10.7255
溫	-10.7256
皆成	-10.7259
至法華	-10.7259
四面	-10.726
今謂此	-10.726
有人云	-10.7262
諸善	-10.7262
於一切法	-10.7264
出生死	-10.7267
法忍	-10.7269
二正	-10.7272
善逝	-10.7275
是總	-10.7275
如說修行	-10.7278
空處	-10.7278
梨	-10.7278
其旨	-10.7278
謀	-10.7279
窟	-10.728
聞持	-10.7283
丹	-10.7289
偏真	-10.7289
堪任	-10.729
教菩薩法	-10.7292
開敷	-10.7293
雖非	-10.7294
發誓	-10.7295
合前	-10.7296
天女	-10.7298
發言	-10.7298
所用	-10.7299
分為二	-10.7301
受報	-10.7308
廿	-10.7309
性體	-10.7309
即佛	-10.7312
思量	-10.7313
照明	-10.7315
因者	-10.7315
雖多	-10.7317
不悟	-10.7321
不同故	-10.7326
若有人	-10.7327
通釋	-10.7331
準此	-10.7332
女身	-10.7335
佛前	-10.7335
善財	-10.7336
乾慧	-10.7339
亦須	-10.7342
下重	-10.7344
假實	-10.7345
此上	-10.7346
無由	-10.7346
傳云	-10.7348
百億	-10.735
正修	-10.7356
常不輕	-10.7357
校量	-10.7358
歡	-10.7358
五事	-10.7359
多劫	-10.7369
麻	-10.737
以至	-10.7372
所通	-10.7373
即同	-10.7385
大王當知	-10.7385
半偈	-10.7387
生死涅槃	-10.739
所歸	-10.739
皆應	-10.7391
幡	-10.7391
迦旃延	-10.7395
是何	-10.7397
二十三	-10.7398
佛事	-10.7399
不息	-10.7402
徐	-10.7402
無二無別	-10.7402
未可	-10.7405
分身諸佛	-10.7405
景	-10.7405
身得度者	-10.7408
伯	-10.7415
聲聞乘	-10.7418
喜樂	-10.7429
算	-10.743
即其義也	-10.7432
由前	-10.7435
一邊	-10.7435
總譬	-10.7436
世智	-10.7438
祭	-10.7439
睡眠	-10.7442
智慧力	-10.7444
妙音菩薩	-10.7446
一切煩惱	-10.7447
必得	-10.745
無此	-10.7451
府	-10.7451
下句	-10.7451
初長行	-10.7455
其福	-10.7456
一事	-10.746
三十三天	-10.7462
辟支	-10.7462
准此	-10.7463
欲重宣此義	-10.7464
深入	-10.7465
故下文云	-10.7466
毛孔	-10.747
現世	-10.7471
妙莊嚴王	-10.7471
閻浮	-10.7474
狼	-10.7475
魔事	-10.748
完	-10.7481
如來智慧	-10.7484
於小	-10.7485
及餘	-10.7486
諸大	-10.749
僕	-10.7495
正義	-10.7496
所計	-10.7497
空見	-10.75
令生	-10.7502
為此	-10.7504
後說	-10.7504
如如	-10.7506
四見	-10.7511
方廣	-10.7514
豪	-10.7515
複	-10.7518
逸	-10.7519
引導	-10.7519
無得	-10.7522
同名	-10.7526
外人	-10.7532
周徧	-10.7532
以小	-10.7536
然而	-10.7537
非佛	-10.7537
靜慮	-10.7539
觀慧	-10.7541
》、《	-10.755
四味	-10.7557
法寶	-10.7558
穿	-10.7559
之下	-10.756
過去佛	-10.7565
六入	-10.7566
見我	-10.7567
實性	-10.7567
彌勒菩薩	-10.7568
男子	-10.7574
無定	-10.7575
易解	-10.758
歷別	-10.7581
昔教	-10.7583
今略	-10.7584
證成	-10.7586
漸悟	-10.7589
中亦	-10.759
牒前	-10.7593
惡法	-10.7593
車體	-10.7596
皆巳	-10.7601
成於	-10.7603
序中	-10.7606
次句	-10.7607
小智	-10.7616
喻佛	-10.7617
後時	-10.7619
漸圓	-10.7621
以無	-10.7628
道也	-10.7629
煞	-10.763
今復	-10.763
不縱不橫	-10.7631
正示	-10.7635
慎	-10.7636
他身	-10.7638
賢劫	-10.7639
京	-10.7639
眾會	-10.764
下結成	-10.764
分四	-10.7642
奚	-10.7645
然燈	-10.7648
修止觀	-10.7649
所治	-10.765
大覺	-10.766
雖說	-10.7666
未了	-10.7666
故引	-10.7668
故前	-10.7669
業識	-10.7669
顏	-10.7675
便謂	-10.7675
驚疑	-10.7676
漸教	-10.7683
是無常	-10.7685
得脫	-10.7689
巳身	-10.7694
增進	-10.77
開近顯遠	-10.7705
開譬	-10.7705
若但	-10.771
僮僕	-10.7711
邊見	-10.7711
佛號	-10.7712
三十心	-10.7718
玅法	-10.7719
整	-10.7719
煙	-10.7719
心大歡喜	-10.772
二佛	-10.7721
復更	-10.7722
嗣	-10.7724
兩意	-10.7729
豈能	-10.7733
是常	-10.7735
初舉	-10.7738
空理	-10.774
何由	-10.7741
為異	-10.7741
不發	-10.7742
垂迹	-10.7744
歡喜踊躍	-10.7751
雖通	-10.7752
會通	-10.7753
而發	-10.7757
歟	-10.7758
俱時	-10.7758
五薀	-10.7765
賣	-10.7766
教者	-10.7778
亦知	-10.778
我法	-10.7781
尚未	-10.7783
故稱為	-10.7787
首楞嚴	-10.7788
華果	-10.7794
佛告諸比丘	-10.7801
諸餘	-10.7801
入位	-10.7801
不遠	-10.7802
那含	-10.7809
法會	-10.7809
若入	-10.7812
妄心	-10.7823
破於	-10.7833
所具	-10.7838
何殊	-10.7838
據此	-10.7838
有其	-10.7838
大集	-10.7842
浪	-10.7842
天然	-10.7844
內有	-10.7853
諸佛法	-10.7853
即生	-10.7854
修禪	-10.786
兜率	-10.7865
染著	-10.7869
修學	-10.7869
是諸眾生	-10.7869
有頂	-10.7869
諸外道	-10.7874
但觀	-10.7876
無漏智	-10.7877
劫名	-10.7887
常念	-10.7889
干	-10.7896
以理	-10.7899
休息	-10.7899
不專	-10.79
九種	-10.7905
優婆夷	-10.7907
持品	-10.7908
叉	-10.7912
此定	-10.7913
如其	-10.7914
為主	-10.7915
取證	-10.7916
警	-10.7919
不死	-10.7919
拙	-10.7921
點示	-10.7922
前品	-10.7923
悞	-10.7924
肯	-10.7926
箭	-10.7926
半字	-10.7927
譽	-10.7928
射	-10.7928
去來	-10.7932
六年	-10.7937
於人	-10.7937
即性	-10.7938
前三教	-10.794
為小	-10.7942
十向	-10.7956
無上士	-10.7958
入中	-10.7959
攝云	-10.796
萬二千	-10.7964
秉	-10.7971
其性	-10.7971
教意	-10.7974
或復	-10.7975
能緣	-10.7978
宗旨	-10.7979
為麤	-10.798
善友	-10.7981
是第二	-10.7982
隨義	-10.7983
正由	-10.7983
大樂說	-10.7986
俱舍云	-10.7988
以立	-10.7991
通序	-10.7993
初引	-10.7996
川	-10.7998
上有	-10.8
是理	-10.8
圓因	-10.8005
寶珠	-10.8006
行一	-10.8007
如日	-10.8008
兔	-10.8009
壯	-10.801
名異	-10.8011
初聞	-10.8011
結會	-10.8012
偶	-10.8015
妙用	-10.8018
▁二偈頌	-10.8019
而觀	-10.802
什	-10.802
各三	-10.8023
摩睺羅伽	-10.8023
烈	-10.8026
不廢	-10.8031
群生	-10.8036
故佛	-10.8037
共成	-10.8037
兩重	-10.8038
本淨	-10.8042
十惡	-10.8044
擔	-10.8045
阿耨菩提	-10.8049
派	-10.8052
領悟	-10.8055
圍	-10.8056
司	-10.8057
正憶念	-10.806
未明	-10.806
劣應	-10.8064
不同也	-10.8065
理故	-10.8067
共為	-10.807
初正明	-10.8071
四性	-10.8074
既巳	-10.8074
十迴向	-10.8075
空法	-10.8077
無諸	-10.808
易知	-10.8082
現生	-10.8085
次正	-10.8091
解義	-10.8094
佛壽	-10.8095
役	-10.8096
初正釋	-10.8104
下二句	-10.8104
歸於	-10.8105
於今	-10.8107
禮佛	-10.811
只一	-10.8111
機宜	-10.8112
故舉	-10.8112
但中	-10.8113
聞此經	-10.8117
之聲	-10.8117
往生	-10.8117
取捨	-10.8118
之方	-10.8119
秪是	-10.812
作是言	-10.812
四重	-10.8123
哀愍	-10.8123
斯陀含	-10.8123
善哉善哉	-10.8124
真常	-10.8128
紛	-10.8133
偏小	-10.8134
無諍	-10.8135
爛	-10.8136
如下	-10.8136
說法者	-10.814
相資	-10.8141
聖者	-10.8142
教證	-10.8144
猒	-10.8144
持此經	-10.8149
志願	-10.8154
乃知	-10.8155
智行	-10.816
廟	-10.8161
九十	-10.8164
重重	-10.8165
亦皆	-10.8169
判為	-10.8169
陰境	-10.817
了義	-10.8174
穀	-10.8175
是能	-10.8175
徧滿	-10.8176
壁	-10.818
根本智	-10.818
擲	-10.8181
抄	-10.8183
能轉	-10.8184
疑者	-10.8185
能障	-10.8186
是名為	-10.8188
此菩薩	-10.819
結使	-10.8193
非常	-10.8195
一行頌	-10.8196
須彌山	-10.8198
為總	-10.82
其上	-10.8203
結勸	-10.8205
雖異	-10.8208
平等大慧	-10.8214
種姓	-10.8214
迭	-10.8215
如前釋	-10.8217
五趣	-10.8218
肅	-10.8218
法華云	-10.8218
為法	-10.8218
稱讚	-10.8219
六瑞	-10.8221
今乃	-10.8222
菴	-10.8224
思慧	-10.8225
皆約	-10.8226
鹽	-10.8227
圓理	-10.8229
從事	-10.823
上言	-10.8239
諸佛菩薩	-10.824
我慢	-10.8242
實是	-10.8244
佛於	-10.8246
彼國	-10.8247
嗚呼	-10.8257
百由旬	-10.8259
之首	-10.826
法花	-10.8261
彼時	-10.8262
圓修	-10.8266
能應	-10.8271
請說	-10.8271
化之	-10.8272
乃名	-10.8272
既然	-10.8272
生酥	-10.8274
佛成道	-10.8276
。」【【	-10.8283
受戒	-10.8284
十六句	-10.8286
言教	-10.8287
觀心者	-10.8287
第一義空	-10.8288
之慧	-10.8291
賓	-10.8304
翳	-10.8304
始得	-10.8306
勝義	-10.8308
頸	-10.8309
方便者	-10.8309
本文	-10.831
頭陀	-10.831
而此	-10.8316
之稱	-10.8317
能如是	-10.8318
別說	-10.832
由於	-10.8323
之所以	-10.8325
出其	-10.8326
先標	-10.8328
證真	-10.8331
僻	-10.8331
八方	-10.8335
妙宗	-10.8339
寶雲	-10.8341
八正道	-10.8341
溢	-10.8343
野干	-10.8343
伏惑	-10.8343
長安	-10.835
色相	-10.8352
寶華	-10.8364
比丘比丘尼	-10.8365
妻子	-10.8366
搖	-10.8366
而住	-10.8367
神呪	-10.8373
於如來	-10.8374
驗知	-10.8375
十萬	-10.8379
總是	-10.838
當於	-10.8382
既同	-10.8385
龜	-10.8385
者是也	-10.8385
有疑	-10.8386
祖師	-10.8391
皷	-10.8396
無量功德	-10.8396
▁初略	-10.8397
舟	-10.8398
屍	-10.8398
以法	-10.8399
究盡	-10.8403
疏釋	-10.8404
成佛之	-10.8404
無功用	-10.8406
當知此	-10.8409
何事	-10.841
體一	-10.8412
住前	-10.8415
事中	-10.8415
之罪	-10.8417
▁三頌	-10.8417
心造	-10.8424
結會古今	-10.8424
觀空	-10.8427
神力品	-10.8427
為眾生	-10.8433
次以	-10.8434
釋籤云	-10.8434
智論	-10.8434
悟解	-10.8434
四位	-10.8435
生故	-10.8436
至涅槃	-10.8437
尚有	-10.8438
非直	-10.844
大乘教	-10.8441
誰能	-10.8441
得法	-10.8443
正合	-10.8449
所列	-10.8449
羊鹿	-10.8454
所受	-10.8454
即於	-10.846
方便也	-10.8462
有量	-10.8462
熾	-10.8464
對辨	-10.8464
於世	-10.8466
法座	-10.847
此就	-10.8474
來世	-10.8474
等皆	-10.8475
中亦有	-10.8476
嗟	-10.8476
白毫	-10.848
候	-10.8483
塔廟	-10.8483
認	-10.8483
此兩	-10.8485
復言	-10.8487
四品	-10.8489
付家業	-10.849
能行	-10.8493
與眾生	-10.8494
有如是	-10.8494
與此	-10.8495
未開	-10.8496
聰	-10.8497
受請	-10.8497
人身	-10.85
四段	-10.85
四王	-10.8501
正法華	-10.8505
諸相	-10.8506
天人師	-10.8507
正定	-10.8515
必當	-10.8517
自覺	-10.8519
刑	-10.852
義例	-10.852
皆依	-10.852
分之	-10.8521
驅	-10.8521
吳	-10.8523
近處	-10.8523
大臣	-10.8523
津	-10.8524
舉一	-10.8525
熱惱	-10.8528
今是	-10.8529
感佛	-10.8529
因位	-10.8532
偈文	-10.8533
追頌	-10.8537
兄	-10.8537
求之	-10.8543
開會	-10.8543
本為	-10.8546
能現	-10.8551
。」《	-10.8551
得生	-10.8554
今觀	-10.8555
俟	-10.8556
此界	-10.8558
蓋是	-10.8559
受樂	-10.8559
如是之人	-10.856
巳有	-10.8561
難知	-10.8562
第二句	-10.8565
能依	-10.8567
鼠	-10.8568
饑	-10.8568
三止	-10.857
駕	-10.8574
講說	-10.8574
何因緣	-10.8576
解也	-10.8577
邊際	-10.8583
之宗	-10.8584
》「	-10.8585
之情	-10.8585
誦經	-10.8592
六品	-10.8592
德也	-10.8593
喻如來	-10.8594
結示	-10.8594
?「	-10.8596
所宜	-10.8598
報恩	-10.8598
多分	-10.8598
敵	-10.8599
之惑	-10.86
羯磨	-10.8602
如來知見	-10.8603
安慰	-10.8605
為成	-10.8606
如來亦復如是	-10.8606
諮	-10.8612
翼	-10.8613
問何	-10.8615
如一	-10.8619
眉間	-10.862
進修	-10.8622
佛智慧	-10.8623
敗	-10.8626
若修	-10.8626
引之	-10.8627
除糞	-10.863
二品	-10.8636
八子	-10.8636
具一切法	-10.8638
文為三	-10.8641
惑業	-10.8641
頌長行	-10.8642
涌	-10.8646
為物	-10.8647
百界千如	-10.8648
之能	-10.865
上首	-10.8653
欲說	-10.8653
晝	-10.8653
籠	-10.8655
別示	-10.8656
但能	-10.8657
郡	-10.8659
幼	-10.8661
而作是念	-10.8666
羅云	-10.8667
令住	-10.8669
莫非	-10.8671
重釋	-10.8672
正解	-10.8673
今時	-10.8675
治之	-10.8675
即應	-10.8684
提婆達多	-10.8686
序分	-10.8689
說般若	-10.8691
上句	-10.8693
縮	-10.8694
心起	-10.8697
得授記	-10.8698
蜜	-10.87
開出	-10.8701
直說	-10.8701
片	-10.8701
產	-10.8701
今所	-10.8705
三世佛	-10.8705
三字	-10.8705
篤	-10.8705
三合	-10.8707
至于	-10.871
疑網	-10.8712
至果	-10.8712
斷疑	-10.8713
叵	-10.8714
正理	-10.8716
至寶所	-10.8719
為汝	-10.8724
▁初引	-10.8727
已後	-10.8728
此與	-10.8731
斷見思	-10.8731
永盡	-10.8733
方成	-10.8733
幻化	-10.8733
諸佛之	-10.8737
未斷	-10.8737
邁	-10.874
曇	-10.8741
大用	-10.8743
二乘之人	-10.8745
成就者	-10.8747
盤	-10.8748
枕	-10.8749
諸境	-10.8749
不欲	-10.875
鼻根	-10.8753
為六	-10.8758
他心	-10.8758
之善	-10.8761
合為一	-10.8761
下一行	-10.8761
先世	-10.8763
一念三千	-10.8764
引大經	-10.8766
但在	-10.8767
無所有處	-10.8767
品題	-10.8771
力者	-10.8779
之迹	-10.8779
諸地	-10.8783
作法	-10.8783
勝故	-10.8783
先舉	-10.8785
金剛三昧	-10.8786
上文云	-10.8792
地論	-10.8795
依他性	-10.8795
是諸菩薩	-10.8795
設教	-10.8795
知佛	-10.8796
例前	-10.8799
說教	-10.8804
佛國	-10.8807
二十二	-10.8809
忘失	-10.8811
諦聽	-10.8813
今世	-10.8818
識心	-10.8818
所求	-10.8821
諸菩薩摩訶薩	-10.8822
正使	-10.8823
於法華	-10.8826
實不	-10.8827
一途	-10.8828
諭	-10.8832
不同者	-10.8832
物機	-10.8833
眾行	-10.8833
王舍城	-10.8833
一約	-10.8837
寡	-10.8837
俯	-10.8837
過失	-10.8838
圓極	-10.8839
恃	-10.884
豆	-10.8843
過去世	-10.8844
非究竟	-10.8845
下總結	-10.8847
申明	-10.885
消釋	-10.8856
此位	-10.8863
真妄	-10.8863
藥王菩薩	-10.8865
未審	-10.8869
是因	-10.8873
十二年	-10.8874
聽者	-10.8876
不正	-10.8878
圓明	-10.8881
有五種	-10.8883
未說	-10.8886
未嘗	-10.8886
之業	-10.889
今就	-10.8896
之謂也	-10.8896
嫉妬	-10.8896
佛菩提	-10.8897
未發	-10.8898
異相	-10.8901
止行	-10.8901
皆無	-10.8904
必具	-10.8905
若離	-10.8906
為用	-10.8907
佛告阿難	-10.8912
長時	-10.8913
圓覺	-10.8915
勝解	-10.8916
世間解	-10.8916
請問	-10.8918
職	-10.8919
識處	-10.892
如大	-10.892
奉行	-10.8921
已上	-10.8922
庭	-10.8927
之則	-10.8928
▁一頌	-10.8929
今生	-10.8933
我常	-10.8934
達磨	-10.8934
餘文	-10.8935
人多	-10.8936
事故	-10.8948
明菩薩	-10.8949
能仁	-10.8949
方便力	-10.8949
三地	-10.8956
時長	-10.8957
師資	-10.8958
旨歸	-10.8959
別人	-10.8961
無罪	-10.8963
若未	-10.8968
亦不能	-10.8969
華光	-10.8971
區	-10.8971
三年	-10.8972
赴機	-10.8972
無漏法	-10.8974
既其	-10.8976
忌	-10.8977
地中	-10.8978
前說	-10.8988
三七日	-10.8989
諸門	-10.899
以神通力	-10.899
見理	-10.899
三塗	-10.8992
便為	-10.8995
四字	-10.8995
此觀	-10.8997
巳證	-10.8998
別惑	-10.8998
周遍	-10.9001
善道	-10.9002
提婆	-10.9007
佛與	-10.9011
芽	-10.9012
像法	-10.9012
三處	-10.9012
從前	-10.9012
怨賊	-10.9012
應機	-10.9012
掩	-10.9013
次二句	-10.9016
是真實	-10.9018
有邊	-10.9018
巳成	-10.9026
奔	-10.9026
業報	-10.9026
永異	-10.9027
李	-10.9027
方丈	-10.903
主伴	-10.9031
明位	-10.9032
光中	-10.9034
未悟	-10.9037
不攝	-10.9037
立行	-10.9038
名利	-10.9043
無明為	-10.9043
有兩	-10.9047
無生智	-10.9049
菩提樹下	-10.9051
以智	-10.9051
遍滿	-10.9056
後釋	-10.9056
何關	-10.9059
總頌	-10.906
無言	-10.906
果位	-10.9062
膠	-10.9062
逈	-10.9064
琴	-10.9064
譏	-10.9066
大會	-10.9066
后	-10.9069
分別功德品	-10.9071
其道	-10.9081
為善	-10.9083
對法	-10.9086
人之	-10.9091
攝得	-10.9095
意樂	-10.9095
知音	-10.9098
無障	-10.9098
世第一	-10.9103
鐘	-10.9108
深廣	-10.9111
云爾	-10.9111
普賢觀	-10.9113
且以	-10.9114
於心	-10.9115
圓別	-10.9116
領受	-10.9118
其一	-10.9121
尚非	-10.9126
色法	-10.9128
別對	-10.913
十八界	-10.9132
日夜	-10.9138
破古	-10.9138
開為二	-10.9142
自爾	-10.9144
不雜	-10.9145
取相	-10.9146
六千	-10.9146
今品	-10.9147
顯其	-10.9154
尸棄	-10.9155
允	-10.9157
▁二正	-10.9158
佛弟子	-10.9159
衡	-10.916
諸經論	-10.9161
而求	-10.9161
妄念	-10.9162
即從座起	-10.9162
喻於	-10.9164
辰	-10.9165
具十	-10.9171
起信	-10.9174
德行	-10.9174
法華前	-10.9176
觀中	-10.9179
知一切法	-10.9181
四大弟子	-10.9184
大綱	-10.9184
能信	-10.9185
難云	-10.9185
地涌	-10.9187
種善根	-10.919
尋常	-10.9193
開塔	-10.9201
故立	-10.9201
此喻	-10.9204
質直	-10.9207
爽	-10.9208
最為第一	-10.921
二土	-10.921
取其	-10.9211
莫能	-10.9212
紅	-10.9212
三三昧	-10.9213
都不	-10.9215
舍利弗當知	-10.9221
得樂	-10.9221
生長	-10.9224
本住	-10.9226
有九	-10.9227
聞而	-10.9229
結歎	-10.923
初如文	-10.9232
為破	-10.9233
無形	-10.9234
有無量	-10.9236
千由旬	-10.9236
便得	-10.9242
水火	-10.9243
分別說	-10.9245
無有是處	-10.9248
久成	-10.9248
佛所護念	-10.9248
若我	-10.9249
奧	-10.9252
必先	-10.9252
悟道	-10.9253
發相	-10.9254
溪	-10.9255
性也	-10.9257
迦羅	-10.9259
金錍	-10.9267
下辨	-10.9276
即般若	-10.9292
銀	-10.9294
薩埵	-10.9294
汝等當	-10.9295
渴仰	-10.9298
遮那	-10.9299
仁者	-10.93
神足	-10.93
忠	-10.9301
而見	-10.9302
諂	-10.9305
它	-10.9305
五蓋	-10.9307
希望	-10.9308
正體	-10.9308
下譬	-10.9309
一方	-10.9316
踊	-10.932
所趣	-10.9323
限量	-10.9324
皆須	-10.9325
增一	-10.9331
有殊	-10.9333
六種震動	-10.9334
皆可	-10.9334
違順	-10.934
是第三	-10.934
倫	-10.9346
郭	-10.9346
佛世尊	-10.9348
堪忍	-10.9348
洪	-10.9349
譬如有人	-10.935
毒藥	-10.9354
獲得	-10.9355
四番	-10.9356
定中	-10.9357
同入	-10.936
之功德	-10.9367
依何	-10.9367
法合	-10.9367
不畏	-10.9368
報應	-10.937
十二行	-10.937
其德	-10.9371
五門	-10.9372
破其	-10.9373
執著	-10.9373
不染	-10.9377
此六	-10.9378
皆如	-10.9379
五度	-10.938
下地	-10.938
未熟	-10.9381
無極	-10.9385
無三	-10.9385
果者	-10.9386
合成	-10.9387
幼稚	-10.9387
大般涅槃	-10.9389
呼為	-10.9389
半頌	-10.9392
燃	-10.9392
推之	-10.9393
瞻仰	-10.9393
從於	-10.9393
唯有一	-10.9397
謂有	-10.9397
截	-10.9398
恠	-10.9398
十歲	-10.9401
七者	-10.9401
大果	-10.9402
書云	-10.9402
顯是	-10.9402
如是展轉	-10.9406
為菩薩	-10.9407
三重	-10.9408
攝論	-10.9409
明珠	-10.9412
羅什	-10.9418
此二句	-10.9427
惑盡	-10.9428
二行半	-10.9428
舉譬	-10.943
悉知	-10.9432
大乘法	-10.9434
父母所生	-10.9441
說大乘	-10.9445
蔭	-10.9447
增上慢人	-10.9449
所對	-10.9451
欲樂	-10.9452
無生門	-10.9452
吞	-10.9453
禪波羅蜜	-10.9456
依文	-10.9459
聞是經	-10.946
二世	-10.947
。􂔹	-10.9471
次引證	-10.9475
經題	-10.9475
心故	-10.9477
陀羅	-10.9483
意顯	-10.9484
十六心	-10.9485
苦道	-10.9486
兄弟	-10.9486
有想	-10.9487
兆	-10.9488
十方三世	-10.949
料揀	-10.9492
事用	-10.9493
異耳	-10.9493
又能	-10.9495
明義	-10.9495
莊子	-10.9496
善人	-10.9496
達多	-10.9505
圓成	-10.9508
▁一正	-10.9516
四土	-10.9519
初列	-10.952
如來說法	-10.9521
重罪	-10.9525
」【(	-10.9527
千佛	-10.9528
理同	-10.9529
慰	-10.9529
亦不得	-10.953
不可見	-10.9534
直明	-10.9537
伽陀	-10.9538
實教	-10.9538
斷滅	-10.954
罔	-10.9542
祈	-10.9545
賈	-10.9546
吉祥	-10.9547
圓中	-10.9548
此一句	-10.9548
諸國	-10.9548
別則	-10.9553
十六行	-10.9557
復能	-10.9558
四無量心	-10.9559
所知障	-10.9561
私謂	-10.9563
疊	-10.9564
合論	-10.9566
震動	-10.9567
輕慢	-10.9571
若對	-10.9572
見諸佛	-10.9573
正教	-10.9578
喻之	-10.9578
示教利喜	-10.9581
諸家	-10.9584
餘之	-10.9585
毘曇	-10.9587
渠	-10.9588
菓	-10.9588
螺	-10.9589
真珠	-10.959
位在	-10.9591
又若	-10.9591
初觀	-10.9593
隨自意	-10.9593
皆共	-10.9594
今解	-10.9594
聾	-10.9595
數量	-10.9596
或問	-10.9597
劫國	-10.9598
夭	-10.9599
此一行	-10.9599
而實	-10.9606
生解	-10.9607
彈	-10.961
一境	-10.9611
法喜	-10.9612
謂是	-10.9614
無自性	-10.9619
海中	-10.9622
之色	-10.9622
若別	-10.9623
下舉	-10.9624
為通	-10.9624
豁	-10.9625
俱無	-10.9629
踊躍	-10.963
以觀	-10.963
盆	-10.9632
五分	-10.9632
膝	-10.9633
一實諦	-10.9634
知有	-10.9634
若心	-10.9635
摩訶般若	-10.9637
鑽	-10.9637
之佛	-10.9637
不會	-10.9639
買	-10.964
現相	-10.964
所動	-10.9641
境中	-10.9642
契經	-10.9645
去聲	-10.9645
見於	-10.9645
歎佛	-10.9648
降魔	-10.965
大菩提	-10.965
誤也	-10.965
淨故	-10.9652
標章	-10.9654
聞是	-10.9659
人一	-10.966
是法身	-10.966
受名	-10.9664
無虗妄	-10.9664
供養諸佛	-10.9664
所被	-10.9665
互舉	-10.9673
可爾	-10.9673
其言	-10.9679
受者	-10.968
今頌	-10.968
覲	-10.9682
板	-10.9686
躬	-10.9686
形聲	-10.9686
爾時釋迦牟尼佛	-10.9686
以是義故	-10.9687
漫	-10.9688
二事	-10.969
菩提涅槃	-10.9691
乃為	-10.9693
空空	-10.9697
不能得	-10.9697
宇	-10.97
不見有	-10.9704
滅盡	-10.9706
破執	-10.9708
習果	-10.9709
瑜伽論	-10.9711
佛化	-10.9713
大通智勝佛	-10.9714
欲知	-10.9714
而於	-10.9715
𥁞	-10.9719
嘗	-10.972
自得	-10.9722
化導	-10.9723
入生死	-10.9723
湛	-10.9723
入佛慧	-10.9724
所覆	-10.9726
現滅	-10.9727
至今	-10.9729
見愛	-10.9735
亦說	-10.9738
戀	-10.9739
懃	-10.974
皆在	-10.9741
卿	-10.9741
性者	-10.9743
菩薩戒	-10.9744
火燒	-10.9744
普照	-10.9746
別行	-10.9746
實義	-10.975
之異名	-10.9758
圓行	-10.9763
中具	-10.9764
一切佛	-10.9771
明淨	-10.9774
毗盧遮那	-10.9776
所斷	-10.9776
已得	-10.9781
智障	-10.9785
創	-10.9791
多種	-10.9795
顯密	-10.9795
滴	-10.9795
可也	-10.9795
未成	-10.9797
舉其	-10.9799
更明	-10.9805
隨文	-10.9807
於未來世	-10.9809
權也	-10.9809
承上	-10.9809
過去諸佛	-10.981
百萬億	-10.9812
,〈	-10.9813
動地	-10.9814
普門品	-10.9819
偏空	-10.982
四緣	-10.982
從地涌出	-10.982
大乘經	-10.9821
衣裓	-10.9821
委悉	-10.9822
籍	-10.9828
聲聞眾	-10.983
不改	-10.983
欲見	-10.9831
淨佛國土	-10.9832
果地	-10.9833
虫	-10.9835
夕	-10.9839
)。【	-10.984
為聲聞	-10.9843
多是	-10.9843
嬰兒	-10.9844
此結	-10.9845
正在	-10.9848
本也	-10.9851
無作四諦	-10.9861
於十方	-10.9863
頌第二	-10.9864
禪中	-10.9869
性地	-10.987
誘引	-10.987
不曾	-10.9873
教人	-10.9873
所取	-10.9875
經旨	-10.9875
大歡喜	-10.9876
經體	-10.9876
怯弱	-10.9876
報果	-10.9877
以大乘	-10.9877
當為	-10.9878
本迹者	-10.9879
深著	-10.9879
又聞	-10.988
囑累品	-10.9881
緒	-10.9883
重明	-10.9883
二因	-10.9884
湖	-10.9886
進否	-10.9891
厥	-10.9892
不隔	-10.9892
體者	-10.9895
在因	-10.9898
彩	-10.9898
慇懃	-10.9901
次一行	-10.9903
臨終	-10.9903
能問	-10.9907
方始	-10.9911
愛樂	-10.9917
覺了	-10.9918
有性	-10.9918
無障礙	-10.9922
安置	-10.9926
彈斥	-10.9927
謂如來	-10.9928
泥洹	-10.9928
瞿曇	-10.993
有生	-10.9931
利者	-10.9935
五力	-10.9936
二十五三昧	-10.9938
集眾	-10.9938
丁	-10.994
利益眾生	-10.994
綿	-10.9943
一月	-10.9944
。」「	-10.9944
鬘	-10.9947
諱	-10.9952
掃	-10.9954
慳貪	-10.9957
心具	-10.9959
佛名	-10.9963
應言	-10.9965
前七	-10.9967
▁二今	-10.9971
眾生界	-10.9971
遠本	-10.9975
二障	-10.9975
體具	-10.9978
未解	-10.998
正像	-10.998
思念	-10.9981
非權非實	-10.9982
轉變	-10.9983
乃有	-10.9984
聊	-10.9988
分別性	-10.9989
會眾	-10.999
祕藏	-10.9991
來至	-10.9991
尸羅	-10.9991
假立	-10.9992
資生	-10.9993
為諸菩薩	-10.9993
冤	-10.9999
流出	-11
此舉	-11.0001
兩義	-11.0003
善行	-11.0005
眾生濁	-11.0005
方顯	-11.0007
佛神力	-11.0008
無一	-11.001
乃得	-11.0014
變造	-11.0015
有苦	-11.0015
勸請	-11.0023
而用	-11.0023
利人	-11.0024
巍巍	-11.0028
鄰	-11.003
旃檀	-11.0032
佛亦如是	-11.0032
得清淨	-11.0035
土地	-11.004
後分	-11.0044
亦隨	-11.0045
弘法	-11.0046
父王	-11.0047
兼於	-11.0047
而現	-11.0049
之解	-11.0052
禁戒	-11.0052
與汝	-11.0053
文自	-11.0062
云何言	-11.0064
發得	-11.0066
是心	-11.0066
卵	-11.0067
八正	-11.0067
滿慈	-11.0068
佛及	-11.0068
之謂	-11.0074
攝一切法	-11.0076
同故	-11.0077
散華	-11.008
不復更	-11.0082
忉利天	-11.0084
受命	-11.0088
纖	-11.0088
墮地獄	-11.0091
法音	-11.0093
跪	-11.0094
所解	-11.0094
擁護	-11.0096
等是也	-11.0096
到彼岸	-11.0097
第四禪	-11.0098
造業	-11.0098
之報	-11.01
從理	-11.01
多所	-11.0102
是大乘	-11.0102
亦作	-11.0103
方軌	-11.0104
心淨	-11.0105
何義	-11.011
個	-11.0111
高山	-11.0112
悉見	-11.0112
經明	-11.0113
為道	-11.0114
三衣	-11.0116
若准	-11.0117
身上	-11.0117
▁初法	-11.0118
妙者	-11.012
今於	-11.0123
明行足	-11.0123
僧坊	-11.0126
知者	-11.0129
悲心	-11.0132
直至道場	-11.0134
小樹	-11.0135
寂場	-11.0135
得羅漢	-11.0135
於中先	-11.0135
各有所	-11.0136
又約	-11.0142
有益	-11.0143
總釋	-11.0144
眾生有	-11.0144
維摩	-11.0145
敬信	-11.0147
者只是	-11.0147
淪	-11.0148
即此意也	-11.0148
三乘共	-11.0152
所念	-11.0153
大慧	-11.0153
何曾	-11.0156
入初住	-11.0157
多羅	-11.0157
作譬	-11.0158
心常	-11.0162
不能自	-11.0164
義立	-11.0164
未證	-11.0164
十章	-11.0165
進入	-11.0169
通至	-11.0171
迴轉	-11.0174
相稱	-11.0175
有四句	-11.0177
諸聲聞眾	-11.018
黎	-11.018
國界	-11.0181
又二初	-11.0183
爾時下	-11.0183
國中	-11.0184
千億	-11.0187
人非人等	-11.0187
馳走	-11.0188
有餘涅槃	-11.0189
悟佛知見	-11.0192
吒	-11.0193
虧	-11.0193
陸	-11.0194
戒善	-11.0195
燭	-11.0196
滅道	-11.0196
殆	-11.0197
杜	-11.0198
意趣	-11.0198
雲雨	-11.0198
山中	-11.02
準知	-11.0201
市	-11.0203
及與	-11.0203
波羅	-11.0203
但知	-11.0203
部中	-11.0207
隨眾生	-11.0208
壇	-11.0211
直指云	-11.0217
惡心	-11.0218
頂禮	-11.0221
捨身	-11.0221
撥	-11.0223
心數	-11.0223
大悲心	-11.0225
疲	-11.0225
滿字	-11.0229
法住	-11.023
通義	-11.0231
惟願	-11.0235
謂我	-11.0237
作此說	-11.0238
因聞	-11.0241
無生法忍	-11.0241
前人	-11.0242
依理	-11.0246
外國	-11.0246
聞其	-11.0248
暮	-11.0249
難也	-11.025
七難	-11.025
旛	-11.025
薩婆若	-11.0253
誨	-11.0254
性善	-11.0254
大梵	-11.0255
燒身	-11.0255
地動	-11.0256
其法	-11.0258
如虛空	-11.026
二喻	-11.0261
夢中	-11.0262
有能	-11.0264
眾集	-11.027
化道	-11.0272
伏難	-11.0272
此非	-11.0274
未來世	-11.0275
菩薩乘	-11.0277
大略	-11.0278
四魔	-11.0278
請佛	-11.028
化事	-11.0283
千二百人	-11.0283
直至	-11.0286
一切法皆	-11.0287
惡鬼	-11.0289
攝大乘	-11.0291
圓實	-11.0292
俱得	-11.0292
能令眾生	-11.0294
難見	-11.0295
羅睺	-11.0295
伺	-11.0296
長子	-11.0297
寶積	-11.0299
帖	-11.03
茂	-11.0301
娛樂	-11.0303
辯才	-11.0306
起用	-11.0307
聖賢	-11.0308
不相應	-11.0311
灾	-11.0311
化度	-11.0313
直云	-11.0313
不測	-11.0314
擇滅	-11.0315
其說	-11.0316
求道	-11.0318
餘皆	-11.0319
我是	-11.032
記主	-11.0326
末後	-11.0329
論議	-11.0334
是妙	-11.0335
六道眾生	-11.0336
加被	-11.0338
賢首	-11.0343
於生死	-11.0344
除疑	-11.0346
圍遶	-11.0346
命濁	-11.0346
機發	-11.0347
範	-11.0349
鄭	-11.0349
之經	-11.035
宿世因緣	-11.035
誕	-11.035
迷惑	-11.0352
名體	-11.0358
皆歡喜	-11.036
是無	-11.0361
人壽	-11.0361
入海	-11.0362
業力	-11.0366
自分	-11.0371
旦	-11.0372
久修	-11.0374
將護	-11.0374
文有	-11.0376
四善根	-11.0382
聰明	-11.0383
能詮教	-11.0385
為諸眾生	-11.0387
髻	-11.0392
菩薩為	-11.0394
正約	-11.0395
子曰	-11.0395
云何得	-11.0395
師之	-11.0396
阿毗曇	-11.0396
喻中	-11.0399
餘九	-11.0401
三輪	-11.0403
即解脫	-11.0404
而顯	-11.0404
得阿羅漢	-11.0404
前釋	-11.0406
勵	-11.0407
請記	-11.0408
次辨	-11.0409
之香	-11.0409
刃	-11.041
所從	-11.0411
多諸	-11.0411
自下	-11.0412
無緣慈	-11.0416
無減	-11.0416
佛說法	-11.0416
熾然	-11.0418
威神	-11.0419
最後身	-11.042
決了	-11.042
始覺	-11.042
稱理	-11.0423
爾乃	-11.0425
兩番	-11.0427
超頌	-11.0427
於諸法	-11.0428
應用	-11.0429
起慈悲	-11.0431
論意	-11.0431
通教菩薩	-11.0433
諸菩薩眾	-11.0441
以前	-11.0441
善女人	-11.0443
了了	-11.0445
我以	-11.0445
編	-11.0445
龍宮	-11.0449
衍門	-11.0451
為利	-11.0451
說大乘經	-11.0452
踰	-11.0453
大義	-11.0456
療	-11.0456
能捨	-11.0456
淨德	-11.0456
四聖諦	-11.0457
熾盛	-11.0457
玉篇	-11.0457
不俟	-11.0458
非正	-11.046
在世	-11.0462
筋	-11.0463
亦二	-11.0464
觀佛	-11.0465
開解	-11.0466
丸	-11.0466
隨宜說法	-11.0469
二利	-11.0471
亦由	-11.0472
波旬	-11.0472
故約	-11.0472
外有	-11.0475
佛法界	-11.0475
四十年	-11.0479
本國	-11.0479
稱機	-11.0481
富貴	-11.0484
百歲	-11.0486
釋前	-11.0487
身體	-11.0488
調御丈夫	-11.049
六七	-11.049
一十	-11.0494
別顯	-11.0495
真實性	-11.0496
至極	-11.0497
無願	-11.0497
漂	-11.0499
柔和	-11.0499
諸菩薩等	-11.0501
圓門	-11.0501
籌量	-11.0502
若得此意	-11.0505
不容	-11.0507
王者	-11.0509
憐愍	-11.0509
而白佛言	-11.051
巳盡	-11.0511
奇特	-11.0512
與拔	-11.0512
飽	-11.0512
萬里	-11.0513
荒	-11.0513
▁三若	-11.0515
法報	-11.0517
翅	-11.0519
義便	-11.052
言辭	-11.0528
入於涅槃	-11.0529
無所不	-11.0529
失於	-11.053
四攝	-11.0532
又是	-11.0532
不安	-11.0538
趣寂	-11.0539
成等正覺	-11.0539
弘通	-11.0545
雙釋	-11.0545
合有	-11.0546
六法	-11.0548
以自	-11.0551
妙解	-11.0553
即見	-11.0555
殃	-11.0558
諷誦	-11.0559
非空	-11.0561
天主	-11.0561
薩婆多	-11.0562
擯	-11.0563
唯以	-11.0565
▁初敘	-11.0567
團	-11.0569
額	-11.057
理本	-11.0571
惡口	-11.0574
驢	-11.0574
住此	-11.0575
奴	-11.0575
跋	-11.0578
有智	-11.0579
初牒	-11.0583
悉能	-11.0589
通稱	-11.059
貧窮	-11.0592
言有	-11.0594
謨云	-11.0594
只此	-11.0597
見色	-11.0599
▁八	-11.06
見父	-11.06
教菩薩	-11.06
常寂	-11.0605
雖則	-11.0605
隨智	-11.0607
譚	-11.0608
一雨	-11.061
山川	-11.061
灼然	-11.0611
園林	-11.0612
謗法	-11.0613
一頌半	-11.0613
眾疑	-11.0614
證知	-11.0616
那云	-11.0619
即第一義	-11.0625
在佛	-11.0626
譬本	-11.0629
豁然	-11.0631
大同	-11.0631
所願	-11.064
不謬	-11.0641
未出	-11.0642
二用	-11.0645
孔子	-11.0646
慧解脫	-11.0646
妄執	-11.0648
真正	-11.0648
我巳	-11.0649
棄捨	-11.0649
不調	-11.0651
盡智	-11.0651
最大	-11.0652
通利	-11.0653
其形	-11.0653
稱之為	-11.0653
從一	-11.066
於三	-11.066
為實施權	-11.066
汙	-11.0661
吼	-11.0663
生死即涅槃	-11.0664
輸	-11.0664
未足	-11.0664
聲聞辟支佛	-11.0665
證入	-11.0666
五悔	-11.0668
唯說	-11.0669
不頌	-11.0669
飢渴	-11.0669
有退	-11.0671
不差	-11.0671
猶豫	-11.0671
所無	-11.0672
彊	-11.0675
:《	-11.0676
不可量	-11.0676
合說	-11.0677
五通	-11.068
次答	-11.0681
今皆	-11.0683
為說法	-11.0686
奉命	-11.0688
婆沙云	-11.0691
心即	-11.0694
兩門	-11.0695
之深	-11.0695
三災	-11.0699
等義	-11.0701
化人	-11.0703
疑云	-11.0705
便成	-11.0712
▁一標	-11.0712
志求	-11.0714
餘處	-11.0716
遶	-11.0717
三草二木	-11.0717
百千萬億那由他	-11.0719
覈	-11.0719
顯今	-11.0719
灌	-11.072
涅槃云	-11.0721
眾善	-11.0724
蒙佛	-11.0729
有為無為	-11.0731
八十八使	-11.0731
逃	-11.0732
見如來	-11.0733
果滿	-11.0739
大段	-11.074
起滅	-11.074
進趣	-11.0741
荊溪云	-11.0745
應物	-11.0747
具此	-11.0748
生死之	-11.0751
種種方便	-11.0756
修於	-11.0758
初示	-11.0758
所入	-11.076
因是	-11.076
緣理	-11.0763
眾也	-11.0764
別在	-11.0764
又觀	-11.0766
大弟子	-11.0766
五停心	-11.0769
藍	-11.0774
思益	-11.0774
果後	-11.0778
敷演	-11.0782
策	-11.0787
化菩薩	-11.0788
湛然	-11.0789
忿	-11.079
為子	-11.079
以判	-11.0793
常精進	-11.0794
判屬	-11.0795
豈是	-11.0795
力也	-11.0797
愍念	-11.0798
自此	-11.0801
定是	-11.0802
六十二	-11.0804
開章	-11.0804
於實	-11.0807
之土	-11.0808
願我	-11.081
具十界	-11.0811
幻有	-11.0814
多說	-11.0816
亦有亦無	-11.0817
七支	-11.0818
果人	-11.0821
色無色	-11.0822
行願	-11.0826
耆闍崛山	-11.0827
彼云	-11.0832
欽	-11.0833
亘	-11.0834
亦見	-11.0834
顯發	-11.0835
陋	-11.0836
第二釋	-11.0836
於時	-11.0838
世所	-11.0839
記者	-11.0842
有損	-11.0843
而取	-11.0844
所以下	-11.0848
能了	-11.0848
永不	-11.0849
勢力	-11.085
觀相	-11.0854
實報土	-11.0856
結歸	-11.086
韋陀	-11.086
入真	-11.0861
懈	-11.0861
難者	-11.0866
心識	-11.0866
莫不皆	-11.0866
摩訶迦葉	-11.0867
殺人	-11.0867
為他說	-11.0867
開化	-11.0877
入大	-11.0878
以神力	-11.0878
如是相	-11.088
忉利	-11.088
聞教	-11.0882
法華中	-11.0885
〔	-11.0886
破徧	-11.0886
即實相	-11.0886
本師	-11.0888
而不能	-11.0888
剛	-11.0888
人情	-11.0894
儻	-11.0895
煩惱濁	-11.0897
稱性	-11.0898
疑問	-11.0898
破法徧	-11.0899
論義	-11.09
維那	-11.0901
空也	-11.0902
後生	-11.0902
入城	-11.0907
故用	-11.0908
三無差別	-11.0913
解脫道	-11.0914
首座	-11.0914
結上	-11.0917
之難	-11.0918
聞聲	-11.0921
說呪	-11.0927
得於	-11.0927
作用	-11.0928
先引	-11.093
以能	-11.0934
妄計	-11.0934
人皆	-11.0937
十劫	-11.0939
令眾	-11.0945
初說	-11.095
具在	-11.0951
尚自	-11.0953
生滅四諦	-11.0954
先總	-11.0954
為機	-11.0954
皆言	-11.0955
陰入界	-11.0956
開方便門	-11.0961
真身	-11.0961
籌	-11.0962
內身	-11.0962
修中	-11.0963
軀	-11.0964
謂此	-11.0964
並皆	-11.0966
障除	-11.0968
魯	-11.0968
增益	-11.0968
出沒	-11.0974
復生	-11.0975
十信位	-11.0976
五明	-11.0977
能修	-11.098
罪報	-11.0983
所觀境	-11.0984
雖曰	-11.0985
叵得	-11.0988
從他	-11.0989
無體	-11.0989
身根	-11.0989
深達	-11.0991
何云	-11.0992
不免	-11.0994
常坐	-11.0995
望於	-11.0995
一位	-11.0996
天中	-11.0996
理則	-11.0997
性中	-11.0998
為示	-11.0999
其猶	-11.1
製	-11.1001
作如是說	-11.1002
所須	-11.1002
鬪	-11.1003
此娑婆世界	-11.1003
一大事	-11.1003
寢	-11.1004
顯體	-11.1004
麗	-11.1005
灑	-11.1006
棲	-11.1007
見取	-11.1007
內觀	-11.1008
妙玄云	-11.1008
宏	-11.1009
之際	-11.1011
獵	-11.1012
下第二	-11.1016
無偏	-11.1017
囊	-11.1018
章句	-11.1019
願行	-11.102
相關	-11.1021
由彼	-11.1023
如來說	-11.1024
受持是經	-11.1025
南北	-11.1025
出體	-11.1027
初略	-11.1028
廣狹	-11.1028
同類	-11.103
仁王經	-11.1032
三科	-11.1039
徃	-11.1042
離相	-11.1047
總攝	-11.1047
譬也	-11.1048
貞	-11.1053
此道	-11.1054
於大乘	-11.1055
五頌	-11.1055
此會	-11.1056
受道	-11.1056
掉	-11.106
斗	-11.1062
募	-11.1066
頌前	-11.1068
為眾生說	-11.1069
元年	-11.107
空慧	-11.1071
例知	-11.1071
不殺	-11.1072
並名	-11.1072
分身佛	-11.1072
而分	-11.1073
涅槃經云	-11.1074
唯除	-11.1076
為眾生故	-11.1076
斷無明	-11.1078
受變易	-11.108
指示	-11.1081
無量千萬億	-11.1084
於此經	-11.1086
修成	-11.1087
任持	-11.1087
正用	-11.1088
立義	-11.1094
師子座	-11.1096
徵起	-11.1097
諸禪定	-11.1098
諸大乘經	-11.1098
一文	-11.1102
識陰	-11.1102
何用	-11.1103
義亦	-11.1104
八解脫	-11.1105
先說	-11.1105
地位	-11.1106
唯此	-11.1109
恐人	-11.1111
且初	-11.1112
二問	-11.1114
不自知	-11.1114
汎	-11.1119
佛既	-11.1119
請轉法輪	-11.112
之方便	-11.1124
四陰	-11.1125
摩尼	-11.1127
絲	-11.1127
即屬	-11.1128
所行道	-11.1128
癈	-11.1132
破立	-11.1136
評曰	-11.1136
眼智	-11.1137
十八空	-11.114
過此	-11.114
為度眾生	-11.1142
一切人	-11.1143
第二十	-11.1146
作如是	-11.1146
前巳	-11.1148
不名為	-11.1151
十二句	-11.1152
眼識	-11.1152
還以	-11.1155
作證	-11.1156
小善	-11.1158
徧照	-11.1159
待絕	-11.1159
提謂	-11.116
未始	-11.1164
體達	-11.117
契理	-11.117
貶	-11.117
故且	-11.1171
三名	-11.1171
在座	-11.1172
若行	-11.1173
外護	-11.1173
答前	-11.1174
復次下	-11.1174
窺	-11.1178
不二而二	-11.1179
爾前	-11.1182
之疑	-11.1182
朱	-11.1182
常見	-11.1187
次正釋	-11.1194
經歷	-11.1201
亦與	-11.1202
以圓	-11.1204
見濁	-11.1205
指上	-11.1206
議曰	-11.1207
權巧	-11.1208
之喻	-11.1209
現起	-11.121
少時	-11.121
之談	-11.1211
捨離	-11.1211
表之	-11.1211
於斯	-11.1212
為對	-11.1212
次破	-11.1215
功德也	-11.1217
又下文云	-11.1218
墮惡道	-11.1219
雖具	-11.1222
得無生法忍	-11.1224
於眾生	-11.1225
三相	-11.1226
我有	-11.1227
以種種	-11.1231
問此	-11.1231
貝	-11.1233
拒	-11.1235
名數	-11.1235
那忽	-11.1237
隨喜品	-11.1237
寂滅相	-11.1237
得近	-11.1238
為序	-11.1239
言詞	-11.1244
好醜	-11.1245
四十二	-11.1246
脩行	-11.1246
法身也	-11.1249
聞佛說	-11.125
)。(	-11.125
便有	-11.1255
寶塔品	-11.1257
問若	-11.1258
食之	-11.1259
行六度	-11.1263
二十六	-11.1266
可度	-11.1267
險道	-11.1271
文在	-11.1271
破見思	-11.1276
若夫	-11.1276
此問	-11.1276
妙體	-11.1277
破諸	-11.1279
是行	-11.1282
本非	-11.1282
侯	-11.1284
若復有人	-11.1284
昔有	-11.1285
萌	-11.1288
三學	-11.1289
之甚	-11.1289
證也	-11.1293
焦	-11.1295
趨	-11.1295
所談	-11.1295
聖果	-11.1296
速疾	-11.1297
詐	-11.13
不亂	-11.1302
皆然	-11.1303
業障	-11.1313
無見	-11.1317
兼得	-11.132
亦言	-11.1321
之法也	-11.1322
異解	-11.1325
兩足	-11.1328
大火	-11.1329
探領	-11.1331
欲重宣此義而說偈言	-11.1332
誼	-11.1337
食者	-11.134
三點	-11.1341
宰	-11.1341
攻	-11.1347
着	-11.1348
長文	-11.1348
證於	-11.1348
本時	-11.1349
何者是	-11.1349
因成	-11.135
佛有	-11.1353
諸佛智慧	-11.1355
六蔽	-11.1357
從因	-11.1357
鴿	-11.1359
瑩	-11.1359
此從	-11.136
三乘同	-11.136
第一卷	-11.1362
全同	-11.1365
巳說	-11.1366
亦何	-11.1369
一多	-11.137
十小劫	-11.137
梵網	-11.1373
有十種	-11.1375
但空	-11.1375
忖	-11.1379
赤色	-11.1383
徵釋	-11.1383
能離	-11.1387
娑羅	-11.139
無等等	-11.1391
善惡業	-11.1393
借別	-11.1395
特勝	-11.1397
以求	-11.1397
一相一味	-11.1399
通用	-11.1399
權說	-11.14
聞品	-11.14
問既	-11.1401
踐	-11.1404
聲聞菩薩	-11.1405
法本	-11.1406
共生	-11.1407
踊出	-11.1408
有支	-11.1409
初文又二	-11.1411
如夢	-11.1412
渡	-11.1415
罪人	-11.1417
即非	-11.142
約五味	-11.1421
趣向	-11.1422
佛記	-11.1424
聲聞弟子	-11.1429
復為	-11.143
自作	-11.1433
下料簡	-11.1439
是正	-11.1443
十億	-11.1444
二頌合	-11.1445
大寶	-11.1445
不生滅	-11.1449
總答	-11.1449
未顯	-11.145
入初地	-11.1452
於道	-11.1453
若復	-11.1453
令離	-11.1456
攝心	-11.1457
下別釋	-11.1458
第八識	-11.1459
法華會	-11.146
求其	-11.146
無念	-11.1463
次列	-11.1466
通則	-11.1466
為諸	-11.1467
松	-11.1469
諫	-11.147
實行	-11.147
大人	-11.1471
非唯	-11.1471
其所以	-11.1474
巖	-11.1477
四十八	-11.1478
一心中	-11.1483
論家	-11.1484
自非	-11.1485
其地	-11.1485
品名	-11.1485
之福	-11.1487
欲聞	-11.1491
辛	-11.1493
所不能	-11.1493
簡非	-11.1494
五種法師	-11.1497
起時	-11.1497
三受	-11.1497
如來出世	-11.1499
方便土	-11.1499
必定	-11.1499
道前	-11.1501
空不空	-11.1504
入理	-11.1507
唯觀	-11.1509
兩段	-11.151
說四諦	-11.1511
當生	-11.1512
釋出	-11.1514
約觀	-11.1515
內合	-11.1516
本處	-11.1521
約教者	-11.1521
巳心	-11.1528
分段生死	-11.153
巳還	-11.153
實體	-11.153
亦先	-11.1531
之想	-11.1531
本空	-11.1534
諸法皆	-11.1534
祝	-11.1536
寶物	-11.1538
照了	-11.1541
脩羅	-11.1541
三生	-11.1542
如是法	-11.1543
惟忖	-11.1543
十地菩薩	-11.1545
故文云	-11.1546
寶樹下	-11.1552
摩訶止觀	-11.1556
』	-11.1556
新云	-11.1558
並在	-11.1561
上地	-11.1561
諸聖	-11.1563
即離	-11.1566
法名	-11.157
正徧知	-11.1571
自恣	-11.1571
轉成	-11.1573
別約	-11.1574
層	-11.1578
加之	-11.1578
世出世	-11.1579
次斷	-11.158
喻如	-11.1581
事造	-11.1582
無量四諦	-11.1585
因緣者	-11.1585
傍正	-11.1586
恥	-11.1586
縱有	-11.159
大通智勝	-11.1592
不妄	-11.1596
即法性	-11.1596
色等	-11.1598
三苦	-11.16
則應	-11.1602
『	-11.1602
義不成	-11.1604
生死苦	-11.1606
不念	-11.1607
不驚	-11.1609
助宣	-11.161
即是佛	-11.1612
輪轉	-11.1616
例然	-11.1618
已去	-11.1625
教他	-11.1626
初依	-11.1628
從何	-11.1628
成阿耨多羅三藐三菩提	-11.1628
三界火宅	-11.1628
唱言	-11.163
觀體	-11.163
之詞	-11.1632
應生	-11.1633
次觀	-11.1634
下至	-11.1635
千歲	-11.1636
第十六	-11.1637
此依	-11.1637
三世益物	-11.1638
心得自在	-11.1639
僧伽	-11.1639
鮮	-11.1639
爪	-11.164
豈無	-11.1641
春秋	-11.1642
於無量	-11.1645
樞	-11.1645
肥	-11.1649
廣解	-11.165
諸釋	-11.1652
增數	-11.1655
他化	-11.1656
雖聞	-11.1659
佛菩薩	-11.1661
展轉相	-11.1662
覆講	-11.1664
後五	-11.1665
證法	-11.1665
作是說	-11.1667
舉喻	-11.1667
會之	-11.1668
勸人	-11.1668
推求	-11.1669
平正	-11.1671
或在	-11.1671
如次	-11.1672
求於	-11.1672
七八	-11.1673
則巳	-11.1678
是空	-11.1678
變易生死	-11.1679
真法	-11.1681
宛	-11.1681
牟云	-11.1681
中有四	-11.1685
如實智	-11.1685
諸難	-11.1686
助成	-11.1687
入無餘	-11.1688
之火	-11.169
煩惱即菩提	-11.1692
順理	-11.1693
三千界	-11.1694
心相體信	-11.1695
諦境	-11.1696
不相違	-11.1696
念彼觀音力	-11.1697
羸	-11.1699
滅度之後	-11.1702
隻	-11.1703
諸經中	-11.1705
請答	-11.1707
題目	-11.171
環	-11.1712
而坐	-11.1713
沾	-11.1713
爾雅云	-11.1713
始於	-11.1715
度脫眾生	-11.1718
三十四心	-11.1722
五眾	-11.173
諸句	-11.173
詳之	-11.173
不現前	-11.1732
現通	-11.1734
外色	-11.1734
麁妙	-11.1736
生不生	-11.1738
見諸眾生	-11.1739
勝進	-11.1742
可知矣	-11.1747
真智	-11.1749
更須	-11.1751
若乃	-11.1753
故屬	-11.1758
初敘	-11.176
觀理	-11.1761
見性	-11.1762
從佛聞	-11.1762
秊	-11.1762
托	-11.1764
舞	-11.1764
皆不可得	-11.1765
言或	-11.1766
十者	-11.1766
涼	-11.1766
躭	-11.1769
令心	-11.177
覔	-11.177
充足	-11.177
上二界	-11.1771
下斥	-11.1771
訪	-11.1774
法界次第	-11.1775
因何	-11.1775
名無量義	-11.1777
能取	-11.178
能受	-11.1781
心相	-11.1786
通達無礙	-11.1789
設方便	-11.1789
爾時舍利弗	-11.1791
真因	-11.1792
信樂	-11.1792
寶樹	-11.1793
三十子	-11.1793
離一切	-11.1793
菩薩聲聞	-11.1794
變現	-11.1795
雖爾	-11.1795
示滅	-11.1796
度人	-11.1796
謂為	-11.1797
停心	-11.1799
身口意	-11.1807
佛剎	-11.1808
例餘	-11.1808
從心	-11.1809
被機	-11.181
狐	-11.1811
三昧者	-11.1816
我說	-11.1817
三十七	-11.1817
嬉戲	-11.1818
吟	-11.182
更無別	-11.182
會三歸一	-11.1821
六十小劫	-11.1823
娑	-11.1826
著於	-11.1827
十千	-11.1828
地也	-11.1828
動靜	-11.1828
晦	-11.183
後有	-11.1831
憐	-11.1832
搆	-11.1832
教理行果	-11.1833
若發	-11.1836
夙	-11.1837
用心	-11.1838
近代	-11.184
中陰	-11.184
所因	-11.1841
星宿	-11.1842
讚嘆	-11.1846
實語	-11.1846
正應	-11.1848
得是	-11.185
苦因	-11.185
金輪	-11.1851
愛著	-11.1863
此由	-11.1863
並屬	-11.1867
般若中	-11.1867
隨類	-11.1868
不能盡	-11.187
通指	-11.1872
初合	-11.1873
以此為	-11.1877
亦成	-11.1879
詔	-11.188
所施	-11.1883
嗅	-11.1884
曠野	-11.1884
無所依	-11.1885
復何	-11.1886
之見	-11.1886
一切眾生皆	-11.1888
不順	-11.1888
仲	-11.1888
時至	-11.1889
一心頂禮	-11.1889
烟	-11.189
靡	-11.1891
象馬	-11.1892
捐	-11.1892
往詣	-11.1894
天帝	-11.1895
積聚	-11.1896
於境	-11.1897
求索	-11.1898
他受用	-11.19
非色	-11.1902
即起	-11.1902
嶺	-11.1903
皆令	-11.1903
拳	-11.1904
入三昧	-11.1905
法藥	-11.1906
之狀	-11.1909
五略	-11.191
失也	-11.1911
所潤	-11.1913
人心	-11.1915
且依	-11.1917
欣樂	-11.1919
其土	-11.1922
為作	-11.1923
空智	-11.1927
經中說	-11.1927
來生	-11.1928
藥病	-11.1928
即攝	-11.1929
雙樹	-11.1929
眾僧	-11.1933
作禮	-11.1934
說文云	-11.1935
於如來滅後	-11.1936
說是法華經	-11.1936
無際	-11.1936
動執生疑	-11.1937
為樂	-11.1937
所變	-11.1937
禍	-11.1939
鬚	-11.194
種種諸	-11.1941
不還	-11.1941
鐵輪	-11.1942
匪	-11.1945
十觀	-11.1945
不由	-11.1946
是眾生	-11.1946
不礙	-11.1948
不遍	-11.195
生疑惑	-11.195
十番	-11.1952
陰陽	-11.1955
則通	-11.1956
說耳	-11.1956
徧一切處	-11.1957
我雖	-11.1964
次說	-11.1964
大般若	-11.1965
佛力	-11.1968
巳知	-11.1968
無說	-11.197
大迦葉	-11.197
妙道	-11.197
為最	-11.197
五百弟子	-11.1971
▁二釋明	-11.1973
昔說	-11.1976
不觀	-11.1977
還歸	-11.198
所說之法	-11.1982
定力	-11.1983
在其中	-11.1986
作者	-11.1992
位位	-11.1995
十使	-11.1995
作如是言	-11.1995
此眾	-11.1998
從勝	-11.1999
修此	-11.1999
神通之力	-11.2002
中生	-11.2004
牟尼	-11.2005
始行	-11.2006
是長者	-11.2008
第一義悉檀	-11.2011
何耶	-11.2011
刺	-11.2012
淨戒	-11.2014
已前	-11.2016
五部	-11.2016
諸佛出世	-11.2018
鳩	-11.2018
陣	-11.2019
道德	-11.2019
以何法	-11.202
死屍	-11.2022
離染	-11.2025
乾慧地	-11.2025
無動	-11.2026
檀越	-11.2027
此據	-11.2027
橫論	-11.2029
何緣	-11.203
數也	-11.2032
世第一法	-11.2033
郎	-11.2034
六十劫	-11.2036
變土	-11.2037
一聞	-11.2038
設化	-11.2038
門門	-11.2039
若更	-11.2039
有見	-11.2041
答意者	-11.2046
可畏	-11.2046
當得阿耨多羅三藐三菩提	-11.2047
亦兼	-11.2048
類也	-11.2048
妙慧	-11.2049
安樂行品	-11.205
俱解脫	-11.2051
及見	-11.2051
商人	-11.2051
菩薩眾	-11.2052
而證	-11.2052
結業	-11.2054
舍利弗言	-11.2054
不虗也	-11.2054
無希取	-11.2057
能與	-11.2057
業道	-11.2058
如是則	-11.206
一大	-11.206
皃	-11.206
七佛	-11.206
貴賤	-11.206
是道	-11.2061
供養舍利	-11.2061
身長	-11.2064
二解	-11.2064
開示悟入佛之知見	-11.2065
王城	-11.2065
通別二	-11.2067
真似	-11.2068
事業	-11.2069
六妙門	-11.2071
天華	-11.2072
資成	-11.2073
大集經	-11.2073
一教	-11.2073
四月	-11.2075
自利利他	-11.2077
倉	-11.2078
閱	-11.2078
施主	-11.2079
訛	-11.2079
討	-11.2079
觀眾生	-11.208
依法	-11.2083
位不退	-11.2086
親疎	-11.2086
文末	-11.2088
則易	-11.2089
別譬	-11.209
一大事因緣	-11.2096
雖得	-11.2098
照東方	-11.2099
隨逐	-11.21
於事	-11.2101
明文	-11.2102
云何名為	-11.2102
變成	-11.2106
無非法界	-11.2108
廣宣	-11.211
妙德	-11.2113
名目	-11.2113
二萬佛	-11.2114
但由	-11.2116
人人	-11.2116
與上	-11.2117
萬歲	-11.2117
或從	-11.2117
異說	-11.2118
▁初立	-11.2119
二年	-11.2121
略不	-11.2122
是用	-11.2123
浩	-11.2127
是故如來	-11.2128
以身	-11.2129
皆稱	-11.213
即空即假即中	-11.2132
我昔	-11.2133
調熟	-11.2133
經初	-11.2133
並有	-11.2134
禽獸	-11.2135
超越	-11.2136
本識	-11.2136
三味	-11.2138
兮	-11.2138
一切菩薩	-11.2139
瑕	-11.2139
世界悉檀	-11.2139
一段	-11.214
八背捨	-11.2141
應在	-11.2142
稱其	-11.2144
熟蘇	-11.2144
具云	-11.2144
所及	-11.2145
斫	-11.2146
但成	-11.2148
拈	-11.2149
林中	-11.2149
之真	-11.215
本因	-11.2152
尚爾	-11.2153
諍論	-11.2159
與大	-11.2161
久矣	-11.2161
一切聲聞	-11.2163
月光	-11.2167
起修	-11.2169
中自有	-11.217
別答	-11.2173
之因緣	-11.2176
若唯	-11.2177
有二種一	-11.2178
淨行	-11.2179
及南曰	-11.218
三喻	-11.2181
是經典	-11.2182
十雙	-11.2183
無滅	-11.2185
此偈	-11.2185
行中	-11.2186
如後	-11.2187
對境	-11.2188
持法	-11.2189
受法	-11.2189
瞿	-11.2189
唯約	-11.219
電	-11.219
生後	-11.2192
今論	-11.2193
前文云	-11.2194
褒	-11.2195
若有菩薩	-11.2196
曼	-11.2197
瘦	-11.2197
誡勸	-11.2198
於餘	-11.2198
孟	-11.2199
請觀音	-11.22
妙法蓮華	-11.22
午	-11.2202
愁	-11.2202
低	-11.2203
班	-11.2203
第二從	-11.2203
斯乃	-11.2204
為七	-11.2205
英	-11.2208
薦	-11.2208
亦得名	-11.2208
何時	-11.2209
槩	-11.221
心心	-11.2215
六凡	-11.2215
化為	-11.2216
唯願	-11.2217
或謂	-11.2218
有多種	-11.2222
一科	-11.2225
此當	-11.2226
一个	-11.2227
人天乘	-11.2227
本心	-11.2228
答疏云	-11.2228
淨妙	-11.2229
但用	-11.2232
離苦	-11.2233
陶	-11.2233
善聽	-11.2234
要須	-11.2237
值遇	-11.2237
是謂	-11.2241
二十九	-11.2241
境妙	-11.2241
餘法	-11.2242
不顯	-11.2243
相入	-11.2244
三祇	-11.2245
止止	-11.2247
通別圓	-11.2247
問如何	-11.2247
劫初	-11.2248
示珠	-11.2248
相海	-11.2249
二德	-11.225
色香	-11.2251
光明照	-11.2251
力無所畏	-11.2251
財富無量	-11.2255
牀	-11.2257
小兒	-11.2258
圓解	-11.2258
峰	-11.2259
顯說	-11.2259
幹	-11.2261
就文為二	-11.2261
修六度	-11.2262
聞法華經	-11.2263
下破	-11.2263
祀	-11.2263
援	-11.2264
一心合掌	-11.2264
身心不動	-11.2265
約四教	-11.2266
持者	-11.2267
剌	-11.227
剃	-11.227
猶如虗空	-11.2272
障重	-11.2273
無文	-11.2273
能度	-11.2274
約於	-11.2277
示以	-11.2279
假中	-11.228
二生	-11.2282
成觀	-11.2283
天雨	-11.2284
受教	-11.2286
同彼	-11.2288
既明	-11.2289
第四明	-11.229
德本	-11.229
之日	-11.2293
是通	-11.2294
成菩提	-11.2294
如實知	-11.2296
諸方	-11.2297
三乘教	-11.2298
先敘	-11.2298
他經	-11.2298
為別	-11.2303
如身子	-11.2306
四地	-11.2306
若用	-11.2308
之恩	-11.2308
求無上道	-11.231
三惡	-11.2314
亦空	-11.2314
出火宅	-11.2314
遣使	-11.2314
我執	-11.2315
從三昧起	-11.2316
卉木	-11.2318
六神通	-11.2319
受想行識	-11.232
若開	-11.2322
兩足尊	-11.2322
有種種	-11.2323
八王子	-11.2323
自當	-11.2324
欄楯	-11.2325
健	-11.2327
初立	-11.2327
把	-11.2328
故不得	-11.2329
俱非	-11.233
說小	-11.233
互用	-11.233
不忍	-11.2331
梵本	-11.2331
分文	-11.2331
調停	-11.2332
授記品	-11.2333
山頂	-11.2336
是體	-11.2336
不徧	-11.2337
之源	-11.2337
大本	-11.2337
如幻化	-11.2338
煑	-11.2339
一切功德	-11.2341
利行	-11.2342
灌頂	-11.2342
以說	-11.2343
耶輸	-11.2344
智度	-11.2344
作大	-11.2347
而照	-11.2348
宿習	-11.2349
仍須	-11.2351
勝於	-11.2351
亦異	-11.2352
八者	-11.2352
玅覺	-11.2352
機也	-11.2353
為令	-11.2354
文可見	-11.2356
如月	-11.2357
得免	-11.2359
前六	-11.2362
本經	-11.2364
觀陰	-11.2364
觀經	-11.2364
既能	-11.2367
次譬	-11.2372
通因果	-11.2374
如來所說	-11.2376
不散	-11.2376
觀解	-11.2379
隨時	-11.2381
初總標	-11.2382
淡	-11.2383
覺分	-11.2384
四洲	-11.2385
叡	-11.2386
六根淨	-11.2386
諸世界	-11.2387
得意	-11.2388
在人	-11.2388
爐	-11.239
餘五	-11.239
隨喜者	-11.2391
無緣慈悲	-11.2393
賞	-11.2394
閣	-11.2396
定有	-11.2396
鎮	-11.2398
姑	-11.2398
相傳	-11.2399
九法界	-11.24
遍一切處	-11.2401
王宮	-11.2402
法身地	-11.2403
斷盡	-11.2403
染性	-11.2406
獨處	-11.2407
見眾生	-11.2407
方便門	-11.2408
諦緣	-11.2408
調適	-11.2409
化緣	-11.2409
十句	-11.241
何等為	-11.2411
雲集	-11.2411
略頌	-11.2413
自念	-11.2414
大雲	-11.2416
余曰	-11.2418
聞佛所說	-11.2418
三惡道	-11.242
他云	-11.2421
答問	-11.2423
我我所	-11.2427
於佛道	-11.2427
外觀	-11.2428
之病	-11.2429
卷第一	-11.2429
標名	-11.243
比丘比丘尼優婆塞優婆夷	-11.2433
惡獸	-11.2434
總舉	-11.2436
能救	-11.2436
體非	-11.2438
凡夫二乘	-11.2438
上流	-11.2439
三密	-11.244
今何	-11.2442
未起	-11.2447
即是法身	-11.245
有法	-11.245
旋陀羅尼	-11.2451
則可	-11.2452
八相成道	-11.2452
法財	-11.2453
村	-11.2453
皎	-11.2453
近迹	-11.2454
子等	-11.2454
庫藏	-11.2457
儀式	-11.246
多用	-11.2461
緣者	-11.2461
即圓	-11.2461
肆	-11.2462
呈	-11.2463
入如來室	-11.2464
圓家	-11.2464
蒼	-11.2465
麥	-11.2468
上忍	-11.2469
萬劫	-11.247
於權	-11.2472
三十一	-11.2473
信法	-11.2473
邪法	-11.2475
難易	-11.2475
操	-11.2476
此指	-11.2476
堪為	-11.2479
也又云	-11.248
形像	-11.248
染法	-11.248
成實	-11.248
遭苦	-11.2481
根未熟	-11.2481
就文	-11.2481
既具	-11.2482
在下	-11.2486
若有比丘	-11.2488
斷三界	-11.2489
無比	-11.2489
因緣生	-11.2489
▁二合	-11.249
此相	-11.2495
是世界	-11.2496
前四時	-11.25
故復	-11.25
修菩薩行	-11.2503
如來室	-11.2508
二百五十	-11.2509
香華	-11.251
聞香悉能知	-11.2512
中途	-11.2513
結前生後	-11.2515
谿	-11.2515
憚	-11.2515
庫	-11.2518
總說	-11.2518
此疑	-11.2519
之惡	-11.2522
是三昧	-11.2522
未曾有法	-11.2522
欠	-11.2522
次合	-11.2523
霑	-11.2523
費	-11.2524
秘藏	-11.2525
科文	-11.2526
阿難言	-11.2526
加持	-11.2527
戾	-11.2528
于今	-11.2529
一妙	-11.2529
諸魔	-11.2529
三月	-11.253
僅	-11.253
能聞	-11.253
願為	-11.253
上生	-11.2531
不移	-11.2533
針	-11.2534
等正覺	-11.2535
高原	-11.2537
折伏	-11.2538
止觀中	-11.2539
供給	-11.2539
得滅度	-11.2541
剎利	-11.2541
非我	-11.2544
意以	-11.2546
大城	-11.2547
餘習	-11.2548
一切行	-11.2548
釋文	-11.2548
聞名	-11.2549
入無餘涅槃	-11.255
雙結	-11.255
字義	-11.255
赴緣	-11.2551
大願	-11.2553
知法	-11.2554
日出	-11.2556
釋迦佛	-11.2556
無病	-11.2557
海水	-11.2558
名妙法蓮華	-11.2559
初一行半	-11.2559
直指	-11.2561
有色	-11.2565
父見子	-11.2565
應受	-11.2567
大千界	-11.2567
宣揚	-11.2567
一子	-11.2568
如來座	-11.2569
迹本	-11.2571
令諸眾生	-11.2571
於汝意云何	-11.2572
住者	-11.2573
選	-11.2574
初生	-11.2574
圓證	-11.2577
玅法蓮華經	-11.2577
何言	-11.2577
實道	-11.2578
汝身	-11.258
放大光明	-11.2583
六行半	-11.2586
智地	-11.2587
互為	-11.259
勘	-11.2594
初文又二初	-11.2599
信也	-11.26
次料簡	-11.2602
五十小劫	-11.2602
大事因緣	-11.2602
無違	-11.2604
鄣	-11.2606
二性	-11.2607
為師	-11.261
世法	-11.2611
或示	-11.2612
未到	-11.2615
歎法	-11.2617
樂受	-11.2617
藥王品	-11.2618
繫縛	-11.2618
染淨二	-11.262
以教	-11.2624
精勤	-11.2625
聖諦	-11.2626
開廢	-11.2626
熏心	-11.2627
障道	-11.2629
由心	-11.263
梵天王	-11.2631
時諸梵天王	-11.2631
肇	-11.2633
兩釋	-11.2638
文勢	-11.2639
菩	-11.264
樓閣	-11.2641
然燈佛	-11.2641
此智	-11.2641
受之	-11.2641
無外	-11.2642
鐵圍山	-11.2646
繒	-11.2648
皆巳成佛道	-11.2648
侶	-11.2649
無生無滅	-11.2651
後報	-11.2653
匝	-11.2654
亦令	-11.2654
刪	-11.2655
波羅密	-11.2657
既未	-11.2657
醒	-11.2658
此法門	-11.2659
於未來	-11.2659
伏忍	-11.266
蝮	-11.266
闍梨	-11.266
四佛	-11.2664
時人	-11.2664
第十地	-11.2667
淚	-11.2667
漚	-11.2669
與我	-11.2671
灰斷	-11.2673
即表	-11.2674
又於	-11.2674
現神力	-11.2676
唯有一乘	-11.2676
極樂	-11.2676
彰其	-11.2678
在初	-11.2679
婬欲	-11.268
財施	-11.2681
亦不可	-11.2681
自立	-11.2684
四乘	-11.2684
去取	-11.2686
嘉祥	-11.2686
法華會上	-11.2687
所論	-11.2687
覺者	-11.2688
無他	-11.2688
求名	-11.2689
此並	-11.269
必以	-11.269
諸業	-11.2691
初修	-11.2691
發生	-11.2693
天宮	-11.2698
無遺	-11.2701
發露	-11.2702
方盡	-11.2705
說妙法	-11.2705
勳	-11.2707
得福	-11.2707
諸論	-11.2707
相現	-11.2708
為所依	-11.2708
族姓子	-11.2708
先出	-11.271
小超	-11.2712
未度	-11.2712
脩多羅	-11.2712
示佛知見	-11.2713
平聲	-11.2713
遍照	-11.2713
祗	-11.2714
從其	-11.2714
復是	-11.2714
只有	-11.2714
涅	-11.2716
功成	-11.2716
罵詈	-11.2716
自昔	-11.2717
盡是	-11.2719
一句一偈	-11.272
屠	-11.2721
決疑	-11.2722
入住	-11.2723
怯	-11.2723
故號	-11.2726
又為二	-11.2727
輝	-11.2728
斯義	-11.273
▁初長行	-11.2734
。」△	-11.2735
百萬億那由他	-11.2735
又為	-11.2736
界內外	-11.2736
等經	-11.2736
此門	-11.2736
常以	-11.2736
十年	-11.2737
各以	-11.2737
頌文	-11.2739
雙舉	-11.274
餘國	-11.2742
逗機	-11.2742
機熟	-11.2743
毀謗	-11.2745
照境	-11.2748
厭苦	-11.2749
無佛	-11.2749
酥	-11.2749
初番	-11.2751
證涅槃	-11.2751
成就眾生	-11.2753
有為法	-11.2753
命根	-11.2758
初周	-11.2759
當知是	-11.276
瓔珞經	-11.276
等四句	-11.276
妬	-11.2761
菩薩地	-11.2762
初文二	-11.2763
初出	-11.2767
謦欬	-11.2768
方便教	-11.2769
互現	-11.277
略出	-11.2771
諸漏	-11.2773
隨事	-11.2774
譬作本	-11.2777
舍利弗等	-11.2778
因人	-11.2782
栖	-11.2785
貧里	-11.2785
敕	-11.2787
常住不滅	-11.2789
以何	-11.279
軸	-11.279
阿鼻	-11.279
藥草喻品	-11.279
究竟涅槃	-11.2793
經家敘	-11.2794
是故名為	-11.2795
頑	-11.2795
許說	-11.28
是諸人等	-11.2802
為下根	-11.2804
可為	-11.2805
體徧	-11.2809
殺生	-11.281
約部	-11.281
稱揚	-11.2813
終無	-11.2817
百萬	-11.2818
詣佛所	-11.2819
心懷	-11.282
他生	-11.2821
而釋	-11.2823
八句	-11.2824
上長行	-11.2824
明因	-11.2824
行妙	-11.2825
豈同	-11.2825
中理	-11.2826
必不	-11.2827
使其	-11.2828
適時	-11.283
卷第三	-11.283
甚難	-11.2833
甚為希有	-11.2836
又解	-11.2836
摩頂	-11.2837
對論	-11.2839
正遍知	-11.2849
求佛道者	-11.2849
力士	-11.285
忍位	-11.2851
何益	-11.2852
列眾	-11.2852
其功	-11.2853
激	-11.2854
初是	-11.2856
即上	-11.2857
我今當	-11.2857
妙果	-11.2858
戴	-11.2858
苗	-11.2862
十二門	-11.2863
陷	-11.2863
胸	-11.2864
曹	-11.2864
端嚴	-11.2865
有本	-11.2865
身內	-11.2866
枝末	-11.2866
即破	-11.2867
嗔恚	-11.2867
纂	-11.2868
煗	-11.2869
爾時窮子	-11.287
天衣	-11.2872
好惡	-11.2875
有通別	-11.2876
樂著	-11.2876
阿脩羅	-11.2878
如是我聞	-11.2879
聞思	-11.2881
狹小	-11.2881
善吉	-11.2882
人師	-11.2883
七行	-11.2883
可識	-11.2883
恐誤	-11.2884
長大	-11.2885
行業	-11.2885
吾祖	-11.2886
判位	-11.2887
四種四諦	-11.289
供養者	-11.2893
法性身	-11.2899
引大論	-11.29
退失	-11.2902
終歸	-11.2905
眼目	-11.2906
俱舍論	-11.2907
聽聞	-11.2909
等相	-11.2909
諸義	-11.2909
二章	-11.2909
藥艸	-11.2913
三十三	-11.2915
故來	-11.2919
名觀世音	-11.2919
如是性	-11.292
天授	-11.292
相從	-11.292
自餘	-11.292
欺誑	-11.2922
仲尼	-11.2923
隨意所	-11.2924
論說	-11.2926
肘	-11.2927
必是	-11.2929
占	-11.2929
七生	-11.293
弘宣	-11.293
三行半	-11.293
卷第四	-11.2931
無樂	-11.2932
一問	-11.2934
比決	-11.2936
然其	-11.2936
則全	-11.2937
現於	-11.2937
然今	-11.2938
難遇	-11.2941
喫	-11.2943
等耶	-11.2945
瑞應	-11.2945
一切種	-11.2948
天性	-11.295
勤求	-11.2952
行不退	-11.2952
現報	-11.2956
次正明	-11.2956
如是等種種	-11.296
所致	-11.296
初以	-11.2961
性本	-11.2963
彼論	-11.2965
能伏	-11.2966
兩品	-11.2967
前兩	-11.2967
初入	-11.2971
天耳	-11.2971
之論	-11.2971
由佛	-11.2972
從實	-11.2973
流入	-11.2973
金口	-11.2973
品目	-11.2975
百福	-11.2975
巳具	-11.2978
明見	-11.2978
况	-11.2978
而且	-11.2981
無厭	-11.2981
正勤	-11.2981
須約	-11.2984
龍神	-11.2984
智境	-11.2985
無數方便	-11.2987
言語道斷	-11.2987
初有	-11.2988
唯佛與佛	-11.2988
親族	-11.2989
仍有	-11.2989
上之	-11.299
普門示現	-11.2991
告諸比丘	-11.2992
授與	-11.2995
法法	-11.2996
不周	-11.2997
是乘	-11.2997
萬八千土	-11.2998
禱	-11.2998
龕	-11.3
望前	-11.3
知機	-11.3002
準前	-11.3002
聲教	-11.3003
心想	-11.3003
於一一	-11.3004
自相	-11.3008
遍計	-11.3011
世出世間	-11.3013
深重	-11.3013
據實	-11.3014
先約	-11.3015
根緣	-11.3019
為麁	-11.3021
他宗	-11.3021
經首	-11.3023
七識	-11.3025
入出	-11.3026
化法	-11.3029
舊解	-11.303
譬於	-11.3031
顯真實	-11.3031
意明	-11.3033
毒害	-11.3036
十里	-11.3037
為事	-11.3038
不便	-11.3038
是身	-11.3039
末法	-11.304
束為	-11.304
執持	-11.3041
所譯	-11.3042
據理	-11.3042
是涅槃	-11.3045
天行	-11.3046
▁二結	-11.3046
委釋	-11.3047
自能	-11.3048
增道損生	-11.3049
攀	-11.305
此節	-11.3051
▁九	-11.3052
何人	-11.3052
兩經	-11.3054
知息	-11.3054
飜	-11.3055
淨光	-11.3056
巳斷	-11.3057
還成	-11.3058
五戒十善	-11.3058
臍	-11.306
什公	-11.3061
法樂	-11.3061
前約	-11.3063
揭	-11.3065
得作佛	-11.3066
或於	-11.3067
次第者	-11.3067
賦	-11.3068
既通	-11.3068
貨	-11.3068
袈裟	-11.307
六度菩薩	-11.307
正受	-11.3071
還復	-11.3072
四行半	-11.3075
立此	-11.3076
方所	-11.3076
當成	-11.3077
而辨	-11.3085
五六	-11.3086
雖即	-11.3087
昔曾	-11.309
同聞	-11.3091
令成	-11.3094
中又二	-11.3095
我皆	-11.3095
果果	-11.3097
三行頌	-11.3102
既成	-11.3102
聞是法	-11.3107
於諸佛所	-11.3107
塵數	-11.3107
千里	-11.3107
植眾德本	-11.3111
今合	-11.3112
污	-11.3113
未堪	-11.3115
觀時	-11.3115
阿含云	-11.3118
斷疑生信	-11.312
悉有	-11.3121
四辯	-11.3121
成佛時	-11.3122
釋提桓因	-11.3124
挫	-11.3124
爾時長者	-11.3125
八難	-11.3126
削	-11.3127
長行中	-11.3127
心外	-11.3128
火難	-11.3128
之化	-11.3128
洎	-11.3129
岳	-11.3129
裁	-11.313
生蘇	-11.313
勤苦	-11.313
且據	-11.3132
證信	-11.3133
敬禮	-11.3134
樹王	-11.3134
殺賊	-11.3139
犬	-11.3139
崩	-11.314
亦難	-11.3142
次判	-11.3145
佛亦	-11.3148
法說中	-11.3148
滅故	-11.3148
皆得解脫	-11.315
精舍	-11.315
蓮花	-11.3155
昔於	-11.3157
菩薩以	-11.3157
滅定	-11.3158
緣修	-11.316
在彼	-11.3161
性念處	-11.3161
歸趣	-11.3162
籤云	-11.3162
滿中	-11.3164
三文	-11.3168
願佛	-11.3169
皆大歡喜	-11.3169
巳生	-11.3171
直以	-11.3173
具如止觀	-11.3176
亦不知	-11.3176
相空	-11.3178
今古	-11.3178
具一切	-11.3179
爾許	-11.3181
佛經	-11.3182
分得	-11.3182
華嚴中	-11.3183
財寶	-11.3183
淨業	-11.3183
斯文	-11.3185
一實相	-11.3186
即顯	-11.3186
能趣	-11.3189
是第一義	-11.319
來入	-11.3191
發阿耨多羅三藐三菩提心	-11.3191
此性	-11.3192
悟理	-11.3193
在迷	-11.3193
無限	-11.3195
黃金	-11.3195
鎧	-11.3195
譬之	-11.3197
己身	-11.32
諸味	-11.32
愆	-11.3201
火宅中	-11.3202
醯	-11.3202
別列	-11.3204
果成	-11.3204
詮量	-11.3204
深法	-11.3204
通約	-11.3205
常說	-11.3205
來至此	-11.3206
荼	-11.3207
判釋	-11.3208
且云	-11.3212
慈氏	-11.3213
即此義也	-11.3213
示同	-11.3214
即心	-11.3215
勤精進	-11.3215
羽	-11.3216
四微	-11.3217
如乳	-11.3218
即說	-11.3218
所開	-11.3221
眾生法	-11.3226
惡行	-11.3227
即涅槃	-11.3241
教以	-11.3242
六處	-11.3242
即合	-11.3245
如淨名	-11.3246
慧行	-11.3247
初文中	-11.3248
義意	-11.3248
起信論	-11.3251
皆入	-11.3251
初又三	-11.3254
無央數	-11.3254
眾聖	-11.3257
妙假	-11.3258
止之	-11.326
大部	-11.326
三十五	-11.3261
若眾生	-11.3262
更無餘	-11.3265
有說	-11.3265
作是思惟	-11.3266
諸三昧	-11.3268
等賜大車	-11.3268
法有	-11.3269
鳳	-11.327
雙標	-11.3271
是假	-11.3272
不知其	-11.3273
軒	-11.3273
二而不二	-11.3274
為一乘	-11.3276
火災	-11.3276
正因佛性	-11.3276
知諸法	-11.3276
如來衣	-11.3276
在果	-11.3277
痴	-11.3278
即無明	-11.328
見佛聞法	-11.3281
來至佛所	-11.3281
略不頌	-11.3283
法化	-11.3283
不惟	-11.3283
▁一明	-11.3286
正直	-11.3287
且置	-11.3289
婆娑	-11.3293
法利	-11.3295
雙遮	-11.3296
威力	-11.3307
不分別	-11.3309
老子	-11.331
事禪	-11.3311
伽羅	-11.3311
服藥	-11.3313
上妙	-11.3313
右手	-11.3315
食人	-11.3316
八生	-11.3316
小乘人	-11.3319
三日	-11.332
報化	-11.332
序云	-11.3323
生歡喜	-11.3324
四空	-11.3325
無煩惱	-11.3326
下解釋	-11.3326
起見	-11.3327
非滅現滅	-11.3328
在會	-11.3333
具列	-11.3334
九次第定	-11.3335
祕密藏	-11.3335
永斷	-11.3335
各隨	-11.3336
所得法	-11.3338
滿願	-11.334
地住	-11.3342
入大乘	-11.3343
冰	-11.3343
隷	-11.3344
調柔	-11.3346
效	-11.3346
來集	-11.3347
諸善根	-11.3347
南洲	-11.3348
斛	-11.3348
云何為	-11.335
教授	-11.3352
和會	-11.3352
未發心	-11.3353
唯一佛乘	-11.3353
之餘	-11.3355
昔佛	-11.3358
若直	-11.3365
益他	-11.3367
隨應	-11.3367
實慧	-11.3368
寂滅忍	-11.3368
非人	-11.3369
論解	-11.3372
若將	-11.3373
則同	-11.3373
為究竟	-11.3374
隅	-11.3381
令一切眾生	-11.3381
重者	-11.3382
從初發心	-11.3384
假設	-11.3384
亦明	-11.3385
過現	-11.3388
依之	-11.339
為兩	-11.3393
〉、〈	-11.3396
又二先	-11.3398
真中	-11.3399
若了	-11.34
共有	-11.34
淨佛土	-11.3401
初一句	-11.3402
中智	-11.3402
律師	-11.3402
世間相常住	-11.3403
時分	-11.3404
入圓	-11.3405
如來方便	-11.3405
之矣	-11.3405
為他人說	-11.3406
疲極	-11.3406
三脫	-11.3407
十德	-11.3407
諍競	-11.3409
七年	-11.3409
初教	-11.3409
毗沙門	-11.3409
相分	-11.341
此中意	-11.341
艱	-11.3411
記文	-11.3411
輕賤	-11.3413
閒	-11.3413
四無量	-11.3414
斷除	-11.3416
外緣	-11.3416
脣	-11.3417
雞	-11.3419
勇施	-11.3419
祿	-11.3419
方等中	-11.3422
心心所	-11.3424
聖主	-11.3425
絃	-11.3426
日月淨明德佛	-11.3428
辨才	-11.343
迹示	-11.3432
妙悟	-11.3434
內證	-11.3434
讀者	-11.3435
之水	-11.3435
不顛倒	-11.3437
是子	-11.3438
▁三又	-11.3441
曉了	-11.3441
不缺	-11.3441
從來	-11.3442
中邊	-11.3443
寄言	-11.3445
遍身	-11.3446
小千	-11.3452
佛德	-11.3454
是有漏	-11.3457
願滿	-11.3461
機動	-11.3462
更互	-11.3463
故論云	-11.3464
四句者	-11.3464
法師云	-11.3466
摩訶薩	-11.3466
無所著	-11.3468
此通	-11.3468
更說	-11.3469
隨力	-11.3469
如說	-11.347
六師	-11.347
七科	-11.3471
有通有別	-11.3474
秘密藏	-11.3479
小乘中	-11.348
一釋	-11.348
證此	-11.348
執小	-11.3481
▁初舉	-11.3481
所學	-11.3482
不被	-11.3483
皆見	-11.3485
卷第二	-11.3486
本論	-11.3486
切音	-11.3489
當念	-11.3489
劫中	-11.3489
粟	-11.349
桃	-11.349
詰	-11.3491
無量壽	-11.3491
非滅	-11.3492
所著	-11.3492
憶想	-11.3492
一念信解	-11.3493
一華	-11.3494
於一乘	-11.3495
拔濟	-11.3495
頂上	-11.3495
為菩薩說	-11.3496
出過	-11.3497
如何是	-11.3498
總言	-11.3501
行苦	-11.3502
五分法身	-11.3502
此華	-11.3502
季	-11.3503
瓜	-11.3504
而常	-11.3504
聞香	-11.3505
淨法	-11.3508
功報	-11.3509
問意	-11.3509
本中	-11.3509
住空	-11.3514
意耳	-11.3514
約說	-11.3515
法力	-11.3516
此合	-11.3517
滅相	-11.3518
一則	-11.3519
得受記	-11.3521
所熏	-11.3523
▁三明	-11.3523
諸方便	-11.3525
世間出世間	-11.3526
至理	-11.3527
或約	-11.3528
二千人	-11.3535
簡異	-11.3536
即世界	-11.3537
顯妙	-11.3537
諸法空	-11.3538
今開	-11.3539
䟽	-11.354
繫念	-11.3545
起後	-11.3546
是定	-11.3546
大威德	-11.3548
如疏	-11.3548
未論	-11.355
▁初示	-11.355
事法	-11.355
竺	-11.3552
罰	-11.3553
前進	-11.3556
法師功德品	-11.3558
鬱	-11.3558
所習	-11.356
即法	-11.3563
不窮	-11.3564
臥具	-11.3565
前諸	-11.3565
句句	-11.3566
現像	-11.3566
有三意	-11.3568
隱沒	-11.3572
之音	-11.3574
未是	-11.3575
四種三昧	-11.3576
庸	-11.3576
離愛	-11.3577
本生	-11.3578
無缺	-11.3578
四正勤	-11.3579
五地	-11.3581
解經	-11.3583
入見道	-11.3585
正答	-11.3585
為後	-11.3587
輭	-11.359
第二段	-11.3591
前解	-11.3591
轉釋	-11.3593
義異	-11.3598
動搖	-11.3599
徒眾	-11.36
不思	-11.3601
億劫	-11.3602
是聲聞	-11.3604
當說	-11.3606
理顯	-11.3611
常有	-11.3612
不生不生	-11.3616
如來以	-11.3616
九者	-11.3618
之志	-11.3618
如實相	-11.362
更約	-11.3623
維摩詰	-11.3623
為人說	-11.3624
不預	-11.3624
本不生	-11.3627
喻曰	-11.3628
智勝	-11.3629
為惡	-11.363
諷	-11.363
得無漏	-11.363
眾惡	-11.3631
鶴	-11.3631
常寂光	-11.3632
大慈大悲	-11.3632
取之	-11.3633
技	-11.3634
鍊	-11.3635
風吹	-11.3635
只如	-11.3635
六萬	-11.3635
罷	-11.3635
咨	-11.3635
廓	-11.3636
如上所說	-11.3639
澁	-11.3639
憎	-11.3642
蒲	-11.3643
真宗	-11.3643
他事	-11.3644
六十四	-11.3645
第五十人	-11.3647
宣示	-11.3647
藏識	-11.3647
自陳	-11.3649
聖凡	-11.3649
若解	-11.365
如下文	-11.3651
潤生	-11.3652
疏言	-11.3653
無苦	-11.3653
隨心	-11.3657
三藏佛	-11.3659
無足	-11.366
柔輭	-11.3662
皆先	-11.3664
釋迦如來	-11.3665
身證	-11.3668
句也	-11.3669
說不能盡	-11.367
巧拙	-11.367
八番	-11.3671
置毒	-11.3671
俱通	-11.3671
知一切	-11.3672
勸令	-11.3672
客曰	-11.3673
若破	-11.3676
了無	-11.3678
不稱	-11.3678
靜處	-11.3679
諸品	-11.368
第二卷	-11.3681
小異	-11.3682
何以知	-11.3682
菩提樹	-11.3688
即是如來	-11.3688
久巳	-11.3689
坐師子座	-11.3689
難信難解	-11.3689
出自	-11.369
然後乃	-11.3692
薩遮	-11.3692
華臺	-11.3692
師子奮迅	-11.3692
諂曲	-11.3693
莫過	-11.3694
一見	-11.3694
解脫門	-11.3695
智體	-11.3695
涅槃是	-11.3695
畔	-11.3696
火所燒	-11.3699
斯事	-11.3702
砂	-11.3704
價直	-11.3704
逝	-11.3704
佛祖	-11.3704
叔	-11.3706
之具	-11.3706
是色	-11.3707
行解	-11.3707
邦	-11.3709
遽	-11.371
玄籤	-11.3712
斥之	-11.3713
髓	-11.3713
不可得故	-11.3715
如此等	-11.3715
銘	-11.3715
生彼	-11.3715
觀色	-11.3716
隨其所	-11.3716
脈	-11.3717
戒者	-11.372
豈唯	-11.372
事觀	-11.372
有德	-11.372
領納	-11.372
姚	-11.3721
初喻	-11.3721
乘體	-11.3722
釋題	-11.3728
揀非	-11.3728
道後	-11.3728
青蓮華	-11.3731
二境	-11.3732
攝盡	-11.3734
法華為	-11.3735
必無	-11.3739
不備	-11.3739
別頌	-11.3742
麤細	-11.3743
彼經云	-11.3745
或為	-11.3745
至心	-11.3747
分別功德	-11.3747
盡其	-11.3748
教旨	-11.3749
一闡提	-11.3749
斯人	-11.3749
伏斷	-11.375
▁二出	-11.3753
之儀	-11.3756
9	-11.3757
起大悲心	-11.3757
雜心	-11.3757
引古	-11.3758
除滅	-11.3758
能攝	-11.3759
眾喜	-11.3759
有淺深	-11.376
太虗	-11.3761
為例	-11.3763
門人	-11.3763
薩遮尼乾子	-11.3763
有功	-11.3767
袒	-11.3771
至等覺	-11.3771
欲使	-11.3771
珊	-11.3772
七行半	-11.3775
哲	-11.378
何要	-11.378
大明	-11.3781
偷	-11.3783
唾	-11.3783
凡位	-11.3783
未久	-11.3783
勝鬘經	-11.3784
非獨	-11.3786
中道第一義諦	-11.3786
雙明	-11.3787
擅	-11.3787
除諸	-11.3787
觀因緣	-11.3787
總有	-11.3788
智光	-11.3789
嶽	-11.3789
諸佛土	-11.379
犢子	-11.3791
應現	-11.3793
北洲	-11.3794
尚書	-11.3797
異體	-11.3798
更相	-11.3799
能招	-11.3799
佛地論	-11.3801
諸梵	-11.3802
諸波羅蜜	-11.3804
迦葉當知	-11.3809
自責	-11.3809
於茲	-11.3809
此二種	-11.3811
得離	-11.3815
相似位	-11.3816
一世	-11.3816
大數	-11.3819
虗相	-11.3824
六門	-11.3824
得初果	-11.3825
理合	-11.3829
頌第一	-11.383
牛羊	-11.3831
十二種	-11.3832
2	-11.3833
四安樂行	-11.3833
二論	-11.3836
跨節	-11.3836
七善	-11.3836
故喻以	-11.3841
非有想非無想	-11.3843
勑	-11.3846
於虗空中	-11.3848
似有	-11.3849
而反	-11.385
詠	-11.3851
復見	-11.3851
阿毘曇	-11.3851
即證	-11.3852
毋	-11.3855
不障	-11.3856
知禮	-11.3858
屏	-11.3859
說法教化	-11.3859
居初	-11.3859
之人也	-11.3863
取小	-11.3864
便生	-11.3866
白言	-11.3868
無垢稱	-11.3868
地地	-11.3871
攀緣	-11.3871
定起	-11.3872
由斯	-11.3873
下頌	-11.3874
眾緣	-11.3874
鈍者	-11.3874
一毫	-11.3875
重說	-11.3875
為治	-11.3876
非非想	-11.3877
豈以	-11.3877
今師	-11.388
上方	-11.3881
七種方便	-11.3882
四三昧	-11.3884
不煩	-11.3886
楞嚴云	-11.3889
皆明	-11.3891
於佛滅後	-11.3892
四章	-11.3893
七百	-11.3894
大喜	-11.3895
行善	-11.3895
從假入空	-11.3897
行施	-11.3899
自受用	-11.3899
淨覺	-11.3899
若執	-11.3901
是自行	-11.3902
頌第三	-11.3906
不相離	-11.3907
圓常	-11.3908
諸天子	-11.3908
唯圓	-11.391
此佛	-11.3912
略廣	-11.3912
著如來衣	-11.3914
病者	-11.3914
中夜	-11.3914
日用	-11.3914
頭面禮足	-11.3915
文理	-11.3916
深觀	-11.3917
別指	-11.3918
二乘菩薩	-11.3922
介爾	-11.3923
顛	-11.3924
訶責	-11.3924
會權歸實	-11.3926
結顯	-11.3931
融會	-11.3931
其要	-11.3931
遞	-11.3932
厄	-11.3932
消滅	-11.3938
與二乘	-11.3939
位高	-11.3941
所轉	-11.3941
歎經	-11.3943
為空	-11.3944
厭患	-11.3945
各四	-11.3947
肝	-11.3949
以偈	-11.395
中路	-11.395
十二支	-11.3951
明知	-11.3954
佛在世	-11.3955
金剛心	-11.3956
四句分別	-11.3956
即發	-11.3959
一觀	-11.3959
見空	-11.3961
放捨	-11.3962
今法華	-11.3966
四結	-11.3966
從定起	-11.3968
即今	-11.3969
各論	-11.397
初一頌	-11.397
利使	-11.3971
能開	-11.3972
足以	-11.3972
似解	-11.3974
千劫	-11.3975
十玅	-11.3975
並以	-11.3977
不信受	-11.398
度入	-11.3981
觀諸法	-11.3982
日月燈明佛	-11.3986
令物	-11.3986
故有此	-11.3987
伏無明	-11.3987
於一佛乘分別說三	-11.3988
求菩提	-11.3988
大種	-11.3989
應無	-11.399
真偽	-11.3992
妙義	-11.3992
周匝	-11.3995
十意	-11.3995
廢權	-11.3995
天龍八部	-11.3997
荷負	-11.3998
非常非無常	-11.3998
在門外	-11.3999
先示	-11.3999
二味	-11.4
宿王	-11.4001
只緣	-11.4001
矜	-11.4002
仗	-11.4003
妄見	-11.4003
不惜身命	-11.4004
淨性	-11.4007
安能	-11.4008
靈鷲	-11.401
別異	-11.401
又無	-11.4012
▁一示	-11.4012
無分	-11.4012
大根	-11.4013
同在	-11.4013
昌	-11.4014
復須	-11.4015
鍾	-11.4016
於外	-11.4016
相承	-11.4018
能壞	-11.4019
戒定	-11.402
惟其	-11.402
下化	-11.4021
如何得	-11.4022
佛境界	-11.4022
大莊嚴	-11.4024
十種三法	-11.4025
道成	-11.4026
還生	-11.4028
善見	-11.4028
今當說	-11.4028
並非	-11.4029
究竟等	-11.403
安可	-11.4032
持名	-11.4032
並云	-11.4033
為除	-11.4034
下四句	-11.4035
兜率天	-11.4036
不存	-11.4037
請法	-11.4037
全在	-11.4039
從緣生	-11.4041
鈴	-11.4049
一萬	-11.4049
初總明	-11.4049
似位	-11.4049
不次	-11.4052
所獲	-11.4056
佛因	-11.4059
苦苦	-11.4059
除障	-11.406
身量	-11.4061
別教菩薩	-11.4062
即對治	-11.4064
行有	-11.4064
之屬	-11.4065
學道	-11.4066
則不可	-11.4066
三昧力	-11.4067
百八	-11.4067
機情	-11.4067
入不二法門	-11.4069
由我	-11.407
從何所來	-11.4074
剩	-11.4075
樂聞	-11.4076
掘	-11.4076
爾時彌勒菩薩	-11.4079
塔中	-11.4079
未除	-11.4079
深密	-11.408
是故我	-11.4081
耐	-11.4081
從果	-11.4082
永嘉	-11.4083
於世間	-11.4083
咄	-11.4084
炭	-11.4085
迦葉佛	-11.4085
墻壁	-11.4085
之世	-11.4086
之分	-11.4086
亦應有	-11.4087
無餘涅槃	-11.4088
枉	-11.4089
阻	-11.4089
無分別智	-11.4091
夫子	-11.4092
所化眾生	-11.4092
一心三智	-11.4093
四念	-11.4094
次有	-11.4096
分為三	-11.4098
今文云	-11.4107
染污	-11.4108
流通分	-11.4109
正破	-11.411
善來	-11.4112
有疾	-11.4113
不至	-11.4116
空相	-11.4117
字誤	-11.4119
退轉	-11.4122
文殊師利言	-11.4123
古德	-11.4128
諸山	-11.4131
空生	-11.4131
無價	-11.4134
如王	-11.4135
不獲	-11.4135
6	-11.4137
分科	-11.4137
正語	-11.4139
近果	-11.4141
筌	-11.4146
起觀	-11.4147
藏中	-11.4148
頂戴	-11.4151
既久	-11.4151
慈悲喜捨	-11.4151
持地	-11.4151
新舊	-11.4152
旃陀羅	-11.4153
智妙	-11.4153
始成	-11.4153
若許	-11.4154
長行云	-11.4154
無滯	-11.4154
塗香	-11.4155
幰	-11.4156
住地	-11.4156
證法身	-11.4156
故不須	-11.4157
所不能知	-11.4157
吏	-11.4158
論語	-11.4159
能潤	-11.416
鋒	-11.4161
七卷	-11.4161
瓦	-11.4162
乙	-11.4163
自顯	-11.4163
發真無漏	-11.4165
良藥	-11.4167
例此	-11.4168
捕	-11.4169
後五百歲	-11.4169
也今謂	-11.4171
詩云	-11.4172
二萬億佛所	-11.4173
從緣	-11.4176
著心	-11.4177
為相	-11.4178
四十六	-11.4179
所不及	-11.4179
無復煩惱	-11.418
一心稱名	-11.4184
帶方便	-11.4184
不見佛	-11.4186
下答	-11.4187
章中	-11.4187
滅盡定	-11.4188
梵眾	-11.4188
勝法	-11.4193
婆羅	-11.4194
心自在	-11.4194
往古	-11.4199
滅也	-11.4199
意生身	-11.42
有力	-11.4201
普現色身	-11.4204
而不說	-11.4205
因心	-11.4207
與他	-11.4208
未會	-11.4211
如牛	-11.4212
思之思之	-11.4213
歎二智	-11.4213
其次	-11.4216
必假	-11.4217
漸中	-11.4218
不除	-11.4218
非生現生	-11.4218
戒也	-11.4218
此下是第二	-11.4219
結加趺坐	-11.422
明一乘	-11.4221
死魔	-11.4221
一點	-11.4224
釋梵	-11.4225
函	-11.4225
本寂	-11.4225
懈倦	-11.4227
所將	-11.4228
愚人	-11.4228
十戒	-11.423
譯經	-11.423
顯正	-11.423
亦自	-11.423
穿鑿	-11.423
日月燈明	-11.4231
為人悉檀	-11.4232
則不然	-11.4232
問答料簡	-11.4233
線	-11.4234
佛即	-11.4234
三歸	-11.4234
成前	-11.4235
持業	-11.4235
二諦也	-11.4237
形色	-11.4238
又從	-11.424
填	-11.4242
滑	-11.4242
下例	-11.4243
不護	-11.4244
無前後	-11.4245
趙	-11.4245
開導	-11.4246
消伏	-11.4248
媚	-11.425
齊教	-11.4252
劉	-11.4253
因地	-11.4255
又說	-11.4257
有時	-11.4257
問言	-11.4257
初二行	-11.4259
壞苦	-11.4259
異生	-11.4262
一面	-11.4263
各有三	-11.4266
大神通	-11.4267
滅度後	-11.4267
什師	-11.4267
智圓	-11.4282
表於	-11.4284
禮拜供養	-11.4285
通局	-11.4286
煩惱魔	-11.4289
目前	-11.4289
既盡	-11.429
見巳	-11.4293
者何耶	-11.4294
起愛	-11.4296
法師功德	-11.4297
如向所	-11.4298
常途	-11.4298
彈訶	-11.43
成妙	-11.43
從因至果	-11.4303
此應	-11.4304
所云	-11.4306
戀慕	-11.4307
諸物	-11.4311
詎	-11.4312
也妙樂云	-11.4312
不繁	-11.4313
無惑	-11.4314
壓	-11.4314
破法遍	-11.4315
眷	-11.4315
五十餘年	-11.4316
喧	-11.4316
革	-11.4316
五重	-11.4321
卓	-11.4322
怕	-11.4322
得受	-11.4323
二途	-11.4324
自古	-11.4324
自誓	-11.4325
不涉	-11.4326
昔時	-11.4327
笈多	-11.4328
貼文	-11.4328
領知	-11.433
修定	-11.433
小者	-11.4331
之端	-11.4331
帖合	-11.4331
如來能知	-11.4333
不暇	-11.4334
有即非有	-11.4335
之士	-11.4335
即兼	-11.4338
合云	-11.4339
佛住	-11.4339
中最	-11.434
清濁	-11.434
其母	-11.434
方便智	-11.4341
不釋	-11.4342
先觀	-11.4345
以慈	-11.4345
分於	-11.4346
難思議	-11.4348
不放逸	-11.4348
其門	-11.435
別理	-11.4356
所集	-11.4357
我弟子	-11.4358
真道	-11.436
下列	-11.4361
此四句	-11.4363
諸佛所說	-11.4363
因由	-11.4364
同行	-11.4366
易見	-11.4367
為障	-11.437
諸佛之所	-11.4372
見心	-11.4374
於諸法中	-11.4375
為根本	-11.4376
瞻仰尊顏	-11.4377
當處	-11.4379
遺教	-11.4381
顯益	-11.4385
勇猛精進	-11.4385
既聞	-11.4388
真如理	-11.4389
冥顯	-11.439
報因	-11.439
之號	-11.4393
此師	-11.4394
唇	-11.4394
羞	-11.4395
亭	-11.4397
墮苦	-11.4398
說大法	-11.4398
有長行偈頌	-11.4398
脹	-11.4399
為生	-11.44
入室	-11.4401
毀者	-11.4401
三千大千	-11.4402
宗要	-11.4402
根力	-11.4403
皇帝	-11.4404
前念	-11.4407
大菩薩眾	-11.441
今見	-11.4414
佛之智慧	-11.442
因茲	-11.442
小草	-11.4426
集分身	-11.4429
僧中	-11.4431
佛說是	-11.4434
功德莊嚴	-11.4438
傍人	-11.4439
廣演	-11.444
▁初通	-11.444
求衣食	-11.4441
何因	-11.4442
後念	-11.4444
隨宜所說	-11.4445
諸法門	-11.4445
天鼓	-11.4448
令修	-11.4449
見相	-11.4451
明本迹	-11.4451
亦曰	-11.4455
非關	-11.4459
下更	-11.4459
第六識	-11.4465
湧	-11.4465
得三菩提	-11.4467
耻	-11.4467
辨其	-11.4469
霜	-11.4473
後後	-11.4474
醒悟	-11.4476
之名也	-11.4478
屢	-11.448
咽	-11.4482
難測	-11.4485
本源	-11.4485
諸佛道同	-11.4486
是魔	-11.4487
慰喻	-11.4487
今文中	-11.4488
色陰	-11.4488
變異	-11.4491
迹為	-11.4492
此二義	-11.4495
一念隨喜	-11.4496
奈何	-11.4496
破見	-11.4497
一章	-11.4501
別記	-11.4501
勝者	-11.4502
之終	-11.4503
經部	-11.4503
後身	-11.4505
各一	-11.4507
推功	-11.451
於義	-11.451
二支	-11.451
助顯	-11.451
六十二億	-11.4511
八萬劫	-11.4512
具二義	-11.4515
▁二約	-11.4515
前世	-11.4516
凡情	-11.4517
所能	-11.4518
持經之人	-11.4519
委明	-11.4524
同聲	-11.4524
一長行	-11.4524
是第四	-11.4527
在茲	-11.4528
並為	-11.4531
不列	-11.4533
自成	-11.4535
若起	-11.4536
無量諸佛	-11.4538
理須	-11.4539
即為人	-11.454
四處	-11.4541
十六沙彌	-11.4543
醉臥	-11.4544
稱妙	-11.4544
妙有	-11.4546
凖	-11.4547
遍知	-11.4547
四名	-11.4547
以何為	-11.4547
析法	-11.4548
全性起修	-11.4548
觀四諦	-11.455
妃	-11.4552
記莂	-11.4552
修止	-11.4552
中劫	-11.4554
現種種	-11.4555
三賢	-11.4555
單複	-11.4558
必由	-11.4563
十心	-11.4564
初經家敘	-11.4566
無處不	-11.4566
二慧	-11.4568
悲智	-11.4568
億百千	-11.4571
理應	-11.4572
今日之	-11.4575
純一	-11.4577
聞思修	-11.4581
翻名	-11.4584
不關	-11.4585
故謂之	-11.4588
以慈悲	-11.4588
聚集	-11.4588
義推	-11.4589
正取	-11.4591
復作是念	-11.4592
曾無	-11.4594
三初頌	-11.4596
此三昧	-11.4597
託事	-11.4599
於汝	-11.4599
五濁障	-11.4601
釋中二	-11.4601
後結	-11.4608
後解	-11.4613
噫	-11.4614
略言	-11.4615
千界	-11.4615
、「	-11.4618
望後	-11.4618
既多	-11.462
寂而常照	-11.4621
以下是	-11.4621
殖	-11.4621
敦	-11.4622
多佛	-11.4624
二別明	-11.4624
緯	-11.4625
二十五法	-11.4625
弄	-11.4626
天龍夜叉	-11.4627
不自覺知	-11.4627
則不能	-11.4629
重舉	-11.463
誣	-11.463
殃掘	-11.463
四十一	-11.4632
二初正	-11.4632
崖	-11.4632
鬪諍	-11.4634
意欲	-11.4634
下釋疑	-11.4635
受持者	-11.4635
所障	-11.4637
當用	-11.464
何足	-11.464
而歸	-11.4642
示人	-11.4645
執近	-11.4648
修禪定	-11.465
下別明	-11.4651
經教	-11.4651
下界	-11.4652
為父	-11.4655
不犯	-11.4655
接引	-11.4658
指此	-11.4658
時處	-11.4658
得六根清淨	-11.4658
入地	-11.4659
僧寶	-11.466
金剛藏	-11.466
來此	-11.4661
調心	-11.4664
總論	-11.4665
具述	-11.4666
世尊說	-11.467
空閑	-11.467
於今日	-11.4671
風輪	-11.4671
下結示	-11.4672
多生	-11.4676
頂法	-11.4677
王舍	-11.4679
第二解	-11.468
亦稱	-11.468
聞大乘	-11.468
別舉	-11.4683
暇	-11.4685
時會	-11.4689
二木	-11.4692
通說	-11.4696
凡有三	-11.4697
名稱普聞	-11.4699
兼別	-11.4702
?』	-11.4703
過是巳後	-11.4704
寮	-11.4704
。】「【	-11.4705
惟願世尊	-11.4706
善不善	-11.4707
尚不能	-11.471
十二品	-11.4711
刊	-11.4712
異類	-11.4713
有三品	-11.4713
燃燈	-11.4714
所觀之境	-11.4714
鷄	-11.4715
伎	-11.4715
今教	-11.4715
大誓願	-11.4718
毒蛇	-11.4719
卜	-11.4719
妙法也	-11.4719
煎	-11.472
說法時	-11.472
皆歸	-11.4722
安處	-11.4723
以彰	-11.4724
尋伺	-11.4724
計有	-11.4725
世音	-11.4726
於中初	-11.4727
三總結	-11.4727
卷中	-11.4728
見諸菩薩	-11.4729
法王子	-11.4731
摩耶	-11.4733
不索	-11.4736
倦	-11.4737
於昔	-11.4738
一指	-11.4739
憍陳如	-11.474
長阿含	-11.4744
更開	-11.4745
油燈	-11.4746
教體	-11.4748
施與	-11.4749
於其中	-11.475
大小俱	-11.4751
引華嚴	-11.4754
共念處	-11.4755
所度	-11.4761
手執	-11.4762
所疑	-11.4762
不說法	-11.4762
大品經	-11.4762
諸有情	-11.4763
必能	-11.4764
但依	-11.4765
不偏	-11.4773
願得	-11.4775
不談	-11.4775
疏記	-11.4775
道同	-11.4775
中各有	-11.4776
定執	-11.4779
各各不同	-11.478
一切眾生喜見菩薩	-11.478
慈雲	-11.478
由有	-11.4782
經劫	-11.4785
滅罪	-11.4786
瓔	-11.4788
肉髻	-11.4788
無學果	-11.4788
甚大久遠	-11.4789
靡不	-11.479
指歸	-11.479
力大	-11.4791
漏無漏	-11.4792
難解難入	-11.4792
悶	-11.4792
牖	-11.4793
中之一	-11.4793
不謗	-11.4794
繇	-11.4794
巡	-11.4796
不親近	-11.4796
杵	-11.4798
拔苦與樂	-11.4799
已說	-11.48
炳然	-11.4801
為彼	-11.4801
錫	-11.4803
童女	-11.4804
恒河	-11.4804
名句文	-11.4805
透	-11.4807
即是實相	-11.4807
四十二字	-11.4807
鬼畜	-11.4808
因時	-11.4809
智度論云	-11.4809
天台大師	-11.481
致使	-11.481
演說諸法	-11.4812
具說	-11.4812
戒體	-11.4814
不辨	-11.4816
能引	-11.482
脉	-11.4821
亦且	-11.4823
文有三	-11.4826
樂見	-11.4827
歷五味	-11.4828
古來	-11.4828
聖眾	-11.4831
不變隨緣	-11.4831
功德成就	-11.4832
妙心	-11.4832
斷伏	-11.4832
準例	-11.4835
立法	-11.4837
今始	-11.4837
若善男子	-11.4838
一乘實相	-11.4839
奈	-11.4841
起惑	-11.4841
斷絕	-11.4842
自受用身	-11.4842
上說	-11.4842
依論	-11.4845
如須彌山	-11.4848
破法	-11.4849
者蓋	-11.4849
隨分	-11.4851
金山	-11.4852
觀一切法	-11.4855
此三種	-11.4856
淨用	-11.4856
滿月	-11.4859
歷事	-11.4859
野客	-11.486
懷疑	-11.4862
現在佛	-11.4864
顯了	-11.4864
以是方便	-11.4865
分座	-11.4866
其數無量	-11.4866
難值	-11.4866
持經人	-11.4867
料	-11.4867
好樂	-11.4867
皆實不虗	-11.4869
未滿	-11.4869
久久	-11.487
璞	-11.4871
坐如來座	-11.4872
優曇華	-11.4872
蛣𧏙	-11.4873
雨法雨	-11.4873
永離	-11.4874
羊車	-11.4876
甚深微妙	-11.4877
寂滅道場	-11.4878
庶幾	-11.4881
猗	-11.4882
互通	-11.4883
何可	-11.4884
七方便人	-11.4885
體宗用	-11.4886
超過	-11.4886
不一不異	-11.4886
有智慧	-11.4891
唯有一門	-11.4891
此經明	-11.4892
償	-11.4892
無量法	-11.4893
若至	-11.4894
能變	-11.4894
分位	-11.4898
因緣所生法	-11.4898
喜根	-11.4899
垂應	-11.49
其家	-11.4901
鈍使	-11.4903
四十九	-11.4903
用權	-11.4905
住果	-11.4906
而獨	-11.4908
當自	-11.491
孤起	-11.491
為真實	-11.491
不濫	-11.491
並由	-11.4918
至真	-11.4921
本在	-11.4923
大自在	-11.4923
出處	-11.4928
無大機	-11.4932
法身菩薩	-11.4934
之利	-11.4937
生無生	-11.494
」。《	-11.494
正法住世	-11.4941
法供養	-11.4943
死人	-11.4945
几	-11.4947
宰官	-11.4948
隨喜功德	-11.4949
得法眼淨	-11.4949
心安	-11.4952
俱名為	-11.4953
相顯	-11.4954
巳他	-11.4954
桓	-11.4956
成壞	-11.4957
有無量相	-11.4959
非想非非想	-11.4961
佛法中	-11.4964
顯圓	-11.4965
先破	-11.4965
全經	-11.4965
大聖人	-11.4966
猪	-11.4967
飄	-11.4967
加以	-11.4968
正出	-11.497
下第三	-11.497
皮肉	-11.497
所迷	-11.497
性淨	-11.4971
二十小劫	-11.4974
表法	-11.4978
廣引	-11.498
之勝	-11.4981
轉為	-11.4984
法印	-11.4986
三云	-11.4986
互有	-11.4986
於地	-11.4991
被燒	-11.4991
在心	-11.4991
金剛般若	-11.4991
十方三世諸佛	-11.4993
正慧	-11.4994
界如	-11.4995
之空	-11.4998
性欲	-11.4999
與法華	-11.5
法付	-11.5003
三千世界	-11.5003
無學道	-11.5004
所護	-11.5006
一根	-11.501
善巧方便	-11.5015
為迹	-11.5016
得阿羅漢果	-11.5017
事行	-11.5018
清水	-11.5023
1	-11.5023
佛告舍利弗	-11.5025
摩那	-11.5027
化城喻品	-11.5032
不少	-11.5033
香氣	-11.5033
其過	-11.5034
毀訾	-11.5035
多寶佛塔	-11.5035
疲倦	-11.5036
一周	-11.5036
盡未來際	-11.5037
鳩槃茶	-11.5039
要知	-11.5039
檀波羅蜜	-11.504
結跏趺坐	-11.504
開後	-11.5042
其疾如風	-11.5042
須依	-11.5042
憫	-11.5046
圓乘	-11.5047
其罪	-11.5048
辨同異	-11.505
破遍	-11.5051
不齊	-11.5052
脂	-11.5052
音樂	-11.5053
獲大	-11.5056
替	-11.5056
膏	-11.5059
所領	-11.5061
前雖	-11.5061
幢幡	-11.5065
密行	-11.5069
寧有	-11.5072
迷於	-11.5072
消經	-11.5072
救濟	-11.5073
真修	-11.5075
三際	-11.5076
端坐	-11.5076
微玅	-11.5077
小王	-11.5077
五位	-11.5078
觀道	-11.5079
醫師	-11.508
八觸	-11.508
得佛道	-11.508
無住本	-11.5081
半行頌	-11.5085
內淨	-11.509
白衣	-11.5092
頓說	-11.5092
於中又二	-11.5093
謗經	-11.5094
推尋	-11.5098
最第一	-11.5098
應先	-11.51
級	-11.5105
號為	-11.5105
廣說此經	-11.5106
護持助宣	-11.5109
犯戒	-11.5111
三乘法	-11.5113
祇是	-11.5114
迷中	-11.5115
蘭若	-11.5119
汝等所行是菩薩道	-11.5119
熏修	-11.5121
▁一標示	-11.5121
六位	-11.5121
狀如	-11.5121
迂	-11.5122
故喜	-11.5122
西北	-11.5123
藝	-11.5124
示真實相	-11.5125
無量菩薩	-11.5126
祇夜	-11.5126
諸土	-11.5128
但說無上道	-11.5128
報土	-11.5129
隨緣不變	-11.5129
洽	-11.513
正與	-11.513
含容	-11.513
禰	-11.5131
安在	-11.5132
上智	-11.5132
名橫	-11.5135
商主	-11.5135
分五	-11.5136
祐	-11.5136
虞	-11.5138
膩	-11.5138
迴心向大	-11.5139
此境	-11.5142
非真實	-11.5142
猛利	-11.5142
識通塞	-11.5144
下簡	-11.5144
隱實	-11.5144
呂	-11.5146
略述	-11.5146
現未	-11.5146
增道	-11.5147
譬喻言辭	-11.5147
婦女	-11.5151
諸大士	-11.5151
適願	-11.5152
便作是念	-11.5152
滅受想定	-11.5154
甚深無量	-11.5155
一節	-11.516
頗有	-11.516
所稟	-11.516
三乘之人	-11.5163
四海	-11.5163
四卷	-11.5164
大夫	-11.5164
蓋由	-11.5165
必依	-11.5165
對上	-11.5166
未敢	-11.5166
引導眾生	-11.5167
既皆	-11.5168
因緣生法	-11.5168
阿彌陀佛	-11.5169
加頌	-11.5169
別體	-11.5172
詺為	-11.5173
自然智	-11.5175
情無情	-11.5176
威音王	-11.518
在地	-11.5182
非餘	-11.5183
二行頌	-11.5184
唯色	-11.5184
決定性	-11.5184
如鏡	-11.5186
兼帶	-11.5187
自家	-11.5189
根機	-11.5192
轉入	-11.5194
二酥	-11.5195
便能	-11.5196
是有為	-11.5198
唯識論	-11.5199
荅	-11.52
無翻	-11.5202
抖擻	-11.5203
陁	-11.5204
牆壁	-11.5204
六番	-11.5205
感應道交	-11.5205
由來	-11.5206
聞法華	-11.5207
仁義	-11.5207
宜應	-11.5213
其類	-11.5214
為令眾生	-11.5215
帛	-11.5216
厭離	-11.5216
尼眾	-11.5216
先知	-11.5217
於中道	-11.5217
色想	-11.5217
凡諸	-11.5217
渧	-11.5218
逕	-11.522
新譯	-11.5221
汁	-11.5221
如是次第	-11.5221
我等今者	-11.5222
不屬	-11.5224
亦有三	-11.5231
所惱	-11.5232
乃約	-11.5232
殺害	-11.5233
未離	-11.5236
然彼	-11.5237
譬佛	-11.5242
新學	-11.5244
頂受	-11.5245
攝入	-11.5248
根器	-11.525
具諸法	-11.525
不滯	-11.5251
五年	-11.5252
證滅	-11.5254
得聞是經	-11.5255
一二三	-11.5257
惟佛	-11.5258
他佛	-11.5261
設使	-11.5262
四辨	-11.5262
無用	-11.5263
問何不	-11.5268
圓宗	-11.5269
盧舍那	-11.5269
上座	-11.527
須用	-11.5273
圓義	-11.5273
執權	-11.5274
十方界	-11.5274
是對治	-11.5277
權實不二	-11.5277
我所說	-11.5279
水中	-11.528
饍	-11.5286
偏執	-11.5286
過未	-11.529
而不得	-11.529
無問自說	-11.5292
如雨	-11.5293
芥	-11.5294
千人	-11.5294
正信	-11.5295
𦘕	-11.5295
斬	-11.5297
又見菩薩	-11.5299
緊	-11.5299
波羅奈	-11.5299
一切法門	-11.5299
是妙音菩薩	-11.53
病患	-11.53
判之	-11.5301
定判	-11.5303
哭	-11.5303
空華	-11.5304
靜室	-11.5304
姓也	-11.5304
是菩薩道	-11.5306
項	-11.5309
柰	-11.531
淨藏	-11.5311
先須	-11.5312
膚	-11.5313
同證	-11.5313
三七	-11.5314
為眾生說法	-11.5317
其中眾生	-11.532
中根人	-11.5322
喻文	-11.5323
縷	-11.5323
六百	-11.5325
乘乘	-11.5326
妙旨	-11.5329
非全	-11.533
補注	-11.533
先立	-11.5333
中國	-11.5333
此經典	-11.5339
出世本懷	-11.5344
欲天	-11.5344
不能生	-11.5346
迷妄	-11.5347
伽藍	-11.5347
入法界	-11.535
一切色	-11.5352
章安云	-11.5353
更為	-11.5353
即中道	-11.5354
獨頭	-11.5354
出要	-11.5354
具德	-11.5354
千年	-11.5356
諸說	-11.5356
對破	-11.5357
情智	-11.536
能熏	-11.5365
宅中	-11.5366
後代	-11.537
族姓	-11.5371
維摩經	-11.5371
具十法界	-11.5372
例可知	-11.5374
初長文	-11.5375
那提	-11.5375
旨趣	-11.5376
得無量	-11.5376
叢林	-11.5377
十數	-11.5377
大乘機發	-11.5377
可以意得	-11.5378
一空一切空	-11.5379
果頭	-11.5381
何疑	-11.5382
非情	-11.5383
諦緣度	-11.5385
臘	-11.5386
就法	-11.5386
現在前	-11.5386
有機	-11.5386
損生	-11.5386
證前	-11.5387
是則為難	-11.5387
鹹	-11.5387
豫	-11.5388
次別釋	-11.5388
中忍	-11.5392
以例	-11.5392
為名也	-11.5393
勿生	-11.5393
而巳矣	-11.5394
諳	-11.5395
震旦	-11.5399
以手	-11.5405
欲說大法	-11.5405
退席	-11.5406
破塵沙	-11.5406
速得	-11.5408
▁一出	-11.5408
闍王	-11.5412
次難	-11.5412
初𦦨	-11.5413
病行	-11.5414
色無色界	-11.5417
彼處	-11.5417
常修	-11.5418
故大經云	-11.5418
染心	-11.5421
空無相	-11.5423
利樂	-11.5423
傳持	-11.5424
語業	-11.5424
不退菩薩	-11.5425
求食	-11.5425
因緣和合	-11.5434
之形	-11.5438
況今	-11.5438
。』」	-11.5439
思修	-11.5439
希求	-11.5442
華光佛	-11.5443
縱廣	-11.5443
局在	-11.5445
大通佛	-11.5445
恩德	-11.5446
圓照	-11.5446
只是一	-11.5447
兩教二乘	-11.5447
意地	-11.5448
此光	-11.5448
方見	-11.5452
世樂	-11.5455
正作	-11.5455
明權實	-11.5456
化意	-11.5456
將何以	-11.5457
釋名者	-11.5458
容有	-11.546
為始	-11.5462
此諸菩薩	-11.5463
口中	-11.5464
見真	-11.5465
呵責	-11.5467
象馬車乘	-11.5468
八十種好	-11.5468
父子相失	-11.5469
起應	-11.547
覆障	-11.547
遊戲神通	-11.547
又見佛子	-11.547
澍	-11.5471
〕	-11.5471
難事	-11.5472
許之	-11.5473
雨華動地	-11.5474
聞此法	-11.5475
稚	-11.5477
塵劫	-11.5477
功勳	-11.5478
愛語	-11.5478
感果	-11.5481
自行權實	-11.5484
安居	-11.5484
致令	-11.5485
重擔	-11.5485
所愛	-11.5486
十品	-11.5486
山海	-11.5489
於道場	-11.5492
道慧	-11.5492
糓	-11.5493
方稱	-11.5497
藻	-11.5499
傳弘	-11.55
設有	-11.5501
不輕之	-11.5502
欲示	-11.5502
悲華	-11.5502
諸王	-11.5504
諸佛子	-11.5504
慧日	-11.5509
調和	-11.5511
無生四諦	-11.5513
死後	-11.5513
虵	-11.5513
指廣	-11.5516
殷	-11.5517
無力	-11.5522
自慶	-11.5522
末香	-11.5522
七住	-11.5523
生厭	-11.5525
騰疑	-11.5526
牛頭	-11.5526
超出	-11.5527
品初	-11.5528
屬對	-11.5528
得無生	-11.5529
若言下	-11.5532
楞伽經	-11.5535
悉令	-11.5537
無明滅	-11.5537
當觀	-11.5538
如來述成	-11.5538
受行	-11.5538
逮得	-11.5539
無礙智	-11.5539
具如前	-11.5544
黑色	-11.5546
在家出家	-11.5548
明白	-11.5551
別觀	-11.5553
阿僧祗	-11.5554
乘戒	-11.5555
略無	-11.5556
座席	-11.5557
略指	-11.5557
至佛所	-11.5558
永滅	-11.5558
譬帖合	-11.556
即一而三	-11.556
四無畏	-11.5562
曆	-11.5565
生喜	-11.5566
諸世間	-11.5566
嘿	-11.5567
剖	-11.5568
對治悉檀	-11.5568
為授記	-11.5568
修福	-11.5568
諸佛護念	-11.5569
大勢	-11.557
懺法	-11.5571
鉤	-11.5571
泣	-11.5572
喘	-11.5573
朋	-11.5574
昔權	-11.5574
更生	-11.5575
例爾	-11.5576
宛轉	-11.5577
機教	-11.5577
社	-11.5579
諸天人	-11.5579
今借	-11.5581
部內	-11.5582
尊特身	-11.5583
欲界定	-11.5587
中草	-11.5588
慶喜	-11.5589
不聞法	-11.5591
二家	-11.5593
乃至老死	-11.5593
三教菩薩	-11.5593
安養	-11.5594
道果	-11.5595
未及	-11.5596
猶屬	-11.5598
能施	-11.5598
破他	-11.5601
能達	-11.5602
此三法	-11.5602
八年	-11.5603
與夫	-11.5603
勝相	-11.5604
聽經	-11.5605
常處	-11.5607
止觀輔行	-11.5608
真位	-11.5608
解心	-11.5609
猶未盡	-11.5611
開為三	-11.5611
遙聞	-11.5613
解了	-11.5616
既曰	-11.5618
青色	-11.5621
便可	-11.5621
第五十	-11.5623
遍法界	-11.5624
反顯	-11.5625
引物	-11.5625
皆已	-11.5627
但聞	-11.5628
之壽	-11.5631
業相	-11.5632
增上慢者	-11.5634
千萬億劫	-11.5638
此妙法	-11.5638
佐	-11.564
故云爾也	-11.564
但隨	-11.564
所使	-11.5641
此輩	-11.5642
奮迅	-11.5642
即三而一	-11.5642
會歸	-11.5643
作業	-11.5647
色空	-11.5647
搜	-11.5647
饒	-11.5648
分陀利	-11.5649
瓦礫	-11.565
遍十方	-11.5651
上求下化	-11.5651
無識	-11.5652
佛位	-11.5652
乞士	-11.5654
攝大乘論	-11.5655
何以知之	-11.5655
佳	-11.5656
墻	-11.5657
尋之	-11.566
正請	-11.5661
河沙	-11.5661
平地	-11.5661
芥子	-11.5662
之象也	-11.5663
佛告迦葉	-11.5663
有十二	-11.5664
從容	-11.5665
總而言之	-11.5668
中本有	-11.5668
▁初譬	-11.5671
俱在	-11.5672
䨱	-11.5676
依彼	-11.5676
豈應	-11.5676
第三時	-11.5678
專心	-11.568
萬由旬	-11.5683
未曾說	-11.5683
於一切眾生	-11.5685
根源	-11.5688
自在神力	-11.5688
此惑	-11.5689
法器	-11.569
諸色	-11.569
諸趣	-11.5692
助發	-11.5694
自思惟	-11.5694
大千世界	-11.5696
慧性	-11.5699
普現	-11.5699
一曰	-11.5701
將何	-11.5704
自述	-11.5707
未曾見	-11.5709
圓信	-11.5713
經書	-11.5715
佛旨	-11.5717
因緣釋	-11.5718
後來	-11.5719
善入	-11.5721
雖欲	-11.5722
牟	-11.5724
受諸	-11.5724
▁初合	-11.5724
是誰	-11.5724
淨華宿王智佛	-11.5725
起七寶塔	-11.5729
嶮	-11.5731
身手有力	-11.5732
卦	-11.5733
=	-11.5733
唯願世尊	-11.5735
出界	-11.5735
客作	-11.5736
耳聞	-11.5737
唯有如來	-11.5737
攘	-11.5738
姟	-11.5739
濃	-11.5739
第三段	-11.574
恐是	-11.574
臆	-11.574
現量	-11.5741
飲酒	-11.5742
四眾八部	-11.5744
罄	-11.5746
能燒	-11.5747
二部	-11.5751
較量	-11.5752
貧人	-11.5754
結文	-11.5756
圓果	-11.5758
昨	-11.5758
四無礙	-11.5761
見不空	-11.5761
於無量劫	-11.5765
第五卷	-11.5766
凡所	-11.5767
自在天	-11.5773
施三	-11.5773
授記作佛	-11.5775
所讚	-11.5779
貪瞋	-11.5779
通泰	-11.5779
其志	-11.5783
卷上	-11.5784
覺性	-11.5785
前長行	-11.5788
大章	-11.5788
垢衣	-11.5793
吾今	-11.5798
韋	-11.5798
合喻	-11.5799
方等經	-11.58
若能如是	-11.5802
不能動	-11.5802
始知	-11.5802
而猶	-11.5803
普賢行	-11.5804
轉輪	-11.5806
一致	-11.5808
自然而	-11.5809
自高	-11.5813
通舉	-11.5814
圓具	-11.5814
說因緣	-11.5815
十智	-11.5816
聞知	-11.5817
常不輕菩薩	-11.5818
從座而起	-11.5819
不更	-11.582
假使有人	-11.5823
初學	-11.5824
頗梨	-11.5828
叉手	-11.5829
眾所知識	-11.583
十重	-11.583
足下	-11.5831
往往	-11.5832
歡喜地	-11.5833
受想	-11.5833
迷情	-11.5834
誦持	-11.5834
臻	-11.5834
挾	-11.5834
【△	-11.5835
織	-11.5837
饑渴	-11.5837
正命	-11.5838
膳	-11.5839
色究竟	-11.5841
大利	-11.5842
躍	-11.5844
洋	-11.5844
四眼	-11.5845
菩薩位	-11.5845
啼	-11.5846
如大品	-11.5847
念力	-11.5848
緣由	-11.5849
天人阿修羅	-11.5849
不任	-11.5849
有漏無漏	-11.585
所詮理	-11.5853
判麤妙	-11.5854
聞已	-11.5859
入禪	-11.586
通取	-11.5861
飲光	-11.5866
眾生不知	-11.5866
直約	-11.5868
長養	-11.5868
長行偈頌	-11.5869
濟度	-11.587
得安隱	-11.5871
善解	-11.5871
六趣眾生	-11.5875
德業	-11.5875
菩提道	-11.5876
苦受	-11.5879
以之為	-11.5887
並約	-11.5887
迦葉等	-11.5887
竪論	-11.5891
阿難白佛言	-11.5893
偏說	-11.5897
從空入假	-11.5905
說三乘法	-11.5906
如盲	-11.5906
所宗	-11.591
斷思	-11.5912
引文證	-11.5912
非如非異	-11.5913
說偈言	-11.5915
只為	-11.5917
為初門	-11.5919
梵世	-11.592
生忍	-11.592
淨天	-11.5923
龍華	-11.5923
奴婢	-11.5924
無上慧	-11.5924
乃可為說	-11.5925
爾時佛告舍利弗	-11.5927
擣	-11.5928
蔑	-11.5929
怛	-11.5931
九境	-11.5931
蹈	-11.5931
復由	-11.5932
漿	-11.5932
一心奉請	-11.5932
純陀	-11.5932
第二第三	-11.5933
不生生	-11.5933
可論	-11.5934
番問答	-11.5935
煖法	-11.5936
鑿	-11.5936
運載	-11.5937
互發	-11.594
結要	-11.5944
告諸	-11.5944
令捨	-11.5945
告之	-11.5947
向後	-11.5947
伊字	-11.5948
因果俱	-11.5949
分別說三	-11.5951
無量百千	-11.5951
願生	-11.5951
堪能	-11.5954
雙林	-11.5956
四十里	-11.5959
未到地	-11.596
說小乘	-11.596
此云大	-11.5961
雨寶	-11.5961
千世界	-11.5962
解曰	-11.5964
我等今日	-11.5966
而致	-11.5968
兩舌	-11.5972
達摩	-11.5978
四支	-11.5983
指南	-11.5985
金云	-11.5985
偈讚	-11.5986
報得	-11.5986
元是	-11.5986
罪業	-11.5986
起誓	-11.5989
發聲	-11.5989
不燒	-11.5989
並無	-11.599
八色	-11.5991
大自在天	-11.5991
皆成佛道	-11.5996
於佛法	-11.5997
神智	-11.6003
劫盡	-11.6007
箋	-11.6009
住忍辱地	-11.601
燄	-11.6011
歸心	-11.6013
綺	-11.6014
柔順忍	-11.6015
若善男子善女人	-11.6017
揆	-11.6019
新發意菩薩	-11.6019
牢	-11.6019
▁二復次下	-11.602
措	-11.602
梁棟	-11.6021
何須更	-11.6021
開迹顯本	-11.6022
者應云	-11.6023
三十六句	-11.6025
掣	-11.6025
八地巳上	-11.6026
若斯	-11.6026
八萬四千劫	-11.6027
二乘作佛	-11.6027
三摩地	-11.6027
異熟果	-11.6028
威音	-11.6028
名為解脫	-11.6028
於佛智慧	-11.6029
虔	-11.6029
得陀羅尼	-11.6029
出息	-11.6031
涅槃相	-11.6033
威音王佛	-11.6033
即得解脫	-11.6034
係	-11.6036
三變	-11.6036
形容	-11.6038
身念處	-11.6038
度無量眾	-11.6041
出於世	-11.6041
廣博	-11.6043
五停	-11.6045
初四句	-11.6049
破邪	-11.6051
菩薩所行	-11.6053
難持	-11.6058
四階	-11.6059
引例	-11.6059
業生	-11.6062
增一阿含	-11.6062
國人	-11.6062
造像	-11.6063
當成佛	-11.6064
為一切眾生	-11.6064
問意者	-11.6072
次示	-11.6079
純是	-11.6081
曾聞	-11.6082
智積菩薩	-11.6084
一時俱	-11.6085
增上緣	-11.6088
著衣	-11.609
深生	-11.6091
先現	-11.6094
實證	-11.6095
旬	-11.6096
周帀	-11.6098
深敬	-11.6099
非因非果	-11.61
行滿	-11.61
還本土	-11.6101
常修梵行	-11.6103
一百二十	-11.6105
中止一城	-11.6106
萬二千歲	-11.6106
若單	-11.6107
後二句	-11.6108
揖	-11.6108
兩家	-11.6108
不了義	-11.6108
畵	-11.611
貪嗔癡	-11.611
戲笑	-11.611
屈曲	-11.6111
略開	-11.6111
雙照二諦	-11.6112
為我說	-11.6113
半月	-11.6113
身受心法	-11.6113
從始至終	-11.6113
撲	-11.6114
滅受想	-11.6114
是化他	-11.6115
掛	-11.6117
入聖	-11.6117
中庸	-11.6118
妙光菩薩	-11.6119
宴	-11.6119
寓	-11.612
構	-11.612
吸	-11.6121
福德莊嚴	-11.6122
在一念	-11.6125
一極	-11.6125
禮記	-11.6127
口出	-11.6129
元意	-11.6129
止門	-11.6129
互顯	-11.6129
正指	-11.613
有三一	-11.6132
武帝	-11.6133
今還	-11.6135
其聲	-11.6136
母胎	-11.6142
煩惱業	-11.6142
慧心	-11.6144
押	-11.6145
此旨	-11.6145
七覺支	-11.6146
方圓	-11.6146
穢惡	-11.6147
不擇	-11.6148
如是諸人等	-11.6149
加行位	-11.6154
對曰	-11.6156
圓詮	-11.6161
名大涅槃	-11.6164
悔過	-11.6166
日日	-11.6168
諸大弟子	-11.6168
天樂	-11.617
咸皆	-11.6172
開方便	-11.6173
迫	-11.6173
眷屬妙	-11.6175
教詮	-11.6176
唯見	-11.6178
無上法	-11.618
能住	-11.6183
無有異	-11.6185
于世	-11.6186
何等法	-11.6188
藥王菩薩本事品	-11.6192
𣗳	-11.6192
得現一切色身三昧	-11.6195
中收	-11.6196
圓佛	-11.6197
彰灼	-11.6202
天眾	-11.6203
揵	-11.6203
譏嫌	-11.6204
捷疾	-11.6205
顯勝	-11.6206
劇	-11.6206
是父	-11.6207
方便道	-11.6208
躡	-11.6208
柳	-11.6208
匱	-11.6209
菩薩藏	-11.621
福智	-11.6211
蚖	-11.6215
獨在	-11.6215
閑居	-11.6216
亦復不	-11.6217
黎耶	-11.622
淮	-11.622
智深	-11.6221
貪嗔	-11.6222
禮敬	-11.6223
正習	-11.6224
四大聲聞	-11.6226
於中有二	-11.6228
華嚴經云	-11.623
觀十二因緣	-11.6231
依主釋	-11.6232
覆藏	-11.6233
朗然	-11.6234
神我	-11.6235
攝屬	-11.6236
分對	-11.6241
傳法	-11.6242
習學	-11.6245
眾生聞	-11.6246
名阿羅漢	-11.6248
八音	-11.6252
爾時文殊師利	-11.6256
畢定	-11.6259
供具	-11.626
怖魔	-11.6261
不出於	-11.6264
且略	-11.6264
無退	-11.6266
陀羅尼品	-11.6269
猶存	-11.627
慈愍	-11.6271
假想	-11.6273
雙游	-11.6273
上求	-11.6276
▁一正明	-11.6277
萬二千人	-11.6278
六天	-11.6278
供養恭敬	-11.6279
別門	-11.628
廣顯	-11.6282
真實法	-11.6283
直下	-11.6284
更立	-11.6284
合掌向佛	-11.6284
通大小	-11.6287
迷解	-11.6288
路云	-11.6289
本習	-11.629
傳傳	-11.6294
於過去	-11.6295
持法華經	-11.6296
隨喜功德品	-11.6296
不喜	-11.6297
寶臺	-11.6297
行布施	-11.6298
昔因	-11.6298
耽	-11.6298
兩序	-11.63
魅	-11.6304
尼乾	-11.6304
留難	-11.6305
暖	-11.6305
厚薄	-11.6306
十六門	-11.6308
即空即中	-11.6308
嗜	-11.631
權法	-11.631
骨人	-11.6311
思慮	-11.6316
爰	-11.6317
三摩	-11.6317
西南	-11.6318
周旋	-11.632
單約	-11.6322
寶山	-11.6322
劍	-11.6322
六萬恒河沙	-11.6323
教行理	-11.6323
二三四	-11.6324
勝用	-11.6324
無明住地	-11.6324
十不二門	-11.6327
鏡像	-11.6328
胎生	-11.633
附文	-11.6331
鈔云	-11.6332
形相	-11.6338
明暗	-11.6343
何故但	-11.6344
一乘教	-11.6347
心喜	-11.6347
飛行	-11.635
稱佛	-11.635
授藥	-11.6352
造惡	-11.6352
廣分別	-11.6353
不定教	-11.6355
四宗	-11.6355
三業供養	-11.6358
密說	-11.6359
實相印	-11.636
獨得	-11.636
約機	-11.6363
有四義	-11.6364
如是乃至	-11.6366
保證	-11.6366
淨眼	-11.6366
阿含經	-11.6367
八十億	-11.6369
之所以也	-11.6369
千如	-11.637
當得成佛	-11.6372
唯依	-11.6372
此敘	-11.6373
彼佛滅度	-11.6373
不到	-11.6377
甄	-11.6378
五行半	-11.6379
無所見	-11.638
塵沙無明	-11.6383
▁三合	-11.6384
終歸於空	-11.6384
意趣難解	-11.6385
正文	-11.6386
閇	-11.6388
為鈍根	-11.6389
多所饒益	-11.6389
釆	-11.639
無情有性	-11.639
正性	-11.6391
頞	-11.6393
轉身	-11.6394
何以得知	-11.6394
青黃赤白	-11.6394
從淺至深	-11.6395
兼行六度	-11.6396
淹	-11.6397
坎	-11.6397
遑	-11.6399
所縛	-11.6399
一經之	-11.6399
初引經	-11.64
別接通	-11.64
溝	-11.64
餓	-11.6401
與若干百千眷屬俱	-11.6403
因緣譬喻	-11.6403
毒蟲	-11.6403
相去	-11.6404
勝德	-11.6406
碑	-11.6406
焚燒	-11.6406
於菩提	-11.6406
恒沙佛法	-11.6406
三十四	-11.6409
貪瞋癡	-11.6409
中二初	-11.6411
理具三千	-11.6412
死生	-11.6413
請轉	-11.6414
者意云	-11.6415
由智	-11.6415
引用	-11.6418
破二十五有	-11.6418
教權	-11.642
菩薩亦爾	-11.6421
分為四	-11.6423
此翻為	-11.6424
六重	-11.6426
是為人	-11.6426
異乎	-11.6427
之藥	-11.6428
亦無所	-11.6429
豈獨	-11.6431
無常無我	-11.6432
道力	-11.6435
故輔行云	-11.6436
中復有	-11.6436
具引	-11.6437
觀機	-11.6437
寶鈴	-11.6438
斯則	-11.6438
三初明	-11.6439
問文殊	-11.644
十功德	-11.6443
妙性	-11.6444
波水	-11.6446
化功	-11.6446
八聖道	-11.6447
有二一	-11.6447
尚能	-11.6447
得不退轉	-11.6448
無為法	-11.6451
出胎	-11.6454
第三卷	-11.6455
作序	-11.6456
八門	-11.6459
柱根	-11.6464
六字	-11.6464
有生滅	-11.6468
結答	-11.6468
事畢	-11.647
開漸	-11.647
葢以	-11.6471
體狀	-11.6472
退屈	-11.6473
亦復然	-11.6473
全性	-11.6474
敘其	-11.6477
善用	-11.6478
捨几用車	-11.648
於意云何	-11.6482
事即理	-11.6482
顯教	-11.6483
筭	-11.6484
善住	-11.6485
鑒機	-11.6486
正直捨方便	-11.6488
普應	-11.6489
翫	-11.649
正位	-11.6492
兜	-11.6493
住行向地	-11.6493
堂司行者	-11.6494
含中	-11.6496
耕	-11.65
獼猴	-11.65
爾時會中	-11.6501
擎	-11.6502
巧度	-11.6502
羅剎女	-11.6503
輻	-11.6503
無貪	-11.6505
巾	-11.6506
椎	-11.6506
推檢	-11.6508
東南	-11.6508
他日	-11.6511
教詔	-11.6513
入實際	-11.6513
渾	-11.6514
遊化	-11.6515
電光	-11.6515
念不退	-11.6515
生一切法	-11.6519
理外	-11.652
肺	-11.6521
為侍者	-11.6522
目之為	-11.6522
方便波羅蜜	-11.6523
智性	-11.6524
子見父	-11.6524
殊不知	-11.6525
更修	-11.6525
并前	-11.6528
險難	-11.6529
數多	-11.6531
阿若	-11.6532
見慢	-11.6534
商略	-11.6536
能覆	-11.6536
損益	-11.6537
一代教	-11.6537
人之所	-11.6539
深山	-11.654
得神通	-11.654
退墮	-11.6545
□□	-11.6545
業果	-11.6545
一行半頌	-11.655
次半行	-11.6551
彌勒等	-11.6554
嬰兒行	-11.6557
日照	-11.6557
斯言	-11.6558
偈半	-11.6561
親承	-11.6561
起惡	-11.6562
直爾	-11.6563
華開	-11.6566
親證	-11.6569
冥機	-11.6571
偏舉	-11.6572
遍覆	-11.6575
釋品	-11.6575
華香瓔珞	-11.6576
欲退還	-11.6577
八十萬億那由他	-11.6578
無瞋	-11.6582
教菩薩法佛所護念	-11.6582
心神	-11.6585
耶輸陀羅	-11.6585
上至有頂	-11.6585
藪	-11.6586
初標章	-11.6589
薝蔔	-11.659
但有名字	-11.659
央掘	-11.659
二乘不知	-11.6591
演暢	-11.6591
名異義同	-11.6593
頹	-11.6593
延促	-11.6593
何物	-11.6593
城邑	-11.6594
未達	-11.6594
共不共	-11.6595
何故云	-11.6596
低頭	-11.6596
漁	-11.6599
無量阿僧祇劫	-11.6599
腦	-11.6599
濁水	-11.66
兩文	-11.6601
作此釋	-11.6603
遐	-11.6603
四弘誓	-11.6605
十六子	-11.6608
殊妙	-11.6608
章敬云	-11.6608
小乘教	-11.6608
耆婆	-11.6609
圓機	-11.6611
人不見之	-11.6613
存沒	-11.6614
寶帳	-11.6616
薄德	-11.6617
問云何	-11.6618
所好	-11.6619
逆罪	-11.662
呪護	-11.662
巳曾	-11.6624
亦應云	-11.6631
頂墮	-11.6632
何位	-11.6632
異見	-11.6632
亦可云	-11.6634
執我	-11.6634
盡矣	-11.6635
亡照	-11.6637
山門	-11.6643
迷理	-11.6644
歎美	-11.6644
流注	-11.6646
密雲	-11.6648
淨潔	-11.6649
滅除	-11.665
默念	-11.6655
四無礙智	-11.6656
得罪	-11.6658
寧不	-11.666
四十位	-11.6662
貪心	-11.6662
十行半	-11.6662
諸佛世界	-11.6662
所敬	-11.6663
親見	-11.6665
八十年	-11.6665
今辨	-11.6665
誠諦	-11.6666
當得菩提	-11.6672
不休	-11.6675
此段	-11.6677
四部眾	-11.6679
愛念	-11.668
牕	-11.6681
於我滅後	-11.6682
緣境	-11.6682
其車高廣	-11.6683
矛	-11.6684
舌相	-11.6684
真境	-11.6686
三佛性	-11.6686
第五品	-11.6687
憂悲苦惱	-11.6687
廣開	-11.6687
先正釋	-11.669
凡小	-11.6692
能信受	-11.6694
略引	-11.6696
惶	-11.6696
貢	-11.6697
淨名疏云	-11.6697
有漏法	-11.6698
恬	-11.6698
未暇	-11.6699
矯	-11.6702
金光	-11.6703
芳	-11.6703
於佛法中	-11.6704
鹿車	-11.6705
俱起	-11.6705
諸佛之法	-11.6707
檢校	-11.6707
孕	-11.6708
隨他	-11.6709
不能令	-11.671
旋轉	-11.6715
受持此經	-11.6719
淨色	-11.6719
乃至第十	-11.6723
漸入	-11.6723
不男	-11.6724
第二時	-11.6727
持經之	-11.673
十五日	-11.6734
斥奪	-11.6735
佛藏	-11.6741
存略	-11.6741
傳燈	-11.6742
字訓	-11.6745
出聲	-11.6746
於一佛乘	-11.6749
忍力	-11.6749
無量無數	-11.6749
妙音品	-11.6756
諸識	-11.6764
若遇	-11.6765
化城品	-11.6766
迹顯本	-11.6766
六界	-11.6768
文竟	-11.6768
依主	-11.677
為害	-11.6771
入正定聚	-11.6771
千國土	-11.6771
此三義	-11.6772
莂	-11.6773
所染	-11.6774
如大經	-11.6775
諸凡夫	-11.6775
定性聲聞	-11.6777
唯識云	-11.6779
韓	-11.6779
功由	-11.678
槃	-11.6781
此娑婆	-11.6782
無數億	-11.6782
三十八	-11.6783
脊	-11.6784
昆	-11.6785
。】【△	-11.6787
律中	-11.6789
紺	-11.679
法中論	-11.6791
未得謂得	-11.6792
雌	-11.6793
斥小	-11.6796
監	-11.6796
總示	-11.6797
六十四番	-11.6797
此之二	-11.6798
䭾	-11.6801
弓	-11.6801
分大小	-11.6802
恭敬供養	-11.6804
秤	-11.6806
宗用	-11.6806
自歸	-11.6809
遇佛	-11.6812
三十六物	-11.6812
習盡	-11.6816
祖承	-11.6816
其迹	-11.6817
法界眾生	-11.682
特為	-11.683
慈悲心	-11.6835
求大乘	-11.6836
遠因	-11.6837
惡知識	-11.6837
山家	-11.684
熱病	-11.6841
一尺	-11.6841
可斷	-11.6845
信毀	-11.6846
無增減	-11.6847
玅音	-11.685
第十一	-11.6852
施小	-11.6852
解惑	-11.6853
一心精進	-11.6854
聖旨	-11.6854
還約	-11.6857
西晉	-11.6858
器世間	-11.6859
至誠	-11.686
衰老	-11.6862
十二入	-11.6865
中論云	-11.6865
照機	-11.6868
外別有	-11.6868
重寶	-11.6869
生大歡喜	-11.687
二初問	-11.687
亦未為難	-11.6873
於身中現	-11.6876
閑居編第	-11.6877
非空非有	-11.6878
兩偈	-11.6879
密遣二人	-11.6882
得少為足	-11.6882
授聲聞記	-11.6882
如是種種	-11.6882
功歸	-11.6883
無價寶珠	-11.6884
愛敬	-11.6884
位妙	-11.6886
勗	-11.6887
百千億	-11.6887
四十一位	-11.6889
莊校	-11.6889
宗體	-11.6891
百二十	-11.6891
疲勞	-11.6892
何以知然	-11.6893
食時	-11.6893
廁	-11.6894
令入佛道	-11.6896
大富	-11.6896
燕	-11.6896
䟦提	-11.6898
不斷惑	-11.6899
於空中	-11.6899
皈	-11.69
欲來	-11.6904
智者大師	-11.6909
朕	-11.6911
決擇	-11.6913
金錢	-11.6916
勸誡	-11.6917
權即實	-11.6917
含藏	-11.6924
會麼	-11.6925
妙達	-11.693
釋種	-11.6936
不覺不知	-11.6937
例上	-11.6937
氣息	-11.6939
界界	-11.6939
無非實相	-11.694
取境	-11.6941
所許	-11.6941
趣果	-11.6953
饒益眾生	-11.6955
軌則	-11.6955
初中後	-11.6957
具度	-11.6962
攝在	-11.6963
分分	-11.6963
脫苦	-11.6964
第十八	-11.6965
不可計	-11.6965
之所生	-11.6967
重述	-11.6968
不得自在	-11.6968
遮照	-11.6971
初一偈	-11.6973
妙莊嚴	-11.6975
冥益	-11.6978
雲雷音	-11.6981
方名為	-11.6981
遊於四方	-11.6981
善權	-11.6984
能覺	-11.6984
九方	-11.6986
臨欲終時	-11.6986
浴池	-11.6988
雨大法雨	-11.6988
無別體	-11.6989
不出此	-11.6989
佛寶	-11.6991
抗	-11.6993
參差	-11.6994
之所由	-11.6994
即其事也	-11.6995
蜈蚣	-11.6996
歇	-11.6996
踞	-11.6996
流行	-11.6997
心佛眾生	-11.6998
模	-11.6998
田宅	-11.6998
程	-11.6999
沫	-11.7
即是法性	-11.7
幽谷	-11.7001
輿	-11.7002
騎	-11.7003
捷	-11.7003
峻	-11.7004
同居土	-11.7004
効	-11.7006
心心數法	-11.7007
國王大臣	-11.7007
所遊	-11.7009
囉	-11.7009
法塵	-11.701
不翻	-11.7013
佛果菩提	-11.7013
總喻	-11.7016
白骨	-11.7021
更增	-11.7024
常懷	-11.7031
寒熱	-11.7031
龍女成佛	-11.7032
十月	-11.7032
發來	-11.7032
見思惑	-11.7037
三根聲聞	-11.7041
惡友	-11.7041
入地獄	-11.7046
部教	-11.7048
疏主解	-11.705
無始來	-11.7051
魔軍	-11.7051
華藏	-11.7059
先除	-11.7061
苦海	-11.7062
是故當知	-11.7065
夢見	-11.7066
生天上	-11.7066
歸真	-11.707
能持是經者	-11.7074
疏意	-11.7075
淨名經	-11.7076
愛欲	-11.7077
二嚴	-11.7078
魔界	-11.708
離過	-11.7083
十度	-11.7084
到於彼岸	-11.7086
妙好	-11.7088
貽	-11.709
無謬	-11.709
無有餘乘	-11.7092
先述	-11.7093
駭	-11.7093
叢	-11.7093
安隱得出	-11.7094
佉	-11.7095
房舍	-11.7097
攝持	-11.7098
炷	-11.7098
蕭	-11.71
糅	-11.7102
大施主	-11.7103
炙	-11.7106
破魔	-11.7106
申之	-11.7108
腰	-11.711
無雜	-11.7111
又復應知	-11.7112
純熟	-11.7112
聽許	-11.7116
二初約	-11.7116
二十八品	-11.7117
五百年	-11.7118
丙	-11.7118
一偈一句	-11.7119
尚在	-11.7121
如來神力	-11.713
第五明	-11.713
知病	-11.713
我亦如是	-11.7137
以勸流通	-11.7138
博地	-11.7138
先達	-11.7139
僕從	-11.714
更互相	-11.7143
乘急	-11.7143
卷下	-11.7143
薩婆	-11.7144
邪命	-11.7144
如此方	-11.7149
戒律	-11.7149
隨順眾生	-11.7151
所緣境	-11.7152
不聞不知	-11.7154
毗婆沙	-11.7155
無主	-11.7157
細尋	-11.7168
八倒	-11.7174
下舉譬	-11.7175
徒施	-11.7175
未詳	-11.7176
初發心時	-11.7176
金光明經	-11.7178
高座	-11.7179
歸本	-11.7181
色心不二	-11.7182
勸流通	-11.7185
無始終	-11.7186
各執	-11.7188
一切天人	-11.7188
非三非一	-11.7189
僭補	-11.7192
▁初引經	-11.7192
耳識	-11.7192
正法華經	-11.7193
世雄	-11.7193
三千大千國土	-11.7193
憍恣	-11.7194
韻	-11.7194
諸佛智慧甚深無量	-11.7195
俱舍頌云	-11.7195
三變淨土	-11.7196
幔	-11.7199
搏	-11.7199
直示	-11.72
屬事	-11.7201
四攝法	-11.7201
三千三諦	-11.7201
諸惑	-11.7201
懶	-11.7203
不能解	-11.7204
敗種	-11.7204
那羅延	-11.7205
念住	-11.7205
碩	-11.7206
毱多	-11.7206
百法	-11.7206
諸漏巳盡	-11.7208
汝可	-11.7209
超斷	-11.721
四無所畏	-11.7211
十乘觀法	-11.7211
丑	-11.7212
縛脫	-11.7214
収	-11.7216
遍行	-11.7219
不善心	-11.722
斤	-11.7222
化用	-11.7222
八勝處	-11.7222
違於	-11.7222
極微	-11.7226
顏色	-11.7227
准知	-11.7231
賢位	-11.7231
苦痛	-11.7232
斯旨	-11.7234
五藏	-11.7237
斥云	-11.7237
種種供養	-11.724
為頓頓	-11.7241
涯	-11.7244
滅化	-11.7245
後辨	-11.7246
悕	-11.7247
初成道時	-11.7248
必應	-11.7249
火坑	-11.725
延慶	-11.7251
罪過	-11.7254
付屬	-11.7259
此經亦復如是	-11.7266
減少	-11.7268
拙度	-11.7268
為對治	-11.7271
觀禪	-11.7273
施食	-11.7274
巳成佛	-11.7277
即是中道	-11.7278
七重	-11.7288
中路懈退	-11.7289
受旨	-11.7289
差降	-11.7293
皰	-11.7297
禹	-11.7297
資粮	-11.7299
往因	-11.73
敦信	-11.7301
斷通惑	-11.7301
摸	-11.7301
茫	-11.7302
墳	-11.7303
位居	-11.7305
自念言	-11.7306
藥草喻	-11.7306
膜	-11.7307
般舟	-11.7308
不足以	-11.7309
諸梵天王	-11.731
蹤	-11.731
四弘誓願	-11.731
志求佛道	-11.731
兩班	-11.731
緣念處	-11.7312
非漏非無漏	-11.7314
鎖	-11.7315
沐	-11.7315
令我等	-11.7316
並同	-11.7316
準此可知	-11.7317
廣頌	-11.7317
黃帝	-11.7317
倘	-11.7318
羯	-11.7319
種種法門	-11.7319
弦	-11.732
願求	-11.7322
利智	-11.7323
淺處	-11.7329
破假	-11.733
▁四頌	-11.7331
所止	-11.7332
不乖	-11.7332
比量	-11.7332
依持	-11.7335
可了	-11.7336
天帝釋	-11.7337
舉如意云	-11.7337
癡人	-11.734
初又二初	-11.734
印可	-11.734
頭首	-11.7342
還源	-11.7342
喚作	-11.7345
慈父	-11.7346
六章	-11.7346
門內	-11.7347
審實	-11.735
蓮子	-11.7351
▁△	-11.7355
種種譬喻	-11.7357
隨眠	-11.7357
△	-11.7358
身形	-11.7359
普告	-11.7362
為汝等說	-11.7364
成實論	-11.7365
帳	-11.7366
諸佛子等	-11.7368
在纏	-11.7368
聽眾	-11.7369
詮理	-11.7375
抑亦	-11.7376
開為四	-11.7376
道士	-11.7382
四年	-11.7383
香油	-11.7385
獲罪	-11.7386
隨根	-11.7388
起謗	-11.7389
坐座	-11.7391
分段變易	-11.7393
踰繕那	-11.74
但教化菩薩	-11.74
手摩其頭	-11.74
時乃說之	-11.7402
東北	-11.7402
初中先	-11.7402
二初釋	-11.7403
眼視	-11.7404
以大悲	-11.7406
煖頂	-11.7408
容受	-11.7409
現神變	-11.7409
調御	-11.7411
挍	-11.7412
抵	-11.7413
行住坐臥	-11.7414
闢	-11.7414
九十八使	-11.7414
為諸聲聞	-11.7415
凶	-11.7415
霧	-11.7415
告彌勒	-11.7415
碧	-11.7416
優鉢羅	-11.7416
神通變化	-11.7416
不即不離	-11.7418
究其	-11.742
舉例	-11.742
何故爾	-11.742
淨飯王	-11.7422
緣覺乘	-11.7422
刀兵	-11.7422
持淨戒	-11.7423
十八變	-11.7428
名竪	-11.7429
借用	-11.7429
徙	-11.7429
便利	-11.7429
靈瑞	-11.7433
十八不共法	-11.7435
了別	-11.7436
亦不出	-11.7436
一乘因果	-11.744
堪受	-11.744
略標	-11.7441
鐵圍	-11.7445
是佛子	-11.7448
其有眾生	-11.7449
進道	-11.7451
所判	-11.7454
雙亡	-11.7457
為佛事	-11.7459
譯人	-11.7459
真金	-11.7461
於惡世	-11.7461
如釋籤	-11.7462
內德	-11.7462
詣佛	-11.7463
地種	-11.7464
三乘根性	-11.7464
本際	-11.7465
正業	-11.7466
流通此經	-11.7471
是何等	-11.7471
亦無有	-11.7472
淨命	-11.7476
佛難值	-11.7477
眾流	-11.7485
第五記	-11.7486
制心	-11.7487
承當	-11.7488
一切法空	-11.7488
終始	-11.749
餘乘	-11.7492
相值	-11.7493
十想	-11.7496
觀不思議境	-11.7498
娛	-11.7501
平等說法	-11.7504
有餘無餘	-11.7504
教所詮	-11.7508
不堪聞	-11.7509
糞穢	-11.7509
猷	-11.7512
根本禪	-11.7512
受益	-11.7512
少病少惱	-11.7513
阿耨	-11.7513
德藏	-11.7513
爭出火宅	-11.7516
埵	-11.7518
墯	-11.7518
結斥	-11.7519
粥	-11.7519
㝹	-11.7519
禦	-11.7519
齧	-11.7519
錢唐	-11.752
一心聽	-11.7521
鹿野	-11.7521
瞑	-11.7521
纓絡	-11.7522
他性	-11.7522
呌	-11.7523
善權方便	-11.7525
銖	-11.7525
此之謂也	-11.7527
匹	-11.7527
求出家	-11.7527
埋	-11.7527
大人相	-11.7527
助顯第一義	-11.7529
於諸眾生	-11.753
遇緣	-11.753
憂悔	-11.7533
優波	-11.7533
雙亦	-11.7535
具三義	-11.7537
菩薩聞是法	-11.754
標列	-11.7542
見寶塔品	-11.7544
銅輪	-11.7549
不敬	-11.755
解脫德	-11.755
五百羅漢	-11.7551
生死煩惱	-11.7551
俱亡	-11.7552
若干種	-11.7556
白母	-11.7558
帝網	-11.7561
自他俱	-11.7561
三七思惟	-11.7567
▁初總標	-11.7574
稱嘆	-11.7576
觀解者	-11.7576
故喻云	-11.7578
味味	-11.7579
尚須	-11.7582
口密	-11.7582
皆當作佛	-11.7582
近成	-11.7585
暫時	-11.7585
雖未得	-11.7592
兩向	-11.7593
滅不滅	-11.7595
所收	-11.7596
年少	-11.7604
造論	-11.7609
此之三	-11.761
雜亂	-11.761
能護	-11.761
品類	-11.761
卷第六	-11.7612
而告之言	-11.7617
濃淡	-11.762
現世安隱	-11.762
隱實施權	-11.762
於後惡世	-11.7622
二段	-11.7623
薪盡火滅	-11.7624
何所不	-11.7625
理融	-11.7625
一日一夜	-11.7625
隨他意語	-11.7626
恐其	-11.7627
森羅	-11.7628
發迹顯本	-11.763
深禪定	-11.7631
贈	-11.7631
▁一長行	-11.7634
江河	-11.7634
毒虫	-11.7635
疣	-11.7636
孰能	-11.7636
曷	-11.7637
一一皆有	-11.7637
梅	-11.7637
癰	-11.7638
敬心	-11.7638
侵習	-11.7639
霅川	-11.7639
階位	-11.7641
乾土	-11.7645
當學般若	-11.7645
敘昔	-11.7646
一大車	-11.7646
何由可	-11.7647
態	-11.7647
泡	-11.7648
進行	-11.7649
得成佛道	-11.765
成辦	-11.765
智慧莊嚴	-11.7652
次一偈	-11.7656
法華巳前	-11.7658
眾機	-11.766
下根人	-11.766
頌第四	-11.7661
互攝	-11.7661
往聽	-11.7664
頌上第二	-11.7668
只得	-11.7669
諸善法	-11.767
二番	-11.7672
十二月	-11.7673
悲願	-11.7674
三解脫門	-11.7676
發大願	-11.7679
念觀音	-11.7679
本來無	-11.7683
勸供養	-11.7684
奉佛	-11.7688
列章	-11.7689
有二解	-11.7695
增勝	-11.7696
卷第五	-11.7698
光色	-11.7702
爾時四眾	-11.7703
所逼	-11.7707
毗盧	-11.771
故此品來	-11.7711
最尊	-11.7711
有人問	-11.7714
波羅夷	-11.7717
七歲	-11.7717
玅樂	-11.7722
厭生死	-11.7724
大海水	-11.7724
速成	-11.7729
說十地	-11.773
波斯匿王	-11.7731
毀呰	-11.7731
坐於道場	-11.7731
定障	-11.7732
甚可怖畏	-11.7734
且舉	-11.7734
罕	-11.7736
應知此	-11.7736
良有以也	-11.7736
向來	-11.7737
稽	-11.7737
次文者	-11.7737
羸瘦	-11.7738
悋	-11.7738
地水火風	-11.7739
入於佛慧	-11.7739
流水	-11.774
一四句偈	-11.774
敏	-11.7741
方便品中	-11.7741
初三行	-11.7742
洛	-11.7743
赫	-11.7744
朔	-11.7744
懇	-11.7744
無住處	-11.7748
仕	-11.7748
發揮	-11.7749
苦法忍	-11.7751
寬狹	-11.7751
四十二位	-11.7752
水陸	-11.7754
猶如虛空	-11.7755
奉事	-11.7756
品末	-11.7756
諸塵	-11.776
四如意足	-11.7761
安坐	-11.7762
文殊答	-11.7769
初轉法輪	-11.7769
依正不二	-11.777
說無量義經	-11.7774
集註	-11.7774
逗會	-11.7774
未周	-11.7775
為正宗	-11.7775
四十心	-11.7777
萬象	-11.7779
撥無	-11.7781
餘殘	-11.7782
又三初	-11.7782
不逾	-11.7783
如前所說	-11.7787
史記	-11.7792
未彰	-11.7796
第十二	-11.7797
不停	-11.7797
憂念	-11.7797
未來世中	-11.7797
報障	-11.7797
皆是方便	-11.78
一由旬	-11.78
作此解	-11.7802
被物	-11.7803
在凡	-11.7804
小乘三藏	-11.7808
為中根	-11.7825
所期	-11.783
未來佛	-11.7833
唯然世尊	-11.7834
還同	-11.7834
終成	-11.7835
章疏	-11.7836
迦陵頻伽	-11.7839
聲聞之人	-11.7839
皆是吾子	-11.784
荊谿云	-11.784
智慧明了	-11.7841
甚廣	-11.7844
醜陋	-11.7844
應作是念	-11.7844
百六十	-11.7844
寤	-11.7844
未念	-11.7845
舉體	-11.7846
豈容	-11.7846
勇健	-11.7848
胤	-11.785
無量無邊不可思議	-11.7851
經末	-11.7851
知足	-11.7851
功德智慧	-11.7851
復次常精進	-11.7851
優婆塞優婆夷	-11.7853
撫	-11.7855
作四句	-11.7859
綜	-11.7859
膿	-11.786
說種種法	-11.7861
殘害	-11.7863
福業	-11.7864
簡要云	-11.7866
修治	-11.7867
▁三結示	-11.7869
便成正覺	-11.787
具含	-11.7873
綺語	-11.7873
未斷惑	-11.7875
文為四	-11.7876
練磨	-11.7876
須臾聞	-11.7876
無量億	-11.7878
奉上	-11.7879
影像	-11.7883
防護	-11.7884
不善業	-11.7884
脩習	-11.7885
二初正明	-11.789
分節	-11.789
宣傳	-11.7899
何甞	-11.79
且寄	-11.7901
誡聽	-11.7903
交互	-11.7907
十二年前	-11.791
圓頓止觀	-11.7911
無明法性	-11.7911
初半行	-11.7911
安禪	-11.7912
老人	-11.7922
幡蓋	-11.7924
法身德	-11.7925
賀	-11.7931
畢竟無	-11.7933
智論云	-11.7935
感應妙	-11.7935
推理	-11.7936
舊住	-11.7941
起大悲	-11.7942
斷集	-11.7943
和南	-11.7943
委論	-11.7945
生熟	-11.7947
恭敬圍繞	-11.7949
五十二位	-11.795
其土平正	-11.7951
無法不	-11.7952
不可稱計	-11.7955
護持法藏	-11.7956
還用	-11.7956
驚入火宅	-11.7956
上根人	-11.7957
孚	-11.7958
教誨	-11.7959
修道品	-11.796
至梵天	-11.796
國邑聚落	-11.796
資糧	-11.7961
愽	-11.7961
三十七道品	-11.7962
莫測	-11.7962
非內非外	-11.7962
接入	-11.7963
斷見惑	-11.7964
約六即	-11.7964
千二百歲	-11.7965
六欲天	-11.7967
嬈	-11.7968
自謂巳得	-11.7968
羣生	-11.7968
怡	-11.7969
剃髮	-11.7971
唯佛能知	-11.7972
酧	-11.7972
椽	-11.7972
法味	-11.7972
不須更	-11.7974
岐	-11.7975
實相理	-11.7976
之案	-11.7978
文有四	-11.7981
玅樂云	-11.7984
法華開顯	-11.7988
作是觀	-11.7989
置於	-11.799
無量阿僧祇	-11.7992
性種	-11.7993
於此會得	-11.7994
念佛三昧	-11.7998
白色	-11.7998
推撿	-11.7999
白象	-11.8
現身說法	-11.8002
證菩提	-11.8004
迷真	-11.8004
巳畢	-11.8011
有二義一	-11.8015
栴檀香	-11.8017
後際	-11.8022
失本心	-11.8023
不休息	-11.8025
道俗	-11.8026
六頌	-11.8027
及諸菩薩	-11.8027
無所住	-11.8028
立一切法	-11.8028
意在於	-11.8028
雜染	-11.8032
且就	-11.8032
不遇	-11.8034
要當	-11.8038
五百比丘	-11.8038
比知	-11.8042
三千性相	-11.8042
車乘	-11.8045
供養經卷	-11.8046
嵗	-11.805
亦不可得	-11.8054
謨	-11.8055
無不皆	-11.8056
正要	-11.8056
俱屬	-11.8056
七月	-11.8057
子孫	-11.8058
如玄文	-11.806
問經從	-11.8062
勿得	-11.8063
各各自	-11.8064
諸天人民	-11.8067
阿閦	-11.8068
一旦	-11.8068
頓悟菩薩	-11.8071
打擲	-11.8072
不受後有	-11.8073
航	-11.8074
老病死	-11.8075
匡	-11.8077
攝末歸本	-11.8078
同入法性	-11.8078
下三句	-11.8078
犍	-11.8078
愛別離	-11.8079
三種意生身	-11.808
摩竭	-11.808
鞭	-11.8081
順忍	-11.8083
播	-11.8083
算數	-11.8083
一真法界	-11.8083
悶絕	-11.8085
葬	-11.8086
裔	-11.8086
庚	-11.8087
慈善根力	-11.8087
捧	-11.8088
惛	-11.8088
瑟	-11.8089
凌	-11.8089
跛	-11.8089
馬鳴	-11.809
及聲聞眾	-11.8091
在懷	-11.8094
觀音玄	-11.8095
不安隱	-11.8096
婢	-11.8097
真如隨緣	-11.8098
桑	-11.8099
脾	-11.81
大象	-11.8102
出興	-11.8103
四衢	-11.8104
決定心	-11.8105
腎	-11.8109
付法	-11.8109
疏解	-11.8114
又為三	-11.8116
出分段	-11.8117
秦言	-11.8117
輔行釋	-11.8118
如酪	-11.812
幾何	-11.8123
隔異	-11.8125
三無性	-11.8127
七地巳前	-11.8127
助開	-11.813
三觀一心	-11.813
入息	-11.8134
猶居	-11.8136
醫王	-11.8139
皆悉具足	-11.814
風雨	-11.8144
慈力	-11.8145
五番	-11.8146
本迹二門	-11.8147
學地	-11.8148
梵王請	-11.815
莫知	-11.8153
一念心起	-11.8153
所繫	-11.8155
可思議	-11.8156
委付	-11.8157
科釋	-11.8158
於菩薩法	-11.8161
貼	-11.8161
思議境	-11.8162
四念處云	-11.8164
殊特	-11.8167
為眾生作	-11.8169
般若德	-11.8169
阿逸	-11.8169
影現	-11.817
我等諸宮殿	-11.817
無想天	-11.8171
往復	-11.8171
豈異人乎	-11.8175
不瞋	-11.8177
訛也	-11.8179
衣覆	-11.8181
說默	-11.8183
塵剎	-11.8183
天台智者大師	-11.8185
惡魔	-11.8187
第十三	-11.8187
淘汰	-11.8188
隘	-11.8188
簫	-11.8189
恕	-11.8195
先牒	-11.8196
糠	-11.8196
未全	-11.8196
實相之理	-11.8197
貯	-11.8199
詢	-11.82
盡無生智	-11.82
牒經	-11.8201
更無有	-11.8201
阿闍世王	-11.8202
賓主	-11.8203
鏁	-11.8204
為是義故	-11.8205
惑障	-11.8205
墮在	-11.8207
膺	-11.8207
而得解脫	-11.8209
表報	-11.821
號日月燈明	-11.8212
祠	-11.8213
生謗	-11.8213
初發心住	-11.8215
千子	-11.8215
初法說	-11.8217
問若爾	-11.822
九行半	-11.822
忽見	-11.8222
與奪	-11.8228
出入息	-11.823
正思惟	-11.8232
有妨	-11.8243
不動地	-11.8246
地獄界	-11.8251
縱令	-11.8253
功力	-11.8254
愛取	-11.8259
法身大士	-11.8263
未曾聞	-11.8269
第八地	-11.8269
最妙	-11.8274
第十五	-11.8275
第七卷	-11.828
塔寺	-11.8281
中有五	-11.8282
傳教	-11.8282
行支	-11.8284
斷界內	-11.8286
有二釋	-11.8291
持國	-11.8291
根境	-11.8292
偏袒右肩	-11.8293
不可改	-11.8293
生公	-11.8295
是則名為	-11.8296
微塵數菩薩摩訶薩	-11.8296
捃拾	-11.8297
其智慧門	-11.83
杳	-11.8301
劒	-11.8301
火滅	-11.8304
異方便	-11.8305
有一導師	-11.8306
方堪	-11.8308
汲	-11.831
姨母	-11.8312
雕	-11.8312
敗壞	-11.8313
倣	-11.8313
不值佛	-11.8314
思之可知	-11.8314
一體三寶	-11.8315
一切聲聞辟支佛	-11.8315
㵎	-11.8317
少異	-11.8317
法雲	-11.8318
矩	-11.8319
還依	-11.832
不覺知	-11.832
衝	-11.8321
蹔	-11.8321
鑑機	-11.8322
退菩提心	-11.8323
攝一切行	-11.8323
天台智者	-11.8324
分別解說	-11.8324
種種不同	-11.8326
用車	-11.8332
約味	-11.8332
見火譬	-11.8334
輕毀	-11.8334
隨宜說	-11.8334
元來	-11.8342
麁細	-11.8344
於天人	-11.8346
度諸眾生	-11.835
煩惱生死	-11.835
無量義處	-11.8358
阿彌陀	-11.8366
欲擬	-11.8366
十一切處	-11.8379
一切語言	-11.8381
專使	-11.8381
紫金	-11.8382
觀外色	-11.8387
露地	-11.8388
嚴身	-11.8395
日月燈	-11.8395
多途	-11.8398
十方國土	-11.8399
涅槃時到	-11.8404
果縛	-11.8409
是趣不過	-11.8413
尊重讚歎	-11.8416
明來意	-11.8418
爾雅	-11.842
雇	-11.842
玄文云	-11.8422
八諦	-11.8422
二種生死	-11.8423
八百弟子	-11.8423
雙流	-11.8424
巧說	-11.8426
裕	-11.8426
謟	-11.8427
正等覺	-11.8427
梵輔	-11.8428
智眼	-11.8428
嫁	-11.8428
此是第二	-11.8429
根莖枝葉	-11.8429
僊	-11.8429
欝	-11.843
積集	-11.8432
宿因	-11.8432
戚	-11.8432
燒臂	-11.8433
骨肉	-11.8434
袪	-11.8434
於時世尊	-11.8435
求聲聞者	-11.8437
騐	-11.8438
寶莊嚴	-11.8441
狐疑	-11.8442
習種性	-11.8442
諸禪三昧	-11.8443
斷欲界	-11.8445
亡泯	-11.8448
經無量劫	-11.8448
化他權實	-11.8451
你	-11.8451
相扶	-11.8452
等無有異	-11.8453
犯重	-11.8454
預流	-11.8456
弊惡	-11.8458
上二句	-11.8459
慧力	-11.8461
寶衣	-11.8461
受學	-11.8462
繫緣	-11.8463
中道正觀	-11.8465
剎海	-11.8465
緣熟	-11.8469
物情	-11.8473
必待	-11.8475
徧十方	-11.8476
三千世間	-11.8479
歷劫	-11.8479
轉計	-11.8479
融攝	-11.848
迦葉白佛言	-11.8482
不悕	-11.8483
得道果	-11.8484
十界十如	-11.8485
白淨	-11.8487
雜修	-11.8489
一切色身	-11.8496
億千	-11.8498
三種止觀	-11.8507
根性不同	-11.8508
一槩	-11.8515
仍存	-11.8519
學無學人	-11.852
佛陀	-11.8523
神通妙	-11.8524
能到	-11.8524
放光照	-11.8526
藏通別圓	-11.8528
寶樹莊嚴	-11.8529
二句頌	-11.8531
絕言歎	-11.8534
說無量義	-11.8534
深入禪定	-11.8536
學無學二千人	-11.8539
彚	-11.854
今正是時	-11.8541
乃能知之	-11.8541
入禪定	-11.8541
踈	-11.8542
稻	-11.8543
互相推排	-11.8544
常教化	-11.8544
無謀	-11.8545
摩尼珠	-11.8546
六度萬行	-11.8546
疆	-11.8546
坦然	-11.8547
立誓	-11.8547
占察	-11.8548
翻破	-11.8549
群臣	-11.855
唯是一	-11.855
鮮白	-11.855
大目犍連	-11.855
弄引	-11.8551
筵	-11.8551
後一頌	-11.8552
荊	-11.8552
隴	-11.8553
鴻	-11.8553
啻	-11.8553
不思議解脫	-11.8555
讚揚	-11.8556
征	-11.8556
卯	-11.8557
茅	-11.8557
濕性	-11.8561
沼	-11.8562
手摩	-11.8564
能遮	-11.8565
如是妙法	-11.8566
自知作佛	-11.857
金輪王	-11.8572
度無極	-11.8572
八行半	-11.8572
與諸菩薩	-11.8573
紀國	-11.8573
之輩	-11.8575
咸歸	-11.8576
普潤	-11.8576
初標列	-11.8577
顯揚	-11.858
從佛聞法	-11.8583
著述	-11.8586
▁初因緣	-11.8586
多含	-11.8587
釋妨	-11.8588
諸小王	-11.8589
先歎	-11.8593
波利	-11.8593
五十由旬	-11.8596
行布	-11.8596
容易	-11.8597
自在無礙	-11.8597
舊本	-11.8602
借彼	-11.8604
難遭	-11.8606
周禮	-11.8606
疑除	-11.8613
教化成就	-11.8614
十力無畏	-11.8616
將畢	-11.8617
慈忍	-11.8621
卷第七	-11.8628
法皷	-11.8631
下結歸	-11.8632
誡門	-11.864
丹丘	-11.8642
授學無學人記品	-11.8646
此一段	-11.8649
秘密之藏	-11.8649
夜摩	-11.8654
几案	-11.8657
九世	-11.8659
當為汝說	-11.866
追誘	-11.8663
所依止	-11.8664
縫	-11.8664
殞	-11.8665
靈鷲山	-11.8665
塊	-11.8666
怨嫌	-11.8666
迦毗羅	-11.8668
苦集滅道	-11.8669
得大神通	-11.8669
㭊玄	-11.867
只應	-11.8671
牧	-11.8673
介	-11.8673
圭	-11.8673
兩存	-11.8675
農	-11.8675
概	-11.8677
斧	-11.8677
從初至	-11.8682
入胎	-11.8685
五品位	-11.8688
翁	-11.8689
鼎	-11.8692
憶持	-11.8693
失旨	-11.8693
圓教四門	-11.8694
第四卷	-11.8695
憂喜	-11.8698
發動	-11.8707
七益	-11.8713
涌現	-11.8715
十五心	-11.8716
初後俱	-11.8716
即於佛前	-11.8718
不毀	-11.872
眼所見	-11.8722
引論文	-11.8725
玅觀	-11.8725
燈明佛	-11.8726
下結意	-11.873
王臣	-11.8752
大羅漢	-11.8754
至道場	-11.8756
徧覆	-11.8757
華葉	-11.8761
約教釋	-11.8764
處胎	-11.8765
淺識	-11.8767
三悉檀	-11.877
感報	-11.8772
直就	-11.8773
佛自住大乘	-11.8774
如意足	-11.8776
堅執	-11.8777
三藐三菩提	-11.8778
旃	-11.8779
却住一面	-11.878
闊	-11.8782
盡諸有結	-11.8782
多羅樹	-11.8783
萎	-11.8784
翠	-11.8785
義便故	-11.8787
菜	-11.8788
讖	-11.8788
崛	-11.8788
吠	-11.8789
而供養之	-11.8789
百八十	-11.8789
廬	-11.879
拾	-11.879
奮	-11.8791
靈山一會	-11.8791
非空非有門	-11.8793
株	-11.8793
蜂	-11.8793
傳寫	-11.8795
報佛恩	-11.8795
初地巳上	-11.8798
真如實相	-11.8799
沸	-11.88
講堂	-11.88
添品	-11.88
良由於此	-11.88
流動	-11.8801
未窮	-11.8802
尊貴	-11.8803
統紀	-11.8803
難曉	-11.8803
下訖	-11.8804
無礙辯	-11.8809
普賢勸發	-11.8813
是時長者	-11.8814
入初禪	-11.8818
六種法師	-11.8818
大乘經典	-11.8819
檀度	-11.8821
遭難	-11.8827
淨六根	-11.883
信根	-11.8831
此等皆	-11.8834
三周說法	-11.8844
是有法	-11.8847
佛勅	-11.8851
那律	-11.8855
於後世	-11.8858
付業	-11.8862
名常不輕	-11.8864
大慈心	-11.8867
授手	-11.8871
圓入通	-11.8876
尋光	-11.8877
練根	-11.8879
頌上長行	-11.8879
非擇滅	-11.888
泯合	-11.8882
隔別	-11.8883
七句	-11.8886
一般	-11.8886
大河	-11.8888
般若解脫	-11.8889
解無上士調御丈夫天人師佛世尊	-11.8891
支林	-11.8892
今且從	-11.8895
今日世尊	-11.8897
濤	-11.8897
山河	-11.8897
草庵	-11.8898
抹	-11.8899
下中上	-11.8899
佛種從緣起	-11.8901
但列	-11.8901
得幾所福	-11.8902
令法久住	-11.8902
威猛	-11.8902
唄	-11.8903
毗舍闍	-11.8903
根有利鈍	-11.8903
攝取事門	-11.8905
學大乘	-11.8906
脩道	-11.8907
汝舍利弗	-11.8909
賖	-11.8911
行如來事	-11.8912
四枯	-11.8912
一心觀佛	-11.8913
話	-11.8915
薄拘羅	-11.8915
麟	-11.8919
污穢	-11.8919
赦	-11.8919
」【△	-11.892
梯	-11.8921
檀那	-11.8921
以求佛道	-11.8922
佛眼觀	-11.8926
色究竟天	-11.8926
踏	-11.8928
真諦理	-11.8931
香味	-11.8931
此之四	-11.8933
聽法華經	-11.8933
十七名	-11.894
約三法	-11.8941
演義	-11.8947
稱為妙	-11.895
邪僻	-11.8951
降靈	-11.8952
勿令	-11.8952
昭然	-11.8955
精進力	-11.8958
執迹	-11.8958
大品經云	-11.8958
第三周	-11.8967
佛法僧	-11.8967
月十五日	-11.8968
在於此	-11.897
不逮	-11.8971
法念處	-11.8979
不怖	-11.8986
下八句	-11.8987
無涯	-11.8994
淺近	-11.8999
中亦二	-11.8999
覺支	-11.8999
陰魔	-11.9007
期心	-11.9007
見十方佛	-11.9007
琉璃為地	-11.9013
如來應供正徧知明行足善逝世間	-11.9016
於無量億劫	-11.9017
得車歡喜	-11.9018
非色非心	-11.9022
心之所念	-11.9022
多摩羅䟦	-11.9027
演大法義	-11.9028
供養眾僧	-11.9028
他土六瑞	-11.9028
十法成乘	-11.9028
箜篌	-11.9029
阿練若	-11.9029
驚駭	-11.9029
釋氏	-11.903
初一行頌	-11.9031
瞬	-11.9034
現在世	-11.9034
其數如恒沙	-11.9034
如是之人乃可為說	-11.9034
摩醯首羅	-11.9034
恡	-11.9034
鷹	-11.9034
帝王	-11.9035
惰	-11.9036
挺	-11.9036
猴	-11.9036
換	-11.9037
大富長者	-11.9038
翹	-11.9039
一生補處	-11.904
妖	-11.904
蔓	-11.9041
率爾	-11.9042
駝	-11.9042
密教	-11.9043
流浪	-11.9044
婆沙中	-11.9044
罪重	-11.9044
付法藏	-11.9044
吉凶	-11.9046
清凉	-11.9047
諸天眾	-11.9047
確	-11.9047
二頌半	-11.905
事理不二	-11.905
中皆有	-11.905
六十五	-11.9051
普賢觀經	-11.9051
其名曰	-11.9053
待對	-11.9053
來聽法	-11.9053
圓寂	-11.9055
禾	-11.9055
何容	-11.9057
狹劣	-11.9058
當為說	-11.9059
▁二何者下	-11.9061
以智方便	-11.9062
此是苦	-11.9064
第六卷	-11.9066
志固	-11.9067
今者世尊	-11.907
五十年	-11.9071
有何不可	-11.9071
尊勝	-11.9074
頭面	-11.9074
他受用身	-11.9077
佛未出	-11.9078
。】「△	-11.9078
連持	-11.9079
從假入空觀	-11.9083
我等亦如是	-11.9083
安詳	-11.9085
傳授	-11.9087
不善法	-11.909
濁世	-11.9092
若然者	-11.9099
稱歎方便	-11.9099
約三諦	-11.91
煗法	-11.9104
總歎	-11.9118
塵垢	-11.9119
實諦	-11.9119
光音	-11.9122
永失	-11.9122
於此經中	-11.9125
。』「	-11.9125
增一云	-11.9127
摩尼寶	-11.9134
方便品云	-11.9134
轉於法輪	-11.9139
等賜大車譬	-11.9141
億百千姟	-11.9142
文殊師利法王子	-11.9144
不堪受	-11.9144
所將人眾	-11.9145
歎法希有	-11.9146
水草	-11.9147
是法皆為一佛乘故	-11.9148
入化城	-11.9148
即實而權	-11.9149
住不退地	-11.9149
三根人	-11.915
付囑有在	-11.9151
稱觀世音	-11.9152
如幻如化	-11.9153
以種種因緣	-11.9153
見子便識	-11.9153
以道受樂	-11.9153
百佛世界	-11.9154
五重玄義	-11.9154
戒禁	-11.9154
天雨四華	-11.9154
不可稱數	-11.9155
富單那	-11.9155
楯	-11.9156
無二亦無三	-11.9157
第二周	-11.9157
終不能	-11.9157
領家業	-11.9159
禽	-11.916
得佛法分	-11.9162
來至法華	-11.9163
毘尼	-11.9164
藕	-11.9165
頴	-11.9166
憂愁	-11.9167
四分律	-11.9167
無師智	-11.9167
讀文	-11.917
輕安	-11.917
轂	-11.9171
群機	-11.9172
時釋迦牟尼佛	-11.9173
舊譯	-11.9174
我無我	-11.9176
鑄	-11.9177
於世尊前	-11.9177
相符	-11.9179
稍異	-11.9179
一道清淨	-11.918
十由旬	-11.9182
簡擇	-11.9182
別教教道	-11.9183
大智度論	-11.9183
隔歷	-11.9186
恐畏	-11.9188
是善男子善女人	-11.9192
敵對	-11.9194
二初合	-11.9196
賴耶	-11.9202
無漏慧	-11.9203
無煩	-11.9204
月八日	-11.9213
利益妙	-11.9215
十三句	-11.9216
古德云	-11.9218
持業釋	-11.9219
尊敬	-11.9219
義明矣	-11.9221
為眾說法	-11.9222
淨不淨	-11.9222
在何處	-11.9235
亦不相違	-11.9236
可比	-11.9238
統攝	-11.9238
百餘	-11.9238
大勢至	-11.9241
空無所有	-11.9243
第七記	-11.9244
秘妙	-11.9246
之貌	-11.9248
二萬億佛	-11.9249
二初示	-11.9254
約四諦	-11.9256
了悟	-11.9256
欲說是經	-11.9258
不二門云	-11.9261
持犯	-11.9265
▁初總明	-11.9266
寧可	-11.9273
無量壽佛	-11.9274
於三七日中	-11.9277
祭祀	-11.9279
雲雷音宿王華智佛	-11.9279
阿若憍陳如	-11.928
廢權立實	-11.9283
卷舒	-11.9283
淨藏淨眼	-11.9283
愍眾生故	-11.9283
五百萬億國	-11.9283
諒	-11.9283
是法不可示	-11.9284
淤泥	-11.9286
之咎	-11.9286
欄	-11.9286
五千退席	-11.9287
最實事	-11.9287
處非處	-11.9289
眼智明覺	-11.9289
從體起用	-11.9292
流傳	-11.9293
牌	-11.9293
瀉	-11.9294
涌出品	-11.9295
甚麼	-11.9296
矧	-11.9296
百川	-11.9296
亦得名為	-11.9297
澡	-11.9297
棃	-11.9297
秘要	-11.9298
抽	-11.9298
糟	-11.9298
正法念經	-11.93
香風	-11.93
適意	-11.9301
質礙	-11.9302
緇	-11.9302
十三行	-11.9303
厲	-11.9304
鈎	-11.9311
歎實智	-11.9311
兩臂	-11.9312
廣讚	-11.9315
勸進	-11.9315
全體是	-11.9317
閑靜	-11.932
辨訛曰	-11.932
宿緣	-11.932
衣鉢	-11.9322
不肖	-11.9322
深厚	-11.9322
一切有為	-11.933
怨親	-11.9332
尚不可得	-11.9336
上草	-11.9337
起塔供養	-11.934
勸門	-11.9342
力無畏等	-11.9346
下重釋	-11.9353
與今佛	-11.9359
信敬	-11.936
有四意	-11.9369
無處所	-11.9369
西國	-11.9372
同類因	-11.9373
述昔	-11.9376
肉身	-11.9377
十八不共	-11.9378
中自有二	-11.9383
密表	-11.9389
阿羅漢果	-11.9392
頌上合	-11.9395
精持	-11.9396
析空	-11.9401
無嗔	-11.9403
人非人	-11.9403
釋迦章	-11.9405
盈縮	-11.9405
此一偈	-11.9406
不須復說	-11.9406
艸木	-11.9406
蒙光	-11.9407
生盲	-11.9408
能拔	-11.9408
豈止	-11.9409
有權有實	-11.9409
開方便門示真實相	-11.941
清信士	-11.9411
罣	-11.9412
不唐捐	-11.9412
祕密之藏	-11.9413
玩	-11.9413
無時不	-11.9415
阿鼻獄	-11.9415
冥應	-11.9415
至親友家	-11.9415
兩楹	-11.9416
張本	-11.9416
無不盡	-11.9416
會稽	-11.9416
從實施權	-11.9417
揣	-11.9418
無差而差	-11.9419
諸有所作	-11.9419
寶渚	-11.942
耳鼻舌身意	-11.942
剪	-11.9422
雀	-11.9422
擊鼓	-11.9422
侍衛	-11.9423
舍衛	-11.9423
託胎	-11.9424
磬	-11.9424
對法論	-11.9424
金翅鳥	-11.9426
汗	-11.9428
脇	-11.9428
若有女人	-11.943
校計	-11.9433
嵩	-11.9433
師子座上	-11.9433
說大乘法	-11.9435
阿那律	-11.9436
威光	-11.9436
正行六度	-11.9437
材	-11.9438
法身常住	-11.944
衣裏	-11.944
此一節	-11.9444
禪定智慧	-11.9445
所不能及	-11.9446
門側	-11.9446
無量劫來	-11.9447
染汙	-11.9448
只在	-11.9448
普遍	-11.9448
東南方	-11.9449
佛在世時	-11.9449
速出三界	-11.945
阿修羅王	-11.9457
悲愍	-11.946
山城	-11.9461
真諦三藏	-11.9464
口索	-11.9466
堅滿	-11.9467
中央	-11.947
福報	-11.9471
疑者云	-11.9472
必藉	-11.9472
俱泯	-11.9474
源底	-11.9476
冥伏	-11.9476
畢竟清淨	-11.9476
聞法歡喜	-11.9476
自在力	-11.949
持經功德	-11.9491
不相應行	-11.9492
次一行半	-11.9498
十四品	-11.9499
橫計	-11.9499
日輪	-11.95
牽生	-11.9506
一偈半	-11.9508
法式	-11.9515
說無上道	-11.9519
甚矣	-11.9519
因緣所生	-11.952
阿修羅等	-11.9522
修中觀	-11.9525
致敬	-11.953
天大將軍	-11.9532
地獄餓鬼畜生	-11.9537
世尊甚希有	-11.9537
阿羅訶	-11.9538
蒙益	-11.9538
爾時世尊欲重宣此義	-11.9539
佛未出家時	-11.9542
已曾	-11.9542
後生善處	-11.9543
退大取小	-11.9544
唯佛與佛乃能究盡	-11.9545
遙見其父	-11.9546
八風	-11.9546
金銀珍寶	-11.9547
弘道	-11.9549
筏	-11.955
自覺覺他	-11.955
純一無雜	-11.955
心行處滅	-11.9551
梓	-11.9551
字函	-11.9551
枯榮	-11.9551
佛道長遠	-11.9551
文是也	-11.9551
高五百由旬	-11.9552
西域記云	-11.9552
須曼那	-11.9553
虎狼	-11.9554
大窾	-11.9555
朴	-11.9555
暑	-11.9557
隨自意語	-11.9558
胡跪	-11.9558
威勢	-11.9559
初文又三	-11.956
鱗	-11.956
命終之後	-11.956
劫燒	-11.9561
未曉	-11.9562
憤	-11.9562
員	-11.9562
階級	-11.9563
廣為人說	-11.9565
次第三觀	-11.9565
淨居天	-11.9566
提婆達多品	-11.9569
濕土	-11.957
龜茲	-11.9574
普現色身三昧	-11.9577
引大品	-11.9578
手指	-11.9578
初通明	-11.9578
依熏	-11.9582
萇	-11.9587
聞我所說	-11.9587
▁二如是下	-11.959
拂迹	-11.959
界內界外	-11.9592
百姓	-11.9592
佛所說法	-11.9594
自性清淨	-11.9595
修大行	-11.9601
帖釋	-11.9606
月天子	-11.9606
略開三顯一	-11.9607
首楞嚴定	-11.9607
諸侯	-11.9608
受記作佛	-11.961
譬如長者	-11.9611
而般涅槃	-11.9612
玅境	-11.9614
光瑞	-11.9615
勸發品	-11.9617
三諦之理	-11.9618
一句頌	-11.9621
所從來	-11.9622
開皇	-11.9623
義例云	-11.9626
東晉	-11.9629
年歲	-11.9631
既殊	-11.9637
首題	-11.9643
勤作	-11.9644
當知下結	-11.9646
而起大悲	-11.9651
無虧	-11.9659
標釋結	-11.9663
讀誦此經	-11.9664
庫司	-11.9672
審諦	-11.9672
遣化人	-11.9672
興供	-11.9673
不務速說	-11.9675
勤加精進	-11.9675
其智慧門難解難入	-11.9675
差即無差	-11.9675
婆藪	-11.9676
憙	-11.9676
庵	-11.9677
帀	-11.9677
嚮	-11.9677
入出無難	-11.9678
一日之價	-11.968
不多不少	-11.9681
競共馳走	-11.9682
大涅槃經	-11.9682
六年苦行	-11.9683
浮囊	-11.9685
先權後實	-11.9686
來儀	-11.9687
鵲	-11.9688
笛	-11.9688
哆	-11.9689
孤獨	-11.9691
鋪	-11.9692
橋	-11.9692
剛強	-11.9694
加功	-11.9699
樹木	-11.9703
遏	-11.9704
十一品	-11.9705
酬因	-11.9707
沉水	-11.9712
大成云	-11.9714
之儔	-11.9716
爾時彼佛	-11.9725
通四教	-11.9726
臭穢	-11.9727
啟請	-11.9727
赤白	-11.9731
如實知見	-11.9731
開遮	-11.9736
口輪	-11.9742
不見佛性	-11.9749
利根智慧	-11.975
普賢品	-11.9751
一切善法	-11.9754
降神	-11.9754
為說大乘	-11.9755
如之何	-11.9759
身子領解	-11.976
梵福	-11.9762
亦不須	-11.9766
補頌	-11.9768
謗毀	-11.9771
十住位	-11.9772
慈恩云	-11.9775
弘始	-11.9776
五段	-11.978
樂說無礙	-11.978
第一句	-11.9781
舊醫	-11.9783
心數法	-11.9786
墮惡	-11.9791
名見如來	-11.9794
相繼	-11.9795
乃至等覺	-11.9797
備矣	-11.98
若自書	-11.9801
究竟皆得一切種智	-11.9802
吏民	-11.9803
香水海	-11.9805
優波提舍	-11.9807
為火所燒	-11.9807
瑪瑙	-11.9807
受諸苦惱	-11.9808
即權而實	-11.981
十力四無所畏	-11.981
出廣長舌	-11.9811
贍	-11.9812
是法住法位	-11.9812
㲉	-11.9813
謂如半日	-11.9813
三明六通	-11.9815
憍曇彌	-11.9816
蚖蛇	-11.9816
儉	-11.9817
更無餘乘	-11.9817
護世	-11.9817
聾啞	-11.9818
昂	-11.9819
成就大志	-11.9819
無明緣行	-11.982
令得解脫	-11.9821
懈退	-11.9822
過去益物	-11.9822
所弘	-11.9823
裹	-11.9824
前之二	-11.9824
告諸大眾	-11.9824
囚	-11.9829
傭作	-11.983
俄	-11.9831
安國云	-11.9831
法身慧命	-11.9832
畢竟空寂	-11.9833
棟	-11.9833
賜與	-11.9834
輟	-11.9835
初中後善	-11.9836
五百歲	-11.9836
不信不解	-11.9838
戌	-11.9838
冶	-11.984
鈍根菩薩	-11.9842
今且依	-11.9846
酉	-11.9851
無所知	-11.9851
如如智	-11.9854
過罪	-11.9861
食肉	-11.9861
無去來	-11.9863
還家	-11.9867
有一比丘	-11.9872
無量無邊阿僧祇	-11.9873
梨耶	-11.9873
無窮盡	-11.9875
密語	-11.9876
卵生	-11.9877
正因性	-11.9889
佛初成道	-11.989
短長	-11.9897
為一大事因緣	-11.9901
趣舉	-11.9901
出纏	-11.9902
說壽量	-11.9903
佛自證	-11.9903
名阿那含	-11.9904
有大力	-11.9908
乳教	-11.9918
八十八	-11.9919
癡愛	-11.9923
分布	-11.9926
妙覺位	-11.9934
疑情	-11.9935
决	-11.9939
三藐三佛陀	-11.9941
歷一切法	-11.9941
頞鞞	-11.9942
導利眾生	-11.9945
出大音聲	-11.9948
阿惟越致	-11.9949
低頭舉手	-11.9949
以要言之	-11.995
風災	-11.995
若人遭苦	-11.9951
於寶塔中	-11.9951
規矩	-11.9951
聚落城邑	-11.9952
誅	-11.9953
色聲香味觸	-11.9953
析體	-11.9953
六根互用	-11.9954
力弱	-11.9954
百福莊嚴	-11.9954
本無今有	-11.9955
一地所生	-11.9956
給侍	-11.9957
真是佛子	-11.9958
為人演說	-11.9959
阿闍世	-11.996
靈智	-11.996
阿蘭若	-11.9961
十二分教	-11.9961
玄贊	-11.9964
猿	-11.9964
後宮	-11.9965
九十一劫	-11.9965
翰	-11.9967
教化諸菩薩	-11.9969
厨	-11.9971
債	-11.9971
仞	-11.9971
滓	-11.9972
蟻	-11.9972
五下分	-11.9972
十萬億	-11.9975
愛憎	-11.9976
依正色心	-11.9976
造塔	-11.9979
非真滅	-11.998
原夫	-11.998
浩然	-11.9986
阿羅	-11.9987
尋念	-11.9988
證小果	-11.9989
安隱眾生	-11.9991
周公	-11.9991
損害	-11.9995
內外凡	-12
可軌	-12
須待	-12.0005
能通達	-12.0007
疾病	-12.0008
華藏世界	-12.0012
宅主	-12.0015
讚美	-12.0016
體不二	-12.0023
清白	-12.0024
修梵行	-12.0029
太過	-12.0031
萬像	-12.0036
三頌合	-12.0037
第一義天	-12.004
有所表	-12.0041
尊極	-12.0048
所歸趣	-12.0048
從因緣生	-12.0049
非二乘所	-12.0049
現在未來	-12.0052
得須陀洹	-12.0056
堪聞	-12.0059
巧慧	-12.0063
約十界	-12.0065
下引例	-12.0071
諸比丘眾	-12.0077
金剛錍	-12.0079
佛界十如	-12.0081
汝於來世	-12.0082
志念堅固	-12.0084
長遠壽量	-12.0085
重宣	-12.0085
波羅柰	-12.0085
合掌恭敬	-12.0086
眾寶莊校	-12.0087
柔和忍辱	-12.0088
久默斯要	-12.0088
籤文	-12.0088
其數無有量	-12.0088
意在於此	-12.0089
閡	-12.009
鬬	-12.009
詳解	-12.009
諸求三乘人	-12.009
轉四諦法輪	-12.009
實相為體	-12.009
皮膚	-12.009
著五欲	-12.0091
赴物	-12.0091
不起滅定	-12.0092
對治助開	-12.0092
先三後一	-12.0092
修三觀	-12.0092
頻婆羅	-12.0093
衛護	-12.0095
受持讀誦解說書寫	-12.0095
頰	-12.0095
殿堂	-12.0096
紛紜	-12.0096
知苦斷集	-12.0096
像法決疑	-12.0096
絡	-12.0097
劫賓那	-12.0097
獅子	-12.0098
貿	-12.0099
唯佛能	-12.0099
騃	-12.01
不可說不可說	-12.0101
邏	-12.0103
泯然	-12.0104
迴小入大	-12.0105
揀境	-12.0105
悉能受持	-12.0106
魔羅	-12.0107
篋	-12.0109
覆護	-12.0111
突	-12.0113
百穀	-12.0115
恰	-12.0115
不顧	-12.0115
臰	-12.0118
委曲	-12.0119
識藥	-12.012
高祖	-12.0123
說此法	-12.0124
於夢中	-12.0124
三即一	-12.0125
億那由他	-12.0127
約本迹	-12.0127
誦呪	-12.013
鉢羅	-12.0134
小志	-12.0136
根莖	-12.0139
今但頌	-12.0146
斷正使	-12.0153
台宗	-12.0154
勝負	-12.0156
見彼土	-12.0159
麤弊	-12.016
為乘體	-12.0162
能所合	-12.0162
以諸因緣	-12.0167
字應作	-12.017
禪悅	-12.0172
一切諸法皆	-12.0188
該攝	-12.0196
約教道	-12.0199
權實本迹	-12.02
調伏眾生	-12.02
妄情	-12.0201
雲自在	-12.0201
密遣	-12.0202
成無上道	-12.0208
準長行	-12.021
文義相	-12.0212
婆沙論	-12.0213
風俗	-12.0217
可否	-12.0221
要當說真實	-12.0221
卉木叢林	-12.0222
硨磲碼碯	-12.0222
江河沙	-12.0223
修攝其心	-12.0223
生法二身	-12.0224
我始坐道場	-12.0224
止止不須說	-12.0224
甚大歡喜	-12.0229
來至我所	-12.0229
長行與偈	-12.0229
俱胝	-12.023
憔悴	-12.023
各得生長	-12.023
法華之前	-12.023
挂	-12.023
鞞	-12.023
通達大智	-12.0231
旃延	-12.0231
獎	-12.0232
復倍上數	-12.0233
馳騁	-12.0233
阿梨	-12.0234
從佛口生	-12.0234
蟒	-12.0234
珍玩	-12.0235
塵點劫	-12.0235
儐	-12.0235
蠲除	-12.0236
甫	-12.0236
復有諸鬼	-12.0237
暉	-12.0237
絹	-12.0238
根利鈍	-12.0238
坦	-12.024
䆳	-12.024
奠	-12.0242
非一非異	-12.0242
性德緣了	-12.0244
遵式	-12.0246
梠	-12.0249
得阿耨菩提	-12.0252
能所俱	-12.0252
招感	-12.0256
故不別	-12.0256
舅	-12.0257
他化自在天	-12.0257
下正示	-12.0264
性種性	-12.0265
兵眾	-12.0271
八術	-12.0271
今在門外	-12.0271
振動	-12.0272
水災	-12.0275
無與等	-12.0275
第一先明	-12.0278
平復	-12.028
方便之力	-12.0281
去聲呼	-12.0281
無上佛道	-12.0282
他心智	-12.0285
改元	-12.0286
所證理	-12.029
宿種	-12.0296
第七地	-12.03
斯經典	-12.0304
摧伏	-12.0304
兩行半	-12.0306
根本法輪	-12.0314
甘露門	-12.0315
分限	-12.0322
隨情智	-12.0326
能安忍	-12.0328
十三卷	-12.033
彌勒當知	-12.0341
減劫	-12.0345
幡葢	-12.0353
真如不變	-12.0355
不虛妄	-12.0356
5	-12.0358
惟願說之	-12.0359
秘要之藏	-12.036
世出世法	-12.036
現大神力	-12.0361
大眾部	-12.0362
二偈頌二初頌	-12.0363
荊棘	-12.0363
詶	-12.0363
汝等皆當作佛	-12.0365
觀經疏	-12.0365
轉無上法輪	-12.0365
真性軌	-12.0366
即色是空	-12.0367
摩訶曼陀羅華	-12.0367
咀嚼	-12.037
礫	-12.037
住行向	-12.0371
會遇	-12.0372
鍵	-12.0373
心不喜樂	-12.0373
常寂光土	-12.0374
藏通二教	-12.0374
以大音聲	-12.0374
方便有餘土	-12.0374
愛取有	-12.0374
穩	-12.0375
販	-12.0375
枷鎻	-12.0376
打罵	-12.0376
登住	-12.0376
蝎	-12.0377
不取不捨	-12.0377
晨	-12.0379
五濁八苦	-12.0379
以偈問曰	-12.0379
典籍	-12.038
忽聞	-12.038
本質	-12.0381
芭蕉	-12.0381
齎	-12.0382
丞	-12.0382
出無佛世	-12.0382
依怙	-12.0382
畜養	-12.0386
偃	-12.0387
贅	-12.0387
釋中先	-12.0388
住最後身	-12.0389
甚遠	-12.039
叩	-12.0391
人人本具	-12.0393
滌	-12.0396
圓旨	-12.0397
本來寂滅	-12.04
智慧之力	-12.04
長行竟	-12.0401
有大威德	-12.0403
八萬歲	-12.0403
事理二觀	-12.0405
頭痛	-12.0414
百錄	-12.0414
斷四住	-12.0419
累劫	-12.0419
大車譬	-12.042
誡令	-12.0421
據此則	-12.0429
千倍	-12.0432
心生歡喜	-12.044
供養於佛	-12.0441
八十劫	-12.0442
童真	-12.0446
條然	-12.0447
律儀戒	-12.0452
火宅喻	-12.0454
一切世間天人	-12.0458
為四眾說	-12.0469
諸根利鈍	-12.047
佛本意	-12.048
無作戒	-12.0481
能摧	-12.0483
中本有二	-12.0485
總敘	-12.0485
門戶	-12.0489
體勢	-12.049
八九十	-12.049
魔波旬	-12.0492
不苦不樂	-12.0496
衢	-12.0501
行法行王	-12.0503
無不具足	-12.0505
祥邁	-12.0507
毗舍	-12.0511
適子所願	-12.0514
從一法生	-12.0516
帙	-12.0516
十方三世一切諸佛	-12.0516
非今所	-12.0517
不能測	-12.0517
本自有之	-12.0519
行步平正	-12.0519
誌	-12.052
享	-12.052
躄	-12.052
著弊垢衣	-12.0521
內秘外現	-12.0521
摶	-12.0521
擊大法鼓	-12.0522
妓	-12.0522
喉	-12.0523
天台四教儀	-12.0524
甘蔗	-12.0524
能詮之教	-12.0525
始見我身	-12.0525
陿	-12.0527
從法化生	-12.0528
無此事	-12.0528
紆	-12.0528
五體投地	-12.0528
綵	-12.0529
放光現瑞	-12.053
天台教觀	-12.053
四十年中	-12.053
猜	-12.053
一心為體	-12.0531
善根力	-12.0531
嬰	-12.0532
鎻	-12.0533
七種二諦	-12.0533
摧折	-12.0533
沙門婆羅門	-12.0534
浣	-12.0534
舜	-12.0534
調伏其心	-12.0534
今我亦如是	-12.0535
塚	-12.0535
綸	-12.0536
腸	-12.0536
非生非不生	-12.0536
緩急	-12.0538
心具三千	-12.0538
羨	-12.0539
右旋	-12.0539
傅	-12.054
螫	-12.0541
宅內	-12.0542
姝	-12.0542
樣	-12.0544
蓬	-12.0544
種種相貌	-12.0545
字平聲	-12.0545
䇿進	-12.0546
苦逼	-12.0547
無慚愧	-12.0548
妙嚴	-12.0552
十寶山	-12.0555
憂悲	-12.0556
玉女	-12.0556
逼惱	-12.0557
唯是一心	-12.0566
無二無三	-12.0567
如明鏡	-12.0567
生老死	-12.0569
興廢	-12.0572
形貌	-12.0574
不共般若	-12.0577
垢淨	-12.0579
垢穢	-12.0581
圓入別	-12.0591
思益云	-12.0593
髻珠	-12.0601
正宗分	-12.0604
金錍云	-12.0605
次正釋中	-12.0608
剎土	-12.0611
從座起	-12.0614
周易	-12.0614
約自行	-12.0616
證甚深	-12.0618
印度	-12.0619
即遣傍人	-12.0626
折攝	-12.0627
觀行位	-12.0638
自他因果	-12.0642
此半行	-12.0643
而散佛上	-12.065
像法亦住	-12.0651
焦炷	-12.0653
說是偈巳	-12.0655
如止觀第三記	-12.0658
權智照	-12.0662
悅可眾心	-12.0663
庠	-12.0663
第三第四	-12.0664
餚	-12.0664
鳩槃荼	-12.0664
刀箭	-12.0665
諾	-12.0665
安住實智中	-12.0666
所以爾者	-12.0667
令生信	-12.0667
庠序	-12.0667
捨父逃逝	-12.0668
觧脫	-12.0669
大力菩薩言	-12.0672
其家廣大	-12.0672
諍訟	-12.0672
爵	-12.0672
頌法合	-12.0673
大悲拔苦	-12.0673
安置丹枕	-12.0673
迅	-12.0674
澆	-12.0674
我法二執	-12.0674
饌	-12.0674
襲	-12.0675
迷悶	-12.0676
當為宣說	-12.0677
意在此也	-12.0678
巳曾供養	-12.0679
稼	-12.0679
握	-12.0682
微密	-12.0685
兢	-12.0685
姊	-12.0685
何嘗	-12.0685
泥塗	-12.0686
尊卑	-12.0687
善入佛慧	-12.0687
槌	-12.0687
寂默	-12.0688
八萬諸天	-12.0691
十條	-12.0692
流轉生死	-12.0696
有何差別	-12.0696
陀羅尼呪	-12.0697
精氣	-12.07
甚深之事	-12.07
觀一切法空	-12.0702
破三惑	-12.0703
能了知	-12.0712
知見波羅蜜	-12.0716
親近供養	-12.072
不了了	-12.0721
能信解	-12.0736
非常之	-12.0741
聞法信受	-12.0744
六百萬億	-12.0747
更無所	-12.0747
第四段	-12.0753
僧堂	-12.0758
前之四	-12.0767
亦不住	-12.077
方隅	-12.0771
優曇鉢	-12.0776
羣機	-12.078
卅	-12.0796
出水義	-12.08
作國王	-12.0801
若有善男子善女人	-12.0806
薄地	-12.0806
皆悉到於一切智地	-12.0806
第七識	-12.0808
爾時五百萬億諸梵天王	-12.0809
更以異方便	-12.081
疑網皆巳除	-12.0811
秦本	-12.0812
娛樂之具	-12.0812
無住菩薩言	-12.0813
阿閦婆	-12.0813
瞽	-12.0814
行七步	-12.0814
乘是寶乘	-12.0814
下隨釋	-12.0816
牢獄	-12.0817
柔和善順	-12.0817
有大勢力	-12.0818
僉	-12.0818
初雙標	-12.0819
堂閣	-12.0819
見釋迦牟尼佛	-12.082
宛爾	-12.0821
皆令清淨	-12.0821
四悉檀意	-12.0821
大圓鏡智	-12.0822
抑揚	-12.0823
齊教領	-12.0824
有大神力	-12.0824
教證二道	-12.0825
遇向本國	-12.0825
廣雅云	-12.0825
妹	-12.0826
瘖瘂	-12.0826
湯藥	-12.0826
自在神通之力	-12.0826
無厭足	-12.0828
撓	-12.0828
於一念中	-12.0829
鄭重	-12.0829
富那	-12.0829
我等長夜	-12.083
跨	-12.083
閻	-12.0831
靈山會上	-12.0832
僧殘	-12.0834
脫落	-12.0835
膽	-12.0835
漆	-12.0835
輦	-12.0836
掉悔	-12.0837
魂	-12.0839
辨訛	-12.084
十方分身	-12.0842
不倦	-12.0846
要解云	-12.0849
神仙	-12.0849
妾	-12.0851
發道心	-12.0852
慈悲誓願	-12.0854
非佛弟子	-12.0857
大千經卷	-12.086
當來成佛	-12.0862
首楞嚴三昧	-12.0864
藥珠	-12.0869
不自生	-12.0881
外道計	-12.0896
盧舍那佛	-12.0896
唯局	-12.0906
奇異	-12.0909
部旨	-12.091
乳味	-12.0911
大通佛所	-12.0917
辟支佛乘	-12.092
等覺位	-12.0925
隨所應	-12.0933
愍眾	-12.0937
格量本	-12.0941
以偈頌曰	-12.0947
約三世	-12.0952
三千即空假中	-12.0957
佛壽無量	-12.0958
深信解相	-12.0961
火不能燒	-12.0961
行深妙道	-12.0963
〕-【	-12.0964
斟酌	-12.0964
溥	-12.0964
為聽法故	-12.0964
順道法愛	-12.0965
坐寶蓮華	-12.0966
觀練熏修	-12.0966
飡	-12.0968
吉蔗	-12.0968
別行玄	-12.0968
輔宏記	-12.0969
嚬	-12.097
了了分明	-12.0971
五濁惡世	-12.0971
種諸善根	-12.0971
道種慧	-12.0973
吝	-12.0974
鵰鷲	-12.0975
熈	-12.0975
錯謬	-12.0979
絲竹	-12.0979
中具有	-12.098
作此念	-12.098
遜	-12.098
二次明下	-12.0981
無漏無為	-12.0983
阿鼻地獄	-12.0983
慶幸	-12.0984
衒	-12.0991
高麗	-12.0993
貞實	-12.0995
唐三藏	-12.0997
江東	-12.0997
揮	-12.0998
天皷	-12.0998
誘進	-12.0999
無塵智	-12.1
能緣心	-12.1
得小果	-12.1004
隨其所應	-12.1008
不與珠	-12.1009
孟子	-12.1011
更無異	-12.1012
五佛章	-12.1012
如止觀第五記	-12.1013
卷末	-12.1017
專注	-12.1021
龍象	-12.1023
泥水	-12.1024
頌開譬	-12.1026
而於其中	-12.1038
斷佛種	-12.1046
讀誦通利	-12.1047
的指	-12.105
自佗	-12.1054
科判	-12.1062
無倦	-12.1064
大集云	-12.107
故以為名	-12.1072
得大自在	-12.1072
引淨名	-12.1075
方便善巧	-12.1079
分張	-12.108
一行三昧	-12.1087
能觀觀	-12.1094
準望	-12.1098
非滅唱滅	-12.11
畧	-12.111
訂	-12.111
擁	-12.1111
我實成佛巳來	-12.1111
成最正覺	-12.1112
若有受持讀誦	-12.1112
君臣	-12.1114
求辟支佛者	-12.1116
生安隱想	-12.1116
褥	-12.1116
從四面起	-12.1116
快得安隱	-12.1117
則我身是	-12.1117
番番	-12.1117
玫瑰	-12.1118
罄無不盡	-12.1119
捨几	-12.112
所作巳辦	-12.112
一一皆具	-12.1121
形色憔悴	-12.1121
猶不能盡	-12.1122
麤一妙	-12.1122
佩	-12.1122
稱南無佛	-12.1123
趺	-12.1124
難行苦行	-12.1124
為諸法王	-12.1124
歛	-12.1125
頌上第三	-12.1126
陌	-12.1127
除佛方便	-12.1128
放眉間光	-12.1128
喝	-12.1129
辜	-12.113
盂	-12.113
無有障礙	-12.1131
颺	-12.1132
匿	-12.1133
邇	-12.1133
稀	-12.1134
能觀之智	-12.1135
常寂滅相	-12.1135
縈	-12.1137
生生不可說	-12.1137
鑊	-12.1138
香爐	-12.1138
思之可見	-12.1139
寶掌	-12.1139
法雲地	-12.114
初住巳上	-12.1143
求無上慧	-12.1144
掉舉	-12.1144
初中二初	-12.1145
若有善男子	-12.1145
臣佐	-12.1147
剝	-12.1148
潞	-12.1149
仁王般若	-12.1149
菀	-12.1151
恐繁	-12.1152
琳	-12.1153
其或不然	-12.1153
正法像法	-12.1153
論家家	-12.1154
邀	-12.1154
覩瑞	-12.1155
殺盜	-12.1155
染淨二性	-12.1159
大論二十	-12.1162
三十三身	-12.1162
法緣慈	-12.1163
性本無	-12.1166
一雨所潤	-12.117
破無明惑	-12.117
其事如是	-12.1174
宗途	-12.118
於中為二	-12.1186
不懈	-12.1193
消息	-12.1194
聞佛說法	-12.1197
邪慢	-12.1201
前四味	-12.1202
福德智慧	-12.1204
白蓮華	-12.1207
資助	-12.1209
未到定	-12.1216
為菩薩時	-12.1229
譬如大雲	-12.1231
趣菩提	-12.1233
解髻	-12.1235
病惱	-12.1239
新發意	-12.1249
十波羅蜜	-12.1257
四諦十二因緣	-12.126
佛壽十二小劫	-12.1261
7	-12.1263
我本行菩薩道	-12.1265
生希有心	-12.1266
在在處處	-12.1266
蹄	-12.1267
父子相見	-12.1269
退沒	-12.127
請佛轉法輪	-12.127
從本垂迹	-12.1271
欲聞具足道	-12.1271
起巳遊行	-12.1274
奢摩他	-12.1275
詛	-12.1275
本迹雖殊不思議一	-12.1275
憲	-12.1278
總在一念	-12.1279
我以佛眼觀	-12.1279
一行一切行	-12.1279
優樓頻螺	-12.128
其佛國土	-12.128
五時八教	-12.128
迸	-12.1281
隙	-12.1281
不求自得	-12.1281
腐敗	-12.1282
以此度眾生	-12.1282
超越三昧	-12.1283
即說呪曰	-12.1283
序正流通	-12.1283
蹙	-12.1283
啼哭	-12.1285
入大涅槃	-12.1285
飽滿	-12.1285
如前所明	-12.1285
楷	-12.1286
叫	-12.1286
頒	-12.1287
從牛出乳	-12.1287
五上分	-12.1287
婉	-12.1288
謁	-12.1288
寇	-12.1289
炤	-12.1289
虛誑	-12.129
甜	-12.1291
舍衛國	-12.1291
浸	-12.1293
乳酪	-12.1295
專精	-12.1295
木石	-12.1296
耆舊	-12.1298
唼	-12.1298
具如玄文	-12.1301
降雨	-12.1302
文句記云	-12.1305
拏	-12.1305
精誠	-12.1306
墮三途	-12.1307
十九品	-12.1308
如是觀時	-12.1308
五利使	-12.131
惱害	-12.1313
詺	-12.1313
陛	-12.1314
雍	-12.1316
五鈍使	-12.1318
設化城	-12.132
一毛孔	-12.1329
將軍	-12.1329
巳辦	-12.1333
獄卒	-12.1333
爾時藥王菩薩	-12.1336
定慧具足	-12.1339
智所照	-12.134
了因性	-12.1345
階差	-12.1347
正格量	-12.1357
三乘之教	-12.1364
依佗	-12.1371
九十六	-12.1372
十五行半	-12.1375
能測	-12.1378
幽微	-12.1379
恭敬尊重	-12.138
倍增	-12.1394
河西	-12.1396
白導師言	-12.1416
法法皆	-12.1417
一心敬禮	-12.142
一心同聲	-12.1421
生滅度想	-12.1422
勤行精進	-12.1425
自從是來	-12.1426
深固幽遠	-12.1426
又以他日	-12.1428
隋天台智者大師說	-12.1428
具相三十二	-12.143
皆以如來滅度而滅度之	-12.1431
缾	-12.1432
今正是其時	-12.1432
海此岸	-12.1433
咀	-12.1434
事法觀	-12.1435
估	-12.1436
歌詠	-12.1436
無始無終	-12.1439
駕以白牛	-12.1441
右脇	-12.1442
愍傷	-12.1443
穰	-12.1443
驚怪	-12.1444
求子不得	-12.1445
從地涌出品	-12.1446
釋迦文佛	-12.1446
矛盾	-12.1447
肎	-12.1447
非生非滅	-12.1448
亥	-12.1449
矢	-12.1452
裝	-12.1453
駄	-12.1453
柯	-12.1455
空無相無作	-12.1457
生死海	-12.1459
劬	-12.146
長爪	-12.146
壤	-12.1461
瞻部	-12.1461
次第相生	-12.1462
不也世尊	-12.1462
祕密教	-12.1464
竺法護	-12.1464
損減	-12.1464
妙音觀音	-12.1465
文殊問經	-12.1469
無過失	-12.1469
名字章句	-12.147
鵝	-12.1476
末那	-12.1481
生非生	-12.1484
對治此故	-12.1487
斷善根	-12.1488
教為門	-12.1489
遷流	-12.149
性本具	-12.149
戒急	-12.1493
字去聲	-12.1495
三藏四門	-12.1497
天中天	-12.15
知次位	-12.1501
嘉祥云	-12.1505
兩个	-12.151
加害	-12.151
皆應起塔	-12.1511
凡愚	-12.1511
常勤精進	-12.1543
像法住世	-12.1555
釋中二先	-12.1564
藥樹	-12.1566
黃金為繩	-12.1583
未曾顯說	-12.1585
授阿耨多羅三藐三菩提記	-12.1586
引經論	-12.1586
多陀阿伽度	-12.1586
髣髴	-12.1588
化作一城	-12.1588
如是大果報	-12.1589
糟糠	-12.159
說是語時	-12.159
醎	-12.1591
慳悋	-12.1593
普佛世界	-12.1593
卻	-12.1594
互不相知	-12.1594
隨功賞賜	-12.1595
權入實	-12.1595
住在空中	-12.1596
瑠璃為地	-12.1596
說是法時	-12.1596
深心信解	-12.1597
即大驚怖	-12.1597
黠慧	-12.1598
纓珞	-12.1598
有是神力	-12.1598
睢	-12.1598
從地獄出	-12.1599
奉獻	-12.16
轉不退法輪	-12.16
獻珠	-12.1601
如彼大雲	-12.1601
迄	-12.1601
嚴身之具	-12.1601
入如來慧	-12.1602
卑劣	-12.1602
今此會中	-12.1602
調伏諸根	-12.1603
沃	-12.1603
惻	-12.1603
邪歸正	-12.1604
掬	-12.1605
鴈	-12.1608
餐	-12.1608
游戲	-12.1608
膿血	-12.1609
劫國莊嚴	-12.161
憂患	-12.1611
戊	-12.1612
梟	-12.1613
姿	-12.1613
襟	-12.1613
機扣	-12.1614
濡	-12.1615
慜	-12.1615
逍遙	-12.1615
供舍利	-12.1617
牆	-12.1617
儼然	-12.162
歎未曾有	-12.1622
湧出	-12.1624
求佛果	-12.1625
優曇	-12.1625
誡許	-12.1626
八寒	-12.1627
魔梵	-12.1631
無明愛取	-12.1632
淨名經云	-12.1636
和融	-12.1637
密境界	-12.164
支節	-12.1641
中間今日	-12.1642
為大眾說	-12.1657
存焉	-12.1658
油塗	-12.1666
毗婆尸佛	-12.1672
何勞	-12.1675
一行半偈	-12.1681
何等境界	-12.1681
布施持戒	-12.1684
八十萬億	-12.1698
氣類	-12.1699
本行經	-12.17
具五眼	-12.1704
法為行	-12.1716
凡有二義	-12.1725
塵沙惑	-12.1738
後一頌半	-12.1743
諸漏已盡	-12.1747
金銀琉璃	-12.1755
宿命智	-12.1755
非空非假	-12.1756
以慈修身	-12.1757
吹大法螺	-12.1757
一中一切中	-12.1758
寶處在近	-12.1758
挑	-12.1759
等賜諸子	-12.176
知法常無性	-12.176
轉不退輪	-12.176
瞿夷	-12.1762
玩好	-12.1762
不分而分	-12.1763
即事而真	-12.1763
無記化化禪	-12.1763
心各勇銳	-12.1764
可以遊戲	-12.1765
深著五欲	-12.1765
正助合行	-12.1765
苦所逼	-12.1765
行因得果	-12.1766
當願眾生	-12.1766
貢高	-12.1767
件	-12.1767
枝條	-12.1769
悲泣	-12.1769
棺	-12.1769
扶律	-12.177
諂誑	-12.1771
裸形	-12.1772
呪術	-12.1773
頂髻	-12.1773
雄猛	-12.1774
餌	-12.1774
采	-12.1774
闥	-12.1775
次不次	-12.1775
生法二空	-12.1775
淳熟	-12.1777
觀心釋者	-12.1777
切韻	-12.1777
戮	-12.1779
淑	-12.1779
撥無因果	-12.1779
上座部	-12.1779
慙	-12.1779
隨他意	-12.1779
例此可知	-12.178
婁	-12.178
八卦	-12.1782
車匿	-12.1782
而自莊嚴	-12.1783
哀哉	-12.1783
差無差	-12.1783
鳩摩羅什	-12.1785
百千劫	-12.1785
癸	-12.1785
地藏菩薩言	-12.1786
得滅盡定	-12.1787
天上人間	-12.1789
判麁妙	-12.179
縱任	-12.1792
指掌	-12.18
工夫	-12.1801
滿慈子	-12.1805
毒龍	-12.1809
機未熟	-12.1811
疲厭	-12.1814
癡暗	-12.1815
肇師	-12.1817
因陀羅	-12.1817
所住處	-12.1822
反質	-12.1823
付囑流通	-12.1828
間雜	-12.1829
論語云	-12.1829
九十日	-12.1834
陶師	-12.1835
具菩薩道	-12.1844
冥加	-12.1849
學士	-12.1869
薄福	-12.1888
念念相續	-12.1901
不如三界見於三界	-12.1917
褒貶	-12.1918
千萬億眾	-12.192
若其然者	-12.192
傭賃展轉	-12.1922
說是大乘經	-12.1923
大慈與樂	-12.1924
言辭相寂滅	-12.1924
灰身滅智	-12.1924
世尊大恩	-12.1924
將死不久	-12.1925
桃李	-12.1925
十八句	-12.1925
悔過自責	-12.1926
道塲	-12.1926
不前不後	-12.1926
無令漏失	-12.1927
真珠瓔珞	-12.1927
而不卒暴	-12.1928
六萬恒沙	-12.193
不由他悟	-12.193
告之曰	-12.1931
械	-12.1931
包含	-12.1932
現在益物	-12.1932
路伽耶陀	-12.1932
巷	-12.1932
獘	-12.1933
雖多不出	-12.1934
寥	-12.1934
佛佛道同	-12.1935
齡	-12.1935
尠	-12.1936
巢	-12.1936
恢	-12.1936
冷水灑面	-12.1937
鵄	-12.1938
八十小劫	-12.1939
寔	-12.1939
挽	-12.194
偉	-12.1941
懿	-12.1941
夾	-12.1941
但是文略	-12.1941
千葉	-12.1942
寅	-12.1943
綠	-12.1943
潮	-12.1944
床座	-12.1944
曩	-12.1944
彭	-12.1945
壑	-12.1946
竅	-12.1947
摘	-12.1948
恁麼	-12.1948
初分經	-12.1949
體真止	-12.1949
曼陀羅	-12.1951
不見不聞	-12.1952
無始時來	-12.1952
緣因佛性	-12.1954
隣近	-12.1955
口安樂行	-12.1956
五住煩惱	-12.1966
食噉	-12.1969
自性清淨心	-12.1971
往返	-12.1971
染慢	-12.1981
末二句	-12.1981
隨侍	-12.1981
往佛所	-12.1986
羅雲	-12.199
文選	-12.1997
賀云	-12.2008
釋迦分身	-12.2016
黑風	-12.2017
受胎	-12.202
相續假	-12.2026
菩薩從初發心	-12.203
坐臥	-12.2044
不輕品	-12.2054
十四年	-12.206
初略立	-12.2064
要旨	-12.2066
目犍連	-12.2068
羅網	-12.2082
稠	-12.2083
炳	-12.2083
既爾餘	-12.2084
祇洹	-12.2087
泥履	-12.209
唯佛與佛乃能究盡諸法實相	-12.209
為作證明	-12.209
酢	-12.2091
為同為異	-12.2091
溼	-12.2091
從顛倒生	-12.2092
一色一香	-12.2093
姚秦三藏法師鳩摩羅什奉詔譯	-12.2093
慞惶	-12.2094
微妙淨法身	-12.2094
充滿其中	-12.2094
閻浮檀金	-12.2095
皆令歡喜	-12.2095
我法妙難思	-12.2095
一假一切假	-12.2095
無差即差	-12.2096
黠	-12.2096
法華文句記卷第	-12.2096
々	-12.2097
有同有異	-12.2097
到於佛前	-12.2097
樂著小法	-12.2098
此土六瑞	-12.2098
欻	-12.2098
十方佛土中	-12.2099
零落	-12.2099
現諸威儀	-12.2099
隨汝所欲	-12.2099
輞	-12.21
枷	-12.21
音呼	-12.2101
三德秘藏	-12.2102
恒河沙劫	-12.2102
圭峯	-12.2105
鑿井	-12.2105
離婆多	-12.2106
初二如文	-12.2106
挹	-12.2106
燋	-12.2107
基陛	-12.2108
雹	-12.2111
慧聖行	-12.2112
在其中矣	-12.2112
禿	-12.2112
真是聲聞	-12.2113
揩	-12.2113
柄	-12.2113
踊躍歡喜	-12.2113
狄	-12.2113
砧	-12.2114
八千聲聞	-12.2114
遲速	-12.2115
阿含甚深	-12.2115
三止三觀	-12.2116
複俗	-12.2117
序品第一	-12.2118
攢	-12.2118
𨽻	-12.2119
手把	-12.212
天子魔	-12.212
須彌頂	-12.2121
不相妨	-12.2122
穆	-12.2122
強弱	-12.2122
壬	-12.2122
稅	-12.2123
今謂不然	-12.2127
供養恭敬尊重讚歎	-12.2129
梵行品	-12.2137
廣度眾生	-12.214
燉煌	-12.2141
此品來意	-12.2142
若有若無	-12.2153
資粮位	-12.2154
喻上說	-12.2158
皆得陀羅尼	-12.2159
謬判	-12.2179
無能勝	-12.2193
恭敬禮拜	-12.2199
讀誦法華經者	-12.2201
法喻合	-12.2204
滅後五品	-12.2205
得有餘涅槃	-12.2208
老死支	-12.2209
貧女	-12.2209
覆其上	-12.2222
不可說佛剎微塵數	-12.2253
持鉢	-12.2253
眾又清淨	-12.2253
約說證道	-12.2256
昔所未有	-12.2257
開麤顯妙	-12.2258
隨所應度	-12.2258
多諸人眾	-12.2259
深心所行	-12.2262
如汝所言	-12.2262
若權若實	-12.2263
瑞應經	-12.2264
為止息故	-12.2265
險難惡道	-12.2266
樂於小法	-12.2267
有大力勢	-12.2267
內有智性	-12.2267
彌樓山	-12.2268
從久遠劫來	-12.2268
深達罪福相	-12.2268
唯願說之	-12.2268
助發實相義	-12.2268
決定說大乘	-12.2268
不可窮盡	-12.2269
其實為一乘	-12.2269
髻中明珠	-12.2269
卉	-12.2269
及比丘僧	-12.227
於一劫中	-12.227
常在靈鷲山	-12.227
拯	-12.2271
壽命長遠	-12.2271
諸天龍神	-12.2271
逃走	-12.2271
四面懸鈴	-12.2272
剎利居士	-12.2272
具陳上事	-12.2272
唯此一事實	-12.2273
國王王子	-12.2273
遺囑	-12.2273
森	-12.2274
瞻蔔	-12.2274
爾時四部眾	-12.2274
無威德者	-12.2274
住立門側	-12.2275
拘絺羅	-12.2275
渚	-12.2276
善財童子	-12.2276
貫穿	-12.2277
泠	-12.2279
藥王本事	-12.228
十一卷	-12.2281
膾	-12.2283
翔	-12.2283
八萬四千法藏	-12.2283
棘	-12.2283
秘密不定	-12.2283
中三先	-12.2283
顗	-12.2284
自在之業	-12.2285
陪	-12.2286
白銀	-12.2287
布薩	-12.2287
三障四魔	-12.2288
爆	-12.2289
桂	-12.2291
怨敵	-12.2293
羣臣	-12.2294
不思議一也	-12.2295
顒	-12.2296
婬女	-12.2298
見者歡喜	-12.2302
骸	-12.2302
憎愛	-12.2303
阿那	-12.2306
所聞之法	-12.2312
僻解	-12.2319
我佛法中	-12.2322
二萬一千	-12.2327
本覺利	-12.2327
初略標	-12.2328
曼殊沙華	-12.2328
如何消	-12.2329
重疊	-12.2332
怨家	-12.2336
毘婆沙	-12.2363
結束	-12.2365
能殺人	-12.2367
轉不轉	-12.2372
所詮之理	-12.2374
明了通達	-12.2381
生厭離	-12.2387
空亦空	-12.2404
初總示	-12.2406
是為下結	-12.2409
剎塵	-12.2423
宜善思之	-12.2428
3	-12.2428
四句料簡	-12.243
借別名通	-12.2431
出釋氏宮	-12.2431
八人見地	-12.2432
以無量無數方便	-12.2434
諸佛語無異	-12.2434
流入薩婆若海	-12.2436
􂎴	-12.2437
無人能到	-12.2437
心佛眾生三無差別	-12.2439
漸得入道	-12.2439
阿字門	-12.244
若不時出	-12.244
得見我身	-12.2441
隸	-12.2441
停止	-12.2442
無上正真道	-12.2442
聖所稱歎	-12.2443
復經少時	-12.2443
:「『	-12.2444
必為所焚	-12.2444
天台沙門湛然述	-12.2444
涌泉	-12.2444
訛略	-12.2445
兼但對帶	-12.2445
所成壽命	-12.2446
楞	-12.2446
修二性一	-12.2447
平等意趣	-12.2447
疾走往捉	-12.2448
雖未得無漏	-12.2448
四沙門果	-12.2448
守護是經	-12.2448
可以意知	-12.2449
枷鎖	-12.245
決了聲聞法	-12.245
挍量	-12.2452
不增不減	-12.2453
戈	-12.2453
高僧傳	-12.2453
空閑處	-12.2454
裂網	-12.2454
迴向佛道	-12.2455
妙觀察智	-12.2456
痒	-12.2456
神通遊戲	-12.2456
見聞覺知	-12.2457
拾遺	-12.2458
銳	-12.2458
混濫	-12.2459
尉	-12.2459
出現世間	-12.2459
盾	-12.246
殷重	-12.2461
綱要	-12.2463
別入通	-12.2464
錦	-12.2465
食頃	-12.2466
德無不圓	-12.2467
曠劫	-12.2467
耎	-12.2467
道共戒	-12.2468
增劇	-12.2471
駈	-12.2472
不識一人	-12.2472
細滑	-12.2472
權謀	-12.2473
璧	-12.2473
十境十乘	-12.2473
彈偏	-12.2475
瞋恨	-12.2481
別教地前	-12.2488
故下經云	-12.2489
能了達	-12.249
所以疏言	-12.2492
俗諦三昧	-12.2504
入菩薩位	-12.2514
是因緣生法	-12.2521
本業經	-12.2523
救度	-12.253
一百二十八	-12.2541
辛苦	-12.2553
▁二大經下	-12.2557
救拔	-12.2563
悔責	-12.2565
得是智慧	-12.2581
眉間白毫	-12.2581
數如恒沙	-12.2597
海底	-12.2602
范	-12.2604
不乖本心	-12.2608
年紀大小	-12.2609
光音天	-12.261
受行悟入	-12.2612
久修業所得	-12.2616
無機息化	-12.2617
悔來至此	-12.2617
沓	-12.2618
令離諸著	-12.2619
諸天龍鬼神	-12.2621
今我喜無畏	-12.2622
荷擔	-12.2622
乃往過去	-12.2622
與大比丘眾	-12.2622
而諸子等	-12.2623
所燒之門	-12.2623
尼犍	-12.2623
破一品無明	-12.2624
巧說諸法	-12.2624
阿黎耶	-12.2624
斜	-12.2624
餘二則非真	-12.2625
聲聞若菩薩	-12.2625
出入息利	-12.2625
國城妻子	-12.2625
娑伽羅	-12.2625
贖命	-12.2626
旅	-12.2627
輦輿	-12.2627
無前無後	-12.2627
獎勸	-12.2628
埃	-12.2629
無有過失	-12.2629
癩	-12.2629
拓	-12.2631
此下是第三	-12.2631
默許	-12.2632
稠林	-12.2632
無常苦空無我	-12.2633
非滅非不滅	-12.2633
旃檀香	-12.2633
亦滅亦不滅	-12.2634
繡	-12.2634
賈客	-12.2635
模範	-12.2635
熙	-12.2636
還本國	-12.2637
如次配	-12.2638
深種善根	-12.2639
從一至十	-12.2639
心心寂滅	-12.264
柴	-12.264
通達佛道	-12.2641
睛	-12.2641
栗	-12.2642
生住異滅	-12.2643
捶	-12.2643
依教修行	-12.2644
九十六種	-12.2646
咲	-12.2647
副	-12.2648
僧佉	-12.2649
汝等所行	-12.2651
差殊	-12.2651
霞	-12.2653
最上乘	-12.2661
常不輕品	-12.2661
念念生滅	-12.2661
十一年	-12.2662
虗狀	-12.2664
具八解脫	-12.2669
上行等	-12.267
因成假	-12.2671
吉藏	-12.2673
左手	-12.2687
倍倍	-12.269
十六特勝	-12.2693
上中下根	-12.2702
第二大段	-12.271
遺教經	-12.2728
句逗	-12.2752
夜摩天	-12.2758
瞙	-12.2784
師子之座	-12.2789
都無所	-12.279
蠡	-12.2794
定慧力莊嚴	-12.2795
貲	-12.2795
為蓮故華	-12.2796
發大乘意	-12.2798
值二千億佛	-12.2798
【○	-12.2799
目不暫捨	-12.2799
德薄垢重	-12.28
先小後大	-12.28
抉	-12.28
若我遇眾生	-12.2801
乘此寶乘	-12.2801
我見佛子等	-12.2801
是事難信	-12.2802
石壁	-12.2802
清涼觀師	-12.2803
多有田宅	-12.2803
視父而巳	-12.2803
怨嫉	-12.2804
從地湧出	-12.2804
洮汰	-12.2805
千二百阿羅漢	-12.2805
我定當作佛	-12.2805
淨光莊嚴	-12.2806
依正二報	-12.2807
螢火	-12.2807
不制止	-12.2808
而成熟之	-12.2808
如來所遣	-12.2808
辟	-12.2809
蜀	-12.2809
聞所未聞	-12.281
陟	-12.2811
到薩婆若	-12.2811
十九出家	-12.2811
其義深遠	-12.2811
悅豫	-12.2812
米麵	-12.2812
躃	-12.2812
嚼	-12.2812
窮子見父	-12.2813
百八三昧	-12.2813
得真自在	-12.2813
酸	-12.2813
九旬	-12.2814
入清涼池	-12.2814
得大饒益	-12.2815
不愚法	-12.2816
我以佛眼觀見	-12.2817
從外來	-12.2817
八萬四千歲	-12.2818
黧	-12.2818
木叉	-12.2819
法華經玄贊要集卷第	-12.2819
褰	-12.2821
發大乘心	-12.2821
啞	-12.2821
蓏	-12.2825
背捨勝處	-12.2827
襄	-12.2827
於法自在	-12.2827
邪婬	-12.2828
麼	-12.2829
屑	-12.2831
孩	-12.2832
駁	-12.2832
惺	-12.2832
爾時佛告諸菩薩	-12.2836
江南	-12.2838
祕密不定	-12.2838
無他世	-12.2846
輕罵	-12.2847
入法界品	-12.2852
從空入假觀	-12.2854
真法供養	-12.286
阿羅漢辟支佛	-12.2868
精微	-12.2869
頌長文	-12.287
分為兩	-12.2883
梵網經	-12.2894
本自不生	-12.2897
答中先	-12.2918
頌教一	-12.2926
特勝通明	-12.2935
曼陀羅華	-12.2936
佛及弟子	-12.2941
若教人書	-12.2973
阿難白佛	-12.2974
去伽耶城不遠	-12.2974
推尋是相	-12.2974
種熟脫	-12.2979
本末究竟等	-12.2979
埀	-12.2979
將導譬	-12.298
眾生沒在苦	-12.2981
佛悉成就	-12.2983
香味觸	-12.2985
非遠非近	-12.2986
佞	-12.2986
至珍寶處	-12.2986
便得決了	-12.2986
全性成修	-12.2986
童男童女	-12.2987
攝別入總	-12.2987
現希有事	-12.2987
亦常亦無常	-12.2988
謦咳	-12.2988
長者見火	-12.2988
令諸子等	-12.2988
威神之力	-12.2988
醉酒而臥	-12.2989
倉庫盈溢	-12.2989
自語相違	-12.2989
為五比丘說	-12.2989
初明來意	-12.2989
玻瓈	-12.299
耘	-12.299
嬉	-12.2991
種相體性	-12.2991
自求涅槃	-12.2991
譜	-12.2991
三十二相八十種好	-12.2992
恭敬合掌	-12.2992
篩	-12.2992
今世後世	-12.2992
下至阿鼻地獄	-12.2992
行處近處	-12.2992
眇目	-12.2992
左傳	-12.2992
忝	-12.2993
問答釋疑	-12.2995
求自然慧	-12.2995
放光動地	-12.2995
衣座室	-12.2995
嚌	-12.2996
天禧	-12.2998
遁	-12.2998
驟	-12.2999
瀆	-12.2999
蚊	-12.2999
訥	-12.3
遍計所執	-12.3
聳	-12.3002
杭	-12.3002
成佛巳來	-12.3003
轉變自在	-12.3003
貿易	-12.3004
祕要	-12.3004
邃	-12.3005
十方一切諸佛	-12.3005
洒	-12.3006
蠍	-12.3006
臧	-12.3007
廣大深遠	-12.3007
青黃	-12.3009
堯	-12.3009
舍脂	-12.301
愁惱	-12.301
伽耶城	-12.3011
十二頭陀	-12.3011
處處皆有	-12.3013
腫	-12.3014
不得巳而	-12.3014
同居一念	-12.3015
慎勿	-12.3015
榜	-12.3015
始成正覺	-12.3016
鳥獸	-12.3017
胸臆	-12.3017
未發真	-12.3021
鐸	-12.3025
非今所用	-12.3026
惠施	-12.3026
王子覆講	-12.3027
司馬	-12.3027
甄分	-12.3029
飯食	-12.3039
首楞嚴經	-12.3053
六十二億恒河沙	-12.3059
內有色	-12.3065
永永	-12.3072
無明所覆	-12.308
青蓮	-12.3089
聞是經典	-12.3102
憎嫉	-12.3103
根敗	-12.3103
一行一句	-12.3131
聖行品	-12.3139
字恐誤	-12.3149
雜阿含	-12.3151
遍計性	-12.3161
見大通智勝如來	-12.3163
皆同一號	-12.3165
悉皆得聞之	-12.3166
時一現耳	-12.3169
自以為足	-12.3169
皆當驚疑	-12.3169
乘六牙白象	-12.317
破有法王	-12.3171
俱盧舍	-12.3172
謂如食頃	-12.3172
說無分別法	-12.3173
起隨喜心	-12.3173
勇銳	-12.3173
佛告藥王	-12.3173
轉不退轉法輪	-12.3174
願不有慮	-12.3174
無一不成佛	-12.3175
華嚴海空	-12.3176
稱怨大喚	-12.3177
第三入文判釋	-12.3178
阿賴耶識	-12.3178
樂著嬉戲	-12.3178
誓願安樂行	-12.3179
踴躍	-12.318
狎	-12.318
一如無二如	-12.318
覧	-12.3181
蔬	-12.3181
藤	-12.3181
踟蹰	-12.3181
冥顯兩益	-12.3182
到父城	-12.3182
即脫瓔珞	-12.3182
根力覺道	-12.3182
突吉羅	-12.3182
拍	-12.3183
牢固	-12.3183
不相違背	-12.3183
障未除	-12.3183
這	-12.3184
初地已上	-12.3184
齅	-12.3184
捍	-12.3184
前之三教	-12.3185
其家大富	-12.3185
芬	-12.3185
毀辱	-12.3186
懽	-12.3186
出於火宅	-12.3187
捺	-12.3187
幟	-12.3188
韋提希	-12.3188
課	-12.3188
纓	-12.3189
帆	-12.3189
諸子索車	-12.3189
旱	-12.3191
贖	-12.3191
工巧	-12.3191
部帙	-12.3192
陁羅尼	-12.3192
守宮	-12.3192
喍	-12.3193
啖	-12.3193
坊	-12.3194
九百九十	-12.3194
止觀體狀	-12.3195
毒鼓	-12.3195
斷見思惑	-12.3195
攸	-12.3195
第十卷	-12.3195
諧	-12.3195
若好若醜	-12.3196
性善性惡	-12.3197
得記作佛	-12.3197
梵音聲	-12.3198
般舟三昧	-12.3199
彫	-12.3201
適悅	-12.3208
演說正法	-12.3208
洛陽	-12.3209
十九年	-12.3209
法界法爾	-12.3211
不苦不樂受	-12.3215
戎	-12.3218
菩提場	-12.3224
孟子曰	-12.323
觀行相似	-12.3233
山谷	-12.3261
融不融	-12.3261
殊途	-12.3269
無量億千	-12.3291
千百億	-12.3295
華鬘	-12.3299
界外塵沙	-12.3302
藥上菩薩	-12.3304
十八年	-12.3308
化他之權	-12.332
十四無畏	-12.3326
十二番	-12.3327
與珠譬	-12.3334
淨修梵行	-12.3337
媻	-12.3343
即各相詣	-12.3352
灼	-12.3353
▁二譬如下譬	-12.3358
久遠若斯	-12.3359
迦留陀夷	-12.336
属	-12.3361
讚言善哉善哉	-12.3362
眾生諸根鈍	-12.3363
觀照軌	-12.3364
取要言之	-12.3364
拱	-12.3365
二十中劫	-12.3366
十六菩薩沙彌	-12.3366
知眾生性欲	-12.3367
阿耨多羅	-12.3367
飲他毒藥	-12.3367
諸法從本來常自寂滅相	-12.3367
貪嫉	-12.3369
怪未曾有	-12.3369
自覺聖智	-12.3369
一色一香無非中道	-12.3369
聞品得益	-12.3369
少欲知足	-12.337
急追將還	-12.337
東西南北	-12.337
過二萬劫	-12.337
斷別惑	-12.337
歘	-12.3371
逮得巳利	-12.3371
葛	-12.3372
我見燈明佛	-12.3372
唵	-12.3373
八忍八智	-12.3374
狀有所畏	-12.3374
自鄙先心	-12.3374
群萌	-12.3375
二觀為方便	-12.3375
治生產業	-12.3375
割截	-12.3375
馬麥	-12.3376
親近善友	-12.3376
蚩	-12.3376
我說即是空	-12.3377
從空出假	-12.3377
白虎通	-12.3378
賾	-12.3378
波浪	-12.3379
另	-12.3379
紐	-12.338
聯	-12.338
渺	-12.338
交絡	-12.338
傲	-12.3381
企	-12.3381
觀身不淨	-12.3381
清潔	-12.3381
珂	-12.3382
以無量喻	-12.3382
父子相見譬	-12.3382
非一非一切	-12.3382
跳	-12.3382
九十五種	-12.3382
腐	-12.3382
楗	-12.3383
使得清淨	-12.3383
化樂天	-12.3383
黮	-12.3384
潭	-12.3384
慨	-12.3385
千二百羅漢	-12.3385
而得增長	-12.3385
成所作智	-12.3386
直顯心性	-12.3387
契佛心	-12.3387
忉利諸天	-12.3388
鑰	-12.3389
不有不無	-12.339
要而言之	-12.3391
訣	-12.3391
此亦不然	-12.3391
仙苑	-12.3394
伊蘭	-12.3394
萬六千	-12.3395
唯識歷事	-12.3396
重沓	-12.3396
五臟	-12.3399
:>【■	-12.34
說二涅槃	-12.3401
畢竟不可得	-12.3401
銜	-12.3404
尹	-12.3409
周遍法界	-12.3418
過去有佛	-12.344
了了見	-12.3442
假施設	-12.3484
一地一雨	-12.3499
刦	-12.3538
初文二先	-12.3543
趺坐	-12.3548
勸貿	-12.3552
4	-12.3553
尋光見佛	-12.3554
一時等澍	-12.3557
如優曇鉢華	-12.3557
現在四信	-12.3557
領所不及	-12.3558
令入於佛道	-12.3559
七寶合成	-12.356
迹本二門	-12.356
俱體俱用	-12.3561
種種念觀	-12.3562
依何等義	-12.3562
綱格	-12.3563
習因習果	-12.3564
名別義通	-12.3565
亦空亦有門	-12.3566
道觀雙流	-12.3566
雜編	-12.3566
瓦官	-12.3567
先取其價	-12.3567
扶律談常	-12.3567
天人師佛世尊	-12.3567
閭	-12.3568
重說偈言	-12.3568
㲲	-12.3569
頌國淨	-12.3569
其年衰邁	-12.3569
平等性智	-12.357
其佛壽命	-12.357
舛	-12.3571
有一大宅	-12.3571
歷劫修行	-12.3572
置毒乳中	-12.3572
券	-12.3573
大白牛車	-12.3573
慇	-12.3573
波羅提木叉	-12.3574
蹉	-12.3574
抳	-12.3574
薗	-12.3574
隱勝現劣	-12.3575
未來益物	-12.3576
情與無情	-12.3576
貧賤	-12.3576
盡智無生智	-12.3576
矚	-12.3577
復更思惟	-12.3577
一中無量	-12.3577
法說一周	-12.3577
郁	-12.3577
滄	-12.3577
不斷性惡	-12.3578
諸天宮殿	-12.3578
瑤師	-12.3579
豪貴	-12.3579
跟	-12.358
事造三千	-12.358
色香味觸	-12.3582
四禪八定	-12.3582
瘂	-12.3582
能解了	-12.3583
蜋	-12.3583
性淨涅槃	-12.3584
菩提分法	-12.3584
往詣佛所	-12.3584
啄	-12.3584
摩男	-12.3585
十五年	-12.3585
奄	-12.3586
泊	-12.3586
於中有三初	-12.3586
艾	-12.359
國邑	-12.3591
廉	-12.3591
化儀四教	-12.3593
三止觀結	-12.3594
坌	-12.3596
寶性論	-12.3599
玉泉	-12.3601
警覺	-12.3604
大德舍利弗	-12.3605
於中有二初	-12.3606
秉白	-12.3608
懷疑惑	-12.3631
世間之父	-12.3631
為一人說	-12.371
晉譯	-12.3731
稱觀世音菩薩名者	-12.3746
從地踊出	-12.3751
誠如所言	-12.3752
具普賢道	-12.3757
與八萬四千菩薩	-12.3757
資成軌	-12.3758
大海江河	-12.3758
度苦惱眾生	-12.3758
且待須臾	-12.3758
苔	-12.3759
如來如實知見三界之相	-12.3759
臨命終時	-12.376
三車一車	-12.376
崔	-12.3761
即滅化城	-12.3761
山川谿谷土地	-12.3762
所經諸國	-12.3762
正直捨方便但說無上道	-12.3763
一塵一劫	-12.3763
師子奮迅之力	-12.3763
父知子意	-12.3763
亦不行不分別	-12.3764
密雲彌布	-12.3764
歎三車希有	-12.3764
槃特	-12.3765
施佛及僧	-12.3765
以信得入	-12.3765
藐	-12.3765
粒	-12.3765
領知眾物	-12.3766
縱廣正等	-12.3766
菩提流支	-12.3767
各賜諸子等一大車	-12.3767
地平如掌	-12.3767
三祇百劫	-12.3768
𧂐	-12.3769
生緣老死	-12.3769
堯舜	-12.377
累無不盡	-12.3771
分身遠集	-12.3771
鬬諍	-12.3771
好自安意	-12.3771
形體姝好	-12.3772
皆是子有	-12.3772
窓牖	-12.3773
辟支迦羅	-12.3773
三界無安	-12.3774
如是本末究竟等	-12.3774
能化所化	-12.3774
媒	-12.3776
我成佛巳來	-12.3776
受種種苦	-12.3776
財富	-12.3777
求不得苦	-12.3777
摣	-12.3778
證道同圓	-12.3778
羶	-12.3778
耆闍	-12.3778
餝	-12.3781
怜	-12.3782
蔡	-12.3782
霄	-12.3782
以是之故	-12.3783
睹	-12.3783
說其因緣	-12.3784
能觀所觀	-12.3784
希奇	-12.3784
齊限	-12.3784
事事無礙	-12.3784
若得為人	-12.3785
釧	-12.3787
思益經云	-12.3788
煥然	-12.3788
坤	-12.3788
草菴	-12.3789
綖	-12.3789
竊為一人	-12.3793
涕	-12.3793
蝕	-12.3794
央掘魔羅	-12.3796
奇哉	-12.3796
念念不住	-12.3798
玷	-12.3799
跏趺	-12.3801
曰恁麼則	-12.3806
圓接通	-12.3808
眾寶莊嚴	-12.381
僧祇劫	-12.3813
度脫無量眾	-12.3816
為此義故	-12.3825
限礙	-12.3826
無數百千	-12.3849
大經下引證	-12.385
我以佛眼	-12.3924
或有說言	-12.3949
彼此互	-12.3954
樂說辯才	-12.3958
阿須倫	-12.3959
俱發聲言	-12.3959
具二莊嚴	-12.3961
發救一切眾生之心	-12.3961
佛說一解脫義	-12.3962
無有缺減	-12.3962
名不共法	-12.3963
皆成佛無疑	-12.3963
有覺有觀	-12.3963
心佛及眾生是三無差別	-12.3963
過三百由旬	-12.3963
全生如乳	-12.3964
晨朝	-12.3964
置於他土	-12.3965
無求出意	-12.3965
入大乘為本	-12.3966
不亦快乎	-12.3966
五千起去	-12.3967
尚爾況	-12.3967
悚慄	-12.3967
𡨋	-12.3967
唯我知是相	-12.3968
而命其子	-12.3969
難解難知	-12.3969
有佛子心淨	-12.3969
其義何耶	-12.3969
倉庫	-12.397
咄男子	-12.397
為太子時	-12.397
文無者略	-12.3971
非巳智分	-12.3971
廣演言教	-12.3971
晃	-12.3972
叮	-12.3972
疾走而去	-12.3973
一教始終	-12.3973
佛當為除斷	-12.3973
老弊使人	-12.3974
自知當作佛	-12.3974
而度脫之	-12.3975
亞	-12.3975
亦復不能知	-12.3976
寐	-12.3976
疥癩	-12.3977
闐	-12.3977
謾	-12.3977
澹	-12.3979
四禪四空	-12.398
敻	-12.398
軫	-12.3981
孫陀利	-12.3983
拆	-12.3983
插香	-12.3984
如彼窮子	-12.3984
十三行半	-12.3985
謚	-12.3985
式叉	-12.3987
老朽	-12.3988
歒	-12.3988
粉	-12.3993
錯亂	-12.3996
闍黎	-12.3997
爛壞	-12.4001
令一切聞	-12.4004
藥王藥上	-12.4012
果時無明	-12.4015
□□□	-12.4029
出家二眾	-12.4032
欣厭	-12.4042
相續不斷	-12.4043
顯露不定	-12.4045
次釋釋中	-12.4086
憍陳	-12.4107
妙莊嚴王本事品	-12.4164
生下劣想	-12.4167
樓醯	-12.4167
𦗟	-12.4169
我今語汝	-12.4169
成就甚深未曾有法	-12.417
遠塵離垢	-12.417
深入無際	-12.417
功深福重	-12.4171
慳恡	-12.4171
佛口所生	-12.4172
名異體同	-12.4172
云何而可度	-12.4173
解脫菩薩而白佛言	-12.4174
生老病死憂悲苦惱	-12.4174
即時觀其音聲	-12.4174
羼提波羅蜜	-12.4175
我今當設方便	-12.4175
常好坐禪	-12.4175
遊於娑婆世界	-12.4175
亦應更云	-12.4176
金銀瑠璃	-12.4176
解其義趣	-12.4176
頤	-12.4177
二十千萬億偈	-12.4178
頗羅墮	-12.4178
富樓那彌多羅尼子	-12.4178
心之色心	-12.4178
甄迦羅	-12.4178
是妙光法師	-12.4179
上上起門	-12.4179
父每念子	-12.418
綴	-12.418
受持佛語	-12.4181
右遶	-12.4181
捨權就實	-12.4181
摩訶迦旃延	-12.4182
僧祗	-12.4182
貧所樂法	-12.4182
悉於中現	-12.4182
阿那波那	-12.4183
繩墨	-12.4183
斂	-12.4183
因中說果	-12.4184
樂獨善寂	-12.4184
遠行地	-12.4185
不相妨礙	-12.4185
破思假	-12.4186
作是語巳	-12.4186
傭賃	-12.4186
莚	-12.4186
鵬	-12.4186
惓	-12.4187
衰惱	-12.4188
糧	-12.4188
都不覺知	-12.4189
啀	-12.4189
廼	-12.4189
三乘五性	-12.419
圓成實性	-12.4192
汰	-12.4192
神農	-12.4195
吳越	-12.4197
發道意	-12.4197
若別論者	-12.4197
馱	-12.4198
虗誑	-12.4199
郊	-12.4202
巽	-12.4202
做	-12.4203
善根發相	-12.4204
如止觀第七記	-12.4205
憒	-12.4205
十五卷	-12.4206
無有二相	-12.4206
毗舍離	-12.4207
苫	-12.421
持是經者	-12.4216
什麼	-12.4216
白毫相光	-12.4241
下正判	-12.4269
儔	-12.4328
佛告無盡意菩薩	-12.4374
一切眾生憙見菩薩	-12.4375
歎佛恩深	-12.4376
不能復進	-12.4378
未有所識	-12.4381
其澤普洽	-12.4382
發軫學小	-12.4382
若使人書	-12.4382
不謀而	-12.4384
以佛道聲令一切聞	-12.4384
䟦陀婆羅	-12.4384
於恒沙劫	-12.4384
罪根深重	-12.4384
未曾暫廢	-12.4384
亦無在世及滅度者	-12.4385
無上正真之道	-12.4386
商估	-12.4387
清信女	-12.4388
非思量分別之所能解	-12.4388
犢	-12.4388
冝	-12.4389
皆順正法	-12.4389
能施無畏	-12.4389
令得入佛慧	-12.439
提婆達多善知識故	-12.439
奘	-12.439
爾時文殊師利法王子	-12.439
不驚不怖	-12.439
四無色定	-12.439
藥叉	-12.4391
地上清涼	-12.4391
發心畢竟二不別	-12.4391
非縱非橫	-12.4392
若說是事	-12.4392
先照高山	-12.4392
羊車鹿車牛車	-12.4392
其語巧妙	-12.4392
一心奉請南無	-12.4392
化功歸巳	-12.4393
非行非坐	-12.4393
靳	-12.4393
卒暴	-12.4394
所燒之門安隱得出	-12.4394
我本立誓願	-12.4394
皓	-12.4394
塘	-12.4394
分明判答	-12.4395
諄諄	-12.4395
鵠	-12.4396
牀座	-12.4396
晴	-12.4396
去尺就寸	-12.4396
循環	-12.4397
懷妊	-12.4397
各得增長	-12.4397
陞	-12.4398
樂說辯	-12.4398
令盡無有餘	-12.4398
無表色	-12.4398
悴	-12.4398
遇到父舍	-12.4399
雨曼陀羅華	-12.4399
敬順佛意	-12.4399
屠兒	-12.4399
肇公	-12.44
發軫	-12.4402
昆勒	-12.4402
悔恨	-12.4404
爾時一切眾生喜見菩薩	-12.4404
迦毘羅	-12.4404
墮三惡道	-12.4404
童蒙	-12.4404
大愛道	-12.4404
能詮所詮	-12.4404
鹿園	-12.4405
廷	-12.4405
稷	-12.4406
自行之權	-12.4406
蠅	-12.4408
努	-12.4409
無名無相	-12.4411
纏縛	-12.4412
七日七夜	-12.4412
鴟	-12.4412
囚執	-12.4414
順決擇分	-12.4415
調五事	-12.4418
姪	-12.4424
主宰	-12.4435
房宿	-12.4438
潤澤	-12.4439
虫鬼	-12.4446
欲令一切眾	-12.4463
二何以下	-12.447
經律論	-12.4483
測量	-12.4484
隨其所堪	-12.4492
初因緣中	-12.4546
存教道	-12.4554
减	-12.4576
𤦲	-12.4594
]	-12.4594
真淨大法	-12.4595
將導眾人	-12.4596
所分之身	-12.4598
行五波羅蜜	-12.4598
皆與實相不相違背	-12.4599
若但讚佛乘	-12.4601
道場所得法	-12.4601
爾時舍利弗欲重宣此義而說偈言	-12.4602
若遇餘佛	-12.4602
爾時大通智勝如來	-12.4603
妙幢相	-12.4603
作是供養巳	-12.4603
所燒之類	-12.4604
復過於此	-12.4605
十九行偈	-12.4605
但離虗妄	-12.4605
拂迹顯本	-12.4606
威德特尊	-12.4606
吾從成佛巳來	-12.4607
修何功德	-12.4607
阿迦尼吒	-12.4607
羮	-12.4607
何為見捉	-12.4607
皆勿親近	-12.4608
理同故即	-12.4608
居僧之首	-12.4608
原始要終	-12.4609
眾生無邊誓願度	-12.4609
擬宜三車	-12.4609
從東方來	-12.461
我生巳盡	-12.461
捔	-12.461
机	-12.461
貧窮下賤	-12.4611
腋	-12.4611
杻械	-12.4611
發希有心	-12.4611
若有疑悔者	-12.4612
從無住本立一切法	-12.4612
窮子驚愕	-12.4612
琢	-12.4613
半行半坐	-12.4614
亮	-12.4614
久修梵行	-12.4614
離苦得樂	-12.4614
今當略說	-12.4615
今相如本瑞	-12.4615
煗頂	-12.4615
掖	-12.4616
總相別相	-12.4616
催	-12.4616
鑪	-12.4617
若因若果	-12.4618
熊	-12.4618
酌	-12.4618
貪著五欲	-12.4619
枳	-12.462
劵	-12.462
眇	-12.462
是菩薩無生法忍	-12.462
栢	-12.4621
大論三十	-12.4622
即於佛前而說呪曰	-12.4622
詭	-12.4622
怨憎會苦	-12.4623
三賢十聖	-12.4623
恍	-12.4627
鶴林	-12.4628
例前可知	-12.463
冤親	-12.4632
善男子善女人	-12.4638
築	-12.4638
餅	-12.464
棒	-12.4643
□□□□	-12.468
雷震	-12.4694
恭敬尊重讚歎	-12.4777
自在天子	-12.4779
解說書寫	-12.4795
十餘年	-12.4802
了達空法	-12.4809
聞佛壽命長遠	-12.4816
白四羯磨	-12.4818
0	-12.4819
為諸梵眾而說偈言	-12.4819
曇無德	-12.482
聰慧明達	-12.4822
如止觀第六記	-12.4822
故現於世	-12.4824
若智若斷	-12.4824
夜义	-12.4825
以偈讚曰	-12.4825
知子先心	-12.4826
心亦不驚	-12.4827
結大緣	-12.4828
佛曾親近	-12.4828
不生一念好樂之心	-12.4829
到於涅槃	-12.4829
供養無量百千諸佛	-12.4829
而得度脫	-12.483
飢餓	-12.483
語諸作人	-12.483
聾瘂	-12.483
盲瞑	-12.4831
四方俱下	-12.4831
非橫非豎	-12.4831
醉酒	-12.4831
緻	-12.4831
鍮	-12.4831
系	-12.4831
華開蓮現	-12.4832
十方諦求	-12.4832
周旋往返	-12.4833
結集法藏	-12.4833
蜈蚣蚰蜒	-12.4833
一因一果	-12.4833
於諸菩薩中	-12.4833
縵	-12.4833
不生不生不可說	-12.4833
薄伽梵	-12.4834
愜	-12.4834
衣裓机案	-12.4835
捫	-12.4836
數他寶	-12.4837
能乘之人	-12.4837
藏等四教	-12.4837
簸	-12.4838
芻	-12.4838
煮	-12.4838
法緊那羅王	-12.4838
沮	-12.4839
久住他國	-12.4839
過去未來現在	-12.484
初中復二	-12.4841
飢饉	-12.4841
孔雀	-12.4841
蛆	-12.4841
涕泣	-12.4841
廊	-12.4842
所被之機	-12.4842
糞掃衣	-12.4843
未證謂證	-12.4843
土埵	-12.4843
歌羅邏	-12.4844
託事附法	-12.4847
斵	-12.4847
羼提	-12.4847
莫復與語	-12.4847
痕	-12.4847
駐	-12.4848
摧朽	-12.4848
鬧	-12.4851
養育	-12.4852
袖	-12.4852
釐	-12.4853
粘	-12.4854
乳糜	-12.4857
裡	-12.4857
在大眾中	-12.4869
色界火起	-12.4992
▁二如此下	-12.5037
有一大梵天王	-12.5039
泥犁	-12.504
受持觀世音菩薩名號	-12.5041
各得成實	-12.5042
其實為佛乘	-12.5043
願垂納受	-12.5044
皆已成佛道	-12.5045
漸入佛道	-12.5045
空過無有佛	-12.5046
我於餘國作佛	-12.5047
當具奉行	-12.5047
法譬二周	-12.5048
五百弟子受記品	-12.5048
十一品半	-12.5048
劫濁亂時	-12.5049
隨宜所說意趣難解	-12.5049
問觀自生心云何	-12.5049
如來能種種分別	-12.505
母告子言	-12.505
傭	-12.5051
盡行諸佛無量道法	-12.5051
我設是方便	-12.5051
從三昧安詳而起	-12.5052
究竟至於一切種智	-12.5052
有車之由	-12.5053
優陀那	-12.5053
能度無數百千眾生	-12.5054
盡教以佛道	-12.5054
獷	-12.5054
鎮頭迦	-12.5054
事異故六	-12.5055
止住其中	-12.5055
未度者令度	-12.5055
佛壽長遠	-12.5056
亦權亦實	-12.5056
心甚歡喜	-12.5056
伊提履	-12.5057
如師子王	-12.5057
塔涌	-12.5057
侮	-12.5057
猶多怨嫉	-12.5057
大同小異	-12.5058
蒸	-12.5058
多諸子息	-12.5058
初發心時便成正覺	-12.5058
慈悲應之	-12.5059
東西走戲	-12.5059
不可以言宣	-12.5059
劫名喜見	-12.5059
盡諸苦際	-12.5059
玩好之具	-12.5059
如聾如瘂	-12.506
為諸菩薩說大乘經	-12.506
一雲所雨	-12.506
庾	-12.506
佛放一光	-12.5061
我念過去世	-12.5061
惡口罵詈	-12.5061
矬陋	-12.5061
佛告宿王華菩薩	-12.5061
作禮而去	-12.5061
以本願故	-12.5062
當爾之時	-12.5062
誥	-12.5062
志意下劣	-12.5063
胗	-12.5063
貧窮困苦	-12.5063
一念相應慧	-12.5063
法喜禪悅	-12.5063
憍尸迦	-12.5063
佛知佛見	-12.5064
不得相離	-12.5064
強牽將還	-12.5064
賢愚經	-12.5065
差而無差	-12.5066
佛去世後	-12.5066
鑛	-12.5066
鬼子母	-12.5067
諸佛出於五濁惡世	-12.5067
識等五支	-12.5068
粖	-12.5068
壞驢車	-12.5069
零	-12.507
傾斜	-12.507
憍梵波提	-12.507
三摩提	-12.507
嘷吠	-12.507
稜	-12.507
直往菩薩	-12.5071
非事非理	-12.5072
弁	-12.5072
溟	-12.5072
枚	-12.5073
欣慶	-12.5073
殄	-12.5073
蠱	-12.5074
行緣識	-12.5075
隤	-12.5075
牛頭栴檀	-12.5077
荊州	-12.5078
肌	-12.5078
粳	-12.5078
兔角	-12.5079
怙	-12.5081
相國云	-12.5081
螺溪	-12.5082
控	-12.5085
遍照十方	-12.51
初通標	-12.5121
小王不順	-12.5128
答疑書	-12.513
▁二云何下	-12.5189
恱	-12.5275
偈讚佛巳	-12.5276
前路猶遠	-12.5277
於當來世	-12.5278
滿百千歲	-12.5278
化作大城	-12.5279
不老不死	-12.5279
等與大車	-12.5282
如止觀第二記	-12.5283
身體疲懈	-12.5284
七處八會	-12.5284
右膝著地	-12.5285
移諸天人	-12.5286
從昔巳來	-12.5286
在寶塔中	-12.5286
無有餘乘若二若三	-12.5287
算數譬喻	-12.5287
今則無滅	-12.5287
不可復滅	-12.5287
離諸障礙	-12.5288
絓	-12.5288
戀著戲處	-12.5289
百千萬億旋陀羅尼	-12.5289
知我樂小	-12.5289
生恭敬心	-12.5289
諸法從本來	-12.529
瑕穢	-12.529
自陳領解	-12.529
山川谿谷	-12.5291
深心本願	-12.5291
覇	-12.5291
勿復餘去	-12.5291
轉勢說法	-12.5292
不復進求	-12.5292
悉亦當作佛	-12.5292
上根利智	-12.5292
常與無常	-12.5293
榻	-12.5293
堆	-12.5294
乃能究盡	-12.5294
肴膳	-12.5294
那由它	-12.5294
高聲唱言	-12.5295
有事有理	-12.5295
聖主師子	-12.5295
雖欣此遇	-12.5296
充溢	-12.5296
靡所不	-12.5296
能至菩提	-12.5297
信法二行	-12.5297
舉要言之	-12.5297
山河大地	-12.5297
便以為足	-12.5298
精勤修習	-12.5298
定共戒	-12.5298
侈	-12.5299
時至機熟	-12.5299
轉更惶怖	-12.5299
鳴椎一下	-12.53
發無上心	-12.53
彈呵	-12.53
悋惜	-12.53
澍雨	-12.5301
法報二身	-12.5302
長者大富	-12.5303
街	-12.5303
名同義異	-12.5304
汩	-12.5304
阿梨耶識	-12.5305
伍	-12.5305
裨	-12.5305
陰等十境	-12.5305
知病識藥	-12.5306
鎔	-12.5306
轉凡成聖	-12.5307
扁	-12.5308
因以為名	-12.5308
疇	-12.5311
晏	-12.5313
一家教觀	-12.5316
核	-12.5317
四佛章	-12.5318
靉	-12.5319
魑魅	-12.5322
羲	-12.5322
甥	-12.5324
疼	-12.5329
異而同	-12.5388
慇懃稱歎	-12.541
跋陀	-12.5498
不起于座	-12.5511
常念恭敬觀世音菩薩	-12.5513
汝等當信解如來誠諦之語	-12.5513
九種大禪	-12.5517
殖眾德本	-12.5518
我不敢輕於汝等	-12.5518
慧光照無量	-12.5518
有如來全身	-12.5519
濁惡世中	-12.5521
若有多眾	-12.5522
全身不散	-12.5522
本從無數佛	-12.5522
大勢威猛	-12.5523
皆實不虛	-12.5523
業隨智慧行	-12.5523
由理具方有事用	-12.5523
說應四諦法	-12.5523
非實非虗	-12.5523
我此九部法	-12.5524
任力所能	-12.5524
雖久滅度	-12.5524
還可如故	-12.5525
摩訶波闍波提比丘尼	-12.5525
譬如強力	-12.5525
其父憂念	-12.5525
無罣礙	-12.5525
準說可知	-12.5526
非橫非竪	-12.5527
歷緣對境	-12.5527
真應二身	-12.5527
菩薩摩訶薩八萬人	-12.5528
是時日月燈明佛	-12.5528
尋念過去佛	-12.5529
雨天曼陀羅	-12.5529
從舍出之	-12.5529
擊皷	-12.5529
無所損減	-12.5529
不別而別	-12.5529
行於非道	-12.5529
擊法鼓	-12.553
觀一切法空如實相	-12.553
姨	-12.553
中間相值	-12.553
畋	-12.5531
則為侵毀是諸佛巳	-12.5531
而得生長	-12.5531
愕	-12.5531
冤賊	-12.5532
一切聲聞辟支佛所不能知	-12.5532
恃怙	-12.5532
叱	-12.5532
疾疫	-12.5532
悠悠	-12.5533
清淨淨禪	-12.5533
別理隨緣	-12.5533
罸	-12.5533
華落蓮成	-12.5534
即其證也	-12.5534
躶	-12.5534
粹	-12.5534
琰	-12.5534
波利質多羅	-12.5535
經歷國邑	-12.5535
摧碾	-12.5535
茂盛	-12.5537
善根人有	-12.5537
鳴鐘	-12.5537
唯色唯心	-12.5537
萃	-12.5538
燒香散華	-12.5538
崙	-12.5539
沽	-12.554
舉一即三	-12.554
全修在性	-12.5541
我如汝父	-12.5541
囂	-12.5542
入城乞食	-12.5542
澀	-12.5542
與心相應	-12.5544
阤	-12.5544
繹	-12.5544
阿育王	-12.5544
鴛鴦	-12.5544
閙	-12.5544
踵	-12.5544
左溪	-12.5545
胞	-12.5545
豬	-12.5545
二十七賢聖	-12.5546
釣	-12.5547
爍	-12.5547
菽	-12.5547
▁二今明下	-12.5549
複疎	-12.5549
髑髏	-12.555
庇	-12.5552
擘	-12.5553
牧牛	-12.5553
拔其苦	-12.5553
在障出障	-12.5554
週	-12.5556
賒	-12.5556
窓	-12.5562
軌範	-12.5568
衣裳	-12.5571
善戒經	-12.5597
教下所詮	-12.5619
經家敘置	-12.5678
眾生緣慈	-12.5708
爾時無盡意菩薩	-12.5737
與宮殿俱	-12.5752
所獻宮殿	-12.5753
一百一十	-12.5755
放眉間白毫相光	-12.5756
碌	-12.576
默念領解	-12.576
導師多諸方便	-12.5761
8	-12.5761
觀涅槃行道	-12.5762
億億萬劫	-12.5762
通別通圓	-12.5762
成就一切未曾有法	-12.5764
如來是諸法之王	-12.5764
高七多羅樹	-12.5764
羅列寶物	-12.5765
淨德夫人	-12.5765
滔	-12.5765
不令有人獨得滅度	-12.5765
說應六波羅蜜	-12.5766
法僧差別名	-12.5766
但以因緣有	-12.5766
久滅度多寶如來	-12.5766
[...]
