<unk>	0
<s>	0
</s>	0
之	-3.90037
而	-4.5549
也	-4.60905
爲	-4.8873
以	-4.90924
者	-4.94503
)	-5.05496
(	-5.05581
有	-5.12954
不	-5.22926
於	-5.25393
一	-5.296
其	-5.30218
則	-5.35773
無	-5.42372
人	-5.44932
心	-5.6516
天	-5.69179
大	-5.72593
自	-5.78082
生	-5.82242
曰	-5.83425
中	-5.84647
道	-5.85118
此	-5.85141
▁	-5.90793
神	-5.92809
得	-5.9326
上	-5.95056
是	-5.96016
如	-5.97239
矣	-6.0153
行	-6.05025
天尊大悲	-6.0801
卽	-6.10303
在	-6.12292
與	-6.12708
乎	-6.12762
言	-6.13508
非	-6.13887
故	-6.14599
至	-6.23725
下	-6.24378
眞	-6.26688
明	-6.28706
子	-6.29311
若	-6.29409
可	-6.32051
見	-6.32188
時	-6.3348
三	-6.34009
成	-6.34141
我	-6.3415
水	-6.35908
山	-6.3954
出	-6.39915
所	-6.40354
氣	-6.40782
乃	-6.41317
日	-6.42393
身	-6.42938
能	-6.43523
皆	-6.45268
已	-6.47184
知	-6.47459
相	-6.47749
亦	-6.49872
事	-6.50429
入	-6.50444
法	-6.51114
然	-6.5158
來	-6.54445
正	-6.54634
名	-6.5871
當	-6.61108
又	-6.61251
同	-6.62647
或	-6.64133
化	-6.64178
金	-6.64476
用	-6.64547
地	-6.64574
火	-6.65916
靈	-6.66973
仙	-6.68293
從	-6.69187
經	-6.71533
分	-6.71686
陽	-6.72234
欲	-6.73447
精	-6.73766
二	-6.73876
作	-6.74403
性	-6.74618
德	-6.74725
處	-6.7476
後	-6.7478
合	-6.74881
必	-6.78006
命	-6.78726
盡	-6.7875
將	-6.79277
風	-6.79464
五	-6.79706
元	-6.80848
善	-6.81032
光	-6.81393
何	-6.82588
吾	-6.83814
未	-6.84223
陰	-6.84581
復	-6.85142
四	-6.86197
多	-6.8763
去	-6.87737
月	-6.88172
通	-6.88287
内	-6.88316
外	-6.8881
常	-6.89307
因	-6.89458
本	-6.89468
空	-6.89519
方	-6.89684
修	-6.89724
物	-6.90318
雲	-6.90972
前	-6.91245
居	-6.91516
難	-6.91738
長	-6.92718
諸	-6.93284
玄	-6.93701
過	-6.94477
先	-6.94674
臣	-6.94864
文	-6.95027
實	-6.95331
云	-6.96429
功	-6.97109
歸	-6.97702
開	-6.98202
今	-6.98211
雖	-6.98701
觀	-6.99156
意	-6.99228
王	-6.99831
定	-7.00211
求	-7.00571
旣	-7.00585
夫	-7.00625
惟	-7.0106
石	-7.01078
天地	-7.02016
安	-7.02041
傳	-7.02382
聖	-7.03005
焉	-7.03109
死	-7.03185
師	-7.03221
體	-7.03989
世	-7.04244
高	-7.04381
不可	-7.0475
聞	-7.04819
九	-7.06493
耳	-7.07356
度	-7.0752
淸	-7.07877
于	-7.08
玉	-7.08544
立	-7.08743
動	-7.08905
理	-7.09179
門	-7.0952
形	-7.09983
易	-7.10635
應	-7.10751
書	-7.11081
虛	-7.12579
數	-7.12608
謂	-7.13536
全	-7.13591
不能	-7.13979
始	-7.14118
重	-7.14363
君	-7.15118
龍	-7.15151
小	-7.15244
起	-7.15303
丹	-7.15634
要	-7.15988
流	-7.16086
使	-7.1627
初	-7.16336
炁	-7.17376
家	-7.18345
說	-7.18501
公	-7.18955
教	-7.19458
及	-7.20411
靜	-7.20417
主	-7.20993
發	-7.21713
萬	-7.21884
字	-7.22229
樂	-7.22365
深	-7.22585
自然	-7.22729
守	-7.22842
會	-7.23304
○	-7.23607
受	-7.23671
天尊	-7.24133
音	-7.24377
運	-7.24442
念	-7.24503
所以	-7.2456
取	-7.2496
哉	-7.25029
凡	-7.25126
六	-7.25139
白	-7.26061
思	-7.26571
妙	-7.27252
信	-7.2814
而不	-7.28441
帝	-7.29091
飛	-7.29131
不知	-7.29398
民	-7.30332
兩	-7.31128
莫	-7.31511
離	-7.31916
和	-7.32686
由	-7.33803
遂	-7.3548
年	-7.35879
且	-7.36219
極	-7.36853
解	-7.36903
八	-7.37589
情	-7.37955
好	-7.38302
惡	-7.38488
志	-7.39276
關	-7.39402
力	-7.3963
南	-7.39763
降	-7.399
利	-7.4013
結	-7.4117
養	-7.41267
遠	-7.41545
所謂	-7.42009
等	-7.4241
老	-7.42585
眾	-7.42823
更	-7.42974
花	-7.43148
存	-7.43242
願	-7.43775
還	-7.44448
土	-7.44524
學	-7.44543
符	-7.44954
寶	-7.44975
平	-7.45586
隨	-7.45609
足	-7.45944
宜	-7.46074
天下	-7.46171
廣	-7.46389
藥	-7.46767
語	-7.46997
固	-7.47422
止	-7.47644
誠	-7.47657
色	-7.47728
終	-7.47759
彼	-7.47981
息	-7.48275
某	-7.48432
聲	-7.48475
俱	-7.48732
口	-7.50262
根	-7.50949
失	-7.51198
猶	-7.51591
西	-7.51605
福	-7.51926
女	-7.51946
可以	-7.52012
故曰	-7.52058
東	-7.52213
陰陽	-7.52628
木	-7.52823
令	-7.53064
望	-7.54109
章	-7.54268
甚	-7.54407
照	-7.54718
遇	-7.55168
親	-7.56122
治	-7.56127
七	-7.5618
十	-7.56317
覺	-7.56736
國	-7.56924
微	-7.56959
便	-7.56961
位	-7.5705
少	-7.5777
致	-7.57952
遊	-7.58086
指	-7.5825
轉	-7.58266
義	-7.58301
戒	-7.58398
問	-7.58674
象	-7.58892
大道	-7.59035
星	-7.59055
直	-7.59387
反	-7.59701
以爲	-7.60108
謂之	-7.60109
稱	-7.60314
香	-7.60631
到	-7.60766
獨	-7.60814
藏	-7.61213
著	-7.61228
隱	-7.61563
蓋	-7.61819
佛	-7.62236
各	-7.62247
黃	-7.62494
往	-7.6252
百	-7.62668
千	-7.63132
斯	-7.6345
邪	-7.63581
但	-7.63832
敬	-7.63916
宫	-7.63965
坐	-7.63991
食	-7.64054
乾	-7.64078
人之	-7.64239
交	-7.6479
須	-7.64796
母	-7.65117
間	-7.65179
洞	-7.65414
滿	-7.67165
了	-7.67201
識	-7.67208
華	-7.67232
悟	-7.67421
目	-7.67564
節	-7.67937
進	-7.67982
保	-7.68093
春	-7.68165
不得	-7.68251
眞人	-7.68303
永	-7.68566
舉	-7.68628
張	-7.68817
一切	-7.69084
古	-7.69237
忘	-7.69424
異	-7.69456
宗	-7.69811
仁	-7.70238
緣	-7.70412
煉	-7.70518
祖	-7.70608
機	-7.70709
視	-7.70769
順	-7.70772
施	-7.70787
司	-7.70933
海	-7.70986
果	-7.71335
雨	-7.71491
向	-7.71777
屬	-7.72416
北	-7.72547
滅	-7.73144
周	-7.73715
豈	-7.73733
頭	-7.74059
圖	-7.74364
爾	-7.74493
登	-7.74607
恩	-7.74677
宮	-7.74924
禮	-7.74952
變	-7.75028
病	-7.75246
顯	-7.75532
先天	-7.75627
苦	-7.75707
右	-7.75938
境	-7.76163
達	-7.76756
都	-7.76923
除	-7.7701
總	-7.77015
具	-7.77322
塵	-7.7848
。	-7.78634
尊	-7.78925
似	-7.78934
幽	-7.79087
予	-7.79551
貴	-7.79941
首	-7.79944
幾	-7.80171
勝	-7.80212
之所	-7.80778
江	-7.81074
妄	-7.8156
朝	-7.82177
持	-7.82292
夜	-7.82311
證	-7.82789
壇	-7.82795
真	-7.82819
報	-7.8288
原	-7.83563
奇	-7.83668
府	-7.8399
官	-7.84425
兮	-7.84825
詩	-7.84995
就	-7.85075
共	-7.85101
景	-7.85116
坤	-7.85693
記	-7.85704
論	-7.8584
馬	-7.85856
路	-7.85883
愛	-7.86108
奉	-7.86115
亂	-7.86354
聽	-7.86579
久	-7.86767
散	-7.86819
聖人	-7.87
伏	-7.87026
之中	-7.87275
臨	-7.87396
窮	-7.87513
萬物	-7.87561
任	-7.87666
落	-7.87782
業	-7.88202
士	-7.88425
破	-7.88887
乘	-7.89185
罪	-7.8924
興	-7.89335
圓	-7.89382
日月	-7.89732
漢	-7.89773
者也	-7.9087
請	-7.90887
益	-7.90916
之道	-7.91026
尋	-7.91114
執	-7.91438
積	-7.91441
集	-7.91545
尙	-7.9183
己	-7.92046
容	-7.92098
依	-7.92546
制	-7.92953
輕	-7.9315
陳	-7.9338
夀	-7.93645
靑	-7.93729
消	-7.94206
兵	-7.94371
仰	-7.94504
太	-7.94527
寒	-7.94825
魔	-7.94841
鼎	-7.94884
備	-7.9644
升	-7.96686
殺	-7.96913
再	-7.97006
太極	-7.97138
勿	-7.9715
加	-7.97238
引	-7.97448
對	-7.97577
齊	-7.97646
參	-7.97994
手	-7.98004
乾坤	-7.98318
鍊	-7.98417
如是	-7.98565
金丹	-7.98759
濟	-7.98798
虎	-7.99062
城	-7.99096
次	-7.99121
新	-7.9919
喜	-7.99259
斷	-7.99356
亡	-7.99508
造	-7.99702
耶	-7.99774
漸	-7.99809
並	-8.00148
示	-8.00423
胎	-8.00423
半	-8.00571
感	-8.00757
住	-8.00854
號	-8.01036
絕	-8.01038
羣	-8.01341
左	-8.01522
孝	-8.0163
⬤	-8.01796
列	-8.01965
現	-8.02025
鬼	-8.03032
室	-8.03088
林	-8.03115
近	-8.03467
他	-8.03488
智	-8.03536
魂	-8.03727
留	-8.03906
只	-8.04302
承	-8.04404
謹	-8.04662
普	-8.05166
迷	-8.05193
衣	-8.05252
忽	-8.05258
美	-8.05271
傷	-8.06058
建	-8.06179
剛	-8.06316
愈	-8.06322
酒	-8.06344
咸	-8.06443
看	-8.06523
懷	-8.0679
服	-8.07065
堂	-8.0715
特	-8.07154
載	-8.07293
表	-8.0742
類	-8.07523
先生	-8.07667
逆	-8.07691
雷	-8.07732
誰	-8.0775
秋	-8.085
害	-8.08715
𡻕	-8.08858
清	-8.09048
太上	-8.09122
返	-8.0941
鉛	-8.09424
疑	-8.09445
臺	-8.09468
泉	-8.09538
每	-8.09724
强	-8.10357
歌	-8.10671
種	-8.10811
州	-8.1093
如此	-8.10941
垂	-8.11119
珠	-8.11371
淨	-8.1199
汝	-8.12024
父	-8.13377
皇	-8.13955
聚	-8.14057
無爲	-8.14061
宣	-8.14362
超	-8.14424
收	-8.14757
李	-8.14913
假	-8.14947
長生	-8.14993
巳	-8.15057
釋	-8.15147
賢	-8.15152
昔	-8.15206
面	-8.15403
儒	-8.15998
素	-8.16235
露	-8.16882
待	-8.16908
放	-8.16953
樹	-8.16964
徒	-8.17187
端	-8.17614
回	-8.17686
客	-8.17727
俗	-8.17829
愚	-8.18206
斗	-8.1857
啟	-8.19047
慧	-8.19191
威	-8.19401
眞君	-8.19538
品	-8.19543
之心	-8.1973
統	-8.1975
卦	-8.19908
悉	-8.20419
呼	-8.20466
慈	-8.20739
謝	-8.21213
源	-8.21364
浮	-8.2138
夢	-8.21407
甯	-8.21552
部	-8.21593
凝	-8.21771
一日	-8.21847
堅	-8.22042
葢	-8.22224
註	-8.22276
喻	-8.22306
恐	-8.22396
期	-8.22724
之時	-8.23009
是以	-8.23134
裏	-8.23146
接	-8.23195
曲	-8.23221
舍	-8.23265
申	-8.23334
坎	-8.23589
弟子	-8.2367
無所	-8.23796
遺	-8.23814
適	-8.23892
調	-8.23915
谷	-8.2399
嘗	-8.23996
爭	-8.24303
赤	-8.24383
最	-8.24566
脫	-8.24677
余	-8.25506
田	-8.25858
休	-8.25908
貪	-8.25945
救	-8.25971
震	-8.26024
星君	-8.26032
造化	-8.26044
序	-8.2614
巖	-8.26293
注	-8.26381
疾	-8.26691
步	-8.26801
想	-8.2707
草	-8.27128
絶	-8.2728
是也	-8.2736
劫	-8.27766
比	-8.28088
而後	-8.2829
退	-8.28529
世人	-8.28708
含	-8.2879
至於	-8.29023
拜	-8.2917
眼	-8.29403
吉	-8.2953
餘	-8.30004
氏	-8.30128
輔	-8.30348
軍	-8.30615
水火	-8.3086
齋	-8.30978
告	-8.30994
貞	-8.31001
紅	-8.31061
峰	-8.31062
棄	-8.31208
許	-8.3132
切	-8.31385
羅	-8.31393
於此	-8.31713
設	-8.31739
採	-8.31917
眾生	-8.31918
魚	-8.31927
計	-8.32072
累	-8.32193
功德	-8.32248
神仙	-8.32397
笑	-8.32832
布	-8.32985
亮	-8.33046
災	-8.33235
推	-8.33268
松	-8.33331
慶	-8.33339
嚴	-8.33343
良	-8.33539
影	-8.33552
卻	-8.33826
勞	-8.33827
何以	-8.33831
補	-8.33833
厯	-8.33969
上帝	-8.33996
僧	-8.34044
驚	-8.34155
黑	-8.3421
獲	-8.34293
池	-8.34653
光明	-8.34713
吳	-8.34931
之功	-8.35097
細	-8.35263
蜀	-8.35275
召	-8.35283
私	-8.35557
武	-8.35804
游	-8.36089
淫	-8.36463
盛	-8.36689
忠	-8.36744
中有	-8.36979
汞	-8.37201
禍	-8.37258
而爲	-8.37375
殿	-8.37388
專	-8.37446
之間	-8.37534
紫	-8.37542
損	-8.37573
走	-8.37654
典	-8.37669
而已	-8.37828
克	-8.38356
牛	-8.3906
舊	-8.3915
旨	-8.39372
急	-8.39427
授	-8.39485
篇	-8.39544
延	-8.39576
被	-8.3965
幸	-8.3968
畫	-8.40069
車	-8.40097
刻	-8.40182
劉	-8.40254
顧	-8.40302
,	-8.40331
變化	-8.4046
移	-8.40579
亭	-8.40588
候	-8.40656
錄	-8.40953
護	-8.41067
務	-8.41192
財	-8.41346
曾	-8.41349
喪	-8.41641
才	-8.41758
辭	-8.41777
敗	-8.42074
密	-8.42197
危	-8.42378
遍	-8.42384
澤	-8.42532
代	-8.42683
濁	-8.42732
狀	-8.42971
朱	-8.4322
雪	-8.43603
血	-8.43931
辨	-8.44409
後天	-8.44499
逐	-8.44587
詞	-8.44672
工夫	-8.44741
父母	-8.44905
波	-8.44953
厚	-8.45225
無不	-8.4523
按	-8.454
惠	-8.45439
宿	-8.45519
的	-8.45582
生死	-8.45588
純	-8.45624
習	-8.45731
孤	-8.45762
性命	-8.45864
卽是	-8.46069
攝	-8.46072
之理	-8.46222
謀	-8.4645
昭	-8.46452
諸天	-8.46535
仍	-8.46596
投	-8.4665
五行	-8.46696
句	-8.46814
術	-8.46814
火候	-8.4686
弗	-8.46874
柔	-8.46892
慮	-8.46895
器	-8.4699
封	-8.47126
竹	-8.47297
其所	-8.47344
誦	-8.47987
君子	-8.4808
竅	-8.48184
奏	-8.48262
抱	-8.48323
溪	-8.48327
味	-8.48536
劍	-8.48621
速	-8.48667
河	-8.48847
別	-8.49027
揚	-8.49064
演	-8.49083
偏	-8.49351
十二	-8.49662
工	-8.49687
鳥	-8.49973
質	-8.50049
訓	-8.50129
崇	-8.50313
童	-8.50336
䝉	-8.50448
庭	-8.50765
盈	-8.50885
為	-8.50939
覆	-8.51136
界	-8.51312
兼	-8.51439
頂	-8.51497
掌	-8.51546
井	-8.51642
負	-8.51858
紀	-8.51953
於是	-8.51996
上下	-8.52046
縱	-8.5209
考	-8.52321
凶	-8.52469
點	-8.52481
卷	-8.52728
勢	-8.52732
殊	-8.528
碧	-8.52941
權	-8.5321
冥	-8.53383
爐	-8.53448
無極	-8.53621
洪	-8.53685
御	-8.53686
侯	-8.5378
戰	-8.53853
樓	-8.53896
十方	-8.54048
畢	-8.54134
障	-8.54168
閒	-8.54284
况	-8.54292
寺	-8.54318
不見	-8.54471
吟	-8.54542
遷	-8.54669
詳	-8.54891
政	-8.54897
而無	-8.54922
之法	-8.55044
鶴	-8.5506
骨	-8.55228
鳴	-8.55438
舟	-8.55505
鎭	-8.55577
泰	-8.56313
不足	-8.56324
恭	-8.56413
迎	-8.56627
筆	-8.56683
之後	-8.56752
資	-8.56775
幻	-8.56904
兆	-8.56916
九天	-8.56937
輪	-8.56993
助	-8.57011
繼	-8.57088
盜	-8.5711
談	-8.57343
刑	-8.57428
憂	-8.57594
默	-8.57665
履	-8.58161
禪	-8.58211
把	-8.58265
廟	-8.5836
橋	-8.58371
怒	-8.58697
而成	-8.58754
英	-8.58789
無窮	-8.58875
早	-8.58923
唐	-8.59178
連	-8.59193
縣	-8.59204
免	-8.59502
淸淨	-8.59879
有所	-8.59997
均	-8.60311
末	-8.60329
患	-8.60607
徹	-8.60622
竟	-8.60722
充	-8.60778
人間	-8.60792
霞	-8.60959
帝君	-8.60966
畏	-8.61033
尤	-8.61151
富	-8.61203
鼓	-8.61226
折	-8.6129
榮	-8.61422
逢	-8.6177
領	-8.6178
提	-8.61909
薦	-8.62302
毋	-8.62346
簡	-8.6239
野	-8.62698
也故	-8.62792
庶	-8.62973
基	-8.63079
越	-8.63308
一點	-8.63322
險	-8.63342
橫	-8.63357
其心	-8.63387
伯	-8.6341
拔	-8.63636
律	-8.63714
怨	-8.63769
鬼神	-8.63815
葉	-8.63968
呼吸	-8.64004
友	-8.64127
孫	-8.64326
玉帝	-8.64347
燈	-8.6437
勸	-8.64384
雜	-8.64513
否	-8.64513
跡	-8.6453
烟	-8.64605
夏	-8.64748
巧	-8.64792
悲	-8.65105
青	-8.65129
雙	-8.65266
不爲	-8.653
祈	-8.65317
魄	-8.65404
元始	-8.65439
育	-8.65512
傾	-8.65822
即	-8.6583
疏	-8.65926
量	-8.6598
活	-8.66028
秀	-8.66252
不敢	-8.66322
完	-8.66386
無上	-8.66401
道人	-8.66538
勤	-8.66605
駕	-8.66613
寂	-8.66629
薄	-8.66801
察	-8.66811
淵	-8.66859
囘	-8.66923
又曰	-8.67042
奪	-8.67196
置	-8.67199
職	-8.67672
暗	-8.67891
得道	-8.67926
背	-8.67956
之妙	-8.68269
男	-8.68394
題	-8.68592
之意	-8.68615
之士	-8.68621
虛無	-8.68999
天地之	-8.69253
儀	-8.69258
道德	-8.69334
無量	-8.69558
然後	-8.7011
賴	-8.70215
增	-8.70294
而生	-8.70339
印	-8.70461
墮	-8.70599
伏願	-8.70634
銀	-8.70692
條	-8.7077
管	-8.70783
之事	-8.70819
嗣	-8.70843
閉	-8.70926
着	-8.70988
人心	-8.71075
之氣	-8.71175
貫	-8.71196
三界	-8.71306
醉	-8.71397
叩	-8.71482
壁	-8.71667
據	-8.71817
寄	-8.71841
規	-8.7191
維	-8.723
卒	-8.72501
宋	-8.72543
太虛	-8.72765
元神	-8.72927
曉	-8.73003
籍	-8.73035
敢	-8.73151
昏	-8.73224
醮	-8.73417
透	-8.73628
川	-8.73744
違	-8.73939
效	-8.73948
之人	-8.74101
曹	-8.74251
梁	-8.7428
省	-8.74446
鳳	-8.74471
苟	-8.7452
讀	-8.74685
附	-8.74795
枝	-8.74815
翁	-8.74958
大聖	-8.75001
產	-8.7507
祥	-8.75125
瓊	-8.75139
沈	-8.75241
毒	-8.75488
庸	-8.75559
賜	-8.75669
約	-8.7605
讚	-8.76051
徑	-8.76099
竊	-8.7613
道之	-8.76211
犯	-8.76273
訣	-8.76379
純陽	-8.76555
包	-8.76823
其中	-8.77062
塞	-8.77076
慈悲	-8.77117
追	-8.77331
鸞	-8.77532
借	-8.77549
爰	-8.77578
融	-8.77667
希	-8.77905
納	-8.77978
昌	-8.78233
茲	-8.7836
旋	-8.78366
鑒	-8.7853
往來	-8.78664
格	-8.78691
懸	-8.78693
秘	-8.7879
途	-8.78963
魏	-8.79047
午	-8.79067
房	-8.79103
究	-8.79109
混	-8.79163
是爲	-8.79218
不過	-8.79264
那	-8.79455
送	-8.79497
祠	-8.79576
翠	-8.79663
靈寶	-8.79692
穴	-8.7976
便是	-8.80088
天仙	-8.80121
枯	-8.80156
人也	-8.80157
試	-8.80439
渾	-8.81078
偶	-8.81236
盤	-8.8143
映	-8.81462
昇	-8.81468
甘	-8.81566
左右	-8.81581
兌	-8.81676
楊	-8.81694
言之	-8.81826
腎	-8.81945
吏	-8.81997
憑	-8.82049
戸	-8.8231
泥丸	-8.82597
金闕	-8.82617
招	-8.8267
昧	-8.82741
富貴	-8.83014
勇	-8.83334
坎離	-8.834
惑	-8.83587
從此	-8.83732
一念	-8.83818
羽	-8.83938
閣	-8.84145
科	-8.84277
梵	-8.84363
錢	-8.84412
冠	-8.84509
俾	-8.84524
祖師	-8.84614
烈	-8.8465
像	-8.84717
種種	-8.84745
不可以	-8.84815
蒼	-8.84865
趨	-8.84921
帶	-8.84971
這	-8.8517
唯	-8.85179
侍	-8.85246
虛空	-8.85414
精神	-8.85464
訪	-8.85614
陵	-8.85705
第一	-8.85745
衞	-8.85837
陣	-8.85847
際	-8.85886
之義	-8.8597
沙	-8.85988
潛	-8.85994
辰	-8.8611
里	-8.86118
錫	-8.8614
避	-8.86325
煙	-8.86418
扶	-8.86664
身心	-8.86687
抑	-8.86694
浪	-8.86696
廢	-8.86696
案	-8.86876
衰	-8.86932
咒	-8.87032
賊	-8.87085
朗	-8.87316
龍虎	-8.87339
驅	-8.87466
學者	-8.87533
做	-8.87536
沉	-8.8767
肅	-8.87725
本來	-8.87791
配	-8.88142
改	-8.88175
詔	-8.88185
怪	-8.88187
地獄	-8.88198
自有	-8.88324
瞻	-8.88474
斬	-8.8848
吿	-8.88564
罔	-8.88705
冀	-8.88709
防	-8.88733
潔	-8.88778
冷	-8.88799
兹	-8.88807
别	-8.88917
中之	-8.89061
峯	-8.89098
哀	-8.89106
驗	-8.89267
率	-8.89282
崖	-8.89349
操	-8.8949
環	-8.89559
飲	-8.89768
天道	-8.89844
享	-8.89862
菴	-8.89872
契	-8.89945
纔	-8.90172
淺	-8.90256
營	-8.905
熟	-8.90677
貧	-8.90725
得其	-8.90841
亦不	-8.90883
誤	-8.91065
功夫	-8.91079
宇	-8.91133
第	-8.91183
院	-8.91208
温	-8.91242
贊	-8.91453
係	-8.91514
鏡	-8.9159
徧	-8.91645
徵	-8.91729
厥	-8.91903
秉	-8.92039
黃庭	-8.92128
出入	-8.92266
堪	-8.92323
腹	-8.9242
烏	-8.92448
則有	-8.92496
湖	-8.92516
蛇	-8.92536
干	-8.92586
生於	-8.9259
宅	-8.9278
一心	-8.9279
之則	-8.92821
悅	-8.9284
寸	-8.93044
述	-8.9311
悔	-8.93144
差	-8.93178
闕	-8.93192
知其	-8.93307
鐵	-8.93368
内外	-8.93541
祀	-8.93644
伐	-8.9366
僞	-8.93698
不同	-8.93711
無有	-8.93713
蕩	-8.93828
錯	-8.93941
獻	-8.94059
婦	-8.94254
稍	-8.94494
暴	-8.94509
胡	-8.94568
神明	-8.94891
綠	-8.95078
動靜	-8.95109
此心	-8.95183
遣	-8.95204
今日	-8.9523
頓	-8.95263
晉	-8.95332
遵	-8.95439
邊	-8.95514
世間	-8.9554
之精	-8.95897
穢	-8.9611
殘	-8.96484
丹田	-8.9656
之機	-8.96703
忍	-8.96761
無形	-8.96773
郡	-8.96781
底	-8.96861
吐	-8.97002
逸	-8.97012
雄	-8.97032
楚	-8.97046
天下之	-8.97141
諸子	-8.97217
費	-8.9732
説	-8.97416
座	-8.97474
如何	-8.97581
講	-8.97622
觸	-8.97662
狂	-8.97915
妖	-8.98127
不生	-8.98317
賦	-8.9834
牒	-8.98354
必有	-8.98386
二字	-8.98412
暮	-8.98524
不動	-8.98573
巽	-8.98671
豐	-8.98719
仙佛	-8.98732
振	-8.98789
仁義	-8.98818
循	-8.98874
墨	-8.98898
役	-8.98903
并	-8.99027
迴	-8.99071
晦	-8.99086
派	-8.99088
史	-8.99447
欺	-8.99507
大藥	-8.99519
市	-8.99646
孔	-8.99657
艮	-8.99666
三元	-8.99694
禁	-8.9972
也夫	-8.99838
之謂	-8.99842
以此	-8.99867
不必	-8.99978
鄕	-8.99983
一身	-8.99998
是謂	-9.00124
岸	-9.00176
隔	-9.00376
三教	-9.00417
潤	-9.00497
索	-9.00541
馳	-9.00554
尅	-9.00563
不及	-9.00629
一時	-9.00701
是非	-9.00727
鼻	-9.00762
赴	-9.00803
學道	-9.00893
闡	-9.00927
十月	-9.0096
渡	-9.01322
漏	-9.01339
聖賢	-9.01414
天之	-9.01501
壯	-9.01637
愼	-9.01645
懼	-9.01939
爻	-9.02033
孰	-9.02084
玉淸	-9.02121
者有	-9.02123
徐	-9.02335
四時	-9.02345
兒	-9.02494
之象	-9.02604
略	-9.02651
澄	-9.02659
不離	-9.02711
甲	-9.0274
妻	-9.03032
北斗	-9.0304
染	-9.03244
夷	-9.03479
燭	-9.03537
蔽	-9.03545
之神	-9.03609
弱	-9.03619
焚	-9.0381
龜	-9.03825
㪚	-9.03854
丁	-9.03953
鍾	-9.0405
擊	-9.04076
大天尊	-9.04255
酬	-9.04345
津	-9.04402
沐浴	-9.04444
答曰	-9.04463
神通	-9.04633
孔明	-9.04728
荒	-9.04762
嶺	-9.0478
之炁	-9.04832
披	-9.05068
輝	-9.05094
麗	-9.05118
刼	-9.05126
還丹	-9.05213
赦	-9.05227
邱	-9.05231
彰	-9.05312
宏	-9.05423
霜	-9.05425
鄉	-9.05609
大帝	-9.05647
舞	-9.0567
曜	-9.05724
三稱	-9.05824
祿	-9.05876
旁	-9.0592
認	-9.05984
姓	-9.06013
吸	-9.0603
爽	-9.06273
恒	-9.06291
輿	-9.06315
供	-9.06338
舒	-9.0636
道者	-9.06462
巨	-9.06528
仲	-9.06542
度人	-9.0681
監	-9.06828
修行	-9.06858
淡	-9.06928
不在	-9.07246
刀	-9.07287
秦	-9.07304
液	-9.07323
謙	-9.07393
愁	-9.07547
俯	-9.07565
之際	-9.07745
亨	-9.07825
燕	-9.07932
停	-9.07991
而不知	-9.08035
壞	-9.0811
倚	-9.08244
將軍	-9.08304
有爲	-9.08325
子孫	-9.08456
卑	-9.08488
亦有	-9.0868
冬	-9.0872
此言	-9.08724
之說	-9.08752
寡	-9.08755
凡夫	-9.08757
慕	-9.08883
園	-9.0893
冲	-9.08955
道士	-9.08998
舌	-9.09077
箇	-9.09262
醫	-9.093
小人	-9.09479
殆	-9.09488
覩	-9.09527
惜	-9.0981
旡	-9.10211
也若	-9.10218
眞炁	-9.1026
痛	-9.10419
屋	-9.10474
者皆	-9.1055
之地	-9.1073
然而	-9.10758
柳	-9.10832
稽首	-9.10857
也此	-9.10877
姑	-9.11065
範	-9.11109
博	-9.11173
滯	-9.11197
戲	-9.11423
淸靜	-9.11726
答	-9.11781
i	-9.11782
混沌	-9.11821
僅	-9.11833
奚	-9.1191
滋	-9.11943
佐	-9.12001
天上	-9.12074
先主	-9.12111
則爲	-9.1222
短	-9.12326
蟲	-9.12523
角	-9.12523
嶽	-9.12588
三寶	-9.12625
植	-9.12721
也然	-9.12746
攻	-9.1277
名曰	-9.12779
辱	-9.12786
羊	-9.1281
寓	-9.1305
騰	-9.13075
式	-9.13099
困	-9.13133
泥	-9.13182
道也	-9.13217
謁	-9.13349
嘉	-9.13401
肝	-9.13493
啓	-9.13686
程	-9.13744
未嘗	-9.1377
之内	-9.13884
不如	-9.14038
之上	-9.14097
之用	-9.1412
陸	-9.14337
無心	-9.14435
毛	-9.14488
於人	-9.14493
責	-9.14529
古今	-9.14668
議	-9.14691
宰	-9.14758
圓滿	-9.14948
其身	-9.14959
禱	-9.1506
敷	-9.1507
算	-9.15122
人身	-9.15149
之體	-9.1517
乞	-9.15355
霄	-9.15372
侵	-9.1541
玉皇大天尊玄穹高上帝	-9.15531
自在	-9.15545
身中	-9.15594
賤	-9.15888
人能	-9.15913
解脫	-9.16274
勅	-9.16377
佑	-9.16528
髮	-9.16575
可見	-9.16578
顚倒	-9.166
決	-9.16891
尾	-9.16902
時時	-9.16927
化爲	-9.16934
八卦	-9.17104
訟	-9.17123
上淸	-9.17247
仗	-9.17289
詣	-9.17297
云云	-9.17357
屏	-9.17587
網	-9.17618
至道	-9.17775
分明	-9.17853
擾	-9.17924
陶	-9.17977
一事	-9.18036
藉	-9.18105
樸	-9.18247
人人	-9.18257
棲	-9.18295
瑞	-9.18352
嬰兒	-9.18421
元炁	-9.18501
鮮	-9.18666
孔子	-9.18738
未有	-9.18781
隆	-9.18868
摩	-9.1891
蓮	-9.18971
者必	-9.19294
衍	-9.19378
射	-9.19378
騎	-9.19383
磨	-9.19453
一人	-9.19475
彩	-9.19885
修眞	-9.19941
允	-9.20055
太和	-9.20093
米	-9.2049
者亦	-9.20511
)(	-9.20588
溺	-9.206
衡	-9.20751
珍	-9.20764
竭	-9.20837
是故	-9.20844
顏	-9.2091
晨	-9.21155
不用	-9.21158
洩	-9.21162
弘	-9.21192
付	-9.21238
慾	-9.21369
夫人	-9.21459
三千	-9.21542
出於	-9.21668
象曰	-9.21772
天人	-9.21845
泛	-9.21918
繫	-9.21918
天機	-9.21933
世之	-9.21984
太陽	-9.21996
倫	-9.2208
弟	-9.22087
方能	-9.22093
錦	-9.22216
牽	-9.2226
遭	-9.22279
至此	-9.22292
耀	-9.22398
採取	-9.2248
玉皇	-9.22641
閑	-9.22669
玅	-9.22724
有餘	-9.23016
琴	-9.23022
勉	-9.23114
綱	-9.23553
康	-9.23657
之言	-9.23724
肆	-9.2374
陽神	-9.23821
響	-9.23869
尺	-9.23917
亦無	-9.23962
者非	-9.23993
阿	-9.24012
毁	-9.24178
個	-9.24266
天心	-9.24309
雞	-9.24457
探	-9.24533
炎	-9.24536
穿	-9.24564
迹	-9.2462
無非	-9.24641
貌	-9.24657
賓	-9.24664
翼	-9.24863
等至心皈命禮願	-9.24877
敵	-9.24894
醒	-9.24928
拘	-9.25169
卿	-9.25201
萌	-9.25258
奔	-9.25259
不然	-9.25265
三年	-9.25288
判	-9.25367
十五	-9.2548
知之	-9.25633
爲人	-9.25773
可謂	-9.25791
白雲	-9.25976
二十四	-9.26048
恨	-9.2605
吞	-9.26061
搖	-9.26079
莫不	-9.26213
之初	-9.2627
導	-9.263
吹	-9.26353
至人	-9.26369
誅	-9.26405
蘭	-9.26423
而不能	-9.26427
匪	-9.26435
雖有	-9.26508
掃	-9.26584
而有	-9.26604
窺	-9.26795
之德	-9.26813
倒	-9.26818
策	-9.26824
豈不	-9.26874
黃帝	-9.26912
不以	-9.26943
烹	-9.2706
缺	-9.2717
紛	-9.27196
互	-9.27201
不明	-9.27283
人生	-9.27489
闢	-9.27547
潭	-9.27794
者不	-9.2782
擇	-9.2784
祝	-9.27976
韻	-9.28006
捨	-9.28177
戀	-9.28323
削	-9.28341
遲	-9.28342
翻	-9.28393
元氣	-9.28513
元君	-9.28638
呈	-9.28682
寛	-9.28692
不出	-9.28705
魯	-9.28741
茂	-9.28753
夕	-9.28781
男女	-9.28797
三十六	-9.28903
支	-9.2911
者卽	-9.29242
此經	-9.29268
彌	-9.29496
曰吾	-9.29559
晚	-9.29569
澗	-9.29574
續	-9.29621
佳	-9.2991
晝夜	-9.29966
玉女	-9.3001
不善	-9.30022
三十	-9.30035
无	-9.30161
洗	-9.3028
鐘	-9.30328
卯	-9.30413
孚	-9.30447
一炁	-9.30526
咎	-9.30569
階	-9.30679
靖	-9.30729
儉	-9.30729
屈	-9.30767
者曰	-9.30773
砂	-9.30846
愆	-9.30919
足以	-9.30958
歡	-9.31005
又何	-9.31082
培	-9.31088
贈	-9.31097
周天	-9.31117
逍遙	-9.31157
䖍	-9.31255
矜	-9.31277
進退	-9.31309
委	-9.31464
厄	-9.3147
快	-9.31477
而得	-9.31518
又有	-9.3159
至尊	-9.31687
肯	-9.31696
此時	-9.31705
沾	-9.3177
𡨚	-9.31823
孽	-9.31938
叨	-9.31944
覓	-9.31946
本無	-9.31964
元帥	-9.32027
皆是	-9.32034
智慧	-9.32147
無邊	-9.32292
耗	-9.32295
伸	-9.32315
奸	-9.32359
厲	-9.32376
妙道	-9.32436
懴	-9.32446
涉	-9.32566
而能	-9.32647
商	-9.3269
托	-9.3274
弄	-9.32792
不死	-9.32837
神氣	-9.3291
脈	-9.33037
層	-9.33105
又云	-9.33114
趙	-9.3312
子等	-9.33161
誕	-9.33216
不是	-9.33321
經云	-9.33432
枉	-9.33519
遙	-9.33534
殃	-9.33561
畧	-9.33616
以其	-9.33643
梅	-9.33932
桂	-9.33971
編	-9.33985
獄	-9.34021
子曰	-9.34211
脩	-9.34375
鑿	-9.3445
韓	-9.34459
歎	-9.34704
綿	-9.34729
菩薩	-9.34757
虧	-9.34763
何如	-9.34946
廬	-9.34958
大洞	-9.35044
何處	-9.35149
鴻	-9.35174
阻	-9.35205
漫	-9.35234
歟	-9.35268
添	-9.35305
二十	-9.35401
司命	-9.35476
於天	-9.35486
打	-9.35568
憐	-9.3562
顚	-9.35657
元精	-9.35733
厭	-9.35853
北方	-9.36006
5	-9.36065
飛昇	-9.3624
恃	-9.36262
善惡	-9.36263
之旨	-9.36264
賞	-9.36489
杖	-9.36536
由是	-9.36638
霧	-9.36759
老子	-9.36845
幼	-9.36873
唱	-9.36929
蘇	-9.36946
芳	-9.36946
單	-9.36954
物之	-9.37153
寅	-9.37341
拂	-9.37344
忌	-9.37372
莫能	-9.37432
三才	-9.37463
之外	-9.37537
輩	-9.37642
篤	-9.37781
下手	-9.37842
則不	-9.38008
皆有	-9.38281
太乙	-9.38289
豈非	-9.3843
行之	-9.38473
鬱	-9.38619
祭	-9.38626
暫	-9.38629
而下	-9.38689
無事	-9.38753
旁門	-9.38769
動而	-9.39003
篆	-9.39079
呂	-9.39139
曷	-9.39208
必須	-9.39285
逃	-9.3932
西南	-9.39379
藴	-9.39403
羣生	-9.3943
猛	-9.39477
只是	-9.39527
肺	-9.39549
亦可	-9.39921
故能	-9.39951
耕	-9.39957
碑	-9.39969
不信	-9.39976
掩	-9.39992
辯	-9.39995
一陽	-9.40028
眞鉛	-9.40093
入道	-9.40233
有一	-9.40235
雷霆	-9.40372
詠	-9.40428
旺	-9.40462
盟	-9.40794
世界	-9.40809
戴	-9.4085
族	-9.4086
飯	-9.40879
之下	-9.40944
四象	-9.41054
古人	-9.41062
趣	-9.41214
刧	-9.41216
疎	-9.41237
卜	-9.41288
只在	-9.41547
無所不	-9.41588
人所	-9.41641
未能	-9.41691
鑄	-9.41749
𤣥	-9.41759
凝神	-9.41772
藥物	-9.41934
於心	-9.42015
而自	-9.4205
給	-9.42126
班	-9.42162
茅	-9.42184
併	-9.42192
雅	-9.42222
冰	-9.42224
煩	-9.42292
其神	-9.42322
南方	-9.42391
草木	-9.42403
校	-9.42418
審	-9.42489
歸於	-9.42526
鉛汞	-9.42582
較	-9.42602
謬	-9.42666
武侯	-9.42677
修道	-9.42781
京	-9.42818
芝	-9.42945
萬神	-9.42973
中央	-9.43196
十六	-9.433
消息	-9.43318
化天尊大悲	-9.43393
肉	-9.43426
湯	-9.43532
撫	-9.43561
之道也	-9.43597
剝	-9.43622
人物	-9.43631
因緣	-9.43685
虞	-9.43689
得之	-9.43815
升降	-9.4388
恬	-9.43994
蒙	-9.44005
垣	-9.44008
鑑	-9.44009
者爲	-9.4404
飾	-9.44042
見其	-9.44068
一氣	-9.4414
爲主	-9.44352
齒	-9.44457
罷	-9.4449
不成	-9.44534
方可	-9.44561
桃	-9.44643
道君	-9.44803
眞經	-9.44898
奈何	-9.4493
屢	-9.44942
軒	-9.44965
凌	-9.44972
飄	-9.44995
之門	-9.45167
後世	-9.45333
偕	-9.45397
庚	-9.45628
輪迴	-9.45744
辛	-9.45764
西方	-9.45794
繁	-9.45812
百日	-9.46157
東南	-9.46206
流行	-9.46291
緩	-9.46299
崑崙	-9.46339
爲一	-9.46349
而言	-9.4654
禹	-9.46736
郭	-9.46746
函	-9.46788
遽	-9.46797
叔	-9.46855
躬	-9.46954
不言	-9.47036
畜	-9.47038
各有	-9.47046
若有	-9.47168
葛	-9.47186
嘆	-9.47188
是經	-9.47272
黃芽	-9.47287
倘	-9.47387
偈	-9.47426
十八	-9.47709
村	-9.47759
譽	-9.47769
則無	-9.48044
萬里	-9.48117
日直	-9.48132
以來	-9.4817
玄關	-9.4817
晴	-9.48224
荷	-9.48233
天眞	-9.48236
之類	-9.48295
晝	-9.4853
死生	-9.48583
牧	-9.48668
託	-9.48708
抽	-9.48717
旦	-9.49076
樞	-9.49131
此道	-9.49136
呂帝	-9.49186
奧	-9.49191
蓬萊	-9.49211
之所以	-9.49253
不自	-9.49464
没	-9.4963
讓	-9.49668
眉	-9.49675
五臟	-9.4968
繞	-9.49707
嬰	-9.49708
邑	-9.49717
捐	-9.49776
與人	-9.49834
得此	-9.49882
誓	-9.49977
測	-9.50018
廉	-9.50044
女子	-9.50071
慢	-9.5008
宇宙	-9.50161
紫微	-9.50258
或有	-9.50349
限	-9.50412
粗	-9.50469
萬象	-9.5061
之物	-9.50756
之數	-9.50911
胎息	-9.51044
玩	-9.51155
億	-9.5116
穀	-9.51409
之名	-9.51485
此是	-9.51633
暢	-9.51773
吾身	-9.51825
不相	-9.51829
也蓋	-9.51967
K	-9.5208
太陰	-9.52086
酉	-9.52107
運用	-9.52116
人有	-9.5214
男子	-9.5226
何爲	-9.52297
席	-9.52438
妙用	-9.5251
眞空	-9.52513
奉道	-9.5254
夫子	-9.52575
者乎	-9.52655
泄	-9.52664
以成	-9.52667
柱	-9.52691
千里	-9.52715
風雨	-9.52813
修煉	-9.52838
眞陽	-9.52845
頃	-9.53022
R	-9.53076
一曰	-9.53091
自得	-9.53129
譬如	-9.53293
玄玄	-9.53397
有形	-9.53415
成就	-9.535
天尊大悲大	-9.53552
屯	-9.536
乳	-9.53608
揭	-9.53613
寵	-9.53614
占	-9.53617
禽	-9.53626
馭	-9.53764
功成	-9.53863
之謂也	-9.53871
塗	-9.53949
沐	-9.54076
洲	-9.54175
矣然	-9.54198
汝等	-9.54333
閱	-9.54609
而行	-9.54636
介	-9.54691
玉清	-9.54748
不息	-9.54831
孟	-9.5486
圍	-9.54939
築	-9.5499
癡	-9.55088
此身	-9.55117
决	-9.55137
靡	-9.55141
壺	-9.55216
三淸	-9.55277
稽	-9.55408
玉京	-9.55434
大小	-9.55569
蓬	-9.55588
牢	-9.5564
不覺	-9.55675
到此	-9.55695
無常	-9.55788
之罪	-9.55839
神室	-9.56022
春秋	-9.56065
詐	-9.5608
一年	-9.56146
道法	-9.56335
眞意	-9.56483
此一	-9.56581
朔	-9.56613
衆	-9.56624
毫	-9.56633
換	-9.56639
束	-9.56661
生成	-9.56666
不聞	-9.56773
說法	-9.56866
祕	-9.5688
萬劫	-9.56903
不求	-9.57165
彭	-9.57168
曠	-9.57176
髓	-9.57254
此章	-9.5739
往往	-9.57503
必先	-9.57509
第二	-9.5753
耳目	-9.57851
割	-9.57958
可知	-9.58105
神光	-9.58176
煥	-9.58188
氷	-9.58211
大丹	-9.58246
衝	-9.58253
仙道	-9.58322
四方	-9.58324
戶	-9.58373
預	-9.58397
先天之	-9.5851
也故曰	-9.5861
無名	-9.58628
你	-9.58707
忠孝	-9.58716
減	-9.58716
燒	-9.5873
若能	-9.58803
督	-9.592
臻	-9.59226
用之	-9.59314
嗟	-9.59328
入於	-9.59333
無礙	-9.59355
躁	-9.59362
東方	-9.59371
符命	-9.59391
神咒	-9.59605
亥	-9.59686
而不可	-9.59696
北極	-9.59707
萬古	-9.59747
之始	-9.59758
何謂	-9.59788
季	-9.5981
漁	-9.5983
傍	-9.59842
覽	-9.59884
不失	-9.59904
能知	-9.60119
仙翁	-9.60162
䕶	-9.60324
終日	-9.60341
温養	-9.60344
皈依	-9.60359
泣	-9.60386
郤	-9.60388
側	-9.6041
如來	-9.60509
之極	-9.60731
后	-9.60736
成眞	-9.60753
郎	-9.60874
庇	-9.60895
孕	-9.60901
競	-9.60903
紙	-9.60908
其實	-9.60921
諭	-9.60928
杜	-9.6093
濳	-9.60959
不易	-9.61039
一名	-9.61373
桑	-9.61405
征	-9.61409
鬬	-9.61419
籠	-9.61426
朋	-9.61458
蹈	-9.6146
萬世	-9.61571
皈	-9.61594
上聖	-9.61674
大真君	-9.61691
卧	-9.61709
禍福	-9.61736
於外	-9.6181
矢	-9.61961
壑	-9.61979
敦	-9.62022
以致	-9.62111
無知	-9.62207
岳	-9.6222
涵	-9.62308
則知	-9.62326
擁	-9.62336
三品	-9.62418
激	-9.62464
躍	-9.62528
尸	-9.62533
睡	-9.62571
聯	-9.62584
囊	-9.6263
夙	-9.62741
聖人之	-9.62981
頒	-9.63019
人事	-9.63088
眞精	-9.63094
輒	-9.63123
後人	-9.63207
而已矣	-9.63241
下降	-9.63248
者乃	-9.63256
之本	-9.63256
性情	-9.63322
而去	-9.63437
倍	-9.63442
上元	-9.63495
無可	-9.63515
蕭	-9.63521
有此	-9.63575
貨	-9.63603
㝠	-9.63605
失其	-9.63611
協	-9.63665
饑	-9.63693
者是	-9.63713
電	-9.63743
口訣	-9.63759
天子	-9.6385
段	-9.63891
神炁	-9.64069
爾時	-9.64102
者以	-9.64158
溢	-9.64225
恍惚	-9.6423
灌	-9.64267
諸葛	-9.64415
上天	-9.64421
籙	-9.64527
罰	-9.6469
救苦	-9.647
仙家	-9.64705
標	-9.64767
獸	-9.64773
長存	-9.64776
逼	-9.64783
寫	-9.6483
佩	-9.64832
辟	-9.64836
主宰	-9.65034
也今	-9.65086
片	-9.65228
拱	-9.65247
諱	-9.65263
展	-9.65289
盧	-9.65323
甫	-9.65336
誘	-9.65339
之要	-9.65341
曰此	-9.65574
夫婦	-9.65631
抵	-9.65653
精氣	-9.65746
法象	-9.65808
九轉	-9.6602
吕	-9.66073
丹經	-9.66184
以上	-9.66264
禳	-9.66319
方得	-9.66333
庫	-9.66351
垢	-9.66381
憫	-9.66438
得一	-9.66439
不識	-9.66444
憶	-9.66478
船	-9.66506
誥	-9.66567
聰明	-9.6665
德天尊大悲	-9.66655
使人	-9.66673
卽此	-9.66784
礙	-9.66901
誦經	-9.66944
肩	-9.67015
若不	-9.67066
絲	-9.67079
何所	-9.67083
山中	-9.67089
擬	-9.67113
愿	-9.67115
祗	-9.6714
合一	-9.67238
人皆	-9.67296
安得	-9.6746
欽	-9.67466
不復	-9.67525
繩	-9.67612
僕	-9.67619
皮	-9.67624
圓明	-9.67695
之處	-9.67723
安能	-9.67832
不勝	-9.67892
三五	-9.67973
酆都	-9.68102
體天尊大悲	-9.68115
a	-9.68196
爾等	-9.68276
西北	-9.6828
明月	-9.68462
金水	-9.68465
處處	-9.68477
場	-9.68724
瘟	-9.68744
何也	-9.68758
飽	-9.68771
伊	-9.68802
茶	-9.68842
話	-9.68857
視之	-9.68952
無盡	-9.69059
爲用	-9.69101
金液	-9.69149
十七	-9.69205
在上	-9.69205
警	-9.6926
之眞	-9.69287
瑤	-9.69318
終身	-9.6932
枕	-9.69358
剖	-9.69391
兄	-9.69398
整	-9.69398
在人	-9.69441
人之所	-9.69465
歛	-9.69473
上有	-9.69492
普度	-9.69511
魂魄	-9.69551
所云	-9.69649
赤子	-9.69665
求之	-9.69685
其道	-9.69739
靈光	-9.69873
奉行	-9.69954
污	-9.69965
隙	-9.70014
者其	-9.70022
不足以	-9.70177
切念	-9.70218
童子	-9.70255
心印	-9.70391
沒	-9.70396
眞火	-9.70421
檢	-9.70477
灰	-9.705
山川	-9.70516
忿	-9.7054
緒	-9.70551
兄弟	-9.70599
其德	-9.70656
成功	-9.7066
於中	-9.70778
廣大	-9.70809
兩儀	-9.70816
帝子	-9.7084
農	-9.70934
選	-9.7108
以至	-9.71091
雖然	-9.71136
健	-9.7116
𤍠	-9.71187
之術	-9.71221
擒	-9.71239
懇	-9.71246
第三	-9.71268
域	-9.71296
墜	-9.71305
庶幾	-9.71309
結成	-9.71408
不肯	-9.71507
教人	-9.71593
之至	-9.71628
天理	-9.71655
一生	-9.71733
奢	-9.71752
脉	-9.71776
銅	-9.71813
一月	-9.71892
水中	-9.71903
問曰	-9.71908
方是	-9.72147
五帝	-9.72185
堯	-9.72316
稟	-9.72338
材	-9.72347
大悲大願大聖大慈	-9.72356
驕	-9.72373
不知其	-9.72396
金華	-9.7244
寒暑	-9.7246
百年	-9.72465
常存	-9.72537
中宫	-9.72655
丹成	-9.72716
凡人	-9.72757
偈曰	-9.72769
之情	-9.72777
握	-9.72953
天門	-9.72993
○○○	-9.73019
蓄	-9.73028
潮	-9.73041
洞天	-9.73046
昭烈	-9.73124
剛柔	-9.7314
三天	-9.73166
筵	-9.73206
一粒	-9.73281
腸	-9.73408
利益	-9.73425
豫	-9.73469
大法	-9.735
眞性	-9.73511
胥	-9.7356
東北	-9.73565
旛	-9.73571
暑	-9.73591
值	-9.73593
而實	-9.73599
謗	-9.73599
隊	-9.73624
頗	-9.73647
上升	-9.7365
煞	-9.73667
脾	-9.73689
矣故	-9.73967
同前	-9.73993
一物	-9.74067
其間	-9.74076
眞氣	-9.74172
上眞	-9.74236
之候	-9.74245
芒	-9.74261
亦非	-9.74317
大真人	-9.74325
靑城	-9.74394
修持	-9.74406
六根	-9.74494
大定	-9.74499
無私	-9.74526
三日	-9.74824
捧	-9.74833
g	-9.74835
岡	-9.74889
夾	-9.74906
猿	-9.75023
也非	-9.75047
一言	-9.75107
弦	-9.75112
天帝	-9.75151
混合	-9.7517
其形	-9.75217
怠	-9.75375
尚	-9.75399
副	-9.75431
千古	-9.75435
既	-9.75457
鄭	-9.75459
苗	-9.75476
我今	-9.75511
高眞	-9.75544
究竟	-9.75546
至誠	-9.75618
豈知	-9.75621
莫測	-9.75622
與之	-9.75624
功行	-9.75631
在天	-9.75665
莊	-9.75771
讀書	-9.75907
修身	-9.75914
古之	-9.75916
生人	-9.75923
悃	-9.75936
帥	-9.75949
乖	-9.76081
宴	-9.76103
一片	-9.76119
三關	-9.76146
窗	-9.76153
有三	-9.76153
俟	-9.76211
綿綿	-9.76227
天君	-9.76312
始終	-9.76399
頑	-9.76529
不已	-9.76647
使者	-9.76652
無人	-9.76707
心不	-9.76728
捉	-9.76759
七日	-9.76765
臍	-9.76769
嵗	-9.76781
哭	-9.76857
萬物之	-9.76861
見之	-9.76907
而非	-9.76918
以下	-9.7692
不壞	-9.77004
六合	-9.77007
守之	-9.77104
四海	-9.77138
五色	-9.77144
無以	-9.77153
使之	-9.7722
成都	-9.77237
眞符	-9.77302
恆	-9.77348
慘	-9.7739
頻	-9.77405
眠	-9.77414
黨	-9.7743
混元	-9.77434
抽添	-9.7744
仕	-9.77454
所言	-9.77491
有無	-9.77501
總是	-9.7754
自己	-9.77623
奥	-9.77672
萬化	-9.77701
眞仙	-9.77762
太平	-9.7778
民之	-9.77814
法門	-9.77864
聰	-9.77909
邀	-9.77931
買	-9.78039
消災	-9.78095
一旦	-9.78121
巢	-9.78121
大羅	-9.78131
此理	-9.78215
以求	-9.78291
沖	-9.7834
服食	-9.78404
湛	-9.78424
玄妙	-9.78571
恥	-9.78651
雁	-9.78697
化生	-9.7894
之學	-9.78958
旅	-9.79231
妙法	-9.79254
鋒	-9.79285
伍	-9.79358
革	-9.79383
奮	-9.79384
循環	-9.79385
黃金	-9.79464
玉虛	-9.79529
接引	-9.79562
也其	-9.79658
之境	-9.79694
五十	-9.79753
吾道	-9.79784
竈	-9.79833
功名	-9.79951
無聲	-9.79979
軀	-9.79991
本命	-9.79997
人者	-9.80099
至眞	-9.80195
修鍊	-9.80211
在我	-9.80337
不盡	-9.80352
本體	-9.80359
祇	-9.80421
成道	-9.80443
十年	-9.80551
飮	-9.80554
膏	-9.80614
酌	-9.80617
杯	-9.80637
銷	-9.80642
不可不	-9.80732
不受	-9.80798
嘯	-9.80922
山之	-9.80945
成仙	-9.80996
太𡻕	-9.81092
未必	-9.8114
正道	-9.81204
當其	-9.81221
世尊	-9.81257
臂	-9.81276
令人	-9.81308
觀其	-9.81313
誣	-9.81339
作用	-9.81449
採藥	-9.81489
元始天尊	-9.81592
人自	-9.81635
之性	-9.81787
播	-9.81891
嫌	-9.81925
膺	-9.81944
舜	-9.81976
十四	-9.81998
區	-9.81998
矣夫	-9.82031
太淸	-9.82105
靜而	-9.82349
之象也	-9.82352
淪	-9.82457
瀆	-9.82479
人以	-9.82545
排	-9.82546
東西	-9.82569
爲天下	-9.82587
【	-9.826
優	-9.82611
犬	-9.8263
彈	-9.8263
討	-9.82637
裂	-9.82644
紫府	-9.82725
不欲	-9.82726
金石	-9.82808
其性	-9.82886
相與	-9.82905
中黃	-9.8298
僻	-9.83279
奠	-9.83299
腳	-9.83307
顔	-9.83368
宻	-9.83372
爵	-9.83634
白虎	-9.83695
卓	-9.83811
金精	-9.83811
宥	-9.83841
丸	-9.83895
終始	-9.83941
及其	-9.83959
等伏聞	-9.83967
几	-9.84002
巾	-9.8401
甘露	-9.84033
館	-9.84033
蹟	-9.84038
一個	-9.84044
蒸	-9.84051
我之	-9.84178
後學	-9.84202
配合	-9.84335
不容	-9.84388
不外	-9.8443
真人	-9.84452
觀之	-9.84492
若是	-9.84493
冒	-9.84529
乙	-9.84623
不忍	-9.84625
賣	-9.84646
盲	-9.84648
疫	-9.84685
灑	-9.84689
弊	-9.84695
需	-9.84714
噫	-9.84721
眞一	-9.84722
五老	-9.84763
在於	-9.84805
與道	-9.8485
前後	-9.84912
神化	-9.84958
其氣	-9.85041
勳	-9.85337
粉	-9.8537
禀	-9.85374
主者	-9.85378
其功	-9.85388
逝	-9.85408
君臣	-9.85437
相傳	-9.85485
三百	-9.85525
玄元	-9.85736
南北	-9.85767
眞息	-9.85772
其人	-9.8579
大眾	-9.85814
由此	-9.8593
恤	-9.8603
於道	-9.86071
倉	-9.86077
聞之	-9.86084
空空	-9.86084
圓通	-9.86093
於物	-9.86141
墓	-9.86147
愧	-9.8617
分別	-9.86175
心中	-9.86201
無方	-9.86356
非有	-9.86497
眞土	-9.86514
有道	-9.86519
癸	-9.86535
名利	-9.8661
蠻	-9.86695
該	-9.86716
煩惱	-9.86733
翳	-9.86734
荆	-9.8674
襲	-9.8677
千萬	-9.86824
四大	-9.8683
卽有	-9.86851
也吾	-9.8703
金木	-9.87125
心心	-9.87185
一聲	-9.87269
踰	-9.87295
至今	-9.8731
方便	-9.87311
跨	-9.87383
歸根	-9.87402
姤	-9.87402
榜	-9.87431
糧	-9.87431
踏	-9.87459
然則	-9.8746
鄙	-9.87491
爲善	-9.87555
文字	-9.8756
以道	-9.8758
物也	-9.87636
莊子	-9.87665
生生	-9.87775
若無	-9.87815
不免	-9.87947
旱	-9.8797
人知	-9.88004
丹道	-9.88045
壘	-9.88054
宵	-9.88072
先後	-9.88083
一息	-9.88145
殷	-9.88212
行持	-9.88278
好生	-9.88292
飲食	-9.88308
至矣	-9.88444
上昇	-9.88464
司馬	-9.88527
頌	-9.88543
丈人	-9.88556
明明	-9.88709
矣故曰	-9.88778
寢	-9.88857
庥	-9.88871
罡	-9.8891
葬	-9.88918
養氣	-9.8896
數十	-9.89072
之根	-9.89276
悖	-9.8937
苦海	-9.89405
以生	-9.89485
中間	-9.89545
眷	-9.89568
雀	-9.89587
鱗	-9.89608
二物	-9.89617
三丰	-9.89631
雍	-9.8965
之先	-9.89752
玄牝	-9.89773
不悟	-9.89806
有心	-9.90028
攸	-9.9026
湧	-9.90308
例	-9.90311
饒	-9.90314
之日	-9.90317
蔭	-9.90332
掛	-9.9034
滴	-9.9035
而上	-9.90352
斜	-9.90353
漠	-9.90371
度世	-9.90442
離中	-9.90582
矣此	-9.90614
須知	-9.90617
築基	-9.90625
西山	-9.90626
無二	-9.90685
詩曰	-9.90784
神霄	-9.90805
名山	-9.90858
感應	-9.90978
屠	-9.91028
戾	-9.91034
存心	-9.91035
肇	-9.91042
哲	-9.91066
而復	-9.91077
援	-9.91083
湻	-9.91083
第五	-9.91094
丞相	-9.91097
矯	-9.911
法界	-9.91155
七祖	-9.91224
見性	-9.91226
嗚呼	-9.91231
明日	-9.91254
老君	-9.91413
一箇	-9.91437
不待	-9.91458
此乃	-9.91531
文章	-9.91535
大悲	-9.91551
牝	-9.91588
菩提	-9.91771
巍巍	-9.91773
魁	-9.9178
丕	-9.91803
𨚫	-9.91805
遁	-9.91811
拒	-9.91812
眞靈	-9.91816
低	-9.91825
一字	-9.91841
三官	-9.91846
禮樂	-9.91853
生天	-9.91884
淸虛	-9.91899
開化	-9.92032
可也	-9.92043
化身	-9.92054
人道	-9.92186
眞心	-9.92194
乎其	-9.924
之恩	-9.92472
邦	-9.92515
者何	-9.92531
二炁	-9.92544
埋	-9.92556
峻	-9.92571
遯	-9.92638
十分	-9.92645
而出	-9.92661
吉凶	-9.92706
詮	-9.92724
念念	-9.92902
一元	-9.92928
而歸	-9.92941
更有	-9.92983
山水	-9.92991
於世	-9.93142
社	-9.93155
魅	-9.93235
叅	-9.93252
之火	-9.93256
第四	-9.93276
萃	-9.93299
學人	-9.93305
至寶	-9.93307
崩	-9.93341
鄰	-9.93367
故有	-9.93374
三者	-9.93442
名爲	-9.9359
不入	-9.93597
九幽	-9.93609
方寸	-9.93629
興行妙道天尊	-9.93741
五炁	-9.93796
其事	-9.93804
吾心	-9.93809
言語	-9.9383
文王	-9.93882
本性	-9.93905
絡	-9.93923
黎	-9.93974
者則	-9.93974
誇	-9.94012
撥	-9.94013
徙	-9.94018
箕	-9.94072
之苦	-9.94125
是時	-9.94357
金仙	-9.94375
五方	-9.94412
次第	-9.94425
一陰	-9.94469
天師	-9.94487
以後	-9.94558
瞋	-9.94617
則神	-9.94658
鹿	-9.947
神功	-9.9472
熙	-9.94784
范	-9.94792
峙	-9.94801
迨	-9.94802
仇	-9.94803
自是	-9.94874
淚	-9.94876
出世	-9.94899
尊經	-9.94956
天命	-9.95111
運行	-9.95119
熾	-9.95124
空中	-9.95269
神靈	-9.95393
於内	-9.954
文昌	-9.95406
山林	-9.95445
敝	-9.95465
尼	-9.95472
芽	-9.95494
凉	-9.95515
一一	-9.95551
梯	-9.95562
方知	-9.95575
陰陽之	-9.95577
蒲	-9.95583
偉	-9.95593
學道者	-9.95614
濕	-9.95616
周流	-9.95697
子午	-9.95845
精微	-9.95874
金剛	-9.95945
告下	-9.95959
吾今	-9.96077
皆由	-9.96089
陀	-9.96142
中元	-9.96155
踐	-9.96157
拯	-9.96213
𣺌	-9.96269
叢	-9.9631
撰	-9.9631
人情	-9.9633
下土	-9.96485
煉丹	-9.96636
譬	-9.96667
十里	-9.96694
週	-9.96719
之念	-9.96752
平日	-9.96788
奈	-9.96791
詩云	-9.96797
豈有	-9.96814
三月	-9.96825
微妙	-9.96894
曹仙官	-9.96995
知此	-9.97014
麟	-9.97063
幹	-9.97066
腰	-9.97073
惟有	-9.97097
態	-9.97108
準	-9.97112
巫	-9.97125
也又	-9.97133
十三	-9.97146
確	-9.9715
聖眞	-9.97219
鼎器	-9.9729
養性	-9.97351
一毫	-9.97385
如意	-9.97388
内有	-9.97414
此皆	-9.97422
他人	-9.97452
而至	-9.97482
不忘	-9.97557
豈能	-9.97588
在心	-9.97592
果能	-9.97632
局	-9.97745
駐	-9.97844
之憂	-9.97845
萬靈	-9.97852
無象	-9.97867
攀	-9.97871
銘	-9.97874
遐	-9.97876
浸	-9.97901
只要	-9.97913
逕	-9.97919
一體	-9.97978
坎中	-9.97984
爲我	-9.98042
之故	-9.98162
而求	-9.98344
有大	-9.98442
衷	-9.9853
是以聖人	-9.98573
滌	-9.98574
城隍	-9.98594
罵	-9.9865
餌	-9.98657
旬	-9.98661
瑩	-9.98662
刀圭	-9.98705
眞實	-9.98706
曰我	-9.98856
妄想	-9.98874
氣之	-9.98963
全在	-9.9898
之身	-9.98992
此章言	-9.99017
存想	-9.99019
全眞	-9.99131
妙行	-9.99204
誑	-9.99352
大神	-9.99358
傲	-9.9943
】	-9.99435
傅	-9.99451
翔	-9.99454
苑	-9.99499
同類	-9.99501
丈	-9.99503
㤗	-9.99525
平安	-9.99551
九皇	-9.99571
與天	-9.99607
言其	-9.9962
一理	-9.99671
之誠	-9.9973
准	-9.99806
成丹	-9.99897
我身	-9.99997
焦	-10.0004
四十	-10.0013
此卽	-10.0015
欲求	-10.0017
括	-10.0019
夭	-10.0019
善人	-10.002
揮	-10.0021
蟻	-10.0021
淮	-10.0022
采	-10.0022
姿	-10.0023
丑	-10.0027
突	-10.0028
挽	-10.0028
胞	-10.0029
研	-10.0031
此爲	-10.0038
無益	-10.0039
當知	-10.0043
陰符	-10.0046
靜坐	-10.0046
在乎	-10.0048
反覆	-10.0053
其志	-10.006
東嶽	-10.0065
不二	-10.0069
與物	-10.007
則必	-10.0081
正一	-10.0082
千年	-10.0089
而來	-10.0092
八百	-10.0092
此等	-10.0094
員	-10.0097
其名	-10.0097
齡	-10.0102
殺人	-10.0103
禦	-10.0104
時有	-10.0109
延生	-10.0109
紛紛	-10.011
啼	-10.0111
當時	-10.0115
尙有	-10.0116
中正	-10.0118
不思	-10.0124
知者	-10.0129
眞元	-10.0131
神王	-10.0133
之患	-10.0136
金光	-10.0136
玉液	-10.0138
下民	-10.0145
下元	-10.0158
戊	-10.0169
眾人	-10.0175
蓮花	-10.0177
尹	-10.0179
乾元	-10.0181
黃婆	-10.0184
不著	-10.0184
太一	-10.0187
邇	-10.0193
參同契	-10.0193
伴	-10.0194
英雄	-10.0195
自此	-10.0197
守其	-10.0202
怕	-10.0209
而入	-10.021
無間	-10.0214
亦是	-10.0221
主人	-10.0221
報應	-10.0222
能生	-10.0224
六十	-10.0225
未得	-10.0237
後天之	-10.0237
不與	-10.0239
紫陽	-10.0246
入定	-10.0254
故云	-10.0262
皓	-10.0263
濤	-10.0266
薰	-10.0267
刃	-10.0268
歧	-10.0268
拙	-10.0269
而神	-10.0269
畔	-10.0269
穆	-10.0271
有何	-10.0273
須臾	-10.0274
聾	-10.0274
懿	-10.0276
日用	-10.0294
十一	-10.0294
德之	-10.0294
其用	-10.0297
之基	-10.0303
可得	-10.0312
要知	-10.0315
若夫	-10.0319
三光	-10.0331
世上	-10.0335
一竅	-10.0336
高明	-10.0347
鞭	-10.0351
斂	-10.0352
若此	-10.0353
咽	-10.0356
此中	-10.036
道場	-10.0364
中天	-10.0369
疾病	-10.0372
團	-10.0373
發明	-10.0377
五嶽	-10.0383
之主	-10.039
精氣神	-10.0407
坦	-10.0412
嗜	-10.0417
不起	-10.0418
門下	-10.0422
洞玄	-10.0423
戎	-10.0432
玉光	-10.0433
三百六十	-10.0433
恣	-10.0434
正陽	-10.0434
濫	-10.0436
所居	-10.0437
璧	-10.044
遜	-10.0441
堯舜	-10.0441
攜	-10.0445
一般	-10.0446
諦	-10.0447
化神	-10.0452
易曰	-10.0453
土地	-10.0464
無物	-10.0465
會合	-10.0472
是名	-10.0476
之路	-10.0483
道心	-10.0488
欣	-10.0493
修仙	-10.0503
吝	-10.0509
何人	-10.0509
大慈	-10.0512
靈官	-10.0513
猶有	-10.0513
陋	-10.0515
䧟	-10.0521
須要	-10.0521
膽	-10.0524
聖天尊大悲	-10.0532
皈命	-10.0532
仙人	-10.0547
靈臺	-10.0551
延年	-10.0555
而死	-10.0556
胸	-10.0558
正氣	-10.0563
交媾	-10.0564
而又	-10.0577
多少	-10.0589
窟	-10.0596
性命之	-10.0599
旗	-10.0599
恕	-10.0599
裔	-10.0604
妾	-10.0606
卯酉	-10.0609
踪	-10.0609
惕	-10.0609
號曰	-10.0613
重陽	-10.0633
者如	-10.0642
思慮	-10.0643
祖炁	-10.0646
何必	-10.0652
在此	-10.0657
有功	-10.0665
首領	-10.0671
大地	-10.0676
爐鼎	-10.0679
調和	-10.0681
佈	-10.0682
涼	-10.0683
尾閭	-10.0685
不行	-10.0686
薪	-10.069
覔	-10.069
産	-10.0697
河車	-10.0698
不止	-10.0703
也卽	-10.0703
超昇	-10.0707
一分	-10.0708
三分	-10.0709
求道	-10.071
吾之	-10.0725
久之	-10.0727
忽然	-10.0727
事事	-10.074
同於	-10.0761
非眞	-10.0761
淸明	-10.0764
萬法	-10.0768
忱	-10.0769
未見	-10.0769
故也	-10.077
羞	-10.0773
赫	-10.0776
貽	-10.0777
欵	-10.0777
侣	-10.0779
何不	-10.0784
天王	-10.0796
所在	-10.0798
與我	-10.0802
九州	-10.0829
而反	-10.0832
焉能	-10.0832
東華	-10.0835
所生	-10.0844
無定	-10.0847
暇	-10.0857
遮	-10.0863
鎻	-10.0863
蠢	-10.0863
忙	-10.0864
𦂳	-10.0864
侮	-10.0864
零	-10.0865
和合	-10.0866
敘	-10.0866
濡	-10.0868
必要	-10.087
死者	-10.0873
曰子	-10.0877
八陣	-10.0888
其理	-10.0891
堅固	-10.0896
不得不	-10.0898
之子	-10.0903
渾然	-10.0921
恍	-10.0924
貴賤	-10.0933
太守	-10.0935
簾	-10.0946
裕	-10.0946
縛	-10.0946
法身	-10.0947
鑪	-10.0947
縮	-10.0949
大乘	-10.095
無他	-10.0952
所見	-10.0954
心爲	-10.0957
造化之	-10.0964
我心	-10.0965
國之	-10.099
宸	-10.101
純陽妙道天尊	-10.1024
瑶	-10.1027
〓	-10.1035
暖	-10.1037
牙	-10.1037
遞	-10.1037
二年	-10.1038
碎	-10.1039
豪	-10.1042
乍	-10.1042
仙眞	-10.1043
餐	-10.1043
於上	-10.1045
摧	-10.1045
之可	-10.1047
大夫	-10.1053
不可得而	-10.1061
第二十	-10.1066
太玄	-10.1069
大事	-10.107
靜中	-10.1071
尙書	-10.1071
湛然	-10.1075
始於	-10.1081
矣而	-10.1085
相通	-10.1087
爲眞	-10.1093
一刻	-10.1094
南陽	-10.1097
等眾	-10.1097
入聖	-10.1101
至心皈命禮	-10.1108
化炁	-10.1118
億萬	-10.112
件	-10.1122
祟	-10.1124
涕	-10.1125
人當	-10.1125
虚	-10.1126
勘	-10.113
樣	-10.113
發生	-10.1145
百姓	-10.1146
台	-10.1152
四字	-10.1153
鍊丹	-10.1156
元陽	-10.1163
有情	-10.1166
心法	-10.1176
一朝	-10.1185
證果	-10.119
臥	-10.119
而止	-10.1193
粟	-10.1197
自古	-10.1202
聖胎	-10.1206
不染	-10.1208
之志	-10.1212
釣	-10.1213
輙	-10.1213
天根	-10.1214
銖	-10.1214
誡	-10.1215
姹女	-10.1216
効	-10.1216
攺	-10.1217
躋	-10.122
爲大	-10.122
技	-10.122
卵	-10.1222
妻子	-10.1236
威靈	-10.124
抱一	-10.1243
靈明	-10.1252
日日	-10.1261
無欲	-10.1278
天宫	-10.1286
一身之	-10.1287
之分	-10.1291
有二	-10.1292
遠矣	-10.1296
偃	-10.1301
葆	-10.1303
塡	-10.1303
或曰	-10.1304
憲	-10.1305
殫	-10.1305
戮	-10.1306
谿	-10.1306
濯	-10.1308
雌	-10.1308
第十	-10.1309
仙師	-10.1309
縁	-10.131
相生	-10.131
浴	-10.1311
諸葛亮	-10.1311
其下	-10.1312
怎	-10.1312
溥	-10.1313
臭	-10.1313
聞道	-10.1318
之位	-10.1319
此之謂	-10.1319
浩浩	-10.1331
此則	-10.1347
聖母	-10.1352
白雪	-10.1353
五行之	-10.1353
空洞	-10.1372
些	-10.1375
而化	-10.1375
自生	-10.1376
失之	-10.1376
精炁	-10.1378
心以	-10.1388
跋	-10.1392
而民	-10.1392
漿	-10.1396
倡	-10.1398
合道	-10.1399
渠	-10.1399
九年	-10.1399
洽	-10.1402
暉	-10.1403
扇	-10.1403
塔	-10.1405
形容	-10.1406
笛	-10.1407
莫非	-10.1407
鼠	-10.1407
頃刻	-10.1408
昊天	-10.1409
焚香	-10.1423
紅塵	-10.143
昭昭	-10.1432
眞文	-10.1436
未嘗不	-10.1439
境界	-10.1443
得失	-10.1452
隅	-10.1468
貢	-10.1469
未有不	-10.147
所有	-10.1477
寂滅	-10.148
其言	-10.1485
飢	-10.1488
踵	-10.1492
挾	-10.1494
藍	-10.1494
蠱	-10.1494
纒	-10.1496
寍	-10.1497
撓	-10.1497
二氣	-10.1508
呂祖	-10.151
治天下	-10.1512
歡喜	-10.1515
大哉	-10.1523
氣也	-10.1524
岱	-10.1526
道祖	-10.1528
殊不知	-10.1531
功曹	-10.1541
一二	-10.1552
自見	-10.1552
一家	-10.1555
物物	-10.1557
七寶	-10.156
不爭	-10.1561
二首	-10.1562
慨	-10.1563
之靈	-10.1568
動則	-10.1574
一句	-10.1576
針	-10.158
裁	-10.1585
陟	-10.1586
抛	-10.1587
崔	-10.1588
霽	-10.1588
屍	-10.1588
盗	-10.159
巴	-10.1592
辦	-10.1595
承誥奉行	-10.1597
乃是	-10.1598
尊神	-10.16
乎此	-10.1601
冥冥	-10.1604
第六	-10.1605
聲色	-10.1609
有象	-10.1613
持誦	-10.1616
浩	-10.1617
子之	-10.1624
曰汝	-10.1633
何物	-10.1635
虛皇	-10.1643
風雲	-10.1643
濟度	-10.1645
金玉	-10.165
者言	-10.1658
從事	-10.1673
姦	-10.1677
罕	-10.168
摇	-10.1681
爛	-10.1681
銳	-10.1682
皆得	-10.1683
敏	-10.1684
巓	-10.1685
侶	-10.1686
濃	-10.169
羣眞	-10.169
其精	-10.1696
百里	-10.1699
註曰	-10.1701
其機	-10.171
生機	-10.1713
道言	-10.1714
終不	-10.1715
太微	-10.1718
眞傳	-10.1723
道在	-10.1724
之徒	-10.173
艱	-10.173
不至	-10.173
清淨	-10.1734
在下	-10.1734
性也	-10.1735
無情	-10.1735
萬年	-10.1752
宗旨	-10.1753
自已	-10.1763
自然之	-10.1771
肥	-10.1774
遏	-10.1775
截	-10.1776
赫赫	-10.1776
黍米	-10.1778
遥	-10.1778
荆州	-10.1779
叛	-10.1779
灾	-10.178
敲	-10.1782
詭	-10.1783
郊	-10.1784
威儀	-10.1786
宗師	-10.1787
未來	-10.179
之文	-10.1795
行道	-10.1806
久矣	-10.1815
食之	-10.1817
鈞	-10.1818
念頭	-10.182
陽生	-10.1828
根本	-10.1829
壬	-10.183
靈通	-10.1838
逞	-10.1851
人欲	-10.1852
以及	-10.1852
以養	-10.1852
其體	-10.1854
自知	-10.1857
天寶	-10.186
章第二十	-10.186
無生	-10.1867
朕	-10.1868
眞常	-10.1868
無異	-10.1869
麻	-10.1872
壤	-10.1873
冺	-10.1874
疇	-10.1876
董	-10.1876
又問	-10.1879
不從	-10.1883
玄機	-10.1891
無用	-10.1893
見人	-10.1896
生者	-10.1897
二者	-10.1897
靑城山	-10.191
衣食	-10.1924
之光	-10.1939
大德	-10.1941
結胎	-10.1945
蟾	-10.1947
囉	-10.1956
將來	-10.1959
朽	-10.196
㝛	-10.1961
醜	-10.1961
取其	-10.1964
m	-10.1966
冶	-10.1966
巡	-10.1966
縷	-10.197
勵	-10.1973
徘徊	-10.1973
呵	-10.1974
元皇	-10.1974
澹	-10.1975
凡有	-10.1976
孩	-10.1979
不合	-10.1984
不畏	-10.199
快樂	-10.1993
默默	-10.1998
惟願	-10.1999
其後	-10.2003
讚曰	-10.2005
之源	-10.2005
龍門	-10.201
眞言	-10.2022
父子	-10.2032
忘其	-10.2035
點化	-10.2037
者能	-10.2039
之樂	-10.2042
之力	-10.2046
絳	-10.2049
上乘	-10.2054
靈根	-10.2054
眞水	-10.2058
蟠	-10.2059
未免	-10.2061
人不	-10.2066
畝	-10.2066
鄧	-10.2066
蔡	-10.2067
湘	-10.2068
偷	-10.2068
聊	-10.207
瓦	-10.2074
孤魂	-10.2075
生而	-10.2075
以明	-10.2077
伏羲	-10.2078
虫	-10.2078
天地間	-10.2082
善果	-10.2084
亦不能	-10.2085
心地	-10.2089
七十二	-10.2089
之前	-10.2095
上仙	-10.21
太素	-10.2103
鼎爐	-10.2105
言也	-10.211
交感	-10.2118
圓成	-10.212
而未	-10.2121
日月之	-10.2128
得聞	-10.2132
吉祥	-10.2136
復還	-10.2138
無始	-10.2146
一道	-10.2148
兔	-10.2156
止於	-10.216
不可得	-10.2163
e	-10.2164
不定	-10.2164
猜	-10.2164
嗔	-10.2165
是日	-10.2165
媒	-10.2165
呌	-10.2166
同歸	-10.2166
斧	-10.2167
頼	-10.2168
十功	-10.2169
超度	-10.2169
騐	-10.217
槖籥	-10.2171
因其	-10.2171
聳	-10.2171
彼此	-10.2178
文武	-10.2178
星辰	-10.2181
眞機	-10.2201
也惟	-10.221
丹砂	-10.2211
任其	-10.2211
可爲	-10.2228
八景	-10.224
第九	-10.2243
玄門	-10.2248
當年	-10.2254
從來	-10.2256
靜則	-10.2256
皇帝	-10.226
以自	-10.2262
/	-10.2264
s	-10.2264
笙	-10.2264
道而	-10.2264
驟	-10.2264
促	-10.2265
希夷	-10.2267
板	-10.2267
蟬	-10.2267
戚	-10.2268
創	-10.2269
貧賤	-10.227
喚	-10.2272
倦	-10.2274
不一	-10.2296
刻刻	-10.2296
此竅	-10.2296
妙如	-10.2297
不當	-10.23
者多	-10.2301
皆可	-10.2306
者當	-10.2312
出神	-10.232
不肖	-10.2332
大成	-10.2334
則不能	-10.2334
左傳	-10.2334
三昧	-10.2343
箋	-10.2343
不若	-10.2345
有志	-10.2348
何由	-10.2356
金鼎	-10.2359
未知	-10.2359
第七	-10.2361
於身	-10.2364
証	-10.2364
熖	-10.2364
弓	-10.2365
譴	-10.2366
至德	-10.2367
天曹	-10.2368
筋	-10.237
諫	-10.2372
南華	-10.2386
用心	-10.2388
長春	-10.239
水銀	-10.2393
陽氣	-10.2394
三陽	-10.2394
九霄	-10.2396
下有	-10.2398
虛靈	-10.2398
相應	-10.2404
二月	-10.2411
還虛	-10.2414
之報	-10.2416
淸濁	-10.2417
以待	-10.2435
杳冥	-10.2435
萬事	-10.2435
景象	-10.2442
南極	-10.2443
玄功	-10.2451
𡻕月	-10.2451
可不	-10.2451
峽	-10.2456
軸	-10.2457
性光	-10.2457
叟	-10.2458
黍	-10.2461
穩	-10.2463
兎	-10.2465
亢	-10.2467
貸	-10.247
眞道	-10.247
生萬物	-10.2473
乎天	-10.2473
受持	-10.2474
譚	-10.2475
轍	-10.2477
供養	-10.2489
教主	-10.2503
和平	-10.2504
之義也	-10.2504
謹疏	-10.2506
無疆	-10.2514
三聖	-10.252
從何	-10.252
正覺	-10.2524
養生	-10.2524
丈夫	-10.2531
不仁	-10.2533
胸中	-10.2534
交會	-10.2537
諸葛武侯	-10.2541
所當	-10.2545
宛	-10.2545
則是	-10.2554
及至	-10.2558
施行	-10.2561
與天地	-10.2566
怖	-10.2568
皷	-10.257
沛	-10.2572
爲本	-10.2572
狗	-10.2574
相合	-10.2575
滑	-10.2576
戌	-10.2576
通靈	-10.2577
値	-10.2582
鴻濛	-10.2583
尋常	-10.2586
無限	-10.2595
先天一炁	-10.2597
解厄	-10.26
不顧	-10.2604
和氣	-10.2609
方士	-10.261
日中	-10.2611
隨之	-10.2613
第二百	-10.2616
千秋	-10.2619
天尊大悲正	-10.2621
俄	-10.2623
大道之	-10.2634
高下	-10.2644
冬至	-10.2646
人世	-10.2648
道無	-10.2657
頤	-10.2663
故以	-10.2672
未可	-10.2674
悞	-10.2674
搜	-10.2675
迫	-10.2675
第一百	-10.2675
欠	-10.2677
燄	-10.268
腐	-10.268
茫茫	-10.2686
眞人云	-10.2697
門戸	-10.2702
恭敬	-10.2703
所得	-10.2706
元始天王曰	-10.2707
在外	-10.2707
妄念	-10.271
建醮	-10.2711
天中	-10.2717
之方	-10.272
有不	-10.2724
守中	-10.2724
却	-10.2735
不昧	-10.2741
故知	-10.2744
眾眞總監天尊	-10.2747
無言	-10.2752
直指	-10.2756
不測	-10.2756
諸侯	-10.2758
知有	-10.2763
級	-10.2769
外道	-10.2772
寬	-10.2777
甲子	-10.2777
泰山	-10.278
柯	-10.2781
縈	-10.2781
圭	-10.2784
高上	-10.2784
喬	-10.2785
護持	-10.2785
陷	-10.2785
竿	-10.2786
償	-10.2786
賞罰	-10.2786
入門	-10.2787
歸一	-10.2787
保命	-10.2787
牆	-10.2791
不得已	-10.2799
縱橫	-10.2801
根源	-10.2803
於下	-10.2803
在内	-10.2807
華池	-10.2813
無爲之	-10.2818
久久	-10.2822
之水	-10.2825
伏以	-10.2829
或以	-10.283
至大	-10.2831
千載	-10.2832
七元	-10.2838
阜	-10.284
仙官	-10.2856
相交	-10.2861
姓名	-10.2863
玄珠	-10.2867
燦	-10.2869
見聞	-10.287
以應	-10.288
攘	-10.2881
柏	-10.2882
帛	-10.2883
心性	-10.2883
隸	-10.2887
煮	-10.2887
迓	-10.2888
罄	-10.2889
詎	-10.2889
溝	-10.2889
謹牒	-10.2889
誌	-10.289
街	-10.289
許多	-10.2891
慰	-10.2891
神君	-10.2891
雕	-10.2892
外物	-10.2893
摘	-10.2893
泊	-10.2894
催	-10.2895
有人	-10.2895
靄	-10.2895
翰	-10.2898
流水	-10.291
生身	-10.291
山下	-10.2914
應化	-10.2915
五月	-10.2916
守一	-10.2929
道本	-10.2937
太元	-10.294
恢	-10.2942
不通	-10.2943
洞明	-10.2953
此亦	-10.296
人民	-10.2961
干冒	-10.2967
難言	-10.2973
刋	-10.2974
今人	-10.2974
以心	-10.2979
生神	-10.2987
緯	-10.2988
桓	-10.2988
復圭子曰	-10.299
憎	-10.2991
慈航	-10.2993
濶	-10.2993
第八	-10.2994
價	-10.2995
灼	-10.2997
人天	-10.2998
鎖	-10.2999
桐	-10.2999
膝	-10.2999
其子	-10.3
煎	-10.3
募	-10.3003
趾	-10.3005
丹書	-10.3005
也聖人	-10.3006
明堂	-10.301
長生不死	-10.3014
難以	-10.3023
月華	-10.3025
神神	-10.3026
造物	-10.3026
治國	-10.3027
靈文	-10.3029
也言	-10.3036
消滅	-10.3045
七竅	-10.3048
曹官	-10.3055
是眞	-10.3063
洛	-10.3065
而况	-10.3081
樵	-10.3091
久而	-10.3093
十餘	-10.3094
蹇	-10.3095
不應	-10.3096
罹	-10.3101
成形	-10.3102
淑	-10.3102
壓	-10.3103
言曰	-10.3104
安樂	-10.3105
虹	-10.3108
欄	-10.3109
道天尊大悲	-10.311
思之	-10.3113
神也	-10.3118
之秘	-10.312
形骸	-10.3136
豈可	-10.3137
卽爲	-10.3151
不難	-10.3155
必不	-10.3164
一步	-10.3171
何况	-10.3172
人亦	-10.3173
而起	-10.3174
十九	-10.3175
眞詮	-10.3179
也是	-10.318
之宗	-10.3184
誰能	-10.3189
有時	-10.319
道成	-10.3195
難得	-10.3202
精進	-10.3203
今之	-10.3205
賀	-10.3209
何能	-10.3209
囚	-10.3211
堆	-10.3212
囑	-10.3212
膚	-10.3214
媚	-10.3214
狐	-10.3214
虐	-10.3214
邃	-10.3214
禾	-10.3215
譏	-10.3215
梓	-10.3218
也凡	-10.3221
受生	-10.3222
擕	-10.3222
宣揚	-10.3225
蕩蕩	-10.3225
齋戒	-10.3228
之勢	-10.3242
至聖	-10.3252
流通	-10.3256
天醫	-10.3267
一味	-10.3268
各各	-10.3268
其意	-10.3278
仁慈	-10.3283
九炁	-10.329
妙理	-10.3292
以今	-10.3292
也是以	-10.3299
若非	-10.33
蛟	-10.33
塵世	-10.3301
無過	-10.3302
立命	-10.3303
存焉	-10.3309
而天下	-10.3312
濟世	-10.3312
而言之	-10.3314
橘	-10.3314
懲	-10.3318
溟	-10.3319
其根	-10.3321
拾	-10.3323
藏於	-10.3323
.	-10.3327
奕	-10.3327
汪	-10.333
燥	-10.333
駭	-10.3331
柴	-10.3331
藩	-10.3333
眞宰	-10.3347
上古	-10.3348
風吹	-10.3356
求其	-10.3361
命門	-10.3376
正是	-10.3378
諸仙	-10.3383
未盡	-10.3383
金丹之	-10.3384
八月	-10.3384
存亡	-10.339
孔子曰	-10.3393
怡	-10.3394
後來	-10.3397
其光	-10.34
凝結	-10.3401
二人	-10.3401
杳	-10.3401
羣仙	-10.341
調息	-10.3411
非我	-10.3414
者又	-10.3414
晶	-10.3416
有緣	-10.3417
森	-10.3419
翕	-10.343
養神	-10.3431
竝	-10.3432
何有	-10.3434
刦	-10.3434
倪	-10.3437
袖	-10.3438
竇	-10.3439
有物	-10.344
化度	-10.344
虗	-10.3441
隣	-10.3442
用事	-10.3444
憾	-10.3445
養之	-10.3446
道以	-10.3447
眞武	-10.3448
大人	-10.3462
故謂之	-10.3475
天堂	-10.3477
三尸	-10.3479
斤	-10.3482
人不知	-10.3487
頌曰	-10.3492
不孝	-10.3496
玄中	-10.3498
何事	-10.3499
不虛	-10.3503
日光	-10.3503
大抵	-10.3506
所以爲	-10.3517
三途	-10.3523
道經	-10.3525
之書	-10.3525
無端	-10.3527
虛心	-10.353
無妄	-10.3535
返還	-10.3536
因以	-10.354
署	-10.3548
婦人	-10.3549
敎	-10.355
拳	-10.355
勒	-10.3551
不遠	-10.3555
氤氲	-10.3556
觴	-10.3558
忍辱	-10.3558
樞機	-10.3563
欲其	-10.3575
妙有	-10.3576
靑龍	-10.3579
脫胎	-10.3579
祈恩	-10.3586
道家	-10.3587
等因	-10.3588
者是也	-10.3594
勉之	-10.3605
不見其	-10.3608
於我	-10.3609
時而	-10.3611
也但	-10.3612
一段	-10.3613
變爲	-10.3616
學士	-10.3617
水府	-10.3617
德行	-10.362
種子	-10.3636
家人	-10.3653
血湖	-10.3656
卽所謂	-10.366
蝗	-10.3663
汗	-10.3667
挺	-10.3668
煖	-10.3668
榻	-10.367
搆	-10.3672
夜光	-10.3672
不窮	-10.3675
戍	-10.368
襟	-10.368
陽之	-10.3683
人之心	-10.3691
心無	-10.3691
也是故	-10.3694
不落	-10.37
煉已	-10.3705
桃花	-10.371
▁大悲	-10.3711
是一	-10.3711
面目	-10.3714
始得	-10.3724
用功	-10.3729
再拜	-10.3735
不分	-10.3736
身外	-10.3737
祚	-10.3739
戒者不得	-10.3739
所能	-10.3744
投誠	-10.3746
全體	-10.3759
衢	-10.377
之形	-10.3771
眞金	-10.3773
從心	-10.3775
蟄	-10.3775
能使	-10.3778
無一	-10.3779
閭	-10.378
剪	-10.3781
匿	-10.3782
氣氣	-10.3782
勃	-10.3783
叠	-10.3783
老人	-10.3784
黄	-10.3784
訛	-10.3786
此書	-10.3787
沿	-10.3787
粹	-10.3788
麥	-10.3789
瑤池	-10.379
志心皈命禮	-10.3791
天然	-10.3796
仙子	-10.3799
生焉	-10.3808
同一	-10.3812
南斗	-10.3813
益州	-10.3818
之至也	-10.3821
二子	-10.3822
自來	-10.3825
有言	-10.3828
之祖	-10.3829
消除	-10.3838
有生	-10.3839
大化	-10.384
張三丰	-10.3842
不亦	-10.3842
血氣	-10.3849
不能自	-10.3851
用兵	-10.3856
不知所	-10.3857
知道	-10.3858
之工	-10.3863
向上	-10.3863
愚人	-10.3871
儼	-10.3875
照臨	-10.388
自能	-10.3882
淸風	-10.3887
爐火	-10.3887
般	-10.3889
有異	-10.389
昨	-10.389
襄	-10.3892
上章	-10.3893
跪	-10.3894
神天尊大悲	-10.3894
如斯	-10.3895
不滅	-10.3895
惻	-10.3896
佞	-10.3896
總之	-10.3896
五千	-10.3898
薰蒸	-10.3899
炳	-10.39
喉	-10.39
胃	-10.39
身尊玉虛玄上帝	-10.3901
嫁	-10.3902
具足	-10.3905
邁	-10.3905
圃	-10.3907
而知	-10.3908
之聲	-10.3909
眞人曰	-10.391
白帝	-10.3913
山在	-10.3916
靈符	-10.3919
漢中	-10.3921
古云	-10.3923
至妙	-10.3925
此二	-10.3925
所說	-10.3929
指示	-10.3942
福天尊大悲	-10.3943
之福	-10.3944
恭惟	-10.3945
復有	-10.3945
元年	-10.3947
婆	-10.3955
乎哉	-10.3955
無由	-10.396
亦猶	-10.3967
其上	-10.3982
色相	-10.3984
姥	-10.3984
漸漸	-10.3987
書曰	-10.399
修德	-10.3991
不惟	-10.3999
自家	-10.4004
孟子	-10.4009
天尊大悲聖	-10.4009
危險	-10.4011
躡	-10.4014
𨚑	-10.4014
咏	-10.4015
臘	-10.4016
措	-10.4018
薛	-10.402
祐	-10.4021
鋪	-10.4021
投詞	-10.4021
腦	-10.4021
琢	-10.4021
儲	-10.4022
剌	-10.4022
莊嚴	-10.4023
運轉	-10.4024
艷	-10.4024
一陰一陽	-10.4025
挂	-10.4026
不朽	-10.403
已成	-10.4036
涯	-10.4039
塵寰	-10.4043
也且	-10.4044
不變	-10.4051
君子之	-10.4067
義也	-10.4071
玄微	-10.4073
也三	-10.4077
煉精	-10.4077
皆以	-10.4077
衣冠	-10.4078
後之	-10.4083
內	-10.4084
金丹大道	-10.4085
也如	-10.4089
靈妙	-10.4092
帝一	-10.4095
乃知	-10.4099
懺	-10.4101
則曰	-10.4101
吿下	-10.4102
爲體	-10.4107
善功	-10.4107
自謂	-10.4116
茫	-10.4119
簿	-10.4119
南宫	-10.4121
乃爲	-10.4123
體用	-10.4123
甚矣	-10.4125
狼	-10.4126
七情	-10.4131
擲	-10.4133
匠	-10.4135
裳	-10.4135
七十	-10.4136
釋迦	-10.4137
邈	-10.4138
績	-10.4139
之交	-10.4139
琅	-10.414
乳哺	-10.414
牖	-10.414
闇	-10.414
牀	-10.4141
捷	-10.4142
眞種	-10.4142
睹	-10.4143
唾	-10.4143
龎	-10.4144
叱	-10.4145
九九	-10.4145
衲	-10.4145
蘆	-10.4145
成佛	-10.4147
問之	-10.4154
也哉	-10.4154
猶未	-10.4154
▁重刋道藏輯要	-10.4155
修奉	-10.4159
鍾離	-10.416
而可	-10.4162
保安	-10.4164
則能	-10.4164
亡魂	-10.4165
不須	-10.4165
逮	-10.4165
旣已	-10.4166
梅花	-10.4166
谷神	-10.4168
還元	-10.4169
之流	-10.4172
天光	-10.4175
於地	-10.4177
尙未	-10.4178
欲以	-10.4181
平等	-10.4182
數百	-10.4182
生滅	-10.4189
國家	-10.4191
中藏	-10.4202
粒	-10.4203
之餘	-10.4217
朝元	-10.4222
訖	-10.4228
觀音	-10.4235
從而	-10.4237
去其	-10.4241
莫若	-10.4244
睿	-10.4253
出離	-10.4257
療	-10.4258
劵	-10.4261
頽	-10.4262
骨肉	-10.4263
練	-10.4264
乩	-10.4264
笠	-10.4264
歇	-10.4264
傑	-10.4264
傳道	-10.4266
籌	-10.4266
濱	-10.4266
不祥	-10.4269
孝子	-10.4269
戒者當念	-10.4269
之勝	-10.4272
不解	-10.4273
旡咎	-10.4276
陽精	-10.4278
隨時	-10.4279
普濟	-10.428
渙	-10.4281
他日	-10.4282
和天尊大悲	-10.4282
今古	-10.4283
黃冠	-10.4285
法筵	-10.4286
河圖	-10.4291
惟恐	-10.4292
洞庭	-10.4293
慈尊	-10.4294
復生	-10.4295
何異	-10.4296
行者	-10.4298
廓	-10.4301
猶如	-10.4307
三田	-10.4308
合於	-10.4309
肖	-10.4309
有感	-10.4312
千百	-10.4312
始知	-10.4328
悟道	-10.4328
合天	-10.4328
而欲	-10.4334
利害	-10.4339
分别	-10.4348
不食	-10.4358
而不得	-10.436
虛而	-10.4361
雖曰	-10.4362
而巳	-10.4367
之使	-10.4369
本是	-10.437
其中有	-10.437
旣得	-10.4373
之才	-10.4374
皆爲	-10.4374
萬緣	-10.4377
婬	-10.4378
江河	-10.4379
其生	-10.4379
化太淸道德大天尊	-10.438
超凡入聖	-10.4382
噓	-10.4383
乏	-10.4384
藝	-10.4386
昆	-10.4386
賈	-10.4386
豕	-10.4387
另	-10.4387
磬	-10.4388
毀	-10.4388
而進	-10.4388
詰	-10.4389
袁	-10.439
正位	-10.4391
墻	-10.4393
簇	-10.4395
名之曰	-10.4396
玄宗	-10.4398
上文	-10.4399
五雷	-10.4401
一次	-10.4402
大天君	-10.4405
洗心	-10.441
江湖	-10.4412
大千	-10.4413
充滿	-10.4418
不使	-10.4418
六月	-10.442
玄都	-10.4425
百餘	-10.4428
六十四	-10.4434
之說也	-10.444
太極之	-10.4443
清靜	-10.4453
二曰	-10.4454
一卷	-10.4458
若以	-10.4464
其一	-10.4466
無憂	-10.4469
知止	-10.447
眞汞	-10.4471
爲一過	-10.4473
神丹	-10.4475
金花	-10.4476
子弟	-10.4479
證道	-10.4482
王者	-10.4485
薩	-10.4486
丙	-10.4486
作爲	-10.4488
豈無	-10.4491
形象	-10.4493
此處	-10.4496
大士	-10.4496
證盟	-10.4498
取之	-10.4498
度天尊大悲	-10.4501
不爽	-10.4501
於天下	-10.4502
之災	-10.4502
羲	-10.4508
在其中	-10.4509
恰	-10.4509
獵	-10.451
核	-10.4511
棺	-10.4511
幕	-10.4511
所爲	-10.4511
絃	-10.4513
油	-10.4513
析	-10.4514
一寸	-10.4514
黜	-10.4515
澈	-10.4516
這個	-10.4521
朱雀	-10.4522
互相	-10.4523
劫運	-10.4527
不安	-10.4528
三台	-10.4534
以神	-10.4535
長嘯	-10.4535
者謂	-10.4536
何故	-10.4536
三代	-10.4538
又名	-10.4558
飛仙	-10.4559
終無	-10.4561
天皇	-10.4563
通天	-10.4571
進火	-10.4571
今生	-10.4572
無涯	-10.4576
子時	-10.4576
眞宗	-10.4577
大將軍	-10.4589
固有	-10.4597
豁	-10.4605
黃道	-10.4607
柄	-10.4609
太空	-10.4609
不着	-10.4617
有聲	-10.4619
道德經	-10.4622
栽	-10.463
自無	-10.4632
課	-10.4634
修齋	-10.4635
蹤	-10.4635
簫	-10.4636
綴	-10.4637
白鶴	-10.4637
晏	-10.4638
妙經	-10.4639
亦如	-10.464
只因	-10.4642
諸神	-10.4645
中和	-10.4647
聖眾	-10.4652
胞胎	-10.4653
於前	-10.4654
此節言	-10.4657
下方	-10.4658
度厄	-10.466
碧落	-10.4661
何時	-10.4661
之時也	-10.4672
則氣	-10.4678
之期	-10.4678
嗟乎	-10.468
之狀	-10.468
孰爲	-10.4683
由於	-10.469
日夜	-10.4694
至理	-10.4694
受其	-10.4699
何嘗	-10.47
浮雲	-10.47
等魂	-10.4706
一部	-10.4707
正法	-10.4715
一動	-10.4715
者蓋	-10.4716
釋氏	-10.4717
得遇	-10.4719
不知有	-10.472
陰氣	-10.4721
以靜	-10.4722
骸	-10.4722
春風	-10.4729
平生	-10.4733
之意也	-10.4736
孰能	-10.4739
降伏	-10.475
而行之	-10.4753
誠心	-10.4754
凡情	-10.4756
嫩	-10.4757
呪	-10.4757
恪	-10.4757
陽炁	-10.4758
煉神	-10.4761
乃能	-10.4761
輯	-10.4763
淩	-10.4765
綵	-10.4765
懴悔	-10.4766
讐	-10.4767
原是	-10.4767
疲	-10.4767
歸根復命	-10.4767
紹	-10.4768
膠	-10.4768
眷屬	-10.477
料	-10.4772
學道之士	-10.4773
禽獸	-10.4773
誰知	-10.4773
猷	-10.4776
涵養	-10.4776
鈎	-10.4776
多言	-10.4782
莫如	-10.4783
卽如	-10.4784
使其	-10.4785
解釋	-10.4788
亦然	-10.4794
成聖	-10.4795
第三十	-10.4795
無我	-10.4798
不正	-10.4801
正天尊大悲	-10.4804
君子以	-10.4804
三塗	-10.4804
光照	-10.4811
唵	-10.4812
白日	-10.4815
二句	-10.4825
最上	-10.4829
下界	-10.4832
眞師	-10.4833
容易	-10.4835
之正	-10.4837
不負	-10.4838
覺天尊大悲	-10.4843
感通	-10.4846
之尊	-10.4848
武夷	-10.4856
風雷	-10.4858
無爲而	-10.4861
跳	-10.4864
太子	-10.4868
應之	-10.487
惟其	-10.4872
不堪	-10.4874
太白	-10.4877
易之	-10.4878
一百	-10.4879
殺機	-10.4882
鉢	-10.4884
貲	-10.4887
便有	-10.4892
復命	-10.4892
盼	-10.4894
積功	-10.4895
輦	-10.4897
曩	-10.4898
倖	-10.4899
宦	-10.4901
上士	-10.4902
籬	-10.4902
禮拜	-10.4904
長夜	-10.4904
庵	-10.4904
德也	-10.4905
心者	-10.4905
帝王	-10.4912
覆載	-10.4916
參同	-10.4918
大周天	-10.492
寂然	-10.4925
太無	-10.4929
三炁	-10.4934
玄德	-10.4938
主之	-10.4945
夫妻	-10.4948
真官	-10.4959
明道	-10.4963
之儀	-10.4969
指點	-10.497
古聖	-10.4971
亦云	-10.4971
四月	-10.4972
番	-10.4974
不失其	-10.4979
者自	-10.4979
鈴	-10.4981
不利	-10.4988
六通	-10.4991
必以	-10.4992
默運	-10.4996
債	-10.4997
謂其	-10.5001
化成	-10.5001
善者	-10.5002
忠信	-10.5003
洞眞	-10.5005
實爲	-10.5006
天罡	-10.5014
發於	-10.5018
貯	-10.5019
亷	-10.5019
旌	-10.502
煉成	-10.5021
廷	-10.5023
棟	-10.5023
斥	-10.5024
捲	-10.5024
隱顯	-10.5025
纎	-10.5025
亟	-10.5026
毓	-10.5027
裡	-10.5027
天神	-10.5027
匝	-10.5028
無功	-10.5029
而忘	-10.5029
擅	-10.5032
旣有	-10.5036
物而	-10.504
眞王	-10.5042
三洞	-10.5053
五官	-10.5057
皆從	-10.5061
善事	-10.5062
保護	-10.5068
厯劫	-10.5071
力行	-10.5076
流傳	-10.5078
婦女	-10.5079
江南	-10.5079
廬山	-10.5079
救人	-10.5083
必至	-10.5084
者或	-10.5085
萬聖	-10.5086
有五	-10.5088
兩字	-10.5088
惡業	-10.5089
不宜	-10.5091
然也	-10.5094
放下	-10.51
永無	-10.5108
可惜	-10.5119
語言	-10.5125
香火	-10.5126
亦曰	-10.5135
見於	-10.5136
未至	-10.5138
太古	-10.5139
戒者	-10.514
綸	-10.5141
教之	-10.5141
知識	-10.5145
勾	-10.5146
痴	-10.5146
不作	-10.5146
壽	-10.5149
慚	-10.5158
頂上	-10.5158
起於	-10.516
叶	-10.5161
堤	-10.5161
修心	-10.5161
圓通自在天尊	-10.5161
炬	-10.5161
到處	-10.5161
闔闢	-10.5163
居士	-10.5166
岐	-10.5166
檀	-10.5167
優游	-10.5167
明矣	-10.5168
項	-10.5168
喧	-10.5168
安於	-10.5168
常道	-10.517
不存	-10.5176
是道	-10.5176
俯仰	-10.5176
生物	-10.5177
譬之	-10.5177
儒者	-10.5181
大覺	-10.5182
陰神	-10.5186
命之	-10.5189
斗姥	-10.5191
護法	-10.5196
授以	-10.5201
梵炁	-10.5204
則又	-10.5206
觀心	-10.5207
紫雲	-10.5209
結丹	-10.5209
靜定	-10.521
覺悟	-10.5213
不住	-10.5214
媾	-10.5216
火之	-10.5216
一番	-10.5224
佛法	-10.5224
眞修	-10.5227
天符	-10.5228
之難	-10.5236
福地	-10.5241
若人	-10.5242
方爲	-10.5244
超脫	-10.5246
在世	-10.5252
便可	-10.5254
生平	-10.5256
識得	-10.5258
智者	-10.5265
者不可	-10.5268
靈應	-10.5271
往而	-10.5277
如是則	-10.5277
衛	-10.5286
脊	-10.5286
圈	-10.5287
渴	-10.529
倐	-10.529
曽	-10.5292
恬淡	-10.5292
擔	-10.5293
安有	-10.5293
揣	-10.5293
諒	-10.5294
僚	-10.5294
額	-10.5294
鎔	-10.5294
直上	-10.5295
爍	-10.5296
不可思議	-10.5297
二分	-10.5297
炫	-10.5298
酣	-10.5299
韋	-10.5299
晦朔	-10.53
塊	-10.5301
苔	-10.5303
扉	-10.5304
而退	-10.5308
救度	-10.531
藥生	-10.5315
死而	-10.5318
寂寂	-10.5321
愆尤	-10.5324
對曰	-10.5325
烹煉	-10.5328
爲道	-10.5328
地仙	-10.5328
明珠	-10.5333
非道	-10.5335
皆言	-10.5338
神人	-10.5343
不亂	-10.5348
本原	-10.5351
初生	-10.5354
中庸	-10.5355
洞中	-10.5357
其能	-10.5358
元帥地	-10.5359
諸眞	-10.5366
存乎	-10.5372
爲陰	-10.5373
太初	-10.538
天地萬物	-10.538
莫知其	-10.538
可以爲	-10.5382
本乎	-10.5382
有孚	-10.5383
遊於	-10.5383
安知	-10.5384
蕃	-10.5384
歸來	-10.5386
吁	-10.5387
化育	-10.5395
究其	-10.5395
火火	-10.5396
聽之	-10.5401
非人	-10.541
嶽府	-10.5418
斯人	-10.542
凈	-10.5423
唎	-10.5423
於今	-10.5424
寥	-10.5425
霹𩆝	-10.5427
溯	-10.5431
障礙	-10.5431
箭	-10.5431
芥	-10.5433
攢	-10.5433
無數	-10.5433
彙	-10.5434
證道果以	-10.5435
大功大行	-10.5436
涸	-10.5436
潰	-10.5436
鹽	-10.5436
苦惱	-10.5437
不可測	-10.5438
關鍵	-10.5438
扁	-10.5443
朝夕	-10.5453
而終	-10.5456
陽也	-10.546
之教	-10.5462
殺之	-10.5468
不得其	-10.5469
長久	-10.5469
仙經	-10.5469
今世	-10.547
天尊大悲神	-10.547
其所以	-10.5478
存神	-10.5483
入室	-10.5484
終南	-10.5493
生民	-10.5495
故不	-10.5511
前生	-10.5515
而不爲	-10.5519
形神	-10.5521
不傳	-10.5527
經曰	-10.553
手足	-10.553
聖師	-10.5532
者謂之	-10.5535
明心	-10.5538
爲陽	-10.5545
島	-10.5547
不厭	-10.5548
開度	-10.5549
匡	-10.5549
之宫	-10.555
是知	-10.5551
復其	-10.5553
修丹	-10.5554
眞知	-10.5557
之吉	-10.5559
其餘	-10.5564
峭	-10.5564
瓶	-10.5566
窔	-10.5568
寐	-10.5568
脚	-10.5569
銜	-10.5569
矩	-10.5571
控	-10.5573
弭	-10.5573
寇	-10.5574
三界無量諸天始盤固於虛皇乃化生於	-10.5574
悟眞	-10.5574
升騰至聖至神現身名而救度是誠天	-10.5574
闕慶普塵寰朝儀居次四之班鸞嘉祉遍	-10.5575
藻	-10.5575
大千之法界慈度尋聲而救苦益開利	-10.5575
𣺌𣺌	-10.5576
曳	-10.5578
天德	-10.5578
一定	-10.5578
浦	-10.5579
憤	-10.5579
九重	-10.558
鵲橋	-10.558
知覺	-10.5583
勉强	-10.5583
孫權	-10.5584
天庭	-10.5585
運動	-10.5586
刀兵	-10.5589
信之	-10.559
金蓮	-10.5597
矣若	-10.5606
爐中	-10.5606
者此也	-10.5607
豁然	-10.5607
中宮	-10.561
道道	-10.5621
愼之	-10.5623
不由	-10.5631
而弗	-10.5639
上達	-10.5642
陽火	-10.5646
此又	-10.5652
最難	-10.5657
別有	-10.5661
過此	-10.5664
五里	-10.5664
事業	-10.5676
同人	-10.5678
尸解	-10.5679
認得	-10.5679
入山	-10.5695
轄	-10.5704
則亦	-10.5706
同此	-10.5707
白玉蟾	-10.5709
𢆯	-10.571
悠悠	-10.571
侈	-10.571
超出	-10.5711
咨	-10.5711
毅	-10.5712
沉淪	-10.5712
尉	-10.5712
距	-10.5713
炊	-10.5713
湼槃	-10.5714
蘋	-10.5714
以至於	-10.5715
邊豈名言之可述大悲大願大聖大	-10.5715
甕	-10.5715
殞	-10.5716
世有	-10.5716
恩人人佩澤大悲大願大聖大慈玉經啟	-10.5717
栢	-10.5718
歸去	-10.5718
迺	-10.572
鈍	-10.5724
輕重	-10.5725
龍蛇	-10.5729
利天尊大悲	-10.5729
孚佑帝君曰	-10.5733
亦能	-10.5733
只有	-10.5738
不但	-10.5741
律令	-10.5742
爲惡	-10.5742
内藥	-10.5746
眞陰	-10.5746
先須	-10.5749
八方	-10.5749
甚多	-10.5749
不遇	-10.5749
諸大	-10.575
聖德	-10.575
必然	-10.5753
者何也	-10.5758
處也	-10.5765
拔度	-10.5766
通玄	-10.5773
吾言	-10.5776
得藥	-10.5776
光陰	-10.5781
八十	-10.579
立功	-10.5792
常住	-10.5793
不竭	-10.5795
直論	-10.5796
性之	-10.58
者不能	-10.5801
亦當	-10.5802
五龍	-10.5804
六年	-10.5805
不齊	-10.5805
體道	-10.5806
十日	-10.5809
世世	-10.5809
仲尼	-10.5812
每日	-10.5814
一團	-10.5817
則民	-10.582
淨明	-10.5821
之權	-10.5824
流珠	-10.5831
東極	-10.5842
又如	-10.5842
此正	-10.5843
風月	-10.5846
誨	-10.5846
韜	-10.5848
受命	-10.5848
一功	-10.5849
翊	-10.5849
褒	-10.5849
其時	-10.585
則心	-10.5851
繡	-10.5853
汚	-10.5854
酷	-10.5855
莽	-10.5855
軌	-10.5856
諧	-10.5856
裝	-10.5857
豆	-10.5858
授亦本靈根設普濟之無	-10.5858
疊	-10.5859
馮	-10.5859
繪	-10.5859
無餘	-10.5859
秩	-10.586
搏	-10.5862
何其	-10.5862
弔	-10.5863
莖	-10.5863
囂	-10.5864
戊己	-10.5865
光華	-10.5867
菊	-10.5868
嚥	-10.5868
黃籙	-10.5878
保其	-10.5879
火龍	-10.5883
雨露	-10.5884
朗朗	-10.5884
吉象曰	-10.5885
照耀	-10.5886
事也	-10.5887
一輪	-10.5888
飛騰	-10.5889
而作	-10.5889
達天尊大悲	-10.5892
三十二	-10.59
亦何	-10.5902
祥光	-10.5902
外藥	-10.5903
北海	-10.5911
其義	-10.5912
依然	-10.5913
盈虛	-10.5915
地府	-10.5915
少陽	-10.5921
於斯	-10.5922
常在	-10.5924
利貞	-10.5934
誦之	-10.5934
機關	-10.5936
可憐	-10.5936
莫可	-10.5941
大願	-10.5943
師曰	-10.5951
一世	-10.5953
異名	-10.5953
千餘	-10.5964
然此	-10.5967
皆因	-10.5976
矣吾	-10.5976
皇君	-10.598
不少	-10.5989
洒	-10.5992
臧	-10.5996
鷄	-10.5997
𡚱	-10.5998
江海	-10.5999
苖	-10.5999
醕	-10.6
盪	-10.6001
戕	-10.6001
迭	-10.6001
曡	-10.6002
簷	-10.6002
訂	-10.6002
口中	-10.6006
自然而然	-10.6009
朝廷	-10.6009
寶誥志心皈命禮	-10.6012
道化	-10.6012
可勝	-10.6013
岩	-10.6013
去來	-10.6013
天運年月日告下奉行便宜科事	-10.6014
相見	-10.6014
䇿	-10.6015
乃至	-10.6015
三曰	-10.602
來往	-10.6023
天樞	-10.6023
人倫	-10.6025
不輕	-10.6026
所不能	-10.603
案主者嶽府管	-10.603
貴乎	-10.6033
濟人	-10.6035
須至	-10.6035
積德	-10.6037
悉皆	-10.6044
六賊	-10.6046
神全	-10.6055
於後	-10.6055
虛中	-10.6055
有定	-10.6057
或問	-10.6058
今則	-10.6061
從容	-10.6062
頂門	-10.6065
行也	-10.6066
有知	-10.6072
時人	-10.6072
精炁神	-10.6074
功天尊大悲	-10.6075
而動	-10.6076
皆非	-10.6078
赤炁	-10.6081
故名	-10.6081
進士	-10.6088
七月	-10.6091
章第三十	-10.6099
後主	-10.6104
不異	-10.6109
之所謂	-10.6113
又爲	-10.6115
者先	-10.6116
地之	-10.612
寶月	-10.6125
功過	-10.6129
眞官	-10.613
周公	-10.6137
數也	-10.6138
也至於	-10.6139
更生永命天尊	-10.6139
乎故	-10.6141
歆	-10.6142
腥	-10.6143
蛻	-10.6143
瑟	-10.6143
懽	-10.6144
糾	-10.6144
軒轅	-10.6145
不去	-10.6145
弼	-10.6146
其家	-10.6146
辜	-10.6147
暌	-10.6151
四肢	-10.6151
丹元	-10.6151
應物	-10.6151
蘿	-10.6151
婚	-10.6151
不斷	-10.6153
是何	-10.6155
股	-10.6156
天闕	-10.6157
由我	-10.6158
未發	-10.6159
塵緣	-10.616
全無	-10.6162
掃除	-10.6166
心治	-10.617
主張	-10.6171
亡人	-10.6178
古仙	-10.6178
戊已	-10.6183
俱是	-10.6194
可與	-10.6195
孰知	-10.6199
至于	-10.6202
者雖	-10.6203
當以	-10.6209
之喻	-10.621
六陰	-10.6224
歸于	-10.6227
仞	-10.6229
百過	-10.6229
之變	-10.6234
返照	-10.6235
生殺	-10.6237
大義	-10.6237
諸佛	-10.624
根基	-10.6244
也彼	-10.6248
都是	-10.6249
赤文	-10.6253
未生	-10.6254
氣化	-10.6255
必得	-10.6256
惟此	-10.6257
于是	-10.6258
明年	-10.6258
一意	-10.626
言乎	-10.626
字字	-10.6262
運化	-10.6266
本壇	-10.6266
其始	-10.6272
不假	-10.6273
三家	-10.6274
則生	-10.6276
道妙	-10.628
爲一功	-10.628
六道	-10.6281
𥳑	-10.6285
奴	-10.6287
窒	-10.6289
弛	-10.629
内觀	-10.6291
醴	-10.6292
洵	-10.6292
狹	-10.6293
遶	-10.6294
奉行科事	-10.6294
寂然不動	-10.6295
星君天	-10.6295
臟腑	-10.6297
緘	-10.6297
大有	-10.6298
蔓	-10.6298
潘	-10.63
渭	-10.63
鋤	-10.63
盜賊	-10.63
屑	-10.6301
逾	-10.6302
羡	-10.6302
秘密	-10.6306
彖曰	-10.6307
琳	-10.6312
曹操	-10.6312
玉樞	-10.6313
喪其	-10.6314
者不知	-10.6314
理也	-10.6316
一貫	-10.6318
數年	-10.6318
交姤	-10.6319
息息	-10.632
何在	-10.632
吾師	-10.6321
使民	-10.6328
之所由	-10.6329
亦不可	-10.6336
金火	-10.6336
不散	-10.6338
行則	-10.6341
道藏	-10.6342
得眞	-10.6349
白玉	-10.635
臣某	-10.6352
三拜	-10.6363
一處	-10.6365
慈心	-10.6366
有能	-10.6366
步步	-10.6367
也所以	-10.6369
忘言	-10.637
精華	-10.637
强名	-10.6379
而致	-10.638
年月	-10.6381
上相	-10.6381
採之	-10.6383
無息	-10.6387
禪師	-10.6388
發現	-10.6391
風流	-10.6391
光天尊大悲	-10.6396
下士	-10.6399
猶是	-10.64
而陰	-10.6405
以定	-10.6406
實有	-10.6406
中來	-10.6407
二八	-10.6408
帝光	-10.6408
兩物	-10.6411
以正	-10.6414
幽魂	-10.6415
亘	-10.6418
又以	-10.6422
七返	-10.6424
九十	-10.6424
通明	-10.6428
匹	-10.6432
武當	-10.6435
本師	-10.6438
蠅	-10.644
灘	-10.6441
驛	-10.6442
掠	-10.6444
袍	-10.6445
上言	-10.6445
俊	-10.6449
嵐	-10.6451
之心濟生拔朽以施仁更廣悲思之德	-10.6451
床	-10.6452
竒	-10.6453
酧	-10.6453
八極	-10.6455
有石	-10.6455
打破	-10.6457
爲天	-10.6458
一點眞	-10.6458
草廬	-10.6458
五靈	-10.6459
天尊大悲洪	-10.6461
後有	-10.6462
歴	-10.6464
勸人	-10.6464
而無所	-10.6467
淸氣	-10.6467
更生	-10.6467
所以然	-10.6471
無遺	-10.6475
恭望	-10.6476
也我	-10.6479
妨	-10.6483
天宮	-10.6483
蛟龍	-10.6483
稱揚	-10.6487
而外	-10.6493
小周天	-10.6499
鍊心	-10.6507
其數	-10.651
人多	-10.6514
昭明	-10.6514
法事	-10.6518
五年	-10.6518
修道者	-10.652
利濟	-10.6521
此意	-10.6522
小子	-10.6525
天尊言	-10.6527
三清	-10.6527
陽光	-10.6528
四者	-10.6529
人我	-10.6531
注曰	-10.6542
出而	-10.6545
其次	-10.6546
相去	-10.6547
十二時	-10.6548
六陽	-10.6553
伏魔	-10.6556
自稱	-10.6557
本自	-10.6558
百神	-10.656
出定	-10.6561
原無	-10.6562
此地	-10.6564
出家	-10.6571
道中	-10.6576
三業	-10.6579
惶	-10.6588
嗇	-10.6589
輸	-10.6589
以示	-10.6592
未始有	-10.6593
不敬	-10.6593
鶯	-10.6593
世法	-10.6593
婁	-10.6595
册	-10.6597
璋	-10.6597
孼	-10.6598
現在	-10.6599
磴	-10.6601
瀑	-10.6601
汲	-10.6602
纏	-10.6602
之語	-10.6602
我亦	-10.6603
津梁	-10.6603
幢	-10.6603
爪	-10.6605
熒	-10.6606
岑	-10.6606
凍	-10.6606
紛紜	-10.6606
鴉	-10.661
閩	-10.6611
漲	-10.6611
朱陵	-10.6612
惠子	-10.6612
叙	-10.6613
否則	-10.6615
萬炁	-10.6616
煉形	-10.6619
洞章	-10.662
面壁	-10.6622
曰夫	-10.6625
漢書	-10.6625
相逢	-10.6626
無論	-10.6627
不問	-10.6628
正月	-10.663
聽其	-10.6634
幽明	-10.664
相對	-10.664
正直	-10.6648
良久	-10.6652
回頭	-10.6652
授之	-10.6653
忘形	-10.6657
蒂	-10.6658
諷	-10.6661
心傳	-10.6666
虎嘯	-10.6669
洞神	-10.6671
炁穴	-10.6671
何須	-10.6673
望之	-10.6674
神凝	-10.6675
如一	-10.6683
爲先	-10.6685
何用	-10.6687
孚佑帝君	-10.6687
邵	-10.6688
九竅	-10.6688
而後能	-10.6709
迄	-10.6709
月魄	-10.6714
其說	-10.6715
學問	-10.6715
雲水	-10.6717
長年	-10.6719
形體	-10.6721
十二月	-10.6721
了性	-10.6722
通神	-10.6727
無念	-10.6727
不順	-10.6731
萬物皆	-10.6734
也二	-10.6736
未分	-10.6736
輪轉	-10.6741
駢	-10.6743
僭	-10.6748
形神俱妙	-10.6751
五日	-10.6753
宫中	-10.6753
喜怒	-10.6754
氛	-10.6754
得意	-10.6755
眺	-10.6756
熊	-10.6757
殻	-10.6757
眞符右符告下	-10.676
幽冥	-10.6761
隴	-10.6761
然如	-10.6761
以氣	-10.6762
韶	-10.6763
天谷	-10.6763
間斷	-10.6765
劒	-10.6765
詢	-10.6765
修證	-10.6766
之所以爲	-10.6768
血肉	-10.6768
金液還丹	-10.6769
塵垢	-10.6773
天尊大悲功	-10.6774
行滿	-10.6775
這箇	-10.6776
心如	-10.6779
之奇	-10.6798
里許	-10.6802
大國	-10.681
物外	-10.6812
小兆	-10.6812
垂慈	-10.6814
知足	-10.6819
通達	-10.682
不立	-10.6832
株	-10.6832
眾聖	-10.6833
有意	-10.6834
爲十過	-10.6834
記云	-10.6835
百千	-10.6836
而莫	-10.6837
地下	-10.6839
陰也	-10.6843
碍	-10.6844
諸山	-10.6845
凖	-10.6847
不修	-10.685
諸生	-10.6855
視聽	-10.686
本根	-10.6861
放生	-10.6861
是之謂	-10.6868
立志	-10.6871
魔王	-10.6872
惟是	-10.6872
在手	-10.6874
故無	-10.6879
明師	-10.688
伏食	-10.6882
三尺	-10.6882
初九	-10.6884
之微	-10.6889
我獨	-10.689
至靈	-10.6891
戒殺	-10.69
修之	-10.69
婢	-10.6903
法會	-10.6904
少年	-10.6906
形而	-10.6911
自以爲	-10.6915
貶	-10.6916
瞰	-10.6916
故受之以	-10.6916
盂	-10.6916
丘	-10.6916
九宸	-10.6917
漂	-10.6917
經中	-10.6918
緊	-10.6918
炭	-10.6919
一動一靜	-10.6919
蕊	-10.6919
歸元	-10.692
查	-10.692
隘	-10.692
踞	-10.6921
芬	-10.6922
活潑	-10.6922
儔	-10.6922
劔	-10.6923
囿	-10.6923
揖	-10.6923
濟天尊大悲	-10.6923
贅	-10.6924
俞	-10.6924
彌羅	-10.6925
而猶	-10.6929
莊子曰	-10.6932
絳宫	-10.6934
聖帝	-10.6942
分身	-10.6948
何足	-10.6952
有名	-10.6952
能以	-10.6953
物天尊大悲	-10.6955
盡其	-10.6959
口鼻	-10.696
以濟	-10.6968
祖眞君	-10.6969
非常	-10.697
一兩	-10.6981
情欲	-10.6981
鍳察大使	-10.6982
而易	-10.6982
至精	-10.6982
有德	-10.6984
伏望	-10.6992
虛虛	-10.6993
經營	-10.6995
幾何	-10.6996
動也	-10.7
猶可	-10.7003
遠近	-10.7004
必欲	-10.7009
數里	-10.701
示人	-10.7011
其位	-10.7011
持經	-10.7014
乎道	-10.7015
屬陰	-10.7015
成人	-10.7019
洞陽	-10.7019
見一	-10.7019
夫惟	-10.7021
精血	-10.7021
五師	-10.7023
疆	-10.7028
其地	-10.7029
戒之	-10.7035
能見	-10.7039
氏之	-10.7043
成敗	-10.7046
學仙	-10.7048
慈仁	-10.7048
純陰	-10.7051
治之	-10.7052
相接	-10.7053
母也	-10.7054
萬民	-10.7054
丞	-10.706
坑	-10.7063
虛明	-10.7063
立極	-10.7064
拈	-10.7065
所作	-10.7066
二三	-10.7068
從今	-10.7069
地位	-10.707
闔	-10.7071
一陽初動	-10.7073
廊	-10.7074
製	-10.7074
弩	-10.7074
斃	-10.7075
崑	-10.7077
脂	-10.7077
p	-10.7078
蝸	-10.7078
豪傑	-10.7078
閃	-10.7079
j	-10.7079
嚮	-10.7079
啣	-10.7079
扶桑	-10.7079
於天地	-10.708
妍	-10.708
㨗	-10.708
果報	-10.7081
吃	-10.7081
馴	-10.7081
勿以	-10.7082
教金闕萬福護身眞人流衍萬眞	-10.7082
心體	-10.7082
綺	-10.7083
霸	-10.7083
闌	-10.7083
捕	-10.7084
百骸	-10.7085
至極	-10.7085
蔣	-10.7086
而後可	-10.7087
眞官名醫傳世	-10.7087
不遺	-10.7088
八陣圖	-10.709
元命	-10.7092
飮食	-10.7095
寶珠	-10.7101
不啻	-10.7101
聞見	-10.7105
故聖人	-10.7109
未聞	-10.7109
愛河	-10.7109
其情	-10.7112
旣濟	-10.7115
藏之	-10.7118
氣象	-10.7119
者矣	-10.712
道炁	-10.7126
布施	-10.7144
成矣	-10.7151
故必	-10.7153
果天尊大悲	-10.7154
妙合	-10.7156
一方	-10.7157
生氣	-10.7162
九拜	-10.7163
五星	-10.7164
斗柄	-10.7169
不可見	-10.7173
道光	-10.7175
行火	-10.7176
不到	-10.7176
天尊大悲風	-10.7178
五常	-10.7179
二十八	-10.7182
了悟	-10.7184
淸甯	-10.7188
夢中	-10.7193
而應	-10.7195
天下有	-10.72
合成	-10.7203
則失	-10.7214
幽深	-10.7215
以為	-10.7216
之功也	-10.7222
愛之	-10.7224
一如誥命風火驛傳	-10.7226
現前	-10.7227
從前	-10.7228
覃	-10.7231
之首	-10.7231
巷	-10.7234
故次之以	-10.7237
直至	-10.7237
泓	-10.7237
揆	-10.7237
也予	-10.7238
昬	-10.7238
嬌	-10.7242
菜	-10.7243
娥	-10.7243
逍遥	-10.7244
唇	-10.7244
體之	-10.7244
沸	-10.7245
本來面目	-10.7247
啖	-10.7247
方有	-10.7249
鳩	-10.725
果有	-10.7252
經綸	-10.7252
氣機	-10.7253
瓢	-10.7254
而且	-10.7256
枝葉	-10.7256
飲酒	-10.7259
戊土	-10.726
如如	-10.7261
本師言	-10.7262
乾坤之	-10.7264
浩然	-10.7266
大笑	-10.727
過去	-10.7271
恩光	-10.7274
而立	-10.7275
渾淪	-10.7276
黃房	-10.7279
故爲	-10.7281
外丹	-10.7281
行藏	-10.7287
金書	-10.729
卽得	-10.7298
頑空	-10.7303
害人	-10.7306
九宫	-10.731
性體	-10.731
明鏡	-10.7317
我以	-10.7318
雷公	-10.7319
復性	-10.732
聖凡	-10.7324
鼎中	-10.7325
官將	-10.733
用意	-10.7333
世俗	-10.7333
之訣	-10.7335
慈光	-10.7336
衆生	-10.7338
在中	-10.7338
人力	-10.7344
空虛	-10.7345
太真	-10.7345
靜極	-10.7345
盡性	-10.7354
神祗	-10.7356
之果	-10.7357
張紫陽	-10.7368
其初	-10.7369
實實	-10.7373
㳟	-10.7376
自化	-10.7379
如水	-10.7383
登眞	-10.7385
玉闕	-10.7388
神奇	-10.7394
賁	-10.7394
也乃	-10.7396
疵	-10.7396
將以	-10.7397
光大	-10.7398
東海	-10.74
周身	-10.7402
終於	-10.7402
可得而	-10.7405
要在	-10.7405
苞	-10.7405
也所謂	-10.7405
元始之	-10.7406
消長	-10.7407
蝶	-10.7407
常有	-10.7408
抗	-10.7409
鬚	-10.7409
紫金	-10.7409
髻	-10.7409
貺	-10.7409
模	-10.741
謨	-10.741
釁	-10.741
吼	-10.741
欲界	-10.7411
玄壇	-10.7412
墟	-10.7414
巒	-10.7414
大靈官内壇廵䕶	-10.7415
艾	-10.7416
聘	-10.7416
祖宗	-10.7416
茹	-10.7417
道體	-10.7418
之異	-10.7418
著於	-10.7418
曰天	-10.742
畢竟	-10.7425
苟能	-10.7426
天官	-10.7427
指揮	-10.7427
淵源	-10.7429
問道	-10.7429
超凡	-10.7437
公曰	-10.7445
九還	-10.7446
上品	-10.7447
使我	-10.7452
五六	-10.7455
少陰	-10.7456
不許	-10.7462
願力	-10.7462
卽便	-10.747
有成	-10.747
順逆	-10.7475
之府	-10.7477
天一	-10.7477
幽顯	-10.7482
禪定	-10.7483
貞吉	-10.7486
公子	-10.7488
不漏	-10.749
山上	-10.7491
三山	-10.7492
毫無	-10.7493
原來	-10.7494
壇中	-10.7498
而返	-10.7503
以全	-10.7504
未易	-10.751
神合	-10.7512
不傷	-10.7513
明白	-10.7515
神水	-10.7515
爲神	-10.7517
經文	-10.7517
不老	-10.7521
道則	-10.7523
變而	-10.7524
陰陽相	-10.7525
眼前	-10.7525
無意	-10.7527
神名	-10.7529
眞如	-10.7531
阨	-10.7539
花開	-10.7541
旣而	-10.7543
不改	-10.7546
相感	-10.7549
或爲	-10.7553
元始天王	-10.7558
乃得	-10.7558
列聖	-10.7562
坡	-10.7565
紫氣	-10.7566
大靈官外壇廵䕶	-10.7566
亦必	-10.7568
所欲	-10.7568
傳心	-10.7571
殉	-10.7572
筏	-10.7573
漓	-10.7573
合德	-10.7574
燃	-10.7574
眩	-10.7574
瞞	-10.7576
嶂	-10.7577
塘	-10.7577
翹	-10.7577
挫	-10.7577
廻	-10.7577
朴	-10.7578
劣	-10.7578
轅	-10.7578
之理也	-10.7579
窩	-10.7579
帆	-10.758
雌雄	-10.758
葷	-10.758
概	-10.7581
軟	-10.7582
瘦	-10.7583
壅	-10.7584
掘	-10.7584
躔	-10.7584
而萬物	-10.7585
蜂	-10.7585
塵埃	-10.7585
斯爲	-10.7586
玉宸	-10.7587
形形	-10.7588
之鄉	-10.7589
兩弦	-10.7593
紫霄	-10.7594
純熟	-10.7594
以前	-10.7595
未曾	-10.7595
昭然	-10.7597
天尊大悲廣	-10.7598
三顧	-10.7606
柔弱	-10.7608
然非	-10.7612
惡人	-10.7613
目錄	-10.7617
者猶	-10.7618
云何	-10.7619
錫福	-10.762
不留	-10.7622
同志	-10.7622
千金	-10.7623
䖍誠	-10.7623
賜福	-10.7624
不言而	-10.7628
二百	-10.7631
歎曰	-10.764
魔障	-10.7642
無相	-10.7645
卽以	-10.7648
盡矣	-10.7648
於是乎	-10.7649
靈壇	-10.765
山河	-10.7653
降生	-10.7656
天地之間	-10.7657
邪魔	-10.7659
日魂	-10.766
而後有	-10.7661
及於	-10.7663
之末	-10.7663
心神	-10.767
出乎	-10.7671
陳淸醮	-10.7674
中田	-10.7675
登仙	-10.7679
萬天	-10.7679
同其	-10.7683
解悟	-10.7684
究之	-10.7691
言者	-10.7701
中原	-10.7701
也四	-10.7706
以立	-10.7713
南宮	-10.7713
有數	-10.7723
嵩	-10.7724
不得而	-10.7726
白金	-10.7728
雖不	-10.7729
元天尊大悲	-10.7731
一枝	-10.7731
無害	-10.7733
妄動	-10.7736
天元	-10.7741
撮	-10.7742
釀	-10.7744
喫	-10.7745
寶誥一遍	-10.7745
安靜	-10.7747
伽	-10.7747
墳	-10.775
離火	-10.7751
居中	-10.7751
父兄	-10.7752
髯	-10.7754
龜蛇	-10.7754
邪說	-10.7755
痊	-10.7756
白鬂老人曰	-10.7756
社稷	-10.7759
戈	-10.7759
規矩	-10.7761
中人	-10.7761
唆	-10.7762
無漏	-10.7765
必用	-10.7766
權衡	-10.7767
平地	-10.7769
坎水	-10.7769
火候之	-10.7773
運天尊大悲	-10.7778
三三	-10.7778
同心	-10.7786
年月日時	-10.7786
二陰	-10.7789
印證	-10.7792
識神	-10.7794
之盛	-10.78
間有	-10.78
聖號	-10.7805
數日	-10.7809
先王	-10.7809
一語	-10.781
五苦	-10.781
死後	-10.7811
寶經	-10.7811
陰陰	-10.7812
九地	-10.7814
相似	-10.7818
也昔	-10.782
隱居	-10.7831
七星	-10.7833
上清	-10.7834
不克	-10.7837
何患	-10.7838
天台	-10.7848
雲霞	-10.785
乃可	-10.785
水陸	-10.7854
與夫	-10.7855
受度	-10.7858
生于	-10.7858
黃老	-10.7859
亦可以	-10.7863
得以	-10.7867
第十二	-10.7868
而安	-10.7873
其妙	-10.7875
會於	-10.7879
木火	-10.7881
眞玄	-10.7881
此法	-10.7884
德不	-10.789
若欲	-10.7892
重重	-10.7893
只爲	-10.7893
邪正	-10.7899
得丹	-10.7899
信受	-10.79
上界	-10.7909
寓言	-10.7911
霑	-10.7911
不妄	-10.7911
笈	-10.7913
匱	-10.7917
十過	-10.7917
織	-10.7919
敕	-10.7919
將此	-10.7919
始生	-10.7922
娶	-10.7922
惰	-10.7923
有如	-10.7923
評	-10.7923
奎	-10.7923
普天	-10.7924
滄	-10.7925
闊	-10.7925
鵲	-10.7925
航	-10.7926
殁	-10.7926
凋	-10.7926
娛	-10.7926
槪	-10.7927
渚	-10.7927
餓	-10.7928
惹	-10.7928
系	-10.7928
之妙也	-10.793
讒	-10.7931
降魔	-10.7932
藤	-10.7935
推之	-10.7936
佚	-10.7937
下弦	-10.7938
始有	-10.7938
日月星辰	-10.7941
浮沉	-10.7945
秘訣	-10.7947
金丹大藥	-10.7949
眾眞	-10.7949
玄帝	-10.795
天地之心	-10.7951
可用	-10.7951
靈丹	-10.7955
離坎	-10.7957
凡物	-10.796
五穀	-10.7961
朝禮	-10.7961
北宗	-10.7962
不全	-10.7964
到底	-10.7966
修天尊大悲	-10.7968
損益	-10.7974
仍乞	-10.7976
奉命	-10.7978
不加	-10.7979
○○	-10.7983
如玉	-10.7985
化氣	-10.7986
夕陽	-10.799
五雲	-10.7991
帝主	-10.7994
法也	-10.7995
何難	-10.7999
奪其	-10.8002
萬類	-10.8004
一切眾生	-10.8007
城南	-10.8008
伏乞	-10.801
時也	-10.8011
也亦	-10.8011
之會	-10.8011
不聽	-10.8016
相忘	-10.8024
帝尊	-10.8026
敢忘	-10.8028
和而	-10.8034
開通	-10.8034
第十一	-10.8036
治世	-10.8039
明天尊大悲	-10.8041
是皆	-10.8042
不絶	-10.8043
承上	-10.8054
下田	-10.8054
莫大於	-10.8055
丹訣	-10.8057
保身	-10.8064
矣今	-10.8068
久則	-10.8068
上生	-10.807
國土	-10.8071
卽道	-10.8071
貫通	-10.8072
功滿	-10.8079
其聲	-10.808
狠	-10.8094
便知	-10.8097
汨	-10.8098
迂	-10.8099
簪	-10.8099
乎曰	-10.81
狥	-10.8101
擢	-10.8101
洋洋	-10.8101
察其	-10.8103
飡	-10.8104
糞	-10.8104
有是	-10.8104
盆	-10.8106
撼	-10.8107
轟	-10.8108
一曲	-10.8108
自安	-10.8109
虬	-10.8109
啞	-10.811
隻	-10.811
痕	-10.8112
二十五	-10.8112
湛寂	-10.8112
身天尊大悲	-10.8114
之私	-10.8114
鴈	-10.8114
玉皇上帝	-10.8116
諸聖	-10.8123
達摩	-10.8123
丹臺	-10.8125
感格	-10.8126
寶光	-10.8128
所至	-10.8128
而何	-10.813
性中	-10.8134
不差	-10.8134
方成	-10.8136
服之	-10.8138
猶言	-10.8139
自成	-10.814
道路	-10.8146
生靈	-10.8146
者道之	-10.8148
化而爲	-10.8151
禪宗	-10.8152
黃白	-10.8156
沖和	-10.8158
一見	-10.8161
然其	-10.8164
其勢	-10.8165
因而	-10.817
大丈夫	-10.817
一線	-10.817
先要	-10.8173
無色	-10.8175
鍊形	-10.8176
道果	-10.8178
仲尼曰	-10.8182
四聖	-10.8182
者哉	-10.8183
笑曰	-10.8185
演說	-10.8187
流於	-10.819
上弦	-10.8193
大約	-10.8195
如在	-10.8195
懈	-10.8196
救劫	-10.8196
光輝	-10.8197
門外	-10.8198
道理	-10.8198
不義	-10.8198
不獨	-10.8204
修建	-10.8211
其文	-10.8211
一斤	-10.8219
壺中	-10.822
位而	-10.822
三世	-10.8221
丹法	-10.8227
所由	-10.8227
返本	-10.8229
線	-10.8229
威神	-10.823
斯道	-10.8233
是人	-10.8233
畜生	-10.8235
長安	-10.8241
大羅天	-10.8242
君之	-10.8242
異於	-10.8243
一如	-10.8244
萬人	-10.8245
皆能	-10.8248
不違	-10.8248
十二年	-10.8249
各自	-10.8251
眞眞	-10.8253
外馳	-10.8255
穹	-10.8256
不平	-10.8258
不拘	-10.8258
進修	-10.8259
聖人之道	-10.8259
丰	-10.8265
轂	-10.8268
亦以	-10.8269
遼	-10.8273
朶	-10.8278
之句	-10.8278
無主	-10.8279
凜	-10.828
懺悔	-10.828
悵	-10.8281
洎	-10.8281
汎	-10.8281
馨	-10.8284
挈	-10.8284
替	-10.8284
江山	-10.8285
性命雙修	-10.8286
赦罪	-10.8286
樽	-10.8287
嫉	-10.8287
鉅	-10.8287
熱	-10.8288
其眞	-10.8288
砌	-10.8288
鵬	-10.8289
漆	-10.8289
裘	-10.8289
絪緼	-10.829
頸	-10.8291
擴	-10.8291
瑕	-10.8291
六十四卦	-10.8291
訶	-10.8291
𡨴	-10.8292
彷彿	-10.8292
淹	-10.8293
瘡	-10.8294
皇天	-10.8295
粧	-10.8296
鍊度	-10.8297
庚申	-10.8298
一如誥命	-10.83
流光	-10.8302
天關	-10.8302
一𡻕	-10.8303
謫	-10.8303
烹鍊	-10.8305
無爲也	-10.8305
陽明	-10.8305
雖欲	-10.8309
打坐	-10.8313
不期	-10.8315
參差	-10.8316
首尾	-10.8316
與其	-10.8316
未始	-10.8318
頓悟	-10.832
丹天尊大悲	-10.8324
洪武	-10.8326
開闢	-10.8326
霄漢	-10.8328
闡教	-10.8334
墮落	-10.8339
源流	-10.834
其法	-10.8343
妙諦	-10.8346
淨土	-10.8348
欲得	-10.8349
眞訣	-10.8352
靈寶天尊	-10.8356
其罪	-10.8357
海底	-10.8363
名也	-10.8364
妙訣	-10.8366
不和	-10.8371
入手	-10.8375
人無	-10.8376
十惡	-10.8376
發願	-10.8378
而今	-10.8384
並無	-10.8384
人不能	-10.8388
則人	-10.8395
之不可	-10.8397
得矣	-10.8416
何可	-10.8417
諸峰	-10.8417
明德	-10.8419
向來	-10.8427
定位	-10.843
無厭	-10.8434
縱有	-10.8434
義理	-10.8438
歸眞	-10.8441
身體	-10.8442
飛鸞	-10.845
一派	-10.8451
性本	-10.8452
如彼	-10.8453
誦持	-10.8457
眾等	-10.8458
蠲	-10.8463
虛靜	-10.8463
杏	-10.8464
存存	-10.8465
乾之	-10.8466
酸	-10.8467
授受	-10.8469
憩	-10.8469
萍	-10.8469
瀾	-10.8469
𥚃	-10.847
至虛	-10.847
隋	-10.847
教化	-10.8471
而發	-10.8472
盍	-10.8472
攢簇	-10.8473
兀	-10.8473
稚	-10.8474
怯	-10.8474
亞	-10.8474
插	-10.8475
躭	-10.8475
泯	-10.8475
外來	-10.8475
遑	-10.8475
孚佑	-10.8475
固守	-10.8475
快活	-10.8476
刺	-10.8476
譜	-10.8479
收拾	-10.8481
行善	-10.8484
坪	-10.8485
灣	-10.8486
烟霞	-10.8486
煅煉	-10.8488
星斗	-10.849
眞神	-10.8491
正宗	-10.8492
檻	-10.8494
天之道	-10.8498
有司	-10.8498
養心	-10.8498
純一	-10.8501
羅浮	-10.8501
迷惑	-10.8501
文昌帝君曰	-10.8505
諸弟子	-10.8507
昇天	-10.8508
周旋	-10.8509
祥雲	-10.8515
表裏	-10.8515
眞光	-10.8517
默朝	-10.8517
令其	-10.8519
隱隱	-10.852
思議	-10.852
則精	-10.852
旣無	-10.852
有限	-10.8521
傳經	-10.8521
者正	-10.8524
無疑	-10.8525
不自知	-10.8526
自號	-10.8527
仙姑	-10.8537
立地	-10.8538
而用之	-10.8538
正教	-10.8539
以身	-10.854
南海	-10.8542
語錄	-10.8542
已而	-10.8544
血海	-10.8552
此所以	-10.8562
汞鉛	-10.857
頂禮	-10.8571
玄靈	-10.8572
治天尊大悲	-10.8572
進而	-10.8574
此所謂	-10.8579
命也	-10.8579
而不見	-10.8582
法度	-10.8585
所行	-10.8587
華蓋	-10.8587
與世	-10.8588
何以故	-10.8588
平平	-10.8596
復歸於	-10.8596
其色	-10.8599
九月	-10.8599
之民	-10.8601
金容	-10.8602
華陽	-10.8604
宗祖	-10.8604
只此	-10.8608
未明	-10.861
洞天仙官	-10.8611
天柱	-10.8612
金陵	-10.8613
悠	-10.8616
乃見	-10.8617
此氣	-10.8624
莫大	-10.863
及諸	-10.8636
蓋以	-10.8637
迦	-10.8639
形也	-10.8642
成胎	-10.8645
無成	-10.8645
不隨	-10.8646
天尊大悲普	-10.8647
喜怒哀樂	-10.8648
以德	-10.8649
謾	-10.8649
能得	-10.8649
天府	-10.8651
鍊成	-10.8651
交合	-10.8655
變成	-10.8655
寂靜	-10.8656
陞	-10.8657
人必	-10.8657
不倦	-10.8657
惱	-10.8657
勁	-10.8658
架	-10.866
輝煌	-10.8661
九曲	-10.8661
茗	-10.8661
時至	-10.8662
劄	-10.8663
頴	-10.8663
絮	-10.8663
帝心	-10.8663
仔細	-10.8664
迎祥	-10.8666
之辭	-10.8669
炙	-10.8669
藜	-10.867
隂	-10.8671
噴	-10.8672
自明	-10.8673
先聖	-10.8673
侯之	-10.8675
長跪	-10.8677
受之	-10.8685
兩相	-10.8685
二土	-10.8689
靜也	-10.8691
無際	-10.8693
不絕	-10.8693
積累	-10.87
者固	-10.8702
百體	-10.8705
誓願	-10.871
者可	-10.8712
極樂	-10.8715
而不敢	-10.8717
之器	-10.8729
時刻	-10.873
佛仙	-10.8741
精誠	-10.8742
之美	-10.8746
般若	-10.8748
陽而	-10.8752
鍊精	-10.8754
重濁	-10.8755
者右	-10.8756
而始	-10.8757
連二	-10.8759
合體	-10.876
得手	-10.8761
之害	-10.8765
足矣	-10.8768
忠臣	-10.8776
了了	-10.8776
稱爲	-10.8777
不避	-10.8779
火府	-10.8784
前有	-10.8789
至仁	-10.8793
化人	-10.8794
慧光	-10.8794
有益	-10.8797
金童	-10.8801
執著	-10.8803
而不知其	-10.8808
但見	-10.8812
之良	-10.8817
五百	-10.8822
天魔	-10.8828
是書	-10.8832
惟在	-10.8832
須用	-10.8834
瑜	-10.8836
信心	-10.8836
・	-10.8837
愚者	-10.8842
沽	-10.8843
之中而	-10.8843
稀	-10.8844
慳	-10.8844
見此	-10.8844
則死	-10.8846
璇璣	-10.8846
稼	-10.8848
牲	-10.8848
惟道	-10.8849
斗母天尊頌曰	-10.885
洋	-10.885
㦸	-10.8851
苛	-10.8851
汙	-10.8852
之利	-10.8852
丐	-10.8853
伺	-10.8854
天師張眞人曰	-10.8854
憇	-10.8856
郞	-10.8856
鑽	-10.8856
甦	-10.8856
晰	-10.8856
屆	-10.8857
玄之又玄	-10.8857
耐	-10.8857
樊	-10.8857
幅	-10.8859
靑天	-10.8859
玄關一竅	-10.886
梧	-10.886
旌陽	-10.8861
悟眞篇	-10.8862
祈雨	-10.8863
庖	-10.8867
大矣哉	-10.8868
良因	-10.8871
以制	-10.8873
不暇	-10.8876
旣久	-10.8879
行於	-10.8882
暗室	-10.8884
玉篆	-10.8887
有道者	-10.8888
二陽	-10.8889
中出	-10.8891
復何	-10.8892
五岳	-10.8894
闡發	-10.8894
此其	-10.8896
齋壇	-10.8896
祈禳	-10.8898
子貢	-10.89
士大夫	-10.89
冲和	-10.8901
帝座	-10.8903
也葢	-10.8904
宗親	-10.891
處士	-10.8911
見前	-10.8915
神聖	-10.8916
之資	-10.8917
法籙	-10.8919
化化	-10.8922
其内	-10.8925
五分	-10.8927
之禍	-10.8927
文明	-10.8932
自然之理	-10.8935
句句	-10.8936
金烏	-10.8937
深處	-10.8941
當用	-10.8942
其來	-10.8947
十戒	-10.8947
先天之炁	-10.8949
何曾	-10.8949
卧龍	-10.895
周圓	-10.8953
受用	-10.8954
人若	-10.8955
後聖	-10.8955
此一段	-10.8963
不特	-10.8964
惡乎	-10.8966
夀命	-10.8968
砂汞	-10.897
四句	-10.8972
下文	-10.8973
何等	-10.8974
俄而	-10.898
不欺	-10.898
不疑	-10.8982
時節	-10.8985
大智	-10.8992
積善	-10.8993
伏念	-10.8994
延夀	-10.8995
之妙用	-10.8997
所傳	-10.8998
人各	-10.8999
世事	-10.9
遊行	-10.9002
天慈	-10.9003
朗天尊大悲	-10.9008
至正	-10.9009
了道	-10.901
爲害	-10.9011
吕祖	-10.9014
水官	-10.9016
昇仙	-10.9017
證聖	-10.9018
如今	-10.9019
太上曰	-10.9025
爲貴	-10.9035
軫	-10.9037
大觀	-10.9037
麓	-10.9038
芹	-10.9039
氣自	-10.9039
然有	-10.9041
一念之	-10.9042
騫	-10.9042
蹄	-10.9042
範圍	-10.9044
自然之道	-10.9045
嘿	-10.9045
0001_	-10.9046
二十八宿	-10.9047
夾脊	-10.9052
迪	-10.9052
瞽	-10.9053
饌	-10.9053
蠧	-10.9053
霓	-10.9054
觔	-10.9057
章第六	-10.9057
貎	-10.9058
苦行	-10.9058
層層	-10.9059
是先天	-10.906
旣生	-10.906
方丈	-10.9062
朋友	-10.9062
廿	-10.9064
知我	-10.9068
諦聽	-10.907
靈章	-10.907
淸涼	-10.9071
覆護	-10.9074
於其中	-10.9074
庶使	-10.9074
大矣	-10.9074
樓臺	-10.9074
愚昧	-10.9075
百萬	-10.9076
金籙	-10.9077
諸經	-10.9077
金母	-10.9078
得長生	-10.9081
神威	-10.9082
勿用	-10.9082
終不能	-10.9085
立基	-10.9085
厯厯	-10.9085
福祉	-10.9086
一小	-10.9087
箇箇	-10.9088
巽風	-10.9089
太華	-10.9089
萬善	-10.9089
得見	-10.9094
聽命	-10.9095
自取	-10.9102
不殺	-10.9105
六爻	-10.9106
達士	-10.9108
玉符	-10.9111
存養	-10.9114
二十年	-10.9116
陽子	-10.9118
賢者	-10.9121
憚	-10.9125
一性	-10.9125
之久	-10.9125
端坐	-10.9133
經典	-10.9134
以取	-10.9134
大還丹	-10.9138
傳於	-10.9141
我我	-10.9141
隨其	-10.9142
時當	-10.9143
以安	-10.9143
開明	-10.9145
兆民	-10.9147
旣成	-10.9147
丹陽	-10.9152
溺於	-10.9155
不可名	-10.9156
孚佑上帝	-10.9162
亦不知	-10.9163
能守	-10.9163
赤書	-10.9163
見道	-10.9164
九光	-10.9164
利用	-10.9167
靜靜	-10.9168
登高	-10.917
了命	-10.9173
昔人	-10.9173
心常	-10.9174
所及	-10.9175
此節	-10.9178
初六	-10.9179
作丹	-10.9183
好善	-10.9187
之師	-10.9188
孝弟	-10.9192
仙宗	-10.9192
子母	-10.9193
一端	-10.9194
無思	-10.9196
九鼎	-10.9196
不干	-10.9197
雙修	-10.9197
地中	-10.9198
大慧	-10.9202
忘我	-10.9202
方圓	-10.9205
作善	-10.9206
百八十	-10.9206
誠能	-10.9212
應時	-10.9219
勅命	-10.922
六時	-10.9223
兩間	-10.9225
晃	-10.9227
玉眞	-10.9227
𨶒	-10.9237
緬維	-10.924
陂	-10.924
寃	-10.924
悶	-10.9243
枚	-10.9243
上篇	-10.9245
槎	-10.9246
0001-02_	-10.9246
曁	-10.9246
𢌿	-10.9247
之詞	-10.9247
此非	-10.9248
瓜	-10.9248
縹緲	-10.9248
迅	-10.9249
稔	-10.925
夬	-10.925
搬運	-10.9251
聆	-10.9252
楹	-10.9253
潄	-10.9253
昻	-10.9253
貳	-10.9254
羸	-10.9254
硯	-10.9255
狄	-10.9256
塑	-10.9256
甚麽	-10.9256
夫道	-10.9258
毫髮	-10.9259
卽使	-10.9263
槐	-10.9268
之原	-10.9269
委曲	-10.9269
无妄	-10.927
迷途	-10.9278
覺世	-10.928
也能	-10.928
皆在	-10.9282
章第五	-10.9284
妙相	-10.9285
火符	-10.9286
地軸	-10.9287
諸司	-10.9287
之君	-10.9293
物我	-10.9293
衣服	-10.9297
本然	-10.9298
雷雨	-10.9299
天性	-10.9302
百步	-10.9304
雲中	-10.9304
在何處	-10.9306
惟一	-10.9307
問其	-10.9312
忠義	-10.9312
胎仙	-10.9317
乘雲	-10.9318
則可以	-10.9322
之景	-10.9325
過於	-10.9326
旋轉	-10.9327
仲達	-10.9328
金門	-10.9329
帝君曰	-10.9331
主持	-10.9342
人家	-10.9344
形如	-10.9345
未幾	-10.9347
遂成	-10.9348
上宫	-10.9349
八十一	-10.9351
虛實	-10.9351
具位	-10.9355
六塵	-10.9355
之心也	-10.9361
直到	-10.9362
以陰	-10.9362
三人	-10.9363
改過	-10.9363
舉世	-10.9364
利物	-10.9372
此事	-10.9378
兩腎	-10.938
吽	-10.9384
煉藥	-10.9389
年月日	-10.939
天真	-10.9393
火也	-10.9395
誠意	-10.9402
不可爲	-10.9405
解結	-10.9407
如有	-10.9408
不虧	-10.9412
齋修	-10.9413
死矣	-10.9413
所以能	-10.9415
超然	-10.942
其行	-10.9424
君有曰	-10.9425
故人	-10.9425
心之所	-10.9431
超生	-10.9432
巍	-10.9433
浩劫	-10.9434
大光明	-10.9435
子輩	-10.9438
大靈官内外廵䕶	-10.9438
老聃	-10.9439
威光	-10.9444
纖	-10.9444
渝	-10.9445
何益	-10.9445
一條	-10.9446
八難	-10.9447
所存	-10.9448
天運年月日	-10.9448
可成	-10.945
九陽	-10.945
得定	-10.945
椎	-10.9451
大王	-10.9452
無愧	-10.9452
化作	-10.9453
摶	-10.9453
_	-10.9453
諾	-10.9453
深入	-10.9453
滙	-10.9453
捫	-10.9454
淘	-10.9454
梗	-10.9455
椽	-10.9455
浙	-10.9456
朿	-10.9457
徼	-10.9458
逈	-10.9459
㩦	-10.9459
稻	-10.9459
藹	-10.946
劈	-10.946
雉	-10.946
虎狼	-10.946
椿	-10.9461
十餘里	-10.9461
三景	-10.9461
鷗	-10.9461
遨遊	-10.9462
康熙	-10.9465
周易	-10.9465
月窟	-10.9466
天恩	-10.9466
而益	-10.9467
嘉靖	-10.9468
滋味	-10.9468
旣知	-10.947
以此爲	-10.9472
賢人	-10.9472
個個	-10.9477
寶懴	-10.9481
又能	-10.9487
疑惑	-10.949
爲子	-10.9491
用力	-10.9491
制伏	-10.9496
目前	-10.9496
在前	-10.9499
有神	-10.9501
之禮	-10.9504
功高	-10.9505
正心	-10.9506
南昌	-10.951
止也	-10.9512
登山	-10.9515
全憑	-10.9519
大慈尊	-10.9519
億劫	-10.9522
王母	-10.9522
指出	-10.9523
内丹	-10.9527
之世	-10.9529
有作	-10.9529
言此	-10.953
兩忘	-10.9536
堂堂	-10.9536
成象	-10.9537
水水	-10.9542
之端	-10.9543
一夕	-10.9548
吾家	-10.9548
赤帝	-10.955
莫知	-10.955
開天	-10.9557
三皇	-10.9557
玉華	-10.9558
將見	-10.9563
至神	-10.9564
仙聖	-10.9566
屬陽	-10.9567
無復	-10.9569
雲篆	-10.957
石上	-10.9571
微塵	-10.9571
至真	-10.9571
水流	-10.9571
吾見	-10.9573
月光	-10.9576
不化	-10.9576
惡之	-10.9576
異人	-10.9577
聞者	-10.9578
玄武	-10.9578
一書	-10.9581
臣等	-10.9582
之色	-10.9583
其旨	-10.9583
常定	-10.9583
功用	-10.9584
丹家	-10.959
俗人	-10.959
未及	-10.959
一大	-10.959
淸醮	-10.9591
夜半	-10.9591
此炁	-10.9592
而爲之	-10.9593
相依	-10.9594
乾體	-10.9598
下流	-10.9599
忘情	-10.9603
眞聖	-10.9608
不致	-10.9614
著天尊大悲	-10.9617
爲宗	-10.9625
永安	-10.9626
三寸	-10.9628
梟	-10.9637
十極	-10.9638
眞身	-10.9638
情性	-10.964
濟生	-10.9641
淸微	-10.9645
五道	-10.9649
者以其	-10.965
轉爲	-10.9651
眸	-10.9651
掉	-10.9652
𥥆	-10.9654
在其中矣	-10.9655
在焉	-10.9655
尖	-10.9655
不滯	-10.9655
箱	-10.9656
姚	-10.9657
燎	-10.9657
娘	-10.9658
什	-10.9659
纓	-10.966
呵呵	-10.966
滓	-10.966
峒	-10.966
豹	-10.9661
矧	-10.9661
皎	-10.9661
區區	-10.9661
繇	-10.9661
寂寞	-10.9662
厨	-10.9662
何得	-10.9662
此四	-10.9663
蓼	-10.9665
驂	-10.9665
挹	-10.9666
所聞	-10.9667
廵	-10.9667
忝	-10.9669
渣滓	-10.9669
芙蓉	-10.967
此篇	-10.967
隕	-10.9671
無量度人	-10.9672
君曰	-10.9673
構	-10.9676
言言	-10.9676
便當	-10.9677
端倪	-10.9678
寶誥	-10.968
褘	-10.9682
以無爲	-10.9686
陛下	-10.9686
周子	-10.9688
豫章	-10.9688
震動	-10.9689
萬丈	-10.9689
又五日	-10.9694
將欲	-10.9698
北辰	-10.9699
爲五十過	-10.9708
斯言	-10.9712
逸士	-10.9718
識者	-10.9721
建立	-10.9722
爲君	-10.9722
步虛	-10.9726
不樂	-10.973
重樓	-10.973
道氣	-10.9731
小國	-10.9732
用九	-10.9733
澄淸	-10.9734
曰昔	-10.9735
許由	-10.9736
事理	-10.9741
五十功	-10.9741
淺深	-10.9743
南宗	-10.9744
落落	-10.9744
青龍	-10.9745
⬤⬤	-10.9746
此段	-10.9753
自可	-10.9755
以還	-10.9761
之始也	-10.9763
三乘	-10.9764
復歸	-10.9764
紫炁	-10.9768
之事也	-10.9769
玉爐	-10.977
皆空	-10.9774
何哉	-10.9775
兩者	-10.9775
所願	-10.9776
開悟	-10.9776
天尊大悲丹	-10.978
蓋其	-10.9781
總在	-10.9781
進道	-10.9783
法天	-10.9785
仁者	-10.9789
后土	-10.9793
王公	-10.9799
御史	-10.9808
善行	-10.981
老子曰	-10.9815
一本	-10.9816
起手	-10.982
何敢	-10.9822
靈機	-10.9823
敢不	-10.9824
亦宜	-10.9824
安可	-10.9826
星星君	-10.9827
行事	-10.9829
稍有	-10.9834
本於	-10.9837
而難	-10.984
至善	-10.9847
生尅	-10.9849
誠敬	-10.9853
書云	-10.9854
然亦	-10.9856
仁義禮智	-10.9856
■	-10.9857
空寂	-10.9857
糾察	-10.9858
便得	-10.9859
萬有	-10.9861
永樂	-10.9861
皇穹	-10.9861
蠶	-10.9862
止止	-10.9862
妙在	-10.9863
攖	-10.9865
謟	-10.9868
碩	-10.9868
繹	-10.9869
槁	-10.9869
杉	-10.987
華山	-10.9871
妙處	-10.9871
妄爲	-10.9871
訴	-10.9872
不生不滅	-10.9872
琉璃	-10.9873
瀉	-10.9873
藐	-10.9874
嗜慾	-10.9874
本源	-10.9874
安甯	-10.9874
化現	-10.9875
如法	-10.9875
𥸤	-10.9875
磯	-10.9875
錮	-10.9875
規模	-10.9875
帝德	-10.9876
扣	-10.9876
寔	-10.9876
湧泉	-10.9878
常行	-10.9879
虎豹	-10.9879
說是	-10.988
月明	-10.9881
跨鶴	-10.9882
黍珠	-10.9883
濛	-10.9884
處世	-10.9884
迷津	-10.9884
難遇	-10.9885
雖未	-10.9886
現出	-10.9887
滄海	-10.9887
夙夜	-10.9887
靈魂	-10.989
凡此	-10.9894
祖父	-10.9895
煙霞	-10.9896
不離乎	-10.9897
襄陽	-10.9901
命根	-10.9904
本司	-10.9912
普照	-10.9913
好惡	-10.9916
千二百	-10.9918
珍重	-10.992
也上六	-10.992
總領	-10.9921
依舊	-10.9925
骨節	-10.9927
不察	-10.9931
一室	-10.9932
論之	-10.9933
中求	-10.9934
禮斗	-10.9935
長短	-10.9936
無虧	-10.9938
九載	-10.9938
氣足	-10.9939
伏聞	-10.9942
與人同	-10.9946
居於	-10.9947
之用也	-10.995
心靜	-10.9953
行止	-10.9955
之寶	-10.9956
三字	-10.9961
妙哉	-10.9964
名號	-10.9966
不勞	-10.9971
知所	-10.9973
舍利	-10.9974
源頭	-10.9976
口誦	-10.9978
萬國	-10.9978
元吉	-10.9978
洞府	-10.9979
不墮	-10.998
造作	-10.998
猶在	-10.9981
聖智	-10.9982
圓覺	-10.9984
音余	-10.9985
天尊大悲恩	-10.9989
紅光	-10.999
者惟	-10.999
安鎭	-10.9992
慈父	-10.9994
王子	-10.9995
通乎	-10.9996
無所用	-10.9997
知音	-10.9999
死亡	-10.9999
陰魄	-11.0002
西湖	-11.0003
萬方	-11.0006
之域	-11.0008
正大	-11.0011
鍊神	-11.0011
令我	-11.0014
治人	-11.0015
合天尊大悲	-11.0017
傷人	-11.0018
第十三	-11.0019
之一字	-11.002
塲	-11.0022
雷電	-11.0023
者可以	-11.0024
五祖	-11.0027
慧劍	-11.0033
識之	-11.0033
昏迷	-11.0037
則非	-11.0039
不論	-11.0043
大神通	-11.0044
亡者	-11.0044
三四	-11.0044
香花	-11.0047
不退	-11.0051
動者	-11.0054
當前	-11.0056
長史	-11.0066
此物	-11.0077
華嚴經	-11.0077
縫	-11.008
安在	-11.0082
腔	-11.0083
悚	-11.0083
擎	-11.0085
大眞人	-11.0086
歉	-11.0086
愍	-11.0086
猶存	-11.0086
覊	-11.0087
黑鉛	-11.0088
栽培	-11.0089
紊	-11.0089
褐	-11.0089
鎮	-11.0089
用以	-11.009
慎	-11.009
售	-11.009
懶	-11.0091
鏘	-11.0091
悼	-11.0092
袪	-11.0092
惺惺	-11.0092
贖	-11.0093
而用	-11.0095
付之	-11.0095
葵	-11.0095
掣	-11.0095
其門	-11.0096
沔	-11.0096
中分	-11.0098
蔬	-11.0098
陶鑄	-11.0099
隄防	-11.0099
水火旣濟	-11.01
鵠	-11.0101
狎	-11.0101
吒	-11.0102
塜	-11.0103
水源	-11.0103
䑓	-11.0105
回光	-11.0105
包羅	-11.0106
物命	-11.0106
必不能	-11.0107
純粹	-11.0109
也君子	-11.0111
金銀	-11.0111
乎夫	-11.0111
在家	-11.0111
不眞	-11.0112
修真	-11.0115
艱難	-11.0115
以火	-11.0117
節度	-11.0119
陰符經	-11.012
細細	-11.0121
而論	-11.0122
黃河	-11.0125
意馬	-11.0127
和也	-11.0127
蒼生	-11.0127
之家	-11.0128
具有	-11.013
飄然	-11.0134
一石	-11.0135
最爲	-11.0138
也必	-11.014
始成	-11.014
善則	-11.0141
小事	-11.0147
初三	-11.0147
達於	-11.0149
址	-11.015
因果	-11.0152
雲霄	-11.0154
可使之	-11.0155
性天	-11.0156
腹中	-11.0157
在身	-11.0158
太清	-11.0158
丹頭	-11.016
起居	-11.0163
中極	-11.0164
治也	-11.0166
有事	-11.0167
周行	-11.0171
自守	-11.0172
加以	-11.0174
爲首	-11.0175
其國	-11.0176
氣質	-11.0176
不貴	-11.0176
任他	-11.0178
月中	-11.019
之不同	-11.0191
先天炁	-11.0195
易知	-11.0199
不交	-11.02
幾人	-11.0208
來臨	-11.0209
淸眞	-11.0211
飛天	-11.0213
作惡	-11.022
立壇	-11.0222
不來	-11.0222
三華	-11.0222
如雲	-11.0224
見得	-11.0227
聖慈	-11.0228
演教	-11.0234
不空	-11.0235
矣所以	-11.0235
治身	-11.0237
流轉	-11.0238
諷誦	-11.0238
方外	-11.024
於已	-11.0241
十萬	-11.0243
以柔	-11.0243
玉文	-11.0243
寶鼎	-11.0247
本願	-11.0249
石門	-11.0252
色身	-11.0256
福夀	-11.0261
皇人	-11.0267
化形	-11.0268
拔出	-11.027
非凡	-11.0271
宣王	-11.0271
一周	-11.0274
照見	-11.028
殺者	-11.0281
正理	-11.0281
方見	-11.0284
初學	-11.0289
魏公	-11.0291
赤龍	-11.0293
遂致	-11.0297
不靈	-11.0297
涓	-11.03
一百二十	-11.0303
盜跖	-11.0303
嬉	-11.0304
隷	-11.0305
當先	-11.0306
繳	-11.0307
蛙	-11.0307
蒲團	-11.0308
一次爲一功	-11.0308
岫	-11.0309
縳	-11.0309
兢	-11.0309
與君	-11.031
誼	-11.031
碌碌	-11.0312
撲	-11.0312
遂至	-11.0312
澆	-11.0312
浣	-11.0314
栗	-11.0314
燼	-11.0315
歩	-11.0315
一呼一吸	-11.0315
不驕	-11.0315
摸	-11.0315
刹	-11.0317
〓〓	-11.0317
掀	-11.0318
同聲	-11.0319
匣	-11.0319
勻	-11.032
恍恍惚惚	-11.032
混然子曰	-11.032
帳	-11.0321
踴躍	-11.0321
禧	-11.0322
陽春	-11.0322
飈	-11.0322
菓	-11.0324
無識	-11.0324
耆	-11.0328
與道合眞	-11.0329
滛	-11.0329
城郭	-11.0331
海内	-11.0331
徐徐	-11.0332
陰德	-11.0333
行功	-11.0333
有身	-11.0334
五過	-11.0338
數語	-11.0339
順而	-11.0342
虛也	-11.0343
寶籙	-11.0344
上朝	-11.0345
塵沙	-11.0349
密密	-11.035
採戰	-11.035
火不	-11.0352
則火	-11.0353
之所爲	-11.0354
海蟾	-11.0355
天尊大悲德	-11.0359
作禮	-11.036
五賊	-11.0362
洞房	-11.0362
龍吟	-11.0365
請曰	-11.0367
斗中	-11.0368
吉也	-11.0368
合乎	-11.0371
也知	-11.0372
臥龍	-11.0373
不能盡	-11.0387
大過	-11.0389
張子	-11.039
煉己	-11.0399
煉之	-11.0402
者少	-11.0404
陽極	-11.0407
度數	-11.0407
又當	-11.0412
爲五過	-11.0412
雲霧	-11.0414
得來	-11.0414
生方	-11.0415
了然	-11.0416
之本也	-11.0419
獲福	-11.0421
欺人	-11.0425
之愆	-11.0427
順則	-11.0429
失於	-11.0429
温温	-11.043
受福	-11.0432
列仙	-11.0432
皆當	-11.0432
善根	-11.0433
儒家	-11.0438
三素	-11.0438
于此	-11.0445
自修	-11.0445
君親	-11.0445
傳授	-11.0446
鶴林	-11.0447
科事	-11.0451
不迷	-11.0452
大功	-11.0456
天文	-11.0457
不雜	-11.0458
風波	-11.0458
陰陽五行	-11.0463
則不然	-11.0463
廣化	-11.047
未成	-11.0477
關頭	-11.0484
用火	-11.0487
古來	-11.0489
未判	-11.049
似有	-11.0491
全書	-11.0491
春色	-11.0491
不忠	-11.0492
八節	-11.0495
有箇	-11.0496
通天尊大悲	-11.0499
▁遊	-11.0501
洪恩	-11.0503
無終	-11.0507
詩書	-11.0509
氣血	-11.0509
含靈	-11.0515
瀘	-11.0519
希有	-11.0521
哆	-11.0522
光中	-11.0523
道本無	-11.0526
矣蓋	-11.0528
可畏	-11.053
陰精	-11.0531
蹊	-11.0532
三首	-11.0535
三更	-11.0535
槩	-11.0535
怛	-11.0536
殄	-11.0536
入口	-11.0536
皆然	-11.0537
用此	-11.0537
冥心	-11.0538
汁	-11.0538
霖	-11.0539
抒	-11.0539
士之	-11.054
鐺	-11.054
自身	-11.054
元和	-11.0542
俗子	-11.0542
綏	-11.0543
祈禱	-11.0544
閨	-11.0544
妙寶神功顯號應化天尊偈曰	-11.0544
喘	-11.0544
喝	-11.0544
海上	-11.0545
三魂	-11.0546
徳	-11.0546
耽	-11.0546
以補	-11.0547
而失	-11.0547
摹	-11.0547
章第七	-11.0548
屈伸	-11.0548
今朝	-11.0549
泗	-11.0549
右洎	-11.0549
貪嗔	-11.055
蒼蒼	-11.0552
擬議	-11.0552
複	-11.0552
焉得	-11.0553
紐	-11.0553
充塞	-11.0554
如火	-11.0554
如初	-11.0555
十善	-11.0556
旡咎象曰	-11.0557
故其	-11.0557
有如此	-11.0557
玉蟾	-11.0562
統領	-11.0563
百脈	-11.0563
包含	-11.0565
瓊臺	-11.0565
亭亭	-11.0566
焉有	-11.0567
瞻仰	-11.057
最靈	-11.0571
丹基	-11.0571
大公	-11.0573
又問曰	-11.0575
經絡	-11.0577
意者	-11.0577
降臨	-11.0583
於家	-11.0585
之輩	-11.0586
生前	-11.0588
囘頭	-11.0588
妄心	-11.0592
浮生	-11.0592
石壁	-11.0592
也猶	-11.0596
羅列	-11.0596
顯化	-11.0597
跳出	-11.0598
切不可	-11.0598
三軍	-11.06
之願	-11.06
可知矣	-11.0601
不同而	-11.0602
七魄	-11.0602
元帥飛天	-11.0604
乃有	-11.0605
氣和	-11.0609
充足	-11.061
天目	-11.0611
百世	-11.0614
號爲	-11.0619
大易	-11.0621
必成	-11.0623
迄今	-11.0627
之爲物	-11.0629
眞體	-11.063
飛來	-11.063
妙化	-11.0632
以象	-11.0633
雲氣	-11.0633
天涯	-11.0634
内景	-11.0638
生生之	-11.0642
正當	-11.0645
雲路	-11.0648
四川	-11.0649
帝前	-11.065
之祕	-11.065
不能以	-11.0652
萬厯	-11.0656
善哉	-11.0658
四體	-11.0664
自悟	-11.0667
有形之	-11.0669
丹天	-11.0676
修士	-11.0686
實切	-11.0688
内照	-11.0694
不以爲	-11.0695
善緣	-11.0695
天下之至	-11.0698
不犯	-11.07
不移	-11.07
特賜	-11.0705
之宜	-11.0713
然必	-11.0714
生出	-11.0719
談道	-11.0719
儉者	-11.0724
一篇	-11.0726
勤行	-11.0728
哉夫	-11.0732
規中	-11.0732
法旨	-11.0738
水上	-11.074
是我	-11.0741
爲萬物	-11.0745
禮義	-11.0749
兩山	-11.0759
牟尼	-11.0763
釐	-11.0764
一無所	-11.0765
棘	-11.0766
天尊大悲弘	-11.0767
翦	-11.0767
念佛	-11.0769
彊	-11.077
款	-11.077
兑	-11.077
猴	-11.0771
𥪡	-11.0771
麽	-11.0772
絢	-11.0772
栖	-11.0772
璞	-11.0773
隆中	-11.0773
煌煌	-11.0773
爵祿	-11.0774
杭	-11.0774
二五	-11.0775
沼	-11.0775
毫釐	-11.0776
皇后	-11.0777
淆	-11.0777
蕪	-11.0778
善念	-11.0778
撇	-11.0779
森羅	-11.0779
咄	-11.078
帖	-11.078
生育	-11.0781
獅子	-11.0782
幡	-11.0782
劇	-11.0783
妥	-11.0783
雛	-11.0784
淫慾	-11.0784
換骨	-11.0784
桃源	-11.0785
有道之士	-11.0786
三境	-11.0787
嵓	-11.0788
滇	-11.0789
筋骨	-11.079
心腎	-11.0793
總歸	-11.0793
承天	-11.0794
書院	-11.0794
引証	-11.0795
臨壇	-11.0795
左手	-11.0795
而分	-11.0796
萬遍	-11.0797
試看	-11.08
維持	-11.0806
未濟	-11.0806
厯代	-11.0808
多矣	-11.0809
以利	-11.0812
乾坤坎離	-11.0812
之有也	-11.0815
金性	-11.0816
萬眞	-11.0816
依科	-11.0816
也上九	-11.0818
私欲	-11.0818
䝉恩	-11.0819
七年	-11.0822
山高	-11.0822
獨立	-11.0822
淸心	-11.0824
翠微	-11.0827
九日	-11.0828
特爲	-11.0829
也然則	-11.0831
救世	-11.0831
之計	-11.0832
同乎	-11.0832
世之人	-11.0836
又將	-11.0836
剛中	-11.0836
至若	-11.084
上應	-11.0841
修性	-11.0842
咒曰	-11.0842
無形之	-11.0845
五功	-11.0847
八九	-11.0847
大凡	-11.0848
但能	-11.0848
者也故	-11.0858
十五里	-11.0859
祀典	-11.086
足下	-11.0863
罪過	-11.0867
心空	-11.0868
微微	-11.0871
恐其	-11.0872
豈容	-11.0873
性靈	-11.0876
紫極	-11.0877
滿足	-11.0877
深山	-11.0878
萬萬	-11.0881
故得	-11.0883
其明	-11.0884
漸長	-11.0886
著書	-11.0887
中秋	-11.0889
煉氣	-11.0891
斯時	-11.0893
置之	-11.0899
難名	-11.0901
聲聞	-11.0902
九華	-11.0905
一致	-11.0906
之厄	-11.091
不得已而	-11.091
不停	-11.0911
世道	-11.0912
自矜	-11.0913
日新	-11.0913
道術	-11.0913
止火	-11.0914
合同	-11.0915
天地之氣	-11.0915
分野	-11.0916
汝當	-11.0917
無爲則	-11.0923
之序	-11.0923
出現	-11.0925
隱於	-11.0927
亦難	-11.0929
九靈	-11.0931
秋月	-11.0935
遷善	-11.0936
心猿	-11.0938
一種	-11.0938
五十過	-11.0939
十華	-11.0939
多方	-11.094
天地之道	-11.0943
雷神	-11.0943
而還	-11.0944
財物	-11.0945
原本	-11.0945
天開	-11.0945
妄言	-11.0945
百福	-11.0949
木爲	-11.0956
專一	-11.0956
聖境	-11.0959
相隨	-11.0959
龍漢	-11.096
善信	-11.0962
靈山	-11.0963
七眞	-11.0963
從治得道神君	-11.0964
之所能	-11.0966
坤元	-11.0968
應聲	-11.0971
武侯祠	-11.0972
坤之	-11.0974
上詣	-11.0975
修玄	-11.098
離宫	-11.0983
語曰	-11.0984
天尊大悲福	-11.0985
又恐	-11.0986
總要	-11.0986
妙境	-11.0989
事物	-11.0992
偶然	-11.0993
交相	-11.0994
誥志心皈命禮	-11.0995
至公	-11.0996
盡是	-11.0996
其才	-11.0997
輅	-11.1
保舉	-11.1
其外	-11.1001
在目前	-11.1001
疫癘	-11.1003
尊師	-11.1003
瑣	-11.1003
夏至	-11.1004
赦宥	-11.1004
拍	-11.1004
咫尺	-11.1004
老翁	-11.1005
洗滌	-11.1007
嚼	-11.1007
埀	-11.1008
紋	-11.1008
斵	-11.1008
人君	-11.1009
楮	-11.101
餒	-11.101
太上虛皇三寶十方三界萬靈保	-11.1011
邉	-11.1011
俱在	-11.1011
4	-11.1012
遵行	-11.1012
驢	-11.1012
巻	-11.1013
堵	-11.1013
剔	-11.1014
嘲	-11.1014
自相	-11.1014
得中	-11.1014
迥	-11.1014
餅	-11.1015
楓	-11.1016
者耶	-11.1016
中道	-11.1016
哺	-11.1017
急急如律令	-11.1017
三千六百	-11.1017
閬苑	-11.1018
棗	-11.1018
六腑	-11.102
擾擾	-11.102
瀑布	-11.102
孔孟	-11.1023
冐	-11.1024
盤旋	-11.1027
太始	-11.1029
終身不	-11.1031
自如	-11.1032
尙存	-11.1033
請命	-11.1033
情識	-11.1034
朱砂	-11.1035
混融	-11.1035
御政	-11.1039
紫霞	-11.1039
吾願	-11.104
十餘年	-11.104
受氣	-11.1042
作商	-11.1044
母元君	-11.1044
國王	-11.1047
亦不得	-11.1048
之別	-11.105
極其	-11.1053
二十三	-11.1053
嘆曰	-11.1054
到得	-11.1056
神將	-11.106
玄根	-11.106
亘古	-11.1062
說到	-11.1062
冥司	-11.1063
閉目	-11.1069
啟請	-11.1076
由來	-11.1079
今年	-11.1079
至靜	-11.1079
萬變	-11.108
轉移	-11.1087
片時	-11.1087
洞洞	-11.1088
眞境	-11.1091
合符	-11.1091
生意	-11.1092
和則	-11.1093
是心	-11.1093
讀之	-11.1101
碧玉	-11.1102
知見	-11.1105
不幸	-11.1107
之累	-11.1107
心志	-11.1109
由心	-11.1109
氣穴	-11.1112
將吏	-11.1112
日出	-11.1112
道之人	-11.1112
無奈	-11.1116
昏昏	-11.1117
一靈	-11.1119
與天地同	-11.1123
雷聲	-11.1126
一時之	-11.1128
黑白	-11.1131
不可不知	-11.1131
易於	-11.1131
請問	-11.1132
而登	-11.1135
少女	-11.1136
福果	-11.1136
梵天	-11.1145
發露	-11.1151
必待	-11.1153
相濟	-11.1153
紫淸	-11.1154
已盡	-11.1154
者不過	-11.1161
入意	-11.1161
同體	-11.117
三十里	-11.1173
世天尊大悲	-11.1174
不終	-11.1179
多生	-11.118
報德	-11.1182
爲鬼	-11.1184
飛玄	-11.1187
大海	-11.1188
也若夫	-11.1188
光景	-11.1191
渾合	-11.1195
先覺	-11.1195
是曰	-11.1196
子房	-11.1199
必由	-11.1201
則易	-11.1206
治心	-11.1207
應感	-11.1209
玉經	-11.1211
形質	-11.1211
二日	-11.1212
靑帝	-11.1215
四十九	-11.1218
出陽神	-11.1218
以俟	-11.122
皆屬	-11.1221
太祖	-11.1222
重刋道藏輯要	-11.1223
問於	-11.123
惜乎	-11.123
秋風	-11.123
矣乃	-11.1232
保全	-11.1234
欲使	-11.1234
志心朝禮	-11.1235
倣	-11.1235
八年	-11.1238
邪淫	-11.1239
箇中	-11.124
合爲一	-11.1243
脱	-11.1244
笥	-11.1246
牌	-11.1247
精修	-11.1249
饈	-11.1249
闗	-11.1249
迸	-11.125
況	-11.1251
炷	-11.1251
粘	-11.1252
鉤	-11.1252
榆	-11.1254
嶠	-11.1255
b	-11.1255
龕	-11.1256
鳳凰	-11.1256
祭祀	-11.1256
凄	-11.1257
煉神還虛	-11.1257
黔	-11.1257
膀胱	-11.1258
浩蕩	-11.1258
十方三界	-11.1258
儘	-11.1258
伎	-11.1259
漾	-11.1259
𡽪	-11.1259
明心見性	-11.1259
者因	-11.126
妬	-11.126
翩翩	-11.1262
太上老君	-11.1262
旌旗	-11.1262
開壇	-11.1263
鐸	-11.1263
馨香	-11.1264
个	-11.1264
流入	-11.1265
釡	-11.1266
爲二過	-11.1266
勇猛	-11.1266
洞徹	-11.1267
都督	-11.1267
瘟疫	-11.1267
聿	-11.127
三里	-11.127
精精	-11.127
之主宰	-11.1274
洛書	-11.1274
及時	-11.1276
君王	-11.1276
分形	-11.1278
第十五	-11.1279
注生	-11.1279
取諸	-11.1279
不懼	-11.1281
萬福	-11.1281
也然而	-11.1282
須彌	-11.1283
萬二千	-11.1283
洪慈	-11.1283
性性	-11.1284
恐懼	-11.1285
者故	-11.1285
選仙	-11.1291
相連	-11.1294
所用	-11.1295
五音	-11.1299
年年	-11.13
如何是	-11.13
死灰	-11.1302
神鬼	-11.1302
不貪	-11.1305
玉晨	-11.1309
後先	-11.1309
吾子	-11.1312
普化	-11.1312
勅令	-11.1312
三災	-11.1314
之質	-11.1316
七政	-11.1321
所宜	-11.1323
本身	-11.1328
放光	-11.1329
能解	-11.1329
各得其	-11.1332
詳言	-11.1333
飄飄	-11.1337
海水	-11.1337
漢室	-11.134
生我	-11.1343
豈惟	-11.1343
念起	-11.1346
朝天	-11.1346
祈福	-11.1354
安居	-11.1354
法力	-11.1359
化機	-11.1375
高遠	-11.1378
天氣	-11.1379
寡欲	-11.1382
宮中	-11.1383
心田	-11.1387
相望	-11.1387
度人無量	-11.139
聲音	-11.1391
多年	-11.1391
資始	-11.1394
玉池	-11.1394
度命	-11.1395
在在	-11.1397
氣聚	-11.1403
真君	-11.1404
心目	-11.1404
臨爐	-11.1406
修崇	-11.1406
慶雲	-11.1413
本末	-11.1414
視爲	-11.1414
刑德	-11.1417
罪福	-11.142
勤修	-11.142
之貌	-11.1421
聖功	-11.1424
無根	-11.1427
之柄	-11.143
此謂	-11.143
不知何	-11.1434
有志者	-11.1434
長生觀	-11.144
四面	-11.1441
棄之	-11.1441
卽先天	-11.1444
白石	-11.1445
安得不	-11.1446
又復	-11.1447
所致	-11.145
大本	-11.1453
安神	-11.1453
不見有	-11.1457
切莫	-11.1459
第十六	-11.1462
亦同	-11.1466
之深	-11.1466
尙可	-11.1469
所載	-11.147
證眞	-11.147
虛天尊大悲	-11.1474
女丹	-11.1475
本行	-11.1475
其親	-11.1475
胎中	-11.1477
諸法	-11.1477
向外	-11.1479
自我	-11.148
煉炁	-11.1482
妙果	-11.1488
相同	-11.1488
不免於	-11.1488
忽見	-11.149
諸眾生	-11.1493
殺生	-11.1495
不盈	-11.1498
應事	-11.1499
桀	-11.15
望其	-11.15
抉	-11.15
珮	-11.1501
葫蘆	-11.1501
變而爲	-11.1502
跂	-11.1503
瞬	-11.1504
玷	-11.1504
蔚	-11.1505
䙝	-11.1505
斡旋	-11.1506
鬻	-11.1507
凟	-11.1507
也於是	-11.1507
柔順	-11.1507
虛極靜篤	-11.1507
梨	-11.1507
緬	-11.1508
稿	-11.1508
靑山	-11.1508
妒	-11.1509
司馬懿	-11.1509
熏	-11.1509
坊	-11.151
活子時	-11.151
毘	-11.151
陌	-11.1511
螺	-11.1511
棹	-11.1511
寳	-11.1511
丞相亮	-11.1511
駒	-11.1511
王天君曰	-11.1512
鍊氣	-11.1512
掌握	-11.1513
太過	-11.1514
壬癸	-11.1514
元始符命	-11.1515
緖	-11.1515
亦爲	-11.1515
侍郎	-11.1515
綱維	-11.1515
蹶	-11.1517
三界十方	-11.1517
尤爲	-11.1519
杳杳冥冥	-11.152
梢	-11.1521
守雌	-11.1522
貪狼	-11.1522
諸葛孔明	-11.1522
良辰	-11.1525
於其間	-11.1525
祁山	-11.1527
殊途	-11.1528
鼓舞	-11.1528
直符	-11.1529
且有	-11.1529
龍沙	-11.1531
脫離	-11.1532
無分	-11.1533
今日之	-11.1534
窮通	-11.1536
色界	-11.154
武昌	-11.1543
備矣	-11.1544
有一毫	-11.1552
證天尊大悲	-11.1553
羽士	-11.1558
神祇	-11.1559
獨存	-11.1559
山澤	-11.156
天際	-11.1564
乾乾	-11.1565
儼然	-11.1572
因人	-11.1574
曹公	-11.1576
貴於	-11.1582
雷府	-11.1582
冲虛	-11.1587
羣魔	-11.1588
大梵	-11.1588
神妙	-11.1589
只一	-11.159
四正	-11.1592
之竅	-11.1592
一笑	-11.1593
端的	-11.1594
婆心	-11.1601
本眞	-11.1603
虛無自然	-11.1605
以和	-11.161
訪道	-11.1612
金公	-11.1613
七曲	-11.1616
萬殊	-11.1618
一拜	-11.1619
思量	-11.1619
天風	-11.162
法王	-11.1627
也况	-11.1629
手執	-11.1632
乞恩	-11.1634
一供	-11.1636
南山	-11.164
特與	-11.1642
胎神	-11.1643
之辰	-11.1643
乘風	-11.1644
氣運	-11.1647
而强	-11.1648
未敢	-11.1648
師傳	-11.1655
吾亦	-11.1665
正中	-11.1671
腎中	-11.1672
天威	-11.1675
陰功	-11.1677
列於	-11.1678
玉字	-11.1678
狀如	-11.168
半月	-11.1685
在身中	-11.1685
三丰先生	-11.1687
受戒	-11.169
上田	-11.1701
祉	-11.1703
五倫	-11.1708
陛	-11.1711
諸惡	-11.1713
中國	-11.1715
大慈悲	-11.1715
專爲	-11.1716
洞達	-11.172
夜月	-11.1727
精思	-11.1729
一誠	-11.1736
大還	-11.1741
齎	-11.1743
司額	-11.1745
釜	-11.1745
禮謝	-11.1745
商賈	-11.1746
黃鶴	-11.1746
誠惶誠恐稽首頓首	-11.1748
文火	-11.175
感而遂通	-11.175
帝眞	-11.1751
主司	-11.1752
鷹	-11.1752
奄	-11.1753
峩	-11.1753
愚夫	-11.1754
養胎	-11.1754
皂	-11.1754
梓潼	-11.1756
定中	-11.1757
訕	-11.1757
五體	-11.1758
批	-11.1758
裴	-11.1758
賭	-11.1759
爇	-11.176
▁微念咒曰	-11.176
生木	-11.176
湫	-11.1761
欲知	-11.1761
品物	-11.1761
抱朴子	-11.1762
妻妾	-11.1762
2	-11.1762
肌	-11.1763
稷	-11.1763
虔	-11.1763
閏	-11.1764
帙	-11.1764
湥	-11.1764
窘	-11.1765
麾	-11.1765
肘	-11.1765
汶	-11.1765
籥	-11.1766
八兩	-11.1766
東坡	-11.1766
臼	-11.1767
物欲	-11.1767
磧	-11.1767
真靈	-11.1767
蜜	-11.1768
蓬壺	-11.1769
蘂	-11.1769
粥	-11.177
旻	-11.1771
渺	-11.1771
樞紐	-11.1772
道力	-11.1774
津液	-11.1775
一點靈光	-11.1775
鐵笛	-11.1777
益算	-11.1777
厚德	-11.1778
渾沌	-11.1778
吐納	-11.1779
不禁	-11.178
欣然	-11.1783
巵	-11.1784
寺僧	-11.1786
三峯	-11.1789
一過	-11.1792
爲二十過	-11.1796
比之	-11.1796
觀此	-11.1797
七八	-11.1799
曲折	-11.18
謹奏爲	-11.18
冲舉	-11.18
彼岸	-11.18
一定之	-11.1801
維新	-11.1801
陳泥丸	-11.1802
蟠桃	-11.1803
洞賓	-11.1804
因循	-11.1805
無傷	-11.1806
參禪	-11.1806
莊老	-11.1807
壬子	-11.181
哉故	-11.1811
塵凡	-11.1815
當空	-11.1818
林泉	-11.182
憂患	-11.1821
羣陰	-11.1822
小兒	-11.1824
獲罪	-11.1825
盈滿	-11.1825
歌曰	-11.1826
始靑	-11.1827
住世	-11.1829
防危	-11.183
資生	-11.1831
吾當	-11.1834
嗣教	-11.1838
深藏	-11.1843
惟知	-11.1846
如前	-11.1847
看得	-11.1855
無差	-11.1855
其源	-11.1856
善用	-11.1856
凝聚	-11.186
造就	-11.1861
卽知	-11.1861
依法	-11.1861
上奏	-11.1864
古佛	-11.1865
完全	-11.1868
平常	-11.1868
再加	-11.1871
𡻕時	-11.1872
師友	-11.1872
無咎	-11.1876
夢覺	-11.1878
天香	-11.1879
修行人	-11.1879
相續	-11.1884
且夫	-11.1888
如龍	-11.1891
執法	-11.1894
此種	-11.1894
賦詩	-11.1895
天花	-11.1895
窮理	-11.1898
道情	-11.19
我欲	-11.19
道德之	-11.1902
經法	-11.1904
之圖	-11.1905
含眞	-11.1907
出于	-11.1909
生化	-11.1909
也人能	-11.1916
義則	-11.1919
若干	-11.1924
四生	-11.1928
一路	-11.1937
如此則	-11.194
這些	-11.1944
不惜	-11.1945
火中	-11.1949
得證	-11.195
善士	-11.1951
又見	-11.1952
善言	-11.1952
金碧	-11.1952
浮空	-11.1954
太眞	-11.1956
胡不	-11.1957
吾教	-11.1958
鍊已	-11.1959
是亦	-11.1966
好道	-11.1968
隨心	-11.1972
卦爻	-11.1973
各具	-11.1979
離宮	-11.198
氣凝	-11.198
自作	-11.1982
無一物	-11.1984
在人身	-11.1986
惡報	-11.1987
炁炁	-11.1988
惑於	-11.1991
持戒	-11.1998
鼎内	-11.2
吏兵	-11.2002
見我	-11.2002
道前	-11.2002
裨	-11.2003
肅淸	-11.2004
玄祖	-11.2006
下情無任	-11.2006
往生	-11.2008
無罪	-11.2011
噬	-11.2011
之迹	-11.2011
稅	-11.2012
斛	-11.2013
孑	-11.2013
眞形	-11.2015
臟	-11.2015
劑	-11.2016
色色	-11.2016
利人	-11.2016
耿	-11.2016
百拜	-11.2017
之失	-11.2018
筍	-11.2018
笋	-11.2019
帷	-11.2019
訾	-11.2019
蜩	-11.2019
爨	-11.202
寂照	-11.202
盞	-11.2021
今夫	-11.2021
霆	-11.2022
中流	-11.2022
圜	-11.2022
敞	-11.2022
粉碎	-11.2022
弻	-11.2025
之人也	-11.2025
寨	-11.2026
榜文	-11.2026
鷺	-11.2026
鯨	-11.2026
鑠	-11.2026
有路	-11.2027
昏沉	-11.2027
枷	-11.2027
鑰	-11.2027
靑衣	-11.2027
螻蟻	-11.2027
馥	-11.2028
隳	-11.2028
凑	-11.2028
混一	-11.2029
無聲無臭	-11.2029
6	-11.2029
眞陰眞陽	-11.2029
撑	-11.203
打成一片	-11.2031
睛	-11.2032
檄	-11.2032
造意者切以	-11.2033
晨昏	-11.2036
豚	-11.2037
天一生水	-11.2037
搗	-11.2039
閙	-11.204
由是而	-11.2041
猛省	-11.2042
寶筏	-11.2043
順行	-11.2045
榮辱	-11.2045
繫辭	-11.2048
鼓琴	-11.2049
興隆	-11.2052
寶天尊大悲	-11.2053
藥材	-11.2055
文尼	-11.2056
不怠	-11.2057
紫房	-11.2057
統御	-11.2057
列子	-11.206
養形	-11.206
統攝	-11.2062
千人	-11.2063
浮沈	-11.2065
四隅	-11.2066
玉書	-11.2071
靈書	-11.2072
異日	-11.2073
六甲	-11.2073
常常	-11.2075
而不動	-11.2078
大戒	-11.208
江陵	-11.2081
中虛	-11.2085
一門	-11.2087
所著	-11.2089
數十年	-11.209
功修	-11.2094
羣迷	-11.2096
倫常	-11.2097
柔而	-11.2097
仙機	-11.21
之表	-11.2104
不怒	-11.2106
之咎	-11.2106
我等	-11.2106
倘有	-11.211
建興	-11.211
全功	-11.2112
神之所	-11.2114
覺照	-11.2115
沖虛子	-11.2117
自足	-11.2118
開口	-11.2119
之體也	-11.2119
不輟	-11.2119
顯露	-11.2119
情慾	-11.212
綱常	-11.212
表文	-11.2121
以奉	-11.2126
休息	-11.2128
强制	-11.2129
利器	-11.2132
朗然	-11.2132
心存	-11.2136
佛家	-11.214
上中下	-11.2144
觀察	-11.2145
示以	-11.2147
非徒	-11.2148
皆從此	-11.215
人身之	-11.2154
飛龍	-11.2155
人身中	-11.2158
之眾	-11.2159
而至於	-11.216
一畫	-11.2161
家庭	-11.2165
那得	-11.2168
妄作	-11.2169
劫數	-11.217
定息	-11.2171
疑其	-11.2171
玄冥	-11.2177
王侯	-11.2177
之軀	-11.2178
治病	-11.2178
相遇	-11.2178
間隔	-11.2178
隱士	-11.2181
修命	-11.2182
弱水	-11.2182
長養	-11.2182
萬億	-11.2184
高山	-11.2185
陳情	-11.2186
其父	-11.2186
無失	-11.2187
愈遠	-11.2188
無偏	-11.2192
應變	-11.2195
用之則	-11.2195
福報	-11.2196
自覺	-11.2197
持齋	-11.2198
二仙	-11.2199
仁義之	-11.2202
大寶	-11.2206
又言	-11.2206
洞照	-11.2207
同行	-11.2208
當然	-11.2208
結就	-11.2211
皆具	-11.2211
始見	-11.2214
忽忽	-11.2216
直下	-11.2216
西天	-11.2219
恐人	-11.222
未足	-11.2221
地理	-11.2222
寶座	-11.2225
終歸	-11.2226
仙都	-11.2227
此之謂也	-11.2228
七覺	-11.223
便成	-11.2232
也何謂	-11.2235
不能入	-11.2235
不煩	-11.2236
散亂	-11.224
江水	-11.224
舟中	-11.2241
爲汝	-11.2244
四曰	-11.2245
超乎	-11.2252
身後	-11.2253
不知其所	-11.2254
玄科	-11.2257
土府	-11.226
長生久視	-11.2261
中含	-11.2265
人之所以	-11.2266
㳟望	-11.227
不侵	-11.2271
也噫	-11.2273
已身	-11.2273
秤	-11.2275
天地陰陽	-11.2276
有力	-11.2282
至孝	-11.2284
苟非	-11.2284
霍	-11.2285
酆	-11.2285
泉石	-11.2286
杵	-11.2287
志在	-11.2287
氣候	-11.2288
鍳	-11.2288
騙	-11.229
好生之德	-11.2291
娑	-11.2292
轡	-11.2293
殼	-11.2293
榛	-11.2294
常鎭我	-11.2294
掖	-11.2294
㕓	-11.2294
▁服符畢叩齒三通微聲朗念謹請	-11.2294
埃	-11.2295
舟楫	-11.2295
綘	-11.2295
雹	-11.2296
俺	-11.2296
孝悌	-11.2297
鰲	-11.2297
百𡻕	-11.2298
鞠	-11.2298
四眾	-11.2298
曹總案	-11.2299
症	-11.2299
凛	-11.23
葺	-11.23
滅盡定	-11.23
挑	-11.2301
月月	-11.2301
春日	-11.2301
忤	-11.2302
牕	-11.2302
二七	-11.2302
夢寐	-11.2302
綿綿若存	-11.2303
瓊漿	-11.2303
至眞妙道	-11.2304
彥	-11.2304
殷勤	-11.2304
衙	-11.2306
靜處	-11.2307
弁	-11.2307
綱紀	-11.2308
侍衞	-11.2308
韜光	-11.2311
退陰符	-11.2313
常靜	-11.2315
准提	-11.2316
哀憫	-11.2318
天福	-11.2319
天省	-11.232
相爲	-11.2321
不得謂之	-11.2322
甲兵	-11.2322
徒然	-11.2323
吾欲	-11.2327
調停	-11.2328
神遊	-11.2328
三島	-11.2328
操持	-11.2329
方隅	-11.2329
仙仗	-11.233
這般	-11.2334
南嶽	-11.2334
妄行	-11.2337
太史	-11.2337
大修行人	-11.2338
口舌	-11.234
垂訓	-11.2342
已久	-11.2343
又從	-11.2345
苦趣	-11.2345
揚州	-11.2345
宣化	-11.2349
榮華	-11.2354
武火	-11.2354
洞元	-11.2355
苟不	-11.2356
福德	-11.2359
劫劫	-11.236
輕淸	-11.236
亦如是	-11.2361
皇皇	-11.2361
春夏	-11.2362
不計	-11.2371
經筵	-11.2371
懷胎	-11.2371
四時之	-11.2372
巨石	-11.2373
西華	-11.2376
修習	-11.2378
不愼	-11.2381
之炁以	-11.2382
星眞	-11.2386
欲速	-11.2386
怪石	-11.2389
奏請	-11.2389
回向	-11.2391
我願	-11.2391
土土	-11.2392
經功	-11.2398
上登	-11.2402
至微	-11.2406
飛揚	-11.2406
應干	-11.241
深深	-11.2411
傳世	-11.2415
眞誥	-11.2419
到頭	-11.2419
光耀	-11.242
而不用	-11.2421
立教	-11.2424
號令	-11.2428
玄理	-11.2428
預修	-11.2431
忘物	-11.2431
人之善	-11.2432
坤母	-11.2438
寶劍	-11.2438
豈是	-11.2442
覺路	-11.2446
落花	-11.245
所求	-11.245
兒女	-11.2452
是以君子	-11.2453
損人	-11.2457
侯王	-11.2457
聚會	-11.2459
妙義	-11.246
周天火候	-11.2465
顏子	-11.2465
朝陽	-11.2466
談玄	-11.2469
無塵	-11.247
不妨	-11.247
就是	-11.247
本心	-11.2472
圖解	-11.2475
一節	-11.248
皇極	-11.2489
况於	-11.2492
永固	-11.2498
誦此經	-11.2501
二十里	-11.2507
不淨	-11.2514
在人爲	-11.2515
煉性	-11.2516
定慧	-11.2516
當思	-11.2517
乾父	-11.2517
開元	-11.2517
神龍	-11.2521
所以然者	-11.2522
施功	-11.2525
二儀	-11.253
六祖	-11.253
昔有	-11.2532
誥至心皈命禮	-11.2533
亦卽	-11.2535
偃月	-11.2536
二君	-11.2537
慈憫	-11.254
天尊大悲保	-11.2547
哀哉	-11.2547
其辭	-11.2548
章第四十	-11.2549
惡道	-11.255
果然	-11.2552
本屬	-11.2554
眞僞	-11.2557
未到	-11.2559
便宜	-11.2561
禮誦	-11.2561
法語	-11.2562
札	-11.2563
與汝	-11.2563
幃	-11.2564
葦	-11.2565
歿	-11.2565
解所犯	-11.2565
儆	-11.2565
腋	-11.2568
翟	-11.2568
肌膚	-11.2569
孝道	-11.2569
保守	-11.2569
跛	-11.2569
0052	-11.2569
0052-04_	-11.257
玄風	-11.2571
戢	-11.2571
姻	-11.2572
等至心皈命禮願稽首讚揚	-11.2572
𦊱	-11.2572
纂	-11.2573
今應投誠一心敬禮一心敬禮	-11.2573
楞嚴經	-11.2573
蝴蝶	-11.2574
嶼	-11.2575
里社	-11.2575
預禳	-11.2575
入藥鏡	-11.2575
屹	-11.2575
煉精化炁	-11.2576
一心回向九天心印會上	-11.2576
麻姑	-11.2576
瘵案主者都府管	-11.2576
倩	-11.2577
寥廓	-11.2577
俠	-11.2578
鳬	-11.2578
遡	-11.2578
潦	-11.2579
異香	-11.2579
繚繞	-11.258
㓂	-11.258
廣成子	-11.258
肢體	-11.2581
自愛	-11.2581
時辰	-11.2581
全形	-11.2582
滯魄	-11.2582
活潑潑	-11.2582
畦	-11.2583
浮邱	-11.2583
鳥獸	-11.2584
玄穹	-11.2584
旦夕	-11.2584
口授	-11.2585
四年	-11.2585
炁足	-11.2586
京師	-11.2588
靜默	-11.2589
煦	-11.2589
坎爲	-11.2589
蘚	-11.259
莫謂	-11.2591
半斤	-11.2592
銀河	-11.2592
1	-11.2595
運心	-11.2597
元元	-11.2601
不減	-11.2601
敷陳	-11.2601
食肉	-11.2601
者必有	-11.2603
省察	-11.2605
聖慈允	-11.2607
宣說	-11.2608
災厄	-11.2608
嗜欲	-11.2608
庚方	-11.2615
自欺	-11.2618
罪愆	-11.2619
猶龍	-11.262
而不言	-11.262
累劫	-11.2621
二里	-11.2623
其他	-11.2624
也九三	-11.2625
一顆	-11.2625
聖心	-11.263
六欲	-11.2631
洞淵	-11.2631
九品	-11.2631
丹爐	-11.2632
出處	-11.2633
盛德	-11.2637
丹鼎	-11.2648
與之俱	-11.2648
道門	-11.2649
朗念	-11.2651
武帝	-11.2651
者亦有	-11.2653
不休	-11.2661
封固	-11.2663
一口	-11.2668
勅旨	-11.2668
住持	-11.267
溪山	-11.267
内視	-11.2671
氣數	-11.2674
經籙	-11.2675
全賴	-11.2676
水中金	-11.2677
難知	-11.2682
玉簡	-11.2682
前程	-11.2686
集福	-11.269
紫陽眞人	-11.269
離合	-11.269
道原	-11.2699
先帝	-11.2701
或云	-11.2704
無碍	-11.2708
伏氣	-11.271
時候	-11.271
紫虛	-11.271
十九年	-11.2713
孟子曰	-11.2715
此三者	-11.2717
飛行	-11.2717
讀者	-11.2718
應乎	-11.272
念慮	-11.2721
四首	-11.2722
患難	-11.2724
云爾	-11.2726
兩手	-11.2733
始炁	-11.2741
六子	-11.2742
眾妙	-11.2742
正念	-11.2742
伏藏	-11.2743
不憚	-11.2752
大元帥	-11.2759
斯民	-11.2759
萬山	-11.2759
力士	-11.2761
契合	-11.2764
狀元	-11.2774
靑雲	-11.2777
諸魔	-11.2778
腎水	-11.2781
不惑	-11.2782
一丈	-11.2786
三省	-11.2786
心君	-11.279
甚易	-11.2791
致虛	-11.2792
方方	-11.2793
岷	-11.2793
三十九	-11.2794
凡塵	-11.2795
做得	-11.2795
滯於	-11.2797
加功	-11.2798
復卦	-11.2802
乾金	-11.2805
歸宿	-11.2809
第十四	-11.281
今來	-11.2814
相繼	-11.2815
謂我	-11.2815
未嘗有	-11.2817
某某	-11.2819
有時而	-11.2819
華葢	-11.282
一如誥命天運年月日告下	-11.2822
四十八	-11.2825
教法	-11.2825
無比	-11.2827
貪求	-11.2828
爲最	-11.2831
惟聖人	-11.2835
起火	-11.2835
東山	-11.2839
之鄕	-11.2843
天雷聲普化天尊高上	-11.2844
利有攸往	-11.2844
致心皈命禮	-11.2844
無著	-11.2847
仰觀	-11.2847
冊	-11.2848
地祗	-11.2848
喃	-11.2849
同異	-11.2849
瞑	-11.2849
熒惑	-11.285
碁	-11.2851
玲瓏	-11.2852
蚊	-11.2853
軿	-11.2854
返本還元	-11.2854
褻	-11.2854
緜	-11.2855
正陽帝君曰	-11.2855
功業	-11.2855
罅	-11.2855
慈諸天眞宰度災濟	-11.2856
行住坐卧	-11.2856
廡	-11.2857
曇	-11.2857
丙丁	-11.2857
湮	-11.2858
蝕	-11.2858
干戈	-11.2858
諄諄	-11.2859
懴禱已陳㳟申諷詠稽首皈依	-11.2859
凡屬	-11.2861
昆蟲	-11.2861
猪	-11.2862
蹙	-11.2862
榭	-11.2862
☷	-11.2863
信禮已周仰對慈尊㳟申懴	-11.2865
鴛	-11.2865
糊	-11.2867
河洛	-11.2868
下丹田	-11.2869
店	-11.2869
謹奏	-11.2871
湯武	-11.2873
松柏	-11.2874
罪咎	-11.2874
降福	-11.2875
爲二功	-11.2876
仙階	-11.2877
慵	-11.288
槁木	-11.288
報本	-11.2881
透徹	-11.2882
也六五	-11.2882
寅具	-11.2884
似此	-11.2885
不可知	-11.2889
後跋	-11.2898
參透	-11.2904
同登	-11.2904
波羅	-11.2904
城西	-11.2906
六慾	-11.2907
安排	-11.2908
諸葛公	-11.2908
先從	-11.2909
僧道	-11.2914
平康	-11.2916
生之時	-11.2916
秘旨	-11.2921
玉局	-11.2922
靈異	-11.2924
四季	-11.2926
和尙	-11.2926
水旱	-11.2927
關羽	-11.2928
帝勅	-11.293
操存	-11.2931
玄黃	-11.2935
吾身之	-11.2936
至陽	-11.2937
雲錦	-11.2941
燒香	-11.2944
自持	-11.2945
不踰	-11.2945
十二時中	-11.2951
下臨	-11.2954
無以爲	-11.2957
淫事	-11.2958
翠虛	-11.2958
威德	-11.2961
一中	-11.2963
叩拜至心朝禮	-11.2964
立法	-11.2964
去處	-11.2969
罪業	-11.2971
異端	-11.2972
參悟	-11.2983
聚散	-11.2984
無敵	-11.2986
神農	-11.2993
天尊大悲貞	-11.2996
長江	-11.2996
等閒	-11.2997
縱使	-11.2998
惟見	-11.2999
内藏	-11.3003
元帥天	-11.3003
設使	-11.3007
必有所	-11.3011
不懈	-11.3017
向善	-11.3017
難逃	-11.3019
人之道	-11.3022
説法	-11.3022
寰中	-11.303
池中	-11.303
訓天尊大悲	-11.3038
設教	-11.304
十步	-11.3046
火熾	-11.3046
余曰	-11.3048
與之爲	-11.3049
乾陽	-11.3051
之爲道	-11.3055
多事	-11.3056
難免	-11.3056
而後知	-11.3057
輟	-11.3057
之所在	-11.3063
一尺	-11.3063
似乎	-11.3065
總結	-11.3065
萬魔	-11.3069
五味	-11.3078
雜念	-11.3078
最高	-11.3079
曷以	-11.3081
佛言	-11.3084
各有所	-11.3085
甚至	-11.3085
法雨	-11.3086
苦心	-11.3086
黃花	-11.3089
題詩	-11.3093
五品	-11.3098
靈性	-11.3099
籟	-11.31
交接	-11.31
纔得	-11.3103
孝友	-11.3104
能消	-11.3105
至心朝禮	-11.3107
真炁	-11.3109
山谷	-11.3112
在壇	-11.3117
言說	-11.3121
玉府	-11.3122
不甯	-11.3124
此義	-11.3124
風俗	-11.3124
在目	-11.3131
草木之	-11.3133
無滯	-11.3133
猶然	-11.3135
小成	-11.3135
春光	-11.3141
仙姬	-11.3141
帡幪	-11.3142
一介	-11.3143
甸	-11.3143
槖	-11.3144
脾胃	-11.3144
蠟	-11.3146
二仙菴	-11.3146
綜	-11.3147
聖位	-11.3147
閽	-11.3147
恚	-11.3147
謖	-11.3148
卉	-11.3148
尙在	-11.3149
擺	-11.315
磊	-11.315
飭	-11.315
六道四生	-11.3151
旁有	-11.3151
駁	-11.3151
玄天上帝	-11.3151
玄通	-11.3151
叮嚀	-11.3152
心息相依	-11.3153
厓	-11.3153
鄒	-11.3153
屨	-11.3154
瘵	-11.3154
形神俱妙與道合眞	-11.3154
螢	-11.3154
可免	-11.3155
也九五	-11.3155
溷	-11.3155
美惡	-11.3155
紗	-11.3155
頡	-11.3156
懋	-11.3156
漠漠	-11.3156
鴟	-11.3157
弘萬福乃弘帝福護羣身如護已身處處	-11.3158
元亨利貞	-11.3158
棋	-11.3158
鑊	-11.3159
軰	-11.3159
所養	-11.3159
世人不知	-11.316
烝	-11.3161
東西南北	-11.3162
社令	-11.3162
嶽瀆	-11.3163
冩	-11.3163
撒手	-11.3163
夔	-11.3164
譎	-11.3164
憊	-11.3165
筠	-11.3167
蕋	-11.3168
否答曰	-11.3168
磚	-11.3168
愉	-11.3168
正炁	-11.3169
闡揚	-11.3169
錦繡	-11.317
飢寒	-11.3172
康甯	-11.3173
也九二	-11.3174
篇中	-11.3175
天尊大悲輔	-11.3176
謹據	-11.3179
影響	-11.318
樓閣	-11.3181
導引	-11.3182
俯伏	-11.3187
救苦天尊	-11.3191
朝眞	-11.3191
九壘	-11.3191
遺跡	-11.3194
卻是	-11.3196
洪造	-11.3196
形色	-11.3197
如醉	-11.3198
也雖然	-11.32
悔亡	-11.3204
于外	-11.3206
鶴鳴	-11.3207
道塲	-11.321
老聃曰	-11.3211
囘首	-11.3211
天竺	-11.3215
勿忘勿助	-11.3218
吾聞	-11.322
公卿	-11.3222
雷部	-11.3224
河漢	-11.3225
大魔王	-11.3226
人之一身	-11.3226
養成	-11.323
疾苦	-11.324
予曰	-11.3241
只知	-11.3242
而推	-11.3242
御女	-11.3244
虎龍	-11.3247
文始	-11.3248
登第	-11.3255
世俗之	-11.3255
濟濟	-11.3255
性功	-11.3256
爲第一	-11.326
役使	-11.3267
此二句	-11.3268
眾善	-11.327
百家	-11.3274
大旨	-11.3275
思維	-11.3275
天下之事	-11.3279
週天	-11.3281
六氣	-11.3284
而後可以	-11.3285
恩愛	-11.3287
靑華	-11.3288
小過	-11.3292
石室	-11.3294
隨意	-11.33
退符	-11.3308
相守	-11.3312
無別	-11.3315
始能	-11.3317
竅中	-11.3318
可久	-11.3318
對待	-11.3322
大悲大願	-11.3325
囘光	-11.3327
啟教	-11.3331
不外乎	-11.3334
月輪	-11.3334
崇高	-11.3335
受苦	-11.3337
何有於	-11.3339
的是	-11.3339
黃華	-11.334
也此言	-11.3345
二十七	-11.3345
欲去	-11.3346
自新	-11.3349
難逢	-11.3355
秋冬	-11.3357
河伯	-11.3363
幾時	-11.3366
鶴駕	-11.3373
隨機	-11.338
長空	-11.338
洞口	-11.3381
天下後世	-11.3383
滿地	-11.3383
動念	-11.3386
含光	-11.3387
人之情	-11.3389
永保	-11.3391
先賢	-11.3398
武功	-11.3399
小乘	-11.3401
立言	-11.3409
五福	-11.341
佛祖	-11.3411
妙妙	-11.3412
而言也	-11.3413
殿前	-11.3413
炁天君	-11.3415
匪人	-11.342
豈可以	-11.3425
方是眞	-11.3425
山頭	-11.3432
惡根	-11.3442
陶鎔	-11.3444
遷神	-11.3444
以我之	-11.3445
輻	-11.3445
黯	-11.3446
閻	-11.3446
右符告下	-11.3446
五臟六腑	-11.3447
沖虛	-11.3447
蠡	-11.3448
扃	-11.3448
耦	-11.3448
汀	-11.3448
法信凡儀	-11.3449
𥈠	-11.3449
貝	-11.345
哩	-11.345
撞	-11.345
訝	-11.3451
無中生有	-11.3451
彚	-11.3451
呑	-11.3452
里域	-11.3452
棧	-11.3453
淨心神咒太上台星應變無停驅邪	-11.3453
無上混元宗壇恭准道旨請頒	-11.3454
淨口神咒丹朱口神吐穢除氛	-11.3454
衮	-11.3454
抄	-11.3455
陪	-11.3455
惺	-11.3455
視之不見聽之不聞包羅天地養育羣生	-11.3455
衞五帝司迎萬神朝禮	-11.3455
役使雷霆鬼妖喪膽精怪亡形	-11.3455
許旌陽	-11.3456
剋	-11.3456
叚	-11.3456
沈淪	-11.3457
狙	-11.3457
瞬息	-11.3459
蚤	-11.3459
領袖	-11.346
穆穆	-11.346
下愚	-11.346
千變萬化	-11.3461
紳	-11.3462
煉度	-11.3462
讚嘆	-11.3462
轉轉	-11.3463
羹	-11.3463
羲皇	-11.3464
裙	-11.3464
眚	-11.3465
竦	-11.3465
雲集	-11.3465
餓鬼	-11.3465
搯	-11.3466
䜟	-11.3466
錯綜	-11.3466
土釜	-11.3466
豫州	-11.3467
覯	-11.3467
鑒察	-11.3467
生天生地	-11.3468
進陽火	-11.3468
之中有	-11.3468
可證	-11.3468
俯垂	-11.3469
瘁	-11.3469
陽魂	-11.3469
閉塞	-11.3472
急急	-11.3472
絳宮	-11.3472
急急如	-11.3474
也六三	-11.3475
愛人	-11.3476
直道	-11.3477
無一毫	-11.3478
仰叩	-11.348
虛寂	-11.3483
西域	-11.3486
萬般	-11.3488
玉籙	-11.3494
武當山	-11.3496
困苦	-11.3497
俯首	-11.3499
呼吸之氣	-11.35
廓然	-11.3506
何妨	-11.3506
未了	-11.3506
盛衰	-11.3508
法輪	-11.3511
水晶	-11.3513
忘機	-11.3514
支離	-11.3515
上皇	-11.3517
對越	-11.3518
夜夢	-11.3519
甚難	-11.352
玄竅	-11.3524
妙覺	-11.3525
偃月爐	-11.3526
末後	-11.3527
以成其	-11.3528
草堂	-11.3529
賢愚	-11.3531
交泰	-11.3534
參軍	-11.3535
然後可以	-11.3538
存誠	-11.3544
天下之人	-11.3546
國祚	-11.3551
朝謁	-11.3551
苦樂	-11.3554
使天下	-11.3554
洞然	-11.3555
回首	-11.3555
等倫	-11.3556
非禮	-11.356
福祿	-11.3562
六十卦	-11.3563
遂使	-11.357
正果	-11.3571
如鏡	-11.3572
民物	-11.3576
皇經	-11.3577
萬慮	-11.3578
靜養	-11.3579
大智慧	-11.3584
鑒觀	-11.3584
力量	-11.3586
恃其	-11.359
兩家	-11.3593
飛走	-11.3594
寶號	-11.3595
節制	-11.3596
神虎	-11.3597
法壇	-11.3598
勿失	-11.36
悲哉	-11.36
些兒	-11.3605
動動	-11.3605
從何處	-11.3609
眞種子	-11.3612
一陽生	-11.3612
務使	-11.3616
東風	-11.3616
邱祖	-11.3618
勸善	-11.3623
反復	-11.3625
異類	-11.3632
笑語	-11.3633
性海	-11.3634
寓於	-11.3635
在此矣	-11.3635
神馭	-11.3635
相尅	-11.3637
花落	-11.3644
百節	-11.3646
河源	-11.3647
使然	-11.365
百六	-11.3652
又東	-11.3658
不自以爲	-11.3666
珠玉	-11.3669
四禪	-11.3675
四顧	-11.3675
十一月	-11.3682
保固	-11.3688
瑞氣	-11.3692
宣行	-11.3704
始信	-11.3706
也嗚呼	-11.3709
萬千	-11.371
待時	-11.3711
無迹	-11.3714
度眾生	-11.3715
歸依	-11.3716
只見	-11.3718
要訣	-11.3721
願聞	-11.3724
精舍	-11.3731
變易	-11.3737
斡	-11.3745
數千	-11.3749
勛	-11.3752
爕	-11.3753
窪	-11.3754
楷	-11.3758
慝	-11.3759
乂	-11.376
烜	-11.376
懵	-11.3761
糟	-11.3761
請詳事理	-11.3762
篋	-11.3762
竄	-11.3763
勾陳	-11.3764
搬	-11.3764
冒干	-11.3764
由此而	-11.3764
辛亥	-11.3765
稽首皈依	-11.3765
鵝	-11.3766
刧萬眞無量福護天尊萬福寶誥	-11.3767
☰	-11.3767
魂永久魄無喪傾	-11.3767
綬	-11.3767
三萬六千	-11.3768
冑	-11.3768
玄虛晃朗太	-11.3769
牡	-11.3769
塵氛	-11.3769
琅函	-11.377
詆	-11.377
侔	-11.377
梧桐	-11.377
肫	-11.377
袂	-11.3771
羽化	-11.3771
沃	-11.3771
戒律	-11.3772
谷神不死	-11.3772
趁	-11.3772
迤	-11.3773
臆	-11.3773
鐫	-11.3773
眞鉛眞汞	-11.3773
烏兔	-11.3773
哉然	-11.3773
承誥奉行祖師	-11.3773
粤	-11.3774
鐵圍	-11.3774
閤	-11.3774
眞一之炁	-11.3775
曼	-11.3776
而成丹	-11.3776
劉璋	-11.3777
窈	-11.3777
掃蕩	-11.3778
倏	-11.3778
譙	-11.3778
版	-11.3778
蛾	-11.3778
楊柳	-11.3778
☵	-11.3778
狡	-11.3778
鏗	-11.3778
萬卷	-11.3779
金木水火土	-11.3781
兒孫	-11.3782
片片	-11.3784
庚辛	-11.3784
睢	-11.3785
了生死	-11.3786
天邊	-11.3786
災殃	-11.3787
蝦	-11.3787
唵字	-11.3789
左將軍	-11.3789
俯賜	-11.379
是日叩干	-11.379
從事於	-11.3791
聲聲	-11.3795
習染	-11.3797
貧富	-11.3798
丹衷	-11.3799
窺其	-11.3802
丹悃	-11.3803
一點眞陽	-11.3804
不識不知	-11.3805
斬斷	-11.381
超證	-11.381
頓首	-11.3812
顯神通	-11.3813
潛消	-11.3815
西來	-11.3815
昭垂	-11.3815
靑靈	-11.3816
千仞	-11.3817
只得	-11.3817
茫然	-11.3819
顏色	-11.382
遇眞師	-11.3822
延命	-11.3823
徒勞	-11.3824
假借	-11.3829
斷障	-11.3832
只恐	-11.3833
凡事	-11.3835
飛空	-11.3835
人不識	-11.3836
設醮	-11.3837
之大者	-11.3839
大壯	-11.3839
參究	-11.384
官至	-11.3841
智愚	-11.3849
堅强	-11.385
七炁	-11.3852
雪山	-11.3853
縣西	-11.3854
事君	-11.3854
古之人	-11.3855
哀樂	-11.3859
再三	-11.3859
斗府	-11.3859
帝王之	-11.386
動植	-11.386
塵勞	-11.386
炎炎	-11.3866
兆等	-11.3866
變幻	-11.387
遵奉	-11.3872
昭著	-11.3874
濟物	-11.3874
知之者	-11.3877
雷祖	-11.388
西池	-11.3882
沾恩	-11.3882
進步	-11.3882
九鳳	-11.3883
不能久	-11.3884
火鈴	-11.3885
得之以	-11.3886
飛鳥	-11.3891
天命之	-11.3892
禪家	-11.3892
不擇	-11.3899
鼓動	-11.3902
祖竅	-11.3904
亦須	-11.3912
准此	-11.3916
百靈	-11.3916
之言也	-11.3925
勿令	-11.3926
泰定	-11.3928
有個	-11.3931
邵子	-11.3932
敢問	-11.3932
無心於	-11.3939
知其所	-11.3939
從茲	-11.3947
舍此	-11.3954
鸞鶴	-11.3956
佛宗	-11.3959
潤澤	-11.396
若愚	-11.3961
百病	-11.3964
躬行	-11.3965
夢九	-11.397
不怕	-11.3974
老氏	-11.3977
氣海	-11.3979
隨緣	-11.3995
可愛	-11.4001
無物不	-11.4003
蜀人	-11.4008
眞源	-11.401
洞門	-11.4012
文殊	-11.4013
絕頂	-11.4013
主靜	-11.4015
勿使	-11.4017
仙籍	-11.4018
每見	-11.4018
太明	-11.4034
祖氣	-11.4035
透出	-11.4037
伏炁	-11.4041
兩目	-11.4043
凡人之	-11.4052
奉行便宜科事	-11.4056
不愧	-11.4066
修行者	-11.4066
盛世	-11.4066
天尊大悲神霄運度	-11.407
薦亡人	-11.4077
煆	-11.4078
煅	-11.4079
諍	-11.408
虜	-11.4081
醍醐	-11.4082
犢	-11.4082
砥	-11.4083
瀛洲	-11.4083
菲	-11.4083
訥	-11.4084
此便是	-11.4085
蘊	-11.4085
驥	-11.4086
一如玄科律令	-11.4086
煉炁化神	-11.4086
峨	-11.4087
徇	-11.4088
掇	-11.4088
騁	-11.4088
詛	-11.4089
裹	-11.4089
瞿	-11.4089
掬	-11.409
悍	-11.409
俸	-11.409
上昇頂上再微聲咒曰	-11.409
元八方威神使我自然靈寶符命普	-11.4091
刑罰	-11.4091
徂	-11.4091
奬	-11.4091
終難	-11.4092
侍宸	-11.4092
玉匱	-11.4092
携	-11.4093
曩謨	-11.4093
何以知	-11.4094
捍	-11.4095
灼灼	-11.4095
語云	-11.4095
覲	-11.4096
姪	-11.4096
倐忽	-11.4097
懦	-11.4097
萊	-11.4097
剎	-11.4097
弟子等	-11.4097
天壤	-11.4098
咦	-11.4098
子路	-11.4098
拔度亡過	-11.4098
雞犬	-11.4098
噪	-11.4098
袋	-11.4099
匹夫	-11.4099
慙	-11.4099
墉	-11.4099
兇	-11.41
大千世界	-11.41
荆棘	-11.4101
徽	-11.4101
閉門	-11.4101
煆煉	-11.4101
暄	-11.4101
一陽來復	-11.4101
盈虧	-11.4105
莊周	-11.4105
端拱	-11.4106
涎	-11.4106
筌蹄	-11.4106
聯句	-11.4107
躬耕	-11.4108
護身	-11.4109
採得	-11.411
錯認	-11.411
最上乘	-11.4112
祕訣	-11.4114
霜雪	-11.4115
酒肉	-11.4115
蓬頭	-11.4116
辛苦	-11.4117
上泥丸	-11.4117
離離	-11.4124
福田	-11.4124
順理	-11.4125
無恙	-11.4126
慾海	-11.413
南征	-11.4131
之根也	-11.4133
一穴	-11.4133
昨夜	-11.4137
左旋	-11.4138
侍中	-11.4139
下重樓	-11.414
之功用	-11.4147
會稽	-11.4148
然後知	-11.4148
主簿	-11.4151
還歸	-11.4156
方且	-11.4157
愛惜	-11.4159
慨然	-11.416
復返	-11.4162
牛馬	-11.4172
列宿	-11.4172
一周天	-11.4173
精粗	-11.4174
宏教	-11.4175
可不戒	-11.4184
故君子	-11.4186
恍然	-11.4189
所奏	-11.4194
節候	-11.4194
默然	-11.42
愼勿	-11.42
莫把	-11.4201
變通	-11.4206
細微	-11.4207
入地	-11.4207
福澤	-11.421
貪生	-11.4213
杳杳	-11.4215
吉慶	-11.4224
長沙	-11.4226
竭力	-11.423
午時	-11.4232
誤人	-11.4241
有漏	-11.4244
江西	-11.4245
此際	-11.4246
無量無邊	-11.4247
純乾	-11.4252
仗道	-11.4254
之奥	-11.4254
次日	-11.426
何者爲	-11.4262
四維	-11.4262
修省	-11.4263
甘心	-11.4263
虛危	-11.4264
非道也	-11.4272
十丈	-11.4278
靜裏	-11.4278
野人	-11.428
之主也	-11.428
治亂	-11.4281
豈易	-11.4285
百千萬	-11.4285
喪失	-11.429
帝師	-11.4292
鈞天	-11.4294
空不空	-11.4297
潛通	-11.4303
無虞	-11.4306
竅妙	-11.4311
朝朝	-11.4314
在天爲	-11.4317
曰然則	-11.4321
先天後天	-11.4331
白馬	-11.4342
萬刼	-11.4342
建安	-11.4352
風塵	-11.436
各宜	-11.4361
產藥	-11.4362
文昌帝君	-11.4366
將何以	-11.437
東土	-11.437
帝力	-11.437
丹結	-11.437
維時	-11.4377
靜觀	-11.438
禪天尊大悲	-11.4382
道院	-11.4383
元帥晚朝	-11.439
但願	-11.4391
押	-11.4395
句曲上眞沖靜妙應天尊	-11.4398
外境	-11.4398
妙濟無量天尊	-11.4399
東岳上卿妙道眞應天尊	-11.4404
奉祀	-11.4409
堰	-11.4409
兢兢	-11.441
租	-11.4411
挐	-11.4413
信受奉行	-11.4413
星君北斗	-11.4414
顯應	-11.4414
恁	-11.4416
剩	-11.4417
好生無量天尊	-11.4417
覈	-11.4418
馳騁	-11.4418
况乎	-11.4418
激切	-11.4419
睦	-11.442
校尉	-11.442
疴	-11.442
邱長春	-11.442
禎祥	-11.442
元帥早朝	-11.4421
冕	-11.4421
讎	-11.4421
大洞玉經	-11.4421
灌漑	-11.4422
瑶池	-11.4422
神通三界内外惟道獨尊體有金光覆映	-11.4422
逍遙自在	-11.4423
懇禱	-11.4423
榴	-11.4423
攫	-11.4423
一塵不染	-11.4424
木公	-11.4424
穹蒼	-11.4424
陰隲	-11.4424
度人萬千中山神咒元始玉文持誦一遍	-11.4424
咀	-11.4424
𤃉	-11.4424
牟	-11.4424
郁	-11.4424
出有入無	-11.4425
鞏	-11.4426
大師尊	-11.4426
三元貴司沖惠神應天尊	-11.4426
犧	-11.4426
渾渾	-11.4426
熙熙	-11.4426
蜃	-11.4427
無極而太極	-11.4427
圯	-11.4427
拊	-11.4427
匡廓	-11.4428
不忠不孝	-11.4428
參求	-11.4428
揜	-11.4429
衾	-11.4429
耳目口鼻	-11.443
稜	-11.443
蒼穹	-11.4431
老嫩	-11.4431
璣	-11.4431
妄註曰	-11.4431
芟	-11.4432
澡	-11.4432
靠	-11.4433
絲毫	-11.4433
羨	-11.4433
行住坐臥	-11.4433
篡	-11.4433
拭	-11.4433
赫奕	-11.4434
嬰孩	-11.4434
也六二	-11.4434
俯鑒	-11.4436
祝融	-11.4436
禕	-11.4437
五首	-11.4437
無鞅	-11.4438
汲汲	-11.4439
寥寥	-11.444
攬	-11.444
也六四	-11.444
收歛	-11.4441
兌金	-11.4442
沂	-11.4443
五百過	-11.4444
凭	-11.4445
呈進	-11.4445
拔宅	-11.4453
剛健	-11.4456
亦未嘗	-11.4456
經緯	-11.4459
歌舞	-11.4461
各異	-11.4463
結果	-11.4464
悠然	-11.4464
星主	-11.4465
波濤	-11.4466
嵩山	-11.4466
鐘聲	-11.4467
斯世	-11.4468
符火	-11.4468
不礙	-11.447
皓月	-11.447
天界	-11.447
議論	-11.447
洞鑒	-11.4472
洞觀	-11.4473
敬禮	-11.4475
赤松	-11.4475
威武	-11.4475
賢良	-11.4476
四十里	-11.4478
而論之	-11.4479
須當	-11.448
慧日	-11.4482
逆流	-11.4482
可比	-11.4485
執着	-11.4487
口腹	-11.4488
黃鍾	-11.449
弗知	-11.4494
音聲	-11.4495
十四年	-11.4497
禁止	-11.4505
曲江	-11.4506
交戰	-11.4507
勤苦	-11.4507
宛然	-11.4508
光普照	-11.4511
淵淵	-11.4514
私意	-11.4516
開導	-11.452
除淫	-11.4521
河海	-11.4526
救濟	-11.453
末學	-11.4531
洛陽	-11.4538
淸微天	-11.4543
法席	-11.4547
淸吉	-11.4551
提起	-11.4551
法食	-11.4553
平易	-11.4554
之內	-11.4554
擁護	-11.4556
度量	-11.4563
其爲人	-11.4567
體認	-11.4567
精液	-11.4574
壁間	-11.4586
果證	-11.4597
玉篇	-11.46
守靜	-11.4611
普救	-11.4612
一塊	-11.4614
可哀	-11.4617
莫知所	-11.4618
松風	-11.4639
之甚也	-11.4641
斯時也	-11.4649
念切	-11.4651
靜室	-11.4656
十數	-11.4662
實悟	-11.4662
行火候	-11.4663
靑靑	-11.4668
九泉	-11.4671
竅竅	-11.4672
只用	-11.4673
哉蓋	-11.4676
覺源	-11.468
感召	-11.468
第十七	-11.4691
金丹之道	-11.4696
轉運	-11.4697
還須	-11.4698
圓融	-11.4704
提出	-11.4708
難尋	-11.471
坤道	-11.4713
要識	-11.4718
示人以	-11.4725
安爐	-11.4726
返胎	-11.4735
凡遇	-11.4735
太上靈寶	-11.4737
五斗	-11.4737
志士	-11.4738
不屈	-11.4743
凡一切	-11.4746
獅	-11.4749
院右宫	-11.4751
院左宫	-11.4752
元帥中朝	-11.4752
盡性至命	-11.4753
企	-11.4755
滚	-11.4757
上淸眞境	-11.4759
刮	-11.4759
鄕貫	-11.4759
太公	-11.476
棠	-11.476
妣	-11.476
誹謗	-11.476
禁忌	-11.4762
醺	-11.4762
鬢	-11.4762
賫	-11.4762
膏肓	-11.4763
祛	-11.4763
杏林	-11.4764
枯槁	-11.4764
一者智慧	-11.4765
猛獸	-11.4765
賡	-11.4765
冦	-11.4766
身外有身	-11.4766
件件	-11.4766
趺	-11.4767
罪消滅願	-11.4767
放大光明	-11.4767
翺翔	-11.4767
瞳	-11.4768
廣化弟子惠覺校訂	-11.4769
瘞	-11.4769
揉	-11.477
輕洩	-11.477
崆峒	-11.477
瀰	-11.477
勷	-11.4771
甃	-11.4771
瞶	-11.4771
三百八十四	-11.4771
罩	-11.4771
攴天	-11.4772
斑	-11.4773
瑾	-11.4773
儕	-11.4773
寵辱	-11.4774
螭	-11.4774
紆	-11.4775
藪	-11.4775
撻	-11.4775
磐	-11.4775
喚醒	-11.4776
夰	-11.4776
詈	-11.4776
蘖	-11.4777
窻	-11.4777
鍚	-11.4777
水火木金	-11.4778
雨暘	-11.4779
二六時中	-11.4779
甲寅	-11.478
翫	-11.478
滔滔	-11.4781
五老上帝	-11.4783
譬喻	-11.4784
昭彰	-11.4784
欽承	-11.4785
旦暮	-11.4786
坐卧	-11.4786
拘拘	-11.4787
大洞仙經	-11.4787
桑田	-11.4788
敗壞	-11.4789
朱子曰	-11.479
昭格	-11.4794
饑寒	-11.4796
計較	-11.4797
厚薄	-11.4801
救護	-11.4802
充盈	-11.4807
永貞	-11.4808
陰陽合	-11.4809
赦除	-11.4812
帝闕	-11.4813
治大宗師	-11.4815
傾危	-11.4815
百千萬億	-11.4816
官吏	-11.4816
乾隆	-11.4817
相投	-11.4817
今宵	-11.4826
切勿	-11.4827
丙子	-11.4827
千𡻕	-11.483
遵依	-11.483
誥命	-11.4835
少壯	-11.4838
證位	-11.4838
試問	-11.484
孰敢	-11.4841
高士	-11.4841
泉曲	-11.4841
根蒂	-11.4843
古人云	-11.4847
寶花	-11.4851
壬水	-11.4852
二候	-11.4852
此輩	-11.4853
五千言	-11.4856
幻身	-11.4856
希聖	-11.4859
聖衆	-11.486
聞聲	-11.4862
不悖	-11.4863
不答	-11.4867
大慈大悲	-11.4876
宏開	-11.4876
佐命	-11.4878
根塵	-11.4879
用工	-11.4881
死戸	-11.4886
各有其	-11.4886
多寡	-11.4888
勸君	-11.4892
養育	-11.4894
伏虎	-11.4896
慈母	-11.4899
高懸	-11.49
發育	-11.4912
倘能	-11.4915
三十年	-11.4918
不可得也	-11.4918
恢恢	-11.4922
之妙用也	-11.4922
陰陽之氣	-11.4923
柔和	-11.4926
於無形	-11.493
尤當	-11.4935
宗主	-11.4936
總司	-11.4939
克保	-11.4943
尋聲	-11.4946
以身爲	-11.4949
不可以爲	-11.4954
七里	-11.4955
修設	-11.4958
碧雲	-11.4959
闕下	-11.4962
那時	-11.4967
太后	-11.4968
廣寒	-11.4971
節節	-11.4974
如之何	-11.4975
心印經	-11.4977
得一分	-11.498
試觀	-11.4981
以養其	-11.4983
安危	-11.4987
誰識	-11.4996
語默	-11.4997
終古	-11.4998
孝信	-11.5
宰相	-11.5
藉此	-11.5006
張子曰	-11.5007
不敢輕	-11.5007
生治世福顯利幽弭災集慶法	-11.5011
斷絕	-11.5013
和暢	-11.5014
光透	-11.502
知道者	-11.5029
萬夀	-11.503
慈雲	-11.5036
竺	-11.5038
集說	-11.5042
如日月	-11.5044
其死也	-11.5047
混然	-11.5049
政事	-11.5055
三十六天	-11.5061
靡不	-11.5063
謹守	-11.5069
顆	-11.5069
有一人	-11.5079
治都仙宗師	-11.5081
治都神宗師	-11.5081
最要	-11.5081
治都真宗師	-11.5082
治都士宗師	-11.5082
常懷	-11.5093
曲直	-11.5096
謄	-11.5109
貼	-11.5109
奉持	-11.5111
繽紛	-11.5112
蜉蝣	-11.5112
百丈	-11.5113
㐫	-11.5113
飱	-11.5117
組	-11.5117
懈怠	-11.5117
軒冕	-11.5117
真師	-11.5117
延齡	-11.5118
遐邇	-11.5118
湍	-11.512
回春子曰	-11.512
沴	-11.512
涪	-11.5121
一得永得	-11.5121
棒	-11.5121
忻	-11.5122
豔	-11.5122
☱	-11.5123
葩	-11.5123
揑	-11.5123
歘	-11.5123
黛	-11.5124
兜率	-11.5125
悌	-11.5125
舛	-11.5126
儻	-11.5126
天地玄宗萬炁本根廣修億劫證吾	-11.5126
寤	-11.5126
琮	-11.5126
瘟㾮	-11.5126
誦持萬遍身有光明三界侍	-11.5126
之災願消	-11.5126
纎毫	-11.5126
罪消滅玉皇大天尊玄穹高上帝	-11.5126
浩刼	-11.5127
上天下地	-11.5127
戯	-11.5127
簧	-11.5127
脆	-11.5128
生人生物	-11.5128
滄溟	-11.5128
包括	-11.5128
兕	-11.5128
攷	-11.5129
梯航	-11.5129
沮	-11.5129
羶	-11.5129
蕙	-11.513
湏	-11.513
碣	-11.513
徃	-11.513
頫	-11.513
緇	-11.5131
昴	-11.5131
鄞鄂	-11.5131
咒詛	-11.5131
穉	-11.5132
日月合璧	-11.5132
簣	-11.5134
扼	-11.5134
萬籟	-11.5134
蓑	-11.5135
婉	-11.5135
屐	-11.5136
堦	-11.5136
萬狀	-11.5136
惚	-11.5137
酥	-11.5138
丙午	-11.5138
山福地仙官聖眾	-11.5139
騰騰	-11.514
騷	-11.514
都䕶	-11.5141
玉淸聖境	-11.5141
廟貌	-11.5145
彬	-11.5145
曠劫	-11.5146
接命	-11.5148
默契	-11.5148
奔走	-11.5149
朗耀	-11.515
太上道君	-11.515
骨髓	-11.5151
消愆	-11.5152
寶藏	-11.5153
林木	-11.5155
凶象曰	-11.5157
連環	-11.5158
治聖母	-11.516
冬夏	-11.5161
森森	-11.5162
解𡨚	-11.5163
玉枕	-11.5165
燒煉	-11.5165
發揮	-11.5168
宏仁	-11.5168
强梁	-11.5172
羕	-11.5173
原夫	-11.5173
蕩魔	-11.5176
猶恐	-11.5177
照徹	-11.5178
夢幻	-11.518
鳴呼	-11.5181
有一種	-11.5181
賢聖	-11.5185
不有其	-11.5187
代諱	-11.5187
川源	-11.5188
休休	-11.519
深淵	-11.519
採補	-11.5192
无極	-11.5192
周徧	-11.5195
三焦	-11.5197
電光	-11.5199
祖誥至心皈命禮	-11.5202
表奏	-11.5206
癸水	-11.5209
枯木	-11.5209
罔極	-11.521
丹竈	-11.5211
衆真	-11.5216
慧照	-11.522
嘉定	-11.5224
寒泉	-11.523
千祥	-11.5232
以示人	-11.5236
校正	-11.5236
涵三	-11.5239
人之生也	-11.5239
試思	-11.5242
退藏	-11.5244
良緣	-11.5246
無拘	-11.5251
精勤	-11.5252
興亡	-11.5256
所惑	-11.5263
簡易	-11.5266
劍南	-11.5268
夜深	-11.5271
凡軀	-11.5271
吾想	-11.5288
太宗	-11.529
門庭	-11.5291
物阜	-11.5295
此係	-11.5298
龍車	-11.5301
者多矣	-11.5301
飛天神王	-11.5304
安敢	-11.5306
宇内	-11.5306
百寶	-11.5309
八威	-11.531
數丈	-11.5329
勢必	-11.5339
武王	-11.5346
還返	-11.5349
只須	-11.535
兩端	-11.5358
澄心	-11.5361
庚子	-11.5367
等類	-11.5368
垂教	-11.5377
愛慾	-11.5377
科教	-11.5378
效法	-11.5388
山嶽	-11.5409
齋醮	-11.541
慈祥	-11.5432
吾嘗	-11.5432
綿延	-11.5434
問答	-11.5437
天地日月	-11.5441
不逮	-11.5443
根器	-11.5447
不墜	-11.5454
妙旨	-11.5456
雲梯	-11.546
寶蓋	-11.5462
靖真宰	-11.5467
黃籙大齋	-11.5473
遍體	-11.5474
孺	-11.5479
歲	-11.5479
癘	-11.5479
惶懼	-11.548
不可稱量四者行功	-11.5483
不可稱量五者修心	-11.5484
不可稱量六者善業	-11.5484
不可稱量九者遣情	-11.5484
不可稱量八者飾身	-11.5484
不可稱量十者普心	-11.5484
不可稱量是爲十種	-11.5484
逋	-11.5486
不可稱量二者慈悲	-11.5486
盥	-11.5487
諛	-11.5487
妹	-11.5488
吉祥音檀熾鈞	-11.5488
錐	-11.5489
砥柱	-11.5489
到此地位	-11.5489
椒	-11.549
拴	-11.5491
方無極世界	-11.5491
沭	-11.5492
蕩滌	-11.5492
燮	-11.5492
閎	-11.5492
滂	-11.5492
昊天上帝	-11.5492
桎梏	-11.5495
寧	-11.5495
婚姻	-11.5495
些子	-11.5496
閫	-11.5496
朔旦	-11.5496
妖氛	-11.5496
覃恩不可思議功德收讚	-11.5496
燾	-11.5497
護法神王保衞誦經皈依大道元亨利貞	-11.5497
涿	-11.5497
矣是故	-11.5497
阮	-11.5497
天尊大悲神霄化	-11.5498
眇	-11.5498
淨天地神咒天地自然穢氣分散洞中	-11.5498
霾	-11.5498
賄	-11.5498
五丈原	-11.5499
淳	-11.5499
饗	-11.5499
厦	-11.5499
無根樹	-11.5499
塢	-11.55
楫	-11.55
檜	-11.5501
鳶	-11.5501
相違	-11.5502
憨	-11.5502
啄	-11.5502
斗姆	-11.5502
彌綸	-11.5502
鶉	-11.5502
滕	-11.5503
杪	-11.5503
鍛鍊	-11.5504
帝庭	-11.5504
扄	-11.5504
拯救	-11.5504
泮	-11.5504
特陳	-11.5505
泡影	-11.5505
水中之金	-11.5505
混混沌沌	-11.5506
持是經人	-11.5506
丁亥	-11.5507
漢祚	-11.5507
口口相傳	-11.5508
辛勤	-11.5509
庾	-11.551
人人具足	-11.551
减	-11.551
九天開化	-11.5511
土釡	-11.5511
人皆知	-11.5512
睡魔	-11.5512
增減	-11.5513
牡丹	-11.5513
抱樸	-11.5514
内有霹𩆝雷神隱名	-11.5516
齋筵	-11.5516
鐘鼓	-11.5517
悠久	-11.5517
採大藥	-11.5518
休歇	-11.5519
坦坦	-11.552
峩眉	-11.5521
懸崖	-11.5523
亦不過	-11.5524
效驗	-11.553
駕鶴	-11.5534
山麓	-11.5534
震巽	-11.5534
碑記	-11.5534
亭侯	-11.5544
坦然	-11.5544
超越	-11.5545
千般	-11.5548
朔望	-11.5548
推移	-11.5552
靑鸞	-11.5554
檢點	-11.5555
染著	-11.556
戰勝	-11.5562
增益	-11.5565
須憑	-11.5567
寺寺	-11.5569
一丸	-11.557
浩氣	-11.557
恩澤	-11.5572
輕舉	-11.5575
幾希	-11.558
勝負	-11.5584
黃昏	-11.5584
分毫	-11.5586
白蓮	-11.5601
人但知	-11.5603
五藴	-11.5603
精䖍	-11.5607
彩雲	-11.5607
木液	-11.5612
千劫	-11.5612
勞苦	-11.562
執對	-11.5623
殺害	-11.5627
亥子	-11.5627
悔過	-11.5629
出沒	-11.5634
公孫	-11.5635
此四句	-11.5636
輝光	-11.5638
遣使	-11.564
洞裏	-11.564
懴法	-11.5645
黃甯	-11.5646
寶訓	-11.5646
與道合	-11.5648
聖駕	-11.5656
因之而	-11.5657
淫念	-11.5659
十倍	-11.5663
丹經云	-11.5673
皈神	-11.5677
北都	-11.5686
涉世	-11.5691
往昔	-11.5699
朗照	-11.5701
口業	-11.5707
行方便	-11.5711
天爵	-11.5711
古洞	-11.5724
響應	-11.5726
合而爲一	-11.5729
加持	-11.574
蓮臺	-11.5747
如嬰兒	-11.5749
惜哉	-11.5753
惡趣	-11.5763
陰柔	-11.579
玅法	-11.5796
千五百	-11.5803
之過也	-11.581
程子	-11.5814
魔鬼	-11.5815
至靈至	-11.5825
小童	-11.584
㖿	-11.5848
彖	-11.586
玉陛下	-11.5863
坎離交	-11.5863
籲	-11.5865
太上曰復有十種	-11.5867
孀	-11.5867
不可稱量何等爲十種	-11.5867
病後酬天	-11.5867
不可稱量七者精進	-11.5868
漏盡通	-11.5869
不可稱量三者含忍	-11.587
熬	-11.5871
涇	-11.5871
旂	-11.5873
慈愛	-11.5873
積功累行	-11.5873
睫	-11.5873
恊	-11.5873
墀	-11.5874
僉	-11.5875
八萬四千	-11.5876
浹	-11.5877
猖狂	-11.5877
賽	-11.5877
琦	-11.5877
甌	-11.5877
型	-11.5878
殖	-11.5878
弈	-11.5878
淙	-11.5878
如如不動	-11.5878
鄂	-11.5878
寰宇	-11.5879
玉皇本行集經	-11.5879
窅	-11.5879
泡	-11.588
篁	-11.588
偪	-11.588
等伏思	-11.588
瞀	-11.5881
詹	-11.5881
嵌	-11.5881
☴	-11.5881
鏤	-11.5881
問如何	-11.5881
閬	-11.5881
嘻	-11.5882
瘳	-11.5882
衫	-11.5882
肚	-11.5882
關聖帝君	-11.5882
怙	-11.5882
劉海蟾	-11.5882
諉	-11.5882
陰中之陽	-11.5883
利涉大川	-11.5883
矗	-11.5883
癸酉	-11.5884
春夏秋冬	-11.5885
犁	-11.5885
貨財	-11.5886
梳	-11.5886
嬴	-11.5886
蔕	-11.5887
翅	-11.5887
一以貫之	-11.5888
耘	-11.5888
陸西星曰	-11.5888
淡泊	-11.5889
胡濙	-11.5889
乙亥	-11.5889
取坎塡離	-11.5889
墅	-11.589
冠冕	-11.5891
盎	-11.5891
佯	-11.5891
慟	-11.5891
修道之士	-11.5892
人人皆	-11.5892
永斷	-11.5892
片餉	-11.5893
蕭蕭	-11.5894
闋	-11.5894
原宥	-11.5895
游戲	-11.5896
翛然	-11.5896
瑤臺	-11.5897
暈	-11.5897
鉞	-11.5898
無朕	-11.59
充溢	-11.59
機械	-11.5901
眞一之氣	-11.5901
丑寅	-11.5902
雞鳴	-11.5905
無形無象	-11.5906
地戸	-11.5907
營營	-11.591
十二辰	-11.591
甲辰	-11.5912
貫徹	-11.5914
白鹿	-11.5914
勤勤	-11.5915
結繩	-11.5915
賓客	-11.5916
禺	-11.5918
姓氏	-11.5921
蕩除	-11.5923
武陵	-11.5925
宅舍	-11.5925
機鋒	-11.5928
示之以	-11.5929
遙望	-11.5931
赤壁	-11.5932
城市	-11.5933
綱目	-11.5934
參贊	-11.5936
金針	-11.5937
難量	-11.5941
章第二	-11.5945
形影	-11.5948
徧滿	-11.5948
畫卦	-11.595
扶持	-11.5951
學道之人	-11.5952
禁戒	-11.5954
謹按	-11.5955
趙公	-11.5955
釋放	-11.5957
高卧	-11.5957
培養	-11.5961
方術	-11.5962
逞其	-11.5968
黃梁	-11.5971
敬畏	-11.5972
羅漢	-11.5973
關係	-11.5974
章第一	-11.5974
未審	-11.5979
車馬	-11.598
葆眞	-11.5981
丈餘	-11.5985
湖海	-11.5986
卓然	-11.5988
梵音	-11.599
護國	-11.5993
兩途	-11.5994
圓珠	-11.6004
戒淫	-11.6008
續命	-11.6009
上淸宫	-11.6012
縣令	-11.6015
北面	-11.6017
陳夀	-11.6026
掃盡	-11.6034
捨身	-11.6039
章第三	-11.6044
黃泉	-11.6044
龍潭	-11.6049
宮殿	-11.6056
厥後	-11.6057
只待	-11.607
南面	-11.6072
報恩	-11.6074
機緣	-11.6077
總持	-11.6078
割愛	-11.6081
人寰	-11.6082
家貧	-11.6089
警化	-11.6092
何足以	-11.6104
無間斷	-11.6114
字句	-11.6115
輕輕	-11.6115
又奚	-11.6175
愼獨	-11.6182
門戶	-11.6183
火燒	-11.6186
澤被	-11.6205
奉勅	-11.6217
昊	-11.6224
秘法	-11.6258
禳災	-11.6262
隍	-11.6266
寰區	-11.6267
猛火	-11.6267
靈寶文檢卷	-11.627
成仙成佛	-11.6272
裸	-11.6272
械	-11.6272
𣷹	-11.6273
☳	-11.6273
誠惶	-11.6274
綦	-11.6274
自古及今	-11.6274
證盟修奉	-11.6274
贍	-11.6274
賑	-11.6274
驀	-11.6275
霓旌	-11.6275
泠	-11.6276
諡	-11.6277
顛倒	-11.6278
3	-11.6279
蒿	-11.628
膜	-11.628
爇玉爐心存帝前眞靈下盼仙斾臨軒令	-11.628
鍼	-11.6281
舄	-11.6281
一次爲一過	-11.6281
洞天福地	-11.6282
胚胎	-11.6282
閼	-11.6282
駡	-11.6283
犀	-11.6283
鉄	-11.6283
據大淸國	-11.6284
拷	-11.6284
霓裳	-11.6284
肱	-11.6285
筌	-11.6285
邸	-11.6285
昊天金闕	-11.6285
臭腐	-11.6285
帽	-11.6286
翼翼	-11.6286
暝	-11.6286
嗅	-11.6286
嬰兒姹女	-11.6286
慄	-11.6287
兵戈	-11.6287
降生天尊	-11.6287
州剌史	-11.6287
匹配	-11.6287
棊	-11.6287
司祿	-11.6287
絡繹	-11.6288
瑩徹	-11.6288
歐陽	-11.6288
辟穀	-11.6289
昃	-11.6289
鞍	-11.6289
鷲	-11.629
甜	-11.629
勾引	-11.629
防危慮險	-11.6291
冉冉	-11.6291
生生不息	-11.6291
祝香神咒道由心洽心假香傳香	-11.6291
迅速	-11.6292
討賊	-11.6292
斗杓	-11.6293
琴瑟	-11.6293
玄牝之門	-11.6294
張郃	-11.6295
瀟瀟	-11.6298
傭	-11.6299
牘	-11.6299
徹底	-11.6299
綱領	-11.6301
苴	-11.6302
章第八	-11.6303
屯䝉	-11.6303
唐虞	-11.6303
禹餘	-11.6304
薦拔	-11.6304
藥物火候	-11.6304
玉兔	-11.6305
紹興	-11.6306
肅肅	-11.6307
末世	-11.6309
金丹作用	-11.6312
河沙	-11.6312
火坑	-11.6314
荀子	-11.6314
做工夫	-11.6315
展轉	-11.6316
眞人良醫普救	-11.6316
耗散	-11.6317
舟車	-11.6319
東岳	-11.6322
晃朗	-11.6322
彭祖	-11.6324
邀福	-11.6325
符籙	-11.6328
鄭重	-11.6333
矢志	-11.6334
玉壺	-11.6337
的的	-11.6339
飛躍	-11.6339
三級	-11.6339
禱雨	-11.6341
金粟	-11.6341
士卒	-11.6342
元牝	-11.6342
萬壑	-11.6342
罪垢	-11.6345
巖巖	-11.6347
收攝	-11.6348
冥府	-11.6348
切切	-11.6349
章第四	-11.6349
羽衣	-11.635
悔悟	-11.6354
察察	-11.6355
不忒	-11.6356
慶幸	-11.6357
堯夫	-11.6358
具職	-11.636
率土	-11.6361
浮游	-11.6362
無色界	-11.6363
北斗九皇	-11.6364
總讚	-11.6364
永昌	-11.6366
夙世	-11.6368
章句	-11.6375
吾不知其	-11.6377
煉鉛	-11.6379
元亨	-11.6382
阿難	-11.6382
香爐	-11.6395
前愆	-11.6396
三十過	-11.6397
星宿	-11.6404
旨趣	-11.6407
諸法子	-11.6409
詔書	-11.6412
痛苦	-11.6416
盡之矣	-11.6416
夙根	-11.6418
丁未	-11.6419
奇特	-11.6423
可憫	-11.6427
半夜	-11.6431
尙賢	-11.6442
此一節	-11.6446
小腸	-11.6448
羽流	-11.6449
塊然	-11.6464
一株	-11.6471
丹房	-11.6472
庚甲	-11.6474
火炎	-11.6487
數十里	-11.6494
寡過	-11.6496
武曲	-11.6497
無時不	-11.6509
形勢	-11.6511
一太極也	-11.6525
主壇	-11.6533
甲申	-11.6551
十三年	-11.6564
可與言	-11.657
賓主	-11.6575
竹林	-11.6607
央	-11.6627
人爲善	-11.6628
也九四	-11.6638
降祥	-11.665
蓮華	-11.6651
謹陳	-11.6654
源之在	-11.6661
元帥掌天下	-11.6663
7	-11.6664
分爲二	-11.6669
右牒上	-11.6673
脅	-11.6673
醯	-11.6675
姬	-11.6676
帥將	-11.668
百尺	-11.668
聖人之所	-11.6681
如經故難遇	-11.6682
欹	-11.6682
☉	-11.6683
弋	-11.6684
茆	-11.6685
廹	-11.6686
拔度亡魂	-11.6686
牿	-11.6686
陲	-11.6687
☶	-11.6687
亶	-11.6688
登道岸	-11.6689
嘛	-11.6689
幣	-11.669
覿面	-11.669
謔	-11.6691
一次爲五過	-11.6691
斾	-11.6691
茨	-11.6691
柩	-11.6691
蹻	-11.6692
毗	-11.6692
猥	-11.6693
彫	-11.6693
常規平安	-11.6693
申朝禮至心朝禮	-11.6694
巉	-11.6694
糠	-11.6694
妃	-11.6695
坂	-11.6695
語言文字	-11.6696
返老還童	-11.6696
箴	-11.6696
漢丞相諸葛忠武侯集卷之	-11.6697
刪	-11.6697
褰	-11.6697
謐	-11.6697
窄	-11.6697
杳㝠	-11.6697
懾	-11.6697
澂	-11.6697
化仙官	-11.6698
姝	-11.6698
筮	-11.6698
卭	-11.6698
仆	-11.6698
子午卯酉	-11.6698
桴	-11.6699
軾	-11.6699
蘧	-11.6699
西方金	-11.6699
釘	-11.6699
屣	-11.6699
湛湛	-11.67
棍	-11.67
乖戾	-11.67
無能勝	-11.67
箋釋正陽帝君曰	-11.67
嫗	-11.67
沅	-11.6701
子綦	-11.6701
俄頃	-11.6701
顙	-11.6701
把握	-11.6702
螟	-11.6702
腴	-11.6702
櫛	-11.6702
閔	-11.6702
凛凛	-11.6702
釵	-11.6702
葭	-11.6703
啜	-11.6703
祈晴	-11.6703
辛酉	-11.6703
萬事畢	-11.6703
觧	-11.6703
隔礙	-11.6703
洗心滌慮	-11.6703
獨修一物	-11.6703
斟酌	-11.6703
彝	-11.6704
拄杖	-11.6704
彌陀	-11.6704
觀天之道執天之行	-11.6704
霛	-11.6704
七返九還	-11.6704
蓬瀛	-11.6704
翩	-11.6704
靖右府宗師	-11.6705
甲乙	-11.6705
父母未生前	-11.6705
蚌	-11.6705
靖左府宗師	-11.6705
㧞	-11.6705
黃芽白雪	-11.6706
婆娑	-11.6706
叩齒	-11.6706
瑯	-11.6707
瑤壇	-11.6707
拇	-11.6708
泳	-11.6708
損之又損	-11.6709
濺	-11.6709
誚	-11.6709
琬	-11.6711
灝	-11.6712
詐僞	-11.6712
團圓	-11.6712
翰林	-11.6713
兵革	-11.6714
織女	-11.6714
桃李	-11.6714
縹	-11.6715
庶俾	-11.6715
瘟案主者都府管	-11.6716
兌巽	-11.6717
伊尹	-11.6719
天地之始	-11.6719
嗔怒	-11.6722
咸蒙	-11.6723
右旋	-11.6724
古柏	-11.6724
鶴唳	-11.6725
蘄	-11.6725
四象五行	-11.6726
冥曹	-11.6726
淵默	-11.6727
芳草	-11.6728
鴻齋	-11.6728
輔翼	-11.6729
宛轉	-11.6729
判官	-11.673
刻漏	-11.6734
紫煙	-11.6735
雲衢	-11.6736
靡窮	-11.6736
輪範	-11.6737
羣倫	-11.6738
淸凈	-11.6738
青編	-11.6739
登彼岸	-11.674
車輪	-11.6742
斤兩	-11.6743
黑暗	-11.6747
九天之上	-11.6749
百穀	-11.6751
血液	-11.6752
老幼	-11.6756
推遷	-11.6756
變化無窮	-11.6757
形迹	-11.6758
供奉	-11.6759
天籟	-11.6759
萬頃	-11.6763
士庶	-11.6766
丈人觀	-11.6768
留題	-11.6769
七尺	-11.677
宏願	-11.6772
證驗	-11.6772
斗牛	-11.6774
燦然	-11.6775
邪徑	-11.678
太霞	-11.678
普告	-11.6787
先天一氣	-11.6789
慧眼	-11.6789
四圍	-11.6791
百川	-11.6792
布衣	-11.6793
玉隆	-11.6798
三十九章	-11.6801
赤城	-11.6801
次序	-11.6808
實踐	-11.681
瓊花	-11.6812
放光明	-11.6814
尺許	-11.6815
蕭然	-11.6818
有人焉	-11.6826
靈芝	-11.6826
莫敢	-11.6826
夫何故	-11.6832
九天應元雷聲普化天尊	-11.6839
變遷	-11.684
可測識	-11.684
四十年	-11.6844
秘典	-11.6845
罪障	-11.6851
符篆	-11.6853
五彩	-11.6857
玉冊	-11.6859
俾爾	-11.6886
獻帝	-11.6918
過咎	-11.6926
舌神正倫通命養神羅千齒神	-11.6933
斗樞	-11.6957
塵俗	-11.6978
與天同	-11.7001
警化孚佑	-11.7003
請詳前事理	-11.7003
主賓	-11.7011
無處不	-11.7034
千丈	-11.7039
此其所以	-11.7041
荀	-11.7079
1-	-11.7099
舖	-11.7106
女得道仙姬	-11.7108
祁	-11.711
妓	-11.7114
禎	-11.7117
專氣致柔	-11.7117
刁	-11.7117
觀世音	-11.7119
硤石	-11.712
干冒眞威	-11.712
拄	-11.7122
羅酆	-11.7123
駿	-11.7123
睨	-11.7123
吠	-11.7124
嫡	-11.7124
饑饉	-11.7125
鑾	-11.7125
姆	-11.7125
若復有人	-11.7126
豺	-11.7126
豎	-11.7126
溜	-11.7126
幷	-11.7127
哈	-11.7127
熈	-11.7127
窠	-11.7127
琰	-11.7127
倫理	-11.7127
衒	-11.7127
𦕈	-11.7127
瀟湘	-11.7127
藕	-11.7129
陽中之陰	-11.7129
潑	-11.713
綽	-11.713
歸妹	-11.713
之業願解	-11.713
蹲	-11.7131
噬嗑	-11.7131
紂	-11.7132
眄	-11.7132
郢	-11.7132
䑛	-11.7132
太乙救苦天尊	-11.7132
硃砂	-11.7133
徤	-11.7133
海棠	-11.7133
山得道一切神仙	-11.7133
徹始徹終	-11.7133
怍	-11.7133
馘	-11.7133
無根樹花正	-11.7134
天運年月日告下奉行	-11.7134
倂	-11.7134
璇	-11.7134
淮南子	-11.7135
憔悴	-11.7135
鸚	-11.7135
鄉貫	-11.7136
悉仗眞香普同供養	-11.7136
姜	-11.7136
弘萬福乃弘帝福護羣身如護己身處處	-11.7137
廕	-11.7137
雝	-11.7137
拍手	-11.7138
豢	-11.7138
贏	-11.7138
偹	-11.7138
二十過	-11.7138
鋸	-11.7139
點破	-11.7139
跌	-11.7139
瑤京	-11.7139
旭	-11.7139
庻	-11.7139
元始祖炁	-11.714
晤	-11.714
翕聚	-11.714
㫖	-11.714
翮	-11.714
不可思議功德	-11.7141
優劣	-11.7141
一陰一陽之謂道	-11.7141
巾幗	-11.7141
諸葛忠武侯	-11.7141
傘	-11.7141
根株	-11.7142
喟然	-11.7142
月十五日	-11.7143
千言萬語	-11.7143
戞	-11.7143
滔	-11.7143
郝	-11.7143
趺坐	-11.7144
何啻	-11.7144
☲	-11.7144
逰	-11.7144
蒼梧	-11.7145
敷奏	-11.7145
僖	-11.7145
脫胎神化	-11.7145
開闔	-11.7145
若而人也	-11.7146
賚	-11.7146
無爲而無不爲	-11.7146
持經之人	-11.7146
嬾	-11.7147
􂆞􂆟	-11.7147
臯	-11.7148
弟兄	-11.7149
提醒	-11.7149
夔州	-11.715
體貼	-11.715
蓍	-11.7151
太陽眞火	-11.7151
删	-11.7151
包涵	-11.7152
一念不起	-11.7152
斡運	-11.7153
鬱鬱	-11.7153
丙申	-11.7153
仲冬	-11.7154
振響	-11.7154
洞慧交徹五炁騰騰金光速現覆護眞人	-11.7155
海島	-11.7155
鮑	-11.7157
俯察	-11.7157
斜谷	-11.7159
坐臥	-11.7161
蠱案主者都府管	-11.7161
均沾	-11.7162
枯骨	-11.7165
三天門	-11.7165
夀域	-11.7167
教誨	-11.7167
障蔽	-11.717
史記	-11.717
敷揚	-11.7172
榮衞	-11.7173
尙冀	-11.7173
大天將炁序	-11.7173
三惡道	-11.7176
等至心皈命禮願消	-11.718
寄跡	-11.7181
護衞	-11.7181
紫庭	-11.7183
爾輩	-11.7184
太无	-11.7187
救苦眞人	-11.7191
祕密	-11.7191
註疏	-11.7193
談笑	-11.7194
貧窮	-11.7198
結廬	-11.7199
甲午	-11.72
二三子	-11.7201
白晝	-11.7201
徑路	-11.7202
煥發	-11.7203
俯視	-11.7204
震驚	-11.7205
金剛經	-11.7206
人而人	-11.7207
惡惡	-11.7209
三峽	-11.7212
嗟夫	-11.7218
千百年	-11.7222
許眞君	-11.7226
岳陽	-11.7227
災害	-11.7228
言訖	-11.7231
阨天尊大悲	-11.7237
岷山	-11.7237
劉氏	-11.7239
因之以	-11.725
東北方	-11.7258
渡江	-11.7259
百餘里	-11.7262
不能侵	-11.7298
誰敢	-11.7302
吁嗟	-11.7304
透露	-11.7305
勉力	-11.7308
融融	-11.7309
萬物之母	-11.7311
黒簿	-11.7339
侍御	-11.7344
乘鸞	-11.7355
不相離	-11.7357
眞諦	-11.7372
退舍	-11.738
毫光	-11.7386
松竹	-11.7405
十一年	-11.7451
證無上	-11.7459
使人知	-11.748
此兩者	-11.749
百餘年	-11.75
無往不	-11.7528
濛濛	-11.7555
訐	-11.7558
眾鬼魂	-11.7569
■■	-11.7572
滴滴	-11.7572
給付	-11.7574
輾轉	-11.7575
芸芸	-11.7575
□	-11.7576
諳	-11.7576
紏	-11.7577
譁	-11.7578
亦復如是	-11.7579
日良吉	-11.7579
眞符玉清	-11.758
拖	-11.758
仄	-11.758
壹	-11.7581
馥郁	-11.7581
渣	-11.7581
瞎	-11.7581
病延年按行五嶽八海知聞魔王束首	-11.7581
救生濟死	-11.7582
冡	-11.7582
逡巡	-11.7582
誠惶誠恐	-11.7582
况於人乎	-11.7583
硫	-11.7583
睇	-11.7583
耨	-11.7583
賂	-11.7583
咒三遍畢叩齒咽津如前玄契曰	-11.7584
眞聖衞軒兇穢消散道德成全金光神咒	-11.7584
恭對道前	-11.7584
氓	-11.7584
孛	-11.7584
匡扶	-11.7585
爲上良因再申稱念	-11.7585
勺	-11.7585
癸亥	-11.7585
東宫慈父太乙尋聲救苦天尊證盟玉清	-11.7585
腑	-11.7585
瓣	-11.7585
令我通眞思神鍊液道炁常存	-11.7585
頰	-11.7585
迴風混合	-11.7586
䖏	-11.7586
鎗	-11.7586
賔	-11.7587
翌	-11.7587
蓬島	-11.7587
山河大地	-11.7587
飫	-11.7588
舘	-11.7588
饋	-11.7588
飼	-11.7588
寂然不動感而遂通	-11.7588
爲而不恃	-11.7588
九天雷祖	-11.7589
剗	-11.7589
皤	-11.7589
腕	-11.7589
列仙班	-11.7589
最上一乘	-11.7589
空空洞洞	-11.759
呆	-11.759
吹噓	-11.759
晷	-11.759
拏	-11.7591
胄	-11.7591
樊籠	-11.7591
謳	-11.7591
三家相見	-11.7591
灑灑	-11.7592
夸	-11.7592
鱉	-11.7592
澍	-11.7592
回光返照	-11.7592
琳琅	-11.7592
甓	-11.7592
軼	-11.7593
慣	-11.7593
昏昏默默	-11.7593
昂	-11.7593
奔馳	-11.7593
纒綿	-11.7593
闓	-11.7594
一升一降	-11.7595
刳	-11.7595
太淸仙境	-11.7595
通天徹地	-11.7595
王重陽眞人	-11.7596
痘	-11.7596
遐齡	-11.7596
羿	-11.7596
蔣琬	-11.7596
餽	-11.7596
饑渴	-11.7596
紺	-11.7597
之災玉皇大天尊玄穹高上帝	-11.7597
鬆	-11.7597
臬	-11.7597
劃	-11.7598
淋	-11.7598
悔吝	-11.7598
黑簿	-11.7599
洋溢	-11.7599
藿	-11.76
度亡過	-11.76
片晌	-11.76
屋漏	-11.76
紫微大帝	-11.7601
鞋	-11.7601
笏	-11.7601
洪濛	-11.7602
寡慾	-11.7602
戊寅	-11.7602
浮黎	-11.7602
九天生神	-11.7602
暎	-11.7603
乙丑	-11.7603
葱	-11.7603
先天地生	-11.7604
丙寅	-11.7605
感慨	-11.7605
兩弦之炁	-11.7605
陽燧	-11.7606
鬱儀	-11.7607
綿竹	-11.7607
玉宸道君	-11.7607
繕	-11.7608
一粒金丹	-11.761
豁落	-11.761
祈嗣	-11.7611
裒	-11.7613
兩般	-11.7613
鴻䝉	-11.7614
昏昧	-11.7614
飮酒	-11.7618
伊呂	-11.7618
周圍	-11.7619
衍慶	-11.7619
己酉	-11.7619
遼陽	-11.7619
欽仰	-11.7622
峭壁	-11.7625
朗徹	-11.7625
樵夫	-11.7626
感激	-11.7627
牽引	-11.7627
桓公	-11.763
怡然	-11.7631
魏延	-11.7633
長生大帝	-11.7635
巍然	-11.7635
題詞	-11.7637
斷續	-11.7641
誦讀	-11.7643
親疎	-11.7645
六尺	-11.7645
欽哉	-11.7646
遺像	-11.7648
苦爽	-11.7648
五百功	-11.765
良醫	-11.7654
忠厚	-11.7655
尊卑	-11.7655
倣此	-11.7655
木蘭	-11.7658
州縣	-11.7662
未來世	-11.7664
目擊	-11.7668
成正覺	-11.7672
退悔	-11.7691
刻薄	-11.7712
武侯廟	-11.7721
利物天尊大悲	-11.7727
悲憫	-11.7754
貪財	-11.7756
點點	-11.7781
輕敵	-11.7789
憐憫	-11.7794
武夷山	-11.7804
謹愼	-11.7832
繩墨	-11.7861
再拜謹	-11.7862
小畜	-11.7867
造化之妙	-11.7892
葆元	-11.7953
結聖胎	-11.8012
心也心	-11.8023
摩訶	-11.8033
干冒天威	-11.8033
利見大人	-11.8045
廖	-11.8048
娟	-11.8048
鴆	-11.8048
敻	-11.805
撒	-11.805
串	-11.8052
脯	-11.8052
甄	-11.8054
洞庭湖	-11.8054
驤	-11.8054
滾	-11.8055
階級	-11.8055
奴婢	-11.8055
哄	-11.8055
躱	-11.8055
天皇大帝	-11.8056
薇	-11.8056
跣	-11.8057
覬	-11.8057
鍊神還虛	-11.8058
叶吉	-11.8058
薄蝕	-11.8059
榖	-11.8059
廩	-11.8059
姊	-11.8059
嶮	-11.8059
渾渾淪淪	-11.806
宓	-11.806
渟	-11.806
餞	-11.8061
槨	-11.8061
蠱毒	-11.8061
三十三天	-11.8061
烹煎	-11.8061
蜿蜒	-11.8062
證鑒修崇	-11.8062
座星君	-11.8063
㳟惟	-11.8063
善哉善哉	-11.8063
汾	-11.8064
燦爛	-11.8064
礪	-11.8065
高上玉皇	-11.8065
貝葉	-11.8065
觀音大士	-11.8065
暗侮	-11.8065
僂	-11.8066
刖	-11.8066
霖雨	-11.8066
百日功靈	-11.8066
安爐立鼎	-11.8066
粲	-11.8067
閻浮	-11.8067
縻	-11.8067
搬弄	-11.8068
簟	-11.8068
摭	-11.8068
𣺌茫	-11.8068
曦	-11.8069
奕奕	-11.8069
日告竣	-11.8069
盤桓	-11.8069
燃燈	-11.8069
鯤	-11.8069
娑婆	-11.8069
皋	-11.8069
巿	-11.8069
生生不已	-11.807
硬	-11.807
寖	-11.807
泝	-11.807
祖師先天主將赤心護道王天君證盟	-11.807
天尊大悲神霄赦除	-11.807
戕賊	-11.8071
芻	-11.8071
縧	-11.8072
垓	-11.8072
媪	-11.8072
彌勒	-11.8072
嶷	-11.8072
羈	-11.8073
坎中眞陽	-11.8073
跟	-11.8073
踈	-11.8074
芻狗	-11.8074
鐙	-11.8074
嗟嗟	-11.8074
丁酉	-11.8074
謠	-11.8074
紛擾	-11.8074
殄滅	-11.8075
蕩穢	-11.8075
腥羶	-11.8075
黃鶴樓	-11.8075
雷轟	-11.8076
洶	-11.8076
壬辰	-11.8077
陡	-11.8077
垂簾	-11.8078
裾	-11.8078
牝牡	-11.8078
鍾乳	-11.8079
無垠	-11.8082
凱	-11.8082
無形無名	-11.8083
聖賢仙佛	-11.8083
猨	-11.8084
饒舌	-11.8084
手段	-11.8086
輕慢	-11.8087
孺子	-11.8087
癸巳	-11.8088
沬	-11.8088
儉約	-11.8089
寶笈	-11.809
五行顚倒	-11.809
莫大焉	-11.8091
鬼趣	-11.8092
幽獄	-11.8092
荒唐	-11.8094
不可不愼	-11.8095
誑語	-11.8095
繁華	-11.8096
淺薄	-11.8096
偶題	-11.81
咸臻	-11.8103
昭鑒	-11.8103
雷震	-11.8104
銖兩	-11.8105
層次	-11.8109
陰陽二氣	-11.8111
東宫慈父太乙尋聲救苦天尊證盟	-11.8116
𡨚債	-11.812
靑霄	-11.812
原赦	-11.8126
混俗	-11.8126
庸愚	-11.8127
洞玄靈寶	-11.814
辰巳	-11.8143
諶母	-11.8156
生死輪迴	-11.8196
萬仞	-11.822
命蒂	-11.8295
千尺	-11.8333
邪衞眞喉神虎賁氣神引津心神丹元	-11.8335
合屬去處	-11.8538
森列	-11.8539
禋	-11.8543
大天尊掌道掌法	-11.8543
○(○	-11.8545
嘔	-11.8547
蕆	-11.8549
舊志云	-11.8549
沱	-11.8549
蛭	-11.8549
稼穡	-11.855
焰	-11.855
重陽註曰	-11.855
幔亭	-11.855
咬	-11.8551
絆	-11.8552
惘	-11.8552
徠	-11.8553
澇	-11.8553
璽	-11.8554
艇	-11.8555
炯	-11.8555
訢	-11.8556
若存若亡	-11.8556
俛	-11.8556
瘴	-11.8557
萬法歸一	-11.8558
濟生度死	-11.8558
蒞	-11.8558
姹	-11.8558
畛	-11.8559
呀	-11.8559
綻	-11.8559
漑	-11.8559
跖	-11.8559
辣	-11.856
永度三途五苦八難超凌仙界逍遙上	-11.856
顖	-11.8561
訊	-11.8561
霄壤	-11.8561
彘	-11.8562
和光同塵	-11.8562
瓦礫	-11.8562
姜維	-11.8562
征凶	-11.8562
君子體此	-11.8563
菽	-11.8563
綫	-11.8563
岳陽樓	-11.8563
由此觀之	-11.8564
疣	-11.8564
諸天聖眾	-11.8564
襍	-11.8564
正心誠意	-11.8564
玉皇尊帝	-11.8564
毁譽	-11.8564
縊	-11.8564
淨身神咒	-11.8565
闚	-11.8565
加一等	-11.8565
㕑	-11.8565
兜	-11.8565
盻	-11.8565
扳	-11.8566
胆	-11.8566
稠	-11.8566
調爕	-11.8566
熄	-11.8566
僊	-11.8566
五金八石	-11.8567
情歸性	-11.8567
𡨚愆	-11.8567
顓	-11.8567
瀟灑	-11.8567
赭	-11.8568
凝神入氣穴	-11.8568
貪嗔癡	-11.8568
道不遠人	-11.8568
而說偈曰	-11.8568
吟咏	-11.8568
芸	-11.8568
彤	-11.8569
矚	-11.8569
鴨	-11.8569
綺語	-11.8569
悄	-11.857
蟄藏	-11.857
主人翁	-11.857
0	-11.857
樟	-11.8571
冠裳	-11.8571
刺史	-11.8571
痿	-11.8571
韞	-11.8571
霎時	-11.8572
乳房	-11.8572
眞一之水	-11.8572
採取烹煉	-11.8572
糜	-11.8572
矛	-11.8572
斟	-11.8573
彰彰	-11.8573
和睦	-11.8574
竣	-11.8574
丶	-11.8574
淮南	-11.8575
庚辰	-11.8575
拽	-11.8575
矍	-11.8575
毁謗	-11.8575
至玄至妙	-11.8575
稳	-11.8575
潢	-11.8576
遲遲	-11.8577
覃恩	-11.8578
肝膽	-11.8579
又無根樹花正	-11.8579
兔髓	-11.8579
耜	-11.8579
桃康	-11.858
净	-11.858
夀夭	-11.8581
元契曰	-11.8582
頌揚	-11.8582
淨明忠孝	-11.8582
諦聽吾言	-11.8583
幽寥	-11.8583
役役	-11.8584
舅姑	-11.8584
尹喜	-11.8584
揀	-11.8584
杲	-11.8585
防閑	-11.8585
欺罔	-11.8585
㟁	-11.8585
踪跡	-11.8585
天尊萬福寶誥	-11.8586
納甲	-11.8587
何言哉	-11.8587
刼刼	-11.8591
拱手	-11.8592
芝草	-11.8592
貪戀	-11.8594
緩急	-11.8595
攸司	-11.8598
罐	-11.8598
華胥	-11.8601
明禋	-11.8603
幸逢	-11.8605
桂林	-11.8608
衞護	-11.8608
弱冠	-11.8609
誰肯	-11.8609
鸞鳳	-11.8612
沉溺	-11.8613
東方木	-11.8615
丁甯	-11.8616
心向道	-11.8665
若然者	-11.8677
能有幾	-11.8704
蓮座	-11.8715
五千文	-11.8747
毫末	-11.8751
所奏特	-11.8779
孔竅	-11.8847
恢廓	-11.8867
可不謂	-11.8942
忒	-11.8948
秋毫	-11.8955
捐貲	-11.8957
十有四	-11.8972
氣以生	-11.904
在眼前	-11.9052
玉几下	-11.9066
脛	-11.907
沉疴	-11.9072
九天演政	-11.9073
成一塊	-11.9074
斬赤龍	-11.9075
痒	-11.9076
譔	-11.9078
冗	-11.9078
琪	-11.9079
埽	-11.9079
三淸三境	-11.9079
斧斤	-11.908
延壽	-11.908
咸令照應	-11.9081
太上洞玄靈寶	-11.9081
白祖仙師曰	-11.9081
逭	-11.9082
戸牖	-11.9082
誥奉行祖師三天教主正一眞君張證盟	-11.9083
浚	-11.9084
皥	-11.9085
喙	-11.9085
寕	-11.9085
從無入有	-11.9086
芒鞋	-11.9086
洗濯	-11.9086
聶	-11.9086
髏	-11.9086
冤	-11.9086
簞	-11.9086
銛	-11.9087
曹局	-11.9087
凄凉	-11.9087
麻祖元君曰	-11.9087
至簡至易	-11.9088
逵	-11.9088
巘	-11.9088
宣秘咒	-11.9089
-	-11.9089
佃	-11.909
吻	-11.909
東園語錄	-11.909
驪珠	-11.909
仁慈俯賜昭允	-11.909
囦	-11.909
鬣	-11.909
坎中一陽	-11.909
蜮	-11.9091
擘	-11.9091
天尊弟子某等	-11.9091
皓靈皇老	-11.9091
鯉	-11.9091
蓬蒿	-11.9092
隹	-11.9092
狀九分	-11.9092
嗷	-11.9092
湼	-11.9092
魏伯陽	-11.9092
涌	-11.9092
尋聲赴感	-11.9092
麼	-11.9092
猿啼	-11.9093
濬	-11.9093
甑	-11.9093
殷殷	-11.9093
嚇	-11.9093
攪	-11.9094
儒釋道	-11.9094
届	-11.9095
頷	-11.9095
噩	-11.9095
渺渺	-11.9095
乙酉	-11.9096
提挈	-11.9096
煉氣化神	-11.9096
用之不勤	-11.9096
耄	-11.9097
眾妙之門	-11.9097
緡	-11.9097
以神馭氣	-11.9097
㓜	-11.9097
杜甫	-11.9098
悽	-11.9098
鉉	-11.9098
璘	-11.9099
琪花	-11.9099
狸	-11.9099
根柢	-11.9099
爲二百功	-11.9099
綰	-11.91
四生六道	-11.91
繭	-11.91
牢獄	-11.91
𨶒浮	-11.9101
駟馬	-11.9101
蔑	-11.9101
父母未生以前	-11.9101
依稀	-11.9101
眼耳鼻舌	-11.9101
由是觀之	-11.9101
慈諸天眞宰度災濟刦萬眞無量福護	-11.9102
案主者	-11.9102
燿	-11.9102
上善若水	-11.9103
陷溺	-11.9103
逗	-11.9103
瑰	-11.9103
東華帝君	-11.9103
揖讓	-11.9103
群	-11.9104
輿地紀勝云	-11.9104
揺	-11.9104
顚沛	-11.9104
心無其心	-11.9105
勤而行之	-11.9106
沌	-11.9107
太尉	-11.9107
漚	-11.9107
緝	-11.9107
洩漏	-11.9108
征伐	-11.9108
愛憎	-11.9108
戊辰	-11.9109
有形有象	-11.9109
不見不聞	-11.9109
鍾離眞人	-11.911
拈花	-11.9111
殺戮	-11.9111
徊	-11.9111
呵護	-11.9111
羅眞人曰	-11.9112
脇	-11.9112
盗賊	-11.9113
零陵	-11.9113
刹那	-11.9116
牽連	-11.9116
淡淡	-11.9118
炒	-11.9119
㝠㝠	-11.9121
血脈	-11.9122
高穹	-11.9127
復圭子曰此章	-11.9129
踏破	-11.9133
莫過於	-11.9134
無極之眞	-11.9136
孟氏	-11.9138
天尊大悲斗司	-11.9164
普陀	-11.9168
朕兆	-11.9177
循循	-11.9217
貲財	-11.9234
神與氣	-11.9279
丈許	-11.9295
忠武侯	-11.9311
滋潤	-11.9355
基址	-11.947
金生水	-11.9484
懇祈	-11.9499
案主者宫府管	-11.9597
九龍符命	-11.9624
弃	-11.9625
詡	-11.9629
耻	-11.963
一次爲二過	-11.9631
悶悶	-11.9633
媳	-11.9633
醇	-11.9633
乎陽之說也	-11.9633
皇夫人北斗	-11.9634
肺腑	-11.9635
攄	-11.9636
十方靈寶救苦尊救苦天尊唵啞吽吽啞	-11.9636
牂	-11.9636
靜極而動	-11.9636
庄	-11.9636
西竺	-11.9636
錘	-11.9638
華池神水	-11.9638
冽	-11.9638
鼉	-11.9638
抹	-11.9638
宏慈妙法元君	-11.9638
噉	-11.9638
天君雷府護法	-11.9639
淫媾	-11.9639
蚩蚩	-11.9639
抽鉛添汞	-11.9639
流光耀采天尊	-11.9639
哂	-11.9639
歳	-11.964
蹉	-11.964
歙	-11.9641
㜑	-11.9641
叮	-11.9641
滲漏	-11.9641
燦燦	-11.9641
拓	-11.9641
磁	-11.9641
生身受度刼刼長存隨刼輪轉與天齊年	-11.9641
瑛	-11.9642
魑	-11.9642
廸	-11.9642
努力	-11.9642
當面錯過	-11.9642
愴	-11.9642
撤	-11.9643
圓通早覺天尊	-11.9643
燠	-11.9644
鹵	-11.9644
唏	-11.9644
靈寶天尊安慰身形法子魂魄五臟玄	-11.9644
乎陰之說也	-11.9644
灌溉	-11.9645
婬姤	-11.9645
漕	-11.9645
砧	-11.9645
无咎	-11.9645
證生方	-11.9645
金來歸性	-11.9646
幟	-11.9646
四大假合	-11.9646
尿	-11.9646
澹泊	-11.9646
斧鉞	-11.9646
甡	-11.9646
與天爲徒	-11.9646
漢嘉長乙山人李西月重編張道淵子深	-11.9646
飛行救劫天尊	-11.9646
魁罡	-11.9647
夥	-11.9647
通玄應變天尊	-11.9647
生老病死	-11.9647
陶冶	-11.9647
墖	-11.9647
阿羅漢	-11.9648
收視返聽	-11.9648
怏	-11.9648
圭角	-11.9648
䘏	-11.9648
天根月窟	-11.9648
愠	-11.9649
注視良久	-11.9649
黃粱	-11.9649
弒	-11.9649
硃	-11.9649
殽	-11.9649
瑞靄	-11.965
陽神出現	-11.965
蹕	-11.965
玄珠成象	-11.965
纍纍	-11.9651
西華金母	-11.9651
泒	-11.9651
圓通子曰	-11.9651
塹	-11.9651
蒼苔	-11.9651
迢迢	-11.9651
眞無量福護天尊萬福寶誥	-11.9651
煢	-11.9651
須至具疏申聞者右疏具申	-11.9651
解脱	-11.9651
昱	-11.9651
不偏不倚	-11.9651
七情六慾	-11.9652
旁門小術	-11.9652
漁翁	-11.9652
横	-11.9652
貿	-11.9652
萬斛	-11.9652
綃	-11.9653
㗖	-11.9653
蒼胡頡寶	-11.9653
頺	-11.9654
慈諸天眞宰度災濟刼萬	-11.9654
愷	-11.9654
忠恕	-11.9654
韁	-11.9654
田疇	-11.9654
陀羅	-11.9654
圉	-11.9654
虺	-11.9655
凹	-11.9655
􂂁	-11.9655
靳	-11.9655
大面山	-11.9655
砭	-11.9655
階梯	-11.9655
神仙兵馬無鞅數眾悉	-11.9655
剏	-11.9656
濠	-11.9656
雺	-11.9656
念茲在茲	-11.9657
絪	-11.9658
超登蓮化天尊	-11.9658
庇佑	-11.9658
描	-11.9659
呂純陽	-11.9659
珠璣	-11.9659
駘	-11.9659
坎中之陽	-11.9659
肺肝	-11.9659
廛	-11.9659
珪	-11.9659
槃	-11.966
毛髮	-11.9661
𦀦	-11.9661
太陰眞水	-11.9661
抱膝	-11.9662
陳希夷	-11.9662
錢塘	-11.9662
壻	-11.9663
日月星斗	-11.9664
循環無端	-11.9664
徨	-11.9665
陰極而	-11.9665
衣裳	-11.9666
猛烈	-11.9668
玉光弟子	-11.9668
戊申	-11.9671
長生久視之道	-11.9672
羽翼	-11.9672
沉滯	-11.9674
羽毛	-11.9674
團圞	-11.9677
光發現	-11.9687
日爲始	-11.9693
一如誥命風火驛傳年月	-11.9707
機在目	-11.9709
在是矣	-11.9712
羅天十	-11.9797
位不當也	-11.9842
艱貞	-11.9854
莫之能	-11.9929
真君祖師	-12.0014
若亡若存	-12.0038
寰	-12.0051
驪	-12.0179
救苦大天尊	-12.0191
黿	-12.0213
天尊大悲統部嶽府	-12.0213
䭾	-12.0213
爛熳	-12.0213
醖釀	-12.0214
團團	-12.0215
拆	-12.0216
玉清贊化	-12.0217
合屬眞司	-12.0219
荏	-12.0219
弟子某等	-12.0219
犍	-12.0221
竽	-12.0221
愫	-12.0221
穎	-12.0221
尺二寸	-12.0222
梭	-12.0222
齧缺	-12.0222
福善禍淫	-12.0223
四天君曰	-12.0223
大放光明倘能叨沐是光照耀厥身前後	-12.0224
在昔彌羅聖主大放是光無與等者元皇	-12.0224
皎皎	-12.0224
迴光返照	-12.0224
太極便宜司	-12.0224
周而復始	-12.0225
與時偕行	-12.0225
撿	-12.0225
饕	-12.0225
仰對元皇曷勝欽仰敬禮	-12.0225
窺測	-12.0225
媿	-12.0225
天柱峰	-12.0226
跏	-12.0226
頭頭是道	-12.0227
薈	-12.0227
詫	-12.0227
嘵	-12.0227
翀	-12.0227
陀羅尼	-12.0227
无咎象曰	-12.0228
颯	-12.0228
9	-12.0228
慤	-12.0228
一統志	-12.0229
墊	-12.0229
涓涓	-12.0229
鬟	-12.0229
慊	-12.0229
宼	-12.0229
脗	-12.0229
覿	-12.023
重刋道藏輯要張三丰先生全集	-12.023
熹	-12.023
獰	-12.023
安身立命	-12.0231
爲第一等弟子	-12.0231
浄	-12.0231
繚	-12.0231
爲聖爲賢	-12.0232
當此之時	-12.0232
庚戌	-12.0232
崎嶇	-12.0232
息息歸根	-12.0232
蚩	-12.0233
菁	-12.0233
茸	-12.0234
地獄之業願解	-12.0234
楊去奢曰	-12.0234
勾漏	-12.0234
皺	-12.0234
銅符鐵劵	-12.0234
塋	-12.0235
噀	-12.0235
羌	-12.0235
弧	-12.0235
金章靈符	-12.0235
渤	-12.0235
傚	-12.0236
眞君張證盟	-12.0236
簑	-12.0236
汪洋	-12.0236
簽	-12.0236
那怕	-12.0236
㨗徑	-12.0236
退藏於密	-12.0237
㙮	-12.0237
玉虛師相	-12.0237
耑	-12.0237
蒨	-12.0237
捷徑	-12.0238
者右疏具申	-12.0238
笞	-12.0238
掾	-12.0238
諶姆	-12.0238
轝	-12.0238
晡	-12.0238
地二生火	-12.0238
超脱	-12.0238
生生化化	-12.0239
綘宮	-12.0239
莫先於	-12.0239
不出不入	-12.0239
南榮趎	-12.0239
毓秀	-12.0239
楠	-12.0239
碗	-12.0239
荇	-12.0239
陽火陰符	-12.0239
常應常靜	-12.024
貧乏	-12.024
轉神入定	-12.024
它	-12.024
忮	-12.024
九年面壁	-12.024
鄂渚	-12.024
菱	-12.024
袵	-12.024
傀	-12.024
颺	-12.0241
寂寥	-12.0241
萌芽	-12.0241
嶧	-12.0241
諺云	-12.0241
功過格	-12.0241
玄要篇	-12.0241
𨓜	-12.0241
襯	-12.0242
轆	-12.0243
吉凶悔吝	-12.0243
四肢百骸	-12.0244
壬午	-12.0244
丙辰	-12.0244
缶	-12.0244
窮理盡性以至於命	-12.0244
焱	-12.0245
魘	-12.0245
離中眞陰	-12.0245
盃	-12.0245
厠	-12.0246
鹵莽	-12.0246
辛丑	-12.0246
菑	-12.0247
龍從火裏出	-12.0247
胸臆	-12.0247
遘	-12.0247
樗	-12.0247
篙	-12.0247
橙	-12.0248
珊瑚	-12.0248
斌	-12.0248
髫	-12.0248
溫養	-12.0249
癢	-12.025
宣行祖師三天教主正一眞君張證盟	-12.025
賑濟	-12.0251
㘕	-12.0253
兩弦之氣	-12.0253
遺址	-12.0256
森嚴	-12.0256
瘋	-12.0258
鞏固	-12.0259
大金神曰	-12.026
完璞	-12.0261
栽接	-12.0262
眞人註曰此章	-12.0264
温飽	-12.0271
驪龍	-12.0288
月出庚	-12.0293
欣欣	-12.0305
萬八千	-12.0418
十一戒者不得	-12.0598
岱嶽	-12.062
曹檢校黒簿	-12.0631
十四戒者不得	-12.073
曹檢校丹書	-12.0806
錙	-12.0825
領詞䖍切依教奉行	-12.0837
告竣	-12.0838
戰慄	-12.0839
氾	-12.0839
票	-12.084
埴	-12.084
曲垂矜允	-12.0841
一點落黃庭	-12.0841
秃	-12.0841
等因本司得此	-12.0842
纍	-12.0843
捩	-12.0844
朵	-12.0844
粮	-12.0844
璚	-12.0845
穹窿	-12.0845
神君火府	-12.0846
叭	-12.0847
朦朧	-12.0847
颼	-12.0847
窒礙	-12.0848
悛	-12.0848
𥥆㝠	-12.0848
般般	-12.0849
諄	-12.0849
疚	-12.0849
現身說法	-12.0849
穗	-12.0849
馮夷	-12.085
承天效法后土皇	-12.085
不得已而用之	-12.085
等忝列男身幸生中土	-12.085
尻	-12.085
結靈胎	-12.085
中郞將	-12.085
似有似無	-12.0851
干冒聖威	-12.0851
桀紂	-12.0851
橛	-12.0851
斷句之	-12.0852
竪	-12.0852
殀	-12.0852
於家修設	-12.0852
城隍社令	-12.0853
溟冷	-12.0853
靈寶无量度人	-12.0853
貂	-12.0853
綢繆	-12.0853
甄陶	-12.0854
幄	-12.0854
駟	-12.0854
煌	-12.0854
五方五老	-12.0854
撘	-12.0854
旃	-12.0855
燥濕	-12.0855
樑	-12.0855
烏兎	-12.0855
疼	-12.0855
-10	-12.0855
整肅威儀	-12.0855
稊	-12.0855
聲色貨利	-12.0856
敖	-12.0856
無上混元宗壇	-12.0856
功圓行滿	-12.0856
逅	-12.0856
▁無極子曰	-12.0856
回向伏念	-12.0857
虛室生白	-12.0857
大地山河	-12.0857
十一大曜	-12.0858
無始以來	-12.0858
毬	-12.0858
摯	-12.0858
重刊道藏輯要	-12.0858
熊羆	-12.0858
呻吟	-12.0859
楯	-12.0859
廼	-12.0859
韄	-12.086
恆河沙	-12.086
魚鼈	-12.086
陝	-12.086
栩	-12.086
痼	-12.086
太乙含眞	-12.086
𢪩	-12.086
落空亡	-12.086
蟹	-12.086
無無亦無	-12.0861
絜	-12.0861
頻頻	-12.0861
癸丑	-12.0861
臉	-12.0861
塟	-12.0862
善爲士者	-12.0862
燬	-12.0862
炤	-12.0862
摩利攴天	-12.0862
金剛力士	-12.0862
飢渴	-12.0863
吝象曰	-12.0863
十洲三島	-12.0863
曙	-12.0864
止火之候	-12.0864
五氣朝元	-12.0864
芬芳	-12.0864
闈	-12.0864
誹	-12.0864
曹還陽	-12.0864
汨没	-12.0864
年𡻕次	-12.0864
壬戌	-12.0864
朶朶	-12.0865
人爲萬物之靈	-12.0865
高虛淸明天主	-12.0865
衎	-12.0865
三萬刻	-12.0865
繆	-12.0865
媸	-12.0865
餉	-12.0866
腮	-12.0866
伍子答曰	-12.0866
金液大丹	-12.0867
抱元守一	-12.0867
伎倆	-12.0867
鄧艾	-12.0867
嘶	-12.0867
躐	-12.0867
寮	-12.0867
持誦玉皇經	-12.0868
聖前伏乞	-12.0868
歡欣	-12.0868
此章申言	-12.0868
購	-12.0868
套	-12.0868
攣	-12.0869
水簾洞	-12.0869
姙	-12.0869
金能生水	-12.087
峴	-12.087
御製	-12.087
脈絡	-12.0871
白日飛昇	-12.0872
飍	-12.0872
楊升菴曰	-12.0872
耒	-12.0872
初八日	-12.0873
窮理盡性	-12.0873
丁丑	-12.0873
笻	-12.0874
獘	-12.0874
閴	-12.0874
若有若無	-12.0874
忌諱	-12.0874
拂袖	-12.0875
紫虛魏祖元君曰	-12.0876
愕	-12.0876
髩	-12.0876
邳	-12.0877
也上章言	-12.0877
巴陵	-12.0878
知白守黑	-12.0879
娑婆訶	-12.0879
奥玅	-12.0879
棟宇	-12.088
卧龍岡	-12.088
塞其兌	-12.0881
忤逆	-12.0882
絹	-12.0883
無死地	-12.089
顏闔	-12.0892
曹檢校青編	-12.0894
二生三	-12.0901
佗	-12.0905
災迍	-12.0907
十九戒者不得	-12.092
十八戒者不得	-12.0951
壇庭太上有命搜捕邪精	-12.0954
十餘丈	-12.0966
十七戒者不得	-12.1078
十五戒者不得	-12.1162
十六戒者不得	-12.1254
綿綿不絕	-12.131
各安方位備守壇庭太上有命搜捕邪精	-12.1424
恙	-12.145
雲笈七籖	-12.1488
蟾蜍	-12.1489
俯拜恭惟	-12.1492
上仙言眞人	-12.1495
願我衆生得九天心印者	-12.1497
溶	-12.1499
泰玄都省	-12.1499
神仙雲騎將士吏兵	-12.1503
無思無慮	-12.1506
唧	-12.1507
暘谷	-12.1507
􂂀	-12.1508
牒本司得此	-12.1508
嫓	-12.1512
恢漠	-12.1512
捻	-12.1513
愓	-12.1513
未生之前	-12.1513
五龍捧聖	-12.1513
戰國策	-12.1513
不可勝數	-12.1513
粱	-12.1514
瀼	-12.1515
瘥	-12.1515
作如是觀	-12.1515
厄皈命至德靈華君願解	-12.1515
劓	-12.1515
娑訶	-12.1516
蛇蝎	-12.1516
孳孳	-12.1516
喤	-12.1516
酹	-12.1516
三十六部尊經	-12.1517
瀟	-12.1517
貞明大聖	-12.1517
返本還源	-12.1517
踴躍歡欣五體投地至心敬禮	-12.1517
越嶲	-12.1518
薨	-12.1518
郵	-12.1518
天牢地獄	-12.1518
更生永命天尊拜請大元皇	-12.1518
嘻嘻	-12.1518
渥	-12.1518
道非常道	-12.1519
𡧾	-12.1519
爲二十功	-12.1519
汨沒	-12.1519
騏	-12.1519
爼豆	-12.1519
分内事	-12.1519
甘霖	-12.1519
鶩	-12.152
撐	-12.152
漬	-12.152
嚙	-12.152
三元三品三官大帝	-12.152
皎潔	-12.152
鶴臞子	-12.152
妝	-12.152
庠	-12.152
冉	-12.152
孚佑上帝純陽吕祖天師	-12.1521
桶	-12.1521
燧	-12.1521
伶	-12.1521
荄	-12.1521
鏌	-12.1522
膾	-12.1522
軀殻	-12.1522
隨詣天寶几前俯伏奏曰奉勅往觀所見	-12.1522
恭望眞慈允	-12.1522
駢臻	-12.1522
章至尊咒畢旋喚夜光玉女曰汝	-12.1522
識此一劫尙其乘吾光登臺而	-12.1522
覘	-12.1522
黷	-12.1522
未生以前	-12.1522
是日叩干元造意者切以	-12.1522
縳魅保命護身智慧明淨心神安甯三	-12.1522
敢問此劫可以救否至尊曰可哉吾當勅	-12.1523
慇懃	-12.1523
三寶萬靈法懴下元道士王守上閱	-12.1523
8	-12.1523
宿命通	-12.1524
無我無人	-12.1524
水火土石	-12.1524
恠	-12.1524
雍闓	-12.1524
烽	-12.1524
宏濟眞君	-12.1524
毆	-12.1524
拿	-12.1524
騶	-12.1524
孜孜	-12.1524
珊	-12.1525
十有六	-12.1525
百尺竿頭	-12.1525
搔	-12.1525
膳	-12.1525
下布心宮	-12.1525
無上聖廓落發光明寂寂浩無	-12.1526
開玄闡秘宏教眞君柳守元	-12.1526
峪	-12.1526
鍵	-12.1526
上生天堂	-12.1526
弟子右洎合	-12.1526
鬧	-12.1526
蹠	-12.1526
奴僕	-12.1526
摩盪	-12.1526
閨閫	-12.1526
分陰分陽	-12.1527
功成名遂	-12.1527
噫嘻	-12.1528
滚滚	-12.1528
哆囉	-12.1528
八洞仙祖	-12.1528
崇禎	-12.1528
怠惰	-12.1528
㑹	-12.1528
忙忙	-12.1528
嘴	-12.1528
惺惺不昧	-12.1528
昉	-12.1528
讀是經者	-12.1529
南辰北斗	-12.1529
响	-12.1529
盾	-12.1529
拐騙	-12.1529
白雲深處	-12.1529
三花聚頂	-12.1529
泠泠	-12.1529
妙寶神功顯號應化天尊重刋道藏輯要	-12.153
生生不窮	-12.153
掃蕩妖氛	-12.153
九天乾羅怛那洞罡太玄斬妖縳邪	-12.153
杜鵑	-12.153
十月胎圓	-12.153
匍匐	-12.153
帝一眞道	-12.153
虛靈不昧	-12.153
燔	-12.153
彀	-12.153
混淆	-12.1531
闥	-12.1531
通玄先生曰傳曰	-12.1531
餚	-12.1531
䘮	-12.1531
菌	-12.1531
虎向水中生	-12.1531
洊	-12.1531
朱大真人曰	-12.1532
匕	-12.1532
惟德是	-12.1533
道德五千言	-12.1533
撚	-12.1533
金木間隔	-12.1533
勉旃	-12.1533
貪饕	-12.1534
蕉	-12.1534
腫	-12.1534
劎	-12.1534
纜	-12.1534
娠	-12.1534
戊戌	-12.1534
諮	-12.1534
筒	-12.1534
天真皇人云右	-12.1535
恍惚杳冥	-12.1535
稽首頓首	-12.1535
返本還原	-12.1535
阱	-12.1535
胚	-12.1535
鬚眉	-12.1536
日月爲易	-12.1536
瑋	-12.1537
恁麽	-12.1537
萱	-12.1537
瞥	-12.1537
在母腹	-12.1538
迢	-12.1539
崛	-12.1539
扁鵲	-12.1539
孤寡不穀	-12.1539
咽喉	-12.1539
舅	-12.154
紫虛魏祖元君疏	-12.154
空無所空	-12.154
頹	-12.154
如雞抱卵	-12.1541
騾	-12.1541
莘	-12.1543
戚戚	-12.1543
非有非無	-12.1545
黒	-12.1546
君臣父子	-12.1547
晜孫	-12.1551
嚕	-12.1556
哪	-12.1561
天慶觀	-12.1562
須至牒者	-12.1566
䟽	-12.1569
尋聲救苦	-12.1606
匡廬	-12.1628
吽吽	-12.177
至心朝禮太上無極	-12.1924
大惠天尊大悲	-12.2113
鞅	-12.2173
大靈官中宫鎮治	-12.2175
玉淸聖境元始	-12.2177
代答曰弟子	-12.2194
阨天尊大悲部禳	-12.2194
菩	-12.2205
請照驗	-12.2206
唳	-12.2209
雷師皓翁	-12.2209
􂃄	-12.2212
嶽府受生院第	-12.2214
霎	-12.2216
領詞䖍切	-12.2217
枘	-12.222
詬	-12.2221
重刋道藏輯要上淸靈寶文檢卷	-12.2221
彪	-12.2222
醖	-12.2222
缽	-12.2223
煽	-12.2223
蚕	-12.2224
攙	-12.2224
濩	-12.2224
逐一開具	-12.2224
本司得此除已依科	-12.2225
甥	-12.2225
訉	-12.2226
萬乘之主	-12.2227
銓	-12.2227
杠	-12.2228
賞善罰惡	-12.2228
孜省	-12.2228
穰	-12.2229
墠	-12.2229
蹉跎	-12.2229
渉	-12.2231
􂈮	-12.2231
磕	-12.2231
欬	-12.2232
萇	-12.2232
胎卵濕化	-12.2232
郃	-12.2232
舂	-12.2233
癖	-12.2233
南極長生大帝	-12.2233
萎	-12.2233
忭	-12.2233
帑	-12.2233
欒	-12.2234
艘	-12.2234
諺	-12.2234
沁	-12.2234
爪牙	-12.2234
師號同前	-12.2234
琯	-12.2235
氊	-12.2235
嬋娟	-12.2235
瓮	-12.2235
代天宣化	-12.2235
旒	-12.2235
曛	-12.2235
王屋山	-12.2235
鈐	-12.2235
𩲉	-12.2235
榜文右伏以	-12.2236
據大淸國四川	-12.2237
劖	-12.2237
拔度亡人	-12.2237
更照之夜光承諭又復登臺照見	-12.2237
皿	-12.2237
緋	-12.2237
太上感應篇	-12.2237
故能成其大	-12.2237
癭	-12.2238
法筵淸眾	-12.2238
河上公	-12.2238
有虞氏	-12.2238
顒	-12.2238
丹靈眞老赤帝	-12.2238
阪	-12.2239
不神之神	-12.2239
拉	-12.2239
靑龍白虎隊仗紛紜朱雀玄武侍衞我	-12.2239
跼	-12.2239
属	-12.2239
崢嶸	-12.2239
宗玄範總十方湛寂眞常道恢漠大神通	-12.2241
烘	-12.2241
霏霏	-12.2241
無去無來	-12.2241
爲道日損	-12.2241
陰極陽生	-12.2241
徐無鬼	-12.2241
至矣盡矣	-12.2242
潺潺	-12.2242
褊	-12.2242
婺	-12.2242
淒涼	-12.2242
孏翁	-12.2242
卜筮	-12.2242
致虛守靜	-12.2242
卸	-12.2242
挨	-12.2243
鼕	-12.2243
牲醴	-12.2243
璃	-12.2243
酬酢	-12.2244
剡	-12.2244
各從其類	-12.2244
靈寶文檢	-12.2244
天運年月日吿下	-12.2244
領益州牧	-12.2244
仝	-12.2244
眞符右符吿下	-12.2245
出師二表	-12.2245
灧	-12.2245
我孚佑帝師	-12.2245
胸襟	-12.2245
洶湧	-12.2245
九玄七祖	-12.2245
神道設教	-12.2245
霏	-12.2245
袤	-12.2245
祲	-12.2245
荔	-12.2246
閟	-12.2246
􂆠	-12.2246
強	-12.2246
剥	-12.2246
天雷上相	-12.2246
畸	-12.2246
芰	-12.2247
鸝	-12.2247
􂆥	-12.2247
躊躇	-12.2247
星君西斗	-12.2248
太玄道父	-12.2248
白上仙言	-12.2248
顆顆	-12.2248
叵	-12.2248
癰	-12.2249
月二十八日	-12.2249
鹹	-12.2249
屵	-12.2249
鄴	-12.2249
戒服不得	-12.2249
愜	-12.2249
允執厥中	-12.2249
扞	-12.2249
餙	-12.2249
搐	-12.2249
穰穰	-12.225
蓊	-12.225
懲忿窒慾	-12.225
神水華池	-12.225
錙銖	-12.225
身體力行	-12.225
九萬九千九百九十	-12.225
雲篆上吿	-12.2251
閶闔	-12.2251
𦙍	-12.2251
畱	-12.2251
西南得朋	-12.2251
賒	-12.2252
諸眞聖眾	-12.2252
璿	-12.2252
潜	-12.2253
不求聞達	-12.2253
差忒	-12.2254
淋漓	-12.2254
芮	-12.2254
桷	-12.2255
碾	-12.2255
斫	-12.2255
芭蕉	-12.2255
隈	-12.2257
洙	-12.2257
何思何慮	-12.2257
怵	-12.2257
彷	-12.2259
拌	-12.2261
神而明之	-12.2262
匀	-12.2264
櫃	-12.2264
晞	-12.2265
㽔	-12.2268
今世猶帶	-12.227
麵	-12.2271
晒	-12.2273
-7	-12.2291
羅天二十	-12.2309
法華經	-12.2337
怡怡	-12.2355
凖繩	-12.2619
唵吽	-12.2726
下元解厄天尊	-12.2925
上元賜福天尊	-12.2933
太陰皇君天宫聖月	-12.2941
須至疏者右疏具申	-12.2951
須至牒者右牒上	-12.296
以攝眾生妙如常現	-12.2961
以喪禮處之	-12.2965
不悠想法	-12.2966
不亂轉法	-12.2967
深根固蒂	-12.2975
不追懷法	-12.2976
娼妓	-12.2978
珏	-12.298
衅	-12.2982
方蠻雷	-12.2982
恭望眞慈	-12.2985
螫	-12.2987
悰	-12.2988
𢎞	-12.2988
除已具奏	-12.2989
無猶豫法	-12.299
俞玉吾曰	-12.2991
暦	-12.2992
嵯峨	-12.2992
開方便之門	-12.2992
蔀	-12.2993
剽	-12.2993
洗垢穢法	-12.2993
華陽國志	-12.2994
㨿	-12.2994
無昬惑法	-12.2994
脣	-12.2994
放翫習法	-12.2994
瀚	-12.2995
疋	-12.2995
筐	-12.2995
含德之厚	-12.2995
悦	-12.2995
肢	-12.2995
巇	-12.2996
荊	-12.2996
箸	-12.2996
婪	-12.2997
哨	-12.2997
匏	-12.2997
愬	-12.2998
混而爲一	-12.2998
純一不雜	-12.2998
杓	-12.2998
秪	-12.2999
姐	-12.2999
還精補腦	-12.2999
眞人之息以踵	-12.2999
天人合發	-12.3
冏	-12.3
埏	-12.3
九天應元	-12.3
隼	-12.3
儉愛欲法	-12.3
褸	-12.3001
叫	-12.3001
絕聲色法	-12.3001
蕩蕩難名	-12.3001
忍不可忍法	-12.3001
象帝之先	-12.3001
觚	-12.3001
關告徑達九天	-12.3001
寶符右符告下	-12.3001
丨	-12.3002
籃	-12.3002
茁	-12.3002
寘	-12.3002
棒喝	-12.3002
臣松之以爲	-12.3003
潺	-12.3003
篠	-12.3003
須至具牒移	-12.3003
合屬眞司咸令照應	-12.3003
鯢	-12.3003
不亦難乎	-12.3003
不淫想法	-12.3003
邯鄲	-12.3003
相爲表裏	-12.3003
麤	-12.3003
髭	-12.3004
仙佛合宗語錄	-12.3004
作禮而退	-12.3004
被褐懷玉	-12.3004
酋	-12.3004
欝	-12.3004
屠羊說	-12.3004
白玉京中	-12.3005
擒孟獲	-12.3005
阿彌陀佛	-12.3005
平好醜法	-12.3005
膂	-12.3005
物不可以終	-12.3005
羔	-12.3005
不疑空法	-12.3005
咤	-12.3005
須至具疏申聞者右疏具申伏乞	-12.3005
扎	-12.3005
開經偈	-12.3005
軋	-12.3006
此何故也至尊曰劫也曰何劫至尊曰此	-12.3006
烱烱	-12.3006
輻輳	-12.3006
礎	-12.3006
黠	-12.3006
龔	-12.3006
僮	-12.3006
爇眞香	-12.3006
善防言法	-12.3006
鼾	-12.3007
2-9】	-12.3007
崗	-12.3007
翎	-12.3007
斁	-12.3007
色聲香味	-12.3007
賺	-12.3007
▁沂陽子曰	-12.3007
三百六十五度	-12.3007
峩峩	-12.3007
𥩟	-12.3007
站	-12.3007
黼黻	-12.3008
塌	-12.3008
旄	-12.3008
溶溶	-12.3008
鍊炁化神	-12.3008
起死回生	-12.3008
咒完吸頂雲	-12.3008
嚴固守之令我	-12.3008
大無不包	-12.3008
扑	-12.3008
一出一入	-12.3008
蹴	-12.3008
煉精化氣	-12.3009
坯	-12.3009
鑛	-12.3009
戈矛	-12.3009
欽承玉帝慈悲簡設	-12.3009
緱	-12.3009
毫髮差殊	-12.3009
么	-12.3009
煜	-12.3009
習悉意法	-12.301
饜	-12.301
詘	-12.301
嗚	-12.301
坎離二用	-12.301
金木交併	-12.301
此一圓相	-12.301
黽勉	-12.3011
漣	-12.3011
揲	-12.3011
麋鹿	-12.3011
不邪還法	-12.3011
閡	-12.3011
尊帝二星	-12.3011
無等無倫	-12.3012
不疾不徐	-12.3012
羯	-12.3012
崒	-12.3012
萬福乃弘帝福護羣身如護巳身處處䝉	-12.3012
酈	-12.3012
絕心想法	-12.3012
三教同源	-12.3012
胷	-12.3012
木牛流馬	-12.3012
殤	-12.3013
炷眞香	-12.3013
褚	-12.3013
刄	-12.3013
弢	-12.3013
太極本無極	-12.3013
杜光庭	-12.3013
常住無法	-12.3013
凡兹下民	-12.3013
禄	-12.3013
自下而上	-12.3013
精神魂魄意	-12.3013
愼終如始	-12.3013
嫖	-12.3014
飴	-12.3014
兀兀	-12.3014
合屬去處咸令照應	-12.3014
馬丹陽眞人	-12.3014
将	-12.3014
鷙	-12.3015
眾信人等	-12.3015
建興元年	-12.3015
彦	-12.3015
聚而不散	-12.3015
􂆤	-12.3015
义	-12.3016
僨	-12.3016
岌	-12.3016
濮	-12.3016
天長地久	-12.3016
炮	-12.3016
宕	-12.3016
眤	-12.3016
𡿧	-12.3016
無何有之鄉	-12.3017
從微至著	-12.3017
馥馥	-12.3017
堊	-12.3017
剜	-12.3017
邐	-12.3018
曝	-12.3018
薜	-12.3018
同出而異名	-12.3018
徜徉	-12.3019
縞	-12.3019
猗	-12.3019
旙	-12.3019
毦	-12.3019
繙	-12.3019
陁	-12.302
沕	-12.302
軻	-12.302
||	-12.302
扈	-12.3021
疥	-12.3021
黃中通理	-12.3021
巍峩	-12.3022
鉗	-12.3023
籤	-12.3023
纒綿無已之情	-12.3023
褁	-12.3024
丟	-12.3024
生人口誦志心朝禮北斗	-12.3024
三相類	-12.3025
諂	-12.3025
咳	-12.3025
祜	-12.3025
除惡想法	-12.3025
獎	-12.3026
僑	-12.3026
紫虛魏祖元君疏曰此章分二段解	-12.3026
瓠	-12.3026
絞	-12.3026
緻	-12.3026
周流六虛	-12.3027
鴞	-12.3028
幙	-12.3029
蟇	-12.303
位太保	-12.3031
呴	-12.3031
爲學日益	-12.3032
屎	-12.3032
淒	-12.3033
膩	-12.3033
嚩	-12.3034
疽	-12.3035
沠	-12.3036
離口過法	-12.3036
苕	-12.3037
憒	-12.3037
火天尊大悲救	-12.3038
道一而已矣	-12.3042
中元赦罪天尊	-12.3047
玉符右符	-12.3063
天尊大悲統屬	-12.3127
年月法職師號	-12.3171
妙難思	-12.3183
喉神虎賁氣神引津心神丹元	-12.3374
氏敬書閬中朱道生晚成子敬	-12.3633
啻	-12.3745
手三界總管	-12.3763
玉虛呂慈尊妙證	-12.3784
都頭領	-12.3785
玉虛呂慈尊常存	-12.3799
九眞妙戒	-12.3815
孜	-12.3816
心香妙語	-12.3817
元帥日遊守	-12.3818
玉虛呂慈尊佑彼	-12.3818
克己復禮	-12.3818
雷聲普化天尊	-12.3819
跬	-12.3819
丏	-12.3823
氤氳	-12.3824
浥	-12.3825
遴	-12.3825
瀛	-12.3825
㵼	-12.3826
軒然臺	-12.3826
漳	-12.3827
莅	-12.3827
勑	-12.3827
口是心非	-12.3828
琥	-12.3828
莾	-12.3828
沁園春	-12.3829
邕	-12.3829
嬪	-12.383
毎	-12.383
從有入無	-12.383
摺	-12.3831
動極而靜	-12.3831
恭望天慈允	-12.3831
三界伏魔靈佑協天大帝	-12.3831
壼	-12.3831
宮正刻	-12.3832
糶	-12.3832
唫	-12.3832
聖曰九陽帝君天宫	-12.3832
大羅班首	-12.3832
儂	-12.3832
神威遠鎭天尊	-12.3832
殛	-12.3833
叩齒三通	-12.3833
地水火風	-12.3833
五藴皆空	-12.3833
神依形生	-12.3833
借假修眞	-12.3834
五嶽四瀆	-12.3834
𢷬	-12.3834
調理陰陽	-12.3835
囓	-12.3835
紱	-12.3835
磋	-12.3835
嫂	-12.3836
澟	-12.3836
各正性命	-12.3836
超刧運	-12.3836
通微顯化	-12.3836
猖	-12.3836
爆	-12.3837
西江月	-12.3837
斬妖縛邪	-12.3837
狀十四分	-12.3837
方太上靈寶天尊	-12.3837
䕫	-12.3837
與天地合其德	-12.3837
莠	-12.3838
無忌憚	-12.3838
漉	-12.3838
媵	-12.3838
沓	-12.3838
呢	-12.3839
原始要終	-12.3839
廳	-12.3839
兖	-12.3839
罟	-12.3839
長而不宰	-12.3839
讟	-12.3839
駛	-12.384
鐔	-12.384
天尊大悲神霄總	-12.384
溪得道龍宫官屬	-12.384
㴱	-12.384
篷	-12.384
天魂地魄	-12.384
湛然常寂	-12.384
甍	-12.384
㸃	-12.384
駝	-12.384
仭	-12.384
姨	-12.384
入水不溺入火不焚	-12.384
眞安土地神咒元始安鎭普告萬神嶽	-12.384
天花亂墜	-12.3841
郁郁	-12.3841
頁	-12.3841
百姓日用而不知	-12.3841
黏	-12.3842
匙	-12.3842
酒色財氣	-12.3842
悸	-12.3842
淨身神咒靈寶天尊安慰身形法子	-12.3842
𪖙	-12.3842
橡	-12.3842
覡	-12.3843
涯涘	-12.3843
姊妹	-12.3843
刎	-12.3843
碓	-12.3843
漢晉春秋曰	-12.3843
恂	-12.3843
晦朔弦望	-12.3843
可不愼乎	-12.3844
緼	-12.3844
蓴	-12.3844
罇	-12.3844
籖	-12.3844
秧	-12.3844
擠	-12.3845
瀦	-12.3845
聒	-12.3845
淬	-12.3845
刊	-12.3845
弇	-12.3846
腿	-12.3846
爲抱患	-12.3846
玉虛呂慈尊化	-12.3846
蹐	-12.3846
拔逮根法	-12.3846
自午至亥	-12.3846
櫻	-12.3846
劾	-12.3846
襖	-12.3846
𢹂	-12.3846
以神馭炁	-12.3846
朝屯暮䝉	-12.3847
崙	-12.3847
蟒	-12.3847
小人由是知	-12.3847
諫議大夫	-12.3847
哮	-12.3847
翬	-12.3847
裊	-12.3847
橐籥	-12.3847
妙合而凝	-12.3847
癩	-12.3847
媧	-12.3848
穽	-12.3848
欄杆	-12.3848
竚	-12.3848
荻	-12.3848
闤闠	-12.3849
星君東斗	-12.3849
近取諸身	-12.3849
趎	-12.3849
傴	-12.3849
不旋踵	-12.3849
穫	-12.3849
爼	-12.3849
榔	-12.3849
各具一太極	-12.385
夤	-12.385
劂	-12.385
眞人大慈大悲大	-12.385
榆莢	-12.385
如龍養珠	-12.385
:	-12.385
静	-12.385
襁褓	-12.385
孤魂來受甘露味	-12.385
詁	-12.385
胝	-12.385
溫	-12.385
視聽言動	-12.3851
􂆣	-12.3851
漪	-12.3851
趕	-12.3851
狩	-12.3851
不敢爲天下先	-12.3852
彌牟鎭	-12.3852
柘	-12.3852
師指授	-12.3852
𤱶	-12.3852
心廣體胖	-12.3853
僵	-12.3853
鮒	-12.3853
杳杳㝠㝠	-12.3853
乾上坤下	-12.3853
獮	-12.3853
袈	-12.3853
禴	-12.3854
朦	-12.3854
自始至終	-12.3854
惓惓	-12.3854
吊	-12.3854
也以卦象之則	-12.3854
玉皇心印妙經	-12.3854
稗	-12.3855
也以時明之則	-12.3855
李淸菴	-12.3855
中元七炁赦罪	-12.3855
倬	-12.3856
是也以節比之則	-12.3856
月也以律言之則	-12.3856
禬	-12.3856
之卦也以年喻之則斗柄指	-12.3856
也以候應之則	-12.3856
或有能聞是此香者	-12.3857
鋋	-12.3857
錬	-12.3857
翱翔	-12.3857
萬德周身	-12.3857
磵	-12.3858
俚	-12.3858
伉	-12.3858
闐	-12.3858
齧	-12.3859
跑	-12.3859
葛玄曰	-12.3859
球	-12.3859
痰	-12.3859
喩	-12.3859
黥	-12.3859
天不愛道	-12.386
驩	-12.3862
頥	-12.3864
檐	-12.3866
嚧	-12.3875
承誥奉行東宫慈父太乙尋聲救苦天尊	-12.4647
垠	-12.4699
領來詞	-12.4703
北上金葢	-12.4716
曹官案下	-12.4719
已上俱在	-12.4719
咥	-12.4721
簋	-12.4723
櫟	-12.4723
券	-12.4725
莢	-12.4726
安樂窩中	-12.4727
攔	-12.4728
淤	-12.4729
抝	-12.4729
沐鈞陶	-12.4729
騖	-12.4729
金丹花兒快樂念念上一聲佛南無	-12.473
此卦艮爲體而	-12.4731
骷髏	-12.4731
卞	-12.4732
讀得尊經	-12.4732
刷	-12.4732
金丹花兒勾	-12.4732
桔	-12.4733
謎	-12.4734
夾脊雙關	-12.4734
普鍊帝君注曰	-12.4734
積德累功	-12.4735
又一世生	-12.4735
壟	-12.4736
等叨生	-12.4736
牋	-12.4737
皁	-12.4737
好生度命天尊	-12.4737
掊	-12.4738
少私寡欲	-12.4738
耳目鼻口	-12.4739
㫋	-12.4739
縶	-12.4739
歷	-12.4739
擯	-12.474
猾	-12.474
喊	-12.474
霐	-12.474
鞠躬盡瘁	-12.4741
千經萬典	-12.4741
遨	-12.4741
瀬	-12.4742
亹亹	-12.4742
觀音世尊曰	-12.4742
元會運世	-12.4742
璀璨	-12.4743
缸	-12.4743
滲	-12.4743
殂	-12.4744
濂	-12.4744
如影隨形	-12.4744
1-10】	-12.4745
躑躅	-12.4745
愀	-12.4745
鶻	-12.4745
齕	-12.4745
豈虛言哉	-12.4745
㴠	-12.4745
赤書玉篇眞文	-12.4745
殺生害命	-12.4745
皞	-12.4746
◎	-12.4746
螣	-12.4746
凝神入炁穴	-12.4746
茵	-12.4746
茀	-12.4746
湄	-12.4747
爰偕道眾	-12.4747
潼	-12.4747
天下莫能與之爭	-12.4747
丿	-12.4748
正法眼藏	-12.4748
七七四十九遍	-12.4748
咒三遍畢叩齒咽津如前玄契曰修士久	-12.4748
饅	-12.4748
砒	-12.4748
汐	-12.4748
一壑居士曰	-12.4748
籛鏗	-12.4748
古先聖賢	-12.4748
罏	-12.4749
櫺	-12.4749
御政養性伏食	-12.4749
蟊	-12.4749
彎	-12.4749
惟精惟一	-12.4749
咒完吸頂雲三咽結一神	-12.475
苦皈命慈悲救苦尊願救	-12.475
醍醐灌頂	-12.475
薺	-12.475
東三南二	-12.475
顛	-12.475
汰	-12.4751
纛	-12.4751
筆架山	-12.4751
洄	-12.4751
瘍	-12.4751
搦	-12.4751
蒐	-12.4751
沫	-12.4751
金剛不壞之身	-12.4751
噏	-12.4751
鸛	-12.4752
民之難治	-12.4752
胭	-12.4752
綆	-12.4752
聖日聖月	-12.4752
大慈大悲救苦眞人大慈大悲	-12.4752
摠	-12.4752
庶民小子	-12.4752
保合太和	-12.4752
方大仙大聖救苦難	-12.4752
苓	-12.4752
存無守有	-12.4753
袁了凡	-12.4753
蓁	-12.4753
楠木園	-12.4753
戱	-12.4753
寵辱若驚	-12.4754
鎚	-12.4754
顥	-12.4754
灕	-12.4754
颷	-12.4754
吞入腹	-12.4754
􂈜	-12.4754
姫	-12.4754
璜	-12.4755
忠孝節義	-12.4755
佇	-12.4755
厰	-12.4755
袒	-12.4755
降龍伏虎	-12.4755
瀹	-12.4755
東宫慈父太乙尋聲救苦天尊主盟超度	-12.4755
裊裊	-12.4755
㕔	-12.4756
鰌	-12.4756
􂈝	-12.4756
璈	-12.4756
腭	-12.4756
淖	-12.4756
嵾	-12.4756
靣	-12.4756
箋釋玄天上帝曰	-12.4757
蠆	-12.4757
疢	-12.4757
蕚	-12.4757
婦人懷孕	-12.4757
縉紳	-12.4757
靚	-12.4757
繒	-12.4757
蘸	-12.4757
愎	-12.4758
槽	-12.4758
賙	-12.4758
天地未判之先	-12.4758
3-	-12.4759
舫	-12.4759
思神鍊液	-12.4759
犂	-12.4759
一闔一闢	-12.4759
貫詞意中謝	-12.476
者一言爲五過	-12.476
微乎微乎	-12.476
慼	-12.476
永無出期	-12.476
澁	-12.476
時化身號	-12.476
澎湃	-12.476
右乞爲大漢天下四川省	-12.476
道地分居住奉道投誠善信	-12.476
塚	-12.476
萋	-12.4761
迍邅	-12.4761
汩	-12.4761
咱	-12.4761
秕	-12.4761
踊	-12.4761
沆	-12.4762
刈	-12.4762
萬正紫極眞人垂慈接教伏邪警世帝君	-12.4762
譯	-12.4762
挫其銳	-12.4762
莎	-12.4762
愚夫愚婦	-12.4762
廪	-12.4762
騭	-12.4763
棣	-12.4763
泌	-12.4763
張道陵	-12.4763
柳下季	-12.4763
隄	-12.4764
衿	-12.4764
懊	-12.4764
𤢆	-12.4765
癰疽	-12.4766
地四生金	-12.4766
嚴君平	-12.4766
在地成形	-12.4766
瘠	-12.4767
捶	-12.4767
躅	-12.4768
帔	-12.4769
蛤	-12.4769
蛛	-12.477
膓	-12.4771
銕	-12.4771
睥睨	-12.4772
猫	-12.4775
終而復始	-12.4775
方輿勝覽	-12.4775
眯	-12.4775
賛	-12.4777
抺	-12.4778
遠身行法	-12.478
盱	-12.478
凡得淨明法者	-12.4782
眞人仙醫普救	-12.4785
三界一切眞	-12.4786
執左契	-12.4786
者此字當惜下筆	-12.479
心皈命禮太上彌羅無上天妙有玄眞境	-12.4865
心朝禮九天應元雷聲普化天尊	-12.4955
治世福顯利幽弭災集慶法懺	-12.5057
出玄入牝	-12.543
曹檢校玉冊	-12.5481
靈左社右稷不得妄驚回向正道内外澄	-12.5501
法職師號同前	-12.554
迍	-12.5641
鄕貫詞意	-12.5651
元帥夜遊罰惡	-12.5679
夀其得夀以	-12.5688
無之以爲用	-12.5703
喑	-12.5717
惡悔心誓永戒玉皇大天尊赦消一切罪	-12.5718
蘅	-12.5719
浮邱眞君王郭二仙	-12.572
特陳淸醮伏願	-12.5724
氐	-12.5725
孫不二元君	-12.5725
西華帝君注曰	-12.5725
玄中大法師	-12.5726
廣種福田	-12.5726
億萬斯年	-12.5726
簮	-12.5727
争	-12.5728
瑤華帝君注曰	-12.5729
霶	-12.5729
𣗥	-12.5729
孔老牟尼	-12.573
曬	-12.573
仍乞差降	-12.5732
眞仙聖眾一切威靈符命所臨如誥奉行	-12.5732
右玉皇誥命以錫	-12.5733
玉華帝君注曰	-12.5734
一坎一離	-12.5734
臍下一寸三分	-12.5734
會三歸一	-12.5734
郫	-12.5735
獬	-12.5735
倨	-12.5736
天仙正理直論	-12.5736
瓈	-12.5736
蝨	-12.5736
洲仙府得道一切上眞	-12.5736
􂅶	-12.5736
誠惶誠恐稽首頓首俯伏百拜上	-12.5737
本命生辰	-12.5737
捺	-12.5737
皦	-12.5738
禿	-12.5738
捫心多愧	-12.5738
所受神咒誥命	-12.5738
妙法元君注曰	-12.5739
珞	-12.5739
穹蒼眞老	-12.5739
窬	-12.5739
肴	-12.5739
醅	-12.574
光垣帝君注曰	-12.574
何祖元君曰	-12.574
雲行雨施	-12.574
豊	-12.574
見龍在田	-12.574
坼	-12.574
令下降覆護受持是此經者我勅	-12.574
唎吽吽吽東極宫中破開酆都第	-12.574
襤	-12.5741
粵	-12.5741
肄	-12.5741
柰	-12.5742
靈寶中盟	-12.5742
涖	-12.5742
煨	-12.5742
祺	-12.5742
筭	-12.5742
元帥罡班第	-12.5742
筴	-12.5742
箆	-12.5742
嵋	-12.5742
含生均叨	-12.5742
舸	-12.5743
福地仙官聖眾	-12.5743
竢	-12.5743
啾啾	-12.5743
李虛庵	-12.5744
勦	-12.5744
代大匠斵	-12.5744
侃	-12.5744
煒	-12.5744
不凋不殘	-12.5744
字皆太上無上大光明圓滿大神	-12.5744
櫂	-12.5744
汴	-12.5744
盲修瞎煉	-12.5744
滉	-12.5744
蚿	-12.5745
搶	-12.5745
心心相印	-12.5745
此戒要弟子發	-12.5745
畨	-12.5745
顫	-12.5746
非色非空	-12.5746
二百一十六	-12.5746
蓮船經	-12.5746
聴	-12.5746
溼	-12.5746
痢	-12.5746
精義入神	-12.5746
鬥	-12.5746
圮	-12.5746
湊	-12.5746
日積月累	-12.5747
印盟修奉	-12.5747
扛	-12.5747
見患禳星	-12.5747
官司執職香火笤籖一切真靈仙官聖衆	-12.5747
殱	-12.5747
伏羲文王周公孔子	-12.5747
絙	-12.5747
㳂	-12.5747
四大部洲	-12.5747
蔑以加矣	-12.5747
磅礴	-12.5748
靉	-12.5748
神鄉三宫九府一百二十曹主管罪錄	-12.5748
記袁宏道	-12.5748
儷	-12.5748
日麗億天	-12.5748
愚迷成性	-12.5748
眞人眞人諱	-12.5748
終其天年	-12.5748
專心致志	-12.5748
一生二二生三三生萬物	-12.5749
濳龍勿用	-12.5749
是失氣之門	-12.5749
躚	-12.5749
坎戊月精	-12.5749
州社令神	-12.5749
舁	-12.575
之雷書曰一乃	-12.575
翥	-12.575
亢龍有悔	-12.575
五體投地	-12.575
筯	-12.575
范文正公	-12.575
縛魅保命護身智慧明淨心神安甯三	-12.5751
扭	-12.5751
湔	-12.5751
皈神皈身皈命	-12.5751
箎	-12.5751
轉告冥京	-12.5751
囘向正道内外澄淸各安方位備守	-12.5751
汛	-12.5752
結草之誠	-12.5752
眞符右奉	-12.5752
唄	-12.5752
敲爻歌	-12.5752
鏁	-12.5752
鬱單無量	-12.5752
領詞䖍切勉爲宣行	-12.5752
擷	-12.5752
道經師三寶	-12.5752
留形住世	-12.5752
解釋重泉幽暗徧告	-12.5752
伫	-12.5752
證菩薩乘	-12.5753
雎	-12.5753
櫝	-12.5753
咸令知悉	-12.5753
扯	-12.5753
化身爲三教之師掌法判五雷之令	-12.5753
非白非靑	-12.5753
賾	-12.5754
謹炷眞香䖍誠上啟	-12.5754
眞人大慈大悲大惠眞人大慈大悲	-12.5754
呬	-12.5754
玉樞右宰宏教眞君玉宸少宰宏濟眞君	-12.5754
覷	-12.5754
柟	-12.5754
志心稱念	-12.5754
遠取諸物	-12.5755
挕	-12.5755
㳫	-12.5755
三日出庚	-12.5755
獨往獨來	-12.5755
眞人大慈大悲拔罪眞人大慈大悲	-12.5755
哽	-12.5755
或稽延一如誥命風火驛傳天運年月日	-12.5755
偽	-12.5756
鵷	-12.5756
霹	-12.5756
伏乞仁慈洞囘昭格	-12.5756
綾	-12.5756
櫓	-12.5756
思過半矣	-12.5756
娃	-12.5756
浮邱仙祖曰	-12.5756
善男信女	-12.5757
首尾同吳君	-12.5757
巋	-12.5757
鋩	-12.5757
星君乞爲奉道	-12.5757
庀	-12.5757
尙論古人	-12.5757
案執法典吏拔度當齋亡過	-12.5757
𡨚仇和釋罪報停閑永度三途五苦之源	-12.5757
嶔	-12.5757
一粒粟中藏世界	-12.5758
崚	-12.5758
大真君同參勘案六	-12.5758
李息齋曰	-12.5758
元精元氣元神	-12.5758
夙興夜寐	-12.5758
雋	-12.5758
大真君同知勘案六	-12.5758
俎	-12.5758
笳	-12.5758
雷也五乃	-12.5759
渾渾沌沌	-12.5759
眞形符命右符宣告	-12.5759
暘	-12.5759
雷也四乃	-12.5759
締	-12.5759
叡	-12.5759
等解禳災厄增益延齡謹奏天運年月日	-12.5759
蕖	-12.5759
忖	-12.576
擦	-12.576
雷也三乃	-12.576
雷也二乃	-12.576
􂆢	-12.576
斗大魁	-12.5761
混洞太無	-12.5761
弟子皈命願得長生右謹上奏天	-12.5761
籓	-12.5761
唘	-12.5762
治院曹靖	-12.5762
瀣	-12.5762
砍	-12.5762
囷	-12.5762
囹圄	-12.5762
鬱羅蕭臺	-12.5763
三道由一	-12.5763
流浪生死	-12.5763
常淸常靜	-12.5763
眞人其詞畧曰以爾	-12.5763
悋	-12.5763
腔子裏	-12.5763
心肝脾肺腎	-12.5763
母隱子胎	-12.5764
鼐	-12.5764
趂	-12.5764
郿	-12.5764
嗤	-12.5764
絶聖棄知	-12.5764
跽	-12.5764
灸	-12.5765
持否眾白盡形夀命常持此心依教奉行	-12.5765
苐	-12.5765
䀮	-12.5765
一水一火	-12.5766
須要自今以始迄無量劫世界有盡我此	-12.5766
喇	-12.5767
是教爾等發	-12.5767
眞知靈知	-12.5767
上帝云受戒者	-12.5767
髙	-12.5768
陰盡陽純	-12.5769
种	-12.5769
桎	-12.5771
耋	-12.5771
蓐	-12.5772
怱	-12.5772
蛩	-12.5774
厝	-12.5774
金爲水母	-12.5774
譊	-12.5777
又一掃光照見	-12.5777
蔥	-12.5778
从	-12.5778
旡攸利	-12.5778
重刻道藏輯要	-12.5778
奐	-12.578
褫	-12.5783
鎰	-12.5784
不責於人	-12.5784
弑	-12.5789
不靜一不能	-12.5799
羅天六十	-12.5814
星君第四十	-12.5914
江水帝龍王	-12.6783
天尊掌管土政	-12.6784
還内景精氣神	-12.6799
大真君左副都監	-12.6804
元帥夜遊賞善	-12.6814
得見是光而	-12.6822
琶	-12.6828
伏請照詳謹牒	-12.6828
霈	-12.6828
同臨靑華會拜請	-12.6832
泆	-12.6832
天尊大悲統部南府	-12.6833
窖	-12.6834
兵者不祥之器	-12.6835
柔弱勝剛强	-12.6836
圜一子曰	-12.6836
箔	-12.6838
九府百二十曹	-12.6838
暍	-12.6838
翱	-12.6838
仔	-12.6839
珥	-12.6839
嶓	-12.684
鋏	-12.6841
合此宗也	-12.6841
式憑睿號皈命高眞切慮無始以來或犯	-12.6841
敢忘伊始稽首皈依五體投地至心朝禮	-12.6842
山記王思任	-12.6842
曖	-12.6842
寶分化天尊	-12.6842
遄	-12.6842
鱠	-12.6843
也象取乎	-12.6843
珂	-12.6844
物壯則老	-12.6845
日直王大靈官内外廵䕶	-12.6845
𣑱	-12.6845
無幽不燭	-12.6846
朝朝暮暮	-12.6846
阼	-12.6846
金科玉律	-12.6846
請詳前事	-12.6846
􂋔	-12.6847
碌	-12.6847
五功至五十功	-12.6847
火記六百篇	-12.6847
悴	-12.6847
人能常淸靜天地悉皆歸	-12.6848
陳虛白曰	-12.6848
父精母血	-12.6848
渾渾噩噩	-12.6849
須至移文者	-12.6849
港	-12.6849
日往月來	-12.6849
宙	-12.6849
讃	-12.685
任督二脈	-12.685
其政悶悶	-12.685
玉清贊化九天演政分化	-12.685
鍔	-12.685
鏹	-12.685
孳	-12.685
很	-12.685
薑	-12.685
而成是欲知生	-12.685
懂	-12.6851
箋釋九天應元雷祖天尊曰	-12.6851
返觀内照	-12.6851
得道尊靈海府神	-12.6851
酌水獻花	-12.6851
蹢	-12.6851
迕	-12.6851
視之不見聽之不聞	-12.6851
僣	-12.6852
與生俱來	-12.6852
天大利順聖	-12.6852
崦	-12.6852
負陰而抱陽	-12.6852
往古來今	-12.6852
疹	-12.6853
白玉龜台	-12.6853
瞪	-12.6853
婿	-12.6853
虀	-12.6854
靜一工夫貴細研	-12.6854
狃	-12.6854
潞	-12.6854
咒空洞自然之書一名	-12.6854
大巧若拙	-12.6854
當齋亡過	-12.6854
磷	-12.6855
瓞	-12.6855
以道佐人主	-12.6855
爰居爰處	-12.6855
轉禍爲福	-12.6855
哼	-12.6856
玉書曰敬稽	-12.6856
徹上徹下	-12.6856
𤊔	-12.6856
霪	-12.6856
三天扶教正一靜應顯佑眞君張證盟	-12.6856
太乙尋聲救苦天尊	-12.6856
今有元始天尊在	-12.6857
楨	-12.6857
囘向伏念	-12.6857
神功妙濟	-12.6857
彜	-12.6857
惇	-12.6857
雲龍風虎	-12.6857
金丹四百字	-12.6857
埜	-12.6857
恭望天慈俯降瑤壇監臨鍊度亡過	-12.6857
華葢掌道孚佑上帝	-12.6857
與太虛同體	-12.6858
敬撰起讚	-12.6858
應接不暇	-12.6858
糴	-12.6858
癉	-12.6858
嫠	-12.6858
重積愆敢不懴陳以乞原赦爰偕道眾敬	-12.6858
度亡魂玉簡右符告下	-12.6858
鬂	-12.6858
隗	-12.6859
東華木父	-12.6859
麄	-12.6859
瀆眞官土地祗靈左社右稷不得妄驚	-12.6859
􂃧	-12.6859
朂	-12.6859
石火電光	-12.6859
重訂全書	-12.6859
煇	-12.6859
嘟	-12.6859
謂之戒行圓成戒行圓成者得	-12.6859
唔	-12.6859
厄大聖北斗七元君能解	-12.6859
地獄冥官主者息破剖判	-12.6859
其孰能與於此	-12.686
當境城隍顯佑尊神	-12.686
紫虛魏祖元君疏曰此章分三段解	-12.686
奏聞者右	-12.686
沗	-12.686
䜿	-12.686
府主死太陰水官	-12.686
府主生太陽火官	-12.686
􂂈	-12.6861
無欲以觀其妙	-12.6861
東嶽天齊仁元聖	-12.6861
槍	-12.6861
唻	-12.6861
遹	-12.6861
騰掃人間之妖怪四生六道有感	-12.6861
捴	-12.6861
玉皇大天尊玄穹高上帝䖍誦玉誥一遍	-12.6861
震艮巽兌	-12.6862
飛潛動植	-12.6862
淇	-12.6862
宏教弟子柳守元熏沐題詞	-12.6862
紀𡻕年月日時甲子㑹逢是	-12.6862
盖	-12.6863
家有九皇經	-12.6863
東厨司命竈君尊神	-12.6863
豳	-12.6863
𠐒	-12.6863
見素抱樸	-12.6863
由勉而安	-12.6863
夢覺忘世上之功名寶劍光	-12.6863
痁	-12.6863
鬪	-12.6864
眞符謹當告下	-12.6864
𣺌𣺌紫金闕太微玉淸宫無極	-12.6864
信手拈	-12.6864
魂魄五臟玄冥青龍白虎隊仗紛紜朱雀	-12.6864
嗈	-12.6864
陽上簡右符告下	-12.6864
𡄦	-12.6864
七縱七擒	-12.6864
制魔保舉度品南宫死魂受鍊仙化成人	-12.6864
大生廣生	-12.6864
澦	-12.6865
蘗	-12.6865
侗	-12.6865
玉淸内相金闕選仙	-12.6865
爰偕法眾敬	-12.6865
鞫	-12.6866
沈蛟門曰	-12.6866
鍊之又鍊	-12.6866
厄大聖北斗九皇君能解	-12.6866
湖湖伯得道尊神	-12.6866
鐻	-12.6866
宇宙在乎手萬化生乎身	-12.6866
醪	-12.6866
衞生之經	-12.6866
坌	-12.6866
六十甲子運轉星君	-12.6867
眞人大慈大悲度	-12.6867
猫捕鼠	-12.6867
須至牒者右移	-12.6867
壠	-12.6867
自適其適	-12.6867
乾南坤北	-12.6867
瀨	-12.6867
嵬	-12.6867
琤	-12.6867
拜請慈航道姥尊觀世音	-12.6868
人民樂業	-12.6868
匾	-12.6868
希聖希賢	-12.6868
坵	-12.6868
及附薦沉幽等魂承	-12.6868
𤓰	-12.6868
厶	-12.6869
無修無證	-12.6869
咐	-12.6869
胖	-12.6869
絡俾令亡	-12.6869
爲之保護若在	-12.687
幔	-12.687
譌	-12.687
贄	-12.687
鍊形育質度上南宫一如誥命風火驛傳	-12.687
大真君參訂勘案六	-12.687
魂神澄正朝謁天闕上帝有勅開	-12.687
千和萬合	-12.687
擄	-12.6871
眞將來託生人中獲	-12.6871
劉禹錫	-12.6871
垤	-12.6871
靜爲躁君	-12.6871
我好靜而民自正	-12.6872
鈕	-12.6872
賅	-12.6872
侑	-12.6872
彗	-12.6872
㘭	-12.6872
𡸅	-12.6872
梏	-12.6872
壇爐鼎竈	-12.6872
天地之大德曰生	-12.6873
皈命慈航救苦尊救此	-12.6873
梵監須延天	-12.6873
孱	-12.6873
歃	-12.6873
坎男離女	-12.6873
菡	-12.6874
扆	-12.6874
狹其所居	-12.6874
邏	-12.6874
痾	-12.6875
狶	-12.6875
胡致堂曰	-12.6875
鴒	-12.6875
􂆡	-12.6876
滸	-12.6876
朮	-12.6876
販	-12.6876
胤	-12.6877
洸	-12.6877
禆	-12.6877
鼈	-12.6877
上上禪善無量夀	-12.6878
鋼	-12.6878
皈依信禮至心朝禮	-12.6879
昧者難行	-12.6879
㘞地一聲	-12.688
囫囫圇圇	-12.688
勲	-12.688
心千戒萬戒無非圓滿這個	-12.688
作玄嗣之梯航大聖大慈大仁大孝開山	-12.6881
釋德淸曰此	-12.6881
吮	-12.6881
蜓	-12.6881
磔	-12.6882
洞經示讀	-12.6882
慇	-12.6883
晁	-12.6883
螽	-12.6883
淸分化太	-12.6883
醬	-12.6884
三寶萬靈法懺下元道士王守上閱	-12.6888
淸紫微中天北斗九皇七元救生濟死	-12.6889
娼	-12.6889
櫬	-12.6889
凡曰有生均	-12.6889
矣此諸玉女亦同此淸淨	-12.689
樂天知命	-12.6891
出生入死	-12.6891
􂋧	-12.6893
􂆨	-12.6899
眞人協佐都府天醫	-12.6904
痔	-12.6907
律之罪勅令第	-12.6912
愛人者一次爲	-12.6926
回向正道内外澄淸各安方位備守	-12.7037
大真君兗州	-12.7293
九天應元雷聲普化	-12.735
州正中鍳察大使	-12.7806
勿助勿忘	-12.7862
州東北鍳察大使	-12.801
元帥嶽府太保	-12.8027
土眞君爕理土政	-12.8037
作商遇風波	-12.8045
攴	-12.8057
五月渡瀘	-12.8065
怵惕惻隱	-12.807
恍兮惚兮	-12.8073
牒本司以今	-12.8074
咈	-12.8077
蓂	-12.8077
薦悼類	-12.8079
夫丁力士	-12.808
又天邊月月影	-12.8082
水調歌頭	-12.8083
杼	-12.8084
諠	-12.8085
執法眞士金體原編輯古零步雲房重修	-12.8085
􂊑	-12.8085
韈	-12.8086
越班而出	-12.8086
箑	-12.8087
唸	-12.8087
孃	-12.8087
恭望道慈允	-12.8088
又若有持是經人	-12.8088
善信人等是日叩干	-12.8089
佛南無花開葉兒落	-12.8089
橈	-12.8089
内觀其心心無其心外觀其形形無其形	-12.8089
凊	-12.809
嶙	-12.809
逓	-12.809
娣	-12.809
遠觀其物物無其物	-12.8092
寞	-12.8092
金來歸性初乃得稱還丹	-12.8093
鎬	-12.8093
桁	-12.8093
憬	-12.8094
鵶	-12.8094
謊	-12.8095
大音希聲	-12.8095
以兵强天下	-12.8097
簒	-12.8097
蕨	-12.8098
妁	-12.8098
凢	-12.8099
跳出陰陽之外	-12.8099
孤陰寡陽	-12.8099
歐	-12.8099
谺	-12.8099
左日右月	-12.8099
初禪念住	-12.81
頎	-12.81
鄢	-12.81
平日有爲惡而	-12.81
唎吽吽吽東極宫中破開酆都十	-12.81
廣德若不足	-12.8101
肋	-12.8101
璫	-12.8101
梱	-12.8101
柑	-12.8101
南嶽司天大化昭聖	-12.8102
邅	-12.8102
填	-12.8102
玦	-12.8102
良知良能	-12.8102
干冒宸威	-12.8102
幬	-12.8102
鉏	-12.8102
炁天君令統御	-12.8103
餧	-12.8103
兢兢業業	-12.8103
潢汙之薦	-12.8103
轉火候如桃	-12.8103
駑	-12.8103
厮	-12.8103
栻	-12.8103
茭	-12.8103
矇	-12.8103
請照詳事理	-12.8103
歹	-12.8103
柚	-12.8104
魈	-12.8104
坷	-12.8104
始勤終怠	-12.8104
且緩打我	-12.8105
勿就打人	-12.8105
漙	-12.8105
犖	-12.8105
郴	-12.8105
元帥地煞裨將	-12.8105
厄人禮洞玄懺能解	-12.8105
霞仙姬巫山	-12.8105
祧	-12.8106
靈寶天尊東極慈父太乙救苦天尊證盟	-12.8106
大器晚成	-12.8106
鍊度返生玉符右符告下	-12.8106
元始安鎭普告萬神嶽瀆眞官土地	-12.8107
膿	-12.8107
棃	-12.8107
靈魂出離長夜暏見光明	-12.8107
曺	-12.8107
偎	-12.8107
靈魂及祖先亡神職下元幽界孤	-12.8107
腊	-12.8107
槔	-12.8107
各安方位	-12.8107
五經合編	-12.8108
􂁣	-12.8108
掞	-12.8109
隧	-12.8109
龐	-12.8109
磁石吸鐵	-12.8109
亘古亘今	-12.8109
瓴	-12.8109
飜	-12.8109
饘	-12.8109
猱	-12.8109
君玉宸少宰	-12.8109
摛	-12.8109
功案天尊大悲神霄總	-12.811
徭	-12.811
靑龍白虎隊仗紛紜朱雀玄武侍	-12.811
駱	-12.811
不極頌揚疇知	-12.811
祼	-12.811
星君大聖北斗九皇第	-12.811
江司理得道尊神	-12.811
挿	-12.811
􂃒	-12.811
太陽流珠常欲去人	-12.8111
薊	-12.8111
扺	-12.8111
薤	-12.8111
入水不溺	-12.8111
鴝	-12.8111
嗃	-12.8111
芋	-12.8111
枰	-12.8111
貴大患若身	-12.8111
虱	-12.8112
鉦	-12.8112
穠	-12.8112
鋟	-12.8112
眎	-12.8112
猊	-12.8112
罍	-12.8112
展旗峰	-12.8112
蹰	-12.8112
經天緯地	-12.8112
聃	-12.8112
仙風道骨	-12.8113
萬物皆備於我	-12.8113
玄武侍衞我眞安土地神咒	-12.8113
皜	-12.8113
樂山縣人	-12.8113
㮣	-12.8113
嫣	-12.8113
瓔	-12.8113
笄	-12.8113
密雲不雨	-12.8113
旴	-12.8113
縕	-12.8114
烱	-12.8114
榦	-12.8114
蘇子由曰	-12.8114
怨天尤人	-12.8114
迯	-12.8114
魂精秘旨内諱玉佩	-12.8114
潙	-12.8114
利萬物而不爭	-12.8114
萼	-12.8114
葑	-12.8115
蜎	-12.8115
文尼至真皇人	-12.8115
雨順風調	-12.8115
矮	-12.8115
鵞	-12.8115
萬天至尊玉皇上帝	-12.8115
樾	-12.8116
秉誠跪拜	-12.8116
心死則神活	-12.8116
君子居其室出其言善則千里之外應之	-12.8116
恒河沙數	-12.8116
大聖大慈大悲大願昔未曽有	-12.8116
妙行眞人黃籙㑹中諸大眞人	-12.8116
鬯	-12.8116
縠	-12.8116
臠	-12.8116
蝝	-12.8116
岸畧陳本末用代敷宣淨潔齋壇恭同法	-12.8116
隰	-12.8116
雩	-12.8117
溲	-12.8117
顱	-12.8117
大悲尋聲赴感太乙救苦天尊	-12.8117
饞	-12.8117
崎	-12.8117
諟	-12.8118
吚	-12.8118
沍	-12.8118
無質生質	-12.8119
玉淸應化現金身大開甘露門	-12.8119
𣣱	-12.8119
賖	-12.8119
外其身而身存	-12.8119
崿	-12.8119
鍋	-12.8119
威德自在天尊	-12.8119
闉	-12.8119
捄	-12.812
能持此戒是曰	-12.812
芷	-12.812
帝室之冑	-12.812
窑	-12.812
喔	-12.8121
與天地合其德與日月合其明	-12.8121
舉進士不第	-12.8121
盭	-12.8121
佔	-12.8121
壎	-12.8122
戎馬生於郊	-12.8122
訣曰前聖金一斤	-12.8122
臭皮囊	-12.8122
解阨延生	-12.8122
艤	-12.8123
固蒂深根	-12.8123
漢賊不兩立王業不偏安	-12.8123
寶符右符上告	-12.8123
投誠善信右洎合人等消災度厄增福延	-12.8123
咫	-12.8123
紓	-12.8123
腓	-12.8124
縲	-12.8124
輓	-12.8124
鴿	-12.8124
蝡	-12.8124
瞭	-12.8124
悟元註本	-12.8124
癱	-12.8124
重爲輕根	-12.8124
舵	-12.8125
煑	-12.8125
嗄	-12.8125
闞	-12.8125
謇	-12.8126
粃	-12.8126
膈	-12.8126
深山窮谷	-12.8126
璉	-12.8126
𦤀	-12.8126
疾弗瘳	-12.8127
眞人潛深淵浮游守規中	-12.8127
不敢爲主而爲客	-12.8127
皐	-12.8127
天尊大悲統屬省院	-12.8127
莞	-12.8127
籩	-12.8127
贔	-12.8127
猝	-12.8128
玉樞右宰宏教眞君	-12.8128
戛	-12.8128
罣	-12.8128
三山笛史	-12.8129
臚	-12.8129
礦	-12.8129
降本流末	-12.8129
鰥寡孤獨	-12.8129
麋	-12.8129
邶	-12.8129
蹵	-12.813
䟦	-12.813
踣	-12.813
泚	-12.813
上藥三品神與氣精	-12.813
箠	-12.813
蚓	-12.8131
日就月將	-12.8131
教金闕萬福護身眞人流演萬眞	-12.8131
動而生陽靜而生陰	-12.8132
大洞帝一尊君	-12.8132
䌓	-12.8132
愈趨愈下	-12.8132
蝎	-12.8133
鱸	-12.8133
篩	-12.8133
玘	-12.8133
柬	-12.8133
洞曉陰陽深達造化	-12.8133
生之徒十有三	-12.8134
汔	-12.8135
邽	-12.8135
髳	-12.8136
道生一一生二二生三三	-12.8136
蛆	-12.8137
堙	-12.8137
嚶	-12.8138
來受甘露味	-12.8142
以百姓之心爲心	-12.8144
纆	-12.8144
之能事畢矣	-12.8145
昵	-12.8146
儵	-12.8151
善信人等是日叩干元造意者	-12.8153
殅	-12.8154
𦕟	-12.8158
撝	-12.8159
天尊大悲神霄化運天星失	-12.8159
懘	-12.8159
􂆪	-12.8161
條命北斗第	-12.8163
星君護好善	-12.8163
伏魔應感天尊	-12.817
祗靈左社右稷不得妄驚	-12.8313
申請特遷仙仗	-12.8331
舌神正倫通命養神羅千齒神却邪衞	-12.8734
諶	-12.9241
聖慈允今申請特	-12.9271
協佐土政	-12.9469
抃	-12.9473
持念是七元寶號	-12.9484
籜	-12.9493
枲	-12.9499
劌	-12.9504
蓏	-12.9505
篲	-12.9511
驍	-12.9512
脰	-12.9512
癯	-12.9512
杞	-12.9514
本虗也子以	-12.9514
籌筆驛	-12.9514
槌	-12.9515
仙何處仙在	-12.9515
日延仗羽人	-12.9517
輾	-12.9517
玃	-12.9517
隲	-12.9517
峋	-12.9518
係薦亡魂幽爽	-12.952
痒疴之苦	-12.952
四頭八尾	-12.952
中天星主紫微	-12.952
刲	-12.952
又四更裏	-12.9521
觜	-12.9522
故有道者不處	-12.9522
暨	-12.9522
修造後保安	-12.9522
命黃冠特陳淸醮伏願	-12.9523
掣電轟雷	-12.9523
襃	-12.9523
誶	-12.9523
億曾萬祖	-12.9524
燹	-12.9524
茯	-12.9525
天曹太皇萬福眞君	-12.9525
市南宜僚	-12.9525
孫叔敖	-12.9525
埵	-12.9525
霳	-12.9527
鬨	-12.9527
𣾀	-12.9527
當齋應薦亡	-12.9527
須至關發者	-12.9528
圻	-12.9528
讁	-12.9528
專氣致柔能如嬰兒	-12.9528
嗎	-12.9528
飣	-12.9528
南極勾陳天皇	-12.9529
冢	-12.9529
邠	-12.9529
道形神昇度謁帝天闕福智自在參侍龍	-12.9529
偁	-12.9529
嗌	-12.9529
累世上以應之	-12.9529
乾道變化各正性命	-12.953
酩	-12.953
魁𩲃𩵄䰢魓𩳐魒	-12.953
善男子善女人	-12.953
蜿	-12.9531
得金華轉而相因	-12.9531
縑	-12.9531
棕	-12.9531
韓詩外傳	-12.9531
澮	-12.9531
魋	-12.9531
沇	-12.9531
荅	-12.9532
踽	-12.9532
禰	-12.9532
於孝有虧我孝父母	-12.9532
幸災樂禍	-12.9533
有費另記	-12.9533
纈	-12.9534
溉	-12.9534
不笑不足以爲道	-12.9534
荗	-12.9534
東嶽齊天大生仁聖	-12.9534
嶄	-12.9534
嘏	-12.9535
地分生長人氏享年	-12.9535
脹	-12.9535
鏃	-12.9535
澣	-12.9535
礬	-12.9535
綍	-12.9535
鬱儀陽曦帝君月華天女太素結璘皇君	-12.9535
剝爛肢體	-12.9535
貉	-12.9536
牒本司得此除已依科修奉外	-12.9536
樂推而不厭	-12.9536
窶	-12.9536
承誥奉行東極慈父太乙救苦天尊證盟	-12.9537
壩	-12.9537
告九天乾羅怛那洞罡太	-12.9537
經皈依大道元亨利貞	-12.9537
吿九天乾羅怛那洞罡太玄斬妖	-12.9537
知者不言言者不知	-12.9537
咸賜如言	-12.9537
楸	-12.9537
麝	-12.9538
爲後天有形之精	-12.9538
萬物統體一太極	-12.9538
𧲣	-12.9538
搥	-12.9538
譖	-12.9538
殯	-12.9538
濙	-12.9539
詒	-12.9539
秘文三十二字書於	-12.9539
守城野戰	-12.9539
藁	-12.9539
町	-12.9539
衞我眞安土地神咒	-12.9539
漱	-12.954
癲	-12.954
柔弱者生之徒	-12.954
老君說百病曰	-12.954
讚靑玄帝主太一慈尊	-12.954
揩	-12.9541
坻	-12.9541
坏	-12.9541
癤	-12.9541
咿	-12.9541
瑗	-12.9541
檣	-12.9541
无礙无障	-12.9541
娩	-12.9541
楙	-12.9541
骨散寒瓊	-12.9542
鱔	-12.9542
窆	-12.9542
說法於萬二千天	-12.9542
徯	-12.9542
無任激切屏營之至謹	-12.9542
漭	-12.9542
獺	-12.9542
至心稽首禮謝無上虛皇正眞三寶伏念	-12.9542
矅	-12.9542
恡	-12.9543
畿	-12.9543
莪	-12.9543
一而二二而一	-12.9543
菅	-12.9543
估	-12.9543
蝤	-12.9543
盼仙斾臨軒令	-12.9543
汭	-12.9544
矜孤恤寡	-12.9544
紛紛紜紜	-12.9544
俑	-12.9544
腠	-12.9544
殮	-12.9544
申朝禮謹揚	-12.9544
飬	-12.9544
後其身而身先	-12.9544
紿	-12.9544
懃	-12.9544
浡	-12.9544
劉註先天眞靈	-12.9544
睂	-12.9544
嘹	-12.9544
嶲	-12.9545
輳	-12.9545
時受生行庚	-12.9545
蚋	-12.9545
糓	-12.9545
陳焦面之齋	-12.9545
何慮何思	-12.9545
嵎	-12.9545
閧	-12.9545
流戊就己	-12.9545
歪	-12.9545
伹	-12.9545
撈	-12.9545
蹌	-12.9545
火府扶桑丹陵大帝	-12.9545
浯邱天公	-12.9545
呾	-12.9545
鄉坊里域社令尊神雲空過往糾察尊神	-12.9546
广	-12.9546
靈化梵輔	-12.9546
刋姪瑛春城朱瓚素園仝校字男璜磻溪	-12.9546
霤	-12.9546
承誥奉行太乙救苦天尊證盟	-12.9546
鴣	-12.9546
穢消散道德成全金光神咒	-12.9546
廂	-12.9546
囫	-12.9546
圇	-12.9546
接引羣倫早出愛河津	-12.9546
靑黃赤白黑	-12.9547
安鑪立鼎	-12.9547
絶聖棄智	-12.9547
年吳黃武	-12.9547
眥	-12.9548
法象莫大乎天地	-12.9548
燮元贊運	-12.9548
靑陽啓派	-12.9548
叩干元造意者	-12.9548
念自劫數相沿生人多	-12.9548
諸惡莫作眾善奉行	-12.9548
洳	-12.9549
冥慧洞清大量玄玄一如誥命風火驛傳	-12.9549
恭惟太一慈尊	-12.9549
􂊫	-12.9549
崶	-12.9549
玉清鎭滅火運眞符右符吿下	-12.9549
首自亡正天分度保	-12.9549
槿	-12.9549
赧	-12.955
櫪	-12.955
天道無親常與善人	-12.955
面是背非	-12.955
鷓	-12.955
㬪	-12.955
礱	-12.955
塍	-12.955
善芽增長	-12.9551
菰	-12.9551
孚佑帝君曰此篇爲玄宗第	-12.9551
先天一炁從虛無中來	-12.9551
掙	-12.9551
我無爲而民自化	-12.9551
齡謹奏天運年月日	-12.9552
笮	-12.9552
帕	-12.9553
杰	-12.9553
芊	-12.9553
担	-12.9553
酪	-12.9553
誃	-12.9553
毖	-12.9553
在延慶觀	-12.9553
生身受炁之初	-12.9553
鈔	-12.9553
星君羽章靈符	-12.9553
鷇	-12.9553
陬	-12.9553
嗒	-12.9554
常山蛇勢	-12.9554
遒	-12.9554
飪	-12.9554
其大無外其小無内	-12.9554
褥	-12.9555
芍	-12.9555
大悲大願至聖至仁	-12.9555
豈淺鮮哉	-12.9555
男女媾精萬物化	-12.9556
鳳篆龍章	-12.9556
琛	-12.9556
盒	-12.9556
之難所以爲大不易者	-12.9556
綉	-12.9556
鳶飛魚躍	-12.9557
恝	-12.9558
枳	-12.9558
蹷	-12.9558
以鉛制汞	-12.9559
儌	-12.9559
盲修瞎鍊	-12.9559
𠻳	-12.9559
踴	-12.9559
蚯	-12.956
懸象著明莫大乎日月	-12.956
阡	-12.956
㢲	-12.956
蒭	-12.956
泐	-12.9561
洞衍法門之香火	-12.9561
熠	-12.9561
襘	-12.9562
虛靜恬淡寂寞無爲	-12.9563
窮神以知化	-12.9564
●	-12.9564
二五之精妙合而凝	-12.9564
易有太極是生兩儀	-12.9564
嬗	-12.9565
妙寶神功顯號應化天尊	-12.9565
壚	-12.9565
紡	-12.9566
鄆	-12.9566
畎	-12.9567
哥	-12.9567
虛化神神化氣氣化	-12.9567
崕	-12.9568
録	-12.9568
喞	-12.9568
哦	-12.9569
䓤	-12.9569
災天尊大悲化散諸	-12.9572
玉帝夙修常淸淨	-12.9573
令下降覆護受持是此經者勅命	-12.9575
掜	-12.9576
尊師天醫中聖	-12.9576
撾	-12.9577
奭	-12.958
砆	-12.9582
碔	-12.9583
又以爲不報也	-12.9583
未嘗過而問焉	-12.9584
乗	-12.9585
右洎合會善信人等	-12.9595
􂆯	-12.9628
圠	-12.9634
眞戒汝等仙子可能持否	-13.0201
天上人間信受奉行第	-13.0201
演正警化孚佑帝君興行妙道天尊	-13.0292
純陽演正警化孚佑帝君	-13.0381
兗	-13.0629
伏乞仁慈俯賜昭格	-13.1036
符右符奉爲四川成都府地分奉道信人	-13.1066
袛	-13.1082
内有霹𩆝雷神隱名洞慧交徹五	-13.1112
之至謹疏以聞天運年月日	-13.1123
祖師三天教主正一眞君張證盟玉清	-13.1133
東嶽上殿太子	-13.1142
信人等是日叩干神造意者切以	-13.1143
柢	-13.1148
乘威迫脅	-13.1156
謹爲伏地拜進	-13.1157
摩利支天母	-13.1158
呂吉甫曰	-13.1158
更生永命天尊波梨天	-13.1158
䰞	-13.1167
是其自愛自養	-13.1169
錠	-13.1169
堡	-13.117
舶	-13.1173
泬	-13.1174
閘	-13.1174
押綱祈水	-13.1176
廨	-13.1181
爺	-13.1181
䲭	-13.1181
偓	-13.1181
簸	-13.1182
拚	-13.1183
貙	-13.1183
大辯若訥	-13.1184
古之所謂曲則全者	-13.1184
槳	-13.1184
並與疾除罪簿落滅惡根	-13.1184
淄	-13.1185
百善轉輪得大	-13.1185
一曰慈二曰儉三曰不敢爲天下先	-13.1185
驁	-13.1185
其民醕醕	-13.1185
丢	-13.1186
蠏	-13.1188
纊	-13.1189
(●●●●●●●●)	-13.1189
劻	-13.1189
喁	-13.119
棚	-13.119
九天金籙無量受生	-13.1191
䖟	-13.1191
剿	-13.1191
燐	-13.1191
𥛬	-13.1191
眈	-13.1191
諜	-13.1191
幘	-13.1191
謹錄來詞昧罪伏地	-13.1192
輹	-13.1192
扮	-13.1192
呿	-13.1192
抓	-13.1192
見輿地紀勝	-13.1192
賍	-13.1193
蜺	-13.1193
蜚	-13.1193
礫	-13.1193
界逍遙上清一如誥命	-13.1193
淍	-13.1193
雒	-13.1193
鼇	-13.1194
詵	-13.1194
獠	-13.1194
摽	-13.1195
以智治國國之賊	-13.1195
大悲中嶽中天大甯崇聖天尊大悲	-13.1195
天尊大悲北嶽安天大貞元聖天尊	-13.1195
爹	-13.1195
靑玄九陽上帝	-13.1196
玉帝天恩道君慈度	-13.1196
元始符命金籙白簡長生靈符	-13.1196
取將坎位中心實	-13.1196
獃	-13.1196
更生永命天尊禪善天	-13.1196
砢	-13.1196
戡	-13.1197
淼	-13.1197
茅亭客話	-13.1197
楣	-13.1197
禍兮福所倚	-13.1197
罘	-13.1197
嵂	-13.1197
防微杜漸	-13.1198
戽	-13.1198
縵	-13.1198
倘有不順按律施行	-13.1198
嚚	-13.1198
趄	-13.1198
膻	-13.1198
趨吉避凶	-13.1199
㖠	-13.1199
士農工商	-13.1199
黼	-13.1199
愒	-13.1199
絀	-13.1199
無上内秘眞藏經	-13.1199
紫微金格高上玉皇本行集經闡微卷	-13.1199
鑱	-13.12
鞦	-13.12
乾道成男坤道成女	-13.12
人心惟危道心惟微	-13.12
寶君厥境曰	-13.12
氐房心尾	-13.12
賬	-13.12
犇	-13.1201
天上三十六地下三十六	-13.1201
致心朝禮上淸眞境靈寶天尊	-13.1201
庲	-13.1201
歸根竅復命關	-13.1201
光嚴妙樂國	-13.1201
增刻道藏輯要	-13.1201
道之尊德之貴	-13.1201
蔔	-13.1202
噠	-13.1202
六五坤承結括終始	-13.1202
麪	-13.1202
推情合性轉而相與	-13.1202
凾	-13.1202
嗛	-13.1202
酖	-13.1202
欲作伏食仙宜以同類者	-13.1202
無物不有無時不然	-13.1202
聖功生焉神明出焉	-13.1203
0044_	-13.1203
損不足以奉有餘	-13.1203
為自愛自養	-13.1203
鼃	-13.1203
壖	-13.1203
屧	-13.1204
匈	-13.1204
唪	-13.1204
胯	-13.1204
緑	-13.1204
叧	-13.1204
癆	-13.1204
寶雞金臺觀	-13.1204
黝	-13.1204
者聚爲一徒名曰	-13.1204
接六趣之眾生	-13.1204
渰	-13.1204
魒	-13.1205
風各二隊列	-13.1205
帝鄕大江之西尙存故宅	-13.1205
佑聖眞武仁威上帝金闕天尊大悲	-13.1205
至孝驅魔寶光大道鸞化天尊大悲	-13.1205
衹	-13.1205
牴	-13.1205
渠縣王妙生雲朋重刋	-13.1205
無名天地之始有名萬物之母	-13.1205
􂀿	-13.1205
縋	-13.1206
欷	-13.1206
▁續刻道藏輯要	-13.1206
誠惶誠恐稽首頓首百拜上言	-13.1206
莩	-13.1206
餂	-13.1206
靑靈始老蒼帝	-13.1206
黑帝天尊大悲上靈元老黃帝天尊大悲	-13.1206
獻花酌水	-13.1206
莫不尊道而貴德	-13.1206
貞明上聖雷祖大帝	-13.1206
降生於無量數劫	-13.1206
是迷雲翳性	-13.1206
更生永命天尊鬱單天	-13.1206
瓊琯眞人集宋海南白玉蟾著	-13.1206
等皈身皈神皈命慈尊投誠上聖	-13.1206
膴	-13.1206
􂋉	-13.1206
𨗳	-13.1206
憮	-13.1206
謡	-13.1206
强梁者不得其死	-13.1206
洎合家孝眷人等	-13.1207
如法持念是此眞經	-13.1207
玄功廣博大悲大願大聖大慈無量度人	-13.1207
祻	-13.1207
肓	-13.1207
玉府闡教妙達眞人孟珙敬撰起讚	-13.1207
苧	-13.1207
賸	-13.1208
晬	-13.1208
治大國若烹小鮮	-13.1208
朅	-13.1208
襪	-13.1208
斸	-13.1208
解阨天尊大悲乾元三炁延夀天尊大悲	-13.1208
贜	-13.1208
斗母尊願我早	-13.1208
斗母尊願我速	-13.1208
矼	-13.1208
此卦以坤爲體以	-13.1208
九竅之邪在乎三要	-13.1208
元始安鎭普吿萬神嶽瀆眞官土地	-13.1209
貓	-13.1209
趍	-13.1209
天之道曰陰與陽	-13.1209
橦	-13.1209
致虛極守靜篤	-13.1209
糲	-13.1209
思患預防	-13.1209
水者道樞其數名一	-13.1209
委志歸虛無無念以爲常	-13.1209
咲	-13.1209
找	-13.1209
祖姥紫虛元君	-13.1209
虎皮座張眞人	-13.1209
澌	-13.1209
燒茅弄火	-13.1209
酲	-13.1209
自皈依經當願眾生	-13.121
身紫金瑞相隨機赴感誓願無邊大	-13.121
􂉷	-13.121
拐	-13.121
瀕	-13.121
圓陀陀光爍爍	-13.121
雯	-13.121
𠏉	-13.121
杳亡杳存	-13.121
箐	-13.121
傷亡符命謹當吿下	-13.121
傷死眞符玉清追	-13.121
綮	-13.121
蚖	-13.1211
厪	-13.1211
筦	-13.1211
䖍恭頂禮至心朝禮	-13.1211
等忝列玄門仰	-13.1211
可韓司丈人眞君九天採訪使妙化眞君	-13.1211
舐	-13.1211
補塞遺脫	-13.1211
迫而後動不得已而後起	-13.1211
抖	-13.1211
趦	-13.1211
?	-13.1211
大悲上元九炁賜福天尊	-13.1211
宿星君離明分野	-13.1211
磈	-13.1211
胙	-13.1212
灃	-13.1212
盜天地奪造化	-13.1212
暾	-13.1212
歆醮醴謹牒	-13.1212
產在坤種在乾	-13.1212
皙	-13.1212
堞	-13.1212
嶒	-13.1212
以訛傳訛	-13.1212
緗	-13.1212
讖	-13.1213
跎	-13.1213
大悲西斗紀名天尊大悲中	-13.1213
旁蹊曲徑	-13.1213
天應星地應潮	-13.1213
斝	-13.1213
蔵	-13.1213
谼	-13.1213
承天效法后土大帝	-13.1213
靈符稽首南宸第	-13.1213
棐	-13.1214
鷃	-13.1214
紈	-13.1214
自然之所爲兮非有邪僞道	-13.1214
道統宗天尊大悲老祖純陽演正孚佑眞	-13.1214
埒	-13.1214
伯夷叔齊	-13.1214
候視加謹愼	-13.1214
西天竺國大智光中眞空妙	-13.1214
豗	-13.1214
帝圓明道姥天尊	-13.1214
噐	-13.1215
三寶十方三界萬靈保生治世福顯利幽	-13.1215
混元六天傳法教主	-13.1215
一赦宥會内人等所犯	-13.1215
輝寶杵旋時鬼神失色顯靈	-13.1215
顰	-13.1215
臰	-13.1215
悲大願大聖大慈聖德巨光天后摩利攴	-13.1215
蹬	-13.1216
天尊大悲周天眾星合算應福天尊大悲	-13.1216
悲先天盤古周御國王天尊大悲中天斗	-13.1216
位奏錄主司	-13.1216
聖慈允茲申請	-13.1216
勿犯戒服第二十	-13.1216
髠	-13.1216
嚷	-13.1216
南斗六司延夀天尊大悲東斗主算天尊	-13.1216
瀆得道之神龍宫官屬	-13.1216
螉	-13.1216
霰	-13.1217
塤	-13.1217
逄	-13.1217
更生永命天尊堂曜天	-13.1217
而戲笑者一次爲二過見人	-13.1217
東方安寶華林靑靈始老蒼帝	-13.1218
鏟	-13.1218
羗	-13.1218
嘩	-13.1218
㗳	-13.1218
環匝關閉	-13.1218
醫王主瘟都天大帝	-13.1218
銚	-13.1218
瞠	-13.1218
蹍	-13.1218
尊神准今玉文滅伏火殃	-13.1218
㾮	-13.1218
髀	-13.1219
學仙須是學天仙惟有金丹最的端	-13.1219
當境城隍祀典尊神	-13.1219
大悲炎光太陽日德耀輪天尊大悲素靈	-13.1219
据	-13.1219
二用無爻位周流	-13.1219
饔	-13.1219
天尊大悲掌嗣院錫	-13.1219
喆	-13.122
東方木德翠林天尊大悲南方火德赤	-13.122
耳目口三寶閉塞勿發通	-13.122
無想無結無愛天	-13.122
虯	-13.122
郅	-13.1221
我無事而民自富	-13.1221
瘧	-13.1221
鑼	-13.1221
更生永命天尊梵摩天	-13.1222
璩	-13.1223
紜	-13.1223
鼷	-13.1223
鸎	-13.1223
更生永命天尊梵寶天	-13.1223
酉元旦一陽初動	-13.1223
願衆生世世生生皈	-13.1223
南極天宫靑華上帝	-13.1224
棖	-13.1224
囀	-13.1224
杀	-13.1224
蛸	-13.1224
潯	-13.1224
洌	-13.1225
虩	-13.1225
睠	-13.1225
鏞	-13.1225
仁更廣悲思之德	-13.1225
上善若水淸而無瑕	-13.1225
瑠	-13.1225
日良吉延仗羽	-13.1225
又嘆出家到也	-13.1225
魂之與魄互爲室宅	-13.1225
椅	-13.1226
良吉爲始延	-13.1226
諏	-13.1227
頊	-13.1227
病延年按行五	-13.1228
凸	-13.1228
嬝	-13.1228
眦	-13.1228
有物混成先天地生	-13.1229
得之者常似醉	-13.123
黙	-13.123
一兮都集歸	-13.123
奩	-13.1231
必孚三界十方無求不應黃鶴樓中留	-13.1231
蒯	-13.1231
𤁋	-13.1231
幹父之蠱	-13.1232
吕吉甫曰	-13.1232
柵	-13.1232
羙	-13.1232
痺	-13.1232
战	-13.1232
政和二年封	-13.1232
夫何故而其然乎	-13.1232
瘖	-13.1233
坴	-13.1233
虛殿内煉丹砂存芝像於山崖顯仙	-13.1233
攤	-13.1233
壈	-13.1234
靴	-13.1235
苻	-13.1236
臾	-13.1236
紵	-13.1237
矌	-13.1237
凡砂凡汞	-13.1238
砲	-13.1239
筞	-13.1239
子南午北互爲綱紀	-13.1241
響月文通古佛	-13.1241
薔	-13.1245
大淸國四川奉道投詞	-13.1247
諤	-13.1248
缾	-13.1249
儋	-13.1252
眞君爕理都府天醫	-13.1254
花街柳巷	-13.1259
𤽡	-13.1262
􂆬	-13.1263
持誦是經者錫以	-13.1266
物理窺開後人情照破時	-13.1269
詳前事理卽便	-13.1724
據大漢天下四川省	-13.3141
桅	-13.3145
鼎内若無眞種子猶將水火煮空鐺	-13.3149
莫之令而自均	-13.315
瞤	-13.3158
慈洞囘昭格	-13.3158
金響止單擺開鑼響放銃弓弩槍牌	-13.3163
門得道眞人靜湛求道未得爲有	-13.3163
朒	-13.317
郗	-13.317
􂄠	-13.3171
九二見龍和平有明	-13.3173
啐	-13.3173
懌	-13.3175
卜剛辰特陳淸醮	-13.3176
熯	-13.3176
氣歸元海夀無窮	-13.3176
廋	-13.3176
貍	-13.3177
袐	-13.3177
干冒天威下情無任激切屏營之至	-13.3179
請看詳事意	-13.3179
豸	-13.318
人發殺機天地反覆	-13.318
不言之教無爲之益	-13.3181
戥	-13.3181
榼	-13.3181
愼言語節飲食	-13.3181
烖	-13.3182
經籍度三師	-13.3183
礮	-13.3183
磅	-13.3184
𠂆	-13.3184
遼東懿州人	-13.3184
髪	-13.3185
北方玄上玉宸天尊	-13.3185
楔	-13.3185
不以智治國國之福	-13.3186
福兮禍所伏	-13.3186
仙島得道一切神仙	-13.3186
攴叭囉嘛	-13.3187
噎	-13.3187
㘞	-13.3187
𤠔	-13.3187
勇於不敢則活	-13.3187
諸佛之師眾聖之王	-13.3187
西北方無量太華天尊	-13.3187
屍靈官奉爲亡過解除	-13.3187
燋	-13.3187
杻	-13.3188
宫中部四十二曹偕九千萬眾主管	-13.3188
西方太妙至極天尊	-13.3188
吉人爲善惟日不足	-13.3189
硤	-13.3189
等稱揚寶號注想金容	-13.3189
南方玄眞萬福天尊	-13.3189
陽消其形陰凌災生	-13.319
坱	-13.319
坎離匡廓運轂正軸	-13.319
西南方太靈虛皇天尊	-13.319
􂂃	-13.319
獨力周全者一事	-13.319
陞秩登班	-13.3191
不畏天地不懼神明	-13.3191
日開啟匝至	-13.3191
烺	-13.3191
睜	-13.3191
觀空亦空空無所空所空旣無無無亦無	-13.3191
𤀹	-13.3191
三十二字秘文書於	-13.3191
倅	-13.3192
吾何以知天下之然哉	-13.3192
須至具疏申聞者右謹	-13.3192
𢙀	-13.3192
畊	-13.3192
大聖大慈大仁大孝	-13.3192
道窮則返歸乎坤元	-13.3192
合之持入赤色門	-13.3193
俐	-13.3193
千五百劫之先位	-13.3193
藏垢納汙	-13.3194
袽	-13.3194
崢	-13.3194
罽	-13.3194
硝	-13.3195
鐵劵銅符	-13.3195
化爲氣氣化爲神神化爲虛	-13.3195
𠒋	-13.3195
窞	-13.3195
讙	-13.3196
牯	-13.3196
杇	-13.3196
嚳	-13.3196
何况受持是此經者	-13.3196
滀	-13.3196
葡	-13.3196
孚佑上帝純陽呂祖天師著	-13.3197
穡	-13.3197
湎	-13.3197
鬐	-13.3197
拯提趣類	-13.3197
庋	-13.3198
胼	-13.3198
刋姪瑛春城朱瓚素園同校字男璜磻溪	-13.3198
壳	-13.3198
裀	-13.3198
陰藏如馬蝗	-13.3198
陽數已訖訖則復起	-13.3199
晋	-13.3199
無上三元拔苦黃籙大齋	-13.3199
記新安吳秋士西邨選汪立名西亭校訂	-13.3199
度星眞文正音	-13.3199
嬈	-13.3199
鞴	-13.3199
宀	-13.3199
天性人也人心機也立天之道以定人也	-13.3199
蝌	-13.3199
醲	-13.3199
勖	-13.3199
羣生父萬靈師大聖大慈至皇至道	-13.3199
芸閣領班雲和仙姑芸閣内史萬善仙姑	-13.32
金臺從事嵩翠仙姥錦閣從事鍾靈仙姥	-13.32
縢	-13.32
咭	-13.32
始文使可修終竟武乃	-13.32
蝠	-13.32
星宫正天度數解除命運刑尅之災願於	-13.32
踔	-13.32
用九翩翩爲道規矩	-13.32
神不死是謂玄牝玄牝之門是謂天地根	-13.32
言還自敗傷	-13.32
闖	-13.32
領詞難抑依教奉行	-13.32
勗	-13.32
筓	-13.32
啓請特遷仙仗	-13.32
須至專牒者右牒	-13.32
鯈	-13.32
塵沙惡業隨心消散	-13.32
見他才能可稱而抑之	-13.32
通不聞是法不入	-13.32
等忝列道門	-13.3201
東方玉寶皇上天尊	-13.3201
噲	-13.3201
政和二年誥封	-13.3201
嬙	-13.3202
榱	-13.3202
靈寶天尊大悲太淸仙境道德天尊大悲	-13.3202
鸇	-13.3202
同賴善功證無上道	-13.3202
琄	-13.3202
吾將以爲教父	-13.3202
恚怒師傅	-13.3202
當齋正薦亡過	-13.3203
天地之道浸故陰陽勝	-13.3203
致心朝禮玉淸聖境元始天尊	-13.3203
愾	-13.3203
鄉坊里域社令尊神	-13.3203
麯	-13.3204
一者以掩蔽世人莫知之	-13.3204
可以無思難以愁勞	-13.3204
有妄心卽驚其神	-13.3204
呷	-13.3204
諸念不生萬緣頓息	-13.3204
頋	-13.3204
事今據大漢天下四川	-13.3204
惡根地根魔籍鬼賬常以	-13.3205
剴	-13.3205
粉提以一丸刀圭最爲神	-13.3205
九天開化元皇大帝三界伏魔協天大帝	-13.3205
隤	-13.3205
安天鎭地眞文謹當告下	-13.3205
逐變滅度五苦流景玉符右符告下飛度	-13.3205
徉	-13.3205
靈寶赤書玉篇眞文合一百	-13.3205
􂁰	-13.3206
晦朔之間合符行中	-13.3206
混沌鴻濛牝牡相從	-13.3206
滋液潤澤施化流通	-13.3206
▁重刋道藏輯要玉詮卷	-13.3206
0015	-13.3206
吧	-13.3206
0015-06_3	-13.3206
三百六十五度四分度之一	-13.3206
𥜥	-13.3206
餔	-13.3206
徴	-13.3206
檟	-13.3206
無極至尊寶經太上無極至尊宗師讚	-13.3206
狺	-13.3206
咒完吸頂雲三咽結三神	-13.3206
躓	-13.3206
母呼亦呼母吸亦吸	-13.3206
藂	-13.3206
北斗七元解厄星君南斗六司注生星君	-13.3206
東西中正三斗星君	-13.3206
生世世得聞正法自皈依師當願眾生學	-13.3207
從頭流達足究竟復上	-13.3207
􂀴	-13.3207
三者旣關鍵緩體處空房	-13.3207
動有羣魔作障	-13.3207
寢寐神相抱覺悟候存亡	-13.3207
縝	-13.3207
讚至玄門戶萬派統宗包羅眞宰判鴻	-13.3207
𧇖	-13.3207
嚅	-13.3207
爝	-13.3207
咒完吸頂雲三咽結二	-13.3207
蟆	-13.3207
麈	-13.3207
演法厯身尊玉虛玄上帝勤修	-13.3207
矞	-13.3207
秘旨新津彭一淸乾陽校正	-13.3208
畋	-13.3208
不經苦惱身有光明此世他生常	-13.3208
佻	-13.3208
癃	-13.3208
經受病黃紙硃書化服立愈	-13.3208
證難以推移心專不縱橫	-13.3208
閲	-13.3208
化之行藏顯億千萬種之神異飛鸞	-13.3208
大聖大慈九天輔元開化主宰司	-13.3208
結體演爻辭	-13.3208
譟	-13.3208
鈇	-13.3208
􂁃	-13.3209
濆	-13.3209
二十八㝛分野星君	-13.3209
喗	-13.3209
大帝談經演教消劫行化更生永命天尊	-13.3209
職貢舉眞君七曲靈應保德	-13.3209
鈆	-13.3209
男子修成不漏精女子修成不漏經	-13.3209
終日號而嗌不嗄	-13.3209
斲	-13.3209
九還七返八歸六居	-13.3209
鏬	-13.3209
鞞	-13.3209
亯	-13.3209
沉水入火自取滅亡	-13.3209
踧	-13.3209
數往者順知來者逆	-13.3209
仿	-13.321
元始符命告下北都泉曲冥府	-13.321
萬天至尊金闕玉皇上帝	-13.321
閶	-13.321
三十六世孫羲基編輯	-13.321
僝	-13.321
荐	-13.321
男生而伏女偃其軀	-13.321
觥	-13.321
磽	-13.321
墩	-13.321
耍	-13.321
橄	-13.321
䂀	-13.321
塵塵刹刹	-13.321
嶁	-13.321
䷗	-13.3211
三五寸一分口四八兩寸	-13.3211
靈寶大乘妙法蓮華眞經	-13.3211
治世福神玉虛師相玄天上帝金闕化身	-13.3211
闍	-13.3211
上干元造意者	-13.3211
捽	-13.3211
邴	-13.3211
濚	-13.3211
洑	-13.3211
婣	-13.3211
舉水以激火奄然滅光明	-13.3211
尊玉虛玄上帝蕩魔大身尊玉虛玄上帝	-13.3211
滁	-13.3211
氣丈人而君主之在人爲	-13.3211
曀	-13.3212
定一眞人蔚羅明眞人	-13.3212
窮取生身受氣初	-13.3212
樁	-13.3212
終脫胎看四正	-13.3212
辰戌丑未	-13.3212
陽失其契陰侵其明	-13.3212
太上神威英文雄武精忠大義高	-13.3212
水盛坎侵陽火衰離晝昏	-13.3212
洫	-13.3212
吭	-13.3212
等稽首皈依䖍誠頂禮	-13.3212
魂下請降眞炁煉胎返生還	-13.3212
䷁	-13.3213
宏仁大帝三界伏魔協天大帝	-13.3213
東華帝君正陽傳道救劫帝君	-13.3213
火府扶桑丹陵大帝三炁火官洞陽大帝	-13.3213
立地之道曰柔與剛立人之道曰仁與義	-13.3213
請望來臨大賜雷威加擁	-13.3213
古之道術有在於是者	-13.3213
兠	-13.3213
地人才之柄上司三十六天星辰雲漢下	-13.3213
嘈	-13.3213
噭	-13.3213
日月有數小大有定	-13.3213
槧	-13.3213
蒹	-13.3213
萬雷宗主天皇大帝萬星教主紫微大帝	-13.3213
窽	-13.3214
三品一理妙不可聽其聚則有其散則零	-13.3214
尫	-13.3214
水能流火能燄	-13.3214
將欲制之黃芽爲根	-13.3214
神也者妙萬物而爲言者也	-13.3214
克已復禮天下歸仁	-13.3214
犒	-13.3214
碭	-13.3214
一得永得自然身輕太和充溢骨散寒	-13.3214
四時順宜與炁相得	-13.3214
撩	-13.3214
𥦗	-13.3214
𨗁	-13.3214
先天主將赤心護道王天君證盟南斗第	-13.3215
府主生死罪錄官	-13.3215
更生永命天尊迦夷天	-13.3215
黟	-13.3215
上元大刧交周天地改易金玉山海人民	-13.3215
旹	-13.3215
鍜	-13.3215
易之門戸眾卦之父母	-13.3215
献	-13.3216
倔	-13.3216
煅煉一爐眞日月	-13.3216
晦至朔旦震來受符	-13.3216
法王師無上玄元天母主金光爍處日月	-13.3216
祓	-13.3216
阬	-13.3216
𧼈	-13.3216
乞爲奉道投誠善信右洎合人等	-13.3216
帝出中元符下	-13.3216
逡	-13.3216
漻	-13.3217
亙	-13.3217
幫	-13.3217
天地未根日月未光	-13.3217
吞服烏肝並兔髓	-13.3217
糝	-13.3217
嶽保存萬物安國康民制	-13.3217
無平不陂道之自然	-13.3217
玉虛師相玄天上帝淨樂國王聖	-13.3217
矉	-13.3217
踪於塵世衞聖駕於	-13.3217
梦	-13.3218
瀧	-13.3218
鐃	-13.3218
傖	-13.3218
見人之得如己之得見人之失如己之失	-13.3218
元始符命吿下北都泉曲冥府	-13.3218
方圓徑寸混而相拘	-13.3218
蓆	-13.3218
翺	-13.3218
姣	-13.3219
剉	-13.3219
火候足莫傷丹	-13.3219
纘	-13.3219
善事一中用解深厄等因	-13.3219
檝	-13.3219
也以符用之則退	-13.3219
檉	-13.3219
罨	-13.3219
𥻊	-13.322
氲	-13.322
袞	-13.322
行六虛往來旣不定上下亦無常	-13.322
啁	-13.322
眾夫蹈以出蝡動莫不由	-13.322
立天子置三公	-13.322
五靈玄老五炁天君	-13.322
檠	-13.322
魚躍鳶飛	-13.322
帝云此三元符命保固	-13.322
洞幽天尊大悲中央土德永鎭天尊大悲	-13.3221
之愈淸毁之不滅滅之	-13.3221
襦	-13.3221
出大刧交周當刻書金札以佩身符命皆	-13.3221
帝出上元符下	-13.3222
鳥獸一時滅盡天地溟涬無復光明	-13.3222
縉	-13.3222
獐	-13.3222
瘼	-13.3222
人知其天而不知其賊	-13.3222
兾	-13.3222
勩	-13.3223
醋	-13.3223
自居生數五三家相見結嬰兒	-13.3223
親授銅符劵	-13.3223
白者金精黑者水基	-13.3223
之果能持此戒名曰	-13.3223
莉	-13.3224
煬	-13.3224
餬	-13.3224
七竅相通竅竅光明聖日聖月照耀金庭	-13.3224
蠃	-13.3224
䨥	-13.3224
我無欲而民自樸	-13.3224
炁應運三元以保固	-13.3224
真文冶成元始真符玉皇真命以統御	-13.3224
糖	-13.3224
湖伯得道之神龍宫官屬	-13.3225
匵	-13.3225
梔	-13.3225
翾	-13.3225
合行牒下仰照驗	-13.3225
含精養神通德三光	-13.3225
蘢	-13.3226
同聲相應同氣相求	-13.3226
硎	-13.3226
沚	-13.3227
瘤	-13.3227
凂	-13.3227
矰	-13.3227
錡	-13.3227
剃	-13.3227
度人無量天尊無上道祖仙師賜籙	-13.3227
裦	-13.3227
抳	-13.3228
庒	-13.3229
穪	-13.3229
彧	-13.3229
芽眞符右符上請	-13.3229
鼯	-13.3229
莧	-13.323
動靜無端陰陽無始	-13.323
秋冬當外用自午訖	-13.3231
惽	-13.3231
啾	-13.3231
鄶	-13.3231
韙	-13.3231
蜾	-13.3231
龍西虎東建緯卯酉	-13.3231
惝	-13.3231
貊	-13.3232
饉	-13.3232
鋾	-13.3232
惛	-13.3232
陿	-13.3232
駴	-13.3232
趐	-13.3233
卒得金華轉而相因化爲白液凝而至堅	-13.3233
讌	-13.3233
昕	-13.3233
八海知聞魔王束首眞聖衞軒	-13.3233
嗸	-13.3233
曵	-13.3234
篪	-13.3234
不可少也而何以無	-13.3234
搢	-13.3235
憯	-13.3235
礶	-13.3235
𦍑	-13.3236
豨	-13.3236
皚	-13.3237
芴	-13.3237
天尊大悲掌屬幽冥藏	-13.3237
䘒	-13.3238
簌	-13.3238
鎧	-13.3238
畹	-13.3239
災天尊大悲化散小兒	-13.3239
鑣	-13.3241
釃	-13.3241
黃老用究較而可御	-13.3242
蝮	-13.3244
絺	-13.3244
狀十一分十一大曜眞君	-13.3245
璟	-13.3246
震來虩虩	-13.3246
恫	-13.3247
蜦	-13.3247
貴以賤爲本高以下爲基	-13.3247
鶬	-13.3249
之心我亦如是方見玉眞	-13.3252
睆	-13.3254
􂃇	-13.3256
䳱	-13.3257
曹檢校玉冊劉大曹官	-13.3258
眞人協贊都府仙醫	-13.3262
􂈫	-13.3262
繂	-13.3264
和君實端明	-13.3267
方諸天諸地日月星宿名山靈洞水府泉	-13.3294
宂	-13.3302
􂆮	-13.3322
􂆰	-13.3325
㞢	-13.3326
􂆭	-13.3326
􂆱	-13.3331
太上彌羅無上天妙有玄眞境	-13.5379
忘形以養氣忘氣以養神忘神以養虛	-13.5541
㣲	-13.5625
北方洞陰朔單鬱絕五靈玄老黑帝	-13.5628
籍曹官聖眾下元掌	-13.5628
啓懇卽賜敷奏上玄	-13.5631
妻爲夫作商不歸	-13.5632
靈寶監齋大法師眞君	-13.5648
具疏文一函俯伏	-13.5653
缽囉缽囉	-13.5654
放礮一箇磨旗	-13.5655
哵咧響發喊摔𨦐響收隊駐爲第	-13.5656
更生永命天尊答恕天南	-13.5656
未知攸止莫敢或遑	-13.5657
跫	-13.566
侁	-13.5662
診	-13.5663
躑	-13.5663
涘	-13.5664
眼不視而魂在肝耳不聞而精在腎	-13.5664
不見可欲使心不亂	-13.5664
五道三塗四生萬類一切幽魂	-13.5664
將欲弱之必固强之	-13.5667
朞	-13.567
琨	-13.567
􂂍	-13.567
攛	-13.5671
中元七炁赦罪地官洞靈淸虛大帝	-13.5671
將欲奪之必固與之	-13.5671
將欲廢之必固興之	-13.5671
愊	-13.5671
銃	-13.5671
努	-13.5672
匃	-13.5672
􂁨	-13.5673
世人能領悟皈命禮慈尊至心朝禮	-13.5674
翛	-13.5675
物芸芸各歸其根歸根曰靜靜曰復命	-13.5675
楪	-13.5675
男女丹工異同辨	-13.5675
鐄	-13.5675
琉	-13.5676
珣	-13.5677
琱	-13.5677
破人之家取其財寶	-13.5677
蠒	-13.5677
鐍	-13.5677
西方七寶金門皓靈皇老白帝七炁天君	-13.5677
十五乾體就盛滿甲東方	-13.5678
瓏	-13.5678
虛空界盡我此修行終無有盡	-13.5678
三十時辰兩日半	-13.5678
決水放火以害民居	-13.5678
喟	-13.5678
朝遊北海暮蒼梧	-13.5679
嶰	-13.5679
猶未生也然其生之勢	-13.5679
八日兌受丁上弦平如繩	-13.5679
三日出爲爽震庚受西方	-13.5679
胠	-13.568
欃	-13.568
蜣	-13.568
之日不使内有餘帛外有贏財以負陛下	-13.5681
損人器物以窮人	-13.5681
卽隨其動機而有兩相知之微意輕輕引	-13.5681
䝟	-13.5682
檯	-13.5682
匪我求童䝉童䝉求我	-13.5682
幌	-13.5682
厄者一念囘轉諷誦是經當命	-13.5682
𡹄	-13.5682
𩆝	-13.5683
焉此三十二卦皆進而得夫	-13.5683
雌雄錯雜以類相求	-13.5684
俵	-13.5684
是神仙親口傳神仙神仙只在花裏眠	-13.5684
惜寶千萬神仙不肯來	-13.5684
䷀	-13.5684
上道君在玉淸聖境演說至眞妙道尊經	-13.5684
上方玉虛明皇天尊下方眞皇洞神天尊	-13.5684
天尊大悲部屬禮星證	-13.5684
捧玉皈依潔誠供養	-13.5684
骨弱筋柔而握固	-13.5684
𣕤	-13.5684
鏑	-13.5684
火化爲土水不得行	-13.5685
甬	-13.5685
金化爲水水性周章	-13.5685
天地萬物之盜萬物人之盜人萬物之盜	-13.5685
未知牝牡之合而䘒作	-13.5685
曈	-13.5685
陽以三立陰以八通三日震動八日	-13.5686
􂅾	-13.5686
魄以鈐魂不得淫奢	-13.5686
刓	-13.5686
懟	-13.5686
觳	-13.5686
兩弦合其精乾坤體乃成	-13.5686
淸微天宫演說救生濟死妙經	-13.5686
金籙受生大齋預修寄庫普福明幽道	-13.5686
非富非貴非貧非賤者	-13.5686
菹	-13.5686
謅	-13.5686
潛潭見象發散精光	-13.5687
㞐	-13.5688
􂈉	-13.5688
渫	-13.5689
溢度過節爲女所拘	-13.5689
剸	-13.5689
巽繼其統固濟操持九四或躍進退道危	-13.5689
鍊心爲成仙一半工夫	-13.5689
棨	-13.5689
髢	-13.5689
是道則進非道則退	-13.5689
火生於木禍發必尅	-13.5689
龍馬就駕明君御時	-13.569
主無極元皇中天紫微北極大帝	-13.569
宗師諸天統御大悲大願大聖大慈萬星	-13.569
尊璇璣玉衡齊七政總天經地緯日月星	-13.569
􂄦	-13.569
搭	-13.569
玹	-13.569
不疾而速不行而至	-13.5691
良賈深藏若虛	-13.5691
衂	-13.5691
欲求天仙者當立一千三百善	-13.5691
鳳狐兎不乳馬水流不炎上火動不潤下	-13.5691
見他失便便說他過	-13.5691
􂃙	-13.5691
盛衰漸革終還其初	-13.5691
潁	-13.5691
玳	-13.5691
賕	-13.5691
積善之家必有餘慶	-13.5692
縰	-13.5692
𠴏	-13.5692
苎	-13.5692
厯救災拔難除害	-13.5692
女濁男動女靜降本流末而生萬物	-13.5692
妖功濟生靈名高玉籍眾眞推仰宜有甄	-13.5692
望風投地至心朝禮金闕	-13.5692
見之不可用用之不可見	-13.5692
俺則道閒來時焚一炷香	-13.5692
地濁天動地靜男	-13.5692
挪	-13.5692
赤書玉字伏魔八威眞文正音	-13.5692
不敢虛說倣傚聖人文	-13.5693
天地自然穢氣分散洞中	-13.5693
爲化眾生名爲得道能悟之者可傳聖道	-13.5693
嵁	-13.5693
因看崔公入藥鏡令人心地轉分明	-13.5693
堠	-13.5693
繟	-13.5693
忡	-13.5693
窣	-13.5693
行日月大道無名長養萬物吾不知其名	-13.5693
上德不德下德執德執著之者不名道德	-13.5693
德相負晝夜始分	-13.5693
正天分度調爕陰陽	-13.5693
殢	-13.5693
灶	-13.5693
芡	-13.5693
謷	-13.5693
􂂂	-13.5693
敢司連宛屢天	-13.5693
踝	-13.5694
二十三日典守弦期九五飛龍天位加喜	-13.5694
褪	-13.5694
愽	-13.5694
堂姪徒孫鄧合順希襄門人蔣本遂繼順	-13.5695
退隱陳復烜含樸校輯嗣派徒張軫駐參	-13.5695
執古之道以御今之有	-13.5695
蠈	-13.5695
運推數周正道當行	-13.5695
鉛鼎温温現寶光	-13.5695
鏆	-13.5695
九層之臺起於累土	-13.5695
以無制有器用者空	-13.5695
合抱之木生於毫末	-13.5695
柿	-13.5695
火記不虛作演易以明之	-13.5695
見他體相不具而笑之	-13.5695
六十卦周張布爲輿	-13.5695
噒	-13.5695
㬥	-13.5695
大道三十六部尊經玄中大法宗師讚	-13.5695
嗶	-13.5695
繘	-13.5695
緲	-13.5696
譆	-13.5696
捱	-13.5696
藺	-13.5696
載營魄抱一能無	-13.5696
府百二十曹應干合屬去處	-13.5696
死魂受鍊仙化成人	-13.5696
推演兵法作八陣圖	-13.5696
三塗五道四生萬類一切	-13.5696
化炁旣竭亡失至神	-13.5696
覧	-13.5696
道根深重宿有善緣	-13.5696
鍧	-13.5696
府主生死罪錄仙官	-13.5696
興方便意開利益門	-13.5696
病延年按行五嶽八海知聞魔王朿	-13.5696
嗗	-13.5696
韞養眾子世爲類母上九亢龍戰德	-13.5697
滎	-13.5697
依他坤位生成體種在乾家交感	-13.5697
道之爲物惟恍惟惚	-13.5697
[...]
