<unk>	0
<s>	0
</s>	0
(	-2.90689
)	-3.01685
/	-3.41744
反	-4.21392
也	-4.26225
之	-4.37326
作	-4.71711
而	-4.90173
音	-4.93548
以	-4.98721
為	-5.13424
者	-5.18834
其	-5.30098
有	-5.30923
/)	-5.34382
下	-5.39543
則	-5.43158
曰	-5.45776
不	-5.47743
於	-5.53439
同	-5.56977
字	-5.57913
人	-5.74578
上	-5.74639
無	-5.77583
又	-5.79575
一	-5.80235
云	-5.82505
言	-5.86531
是	-5.86564
與	-5.88371
至	-5.90878
故	-5.92631
去	-5.96259
如	-5.98093
大	-5.995
子	-6.0342
于	-6.12427
謂	-6.15029
在	-6.15081
此	-6.15915
注	-6.29002
皆	-6.2931
自	-6.29624
爲	-6.30969
三	-6.31733
誤	-6.32726
亦	-6.3333
所	-6.35709
行	-6.36183
中	-6.36871
見	-6.37865
五	-6.3944
非	-6.40445
二	-6.41626
王	-6.42489
矣	-6.44396
傳	-6.47526
得	-6.50471
時	-6.52553
本	-6.55855
乎	-6.58025
當	-6.58352
然	-6.59288
文	-6.60898
正	-6.61232
用	-6.61669
生	-6.62961
疏	-6.63378
乃	-6.6386
書	-6.64413
四	-6.65931
古	-6.66348
事	-6.66455
若	-6.66601
下同	-6.6683
相	-6.69128
及	-6.69298
今	-6.71246
問	-6.733
易	-6.7333
明	-6.74465
公	-6.74844
禮	-6.74916
名	-6.76089
天	-6.77128
▁	-6.77266
從	-6.77714
説	-6.79392
知	-6.80063
經	-6.8022
出	-6.81305
七	-6.8163
必	-6.82305
已	-6.82937
成	-6.84055
後	-6.86781
道	-6.86894
君	-6.87205
居	-6.88105
長	-6.88967
六	-6.89853
日	-6.90476
焉	-6.91504
註	-6.91632
方	-6.92302
九	-6.93215
使	-6.95347
齊	-6.95626
即	-6.96067
夫	-6.96513
或	-6.9696
何	-6.97417
入	-6.97719
地	-6.99741
猶	-7.00079
復	-7.01166
氏	-7.01398
義	-7.022
處	-7.04219
周	-7.04269
可	-7.06273
能	-7.06324
樂	-7.06855
多	-7.08276
國	-7.10058
主	-7.10069
未	-7.11873
始	-7.12847
水	-7.13047
詩	-7.13574
我	-7.1373
陽	-7.14081
切	-7.14554
說	-7.14994
宋板	-7.15286
小	-7.157
先	-7.15973
注同	-7.1648
所以	-7.16956
命	-7.17185
立	-7.17264
服	-7.1958
來	-7.20154
數	-7.20326
民	-7.2036
合	-7.2113
平	-7.21276
○	-7.21486
力	-7.21588
師	-7.2235
凡	-7.22778
女	-7.23063
八	-7.2413
耳	-7.24193
重	-7.24275
釋文	-7.24295
取	-7.24561
士	-7.24897
雖	-7.24948
惟	-7.27242
將	-7.27408
以為	-7.27497
稱	-7.27535
食	-7.27585
既	-7.296
心	-7.31402
直	-7.31797
物	-7.32036
謂之	-7.32371
如字	-7.32479
聲	-7.32964
好	-7.33328
欲	-7.33685
祭	-7.34085
世	-7.3524
實	-7.36434
鄭	-7.37274
惡	-7.38028
朝	-7.3819
分	-7.38477
春秋	-7.38952
善	-7.39224
父	-7.39251
本又作	-7.39466
山	-7.40002
通	-7.40246
他	-7.41412
疑	-7.41532
難	-7.42415
且	-7.42847
象	-7.43179
臣	-7.45228
解	-7.45604
兩	-7.4642
内	-7.46434
止	-7.46691
諸侯	-7.4753
反又	-7.47606
車	-7.47939
月	-7.48368
諸	-7.48373
因	-7.48464
定	-7.48903
徐	-7.49009
法	-7.49265
馬	-7.49397
但	-7.5004
治	-7.50339
亡	-7.50596
隂	-7.50621
十	-7.50709
木	-7.51274
似	-7.51675
意	-7.51813
並	-7.5201
下有	-7.52209
大夫	-7.52347
外	-7.52458
官	-7.53448
常	-7.53514
當作	-7.53725
土	-7.54272
南	-7.54632
家	-7.55048
遂	-7.56006
夏	-7.56367
魯	-7.56664
伯	-7.57289
便	-7.57521
星	-7.57753
晉	-7.58298
東	-7.58641
學	-7.58874
不可	-7.58949
安	-7.59137
終	-7.59466
衣	-7.59583
右	-7.60154
所謂	-7.60188
年	-7.60728
章	-7.61017
位	-7.61066
前	-7.61076
陳	-7.61094
侯	-7.61161
下有也字	-7.61628
令	-7.62249
案	-7.62261
風	-7.62415
辟	-7.6282
卦	-7.63108
殺	-7.63617
變	-7.64864
求	-7.64931
西	-7.64958
屬	-7.64961
氣	-7.65211
哉	-7.65307
異	-7.65513
死	-7.65787
近	-7.65866
受	-7.65904
少	-7.66016
比	-7.66347
徳	-7.66514
亂	-7.66549
志	-7.67196
徒	-7.67296
喪	-7.67442
爾	-7.67594
而不	-7.67939
元	-7.68835
盡	-7.68895
聖人	-7.69202
宋	-7.69729
由	-7.69934
觀	-7.70216
各	-7.70349
神	-7.70396
德	-7.70608
思	-7.70923
火	-7.71029
序	-7.71212
田	-7.71952
天子	-7.72185
過	-7.72476
从	-7.72494
尊	-7.72538
和	-7.72988
卒	-7.73201
歸	-7.73223
理	-7.73246
按	-7.73451
白	-7.73657
體	-7.73721
篇	-7.74387
初	-7.74643
辭	-7.74654
論	-7.74721
舉	-7.75032
彼	-7.75045
許	-7.75103
著	-7.75202
共	-7.75624
君子	-7.76197
度	-7.76206
門	-7.76429
如此	-7.76535
語	-7.76565
張	-7.76616
應	-7.76737
起	-7.76812
信	-7.76848
極	-7.76893
引	-7.77666
莫	-7.77815
孔子	-7.78183
餘	-7.78879
武	-7.79534
逺	-7.80072
衆	-7.80639
紀	-7.81055
金	-7.8117
魚	-7.81366
乾	-7.81513
北	-7.81548
身	-7.81785
動	-7.81931
致	-7.82014
次	-7.8207
節	-7.82224
政	-7.82267
順	-7.82789
考異古本註	-7.83188
周禮	-7.83522
帝	-7.83527
蓋	-7.83825
孫	-7.83838
别	-7.84604
仁	-7.84697
謹按	-7.85042
㑹	-7.8515
同上	-7.85193
親	-7.85214
都	-7.85713
記	-7.86246
要	-7.86311
不能	-7.86407
載	-7.86643
天下	-7.86771
漢	-7.87057
發	-7.87929
左	-7.88136
制	-7.8831
美	-7.88347
告	-7.89725
胡	-7.89813
尚	-7.90354
扶	-7.9077
文王	-7.90871
敬	-7.9125
失	-7.91325
之簡	-7.91763
縣	-7.91797
丁	-7.91819
固	-7.92028
段作	-7.92543
河	-7.92575
吉	-7.93309
加	-7.93353
故曰	-7.93363
釋	-7.93472
髙	-7.93801
吾	-7.94068
玉	-7.94528
宗	-7.94773
只是	-7.94808
色	-7.94947
百	-7.9518
甚	-7.95195
二字	-7.9548
容	-7.95572
施	-7.95964
戸	-7.96026
興	-7.96115
祖	-7.96127
楚	-7.96206
伐	-7.96324
劉	-7.96562
執	-7.96708
貌	-7.96811
不得	-7.96917
讀	-7.97168
只	-7.9732
射	-7.97372
盛	-7.97411
賢	-7.97488
足	-7.98041
上有	-7.98102
利	-7.98138
城	-7.98252
母	-7.98324
予	-7.98834
守	-7.99084
苦	-7.99807
據	-7.99932
本亦作	-8.00241
宜	-8.00267
周公	-8.00508
宫	-8.01
□	-8.01096
古文	-8.01142
者也	-8.01184
了	-8.01409
改	-8.01475
更	-8.01496
流	-8.01966
是也	-8.0233
交	-8.02995
口	-8.03076
或作	-8.03078
石	-8.03176
恐	-8.0338
又作	-8.03571
商	-8.04005
舊	-8.04091
離	-8.04325
考	-8.04359
史	-8.04441
毛	-8.04622
廣	-8.04945
首	-8.04963
指	-8.05019
句	-8.05051
九行	-8.05255
兵	-8.05307
又音	-8.05466
乗	-8.05878
任	-8.06273
二行	-8.06555
汝	-8.06873
亦作	-8.06935
萬	-8.07039
斯	-8.07075
刑	-8.07789
老	-8.07836
十二	-8.07901
須	-8.07998
升	-8.08301
教	-8.08665
葢	-8.08667
適	-8.09036
向	-8.0913
聞	-8.09408
龍	-8.09638
之義	-8.09651
之事	-8.10098
叔	-8.10125
獨	-8.1048
角	-8.10488
衛	-8.1107
己	-8.11073
殷	-8.11091
視	-8.11139
才	-8.11774
進	-8.11832
豈	-8.12548
丘	-8.1375
間	-8.1383
洛	-8.13855
州	-8.14226
封	-8.14718
秦	-8.15147
益	-8.15295
深	-8.15348
赤	-8.15423
類	-8.1581
夷	-8.15958
夫子	-8.16025
祀	-8.16366
烏	-8.17492
弗	-8.17572
依	-8.17616
之意	-8.17678
禹	-8.17734
功	-8.17996
訓	-8.18016
天地	-8.18082
卷	-8.18238
獻	-8.18343
底	-8.18744
往	-8.18944
室	-8.19115
羊	-8.1915
養	-8.19543
布	-8.19551
无	-8.19654
備	-8.197
皇	-8.19711
邑	-8.19884
唐	-8.20035
不知	-8.20148
却	-8.20158
末	-8.20502
坤	-8.20534
下有也	-8.20694
圖	-8.21031
俱	-8.21274
正誤	-8.215
就	-8.21636
太	-8.21729
本或作	-8.21769
代	-8.22215
剛	-8.22255
目	-8.22387
澤	-8.22518
列	-8.23288
降	-8.23643
等	-8.23852
尸	-8.23947
設	-8.24079
春	-8.24133
化	-8.24228
疾	-8.24445
皆同	-8.24528
注云	-8.24654
字誤	-8.24689
五行	-8.2469
草	-8.25091
息	-8.25097
存	-8.25328
昭	-8.25451
申	-8.256
原	-8.25993
爵	-8.26081
斷	-8.26334
江	-8.26344
甲	-8.26364
滅	-8.26779
皮	-8.26897
玄	-8.26989
尚書	-8.27131
禮記	-8.27229
感	-8.27253
脱	-8.2738
林	-8.27395
虞	-8.27581
子曰	-8.2784
辨	-8.27881
精	-8.27887
干	-8.2794
里	-8.27966
修	-8.2799
恭	-8.27997
罪	-8.28052
光	-8.28582
之道	-8.2873
可以	-8.28795
司	-8.28893
賔	-8.29051
冠	-8.29126
毛本誤	-8.29145
微	-8.2933
形	-8.29453
便是	-8.29685
仲	-8.29754
推	-8.29843
期	-8.2986
戒	-8.29993
而已	-8.30085
虚	-8.30232
具	-8.30393
廢	-8.30455
而後	-8.30517
畫	-8.30738
孝	-8.31281
孔	-8.31314
誠	-8.31625
絶	-8.31708
呼	-8.31963
廟	-8.32245
三年	-8.3226
孟子	-8.32472
本作	-8.3254
兮	-8.32775
承	-8.3298
歌	-8.33026
華	-8.33133
對	-8.33303
七行	-8.33476
凶	-8.3358
反下	-8.33596
掌	-8.33624
之時	-8.33677
良	-8.34061
勞	-8.34287
卜	-8.34455
衰	-8.35081
録	-8.3561
器	-8.35881
黄	-8.35943
新	-8.36162
牛	-8.36719
二十	-8.36726
鳥	-8.37115
唯	-8.37399
逆	-8.37559
户	-8.38172
之後	-8.38195
遺	-8.38334
專	-8.38682
邪	-8.38688
郭	-8.38706
側	-8.3884
拜	-8.38872
卿	-8.39048
律	-8.39087
全	-8.39293
除	-8.3957
昌	-8.39583
請	-8.3973
姓	-8.39766
簡	-8.39947
酒	-8.40042
婦	-8.40315
貞	-8.40519
李	-8.40747
嘗	-8.4114
厥	-8.41198
燕	-8.41346
隂陽	-8.41423
六行	-8.4143
聖	-8.41553
性	-8.41555
御	-8.41642
之言	-8.41651
素	-8.41994
勝	-8.41994
四行	-8.42211
下共有也字	-8.42307
舜	-8.428
特	-8.42843
手	-8.4301
純	-8.43162
三行	-8.43577
吳	-8.43675
井	-8.43712
久	-8.43713
至於	-8.43744
占	-8.43981
朱	-8.44185
又曰	-8.44212
雨	-8.44222
一行	-8.44385
坐	-8.44473
不同	-8.44509
履	-8.44605
夫人	-8.44612
庶	-8.44656
儀	-8.45163
柔	-8.453
爻	-8.45328
謀	-8.45405
貴	-8.45423
幾	-8.45683
冬	-8.45729
嵗	-8.45761
秋	-8.4582
沈	-8.46
左傳	-8.46072
越	-8.46154
典	-8.46249
弟	-8.46379
路	-8.4659
監本誤	-8.46637
兼	-8.46811
武王	-8.4682
傷	-8.47145
臨	-8.47181
校	-8.47432
習	-8.4745
堯	-8.47574
盖	-8.4785
工	-8.47983
例	-8.47985
憂	-8.48069
蒲	-8.48375
還	-8.48464
乘	-8.48887
藏	-8.49035
果	-8.49138
建	-8.4919
闕	-8.49297
革	-8.49345
計	-8.4952
毛傳	-8.49997
半	-8.50046
結	-8.50284
號	-8.50474
否	-8.50487
薄	-8.50636
旣	-8.5064
克	-8.50645
覆	-8.50647
配	-8.50677
開	-8.50725
賦	-8.5076
左氏	-8.50976
哀	-8.5104
夜	-8.51045
授	-8.51145
甫	-8.51247
看	-8.51331
桓	-8.51597
郊	-8.51603
梁	-8.51616
讀為	-8.51795
于僞	-8.51873
福	-8.5191
言之	-8.52422
參	-8.52449
成王	-8.52843
羽	-8.52986
曲	-8.53125
質	-8.53175
海	-8.53586
刺	-8.54015
賜	-8.5403
奉	-8.54041
咸	-8.54257
辰	-8.54619
舍	-8.55209
危	-8.55275
卑	-8.5533
陵	-8.55455
率	-8.55681
維	-8.55706
隨	-8.55736
差	-8.5575
三十	-8.55818
人之	-8.55843
某	-8.55874
智	-8.5612
后	-8.56515
巳	-8.56536
旁	-8.56763
職	-8.572
待	-8.57277
泰	-8.57302
反徐	-8.57334
竹	-8.57411
介	-8.57582
戎	-8.57633
▁(	-8.57655
萬物	-8.57732
散	-8.57894
之所	-8.58047
葬	-8.5817
千	-8.58219
并	-8.58234
濟	-8.58343
飾	-8.58388
旦	-8.58451
舞	-8.58738
論語	-8.58816
一本作	-8.59119
震	-8.59209
節疏	-8.59215
史記	-8.59383
亨	-8.59472
如何	-8.59782
放	-8.59816
舎	-8.60166
强	-8.60235
采	-8.60274
歴	-8.60391
詳	-8.60481
愛	-8.60653
考異古本經	-8.6072
假	-8.60722
附	-8.60729
戰	-8.60761
納	-8.60806
不敢	-8.60934
私	-8.60946
頭	-8.60971
邦	-8.61139
示	-8.61185
宣	-8.61199
連	-8.61355
包	-8.61495
箋	-8.615
俗	-8.61553
軍	-8.61604
十六	-8.61745
報	-8.62098
達	-8.62186
厚	-8.62222
享	-8.62359
元文	-8.62458
何以	-8.62459
鼓	-8.62564
衡	-8.62579
輕	-8.62764
然後	-8.6284
音義	-8.63296
魏	-8.63424
害	-8.63581
云云	-8.63657
背	-8.63696
退	-8.63777
敗	-8.64403
望	-8.64644
莊	-8.64649
是以	-8.64764
公羊	-8.6491
顯	-8.64918
之説	-8.65012
再	-8.65349
置	-8.65489
十五	-8.65496
征	-8.65539
獲	-8.6554
移	-8.65689
勿	-8.65876
端	-8.65968
那	-8.66083
之子	-8.66282
毋	-8.66348
識	-8.66362
當為	-8.66501
遇	-8.66557
表	-8.66598
湯	-8.66787
苟	-8.67327
宋板同	-8.67596
弑	-8.67612
祝	-8.67677
聚	-8.67709
坎	-8.67751
其所	-8.6822
一音	-8.68414
積	-8.68435
集	-8.68494
遷	-8.68681
總	-8.68995
救	-8.68995
述	-8.69
病	-8.69255
造	-8.6944
小人	-8.69557
公子	-8.69731
市	-8.69752
季	-8.69765
景	-8.70171
管	-8.70188
如字又	-8.70363
徐音	-8.70393
高	-8.70394
朔	-8.70435
堂	-8.70648
面	-8.70798
畢	-8.70876
青	-8.70881
勑	-8.70982
以下	-8.71103
盟	-8.71189
妻	-8.7125
逸	-8.71293
尺	-8.716
接	-8.71614
族	-8.71662
清	-8.71679
到	-8.71744
扶又	-8.71783
之類	-8.71829
說文	-8.72035
勇	-8.72162
最	-8.72167
音同	-8.7223
符	-8.72419
孟	-8.72524
省	-8.72529
仕	-8.72709
做	-8.72809
情	-8.73061
繼	-8.73081
保	-8.73274
蔡	-8.73369
野	-8.73555
恒	-8.7391
權	-8.7393
又如字	-8.74263
昔	-8.74568
十一	-8.74575
龜	-8.74922
會	-8.75012
錯	-8.7519
轉	-8.75196
八行	-8.75219
之禮	-8.75351
避	-8.75396
尤	-8.75566
威	-8.75952
余	-8.76102
補遺古本註	-8.76151
元年	-8.76283
芳	-8.76777
顧	-8.76813
敢	-8.77007
况	-8.77047
衞	-8.7726
被	-8.77326
鄉	-8.77423
狄	-8.77465
耶	-8.77538
種	-8.77799
節音義	-8.77864
冝	-8.77978
庚	-8.78019
戴	-8.78032
之象	-8.7809
雲	-8.78106
桑	-8.78136
襄	-8.78405
脫	-8.78506
司馬云	-8.78789
賈	-8.78818
也同	-8.78859
格	-8.79164
為之	-8.79237
這	-8.79721
刻	-8.79755
助	-8.79832
嗣	-8.79838
之間	-8.7991
羣	-8.79936
雜	-8.79985
説文	-8.80093
揚	-8.80221
補	-8.80253
弓	-8.80372
嘉	-8.80417
奔	-8.80588
議	-8.80871
讓	-8.80922
預	-8.81158
登	-8.81635
竟	-8.81908
上下	-8.82018
式	-8.82118
弔	-8.82345
陸	-8.82365
不言	-8.8254
下文	-8.82569
艮	-8.8262
者何對曰	-8.82758
鳴	-8.82949
雷	-8.83217
傳云	-8.83413
飲	-8.83515
厭	-8.83755
矢	-8.83901
十三	-8.83909
貫	-8.83996
條	-8.84037
不見	-8.84139
幽	-8.84246
自然	-8.84366
協	-8.84489
一名	-8.84624
来	-8.84651
隠	-8.84679
斗	-8.84689
韻	-8.84695
妄	-8.84809
社	-8.85277
豆	-8.85353
不必	-8.85372
責	-8.85381
費	-8.85688
錫	-8.85787
爾雅	-8.85845
亦有	-8.86081
歩	-8.86241
蟲	-8.86332
畜	-8.86339
慎	-8.86526
丈	-8.8654
普	-8.86592
寒	-8.86708
日月	-8.87007
持	-8.87036
厲	-8.87061
真	-8.87173
脩	-8.87245
司馬	-8.87284
或為	-8.87288
黨	-8.87289
豫	-8.87859
圭	-8.87863
博	-8.87928
之辭	-8.87995
後世	-8.88062
杜	-8.8825
免	-8.88271
客	-8.88274
違	-8.88446
父母	-8.88478
虎	-8.88628
豐	-8.8878
反本	-8.88786
謙	-8.88936
畏	-8.88949
折	-8.89285
運	-8.89355
箇	-8.89362
之人	-8.89367
而無	-8.89449
閒	-8.89535
嫁	-8.89588
細	-8.89656
李云	-8.8983
又云	-8.89988
況	-8.90019
康	-8.90039
險	-8.90104
靈	-8.90376
非也	-8.90481
伏	-8.90845
恱	-8.91019
忠	-8.91139
歲	-8.91381
災	-8.91452
席	-8.91471
之法	-8.9166
兄弟	-8.91717
繫	-8.91735
患	-8.91737
悔	-8.91797
也故	-8.91834
怨	-8.91976
漢書	-8.92403
旅	-8.9241
悉	-8.92418
當時	-8.92642
鬼	-8.9278
輿	-8.92789
鮮	-8.92882
困	-8.92966
古本	-8.93068
役	-8.93227
喜	-8.93231
而言	-8.93231
慮	-8.9324
姑	-8.93359
嚴	-8.9337
每	-8.9346
十八	-8.93509
棄	-8.93637
必有	-8.93732
輔	-8.93862
窮	-8.93913
儀禮	-8.94013
空	-8.94017
然則	-8.94021
均	-8.94267
雍	-8.94311
急	-8.94369
趙	-8.94371
十四	-8.94423
帥	-8.94438
別	-8.94631
禘	-8.94697
統	-8.94768
量	-8.94819
出於	-8.9486
房	-8.95
蒙	-8.95004
畧	-8.95483
無所	-8.95503
偏	-8.95613
王者	-8.95645
舒	-8.95765
隱	-8.95779
候	-8.95899
泉	-8.95917
之中	-8.9596
察	-8.95967
肆	-8.96386
委	-8.96533
之地	-8.96534
留	-8.96595
聽	-8.96681
誰	-8.96831
古人	-8.96903
忽	-8.9702
二年	-8.97152
曹	-8.97155
鄭注	-8.97386
禄	-8.97499
兄	-8.97645
肉	-8.97725
懼	-8.97784
略	-8.97819
約	-8.97875
謹	-8.98178
含	-8.98198
徃	-8.98223
未有	-8.98284
喻	-8.98388
巽	-8.98582
召	-8.98607
抑	-8.98702
漸	-8.98841
學者	-8.99016
故書	-8.99187
一章	-8.99427
靜	-8.99516
鼎	-8.99823
五十	-9.00249
惠	-9.0036
之心	-9.00398
夢	-9.00566
吐	-9.00657
厯	-9.00665
刀	-9.00703
郎	-9.0071
友	-9.00843
稍	-9.00898
未嘗	-9.00923
崇	-9.01028
負	-9.01181
之數	-9.01599
不然	-9.01757
毛詩	-9.01854
追	-9.01861
垂	-9.02097
殊	-9.02182
歳	-9.02274
步	-9.02508
韓	-9.0254
先生	-9.02611
孚	-9.02673
牲	-9.02741
監	-9.0299
農	-9.03435
一本	-9.03457
延	-9.0351
暴	-9.03525
衍	-9.03817
迎	-9.03824
敎	-9.0412
傅	-9.04282
正月	-9.04459
尾	-9.04467
寢	-9.04504
下皆同	-9.04747
以上	-9.04763
昏	-9.05009
盈	-9.05023
倫	-9.05106
屈	-9.05212
不及	-9.05236
屋	-9.05476
補遺宋板疏	-9.05555
有所	-9.05648
逐	-9.05686
崔	-9.05723
早	-9.05877
富	-9.05974
之文	-9.06029
乾坤	-9.06174
禦	-9.0625
錄	-9.06265
胥	-9.06309
諱	-9.06382
於此	-9.06534
丹	-9.06541
宅	-9.06671
烝	-9.0682
祥	-9.06839
鄭云	-9.06842
妾	-9.06923
足利本同	-9.07019
川	-9.07353
耕	-9.07377
念	-9.07761
奏	-9.07783
五年	-9.07874
證	-9.07952
爭	-9.0796
不與	-9.08073
賁	-9.08129
毁	-9.0814
賢遍	-9.08249
育	-9.08433
淫	-9.08455
擇	-9.0848
黒	-9.08531
仍	-9.08569
古者	-9.08801
雅	-9.08921
賓	-9.0913
庸	-9.09334
徵	-9.09572
洪範	-9.09604
徴	-9.09615
奠	-9.09809
徧	-9.0981
月令	-9.0991
業	-9.09937
誅	-9.10095
尹	-9.10426
僖	-9.10523
咎	-9.10558
吕	-9.10838
薦	-9.10911
皆作	-9.10935
四時	-9.11067
葉	-9.11125
犯	-9.11399
不復	-9.11472
強	-9.11649
宿	-9.11666
戚	-9.11697
索	-9.11796
弱	-9.11928
互	-9.11967
圍	-9.12087
禹貢	-9.12257
先王	-9.12258
反注	-9.12343
禾	-9.1237
答	-9.12467
蔽	-9.12472
婦人	-9.12744
佩	-9.12797
匪	-9.12842
一人	-9.12874
四方	-9.12881
天下之	-9.12894
葉左一行	-9.12903
庭	-9.12907
禁	-9.12916
之理	-9.12932
浮	-9.12962
不足	-9.12965
者皆	-9.13061
榖	-9.13221
天之	-9.13255
巨	-9.13509
營	-9.13639
孤	-9.13685
界	-9.13714
歟	-9.13737
樹	-9.13876
之下	-9.13879
短	-9.13879
牧	-9.13995
寧	-9.14028
係	-9.1408
四年	-9.14098
於是	-9.14106
三月	-9.14113
郷	-9.14286
中庸	-9.14366
之以	-9.14377
勤	-9.14395
匹	-9.1447
休	-9.14473
恁地	-9.14556
字又作	-9.1473
主人	-9.14778
審	-9.14848
充	-9.14873
十七	-9.15034
後人	-9.1506
今文	-9.15125
經文	-9.1517
調	-9.15314
哭	-9.15497
怪	-9.15571
王肅	-9.15584
堅	-9.15608
缺	-9.15643
對曰	-9.15809
侵	-9.16289
米	-9.16325
皆以	-9.16345
討	-9.16363
反劉	-9.16545
孰	-9.16579
皆是	-9.16635
亮	-9.16989
契	-9.17129
人君	-9.17263
京	-9.17268
斂	-9.17545
穀	-9.17547
十年	-9.1758
乙	-9.17582
黄帝	-9.17789
謝	-9.17851
犬	-9.17869
冕	-9.17912
其事	-9.18023
㬊淵録	-9.18053
敦	-9.18284
府	-9.18364
雉	-9.18464
綏	-9.18613
允	-9.18662
不書	-9.18672
疆	-9.18694
荒	-9.1873
之名	-9.18888
照	-9.19007
頌	-9.19113
之外	-9.19164
獸	-9.19286
也若	-9.19386
二章	-9.19458
驕	-9.1946
仲尼	-9.19565
道理	-9.19607
忘	-9.19773
周易	-9.20165
詩云	-9.20172
佐	-9.20256
諫	-9.20363
郡	-9.2037
足利本	-9.20499
飛	-9.20756
之書	-9.20864
愚	-9.20867
賤	-9.21053
罔	-9.21155
人心	-9.21173
貢	-9.21409
消	-9.21463
支	-9.21477
煩	-9.21529
昬	-9.21578
甸	-9.21585
下有之字	-9.21653
之為	-9.2167
孝經	-9.2172
七年	-9.2181
荀	-9.21869
饗	-9.21881
敷	-9.2195
環	-9.22024
下孟	-9.2209
四字	-9.22273
儒	-9.22325
鹿	-9.22325
資	-9.22434
落	-9.22435
吏	-9.22484
熊	-9.22631
兆	-9.22672
本義	-9.2275
防	-9.22785
導	-9.22855
可見	-9.22875
肅	-9.22917
至于	-9.23109
左右	-9.23113
鍾	-9.23156
塞	-9.23235
損	-9.23264
娶	-9.23271
之詩	-9.23325
故云	-9.23659
術	-9.23704
游	-9.23765
十九	-9.2384
呼報	-9.23885
旋	-9.23889
盧	-9.24026
鄭氏	-9.24283
桓公	-9.24302
淺	-9.24384
攻	-9.24408
不以	-9.2445
皆有	-9.24463
擊	-9.24467
正義	-9.24494
撰	-9.24572
機	-9.24691
祈	-9.2487
以此	-9.24914
趨	-9.25345
寡	-9.25359
遊	-9.25367
滿	-9.25367
務	-9.25401
九二	-9.25478
字林	-9.25516
領	-9.2562
艾	-9.25759
帶	-9.25774
姜	-9.25812
男	-9.25875
段	-9.2589
宋板足利本同	-9.25942
楊	-9.26258
並同	-9.26288
黃	-9.26508
夾	-9.2655
恩	-9.26593
紂	-9.26625
敖	-9.26674
訟	-9.2683
不當	-9.26833
聘	-9.26875
不過	-9.26897
䘮	-9.26953
怒	-9.27058
磬	-9.27125
境	-9.27239
攝	-9.27391
棘	-9.27533
邊	-9.2755
說文云	-9.27561
縱	-9.27571
則是	-9.27624
章指	-9.27719
十二年	-9.27775
單	-9.27855
亦不	-9.27994
回	-9.28013
池	-9.28403
又有	-9.2841
筮	-9.28453
襲	-9.28473
見於	-9.28507
捨	-9.28573
祭祀	-9.28655
九五	-9.28674
九年	-9.28727
板	-9.28749
下並同	-9.29051
詞	-9.29082
知其	-9.29165
偽	-9.2923
班	-9.2924
其義	-9.29254
六年	-9.29423
熟	-9.29619
渠	-9.29683
辯	-9.29699
續	-9.29749
賊	-9.29758
烏路	-9.29784
骨	-9.30174
財	-9.3018
寛	-9.30197
葉左四行	-9.30306
以其	-9.30332
俊	-9.30554
麻	-9.30571
永	-9.30739
用之	-9.31005
言其	-9.31012
收	-9.31056
而為	-9.31138
去聲	-9.3121
伊川	-9.31257
翼	-9.3144
穆	-9.31485
谷	-9.31493
循	-9.31569
祗	-9.31617
否曰	-9.3167
本亦	-9.31818
十二月	-9.31832
十一年	-9.32114
之屬	-9.32133
无咎	-9.32152
丑	-9.32341
彌	-9.32411
廬	-9.3242
璧	-9.32551
講	-9.32614
二十五	-9.3264
基	-9.32667
相似	-9.32685
八年	-9.32721
不是	-9.32771
朱子	-9.32821
析	-9.32845
雞	-9.32893
茅	-9.32909
菜	-9.33195
彊	-9.33368
自是	-9.33467
編	-9.33536
刃	-9.33537
之說	-9.33681
不可以	-9.33682
千里	-9.33701
乃旦	-9.33736
禽	-9.33761
馬云	-9.33779
酉	-9.33897
如是	-9.34072
之行	-9.34149
舟	-9.34266
屯	-9.34307
勸	-9.34339
根	-9.34383
各有	-9.34475
閑	-9.34504
之制	-9.3462
縁	-9.34774
送	-9.3481
燭	-9.34854
關	-9.35043
杖	-9.35102
道也	-9.3515
妃	-9.35271
曾	-9.35534
十五年	-9.35625
蒼	-9.35631
三章	-9.35812
服䖍	-9.3584
反注同	-9.35901
三字	-9.35924
甘	-9.36166
狩	-9.36271
蘇	-9.36574
奴	-9.36629
周之	-9.36783
或曰	-9.36813
嫡	-9.36839
覺	-9.36872
吉凶	-9.36915
藉	-9.3711
袁	-9.37127
公孫	-9.37397
不相	-9.37455
敵	-9.37627
起吕	-9.3765
節傳	-9.37668
三百	-9.37674
禍	-9.37764
伏羲	-9.37792
葛	-9.3799
大學	-9.38055
劉音	-9.38128
露	-9.38153
倍	-9.38165
稽	-9.38183
誥	-9.38259
子路	-9.3841
二十四	-9.38495
㫖	-9.38579
笑	-9.38594
淳	-9.38609
忌	-9.38671
彖辭	-9.38717
也今	-9.38775
試	-9.38804
詔	-9.38925
可知	-9.39046
宰	-9.39113
即位	-9.39314
恤	-9.39522
味	-9.39527
僖公	-9.39551
稷	-9.39551
束	-9.39565
忍	-9.39627
僕	-9.39665
愈	-9.39666
叙	-9.3969
壬	-9.39693
不為	-9.39717
勢	-9.39776
譏	-9.39778
陟	-9.39937
温	-9.39965
所云	-9.39999
鐘	-9.40001
者以	-9.40013
援	-9.40181
淵	-9.40194
得其	-9.40286
此言	-9.40287
幣	-9.4035
彼列	-9.40583
徑	-9.40595
密	-9.40612
題	-9.40657
的	-9.4074
一篇	-9.40809
之謂	-9.40886
竊	-9.41048
之功	-9.41049
陰	-9.41161
文公	-9.41188
則不	-9.41298
見得	-9.41508
䟽	-9.41518
其説	-9.41576
竒	-9.41625
緯	-9.42014
一箇	-9.42036
見其	-9.42176
不如	-9.42307
九三	-9.42391
須是	-9.42474
臧	-9.42569
慢	-9.4263
徹	-9.42691
又問	-9.42793
軌	-9.42967
明堂	-9.43013
昭公	-9.43016
曽	-9.43019
黑	-9.43043
先儒	-9.43053
累	-9.43055
壽	-9.43121
決	-9.43123
辛	-9.43547
䇿	-9.4355
不用	-9.43551
偃	-9.43555
八卦	-9.43566
飯	-9.43568
辱	-9.43631
稅	-9.437
禮樂	-9.4375
姬	-9.43869
六二	-9.43887
揖	-9.44008
倚	-9.44121
宮	-9.44202
遍	-9.44233
一句	-9.44262
者謂	-9.44353
大抵	-9.44403
受命	-9.4441
彖傳	-9.44475
説得	-9.4453
放此	-9.4458
兊	-9.44882
悦	-9.44915
靡	-9.45178
十三年	-9.45212
横	-9.45215
齋	-9.45332
效	-9.4536
棺	-9.45623
麗	-9.45649
罰	-9.45657
蕩	-9.45671
昧	-9.45732
歷	-9.45866
遜	-9.45889
齊人	-9.46183
仰	-9.4624
馮	-9.46244
說文作	-9.46278
壯	-9.46429
于僞反下	-9.46599
卯	-9.46627
絲	-9.46642
臺	-9.46661
伊	-9.46739
繫辭	-9.46809
祔	-9.46824
弟子	-9.46898
莊公	-9.46957
而有	-9.47102
冬至	-9.47171
豕	-9.47252
麟	-9.4731
吝	-9.47319
貶	-9.47348
啓	-9.47361
七月	-9.47423
初九	-9.47566
註云	-9.47581
栗	-9.47719
其言	-9.47788
補遺釋文	-9.47844
塟	-9.47875
奪	-9.47905
訛	-9.47936
下有之也二字	-9.47947
六三	-9.48042
則有	-9.48066
象曰	-9.481
諡	-9.48117
監本	-9.48162
反一音	-9.48244
丁丈	-9.48293
下有也字疏	-9.48363
供	-9.48364
託	-9.4843
裘	-9.48628
則為	-9.48643
不成	-9.4867
葉右五行	-9.4874
補遺古本經	-9.48884
午	-9.48886
将	-9.49059
三日	-9.4917
六五	-9.49214
懐	-9.49443
桀	-9.49472
恥	-9.49482
𤣥	-9.49589
東方	-9.49771
洽	-9.49781
宗廟	-9.49854
狐	-9.49925
崩	-9.50012
墓	-9.50038
呉	-9.50041
賈逵	-9.50212
幸	-9.50261
者非	-9.50277
反又音	-9.50351
穴	-9.50403
附近	-9.50472
葉左五行	-9.5054
岳	-9.50545
繹	-9.50574
奚	-9.50594
遯	-9.50601
鬼神	-9.50701
偶	-9.50716
河圖	-9.50874
足以	-9.50932
上九	-9.50937
屨	-9.51007
十月	-9.51036
其中	-9.51048
幹	-9.51084
願	-9.51094
塗	-9.51095
㣲	-9.51219
郭音	-9.51335
君之	-9.51477
十四年	-9.51595
速	-9.51601
以爲	-9.51645
没	-9.51671
蠱	-9.51793
變化	-9.51967
勉	-9.51987
倒	-9.52111
付	-9.52161
較	-9.52321
閔	-9.52451
故以	-9.526
夕	-9.52639
繩	-9.52714
血	-9.52752
榮	-9.52768
戈	-9.52787
兹	-9.52788
君臣	-9.52813
聖人之	-9.52818
謬	-9.52925
茂	-9.52984
六四	-9.5311
直吏	-9.53185
第	-9.53251
僭	-9.53284
罷	-9.53324
寅	-9.53342
然而	-9.53367
堯典	-9.53448
之學	-9.53494
迹	-9.53558
裳	-9.53603
為是	-9.53619
在上	-9.53624
四十	-9.53723
使之	-9.5373
踰	-9.53862
麥	-9.53889
括	-9.53945
歎	-9.53946
霸	-9.53974
専	-9.54007
太子	-9.54182
韋	-9.54334
渉	-9.54395
祇	-9.54517
遥	-9.54594
笙	-9.54604
其子	-9.54705
婢	-9.54711
葉左八行	-9.54834
王制	-9.54892
隆	-9.55005
貝	-9.55006
戾	-9.55055
酌	-9.55071
其實	-9.55078
矜	-9.55087
借	-9.55113
亦然	-9.55354
國之	-9.55376
彖	-9.55436
俾	-9.55548
拘	-9.55658
匡	-9.55671
惑	-9.55711
墜	-9.55728
䝉	-9.55742
易之	-9.55899
部	-9.55924
香	-9.56053
踐	-9.56168
葉右三行	-9.56199
几	-9.56232
瑞	-9.56253
壇	-9.56265
章句	-9.56279
増	-9.56281
殆	-9.56286
本或	-9.5637
其餘	-9.5637
之貌	-9.56443
數也	-9.56448
民之	-9.56711
貪	-9.56724
蕭	-9.56736
削	-9.56752
傾	-9.56805
左氏作	-9.56816
振	-9.56855
童	-9.56886
顔	-9.56899
桃	-9.57057
故謂之	-9.57096
今之	-9.57111
不在	-9.57237
天子之	-9.57275
閏	-9.57287
取其	-9.57296
一曰	-9.57334
展	-9.57384
晝	-9.57406
者有	-9.57434
晦	-9.57443
限	-9.57462
葉右八行	-9.57491
者不	-9.57668
齊侯	-9.5767
蛇	-9.57869
沙	-9.57906
之日	-9.57919
潮	-9.58027
頗	-9.58086
鼻	-9.58148
旱	-9.5823
苗	-9.58305
晉侯	-9.58309
泥	-9.5852
蜀	-9.58551
十六年	-9.58583
招	-9.58586
不出	-9.58625
及注同	-9.58727
鳩	-9.588
侍	-9.58962
幼	-9.58996
弊	-9.5916
百姓	-9.59278
孔子曰	-9.59328
此是	-9.59564
是謂	-9.59633
階	-9.59688
現	-9.59737
嫌	-9.59793
繇	-9.59802
植	-9.59824
焚	-9.5983
九四	-9.60054
莒	-9.60124
可謂	-9.60208
殯	-9.60248
誓	-9.60259
為一	-9.60317
破	-9.60423
繁	-9.60451
第二	-9.60606
之近	-9.60676
而成	-9.60784
倉	-9.60915
漆	-9.60939
也右	-9.6094
健	-9.60943
亢	-9.60997
蕃	-9.6101
圓	-9.61102
舜典	-9.61471
亥	-9.61523
駕	-9.61556
徂	-9.61586
烈	-9.61604
鑿	-9.61657
如何曰	-9.61778
悲	-9.62083
中有	-9.62109
斬	-9.62117
俎	-9.62201
譽	-9.6225
材	-9.62275
二十八	-9.62501
六十	-9.62546
反下同	-9.62623
不合	-9.62747
柱	-9.6278
走	-9.62801
文言	-9.62823
則以	-9.62897
其文	-9.62963
力呈	-9.62988
行之	-9.63078
六月	-9.63102
巧	-9.63173
為君	-9.63209
牡	-9.6327
俟	-9.63331
榖梁	-9.63364
朋	-9.63423
鄙	-9.63426
襄公	-9.63565
賢者	-9.63634
周官	-9.63729
韓詩作	-9.63975
篤	-9.63981
讀如	-9.63994
晚	-9.64009
粟	-9.64054
穀梁	-9.6408
醴	-9.64081
孔氏	-9.64086
之位	-9.64109
規	-9.6411
赦	-9.64147
薛	-9.64647
嚮	-9.64687
庶子	-9.64692
三公	-9.64698
分明	-9.64702
也鄭	-9.64726
咨	-9.64741
舌	-9.64742
秀	-9.64756
選	-9.64796
併	-9.64814
之有	-9.64919
子夏	-9.65112
緩	-9.65158
也問	-9.652
輒	-9.65258
二十七	-9.65352
驗	-9.65357
藥	-9.65419
嗟	-9.6544
着	-9.65491
及下同	-9.65512
鄭伯	-9.65522
草木	-9.65603
闢	-9.65649
也此	-9.65755
二月	-9.65853
人也	-9.65863
文字	-9.65888
世子	-9.65938
赴	-9.6598
操	-9.66048
究	-9.66111
决	-9.66117
妙	-9.66148
者亦	-9.66153
卜筮	-9.66156
羅	-9.66163
于僞反	-9.66237
弁	-9.66354
在下	-9.66387
子孫	-9.66388
尋	-9.66584
摯	-9.66635
灼	-9.66635
躬	-9.66654
啟	-9.66722
掩	-9.66739
爾雅云	-9.66899
亦是	-9.67045
西南	-9.67198
暮	-9.67286
得之	-9.67289
閉	-9.67301
寶	-9.67364
之徳	-9.67377
時掌	-9.67399
未必	-9.67403
僻	-9.67406
二反	-9.6743
下注同	-9.67645
漢儒	-9.67677
住	-9.67794
是故	-9.67813
中國	-9.67826
一日	-9.67877
叛	-9.67988
此則	-9.6802
上帝	-9.68026
杞	-9.68034
註同	-9.68093
父子	-9.68107
名也	-9.68121
攷	-9.68262
岐	-9.68449
黍	-9.68483
薪	-9.68496
練	-9.68518
藝	-9.68533
搏	-9.6855
儉	-9.68595
初六	-9.68618
税	-9.68633
即是	-9.68675
如字徐	-9.68735
盤庚	-9.68782
之處	-9.68858
十一月	-9.68942
九月	-9.68977
范	-9.69086
音洛	-9.69117
禮也	-9.69159
饋	-9.69161
醢	-9.69166
遠	-9.69287
耦	-9.69301
提	-9.69306
牟	-9.69308
韓詩	-9.69528
東南	-9.69555
庶人	-9.6963
其位	-9.69669
卿大夫	-9.69677
隋	-9.69788
牢	-9.69841
遲	-9.69889
不應	-9.69898
所以為	-9.69911
懷	-9.6993
陷	-9.69965
獄	-9.69975
四章	-9.69979
英	-9.70034
之應	-9.70054
蓍	-9.70059
十七年	-9.70078
之世	-9.70341
為主	-9.70505
遽	-9.70662
崔云	-9.70722
又如	-9.7075
鼔	-9.70872
葉右六行	-9.70973
此詩	-9.71103
邁	-9.71167
今人	-9.71234
波	-9.71243
巫	-9.71252
齒	-9.71308
希	-9.71316
上六	-9.71401
山川	-9.71434
正嘉同	-9.71497
有三	-9.71758
播	-9.7185
帛	-9.71907
翟	-9.71921
腹	-9.71922
股	-9.71973
距	-9.71982
盤	-9.71983
驅	-9.71996
蹇	-9.7201
握	-9.72013
莫不	-9.72071
可也	-9.72082
般	-9.7233
殤	-9.72366
本又	-9.72505
譜	-9.72513
攸	-9.72599
牽	-9.72609
枝	-9.72636
斥	-9.72649
陶	-9.7268
渙	-9.72704
遵	-9.72706
葉右七行	-9.72722
音泰	-9.72724
耆	-9.72727
今作	-9.7273
亦可	-9.72803
需	-9.72817
雖有	-9.72863
程	-9.72923
巢	-9.73281
徙	-9.73327
涉	-9.73384
殘	-9.73403
棟案	-9.73425
閭	-9.73438
之月	-9.73568
者何	-9.73665
之德	-9.7367
域	-9.73779
之樂	-9.73799
博士	-9.73874
後同	-9.73907
賣	-9.73949
版	-9.7401
静	-9.74057
億	-9.74077
萃	-9.74093
而生	-9.74118
行也	-9.74121
剛柔	-9.74246
或云	-9.74306
自有	-9.7435
不行	-9.74389
以豉	-9.74405
十八年	-9.74501
瓜	-9.74587
之前	-9.74607
籍	-9.74693
戍	-9.7473
突	-9.74796
郭云	-9.74827
這箇	-9.74915
道之	-9.74934
其間	-9.751
息亮	-9.75285
之上	-9.75399
逮	-9.7542
之國	-9.75436
於䖍	-9.75439
軒	-9.75466
攘	-9.75481
下有者字	-9.75632
是為	-9.75725
人所	-9.75804
扶又反	-9.75852
綱	-9.75925
之氣	-9.75938
旬	-9.76054
侈	-9.76082
築	-9.76112
頃	-9.76118
饑	-9.76142
一卷	-9.76196
上作	-9.76214
屏	-9.76265
於人	-9.76511
牙	-9.76679
黎	-9.76691
貎	-9.76695
而不知	-9.76746
佞	-9.76819
旗	-9.76834
其心	-9.76941
左傳作	-9.77023
以見	-9.77123
之稱	-9.77136
堯舜	-9.77238
相應	-9.77296
寸	-9.77354
司徒	-9.77363
麋	-9.77472
檢	-9.77486
釐	-9.77579
欽	-9.77621
柄	-9.77622
項	-9.77643
亟	-9.77655
寳	-9.77688
西方	-9.77774
慶	-9.77787
西北	-9.77858
理㑹	-9.77952
毒	-9.78051
四月	-9.78109
七十	-9.78186
羞	-9.78199
鄭玄	-9.78205
隊	-9.78249
隕	-9.78292
呂	-9.78299
闗	-9.78325
黄鍾	-9.78334
萌	-9.78335
眉	-9.78362
也夫	-9.78492
集解	-9.78544
薨	-9.78617
五月	-9.7869
經傳	-9.78692
活	-9.78723
截	-9.78734
孫注	-9.78768
而行	-9.78798
戌	-9.78857
生於	-9.78922
投	-9.79021
第一	-9.79036
冒	-9.79038
筆	-9.79056
傍	-9.79061
直遥	-9.79066
後漢	-9.79075
宣公	-9.79284
墨	-9.79432
寄	-9.79528
天命	-9.79582
淮	-9.79672
天道	-9.79745
敝	-9.79755
袒	-9.79819
六經	-9.80018
微子	-9.80025
故不	-9.80236
婁	-9.80326
牝	-9.80354
鳳	-9.80469
曷	-9.80473
王之	-9.80481
逼	-9.80492
而復	-9.80509
混	-9.80516
二十一	-9.80635
烏路反	-9.80661
揲	-9.80685
亦無	-9.81158
墮	-9.81178
荷	-9.8123
菑	-9.81256
漏	-9.81275
洗	-9.8128
贊	-9.81312
潛	-9.81337
珠	-9.81387
誣	-9.8139
誦	-9.81406
諸侯之	-9.81447
呼報反	-9.81525
哀公	-9.81708
成公	-9.81796
子貢	-9.81813
紆	-9.81865
曲禮	-9.81888
潤	-9.81987
丸	-9.81994
隅	-9.82013
爾雅作	-9.82046
夬	-9.8207
拒	-9.82114
嶽	-9.8214
則無	-9.82305
明矣	-9.82339
挍	-9.8254
煙	-9.8258
或問	-9.82587
事也	-9.82619
壁	-9.82653
者為	-9.82705
溢	-9.82776
鉤	-9.82807
夫婦	-9.82827
仙	-9.82841
當從	-9.82858
策	-9.82882
小雅	-9.82955
何也	-9.82974
刋	-9.82977
忠信	-9.82999
太甲	-9.83057
也又	-9.83303
反郭	-9.83383
宛	-9.83443
冥	-9.83463
侮	-9.83492
縮	-9.83512
苞	-9.8354
召公	-9.83603
壊	-9.83605
馬融	-9.83605
錢	-9.83615
栁	-9.83634
邵	-9.83779
陽氣	-9.8379
之則	-9.83811
百里	-9.84084
其君	-9.84106
朱傳	-9.84122
沃	-9.84132
出入	-9.84268
濁	-9.8431
悖	-9.84355
溺	-9.84366
幅	-9.84391
字足利本同	-9.84578
九州	-9.84588
其身	-9.84642
皆不	-9.84648
滕	-9.84795
宣王	-9.84806
文武	-9.84892
冰	-9.8493
佚	-9.8496
副	-9.84973
竭	-9.85001
囚	-9.8503
媵	-9.85042
減	-9.85099
之服	-9.85105
知之	-9.85111
五帝	-9.85238
仁者	-9.85246
無不	-9.85316
名曰	-9.85338
飲食	-9.85365
夭	-9.85627
非从	-9.8569
寫	-9.85716
割	-9.85755
館	-9.8584
沒	-9.85895
懲	-9.85927
台	-9.85969
當以	-9.86026
國語	-9.86045
傳曰	-9.8611
駁	-9.86269
箕子	-9.86277
直遥反	-9.86349
之故	-9.8647
絰	-9.86475
一云	-9.86571
字或作	-9.86601
朋友	-9.86604
圉	-9.86627
刪	-9.86657
算	-9.86705
闕文	-9.86714
其人	-9.86815
大人	-9.86901
小序	-9.86979
裏	-9.86999
五章	-9.87033
安得	-9.87067
墳	-9.87174
彭	-9.87183
一百	-9.87201
之美	-9.87258
曽子	-9.87321
之初	-9.87338
拂	-9.87351
天地之	-9.87365
鄰	-9.87381
徽	-9.87415
泄	-9.87436
貧	-9.87444
優	-9.87456
社稷	-9.8755
八月	-9.87559
者則	-9.87702
甲子	-9.87808
東北	-9.87817
不明	-9.87831
玉篇	-9.87901
之極	-9.87918
答曰	-9.88078
豳	-9.88283
綴	-9.88287
壺	-9.88297
玩	-9.88307
伊尹	-9.88327
三十六	-9.88506
一字	-9.8872
樊	-9.88727
彖曰	-9.88813
無道	-9.88904
醉	-9.88919
灌	-9.88979
阻	-9.88992
汙	-9.89007
宴	-9.89033
禱	-9.89038
籥	-9.89079
應對	-9.89083
嬴	-9.89092
逃	-9.89095
裼	-9.89102
宻	-9.89112
懸	-9.89116
裁	-9.8919
此章	-9.89191
大也	-9.89374
遣	-9.89376
六葉	-9.89393
豈有	-9.89401
輪	-9.89448
太極	-9.89542
慈	-9.89702
測	-9.89766
犧	-9.89773
雄	-9.89777
皆然	-9.89777
粉	-9.89783
敕	-9.89823
荅	-9.89836
趣	-9.89847
旨	-9.89852
朕	-9.89907
㸔	-9.89931
八十	-9.89948
泰誓	-9.89958
下有也字釋文	-9.8999
中央	-9.90108
箋云	-9.90122
武公	-9.90418
伏生	-9.90433
妹	-9.9053
狗	-9.9055
始於	-9.90565
扈	-9.90579
鞠	-9.90622
穿	-9.9069
夀	-9.90713
且如	-9.90746
晏	-9.90847
也言	-9.90855
亦云	-9.90893
字從	-9.909
之難	-9.90921
丁丈反	-9.91022
三十二	-9.91034
書曰	-9.91089
失其	-9.91114
巾	-9.91199
書之	-9.91223
而得	-9.91322
祠	-9.9137
程傳	-9.91371
反字林	-9.91372
緦	-9.91391
寘	-9.91441
祁	-9.91448
捷	-9.91464
琴	-9.91555
怠	-9.91563
虛	-9.91606
談	-9.91607
僣	-9.91663
以成	-9.91699
所吏	-9.9181
丙	-9.91872
通用	-9.91886
上文	-9.91887
若是	-9.91976
其道	-9.92022
荆	-9.92219
賛	-9.92285
眞	-9.92328
摩	-9.92359
補遺	-9.92391
屢	-9.92402
奄	-9.92414
聴	-9.92422
迷	-9.92428
其後	-9.92429
僞	-9.9257
故有	-9.92573
不可曉	-9.92668
狀	-9.92944
二本	-9.92978
故言	-9.93123
狂	-9.93159
遏	-9.93192
不通	-9.93196
戲	-9.93207
病也	-9.93226
殿	-9.93283
渡	-9.93377
秘	-9.93426
使人	-9.93605
古之	-9.93629
所引	-9.93634
於天	-9.93653
節箋	-9.93713
羔	-9.93772
法也	-9.93827
十葉	-9.93968
艱	-9.93981
王命	-9.93983
滑	-9.93984
沛	-9.93987
濡	-9.93992
肩	-9.94013
猛	-9.94032
酢	-9.94037
禪	-9.94049
有功	-9.94049
區	-9.9406
遭	-9.94067
簋	-9.94089
頤	-9.94111
乖	-9.94115
哲	-9.94128
不善	-9.94159
剥	-9.94204
買	-9.94322
孔傳	-9.94339
毗	-9.94756
皆為	-9.94779
冀	-9.94793
讀書	-9.94794
工夫	-9.94811
郤	-9.94822
逢	-9.94858
爻辭	-9.94862
一陽	-9.94876
芻	-9.94877
沮	-9.9488
取之	-9.94886
後放此	-9.94916
事之	-9.94924
磨	-9.94947
譬	-9.94986
正也	-9.94987
巻	-9.95022
絃	-9.95054
去下	-9.95098
皇極	-9.95233
周書	-9.95269
並無	-9.95309
男女	-9.95429
雩	-9.95473
有此	-9.95503
瀆	-9.95588
牆	-9.95615
之情	-9.95632
見之	-9.95671
創	-9.9571
髮	-9.95718
虢	-9.95729
仇	-9.95736
圜	-9.95743
秉	-9.95759
軫	-9.95764
遥反	-9.95769
準	-9.95796
醫	-9.95814
壞	-9.95846
繆	-9.95864
顛	-9.95887
大功	-9.9591
也鄭注	-9.95973
二十二	-9.96009
不稱	-9.96013
賢遍反	-9.96018
之内	-9.96143
為正	-9.96214
不从	-9.96248
乆	-9.9627
之於	-9.9628
暫	-9.96353
一時	-9.96412
女子	-9.96466
反李	-9.96485
為人	-9.96557
韋昭	-9.96563
義理	-9.96576
欒	-9.96622
考異宋板疏	-9.96638
矩	-9.96711
黜	-9.96722
憲	-9.96739
歛	-9.96822
喪服	-9.96956
衍字	-9.96978
之道也	-9.97013
之長	-9.971
二傳作	-9.97204
季氏	-9.97214
絜	-9.97375
旌	-9.97418
瑕	-9.97452
拾	-9.97461
僅	-9.97509
它	-9.9751
二十九	-9.97532
之所以	-9.97632
焦	-9.97643
底意思	-9.97673
經典釋文	-9.97705
國君	-9.97713
地名	-9.9773
補脱	-9.97783
氷	-9.97914
南方	-9.98025
子之	-9.98033
之精	-9.98068
觀之	-9.98158
貨	-9.98289
整	-9.9831
弛	-9.9833
陂	-9.98338
挾	-9.98375
愆	-9.98382
同姓	-9.98405
徳之	-9.98433
完	-9.98456
盍	-9.98459
貳	-9.98481
尺證	-9.98514
争	-9.98547
后妃	-9.98573
二十三	-9.98673
其徳	-9.9869
佳	-9.98811
從之	-9.98825
不易	-9.9889
以豉反	-9.98905
所主	-9.98957
辭也	-9.99036
三家	-9.99088
鼠	-9.99096
欺	-9.99098
樂記	-9.99098
所載	-9.99207
畔	-9.99223
恨	-9.99245
臭	-9.99282
花	-9.99284
乂	-9.99287
威儀	-9.99348
杜預	-9.99361
㬊淵錄	-9.99384
羣臣	-9.9948
其名	-9.99512
猶言	-9.9964
畝	-9.99899
中正	-9.99906
神明	-9.99952
浪	-9.9996
爲之	-9.99992
謁	-10.0003
四海	-10.0005
藻	-10.0007
舅	-10.0009
洪	-10.0009
笄	-10.001
在此	-10.001
曉	-10.0013
羲	-10.0015
組	-10.0016
一作	-10.0017
有一	-10.0018
殺之	-10.002
零	-10.0021
吹	-10.0023
亭	-10.0023
諧	-10.0023
陋	-10.0025
弦	-10.0026
釋文作	-10.0028
正義曰	-10.0029
卓	-10.0031
今本	-10.0039
諸儒	-10.0044
一事	-10.0054
不正	-10.0071
不好	-10.0087
周人	-10.0091
於外	-10.0097
考之	-10.0099
此皆	-10.01
鵠	-10.0101
宥	-10.0102
緝	-10.0102
潔	-10.0103
驚	-10.0103
盜	-10.0104
警	-10.0104
膏	-10.0106
詐	-10.0107
躍	-10.0111
計反	-10.0111
奥	-10.0112
之變	-10.0112
七葉	-10.0115
盟于	-10.0117
無有	-10.0117
孔安國	-10.0123
象傳	-10.0139
以前	-10.0146
先後	-10.0153
無所不	-10.0156
東西	-10.0159
也玉篇	-10.016
魄	-10.0161
息亮反	-10.0162
而不能	-10.0165
故知	-10.0165
而能	-10.0171
愼	-10.0182
苑	-10.0184
緜	-10.0186
懈	-10.0195
霜	-10.0196
虐	-10.0198
織	-10.0203
考異足利本註	-10.0204
九葉	-10.0205
之官	-10.0214
擯	-10.0217
二句	-10.0224
叔孫	-10.0231
本無	-10.0245
暇	-10.0248
止也	-10.0251
雜記	-10.0259
十卷	-10.0262
下孟反	-10.0263
或謂	-10.0264
一本無	-10.0272
則知	-10.0274
箭	-10.0284
字子	-10.029
是説	-10.0291
斧	-10.0293
補脫	-10.0293
大衍	-10.0295
牖	-10.0298
寓	-10.0298
武成	-10.0299
之物	-10.03
百官	-10.03
祧	-10.0304
兑	-10.0305
十七葉	-10.0312
駟	-10.0325
交反	-10.0331
以明	-10.0343
昌慮	-10.0346
其書	-10.0355
亦以	-10.0357
以禮	-10.0361
萊	-10.0374
廷	-10.0375
蜃	-10.0376
董	-10.0377
在位	-10.0379
趾	-10.038
之末	-10.0384
疇	-10.0385
未知	-10.0385
也也上有之字	-10.0386
判	-10.0387
瞽	-10.0387
補闕	-10.0388
湛	-10.0389
源	-10.0392
糾	-10.0401
措	-10.0401
進退	-10.0404
二十六	-10.0405
者如	-10.0409
國人	-10.0425
非禮	-10.0432
絶句	-10.0455
之語	-10.0468
昆	-10.0469
頓	-10.047
獵	-10.0477
爰	-10.048
擾	-10.048
平王	-10.0481
值	-10.0482
為天	-10.0485
弘	-10.0485
十九葉	-10.0486
廿二行	-10.0489
也然	-10.0492
隋書三十二	-10.0493
邱	-10.0501
鴆	-10.0506
李注	-10.0511
如此則	-10.0513
以後	-10.0517
祭之	-10.0536
相近	-10.0548
敏	-10.056
七十二	-10.056
繩證反	-10.0565
癸	-10.0566
狹	-10.0567
梅	-10.0572
濫	-10.0576
酬	-10.0576
肺	-10.0578
天理	-10.0581
渭	-10.0582
瑟	-10.0582
八葉	-10.0596
下音	-10.0615
下注	-10.0617
銳	-10.0622
長子	-10.0628
永同	-10.0642
之為言	-10.0646
其國	-10.0646
欽定四庫全書七經孟子考文補遺卷	-10.0656
終始	-10.066
夏至	-10.0662
賀	-10.0662
鬯	-10.0668
浸	-10.0668
庾	-10.0671
則必	-10.0672
矯	-10.0672
字疏	-10.0676
蠻	-10.0679
廉	-10.0683
科	-10.0689
之用	-10.0692
宋板無	-10.0699
勾	-10.0706
音餘	-10.0707
九十	-10.0708
此説	-10.0708
分為	-10.071
鄭註	-10.0713
梓	-10.0735
以至	-10.074
及其	-10.0749
巡	-10.0752
朝服	-10.0755
弋	-10.0756
闇	-10.0759
上去	-10.076
燔	-10.0762
低	-10.0777
纔	-10.078
琢	-10.0781
邾	-10.0783
下文同	-10.0785
㡬	-10.0787
其意	-10.0787
以示	-10.079
下共有也	-10.0803
古文尚書	-10.0818
已上並	-10.0824
其為	-10.0826
二人	-10.084
之謂也	-10.0844
鄫	-10.0857
善也	-10.0857
贄	-10.0858
柳	-10.0863
撫	-10.0867
許多	-10.0868
奮	-10.087
矛	-10.087
壻	-10.0871
十八葉	-10.0871
貉	-10.0873
荼	-10.0875
五經	-10.0877
寵	-10.0878
后稷	-10.0879
鄭康成	-10.0885
証	-10.089
之體	-10.0898
賢人	-10.0901
之實	-10.0907
卷中	-10.0908
天子諸侯	-10.0918
序疏	-10.0928
子思	-10.0947
暑	-10.095
蒐	-10.0958
魂	-10.0958
者是	-10.0963
悌	-10.0963
柴	-10.0966
阿	-10.0966
三千	-10.0967
稻	-10.0967
㢲	-10.0972
染	-10.0972
吁	-10.0974
亳	-10.0975
為大	-10.098
十二葉	-10.0988
峻	-10.099
至此	-10.0999
國名	-10.1
其地	-10.1001
惡之	-10.1012
定公	-10.1022
十五葉	-10.103
第十	-10.1037
所傳	-10.1041
五葉	-10.1044
推之	-10.1048
之際	-10.1049
所作	-10.1051
皆放此	-10.1053
脊	-10.1053
也注同	-10.1054
佗	-10.1059
暗	-10.1063
抱	-10.1065
毎	-10.1068
穫	-10.1069
闔	-10.1073
迭	-10.1076
輅	-10.1078
大小	-10.108
一葉	-10.1081
尊卑	-10.1087
神農	-10.1089
亦非	-10.1115
太平	-10.1126
報反	-10.1129
想	-10.1133
易曰	-10.1136
雖然	-10.1139
旄	-10.1149
之性	-10.1151
兒	-10.1154
橋	-10.1156
僚	-10.1156
讙	-10.116
求之	-10.1161
賞	-10.117
前後	-10.1173
伸	-10.1173
詠	-10.1175
北方	-10.1177
小過	-10.1189
際	-10.1195
之始	-10.1203
而立	-10.1207
乾之	-10.1209
去又	-10.1211
受之	-10.1215
恐非	-10.1241
結反	-10.1253
曠	-10.1261
斤	-10.1262
一月	-10.1264
滋	-10.1264
堪	-10.1266
其辭	-10.1269
邢	-10.127
痛	-10.1271
昭穆	-10.1273
矣故	-10.1273
大國	-10.1277
秩	-10.1278
樞	-10.1278
歡	-10.1279
篆	-10.1282
繩證	-10.1282
无妄	-10.1296
是非	-10.1303
觀其	-10.1305
固有	-10.1305
之㑹	-10.1322
碑	-10.1344
其一	-10.1355
輦	-10.1356
物之	-10.1357
阮	-10.1361
迫	-10.1366
疏云	-10.1367
蚤	-10.1371
直吏反	-10.1371
絞	-10.1371
祫	-10.1372
錦	-10.1372
筐	-10.1374
兮反	-10.1377
乞	-10.1377
嘆	-10.1379
跡	-10.1379
雒	-10.1379
仁義	-10.138
膚	-10.1382
叶	-10.1383
汭	-10.1384
諸本	-10.1385
直用	-10.1388
説文作	-10.1391
讀曰	-10.1397
不從	-10.1398
故為	-10.1436
所言	-10.1438
箕	-10.144
石經	-10.144
意思	-10.1441
臯	-10.1445
人者	-10.1452
俘	-10.1467
蒸	-10.1469
摇	-10.147
三葉	-10.147
理也	-10.1471
釁	-10.1474
知者	-10.1476
緇	-10.1477
慝	-10.1477
管仲	-10.1483
翰	-10.1484
釋文云	-10.1487
朝廷	-10.149
來朝	-10.149
覲	-10.149
詩曰	-10.1492
姤	-10.1499
五星	-10.1501
或有	-10.1509
之誤	-10.1511
有二	-10.1523
才用反	-10.1528
孝子	-10.153
也也上有者字	-10.1531
不足以	-10.1539
楚子	-10.1541
二曰	-10.1542
法度	-10.1546
如字劉	-10.1553
彫	-10.1557
也按	-10.1558
大雅	-10.156
聲之誤也	-10.1563
氣也	-10.1572
縫	-10.1573
蔑	-10.1577
世家	-10.1577
盥	-10.1577
筵	-10.158
燎	-10.1581
藩	-10.1582
注皆同	-10.1583
雀	-10.1583
觧	-10.1583
恃	-10.1585
衷	-10.1585
頒	-10.1586
韶	-10.1586
父之	-10.1587
竝	-10.1588
鯀	-10.1591
無也字	-10.1592
悟	-10.1597
司空	-10.1602
六十四卦	-10.1605
足利本同釋文	-10.161
門人	-10.1619
之一	-10.163
者其	-10.1631
未濟	-10.1639
三代	-10.1639
未詳	-10.164
音預	-10.1667
古今	-10.1669
丁仲反	-10.167
鉏	-10.1678
蓼	-10.1681
言語	-10.1684
詩人	-10.1685
邇	-10.1687
品	-10.1691
把	-10.1692
賴	-10.1693
勺	-10.1694
隔	-10.17
之徒	-10.1711
食之	-10.1722
並如字	-10.1724
之正	-10.1728
所見	-10.173
教人	-10.174
非是	-10.1744
劉向	-10.1749
字同	-10.1756
氏之	-10.1772
茀	-10.1778
侑	-10.1781
蟹	-10.1783
纓	-10.1784
螽	-10.1787
粥	-10.1788
苴	-10.179
穢	-10.1791
愬	-10.1791
凝	-10.1793
讒	-10.1794
訊	-10.1795
饌	-10.1797
宏	-10.1798
也謂	-10.1801
起吕反	-10.1808
增	-10.1815
之閒	-10.1839
倦	-10.1842
關雎	-10.185
反沈	-10.185
國風	-10.1853
影	-10.1854
文章	-10.1856
自家	-10.1858
二十五年	-10.1859
此書	-10.1863
十一葉	-10.1867
不信	-10.1871
之喪	-10.1872
故其	-10.1874
弼	-10.1879
曾子	-10.1879
爲其	-10.1882
鄭作	-10.1887
劣	-10.1889
大過	-10.1894
戮	-10.1895
也故曰	-10.1897
狼	-10.1898
史記注三十	-10.1899
惰	-10.1902
枚	-10.1903
豚	-10.1903
脾	-10.1904
鸞	-10.1904
姦	-10.1904
玉藻	-10.1905
之神	-10.1908
祐	-10.1909
文王之	-10.1911
従	-10.1912
康誥	-10.1914
鈎	-10.1915
惕	-10.1917
之本	-10.1922
不待	-10.1924
反說文云	-10.1924
夷狄	-10.1926
内外	-10.1932
十三葉	-10.1937
不忍	-10.1937
親親	-10.1945
道心	-10.1948
不至	-10.1949
入于	-10.1949
三分	-10.1956
出奔	-10.1962
猶有	-10.1965
時也	-10.1968
萬里	-10.1984
何如	-10.1985
魯人	-10.1987
叢	-10.1992
札	-10.1999
鼈	-10.2
臘	-10.2002
衝	-10.2004
字作	-10.2005
稼	-10.2007
驪	-10.2009
醜	-10.2009
物也	-10.2009
肥	-10.201
鬱	-10.2011
所出	-10.2011
灰	-10.2012
紫	-10.2012
考異古本序	-10.2014
顓頊	-10.2016
二十葉	-10.2019
枉	-10.2019
大禹謨	-10.2024
輯	-10.2028
鄒	-10.2032
頂	-10.2034
也孫注	-10.2035
康成	-10.2043
賢徧	-10.2045
當在	-10.2053
崔本作	-10.206
天文	-10.206
以象	-10.2069
未見	-10.2071
監本脱	-10.2071
有箇	-10.2072
之臣	-10.2073
失之	-10.2077
古亂	-10.208
禮之	-10.2083
不盡	-10.2085
十四葉	-10.2091
大臣	-10.2097
中間	-10.2099
也無也字	-10.2099
二葉	-10.2103
異於	-10.2103
分别	-10.2105
内則	-10.2107
頑	-10.2108
元文作	-10.2114
珍	-10.2117
次序	-10.2119
刈	-10.212
踊	-10.2122
脯	-10.2123
贈	-10.2124
圃	-10.2127
偪	-10.2128
祕	-10.2129
考工記	-10.213
怡	-10.2133
奇	-10.2133
程子	-10.2133
洛書	-10.2138
春秋傳	-10.2144
文作	-10.2149
詩作	-10.2152
太守	-10.2159
卦之	-10.2174
平聲	-10.2181
矣然	-10.2182
之分	-10.2185
二十八年	-10.2189
男子	-10.2214
人事	-10.2225
欽定四庫全書	-10.2233
隷	-10.2234
枕	-10.2235
變而	-10.2236
諒	-10.2236
慕	-10.2237
殽	-10.2239
誕	-10.224
誨	-10.2241
蓄	-10.2242
伍	-10.2243
飲酒	-10.2248
叟	-10.2248
以來	-10.2256
姚	-10.2259
之罪	-10.2262
字林云	-10.2262
流行	-10.2269
曰天	-10.2295
之母	-10.23
便有	-10.2302
者言	-10.2305
叚	-10.2306
服之	-10.2309
一書	-10.2327
津	-10.2334
見于	-10.2336
易傳	-10.2337
也鄭云	-10.2337
之使	-10.2344
拔	-10.2344
驂	-10.2345
因其	-10.2347
函	-10.2347
入於	-10.2347
滌	-10.2348
敘	-10.2348
櫟	-10.2349
膳	-10.2355
箴	-10.2356
涕	-10.2359
歆	-10.2362
聲也	-10.2367
宋公	-10.237
命之	-10.2371
教之	-10.2373
故也	-10.2373
為作謂	-10.238
三篇	-10.2389
未能	-10.2392
故稱	-10.24
於是乎	-10.2408
不動	-10.2411
何也曰	-10.2415
之至	-10.2428
過也	-10.243
聖賢	-10.2435
字亦作	-10.2437
天王	-10.2445
牀	-10.2445
壹	-10.2459
樂之	-10.2461
覽	-10.2462
四象	-10.2462
脅	-10.2463
柩	-10.2463
壤	-10.2464
首章	-10.2464
翦	-10.2465
給	-10.2466
汎	-10.2466
於上	-10.2467
囿	-10.2467
快	-10.2467
觸	-10.2474
疎	-10.2477
㝠	-10.2478
音嗣	-10.2481
並史記注三十	-10.2483
水火	-10.2487
下去	-10.2496
不已	-10.2496
之志	-10.2497
公羊傳	-10.2509
易中	-10.2515
先王之	-10.252
者乎	-10.2523
今日	-10.2525
銜	-10.2542
是如此	-10.2543
三本	-10.2548
四葉	-10.2552
蔡傳	-10.2564
話	-10.2564
劒	-10.2566
濯	-10.2567
頻	-10.2573
裹	-10.2576
貍	-10.2578
饒	-10.258
溝	-10.258
不勝	-10.2582
於君	-10.2585
瞻	-10.2586
縷	-10.2586
随	-10.2589
緇衣	-10.2589
息浪	-10.2593
畿内	-10.2596
别有	-10.2597
臯陶	-10.2598
益稷	-10.2601
何必	-10.2609
亦曰	-10.2639
在天	-10.2643
此亦	-10.2647
甚矣	-10.2652
亮反	-10.2657
何謂	-10.2662
三十三	-10.2664
好惡	-10.2665
渾	-10.267
然也	-10.2672
南北	-10.2674
不止	-10.2679
而非	-10.268
下有者也二字	-10.2694
止於	-10.2695
觚	-10.2696
棲	-10.2696
賵	-10.2697
熒	-10.27
丕	-10.2702
翻	-10.2703
墟	-10.2705
氏曰	-10.2707
𢎞	-10.2709
奢	-10.2711
反或	-10.2714
親迎	-10.2718
馬本作	-10.2721
事君	-10.2722
君子之	-10.2727
如何對曰	-10.273
有九	-10.2731
六爻	-10.2755
冉	-10.2761
是時	-10.2763
扶又反下	-10.2767
誤也	-10.2768
者必	-10.2793
遁	-10.2812
如今	-10.2813
却是	-10.2815
蹙	-10.2816
技	-10.2818
飢	-10.2818
翳	-10.2818
吕刑	-10.2819
魁	-10.2819
國中	-10.282
昆弟	-10.2822
肄	-10.2822
暢	-10.2823
熙	-10.2824
懿	-10.2824
嗚呼	-10.2826
窒	-10.2828
而后	-10.2832
禮義	-10.2834
昨	-10.2836
莊子	-10.2844
字下	-10.2846
不解	-10.2849
之大	-10.2852
訓為	-10.2861
樂也	-10.2861
上面	-10.2865
欲其	-10.2875
鹽	-10.2893
之君	-10.2909
綸	-10.2911
日食	-10.2911
頰	-10.2915
眷	-10.2918
音恱	-10.2922
王注	-10.2923
公劉	-10.2923
葵	-10.2924
豬	-10.2927
而已矣	-10.2928
馳	-10.293
蠶	-10.2931
無窮	-10.2932
彦	-10.2932
姒	-10.2934
為政	-10.2935
袂	-10.2935
蹈	-10.294
盾	-10.2941
藪	-10.2942
傲	-10.2942
餼	-10.2943
而歸	-10.2943
其行	-10.2947
跪	-10.2947
無可	-10.2948
纂	-10.2954
浩	-10.2956
詩照	-10.2957
剝	-10.296
一行注	-10.2964
高宗	-10.2973
三十一	-10.2975
善惡	-10.2978
本文	-10.2978
不知其	-10.2978
先天	-10.2989
戊	-10.3005
第三	-10.3009
雪	-10.3015
碩	-10.3019
以自	-10.3023
小功	-10.3025
之義也	-10.3037
文也	-10.3038
人皆	-10.3039
匿	-10.3046
無之字	-10.3047
在於	-10.3047
瓦	-10.305
纁	-10.3051
宋本	-10.3053
炙	-10.3057
妖	-10.3058
娣	-10.3058
豹	-10.3062
卻	-10.3063
沈僴錄	-10.3064
俞	-10.3067
靖	-10.3068
黙	-10.3068
菽	-10.3068
也然則	-10.307
圗	-10.3072
洒	-10.3072
斁	-10.3076
檜	-10.3078
書云	-10.308
之職	-10.3082
不變	-10.3086
先鄭云	-10.3089
顧命	-10.3092
相見	-10.31
也且	-10.3102
二十年	-10.3103
二卦	-10.3105
既濟	-10.3106
之序	-10.3106
而不可	-10.3114
角反	-10.3121
如之何	-10.3125
傳作	-10.314
天官	-10.3145
个	-10.3149
未聞	-10.316
非謂	-10.3162
淸	-10.3165
所行	-10.3171
十九年	-10.3171
幕	-10.3175
髪	-10.3177
卵	-10.3179
百八十	-10.3179
有司	-10.3179
老子	-10.318
冢	-10.3182
誘	-10.3182
肝	-10.3183
虺	-10.3183
義也	-10.3189
憚	-10.319
殛	-10.319
竇	-10.3191
庇	-10.3196
已有	-10.3197
不失	-10.32
鳥獸	-10.3204
永懐堂同	-10.3206
歷反	-10.3207
夏正	-10.3207
啇	-10.3207
明堂位	-10.3211
之矣	-10.3216
而下	-10.322
輕重	-10.323
往來	-10.3231
此理	-10.3234
似嗟	-10.3236
檀弓	-10.3236
而出	-10.3237
宋板足利本同疏	-10.3241
之盛	-10.3274
曰此	-10.3275
門外	-10.328
橫	-10.3296
髦	-10.3296
潰	-10.3297
緑	-10.3299
繒	-10.3304
旂	-10.3305
績	-10.3306
王子	-10.3306
音烏	-10.3306
愧	-10.3307
拊	-10.3307
辜	-10.3307
嬖	-10.3308
埽	-10.3311
諭	-10.3314
枯	-10.3321
劉歆	-10.3321
惟其	-10.3323
惜	-10.3325
耀	-10.3326
抗	-10.3327
確	-10.3327
時掌反	-10.3329
康節	-10.333
夏之	-10.3331
其次	-10.3339
其他	-10.3345
利貞	-10.3347
有四	-10.3351
不利	-10.3352
而未	-10.3364
二十四年	-10.3383
穆公	-10.3391
久矣	-10.3394
音試	-10.3398
乃是	-10.3398
異義	-10.3403
畿	-10.341
喚	-10.341
歸于	-10.3411
靳	-10.3411
先祖	-10.3412
之節	-10.3413
大傳	-10.3413
觶	-10.3421
塵	-10.3422
無此	-10.3423
一爻	-10.3425
樓	-10.3427
節註	-10.3429
廣韻	-10.3434
阪	-10.3437
鐵	-10.3438
擅	-10.3439
臼	-10.344
炎	-10.344
八百	-10.3444
廿一行注	-10.3445
季孫	-10.3446
也案	-10.3446
言之則	-10.345
無一	-10.3457
六反	-10.3458
三卷	-10.3458
次第	-10.3465
乎此	-10.347
之首	-10.3471
動而	-10.3487
適子	-10.3495
仲子	-10.3496
十八葉左	-10.3508
杜氏	-10.351
居之	-10.3515
舍人注	-10.3519
何為	-10.352
所生	-10.3528
二十二年	-10.3528
用力	-10.3529
狀如	-10.353
所在	-10.3531
七經孟子考文補遺卷	-10.3538
之命	-10.3549
卬	-10.3551
禰	-10.3559
挈	-10.3559
耄	-10.3561
廣雅云	-10.3562
鋪	-10.3565
婉	-10.357
胃	-10.357
員	-10.3571
兌	-10.3572
林學履錄	-10.3573
則又	-10.3573
礙	-10.3574
飭	-10.3576
經作	-10.3581
文云	-10.3592
魚據	-10.3594
則自	-10.3594
周公之	-10.3597
王云	-10.3601
相與	-10.3602
之至也	-10.3611
小子	-10.3616
洛誥	-10.3618
五事	-10.362
棟	-10.3626
之聲	-10.3629
也考異古本註	-10.3629
崇禎本	-10.363
明之	-10.364
中孚	-10.3645
二百	-10.3656
皆可	-10.3657
水經注	-10.3658
反李云	-10.3664
許亮反	-10.3665
其數	-10.3672
文子	-10.3682
睦	-10.3688
喙	-10.3689
喬	-10.3689
拱	-10.3689
鰥	-10.3689
隧	-10.3691
鴻	-10.3692
絺	-10.3692
狎	-10.3694
廣大	-10.3694
冦	-10.3694
亶	-10.3695
阜	-10.3698
可疑	-10.3701
輩	-10.3702
粗	-10.3702
不知何氏錄	-10.3702
大畜	-10.3704
可乎	-10.3705
鄭本作	-10.3706
垣	-10.3708
十二行注	-10.3709
範	-10.371
經書	-10.3713
貌下	-10.3713
凖	-10.3713
世之	-10.3713
太史	-10.3713
毛云	-10.3714
何所	-10.3716
抄本無	-10.3716
使者	-10.3728
君也	-10.3729
上音	-10.3731
二十一年	-10.3763
所當	-10.3765
添	-10.3782
其聲	-10.379
濕	-10.3816
旒	-10.3816
有常	-10.3816
乳	-10.3818
轅	-10.3819
穎	-10.3819
乃旦反	-10.382
臂	-10.382
並作	-10.3825
厄	-10.3825
讎	-10.3825
銘	-10.3827
擬	-10.383
耿	-10.383
倡	-10.383
夘	-10.383
膝	-10.3831
才用	-10.3831
無非	-10.3834
欠	-10.3835
騐	-10.3838
肯	-10.3839
朝夕	-10.384
反司馬云	-10.3841
皷	-10.3841
後來	-10.3842
此之謂	-10.3851
三人	-10.3853
貴賤	-10.3853
六十四	-10.3864
丁歷	-10.3867
當有	-10.3869
不忘	-10.3882
此一	-10.3884
二十三葉	-10.3888
依注音	-10.3888
也韓詩	-10.3889
又以	-10.3892
風雨	-10.3893
故能	-10.3897
卦爻	-10.3899
於其	-10.39
之政	-10.3906
不安	-10.3908
南面	-10.3918
以授	-10.3921
三王	-10.3922
殺人	-10.3924
他人	-10.3935
之廟	-10.3939
三曰	-10.3948
憤	-10.3948
或音	-10.3949
祼	-10.395
拯	-10.3951
絹	-10.3951
靣	-10.3953
亞	-10.3954
兕	-10.3958
激	-10.3963
埋	-10.3964
董銖録	-10.3964
蘭	-10.3964
宇	-10.3965
皆云	-10.3965
逹	-10.3966
屑	-10.3966
猗	-10.3966
虧	-10.3967
桐	-10.3968
𤼵	-10.3973
古文作	-10.3974
芳服	-10.3975
而又	-10.3976
其性	-10.3981
說得	-10.3981
悅	-10.3982
此二	-10.399
集註	-10.3992
鄭音	-10.3995
京師	-10.3996
之類是也	-10.3996
此類	-10.3999
而止	-10.4
所為	-10.4002
杭	-10.4012
成功	-10.4015
王室	-10.4025
二十三年	-10.4025
一物	-10.4032
所吏反	-10.4036
易也	-10.4044
四國	-10.4046
二十四葉	-10.4046
郭璞	-10.4055
有兩	-10.4059
下及	-10.4066
蒿	-10.4074
第一章	-10.4081
麤	-10.4081
註疏	-10.4083
宵	-10.4085
腥	-10.4086
亦未	-10.4088
筴	-10.4089
莧	-10.409
柏	-10.409
隰	-10.4091
孟子曰	-10.4092
殄	-10.4092
㦸	-10.4093
佑	-10.4094
騎	-10.4096
河南	-10.4096
翔	-10.4096
揭	-10.4096
衽	-10.4097
膠	-10.4099
墉	-10.4099
渝	-10.41
劓	-10.4101
視之	-10.4102
晝夜	-10.4102
王季	-10.4103
二十二葉	-10.4103
伋	-10.4105
永懷堂同	-10.4106
韓詩云	-10.4109
頥	-10.411
光明	-10.4115
下有之也	-10.4116
不食	-10.4119
損益	-10.4119
三句	-10.4129
馬傳	-10.4141
昊天	-10.4151
無事	-10.4152
司馬法	-10.4158
亦當	-10.4162
二十一葉	-10.4165
説命	-10.4168
六章	-10.417
不容	-10.4172
不若	-10.4183
戰國	-10.4187
家語	-10.4206
案毛氏居正云	-10.4207
此義	-10.4208
五色	-10.421
之甚	-10.4213
縛	-10.4217
百年	-10.4224
緫	-10.4225
汜	-10.4228
之卦	-10.423
芮	-10.423
謨	-10.423
飽	-10.423
司冦	-10.4231
洩	-10.4233
點	-10.4236
匱	-10.4238
而知	-10.424
翁	-10.4242
緌	-10.4242
文選注	-10.4243
様	-10.4244
夔	-10.4245
蓬	-10.4245
朴	-10.4246
鏘	-10.4247
不爲	-10.4255
二作三	-10.4261
其母	-10.427
地理	-10.4272
治之	-10.4278
若此	-10.4283
管子	-10.4295
二十五葉	-10.4311
䖍	-10.4314
氣象	-10.4319
皆無	-10.432
此篇	-10.4323
若不	-10.4329
徐又	-10.4338
有天下	-10.434
音亦	-10.4343
三十八	-10.4343
菹	-10.4346
註作	-10.4354
下共有也字疏	-10.4355
椒	-10.4355
融	-10.4357
祊	-10.4358
蔓	-10.436
洞	-10.4362
春官	-10.4367
膺	-10.4367
詭	-10.4367
繡	-10.4368
訖	-10.4369
冶	-10.4369
詣	-10.4369
遐	-10.4371
浴	-10.4373
銅	-10.4373
松	-10.4373
霍	-10.4374
殖	-10.4374
披	-10.4375
多少	-10.4376
覩	-10.4376
制度	-10.4377
宋板作	-10.4378
鬻	-10.438
緒	-10.438
鎮	-10.4382
衮	-10.4385
不中	-10.4385
十一行注	-10.4388
匏	-10.4389
分曉	-10.439
不敬	-10.4392
土地名	-10.4396
伯禽	-10.4396
十三葉左	-10.4403
同今本	-10.4405
則曰	-10.4405
也崔云	-10.4418
而好	-10.442
時人	-10.4427
王弼	-10.4427
隠公	-10.4431
王后	-10.4434
當依	-10.4441
下脱	-10.445
二千	-10.4452
讀爲	-10.4453
十四葉右	-10.4463
人情	-10.447
數之	-10.4473
取象	-10.4482
在外	-10.4493
犂	-10.4494
葦	-10.4494
未盡	-10.4498
麇	-10.45
卧	-10.45
汁	-10.4501
涖	-10.4503
圈	-10.4506
御覽	-10.4507
胄	-10.4507
不惟	-10.4507
毛本	-10.4508
褒	-10.4509
轂	-10.4509
則非	-10.451
十行注	-10.451
毛公	-10.4512
逝	-10.4512
郕	-10.4513
事而	-10.4513
茹	-10.4514
摶	-10.4515
春秋之	-10.4515
勅	-10.4516
舂	-10.4516
出來	-10.4517
丁仲	-10.452
其大	-10.4521
藴	-10.4522
豈不	-10.4528
毫	-10.453
一遥	-10.453
歐陽	-10.4532
明夷	-10.4535
文義	-10.4535
征伐	-10.4536
魚吕	-10.4538
騶虞	-10.4539
銀	-10.4545
衆人	-10.4548
以待	-10.4552
六卿	-10.4565
畆	-10.457
萬世	-10.4579
存乎	-10.4586
十有二	-10.4589
齊衰	-10.4592
之狀	-10.4601
反本或作	-10.4603
尊者	-10.4604
也李注	-10.4607
聞之	-10.4614
其德	-10.4621
藏之	-10.4622
惠公	-10.4622
黄道	-10.4623
從而	-10.4635
胤	-10.464
明也	-10.464
人以	-10.4643
紹	-10.4643
姊	-10.4644
挺	-10.4645
固是	-10.4646
帷	-10.465
楚人	-10.465
熱	-10.4651
噫	-10.4652
扞	-10.4653
羮	-10.4655
躋	-10.4655
憑	-10.4655
德行	-10.4658
竄	-10.4658
抽	-10.466
本意	-10.466
考異足利本傳	-10.4661
貽	-10.4667
旃	-10.4667
婚	-10.4668
場	-10.4668
十九行注	-10.467
也足利本	-10.4674
噬嗑	-10.4674
矣夫	-10.4676
存舊	-10.4692
卿士	-10.4707
若夫	-10.4708
發明	-10.471
十二葉右	-10.4712
回反	-10.4716
者謂之	-10.4719
二本同	-10.4721
其時	-10.4725
以致	-10.4726
雖不	-10.4738
之水	-10.4745
之次	-10.4745
古字	-10.4755
字从	-10.4759
下當脱	-10.4781
其志	-10.4782
賄	-10.4787
有罪	-10.4788
衆也	-10.4788
榆	-10.4788
悼	-10.4788
促	-10.479
莞	-10.4791
莖	-10.4792
轡	-10.4794
裔	-10.4796
裂	-10.4797
槁	-10.4797
沂	-10.4797
寐	-10.4799
滯	-10.48
蒯	-10.48
賚	-10.4803
其本	-10.4807
脚	-10.4807
雕	-10.4807
偷	-10.4808
金縢	-10.4809
亷	-10.481
者當	-10.481
信也	-10.481
正是	-10.4811
白虎通	-10.4811
釋文一	-10.4817
看來	-10.482
衣服	-10.4821
宋人	-10.4823
旦反	-10.4829
少陽	-10.483
二十行注	-10.4831
五行注	-10.4845
此意	-10.4847
所記	-10.4848
鄉遂	-10.4853
二十九年	-10.4856
江漢	-10.4859
不欲	-10.4867
引此	-10.4868
夫子之	-10.4869
馬鄭	-10.4869
不服	-10.4869
古亂反	-10.488
動也	-10.4894
音智	-10.4902
者即	-10.4904
大宗	-10.4934
坦	-10.4934
兔	-10.4934
四十五	-10.4936
竈	-10.494
蜡	-10.4944
堵	-10.4945
絳	-10.4945
探	-10.4946
彘	-10.4946
閱	-10.4946
㫁	-10.4946
排	-10.4947
䙝	-10.4947
隙	-10.4948
齎	-10.4948
眚	-10.4949
腊	-10.4949
飱	-10.4951
禫	-10.4953
肱	-10.4954
勲	-10.4955
顔淵	-10.4959
足利本同疏	-10.4959
莫大於	-10.4959
漢志	-10.4962
一節	-10.4965
之治	-10.4967
大事	-10.4968
也从	-10.4972
則當	-10.4973
雲漢	-10.4982
少隂	-10.4985
長也	-10.499
反覆	-10.4995
于僞反下爲	-10.4995
襪	-10.4996
詩傳	-10.4999
衣裳	-10.4999
未可	-10.5001
德之	-10.5007
此時	-10.501
東海	-10.5011
也蓋	-10.5014
乎對曰	-10.5021
太師	-10.503
錄中	-10.5032
芒	-10.5037
草也	-10.5037
弑君	-10.5049
第四	-10.5051
二十六年	-10.5052
直龍	-10.5053
主之	-10.5054
美也	-10.5055
一年	-10.5063
皆在	-10.5064
不厭	-10.5065
土地	-10.5065
河水	-10.5066
以告	-10.5067
帥師	-10.507
無射	-10.5071
五百里	-10.5071
安能	-10.5073
二子	-10.5073
之祭	-10.5076
其說	-10.5078
壅	-10.5082
諸家	-10.5082
䕃	-10.5083
俯	-10.5084
呈	-10.5086
乏	-10.5088
躁	-10.5088
芟	-10.5089
輝	-10.509
大夫士	-10.5091
聶	-10.5092
駭	-10.5093
嘏	-10.5094
筍	-10.5095
鮑	-10.5095
汗	-10.51
縞	-10.5101
愠	-10.5102
燕禮	-10.5102
醮	-10.5103
郊特牲	-10.5103
晳	-10.5105
換	-10.5105
水名	-10.5107
劉礪録	-10.5107
頽	-10.511
同異	-10.5111
概	-10.5111
鹿鳴	-10.5115
灾	-10.5117
矣此	-10.5118
貍首	-10.5121
三寸	-10.5125
造化	-10.5126
貞吉	-10.5128
十六葉	-10.5129
小畜	-10.5131
望之	-10.5133
之事也	-10.5134
闗雎	-10.5138
三傳	-10.5139
集傳	-10.5143
案說文	-10.5144
髙宗	-10.5149
在其中	-10.5149
也一云	-10.5152
昔者	-10.5153
此謂	-10.5159
三十一年	-10.516
非常	-10.5165
庶民	-10.5175
二十七年	-10.519
東門	-10.5195
聘禮	-10.5205
禮者	-10.5206
之田	-10.521
子男	-10.5211
万	-10.5213
於天下	-10.5215
小國	-10.5218
抵	-10.522
頸	-10.5228
丞	-10.5231
嗇	-10.5232
養老	-10.5235
其親	-10.5237
忿	-10.5242
洲	-10.5243
廩	-10.5245
三十年	-10.5246
又何	-10.5246
偕	-10.5246
垢	-10.5246
樸	-10.5247
之士	-10.5247
級	-10.5247
孕	-10.5248
揆	-10.5248
翣	-10.5248
詰	-10.5249
簫	-10.525
畀	-10.525
筭	-10.525
詢	-10.5251
訾	-10.5252
駿	-10.5253
上聲	-10.5255
行注	-10.5255
去其	-10.5256
弧	-10.5257
宋板永懐堂同	-10.5258
多方	-10.5258
睽	-10.526
先君	-10.5263
荀作	-10.5272
不肖	-10.5274
秋官	-10.5279
書序	-10.5291
其功	-10.5295
記云	-10.5295
然亦	-10.5301
乃以	-10.5314
不自	-10.5322
字釋文	-10.5327
君命	-10.5334
豔	-10.5336
以求	-10.5341
家人	-10.5345
第五章	-10.5353
不宜	-10.5354
何休	-10.5355
又去	-10.536
皆從	-10.5368
手又	-10.537
津忍	-10.5376
補本	-10.5381
涯	-10.5382
衍文	-10.5384
羌	-10.5385
曼	-10.5388
䑕	-10.5388
汚	-10.539
弭	-10.539
掘	-10.5394
因之	-10.5394
障	-10.5397
許亮	-10.5398
騂	-10.5399
毗志	-10.54
二篇	-10.54
黍稷	-10.54
髀	-10.5401
彗	-10.5402
二者	-10.5402
月日	-10.5402
製	-10.5402
賔客	-10.5403
該	-10.5403
佛	-10.5404
楯	-10.5404
而上	-10.5405
晷	-10.5407
未成	-10.5411
沉	-10.5412
澄	-10.5416
取義	-10.542
宫室	-10.5423
服注	-10.5424
冀州	-10.5424
曹伯	-10.5428
而死	-10.543
所得	-10.5438
陰陽	-10.5439
做得	-10.544
不離	-10.5441
說卦	-10.5451
衛侯	-10.5457
生民	-10.5457
無逸	-10.546
以正	-10.5476
一般	-10.5497
宗伯	-10.5504
北面	-10.5505
滎	-10.5506
此等	-10.5511
毗志反	-10.5518
其罪	-10.5522
治也	-10.5526
當是	-10.5531
下面	-10.5533
於内	-10.5537
也葢	-10.5537
抄	-10.5538
弄	-10.5542
相傳	-10.5543
噬	-10.5548
音捨	-10.5549
爪	-10.5549
緼	-10.5551
謹按宋板	-10.5552
汶	-10.5553
璋	-10.5553
尉	-10.5555
氐	-10.5556
假借	-10.5556
貊	-10.5557
欣	-10.5558
寤	-10.5558
効	-10.556
音恭	-10.5562
填	-10.5562
補遺宋板註	-10.5562
冬十月	-10.5564
黼	-10.5567
所居	-10.5567
烹	-10.5567
翕	-10.557
標	-10.557
泛	-10.5575
其禮	-10.5577
毛氏	-10.5577
五福	-10.558
公族	-10.5584
奈何	-10.5584
日中	-10.559
矣而	-10.5592
字之誤也	-10.5596
可知矣	-10.5606
終日	-10.5607
太廟	-10.5609
知得	-10.562
之異	-10.562
之善	-10.562
此正	-10.5623
黒水	-10.563
下箋	-10.5641
百二十	-10.5644
公㑹	-10.5645
音汝	-10.5649
名篇	-10.5653
息浪反	-10.5657
下共有也字釋文	-10.567
始也	-10.5677
彼列反	-10.5688
五百	-10.5692
其氣	-10.5694
靑	-10.5695
此句	-10.5695
芝	-10.5696
嬪	-10.5703
舅姑	-10.5705
稚	-10.571
網	-10.5711
眇	-10.5712
圎	-10.5714
晨	-10.5715
儐	-10.5715
漬	-10.5716
息列	-10.5717
禋	-10.5719
罟	-10.5719
舄	-10.5721
盗	-10.5721
纎	-10.5723
紐	-10.5724
夏后氏	-10.5725
獲麟	-10.5726
得失	-10.5727
臆	-10.5727
聿	-10.5728
寜	-10.5733
四曰	-10.5734
字書	-10.5736
也說文云	-10.5746
五服	-10.5749
於義	-10.5753
此語	-10.5754
明日	-10.5754
宣子	-10.5755
上經	-10.5757
二十二葉右	-10.5761
必先	-10.5769
也非	-10.5774
坎離	-10.5774
太白	-10.5779
李音	-10.5781
物事	-10.5788
武帝	-10.5793
兩儀	-10.5793
之㫖	-10.5797
二傳	-10.5799
陸氏	-10.5799
地官	-10.5802
後鄭	-10.5806
反馬云	-10.5812
之三	-10.5819
有不	-10.5823
十九葉右	-10.583
音古	-10.5831
者以其	-10.5835
有五	-10.5838
名為	-10.5842
在中	-10.5849
皆謂	-10.5851
爭鬪	-10.5852
襚	-10.5858
五字	-10.5862
綦	-10.5865
雌	-10.5866
四十六	-10.5867
渚	-10.5869
鬲	-10.5872
簟	-10.5872
若以	-10.5874
依注	-10.5881
祚	-10.5882
讐	-10.5883
二十一葉右	-10.5884
魴	-10.5884
反元文	-10.5893
腎	-10.5893
採	-10.5897
國家	-10.5899
三十五	-10.59
三國	-10.5905
足利本作	-10.5918
字之誤	-10.5919
上有其字	-10.5925
泰山	-10.5936
井田	-10.5937
不息	-10.594
宋永同	-10.5947
者下	-10.5947
不曾	-10.5947
字又	-10.595
三葉左	-10.5961
乎其	-10.5972
一卦	-10.5974
召南	-10.5974
十葉右	-10.5978
於我	-10.5981
産	-10.5984
合於	-10.5988
致其	-10.599
謹按古本	-10.5993
之象也	-10.5994
于此	-10.6005
定本	-10.6006
左傳云	-10.6007
注及下	-10.6008
永懐堂	-10.6011
不順	-10.6015
涇	-10.6017
莽	-10.602
于是	-10.6021
鶉	-10.6023
九江	-10.6023
三禮	-10.6025
崑崙	-10.6026
奭	-10.6028
郢	-10.6029
隹	-10.603
可知也	-10.6032
苛	-10.6032
督	-10.6035
彰	-10.6042
泣	-10.6042
之例	-10.6043
巡守	-10.6043
輸	-10.6044
者至	-10.6044
縶	-10.6045
憾	-10.6046
淑	-10.6046
鉞	-10.6046
徼	-10.6046
吴	-10.6047
臯陶謨	-10.6047
恵	-10.6047
碎	-10.6049
虞翻	-10.6049
湖	-10.6051
媚	-10.6053
䕶	-10.6057
嬰齊	-10.6059
三行注	-10.6059
得中	-10.606
死而	-10.6066
十里	-10.6067
不失其	-10.6067
歲星	-10.6071
一章疏	-10.6071
少儀	-10.6071
本心	-10.6073
稱之	-10.6074
又言	-10.6076
公元年至	-10.608
與人	-10.6082
二卷	-10.6084
有事	-10.6086
齊桓	-10.6086
五曰	-10.609
四岳	-10.6094
忍反	-10.6098
不識	-10.61
注十卷	-10.6103
事事	-10.6105
象辭	-10.6109
注及	-10.6113
不特	-10.6114
其民	-10.6115
唐虞	-10.612
九行注	-10.6125
此事	-10.6126
申志反	-10.6128
生物	-10.6131
十五葉右	-10.6131
成人	-10.6134
後皆同	-10.6138
之形	-10.6144
居中	-10.6145
焉故	-10.6153
邦國	-10.6156
其政	-10.6157
四百	-10.6159
從此	-10.6161
例反	-10.6162
矣若	-10.6162
十八葉右	-10.617
八行注	-10.6172
帝王	-10.6174
也二字	-10.6175
盛貌	-10.6177
言乎	-10.618
於天子	-10.6182
敬也	-10.6183
也春秋	-10.6191
芾	-10.6191
亂也	-10.6191
字林作	-10.6192
惡也	-10.6196
盛也	-10.6197
冷	-10.6197
巷	-10.6197
焉得	-10.6197
兾	-10.6198
鄧	-10.62
潘	-10.6201
成也	-10.6202
貸	-10.6202
相對	-10.6203
瘠	-10.6204
粢	-10.6205
脂	-10.6207
梏	-10.621
醯	-10.621
尼	-10.621
元亨利貞	-10.621
摘	-10.6211
尨	-10.6211
鐸	-10.6212
無疑	-10.6212
沱	-10.6212
反字林云	-10.6213
宋板永懷堂同	-10.6213
浚	-10.6214
姪	-10.6214
研	-10.6215
在人	-10.6218
康叔	-10.622
逵	-10.6221
外傳	-10.6223
隂氣	-10.6225
無以	-10.6225
之之作也	-10.6227
為善	-10.6228
室家	-10.6237
侯伯	-10.6243
四牡	-10.6244
五等	-10.6246
施於	-10.6252
戸雅反	-10.6262
宋板同疏	-10.6262
不違	-10.6265
之賢	-10.6279
依字	-10.628
在前	-10.6283
陳註	-10.6284
與此	-10.6287
服也	-10.6288
后土	-10.629
乎曰	-10.6293
大誥	-10.6296
言不	-10.6296
公榖	-10.6302
太王	-10.6303
下句	-10.6305
四十九	-10.6307
小戴	-10.6308
十六葉左	-10.6308
成之	-10.6313
此又	-10.6313
無常	-10.6333
性情	-10.6335
之詞	-10.6335
靈公	-10.6339
可以為	-10.6345
若今	-10.6349
字註	-10.6353
變也	-10.6356
子游	-10.6357
燒	-10.6358
虫	-10.636
周制	-10.636
翬	-10.6363
音界	-10.6364
閣	-10.6365
欲令	-10.6368
帑	-10.6369
馘	-10.6371
之爭	-10.6372
胙	-10.6373
紅	-10.6373
餕	-10.6373
政事	-10.6374
紛	-10.6374
下有矣字	-10.6376
淪	-10.6376
坫	-10.6377
羊朱	-10.6377
軸	-10.6377
㨗	-10.6379
鈞	-10.638
窺	-10.638
譖	-10.6381
八章	-10.6384
元文上作	-10.6386
泯	-10.6386
謂此	-10.6386
缶	-10.6388
謹按當在	-10.6389
十葉左	-10.6399
淮夷	-10.64
者此	-10.64
其上	-10.6401
十一葉右	-10.6404
十六葉右	-10.6406
音甫	-10.6412
京作	-10.6412
之餘	-10.6414
學而	-10.6414
九疇	-10.6415
日行	-10.6417
所惡	-10.6418
下經	-10.642
而今	-10.6421
不可不	-10.6427
小大	-10.6435
君子以	-10.6437
于萬	-10.6443
誠意	-10.6448
不改	-10.645
所用	-10.6454
占得	-10.6455
也一曰	-10.6472
卒章	-10.6473
利用	-10.6475
魯史	-10.6475
經典	-10.6476
射之	-10.6481
音避	-10.6495
又按	-10.6501
之耳	-10.6507
則此	-10.6512
成周	-10.6522
第五	-10.6523
明明	-10.6526
廣雅	-10.6527
字誤倒	-10.6527
庖	-10.6528
遐嫁	-10.6532
音扶	-10.6541
萑	-10.6542
囊	-10.6544
由是	-10.6544
朱氏	-10.6545
異同	-10.6546
亦何	-10.6546
鱗	-10.6548
恕	-10.655
替	-10.655
而自	-10.655
顙	-10.655
只是説	-10.6551
暨	-10.6551
赫	-10.6552
鍼	-10.6553
恐是	-10.6554
瓠	-10.6554
史記作	-10.6555
疚	-10.6558
十四行注	-10.6559
輔廣錄	-10.656
奸	-10.6561
十三行注	-10.6564
認	-10.6566
沈僴録	-10.6567
終於	-10.6572
必以	-10.6572
横渠	-10.6578
竊疑	-10.6586
孝弟	-10.6587
一家	-10.6588
只管	-10.6589
亦只是	-10.6596
其理	-10.6598
星辰	-10.6602
於禮	-10.6606
為天子	-10.6606
何不	-10.6608
二公	-10.6609
傳之	-10.6609
變易	-10.661
諸經	-10.6611
所好	-10.6614
尺二寸	-10.6616
直龍反	-10.6633
不入	-10.6639
叔向	-10.6641
戸雅	-10.6644
直是	-10.6644
廉反	-10.6648
始有	-10.6654
而民	-10.6656
兖	-10.6657
二十六葉	-10.6658
夏官	-10.6661
子弟	-10.6673
取諸	-10.6677
支反	-10.6682
謹案	-10.6682
大師	-10.6684
向云	-10.6688
清明	-10.6688
或者	-10.669
三等	-10.6691
盡也	-10.6697
立政	-10.6704
者乃	-10.6706
而來	-10.6708
爨	-10.6711
凍	-10.6711
如字一音	-10.6713
鄂	-10.6714
燥	-10.6715
杜子春云當為	-10.6716
燠	-10.6716
楹	-10.6717
媿	-10.6717
隘	-10.6717
沽	-10.6718
朞	-10.672
廿	-10.672
下章	-10.6723
蔚	-10.6725
曷為	-10.6725
雝	-10.6725
粲	-10.6726
恰	-10.6726
不仁	-10.673
靈臺	-10.6731
恣	-10.6732
㕓	-10.6733
惡乎	-10.6733
其丈	-10.6733
汪	-10.6733
輻	-10.6735
竅	-10.6735
迂	-10.6738
從者	-10.6739
馴	-10.674
林學履録	-10.674
贖	-10.6741
沿	-10.6742
上有之字	-10.6743
乾卦	-10.6744
是箇	-10.6744
直專	-10.6745
閏月	-10.6747
蔵	-10.6747
子張	-10.6748
虞書	-10.675
亦如之	-10.6752
未得	-10.676
周頌	-10.6769
義疏	-10.6771
黄鍾之	-10.6772
帝堯	-10.6773
隱公	-10.6776
上有以字	-10.6782
非禮也	-10.6785
者葢	-10.6788
二陽	-10.6791
者所以	-10.6799
祭義	-10.6805
明年	-10.6807
禮運	-10.6807
大壯	-10.6829
顔子	-10.6833
終也	-10.6835
則其	-10.6842
之論	-10.6846
字亦	-10.6853
者與	-10.686
所聞	-10.687
告之	-10.6871
小者	-10.6872
忒	-10.6874
為義	-10.6874
否則	-10.6878
幽王	-10.6882
鴈	-10.6883
鞅	-10.6885
蹄	-10.6886
扱	-10.689
不和	-10.6892
大廟	-10.6892
刖	-10.6895
泠	-10.6895
少牢	-10.6897
駒	-10.6898
綽	-10.69
遂以	-10.69
四句	-10.6901
跋	-10.6902
園	-10.6902
而行之	-10.6903
愷	-10.6903
吕覽	-10.6903
中之	-10.6903
勃	-10.6903
肇	-10.6903
桴	-10.6904
賂	-10.6904
禽獸	-10.6905
闑	-10.6906
宗子	-10.6906
岸	-10.691
袪	-10.6911
卞	-10.6911
萬人傑錄	-10.6911
彈	-10.6912
鳯	-10.6915
次之	-10.6915
囘	-10.6916
三爻	-10.6916
妣	-10.6917
王道	-10.6918
太蔟	-10.692
大司樂	-10.6924
之可	-10.6926
名之	-10.6927
卦辭	-10.6929
衞侯	-10.693
也舍人注	-10.6933
俗作	-10.6934
共工	-10.6935
未至	-10.6935
日用	-10.6936
一條	-10.6936
丈反	-10.6937
曰然	-10.6944
是就	-10.6945
魯頌	-10.6946
比之	-10.6952
自得	-10.6954
其家	-10.6955
似是	-10.6955
千乗	-10.6959
伐木	-10.6971
衆多	-10.6978
星歷	-10.6983
力智	-10.6986
於民	-10.6987
生也	-10.6989
主婦	-10.6995
十四葉左	-10.6997
九葉右	-10.6997
之主	-10.6998
豉	-10.6999
來聘	-10.7001
而稱	-10.7009
武子	-10.701
而求	-10.7013
篇云	-10.7013
舊説	-10.7016
丁亂	-10.7017
十二律	-10.7022
異者	-10.7025
居良	-10.7027
不得其	-10.7028
安也	-10.7029
云爾	-10.7029
孺	-10.7038
之器	-10.7042
更無	-10.7043
之意也	-10.7044
於地	-10.7055
三尺	-10.7056
牂	-10.707
釋詁文	-10.707
嬰	-10.7073
晢	-10.7074
杜子春云	-10.7074
足利本同註	-10.7074
紙	-10.7075
墠	-10.7077
鑄	-10.7078
漫	-10.7078
王事	-10.7079
冢宰	-10.708
倪	-10.708
陜	-10.708
潁	-10.7081
印	-10.7083
岱	-10.7084
説文云	-10.7085
詒	-10.7085
莎	-10.7085
胎	-10.7087
秦人	-10.7088
先鄭	-10.7088
人臣	-10.7089
槀	-10.709
貟	-10.709
三者	-10.7091
蟄	-10.7091
牒	-10.7091
十七葉左	-10.7091
滛	-10.7092
位而	-10.7095
溪	-10.7096
大戴	-10.7098
旡	-10.7098
十八行注	-10.7099
百六十	-10.71
亦惟	-10.711
十三經	-10.7111
二十葉右	-10.7112
二十四葉右	-10.7112
大宰	-10.7114
搜	-10.7116
庶幾	-10.7117
方是	-10.7121
明白	-10.7123
其職	-10.7126
不免	-10.7134
而入	-10.7136
愚按	-10.7146
其可	-10.7153
用其	-10.7155
死者	-10.7161
意也	-10.7162
曉得	-10.7163
備矣	-10.7165
四十八	-10.7168
先師	-10.7174
可與	-10.7175
也賈逵	-10.7179
舉其	-10.7183
大夫之	-10.7185
大射	-10.7185
至誠	-10.7188
伐之	-10.719
木也	-10.7191
有大	-10.7197
有餘	-10.7201
神名	-10.7202
中行	-10.7203
十九葉左	-10.721
心之	-10.7221
反本亦作	-10.7224
祭也	-10.7225
以樂	-10.7226
至徳	-10.7228
時而	-10.7229
二十三葉左	-10.7235
也服䖍	-10.7235
詩之	-10.7238
手又反	-10.7239
北極	-10.7243
槩	-10.7244
學記	-10.7245
此以	-10.7246
豈可	-10.7246
行事	-10.7248
吕反	-10.7249
幷	-10.725
孫炎	-10.7252
人之所	-10.7254
因以	-10.7254
也惟	-10.7257
糞	-10.7261
寔	-10.7263
捕	-10.7264
只有	-10.7264
駢	-10.7266
驛	-10.7269
羸	-10.7269
雙	-10.7269
筋	-10.727
扇	-10.7272
漁	-10.7272
餒	-10.7273
懌	-10.7274
禜	-10.7275
毅	-10.7275
蝕	-10.728
墻	-10.728
之别	-10.728
不亦	-10.7281
武庚	-10.7282
寒暑	-10.7283
則可	-10.7283
不知何氏録	-10.7283
旁作	-10.7283
山名	-10.7283
番	-10.7285
揜	-10.7287
欲以	-10.7287
用也	-10.7289
恊	-10.7292
鄭司農云	-10.7294
淮南	-10.7294
此爻	-10.7298
而可	-10.7298
後漢書注	-10.73
腰	-10.7301
祭天	-10.731
也凡	-10.7315
多士	-10.7315
為大夫	-10.7324
人道	-10.7325
大宗伯	-10.7327
學之	-10.7329
中而	-10.7335
之不可	-10.7335
字當作	-10.7337
直類	-10.7337
不窮	-10.7341
厚也	-10.7344
太常	-10.7346
臥	-10.7346
等語	-10.7347
將軍	-10.7348
王城	-10.7349
異姓	-10.7357
乃命	-10.7365
本紀	-10.7369
器也	-10.737
子曰君子	-10.7371
賾	-10.7373
後儒	-10.7373
亦同	-10.7373
十一葉左	-10.7375
婢亦反	-10.7382
皆非	-10.7383
也子曰	-10.7391
有道	-10.7392
作樂	-10.7396
制禮	-10.7399
知禮	-10.7407
不思	-10.741
字是	-10.7416
詩照反	-10.742
賢徧反	-10.7421
鄭人	-10.7421
非有	-10.7427
晉人	-10.7427
尚有	-10.7433
之常	-10.7435
恚	-10.7435
字或	-10.7438
厎	-10.744
三十二年	-10.7441
象也	-10.7442
虯	-10.7442
篡	-10.7442
競	-10.7446
省文	-10.7449
于天	-10.7449
相承	-10.745
汲	-10.7454
崔本	-10.7456
跛	-10.7457
胡氏	-10.7457
有六	-10.7459
榛	-10.746
勒	-10.746
妥	-10.746
歸於	-10.7462
水之	-10.7463
皮寄	-10.7463
鋭	-10.7463
彛	-10.7463
蹶	-10.7465
羔裘	-10.7466
而終	-10.7466
杼	-10.7467
銖	-10.7467
于万	-10.7467
茫	-10.747
庻	-10.7471
十七行注	-10.7472
十五行注	-10.7472
稱王	-10.7473
袍	-10.7474
朱子五經語類卷	-10.7476
孝反	-10.7477
繪	-10.7478
第二章	-10.7479
後面	-10.7479
若有	-10.7483
或以	-10.7484
難曉	-10.7487
之家	-10.7487
一段	-10.7488
於朝	-10.7488
二葉左	-10.7491
水中	-10.7492
及下	-10.7495
雍州	-10.7496
長幼	-10.7497
元亨	-10.7503
弑其君	-10.7506
先公	-10.7512
本末	-10.7515
二十三葉右	-10.7522
誤從	-10.7522
志云	-10.753
諸書	-10.7531
六字	-10.7538
束脩	-10.7539
始生	-10.7539
大率	-10.754
其色	-10.754
而實	-10.7541
一國	-10.7546
都是	-10.7546
二十六葉左	-10.7549
以相	-10.7555
音遍	-10.7557
六葉右	-10.7559
日在	-10.7566
有徳	-10.7566
故君子	-10.7569
第六	-10.757
是書	-10.7571
及注皆同	-10.7572
以道	-10.7575
穆王	-10.7575
改作	-10.7578
形容	-10.7579
下放此	-10.7579
間有	-10.7583
用事	-10.7584
厲王	-10.7589
三十四	-10.7592
今以	-10.7593
三百六十	-10.7597
所由	-10.76
是那	-10.7606
淮南子	-10.7609
晁	-10.7609
不取	-10.7616
分野	-10.7623
熾	-10.7633
桷	-10.7634
詁	-10.7634
史官	-10.7635
隮	-10.7636
疫	-10.7636
聰	-10.7638
婢面	-10.7639
小學	-10.764
食亦	-10.764
枲	-10.7641
遼	-10.7642
濵	-10.7643
稾	-10.7643
昵	-10.7645
苓	-10.7646
暘	-10.7647
停	-10.7647
澗	-10.7647
爽	-10.7647
邾婁	-10.7648
弃	-10.7648
戰于	-10.765
八葉右	-10.7652
瞿	-10.7656
櫜	-10.7656
大戴禮	-10.7656
疵	-10.7657
荀子	-10.766
後天	-10.766
稟	-10.7661
其所以	-10.7669
直畧	-10.7672
三十九	-10.7672
聰明	-10.7672
而為之	-10.7673
郁	-10.7673
商頌	-10.7683
陣	-10.7688
曰吾	-10.77
并注同	-10.7707
以義	-10.771
本誤	-10.7717
中和	-10.7717
列國	-10.7719
八字	-10.772
之類皆	-10.7725
詩者	-10.7729
日月之	-10.7732
也說文	-10.7732
亦猶	-10.7733
朱校宋本禮記疏	-10.7736
者如此	-10.7737
大司徒	-10.774
疾也	-10.775
以行	-10.7752
所能	-10.776
命也	-10.7761
此所謂	-10.7767
夏侯	-10.7775
以興	-10.7776
要之	-10.7778
占者	-10.7779
西伯	-10.7787
事親	-10.7793
一語	-10.7795
惡其	-10.7798
矣右	-10.7798
但有	-10.7805
也夫子	-10.7816
方言	-10.7816
相類	-10.7818
而見	-10.7818
此為	-10.7822
所稱	-10.7823
之易	-10.7823
槃	-10.7825
人倫	-10.7825
珥	-10.7829
聚也	-10.7829
下衍	-10.783
各自	-10.7833
何故	-10.7834
涼	-10.7835
道者	-10.7835
大義	-10.7835
悶	-10.7836
冡	-10.7836
驟	-10.7836
跂	-10.7837
顚	-10.7838
漿	-10.7838
夙	-10.7839
唯季	-10.784
縊	-10.784
王者之	-10.7842
不肯	-10.7842
譌	-10.7843
僂	-10.7844
弇	-10.7845
糧	-10.7845
本今作	-10.7845
髠	-10.7846
斛	-10.7846
反說文	-10.7846
閲	-10.7846
裕	-10.7849
裒	-10.785
出車	-10.785
䜟	-10.785
赫赫	-10.7851
溥	-10.7853
冊	-10.7853
阼	-10.7853
軒轅	-10.7854
當云	-10.7856
鶉火	-10.7856
地理志	-10.7858
渥	-10.7858
之過	-10.7858
無復	-10.7862
禹治水	-10.7862
下言	-10.7864
三作二	-10.7864
立春	-10.7867
為民	-10.7868
賤者	-10.7868
者若	-10.787
十七葉右	-10.7871
後有	-10.7872
萬民	-10.7874
匠人	-10.7879
㬊淵錄第	-10.788
註同註	-10.7882
用夏正	-10.7883
録中	-10.7883
皆言	-10.7884
宋本春秋疏二十	-10.7884
這般	-10.7894
風俗	-10.7895
盡其	-10.7902
自此	-10.7902
待洛	-10.7903
以制	-10.791
舊音	-10.7912
只得	-10.7913
諸子	-10.792
復有	-10.7921
多是	-10.7922
四寸	-10.7926
於旣	-10.7932
買反	-10.7932
直覲	-10.7935
之失	-10.7936
如字或	-10.7937
注疏	-10.7944
伐鄭	-10.7952
惠王	-10.7953
河東	-10.7955
之下有也字	-10.7959
庫	-10.7963
經義	-10.7966
逺近	-10.797
注補後漢書	-10.7971
詩書	-10.7971
反本又	-10.7971
二十四葉左	-10.7973
者故	-10.7983
七經孟子考文補遺卷一百	-10.7986
萬厯	-10.7989
之民	-10.7989
五聲	-10.7994
者或	-10.7994
君陳	-10.7995
祿	-10.7998
無服	-10.8
其分	-10.8003
以證	-10.8007
禮器	-10.8008
如羊	-10.8014
其居	-10.8014
不然則	-10.8015
盧注	-10.8019
二日	-10.8019
四葉右	-10.802
迅	-10.8027
謂其	-10.8028
六百	-10.803
洫	-10.8035
檀	-10.8035
醬	-10.8036
凌	-10.8036
泮	-10.8037
菁	-10.8037
五經異義	-10.8038
軹	-10.8038
鈴	-10.8041
音釋	-10.8041
濮	-10.8041
餌	-10.8043
撓	-10.8043
孽	-10.8044
羈	-10.8047
正嘉	-10.8048
周天	-10.805
羨	-10.8052
召誥	-10.8052
腓	-10.8052
睹	-10.8053
掃	-10.8054
此其	-10.8055
鄘	-10.8056
九五爻辭	-10.8057
訪	-10.8058
諌	-10.8058
覯	-10.8059
盪	-10.8059
左氏傳	-10.806
慊	-10.806
郵	-10.806
訴	-10.8062
方言云	-10.8063
琴瑟	-10.8064
輙	-10.8065
未及	-10.8071
栢	-10.8072
揲蓍	-10.8073
鄉射	-10.8078
卦變	-10.8081
而天下	-10.8081
二十九葉	-10.8084
仲春	-10.8085
魯之	-10.8085
辨之	-10.8089
列於	-10.809
生之	-10.809
國子	-10.8099
其父	-10.8102
史記注二	-10.811
此數	-10.8121
死也	-10.8123
大王	-10.8131
即此	-10.8131
其形	-10.8134
地之	-10.814
行道	-10.8141
不使	-10.8148
甚明	-10.8149
所宜	-10.8149
二十八葉	-10.8155
毛如字	-10.8155
臣之	-10.8158
丈夫	-10.816
知也	-10.8162
周南	-10.8173
則民	-10.8174
能盡	-10.8174
臣子	-10.8188
未發	-10.819
飾也	-10.8191
繫之	-10.8192
之問	-10.8194
此三	-10.8199
成而	-10.8206
無禮	-10.8208
太祖	-10.821
夏殷	-10.8213
皆曰	-10.8225
出而	-10.8226
變風	-10.8227
國有	-10.8228
六宗	-10.8231
七行注	-10.8231
饎	-10.8231
俠	-10.8233
古義	-10.8236
養也	-10.8237
古禮	-10.8242
譬如	-10.8244
柯	-10.8245
鄆	-10.8245
壘	-10.8246
趙集傳	-10.8246
五經通義	-10.8247
坼	-10.8247
彪	-10.8248
一是	-10.8248
鉶	-10.8249
相連	-10.8249
耐	-10.8249
剔	-10.825
畎	-10.825
懋	-10.825
彞	-10.825
始終	-10.8251
摧	-10.8251
豪	-10.8251
訝	-10.8252
揄	-10.8252
脤	-10.8253
褚	-10.8253
不聞	-10.8254
稼穡	-10.8254
顓	-10.8255
寗	-10.8255
惇	-10.8257
眼	-10.8259
莘	-10.8259
乾文言第二節	-10.826
演	-10.826
采地	-10.826
罍	-10.8261
諷	-10.8262
葉賀孫録	-10.8262
序音義	-10.8263
賁居曰	-10.8264
咸有一德	-10.8264
鶴	-10.8264
踈	-10.8265
底道理	-10.8266
富貴	-10.8266
田獵	-10.8266
兖州	-10.8267
嗜	-10.8267
樵	-10.8267
一嵗	-10.8269
投壺	-10.8269
葉賀孫錄	-10.8272
藝文志	-10.8272
十六行注	-10.8275
姑洗	-10.8276
之化	-10.8282
兎	-10.8284
應之	-10.8288
始得	-10.829
尹氏	-10.8292
殺也	-10.8294
之親	-10.8298
誤矣	-10.83
仲孫	-10.8302
柔順	-10.8305
而祭	-10.8308
謹按傳	-10.8309
五刑	-10.8316
之孫	-10.8317
子六	-10.8322
他得	-10.8323
皮弁	-10.8328
主於	-10.8341
康王	-10.8342
事者	-10.8345
將去	-10.8347
此卦	-10.8352
子夏傳	-10.8353
側皆反	-10.8358
故復	-10.836
十三葉右	-10.8363
助祭	-10.8364
在其中矣	-10.8365
考異	-10.8366
二年傳	-10.8368
十日	-10.8371
魚列	-10.8377
天地之心	-10.838
左氏說	-10.8382
列反	-10.8383
二十葉左	-10.8383
所求	-10.8384
長者	-10.8385
諸本皆	-10.8391
齊師	-10.8393
舊本	-10.8396
何其	-10.84
雖是	-10.84
西海	-10.8401
傳言	-10.8401
子云	-10.8403
十五葉左	-10.8412
亦自	-10.8413
山之	-10.8418
不由	-10.8418
孔疏	-10.8419
但以	-10.842
件	-10.8423
反徐又	-10.8424
酒誥	-10.8424
鴆反	-10.8425
九經	-10.8427
典禮	-10.8427
猶可	-10.843
可通	-10.8431
記之	-10.8435
徐扶	-10.8438
四十二	-10.8439
以知	-10.8442
騏	-10.8442
倅	-10.8442
仆	-10.8443
蟻	-10.8444
酏	-10.8445
洮	-10.8447
二十七葉	-10.8447
二爻	-10.845
七日	-10.8452
核	-10.8452
冩	-10.8453
其九	-10.8454
琅邪	-10.8454
溫	-10.8455
簿	-10.8455
馭	-10.8456
迨	-10.8457
圻	-10.8457
也一本	-10.8457
𦵏	-10.8457
燮	-10.8459
殉	-10.8459
恪	-10.8459
旐	-10.846
酳	-10.846
寂	-10.846
曳	-10.8461
字皆	-10.8462
鞭	-10.8463
黻	-10.8463
乾文言第一節	-10.8463
則雖	-10.8463
鎛	-10.8464
略反	-10.8465
憎	-10.8465
諂	-10.8468
祉	-10.8468
奎	-10.8468
篚	-10.8469
禮有	-10.847
黄義剛錄	-10.8471
第八	-10.8473
緣	-10.8474
為仁	-10.8474
眡	-10.8476
既夕	-10.8478
聊	-10.8479
斾	-10.848
三十七	-10.8483
坊記	-10.8483
有孚	-10.8484
戀	-10.8484
鯉	-10.8486
非聖人	-10.8488
震為	-10.849
卒哭	-10.8492
其器	-10.8493
若謂	-10.8495
林鍾	-10.8502
則吉	-10.8507
𨽻	-10.851
賢遍反下	-10.8514
無文	-10.8514
記者	-10.8516
起於	-10.8518
成物	-10.852
宫中	-10.8525
日之	-10.8526
若無	-10.8531
子産	-10.8533
格物	-10.8534
堂上	-10.8536
無間	-10.8541
葉二行注	-10.8541
人名	-10.8541
大火	-10.8552
九族	-10.8553
子匠	-10.8554
衆家	-10.8556
亦為	-10.8562
則夢	-10.8564
之言也	-10.8568
一畫	-10.8573
南山	-10.8574
中者	-10.8578
尺證反	-10.8579
若曰	-10.8579
景公	-10.8583
陳氏	-10.8584
或以為	-10.859
木名	-10.8591
人主	-10.8594
明王	-10.8595
甲兵	-10.8595
三皇	-10.8596
王肅云	-10.8597
又自	-10.8599
罕	-10.8604
居良反	-10.8609
司服	-10.8611
如字注同	-10.8613
大明	-10.8616
當爲	-10.8617
上古	-10.8619
而書	-10.8622
之二	-10.8625
夷則	-10.863
永懷堂	-10.8633
位也	-10.8638
隨時	-10.8639
笏	-10.8649
者矣	-10.865
出于	-10.8651
童子	-10.8654
貌下有也	-10.8655
軓	-10.8656
此與	-10.8658
珪	-10.8658
詛	-10.8658
睢	-10.866
芸	-10.8661
蜂	-10.8664
十二葉左	-10.8664
梧	-10.8665
複	-10.8666
本是	-10.8668
斃	-10.8668
瓊	-10.8668
僑	-10.8668
之妙	-10.8668
鏤	-10.8669
炮	-10.867
響	-10.8672
劍	-10.8672
鉉	-10.8672
昴	-10.8672
据	-10.8673
撥	-10.8676
誄	-10.8676
灑	-10.8676
僎	-10.8677
大史	-10.8679
繕	-10.8679
儆	-10.8679
斐	-10.8683
凡言	-10.8684
書疏	-10.8684
夏書	-10.8684
綿	-10.8686
管蔡	-10.8687
君奭	-10.8688
魚吕反	-10.8689
庠	-10.8689
伯姬	-10.869
人欲	-10.8692
㸃	-10.8694
音佩	-10.8695
泮水	-10.8697
政教	-10.8697
者自	-10.8698
跣	-10.8698
不絶	-10.8701
朝聘	-10.8705
説話	-10.8706
兵車	-10.8711
一葉左	-10.8712
字彚	-10.8715
有過	-10.8716
孺子	-10.8717
大計	-10.8719
則與	-10.8726
其來	-10.8727
百一十	-10.8731
更有	-10.8731
周正	-10.8732
六葉左	-10.8735
日至	-10.8738
自謂	-10.8739
千乘	-10.874
太公	-10.874
也又曰	-10.8746
也徐	-10.8747
宗人	-10.8749
二南	-10.8749
形如	-10.8752
辨疑	-10.8754
仍作	-10.876
存者	-10.8766
解經	-10.8766
七葉左	-10.8768
和樂	-10.8774
人民	-10.878
九葉左	-10.8783
好學	-10.8784
於諸侯	-10.8788
此條	-10.8788
魯國	-10.8793
者多	-10.8795
音玄	-10.8797
順也	-10.8798
八葉左	-10.8799
代之	-10.8803
書者	-10.8808
在東	-10.8814
南宫	-10.8815
存之	-10.883
但言	-10.8836
春分	-10.8839
星紀	-10.884
而王	-10.8842
車馬	-10.8846
問曰	-10.8848
王業	-10.8852
正字	-10.8853
輈	-10.8853
下有也釋文	-10.8853
很	-10.8858
莫如	-10.8859
前此	-10.8866
繅	-10.8868
鄭志	-10.8868
廵	-10.887
之父	-10.8871
韠	-10.8872
濩	-10.8873
徇	-10.8873
堂下	-10.8875
膴	-10.8876
坊	-10.8876
妨	-10.8878
字皆作	-10.8878
粱	-10.8879
事物	-10.8879
茍	-10.8879
隤	-10.888
有人	-10.8881
日新	-10.8882
賻	-10.8882
寇	-10.8883
蠢	-10.8884
詩疏一之	-10.8885
艮其背	-10.8885
莅	-10.8885
蟬	-10.8886
與天地	-10.8886
匕	-10.8888
茷	-10.8888
縠	-10.8888
鞶	-10.8888
棠	-10.889
皓	-10.889
朽	-10.8891
矧	-10.8891
贅	-10.8891
續字彚	-10.8892
韜	-10.8892
鑑	-10.8893
菲	-10.8893
殳	-10.8893
片	-10.8895
謔	-10.8895
脛	-10.8895
坤之	-10.8896
蕢	-10.8896
泗	-10.8897
太傅	-10.8897
不須	-10.8897
既有	-10.8898
豎	-10.8898
觥	-10.8898
夙夜	-10.8898
生而	-10.8899
矣問	-10.8899
大者	-10.89
㓜	-10.8901
歸之	-10.8901
補遺宋板傳	-10.8903
荘	-10.8905
閽	-10.8905
濟濟	-10.8905
書法	-10.8906
至今	-10.8907
虡	-10.8908
莫能	-10.8908
舛	-10.8909
故得	-10.8913
像	-10.8914
諧聲	-10.8914
㑹于	-10.8915
趙商問	-10.8917
難也	-10.8918
朂	-10.8918
反司	-10.8922
歸妹	-10.8922
多矣	-10.8922
疏故	-10.8924
並史記注	-10.8925
清廟	-10.8926
三葉右	-10.8927
老陽	-10.8929
大計反	-10.8929
改正	-10.8932
天也	-10.8933
不詳	-10.894
无所	-10.8943
鄭玄注	-10.8946
夏時	-10.8947
時有	-10.8949
矣且	-10.8949
為長	-10.8952
誠之	-10.8956
此非	-10.8956
語也	-10.8961
秋分	-10.8962
舎人	-10.8964
傳寫	-10.8965
注及下同	-10.8966
不誠	-10.8967
中心	-10.8983
葉四行注	-10.8985
上章	-10.8986
徐甫	-10.8989
思之	-10.9
黄㽦錄第	-10.9007
來歸	-10.9009
明德	-10.901
乎天	-10.901
丁歷反	-10.9012
天時	-10.9014
亦謂	-10.9016
之宜	-10.9017
之遺	-10.902
以治	-10.9034
無疆	-10.9042
兄弟之	-10.9042
正義引	-10.9045
第七	-10.9049
於周	-10.9054
之仁	-10.9055
正嘉二本	-10.9057
正義云	-10.9058
何嘗	-10.9066
不祭	-10.907
五葉左	-10.9075
未免	-10.9076
麓	-10.9079
殷之	-10.9085
即以	-10.9086
於廟	-10.9086
音基	-10.9087
有德	-10.9088
什	-10.9094
北海	-10.9094
氓	-10.9095
不知何	-10.9099
又謂	-10.9102
礿	-10.9103
禳	-10.9103
茨	-10.9103
繭	-10.9104
至其	-10.9105
五典	-10.9105
榦	-10.9105
以觀	-10.9106
駮	-10.9106
椎	-10.9107
盱	-10.9107
芋	-10.9107
鳶	-10.9108
嚌	-10.9108
緡	-10.9109
只説	-10.911
鹹	-10.911
餐	-10.9111
禴	-10.9111
為貴	-10.9113
冡宰	-10.9113
下竝同	-10.9113
字本	-10.9114
怛	-10.9114
媯	-10.9115
使民	-10.9115
士喪禮	-10.9116
拳	-10.9117
液	-10.9117
錡	-10.9117
邸	-10.9118
禆	-10.9118
誼	-10.9119
慙	-10.912
吞	-10.9121
慄	-10.9122
船	-10.9122
穿鑿	-10.9125
求其	-10.9125
悔吝	-10.9127
丞相	-10.9128
其體	-10.9128
深衣	-10.9129
牽牛	-10.9131
初無	-10.9131
掛	-10.9131
倣此	-10.9132
小臣	-10.9134
安國	-10.9135
爲同	-10.9135
寃	-10.914
行而	-10.914
物而	-10.9141
畢竟	-10.9142
三軍	-10.9144
萬人	-10.915
後並同	-10.9152
荆州	-10.9156
錯簡	-10.9157
于況反	-10.9157
皇皇	-10.9166
異也	-10.9168
方可	-10.9169
此一節	-10.918
序云	-10.9184
而治	-10.9185
萬厯本	-10.9192
碩人	-10.9193
側皆	-10.9198
否曰然	-10.9201
之南	-10.9202
母弟	-10.9203
為臣	-10.9204
以盡	-10.9207
大道	-10.922
漢時	-10.9222
書名	-10.9224
下有而字	-10.9227
賜也	-10.9231
七章	-10.9232
中節	-10.9236
子念	-10.924
者三	-10.924
臣下	-10.9241
也君子	-10.9246
通於	-10.9246
祖廟	-10.9247
音岳	-10.9247
令人	-10.9248
所景	-10.9249
其正	-10.9249
與同	-10.925
東井	-10.9252
救反	-10.9254
一寸	-10.9255
同盟	-10.9256
火故	-10.9256
劉氏	-10.9257
其神	-10.9259
乾道	-10.9264
之盟	-10.9267
未之	-10.9269
如此説	-10.9269
不如此	-10.9269
到那	-10.9273
監本作	-10.9274
其常	-10.9275
當然	-10.9276
其情	-10.9279
字當	-10.928
之教	-10.9284
安知	-10.9286
不幸	-10.929
之野	-10.9292
耕反	-10.9293
元文下	-10.9294
五采	-10.93
其在	-10.9303
是用	-10.9309
之端	-10.9314
扃	-10.9315
變則	-10.9318
浦	-10.9318
何時	-10.9318
蛤	-10.9319
迪	-10.9321
師古曰	-10.9324
薳	-10.9326
乾乾	-10.9326
窆	-10.9327
些	-10.9327
塊	-10.933
系	-10.933
諼	-10.9332
柞	-10.9334
字與	-10.9335
飫	-10.9335
棗	-10.9336
耘	-10.9336
具反	-10.9337
平公	-10.9338
廪	-10.9338
吟	-10.934
鹵	-10.934
梗	-10.9341
祝融	-10.9341
菅	-10.9342
莠	-10.9343
毖	-10.9345
㐮	-10.9346
嬉	-10.9347
季子	-10.9349
睿	-10.935
噐	-10.9351
是月也	-10.9351
儺	-10.9352
己丑	-10.9353
成其	-10.9354
遄	-10.9354
穰	-10.9354
互體	-10.9356
序卦	-10.9356
五寸	-10.9357
建寅	-10.9357
興國本	-10.9358
四葉左	-10.936
閟宫	-10.936
王莽	-10.936
訓詁	-10.9361
秦誓	-10.9362
至矣	-10.9363
不樂	-10.9366
老隂	-10.9366
五葉右	-10.9371
父兄	-10.9378
下及注	-10.9388
心也	-10.939
東周	-10.94
不克	-10.94
以俟	-10.9402
卦中	-10.9404
巾反	-10.9406
五日	-10.9409
四尺	-10.941
於心	-10.9417
所據	-10.9419
北斗	-10.942
讀若	-10.942
不可解	-10.9421
力呈反	-10.9421
感應	-10.9422
何得	-10.9431
五千	-10.9438
歸父	-10.9441
子匠反	-10.9442
五榖	-10.9443
綺反	-10.9443
者雖	-10.9444
逺也	-10.9446
君子之道	-10.9447
為後	-10.945
下及注同	-10.9453
河内	-10.946
不顧	-10.9462
實也	-10.9464
此心	-10.9465
商書	-10.947
閔公	-10.9481
巧言	-10.9484
由此	-10.9486
一讀	-10.9486
仁也	-10.9488
稱子	-10.9493
四時之	-10.9494
豆反	-10.9494
今觀	-10.9498
而不敢	-10.9502
執之	-10.9504
有終	-10.9505
建本	-10.9506
不說	-10.951
吉也	-10.9511
樂正	-10.9511
四十四	-10.9516
也馬傳	-10.9519
合也	-10.952
六尺	-10.9523
音問	-10.9524
殷人	-10.9524
所類	-10.9526
施之	-10.9527
鄭注云	-10.9529
論之	-10.9534
成風	-10.9537
字疑衍	-10.9537
彚	-10.9538
了又	-10.954
過於	-10.9542
郎反	-10.9544
黝	-10.9545
閒厠	-10.9549
襌	-10.9549
庚子	-10.955
蚩尤	-10.9551
何人	-10.9553
鄶	-10.9554
徃來	-10.9555
稽首	-10.9555
仞	-10.9558
棼	-10.9559
鄢	-10.956
頎	-10.956
盂	-10.9561
襃	-10.9561
鵲	-10.9562
下民	-10.9562
毳	-10.9562
苖	-10.9563
胖	-10.9563
皃	-10.9563
陘	-10.9564
案郭氏京云	-10.9564
羿	-10.9565
嘻	-10.9565
色也	-10.9566
蠃	-10.9567
曰某	-10.9567
皁	-10.9568
腆	-10.957
椁	-10.957
存舊禮記正義卷第	-10.9571
瑣	-10.9571
熏	-10.9572
伊川説	-10.9576
瘳	-10.9577
梓材	-10.9577
明孫㲄編	-10.9579
衢	-10.9579
顔色	-10.958
東坡	-10.958
逞	-10.958
耽	-10.9581
狡	-10.9581
謡	-10.9583
璣	-10.9583
邠	-10.9584
紓	-10.9584
㧞	-10.9584
為中	-10.9585
本今無	-10.9588
揚雄	-10.959
熒惑	-10.959
訂	-10.9591
助也	-10.9592
周召	-10.9593
索隠	-10.9596
京房	-10.9597
未嘗不	-10.9598
熈	-10.9599
谷風	-10.9601
父母之	-10.9609
之風	-10.961
三四	-10.961
則否	-10.9612
底物事	-10.9612
乃復	-10.9614
禮書	-10.9618
未敢	-10.9623
所類反	-10.9623
相接	-10.9623
號曰	-10.9624
釋之	-10.9624
八寸	-10.9625
不得不	-10.9632
又是	-10.9636
則已	-10.9638
一一	-10.9638
嵗星	-10.9646
三十一葉左	-10.9647
居業	-10.9649
再拜	-10.965
秋冬	-10.9651
以養	-10.9652
門内	-10.9658
如字又音	-10.966
七尺	-10.9664
官名	-10.9668
記作	-10.9668
神也	-10.9672
二葉右	-10.9677
楚之	-10.9677
之目	-10.9678
山澤	-10.968
長短	-10.9681
不曽	-10.9681
頂反	-10.9682
音泰下	-10.9684
亦不可	-10.969
内史	-10.9693
不死	-10.9707
天氣	-10.9707
悉薦	-10.9708
音境	-10.971
林云	-10.971
左手	-10.9713
成湯	-10.9718
如齊	-10.9721
二十一葉左	-10.9722
一半	-10.9723
者蓋	-10.973
所角	-10.9734
無他	-10.9734
在後	-10.9737
本皆作	-10.9758
陽也	-10.9759
有異	-10.978
使臣	-10.9782
之時也	-10.9782
識之	-10.9787
柎	-10.9788
髽	-10.9789
劫	-10.979
下旁加	-10.979
看得	-10.979
不逺	-10.9792
額	-10.9794
瑱	-10.9795
宋本疏	-10.9796
衎	-10.9796
遘	-10.9796
虹	-10.9799
自立	-10.9801
絇	-10.9802
掖	-10.9803
傚	-10.9803
沾	-10.9803
綃	-10.9804
埸	-10.9804
檻	-10.9804
郜	-10.9805
守之	-10.9805
啼	-10.9805
揮	-10.9805
下孟反下	-10.9806
雹	-10.9806
葭	-10.9806
挑	-10.9807
巴	-10.9807
澮	-10.9807
榭	-10.9808
楫	-10.9808
斬衰	-10.9809
革反	-10.9809
剡	-10.981
慤	-10.9811
癸亥	-10.9812
鬭	-10.9812
蘧	-10.9813
玊	-10.9813
少昊	-10.9815
轉反	-10.9815
絀	-10.9815
彭蠡	-10.9815
淖	-10.9816
十月之交	-10.9816
之先	-10.9816
却不	-10.9817
曜	-10.9819
紼	-10.9819
附庸	-10.9819
釣	-10.9823
覃	-10.9823
湯誥	-10.9825
唐石經	-10.9825
溝洫	-10.9827
秋七月	-10.9827
雨雪	-10.9829
瓚	-10.9831
艱難	-10.9838
自為	-10.9839
音煩	-10.9842
有也字	-10.9844
極也	-10.9845
召伯	-10.9849
人東晉	-10.9855
欽定四庫全書七經孟子考文補遺卷一	-10.9861
五祀	-10.9862
易曉	-10.9864
特牲	-10.9864
二十五葉右	-10.9865
篇名	-10.9871
一分	-10.9876
合樂	-10.9877
夏曰	-10.988
處也	-10.9881
修身	-10.9884
和也	-10.9885
不載	-10.9885
學校	-10.9886
無罪	-10.9888
緯書	-10.9888
兩句	-10.989
各一	-10.9893
也但	-10.9893
兩字	-10.9898
立於	-10.9903
至是	-10.9907
之西	-10.9913
王所	-10.9913
太隂	-10.9917
始于	-10.9919
息也	-10.9919
我之	-10.9921
不孝	-10.9923
是自	-10.9924
為王	-10.9926
直亮	-10.9928
二音	-10.9931
變通	-10.9933
改過	-10.9933
百篇	-10.9942
易以	-10.9943
大司馬	-10.9945
德也	-10.9946
可畏	-10.995
九百	-10.9953
春夏	-10.9958
反本或	-10.9959
小象	-10.997
孟春	-10.9971
棣	-10.9972
相去	-10.9974
也所以	-10.9978
春秋書	-10.9978
雅云	-10.9979
一等	-10.9983
之運	-10.9997
七葉右	-10.9999
終身	-11.0003
作易	-11.0004
大故	-11.0013
一度	-11.0018
待洛反	-11.0019
四年傳	-11.002
委曲	-11.0021
古書	-11.0021
蝸	-11.0028
十一篇	-11.003
齧	-11.0031
有别	-11.0032
甕	-11.0034
菟	-11.0035
不一	-11.0036
媒	-11.0036
岀	-11.0038
偶然	-11.0039
不作弗	-11.004
五報	-11.0043
橈	-11.0044
疑衍字	-11.0044
磔	-11.0044
潦	-11.0044
麾	-11.0047
鮪	-11.0047
拇	-11.0048
戸臘	-11.0048
怙	-11.0048
愿	-11.0049
鞞	-11.005
穆穆	-11.005
僞反	-11.0051
騰	-11.0051
綬	-11.0051
盲	-11.0051
汲汲	-11.0051
淹	-11.0052
鉅	-11.0052
變為	-11.0052
其舊	-11.0052
螟	-11.0052
隼	-11.0053
肆夏	-11.0053
詁訓	-11.0056
狃	-11.0056
燧	-11.0056
評	-11.0057
洵	-11.0059
飬	-11.0059
勁	-11.006
色吏	-11.006
模	-11.006
四十一	-11.006
力驗	-11.006
是年	-11.0061
局	-11.0061
汋	-11.0061
烟	-11.0061
反注及	-11.0062
通典	-11.0062
迺	-11.0063
籩	-11.0064
粹	-11.0064
簠	-11.0065
折衷	-11.0066
有可	-11.0066
巡狩	-11.0067
巾車	-11.0069
爛	-11.007
許云	-11.007
廓	-11.0071
十七篇	-11.0071
鏡	-11.0072
司寇	-11.0073
徃徃	-11.0073
職方氏	-11.0074
朝覲	-11.0075
治國	-11.0078
初學記	-11.0079
團	-11.0082
子忽	-11.0082
季秋	-11.0082
之年	-11.0085
水出	-11.0089
都鄙	-11.009
不可為	-11.0093
諸侯不	-11.0094
二十八葉右	-11.0095
坎為	-11.0095
何有	-11.0096
悔亡	-11.0105
附㑹	-11.0106
與其	-11.0109
沈音	-11.0112
升降	-11.0112
邾人	-11.0121
雜卦	-11.0122
集注	-11.0125
顔氏	-11.0126
其類	-11.0129
為句	-11.013
改之	-11.0134
六藝	-11.0137
漢興	-11.0139
燕燕	-11.0142
古堯	-11.0143
也字林	-11.0161
大亨	-11.0163
第三十	-11.0164
成文	-11.0164
也又問	-11.0168
皇帝	-11.017
來者	-11.0183
不廢	-11.0189
天帝	-11.019
皆用	-11.019
後漢書	-11.0192
元吉	-11.0193
从木	-11.0194
昊	-11.0196
丁亂反	-11.0197
貴於	-11.0203
憂也	-11.0206
便自	-11.0208
六行注	-11.0211
二十二葉左	-11.0211
是其	-11.0211
髙下	-11.0212
為水	-11.0217
如何是	-11.0218
六書	-11.0222
動則	-11.0223
音洛下	-11.0224
亦通	-11.0231
謹按此	-11.0233
為宫	-11.0233
上説	-11.0237
於理	-11.0238
于齊	-11.0239
無而字	-11.0247
而長	-11.0253
這是	-11.0253
而進	-11.0259
食亦反	-11.026
不立	-11.0266
天而	-11.0266
羌吕	-11.0272
不可得而	-11.0272
說云	-11.0274
也考異古本經	-11.0278
祖父	-11.0279
長大	-11.0283
縢	-11.0285
附近之近	-11.0286
陪	-11.0287
絮	-11.0287
甑	-11.0288
何以知	-11.029
渴	-11.0293
生子	-11.0296
齊魯	-11.0297
堇	-11.0297
淡	-11.0297
譚	-11.0297
嵩	-11.0298
伯夷	-11.0298
忱	-11.0298
者以為	-11.0298
鞫	-11.0299
餓	-11.0299
莪	-11.0299
十有五	-11.03
璜	-11.03
無作亡	-11.0301
凱	-11.0301
秬	-11.0302
饔	-11.0302
詘	-11.0303
超	-11.0303
懇	-11.0304
不著	-11.0304
本草	-11.0305
戕	-11.0305
以從	-11.0307
譎	-11.0307
縳	-11.0308
苕	-11.0308
涂	-11.0309
未安	-11.0309
繞	-11.031
岡	-11.031
解詁	-11.031
球	-11.0311
之所為	-11.0311
塾	-11.0311
汾	-11.0312
飄	-11.0312
為災	-11.0312
肫	-11.0314
仁人	-11.0316
孔穎達	-11.0316
萍	-11.0316
觜	-11.0317
辟廱	-11.0317
書傳	-11.0318
度也	-11.0318
繋	-11.0318
州吁	-11.0318
澆	-11.0319
黄義剛録	-11.032
為天下	-11.032
之私	-11.0321
我心	-11.0321
一隂一陽	-11.0322
三本足利本宋板	-11.0323
是說	-11.0324
無明文	-11.0324
籠	-11.0324
成於	-11.0325
班固	-11.0326
字非	-11.0331
文帝	-11.0331
無形	-11.0333
科斗	-11.0336
令尹	-11.0342
大槩	-11.0343
引詩	-11.0343
豉反	-11.0345
夏后	-11.0352
蔡侯	-11.0352
力報反	-11.0353
可為	-11.0356
者下有也字	-11.0357
方有	-11.0357
三年之喪	-11.0358
繼之	-11.0358
其俱	-11.0359
言君子	-11.0371
一體	-11.0372
夏四月	-11.0374
或如字	-11.0374
欽定四庫全書朱子五經語類卷	-11.0386
便説	-11.0387
六曰	-11.0387
雷風	-11.0387
烝民	-11.0388
鄉飲酒	-11.0395
之業	-11.0395
平平	-11.0396
梓人	-11.0396
而小	-11.0396
補遺一本	-11.0398
並非	-11.0401
氏作	-11.0402
謂作為	-11.0402
而不及	-11.0407
而弗	-11.0408
已之	-11.0409
為陽	-11.0411
夏商	-11.0411
下有其字	-11.0411
裏面	-11.0413
惟有	-11.0415
此經	-11.0416
於魯	-11.0417
戸嫁	-11.0417
一乘	-11.042
地也	-11.0424
者豈	-11.0426
更不	-11.0428
百畝	-11.043
治水	-11.043
九卷	-11.0432
坤卦	-11.0434
絶之	-11.0434
五十里	-11.0435
以應	-11.0437
之妻	-11.0438
地中	-11.0444
止之	-11.0444
耳目	-11.0451
大車	-11.0454
證反	-11.0454
房中	-11.0464
寡人	-11.047
上公	-11.0471
往往	-11.0475
直用反	-11.048
有子	-11.048
讀者	-11.0483
水土	-11.0484
古外反	-11.0487
衣也	-11.0488
下大夫	-11.0489
載師	-11.0491
是指	-11.0495
襄王	-11.0501
昏禮	-11.0502
皆與	-11.0512
之禍	-11.0515
乎哉	-11.0516
天下之大	-11.0521
在西	-11.0523
覲反	-11.0528
皐	-11.0528
志於	-11.0531
政治	-11.0531
也也上有者字足利本同	-11.0534
同人	-11.0536
霤	-11.0536
下當脫	-11.0538
腫	-11.0538
三危	-11.0539
鴟	-11.0539
俶	-11.0541
四篇	-11.0542
之差	-11.0542
吕氏	-11.0543
匄	-11.0543
䜴	-11.0547
谿	-11.0549
無子	-11.0551
魯公	-11.0552
盎	-11.0553
頴	-11.0553
沐	-11.0553
耜	-11.0554
護	-11.0555
鷹	-11.0555
雁	-11.0556
帝嚳	-11.0556
辦	-11.0556
紇	-11.0557
衾	-11.0558
株	-11.0558
韎	-11.0558
潜	-11.0559
旟	-11.0559
閼	-11.0559
電	-11.0559
慧	-11.056
収	-11.056
梨	-11.056
有虞氏	-11.056
潁川	-11.0561
繻	-11.0562
屠	-11.0563
扑	-11.0563
撻	-11.0564
筥	-11.0564
上九爻辭	-11.0565
董銖錄	-11.0565
日本山井鼎物觀撰禮記註疏第	-11.0565
致知	-11.0565
返	-11.0567
庚辰	-11.0569
大有	-11.0569
甥	-11.0569
庶母	-11.057
京兆	-11.057
封疆	-11.0571
釋詁云	-11.0571
琰	-11.0573
黄㽦録	-11.0574
又與	-11.0574
此乃	-11.0577
柷	-11.0578
憧憧	-11.0579
日月星辰	-11.058
諡法	-11.0581
憂患	-11.0582
弓矢	-11.0583
㳺	-11.0584
臻	-11.0585
豫州	-11.0586
夾鍾	-11.0591
相合	-11.0592
恐懼	-11.0596
至善	-11.0597
於中	-11.0598
正如	-11.0598
此所以	-11.0599
則天下	-11.0602
如初	-11.0603
樊注	-11.0604
九寸	-11.0607
色主	-11.061
承天	-11.061
七寸	-11.0611
第七章	-11.0619
然後可以	-11.062
一隂	-11.062
赤道	-11.062
甫田	-11.0621
詩序	-11.0622
方伯	-11.0623
寡君	-11.063
林學蒙錄第	-11.063
必有所	-11.0631
公羊疏	-11.0631
篇末	-11.0638
自明	-11.0644
音亮	-11.0645
而從	-11.0649
之承	-11.065
湯武	-11.065
近於	-11.0651
又非	-11.0651
是要	-11.0655
鄭玄云	-11.0663
天地間	-11.0667
也或曰	-11.0675
右繫辭	-11.0682
二十六葉右	-11.0685
也周禮	-11.0689
合而	-11.0695
必不	-11.0698
用兵	-11.0708
不修	-11.0709
春正月	-11.0709
八卦之	-11.071
相通	-11.071
者多矣	-11.0714
居東	-11.0715
徳者	-11.072
説卦	-11.0723
是聖人	-11.0726
亦可以	-11.0727
法則	-11.0729
豈得	-11.0729
一尺	-11.0731
不似	-11.0739
王政	-11.074
徐又音	-11.0743
人身	-11.0745
出自	-11.0748
詩召	-11.075
矣何	-11.0754
遷殷	-11.0754
鄭衆	-11.0754
皆得	-11.0755
時節	-11.0757
各以其	-11.0757
下三本有也	-11.0761
逺矣	-11.0763
三十一葉	-11.0767
到得	-11.077
徳也	-11.0771
註謂	-11.0774
則能	-11.0785
故聖人	-11.0786
使我	-11.0787
二寸	-11.0788
軷	-11.0802
羹	-11.0803
正朔	-11.0805
周道	-11.0809
九六	-11.0809
荐	-11.081
鬄	-11.0811
脣	-11.0812
初佳反	-11.0813
暉	-11.0814
薺	-11.0814
之東	-11.0815
耒	-11.0815
纍	-11.0816
祖考	-11.0817
杏	-11.0817
迴	-11.0817
刮	-11.0818
譴	-11.0818
蟊	-11.0818
謗	-11.0818
蟋蟀	-11.0819
沓	-11.0819
禖	-11.0819
酋	-11.082
蕪	-11.082
烖	-11.082
淄	-11.082
餞	-11.0821
則亦	-11.0821
苻	-11.0821
縿	-11.0821
所説	-11.0821
祭法	-11.0823
苦怪	-11.0823
洋洋	-11.0824
叩	-11.0825
逋	-11.0826
女作汝	-11.0827
力報	-11.0827
屈伸	-11.0829
構	-11.0829
晋	-11.0831
扐	-11.0832
可使	-11.0833
迄	-11.0833
辠	-11.0833
茲	-11.0834
皇矣	-11.0834
荏	-11.0834
斿	-11.0834
三禮圖	-11.0835
兀	-11.0837
路寢	-11.0837
按春秋	-11.0842
矣乃	-11.0842
人作民	-11.0844
冐	-11.0845
加以	-11.0845
之所以為	-11.0847
飛鳥	-11.0848
離為	-11.085
鵲巢	-11.085
鄭讀	-11.0852
上生	-11.0852
二隂	-11.0854
十二卷	-11.0854
注下同	-11.0857
耳若	-11.0859
讀之	-11.0862
音咨	-11.0863
以事	-11.0863
剛健	-11.0864
上有而字	-11.0867
宰我	-11.0868
作兩	-11.087
之大者	-11.0873
彼此	-11.0878
陽冰	-11.0884
理㑹得	-11.0885
於鴆	-11.089
大矣	-11.0891
已成	-11.0892
經云	-11.0893
于僞反注	-11.0901
加之	-11.0904
豈弟	-11.0911
古禾	-11.0912
天下之人	-11.0913
王肅作	-11.0914
生魄	-11.0919
不害	-11.0922
而无	-11.0924
為博士	-11.0929
字衍	-11.0937
刺之	-11.0939
原本	-11.094
宋本御覽	-11.0941
文姜	-11.0946
時便	-11.0951
國之君	-11.0956
可食	-11.0959
注曰	-11.0962
不知是	-11.0964
此章言	-11.0967
章勇	-11.0968
入門	-11.0972
敬之	-11.0974
陳侯	-11.0976
在我	-11.0977
必利反	-11.0979
傳文	-11.098
五年傳	-11.0981
而觀	-11.0983
駁曰	-11.0985
太陽	-11.0986
封於	-11.0987
害也	-11.099
字書作	-11.0992
子貢曰	-11.0996
繫於	-11.0998
行禮	-11.1005
矣其	-11.101
邑也	-11.1013
為國	-11.1018
乃有	-11.1024
意者	-11.1025
分之	-11.1026
朔日	-11.1027
祭器	-11.103
天人	-11.1033
又引	-11.104
下同釋文	-11.105
四方之	-11.1055
而用	-11.1056
古今字	-11.1061
宋板足利本	-11.1062
黏	-11.1064
正者	-11.1064
奐	-11.1064
底事	-11.1065
鑣	-11.1066
儼	-11.1069
二章疏	-11.1069
音類	-11.1074
易知	-11.1077
自古	-11.1077
衛人	-11.1079
甗	-11.1079
綌	-11.108
酷	-11.108
櫛	-11.1081
煇	-11.1084
莫若	-11.1085
御覧	-11.1087
纊	-11.1088
今按	-11.1088
燬	-11.1088
唁	-11.1089
紘	-11.109
采薇	-11.109
埴	-11.109
靁	-11.109
租	-11.1091
掣	-11.1091
桎	-11.1091
其法	-11.1091
剖	-11.1093
瑶	-11.1093
胷	-11.1093
蕩蕩	-11.1093
殁	-11.1094
下有也下傳	-11.1094
怵	-11.1094
裴	-11.1094
燿	-11.1094
擁	-11.1098
讀詩	-11.1098
方百里	-11.1098
中興	-11.1098
經者	-11.1099
簡文云	-11.1099
膾	-11.1099
座	-11.1099
耗	-11.1099
趙盾	-11.1099
荀爽	-11.1099
一處	-11.11
二五	-11.1101
悠悠	-11.1101
驩	-11.1101
邉	-11.1103
帖	-11.1103
騶	-11.1103
鳲鳩	-11.1104
禀	-11.1104
咏	-11.1104
徳行	-11.1105
揚之水	-11.1106
偉	-11.1106
而致	-11.1106
閩	-11.1107
賈公彦	-11.1109
屬下	-11.111
無者字	-11.111
廢疾	-11.1111
經問卷	-11.1114
褐	-11.1115
亦必	-11.1117
中候	-11.1117
脉	-11.1119
音符	-11.112
亦誤	-11.112
成就	-11.112
在内	-11.112
洞庭	-11.112
九四爻辭	-11.1126
將將	-11.1126
寺人	-11.1128
丁丈反下	-11.1132
仲弓	-11.1132
兩箇	-11.1132
此說	-11.1133
知此	-11.1137
市志	-11.1141
患難	-11.1141
然且	-11.1141
仲冬	-11.1144
不説	-11.1145
畫八卦	-11.1147
百工	-11.1155
色白	-11.1156
也薛章句	-11.1158
宣帝	-11.1159
滎陽	-11.116
以喻	-11.1161
不去	-11.1163
泰伯	-11.1168
二十九葉右	-11.1172
南海	-11.1177
姜氏	-11.1177
白虎	-11.118
之訓	-11.1182
不降	-11.1182
作士	-11.1182
王姬	-11.1186
也也上有	-11.1188
今文無	-11.1191
以立	-11.1192
公田	-11.1195
致命	-11.1201
音壬	-11.1201
實則	-11.1206
未為	-11.1208
彖象	-11.121
南吕	-11.121
而不言	-11.1212
其制	-11.1214
此之謂也	-11.1215
明徳	-11.1217
可用	-11.1218
義同	-11.1219
小宗	-11.1225
陽縣	-11.1226
名之曰	-11.1227
焉用	-11.1228
方能	-11.1232
而動	-11.1246
為地	-11.1248
下二本有也	-11.1251
孰能	-11.1252
象形	-11.1254
王使	-11.126
一理	-11.1263
職方	-11.1264
為異	-11.1265
各以	-11.1276
蜀才	-11.1278
不起	-11.1281
案此	-11.1283
之利	-11.1287
世卦	-11.1288
欲使	-11.1289
不能自	-11.1291
十三卷	-11.1291
諸侯有	-11.1293
諸夏	-11.1295
不得已	-11.1296
禮記作	-11.1297
周室	-11.1298
其能	-11.1304
匠	-11.1305
戀反	-11.1307
祭名	-11.1311
裡	-11.1319
似非	-11.1319
大子	-11.1324
四分	-11.1325
寺	-11.1325
十篇	-11.133
今本作	-11.1334
􁂒(	-11.1335
舊文	-11.1336
反對	-11.1336
也又云	-11.1337
死生	-11.134
又復	-11.1343
而始	-11.1344
是知	-11.1349
君子不	-11.135
煖	-11.1351
所歸	-11.1352
􁂒	-11.1352
剽	-11.1354
河上	-11.1354
九州之	-11.1356
墾	-11.1356
卽	-11.1356
擔	-11.1358
張逸問	-11.1358
帳	-11.1358
釡	-11.1359
螢	-11.1359
影宋本集韻	-11.1359
故夫子	-11.1359
斝	-11.136
息列反	-11.136
水也	-11.136
齍	-11.136
治天下	-11.136
鮒	-11.136
司農	-11.1361
揉	-11.1363
阼階	-11.1364
糜	-11.1364
春王正月	-11.1366
應劭	-11.1366
山海經	-11.1366
抄本	-11.1366
伺	-11.1366
昕	-11.1367
稠	-11.1368
贏	-11.1368
藏諸用	-11.1369
沸	-11.137
械	-11.137
捄	-11.1371
四夷	-11.1372
褘	-11.1372
殃	-11.1372
慘	-11.1373
阨	-11.1373
褊	-11.1374
穹	-11.1374
羙	-11.1374
通志堂本作	-11.1374
遑	-11.1375
姓名	-11.1375
虎賁	-11.1375
騷	-11.1376
下疑脱	-11.1377
牧誓	-11.1377
鳬	-11.1378
作詩	-11.1379
巛	-11.1379
愉	-11.1379
儲	-11.138
苹	-11.1381
腐	-11.1381
霧	-11.1382
何居	-11.1382
吠	-11.1383
戊午	-11.1385
太宰	-11.1387
属	-11.1388
文王世子	-11.1388
趙岐	-11.1389
輟	-11.139
遟	-11.139
堆	-11.1393
大祝	-11.1393
叔姬	-11.1395
菊	-11.1398
正徳	-11.1399
從容	-11.1402
七政	-11.1403
魚麗	-11.1404
失禮	-11.1409
窮理	-11.1416
一車	-11.1416
可見矣	-11.1419
曾子問	-11.1421
此便是	-11.1426
司馬本作	-11.1431
亦如此	-11.1431
表記	-11.1434
一朝	-11.1435
舜之	-11.1439
為君子	-11.1439
陳注	-11.144
上天	-11.1442
為治	-11.1443
二百里	-11.1446
重耳	-11.1449
地下	-11.145
此本	-11.145
原有	-11.1453
周家	-11.1455
之役	-11.1459
岐山	-11.1462
二分	-11.1464
八曰	-11.1465
憂心	-11.1466
合為	-11.1466
人人	-11.1466
當如此	-11.1467
小人之	-11.1468
化為	-11.1469
賜之	-11.1471
用心	-11.1473
之䘮	-11.1474
安在	-11.148
儒者	-11.1484
衿	-11.1486
此處	-11.1486
猶未	-11.149
乗馬	-11.149
漢初	-11.1492
厲公	-11.1492
别子	-11.1495
所欲	-11.1502
第十二章	-11.1503
似嗟反	-11.1504
孔壁	-11.1505
有許多	-11.1508
哀樂	-11.1509
一言	-11.151
學易	-11.1513
廟中	-11.1513
從政	-11.1515
言行	-11.1515
都無	-11.1518
音博	-11.1519
庫門	-11.1521
一説	-11.1524
於物	-11.1527
音餘下	-11.1528
大意	-11.1529
乎且	-11.1529
仲夏	-11.153
宗廟之	-11.1531
功成	-11.1535
宋本文選注	-11.1536
也况	-11.1537
樂師	-11.154
老人	-11.1541
舊唐書四	-11.1542
所及	-11.1555
何獨	-11.1555
六寸	-11.1557
漢律	-11.1558
字脱	-11.1559
並不	-11.1562
四行注	-11.1564
山曰	-11.1564
名字	-11.1564
第十一章	-11.1566
二十卷	-11.157
重也	-11.1574
而知之	-11.1575
精神	-11.1579
鄭本	-11.158
則失	-11.1587
不得為	-11.1593
於旣反	-11.1594
之弟	-11.1601
後之	-11.1608
無過	-11.1611
各有所	-11.1618
情性	-11.1622
急也	-11.1624
責之	-11.1624
盛徳	-11.1631
相親	-11.1632
龍門	-11.1633
繢	-11.1635
矣哉	-11.1636
本字	-11.1636
秦漢	-11.1638
三十葉	-11.164
揔	-11.1641
之山	-11.1641
蚳	-11.1641
祓	-11.1643
覿	-11.1644
珽	-11.1644
蝗	-11.1646
茆	-11.1646
諶	-11.1646
藍	-11.1647
遞	-11.1648
行乎	-11.1648
輴	-11.1649
畛	-11.1649
軾	-11.165
麛	-11.165
蠆	-11.165
廏	-11.165
紳	-11.1651
隴	-11.1651
麕	-11.1651
柶	-11.1652
絡	-11.1652
言天	-11.1653
妺	-11.1654
油	-11.1654
棐	-11.1655
不受	-11.1655
㒺	-11.1656
菆	-11.1656
紏	-11.1656
髙誘曰	-11.1656
忠恕	-11.1656
鴟鴞	-11.1657
須有	-11.1657
考異足利本經	-11.1657
婢支	-11.1658
駘	-11.1658
郟	-11.1659
蕡	-11.1659
慆	-11.1659
事理	-11.1659
音附	-11.1659
喉	-11.166
䘏	-11.166
潞	-11.166
楣	-11.166
穀梁傳	-11.166
之效	-11.1661
鏗	-11.1661
後學	-11.1662
蔡章句	-11.1662
胸	-11.1662
斆	-11.1662
采菽	-11.1662
詹	-11.1663
闡	-11.1663
慾	-11.1663
引作	-11.1666
敗績	-11.1667
楊道夫録	-11.1667
林夔孫錄	-11.1667
扶問	-11.1668
𤓰	-11.1669
腸	-11.1671
唱	-11.1671
祜	-11.1673
蔡邕	-11.1674
古洽	-11.1678
文意	-11.1679
經解	-11.1683
漢世	-11.1683
集韻	-11.1685
髙明	-11.1687
焉能	-11.1688
音祈	-11.1689
女乙	-11.169
莫之	-11.1701
許多道理	-11.1702
首尾	-11.1702
殊不知	-11.1703
古卯	-11.1706
胡老	-11.1709
重言	-11.1711
王畿	-11.1716
古活	-11.1721
祭統	-11.1722
白華	-11.1728
其樂	-11.1735
不曉	-11.1739
辰星	-11.1742
沈又	-11.1743
言我	-11.1748
也廣雅云	-11.175
也是故	-11.175
聖人之道	-11.175
冬官	-11.1752
小戎	-11.1753
私意	-11.1759
音機	-11.1762
喜樂	-11.1765
三十卷	-11.1767
大象	-11.1769
三苗	-11.1769
自言	-11.177
百七十	-11.1776
於前	-11.1784
一丈	-11.1793
而逺	-11.1794
不祥	-11.1794
臥反	-11.1796
漢志作	-11.1808
謹按註	-11.1813
這裏	-11.1813
句讀	-11.1814
度量	-11.1814
用此	-11.1814
左一行	-11.1814
八年傳	-11.1815
求諸	-11.1816
一音如字	-11.1817
之比	-11.1819
甲士	-11.1819
也王注	-11.1829
先儒謂	-11.1831
申志	-11.1832
方得	-11.1833
而退	-11.1834
學官	-11.1834
置之	-11.1837
誤以	-11.184
遂人	-11.1841
其初	-11.1844
經文作	-11.1848
文選注十	-11.1849
之所在	-11.1853
敬王	-11.1853
五十五	-11.1855
王肅注	-11.1857
愛之	-11.1862
者盖	-11.187
因而	-11.187
勿用	-11.1871
者哉	-11.1879
音導	-11.1888
也雖然	-11.1895
日出	-11.1896
錄云	-11.1896
解之	-11.1901
始豉	-11.1901
附於	-11.1904
則在	-11.1905
為首	-11.1905
丁浪反	-11.1905
爲韻	-11.1908
不甚	-11.191
尚未	-11.1915
治民	-11.1915
沈云	-11.1919
無異	-11.192
得其所	-11.1924
姆	-11.1925
三嵗	-11.1926
慰	-11.1927
沫	-11.1927
秃	-11.193
諸臣	-11.1931
色界反	-11.1934
從事	-11.1934
成數	-11.1935
應對之應	-11.1937
纚	-11.1937
是陽	-11.1937
跳	-11.1937
襢	-11.1937
自天子	-11.1938
朗	-11.1938
彤	-11.1938
瘍	-11.1939
眂	-11.1942
斲	-11.1943
袗	-11.1943
赬	-11.1944
謫	-11.1945
瘞	-11.1945
蠲	-11.1945
闋	-11.1946
繳	-11.1947
踣	-11.1947
樽	-11.1947
磐	-11.1948
古洽反	-11.1948
聖王	-11.1949
詩疏八之	-11.1949
顯諸仁	-11.1949
佼	-11.1949
孳	-11.1949
帨	-11.1949
罹	-11.195
壓	-11.1951
士冠禮	-11.1951
旻天	-11.1951
鄣	-11.1952
厖	-11.1952
巖	-11.1953
湎	-11.1953
逡	-11.1954
六鄉	-11.1954
貿	-11.1954
戢	-11.1955
綠	-11.1956
醻	-11.1957
逖	-11.1957
醇	-11.1958
簒	-11.1958
于偽反	-11.1958
丗	-11.1959
湘	-11.1959
廸	-11.196
祁祁	-11.1961
白駒	-11.1962
戊申	-11.1962
筆削	-11.1962
詩中	-11.1962
樂者	-11.1963
之樹	-11.1965
攜	-11.1965
瘁	-11.1965
武王伐紂	-11.1966
苐	-11.1966
捧	-11.1966
肅拜	-11.1967
表裏	-11.1967
黃帝	-11.1967
杓	-11.1968
於己	-11.1968
而用之	-11.1969
之深	-11.197
三卿	-11.197
不顯	-11.1972
一身	-11.1973
在室	-11.1974
四徳	-11.1976
魯侯	-11.1976
為氏	-11.1976
世世	-11.1976
豳風	-11.1978
羲和	-11.1978
之亂	-11.198
漸漸	-11.198
曲臺	-11.1982
營室	-11.1983
血氣	-11.1984
以至於	-11.1984
圜丘	-11.1987
成性	-11.1988
刼	-11.1989
未嘗有	-11.1989
以別	-11.199
太康	-11.1991
未定	-11.1993
動靜	-11.1996
㑹稽	-11.1997
不踰	-11.1998
平易	-11.2
未可以	-11.2001
乃可	-11.2006
孔子弟子	-11.2006
于敏	-11.2006
解云	-11.2013
西階	-11.2015
樂器	-11.2019
盡心	-11.2022
下有也字補遺宋板疏	-11.2022
水經注二十	-11.2024
季夏	-11.2024
帝曰	-11.2029
胡臥	-11.2031
芳夫	-11.2035
黄金	-11.2035
一件	-11.2036
莫非	-11.2037
也然而	-11.2037
容貌	-11.2046
惡惡	-11.2046
安民	-11.2048
張丈	-11.2048
古本註	-11.2049
死則	-11.2052
□□	-11.2054
四十三	-11.2057
宋板足利本同註	-11.2059
五十六	-11.2059
秦伯	-11.2062
相生	-11.2064
何哉	-11.2069
無厭	-11.207
始祖	-11.207
不告	-11.2071
足利本宋板同	-11.2076
不可知	-11.2079
多有	-11.2089
無此字	-11.2091
出注	-11.2095
之事則	-11.2095
尊而	-11.2106
故先	-11.2112
南郊	-11.2113
六卷	-11.2118
形體	-11.2123
音弗	-11.2125
必須	-11.2126
不可以不	-11.213
無足	-11.2131
人能	-11.2132
二十五葉左	-11.2136
反廣雅云	-11.2141
周禮疏	-11.2145
始銳	-11.2145
説易	-11.215
之迹	-11.2155
側其	-11.2156
其始	-11.2156
賢臣	-11.2159
三統	-11.2161
而不得	-11.2164
及考	-11.2165
配天	-11.2171
出門	-11.2176
反郭音	-11.2177
陽生	-11.2183
道路	-11.2183
為諸侯	-11.2185
先聖	-11.2193
拜送	-11.2193
先言	-11.2198
置也	-11.2199
和氣	-11.22
大吕	-11.22
自見	-11.2203
正位	-11.2208
央	-11.2209
釋文二十九	-11.221
文作云	-11.221
恭敬	-11.2216
承之	-11.2219
二十七葉左	-11.2219
魯論	-11.2226
考異古本	-11.2227
二十九葉左	-11.2228
泲	-11.2229
以共	-11.2231
遙	-11.2233
刄	-11.2233
也說文作	-11.2235
佳賣	-11.2236
糝	-11.2236
鬣	-11.2237
東山	-11.2237
江南	-11.2239
圖書	-11.2239
吐刀	-11.224
迥	-11.2241
義宗	-11.2241
嘖	-11.2242
重出	-11.2242
吐活	-11.2243
愁	-11.2244
有年	-11.2244
諜	-11.2244
贍	-11.2244
正德嘉靖	-11.2245
櫝	-11.2246
吿	-11.2246
嘯	-11.2246
五篇	-11.2246
鵙	-11.2247
紒	-11.2247
二十七葉右	-11.2247
王廙	-11.2248
他國	-11.2248
漠	-11.2248
肴	-11.2249
康王之誥	-11.2249
啐	-11.225
鷄	-11.2252
棫樸	-11.2252
董仲舒	-11.2252
甒	-11.2253
簪	-11.2254
檉	-11.2255
鞮	-11.2255
隣	-11.2256
櫬	-11.2256
紺	-11.2256
犀	-11.2256
佃	-11.2256
鎬	-11.2257
初賣	-11.2257
砥	-11.2257
蓼蕭	-11.2258
卷阿	-11.2258
牧野	-11.2258
存焉	-11.2258
腦	-11.2259
而改	-11.226
瞍	-11.2261
眩	-11.2261
傑	-11.2261
迓	-11.2261
糗	-11.2262
起也	-11.2262
不弔	-11.2262
璽	-11.2264
利見大人	-11.2264
嵗池録	-11.2264
通典八十	-11.2264
蜩	-11.2264
虵	-11.2265
捉	-11.2266
紕	-11.2266
踵	-11.2267
為惡	-11.2269
輹	-11.2269
麟趾	-11.2269
漂	-11.227
七八	-11.227
肅肅	-11.2271
托	-11.2271
䧟	-11.2271
一定	-11.2271
坑	-11.2271
險阻	-11.2271
五禮	-11.2272
篇首	-11.2274
猶存	-11.2274
儒林傳	-11.2274
東萊	-11.2278
杜撰	-11.2278
删	-11.2279
杵	-11.2279
三百八十四爻	-11.228
轍	-11.228
即今	-11.2283
先天圖	-11.2285
稱公	-11.2285
祭服	-11.2286
敢問	-11.2286
莊姜	-11.2288
之豉	-11.2295
其命	-11.2295
其首	-11.2295
下有也字註	-11.2297
先生曰	-11.2298
公卿	-11.2298
催	-11.2301
析木	-11.2302
之好	-11.2306
時作	-11.2307
天下之事	-11.2308
尋常	-11.2308
疏挍	-11.2309
今俗	-11.2309
于作於	-11.231
日也	-11.2311
如銳	-11.2312
故雖	-11.2314
中道	-11.2315
十翼	-11.2315
羊尚	-11.2316
其綺	-11.2317
則不能	-11.2318
主祭	-11.2321
不義	-11.2322
異端	-11.2324
理會	-11.2326
二尺	-11.2331
東遷	-11.2338
程氏	-11.234
讀易	-11.2344
水曰	-11.2346
酒食	-11.2346
祖父母	-11.2347
及下皆同	-11.2348
近郊	-11.235
三百里	-11.2355
字補遺古本註	-11.2359
並釋文	-11.2361
呼報反下	-11.2363
山林	-11.2365
也棟案	-11.2368
何足	-11.2369
不可考	-11.2369
第九	-11.237
萬一	-11.237
王父	-11.2372
伯恭	-11.2373
音旋	-11.2375
初生	-11.238
四代	-11.238
熊氏	-11.2385
音閑	-11.2386
戊子	-11.2391
傅説	-11.2392
九家	-11.2398
冉有	-11.24
爲君	-11.24
必欲	-11.24
一叚	-11.2402
立秋	-11.2402
小事	-11.2403
之所由	-11.2407
豈非	-11.2407
進徳	-11.2409
之域	-11.2409
教化	-11.2413
凡事	-11.2415
卷耳	-11.2422
茂盛	-11.2423
大序	-11.2428
爵弁	-11.2429
愚謂	-11.243
子鴆	-11.2434
偽書	-11.2435
處便是	-11.2436
發見	-11.2439
無怨	-11.2439
不暇	-11.244
互相	-11.2441
引之	-11.2447
助之	-11.2449
遺也	-11.2452
于廟	-11.2453
記曰	-11.2455
四卷	-11.2456
徐子	-11.2457
只是一箇	-11.246
已矣	-11.2461
以合	-11.2464
此即	-11.2465
之所生	-11.2465
常人	-11.2465
並行	-11.2468
孔子生	-11.247
三正	-11.2471
以類	-11.2474
封國	-11.2474
王朝	-11.2481
六篇	-11.2483
直吏反下	-11.2485
亡丁	-11.2486
艸	-11.249
春秋時	-11.2496
士卒	-11.2504
大叔	-11.2508
失國	-11.2519
這道理	-11.2524
作由	-11.2524
音燭	-11.2526
祖宗	-11.253
髙大	-11.2531
漢水	-11.2532
自己	-11.2537
而必	-11.2538
旆	-11.2538
皮冰	-11.2541
似乎	-11.2541
案毛氏云	-11.2542
亡矣	-11.2543
伶	-11.2549
啖集傳	-11.2549
既成	-11.2549
夸	-11.255
音征	-11.255
駰	-11.2551
曁	-11.2551
瑩	-11.2552
以御	-11.2553
髲	-11.2553
六軍	-11.2554
搢	-11.2555
髢	-11.2555
右手	-11.2555
嗛	-11.2555
萬厯崇禎本	-11.2556
何則	-11.2557
竦	-11.256
橘	-11.2561
妬	-11.2561
藜	-11.2561
溷	-11.2562
户雅	-11.2562
喪大記	-11.2563
駹	-11.2563
鑒	-11.2563
玷	-11.2563
嬌	-11.2564
斟	-11.2565
六經正誤	-11.2565
鎭	-11.2567
巷伯	-11.2569
瑗	-11.2569
翼翼	-11.2569
濳	-11.2569
癸巳	-11.2569
犆	-11.257
仡	-11.2571
鄖	-11.2571
必爾反	-11.2572
悛	-11.2572
喪禮	-11.2572
音權	-11.2572
蒍	-11.2573
二十八宿	-11.2574
汨	-11.2574
姜嫄	-11.2574
廹	-11.2575
届	-11.2575
答拜	-11.2576
觯	-11.2576
刺幽王	-11.2576
而獨	-11.2576
揺	-11.2576
甞	-11.2576
采蘋	-11.2577
視朝	-11.2577
籩豆	-11.2578
勤勞	-11.2578
軍旅	-11.2578
畬	-11.2579
駱	-11.2579
掇	-11.2581
簧	-11.2585
仲山甫	-11.2585
必待	-11.2586
百人	-11.2587
彬	-11.2587
亾	-11.2589
刑罰	-11.2589
丁亥	-11.259
凉	-11.259
循環	-11.259
參差	-11.2591
民心	-11.2597
尚書大傳	-11.2598
坤為	-11.2599
鄉黨	-11.2601
小宰	-11.2601
同時	-11.2605
而不用	-11.2605
其難	-11.2606
不知所	-11.2608
觀之則	-11.2608
青州	-11.2611
北辰	-11.2616
侵伐	-11.2616
下三本有也字	-11.2617
闕里	-11.2619
立于	-11.262
許慎	-11.2626
小斂	-11.2627
註放此	-11.2629
應鍾	-11.2636
綱領	-11.2638
與他	-11.2639
庚戌	-11.264
下有於字	-11.2642
大業	-11.2642
議論	-11.2645
南向	-11.2645
萬國	-11.2647
殷民	-11.2647
建子	-11.265
不共	-11.2655
始銳反	-11.2655
昭王	-11.2658
侍中	-11.2659
消長	-11.2659
九勇	-11.2661
第十一	-11.2662
八十一	-11.2665
才臥	-11.2667
鄭𤣥	-11.2671
易簡	-11.2673
萬事	-11.2677
也是以	-11.2682
戒之	-11.2683
力行	-11.2687
言易	-11.2695
於河	-11.2696
諸國	-11.2698
道德	-11.2699
各異	-11.27
千五百	-11.2704
聲色	-11.2705
五穀	-11.2708
三百篇	-11.2708
正直	-11.2717
禮儀	-11.2718
子夏作	-11.2721
亦不能	-11.2728
之辭也	-11.2733
字當在	-11.2739
春秋傳曰	-11.2741
正嘉同謹按	-11.2754
此豈	-11.2756
之始也	-11.2757
白馬	-11.276
四面	-11.2762
為母	-11.2763
天地之道	-11.2763
其服	-11.2765
上說	-11.2766
之才	-11.2767
為卿	-11.277
他日	-11.2773
無主	-11.2775
丁老反	-11.278
公侯	-11.2783
外朝	-11.2788
常棣	-11.2792
只是這	-11.2793
綺	-11.2796
也一音	-11.2797
能行	-11.28
如字下同	-11.28
齊桓公	-11.2803
有疾	-11.2806
善道	-11.2823
之心也	-11.2827
虞夏	-11.2829
文昌	-11.283
古外	-11.2831
六年傳	-11.2831
禮經	-11.2836
鄰國	-11.2839
以来	-11.2841
趙氏	-11.2842
居正	-11.2846
馬注	-11.2851
比於	-11.2851
反謹按當在	-11.2855
擩	-11.2856
書亦或為	-11.2857
變動	-11.2866
釋名云	-11.2866
失道	-11.2869
紞	-11.287
蹕	-11.2871
起䖍	-11.2871
曆	-11.2873
勦	-11.2874
七雷反	-11.2877
誡	-11.2878
巂	-11.288
隈	-11.2881
笥	-11.2882
匝	-11.2882
蜎	-11.2882
卭	-11.2883
撮	-11.2884
樛	-11.2885
臝	-11.2885
曲沃	-11.2886
療	-11.2886
湆	-11.2886
玄枵	-11.2886
炎帝	-11.2887
漣	-11.2888
甯	-11.2889
倣	-11.2889
爼	-11.289
北堂書鈔	-11.289
許規	-11.289
闊	-11.2891
鋤	-11.2891
熬	-11.2891
懦	-11.2891
冲	-11.2891
古尚書文	-11.2892
力彫	-11.2892
劬	-11.2893
糓	-11.2893
蓺	-11.2893
東都	-11.2893
馨	-11.2893
槐	-11.2894
史記索隱	-11.2894
日本山井鼎物觀撰春秋左傳註疏第	-11.2895
貺	-11.2895
杌	-11.2895
縓	-11.2895
蹲	-11.2895
殻	-11.2896
冊府元龜六百	-11.2896
楚茨	-11.2897
壑	-11.2898
柤	-11.2898
打	-11.2899
穗	-11.2899
喧	-11.29
旡咎	-11.2901
㨿	-11.2902
範圍	-11.2902
前人	-11.2903
閻	-11.2904
湯誓	-11.2904
鐘鼓	-11.2905
欽定四庫全書經部七	-11.2906
可得而	-11.2907
如今人	-11.2907
經學	-11.2908
季札	-11.2908
料	-11.2908
頼	-11.2908
上六爻辭	-11.2908
在魯	-11.2909
五子之歌	-11.2909
庚午	-11.2909
風俗通	-11.291
無極	-11.291
占筮	-11.2913
河間獻王	-11.2913
伎	-11.2914
太保	-11.2915
㮚	-11.2915
大行人	-11.2916
忙	-11.2916
儘	-11.2916
贖刑	-11.2917
力知反	-11.2917
蕤	-11.2919
雨水	-11.2923
洪水	-11.2928
邦之	-11.2929
射義	-11.2931
士毅	-11.2931
饋食	-11.2931
這便是	-11.2932
揚州	-11.2936
郭璞云	-11.2939
佐反	-11.294
字義	-11.294
乃謂	-11.2942
亡甫	-11.2943
不殺	-11.2946
甚多	-11.2947
國事	-11.2947
盡善	-11.2947
謹按正嘉二本	-11.2948
以木	-11.2948
曽子曰	-11.2949
通稱	-11.295
於豔反	-11.2951
三老	-11.2953
必利	-11.2953
斯干	-11.2956
三章疏	-11.2957
所受	-11.2957
禮文	-11.2959
左傳無	-11.2959
伐楚	-11.296
正當	-11.2963
虞舜	-11.2964
太室	-11.2964
憂思	-11.2966
五伯	-11.2966
七亂	-11.2967
耳非	-11.2967
賢才	-11.2968
吉日	-11.2968
昌慮反	-11.2969
聖人作易	-11.2974
有此象	-11.2974
下有人字	-11.2984
佳反	-11.2984
豈無	-11.2984
立冬	-11.2997
太過	-11.3007
進而	-11.3008
䇿書	-11.3009
校官	-11.3009
居表	-11.3017
乗車	-11.3019
力計	-11.3023
明道	-11.303
扶風	-11.3033
等篇	-11.3033
河洛	-11.3035
一截	-11.3036
獻公	-11.3038
齊詩	-11.3038
卦象	-11.3038
方位	-11.3045
知所以	-11.3048
孟氏	-11.3049
皮義	-11.3053
加於	-11.3055
占法	-11.3064
乆矣	-11.3065
章勇反	-11.3068
儀禮疏	-11.3069
其象	-11.3075
國史	-11.3077
簡文	-11.308
從來	-11.3084
廟門	-11.3088
㑹通	-11.3089
宰夫	-11.3091
何由	-11.3097
之什	-11.3098
豈能	-11.3098
辨其	-11.3098
立君	-11.3101
三子	-11.3124
執事	-11.3137
常武	-11.3144
卿大夫士	-11.3163
速也	-11.3165
葉左	-11.3168
世室	-11.3169
外卦	-11.317
四十七	-11.3173
子西	-11.3174
音遥	-11.3174
妻之	-11.3177
天性	-11.3179
營洛	-11.318
而還	-11.3185
魯詩	-11.3185
以剛	-11.3186
元文無	-11.3191
所治	-11.3192
麃	-11.3196
字當衍文	-11.3196
厓	-11.3197
歸藏	-11.3197
小君	-11.3198
艮為	-11.3199
匹亦	-11.3199
孛	-11.32
倮	-11.32
橐	-11.3201
盬	-11.3202
士虞禮	-11.3202
霆	-11.3203
以此為	-11.3203
丘明	-11.3206
降一等	-11.3206
闈	-11.3206
燋	-11.3208
弩	-11.3208
蘆	-11.3209
下並有也字	-11.3209
唐國子博士兼太子中允贈齊州刺史	-11.3209
鬱鬯	-11.3209
儷	-11.3209
顏	-11.321
睆	-11.3211
睡	-11.3211
二條	-11.3212
葛藟	-11.3212
韭	-11.3212
豸	-11.3213
炤	-11.3213
湑	-11.3214
謹按經	-11.3214
卉	-11.3215
音蟹	-11.3215
韗	-11.3217
薫	-11.3217
褎	-11.3217
啖	-11.3218
跗	-11.3218
鼏	-11.3219
饉	-11.3219
郯	-11.3219
沼	-11.3219
篪	-11.3219
緇布冠	-11.322
壬午	-11.322
鍜	-11.322
栝	-11.322
歃	-11.3221
玁狁	-11.3221
愍	-11.3221
涸	-11.3222
菀	-11.3222
狙	-11.3222
閾	-11.3223
訥	-11.3223
瞑	-11.3223
泆	-11.3224
潭	-11.3225
卣	-11.3225
暈	-11.3226
諾	-11.3227
俗本	-11.3227
琮	-11.3227
摭	-11.3227
猾	-11.3228
蠅	-11.3228
逾	-11.3228
瑑	-11.3228
闞	-11.3228
遹	-11.3229
纎毫	-11.3229
棖	-11.3229
層	-11.3231
李方子録	-11.3231
欵	-11.3231
聲相近	-11.3231
采蘩	-11.3232
黔	-11.3232
窟	-11.3233
刳	-11.3233
雌雄	-11.3233
也三字	-11.3234
姬姓	-11.3234
羶	-11.3234
初爻	-11.3235
滔	-11.3236
述其	-11.3237
吕氏春秋	-11.3237
而分	-11.3238
翩	-11.3239
蜚	-11.3239
憮	-11.324
孔頴達	-11.324
畧例	-11.324
狥	-11.3241
直方大	-11.3242
昃	-11.3244
注疏本	-11.3246
黍離	-11.3246
六五爻辭	-11.3247
傳授	-11.3247
子斯	-11.3247
伊訓	-11.3248
伐齊	-11.3248
欲立	-11.3251
妻子	-11.3252
行葦	-11.3253
云作文	-11.3253
陸費墀	-11.3253
昀	-11.3254
皇天	-11.3256
此節	-11.3257
伐紂	-11.326
悼公	-11.3261
自稱	-11.3262
一星	-11.3262
音巨	-11.3264
古毒	-11.3265
謹獨	-11.3265
皇氏	-11.3266
黄鳥	-11.3267
未易	-11.3274
玉衡	-11.3276
亦宜	-11.3276
旺	-11.3276
隨其	-11.3276
魯大夫	-11.3278
縣南	-11.3287
多故	-11.3291
人心之	-11.3292
緩也	-11.3293
豫章	-11.3294
昭昭	-11.3295
辟雍	-11.3296
居豈	-11.3298
只是箇	-11.3301
之子孫	-11.3301
如晉	-11.3308
立夏	-11.3308
本今	-11.3313
於鹽	-11.3318
傳稱	-11.3321
當是時	-11.3323
相比	-11.3323
無益	-11.3323
此固	-11.3324
七篇	-11.3326
隂柔	-11.3328
其目	-11.3332
而夫子	-11.3339
哉右	-11.334
之辰	-11.334
金石	-11.3342
以和	-11.3344
大梁	-11.3344
兖反	-11.3348
疏引	-11.3351
下復有	-11.3351
外内	-11.3351
何以不	-11.3354
二國	-11.3354
獸名	-11.3357
河間	-11.3363
上總	-11.3366
武丁	-11.3367
孝乎	-11.3369
大旱	-11.337
諡也	-11.3371
下二本有也字	-11.3372
魯君	-11.3373
字監本誤	-11.3375
王若曰	-11.3376
坎坎	-11.3377
三畫	-11.3385
補入	-11.3388
說文曰	-11.3394
周禮疏二十	-11.3401
易書	-11.3402
依注作	-11.3404
只為	-11.3407
是之謂	-11.3409
入海	-11.3414
將焉	-11.342
西河	-11.3421
飲之	-11.343
之人也	-11.3432
好色	-11.3433
考異古本註謂	-11.3434
共王	-11.3434
字仲	-11.3436
有不同	-11.344
所以養	-11.3446
第四章	-11.3449
藏於	-11.345
人物	-11.3454
皆由	-11.3455
釋文補脱	-11.346
這處	-11.3461
大凡	-11.3464
客于	-11.3466
宜其	-11.3469
承上	-11.3473
皆稱	-11.3473
鄭箋	-11.3478
能知	-11.3479
姚作	-11.348
興起	-11.3481
繫辭上	-11.3483
誤耳	-11.3486
三十三年	-11.3493
皆當作	-11.3495
孔門	-11.3497
是理	-11.3501
正應	-11.3505
不獨	-11.351
州長	-11.3511
則可以	-11.3512
聖門	-11.3512
下皆放此	-11.3514
挼	-11.3515
子夏曰	-11.3515
宋本春秋疏	-11.3526
之甚也	-11.3531
三蒼云	-11.3536
無適	-11.3537
蛾	-11.3538
不諱	-11.3538
草木䟽云	-11.3539
蘋	-11.3541
埤	-11.3546
姻	-11.3548
帚	-11.3548
瞎	-11.3548
賦云	-11.3548
直又	-11.3549
劉昌宗	-11.3549
杜氏盡	-11.3551
鞏	-11.3552
纂例	-11.3553
伾	-11.3553
紱	-11.3554
廋	-11.3554
裨	-11.3556
躡	-11.3557
李氏	-11.3557
姪娣	-11.3557
彤弓	-11.3558
掉	-11.3558
償	-11.3558
正嘉二本同	-11.3558
臚	-11.3558
姞	-11.3558
掬	-11.3558
弑作殺	-11.3559
紀力反	-11.3559
大射儀	-11.3559
祲	-11.356
遮	-11.3561
隩	-11.3562
博學	-11.3562
摻	-11.3563
猥	-11.3563
鵻	-11.3563
煬	-11.3563
四表	-11.3564
瓶	-11.3564
蔀	-11.3564
稺	-11.3565
㮮	-11.3565
碧	-11.3565
肘	-11.3566
倨	-11.3566
脰	-11.3566
丁禮	-11.3567
下有也字下傳	-11.3567
辛亥	-11.3568
詩疏三之	-11.3568
駉	-11.3569
恬	-11.3569
鵜	-11.3569
字二本同	-11.3569
韻府	-11.3569
六四爻辭	-11.357
塈	-11.3571
覬	-11.3572
簞	-11.3572
清濁	-11.3572
慼	-11.3573
磋	-11.3573
針	-11.3573
庭燎	-11.3574
伐柯	-11.3574
劉炫	-11.3574
涵	-11.3574
鼙	-11.3574
鼗	-11.3575
閎	-11.3575
膽	-11.3575
芬	-11.3576
斜	-11.3576
盧植	-11.3577
棄疾	-11.3577
修辭立誠	-11.3578
硬	-11.3578
芣苢	-11.3578
費誓	-11.3578
丈專	-11.3578
壙	-11.3579
予小子	-11.3579
殱	-11.3579
誇	-11.3579
楊道夫錄	-11.3581
顛倒	-11.3581
濶	-11.3582
邰	-11.3582
鄄	-11.3583
丘勇	-11.3584
埶	-11.3585
屋漏	-11.3585
覇	-11.3585
甲寅	-11.3586
賞罰	-11.3587
只在	-11.3587
子餘反	-11.3587
流言	-11.3587
小兒	-11.3587
甘盤	-11.3588
泮宫	-11.3588
俄	-11.3588
徃来	-11.3589
序系	-11.3589
鳳凰	-11.359
亦名	-11.3592
協韻	-11.3592
歩干	-11.3592
曉不得	-11.3596
烏乎	-11.3599
上有言字	-11.3601
淺深	-11.3602
和平	-11.3604
下一本有	-11.3605
戴聖	-11.3607
提要	-11.3607
聽之	-11.3609
消息	-11.361
不熟	-11.361
仲秋	-11.3614
記其	-11.3615
陟角	-11.3617
百世	-11.3619
覲禮	-11.362
上句	-11.3622
補遺宋板	-11.3623
至尊	-11.3623
天地之間	-11.3624
丹朱	-11.3626
何晏	-11.3627
分別	-11.3628
天神	-11.3629
色主反	-11.363
君牙	-11.3632
將帥	-11.3635
善人	-11.3636
宗周	-11.3637
家臣	-11.364
到此	-11.3654
九年經	-11.3658
案爾雅	-11.3659
三十里	-11.366
所執	-11.3663
號令	-11.3665
行列	-11.3667
兩端	-11.3672
爻變	-11.3674
可考	-11.3682
而鴆反	-11.3682
連山	-11.3696
賦車	-11.3699
三十四葉	-11.3707
日入	-11.3709
來奔	-11.371
以徳	-11.3718
教民	-11.372
疾病	-11.372
大山	-11.3722
六律	-11.3723
六十五	-11.3729
一旦	-11.3731
所以説	-11.3737
御覽五百	-11.3739
官之長	-11.3743
天之道	-11.3744
六日	-11.3745
其業	-11.3745
得這	-11.3747
異耳	-11.3747
小民	-11.3748
亦有之	-11.375
三十三葉	-11.375
鮮矣	-11.3756
何用	-11.3756
叔父	-11.3759
曰昔	-11.3759
二事	-11.376
陽剛	-11.3761
程子曰	-11.3762
百家	-11.3762
先君之	-11.3765
申公	-11.3765
必計	-11.3769
無敢	-11.3771
九章	-11.3772
徒卒	-11.3773
矣故曰	-11.3777
䟽云	-11.3785
三節	-11.3788
鄭大夫	-11.3794
卑者	-11.3795
雉門	-11.3799
當初	-11.3802
道徳	-11.3804
鄭氏註	-11.3807
善言	-11.3813
尚書云	-11.3814
此二字	-11.3814
合為一	-11.3816
復入	-11.382
誠者	-11.3821
刑人	-11.3823
也馬云	-11.3834
終吉	-11.3837
不審	-11.3839
教以	-11.3839
交於	-11.384
杜子春讀	-11.3842
字闕	-11.3846
象數	-11.3851
解得	-11.3857
蔡氏	-11.3859
其葉	-11.3859
有事於	-11.3862
某注	-11.3865
嘉靖	-11.3869
事業	-11.3886
楅	-11.3891
三十三葉右	-11.3891
在朝	-11.3892
施于	-11.3894
閟	-11.3895
雅頌	-11.3896
忘其	-11.3899
郛	-11.3901
忽然	-11.3901
悠	-11.3901
二女	-11.3902
居攝	-11.3904
􁀓	-11.3904
鍰	-11.3904
韓奕	-11.3905
蘩	-11.3906
五尺	-11.3908
朶	-11.3908
少牢饋食禮	-11.3908
鞌	-11.3909
恐其	-11.391
雖復	-11.3911
𣏌	-11.3913
鄢陵	-11.3913
燕射	-11.3913
堊	-11.3914
宦	-11.3914
廧	-11.3915
緜緜	-11.3916
煌煌	-11.3916
譁	-11.3916
掲	-11.3917
憊	-11.3917
案周禮	-11.3917
猷	-11.3917
丣	-11.3918
褧	-11.3918
傴	-11.3919
宄	-11.3919
騁	-11.3919
芳味	-11.392
簀	-11.392
千萬	-11.392
爓	-11.392
不獲其身	-11.392
癘	-11.3921
鱣	-11.3922
蓐	-11.3922
闃	-11.3922
篋	-11.3923
彩	-11.3923
駵	-11.3923
發揮	-11.3924
蹷	-11.3924
廛	-11.3925
不畏	-11.3925
刊	-11.3925
世俗	-11.3925
尅	-11.3926
廵守	-11.3926
孑	-11.3926
泳	-11.3926
崖	-11.3926
畋	-11.3926
楨	-11.3926
寮	-11.3926
狠	-11.3927
二十行	-11.3927
懽	-11.3927
搖	-11.3927
䑓	-11.3928
無咎	-11.3928
一作二	-11.3928
牘	-11.3928
側留	-11.3929
惻	-11.3929
鶻	-11.393
陛	-11.3931
賁居子曰	-11.3932
綍	-11.3932
休息	-11.3932
鈍	-11.3932
殺其大夫	-11.3932
扶晚	-11.3934
亦不敢	-11.3935
苫	-11.3935
肸	-11.3936
暌	-11.3936
河圖洛書	-11.3937
夏五月	-11.3937
諺	-11.3938
南方曰	-11.394
褫	-11.394
七羊反	-11.394
緑衣	-11.394
蔡邕石經	-11.394
綜	-11.3941
拙	-11.3941
萬八千	-11.3941
杜子春讀為	-11.3942
恂	-11.3942
竽	-11.3943
七録云	-11.3943
叅	-11.3944
帙	-11.3944
亘	-11.3945
古老反	-11.3947
福禄	-11.3948
干戈	-11.3951
蓍龜	-11.3951
小宗伯	-11.3954
建丑	-11.3956
價	-11.3958
烏路反下	-11.3959
咸池	-11.396
安排	-11.396
素口	-11.3963
太史公	-11.3966
用功	-11.3967
終于	-11.3967
凋	-11.3973
些子	-11.3979
安定	-11.398
之喪至	-11.3981
之辨	-11.3981
水旱	-11.3984
二十八篇	-11.3986
變雅	-11.3989
晉文	-11.399
論云	-11.3991
積石	-11.3993
左五行	-11.3998
字足利本同註	-11.3999
注云古文	-11.4002
在這裏	-11.4003
上下經	-11.4004
不得已而	-11.4006
前面	-11.4008
㸔得	-11.401
隋志	-11.4018
遷善	-11.4019
古雅反	-11.402
語意	-11.4021
彭彭	-11.4028
陽虎	-11.403
楚丘	-11.4036
乃能	-11.4038
者此也	-11.404
上有有字	-11.404
曲折	-11.4041
之名也	-11.4042
蜀才作	-11.4043
悉薦反	-11.4045
陽爻	-11.4047
不可見	-11.4047
小異	-11.4049
比干	-11.4054
赤帝	-11.4057
大綱	-11.4059
小小	-11.4061
何以為	-11.4064
五代	-11.4069
十二章	-11.407
十年經	-11.4074
史記注四	-11.4074
承重	-11.4085
生萬物	-11.4089
三才	-11.4089
禮記云	-11.4093
不雨	-11.4103
何可	-11.4105
三十二葉右	-11.4109
内卦	-11.4109
三本足利本	-11.411
相繼	-11.4113
也已上並	-11.4114
於綺	-11.4116
天保	-11.4118
古曠反	-11.4119
中吕	-11.412
八年經	-11.4123
聖德	-11.4128
五廟	-11.4133
看易	-11.414
曲禮曰	-11.4144
初革	-11.4144
東夷	-11.4148
復卦	-11.4149
有者字	-11.415
三十三葉左	-11.415
新民	-11.4151
和順	-11.4153
五卷	-11.4153
司常	-11.4154
也馬注	-11.4154
諸篇	-11.4155
後来	-11.4157
一部	-11.416
長安	-11.4161
不可勝	-11.4163
閒居	-11.4164
險而	-11.4167
傳聞	-11.4172
誅之	-11.4173
不存	-11.4176
色角	-11.4177
事畢	-11.4179
音恭本	-11.4186
也字林云	-11.4186
不覺	-11.4188
所存	-11.419
專一	-11.4191
詳見	-11.4194
薛章句	-11.4201
毛詩註疏第	-11.4212
人之道	-11.4214
凡二十	-11.4216
舜禹	-11.4221
便都	-11.423
職云	-11.4231
爲質	-11.4233
常在	-11.4235
發聲	-11.4236
可據	-11.4241
王逸	-11.4242
冠者	-11.4243
按周禮	-11.4248
反徐扶	-11.4249
三十二葉	-11.426
不貳	-11.4262
鷙	-11.4263
息淺	-11.4263
亹亹	-11.4268
麏	-11.4268
沴	-11.427
輇	-11.4271
筩	-11.4271
用牲	-11.4272
羆	-11.4277
栭	-11.4277
芼	-11.4277
柝	-11.4277
沬	-11.428
鴥	-11.428
喪服小記	-11.428
靷	-11.4281
敉	-11.4281
畯	-11.4281
霄	-11.4282
僨	-11.4283
齊大夫	-11.4283
戊寅	-11.4284
鸛	-11.4285
义	-11.4286
玉人	-11.4288
劣僞	-11.4288
鳧	-11.4288
歇	-11.4288
詩疏十八之	-11.4289
挫	-11.4289
栽	-11.4289
陔	-11.429
剕	-11.429
豢	-11.429
淇奥	-11.429
故特	-11.429
沚	-11.4291
王輔嗣	-11.4291
炳	-11.4291
岍	-11.4291
䕫	-11.4291
淫泆	-11.4291
楷	-11.4292
仄	-11.4292
旉	-11.4292
怯	-11.4293
淇	-11.4294
瑳	-11.4294
扁	-11.4295
祖母	-11.4295
詩疏四之	-11.4295
不惑	-11.4296
鉦	-11.4296
庿	-11.4296
諸父	-11.4296
杵臼	-11.4296
蘖	-11.4297
憐	-11.4297
古侯反	-11.4297
摽	-11.4297
硜	-11.4297
城濮	-11.4297
黶	-11.4298
酅	-11.4298
淒	-11.4298
扶云反	-11.4299
烜	-11.4299
緅	-11.4299
一代	-11.4299
罄	-11.4299
縻	-11.43
頊	-11.43
袖	-11.4301
詩疏二之	-11.4301
胾	-11.4301
詩疏十六之	-11.4301
倩	-11.4302
仁義禮智	-11.4302
秣	-11.4303
疊	-11.4304
冏命	-11.4304
亹	-11.4304
蘓	-11.4304
柏舟	-11.4304
極矣	-11.4305
勉勉	-11.4305
祛	-11.4305
令作今	-11.4307
叠	-11.4307
周謨錄第	-11.4308
榖梁傳	-11.431
士昏禮	-11.4311
無私	-11.4311
濬	-11.4312
戸敎	-11.4312
謳	-11.4312
侍坐	-11.4312
鶴鳴	-11.4312
則凶	-11.4312
史佚	-11.4313
束帛	-11.4314
詬	-11.4314
隻	-11.4315
靈王	-11.4316
九二爻辭	-11.4316
甲戌	-11.4318
利有攸往	-11.4319
大衍之數	-11.4319
祗以	-11.4321
謚	-11.4322
廐	-11.4322
力軌	-11.4322
遣車	-11.4323
袒裼	-11.4326
二三子	-11.4326
士大夫	-11.4327
五十八篇	-11.4329
建亥	-11.4332
徒刀	-11.4333
惟恐	-11.4333
三十四葉右	-11.4334
直專反	-11.4335
采采	-11.4335
絲衣	-11.434
數十	-11.4343
苦浪	-11.4343
雲夢	-11.4345
吳越	-11.4348
煆	-11.4348
竊意	-11.4348
釋奠	-11.4348
甲辰	-11.435
單伯	-11.4351
此年	-11.4352
建國	-11.4354
嘉靖本	-11.4355
當衍字	-11.4355
古穴	-11.4356
稽疑	-11.4357
邾子	-11.4358
在堂	-11.4359
八尺	-11.4359
丁巳	-11.4362
安樂	-11.4363
羣神	-11.4364
寄反	-11.4364
也作者	-11.437
太微	-11.4372
攻古文	-11.4372
第九章	-11.4373
徒丹	-11.4377
起居	-11.4378
案詩	-11.4379
從母	-11.4383
下有則字	-11.4387
文質	-11.4387
哀公問	-11.4388
適人	-11.4389
只就	-11.4401
依舊	-11.4403
東面	-11.4404
勉之	-11.4411
其勢	-11.4416
滕子	-11.4418
殷武	-11.4419
一歲	-11.4419
中氣	-11.442
簡易	-11.4422
都邑	-11.4423
側八	-11.4426
自欺	-11.4426
弑其	-11.4428
三墳	-11.4429
楚辭	-11.4429
諸本同	-11.443
聖人所以	-11.4431
西戎	-11.4433
二本足利本宋板	-11.4433
華山	-11.4434
問孔子	-11.4435
之禮也	-11.4435
之機	-11.4436
長三尺	-11.4437
此蓋	-11.4437
難看	-11.4438
檀弓下	-11.4442
逸詩	-11.4445
二作一	-11.4445
祭仲	-11.4446
至德	-11.445
底人	-11.4454
想見	-11.4455
所界	-11.4455
樂樂	-11.4458
徐州	-11.4459
洛邑	-11.4461
哉子曰	-11.4464
儒行	-11.447
内朝	-11.4471
帝王之	-11.4474
夫子之言	-11.4485
所留	-11.4487
墨子	-11.4488
舊說	-11.4496
郭氏	-11.4496
六十三	-11.4499
釋疑	-11.4499
一例	-11.4501
精氣	-11.4513
不盈	-11.4514
其丈反	-11.4518
徐古	-11.4525
婢亦	-11.4526
耶則	-11.4528
時則有	-11.4532
南陽	-11.4536
過矣	-11.4538
壁中	-11.4538
閤	-11.4539
可以見	-11.4539
直吕	-11.454
鄉大夫	-11.4541
九尺	-11.4542
音遜	-11.4556
歌詩	-11.4567
謹按足利本	-11.4576
三十五葉	-11.4585
月朔	-11.4593
尚存	-11.4597
中星	-11.4601
民勞	-11.4602
譏其	-11.4604
政令	-11.4604
天意	-11.4607
定天下	-11.4617
徐邈	-11.4622
箇物事	-11.4623
不察	-11.4628
廟見	-11.4629
父命	-11.463
七卷	-11.4631
臡	-11.4632
君子小人	-11.4635
髙祖	-11.4642
拭	-11.4651
拍	-11.4652
醓	-11.4655
賙	-11.4656
諦	-11.4658
市軫	-11.4659
闐	-11.4659
醆	-11.4659
再三	-11.466
昜	-11.466
釋言文	-11.4661
曲禮下	-11.4661
大祖	-11.4662
觭	-11.4662
杠	-11.4663
皤	-11.4664
枋	-11.4664
杜云	-11.4664
㔻	-11.4665
才計	-11.4665
鰌	-11.4666
字補遺宋板疏	-11.4666
鎧	-11.4666
暱	-11.4667
憸	-11.4667
樗	-11.4667
釜	-11.4668
軛	-11.4668
鐡	-11.4668
黷	-11.4668
噣	-11.4668
鬚	-11.4669
熹	-11.467
而殺之	-11.467
萋萋	-11.4672
榱	-11.4672
兜	-11.4672
挹	-11.4672
竿	-11.4673
芹	-11.4674
僮	-11.4674
蹢	-11.4674
咽	-11.4674
茇	-11.4675
臾	-11.4675
侯國	-11.4675
崔靈恩	-11.4675
九罭	-11.4676
殪	-11.4678
補遺古本序	-11.4678
郈	-11.4678
髓	-11.4679
攫	-11.4679
鱉	-11.4679
西伯戡黎	-11.468
觴	-11.468
禡	-11.468
彷	-11.4681
躐	-11.4681
下共同	-11.4681
佻	-11.4681
未踰年	-11.4682
幂	-11.4682
臀	-11.4683
夫人姜氏	-11.4684
恢	-11.4684
灂	-11.4684
邶風	-11.4685
皥	-11.4685
脆	-11.4685
衛君	-11.4685
剌	-11.4686
按晉志	-11.4686
騫	-11.4686
瓢	-11.4686
浹	-11.4687
嵬	-11.4687
奔走	-11.4687
㓙	-11.4688
市戰	-11.4688
鞉	-11.4689
慟	-11.4689
禺	-11.469
綂	-11.469
采芑	-11.469
戶	-11.469
節南山	-11.469
葛覃	-11.4691
鱄	-11.4692
吾心	-11.4692
笴	-11.4693
養生	-11.4693
嚻	-11.4693
毫釐	-11.4695
丰	-11.4696
段删	-11.4696
壮	-11.4696
𣙗	-11.4696
枉矢	-11.4697
之六反	-11.4697
貌下同	-11.4697
從木	-11.4698
九三爻辭	-11.4698
周公攝政	-11.4699
有些	-11.4699
戊辰	-11.4699
骨肉	-11.4699
八佾	-11.47
星孛	-11.47
初患	-11.47
士師	-11.4703
杜例	-11.4705
宋均	-11.4709
鼓鐘	-11.4709
射禮	-11.471
到這裏	-11.4711
而言之	-11.4712
丁管	-11.4713
淫奔	-11.4715
鄉射禮	-11.4716
少府	-11.4716
方氏	-11.4717
許冝	-11.4719
行於世	-11.4721
治道	-11.4721
慶父	-11.4722
夜半	-11.4722
小宛	-11.4723
周南召南	-11.4723
斯言	-11.4726
求龜	-11.4727
此一句	-11.4729
孟夏	-11.4732
戸化	-11.4733
小弁	-11.4734
許男	-11.4734
交錯	-11.4741
商人	-11.4743
陳留	-11.4745
疑脱	-11.4745
封建	-11.4747
力召	-11.475
脱屨	-11.4751
三十一葉右	-11.4752
斷斷	-11.4754
學士	-11.4755
言人君	-11.4755
七住	-11.4756
子忽反	-11.4756
屬下句	-11.4757
北燕	-11.4758
尚可	-11.4759
王氏曰	-11.476
倫理	-11.4763
十數	-11.4764
子禮反	-11.4765
東征	-11.4769
不忒	-11.4772
張衡	-11.4774
熟讀	-11.4777
爲博士	-11.4779
誰能	-11.4783
葉右	-11.4783
屬隂	-11.4785
十行	-11.4785
匹夫	-11.4786
終南	-11.4786
第十五	-11.4789
大結反	-11.4794
斯道	-11.4795
一个	-11.4797
聖人之心	-11.4798
族人	-11.4798
天下治	-11.4803
長殤	-11.4813
龜山	-11.4814
太初	-11.4815
既葬	-11.4815
孔解	-11.4819
前儒	-11.482
苦侯	-11.4823
子罕	-11.4825
兵起	-11.4827
曲禮上	-11.4835
文及注同	-11.484
五升	-11.484
金玉	-11.484
純隂	-11.4844
朝廟	-11.4846
字絶句	-11.4846
十一卷	-11.4849
底物	-11.4851
出来	-11.4853
匹亦反	-11.4858
于況	-11.4861
大徳	-11.4866
無害	-11.4868
添一	-11.487
與上文	-11.4871
得箇	-11.4871
厯數	-11.4871
亡巾	-11.4872
下有以字	-11.4876
公卿大夫	-11.488
繩證反下	-11.4892
嫡子	-11.4894
依字作	-11.49
六服	-11.4902
不倦	-11.4906
足矣	-11.491
亡侯	-11.4911
伯益	-11.4912
十有二月	-11.4914
郊祀	-11.4915
君臣之	-11.4918
百歳	-11.4919
七律	-11.4922
七年經	-11.4923
楚師	-11.493
注䟽	-11.4932
下有者也	-11.4933
繼之以	-11.4938
因問	-11.4943
牛羊	-11.4955
可以觀	-11.4955
數年	-11.4958
相離	-11.4965
右襄公	-11.4968
鬼方	-11.4982
求賢	-11.5
十年傳	-11.5008
鄉人	-11.5009
帝乙	-11.5009
北方曰	-11.5022
貌下有也字	-11.5026
考異足利本	-11.5029
七住反	-11.5029
才細反	-11.503
為司空	-11.5038
煑	-11.5039
▁考異古本註	-11.504
箸	-11.5044
不可得	-11.5047
大禹	-11.5049
鴞	-11.5052
祭禮	-11.5052
七報	-11.5052
與之言	-11.5053
誑	-11.5053
千二百	-11.5053
於豔	-11.5055
思齊	-11.5057
王天下	-11.5057
再拜稽首	-11.5058
古協反	-11.5058
蔟	-11.506
漾	-11.5061
意義	-11.5061
得位	-11.5062
漑	-11.5062
螫	-11.5062
翛	-11.5063
煮	-11.5063
彄	-11.5063
壎	-11.5064
皮彦	-11.5064
螻	-11.5065
輓	-11.5065
挽	-11.5065
扆	-11.5066
敺	-11.5066
事父母	-11.5067
捶	-11.5067
笠	-11.5067
鶬	-11.5067
酸	-11.5067
掔	-11.5068
蒺	-11.5068
鍵	-11.5068
彼註作	-11.5068
幦	-11.5069
葱	-11.507
稽顙	-11.507
娶妻	-11.507
犒	-11.5071
戡	-11.5073
古雅	-11.5074
芘	-11.5074
枸	-11.5074
踦	-11.5075
耨	-11.5075
㓕	-11.5075
洿	-11.5075
詮	-11.5077
韌	-11.5077
稀	-11.5078
状	-11.5078
遡	-11.5079
杙	-11.5079
魋	-11.508
二年經	-11.508
柷敔	-11.508
謹按足利本後人記云	-11.508
嗚	-11.508
邴	-11.508
宋本羣經音辨	-11.5081
媾	-11.5082
受福	-11.5082
卄	-11.5082
鄭司農	-11.5082
瓞	-11.5084
俗字	-11.5084
塹	-11.5085
訕	-11.5085
麄	-11.5085
古微書卷	-11.5085
豺	-11.5085
劵	-11.5086
是一箇	-11.5086
區區	-11.5087
閨門	-11.5087
荑	-11.5087
减	-11.5088
此作比	-11.5089
異義公羊說	-11.5089
銷	-11.5089
忝	-11.509
湛露	-11.509
幬	-11.509
擘	-11.509
准	-11.509
豭	-11.5091
漳	-11.5091
曰作日誤	-11.5091
折獄	-11.5093
葵丘	-11.5094
莫報反	-11.5094
幼少	-11.5094
穡	-11.5094
雞鳴	-11.5095
十有一年	-11.5095
崧髙	-11.5095
彖辭程傳	-11.5096
掊	-11.5097
昭元年	-11.5097
式豉	-11.5097
但見	-11.5098
鳳皇	-11.5098
嚚	-11.5098
三代之	-11.5099
七南反	-11.51
庪	-11.51
潘時舉録	-11.5101
剪	-11.5101
宙	-11.5102
十六行	-11.5104
丁浪	-11.5105
力輒	-11.5106
豚魚	-11.511
力兮反	-11.5111
司馬遷	-11.5112
許六反	-11.5116
而與之	-11.5116
瑞應圖	-11.5116
用刑	-11.5116
今作令	-11.5117
支離	-11.5117
桑柔	-11.5118
必大曰	-11.5119
所銜	-11.5119
魚綺	-11.5122
朱文公	-11.5125
曽子問曰	-11.5127
咸恒	-11.5131
初學記二十	-11.5134
干注	-11.5137
何法法	-11.5142
亡報	-11.5142
􁁆	-11.5144
天地萬物	-11.5149
側巾	-11.5149
太后	-11.5154
經籍	-11.5156
史遷	-11.5158
勞苦	-11.516
一端	-11.5166
錯亂	-11.5168
年表	-11.5171
其兄	-11.5171
居喪	-11.5173
孔丘	-11.5173
女力	-11.5177
利害	-11.5178
用幣	-11.518
兩觀	-11.5188
檀弓上	-11.5188
刪詩	-11.5188
濟南	-11.5189
伐宋	-11.5195
可觀	-11.5196
七刀	-11.5196
四瀆	-11.5197
西面	-11.5204
直良	-11.5217
申伯	-11.522
曲直	-11.5224
而不失	-11.5227
宋板足利本同釋文	-11.5231
嘉萬	-11.5234
如字本或作	-11.5235
太伯	-11.5235
六畜	-11.5237
音閤	-11.5237
西周	-11.5243
性命	-11.5247
下有之也二字疏	-11.5248
風化	-11.5249
大全	-11.525
上有所字	-11.5257
太山	-11.5258
千嵗	-11.526
四年經	-11.5265
純陽	-11.5274
聖人之意	-11.528
古曠	-11.528
白帝	-11.528
可信	-11.5281
葉六行注	-11.5283
道義	-11.5284
器名	-11.5291
皆指	-11.5301
九卿	-11.5301
說命	-11.5301
司命	-11.5305
通變	-11.5308
臣民	-11.5309
男女之	-11.5316
徒木	-11.5317
可攷	-11.5323
輪人	-11.5323
三監	-11.5327
方往	-11.5332
所藏	-11.5336
晏子	-11.5337
扶問反	-11.5345
終風	-11.5346
有慶	-11.5346
受田	-11.5353
永同釋文	-11.5353
元氣	-11.5363
知之矣	-11.5369
鄭氏云	-11.5374
息嗣	-11.5374
固當	-11.5377
段云	-11.5381
全在	-11.5383
三十日	-11.5384
江水	-11.5387
東晉	-11.5389
冠禮	-11.5389
苦浪反	-11.5392
乘馬	-11.5392
子般	-11.5393
極好	-11.5394
葉公	-11.5396
張丈反	-11.5396
百物	-11.5398
古之人	-11.5409
擯者	-11.541
便能	-11.5418
文飾	-11.5424
如字舊	-11.5425
宋本春秋疏十	-11.5426
孝道	-11.5439
則不然	-11.5448
難易	-11.5451
即所謂	-11.5453
杜子春	-11.5456
公室	-11.5464
紀侯	-11.5464
肖	-11.5465
能致	-11.5469
廱	-11.5471
炭	-11.5474
式氏反	-11.5476
賦人	-11.5476
前章	-11.5476
猨	-11.5477
歐	-11.5479
第十六	-11.548
縗	-11.548
遲遲	-11.548
撿	-11.548
劑	-11.5481
璆	-11.5481
蘿	-11.5483
之忍反	-11.5484
憖	-11.5484
韻府古尚書文作	-11.5484
佹	-11.5484
廡	-11.5485
黠	-11.5485
五經要義	-11.5485
蜉蝣	-11.5485
於阮反	-11.5485
棧	-11.5485
爾疋	-11.5486
翅	-11.5486
廿一行	-11.5486
鄔	-11.5487
斫	-11.5487
公食大夫禮	-11.5488
猒	-11.5488
弁絰	-11.5488
討賊	-11.5491
侏	-11.5491
旌旗	-11.5491
姝	-11.5491
杯	-11.5491
緦麻	-11.5491
子賜反	-11.5492
何對曰	-11.5493
瓉	-11.5493
屬陽	-11.5494
咳	-11.5494
售	-11.5495
載芟	-11.5495
帯	-11.5495
雊	-11.5495
炊	-11.5495
第三章	-11.5495
掠	-11.5495
雨無正	-11.5496
死魄	-11.5496
臠	-11.5496
穉	-11.5496
有司徹	-11.5497
豻	-11.5497
撤	-11.5497
藿	-11.5497
狐裘	-11.5498
轄	-11.5498
囂	-11.5499
甘棠	-11.5499
壬戌	-11.5499
椅	-11.5499
揣	-11.5499
培	-11.55
嫉	-11.55
蒹葭	-11.55
卅	-11.55
遒	-11.5501
樊遲	-11.5501
晨風	-11.5502
收斂	-11.5504
闚	-11.5504
蓮	-11.5506
犧牲	-11.5506
欽定四庫全書古微書卷	-11.5506
潛龍勿用	-11.5506
仲虺之誥	-11.5506
葑	-11.5507
四升	-11.5507
鬷	-11.5507
旅獒	-11.5507
譬之	-11.5508
陬	-11.5508
甘節錄	-11.5509
典瑞	-11.5509
王作主	-11.5509
七年傳	-11.551
降婁	-11.551
甘誓	-11.5512
籀文	-11.5512
数	-11.5512
所聞先生六十	-11.5512
占得此爻	-11.5512
錯綜	-11.5513
鬛	-11.5513
禎	-11.5513
亡悲	-11.5514
斟酌	-11.5515
臬	-11.5515
前輩	-11.5515
九年傳	-11.5515
鈔	-11.5516
憯	-11.5516
稊	-11.5516
古豆反	-11.5517
喪祭	-11.5519
召陵	-11.5519
後皆放此	-11.552
所述	-11.552
開闢	-11.5521
甲午	-11.5522
小白	-11.5522
曽孫	-11.5523
陌	-11.5524
太簇	-11.5526
畨	-11.5527
玩味	-11.553
曵	-11.5531
戒懼	-11.5531
動静	-11.5533
上有故字	-11.5533
顔回	-11.5534
𦙍	-11.5535
爵禄	-11.5535
孟津	-11.5539
於鬼神	-11.5543
息亮反下	-11.5544
呼罪	-11.5544
七旬	-11.5545
維持	-11.5545
朱子曰	-11.5546
舒亮	-11.555
民間	-11.5552
隳	-11.5552
梁州	-11.5552
洛陽	-11.5554
于眷	-11.5554
周禮儀禮	-11.5554
管叔	-11.5555
七十五	-11.5555
小司徒	-11.5556
蒼帝	-11.5557
頃公	-11.5559
丘陵	-11.556
羞惡	-11.5565
繼母	-11.5566
遷都	-11.5567
方于反	-11.557
二十九篇	-11.557
吉甫	-11.5571
伯翳	-11.5572
足利	-11.5574
䘮服	-11.5576
太宗	-11.5576
弓人	-11.5577
甸師	-11.5577
成王時	-11.5582
不然者	-11.5583
隂爻	-11.5583
深矣	-11.5585
不爭	-11.5589
黄龍	-11.559
假令	-11.5591
不聽	-11.5595
弗克	-11.5598
他經	-11.5598
精微	-11.5602
雲氣	-11.5605
於鴆反	-11.5614
六十七	-11.5619
開元	-11.5624
恒山	-11.5626
葉七行注	-11.563
子貢問	-11.563
三十葉右	-11.5643
父母之喪	-11.5643
兩卦	-11.5644
天降	-11.5645
文武之	-11.5656
不能制	-11.5656
不可信	-11.566
滅亡	-11.5661
莒子	-11.5661
少間	-11.5662
引易	-11.5662
攝政	-11.5668
是兩箇	-11.5671
手足	-11.5675
起吕反下	-11.5681
請命	-11.5691
直升	-11.5694
乾元	-11.5708
什一	-11.5708
晉語	-11.5716
朝歌	-11.5719
黄㽦錄	-11.5723
總名	-11.5726
戸嫁反	-11.5728
進士	-11.5729
出那	-11.573
六二爻辭	-11.5739
問答	-11.575
發發	-11.5754
桓王	-11.5756
大斂	-11.5769
不可復	-11.5773
丙子	-11.5774
因舉	-11.5775
何如曰	-11.5785
民事	-11.5789
聖經	-11.5794
是故君子	-11.5799
語辭	-11.5808
如此說	-11.5809
孝公	-11.5815
三十二葉左	-11.5821
力智反	-11.5822
九里	-11.5833
問辨	-11.5835
苦回	-11.5835
全書	-11.5837
改易	-11.5838
皇父	-11.5839
丁未	-11.5842
戸郎反	-11.5843
丁兮	-11.5849
矣况	-11.5858
九河	-11.5868
軍將	-11.587
立廟	-11.5871
人之心	-11.5875
振振	-11.5877
安得有	-11.588
八風	-11.5883
傭	-11.5892
天下大	-11.5896
葘	-11.5898
頷	-11.5905
大略	-11.5908
繂	-11.5908
當在上序	-11.5909
梱	-11.591
串	-11.5913
鬪	-11.5913
汰	-11.5915
雝雝	-11.5916
不可不知	-11.5917
廞	-11.5918
虣	-11.5918
雛	-11.5918
厠	-11.5918
鎮星	-11.5919
懆	-11.592
觳	-11.592
煦	-11.5921
豵	-11.5921
逑	-11.5921
詩疏十九之	-11.5921
㬰	-11.5922
廕	-11.5922
榎	-11.5922
翠	-11.5923
鍛	-11.5924
覓	-11.5925
獮	-11.5925
飧	-11.5925
繄	-11.5925
脡	-11.5925
緘	-11.5925
踧	-11.5926
崐崘	-11.5926
杕杜	-11.5927
俛	-11.5927
荆山	-11.5927
倭	-11.5928
椹	-11.5928
元嘉本	-11.5928
錮	-11.5929
孫毓	-11.5929
綆	-11.5929
椑	-11.5929
雋	-11.5929
嵎夷	-11.5929
奕奕	-11.5929
驖	-11.593
迸	-11.593
浣	-11.593
俔	-11.593
蠡	-11.593
隗	-11.593
虩	-11.593
辛夘	-11.593
倬	-11.5931
茸	-11.5931
皎	-11.5931
人心道心	-11.5931
十一行	-11.5931
王伯厚	-11.5932
簨	-11.5932
膰	-11.5932
蚍	-11.5932
咥	-11.5932
贛	-11.5932
孩	-11.5932
去逆反	-11.5933
鑠	-11.5933
下有者也二字足利本亦有者字	-11.5933
旻	-11.5933
餽	-11.5933
千七百	-11.5933
􁄟	-11.5934
犢	-11.5934
鏞	-11.5935
隄	-11.5936
秭	-11.5936
音利又	-11.5936
恁	-11.5936
㪚	-11.5937
三辰	-11.5937
訏	-11.5937
桑扈	-11.5937
知至至之	-11.5937
夾谷	-11.5938
木鐸	-11.5938
聃	-11.5938
麀	-11.5938
黿	-11.5938
鶩	-11.5938
徯	-11.5939
蘀	-11.5939
僧	-11.5939
甚麽	-11.5939
鼉	-11.594
側界	-11.594
仕居	-11.5941
標準	-11.5942
薌	-11.5942
窈	-11.5943
新唐書五十	-11.5943
衰絰	-11.5943
仔細	-11.5943
除喪	-11.5944
各得其所	-11.5944
螽斯	-11.5945
息淺反	-11.5945
是如何曰	-11.5946
窬	-11.5946
郳	-11.5946
勘	-11.5947
二十八葉左	-11.5947
耻	-11.5948
芈	-11.5948
州刺史	-11.5948
傒	-11.5949
廖	-11.5949
王肅本	-11.5949
嫁娶	-11.595
縱横	-11.595
髙辛	-11.595
朱註	-11.5951
似俊	-11.5952
罝	-11.5953
未有不	-11.5953
爐	-11.5953
壬辰	-11.5953
叔敖	-11.5955
繋辭	-11.5956
煞	-11.5956
滅滕	-11.5956
丁寧	-11.5959
封禪	-11.5959
腯	-11.5961
矦	-11.5963
解釋	-11.5964
后蒼	-11.5964
𫝊	-11.5965
犧尊	-11.5967
流沙	-11.5967
六年經	-11.5968
徒登	-11.5969
化而裁之	-11.597
尼父	-11.597
宴樂	-11.5971
相遇	-11.5974
江淮	-11.5978
始豉反	-11.5979
此三者	-11.598
君臣之義	-11.5981
里克	-11.5981
情偽	-11.5982
俑	-11.5983
楚公子	-11.5988
祖乙	-11.5989
千古	-11.5989
非特	-11.5991
下有有字	-11.5992
君徳	-11.5995
濳虚	-11.5999
襄仲	-11.6004
路門	-11.6007
徐邈音	-11.6011
宗族	-11.6012
離坎	-11.6014
季春	-11.6015
苦老	-11.6026
詩譜	-11.6033
可推	-11.6033
初俱	-11.6034
太玄	-11.6035
三年經	-11.6036
方見得	-11.6037
尚右	-11.6038
戎車	-11.6039
才老	-11.604
與此同	-11.6044
徒門	-11.6045
南仲	-11.6046
脱簡	-11.6046
親切	-11.6048
全體	-11.6053
三十四葉左	-11.6059
説者謂	-11.6063
案説文	-11.6069
長尺	-11.6069
對待	-11.6069
各不同	-11.6072
孟冬	-11.6076
夭夭	-11.6077
日光	-11.6078
昭明	-11.6085
城北	-11.6088
蔡註	-11.6097
感動	-11.6101
底意	-11.6101
乙巳	-11.6102
十有八	-11.6107
十四卷	-11.6117
符問	-11.6121
乘車	-11.6124
那裏	-11.6125
以此知	-11.6127
宰相	-11.6133
必刃	-11.6135
死亡	-11.6136
公會	-11.6137
直角	-11.614
主宰	-11.6143
告朔	-11.6144
古愛	-11.6155
才浪反	-11.6157
爻義	-11.6162
令聞	-11.6165
無其字	-11.6175
左氏説	-11.6179
於作于	-11.6186
从兩	-11.6186
建本作	-11.6186
大裘	-11.6194
形似	-11.6211
宋板以作	-11.6212
數語	-11.6213
音峻	-11.6216
卦畫	-11.6226
好善	-11.624
百畆	-11.6244
左八行	-11.6246
誤衍	-11.6248
分星	-11.6258
十九行	-11.6262
周流	-11.6269
八政	-11.627
動物	-11.6272
不勝其	-11.628
嵗時	-11.6283
諸卦	-11.6285
向使	-11.6291
失位	-11.63
無以字	-11.6327
宋板同釋文	-11.6331
徒歷	-11.6331
音避下	-11.6342
無一字	-11.6346
天運	-11.6347
普庚反	-11.6347
衈	-11.6349
曏	-11.6354
闉	-11.6354
之豉反	-11.6356
媛	-11.6357
入室	-11.6357
柲	-11.6359
張慮反	-11.6362
幄	-11.6364
纆	-11.6364
淅	-11.6366
緻	-11.6366
柢	-11.6366
町	-11.6367
泭	-11.6368
鴇	-11.6368
問先生	-11.6369
渫	-11.637
髻	-11.637
酗	-11.637
邈	-11.6371
後學成德挍訂經典釋文卷第	-11.6371
息暫反	-11.6371
譙	-11.6371
薇	-11.6372
凷	-11.6373
袴	-11.6373
頡	-11.6373
嫂	-11.6373
從盧本挍	-11.6373
經典釋文卷第十	-11.6373
蟜	-11.6373
湊	-11.6374
翩翩	-11.6374
惄	-11.6374
葆	-11.6374
夲	-11.6375
帀	-11.6375
吳縣開國男陸德明撰	-11.6375
囷	-11.6376
觵	-11.6376
澡	-11.6376
粒	-11.6377
今從古	-11.6377
傎	-11.6377
課	-11.6377
漕	-11.6378
鳯凰	-11.6378
躒	-11.6378
疐	-11.6379
爇	-11.6379
慈母	-11.638
牿	-11.638
挐	-11.6381
訿	-11.6381
詩疏七之	-11.6382
蔞	-11.6382
畤	-11.6383
緹	-11.6383
季孫行父	-11.6384
恫	-11.6384
螺	-11.6385
鋒	-11.6386
頻忍	-11.6386
羇	-11.6387
鸜鵒	-11.6387
庀	-11.6388
嵩髙	-11.6388
籲	-11.6388
蜮	-11.6388
甲胄	-11.6388
苽	-11.639
架	-11.639
分職	-11.6391
達道	-11.6391
戯	-11.6392
咺	-11.6392
壟	-11.6392
梲	-11.6392
知終終之	-11.6392
喜怒哀樂	-11.6392
刺時	-11.6392
楬	-11.6393
肓	-11.6393
琫	-11.6393
瞭	-11.6393
拆	-11.6393
考槃	-11.6393
定之方中	-11.6393
范甯	-11.6394
肉袒	-11.6394
芥	-11.6394
嗅	-11.6394
女媧	-11.6394
困窮	-11.6395
許韋	-11.6396
譙周	-11.6396
補遺據元文	-11.6396
一作壹	-11.6396
大叔于田	-11.6396
乙亥	-11.6397
檮杌	-11.6397
㕘	-11.6398
態	-11.6398
有大小	-11.6399
下有乎字	-11.6399
吸	-11.6399
聨	-11.6399
撞	-11.6399
溱洧	-11.64
誚	-11.64
廼	-11.64
蟾	-11.64
攝提	-11.6401
寥	-11.6401
邯鄲	-11.6401
峰	-11.6401
六三爻辭	-11.6401
會稽	-11.6401
𤣥鳥	-11.6403
鬬	-11.6403
萬人傑録	-11.6404
瓘	-11.6404
當作兩音	-11.6404
陸徳明	-11.6404
眠	-11.6404
謟	-11.6404
朏	-11.6404
禮記鄭氏註	-11.6404
所自出	-11.6406
定姒	-11.6406
媒氏	-11.6407
笛	-11.6407
不敢改也	-11.6407
昆吾	-11.6407
喟	-11.6408
賓客	-11.6408
亂世	-11.6409
更始	-11.6411
成之者性	-11.6411
伐奄	-11.6412
甚好	-11.6412
紛紛	-11.6412
无不利	-11.6415
衛宏	-11.6416
潛龍	-11.6416
曺	-11.6416
圛	-11.6416
擊鼓	-11.6417
奔䘮	-11.6417
古銜	-11.6418
梁武帝	-11.6418
苦圭	-11.6418
偏旁	-11.642
單衣	-11.642
放勲	-11.6423
百穀	-11.6423
翺	-11.6425
丁念	-11.6426
下有耳字	-11.6429
洪範五行	-11.643
功徳	-11.6431
在裏面	-11.6431
南郷	-11.6431
才細	-11.6431
鑽	-11.6432
牽强	-11.6433
草蟲	-11.6434
盛服	-11.6439
郊社	-11.6442
文王之德	-11.6443
運行	-11.6446
黑帝	-11.6447
蔡叔	-11.6448
渾然	-11.6451
便是他	-11.6452
升堂	-11.6455
宋均曰	-11.6457
思慮	-11.646
己巳	-11.6461
盟㑹	-11.6461
五羔	-11.6463
通典五十	-11.6469
如此看	-11.6472
有此理	-11.6472
上復有	-11.6474
視聽	-11.6475
魚廢	-11.6475
之聞也	-11.6476
宋襄	-11.6476
萬邦	-11.6482
量度	-11.6483
口授	-11.6489
歲首	-11.6489
司射	-11.649
并論	-11.649
冬夏	-11.6497
王肅本作	-11.6498
取妻	-11.65
黒色	-11.6508
息嗣反	-11.6508
止其所	-11.6509
卷首	-11.6509
汝南	-11.6509
占辭	-11.651
應門	-11.6518
最好	-11.6522
繼世	-11.6528
碑云	-11.653
孔子之言	-11.6537
北宫	-11.6545
何以謂之	-11.6551
音智下	-11.6552
太學	-11.6557
還歸	-11.6561
也宋板足利本	-11.6562
左氏以為	-11.6563
乃旦反下	-11.6567
設官	-11.6569
輔相	-11.6587
五刀	-11.6589
卦體	-11.6591
第六章	-11.6595
才浪	-11.6595
許氣	-11.661
尊賢	-11.6621
畢公	-11.6626
底便是	-11.6631
右桓公	-11.6637
徐徒	-11.6645
吾夫子	-11.6648
七報反	-11.6648
十一章	-11.6651
苦角	-11.6661
文作又	-11.6675
北山	-11.6679
敬慎	-11.6681
他卦	-11.6682
聲類	-11.6684
賈氏	-11.6689
毛鄭	-11.6691
於綺反	-11.6695
六畫	-11.6696
先王之制	-11.6703
校宋疏	-11.672
子糾	-11.6727
不知如何	-11.6753
朱校宋本禮記疏二十	-11.6763
古禾反	-11.6783
器用	-11.679
周禮疏三十	-11.6804
五行志	-11.6807
東漢	-11.6809
後十五日斗指	-11.6819
鯤	-11.6828
舊史	-11.6831
鋝	-11.6831
噲	-11.6832
及下注同	-11.6832
韔	-11.6836
窕	-11.6837
弃戰	-11.6838
眄	-11.6839
餈	-11.684
飪	-11.684
縵	-11.6841
聒	-11.6841
蚣	-11.6841
唶	-11.6842
萟文類聚	-11.6843
􁆐	-11.6844
袵	-11.6844
濰	-11.6845
燔柴	-11.6845
豁	-11.6845
溼	-11.6845
醋	-11.6846
溱	-11.6847
猱	-11.6847
絻	-11.6847
擢	-11.6848
訃	-11.6849
瑣瑣	-11.6849
甄	-11.6851
涗	-11.6852
虆	-11.6852
罋	-11.6853
蔣	-11.6853
梟	-11.6853
唅	-11.6854
狸	-11.6854
暵	-11.6854
蹌蹌	-11.6854
柚	-11.6854
途	-11.6855
馮翊	-11.6855
郇	-11.6855
瓠葉	-11.6855
麌	-11.6855
褰	-11.6855
錞	-11.6855
桂	-11.6856
㽔賓	-11.6856
襦	-11.6856
适	-11.6856
氾	-11.6856
崔杼	-11.6856
椓	-11.6856
蜻	-11.6857
蒲坂	-11.6858
綢繆	-11.6859
貜	-11.6859
洧	-11.6859
通典一百	-11.6859
麑	-11.6859
菁菁者莪	-11.6859
穆天子傳	-11.6859
薰	-11.6859
纒	-11.6859
鷩	-11.686
樴	-11.686
屬上句	-11.686
宼	-11.686
訣	-11.686
鏃	-11.6861
邲	-11.6861
紟	-11.6861
驚蟄	-11.6862
沐浴	-11.6863
皋陶	-11.6863
粢盛	-11.6863
廂	-11.6865
耉	-11.6866
褻	-11.6867
𥅆	-11.6867
竆	-11.6867
艷	-11.6868
駈	-11.6868
旱麓	-11.6868
癸丑	-11.6869
街	-11.6869
虎豹	-11.687
踐奄	-11.687
脈	-11.6871
梯	-11.6871
慨	-11.6871
乾鑿度	-11.6872
韓康伯	-11.6872
昉	-11.6872
踖	-11.6872
洟	-11.6873
左丘明	-11.6873
七八九六	-11.6873
若作苦	-11.6873
蛙	-11.6874
經緯	-11.6874
韓詩外傳	-11.6874
敔	-11.6875
拖	-11.6875
扶味	-11.6875
原隰	-11.6876
汔	-11.6876
邶鄘衛	-11.6876
慿	-11.6877
服虔	-11.6877
澣	-11.6877
从目	-11.6878
蚓	-11.6878
南山有臺	-11.6879
聵	-11.688
燼	-11.6882
奇耦	-11.6882
倘	-11.6882
行夏之時	-11.6883
仲虺	-11.6884
須臾	-11.6884
彝	-11.6885
鼓瑟	-11.6885
喚做	-11.6886
洋	-11.6886
陳文蔚録	-11.6887
倒置	-11.6887
李軌	-11.6888
鈐	-11.6888
扄	-11.6889
太姒	-11.6889
壺口	-11.689
趙孟	-11.6891
鼜	-11.6896
大扺	-11.6896
大學中庸	-11.6896
烈祖	-11.69
丁丑	-11.69
齋戒	-11.69
此天地之	-11.6904
毛萇	-11.6905
院	-11.6906
孟喜	-11.6907
顔師古	-11.6907
伐崇	-11.6908
庚申	-11.6909
角弓	-11.691
夾室	-11.6912
崑崙山	-11.6915
叨	-11.6916
天王使	-11.6917
妾母	-11.6918
孔孟	-11.6918
玄黄	-11.6924
謹按今本	-11.6924
天徳	-11.6927
便見得	-11.6933
非真	-11.6934
大麓	-11.6936
七十五人	-11.6937
燕飲	-11.6941
自然如此	-11.6943
匪風	-11.6947
嘗疑	-11.6949
初危	-11.6953
戸郎	-11.6955
豐年	-11.6956
城郭	-11.6959
多寡	-11.6971
釋例	-11.6974
河北	-11.6976
崇徳	-11.6979
周旋	-11.6981
愛敬	-11.6981
而不知其	-11.6982
兩手	-11.6987
法制	-11.699
房心	-11.6995
司馬本	-11.6999
温公	-11.7001
右莊公	-11.7004
左足	-11.7005
篇篇	-11.7006
十六篇	-11.701
四百里	-11.701
可勝	-11.701
文勢	-11.7011
華元	-11.7013
闕疑	-11.7019
五年經	-11.7021
太和	-11.7023
大雪	-11.7024
期年	-11.7024
錫命	-11.7027
孟子所謂	-11.7031
二百四十	-11.7033
七十里	-11.7035
徒弔	-11.7042
天地之數	-11.7056
力之反	-11.7059
凡例	-11.7065
東郊	-11.7079
註疏本	-11.7079
無氷	-11.7082
注十二卷	-11.7085
舊唐書	-11.7086
節度	-11.7101
公薨	-11.7101
之正也	-11.7107
不如是	-11.7109
世婦	-11.7114
於此乎	-11.7119
修徳	-11.7138
以意求之	-11.7147
乎抑	-11.7148
告廟	-11.7153
分為二	-11.7157
千九百	-11.7159
補遺古本	-11.716
立學官	-11.7176
㑹齊侯	-11.7184
六爻皆	-11.721
劉芳	-11.7215
不能盡	-11.7225
賢徧反下	-11.7231
詩大雅	-11.725
馬牛	-11.7264
習坎	-11.7273
未達	-11.7275
从禾	-11.7308
第十四	-11.731
㬊淵錄第十	-11.7311
膞	-11.7317
是以君子	-11.7318
聖人因	-11.7319
疏王曰至	-11.7322
韍	-11.7329
椽	-11.7332
擿	-11.7334
糟	-11.7334
釋詁	-11.7334
坂	-11.7336
翹翹	-11.7337
篇内同	-11.7337
蚌	-11.7338
案朱子云	-11.7339
鄟	-11.7339
玈	-11.7341
下有也字下註	-11.7341
旜	-11.7341
諏	-11.7341
鈃	-11.7342
搔	-11.7342
坻	-11.7343
餗	-11.7343
蒲北反	-11.7344
嵎	-11.7344
㣲子	-11.7345
祖禰	-11.7346
覜	-11.7346
蠋	-11.7347
襜	-11.7347
上當脱	-11.7347
閒廁	-11.7348
丁劣反	-11.7349
婼	-11.7349
央央	-11.7349
瑜	-11.735
特牲饋食禮	-11.735
疆埸	-11.735
禓	-11.7351
先鄭云當為	-11.7351
畮	-11.7351
箱	-11.7351
腴	-11.7351
經典釋文卷第二十	-11.7351
朔日有食之	-11.7351
呵	-11.7352
蒨	-11.7352
朼	-11.7352
僊	-11.7353
枳	-11.7353
跨	-11.7353
孥	-11.7354
芳劒	-11.7354
鈇	-11.7354
玆	-11.7355
戠	-11.7355
簭	-11.7356
埤雅	-11.7356
膋	-11.7356
兢兢	-11.7356
漷	-11.7356
塡	-11.7356
罃	-11.7357
嶺	-11.7357
矍	-11.7357
皇侃	-11.7357
魯桓	-11.7358
產	-11.7358
蛟	-11.7358
蟈	-11.7358
許靳	-11.7358
七喻反	-11.7358
邃	-11.7358
銍	-11.7359
宋板之作	-11.7359
攣	-11.7359
象曰君子以	-11.7359
茂后	-11.7359
穟	-11.7359
季康子	-11.736
溽	-11.736
諄諄	-11.736
洎	-11.736
愒	-11.736
裯	-11.736
數目	-11.736
注誤字	-11.736
穩	-11.736
瞷	-11.7361
抶	-11.7361
夏小正	-11.7361
執競	-11.7361
文侯之命	-11.7362
閫	-11.7362
㠯	-11.7363
憬	-11.7363
狼跋	-11.7363
楛	-11.7363
夕惕若厲	-11.7363
日作曰誤	-11.7363
鎋	-11.7363
羡	-11.7363
貼	-11.7364
迆	-11.7364
莢	-11.7364
柘	-11.7364
劇	-11.7365
巍巍	-11.7365
譯	-11.7365
礪	-11.7365
鸇	-11.7366
闓	-11.7366
餱	-11.7366
汲冢	-11.7366
饁	-11.7366
淨	-11.7367
墐	-11.7367
宛丘	-11.7367
啄	-11.7368
澨	-11.7368
娑	-11.7368
時掌反下	-11.7368
丙午	-11.7368
澹	-11.7368
瀾	-11.7368
匹妙	-11.7369
徒報反	-11.7369
篳	-11.7369
蒼蒼	-11.737
菉	-11.737
䟦	-11.737
侗	-11.7371
旄丘	-11.7371
鴛鴦	-11.7372
案左傳	-11.7372
通鑑音注	-11.7372
秬鬯	-11.7372
黽	-11.7372
視聽言動	-11.7373
十五葉右六行	-11.7373
透	-11.7373
鄀	-11.7373
軍帥	-11.7373
漢文帝	-11.7373
太尉	-11.7374
惻隠	-11.7374
笱	-11.7375
菼	-11.7375
夤	-11.7375
陳淳録	-11.7376
蒼梧	-11.7376
忮	-11.7376
忡	-11.7377
饘	-11.7377
陪臣	-11.7377
戡黎	-11.7377
紵	-11.7377
漚	-11.7378
刲	-11.7378
娛	-11.7379
湼	-11.7379
己酉	-11.738
螟蛉	-11.738
饜	-11.7381
小旻	-11.7381
毀	-11.7381
通鑑	-11.7382
儗	-11.7382
種種	-11.7382
蹌	-11.7382
載馳	-11.7382
麒麟	-11.7382
許庚反	-11.7383
作巳誤	-11.7384
墨守	-11.7384
古臥反	-11.7385
袷	-11.7385
楮	-11.7386
稗	-11.7386
忠肅	-11.7386
縣西南	-11.7386
羔羊	-11.7386
怕	-11.7387
岱宗	-11.7387
穆姜	-11.7388
業業	-11.739
林鐘	-11.739
昻	-11.739
蒯聵	-11.7391
矇	-11.7391
干支	-11.7391
白露	-11.7391
梁惠王	-11.7393
甲乙	-11.7394
村	-11.7395
蚩	-11.7395
合通用	-11.7395
史記注一	-11.7396
乍	-11.7397
沙隨	-11.7398
失閏	-11.7399
博厚	-11.74
征凶	-11.74
淑女	-11.74
玉帛	-11.7401
坡	-11.7401
蒲盧	-11.7402
乾健	-11.7402
本草云	-11.7403
佩玉	-11.7403
曽子問	-11.7403
徒暫	-11.7407
三十葉左	-11.7407
錯雜	-11.7408
許乙	-11.7411
枵	-11.7411
經綸	-11.7411
忠厚	-11.7414
徒臥	-11.7415
庶徴	-11.7415
雷雨	-11.7418
徒困	-11.7419
季冬	-11.7421
踐土	-11.7426
市制	-11.7427
無所考	-11.7427
篇第	-11.7431
鼓舞	-11.7431
許嫁	-11.7432
用周正	-11.7434
車攻	-11.744
戸郭	-11.744
叢生	-11.7442
尤甚	-11.7442
安舒	-11.7443
二十五篇	-11.7444
荆公	-11.7445
楚莊	-11.7445
輈人	-11.745
徒役	-11.7451
晉文公	-11.7453
而去之	-11.7457
三十六葉	-11.7459
克殷	-11.746
而後可以	-11.7466
衡門	-11.7468
微仲	-11.747
庖人	-11.7471
論衡	-11.7476
地勢	-11.7476
文選注二十	-11.748
神靈	-11.7482
雜亂	-11.7484
不足信	-11.7484
音岳又	-11.7485
九倫	-11.7485
程易	-11.7491
大雩	-11.7495
授受	-11.7497
下有之也二字釋文	-11.7501
魚器	-11.7511
牛馬	-11.7514
欲速	-11.7516
箇道理	-11.7517
宋儒	-11.7519
公穀	-11.7525
恐只是	-11.7526
年末	-11.753
陽厭	-11.7531
氣質	-11.7533
兆民	-11.7543
七百二十	-11.7552
子曰吾	-11.7557
下有曰字	-11.7557
各隨	-11.756
壬申	-11.7566
邦角	-11.7569
天之氣	-11.7571
以作似	-11.7577
做出	-11.7589
此其所以	-11.7607
魏志	-11.7609
丁老	-11.7623
僖五年	-11.7631
致仕	-11.7632
註疏諸本	-11.7641
烏侯	-11.7643
徒旦	-11.7648
風雅	-11.7654
以成其	-11.7663
廟之主	-11.7672
鄉飲酒禮	-11.7703
七經孟子考文補遺卷一百五十	-11.7708
十九篇	-11.7762
好貌	-11.7764
直結	-11.779
十畝	-11.7799
下有者字足利本同	-11.7814
萬四千	-11.7843
􁈩	-11.7852
伴	-11.7857
昌氏反又	-11.7858
提提	-11.7862
埤蒼	-11.7862
晩	-11.7863
銚	-11.7863
吕忱	-11.7863
叱	-11.7864
腵	-11.7864
餅	-11.7864
螘	-11.7865
輂	-11.7865
霣	-11.7865
侜	-11.7866
睇	-11.7866
斑	-11.7867
叫	-11.7868
槍	-11.7868
犫	-11.7868
僵	-11.7868
倉頡	-11.7868
憒	-11.7868
馵	-11.7869
篠	-11.787
罸	-11.787
邶	-11.787
紲	-11.787
惔	-11.7871
汲郡	-11.7872
癉	-11.7873
异	-11.7873
秫	-11.7873
為人後者	-11.7873
胳	-11.7873
呻	-11.7874
宓	-11.7874
愔	-11.7875
伉	-11.7876
黄鍾之宮	-11.7876
詩疏十七之	-11.7876
楸	-11.7876
荀卿子	-11.7876
屛	-11.7877
喈喈	-11.7877
幠	-11.7878
肌	-11.7878
鐏	-11.7878
骼	-11.7879
纉	-11.7879
謬矣	-11.7879
笫	-11.788
罽	-11.788
沔	-11.788
利建侯	-11.788
紡	-11.7881
軨	-11.7882
粻	-11.7882
郤克	-11.7882
觱	-11.7882
嶓	-11.7882
抒	-11.7883
灋	-11.7883
竺	-11.7883
鮐	-11.7883
辛卯	-11.7883
私心	-11.7884
繰	-11.7884
盻	-11.7884
涿	-11.7884
吉㐫	-11.7884
輖	-11.7884
韣	-11.7884
遣政	-11.7885
陸璣	-11.7885
徐廣曰	-11.7885
綢	-11.7885
襃貶	-11.7885
諍	-11.7886
鬴	-11.7886
翫	-11.7886
癸酉	-11.7886
堲	-11.7887
扉	-11.7887
㓂	-11.7887
敬以直内義以方外	-11.7888
蚍蜉	-11.7888
儁	-11.7888
亳社	-11.7888
隴西	-11.7889
影宋本釋文	-11.7889
貔	-11.7889
鶉尾	-11.7889
備鄙	-11.7889
暭	-11.7889
於妙反	-11.789
抉	-11.789
娵訾	-11.7891
西王母	-11.7891
都尉	-11.7891
婚姻	-11.7892
噍	-11.7892
困學紀聞	-11.7893
歠	-11.7893
煢	-11.7893
拓	-11.7893
僉	-11.7894
律歴志	-11.7894
敲	-11.7894
孟獻子	-11.7894
整頓	-11.7894
匡謬正俗	-11.7895
線	-11.7895
湫	-11.7895
虎牢	-11.7895
掎	-11.7896
撲	-11.7896
豝	-11.7896
讀詩記	-11.7896
姣	-11.7897
無過不及	-11.7897
悝	-11.7898
糴	-11.7898
霓	-11.7898
蝃蝀	-11.7898
季武子	-11.7898
湏	-11.7899
匯	-11.7899
泊	-11.79
日本山井鼎物觀撰毛詩註疏第	-11.79
㬊淵錄第九章	-11.79
薑	-11.79
涘	-11.79
襟	-11.7901
圭璧	-11.7901
控	-11.7901
百揆	-11.7901
霜降	-11.7902
他彫	-11.7902
上如字下	-11.7902
栗階	-11.7902
褒姒	-11.7902
嬛	-11.7902
易有太極	-11.7902
廵狩	-11.7902
顒	-11.7903
大夫刺幽王	-11.7903
鮀	-11.7903
勵	-11.7904
㤀	-11.7904
忠信所以進徳	-11.7904
鎗	-11.7904
大衍之數五十	-11.7905
臧否	-11.7906
吉凶悔吝	-11.7907
其難其慎	-11.7907
吕燾録	-11.7907
鍳	-11.7908
冺	-11.7908
孌	-11.7908
罶	-11.7909
許亮反本	-11.7909
古字通	-11.7909
两	-11.791
等謹案	-11.791
歲池録	-11.791
隍	-11.7911
耋	-11.7911
食亦反下	-11.7911
辛巳	-11.7912
占夢	-11.7913
勑律	-11.7914
躔	-11.7914
齊桓晉文	-11.7914
宋板則作	-11.7915
另	-11.7915
詩書禮樂	-11.7915
萇	-11.7915
參同契	-11.7916
重複	-11.7917
干旄	-11.7918
周禮疏十	-11.7919
兔罝	-11.7919
逰	-11.7919
中霤	-11.792
隐	-11.7923
鄭氏箋	-11.7924
將仲子	-11.7925
捲	-11.7926
臨川	-11.7926
謹按為是	-11.7927
截然	-11.7928
寕	-11.7931
木瓜	-11.7935
戎狄	-11.7936
古喚	-11.7936
育萬物	-11.7936
黄池	-11.7937
題目	-11.7938
淇澳	-11.7939
光武	-11.794
烏報	-11.7942
古頑	-11.7942
陽貨	-11.7943
大夫賈逵	-11.7949
鄉飲	-11.795
無疑矣	-11.7951
總序	-11.7951
休休	-11.7952
泰否	-11.7954
形象	-11.7956
災害	-11.7962
過差	-11.7962
兩邊	-11.7965
匪解	-11.7966
魯哀公	-11.7968
並史記注四十	-11.797
韓侯	-11.797
齊整	-11.7972
承上文	-11.7975
虚危	-11.7979
金錫	-11.798
此四者	-11.798
樹木	-11.7983
三十五葉左	-11.7989
弗敢	-11.7991
増入	-11.7992
徒回	-11.7995
薛君	-11.7996
毛詩註疏第十	-11.7996
隂陽交	-11.7997
之然反	-11.8
香草	-11.8005
星散為	-11.8007
這裡	-11.8009
十二州	-11.8009
詩小雅	-11.8013
敬仲	-11.8019
范氏	-11.8028
是此意	-11.8035
素報	-11.8045
戰國時	-11.8046
如字本或	-11.8054
縣東南	-11.8057
其月反	-11.8066
無曰字	-11.8079
降等	-11.8098
弱水	-11.8109
失之矣	-11.8111
七故反	-11.8114
職事	-11.8159
公羊疏二十	-11.817
第十八	-11.8175
做底	-11.8177
宋板於作	-11.8183
亦自有	-11.8184
宋本疏二十	-11.8207
曾祖	-11.8208
補本足利本同	-11.8254
謹按諸本皆	-11.83
約束	-11.8304
初學記十	-11.8313
第十七	-11.8326
金奏	-11.8378
字疑誤倒	-11.84
鼫	-11.8405
普悲	-11.8412
秩秩	-11.8414
咤	-11.8415
浩浩	-11.8416
蛸	-11.8417
冽	-11.8417
初洽反	-11.8418
蠧	-11.842
譟	-11.842
繐	-11.842
昄	-11.8421
星神姓	-11.8422
嚼	-11.8423
圄	-11.8423
蓏	-11.8425
鸒	-11.8425
古賀反	-11.8425
鼷	-11.8426
寸忽	-11.8426
簜	-11.8427
禕	-11.8427
恱絹	-11.8427
琅	-11.8427
慇	-11.8428
初冝反	-11.8428
犉	-11.8428
峩	-11.8429
畱	-11.8429
甓	-11.843
秸	-11.8431
蛄	-11.8431
蘂	-11.8431
騑	-11.8431
㐫	-11.8432
絆	-11.8433
㳂	-11.8434
並通典九十	-11.8434
虜	-11.8434
葅	-11.8435
䊷	-11.8435
膊	-11.8436
櫕	-11.8436
戸暗	-11.8436
丏	-11.8436
御史大夫	-11.8436
拏	-11.8437
鰥寡	-11.8437
虔	-11.8437
滸	-11.8437
林直解	-11.8437
釀	-11.8437
儳	-11.8438
刷	-11.8439
瘧	-11.8439
鋸	-11.8439
岷	-11.844
下有焉字	-11.844
爟	-11.844
聦	-11.844
濤	-11.8441
机	-11.8441
初九爻辭	-11.8442
薊	-11.8442
昏姻	-11.8442
嚳	-11.8442
疲	-11.8442
茭	-11.8442
輶	-11.8442
嘒	-11.8442
璠	-11.8442
蕰	-11.8443
被髮	-11.8443
伯夷叔齊	-11.8443
邂	-11.8444
日本山井鼎物觀撰春秋左傳注疏第	-11.8444
貓	-11.8444
悠久	-11.8445
儻	-11.8446
怍	-11.8447
駁五經異義	-11.8447
日有食之	-11.8447
牼	-11.8447
許愼	-11.8447
滎作熒	-11.8448
婆	-11.8448
蓱	-11.8448
絅	-11.8449
未當至而至多病	-11.8449
堙	-11.8449
筠	-11.8449
戟	-11.8449
猗嗟	-11.8449
跲	-11.8449
壬癸	-11.845
字疑衍文	-11.845
宋板者作	-11.845
儌	-11.845
参	-11.845
逅	-11.845
欿	-11.845
呌	-11.8451
偝	-11.8451
伐檀	-11.8451
西北隅	-11.8451
璿璣	-11.8451
邶鄘	-11.8452
野有蔓草	-11.8452
丙戌	-11.8452
枝葉	-11.8452
瑚	-11.8453
凢	-11.8453
㲈	-11.8453
偹	-11.8453
骸	-11.8453
濛	-11.8454
鎬京	-11.8454
襍	-11.8454
李巡	-11.8454
薈	-11.8455
燉煌	-11.8456
畦	-11.8456
字不知據何本也	-11.8456
樞機	-11.8456
苦穴	-11.8456
自上而下	-11.8456
三千六百	-11.8456
犁	-11.8457
規模	-11.8457
蟠	-11.8458
螣	-11.8458
禬	-11.8458
墊	-11.8458
緩急	-11.846
絜矩之道	-11.846
微子之命	-11.846
禘祫	-11.846
煥	-11.846
滕文公	-11.8461
稹	-11.8461
紊	-11.8461
庳	-11.8461
塲	-11.8462
侔	-11.8462
天下有道	-11.8462
朢	-11.8463
良耜	-11.8464
雎	-11.8464
封康叔	-11.8465
范寗	-11.8466
酆	-11.8466
張揖	-11.8466
許兩反	-11.8468
諄	-11.8468
萌芽	-11.8469
源流	-11.8469
下邳	-11.8469
厚薄	-11.8469
緊要	-11.847
不窋	-11.847
厨	-11.8471
小暑	-11.8471
形而下者	-11.8471
以此洗心	-11.8472
賦斂	-11.8473
歌詠	-11.8473
彗星	-11.8474
𦙍征	-11.8474
唐太宗	-11.8475
殷紂	-11.8475
王莽時	-11.8476
潔白	-11.8477
哀姜	-11.8477
譬喻	-11.8477
運轉	-11.8477
未甞	-11.8478
青青	-11.8479
曾孫	-11.8481
禍福	-11.8483
夷姜	-11.8483
與民同	-11.8484
尖	-11.8487
衫	-11.8487
玄端	-11.8488
三苖	-11.8489
二千五百	-11.849
程先生	-11.8491
希夷	-11.8495
既醉	-11.8497
既殯	-11.8497
駝	-11.8498
夏六月	-11.8498
十有三年	-11.8498
大學之道	-11.8501
九黎	-11.8505
太乙	-11.8508
洞然	-11.8512
說話	-11.8514
博施	-11.8516
渾天	-11.8518
玄冠	-11.8521
祈父	-11.8524
思念	-11.8524
日南至	-11.8527
尊嚴	-11.853
吉禘	-11.8531
列宿	-11.8536
説苑	-11.8538
不可測	-11.854
孟孫	-11.8541
右大雅	-11.8549
宋板正嘉同	-11.8565
唐堯	-11.8568
引詩云	-11.8572
愚嘗	-11.8578
正徳本	-11.8581
民之所	-11.8587
晁氏	-11.8604
補遺古本宋板	-11.8613
注二卷	-11.8615
臯門	-11.8665
宋板為是	-11.8668
考工	-11.8695
語助	-11.8713
遣使	-11.8725
山堂考索續集十	-11.8759
胡豆	-11.8776
魚吕反本	-11.8784
知天命	-11.8784
子衿	-11.8784
天駟	-11.8816
必亦反	-11.8823
則民不	-11.8825
昭七年	-11.8848
戸結	-11.887
栘	-11.898
睘	-11.8983
書疏十	-11.8995
䳺	-11.8998
牲體	-11.9
下疑脫	-11.9
字當誤倒	-11.9001
蠐	-11.9003
瘦	-11.9007
下共有	-11.9007
籧篨	-11.9007
閷	-11.9007
瑁	-11.9008
葷	-11.9009
匊	-11.9009
洹	-11.9009
尺遂反	-11.9009
他活反	-11.9009
鴽	-11.901
辟作避	-11.9011
蝮	-11.9012
脢	-11.9012
葛屨	-11.9012
遫	-11.9014
俱縛反	-11.9014
直留反	-11.9014
􁈭	-11.9014
茢	-11.9014
燾	-11.9014
儕	-11.9015
琳	-11.9015
蝑	-11.9015
睫	-11.9016
葍	-11.9016
槖	-11.9016
史記注六十	-11.9016
慱	-11.9016
􁈈	-11.9017
絢	-11.9017
荇	-11.9017
匜	-11.9017
扶粉	-11.9017
枹	-11.9019
筏	-11.9019
龡	-11.9019
沇	-11.902
鑊	-11.902
穜	-11.902
悊	-11.902
􁀈	-11.902
經傳通解	-11.902
間厠	-11.902
趙簡子	-11.902
盟詛	-11.902
箾	-11.9021
脃	-11.9021
褒貶	-11.9021
湄	-11.9022
渇	-11.9022
簸	-11.9022
趙鞅	-11.9023
蚡	-11.9023
媺	-11.9023
煎	-11.9023
樕	-11.9023
矣矣作也	-11.9024
軾前	-11.9024
皡	-11.9025
企	-11.9025
昏作婚	-11.9026
倖	-11.9027
肈	-11.9027
䜛	-11.9027
蔡仲之命	-11.9027
司几筵	-11.9027
嘷	-11.9028
氂	-11.9028
楔	-11.9028
詩疏六之	-11.9028
彀	-11.9029
瞢	-11.9029
陸渾	-11.9029
翿	-11.9029
戸旦反	-11.9029
玦	-11.903
舉觶	-11.903
錘	-11.903
食貨志	-11.903
鄩	-11.903
黥	-11.9031
春夏秋冬	-11.9031
棫	-11.9031
濆	-11.9031
薍	-11.9031
塨	-11.9032
禚	-11.9032
貧賤	-11.9032
詩疏五之	-11.9032
鄗	-11.9032
壚	-11.9033
涅	-11.9033
泓	-11.9033
緊	-11.9034
埆	-11.9034
存舊毛詩卷第	-11.9034
夢夢	-11.9034
貈	-11.9034
涌	-11.9034
昇	-11.9034
簴	-11.9034
頖宫	-11.9035
雷霆	-11.9035
髠頑	-11.9035
萱	-11.9036
弘農	-11.9036
籌	-11.9036
廖德明錄	-11.9036
疢	-11.9037
酖	-11.9037
馗	-11.9037
痤	-11.9037
檐	-11.9037
槱	-11.9037
士昬禮	-11.9037
狊	-11.9037
韵	-11.9038
璅	-11.9038
答張逸云	-11.9038
警戒	-11.9038
珌	-11.9038
熄	-11.9038
刺厲王	-11.9038
歜	-11.9038
璉	-11.9038
柞棫	-11.9038
彭城	-11.9039
戰國䇿	-11.9039
妾祖姑	-11.9039
崧	-11.9039
蜉	-11.9039
牝牡	-11.9039
迤	-11.904
炰	-11.904
祏	-11.904
鼃	-11.904
晰	-11.904
娀	-11.9041
堩	-11.9041
董遇	-11.9041
翹	-11.9041
愎	-11.9041
棜	-11.9041
樊光	-11.9041
教國子	-11.9041
艶	-11.9042
諛	-11.9042
旅酬	-11.9042
戔戔	-11.9042
古字通用	-11.9042
怎	-11.9042
耑	-11.9043
綫	-11.9043
匏有苦葉	-11.9043
孔悝	-11.9043
蓷	-11.9043
僇	-11.9043
峙	-11.9044
盎齊	-11.9044
僥	-11.9044
瞞	-11.9044
爾雅翼	-11.9044
秋八月	-11.9044
蘭陵	-11.9044
嶲	-11.9044
嫡庶	-11.9045
芰	-11.9045
遨	-11.9045
奎婁	-11.9045
迋	-11.9045
櫓	-11.9045
輔廣録	-11.9046
鵒	-11.9046
匍匐	-11.9046
咈	-11.9046
霰	-11.9046
象傳程傳	-11.9046
幡	-11.9047
五經總義類	-11.9047
娵	-11.9047
烕	-11.9047
浙	-11.9047
絪緼	-11.9047
斨	-11.9048
其然乎	-11.9048
沖	-11.9048
何人斯	-11.9048
禇	-11.9048
姜姓	-11.9048
稔	-11.9048
緧	-11.9048
邦有道	-11.9049
洊	-11.9049
力馳	-11.9049
蹤	-11.9049
擬議	-11.905
雄雉	-11.905
旞	-11.905
哉生明	-11.905
繼之者善	-11.905
悴	-11.9051
搆	-11.9051
栩	-11.9051
諷誦	-11.9052
咫	-11.9052
㢘	-11.9052
椇	-11.9053
不啻	-11.9053
三十五葉右	-11.9054
甬	-11.9054
黄榦錄第	-11.9054
乾坤坎離	-11.9054
床	-11.9055
罩	-11.9055
昴畢	-11.9056
纘	-11.9056
賈誼	-11.9059
真箇是	-11.9059
凱風	-11.9059
焱	-11.9061
􁁯	-11.9061
州鳩	-11.9061
滄	-11.9061
十五卷	-11.9063
踐履	-11.9063
荆楚	-11.9063
厭厭	-11.9065
縲	-11.9067
查	-11.9067
斵	-11.907
儼然	-11.9072
玉府	-11.9072
悵	-11.9072
曽參	-11.9072
穆叔	-11.9073
汝墳	-11.9074
臧孫	-11.9079
車鄰	-11.9079
四十九篇	-11.908
畿外	-11.908
隋唐	-11.9081
念慮	-11.9081
功德	-11.9082
致太平	-11.9082
㤗誓	-11.9082
無物不	-11.9084
筆解	-11.9085
剰	-11.9085
紹興	-11.9087
震巽	-11.9089
不足據	-11.9092
喪朋	-11.9094
諸侯之大夫	-11.9095
鄭譜	-11.9095
仲吕	-11.9099
楚詞	-11.9103
防風	-11.9108
條目	-11.911
子張問	-11.911
忘憂	-11.9114
今文尚書	-11.9117
簡兮	-11.9117
踰月	-11.9118
其失也	-11.912
涇水	-11.9126
二十四氣	-11.9137
篤實	-11.9137
天子之禮	-11.9141
山之陽	-11.9147
戸豆	-11.9161
他歷	-11.9175
脱也字	-11.9197
坤文言	-11.92
奏肆夏	-11.9201
縣東北	-11.9209
帥師伐	-11.9249
本多作	-11.9261
下有公字	-11.9278
仍舊	-11.929
右小雅	-11.9329
許多事	-11.934
河上本	-11.9345
也上有者字	-11.9354
坤六二	-11.9375
萬九千	-11.9395
律吕	-11.9434
一箇道理	-11.946
一隂一陽之謂道	-11.9475
長八尺	-11.9482
三十七葉右	-11.9514
宋板是作	-11.9518
彭祖	-11.9528
百九十二	-11.9581
謷	-11.9605
齊侯宋公	-11.9609
澶	-11.9614
寰	-11.9616
甿	-11.9616
瞿瞿	-11.9617
蠨	-11.9619
冪	-11.962
譍	-11.9622
欽定四庫全書十三經注疏正字卷	-11.9627
懫	-11.9628
款	-11.9629
蕨	-11.963
駔	-11.963
力果反	-11.963
蝎	-11.963
毓	-11.9631
下共有也字下註	-11.9631
孶	-11.9632
宁	-11.9632
闍	-11.9633
萏	-11.9633
刉	-11.9633
綖	-11.9633
挂	-11.9634
秠	-11.9634
葚	-11.9635
怖	-11.9635
杝	-11.9636
憲憲	-11.9637
職掌	-11.9637
滂	-11.9637
頄	-11.9637
菏	-11.9637
泄泄	-11.9638
頟	-11.9638
裝	-11.9638
南齊書	-11.9638
觕	-11.9638
脀	-11.9638
蒲末反	-11.9638
姊妹	-11.9639
防有鵲巢	-11.964
嚬	-11.964
佳買反	-11.964
勑亮反	-11.9641
蕘	-11.9642
稂	-11.9642
泌	-11.9643
餫	-11.9643
妘	-11.9643
駜	-11.9644
蔿	-11.9644
不知據何本	-11.9644
副貳	-11.9644
孔子閒居	-11.9644
召旻	-11.9644
屐	-11.9645
滔滔	-11.9645
舎人本作	-11.9645
噩	-11.9645
況域	-11.9645
肵	-11.9646
椒聊	-11.9646
勗	-11.9647
毆	-11.9648
維天之命	-11.9649
旴	-11.9649
臑	-11.9649
熯	-11.9649
幻	-11.9649
暋	-11.965
繚	-11.965
說文引作	-11.965
貣	-11.965
膏盲	-11.9651
擣	-11.9651
騑騑	-11.9651
湯湯	-11.9652
嫠	-11.9652
哂	-11.9653
並毛校吳文定	-11.9653
飴	-11.9653
躓	-11.9654
纛	-11.9654
行其庭不見其人	-11.9654
朿	-11.9654
為父後者	-11.9654
朋黨	-11.9655
愾	-11.9655
娠	-11.9655
髺	-11.9655
慶封	-11.9656
日本山井鼎物觀撰	-11.9656
鞗	-11.9656
貆	-11.9656
■	-11.9656
彖傳程傳	-11.9656
湣	-11.9657
陝	-11.9657
孫叔敖	-11.9657
􁊾	-11.9657
蠖	-11.9658
銎	-11.9658
勑留	-11.9658
穨	-11.9658
抄本闕	-11.9658
吪	-11.9658
蹻蹻	-11.9658
醯醢	-11.9658
濃	-11.9659
耰	-11.966
蠭	-11.966
召忽	-11.966
釋言云	-11.966
栖	-11.9661
鶉首	-11.9661
敝笱	-11.9661
宗廟社稷	-11.9661
嶧	-11.9661
勑倫	-11.9661
霖	-11.9661
晞	-11.9661
栲	-11.9662
肜	-11.9662
璊	-11.9662
逷	-11.9662
它云貎是	-11.9662
塋	-11.9662
縚	-11.9662
騅	-11.9662
十三經義疑	-11.9662
絏	-11.9662
欽定四庫全書九經古義卷	-11.9662
絕	-11.9662
蹯	-11.9663
九經古義卷	-11.9663
佾	-11.9663
聾	-11.9663
君子偕老	-11.9664
慚	-11.9664
蹜	-11.9664
勛	-11.9664
個	-11.9664
腶	-11.9665
譔	-11.9665
二王之後	-11.9666
獺	-11.9666
觩	-11.9666
滓	-11.9667
颺	-11.9667
畞	-11.9667
拚	-11.9668
莫大乎	-11.9668
瘡	-11.9668
袞	-11.9668
初六爻辭	-11.9668
皿	-11.9668
文王有聲	-11.9669
史記正義	-11.9669
卝	-11.9669
逕	-11.9669
䖝	-11.967
稌	-11.967
列女傳	-11.9671
出其東門	-11.9671
一以貫之	-11.9671
力豔	-11.9672
湮	-11.9672
破斧	-11.9672
諒闇	-11.9672
碣石	-11.9673
事事物物	-11.9673
左右惟其人	-11.9673
於葛反	-11.9673
矛盾	-11.9674
讖	-11.9674
誤興國本作	-11.9674
播種	-11.9674
戰戰兢兢	-11.9674
吕不韋	-11.9674
饒後録	-11.9674
曀	-11.9675
公至自	-11.9675
撮要	-11.9675
懟	-11.9676
昊天上帝	-11.9676
賡	-11.9676
水潦	-11.9676
賁于丘園	-11.9676
器械	-11.9676
皦	-11.9677
林學䝉錄第	-11.9677
答趙商云	-11.9677
暴虐	-11.9677
大㮣	-11.9677
利涉大川	-11.9678
翰林院檢討毛竒齡撰	-11.9678
侍御	-11.9678
君臣上下	-11.9679
凛	-11.9679
鳥鼠	-11.9679
尾箕	-11.9679
爕	-11.968
券	-11.968
字可刪	-11.968
必世反	-11.9681
哥	-11.9681
詖	-11.9681
素絲	-11.9681
矰	-11.9681
詎	-11.9681
銓	-11.9682
止於至善	-11.9682
新臺	-11.9682
鱮	-11.9683
文蔚曰	-11.9683
進徳修業	-11.9684
晦朔	-11.9685
月暈	-11.9685
諷詠	-11.9686
已上並繫辭	-11.9686
蒼頡篇	-11.9687
典謨	-11.9687
凑	-11.9687
改正朔	-11.9688
喈	-11.9688
憫	-11.9688
黯	-11.9689
戞	-11.969
吳必大録	-11.969
陸德明	-11.9692
蠻夷	-11.9693
周本紀	-11.9693
萋	-11.9694
牝牛	-11.9697
周公所作	-11.9698
挨	-11.9698
録一卷	-11.9699
勉强	-11.9702
嗜欲	-11.9702
羊舌	-11.9703
梅賾	-11.9704
龍顔	-11.9704
牽引	-11.9705
紬	-11.9705
陳摶	-11.9709
振鷺	-11.971
齊景公	-11.9714
太極圖	-11.9715
並朱校宋本禮記疏	-11.9724
靈龜	-11.9726
篤志	-11.9748
史記注四十七	-11.9753
百里之國	-11.9762
門弟子	-11.9774
這箇道理	-11.9783
校宋疏四十	-11.9803
七經孟子考文補遺卷一百三十	-11.9807
而審反	-11.9815
尺六寸	-11.9818
棣棣	-11.9829
尺五寸	-11.9849
得其宜	-11.986
弗作不	-11.9865
後改作	-11.9907
注補後漢書二十	-11.9914
句芒	-11.9938
謹按崇禎本	-12.0022
欽定四庫全書朱子五經語類卷四十	-12.0165
並史記注二十	-12.0184
儀禮疏十	-12.0213
二本足利本	-12.0263
韲	-12.0274
耡	-12.0281
唐棣	-12.0281
石經監本同	-12.0281
瑲	-12.0283
薁	-12.0288
皋	-12.0289
㦧	-12.029
輲	-12.0291
褖衣	-12.0294
蹋	-12.0294
鷦	-12.0294
刌	-12.0296
三老五更	-12.0298
鑪	-12.0299
駪	-12.0299
鼖	-12.03
侃侃	-12.03
憙	-12.03
彼驗反	-12.0301
璪	-12.0301
綪	-12.0302
皙	-12.0302
倞	-12.0302
慘慘	-12.0302
薜	-12.0303
蜙	-12.0303
鷖	-12.0304
汏	-12.0304
朾	-12.0305
惴惴	-12.0305
褘衣	-12.0305
塤	-12.0306
臺榭	-12.0306
右扶風	-12.0307
嶷	-12.0307
蝝	-12.0307
溲	-12.0307
迕	-12.0307
依字讀	-12.0307
菌	-12.0308
蟄蟲	-12.0308
䋲	-12.0309
薑桂	-12.0309
泥泥	-12.0309
􁇎	-12.0309
鼬	-12.031
縟	-12.0311
力追反	-12.0311
晡	-12.0313
熲	-12.0313
骭	-12.0313
洄	-12.0313
媧	-12.0313
㪺	-12.0313
何校官本	-12.0313
芒芒	-12.0313
揄狄	-12.0314
蕳	-12.0314
蒩	-12.0314
義以方外	-12.0315
鍚	-12.0316
鷂	-12.0316
洙	-12.0316
皇皇者華	-12.0316
鄑	-12.0316
牷	-12.0316
鄼	-12.0317
胡臘	-12.0317
礱	-12.0317
盩	-12.0317
詈	-12.0317
氄	-12.0317
嘽嘽	-12.0317
廻	-12.0317
粤	-12.0317
逄	-12.0318
皐陶	-12.0318
閔子騫	-12.0318
㓨	-12.0318
之什詁訓傳第二十	-12.0318
禂	-12.0319
轝	-12.0319
偈	-12.0319
啟蟄	-12.0319
諠	-12.0319
筦	-12.0319
匏𤓰	-12.0319
轘	-12.032
猩	-12.032
玄纁	-12.032
躅	-12.032
睨	-12.032
鑚	-12.032
俅	-12.032
甾	-12.032
頍	-12.032
鷃	-12.0321
古㣲書卷	-12.0321
娩	-12.0321
傃	-12.0321
鬵	-12.0321
泂酌	-12.0321
縉	-12.0321
汎汎	-12.0321
藟	-12.0321
􁆡	-12.0322
翌	-12.0322
嫚	-12.0322
眀	-12.0322
郰	-12.0323
忠信進徳	-12.0323
嗌	-12.0323
寛裕	-12.0323
路史後紀注	-12.0323
咮	-12.0324
正作止	-12.0324
椐	-12.0324
湨	-12.0324
禹謨	-12.0324
琥	-12.0324
拯救	-12.0324
岷山	-12.0324
西狩獲麟	-12.0324
蝥	-12.0324
鍪	-12.0325
猗猗	-12.0325
啣	-12.0325
懥	-12.0325
凡厥庶民	-12.0325
瘉	-12.0325
元年春王正月	-12.0325
劉瓛	-12.0325
曰若稽古	-12.0326
黄裳元吉	-12.0326
冔	-12.0326
摰	-12.0326
諮	-12.0326
竪	-12.0326
亡北反	-12.0326
力弔反	-12.0326
擠	-12.0327
脯醢	-12.0327
糈	-12.0327
蜼	-12.0327
冏	-12.0327
疈	-12.0328
魏文侯	-12.0328
糸	-12.0328
東北喪朋	-12.0329
干楯	-12.0329
隸	-12.0329
模様	-12.0329
罅	-12.033
辛酉	-12.033
􁇲	-12.0331
寝	-12.0331
無忌憚	-12.0331
謹按恐非	-12.0331
優劣	-12.0331
上有謂字	-12.0331
詩疏二十之	-12.0331
咷	-12.0331
扣	-12.0331
漢上傳	-12.0331
罭	-12.0332
祟	-12.0332
藐	-12.0333
詩疏九之	-12.0333
惻隱	-12.0333
圯	-12.0333
天一地二	-12.0333
可與幾	-12.0333
利牝馬之貞	-12.0333
攀	-12.0334
澧	-12.0334
渾淪	-12.0334
日刺是謂	-12.0334
鄭無駁	-12.0334
錢塘程川撰書	-12.0334
匰	-12.0334
杇	-12.0334
齊民要術	-12.0335
旰	-12.0335
尫	-12.0335
軻	-12.0335
古鄧反	-12.0335
仗	-12.0335
批	-12.0335
戒謹恐懼	-12.0336
檮	-12.0336
薿	-12.0336
簚	-12.0336
也二本也上有者字	-12.0336
御覧五百	-12.0336
莫侯反	-12.0337
璞	-12.0337
駸	-12.0337
通其變	-12.0337
株林	-12.0337
棗栗	-12.0337
嵗饒録	-12.0337
南有嘉魚	-12.0338
琬	-12.0338
曲阜	-12.0338
毋自欺	-12.0338
乾文言第五節	-12.0338
壇墠	-12.0338
乙夘	-12.0338
臏	-12.0338
赧	-12.0339
菱	-12.0339
昭二十年	-12.0339
槨	-12.0339
濟濟多士	-12.034
巫蠱	-12.0341
畟	-12.0341
謐	-12.0342
羣吏	-12.0342
蔀七十六嵗	-12.0343
敇	-12.0343
秦始皇	-12.0343
娥	-12.0344
五經縂義類	-12.0344
六經奥論	-12.0344
桔	-12.0344
崇牙	-12.0345
早晚	-12.0345
卜筮之書	-12.0345
序卦雜卦	-12.0346
韓嬰	-12.0346
禮記卷第	-12.0346
置閏	-12.0347
叔梁紇	-12.0347
春秋左氏傳	-12.0347
孔叢子	-12.0348
揖遜	-12.0348
下有云字	-12.0348
覘	-12.0348
變風始作	-12.0348
瞽矇	-12.0349
未之有也	-12.035
入公門	-12.035
蹟	-12.0351
制禮作樂	-12.0351
軼	-12.0351
信南山	-12.0353
把做	-12.0353
掌戮	-12.0355
舞雩	-12.0355
綅	-12.0357
丈八尺	-12.036
司巫	-12.0362
澒	-12.0364
二王後	-12.0369
河源	-12.0374
按淮南子	-12.0376
卒伍	-12.0381
六經圖	-12.0385
離婁	-12.0391
紫宫	-12.042
到這	-12.0498
小邾	-12.0552
這物事	-12.0552
國子監	-12.0588
屋壁	-12.0602
齊魯韓	-12.0648
桃夭	-12.0812
林學蒙錄	-12.0856
奈	-12.0974
蒼頡	-12.0978
僤	-12.0982
婚媾	-12.0987
崇禎	-12.0994
眣	-12.0998
褖	-12.0999
猲	-12.1001
爍	-12.1003
祡	-12.1003
䲭鴞	-12.1004
直遙反	-12.1007
孽孽	-12.1009
甃	-12.101
顓臾	-12.1011
塴	-12.1012
佗佗	-12.1013
呴	-12.1015
蓑	-12.1015
鵬	-12.1016
鳸	-12.1016
陶陶	-12.1017
喤喤	-12.1017
苔	-12.1018
橛	-12.1018
紃	-12.1018
羝	-12.1019
亓	-12.1019
驁	-12.1019
漱	-12.1019
汲古閣	-12.1019
檝	-12.102
􁈛	-12.1021
鈎鈴	-12.1021
訢	-12.1021
棃	-12.1021
寖	-12.1021
俴	-12.1021
衺	-12.1021
赭	-12.1021
穽	-12.1022
頍弁	-12.1022
抍	-12.1022
杶	-12.1023
耒耜	-12.1023
偲	-12.1023
鮎	-12.1024
嫗	-12.1024
稜	-12.1025
閨	-12.1025
澶淵	-12.1025
籬	-12.1026
詩疏十五之	-12.1026
襗	-12.1026
郝	-12.1026
蝦	-12.1026
尚書註疏卷第	-12.1026
擲	-12.1028
噎	-12.1028
冬官考工記	-12.1028
枿	-12.1028
鏜	-12.1028
婺女	-12.1028
章章六句	-12.1029
璲	-12.1029
稑	-12.1029
與崇禎本同	-12.1029
履虎尾	-12.1029
歧	-12.103
猴	-12.103
姑姊妹	-12.103
鷊	-12.103
崔集注	-12.103
押韻	-12.103
氣盛則夢	-12.1031
岑	-12.1031
冓	-12.1031
土之次曰五	-12.1031
富以其鄰	-12.1032
黼黻	-12.1032
穅	-12.1032
兔爰	-12.1032
韐	-12.1032
逍遥	-12.1032
謹按宋板正嘉	-12.1032
老耼	-12.1032
騋	-12.1032
獶	-12.1033
考異宋板註	-12.1033
册	-12.1034
儔	-12.1034
筲	-12.1034
漸漸之石	-12.1034
尸謖	-12.1034
鶂	-12.1034
网	-12.1034
詡	-12.1035
訩	-12.1035
購	-12.1035
跬	-12.1035
春秋公羊說	-12.1035
擭	-12.1035
曶	-12.1035
岵	-12.1036
龔	-12.1036
下有耳也二字	-12.1036
攬	-12.1036
蜺	-12.1036
畚	-12.1036
捋	-12.1036
璿	-12.1037
匈	-12.1037
博物志	-12.1037
疥	-12.1038
焉焉作也	-12.1038
輊	-12.1038
􁔔	-12.1038
彖曰節疏	-12.1038
高麗本集解	-12.1038
銕	-12.1038
馹	-12.1039
普卜反	-12.1039
犴	-12.104
蓐收	-12.104
倉庚	-12.104
戛	-12.104
衮冕	-12.104
枌	-12.104
剛柔交錯	-12.104
蓲	-12.1041
齡	-12.1041
雨雹	-12.1041
詆	-12.1041
司烜氏	-12.1041
胞	-12.1041
鄹	-12.1041
枘	-12.1041
我行其野	-12.1042
郚	-12.1042
苾	-12.1042
龎	-12.1042
匍	-12.1042
掾	-12.1042
泝	-12.1042
無可疑者	-12.1042
孜孜	-12.1042
毛詩國風鄭氏箋	-12.1042
厝	-12.1042
跖	-12.1043
衙	-12.1043
嘿	-12.1043
哆	-12.1043
四海之内	-12.1043
都人士	-12.1044
黍苗	-12.1044
所甲反	-12.1044
御覽九百	-12.1045
嘔	-12.1045
渰	-12.1045
褰裳	-12.1045
聼	-12.1045
喪服變除	-12.1045
未敢誚公	-12.1045
獳	-12.1045
罵	-12.1045
究究	-12.1046
君子陽陽	-12.1046
杲	-12.1046
踰繕那	-12.1046
壝	-12.1046
骹	-12.1047
蘧伯玉	-12.1047
盆	-12.1047
有女同車	-12.1047
菣	-12.1047
頖	-12.1047
晉獻公	-12.1047
檟	-12.1048
群	-12.1048
自下而上	-12.1048
唾	-12.1049
擗	-12.1049
而巳矣	-12.1049
宀	-12.1049
二尺四寸	-12.1049
離騷	-12.105
慣	-12.105
辵	-12.105
柅	-12.105
瘵	-12.1051
己夘	-12.1051
援神契	-12.1051
詩疏十之	-12.1051
教誨	-12.1051
鄭可學錄	-12.1051
莧陸	-12.1051
冊府元龜	-12.1052
膮	-12.1052
純亦不已	-12.1052
言乃讙	-12.1052
旊	-12.1052
瞀	-12.1053
日本山井鼎物觀撰禮記注疏第	-12.1053
折俎	-12.1053
匐	-12.1053
撝	-12.1054
治國平天下	-12.1054
蠙	-12.1054
獄訟	-12.1054
音律又	-12.1054
魅	-12.1054
疽	-12.1054
西南得朋	-12.1054
虖	-12.1055
遷徙	-12.1055
古經解鉤沉	-12.1055
冬十有二月	-12.1055
天尊地卑	-12.1056
沔水	-12.1056
匣	-12.1056
通志六十	-12.1057
惓	-12.1058
皇甫謐	-12.1058
興國軍本	-12.1059
牴牾	-12.1059
鱐	-12.1059
滋味	-12.1059
逈	-12.1059
惙	-12.106
施孟梁丘	-12.106
有條理	-12.1061
映	-12.1061
子協反	-12.1061
瞳	-12.1062
畇	-12.1063
祈穀	-12.1063
欠闕	-12.1063
參伍	-12.1064
乾元亨利貞	-12.1064
薙氏	-12.1065
透徹	-12.1066
開物成務	-12.1066
子丑寅	-12.1067
象以典刑	-12.1069
靠	-12.1069
延壽	-12.1071
乙丑	-12.1071
收歛	-12.1071
三百五篇	-12.1072
丘園	-12.1074
符云反	-12.1075
生成之數	-12.1075
上有猶字	-12.1075
㽔	-12.1076
咨嗟	-12.1079
裸	-12.1079
朄	-12.108
曰吾聞	-12.1081
覔	-12.1084
風雅頌	-12.1085
必政反	-12.1092
而况於	-12.1093
五十五數	-12.11
補遺元文	-12.1101
僅存	-12.1191
从艸	-12.1203
下有也下箋	-12.1208
福祿	-12.1218
疆界	-12.1219
朱校宋本禮記疏四十	-12.1261
可以意求	-12.1294
建子之月	-12.1347
天下國家	-12.1558
下有為字	-12.1648
鷺	-12.1725
二本宋板同	-12.1749
譆	-12.1762
珩	-12.1766
窴	-12.177
橧	-12.1771
唪	-12.1772
楘	-12.1772
􁉸	-12.1772
袁万	-12.1773
蔥	-12.1773
幪	-12.1774
鵰	-12.1774
十三經注疏正字卷	-12.1776
噦噦	-12.1776
槄	-12.1777
笭	-12.1777
韋弁	-12.1777
樊纓	-12.1778
􁊃	-12.1779
耊	-12.1779
厞	-12.1781
傀	-12.1781
嬙	-12.1782
而日月㑹	-12.1783
鵞	-12.1783
江東呼	-12.1783
舒銳	-12.1785
旭	-12.1786
羊汝反	-12.1786
惸	-12.1786
頯	-12.1786
睂	-12.1787
繶	-12.1787
饕	-12.1788
古患反	-12.1788
埒	-12.1788
茵	-12.1789
慥	-12.1789
正字通云	-12.1789
靚	-12.179
監閩本	-12.179
㤗	-12.179
耏	-12.179
嚭	-12.1791
魚檢反	-12.1791
篇内皆同	-12.1791
刁	-12.1791
煌	-12.1791
鯊	-12.1791
懮	-12.1791
士䘮禮	-12.1792
㛰	-12.1792
叔于田	-12.1792
蔌	-12.1792
靦	-12.1792
幡幡	-12.1792
絶句一讀	-12.1792
貃	-12.1793
綯	-12.1794
直勇反	-12.1794
篹	-12.1795
殞	-12.1795
坰	-12.1795
陪尾	-12.1795
于僞反下注爲	-12.1795
媟	-12.1795
賔之初筵	-12.1795
鬌	-12.1795
苦對反	-12.1795
鐃	-12.1796
鴻雁	-12.1796
疋	-12.1796
忉忉	-12.1797
姿	-12.1797
道作導	-12.1797
太皥	-12.1797
爭鬪之爭	-12.1797
膷	-12.1798
斤斤	-12.1798
失名注	-12.1798
煕	-12.1798
嚨	-12.1798
平王東遷	-12.1799
張皇六師	-12.1799
笲	-12.1799
縈	-12.1799
絿	-12.1799
芒種	-12.1799
沌	-12.1799
詫	-12.18
漉	-12.18
長三丈	-12.18
􁂄	-12.18
撎	-12.1801
罇	-12.1801
欽明文思	-12.1801
斮	-12.1801
居尊位	-12.1801
覈	-12.1801
才性反	-12.1801
纁裳	-12.1801
各得其宜	-12.1801
擖	-12.1801
芭	-12.1802
嬀	-12.1802
昧爽	-12.1802
虬	-12.1802
欒盈	-12.1802
枷	-12.1803
顧野王	-12.1803
東西南北	-12.1803
墍	-12.1804
輜車	-12.1804
薙	-12.1804
未詳孰是	-12.1804
棓	-12.1804
考異宋板經	-12.1804
可與存義	-12.1804
文獻通考	-12.1805
喆	-12.1805
謹按惟萬厯與崇禎本同	-12.1805
鬰	-12.1805
後鄭讀為	-12.1805
聳	-12.1805
剩	-12.1805
屎	-12.1806
瘣	-12.1806
鞂	-12.1806
悲位反	-12.1806
綵	-12.1806
毨	-12.1806
不詳何人	-12.1806
桎梏	-12.1806
八能之士	-12.1807
跌	-12.1807
閡	-12.1807
駓	-12.1807
顧炎武	-12.1807
販	-12.1808
金木水火	-12.1808
刵	-12.1808
孔頴逹	-12.1808
揚子雲	-12.1808
師作帥	-12.1808
窖	-12.1808
影響	-12.1808
徭	-12.1808
㢲而止	-12.1808
幝	-12.1809
菶	-12.1809
啜	-12.1809
涿鹿	-12.1809
春王三月	-12.1809
晃	-12.1809
渤	-12.1809
檇	-12.1809
為人子者	-12.1809
㰱	-12.1809
砠	-12.1809
黄榦録	-12.1809
公冶長	-12.1809
痺	-12.1809
捍	-12.181
邕	-12.181
徒洛反	-12.181
鴇羽	-12.181
並御覽百四十	-12.181
周公東征	-12.181
褓	-12.181
瑰	-12.1811
諗	-12.1811
眸	-12.1811
陳淳錄	-12.1811
萎	-12.1811
孑孑	-12.1811
分當至不至	-12.1811
訐	-12.1812
㸑	-12.1812
潢	-12.1812
覸	-12.1813
叔肸	-12.1813
謹按崇禎本闕	-12.1813
欽定四庫全書融堂四書管見卷	-12.1813
僰	-12.1813
鯢	-12.1813
古經解鈎沉卷	-12.1814
䢴	-12.1814
潔淨精微	-12.1814
弈	-12.1814
檿	-12.1814
巵	-12.1815
腒	-12.1815
九委反	-12.1815
季孫宿	-12.1815
隕霜	-12.1815
用九用六	-12.1815
佔	-12.1816
兵大起	-12.1816
軟	-12.1816
參差不齊	-12.1816
石碏	-12.1816
日知録	-12.1816
潄	-12.1817
不亦可乎	-12.1817
秪	-12.1817
欬	-12.1817
髙宗肜日	-12.1817
劾	-12.1817
拕	-12.1817
惺	-12.1817
徔	-12.1817
與今本同	-12.1817
孔子作春秋	-12.1818
湧	-12.1818
齊作齋	-12.1818
兢兢業業	-12.1818
螭	-12.1818
苡	-12.1818
鉛	-12.1819
斗斛	-12.1819
覧	-12.1819
萇弘	-12.1819
杕	-12.182
韙	-12.182
芄蘭	-12.182
下有猶字	-12.182
殈	-12.182
諐	-12.182
束帛戔戔	-12.182
丌	-12.1821
憶	-12.1821
未知孰是	-12.1821
不濟事	-12.1821
惚	-12.1821
羑里	-12.1821
齕	-12.1821
狡童	-12.1821
香兩反	-12.1822
林少頴	-12.1822
籙	-12.1822
杻	-12.1822
陴	-12.1822
彧	-12.1823
㝷	-12.1823
七全反	-12.1823
輮	-12.1823
惻隠之心	-12.1824
上有則字	-12.1825
章八句	-12.1825
嚏	-12.1825
擴	-12.1825
萁	-12.1825
縂	-12.1825
㬊淵録乾文言第二節	-12.1825
籔	-12.1825
寂然不動	-12.1826
冗	-12.1827
逓	-12.1827
通天下之志	-12.1827
莆	-12.1827
杳	-12.1828
鉄	-12.1828
兩儀生四象	-12.1829
闥	-12.1829
韞	-12.1829
僾	-12.1829
阝	-12.183
二百四十二年	-12.183
鼛	-12.1831
錐	-12.1831
元咺	-12.1832
從序説	-12.1833
笛色	-12.1833
琛	-12.1834
島	-12.1834
癡	-12.1834
開在反	-12.1835
聯	-12.1835
隋書十	-12.1836
五經正義	-12.1836
何彼穠矣	-12.1836
述而不作	-12.1836
十有四年	-12.1837
譛	-12.1838
誤中从	-12.1838
攵	-12.184
宓羲	-12.184
㮮按	-12.1842
畸	-12.1842
雚	-12.1843
兢	-12.1844
陀	-12.1846
森	-12.1849
泰誓一篇	-12.185
卷國朝	-12.1851
右第二十	-12.1852
利渉大川	-12.1853
睠	-12.1853
園㕓	-12.1854
㲄	-12.1856
取作娶	-12.1861
者者作也	-12.1869
丈二尺	-12.1869
這意思	-12.1878
甲士三人	-12.1879
彼註無	-12.1883
歩頂	-12.1895
上有於字	-12.1983
字疑在	-12.2069
朱校宋本禮記疏三十	-12.2071
雎鳩	-12.2168
御覽五百三十	-12.2193
宋本御覽二十	-12.2237
影宋本	-12.225
聖人有以見天下之賾	-12.2282
卷之十	-12.2448
踶	-12.2566
邳	-12.2586
十六葉右八行	-12.2586
𧃊	-12.2587
譸	-12.2592
饟	-12.2592
蠜	-12.2592
􁈞	-12.2593
歸安沈炳震撰	-12.2596
剿	-12.2597
暀	-12.2601
姡	-12.2602
醳	-12.2602
拉	-12.2604
遻	-12.2604
􁀔	-12.2605
七經孟子考文補遺卷七十	-12.2605
頮	-12.2605
豜	-12.2606
榝	-12.2606
尺志反	-12.2606
九經辨字瀆蒙	-12.2608
軋	-12.2609
豆籩	-12.261
絼	-12.261
范甯集解元年	-12.2611
厮	-12.2611
讇	-12.2613
疣	-12.2614
髳	-12.2614
白雜毛	-12.2614
壼	-12.2615
蠯	-12.2615
酺	-12.2615
嘒嘒	-12.2617
不喪匕鬯	-12.2617
嚶嚶	-12.2617
袤	-12.2617
菁菁	-12.2617
倶	-12.2618
釋訓云	-12.2618
琇	-12.2619
崒	-12.2619
瀌	-12.262
揃	-12.262
間空一字	-12.262
缾	-12.2621
葺	-12.2621
䪐	-12.2621
儵	-12.2622
尺曰仞	-12.2622
圭瓉	-12.2622
誾誾	-12.2622
紖	-12.2622
諟	-12.2623
諴	-12.2623
年考異宋板傳	-12.2623
祅	-12.2624
音泰後大	-12.2624
欑	-12.2624
桃茢	-12.2624
通典九十	-12.2624
忤	-12.2625
一箇表儀	-12.2625
哺	-12.2625
居衞反	-12.2625
漯	-12.2625
受作授	-12.2625
裧	-12.2625
驤	-12.2625
萩	-12.2625
溟	-12.2626
紾	-12.2626
纚笄	-12.2626
邿	-12.2626
𬞞	-12.2626
賃	-12.2627
依注讀爲	-12.2627
擥	-12.2627
牋	-12.2627
霏	-12.2627
敬以直内	-12.2627
先迷後得	-12.2628
獫	-12.2628
芃芃	-12.2628
案程子云	-12.2628
宫作官	-12.2628
轚	-12.2628
讄	-12.2629
鬒	-12.2629
彳	-12.263
溓	-12.263
喘	-12.263
痯	-12.263
撟	-12.263
禦寇	-12.263
喪羊于易	-12.263
惕惕	-12.2631
踞	-12.2631
晧	-12.2631
下有矣也二字	-12.2631
淆	-12.2631
臐	-12.2632
冇	-12.2632
楗	-12.2632
咢	-12.2632
㝢	-12.2632
格其非心	-12.2632
襮	-12.2632
宋本御覧	-12.2632
詻	-12.2632
如今人言合格	-12.2632
陽雲出	-12.2632
格之格	-12.2633
瀰	-12.2633
櫂	-12.2633
也三本也上有者字	-12.2633
繘	-12.2633
中郎將	-12.2633
臂臑	-12.2633
鱒	-12.2634
詩疏十一之	-12.2634
輾轉	-12.2634
麴	-12.2634
愉愉	-12.2634
荀罃	-12.2634
存舊尚書卷第	-12.2635
惟精惟一	-12.2635
觿	-12.2635
瘝	-12.2635
方千里者	-12.2635
歂	-12.2636
振鐸	-12.2636
汧	-12.2636
穏	-12.2636
瓀	-12.2636
肺肝	-12.2636
一項是	-12.2636
縋	-12.2636
蟆	-12.2636
上有是字	-12.2636
音集又	-12.2637
刎	-12.2637
朐	-12.2638
絛	-12.2638
旝	-12.2638
槌	-12.2638
詩攷一	-12.2638
魂魄	-12.2639
影宋本集韵	-12.2639
欽定四庫全書十三經義疑卷	-12.2639
解作懈	-12.2639
匴	-12.2639
古今人表	-12.2639
妖孽	-12.264
么	-12.264
世傳業	-12.264
髣	-12.264
篴	-12.264
芙	-12.2641
視履考祥	-12.2641
周易註疏卷第	-12.2641
佯	-12.2641
四千五百六十	-12.2641
槿	-12.2642
曝	-12.2642
緎	-12.2642
㯺	-12.2642
号	-12.2642
力代反	-12.2642
彤管	-12.2642
祺	-12.2642
豋	-12.2642
聆	-12.2642
劉礪錄	-12.2643
橜	-12.2643
給事中	-12.2643
許玉反	-12.2644
舟楫	-12.2644
所以行之者	-12.2644
芑	-12.2644
溉	-12.2644
反扶當作蒲	-12.2644
穧	-12.2644
野有死麕	-12.2644
溠	-12.2644
仂	-12.2644
無偏無黨	-12.2645
為四向所	-12.2645
屺	-12.2645
到極處	-12.2645
鯁	-12.2645
槷	-12.2645
霑	-12.2645
捐	-12.2645
恠	-12.2645
鍭	-12.2645
春秋所書	-12.2645
盥而不薦	-12.2645
遵大路	-12.2646
攢	-12.2646
邀	-12.2646
磷	-12.2646
傳寫之誤	-12.2646
苦晃	-12.2647
授同郡	-12.2647
分度之一	-12.2647
夹	-12.2647
摠	-12.2647
中士下士	-12.2648
名作各	-12.2648
瀍	-12.2648
芩	-12.2649
閶闔	-12.2649
悱	-12.2649
噂	-12.2649
天地定位	-12.2649
篾	-12.2649
融堂四書管見卷	-12.2649
宋板同疏放此	-12.265
艮其止止其所	-12.265
婺	-12.265
私覿	-12.265
士相見禮	-12.265
痒	-12.265
拄	-12.265
松栢	-12.265
剏	-12.265
九百四十分	-12.265
謖	-12.2651
周謨録	-12.2651
躩	-12.2651
鰋	-12.2651
季夏六月	-12.2651
治厯明時	-12.2651
纖	-12.2651
鄭衆解詁	-12.2652
懲忿	-12.2652
便教他居	-12.2652
眈	-12.2652
揀	-12.2652
炎炎	-12.2652
元者善之長	-12.2653
攅	-12.2653
銑	-12.2653
峯	-12.2653
葬我小君	-12.2653
脇	-12.2654
隔八相生	-12.2654
窈窕	-12.2655
醒	-12.2656
鐓	-12.2656
鉗	-12.2656
震電	-12.2656
克己復禮	-12.2656
鴻鴈	-12.2657
河出圖	-12.2657
洸	-12.2658
甘節録	-12.2658
力俱反	-12.2658
安卿問	-12.2658
庵	-12.2658
鼐	-12.2658
所洽反	-12.2658
何天之衢	-12.2658
噫嘻	-12.2659
罘	-12.2659
後方始	-12.2659
七日來復	-12.266
滴	-12.266
劌	-12.266
哭泣	-12.266
斚	-12.266
摟	-12.266
四象生八卦	-12.2661
傞	-12.2661
豊	-12.2661
汲冡	-12.2661
有一毫	-12.2662
譊	-12.2663
丘中有麻	-12.2663
盼	-12.2663
月失政	-12.2663
觀我生	-12.2663
埃	-12.2663
杉	-12.2664
秊	-12.2664
剗	-12.2664
抭	-12.2665
搏拊	-12.2666
僧一行	-12.2666
各從其	-12.2666
虹蜺	-12.2667
浸潤	-12.2667
竹竿	-12.2667
後鄭讀如	-12.2667
奢侈	-12.2667
軰	-12.2667
詩疏十三之	-12.2668
鄭可學録	-12.2668
傳冩之誤	-12.2668
遶	-12.2669
門人所記	-12.2669
不耕穫不菑畬	-12.2669
工木反	-12.267
溜	-12.2671
圮	-12.2671
樂天知命	-12.2671
涵詠自	-12.2671
利有攸徃	-12.2672
㡛	-12.2673
天地自然之	-12.2673
顚倒	-12.2677
螗	-12.268
之律應	-12.2683
府史胥徒	-12.2684
韈	-12.2695
痔	-12.2707
上有皆字	-12.2712
上有又字	-12.2731
二百五十	-12.2745
就事上	-12.2786
通典七十	-12.2816
宋本文選注二十	-12.2983
始立學	-12.3086
萬二千五	-12.3263
七經孟子考文補遺卷九十	-12.3296
餾	-12.3497
崈	-12.3504
鴂	-12.3504
鬢	-12.3506
駛	-12.3507
幑	-12.3507
後同者不出	-12.3508
羜	-12.3513
捆	-12.3513
奡	-12.3516
鄠	-12.3516
掤	-12.3517
穮	-12.3517
從父昆弟	-12.3517
蘄	-12.3517
襺	-12.3518
沖沖	-12.3519
從盧本校	-12.3519
戩	-12.3519
邛	-12.3519
跦	-12.352
煽	-12.352
罿	-12.352
蝤	-12.352
茱	-12.3521
韡	-12.3524
挎	-12.3524
饙	-12.3524
􁀎	-12.3525
蹊	-12.3525
誹	-12.3525
鄭云以其記	-12.3526
窶	-12.3526
䱷	-12.3527
芬香	-12.3527
􁉚	-12.3527
五刮反	-12.3527
蔾	-12.3528
詩疏十二之	-12.3528
紩	-12.3528
薻	-12.3528
曩	-12.3529
梜	-12.3529
荍	-12.3529
箘	-12.3529
明僧紹	-12.353
鴨	-12.353
鬐	-12.353
騋牝	-12.353
桼	-12.3531
鮥	-12.3531
摝	-12.3531
三百八十四	-12.3531
利物足以和義	-12.3531
歙	-12.3531
箙	-12.3532
宰咺	-12.3532
寳玉大弓	-12.3532
藨	-12.3532
三百六十五日	-12.3533
輤	-12.3533
袽	-12.3533
允執厥中	-12.3533
莵	-12.3534
嵇康	-12.3534
茄	-12.3534
剭	-12.3534
插	-12.3534
孟康曰	-12.3535
下有者也二字足利本者字同	-12.3535
鋌	-12.3536
愕	-12.3536
郃	-12.3537
捥	-12.3537
坏	-12.3537
㭬	-12.3537
嶓冡	-12.3537
徨	-12.3537
襃姒	-12.3537
栜	-12.3537
觢	-12.3537
三年喪畢	-12.3537
洳	-12.3537
也也上三本有者字	-12.3537
笮	-12.3537
韭菹	-12.3537
蒢	-12.3538
疹	-12.3538
甫當作補	-12.3538
蹵	-12.3538
啗	-12.3538
司尊彛	-12.3538
炅	-12.3538
混沌	-12.3538
摽有梅	-12.3539
春秋左氏音義之	-12.3539
司徒司馬司空	-12.3539
𬎼	-12.3539
褶	-12.354
逭	-12.354
􁀂	-12.354
無將大車	-12.3541
巽以行權	-12.3541
伯豐問	-12.3541
啍	-12.3541
黽勉	-12.3541
搤	-12.3541
不可為典要	-12.3541
芣	-12.3542
䐑	-12.3542
檍	-12.3542
熇	-12.3542
墝	-12.3542
栫	-12.3542
蔬	-12.3542
豶	-12.3543
沍	-12.3543
駃	-12.3543
耇	-12.3543
考靈曜	-12.3543
驥	-12.3543
下有也矣二字	-12.3544
扵	-12.3544
霞	-12.3544
帟	-12.3544
驛作馹	-12.3544
澳	-12.3544
渳	-12.3544
縭	-12.3545
痗	-12.3545
胏	-12.3545
北堂書鈔百二十	-12.3545
藹藹	-12.3545
畷	-12.3546
履霜堅冰	-12.3546
鴻漸于	-12.3546
方相氏	-12.3546
未作末	-12.3547
暖	-12.3547
鳬鷖	-12.3547
君子于役	-12.3547
譲	-12.3547
也也上有貌字	-12.3547
襯	-12.3547
焫	-12.3548
芡	-12.3548
痡	-12.3548
晴	-12.3549
丱	-12.3549
呦呦	-12.3549
按禮記疏	-12.3549
臤	-12.3549
稿	-12.3549
東方未明	-12.3549
籧	-12.355
闌	-12.355
武當作母	-12.355
螉	-12.355
楙	-12.355
欄	-12.355
食夜反	-12.355
挈壺氏	-12.355
李閎祖錄	-12.355
疆作彊	-12.355
韎韋	-12.355
鴝	-12.355
喪服四制	-12.355
裦	-12.355
驩兠	-12.355
壺涿氏	-12.3551
蓁蓁	-12.3551
羑	-12.3551
貯	-12.3551
醍	-12.3551
杅	-12.3552
芍	-12.3552
阡陌	-12.3552
瑯	-12.3552
反亡當作忙	-12.3553
少牢饋食	-12.3553
殫	-12.3554
藝文類聚	-12.3554
古尚書說	-12.3554
濱	-12.3554
鸜	-12.3555
薕	-12.3555
誤後或作	-12.3556
瞻卬	-12.3556
自强不息	-12.3556
吳仁傑	-12.3556
橭	-12.3556
愽	-12.3556
莱	-12.3556
石渠禮議	-12.3556
郹	-12.3556
劭	-12.3557
襁	-12.3557
渙其羣	-12.3557
應事接物	-12.3557
非一日矣	-12.3557
驒	-12.3557
徤	-12.3557
句句是	-12.3557
忖	-12.3558
莫大乎蓍龜	-12.3558
吳振錄	-12.3558
棰	-12.3558
蔆	-12.3558
瓣	-12.3559
簣	-12.3559
垝	-12.3559
喫	-12.3559
芴	-12.3559
僴	-12.356
敷淺原	-12.3561
欃	-12.3561
騵	-12.3561
長洲惠棟撰	-12.3562
漆赤中	-12.3562
鱨	-12.3562
臧武仲	-12.3563
邥	-12.3563
􁀮	-12.3563
聶圖十	-12.3563
濔	-12.3563
樽酒簋	-12.3563
鼒	-12.3563
也一本也上有者字	-12.3563
簾	-12.3563
古經解鈎沈巻	-12.3564
儥	-12.3564
潭本釋文	-12.3564
琦	-12.3564
莩	-12.3564
不習无不利	-12.3564
㛰姻	-12.3564
嘽	-12.3565
孟武伯	-12.3565
明邵寳撰	-12.3565
歲饒録	-12.3565
閈	-12.3565
炫	-12.3565
園有桃	-12.3565
攙	-12.3566
剋	-12.3566
感而遂通	-12.3566
肢	-12.3566
方子錄	-12.3567
下有能字	-12.3567
堯舜禹湯文武	-12.3567
先天後天	-12.3567
弢	-12.3568
稙	-12.3568
掀	-12.3569
烘	-12.3569
括地象	-12.357
阱	-12.357
藋	-12.357
晦菴	-12.357
以為民極	-12.357
火珠林	-12.357
胔	-12.3571
子太叔	-12.3572
讞	-12.3572
貲	-12.3572
畺	-12.3573
楊方錄	-12.3573
知崇禮卑	-12.3573
舀	-12.3573
如斯而已	-12.3574
炁	-12.3574
𤨏	-12.3574
無一毫	-12.3574
司中司命	-12.3575
羕	-12.3575
李鼎祚	-12.3576
愴	-12.3576
王應麟	-12.3576
詵	-12.3577
宋楊甲撰毛邦翰補	-12.3577
債	-12.3577
六七八九	-12.3577
荔	-12.3578
故受之以	-12.3578
訒	-12.3579
五經稽疑	-12.3579
踴	-12.3581
呶	-12.3581
誌	-12.3581
軏	-12.3582
不繼祖	-12.3583
襭	-12.3585
岌	-12.3589
縦	-12.3595
痕	-12.3597
汀	-12.3604
面北上	-12.3621
可不慎	-12.3728
年詔曰	-12.3891
公羊疏十	-12.4326
通典四十	-12.4399
通志堂本	-12.4428
枏	-12.4471
㷀	-12.4481
抌	-12.4492
梂	-12.4492
朌	-12.4494
荓	-12.4499
薖	-12.4501
鼩	-12.4502
囏	-12.4505
堥	-12.4506
封泰山禪云云	-12.4506
芉	-12.4506
䋫	-12.4507
䩉	-12.4508
欽定四庫全書九經辨字瀆蒙卷	-12.4509
竫	-12.4509
鸋	-12.4511
魗	-12.4513
鴾	-12.4513
蠓	-12.4514
陞	-12.4514
閩本誤	-12.4514
皎皎	-12.4515
玕	-12.4517
桺	-12.4517
麞	-12.4517
縰	-12.4518
緄	-12.4519
迊	-12.452
㢮	-12.452
罦	-12.452
褕翟	-12.4521
紗	-12.4521
惽	-12.4521
罛	-12.4521
緵	-12.4522
稃	-12.4522
荎	-12.4522
奕	-12.4522
膘	-12.4523
鵯	-12.4523
釗	-12.4523
􁀾	-12.4523
囂囂	-12.4524
恌	-12.4524
鄝	-12.4524
玼	-12.4525
疷	-12.4526
脄	-12.4526
暄	-12.4526
猪	-12.4527
庌	-12.4527
倀	-12.4528
讁	-12.4528
長厯推	-12.4528
悁	-12.4529
有攸往	-12.4529
濊	-12.453
髤	-12.453
焞焞	-12.4531
迮	-12.4531
挩	-12.4531
慉	-12.4531
係强補	-12.4532
戸刀反	-12.4532
何休學元年	-12.4532
筌	-12.4533
寅餞納日	-12.4533
䃂	-12.4533
櫄	-12.4533
楰	-12.4534
匭	-12.4534
餮	-12.4535
伻	-12.4535
塼	-12.4535
玖	-12.4535
日本山井鼎物觀撰尚書註疏第十	-12.4535
屍	-12.4536
飶	-12.4536
射不主皮	-12.4536
膱	-12.4536
鄉作嚮	-12.4537
翮	-12.4537
驢	-12.4537
鶉之奔奔	-12.4537
三寸九分	-12.4537
仲孫何忌	-12.4537
藤	-12.4537
囹	-12.4538
岠	-12.4538
忕	-12.4538
杆	-12.4539
餤	-12.4539
粊	-12.454
檵	-12.4541
蝦蟇	-12.4541
旄牛尾	-12.4541
臲卼	-12.4541
郿	-12.4541
菴	-12.4542
徐仙民	-12.4542
也宋板無也字	-12.4543
其精下為	-12.4543
酈	-12.4543
訽	-12.4543
程端䝉録	-12.4543
憔悴	-12.4544
朅	-12.4544
伹	-12.4544
醵	-12.4544
悻	-12.4544
踟	-12.4544
㫺	-12.4544
婣	-12.4544
戭	-12.4545
呐	-12.4545
王用亨于岐山	-12.4545
酎	-12.4545
屮	-12.4545
箯	-12.4545
䞓	-12.4546
條狼氏	-12.4546
瘨	-12.4546
􁁔	-12.4546
咡	-12.4547
襓	-12.4547
搹	-12.4547
蠮	-12.4547
椈	-12.4547
拈	-12.4548
挃	-12.4548
正德本同	-12.4548
何休注公羊	-12.4548
㕦	-12.4548
懔	-12.4549
蛣	-12.4549
纏	-12.4549
螬	-12.4549
伊耆氏	-12.4549
猋	-12.4549
䦧	-12.4549
蜘蛛	-12.455
虒	-12.455
猜	-12.455
帗	-12.455
鑰	-12.455
昩	-12.455
屝	-12.455
怭	-12.455
糅	-12.455
武王伐殷	-12.4551
飼	-12.4551
穋	-12.4551
百餘年	-12.4551
僛	-12.4552
枑	-12.4552
袡	-12.4552
誶	-12.4552
獒	-12.4552
麰	-12.4552
哿	-12.4552
昂	-12.4552
尃	-12.4552
踧踖	-12.4552
蹴	-12.4553
宧	-12.4553
愻	-12.4553
姑姊妹女子子	-12.4553
鴡	-12.4554
在眼前	-12.4554
心廣體胖	-12.4554
湍	-12.4554
鬈	-12.4554
栵	-12.4554
吳必大錄	-12.4554
此謂知本	-12.4554
犍	-12.4555
嗸	-12.4555
無愧於	-12.4555
巖巖	-12.4555
炬	-12.4556
吕燾錄	-12.4556
肅時雨若	-12.4556
鄏	-12.4556
餳	-12.4556
五經蠡測	-12.4556
動容貎	-12.4556
咸有一徳	-12.4557
樠	-12.4557
恂恂	-12.4557
兗	-12.4558
轘轅	-12.4558
時五福用敷錫厥庶民	-12.4558
燂	-12.4558
參差不一	-12.4558
鄴	-12.4558
公叔文子	-12.4558
箎	-12.4558
菡	-12.4558
廖徳明録	-12.4558
腋	-12.4558
至誠無息	-12.4559
服即禹	-12.4559
纍纍	-12.4559
珮	-12.4559
首出庶物	-12.4559
蓧	-12.456
覦	-12.456
贖刑所以寛鞭朴	-12.456
汗簡云古文尚書	-12.456
餙	-12.456
包揚錄	-12.456
驔	-12.456
東門之枌	-12.4561
啞	-12.4561
杜元凱	-12.4561
混同江	-12.4561
中谷有蓷	-12.4561
餉	-12.4561
連山歸藏	-12.4561
塚	-12.4561
任官惟賢	-12.4561
鈹	-12.4562
柣	-12.4562
桁	-12.4562
紽	-12.4562
建邦設都	-12.4562
珧	-12.4562
掫	-12.4562
讟	-12.4562
飌	-12.4562
履霜堅氷	-12.4562
甘節錄説命	-12.4562
纑	-12.4562
鎰	-12.4563
謹其獨	-12.4563
中天下而立	-12.4563
頵	-12.4563
為上為德	-12.4563
綘	-12.4564
福善禍淫	-12.4564
日夜分	-12.4564
元德問	-12.4564
無是理也	-12.4564
碩果不食	-12.4564
猫	-12.4564
悽	-12.4565
隋經籍志	-12.4565
通鑑外紀	-12.4565
為下為民	-12.4565
惴	-12.4565
綣	-12.4565
答趙商曰	-12.4565
遯于荒野	-12.4565
喜怒哀樂未發	-12.4566
軀	-12.4566
歲饒錄	-12.4566
鷟	-12.4566
霽	-12.4566
螳蜋	-12.4566
蕉	-12.4566
螾	-12.4567
甹	-12.4567
不睹不聞	-12.4567
鏄	-12.4568
公孫尼子	-12.4568
北堂書鈔九十	-12.4569
肻	-12.4569
黮	-12.457
衹	-12.457
殂	-12.457
梐	-12.457
剛柔相推	-12.457
李閎祖録	-12.457
你	-12.457
鏑	-12.457
僩	-12.4571
繫于苞桑	-12.4571
王安石	-12.4571
天地之數五十有五	-12.4572
㫋	-12.4572
熠	-12.4573
朱元晦	-12.4573
蔕	-12.4573
騤騤	-12.4573
何心哉	-12.4573
苕之華	-12.4574
鶡	-12.4574
无妄之災	-12.4574
韓退之	-12.4575
鞀	-12.4575
杪	-12.4576
九夫為井	-12.4576
鞮鞻氏	-12.4576
楊方録	-12.4576
衘	-12.4578
魃	-12.4578
碍	-12.4579
二子乗舟	-12.4581
灘	-12.4581
桶	-12.4582
摏	-12.4583
只是一箇物事	-12.4583
竹書紀年	-12.4584
婿	-12.4584
識得六義	-12.4584
鶯	-12.4584
㳙	-12.4585
囬	-12.4585
蜾蠃	-12.4586
𣆀	-12.4587
胡文定	-12.4587
莾	-12.4588
竑	-12.459
豖	-12.459
䆒	-12.4601
山君神姓	-12.4607
欽定四庫全書古經解鈎沈卷	-12.4618
十有七年	-12.4626
寸六分	-12.4765
周正建子	-12.5221
山在荆	-12.5518
誥等篇	-12.5552
扼	-12.5577
甽	-12.5592
餁	-12.5607
草作屮	-12.5612
爆	-12.5613
騉	-12.5614
世族譜	-12.5614
戸串反	-12.5616
徐云鄭音	-12.5618
蛭	-12.5618
胠	-12.5618
槫	-12.5619
軝	-12.562
咽咽	-12.5621
耎	-12.5622
赳赳	-12.5623
靂	-12.5623
釂	-12.5623
筑	-12.5623
籀	-12.5624
騭	-12.5624
翯	-12.5626
顒顒	-12.5626
淠淠	-12.5626
顆	-12.5626
鳦	-12.5627
挋	-12.5628
袢	-12.5628
鞔	-12.5628
驎	-12.5629
窅	-12.5629
瓬	-12.563
􁈨	-12.563
睔	-12.563
宫遊魂卦	-12.5631
鴒	-12.5632
垼	-12.5632
漘	-12.5633
絙	-12.5633
鷮	-12.5633
飮	-12.5633
箈	-12.5634
嘉㑹足以合禮	-12.5634
淢	-12.5634
鮦	-12.5634
㨎	-12.5634
單衣帶劍	-12.5634
􁉖	-12.5635
幭	-12.5635
霹	-12.5636
芐	-12.5636
摡	-12.5636
山東按察使沈廷芳撰詩	-12.5636
萬歴崇禎本	-12.5636
涷	-12.5637
澠	-12.5637
下空一字	-12.5637
鄋瞞	-12.5637
􁒅	-12.5638
怲	-12.5638
餴	-12.5638
即鹿无虞	-12.5639
龠	-12.5639
菙	-12.5639
鷇	-12.5639
櫨	-12.5639
尗	-12.564
搴	-12.564
􁈘	-12.564
濈	-12.564
祴	-12.5641
烰	-12.5641
摋	-12.5642
竁	-12.5642
初獻六羽	-12.5642
腢	-12.5642
跟	-12.5642
莚	-12.5642
僢	-12.5642
鵃	-12.5642
妯	-12.5643
悸	-12.5643
眹	-12.5643
隒	-12.5643
鞛	-12.5643
萬一千八百四十	-12.5643
漪	-12.5643
嘵嘵	-12.5643
釋草云	-12.5643
莝	-12.5644
蜀大字本	-12.5644
潝潝	-12.5644
從祖昆弟	-12.5644
觝	-12.5645
軔	-12.5645
螓	-12.5645
桋	-12.5645
飰	-12.5645
媞	-12.5645
蚊	-12.5646
蝍	-12.5646
腍	-12.5646
蔇	-12.5647
塒	-12.5647
湔	-12.5647
氛	-12.5647
謹按惟崇禎本	-12.5647
從集觧	-12.5647
閹	-12.5647
簵	-12.5647
婆娑	-12.5648
琪	-12.5648
麎	-12.5648
汕	-12.5649
琨	-12.5649
歗	-12.5649
尪	-12.5649
蝓	-12.5649
興者喻	-12.5649
樅	-12.565
悈	-12.565
鐙	-12.565
檋	-12.565
妊	-12.565
扳	-12.565
栒	-12.5651
琅玕	-12.5651
袼	-12.5651
亨者嘉之㑹	-12.5651
檠	-12.5651
嗃嗃	-12.5651
褏	-12.5651
圖以示之	-12.5652
窮理盡性	-12.5653
楢	-12.5653
瓝	-12.5653
駽	-12.5653
母以子貴	-12.5653
泚	-12.5654
拲	-12.5654
輁	-12.5654
伏羲畫卦	-12.5655
鱧	-12.5655
虋	-12.5655
鷸	-12.5656
褽	-12.5656
光禄大夫	-12.5656
窘	-12.5656
佇	-12.5657
參天兩地而倚數	-12.5657
蓆	-12.5657
冉伯牛	-12.5657
璂	-12.5657
修辭立其誠	-12.5657
雱	-12.5657
韇	-12.5657
藐藐	-12.5658
郄	-12.5658
以福不在	-12.5658
蕈	-12.5658
臲	-12.5658
榻	-12.5658
泱泱	-12.5658
罻	-12.5659
厶	-12.5659
蛆	-12.5659
羖	-12.566
裻	-12.566
日本山井鼎物觀撰春秋左傳註䟽第	-12.566
召作邵	-12.566
禨	-12.566
鐲	-12.5661
許叔重	-12.5661
僈	-12.5661
弗損益之	-12.5661
詛楚文	-12.5661
眭	-12.5661
硩蔟氏	-12.5661
䳒	-12.5661
簷	-12.5661
變化者進退之象	-12.5661
喓喓	-12.5662
堦	-12.5662
蟪	-12.5662
痍	-12.5662
禩	-12.5662
郱	-12.5662
揷	-12.5662
筮短龜長	-12.5662
翽	-12.5662
煁	-12.5662
鬽	-12.5662
仔	-12.5662
伶州鳩	-12.5662
帝王世紀	-12.5662
齊世子光	-12.5662
事勢然	-12.5662
鴳	-12.5662
廁	-12.5663
蜾	-12.5663
靧	-12.5663
犠	-12.5663
瘼	-12.5663
餔	-12.5663
寰宇記	-12.5663
䆫	-12.5663
其至矣乎	-12.5664
王敬作所不可不敬德	-12.5664
論石渠至	-12.5664
鄭聲淫	-12.5664
挶	-12.5664
􁅀	-12.5664
元命包	-12.5664
䘮服小記	-12.5664
見龍在田	-12.5664
不協于極	-12.5665
下共有之也二字	-12.5665
帝出乎震	-12.5665
狷	-12.5665
禮儀三百威儀三千	-12.5665
楊至錄	-12.5666
舝	-12.5666
得此五事	-12.5666
謹按萬厯與崇禎本同	-12.5666
沭	-12.5666
率作帥	-12.5666
啟金縢之書	-12.5666
璹	-12.5666
剸	-12.5667
公用亨于天子	-12.5667
錧	-12.5667
瞻彼洛矣	-12.5667
鵝	-12.5667
裳裳者華	-12.5667
瘏	-12.5667
哨	-12.5667
貂	-12.5667
榜	-12.5667
教胄子	-12.5668
欽若昊天	-12.5668
不罹于咎	-12.5668
糊	-12.5668
佽	-12.5669
余大雅錄	-12.5669
利者義之和	-12.5669
陳澔註本	-12.5669
舜功云	-12.5669
尻	-12.5669
止於所不見	-12.5669
垤	-12.567
惎	-12.567
有註同二字	-12.567
九九八十一	-12.567
歲在鶉火	-12.567
昊天有成命	-12.567
同寅協恭	-12.567
大鴻臚	-12.5671
趯趯	-12.5671
張有復古編	-12.5671
木上有水	-12.5672
係廟諱嫌名	-12.5672
憃	-12.5672
藾	-12.5672
歐陽大小夏侯	-12.5672
學而時習之	-12.5672
彊作强	-12.5672
郡重刋廖氏本	-12.5672
雷在天上	-12.5672
蹻	-12.5673
山有樞	-12.5673
琊	-12.5673
遴	-12.5673
囧	-12.5673
無入而不自得	-12.5673
于作干誤	-12.5673
窮神知化	-12.5673
萹	-12.5674
喪服要記	-12.5674
太極生兩儀	-12.5674
戒慎恐懼	-12.5674
居則觀其象	-12.5674
騧	-12.5675
山有扶蘇	-12.5675
澁	-12.5675
師尚父	-12.5675
穀作榖誤	-12.5675
校宋六十	-12.5675
仰觀俯察	-12.5675
梢	-12.5675
陑	-12.5675
功夫處	-12.5676
敞	-12.5676
明朱睦㮮撰	-12.5676
不言所利	-12.5676
犖	-12.5677
紉	-12.5677
醻作酬	-12.5677
程端蒙錄第	-12.5677
一溢米	-12.5677
德無常師	-12.5677
蒹	-12.5677
悄悄	-12.5677
加我數年	-12.5677
陽九百六	-12.5677
抹	-12.5677
萬國咸寧	-12.5677
雺	-12.5678
薤	-12.5678
天行健	-12.5678
惛	-12.5678
酤	-12.5678
元祀十有二月	-12.5678
鯨	-12.5678
苢	-12.5679
公徒三萬	-12.5679
天命之謂性	-12.5679
鷁	-12.5679
蕕	-12.568
騢	-12.568
先仲氏	-12.568
髡	-12.5681
惟和惟一	-12.5681
攠	-12.5681
伊尹告太甲	-12.5682
侃	-12.5682
酧	-12.5682
訑	-12.5682
女曰雞鳴	-12.5682
扶陽抑隂	-12.5682
犨	-12.5683
城復于隍	-12.5684
怠棄三正	-12.5684
賞善罰惡	-12.5685
因而重之	-12.5685
鄭漁仲	-12.5686
聰明睿知	-12.5687
亂臣賊子	-12.5688
欽定四庫全書六經圖卷	-12.5688
樂而不淫	-12.5688
蹂	-12.5688
攴	-12.5689
其欲逐逐	-12.5689
頫	-12.5689
夂	-12.569
只是常常	-12.569
淰	-12.569
龍負圖	-12.569
曲為之説	-12.569
喭	-12.5691
殲	-12.5691
矞	-12.5692
燦	-12.5692
虎視耽耽	-12.5692
羭	-12.5693
三萬六千	-12.5693
簇	-12.5693
甐	-12.5693
笋	-12.5693
乾坤鑿度	-12.5694
胹	-12.5694
浄	-12.5694
璇璣	-12.5695
巘	-12.5696
楖	-12.5697
呬	-12.5697
國子祭酒	-12.5697
殀	-12.5698
恍	-12.5699
术	-12.5699
顅	-12.5701
以日易月	-12.5701
撃	-12.5705
䑛	-12.5708
噳	-12.571
君乘木而王	-12.5717
菭	-12.5718
牕	-12.5745
宋書十	-12.5811
四千六百	-12.6647
玉幣爵	-12.6834
趺	-12.6847
古經解鈎沈卷十	-12.6854
沆	-12.6856
升成拜	-12.6856
嗷	-12.6858
絪	-12.6861
􁈿	-12.6864
鷯	-12.6864
雘	-12.6864
􁅆	-12.6866
幟	-12.6866
弥	-12.6867
媦	-12.6867
千三百二十	-12.6867
袠	-12.6869
敻	-12.6869
焌	-12.6869
䶂	-12.687
櫻	-12.6871
矺	-12.6871
阮孝緒	-12.6871
蜥蜴	-12.6873
鮛	-12.6873
幩	-12.6874
駼	-12.6874
怳	-12.6874
齝	-12.6874
鞻	-12.6874
檖	-12.6875
飤	-12.6875
宂	-12.6876
蠛	-12.6877
啻	-12.6878
眷勉反	-12.6878
皵	-12.6878
鶹	-12.6878
玗	-12.6878
芊	-12.6879
陶弘景	-12.6879
髙誘注	-12.688
粼	-12.688
蚉	-12.688
蝘	-12.688
閠	-12.6881
􁈤	-12.6881
服又其外方五百里曰	-12.6881
畿又其外方五百里曰	-12.6881
籕	-12.6882
飂	-12.6882
鍠	-12.6882
戺	-12.6882
一百五十五萬五千二百	-12.6882
瀁	-12.6882
礫	-12.6882
賕	-12.6882
邍	-12.6883
瘥	-12.6883
緆	-12.6883
儦儦	-12.6884
枓	-12.6884
樏	-12.6884
磌	-12.6885
茗	-12.6885
屆	-12.6885
嗑	-12.6885
汦	-12.6886
欇	-12.6887
欂	-12.6887
蜴	-12.6887
㵎	-12.6887
䐲	-12.6888
忻	-12.6888
幘	-12.6889
㱿	-12.6889
獐	-12.6889
讚	-12.689
鶖	-12.689
筤	-12.689
鱻	-12.689
挕	-12.689
趡	-12.6891
橡	-12.6891
鞍	-12.6891
幎	-12.6891
尞	-12.6891
􁃦	-12.6891
襋	-12.6892
萠	-12.6892
姧	-12.6893
胊	-12.6893
公㑹齊侯于	-12.6893
蒻	-12.6893
䡾	-12.6893
俳	-12.6893
拮	-12.6893
橦	-12.6893
槹	-12.6893
盝	-12.6894
垸	-12.6894
也乾隆四十	-12.6894
柬	-12.6894
視諸衿鞶	-12.6894
一言以蔽之	-12.6894
幢	-12.6894
緬	-12.6895
膟	-12.6895
葽	-12.6895
恒星不見	-12.6895
邾儀父	-12.6895
蜯	-12.6895
十二萬九千六百	-12.6895
北堂書鈔百五十	-12.6895
歰	-12.6895
佑作佐	-12.6895
文苑英華七百六十	-12.6895
焄	-12.6896
儇	-12.6896
酨	-12.6896
徐鍇曰	-12.6897
莧陸夬夬	-12.6897
薧	-12.6897
隉	-12.6897
蔡集說	-12.6897
不誣十室	-12.6897
虙	-12.6897
蛬	-12.6897
剠	-12.6897
瀼瀼	-12.6897
魯人篇目弟子	-12.6897
㢙	-12.6897
瀋	-12.6898
擐	-12.6898
荀爽九家集	-12.6898
眴	-12.6898
瑒	-12.6898
色尚白	-12.6898
鞙鞙	-12.6899
七萬二千	-12.6899
佌佌	-12.6899
夏時冠周月	-12.6899
逌	-12.6899
秕	-12.6899
蛹	-12.6899
拜受爵	-12.6899
三百四歲	-12.6899
魏書五十	-12.6899
鰭	-12.69
珈	-12.69
儡	-12.69
􁈹	-12.69
釃	-12.69
醷	-12.69
鍊	-12.69
愨	-12.6901
倂	-12.6901
焚咸丘	-12.6901
􁎱	-12.6901
成位乎其中	-12.6902
易物惟德	-12.6902
轢	-12.6902
鄅	-12.6902
滺	-12.6902
窮理盡性以至於命	-12.6903
􁂶	-12.6903
月幾望	-12.6903
藚	-12.6903
賽	-12.6903
三十作卅凡三十皆同	-12.6903
滲	-12.6903
燄燄	-12.6903
湜湜	-12.6903
懰	-12.6904
衖	-12.6904
鼂	-12.6904
盡第二十	-12.6904
升自西階	-12.6904
之什第二十	-12.6904
縝	-12.6904
有日無月	-12.6904
䲭	-12.6905
趍	-12.6906
璗	-12.6906
揵	-12.6906
㡭	-12.6906
易與天地凖	-12.6906
剛柔者晝夜之象	-12.6906
周生烈	-12.6906
雲行雨施	-12.6906
之獄則飾	-12.6906
㫃	-12.6906
蓻	-12.6906
圂	-12.6906
涬	-12.6906
騩	-12.6906
惲	-12.6907
拜手稽首	-12.6907
欠了一句	-12.6907
無詩時一國有詩	-12.6907
無所取材	-12.6907
人事有以致之	-12.6907
瀸	-12.6907
怓	-12.6908
武王克商	-12.6908
嶠	-12.6908
徊	-12.6908
祈作祁	-12.6908
鞄	-12.6908
運斗樞	-12.6908
鴶	-12.6908
􁅂	-12.6908
從祀先公	-12.6908
豈易得哉	-12.6908
秏	-12.6909
悍	-12.6909
年春王二月	-12.6909
柙	-12.6909
説豈弟君子自作	-12.6909
膂	-12.691
茺	-12.691
麽	-12.691
王享國百年耄	-12.691
茠	-12.691
可曉據周公在當時外則有武庚管蔡之	-12.691
筰	-12.6911
髯	-12.6911
夫里之布	-12.6911
饐	-12.6911
滫	-12.6911
七經孟子考文	-12.6912
有猷有為有守	-12.6912
潘時舉錄	-12.6912
如冬寒夏熱	-12.6912
聞人通漢	-12.6912
勴	-12.6912
廣莫風	-12.6912
崤	-12.6912
煒	-12.6912
知仁勇	-12.6912
鈆	-12.6912
羗	-12.6912
下異本有	-12.6912
淠	-12.6913
汴	-12.6913
襵	-12.6913
修身在正其心	-12.6913
在這裏了動容貎是外面底心之動便是	-12.6913
藘	-12.6913
堤	-12.6914
顔氏家訓	-12.6914
埀	-12.6914
盡得這五事以此錫庶民便是使民也盡	-12.6914
琚	-12.6914
百世不遷	-12.6914
一千一百	-12.6914
椵	-12.6914
䱸	-12.6914
濼	-12.6915
韘	-12.6915
璵	-12.6915
郠	-12.6915
癈	-12.6915
擊石拊石百獸率舞	-12.6915
爭鬭之爭	-12.6915
觸類而長	-12.6915
鎡	-12.6915
散騎常侍	-12.6915
㽦	-12.6916
滕璘錄	-12.6916
睍	-12.6916
虗	-12.6916
風師雨師	-12.6916
人君建極如箇標準如東方望也如此西	-12.6916
李懐光反其子璀告德宗曰臣父能危陛	-12.6916
祋	-12.6916
獪	-12.6916
徘	-12.6916
榼	-12.6916
厯象日月星辰	-12.6916
是火視是木聽是金思是土將庶徵來説	-12.6916
動周公未得便假無風雷之變周公亦須	-12.6916
漼	-12.6917
茝	-12.6917
蹰	-12.6917
灸	-12.6917
牆有茨	-12.6917
蒞	-12.6917
凶短折	-12.6918
庾蔚之	-12.6919
欽定四庫全書五經稽疑卷	-12.6919
如惡惡臭如好好色	-12.6919
鞹	-12.6919
詩書執禮	-12.6919
不可須臾離	-12.6919
君臣民事物	-12.6919
窔	-12.692
腔	-12.692
无平不陂	-12.692
天子作民父母以為天下王	-12.692
卷饒録四十六	-12.6921
弣	-12.6921
彜	-12.6921
搗	-12.6921
長洲余蕭客撰春秋左傳	-12.6921
砎	-12.6921
侯以明之撻以記之	-12.6921
葴	-12.6921
抔	-12.6921
飛龍在天	-12.6921
嘑	-12.6921
媢	-12.6922
黚	-12.6922
不偏不倚	-12.6922
署	-12.6922
縐	-12.6923
瑤	-12.6923
百世以俟聖人而不惑	-12.6923
温柔敦厚	-12.6923
以服事殷	-12.6923
善為師善無常主協于克一上兩句是教	-12.6923
郔	-12.6923
溯	-12.6923
小心翼翼	-12.6923
北斗七星	-12.6923
悚	-12.6923
捎	-12.6924
戔	-12.6924
懵	-12.6924
妁	-12.6924
庤	-12.6924
俚	-12.6924
蝶	-12.6924
涑	-12.6924
湯沐之邑	-12.6924
棒	-12.6925
一動一靜	-12.6925
之所以為下者葢為民也為上猶言為君	-12.6925
遰	-12.6925
顈	-12.6925
何所指曰只是指親近之臣任官是指	-12.6925
八卦相盪	-12.6925
潼	-12.6925
㬌	-12.6926
鄍	-12.6926
欽定四庫全書簡端録卷	-12.6926
﨑	-12.6927
羯	-12.6927
律度量衡	-12.6927
䰞	-12.6927
謾	-12.6927
河出圖洛出書聖人則之	-12.6927
兇	-12.6928
灉	-12.6928
慍	-12.6928
糲	-12.6928
枇	-12.6928
之以其所當	-12.6929
冬至子之半	-12.6929
精義入神	-12.6929
劉光伯	-12.6929
夙興夜寐	-12.693
閧	-12.693
王作三誤	-12.693
𦂳	-12.693
太極是生兩儀兩儀生四象四象生八卦	-12.693
叔孫得臣	-12.6931
謠	-12.6931
鞟	-12.6931
之簡簡端録卷	-12.6931
禹治洪水	-12.6931
繾	-12.6932
棷	-12.6932
癰	-12.6932
治梁及岐	-12.6932
不伐紂耳	-12.6932
乾文言第六節	-12.6932
卬卬岠虚	-12.6932
正陽之月	-12.6932
齮	-12.6933
㲝	-12.6934
秦焚書	-12.6934
本未始不	-12.6934
俸	-12.6934
毇	-12.6936
蚯	-12.6936
糦	-12.6936
醴泉出	-12.6936
沈僩録	-12.6938
偯	-12.6938
忠信所以進德	-12.6938
疕	-12.6938
王介甫	-12.6938
三綱五常	-12.6939
先甲後甲	-12.6939
李方子錄第	-12.694
何草不黄	-12.694
𤾉	-12.6941
才卿上饒人戊申以後所聞先生五十九	-12.6941
誠之不可揜	-12.6942
嫳	-12.6942
朱子語録	-12.6943
湯泳錄	-12.6943
忠信進德	-12.6943
烋	-12.6943
惏	-12.6944
袺	-12.6945
乾坤其易之緼	-12.6945
自求口實	-12.6945
天一生水	-12.6945
巧言令色	-12.6945
凟	-12.6946
轛	-12.6946
隂陽相薄	-12.6946
姫	-12.6947
四丘為甸	-12.6947
嶞	-12.6948
薅	-12.6949
殺人傷人	-12.6949
噦	-12.695
角亢氐	-12.695
郊祀后稷以配天	-12.6952
唇	-12.6955
妢	-12.6956
四如講稿	-12.6956
赤文成字	-12.6959
筒	-12.6959
魯淹中	-12.696
趯	-12.6961
􁎺	-12.6961
㡳	-12.6962
躇	-12.6969
閙	-12.6975
悄	-12.6983
海君姓	-12.6988
鱖	-12.6989
稯	-12.8237
􁉛	-12.8262
莍	-12.8264
鮨	-12.8266
渢	-12.8274
剴	-12.8278
訰	-12.8278
趼	-12.8282
噰	-12.8284
慬	-12.8287
辤	-12.829
鶋	-12.8291
柹	-12.8293
陾	-12.8293
忬	-12.8293
慅	-12.8296
牧養之牧	-12.8297
捜	-12.8298
眥	-12.8298
彡	-12.8298
幔	-12.8299
林丈一反	-12.8299
牄	-12.83
校毛本誤挍	-12.8301
罬	-12.8301
蜤	-12.8302
窋	-12.8303
燅	-12.8303
匶	-12.8304
㕣	-12.8304
茒	-12.8304
珣	-12.8304
韽	-12.8305
躗	-12.8305
澌	-12.8305
東觀漢記	-12.8305
柂	-12.8306
撢	-12.8307
轊	-12.8307
甀	-12.8307
龍龕手鑑	-12.8307
誤從木旁作	-12.8307
捘	-12.8308
㗉	-12.8308
姑俟再考	-12.8308
怗	-12.8308
冤	-12.8309
痩	-12.8309
浞	-12.831
䭫	-12.831
白石鑿鑿	-12.831
檛	-12.8311
遝	-12.8311
褕	-12.8311
擕	-12.8311
踽	-12.8312
騮	-12.8312
鶉之賁賁	-12.8312
壃	-12.8312
寅賔出日	-12.8312
渙汗其大號	-12.8313
叐	-12.8313
窌	-12.8313
蹐	-12.8314
捊	-12.8314
睊	-12.8314
賀循喪服要記	-12.8314
䄠	-12.8314
俣	-12.8314
梠	-12.8314
鋈	-12.8314
迩	-12.8314
尙	-12.8314
栰	-12.8314
素衣朱襮	-12.8315
蓫	-12.8316
膍	-12.8316
揫	-12.8316
行秋令至	-12.8316
焉得諼草	-12.8316
咸其輔頰舌	-12.8317
瘈	-12.8317
蝱	-12.8317
尟	-12.8317
漦	-12.8317
􁉘	-12.8317
王者禘其祖之所自出以其祖配之	-12.8318
碞	-12.8318
豕生三曰豵	-12.8319
公侯伯子男	-12.8319
無妻曰鰥	-12.8319
淬	-12.832
㬊淵録坤彖	-12.832
鬊	-12.8321
彥	-12.8321
坯	-12.8321
樻	-12.8321
啑	-12.8321
挻	-12.8321
鏌	-12.8321
觼	-12.8322
尰	-12.8322
南陔白華華黍	-12.8323
貙	-12.8323
亖	-12.8323
䔰	-12.8323
蛻	-12.8323
廚	-12.8323
槲	-12.8323
惠校宋經注本	-12.8323
憩	-12.8324
忳	-12.8324
紝	-12.8325
高辛氏	-12.8325
伏生所誦	-12.8325
始諸官稱	-12.8325
璇	-12.8325
捽	-12.8326
棋	-12.8326
癙	-12.8326
蘪	-12.8326
秆	-12.8326
鎒	-12.8326
五萬五千九百八十	-12.8326
絍	-12.8326
光禄勲	-12.8326
蛚	-12.8326
瑕丘江公	-12.8326
㡯	-12.8326
泡	-12.8327
䍿	-12.8327
繠	-12.8327
靾	-12.8327
蔏	-12.8327
三昭三穆	-12.8327
立煬宫	-12.8327
蛛	-12.8328
東滙澤為彭蠡	-12.8328
愀	-12.8328
訌	-12.8328
袿	-12.8328
袀	-12.8328
踏	-12.8329
僶	-12.8329
㨨	-12.8329
正嘉萬厯三本	-12.8329
糔	-12.8329
蠹	-12.8329
酣	-12.8329
毛校叢書	-12.8329
龐	-12.833
幃	-12.833
僬	-12.833
郷飲酒禮	-12.833
喩	-12.833
覡	-12.833
鵴	-12.833
假以溢我	-12.833
荒度作刑	-12.833
蚿	-12.833
蠰	-12.833
牴	-12.8331
􁆍	-12.8331
華亭吳浩撰	-12.8331
媲	-12.8331
失得勿恤	-12.8331
玟	-12.8331
孋	-12.8331
格君心之非	-12.8331
憝	-12.8332
楳	-12.8332
竀	-12.8332
眅	-12.8332
骴	-12.8332
諉	-12.8332
書不盡言言不盡意	-12.8332
按乾坤鑿度孔子曰	-12.8332
致知在格物	-12.8332
師逾孟津	-12.8332
駐	-12.8332
莭	-12.8333
吳王闔閭	-12.8333
蓂	-12.8333
宋毛居正撰	-12.8333
獀	-12.8333
弍	-12.8333
正誤若當作苦	-12.8333
奉勅撰	-12.8334
王朝步自周	-12.8334
鶚	-12.8335
近而不相得	-12.8335
蘢	-12.8335
赤舄几几	-12.8335
林堯叟	-12.8335
溴	-12.8335
郥	-12.8335
訧	-12.8335
嚇	-12.8335
蜋	-12.8335
殣	-12.8335
恆	-12.8336
冈	-12.8336
萴	-12.8336
一人冕執	-12.8336
適周問禮	-12.8336
蟀	-12.8337
栁下恵	-12.8337
孔穎逹	-12.8337
嵒	-12.8337
肭	-12.8337
餬	-12.8338
公如齊觀社	-12.8338
舍逆取順	-12.8338
堯都平陽	-12.8338
懠	-12.8338
逍	-12.8338
燖	-12.8338
蜜	-12.8338
宋板同但無也字	-12.8338
酪	-12.8338
林夔孫録	-12.8338
公晦邵武人戊申以後所聞先生五十九	-12.8338
􁆵	-12.8339
醙	-12.8339
羃	-12.8339
山龍華蟲	-12.8339
懃	-12.8339
炯	-12.8339
傜	-12.834
公孫碩膚	-12.834
寁	-12.8341
蘺	-12.8341
申包胥	-12.8341
卺	-12.8341
父子兄弟夫婦	-12.8341
喋	-12.8341
㸦	-12.8341
並御覽四百	-12.8341
犄	-12.8341
燈	-12.8341
林學䝉録	-12.8341
鳲	-12.8341
抜	-12.8341
汾沮洳	-12.8342
窻	-12.8342
諞	-12.8342
康誥酒誥梓材	-12.8342
乃至極之	-12.8342
焭	-12.8342
鮫	-12.8343
朩	-12.8343
喪服經傳注	-12.8343
攪	-12.8344
象恭滔天	-12.8344
若顛木之有由蘖	-12.8344
麷	-12.8344
葸	-12.8344
胉	-12.8344
湝	-12.8344
王用亨于西山	-12.8344
吉凶者失得之象	-12.8344
廌	-12.8344
鏝	-12.8344
讃	-12.8344
順性命之理	-12.8344
存舊附釋音禮記註疏卷第三十	-12.8345
塘	-12.8345
擒	-12.8345
焰	-12.8345
欽定四庫全書古經解鉤沉卷	-12.8345
瑾	-12.8345
罪人斯得	-12.8345
黄幹録	-12.8345
鄵	-12.8346
箄	-12.8346
焚如死如棄如	-12.8346
欽定四庫全書古㣲書卷三十	-12.8346
頳	-12.8346
麐	-12.8346
蕖	-12.8346
􁎠	-12.8346
豐其蔀	-12.8346
卒哭而致事	-12.8346
忸	-12.8346
橤	-12.8347
朋從爾思	-12.8347
瘕	-12.8347
扮	-12.8347
鍇	-12.8347
鑢	-12.8347
公二年考異足利本傳	-12.8347
黄卓錄	-12.8347
水火木金	-12.8348
修辭立其誠所以居業	-12.8348
幨	-12.8348
必也射乎	-12.8348
服齊衰三月	-12.8348
癶	-12.8348
遵王之路	-12.8348
渻	-12.8349
山堂考索前集	-12.8349
脞	-12.8349
浼	-12.835
瀟	-12.835
蔡伯喈	-12.835
敬授人時	-12.835
鯈	-12.835
影宋注疏	-12.835
興國及建	-12.835
六書正譌云	-12.835
蕝	-12.835
訓是行以近天子之光	-12.835
凥	-12.835
含樞紐	-12.835
墁	-12.835
明蔣悌生撰	-12.835
兩楹之間	-12.8351
鏐	-12.8351
崇禎本獨闕	-12.8351
流宥五刑	-12.8351
膉	-12.8351
利永貞	-12.8351
勿用取女	-12.8352
韅	-12.8352
蟘	-12.8352
燔黍捭豚	-12.8352
宋史二百	-12.8352
元㑹運世	-12.8353
呉必大録	-12.8353
宫商角徵羽	-12.8353
老師宿儒	-12.8353
䪥	-12.8353
狭	-12.8353
秔	-12.8353
芃	-12.8354
嶇	-12.8354
政和五禮新儀	-12.8354
犮	-12.8354
簮	-12.8354
椿	-12.8355
拗	-12.8355
戉	-12.8355
甡	-12.8355
倕	-12.8356
瑉	-12.8356
聱	-12.8356
柰	-12.8356
不好學其蔽也	-12.8356
悞	-12.8356
本作夲誤	-12.8356
雲土夢作乂	-12.8356
各正性命	-12.8356
日本山井鼎物觀撰周易兼義	-12.8356
叡	-12.8357
殮	-12.8357
从草木之木	-12.8357
塏	-12.8357
恐懼修省	-12.8357
觓	-12.8358
利用安身	-12.8358
芄	-12.8358
剄	-12.8359
傁	-12.8359
曽孫侯氏	-12.8359
宋鄭樵撰	-12.8359
遐不作人	-12.8359
憗	-12.836
焞	-12.836
余大雅録	-12.836
霡	-12.8361
茁	-12.8361
滮	-12.8361
甲士三人步卒七十二人	-12.8361
效法之謂坤	-12.8362
圬	-12.8362
飛戾天	-12.8362
飜	-12.8362
嫄	-12.8362
周天三百六十五度四分度之一	-12.8362
揩	-12.8362
羣經補義	-12.8362
兠	-12.8363
􁅾	-12.8363
戁	-12.8363
叉	-12.8363
其謬而偽者	-12.8363
水火金木	-12.8364
鄭玄六藝論	-12.8364
椌	-12.8364
秝	-12.8364
乾以易知坤以簡能	-12.8364
俈	-12.8364
縆	-12.8365
天三生木	-12.8365
清廟之瑟	-12.8365
池之竭矣不云自	-12.8365
天五生土	-12.8365
涪	-12.8365
何咎之有	-12.8366
追琢其章金玉其相	-12.8366
歉	-12.8368
藁	-12.8368
營室東壁	-12.8368
縪	-12.8368
枯楊生稊	-12.8369
剛來而得中	-12.837
地二生火	-12.837
諳	-12.8371
淮安閻氏	-12.8371
藙	-12.8371
柔進而上行	-12.8371
怩	-12.8371
絓	-12.8372
罙	-12.8372
盞	-12.8372
魏志注十	-12.8373
飡	-12.8374
凄	-12.8374
天皇大帝	-12.8374
鼽	-12.8375
燄	-12.8377
剛上而柔下	-12.8377
贓	-12.8379
毼	-12.838
紑	-12.838
欽定四庫全書經說卷	-12.838
伵	-12.838
贋	-12.838
宋熊朋來撰	-12.8382
篧	-12.8382
泰占又問	-12.8383
輗	-12.8385
宋黄仲元撰	-12.8386
鰷	-12.8387
旁加一里	-12.8387
妍	-12.8391
季札觀樂	-12.8392
惟孝友于兄弟	-12.8399
泫	-12.841
䏧	-12.9934
墫	-12.9942
唫	-12.9943
􁉉	-12.9946
獥	-12.9947
勠	-12.9948
𬒮	-12.9948
蟰	-12.9948
疴	-12.9949
􁄃	-12.995
􁊙	-12.995
㚄	-12.995
凰	-12.9951
舫	-12.9955
肶	-12.9956
貛	-12.9956
尒	-12.9958
阞	-12.9958
腠	-12.9958
蓽	-12.9958
黈	-12.9958
桯	-12.9959
硩	-12.9959
卭卭岠虚	-12.9959
鰕	-12.996
鯇	-12.9961
䔩	-12.9961
玫	-12.9962
麆	-12.9963
􁈑	-12.9963
致逺以利天下	-12.9964
踆	-12.9965
堛	-12.9965
甎	-12.9966
眦	-12.9966
螈	-12.9966
烙	-12.9966
猿	-12.9967
滎波既豬	-12.9967
暘谷南交昧谷幽都	-12.9967
禮者崔氏云	-12.9969
倉兄填兮	-12.997
膠東庸生	-12.997
憍	-12.9971
井以辨義	-12.9971
矮	-12.9971
欻	-12.9971
瀐	-12.9971
巷伯奄官	-12.9971
秅	-12.9972
嘘	-12.9972
莤	-12.9973
噆	-12.9973
鬠	-12.9974
擎	-12.9974
藺	-12.9974
蛑	-12.9974
呉縣開國男陸德明撰	-12.9974
淩	-12.9974
柟	-12.9974
軞	-12.9974
敂	-12.9975
涚	-12.9975
纇	-12.9975
廄	-12.9976
咒	-12.9976
胝	-12.9976
侇	-12.9976
懾	-12.9976
朸	-12.9976
嵗一見貢	-12.9976
􁆴	-12.9977
邡	-12.9977
侅	-12.9977
踂	-12.9978
洌	-12.9978
启	-12.9978
莒人入向	-12.9978
在納甲為乾	-12.9978
媮	-12.9979
斄	-12.9979
蟧	-12.9979
杷	-12.9979
是推測日	-12.9979
四百九十九分	-12.9979
楀	-12.998
􁆄	-12.998
􁈅	-12.998
劘	-12.998
囆	-12.998
耼	-12.998
畽	-12.998
犅	-12.998
勱	-12.9981
蜓	-12.9981
有骨表如	-12.9981
夐	-12.9981
翭	-12.9981
邘	-12.9981
鄂不韡韡	-12.9981
籟	-12.9982
景員維河	-12.9982
瘤	-12.9982
黹	-12.9982
諝	-12.9982
蠥	-12.9982
鹽鐡論	-12.9983
屹	-12.9983
黎民阻飢	-12.9983
檷	-12.9983
􁂽	-12.9983
䷀	-12.9984
票	-12.9984
㨒	-12.9984
冨	-12.9984
埜	-12.9984
夆	-12.9985
謞	-12.9985
覊	-12.9986
瑌	-12.9986
募	-12.9986
疒	-12.9986
賖	-12.9987
暝	-12.9987
天王使宰咺來歸惠公仲子之賵	-12.9987
氿	-12.9987
􁓖	-12.9987
出泰山萊蕪縣原	-12.9988
頬	-12.9988
飲水曲肱	-12.9988
􁃸	-12.9988
甲午祠兵	-12.9988
癭	-12.9988
岯	-12.9989
下曲曰樛	-12.9989
剃	-12.9989
五父之衢	-12.9989
益之用凶事	-12.9989
觡	-12.9989
蝀	-12.9989
晅	-12.9989
笑言啞啞	-12.9989
綰	-12.9989
優優大哉	-12.9989
佋	-12.999
琖	-12.999
王假有家	-12.999
擸	-12.999
犇	-12.999
扤	-12.9991
鷕	-12.9991
謌	-12.9991
鮌	-12.9991
鰼	-12.9991
去古未逺	-12.9992
本此下更有	-12.9992
幓	-12.9992
觀鳥獸之文與地之宜	-12.9992
菩	-12.9992
聮	-12.9992
慭	-12.9992
毛校吳文定	-12.9993
灃	-12.9993
藇	-12.9993
饇	-12.9993
冠而不為殤	-12.9993
欽定四庫全書六經正誤卷	-12.9993
王氏應麟云	-12.9993
釋文混入于註當細書也	-12.9993
齓	-12.9994
瑀	-12.9994
夫妻反目	-12.9994
粃	-12.9994
乾用九爻辭	-12.9994
槸	-12.9995
黰	-12.9995
二十作卄凡二十皆同	-12.9995
躑	-12.9995
永懷堂林直解同	-12.9995
醟	-12.9995
法也故程子有一策問云商之盤庚周	-12.9995
摸	-12.9996
阬	-12.9996
通乎晝夜之道而知	-12.9996
醉生夢死	-12.9996
䐈	-12.9996
橇	-12.9996
緷	-12.9996
鋂	-12.9996
蜥	-12.9996
䄙	-12.9996
懣	-12.9996
􁀚	-12.9997
嗤	-12.9997
慌	-12.9997
珂	-12.9997
石渠禮論	-12.9997
之格訓正是如格式之格以律人之不正	-12.9997
敬敷五教	-12.9997
鄬	-12.9997
其君之子奚齊	-12.9997
駣	-12.9997
東至于澧	-12.9997
余仁仲本	-12.9997
昶	-12.9997
僃	-12.9997
褅	-12.9997
典朕三禮	-12.9997
􁇟	-12.9997
邽	-12.9998
萯	-12.9998
既雨既處	-12.9998
冘	-12.9998
天何言哉	-12.9998
􁓑	-12.9998
切切偲偲	-12.9998
柜	-12.9998
偞	-12.9999
鄸	-12.9999
王使榮叔歸含且賵	-12.9999
蚔	-12.9999
􁉙	-12.9999
萬一千三百	-13
檄	-13
桐柏山	-13
薀	-13
身有所忿懥	-13
邅	-13.0001
萸	-13.0001
從母之夫舅之妻	-13.0001
求賢審官	-13.0001
舘	-13.0001
咬	-13.0001
子畏於匡	-13.0001
鵹	-13.0001
齊侯伐我北鄙	-13.0001
䳡	-13.0001
儋	-13.0002
昳	-13.0002
緋	-13.0002
㸷	-13.0002
鵌	-13.0002
鑴	-13.0002
妒	-13.0002
子桑伯子	-13.0002
精者深入而不	-13.0002
褭	-13.0002
矉	-13.0003
崐	-13.0003
地定位山澤通氣雷風相薄水火不相射	-13.0003
萬入去籥	-13.0003
白孔六帖	-13.0003
赤道二出黄道	-13.0003
入從何處去	-13.0003
味道括蒼人辛亥以後所聞先生六十二	-13.0003
襈	-13.0003
案陸氏徳明云	-13.0004
峨	-13.0004
怙終賊刑	-13.0004
瀹	-13.0004
陻	-13.0004
瓌	-13.0004
殺身成仁	-13.0005
􁊌	-13.0005
菨	-13.0005
復其見天地之心	-13.0005
蝭	-13.0005
毛詩小雅鄭氏箋	-13.0005
臟	-13.0005
騖	-13.0005
媱	-13.0005
䠞	-13.0006
跽	-13.0006
姨	-13.0006
杜佑通典	-13.0006
青道二出黄道東	-13.0006
乃洪大誥治	-13.0006
出人意表	-13.0006
卦有小大辭有險易	-13.0006
康王之誥合於顧命	-13.0007
頋	-13.0007
其承厥志	-13.0007
方以類聚物以羣分	-13.0007
足利學所藏	-13.0007
錤	-13.0007
君子之道費而隠	-13.0008
顁	-13.0008
切磋琢磨	-13.0008
沁	-13.0008
諤	-13.0009
滙	-13.0009
仝	-13.0009
􁅼	-13.0009
十五萬五千	-13.0009
淘	-13.0009
事到至善是極盡了更無去處故君子無	-13.0009
步千四百六十一分步之	-13.0009
率天下之民以歸于正此錫福之道也	-13.0009
粘	-13.001
絝	-13.001
偵	-13.001
大耋之嗟	-13.001
祀于周廟	-13.001
應天順人	-13.001
階上星為	-13.001
考異陳澔註本經	-13.001
千五百人為軍	-13.001
槙	-13.001
蟋	-13.0011
噬乾胏得金矢	-13.0011
巍	-13.0011
受終于文祖	-13.0011
仿	-13.0011
成變化而行鬼神	-13.0011
病酒曰酲	-13.0011
錢唐程川撰易二十	-13.0011
􁍈	-13.0011
􁀝	-13.0011
岷山導江東别為沱	-13.0011
垗	-13.0011
準如粒我蒸民莫匪爾極來牟豈有中意	-13.0011
臞	-13.0011
絘	-13.0012
矔	-13.0012
志以道寧言以道接	-13.0012
檡	-13.0012
酲	-13.0012
欲聞六律五聲八音在治	-13.0012
其心休休焉	-13.0012
惹	-13.0012
軥	-13.0012
牣	-13.0012
鑮	-13.0012
賓之初筵	-13.0012
簉	-13.0012
佶	-13.0012
伊尹祠于先王奉嗣王祗見厥祖	-13.0012
各居其上之三分	-13.0013
以功用謂之鬼神以妙用謂之神	-13.0013
沈僩錄第	-13.0013
乾南坤北	-13.0013
噉	-13.0013
果於忘世	-13.0013
銶	-13.0014
隰有萇楚	-13.0014
臍	-13.0014
邧	-13.0014
飦	-13.0014
五經異義云公羊説	-13.0014
八卷十九卷	-13.0014
外物不接	-13.0014
引而伸之	-13.0014
五經然否論	-13.0014
上士二十七人	-13.0014
磽	-13.0015
瀛	-13.0015
敶	-13.0015
斞	-13.0015
五宅三居	-13.0015
庶草蕃廡	-13.0015
劈	-13.0015
日本山井鼎物觀撰尚書注疏第	-13.0015
嗿	-13.0016
方鳩僝功	-13.0016
毚	-13.0016
摳	-13.0016
濘	-13.0016
神武而不殺	-13.0016
觽	-13.0016
君乘土而王其政太平則	-13.0016
广	-13.0016
當室之白	-13.0016
顧諟天之明命	-13.0016
璚	-13.0016
衣錦尚絅	-13.0016
䩛	-13.0016
酇	-13.0016
於從政乎何有	-13.0016
甘氏不出三月廼生天	-13.0016
不當迴避	-13.0017
左祖右社	-13.0017
何校余本	-13.0017
瀏	-13.0017
無情者不得盡其辭大畏民志	-13.0017
僝	-13.0018
髭	-13.0018
頏	-13.0018
戱	-13.0018
楎	-13.0018
女子子適人者	-13.0018
克明俊德	-13.0018
後天而奉天時	-13.0018
鈗	-13.0018
欽定四庫全書六經奥論卷	-13.0018
槮	-13.0018
莬	-13.0019
七萬五千家	-13.0019
扌	-13.0019
損上益下	-13.0019
蚻	-13.0019
協時月正日	-13.0019
聽訟吾猶人也必也使無訟乎	-13.0019
􁁉	-13.0019
齹	-13.0019
瀝	-13.002
䀠	-13.002
震巽艮兊	-13.002
之人之彦聖	-13.002
叔弓如宋	-13.002
栨	-13.002
此謂國不以利為利以義為利	-13.002
鳴鶴在隂	-13.002
頞	-13.002
甍	-13.002
墯	-13.002
毛校呉文定	-13.002
豈其然哉	-13.002
瀉	-13.002
利貞者性情也	-13.002
有杕之杜	-13.0021
芷	-13.0021
漻	-13.0021
穊	-13.0021
肇十有二州	-13.0021
拶	-13.0021
捭	-13.0022
鄇	-13.0022
鏬	-13.0022
䡄	-13.0022
揍	-13.0022
椄	-13.0022
欽定四庫全書五經蠡測卷	-13.0022
肹	-13.0022
薏	-13.0022
謵	-13.0022
大哉乾元萬物資始	-13.0022
以閏月定四時成嵗	-13.0022
先荐寢廟	-13.0022
桮	-13.0023
嚃	-13.0023
謏	-13.0023
詩亡然後春秋作	-13.0023
入宅于河自河徂亳	-13.0023
磻	-13.0023
顯道神徳行	-13.0023
崛	-13.0024
雰	-13.0024
巽在牀下	-13.0024
高宗肜日	-13.0024
金去偽録	-13.0024
从戊己之己	-13.0024
埳	-13.0024
傅説告高宗	-13.0024
象箾南籥者	-13.0025
恭黙思道	-13.0025
而玩其辭動則觀其變而玩其占	-13.0025
穤	-13.0025
霾	-13.0026
楚茨信南山甫田大田	-13.0026
㚟	-13.0026
天三地四天五地六天七地八天九地十	-13.0026
此語全似禪語	-13.0026
劼	-13.0026
劔	-13.0027
温良恭儉讓	-13.0027
賢賢易色	-13.0027
鐐	-13.0027
讜	-13.0027
數語是平正實語	-13.0027
則居橧巢	-13.0028
則景星見	-13.0028
猝	-13.0028
邯	-13.0028
禭	-13.0028
篨	-13.0028
允恭克讓	-13.0028
某舊在同安時	-13.0028
顰	-13.0029
定天下之吉凶成天下之亹亹	-13.0029
裒多益寡	-13.0029
龍威丈人	-13.0029
予思日孜孜	-13.003
䕩	-13.003
明本排字九經直音	-13.003
亙	-13.003
漲	-13.003
以得之此是讀詩之要法㸔来書只是要	-13.003
北史八十二	-13.003
丐	-13.0031
靈寶五符	-13.0031
匃	-13.0031
吉凶軍賔嘉	-13.0031
稉	-13.0031
故君子必誠其意	-13.0031
於變時雍	-13.0032
巽五坎六艮七坤八	-13.0032
分剛上而文柔	-13.0032
履帝位而不疚	-13.0032
嗾	-13.0033
粹新安人辛亥所聞先生六十二	-13.0033
敬民乃罰	-13.0033
蠱則飭也	-13.0033
􁊹	-13.0033
否之匪人	-13.0034
五位相得而各有合	-13.0034
謙輕而豫怠	-13.0034
揥	-13.0035
鞬	-13.0035
觸地無容	-13.0035
耔	-13.0035
娯	-13.0035
髙堂生所傳	-13.0035
墨劓剕宫大辟	-13.0035
靽	-13.0035
烈風雷雨弗迷	-13.0036
魌	-13.0036
翰林院檢討毛奇齡撰	-13.0036
瘖	-13.0037
毛居正六經正誤云	-13.0037
坤元亨利牝馬之貞	-13.0038
瀼	-13.0038
䖏	-13.0039
􁎮	-13.0039
赫兮喧兮	-13.0039
兼三才而兩之	-13.004
宋公陳侯衛侯鄭伯	-13.004
椀	-13.0041
瑟兮僴兮	-13.0041
屬辭比事	-13.0041
頻泉之竭矣不云自中四句吟詠者	-13.0041
繙	-13.0041
焜	-13.0042
記百三十一篇	-13.0043
中月而禫	-13.0043
涓	-13.0043
壷	-13.0043
以皇極為大中	-13.0043
軘	-13.0044
邗	-13.0046
萭	-13.0047
攔	-13.0048
寬	-13.0049
蓌	-13.005
从干戈之干	-13.005
嘬	-13.005
戹	-13.0052
成象之謂乾	-13.0052
嘵	-13.0057
欽定四庫全書四如講稿卷	-13.0058
巒	-13.006
捫	-13.0062
藎	-13.0065
店	-13.0079
朱虎熊羆	-13.0098
欽定四庫全書古微書巻	-13.0187
十室之邑必有忠信如丘者焉	-13.1612
搚	-13.1934
楽	-13.1937
捼	-13.1938
惟諓諓善竫言	-13.1941
宕	-13.1942
茰	-13.1943
繣	-13.1943
鼱	-13.1944
􁉂	-13.1946
㩼	-13.1947
鴿	-13.1947
䓿	-13.1948
鶛	-13.1949
㳅	-13.1951
㻆	-13.1951
東房西室	-13.1952
禧	-13.1952
禯	-13.1953
鞪	-13.1955
蟦	-13.1957
傓	-13.1957
毉	-13.1957
蜢	-13.1957
縏	-13.1958
湇	-13.1958
山東按察使沈廷芳撰書	-13.1958
尌	-13.1959
惶	-13.1959
韤	-13.1959
鰿	-13.1959
㐼	-13.1959
豮	-13.196
靺	-13.196
萬萬曰億	-13.1962
䡴	-13.1962
櫐	-13.1963
蟁	-13.1964
屣	-13.1964
瀣	-13.1965
䋈	-13.1965
輢	-13.1966
坋	-13.1966
䃉	-13.1967
䠋	-13.1967
靲	-13.1967
烓	-13.1967
獢	-13.1967
􁂥	-13.1968
皇帝哀矜庶戮之不辜	-13.1968
䨘	-13.1969
䞇	-13.1969
澀	-13.1969
侉	-13.1969
煴	-13.1969
蕿	-13.1969
衅	-13.1969
愮	-13.1969
扔	-13.197
檗	-13.197
釘	-13.197
腱	-13.1971
炕	-13.1971
禔	-13.1971
菋	-13.1971
婘	-13.1971
彆	-13.1971
誎	-13.1972
蘡	-13.1972
勌	-13.1972
蘜	-13.1972
倎	-13.1972
桙	-13.1972
帝清問下民	-13.1973
鸑	-13.1974
袲	-13.1974
䯚	-13.1974
菸	-13.1974
蚕	-13.1974
勩	-13.1975
晣	-13.1976
􁎤	-13.1976
懍	-13.1976
朡	-13.1976
􁂟	-13.1977
誕保文武受命	-13.1977
玈弓矢千	-13.1977
蒔	-13.1977
犕	-13.1977
堰	-13.1977
秖	-13.1978
棪	-13.1978
菰	-13.1978
蚠	-13.1978
躬耕帝籍	-13.1978
戣	-13.1978
陡	-13.1979
醪	-13.1979
􁈏	-13.1979
歹	-13.1979
言天下之至動而不可亂也	-13.198
楩	-13.198
當以古本為正也	-13.198
礝	-13.198
倌	-13.1981
䘵	-13.1981
鴐	-13.1981
鸚	-13.1982
鱞	-13.1982
瀕	-13.1982
糵	-13.1982
佷	-13.1982
箓	-13.1982
􁀉	-13.1982
嫽	-13.1983
禮樂征伐自天子出	-13.1983
噭	-13.1983
駾	-13.1983
龢	-13.1983
攕	-13.1983
􁆧	-13.1983
㓃	-13.1983
箠	-13.1983
窠	-13.1983
東西二萬八千里南北二萬六千里	-13.1983
卼	-13.1984
犧氏之王天下	-13.1984
鉇	-13.1984
遵者降席東南面	-13.1984
懕	-13.1984
鴀	-13.1984
鶅	-13.1984
檼	-13.1984
豨	-13.1985
蝙	-13.1985
峓	-13.1985
獦	-13.1985
恧	-13.1985
出妻之子為母	-13.1985
則其親獲安故曰	-13.1985
押	-13.1986
佸	-13.1986
弨	-13.1986
熸	-13.1986
蝠	-13.1986
槧	-13.1986
螮	-13.1986
罥	-13.1986
剛柔始交而難生	-13.1987
扛	-13.1987
里克殺奚齊	-13.1987
斌	-13.1987
桓譚新論	-13.1987
笞	-13.1988
聊樂我員	-13.1989
􁀋	-13.1989
王肇稱殷禮	-13.1989
楂	-13.1989
睚	-13.1989
侣	-13.199
㓷	-13.199
鄎	-13.199
褱	-13.199
􁁌	-13.199
荻	-13.199
其菑其翳	-13.1991
甋	-13.1991
襛	-13.1991
字通志堂本互易	-13.1991
梀	-13.1991
諮議參軍	-13.1991
庥	-13.1991
錙	-13.1991
軜	-13.1991
蘱	-13.1992
啁	-13.1992
侞	-13.1992
􁉄	-13.1992
懶	-13.1992
梮	-13.1992
謩	-13.1992
鵗	-13.1992
衃	-13.1993
剛當位而應	-13.1993
掞	-13.1993
惟九年大統未集	-13.1993
曾孫周王發	-13.1993
觗	-13.1993
乂哲謀聖	-13.1993
哼	-13.1993
朱校宋本禮記	-13.1994
瓴	-13.1994
􁐳	-13.1994
仭	-13.1994
鵡	-13.1994
經典釋文校勘記卷	-13.1994
蘉	-13.1994
叔仲彭生	-13.1995
臷	-13.1995
滚	-13.1995
肚	-13.1996
軧	-13.1996
東迤北㑹于	-13.1996
正月辛亥朔日南至	-13.1996
禿	-13.1996
开	-13.1996
潟	-13.1996
菓	-13.1996
蹹	-13.1996
橙	-13.1996
韝	-13.1997
子不語怪力亂神	-13.1997
騣	-13.1997
菘	-13.1997
馯	-13.1997
驈	-13.1998
兄終弟及	-13.1998
大白以即戎	-13.1998
蚪	-13.1998
頁	-13.1998
㝔	-13.1998
搃	-13.1998
擦	-13.1998
鶆	-13.1998
􁁺	-13.1998
鄾	-13.1999
事到面前	-13.1999
體仁足以長人	-13.1999
擬諸其形容	-13.1999
厓也厓作涯	-13.1999
葬蔡桓侯	-13.1999
蔦	-13.1999
捃	-13.1999
無偏無陂以下	-13.1999
閴	-13.1999
獼	-13.1999
劖	-13.1999
蟷	-13.1999
虞何以從禽也	-13.2
眢	-13.2
稳	-13.2
碝	-13.2
窮則變變則通通則久	-13.2
豈若匹夫匹婦之為諒	-13.2
撠	-13.2
荁	-13.2
五十以學易可以無大過矣	-13.2
執訊獲醜	-13.2
成周宣榭災	-13.2
時武王已八十	-13.2
朁	-13.2
六爻之義易以貢	-13.2001
執轡如組	-13.2001
堣	-13.2001
豈弟作愷悌	-13.2001
燕師所完	-13.2001
閑邪存誠	-13.2001
戕敗人宥	-13.2002
曰伯恭如何解君子所其無逸	-13.2002
無逸一篇極好	-13.2002
鐶	-13.2002
姙	-13.2002
􁆳	-13.2002
蜣	-13.2003
携	-13.2003
喿	-13.2003
螇	-13.2003
蟞	-13.2003
敜	-13.2004
浥	-13.2004
伯仲叔季	-13.2004
所字為居字曰若某則不敢如此説諸友	-13.2004
仳	-13.2005
殰	-13.2005
不種桑麻	-13.2005
鴰	-13.2005
㹠	-13.2005
臣敬順而奉之	-13.2005
襲葢鄉錄	-13.2005
言聖王法天以立教	-13.2005
堕	-13.2005
晛	-13.2006
洼	-13.2006
廣有一卒卒偏之兩	-13.2006
診	-13.2006
作新大邑于東國洛	-13.2006
用六日七分	-13.2006
考仲子之宫	-13.2006
必强立一説雖若可觀只恐道理不如此	-13.2006
昞	-13.2006
是可忍也孰不可忍也	-13.2007
䖟	-13.2007
腕	-13.2007
餲	-13.2007
乾道變化各正性命	-13.2007
不敢替厥義德	-13.2007
襐	-13.2007
顣	-13.2008
厂	-13.2008
雂	-13.2008
鳺	-13.2008
􁈧	-13.2008
散財發粟	-13.2008
由庚崇丘由儀	-13.2008
隃	-13.2008
安上治民莫善於禮	-13.2008
未當至而至	-13.2008
鳲鳩秸鞠	-13.2008
喑	-13.2008
孔子為魯司冦	-13.2008
癠	-13.2008
緍	-13.2008
闖	-13.2009
自我民明威	-13.2009
井谷射鮒	-13.2009
九經三傳沿革例	-13.2009
訶	-13.2009
庸言之信庸行之謹	-13.2009
㠩	-13.2009
閃	-13.2009
鞃	-13.2009
六旬有六日	-13.2009
江夏安陸縣	-13.2009
刺朝廷之不知	-13.2009
垚	-13.201
儛	-13.201
瘯	-13.201
易為君子謀不為小人謀	-13.201
同人于野亨	-13.201
肆類于上帝	-13.201
嶔	-13.2011
稰	-13.2011
捂	-13.2011
綼	-13.2011
重華協于帝	-13.2011
澹臺滅明	-13.2011
粮	-13.2011
搶	-13.2011
柏葉松身	-13.2011
建别録十	-13.2011
慁	-13.2011
忽以出納五言	-13.2011
臄	-13.2011
人之其所親愛而辟	-13.2012
寉	-13.2012
呻其佔畢	-13.2012
師貞丈人吉	-13.2012
天子建徳因生	-13.2012
言天下之至賾而不可惡	-13.2012
㓗	-13.2012
坤至柔而動也剛	-13.2012
存舊禮記正義巻第六十	-13.2012
蝟	-13.2012
欽定四庫全書十一經問對卷	-13.2012
時習之若學	-13.2012
濬畎澮	-13.2012
爻成則止有	-13.2012
仁者以財發身	-13.2013
粺	-13.2013
素以為絢兮	-13.2013
餰	-13.2013
宎	-13.2013
李壯祖録	-13.2013
靼	-13.2013
嫌于无陽	-13.2013
出革車一乘	-13.2013
後得主而有常	-13.2013
扶都見白氣貫	-13.2013
紋	-13.2013
吉凶者貞勝者也	-13.2013
湜	-13.2014
華亭呉浩撰	-13.2014
蓉	-13.2014
予決九川距四海濬畎澮距川	-13.2014
翊	-13.2015
嗽	-13.2015
質諸鬼神而無疑	-13.2016
蓯	-13.2016
􁀖	-13.2016
婺源江永撰	-13.2016
雨暘燠寒	-13.2016
燀	-13.2016
鏚	-13.2016
攄	-13.2016
䤈	-13.2017
琉	-13.2017
衵	-13.2017
吊	-13.2017
瀡	-13.2017
膇	-13.2017
五廟親廟四	-13.2017
惟聖罔念作狂	-13.2017
懲忿窒慾	-13.2017
欽定四庫全書羣經補義卷	-13.2017
毛詩註疏卷第	-13.2017
庶頑讒説	-13.2017
袄	-13.2017
繪事後素	-13.2018
易簡而天下之理得	-13.2018
蚰	-13.2018
蛢	-13.2018
饛	-13.2018
沲	-13.2018
許世子止弑其君買	-13.2018
鉹	-13.2018
曰河圖將來告帝	-13.2018
鬺	-13.2018
𥿄	-13.2019
烱	-13.2019
趙盾弑其君夷臯	-13.2019
鄐	-13.2019
宅不毛者有里布	-13.2019
能以禮讓為國	-13.2019
八諸侯六大夫四	-13.2019
君乘土而王	-13.2019
瀦	-13.2019
輳	-13.2019
冑	-13.2019
品物流形	-13.2019
猈	-13.202
梩	-13.202
侯以貍首為節	-13.202
夣	-13.202
格物致知誠意正心修身	-13.202
可與適道未可與立可與立未可與權	-13.202
大小戴慶氏	-13.202
是彛是訓于帝其訓是	-13.202
讒説殄行震驚朕師	-13.202
雟	-13.202
殷之未喪師克配上帝	-13.202
不仁者以身發財	-13.202
縿幕魯也	-13.2021
螯	-13.2021
常覺常明	-13.2021
郫	-13.2021
靮	-13.2022
緤	-13.2022
擇善固執	-13.2022
椸	-13.2022
紀侯大去其國	-13.2022
朕來自奄	-13.2022
遵王之道遵王之	-13.2022
芽	-13.2022
叄	-13.2023
周公左召公右	-13.2023
思曰贊贊襄哉	-13.2023
以燕以射則燕則譽	-13.2023
从曰曰音冒	-13.2023
不逺伊邇薄送我畿	-13.2023
五十人為小戎	-13.2023
憔	-13.2024
睅	-13.2024
嘌	-13.2024
明明揚側陋	-13.2024
攖	-13.2024
蜒	-13.2024
天工人其代之	-13.2024
陽和風雨時	-13.2024
師或輿尸	-13.2024
惷	-13.2024
爻辭并論經義	-13.2024
不圖為樂之至於斯	-13.2024
欎	-13.2025
臊	-13.2025
㣲顯闡幽	-13.2025
倈	-13.2025
珉	-13.2025
三年無改於父之道可謂孝矣	-13.2025
絖	-13.2025
􁉗	-13.2025
天數五地數五	-13.2025
確乎不可㧞	-13.2025
逶	-13.2026
𠞰	-13.2026
如蜺貫月正白感女樞	-13.2026
知我者其惟春秋乎罪我者其惟春秋乎	-13.2026
䵑	-13.2026
翡	-13.2027
侀	-13.2027
藳	-13.2027
二十六卷二十七卷饒	-13.2027
癖	-13.2027
不遷怒不貳過	-13.2027
氲	-13.2027
十月隕霜殺菽	-13.2027
考異古板註	-13.2027
魚躍于淵	-13.2027
酉蔀七十六嵗凡三百四嵗	-13.2027
梡	-13.2028
抝	-13.2028
痿	-13.2028
毅然臨川人癸丑以後所聞先生六十四	-13.2028
建諸天地而不悖	-13.2028
俁	-13.2028
震一索而得男	-13.2028
籜	-13.2029
楄	-13.2029
蒜	-13.203
參伍以變錯綜其數	-13.203
漙	-13.203
古鐘鼎文	-13.203
䵄	-13.203
蓁	-13.2031
簫韶九成	-13.2031
襲蓋卿録	-13.2031
陟方乃死	-13.2031
􁔊	-13.2031
甜	-13.2031
鄲	-13.2032
袛	-13.2032
盡繼述之道	-13.2032
肋	-13.2032
柸	-13.2032
家稍鄙都	-13.2032
過渉滅頂	-13.2032
尹吉甫美宣王	-13.2032
霂	-13.2032
呱	-13.2033
將冠者采衣紒	-13.2033
䎶	-13.2033
尺而至於泉呼音中	-13.2033
東漢㑹要十	-13.2033
窄	-13.2034
轐	-13.2034
貌言視聽思	-13.2034
頜	-13.2034
珎	-13.2034
㧻	-13.2034
楚世子商臣弑其君	-13.2034
灝	-13.2035
禅	-13.2035
柔來而文剛	-13.2035
天尊地卑乾坤定矣	-13.2035
廬陵李氏曰	-13.2035
襧	-13.2035
大横庚庚	-13.2035
𥚹	-13.2036
退藏于宻	-13.2036
堞	-13.2037
内卦為貞外卦為悔	-13.2037
見是土也命之曰	-13.2037
詩繋周桓王世	-13.2037
萼	-13.2038
盃	-13.2038
狶	-13.2038
狘	-13.2038
皜	-13.2038
宗祀文王於明堂以配上帝	-13.2038
肆覲東后	-13.2038
同律度量衡修五禮如五器卒乃復	-13.2038
哇	-13.2039
􁀱	-13.2039
釵	-13.2039
不與聖人同憂	-13.2039
而民性亂於	-13.2039
窀	-13.204
痬	-13.204
奰	-13.2041
隲	-13.2041
塓	-13.2041
晶	-13.2041
所司者萬二千里	-13.2041
獝	-13.2043
貕	-13.2043
吾子自執焉	-13.2043
卷阿召康公戒成王	-13.2043
派	-13.2044
揱	-13.2045
匵	-13.2045
一闔一闢謂之變	-13.2045
齬	-13.2045
詩繋周平王世	-13.2045
詩繋周惠王世	-13.2045
輾	-13.2045
貅	-13.2046
神以知来知以藏徃	-13.2046
恝	-13.2047
離南坎北	-13.2047
張霸偽本	-13.2047
齟	-13.2047
涔	-13.2048
殍	-13.2048
揲之以四以象四時	-13.2048
价	-13.2049
雷激揚為電上者就下流水就通而合于	-13.2049
誾	-13.205
拽	-13.205
玤	-13.2051
湅	-13.2051
敿	-13.2051
稍縣都皆無過十二	-13.2051
喤	-13.2052
闅	-13.2052
是興神物以前民用	-13.2054
四宿之上下臨	-13.2054
􁍘	-13.2054
疇咨若時登庸	-13.2055
湟	-13.2055
氊	-13.2056
蔗	-13.2058
以王父之字為氏	-13.2058
三科九㫖	-13.2059
庶績咸熈	-13.206
樿	-13.2061
惨	-13.2061
侐	-13.2062
􁓾	-13.2063
糳	-13.2067
虓	-13.207
亿	-13.2074
鹺	-13.2075
凜	-13.2078
眺	-13.2081
煨	-13.2082
䔖	-13.2084
乾隆四十三年	-13.21
後人旁記云異本	-13.2108
古微書巻二十	-13.4241
謹按古本後人旁記云	-13.4391
獸之火爨藏	-13.4407
蓃	-13.4411
韮	-13.4415
胚	-13.4418
用天正而尚赤	-13.4419
豰	-13.4422
㾖	-13.4426
蓛	-13.4426
下殤降二等故	-13.4432
􁎚	-13.4433
鵂	-13.4437
鋟	-13.4439
魾	-13.444
莽依此作刑名也	-13.4441
荄	-13.4444
二手執挑匕枋	-13.4445
蘐	-13.4446
嘼	-13.4446
鼸	-13.4447
䍧	-13.4448
朻	-13.4448
蠑	-13.4448
竢	-13.445
海中地方三千里	-13.445
􁈄	-13.445
柑	-13.4452
觵撻罸之事	-13.4452
嬬	-13.4452
􁅧	-13.4452
未嘗見其心者只	-13.4454
以其圍之阞捎其藪	-13.4454
蝃	-13.4455
嗄	-13.4455
幽暗中一㸃白	-13.4456
爞	-13.4457
擉	-13.4457
駑	-13.4457
􁈓	-13.4457
􁎯	-13.4457
薶	-13.4458
桵	-13.4458
茦	-13.4458
襂	-13.4459
篲	-13.4459
薉	-13.4459
鴪	-13.4459
崘	-13.4459
鱍	-13.4459
􁉃	-13.4459
􁈣	-13.4461
駠	-13.4461
􁍬	-13.4461
肂	-13.4461
釋文輤于見反	-13.4462
髃	-13.4464
宗其繼别子之所自出者	-13.4464
井居其所而遷	-13.4465
苨	-13.4465
蠪	-13.4465
蚑	-13.4466
爝	-13.4466
虴	-13.4466
毊	-13.4466
衒	-13.4468
張參五經文字	-13.4468
鄭伯以璧假許田	-13.4468
王使召伯來㑹	-13.4468
析因夷隩	-13.4468
􁈖	-13.4468
䥫	-13.4468
蛘	-13.4468
潏	-13.4468
㥾	-13.4468
崟	-13.4468
蟇	-13.4469
㬥	-13.4469
髧	-13.4469
棬	-13.4469
鯋	-13.4469
案崔氏憬云	-13.4469
謹按正德嘉萬三本	-13.4469
廙	-13.4469
周原膴膴	-13.447
棸	-13.447
及晉處父盟	-13.447
禴祠烝嘗	-13.447
槪	-13.447
礴	-13.447
同母異父之昆弟死	-13.447
雙雙而俱至者	-13.4471
䳭	-13.4472
貐	-13.4472
杍	-13.4472
士鹿中翿旌以獲	-13.4472
鸅	-13.4472
蹔	-13.4472
與尊者為一體不敢服其私親	-13.4473
軿	-13.4473
貒	-13.4473
賑	-13.4473
搯	-13.4473
耤	-13.4473
龕	-13.4474
􁍑	-13.4475
撙	-13.4475
􁀨	-13.4475
􁆦	-13.4475
膄	-13.4475
蝚	-13.4475
欒盈復入于晉	-13.4475
嫪	-13.4475
訙	-13.4476
偁	-13.4476
屚	-13.4476
而素帶終辟	-13.4476
適讀為匹敵之敵	-13.4476
埓	-13.4476
以賣馬錢娶婦	-13.4476
直方大不習无不利則不疑其所行	-13.4477
篞	-13.4477
摍	-13.4477
㳿	-13.4477
國人閔而憂之	-13.4477
山東按察使沈廷芳撰易周易	-13.4477
鑯	-13.4477
龍上泰山舜夢擊	-13.4477
而王夫其子孫咸當為	-13.4477
顱	-13.4479
繻有衣袽	-13.4479
亐	-13.4479
鸐	-13.4479
鷰	-13.4479
鷁退飛過宋都	-13.4479
鍥	-13.448
鯷	-13.448
幺	-13.448
蠍	-13.448
𣢾	-13.448
君君臣臣父父子子	-13.448
彣	-13.448
􁀆	-13.448
􁐣	-13.448
磈磊無枝也	-13.448
拾級聚足	-13.448
楝	-13.448
明庶物察人倫	-13.448
螤	-13.448
䠱	-13.4481
气	-13.4481
氓之蚩蚩	-13.4481
孠	-13.4481
癸酉大雨震電庚辰大雨雪	-13.4482
厈	-13.4482
翐	-13.4482
􁍹	-13.4483
膩	-13.4483
螔	-13.4483
貰	-13.4483
鳻	-13.4483
汒	-13.4483
方設居方別生分類	-13.4483
鳥䑕同穴山	-13.4483
正出涌出也	-13.4483
鴔	-13.4483
鵖	-13.4483
不鼓缶而歌	-13.4484
斖	-13.4484
靃	-13.4484
両	-13.4484
時聘以結諸侯之好	-13.4484
砧	-13.4484
奸邪竊盗厯法妄行	-13.4484
敳	-13.4486
燻	-13.4486
豫州外方之北	-13.4486
緗	-13.4486
鶞	-13.4486
窾	-13.4486
腝	-13.4486
鼢	-13.4486
傶	-13.4486
其宫紂夢大雷擊其首	-13.4486
􁑟	-13.4486
牗	-13.4487
丠	-13.4487
窞	-13.4487
暨猶暨暨也	-13.4487
黤	-13.4487
㹛	-13.4487
蘊	-13.4487
三妃未之從也	-13.4487
斸	-13.4487
􁒗	-13.4487
善心曰窈善容曰窕	-13.4487
􁈻	-13.4487
曒	-13.4488
髙誘吕覽注云	-13.4488
案顧氏炎武云	-13.4488
東作南訛西成朔易	-13.4488
陟彼岵兮	-13.4488
瓮	-13.4488
㯮	-13.4488
宗祀文王於明堂	-13.4488
斪	-13.4488
䳢	-13.4488
悗	-13.4488
㢡	-13.4488
殹	-13.4488
蓨	-13.449
値	-13.449
螿	-13.449
再三瀆瀆則不告	-13.449
苙	-13.449
辝	-13.449
鼵	-13.449
是依左傳讀作尨	-13.449
有中時人斯其惟皇之極不成是時人斯	-13.449
術當為述聲之誤也	-13.449
待封王之子弟	-13.449
蜪	-13.449
五玉三帛二生一死	-13.4491
以肆獻祼享先王	-13.4491
劀	-13.4491
𥙷	-13.4491
蔡世子般弑其君	-13.4491
蒤	-13.4491
鮭	-13.4491
鱑	-13.4491
疉	-13.4491
呫	-13.4491
閑邪存其誠	-13.4491
噑	-13.4491
庸庸祗祗威威	-13.4491
非汝封刑人殺人	-13.4491
鶌	-13.4491
僔	-13.4492
蚖	-13.4493
鄭伯使宛來歸邴	-13.4493
賫	-13.4493
嗉	-13.4493
威明文徳道化承天精元祚興隆協聖靈	-13.4493
甈	-13.4493
鷷	-13.4493
􁒋	-13.4493
䫥	-13.4493
辨上下定民志	-13.4493
脕	-13.4494
勍	-13.4494
厭以獻饌于室西	-13.4494
賷	-13.4494
剛柔交錯天文也文明以止人文也	-13.4494
躭	-13.4494
九五王用三驅	-13.4494
亦有中意曰只是箇無私意問標準之	-13.4494
東北隅之窔	-13.4494
邜	-13.4494
􁀃	-13.4495
酁	-13.4495
㼜	-13.4495
趂	-13.4495
晉侯使韓穿來	-13.4495
涎	-13.4495
蹙蹙靡所騁	-13.4495
艱哉艱作難	-13.4495
天命𤣥鳥降而生商	-13.4495
汗簡云古論語	-13.4495
瑪	-13.4495
畊	-13.4495
踕	-13.4495
庶獄庶慎	-13.4495
説築傅巖	-13.4495
䦨	-13.4495
檽	-13.4495
則并掛一與右手所餘者成	-13.4495
輠	-13.4495
其德則雖有至寶以錫諸侯亦不足貴也	-13.4495
髹	-13.4495
子在齊聞韶三月不知肉味	-13.4496
物類相感志十	-13.4497
燐	-13.4497
套	-13.4497
坅	-13.4497
簎	-13.4497
徠	-13.4497
痁	-13.4497
匹馬卓上九馬隨之	-13.4497
荆及衡陽惟荆州	-13.4497
喏	-13.4497
泣血漣如	-13.4497
酀	-13.4497
旄期稱道不亂	-13.4497
范曄後漢書云中興	-13.4497
教小兒相似若自後世言之則為非所宜	-13.4497
紀子伯莒子盟于宻	-13.4497
麜	-13.4497
痌	-13.4497
醤	-13.4497
神也者妙萬物而為言	-13.4497
濟盈不濡軌	-13.4498
宅西曰昧谷	-13.4498
若夫坐如尸立如齊	-13.4498
禜門用瓢齎	-13.4498
蠉	-13.4498
唈	-13.4498
文遵為僎或為全	-13.4498
過十室之邑	-13.4498
九三頻巽吝	-13.4498
釋文繆居蚍反	-13.4498
祍	-13.4499
樟	-13.4499
齛	-13.45
帝出乎震齊乎巽相見乎離致役乎坤	-13.45
衂	-13.45
因貳以濟民行	-13.45
胡子髠沈子	-13.45
䳄	-13.45
利用刑人用説桎梏	-13.45
授琅邪王璜	-13.45
詀	-13.45
卸	-13.45
末世瀆亂不驗之書	-13.45
比並㸔底有不可如此㸔自有只般様子	-13.45
父卒繼母嫁從為之服報	-13.45
角一俯一仰	-13.45
二年宋督弑其君	-13.45
皺	-13.45
封泰山禪梁	-13.45
柱焉其髙入天	-13.45
潯	-13.45
􁋂	-13.45
餂	-13.4501
娱	-13.4501
戰乎乾勞乎坎成言乎艮	-13.4501
髏	-13.4501
坤利在永貞	-13.4501
惟截截善諞言	-13.4501
懘	-13.4501
𡱁	-13.4501
卨	-13.4501
芧	-13.4501
䙑	-13.4501
士之子恒為士	-13.4501
蚷	-13.4501
㕍	-13.4501
九三壯于頄	-13.4501
媰	-13.4501
所謂天柱也圍三千里	-13.4501
􁊖	-13.4501
碣	-13.4502
􁈰	-13.4502
驊	-13.4502
泜	-13.4502
公㑹晉侯齊侯宋公蔡侯鄭伯	-13.4502
嵇	-13.4502
栱	-13.4502
䆤	-13.4502
下有者也二字足利本但有者字	-13.4502
莒子邾子滕子薛伯	-13.4502
刅	-13.4502
當夏四月謂之孟夏	-13.4502
程端蒙録	-13.4502
詷	-13.4502
㩲	-13.4502
人喜則斯陶陶斯咏咏斯猶猶斯舞舞斯	-13.4502
哻	-13.4502
縑	-13.4502
詩止節無禮節也	-13.4502
仙人九府治	-13.4502
其柱銘曰崑崙銅柱其髙入天	-13.4502
周如削膚體羙焉	-13.4502
孩提知愛	-13.4502
鷞	-13.4502
碭	-13.4502
洚	-13.4504
踁	-13.4504
凊	-13.4504
剛健篤實輝光	-13.4504
髑	-13.4504
孩提之童知愛其親	-13.4504
鞎	-13.4504
淋	-13.4504
痢	-13.4504
鍔	-13.4504
善未嘗不知知之未嘗復行	-13.4504
夃	-13.4504
好一箇惡堯舜所以授受之妙不過如此	-13.4504
居喪之禮但今不存無以考㨿葢天子諸	-13.4504
戰戰兢兢如臨深淵如履薄	-13.4504
朝聞道夕死可矣	-13.4504
精而守之一也察之精則兩箇界限分明	-13.4504
錫之福極不可以大中訓之只是前面五	-13.4504
塌	-13.4504
腞	-13.4504
藄	-13.4504
鶨	-13.4504
十三度十九分度之七	-13.4505
􁊽	-13.4505
偩	-13.4505
污	-13.4505
春祠夏禴	-13.4505
及六十野自六尺以及六十有五皆征之	-13.4505
決汝漢排淮泗而注	-13.4505
眚災肆赦	-13.4505
嗺	-13.4505
椉	-13.4505
以動者尚其變	-13.4505
滀	-13.4505
訅	-13.4505
那邊一支去為	-13.4505
蛉	-13.4506
牉	-13.4506
瞬	-13.4506
乾一兊二離三震四	-13.4506
儈	-13.4506
閍	-13.4506
駴	-13.4506
兆五帝於四郊	-13.4506
砭	-13.4506
蔭	-13.4506
誐	-13.4506
遜志務時敏	-13.4506
醩	-13.4506
玠	-13.4508
怱	-13.4508
豷	-13.4508
竾	-13.4508
鄁	-13.4508
黄河出崑崙東北	-13.4508
􁅨	-13.4508
鶵	-13.4508
履道坦坦	-13.4508
[...]
