<unk>	0
<s>	0
</s>	0
/	-3.52048
)(	-4.01006
之	-4.04194
)	-4.49937
以	-4.53723
(	-4.54214
而	-4.698
也	-4.71808
為	-4.78884
者	-5.20639
其	-5.24147
曰	-5.29581
於	-5.38973
不	-5.42871
有	-5.44961
則	-5.5716
王	-5.59662
人	-5.62931
自	-5.79277
與	-5.81504
書	-5.86205
使	-5.95902
至	-5.99074
矣	-5.99097
大	-5.99382
無	-6.02596
言	-6.05477
一	-6.07548
皆	-6.07829
上	-6.09784
子	-6.10381
事	-6.13033
帝	-6.19361
此	-6.2042
乃	-6.21517
故	-6.21711
所	-6.22353
及	-6.23048
在	-6.29809
行	-6.34419
中	-6.36745
亦	-6.37916
時	-6.39675
非	-6.40887
于	-6.40916
乎	-6.41517
見	-6.41633
謂	-6.41968
公	-6.42728
如	-6.42982
國	-6.43817
今	-6.44293
復	-6.44351
兵	-6.44489
立	-6.45552
等	-6.45789
又	-6.47373
出	-6.48021
欲	-6.48519
州	-6.48682
得	-6.51028
然	-6.52709
將	-6.54398
相	-6.55541
遂	-6.55633
當	-6.55725
道	-6.56345
質實	-6.57037
是	-6.57251
文	-6.57678
軍	-6.59602
知	-6.60199
何	-6.61697
下	-6.6182
三	-6.62648
已	-6.63873
名	-6.6564
用	-6.65781
命	-6.67132
可	-6.67188
漢	-6.67636
元	-6.67683
臣	-6.68153
反	-6.68974
作	-6.692
入	-6.70028
官	-6.71106
必	-6.71605
君	-6.71776
後	-6.71805
令	-6.7229
若	-6.72839
天	-6.73363
安	-6.73513
城	-6.73721
民	-6.74963
周	-6.75033
二	-6.75142
魏	-6.75406
殺	-6.76065
年	-6.77667
正	-6.80308
死	-6.80777
秦	-6.81475
傳	-6.81547
從	-6.81565
晉	-6.82837
成	-6.8356
初	-6.83659
多	-6.83734
雖	-6.84186
請	-6.84351
陳	-6.85089
明	-6.85674
齊	-6.86646
焉	-6.86947
唐	-6.87349
宋	-6.88331
平	-6.89052
始	-6.89449
李	-6.89452
因	-6.89747
卒	-6.89787
張	-6.92185
哉	-6.92207
方	-6.92374
生	-6.92919
集覽	-6.94335
天下	-6.94345
既	-6.94794
地	-6.94819
未	-6.95826
耳	-6.96434
同	-6.96455
○	-6.96507
即	-6.96604
歸	-6.96683
山	-6.96685
取	-6.97958
能	-6.98388
以為	-6.98779
日	-6.9915
詔	-6.9994
主	-7.00659
南	-7.0285
五	-7.02898
居	-7.0393
遣	-7.04499
縣	-7.04942
置	-7.0552
劉	-7.05681
先	-7.06152
法	-7.06699
世	-7.07586
義	-7.08251
注	-7.09108
爲	-7.09136
我	-7.09326
四	-7.09358
不能	-7.09361
武	-7.10191
重	-7.10524
守	-7.10682
長	-7.10768
金	-7.10829
郡	-7.11664
禮	-7.11696
師	-7.11938
馬	-7.12399
不可	-7.12883
定	-7.12955
▁(	-7.13541
聞	-7.13735
徳	-7.14043
惟	-7.14051
西	-7.14098
梁	-7.14499
吾	-7.14921
稱	-7.15358
本	-7.15736
進	-7.16217
心	-7.16746
且	-7.16785
云	-7.17066
舉	-7.17884
屬	-7.1797
諸	-7.18204
書法	-7.18426
數	-7.1909
東	-7.19525
氏	-7.20047
史	-7.20187
或	-7.20247
家	-7.20898
北	-7.20952
固	-7.20956
還	-7.21042
宜	-7.21215
去	-7.21641
封	-7.22008
水	-7.2254
分	-7.22915
趙	-7.23028
朝	-7.23846
通	-7.23899
論	-7.24255
夫	-7.24818
實	-7.25837
志	-7.25889
前	-7.26207
字	-7.26324
發明	-7.26793
善	-7.27117
士	-7.27455
猶	-7.28015
亂	-7.28047
易	-7.28372
治	-7.28787
常	-7.295
求	-7.29783
信	-7.29915
降	-7.30149
外	-7.30297
陽	-7.30691
意	-7.31057
服	-7.31945
衆	-7.32075
盡	-7.3269
謀	-7.32988
興	-7.33357
府	-7.33733
親	-7.35921
廢	-7.36123
罷	-7.36472
賊	-7.36566
失	-7.36595
議	-7.37488
制	-7.37638
攻	-7.38019
所以	-7.38927
楚	-7.39217
元年	-7.3927
太子	-7.39323
内	-7.3933
受	-7.39493
宗	-7.39854
召	-7.40771
㑹	-7.41415
起	-7.41591
后	-7.42721
政	-7.4311
髙	-7.4331
▁	-7.43328
發	-7.44014
深	-7.44258
誅	-7.44512
修	-7.44719
尚	-7.44857
門	-7.45326
小	-7.4663
光	-7.4701
都	-7.47133
凡	-7.48112
來	-7.48264
爾	-7.48593
二年	-7.48783
德	-7.49648
注見	-7.4998
奏	-7.50351
觀	-7.5042
益	-7.51069
而不	-7.51247
於是	-7.51293
力	-7.51456
古	-7.51465
亡	-7.51537
樂	-7.51672
罪	-7.52183
三年	-7.52235
戰	-7.52339
難	-7.52811
合	-7.53251
獨	-7.53406
六	-7.5341
問	-7.53701
處	-7.54859
父	-7.54894
利	-7.54996
敗	-7.55532
侯	-7.55848
改	-7.56244
任	-7.56472
逺	-7.56951
廣	-7.57102
直	-7.57126
加	-7.5775
和	-7.5777
惡	-7.57773
甚	-7.57878
經	-7.57916
石	-7.58142
太后	-7.58276
河	-7.58388
音	-7.59187
夏	-7.59325
賢	-7.59473
終	-7.59678
好	-7.60456
食	-7.6085
建	-7.61289
身	-7.61774
思	-7.61789
田	-7.62251
奉	-7.63105
功	-7.63225
權	-7.63255
陵	-7.63349
白	-7.6357
辭	-7.637
邪	-7.64776
伐	-7.65377
鄭	-7.65833
語	-7.66072
過	-7.6647
告	-7.66546
太	-7.66825
春秋	-7.66854
引	-7.67287
少	-7.67442
九	-7.6754
伯	-7.68057
致	-7.6826
代	-7.68262
按	-7.68668
敵	-7.6871
據	-7.68712
紀	-7.6873
賜	-7.68967
計	-7.6965
擊	-7.6989
首	-7.69996
天子	-7.70065
節	-7.71044
異	-7.71136
位	-7.71323
忠	-7.71545
孫	-7.71908
仁	-7.72714
諸侯	-7.72804
嘗	-7.72909
討	-7.73204
楊	-7.73618
變	-7.73889
魯	-7.74138
理	-7.74476
宫	-7.74763
吳	-7.7568
度	-7.75703
流	-7.75922
執	-7.76188
物	-7.76476
克	-7.76544
燕	-7.77343
備	-7.77422
止	-7.77452
豈	-7.779
間	-7.78006
威	-7.78188
十	-7.78306
許	-7.78736
女	-7.7911
並	-7.79533
學	-7.79598
疑	-7.79866
勝	-7.79973
韓	-7.80272
更	-7.80609
昭	-7.80628
滅	-7.80708
路	-7.81013
江	-7.81404
絶	-7.81503
祖	-7.82765
鎮	-7.82823
説	-7.83015
将	-7.83087
留	-7.83308
省	-7.83968
除	-7.84074
共	-7.84371
表	-7.84374
衛	-7.84711
兩	-7.84753
至是	-7.84921
舊	-7.84926
遷	-7.85088
吏	-7.85216
四年	-7.8529
朝廷	-7.85318
保	-7.85344
恐	-7.85442
載	-7.85654
彼	-7.85949
由	-7.86033
章	-7.86262
新	-7.8629
母	-7.86409
幸	-7.86881
陛下	-7.87452
而已	-7.8769
目	-7.87819
應	-7.87954
景	-7.87995
望	-7.88051
君子	-7.88149
篇	-7.88181
卿	-7.88218
盛	-7.88422
百	-7.88748
各	-7.88891
誠	-7.89211
圖	-7.89385
司	-7.89454
坐	-7.89656
蓋	-7.89705
但	-7.90062
輕	-7.90342
臨	-7.90358
比	-7.90782
風	-7.9102
懼	-7.91122
土	-7.91217
口	-7.91556
免	-7.91572
號	-7.916
開	-7.91684
高	-7.9182
宣	-7.92586
延	-7.92635
八	-7.92695
帥	-7.92896
尊	-7.93709
刑	-7.93745
神	-7.93907
破	-7.93938
拜	-7.94127
如此	-7.9428
徐	-7.9443
蜀	-7.94585
釋	-7.95215
不得	-7.95388
清	-7.95459
萬	-7.95823
悉	-7.95893
貴	-7.96207
胡	-7.96943
獻	-7.97032
氣	-7.9719
汝	-7.97252
才	-7.98004
寧	-7.98303
孝	-7.98606
車	-7.98633
全	-7.98729
承	-7.99027
左	-7.998
怒	-7.99961
疾	-8.00166
納	-8.00364
私	-8.00476
者也	-8.00513
錢	-8.00867
敬	-8.01232
)○	-8.0135
之事	-8.02096
殺之	-8.0236
隂	-8.02471
厚	-8.02655
救	-8.02788
聖	-8.03041
率	-8.03266
順	-8.03535
嚴	-8.03968
近	-8.03968
盖	-8.04192
昌	-8.04282
視	-8.04308
記	-8.04399
次	-8.04423
越	-8.04424
七	-8.04443
職	-8.04529
叛	-8.0535
濟	-8.05383
不知	-8.05781
禁	-8.06046
收	-8.06147
老	-8.06264
將軍	-8.0641
棄	-8.06454
遺	-8.06637
奔	-8.0664
圍	-8.06756
退	-8.06913
病	-8.07135
綱目	-8.07376
曹	-8.07502
嗣	-8.07591
御	-8.07673
商	-8.07936
夷	-8.08461
所謂	-8.08472
存	-8.08596
素	-8.08749
大臣	-8.09135
貶	-8.0924
對	-8.0933
教	-8.09467
遇	-8.0992
崇	-8.10009
責	-8.10279
海	-8.1083
黄	-8.11158
列	-8.11219
弟	-8.11504
著	-8.11517
𤣥	-8.11545
龍	-8.1158
詳	-8.11596
務	-8.11846
五年	-8.11886
就	-8.12034
不敢	-8.12097
走	-8.12359
禍	-8.12382
聲	-8.12535
交	-8.12759
業	-8.12857
左右	-8.13064
良	-8.13152
顧	-8.13371
往	-8.13576
遣使	-8.13967
仲	-8.14352
勢	-8.14512
月	-8.14533
動	-8.14668
嘉	-8.15046
果	-8.15075
春	-8.15325
特	-8.15384
逆	-8.1543
可以	-8.15488
餘	-8.15552
襲	-8.15571
莫	-8.15687
容	-8.15824
之言	-8.1591
考	-8.1597
兼	-8.16049
足	-8.16119
專	-8.16351
别	-8.16416
營	-8.16611
斬	-8.16928
推	-8.17343
集	-8.17791
至於	-8.17825
怨	-8.17924
契丹	-8.17927
原	-8.17994
美	-8.18277
繼	-8.18287
要	-8.18375
華	-8.18574
諫	-8.18606
解	-8.18703
永	-8.18713
孔子	-8.19008
說	-8.1901
秋	-8.19207
之意	-8.19324
極	-8.19384
殷	-8.19672
徙	-8.19778
布	-8.19779
斷	-8.19893
朱	-8.1996
况	-8.20121
皇	-8.20448
堅	-8.20569
小人	-8.20777
叔	-8.20916
危	-8.21021
再	-8.21056
追	-8.21604
喜	-8.21877
宰相	-8.21887
之心	-8.22005
附	-8.2204
具	-8.22377
憂	-8.2241
懐	-8.22416
殿	-8.22503
䇿	-8.22792
俱	-8.23007
典	-8.23258
隋	-8.23344
唯	-8.23357
葢	-8.23673
𢎞	-8.23772
連	-8.23787
邑	-8.23957
夜	-8.24026
害	-8.24215
之所	-8.24275
徒	-8.24308
愛	-8.24374
是以	-8.24639
迎	-8.24657
朕	-8.24697
真	-8.24769
太宗	-8.24963
勸	-8.25046
右	-8.25614
斯	-8.25724
謂之	-8.25811
姓	-8.25882
久	-8.26254
予	-8.26334
選	-8.26552
京	-8.26582
戒	-8.2682
約	-8.27106
伏	-8.27275
勿	-8.27404
林	-8.27483
畧	-8.27683
寵	-8.27832
耶	-8.27863
六年	-8.28025
里	-8.28082
不足	-8.28428
操	-8.28532
授	-8.2856
待	-8.28639
屯	-8.28724
而後	-8.28741
登	-8.28866
衣	-8.28995
由是	-8.29031
廣義	-8.29535
恩	-8.29629
顯	-8.2992
嵗	-8.30078
每	-8.30314
大夫	-8.30585
并	-8.31137
温	-8.31293
急	-8.31354
持	-8.31572
蕭	-8.31787
願	-8.31857
然後	-8.31899
指	-8.32037
患	-8.32168
彊	-8.32287
即位	-8.3248
統	-8.32589
郭	-8.3263
簡	-8.32869
畏	-8.32999
申	-8.33154
賞	-8.33333
謝	-8.33371
結	-8.33765
宻	-8.33966
茍	-8.34045
甲	-8.34753
魏主	-8.35002
禹	-8.35133
周公	-8.35136
散	-8.3516
聽	-8.35209
虜	-8.35342
儀	-8.35443
化	-8.35604
之後	-8.36143
體	-8.3636
一統志云	-8.36506
己	-8.36595
負	-8.36823
亮	-8.36877
智	-8.36892
性	-8.36955
黨	-8.36978
騎	-8.37331
雲	-8.37432
設	-8.37484
呉	-8.37621
獲	-8.38123
從之	-8.38179
不書	-8.38291
福	-8.38555
昔	-8.38569
扵	-8.3862
讓	-8.38983
闗	-8.39332
造	-8.39472
寳	-8.39493
杜	-8.3954
移	-8.39554
養	-8.39659
向	-8.39778
部	-8.39807
榮	-8.39944
情	-8.4004
暴	-8.40365
積	-8.40457
報	-8.40725
之地	-8.4086
爵	-8.40872
送	-8.41345
弱	-8.41429
器	-8.41644
武帝	-8.41698
衰	-8.41708
廟	-8.41719
尋	-8.41737
薄	-8.4175
丁	-8.41994
類	-8.42135
玉	-8.42149
决	-8.42268
敢	-8.42643
祀	-8.4266
縱	-8.42831
色	-8.42994
被	-8.43018
詩	-8.43048
强	-8.43219
康	-8.43277
祭	-8.43348
籍	-8.43445
臺	-8.43489
尤	-8.43496
考異	-8.43535
察	-8.43573
休	-8.43662
乞	-8.43845
塞	-8.43874
舜	-8.43891
習	-8.44372
獄	-8.44418
監	-8.44549
戎	-8.44601
木	-8.44655
慮	-8.44707
領	-8.44738
室	-8.45137
尚書	-8.45221
便	-8.45399
無所	-8.45431
末	-8.45703
總	-8.45867
弑	-8.4587
愚	-8.46059
火	-8.46081
脩	-8.46328
天下之	-8.46564
慶	-8.4659
隨	-8.46616
可謂	-8.46814
雄	-8.46916
中國	-8.471
卷	-8.4724
勞	-8.4736
咸	-8.4761
訓	-8.47744
質	-8.47775
羣臣	-8.48137
録	-8.48147
青	-8.48516
安石	-8.4869
詣	-8.48791
乗	-8.48901
蔡	-8.49168
曰吾	-8.49402
綱	-8.49426
彦	-8.49433
俗	-8.49446
聖人	-8.49605
述	-8.49641
第	-8.4998
司馬	-8.50035
虚	-8.50145
勇	-8.502
為之	-8.50299
赦	-8.50336
侵	-8.5048
澤	-8.50686
太守	-8.50817
謹	-8.50842
恭	-8.51014
期	-8.51019
羣	-8.51098
吕	-8.51277
富	-8.51357
冦	-8.51682
適	-8.51687
虎	-8.517
孟	-8.51781
輔	-8.51831
𫝊	-8.51842
誤	-8.52006
充	-8.52014
邊	-8.52063
草	-8.52076
辨	-8.52227
爭	-8.52314
何以	-8.52509
乘	-8.52509
盟	-8.52509
鄉	-8.52522
給	-8.52669
市	-8.52744
其所	-8.52805
三月	-8.52805
曲	-8.52908
序	-8.52958
識	-8.52996
諸將	-8.53234
皇后	-8.53277
象	-8.53337
酒	-8.53468
關	-8.53548
不從	-8.53569
對曰	-8.53737
屢	-8.5381
之罪	-8.5385
之間	-8.53883
季	-8.53893
虞	-8.53915
遼	-8.54111
百姓	-8.54234
以來	-8.54296
節度使	-8.54363
手	-8.54607
族	-8.54848
史記	-8.55141
蘇	-8.55198
州刺史	-8.55202
傷	-8.55248
於此	-8.55256
金人	-8.55727
役	-8.55766
哀	-8.56124
書曰	-8.56158
徴	-8.56272
奪	-8.56413
七年	-8.56759
呼	-8.56773
逐	-8.56914
仍	-8.5694
助	-8.56995
垂	-8.57022
薦	-8.57076
惠	-8.57295
假	-8.57486
儒	-8.57786
匈奴	-8.57845
諌	-8.58109
博	-8.58267
違	-8.5833
兄	-8.58444
弗	-8.5852
喪	-8.59301
歴	-8.5932
厥	-8.59366
客	-8.59503
切	-8.59783
之子	-8.59864
莽	-8.60603
紹	-8.60624
微	-8.6067
足以	-8.60722
泰	-8.60761
者皆	-8.609
賦	-8.60994
援	-8.61131
達	-8.61179
長安	-8.61226
案	-8.61289
争	-8.61358
闕	-8.61451
當時	-8.61456
沈	-8.61541
後世	-8.61624
窮	-8.61822
資	-8.61851
淵	-8.61869
逹	-8.6189
也故	-8.62037
八年	-8.62253
征	-8.62298
端	-8.6254
皇帝	-8.62555
竊	-8.62586
崔	-8.62699
例	-8.62764
離	-8.62788
賀	-8.6302
抑	-8.63038
犯	-8.63087
之時	-8.63142
葬	-8.63168
洛	-8.63218
妻	-8.63595
靈	-8.63667
孔	-8.63823
未嘗	-8.63932
聚	-8.6397
之道	-8.63974
是也	-8.63979
姦	-8.63981
依	-8.64212
頭	-8.64308
舍	-8.64407
然則	-8.64441
參	-8.64511
國家	-8.6459
息	-8.6501
密	-8.65141
野	-8.65196
飛	-8.65237
補	-8.65275
河南	-8.65806
阿	-8.65827
財	-8.65843
聞之	-8.65851
撰	-8.65925
掌	-8.66
均	-8.66009
注見漢	-8.66442
京師	-8.66681
英	-8.66778
牛	-8.66834
運	-8.66943
穆	-8.67131
放	-8.67233
示	-8.67273
陷	-8.6746
川	-8.6748
施	-8.67484
范	-8.67869
會	-8.6789
不如	-8.67909
費	-8.68213
賈	-8.68348
條	-8.68506
崩	-8.68624
憲	-8.68666
雍	-8.68678
屈	-8.68747
委	-8.68773
精	-8.68889
㧞	-8.68947
其後	-8.69221
竟	-8.69279
庶	-8.69615
譏	-8.69747
雜	-8.70169
隆	-8.70185
九年	-8.7023
詞	-8.70444
詐	-8.70604
豐	-8.70632
湯	-8.70659
愈	-8.71124
吉	-8.71212
懷	-8.71395
敕	-8.71513
折	-8.71682
累	-8.71917
烏	-8.7208
䘮	-8.72301
来	-8.72383
傅	-8.72544
遽	-8.72631
遊	-8.72686
辱	-8.72708
䝉古	-8.72797
夀	-8.72929
未有	-8.73409
嗚呼	-8.73526
衡	-8.7369
竒	-8.74003
不過	-8.74115
自是	-8.74142
鼎	-8.74183
邦	-8.74423
丞相	-8.74473
不以	-8.74473
之法	-8.74559
擇	-8.74693
丘	-8.74733
符	-8.74765
六月	-8.74816
郎	-8.74891
堯	-8.74951
辟	-8.74996
乆	-8.75041
妃	-8.75191
十二月	-8.75218
頗	-8.75273
有所	-8.7529
形	-8.75352
幾	-8.75437
覆	-8.75494
他	-8.75557
勒	-8.75679
格	-8.75742
不為	-8.75846
防	-8.75851
孤	-8.76161
斬之	-8.76292
撫	-8.76454
千	-8.76508
郡名注見	-8.76666
誣	-8.76702
也今	-8.7683
避	-8.76955
冠	-8.77254
逸	-8.7735
律	-8.77367
二月	-8.7759
斥	-8.77721
社稷	-8.77735
横	-8.77859
欺	-8.77914
險	-8.78046
某	-8.78134
班	-8.78299
之士	-8.78408
超	-8.78437
妄	-8.78497
盧	-8.78696
境	-8.78711
夫人	-8.78756
盗	-8.78877
佐	-8.78885
縣屬	-8.78933
太祖	-8.78963
徃	-8.79053
韋	-8.79563
忌	-8.79593
貪	-8.79671
雅	-8.79819
䧟	-8.7987
宋主	-8.79919
幽	-8.80044
督	-8.80145
毁	-8.80195
洛陽	-8.80349
子孫	-8.80433
戍	-8.80458
星	-8.80514
冀	-8.80598
八月	-8.8075
源	-8.81273
五月	-8.81279
招	-8.81335
其事	-8.81359
河北	-8.81364
刺	-8.81405
唐主	-8.81442
歟	-8.81576
九月	-8.81652
徵	-8.81925
貞	-8.82153
冬十月	-8.82239
夏四月	-8.82286
陸	-8.82294
殊	-8.82299
淮	-8.82432
誰	-8.82568
四方	-8.82583
空	-8.82835
之禍	-8.82847
須	-8.82882
突厥	-8.82899
羅	-8.82914
拒	-8.82959
人主	-8.82976
其子	-8.83243
晋	-8.83364
公子	-8.83468
河東	-8.83694
倫	-8.83706
兄弟	-8.83781
秀	-8.8389
惑	-8.84091
舟	-8.84192
公主	-8.84276
飲	-8.84405
百官	-8.84475
速	-8.84615
射	-8.84676
吐蕃	-8.84728
桓	-8.84732
慎	-8.84746
赴	-8.84845
背	-8.84914
感	-8.85228
是時	-8.85294
讀	-8.85649
災	-8.85803
似	-8.85951
不許	-8.85991
上書	-8.8615
薛	-8.862
不及	-8.86227
逃	-8.86233
人君	-8.86353
趨	-8.86366
鄧	-8.86373
苦	-8.86373
之人	-8.86407
人心	-8.86412
革	-8.86541
循	-8.8665
十一月	-8.86665
文帝	-8.86678
侍	-8.86777
允	-8.86858
震	-8.86894
機	-8.8722
㣲	-8.87286
忘	-8.87518
漸	-8.87565
引兵	-8.87791
審	-8.87797
友	-8.87837
升	-8.8785
父子	-8.87952
歲	-8.87963
干	-8.87964
十二	-8.88006
僧	-8.88146
必有	-8.88151
介	-8.88169
一人	-8.88211
庸	-8.88235
襄	-8.88469
増	-8.88479
十年	-8.88624
堂	-8.88769
豈不	-8.88931
決	-8.89016
畢	-8.89022
朔	-8.89077
牧	-8.89174
兒	-8.89227
之功	-8.8947
禄	-8.8952
而無	-8.89611
試	-8.89613
輙	-8.89616
偽	-8.8977
驕	-8.89875
馮	-8.89876
裕	-8.8998
寛	-8.90029
二人	-8.90143
莊	-8.90258
烈	-8.90291
不復	-8.90443
辛	-8.90688
髙宗	-8.90723
謙	-8.90813
知其	-8.90969
髙祖	-8.91185
效	-8.91393
也夫	-8.91514
衞	-8.91608
士卒	-8.91658
剛	-8.91681
句	-8.9192
疏	-8.91942
講	-8.91993
築	-8.92018
旣	-8.92043
國之	-8.9218
揚	-8.922
肅	-8.92274
轉	-8.92369
縣名注見	-8.92449
傾	-8.92582
既而	-8.92617
㫖	-8.92645
寺	-8.92678
君臣	-8.92725
削	-8.92764
不然	-8.92815
隠	-8.92879
藏	-8.92977
寜	-8.93031
豫	-8.93063
其罪	-8.93069
宿	-8.93434
之臣	-8.93435
浚	-8.93653
稍	-8.94117
秋七月	-8.94178
畫	-8.94281
乾	-8.94355
十二年	-8.94561
毎	-8.94745
之徒	-8.94756
弼	-8.94853
其言	-8.94867
忽	-8.95102
刺史	-8.9512
郊	-8.95275
滿	-8.95321
祠	-8.95644
厯	-8.95772
蔽	-8.95854
也然	-8.96397
肆	-8.96439
𨽻	-8.96443
羽	-8.96711
旦	-8.97
勤	-8.97316
廷	-8.97404
校	-8.97629
䝉	-8.97725
裴	-8.97727
婦	-8.97764
言之	-8.97861
先是	-8.97889
使人	-8.97926
殆	-8.97955
振	-8.9838
諭	-8.98463
魚	-8.98467
出於	-8.98544
鄴	-8.98638
胡氏曰	-8.98643
接	-8.98659
投	-8.98825
衍	-8.98997
念	-8.98999
浮	-8.99284
有罪	-8.99298
隱	-8.99837
勲	-8.99844
誘	-8.9994
冬	-8.99985
之義	-9.00034
凶	-9.00035
入朝	-9.00177
宦官	-9.00177
刻	-9.00439
今按	-9.00476
淮南	-9.00569
損	-9.00609
邉	-9.00641
董	-9.00692
最	-9.0102
種	-9.01045
逼	-9.01083
是為	-9.01194
則其	-9.01203
面	-9.01349
馳	-9.01502
成王	-9.01504
宮	-9.02022
術	-9.02281
宦者	-9.02309
恃	-9.02339
略	-9.02565
程	-9.02796
歳	-9.02801
甫	-9.03049
曰此	-9.03136
掠	-9.03353
翼	-9.03364
佛	-9.03405
擊之	-9.03438
葉	-9.03445
遵	-9.03591
預	-9.03595
困	-9.03596
不克	-9.03651
索	-9.03672
榖	-9.03703
戮	-9.03777
工	-9.03794
則是	-9.04016
正誤	-9.04123
谷	-9.04161
甚矣	-9.04415
故曰	-9.04446
茂	-9.0454
有司	-9.04665
赤	-9.04667
敦	-9.04754
庭	-9.04774
趣	-9.04798
用之	-9.04801
貢	-9.0487
俊	-9.0495
恒	-9.04959
兹	-9.04989
尹	-9.05008
江南	-9.05028
宴	-9.05276
許之	-9.05305
繫	-9.05319
偏	-9.05345
諱	-9.05357
單于	-9.05369
袁	-9.05557
齊主	-9.05974
囚	-9.06009
歡	-9.06206
御史	-9.06245
書之	-9.06251
雨	-9.06287
儉	-9.06403
壽	-9.0663
支	-9.06695
之際	-9.06742
荒	-9.06794
仕	-9.06935
飾	-9.06957
半	-9.07046
農	-9.07091
政事	-9.07136
使者	-9.07176
没	-9.07181
湖	-9.0738
天地	-9.07419
奚	-9.07621
笑	-9.07634
貨	-9.07641
鹽	-9.08034
毛	-9.08215
恨	-9.08223
材	-9.08354
卑	-9.08418
遠	-9.08508
蠻	-9.08521
霸	-9.08633
導	-9.08751
管	-9.08822
俟	-9.0889
武王	-9.08893
洪	-9.08971
顔	-9.09229
薨	-9.09255
孰	-9.09276
荆州	-9.09306
人之	-9.09374
糧	-9.09525
梁主	-9.09542
左氏曰	-9.09633
厲	-9.09676
之世	-9.09711
一作	-9.09728
太原	-9.09789
漢書	-9.098
貫	-9.09879
奴	-9.1023
辰	-9.10404
悦	-9.10425
䕶	-9.10574
有功	-9.10716
橋	-9.10716
落	-9.10919
回	-9.10951
潰	-9.11044
荆	-9.11079
者矣	-9.11262
與之	-9.11286
賤	-9.11334
粟	-9.11369
啓	-9.11408
佞	-9.11408
不至	-9.11418
柔	-9.11606
焚	-9.11705
討之	-9.1171
憤	-9.11744
希	-9.11794
歌	-9.11957
峻	-9.12035
忍	-9.12072
可汗	-9.12291
啟	-9.12327
春正月	-9.12416
鄙	-9.12461
上曰	-9.12544
文王	-9.12552
狀	-9.12613
采	-9.1265
一日	-9.12653
而死	-9.12806
至于	-9.12828
昏	-9.12997
節度	-9.13101
擒	-9.13175
羌	-9.13216
卓	-9.13221
全忠	-9.13375
渠	-9.13499
欲以	-9.13587
饑	-9.13794
誓	-9.13989
伊	-9.14115
郡名	-9.14173
驚	-9.14273
角	-9.14719
盜	-9.14743
錯	-9.14845
在位	-9.14877
以此	-9.1491
姚	-9.14927
策	-9.14965
否	-9.14988
是年	-9.15031
靡	-9.15219
池	-9.15306
専	-9.1539
奮	-9.15413
户	-9.15604
量	-9.15683
余	-9.15814
其心	-9.15834
雖有	-9.15894
副	-9.16154
中原	-9.16154
丹	-9.16262
享	-9.16572
故事	-9.16603
中書	-9.16662
死者	-9.16704
之志	-9.16729
沮	-9.16751
今日	-9.16767
付	-9.16961
編	-9.17058
欽	-9.17085
縣名	-9.17169
諸軍	-9.17233
牙	-9.17397
黜	-9.1748
差	-9.17554
託	-9.17563
叙	-9.1767
煩	-9.17734
之不	-9.17861
卜	-9.17976
吴	-9.17977
二十	-9.17991
十五年	-9.17998
輿	-9.18119
懿	-9.18241
故也	-9.18635
調	-9.18957
自殺	-9.18987
短	-9.19093
姑	-9.19147
辯	-9.19217
上下	-9.19291
毒	-9.19308
罰	-9.19329
宗廟	-9.19335
津	-9.19352
甘	-9.19383
太平	-9.19396
筆	-9.194
咎	-9.1945
妾	-9.19521
藩	-9.19592
輸	-9.19734
而還	-9.19749
船	-9.19928
細	-9.20003
樓	-9.20122
院	-9.2017
取之	-9.20213
沙	-9.20356
孟子	-9.20383
羊	-9.20397
擅	-9.20479
汴	-9.20589
僅	-9.20664
桑	-9.20747
誅之	-9.20945
規	-9.21005
減	-9.21049
金主	-9.21135
謁	-9.21327
無罪	-9.21443
至此	-9.21459
其君	-9.21486
蒲	-9.21568
寡	-9.21655
優	-9.2166
寶	-9.22028
曰我	-9.22309
弊	-9.22329
宰	-9.2236
紂	-9.22394
鼓	-9.22428
惜	-9.22463
覺	-9.22729
輩	-9.22779
藥	-9.22805
用兵	-9.23173
中外	-9.23201
捕	-9.23289
續	-9.23343
抗	-9.23357
可也	-9.23403
歩	-9.23487
熈	-9.23673
祚	-9.23813
改為	-9.23928
曾	-9.23996
之君	-9.2408
矣然	-9.24084
竭	-9.24258
奈何	-9.24541
㓂	-9.24604
以下	-9.2466
沒	-9.24832
珍	-9.24879
僕	-9.24984
悔	-9.25115
之説	-9.25374
侍中	-9.25379
履	-9.25462
舒	-9.25765
彭	-9.25824
同平章事	-9.25932
高宗	-9.25948
之名	-9.2604
錄	-9.2606
曰今	-9.26101
山東	-9.26408
不同	-9.2645
不忍	-9.26657
又曰	-9.26667
耻	-9.26791
不用	-9.26996
不可以	-9.27129
自古	-9.27188
杖	-9.27213
浩	-9.27226
千里	-9.27305
都督	-9.27408
將兵	-9.27591
科	-9.27773
猛	-9.27774
宏	-9.28083
屠	-9.28113
割	-9.28226
迹	-9.28237
躬	-9.28268
四海	-9.284
融	-9.28429
單	-9.28459
内外	-9.28568
尉	-9.28604
莫不	-9.28662
之勢	-9.2868
凖	-9.28743
恥	-9.28771
㡬	-9.28773
亟	-9.28782
殺其	-9.28792
讐	-9.28939
亭	-9.28959
建康	-9.28993
祥	-9.29022
宅	-9.29033
泉	-9.29057
寒	-9.29108
而去	-9.29115
將士	-9.29125
巴	-9.29358
狄	-9.29391
毋	-9.29491
括	-9.29566
左傳	-9.29592
岐	-9.29641
不聽	-9.29806
之初	-9.29836
如是	-9.30013
姓名	-9.30024
扶	-9.30072
之計	-9.30181
泣	-9.30194
光武	-9.30248
前後	-9.30283
褒	-9.30302
根	-9.30318
賔	-9.30348
之故	-9.30355
綱目書	-9.30412
候	-9.306
早	-9.30675
擾	-9.30749
公卿	-9.30876
露	-9.30979
靖	-9.31145
起兵	-9.31274
成都	-9.31586
鍾	-9.31659
為相	-9.31668
配	-9.3171
先帝	-9.3175
舉兵	-9.31879
十五	-9.3194
大事	-9.32079
行之	-9.3209
三十	-9.32161
談	-9.32212
房	-9.3233
盈	-9.32434
怪	-9.32499
世家	-9.32572
姬	-9.32661
驅	-9.32684
肅宗	-9.32774
鹿	-9.32849
頃	-9.32854
賛	-9.32896
南陽	-9.33072
父母	-9.33134
受命	-9.3322
諡	-9.33237
維	-9.33356
雷	-9.33381
匡	-9.33522
借	-9.33526
淫	-9.33538
之類	-9.33814
耕	-9.33846
罔	-9.33926
界	-9.34005
閣	-9.34048
乙	-9.34265
虛	-9.34304
襄陽	-9.3432
哭	-9.34408
悟	-9.34409
江陵	-9.34558
城中	-9.34589
乃以	-9.34592
遁	-9.34622
一旦	-9.34714
晦	-9.34716
竹	-9.34726
之所以	-9.34743
亦不	-9.3475
豪	-9.34795
敏	-9.34806
帝曰	-9.34818
宣帝	-9.35009
前書	-9.3501
先王	-9.35026
則書	-9.35039
不足以	-9.35108
況	-9.35165
文公	-9.35226
秦王	-9.35266
或曰	-9.3527
純	-9.35478
復為	-9.35509
高祖	-9.3567
長史	-9.35704
不若	-9.35816
晏	-9.36009
尺	-9.36017
渡	-9.36046
之亂	-9.36134
階	-9.362
誕	-9.36691
戴	-9.36711
之謀	-9.36859
潜	-9.36873
竄	-9.36901
以其	-9.37011
陰	-9.37097
緩	-9.37189
鑄	-9.37193
伊尹	-9.37503
奸	-9.37528
普	-9.37559
十一年	-9.37622
匿	-9.37649
東漢	-9.37672
及其	-9.37701
獵	-9.37722
踰	-9.37792
眞	-9.37908
伏誅	-9.3792
巧	-9.37926
矯	-9.3793
忿	-9.37932
大將軍	-9.37947
壯	-9.38062
範	-9.38063
荀	-9.38127
珪	-9.38134
戸	-9.38197
世子	-9.38223
幽州	-9.38294
激	-9.38422
基	-9.38455
不當	-9.38505
十月	-9.38587
禦	-9.38597
憲宗	-9.38684
諸王	-9.38713
鑒	-9.38848
賣	-9.38923
公孫	-9.38932
驗	-9.39139
壊	-9.39172
四月	-9.3932
静	-9.39383
羙	-9.3942
東南	-9.39507
掩	-9.39524
側	-9.39551
十三年	-9.39585
夷狄	-9.39599
丕	-9.39612
旁	-9.39667
宗室	-9.39761
巢	-9.39881
限	-9.39894
劾	-9.40046
鳴	-9.40068
繁	-9.40177
司徒	-9.40225
之於	-9.40235
禮樂	-9.40375
徽	-9.40499
得其	-9.4055
聴	-9.406
戲	-9.40621
贈	-9.40628
嶺	-9.40705
代之	-9.40794
賂	-9.40844
寢	-9.40848
庫	-9.40966
乂	-9.41173
竇	-9.41252
為太子	-9.41393
植	-9.41419
十四年	-9.41464
倚	-9.41469
錫	-9.41485
寇	-9.41487
用事	-9.41508
改元	-9.41518
陶	-9.41577
庚	-9.41578
訪	-9.41611
樹	-9.41669
濬	-9.41671
式	-9.41678
未幾	-9.419
倉	-9.41953
僣	-9.41968
謬	-9.42013
揚州	-9.42055
而不知	-9.42144
之禮	-9.42147
恤	-9.42164
占	-9.42198
正月	-9.42201
恕	-9.42212
天命	-9.42217
古之	-9.42239
丙	-9.42342
大敗	-9.42405
彌	-9.42424
學士	-9.42493
又以	-9.42614
一時	-9.42648
之失	-9.42675
刼	-9.42686
不受	-9.4275
齊王	-9.42787
栁	-9.42797
檜	-9.42816
予之	-9.42836
游	-9.429
松	-9.42916
慕	-9.42947
是非	-9.42974
雪	-9.43038
徽宗	-9.43051
此書	-9.43125
自稱	-9.43164
夫子	-9.43216
攻之	-9.43448
戚	-9.43462
貌	-9.43463
渾	-9.435
血	-9.43599
子曰	-9.43783
虐	-9.43847
樊	-9.43927
桓公	-9.4393
豈可	-9.44126
不肯	-9.44145
彭城	-9.44175
皆以	-9.44182
殘	-9.44453
署	-9.44478
米	-9.4448
五代	-9.44613
君之	-9.44672
寅	-9.44697
邵	-9.44747
冊	-9.44858
聼	-9.44866
攝	-9.44946
翰	-9.45022
子弟	-9.45153
武氏	-9.45155
蔡京	-9.45157
聘	-9.45304
以後	-9.4541
日格子曰	-9.45432
品	-9.45434
肉	-9.45471
厭	-9.45536
麟	-9.45586
矣故	-9.45763
三公	-9.45834
明皇	-9.45898
痛	-9.46076
覽	-9.46078
刀	-9.46099
判	-9.46177
見其	-9.4627
文武	-9.46321
屋	-9.46366
輒	-9.46403
司空	-9.46417
蕃	-9.46532
則有	-9.46685
不行	-9.46708
突	-9.46793
印	-9.46889
蕩	-9.46956
太尉	-9.46966
慈	-9.47192
井	-9.47261
廵	-9.47373
不見	-9.47442
園	-9.47443
因之	-9.47568
午	-9.47641
當作	-9.47665
郡縣	-9.47767
正義曰	-9.4786
朗	-9.47879
之上	-9.47891
到	-9.4795
仗	-9.47951
用左	-9.48065
遜	-9.48105
夲	-9.482
贊	-9.48267
元帝	-9.48351
岳	-9.48375
十三	-9.48455
江淮	-9.48554
之命	-9.48556
之中	-9.48571
名注見	-9.48608
産	-9.48698
之政	-9.48799
晉陽	-9.48859
併	-9.48888
裁	-9.49076
觀其	-9.49079
州縣	-9.49132
其名	-9.49263
秉	-9.49268
其國	-9.49298
幹	-9.49317
豈非	-9.49336
人皆	-9.49374
學者	-9.4944
創	-9.49575
寄	-9.49634
以示	-9.49682
苑	-9.49684
晟	-9.4973
即此	-9.49805
西北	-9.49867
破之	-9.49892
龜	-9.49915
捨	-9.5012
㓜	-9.50173
巳	-9.50389
知之	-9.50455
尸	-9.50456
勉	-9.50462
救之	-9.50468
本紀	-9.50484
言於	-9.50577
中山	-9.50611
供	-9.50704
作亂	-9.50728
觀之	-9.50833
毅	-9.50872
上言	-9.50891
明帝	-9.50893
世祖	-9.51106
是故	-9.51136
募	-9.51178
貳	-9.51198
熊	-9.51299
釁	-9.51309
閔	-9.51394
藉	-9.514
仁宗	-9.51426
其意	-9.51426
不欲	-9.5149
駕	-9.51528
萬人	-9.51621
提	-9.51696
擢	-9.51732
婦人	-9.51843
不與	-9.51941
鳯	-9.52012
恪	-9.52024
特書	-9.52052
旱	-9.52065
賢者	-9.52065
墨	-9.52098
猶言	-9.52123
舞	-9.52152
之衆	-9.52155
若此	-9.52337
堪	-9.52378
寸	-9.52462
禪	-9.52465
脱	-9.52481
安得	-9.52634
悲	-9.52664
不宜	-9.52679
者乎	-9.52745
社	-9.52756
而不能	-9.52868
南北	-9.52922
答	-9.52946
骨	-9.52993
其身	-9.53021
亦有	-9.53122
堯舜	-9.53159
不相	-9.53277
晉侯	-9.53304
人也	-9.534
軍中	-9.53464
不言	-9.53486
十六	-9.53601
他日	-9.53822
齒	-9.53863
挾	-9.53883
鳥	-9.53886
其人	-9.53923
之師	-9.53986
左氏	-9.54041
先生	-9.54063
於天下	-9.54074
嫌	-9.54085
寃	-9.54128
妖	-9.54148
皮	-9.54153
西域	-9.54163
曽	-9.54246
中宗	-9.54359
尾	-9.54359
軌	-9.54376
鐵	-9.5439
戰國	-9.54505
乃止	-9.54537
黄帝	-9.54538
遣兵	-9.5457
彰	-9.54614
遭	-9.54702
閉	-9.5478
却	-9.54861
曹操	-9.5487
徐州	-9.54879
豈有	-9.54963
明日	-9.55023
㤗	-9.55231
其衆	-9.55239
諷	-9.553
元祐	-9.55325
郢	-9.55353
墓	-9.55557
歛	-9.55561
淺	-9.55617
無不	-9.55628
澄	-9.55697
富貴	-9.55707
執政	-9.55746
軍士	-9.55753
得以	-9.5576
祿	-9.55808
覇	-9.55856
鄭伯	-9.56068
克用	-9.56093
壁	-9.56103
齊人	-9.56142
桀	-9.56207
拔	-9.56209
疎	-9.56225
十萬	-9.56251
憚	-9.56269
仙	-9.56278
所為	-9.56287
發兵	-9.56292
七月	-9.56335
帝王	-9.5639
有餘	-9.56408
矜	-9.56425
斗	-9.56439
何如	-9.56595
地震	-9.56702
仁義	-9.56756
員	-9.56761
者不	-9.56872
仰	-9.57021
濫	-9.57062
十一	-9.571
徳宗	-9.57114
觧	-9.57329
貞觀	-9.57474
帶	-9.57523
鳳	-9.57625
旅	-9.57668
齊侯	-9.57806
燒	-9.57936
渭	-9.57954
藩鎮	-9.58035
曰臣	-9.58061
陜	-9.58175
銅	-9.58241
缺	-9.58267
幼	-9.5828
秩	-9.58287
蘭	-9.58296
壞	-9.58312
倍	-9.58325
邀	-9.58457
楚子	-9.58495
阻	-9.58548
東都	-9.58749
壬	-9.58793
何也	-9.5885
三日	-9.58886
男	-9.59079
懲	-9.59161
譽	-9.59168
忠義	-9.5917
王者	-9.59242
隴	-9.59381
衝	-9.59417
畜	-9.59465
潛	-9.59491
民之	-9.59496
黎	-9.59591
競	-9.59687
夾	-9.597
使之	-9.59726
通鑑	-9.59839
人臣	-9.59927
篤	-9.59987
也其	-9.60025
渉	-9.60095
祐	-9.60111
傳曰	-9.60163
凉	-9.60172
淳	-9.60187
成帝	-9.60193
兮	-9.60251
舎	-9.60289
伍	-9.60384
奢	-9.60419
歎	-9.60511
整	-9.60587
建安	-9.60613
丞	-9.60659
不得已	-9.60707
討賊	-9.60869
不明	-9.60914
瓊	-9.6095
眀	-9.6095
也若	-9.60984
嫡	-9.61034
詔以	-9.61118
三代	-9.61146
未可	-9.61149
矢	-9.61245
相繼	-9.61253
陣	-9.61285
弓	-9.61298
皆有	-9.61301
頓	-9.61326
俘	-9.61354
惡之	-9.61433
撃	-9.61455
誥	-9.61482
兆	-9.61518
十四	-9.61567
士大夫	-9.61577
而立	-9.61578
舅	-9.61598
熟	-9.61637
乖	-9.6164
㑹稽	-9.61697
日食	-9.61767
強	-9.61864
廣陵	-9.61888
項	-9.61997
暉	-9.62102
無以	-9.62132
警	-9.62211
隙	-9.62312
館	-9.62321
成功	-9.62343
五十	-9.62395
乏	-9.62505
迫	-9.62557
席	-9.62563
直書	-9.62726
幣	-9.62881
增	-9.62933
嵩	-9.6303
𦙍	-9.63058
之變	-9.63126
證	-9.63192
擬	-9.63193
而有	-9.632
綏	-9.632
㨗	-9.63209
而已矣	-9.63284
周主	-9.63324
閩	-9.634
稅	-9.63498
鋭	-9.63505
致仕	-9.63582
劒	-9.63691
麗	-9.63732
以待	-9.63744
徑	-9.63834
顔師古曰	-9.64036
段	-9.64163
祖宗	-9.64177
劉氏	-9.64194
亷	-9.64404
之辭	-9.6443
狂	-9.64475
提要	-9.64537
者必	-9.64548
之日	-9.64599
二子	-9.64769
税	-9.6478
醜	-9.64781
何為	-9.64971
其地	-9.65044
夢	-9.65053
喻	-9.65129
者亦	-9.65208
稱帝	-9.65227
十六年	-9.65342
侈	-9.65379
之民	-9.65437
貧	-9.65784
胥	-9.65828
儲	-9.65869
樞	-9.65961
其志	-9.65966
開元	-9.65971
翟	-9.66035
銀	-9.66242
王室	-9.66355
步	-9.66375
不出	-9.66422
死之	-9.66474
官爵	-9.66556
契	-9.66631
古者	-9.66678
鎭	-9.66717
将軍	-9.66923
其黨	-9.66937
浸	-9.67031
盤	-9.67031
冲	-9.67076
得之	-9.67102
絳	-9.67134
可知矣	-9.6721
廬	-9.67281
僕射	-9.67311
緒	-9.67387
鴻	-9.67394
岸	-9.67566
垣	-9.67718
怠	-9.67746
黙	-9.6775
不在	-9.6778
貽	-9.67926
大義	-9.67943
然而	-9.67964
屏	-9.6804
以爲	-9.68054
出入	-9.68059
海内	-9.6806
古今	-9.68095
漏	-9.68099
噫	-9.68099
讎	-9.68115
王子	-9.68131
為國	-9.68181
其父	-9.68263
所在	-9.68361
俾	-9.68413
其實	-9.68444
神宗	-9.68624
守之	-9.6863
何哉	-9.68647
塗	-9.68663
此其	-9.68696
巨	-9.68706
曰昔	-9.68775
名也	-9.68806
臧	-9.68821
多矣	-9.68905
明年	-9.68945
史官	-9.69012
管仲	-9.69149
二字	-9.69222
之術	-9.69275
収	-9.69342
愧	-9.69421
簒	-9.69473
攸	-9.69507
狐	-9.6952
以自	-9.69591
不免	-9.69602
古人	-9.69741
鸞	-9.69747
相與	-9.69761
京兆	-9.69852
完	-9.69938
柄	-9.7021
壘	-9.70218
注見晉	-9.70253
曰君	-9.70293
肇	-9.7033
環	-9.70372
三人	-9.70495
大怒	-9.70584
遣人	-9.70678
十七年	-9.70736
慕容	-9.70797
本朝	-9.70815
疆	-9.70898
日月	-9.70914
失之	-9.70945
拒之	-9.70949
侮	-9.71135
戾	-9.71164
不已	-9.71164
稽	-9.71181
諸州	-9.7122
之下	-9.71271
爽	-9.71348
本傳	-9.71396
鬼	-9.71415
溪	-9.71419
之患	-9.7144
臣祖禹曰	-9.71475
韶	-9.71558
従	-9.71686
偃	-9.71722
黒	-9.71727
譙	-9.71751
參知政事	-9.71762
罕	-9.72076
東魏	-9.72112
拘	-9.7214
州郡	-9.72141
稷	-9.72378
讒	-9.7244
纂	-9.72472
言者	-9.7258
之役	-9.72603
文宗	-9.72615
殺人	-9.72699
沔	-9.72992
𤣥宗	-9.73106
廉	-9.73147
而又	-9.73208
數萬	-9.73388
其間	-9.7344
東西	-9.7347
博士	-9.73586
何其	-9.73599
宼	-9.73642
曰陛下	-9.73665
未聞	-9.73722
束	-9.73779
莒	-9.73803
其民	-9.73836
其勢	-9.73876
數十	-9.7391
宛	-9.73945
藝	-9.73952
穀	-9.74041
人情	-9.74082
檢	-9.74189
跡	-9.74194
匹	-9.74254
百里	-9.74413
羡	-9.74508
遲	-9.74564
抱	-9.74569
育	-9.74572
太師	-9.74578
秋八月	-9.74588
得失	-9.74713
曉	-9.74731
麻	-9.74886
排	-9.74948
漢中	-9.74951
言其	-9.75019
復置	-9.75051
鄰	-9.75133
妻子	-9.75161
未至	-9.75214
詰	-9.75256
哲	-9.7526
地名	-9.75419
而卒	-9.75587
考證	-9.75653
戊	-9.7566
窺	-9.75675
以兵	-9.75694
不勝	-9.75731
東宫	-9.75763
逮	-9.75791
逢	-9.75829
仇	-9.75874
傑	-9.75875
胄	-9.75954
議者	-9.76168
註	-9.76307
郡名注見漢	-9.76308
殂	-9.76349
大業	-9.76356
裔	-9.76359
之才	-9.76436
又有	-9.76494
二州名	-9.76522
曜	-9.76584
瑞	-9.77037
三國	-9.77048
䖍	-9.77075
失其	-9.77107
益州	-9.77242
葛	-9.77284
陜西	-9.77311
丑	-9.77359
抵	-9.77368
等皆	-9.7737
謗	-9.77446
姜	-9.77681
副使	-9.77692
中興	-9.77708
播	-9.77735
巖	-9.77739
功臣	-9.77748
上疏	-9.77779
係	-9.77816
吁	-9.77878
䟽	-9.77927
為政	-9.77941
上皇	-9.77953
圗	-9.78131
詭	-9.78194
以告	-9.78221
之制	-9.78302
於外	-9.78366
丈	-9.78417
其道	-9.78435
無忌	-9.78455
似道	-9.78506
距	-9.78556
取其	-9.78669
珠	-9.7876
曰朕	-9.78773
涉	-9.78911
玩	-9.78922
協	-9.79068
不容	-9.79084
所殺	-9.79181
偉	-9.79261
雞	-9.79283
州注見	-9.79385
諸子	-9.79552
採	-9.79614
含	-9.7962
不應	-9.7963
慙	-9.79642
呂	-9.79704
漢之	-9.79736
尼	-9.79936
髪	-9.79952
長沙	-9.79985
伺	-9.79996
買	-9.80018
鑿	-9.80023
頌	-9.80075
使其	-9.80159
代宗	-9.80252
璽	-9.80252
訴	-9.80293
訟	-9.80316
閲	-9.80407
三百	-9.80452
趙王	-9.80511
二十年	-9.80529
其家	-9.80616
柱	-9.80682
册	-9.80688
悖	-9.80769
建武	-9.80773
夕	-9.80965
分注	-9.80982
可不	-9.81187
夏五月	-9.81269
之論	-9.8135
進退	-9.81354
風俗	-9.81392
巡	-9.81451
快	-9.81497
帛	-9.81522
茅	-9.81534
見之	-9.81584
忠臣	-9.81661
宫室	-9.81707
泥	-9.81865
庾	-9.81909
歸之	-9.82004
以見	-9.82074
孫權	-9.82083
不亦	-9.82095
霍	-9.82164
也於是	-9.82222
弔	-9.82232
輕重	-9.82246
巫	-9.8226
叡	-9.82298
慢	-9.823
祿山	-9.823
無功	-9.82331
較	-9.82337
志云	-9.82404
弟子	-9.82466
癸	-9.82466
數千	-9.82536
其功	-9.82582
可見	-9.82587
廷尉	-9.82649
晉王	-9.82685
十七	-9.82692
照	-9.827
内史	-9.82806
青州	-9.82918
擁	-9.8293
析	-9.82973
流涕	-9.8306
消	-9.83063
國人	-9.83121
滋	-9.83187
下詔	-9.83242
琳	-9.83289
溺	-9.83329
牢	-9.83332
書殺	-9.83388
旗	-9.83418
縁	-9.83427
之國	-9.83441
脫	-9.83446
伸	-9.83447
準	-9.8348
履祥按	-9.83483
此則	-9.83554
封禪	-9.83556
邢	-9.83665
嫁	-9.83719
無道	-9.83799
繇	-9.83807
四夷	-9.83817
三千	-9.83834
禽	-9.84017
而下	-9.84032
未能	-9.8407
肥	-9.84173
昬	-9.84219
駿	-9.84221
貸	-9.84221
潁	-9.84226
周之	-9.8432
矣而	-9.84419
湛	-9.84463
遼東	-9.84503
叚	-9.84571
台	-9.84584
墜	-9.84587
璧	-9.84588
待之	-9.84594
見於	-9.84611
枉	-9.84641
世民	-9.84662
炎	-9.84669
朔方	-9.84731
宋人	-9.84734
四十	-9.849
穿	-9.84987
泰山	-9.85037
宇	-9.8514
也且	-9.85172
檄	-9.85201
湘	-9.85236
也然則	-9.85254
紫	-9.85337
𦵏	-9.85377
之職	-9.85385
楚人	-9.8539
䜛	-9.85394
遏	-9.85418
監軍	-9.8551
復以	-9.85512
去聲	-9.85625
安國	-9.85631
東北	-9.85642
之文	-9.85682
劭	-9.85713
而能	-9.85761
誼	-9.8577
軰	-9.85777
子儀	-9.85801
誦	-9.85811
巴延	-9.85812
安能	-9.85825
僭	-9.85841
燕王	-9.85969
其書	-9.86024
事之	-9.86033
省入	-9.86149
彪	-9.86161
踈	-9.86164
鼔	-9.8619
為人	-9.86372
明矣	-9.86377
故名	-9.86519
娶	-9.86548
之難	-9.86645
關中	-9.86794
髙帝	-9.86802
譛	-9.86846
德宗	-9.86886
暮	-9.8698
寕	-9.87069
腹心	-9.87103
大梁	-9.87228
十九年	-9.87229
於上	-9.8727
盗賊	-9.87303
皆不	-9.87348
以備	-9.87397
曰汝	-9.87418
其弟	-9.87442
七十	-9.87613
也又	-9.87655
可知	-9.87724
從事	-9.8776
無事	-9.87767
朱子	-9.87767
琦	-9.87784
冬十一月	-9.87797
豫章	-9.87813
滛	-9.87818
者非	-9.87864
世宗	-9.87936
春二月	-9.87947
從容	-9.88
其母	-9.8804
將帥	-9.88044
紀綱	-9.88106
未必	-9.88107
大抵	-9.88108
寨	-9.88123
喬	-9.88172
咨	-9.88248
李氏	-9.88322
不聼	-9.88384
邱	-9.88557
二百	-9.88648
之主	-9.88702
以上	-9.88709
十餘萬	-9.88719
亦以	-9.88786
災異	-9.88792
之外	-9.8892
祝	-9.89031
曰卿	-9.89044
局	-9.89055
肯	-9.89057
國史	-9.89106
漢王	-9.89136
裂	-9.89354
停	-9.89416
車駕	-9.89417
杞	-9.89452
河西	-9.89498
戰于	-9.89651
秦檜	-9.89681
征伐	-9.89707
為大	-9.89769
腹	-9.89781
斤	-9.898
鮮卑	-9.89821
騰	-9.89842
詆	-9.89854
豪傑	-9.89878
周禮	-9.89881
索隠曰	-9.89996
上表	-9.90079
其能	-9.90081
酉	-9.90166
纔	-9.90217
醉	-9.90266
判官	-9.90419
臯	-9.90441
鮮	-9.90492
瞻	-9.9066
校尉	-9.90673
祗	-9.90697
仲淹	-9.90756
官軍	-9.90875
不幸	-9.90941
鈞	-9.90973
猶有	-9.91024
帥衆	-9.91027
敝	-9.91032
十八	-9.91055
一言	-9.91061
墮	-9.91067
耗	-9.91072
昇	-9.91074
羞	-9.91163
宫中	-9.91192
所以為	-9.91249
始皇	-9.91313
歎曰	-9.91314
虢	-9.91356
冝	-9.91422
而復	-9.91434
展	-9.91475
皆為	-9.91489
謀反	-9.91635
自立	-9.91645
闗中	-9.91665
而天下	-9.918
王莽	-9.91811
中丞	-9.91819
溝	-9.9185
徇	-9.91948
論之	-9.92067
租	-9.92099
若是	-9.9218
括地志云	-9.92194
驛	-9.92307
繹	-9.92309
迷	-9.92312
唐之	-9.9233
料	-9.92334
郤	-9.92336
賴	-9.92379
朋黨	-9.92436
平原	-9.92467
總管	-9.92497
精兵	-9.92499
吏民	-9.92641
軍事	-9.92718
天子之	-9.92724
罷之	-9.92741
梁王	-9.92771
之死	-9.92776
之議	-9.92784
河中	-9.92798
繆	-9.92804
所言	-9.92855
不失	-9.92988
翁	-9.93229
有天下	-9.93307
僖	-9.93352
不必	-9.93411
王氏	-9.93449
不可不	-9.93526
演	-9.93562
以求	-9.93575
粲	-9.93585
繩	-9.93586
績	-9.93641
范陽	-9.93701
之說	-9.93767
遂以	-9.93841
惜哉	-9.93907
張浚	-9.9394
冀州	-9.93981
而行	-9.93993
疲	-9.93993
不死	-9.94001
灌	-9.94016
怯	-9.94045
王安石	-9.94057
陋	-9.94096
孔子曰	-9.94101
以是	-9.94105
豈得	-9.94116
者則	-9.94118
太史	-9.94166
何不	-9.94235
恣	-9.94239
而止	-9.94276
内侍	-9.94313
晉主	-9.94362
以成	-9.94387
十八年	-9.94396
之賢	-9.94425
恱	-9.94442
媚	-9.9448
不正	-9.94529
注見唐	-9.94536
河内	-9.94667
受其	-9.94689
其中	-9.94734
無復	-9.94833
皇子	-9.94839
范祖禹	-9.94899
惠帝	-9.94906
蹈	-9.94939
安定	-9.94941
平王	-9.94948
之語	-9.94967
後魏	-9.94991
不顧	-9.9501
自為	-9.95045
下書	-9.95075
制度	-9.95205
常山	-9.95212
郡國	-9.95239
自今	-9.95255
謨	-9.95266
贖	-9.95267
武宗	-9.9532
耿	-9.95322
靣	-9.95325
孟子曰	-9.9535
之情	-9.95357
景帝	-9.95378
死於	-9.9538
以聞	-9.95414
帳	-9.95419
之利	-9.95427
禮義	-9.95502
狥	-9.95523
聰	-9.95599
甞	-9.95606
嶺南	-9.95632
外戚	-9.95636
汗	-9.95693
云云	-9.95721
欲立	-9.95723
潘	-9.95731
一名	-9.9574
詢	-9.95766
汝南	-9.95772
懸	-9.95773
弛	-9.95812
臣子	-9.95828
弑其君	-9.95854
昧	-9.95868
大破之	-9.95904
在於	-9.95921
仲尼	-9.95965
莫敢	-9.96105
艾	-9.96117
漢之縣名屬	-9.96142
宦	-9.96146
已而	-9.96195
耳目	-9.96218
之實	-9.9626
裴度	-9.96379
東平	-9.96414
并州	-9.96518
不成	-9.96592
東海	-9.96617
醫	-9.9663
真宗	-9.96692
撓	-9.96716
自將	-9.96835
順帝	-9.96839
長子	-9.96846
潁川	-9.96919
先王之	-9.96985
壇	-9.97048
百萬	-9.97052
苗	-9.97063
也書	-9.97071
靜	-9.97096
無可	-9.97097
陛	-9.97351
可乎	-9.97383
璋	-9.97397
徹	-9.97419
戌	-9.97461
蓄	-9.97511
侃	-9.97522
天理	-9.97522
璘	-9.97565
波	-9.97596
不待	-9.97625
不食	-9.97642
髙麗	-9.97647
利害	-9.97721
萬世	-9.97737
不疑	-9.97768
生民	-9.97836
蒙	-9.97853
沛	-9.97906
非有	-9.97969
民間	-9.97996
之理	-9.98039
悅	-9.98053
大水	-9.98164
之書	-9.98216
侍郎	-9.9829
亥	-9.98302
漢武	-9.98502
之權	-9.98503
虧	-9.98524
譏之	-9.98535
諸道	-9.98678
者哉	-9.98736
而書	-9.98746
可見矣	-9.98749
大軍	-9.98809
伐之	-9.98809
嬰	-9.98853
魯侯	-9.98863
睿	-9.98864
惇	-9.98893
托	-9.98907
庻	-9.98909
踵	-9.98918
奏事	-9.98945
為天下	-9.98959
恵	-9.98979
之惡	-9.98992
亦可	-9.98993
君子之	-9.9908
道也	-9.99088
孝武	-9.99127
必不	-9.99139
上以	-9.99164
柔然	-9.99184
司馬光	-9.99208
旋	-9.99221
其主	-9.99233
□	-9.99254
帥師	-9.99269
敷	-9.99308
有大	-9.99318
久矣	-9.99409
返	-9.99484
其不	-9.99511
群	-9.9956
緯	-9.99712
臣下	-9.99734
不惟	-9.99759
玠	-9.99764
飬	-9.99798
級	-9.99798
後漢	-9.998
一年	-9.99807
安帝	-9.99915
饒	-9.9999
勃	-9.99997
其義	-10.0009
明堂	-10.0009
鄂	-10.0012
以致	-10.0014
山陽	-10.0014
皓	-10.0016
哈	-10.0017
終不	-10.0021
冒	-10.0023
評	-10.0027
世之	-10.0027
隂陽	-10.0028
三司	-10.0031
無異	-10.0033
平陽	-10.0034
進士	-10.0036
卒子	-10.0051
瓘	-10.0052
淮西	-10.0054
頴	-10.0065
之盛	-10.0066
頒	-10.0071
他人	-10.0072
之弊	-10.0074
曰公	-10.0074
嶽	-10.0076
雍州	-10.008
城縣	-10.0084
互	-10.0094
群臣	-10.0096
大將	-10.0102
六國	-10.0105
諸路	-10.0106
忤	-10.0113
頼	-10.0116
課	-10.0117
注見周赧王	-10.014
謂曰	-10.0149
五百	-10.0166
諫曰	-10.0166
譚	-10.0166
不報	-10.0166
晉人	-10.0172
入于	-10.0174
詩曰	-10.0178
得志	-10.0181
不悦	-10.0188
犬	-10.0191
溫	-10.0193
楚王	-10.0196
閭	-10.0208
其餘	-10.0213
咸陽	-10.0213
者何	-10.0215
刋	-10.0216
於人	-10.0222
再書	-10.0227
熙	-10.0229
亳	-10.0232
賔客	-10.0256
反覆	-10.0259
正統	-10.0259
稱臣	-10.0261
不問	-10.0263
昭宗	-10.0266
則知	-10.027
契丹主	-10.0295
熹	-10.0296
史通	-10.0297
洋	-10.0297
奕	-10.0298
欵	-10.0299
捷	-10.03
事也	-10.0302
之任	-10.0311
山在	-10.0319
善惡	-10.0323
當以	-10.0339
不善	-10.0343
辭也	-10.0344
禁中	-10.0349
額	-10.035
萬餘	-10.0351
甲子	-10.0352
宇文	-10.0364
國事	-10.0368
溢	-10.0374
小人之	-10.0387
揆	-10.0396
標	-10.0397
吐	-10.04
武后	-10.0405
西南	-10.0406
矦	-10.0421
鋒	-10.0422
留守	-10.0429
此固	-10.0435
諒	-10.0441
為一	-10.0447
北齊	-10.0449
聖人之	-10.0455
之學	-10.0457
此乃	-10.0462
偶	-10.0477
元帥	-10.0479
大司馬	-10.048
隐	-10.0487
練	-10.0492
林甫	-10.0493
廢之	-10.0503
深入	-10.0506
不合	-10.0508
河陽	-10.0514
童	-10.0515
不仁	-10.0527
夏人	-10.0531
出兵	-10.0534
曹公	-10.0537
高麗	-10.054
因其	-10.0541
朱全忠	-10.0543
脅	-10.0544
諸國	-10.0547
以禮	-10.0555
此言	-10.0558
往往	-10.0566
天道	-10.0566
如何	-10.0571
涼	-10.0572
所當	-10.0573
論曰	-10.0579
者多	-10.0581
吐谷渾	-10.0587
奪其	-10.0589
六十	-10.0591
柳	-10.0591
欒	-10.0591
齋	-10.0594
萌	-10.0595
童貫	-10.0596
參軍	-10.0596
千餘	-10.0598
金帛	-10.0599
區區	-10.06
之道也	-10.0602
䕫	-10.0607
為君	-10.062
本作	-10.0627
都尉	-10.0629
卦	-10.0632
侯景	-10.0632
隔	-10.0633
狼	-10.0635
算	-10.0635
洞	-10.064
昶	-10.0645
蠻夷	-10.0655
江州	-10.0655
為主	-10.0659
魏人	-10.0673
千人	-10.0675
卧	-10.0677
行事	-10.0681
衆心	-10.0685
洗	-10.0689
經世	-10.0694
出奔	-10.0695
萬物	-10.0707
夫以	-10.0708
也綱目	-10.0712
天之	-10.0712
莫能	-10.0714
太廟	-10.0721
蒼	-10.0724
其有	-10.0725
踐	-10.0729
味	-10.0736
鬭	-10.0738
百餘	-10.0742
敗之	-10.0744
直言	-10.0746
以来	-10.0749
數百	-10.0756
去之	-10.0763
太公	-10.0765
有以	-10.0767
倡	-10.077
旬	-10.077
入城	-10.0772
召公	-10.0774
國語	-10.078
卯	-10.078
上黨	-10.0782
祈	-10.0785
酷	-10.0785
儼	-10.0786
王命	-10.0786
號曰	-10.0789
淪	-10.079
三十里	-10.08
或作	-10.0805
改屬	-10.0808
百餘人	-10.081
君父	-10.0813
止之	-10.082
事在	-10.0821
駐	-10.0826
苛	-10.0826
也此	-10.0826
十九	-10.0827
陽縣	-10.0829
糾	-10.0832
何罪	-10.0833
獸	-10.0834
二千石	-10.0841
晚	-10.0848
各有	-10.0877
穎	-10.0879
而殺之	-10.0882
洲	-10.0883
范氏曰	-10.0885
苟	-10.0886
視之	-10.0886
皇太后	-10.0889
一百	-10.0889
出師	-10.0903
不義	-10.0906
縣名屬	-10.0908
而出	-10.0916
雖然	-10.0923
渡河	-10.0923
叱	-10.0931
捐	-10.0931
氷	-10.0935
睦	-10.0936
斃	-10.0937
柏	-10.0937
奏請	-10.0937
憾	-10.0937
國名	-10.0938
土地	-10.0939
猶未	-10.0952
何必	-10.0953
其失	-10.0957
禮也	-10.0958
數日	-10.0961
號令	-10.0963
考之	-10.0967
數年	-10.0967
文學	-10.0976
徼	-10.0977
汾	-10.0977
之業	-10.098
元昊	-10.0982
分兵	-10.0989
滎陽	-10.0999
閤	-10.1016
武昌	-10.1017
宣王	-10.1019
故其	-10.1025
誨	-10.1026
乃命	-10.1031
板	-10.1034
如此則	-10.1037
塵	-10.1037
敗走	-10.1038
李綱	-10.1041
莊公	-10.1043
其為	-10.1045
授之	-10.1061
囘	-10.1081
河間	-10.1082
願陛下	-10.1083
未及	-10.1085
賑	-10.1087
江東	-10.1094
者有	-10.1098
百年	-10.1108
吳王	-10.1111
處之	-10.1117
更名	-10.112
縣西	-10.1128
婁	-10.1131
鞅	-10.1132
陟	-10.1132
治亂	-10.1133
烏珠	-10.1133
柴	-10.1133
題	-10.1134
悼	-10.1135
敘	-10.1142
故綱目	-10.1146
事君	-10.1152
宋之	-10.1156
曷	-10.1166
遂與	-10.1172
見漢	-10.118
坊	-10.1182
状	-10.1187
劉向	-10.1188
沂	-10.1188
以正	-10.1189
其臣	-10.1192
唐初	-10.1193
効	-10.1196
後周	-10.1203
東坡	-10.1208
凉州	-10.1212
宥	-10.1218
晉書	-10.1227
或問	-10.123
公曰	-10.1232
未知	-10.1233
薊	-10.1234
有疾	-10.1235
顥	-10.1239
悍	-10.1243
究	-10.1243
建興	-10.1244
迭	-10.1245
不服	-10.1246
繼之	-10.1247
萬里	-10.1251
州治	-10.1252
之戒	-10.1254
無足	-10.1273
五帝	-10.1275
駢	-10.1279
嬖	-10.1288
未詳處所	-10.129
挺	-10.129
一朝	-10.1292
冕	-10.1296
讀書	-10.1296
婢	-10.1297
法度	-10.1305
之憂	-10.1329
鉤	-10.133
城下	-10.133
曰若	-10.1333
寔	-10.1339
之末	-10.1339
滕	-10.1341
饗	-10.1347
之氣	-10.1349
霍光	-10.1357
不盡	-10.137
敗績	-10.1376
方士	-10.1379
於民	-10.1381
雲中	-10.1381
之號	-10.1382
岱	-10.1386
官名	-10.1391
納之	-10.1396
綿	-10.1397
吞	-10.1406
奄	-10.1412
以歸	-10.1423
之子也	-10.1431
隴西	-10.1434
膺	-10.1438
囂	-10.1444
大國	-10.1444
京城	-10.1445
臂	-10.1448
侍御史	-10.1451
鳳翔	-10.1457
畿	-10.1469
禦之	-10.1469
而歸	-10.147
所宜	-10.1471
二州	-10.1481
上疏曰	-10.1485
之風	-10.1486
可為	-10.1488
牽	-10.1493
𤓰	-10.1494
之兵	-10.1494
項羽	-10.1498
寓	-10.1499
勅	-10.1501
言曰	-10.1505
釐	-10.1506
閑	-10.1506
無益	-10.1525
者其	-10.1534
亦無	-10.1546
耀	-10.155
艱	-10.1551
敎	-10.1555
所得	-10.1557
所部	-10.1559
黑	-10.156
貴人	-10.1571
其才	-10.1577
以李	-10.1588
温公	-10.1594
府庫	-10.1594
鑑	-10.1601
减	-10.1604
稱王	-10.1604
饋	-10.1606
之過	-10.1609
凌	-10.1609
狗	-10.1612
而進	-10.1612
徧	-10.1612
包	-10.1613
終綱目書	-10.1615
荘	-10.1619
熙寧	-10.1631
劉裕	-10.164
鈔	-10.1646
韻	-10.1648
砦	-10.1653
犇	-10.1654
唐書	-10.1656
應之	-10.1657
廹	-10.166
轍	-10.1661
戈	-10.1664
碑	-10.1666
昆	-10.1668
大喜	-10.167
二世	-10.167
其所以	-10.1676
弑君	-10.1681
帝以	-10.1683
兖州	-10.1688
太常	-10.1689
錡	-10.1703
自謂	-10.1706
嶠	-10.1711
秦之	-10.1717
斂	-10.1717
鐘	-10.172
兇	-10.1721
汙	-10.1722
州府	-10.1727
陳留	-10.1727
得罪	-10.1729
治之	-10.1732
注云	-10.1733
豫州	-10.1737
聰明	-10.1739
第一	-10.1741
渡江	-10.1746
氐	-10.1752
則無	-10.1763
絹	-10.1763
逵	-10.1771
鄒	-10.1774
自取	-10.1782
天變	-10.1783
僚	-10.1788
入見	-10.1789
不平	-10.179
皇太子	-10.1794
興元	-10.1797
謂其	-10.18
之數	-10.1802
二千	-10.1802
滅之	-10.1807
南郡	-10.181
大王	-10.1811
其職	-10.1814
廸	-10.1814
歆	-10.1814
刃	-10.1823
雀	-10.1825
閒	-10.1828
辦	-10.1829
曠	-10.1831
賞罰	-10.1835
攘	-10.1835
於朝	-10.1836
不利	-10.1839
慰	-10.184
有三	-10.1847
責之	-10.1848
未盡	-10.186
不能用	-10.1862
告之	-10.1872
未嘗不	-10.1873
截	-10.1876
而不可	-10.1879
札	-10.1879
時人	-10.1879
確	-10.188
不忘	-10.1899
豈能	-10.1901
注見漢光武建武	-10.1902
宿衛	-10.1904
近臣	-10.1908
而用之	-10.1919
至今	-10.192
無他	-10.1922
其惡	-10.1923
未有書	-10.1933
昭公	-10.1941
此亦	-10.1943
茶	-10.1943
請以	-10.1944
廢立	-10.1946
元元年	-10.195
盜賊	-10.1955
之餘	-10.1956
諸将	-10.196
子之	-10.1962
宋公	-10.1965
襄公	-10.1969
有言	-10.1969
與其	-10.1972
罵	-10.1979
琮	-10.1982
綰	-10.1989
而言	-10.1989
謫	-10.199
綂	-10.1991
之敗	-10.1994
給事中	-10.1996
一書	-10.1997
逞	-10.1999
為名	-10.2003
怒曰	-10.2004
泌	-10.2005
陞	-10.2006
什	-10.2013
姦臣	-10.2013
故書	-10.2015
春秋時	-10.2019
和親	-10.2024
一切	-10.2028
乃遣	-10.2036
梟	-10.204
十餘	-10.2044
檀	-10.2044
膳	-10.2044
柵	-10.2046
塔	-10.2047
搆	-10.2048
像	-10.2049
泗	-10.205
元和	-10.2058
未詳	-10.2059
矣今	-10.2064
無一	-10.2075
有二	-10.2077
韓信	-10.2078
加以	-10.2091
邾	-10.2092
摩	-10.2099
在外	-10.2099
㑹于	-10.2099
上帝	-10.2101
慧	-10.2102
廣州	-10.2102
齎	-10.2104
姪	-10.2104
鞭	-10.2104
也嗚呼	-10.2112
座	-10.2112
欽定四庫全書	-10.2114
夏侯	-10.2118
伐鄭	-10.212
萬餘人	-10.2121
當是時	-10.2122
中尉	-10.2142
新法	-10.2154
不絶	-10.2154
特穆爾	-10.2157
荷	-10.2162
閏	-10.2163
也自	-10.2164
譖	-10.2165
而欲	-10.2168
太學	-10.2173
將相	-10.2175
賜死	-10.2181
用人	-10.2186
乃與	-10.2186
宗社	-10.2188
知人	-10.2191
仍舊	-10.2193
混	-10.2194
斬首	-10.2197
老子	-10.2201
云爾	-10.2205
教之	-10.2206
苻	-10.2208
為天子	-10.2213
潮	-10.2217
彧	-10.2218
凝	-10.2219
覩	-10.2219
翰林	-10.2223
其説	-10.2225
孝宗	-10.2227
戎狄	-10.2229
之比	-10.223
縣東	-10.224
萬一	-10.2252
臨安	-10.2255
靈公	-10.2256
琅邪	-10.2257
劍	-10.2269
穴	-10.2271
固辭	-10.2273
将兵	-10.2276
郡名注	-10.2278
二十五年	-10.2282
受之	-10.2286
不信	-10.2292
徳裕	-10.2294
通作	-10.2298
氏曰	-10.2301
矣夫	-10.2309
姦邪	-10.232
丹陽	-10.2321
此皆	-10.2323
堡	-10.2326
促	-10.2329
銓	-10.2329
揺	-10.2329
魏徴	-10.2333
江西	-10.2343
無窮	-10.2351
小國	-10.2366
有一	-10.2368
不通	-10.2375
太甲	-10.2377
禍亂	-10.238
邕	-10.2382
晝	-10.2384
國名注見	-10.2386
帝崩	-10.2387
遐	-10.2389
官屬	-10.239
固守	-10.2392
昱	-10.2392
遷都	-10.2394
闇	-10.2395
後主	-10.2401
請降	-10.2404
其可	-10.2407
唐室	-10.2408
慶厯	-10.2409
於前	-10.2418
域	-10.2427
太和	-10.2428
遼主	-10.2437
不聞	-10.2437
唐虞	-10.2438
嘆	-10.2439
更始	-10.2439
望之	-10.2441
訖	-10.2444
儻	-10.2447
歐陽	-10.2447
萇	-10.2447
必欲	-10.2447
彬	-10.2448
恬	-10.2449
力戰	-10.2456
氏之	-10.2458
斛	-10.2459
於齊	-10.2461
安危	-10.2466
駭	-10.2472
可得	-10.2474
祁	-10.2481
存亡	-10.2482
自守	-10.2489
實録	-10.2492
贍	-10.2493
而退	-10.2497
詔曰	-10.2499
坦	-10.2504
妹	-10.2511
縣名注見漢	-10.2517
東京	-10.2519
而反	-10.252
於後	-10.2533
秦人	-10.2533
清河	-10.2553
黄門	-10.2554
豹	-10.256
後宫	-10.2562
㸃	-10.2564
縛	-10.2564
幕	-10.2565
所居	-10.2568
三萬	-10.2569
測	-10.257
臯陶	-10.257
億	-10.2572
安有	-10.2574
麾下	-10.258
縣令	-10.2582
王旦	-10.2584
江都	-10.2586
於其	-10.2593
留後	-10.2594
中國之	-10.2598
是嵗	-10.2603
縣地	-10.261
卒以	-10.2611
因以	-10.2613
信之	-10.2617
鮑	-10.2619
閻	-10.262
譴	-10.2621
枝	-10.2621
不下	-10.2623
朋	-10.2624
價	-10.2626
穢	-10.2626
弭	-10.2628
于此	-10.2642
追之	-10.2648
太傅	-10.2653
自此	-10.2657
也是故	-10.2658
其本	-10.2661
西伯	-10.2665
其文	-10.2668
大功	-10.2676
太保	-10.2677
之力	-10.2682
属	-10.2683
握	-10.2691
禹貢	-10.2692
書討	-10.2697
義也	-10.2704
李克用	-10.2707
為丞相	-10.2713
吳越	-10.2728
何足	-10.2729
天寳	-10.2733
羲	-10.2738
諫官	-10.2739
銳	-10.2743
披	-10.2746
以為然	-10.2748
袁紹	-10.2753
濮	-10.2754
不忠	-10.2757
庶幾	-10.2757
得免	-10.276
九州	-10.2761
死而	-10.2761
三十年	-10.2774
本漢	-10.2782
逺矣	-10.2782
大小	-10.2786
不暇	-10.2788
高帝	-10.2789
恢	-10.2799
圭	-10.2801
彛	-10.2801
弄	-10.2802
奉天	-10.2803
渤海	-10.2804
暗	-10.2806
燾	-10.2806
所欲	-10.2815
太史公	-10.2826
沛公	-10.2826
諡曰	-10.2826
匹夫	-10.2827
韓魏	-10.2828
昔者	-10.283
表請	-10.2834
後之	-10.2837
殄	-10.2849
或以	-10.2861
彈	-10.2862
顒	-10.2862
輪	-10.2863
償	-10.2863
劇	-10.2865
涇	-10.2866
妙	-10.2867
粗	-10.2868
潔	-10.2868
子也	-10.2869
勒兵	-10.2869
論語	-10.287
譯	-10.2871
不進	-10.2882
漢武帝	-10.2884
昭烈	-10.2888
金陵	-10.2889
迄	-10.2901
楊氏	-10.2901
綽	-10.2902
皇甫	-10.2905
入冦	-10.2908
武徳	-10.2909
至矣	-10.2914
五千	-10.2915
囊	-10.2916
潤	-10.292
沃	-10.2923
嬴	-10.2924
都統	-10.2924
摧	-10.2926
哀帝	-10.2926
鬻	-10.2928
黃	-10.2931
非其	-10.2937
漁	-10.2941
濟南	-10.2943
劉備	-10.2966
尊號	-10.2967
闢	-10.2977
侂胄	-10.2978
愆	-10.2982
今乃	-10.2984
随	-10.2985
壤	-10.2985
由此	-10.2986
邈	-10.2988
禀	-10.2988
數人	-10.2988
男女	-10.2995
之黨	-10.2996
之弟	-10.2997
一時之	-10.2997
大破	-10.2999
行省	-10.3001
不肖	-10.3004
之資	-10.3005
石勒	-10.3006
愍	-10.3006
蜀主	-10.3013
問之	-10.302
辜	-10.3021
中書令	-10.3027
赦之	-10.3031
曰天	-10.3035
無故	-10.3036
於内	-10.3037
卽	-10.3037
雖欲	-10.3038
有隙	-10.3039
掾	-10.3041
遮	-10.3042
左丞	-10.3044
賁	-10.3048
紏	-10.3048
寘	-10.305
頥	-10.3051
洽	-10.3052
於下	-10.3052
名曰	-10.3053
蛇	-10.3053
宣宗	-10.3054
耶律	-10.3055
而亡	-10.3061
其始	-10.3062
太皇太后	-10.3065
秘	-10.3073
入宫	-10.3074
行臺	-10.3074
雖不	-10.3091
所能	-10.3093
尚可	-10.3095
為臣	-10.3097
江夏	-10.3099
㫁	-10.3102
按一統志	-10.3102
用史記	-10.3104
觀察使	-10.3107
蘓	-10.3109
五行	-10.311
鎬	-10.311
何以書	-10.3112
雉	-10.3113
畝	-10.312
而自	-10.3123
秦州	-10.3124
魏博	-10.3127
瑜	-10.3138
魏公	-10.3155
詔書	-10.3164
芳	-10.3165
敵國	-10.3165
濤	-10.3165
贄	-10.3166
稔	-10.3169
笑曰	-10.3169
儁	-10.3171
故城在	-10.3172
禱	-10.3175
槩	-10.3177
嫉	-10.3179
克之	-10.318
泄	-10.3186
之節	-10.3192
以天下	-10.3204
來朝	-10.3208
以安	-10.3212
勁	-10.3213
輔政	-10.3216
綱目於	-10.3217
蝗	-10.3221
又何	-10.3225
湏	-10.3225
餉	-10.3228
區	-10.3229
弩	-10.3231
戯	-10.3231
果何	-10.3232
飲酒	-10.3232
或謂	-10.3233
宫人	-10.3234
朴	-10.3235
了	-10.3236
易曰	-10.3236
憐	-10.3237
矣此	-10.3238
匱	-10.3238
西河	-10.3243
探	-10.3243
閱	-10.3243
莊子	-10.3253
之位	-10.3256
魏王	-10.326
遂使	-10.3275
紹興	-10.3275
不屈	-10.3277
其時	-10.3279
天地之	-10.3279
一也	-10.3282
擊破之	-10.3283
有異	-10.3286
疇	-10.3287
棘	-10.3292
桃	-10.3294
瑕	-10.3294
婚	-10.3295
王師	-10.3296
衛侯	-10.3304
回紇	-10.3305
飲食	-10.3324
箕子	-10.3332
定州	-10.3333
有是	-10.3334
屯田	-10.3338
之美	-10.3343
斌	-10.3346
蹇	-10.3357
牀	-10.3358
障	-10.3359
不易	-10.3359
牒	-10.3361
汪	-10.3361
則亦	-10.3364
儒者	-10.3364
孚	-10.3365
憑	-10.3367
尚書令	-10.3368
僻	-10.3368
索隱曰	-10.3369
郡治	-10.3371
兖	-10.3373
宣公	-10.3373
不得不	-10.3377
之内	-10.3383
昭帝	-10.3389
圍之	-10.3397
殿下	-10.3398
翰林學士	-10.3406
一曰	-10.3418
主上	-10.3419
活	-10.3424
希烈	-10.3425
死節	-10.3426
㓕	-10.3427
後人	-10.3427
惜之	-10.3427
冗	-10.3431
詠	-10.3433
曷為	-10.3435
正人	-10.3443
數月	-10.3447
士民	-10.3459
班固	-10.3466
濁	-10.3468
牟	-10.3469
麾	-10.347
五萬	-10.3474
朝政	-10.3477
也按	-10.348
漢置	-10.3482
則不	-10.3483
弁	-10.3484
村	-10.3488
龎	-10.3488
簿	-10.3489
始此	-10.349
圓	-10.3494
始於	-10.3495
莫若	-10.3497
焦	-10.3498
姦人	-10.3501
之體	-10.3501
初改	-10.3504
壽春	-10.3506
朝夕	-10.3513
布衣	-10.3517
臣之	-10.3524
生於	-10.3528
罪之	-10.3528
於是乎	-10.3528
措	-10.353
疑之	-10.353
境内	-10.3532
舊制	-10.3538
則天下	-10.3539
恐其	-10.3539
大亂	-10.3541
國公	-10.3542
非所以	-10.3543
軍旅	-10.3544
之本	-10.3544
泚	-10.355
之分	-10.3553
陂	-10.3555
淑	-10.3556
薪	-10.3556
故能	-10.3559
艱難	-10.3564
歴代名賢確論卷	-10.3572
吕氏	-10.3581
方鎮	-10.3587
所載	-10.3587
之意也	-10.3589
從而	-10.3591
伐齊	-10.3595
衣冠	-10.3603
之屬	-10.3604
繕	-10.3605
正其	-10.361
貎	-10.3615
衆皆	-10.3616
奇	-10.3618
蔣	-10.3621
也謂	-10.3621
昭王	-10.3621
遥	-10.3621
賄	-10.3622
何所	-10.3622
俠	-10.3623
邇	-10.3624
久之	-10.3626
晝夜	-10.3627
不止	-10.3628
如故	-10.3629
篡	-10.3629
民心	-10.3629
鬼神	-10.3631
睿宗	-10.3631
是日	-10.3641
千餘人	-10.3641
蕭何	-10.3645
夷簡	-10.3647
女子	-10.3652
處士	-10.3655
自有	-10.3658
笞	-10.3677
為善	-10.3677
之辭也	-10.3678
逐之	-10.3679
旨	-10.368
謚	-10.3681
不可復	-10.3683
舘	-10.3685
前日	-10.3688
禽獸	-10.3689
宣慰	-10.3689
蠧	-10.369
枕	-10.369
溥	-10.3692
四人	-10.3694
郭子儀	-10.3695
郎中	-10.37
寡人	-10.3703
不便	-10.3709
正朔	-10.3711
三輔	-10.3713
西京	-10.372
者謂	-10.3727
滔	-10.3727
其禍	-10.373
是亦	-10.373
䝉古主	-10.373
大同	-10.373
漳	-10.374
指揮使	-10.3744
俸	-10.3746
治天下	-10.3747
也哉	-10.3749
盟于	-10.3751
孽	-10.3751
棺	-10.3751
鞏	-10.3753
揖	-10.3758
冶	-10.3761
瑗	-10.3761
諸郡	-10.3762
天下之大	-10.3764
富弼	-10.3766
文章	-10.3771
乃使	-10.3774
乎此	-10.378
終綱目	-10.3781
秦始皇	-10.3782
武陵	-10.3783
之始	-10.3787
伯夷	-10.3797
其下	-10.3799
贇	-10.381
瓦	-10.3815
之㑹	-10.3816
南海	-10.3816
㦸	-10.3817
之䇿	-10.3817
之家	-10.3818
董卓	-10.3821
書以	-10.3822
亨	-10.3826
言事	-10.383
以取	-10.3832
於天	-10.3832
隋主	-10.3835
子産	-10.3839
有差	-10.3846
起於	-10.3852
列國	-10.3857
置酒	-10.3861
惠王	-10.3863
涕	-10.3878
任之	-10.388
不知其	-10.388
紙	-10.3882
輦	-10.3884
詩書	-10.3884
地理志	-10.3885
邸	-10.3886
頻	-10.3886
鬬	-10.3888
歸于	-10.3889
孝文	-10.389
沉	-10.3891
公卒子	-10.3893
天意	-10.3899
始終	-10.3909
建徳	-10.3923
未㡬	-10.3928
而罷	-10.393
穆宗	-10.3932
嗣源	-10.394
以問	-10.3945
錦	-10.3947
扶風	-10.3949
洮	-10.395
噐	-10.3951
縣南	-10.3954
知所	-10.3955
綜	-10.3955
罹	-10.3955
山川	-10.3959
佑	-10.3962
以罪	-10.3974
水出	-10.3976
而成	-10.3977
紀傳	-10.3977
一統	-10.398
金城	-10.3981
其上	-10.3981
召之	-10.3989
明宗	-10.3989
未易	-10.3993
桓帝	-10.4004
大書	-10.4012
御史大夫	-10.4012
栗	-10.4017
裘	-10.4023
豎	-10.4024
碎	-10.4025
五日	-10.4026
諸葛亮	-10.4027
夫婦	-10.4031
諸臣	-10.4031
郡乾元初復為	-10.4032
不取	-10.4037
進攻	-10.4037
時事	-10.4047
光弼	-10.4047
欲殺	-10.4058
數千人	-10.406
二十三年	-10.4067
之甚	-10.4068
浦	-10.4077
酋	-10.4079
勝負	-10.4081
膽	-10.4082
暢	-10.4088
護	-10.409
塹	-10.409
瀆	-10.4092
事而	-10.4092
熾	-10.4093
猜	-10.4093
賈誼	-10.4094
畔	-10.4095
以張	-10.4096
則必	-10.4098
甥	-10.4098
章惇	-10.4099
公羊	-10.41
𢎞農	-10.41
德裕	-10.4105
原注	-10.4106
其情	-10.4109
所生	-10.411
必以	-10.4115
矣於是	-10.4117
上䟽	-10.4126
世充	-10.4127
父兄	-10.4144
可勝	-10.4144
河朔	-10.4147
尼瑪哈	-10.4149
立子	-10.4152
止於	-10.4157
榜	-10.4158
壻	-10.4159
衮	-10.4159
俯	-10.4162
靈武	-10.4164
一二	-10.4164
同列	-10.4166
一家	-10.4166
烏桓	-10.417
兄子	-10.4174
揚雄	-10.4174
人才	-10.4181
三鎮	-10.4182
叅	-10.4186
其位	-10.4202
陳主	-10.4205
紛	-10.4206
乎曰	-10.422
大明	-10.4224
函	-10.4226
然其	-10.4227
鐡	-10.4228
諸人	-10.423
匪	-10.423
觸	-10.4231
䑕	-10.4235
有此	-10.4236
網	-10.4237
晉之	-10.4244
於秦	-10.4246
襄王	-10.4249
聖賢	-10.425
十里	-10.4252
貴妃	-10.4253
爾雅	-10.4254
語曰	-10.4261
列傳	-10.4262
嗟	-10.4262
固已	-10.4281
恢復	-10.4291
掃	-10.4291
以報	-10.4291
元嘉	-10.4291
臺諫	-10.4292
牲	-10.4294
贓	-10.4295
香	-10.4295
麥	-10.4298
苖	-10.4301
寂	-10.4301
亂臣賊子	-10.4301
其將	-10.4305
嚮	-10.4306
大驚	-10.4307
圖之	-10.4309
罷以	-10.4311
諸葛	-10.4312
之流	-10.4312
經畧	-10.4316
行營	-10.4326
王道	-10.4326
不自安	-10.4327
不自	-10.433
因而	-10.433
三軍	-10.433
十餘人	-10.4337
之象	-10.4338
夏六月	-10.4339
貶之	-10.4341
江左	-10.4356
布哈	-10.4361
拂	-10.4362
恂	-10.4363
馭	-10.4363
不獲	-10.4366
唱	-10.4368
撤	-10.4369
楷	-10.4371
羸	-10.4371
逾	-10.4376
下有	-10.4384
其謀	-10.4386
草木	-10.4387
為文	-10.4397
人所	-10.4404
女真	-10.4415
城南	-10.4416
而入	-10.4417
二萬	-10.4418
王建	-10.4418
愛之	-10.4424
聞其	-10.4427
扈	-10.4429
和議	-10.4433
秦漢	-10.4433
蟲	-10.4433
邯鄲	-10.4434
又改	-10.4435
王公	-10.4437
扼	-10.4438
僊	-10.4439
偕	-10.4439
狡	-10.4441
進兵	-10.4441
底	-10.4442
永興	-10.4442
荅	-10.4442
的	-10.4443
鴈門	-10.4443
綴	-10.4444
賓	-10.4446
廣平	-10.4446
姑息	-10.4448
邠	-10.4455
大矣	-10.4457
議論	-10.4463
將以	-10.4465
而民	-10.4485
不立	-10.4487
滑	-10.4488
無有	-10.4488
釋之	-10.4492
少子	-10.4499
諾	-10.4507
三州	-10.4508
餘衆	-10.4508
道路	-10.4509
阜	-10.451
械	-10.451
矩	-10.4511
日夜	-10.4512
曄	-10.4512
挫	-10.4513
理宗	-10.4515
蔑	-10.4516
逺近	-10.4524
罪人	-10.4527
誤國	-10.4529
不樂	-10.453
人倫	-10.4545
叔父	-10.4548
成敗	-10.4561
黎陽	-10.4563
天監	-10.4569
者所以	-10.457
不恤	-10.4573
此其書	-10.4574
光武建武	-10.4574
倒	-10.4576
薩	-10.458
輜重	-10.4582
頑	-10.4582
桐	-10.4582
與戰	-10.4585
門下	-10.4586
爰	-10.4586
人言	-10.4588
途	-10.4588
逰	-10.4589
然也	-10.4591
冢	-10.4593
嘆曰	-10.4595
國政	-10.4596
者三	-10.4601
也言	-10.4606
固非	-10.4607
湯武	-10.4615
杭州	-10.462
陳平	-10.4627
南詔	-10.4627
勣	-10.4635
冬十二月	-10.4636
下獄	-10.4636
北漢	-10.4637
不知所	-10.4638
大旱	-10.4638
訛	-10.4638
二十萬	-10.4638
奉詔	-10.4644
向使	-10.4648
訥	-10.465
畋	-10.4652
隗	-10.4652
龔	-10.4653
示之	-10.4653
甄	-10.4656
僑	-10.4657
漢主	-10.4658
狎	-10.466
驟	-10.466
剪	-10.4664
沖	-10.4666
朝臣	-10.4673
哲宗	-10.4674
此所以	-10.4675
勛	-10.4675
法也	-10.4683
必先	-10.4684
年號	-10.4684
太康	-10.4686
形勢	-10.4686
為右	-10.4687
而自立	-10.4688
汲	-10.4691
稱其	-10.4694
書弑	-10.47
上有	-10.4702
所由	-10.4704
來降	-10.4707
時有	-10.4709
縣省入	-10.4713
建中	-10.4717
壹	-10.4717
之舉	-10.4718
桂	-10.4722
冇	-10.4723
安南	-10.4725
進取	-10.4727
晨	-10.4727
閹	-10.4728
繡	-10.4729
言也	-10.4729
絲	-10.473
姊	-10.473
巷	-10.473
逋	-10.4731
膏	-10.4731
飯	-10.4732
者乃	-10.4733
降之	-10.4733
鞠	-10.4737
發眀	-10.4737
同姓	-10.4739
不能自	-10.4739
傳位	-10.476
大懼	-10.4763
社稷之	-10.4764
其先	-10.4767
三代之	-10.4769
魏郡	-10.477
欲使	-10.4771
右丞	-10.4772
前代	-10.478
歸於	-10.4781
不納	-10.4781
白馬	-10.4786
曦	-10.4793
伏兵	-10.4794
技	-10.4796
卞	-10.4799
彥	-10.4799
隕	-10.4802
鯀	-10.4803
緣	-10.4803
燭	-10.4804
顗	-10.4805
閏月	-10.4807
骨肉	-10.4807
值	-10.4808
韓琦	-10.4811
之行	-10.4813
為司空	-10.4817
鳯翔	-10.4817
不聴	-10.4819
出降	-10.482
先君	-10.4826
提舉	-10.4826
之治	-10.4829
曰天子	-10.4831
甲兵	-10.4831
功名	-10.4836
用史記年	-10.4846
根本	-10.4846
事皆	-10.4847
以為不可	-10.4853
注見周顯王	-10.4863
之詞	-10.4863
而不書	-10.4872
再拜	-10.4872
覘	-10.4873
坤	-10.4879
羿	-10.488
臣也	-10.488
則非	-10.4882
斧	-10.4882
二十七年	-10.4885
酋長	-10.4892
即日	-10.4894
新城	-10.4895
享國	-10.4895
無人	-10.49
學校	-10.4909
臨朝	-10.4915
對曰臣	-10.4915
以義	-10.4916
魏晉	-10.4917
元魏	-10.4923
予之也	-10.4924
也况	-10.493
瑱	-10.4934
之樂	-10.4935
事者	-10.4935
平城	-10.4937
稹	-10.4937
諸侯之	-10.4939
委任	-10.4939
夫何	-10.4939
花	-10.494
揮	-10.4946
韜	-10.4947
顧命	-10.4948
以明	-10.4948
諜	-10.4948
琰	-10.4949
之官	-10.4951
官吏	-10.4952
隘	-10.4958
不安	-10.496
曰彼	-10.496
永嘉	-10.4966
而起	-10.4967
師古	-10.497
髙歡	-10.4983
陽城	-10.4984
出戰	-10.4986
五人	-10.4987
居之	-10.4988
皆在	-10.4992
南山	-10.4995
為左	-10.4997
在此	-10.4998
竟不	-10.4999
尋復	-10.5002
北伐	-10.5005
百餘里	-10.5005
此非	-10.501
敞	-10.5013
賢人	-10.5016
世忠	-10.5021
涕泣	-10.5023
壓	-10.5024
故特書	-10.5025
脇	-10.5026
場	-10.5026
數百人	-10.5027
之請	-10.5028
所親	-10.5032
論者	-10.5032
而不敢	-10.5032
汚	-10.5034
臘	-10.5034
道成	-10.5037
張良	-10.5038
執之	-10.5043
幸而	-10.5044
東方	-10.5046
亡國	-10.5052
開封府	-10.5053
此所謂	-10.5057
封建	-10.5058
天祥	-10.5061
以著其	-10.5064
編年	-10.5067
為司徒	-10.5072
欲為	-10.5072
千載	-10.5077
詣闕	-10.5078
立功	-10.5078
縣名注	-10.5079
城在	-10.5081
樞宻	-10.5084
盡忠	-10.5087
五經	-10.5088
何故	-10.5088
道之	-10.5092
只	-10.5094
之罪也	-10.5095
埶	-10.5097
平章	-10.5101
若不	-10.5102
搏	-10.5102
豆	-10.5105
瓚	-10.5105
泓	-10.5109
康王	-10.5111
求之	-10.5112
賜之	-10.5123
二十四	-10.5123
銜	-10.5123
李林甫	-10.5125
以利	-10.5127
事不	-10.5131
九江	-10.5137
乃還	-10.5137
卿等	-10.5138
北方	-10.514
又言	-10.514
而生	-10.5143
無過	-10.5146
人事	-10.5148
梁武帝	-10.515
家人	-10.5152
蹙	-10.5163
東郡	-10.5166
三十六	-10.5171
帝王之	-10.5171
番	-10.5173
那	-10.5174
亢	-10.5177
奪之	-10.5177
其弊	-10.5177
𣙜	-10.5178
愼	-10.5178
殖	-10.5179
魁	-10.518
印綬	-10.5181
陽郡	-10.5184
猾	-10.5184
譎	-10.5185
下邳	-10.5186
史臣	-10.5187
不道	-10.5196
相州	-10.5199
元豐	-10.5201
桓温	-10.5203
可與	-10.5206
乗勝	-10.5208
乆矣	-10.5215
壯士	-10.5217
山南	-10.5217
遺詔	-10.5218
得人	-10.5221
諌曰	-10.5222
六軍	-10.5222
若夫	-10.5223
除之	-10.5228
莫如	-10.5233
未定	-10.5243
冉	-10.5243
為帝	-10.5244
控	-10.525
䜟	-10.5251
旌	-10.5252
塗炭	-10.5254
帖	-10.5255
替	-10.5258
搜	-10.5258
覈	-10.5259
諂	-10.5263
之盟	-10.5265
進軍	-10.5269
遣將軍	-10.527
矣又	-10.527
峽	-10.5271
吕后	-10.5276
湖南	-10.5278
潞州	-10.5278
惜乎	-10.528
先主	-10.528
沙門	-10.5281
北海	-10.5285
廬江	-10.5294
曰夫	-10.5294
不滿	-10.5296
曰某	-10.5301
明公	-10.5302
穆公	-10.5307
甚衆	-10.5309
大赦	-10.531
初置	-10.5313
注見梁武帝	-10.5316
亞	-10.5317
暇	-10.5319
永平	-10.532
東坡曰	-10.5321
注見秦	-10.5322
沿	-10.5323
敖	-10.533
此二	-10.533
織	-10.533
北地	-10.5331
京兆尹	-10.5332
攻城	-10.5332
托克托	-10.5332
雙	-10.5332
未有不	-10.5334
先後	-10.5334
眼	-10.5337
黜陟	-10.5337
壅	-10.534
集傳曰	-10.534
紛紛	-10.5341
豳	-10.5342
綱目之	-10.5346
潭	-10.5348
黄巢	-10.5352
不臣	-10.5353
子房	-10.5358
從者	-10.536
之極	-10.536
大理	-10.5363
固有	-10.5372
厥後	-10.5372
紹聖	-10.5372
之機	-10.5378
忠良	-10.5386
領軍	-10.5387
賢才	-10.5393
建寧	-10.5394
御史中丞	-10.5395
疫	-10.5395
萬年	-10.5396
前史	-10.5396
輅	-10.5398
數十萬	-10.5399
哀公	-10.54
不思	-10.5402
於道	-10.5404
璟	-10.5405
軒	-10.5406
懦	-10.5408
表世家	-10.5411
胡氏	-10.5416
系	-10.5417
師道	-10.5421
中郎將	-10.5423
晋王	-10.5425
羽林	-10.5426
甲申	-10.5431
丁謂	-10.5441
為亂	-10.5444
盡力	-10.5447
諸賢	-10.5447
永安	-10.5448
號為	-10.5453
中軍	-10.5454
許昌	-10.5456
譏也	-10.5457
李晟	-10.5459
信都	-10.546
建國	-10.5462
無遺	-10.5465
以死	-10.5466
在上	-10.5471
靈帝	-10.5471
周室	-10.5479
駮	-10.5484
巾	-10.5485
一綂志云	-10.5487
躍	-10.5489
刪	-10.549
瓌	-10.5491
鄆	-10.5492
討平之	-10.5493
慘	-10.5495
從珂	-10.5497
刑罰	-10.5501
有事	-10.5503
度支	-10.5509
建成	-10.5512
英雄	-10.5515
諸生	-10.5522
公私	-10.5523
諸儒	-10.5528
皆非	-10.5529
戰敗	-10.553
絶之	-10.5545
而使	-10.5546
哉故	-10.5553
終身	-10.5555
崇韜	-10.5556
必無	-10.5558
璠	-10.5559
何異	-10.556
無禮	-10.556
一戰	-10.5561
塘	-10.5562
籌	-10.5564
紳	-10.5566
人之所	-10.5568
謟	-10.5568
其官	-10.5569
諛	-10.5569
批	-10.557
瓉	-10.557
者惟	-10.557
有才	-10.557
軾	-10.5571
魏以	-10.5572
寤	-10.5572
漢為	-10.5573
頸	-10.5574
朝士	-10.5576
已上	-10.558
功業	-10.5582
之重	-10.5582
欲與	-10.5588
武功	-10.5594
西川	-10.5597
所以深	-10.5598
讀曰	-10.5599
固請	-10.5604
甚厚	-10.5606
不悟	-10.5618
美之	-10.5628
相攻	-10.5629
而得	-10.563
而為之	-10.5633
膠	-10.5634
盍	-10.5634
足矣	-10.5635
長孫	-10.5636
徙治	-10.5639
梅	-10.5642
之用	-10.5642
王珪	-10.5644
郯	-10.5645
壽陽	-10.5646
苞	-10.5647
尋陽	-10.5648
蠲	-10.565
廩	-10.565
諧	-10.565
生子	-10.5653
該	-10.5654
注同上年	-10.5658
者衆	-10.5662
延壽	-10.5669
劉豫	-10.567
善之	-10.5671
唐以	-10.5672
中人	-10.5673
名注見漢	-10.5673
春秋書	-10.568
戰於	-10.5684
殆盡	-10.5687
注見宋文帝元嘉	-10.5688
之亡	-10.5688
其故	-10.5689
書卒	-10.5689
縣北	-10.569
文侯	-10.569
已有	-10.5693
踰年	-10.5696
勤王	-10.5696
為正	-10.5697
天寶	-10.5698
置之	-10.5701
二十二年	-10.5702
漢初	-10.5703
國忠	-10.5703
迎之	-10.5704
齊師	-10.5707
先儒	-10.5713
舍人	-10.5717
李斯	-10.5721
此舉	-10.5721
凡五	-10.5722
追尊	-10.5723
詎	-10.5728
不動	-10.5729
七國	-10.573
烝	-10.5732
臣等	-10.5732
賚	-10.5732
佗	-10.5734
諸公	-10.5735
黍	-10.5735
澗	-10.5737
所書	-10.574
識者	-10.5742
之恩	-10.5746
自相	-10.5747
遣使如	-10.575
平章事	-10.575
武都	-10.5752
來歸	-10.5765
州名	-10.5765
亦非	-10.5766
所用	-10.5767
初改為	-10.577
宗族	-10.5777
易之	-10.578
亦何	-10.5781
欣	-10.5793
筠	-10.5794
元初	-10.5798
之孫	-10.5802
為皇太子	-10.5803
洎	-10.5803
層	-10.5805
暑	-10.5806
降者	-10.5807
俶	-10.581
眷	-10.5811
眉	-10.5813
妨	-10.5814
尤甚	-10.5814
墳	-10.5817
墟	-10.5818
次于	-10.5819
諸君	-10.5826
秋九月	-10.5827
不能制	-10.5836
見矣	-10.5836
叛降	-10.5838
此時	-10.5844
主之	-10.5846
起居	-10.5851
以救	-10.5855
然亦	-10.5855
章帝	-10.5856
上意	-10.5857
者曰	-10.5858
末年	-10.586
八十	-10.5861
緡	-10.5861
奉表	-10.5868
居中	-10.5869
不去	-10.5871
愛民	-10.5877
糴	-10.5884
分為	-10.5887
獨不	-10.5889
芝	-10.5891
勵	-10.5891
郡唐	-10.5891
去其	-10.5891
矣綱目	-10.5892
率衆	-10.5893
壺	-10.5893
甸	-10.5894
俞	-10.5894
紇	-10.5895
㳺	-10.5895
法令	-10.5896
人有	-10.5899
乗輿	-10.59
寗	-10.5903
説文	-10.5906
陞為	-10.5908
諸部	-10.591
則又	-10.5913
亦當	-10.5914
有過	-10.5919
其死	-10.5923
要害	-10.5924
平元年	-10.5924
為是	-10.5927
史之	-10.5928
春三月	-10.5929
之害	-10.5936
禍福	-10.594
縣西北	-10.594
凡書	-10.5942
故不	-10.5951
其過	-10.5952
史記曰	-10.5958
也終綱目書	-10.5958
也釋	-10.5959
瑾	-10.5967
銖	-10.5968
獲罪	-10.5971
駱	-10.5971
岡	-10.5972
元康	-10.5972
沁	-10.5973
佩	-10.5974
求其	-10.5974
非常	-10.5975
也雖然	-10.5975
慝	-10.5975
智者	-10.5975
徐廣曰	-10.5976
漆	-10.5978
方且	-10.5978
長樂	-10.5984
州後	-10.5986
叔孫	-10.5986
時政	-10.5987
棄之	-10.5989
獻帝	-10.5991
成湯	-10.5993
制置使	-10.5993
涿	-10.5994
節制	-10.5994
滄州	-10.5997
李德裕	-10.5998
祭祀	-10.6002
正色	-10.6007
無辜	-10.6012
懷光	-10.6012
分道	-10.602
上怒	-10.602
知有	-10.6021
宣武	-10.6029
隅	-10.6035
惡其	-10.6036
耆	-10.6038
人者	-10.604
孔氏	-10.6043
之性	-10.6045
之北	-10.6045
茂貞	-10.6046
則天	-10.6047
翔	-10.6047
以至	-10.6052
安民	-10.6053
悉以	-10.6053
屍	-10.6054
難以	-10.6055
愬	-10.6056
邁	-10.6056
于時	-10.6056
淹	-10.6056
滯	-10.6058
霜	-10.6059
而行之	-10.606
釗	-10.606
健	-10.6062
寖	-10.6063
佳	-10.6065
嗣位	-10.6066
迪	-10.6069
之明	-10.607
不治	-10.6071
曰善	-10.6072
有常	-10.6075
太宰	-10.6078
矣其	-10.608
周赧王	-10.6081
何譏	-10.6084
子西	-10.6086
患之	-10.6087
相國	-10.6094
亦曰	-10.6094
禮記	-10.61
深矣	-10.6101
徒以	-10.6102
長吏	-10.6102
漢文帝	-10.6106
起復	-10.6107
在西安府	-10.6109
之誅	-10.6112
輔國	-10.6113
中使	-10.6117
三子	-10.6123
道士	-10.6124
淮陽	-10.6126
漁陽	-10.6126
成公	-10.6129
構	-10.6137
隊	-10.6139
漕	-10.6141
荆南	-10.6142
曼	-10.6144
力士	-10.6145
製	-10.6145
剖	-10.6145
佚	-10.6146
廣漢	-10.6146
繋	-10.6147
賞賜	-10.6147
狹	-10.6149
九十	-10.615
而非	-10.6154
范仲淹	-10.6157
有寵	-10.6158
興復	-10.6162
四時	-10.6167
卒于	-10.6167
一事	-10.6168
十日	-10.6173
止書	-10.6173
轉運使	-10.6175
與人	-10.6175
必書	-10.6176
議之	-10.6178
石頭	-10.6188
也非	-10.6189
吏部	-10.6191
翦	-10.6197
異端	-10.62
不逮	-10.6201
漢髙帝	-10.6202
教化	-10.6208
十有二	-10.6211
祜	-10.6216
乎且	-10.6217
四百	-10.6218
掘	-10.6224
藁	-10.6224
瑀	-10.6227
乙酉	-10.6229
為上	-10.623
暨	-10.623
扵是	-10.6232
國用	-10.6233
顛	-10.6233
按此	-10.6234
六卿	-10.6234
而求	-10.6234
乃詔	-10.6235
崔浩	-10.6235
迂	-10.6238
復何	-10.6244
句絶	-10.6249
之教	-10.6254
東晉	-10.6254
崖	-10.6256
上命	-10.6258
於國	-10.6265
而終	-10.6268
於世	-10.6271
陽人	-10.6273
以前	-10.6275
則當	-10.6282
仍為	-10.6288
復遣	-10.6289
遂至	-10.6292
李泌	-10.6294
故云	-10.6298
郡隋	-10.6301
或有	-10.6301
慶之	-10.6301
鶴	-10.6305
張本	-10.6306
蠡	-10.6309
其兄	-10.6311
惠公	-10.6311
復書	-10.6311
猷	-10.6312
監察御史	-10.6315
㳟	-10.6315
懋	-10.6316
治平	-10.6328
隋初	-10.634
惜其	-10.6341
安西	-10.6342
惟恐	-10.6343
親戚	-10.6343
以討	-10.6345
人物	-10.6346
獨孤	-10.6347
異於	-10.6349
名注	-10.635
此類	-10.6354
代王	-10.6354
也乃	-10.6357
泣曰	-10.6357
上乃	-10.6358
賢相	-10.6366
彗	-10.6367
愚謂	-10.6369
福州	-10.6377
從其	-10.6381
不亡	-10.6385
人主之	-10.6387
忌之	-10.6393
恊	-10.6394
隄	-10.6395
人君之	-10.6397
傲	-10.6398
如淳曰	-10.64
鬱	-10.6401
畤	-10.6402
相見	-10.6408
五十里	-10.6414
旬日	-10.6415
靖康	-10.6417
君命	-10.6419
都䕶	-10.6419
軍國	-10.6422
其城	-10.6422
皆曰	-10.6425
遣中使	-10.6425
堅守	-10.6427
此節	-10.6428
僖宗	-10.643
極言	-10.643
譬	-10.6431
安可	-10.6432
欲自	-10.6433
比干	-10.6433
之私	-10.6435
禄山	-10.6438
也蓋	-10.644
入貢	-10.6441
何得	-10.6441
為宰相	-10.6442
貢獻	-10.6443
睢	-10.6444
門外	-10.6444
山崩	-10.6449
所致	-10.645
叙事	-10.6451
故特	-10.6457
大計	-10.6458
和元年	-10.6459
大舉	-10.646
京口	-10.6463
曰王	-10.6473
奐	-10.6481
熲	-10.6482
峴	-10.6482
郁	-10.6483
隣	-10.6483
之要	-10.6484
几	-10.6485
翻	-10.6486
歙	-10.6486
泛	-10.6486
熱	-10.6487
纎	-10.6488
歩騎	-10.6489
誇	-10.6491
此又	-10.6491
所以著	-10.6492
覬	-10.6494
又論	-10.6497
絶其	-10.6498
部曲	-10.6502
延夀	-10.6504
庶人	-10.6505
報之	-10.6514
舊作	-10.6515
烏孫	-10.6515
天下者	-10.6517
至公	-10.6523
嚴矣	-10.6528
綱紀	-10.653
叔向	-10.6532
舌	-10.6533
靈州	-10.6537
古文	-10.6537
立太子	-10.654
者蓋	-10.6544
掲	-10.655
嘗謂	-10.6551
而可	-10.6554
兵至	-10.6557
季氏	-10.6558
往來	-10.6558
馮翊	-10.6561
有道	-10.6563
助之	-10.6565
芮	-10.6565
其力	-10.6566
其一	-10.6567
珙	-10.6567
志在	-10.6569
視事	-10.657
版	-10.6571
二十五	-10.6573
染	-10.6574
郵	-10.6574
雕	-10.6574
烹	-10.6576
則可	-10.6576
模	-10.6577
倣	-10.6579
相如	-10.6582
斯言	-10.6585
取天下	-10.6585
奏曰	-10.6591
作者	-10.6604
郡王	-10.6605
羣小	-10.6607
以濟	-10.6608
大掠	-10.661
臣恐	-10.6614
琛	-10.6614
子由	-10.6615
之望	-10.6617
非也	-10.6619
自以為	-10.6621
則曷為	-10.6621
亡國之	-10.6622
其辭	-10.6625
為民	-10.6625
必死	-10.6625
特以	-10.6628
魏書	-10.6634
五代時	-10.6636
安撫	-10.6638
左遷	-10.6644
浪	-10.6651
黙然	-10.6652
始置	-10.6659
慟哭	-10.666
所向	-10.6661
販	-10.6662
庇	-10.6664
行也	-10.6664
惲	-10.6664
躁	-10.6665
翊	-10.6665
延年	-10.6666
髮	-10.6667
陸贄	-10.6668
它	-10.667
始此終綱目書	-10.6671
改曰	-10.6678
山陵	-10.6683
權衡	-10.6685
為此	-10.6689
一月	-10.6692
趙普	-10.6696
泰始	-10.6698
六經	-10.67
二十四年	-10.6701
著書	-10.6702
而書之	-10.6706
太宗之	-10.6709
不由	-10.6709
丁未	-10.6712
堯之	-10.6713
四川	-10.672
急於	-10.672
范祖禹論	-10.6723
復有	-10.6726
得乎	-10.6727
親征	-10.6727
身為	-10.6737
愔	-10.6739
藍	-10.674
慶府	-10.6742
是則	-10.6744
燧	-10.6746
縊	-10.6746
授以	-10.6747
扞	-10.6747
紿	-10.6748
可否	-10.6748
喇	-10.6751
箭	-10.6751
紊	-10.6754
峯	-10.6756
銷	-10.6757
泯	-10.6759
厲公	-10.676
之長	-10.6761
之手	-10.6763
縱横	-10.6767
也盖	-10.6767
無敢	-10.677
越王	-10.6771
大風	-10.6772
收其	-10.6782
聲色	-10.6786
命之	-10.6786
退而	-10.6789
不可得而	-10.6791
所至	-10.6795
威福	-10.6801
前此	-10.6804
不一	-10.681
武公	-10.6816
公羊傳	-10.6816
為尚書	-10.6817
逃歸	-10.682
縣西南	-10.6822
龍門	-10.6824
以俟	-10.6826
曲沃	-10.6833
中有	-10.6835
宜矣	-10.6836
終於	-10.6837
犒	-10.6838
畀	-10.6839
制之	-10.684
朱子曰	-10.6844
諤	-10.6845
愷	-10.6846
坑	-10.6846
招討使	-10.6846
于周	-10.6847
飢	-10.6848
駁	-10.6848
圉	-10.6849
者又	-10.685
好學	-10.6851
懇	-10.6853
甘露	-10.6855
焉耳	-10.6855
而乃	-10.6857
黯	-10.6857
二王	-10.6858
大體	-10.6859
此事	-10.6863
極矣	-10.6869
唐置	-10.6871
其子孫	-10.6877
知逺	-10.6878
者一	-10.6882
乃得	-10.6884
周公之	-10.6886
城北	-10.6887
箕	-10.689
下文	-10.6895
興亡	-10.6901
伐魏	-10.6904
可畏	-10.6905
謂之曰	-10.6906
委之	-10.6908
景公	-10.691
上文	-10.6912
零	-10.6913
岑	-10.6925
今又	-10.6925
棟	-10.6929
刁	-10.6929
詧	-10.6933
渝	-10.6933
澹	-10.6934
得天下	-10.6935
僥倖	-10.6935
菜	-10.6936
魏州	-10.6936
於斯	-10.6942
下令	-10.6943
潞	-10.6945
隴右	-10.6946
金兵	-10.6946
善政	-10.6947
紀年	-10.6948
明帝永平	-10.695
何益	-10.6957
也豈	-10.696
自此始	-10.6961
則不然	-10.6962
國家之	-10.6966
乃復	-10.6968
過失	-10.6969
請和	-10.6972
欲令	-10.6973
西漢	-10.6974
固當	-10.6976
所獲	-10.698
萊	-10.6981
輕騎	-10.6983
無子	-10.6986
乾元	-10.6989
赴之	-10.699
過於	-10.6991
滄	-10.6993
名在	-10.6998
令尹	-10.7005
莊宗	-10.7012
后稷	-10.7015
裳	-10.7019
沐	-10.7019
晃	-10.702
拱	-10.702
譜	-10.702
榆	-10.702
䛕	-10.7021
使民	-10.7023
之徳	-10.7023
埋	-10.7023
賜以	-10.7023
張掖	-10.7024
灼	-10.7025
渙	-10.7026
倖	-10.7026
於此置	-10.7027
濵	-10.7027
冡	-10.7027
仆	-10.7027
拓	-10.7028
零陵	-10.7028
得而	-10.703
削之	-10.7036
而忘	-10.7036
廟號	-10.7037
之物	-10.7038
岳飛	-10.7042
凡例	-10.7042
涪	-10.7045
三思	-10.7049
不以為	-10.7049
不堪	-10.7049
其法	-10.7054
傳云	-10.7054
築城	-10.7055
其兵	-10.7056
長驅	-10.7059
而用	-10.706
部落	-10.706
不殺	-10.7062
舊書	-10.7063
不可得	-10.707
為庶人	-10.707
意也	-10.7071
也是以	-10.7071
楚之	-10.7075
繼書	-10.708
安世	-10.7081
又書	-10.7083
召見	-10.7085
相去	-10.7085
顧引拾	-10.7086
四十里	-10.7086
臣竊	-10.7087
罪也	-10.7089
潭州	-10.709
太上皇	-10.7093
二帝	-10.7094
又欲	-10.7096
鄭人	-10.7097
楊素	-10.7099
南康	-10.7101
為治	-10.7102
取士	-10.7103
轉運	-10.7104
亦不能	-10.7108
槐	-10.7108
罷兵	-10.7108
嶷	-10.7109
勸進	-10.7114
復讐	-10.7114
言語	-10.7114
冐	-10.7117
飽	-10.7117
藻	-10.712
妬	-10.7121
若曰	-10.7124
創業	-10.7125
戕	-10.7126
上聞	-10.7126
分註	-10.7133
析置	-10.7135
可知也	-10.7143
者二	-10.7143
誤作	-10.7145
欽若	-10.715
初無	-10.7151
宋以	-10.7154
上谷	-10.7154
建元	-10.7158
以身	-10.7164
之端	-10.7164
矣乃	-10.7166
車騎	-10.7169
主簿	-10.7175
義陽	-10.7178
諭之	-10.7179
一無	-10.7183
不加	-10.7183
不改	-10.7184
汴州	-10.7184
之常	-10.7187
華州	-10.7187
曰子	-10.7193
忠賢	-10.7193
又遣	-10.7197
兵柄	-10.7199
有可	-10.72
衡山	-10.7201
鼻	-10.7204
把	-10.7206
北面	-10.7206
兵敗	-10.7207
不可用	-10.7207
過人	-10.7207
鷹	-10.7208
酖	-10.7209
詡	-10.7209
汶	-10.721
夫豈	-10.7211
冰	-10.7213
行宻	-10.7213
聚歛	-10.7214
暫	-10.7215
顓頊	-10.7216
令孜	-10.7216
之首	-10.7217
潼關	-10.7218
安置	-10.722
庶子	-10.7223
其妻	-10.7225
又使	-10.7228
上問	-10.7232
貞元	-10.7233
棄市	-10.7233
祖宗之	-10.7244
忠直	-10.7247
曰天下	-10.7249
弑逆	-10.725
者無	-10.7251
故地	-10.7259
民力	-10.7263
既已	-10.7263
何者	-10.7263
八百	-10.7276
無為	-10.7276
所立	-10.7282
葵	-10.7286
行而	-10.7286
六百	-10.7288
可矣	-10.7289
危亡	-10.7292
者盖	-10.7297
遁去	-10.7297
敇	-10.7298
寝	-10.7299
藴	-10.7301
敦煌	-10.7301
可得而	-10.7302
雲南	-10.7305
上漏	-10.7305
或云	-10.7305
姻	-10.7305
叟	-10.7308
表裏	-10.731
嘗為	-10.731
季子	-10.7311
移檄	-10.7315
千古	-10.7315
干戈	-10.7317
寡君	-10.7317
以私	-10.7318
亦未	-10.7328
禮之	-10.7331
數十人	-10.7341
奭	-10.7343
擅權	-10.735
堰	-10.7351
君子小人	-10.7351
相位	-10.7352
水之	-10.7352
之可也	-10.7353
綬	-10.7354
思之	-10.7356
矯詔	-10.7357
乎夫	-10.7357
副之	-10.7358
耳今	-10.7358
同心	-10.7359
趙鼎	-10.7359
書詔	-10.7361
國號	-10.7361
以避	-10.7365
多所	-10.7373
當國	-10.7375
泗州	-10.7375
掖	-10.7378
歴代	-10.7379
廓	-10.7385
頊	-10.7388
綸	-10.7389
州元	-10.7394
昉	-10.7396
奬	-10.7397
輝	-10.7397
武子	-10.7397
退保	-10.7397
囘紇	-10.7399
霄	-10.7399
其徒	-10.7399
鷄	-10.74
拯	-10.7401
宸	-10.7403
叩頭	-10.7405
一身	-10.7406
轅	-10.7408
桂陽	-10.7409
苻堅	-10.7414
新書	-10.7417
太白	-10.7419
遂殺	-10.7422
莫大於	-10.7424
昌黎	-10.7425
治道	-10.7426
於漢	-10.7428
亡而	-10.7429
注同上	-10.7429
長者	-10.743
為後	-10.743
不識	-10.7435
大人	-10.7435
猶可	-10.7437
乘勝	-10.7442
年表	-10.7443
當有	-10.745
國也	-10.7452
魯人	-10.7459
城門	-10.746
十卷	-10.7472
以待之	-10.7473
若有	-10.7473
敗死	-10.7479
蠶	-10.7483
刄	-10.7487
汜	-10.7489
莫之	-10.7489
茹	-10.749
鎔	-10.749
彦博	-10.7491
彘	-10.7493
𤼵	-10.7495
磧	-10.7497
晩	-10.7498
豈無	-10.7499
塟	-10.75
興師	-10.7502
帷	-10.7502
汲汲	-10.7504
塲	-10.7505
隰	-10.7507
且曰	-10.7513
義康	-10.7514
故雖	-10.7515
者當	-10.7516
臣燾曰	-10.7517
管蔡	-10.7519
君臣之	-10.7523
臨淮	-10.7526
不果	-10.7528
入海	-10.7528
不救	-10.753
荆公	-10.753
至徳	-10.7531
武庚	-10.7534
鐸	-10.7537
元年春正月	-10.7548
得一	-10.7556
拒守	-10.7557
否則	-10.7558
一而已	-10.756
之迹	-10.756
禧	-10.7561
帝乃	-10.7562
百人	-10.7562
水陸	-10.7562
之威	-10.7569
一字	-10.7573
人多	-10.7574
也如	-10.7574
縣東北	-10.7575
相持	-10.7578
趙氏	-10.758
者或	-10.7583
竦	-10.7585
譲	-10.7588
非所	-10.7588
回鶻	-10.7589
陜州	-10.759
就國	-10.759
内臣	-10.7593
二十六年	-10.7594
漢陽	-10.7594
三省	-10.7595
磨	-10.7596
謁者	-10.7599
分置	-10.7599
逖	-10.7601
虎牢	-10.7603
伐宋	-10.7605
九錫	-10.7607
無得	-10.7613
之口	-10.7613
有變	-10.7617
固不	-10.762
懐恩	-10.7631
賜姓	-10.7634
縣東南	-10.7636
楚州	-10.7637
已下	-10.7638
始有	-10.7644
七十里	-10.7646
努	-10.7655
聊	-10.7658
母弟	-10.7659
宋金	-10.7661
死不	-10.7662
是爲	-10.7663
無私	-10.7666
其私	-10.7668
兵於	-10.7669
哩	-10.768
至京師	-10.7681
敵人	-10.7682
馮道	-10.7684
敬宗	-10.7684
帯	-10.7686
惶	-10.7687
所置	-10.7687
注見漢武帝	-10.7688
縮	-10.769
穰	-10.7692
散騎常侍	-10.7692
輟	-10.7692
者多矣	-10.7693
遣其	-10.7694
態	-10.7698
規模	-10.7698
柰何	-10.7703
桀紂	-10.7705
求和	-10.7706
盛徳	-10.771
十人	-10.7713
郊祀	-10.7713
其首	-10.7715
二三	-10.7715
於諸侯	-10.7716
而未	-10.7716
神武	-10.7716
黨人	-10.7717
孺子	-10.7717
文字	-10.7718
幽王	-10.7718
汝愚	-10.772
賢君	-10.7725
新莽	-10.7727
無君	-10.773
昭儀	-10.7731
帝怒	-10.7731
悲夫	-10.7734
賜爵	-10.7735
當世	-10.7737
所過	-10.7737
賢良	-10.7741
此其所以	-10.7742
焚之	-10.7742
邑名	-10.7745
弗克	-10.7749
怨望	-10.7749
天下之人	-10.775
可用	-10.7752
執中	-10.7755
犯法	-10.7759
偷	-10.7762
涿郡	-10.7767
皆降	-10.7767
之效	-10.777
還宫	-10.7774
為重	-10.7774
今年	-10.7776
禾	-10.7785
陳氏	-10.7786
未嘗有	-10.7786
闘	-10.7787
殿中	-10.7788
􁀙	-10.779
行至	-10.7793
為侍中	-10.7797
赤眉	-10.7797
或者	-10.7798
變而	-10.7798
䘏	-10.7799
楊國忠	-10.7799
後來	-10.7802
立是為	-10.7803
無愧	-10.7806
仁傑	-10.7807
無度	-10.7808
兵馬	-10.7809
千秋	-10.7818
已成	-10.7819
以降	-10.782
書其	-10.7825
異同	-10.7826
乃出	-10.7828
已甚	-10.7832
聖王	-10.7835
茍免	-10.7837
元鼎	-10.784
尚書省	-10.784
注見周	-10.7841
之族	-10.7842
忠孝	-10.7842
睢陽	-10.7843
稱制	-10.7843
乎故	-10.7845
遂罷	-10.7847
卭	-10.7848
君也	-10.7849
嘗與	-10.7849
襄子	-10.7855
不入	-10.7856
終始	-10.786
尋改	-10.7863
山名	-10.7864
重耳	-10.7874
施行	-10.7874
新安	-10.7876
司馬公曰	-10.7877
是謂	-10.7878
便宜	-10.788
所及	-10.7882
至尊	-10.7884
抽	-10.7886
瀘	-10.7887
暠	-10.7888
犀	-10.7889
鎮江	-10.789
以拒	-10.789
叢	-10.7891
想	-10.7892
縳	-10.7892
肩	-10.7892
因名	-10.7894
乙亥	-10.7898
太伯	-10.7898
神仙	-10.7902
乘輿	-10.7903
付之	-10.7906
而輕	-10.7907
二十里	-10.7907
吉凶	-10.791
煬帝	-10.7911
不早	-10.7912
二十八年	-10.7919
古地名	-10.792
巴蜀	-10.792
毁之	-10.7921
不息	-10.7925
荀卿	-10.7926
大悦	-10.7928
濟河	-10.7928
送之	-10.7935
吳人	-10.7935
賢臣	-10.7936
霸先	-10.7942
唐太宗	-10.7942
不順	-10.7943
福建	-10.795
二十一年	-10.7951
不與焉	-10.7951
立國	-10.7953
我太祖	-10.7953
三晉	-10.7957
班師	-10.796
季孫	-10.7966
王曰	-10.7967
澶州	-10.7967
見殺	-10.7971
者豈	-10.7972
征討	-10.7973
州屬	-10.7974
不可勝	-10.7976
不可為	-10.7978
峕	-10.798
畨	-10.7985
御批資治通鑑綱目卷	-10.7986
参	-10.7986
嚕	-10.7986
其大	-10.7987
交趾	-10.7988
爾朱	-10.7988
拉	-10.7991
騷	-10.7992
珣	-10.7992
讜	-10.7993
而猶	-10.7995
事有	-10.7996
擯	-10.7996
邦昌	-10.7996
賢也	-10.7997
忠於	-10.7997
惰	-10.8
穆王	-10.8
跨	-10.8001
伏羲	-10.8002
注見漢獻帝建安	-10.8003
元忠	-10.8003
其次	-10.8005
自知	-10.8006
封侯	-10.8008
休息	-10.8011
亦猶	-10.8011
豫州刺史	-10.8012
當死	-10.8012
人人	-10.8015
李徳裕	-10.8016
者此	-10.8023
君而	-10.8023
漢文	-10.8026
武威	-10.803
於君	-10.8031
自安	-10.8035
察其	-10.8037
康叔	-10.8037
割地	-10.8038
中都	-10.8046
也昔	-10.8048
曰是	-10.8051
既平	-10.8052
相公	-10.8054
留之	-10.8055
告急	-10.8058
流民	-10.8058
延賞	-10.8058
三分	-10.8058
孫之翰	-10.8068
懼而	-10.807
承天	-10.8072
平章政事	-10.8076
死生	-10.8078
拾遺	-10.8083
宣城	-10.8085
稱皇帝	-10.8085
桓子	-10.8087
誡	-10.8088
臨江	-10.8089
集覧	-10.8091
如晉	-10.8091
孛	-10.8091
棣	-10.8092
躡	-10.8094
大行	-10.8094
熒惑	-10.8095
房𤣥齡	-10.8095
萬騎	-10.8096
扇	-10.8096
二十八	-10.8096
股	-10.8097
後趙	-10.8097
矧	-10.8098
揭	-10.8098
酌	-10.8098
衢	-10.8099
經筵	-10.8101
魄	-10.8105
城東	-10.8105
朱泚	-10.8106
避之	-10.8106
於周	-10.8107
鄉里	-10.8108
著其	-10.811
南宫	-10.8113
謝安	-10.8116
問曰	-10.8117
其責	-10.8119
臣聞	-10.8119
上流	-10.8121
者即	-10.8122
最為	-10.8125
之女	-10.8125
兵起	-10.8126
之形	-10.8127
立法	-10.8135
第三	-10.8137
詩云	-10.8138
梁州	-10.8142
周官	-10.8143
宣撫	-10.8143
不稱	-10.8144
此正	-10.8144
宣子	-10.815
鎮撫	-10.8153
上欲	-10.8153
王者之	-10.8153
僧辯	-10.8154
致其	-10.8158
梁冀	-10.816
奔走	-10.816
加之	-10.8161
既至	-10.8166
隋書	-10.8166
此豈	-10.8168
王崩	-10.8169
二國	-10.8173
二日	-10.8174
於楚	-10.8179
樞密	-10.818
憲宗元和	-10.8183
于天	-10.8183
弑之	-10.8185
晞	-10.8185
男子	-10.8185
𠂻	-10.8186
朂	-10.8187
蕪	-10.8187
文王之	-10.8189
芻	-10.8189
詳見	-10.8189
街	-10.8192
蔚	-10.8193
之漸	-10.8194
猜忌	-10.8194
重榮	-10.8196
中書舍人	-10.8199
畱	-10.8199
公論	-10.8199
亘	-10.82
牘	-10.8201
㢘	-10.8202
瞽	-10.8202
奢侈	-10.8202
開封	-10.8203
嗜	-10.8207
項籍	-10.8207
過矣	-10.8207
千餘里	-10.8207
孔明	-10.8209
完顔	-10.8221
而致	-10.8222
始以	-10.8225
已定	-10.823
遼西	-10.8231
經義	-10.8233
杜預	-10.8234
互相	-10.8242
郭威	-10.8244
然自	-10.8245
令狐	-10.8245
井田	-10.8245
所撰	-10.8248
之所為	-10.8253
風雨	-10.8253
三千人	-10.8255
專權	-10.8257
黼	-10.8259
㐮	-10.8259
去年	-10.8261
為首	-10.8262
察之	-10.8263
所取	-10.8264
則曰	-10.8264
父老	-10.8266
昊	-10.827
於我	-10.8271
本朝因之改屬	-10.8272
尚有	-10.8273
欲其	-10.8274
安在	-10.8277
畧無	-10.8279
後書	-10.828
者謂之	-10.828
惟其	-10.8282
故城	-10.8288
而東	-10.829
一統志	-10.8293
師于	-10.8294
之過也	-10.8295
袒	-10.8295
碩	-10.8297
寫	-10.8297
吝	-10.8298
鄭州	-10.8298
二者	-10.8299
簽書樞密院事	-10.8299
守將	-10.83
擲	-10.83
般	-10.8301
枚	-10.8302
牆	-10.8303
汰	-10.8303
頡利	-10.8303
袁術	-10.8305
治國	-10.8305
光禄大夫	-10.8306
籠	-10.8306
畏之	-10.8306
禘	-10.8311
遂為	-10.8313
合肥	-10.8314
弋	-10.8316
擁兵	-10.8317
秦王堅	-10.8318
哀哉	-10.8319
恭帝	-10.8321
嘉祐	-10.8323
入對	-10.8324
李勣	-10.8324
筆削	-10.8327
李光弼	-10.8327
夀春	-10.8327
本無	-10.833
元載	-10.8331
嗟乎	-10.8342
如字	-10.8351
太初	-10.8352
大變	-10.8353
陪	-10.8353
歸國	-10.8353
終日	-10.8354
軍民	-10.8357
遷于	-10.8361
與夫	-10.8361
而况	-10.8364
多士	-10.8366
入㓂	-10.8372
又云	-10.8372
濟隂	-10.8372
邪正	-10.8374
所以著其	-10.8375
戰國時	-10.8375
漠	-10.8381
所云	-10.8382
二公	-10.8384
常侍	-10.8385
其徳	-10.8385
無常	-10.8388
敢言	-10.8389
酒泉	-10.839
母后	-10.8392
朝野	-10.8394
薦之	-10.8397
鍳	-10.8398
渥	-10.8401
龜兹	-10.8403
窘	-10.8403
耽	-10.8404
何譏也	-10.8405
酬	-10.8405
偪	-10.8405
闊	-10.8407
芒	-10.8407
受詔	-10.8407
莘	-10.8407
英宗	-10.8408
迨	-10.8411
竝	-10.8412
為太尉	-10.8412
南方	-10.8413
翳	-10.8414
乃欲	-10.8417
周書	-10.842
計也	-10.8422
大節	-10.8423
東觀	-10.8424
而廢	-10.8426
恐懼	-10.8427
又不	-10.8427
擒之	-10.8432
蜀人	-10.8433
曹氏	-10.8434
其他	-10.8434
疑其	-10.8436
稱疾	-10.8437
降於	-10.8437
承制	-10.8442
王元	-10.8443
又非	-10.8446
無厭	-10.8447
猶豫	-10.8451
自然	-10.8451
巴陵	-10.8451
恭儉	-10.8452
禹之	-10.8452
司馬遷	-10.8453
少府	-10.8454
三品	-10.8455
可以為	-10.8458
持節	-10.8462
亡也	-10.8465
不祥	-10.8467
悔之	-10.8467
皆書	-10.8471
而食	-10.8477
若以	-10.8487
曰臣聞	-10.8489
濠	-10.8493
三字	-10.8495
能以	-10.8495
過也	-10.8496
九齡	-10.8497
知樞密院事	-10.85
賜名	-10.8501
本末	-10.8502
遂入	-10.8502
飭	-10.8503
春秋之法	-10.8504
椒	-10.8506
踐位	-10.8506
又與	-10.8506
皝	-10.8506
丸	-10.8507
汧	-10.8509
之親	-10.851
兩河	-10.851
乳	-10.851
谿	-10.8512
挈	-10.8513
吿	-10.8514
稼	-10.8515
以文	-10.8516
賈似道	-10.8516
袍	-10.8516
梗	-10.8517
雋	-10.8518
交通	-10.8518
滇	-10.8518
宋史	-10.852
十餘年	-10.8522
於宋	-10.8524
於魏	-10.8524
無知	-10.8525
兵法	-10.8525
西方	-10.8526
宜乎	-10.8531
稽首	-10.8534
至於此	-10.8535
從弟	-10.8536
欽宗	-10.854
首尾	-10.8541
有徳	-10.8542
開皇	-10.8545
燕主	-10.8545
右丞相	-10.8545
萬民	-10.8547
何由	-10.855
定陶	-10.855
天水	-10.855
孝子	-10.8553
有不	-10.8554
凡十	-10.8555
七日	-10.8555
謀議	-10.8559
足下	-10.8566
為先	-10.8567
流俗	-10.8567
年少	-10.8567
安王	-10.857
齊國	-10.8573
已降	-10.8575
三十萬	-10.8575
書于冊	-10.8576
乃召	-10.8576
少康	-10.8578
食之	-10.8579
望風	-10.858
一舉	-10.8583
岷	-10.8588
開府	-10.8588
無所不	-10.8593
帝從之	-10.8595
於晉	-10.86
雒	-10.86
水旱	-10.8608
正名	-10.8609
相承	-10.8612
召還	-10.8612
裝	-10.8612
賢而	-10.8614
此綱目	-10.8614
即皇帝位	-10.8614
南唐	-10.8616
有能	-10.8616
舜禹	-10.862
慟	-10.862
竈	-10.8622
周人	-10.8622
沆	-10.8624
者獨	-10.8624
遣將	-10.8625
畆	-10.8626
騎兵	-10.8626
輯	-10.8626
日磾	-10.8627
平凉	-10.8628
裒	-10.8628
二十二	-10.8628
而易	-10.8635
也噫	-10.8636
父之	-10.8637
矣書	-10.8639
異姓	-10.8639
黄金	-10.8641
精騎	-10.8643
西平	-10.8644
齊桓公	-10.8645
於時	-10.8647
凡四	-10.8647
百世	-10.8651
論其	-10.8652
政令	-10.8662
城西	-10.8662
所敗	-10.8662
以獻	-10.8665
表字	-10.8665
矣若	-10.8666
制置	-10.8667
王使	-10.8669
卿士	-10.8671
亦不可	-10.8671
為后	-10.8673
惠卿	-10.8679
引兵還	-10.8681
子業	-10.8685
始也	-10.8686
毋得	-10.8693
李靖	-10.8693
之謂也	-10.8698
當為	-10.8699
復舊	-10.87
何至	-10.8702
魏收	-10.8702
者是	-10.8703
不可以不	-10.8704
諸鎮	-10.8706
安得不	-10.8709
秦二世	-10.8711
宋書	-10.8712
引還	-10.8713
冏	-10.8714
赧王	-10.8723
弓矢	-10.8723
摘	-10.8725
隸	-10.8725
舟師	-10.8727
至長安	-10.8728
愁	-10.8729
皎	-10.8729
酺	-10.8729
之詩	-10.8732
墻	-10.8732
慾	-10.8732
義帝	-10.8733
殞	-10.8734
殁	-10.8735
之責	-10.8735
之忠	-10.8736
髦	-10.8737
髠	-10.8737
餘人	-10.8738
至如	-10.8739
正也	-10.8739
縣官	-10.8741
名臣	-10.8741
有五	-10.8741
悼公	-10.8743
平生	-10.8744
益甚	-10.8747
貴戚	-10.8747
應劭曰	-10.8749
張説	-10.875
狩	-10.8756
注見宋	-10.8758
皆稱	-10.8758
蔡州	-10.8762
許州	-10.8763
待罪	-10.8764
以應	-10.8764
李絳	-10.8766
韓愈	-10.8766
文徳	-10.8766
則民	-10.8769
出為	-10.877
萬世之	-10.8772
永昌	-10.8773
黄龍	-10.8774
未成	-10.8775
曲直	-10.8782
無疑	-10.8783
謝罪	-10.8784
之衰	-10.8785
之險	-10.8787
周王	-10.8796
除名	-10.8798
茍有	-10.8798
智伯	-10.8803
皆以為	-10.8805
上書言	-10.8805
戰死	-10.8807
駟	-10.8808
廆	-10.8809
南面	-10.8816
非人	-10.8819
自漢	-10.8821
流言	-10.8821
其利	-10.8822
劉宋	-10.8825
斡里雅布	-10.8826
瑋	-10.8826
二君	-10.8827
貲	-10.8827
舊臣	-10.8834
温公曰	-10.8834
䟦	-10.8836
縦	-10.8837
索隐曰	-10.8839
腐	-10.8839
謡	-10.8839
奠	-10.884
粥	-10.8841
梁武	-10.8841
觀此	-10.8842
儔	-10.8842
愎	-10.8843
人無	-10.8844
鹽鐵	-10.8844
剥	-10.8844
股肱	-10.8845
伐楚	-10.8845
非一	-10.8846
以奉	-10.8849
揣	-10.8849
百僚	-10.885
𤣥感	-10.8852
遂良	-10.8852
未得	-10.8853
欲求	-10.8855
諸將皆	-10.8856
宋璟	-10.8856
則見	-10.8856
三王	-10.8856
為我	-10.8857
國有	-10.8859
先朝	-10.8861
帝命	-10.8863
五原	-10.8868
六人	-10.8869
全義	-10.887
将士	-10.8873
滅亡	-10.8874
罪惡	-10.8874
思明	-10.8875
若之何	-10.8875
六十里	-10.8876
地志	-10.8879
為己	-10.8882
之耳	-10.8884
師傅	-10.8886
然猶	-10.8887
漢光武	-10.8888
也曷為	-10.8892
于是	-10.8896
華隂	-10.8896
之興	-10.8897
侍讀	-10.8897
二曰	-10.8901
斬其	-10.8902
責其	-10.8909
楚師	-10.8912
興元年	-10.8915
與我	-10.8919
家語	-10.892
不拜	-10.8925
行者	-10.8926
未免	-10.8931
郡唐初	-10.8931
何謂	-10.8933
元二年	-10.894
丙子	-10.8942
是知	-10.8944
隗囂	-10.8946
壮	-10.8946
著作	-10.8946
亶	-10.8947
傍	-10.8948
琴	-10.8948
稜	-10.8948
凱	-10.8949
叛臣	-10.8951
廢帝	-10.8953
兢	-10.8953
浙西	-10.8953
不測	-10.8956
餌	-10.8956
瑶	-10.8958
姿	-10.8959
僧格	-10.896
故謂之	-10.896
宣和	-10.896
庚申	-10.896
浮屠	-10.8962
一篇	-10.8964
襲之	-10.8964
丁巳	-10.8965
傾覆	-10.8966
右僕射	-10.8968
戒之	-10.897
諸夏	-10.897
盧杞	-10.8972
去就	-10.8973
滑州	-10.8975
淮隂	-10.8976
涇州	-10.8977
臣請	-10.8978
正言	-10.898
子貢	-10.8988
左僕射	-10.8993
北軍	-10.8996
西羌	-10.8998
神䇿	-10.9002
事覺	-10.9002
江北	-10.9003
天祐	-10.9004
南越	-10.9004
而遽	-10.9006
求去	-10.9012
惑於	-10.9014
覲	-10.9015
際	-10.9018
異矣	-10.902
甚於	-10.9025
鉅鹿	-10.9026
難矣	-10.9026
黔	-10.9027
奈	-10.9028
降于	-10.903
為天	-10.903
王導	-10.9032
衣服	-10.9039
皆死	-10.9043
若使	-10.9045
不誅	-10.9047
鄧州	-10.9047
善者	-10.9047
西戎	-10.9048
綺	-10.9048
大将軍	-10.9048
不孝	-10.9051
矛	-10.9052
蠱	-10.9054
門人	-10.9054
驍勇	-10.9056
團	-10.9056
匠	-10.9057
昻	-10.906
又置	-10.9061
伋	-10.9062
犢	-10.9062
檢校	-10.9063
敬瑭	-10.9064
亦必	-10.9064
佃	-10.9065
重誨	-10.9066
諫議大夫	-10.9068
夏州	-10.9069
董仲舒	-10.9071
雖曰	-10.9071
宋室	-10.9072
沈約	-10.9072
暐	-10.9073
李茂貞	-10.9075
更相	-10.9075
侍講	-10.9076
甲寅	-10.9077
所行	-10.9078
等州	-10.9083
非不	-10.9087
而不言	-10.9089
獻公	-10.9091
秦伯	-10.9092
后妃	-10.9094
矣故書	-10.9094
漢光武建武	-10.9098
兵馬使	-10.9104
免官	-10.9105
具官	-10.9106
君心	-10.9107
璽綬	-10.9107
望見	-10.911
民皆	-10.9111
漢屬	-10.9116
其流	-10.9118
時年	-10.9118
晉師	-10.9119
能為	-10.912
四面	-10.912
之路	-10.9122
濮陽	-10.9122
毫	-10.9123
天文	-10.9125
兵攻	-10.9128
之遺	-10.913
大名	-10.9133
貝	-10.9133
複	-10.914
以圖	-10.9142
則可以	-10.9142
黄河	-10.9143
特筆也	-10.9144
武安	-10.9144
建業	-10.9144
問其故	-10.9147
後主建興	-10.9149
城郭	-10.9152
以著	-10.9152
交州	-10.9152
摯	-10.9154
大雨	-10.9154
艦	-10.9154
以供	-10.9158
其善	-10.9161
猶在	-10.9161
浙	-10.9164
司農	-10.9165
凡三	-10.9165
繒	-10.9166
淵明	-10.9167
未見	-10.9167
拾	-10.9169
之具	-10.9169
燔	-10.917
斜	-10.917
騐	-10.9173
弦	-10.9173
訾	-10.9174
辛未	-10.9174
為句	-10.9174
不降	-10.9176
豕	-10.9176
盾	-10.9177
漫	-10.9177
韋氏	-10.9177
殯	-10.9178
軫	-10.9179
歷	-10.9179
理之	-10.918
糜	-10.918
同三品	-10.9181
器械	-10.9182
東門	-10.9182
隳	-10.9184
逢吉	-10.9184
又按	-10.9184
吕公著	-10.9186
粤	-10.9186
攷	-10.9187
甲午	-10.9189
曾子	-10.9189
列侯	-10.9192
亦可謂	-10.9197
後屬	-10.9199
合從	-10.9204
舜之	-10.9205
此何	-10.921
愛其	-10.921
大潰	-10.9211
第五	-10.9211
瀛	-10.9215
大中	-10.9215
焉而	-10.9219
合兵	-10.922
帝即位	-10.9225
天下之事	-10.9229
八千	-10.923
使天下	-10.9234
監司	-10.9234
桓帝延熹	-10.9237
三國魏	-10.9239
八人	-10.924
國朝	-10.9243
經營	-10.9244
異也	-10.9246
遣使者	-10.9246
漢兵	-10.9249
昭義	-10.9253
為害	-10.9255
之善	-10.9255
之稱	-10.9262
愍帝	-10.9262
不負	-10.9263
將吏	-10.9268
仍屬	-10.9268
銘	-10.9269
為刺史	-10.9269
立為	-10.927
亡矣	-10.9273
充國	-10.9277
非其人	-10.928
求諸	-10.928
不軌	-10.928
溺於	-10.928
闔	-10.9282
盱眙	-10.9283
邏	-10.9283
詬	-10.9285
之事也	-10.9285
貯	-10.9287
恚	-10.9288
䖏	-10.9289
轂	-10.9289
箴	-10.929
勃勃	-10.9291
渚	-10.9292
軍節度	-10.9292
跪	-10.9293
後改	-10.9294
皷	-10.9295
稚	-10.9295
塢	-10.9295
虎賁	-10.9297
舛	-10.9298
旰	-10.93
大業初	-10.9303
尹氏	-10.9304
何憂	-10.9305
鍾離	-10.9305
豈其	-10.9308
如之何	-10.9313
是皆	-10.9315
所出	-10.9316
焉故	-10.9332
二年春正月	-10.9333
上官	-10.9337
子長	-10.9338
不敢言	-10.9338
揚子	-10.934
用其	-10.9341
也至於	-10.9343
驍	-10.9343
皇極	-10.9344
神器	-10.9345
蜀漢	-10.9347
聚衆	-10.9355
廢太子	-10.9357
隋唐	-10.9358
陳侯	-10.9358
餘皆	-10.9361
之南	-10.9361
前世	-10.9363
並進	-10.9368
義理	-10.9369
方今	-10.9374
改置	-10.9374
及諸	-10.9377
司𨽻	-10.9378
譌	-10.9382
屯兵	-10.9385
州牧	-10.9385
球	-10.9392
未見其	-10.9395
常以	-10.9399
聞而	-10.94
戰士	-10.9401
闡	-10.9404
恠	-10.9405
諮	-10.9406
捍	-10.9406
廣徳	-10.9406
謐	-10.9406
獠	-10.9406
饑饉	-10.9407
填	-10.9408
知制誥	-10.9409
參政	-10.941
膚	-10.9411
售	-10.9411
斫	-10.9411
癸亥	-10.9411
訐	-10.9413
登城	-10.9413
既不能	-10.9413
著作郎	-10.9414
以其子	-10.9415
以亡	-10.9416
在今	-10.9417
書于册	-10.9418
皆出	-10.9419
河南尹	-10.9421
矣然則	-10.9421
字下有	-10.9422
户口	-10.9424
俄	-10.9424
水軍	-10.9426
大都督	-10.9427
魏兵	-10.9429
揚州刺史	-10.9429
荆州刺史	-10.9429
都指揮使	-10.943
鑄錢	-10.9431
遣之	-10.9431
文彦博	-10.9432
附之	-10.9434
矣且	-10.9436
以制	-10.9436
安平	-10.9436
在乎	-10.9444
威權	-10.9445
旣而	-10.9451
土木	-10.9454
夫子之	-10.9454
郡守	-10.9457
被執	-10.9458
而敗	-10.9458
漢髙	-10.9463
以是為	-10.9464
三家	-10.9464
募兵	-10.9464
復立	-10.9465
不終	-10.947
斯則	-10.9473
商之	-10.9479
敏中	-10.948
之前	-10.948
蜀郡	-10.9481
自陳	-10.9487
其說	-10.9489
徙都	-10.9495
甚多	-10.9495
兵入	-10.9496
理也	-10.9496
匹夫之	-10.9497
也漢	-10.9499
本朝因之	-10.9501
為諸侯	-10.9501
之德	-10.9502
推之	-10.9502
曰凡	-10.9504
漢末	-10.9505
宗閔	-10.9505
手足	-10.9508
五百里	-10.9509
孺	-10.951
其類	-10.951
為大司馬	-10.9513
呉主	-10.9514
先聖	-10.9515
吹	-10.9516
曵	-10.952
近世	-10.952
脉	-10.9521
者正	-10.9521
圜	-10.9522
其門	-10.9522
盎	-10.9523
龕	-10.9523
夔	-10.9524
慿	-10.9524
紅	-10.9525
而誅之	-10.9526
檻	-10.9526
騫	-10.9527
彼必	-10.9528
三世	-10.9528
何人	-10.953
赫連	-10.9533
戢	-10.9534
禎	-10.9535
亡命	-10.9539
書爵	-10.9541
在焉	-10.9542
功徳	-10.9542
為平章政事	-10.9544
哉然	-10.9546
郡後	-10.9547
縱兵	-10.9549
注見武帝	-10.9554
豈以	-10.9554
武侯	-10.9561
不求	-10.9562
信任	-10.9565
寛厚	-10.9568
改過	-10.9568
韋昭曰	-10.9574
定天下	-10.9574
至是始	-10.9575
義不	-10.9578
終不能	-10.9579
申生	-10.9581
甘心	-10.9581
忠信	-10.9582
經術	-10.9582
四州	-10.9582
中官	-10.9583
二是年	-10.9584
之㫖	-10.9587
元符	-10.9587
章武	-10.9594
鄆州	-10.9597
忠言	-10.9598
諸侯王	-10.9599
必能	-10.9601
朝議	-10.9608
仁厚	-10.9609
涇原	-10.961
宋齊	-10.9614
伐秦	-10.9616
禮儀	-10.9618
上天	-10.9621
急攻	-10.9624
晉屬	-10.9626
執事	-10.9627
未敢	-10.9628
所作	-10.9628
盡其	-10.9629
得幸	-10.9629
凡此	-10.9634
同州	-10.9636
帝問	-10.9636
伲胄	-10.9636
禁錮	-10.9637
初立	-10.9638
楊行宻	-10.964
曇	-10.9641
綝	-10.9642
慷慨	-10.9642
廐	-10.9643
枯	-10.9644
伎	-10.9646
鳩	-10.9646
考其	-10.9647
竇憲	-10.9647
十有一年	-10.9647
覃	-10.9647
雩	-10.9648
椎	-10.9648
且以	-10.9649
懈	-10.965
禇	-10.9651
㝠	-10.9652
司馬懿	-10.9653
厄	-10.9654
庶㡬	-10.9655
曹彬	-10.9657
盡心	-10.9658
所置治	-10.9658
可取	-10.9659
武建武	-10.9663
或勸	-10.9672
蒙古	-10.9672
後有	-10.9675
君臣之義	-10.9676
江漢	-10.9677
二十餘	-10.9678
初屬	-10.9681
巴郡	-10.9681
後秦	-10.9683
天性	-10.9684
不逺	-10.9691
但以	-10.9691
未甞	-10.9692
逆戰	-10.9694
太王	-10.97
無貶	-10.9701
乎對曰	-10.9703
天書	-10.9709
一國	-10.971
公議	-10.971
第二	-10.9712
廬州	-10.9712
上自	-10.9716
敗於	-10.9716
皆可	-10.9721
非是	-10.9724
守臣	-10.9724
五刑	-10.9725
永樂	-10.9727
治水	-10.9727
求賢	-10.973
齊桓	-10.9731
馬援	-10.9731
譏之也	-10.9731
之詔	-10.9731
義者	-10.9736
襃	-10.9743
不願	-10.9744
詹	-10.9744
縣置	-10.9745
與共	-10.9745
注見秦王政三年	-10.9748
嬪	-10.9749
乃可	-10.9753
旻	-10.9754
必為	-10.9754
蓬	-10.9758
遇之	-10.9759
同上	-10.9761
延光	-10.9761
施於	-10.9761
訊	-10.9762
能知	-10.9764
樸	-10.9764
絃	-10.9766
醢	-10.9767
僞	-10.9767
成德	-10.9767
庚午	-10.9767
攜	-10.977
世勣	-10.9771
屑	-10.9772
隨之	-10.9773
千萬	-10.9775
祥瑞	-10.9776
朽	-10.9778
論事	-10.9778
降魏	-10.9779
五里	-10.9781
安用	-10.9781
未决	-10.9783
複姓	-10.9783
帝如	-10.9785
元吉	-10.9786
待制	-10.9786
殿前	-10.9788
大權	-10.9788
戒也	-10.9789
純仁	-10.9791
出知	-10.9791
通判	-10.9792
立皇后	-10.9792
綱目特書	-10.9795
起而	-10.9796
必敗	-10.9797
何則	-10.9802
統軍	-10.9802
甲辰	-10.9805
懿宗	-10.9806
二十九年	-10.9806
不振	-10.9807
之戰	-10.9808
稽古	-10.9809
譏其	-10.981
王黼	-10.981
立其子	-10.9813
顔師古	-10.9814
稱之	-10.9815
附㑹	-10.9816
謀之	-10.9818
嗣君	-10.9819
數千里	-10.9819
秦主	-10.982
新野	-10.9822
日中	-10.9822
不少	-10.9826
者以其	-10.9828
也是時	-10.9829
盡殺	-10.9832
不務	-10.9838
數萬人	-10.9838
著述	-10.9839
曹伯	-10.9841
縣後	-10.9843
道徳	-10.9844
權勢	-10.9845
朝鮮	-10.9847
大名府	-10.9847
財用	-10.9851
孝公	-10.9855
自立為	-10.9862
應天	-10.9864
無名	-10.9866
在我	-10.9867
蔡氏曰	-10.987
安知	-10.9873
太妃	-10.9873
生靈	-10.9876
太元	-10.9878
以功	-10.988
祧	-10.9882
拊	-10.9885
瑪	-10.9885
炳	-10.9885
戀	-10.9887
諶	-10.9888
怏怏	-10.989
不附	-10.9891
城邑	-10.9892
軀	-10.9892
馬邑	-10.9892
為留後	-10.9893
郝	-10.9894
丁酉	-10.9897
蘇軾	-10.9898
三皇	-10.99
丙午	-10.9901
京東	-10.9902
素與	-10.9903
書成	-10.9906
文子	-10.9906
汲黯	-10.9906
兵權	-10.9909
大統	-10.9909
也古者	-10.9912
近習	-10.9913
民無	-10.9913
盧龍	-10.9914
次第	-10.9917
也吾	-10.9917
周以	-10.9918
囚之	-10.9918
張儀	-10.9919
縣唐	-10.992
癸未	-10.9921
其忠	-10.9923
注見漢獻帝建安十	-10.9926
曰然則	-10.9928
李宻	-10.9929
其軍	-10.9931
平州	-10.9932
後唐	-10.9932
崇文	-10.9934
此章	-10.9938
凡有	-10.9942
顯忠	-10.9948
所恃	-10.9948
勞而	-10.9948
可觀	-10.9949
繼遷	-10.995
王后	-10.9953
自言	-10.9954
為患	-10.9957
不虞	-10.9957
不敬	-10.9962
六州	-10.9969
小民	-10.9971
欲殺之	-10.9972
勝之	-10.9973
好惡	-10.9979
西魏	-10.9983
不起	-10.9985
公田	-10.9988
困於	-10.9989
而作	-10.9989
州是	-10.999
琨	-10.9995
商人	-10.9995
汝曹	-10.9999
也春秋	-11
異乎	-11.0001
徤	-11.0004
以相	-11.0005
四萬	-11.0007
狼狽	-11.0007
鴆	-11.0007
臨淄	-11.0008
僉	-11.0008
不書書	-11.0009
失於	-11.0009
既得	-11.001
彤	-11.001
蒼梧	-11.0011
承璀	-11.0013
誠能	-11.0014
江浙	-11.0014
邪説	-11.0015
孝武帝	-11.0015
渾瑊	-11.0015
四十餘	-11.0016
下至	-11.0016
楚公子	-11.0017
萬國	-11.0017
不就	-11.0018
周顯王	-11.0019
無二	-11.0019
焚其	-11.0019
齊楚	-11.0021
乃令	-11.0022
三川	-11.0023
不朝	-11.0023
西山	-11.0024
心腹	-11.0024
而南	-11.0024
國初	-11.0025
太原府	-11.0027
仁恭	-11.0031
歐陽修	-11.0033
從官	-11.0037
吳蜀	-11.0037
稱藩	-11.0039
射之	-11.004
唐太宗貞觀	-11.0041
平江	-11.0041
軍于	-11.0045
律令	-11.0047
建議	-11.0051
可謂知	-11.0051
之所謂	-11.0051
開門	-11.0052
中山王	-11.0055
蘇秦	-11.0056
至洛陽	-11.0056
上嘗	-11.0059
即位之初	-11.0059
而取	-11.0059
安祿山	-11.0061
因事	-11.0064
不予	-11.0064
始興	-11.0064
已死	-11.0067
州人	-11.0071
喜曰	-11.0072
而遂	-11.0074
夷狄之	-11.0074
叛逆	-11.0074
徙居	-11.0075
果有	-11.0077
至本朝	-11.0077
可謂能	-11.0081
南渡	-11.0081
將有	-11.0089
僖公	-11.009
注見漢後主建興	-11.0096
兩漢	-11.01
將佐	-11.0108
心也	-11.011
權臣	-11.0111
懐州	-11.0112
諸史	-11.0112
其㫖	-11.0113
士開	-11.0113
生而	-11.0115
河南府	-11.0115
遂圍	-11.0119
長城	-11.0119
魯國	-11.0122
上都	-11.0123
以給	-11.0123
趙魏	-11.0124
蹕	-11.0125
南安	-11.0127
猝	-11.0127
茍能	-11.0128
阮	-11.0128
也凡	-11.0131
觴	-11.0131
實為	-11.0131
憎	-11.0132
鴻臚	-11.0132
婆	-11.0133
閫	-11.0133
衙	-11.0133
從子	-11.0134
憸	-11.0134
怖	-11.0134
與俱	-11.0135
崔𦙍	-11.0135
栢	-11.0135
汝州	-11.0136
刑法	-11.0138
虚名	-11.014
洩	-11.0141
發於	-11.0142
粹	-11.0142
為將	-11.0143
奎	-11.0144
汭	-11.0144
同知樞密院事	-11.0146
以疾	-11.0147
悖逆	-11.0147
咸平	-11.0149
單騎	-11.0151
閉門	-11.0152
木為	-11.0155
嘗書	-11.0155
以進	-11.0156
載其	-11.0157
徃徃	-11.0157
公輔	-11.0159
青苗	-11.016
相應	-11.016
天人	-11.0166
守光	-11.0167
堯舜之	-11.0174
金銀	-11.0177
科舉	-11.0177
王業	-11.0178
也遂	-11.0182
樞宻使	-11.0184
者雖	-11.0185
書伐	-11.0185
承嗣	-11.0185
軍亂	-11.0188
二十三	-11.0189
而使之	-11.0192
於魯	-11.0194
舊史	-11.0194
士馬	-11.0195
書立	-11.0195
國勢	-11.0198
為節度使	-11.02
異日	-11.0201
刑部	-11.0211
李全	-11.0211
晉武	-11.0213
大敗之	-11.0216
委以	-11.0217
既立	-11.0217
王猛	-11.022
入相	-11.0222
都監	-11.0222
無主	-11.0223
其姦	-11.0223
多方	-11.0224
淮南王	-11.0227
以謝	-11.0228
孰與	-11.023
必矣	-11.0235
烏可	-11.0239
讓之	-11.024
上從之	-11.0241
擊敗之	-11.0242
湖廣	-11.0242
為二	-11.0243
有詔	-11.0246
幾何	-11.0248
譟	-11.0249
㪚	-11.025
唐改	-11.025
義兵	-11.0251
淄	-11.0252
國亡	-11.0253
逆賊	-11.0253
禕	-11.0256
鞍	-11.0257
以其地	-11.0257
叩	-11.0258
臻	-11.0261
爭之	-11.0262
䟦扈	-11.0262
神明	-11.0262
樞密院	-11.0264
長孫無忌	-11.0264
椿	-11.0266
吉甫	-11.0267
之功也	-11.0268
胙	-11.0269
祕	-11.027
以城降	-11.027
㕘	-11.0271
國子	-11.0277
衆人	-11.0278
分注載	-11.0278
㣲子	-11.028
而稱	-11.0289
譬如	-11.0291
不畏	-11.0291
安樂	-11.0292
敬則	-11.0294
貝州	-11.0299
帝意	-11.03
中庸	-11.0301
封爵	-11.0301
倦	-11.0301
養之	-11.0301
章句	-11.0303
心而	-11.0303
紹述	-11.0305
十有三年	-11.0306
王季	-11.0309
處置	-11.0309
歟曰	-11.0309
太行	-11.0316
者四	-11.0317
何以不書	-11.0322
正直	-11.0322
即今	-11.0324
何敢	-11.0325
蔡侯	-11.0332
食其	-11.0333
所有	-11.0333
輔之	-11.0335
不得已而	-11.0335
固無	-11.0337
大逆	-11.034
平公	-11.034
秘書	-11.0341
范祖禹曰	-11.0341
又從而	-11.0344
統制	-11.0347
其所為	-11.0348
兵少	-11.0349
中行	-11.0351
後患	-11.0352
陳蔡	-11.0356
河決	-11.0357
不戰而	-11.0362
以充	-11.0363
其德	-11.0365
文書	-11.0366
三曰	-11.0367
進用	-11.0368
郢州	-11.0369
郃	-11.0372
為尚書令	-11.0374
納言	-11.0379
元振	-11.0379
琬	-11.0379
張氏	-11.0385
平日	-11.0385
剽	-11.0387
中正	-11.0387
淑妃	-11.0388
皆由	-11.0389
迥	-11.0389
卻	-11.039
觀者	-11.039
惻	-11.039
逄	-11.039
夙	-11.0391
暹	-11.0391
㒺	-11.0391
傕	-11.0392
鈎	-11.0392
鄱陽	-11.0393
戊寅	-11.0393
坎	-11.0393
為後世	-11.0393
牖	-11.0394
朝堂	-11.0395
未之有也	-11.0395
殫	-11.0396
儆	-11.0396
萃	-11.0397
胸	-11.0397
承平	-11.0397
乙巳	-11.0398
獻帝建安	-11.0399
醇	-11.04
用此	-11.04
趙盾	-11.04
臣讀畢口奏	-11.0401
幕府	-11.0402
上邽	-11.0403
道濟	-11.0404
姑臧	-11.0405
矢石	-11.0406
百家	-11.0407
張九齡	-11.0408
等謀	-11.0409
固不可	-11.0409
因言	-11.041
明白	-11.0412
公孫𢎞	-11.0416
後嗣	-11.0416
入關	-11.0421
商賈	-11.0422
鞫	-11.0422
也或曰	-11.0424
尚未	-11.0428
率兵	-11.0429
無一人	-11.043
西陵	-11.0433
恃其	-11.0438
輔相	-11.0439
混一	-11.0443
殤	-11.0445
變法	-11.0445
劉表	-11.0445
朝歌	-11.0449
逆順	-11.0449
復用	-11.0451
殊不知	-11.0454
相傳	-11.0456
大呼	-11.0456
請罷	-11.0457
殊禮	-11.0464
湘東	-11.0466
其誰	-11.0467
書誅	-11.0467
有天下者	-11.0467
拾𥙷	-11.0469
命也	-11.0478
曰不可	-11.0479
而不顧	-11.0481
四國	-11.0482
子路	-11.0483
無能	-11.0489
在内	-11.049
帥兵	-11.0495
帝謂	-11.0495
被其	-11.0497
田氏	-11.0499
傳首	-11.0499
濟北	-11.0502
諸吕	-11.0502
珽	-11.0505
貂	-11.0506
真定	-11.0509
以徳	-11.051
其禮	-11.051
三十餘	-11.0511
劫	-11.0511
夷陵	-11.0512
油	-11.0512
忠厚	-11.0513
不解	-11.0513
憂懼	-11.0514
覿	-11.0514
繞	-11.0516
膝	-11.0516
庠	-11.0517
蜚	-11.0518
毗	-11.0518
彦超	-11.0518
帝紀	-11.0521
剝	-11.0523
不避	-11.0524
辛丑	-11.0525
辛亥	-11.0525
愽	-11.0526
筭	-11.0527
顓	-11.0527
概	-11.0529
二十五里	-11.0532
冢宰	-11.0533
入闗	-11.0533
詹事	-11.0533
乃自	-11.0534
羣盗	-11.0535
奏言	-11.0538
小子	-11.0539
慨然	-11.0539
丁丑	-11.0539
罷相	-11.0539
東萊	-11.0541
重兵	-11.0541
為人臣	-11.0541
叔孫通	-11.0542
補闕	-11.0544
泗水	-11.0545
涼州	-11.0549
言路	-11.0552
豈可以	-11.0553
而西	-11.0553
縣界	-11.0554
管叔	-11.0554
立后	-11.0555
篇曰	-11.0557
成都府	-11.0557
朱温	-11.0557
以重	-11.0558
一夫	-11.056
車師	-11.0561
兵勢	-11.0561
潁濱	-11.0562
奉迎	-11.0563
敗亡	-11.0564
也彼	-11.057
中郎	-11.0571
秦屬	-11.0572
臺城	-11.0573
不競	-11.0574
為僕射	-11.0574
之力也	-11.0576
得國	-11.0576
石門	-11.0576
三綱	-11.0585
十有二年	-11.0586
所據	-11.0587
拒命	-11.0589
不學	-11.0593
為姦	-11.0595
王世充	-11.0596
乙未	-11.0597
中常侍	-11.06
之母	-11.0602
僣國	-11.0604
無乃	-11.0606
餓死	-11.0606
不載	-11.0607
悉平	-11.0608
拒戰	-11.0609
用左傳史記	-11.061
自若	-11.0612
秦置	-11.0613
不守	-11.0614
天下事	-11.0622
再三	-11.0624
而立之	-11.0626
矣是故	-11.063
賊臣	-11.0632
王肅	-11.0635
信哉	-11.0636
子思	-11.0636
晉州	-11.0638
為人所	-11.0638
紀修	-11.0639
种	-11.0641
陳夀	-11.0641
歐	-11.0641
阿珠	-11.0641
列於	-11.0642
何患	-11.0643
三十六年	-11.0643
駒	-11.0644
十五里	-11.0646
者如	-11.0648
愿	-11.0649
抜	-11.065
芥	-11.065
泊	-11.0651
顧引	-11.0651
丁亥	-11.0652
守成	-11.0652
曏	-11.0652
管子	-11.0652
是後	-11.0653
方畧	-11.0654
庚子	-11.0655
名分	-11.0655
猥	-11.0656
褚	-11.0657
不變	-11.0657
昵	-11.0658
咄	-11.0658
王衍	-11.0662
魯公	-11.0663
耳然	-11.0665
曰不然	-11.0665
山下	-11.0665
驪山	-11.0666
丙申	-11.0668
特筆	-11.0668
僣號	-11.0669
手詔	-11.067
驕奢	-11.0672
漢室	-11.0674
太僕	-11.0675
一嵗	-11.0676
以定	-11.0677
大司農	-11.0679
千騎	-11.0679
治兵	-11.068
為御史大夫	-11.068
起居注	-11.0681
宰執	-11.0682
建隆	-11.0682
專以	-11.0686
勿以	-11.0687
以次	-11.0687
南史	-11.0688
之深	-11.0691
大震	-11.0692
節儉	-11.0693
知誥	-11.0696
兵革	-11.0698
謝病	-11.0699
晉楚	-11.0702
無用	-11.0703
諸道兵	-11.0706
治所	-11.0706
倉卒	-11.0706
陳蕃	-11.0708
永初	-11.0711
晉國	-11.0714
喜怒	-11.0715
梓	-11.0715
為三	-11.0716
隋文	-11.0716
利而	-11.0716
中大夫	-11.0719
受封	-11.0721
隋置	-11.0722
獻帝建安十	-11.0722
亳州	-11.0723
哉此	-11.0723
萬户	-11.0723
萬全	-11.0724
二十九	-11.0725
明其	-11.0725
之例	-11.0726
義之	-11.0728
宜哉	-11.0732
之急	-11.0732
士皆	-11.0733
丘明	-11.0733
愛人	-11.0733
夏主	-11.0734
闗東	-11.0736
孰能	-11.074
萬緡	-11.0741
殺戮	-11.0741
攸之	-11.0748
左丞相	-11.075
議事	-11.0752
衣食	-11.0753
赫	-11.0753
輔臣	-11.0757
市易	-11.0761
天下之勢	-11.0762
闕下	-11.0762
奔齊	-11.0763
己未	-11.0763
彗星	-11.0763
不意	-11.0764
欲得	-11.0766
白帝	-11.0766
議和	-11.0768
黥	-11.0768
東陽	-11.077
亦然	-11.077
孝王	-11.0771
自强	-11.0771
等十	-11.0772
寧宗	-11.0773
儋	-11.0777
蘇氏	-11.0778
㤙	-11.0778
漂	-11.0781
礪	-11.0781
党項	-11.0782
轡	-11.0782
南侵	-11.0783
不戰	-11.0783
蝕	-11.0784
粉	-11.0784
磬	-11.0785
所忌	-11.0786
疊	-11.0786
衷	-11.0788
狄仁傑	-11.0789
北門	-11.079
山名在	-11.079
蒲坂	-11.079
故有	-11.0791
狠	-11.0791
故人	-11.0792
孟津	-11.0793
不答	-11.0794
有衆	-11.0796
洪範	-11.0796
死罪	-11.0797
己亥	-11.0797
兵以	-11.0797
張唐英	-11.0799
遂取	-11.08
伊川	-11.0801
李輔國	-11.0801
仲堪	-11.0802
意者	-11.0802
字下	-11.0802
還至	-11.0803
者宜	-11.0803
以養	-11.0806
師敗績	-11.0807
孝經	-11.0811
不恱	-11.0812
鄭公	-11.0814
蘄	-11.0815
相望	-11.0815
洛邑	-11.0817
東周	-11.0818
氏為皇后	-11.0818
千金	-11.082
羣下	-11.0822
少年	-11.0824
成周	-11.0829
此之謂	-11.0829
以授	-11.083
引去	-11.0832
後復為	-11.0832
則雖	-11.0832
有七	-11.0834
問以	-11.0834
公室	-11.0836
孰謂	-11.0837
當時之	-11.0839
伊吾	-11.0843
勉之	-11.0844
和帝	-11.0847
晉宋	-11.0848
曰秦	-11.0848
任用	-11.0848
鄉侯	-11.085
不得其	-11.0851
為戒	-11.0853
女為	-11.0854
詔令	-11.0858
大紀	-11.0861
王孫	-11.0862
二十六	-11.0863
稱疾不	-11.0863
兵圍	-11.0864
陵人	-11.0864
者五	-11.0866
東下	-11.0869
入援	-11.0869
甚至	-11.0872
而獨	-11.0873
憚之	-11.0878
非禮	-11.0879
建州	-11.0879
也終綱目	-11.088
失道	-11.0881
丈夫	-11.0883
至誠	-11.0884
哉夫	-11.0888
厲王	-11.0889
亦惟	-11.089
大畧	-11.089
興兵	-11.0891
破賊	-11.0892
行在	-11.0892
天王	-11.0895
守令	-11.0896
成於	-11.0897
不决	-11.0897
乎若	-11.0899
及於	-11.09
次之	-11.0901
古之人	-11.0905
以威	-11.0907
者言	-11.0908
爲之	-11.091
音釋	-11.091
在朝	-11.091
梯	-11.0911
沙漠	-11.0918
請命	-11.0919
廪	-11.0919
䓁	-11.0919
二郡	-11.092
其鋒	-11.0921
卬	-11.0922
優劣	-11.0922
陸遜	-11.0922
於市	-11.0923
雖無	-11.0923
二十七	-11.0923
厠	-11.0924
壬午	-11.0924
辭曰	-11.0925
羯	-11.0925
噬	-11.0925
濡	-11.0925
劣	-11.0926
阬	-11.0928
盤庚	-11.0929
斷其	-11.093
和州	-11.093
安陸	-11.0931
鳥獸	-11.0931
目前	-11.0934
書擊	-11.0934
有所不	-11.0934
沅	-11.0934
孟軻	-11.0935
不修	-11.0936
鄧禹	-11.0939
滑臺	-11.094
重華	-11.094
祥符	-11.0941
無逸	-11.0946
周瑜	-11.0951
桓𤣥	-11.0954
楚材	-11.0954
魏師	-11.0954
東遷	-11.0956
衛人	-11.0961
不親	-11.0962
君長	-11.0969
餓	-11.0969
諌官	-11.097
大位	-11.097
小兒	-11.097
夏四月以	-11.0984
義成	-11.0984
説之	-11.0984
之時也	-11.0984
而歸之	-11.0987
猶以	-11.0988
注見漢武	-11.0989
南郊	-11.0993
且言	-11.0994
餘黨	-11.0995
周世宗	-11.0997
中書省	-11.0997
私意	-11.0998
秦兵	-11.0998
一軍	-11.1002
泣下	-11.1003
張俊	-11.1004
之先	-11.1004
司馬氏	-11.1005
財物	-11.1006
治其	-11.1007
貞觀中	-11.1009
足為	-11.1009
然後知	-11.1011
著矣	-11.1011
不任	-11.1016
而實	-11.1017
北史	-11.1018
紂之	-11.1021
死傷	-11.1027
甲士	-11.103
以道	-11.1031
不察	-11.1032
無日	-11.1035
知州	-11.1035
不法	-11.1036
定國	-11.1037
獻子	-11.1041
處分	-11.1043
也惟	-11.1044
張湯	-11.1044
賈生	-11.1045
皆得	-11.1046
威名	-11.1048
亂也	-11.105
弟也	-11.105
阨	-11.1051
戰勝	-11.1051
而來	-11.1051
交阯	-11.1051
匃奴	-11.1052
潁濱曰	-11.1052
季札	-11.1053
煙	-11.1054
幅	-11.1056
殽	-11.1057
上元	-11.1057
廵狩	-11.1059
匈	-11.1059
呈	-11.1062
疵	-11.1063
延齡	-11.1064
慶緒	-11.1064
甚明	-11.1066
何待	-11.1066
奉使	-11.1067
國寳	-11.1067
跋扈	-11.107
王政	-11.1071
雨雹	-11.1072
無定	-11.1072
始書	-11.1073
不使	-11.1074
部將	-11.1074
曽孫	-11.1075
也是	-11.1076
者也故	-11.1078
各以	-11.1081
宜陽	-11.1081
路元	-11.1082
邢州	-11.1087
注見漢獻	-11.1088
淮水	-11.1088
臨川	-11.109
伐燕	-11.1093
穀梁	-11.1096
亦已	-11.11
請誅	-11.11
而知	-11.11
曰爾	-11.11
康公	-11.1101
海州	-11.1103
婦女	-11.1104
蓋亦	-11.1105
其氣	-11.1105
之聲	-11.111
亦自	-11.1117
亦足以	-11.1119
尚何	-11.112
張華	-11.1121
叔文	-11.1125
山谷	-11.1126
内附	-11.1127
三老	-11.1129
髙陽	-11.113
襄國	-11.1141
人望	-11.1146
源出	-11.1149
石顯	-11.115
百司	-11.1153
上章	-11.1156
而弗	-11.1158
誰敢	-11.1159
侍臣	-11.1161
難制	-11.1161
皆無	-11.1163
詰之	-11.1166
而相	-11.1167
四千	-11.1171
子胥	-11.1171
嘗以	-11.1177
汾州	-11.1178
宜其	-11.1178
誤也	-11.1179
數十年	-11.1179
秦秦	-11.1182
所以見	-11.1183
雖多	-11.1186
劔	-11.1188
樵	-11.1189
梧	-11.119
扆	-11.1191
曩	-11.1191
不然則	-11.1191
筮	-11.1192
故有是命	-11.1192
掖庭	-11.1192
驩	-11.1192
軼	-11.1194
赤壁	-11.1196
婉	-11.1196
又嘗	-11.1197
滌	-11.1198
聶	-11.1201
城外	-11.1201
少昊	-11.1201
無非	-11.1201
西南夷	-11.1202
祇	-11.1203
燮	-11.1204
帝聞	-11.1204
敢不	-11.1205
元仍舊	-11.1205
庚辰	-11.1205
全節	-11.1205
汎	-11.1206
之策	-11.1207
田令孜	-11.1207
撥亂	-11.1209
曽不	-11.121
永徽	-11.1213
魏氏	-11.1216
昌邑	-11.1216
使臣	-11.1217
漢唐	-11.1218
浙東	-11.1223
下民	-11.1224
初復為	-11.1225
樂天	-11.1225
小大	-11.1227
得其人	-11.1228
晉室	-11.1229
二月以	-11.1229
是何	-11.1229
宣撫使	-11.1231
䝉古兵	-11.1231
受禪	-11.1234
亞夫	-11.1235
與民	-11.1237
之由	-11.124
乃能	-11.1242
世傑	-11.1243
曰自古	-11.1243
淮安	-11.1246
至若	-11.1249
監國	-11.1249
辭以	-11.1254
酣	-11.1254
遣還	-11.1256
所記	-11.1257
不備	-11.126
人臣之	-11.126
改名	-11.126
誘之	-11.1262
貢舉	-11.1263
北平	-11.1264
真卿	-11.1264
入於	-11.1268
伯禽	-11.127
宗正	-11.1272
又謂	-11.1275
高平	-11.1275
李固	-11.1275
漢家	-11.1276
至城下	-11.128
官名注見	-11.128
於是始	-11.1281
謀主	-11.1281
東川	-11.1281
軍政	-11.1283
乃更	-11.1283
衛將軍	-11.1283
瀛州	-11.1288
又命	-11.1289
曰賊	-11.1292
文明	-11.1292
北邊	-11.1294
注見秦始皇	-11.1297
重之	-11.13
士誠	-11.13
我我	-11.1304
者悉	-11.1304
欲用	-11.1304
茍非	-11.1308
何能	-11.1309
而後已	-11.131
何耶	-11.1317
名實	-11.1317
之尊	-11.1318
記云	-11.132
聽政	-11.1322
别駕	-11.1323
安都	-11.1324
杲	-11.1326
崧	-11.1326
漢高	-11.1326
呼必賚	-11.1326
二十一	-11.1328
灾	-11.133
記曰	-11.1331
孥	-11.1333
帝如上都	-11.1334
沸	-11.1335
蔵	-11.1335
甘泉	-11.1335
摶	-11.1336
龍城	-11.1336
雅樂	-11.1337
蔡邕	-11.1337
桞	-11.1337
臨洮	-11.1338
渦	-11.1338
謂侍臣曰	-11.1339
綱目所書	-11.1339
裴寂	-11.1342
誑	-11.1342
褊	-11.1342
卒於	-11.1342
己丑	-11.1343
不可謂	-11.1344
之故城在	-11.1344
范純仁	-11.1345
為盗	-11.1346
南燕	-11.1348
藍田	-11.1348
追至	-11.1351
郡後魏	-11.1355
衛尉	-11.1356
曰今日	-11.1356
附於	-11.1357
于魏	-11.1357
馬燧	-11.1357
帝亦	-11.1358
縱火	-11.1359
出而	-11.1363
晉元帝	-11.1365
大饑	-11.1366
以禦	-11.1366
平定	-11.1366
鄭氏	-11.1367
廢之故城在	-11.137
貴賤	-11.137
免於	-11.1373
初年	-11.1373
遂有	-11.1373
褒貶	-11.1374
許以	-11.1377
月餘	-11.1377
髙平	-11.138
元濟	-11.138
之境	-11.138
是歳	-11.1382
是矣	-11.1382
疾篤	-11.1384
連兵	-11.1389
疾之	-11.139
書生	-11.1391
復命	-11.1394
王欽若	-11.1395
常平	-11.1397
武俊	-11.14
秋七月以	-11.1403
杭	-11.1406
事勢	-11.1407
石虎	-11.1408
其終	-11.1409
繫之	-11.1409
縣治	-11.141
益都	-11.1411
常州	-11.1417
難也	-11.1417
以全	-11.1418
書伏誅	-11.1419
將至	-11.1419
過之	-11.142
守節	-11.1422
曰非	-11.1424
旱蝗	-11.1426
尚父	-11.1428
不舉	-11.1429
後又	-11.1431
文武之	-11.1433
非常之	-11.1435
陳州	-11.1437
始得	-11.1438
諭之曰	-11.1452
定矣	-11.1452
所未	-11.1454
二縣	-11.1457
通好	-11.1457
和二年	-11.1457
軍府	-11.1457
苦之	-11.1459
獻之	-11.1459
唐史	-11.146
集賢	-11.146
謀誅	-11.1461
人民	-11.1464
頓首	-11.1465
武穆	-11.1465
盡矣	-11.1469
繪	-11.1469
也葢	-11.1469
響	-11.1473
贅	-11.1473
稟	-11.1474
關東	-11.1474
麴	-11.1475
澆	-11.1475
裏	-11.1476
友諒	-11.1476
廖	-11.1477
胷	-11.1478
稼穡	-11.1478
鹵	-11.1479
奴婢	-11.1479
而動	-11.1479
小臣	-11.1479
徂	-11.148
乙丑	-11.1481
同日	-11.1482
昨	-11.1482
摭	-11.1483
大惡	-11.1483
若水	-11.1483
僧尼	-11.1484
韓世忠	-11.1484
郡太守	-11.1484
鏡	-11.1485
宋屬	-11.1485
刑賞	-11.1485
程頥	-11.1486
朱熹	-11.1486
告于	-11.1486
奥	-11.1488
庾亮	-11.149
守禦	-11.1494
安豐	-11.1494
洙	-11.1495
中興之	-11.1495
戊申	-11.1495
嵗幣	-11.1496
七十餘	-11.1498
於唐	-11.1498
部分	-11.1499
此意	-11.1504
功也	-11.1504
措置	-11.1505
八萬	-11.1505
國珍	-11.1505
賢於	-11.1511
為非	-11.1512
禁軍	-11.1513
合於	-11.1516
七百	-11.1517
洪州	-11.1519
不足為	-11.1519
多言	-11.1524
歸罪	-11.1524
晋侯	-11.1524
渡淮	-11.1526
北漢主	-11.1534
九鼎	-11.1534
建平	-11.1536
之甚也	-11.1538
禁兵	-11.154
遣兵擊	-11.1544
謂我	-11.1545
蔡人	-11.1546
撃之	-11.1547
慮其	-11.1547
名士	-11.1549
秦皇	-11.1551
衛士	-11.1554
艘	-11.1557
天寳初改	-11.1557
誅戮	-11.1561
削其	-11.1564
明主	-11.1565
言之則	-11.1567
又詔	-11.1567
竟陵	-11.1573
一夕	-11.1573
為陛下	-11.1573
史氏	-11.1575
田租	-11.1577
所知	-11.1578
神人	-11.1578
之處	-11.1579
欲盡	-11.158
劉子	-11.1581
天聖	-11.1582
七千	-11.1583
伶	-11.1583
國君	-11.1586
州名注見	-11.1587
襄城	-11.1592
注見漢帝𤣥更始二年	-11.1596
以實	-11.1597
之費	-11.1597
著於	-11.1597
正義	-11.1599
楯	-11.1599
多少	-11.1602
三年春正月	-11.1603
成徳	-11.1605
繼岌	-11.1606
甚盛	-11.1607
戒嚴	-11.1607
自用	-11.161
斡	-11.1612
靈王	-11.1612
荼	-11.1613
所見	-11.1617
冩	-11.1618
靳	-11.1618
史炤	-11.1619
曰古者	-11.162
陌	-11.1621
為樞宻使	-11.1621
雌	-11.1621
黷	-11.1621
歎息	-11.1621
少誠	-11.1622
被殺	-11.1622
蒸	-11.1622
銑	-11.1623
朞	-11.1623
勘	-11.1623
燕趙	-11.1623
出鎮	-11.1624
拓䟦	-11.1624
两	-11.1624
殱	-11.1624
井陘	-11.1625
濞	-11.1625
鼂錯	-11.1626
和帝永	-11.1627
不可勝計	-11.1627
洛州	-11.1628
瑩	-11.1629
見上	-11.1629
鉉	-11.163
也故曰	-11.1633
夀陽	-11.1636
制其	-11.1638
於東	-11.1639
行人	-11.1639
用法	-11.164
則不可	-11.1641
辟雍	-11.1642
久而	-11.1643
五國	-11.1644
有異志	-11.1644
公劉	-11.1645
鄴都	-11.1648
汴京	-11.1649
戸口	-11.165
國體	-11.1651
祖考	-11.1653
周武王	-11.1653
樂毅	-11.1656
領之	-11.1657
王侯	-11.1658
立廟	-11.1659
十有五年	-11.1662
王琳	-11.1663
也綱目書	-11.1665
唐人	-11.1667
光庭	-11.1668
若能	-11.167
以通	-11.1671
謀殺	-11.1671
安州	-11.1671
凡所	-11.1672
家法	-11.1675
怨之	-11.1676
南平	-11.1677
桓文	-11.1679
書法如此	-11.1684
良嗣	-11.1688
山西	-11.1688
為萬世	-11.1689
禆	-11.1689
為質	-11.1691
公侯	-11.1702
亦作	-11.1702
民也	-11.1704
宫闕	-11.1707
㧞之	-11.1708
經史	-11.171
糧盡	-11.1715
童子	-11.1716
文景	-11.1717
記事	-11.1721
乃引	-11.1722
皆所以	-11.1725
黜之	-11.1726
三尺	-11.1726
獲其	-11.1728
為嗣	-11.1728
失職	-11.1731
光宗	-11.1737
注見漢後主	-11.1738
未足	-11.1741
因此	-11.1745
棗	-11.1746
此必	-11.175
來者	-11.1751
軍容	-11.1752
少卿	-11.1752
矣終綱目書	-11.1753
四字	-11.1753
清明	-11.1757
亦足	-11.1757
而難	-11.1758
侍衛	-11.1758
已矣	-11.1758
棊	-11.176
對曰陛下	-11.176
靈帝中平	-11.1763
僧孺	-11.1764
蒯	-11.1765
住	-11.1766
弇	-11.1767
勑	-11.1769
諺	-11.1769
相率	-11.1769
影	-11.177
隋煬帝大業	-11.1771
追封	-11.1772
巽	-11.1772
頽	-11.1773
陶侃	-11.1774
釀	-11.1775
頂	-11.1775
澤州	-11.1775
故稱	-11.1776
會稽	-11.1776
旄	-11.1777
許敬宗	-11.1777
蕭衍	-11.1779
沮之	-11.178
蒐	-11.178
壬辰	-11.1781
移書	-11.1782
壬寅	-11.1785
錢榖	-11.1787
蕭望之	-11.1789
為可	-11.1789
詔罷	-11.1791
西夏	-11.1792
立政	-11.1795
房杜	-11.1796
難於	-11.1797
存焉	-11.1797
微子	-11.1798
衞侯	-11.1798
十二里	-11.1799
秉政	-11.1801
執其	-11.1801
王劭	-11.1801
南朝	-11.1802
不得為	-11.1803
小者	-11.1803
何予	-11.1804
非正	-11.1806
出塞	-11.1806
求援	-11.1807
之狀	-11.1809
尊卑	-11.1809
傳檄	-11.1809
復歸	-11.181
無成	-11.181
自我	-11.1812
而發	-11.1814
少而	-11.1816
秦為	-11.1816
以資	-11.1817
司馬公	-11.1818
為逆	-11.1819
野王	-11.182
封之	-11.1821
十有四年	-11.1822
三王之	-11.1823
損益	-11.1823
人心之	-11.1826
相結	-11.1829
哭之	-11.1829
智勇	-11.1834
近者	-11.1835
所以示	-11.1835
異議	-11.1836
上謂	-11.1837
于外	-11.1839
實錄	-11.1843
之門	-11.1843
主帥	-11.1843
非禮也	-11.1845
遣其將	-11.1845
以金	-11.1845
知祥	-11.1846
彦章	-11.1848
冬十月以	-11.1852
繫於	-11.1855
不預	-11.1856
吳興	-11.1857
漢興	-11.1858
肆其	-11.186
其害	-11.1862
不雨	-11.1864
削其官	-11.1868
屢敗	-11.1869
博學	-11.1872
日以	-11.1873
戮力	-11.1873
天下後世	-11.1874
使我	-11.1877
善人	-11.1882
合而	-11.1883
今陛下	-11.1884
誰能	-11.1885
後漢書	-11.1887
傳注	-11.189
恩信	-11.189
寧州	-11.1891
子女	-11.1892
保其	-11.1893
其智	-11.1895
耳夫	-11.1897
於義	-11.1899
進圍	-11.1899
本意	-11.1899
制於	-11.1899
之誤	-11.1903
有司奏	-11.1904
大寳	-11.1905
正其罪	-11.1906
以叛	-11.1907
提要無	-11.1908
隋改	-11.191
臣願	-11.191
尚存	-11.191
本心	-11.1912
與諸	-11.1912
頡	-11.1915
淮北	-11.1915
於金	-11.1915
太子即位	-11.1915
其難	-11.1917
失國	-11.1918
湣	-11.1918
爛	-11.1918
抄	-11.1918
民有	-11.1919
教民	-11.1919
其權	-11.192
䕃	-11.192
伐趙	-11.192
政府	-11.192
恒山	-11.1921
柯	-11.1921
南向	-11.1921
犧	-11.1921
京畿	-11.1921
得無	-11.1924
抃	-11.1924
之吏	-11.1925
怙	-11.1925
古邑名	-11.1928
冬至	-11.1929
罪人也	-11.1929
兵力	-11.193
自衛	-11.193
韓侂胄	-11.1931
丙寅	-11.1931
於衆	-11.1934
御史臺	-11.1935
𫝊曰	-11.1937
廼	-11.1937
百揆	-11.1937
宫殿	-11.1939
都城	-11.1941
前鋒	-11.1942
后父	-11.1943
靈臺	-11.195
既以	-11.1951
彦澤	-11.1953
大衆	-11.1954
山林	-11.1956
均輸	-11.1957
安府	-11.1958
共工	-11.196
周勃	-11.196
感動	-11.1961
不愛	-11.1962
雒陽	-11.1963
舉事	-11.1963
黄州	-11.1965
河水	-11.1966
姚崇	-11.1967
上尊號	-11.1969
之異	-11.1969
一舉而	-11.1972
擊破	-11.1972
禍敗	-11.1974
金屬	-11.1974
繼世	-11.1976
至其	-11.1976
可惜	-11.1976
黨與	-11.1977
儒學	-11.1977
非獨	-11.1977
見于	-11.1979
大學	-11.1979
其外	-11.198
失節	-11.1982
公著	-11.1985
萬嵗	-11.1986
選舉	-11.1989
臨海	-11.199
者斬	-11.1991
三十七年	-11.1992
不赦	-11.1993
神龍	-11.1995
夏口	-11.1998
孟氏	-11.1999
守備	-11.2003
宫女	-11.2004
宗澤	-11.2005
高昌	-11.2006
胡人	-11.201
之歌	-11.201
聽其	-11.2013
恵帝	-11.2015
魯之	-11.2016
卿大夫	-11.2022
魏軍	-11.2026
大戰	-11.2026
離心	-11.2027
大興	-11.2028
兼并	-11.2028
清河王	-11.2029
聞者	-11.2034
夫差	-11.2035
刑名	-11.2037
不遜	-11.2038
魏徵	-11.2039
吏部尚書	-11.204
斯民	-11.2041
平陽府	-11.2043
舊本	-11.2044
東至	-11.2046
任賢	-11.2048
亡秦	-11.2049
于朝	-11.205
四世	-11.2053
不害	-11.2054
田宅	-11.2054
之應	-11.2055
朔日有食之	-11.2056
酈	-11.2061
山縣	-11.2061
郎官	-11.2061
子夏	-11.2062
夘	-11.2064
裨	-11.2064
株	-11.2064
祉	-11.2065
西秦	-11.2066
鬰	-11.2067
戩	-11.2067
遞	-11.2067
藏之	-11.2067
施之	-11.2068
留侯	-11.2068
稠	-11.2068
啇	-11.2068
研	-11.2069
北宫	-11.207
良臣	-11.207
燕人	-11.2071
世世	-11.2071
闥	-11.2071
䙝	-11.2072
裹	-11.2072
元祀	-11.2073
廂	-11.2073
庭芝	-11.2074
栖	-11.2074
元人	-11.2074
士良	-11.2074
釣	-11.2077
豊	-11.2078
於西	-11.208
之義也	-11.208
國無	-11.208
蒯聵	-11.208
旒	-11.2081
卵	-11.2082
家事	-11.2084
王崩子	-11.2087
姓也	-11.2087
京房	-11.2089
險阻	-11.2092
武王之	-11.2095
也故書	-11.2097
一本	-11.2097
招撫	-11.2098
衛州	-11.2099
楚楚	-11.2101
嘉之	-11.2101
巴東	-11.2102
不作	-11.2103
何以為	-11.2104
復入	-11.2104
親近	-11.2106
侍從	-11.2107
之謂乎	-11.2107
食盡	-11.211
改州為	-11.2111
琅邪王	-11.2116
何有	-11.2117
職事	-11.2121
收復	-11.2121
隋文帝	-11.2122
杜氏	-11.2124
四岳	-11.2125
加於	-11.2128
乗之	-11.2136
敬業	-11.2141
什一	-11.2142
正道	-11.2145
至元	-11.2148
之心也	-11.2148
景徳	-11.2149
自焚	-11.215
遂復	-11.215
及聞	-11.215
能保	-11.2152
利用	-11.2153
復還	-11.216
百五十	-11.2161
尤為	-11.2161
當與	-11.2161
府兵	-11.2162
死士	-11.2162
晉安	-11.2163
别將	-11.2165
長江	-11.2165
亦云	-11.217
遷延	-11.2171
謹按	-11.2172
入侍	-11.2173
康子	-11.2181
延州	-11.2181
宗周	-11.2183
疾病	-11.2184
服其	-11.2185
所惡	-11.2186
湘州	-11.2187
臨事	-11.2189
失色	-11.2191
不至於	-11.2191
上林	-11.2191
都邑	-11.2191
隋屬	-11.2191
兵皆	-11.2195
身死	-11.2196
物也	-11.2196
百戰	-11.2197
知伯	-11.2198
明王	-11.2198
復振	-11.2199
驪	-11.2201
可復	-11.2204
定襄	-11.2205
者歟	-11.2206
上召	-11.2206
上郡	-11.2207
書云	-11.2211
乘之	-11.2212
蔡氏	-11.2213
祔	-11.2214
蚩尤	-11.2214
昕	-11.2214
牋	-11.2214
六合	-11.2215
近代	-11.2216
師出	-11.2216
潼	-11.2218
緑	-11.2219
與王	-11.2219
為前鋒	-11.222
於其間	-11.2221
燉煌	-11.2222
媵	-11.2222
大雅	-11.2222
聞之曰	-11.2223
濕	-11.2223
荀子	-11.2223
詐為	-11.2224
本朝因之屬	-11.2224
流入	-11.2224
菑	-11.2224
因之改屬	-11.2226
郗	-11.2226
臭	-11.2228
崤	-11.2228
穆呼哩	-11.2229
凍	-11.2229
癸酉	-11.2229
疋	-11.2229
名為	-11.2232
樞宻院	-11.2232
丙辰	-11.2232
函谷	-11.2232
踞	-11.2233
仇士良	-11.2234
辛巳	-11.2235
希萼	-11.2235
罸	-11.2236
無備	-11.2237
封為	-11.2237
或疑	-11.224
偷生	-11.2241
車服	-11.2242
長公主	-11.2242
之交	-11.2242
孫盛	-11.2244
鄂州	-11.2244
牛羊	-11.2244
不濟	-11.2244
萬匹	-11.2248
殷浩	-11.2252
少有	-11.2254
禪位	-11.2255
將何	-11.2255
家國	-11.2256
吳主	-11.2257
李希烈	-11.226
竭力	-11.2264
五代梁	-11.2271
諸軍事	-11.2271
中書侍郎	-11.2273
其視	-11.2273
其女	-11.2273
既定	-11.2273
平二年	-11.2281
徐州刺史	-11.2285
馮異	-11.2285
江州刺史	-11.2287
又音	-11.2289
百八十	-11.2291
今日之	-11.2291
奏之	-11.2298
聲言	-11.2298
程子	-11.2304
矣况	-11.2308
溺死	-11.2308
水土	-11.2311
至德	-11.2312
人力	-11.2312
河决	-11.2313
正徳	-11.2314
貞觀初	-11.2314
大厯	-11.2314
四鎮	-11.2317
也後世	-11.2317
百官表	-11.2321
我朝	-11.2323
於天子	-11.2324
孝宣	-11.2325
可求	-11.2326
者不過	-11.2326
與語	-11.2326
雖未	-11.2331
復取	-11.2331
目書	-11.2333
位號	-11.2336
而遣之	-11.2337
徳威	-11.2338
牙將	-11.2338
犍	-11.234
于宋	-11.234
威武	-11.2343
寢疾	-11.2344
其美	-11.2344
議郎	-11.2344
於後世	-11.2346
於吳	-11.2347
及是	-11.235
何事	-11.2353
天福	-11.2355
所聞	-11.2355
天后	-11.2355
但當	-11.2356
之半	-11.2356
王徳	-11.2358
少帝	-11.236
六萬	-11.2361
請立	-11.2361
以東	-11.2361
壬子	-11.2361
宰臣	-11.2361
定公	-11.2361
分遣	-11.2363
俄而	-11.2363
簡公	-11.237
蘇州	-11.237
瑟	-11.2372
元景	-11.2373
電	-11.2374
興利	-11.2374
髙昌	-11.2375
鎻	-11.2375
燼	-11.2376
呼沙呼	-11.2377
挑戰	-11.2378
撲	-11.2378
噲	-11.2378
有星孛于	-11.2379
戊午	-11.238
漢高帝	-11.2381
亡者	-11.2381
斵	-11.2381
録尚書事	-11.2382
軸	-11.2383
璜	-11.2384
梓潼	-11.2384
特們徳爾	-11.2386
吕大防	-11.2387
馥	-11.2387
已為	-11.2387
後改為	-11.2388
芟	-11.2389
王爵	-11.2389
之域	-11.2389
節鉞	-11.239
親政	-11.2391
宵	-11.2392
綘	-11.2392
犬戎	-11.2392
燕山	-11.2392
范蠡	-11.2392
是誠	-11.2394
尚在	-11.2397
僚屬	-11.2398
旦夕	-11.2399
羽翼	-11.2399
宇文泰	-11.24
公孫述	-11.2401
綱目於此	-11.2404
三月以	-11.2407
建炎	-11.2408
上下相	-11.2413
蒲州	-11.2413
所建	-11.2414
下吏	-11.2416
是豈	-11.2416
一城	-11.2416
進奉	-11.2418
姜氏	-11.2419
舉措	-11.2419
者焉	-11.2421
罔不	-11.2423
長平	-11.2429
如意	-11.243
平原君	-11.243
一隅	-11.243
安撫使	-11.2431
車馬	-11.2432
化及	-11.2432
嘗有	-11.2435
東海王	-11.2437
不惑	-11.2444
渭水	-11.2449
之基	-11.2452
耳若	-11.2455
終綱	-11.2456
近古	-11.2457
楚國	-11.2458
而不用	-11.2459
中宫	-11.2459
長沙王	-11.2459
于秦	-11.246
其賢	-11.2461
掩其	-11.2462
諭以	-11.2464
六月以	-11.2471
帥師伐	-11.2471
將何以	-11.2472
神主	-11.2476
蘭陵	-11.2477
歴陽	-11.2478
方伯	-11.248
矣雖然	-11.248
叛者	-11.248
軍名注見	-11.2481
上聲	-11.2482
而不得	-11.2484
晏子	-11.2488
春秋之義	-11.2488
魏武	-11.2491
未發	-11.2493
將安	-11.2498
者甚衆	-11.2501
為太傅	-11.2506
不能盡	-11.2506
如初	-11.251
朝貢	-11.2512
自見	-11.2513
久不	-11.2514
其非	-11.2515
廬陵	-11.2515
為右丞相	-11.2519
祏	-11.252
言于	-11.252
六七	-11.2521
吾子	-11.2524
鉞	-11.2526
趾	-11.2528
鼓譟	-11.253
片	-11.2532
削去	-11.2532
存者	-11.2533
擇其	-11.2533
財賦	-11.2534
後復置	-11.2535
終身不	-11.2536
胎	-11.2537
絰	-11.2537
以和	-11.2538
棄城走	-11.2538
恐非	-11.2538
袖	-11.254
沙陀	-11.254
肝	-11.254
阪	-11.2542
梓宫	-11.2543
眩	-11.2544
核	-11.2546
不給	-11.2547
覊	-11.2548
庚戌	-11.2548
杯	-11.2548
潤州	-11.255
新都	-11.2551
蔡確	-11.2551
棠	-11.2552
絳州	-11.2552
一方	-11.2553
起自	-11.2553
隋廢	-11.2554
朱滔	-11.2554
申公	-11.2555
謂左右曰	-11.2555
蕭瑀	-11.2555
未聞有	-11.2556
用心	-11.2557
其計	-11.2558
一條	-11.2559
戰國䇿	-11.2559
家屬	-11.2562
殉	-11.2563
雍州刺史	-11.2564
不奉詔	-11.2564
頃之	-11.2566
之智	-11.2567
欺君	-11.2569
其任	-11.257
供奉	-11.257
廢后	-11.257
伐蜀	-11.2571
二十餘年	-11.2574
承㫖	-11.2575
宋師	-11.2576
所稱	-11.2578
臣節	-11.2579
史稱	-11.258
說文	-11.2583
分裂	-11.2584
也又曰	-11.2586
其亡	-11.2586
萬計	-11.259
大用	-11.2592
之本也	-11.2594
其狀	-11.2595
莾	-11.2595
書罷	-11.2596
宋文帝元嘉	-11.2597
宋置	-11.2599
不能無	-11.2604
上古	-11.2605
令史	-11.261
退屯	-11.2611
夷吾	-11.2613
恤民	-11.2613
不能守	-11.2615
其亦	-11.2615
能用	-11.2619
太后曰	-11.262
俊臣	-11.2622
嗣聖	-11.2625
乎哉	-11.2627
賞之	-11.2631
皇孫	-11.2631
有大功	-11.2632
書奏	-11.2632
或言	-11.2632
西突厥	-11.2638
遣李	-11.2648
政刑	-11.2648
非特	-11.2648
不著	-11.2648
害民	-11.2653
小事	-11.2654
四十年	-11.2654
元朔	-11.2654
撫之	-11.2655
求救於	-11.2658
世隆	-11.2659
泉州	-11.266
大徳	-11.266
自叙	-11.2662
島	-11.2663
也左傳	-11.2665
入寇	-11.2667
為本	-11.2668
趙孟	-11.2669
河上	-11.267
一千	-11.2671
煬	-11.2674
初即位	-11.2676
移治	-11.2677
九卿	-11.2678
腰	-11.2678
冠軍	-11.2684
八行	-11.2687
之兆	-11.2688
田子	-11.2689
修徳	-11.2691
太弟	-11.2692
衘	-11.2692
豈宜	-11.2693
䝉遜	-11.2693
縉	-11.2696
注見楚義帝元年	-11.2696
素服	-11.2696
虹	-11.2697
鎮惡	-11.2699
寐	-11.27
者唯	-11.27
侗	-11.2701
黠	-11.2701
至扵	-11.2701
坦之	-11.2702
倪	-11.2702
不恭	-11.2702
司𨽻校尉	-11.2703
為中書令	-11.2703
嵬	-11.2704
潼闗	-11.2706
霧	-11.2706
癸巳	-11.2706
夸	-11.2707
阿哈瑪特	-11.2708
企	-11.2708
殃	-11.2709
槃	-11.2709
佯	-11.271
翌日	-11.271
平帝	-11.271
響應	-11.2711
生事	-11.2711
籙	-11.2711
堅壁	-11.2712
夭	-11.2713
南漢	-11.2713
尺寸	-11.2714
三道	-11.2714
在下	-11.2717
夏竦	-11.2718
成康	-11.2719
宰輔	-11.272
商鞅	-11.2721
之主也	-11.2722
洛水	-11.2723
仲舒	-11.273
濮州	-11.2731
詩賦	-11.2732
慕容垂	-11.2733
故吏	-11.2734
自號	-11.2735
趙鞅	-11.2738
播遷	-11.2738
力爭	-11.2738
入長安	-11.2738
曾孫	-11.2739
注見漢文帝	-11.274
羌胡	-11.2745
其來	-11.2745
孔眀	-11.2745
百工	-11.2747
朝恩	-11.2751
兩淮	-11.2757
梁國	-11.2758
必將	-11.2761
災變	-11.2761
綱目書此	-11.2761
朱氏	-11.2762
時為	-11.2762
出于	-11.2763
謀於	-11.2763
荆門	-11.2764
是歲	-11.2767
諸城	-11.2773
書叛	-11.2774
大半	-11.2774
内有	-11.2783
聖賢之	-11.2783
時方	-11.2784
懐王	-11.2785
呼曰	-11.2785
名器	-11.2786
自歸	-11.2788
此云	-11.2789
問於	-11.2789
以下皆	-11.2789
懌	-11.279
威儀	-11.2791
建立	-11.2793
復言	-11.2799
乎然	-11.28
任城	-11.28
士人	-11.2801
如齊	-11.2803
昌言	-11.2803
九月以	-11.2805
相接	-11.2808
平盧	-11.2808
嘗言	-11.2809
王韶	-11.281
宋州	-11.2812
廣武	-11.2816
常有	-11.2821
吏士	-11.2821
鉅	-11.2827
在其中	-11.2827
故直書	-11.283
漢氏	-11.2833
宣州	-11.2834
幸其	-11.2834
州大業初	-11.2837
上曰朕	-11.2838
之姦	-11.2841
書死	-11.2847
之妻	-11.2847
非義	-11.2848
鏐	-11.285
謂人曰	-11.285
歸附	-11.285
幡	-11.2851
頵	-11.2853
大都	-11.2854
進至	-11.2856
𦍑	-11.2857
専權	-11.2857
軒轅	-11.2858
毓	-11.2858
挑	-11.2859
曰吾聞	-11.2859
勰	-11.286
异	-11.2861
剽掠	-11.2861
所引	-11.2862
昭昭	-11.2862
猗	-11.2863
欠	-11.2863
纓	-11.2863
擔	-11.2863
瘠	-11.2864
中華	-11.2864
陘	-11.2865
倩	-11.2865
據事直書	-11.2866
乃知	-11.2866
蔬	-11.2868
句踐	-11.2869
惕	-11.2869
二女	-11.2869
爪牙	-11.2869
北狄	-11.2869
沮渠	-11.2869
葦	-11.287
姦宄	-11.287
遍	-11.287
庚寅	-11.2871
鋹	-11.2871
肜	-11.2872
本秦	-11.2872
即帝位	-11.2873
切齒	-11.2873
曰先帝	-11.2874
子良	-11.2874
利州	-11.2875
冡宰	-11.2875
知節	-11.2876
初政	-11.2877
顏	-11.2878
五百人	-11.2878
淝	-11.2878
踰月	-11.2881
得罪於	-11.2881
言於上曰	-11.2881
史家	-11.2882
髙駢	-11.2882
禁止	-11.2883
卒弟	-11.2883
失信	-11.2883
七里	-11.2885
天討	-11.2886
勤勞	-11.2887
典禮	-11.2888
天之所	-11.2888
鮮有	-11.2889
不啻	-11.2889
賂遺	-11.2891
所繫	-11.2891
兼置	-11.2893
鎮之	-11.2894
其生	-11.2895
舎人	-11.2896
禍及	-11.2897
竇氏	-11.29
審矣	-11.2901
宗廟社稷	-11.2902
給事	-11.2903
其政	-11.2904
數百里	-11.2906
曰朝廷	-11.2907
無恥	-11.2907
封拜	-11.291
素無	-11.291
嗟夫	-11.2913
畢公	-11.2913
皆殺之	-11.2914
入秦	-11.2916
有德	-11.2918
不豫	-11.2919
朝㑹	-11.292
人欲	-11.2921
谷永	-11.2922
保甲	-11.2924
老弱	-11.2924
重進	-11.2929
離間	-11.293
之勞	-11.293
出迎	-11.2931
郡後周	-11.2934
不覺	-11.2937
周召	-11.294
武庫	-11.294
連年	-11.2941
將李	-11.2941
永寧	-11.2942
成臯	-11.2943
趙州	-11.2951
黄老	-11.2956
皆譏也	-11.296
三百里	-11.2961
不保	-11.2962
一心	-11.2967
荆湖	-11.297
遂定	-11.2971
趙髙	-11.2973
李紹	-11.2975
大聖	-11.2976
軍法	-11.2977
京西	-11.2978
也顔師古曰	-11.298
邠州	-11.2984
之别	-11.2987
焉用	-11.2989
今既	-11.2989
推誠	-11.299
來聘	-11.299
曹州	-11.299
已久	-11.2991
兵器	-11.2992
乗其	-11.2993
七人	-11.2999
無統	-11.3002
以無罪	-11.3008
其族	-11.3015
伾	-11.302
葺	-11.302
百二十	-11.3021
乞師	-11.3022
爕	-11.3022
山澤	-11.3024
禳	-11.3026
㨿	-11.3026
慤	-11.3026
擊匈奴	-11.3026
越嶲	-11.3026
瓠	-11.3028
失徳	-11.3028
怡	-11.3028
樂平	-11.3029
𤨏	-11.3029
牝	-11.3029
陽侯	-11.303
購	-11.3031
㑹昌	-11.3031
堵	-11.3031
棲	-11.3031
為樞宻副使	-11.3031
脂	-11.3032
二百里	-11.3033
伽	-11.3033
民田	-11.3034
精鋭	-11.3035
戊辰	-11.3037
厮	-11.3037
脊	-11.3039
碣石	-11.3039
胡亥	-11.304
蕭道成	-11.304
閎	-11.3041
濠州	-11.3041
十餘里	-11.3042
歿	-11.3042
成子	-11.3043
饌	-11.3045
塞外	-11.3045
武備	-11.3045
特進	-11.3045
之得失	-11.3046
書序	-11.3047
犂	-11.3048
國子監	-11.3049
暴虐	-11.3049
為己任	-11.305
自明	-11.3053
仲禮	-11.3055
帝室	-11.3055
之類是也	-11.3056
承宗	-11.3056
矣此其	-11.3061
於此矣	-11.3063
欲去	-11.3064
衞人	-11.3066
安禄山	-11.3073
十有六年	-11.3073
六行	-11.3074
為國家	-11.3074
學術	-11.3075
水在	-11.3076
悔過	-11.3076
迎立	-11.3077
貶黜	-11.3078
者葢	-11.3079
秦晉	-11.3079
斯人	-11.308
萬邦	-11.3081
道名注見	-11.3081
從榮	-11.3082
既死	-11.3082
熈寧	-11.3084
訛言	-11.3084
驕恣	-11.3085
可立	-11.3087
注見秦二世二年	-11.3092
又令	-11.3094
先君之	-11.3094
欲誅	-11.3096
漢人	-11.3099
陳氏曰	-11.31
還鎮	-11.3101
少傅	-11.3102
遇害	-11.3102
庶乎	-11.3103
東井	-11.3104
一代	-11.3107
也夫以	-11.3108
南鄭	-11.3109
唐𤣥宗	-11.3111
戰不利	-11.3111
益州刺史	-11.3112
馬遷	-11.3113
開寳	-11.3113
天威	-11.3115
城上	-11.3117
棄疾	-11.3117
先入	-11.3121
今若	-11.3122
追擊	-11.3125
年表世家	-11.3127
西安府	-11.3128
之法也	-11.3128
洺	-11.3131
不利於	-11.3132
淳于	-11.3132
長久	-11.3132
天錫	-11.3132
晉武帝	-11.3141
兵大敗	-11.3141
亂臣	-11.3145
達實	-11.3146
平聲	-11.3147
罪狀	-11.3148
太建	-11.3149
不得行	-11.315
誤矣	-11.3151
有愧	-11.3151
喪師	-11.3156
茍不	-11.3159
殺身	-11.3159
也自是	-11.3164
不事	-11.3169
愚按	-11.317
所奏	-11.317
不憂	-11.3171
三十三年	-11.3173
齊魯	-11.3173
吳楚	-11.3175
宣仁	-11.3176
諸陵	-11.3176
户部	-11.3177
之言也	-11.3178
異時	-11.3178
法制	-11.3178
君臣相	-11.318
路本朝	-11.3182
䕶軍	-11.3187
並起	-11.3188
瑒	-11.3189
瘞	-11.3191
伐晉	-11.3191
釋氏	-11.3191
㢤	-11.3192
首領	-11.3194
璞	-11.3195
旗幟	-11.3196
瑊	-11.3198
慚	-11.3199
督諸軍	-11.3199
贏	-11.3199
褘	-11.3199
餽	-11.32
悝	-11.32
然綱目	-11.32
踊	-11.32
竑	-11.32
馴	-11.3201
以寛	-11.3202
夷齊	-11.3202
猶且	-11.3202
忻	-11.3203
蟠	-11.3203
姜維	-11.3203
巫蠱	-11.3204
𢎞肇	-11.3204
骸	-11.3204
十有三	-11.3204
匄	-11.3205
不敢進	-11.3205
勾	-11.3205
摰	-11.3206
遯	-11.3207
悌	-11.3207
聳	-11.3208
太平公主	-11.3209
遣使入貢	-11.3211
髙熲	-11.3211
秘書監	-11.3211
乳母	-11.3211
臆	-11.3212
之報	-11.3212
鄘	-11.3212
羅索	-11.3214
不謹	-11.3217
兩軍	-11.3219
縣是	-11.322
崑崙	-11.3221
緩急	-11.3221
彭越	-11.3222
閬	-11.3223
澧	-11.3225
君臣之分	-11.3228
賈充	-11.3228
觀望	-11.3228
郊廟	-11.3229
大禹	-11.3229
其舊	-11.3229
孫氏	-11.3229
義真	-11.323
不習	-11.3233
柱國	-11.3234
守文	-11.3237
聘于	-11.324
委曲	-11.3242
不幸而	-11.3243
廢置	-11.3244
奸邪	-11.3244
流血	-11.3246
則彼	-11.3247
州尋	-11.3249
霍氏	-11.3254
建初	-11.3256
租賦	-11.326
豈特	-11.3262
居攝	-11.3264
藝文	-11.3264
及即位	-11.3265
簿書	-11.3265
賊勢	-11.3268
莫有	-11.3268
猶能	-11.3274
三是年	-11.3274
吕氏曰	-11.3276
從諫	-11.3286
楚辭	-11.3288
將來	-11.329
兩京	-11.3292
却之	-11.3292
死亡	-11.3293
弗許	-11.3294
視其	-11.3294
知之矣	-11.3296
書死之	-11.3298
荆楚	-11.3299
詔諭	-11.3301
在人	-11.3302
蕭氏	-11.3304
子臧	-11.3305
晋主	-11.3308
晋人	-11.3308
多事	-11.331
邊事	-11.331
漢祖	-11.3313
府城西	-11.3313
大治	-11.3314
白起	-11.3315
羣臣皆	-11.3319
一語	-11.3327
請行	-11.3327
聖人之道	-11.3334
越州	-11.3334
夷夏	-11.3335
樞密使	-11.3336
昭然	-11.3346
人之國	-11.3347
哉且	-11.3348
有罪免	-11.3352
殺傷	-11.3354
五代史	-11.3355
援兵	-11.3357
少師	-11.3359
諸司	-11.3361
即命	-11.3365
昜	-11.3366
佐命	-11.3366
敺	-11.3367
嵐	-11.3367
讙	-11.3368
彫	-11.337
州都督	-11.337
諌議大夫	-11.3371
晏駕	-11.3374
攀	-11.3374
緝	-11.3374
彌遠	-11.3376
賦歛	-11.3376
晉惠帝	-11.3377
勾踐	-11.3377
戊戌	-11.3377
亂兵	-11.3378
髙䴡	-11.3378
邃	-11.3379
鞬	-11.3379
誹謗	-11.3379
私恩	-11.3379
拱手	-11.3379
獨無	-11.338
范曄	-11.338
懾	-11.3382
侯伯	-11.3382
沽	-11.3382
絀	-11.3383
邴	-11.3383
南京	-11.3383
丙戌	-11.3383
凢	-11.3383
紘	-11.3383
魚朝恩	-11.3383
作擊	-11.3384
諫諍	-11.3384
辛酉	-11.3384
顔真卿	-11.3385
為皇太后	-11.3386
感悟	-11.3387
餗	-11.3387
悉衆	-11.3389
沛郡	-11.339
石敬瑭	-11.339
澤潞	-11.339
仁人	-11.3392
己巳	-11.3393
茫	-11.3397
已見	-11.3398
河中府	-11.3398
牧守	-11.3401
勇而	-11.3402
死地	-11.3403
賢不肖	-11.3404
在前	-11.3405
掃地	-11.3406
敝邑	-11.3409
多矣未有書	-11.3409
所執	-11.3413
兗州	-11.3413
陳瓘	-11.3415
之深意	-11.3417
祭酒	-11.342
臺諌	-11.342
舜典	-11.3421
未下	-11.3421
曰願	-11.3421
主人	-11.3424
昆明	-11.3424
武城	-11.3426
安陽	-11.3426
予其	-11.3427
招諭	-11.3427
之亡也	-11.3429
地理	-11.343
入洛	-11.3431
八十里	-11.3434
和氣	-11.3434
民多	-11.3438
學問	-11.3438
事機	-11.3438
孝武帝太元	-11.3439
故址在	-11.344
是夕	-11.344
徐温	-11.3441
王允	-11.3445
宥之	-11.3446
無能為	-11.3447
以為相	-11.3449
致死	-11.345
北庭	-11.3451
憂之	-11.3452
季歴	-11.3456
孔光	-11.3456
危矣	-11.3458
未有如	-11.3458
軍節度使	-11.3459
之為人	-11.3459
平陵	-11.346
以防	-11.3461
請罪	-11.3462
人之心	-11.3464
則見其	-11.3465
日久	-11.3469
近於	-11.347
按察	-11.3471
元顯	-11.3471
求救	-11.3472
無由	-11.3474
畿内	-11.3477
疾苦	-11.3478
各置	-11.348
華山	-11.348
巴西	-11.3481
𤣥孫	-11.3482
急務	-11.3487
美人	-11.3488
第四	-11.3489
則此	-11.3489
三司使	-11.3492
富民	-11.3492
猶存	-11.3493
州總管	-11.3497
鞫之	-11.3499
當是	-11.3501
又不能	-11.3502
刋本	-11.3502
謀逆	-11.3503
進賢	-11.3505
大宛	-11.3505
赧	-11.3509
天生	-11.3509
代州	-11.3509
進討	-11.3511
論議	-11.3512
此心	-11.3512
天下皆	-11.3512
遑	-11.3514
唐末	-11.3515
門生	-11.3517
臣子之	-11.3517
之柄	-11.3517
鄜	-11.3521
進爵	-11.3522
呉人	-11.3523
甚哉	-11.3523
景仁	-11.3523
寵任	-11.3524
注見周安王	-11.3525
安邑	-11.3527
注見秦王政	-11.3529
固宜	-11.3529
蠟	-11.3532
郡名注見漢光武建武	-11.3532
韋昭	-11.3533
牢之	-11.3536
五十萬	-11.3539
之失也	-11.3539
一人而已	-11.354
昌宗	-11.354
訣	-11.3541
金玉	-11.3541
錮	-11.3541
遙	-11.3542
衂	-11.3542
郭崇韜	-11.3542
珂	-11.3543
携	-11.3543
訶	-11.3543
漢宣帝	-11.3544
圖卜特穆爾	-11.3544
更生	-11.3545
燎	-11.3545
姒	-11.3546
黄巾	-11.3546
架	-11.3547
彩	-11.3547
鬚	-11.3547
挽	-11.3548
上疏言	-11.3548
嗚	-11.3549
遘	-11.3549
未詳沿革	-11.355
嗤	-11.355
雅克特穆爾	-11.355
誚	-11.3551
鄯善	-11.3551
媒	-11.3551
殿中侍御史	-11.3551
簾	-11.3551
篆	-11.3552
晦日食	-11.3553
秦滅	-11.3553
殛	-11.3555
跋	-11.3555
秘閣	-11.3555
渭橋	-11.3555
拙	-11.3556
絡	-11.3556
淄青	-11.3556
出處	-11.3557
昆弟	-11.3557
垢	-11.3558
嫂	-11.3558
不亦宜乎	-11.3558
羲和	-11.3559
正史	-11.3559
者何也	-11.3561
譬猶	-11.3561
遣其子	-11.3565
通謀	-11.3566
兖州府	-11.3566
民怨	-11.3566
母子	-11.3567
當去	-11.3568
帝位	-11.3568
唐世	-11.3569
武帝元狩	-11.3569
所滅	-11.3569
北朝	-11.357
有功於	-11.357
汾隂	-11.357
簒奪	-11.3571
繫獄	-11.3571
壬申	-11.3571
黄鍾	-11.3571
曰主上	-11.3571
誠有	-11.3573
治民	-11.3574
注見漢獻帝	-11.3574
左右皆	-11.3574
李世勣	-11.3575
之時而	-11.3576
宫掖	-11.3577
依違	-11.3577
明經	-11.3578
荀息	-11.3578
璽書	-11.3578
之所能	-11.3579
秦王政三年	-11.358
賢否	-11.3582
導之	-11.3583
讀之	-11.3585
不才	-11.3586
是月	-11.3591
死子	-11.3593
所難	-11.3595
李嗣源	-11.3596
承乾	-11.36
䇿免	-11.3606
二月朔日食	-11.3609
臣不敢	-11.3609
臨之	-11.361
乆之	-11.3611
元年書	-11.3612
長生	-11.3612
注見𤣥宗	-11.3612
鄰國	-11.3613
守宰	-11.3613
詩人	-11.3615
好問	-11.3619
遣使來	-11.3619
常事	-11.362
洪水	-11.3624
刑人	-11.3625
所著	-11.3625
烏有	-11.3626
又聞	-11.363
者何哉	-11.363
遂廢	-11.363
不返	-11.3633
農桑	-11.3639
湟	-11.3641
彦卿	-11.3641
不能討	-11.3642
貧民	-11.3644
度量	-11.3645
餘年	-11.3645
延熹	-11.3645
穆帝永和	-11.3646
明道	-11.3651
氣象	-11.3651
江水	-11.3652
厭之	-11.3653
雖以	-11.3654
免役	-11.3654
沛國	-11.3656
入蜀	-11.3658
太過	-11.3659
遺之	-11.3662
燕京	-11.3663
義士	-11.3666
所害	-11.3667
邀擊	-11.3667
更為	-11.3667
進屯	-11.3668
削平	-11.3668
其義自見	-11.367
威震	-11.3671
諡文	-11.3672
形於	-11.3672
里克	-11.3672
衆議	-11.3674
栁州	-11.3675
君若	-11.3679
並行	-11.3679
卑辭	-11.3683
東道	-11.3687
宿州	-11.3688
涯	-11.3691
皆出於	-11.3693
大司徒	-11.3702
注見晋	-11.3703
九行	-11.3704
北流	-11.3708
不精	-11.3708
新興	-11.3708
平地	-11.3709
迎降	-11.3711
在應天府	-11.3712
豨	-11.3715
琪	-11.3718
僮	-11.3718
囘鶻	-11.3719
政治	-11.3719
陕	-11.372
霖雨	-11.3721
還京師	-11.3721
之强	-11.3721
逡	-11.3722
筵	-11.3722
灰	-11.3725
柩	-11.3725
全誨	-11.3725
紐	-11.3726
夷三族	-11.3727
明徳	-11.3728
榻	-11.3729
躋	-11.3729
遂䧟	-11.373
侑	-11.3731
歇	-11.3731
不旋踵	-11.3731
翠	-11.3732
旌旗	-11.3732
功成	-11.3733
秣陵	-11.3734
勦	-11.3735
紆	-11.3735
勿用	-11.3737
天竺	-11.3738
符瑞	-11.3738
車騎將軍	-11.3739
臣以為	-11.374
屠戮	-11.374
幷	-11.3741
李廣	-11.3741
外事	-11.3741
劉光世	-11.3741
如是則	-11.3741
樞機	-11.3742
同時	-11.3743
田承嗣	-11.3746
正位	-11.3746
所貴	-11.3748
釋奠	-11.3749
陸賈	-11.3751
陵縣	-11.3752
使君	-11.3753
膠東	-11.3753
擁衆	-11.3756
謂之何哉	-11.3759
罵曰	-11.3761
雍丘	-11.3761
之所在	-11.3764
淳化	-11.3766
附庸	-11.3773
營州	-11.3774
五世	-11.3778
始元年	-11.3786
淮東	-11.3787
即墨	-11.379
赴難	-11.3796
非惟	-11.3799
海陵	-11.38
三十二	-11.3803
復召	-11.3803
高陽	-11.3804
伐魯	-11.3804
七萬	-11.3805
從諌	-11.3805
太息	-11.3806
日甚	-11.3807
要之	-11.3812
改號	-11.3813
亂世	-11.3814
也歟	-11.3815
擊大破之	-11.3822
未可知	-11.3826
威令	-11.3826
東征	-11.3829
地名在	-11.3832
月令	-11.3833
綱常	-11.3835
不可使	-11.3842
器用	-11.3846
光世	-11.3846
濟州	-11.3848
先取	-11.3849
忠嗣	-11.385
虚實	-11.3853
中書門下	-11.3853
討當	-11.3857
榖梁	-11.3859
老成	-11.386
金吾	-11.386
弑帝	-11.3862
後日	-11.3864
世主	-11.3865
莫敢言	-11.3866
朝義	-11.3867
窮治	-11.387
城内	-11.3871
勇士	-11.3871
陵夷	-11.3871
稱兵	-11.3873
左氏傳	-11.3873
亂賊	-11.3875
諸縣	-11.3875
㑹諸侯	-11.3876
聽命	-11.3877
世俗	-11.3878
杜預曰	-11.388
失禮	-11.388
何用	-11.3881
滁州	-11.3883
嫗	-11.3886
唐僖宗	-11.3887
鄯	-11.389
繳	-11.3893
徳明	-11.3894
齡	-11.3894
醴	-11.3896
陽平	-11.3896
堤	-11.3897
郅支	-11.3899
皖	-11.3902
娥	-11.3902
俛	-11.3903
鞮	-11.3903
郟	-11.3903
竿	-11.3903
撻	-11.3904
圈	-11.3904
窟	-11.3906
蔚州	-11.3906
湖州	-11.3906
無益於	-11.3907
大辟	-11.3907
璩	-11.3908
頔	-11.3908
夹	-11.3908
素有	-11.3908
魂	-11.3908
鼠	-11.3908
組	-11.3909
祫	-11.3909
而前	-11.391
勔	-11.391
隄防	-11.3911
温嶠	-11.3911
圯	-11.3912
頥浩	-11.3912
兎	-11.3912
鉗	-11.3912
倘	-11.3913
一歲	-11.3913
閼	-11.3914
隧	-11.3914
殘忍	-11.3915
瘡	-11.3916
憫	-11.3916
合浦	-11.3917
親賢	-11.3917
袁粲	-11.3917
兖州刺史	-11.3917
偓	-11.3919
先零	-11.3919
全斌	-11.392
黷武	-11.392
𤣥齡	-11.3921
娛	-11.3922
中書監	-11.3922
卿言	-11.3923
上封事	-11.3924
一世	-11.3925
大夏	-11.3926
慰諭	-11.3928
漢獻帝建安	-11.3928
萬乘之	-11.3929
求直言	-11.3929
戸部	-11.393
為之備	-11.393
皆屬	-11.3932
失利	-11.3934
酷吏	-11.3934
河東節度使	-11.3935
善乎	-11.3939
王敦	-11.3942
流沙	-11.3947
李膺	-11.3949
神農	-11.3949
文宣	-11.3952
必勝	-11.3953
不能救	-11.3953
為翰林學士	-11.396
承訓	-11.396
王承宗	-11.3962
假道	-11.3962
永和	-11.3963
虞舜	-11.3967
就第	-11.3969
王僧辯	-11.3971
注見太宗貞觀	-11.3975
疏云	-11.3975
一體	-11.3978
親屬	-11.3979
鄉縣	-11.3985
水火	-11.3986
項王	-11.399
吳郡	-11.399
莊襄	-11.3991
曾不	-11.3991
震恐	-11.3992
爵位	-11.3993
豈敢	-11.3994
朔州	-11.3996
皇太	-11.3996
不自知	-11.3999
四十五年	-11.4005
復興	-11.401
在天	-11.4011
横行	-11.4014
致太平	-11.4015
舉國	-11.4018
今日之事	-11.4021
炎帝	-11.4021
無間	-11.4025
城守	-11.4028
更立	-11.403
不韋	-11.403
皇天	-11.4032
合諸侯	-11.4034
不得與	-11.404
景龍	-11.404
郭后	-11.404
攻戰	-11.4041
恒州	-11.4044
元元	-11.4045
𥙷	-11.4045
州司馬	-11.4046
以狥	-11.4047
代郡	-11.4048
誰可	-11.4052
顔色	-11.4054
養民	-11.4054
狥國	-11.4055
手書	-11.4057
忠武	-11.406
并力	-11.4061
而不為	-11.4062
則罪	-11.4062
帝幸	-11.4062
内難	-11.4063
專任	-11.4064
曲為	-11.4066
戍卒	-11.407
之圍	-11.4071
講武	-11.4071
慶父	-11.4073
太宗貞觀	-11.408
發憤	-11.408
不悅	-11.408
炙	-11.4081
出屯	-11.4081
虗	-11.4081
蟬	-11.4085
力行	-11.4085
立其弟	-11.4086
巒	-11.4086
燈	-11.4087
昭明	-11.4089
徭	-11.4089
舉朝	-11.409
餒	-11.409
郷	-11.409
搖	-11.4091
四郡	-11.4091
哉綱目	-11.4092
鄧艾	-11.4092
劵	-11.4093
炬	-11.4093
逄吉	-11.4094
者莫不	-11.4094
郭璞	-11.4095
孕	-11.4096
上書曰	-11.4096
炭	-11.4096
緘	-11.4098
開府儀同三司	-11.4098
興平	-11.4099
枝葉	-11.4099
甲戌	-11.4099
奉朝請	-11.41
囿	-11.4101
賈逵	-11.4101
壬戌	-11.4103
行軍司馬	-11.4103
羆	-11.4104
上䟽曰	-11.4104
復改	-11.4104
後魏置	-11.4104
垍	-11.4105
雖云	-11.4105
詘	-11.4105
武德	-11.4106
緡錢	-11.4106
嘿	-11.4106
扵此	-11.4106
漕運	-11.4107
約束	-11.4109
玉帛	-11.4109
圃	-11.411
泰誓	-11.4112
自新	-11.4115
選用	-11.4116
吕夷簡	-11.4119
天下之民	-11.4119
風俗通	-11.412
父子兄弟	-11.4123
而後可	-11.4124
延政	-11.4126
汾陽	-11.4129
不特	-11.413
桓靈	-11.4134
孔孟	-11.4134
十七行	-11.4138
𤣥宗開元	-11.4138
於家	-11.414
呉王	-11.4144
萬機	-11.4144
孝友	-11.4145
衡州	-11.4145
河橋	-11.4147
南陽府	-11.4147
太史令	-11.4149
官制	-11.4156
白太后	-11.4157
皆潰	-11.4158
作樂	-11.416
始知	-11.4161
七廟	-11.4163
郡晉屬	-11.4163
虢公	-11.4168
和三年	-11.4169
謀國	-11.4169
梁陳	-11.417
尋復置	-11.4174
懼其	-11.4174
儒術	-11.4174
不勝其	-11.4174
致書	-11.4174
韓王	-11.4175
水名	-11.4175
倍道	-11.4176
庶民	-11.4176
聖主	-11.4178
四十萬	-11.4184
先人	-11.4186
鄉人	-11.4187
鎮州	-11.4189
可保	-11.419
元主	-11.419
劾奏	-11.419
于天下	-11.4192
深切	-11.4192
董賢	-11.4194
無所不至	-11.4198
五千人	-11.4198
所以正	-11.4201
世變	-11.4201
五胡	-11.4201
奮擊	-11.4202
兆民	-11.4202
君側	-11.4207
三十一年	-11.4207
晉文公	-11.4207
大政	-11.4209
萬斛	-11.4219
顯宗	-11.4222
别種	-11.4222
亦不得	-11.4223
良將	-11.4228
引見	-11.4229
譏辭	-11.4229
葉一行	-11.4232
正旦	-11.4233
豈足	-11.4235
遣歸	-11.4237
先書	-11.4238
亂政	-11.4238
保全	-11.4242
三里	-11.4243
在河南府	-11.4247
又奏	-11.4249
仲子	-11.4251
宋太祖	-11.4252
皆不書	-11.4255
頗有	-11.4256
邳	-11.426
㑹稽郡	-11.4262
辭不受	-11.4262
指揮	-11.4263
盖亦	-11.4264
傭	-11.4264
河東郡	-11.4267
莭	-11.427
璨	-11.427
爵賞	-11.4271
城西北	-11.4274
郿	-11.4275
十二行	-11.4276
丹陽郡	-11.4277
樂浪	-11.4279
革命	-11.428
筦	-11.428
簽書院事	-11.428
築長城	-11.428
臼	-11.4282
赭	-11.4282
看	-11.4282
黄門侍郎	-11.4283
真定府	-11.4284
蔓	-11.4284
詈	-11.4284
二家	-11.4284
豈不深可	-11.4286
幘	-11.4286
其營	-11.4286
與之同	-11.4287
中書舎人	-11.4287
涓	-11.4288
禇遂良	-11.4288
幄	-11.4288
當是之時	-11.4288
冒頓	-11.4289
穉	-11.4291
孔安國	-11.4291
妄言	-11.4293
十五萬	-11.4293
貧賤	-11.4294
竣	-11.4294
市井	-11.4296
凜	-11.4297
澶淵	-11.4297
擠	-11.4298
蔡卞	-11.4299
名號	-11.4301
振武	-11.4301
李憲	-11.4302
李沆	-11.4303
楊炎	-11.4304
宫闈	-11.4306
恨之	-11.4307
欲廢	-11.4307
十有七年	-11.4307
不愧	-11.4308
台州	-11.4309
攻取	-11.4309
嘗問	-11.4309
太平興國	-11.431
失望	-11.4312
曰古之	-11.4315
間道	-11.4315
必待	-11.4316
偷安	-11.4317
十八行	-11.4319
萬石	-11.4319
逺方	-11.4323
始二年	-11.4324
偃師	-11.4325
明德	-11.4326
儒生	-11.4328
劉璋	-11.4332
海西	-11.4332
采石	-11.4336
廷美	-11.4336
西域國名	-11.4336
隂山	-11.4338
天禧	-11.4339
信義	-11.4342
豈知	-11.4343
也其後	-11.4343
浙江	-11.4343
順天	-11.4344
予奪	-11.4347
武成	-11.4349
强弱	-11.4356
處羅	-11.4357
書薨	-11.4359
以慰	-11.4363
奉行	-11.4363
賈后	-11.4366
他事	-11.4369
畏其	-11.4369
教授	-11.437
併入	-11.4371
矣嗚呼	-11.4371
遂滅	-11.4376
亦如之	-11.4378
舒州	-11.438
族滅	-11.4381
後代	-11.4383
子雲	-11.4384
滔天	-11.4384
入河	-11.4385
當塗	-11.4386
朝命	-11.4388
武臣	-11.4389
復恭	-11.439
功曹	-11.4392
簡子	-11.4394
不得入	-11.4396
今宜	-11.4398
復起	-11.4399
中道	-11.4402
勿復	-11.4407
經制	-11.4408
邾人	-11.4415
行師	-11.4423
力屈	-11.4427
君親	-11.4428
漢景帝	-11.4432
且夫	-11.4435
其妻子	-11.4435
自全	-11.4436
十數	-11.4439
不可得也	-11.444
濮王	-11.4448
前年	-11.4448
黒闥	-11.4449
雹	-11.4449
故不書	-11.445
鄩	-11.4455
五六	-11.4457
慨	-11.4457
王妃	-11.4458
此條	-11.446
愕	-11.446
大防	-11.4463
醴泉	-11.4463
縯	-11.4464
用刑	-11.4466
拳	-11.4466
喧	-11.4467
栻	-11.4467
䞇	-11.4468
前漢	-11.4468
服䖍曰	-11.4469
仇池	-11.447
亾	-11.447
在長安	-11.4472
苴	-11.4474
順宗	-11.4474
鄜延	-11.4475
郅	-11.4475
五服	-11.4477
厨	-11.4478
道德	-11.4479
攬	-11.4479
押	-11.4479
忱	-11.448
跌	-11.448
杵臼	-11.448
訂	-11.448
氏崩	-11.448
寛仁	-11.448
兵部尚書	-11.448
鄢陵	-11.4481
袁盎	-11.4481
瑣	-11.4481
注見𤣥宗開元	-11.4483
五十年	-11.4483
昂	-11.4484
倉庫	-11.4484
鉏	-11.4485
睹	-11.4488
鶉	-11.4489
太上	-11.4489
史思明	-11.4489
夙夜	-11.4489
聚斂	-11.449
薛延陀	-11.4492
己酉	-11.4492
先見	-11.4494
資糧	-11.4494
有竒	-11.4495
岐州	-11.4496
孫皓	-11.4497
十有八年	-11.4498
大笑	-11.4499
何去非	-11.45
息民	-11.45
渭南	-11.4501
帝嚳	-11.4502
武三思	-11.4502
隋煬帝	-11.4502
况於	-11.4503
戰艦	-11.4504
都督府	-11.4508
綱目不書	-11.4508
彗星見	-11.4509
淮夷	-11.451
併力	-11.4511
加兵	-11.4514
保吉	-11.4514
饒州	-11.4515
勸帝	-11.4515
真偽	-11.4517
舊事	-11.4519
因以為	-11.4519
赤子	-11.452
鄭𤣥	-11.452
太皇	-11.452
二句	-11.4521
孤立	-11.4523
漢世	-11.4526
斥書	-11.4531
士君子	-11.4531
兩川	-11.4537
擇人	-11.4538
太史公曰	-11.4539
相對	-11.4542
良久	-11.4545
宜早	-11.4546
全軍	-11.4548
城東南	-11.4551
罪之也	-11.4551
經畧使	-11.4551
尚書郎	-11.4552
州天寳初改	-11.4553
衡陽	-11.4554
以拒之	-11.4559
長短	-11.456
失地	-11.4562
六日	-11.4562
統萬	-11.4564
陵寢	-11.4568
為賊所	-11.4571
赤心	-11.4571
益兵	-11.4571
首惡	-11.4571
諫者	-11.4574
所薦	-11.4579
周師	-11.4581
𤣥成	-11.4581
魏志	-11.4584
郭氏	-11.4586
擢為	-11.4589
齊賢	-11.459
豈獨	-11.459
勤於	-11.4592
戊子	-11.4593
長星	-11.4594
直指	-11.4598
志氣	-11.4602
牛馬	-11.4607
元狩	-11.4608
涇陽	-11.4609
及弟	-11.4612
其端	-11.4612
因循	-11.4612
䕫州	-11.4616
海上	-11.4617
理財	-11.4621
楚漢	-11.4622
劉淵	-11.4626
矣故特書	-11.4626
之福也	-11.4627
昧於	-11.4628
屬官	-11.463
一節	-11.4636
大綱	-11.4636
髙下	-11.4637
有寵於	-11.4637
既知	-11.4638
不得志	-11.464
有餘而	-11.4643
節度注見	-11.465
無虞	-11.4652
不可信	-11.4652
備禦	-11.4654
繼隆	-11.4655
而不知其	-11.4658
固不足	-11.4658
興三年	-11.466
傉檀	-11.4661
頠	-11.4661
珏	-11.4662
本文	-11.4662
其手	-11.4664
杼	-11.4664
丗	-11.4665
捶	-11.4667
彚	-11.4667
岑彭	-11.4667
年老	-11.4667
縋	-11.4668
公車	-11.4668
攻魏	-11.4669
折衝	-11.4669
張晏曰	-11.467
耒	-11.467
徳昭	-11.4671
讞	-11.4671
鄂勒哲	-11.4672
澮	-11.4672
四年春正月	-11.4673
適足	-11.4674
鱗	-11.4674
綱目之所書	-11.4674
刈	-11.4674
濯	-11.4675
麄	-11.4675
汜水	-11.4675
魏主叡	-11.4676
駕馭	-11.4677
歉	-11.4677
漲	-11.4677
羊祜	-11.4678
廵檢	-11.4678
隋初郡廢	-11.4679
屨	-11.468
汀	-11.468
沾	-11.468
三桓	-11.4681
帑	-11.4681
侵宋	-11.4683
守澄	-11.4683
瞽瞍	-11.4684
媿	-11.4684
后土	-11.4685
璣	-11.4685
伉	-11.4685
必有所	-11.4685
為大將軍	-11.4687
遊宴	-11.4687
陀	-11.4687
許諾	-11.4689
郎將	-11.469
六師	-11.4692
城䧟	-11.4692
曹魏	-11.4692
扶蘇	-11.4695
李繼	-11.4695
隱公	-11.4696
焉耆	-11.4697
贖罪	-11.4697
漢之縣名	-11.4698
注見周威烈王二十三年	-11.4699
至是又	-11.4704
嫌疑	-11.4705
髙氏	-11.4705
不可勝數	-11.4706
賊帥	-11.4707
直學士	-11.4708
劉歆	-11.4709
宿將	-11.471
用度	-11.471
宫門	-11.471
備矣	-11.471
平勃	-11.4712
大河	-11.4712
三郡	-11.4713
劉聰	-11.4715
所以致	-11.4716
外夷	-11.4716
微弱	-11.4716
不果行	-11.4717
宋陞	-11.4718
二千人	-11.472
東流	-11.4721
帝堯	-11.4721
孟堅	-11.4722
斥逐	-11.4723
直筆	-11.4726
濟江	-11.4726
譛之	-11.4729
方叔	-11.4734
門下侍郎	-11.4734
洛口	-11.4735
待詔	-11.4736
厚恩	-11.4742
星變	-11.4742
俟其	-11.4744
追諡	-11.4748
康居	-11.4748
庶長	-11.4749
天心	-11.4749
自恣	-11.475
慶州	-11.4751
多難	-11.4751
梁山	-11.4752
既成	-11.4754
梓州	-11.4758
張濬	-11.476
世修	-11.4761
宜加	-11.4762
衆潰	-11.4765
一毫	-11.4769
十六國	-11.4773
大振	-11.4773
叅軍	-11.4777
太清	-11.4778
勇力	-11.4779
禮部	-11.478
坐視	-11.478
新州	-11.4781
改縣曰	-11.4789
持重	-11.4791
三族	-11.4792
制勝	-11.4793
狄道	-11.4794
變化	-11.4794
竊發	-11.4796
十五行	-11.4798
賢士	-11.4798
風化	-11.48
韋后	-11.4805
惜也	-11.4806
何獨	-11.481
自見矣	-11.4811
豈容	-11.4812
智力	-11.4816
三十卷	-11.4817
銜之	-11.4821
范氏	-11.4822
藉口	-11.4824
于民	-11.4827
司馬昭	-11.4829
王庭	-11.4829
族誅	-11.483
克復	-11.4834
下馬	-11.4837
擢用	-11.4838
賢主	-11.4839
前朝	-11.4839
縣名注見漢獻帝建安	-11.4843
注見周赧	-11.4845
煥	-11.4846
追及	-11.4848
之至也	-11.4853
濛	-11.4853
庻人	-11.4854
桂州	-11.4854
不朽	-11.4855
定䇿	-11.4857
僅得	-11.4858
古史	-11.4859
皁	-11.4861
沈湎	-11.4861
箠	-11.4862
丼	-11.4863
歸政	-11.4864
絕	-11.4864
不繼	-11.4864
遹	-11.4864
漢書音義曰	-11.4864
餐	-11.4864
忠貞	-11.4865
烽	-11.4866
黙啜	-11.4866
磔	-11.4867
禮部尚書	-11.4868
驁	-11.4869
而遁	-11.4869
蹤	-11.487
孟康曰	-11.487
斟	-11.4871
紓	-11.4872
砥	-11.4873
曲阜	-11.4875
霽	-11.4875
愛憎	-11.4876
假借	-11.4876
二十餘萬	-11.4877
圖䜟	-11.4877
宇文㤗	-11.4878
毖	-11.4878
床	-11.4878
冥	-11.4878
蠕蠕	-11.4879
慄	-11.488
誌	-11.4881
裴延齡	-11.4882
盪	-11.4882
青苖	-11.4882
張柬之	-11.4882
婚姻	-11.4883
濱	-11.4884
茂陵	-11.4884
估	-11.4886
稍稍	-11.4887
荆棘	-11.489
劉摯	-11.4891
簒弑	-11.4891
錢帛	-11.4892
乾符	-11.4892
由此觀之	-11.4893
不能保	-11.4894
莭度使	-11.4894
雲夢	-11.4894
羣盜	-11.4895
詔求直言	-11.4897
數十里	-11.4897
左傳昭	-11.4899
求治	-11.4901
葢亦	-11.4903
賦役	-11.4904
太學生	-11.4905
居正	-11.4905
天資	-11.4905
三載	-11.4906
大丈夫	-11.4908
萬乗之	-11.4911
閤門	-11.4913
生死	-11.4913
老莊	-11.4916
師範	-11.4917
官司	-11.4921
矣綱目書	-11.4921
天下共	-11.4922
妃嬪	-11.4923
文辭	-11.4924
决矣	-11.4924
一萬	-11.4924
注見宋文帝	-11.4924
名義	-11.4926
攝政	-11.4927
十行	-11.4928
景宗	-11.493
前人	-11.4932
屈原	-11.4934
遂克	-11.4936
北涼	-11.4937
次子	-11.494
凡六	-11.4941
兩端	-11.4942
君實	-11.4945
路史	-11.4945
彗出	-11.4946
陳霸先	-11.4946
義渠	-11.4947
劉毅	-11.495
承業	-11.4953
但云	-11.4957
治世	-11.4959
不予其	-11.4961
閉城	-11.4961
羣臣請	-11.4962
黎民	-11.4962
民財	-11.497
學官	-11.4972
虎臣	-11.4972
所以能	-11.4977
苑中	-11.4981
天下之士	-11.4981
亦可以	-11.4981
直道	-11.4986
娣	-11.4986
古制	-11.4987
百六十	-11.4993
東夷	-11.4994
所愛	-11.4995
詐稱	-11.4995
兵三萬	-11.4998
被誅	-11.4998
郡名注見秦王政三年	-11.4998
共攻	-11.4999
逃亡	-11.5
五季	-11.5004
本朝初	-11.5006
宜先	-11.5007
運糧	-11.5013
秦二世二年	-11.5014
異聞	-11.5015
晉安帝	-11.5017
吳漢	-11.502
要當	-11.5022
鄭氏曰	-11.5028
唐初復置	-11.503
上計	-11.5031
今觀	-11.5041
棄城	-11.5042
允文	-11.5043
義宣	-11.5046
一失	-11.5052
得之矣	-11.5054
光逺	-11.5055
者此其書	-11.5058
要在	-11.5061
哈瑪爾	-11.5064
羨	-11.5067
臨終	-11.5067
陽郡名注見	-11.5068
蔡氏傳曰	-11.5069
此盖	-11.5069
撾	-11.5069
峭	-11.507
曰此非	-11.5071
兵擊之	-11.5072
詛	-11.5073
何病	-11.5075
莎車	-11.5075
歸田里	-11.5076
勗	-11.5077
艮	-11.5077
翹	-11.5077
瀕	-11.5078
為内應	-11.5078
南征	-11.5079
僚佐	-11.5079
惴	-11.508
後悔	-11.508
甬	-11.5082
鄄	-11.5082
顛倒	-11.5082
臥	-11.5083
錢鏐	-11.5084
驕侈	-11.5084
閭閻	-11.5084
巍	-11.5085
慰勞	-11.5085
秦王世民	-11.5085
頤	-11.5086
太中大夫	-11.5086
姑孰	-11.5087
反逆	-11.5088
覆轍	-11.5088
都元帥	-11.5089
編次	-11.5089
貨財	-11.509
比肩	-11.509
渴	-11.5091
琯	-11.5091
潘美	-11.5092
臧否	-11.5092
公薨子	-11.5092
涵	-11.5093
又豈	-11.5093
為盟主	-11.5093
草創	-11.5096
唐𤣥宗開元	-11.5097
元惡	-11.5097
洞庭	-11.5098
季友	-11.5099
仁贍	-11.51
曹參	-11.5102
𢎞範	-11.5103
安敢	-11.5104
復叛	-11.5106
原州	-11.5109
復位	-11.5111
書之所以	-11.5113
召募	-11.5117
他時	-11.5118
治體	-11.5119
陽翟	-11.512
國之君	-11.5121
未暇	-11.5121
偽學	-11.5121
於庭	-11.5121
一無所	-11.5122
血食	-11.5124
帝𤣥更始二年	-11.5125
自矜	-11.5126
謀臣	-11.5128
黔中	-11.5128
熈河	-11.5131
仲達	-11.5132
長社	-11.5133
劉曜	-11.5134
建武元年	-11.5135
五十餘	-11.5138
前驅	-11.5144
二里	-11.5147
西城	-11.5154
西州	-11.5155
曷為不書	-11.5156
乘間	-11.5156
顧乃	-11.5157
天下之心	-11.5158
各得其	-11.5159
七行	-11.5161
畧陽	-11.5162
流離	-11.5162
譬之	-11.5165
失實	-11.5167
秀實	-11.5167
白虎	-11.5167
注見漢獻帝興平二年	-11.5168
養子	-11.5171
壽州	-11.5174
傅説	-11.5178
直臣	-11.5179
庶政	-11.5182
三十七	-11.5183
無極	-11.5185
廢黜	-11.5186
餘慶	-11.5193
酒酣	-11.5195
征西	-11.5195
晋陽	-11.5201
草制	-11.5203
同異	-11.5204
之人也	-11.5206
書其官	-11.5209
改正	-11.5213
髙后	-11.5215
城名注見	-11.5215
并天下	-11.5217
問罪	-11.5218
轉相	-11.5218
節度副使	-11.5223
恩澤	-11.5225
賈氏	-11.5229
滎	-11.523
綱目特	-11.5235
南蠻	-11.5236
甚重	-11.5236
恣行	-11.5242
惟陛下	-11.5244
官職	-11.5255
卓然	-11.5258
名節	-11.526
前軍	-11.5261
无	-11.5265
州尋改	-11.5266
極論	-11.5271
救鄭	-11.5272
譁	-11.5274
邦國	-11.5275
通論	-11.5275
盆	-11.5275
㠯	-11.5275
所畏	-11.5277
弗能	-11.5278
乃退	-11.5278
縑	-11.5279
噶	-11.5279
訢	-11.528
肱	-11.528
諸侯之師	-11.528
尙	-11.528
牡	-11.5281
抉	-11.5281
養老	-11.5281
猖	-11.5282
觀之則	-11.5283
皂	-11.5283
裴矩	-11.5283
彜	-11.5283
癡	-11.5284
笏	-11.5284
湜	-11.5284
羮	-11.5285
都虞候	-11.5285
菽	-11.5285
航	-11.5286
鵲	-11.5287
縷	-11.5287
擿	-11.5288
孟知祥	-11.5288
桑𢎞羊	-11.5288
茲	-11.5288
郜	-11.5288
耘	-11.5289
媯	-11.5289
䑓	-11.529
絞	-11.5292
鄣	-11.5293
沈慶之	-11.5295
皥	-11.5295
論功	-11.5296
景德	-11.5297
資治通鑑	-11.5298
仁杲	-11.5298
慰撫	-11.5299
褚淵	-11.5299
三嵗	-11.5302
張邦昌	-11.5304
引軍	-11.5304
不能去	-11.5306
三國吳	-11.5308
單子	-11.5311
詔從之	-11.5312
太牢	-11.5313
明旦	-11.5314
夜半	-11.5314
奏聞	-11.5316
貪暴	-11.5317
金石	-11.5317
允恭	-11.5319
可稱	-11.532
討逆	-11.532
為列侯	-11.5321
達蘭	-11.5321
東胡	-11.5324
進擊	-11.5325
西陽	-11.5326
離散	-11.5327
招討	-11.533
暴崩	-11.533
而返	-11.5332
員外郎	-11.5335
田單	-11.5336
諸家	-11.5337
仁孝	-11.5337
遂據	-11.5339
欣然	-11.5339
王曾	-11.5341
欲速	-11.5348
萬五千	-11.5348
仍舊元	-11.5349
姦雄	-11.535
孫之翰論	-11.5354
宋元仍舊	-11.5354
阿附	-11.5355
與諸將	-11.5357
魯肅	-11.5359
伯升	-11.5361
𢎞正	-11.5361
子羽	-11.5362
不能容	-11.5364
西魏改	-11.5366
祖父	-11.5366
還長安	-11.5366
避位	-11.5367
夷滅	-11.5367
附于	-11.5367
曉然	-11.5369
於縣置	-11.5369
乗間	-11.5372
秦王政	-11.5373
亦不敢	-11.5374
既久	-11.5376
萬事	-11.5381
呉子	-11.5382
鄭衆	-11.5383
也昔者	-11.5385
之君臣	-11.5394
張禹	-11.5396
八九	-11.5398
留意	-11.5398
縣名注見周	-11.5402
不協	-11.5403
氏族	-11.5407
晉武帝太康	-11.5409
烈王	-11.541
子勛	-11.541
河清	-11.541
曰大王	-11.541
之甚者	-11.5421
江充	-11.5421
升降	-11.543
為中書侍郎	-11.5441
唐復置	-11.5441
高氏	-11.5442
不知所為	-11.5443
無餘	-11.5445
視朝	-11.5445
省臣	-11.5447
百餘萬	-11.5448
尋卒	-11.5448
親親	-11.5448
新舊	-11.5451
累世	-11.5452
外家	-11.5454
無成功	-11.5454
注見漢光	-11.5459
晏然	-11.5461
盛衰	-11.5462
李陵	-11.5463
伐陳	-11.5465
五星	-11.5467
存乎	-11.5468
城東北	-11.5468
來奔	-11.5468
元年正月	-11.5468
子嬰	-11.547
太后臨朝	-11.5473
讀史	-11.5474
岐山	-11.5477
書起兵	-11.5478
聖明	-11.5482
宴安	-11.5483
巨源	-11.5484
誅夷	-11.5485
州宋屬	-11.5485
桑維翰	-11.5486
功烈	-11.5487
樊噲	-11.5487
坂	-11.5488
兩國	-11.5489
汲冡	-11.5489
脚	-11.5491
頲	-11.5492
梁氏	-11.5493
隲	-11.5493
咽	-11.5494
鎛	-11.5494
緇	-11.5495
夏后氏	-11.5495
靺鞨	-11.5495
疲弊	-11.5496
黨錮	-11.5496
蕡	-11.5496
驃騎	-11.5496
匹磾	-11.5497
賣國	-11.55
培	-11.5501
僵	-11.5501
兼樞密使	-11.5501
鎧	-11.5501
吕頥浩	-11.5501
知諫院	-11.5501
鄫	-11.5501
大赦改元	-11.5502
縉紳	-11.5503
椘	-11.5504
宓	-11.5504
柬	-11.5504
地名未詳處所	-11.5505
觚	-11.5506
尉遲	-11.5507
貉	-11.5507
更定	-11.5508
饑寒	-11.5508
郡隋初	-11.5509
掃除	-11.5509
罃	-11.551
李守貞	-11.551
琇	-11.5511
堕	-11.5512
虎狼	-11.5513
劉知逺	-11.5513
御筆	-11.5514
珠玉	-11.5515
都部署	-11.5515
乾祐	-11.5516
佛寺	-11.5516
都統制	-11.5516
元氣	-11.5517
鄭畋	-11.5518
伊洛	-11.5519
適足以	-11.5521
許男	-11.5522
邊境	-11.5526
歴年	-11.5526
不失其	-11.5526
所不及	-11.5526
辭位	-11.5528
丹朱	-11.5529
曾布	-11.553
事業	-11.5534
西涼	-11.5535
乏食	-11.5537
既敗	-11.5538
犬馬	-11.5538
輔導	-11.5539
莫甚於	-11.5544
劉崇	-11.5546
孝寛	-11.5548
惟岳	-11.5548
七十二	-11.5549
聖徳	-11.555
微行	-11.555
帝大怒	-11.5551
自隨	-11.5551
之所以為	-11.5553
閩越	-11.5558
友愛	-11.5558
謝𤣥	-11.5559
叔寳	-11.5559
儉約	-11.5561
林邑	-11.5562
性剛	-11.5564
恭顯	-11.5565
誅宦官	-11.5565
朗州	-11.5566
漢成帝	-11.5567
預政	-11.5568
蔡叔	-11.557
連衡	-11.5574
禮法	-11.5574
顔師	-11.5575
廬陵王	-11.5577
成帝綏和二年	-11.558
從兄	-11.5581
不能禁	-11.5583
注見漢靈	-11.5583
不在於	-11.5585
相連	-11.5588
上嘉	-11.5588
大駭	-11.5589
奔還	-11.5591
武帝泰始	-11.5592
進逼	-11.5597
守貞	-11.5597
詔獄	-11.5598
解圍	-11.5598
将帥	-11.56
藥師	-11.5601
受敵	-11.5602
傅㑹	-11.5604
嶲	-11.5607
兼領	-11.5607
百二十里	-11.561
發喪	-11.5611
而已哉	-11.5614
増置	-11.5614
所掠	-11.5623
弑父	-11.5625
隋志	-11.5625
順陽	-11.5626
奄至	-11.563
誠心	-11.563
用尚書	-11.5633
永康元年	-11.5634
索隠	-11.5636
取容	-11.5636
事泄	-11.5638
十有一	-11.5641
建德	-11.5647
效死	-11.5648
夜襲	-11.5648
順流	-11.5648
襄州	-11.5648
三寸	-11.5652
未畢	-11.5653
思退	-11.5655
猶恐	-11.5657
大火	-11.5657
知其非	-11.5657
西域國名注見	-11.5659
崇尚	-11.5662
舊章	-11.5663
中間	-11.5664
而莫之	-11.5665
公族	-11.5667
博陵	-11.567
遺民	-11.5676
必亡	-11.5678
少保	-11.5694
雨雪	-11.5694
鄢	-11.5694
哉雖然	-11.5694
杏	-11.5697
小吏	-11.5698
五代晉	-11.5699
内地	-11.5699
挟	-11.5699
黄潜善	-11.5701
逆謀	-11.5701
穪	-11.5701
髀	-11.5703
祼	-11.5704
茍且	-11.5704
宗景龍二年	-11.5705
畎	-11.5706
牧犍	-11.5707
駙馬	-11.5707
富平	-11.5707
丐	-11.5707
糞	-11.5709
和好	-11.571
箸	-11.571
舟楫	-11.5711
講和	-11.5711
之郡名治	-11.5712
何如哉	-11.5712
炫	-11.5712
諍	-11.5713
穰苴	-11.5713
毘陵	-11.5713
帙	-11.5713
蒙遜	-11.5714
麋	-11.5714
兌	-11.5715
挹	-11.5715
晉安帝隆安	-11.5715
劓	-11.5715
玷	-11.5716
邯	-11.5717
翬	-11.5717
餙	-11.5717
衮冕	-11.5718
焞	-11.5719
藪	-11.5719
韋臯	-11.572
賢良方正	-11.572
冺	-11.572
翕然	-11.572
司馬相如	-11.5721
話	-11.5722
蹶	-11.5722
牛僧孺	-11.5722
之不暇	-11.5722
蜂起	-11.5722
驥	-11.5723
廊	-11.5723
擊走之	-11.5723
配享	-11.5724
忠臣義士	-11.5725
左傳襄	-11.5725
蚤	-11.5726
肘	-11.5726
亂天下	-11.5726
張齊賢	-11.5727
叶	-11.5727
清水	-11.5728
婁敬	-11.573
劉琨	-11.573
楊復恭	-11.573
鷙	-11.5731
卽位	-11.5731
灋	-11.5732
阿房	-11.5734
播越	-11.5736
酒色	-11.5737
優游	-11.5737
奚契丹	-11.5738
同盟于	-11.5739
劉錡	-11.574
嬖寵	-11.5742
史臣曰	-11.5744
晉獻公	-11.5744
各以其	-11.5744
仰視	-11.5746
改易	-11.5746
振旅	-11.5748
一譌	-11.575
何嘉	-11.5752
萬歳	-11.5752
元帝建武元年	-11.5752
有言曰	-11.5755
無故而	-11.5756
假手	-11.5757
杜衍	-11.5758
境上	-11.5759
寛大	-11.5759
可笑	-11.5765
進據	-11.5765
以為憂	-11.5765
之謂矣	-11.5767
王守澄	-11.5767
彰徳	-11.5771
飛龍	-11.5772
之大者也	-11.5776
萬戸	-11.5776
疑似	-11.5777
為吏部尚書	-11.5777
彊弱	-11.5783
新豐	-11.5787
力辭	-11.5787
簒位	-11.5788
竇武	-11.5789
曷若	-11.579
垂戒	-11.5792
示天下	-11.5794
對䇿	-11.5795
致討	-11.5795
他國	-11.5796
紀律	-11.5799
韓厥	-11.5799
也若夫	-11.5802
郡邑	-11.5804
内降	-11.5806
城陷	-11.5807
南涼	-11.5813
文帝元嘉	-11.5814
十六行	-11.5815
願得	-11.5817
士氣	-11.5818
朝覲	-11.5818
歩卒	-11.5819
四凶	-11.5821
夜遁	-11.5825
非聖人	-11.5826
長慶	-11.5827
不悛	-11.5832
闕失	-11.5836
兵威	-11.5837
府𨽻	-11.5838
末流	-11.5841
城西南	-11.5841
殷周	-11.5843
百七十	-11.5845
宗祀	-11.5845
三百年	-11.585
報國	-11.5852
五品	-11.5852
十有五	-11.5855
所以譏	-11.586
縣名注見周赧	-11.5865
千二百	-11.5866
禦敵	-11.5866
峽州	-11.5869
胡廣	-11.587
魯陽	-11.5871
華夏	-11.5873
漢書注	-11.5874
解體	-11.5882
江表	-11.5885
將校	-11.5885
藩臣	-11.5889
非一日	-11.589
簒國	-11.5891
還京	-11.5892
近侍	-11.5893
前殿	-11.5893
兩宫	-11.5893
開邊	-11.5897
孝伯	-11.59
櫟	-11.5902
而黜	-11.5903
張衡	-11.5905
知其不可	-11.5907
史館	-11.5914
毆	-11.5914
諸弟	-11.5915
設伏	-11.5923
颺	-11.5924
晡	-11.5926
既誅	-11.5926
驢	-11.5927
斛律	-11.5929
陴	-11.5929
擣	-11.593
黥布	-11.5932
妓	-11.5933
兵彊	-11.5934
羈	-11.5935
稱賀	-11.5935
衆庶	-11.5935
玊	-11.5935
綵	-11.5936
自潰	-11.5936
博囉	-11.5937
檀道濟	-11.5937
了翁	-11.5937
洵	-11.5938
朏	-11.5938
禰	-11.5938
啼	-11.5939
逓	-11.5939
徐兖	-11.5939
縝	-11.594
維翰	-11.594
昞	-11.594
漿	-11.594
浮橋	-11.5941
玄	-11.5941
淇	-11.5941
勵精	-11.5942
璮	-11.5942
愉	-11.5942
諳	-11.5943
邠寧	-11.5943
離騷	-11.5944
郡唐復為	-11.5944
程顥	-11.5944
荀彧	-11.5945
郇	-11.5945
或告	-11.5946
顚	-11.5946
吐突承璀	-11.5946
桂林	-11.5946
馘	-11.5946
孱	-11.5946
乍	-11.5948
租庸	-11.5949
仁軌	-11.5949
斾	-11.5951
羡餘	-11.5952
疑懼	-11.5953
真宗皇帝	-11.5953
安重誨	-11.5958
侵掠	-11.5958
驪姬	-11.5958
申錫	-11.5958
州尋廢	-11.5963
鐵勒	-11.5967
侍御	-11.5968
膠西	-11.5969
步騎	-11.5969
激怒	-11.597
河間府	-11.5973
魏文侯	-11.5974
致治	-11.5977
二千餘人	-11.5978
督戰	-11.5979
周亞夫	-11.5979
又敗	-11.5979
景祐	-11.5981
邵陵	-11.5981
婺州	-11.5982
南仲	-11.5982
所以重	-11.5983
震動	-11.5983
復改為	-11.5986
尚能	-11.599
引咎	-11.599
捨身	-11.5992
郡唐屬	-11.5993
伯父	-11.5994
陰陽	-11.5994
一代之	-11.5995
千五百	-11.5996
三百餘	-11.5997
夀皇	-11.5998
攻䧟	-11.6
帳下	-11.6
至國朝	-11.6002
叛亂	-11.6004
恃功	-11.6006
劉晏	-11.6009
為三公	-11.6009
才能	-11.6016
小白	-11.6022
㐮陽	-11.6023
太微	-11.6026
小過	-11.6027
嵗月	-11.6028
南昌	-11.6029
陳倉	-11.6029
天寳初	-11.6032
然後可以	-11.6033
南岸	-11.6035
命有司	-11.6038
抑觀	-11.6038
移鎮	-11.6039
三十三	-11.6042
起兵討	-11.6044
泰伯	-11.6044
注見漢宣帝	-11.6045
其咎	-11.6046
弑逆之	-11.6047
主和議	-11.605
上表請	-11.6053
封疆	-11.6054
之弟也	-11.6057
南單于	-11.6058
鄧通	-11.6059
崇寧	-11.6062
離宫	-11.6064
之孫也	-11.6066
中傷	-11.6071
獲免	-11.6071
歸咎	-11.6073
所築	-11.6079
闗内	-11.608
功德	-11.6083
善用兵	-11.6085
為相國	-11.6086
謀作亂	-11.6086
孤軍	-11.6088
金墉	-11.6091
逐北	-11.6092
之大者	-11.6097
齊丘	-11.6098
吾聞	-11.6106
没於	-11.6107
敬天	-11.6111
辰州	-11.6113
言事者	-11.6114
乘馬	-11.6116
延安	-11.6118
書於冊	-11.6119
諡忠	-11.6122
不念	-11.6127
隨時	-11.6133
武丁	-11.6136
竒兵	-11.6137
孤城	-11.6142
咺	-11.6145
過半	-11.6147
㲄	-11.615
頰	-11.6152
大雪	-11.6154
琅琊	-11.6155
槀	-11.6155
騶	-11.6156
何足以	-11.6156
灃	-11.6157
帝曰朕	-11.6157
氶	-11.6157
維州	-11.6157
煜	-11.6157
圻	-11.6157
㤀	-11.6157
皋	-11.6158
𤓰州	-11.6158
薰	-11.6158
亊	-11.6158
君集	-11.6159
疽	-11.6159
曽子	-11.6159
倨	-11.616
涖	-11.6161
遣兵攻	-11.6161
鎰	-11.6161
鑰	-11.6163
梵	-11.6163
未知是否	-11.6163
淡	-11.6163
萱	-11.6164
良弼	-11.6164
瘳	-11.6164
芾	-11.6164
扺	-11.6165
毘	-11.6165
州以縣屬	-11.6165
宕	-11.6166
吞噬	-11.6166
肺	-11.6166
琚	-11.6167
豚	-11.6167
餼	-11.6167
浞	-11.6169
豺	-11.6169
滂	-11.6169
爼	-11.6171
瓦解	-11.6171
裴炎	-11.6172
阿古逹	-11.6172
昺	-11.6174
動揺	-11.6174
斜谷	-11.6174
靚	-11.6175
墊	-11.6176
不可失也	-11.6177
耄	-11.6178
癸卯	-11.6178
友珪	-11.6179
蕪湖	-11.6179
奨	-11.618
鑠	-11.6181
朋友	-11.6181
譙王	-11.6185
旬月	-11.6185
相拒	-11.6185
隋改為	-11.6185
五路	-11.6187
祖逖	-11.6187
注見秦二世三年	-11.6187
彌逺	-11.6187
十有六	-11.6188
孔融	-11.6189
無怨	-11.6191
敬暉	-11.6194
曹爽	-11.6194
謂羣臣曰	-11.6194
時人謂之	-11.6195
士庶	-11.6196
未央宫	-11.6196
蘭州	-11.6197
推恩	-11.6197
養成	-11.6198
其術	-11.6198
先祖	-11.6199
以謝天下	-11.6202
於此時	-11.6202
漳水	-11.6202
千八百	-11.6203
逆黨	-11.6205
樂器	-11.6206
縣名注見晉	-11.6206
泌曰	-11.621
左藏	-11.6211
心術	-11.6214
勞苦	-11.6215
魏文帝	-11.6215
被甲	-11.6216
抑亦	-11.6218
事跡	-11.6219
為御史中丞	-11.622
蒼生	-11.622
仲康	-11.6222
公卿大夫	-11.6224
今按此	-11.623
張巡	-11.623
兵二萬	-11.6231
諸大夫	-11.6233
田悦	-11.6235
軍潰	-11.6235
兵入援	-11.6236
十有四	-11.6237
門之外	-11.624
希廣	-11.6242
私第	-11.6243
仁夀	-11.6244
入洛陽	-11.6246
臣妾	-11.6246
殷民	-11.6247
左將軍	-11.625
王武俊	-11.625
十四行	-11.6253
五色	-11.6255
十一行	-11.6256
臺省	-11.6258
形如	-11.6259
貳師	-11.6262
轉戰	-11.6263
後之人	-11.6263
切直	-11.6265
浮梁	-11.6266
乾封	-11.6268
發䘮	-11.6269
行逢	-11.6269
遣騎	-11.6271
邾子	-11.6273
反側	-11.6274
悛	-11.6275
嵩山	-11.6276
曽無	-11.6276
可畏也	-11.6277
據險	-11.6281
鮮于	-11.6281
繼勲	-11.6284
歩兵	-11.6286
既亡	-11.6289
農夫	-11.6289
季興	-11.6295
尊崇	-11.6298
積石	-11.6305
貧者	-11.6306
定律令	-11.6309
沂州	-11.6314
至建康	-11.6314
右正言	-11.6315
畏服	-11.6322
逆亂	-11.6324
遣使詣	-11.6329
和解	-11.6329
失天下	-11.633
去病	-11.6335
哉綱目書	-11.6338
未有能	-11.6339
奸臣	-11.6344
刑獄	-11.6347
荘子	-11.6348
守忠	-11.6351
良法	-11.6355
義隆	-11.6358
為左丞相	-11.6359
漢祚	-11.636
訓注	-11.6364
不決	-11.6367
所存	-11.6368
三十人	-11.6369
鉷	-11.6369
之詞也	-11.6369
伊周	-11.6371
平仲	-11.6376
陽虎	-11.6377
千匹	-11.638
鴈	-11.6382
累年	-11.6383
璉	-11.6384
敬瑄	-11.6384
秃	-11.6385
記曲禮	-11.6386
饑民	-11.6386
餅	-11.6386
嗣昭	-11.6386
瘁	-11.6387
厓	-11.6387
雨水	-11.6388
湘東王繹	-11.6388
瞿	-11.6388
老母	-11.6388
郡乾元初	-11.639
崈	-11.639
跳	-11.6391
記王制	-11.6391
巡狩	-11.6392
咈	-11.6392
鯁	-11.6393
懽	-11.6393
乞骸骨	-11.6393
出其不意	-11.6393
昩	-11.6394
陳宜中	-11.6394
輻	-11.6394
朱异	-11.6395
鑾	-11.6396
夏四月朔日食	-11.6396
張承業	-11.6397
縶	-11.6397
載記	-11.6397
餞	-11.6398
杜佑	-11.6398
垂拱	-11.6399
非徒	-11.6399
嗜酒	-11.6399
戶	-11.64
竇融	-11.64
懟	-11.64
杲卿	-11.64
戡	-11.64
虓	-11.64
仞	-11.64
關内侯	-11.64
褚遂良	-11.6401
澠池	-11.6401
埀	-11.6402
庖	-11.6402
晳	-11.6402
漢髙祖	-11.6403
竇建徳	-11.6403
條例司	-11.6403
侁	-11.6403
吏部侍郎	-11.6403
沱	-11.6404
縠	-11.6404
需	-11.6404
亦甚矣	-11.6404
庻幾	-11.6404
究其	-11.6405
踐祚	-11.6405
沴	-11.6406
軻	-11.6406
忝	-11.6407
殺其大夫	-11.6407
晷	-11.6407
大事記曰	-11.6408
㓂凖	-11.6408
腸	-11.6408
哀姜	-11.6408
逞其	-11.6408
帝元嘉	-11.6409
癸丑	-11.641
星孛	-11.641
沈攸之	-11.6411
北走	-11.6411
布帛	-11.6412
部伍	-11.6413
郾	-11.6413
關羽	-11.6414
敖曹	-11.6416
總論	-11.6418
玉門	-11.6418
熙豐	-11.6418
莫肯	-11.6419
弑其主	-11.6421
鮑叔	-11.6422
狃於	-11.6424
聼命	-11.6425
封邑	-11.6426
赴援	-11.6427
條例	-11.6429
隂平	-11.6431
孟子所謂	-11.6434
冀州刺史	-11.6437
四科	-11.6439
狐疑	-11.644
而棄之	-11.6442
深戒	-11.6443
文天祥	-11.6449
開寶	-11.6449
員外	-11.6453
應天府	-11.6457
三千餘人	-11.6459
漢獻帝興平元年	-11.6461
宣諭	-11.6461
邊患	-11.6463
講學	-11.6467
京邑	-11.647
仇讐	-11.647
熙河	-11.6475
昌邑王	-11.6476
馬融	-11.6479
永明	-11.648
樂工	-11.648
横流	-11.648
十餘日	-11.6484
不能克	-11.6485
寳應	-11.6488
不懌	-11.6489
退走	-11.6495
門户	-11.6495
銘曰	-11.6496
徃來	-11.6497
走還	-11.65
九族	-11.6502
政教	-11.6503
河湟	-11.6505
聚兵	-11.6507
温州	-11.6508
國祚	-11.6508
呂氏	-11.6509
袁氏	-11.6511
為樞密使	-11.6514
潁川郡	-11.6519
參議	-11.6521
隴西郡	-11.6521
兩浙	-11.6521
閔公	-11.6524
帝乙	-11.6526
精神	-11.6528
大索	-11.653
戍兵	-11.6532
坐貶	-11.6533
由是觀之	-11.6537
不免於	-11.654
累朝	-11.6541
戰大敗	-11.6543
三百人	-11.655
連和	-11.6551
講論	-11.6552
謂宰相曰	-11.6553
江寧	-11.6563
應對	-11.6565
自然之	-11.6567
升平	-11.657
州吁	-11.6574
孝惠	-11.6574
過惡	-11.6578
尋廢	-11.6582
隕石	-11.6585
鄧本	-11.6586
逺慮	-11.6602
西土	-11.6605
大駕	-11.6605
義恭	-11.6606
景雲	-11.6608
妣	-11.6614
温公論	-11.6618
驤	-11.6626
穫	-11.6626
沌	-11.6627
押牙	-11.6627
悶	-11.6628
糓	-11.6628
纊	-11.6629
槍	-11.6629
鄗	-11.6629
五品以上	-11.6629
存孝	-11.663
蟻	-11.663
蚡	-11.663
肸	-11.6631
稻	-11.6632
防禦使	-11.6632
年八十	-11.6633
所憚	-11.6634
蹟	-11.6634
陁	-11.6634
淚	-11.6635
鋤	-11.6635
滉	-11.6636
捉	-11.6636
阿爾哈雅	-11.6637
倉猝	-11.6637
泝	-11.6638
可不戒哉	-11.6638
啜	-11.6639
款	-11.6639
三年之喪	-11.6639
梨	-11.664
不厭	-11.664
吕惠卿	-11.664
尋罷	-11.664
鳳凰	-11.664
大有年	-11.6641
副元帥	-11.6641
影響	-11.6642
沙汰	-11.6642
羅織	-11.6642
迨夫	-11.6642
稀	-11.6643
㩁	-11.6643
彞	-11.6643
軹	-11.6643
太常卿	-11.6643
慱	-11.6643
肅然	-11.6644
巢穴	-11.6644
法律	-11.6644
仲虺	-11.6645
淮泗	-11.6646
鮮不	-11.6646
盂	-11.6647
莫大焉	-11.6648
丁卯	-11.665
糧道	-11.6653
蘇轍	-11.6654
崔杼	-11.6655
環慶	-11.6656
荆襄	-11.6656
鴻嘉	-11.6657
加九錫	-11.6659
二百四十	-11.6662
韓絳	-11.6662
病篤	-11.6662
太戊	-11.6663
潁濵	-11.6664
成帝咸和	-11.6665
休戚	-11.6666
丞相御史	-11.6667
受制於	-11.6668
刺客	-11.6669
厚賜	-11.6669
度遼	-11.667
氐羌	-11.667
詣京師	-11.6675
綱目直書	-11.6675
元陞為	-11.6677
北匈奴	-11.6678
神策	-11.668
走死	-11.6684
委質	-11.6684
英武	-11.6688
羣雄	-11.6691
信讒	-11.6694
二人皆	-11.6695
牛𢎞	-11.6695
隆基	-11.6696
凉王	-11.6697
晚年	-11.6701
矯制	-11.6704
趙高	-11.6707
深譏之	-11.671
循吏	-11.6712
姚興	-11.6716
五代唐	-11.6716
仙人	-11.6717
宋襄公	-11.6719
變更	-11.6724
潞王	-11.6726
皇嗣	-11.6741
無咎	-11.6742
廷臣	-11.6747
郡唐改	-11.6748
形勝	-11.675
内殿	-11.6753
二百年	-11.6761
賜錢	-11.6762
曲陽	-11.6763
多遜	-11.6765
累日	-11.6772
等將兵	-11.6779
河洛	-11.6782
州後屬	-11.6783
預聞	-11.6788
騎射	-11.679
呉越	-11.6791
走保	-11.6796
注見漢武帝元	-11.6797
春正月魏	-11.6797
二體	-11.6799
知㡬	-11.6805
襄陽府	-11.6818
萬乗	-11.6819
而後可以	-11.682
朐	-11.6825
明哲	-11.6827
武帝元朔	-11.6828
益驕	-11.683
君弑	-11.6831
十倍	-11.6832
岳州	-11.6834
李牧	-11.6838
財利	-11.6842
年五十	-11.6844
若干	-11.6847
郴州	-11.6847
不得進	-11.6847
知政事	-11.6849
不聞有	-11.6852
刻薄	-11.6853
􁐾	-11.6859
持論	-11.686
棧	-11.6862
醮	-11.6864
韓建	-11.6866
阿史那	-11.6869
棻	-11.6869
甯	-11.687
綾	-11.6871
偹	-11.6871
鴨	-11.6872
渇	-11.6872
帝還大都	-11.6872
兵部侍郎	-11.6872
碧	-11.6872
鳳陽府	-11.6873
詵	-11.6873
褒姒	-11.6873
祖甲	-11.6874
訃	-11.6874
絮	-11.6874
六月朔日食	-11.6875
轄	-11.6875
晁	-11.6876
溉	-11.6876
鬲	-11.6877
威烈王二十三年	-11.6877
鈍	-11.6877
服御	-11.6878
疾甚	-11.6878
蓬萊	-11.6878
贛	-11.6878
袴	-11.6878
凋	-11.6878
脯	-11.6879
藩鎭	-11.6879
唾	-11.688
竪	-11.688
徳宗貞元	-11.6881
垂簾	-11.6881
問疾	-11.6881
冨	-11.6881
緍	-11.6882
謳	-11.6882
春正月朔日食	-11.6882
緦	-11.6883
諂諛	-11.6883
莫大乎	-11.6884
煑	-11.6884
郡唐初復為	-11.6884
當此之時	-11.6884
襲殺	-11.6885
曺	-11.6886
怵	-11.6886
雱	-11.6886
鵬	-11.6887
榦	-11.6888
不亦可乎	-11.6888
爪	-11.6889
葉䕶	-11.689
晏殊	-11.689
符命	-11.689
恣横	-11.6892
枋頭	-11.6893
魋	-11.6893
跖	-11.6893
賓客	-11.6894
低	-11.6894
獄訟	-11.6895
蘇峻	-11.6898
亷恥	-11.6898
李淵	-11.6899
陸渾	-11.69
深思	-11.6901
郈	-11.6901
言於帝曰	-11.6902
汝南郡	-11.6902
陸機	-11.6902
伐衛	-11.6904
刑措	-11.6905
詣行在	-11.6905
湟中	-11.6905
拜珠	-11.6905
曹丕	-11.6909
動静	-11.6912
棗陽	-11.6913
專政	-11.6914
血氣	-11.6914
憂勤	-11.6915
縣地屬	-11.6915
盧循	-11.6915
有國者	-11.6916
維持	-11.6917
有時而	-11.6917
抵罪	-11.6918
為太上皇	-11.6921
暴横	-11.6921
四皓	-11.6925
夜郎	-11.6926
務農	-11.6928
告身	-11.693
書院	-11.6931
城名在	-11.694
惡惡	-11.6942
者什	-11.6947
磁	-11.695
皇字	-11.695
相謂曰	-11.6952
刻石	-11.6952
顯慶	-11.6954
州安置	-11.6954
便殿	-11.6957
記室	-11.6958
招納	-11.6958
交結	-11.6964
賜姓名	-11.6968
五尺	-11.6975
乾德	-11.6977
元暉	-11.6978
典刑	-11.6985
武帝元鼎六年	-11.6987
書諡	-11.6988
相似	-11.6989
還報	-11.6991
帥騎	-11.6998
顯祖	-11.6999
孔父	-11.7002
此之謂也	-11.7003
是否	-11.7005
洛陽宫	-11.7005
迄于	-11.7007
石頭城	-11.701
遷徙	-11.701
東宮	-11.7011
汝隂	-11.7013
開元中	-11.7014
甘陵	-11.7015
小雅	-11.7017
第六	-11.7017
文苑	-11.7021
嚴刑	-11.7027
索多	-11.7027
溫公	-11.7028
房州	-11.7032
𤣥宗天寳	-11.7038
百倍	-11.7042
祖禹	-11.7045
才智	-11.7049
厥徳	-11.7056
部衆	-11.7056
侔	-11.7056
後魏改	-11.7057
甚謹	-11.7064
尊位	-11.7069
年四十	-11.7069
閬州	-11.7076
注見漢桓帝	-11.7081
注見漢獻帝建安十三年	-11.7085
所知也	-11.7086
北齊省	-11.7096
入境	-11.7101
典兵	-11.7101
虞夏	-11.7102
十有九年	-11.7105
汴宋	-11.7113
養生	-11.7114
招降	-11.7114
獨斷	-11.7116
詳處所	-11.7118
日有食之	-11.7118
綦	-11.7119
栅	-11.7119
枹罕	-11.7119
哉故綱目	-11.712
悒	-11.7122
呵	-11.7122
本姓	-11.7123
絜	-11.7123
莭度	-11.7123
蓼	-11.7124
假黄鉞	-11.7124
浹	-11.7124
纛	-11.7124
刎	-11.7125
崔光	-11.7125
爚	-11.7126
錦繡	-11.7126
才畧	-11.7126
孝弟	-11.7127
闞	-11.7127
蒿	-11.7127
鮪	-11.7127
伊霍	-11.7128
不亦難乎	-11.7128
蹂	-11.7129
盥	-11.7129
哉噫	-11.7129
魴	-11.713
舍是無書	-11.713
不書此何以書	-11.713
無如之何	-11.7131
池州	-11.7131
嫚	-11.7132
州𨽻	-11.7132
揜	-11.7132
灌嬰	-11.7133
倉廩	-11.7133
程元振	-11.7134
毫釐	-11.7135
涿州	-11.7137
撞	-11.7137
俛首	-11.7137
壅蔽	-11.7138
文煥	-11.7138
番禺	-11.7139
一尺	-11.7139
盗殺	-11.714
寶卷	-11.714
孜孜	-11.7141
入禁中	-11.7141
潼川	-11.7142
晏嬰	-11.7145
錢塘	-11.7145
者鮮矣	-11.7145
毁譽	-11.7146
明徹	-11.7148
爾朱榮	-11.7148
庫庫	-11.7149
泲	-11.715
婿	-11.7151
張世傑	-11.7151
三十五里	-11.7152
豈徒	-11.7152
吕誨	-11.7154
曲筆	-11.7156
腰斬	-11.7158
直抵	-11.7159
侵擾	-11.716
語之曰	-11.7163
冦凖	-11.7163
晚節	-11.7163
城池	-11.7165
三十八	-11.7171
青州刺史	-11.7173
曷爲	-11.7173
嬰兒	-11.7176
簡文帝	-11.7176
京兆府	-11.7177
差役	-11.7177
擅殺	-11.7189
百四十	-11.7193
官渡	-11.7194
勞費	-11.7195
賜號	-11.7203
朝賀	-11.7206
借使	-11.7215
范鎮	-11.7219
舊典	-11.7224
危急	-11.7225
注見梁武帝太清	-11.7228
洺州	-11.723
剛直	-11.7232
荒服	-11.7233
大蝗	-11.7234
數百年	-11.7235
孫奭	-11.724
漢明帝	-11.7242
機㑹	-11.7244
此當書	-11.7244
第九	-11.7246
入宼	-11.726
景崇	-11.7262
東向	-11.7263
而釋之	-11.7263
戰大破之	-11.7265
思慮	-11.7265
擇賢	-11.7266
經籍	-11.727
顧望	-11.7271
宣撫司	-11.7273
宋元嘉	-11.7275
變色	-11.7276
中宗嗣聖	-11.7276
王恢	-11.7286
益急	-11.7287
非正統	-11.7292
十有八	-11.7298
辭不拜	-11.7301
豐州	-11.7304
磁州	-11.7306
何如對曰	-11.7309
大異也	-11.731
善類	-11.7318
失律	-11.732
改容	-11.7323
于太廟	-11.7324
一脱	-11.7333
塗山	-11.7334
殺其弟	-11.7341
仙芝	-11.7341
預焉	-11.7343
捧	-11.7345
茍或	-11.7355
别部	-11.7356
馳入	-11.7357
攻㧞	-11.7357
屢請	-11.7363
漢獻帝	-11.7365
注見宋明帝	-11.737
玫	-11.7372
闚	-11.7372
按一統志在	-11.7373
啖	-11.7375
克敵	-11.7375
故綱目特	-11.7376
楨	-11.7377
巵	-11.7377
淖	-11.7377
准	-11.7378
緋	-11.7378
扣	-11.7379
河源	-11.7379
戱	-11.738
蒋	-11.738
沼	-11.738
武王伐紂	-11.738
嗇夫	-11.738
朱玫	-11.7381
楮	-11.7381
癸夘	-11.7381
嬖倖	-11.7381
魅	-11.7381
注見漢獻帝建	-11.7382
兢兢業業	-11.7382
連坐	-11.7382
娘	-11.7382
矛盾	-11.7382
臨菑	-11.7383
屛	-11.7383
應奉	-11.7384
儷	-11.7384
馨	-11.7384
兔	-11.7384
可勝言哉	-11.7384
豈不知	-11.7384
繼恩	-11.7385
愁怨	-11.7385
嘔血	-11.7385
穡	-11.7385
諲	-11.7386
延禧	-11.7386
牌	-11.7386
磐	-11.7386
賀若弼	-11.7386
拓跋	-11.7386
大同府	-11.7386
崞	-11.7386
秋七月魏	-11.7387
飄	-11.7387
唇	-11.7387
哺	-11.7387
闌	-11.7387
堙	-11.7387
禮部侍郎	-11.7388
逭	-11.7388
涸	-11.7388
周威烈王	-11.7388
蠢	-11.7388
默	-11.7389
縣省入改屬	-11.7389
縊殺之	-11.7389
斁	-11.7389
帝奕太和	-11.7389
閽	-11.7389
何面目	-11.7389
邲	-11.7389
秦之縣名屬	-11.7389
豆盧	-11.739
武帝元狩元年	-11.739
橫	-11.7391
章邯	-11.7391
夢炎	-11.7391
偵	-11.7391
襟	-11.7392
姤	-11.7392
汝寧府	-11.7394
三月朔日食	-11.7394
豺狼	-11.7395
錐	-11.7395
汪黄	-11.7395
蒜	-11.7395
秋毫	-11.7395
國朝因之	-11.7396
拜謝	-11.7396
四是年	-11.7397
李吉甫	-11.74
㕔	-11.74
經綸	-11.7401
桓溫	-11.7401
按凡例	-11.7405
僨	-11.7405
丙吉	-11.7406
日蹙	-11.741
寛饒	-11.7413
消息	-11.7414
宋之君臣	-11.7415
席卷	-11.7418
不自保	-11.7418
延陵	-11.7419
梁燾	-11.7422
盆子	-11.7423
絳侯	-11.7424
涪陵	-11.7425
犯闕	-11.7426
廟堂	-11.7428
驚擾	-11.7429
封泰山	-11.7429
不書討	-11.743
元稹	-11.7431
扈從	-11.7431
乞罷	-11.7432
普通	-11.7432
伶人	-11.7433
杜牧	-11.7434
送京師	-11.7435
劒門	-11.7436
吕布	-11.7443
澶	-11.7443
簒賊	-11.7443
少游	-11.7444
葢由	-11.7444
邦君	-11.7444
雲臺	-11.7445
勲舊	-11.7445
王涯	-11.7446
老泉	-11.7448
專制	-11.7449
稱職	-11.745
未遑	-11.7452
總領	-11.7455
累遷	-11.7457
劒南	-11.7458
豫章郡	-11.7459
改國號	-11.746
結怨	-11.7468
中牟	-11.747
百端	-11.7474
周旋	-11.7478
帳中	-11.7481
秦穆公	-11.7482
奮發	-11.749
世輔	-11.7492
東昏	-11.7493
切諫	-11.75
未晚	-11.7502
天下無事	-11.7507
廣漢郡	-11.7508
王翦	-11.7509
太子監國	-11.751
死者甚衆	-11.7515
邀功	-11.7515
躬行	-11.7515
繼嗣	-11.7516
乞降	-11.7523
頓兵	-11.7524
王鐸	-11.753
用其言	-11.753
九江郡	-11.7533
深譏之也	-11.7533
荒淫	-11.7542
竟不能	-11.7542
注見秦始皇二十八年	-11.7543
䘮師	-11.7546
西征	-11.755
襲位	-11.7551
可謂善	-11.7552
九原	-11.7553
切責	-11.7558
戎服	-11.7558
兗	-11.7565
有甚於	-11.7566
孫䇿	-11.7571
憤怒	-11.7575
下漏	-11.7577
初復置	-11.758
亦未必	-11.759
脩徳	-11.7599
吾輩	-11.7602
大誥	-11.7612
馮氏	-11.7614
周文王	-11.7615
大紀曰	-11.7627
其為人	-11.764
軓	-11.7641
乙夘	-11.7641
嵇	-11.7641
加恩	-11.7642
打	-11.7642
筰	-11.7642
豈不深可惜哉	-11.7644
陳留王	-11.7645
掦	-11.7645
幻	-11.7645
澠	-11.7646
頺	-11.7646
扁鵲	-11.7647
槊	-11.7647
愜	-11.7647
槖	-11.7647
掉	-11.7648
㗖	-11.7648
貼	-11.7648
巻	-11.7649
須臾	-11.7649
簽	-11.7649
璹	-11.7649
苑囿	-11.765
龎籍	-11.765
班彪	-11.765
袤	-11.7651
刳	-11.7651
濶	-11.7651
救援	-11.7652
鍊	-11.7652
肄	-11.7652
据	-11.7652
舄	-11.7653
潦	-11.7653
袂	-11.7653
𨗳	-11.7653
其可得乎	-11.7654
酗	-11.7654
五月朔日食	-11.7655
八月朔日食	-11.7655
榛	-11.7656
聾	-11.7656
號泣	-11.7656
鈐轄	-11.7656
匡𦙍	-11.7656
磨勘	-11.7656
托歡	-11.7658
鵠	-11.7658
軍糧	-11.7659
姚萇	-11.7659
惶恐	-11.766
揉	-11.766
殘虐	-11.7661
希範	-11.7661
娑	-11.7662
范睢	-11.7662
乙卯	-11.7663
李崧	-11.7663
余靖	-11.7663
侈靡	-11.7664
青冀	-11.7666
闔門	-11.7666
宣徽	-11.7667
廣韻	-11.7668
簒逆	-11.7669
宿衞	-11.7669
恩寵	-11.7669
疾疫	-11.767
張商英	-11.7671
糧運	-11.7673
鄜州	-11.7673
李宗閔	-11.7676
九十里	-11.7676
元興元年	-11.7676
肉刑	-11.7676
應募	-11.7676
希憲	-11.7677
興元元年	-11.768
隋開皇	-11.7684
𢎞羊	-11.7685
遜位	-11.7688
伊闕	-11.7689
劉洎	-11.7689
李懷光	-11.769
牽制	-11.769
綱目前書	-11.7691
遠近	-11.7693
新亭	-11.7695
海島	-11.7697
公綽	-11.7699
髙澄	-11.77
可圖也	-11.7703
燕慕容	-11.7708
予一人	-11.7709
後庭	-11.771
義例	-11.7712
靈素	-11.7714
三百六十	-11.7715
新羅	-11.7717
官努	-11.7721
先鋒	-11.7727
被圍	-11.7734
房陵	-11.7734
府城東	-11.7736
偶然	-11.7736
神靈	-11.7737
凡正統	-11.7738
孔子廟	-11.7738
萊州	-11.7745
繼體	-11.7745
承恩	-11.775
何暇	-11.7752
永濟	-11.7755
高車	-11.7762
募民	-11.7762
鄭𤣥曰	-11.7766
祭仲	-11.7771
縣故城在	-11.7778
唐祚	-11.7785
内庫	-11.779
朕甚	-11.7791
河南北	-11.7792
陪臣	-11.7796
良吏	-11.7801
羣后	-11.7802
北二十里	-11.7806
宣示	-11.7806
不書誅	-11.7806
殤帝	-11.7806
孫堅	-11.781
百匹	-11.781
未可知也	-11.7814
崖州	-11.782
畧盡	-11.7822
危懼	-11.7825
注見晉孝武帝太元	-11.7825
江湖	-11.783
北征	-11.7837
注見漢光武建武元年	-11.7847
勸農	-11.7849
本根	-11.7853
天寳十五載	-11.7862
葉三行	-11.7864
順天府	-11.7869
恢復之	-11.787
遣兵救	-11.7871
將兵擊	-11.7875
報仇	-11.7875
葉二行	-11.7875
應劭	-11.7882
上疏請	-11.7883
陲	-11.7884
九載	-11.789
子攸	-11.7892
隋煬	-11.7896
隋文帝開皇	-11.7897
噉	-11.7899
夷其族	-11.7903
紗	-11.7903
鈴	-11.7904
吠	-11.7905
劄	-11.7906
此三者	-11.7907
湓	-11.7908
峙	-11.7909
纍	-11.7909
撥	-11.7911
埒	-11.7912
耿南仲	-11.7913
播州	-11.7913
僅以身免	-11.7913
愠	-11.7914
覧	-11.7914
舸	-11.7914
旭	-11.7914
諠	-11.7914
蓨	-11.7915
郕	-11.7915
沓	-11.7915
劉禹錫	-11.7915
堆	-11.7916
悠	-11.7917
社稷注見新	-11.7917
嘏	-11.7917
蔡興宗	-11.7917
勢傾	-11.7918
瑛	-11.7918
沿革	-11.7918
採訪	-11.7918
卜筮	-11.7919
楊光逺	-11.7919
肉袒	-11.7919
猗盧	-11.7919
宋齊丘	-11.7921
昆彌	-11.7921
光化	-11.7921
瀍	-11.7922
烟	-11.7922
農民	-11.7922
斧鉞	-11.7923
宦寺	-11.7923
装	-11.7923
貴嬪	-11.7924
劉牢之	-11.7924
澳	-11.7924
轘	-11.7925
湮	-11.7925
吳主權	-11.7925
徭役	-11.7925
右北平	-11.7925
瞑	-11.7926
耼	-11.7926
蒲阪	-11.7926
呼韓邪	-11.7926
鰥寡	-11.7927
湯思退	-11.7927
湼	-11.7927
貊	-11.7927
湎	-11.7928
狸	-11.7929
程嬰	-11.7929
韓滉	-11.7931
景耀	-11.7931
八卦	-11.7931
偁	-11.7932
楊綰	-11.7933
隻	-11.7934
東甌	-11.7936
食注見新	-11.7936
趙汝愚	-11.7937
𢎞靖	-11.7938
髙力士	-11.7938
友謙	-11.7939
感激	-11.7939
錢穀	-11.7941
始於此	-11.7941
荆蠻	-11.7942
彭蠡	-11.7943
愕然	-11.7945
突圍	-11.7945
困窮	-11.7945
溺愛	-11.7946
考課	-11.7948
景帝三年	-11.7949
乾坤	-11.795
𤼵明	-11.7951
蘭臺	-11.7954
荆揚	-11.7954
更始二年	-11.7954
幽厲	-11.7954
空虚	-11.7958
殄滅	-11.7959
京湖	-11.7961
爵禄	-11.7961
提刑	-11.7962
宏淵	-11.7963
六藝	-11.797
顯達	-11.7971
夏桀	-11.7974
不可一日	-11.7981
張釋之	-11.7981
王叔文	-11.7986
曷不	-11.7986
朐山	-11.7989
賊檜	-11.7998
侈心	-11.8001
四十八	-11.8001
斬獲	-11.8003
淫亂	-11.8003
驕横	-11.8004
不侔	-11.8008
基業	-11.8008
項氏	-11.8013
良娣	-11.8021
都堂	-11.8024
詔百官	-11.8025
天下大亂	-11.8028
夫如是	-11.8032
州後改為	-11.8036
渭北	-11.8043
西鄙	-11.8044
十三行	-11.8045
勸戒	-11.8063
迎謁	-11.8064
聲勢	-11.8066
攻陷	-11.8066
委政	-11.8071
説苑	-11.8075
郡隋改	-11.8081
氏為后	-11.8081
千乘	-11.8084
烏足	-11.8086
王莾	-11.8092
險固	-11.8093
弊政	-11.8094
犯邊	-11.8105
帝曰卿	-11.8109
家貧	-11.8111
肖	-11.8118
有之矣	-11.8124
鄴城	-11.8124
鳳翔府	-11.8141
報怨	-11.8142
宜速	-11.8147
廢皇后	-11.8152
億萬	-11.8161
三萬人	-11.8162
程子曰	-11.8167
淮陽王	-11.8171
晉穆帝	-11.8176
竺	-11.8176
嗇	-11.8179
知樞宻院事	-11.8181
舂	-11.8181
同知院事	-11.8182
㡌	-11.8184
坡	-11.8184
䍐	-11.8186
臠	-11.8186
檻車	-11.8187
汪伯彦	-11.8187
灘	-11.8188
剗	-11.8189
賀善賛曰	-11.8189
玘	-11.8189
鳯陽府	-11.8189
楹	-11.819
鄠	-11.8191
㸑	-11.8192
攄	-11.8192
晉灼曰	-11.8193
工部尚書	-11.8193
惑衆	-11.8193
孟珙	-11.8193
羗	-11.8194
跣	-11.8194
韋處厚	-11.8194
矣終綱目	-11.8195
鎗	-11.8195
煦	-11.8195
蠭起	-11.8195
伷	-11.8196
坼	-11.8196
覊縻	-11.8196
東莞	-11.8196
董璋	-11.8197
著作佐郎	-11.8197
隋經籍志	-11.8198
霑	-11.8198
娯	-11.8199
誄	-11.8199
瑁	-11.8199
䧏	-11.82
己夘	-11.82
虞允文	-11.82
羔	-11.82
精銳	-11.82
晁錯	-11.8201
灑	-11.8201
悚	-11.8201
齡石	-11.8201
䂓	-11.8202
瑄	-11.8202
窒	-11.8202
裴子野	-11.8202
楊愔	-11.8202
卨	-11.8203
軋	-11.8203
陳𢎞志	-11.8203
縣入焉	-11.8203
閼氏	-11.8204
莖	-11.8204
齧	-11.8204
獻帝興平二年	-11.8205
迅	-11.8206
謾	-11.8206
療	-11.8206
國子祭酒	-11.8206
周徳威	-11.8206
黶	-11.8207
百萬之衆	-11.8207
馮拯	-11.8209
菁	-11.8209
吟	-11.8211
注見宋孝	-11.8212
綯	-11.8212
謂諸將曰	-11.8212
不可勝紀	-11.8212
飲藥	-11.8213
殘暴	-11.8215
踐阼	-11.8216
書殺何	-11.8218
魏主丕	-11.8218
付託	-11.8219
漢獻帝建安十	-11.8223
撫循	-11.8224
弄權	-11.8225
弗聼	-11.8228
暴露	-11.8228
郴	-11.823
金革之	-11.8233
土宇	-11.8236
突利	-11.8237
警戒	-11.824
酒食	-11.8241
閨門	-11.8242
王鉷	-11.8246
帝建元元年	-11.8247
八十一	-11.8247
賦詩	-11.8248
垂訓	-11.8249
私怨	-11.825
君奭	-11.825
罔敢	-11.8254
豈肯	-11.8255
注見文帝	-11.8259
姬姓	-11.8262
浮圖	-11.8266
佛教	-11.8268
萬八千	-11.827
仲雍	-11.8274
丞相亮	-11.8274
貽禍	-11.8276
三十餘年	-11.828
自是而後	-11.8283
楊震	-11.8283
縱酒	-11.8286
沂中	-11.829
斬衰	-11.8292
宴樂	-11.8293
未忍	-11.8293
納其言	-11.8298
勁兵	-11.8298
趙括	-11.8301
深予之也	-11.8301
曲江	-11.8306
衛青	-11.8307
五年春正月	-11.8307
將兵討	-11.8312
彊盛	-11.8325
元鳯	-11.8327
拒諫	-11.8329
姦黨	-11.8329
術數	-11.8332
址	-11.8339
亦不免	-11.8345
鞏昌府	-11.8346
帥百官	-11.8347
其本心	-11.8348
姚氏	-11.8349
糧食	-11.8357
乾歸	-11.8373
建儲	-11.838
元至元	-11.8389
天水郡	-11.8402
貢賦	-11.8402
軍國事	-11.8405
獻帝興平元年	-11.8412
不倦	-11.8413
畧之也	-11.8422
何為哉	-11.8424
分其地	-11.8424
兵十萬	-11.8426
唐莊宗	-11.8436
濟南府	-11.8438
避難	-11.8441
大呼曰	-11.8447
州宋初	-11.8455
砲	-11.8456
寶巻	-11.8458
厚賞	-11.8463
朝因之	-11.8464
熾磐	-11.8466
屬下句	-11.8467
注見漢獻帝建安十二年	-11.8467
数	-11.8469
郪	-11.847
墀	-11.847
値	-11.8472
璝	-11.8474
洶洶	-11.8475
扁	-11.8475
䋲	-11.8476
古者天子	-11.8476
荐	-11.8477
駝	-11.8477
中流矢	-11.8477
軄	-11.8478
綠	-11.8478
箋云	-11.8478
讃	-11.8479
刖	-11.848
蒍	-11.848
聨	-11.848
不設備	-11.8481
娠	-11.8481
逈	-11.8481
故謹書之	-11.8481
懵	-11.8481
曙	-11.8481
寰	-11.8481
掎	-11.8482
枋得	-11.8482
弘	-11.8483
太常博士	-11.8483
任城王澄	-11.8483
岌	-11.8483
幢	-11.8483
帷幄	-11.8484
麓	-11.8484
芬	-11.8485
捄	-11.8485
椽	-11.8485
翅	-11.8485
氂	-11.8485
咫尺	-11.8486
倓	-11.8486
執金吾	-11.8486
注見秦王政六年	-11.8487
鳴鼓	-11.8487
癰	-11.8487
九月朔日食	-11.8487
存朂	-11.8487
糶	-11.8487
白居易	-11.8488
臨軒	-11.8488
馳騁	-11.8488
羊舌	-11.8488
武帝元封二年	-11.8489
孝亷	-11.8489
顛沛	-11.8489
丁夘	-11.8489
𤯝	-11.8489
彝	-11.849
蓍	-11.849
坐贓	-11.8491
于闐	-11.8491
編管	-11.8491
向敏中	-11.8492
閹宦	-11.8492
有益於	-11.8492
虺	-11.8493
寶寅	-11.8493
鹽鐡	-11.8494
閥	-11.8494
三年之䘮	-11.8494
騖	-11.8494
鑄銅	-11.8494
匡衡	-11.8495
束手	-11.8495
勤王之師	-11.8495
燄	-11.8496
謩	-11.8498
煩擾	-11.8498
轉輸	-11.8499
舅姑	-11.8501
行瑜	-11.8502
和龍	-11.8502
哥舒翰	-11.8502
董狐	-11.8506
權倖	-11.8509
賢人君子	-11.8509
杜甫	-11.8509
左馮翊	-11.8512
姚襄	-11.8513
酈生	-11.8514
雜記	-11.8514
臺閣	-11.8515
李筠	-11.8518
形迹	-11.8518
機宻	-11.8518
谷口	-11.8519
曲端	-11.8519
劉闢	-11.852
仇敵	-11.852
和糴	-11.8521
隴州	-11.8521
恒辭	-11.8523
楊彪	-11.8523
倒置	-11.8525
僭號	-11.8526
謝晦	-11.853
郡隋屬	-11.8533
諸羌	-11.8533
五十四	-11.8534
何歟曰	-11.854
張敞	-11.854
孔甲	-11.854
機務	-11.8544
漠北	-11.8546
司㓂	-11.8548
苻氏	-11.8552
注見漢景帝三年	-11.8555
百萬緡	-11.8555
則曷為不書	-11.856
州後改	-11.8561
饒陽	-11.8563
罷黜	-11.8564
潜善	-11.8567
亂亡之	-11.8571
皇祐	-11.8573
重黎	-11.8579
六尺	-11.8581
許衡	-11.8582
虞卿	-11.8586
義自見矣	-11.8589
嵗餘	-11.8591
勇畧	-11.8597
華夷	-11.8603
雖欲不	-11.8603
怨憤	-11.8605
濁亂	-11.8607
李勉	-11.8607
寒心	-11.8607
矦景	-11.8609
穆爾	-11.8614
沔陽	-11.8618
縣改屬	-11.8619
淫虐	-11.8621
五丈	-11.8625
四十一年	-11.8626
震怒	-11.863
吴越	-11.8643
强敵	-11.8646
何如耳	-11.8646
隆興	-11.8661
情偽	-11.8667
千乗	-11.8669
討有罪	-11.867
騎都尉	-11.8676
滋甚	-11.8678
書之于冊	-11.8695
窮極	-11.8714
𥙷作	-11.8729
握兵	-11.8734
千户	-11.8735
知其必	-11.8738
左傳僖	-11.8744
迨至	-11.8764
鋪	-11.8764
壑	-11.8764
酤	-11.8766
莱	-11.8767
鍔	-11.8767
東昌府	-11.8768
欝	-11.8768
鋒鏑	-11.8769
侯薨子	-11.877
茨	-11.877
嬉	-11.877
昭帝元平元年	-11.8771
懣	-11.8771
團練	-11.8772
錄尚書事	-11.8772
貟	-11.8772
擐甲	-11.8772
安巴堅	-11.8772
兠	-11.8773
范延光	-11.8773
謹按凡例	-11.8773
勍敵	-11.8773
惋	-11.8773
頹	-11.8773
骨鯁	-11.8774
可勝誅哉	-11.8775
秋七月朔日食	-11.8775
襄王元年三川	-11.8775
李義府	-11.8775
耿弇	-11.8775
浴	-11.8775
郄	-11.8775
什翼犍	-11.8775
趙王倫	-11.8776
鄖	-11.8776
徐知誥	-11.8776
挍	-11.8777
薩里罕	-11.8777
潁州	-11.8777
玁	-11.8777
鄼	-11.8778
榆林	-11.8779
蘇林曰	-11.8779
僕固懷恩	-11.8779
自剄	-11.878
韋孝寛	-11.878
典籖	-11.8782
騁	-11.8782
熖	-11.8782
葛洪	-11.8782
盲	-11.8782
絙	-11.8783
喉	-11.8783
馴致	-11.8783
天官書	-11.8783
洒	-11.8784
歌舞	-11.8784
迴	-11.8785
屣	-11.8785
徘徊	-11.8785
震駭	-11.8785
神農氏	-11.8785
丹陽尹	-11.8786
釡	-11.8786
擴	-11.8786
宇文融	-11.8787
嶢	-11.8787
鏤	-11.8787
蓄積	-11.8788
表而出之	-11.8788
狷	-11.8788
大中祥符	-11.8789
月氐	-11.879
夤	-11.8791
趙葵	-11.8792
僣竊	-11.8792
無聞焉	-11.8792
寒暑	-11.8792
張方平	-11.8792
韓王信	-11.8792
汾水	-11.8793
房琯	-11.8794
僧綽	-11.8795
無君之心	-11.8797
震驚	-11.8797
緫	-11.8797
阮籍	-11.8797
專恣	-11.8799
縣省入屬	-11.8801
商旅	-11.8801
被擒	-11.8802
不為無罪	-11.8803
沿江	-11.8803
絶域	-11.8804
南漢主	-11.8806
嚴整	-11.8807
金主亮	-11.8808
厯代	-11.881
宮室	-11.8811
竄逐	-11.8811
櫟陽	-11.8818
欺罔	-11.882
一念之	-11.8821
齊景公	-11.8821
不可不察	-11.8821
號哭	-11.8822
魏冉	-11.8827
懲惡	-11.8829
招集	-11.8834
滁	-11.8835
入閤	-11.8835
四靣	-11.8836
牧野	-11.8837
黄霸	-11.8838
佛老	-11.8839
注見秦始皇三十	-11.8845
白鹿	-11.8848
乾寧	-11.8849
延英	-11.885
王行瑜	-11.8851
劉湛	-11.8853
内禪	-11.8853
應接	-11.8856
四十餘年	-11.8858
河池	-11.886
北狄種名	-11.886
董承	-11.886
盍亦	-11.8861
漢武帝元朔	-11.8866
劉整	-11.8867
南頓	-11.8868
犯順	-11.8868
第七	-11.8871
莫之能	-11.8871
卭州	-11.8873
明帝建武三	-11.8874
力竭	-11.8881
倡義	-11.889
與之俱	-11.889
戒之曰	-11.8893
史筆	-11.8893
本朝初改	-11.8897
子駟	-11.8911
君人者	-11.8913
十有九	-11.8918
公主妻	-11.8924
公卿以下	-11.8928
租税	-11.8928
儲嗣	-11.8929
周安王	-11.8943
注見漢光武建武八年	-11.8952
五日一	-11.8954
冠帶	-11.8958
注見晉穆帝永	-11.8964
鳯翔府	-11.8974
天文志	-11.8994
族類	-11.9
武帝元朔三年	-11.9003
節度注見漢	-11.901
注見晉武帝	-11.902
嬪御	-11.902
葉四行	-11.9023
太清二年	-11.9023
注見漢光武	-11.9044
千七百	-11.9045
綱目上書	-11.9055
二十卷	-11.9059
蛟	-11.906
鉦	-11.906
斐	-11.9062
𤣥謨	-11.9064
哈逹	-11.9065
興慶宫	-11.9066
掊	-11.9066
耦	-11.9066
圖克坦	-11.9067
炅	-11.9067
遙光	-11.9069
緜	-11.9069
冬十月朔日食	-11.907
蠅	-11.9071
注見周世宗顯	-11.9071
悠悠	-11.9071
延熈	-11.9071
廡	-11.9072
記檀弓	-11.9072
以女妻	-11.9073
賾	-11.9074
闈	-11.9074
履祥	-11.9075
臣愚以為	-11.9076
罪不容誅	-11.9076
俚	-11.9076
疆場	-11.9076
部署	-11.9076
伯夷叔齊	-11.9076
直𨽻京師	-11.9076
蘆	-11.9077
劉仁軌	-11.9077
爻	-11.9077
悻	-11.9078
剏	-11.9079
歔欷	-11.9079
懿宗咸通	-11.9079
絪	-11.9079
安樂公主	-11.908
金縢	-11.908
漢主聰	-11.908
鉅野	-11.908
弈	-11.908
辛夘	-11.9081
畏懦	-11.9082
滏	-11.9082
斗米	-11.9082
薫	-11.9083
撮	-11.9083
規矩	-11.9083
判度支	-11.9083
陿	-11.9083
竹書紀年	-11.9083
逝	-11.9083
鐵劵	-11.9084
豢	-11.9084
殪	-11.9084
龍驤	-11.9085
朱勝非	-11.9086
摽	-11.9086
賈昌朝	-11.9086
列女傳	-11.9087
頓丘	-11.9087
拳拳	-11.9088
蕞爾	-11.9088
阿那瓌	-11.9088
凛	-11.9088
太昊	-11.9088
澈	-11.9088
於是再見	-11.9089
适	-11.9089
孟嘗君	-11.909
縞素	-11.909
廻	-11.909
不克而還	-11.9091
踣	-11.9091
師鐸	-11.9091
予小子	-11.9092
食貨志	-11.9093
網羅	-11.9093
衣裳	-11.9093
諸矦	-11.9093
開闢	-11.9093
題目	-11.9093
儉素	-11.9093
哥	-11.9094
臧洪	-11.9094
刀筆	-11.9095
東方朔	-11.9095
延岑	-11.9096
飛狐	-11.9096
黄歇	-11.9098
石守道	-11.9098
樓煩	-11.9099
吕䝉	-11.9102
縣括地志云	-11.9104
滅其族	-11.9105
花石	-11.9106
上林苑	-11.911
堂堂	-11.911
宣徽使	-11.9111
五行志	-11.9113
本朝改為	-11.9113
何以知之	-11.9114
供給	-11.9115
王仙芝	-11.9115
沙丘	-11.9117
狄青	-11.9118
厚賂	-11.9118
複道	-11.912
胥吏	-11.9121
二水名	-11.9124
側目	-11.9125
五銖	-11.9125
輔佐	-11.9126
無意於	-11.9133
休格	-11.9133
九品	-11.9135
胡僧	-11.9137
州别駕	-11.914
一十五里	-11.914
君廓	-11.9142
匡救	-11.9148
慕容廆	-11.915
設施	-11.9151
長樂宫	-11.9155
聲援	-11.9155
商英	-11.9158
籍其家	-11.9159
預謀	-11.9159
商紂	-11.916
未始不	-11.9161
掲而書之	-11.9161
楊墨	-11.9162
天下之財	-11.9163
匈奴單于	-11.9164
故書譏之	-11.9173
崇訓	-11.9175
委棄	-11.9176
五十六	-11.9188
紛然	-11.919
祠孔子	-11.919
十五載	-11.92
臣僚	-11.9206
漢中郡	-11.9213
逃奔	-11.9213
驍將	-11.9215
流毒	-11.9216
莫知其	-11.9221
射殺	-11.9242
被害	-11.9257
涪城	-11.926
六十四	-11.9265
種名注見	-11.9276
侯卒子	-11.9278
古之君子	-11.9285
竒才	-11.9301
魏孝文	-11.9313
行弑逆	-11.9315
率百官	-11.9338
用史記本	-11.9341
綮	-11.936
戴氏曰	-11.9367
渤	-11.9367
未央	-11.9369
邛	-11.937
光武建武五年	-11.9372
甌	-11.9374
濩	-11.9377
蹊	-11.9377
旺	-11.9377
孜	-11.9378
受降城	-11.9379
晏球	-11.9379
掎角	-11.9382
螟	-11.9383
廷隠	-11.9383
襁褓	-11.9384
剔	-11.9385
穹	-11.9385
倔	-11.9385
佶	-11.9385
牽牛	-11.9386
桁	-11.9386
懸瓠	-11.9386
十一月朔日食	-11.9387
阿那肱	-11.9387
不去其官	-11.9387
宗楚客	-11.9387
湧	-11.9388
湊	-11.9388
可也夫何	-11.9388
恟	-11.9389
鑊	-11.9389
昪	-11.9389
掣	-11.939
纉	-11.939
秦之縣名	-11.939
笮	-11.939
征和二年	-11.939
李邦彦	-11.939
左賢王	-11.939
冷	-11.939
囉	-11.939
巫覡	-11.9391
李寳臣	-11.9391
引軍還	-11.9392
靈帝中平六年	-11.9392
鑾輿	-11.9393
州防禦使	-11.9393
萬餘級	-11.9393
喙	-11.9394
韓忠彦	-11.9394
劉文靜	-11.9394
弓弩	-11.9395
憬	-11.9396
嘯	-11.9396
赫赫	-11.9396
指麾	-11.9396
廬舍	-11.9397
仁浦	-11.9398
左丘明	-11.9398
輕佻	-11.9398
布薩	-11.9398
筏	-11.9399
妲己	-11.9399
舂陵	-11.9399
溵	-11.9399
䜟緯	-11.9399
顛覆	-11.94
聽訟	-11.94
篋	-11.94
秣馬	-11.94
敎化	-11.9401
租稅	-11.9401
紫微	-11.9402
蹋	-11.9402
荆軻	-11.9402
洧	-11.9402
諸葛孔明	-11.9403
豁	-11.9403
苖裔	-11.9403
詒	-11.9404
起居郎	-11.9405
祝融	-11.9405
焚掠	-11.9405
蕭銑	-11.9407
陕西	-11.9407
數百騎	-11.9408
籥	-11.9409
貨賂	-11.9409
歐陽脩	-11.941
希逸	-11.941
蠶食	-11.9411
鄭覃	-11.9412
陳敬瑄	-11.9412
祊	-11.9412
端拱	-11.9412
宇文䕶	-11.9413
潯陽	-11.9414
苫	-11.9415
承祐	-11.9418
伊遜	-11.9418
羣蠻	-11.9419
匯	-11.9422
抗衡	-11.9423
甸服	-11.9425
託孤	-11.9426
右扶風	-11.9427
侯瑱	-11.9427
王庭湊	-11.9429
呂布	-11.9429
破走之	-11.9429
災祥	-11.9431
為人君者	-11.9431
葛榮	-11.9431
討賊之義	-11.9432
王𤣥謨	-11.9432
希崇	-11.9432
義熙	-11.9432
藝祖	-11.9433
卧内	-11.9433
徳鈞	-11.9435
丹徒	-11.9436
肆赦	-11.9437
朱文公	-11.9437
叔寶	-11.9439
李愬	-11.944
貢禹	-11.944
厭勝	-11.9444
千餘家	-11.9445
兵五千	-11.9448
赫然	-11.9448
諫曰陛下	-11.9448
寶應	-11.9449
元封元年	-11.945
吕端	-11.945
詰責	-11.9454
陳後主	-11.9455
終其身	-11.9462
感泣	-11.9471
不得其死	-11.9473
犍為郡	-11.9474
夾擊	-11.9477
發兵擊	-11.949
訪問	-11.9497
珍寳	-11.9498
岷山	-11.9516
退避	-11.9518
祁山	-11.9521
要領	-11.9531
水溢	-11.9546
縣東漢	-11.9566
傳國璽	-11.9569
州注見漢武帝	-11.958
幽并	-11.9588
蘄州	-11.9593
注見漢成帝綏和二年	-11.9608
注見秦始	-11.9616
水源出	-11.9656
正月朔	-11.9674
廞	-11.9675
國朝因之屬	-11.9678
㐲	-11.9696
壌	-11.9699
緄	-11.9702
緬	-11.9703
泫	-11.9704
帝元始五年	-11.9704
華林園	-11.9705
師旅	-11.9705
撝	-11.9705
駰	-11.9706
溝洫	-11.9706
浣	-11.9706
不共戴天	-11.9707
溷	-11.9708
逗遛	-11.9709
澣	-11.9709
四海之内	-11.971
卲	-11.971
暘	-11.9711
膏肓	-11.9711
寮	-11.9711
驂	-11.9711
其失自見	-11.9712
認	-11.9712
炤	-11.9712
如反掌	-11.9713
宇宙	-11.9713
民不聊生	-11.9714
蜮	-11.9714
墳墓	-11.9714
禋	-11.9714
鷹犬	-11.9715
礙	-11.9715
怯懦	-11.9715
脆	-11.9716
鎖	-11.9716
秦莊襄王元年	-11.9717
山南東道節度使	-11.9717
剡	-11.9717
筋	-11.9718
縞	-11.9718
琿	-11.9719
申屠嘉	-11.9719
貰	-11.9719
幟	-11.9719
藤	-11.9719
慼	-11.9719
珥	-11.9719
雎	-11.972
祀南郊	-11.9721
碻磝	-11.9721
昭義節度使	-11.9722
翫	-11.9722
酅	-11.9722
猛獸	-11.9723
泮	-11.9723
佩刀	-11.9723
峡	-11.9723
誹	-11.9723
藹	-11.9723
晙	-11.9723
煮	-11.9724
芉	-11.9725
擊却之	-11.9725
二帝三王	-11.9725
諒闇	-11.9725
絢	-11.9725
信陵君	-11.9725
閭里	-11.9726
淩	-11.9726
攘袂	-11.9728
蠋	-11.9728
帥所部	-11.9729
左衽	-11.9729
執其手	-11.973
徽欽	-11.973
千里之外	-11.9731
亷耻	-11.9731
朱勔	-11.9731
有力焉	-11.9732
荀悦	-11.9732
無恙	-11.9732
勃海	-11.9734
驍騎	-11.9736
盧把	-11.9737
栁下惠	-11.9737
喝	-11.9738
幼冲	-11.9739
鄯州	-11.974
趙簡子	-11.9741
左拾遺	-11.9742
按此條	-11.9743
正典刑	-11.9744
趙充國	-11.9744
華歆	-11.9745
浚儀	-11.9749
露布	-11.9751
康誥	-11.9755
曽布	-11.9756
呂后	-11.9757
殿庭	-11.9758
李師道	-11.9758
胡寅	-11.976
所以予其	-11.9761
所以明其	-11.9764
昭宣帝	-11.9773
公主嫁	-11.9775
驅除	-11.9775
郎中令	-11.9778
武帝元鼎五年	-11.9793
堯舜之道	-11.9794
之篇書	-11.9796
下獄死	-11.9798
具其官	-11.98
弔伐	-11.9801
千百	-11.9804
營壘	-11.9804
箕山	-11.9805
姦回	-11.9817
語人曰	-11.9818
六十餘	-11.9821
糧儲	-11.9852
郡名注見漢獻帝建安	-11.9856
聊城	-11.9856
嶲州	-11.9863
注見漢明帝永平十	-11.9864
凡三十	-11.9869
慕容恪	-11.9873
汲郡	-11.9873
禆將	-11.9877
浮海	-11.9877
削奪	-11.9877
分為二	-11.988
北五里	-11.9907
免為庶人	-11.9907
險要	-11.9924
可不謹	-11.9949
深貶之也	-11.9951
碭	-11.9973
部員外郎	-11.9975
郡名注見漢獻帝	-11.9986
都留守	-11.9991
漢獻帝建	-11.9998
太子太傅	-12.0004
淖齒	-12.0028
棒	-12.0028
綏和二年	-12.0028
佼	-12.0028
盩厔	-12.0029
趍	-12.003
𢷬	-12.0031
光祿大夫	-12.0032
莬	-12.0033
何㮚	-12.0035
見漢獻帝建安十	-12.0035
鍜	-12.0036
擕	-12.0036
注見周赧王四年漢中	-12.0038
蠭	-12.0038
僊芝	-12.0038
𧺫	-12.0038
櫜	-12.0039
狙	-12.0039
矟	-12.0039
沭	-12.004
糟	-12.0041
蓐	-12.0041
掇	-12.0041
駑	-12.0042
店	-12.0042
言于帝曰	-12.0042
葆	-12.0042
涌	-12.0042
衒	-12.0042
稽顙	-12.0042
眭	-12.0043
矍	-12.0044
户部侍郎	-12.0044
莽天鳯元年	-12.0044
為其下所殺	-12.0044
掌書記	-12.0044
抄掠	-12.0044
賄賂	-12.0045
遣使奉表	-12.0045
哷	-12.0045
比而觀之	-12.0045
簽書樞宻院事	-12.0045
犨	-12.0045
邵陵王綸	-12.0045
孰甚焉	-12.0045
悸	-12.0046
兵連禍結	-12.0047
獷	-12.0047
孑	-12.0047
瘴	-12.0047
鯨	-12.0047
漬	-12.0047
李清臣	-12.0048
舎是無書	-12.0048
賈詡	-12.0049
霍去病	-12.005
倢伃	-12.0051
紛紜	-12.0051
管夷吾	-12.0051
葱	-12.0051
臾	-12.0051
寥	-12.0051
御批續資治通鑑綱目	-12.0052
鬯	-12.0052
褐	-12.0053
桀黠	-12.0053
宇文述	-12.0053
垓下	-12.0054
州司户	-12.0054
忤㫖	-12.0054
之意深矣	-12.0055
田蚡	-12.0055
武帝元鼎二年	-12.0055
帑藏	-12.0056
屹	-12.0056
輯睦	-12.0056
群盗	-12.0057
赴行在	-12.0058
正史篇	-12.0058
祖珽	-12.0058
邢恕	-12.0059
太尉裕	-12.0059
暱	-12.0059
倡優	-12.0059
劉黒闥	-12.0059
峒	-12.0059
鉛	-12.006
桓彦範	-12.006
蒯瞶	-12.006
春申君	-12.006
粱	-12.006
盧多遜	-12.006
竹帛	-12.006
督䕶	-12.0061
百五十里	-12.0061
夬	-12.0062
蠱惑	-12.0064
贈諡	-12.0066
武承嗣	-12.0067
斥候	-12.0068
不悉書	-12.0068
被髪	-12.0069
襄樊	-12.0069
黄裳	-12.007
李珏	-12.007
江湛	-12.0072
億兆	-12.0074
蔡攸	-12.0075
龔勝	-12.008
鳴條	-12.0083
宴羣臣	-12.0084
幼弱	-12.0087
括地志云故城在	-12.0088
堯佐	-12.0091
此綱目所以	-12.0093
李繼遷	-12.01
靈運	-12.0101
李昉	-12.0102
八尺	-12.0103
驕縱	-12.0106
鉅萬	-12.011
天地之間	-12.0114
儲貳	-12.0116
幸東都	-12.0122
州宋改	-12.0122
延安府	-12.0136
國朝初	-12.0165
問之對曰	-12.0186
東坡論	-12.0195
建安十三年	-12.0204
鞏昌	-12.0214
注見齊明	-12.0224
注見周顯	-12.0255
七百里	-12.0265
府元改	-12.029
索隱	-12.0327
皇二十八年	-12.0331
部郎中	-12.0331
庭湊	-12.0346
之願也	-12.0347
顧引拾𥙷	-12.0353
弋陽	-12.0354
僦	-12.0373
榷	-12.0375
鞞	-12.0378
夣	-12.0378
汨	-12.038
鼓吹	-12.0381
杜重威	-12.0381
葅	-12.0382
塡	-12.0382
匏	-12.0383
謔	-12.0384
驃	-12.0384
曳	-12.0385
破之必矣	-12.0385
括地志	-12.0385
將兵救	-12.0385
憙	-12.0386
鹹	-12.0387
史嵩之	-12.0389
者變例也	-12.039
縻	-12.039
拆	-12.039
以萬數	-12.039
悰	-12.039
珉	-12.0391
嘲	-12.0391
幕僚	-12.0391
両	-12.0392
魯仲連	-12.0392
吕中曰	-12.0392
斟酌	-12.0392
熏	-12.0392
淯	-12.0393
輜	-12.0393
太極殿	-12.0393
盧龍節度使	-12.0393
直筆書之	-12.0394
义	-12.0394
昀	-12.0394
隍	-12.0394
崔祐甫	-12.0394
劉幽求	-12.0394
犁	-12.0395
㑹稽王昱	-12.0395
裾	-12.0395
肩輿	-12.0395
藩籬	-12.0396
昃	-12.0396
李抱真	-12.0396
㝢	-12.0397
披靡	-12.0397
倒戈	-12.0397
鉢	-12.0397
史彌逺	-12.0397
副總管	-12.0397
杜陵人	-12.0398
中央	-12.0398
工部侍郎	-12.0398
心膂	-12.0398
忻州	-12.0398
注見秦始皇三十三年	-12.0399
袞	-12.0399
迦	-12.0399
築壘	-12.0399
濼	-12.0399
崔湜	-12.04
換	-12.04
种諤	-12.04
淅	-12.04
桓沖	-12.0401
偏禆	-12.0401
悔悟	-12.0401
天祐二年	-12.0402
皇甫謐	-12.0402
敬翔	-12.0403
蘖	-12.0404
懦弱	-12.0404
令狐綯	-12.0404
幽薊	-12.0405
旌節	-12.0405
史纂通要卷	-12.0406
彖	-12.0406
焚香	-12.0406
不可不慎	-12.0407
孔緯	-12.0407
璆	-12.0407
佺期	-12.0408
押班	-12.0409
撼	-12.041
丘墟	-12.041
王曰嗚呼	-12.041
檝	-12.0411
諸葛恪	-12.0411
畜牧	-12.0411
之意可見矣	-12.0412
濰	-12.0413
察罕	-12.0416
臧質	-12.0416
帝隆安	-12.0417
興平元年	-12.042
記異也	-12.0421
碩徳	-12.0422
其罪大矣	-12.0422
深然之	-12.0423
覆試	-12.0424
昏庸	-12.0425
典午	-12.0429
誣罔	-12.0429
疆土	-12.043
區處	-12.0431
始親政	-12.0432
有意於	-12.0438
魏太武	-12.044
碭山	-12.0442
窮困	-12.0445
營繕	-12.046
黔州	-12.0472
苛刻	-12.0479
尚書僕射	-12.0489
鉅鹿郡	-12.0491
星隕	-12.0491
田疇	-12.0494
為衆所	-12.0496
屬河南郡	-12.0511
金墉城	-12.053
例曰凡	-12.0543
賦税	-12.0548
革弊	-12.0549
丈餘	-12.058
紹琛	-12.0594
特書于冊	-12.0599
以罪免	-12.0603
昆陽	-12.0606
元光五年	-12.0637
右賢王	-12.0645
興平二年	-12.0665
鼔譟	-12.0704
邽	-12.0714
鹵簿	-12.0715
嚳	-12.0718
墉	-12.0718
鼙	-12.072
博囉特穆爾	-12.0724
閨	-12.0726
察罕特穆爾	-12.0732
八十餘	-12.0734
苾	-12.0735
笄	-12.0738
蔕	-12.0739
逕	-12.0741
旴𣅿	-12.0742
景延廣	-12.0743
璪	-12.0743
高琪	-12.0746
銜枚	-12.0746
鮒	-12.0746
閶	-12.0746
吳明徹	-12.0747
鄧隲	-12.0747
股栗	-12.0747
眇	-12.0747
泆	-12.0747
眠	-12.0747
痍	-12.0748
刀鋸	-12.0748
搢紳	-12.0748
注見秦莊襄王元年三川	-12.0749
家貲	-12.075
秦宗權	-12.075
衆寡不敵	-12.075
踧	-12.075
漢惠帝五年	-12.075
封徳彛	-12.0751
种師道	-12.0751
金大定	-12.0751
羑里	-12.0751
耜	-12.0751
沙鉢畧	-12.0751
貿	-12.0752
正名定罪	-12.0752
郭藥師	-12.0752
制禮作樂	-12.0752
槐里	-12.0752
鍚	-12.0752
虎豹	-12.0752
氊	-12.0753
曽公亮	-12.0753
盧芳	-12.0753
統志云	-12.0753
匕首	-12.0753
麈	-12.0754
謟諛	-12.0754
䧺	-12.0754
初所置屬	-12.0754
酈道元	-12.0754
帥歩騎	-12.0754
弃	-12.0754
滬	-12.0755
元朔五年淮南	-12.0756
史彌遠	-12.0756
劉守光	-12.0757
多爾濟	-12.0757
楊沂中	-12.0758
成帝河平	-12.0758
拭	-12.0758
郫	-12.0758
樓蘭	-12.0758
同知樞宻院事	-12.0758
茍晞	-12.0759
劉昫	-12.0759
新垣平	-12.076
阿諛	-12.076
戡黎	-12.076
杜如晦	-12.076
斛律光	-12.076
醫藥	-12.076
窋	-12.0761
煽	-12.0761
武王克商	-12.0761
上官桀	-12.0761
除肉刑	-12.0761
賀㧞勝	-12.0761
發兵討之	-12.0762
善騎射	-12.0762
仰藥	-12.0762
駙馬都尉	-12.0762
作俑	-12.0763
遊畋	-12.0763
平盧節度使	-12.0763
灑掃	-12.0764
是月晦日食	-12.0764
祁奚	-12.0764
裴垍	-12.0764
淮陰	-12.0764
魚肉	-12.0765
負芻	-12.0765
粟帛	-12.0765
耆老	-12.0765
箇	-12.0765
洛誥	-12.0766
耆舊	-12.0766
鼈	-12.0766
筩	-12.0767
嶓	-12.0768
縈	-12.0768
隔絶	-12.077
縡	-12.0771
婕妤	-12.0772
大理卿	-12.0773
區别	-12.0774
壮士	-12.0774
蔡謨	-12.0775
宣歙	-12.0775
禹錫	-12.0775
貧富	-12.0777
貪殘	-12.0777
鹽池	-12.078
玉帶	-12.0781
文中子	-12.0783
吕䝉正	-12.0785
屬開封府	-12.0788
保定府	-12.079
諸侯之大夫	-12.0793
勉强	-12.0796
子產	-12.0797
懐帝永	-12.0805
十萬之衆	-12.0811
所以然者	-12.0821
后臨朝	-12.0837
十八里	-12.0843
古之王者	-12.085
二千五百	-12.0866
稷契	-12.0869
刋誤	-12.0881
府治所仍屬焉	-12.0896
八百餘	-12.0935
十七萬	-12.0952
奪人之	-12.0997
東夷國名	-12.103
兖豫	-12.1042
高帝六年	-12.1046
史記世家	-12.1067
櫛	-12.1095
煴	-12.1097
暄	-12.1099
蒱	-12.1101
沬	-12.1104
注見漢獻帝興平	-12.1105
雇	-12.1105
侏	-12.1106
訕	-12.1106
臏	-12.1108
鏜	-12.1108
桴	-12.1108
考之分注	-12.1109
暕	-12.1109
箋	-12.1109
注見漢王劉邦	-12.111
頷	-12.111
租庸調	-12.111
沐浴	-12.1111
郗鑒	-12.1111
迓	-12.1111
枹	-12.1113
蔣琬	-12.1113
爱	-12.1113
芻糧	-12.1114
藺	-12.1114
㽞	-12.1115
劉鄩	-12.1115
警蹕	-12.1115
几杖	-12.1116
耕籍田	-12.1116
撫慰	-12.1117
琅	-12.1117
繒帛	-12.1117
崛起	-12.1117
西門豹	-12.1118
催	-12.1118
槨	-12.1118
觖	-12.1118
媪	-12.1118
邜	-12.1118
墾田	-12.1119
硤石	-12.1119
賽	-12.112
駸駸	-12.112
蹉跌	-12.112
為尚書左右丞	-12.112
詖	-12.112
達實特穆爾	-12.112
西川節度使	-12.112
闔廬	-12.1121
代宗大歴	-12.1121
呌	-12.1121
翩	-12.1121
謖	-12.1122
葭	-12.1122
光禄勲	-12.1122
姜公輔	-12.1122
迎佛骨	-12.1123
代宗大厯	-12.1123
者幾希	-12.1123
劉武周	-12.1123
尅	-12.1123
莫此為甚	-12.1123
开	-12.1124
疚	-12.1124
武元衡	-12.1125
𤦺	-12.1125
叚熲	-12.1125
哈喇哈斯	-12.1125
藺相如	-12.1125
秘書郎	-12.1125
大戴禮	-12.1125
穿鑿	-12.1125
薛安都	-12.1125
罘	-12.1126
憊	-12.1126
婆羅門	-12.1126
州團練使	-12.1126
罄	-12.1126
大理寺	-12.1127
不亦甚乎	-12.1127
鄂爾多	-12.1127
鴟	-12.1127
椒房	-12.1127
阿嚕	-12.1127
館陶	-12.1127
塊	-12.1127
到彦之	-12.1128
朱克融	-12.1129
路本朝改為	-12.1129
謠	-12.1129
屈突通	-12.113
灾異	-12.1131
不再貶而	-12.1131
蚌	-12.1132
敖倉	-12.1132
潢	-12.1133
藩邸	-12.1133
喟然	-12.1134
秭歸	-12.1135
遣兵討之	-12.1135
范文子	-12.1135
五世孫	-12.1135
鍼	-12.1136
衰絰	-12.1136
張𢎞靖	-12.1136
以客禮	-12.1136
以千數	-12.1136
白虎通	-12.1136
舊譌	-12.1137
諒祚	-12.1137
眚	-12.1138
張㲄	-12.1138
掛	-12.1138
簒竊	-12.1138
主父偃	-12.1138
臨卭	-12.1139
洹水	-12.1139
彊弩	-12.1139
建成元吉	-12.1141
爾朱兆	-12.1141
貽笑	-12.1144
漣水	-12.1145
桓譚	-12.1145
卜式	-12.1145
蒼頭	-12.1145
孝悌	-12.1146
矯誣	-12.115
太傅越	-12.1167
是役也	-12.1168
安帝義熙	-12.1171
縣名注見漢獻	-12.1178
無及矣	-12.1183
注見周顯王八年	-12.1185
開元十一年京兆	-12.1236
𤣥宗開元十一年	-12.1246
大舉伐	-12.125
國朝改為	-12.1265
邙山	-12.1294
威烈王	-12.1301
元仍舊本朝	-12.1311
多矣未有	-12.1372
顯王八年	-12.141
百八十里	-12.1416
脛	-12.1472
特穆津	-12.1485
嘉勒斯賚	-12.1488
鳬	-12.1489
摸	-12.149
士彠	-12.1492
䢴	-12.1492
􁂥	-12.1494
如字讀	-12.1494
鏄	-12.1494
竇嬰	-12.1495
史天澤	-12.1495
遣子入侍	-12.1495
眞定府	-12.1497
阡	-12.1497
台哈布哈	-12.1497
乎何誅	-12.1497
阼	-12.1498
媛	-12.1498
弹	-12.1498
驩兠	-12.1499
民不堪命	-12.1499
輿櫬	-12.1499
阡陌	-12.1499
髙句麗	-12.1499
舟艦	-12.15
李正己	-12.15
譔	-12.15
憒	-12.1501
蕭至忠	-12.1501
灤	-12.1501
進爵為王	-12.1502
賫	-12.1502
伊喇	-12.1502
饕	-12.1502
堞	-12.1502
大事去矣	-12.1502
髙祖武德	-12.1503
楫	-12.1503
注見秦二世二年信都	-12.1503
宵遁	-12.1503
以憂卒	-12.1503
忮	-12.1503
天章閣	-12.1503
窮奢極	-12.1503
皐	-12.1503
田𢎞正	-12.1503
酎	-12.1504
姫	-12.1504
淆	-12.1504
宋齊梁陳	-12.1504
牛仙客	-12.1505
夀輝	-12.1505
五銖錢	-12.1506
腴	-12.1506
鍪	-12.1506
荔	-12.1506
昴	-12.1506
䜿	-12.1506
虜複姓	-12.1506
伴	-12.1506
山海經	-12.1507
無敢言者	-12.1507
典禁兵	-12.1508
酢	-12.1508
諉	-12.1508
犄角	-12.1509
君㚟	-12.1509
徐夀輝	-12.1509
求遺書	-12.1509
狂悖	-12.151
荀攸	-12.151
牴牾	-12.151
州廢以縣屬	-12.1511
倜儻	-12.1511
旃	-12.1511
藩屏	-12.1511
擊毬	-12.1512
于志寧	-12.1512
奚斤	-12.1512
粢	-12.1512
驃騎將軍	-12.1512
嚚	-12.1513
州司戸	-12.1513
可勝歎哉	-12.1514
皆倣此	-12.1514
窮蹙	-12.1514
碣	-12.1515
荒滛	-12.1515
添	-12.1515
韙	-12.1515
棐	-12.1515
郡漢因之	-12.1516
嶧	-12.1516
黄鉞	-12.1516
庠序	-12.1516
㬥	-12.1517
事無大小	-12.1517
承上文	-12.1517
梅福	-12.1517
雞鳴	-12.1518
掊克	-12.1518
溆	-12.1518
安帝元初元年	-12.1519
瞋目	-12.152
閠	-12.1521
峰	-12.1521
隋初廢郡	-12.1522
鬱林	-12.1522
朔方節度使	-12.1523
屠耆	-12.1524
謝靈運	-12.1525
李翺	-12.1525
嚭	-12.1527
痛哭	-12.1528
齊王攸	-12.1528
驚駭	-12.1529
逃遁	-12.1529
己卯	-12.1532
館閣	-12.1532
某官某	-12.1535
注見中宗嗣聖	-12.1541
謂所親曰	-12.1542
吕蒙	-12.1545
其畧曰	-12.1559
注見漢成帝綏和	-12.1568
之謂歟	-12.157
泣訴	-12.1584
漢獻帝初平	-12.163
口舌	-12.1679
郡晉因之	-12.1696
山之陽	-12.171
武帝元光	-12.1733
注見漢武帝元鼎六年	-12.1756
拾補	-12.1758
婺	-12.1812
興平二年金陵	-12.1817
元鼎六年	-12.1861
州宋因之	-12.1873
隕霜	-12.1879
笙	-12.188
蔥嶺	-12.1888
莠	-12.1889
壕	-12.1889
山南西道	-12.189
𤣥元皇帝	-12.189
牂牁	-12.1891
扉	-12.1892
蓮	-12.1892
髻	-12.1892
杜甫詩	-12.1893
賻	-12.1893
曹伯莒子邾子	-12.1893
沫	-12.1894
城中食盡	-12.1894
詗	-12.1895
秬鬯	-12.1895
鈇鉞	-12.1896
菹	-12.1896
睥睨	-12.1897
柸	-12.1897
錠	-12.1897
凑	-12.1897
僕固懐恩	-12.1898
皇甫嵩	-12.1898
魚豢	-12.1898
廿	-12.1898
廙	-12.1899
鳯凰	-12.1899
紞	-12.1899
陸䞇	-12.1899
注見德宗貞元	-12.19
佾	-12.1901
滻	-12.1901
霫	-12.1901
碌碌	-12.1902
謇	-12.1902
祸	-12.1902
薳	-12.1902
常平倉	-12.1902
雁	-12.1903
宣政殿	-12.1903
用度不足	-12.1903
畵	-12.1903
姚弋仲	-12.1903
獬	-12.1903
孰大焉	-12.1903
瑑	-12.1903
琢	-12.1904
權其輕重	-12.1904
飼	-12.1904
倭	-12.1905
果何益哉	-12.1905
浄	-12.1906
酸棗	-12.1906
艷	-12.1907
嵇康	-12.1907
尉遲迥	-12.1908
嫁娶	-12.1908
栒	-12.1908
諝	-12.1908
怍	-12.1908
圜丘	-12.1908
徒跣	-12.1909
荀林父	-12.1909
控弦	-12.1909
裸	-12.1909
天雄軍	-12.1909
縫	-12.191
酈食其	-12.191
孩	-12.1911
飱	-12.1911
崇政殿説書	-12.1911
蟄	-12.1911
炯	-12.1912
欽定四庫全書御批續資治通鑑綱目卷	-12.1912
畢士安	-12.1912
直言極諫	-12.1912
公子重耳	-12.1912
菲	-12.1913
嘉禾	-12.1913
凛凛	-12.1913
不敢復言	-12.1914
曹利用	-12.1914
餘杭	-12.1914
令狐德棻	-12.1914
唐鑑卷	-12.1915
一人之身	-12.1915
注見漢光武建	-12.1916
上官儀	-12.1916
姚崇宋璟	-12.1916
惇卞	-12.1916
㰱血	-12.1916
莅	-12.1916
匭	-12.1917
汩	-12.1917
舁	-12.1918
峨	-12.1918
燥	-12.1918
濡須	-12.1918
穿窬	-12.1918
燕主垂	-12.1919
灞	-12.192
折衷	-12.1922
呼韓邪單于	-12.1922
杜黄裳	-12.1923
隋罷郡	-12.1923
貿易	-12.1924
韓𤦺	-12.1925
魏王泰	-12.1925
絳灌	-12.1928
滑稽	-12.1928
開門納	-12.193
死生以之	-12.193
瀦	-12.1934
范文正公	-12.1934
千戸	-12.201
頓首謝	-12.2032
榖帛	-12.2041
十萬緡	-12.2065
宋金元仍舊	-12.2107
注見漢景	-12.2114
以死報	-12.2126
唐髙祖武徳	-12.2148
乾元初復為	-12.2272
宋公魯侯衞侯	-12.2291
翕	-12.2299
拜甡	-12.2304
欄	-12.2306
珠崖	-12.2307
糵	-12.2307
葭萌	-12.2308
牓	-12.2308
伊川傳曰	-12.2311
鑚	-12.2311
傖	-12.2311
建章宫	-12.2312
岌岌	-12.2312
查	-12.2312
什七八	-12.2312
芸	-12.2312
宙	-12.2313
欎	-12.2313
森	-12.2313
不亦善乎	-12.2314
厲聲曰	-12.2314
以全節予之	-12.2314
悵	-12.2315
匝	-12.2315
不書此其書何	-12.2316
彭城王勰	-12.2316
恂恂	-12.2317
盻	-12.2317
磯	-12.2317
申包胥	-12.2317
疆埸	-12.2318
証	-12.2318
醬	-12.2319
栖筠	-12.2319
烜	-12.2319
恐懼修省	-12.232
費禕	-12.2321
乾隆四十	-12.2321
堇	-12.2321
注見陳宣帝大建	-12.2322
金元俱	-12.2322
煉	-12.2322
糲	-12.2322
媾	-12.2322
李光顔	-12.2323
靦	-12.2323
瓜	-12.2323
儒林傳	-12.2323
袵	-12.2324
鄜坊	-12.2324
豔	-12.2324
虞世南	-12.2324
庫庫特穆爾	-12.2324
書於册	-12.2325
虞詡	-12.2325
品藻	-12.2325
麇	-12.2325
毬	-12.2325
赭圻	-12.2325
溱	-12.2325
姊妹	-12.2325
耐	-12.2326
㸃檢	-12.2326
武陵王紀	-12.2327
鴻吉哩	-12.2327
不嗜殺人	-12.2328
免冠謝	-12.2328
邢巒	-12.2328
斮	-12.2328
底柱	-12.2329
劑	-12.233
焬	-12.233
宋范祖禹撰吕祖謙註	-12.233
籲	-12.2331
酣飲	-12.2331
浿	-12.2331
螫	-12.2332
迷而不悟	-12.2332
崇政殿	-12.2334
張士遜	-12.2334
隼	-12.2334
漏泄	-12.2334
讖	-12.2334
見齊主寳卷永元二年	-12.2335
崔暹	-12.2336
帥步騎	-12.2336
渝盟	-12.2338
梁師成	-12.2339
之州名治	-12.2339
皮日休	-12.2341
庸懦	-12.2345
契苾	-12.2345
貝勒	-12.2347
注見晉安帝義熈	-12.2349
無忌憚	-12.235
預朝政	-12.2353
霆	-12.2356
光武建武十九年	-12.2358
光武建武八年	-12.2367
為小人所	-12.2375
從事中郎	-12.238
淮堰	-12.251
唐高祖武	-12.2543
武帝泰始八年	-12.2567
後周改為	-12.2593
文武成康	-12.2665
柰	-12.2709
始此終綱目	-12.2714
雷霆	-12.2718
韐	-12.2728
䆳	-12.2731
春正月帝在房州	-12.2731
債	-12.2733
棁	-12.2734
鸜鵒	-12.2735
仄	-12.2737
㳂	-12.2737
茌	-12.2737
鄞	-12.2738
通鑑釋文曰	-12.2739
湫	-12.274
搤	-12.274
易繫辭	-12.274
軺	-12.274
鎧仗	-12.2741
亹	-12.2742
博果宻	-12.2742
衫	-12.2743
探賾	-12.2743
鏃	-12.2743
寒浞	-12.2743
挂	-12.2743
櫓	-12.2744
額森	-12.2745
焰	-12.2746
熺	-12.2746
玦	-12.2746
檮杌	-12.2747
冐頓	-12.2748
霞	-12.2748
蒨	-12.2748
李百藥	-12.2749
拈	-12.2749
羕	-12.2749
不辱君命	-12.2749
杜悰	-12.275
曹沬	-12.275
直學士院	-12.275
蜂	-12.275
肘腋	-12.275
周文育	-12.2751
可以鑒矣	-12.2751
寰宇記	-12.2751
遣間使	-12.2752
惔	-12.2752
晉荀瑶	-12.2752
柝	-12.2752
緱氏	-12.2752
們	-12.2753
洶	-12.2753
酸	-12.2753
睚眦	-12.2753
突騎施	-12.2753
蹔	-12.2753
聯	-12.2753
荀朂	-12.2753
鑄大錢	-12.2754
彌縫	-12.2754
愀	-12.2754
濡湏	-12.2754
耨	-12.2755
縗	-12.2755
芈	-12.2755
注見晉帝奕太和四年	-12.2755
䄂	-12.2756
鄭康成	-12.2756
太常少卿	-12.2756
無乃不可乎	-12.2756
賕	-12.2756
儀同三司	-12.2756
圏	-12.2756
徠	-12.2757
苐	-12.2757
獒	-12.2757
鷂	-12.2757
張九韶曰	-12.2758
濳	-12.2758
包藏禍心	-12.2758
徐湛之	-12.2758
百有餘年	-12.2758
溝壑	-12.2759
綿竹	-12.2759
埓	-12.2759
當從提要	-12.2759
刷	-12.2759
鴉	-12.276
鷁	-12.276
何負於	-12.276
液	-12.276
治書侍御史	-12.2761
紵	-12.2761
百寮	-12.2761
段秀實	-12.2761
瀾	-12.2761
可哀也已	-12.2761
墌	-12.2761
第五倫	-12.2762
倉廪	-12.2762
聲罪致討	-12.2762
遶	-12.2762
糠	-12.2763
躓	-12.2763
鄶	-12.2763
習鑿齒	-12.2764
隃	-12.2765
瑨	-12.2766
秘書丞	-12.2766
閽寺	-12.2766
欽定四庫全書唐鑑卷	-12.2766
穽	-12.2767
諸葛誕	-12.2767
有憂色	-12.2767
拱辰	-12.2767
翂	-12.2767
菴	-12.2768
闔閭	-12.2768
咥	-12.2768
公羊氏曰	-12.2769
梓材	-12.2769
龎萌	-12.2769
欽定四庫全書宋大事記講義卷	-12.277
迂濶	-12.2771
孫伏伽	-12.2771
都督中外諸軍事	-12.2771
禹湯文武	-12.2773
有虞氏	-12.2773
樗	-12.2774
逸周書	-12.2776
起居舍人	-12.2776
蘧	-12.2777
憝	-12.2778
周顯王二十九年	-12.2809
邊陲	-12.2815
立之是為	-12.2836
十丈	-12.2853
繼捧	-12.2862
臣之事君	-12.2881
名注見漢獻帝建安七年	-12.2896
京師注見周顯	-12.2913
以深貶之	-12.294
注見髙祖武徳	-12.2959
元仍舊本朝因之改屬	-12.3024
元仍舊本朝因之	-12.3145
用左傳史	-12.3154
安帝義熈	-12.3167
暍	-12.3176
忸	-12.3189
本始三年	-12.3191
籩豆	-12.3193
弧	-12.3193
搒	-12.3193
貪婪	-12.3195
賵	-12.3196
鴦	-12.3196
聒	-12.3197
嬰城固守	-12.3198
見周赧王五十三年	-12.3199
徼倖	-12.3199
攅	-12.3199
童謡	-12.3199
粒	-12.32
喁	-12.3201
嬰城自守	-12.3202
殺而不去其官	-12.3202
黠戞斯	-12.3202
輻輳	-12.3202
裴行儉	-12.3203
李存審	-12.3203
馮延已	-12.3203
慊	-12.3203
堠	-12.3203
黏	-12.3204
著為令	-12.3204
棨	-12.3204
陬	-12.3204
竅	-12.3206
韋保衡	-12.3206
卞壼	-12.3206
壼	-12.3206
逍遥	-12.3207
梃	-12.3207
嗚咽	-12.3207
輓	-12.3207
諸葛瑾	-12.3207
宣帝地節三年	-12.3207
武帝太初元年	-12.3207
曖昧	-12.3207
彷	-12.3207
蒙恬	-12.3207
蕭摩訶	-12.3207
娱	-12.3208
呂文煥	-12.3208
眊	-12.3209
抎	-12.3209
杜元頴	-12.3209
肆諸市朝	-12.3209
杵	-12.3209
顔杲卿	-12.321
俳優	-12.321
菩	-12.321
讟	-12.321
灣	-12.321
戹	-12.3211
逗留	-12.3211
惨	-12.3211
湓口	-12.3211
莽天鳳元年	-12.3211
西京留守	-12.3212
約為兄弟	-12.3212
坻	-12.3212
觀文殿大學士	-12.3213
腥	-12.3213
韓擒虎	-12.3213
磾	-12.3213
鏘	-12.3213
盧從史	-12.3213
齊明帝建武四年	-12.3214
為鄉導	-12.3214
詁	-12.3214
沙陁	-12.3214
簮	-12.3215
恍	-12.3215
玭	-12.3215
倒懸	-12.3216
詿	-12.3216
尭	-12.3216
琴瑟	-12.3217
吻	-12.3217
范滂	-12.3217
韋澳	-12.3217
陸費墀	-12.3218
等謹案	-12.3219
史評類	-12.3219
蠆	-12.322
趙挺之	-12.322
注見新莽始	-12.3221
盃	-12.3221
宋大事記講義卷	-12.3222
豬	-12.3222
論之詳矣	-12.3222
羇	-12.3222
畿甸	-12.3222
舶	-12.3223
鼎峙	-12.3223
璿	-12.3223
𫝊則以為	-12.3223
貺	-12.3223
又甚焉	-12.3224
僂	-12.3224
捍禦	-12.3224
咤	-12.3224
旂	-12.3225
陳俊卿	-12.3226
卉	-12.3226
尒朱	-12.323
郡東漢屬	-12.323
𣙜酤	-12.3232
京朝官	-12.3232
麑	-12.3235
留不遣	-12.3235
所從來	-12.3245
兖鄆	-12.3325
堯舜禹湯文武	-12.3336
萬六千	-12.3405
州後周改	-12.3427
月不雨	-12.347
晉成帝咸	-12.3605
某為某	-12.3619
見唐𤣥宗開元十一年	-12.3631
狃	-12.3643
楊師厚	-12.3659
史通卷第十	-12.3661
斆	-12.3663
璫	-12.3666
韋執誼	-12.3667
琸	-12.3667
燠	-12.3667
洸	-12.3668
特克實	-12.3669
天下幸甚	-12.367
喀	-12.367
糗糧	-12.3672
葭蘆	-12.3673
孺子嬰	-12.3674
蘓布特	-12.3674
安帝延光四年	-12.3675
窮兵黷武	-12.3676
爇	-12.3676
柘	-12.3676
舳艫	-12.3677
煬帝大業	-12.3677
沘	-12.3677
嵊	-12.3678
黒獺	-12.3678
陳堯叟	-12.3679
蹴	-12.3679
滹沱	-12.3679
藜	-12.368
岀	-12.368
明帝泰始三年	-12.368
瞰	-12.368
注見梁武帝中大通	-12.368
鏁	-12.368
隋復置屬	-12.3681
靑	-12.3681
左司諫	-12.3681
磊	-12.3682
玉清昭應宫	-12.3682
氍	-12.3682
塤	-12.3682
皇甫鏄	-12.3683
鸇	-12.3683
鄃	-12.3683
犖	-12.3683
鄭司農云	-12.3683
闋	-12.3684
成帝永始	-12.3684
痼	-12.3684
後倣此	-12.3684
未知孰是	-12.3684
珩	-12.3685
斗筲	-12.3685
烽燧	-12.3685
深切著明	-12.3685
南宫氏曰	-12.3685
㝷	-12.3685
篚	-12.3686
麤	-12.3686
王邦四年	-12.3686
兢兢	-12.3687
映	-12.3687
滋蔓	-12.3687
肅宗上元二年	-12.3687
梁武帝大同十一年	-12.3687
李淳風	-12.3688
羹	-12.3688
現	-12.3688
楊再思	-12.3689
棋	-12.3689
傕汜	-12.3689
崑	-12.3689
少正卯	-12.3689
宇文化及	-12.3689
廱	-12.3689
順帝陽嘉二年	-12.369
媸	-12.369
箱	-12.369
絺	-12.369
􁞗	-12.369
辠	-12.369
𣙜茶	-12.369
禫	-12.369
按一綂志	-12.3691
禾稼	-12.3691
王巖叟	-12.3691
埽	-12.3691
桎梏	-12.3692
聃	-12.3692
蓺	-12.3692
諄諄	-12.3692
隤	-12.3692
菅	-12.3692
傚	-12.3693
忒	-12.3693
柢	-12.3693
張唐英論曰	-12.3693
雊	-12.3693
邢洺	-12.3693
欽定四庫全書史部十五	-12.3693
釋名云	-12.3694
拍	-12.3694
道不拾遺	-12.3694
浩亹	-12.3694
范文虎	-12.3694
別	-12.3694
㶚	-12.3694
惓惓	-12.3694
戸部侍郎	-12.3694
㬰	-12.3695
姚元之	-12.3695
注見漢武帝元朔五年	-12.3695
詮	-12.3696
大通元年	-12.3696
狙詐	-12.3696
未之聞也	-12.3697
輔少主	-12.3697
氛	-12.3697
讚	-12.3697
蹻	-12.3699
饉	-12.37
不兩立	-12.3701
邰	-12.3701
翃	-12.3701
麀	-12.3702
糊	-12.3702
厎	-12.3702
藐	-12.3703
耉	-12.3704
鷸	-12.3706
校書郎	-12.3707
㢲	-12.3707
妥	-12.3707
渾天儀	-12.3708
齪	-12.3708
莫先於	-12.3709
閎夭	-12.3709
翰林學士承㫖	-12.3711
躒	-12.3715
破秦軍	-12.3719
僱	-12.372
章子厚	-12.3725
御批資治通鑑綱目卷四十	-12.3735
辭疾不	-12.3756
注見隋恭	-12.3808
見漢桓帝永康元年	-12.385
千艘	-12.3851
太宗貞觀十	-12.4044
碁	-12.4163
華清宫	-12.4164
柳宗元	-12.4166
勺	-12.4167
行下孟反	-12.4167
樓櫓	-12.4167
鍤	-12.4168
湘隂公	-12.4169
端明殿學士	-12.417
釘	-12.4171
頫	-12.4171
兕	-12.4171
柙	-12.4172
欽定四庫全書史通通釋卷	-12.4172
蓺文志	-12.4173
曌	-12.4173
華陽國志	-12.4173
注見陳宣帝太建	-12.4174
馮澥	-12.4174
杜伏威	-12.4174
樽	-12.4175
崔慧景	-12.4175
銛	-12.4175
後主延熙	-12.4175
様	-12.4176
宕渠	-12.4176
塾	-12.4176
漢後主延熈	-12.4177
注見漢王邦三年	-12.4177
万	-12.4177
悺	-12.4177
史通通釋卷	-12.4178
包拯	-12.4178
猖狂	-12.4179
劎	-12.4179
戞	-12.418
資政殿學士	-12.418
䨇	-12.4181
仔	-12.4181
八月帝還大都	-12.4181
貍	-12.4181
赴水死	-12.4182
混淆	-12.4182
汁	-12.4182
代領其衆	-12.4182
纁	-12.4182
凍餒	-12.4182
注見晉懐帝永嘉	-12.4182
洄	-12.4183
事物紀原云	-12.4183
戬	-12.4183
稗	-12.4184
隷	-12.4184
港	-12.4184
煨	-12.4184
劉貢父曰	-12.4185
守信等	-12.4185
埸	-12.4185
喑	-12.4187
儕	-12.4187
肌	-12.4188
艻	-12.4188
注見晉安帝元興元年	-12.4188
骨髓	-12.4188
紲	-12.4189
噱	-12.4189
注見漢武帝元朔元年	-12.4189
暦	-12.4189
兾	-12.4189
霖	-12.419
墾	-12.419
上欽定四庫全書御批資治通鑑綱目卷	-12.419
異牟尋	-12.419
撿	-12.419
栽	-12.419
巧言令色	-12.419
迺	-12.4191
塈	-12.4191
腦	-12.4191
鶻	-12.4191
夥	-12.4191
骨肉相殘	-12.4191
祓	-12.4192
孔目官	-12.4192
閹豎	-12.4192
黽	-12.4193
無所忌憚	-12.4193
睨	-12.4193
埭	-12.4193
謗訕	-12.4193
皇甫鎛	-12.4194
齊桓晉文	-12.4194
囬	-12.4194
摴蒱	-12.4194
醒	-12.4195
𣣔	-12.4195
輊	-12.4195
悞	-12.4195
呐	-12.4196
粮	-12.4197
順帝永建	-12.4197
叨	-12.4198
李文靖	-12.4198
赫舍哩	-12.4198
吮	-12.4202
綫	-12.4202
岩	-12.4202
翀	-12.4204
權徳輿	-12.4205
諸葛武侯	-12.4205
媧	-12.4205
宣帝本始	-12.4207
聲如雷	-12.4229
宗開元十一年	-12.4485
注見漢帝𤣥	-12.4645
甃	-12.467
漣	-12.4677
光武建武二十	-12.4682
􁨑	-12.4684
甓	-12.4685
嫄	-12.4689
滸	-12.4693
唐休璟	-12.4694
翺	-12.4694
逗撓	-12.4695
煚	-12.4696
韃靼	-12.4698
菰	-12.4698
玢	-12.4698
黻	-12.4698
注見漢獻帝初平三年	-12.4698
劌	-12.4699
螽	-12.4699
茸	-12.4699
碏	-12.47
漢後主景耀四年	-12.4701
泳	-12.4701
膜	-12.4702
帝建武三年并州	-12.4702
藿	-12.4702
悁	-12.4702
糅	-12.4702
煎	-12.4702
安漢公莽	-12.4703
紱	-12.4703
額哷布格	-12.4704
後秦主萇	-12.4704
慓	-12.4704
儂	-12.4704
冉駹	-12.4705
殍	-12.4705
侂	-12.4705
踳	-12.4705
繚	-12.4705
捽	-12.4706
突厥北狄國名	-12.4706
燃	-12.4706
趙歸真	-12.4706
叠	-12.4706
穆提婆	-12.4707
籬	-12.4707
竞	-12.4707
夐	-12.4707
鏖	-12.4707
俳	-12.4708
粃	-12.4708
柚	-12.4708
朘	-12.4708
愴	-12.4708
漢後主炎興元年	-12.4708
衎	-12.4709
猴	-12.4709
崔昭緯	-12.471
因氏焉	-12.471
齊武帝永	-12.471
不一而足	-12.471
𡨕	-12.471
庳	-12.4711
罽	-12.4711
咽喉	-12.4711
衽	-12.4711
巔	-12.4712
澌	-12.4712
吸	-12.4712
絛	-12.4712
蚩	-12.4713
焯	-12.4713
蕭寳寅	-12.4713
非不幸也	-12.4713
嗾	-12.4713
薉	-12.4714
韓遊瓌	-12.4715
之心人皆有之	-12.4715
昊天上帝	-12.4715
妍	-12.4716
楚義帝元	-12.4716
猊	-12.4716
杜讓能	-12.4716
自時厥後	-12.4716
亦末如之何	-12.4716
砂	-12.4717
曁	-12.4717
在其掌握	-12.4717
知稼穡之艱難	-12.4717
弑君之賊	-12.4717
榖梁氏曰	-12.4718
攫	-12.4718
倬	-12.4718
伐鬼方	-12.4719
瞞	-12.4719
岑文本	-12.4719
藎	-12.4719
虬	-12.472
任伯雨	-12.472
旹	-12.4721
名注見周顯王八年岐	-12.4721
簴	-12.4721
饑人相食	-12.4721
捃	-12.4721
犧牲	-12.4721
謂輔臣曰	-12.4721
𦕈	-12.4721
知無不為	-12.4722
三分之一	-12.4722
浩然之氣	-12.4723
槁	-12.4723
芻蕘	-12.4723
四川宣撫使	-12.4724
癘	-12.4724
創業垂統	-12.4724
注見宋孝武帝大明	-12.4724
羈縻	-12.4724
脽	-12.4724
儇	-12.4725
牣	-12.4726
惻怛	-12.4726
倐	-12.4727
源乾曜	-12.4727
腆	-12.4728
棼	-12.4728
魏大丞相歡	-12.4728
耤	-12.4728
刮	-12.4729
肺腑	-12.4729
陽處父	-12.4729
新市平林	-12.4729
着	-12.4731
塋	-12.4731
孔道輔	-12.4731
爐	-12.4734
票	-12.4735
襁	-12.4736
孫明復	-12.4737
東胡種名	-12.4758
南一十里	-12.4769
宋因之金	-12.4812
禮地官	-12.4859
涇原節度	-12.491
神爵元年	-12.5067
郡晉改	-12.5173
鐫	-12.5239
姨	-12.5245
豸	-12.5246
且戰且	-12.5246
甕	-12.5248
槖駞	-12.525
綽斯戩	-12.5251
玖	-12.5251
迸	-12.5253
鋸	-12.5254
賭	-12.5255
􁀫	-12.5255
靴	-12.5255
彎	-12.5255
事無巨細	-12.5256
暾	-12.5256
注見隋煬帝大業十三年	-12.5256
闓	-12.5257
九成宫	-12.5258
膂	-12.5258
燬	-12.5258
水經云	-12.5259
墅	-12.5259
僰	-12.526
下欽定四庫全書御批資治通鑑綱目卷	-12.526
幃	-12.526
騾	-12.526
頍	-12.526
靼	-12.526
晊	-12.5261
酆	-12.5261
紕繆	-12.5261
怏	-12.5261
猪	-12.5262
扑	-12.5262
沙鉢羅	-12.5262
原情定罪	-12.5262
匽	-12.5262
扼腕	-12.5262
腕	-12.5263
噤	-12.5263
晦庵	-12.5263
尖	-12.5264
紫宸殿	-12.5264
瓛	-12.5264
彀	-12.5264
泠	-12.5265
删	-12.5265
烏蘭哈逹	-12.5265
蚝	-12.5265
􁁊	-12.5265
閿	-12.5265
鴟鴞	-12.5265
額森特穆爾	-12.5265
煖	-12.5265
畮	-12.5265
賨	-12.5265
踏	-12.5266
晉孝武太元	-12.5266
髯	-12.5267
蒞	-12.5267
倨傲	-12.5267
皇泰二年	-12.5267
鵝	-12.5267
蕕	-12.5267
湔	-12.5267
霧四塞	-12.5268
疢	-12.5269
透	-12.5269
瑪爾戩	-12.5269
莩	-12.5269
幔	-12.527
戣	-12.527
誅亂討逆	-12.527
戻	-12.5271
閺	-12.5271
鯤	-12.5271
監修國史	-12.5271
籖	-12.5272
扎	-12.5272
秋毫無犯	-12.5272
簫	-12.5272
贑	-12.5272
髙士亷	-12.5274
者可以觀矣	-12.5274
楊嗣復	-12.5274
虞夏商周	-12.5275
颯	-12.5275
悽	-12.5275
憕	-12.5276
脈	-12.5276
肅宗寳應元年	-12.5276
徯	-12.5276
溍	-12.5276
知小人之依	-12.5276
鱉	-12.5276
櫝	-12.5277
天平節度使	-12.5277
另	-12.5277
見於書法之間	-12.5277
欲不亡得乎	-12.5277
元胡一桂撰	-12.5278
眤	-12.5278
宇文士及	-12.5279
杜佑通典	-12.5279
朶	-12.5279
忷	-12.5279
筴	-12.5279
縣尋省	-12.5279
薇	-12.5281
㕘知政事	-12.5281
淤	-12.5281
建中靖國	-12.5281
僥	-12.5281
臧文仲	-12.5283
坰	-12.5283
笥	-12.5285
武攸緒	-12.5285
右司諫	-12.5286
柞	-12.5287
繖	-12.5287
何足道哉	-12.5287
瞀	-12.5289
跂	-12.5289
痤	-12.529
孔子作春秋	-12.529
禩	-12.5291
猫	-12.5295
北一十里	-12.5297
可想見	-12.5297
唐憲宗元和十	-12.5331
并州注見齊	-12.5427
唐中宗嗣聖十	-12.5454
漢後主建興十	-12.5475
平帝元始四年	-12.5606
啻	-12.5785
羌種名	-12.5809
崍	-12.5815
龢	-12.583
以逸待勞	-12.5833
峘	-12.5835
約蘇穆爾	-12.5836
咋	-12.5838
礫	-12.5838
褰	-12.5839
轢	-12.584
恇	-12.584
者殺無赦	-12.584
郛	-12.5841
都虞侯	-12.5842
鶖	-12.5842
朓	-12.5843
腫	-12.5843
遒	-12.5844
踴	-12.5845
臚	-12.5845
傉	-12.5845
戅	-12.5846
黼黻	-12.5846
安帝永初二年	-12.5846
騏	-12.5846
曮	-12.5847
夙沙衛	-12.5847
㓙	-12.5848
欽定四庫全書御批資治通鑑綱目前編	-12.5848
都爾蘇	-12.5848
枷	-12.5849
炮	-12.5849
敳	-12.585
褫	-12.585
變不虚生	-12.585
璀	-12.585
郝處俊	-12.5851
萹	-12.5851
帝光和五年	-12.5851
成都王穎	-12.5851
轉禍為福	-12.5851
詼諧	-12.5852
鬷	-12.5852
診	-12.5852
錚	-12.5852
癭	-12.5852
蜜	-12.5852
顙	-12.5853
横海節度	-12.5853
分注備載	-12.5853
襦	-12.5853
張叔夜	-12.5853
懔	-12.5853
諴	-12.5853
衾	-12.5853
此危道也	-12.5853
眄	-12.5854
圎	-12.5854
齕	-12.5854
樹機能	-12.5854
烏合之衆	-12.5855
霾	-12.5855
奮不顧身	-12.5856
何靣目	-12.5856
宋金元俱仍舊	-12.5856
棚	-12.5856
聿	-12.5856
壟	-12.5856
媮	-12.5856
嘻	-12.5856
葷	-12.5857
黿	-12.5857
領尚書事	-12.5857
白志貞	-12.5858
芽	-12.5858
州居住	-12.5859
㦤	-12.5859
珦	-12.5859
囹圄	-12.5859
義武節度使	-12.5859
裴叔業	-12.5859
憶	-12.5861
惚	-12.5861
蟊	-12.5861
喘	-12.5861
臨川王宏	-12.5861
犫	-12.5862
崔𤣥暐	-12.5862
訹	-12.5862
獮	-12.5864
憲宗紀書曰元和	-12.5864
博果密	-12.5864
梁崇義	-12.5864
無噍類	-12.5864
讋	-12.5864
大慶殿	-12.5864
龐	-12.5865
毀	-12.5865
葢蘇文	-12.5865
媟	-12.5865
杜鴻漸	-12.5866
囊嘉特	-12.5866
宗永淳元年	-12.5866
牂柯	-12.5867
砭	-12.5868
秬	-12.5869
孫叔敖	-12.5869
楞	-12.5869
休屠王	-12.5869
迤	-12.5871
韋渠牟	-12.5871
蕘	-12.5871
鶡	-12.5871
箝	-12.5872
恝	-12.5874
趙武靈王	-12.5875
乞伏國仁	-12.5875
虞世基	-12.5875
凊	-12.5876
䂀	-12.5876
簀	-12.5877
在徳不在	-12.5883
岍	-12.5887
恫	-12.5887
見周威烈王二十三年中山	-12.594
梁武帝普通六	-12.595
太原郡名注見齊明	-12.5967
注見漢元帝建昭	-12.6069
在漢中府	-12.6185
帝建安十五年	-12.6198
見漢光武建武元年天水	-12.6328
堯舜禹湯	-12.6345
見太宗貞觀八年	-12.6388
杠	-12.6441
毐	-12.6442
滍	-12.6448
纒	-12.6453
闍	-12.6455
實勒們	-12.6455
駘	-12.6456
菊	-12.6458
額爾克	-12.6458
姥	-12.646
漓	-12.646
簧	-12.6461
閡	-12.6462
㝡	-12.6464
鍛	-12.6465
烏重𦙍	-12.6465
尺五寸	-12.6465
愞	-12.6466
柟	-12.6466
史炤釋文曰	-12.6467
撙	-12.6467
晻	-12.6467
怦	-12.6467
窕	-12.6468
崆峒	-12.6468
范宗尹	-12.6469
謝深甫	-12.6469
監察御史裏行	-12.647
鐔	-12.6471
呫	-12.6471
明帝太寧二年	-12.6471
帆	-12.6472
匍匐	-12.6472
廨	-12.6472
炊	-12.6473
滓	-12.6473
熒	-12.6474
酪	-12.6474
晴	-12.6474
嚢	-12.6474
璅	-12.6474
齗	-12.6474
遄	-12.6474
撒	-12.6475
捋	-12.6475
璇	-12.6475
施文慶	-12.6475
褠	-12.6475
嶼	-12.6475
笛	-12.6475
婣	-12.6476
鉄	-12.6476
韍	-12.6476
同中書門下三品	-12.6477
漢冲帝永嘉元年	-12.6477
搢	-12.6477
御批資治通鑑綱目前編	-12.6478
顕	-12.6478
喋	-12.6478
葛從周	-12.6478
彍	-12.6478
衿	-12.6479
平章軍國重事	-12.6479
杆	-12.6479
阿薩爾	-12.6479
纘	-12.6479
刹	-12.648
綱目取法春秋	-12.648
嗷	-12.648
收散卒	-12.648
如出一轍	-12.648
果安在哉	-12.648
溴	-12.6481
𨽻四川道	-12.6481
屠岸賈	-12.6481
䕶羌校尉	-12.6481
臍	-12.6481
不亦晚乎	-12.6481
書大禹謨	-12.6481
姚元崇	-12.6482
張守珪	-12.6482
㑹稽王道子	-12.6482
同日語哉	-12.6482
鼷	-12.6482
朱買臣	-12.6483
公㑹齊侯	-12.6484
唁	-12.6484
禨	-12.6484
有自來矣	-12.6484
慴	-12.6485
暖	-12.6485
契苾何力	-12.6485
和實拉	-12.6485
㬎	-12.6485
漢光武建武九年常山	-12.6486
躭	-12.6486
瀧	-12.6486
聫	-12.6486
軟	-12.6486
禺	-12.6486
瑯琊	-12.6487
改過不吝	-12.6487
嘔	-12.6487
慆	-12.6488
咸和三年京口	-12.6488
惡在其為	-12.6488
章敬寺	-12.6488
籞	-12.6489
葉夢得	-12.6489
不學無術	-12.6489
家給人足	-12.6489
衊	-12.649
以日易月	-12.649
琅邪臨沂人	-12.649
攴	-12.6491
戊巳校尉	-12.6491
斛斯椿	-12.6491
似是而非	-12.6491
悉怛謀	-12.6491
匹夫匹婦	-12.6492
高陽王雍	-12.6492
橈	-12.6492
廣平王俶	-12.6493
和尚原	-12.6493
帽	-12.6493
蔟	-12.6494
㦲	-12.6494
淊	-12.6495
武王克殷	-12.6496
宄	-12.6496
百戰百勝	-12.6497
螭	-12.6497
嫣	-12.6497
締	-12.6498
堨	-12.6498
杷	-12.6499
万俟醜奴	-12.65
督中外諸軍	-12.65
濊	-12.6501
評鑑闡要	-12.6503
胊	-12.6504
瘃	-12.6505
膰	-12.6505
盧祖尚	-12.6505
楛	-12.6513
蟜	-12.6515
注見隋文帝開皇十	-12.6543
慶陽府	-12.6553
元帝建昭二年	-12.6562
漢帝𤣥更	-12.6627
帝泰始八年益州	-12.6757
邙	-12.6841
見周顯王十九年	-12.7044
潯	-12.7072
漦	-12.7103
龠	-12.7113
堊	-12.7115
闐	-12.7118
幗	-12.7124
楶	-12.7127
桷	-12.7127
璵	-12.7128
居庸關	-12.7129
閈	-12.7129
塜	-12.7129
蛙	-12.7131
䰟	-12.7131
柷	-12.7131
息夫躬	-12.7132
傀	-12.7132
翥	-12.7132
髙祖武徳九年	-12.7133
盧水胡	-12.7134
築長圍	-12.7134
􁞧	-12.7134
江夏王義恭	-12.7134
灅	-12.7135
萎	-12.7135
洳	-12.7135
昭烈帝章武二年	-12.7135
灄	-12.7136
囁	-12.7136
櫃	-12.7136
霓	-12.7137
㦯	-12.7138
滕子薛伯杞伯小邾子	-12.7138
䲭	-12.7138
嶸	-12.7139
凉州注見唐中	-12.7139
魑	-12.714
匐	-12.714
窬	-12.714
秪	-12.7141
注見齊武帝永明	-12.7142
餤	-12.7142
曰事急矣	-12.7142
薛仁貴	-12.7142
尚結贊	-12.7143
河亶甲	-12.7143
暌	-12.7143
州團練副使	-12.7143
陜西行都司	-12.7143
囷	-12.7143
固其宜也	-12.7143
簋	-12.7144
韓詩外	-12.7144
鵞	-12.7144
都知兵馬使	-12.7144
和帝中興元年	-12.7144
㓗	-12.7144
糺	-12.7145
宣宗大中二年	-12.7145
祲	-12.7145
身且不保	-12.7145
靈帝光和元年	-12.7146
劘	-12.7146
薁	-12.7147
夏王勃勃	-12.7147
溲	-12.7147
倂	-12.7147
嬀	-12.7148
綱目之權衡審矣	-12.7148
岢	-12.7148
翟方進	-12.7149
代宗紀書曰	-12.7149
㧞悉宻	-12.7149
問民疾苦	-12.7149
肝腦塗地	-12.7149
緹	-12.7149
硯	-12.7149
日不暇給	-12.7149
甑	-12.715
褁	-12.715
瀼	-12.715
愍帝建興三年	-12.715
拜手稽首	-12.715
榭	-12.7151
刅	-12.7151
百官總已以聽	-12.7151
幵	-12.7151
長樂公丕	-12.7151
弔民伐罪	-12.7152
摛	-12.7152
武陵王駿	-12.7152
陸秀夫	-12.7152
礟	-12.7153
權德輿	-12.7153
騃	-12.7153
㝏	-12.7153
倀	-12.7154
柅	-12.7154
孝元帝承聖	-12.7154
董文炳	-12.7154
埃	-12.7154
蝮	-12.7155
哂	-12.7155
湯放桀	-12.7156
濓	-12.7156
瘥	-12.7156
可勝嘆哉	-12.7156
隋初罷郡	-12.7157
窳	-12.7157
漢武帝建元三年	-12.7157
憔悴	-12.7157
彭龜年	-12.7158
虡	-12.7159
摹	-12.7159
湯伐桀	-12.7159
憺	-12.7159
琵琶	-12.7159
𠖇	-12.716
代天理物	-12.716
夫豈過哉	-12.716
勸課農桑	-12.7161
縲	-12.7161
國子司業	-12.7161
埤	-12.7161
瘤	-12.7161
兩漢筆記	-12.7162
筑	-12.7162
仲山甫	-12.7162
﨑	-12.7162
澭	-12.7164
騭	-12.7164
筐	-12.7164
傔	-12.7167
絫	-12.7168
分扶問反	-12.7168
湩	-12.717
儗	-12.7171
賀㧞岳	-12.7171
三分天下有其二	-12.7171
菏	-12.7171
鯉	-12.7172
躐	-12.7172
惎	-12.7173
樛	-12.7183
黁	-12.7189
注見周威烈王二十	-12.7267
宗開元十	-12.7504
元鼎五年豫章	-12.7673
成帝綏和	-12.7724
菟	-12.7826
央	-12.7827
璡	-12.783
烏格台	-12.7831
㺯	-12.7834
鍠	-12.7834
胝	-12.7836
个	-12.7838
皦	-12.7838
猱	-12.7839
跛	-12.7839
莎	-12.7841
屬辭比事	-12.7843
勍	-12.7843
岑長倩	-12.7844
鏞	-12.7844
叉	-12.7845
彭城郡名注見秦始皇二十八年	-12.7845
馛	-12.7846
鏗	-12.7848
誅亂臣討賊子	-12.7848
畚	-12.7848
晉主重貴	-12.7849
元仍舊國朝因之改屬	-12.785
捫	-12.7851
喆	-12.7852
疥	-12.7853
襚	-12.7853
隋恭帝皇泰二年	-12.7854
鵑	-12.7854
唘	-12.7854
三輔黄圖云	-12.7856
隶	-12.7856
蕭思話	-12.7856
眺	-12.7858
氾	-12.7858
棖	-12.7858
蕤	-12.7858
煒	-12.7858
天道好還	-12.7858
劬	-12.7858
揀	-12.7859
盼	-12.7859
斜封官	-12.7859
詼	-12.7859
賀善贊曰	-12.7859
躅	-12.786
巴勒結	-12.786
將作大匠	-12.786
祟	-12.786
防微杜漸	-12.7861
聮	-12.7861
緼	-12.7861
疾陸眷	-12.7861
設官分職	-12.7861
彿	-12.7861
燦	-12.7861
如拾芥	-12.7861
髓	-12.7862
蜕	-12.7862
管仲相桓公	-12.7862
兀	-12.7862
剴	-12.7862
嗢没斯	-12.7862
厝	-12.7862
帝𤣥更始元年	-12.7862
櫬	-12.7862
俎	-12.7863
通鑑不書綱目特書之	-12.7863
僇	-12.7863
獍	-12.7863
旴	-12.7863
褶	-12.7864
檡	-12.7864
隩	-12.7864
克謹天戒	-12.7864
秕	-12.7864
凄	-12.7864
譏失刑也	-12.7864
匣	-12.7865
受法籙	-12.7865
滈	-12.7865
遡	-12.7865
仗節死義	-12.7865
褉	-12.7865
阿裕爾巴里巴特喇	-12.7865
悃	-12.7865
罍	-12.7865
漢宣帝元康四年湟中	-12.7866
美惡不嫌同	-12.7866
慣	-12.7866
循名責實	-12.7866
諦	-12.7866
剰	-12.7867
脞	-12.7867
凡若此類	-12.7867
愾	-12.7867
莵	-12.7867
書之于册	-12.7867
南四十五里	-12.7868
蓄異志	-12.7868
拏	-12.787
繻	-12.787
憖	-12.787
長安縣名注見漢惠帝五年	-12.787
裴耀卿	-12.787
熠	-12.787
醪	-12.7871
抒	-12.7871
舋	-12.7872
柔然北狄國名	-12.7872
棹	-12.7872
呶	-12.7873
葑	-12.7873
眙	-12.7873
紈	-12.7873
攺	-12.7873
銍	-12.7874
髙貴鄉公	-12.7874
灝	-12.7874
集賢校理	-12.7875
冄	-12.7875
痩	-12.7875
漯	-12.7875
瓆	-12.7876
萼	-12.7876
厦	-12.7876
雛	-12.7876
醖	-12.7877
掬	-12.7877
鸚鵡	-12.7877
痺	-12.7878
路至本朝改	-12.7879
淨	-12.788
术	-12.788
瓴	-12.7881
屐	-12.7882
有不可勝言者	-12.7883
糒	-12.7883
歜	-12.7884
杳	-12.7884
枘	-12.7884
祕書監	-12.7884
和帝永元十	-12.7884
燇	-12.7885
進賢退不肖	-12.7886
刓	-12.7886
􁇻	-12.7888
艶	-12.7888
塩	-12.7889
其所未諭	-12.7889
晸	-12.7891
漢桓帝永康元年青州	-12.7898
涽	-12.7902
砮	-12.7907
省之故址	-12.7975
注見晉成帝咸康	-12.8098
永平十三年丹陽	-12.8274
可汗夷狄君長	-12.8591
淦	-12.8597
匕	-12.8597
阿勒呼木	-12.8598
垤	-12.8604
鐃	-12.8605
遝	-12.8606
虖	-12.8606
耶律伊都	-12.8606
鵩	-12.8607
秣	-12.8608
獅	-12.8609
咸陽王禧	-12.8613
建元三年閩中	-12.8613
扄	-12.8614
薛延陁	-12.8614
點	-12.8616
珠格高琪	-12.8616
桶	-12.8616
逅	-12.8617
竢	-12.8617
笠	-12.8617
五星聚奎	-12.8618
邂	-12.8618
見幾而作	-12.862
炮烙之刑	-12.862
發號施令	-12.862
摠	-12.862
荻	-12.862
遴	-12.862
瓦橋闗	-12.8621
利鹿孤	-12.8621
騰吉斯	-12.8622
蹲	-12.8622
栩	-12.8622
厖	-12.8622
欹	-12.8622
薙	-12.8623
普通六年鄭城	-12.8623
揄	-12.8624
見漢高后三年	-12.8624
猒	-12.8624
罟	-12.8624
鐻	-12.8625
楙	-12.8625
烏庫哩	-12.8625
簠	-12.8625
齮	-12.8626
不猶愈於	-12.8626
肋	-12.8626
楣	-12.8626
羖	-12.8626
蹯	-12.8626
鈐	-12.8627
㿻	-12.8627
町	-12.8627
吃	-12.8627
瘼	-12.8627
惬	-12.8627
患得患失	-12.8628
受遺輔政	-12.8628
張耳陳餘	-12.8628
蹷	-12.8628
冑	-12.8629
錙	-12.8629
侫	-12.8629
武帝元封三年	-12.8629
聦	-12.8629
約法三章	-12.8629
兜	-12.863
涂	-12.863
綱目一書再書	-12.863
阿史那社爾	-12.863
肓	-12.8631
牂	-12.8631
疽發背	-12.8631
脣	-12.8631
陳文帝天嘉	-12.8631
偫	-12.8631
石敬塘	-12.8632
囑	-12.8632
鄔	-12.8632
至夲朝因之	-12.8632
矯枉過正	-12.8633
元帝永光元年	-12.8634
蒲類海	-12.8634
賖	-12.8634
洱	-12.8634
刧	-12.8634
蛾	-12.8635
差强人意	-12.8636
瑤	-12.8636
酹	-12.8636
巋	-12.8636
飴	-12.8636
煌	-12.8636
鐙	-12.8636
韋𤣥貞	-12.8636
党	-12.8636
漢桓帝延熹四年	-12.8637
枸	-12.8637
履霜堅氷	-12.8638
畯	-12.8638
漢恵帝五年	-12.8638
濂	-12.8638
派	-12.8639
下愚不移	-12.8639
芑	-12.8639
釜	-12.8639
鳶	-12.8639
旉	-12.864
沇	-12.864
宋王成器	-12.864
必也正名乎	-12.8641
易於反掌	-12.8641
河圖洛書	-12.8641
騤	-12.8641
髭	-12.8641
宦官宫妾	-12.8641
帝本初元年	-12.8642
洛陽縣名注見周顯王三年	-12.8643
獺	-12.8643
宋錢時撰	-12.8644
鉅橋之粟	-12.8644
御批資治通鑑綱目前編卷十	-12.8645
慎靚王	-12.8645
啗	-12.8645
醯	-12.8645
皿	-12.8645
犴	-12.8645
辮	-12.8646
㛰	-12.8646
悲不自勝	-12.8646
渒	-12.8646
狭	-12.8647
格其非心	-12.8647
邘	-12.8647
戛	-12.8647
剭	-12.8647
堧	-12.8648
明皇紀書曰天寳	-12.8648
纇	-12.8648
成敗利鈍	-12.8648
輾	-12.8649
欽定四庫全書學史卷	-12.8649
湯沐邑	-12.8649
簣	-12.865
磷	-12.8654
枲	-12.8656
罳	-12.8659
齷	-12.8662
蛻	-12.8664
為銘焉於	-12.8672
段干木	-12.8677
盌	-12.8679
建興十年許昌	-12.8709
宋明帝泰始二	-12.8741
注見漢宣帝神爵	-12.8932
蜺	-12.9414
朝因之改屬西安府	-12.9415
字下張本有	-12.9415
龑	-12.9432
捲	-12.9435
見漢後主建興七年武昌	-12.944
蜩	-12.9442
賃	-12.9442
窶	-12.9443
玼	-12.9443
毳	-12.9444
漼	-12.9444
襜	-12.9445
䡴	-12.9446
注見晉懷帝永嘉	-12.9446
抶	-12.9447
拄	-12.9447
昻吉爾	-12.9448
畒	-12.9448
臟	-12.9449
佺	-12.9449
春秋時屬晉戰國時屬	-12.945
滹	-12.945
高貴鄉公	-12.9451
儐	-12.9451
人火曰火	-12.9451
剉	-12.9452
蛤	-12.9453
主昱元徽元年	-12.9453
禠	-12.9453
瀝	-12.9453
涅	-12.9453
濘	-12.9454
儡	-12.9454
莾天鳯元年	-12.9454
喚	-12.9454
拖	-12.9455
鼂	-12.9455
攽	-12.9455
桔	-12.9456
褥	-12.9456
悮	-12.9456
耑	-12.9456
耎	-12.9456
可愧之甚	-12.9456
古先哲王	-12.9457
笈	-12.9457
叵	-12.9457
瘖	-12.9457
孳	-12.9457
蹄	-12.9457
淸	-12.9457
澄源正本	-12.9457
茷	-12.9458
疣	-12.9458
線	-12.9458
鄛	-12.9459
鄚	-12.9459
見書志篇	-12.9459
肈	-12.9459
星隕如雨	-12.946
晧	-12.946
煞	-12.9461
筯	-12.9461
簸	-12.9462
紺	-12.9462
旡	-12.9462
除秦苛法	-12.9462
漢成帝鴻嘉三	-12.9462
斲	-12.9463
擄	-12.9463
㕓	-12.9463
膾	-12.9464
薛萬徹	-12.9464
緐	-12.9464
阯	-12.9465
允執厥中	-12.9465
烏凌阿	-12.9466
騂	-12.9466
祍	-12.9466
鄕	-12.9466
論道經邦	-12.9467
賙	-12.9467
糗	-12.9467
橘	-12.9467
天火曰災	-12.9467
同惡相濟	-12.9468
注見周赧王五十三年上黨	-12.9468
蚊	-12.9468
韡	-12.9468
中竹仲反	-12.9469
崗	-12.9469
茙	-12.9469
窖	-12.9469
瀚	-12.9469
滿濟勒噶台	-12.9469
㫤	-12.947
跅	-12.947
檣	-12.9471
竒爾濟蘇	-12.9471
裙	-12.9471
卹	-12.9471
褻	-12.9471
阽	-12.9472
槥	-12.9472
桑落洲	-12.9472
惮	-12.9473
燿	-12.9473
姁	-12.9473
痕	-12.9473
痛心疾首	-12.9473
玉津園	-12.9473
瑝	-12.9474
櫽	-12.9474
帟	-12.9474
銲	-12.9474
仿	-12.9475
熄	-12.9475
餱	-12.9475
鳩摩羅什	-12.9475
褔	-12.9475
做	-12.9475
為尚書右僕射兼中書侍郎	-12.9475
􁒑	-12.9475
曖	-12.9476
翜	-12.9476
繭	-12.9476
睡	-12.9476
孟公孫丑	-12.9476
饜	-12.9477
艸	-12.9477
㮣	-12.9477
以建寅為正	-12.9477
鋟	-12.9478
不畏彊禦	-12.9479
諼	-12.9479
蕞	-12.9479
樁	-12.9479
万俟卨	-12.9479
凟	-12.948
六朝通鑑博議	-12.948
􁂒	-12.948
尢	-12.948
裼	-12.948
酇	-12.948
悤	-12.9481
鞚	-12.9481
春正月帝在東宫	-12.9482
坐而論道	-12.9482
泜	-12.9482
烏竒邁	-12.9482
㔻	-12.9482
叔振鐸	-12.9483
惛	-12.9483
啄	-12.9483
觀文殿學士	-12.9485
㚄	-12.9486
瓢	-12.9486
蝨	-12.9487
慕容白曜	-12.9489
噎	-12.949
隮	-12.949
瑫	-12.9491
鼃	-12.9491
曆	-12.9491
公山不狃	-12.9493
嬙	-12.9496
奚齊卓子	-12.9508
菌	-12.9511
注見漢後主延熈十	-12.9668
建昭二年魏郡	-12.995
听	-13.0284
㮚	-13.0321
鄱	-13.0331
娬	-13.0332
睍	-13.0334
羑	-13.0339
撠	-13.034
謌	-13.0342
盩	-13.0343
籛	-13.0344
茗	-13.0348
溜	-13.0348
嫪	-13.0349
茵	-13.0349
郊泰畤	-13.0351
多爾濟巴勒	-13.0351
伊嚕特穆爾	-13.0353
潬	-13.0353
壝	-13.0353
澡	-13.0355
呪	-13.0355
篳	-13.0356
磑	-13.0357
𣲖	-13.0357
伯勒齊爾布哈	-13.0358
㩀	-13.0359
襤	-13.0359
樅	-13.036
縢	-13.0361
簳	-13.0361
轝	-13.0361
狼子野心	-13.0362
薿	-13.0363
淮安王神通	-13.0364
蕚	-13.0364
逗	-13.0364
鰥	-13.0365
静軒周氏曰	-13.0365
鐶	-13.0365
徐州注見秦始皇二十八年彭城	-13.0365
兩下相殺	-13.0366
吾誰欺欺天乎	-13.0366
貽厥孫謀	-13.0366
建安王休仁	-13.0366
熬	-13.0366
博浪沙	-13.0366
麫	-13.0367
喈	-13.0367
瘦	-13.0367
珧	-13.0368
麯	-13.0368
骼	-13.0368
莪	-13.0368
窈	-13.0368
之言一投則	-13.0368
擎	-13.0368
𣙜酒酤	-13.0369
溳	-13.0369
擘	-13.0369
杓	-13.0369
饔	-13.0369
利有攸徃	-13.0369
征伐自天子出	-13.0369
献	-13.0369
躔	-13.037
汋	-13.037
何予存厚也	-13.0371
絁	-13.0371
擗	-13.0371
蝟	-13.0371
閟	-13.0371
淘	-13.0372
農田水利	-13.0372
魏大丞相㤗	-13.0372
拷	-13.0372
甔	-13.0373
套	-13.0373
杰	-13.0373
濺	-13.0373
避殿減膳	-13.0373
塚	-13.0374
瘢	-13.0374
帕克斯巴	-13.0374
迕	-13.0374
儵	-13.0374
絶地天通	-13.0375
纖	-13.0375
卣	-13.0375
䦧	-13.0376
飫	-13.0376
莞	-13.0376
䴥	-13.0376
成帝建始四年	-13.0377
􁃕	-13.0377
穆宗長慶二年	-13.0377
壖	-13.0377
妺	-13.0377
闑	-13.0377
眘	-13.0378
讌	-13.0378
崛	-13.0378
硤	-13.0378
崎	-13.0378
恧	-13.0378
搉	-13.0378
洞霄宫	-13.0379
秃髪烏孤	-13.038
[...]
