<unk>	0
<s>	0
</s>	0
。	-2.05095
,	-3.53615
者	-4.50338
、	-4.84276
若	-5.03095
也	-5.03276
故	-5.11654
:「	-5.20608
(	-5.26697
不	-5.3494
二	-5.48191
為	-5.49213
是	-5.55426
有	-5.57117
以	-5.57253
。」	-5.5805
一	-5.61354
之	-5.62204
)	-5.67287
法	-5.67997
中	-5.68425
即	-5.73711
人	-5.75302
時	-5.75486
此	-5.76599
謂	-5.78538
言	-5.78685
三	-5.80827
如	-5.87985
等	-5.89557
無	-5.89843
得	-5.92274
作	-5.93015
於	-5.95395
▁*	-5.95543
心	-6.03031
比丘	-6.08749
行	-6.10627
而	-6.12001
非	-6.12962
四	-6.13259
戒	-6.19632
說	-6.2098
與	-6.2109
我	-6.23838
▁	-6.24645
應	-6.25409
云	-6.26083
受	-6.28283
名	-6.28863
下	-6.29598
或	-6.29698
其	-6.30621
彼	-6.34104
食	-6.35021
佛	-6.35941
不得	-6.36196
僧	-6.38069
問	-6.38448
生	-6.38545
自	-6.38762
及	-6.38858
見	-6.40053
相	-6.40132
大	-6.42127
事	-6.42887
五	-6.43884
後	-6.44219
至	-6.45543
處	-6.47062
!	-6.47551
上	-6.49684
;	-6.50635
?」	-6.50687
已	-6.51639
所	-6.51653
)。	-6.52071
當	-6.53072
前	-6.54006
則	-6.55918
今	-6.56614
巳	-6.56811
亦	-6.57169
衣	-6.57452
身	-6.60083
犯	-6.61086
又	-6.62457
在	-6.62522
令	-6.63921
:『	-6.64224
欲	-6.65167
出	-6.6537
義	-6.69167
明	-6.6979
從	-6.70143
多	-6.70145
取	-6.7031
同	-6.7154
佛言	-6.71999
答	-6.73163
通	-6.73657
分	-6.74076
知	-6.74243
成	-6.76128
諸	-6.77705
汝	-6.7785
乃至	-6.79107
用	-6.79612
來	-6.79811
入	-6.80265
語	-6.82302
皆	-6.82838
初	-6.83022
?	-6.83046
罪	-6.83053
隨	-6.83629
。」【	-6.85357
一切	-6.85668
能	-6.85878
先	-6.86217
因	-6.8766
教	-6.89184
物	-6.89669
緣	-6.89988
次	-6.90024
眾	-6.90065
王	-6.90466
過	-6.90822
意	-6.90988
曰	-6.9184
經	-6.92251
便	-6.93234
可	-6.93796
起	-6.94332
文	-6.94738
解	-6.948
道	-6.94826
。】「	-6.96256
如是	-6.978
本	-6.98619
持	-6.98737
重	-6.99061
。』	-6.99788
餘	-7.01152
正	-7.0159
六	-7.02412
菩薩	-7.03198
住	-7.03541
尼	-7.04177
須	-7.04297
師	-7.0522
然	-7.05443
捨	-7.06911
羯磨	-7.06934
但	-7.07014
聽	-7.07121
別	-7.07568
觀	-7.07582
善	-7.0795
釋	-7.08853
開	-7.09042
著	-7.09118
由	-7.09276
還	-7.11604
復	-7.12322
耶	-7.14181
未	-7.14294
既	-7.1524
淨	-7.15373
結	-7.16086
具	-7.16158
定	-7.16462
雖	-7.17063
依	-7.18039
難	-7.19402
七	-7.19445
去	-7.19583
共	-7.19685
他	-7.20809
舉	-7.22265
地	-7.23029
除	-7.23269
制	-7.23404
立	-7.24765
世尊	-7.24879
求	-7.25273
第二	-7.26232
施	-7.27414
盡	-7.2761
請	-7.29052
使	-7.29752
業	-7.29846
聞	-7.30002
常	-7.31327
十	-7.31366
坐	-7.31441
若比丘	-7.31541
竟	-7.31734
答言	-7.31795
對	-7.31798
水	-7.31998
俱	-7.3268
斷	-7.33275
:	-7.3465
八	-7.3495
不應	-7.35637
白	-7.37078
想	-7.3723
】	-7.37273
小	-7.3745
離	-7.38016
乃	-7.3903
。「	-7.39388
合	-7.39524
日	-7.39585
破	-7.4001
論	-7.41165
內	-7.41947
滅	-7.42468
律	-7.42603
比丘尼	-7.42831
向	-7.4344
體	-7.43619
出家	-7.43799
諸比丘	-7.44267
方	-7.45005
失	-7.45379
方便	-7.45664
往	-7.45679
色	-7.45924
理	-7.46197
果	-7.46589
外	-7.47155
將	-7.47296
長	-7.47495
惡	-7.4768
異	-7.48414
眾生	-7.48472
更	-7.49395
念	-7.49541
如來	-7.50109
不犯	-7.50362
天	-7.50397
門	-7.50408
約	-7.50825
並	-7.50865
修	-7.51023
故云	-7.51223
子	-7.518
數	-7.51926
願	-7.52089
突吉羅	-7.52514
疏	-7.52899
是名	-7.5292
各	-7.53339
學	-7.53526
女	-7.54003
境	-7.54558
鉢	-7.5464
空	-7.55854
苦	-7.55871
樂	-7.56591
智	-7.56972
唯	-7.57054
云何	-7.57463
報	-7.57623
第三	-7.5866
波逸提	-7.59125
兩	-7.59771
苾芻	-7.60427
實	-7.61003
疑	-7.613
家	-7.61424
死	-7.61921
何	-7.62211
供養	-7.63288
清淨	-7.63406
界	-7.63894
位	-7.63959
發	-7.64474
沙彌	-7.65001
不同	-7.65666
攝	-7.66383
殺	-7.66957
廣	-7.67039
藥	-7.67077
引	-7.67123
足	-7.67754
識	-7.68321
即是	-7.68636
輕	-7.68692
必	-7.69073
名為	-7.69692
不可	-7.69869
覆	-7.70187
安	-7.70213
顯	-7.70228
不知	-7.7023
止	-7.70329
現	-7.7046
病	-7.71355
要	-7.71687
性	-7.72344
度	-7.72752
就	-7.731
利	-7.73303
口	-7.74255
某甲	-7.74592
九	-7.74943
少	-7.75045
證	-7.75127
主	-7.7537
勝	-7.75384
指	-7.76129
集	-7.76193
直	-7.77659
壞	-7.79232
國	-7.79632
品	-7.79722
好	-7.79861
爾時	-7.81082
不能	-7.81103
寶	-7.82629
乞	-7.82804
故曰	-7.83191
頭	-7.83644
示	-7.83825
轉	-7.83921
治	-7.84533
護	-7.84562
字	-7.84607
世	-7.86027
略	-7.86793
邊	-7.87049
耳	-7.87408
禮	-7.87678
凡	-7.88896
信	-7.89162
總	-7.89354
弟子	-7.90689
德	-7.91048
外道	-7.91251
遮	-7.91736
所以	-7.9213
力	-7.92967
差	-7.93515
聖	-7.93901
如法	-7.93929
大德	-7.9402
懺	-7.94113
說法	-7.94273
深	-7.94319
俗	-7.94537
畜	-7.94559
第一	-7.94703
等者	-7.94705
量	-7.94979
此是	-7.95455
自恣	-7.95593
稱	-7.96199
聲	-7.96455
命	-7.96483
藏	-7.96763
音	-7.96772
受戒	-7.96893
滿	-7.97185
違	-7.97572
一人	-7.97592
誦	-7.98193
恐	-7.98313
被	-7.9837
根	-7.98572
觸	-7.9895
盜	-8.00002
慧	-8.00065
宗	-8.00283
莫	-8.00492
情	-8.01178
反	-8.01472
種	-8.0181
若有	-8.02394
墮	-8.03001
加	-8.03211
手	-8.03804
斯	-8.04542
會	-8.05052
辨	-8.05274
▁二	-8.05697
遂	-8.05771
歸	-8.06255
真	-8.06464
據	-8.06668
因緣	-8.07419
若不	-8.0751
第四	-8.07743
如上	-8.07992
執	-8.08026
覺	-8.08045
次第	-8.08413
化	-8.08779
屬	-8.09334
且	-8.09732
眾僧	-8.09849
山	-8.10114
遠	-8.10679
類	-8.10804
許	-8.10814
房	-8.10858
是故	-8.11165
染	-8.11177
我今	-8.11216
說戒	-8.11285
光	-8.11341
宿	-8.11386
造	-8.11795
功德	-8.11993
到	-8.13095
非法	-8.13183
不淨	-8.13389
增	-8.1356
我等	-8.13594
望	-8.13608
告	-8.13729
妄	-8.13781
形	-8.13886
懺悔	-8.15512
猶	-8.15581
四分	-8.15704
女人	-8.16397
樹	-8.16741
煩惱	-8.16795
▁初	-8.17185
羅	-8.17267
極	-8.17722
高	-8.18062
和	-8.18228
無罪	-8.18543
不成	-8.18655
悉	-8.18776
障	-8.19023
父母	-8.19171
器	-8.19219
提	-8.20482
涅槃	-8.21244
半	-8.21407
上座	-8.21955
親	-8.22291
母	-8.22502
并	-8.22796
妙	-8.22815
無量	-8.23939
齊	-8.23941
財	-8.23949
答曰	-8.24211
流	-8.24297
神	-8.24335
喻	-8.24374
准	-8.24635
作法	-8.2472
設	-8.24745
記	-8.25148
打	-8.2569
夜	-8.25974
火	-8.26354
一一	-8.26552
授	-8.27068
如前	-8.27129
捉	-8.27255
。」「	-8.27338
雜	-8.27355
種種	-8.27497
沙門	-8.2763
無犯	-8.27681
矣	-8.28115
勸	-8.29078
安居	-8.29136
謗	-8.29198
看	-8.29607
爾	-8.29728
易	-8.29729
亦如是	-8.2979
香	-8.29851
草	-8.30232
寺	-8.30316
思	-8.30402
故名	-8.30707
傳	-8.3076
句	-8.30933
居	-8.31229
汝等	-8.31397
波羅夷	-8.31565
居士	-8.31568
獨	-8.31756
阿難	-8.31912
順	-8.32512
某	-8.32962
?』	-8.33068
一者	-8.33149
長者	-8.33182
若比丘尼	-8.33371
大乘	-8.3339
置	-8.33572
賊	-8.33695
。○	-8.33757
佛法	-8.33791
福	-8.3382
。】「【	-8.34114
諍	-8.34146
服	-8.34237
計	-8.34262
解脫	-8.34329
敬	-8.34493
十誦	-8.34606
三寶	-8.3483
無有	-8.34844
年	-8.3495
根本	-8.34995
二者	-8.35141
趣	-8.35186
宜	-8.35837
例	-8.36164
列	-8.36379
具足	-8.36477
篇	-8.36556
息	-8.36608
忍	-8.36738
分別	-8.36744
益	-8.36898
標	-8.37458
不受	-8.37652
損	-8.37805
圓	-8.38188
而不	-8.38241
近	-8.38331
華	-8.3838
僧祇	-8.39036
舍	-8.39157
於此	-8.39379
尊	-8.39596
夫	-8.39649
諫	-8.39758
了	-8.39873
成就	-8.39974
然後	-8.40193
應當學	-8.40271
似	-8.40292
可知	-8.41194
金	-8.41264
聚	-8.41656
動	-8.41763
貪	-8.42069
和尚	-8.42316
悔	-8.42355
大德僧聽	-8.42372
互	-8.42519
假	-8.42899
飲食	-8.42932
此云	-8.42933
木	-8.42966
書	-8.43121
!」	-8.43804
全	-8.4386
塔	-8.43937
終	-8.44355
迷	-8.44428
表	-8.44443
經云	-8.44613
住處	-8.44698
簡	-8.44862
致	-8.45157
五分	-8.45337
十二	-8.46163
土	-8.4621
遣	-8.46257
第五	-8.46307
有二	-8.46427
習	-8.4644
那	-8.46851
邪	-8.4693
婆羅門	-8.47097
大眾	-8.47176
兼	-8.48242
現前	-8.48522
棄	-8.48764
又云	-8.48952
和合	-8.49344
目	-8.49559
待	-8.49567
飲	-8.49581
風	-8.49628
新	-8.49951
拜	-8.50396
諸佛	-8.50397
城	-8.51133
三衣	-8.51304
部	-8.51306
誰	-8.51617
索	-8.51646
世間	-8.51726
威儀	-8.51779
乎	-8.51876
之人	-8.52071
呵	-8.52119
月	-8.52201
吉	-8.52402
眼	-8.52641
摩	-8.5271
輕重	-8.52892
毗尼	-8.52894
始	-8.52921
波夜提	-8.53242
不犯者	-8.53382
豈	-8.53591
強	-8.53638
一切眾生	-8.53793
喜	-8.53817
瞋	-8.54348
長老	-8.54396
巳下	-8.54813
受持	-8.54941
譯	-8.54992
七日	-8.55712
施主	-8.55725
乘	-8.55861
覆藏	-8.56082
尊者	-8.56411
飯	-8.56573
照	-8.56844
儀	-8.56885
唱	-8.56992
久	-8.57115
伹	-8.57181
奪	-8.57321
何故	-8.57441
愛	-8.57733
患	-8.5785
是也	-8.57973
非時	-8.58141
判	-8.58215
所有	-8.58342
遍	-8.58433
準	-8.58808
座	-8.58849
供	-8.58918
酒	-8.58985
洗	-8.59485
白衣	-8.59643
蘭	-8.59755
況	-8.60027
持戒	-8.60055
若無	-8.60111
何以故	-8.60146
興	-8.60149
妄語	-8.60663
亦爾	-8.60698
細	-8.60857
不見	-8.60883
尚	-8.6095
正法	-8.61304
收	-8.6166
如此	-8.6195
夏	-8.61963
龍	-8.62092
惱	-8.62453
乞食	-8.625
像	-8.62694
陀	-8.63079
詣	-8.63228
。【	-8.63309
是比丘	-8.63393
衣鉢	-8.63457
古	-8.6358
慈	-8.63693
肉	-8.63704
路	-8.63929
婬	-8.63966
局	-8.6407
決	-8.6412
臥	-8.64303
不聽	-8.64702
或有	-8.64756
聲聞	-8.64764
偷蘭遮	-8.65234
却	-8.65307
機	-8.65583
禪	-8.65692
石	-8.65729
文中	-8.6615
婆	-8.66342
奉	-8.66753
堂	-8.66764
亦不	-8.67007
問言	-8.67007
面	-8.67019
放	-8.67114
○	-8.67166
毛	-8.67169
聚落	-8.673
害	-8.67449
布薩	-8.67475
和上	-8.67577
▁三	-8.67607
阿	-8.67787
百	-8.68341
劫	-8.68344
比	-8.68639
歡喜	-8.68787
不須	-8.68849
味	-8.68855
法者	-8.6888
容	-8.68994
乖	-8.69131
有三	-8.69268
不定	-8.6954
塵	-8.70003
迦	-8.70298
僧中	-8.70476
十六	-8.70501
畜生	-8.70653
隨意	-8.70726
所謂	-8.70745
海	-8.70799
尋	-8.70865
三昧	-8.70905
首	-8.70917
懷	-8.71041
散	-8.71477
應與	-8.71643
沙彌尼	-8.71844
此戒	-8.71987
即便	-8.72174
脚	-8.72322
達	-8.72344
村	-8.72479
進	-8.72547
殘	-8.72632
婦	-8.72724
語言	-8.72794
無作	-8.73074
大小	-8.73165
錢	-8.73296
故知	-8.73642
縱	-8.73721
生死	-8.74015
所說	-8.74351
切	-8.74392
得罪	-8.74625
之法	-8.74743
勿	-8.75126
以此	-8.75304
惑	-8.75373
以為	-8.75489
此中	-8.75494
律云	-8.75621
自然	-8.75647
否	-8.75679
臥具	-8.75858
號	-8.76
舊	-8.76172
象	-8.76423
留	-8.76551
彰	-8.7661
作是念	-8.7662
男	-8.7686
間	-8.77142
父	-8.77189
喚	-8.77283
僧伽婆尸沙	-8.77353
存	-8.77541
惟	-8.78262
忘	-8.78483
智慧	-8.78548
咸	-8.78612
毀	-8.7865
輪	-8.78712
讚	-8.78759
三種	-8.78924
急	-8.79064
葉	-8.79108
依止	-8.79417
序	-8.7945
「	-8.79611
闕	-8.79636
恒	-8.797
多少	-8.79703
我當	-8.79786
千	-8.798
訶	-8.79928
翻	-8.80011
第六	-8.80059
獲	-8.80236
四句	-8.80554
車	-8.80566
中間	-8.80577
牛	-8.8058
自言	-8.80634
皮	-8.80697
受用	-8.80785
亦名	-8.81263
馬	-8.81281
之時	-8.81554
逆	-8.81595
三者	-8.81668
而去	-8.81669
莊嚴	-8.81695
科	-8.81881
不與	-8.81915
同前	-8.82026
問曰	-8.82061
迦葉	-8.82235
之中	-8.82554
兒	-8.82612
末	-8.82879
減	-8.83169
若言	-8.8324
.	-8.83325
脫	-8.83537
述	-8.83567
卷	-8.83837
漸	-8.84012
五百	-8.84039
防	-8.84219
梵	-8.8428
林	-8.84411
多論	-8.84434
呪	-8.84529
曾	-8.84715
濟	-8.84776
亂	-8.84835
癡	-8.85028
戒本	-8.85039
盛	-8.85115
故言	-8.85219
燒	-8.85319
繫	-8.85437
私	-8.85523
一心	-8.85725
備	-8.85803
如何	-8.85965
白言	-8.8604
前後	-8.86071
普	-8.86148
檀越	-8.86214
雙	-8.8632
單	-8.86322
報言	-8.86485
律中	-8.8676
絕	-8.86848
十八	-8.86892
與我	-8.87192
敷	-8.87249
偈	-8.87386
有一	-8.8741
五種	-8.87413
男子	-8.87458
何以	-8.8746
期	-8.87527
不許	-8.87545
菩提	-8.87673
破僧	-8.87823
亦得	-8.87943
蓋	-8.88013
守	-8.88083
彼比丘	-8.88344
默然	-8.88475
伴	-8.88531
一時	-8.88555
亦有	-8.88612
云云	-8.889
變	-8.89139
昔	-8.89511
不善	-8.89607
支	-8.89608
不作	-8.89669
地獄	-8.90359
泥	-8.90376
白佛	-8.90717
付	-8.90805
鈔	-8.90958
周	-8.91182
時有	-8.91393
背	-8.9143
四人	-8.91755
迴	-8.91894
慢	-8.91995
二人	-8.92089
僧伽	-8.92098
得戒	-8.92182
復有	-8.92515
苾芻尼	-8.92889
故制	-8.92964
微	-8.93015
二種	-8.93175
究竟	-8.9349
有人	-8.93541
越	-8.93735
聖者	-8.9376
雨	-8.94125
故須	-8.9417
刀	-8.94227
十一	-8.94295
舍利弗	-8.94344
是以	-8.94554
十三	-8.94581
犯重	-8.9465
送	-8.94988
平	-8.95505
犯罪	-8.95593
白如是	-8.95783
魔	-8.96025
悟	-8.96123
教授	-8.96169
歲	-8.96251
是為	-8.96291
注	-8.9634
專	-8.96579
不為	-8.96657
改	-8.96826
遇	-8.96953
俗人	-8.97018
賣	-8.97117
救	-8.97222
園	-8.97308
污	-8.97336
訖	-8.9754
陳	-8.97661
法師	-8.97722
資	-8.97731
此人	-8.97874
前人	-8.98122
虗	-8.98251
猶如	-8.9842
觀同上	-8.98617
》	-8.98792
下明	-8.98845
結界	-8.9888
隔	-8.98987
男女	-8.99126
教人	-8.99456
敘	-8.99457
節	-8.99463
黑	-8.99477
助	-8.99626
大臣	-8.99627
爾時世尊	-8.99656
偏	-8.99699
三說	-8.99835
十方	-8.99929
諸天	-9.00257
法界	-9.0047
半月	-9.00563
噉	-9.0063
夷	-9.00658
伏	-9.00856
布	-9.01148
河	-9.01194
元	-9.01207
有四	-9.01306
今日	-9.0132
無所	-9.01403
之心	-9.01463
甚	-9.01561
功	-9.01614
田	-9.02094
第七	-9.02098
之義	-9.0237
牒	-9.02524
金剛	-9.02595
禁	-9.02607
熟	-9.0267
淨人	-9.02775
平等	-9.02798
隱	-9.02882
應作	-9.02898
視	-9.02946
作羯磨	-9.03027
初明	-9.03264
諸苾芻	-9.03375
破戒	-9.03382
恭敬	-9.03431
養	-9.03496
是時	-9.03539
永	-9.03632
推	-9.03764
床	-9.03898
西	-9.03912
鳥	-9.03967
當知	-9.03971
法中	-9.041
氣	-9.04252
無常	-9.04272
結罪	-9.04299
是中	-9.04461
清	-9.04557
毘尼	-9.04582
感	-9.0471
差別	-9.04752
熱	-9.04772
若作	-9.04807
憶	-9.04827
章	-9.05022
志	-9.05429
落	-9.05554
不捨	-9.05666
皆是	-9.05731
呼	-9.05882
鬼	-9.05892
花	-9.05961
老	-9.06021
呵責	-9.06103
布施	-9.06193
法身	-9.06307
濫	-9.06344
非人	-9.06344
竝	-9.06485
光明	-9.06532
是人	-9.0655
釋迦	-9.0655
于	-9.06714
修行	-9.06966
身口	-9.07086
故也	-9.07148
律儀	-9.07199
恩	-9.07215
應知	-9.07265
萬	-9.07317
眾中	-9.07375
行者	-9.07506
或云	-9.07509
一日	-9.07527
邪見	-9.0754
精	-9.07563
亦應	-9.07692
四者	-9.07717
讚歎	-9.07736
承	-9.07749
之所	-9.07778
三藏	-9.07862
不生	-9.0791
限	-9.07981
東	-9.0808
伽	-9.08334
二十	-9.08344
波	-9.08354
徧	-9.08522
齋	-9.08867
食者	-9.08894
縛	-9.09093
目連	-9.09097
十五	-9.09163
善法	-9.09661
屋	-9.09702
房舍	-9.09773
答云	-9.09791
思惟	-9.10005
不合	-9.10068
辭	-9.10124
都	-9.10237
寧	-9.10366
沙	-9.10373
註	-9.10487
任	-9.10797
無明	-9.10806
凡夫	-9.10827
五戒	-9.10868
受者	-9.10906
師子	-9.11047
亡	-9.11098
命終	-9.11108
發心	-9.11118
一月	-9.11123
歎	-9.1134
眾多	-9.11419
有情	-9.11507
官	-9.11572
有比丘	-9.11761
南	-9.1206
怖	-9.12258
於中	-9.12285
僧殘	-9.12327
貴	-9.12335
浴	-9.12369
交	-9.1239
毒	-9.12512
諸比丘尼	-9.12623
吾	-9.12764
廣說	-9.1297
餘人	-9.12971
曲	-9.13118
預	-9.13321
別眾	-9.13326
難陀	-9.13404
隨順	-9.1344
誠	-9.13529
因果	-9.13823
利益	-9.13887
若佛子	-9.1391
畏	-9.13998
辦	-9.14314
三人	-9.14353
名曰	-9.14377
露	-9.14692
自在	-9.14813
擯	-9.14838
代	-9.15095
佛南無	-9.1532
相應	-9.15381
心念	-9.1545
各有	-9.15583
十四	-9.15646
病人	-9.15783
截	-9.15785
寄	-9.15833
錄	-9.15933
煞	-9.16157
船	-9.16246
髮	-9.1635
招	-9.16425
不失	-9.16496
告諸比丘	-9.16614
四種	-9.16714
三界	-9.1682
宣	-9.16837
問訊	-9.16912
含	-9.16939
界內	-9.16989
怨	-9.17184
堅	-9.17235
偷	-9.17296
過去	-9.17447
諸人	-9.17476
悉皆	-9.17531
麤	-9.17596
擬	-9.17705
是非	-9.17867
油	-9.17921
客	-9.1798
傷	-9.18017
律文	-9.18082
之處	-9.18233
嫌	-9.18242
《	-9.18299
沒	-9.18354
▁|	-9.18356
所作	-9.18375
雲	-9.18375
是事	-9.18429
今此	-9.18662
仍	-9.18736
現在	-9.18959
若欲	-9.18975
廢	-9.1916
此二	-9.19277
是事如是持	-9.19377
緣起	-9.19509
密	-9.19577
速	-9.19615
最	-9.19711
若人	-9.19718
己	-9.19731
一比丘	-9.19803
分齊	-9.19854
常住	-9.20004
精進	-9.2001
報曰	-9.20034
張	-9.20105
吉羅	-9.20199
法門	-9.20208
美	-9.20239
薄	-9.20397
誤	-9.20444
勤	-9.20452
人天	-9.20692
有二種	-9.20727
暫	-9.20751
大師	-9.20788
條	-9.20864
亦是	-9.20888
堪	-9.20979
增長	-9.21021
退	-9.21189
杖	-9.2124
頌	-9.21528
今時	-9.21544
移	-9.21641
若以	-9.21899
作衣	-9.21921
弘	-9.22093
穢	-9.22277
不問	-9.22324
頓	-9.22375
優婆塞	-9.22458
愚	-9.22614
善惡	-9.22771
誓	-9.22771
太	-9.22835
小乘	-9.22867
軍	-9.23018
疾	-9.23106
頂	-9.23425
式叉摩那	-9.23489
律師	-9.23646
狂	-9.23656
瓶	-9.23671
白佛言	-9.23937
巳上	-9.23997
脩	-9.24097
世界	-9.24207
遊	-9.2421
不足	-9.24314
別住	-9.24526
受食	-9.24682
身心	-9.24773
諸法	-9.24791
中有	-9.24942
畢	-9.24943
徒	-9.24984
未來	-9.25094
悔過	-9.25136
。△	-9.2517
價	-9.25211
疏云	-9.25234
靜	-9.25246
時彼	-9.25425
詳	-9.25538
室	-9.25626
缺	-9.26014
。』」	-9.26066
接	-9.26089
宮	-9.26267
蟲	-9.26314
持犯	-9.26418
段	-9.26459
補	-9.26571
帝	-9.26588
三十	-9.2667
第八	-9.26808
教誡	-9.26826
壇	-9.26893
合掌	-9.26942
神通	-9.27061
秉	-9.27105
文云	-9.27133
礙	-9.27157
若為	-9.27234
有罪	-9.2726
佛在	-9.27262
善男子	-9.27309
嚴	-9.27612
太子	-9.27703
有無	-9.28031
善根	-9.281
梵行	-9.28338
漏	-9.28367
亦無	-9.28584
有五	-9.28649
犯者	-9.28749
發露	-9.28794
眠	-9.28867
角	-9.28872
諸大德	-9.28883
殊	-9.29025
慈悲	-9.29072
下至	-9.2912
衣食	-9.29129
何等	-9.29149
捨墮	-9.29159
悲	-9.29256
守護	-9.29291
誡	-9.29314
佛說	-9.2933
不解	-9.2936
披	-9.2938
祇	-9.29585
國王	-9.29702
投	-9.2974
無漏	-9.29749
羅漢	-9.29795
委	-9.29865
六群比丘	-9.30006
不出	-9.30036
亦可	-9.30068
若僧時到僧忍聽	-9.30441
橫	-9.30472
買	-9.30542
鐵	-9.30605
阿闍梨	-9.30669
若爾	-9.3081
衣服	-9.30873
黃	-9.3113
五者	-9.31152
祖	-9.31211
財物	-9.31389
之事	-9.31497
必須	-9.31688
之相	-9.31692
大王	-9.31741
譬如	-9.31826
由此	-9.31903
此比丘	-9.31905
汝今	-9.31926
倒	-9.31985
壽	-9.32013
處分	-9.32028
眷屬	-9.32028
福田	-9.32292
亦云	-9.32298
垂	-9.32379
為說	-9.32548
聞已	-9.32568
拔	-9.32755
成佛	-9.32941
於彼	-9.32977
責	-9.33021
捨戒	-9.3312
青	-9.33154
遺	-9.3321
具壽	-9.3323
次明	-9.3325
池	-9.33316
錯	-9.33337
作是言	-9.33392
陰	-9.33517
一心奉請	-9.3352
仰	-9.33543
三業	-9.33548
浣	-9.33625
逐	-9.33751
牽	-9.33777
網	-9.33951
不以	-9.33964
內外	-9.34001
制戒	-9.34241
輒	-9.34468
而為	-9.34537
續	-9.34645
降	-9.34793
積	-9.34793
供給	-9.34809
務	-9.34857
骨	-9.3491
善來	-9.34972
粥	-9.3498
垢	-9.34982
阿羅漢	-9.35058
又復	-9.35071
真實	-9.35109
大僧	-9.35124
調	-9.35302
不說	-9.35369
如文	-9.35479
不敢	-9.35549
與欲	-9.35685
避	-9.36231
犯戒	-9.36287
此事	-9.36323
忽	-9.36543
借	-9.36667
十日	-9.36681
良	-9.36689
見已	-9.36696
▁四	-9.36706
焉	-9.36845
臨	-9.36885
無異	-9.37204
珠	-9.37256
安樂	-9.37296
北	-9.37328
諦	-9.37393
袈裟	-9.37404
燈	-9.3756
籌	-9.37574
繩	-9.37642
覓	-9.37755
出界	-9.37811
戲	-9.37917
六群	-9.38138
乳	-9.38187
而住	-9.38247
幾	-9.383
觀察	-9.38312
論云	-9.38352
信心	-9.38369
印	-9.38447
尼薩耆波逸提	-9.3859
十戒	-9.38987
寒	-9.39002
在家	-9.39025
登	-9.39271
院	-9.39422
遊行	-9.39486
蜜	-9.39541
佛子	-9.39561
相似	-9.39754
二乘	-9.39832
講	-9.39868
問答	-9.39919
塗	-9.40092
不識	-9.40263
瞋恚	-9.40267
無過	-9.40297
調伏	-9.40548
此律	-9.40943
唐	-9.41033
受具	-9.41113
謂是	-9.41163
載	-9.41259
詞	-9.41296
童子	-9.4136
」	-9.41364
關	-9.41436
白四羯磨	-9.41634
納	-9.41645
姓	-9.41772
調達	-9.41809
展轉	-9.42145
五人	-9.42171
領	-9.42184
十五日	-9.42239
靈	-9.42344
罵	-9.42502
抄	-9.4251
繁	-9.42532
恐怖	-9.42627
懸	-9.42687
說淨	-9.42724
長衣	-9.42806
相續	-9.42836
餘比丘	-9.42838
不起	-9.43024
審	-9.43052
無知	-9.43076
遣使	-9.43138
僧尼	-9.43211
無相	-9.43241
圓滿	-9.43323
無病	-9.43461
公	-9.43505
不信	-9.43628
憶念	-9.43649
可得	-9.43683
妨	-9.437
超	-9.43821
步	-9.43867
拘	-9.43946
謝	-9.44031
讀	-9.44079
途	-9.441
囑	-9.44161
無人	-9.44242
非是	-9.4433
涉	-9.44404
名字	-9.44411
各各	-9.44622
三世	-9.44646
何不	-9.4469
仁	-9.44796
擔	-9.4495
犯捨墮	-9.44999
上品	-9.45125
聖人	-9.45167
善見	-9.45195
若干	-9.45329
禮拜	-9.45424
果報	-9.45457
訓	-9.45485
解云	-9.45577
及以	-9.4567
四月	-9.45797
戒者	-9.45807
短	-9.45836
走	-9.45865
同上	-9.45946
再	-9.45957
上下	-9.45982
生疑	-9.46035
結戒	-9.46037
僧物	-9.46055
若自	-9.46314
坐具	-9.46454
不相	-9.46506
一處	-9.46532
漿	-9.46656
以是白佛	-9.46702
出罪	-9.46759
之類	-9.46777
五眾	-9.46905
累	-9.46982
希	-9.47082
種子	-9.47188
決定	-9.47201
金銀	-9.47254
犯輕垢罪	-9.47285
彼云	-9.47322
不復	-9.4742
連	-9.47442
縫	-9.4746
令其	-9.47651
胎	-9.47653
欲令	-9.47665
十七	-9.47763
免	-9.47808
笑	-9.47845
共住	-9.47853
勞	-9.47869
何得	-9.47879
為我	-9.47899
何處	-9.48011
譏	-9.48025
梵語	-9.48324
菩薩戒	-9.4833
住持	-9.48402
受具足戒	-9.48473
立謂	-9.48672
鬼神	-9.48696
劣	-9.48788
權	-9.48806
上來	-9.48876
野	-9.48916
他人	-9.4893
夫人	-9.48941
臣	-9.49024
教化	-9.49026
一是	-9.49128
法也	-9.49136
一念	-9.49143
樹下	-9.49181
不爾	-9.4925
若過	-9.49483
哉	-9.49588
魚	-9.49695
多聞	-9.49714
名之為	-9.49757
大界	-9.49953
亦復如是	-9.49984
乾	-9.5005
彼此	-9.50169
纏	-9.50214
豈非	-9.50246
十誦云	-9.50354
附	-9.50368
如下	-9.50376
下文	-9.50383
餘處	-9.50432
賢	-9.50451
憂	-9.50488
而生	-9.5064
所為	-9.50678
談	-9.50805
鳴	-9.50822
負	-9.50839
戶	-9.50858
有所	-9.5094
赤	-9.50986
行事	-9.5112
時諸苾芻	-9.51189
實爾	-9.5125
窮	-9.51279
惡作	-9.51423
受法	-9.51649
按	-9.51709
如是等	-9.51775
作如是語	-9.51778
二部	-9.51783
使人	-9.51797
底	-9.51991
際	-9.51996
三歸	-9.52043
惡心	-9.52131
戒體	-9.52155
第九	-9.52264
默	-9.52307
一切法	-9.5231
輙	-9.52433
寂	-9.52499
善哉	-9.52556
彼人	-9.52592
過量	-9.52596
消	-9.52713
不樂	-9.52753
比丘言	-9.52754
不如法	-9.52899
諸部	-9.52981
多人	-9.53001
義也	-9.53064
而行	-9.53104
僧伽梨	-9.53107
戒法	-9.53138
令彼	-9.53172
睡	-9.53344
。」【【	-9.53437
此即	-9.53443
食時	-9.53467
佛教	-9.53479
除病	-9.53522
惡業	-9.53623
四大	-9.53669
士	-9.53693
屏處	-9.53876
厭	-9.53924
朝	-9.53935
不學	-9.54057
受大戒	-9.54215
應當	-9.54377
之意	-9.54401
者默然	-9.54424
對治	-9.54497
慈心	-9.54578
此衣	-9.5469
倍	-9.54714
無上	-9.54785
瘡	-9.54786
波逸底迦	-9.54843
出世	-9.54881
精舍	-9.55005
自身	-9.5503
牀	-9.55039
五法	-9.5504
至於	-9.55158
說者	-9.55275
集僧	-9.55276
衣物	-9.55335
又問	-9.55378
偷蘭	-9.55424
歷	-9.55502
亦不得	-9.55599
帶	-9.5571
以其	-9.55722
此法	-9.55889
召	-9.56034
毗	-9.56072
州	-9.5625
作如是	-9.56274
鹿	-9.5632
酥	-9.56322
彌	-9.56347
剃髮	-9.56394
下釋	-9.5643
中初	-9.56432
客比丘	-9.56434
行法	-9.56593
復次	-9.56594
下示	-9.5664
不如	-9.56717
默然故	-9.56761
停	-9.56852
作持	-9.56921
准此	-9.57014
右	-9.57029
有三種	-9.57127
不用	-9.57129
織	-9.57143
藍	-9.57245
十九	-9.57249
案	-9.57251
經律	-9.57407
又如	-9.57452
運	-9.57471
大士	-9.57493
出家人	-9.57517
若是	-9.57663
為僧	-9.57674
五德	-9.57701
告言	-9.57706
如上說	-9.57753
蘇	-9.57782
痛	-9.57832
對首	-9.57993
仙	-9.58057
禪定	-9.58062
有犯	-9.58083
不名	-9.58147
影	-9.58175
洗浴	-9.58263
止持	-9.58365
文言	-9.58428
斥	-9.58478
無生	-9.58648
者謂	-9.58706
不了	-9.58771
僧祇云	-9.58896
告曰	-9.58918
遠離	-9.59119
飲酒	-9.59241
仙人	-9.59442
遙	-9.59541
戒場	-9.59569
曉	-9.59695
自作	-9.59771
血	-9.59782
不及	-9.60003
白四	-9.60031
端	-9.60324
迎	-9.60403
初句	-9.60531
迹	-9.6054
國土	-9.6066
而言	-9.60714
皆悉	-9.60792
營	-9.60804
若見	-9.60863
申	-9.609
利養	-9.60902
知是	-9.61062
活	-9.61178
託	-9.61179
從今是戒應如是說	-9.61247
尼薩耆波夜提	-9.61261
我某甲	-9.61269
此三	-9.6128
多有	-9.6146
更有	-9.61575
熏	-9.6158
第十	-9.61606
純	-9.61812
題	-9.61839
止犯	-9.61875
一分	-9.62077
佛性	-9.62157
時諸比丘	-9.62362
塞	-9.6245
從此	-9.62493
夢	-9.62546
訶責	-9.62671
正明	-9.62706
譏嫌	-9.62758
之罪	-9.62782
餅	-9.62862
餓鬼	-9.63046
鼻	-9.63255
與人	-9.63483
中道	-9.63494
明日	-9.63503
瓔珞	-9.63521
每	-9.63538
雖有	-9.63601
葢	-9.63605
一句	-9.63655
聖教	-9.63718
若得	-9.63741
界外	-9.63773
語諸比丘	-9.63823
應受	-9.63908
喪	-9.63916
割	-9.6401
􂌞	-9.64175
作如是言	-9.64178
縷	-9.64197
鏡	-9.64313
麁	-9.64325
修道	-9.64354
謬	-9.64413
佛告	-9.6446
於是	-9.64466
應語	-9.64574
但有	-9.64584
而作	-9.64606
徵	-9.64629
是比丘尼	-9.64687
闇	-9.64906
共相	-9.64924
皆得	-9.64994
心地	-9.65026
病者	-9.65096
勅	-9.65098
無礙	-9.65193
坐禪	-9.6522
迴向	-9.65341
某甲比丘	-9.65422
樓	-9.65425
愚癡	-9.65451
自他	-9.65576
與之	-9.65592
亦同	-9.65622
沙門釋子	-9.65626
境界	-9.65643
律攝云	-9.65751
黃門	-9.65761
不肯	-9.658
學處	-9.658
席	-9.6591
其事	-9.66001
得名	-9.66048
知識	-9.66058
傍	-9.66191
即以	-9.6623
三乘	-9.66298
君	-9.66493
作淨	-9.66521
:「『	-9.66638
令他	-9.66644
三句	-9.66722
典	-9.66833
玄	-9.66947
大小便	-9.67049
折	-9.67124
兵	-9.67208
點	-9.67226
不聞	-9.67228
不還	-9.6724
善心	-9.67292
所言	-9.6736
博	-9.67406
十地	-9.67417
畫	-9.67438
有五種	-9.67499
蘭若	-9.67531
歸依	-9.67667
及諸	-9.67837
行道	-9.67867
源	-9.67934
不離	-9.68107
舍利	-9.68123
只	-9.68218
不然	-9.68278
親近	-9.68281
梨	-9.68339
三時	-9.68341
此方	-9.68347
汁	-9.68389
奴	-9.68399
銅	-9.68446
浮	-9.68538
得食	-9.6868
修習	-9.68706
竹	-9.68783
扇	-9.68799
恣	-9.68841
擲	-9.69211
犯波羅夷	-9.69239
之言	-9.69245
米	-9.69352
欲界	-9.69393
左	-9.69395
鬪諍	-9.69415
辯	-9.69467
若彼	-9.69495
眾法	-9.69557
於我	-9.6965
狹	-9.69651
水中	-9.69658
不滿	-9.69693
受日	-9.69763
故名為	-9.69854
滿足	-9.69907
有餘	-9.69915
慚愧	-9.69922
便犯	-9.69983
僧坊	-9.70175
經行	-9.70267
寬	-9.7032
參	-9.70346
發起	-9.70354
持律	-9.70489
而得	-9.70667
弱	-9.70698
二俱	-9.70758
安隱	-9.70867
無心	-9.70914
白二	-9.70933
佛制	-9.70947
撿	-9.70975
遵	-9.71018
繇	-9.71039
掌	-9.71179
王舍城	-9.71239
具戒	-9.71242
蛇	-9.71243
若能	-9.71403
冥	-9.71454
磨	-9.71625
圖	-9.71695
虫	-9.71701
此之	-9.71801
是事白佛	-9.71811
無別	-9.71884
為一	-9.71887
能持	-9.72136
廁	-9.72177
釋曰	-9.72234
六夜	-9.72267
令人	-9.72444
孔	-9.72458
作如是念	-9.7266
道場	-9.72747
配	-9.72843
誑	-9.72867
我是	-9.72913
此則	-9.72972
導	-9.73019
不堪	-9.73065
此謂	-9.73164
箋	-9.73274
隨所	-9.73274
肘	-9.73314
放逸	-9.73356
經中	-9.73409
貧	-9.7347
病比丘	-9.73525
場	-9.73713
人間	-9.73749
】【	-9.7381
五分云	-9.73828
獄	-9.73836
為體	-9.73929
九十	-9.73993
心亂	-9.73996
返	-9.74012
固	-9.74021
天子	-9.74047
蒙	-9.7407
智者	-9.74109
原	-9.74126
受請	-9.74158
四方	-9.74212
或可	-9.74212
及餘	-9.74213
早	-9.7436
我於	-9.74384
所得	-9.74401
無記	-9.74499
井	-9.74631
蓮華	-9.7468
並是	-9.74684
不開	-9.74692
見佛	-9.74807
穀	-9.74808
孝	-9.74824
僧伽藍	-9.74857
麥	-9.74894
福德	-9.74924
刺	-9.75081
殺生	-9.75095
諸眾生	-9.7514
)。」【	-9.75203
不應爾	-9.75232
何況	-9.75256
嗔	-9.75325
)。(	-9.75335
逼	-9.75422
驚	-9.75437
可解	-9.75526
日月	-9.75527
下座	-9.75562
二法	-9.75595
茲	-9.75614
屏	-9.75666
三月	-9.75707
有漏	-9.75749
值	-9.75924
統	-9.75974
得惡作罪	-9.76027
得突吉羅	-9.76128
下品	-9.76134
真言	-9.76212
有異	-9.76227
慳	-9.76232
未得	-9.76255
盡形	-9.76377
別人	-9.76377
勢	-9.76448
給	-9.76509
得受	-9.76565
之物	-9.76595
龍王	-9.76604
惡人	-9.76629
犯墮	-9.76659
若依	-9.76688
諸菩薩	-9.76906
般若	-9.76951
親里	-9.76962
賢聖	-9.77037
軌	-9.77053
之文	-9.77153
卑	-9.77257
無主	-9.77258
頗	-9.77356
僧忍	-9.77392
所須	-9.77521
王子	-9.77565
不共	-9.77677
業道	-9.77747
勿令	-9.77779
囉	-9.77809
皆有	-9.77861
梵志	-9.77973
因此	-9.7801
迦留陀夷	-9.7804
中初科	-9.78125
契	-9.78177
遭	-9.78183
作此	-9.78256
誰不忍者說	-9.78307
汝可	-9.78319
增上	-9.78338
驅	-9.78368
非謂	-9.78378
特	-9.78472
道俗	-9.7849
虗空	-9.78557
眾人	-9.78565
要須	-9.78696
次科	-9.78706
若在	-9.78977
貫	-9.79074
從今	-9.79081
此文	-9.79089
佛在舍衛國	-9.7912
結犯	-9.79128
汝當	-9.7914
有四種	-9.79174
然此	-9.79291
虛	-9.79387
飛	-9.79411
則無	-9.7942
婬欲	-9.79607
體性	-9.79643
死者	-9.79665
百千	-9.79772
驗	-9.79779
而坐	-9.79781
一向	-9.79797
羊	-9.79841
此言	-9.7987
而食	-9.79899
若僧	-9.79992
該	-9.80144
不動	-9.80164
應言	-9.80231
六道	-9.80364
四分律	-9.80393
與比丘	-9.80413
得成	-9.80426
階	-9.80466
發隱	-9.8047
有主	-9.80536
餘者	-9.80551
入聚落	-9.80612
唯識	-9.80649
察	-9.80706
餘三	-9.80724
不壞	-9.80729
成犯	-9.80736
淨施	-9.80762
六十	-9.80771
臘	-9.80781
醫	-9.80799
不著	-9.80804
白二羯磨	-9.80929
當與	-9.80933
渡	-9.81008
三毒	-9.81024
比丘僧	-9.81024
謂之	-9.81036
無間	-9.81061
佛語	-9.81147
菓	-9.81183
延	-9.81253
得道	-9.81283
狗	-9.81438
制意	-9.81586
不言	-9.81656
烏	-9.81718
能令	-9.8175
悅	-9.8181
諸惡	-9.81878
或復	-9.81977
此明	-9.82054
而無	-9.82153
得衣	-9.82169
經論	-9.82179
分二	-9.82361
其人	-9.8246
優波離	-9.82493
所依	-9.82556
古人	-9.82559
賤	-9.8262
旨	-9.82677
不具	-9.82705
佛告諸比丘	-9.82748
!』	-9.82907
不取	-9.82984
草木	-9.82992
若先	-9.83055
有緣	-9.83063
戒中	-9.83067
必有	-9.83102
提婆達多	-9.83179
淨地	-9.83189
便作是念	-9.83211
無邊	-9.83244
謂此	-9.83254
真如	-9.83343
寂靜	-9.83469
輩	-9.83533
聽法	-9.83746
殿	-9.83835
跋難陀	-9.83901
有大	-9.84008
故不	-9.84052
不通	-9.84075
教他	-9.84133
臂	-9.842
所犯	-9.84292
若於	-9.84319
稟	-9.84381
五事	-9.84485
適	-9.84644
在前	-9.84704
〔	-9.84728
戒相	-9.84791
欺	-9.84806
規	-9.84952
詮	-9.85081
鬪	-9.85139
議	-9.85254
亦非	-9.85255
壁	-9.85274
遙見	-9.85317
不論	-9.85407
誦經	-9.8544
穿	-9.85466
應問	-9.85568
從僧乞	-9.85741
三法	-9.85747
處所	-9.85777
波羅	-9.85818
同犯	-9.85875
作白	-9.85911
為他	-9.85998
囊	-9.86008
不斷	-9.86032
重物	-9.86072
重罪	-9.86095
此等	-9.86122
覩	-9.8614
是我	-9.86148
▁○	-9.86252
重輕	-9.86326
宋	-9.86391
與他	-9.86425
不行	-9.86439
單白	-9.86491
汝非	-9.86538
舌	-9.86733
出離	-9.86765
究	-9.868
此物	-9.86892
最勝	-9.87016
鼓	-9.87084
)(	-9.87104
淺	-9.8714
掘	-9.87159
隨事	-9.87215
抱	-9.87305
尺	-9.87319
須臾	-9.87348
過失	-9.87416
婆沙	-9.87417
華嚴	-9.87545
逢	-9.8759
蘊	-9.87688
作是語	-9.87773
非威儀	-9.87786
此處	-9.87828
數數	-9.87911
若苾芻	-9.87952
菜	-9.87953
見聞	-9.87966
罰	-9.88016
十種	-9.88081
護持	-9.88092
我欲	-9.88137
皆名	-9.88147
者即	-9.88167
終不	-9.88203
受具足	-9.88246
發願	-9.88361
自說	-9.88386
自有	-9.885
小兒	-9.88504
倚	-9.8857
作犯	-9.88581
結集	-9.88597
洲	-9.88842
大悲	-9.88909
始終	-9.8895
流通	-9.89037
腹	-9.89097
鹽	-9.8917
大海	-9.8925
無學	-9.89333
五十	-9.89391
顛倒	-9.89393
群	-9.89393
學戒	-9.89482
為人	-9.89611
我不	-9.89629
以是	-9.89781
秉法	-9.89863
所明	-9.89887
一說	-9.89891
前二	-9.89907
主人	-9.89922
膝	-9.89957
禮佛	-9.90027
自知	-9.90115
革屣	-9.90133
盡形壽	-9.9021
左右	-9.90216
慮	-9.9024
若據	-9.90274
屈	-9.90292
日日	-9.90308
堅固	-9.90365
式	-9.90376
行婬	-9.90414
」【	-9.90432
不來	-9.90453
闍	-9.90455
僧與	-9.90508
無盡	-9.9058
鄔波難陀	-9.90601
境想	-9.90638
往彼	-9.90651
四諦	-9.90824
相違	-9.90864
可以	-9.9094
故得	-9.90967
妻	-9.91082
帝釋	-9.91101
更無	-9.91238
不在	-9.91346
端正	-9.91358
星	-9.91397
舊比丘	-9.91402
七日藥	-9.91469
同一	-9.91594
冬	-9.91617
若復苾芻	-9.91683
以明	-9.91704
定慧	-9.91712
或時	-9.9173
齒	-9.91902
聖道	-9.91914
償	-9.91945
憑	-9.91996
其心	-9.92099
履	-9.92136
修梵行	-9.92141
吐	-9.92189
充	-9.92191
有十	-9.92196
應先	-9.92345
試	-9.92351
但是	-9.92397
戒也	-9.92539
或以	-9.92583
五陰	-9.92608
又解	-9.92611
閑	-9.92667
得解脫	-9.92667
而說	-9.92832
其中	-9.92949
四重	-9.92954
淨戒	-9.92997
懈怠	-9.93052
無畏	-9.93066
疊	-9.93085
人民	-9.93126
誘	-9.93184
有何	-9.93233
赴	-9.93278
即得	-9.93304
離衣	-9.93319
來至	-9.93426
諍事	-9.93427
揚	-9.93431
於諸	-9.93493
心不	-9.93541
施與	-9.936
波羅提木叉	-9.93684
煮	-9.93715
出入	-9.93721
尊重	-9.93798
五部	-9.93832
足食	-9.93911
扶	-9.9394
發菩提心	-9.93962
即名	-9.9399
誦戒	-9.94008
薩	-9.94008
撰	-9.94017
姊妹	-9.94017
心中	-9.94022
拭	-9.94061
林中	-9.94105
安置	-9.94194
暗	-9.94199
二眾	-9.94213
出家者	-9.94251
二師	-9.94258
且如	-9.9441
一戒	-9.94513
不白	-9.94637
其所	-9.94699
王曰	-9.9472
)「	-9.94727
今詳	-9.94831
綿	-9.94845
之後	-9.94859
灰	-9.94872
本無	-9.94882
法事	-9.94937
有一比丘	-9.94945
不依	-9.94957
八戒	-9.94971
聽受	-9.95055
諸戒	-9.95149
勒	-9.95238
著衣	-9.95292
枝	-9.95301
中說	-9.95305
亦然	-9.95412
與僧	-9.95474
心生	-9.95483
或言	-9.95533
閉	-9.95558
濁	-9.95589
長短	-9.95723
毘	-9.95801
故有	-9.95823
此約	-9.95836
能生	-9.95889
乃是	-9.95923
販賣	-9.95952
昏	-9.96037
當來	-9.96106
宅	-9.96185
四眾	-9.96187
戲笑	-9.96304
犍度	-9.96329
二明	-9.96334
咽	-9.96358
房中	-9.96389
疎	-9.96469
應如是	-9.96479
即成	-9.96588
巧	-9.96593
二句	-9.96698
知足	-9.96713
昇	-9.96714
閏	-9.96715
漫	-9.96777
智論	-9.96816
徹	-9.96844
優婆夷	-9.96868
不異	-9.96952
汙	-9.96972
在此	-9.96976
身業	-9.96989
最初	-9.97121
持衣	-9.97145
一法	-9.97165
料簡	-9.97183
自性	-9.97263
余	-9.97263
之本	-9.97274
受樂	-9.9732
其義	-9.97324
不應作	-9.97331
自餘	-9.97354
里	-9.97361
有病	-9.9737
一部	-9.9742
貯	-9.97436
一名	-9.97444
牙	-9.97466
可見	-9.97678
南山	-9.97697
賞	-9.97807
弟	-9.97815
由是	-9.97819
作是	-9.97849
兩舌	-9.97849
我已	-9.97935
天人	-9.9794
為作	-9.97955
度人	-9.97987
二戒	-9.98036
人所	-9.98197
四事	-9.98216
出界外	-9.98222
不盡	-9.9826
等事	-9.98277
佛為	-9.98337
尼眾	-9.98338
加法	-9.98356
法故	-9.9837
婬女	-9.98481
?」「	-9.98516
此翻	-9.98522
不入	-9.98524
盜心	-9.98594
善見云	-9.98736
恚	-9.98764
佛以是事集比丘僧	-9.98867
碎	-9.98907
受具戒	-9.98918
僧事	-9.98926
若知	-9.98948
兄	-9.9895
唵	-9.98983
十善	-9.98985
醉	-9.99079
道中	-9.99098
何所	-9.99193
擊	-9.99198
別眾食	-9.99211
淨法	-9.99227
十人	-9.99264
分之	-9.99344
廣說如上	-9.99362
以手	-9.99496
初中	-9.99538
在後	-9.99564
不欲	-9.9959
建	-9.99633
舍那	-9.99732
前三	-9.99773
貿	-9.99783
檀	-9.99867
不令	-9.99879
寫	-9.99895
有六	-9.99946
是則	-9.99983
同異	-10.0004
應可	-10.0004
湯	-10.0005
述曰	-10.0023
廣如	-10.0026
是法	-10.003
不清淨	-10.003
肩	-10.0033
睡眠	-10.0039
處處	-10.0041
苦惱	-10.0043
六句	-10.0043
十四日	-10.0051
寂滅	-10.0056
臺	-10.0059
術	-10.0061
于時	-10.0063
:)	-10.0071
其身	-10.0075
餘二	-10.0085
共行	-10.0091
露地	-10.0091
聞法	-10.0105
不憶	-10.0105
無不	-10.0114
石蜜	-10.0118
作者	-10.0121
昧	-10.0126
維那	-10.0132
方得	-10.0133
正念	-10.0133
五錢	-10.0135
銀	-10.0137
富	-10.0138
不自	-10.0142
淨行	-10.0142
或作	-10.0144
受菩薩戒	-10.017
獼猴	-10.0173
威	-10.0179
亦須	-10.0189
此義	-10.019
為欲	-10.0193
陵	-10.0195
七種	-10.0199
謹	-10.0199
道行	-10.02
片	-10.0204
諸比丘白佛	-10.0212
其罪	-10.0213
別請	-10.0215
質	-10.0217
僧今	-10.022
濕	-10.0223
我亦	-10.0229
五句	-10.0229
戒師	-10.0241
滅擯	-10.0241
二合	-10.0242
▁「	-10.0244
無我	-10.025
未有	-10.0251
演	-10.0259
相對	-10.0262
最後	-10.0264
稅	-10.0266
飾	-10.0281
無緣	-10.0283
億	-10.0288
潤	-10.0289
建立	-10.0296
窟	-10.0298
隨時	-10.0308
番	-10.031
念言	-10.0311
狀	-10.0315
便得	-10.032
隨喜	-10.0329
如是三說	-10.0329
誹謗	-10.0331
盤	-10.0331
若與	-10.0333
崇	-10.0336
讀誦	-10.0344
大衣	-10.0352
闡陀	-10.0358
真諦	-10.0362
束	-10.037
行之	-10.0372
唯有	-10.0374
竭	-10.0377
市	-10.0379
下次明	-10.038
授與	-10.0381
受之	-10.0385
摩觸	-10.0386
久住	-10.0386
所行	-10.0388
糞掃衣	-10.0399
應如是說	-10.0405
酬	-10.0408
褥	-10.041
時節	-10.041
如律	-10.041
若復苾芻尼	-10.0411
若論	-10.0411
所攝	-10.0415
既無	-10.0417
親友	-10.0423
若僧時到	-10.0425
廣大	-10.0427
釋云	-10.043
漢	-10.0432
三日	-10.0435
命過	-10.0436
世人	-10.0438
不語	-10.0439
折伏	-10.0441
不退	-10.0447
巳後	-10.0453
難得	-10.0454
顧	-10.0458
正見	-10.0464
三品	-10.0471
中品	-10.0479
▁五	-10.0481
坑	-10.0486
見論	-10.0486
式叉摩尼	-10.0488
不覺	-10.0494
弓	-10.0494
不共住	-10.0499
詐	-10.0503
藉	-10.0504
寺中	-10.0505
釋名	-10.0508
雖復	-10.0514
不喜	-10.0519
增減	-10.0527
二十一	-10.0533
一種	-10.0538
比丘比丘尼	-10.0538
心故	-10.0541
城中	-10.0548
為本	-10.0552
稍	-10.0561
呪願	-10.0562
恨	-10.0564
側	-10.0568
四法	-10.057
是中犯者	-10.0576
佛所	-10.0581
作禮	-10.0581
聽作	-10.0585
自取	-10.0585
天下	-10.06
下二句	-10.0601
未成	-10.0605
斗	-10.0607
羊毛	-10.0608
巾	-10.0614
均	-10.0617
線	-10.0618
獸	-10.0623
敢	-10.0629
諸根	-10.0629
之名	-10.0633
求寂	-10.0634
重犯	-10.0636
立云	-10.0639
婦女	-10.0644
豈可	-10.0648
柱	-10.0649
是衣	-10.0657
文也	-10.0658
佛塔	-10.0664
失衣	-10.0666
破壞	-10.0669
王言	-10.0672
音聲	-10.0676
學者	-10.0688
追	-10.0688
有疑	-10.0705
【	-10.0708
幸	-10.0712
乏	-10.072
何須	-10.0721
不可得	-10.0724
滅諍	-10.0726
成道	-10.0737
令知	-10.0742
阿難陀	-10.0746
三事	-10.075
任運	-10.0756
義故	-10.076
伐	-10.077
南無	-10.0777
自行	-10.078
天眼	-10.0791
佛法僧	-10.0802
入定	-10.0803
衣者	-10.0805
生滅	-10.0813
梵天	-10.0816
食已	-10.0827
無根	-10.0827
牆	-10.0828
而巳	-10.0829
應以	-10.0831
鉢中	-10.0839
今師	-10.0839
有此	-10.084
以上	-10.0845
為因	-10.0845
岸	-10.0846
律藏	-10.0856
或為	-10.0856
四禪	-10.0865
文殊	-10.0867
三語	-10.0876
頭陀	-10.0877
瓦	-10.0879
先明	-10.088
偷羅遮	-10.0888
梁	-10.0897
持去	-10.0907
將來	-10.091
冷	-10.0917
不妨	-10.0917
豆	-10.0918
能持不	-10.0921
彌勒	-10.0927
是謂	-10.0931
神力	-10.0945
侍	-10.0946
則有	-10.0947
壞色	-10.0952
卒	-10.0953
恭	-10.096
替	-10.0961
口業	-10.0966
虛空	-10.0966
。』」「	-10.098
攝受	-10.0982
心無	-10.0984
爾許	-10.0989
某處	-10.099
我見	-10.0993
須知	-10.1
八萬四千	-10.1004
應云	-10.1006
友	-10.1009
禮敬	-10.1011
優	-10.1013
衰	-10.1023
八事	-10.1035
受衣	-10.1036
三明	-10.1037
瞻	-10.1046
憍慢	-10.1048
癡狂	-10.105
以下	-10.1051
反上	-10.1056
。』『	-10.1057
行人	-10.1058
尾	-10.106
即為	-10.1062
奉行	-10.1063
臭	-10.1083
賢首	-10.1093
▁初標	-10.1094
跡	-10.1095
受苦	-10.1095
意云	-10.1098
爭	-10.1102
行籌	-10.1104
囑授	-10.1107
緩	-10.1114
亦如	-10.1117
抑	-10.1117
空中	-10.1121
下次	-10.1125
升	-10.1132
諸師	-10.1136
八種	-10.1143
無非	-10.115
侍者	-10.1152
豈不	-10.1154
裹	-10.1156
二十四	-10.116
不明	-10.116
七寶	-10.1171
怖畏	-10.1173
竪	-10.1174
別釋	-10.1181
即往	-10.1184
奢	-10.1189
春	-10.1198
饒益	-10.12
今言	-10.1203
準此	-10.1205
厚	-10.1206
了知	-10.121
他物	-10.1232
割截	-10.1235
亦復	-10.1238
敷具	-10.1242
融	-10.1243
應捨	-10.1243
針	-10.1245
何者	-10.1251
裏	-10.1255
若病	-10.1256
甘露	-10.1257
大地	-10.1259
後時	-10.1262
人也	-10.1265
未竟	-10.1282
戰	-10.1286
是誰	-10.129
時有比丘	-10.1292
施僧	-10.1293
戒律	-10.1293
盧	-10.1294
懼	-10.1305
八十	-10.1316
有難	-10.1318
犯提	-10.1325
纔	-10.1325
侵	-10.1335
九句	-10.1339
有如是	-10.1344
斫	-10.1358
伽藍	-10.1362
往來	-10.1363
五篇	-10.137
畢竟	-10.1381
吒	-10.1389
受戒者	-10.139
得波羅夷	-10.1398
緣處同前	-10.1419
慈愍故	-10.1423
恃	-10.1427
痛惱所纏	-10.1428
則不	-10.1429
二日	-10.1431
長養	-10.1432
是謂為犯	-10.1434
人中	-10.1437
與汝	-10.144
妙法	-10.1445
解釋	-10.1446
未滿	-10.1447
五欲	-10.1449
應取	-10.1456
但云	-10.1461
依此	-10.1463
此乃	-10.1473
此亦	-10.1483
無疑	-10.1487
不應與	-10.1492
夏安居	-10.1493
下三	-10.1496
為說法	-10.15
婢	-10.1505
下引	-10.1506
七眾	-10.1509
僧法	-10.1511
注云	-10.1524
一夜	-10.1534
不久	-10.1536
未至	-10.1541
可爾	-10.1545
佛弟子	-10.1551
而起	-10.1556
一百	-10.1557
麻	-10.1558
我所	-10.1571
啟	-10.1571
即日	-10.1576
脂	-10.1583
佛聽	-10.1584
人說法	-10.159
一食	-10.1595
佛住舍衛城	-10.1597
自稱	-10.16
有七	-10.16
非犯	-10.1603
為三	-10.1605
所受	-10.1613
不忍	-10.1613
辱	-10.1623
從今日	-10.1625
分明	-10.1628
意也	-10.1631
不食	-10.1635
欲心	-10.1636
所生	-10.1651
竊	-10.1657
思之	-10.1666
驅出	-10.167
更受	-10.1671
是佛	-10.1677
不制	-10.168
凡聖	-10.1695
初篇	-10.1696
此四	-10.1703
今解	-10.1712
掩	-10.1712
如人	-10.1717
看病	-10.1717
足數	-10.172
不敬	-10.1722
若犯	-10.1728
總結	-10.1732
丈夫	-10.1755
除滅	-10.1756
違教	-10.1756
道路	-10.1768
我某甲比丘	-10.1773
尼薩耆	-10.1781
迦羅	-10.1782
通塞	-10.1798
能所	-10.1803
▁初明	-10.1805
鼠	-10.1813
解者	-10.1816
時藥	-10.182
四依	-10.1822
互相	-10.1833
有過	-10.1837
生善	-10.1843
手足	-10.1853
往昔	-10.1858
故開	-10.1861
少欲	-10.1866
入道	-10.1868
心者	-10.1878
揀	-10.1886
秦	-10.1887
織師	-10.1889
非道	-10.1892
不必	-10.1894
六種	-10.1901
有八	-10.1906
西方	-10.1909
三中	-10.1914
幽	-10.1916
不從	-10.192
拒	-10.1928
變化	-10.193
回	-10.1934
說戒時	-10.1935
言諍	-10.1937
着	-10.1939
幢	-10.1943
摩那埵	-10.1946
既不	-10.1946
戒疏	-10.1946
封	-10.1951
佛令	-10.1953
明相	-10.1955
基	-10.1957
障道	-10.1966
剋	-10.1974
若受	-10.1978
禁戒	-10.1985
生天	-10.1991
大德一心念	-10.2
未曾	-10.2002
胡	-10.2008
隨行	-10.2011
枯	-10.2013
與彼	-10.2014
以法	-10.202
造作	-10.2023
但以	-10.2023
毀呰	-10.2024
依法	-10.2027
今以	-10.2028
煑	-10.2034
何為	-10.2038
所不應為	-10.2042
頭面禮足	-10.2049
今既	-10.205
八敬	-10.2053
善知識	-10.2062
省	-10.2072
犯吉	-10.2072
既是	-10.2079
御	-10.2083
一切智	-10.2083
競	-10.2089
便成	-10.2092
汝是	-10.2104
弊	-10.2105
廣明	-10.2112
為言	-10.2113
諸居士	-10.2115
波羅蜜	-10.2144
自心	-10.2151
一心奉請佛說	-10.2153
明了	-10.2157
惡法	-10.2164
即犯	-10.217
邑	-10.2176
六根	-10.2184
二十八	-10.2186
剃	-10.2188
若復	-10.2197
文句	-10.2197
諸比丘言	-10.2198
聽畜	-10.2203
勢分	-10.2207
頻	-10.221
三學	-10.2214
二處	-10.2214
虧	-10.2214
隨機	-10.2215
輪王	-10.222
復問	-10.2221
民	-10.2223
俱舍	-10.2225
二事	-10.2235
𠎝	-10.2237
明知	-10.2241
想疑	-10.2241
若准	-10.2245
未必	-10.2249
先作	-10.2251
裙	-10.2251
次釋	-10.2251
若未	-10.2252
族	-10.2253
不住	-10.2255
以是因緣	-10.2257
分三	-10.2259
如實	-10.2264
實相	-10.2264
盲	-10.2265
庶	-10.2267
三聚	-10.2268
獨覺	-10.2274
取衣	-10.2274
筆	-10.2275
至心	-10.2279
等也	-10.2279
應為	-10.2287
尸	-10.2287
癡人	-10.229
來者	-10.229
𨷂	-10.2291
我為	-10.2293
犯相	-10.23
護法	-10.2303
行相	-10.2306
教法	-10.2317
貧窮	-10.2326
如彼	-10.2327
年少	-10.2332
世尊告曰	-10.2335
為異	-10.2335
事者	-10.2337
奇	-10.2342
安陀會	-10.2346
門中	-10.2353
無為	-10.2361
謂於	-10.2364
兄弟	-10.2373
飯食	-10.2374
後來	-10.2376
事法	-10.2379
此經	-10.2381
無始	-10.2381
掃	-10.2382
僧殘罪	-10.2383
捨者	-10.2387
當作	-10.2391
八難	-10.2393
汝莫	-10.2396
舒	-10.2397
壽命	-10.2397
二罪	-10.2399
更不	-10.2399
非沙門法	-10.2401
欲得	-10.2405
苦行	-10.2407
僧差	-10.2409
練	-10.241
理應	-10.2413
唱言	-10.2417
五條	-10.2422
文義	-10.2423
說欲	-10.2437
豐	-10.2437
江	-10.2438
得作	-10.2443
守持	-10.2446
司	-10.2462
尸羅	-10.2467
玉	-10.2469
惡口	-10.2477
制斯學處	-10.2478
圍	-10.2478
羯磨疏云	-10.248
園中	-10.2489
二字	-10.2489
□	-10.2489
共語	-10.2491
古師	-10.2493
即應	-10.2509
考	-10.251
】「	-10.2514
名利	-10.2515
不止	-10.252
苾芻白佛	-10.2522
母論	-10.2524
哀	-10.2529
經宿	-10.2534
遶	-10.2537
三根	-10.2547
舍衛國	-10.2551
修多羅	-10.2558
作聲	-10.256
第三句	-10.256
身體	-10.2564
初至	-10.257
拂	-10.257
三位	-10.2571
唯願	-10.2572
即於	-10.2574
如常	-10.2577
素	-10.2579
日中	-10.2582
快	-10.2583
先有	-10.2586
通達	-10.259
淨心	-10.259
念念	-10.2591
若說	-10.2593
圍繞	-10.2595
問云	-10.2595
而有	-10.2602
此土	-10.2603
慎	-10.2604
藥叉	-10.2605
作惡	-10.2608
媒嫁	-10.261
裁	-10.2611
諦聽	-10.2621
既有	-10.2621
而受	-10.2622
見者	-10.2631
知而故問	-10.2637
黨	-10.264
雖是	-10.2647
商人	-10.2648
坐臥	-10.2651
比丘尼僧	-10.2652
無上菩提	-10.266
後世	-10.2661
此名	-10.2662
不可學	-10.2662
等法	-10.2663
釋義	-10.2666
頗有	-10.2677
薩婆多云	-10.2677
道理	-10.2678
羣	-10.2681
閻浮提	-10.2682
應用	-10.2685
應量	-10.2686
力故	-10.2689
暴	-10.2689
瑜伽	-10.2697
非時食	-10.2706
其家	-10.271
弄	-10.2715
義同	-10.2717
知事	-10.2717
法輪	-10.2727
慶	-10.274
暮	-10.2742
創	-10.2743
)。】「	-10.2743
隨其	-10.2747
梵網	-10.275
尼師壇	-10.2752
食之	-10.2754
自手	-10.2756
何謂	-10.2759
東方	-10.276
五月	-10.276
方可	-10.2764
了了	-10.2764
摩訶	-10.2778
罪者	-10.2779
行頭陀	-10.2782
佛世尊	-10.2783
怪	-10.2786
作如是白	-10.2787
不去	-10.2792
阿含	-10.2799
此某甲	-10.2807
名也	-10.2809
殊勝	-10.281
白衣家	-10.2816
將去	-10.2825
羯磨者	-10.2827
天王	-10.2828
不正	-10.2833
引證	-10.2835
六眾	-10.284
歌	-10.284
都無	-10.285
神足	-10.2852
汝實爾不	-10.2868
憍	-10.2877
世俗	-10.2877
使者	-10.2878
商主	-10.2882
滯	-10.2887
不隨	-10.2895
同學	-10.2898
板	-10.29
我先	-10.2904
唾	-10.2904
不疑	-10.2905
棄捨	-10.2906
䟦難陀	-10.292
彼言	-10.2922
第	-10.2929
欲求	-10.2933
勤修	-10.2934
爪	-10.2938
五日	-10.2942
有事	-10.2949
人法	-10.2949
釋子	-10.2957
六法	-10.296
遠行	-10.2961
念佛	-10.2964
一切菩薩	-10.2965
惡見	-10.2966
不實	-10.2966
墜	-10.2974
殺人	-10.2974
說言	-10.2976
律本	-10.2978
一事	-10.2981
六者	-10.2981
唯除	-10.2982
未知	-10.2984
開緣	-10.2992
二根	-10.2995
之理	-10.2997
波羅提提舍尼	-10.2998
記云	-10.3001
前文	-10.3009
天竺	-10.3016
般	-10.3016
糞	-10.3017
料理	-10.302
幻	-10.302
善知	-10.302
文二	-10.3024
若至	-10.3025
見有	-10.3025
惡道	-10.3026
無餘	-10.304
所引	-10.3041
初禪	-10.3045
煩	-10.3054
評	-10.3056
一罪	-10.3063
立明	-10.3066
十重	-10.3072
自今已去	-10.3074
信樂	-10.3074
茶	-10.3075
其餘	-10.3075
繞	-10.3076
陀羅尼	-10.3078
略說	-10.3081
吹	-10.3084
是名為	-10.3088
符	-10.3091
應更	-10.3099
隨處	-10.3109
△	-10.312
糞掃	-10.313
離本處	-10.313
戒疏云	-10.3132
長壽	-10.314
之道	-10.3145
二界	-10.315
如斯	-10.315
時諸	-10.3151
四果	-10.3152
教授師	-10.3154
保	-10.3162
淫	-10.3164
冠	-10.3169
射	-10.3175
受他	-10.3176
上坐	-10.3179
虎	-10.3188
比丘某甲	-10.3191
愛樂	-10.3192
鐘	-10.3192
爛	-10.3194
羸	-10.3194
天神	-10.3195
手捉	-10.3198
惡行	-10.3202
弗	-10.321
不分	-10.3211
訛	-10.3211
辟支佛	-10.3216
彼比丘尼	-10.3217
飢	-10.3217
泉	-10.3219
四十	-10.3221
理須	-10.3221
二十五	-10.3223
突	-10.3228
各別	-10.3228
困	-10.3229
之過	-10.3231
頃	-10.3234
揵度	-10.3242
翻為	-10.3245
擇	-10.3247
大戒	-10.3254
六羣	-10.3256
羹	-10.3259
氏	-10.326
一家	-10.3262
語者	-10.327
而反	-10.3272
鄙	-10.3274
正釋	-10.3276
至彼	-10.3276
當以	-10.3279
樂學戒	-10.3282
檢	-10.3288
上句	-10.3289
輸	-10.3293
共宿	-10.3301
貪著	-10.3301
惠	-10.3301
不應受	-10.331
經文	-10.332
自為	-10.3322
行時	-10.3322
一拜	-10.3325
於其	-10.3327
口中	-10.3332
已來	-10.3335
僧忍默然故	-10.3337
身命	-10.3338
亦犯	-10.3339
洗足	-10.3343
為師	-10.3344
雖無	-10.3345
若下	-10.3346
不得與	-10.3347
採	-10.3357
諸弟子	-10.3365
薩婆多論云	-10.3365
悞	-10.3366
邪命	-10.3366
佛在王舍城	-10.3371
不容	-10.3372
手受	-10.3373
色界	-10.3373
高聲	-10.3378
無事	-10.3378
賓	-10.338
隨身	-10.338
注中	-10.3386
死屍	-10.3387
晝夜	-10.3394
最初未制戒	-10.3398
天上	-10.34
共為	-10.34
後安居	-10.3402
所見	-10.3404
整	-10.3407
巳來	-10.3409
中國	-10.341
看病人	-10.3413
晝	-10.3414
此釋	-10.3415
誨	-10.3426
擎	-10.343
奴婢	-10.3431
少分	-10.3436
我身	-10.3437
六度	-10.3439
後二	-10.3448
七條	-10.3448
三十二	-10.346
聞佛	-10.3463
傾	-10.3467
大會	-10.3469
過限	-10.347
意者	-10.3474
仁等	-10.3483
作房	-10.3483
團	-10.3485
氈	-10.3486
鉤	-10.3487
盜戒	-10.3488
聽諸比丘	-10.349
皆應	-10.3493
與食	-10.3494
愍	-10.3495
聖法	-10.3501
所詮	-10.3501
綱	-10.3501
伽論	-10.3503
重者	-10.3506
不遠	-10.3507
儒	-10.3511
一衣	-10.3511
二諦	-10.3517
火燒	-10.3519
愆	-10.3521
童女	-10.3523
是其	-10.3538
不過	-10.3538
鄔陀夷	-10.3542
䇿	-10.3543
蕩	-10.3549
知法	-10.3553
輔	-10.3556
於他	-10.3558
鈍	-10.3562
往詣	-10.3563
為是	-10.3564
知之	-10.3564
甲	-10.3567
六年	-10.3569
受教	-10.357
之緣	-10.3576
頂禮	-10.3576
以成	-10.3579
若約	-10.3579
當時	-10.3581
則是	-10.3585
雖不	-10.3595
作念	-10.3596
甘	-10.3601
惡事	-10.3608
百年	-10.3614
罪也	-10.3618
舍利子	-10.3618
佛物	-10.3621
為眾	-10.3622
見諦	-10.3629
未盡	-10.3629
偽	-10.3631
言說	-10.3631
之語	-10.3632
自受	-10.3632
絹	-10.3636
三處	-10.364
下二	-10.3641
尅	-10.3642
閣	-10.3643
逸	-10.3646
與女人	-10.3646
二十七	-10.3647
愧	-10.3648
阿闍黎	-10.3653
僧寶	-10.3654
方法	-10.3664
至此	-10.3666
右手	-10.3667
此罪	-10.3669
勇	-10.3675
不能得	-10.3676
初文	-10.3677
微妙	-10.3677
非一	-10.3679
僧次	-10.3681
於一	-10.3687
佛問	-10.3688
又言	-10.3689
轉法輪	-10.3692
僧祇律云	-10.3693
坐處	-10.3699
此非	-10.3701
彈指	-10.3706
羅剎	-10.3708
不得食	-10.3712
故爾	-10.3715
猛	-10.3719
餘如	-10.372
而菩薩	-10.3721
第二句	-10.3725
非情	-10.3728
有五事	-10.3728
體是	-10.3729
災	-10.3731
初夜	-10.3739
時中	-10.3741
〕	-10.3742
授戒	-10.3745
膩	-10.3752
制教	-10.3754
汝不	-10.3754
能為	-10.3756
莫不	-10.3758
浣染	-10.3759
之行	-10.376
豈得	-10.376
以無	-10.3761
多論云	-10.3762
鈔文	-10.3766
薪	-10.377
集眾	-10.3773
師云	-10.3777
初果	-10.3777
今欲	-10.3778
僧眾	-10.3784
初二	-10.3789
終身	-10.3795
隨相	-10.3795
別有	-10.3797
入白衣舍	-10.3798
懺法	-10.3804
渴	-10.3806
伸	-10.3809
不差	-10.3813
屍	-10.3815
下句	-10.3817
如佛	-10.3818
釜	-10.3827
盡壽	-10.383
利他	-10.3843
如法治	-10.3848
於佛	-10.3852
諸尼	-10.3853
還報	-10.3855
摧	-10.3858
必當	-10.3859
捨去	-10.3863
何用	-10.3863
雞	-10.3865
四邊	-10.3868
安居竟	-10.387
惡觸	-10.387
非淨行	-10.3875
貪心	-10.3876
梵音	-10.3876
於後	-10.3876
▁二若下	-10.3878
休	-10.3879
菩提心	-10.3881
箭	-10.3881
常行	-10.3882
僧忍聽	-10.3885
祖師	-10.3888
彼即	-10.3891
敗	-10.3892
示現	-10.3896
僧房	-10.3904
遠近	-10.391
惜	-10.3911
無二	-10.3913
自巳	-10.3914
揩	-10.3915
僧應	-10.3915
為二	-10.3916
明相出	-10.3917
墮罪	-10.3925
而來	-10.393
為法	-10.3933
初門	-10.3937
令僧	-10.3939
高座	-10.3941
捨離	-10.3943
工	-10.3945
種種呵責	-10.3948
刑	-10.3948
聚落中	-10.3954
前事	-10.3956
色心	-10.3958
爾所	-10.3961
教令	-10.3966
與作	-10.3966
障礙	-10.3969
清淨比丘	-10.397
與此	-10.397
媒	-10.3971
依教	-10.3977
即前	-10.3978
師僧	-10.3979
當還	-10.398
二十二	-10.3985
受近圓	-10.399
胸	-10.3995
旋	-10.3996
叉	-10.4003
法律	-10.4004
報恩	-10.4007
具緣	-10.4008
分衣	-10.4009
與尼	-10.4011
爾時諸比丘	-10.4011
食肉	-10.4015
入城	-10.4022
方成	-10.4025
作是念已	-10.4028
珍	-10.403
白僧	-10.4036
種類	-10.4038
親厚	-10.4038
受體	-10.404
恥	-10.4041
便生	-10.4044
此某甲比丘	-10.4044
雨衣	-10.4047
二名	-10.4047
復言	-10.4048
下顯	-10.4052
我巳	-10.4053
約勅	-10.406
衣界	-10.4061
因緣故	-10.4063
鈔云	-10.4066
故作	-10.4067
城邑	-10.407
應供	-10.4071
腰	-10.4072
一劫	-10.4073
肆	-10.4079
四方僧	-10.408
時王	-10.4082
故律云	-10.4085
令我	-10.4087
威德	-10.4088
毒蛇	-10.4091
四緣	-10.4093
勢力	-10.4094
共作	-10.4094
皆由	-10.4095
宜應	-10.4095
次句	-10.4097
贊	-10.4099
貪欲	-10.4103
十誦律云	-10.4111
阿蘭若	-10.4112
不得受	-10.4112
正道	-10.4117
作業	-10.4121
祇律	-10.4128
沉	-10.4129
沈	-10.4133
憐愍	-10.4135
哀愍	-10.4143
故今	-10.4144
倫	-10.4144
四戒	-10.4145
比尼	-10.4146
如前說	-10.4152
應語言	-10.4153
綴	-10.4156
犯緣	-10.4158
不滅	-10.4161
本是	-10.4165
有其	-10.4166
㲲	-10.4167
珍寶	-10.4173
一鉢	-10.4177
甚深	-10.4181
假名	-10.419
脫革屣	-10.4192
他部	-10.4195
惱他	-10.4208
五分律云	-10.4211
產	-10.4214
唄	-10.4217
篇聚	-10.4219
無犯者	-10.422
木叉	-10.4224
說也	-10.4232
而出	-10.4232
增一	-10.4237
異處	-10.4241
第四句	-10.4243
漉	-10.4251
一年	-10.4252
澆	-10.4255
不稱	-10.4257
諸外道	-10.426
一宿	-10.4263
內宿	-10.4265
夜叉	-10.4266
眾多比丘	-10.4267
僧得	-10.4267
應須	-10.4269
觀行	-10.427
微塵	-10.4274
降伏	-10.4275
乞求	-10.4277
北方	-10.4278
正是	-10.428
津	-10.428
當為	-10.4295
聞之	-10.4304
信施	-10.4309
受戒人	-10.4316
下結	-10.4318
今依	-10.4319
如後	-10.4321
有人言	-10.4323
得者	-10.4331
千佛	-10.4331
受生	-10.4332
行摩那埵	-10.4332
等是	-10.4332
不殺	-10.4341
破夏	-10.4344
欲說戒者當如是說	-10.4349
本律	-10.435
見之	-10.4354
殄	-10.4364
薩婆多	-10.4366
而成	-10.4367
▁初釋	-10.4368
立名	-10.4369
處者	-10.4373
人物	-10.4373
瞋心	-10.4381
希有	-10.4381
請僧	-10.4383
無益	-10.4384
無數	-10.4384
非隨順行	-10.4385
是罪	-10.4392
得偷蘭遮	-10.4394
加行	-10.4394
洗手	-10.4402
獻	-10.4402
明其	-10.4415
禪師	-10.4426
發戒	-10.4427
掘地	-10.4431
非沙門	-10.4432
知其	-10.4435
而非	-10.4437
此下	-10.444
亦當	-10.4442
二教	-10.4443
佛果	-10.4445
在於	-10.4448
有云	-10.4449
不得作	-10.4451
越比尼罪	-10.4459
十惡	-10.4465
無厭	-10.4472
若取	-10.4474
入村	-10.4479
歡	-10.4479
展	-10.4494
請佛	-10.4498
意業	-10.4499
違犯	-10.4499
先後	-10.4508
應還	-10.4519
謂以	-10.4525
病時	-10.4528
孤	-10.4531
說此	-10.4532
通於	-10.4534
言無	-10.4536
心也	-10.4537
了論	-10.4542
佛法中	-10.4551
頌曰	-10.4551
應差	-10.4552
地中	-10.4575
前四	-10.4578
大比丘	-10.4581
灌頂	-10.4583
前明	-10.4597
結重	-10.4597
尤	-10.4605
去時	-10.4606
我有	-10.4606
盆	-10.4608
為王	-10.4609
欲使	-10.4614
獵師	-10.4614
令得	-10.4615
戒行	-10.4621
是何	-10.4622
何有	-10.4627
佛所說	-10.4628
▁初標名	-10.4631
枕	-10.4633
便即	-10.4634
不得戒	-10.4637
西域	-10.4638
施衣	-10.4639
大姊僧聽	-10.464
今當	-10.4643
灌	-10.4645
於前	-10.4649
潔	-10.4653
八日	-10.4654
二三	-10.4654
通局	-10.4655
去者	-10.4658
▁六	-10.4661
或是	-10.4662
迦絺那衣	-10.4664
估客	-10.4669
汝所為非	-10.4669
不假	-10.4671
灑	-10.4672
其相	-10.4674
故曰也	-10.468
妹	-10.4685
大迦葉	-10.4687
隨緣	-10.4689
佛道	-10.4693
大聖	-10.4696
不可思議	-10.471
文殊師利	-10.4713
廣說如前	-10.4723
集十句義乃至正法久住	-10.4726
的	-10.4726
法寶	-10.4728
僧和合	-10.4736
籌量	-10.474
遂便	-10.4746
棄之	-10.4748
從彼	-10.4752
戒是	-10.4753
所制	-10.4754
亦成	-10.4754
巳去	-10.4754
譬	-10.4757
紙	-10.4758
寸	-10.4764
教者	-10.4765
卷第十	-10.4767
自利	-10.4776
諸文	-10.4779
無難	-10.4786
入重	-10.4791
來已	-10.4793
上二句	-10.4795
冀	-10.4795
彼便	-10.4796
後生	-10.48
十住	-10.48
但得	-10.4801
六塵	-10.4801
止作	-10.4808
䟦	-10.4808
釋種	-10.4809
善業	-10.481
即此	-10.4811
善能	-10.4812
知慚愧者	-10.4814
衣價	-10.4814
此據	-10.4815
犯不犯	-10.4817
斷事	-10.4818
怒	-10.4828
曠野	-10.4834
不作淨	-10.4835
佛告諸苾芻	-10.4837
緣中	-10.4837
西國	-10.4839
出外	-10.4842
以自	-10.4842
莊	-10.485
不覆藏	-10.485
不忘	-10.4851
不求	-10.4854
實語	-10.4854
卿	-10.4859
當願眾生	-10.4861
)。「	-10.4863
但言	-10.4863
近圓	-10.4869
呪術	-10.487
況復	-10.4872
正行	-10.4875
本意	-10.4876
將欲	-10.4877
最上	-10.4885
法華	-10.489
放光	-10.4895
有心	-10.4899
靜慮	-10.49
逆罪	-10.49
陽	-10.49
相者	-10.4904
二十三	-10.4907
律制	-10.4913
多羅	-10.4922
麤罪	-10.4926
取食	-10.4927
不和合	-10.4927
本處	-10.4928
更相	-10.4928
是菩薩	-10.4929
苟	-10.4932
應教	-10.4936
堪能	-10.4939
欲作	-10.494
遣人	-10.494
一卷	-10.4941
有五法	-10.4944
吉祥	-10.4946
非親里	-10.4952
時六群比丘	-10.4956
製	-10.496
酪	-10.4961
將此	-10.4964
若使人	-10.4967
▁【	-10.4967
無法	-10.4971
金色	-10.4972
最初犯戒	-10.4972
妻子	-10.4973
並皆	-10.498
無窮	-10.4983
不現	-10.4984
澄	-10.4987
餘事	-10.499
同住	-10.4992
収	-10.4992
結大界	-10.4992
明之	-10.4993
癈	-10.4997
孝順	-10.4998
五逆	-10.4999
功德衣	-10.5
不知云何	-10.5009
知見	-10.5011
有智	-10.5015
為名	-10.5015
修學	-10.5016
排	-10.5016
今為	-10.5018
不違	-10.5018
為彼	-10.5025
𦦨	-10.5025
羯磨竟	-10.5029
上文	-10.503
出生	-10.503
有兩	-10.5033
墮落	-10.5033
俱有	-10.5035
要期	-10.5046
紫	-10.5049
獵	-10.5051
微細	-10.5051
對僧	-10.5052
染著	-10.5054
玄云	-10.5055
犯何事	-10.5057
即入	-10.5058
知事人	-10.5059
梵云	-10.5059
不往	-10.5065
修善	-10.5065
者善	-10.5066
一日一夜	-10.5071
儉	-10.5072
誰諸長老忍	-10.5075
天台	-10.5077
名稱	-10.5084
小界	-10.5085
跪	-10.5086
輕慢	-10.5086
八萬	-10.5087
入涅槃	-10.5089
驢	-10.5094
二形	-10.5095
馳	-10.5098
上明	-10.5099
撥	-10.5101
遲	-10.5101
欣	-10.5102
所證	-10.5103
智論云	-10.5106
於一切	-10.5115
故出精	-10.5117
應分	-10.5121
結使	-10.5124
為大	-10.5126
秋	-10.5129
剎利	-10.5135
个	-10.5135
見其	-10.5139
生起	-10.5141
波斯匿王	-10.5143
當於	-10.5144
與衣	-10.5145
共期	-10.5148
餘衣	-10.515
婦人	-10.516
不至	-10.5163
無由	-10.5169
施物	-10.5173
初約	-10.5177
誓願	-10.5177
現相	-10.5179
左手	-10.518
旦	-10.518
業報	-10.5187
入僧	-10.5188
比丘應	-10.519
若食	-10.5192
從他	-10.5193
詰	-10.5193
為宗	-10.5193
而能	-10.5193
復更	-10.5193
有諸比丘	-10.5194
率	-10.5195
法性	-10.5197
為緣	-10.52
婬戒	-10.5202
十律	-10.5203
於人	-10.5203
自殺	-10.5206
重受	-10.5206
伺	-10.5208
者無犯	-10.5213
之境	-10.5214
風吹	-10.5217
往世尊所	-10.5218
至誠	-10.5226
刻	-10.523
注文	-10.5235
俱是	-10.5239
彼論	-10.5239
釋中	-10.524
淨土	-10.5241
法藏	-10.5245
一云	-10.5251
等正覺	-10.5251
剎	-10.5258
何時	-10.5259
若聞	-10.5263
此五	-10.5269
但為	-10.5275
此句	-10.5283
能除	-10.5283
闍梨	-10.5283
費	-10.5288
人間遊行	-10.5289
諸有	-10.529
更加	-10.5291
人作	-10.5294
阿那律	-10.5295
得一	-10.5296
雨浴衣	-10.5299
此心	-10.5309
著衣持鉢	-10.5314
舊云	-10.5314
聽許	-10.5319
厨	-10.5321
嫌責	-10.5331
語比丘言	-10.5334
立法	-10.5335
魏	-10.5338
犯突吉羅	-10.5344
入眾	-10.5346
僧食	-10.535
行處	-10.5353
三戒	-10.5357
分為二	-10.536
梵王	-10.5365
取者	-10.5367
指授	-10.5368
物者	-10.5369
則為	-10.537
得物	-10.537
摘	-10.5373
比丘尼言	-10.5376
繫縛	-10.5387
如是白	-10.5387
皆犯	-10.5388
受欲	-10.5401
一品	-10.5402
差人	-10.5404
化身	-10.5408
時到	-10.541
槃	-10.5412
說之	-10.5413
依律	-10.5414
各自	-10.5415
治之	-10.5416
入寺	-10.5417
有多	-10.5418
跋	-10.5419
羅睺羅	-10.5419
便言	-10.5425
本宗	-10.5426
本罪	-10.5426
凡有	-10.5427
犯也	-10.5429
賜	-10.5442
刀杖	-10.5445
舉罪	-10.5445
不與取	-10.5446
前行	-10.5446
麁罪	-10.5447
十六日	-10.5449
紐	-10.5449
離欲	-10.545
畔	-10.5451
罪過	-10.5452
施者	-10.5454
奉持	-10.5459
娑	-10.5462
僧祗	-10.5465
慚	-10.5465
以此因緣具白世尊	-10.5468
殺者	-10.5469
正受	-10.5469
止宿	-10.547
六日	-10.5474
來入	-10.5475
聰明	-10.5476
百億	-10.5478
澤	-10.548
戒品	-10.5482
問佛	-10.5483
淨者	-10.5484
徒眾	-10.5489
寺內	-10.5489
優劣	-10.549
增益	-10.5491
貨	-10.5493
不修	-10.5494
曇	-10.5496
一切僧	-10.5496
受三歸	-10.5502
是知	-10.5504
楊枝	-10.5506
若其	-10.5514
不別	-10.5515
染心	-10.5515
惡趣	-10.5515
十誦律	-10.5519
晉	-10.5522
論文	-10.5522
知時	-10.5524
三千	-10.5524
過十日	-10.5526
盡集	-10.553
誕	-10.5533
隣	-10.5533
無能	-10.5533
捨衣	-10.5535
一生	-10.5535
莖	-10.5543
頗有比丘	-10.5544
非理	-10.5546
殃	-10.5546
剌	-10.5548
須陀洹	-10.5549
去聲	-10.5551
由旬	-10.5552
班	-10.5552
過者	-10.5556
如世尊說	-10.556
法師曰	-10.5564
斬	-10.5566
良由	-10.557
非無	-10.5571
今從僧乞	-10.5581
七十	-10.5581
針筒	-10.5582
以衣	-10.5583
巳成	-10.5584
高下	-10.5585
僧界	-10.5585
食竟	-10.5588
所用	-10.5596
瞿	-10.5596
渠	-10.5596
甘蔗	-10.5597
漸漸	-10.5598
作食	-10.56
愈	-10.5608
知者	-10.5611
何事	-10.5614
意欲	-10.5614
為此	-10.5614
慕	-10.5616
住者	-10.5617
成正覺	-10.5621
夏中	-10.5621
可學	-10.5623
持鉢	-10.5625
乃至已聞者當重	-10.5625
不立	-10.5626
在地	-10.5626
無表	-10.5627
本源	-10.5629
好心	-10.563
所造	-10.5635
若苾芻尼	-10.5638
本日治	-10.5648
惱亂	-10.5651
對境	-10.5651
亦通	-10.5651
散亂	-10.5651
偈云	-10.5652
學家	-10.5653
隨心	-10.5653
猪	-10.5657
之內	-10.5658
故無	-10.5658
戾	-10.5659
爐	-10.5662
即須	-10.5663
鬬	-10.5667
舍衛城	-10.5671
括	-10.5673
現前僧應分	-10.5675
賊住	-10.5675
三諫	-10.5678
受迦絺那衣	-10.5681
開遮	-10.5682
作布薩	-10.5683
百歲	-10.5685
貿易	-10.5691
險	-10.5694
未能	-10.5698
僻	-10.5709
後於異時	-10.5709
論中	-10.5712
之功	-10.5713
庫	-10.5719
授記	-10.5719
若衣	-10.572
一切諸佛	-10.5721
無垢	-10.5722
佗	-10.5724
越毘尼罪	-10.5724
形像	-10.5732
中初明	-10.5733
僧者	-10.5734
以水	-10.5737
遷	-10.5738
廣說乃至	-10.5739
好惡	-10.5739
能破	-10.5747
軟	-10.5753
中初示	-10.5753
懺罪	-10.5755
不輕	-10.5757
範	-10.5758
知不	-10.5758
無違	-10.5761
苦樂	-10.5763
覆頭	-10.5765
後更	-10.5766
罪報	-10.5766
大沙門	-10.5768
捨心	-10.5772
怨家	-10.5773
普賢	-10.5773
共分	-10.5775
汝云何	-10.5778
意在	-10.578
疏中	-10.5781
怛	-10.5784
一切佛	-10.5785
四天王	-10.5787
餘法	-10.579
美食	-10.5792
嫉	-10.5793
對人	-10.5798
之體	-10.5799
有德	-10.5799
作如是說	-10.5806
時世尊	-10.5808
犯輕	-10.581
三十六	-10.5815
但使	-10.5816
准前	-10.5816
僧集	-10.5823
家中	-10.5825
約義	-10.5827
身口意	-10.583
即上	-10.5833
學人	-10.5836
受取	-10.5836
即當	-10.5837
靜處	-10.5842
▁初引	-10.5843
轉想	-10.5844
一偈	-10.5845
五中	-10.5847
用者	-10.5849
諸長老	-10.5851
如佛所說	-10.5856
屠	-10.5862
暢	-10.5867
疾病	-10.5868
籠	-10.5868
便是	-10.5869
嘉	-10.5871
此為	-10.5873
而立	-10.5874
為佛	-10.5879
復作是念	-10.5882
於上	-10.5883
二年	-10.5885
戒壇	-10.5886
作大	-10.589
與某甲	-10.5894
烟	-10.5895
之外	-10.5896
右膝著地	-10.5896
皆為	-10.5897
危	-10.5897
煖	-10.5898
且約	-10.5899
滅度	-10.5903
善行	-10.5904
內有	-10.5905
前戒	-10.5906
著地	-10.5912
又以	-10.5916
蔽	-10.5916
八法	-10.5917
難事	-10.5917
種種因緣呵已	-10.5921
斧	-10.5925
緣者	-10.5927
則知	-10.593
身中	-10.5933
祈	-10.5935
兩句	-10.5936
言語	-10.5938
不答	-10.5949
一邊	-10.5958
此比丘尼	-10.5958
同時	-10.5959
由彼	-10.5962
同行	-10.5962
般涅槃	-10.5962
請食	-10.597
佛身	-10.597
治罰	-10.5977
次科初	-10.5979
安住	-10.5981
名義	-10.5982
佛戒	-10.5989
殺害	-10.5989
救護	-10.5995
二十六	-10.6003
不捨者	-10.6003
再三	-10.6004
亦不應	-10.6004
鄣	-10.6009
四位	-10.6017
稽首	-10.6018
羯	-10.602
事理	-10.6023
盈	-10.6025
死人	-10.6028
汝等苾芻	-10.6028
且據	-10.603
離處	-10.6032
與前	-10.6033
講堂	-10.6033
忍辱	-10.6038
後人	-10.6039
即與	-10.6039
成重	-10.6043
自持	-10.6044
以不	-10.6047
有法	-10.6049
健	-10.6054
居士婦	-10.6055
耶舍	-10.6056
頰	-10.6057
為正	-10.6058
手執	-10.606
為之	-10.6062
犯殘	-10.6064
成業	-10.6064
七者	-10.6065
作意	-10.6073
帛	-10.6073
開導	-10.6076
五根	-10.6083
故非	-10.6093
▁初問	-10.61
少欲知足	-10.6102
便往	-10.6107
山林	-10.6112
方能	-10.6117
泥洹	-10.6118
皆須	-10.6121
未曾有	-10.6122
不絕	-10.6122
受懺	-10.6124
中初文	-10.6125
萬行	-10.6126
火淨	-10.6128
堅持不捨	-10.6131
越毗尼罪	-10.6133
漏盡	-10.6134
前安居	-10.6137
咎	-10.6138
為利	-10.614
偏袒右肩	-10.614
乃至佛言	-10.6142
實作	-10.6145
既爾	-10.6146
東西	-10.6146
緣覺	-10.6154
不待	-10.6154
同宿	-10.6161
作方便	-10.6162
能作	-10.6162
如大	-10.6163
或於	-10.6176
廟	-10.6177
非也	-10.6182
為初	-10.6183
重故	-10.619
所以者何	-10.6193
惡獸	-10.6193
飡	-10.6194
戒經	-10.6194
翅	-10.6199
取其	-10.62
下指	-10.6202
所起	-10.6204
意謂	-10.6208
諸有情	-10.6211
慈悲心	-10.6212
曬	-10.6212
四部	-10.6213
種姓	-10.6219
攝頌曰	-10.6222
既云	-10.6222
象馬	-10.6224
自下	-10.6227
貌	-10.6227
異境	-10.6227
受五戒	-10.6229
彼苾芻	-10.623
五利	-10.6233
祭	-10.6236
閱	-10.624
命根	-10.6246
No	-10.6247
二十九	-10.6249
。』「	-10.6249
色身	-10.6258
見他	-10.6259
事故	-10.6261
澡	-10.6266
梯	-10.627
又有	-10.6271
室羅伐城	-10.6273
瑞	-10.6275
革	-10.6276
我比丘某甲	-10.6277
何名	-10.6278
年滿二十	-10.6279
已下	-10.6279
彼處	-10.628
如其	-10.6281
出家菩薩	-10.6282
或因	-10.6283
若有人	-10.6284
人說	-10.6284
日夜	-10.6284
先受	-10.6289
巡	-10.6299
得脫	-10.6302
寡	-10.6304
譽	-10.6305
犯重罪	-10.6307
此一	-10.6308
勵	-10.6312
百一	-10.6314
共同	-10.6318
所應	-10.6325
與比丘尼	-10.6331
不集	-10.6332
警	-10.6339
此解	-10.6339
所對	-10.6346
得果	-10.6352
命難	-10.6355
後有	-10.6356
浣衣	-10.6358
罪福	-10.6362
次辨	-10.6363
更增	-10.6368
裂	-10.6368
債	-10.6368
毒藥	-10.6371
相好	-10.6371
白王	-10.6372
溺	-10.6375
取物	-10.6379
契經	-10.6382
往至	-10.6383
喜樂	-10.6384
和合僧	-10.6385
後夜	-10.6389
菩薩摩訶薩	-10.639
禮足	-10.6396
佛即	-10.6398
婆羅	-10.6399
初示	-10.6401
有二義	-10.6402
坊	-10.6403
小便	-10.6405
商	-10.6413
等物	-10.6418
諸佛菩薩	-10.6419
義通	-10.6421
湯藥	-10.6424
不思議	-10.643
境差	-10.643
界者	-10.6433
剝	-10.6433
之因	-10.6434
多種有漏處	-10.6435
晚	-10.6437
一切皆	-10.6439
現身	-10.6439
五衣	-10.6442
還家	-10.6443
汝能	-10.6444
無著	-10.645
見此	-10.6453
善友	-10.6455
武	-10.6459
本為	-10.6461
剎那	-10.6462
非親	-10.6464
敬重	-10.6467
現行	-10.6468
作佛	-10.6468
知他	-10.6468
心所	-10.6468
心心	-10.6475
不請	-10.6477
學法	-10.6479
靡	-10.6482
心行	-10.6487
僧已忍	-10.649
禍	-10.649
三結	-10.6491
皷	-10.6492
意樂	-10.6493
故下	-10.65
千歲	-10.6502
羮	-10.6503
應得	-10.6503
摩羅	-10.6507
四明	-10.6509
不染	-10.6513
同法	-10.6515
毘舍離	-10.6517
所以爾者	-10.6524
事竟	-10.6525
揵	-10.6525
受巳	-10.6529
為汝	-10.6532
染衣	-10.6533
蓮花	-10.6533
略舉	-10.6535
占	-10.6535
夫婦	-10.6536
為求	-10.6538
大愛道	-10.6541
換	-10.6542
而取	-10.6543
儀式	-10.6546
無衣	-10.6547
在中	-10.6548
得越法罪	-10.6551
有愛	-10.6551
無量無邊	-10.6551
餘四	-10.6554
華言	-10.6555
苦痛	-10.6555
混	-10.6556
王臣	-10.6557
豎	-10.6566
招譏	-10.6566
五蘊	-10.6566
入於	-10.6567
能治	-10.6567
綺	-10.657
老病	-10.6574
療	-10.6575
眾學	-10.6576
唯一	-10.6578
溫	-10.6581
風雨	-10.6582
本心	-10.6582
衣時	-10.6582
進趣	-10.6584
飽	-10.6584
違諫	-10.6586
聽者	-10.6586
龜	-10.6587
非畜	-10.6588
不舉	-10.6589
人多	-10.659
粗	-10.6594
相見	-10.6595
四分云	-10.6598
內心	-10.6599
釋此	-10.6603
瓶沙王	-10.6607
自恣竟	-10.6609
非正	-10.6612
宣說	-10.6612
醫藥	-10.6615
得入	-10.6615
振	-10.6616
惟願	-10.6619
旁	-10.662
說波羅提木叉	-10.6622
邪正	-10.6623
不現前	-10.6628
何意	-10.6628
諸善	-10.6635
式叉迦羅尼	-10.6637
托	-10.6637
作時	-10.6641
之業	-10.6642
汎	-10.6642
三緣	-10.6645
六夜摩那埵	-10.6647
稻	-10.6648
侶	-10.6648
由斯	-10.6651
受七日	-10.6654
據此	-10.6654
二持	-10.6657
持此	-10.6662
得法	-10.6664
出家受具足戒	-10.6664
裸形	-10.6669
發言	-10.6671
三百	-10.6672
滿二十	-10.6673
成論	-10.6675
懺者	-10.6678
事鈔	-10.6678
雖非	-10.6679
三年	-10.6681
於佛法中	-10.6684
五緣	-10.6684
求覓	-10.6684
入輕	-10.6689
有因緣	-10.669
羯磨師	-10.6692
役	-10.6694
佛答	-10.6695
匠	-10.6695
晨朝	-10.6696
根本說一切有部毘奈耶	-10.6697
十歲	-10.6701
墮地獄	-10.6702
於法	-10.6703
今云	-10.6704
覽	-10.6704
搖	-10.6706
有蟲	-10.6708
應法	-10.6713
豫	-10.6713
重也	-10.6716
所出	-10.6717
如是語	-10.6718
行來	-10.6719
向佛廣說	-10.6723
八者	-10.6728
罸	-10.6728
月十五日	-10.6729
相也	-10.673
新學	-10.6732
白云	-10.6733
測	-10.6733
以此因緣	-10.6738
諸比丘聞	-10.6741
是一	-10.6744
為道	-10.675
事諍	-10.6753
未見	-10.6754
如意	-10.6754
佛像	-10.6755
埋	-10.6756
玅	-10.6757
所緣	-10.6767
相與	-10.6767
王聞	-10.6767
云何名	-10.6771
三重	-10.6771
儀軌	-10.6779
燒香	-10.6779
功能	-10.6782
心境	-10.6785
闕緣	-10.6788
孫	-10.6792
干	-10.6797
何因	-10.6798
若不爾者	-10.6798
能斷	-10.6805
行也	-10.6809
即如	-10.681
前境	-10.6812
根本律云	-10.6815
今則	-10.6815
錢寶	-10.6816
諱	-10.6816
犯僧殘	-10.6818
縵	-10.6819
總別	-10.682
三眾	-10.6822
無慚愧	-10.6823
可為	-10.6825
佛告阿難	-10.6825
法相	-10.6831
日暮	-10.6831
鬘	-10.6832
經說	-10.6833
聖賢	-10.6834
活命	-10.6835
地持	-10.6836
鄔波馱耶	-10.6839
通名	-10.6841
何物	-10.6841
爾時有	-10.6841
絲	-10.6841
九品	-10.6842
父王	-10.6845
如經	-10.6847
八句	-10.6848
此住處	-10.6848
理無	-10.6853
一切處	-10.6853
無數方便	-10.6854
小者	-10.6856
式叉	-10.6858
無有是處	-10.686
義云	-10.6864
見聞疑	-10.6865
三世諸佛	-10.687
曳	-10.687
見我	-10.6871
和僧	-10.6872
實無	-10.6873
俗家	-10.6875
皆以	-10.6882
加持	-10.6883
史	-10.6884
總標	-10.689
罷	-10.6891
地上	-10.6893
常為	-10.6894
販	-10.69
作是說	-10.6905
罪相	-10.6907
文意	-10.6913
蒜	-10.6913
不癡	-10.6915
敕	-10.6916
界相	-10.692
復以	-10.692
結前	-10.6922
遣信	-10.6925
總名	-10.6929
不發	-10.693
之具	-10.6938
答中	-10.6938
不淨觀	-10.694
有九	-10.694
迦攝波	-10.6942
受施	-10.6942
未詳	-10.6947
攬	-10.6952
無妨	-10.6952
罔	-10.6952
謂比丘	-10.6956
野干	-10.6956
二門	-10.696
瞋恨	-10.696
所求	-10.6971
虗妄	-10.6974
為義	-10.6974
捨者善	-10.6974
應在	-10.6975
中前	-10.698
編	-10.6981
見彼	-10.6982
衣財	-10.6982
資身	-10.6984
今有	-10.6987
同意	-10.6989
本迷	-10.6989
聞是語已	-10.6992
本境	-10.6993
以辨	-10.6997
覆鉢	-10.6997
遊戲	-10.7001
信者	-10.7002
財寶	-10.7005
脇	-10.7008
使淨人	-10.7008
才	-10.7013
繩床	-10.7013
住此	-10.7014
我若	-10.7015
說恣	-10.7019
釋相	-10.702
一重	-10.702
樹葉	-10.702
初釋	-10.7022
而自	-10.7028
憂惱	-10.7029
著袈裟	-10.7034
除去	-10.7039
材	-10.7044
為首	-10.7044
勸令	-10.7045
阿修羅	-10.7054
難處	-10.7057
揲	-10.706
罷道	-10.706
殘食	-10.7061
餘皆	-10.7062
中夜	-10.7064
能滅	-10.7065
餘物	-10.7065
比丘得	-10.7068
十門	-10.7069
之間	-10.7069
祇桓	-10.7071
三拜	-10.7071
拾	-10.7072
釋上	-10.7072
作餘食法	-10.7073
合有	-10.7075
意識	-10.7076
祗	-10.7082
諸經	-10.7085
道者	-10.7085
結小界	-10.7086
勇猛	-10.7089
難緣	-10.7089
粟	-10.7096
在下	-10.71
故稱	-10.7102
飲水	-10.7103
鈍根	-10.7104
天女	-10.7107
憙	-10.7107
立制	-10.7108
寶物	-10.7109
萬歲	-10.7111
知彼	-10.7119
我以	-10.7121
過患	-10.7123
此是共戒	-10.7123
焚	-10.7124
價直	-10.7125
雪	-10.7129
騰	-10.7131
本師	-10.7131
相攝	-10.7133
無住處	-10.7136
猒	-10.7137
法式	-10.7137
受隨	-10.714
結成	-10.7143
道果	-10.7144
用之	-10.7145
則成	-10.7145
而入	-10.7148
無戒	-10.715
陣	-10.7158
肥	-10.7158
三途	-10.7162
耕	-10.7164
阿練若	-10.7165
若更	-10.7167
不宜	-10.7169
付囑	-10.7169
不放逸	-10.7171
勉	-10.7173
嘆	-10.7176
雪山	-10.7177
所列	-10.7179
煎	-10.718
童	-10.7181
大慈	-10.7183
亦如上說	-10.7185
然燈	-10.7192
別行	-10.7193
離衣宿	-10.7193
對面	-10.7194
三舉	-10.7197
響	-10.7201
智人	-10.7202
損害	-10.7202
園林	-10.7204
若不能	-10.7207
指示	-10.7211
忌	-10.7212
若教人	-10.7212
同類	-10.7214
男根	-10.7214
豈有	-10.7216
所修	-10.7225
具說	-10.7226
彼律	-10.7228
二義	-10.7231
如是言	-10.7232
礪云	-10.7237
王即	-10.7238
皆突吉羅	-10.7241
傍生	-10.7243
謀	-10.7243
其中有少欲知足	-10.7243
甞	-10.7243
是戒	-10.7246
歸依法	-10.7256
淨水	-10.7257
福業	-10.7258
不得為	-10.7259
上二	-10.7261
謂無	-10.727
與佛	-10.7271
我聞	-10.7272
七逆	-10.7272
三塗	-10.7272
重病	-10.7273
文三	-10.7275
受歲	-10.7282
有力	-10.7285
界中	-10.7285
還來	-10.7286
蠶	-10.7287
促	-10.7293
覺知	-10.7295
七非	-10.7296
受已	-10.7298
往白世尊	-10.7302
胡跪合掌	-10.7306
相貌	-10.7313
總舉	-10.7314
佉	-10.7317
醜	-10.732
共一	-10.7322
初二句	-10.7325
陷	-10.7326
露形	-10.7329
置地	-10.733
一乘	-10.7331
丸	-10.7332
頭上	-10.7332
善生	-10.7333
箇	-10.7333
能得	-10.7333
既得	-10.7336
同一說戒	-10.7337
聾	-10.7344
稱為	-10.7347
苗	-10.7361
爾時六群比丘	-10.7361
盡未來際	-10.7362
祇云	-10.7362
受十戒	-10.7363
引文	-10.7364
佛及僧	-10.7364
辛	-10.7372
求利	-10.7372
候	-10.7374
刪	-10.7376
教行	-10.7389
端嚴	-10.739
信敬	-10.7393
帖	-10.7393
如鈔	-10.7393
捕	-10.7394
亦如上	-10.7394
還復	-10.7395
捨財	-10.7396
得生	-10.7396
吞	-10.7397
修治	-10.74
方成本	-10.7402
於此處	-10.7405
宇	-10.7406
不死	-10.7409
著用	-10.741
上三	-10.7412
所防	-10.7412
具足戒	-10.7414
五年	-10.7415
所成	-10.7416
若實	-10.7418
諸苾芻尼	-10.7419
柔軟	-10.742
古今	-10.7422
互用	-10.7424
施食	-10.7424
一千	-10.7426
不結	-10.7428
六親	-10.7429
彈	-10.743
毫	-10.7431
方丈	-10.7433
殘宿	-10.7434
誰能	-10.7435
僧數	-10.7443
不應畜	-10.7448
初地	-10.7449
制限	-10.745
相從	-10.7451
應往	-10.7451
取水	-10.7455
▁七	-10.7466
為巳	-10.7466
所居	-10.7466
之益	-10.747
汝實作是事不	-10.7471
功用	-10.7471
劍	-10.7472
業疏	-10.7473
食處	-10.7476
謂前	-10.7478
欲殺	-10.7478
身分	-10.7481
云何名比丘	-10.7485
欲明	-10.7486
琉璃	-10.7491
長大	-10.7492
制令	-10.7496
後明	-10.7497
三性	-10.7498
則非	-10.7498
文字	-10.7512
一切諸	-10.7513
初科	-10.7522
輕者	-10.7525
僧已與	-10.753
若檀越	-10.7531
須提那	-10.7532
既非	-10.7533
丈	-10.7541
戒德	-10.7547
聞是事心不喜	-10.7549
從生	-10.7552
別相	-10.7552
穴	-10.7553
繼	-10.7555
有益	-10.7561
下正	-10.7565
故經云	-10.7567
思念	-10.7569
一界	-10.757
通別	-10.757
能受	-10.7572
業障	-10.7573
顏	-10.758
秊	-10.7582
當須	-10.7586
生生	-10.7588
善戒	-10.7591
後方	-10.7594
下別釋	-10.7594
領受	-10.7596
是名五	-10.7597
空處	-10.7599
偈曰	-10.7601
伎樂	-10.7603
順教	-10.7607
何者是	-10.761
名色	-10.7613
已還	-10.7614
應持	-10.7615
優陀夷	-10.763
非餘	-10.763
古來	-10.7631
偏露右肩	-10.7637
笈多	-10.7643
為淨	-10.7648
被舉	-10.765
惡性	-10.7651
突吉羅罪	-10.7653
有幾	-10.7654
性空	-10.7655
彼文	-10.7656
受佛戒	-10.7664
酤酒	-10.7665
然則	-10.7666
把	-10.7668
初敘	-10.7668
然而	-10.767
得重	-10.7671
三十日	-10.7673
環	-10.7676
大德僧伽聽	-10.7676
聖制	-10.7676
急施衣	-10.7677
輕物	-10.7678
此身	-10.7678
失受	-10.768
唯局	-10.7681
利根	-10.7684
殺心	-10.7685
信受	-10.7685
又下	-10.7686
克	-10.7687
所住	-10.7689
器中	-10.769
責心	-10.7691
本來	-10.7691
僧為	-10.7695
為難	-10.7695
具云	-10.7696
梵行難	-10.7697
正信	-10.7697
眾苦	-10.7699
得提	-10.7704
稀	-10.7706
得大	-10.7713
譬喻	-10.7713
所被	-10.7715
逝多林	-10.772
不學無知	-10.772
起過	-10.7721
正義	-10.7721
僧臥具	-10.7723
嚴飾	-10.7723
墨	-10.7724
圍遶	-10.7724
聖眾	-10.7724
無力	-10.7725
欲往	-10.7725
生時	-10.7726
不免	-10.7733
不教	-10.7737
歸依佛	-10.7743
此諸	-10.7745
並同	-10.7749
解界	-10.7751
不攝	-10.7752
拏	-10.7754
名相	-10.7754
勝妙	-10.7754
壓	-10.7754
多種	-10.7755
本性	-10.7756
三身	-10.7756
若多	-10.7757
故犯	-10.7758
有十種	-10.776
為最	-10.7762
十力	-10.7763
明了論	-10.7763
正覺	-10.7765
維	-10.7765
隨情	-10.7767
今初	-10.7768
當得	-10.7768
不恭敬	-10.777
此女	-10.7771
別解	-10.7771
自念	-10.7775
軍中	-10.7776
門外	-10.7777
違制	-10.7777
篇中	-10.7781
異故	-10.7781
號為	-10.7787
第一義諦	-10.7788
比丘來	-10.7789
化作	-10.7792
更作	-10.7795
初標	-10.7796
語已	-10.7797
在界內	-10.7798
中下	-10.78
嫁	-10.7803
偶	-10.7805
二禪	-10.7806
焰	-10.7812
餘一切	-10.7812
疲極	-10.7812
反此	-10.7813
受我	-10.7814
合成	-10.7817
濟云	-10.7825
殺盜	-10.7826
往語	-10.7827
則能	-10.7828
即指	-10.7829
其意	-10.7831
更得	-10.7837
毀犯	-10.7839
我知	-10.7839
從坐起	-10.7841
得突吉羅罪	-10.7845
涅槃云	-10.7849
受戒時	-10.7851
二緣	-10.7852
不乞	-10.7853
邊地	-10.7856
陀羅	-10.7857
言我	-10.7857
三四	-10.7859
中後	-10.7859
疾疾	-10.7859
還至	-10.7862
齊整	-10.7862
炎	-10.7865
從今日後	-10.7871
和上尼某甲	-10.7872
巨	-10.7873
殺母	-10.7875
為四	-10.7875
比丘戒	-10.7875
別解脫	-10.7877
府	-10.7878
肅	-10.788
食後	-10.7884
損壞	-10.7886
今且	-10.7886
尚不	-10.7886
上有	-10.7889
是故說	-10.789
教誡比丘尼	-10.7893
既至	-10.7893
請法	-10.7894
後至	-10.7896
為我作	-10.7896
塚間	-10.79
不和	-10.7901
說偈	-10.7902
得與	-10.7903
彼有	-10.7913
非比丘	-10.7914
見道	-10.7916
香華	-10.7916
師曰	-10.7918
得窣吐羅底也	-10.7919
習學	-10.7921
欺誑	-10.7921
行惡行	-10.7929
在世	-10.793
一身	-10.7931
敬禮	-10.7933
管	-10.7934
有諸	-10.7935
悲心	-10.7936
籬	-10.7939
初緣	-10.7939
破和合僧	-10.7943
餓	-10.7944
此意	-10.7945
善解	-10.7946
筒	-10.7946
語彼	-10.7949
進修	-10.7949
自誓	-10.795
上聲	-10.7952
非親里比丘尼	-10.7954
不能自	-10.7954
然火	-10.7955
噉食	-10.7959
相傳	-10.7964
受大	-10.7965
剪	-10.7968
頸	-10.7971
不成受	-10.7971
身相觸	-10.7972
開示	-10.7972
負債	-10.7976
上中下	-10.7976
問其	-10.7978
以事	-10.798
▁初標示	-10.798
求出家	-10.7983
起心	-10.7984
大姊	-10.7989
共諍	-10.799
七佛	-10.7993
植	-10.7995
禽獸	-10.7997
佛出世	-10.7998
二部僧	-10.8003
問難	-10.8004
今若	-10.8004
作憶念	-10.8007
同於	-10.8008
即非	-10.8009
略教	-10.801
敷座	-10.801
樹上	-10.8017
非律	-10.8018
世尊制戒	-10.8018
六聚	-10.8019
瞻視	-10.802
別房	-10.802
唱相	-10.8023
慈愍	-10.8024
開解	-10.8024
今從	-10.8031
隨有	-10.8033
鮮	-10.8035
人來	-10.8036
既知	-10.8037
污他家	-10.8043
得阿羅漢	-10.8045
巖	-10.8048
真俗	-10.8049
躬	-10.805
兩邊	-10.8051
業疏云	-10.8052
上妙	-10.8052
疑心	-10.8053
惡比丘	-10.8056
又二	-10.8058
受功德衣	-10.8073
作三衣	-10.8075
精勤	-10.8076
是諸	-10.8079
十二因緣	-10.808
何謂為	-10.8083
強力	-10.8084
死後	-10.8084
錫杖	-10.8085
回向	-10.8085
十方諸佛	-10.8085
便以	-10.8089
六念	-10.8089
通結	-10.809
兩頭	-10.8092
哩	-10.8093
得用	-10.8094
浣染打	-10.8098
直五錢	-10.8098
日數	-10.8105
不病	-10.8108
王所	-10.8109
長者子	-10.811
始從	-10.8119
著革屣	-10.8121
枝葉	-10.8122
無染	-10.8123
或自	-10.8124
四五	-10.8125
不處分	-10.8128
以顯	-10.813
五百人	-10.8133
羞	-10.8135
釋之	-10.8136
國中	-10.8137
得福	-10.8137
惡說	-10.8138
應白	-10.8141
不好	-10.8141
違逆	-10.8143
新衣	-10.8143
二分	-10.8146
並須	-10.8146
師資	-10.8158
快樂	-10.8161
滅後	-10.8162
榮	-10.8162
九月	-10.8163
此間	-10.8163
僧伽伐尸沙	-10.8165
鑒	-10.8167
汝應	-10.8167
結之	-10.8167
邪婬	-10.8168
綺語	-10.8177
朱	-10.8179
耆	-10.818
別列	-10.8181
床座	-10.8182
汝所	-10.8185
已說	-10.8185
先解	-10.8185
親族	-10.8186
小小	-10.8186
▁二釋	-10.819
校	-10.8194
縱有	-10.8195
之教	-10.8197
變為	-10.8199
皆從	-10.82
得此	-10.82
皆同	-10.8202
層	-10.8203
故此	-10.8204
所持	-10.8205
賴	-10.8205
俾	-10.821
作婬	-10.8211
將至	-10.8215
以一	-10.8216
一脚	-10.8219
應自	-10.822
罪業	-10.8222
輪迴	-10.8222
其文	-10.8226
八指	-10.8231
炙	-10.8232
罪名	-10.8236
忿	-10.8236
修羅	-10.8237
菴	-10.8239
▁初正明	-10.8243
成者	-10.8244
應畜	-10.8249
或名	-10.8249
蒲	-10.825
當自	-10.8252
得清淨	-10.8252
罪處所	-10.8253
十三難	-10.8258
聽我	-10.8262
不作餘食法	-10.8263
故說	-10.8265
永斷	-10.8267
無色	-10.8267
集會	-10.827
不破	-10.8273
若用	-10.8275
不悔	-10.8279
白衣舍	-10.8283
荒	-10.8283
皆不	-10.8283
言之	-10.8283
奏	-10.8285
頭面禮足在一面坐	-10.8286
得利	-10.8288
戒為	-10.8291
漂	-10.8291
同此	-10.8293
應隨	-10.8296
研	-10.8296
執事人	-10.8299
正解	-10.83
不周	-10.8302
為五	-10.8302
諸比丘不知云何	-10.8305
情過	-10.8309
所由	-10.8311
露處	-10.8311
現前僧	-10.8314
能知	-10.8315
麤惡	-10.8315
為勝	-10.8316
容有	-10.8317
者何	-10.8317
為主	-10.8317
斷除	-10.8319
人等	-10.832
好者	-10.8324
時婆羅門	-10.8325
不覆	-10.8328
添	-10.8331
當先	-10.8334
釋名者	-10.8336
梵網經	-10.8338
王宮	-10.8338
長夜	-10.834
金錢	-10.8342
。『	-10.8342
力士	-10.8344
造房	-10.8345
沙門婆羅門	-10.8348
對眾	-10.8349
以緣白佛	-10.835
或在	-10.8351
淨信	-10.8353
諸餘	-10.8354
飢渴	-10.8355
先須	-10.8356
若非	-10.8357
二重	-10.8359
隨逐	-10.836
奪取	-10.8362
廣釋	-10.8364
彼岸	-10.8365
礪	-10.8365
所宜	-10.8366
即取	-10.8368
文略	-10.8368
解也	-10.8369
諸比丘以是因緣往白世尊	-10.8373
撮	-10.8375
刃	-10.8379
輿	-10.8382
正業	-10.8383
不由	-10.8383
之日	-10.8387
巳竟	-10.8388
何能	-10.8388
一住處	-10.8389
涅槃經	-10.8389
污家	-10.839
之儀	-10.8391
辛苦	-10.8391
因制	-10.8393
當受	-10.8394
又此	-10.8397
自稱言	-10.8397
餘有	-10.8399
作非法	-10.8399
無色界	-10.8402
仗	-10.8405
▁二初下	-10.8406
僕	-10.8407
盧舍那	-10.841
故成	-10.8411
完	-10.8411
怠	-10.8418
比丘不得	-10.8419
體相	-10.842
生處	-10.8422
䨱	-10.8423
制也	-10.8435
必無	-10.8438
出去	-10.8439
寶藏	-10.8445
過受	-10.8445
貝	-10.8447
以何	-10.8447
羅云	-10.8448
等四	-10.8449
二歲學戒	-10.8451
之身	-10.8452
床褥	-10.8453
孔雀	-10.8453
清涼	-10.8453
非色	-10.8456
午	-10.8456
二宿	-10.846
三問	-10.8464
作諸	-10.8468
滅罪	-10.8471
云何名比丘尼	-10.8472
四中	-10.8477
失戒	-10.848
離過	-10.8482
人皆	-10.8485
法服	-10.8487
捺	-10.8489
正宗	-10.8489
而今	-10.8489
化眾生	-10.849
七支	-10.8491
雄	-10.8494
獲得	-10.8494
妙覺	-10.8496
成實	-10.8497
二比丘	-10.8498
討	-10.8501
有人云	-10.8501
佛前	-10.8501
俱得	-10.8501
朗	-10.8505
隋	-10.8511
說是	-10.8512
不妄語	-10.8514
宜可	-10.8515
若從	-10.8515
唯願世尊	-10.8517
慧命	-10.8519
從初	-10.8522
極重	-10.8523
蓮	-10.8526
正理	-10.8529
無智	-10.853
事須	-10.8531
謂從	-10.8531
懃	-10.8536
辨相	-10.8536
達摩	-10.8543
承事	-10.8546
包	-10.8546
故使	-10.8546
缽	-10.8547
口說	-10.8549
與諸	-10.855
所在	-10.855
唯是	-10.8558
為僧作	-10.856
告諸苾芻	-10.8561
離合	-10.8568
道人	-10.857
二衣	-10.857
自恣時	-10.857
法體	-10.8576
縱廣	-10.8581
即還	-10.8581
少年	-10.8582
杙	-10.8582
跋難陀釋子	-10.8585
允	-10.8585
易得	-10.8591
香花	-10.8594
六識	-10.8595
諸臣	-10.8597
三有	-10.8597
乞食比丘	-10.8598
章中	-10.8599
他方	-10.8599
水陸	-10.8606
自分	-10.8607
斷命	-10.8609
不重	-10.8614
遮難	-10.8614
未受	-10.8619
愛念	-10.862
彩	-10.862
崩	-10.8622
聰	-10.8623
三分	-10.8628
堅持	-10.8632
雅	-10.8634
用也	-10.8634
而死	-10.8636
理合	-10.8638
羯磨法	-10.8641
報身	-10.8643
更有餘	-10.8644
所立	-10.8645
緣故	-10.8646
初心	-10.8647
得吉	-10.8647
小罪	-10.8653
事訖	-10.8654
約事	-10.8658
熾盛	-10.8659
月八日	-10.866
莫令	-10.8661
可食	-10.8664
之詞	-10.8665
除餘時	-10.8666
熾然	-10.8667
滿五	-10.8672
善見律云	-10.8677
四面	-10.8677
逕	-10.8679
洪	-10.8679
為其	-10.8681
若捉	-10.8686
殺戒	-10.8688
設有	-10.8689
犯僧伽婆尸沙	-10.869
皆言	-10.8694
此是我	-10.8698
即無	-10.8703
身上	-10.8704
羯磨人	-10.8704
牢	-10.8705
性戒	-10.8707
庭	-10.8707
廣略	-10.8707
令出	-10.871
犯諍	-10.8711
修證	-10.8712
律論	-10.8713
相承	-10.8715
▁初約	-10.8715
。」【○	-10.8715
見比丘	-10.8718
宰	-10.872
二篇	-10.872
徑	-10.872
七夜	-10.8722
犍	-10.8723
二歲	-10.8723
生信	-10.8724
肩上	-10.873
更求	-10.8733
過七日	-10.8735
至僧中	-10.8735
生於	-10.8736
伽他	-10.8737
詩	-10.8738
二約	-10.8739
明相未出	-10.874
全無	-10.8741
有違	-10.8746
三果	-10.8747
思量	-10.8748
謙	-10.8749
時至	-10.875
四波羅夷	-10.8751
若就	-10.8752
鞞	-10.8755
自然界	-10.8758
泥薩祇波逸底迦	-10.8759
為護	-10.8761
漏失	-10.8761
=	-10.8761
律教	-10.8763
已上	-10.8766
善巧	-10.8769
須彌山	-10.8771
醫人	-10.8772
伎	-10.8777
外相	-10.878
坐者	-10.8781
輕垢	-10.8782
知非	-10.8786
鈔中	-10.8788
有斯	-10.879
低	-10.879
說悔	-10.8791
前來	-10.8796
何等為	-10.8798
防護	-10.88
巳前	-10.8805
事也	-10.8808
稱量	-10.8809
別明	-10.8814
盧舍那佛	-10.8815
糧	-10.8818
八人	-10.8821
庫藏	-10.8823
虫水	-10.8824
應起	-10.8826
凡所	-10.8829
損減	-10.8831
異者	-10.8834
尼寺	-10.8841
顏色	-10.8844
人女	-10.8846
昭	-10.8851
若死	-10.8852
正教	-10.8853
無此	-10.8854
五六	-10.8854
天地	-10.8857
浪	-10.8857
性罪	-10.8857
七歲	-10.886
師教	-10.887
慇懃	-10.8871
制其學處	-10.8874
諸煩惱	-10.8875
水洗	-10.888
諂	-10.8885
而用	-10.8888
若入	-10.8889
皆成	-10.8889
在家菩薩	-10.8891
其母	-10.8892
尼僧	-10.8897
語云	-10.8901
說罪	-10.8901
是犯	-10.8904
楊	-10.8911
略也	-10.8911
古云	-10.8914
二犯	-10.8918
求索	-10.8918
反前	-10.8919
瘦	-10.892
知有	-10.8925
心懷	-10.8927
。●	-10.8928
為先	-10.8929
恐有	-10.8936
等是也	-10.8937
床上	-10.8938
轉輪王	-10.8938
何異	-10.894
震	-10.894
次解	-10.8941
皇	-10.8943
種性	-10.8945
緒	-10.8948
不得著	-10.895
阿那含	-10.8952
結者	-10.8957
嚼	-10.8961
半月半月	-10.8961
說十	-10.8965
祇洹	-10.8966
違理	-10.8969
還本	-10.8972
所執	-10.8974
厄	-10.8976
同見	-10.8976
一切突吉羅	-10.8977
諸佛子	-10.898
不犯中	-10.8981
方等	-10.8982
無慚	-10.8982
聞此	-10.8982
相觸	-10.8984
喻如	-10.8985
問諸比丘	-10.8985
未作	-10.8985
▁二就下	-10.8988
三心	-10.8991
者不犯	-10.8992
經營	-10.8992
等三	-10.8993
者是也	-10.8995
之地	-10.8999
利生	-10.9001
天龍	-10.9001
作之	-10.9002
常法	-10.9006
億耳	-10.9012
成受	-10.9014
三義	-10.9015
疑悔	-10.9016
不安	-10.9019
於戒	-10.9021
不思	-10.9022
中初科初	-10.9022
戀	-10.9025
捨法	-10.9032
他勝	-10.9033
三十三天	-10.9036
辯才	-10.9036
念處	-10.9038
常有	-10.9039
監	-10.9039
疑惑	-10.9047
我家	-10.9047
布薩時	-10.9053
便去	-10.9054
如非	-10.9062
四指	-10.9065
非梵行	-10.9065
低頭	-10.9071
南方	-10.9073
潛	-10.9074
得不	-10.9074
詰問	-10.9075
開聽	-10.9075
為受	-10.9078
良以	-10.9079
犯捨	-10.908
所立戒	-10.9086
四諍	-10.9087
毘奈耶	-10.9092
送食	-10.9095
四藥	-10.9099
是大	-10.91
三十九	-10.9102
無差別	-10.9105
到彼	-10.9106
翻譯	-10.9107
佛因	-10.9109
文相	-10.9109
我說	-10.9109
相接	-10.9111
後一	-10.9111
法衣	-10.9113
佛寶	-10.9114
是初羯磨	-10.9118
同心	-10.9118
今鈔	-10.9118
二不定	-10.9119
之前	-10.912
天雨	-10.9121
依文	-10.9121
大小乘	-10.9122
域	-10.9123
塵沙	-10.9126
提婆達	-10.9127
淨潔	-10.913
初舉	-10.9133
日得衣	-10.9133
若他	-10.9134
事同	-10.9135
殺父	-10.9136
四行	-10.9136
五百問	-10.9137
徐	-10.9139
拍	-10.914
耆闍崛山	-10.9141
秦言	-10.9145
大集	-10.9146
在彼	-10.9146
未起	-10.9148
奪衣	-10.9148
即失	-10.9149
汝何	-10.9149
十法	-10.915
大目連	-10.9154
)。○	-10.9156
持食	-10.9157
啼	-10.9158
止息	-10.9159
波夜提者	-10.9163
隱沒	-10.9163
得取	-10.9166
此篇	-10.9167
汝實	-10.9169
釋文	-10.917
阿毗曇	-10.917
若如是者	-10.9175
一體	-10.9177
住世	-10.9179
解義	-10.9179
是實	-10.9183
九者	-10.9183
大同	-10.9183
淚	-10.9187
出血	-10.9187
所發	-10.9189
故立	-10.919
衛	-10.9191
具有	-10.9192
身子	-10.9192
論議	-10.9193
已後	-10.92
當言	-10.9201
之上	-10.9202
處坐	-10.9202
不息	-10.9204
應從	-10.9209
通明	-10.921
業者	-10.9214
宿命	-10.9217
經行處	-10.9217
大意	-10.9223
一面	-10.9225
希望	-10.9227
過也	-10.9229
不除	-10.9229
巳得	-10.9237
漬	-10.9244
黑白	-10.9247
緣也	-10.9248
發生	-10.925
安樂住	-10.9252
薑	-10.9255
苦海	-10.9259
駈	-10.926
流出	-10.9262
止觀	-10.9265
門徒	-10.9267
犯長	-10.9267
道法	-10.9272
傳云	-10.9273
手印	-10.9274
七聚	-10.9275
無文	-10.9278
分物	-10.928
白巳	-10.9283
往看	-10.9285
問所以	-10.9287
所施	-10.9289
具儀	-10.9291
惡言	-10.9292
出體	-10.9294
若不知	-10.9297
墮三惡道	-10.93
淳	-10.93
誰諸長老忍僧	-10.9305
級	-10.9305
座上	-10.9312
三惡道	-10.9312
不受持	-10.9313
內凡	-10.9313
病苦	-10.9315
後三	-10.9315
種種因緣呵責	-10.9315
律儀戒	-10.9318
一往	-10.9318
受時	-10.9319
不殊	-10.932
譯為	-10.932
勝義	-10.9321
四天下	-10.9323
1	-10.9324
諸國	-10.9324
不失衣	-10.9325
上法	-10.9326
當云何	-10.9328
共成	-10.9329
最為	-10.9331
三十五	-10.9333
聖果	-10.9333
得見	-10.9335
姉	-10.9337
是別	-10.9337
房內	-10.9338
佛語諸比丘	-10.934
稱之	-10.9341
別者	-10.9342
略無	-10.9343
故令	-10.9345
姑	-10.9347
佛知	-10.9348
同戒	-10.9349
賈客	-10.935
康	-10.9353
選	-10.9353
韋	-10.9354
不得過	-10.9354
淨穢	-10.9355
而未	-10.9355
舊住	-10.9356
煙	-10.9361
倒地	-10.9361
與上	-10.9361
酥油	-10.9362
若一人	-10.9365
與諸比丘	-10.9369
善人	-10.9369
沙門瞿曇	-10.9371
請問	-10.9375
便起	-10.9375
實有	-10.9377
搩手	-10.9384
荼	-10.9384
義者	-10.9388
理實	-10.9388
有五百	-10.939
掉	-10.939
後得	-10.9391
三禪	-10.9393
未足	-10.9395
少許	-10.9395
流轉	-10.9396
搆	-10.9403
為惡	-10.9406
一切有情	-10.9408
不名為	-10.9409
三宿	-10.941
憶持	-10.9412
云何為	-10.9412
以佛	-10.9416
不看	-10.9419
欲與	-10.9421
故妄語	-10.9422
『	-10.9422
六人	-10.9424
夫主	-10.9425
生草	-10.9427
沙彌戒	-10.9428
清淨者	-10.9429
應滅擯	-10.9431
椎	-10.9433
正文	-10.9433
壯	-10.9437
常生	-10.9437
何由	-10.9439
不同者	-10.944
學悔	-10.944
伊	-10.9442
二百五十	-10.9443
中央	-10.9444
而後	-10.9444
色相	-10.9449
忉利天	-10.9451
何等五	-10.9452
來求	-10.9453
聞者	-10.9456
對事	-10.9456
縣	-10.9457
說伽他曰	-10.9459
為伴	-10.9459
化教	-10.9461
理觀	-10.9462
行善	-10.9466
作何	-10.9469
雷	-10.947
兩手	-10.947
決斷	-10.9472
賀	-10.9474
釋也	-10.9475
准律	-10.9475
不應為說法	-10.9476
標相	-10.9476
大乘同學	-10.9478
策	-10.9481
頂上	-10.9481
物主	-10.9484
貸	-10.949
削	-10.9494
隆	-10.9495
之性	-10.9499
有殘	-10.9501
阿浮呵那	-10.9502
廣解	-10.9502
知而	-10.9503
位中	-10.9504
鬬諍	-10.9505
共食	-10.9507
之戒	-10.9507
畜長衣	-10.9511
得畜	-10.9511
不得入	-10.9515
請師	-10.9516
空地	-10.9517
牽出	-10.9517
難可	-10.9519
戒定慧	-10.952
犯盜	-10.9521
准上	-10.9522
涕唾	-10.9522
執持	-10.9523
一字	-10.9524
旃陀羅	-10.9524
第十一	-10.9525
與某甲比丘	-10.953
紹	-10.9534
奔	-10.9534
即下	-10.9534
利物	-10.9536
本制	-10.9536
但取	-10.9537
能詮	-10.9538
牛羊	-10.954
循	-10.954
處也	-10.954
來往	-10.954
觸惱	-10.9546
為諸比丘	-10.9548
尼師檀	-10.9553
持來	-10.9553
由心	-10.9557
在心	-10.9561
後四	-10.9562
離諸	-10.9567
至佛所	-10.9568
女根	-10.9571
不勞	-10.9573
不足數	-10.9575
淨故	-10.9575
不愛	-10.9575
歸依僧	-10.9578
其婦	-10.9579
不應分	-10.9581
滅盡	-10.9581
鞭	-10.9581
隅	-10.9581
一切諸法	-10.9584
色聲	-10.9584
今下	-10.9586
十二年	-10.9588
亦隨	-10.959
舉手	-10.959
下三眾	-10.9593
合作	-10.9594
比丘犯	-10.9595
我自	-10.9595
為比丘	-10.9597
斯陀含	-10.9602
若菩薩	-10.9605
於世	-10.9606
各異	-10.9606
雖然	-10.9608
摩那	-10.9609
勝法	-10.9612
愚人	-10.9612
答中初	-10.9613
妨難	-10.9613
四十八	-10.9614
即同	-10.9617
四十二	-10.9618
相望	-10.9618
者得越法罪	-10.962
挽	-10.9622
二三人	-10.9626
摶	-10.9628
眼見	-10.9629
中文二	-10.9632
都不	-10.9633
愛道	-10.9635
儻	-10.9635
方犯	-10.9638
賓云	-10.9639
而復	-10.9639
眾行	-10.964
非我	-10.9642
當取	-10.9642
作事	-10.9643
約心	-10.9646
設食	-10.9648
迦提	-10.9649
持刀	-10.965
我今欲	-10.965
通收	-10.965
軌則	-10.9651
華果	-10.9653
破僧事	-10.9653
山中	-10.9657
熱時	-10.9659
廣長	-10.9662
僧伽胝	-10.9663
架	-10.9671
簡異	-10.9674
觀心	-10.9676
未具	-10.9676
資具	-10.9676
巷	-10.9677
百劫	-10.9677
中云	-10.9678
方為	-10.9682
證知	-10.9683
邊方	-10.9684
今文	-10.9684
苦報	-10.9684
起塔	-10.9685
非但	-10.9686
所聞	-10.9687
與出家	-10.9687
三摩地	-10.9689
錫	-10.969
浴室	-10.9691
答此	-10.9692
得聞	-10.9693
敬信	-10.9693
我今當	-10.9693
得越比尼罪	-10.9695
頂禮佛足	-10.9696
話	-10.9697
猶有	-10.9697
在道	-10.97
領納	-10.97
隨覆藏	-10.97
年少比丘	-10.9701
具三	-10.9703
等緣	-10.9704
聞巳	-10.9705
憍薩羅國	-10.9708
摩訶羅	-10.971
圓教	-10.9713
亦能	-10.9713
入手	-10.9714
雖多	-10.9716
起去	-10.9716
朽	-10.9717
水火	-10.9718
取之	-10.9719
鵝	-10.9721
耆婆	-10.9722
隨力	-10.9727
踏	-10.9728
祿	-10.9729
舞	-10.973
哭	-10.973
寮	-10.9736
犯夷	-10.9736
耻	-10.9738
陀那	-10.9738
成熟	-10.9739
欽	-10.974
證得	-10.974
別立	-10.9744
人之	-10.9744
先與	-10.9746
無問	-10.9748
共坐	-10.9753
以事白佛	-10.9753
若不捨者	-10.9755
洗淨	-10.9756
應學	-10.9757
不應為	-10.9757
之果	-10.9758
涅槃經云	-10.976
白色	-10.9761
提舍	-10.9762
堅牢	-10.9769
受人	-10.9771
大賊	-10.9774
同僧	-10.9774
上卷	-10.9777
長跪	-10.9778
嗅	-10.9779
蔭	-10.9781
讓	-10.9784
提舍尼	-10.9785
城門	-10.9788
用此	-10.979
設供	-10.9791
生長	-10.9797
比丘舉過	-10.9799
不受諫	-10.9801
今世	-10.9801
故重	-10.9803
受此	-10.9805
出門	-10.9807
第三十	-10.9808
嚼楊枝	-10.9812
破安居	-10.9813
不與人	-10.9813
出罪羯磨	-10.9814
即生	-10.9814
作戒	-10.9814
比丘所	-10.9816
十事	-10.9817
欲取	-10.9817
顯示	-10.9819
第一義	-10.9822
苑	-10.9822
出息	-10.9823
千百億釋迦	-10.9825
算	-10.9826
枉	-10.9826
人言	-10.9827
佛在舍衛	-10.9827
涼	-10.9828
閻浮	-10.9829
額	-10.9832
前云	-10.9836
多生	-10.9837
釋迦牟尼	-10.9837
餘戒	-10.9838
犯輕垢	-10.9839
歸命	-10.9839
自往	-10.9841
吳	-10.9841
狂癡	-10.9842
業力	-10.9843
章云	-10.9844
一苾芻	-10.9845
轉根	-10.985
賢善	-10.9851
時諸苾芻以緣白佛	-10.9853
此語	-10.9854
罪人	-10.9858
提罪	-10.9858
凡是	-10.9861
三十七	-10.9862
栴檀	-10.9862
幡	-10.9862
三十二相	-10.9863
亦為	-10.9865
十年	-10.9867
鳩	-10.9868
捨與	-10.987
在界外	-10.9871
亂心	-10.9872
說文云	-10.9872
唯佛	-10.9876
三由旬	-10.9876
伽陀	-10.9876
咸皆	-10.9877
襵	-10.9878
本主	-10.9879
陶	-10.9882
夢中	-10.9886
能發	-10.9887
十信	-10.9888
不飲酒	-10.9888
異界	-10.9891
入地獄	-10.9891
即今	-10.9892
彌陀	-10.9893
王位	-10.9894
成佛道	-10.9894
往詣佛所	-10.9897
阿姨	-10.9897
具如	-10.9898
所問	-10.9902
不與欲	-10.9908
敷臥具	-10.9909
吐羅難陀	-10.9909
緣起處	-10.9909
態	-10.991
▁二問	-10.9914
飽滿	-10.9915
次問	-10.9917
無想	-10.9918
此門	-10.9918
謂不	-10.9919
分與	-10.9919
其名	-10.9921
尖	-10.9923
一錢	-10.9924
直爾	-10.9924
富貴	-10.9927
第十三	-10.9927
本法	-10.993
願我	-10.9931
明也	-10.9933
在上	-10.9937
阿毘曇	-10.9937
立義	-10.994
四十九	-10.9943
不成就	-10.9943
時有一	-10.9945
九日	-10.9947
百二十	-10.9948
即能	-10.9953
客比丘來	-10.9957
西土	-10.9957
治罸	-10.9959
禿	-10.9959
所化	-10.9963
入水	-10.9963
爾者	-10.9967
教中	-10.9973
臭穢	-10.9974
制止	-10.9975
汗	-10.9977
但令	-10.9978
受戒法	-10.998
鬱多羅僧	-10.9981
以物	-10.9981
用心	-10.9981
還歸	-10.9982
准知	-10.9984
住於	-10.999
未出	-10.9992
欲去	-10.9992
不順	-10.9994
他比丘	-10.9996
助成	-10.9998
二邊	-10.9998
教師	-10.9999
相去	-10.9999
事非	-11.0001
入城乞食	-11.0005
難提	-11.001
不禮	-11.001
歌舞	-11.0011
憎	-11.0013
屑	-11.0013
下舉	-11.0014
未可	-11.0019
千年	-11.002
為業	-11.0027
且止	-11.0029
軸	-11.003
匿	-11.0033
析	-11.0036
我慢	-11.0038
優波難陀	-11.0039
以此事	-11.004
汝諸苾芻	-11.0044
作成	-11.0044
生地	-11.0045
故文云	-11.0045
謗三寶	-11.0048
大智	-11.005
之別	-11.0052
有別	-11.0054
白已	-11.006
如似	-11.0061
菩提樹下	-11.0064
去來	-11.0067
偷蘭罪	-11.0069
且舉	-11.0069
槌	-11.0069
徐徐	-11.0069
之德	-11.007
之徒	-11.0073
護戒	-11.0075
結勸	-11.0076
乞衣	-11.0076
匙	-11.0079
年歲	-11.0079
今僧	-11.008
罪重	-11.0081
併	-11.0084
劇	-11.0085
一切時	-11.0085
漸次	-11.0088
與女	-11.0088
逾	-11.0089
羯磨文	-11.009
七月	-11.009
無復	-11.0092
事起	-11.0095
外國	-11.0097
即時	-11.0101
諮	-11.0102
若準	-11.0104
疲	-11.0106
定心	-11.0113
本文	-11.012
持衣鉢	-11.0123
謂能	-11.0125
總是	-11.0125
法王	-11.0126
逃	-11.0127
慳貪	-11.0127
霑	-11.0129
離宿	-11.0129
後心	-11.013
惠施	-11.0131
勸化	-11.0132
欠	-11.0132
富羅	-11.0133
籍	-11.0134
倣	-11.0135
異熟	-11.0137
比丘尼波逸提	-11.0139
非釋種女	-11.0143
布薩日	-11.0144
早起	-11.0146
在一面坐	-11.0146
日沒	-11.0149
出家之人	-11.0156
身相	-11.0156
更互	-11.0157
便於	-11.0158
若不悔過	-11.0159
難知	-11.0159
資持	-11.016
忽然	-11.0161
墮惡道	-11.0163
往白佛	-11.0167
並無	-11.0168
貪愛	-11.0169
僧今與	-11.0169
文四	-11.0172
自念言	-11.0173
誰當	-11.0173
正食	-11.0173
澡豆	-11.0176
食噉	-11.0177
眾集	-11.0178
為成	-11.0178
若捨	-11.0179
人語	-11.018
在道行	-11.018
泛	-11.0182
訪	-11.0183
正制	-11.0184
謂上	-11.0184
朋	-11.0185
踐	-11.0185
之衣	-11.0186
孝順心	-11.0187
鄉	-11.0188
▁二今下	-11.0189
鷄	-11.0191
行乞食	-11.0192
其過	-11.0193
舉事	-11.0193
施衣時	-11.0198
假使	-11.0198
聖凡	-11.0201
入佛	-11.0202
得波羅市迦	-11.0204
誦者	-11.0204
食巳	-11.0206
罵詈	-11.0208
銅鐵	-11.021
根性	-11.0211
白法	-11.0211
若我	-11.0212
到已	-11.0212
得失	-11.0213
稚	-11.0214
起緣人	-11.0218
阿練若處	-11.0218
之辭	-11.0222
棺	-11.0233
麗	-11.0233
捨迦絺那衣	-11.0234
是所	-11.0234
斷惑	-11.0234
王家	-11.0235
度眾生	-11.0235
之子	-11.0235
位也	-11.0236
為樂	-11.0237
妄想	-11.0237
舟	-11.0239
邊罪	-11.0245
法竟	-11.0247
三節	-11.025
餘方	-11.0252
不念	-11.0258
之一	-11.0261
相隨	-11.0262
塹	-11.0265
中有三	-11.0265
筋	-11.0269
我無	-11.0269
可不	-11.0274
顛狂	-11.0275
乞法	-11.0277
菩提樹	-11.0279
見罪	-11.0279
威力	-11.0282
便為	-11.0284
曜	-11.0285
同一住處	-11.0285
不憶數	-11.0285
口法	-11.0285
寬狹	-11.0286
彼國	-11.0287
佛以種種因緣呵責	-11.0287
遂即	-11.0288
持欲	-11.0289
時尊者	-11.0291
黎	-11.0292
紅	-11.0294
多分	-11.0295
宏	-11.0296
手中	-11.0299
往到	-11.03
五歲	-11.0302
義理	-11.0303
之甚	-11.0306
斷絕	-11.0307
依正	-11.0308
覆瘡衣	-11.0308
三十四	-11.031
向人說	-11.0315
教相	-11.0316
後學	-11.0317
啼哭	-11.0318
詣佛所	-11.032
俱無	-11.032
下坐	-11.0321
在何處	-11.0322
心起	-11.0324
次下	-11.0325
自今巳去	-11.0325
大尼	-11.0327
生厭離	-11.0327
有四句	-11.0331
示相	-11.0331
逮	-11.0331
致敬	-11.0335
有輕重	-11.0336
懺謝	-11.0342
開制	-11.0345
治病	-11.0345
欲樂	-11.0346
小眾	-11.0348
先以	-11.0351
化生	-11.0354
在外	-11.0356
不具足	-11.0359
食家	-11.0359
皆不犯	-11.0359
俗諦	-11.036
聞聲	-11.036
好衣	-11.0361
請比丘	-11.0364
師所	-11.0365
▁初標章	-11.0368
三寶物	-11.0369
覓諍	-11.037
若有比丘	-11.0371
染淨	-11.0372
不得畜	-11.0373
何別	-11.0373
要心	-11.0373
既言	-11.0375
身語	-11.038
觀此	-11.038
後悔	-11.0381
能防	-11.0384
濾	-11.0386
有一長者	-11.0386
句義	-11.0387
項	-11.0388
不受食	-11.039
諸白衣	-11.039
十夏	-11.0391
滋	-11.0391
千里	-11.0392
入房	-11.0392
空慧	-11.0394
六入	-11.0395
實是	-11.0398
格	-11.0399
第三亦如是說	-11.0403
牒釋	-11.0405
勿使	-11.0405
謂佛	-11.0407
得度	-11.0409
漸頓	-11.0409
蟲水	-11.0409
隨彼	-11.041
以身	-11.0411
同室宿	-11.0414
則通	-11.0419
別也	-11.042
應如是作	-11.042
雇	-11.042
滅法	-11.0426
開緣不犯者	-11.0428
嬰	-11.0428
昔解	-11.0429
若王	-11.0429
須彌	-11.0431
敵	-11.0431
聞知	-11.0432
鎮	-11.0433
不盜	-11.0435
總明	-11.0435
紛	-11.0438
耶答	-11.0439
咽咽	-11.0446
遇緣	-11.0449
四門	-11.045
圓融	-11.0453
蹈	-11.0456
約人	-11.0457
雖未	-11.0458
咄	-11.0461
巳說	-11.0462
枝條	-11.0465
便與	-11.0467
別緣	-11.0467
聲聞弟子	-11.0468
遺教	-11.0472
瀉	-11.0473
無失	-11.0474
抖擻	-11.0476
偷盜	-11.0478
財法	-11.0479
國人	-11.0481
不簡	-11.0482
末世	-11.0482
破威儀	-11.0484
諸家	-11.0485
即有	-11.0485
蓬	-11.0487
夕	-11.0487
對此	-11.0489
體也	-11.049
沓婆	-11.049
如是展轉	-11.049
拳	-11.0491
晝日	-11.0491
等覺	-11.0492
京	-11.0492
人情	-11.0493
別緣具	-11.0494
行別住	-11.0494
緣境	-11.0496
是處	-11.0499
掃地	-11.05
之士	-11.05
屐	-11.0505
已作	-11.0506
初標人	-11.051
形相	-11.051
覺悟	-11.0511
同界	-11.0511
「『	-11.0515
無因緣	-11.0516
廣教	-11.0517
令生	-11.0517
品云	-11.0521
慢心	-11.0522
欝多羅僧	-11.0522
不墮	-11.0524
供佛	-11.0528
度生	-11.0529
不被	-11.0529
不同也	-11.0529
制此戒	-11.0529
長老比丘	-11.0531
三觀	-11.0531
何人	-11.0532
駕	-11.0536
職	-11.0536
持戒者	-11.0539
法爾	-11.0541
捨懺	-11.0541
好食	-11.0543
驚怖	-11.0545
破見	-11.0546
若上座	-11.055
正遍知	-11.0553
總有	-11.0556
洞	-11.056
是外道	-11.0561
云何得	-11.0561
盡突吉羅	-11.0562
必定	-11.0562
行路	-11.0564
樹皮	-11.0565
欲來	-11.0565
祠	-11.0566
僧別	-11.0566
隨犯	-11.057
餘文	-11.057
證果	-11.0571
擘	-11.0571
下引證	-11.0575
長貪	-11.0577
戒文	-11.0577
若坐	-11.058
犯蘭	-11.0583
然於	-11.0587
象王	-11.0587
不但	-11.0588
不遮	-11.059
跛	-11.0593
予	-11.0594
苦果	-11.0594
設諫	-11.0594
海中	-11.0596
之力	-11.06
何緣	-11.0601
止惡	-11.0601
遠去	-11.0603
千百億	-11.0605
▁初敘	-11.061
為善	-11.0612
等類	-11.0612
此十	-11.0612
其本	-11.0613
深信	-11.0613
實力子	-11.0614
雜心	-11.0615
治罪	-11.0619
諸物	-11.0621
滿者	-11.0621
應去	-11.0622
比丘在	-11.0623
名體	-11.0625
什	-11.0626
僧伽藍中	-11.0627
時非時	-11.0627
緣生	-11.0629
下賤	-11.0632
請佛及僧	-11.0633
如來所	-11.0633
餘之	-11.0634
洗鉢	-11.0636
已得	-11.0637
挑	-11.0642
致使	-11.0645
銷	-11.0649
池水	-11.0649
花果	-11.0651
休道	-11.0655
鞋	-11.0656
欲為	-11.0656
認	-11.0657
下出	-11.0657
李	-11.066
摩尼	-11.066
卜	-11.066
明文	-11.0661
毘舍佉	-11.0662
善事	-11.0663
俱非	-11.0664
可取	-11.0667
得安樂	-11.0668
利故	-11.0668
充滿	-11.0669
是色	-11.067
其子	-11.0672
割截衣	-11.0673
此苾芻	-11.0674
臨終	-11.0676
胡跪	-11.0681
大藥	-11.0682
大姉	-11.0682
論其	-11.0682
序云	-11.0684
眾多人	-11.0685
理宜	-11.0685
有住處	-11.0688
四相	-11.0691
如是種種	-11.0691
數也	-11.0693
贖	-11.0694
不囑	-11.0695
長淨	-11.0696
正說	-11.0696
十里	-11.0697
臨時	-11.0699
得何罪	-11.07
捨罪	-11.0701
如法僧事	-11.0701
依本	-11.0702
皆當	-11.0702
呈	-11.0706
厭離	-11.0708
何罪	-11.0714
世法	-11.0717
妄言	-11.0719
覺觀	-11.0721
瞿曇	-11.0721
第十二	-11.0724
入家內	-11.0727
重戒	-11.0727
若云	-11.0729
以無根	-11.073
常在	-11.0731
說法者	-11.0732
永無	-11.0734
戒羸	-11.0734
王問	-11.0737
語我	-11.0739
持物	-11.074
餘殘	-11.074
隨釋	-11.0741
母論云	-11.0741
相狀	-11.0743
猶未	-11.0745
鎖	-11.0747
見而	-11.0748
袋	-11.075
如是如是	-11.0755
正觀	-11.0756
教也	-11.0757
內無	-11.0759
供養佛	-11.0759
逈	-11.0759
兩種	-11.0761
皆云	-11.0763
不持	-11.0764
奉施	-11.0764
義竟	-11.0765
葬	-11.0766
拘睒彌	-11.0767
教興	-11.077
匡	-11.0771
用故	-11.0772
如佛所教	-11.0772
身口業	-11.0772
說戒日	-11.0773
盡形藥	-11.0774
楚	-11.0775
墻	-11.0776
若不捨	-11.0779
分四	-11.0779
舉過	-11.078
請者	-11.0781
嶮	-11.079
蟻	-11.0792
懺悔者	-11.0792
大論云	-11.0794
牒名	-11.0797
鸚鵡	-11.0798
作是語已	-11.0799
業故	-11.08
出佛身血	-11.0804
證明	-11.0805
陸	-11.0806
葱	-11.0806
毀他	-11.0808
資生	-11.081
來意	-11.0811
蜂	-11.0812
倉	-11.0812
白衣舍坐	-11.0813
此國	-11.0814
娛樂	-11.0817
時有苾芻	-11.0819
能障礙道	-11.0824
性相	-11.0825
皆共	-11.0825
樓閣	-11.0829
七法	-11.0829
器物	-11.0831
後還	-11.0831
羅怙羅	-11.0833
嗔恚	-11.0838
四念處	-11.0842
當用	-11.0843
脊	-11.0844
不相應	-11.0845
教門	-11.0845
舍內	-11.0846
皆令	-11.0847
指前	-11.0847
佛菩薩	-11.0848
十卷	-11.0848
一犯人	-11.0849
其實	-11.085
未了	-11.0851
蚊	-11.0856
輕罪	-11.0857
若女人	-11.0862
麁惡	-11.0863
隨境	-11.0865
帳	-11.0866
勸持	-11.0867
莎訶	-11.0868
無記心	-11.0871
▁二問答	-11.0872
以心	-11.0872
彼所	-11.0872
同故	-11.0875
弑	-11.0875
必是	-11.0875
所歸	-11.0881
躡	-11.0882
無定	-11.0885
人邊	-11.0885
命斷	-11.0885
號曰	-11.0887
道業	-11.0889
不犯耶	-11.0891
論說	-11.0891
鄔波離	-11.0894
緣成	-11.0894
還衣	-11.0897
波離	-11.0897
識者	-11.0898
僧用	-11.09
受得	-11.0901
若望	-11.0904
水瓶	-11.0908
般若波羅蜜	-11.0911
種種因緣	-11.0912
填	-11.0915
翹	-11.0916
別故	-11.0919
準下	-11.0919
文列	-11.092
下卷	-11.092
兩緣	-11.092
十行	-11.0921
荷	-11.0922
人身	-11.0922
空觀	-11.0923
瑠璃	-11.0924
曠	-11.0925
苦諦	-11.0928
熱鐵	-11.0928
未聞	-11.093
鬱	-11.0933
獨行	-11.0934
結戒場	-11.0936
即知	-11.0937
此中犯相其事	-11.0938
應行	-11.0938
兩足	-11.0945
忘失	-11.0946
過人法	-11.0947
聖諦	-11.0951
懺悔主	-11.0954
亡人	-11.0957
此說	-11.0959
令使	-11.096
利鈍	-11.0964
明矣	-11.0965
妃	-11.0968
勘	-11.097
自言治	-11.0974
須依	-11.0975
淨主	-11.0976
殯	-11.0979
過此	-11.098
優婆塞戒	-11.0982
復有五事	-11.0983
十萬	-11.0984
實非	-11.0985
流布	-11.0985
能說	-11.0987
忠	-11.0988
趨	-11.0991
賢者	-11.0991
正因	-11.0992
捨身	-11.0992
出城	-11.0993
育	-11.0994
十方佛	-11.0995
嘿	-11.1005
雖同	-11.1005
若使	-11.1007
之餘	-11.1008
不畏	-11.1013
皆非	-11.1013
世世	-11.1015
隙	-11.1016
齒木	-11.1022
我得	-11.1025
能解	-11.1026
十二部經	-11.1028
不說淨	-11.1028
能教	-11.1029
展轉相	-11.1029
名聞	-11.1029
起立	-11.1031
外人	-11.1031
祥	-11.1032
三十一	-11.1033
波逸提罪	-11.1036
浮囊	-11.1036
實答	-11.1037
皆無	-11.1038
善比丘	-11.1038
喫	-11.1039
吉凶	-11.1041
詣彼	-11.1043
八月	-11.1045
一罪不覆藏	-11.1046
對首心念	-11.1048
前言	-11.1052
僧巳忍	-11.1054
空無	-11.1054
開通	-11.1055
乳酪	-11.1056
被擯	-11.1056
取他	-11.1057
白諸比丘	-11.1057
有賊	-11.1059
中之	-11.106
為己	-11.106
第四禪	-11.1061
正等覺	-11.1062
兩重	-11.1063
分也	-11.1064
病壞心	-11.1064
中有二	-11.1064
是菩薩波羅夷罪	-11.1067
異也	-11.1069
覔	-11.1072
八部	-11.1072
餘食	-11.1074
門人	-11.1075
今但	-11.1076
若疑	-11.1076
二道	-11.1078
艸	-11.1078
制底	-11.1078
不了了	-11.1079
釘	-11.1081
雖殊	-11.1081
柔	-11.1083
正命	-11.1084
庸	-11.1087
所教	-11.1087
有衣	-11.109
隨宜	-11.1094
我能	-11.1095
冤	-11.1098
伏藏	-11.1098
與其	-11.1099
四日	-11.1099
教意	-11.1101
果也	-11.1102
習近住	-11.1103
乞戒	-11.1104
威神	-11.1105
凡欲	-11.1107
謂非	-11.1109
宮中	-11.1112
入僧中	-11.1112
捧	-11.1114
以表	-11.1116
非法別眾	-11.1119
為和尚	-11.1122
為重	-11.1122
之聲	-11.1126
約法	-11.1127
異相	-11.1127
斂	-11.1129
無可	-11.113
即持	-11.1132
時阿難陀	-11.1132
中初句	-11.1135
醋	-11.1138
華鬘	-11.114
知我	-11.1141
不達	-11.1142
論義	-11.1142
餘緣	-11.1143
激	-11.1144
五塵	-11.1146
積聚	-11.1147
地了時	-11.1149
諸大	-11.1151
還得	-11.1152
福慧	-11.1152
王大臣	-11.1153
堂中	-11.1154
饑	-11.1159
昔有	-11.116
擯出	-11.116
防非	-11.116
舍衛	-11.1162
並有	-11.1162
在一處	-11.1165
隨後	-11.1168
如佛教	-11.117
若作淨	-11.1171
便止	-11.1171
犯此戒	-11.1172
生故	-11.1172
阿羅漢果	-11.1173
皆不得	-11.1179
餘時	-11.1183
告諸	-11.1183
佛世	-11.1185
立誓	-11.119
所知	-11.119
自煑	-11.119
趺	-11.1195
狼	-11.1198
動身	-11.1201
出時	-11.1201
□□□□□□□□□□□	-11.1202
行覆藏	-11.1203
頑	-11.1204
正定	-11.1205
長鉢	-11.1206
七眾同犯	-11.1206
無欲	-11.1208
盜取	-11.1208
迴與	-11.1209
義須	-11.121
盖	-11.121
覈	-11.121
爾時諸比丘尼	-11.1215
卷中	-11.1217
今約	-11.1218
世中	-11.1218
諸律	-11.122
以彰	-11.122
為身	-11.122
得惡作	-11.1222
愁	-11.1222
時食	-11.1222
多諸	-11.1223
比丘義如上	-11.1223
至也者	-11.1223
嫉妬	-11.1225
初受	-11.1226
修福	-11.1226
以非	-11.1226
無蟲	-11.1229
▁二初下隨釋	-11.123
聖種	-11.1232
淨厨	-11.1233
五分法身	-11.1233
得自在	-11.1233
一肘	-11.1234
不可說	-11.1235
問此	-11.1237
攝心	-11.1237
佛陀	-11.1237
若無人	-11.1244
檀越家	-11.1245
為證	-11.1246
是物	-11.1248
諳	-11.125
嗟	-11.1254
居士家	-11.1255
惡戒	-11.1255
裝	-11.1257
所以然者	-11.1258
謂有	-11.1263
無師	-11.1266
模	-11.1267
地者	-11.1267
焚燒	-11.1268
中分二	-11.127
授具足戒	-11.1273
道士	-11.1275
隨我	-11.1278
及與	-11.1278
十七群比丘	-11.1279
四威儀	-11.1283
登壇	-11.1283
第二門	-11.1288
可信	-11.1289
受其	-11.1293
六物	-11.1293
及最初未制戒等	-11.1294
和尚阿闍梨	-11.1294
阿難言	-11.1295
堪忍	-11.1296
之苦	-11.1296
鬪亂	-11.1296
然彼	-11.1297
亡者	-11.1297
為除	-11.1298
▁二有下	-11.1303
娑婆	-11.1304
踰	-11.1305
甎	-11.1307
為性	-11.1309
聽汝	-11.1309
若破	-11.1312
他家	-11.1313
足下	-11.1314
能秉	-11.1315
染污心	-11.1316
如我	-11.1317
隨覆藏日	-11.1318
滌	-11.1318
秤	-11.1318
又可	-11.1319
二人共	-11.1322
授人具足戒	-11.1322
佛以是事集二部僧	-11.1322
事相	-11.1326
於僧	-11.1326
魔王	-11.1327
四生	-11.1327
善修	-11.1333
優婆	-11.1335
亦皆	-11.1336
專精	-11.1336
自恣請	-11.1336
舅	-11.1336
令淨	-11.1336
經典	-11.1339
居士譏嫌	-11.134
阿蘭若處	-11.1341
吉也	-11.1341
即起	-11.1343
多云	-11.1345
弓箭	-11.1347
其父	-11.1347
宮殿	-11.1349
村中	-11.135
比丘答言	-11.135
白羯磨	-11.1351
獨住	-11.1351
於我法中	-11.1352
應問言	-11.1352
為諸	-11.1353
作舉	-11.1355
自食	-11.1358
應著	-11.1359
如今	-11.136
悶	-11.136
瞻病	-11.1362
迦旃延	-11.1365
眾具	-11.1368
戴	-11.1368
木石	-11.1369
出於	-11.137
可畏	-11.137
說為	-11.1372
從緣	-11.1374
讀經	-11.1375
不觀	-11.1377
今者	-11.1377
現世	-11.1378
乃得	-11.1381
須衣	-11.1382
大法	-11.1383
〕-【	-11.1384
師長	-11.1385
對法	-11.1385
亦以	-11.1386
餘時者	-11.1386
圓具	-11.1388
二夜	-11.1388
氣力	-11.1389
饒	-11.139
我實	-11.139
滅諦	-11.1391
異見	-11.1391
阿遮利耶	-11.1395
而制	-11.1395
犯吉羅	-11.1396
九種	-11.1397
嚩	-11.1399
入巳	-11.1399
受八戒	-11.1403
十二月	-11.1403
除僧羯磨	-11.1404
若向	-11.1405
口受	-11.1408
護衣	-11.1409
以戒為	-11.1411
不觸	-11.1415
誣	-11.1415
是心	-11.1416
道諦	-11.1416
若對	-11.1417
貞	-11.1418
當如是	-11.1418
吼	-11.1419
佛及	-11.1419
工巧	-11.1419
茂	-11.142
醯	-11.1421
之極	-11.1421
更須	-11.1421
。」《	-11.1425
懇	-11.1428
喬答摩	-11.1429
犯不可悔	-11.1429
初一	-11.1429
軀	-11.1429
諸方	-11.1432
昌	-11.1434
攝衣	-11.1436
倘	-11.1436
香爐	-11.1438
觀法	-11.1439
世尊爾時以此因緣集比丘僧	-11.1439
神變	-11.144
諸篇	-11.1443
毗尼藏	-11.1446
所欲	-11.145
為十	-11.1451
周遍	-11.1455
識知	-11.1457
向說	-11.1457
顯非	-11.1458
坐已	-11.146
所作事	-11.1462
事中	-11.1463
憐愍故	-11.1465
塔寺	-11.1465
能成	-11.1465
佛以	-11.147
上首	-11.147
非心	-11.1471
燥	-11.1474
深重	-11.1476
闡	-11.1477
魚肉	-11.1477
別名	-11.1478
村外	-11.1479
瞻波	-11.1479
列緣	-11.1481
絡	-11.1482
制罪	-11.1483
故下引證	-11.1483
覆者	-11.1483
二月	-11.1484
說時	-11.1485
深心	-11.1487
忍可	-11.1487
初三	-11.149
祐	-11.149
可依	-11.149
貴人	-11.149
故違	-11.1492
集一處	-11.1493
殺之	-11.1493
反抄衣	-11.1493
除罪	-11.1495
又二初	-11.1497
自今已去與比丘結戒	-11.15
對前	-11.1501
若優婆塞	-11.1503
造業	-11.1506
下四	-11.1508
見論云	-11.1508
便利	-11.1508
天宮	-11.1509
至一	-11.1509
上至	-11.1511
我之	-11.1513
故次	-11.1514
私云	-11.1517
如是乃至	-11.1517
犯人	-11.1519
今明	-11.1522
失也	-11.1523
八正	-11.1524
復作是願	-11.1525
一相	-11.1527
嚙	-11.1528
下生	-11.1528
聽用	-11.1529
無所知	-11.153
作衣時	-11.153
並得	-11.1531
箱	-11.1531
善逝	-11.1532
事業	-11.1535
今乃	-11.1535
觀其	-11.1536
喧	-11.1537
蓐	-11.1538
人見	-11.154
以前	-11.1541
如法諫	-11.1542
既見	-11.1543
乃可	-11.1543
俟	-11.1547
襍	-11.1547
演說	-11.155
犬	-11.1551
治法	-11.1553
合為一	-11.1553
闡陀比丘	-11.1558
復有三	-11.1559
青色	-11.156
淺深	-11.1565
汝以何心	-11.1566
善神	-11.1568
机	-11.1571
居士言	-11.1572
賢劫	-11.1572
別離	-11.1573
得勝	-11.1575
聚落界	-11.1575
今取	-11.1578
非真	-11.1579
減五錢	-11.158
復於	-11.158
下即	-11.1581
親教師	-11.1583
出家五眾	-11.1584
汝自	-11.1587
相故	-11.1589
行菩薩道	-11.1594
一子	-11.1596
惰	-11.1597
怯	-11.16
德衣	-11.1605
說戒法	-11.1608
盜賊	-11.1608
梵本	-11.161
?(	-11.1614
使他	-11.1622
亦即	-11.1623
順從	-11.1624
作新臥具	-11.1629
掃灑	-11.1629
鄔波索迦	-11.1631
句法	-11.1631
四百	-11.1632
品第十	-11.1636
迷忘	-11.1639
自相	-11.1639
下正明	-11.164
不曉	-11.1641
應生	-11.1642
攝僧	-11.1642
五夏	-11.1643
敬法	-11.1643
景云	-11.1643
從佛	-11.1644
納衣	-11.1645
釋疑	-11.1647
贍部洲	-11.1648
蹲	-11.1648
無差	-11.1649
觀之	-11.1654
盡形壽不得	-11.1656
邏	-11.1657
得本罪	-11.1657
如有	-11.1657
六月	-11.1661
有為	-11.1661
五色	-11.1662
屏諫	-11.1665
暇	-11.1669
開之	-11.1672
嘿然	-11.1672
得蘭	-11.1672
二百	-11.1673
為非	-11.1673
貧人	-11.1679
法則	-11.168
蘇油	-11.1682
頌云	-11.1683
能與	-11.1683
是中清淨	-11.1688
更為	-11.1696
問之	-11.1697
六和	-11.1698
起行	-11.1699
餘三眾突吉羅	-11.1703
作白二羯磨	-11.1704
不受樂	-11.1704
夜分	-11.1705
三卷	-11.1709
炬	-11.1709
賓頭盧	-11.1712
多人語	-11.1713
極大	-11.1713
天帝釋	-11.1713
乞得	-11.1715
言教	-11.1715
諸漏	-11.1716
三師	-11.1718
洛	-11.1718
而言之	-11.1719
凝	-11.1719
先來	-11.1721
搜	-11.1721
揭	-11.1722
慰	-11.1722
與五百	-11.1723
無比	-11.1724
大明	-11.1724
衣竟	-11.1725
我曹	-11.1726
傳授	-11.1736
往返	-11.1737
引論	-11.1737
懺主	-11.1738
倒說	-11.1739
除此	-11.174
古德	-11.174
雨時	-11.1742
尼白苾芻	-11.1744
若尼	-11.1745
三受	-11.1747
叉腰	-11.175
人眾	-11.1751
聞說	-11.1751
為好故	-11.1752
長行	-11.1754
分通	-11.1755
不變	-11.1757
如法懺悔	-11.1758
便有	-11.1758
制之	-11.176
老死	-11.176
不應食	-11.1762
眾事	-11.1762
若減	-11.1765
了義	-11.1765
叉手	-11.1767
自用	-11.1768
牟尼	-11.1768
白世尊	-11.1769
犢子	-11.1769
無貪	-11.177
詞句	-11.1771
是真	-11.1771
蹋	-11.1772
具白世尊	-11.1773
鍼	-11.1774
▁初制意	-11.1777
佩	-11.1784
雖在	-11.1787
為定	-11.1789
受後	-11.179
體用	-11.179
即名為	-11.1792
如世	-11.1793
少多	-11.1799
下眾	-11.1801
俱突吉羅	-11.1801
十師	-11.1807
已便	-11.1807
如法者	-11.1808
於理	-11.1809
善道	-11.1809
使我	-11.1811
緣事	-11.1814
信解	-11.1815
倩	-11.1816
乞鉢	-11.1817
年滿	-11.1819
鉢食	-11.1819
溢	-11.182
尼來	-11.1826
於僧中	-11.1826
跳	-11.1826
更請	-11.1826
周匝	-11.1829
由其	-11.1829
第四十	-11.183
方名	-11.1831
增上慢	-11.1832
垢膩	-11.1833
伽羅	-11.1834
中有一	-11.1838
拄	-11.1838
自恃	-11.1838
搭	-11.184
滅惡	-11.184
猶是	-11.1841
示之	-11.1841
常以	-11.1841
牌	-11.1843
毗舍離	-11.1845
百官	-11.1845
迦攝	-11.1848
教主	-11.1849
即將	-11.185
谷	-11.185
樂欲	-11.1851
不得在	-11.1852
牛糞	-11.1853
不收	-11.1855
剃頭	-11.1858
由前	-11.1858
應是	-11.1859
諸大眾	-11.1863
二尺	-11.1866
上音	-11.1866
應作白	-11.1866
妬	-11.1866
三下	-11.1867
背請	-11.1867
擊攊	-11.187
於外	-11.187
雜事	-11.187
足者	-11.1871
殺阿羅漢	-11.1872
所住處	-11.1876
次至	-11.1877
趣向	-11.1879
今更	-11.1879
未犯	-11.188
壇上	-11.1886
大慈悲	-11.1887
小食	-11.189
震動	-11.189
作種種	-11.189
來世	-11.1891
一足	-11.1893
溫室	-11.1895
抽	-11.1895
當學	-11.1895
俱犯	-11.1895
受學	-11.1897
一房	-11.1898
洒	-11.1901
多欲	-11.1901
畜長	-11.1901
襯	-11.1902
波羅夷罪	-11.1902
成不成	-11.1903
二釋	-11.1903
若少	-11.1904
乍	-11.1905
燭	-11.1907
捨此事故	-11.191
重制	-11.1915
中生	-11.1916
非常	-11.1918
之始	-11.192
不可以	-11.192
勤求	-11.1922
髻	-11.1923
處安居	-11.1925
非重	-11.1925
稱讚	-11.1927
常樂	-11.1929
我等當	-11.193
三約	-11.1931
作不淨行	-11.1931
人心	-11.1934
語令	-11.1936
復應	-11.1936
初日	-11.1941
中廣說	-11.1943
不能男	-11.1943
逝	-11.1945
。」』	-11.1946
與餘人	-11.1949
衣故	-11.1949
景	-11.195
可悔	-11.195
置於	-11.1951
五分律	-11.1952
問汝	-11.1952
千釋迦	-11.1954
覆處	-11.1956
相當	-11.1957
嗣	-11.1959
結法	-11.1959
流水	-11.1959
境上	-11.1961
而問	-11.1962
事成	-11.1963
田宅	-11.1964
啼泣	-11.1965
爾時比丘	-11.1966
消滅	-11.1966
中初引	-11.1969
捨之	-11.197
痴	-11.1972
叢林	-11.1973
無限	-11.1974
羸瘦	-11.1975
問中	-11.1975
九戒	-11.1976
若著	-11.1977
未斷	-11.198
十句	-11.1982
不護	-11.1983
四儀	-11.1985
成不	-11.1985
得好	-11.1985
往問	-11.1987
欲入	-11.1988
如初	-11.1988
少欲知足行頭陀	-11.1992
果者	-11.1994
與白衣	-11.1997
十者	-11.2003
夏坐	-11.2004
於其中間	-11.2006
三名	-11.2008
見世尊	-11.2014
學道	-11.2014
是賊	-11.2016
雜色	-11.2017
俱舍云	-11.2017
所著	-11.2018
犯根本	-11.202
服之	-11.202
自恣法	-11.2023
十夜	-11.2024
樹神	-11.2027
今捨與僧	-11.2029
依止羯磨	-11.2029
河邊	-11.2031
闍黎	-11.2032
次約	-11.2034
閉戶	-11.2034
僧祇中	-11.2034
是中清淨不	-11.2035
此界	-11.2039
告諸苾芻曰	-11.2046
佛土	-11.2047
致令	-11.2047
巳有	-11.2048
不得用	-11.2056
過五六語	-11.2057
以是事	-11.2059
不得以	-11.2059
無情	-11.206
地菩薩	-11.2062
隨人	-11.2063
家業	-11.2064
智度論	-11.2067
憐	-11.2067
雌	-11.2068
汝若	-11.2069
少時	-11.2072
勸學	-11.2075
便自	-11.2078
先說	-11.2081
皆依	-11.2081
欲出家	-11.2083
取捨	-11.2083
是同	-11.2084
具明	-11.2086
政	-11.2086
焦	-11.2089
為諸比丘尼結戒	-11.2091
七滅諍法	-11.2092
施心	-11.2092
法師想	-11.2093
姊	-11.2095
不顯	-11.2099
二別	-11.2101
破法	-11.2107
大願	-11.2109
其夫	-11.2112
佛住	-11.2114
腋	-11.2116
丘	-11.2119
先請	-11.2122
又於	-11.2122
淨不淨	-11.2123
來至此	-11.2124
自無	-11.2124
報云	-11.2125
不淨施	-11.2131
三結罪	-11.2132
巳還	-11.2133
長者家	-11.2133
恕	-11.2135
未審	-11.2136
一大	-11.2136
其處	-11.214
炭	-11.2141
出不淨	-11.2143
若被	-11.2143
之大	-11.2145
卵	-11.2146
得證	-11.2146
初發心	-11.2146
勑	-11.2147
醒	-11.2147
以義	-11.215
洗脚	-11.2151
說竟	-11.2152
遮說戒	-11.2153
生大	-11.2154
同是	-11.2155
後因	-11.2158
若受持	-11.2158
閒	-11.2159
若與人	-11.2161
同誦	-11.2163
中三	-11.2164
彼既	-11.2165
之異	-11.2167
被他	-11.2169
佛之	-11.217
已去	-11.217
善女人	-11.217
▁初示	-11.2171
向下	-11.2171
或用	-11.2172
一尺	-11.2173
海水	-11.2174
首座	-11.2177
至今	-11.2177
若持	-11.2178
無德	-11.2184
憂愁	-11.219
敬心	-11.2197
若不問	-11.2198
一切羯磨	-11.2198
橋	-11.2199
壅	-11.2203
盛滿	-11.2205
從是	-11.2205
幼	-11.2206
疏文	-11.2207
但約	-11.2208
先當	-11.2211
僧已	-11.2216
下列	-11.2217
眉	-11.2218
尊敬	-11.2219
過中	-11.2223
義無	-11.2223
若本	-11.2224
第四分	-11.2225
執事	-11.2229
理事	-11.2232
作福	-11.2232
未分	-11.2234
僧羯磨	-11.2234
向上	-11.2239
亦開	-11.2239
往佛所	-11.224
之器	-11.224
駱駝	-11.224
無所著	-11.2241
秉羯磨	-11.2243
本非	-11.2245
不淨物	-11.2245
入界	-11.2245
一尋	-11.2246
佛事	-11.2246
白王言	-11.2247
當體	-11.2247
德行	-11.2249
曼	-11.225
廣如上說	-11.2254
四攝	-11.2255
芽	-11.2256
犯事	-11.2257
惡友	-11.2257
不局	-11.2262
膏	-11.2262
▁二又下	-11.2264
常所行	-11.2266
娶	-11.2268
不懺悔	-11.2269
冐	-11.2269
賞勞	-11.227
善財	-11.227
後結	-11.2272
我弟子	-11.2273
係	-11.2273
娑羅	-11.2273
道也	-11.2275
是重	-11.2275
枚	-11.2276
緩急	-11.2278
口出	-11.2278
大人	-11.2278
瑟	-11.2281
可愛	-11.2282
隨戒	-11.2282
誦習	-11.2284
三遍	-11.2285
性惡	-11.2286
色者	-11.2286
未受具戒人	-11.2287
比丘白佛	-11.2287
三行	-11.2288
有說	-11.2289
還取	-11.2293
開也	-11.2302
作一	-11.2304
初後	-11.2305
還主	-11.2307
衣藥	-11.2309
堪為	-11.2309
相連	-11.2309
色等	-11.2311
犯僧殘罪	-11.2312
鋪	-11.2313
各得	-11.2316
向他	-11.2316
一坐食	-11.2323
處住	-11.2327
薰	-11.2327
縮	-11.2328
不應共住	-11.2329
常懷	-11.2329
亦如是說	-11.2331
隻	-11.2331
僧伽黎	-11.2331
讖	-11.2332
復至	-11.2333
諸佛常法	-11.2333
亦言	-11.2333
理也	-11.2335
僧聽	-11.2335
計直	-11.2335
屬巳	-11.2337
有言	-11.2337
末代	-11.2337
隨得	-11.2338
非色非心	-11.2339
半偈	-11.2342
分法	-11.2343
得吉羅	-11.2344
迴轉	-11.2346
比座	-11.2348
來此	-11.2349
比丘語	-11.2349
互跪	-11.2351
峰	-11.2352
釋通	-11.2352
迷心	-11.2358
木蘭	-11.2359
非時衣	-11.2362
生念	-11.2364
滴	-11.2366
無憂	-11.2366
嫌恨	-11.2366
但明	-11.2367
染污	-11.2367
行願	-11.2367
麼	-11.2368
人壽	-11.2368
綖	-11.2369
愁憂	-11.237
時六眾苾芻	-11.2371
亦知	-11.2372
池中	-11.2374
覺分	-11.2374
得出家	-11.2377
繫念	-11.2379
四角	-11.2379
因緣者	-11.2381
提婆	-11.2382
不怖	-11.2382
大樹	-11.2383
不虗	-11.2384
嬈	-11.2385
輪轉	-11.2385
羣生	-11.2387
沸	-11.239
不誦	-11.2394
爾時世尊在	-11.2397
父母兄弟	-11.2398
得偷蘭罪	-11.2399
見一	-11.2399
三罪	-11.2399
伴黨	-11.2402
乘船	-11.2404
十利	-11.2405
前說	-11.2406
鋒	-11.2408
鄰	-11.2408
巳身	-11.241
眾善	-11.2412
壞生	-11.2414
亦作	-11.2415
貴價	-11.2416
來問	-11.2416
即問	-11.2417
犯婬	-11.242
嚴身	-11.2421
食訖	-11.2421
供養三寶	-11.2422
問何故	-11.2425
來去	-11.2426
萬物	-11.2428
教我	-11.243
妨道	-11.243
但由	-11.2431
住止	-11.2431
損益	-11.2431
答下	-11.2432
世諦	-11.2434
等並	-11.2436
至下	-11.2437
函	-11.2444
不曾	-11.2445
等文	-11.2447
諸苦	-11.2447
刮	-11.2451
乃至廣說	-11.2452
難云	-11.2454
▁二言下	-11.2456
下云	-11.2458
別異	-11.246
非時漿	-11.2462
錯誤	-11.2462
損他	-11.2462
酤	-11.2463
若離	-11.2466
曆	-11.2466
川	-11.2466
佛意	-11.2467
顯相	-11.2467
乞食時	-11.2467
後當	-11.2468
恭敬供養	-11.2472
易知	-11.2474
▁初標分	-11.2474
鳴磬	-11.2474
七事	-11.2478
諸比丘不知	-11.2479
單提	-11.2481
三趣	-11.2483
心地戒	-11.2484
五通	-11.2487
新者	-11.2487
三藏法師義淨奉制譯	-11.2487
屬僧	-11.2488
羯磨疏	-11.2488
作何等	-11.2491
兩分	-11.2492
舍羅	-11.2494
必先	-11.2494
作無作	-11.2498
在屏處	-11.2503
胡麻	-11.2504
體非	-11.2507
浴衣	-11.2507
漉水囊	-11.2508
轉輪聖王	-11.2512
與藥	-11.2513
拔濟	-11.2514
椀	-11.2515
叢	-11.2516
埵	-11.2516
入此	-11.2518
凶	-11.2519
應安	-11.252
佛種	-11.252
五百比丘	-11.2521
初中後	-11.2521
仁者	-11.2524
一切不得	-11.2526
言其	-11.2529
尊卑	-11.2529
虵	-11.2533
過分	-11.2533
末法	-11.2536
言詞	-11.2536
隨文	-11.2536
墮地	-11.2538
真言曰	-11.2539
若施	-11.2539
通用	-11.2542
及至	-11.2543
此是惡事	-11.2547
之屬	-11.2548
本業	-11.255
三十八	-11.2551
上座應	-11.2553
大界內	-11.2554
營事	-11.2555
犯棄	-11.2556
髀	-11.2558
服藥	-11.2559
沓婆摩羅子	-11.256
相近	-11.2562
王法	-11.2563
奈	-11.2563
有想	-11.2564
行心	-11.2564
斯事	-11.2564
具二	-11.2566
初戒	-11.2568
若失	-11.257
塼	-11.2571
杓	-11.2573
日應作衣	-11.2573
燃	-11.2574
莫非	-11.2574
即自	-11.2574
今可	-11.2575
入聚	-11.2578
祀	-11.2579
度者	-11.258
化為	-11.2581
辰	-11.2581
背捨	-11.2583
本有	-11.2584
六師	-11.2587
尼曰	-11.2587
巳物	-11.2587
轍	-11.2589
而彼	-11.2593
」【【	-11.2594
還俗	-11.2595
自求	-11.2598
劫賊	-11.2599
六道眾生	-11.2599
當問	-11.2604
欲行	-11.2604
所解	-11.2606
量者	-11.2606
又比丘得不具足衣	-11.2607
初總	-11.2608
所能	-11.2611
諸聲聞	-11.2613
方便罪	-11.2614
汝去	-11.2616
造寺	-11.262
真空	-11.2622
羞恥	-11.2623
私通	-11.2623
餘比丘尼	-11.2625
種種訶責	-11.2625
居家	-11.2626
直言	-11.2627
此食	-11.2628
於斯	-11.2629
麁惡語	-11.2629
尼等	-11.263
教授比丘尼	-11.2631
本末	-11.2631
是為犯	-11.2633
體者	-11.2634
央	-11.2634
自當	-11.2636
佛知而故問	-11.2636
生子	-11.2639
略示	-11.2641
非僧	-11.2642
病差	-11.2646
引律	-11.2647
乞縷	-11.2648
挂	-11.2651
暫時	-11.2652
四月十六日	-11.2652
鳥獸	-11.2653
律者	-11.2653
化導	-11.2655
淡	-11.2656
勝處	-11.2657
得上人法	-11.2659
如是一切	-11.266
反顯	-11.266
苾芻曰	-11.2661
阿梨耶	-11.2661
說巳	-11.2664
八聖道	-11.2665
喜心	-11.2665
若盜	-11.2665
受經	-11.2666
九十日	-11.2667
總示	-11.2668
非想	-11.2668
赤色	-11.2671
圓宗	-11.2671
大經云	-11.2672
僧地	-11.2673
欲出	-11.2675
身死	-11.2675
在僧中	-11.2676
三段	-11.2677
大妄語	-11.2682
在內	-11.2683
染汙	-11.2684
當部	-11.2685
第十五	-11.2686
在露地	-11.2699
下衣	-11.27
說其	-11.27
真理	-11.2702
與欲清淨	-11.2703
方始	-11.2705
貴賤	-11.2708
嘗	-11.2709
陀婆	-11.2709
虗實	-11.2709
陋	-11.2711
二文	-11.2713
虔	-11.2714
揣	-11.2716
共立	-11.2717
就初	-11.2719
可分	-11.2722
別處	-11.2722
得墮罪	-11.2723
故畜	-11.2724
常用	-11.2724
寔	-11.2727
正當	-11.2734
十方三世	-11.2735
瘂	-11.2736
一比丘尼	-11.2736
淨飯王	-11.274
日光	-11.274
離地	-11.2741
入宮	-11.2741
歸敬	-11.2745
五辛	-11.2746
塵垢	-11.2749
藏舉	-11.2749
而退	-11.275
結也	-11.2752
欝	-11.2753
無遮	-11.2756
稱名	-11.276
彼比丘應	-11.2761
三十三	-11.2765
作不作	-11.2765
無實	-11.2766
隨用	-11.2766
嗔心	-11.2768
僧祇律	-11.2769
以此為	-11.2769
晨	-11.2769
告云	-11.2771
龕	-11.2772
筭	-11.2773
巳過	-11.2773
證成	-11.2773
出其	-11.2774
吉者	-11.2774
一切煩惱	-11.2774
非罪	-11.2775
休息	-11.2775
闊	-11.2777
師友	-11.2778
甜	-11.2781
法明門	-11.2782
課	-11.2782
厥	-11.2782
三千威儀	-11.2782
銜	-11.2782
一剎那	-11.2783
有佛性	-11.2783
人畜	-11.2787
安慰	-11.279
能持否	-11.2791
切音	-11.2793
群臣	-11.2795
參差	-11.2795
軟語	-11.2796
隨從	-11.2796
駄	-11.2797
七句	-11.2797
䭾	-11.2798
柳	-11.2799
看病比丘	-11.2803
我常	-11.2803
受齋	-11.2803
之流	-11.2804
佛種種呵責已	-11.2804
過量作	-11.2804
假令	-11.2805
陀驃	-11.2808
分者	-11.281
此上	-11.281
鹿王	-11.281
言辭	-11.2812
佛知故問	-11.2813
盜心取	-11.2814
婇女	-11.2815
章門	-11.2817
收攝	-11.2824
三德	-11.2825
作自恣	-11.2825
叫	-11.2828
跋提	-11.2828
直至	-11.2832
法施	-11.2832
六事	-11.2839
立教	-11.2839
帽	-11.2841
音樂	-11.2843
白眾	-11.2845
佛滅度後	-11.2845
充足	-11.2847
僅	-11.2848
十誦中	-11.285
揖	-11.2852
萬善	-11.2853
一切行	-11.2854
以種種	-11.2855
隨其所	-11.2857
淨洗	-11.2857
便能	-11.2859
丹	-11.2859
法滅	-11.286
七月十五日	-11.286
屏露	-11.2862
舍衛國祇樹給孤獨園	-11.2862
成否	-11.2862
佛經	-11.2863
汝為	-11.2864
情非情	-11.2867
阿闍世王	-11.2869
行欲	-11.2869
戒本云	-11.2869
譌	-11.287
出眾	-11.2872
如是第二	-11.2877
在眾	-11.2877
犯此僧伽婆尸沙罪	-11.2878
讚毀	-11.2878
大聲	-11.2879
力勢	-11.288
在眾中	-11.288
相濫	-11.2881
置衣	-11.2881
悉是	-11.2882
貿衣	-11.2883
除村	-11.2884
癲狂	-11.2885
又無	-11.2888
何以不	-11.2888
通論	-11.2888
手持	-11.2889
諸緣	-11.2889
諍訟	-11.289
遂令	-11.2894
時諸比丘尼	-11.2897
今復	-11.2898
行成	-11.2898
有命	-11.2899
當更	-11.2901
時鄔陀夷	-11.2901
強奪	-11.2903
孰	-11.2903
從今聽	-11.2908
不施	-11.2909
臍	-11.2909
搥	-11.2911
有客比丘來	-11.2911
遮性	-11.2912
求得	-11.2912
我此	-11.2913
真珠	-11.2913
若問	-11.2916
不可也	-11.2917
腫	-11.2917
若有犯	-11.2918
誦之	-11.2921
是非法	-11.2921
淪	-11.2922
如下引	-11.2925
三相	-11.2932
手脚	-11.2936
皆悉令集	-11.2936
前緣	-11.2939
後說	-11.294
引禮	-11.294
草覆	-11.2941
散華	-11.2942
舉他	-11.2943
受畜	-11.2943
列名	-11.2944
出世間	-11.2944
給與	-11.2951
一一皆	-11.2954
得法眼淨	-11.2955
二時	-11.2956
麤語	-11.2957
禮佛足	-11.2957
你	-11.296
雜亂	-11.296
住地	-11.2962
癰	-11.2962
耆宿	-11.2963
唯在	-11.2967
亦同此	-11.2967
月半	-11.2968
熱惱	-11.2969
我與	-11.2972
緻	-11.2973
擾	-11.2973
百六十	-11.2974
就中	-11.2974
毳	-11.2974
澡浴	-11.2975
未生	-11.2977
螺	-11.2977
犯過	-11.2977
無利	-11.2978
柵	-11.2981
同事	-11.2981
當往	-11.2984
著泥洹僧	-11.2984
令眾	-11.2984
受報	-11.2986
此時	-11.2987
牛馬	-11.299
獲罪	-11.2992
故輕	-11.2992
常得	-11.2994
告知	-11.2994
七百	-11.2994
擯比丘	-11.2996
躭	-11.2996
侯	-11.2997
論師	-11.2997
毋	-11.2997
上衣	-11.2999
別顯	-11.2999
汝先	-11.3001
十三事	-11.3005
不囑授	-11.3005
上事	-11.3009
一門	-11.3009
不淨食	-11.301
亦名為	-11.301
日用	-11.3013
我非	-11.3014
相染	-11.3014
所獲	-11.3015
形色	-11.3015
殷	-11.3019
自捉	-11.3021
毀訾	-11.3021
過去世時	-11.3021
小鉢	-11.3023
還本處	-11.3026
飲用	-11.3028
搏	-11.3028
見巳	-11.3031
狼藉	-11.3031
具四緣	-11.3032
苾芻眾	-11.3033
十眾	-11.3033
某甲比丘尼	-11.3033
眷	-11.3034
和上阿闍梨	-11.3035
橛	-11.3036
」「	-11.3036
入海	-11.3038
輦	-11.3039
自覺	-11.3039
佛名	-11.3042
而論	-11.3043
總持	-11.3043
所學	-11.3044
光從	-11.3046
燋	-11.3046
二房	-11.3047
惡律儀	-11.3049
至道	-11.305
業也	-11.3051
法師云	-11.3051
世尊說	-11.3051
星宿	-11.3052
成罪	-11.3053
城內	-11.3058
初出	-11.3061
得重罪	-11.3062
點淨	-11.3065
此是時	-11.3066
眼識	-11.3067
結解	-11.3068
謂言	-11.3068
成立	-11.3072
今生	-11.3073
方軌	-11.3074
和上尼	-11.3076
從何	-11.308
諸女	-11.3082
是中有比丘尼	-11.3083
餘部	-11.3084
何也	-11.3085
佛聞故制	-11.3086
妙行	-11.3086
名號	-11.3088
其間	-11.3088
形如	-11.3092
想者	-11.3092
別教	-11.3093
空寂	-11.3094
人趣	-11.3094
竹園	-11.3097
偏袒	-11.3098
布薩說戒	-11.3099
邊際	-11.31
往還	-11.3101
令入	-11.3102
還成	-11.3103
讎	-11.3104
若眾僧	-11.3105
之要	-11.3106
□□	-11.3111
柄	-11.3112
時分	-11.3113
乃知	-11.3116
草葉	-11.3116
佛言聽	-11.3117
當生	-11.3119
準前	-11.3122
新學菩薩	-11.3122
明非	-11.3123
陛	-11.3124
不審	-11.3125
見諸	-11.3128
口言	-11.3133
有少	-11.3133
諸比丘往白世尊	-11.3134
違順	-11.3136
十方世界	-11.3137
結淨地	-11.3137
此皆	-11.3137
不見罪	-11.3141
易解	-11.3142
一解	-11.3145
明白	-11.3148
須者	-11.3149
千二百五十	-11.3152
諸罪	-11.3154
是阿羅漢	-11.3154
有對	-11.3156
自相謂言	-11.3156
若無者	-11.3156
持之	-11.3158
有主物	-11.3159
守園人	-11.316
五百問云	-11.3162
乃至三諫	-11.3162
商旅	-11.3164
能忍	-11.3165
薄伽梵	-11.3166
苦集	-11.3166
眾中有	-11.3167
無損	-11.3171
迦葉佛	-11.3171
自活	-11.3171
店	-11.3173
即顯	-11.3174
義門	-11.3175
一佛	-11.3176
毀辱	-11.3177
求聽	-11.3177
不列	-11.3178
房舍臥具	-11.3181
故但	-11.3182
子曰	-11.3182
千世界	-11.3182
倦	-11.3182
杵	-11.3182
一二三	-11.3184
苾蒭	-11.3186
達多	-11.3187
覆上	-11.3188
捨此	-11.319
羽	-11.3191
故稱為	-11.3191
猛火	-11.3192
所願	-11.3196
常應	-11.3197
同也	-11.3199
粒	-11.32
強弱	-11.32
▁二如下	-11.32
歟	-11.3201
病緣	-11.3201
去後	-11.3202
非法者	-11.3204
身形	-11.3204
稱之為	-11.3207
爾時佛在舍衛國祇樹給孤獨園	-11.3208
而臥	-11.3209
第三門	-11.321
不善心	-11.3212
不改	-11.3214
具列	-11.3214
永離	-11.3215
。」【△	-11.3216
摩納婆	-11.3217
王及	-11.322
第三諫	-11.3224
非親尼	-11.3225
攝取	-11.3225
五義	-11.3228
賈人	-11.3228
白世尊言	-11.323
耀	-11.3231
鈔主	-11.3232
剎帝利	-11.3232
心緣	-11.3233
大千	-11.3234
人道	-11.3234
指上	-11.3239
行住坐臥	-11.3239
以彼	-11.3241
生身	-11.3241
限齊	-11.3242
今人	-11.3242
佛告比丘	-11.3242
中明	-11.3245
造立	-11.3246
有子	-11.3246
自非	-11.3246
奉佛	-11.3247
」(	-11.3249
生酥	-11.3249
惡作罪	-11.325
得施	-11.3252
我心	-11.3252
來詣	-11.3252
又名	-11.3254
鈎	-11.3256
次二句	-11.3256
稽	-11.3257
揀擇	-11.3257
鷲	-11.3257
所收	-11.3257
謗僧	-11.3258
阿鼻	-11.3261
以來	-11.3262
有虫	-11.3263
仲	-11.3266
天授	-11.3267
丁	-11.3269
阻	-11.327
一提	-11.3274
雖云	-11.3274
分為三	-11.3277
至時	-11.3277
聖言	-11.3281
諸難	-11.3282
任情	-11.3283
天魔	-11.3285
故特	-11.3285
白師	-11.3287
作相	-11.3287
邊受	-11.329
次引	-11.3291
亦不可	-11.3292
所感	-11.3292
堪任	-11.3293
多者	-11.3293
八正道	-11.3294
飲之	-11.3294
二十人	-11.3297
外凡	-11.3299
隨作	-11.3304
第十四	-11.3305
俗舍	-11.3305
何法	-11.3309
知佛	-11.3311
張手	-11.3312
熾	-11.3312
衣被	-11.3312
生死之	-11.3313
除其	-11.3313
淨物	-11.3314
此翻為	-11.3314
陀羅尼經	-11.3314
應如法	-11.3315
助道	-11.3318
讚持戒	-11.3319
行施	-11.3319
求法	-11.3319
知已	-11.3319
清淨戒	-11.3319
栗	-11.3321
顛	-11.3321
化佛	-11.3322
歸依三寶	-11.3322
先住	-11.3322
輭	-11.3323
禱	-11.3325
▁二四下	-11.3328
糖	-11.3329
諾	-11.333
貪瞋癡	-11.333
罵辱	-11.3331
非處	-11.3332
三匝	-11.3332
得波逸底迦	-11.3334
巳明	-11.3335
進不	-11.3336
八重	-11.3337
紀	-11.3338
對上	-11.3339
鴿	-11.3339
岸上	-11.3341
餘下	-11.3341
第四門	-11.3342
比丘前	-11.3343
相應者	-11.3343
其體	-11.3344
智度論云	-11.3346
別界	-11.3349
智力	-11.3349
竹木	-11.335
所逼	-11.3351
夷罪	-11.3352
黑色	-11.3352
主者	-11.3354
習氣	-11.3354
化人	-11.3356
復何	-11.3356
先知	-11.3356
施人	-11.3356
不殺生	-11.3359
攝也	-11.336
詣世尊所	-11.3363
謂此菩薩	-11.3364
業體	-11.3364
餘義如上	-11.3365
定故	-11.3365
內色	-11.3366
被賊	-11.3367
水灑	-11.3369
▁初通釋	-11.337
撿挍	-11.337
如是事	-11.337
先所	-11.337
隨一	-11.3371
無諸	-11.3372
他衣	-11.3373
供給所須	-11.3374
度脫	-11.338
聖僧	-11.3381
以之為	-11.3383
豈能	-11.3383
自讚毀他	-11.3384
今受	-11.3387
得定	-11.3388
慈地比丘	-11.339
四周	-11.339
清淨故	-11.339
曇無德	-11.3392
當如	-11.3392
或有罪	-11.3392
故不須	-11.3393
異時	-11.3394
大道	-11.3397
四比丘	-11.3397
郡	-11.3398
五明	-11.3401
十方法界	-11.3401
掛	-11.3404
便取	-11.3405
瓦石	-11.3406
恒沙	-11.341
初引	-11.341
體狀	-11.3412
二位	-11.3413
世事	-11.3415
悔者	-11.3416
若但	-11.3416
深淺	-11.3418
法空	-11.3418
大涅槃	-11.3419
偷蘭難陀比丘尼	-11.3421
彼使	-11.3422
莫作是語	-11.3423
一受	-11.3424
所斷	-11.3427
應求	-11.3428
畏慎	-11.3429
十金剛	-11.3431
改悔	-11.3431
權實	-11.3432
戶鉤	-11.3432
殺我	-11.3434
初列	-11.3434
客來	-11.3434
度之	-11.3434
眾罪	-11.3435
作斯	-11.3436
聚集	-11.3443
時鄔波難陀	-11.3444
授食	-11.3444
莫作	-11.3445
終無	-11.3445
從本	-11.3446
捨巳	-11.3448
六緣	-11.3452
蘭罪	-11.3453
二百五十戒	-11.3454
不淨地	-11.3455
金翅鳥	-11.3456
竹林	-11.3456
以繩	-11.3456
變易	-11.3457
膿血	-11.3457
捉手	-11.3458
相應法	-11.3459
善學	-11.346
能使	-11.3461
時彼長者	-11.3462
若不如是	-11.3465
爾時尊者	-11.3467
膠	-11.3467
汝於	-11.3467
有一住處	-11.3467
共女人	-11.3469
電	-11.3469
解了	-11.347
撫	-11.3471
不淨行	-11.3471
故論云	-11.3471
鎧	-11.3472
書寫	-11.3473
磬	-11.3473
異語	-11.3475
諸行	-11.348
可謂	-11.348
如法滅	-11.3481
四方僧物	-11.3481
中初敘	-11.3482
往觀	-11.3483
自今已去與比丘尼結戒	-11.3486
波羅市迦	-11.3489
憶念毗尼	-11.3491
淨名	-11.3493
安居中	-11.3494
多得	-11.3495
僧祗律云	-11.3495
彼物	-11.3495
煩惱障	-11.3496
毘耶離	-11.3501
每日	-11.3501
縱使	-11.3501
從今已去	-11.3501
遮戒	-11.3504
極多	-11.3504
證也	-11.3505
慎勿	-11.3506
得波夜提	-11.3506
失法	-11.3507
佛與	-11.3509
三諦	-11.3509
默然而住	-11.351
頂戴	-11.351
若不作	-11.351
不易	-11.351
十七群	-11.3512
披著	-11.3512
義鈔	-11.3514
引請	-11.3515
熊	-11.3518
有主想	-11.352
三鉢	-11.3522
檀越請	-11.3525
守戒	-11.3526
錦	-11.3527
摩納	-11.3527
渧	-11.3528
今所	-11.3528
過是	-11.3529
鼈	-11.3531
理體	-11.3531
樹下坐	-11.3532
墮胎	-11.3532
心地法門	-11.3535
繒	-11.3535
為別	-11.3536
安坐	-11.3537
一歲	-11.3538
約境	-11.3539
正顯	-11.3539
脫衣	-11.354
嗜	-11.3541
下結示	-11.3541
劉	-11.3541
染色	-11.3541
田地	-11.3542
之用	-11.3543
擅	-11.3547
等戒	-11.3551
羅國	-11.3553
不漏	-11.3555
斯乃	-11.3556
六波羅蜜	-11.3556
有智慧	-11.3558
若比丘知	-11.3559
若須	-11.356
往取	-11.3561
於如來	-11.3562
無比丘	-11.3563
不得取	-11.3563
依他	-11.3563
指印	-11.3567
日出	-11.3567
三輪	-11.3569
隨舉	-11.3569
則失	-11.3569
同梵行者	-11.3571
列釋	-11.3571
玄記	-11.3572
來處	-11.3576
堪受	-11.3578
在家人	-11.3579
舉之	-11.358
為利養故	-11.358
雲集	-11.358
婚	-11.358
若過者	-11.3581
此頌	-11.3583
乃至今	-11.3584
一搩手	-11.3585
楞嚴	-11.3586
共議	-11.3586
式叉摩那沙彌沙彌尼突吉羅	-11.3586
離見聞	-11.3586
應將	-11.3588
衣裳	-11.3588
攝一切	-11.3588
而云	-11.3589
有根	-11.359
屬於	-11.3591
與男子	-11.3592
故下引	-11.3592
泥犁	-11.3593
今於	-11.3593
親屬	-11.3597
皆得墮罪	-11.3598
閏月	-11.3599
豈容	-11.3599
從人	-11.3599
說戒堂	-11.3599
自來	-11.3601
平地	-11.3601
持此衣	-11.3603
見思	-11.3604
斤	-11.3604
出要	-11.3604
同伴	-11.3605
作羯磨者	-11.3605
至于	-11.3607
詔	-11.3608
不呵	-11.361
取用	-11.3613
行至	-11.3613
眾僧中	-11.3615
諸居士見	-11.3616
正語	-11.3618
搖身	-11.3619
烏迴鳩羅	-11.3621
有眾多	-11.3625
中初二句	-11.3626
虱	-11.3627
一舉	-11.3628
任持	-11.3628
之義也	-11.3629
大得	-11.3633
嚕	-11.3633
品中	-11.3635
以神力	-11.3635
不獲	-11.3636
受語	-11.3636
傷害	-11.3636
非相	-11.3637
偈呪	-11.3637
蓮華色	-11.3637
西域記云	-11.3638
褒灑陀	-11.3638
夏三月	-11.3638
寒熱	-11.3639
餘眾	-11.364
欲受	-11.3642
義准	-11.3642
劫貝	-11.3644
長者曰	-11.3645
以論	-11.3647
正示	-11.3649
千人	-11.365
第二明	-11.3651
華光	-11.3651
執持衣鉢	-11.3651
示教利喜	-11.3652
掉臂	-11.3654
沙彌沙彌尼	-11.3657
為破	-11.3657
清旦	-11.3657
塗身	-11.3658
方有	-11.3658
聞是	-11.3659
餘非	-11.3664
至涅槃	-11.3665
佐	-11.3666
亦聽	-11.3666
未制	-11.3667
能行	-11.3667
希求	-11.3669
如幻	-11.3669
叛	-11.3669
頗比丘	-11.3669
形體	-11.3672
多畜	-11.3675
禮僧足	-11.3675
九條	-11.3677
其上	-11.3678
疑犯	-11.3679
卷上	-11.3679
砂	-11.3679
之方	-11.3682
殘宿食	-11.3684
佛地	-11.3685
若起	-11.3687
內煑	-11.3688
無障	-11.369
自手與	-11.3691
指廣	-11.3692
可共	-11.3693
戒本三句	-11.3693
魯	-11.3696
床坐	-11.3696
而不能	-11.3697
不應取	-11.3697
不懺	-11.3701
神呪	-11.3703
以是事白佛	-11.3704
白㲲	-11.3704
▁八	-11.3705
見人	-11.3705
七遮	-11.3705
有娠	-11.3707
但可	-11.3707
圓成	-11.3708
來請	-11.3708
不成者	-11.3709
成衣	-11.371
一味	-11.371
相謂曰	-11.3712
上座前	-11.3712
隨開	-11.3714
故所以	-11.3715
為上	-11.3715
多罪	-11.3716
八年	-11.3717
若僧伽時至聽者	-11.3717
同居	-11.3717
大眾集	-11.372
餘並	-11.3721
上言	-11.3722
捨置	-11.3722
佛問言	-11.3723
或從	-11.3725
作淨施	-11.3725
當觀	-11.3727
之下	-11.3728
告眾	-11.3728
過故	-11.3729
未明	-11.3729
壞者	-11.3732
各一	-11.3732
疲苦	-11.3733
粳米	-11.3734
復作	-11.3734
定罪此中犯者	-11.3735
歸本	-11.3736
具德	-11.3736
入中	-11.3739
河水	-11.3739
左肩	-11.3739
頭面	-11.374
滿數	-11.3742
覆障	-11.3742
細滑	-11.3743
近住	-11.3744
門者	-11.3744
教化眾生	-11.3745
現有	-11.3745
覓罪相	-11.3745
不識事	-11.3745
揀非	-11.3745
鈴	-11.3746
羯磨說戒	-11.3746
盜者	-11.3748
迫	-11.3751
誥	-11.3752
右遶	-11.3752
氷	-11.3752
此天	-11.3753
為解	-11.3753
轉側	-11.3754
害心	-11.3754
寢	-11.3755
死時	-11.3755
自恣日	-11.3757
無物	-11.3758
翻名	-11.3759
毱多	-11.3767
唱云	-11.3767
無量功德	-11.3768
說已	-11.3769
歸戒	-11.377
近事	-11.3774
我從	-11.3775
爾時有比丘	-11.3775
於王	-11.3776
容儀	-11.3778
令淨人	-11.3778
不婬	-11.3779
佛滅後	-11.3781
驅出羯磨	-11.3782
賊難	-11.3783
和尚尼	-11.3784
集法	-11.3784
違背	-11.3785
捨此事	-11.3785
與沙彌	-11.3787
然下	-11.3787
俗中	-11.3789
王者	-11.3791
云何為五	-11.3792
進止	-11.3793
賣買	-11.3794
以慈心	-11.3797
餘六	-11.3799
從乞	-11.3799
畏慎不敢	-11.38
擁	-11.3802
僧應與	-11.3802
例此	-11.3805
可於	-11.3806
金銀錢	-11.3807
擗	-11.3809
摩竭	-11.3809
篤信	-11.3811
三障	-11.3811
深防	-11.3812
次說	-11.3815
大綱	-11.3819
評論	-11.3819
一夏	-11.382
若沙彌	-11.382
體同	-11.382
一切世間	-11.3822
捨家	-11.3822
靴	-11.3823
青黃赤白	-11.3823
然其	-11.3825
通緣	-11.3825
淵	-11.3827
誦持	-11.3828
無解	-11.3828
過去諸佛	-11.383
毗盧遮那	-11.3831
若不作衣	-11.3832
發無作	-11.3833
哆	-11.3834
惡知識	-11.3834
舒手	-11.3834
結罪是中犯	-11.3837
治人	-11.3837
不障	-11.3837
心念口言	-11.384
二境	-11.3842
通夜	-11.3842
依於	-11.3844
大事	-11.3845
有二十	-11.3845
汝等當	-11.3846
諸大菩薩	-11.3846
無用	-11.3847
論者	-11.3852
鈔引	-11.3852
我知正法	-11.3855
室中	-11.3859
血肉	-11.386
犯波逸提	-11.386
石上	-11.3864
伹有	-11.3866
本作	-11.3869
戒緣	-11.387
是輕	-11.3872
於空	-11.3873
六七	-11.3874
得僧伽婆尸沙	-11.3876
是為不犯	-11.3876
隨開不犯者	-11.3877
受也	-11.3878
說過	-11.3879
共我	-11.3881
生慚愧	-11.3883
戒總釋	-11.3883
二心	-11.3883
嫌罵	-11.3885
更說	-11.3885
得飲	-11.3886
半月半月說	-11.3886
斷其命	-11.3886
與眾僧	-11.3887
入法	-11.3888
攝善法戒	-11.389
種種方便	-11.389
涌	-11.3893
初總標	-11.3894
之智	-11.3896
空有	-11.3896
準知	-11.3897
絃	-11.3898
築	-11.3899
後起	-11.3899
叩	-11.3903
供具	-11.3903
身無	-11.3903
開門	-11.3904
心淨	-11.3905
互有	-11.3907
雜物	-11.3907
糓	-11.3907
故結	-11.3907
身衣	-11.3907
』	-11.3907
導師	-11.3908
不共語	-11.3908
無所有處	-11.391
第三人	-11.391
旛	-11.3913
來集	-11.3915
惡邪不除擯	-11.3916
所宗	-11.3918
不犯波羅夷	-11.3918
此樹	-11.3922
何容	-11.3922
以指	-11.3925
得淨	-11.3927
戒學	-11.3928
一吉	-11.3928
自讚	-11.3929
擁護	-11.3929
分臥具	-11.3929
略明	-11.393
一類	-11.3931
令去	-11.3933
和尚尼某甲	-11.3933
之色	-11.3934
若殺	-11.3936
已成	-11.3937
雙足	-11.3937
泄	-11.394
前方便	-11.3942
結業	-11.3942
五處	-11.3943
村落	-11.3945
來至我所	-11.3946
宮人	-11.3947
五體投地	-11.3949
白佛結戒	-11.3952
重重	-11.3954
進退	-11.3954
四處	-11.3955
殺業	-11.3955
依前	-11.3956
制法	-11.3958
坐家內	-11.3959
▁一心頂禮	-11.3959
地獄中	-11.3961
以示	-11.3962
下文云	-11.3963
迮	-11.3965
一切功德	-11.3967
依止師	-11.3968
g	-11.3968
im	-11.3968
五過	-11.397
有所須	-11.3971
粉	-11.3971
十三日	-11.3972
猴	-11.3972
有怖	-11.3972
▁初總標	-11.3973
所餘	-11.3973
非衣	-11.3974
三賢	-11.3974
下音	-11.3975
悕	-11.3975
六齋日	-11.3977
酌	-11.3977
向彼	-11.3978
讐	-11.3979
復本	-11.3979
長跪合掌	-11.3981
矛	-11.3981
別乞	-11.3981
客作	-11.3982
語諸比丘言	-11.3982
倚傍	-11.3983
善生經	-11.3984
為他作	-11.3984
其形	-11.3985
機緣	-11.3986
最下	-11.3986
後受	-11.3986
懈	-11.3987
道器	-11.3987
夏衣	-11.3989
作四句	-11.399
國主	-11.399
辟支	-11.399
五正食	-11.3991
僧寺	-11.3992
求之	-11.3993
在初	-11.3997
比丘尼義如上	-11.3997
有損	-11.3997
下地	-11.3997
多用	-11.3998
脩道	-11.3998
生草木	-11.4
得人身	-11.4002
事難	-11.4005
標名	-11.4008
諸界	-11.4011
向彼說	-11.4011
所食	-11.4011
難思	-11.4017
令作	-11.4018
非人女	-11.4019
如法如律	-11.4019
得夷	-11.4019
願僧與我	-11.402
大略	-11.4021
並名	-11.4021
飢餓	-11.4022
應說	-11.4022
失不淨	-11.4023
受彼	-11.4024
從僧乞六夜摩那埵	-11.4025
牟	-11.4028
吾祖	-11.4029
翻前	-11.403
昔時	-11.4031
要假	-11.4031
月一日	-11.4035
出三界	-11.4036
并諸眷屬	-11.4037
中陰	-11.4039
勸修	-11.404
畜養	-11.404
貼	-11.404
古解	-11.4041
<	-11.4043
道品	-11.4043
諍者	-11.4045
複	-11.4045
歇	-11.4047
屠兒	-11.4047
所傳	-11.4048
釋迦如來	-11.4048
以定	-11.4048
蔓	-11.4049
境也	-11.4049
百四十	-11.4051
親附	-11.4051
令正法久住	-11.4052
令眾生	-11.4053
瓜	-11.4054
若居士	-11.4055
斛	-11.4058
制者	-11.4058
我當云何	-11.4059
義立	-11.4059
豈是	-11.406
三別	-11.4062
能見	-11.4064
放生	-11.4064
摩訶迦葉	-11.4065
據理	-11.4066
能障	-11.4066
初制	-11.407
宿食	-11.4071
往生	-11.4071
阿耨多羅三藐三菩提	-11.4071
此偈	-11.4076
無諍	-11.4077
沙門釋	-11.4081
之謂也	-11.4081
遮罪	-11.4083
妄心	-11.4084
語業	-11.4084
半月摩那埵	-11.4085
復還	-11.4085
說是戒經	-11.4087
二十年	-11.4092
大菩薩	-11.4096
婆羅痆斯	-11.4097
於三寶	-11.4099
證上	-11.4101
若遣使	-11.4103
此地	-11.4104
作器	-11.4106
集比丘僧	-11.4106
不亂	-11.4106
流入	-11.4107
專心	-11.411
摩竭國	-11.4112
捉寶	-11.4113
沐浴	-11.4116
滑	-11.4118
十界	-11.4118
非制	-11.412
象鼻	-11.4122
眾皆	-11.4122
黑月	-11.4122
到佛所	-11.4125
甄	-11.4129
沾	-11.4129
磔手	-11.413
祝	-11.4132
大家	-11.4133
若賊	-11.4133
不辨	-11.4133
塔物	-11.4134
自觀	-11.4134
應作是說	-11.4134
大功德	-11.4137
入聖	-11.4139
母曰	-11.4139
矜	-11.414
我子	-11.414
述意	-11.4142
願力	-11.4142
三羯磨	-11.4144
其師	-11.4145
生人中	-11.4146
離於	-11.4146
教誨	-11.4149
消息	-11.4149
法堂	-11.4152
第三分	-11.4154
疏鈔	-11.4155
維摩	-11.4156
復有五種	-11.4159
教言	-11.416
聲聞眾	-11.416
營作	-11.4163
無量劫	-11.4165
若爾何故	-11.4167
之根本	-11.4167
廣誦	-11.4168
一道	-11.4169
聽著	-11.4173
復生	-11.4173
名淨	-11.4174
十七日	-11.4174
眾學法	-11.4174
三請	-11.4176
從僧乞覆藏羯磨	-11.4176
不類	-11.4177
卷第二十	-11.4178
有六種	-11.4179
耽	-11.4179
念曰	-11.418
戲論	-11.4181
為人所	-11.4182
而不知	-11.4182
造一切罪	-11.4183
制斷	-11.4185
終至	-11.4186
當起	-11.4188
毀戒	-11.4189
疑不識	-11.4191
不繁	-11.4194
當持	-11.4195
與法	-11.4195
慈氏	-11.4198
就此	-11.4198
輕賤	-11.4199
二寶	-11.4201
佛未聽	-11.4201
於一切眾生	-11.4201
剩	-11.4203
時彼苾芻	-11.4204
義亦	-11.4204
禮拜問訊	-11.4207
慧心	-11.4207
藏者	-11.4207
彼宗	-11.4207
相同	-11.4209
約教	-11.421
救濟	-11.4212
一明	-11.4212
幾許	-11.4214
如是思惟	-11.4217
無所畏	-11.4218
入王宮	-11.4219
復得	-11.4219
秉白	-11.4221
自成	-11.4221
四義	-11.4225
衣鉢等	-11.4225
十方僧	-11.4228
以十利故與比丘尼結戒	-11.423
大論	-11.423
欲至	-11.423
釋成	-11.4232
大世主	-11.4232
停更望得	-11.4232
先問	-11.4235
難者	-11.4236
純黑	-11.4236
即用	-11.4237
前引	-11.4237
舉其	-11.4237
現在前	-11.4238
大喚	-11.4241
眾鳥	-11.4242
世尊以此因緣集比丘僧	-11.4244
無主物	-11.4246
誰諸長老	-11.4248
佛在舍衛城	-11.425
會通	-11.4253
貪等	-11.4254
犯此罪	-11.4254
。◎	-11.4264
牒前	-11.4264
正表	-11.4265
一角	-11.4267
未離	-11.4267
作屋	-11.4268
淨居天	-11.4271
若師	-11.4272
核	-11.4272
映	-11.4273
鑽	-11.4273
不妄	-11.4273
諸比丘以是白佛	-11.4275
數數食	-11.4276
又無犯者	-11.4277
巢	-11.4277
沐	-11.4277
嫌言	-11.4277
湖	-11.4278
不來者	-11.4279
諸沙彌	-11.4279
後分	-11.4281
便作	-11.4281
向佛	-11.4284
畜眾	-11.4284
如是說	-11.4286
令汝	-11.4286
福利	-11.4287
因中	-11.429
下意	-11.4293
一丈	-11.4294
我昔	-11.4295
得波羅夷罪	-11.4295
謗者	-11.4298
寧可	-11.4299
今准	-11.4301
異於	-11.4305
復次佛住舍衛城	-11.4305
佛在世時	-11.4309
誦律	-11.4314
僧伽應許僧伽今	-11.4315
此鉢	-11.4317
解之	-11.432
共行弟子	-11.4322
善說	-11.4322
有檀越	-11.4323
通利	-11.4324
沙彌十戒	-11.4325
他心	-11.4329
應食	-11.4329
通標	-11.433
唯此	-11.433
不發露	-11.4333
萬法	-11.4334
犯緣此戒具足	-11.4334
▁初分文	-11.4335
當分	-11.4338
尼無	-11.4339
扣	-11.434
故衣	-11.4341
了達	-11.4342
教勅	-11.4344
簷	-11.4344
前坐	-11.4345
應令	-11.4345
尊貴	-11.4345
三衣中	-11.4346
二制	-11.4347
是諸比丘	-11.4348
可用	-11.4348
彼經	-11.4351
以求	-11.4353
名通	-11.4353
表白	-11.4354
必假	-11.4354
交會	-11.4355
效	-11.4358
斷滅	-11.4358
劒	-11.4359
即約	-11.4361
總相	-11.4364
有部	-11.4366
滅故	-11.4367
觀者	-11.4367
汙家	-11.437
引導	-11.4371
來報	-11.4371
生歡喜	-11.4371
一百二十	-11.4374
聞疑	-11.4375
集諦	-11.4375
唯心	-11.4376
之初	-11.4376
阿羅	-11.4376
生種	-11.4378
極少	-11.438
隨次	-11.438
分衛	-11.4382
妨處	-11.4384
前五	-11.4385
共有	-11.4385
任意	-11.4391
皆無犯	-11.4392
相助	-11.4392
▁九	-11.4394
不見擯	-11.4394
持法	-11.4394
自作教人	-11.4396
不畜	-11.4396
引十誦	-11.4396
五支	-11.4399
別說	-11.44
虛妄	-11.4403
憍陳如	-11.4404
佛亦	-11.4406
如本	-11.4407
聞此語已	-11.4408
僧祇支	-11.441
人現前	-11.4412
諸具壽	-11.4412
開十日	-11.4412
而往	-11.4413
后	-11.4414
水器	-11.4414
觀想	-11.4415
經卷	-11.4416
事事	-11.4416
最為第一	-11.4416
兩相	-11.4416
癩	-11.4417
為斷	-11.4418
僧不差	-11.4418
僧諫	-11.4421
祕	-11.4422
卷第五	-11.4422
復有五法	-11.4424
無上道	-11.4425
變成	-11.4425
婆提	-11.4425
法謗	-11.4429
斷惡	-11.4431
炤	-11.4431
在身	-11.4434
緣開	-11.4435
謂同	-11.4435
受緣	-11.4435
鍾	-11.4436
急施	-11.4438
塵土	-11.4441
一白	-11.4441
經曰	-11.4442
無其	-11.4444
衣角	-11.4446
惱害	-11.4447
諸長者	-11.4451
中路	-11.4452
齊限	-11.4453
便語	-11.4454
大小行	-11.4454
小房	-11.4454
恐人	-11.4455
苾芻不應	-11.4457
四分中	-11.4459
皆可	-11.446
之數	-11.4461
孔子	-11.4466
事上	-11.4469
飽足	-11.4469
依報	-11.447
出家受具足	-11.4472
一化	-11.4473
如水乳合	-11.4473
深生	-11.4474
入滅	-11.4475
二序事	-11.4475
入佛法	-11.4475
▁二五下	-11.4476
者無罪	-11.4477
勸受	-11.4477
彼應	-11.4477
無所得	-11.4478
戒本中	-11.4478
有戒	-11.448
因也	-11.4481
觀音	-11.4481
惡心出佛身血	-11.4481
▁初牒章	-11.4482
不得為說法	-11.4482
犍度中	-11.4482
地敷	-11.4482
為始	-11.4485
法忍	-11.4485
得已	-11.4485
如昔	-11.4486
僧家	-11.4487
無信	-11.4488
自壞	-11.449
得安隱	-11.449
陶師	-11.4492
綵	-11.4493
汝何故	-11.4493
阿鼻地獄	-11.4494
劫盜	-11.4495
沙門果	-11.4496
引用	-11.4497
慈悲喜捨	-11.4498
便入	-11.4499
謂約	-11.4501
和合眾	-11.4504
▁一心奉請	-11.4505
下二衣	-11.4507
六通	-11.4507
與俗	-11.4507
翳	-11.4508
或無	-11.4509
霧	-11.4509
杜	-11.4509
一下	-11.4513
授受	-11.4513
汝見	-11.4515
十發趣	-11.4516
之稱	-11.4516
皈	-11.4521
向餘	-11.4521
十八界	-11.4524
若過五錢	-11.4526
無根謗	-11.4526
由延	-11.4527
不空	-11.4528
四心	-11.453
觀智	-11.453
華嚴云	-11.453
之福	-11.4531
▁二答	-11.4532
又是	-11.4534
下四句	-11.4537
來到	-11.4537
七眾同	-11.4538
釋迦牟尼佛	-11.4543
不作擯	-11.4546
五邪	-11.4546
聖位	-11.4548
所屬	-11.4548
攝法	-11.4549
下約	-11.4549
過罪	-11.4551
君子	-11.4553
將護	-11.4555
除之	-11.4559
火中	-11.4562
▁二引	-11.4562
手巾	-11.4563
中人	-11.4564
甚多	-11.4565
剃除鬚髮	-11.4566
瓮	-11.4568
賊心	-11.4568
王名	-11.4569
所語言	-11.4571
若已	-11.4571
時具壽	-11.4573
五肘	-11.4579
疑者	-11.4581
征	-11.4581
時諸比丘聞	-11.4585
生報	-11.4588
六群比丘尼	-11.4589
空理	-11.4589
初言	-11.459
遂生	-11.4591
泯	-11.4593
大小便處	-11.4593
色也	-11.4593
瘥	-11.4595
此律云	-11.4595
所害	-11.4595
臆	-11.4596
傍人	-11.4596
憂婆	-11.4597
是故我	-11.4598
殷勤	-11.4598
區	-11.4599
結示	-11.46
佛菩薩形像	-11.4601
離垢	-11.4603
審諦	-11.4605
不勝	-11.4608
以理	-11.4608
所觀	-11.4609
或依	-11.4612
優波	-11.4613
離染	-11.4613
者吉羅	-11.4615
重閣	-11.4615
僧制	-11.4616
然今	-11.4616
斯則	-11.4618
家內	-11.4619
妄說	-11.4619
福報	-11.462
當語	-11.462
奪命	-11.4622
第十六	-11.4623
四兵	-11.4623
向外	-11.4624
無論	-11.4624
觀自在	-11.4624
勝故	-11.4625
善護	-11.4628
令心	-11.4628
惑業	-11.463
略釋	-11.4631
▁二僧下	-11.4632
有八種	-11.4635
道心	-11.4635
巳外	-11.4637
欲害	-11.4638
心悔	-11.4639
彼聞	-11.4641
惡邪	-11.4644
異道	-11.4644
文可解	-11.4646
正法久住	-11.4648
佐助	-11.4648
幻化	-11.4649
用水	-11.4649
輕毀	-11.4649
即出	-11.465
正智	-11.4651
以斯	-11.4652
破羯磨僧	-11.4652
寺門	-11.4654
羯磨不成	-11.4654
蟻子	-11.4654
具修威儀	-11.4654
卷下	-11.4654
叔	-11.4656
圓明	-11.4656
約時	-11.4658
講說	-11.4659
時人	-11.466
若不解	-11.4663
廣辨	-11.4667
二比丘尼	-11.4668
布薩羯磨	-11.4669
群生	-11.4669
皆能	-11.467
三羯磨竟	-11.4671
作人	-11.4671
大力	-11.4673
發大	-11.4674
不貪	-11.4674
有婆羅門	-11.4675
下次約	-11.4676
拈	-11.4676
操	-11.4678
無性	-11.4679
振鈴	-11.468
不救	-11.4681
後言	-11.4682
云何汝等	-11.4682
而為出家	-11.4682
較	-11.4684
身亡	-11.4684
五十八	-11.4685
一一衣	-11.4689
句也	-11.4689
比坐	-11.469
正翻	-11.4695
吽	-11.4697
自得	-11.4698
▁二此下	-11.4699
獨處	-11.4701
木作	-11.4703
師言	-11.4708
別作	-11.4708
南北	-11.4709
時舍利弗	-11.4712
未來世	-11.4717
檢校	-11.4719
承上	-11.4719
諦觀	-11.472
之樂	-11.472
更無餘	-11.472
得波逸提	-11.4721
急事	-11.4722
準上	-11.4722
別諫	-11.4724
五識	-11.4725
而還	-11.4726
經中說	-11.4726
十心	-11.4727
前之	-11.4727
因即	-11.4728
旗	-11.4728
方廣	-11.473
不飲	-11.4732
挍	-11.4734
有慚愧	-11.4737
屣	-11.4737
種族	-11.4738
芳	-11.4738
乙	-11.4738
巳起	-11.4738
大富	-11.4742
十迴向	-11.4742
酢	-11.4743
末後	-11.4743
或得	-11.4744
無教	-11.4744
摸	-11.4744
之首	-11.4745
輕戒	-11.4745
筏	-11.4745
地水火風	-11.4748
至後	-11.4751
從座起	-11.4752
麴	-11.4752
和尚阿闍黎	-11.4753
此菩薩	-11.4754
法眼	-11.4754
無村	-11.4756
尚有	-11.4757
我等今	-11.4758
所應作	-11.4758
且依	-11.4759
岳	-11.4759
迦提月	-11.4761
勝於	-11.4761
唯有一	-11.4763
大乘經律	-11.4765
但知	-11.4766
難中	-11.4767
而下	-11.4768
沙門法	-11.4768
是沙門	-11.4769
兩犯	-11.4771
當如法	-11.4771
一切如來	-11.4772
縵衣	-11.4772
生也	-11.4774
作句	-11.4778
行業	-11.4779
勝劣	-11.4779
不可盡	-11.478
大仙	-11.478
狂人	-11.4781
供僧	-11.4781
八支	-11.4782
當念	-11.4783
為第一	-11.4783
飢儉	-11.4786
生年	-11.4787
律明	-11.4792
慈念	-11.4793
其福	-11.4795
何故不	-11.4795
始得	-11.4798
為三寶	-11.4801
而修	-11.4801
今我	-11.4802
受籌	-11.4803
五里	-11.4804
非時入聚落	-11.4806
入村乞食	-11.4808
還須	-11.4808
例同	-11.4813
愛欲	-11.4814
不識犯	-11.4814
炷	-11.4815
某時	-11.4816
讚嘆	-11.4817
一期	-11.4818
半由旬	-11.4818
像前	-11.4818
猫	-11.4818
皆重	-11.482
一唱	-11.4821
閙	-11.4823
爾時長老	-11.4823
聞彼	-11.4823
是為五	-11.4824
掠	-11.4824
嚮	-11.4824
薦	-11.4824
殘罪	-11.4825
鉢羅	-11.4829
婦言	-11.4829
空空	-11.4832
爾時佛	-11.4832
諸處	-11.4833
不持戒	-11.4833
窮盡	-11.4833
辨也	-11.4834
十日內	-11.4837
解行	-11.4837
當與汝	-11.4839
及一切	-11.4841
通指	-11.4842
外有	-11.4846
不慎	-11.4847
下半	-11.4847
便捨	-11.485
屏處坐	-11.4852
二吉	-11.4852
當共	-11.4852
受殘食法	-11.4852
之家	-11.4853
瞻病人	-11.4855
作沙彌	-11.4859
顯其	-11.486
同處	-11.486
其法	-11.4861
六眾苾芻	-11.4862
是長老	-11.4863
僧體	-11.4864
淨也	-11.4867
終日	-11.4868
莊飾	-11.4872
目揵連	-11.4873
羯恥那衣	-11.4873
至地	-11.4875
人名	-11.4876
因是	-11.4877
故來	-11.4877
一節	-11.4878
軍陣	-11.4878
此由	-11.4879
分文	-11.4881
又曰	-11.4882
受諸	-11.4882
無容	-11.4885
諸門	-11.4886
一行	-11.4887
長老一心念	-11.4888
瓫	-11.489
若巳	-11.489
思惑	-11.4891
夜中	-11.4891
由戒	-11.4892
嚼齒木	-11.4894
法毗尼	-11.4896
目犍連	-11.4898
窣堵波	-11.4902
漉水	-11.4903
不加	-11.4904
初學	-11.4905
汝等莫	-11.4907
有信	-11.4907
不敢受	-11.4908
於地	-11.4909
以諸	-11.4909
季	-11.491
當宗	-11.491
離惡	-11.491
小事	-11.491
峯	-11.4911
合注	-11.4911
忻	-11.4912
應舉	-11.4912
▁初標舉	-11.4913
四人巳上	-11.4914
輸稅	-11.4915
欲清淨	-11.4916
陰陽	-11.4916
須具	-11.4917
由於	-11.4917
次列	-11.4918
持禁戒	-11.4918
麻衣	-11.4918
百一羯磨	-11.4919
壇場	-11.492
尋之	-11.492
本受	-11.4921
律部	-11.4921
二果	-11.4923
能施	-11.4923
所敬	-11.4924
戒佛在舍衛	-11.4924
何處得	-11.4925
放火	-11.4926
高勝	-11.4928
好相	-11.4928
得服	-11.4929
可往	-11.4932
解說	-11.4932
曇摩	-11.4933
各三	-11.4934
善言	-11.4935
三自歸	-11.4936
有多種	-11.4936
非眾生	-11.4937
吉羅者	-11.4941
菩薩藏	-11.4941
轉變	-11.4942
心常	-11.4942
若舉	-11.4943
乃見	-11.4944
一篇	-11.4946
三唱	-11.4948
從今日後不聽	-11.4948
若不受	-11.4951
極小	-11.4951
為實	-11.4952
無宜	-11.4953
當依	-11.4954
佛塔中	-11.4954
畜寶	-11.4955
二知	-11.4956
當機	-11.4956
隨愛	-11.4957
如法作	-11.4959
復為	-11.4963
族姓	-11.4964
隨語	-11.4964
止住	-11.4965
不任	-11.4965
豪	-11.4966
成等正覺	-11.4966
身見	-11.4966
為顯	-11.4967
對一人	-11.4968
得須陀洹	-11.4968
末利夫人	-11.4968
比丘尼某甲	-11.4968
駝	-11.4969
自謂	-11.4973
梳	-11.4974
追悔	-11.4974
生命	-11.4974
無量眾生	-11.4979
軌範	-11.4981
勝鬘	-11.4982
聞是語	-11.4982
螫	-11.4983
腸	-11.4984
美味	-11.4985
有三義	-11.4986
識心	-11.4987
非法羯磨	-11.4987
故下文云	-11.4988
攻	-11.4991
我不能	-11.4992
捨威儀	-11.4994
麵	-11.4995
更復	-11.4996
眾別	-11.4997
覆不覆	-11.4997
超越	-11.4998
開許	-11.4999
內衣	-11.5001
上半	-11.5001
破結	-11.5004
內身	-11.5004
塵勞	-11.5005
便失	-11.5006
一羯磨	-11.5007
前世	-11.5008
五道	-11.5008
呵責六群比丘	-11.501
若惡	-11.5011
苦切	-11.5012
若弟子	-11.5015
亦不成	-11.5015
取著	-11.5017
此癡人	-11.5022
二十九日	-11.5025
之門	-11.5026
讚戒	-11.5026
出家受戒	-11.503
僧中捨	-11.503
非時藥	-11.503
此舉	-11.5031
惡報	-11.5031
作務	-11.5033
作罪	-11.5035
惡名	-11.5036
犯者突吉羅	-11.5036
發趣	-11.5036
七緣	-11.5036
犯境	-11.5037
猶故不	-11.5037
未解	-11.5038
祇文	-11.504
現前毘尼	-11.5042
處中	-11.5043
作隨意	-11.5044
則不爾	-11.5049
二不定法	-11.5051
教汝	-11.5051
若觸	-11.5051
不應用	-11.5052
選擇	-11.5055
持淨戒	-11.5055
一段	-11.5055
多作	-11.5056
繫心	-11.5056
呵責羯磨	-11.5057
至僧伽藍中	-11.5058
官人	-11.5059
洟唾	-11.5062
情懷	-11.5063
竺	-11.5064
天帝	-11.5065
六十三步	-11.5066
繡	-11.5066
引僧祇	-11.5067
貢高	-11.5067
有瘡	-11.5067
溝	-11.5068
開悟	-11.5068
吸	-11.5068
無利益	-11.5069
財施	-11.5072
我本	-11.5072
滓	-11.5074
色衣	-11.5074
己身	-11.5074
始知	-11.5075
作白四羯磨	-11.5075
未證	-11.5076
錢財	-11.5076
摩夷	-11.5076
閇	-11.5077
步步	-11.5078
文雖	-11.508
亦無犯	-11.508
火坑	-11.508
階降	-11.5081
正為	-11.5086
離苦	-11.5088
深云	-11.5089
四篇	-11.5092
諸比丘白佛言	-11.5093
我不見	-11.5095
根塵	-11.5098
渡水	-11.5098
搜玄	-11.5099
而白佛言	-11.51
大德云	-11.5102
但說	-11.5104
不隨順	-11.5105
▁二十下	-11.5107
兜率天	-11.5111
復是	-11.5111
有限	-11.5112
之由	-11.5114
瞿曇彌	-11.5115
為防	-11.5116
以是故	-11.5117
作學家羯磨	-11.5118
以十利故與諸比丘	-11.5119
別示	-11.5121
若下明	-11.5122
隨癡	-11.5124
作淨地	-11.5125
念誦	-11.5125
躄	-11.5127
無淨人	-11.5128
俱重	-11.513
夏安居竟	-11.5131
利者	-11.5133
決通	-11.5133
進道	-11.5135
義加	-11.5135
道行時	-11.5136
持三衣	-11.5138
就彼	-11.5139
作證	-11.514
齎	-11.5141
出現於世	-11.5142
忿怒	-11.5142
澁	-11.5142
斥古	-11.5143
作法界	-11.5144
白竟	-11.5145
造罪	-11.5145
經言	-11.5146
憫	-11.515
俱胝	-11.5152
隨順行	-11.5152
酪漿	-11.5152
安在	-11.5154
隨瞋	-11.5154
秘	-11.5155
得安樂住	-11.5156
大集經	-11.5157
婆論云	-11.5158
曾嫁	-11.5158
離見聞處	-11.5158
出精	-11.5158
僧得施	-11.516
有識	-11.516
今謂	-11.5161
晦	-11.5161
得阿羅漢果	-11.5161
酒色	-11.5162
自今已去聽	-11.5162
鳴鐘	-11.5163
而更	-11.5164
無滯	-11.5165
呼為	-11.5166
損惱	-11.5167
亦合	-11.5167
殷重	-11.5167
著三衣	-11.5169
鉢多羅	-11.5169
一月五月	-11.5172
過去世	-11.5173
標中	-11.5175
自作教他	-11.5177
一女人	-11.5179
攝善	-11.5181
下鉢	-11.5181
欲想	-11.5185
重難	-11.5185
今何	-11.5189
婆沙云	-11.5189
四聖諦	-11.5189
餘如上說	-11.5191
授人大戒	-11.5192
過惡	-11.5192
光照	-11.5194
個	-11.5194
母經	-11.5201
師子座	-11.5202
第七日	-11.5202
毘舍	-11.5205
妄計	-11.5206
十五種	-11.5208
留難	-11.5209
不須更	-11.521
諸居士呵責	-11.521
下次釋	-11.5212
十長養	-11.5216
下引示	-11.5216
於眾中	-11.5217
勸信	-11.5217
不顧	-11.5219
虎狼	-11.522
僧尼同犯	-11.5221
刀子	-11.5221
拘薩羅國	-11.5222
微笑	-11.5223
脣	-11.5225
出家學道	-11.5226
四錢	-11.523
藝	-11.5232
情事	-11.5233
不敢覆藏	-11.5235
諸事	-11.5236
蹤	-11.5237
傲	-11.5237
首疏	-11.5237
獲大	-11.5238
能觀	-11.524
二三四	-11.5242
故號	-11.5242
三眾突吉羅	-11.5243
生老病死	-11.5245
下正釋	-11.5245
獨頭	-11.5245
簡擇	-11.5245
耎	-11.5246
有三品	-11.5246
伽論云	-11.5247
兆	-11.5247
諮問	-11.5248
株	-11.5248
有欲心	-11.5248
一兩	-11.5248
諷誦	-11.5249
長安	-11.525
此非法	-11.5251
莫放逸	-11.5251
諸業	-11.5252
等取	-11.5254
不對	-11.5254
可懺	-11.5254
疑事	-11.5255
心體	-11.5256
常隨	-11.5257
不足者	-11.5258
盡得	-11.5259
與受戒	-11.5266
佛開	-11.5266
隨怖	-11.5268
唯得	-11.527
假他	-11.5273
指略	-11.5274
在家出家	-11.5274
金寶	-11.5275
至二十	-11.5276
作大房	-11.5276
受具戒時	-11.5279
非望而得	-11.5281
簡別	-11.5282
非善	-11.5283
人非人	-11.5284
攝衣界	-11.5287
犯四重	-11.5289
九百	-11.529
我今寧可	-11.5291
遂於	-11.5291
家人	-11.5292
財利	-11.5292
顏貌端正	-11.5294
畢陵伽婆蹉	-11.5294
乞食難得	-11.5295
尊者阿難	-11.5295
和合者	-11.5295
無所有	-11.5295
曝	-11.5295
五十七	-11.5296
毀謗	-11.5297
打破	-11.53
同制	-11.5302
祕密	-11.5304
得具足戒	-11.5306
制聽	-11.5306
要當	-11.5307
七門	-11.5307
先世	-11.5308
遮自恣	-11.5308
顯現	-11.5308
即滅	-11.5309
著一處	-11.531
竿	-11.5313
資糧	-11.5314
若有所	-11.5315
迴僧物	-11.5317
若白衣	-11.532
大象	-11.5323
遮止	-11.5324
相言	-11.5325
六趣	-11.5326
同活	-11.5326
喚來	-11.5329
匪	-11.5332
矯	-11.5332
在空	-11.5333
皆約	-11.5333
本部	-11.5335
所犯罪	-11.5335
嶺	-11.5336
所不應	-11.5337
列相	-11.5338
方知	-11.5339
淨衣	-11.534
是中有	-11.5342
便持	-11.5342
第四人	-11.5342
文證	-11.5345
無殘	-11.5346
不與汝	-11.5347
幾時	-11.5348
作法者	-11.5349
非實	-11.535
作訶諫	-11.5351
迦葉佛時	-11.5352
之機	-11.5354
無妨處	-11.5355
汝等云何	-11.5356
以刀	-11.5359
四事供養	-11.5359
狀如	-11.5361
念已	-11.5361
不悅	-11.5363
七遍	-11.5365
▁釋	-11.5365
中亦有	-11.5366
三乞	-11.5367
且就	-11.5368
中文三	-11.537
鐵鉢	-11.5371
羂	-11.5373
散亂心	-11.5375
序中	-11.5376
殺父母	-11.5377
好色	-11.5379
是難	-11.538
受得戒	-11.5383
伽耶	-11.5384
商客	-11.5385
不犯者最初未制戒等	-11.539
生死海	-11.5391
化相	-11.5391
汝等當知	-11.5391
問答中	-11.5393
想心	-11.5394
之法也	-11.5396
當知是人	-11.5397
而說偈言	-11.5398
踈	-11.5399
擣	-11.5403
珊	-11.5404
二十五肘	-11.5405
佛不聽	-11.5406
衣鉢具足	-11.5408
惡邪見	-11.5411
翼	-11.5413
其地	-11.5414
伯	-11.5415
烈	-11.5416
纖	-11.5418
二入文	-11.5418
但作	-11.5419
兩處	-11.5419
齋法	-11.5421
四人僧	-11.5422
有七種	-11.5422
初舉略	-11.5423
南山云	-11.5423
盡形壽藥	-11.5426
爛壞	-11.5426
對手	-11.5427
律宗	-11.5428
生熟	-11.5429
若二人	-11.543
一口	-11.543
腋下	-11.5432
位別	-11.5433
三道	-11.5434
異分	-11.5437
會採	-11.5442
偷羅難陀	-11.5442
自顯	-11.5443
諸女人	-11.5443
亦重	-11.5444
奉教	-11.5445
一緣	-11.5446
相待	-11.5448
治生	-11.5448
耳語	-11.5449
理通	-11.5457
並同前	-11.5457
名種	-11.546
不善法	-11.546
四寸	-11.546
上人法	-11.5461
曼荼羅法	-11.5462
和南	-11.5464
別住人	-11.5464
他事	-11.5465
若得長利	-11.5466
不坐	-11.5466
當教	-11.5467
作是思惟	-11.5469
之師	-11.547
帒	-11.5474
議曰	-11.5476
踊	-11.5476
譏訶	-11.5477
結坐	-11.5478
佛在給孤獨園	-11.548
諸龍	-11.548
合上	-11.548
釧	-11.5481
▁三問	-11.5481
剃刀	-11.5481
平聲	-11.5482
持誦	-11.5483
盡智	-11.5483
不存	-11.5483
鍼筒	-11.5485
於世間	-11.5485
罪惡	-11.5485
得罪同前	-11.5486
因何	-11.5488
驛	-11.5488
諂曲	-11.5488
能造	-11.5491
夾	-11.5491
其女	-11.5492
我今如是	-11.5492
自當知	-11.5493
更食	-11.5493
重說	-11.5494
悋	-11.5495
援	-11.5496
五法成就	-11.5499
護心	-11.5499
大小俱制	-11.5499
犯二事	-11.55
穀米	-11.55
證入	-11.55
誌	-11.5503
脈	-11.5503
効	-11.5504
旬	-11.5505
喜悅	-11.5506
應呵	-11.5508
捨與僧	-11.5511
瓦鉢	-11.5512
眾生心	-11.5512
下隨釋	-11.5513
犯偷羅遮	-11.5516
有好	-11.5517
本事	-11.5518
劫奪	-11.552
請處	-11.5521
施設	-11.5521
諦理	-11.5522
有信心	-11.5526
簡非	-11.5528
以惡心故	-11.5531
地前	-11.5532
自性清淨	-11.5537
如法比丘	-11.5538
毀破	-11.5539
與外道	-11.5539
▁初正	-11.5542
夷殘	-11.5543
除因緣	-11.5544
施我	-11.5546
正辨	-11.5546
取欲	-11.5548
以無數方便呵責已	-11.5549
應如法治	-11.5549
一磔手	-11.555
同名	-11.5553
傘蓋	-11.5553
當日	-11.5556
我今宜可	-11.5557
得樂	-11.5558
耶輸伽	-11.556
迦蘭陀	-11.5561
合云	-11.5562
得須陀洹果	-11.5562
崛	-11.5562
能捨	-11.5562
生淨土	-11.5563
時限	-11.5564
懶惰	-11.5564
若比丘在	-11.5564
廣中	-11.5565
中初標	-11.5565
彼家	-11.5565
有染心	-11.5567
最重	-11.557
鑿	-11.5572
見聞疑罪	-11.5573
誅	-11.5573
塚	-11.5575
勿生	-11.5576
出定	-11.5578
稠	-11.5579
後之	-11.5579
薩埵	-11.558
鑊	-11.5581
於何處	-11.5581
通示	-11.5581
將軍	-11.5581
定力	-11.5582
未入	-11.5582
多求	-11.5585
恐懼	-11.5586
既聞	-11.5587
抵	-11.5587
若不得衣	-11.5588
吠	-11.5589
既巳	-11.559
此兒	-11.559
水澆	-11.5592
六品	-11.5592
少有	-11.5592
大慧	-11.5593
受捨	-11.5596
定道	-11.5596
願佛	-11.5597
▁二然下	-11.5599
眾德	-11.56
輕心	-11.56
袖	-11.56
第二第三	-11.5603
鉢盂	-11.5603
若父母	-11.5604
□□□□□□□□□□□□	-11.5605
下篇	-11.5605
五十五	-11.5605
一者當	-11.5605
雖通	-11.5606
蜀	-11.5606
安處	-11.5607
應諫	-11.5609
異名	-11.5609
外界	-11.561
亦不能	-11.561
若下次明	-11.561
懺摩	-11.5611
客僧	-11.5619
船上	-11.5623
花鬘	-11.5624
隨分	-11.5625
引經	-11.5626
惑盡	-11.5627
却坐一面	-11.5629
實覓	-11.563
燒煮覆障	-11.563
斯皆	-11.5632
乃至共畜生	-11.5635
百由旬	-11.5636
根莖	-11.5637
數滿	-11.5638
寄衣	-11.5639
所以須	-11.5642
百人	-11.5646
或約	-11.5647
塔廟	-11.5649
惡名流布	-11.5652
大乘同制	-11.5653
畜生女	-11.5654
初入	-11.5655
結上	-11.5656
六百	-11.5657
阿育王	-11.5661
甚大	-11.5661
若不還	-11.5662
之恩	-11.5663
八關齋	-11.5663
若許	-11.5663
腦	-11.5664
三十事	-11.5666
誰是	-11.5667
上根	-11.5669
語語	-11.5669
我比丘尼某甲	-11.567
瑜伽論	-11.5671
捉衣	-11.5672
莫知	-11.5673
分為四	-11.5673
清淨人	-11.5673
安穩	-11.5674
乃至一切	-11.5675
憚	-11.5677
止持作犯	-11.5679
不消	-11.568
是名有犯	-11.5682
薩婆多論	-11.5683
復告	-11.5683
眾法對首	-11.5684
教示	-11.5685
善見論	-11.5686
諸相	-11.5691
僧中乞	-11.5691
告彼	-11.5696
行入白衣舍	-11.5698
單白羯磨	-11.5698
波利	-11.5699
以神通力	-11.5702
復有五	-11.5703
如比尼	-11.5704
就文	-11.5708
佛聽我	-11.5711
極惡	-11.5712
在一面立	-11.5716
約緣	-11.5716
却住一面	-11.5717
二指	-11.5718
通前	-11.5721
有癡	-11.5722
爽	-11.5722
宿處	-11.5723
謗佛	-11.5723
勸喻	-11.5723
師徒	-11.5725
何妨	-11.5726
行護	-11.5727
示其	-11.5727
勇健	-11.5729
趣涅槃	-11.573
凡為	-11.573
常說	-11.573
舡	-11.5734
蓋是	-11.5735
瞋恚故	-11.5735
是果	-11.5738
不了了者	-11.5738
不可悔	-11.5739
行用	-11.5739
其數	-11.574
安居時	-11.5741
清淨心	-11.5742
五八	-11.5743
雁	-11.5744
番羯磨	-11.5745
惡馬	-11.5748
前六	-11.5749
彼住處	-11.5751
勞苦	-11.5752
決疑	-11.5753
彼比丘言	-11.5753
私房	-11.5756
至極	-11.5758
王見	-11.5758
四無量心	-11.5758
識事	-11.5758
遐	-11.5759
彰名	-11.5761
作餘語	-11.5762
聊	-11.5762
品第二十	-11.5763
自明	-11.5764
減六年	-11.5765
從初至	-11.5765
泣	-11.5765
涕	-11.5765
圓寂	-11.5766
夭	-11.5768
異生	-11.5768
狂心	-11.5769
送與	-11.577
此等諸	-11.5771
柰	-11.5771
部別	-11.5774
明旦	-11.5774
佛問比丘	-11.5776
迦絺那	-11.5777
入空	-11.5778
又翻	-11.5778
如來出世	-11.5778
舍宅	-11.5779
若燒	-11.578
分段	-11.5781
張口	-11.5781
露坐	-11.5784
說戒經	-11.5785
法喻	-11.5786
化制	-11.5786
是中有比丘少欲知足行頭	-11.5787
而實	-11.5789
聽僧與	-11.5789
調戲	-11.5791
不得自在	-11.5791
皆不成	-11.5791
一切不犯	-11.5793
諸功德	-11.5794
生天上	-11.5797
與大比丘	-11.5798
有十二	-11.5798
正報	-11.5798
後解	-11.5799
九十中	-11.5799
如虗空	-11.5799
七年	-11.5804
所論	-11.5805
先結	-11.5807
不云	-11.5808
有無量	-11.5809
大菩提	-11.5809
善賢	-11.581
未受大戒人	-11.5811
開文	-11.5811
俗女	-11.5813
成辦	-11.5814
合為	-11.5814
心論	-11.5815
並云	-11.5817
因斯	-11.5817
展轉食	-11.5823
引示	-11.5824
今雖	-11.5825
端坐	-11.5826
今問諸大德	-11.5826
邪心	-11.5827
根本部	-11.5829
盛水	-11.5831
瞎	-11.5832
妙果	-11.5834
蠶綿	-11.5835
差互	-11.5837
諦視	-11.5837
結不失衣界	-11.5837
使尼	-11.5837
復白佛言	-11.5843
五十二	-11.5845
俯	-11.5847
萎	-11.5848
比丘住處	-11.5849
棗	-11.5849
東南角	-11.585
𦘕	-11.5853
游	-11.5855
居止	-11.5855
戒本疏	-11.5856
廼	-11.5857
證真	-11.5858
所念	-11.5858
若非衣	-11.5859
桃	-11.5859
門屋	-11.5861
鷹	-11.5861
別緣有	-11.5861
歎身	-11.5866
三反	-11.5868
來索	-11.5871
越毗尼	-11.5872
不捨惡見	-11.5873
以酒	-11.5874
四王	-11.5877
可呵	-11.5878
四足	-11.5878
應服	-11.5882
結吉	-11.5883
躡前	-11.5883
一境	-11.5885
情生	-11.5886
現前比尼	-11.5887
五位	-11.5889
提吉	-11.5889
三舉非結過	-11.5891
慰問	-11.5891
波羅夷戒	-11.5892
眾共	-11.5893
不得所望	-11.5894
答能	-11.5894
外色	-11.5895
別別	-11.5895
方堪	-11.5897
婿	-11.5898
當願	-11.59
方開	-11.5901
佛在室羅伐城給孤獨園	-11.5903
同體	-11.5904
皆爾	-11.5905
為利養	-11.5905
生疑悔	-11.5906
九十六	-11.5907
一指	-11.5909
簡餘	-11.591
疥	-11.591
毗婆沙	-11.591
劫初	-11.5911
即以此	-11.5913
毀壞	-11.5914
給孤獨	-11.5917
捨棄	-11.5918
還同	-11.5919
樹木	-11.5919
皆來	-11.5922
內懷	-11.5924
高處	-11.5924
五緣成	-11.5926
上下衣	-11.5929
阿僧祇劫	-11.593
騎	-11.593
脹	-11.5931
得聖	-11.5932
將為	-11.5932
押	-11.5934
木床	-11.5934
腐	-11.5936
解擯	-11.5936
下辨	-11.5937
鹿苑	-11.5937
斷煩惱	-11.5938
事火	-11.5938
今略	-11.5938
諸雜	-11.5941
受七日法	-11.5945
乾飯	-11.5945
咨	-11.5946
敏	-11.5948
坐起	-11.5948
生善滅惡	-11.5948
子孫	-11.5948
離車	-11.595
就座而坐	-11.595
傳法	-11.5952
性本	-11.5953
國界	-11.5953
慨	-11.5953
卷第三	-11.5953
從境	-11.5953
門戶	-11.5954
教尼	-11.5955
過未	-11.5955
除疑	-11.5955
既成	-11.5955
亦失	-11.5956
如是比丘	-11.5957
㝡	-11.5957
驅遣	-11.5959
緣差	-11.5959
香水	-11.596
想取	-11.5962
戒序	-11.5963
慈地	-11.5963
土地	-11.5963
資財	-11.5966
時諸比丘尼聞	-11.5968
衲	-11.5968
得免	-11.5969
犯不淨行	-11.597
識相	-11.597
親疎	-11.5971
必以	-11.5971
於時	-11.5971
記識	-11.5972
令諸比丘	-11.5972
供養眾僧	-11.5973
施佛	-11.5974
制學處	-11.5976
阿僧祇	-11.598
某比丘	-11.5982
須達	-11.5986
隨義	-11.5989
應對	-11.5989
每於	-11.5991
若有犯者	-11.5993
永不	-11.5994
水邊	-11.5996
而說頌曰	-11.5996
出沒	-11.5996
獲福	-11.5996
戒善	-11.5997
諸婆羅門	-11.5997
必欲	-11.5998
五師	-11.5999
往大僧中	-11.5999
十臘	-11.6
主法	-11.6002
約界	-11.6003
篇目	-11.6006
懷憂	-11.6007
菴婆羅	-11.6008
梵行人	-11.6009
大姉僧聽	-11.6009
惡見不捨	-11.6009
更結	-11.601
非毘尼	-11.6011
決之	-11.6012
料	-11.6014
九十九	-11.6015
得僧殘	-11.6015
衢	-11.6016
異耳	-11.6017
十號	-11.6017
坐床	-11.602
逼迫	-11.6021
願大德	-11.6025
吉罪	-11.6027
繭	-11.6027
覆肩衣	-11.6028
▁初正釋	-11.6028
釋注	-11.6028
為二部	-11.6029
下簡	-11.603
轉增	-11.603
毗曇	-11.6033
不滿二十	-11.6033
我願	-11.6036
蘭吉	-11.6037
增一阿含	-11.6037
恠	-11.6038
并諸	-11.6041
無缺	-11.6042
五大色	-11.6043
奚	-11.6043
長財	-11.6044
噫	-11.6045
一切善法	-11.6045
醉人	-11.6045
云何名為	-11.6045
心性	-11.6048
須用	-11.6049
華香	-11.605
汝身	-11.605
舉例	-11.6051
謹當宣誦	-11.6051
我佛如來	-11.6054
惡念	-11.6055
鳴磬振鈴	-11.6056
樂住	-11.6056
凡人	-11.6057
有妨	-11.6057
形俱	-11.6058
本期	-11.6064
四十一	-11.6064
欽婆羅	-11.6065
爾時婆伽婆在	-11.6067
發大心	-11.6069
生男	-11.6069
畜長鉢	-11.6069
渡河	-11.6069
覆罪	-11.6071
上釋	-11.6071
得成佛	-11.6072
師子吼	-11.6073
天人師	-11.6074
果報者	-11.6076
破戒比丘	-11.6078
無足	-11.6079
嫌責六群比丘	-11.6079
餘經	-11.6082
違法	-11.6083
遊行人間	-11.6083
賊盜	-11.6083
不知何	-11.6084
復說	-11.6085
一定	-11.6085
金剛手	-11.6087
七滅	-11.6088
是比丘應	-11.6089
偷羅難陀比丘尼	-11.6089
破戒人	-11.609
廣嚴城	-11.609
即發	-11.6092
制意者	-11.6095
皆波逸提	-11.6095
。」)「	-11.6099
宗親	-11.6099
應如是與	-11.6099
旃	-11.61
一頭	-11.61
顯露	-11.6102
無慚無愧	-11.6104
如是至三	-11.6104
多宗	-11.6105
請教授	-11.6105
自敷	-11.6106
二云	-11.6107
蠅	-11.6108
復有一	-11.6111
熙	-11.6112
無生智	-11.6115
華嚴經	-11.6116
滅滅	-11.6116
甚為	-11.6117
一色	-11.6118
圓覺	-11.6119
正月	-11.6119
凌	-11.612
不自言	-11.6121
護身	-11.6121
波羅提木叉戒	-11.6122
在家二眾	-11.6124
金輪	-11.6124
僧住處	-11.6127
攝持	-11.6128
邪行	-11.6128
怨逼	-11.6128
兔	-11.6129
制作	-11.613
樞	-11.613
無價	-11.6131
▁二律下	-11.6133
種種因緣訶已	-11.6134
以此白佛	-11.6137
臣曰	-11.614
巳上論文	-11.614
本異	-11.6143
高廣	-11.6143
佛乘	-11.6144
行舍羅	-11.6148
大歡喜	-11.6148
多貪	-11.6151
正使	-11.6153
五百羅漢	-11.6155
極樂	-11.6163
婬心	-11.6164
不能斷	-11.6165
若有病	-11.6165
第三說	-11.6166
第十九	-11.6167
油塗	-11.6173
營事比丘	-11.6174
過五錢	-11.6176
四姓	-11.6178
觀看	-11.6179
浣染擘	-11.6179
隨病食	-11.6182
西天	-11.6184
若教他	-11.6185
敬儀	-11.6186
財色	-11.6189
汝已	-11.6189
成就五法	-11.619
!」「	-11.6191
慎之	-11.6192
結跏趺坐	-11.6194
餘罪	-11.6194
那羅	-11.6195
律師云	-11.6198
西北	-11.62
撲	-11.6201
東北	-11.6201
之旨	-11.6202
極果	-11.6203
是迦留陀夷比丘	-11.6204
一升	-11.6206
隨一一	-11.6206
教戒	-11.6206
未許	-11.6207
篋	-11.6208
二卷	-11.6209
四過	-11.621
郎	-11.6211
翁	-11.6212
引之	-11.6214
作不見擯	-11.6214
▁丘	-11.6215
天耳	-11.6216
僧現前	-11.6217
一切種智	-11.6217
第十七	-11.6217
槩	-11.6218
臈	-11.6219
千萬	-11.6222
前食後食	-11.6223
泰	-11.6226
兩別	-11.6226
隨坐	-11.6227
樣	-11.623
迦留	-11.623
動身口	-11.6231
漆	-11.6231
身根	-11.6231
女身	-11.6231
諸蟲	-11.6232
作何事	-11.6233
有差別	-11.6234
對下	-11.6235
貯畜	-11.6236
減量	-11.6236
不擇	-11.6236
曹	-11.624
後開	-11.6241
今之	-11.6244
鉢囊	-11.6245
右肩	-11.6246
護念	-11.6249
瑜	-11.6252
尼犍	-11.6252
雖受	-11.6253
手觸	-11.6259
寶珠	-11.626
隨結	-11.626
未久	-11.6265
十二種	-11.6265
兵眾	-11.6265
僧巳與	-11.6269
色力	-11.6273
慧眼	-11.6273
汝等實爾	-11.6278
覆護	-11.6279
非唯	-11.6279
今日道場同業大眾	-11.6285
結蘭	-11.6286
各及眷屬	-11.6289
退失	-11.629
愛敬	-11.629
材木	-11.6292
大智慧	-11.6292
和泥	-11.6293
般陀	-11.6293
僧常聞	-11.6295
寂然	-11.6296
眾惡	-11.6297
豐樂	-11.6298
沽酒	-11.6298
十八種	-11.6299
尸棄	-11.6299
零	-11.63
卷第二	-11.63
毗尼母云	-11.63
所集	-11.6301
下次示	-11.6301
諭	-11.6302
菩提薩埵	-11.6302
例知	-11.6302
殺具	-11.6302
諸論	-11.6304
乃至十日	-11.6304
波旬	-11.6305
叵	-11.6305
廣文	-11.6306
造惡	-11.6307
四十七	-11.6307
勤學	-11.6307
一切盡	-11.6309
賦	-11.6309
說偈言	-11.631
敷僧臥具	-11.631
善來比丘	-11.631
中含	-11.6311
闍王	-11.6312
膚	-11.6313
非人畜生	-11.6315
支節	-11.6315
肯	-11.6316
有二比丘	-11.6318
䥫	-11.6318
願樂	-11.6318
婆沙論云	-11.632
了別	-11.632
百萬	-11.632
不惱	-11.6323
羈	-11.6324
種種飲食	-11.6325
聽去	-11.6325
止得	-11.633
簡人	-11.633
有三句	-11.633
隱顯	-11.6331
秪	-11.6333
悔法	-11.6333
手自	-11.6337
義翻	-11.634
本界	-11.634
無愧	-11.6341
世出世間	-11.6341
明淨	-11.6342
廣博	-11.6343
索衣	-11.6347
塵境	-11.635
一拘盧舍	-11.635
深入	-11.6351
翻經	-11.6351
迎逆	-11.6353
十願	-11.6355
下釋相	-11.6355
獲益	-11.6356
佛住王舍城	-11.6356
金口	-11.6356
病因緣	-11.6357
不隨語者	-11.6362
滅除	-11.6362
失依止	-11.6367
毘羅	-11.6368
佛在世	-11.6372
自手受食	-11.6374
八百	-11.6377
婆羅門居士	-11.6378
與受具足	-11.6378
淨語	-11.6379
斥非	-11.638
老者	-11.638
齧	-11.6384
牆壁	-11.6384
不損	-11.6386
本所受	-11.6386
教文	-11.6388
俱生	-11.6388
所辨	-11.6389
若眾多人	-11.6389
紵	-11.639
遮不至白衣家羯磨	-11.639
羅閱城	-11.639
豈唯	-11.6392
作婬欲	-11.6392
俗服	-11.6392
瓨	-11.6393
今將	-11.6393
啞	-11.6393
傘	-11.6393
清眾	-11.6395
篤	-11.6396
兩戒	-11.6398
耐	-11.6398
引多論	-11.6399
柴	-11.64
義決	-11.64
遞相	-11.6403
跏趺	-11.6403
百七十	-11.6403
之一字	-11.6404
在俗	-11.6405
驅擯	-11.6407
作如是事	-11.6407
薩婆	-11.6409
車乘	-11.6411
至八月十五日	-11.6412
而告曰	-11.6413
四十五	-11.6416
意根	-11.6417
食器	-11.6418
應留	-11.642
五穀	-11.6422
如五分	-11.6422
囚	-11.6426
得財	-11.6427
神王	-11.6428
莊嚴具	-11.6428
下斥	-11.6431
皆空	-11.6431
若有苾芻	-11.6431
此住處比丘	-11.6431
三十心	-11.6432
隔障	-11.6433
具答	-11.6433
手摩	-11.6434
各隨	-11.6435
羅網	-11.6437
至死	-11.6441
說可知	-11.6442
窣吐羅	-11.6442
更重	-11.6443
父子	-11.6443
害人	-11.6443
王夫人	-11.6444
皆名為	-11.6449
蘇摩	-11.645
百千萬	-11.645
六羣比丘	-11.6454
器盛	-11.6454
終歸	-11.6454
五十六	-11.6455
制不聽	-11.6455
雙結	-11.6458
多羅樹	-11.6459
有隔	-11.6459
應向	-11.6461
教授尼	-11.6461
重發	-11.6463
默妄	-11.6464
香味	-11.6464
行化	-11.6465
塗香	-11.6465
聲聞戒	-11.6465
皆屬	-11.6466
劫比羅城	-11.6468
窣覩波	-11.6468
我我所	-11.6469
即詣	-11.6472
我今問汝	-11.6473
作惡行	-11.6475
本座	-11.6475
一心念	-11.6476
未免	-11.6477
如是諫時	-11.6477
行不淨行	-11.6478
寄物	-11.6478
罐	-11.648
遙擲	-11.6481
與欲者	-11.6482
耆舊	-11.6482
醎	-11.6484
同道行	-11.6484
曾見	-11.6485
七滅諍	-11.6486
戮	-11.6487
云二至	-11.6488
僧坊內	-11.6489
如實知	-11.649
調御	-11.6491
惡果	-11.6492
破云	-11.6492
求寂女	-11.6493
晡時	-11.6493
雀	-11.6496
之主	-11.6497
無福	-11.6497
若不故作	-11.6499
集在一處	-11.6502
解脫知見	-11.6502
戒場上	-11.6502
臭氣	-11.6503
聲聞緣覺	-11.6504
一百三十	-11.6505
羹飯	-11.6506
秘密	-11.6506
棃	-11.6507
嬉戲	-11.6508
絮	-11.6509
布薩自恣	-11.6511
唱令	-11.6511
毒龍	-11.6512
三皈	-11.6515
如是次第	-11.6517
斷事人	-11.6518
像法	-11.6521
雖知	-11.6522
不禁	-11.6523
十種衣	-11.6523
僧祇云若	-11.6525
注曰	-11.6526
和上某甲	-11.6527
肉眼	-11.6528
敗壞	-11.6528
善性	-11.6528
爾時世尊告	-11.6534
大自在	-11.6538
若諸菩薩	-11.6539
在門外	-11.6539
愛盡	-11.6543
別部	-11.6543
開發	-11.6549
三門	-11.655
依界	-11.655
為頭	-11.655
諸長老比丘聞	-11.6551
布薩說波羅提木叉	-11.6552
攝論	-11.6552
僧破	-11.6556
即說頌曰	-11.6556
五趣	-11.6559
第二上座	-11.6559
作和上	-11.6559
與諸比丘結戒	-11.656
乘車	-11.6565
不見言見	-11.657
比丘尼亦如是	-11.6571
懶	-11.6573
勸請	-11.6575
聞世尊	-11.6575
與受具足戒	-11.6575
萬劫	-11.6575
以是義故	-11.6576
唐言	-11.6578
六十四	-11.6579
著內衣	-11.6579
集僧已	-11.6579
諸大姊	-11.658
疏主	-11.658
行非法	-11.6581
種種不共住	-11.6581
昨日	-11.6581
沙門喬答摩	-11.6581
有濫	-11.6581
摩揭陀國	-11.6582
若比丘受迦絺那衣	-11.6582
惶	-11.6584
白王曰	-11.6584
拯	-11.6584
廢立	-11.6584
印度	-11.6585
有村	-11.6586
此是不共戒	-11.6586
佛既	-11.6587
警覺	-11.6587
紺	-11.6587
受別請	-11.6588
長四肘	-11.659
誑惑	-11.659
藥病	-11.659
開不犯	-11.6591
方圓	-11.6593
為我說	-11.6594
茅	-11.6594
訟	-11.6595
猶豫	-11.6597
不應如是	-11.6598
毗奈耶	-11.6599
意地	-11.6599
斷食	-11.66
失本	-11.66
生惱	-11.66
善品	-11.6601
剛	-11.6601
敷坐具	-11.6602
捉籌	-11.6603
罪輕	-11.6605
貪瞋	-11.6606
先出	-11.6607
定量	-11.6607
因是死	-11.6608
諫時	-11.6608
震旦	-11.661
總攝	-11.6611
躑	-11.6611
作殘食	-11.6612
獄卒	-11.6612
經像	-11.6615
鬼畜	-11.6615
於此住處	-11.6616
宗旨	-11.6617
為限	-11.6619
開戶	-11.6619
見機	-11.662
益物	-11.6621
閣上	-11.6622
十重四十八輕	-11.6622
問若爾	-11.6623
言了	-11.6625
國內	-11.6627
比丘尼犯者	-11.6627
有恚	-11.6628
淨器	-11.6628
七世	-11.6632
積集	-11.6639
應看	-11.6641
有種種	-11.6641
能證	-11.6641
胎中	-11.6643
廣引	-11.6645
佛化	-11.6645
二人三人	-11.6647
不害	-11.665
今正是時	-11.6651
自思惟	-11.6651
八解脫	-11.6651
入己	-11.6652
求福	-11.6652
五乘	-11.6656
憶念毘尼	-11.6656
二者當	-11.6657
離婆多	-11.6657
4	-11.666
其理	-11.6661
鬧	-11.6662
是犯不	-11.6662
初牒	-11.6663
不截	-11.6664
可治	-11.6666
得道果	-11.6666
因茲	-11.6669
亦如前	-11.6669
裁割	-11.6669
無殊	-11.667
牢固	-11.6673
慈愍心	-11.6673
佛祖	-11.6674
饌	-11.6674
釋提桓因	-11.6674
犁	-11.6675
律本云	-11.6676
衣架	-11.6676
匹	-11.6677
一百一十	-11.6678
乾闥婆	-11.6679
貧乏	-11.668
見聞知	-11.668
兜	-11.668
形儀	-11.6681
解大界	-11.6682
象牙	-11.6682
二人俱	-11.6684
三千大千世界	-11.6686
入口	-11.6686
略指	-11.6687
即屬	-11.6688
是障礙	-11.6689
不捨戒	-11.6691
鶴	-11.6694
探	-11.6695
身口意業	-11.6695
開合	-11.6696
青黃	-11.6697
告阿難陀曰	-11.6699
鹹	-11.6701
故有此	-11.6701
五十三	-11.6701
肇	-11.6701
今據	-11.6701
曾無	-11.6703
英	-11.6707
開畜	-11.671
鄙惡	-11.671
以喻	-11.6711
闡提	-11.6714
必應	-11.6714
戒本四句	-11.6716
約相	-11.6716
厭患	-11.6718
同聲	-11.6718
稱揚	-11.672
濟度	-11.6722
譏過	-11.6723
遂成	-11.6724
識處	-11.6727
壞眾	-11.6728
屋中	-11.6729
大笑	-11.6729
比丘𡰱	-11.6731
餘苾芻	-11.6732
小軍	-11.6732
梵言	-11.6733
受依止	-11.6734
雜碎	-11.6734
前請	-11.6736
為他所	-11.6739
於某	-11.674
有不驅者	-11.6741
弊衣	-11.6742
十二日	-11.6743
名捨迦絺那衣	-11.6743
寺外	-11.6743
頭面禮佛足	-11.6744
斯文	-11.6745
分房	-11.6747
乃往古昔	-11.6747
遺落	-11.6748
必在	-11.6748
我觀十利	-11.6752
闡那	-11.6754
真性	-11.6756
五百歲	-11.6756
浣故衣	-11.6757
三十篇	-11.6758
簡之	-11.6758
極苦	-11.676
卷第四	-11.6763
全身	-11.6764
惡鬼	-11.6766
入聲	-11.6768
自慶	-11.6769
妄執	-11.6774
可觀	-11.6775
摩摩帝	-11.6776
膳	-11.6776
病患	-11.6777
安詳	-11.678
蓮華臺藏世界	-11.678
七月十六日	-11.6781
婆羅門種	-11.6782
但能	-11.6782
閡	-11.6783
暖	-11.6785
天祠	-11.6788
變作	-11.6791
壍	-11.6792
之失	-11.6792
夙	-11.6795
如意足	-11.6796
揮	-11.6799
衡	-11.6801
不應量	-11.6802
依次	-11.6802
有一居士	-11.6805
蒼	-11.6805
枳	-11.6807
具述	-11.6807
遣去	-11.6807
怨親	-11.6809
神通力	-11.6809
國法	-11.6811
鬚髮	-11.6812
▁初列	-11.6813
以杖	-11.6814
善好	-11.6815
穆	-11.6816
甚難	-11.6816
所秉	-11.6817
八十八	-11.6817
趙	-11.6818
如章	-11.682
非法語	-11.6821
地藏	-11.6822
未受具人	-11.6823
楞伽	-11.6826
持戒比丘	-11.6827
反之	-11.6829
自度	-11.6829
等流	-11.683
其色	-11.683
僧已忍與	-11.6834
許可	-11.6835
作前方便	-11.6835
生人天	-11.6835
自言我	-11.6838
清白	-11.6839
所習	-11.6842
不懈	-11.6847
如律中	-11.6847
犯決斷	-11.6847
彼作是念	-11.6847
草覆地	-11.6851
乃云	-11.6854
生福	-11.6855
石室	-11.6856
自責汝心	-11.6857
擾亂	-11.6859
令諸眾生	-11.6859
具陳	-11.6861
王舍	-11.6862
說戒自恣	-11.6864
7	-11.6865
身肉	-11.6866
限分	-11.6867
糠	-11.6867
鴈	-11.6867
得生天上	-11.6871
未生怨王	-11.6871
通三性	-11.6872
自古	-11.6873
之宗	-11.6873
藪	-11.6873
稱歎	-11.6874
請世尊曰	-11.6874
猶在	-11.6875
彼於異時	-11.6876
所顯	-11.6877
捐	-11.6878
膿	-11.6878
自煮	-11.6879
眾寶	-11.6881
種善根	-11.6882
白月	-11.6883
亦不知	-11.6884
列數	-11.6887
呂	-11.6888
行婬欲	-11.6888
利刀	-11.6889
盜他	-11.6892
如前釋	-11.6895
世所	-11.6895
春秋	-11.6896
遜	-11.6896
解戒場	-11.6896
今引	-11.6896
共鬪	-11.6897
準律	-11.6897
農	-11.6898
軌儀	-11.6899
尋伺	-11.6901
芥子	-11.6901
徃	-11.6902
傷損	-11.6903
毗舍	-11.6903
非法想	-11.6904
嶽	-11.6906
八地	-11.6907
障戒	-11.6908
欲滅	-11.691
略開	-11.691
如上釋	-11.691
標示	-11.6913
大利益	-11.6914
分兩	-11.6917
阿闍世	-11.6917
棊	-11.6917
若一比丘	-11.6918
增廣	-11.692
請喚	-11.6923
揩身	-11.6924
七徧	-11.6925
一月日	-11.6925
更索	-11.6926
眾主	-11.6927
過午	-11.6928
如是比	-11.6928
五門	-11.6933
熏鉢	-11.6936
讚佛	-11.6937
死人衣	-11.6938
匝	-11.6939
成論云	-11.6941
凡情	-11.6942
得涅槃	-11.6942
藥草	-11.6942
身動	-11.6944
與依止	-11.6946
卷第三十	-11.6946
不應著	-11.6946
作新	-11.6948
之意也	-11.6949
劫比羅	-11.6949
跋陀羅	-11.695
不復更	-11.695
修慧	-11.6951
大鈔云	-11.6952
感報	-11.6954
列示	-11.6954
宮內	-11.6955
下總結	-11.6955
垢穢	-11.6956
緊那羅	-11.6957
王命	-11.6958
般泥洹	-11.6959
度出家	-11.6959
▁二問下	-11.696
本緣	-11.6962
復加	-11.6962
彼六群比丘	-11.6964
自破	-11.6964
慈濟	-11.6966
應作如是	-11.6966
愍念	-11.6967
舁	-11.6967
放捨	-11.6968
未捨	-11.6969
牧牛	-11.697
入白衣舍坐	-11.6971
吐羅尼	-11.6972
得羅漢	-11.6973
祭祀	-11.6975
啟白	-11.6975
最大	-11.6976
下凡	-11.6977
黃金	-11.6977
舂	-11.6979
歡樂	-11.6979
疲勞	-11.6979
悔除	-11.698
御者	-11.6981
不越	-11.6981
香塗身	-11.6983
兩界	-11.6983
是沙彌戒	-11.6984
濃	-11.6985
之服	-11.6985
陳說	-11.6986
皆具	-11.6987
打罵	-11.6989
韻	-11.699
酒味	-11.6991
松	-11.6991
若故作者	-11.6991
大雨	-11.6992
牢獄	-11.6993
閻	-11.6993
兩班	-11.6993
八齋	-11.6993
名句	-11.6995
乃能	-11.6997
三十七品	-11.6997
嚴淨	-11.6998
若前人	-11.6998
七八	-11.7
霜	-11.7001
順行	-11.7001
便可	-11.7002
本起	-11.7003
指歸	-11.7004
墮在	-11.7004
願王	-11.7006
物命	-11.7006
意道	-11.7008
諍競	-11.7009
現前毗尼	-11.7012
隱處	-11.7012
三夜	-11.7015
出現	-11.7016
力能	-11.7016
下三明	-11.7016
其妻	-11.7016
四弘	-11.7017
語大愛道	-11.7017
佛剎	-11.7017
昔人	-11.7017
斯為	-11.7018
大乘經	-11.702
屬他	-11.7021
天主	-11.7021
教誡尼	-11.7023
是故如來	-11.7023
相反	-11.7027
大劫	-11.7028
存念	-11.7029
動轉	-11.7029
晡	-11.703
二知是	-11.703
奉上	-11.7031
便死	-11.7032
日羯磨	-11.7032
結輕	-11.7035
滿二十歲	-11.7035
鬚	-11.7037
之源	-11.7037
能仁	-11.7039
若隨語者善	-11.7041
自誦	-11.7043
半擇迦	-11.7046
□□□	-11.7047
經律論	-11.7048
與授具足戒	-11.705
七十二	-11.7052
退坐一面	-11.7053
過咎	-11.7054
摩耶	-11.7055
如毘尼	-11.7055
不教人舉	-11.7057
或翻	-11.7061
資緣	-11.7062
行慈	-11.7067
筩	-11.7068
此部	-11.7068
我將無得波羅夷	-11.7068
塔中	-11.7069
竟夜	-11.7069
非菩薩行	-11.707
以金	-11.7072
於人間數	-11.7072
以偈	-11.7074
安居法	-11.7075
居士舍	-11.7077
奧	-11.7079
日滿	-11.708
悲泣	-11.708
醍	-11.7081
可捨此事	-11.7082
上品心	-11.7082
水精	-11.7083
自手取	-11.7083
長五肘	-11.7085
盜業	-11.7085
柯	-11.7085
惱僧	-11.7086
闢	-11.7087
中卷	-11.7087
姉妹	-11.7087
雜法	-11.7088
輝	-11.7089
終身藥	-11.7091
觀世音	-11.7091
恩德	-11.7092
自他俱	-11.7092
灑掃	-11.7093
我與汝	-11.7093
魂	-11.7095
件	-11.7096
十月	-11.7097
弃	-11.7097
䞋	-11.7098
栖	-11.7098
窺	-11.7098
不失受	-11.71
二部僧中	-11.71
減少	-11.7101
孟	-11.7102
作持止犯	-11.7102
諸神	-11.7115
云四至	-11.7116
共道行	-11.7116
舊住比丘	-11.7117
合制	-11.7119
受寄	-11.712
有闕	-11.7122
作呵責	-11.7123
天樂	-11.7124
不能令	-11.7124
起貪	-11.7125
不非時食	-11.7127
善現	-11.7129
習近	-11.7135
與誰	-11.7137
難分	-11.7137
以盜心	-11.7137
尼同制	-11.7139
?「	-11.714
弊惡	-11.7142
相應法者	-11.7144
和會	-11.7147
無慈	-11.7149
初師	-11.7149
大將	-11.7149
龍女	-11.715
誰為	-11.7151
何者為	-11.7153
聞此語	-11.7154
苾芻尼僧伽	-11.7154
縱令	-11.7156
爾時菩薩	-11.7159
心念法	-11.716
眾聖	-11.7161
入門	-11.7167
僧俗	-11.7168
腰帶	-11.717
乾痟	-11.7171
牛屎	-11.7172
起迎	-11.7174
方乃	-11.7176
一聚落	-11.7178
得成就	-11.7179
諸病比丘	-11.718
敬心奉持	-11.7181
歡喜奉行	-11.7181
城邑聚落	-11.7183
妨廢	-11.7183
增戒學	-11.7183
仍須	-11.7184
甕	-11.7185
常請	-11.7186
母胎	-11.7186
停息	-11.7186
非法非律	-11.7187
恒河	-11.7188
罕	-11.7188
呵責言	-11.7189
望斷	-11.719
阿彌陀佛	-11.719
九十二	-11.7193
作臥具	-11.7193
誦呪	-11.7194
心生歡喜	-11.7194
刊	-11.7195
數量	-11.7195
大梵天王	-11.7195
湛然	-11.7195
引古	-11.7196
作舉羯磨	-11.7197
貪求	-11.7197
貴價衣	-11.7198
賢愚經	-11.7198
謗法	-11.7198
不生不滅	-11.72
令坐	-11.72
南洲	-11.7202
又准	-11.7205
滅諍法	-11.7205
有犯者	-11.7206
諸賊	-11.7206
持戒清淨	-11.721
法華經	-11.721
而菩薩下	-11.7213
東南	-11.7216
隨上座	-11.7217
寧不	-11.7218
五篇戒	-11.7219
說四依	-11.722
同遵	-11.722
苦難	-11.7221
稟性	-11.7222
與六夜摩那埵	-11.7223
佛圖	-11.7224
被差	-11.7225
此戒體	-11.7226
有殊	-11.7227
為我說法	-11.7228
理解	-11.723
示教利喜已	-11.7231
佛制戒	-11.7232
看病者	-11.7233
佛頂	-11.7235
不散	-11.7237
無作戒	-11.7239
汝某甲聽	-11.7241
和合一處	-11.7242
是中盡形壽不得犯	-11.7242
兩字	-11.7243
萬德	-11.7244
邊國	-11.7244
發露懺悔	-11.7245
知而妄語	-11.7247
教人作	-11.7251
曾受	-11.7252
飽食	-11.7253
出家為道	-11.7253
為世人所譏	-11.7254
生厭	-11.7254
盂	-11.7255
光光	-11.7255
能引	-11.7257
𢦶	-11.726
菴沒羅	-11.7261
或時有如是病	-11.7261
冬分	-11.7262
隨順法	-11.7262
頂禮雙足	-11.7263
風病	-11.7263
高聲大喚	-11.7264
但吉	-11.7265
足食巳	-11.7266
九十事	-11.7269
可否	-11.727
光顯	-11.727
懷妊	-11.7271
於屏處	-11.7272
同制同學	-11.7272
白癩	-11.7273
摩訶男	-11.7274
隨轉	-11.7275
重增	-11.7277
初制意者	-11.728
屎	-11.728
諍論	-11.7282
作迦絺那衣	-11.7282
諸商人	-11.7287
四分戒本	-11.7287
儐	-11.7289
蔗	-11.7289
行滿	-11.7289
悔罪	-11.729
屏覆	-11.729
形貌	-11.7291
別開	-11.7293
喉	-11.7293
至明相出	-11.7294
云何苾芻	-11.7295
式叉摩那等	-11.7296
與餘比丘	-11.7297
下意羯磨	-11.7299
餐	-11.7299
十方常住	-11.73
右邊	-11.7302
几	-11.7307
城外	-11.7308
在座	-11.7308
敷設	-11.7312
衍	-11.7313
達磨	-11.7313
別眾羯磨	-11.7314
若自作	-11.7315
曩	-11.7315
樂果	-11.7315
解脫道	-11.7317
作房舍	-11.7323
與出罪	-11.7324
聖智	-11.7325
詐現	-11.7327
愛染	-11.7328
香湯	-11.7332
如瑜伽	-11.7332
生譏	-11.7333
河中	-11.7334
妙觀	-11.7334
譏呵	-11.7334
卷第一	-11.7335
百八	-11.7336
兩眾	-11.7338
悲愍	-11.7341
必依	-11.7343
僧徒	-11.7344
譏呵言	-11.7345
他國	-11.7346
苾芻以緣白佛	-11.7347
與弟子	-11.7347
悉能	-11.7349
無量百千	-11.735
文義俱	-11.735
弘誓	-11.7352
三七日	-11.7354
鬪諍相言	-11.7354
一形	-11.7355
妻曰	-11.7356
有功	-11.7356
自為巳	-11.7356
善好有德	-11.7357
兜羅	-11.7363
▁二所下	-11.7363
在聚落	-11.7363
那含	-11.7367
佛為說	-11.7367
謗毀	-11.7367
有何過	-11.7368
得漏盡	-11.7368
於佛法	-11.7372
異說	-11.7372
眼根	-11.7374
五百問事云	-11.7375
壯士	-11.7376
有難緣	-11.7376
孤獨	-11.7376
一代	-11.7378
夢見	-11.7379
正直	-11.7379
養育	-11.738
是故名	-11.7383
求財	-11.7385
所稱	-11.7387
汝今可	-11.7387
看視	-11.739
開成	-11.7391
生死苦	-11.7392
筵	-11.7392
迷惑	-11.7397
未壞	-11.7398
右繞	-11.7398
不應與出家	-11.74
縫衣	-11.74
大約	-11.7401
豐足	-11.7401
增養	-11.7402
白時到	-11.7402
摩得勒伽	-11.7402
覓罪	-11.7403
得新衣	-11.7403
其猶	-11.7404
他勝處法	-11.7405
父母師長	-11.7405
疋	-11.7406
凍	-11.7407
入山	-11.7407
春冬	-11.741
不可分	-11.741
總為	-11.741
六尺	-11.7411
式叉尼	-11.7413
淨洗手	-11.7413
依教奉行	-11.7415
罵言	-11.7416
持齋	-11.7416
檀越施	-11.7417
犯小罪	-11.7422
委寄	-11.7423
所不能	-11.7423
呵責已	-11.7425
經書	-11.7427
麤惡語	-11.743
索欲	-11.7431
一切世界	-11.7436
五十四	-11.7436
與摩那埵	-11.7442
外境	-11.7442
非人物	-11.7442
摩哂陀	-11.7444
有十八	-11.7446
觀照	-11.7446
何足	-11.7446
解羯磨	-11.7448
應受持	-11.7448
教他作	-11.7448
執著	-11.7449
已從僧乞	-11.745
自飲	-11.745
可信者	-11.7454
是故世尊說	-11.7457
敷坐	-11.7457
護主	-11.746
餘食法	-11.7463
入室	-11.7468
修諸	-11.7469
鄔波斯迦	-11.7469
利益眾生	-11.7469
百五十	-11.747
行覆	-11.7472
滿鉢	-11.7473
佛世尊遊舍衛國祇樹給孤獨園	-11.7473
此苾芻某甲	-11.7474
毗羅	-11.7474
作佛事	-11.7475
寶云	-11.7476
犯某僧殘罪	-11.7477
狂亂	-11.7478
師範	-11.7479
詣餘家	-11.748
引五分	-11.7481
於生死	-11.7482
廊	-11.7483
刷	-11.7485
一切吉羅	-11.7487
如來藏	-11.7488
瞋怒	-11.7489
呾	-11.7491
與四分	-11.7492
無別眾	-11.7492
來詣佛所	-11.7492
無極	-11.7493
具壽阿難陀	-11.7494
作留難	-11.7494
腕	-11.7495
更乞	-11.7497
大段	-11.7497
時阿難	-11.7499
瞻仰	-11.7501
鬪戰	-11.7501
總收	-11.7502
坌	-11.7503
有如是病	-11.7504
以火	-11.7504
銅錢	-11.7505
杌	-11.7505
讒	-11.7505
媿	-11.7506
酸	-11.7507
發足	-11.7508
領解	-11.751
入法界	-11.751
難調	-11.7511
境緣	-11.7512
破戒之人	-11.7516
著口中	-11.7516
鑑	-11.7517
盜物	-11.7523
賊女	-11.7524
恐畏	-11.7525
本體	-11.7525
捉比丘	-11.7525
衫	-11.7527
牀座	-11.7529
薀	-11.7531
烏鳥	-11.7531
諸病	-11.7533
僧次請	-11.7534
開章	-11.7534
眾僧和合	-11.7537
阿那	-11.7538
善生經云	-11.754
當知此	-11.754
愛憎	-11.754
受日法	-11.7543
兜率	-11.7544
不專	-11.7545
咸悉	-11.7547
上二句明	-11.7549
犯突吉羅罪	-11.7557
說法要	-11.7557
樂聞	-11.7557
唯約	-11.7562
掌中	-11.7563
標宗	-11.7564
水界	-11.7564
含識	-11.7568
臥床	-11.757
望前	-11.7572
在王舍城	-11.7573
影勝王	-11.7573
支提	-11.7573
一切賢聖	-11.7574
誰諸大姊忍僧	-11.7577
有所違越	-11.7577
車匿	-11.7577
欄	-11.7583
餘篇	-11.7589
形服	-11.759
惡語	-11.7591
覆身	-11.7592
下三句	-11.7593
波利迦羅	-11.7593
邁	-11.7596
崖	-11.7597
一晝夜	-11.7597
慳惜	-11.7597
行摩那埵竟	-11.7598
杭	-11.7599
邊見	-11.76
骸	-11.7603
非酒	-11.7603
自利利他	-11.7603
遘	-11.7604
長阿含	-11.7606
給孤獨長者	-11.7608
悶絕	-11.7609
辦具	-11.7609
宜當	-11.7609
菩薩戒本	-11.761
作坑	-11.761
惛	-11.7612
白一羯磨	-11.7613
金銀等	-11.7615
如法羯磨	-11.7615
常須	-11.7619
琴	-11.7619
決擇	-11.7619
佛默然受	-11.762
曾聞	-11.762
呵不止	-11.7623
初句可知	-11.7623
犯邊罪	-11.7625
宅中	-11.7625
便作是言	-11.7625
享	-11.7628
輕偷蘭	-11.7628
邪道	-11.7628
佛作是念	-11.7628
是無記	-11.7629
以充	-11.763
瓔珞經云	-11.7632
我今日	-11.7636
非親里尼	-11.7638
露現	-11.7642
王舍城中	-11.7645
彼論云	-11.7645
若苾芻於	-11.7648
神州	-11.7651
華嚴經云	-11.7652
中有四	-11.7653
無濫	-11.7653
求道	-11.7654
恐失	-11.7656
呵罵	-11.7657
相和	-11.766
謗他	-11.7663
作呵責羯磨	-11.7666
段文	-11.7667
有三事	-11.7673
多病	-11.7673
道路不疲	-11.7674
有驅者	-11.7674
莫問	-11.7674
第二念	-11.7675
鈔意	-11.7679
一條	-11.7679
下二句明	-11.7681
善說法律	-11.7682
錯說	-11.7682
第五句	-11.7682
摩得勒伽云	-11.7683
窓	-11.7685
所為事	-11.7687
戒經中來	-11.7688
己物	-11.7691
煞盜	-11.7692
苦切羯磨	-11.7694
不退轉	-11.7694
惡罵	-11.7694
繫閉	-11.7695
偷蘭遮罪	-11.7695
佉闍尼	-11.7695
鑷	-11.7696
若言我	-11.7698
漲	-11.7699
麁語	-11.7699
說序	-11.7701
漁	-11.7701
憍奢耶	-11.7702
得禪	-11.7703
匱	-11.7704
遊方	-11.7704
不礙	-11.7707
五百金錢	-11.7707
綱目	-11.7709
解脫門	-11.7709
阿㝹	-11.7709
杖頭	-11.7711
諸苾芻眾	-11.7711
並餘四眾	-11.7712
自害	-11.7713
四支	-11.7716
律文中	-11.7717
出房	-11.7722
黃色	-11.7723
挾	-11.7723
八寸	-11.7723
上樹	-11.7726
作羯磨說戒	-11.7727
前文復二	-11.7729
和上闍梨	-11.773
佛語阿難	-11.7731
退沒	-11.7732
質直	-11.7732
故所以制	-11.7733
虛實	-11.7733
皆得惡作	-11.7735
感果	-11.7737
六情	-11.7738
比丘六夜摩那埵	-11.7738
第八云	-11.7741
是我世尊	-11.7742
皆悉懺悔	-11.7742
得無漏	-11.7745
普照	-11.7745
同歸	-11.7746
不癡毘尼	-11.7747
種植	-11.7747
道路行	-11.7749
以是因緣故	-11.7749
見惑	-11.7749
意顯	-11.7752
亦復不	-11.7752
所愛	-11.7754
不應禮	-11.7754
說戒羯磨	-11.7755
貪利	-11.7755
文可知	-11.7755
此三種	-11.7758
五千	-11.7758
本覺	-11.7762
大藏	-11.7763
不可懺	-11.7764
大覺	-11.7766
四棄	-11.7768
諸眷屬	-11.7769
觀軍	-11.777
特為	-11.7772
獨受	-11.7772
禮懺	-11.7773
斷常	-11.7774
巳下明	-11.7777
諸苾芻等	-11.7778
助表	-11.7778
得越毘尼罪	-11.7782
九十八	-11.7784
故戒疏云	-11.7788
准多論	-11.7792
獨宿	-11.7793
並約	-11.7793
復有二見	-11.7793
恩愛	-11.7793
及摩那埵本日治羯磨	-11.7793
是何等	-11.7794
不能如法	-11.7795
揩摩	-11.7796
有知男子	-11.7799
道德	-11.7799
逃走	-11.78
受過七日法	-11.7801
未到	-11.7801
作敷具	-11.7802
異色	-11.7802
顯正	-11.7802
誑他	-11.7803
復有比丘	-11.7803
為僧伽	-11.7805
四十四	-11.7805
菴羅	-11.7806
戶鑰	-11.7808
不知足	-11.7811
嬾	-11.7812
此房	-11.7813
識犯	-11.7815
極長	-11.7815
醜陋	-11.7816
自歸	-11.7819
起信	-11.7819
果樹	-11.7822
愽	-11.7827
三聚戒	-11.7827
恒河沙	-11.7828
殆	-11.7828
皂	-11.7829
東晉	-11.783
著肩上	-11.783
桑	-11.7831
▁二明	-11.7832
容可	-11.7832
寒暑	-11.7833
無餘涅槃	-11.7834
佛殿	-11.7835
床脚	-11.7835
短命	-11.7835
所著衣	-11.7838
灾	-11.7839
悟道	-11.7842
貞觀	-11.7843
三歸五戒	-11.7845
高僧傳	-11.7846
修善法	-11.7848
招提	-11.7848
度弟子	-11.7849
即說偈言	-11.7852
不癡毗尼	-11.7854
月日	-11.7855
共往	-11.7855
求哀	-11.7857
雖異	-11.7858
諸根不具	-11.7861
詳之	-11.7861
智知	-11.7864
轉身	-11.7864
於後時	-11.7871
是我所	-11.7873
無障礙	-11.7873
彰其	-11.7874
樹根	-11.7875
小教	-11.7876
院相	-11.7879
節量	-11.7879
二十五條	-11.7887
家乞	-11.7889
耳根	-11.7891
煞戒	-11.7892
諸釋種	-11.7892
大石	-11.7894
行雨	-11.7894
踝	-11.7894
臨事	-11.7895
從索	-11.7896
此壞敗人	-11.7896
五十一	-11.7899
推之	-11.7901
緣在室羅伐城	-11.7902
巳辨	-11.7902
爾時有一	-11.7904
修伽陀	-11.7906
別脫	-11.7909
以盜心取	-11.791
只是	-11.791
年老	-11.7913
鑰	-11.7914
明相出時	-11.7915
?』」	-11.7915
)《	-11.7917
衣已竟	-11.7919
何勞	-11.7922
相參	-11.7923
就前	-11.7924
猪狗	-11.7924
王城	-11.7924
踞	-11.7925
自責	-11.7925
八十種好	-11.7926
從他受	-11.7926
寺沙門	-11.7927
右脇	-11.7933
恐濫	-11.7934
具五緣	-11.7936
端身	-11.7937
不攝耳	-11.7938
何益	-11.794
娜	-11.794
貪嗔癡	-11.7941
阿毗達磨	-11.7941
咸共	-11.7942
愛惜	-11.7944
要待	-11.7944
舛	-11.7946
一一波逸提	-11.7947
伊羅	-11.7947
曷	-11.7948
月光	-11.795
前列	-11.7953
元年	-11.7954
必具	-11.7954
卷第六	-11.7955
不傷	-11.7955
瑕	-11.7956
禪思	-11.7958
在前行	-11.7959
萬億	-11.796
今從眾僧乞	-11.7963
老母	-11.7964
不限	-11.7965
餘藥	-11.7966
一諦	-11.7969
即作是念	-11.7969
│	-11.7984
從此巳下	-11.7984
亡物	-11.7984
事懺	-11.7985
慢法	-11.7987
形同	-11.7987
雜明	-11.7987
三中初	-11.7989
十一日	-11.7991
但舉	-11.7993
毛孔	-11.7994
癡心	-11.7994
出世之	-11.7999
所棄	-11.8
能令眾生	-11.8
女色	-11.8001
一心和合僧	-11.8001
結輕垢	-11.8001
機宜	-11.8001
決了	-11.8005
勤精進	-11.8006
生嫌賤	-11.8006
跋耆	-11.8007
男想	-11.8007
彼間	-11.8008
請和尚	-11.8009
輕重不同	-11.8009
鉢破	-11.801
為白衣	-11.8011
薩婆若	-11.8012
四尺	-11.8012
懷疑	-11.8013
一百年	-11.8018
受想行識	-11.8018
▁南無	-11.8019
欲染	-11.802
搖頭	-11.8023
佛因制戒	-11.8025
當應量作	-11.8026
今為諸比丘結戒	-11.8027
鳴槌	-11.8028
篇第十	-11.8031
樵	-11.8032
橋梁	-11.8033
澡罐	-11.8034
不以為	-11.8034
今反	-11.8034
求解脫	-11.8035
覆他	-11.8036
阿耨	-11.8036
若得衣者	-11.8037
難消	-11.8037
山頂	-11.8038
云若至	-11.8038
冊	-11.8039
常途	-11.804
寺主	-11.8041
不犯重	-11.8041
髓	-11.8043
苦苦	-11.8044
別舉	-11.8044
深廣	-11.8045
寺舍	-11.8045
於我所	-11.8045
咽喉	-11.8045
觀軍陣	-11.8046
戒本五句	-11.8047
瀆	-11.8048
多知識	-11.805
吏	-11.8054
愚教	-11.8054
禦	-11.8055
褁	-11.8056
調和	-11.8057
貪嗔	-11.8058
燈明	-11.8059
純白	-11.806
並成	-11.8061
無生忍	-11.8063
略引	-11.8064
空無相	-11.8065
我婦	-11.8067
生活	-11.8072
買得	-11.8072
尋常	-11.8072
至真	-11.8072
常聞	-11.8075
限約	-11.8075
波利婆沙	-11.8076
三尺	-11.8077
如來所說	-11.808
五月一日	-11.808
小妄	-11.8081
何必	-11.8081
雜碎戒	-11.8082
此戒法	-11.8082
思議	-11.8083
佛勅	-11.8083
亦翻	-11.8083
水流	-11.8091
第二篇	-11.8092
駈出	-11.8094
憶識	-11.8094
▁三若下	-11.8095
有病比丘	-11.8099
四十六	-11.81
字義	-11.8102
加口法	-11.8104
作新敷具	-11.8104
世尊無數方便	-11.8107
什師	-11.8108
鄔波離請世尊曰	-11.8109
持杖	-11.8109
奉事	-11.811
以十利故與比丘結戒	-11.811
第十八	-11.8111
與賊	-11.8113
白二白四	-11.8113
與看病人	-11.8114
四肘	-11.8115
捉杖	-11.8115
三者當	-11.8116
詳明	-11.8119
尺量	-11.8119
報障	-11.8122
豈異人乎	-11.8123
祇支	-11.8123
西南	-11.8125
倡	-11.8128
坐道場	-11.813
常修	-11.813
此二句	-11.813
華梵	-11.813
惡聲	-11.8131
瑜伽云	-11.8131
此某甲比丘尼	-11.8132
觸食	-11.8132
打揵椎	-11.8132
更犯重罪	-11.8133
芻	-11.8133
象力	-11.8136
然後乃	-11.8136
取五錢	-11.8137
給孤長者	-11.8138
一樹下	-11.8139
多途	-11.814
五停	-11.814
畜弟子	-11.8141
無上士	-11.8142
功力	-11.8143
安立	-11.8144
淹	-11.8148
與別住	-11.8149
今解不然	-11.8149
仁今	-11.8149
者非也	-11.8149
耄	-11.815
義準	-11.815
第三羯磨	-11.8151
無此理	-11.8151
副	-11.8152
或命難	-11.8154
非有非無	-11.8155
若干日	-11.8155
正思惟	-11.8156
姚秦	-11.8157
墓	-11.8158
一由旬	-11.8158
邊地人	-11.8159
摩訶僧祇律	-11.8159
盞	-11.8159
朋友	-11.8159
儔	-11.8162
禮三拜	-11.8162
褒	-11.8168
銘	-11.8169
章疏	-11.817
佳	-11.8171
撩	-11.8171
違反	-11.8171
勝德	-11.8171
塔下	-11.8171
不誦戒	-11.8171
性重	-11.8172
本源心地	-11.8173
云問至	-11.8179
四者不得	-11.8179
復語言	-11.8182
指甲	-11.8184
於異時	-11.8187
無咎	-11.8188
設教	-11.8191
年月日	-11.8192
聖意	-11.8197
有所得	-11.82
或癡狂	-11.8201
樹林	-11.8204
違佛制	-11.8204
頗梨	-11.8207
十數	-11.8209
佛判	-11.821
儀則	-11.8211
遣書	-11.8211
於十方	-11.8212
占相	-11.8215
兇	-11.8216
落地	-11.8218
●	-11.8218
佛邊	-11.8219
即勅	-11.822
火聚	-11.8222
下次引	-11.8222
少異	-11.8223
自受用	-11.8224
敬順	-11.8225
為病人	-11.8227
驅使	-11.8228
老少	-11.823
對首法	-11.8233
厭惡	-11.8235
菩薩大戒	-11.8238
破沙門法	-11.8238
愚癡人	-11.824
離聞處	-11.824
婆伽婆	-11.8244
齋日	-11.8244
可知矣	-11.8244
怱	-11.8246
未圓	-11.8246
覲	-11.8248
作賊	-11.8249
擿	-11.8249
不惜身命	-11.8251
贍部	-11.8252
𢷤	-11.8253
刳	-11.8255
二十億	-11.8256
醫師	-11.8256
調弄	-11.8256
醫王	-11.8256
歸依佛法僧	-11.8257
諸童子	-11.8259
鉾	-11.8261
得殘	-11.8264
三衣鉢具	-11.8264
段食	-11.8268
奇特	-11.8268
具引	-11.8269
辜	-11.8269
三十捨墮	-11.827
惻	-11.827
鄭	-11.827
犯戒罪	-11.8271
佛為結戒	-11.8271
飄	-11.8272
獎	-11.8273
屢	-11.8274
善不善	-11.8274
亭	-11.8276
近處	-11.8276
性遮二業	-11.8277
秀	-11.8277
侮	-11.8278
所及處	-11.828
生支	-11.8282
棲	-11.8282
裔	-11.8283
入舍	-11.8283
題目	-11.8284
後二句	-11.8284
或容	-11.8285
改過	-11.8285
世尊爾時	-11.8286
興方便	-11.8286
得阿耨多羅三藐三菩提	-11.8287
萬境	-11.8288
不應戒行	-11.8288
三月夏安居	-11.829
申明	-11.8292
信敬心	-11.8293
無難處	-11.8293
國王大臣	-11.8293
五十九	-11.8293
依位	-11.8294
何獨	-11.8296
無減	-11.83
索食	-11.83
同四分	-11.8301
作白羯磨	-11.8301
婆論	-11.8302
犯突	-11.8305
後安居人	-11.8307
年月	-11.8308
大乘戒	-11.8309
陳如	-11.8309
遊觀	-11.831
勤苦	-11.8313
龍身	-11.8314
雜含	-11.8315
乞詞	-11.8315
三二一	-11.8319
略辨	-11.8319
月滿	-11.8321
二眾生想	-11.8324
四海	-11.8327
觸女	-11.8327
左邊	-11.8329
金剛心	-11.8329
優波離問佛	-11.833
二人同	-11.8333
被褥	-11.8333
如是世尊與比丘結戒	-11.834
侍從	-11.8342
悅意	-11.8344
遮羅	-11.8346
偷蘭難陀	-11.8347
諸檀越	-11.835
女想	-11.8351
行六夜摩那埵竟	-11.8352
外書	-11.8354
摩頂	-11.8354
是名為犯眾多犯	-11.8355
報色	-11.8359
故文言	-11.8361
一心頂禮	-11.8363
皮革	-11.8364
從今日聽	-11.8364
罪障	-11.8365
未熟	-11.8366
未藏寶	-11.8367
速疾	-11.8368
膝上	-11.8368
忽有	-11.8368
不受後有	-11.8372
餘四眾	-11.8374
常樂我淨	-11.8375
襆	-11.8375
▁二犯緣	-11.8376
願大德為我作	-11.8376
阿闍棃	-11.8376
疫	-11.8377
愚路	-11.8378
騎乘	-11.8378
至明日	-11.8379
世第一	-11.838
佛像前	-11.8381
除貿易	-11.8381
▁二不犯	-11.8381
帔	-11.8381
至于今日	-11.8383
村界	-11.8384
一粒	-11.8385
不見不聞	-11.8387
串	-11.8387
各執	-11.8387
戶外	-11.8388
共鬪諍	-11.8388
輕遮	-11.8388
廬	-11.8391
皇帝	-11.8391
謁	-11.8392
杜多	-11.8392
斜	-11.8393
當懺悔	-11.8393
能授	-11.8394
大床	-11.8394
受胎	-11.8394
蹔	-11.8395
牧	-11.8399
脉	-11.84
大迦攝波	-11.84
無礙智	-11.8402
欲破和合僧	-11.8403
而為說法	-11.8408
▁二文下	-11.8409
之輩	-11.8411
上三句	-11.8411
別指	-11.8413
上尊	-11.8416
得食不	-11.8417
加被	-11.8422
園田	-11.8422
十二入	-11.8425
辦種種	-11.8426
無諸難事	-11.8426
貧苦	-11.8431
墮惡趣	-11.8434
何耶	-11.8435
不齊整	-11.8436
勸足	-11.8437
門首	-11.8441
三世佛	-11.8445
十二句	-11.8445
佛界	-11.8447
參禪	-11.8447
具威儀	-11.8449
寂定	-11.8449
受供	-11.845
為諸弟子	-11.845
三聚淨戒	-11.8451
應作是言	-11.8451
左右顧視	-11.8452
二偈	-11.8455
出功德衣	-11.8455
收取	-11.8455
器具	-11.8456
難集	-11.8458
房主	-11.8459
煮燒覆	-11.8459
說而了了者	-11.8459
憍薩羅	-11.846
受斯	-11.8461
煞生	-11.8462
年未滿二十	-11.8462
根本罪	-11.8463
不能盡	-11.8464
無量壽	-11.8465
第五門	-11.8466
口口	-11.8466
種種供養	-11.8469
形勢	-11.847
日今時	-11.8471
標舉	-11.8472
犢	-11.8472
床榻	-11.8473
苾芻僧伽	-11.8475
撿問	-11.8476
申手內	-11.8476
香氣	-11.8476
三者不得	-11.8477
發遣	-11.8478
少女	-11.8479
若自知	-11.848
襞	-11.848
卑下	-11.8481
謦欬	-11.8482
若不許者	-11.8482
結歸	-11.8485
本迹	-11.8486
狐疑	-11.8486
身壞命終	-11.8487
▁二約	-11.8488
瞋打	-11.8488
教旨	-11.8488
此之二	-11.8489
萬年	-11.849
歸位	-11.849
古記	-11.849
除增上慢	-11.8492
旱	-11.8493
咸得惡作	-11.8494
期行	-11.8494
販賣戒	-11.8495
前安居人	-11.8496
攝眾生戒	-11.8496
得利養	-11.8497
見言不見	-11.8497
至八月	-11.8499
捨命	-11.8499
卓	-11.8499
從佛聞	-11.85
痔	-11.8501
潮	-11.8504
衣鉢物	-11.8504
缾	-11.8504
猷	-11.8505
受持讀誦	-11.8505
此戒因	-11.8506
曹魏	-11.8507
盥	-11.8507
精出	-11.8508
飛鳥	-11.8509
作法不成	-11.8509
寅	-11.851
十二頭陀	-11.8511
隨順眾僧	-11.8512
夏竟	-11.8513
程	-11.8514
時淨飯王	-11.8514
十八法	-11.8516
悟入	-11.8518
逗	-11.8521
糞穢	-11.8522
羅什	-11.8524
第三篇	-11.8526
羮飯	-11.8527
諸經論	-11.8532
無有慚愧	-11.8533
無涯	-11.8535
清淨持戒	-11.8536
不自舉	-11.8537
)【	-11.8549
學無學	-11.8549
九十一劫	-11.855
無勢分	-11.8551
坐夏	-11.8554
若有因緣	-11.8555
僧與某甲比丘	-11.8557
眠時	-11.8558
毀禁	-11.8562
有漏法	-11.8564
三藏教	-11.8564
觸著	-11.8564
始末	-11.8565
輕微	-11.8566
過三夜	-11.8571
放去	-11.8574
依止舍衛城	-11.8574
五綴	-11.8575
人非人想	-11.8577
於意云何	-11.8579
塔事	-11.8579
入三昧	-11.8581
直去	-11.8581
我苾芻某甲	-11.8582
自今已去當如是說	-11.8585
至之者	-11.8586
八樹	-11.8586
生愛	-11.8588
舶	-11.8588
是染違犯	-11.8589
跋陀	-11.859
得過人法	-11.859
餉	-11.8592
多美飲食	-11.8593
若遣與人	-11.8594
藥體	-11.8594
入廁	-11.8594
弶	-11.8596
顏貌	-11.8597
園民	-11.8599
除時因緣	-11.8599
異類	-11.86
勝果	-11.8602
於中有二	-11.8602
佛為說法	-11.8603
色陰	-11.8603
鄔波	-11.8603
皮肉	-11.8604
餘四眾突吉羅	-11.8605
偃	-11.8605
水陸道斷	-11.8605
讚死	-11.8606
顯德	-11.8608
注解	-11.8609
訶諫	-11.861
行覆藏竟	-11.861
五蓋	-11.8611
熈	-11.8612
宵	-11.8612
第一句	-11.8612
堂上	-11.8616
贈	-11.8617
踰繕那	-11.8617
國家	-11.8617
嬰兒	-11.8618
此沙門釋子	-11.862
五月十六日	-11.8621
湛	-11.8623
廓	-11.8626
囑累	-11.8626
曇無德部	-11.8628
薩婆多部	-11.8629
如草覆地	-11.8631
諸比丘聞已	-11.8634
縱橫	-11.8635
准論	-11.8635
不煩	-11.8637
九旬	-11.8637
正儀	-11.8638
漢言	-11.864
對俗	-11.8641
孔中	-11.8644
〕)	-11.8644
麤細	-11.8644
不學人	-11.8645
詳如	-11.8646
滿十歲	-11.8647
大姓	-11.8648
百種	-11.8649
在路	-11.865
煞人	-11.8652
不揲	-11.8653
婆羅門子	-11.8654
牒緣	-11.8654
久遠	-11.8656
東夏	-11.8658
隨眠	-11.8658
理懺	-11.8659
寧容	-11.866
聖主	-11.8661
知友	-11.8668
作妄語	-11.867
每至	-11.8674
不避	-11.8675
周徧	-11.8676
起諍	-11.8676
開顯	-11.8681
手捉衣	-11.8683
梵網經云	-11.8685
樹枝	-11.8685
刀劍	-11.8687
違失	-11.8691
乖違	-11.8691
修集	-11.8697
釋中初科	-11.8698
謹慎	-11.8698
受戒犍度	-11.87
三菩伽	-11.8701
若能如是	-11.8701
阿梨吒	-11.8703
犯提罪	-11.8704
所作已辦	-11.8705
頭面作禮	-11.8707
服用	-11.8707
兩位	-11.8708
受三歸五戒	-11.8709
雜相	-11.8709
為長淨	-11.8711
次座	-11.8712
埿	-11.8713
常流	-11.8714
先受請	-11.8715
生敬信	-11.8716
莫能	-11.8716
白鑞	-11.8717
覺了	-11.8717
具五德	-11.8718
就座	-11.872
阿那含果	-11.8722
學律	-11.8727
旃檀	-11.8729
慇重	-11.873
破內外道	-11.873
應師云	-11.8731
妓	-11.8733
斟酌	-11.8735
用出家受戒	-11.8736
北洲	-11.874
立大小便	-11.8741
展轉相教	-11.8741
欲如何	-11.8741
慚恥	-11.8742
纏縛	-11.8743
垣	-11.8746
喝	-11.8746
飜	-11.8747
量度	-11.8747
結縛	-11.8748
思擇	-11.8748
圭	-11.8748
道力	-11.8748
姬周	-11.8749
賢愚	-11.875
措	-11.8751
夏四月	-11.8752
膊	-11.8755
五六語	-11.8755
一百八十	-11.8756
律語比丘	-11.8756
弭	-11.8758
可悔過	-11.8758
右旋	-11.8759
後漢	-11.876
逕宿	-11.876
布薩界	-11.876
靈山	-11.8763
部主	-11.8768
最尊	-11.877
局在	-11.877
嚼食	-11.8771
輕易	-11.8771
是故名為	-11.8772
問訊世尊	-11.8775
屍林	-11.8775
不與食	-11.8775
兩釋	-11.8776
能感	-11.878
求雨浴衣	-11.8784
入常住	-11.8785
而食之	-11.8787
染汙心	-11.8788
險難	-11.8788
本寺	-11.8789
識達	-11.8789
共集	-11.879
從上座	-11.8791
無間業	-11.8792
受我請	-11.8792
鉢底	-11.8792
夏初	-11.8793
根器	-11.8796
若有眾生	-11.88
重偷蘭	-11.8802
何因緣故	-11.8803
諸人眾	-11.8804
育王	-11.8807
別緣具四	-11.8808
語餘比丘	-11.8809
彼某甲比丘	-11.8813
十二年中	-11.8814
傳欲	-11.8818
我已說	-11.8822
七日服	-11.8824
害命	-11.8825
居士婦乞衣	-11.8827
從非親里居士	-11.8827
意存	-11.8829
春夏冬	-11.8832
其事實爾	-11.8834
我曾	-11.8835
餘趣	-11.8836
說而了了	-11.8837
濯	-11.8837
準論	-11.8837
彌沙塞	-11.8839
尋文	-11.8839
水所漂	-11.8839
皆提	-11.8839
于此	-11.8841
寡婦	-11.8842
僧應分	-11.8843
世出世	-11.8843
他宗	-11.8844
帝須	-11.8845
為飲食故	-11.8845
市肆	-11.8846
如文可知	-11.8846
庫司	-11.8847
作是事	-11.8848
儲	-11.885
僧坊中	-11.8851
有所犯	-11.8852
好織	-11.8852
佛在室羅伐城逝多林給孤獨園	-11.8855
躍	-11.8856
看守	-11.8856
佛性常住	-11.8857
頭髮	-11.8857
唼	-11.8858
外典	-11.886
剏	-11.886
自欺	-11.8861
殞	-11.8862
為妻	-11.8865
裸	-11.8866
而不捨	-11.8866
向餘處	-11.8867
䟦闍	-11.8868
勝利	-11.8869
千華	-11.8869
五篇七聚	-11.8869
往往	-11.887
煩惑	-11.887
鼎	-11.8871
二寸	-11.8871
時迦留陀夷	-11.8872
好醜	-11.8872
玩	-11.8873
是可學	-11.8873
當先白師	-11.8874
溪	-11.8875
七步	-11.8875
違教結罪	-11.8875
開化	-11.8876
肘量	-11.8876
酒香	-11.8877
尚不能	-11.8877
畵	-11.8878
現報	-11.8879
真偽	-11.8879
即從座起	-11.888
納受	-11.8884
卷第七	-11.8885
姚	-11.8888
燒衣	-11.8888
至王所	-11.889
記主	-11.8901
求受具足戒	-11.8905
毒害	-11.8906
如夢	-11.8907
一切佛法	-11.8907
塗地	-11.8909
顯揚	-11.8911
東土	-11.8912
逆順	-11.8914
可學事	-11.8915
如上所說	-11.8915
一心奉請大	-11.8916
居士居士婦	-11.892
善惡業	-11.892
非釋子	-11.892
光師	-11.8921
不可壞	-11.8923
然後方	-11.8923
依四分	-11.8923
藏教	-11.8929
依閏	-11.8931
證阿羅漢果	-11.8931
外部	-11.8932
入僧坊	-11.8933
滅擯羯磨	-11.8934
招提僧	-11.8937
尚爾	-11.8938
依止舍衛城住者皆悉令集	-11.8938
呼六群比丘來	-11.8939
波羅㮈	-11.894
真實淨	-11.8941
所述	-11.8942
婆羅門家	-11.8946
宜須	-11.8946
有五句	-11.8946
離間	-11.8947
於日初分	-11.8947
輕安	-11.895
呵諫	-11.895
化度	-11.8951
振動	-11.8953
減五綴	-11.8956
芻摩	-11.8957
三諫不捨	-11.8957
丈六	-11.8958
類知	-11.8958
神廟	-11.8959
兩脚	-11.896
某姓	-11.896
鉛錫	-11.8964
振手	-11.8964
有一婆羅門	-11.8965
拘留孫	-11.8969
涅	-11.8971
二道合	-11.8974
浸	-11.8975
檀尼迦	-11.8976
見聞觸知	-11.8978
失譯人名	-11.8979
第三亦如是	-11.8981
仇	-11.8981
說此偈	-11.8982
若無淨人	-11.8982
迸	-11.8982
檀波羅蜜	-11.8983
佛所制	-11.8983
惟願不違本誓	-11.8985
校量	-11.8985
疆	-11.8985
亦同前	-11.8987
元魏	-11.8987
左臂	-11.8987
吟	-11.8987
▁二次下	-11.8988
此是遮業	-11.8988
勳	-11.8989
自陳	-11.8989
路糧	-11.8989
刪補	-11.899
攝律儀戒	-11.899
不苦不樂	-11.899
曾經	-11.8991
以惡心	-11.8991
是止持	-11.8991
轉易	-11.8991
條數	-11.8992
髑髏	-11.8992
我為汝	-11.8992
我某甲比丘尼	-11.8992
灰土	-11.8995
唐三藏	-11.8998
弁	-11.8999
生生世世	-11.8999
過二夜	-11.8999
無勞	-11.9
次作羯磨	-11.9001
諍事滅	-11.9002
大丈夫	-11.9005
池邊	-11.9006
露身	-11.9007
如是我聞	-11.9011
具滿	-11.9013
亡人物	-11.9018
背後	-11.9019
釋氏	-11.902
引文證	-11.902
拘盧舍	-11.9023
猶恐	-11.9028
屏坐	-11.903
舉喻	-11.9031
計錢	-11.9036
久近	-11.9038
兩解	-11.904
四十里	-11.9042
勿復	-11.9042
分三品	-11.9044
三諫不止	-11.9049
白二差	-11.9051
一闡提	-11.9051
佛告阿難陀	-11.9052
所期	-11.9056
令捨是事	-11.9059
至十五日	-11.9068
驗知	-11.9068
十六句	-11.9069
雙牒	-11.907
上香	-11.907
為諸苾芻制其學處	-11.9072
真淨	-11.9074
尨	-11.9074
守門者	-11.9076
美飲食	-11.9076
一切無犯	-11.9077
辦衣價	-11.9077
草布地	-11.9077
共相問訊	-11.9079
懊惱	-11.9082
佛成道	-11.9082
穀貴	-11.9083
為檀越	-11.9083
咽咽波逸提	-11.9084
顏容	-11.9086
阿摩勒	-11.9086
譏謗	-11.9087
不與而取	-11.9087
行波利婆沙	-11.9087
束為	-11.9088
高樓	-11.9088
無別體	-11.9089
靜默	-11.9092
一切鬼神	-11.9093
前進	-11.9095
狐	-11.9097
律文云	-11.9097
斷人命	-11.9098
徙	-11.9098
莎伽陀	-11.91
慾	-11.9103
在不淨地	-11.9104
糟	-11.9106
復有二種	-11.9106
往反	-11.9106
鴦	-11.9107
爰	-11.9108
帀	-11.9108
法說非法	-11.9108
佛遊	-11.9109
床席	-11.9112
妖	-11.9112
泥洹僧	-11.9114
化物	-11.9114
作殘食法	-11.9114
喚入	-11.9114
呵嘖	-11.9115
無數劫	-11.9115
慘	-11.9116
啖	-11.9118
饑渴	-11.9118
失利	-11.9118
敦	-11.9121
多人中三諫	-11.9123
釆	-11.9124
食飯	-11.9125
當語言	-11.9125
一面坐	-11.9126
憂苦	-11.9128
茶湯	-11.9131
若先不知	-11.9131
應量作	-11.9132
梵僧	-11.9137
六十二	-11.914
赤白	-11.9145
怨賊	-11.9146
下二明	-11.9147
以何為	-11.9148
諸比丘往白佛	-11.9149
在一邊	-11.915
腹中	-11.915
舍夷	-11.9151
至白衣家	-11.9151
疑不敢	-11.9151
名譽	-11.9152
期限	-11.9154
五人僧	-11.9155
今準	-11.9155
盜聽	-11.916
當勤	-11.9162
村間	-11.9168
形露	-11.9168
諸佛世尊	-11.9168
親愛	-11.917
諸比丘作是念	-11.9171
意喜	-11.9172
怖懼	-11.9175
壞色故	-11.9178
尚書	-11.918
昔日	-11.9182
各不相	-11.9183
諸鬼神	-11.9184
色無色	-11.9184
普度	-11.9184
不墜	-11.9188
犯重垢罪	-11.9189
彼此俱	-11.9189
差遣	-11.9189
由其默然故	-11.9195
須菩提	-11.9196
無瑕	-11.9197
感戒	-11.9198
迦留陀夷比丘	-11.9198
白三羯磨	-11.9201
虛誑	-11.9201
日限	-11.9202
巳下正明	-11.9203
無違犯者	-11.9204
石鉢	-11.9205
十三條	-11.9205
希奇	-11.9205
癰疽	-11.9207
八千	-11.9209
難忍	-11.921
至上座前	-11.9213
燈燭	-11.9214
蔔	-11.9216
攀	-11.9218
利益安樂	-11.9218
流類	-11.9219
搖動	-11.922
穌	-11.9223
牛驢	-11.9223
奪三十五事	-11.9225
愚夫	-11.9225
往索	-11.9227
黑闇	-11.9227
已下正明戒本	-11.9228
▁初總示	-11.9228
底沙	-11.9229
為利故	-11.9229
上座部	-11.923
八十一	-11.923
滿宿	-11.923
諸沙門	-11.9231
彫	-11.9231
派	-11.9232
拘睒彌國	-11.9233
遍滿	-11.9233
捻	-11.9234
入息	-11.9235
無厭足	-11.9236
」。)	-11.9236
棒	-11.9237
水草	-11.9239
此呪	-11.924
禾	-11.924
通道俗	-11.9242
虗誑	-11.9242
形容	-11.9243
市易	-11.9244
禮世尊足	-11.9245
詺	-11.9246
歷代	-11.9247
有如是事	-11.9247
破法輪	-11.9248
數多少	-11.9249
打鐘	-11.9249
有緣事	-11.9252
況餘	-11.9253
出入息	-11.9254
抄衣	-11.9254
良久	-11.9256
自手捉	-11.9257
入堂	-11.9257
止持中	-11.9261
有其二	-11.9262
諸釋子	-11.9263
有慚	-11.9268
受法比丘	-11.9272
殺盜等	-11.9274
修慈	-11.9276
七日內	-11.9278
諸善根	-11.928
並悉	-11.9281
兒子	-11.9288
安鉢	-11.929
減年	-11.9291
僧伽今	-11.9293
性命	-11.9294
四聖種	-11.9295
談論	-11.9296
夜半	-11.9297
名止持	-11.9297
一是眾生	-11.9299
不應呵	-11.9303
置地與	-11.9307
不可以是長養善法	-11.9307
所作業	-11.9307
默念	-11.9309
經歷	-11.9309
屬和上尼羯磨	-11.9312
可信優婆夷	-11.9312
無所依	-11.9312
婬盜	-11.9313
著入聚落衣	-11.9314
宗體	-11.9316
為二初	-11.9316
無遺	-11.9321
大福德	-11.9322
覺觸	-11.9322
即我身是	-11.9324
屋內	-11.9325
信樂受持	-11.9327
餘之三	-11.9328
若不即死	-11.9329
威儀庠序	-11.933
匁	-11.9332
有異住處	-11.9333
餘如文	-11.9335
致死	-11.9336
携	-11.9337
章句	-11.9338
▁初戒緣	-11.9338
大地獄	-11.9338
卷第八	-11.9339
於此城中	-11.934
復有二法	-11.9343
斑	-11.9344
僧祗云	-11.9345
庵	-11.9346
婆娑	-11.9346
鬪諍事	-11.9346
皈依	-11.9346
餅果	-11.9347
寤	-11.9347
還到	-11.9349
路逢	-11.9351
歛	-11.9352
葦	-11.9352
于地	-11.9353
天龍八部	-11.9353
在淨地	-11.9354
沙糖	-11.9355
旅	-11.9356
逆流	-11.9357
算數	-11.9358
楗	-11.9358
水漂	-11.9359
罽	-11.936
邦	-11.9361
棄擲	-11.9362
輻	-11.9363
獅子	-11.9364
娑婆訶	-11.9364
語居士言	-11.9364
非人疑	-11.9364
得生天	-11.9364
和尚闍梨	-11.9366
准十誦	-11.9367
嗚呼	-11.9367
亘	-11.9369
目錄	-11.9371
而作是言	-11.9372
設使	-11.9374
別經名	-11.9374
聞磬聲	-11.9376
故須聖制	-11.9377
暴惡	-11.938
向暮	-11.9382
標釋	-11.9385
壞威儀	-11.9387
方便救護	-11.9387
尚未	-11.9387
辨相中	-11.9393
作單白	-11.9395
恣意	-11.9395
尺二寸	-11.9398
收舉	-11.9402
無作戒體	-11.9406
無由得	-11.941
簡濫	-11.9411
撰述	-11.9416
俗士	-11.942
聞斯	-11.9422
可分別	-11.9424
貪染	-11.9425
此等皆	-11.9426
不滿五	-11.9427
寶塔	-11.9429
文殊師利言	-11.9431
兩膝	-11.9431
宿煑	-11.9434
眾外	-11.9435
未受具	-11.9436
從今已後	-11.9438
王勅	-11.9438
到僧中	-11.9442
以是因緣具白世尊	-11.9445
結此戒	-11.9446
捨墮衣	-11.9447
若放恣諸根	-11.9449
知水有蟲	-11.9451
粗惡	-11.9451
優婆私	-11.9452
無色定	-11.9454
十三僧殘	-11.9454
新受戒比丘	-11.9456
佛未聽我等	-11.9456
得小罪	-11.9459
忉利	-11.9459
耶輸陀羅	-11.9459
利樂	-11.9459
指授處所	-11.9459
不敢食	-11.9461
資道	-11.9463
不受法比丘	-11.9464
汝等諦聽	-11.9467
設會	-11.947
宅舍	-11.947
牻	-11.9471
同一住處同一說戒	-11.9472
問遮難	-11.9473
稽留	-11.9473
大眾部	-11.9473
壘	-11.9475
順理	-11.9477
能伏	-11.9478
尊者舍利弗	-11.9479
所須之物	-11.9479
睒	-11.948
極微	-11.948
碧	-11.9482
違諫戒	-11.9482
恡	-11.9482
廉	-11.9484
天子言	-11.9487
髮爪	-11.9488
是時長者	-11.9488
貧賤	-11.9488
褻	-11.9491
繩牀	-11.9491
掃除	-11.9492
云初至	-11.9492
嚫	-11.9494
四十三	-11.9496
滿月	-11.9497
如之何	-11.9498
訃	-11.9499
緇	-11.9501
勸他	-11.9502
破古	-11.9502
愛語	-11.9504
下牒釋	-11.9505
解其義	-11.9513
此諍事	-11.9516
花嚴	-11.9519
適來	-11.9521
男子女人	-11.9522
第二文	-11.9523
馬宿	-11.9523
增上戒	-11.9526
似寶	-11.9529
更無別	-11.9532
三解脫門	-11.9532
五百世	-11.9536
經部	-11.9538
甚麼	-11.954
例然	-11.9542
高床	-11.9542
未曉	-11.9543
於佛所	-11.9544
引禮云	-11.9544
求悔	-11.9545
良藥	-11.9548
時提婆達多	-11.955
食前食後	-11.955
畜眾羯磨	-11.9551
讚美	-11.9563
諸長老比丘尼聞	-11.9564
差殊	-11.9565
艱	-11.9565
老病比丘	-11.957
三無因緣	-11.9571
聾人	-11.9577
眼目	-11.9578
八倒	-11.9579
若諸菩薩安住菩薩淨戒律儀	-11.958
為比丘尼僧故	-11.9581
分散	-11.9581
修諸善	-11.9584
是中量者	-11.9586
尸叉罽賴尼	-11.9587
停住	-11.9588
愁惱	-11.9588
水中戲	-11.9588
面向	-11.9589
我諸弟子	-11.959
人倫	-11.959
總集	-11.9592
作人想	-11.9594
守門人	-11.9595
來替	-11.9597
造像	-11.9601
臼	-11.9601
昨夜	-11.9601
三小界	-11.9602
眼見耳不聞處	-11.9602
灌鼻	-11.9602
稅物	-11.9602
罽賓	-11.9603
企	-11.9604
二十眾	-11.9611
估	-11.9611
忘念	-11.9611
祠祀	-11.9612
並皆無犯	-11.9612
牒事	-11.9613
譬如有人	-11.9614
遽	-11.9614
為菩薩時	-11.9614
僧斷事	-11.9617
及佛說	-11.9617
妓樂	-11.9618
宿世	-11.9618
八尺	-11.962
文可見	-11.962
釀	-11.962
擲石	-11.9621
摩訶衍	-11.9622
魅	-11.9622
鴻	-11.9622
漉囊	-11.9624
遣使往	-11.9624
和合羯磨	-11.9624
治國	-11.9628
綱領	-11.9631
瓦器	-11.9631
濾水	-11.9632
呪師	-11.9632
佛舍利	-11.9632
非我所	-11.9632
即其義也	-11.9632
聚會	-11.9633
無分別智	-11.9634
護佛法	-11.9634
郭	-11.9635
有蟲水	-11.9638
雖爾	-11.9638
㒵	-11.9638
療治	-11.9641
牛王	-11.9647
浴室中	-11.9651
會詳	-11.9651
缺戒	-11.9653
我捨佛	-11.9653
月望	-11.9657
不相違	-11.9658
雙持	-11.966
一毫	-11.9662
新舊	-11.9663
此之三	-11.9664
外道邪見	-11.9666
行布施	-11.9666
歸家	-11.9667
夏末	-11.9669
會採僧祗	-11.9671
偏執	-11.9674
前文有三	-11.968
泥塗	-11.9682
初四句	-11.9683
迦攝波佛	-11.9686
織衣	-11.9689
闥賴吒	-11.969
消除	-11.9698
作覆藏心	-11.9699
不忍便說	-11.9699
圓修	-11.9701
更不復	-11.9702
福智	-11.9703
怨對	-11.9703
污衣	-11.9703
所得衣	-11.9703
為女人說法	-11.9705
下正示	-11.9707
離座	-11.9707
行惡行亦見亦聞	-11.9709
一滴	-11.9709
即從坐起	-11.971
同一利養	-11.9711
戒緣中	-11.9713
並據	-11.9713
是障道法	-11.9715
犯非威儀突吉羅	-11.9716
發歡喜心	-11.9717
是名悔過法	-11.9718
以故作故	-11.972
僧房中	-11.9722
結加趺坐	-11.9722
屏處三諫	-11.9723
▁二就下別釋	-11.9723
生悔	-11.9723
異學	-11.9724
勞倦	-11.9727
佛告舍利弗	-11.9727
共布薩	-11.9729
鍛	-11.9729
化樂天	-11.9729
賃	-11.9732
以過白佛	-11.9732
境強	-11.9734
搩	-11.9735
假緣	-11.9735
營造	-11.9739
箭射	-11.974
象師	-11.9741
惡夢	-11.9743
蔑	-11.9743
上岸	-11.9744
頞	-11.9746
要見好相	-11.9747
遞	-11.9747
至其所	-11.975
往至佛所	-11.9753
文繁	-11.9754
按摩	-11.9754
舟航	-11.9755
慙	-11.9756
僧巳忍與	-11.9758
下別示	-11.9758
表裏	-11.9765
猛利	-11.9768
在阿蘭若	-11.9769
婬意	-11.977
漂衣	-11.977
哲	-11.9771
深厚	-11.9772
駮	-11.9773
且列	-11.9778
義味	-11.9779
此五法	-11.9786
出家近圓	-11.9787
曠野中	-11.9787
菩提道	-11.9788
不殺戒	-11.9788
聲聞乘	-11.9789
過一月	-11.9789
已辦	-11.979
眾法心念	-11.9795
憶知	-11.9796
作禮三拜	-11.9796
未甞	-11.9796
難提比丘	-11.98
避去	-11.98
未達	-11.9803
彌勒菩薩	-11.9803
知僧事	-11.9805
出生死	-11.9808
不動身	-11.9808
本犯戒	-11.9809
分限	-11.9816
序分	-11.9822
阿難陀曰	-11.9822
為諸比丘結戒	-11.9825
與波利婆沙	-11.9828
嫌疑	-11.9829
盜僧物	-11.9833
入浴室	-11.9836
無沙門行	-11.9838
或復餘尼	-11.9838
乞索	-11.9838
迦維羅衛	-11.984
謗世尊者不善	-11.9842
迦多演那	-11.9843
技術	-11.9844
隨病藥	-11.9847
先不受自恣請	-11.9847
二十部	-11.9849
擲石所及處	-11.9853
說婬欲	-11.9853
愛護	-11.9854
迦蘭陀竹園	-11.9854
牽挽	-11.9856
▁二多下	-11.9856
9	-11.9858
浴池	-11.986
此戒具三緣	-11.9862
前人領解	-11.9862
歎譽	-11.9862
佛告目連	-11.9864
知是看是	-11.9866
時諸居士	-11.9868
群賊	-11.9869
㝹	-11.9869
令法久住	-11.987
幹	-11.987
不知慚愧	-11.9871
廣三肘	-11.9871
藤	-11.9872
褋	-11.9873
天龍鬼神	-11.9876
古師云	-11.9877
詠	-11.9878
自下第二	-11.9879
紛紜	-11.988
色聲香味觸	-11.9881
非人人想	-11.9881
奄	-11.9882
眾首	-11.9887
股	-11.9887
詎	-11.9887
簾	-11.9888
形狀	-11.9888
銳	-11.9889
杌木	-11.989
播	-11.9892
雲棲	-11.9892
二十種	-11.9894
至日暮	-11.9897
為眾生故	-11.9901
詢	-11.9902
蔬	-11.9902
具六緣	-11.9903
榻	-11.9903
誡勸	-11.9904
牒文	-11.9904
小妄語	-11.9911
種種因緣訶責	-11.9911
娑訶	-11.9911
勿過	-11.992
弟子制其學處	-11.9922
虗通	-11.9923
五尺	-11.9924
心境俱	-11.9925
分輕重	-11.9927
百里	-11.9927
春時	-11.9928
氈褥	-11.9928
牧牛人	-11.9928
行步	-11.993
小年	-11.9934
萬里	-11.9936
讀誦經	-11.9937
刀兵	-11.9938
著糞掃衣	-11.9938
布地	-11.9946
同室	-11.9947
慳悋	-11.9948
彼苾芻尼	-11.9954
印可	-11.9955
我得上人法	-11.9959
數息	-11.9962
發覺	-11.9963
下一句	-11.9963
鉢器	-11.9963
遍觀	-11.9965
弟子某甲	-11.9966
龍宮	-11.9967
廣列	-11.9969
理性	-11.9969
歡喜踊躍	-11.997
合掌恭敬	-11.9971
勝負	-11.9973
毘舍佉母	-11.9973
說罪名	-11.9973
諸仙	-11.9973
頭面禮足却坐一面	-11.9973
爾時阿難	-11.9973
餘皆虛妄	-11.9974
歡喜不諍	-11.9974
事畢	-11.9974
受作功德衣	-11.9976
告諸人曰	-11.9977
違情	-11.9978
乞求難得	-11.9978
阿若憍陳如	-11.9979
不敢違逆	-11.9982
人在高	-11.9982
飛行	-11.9983
說法示教利喜	-11.9984
量宜	-11.9984
犯應懺突吉羅	-11.9984
觸女人	-11.9985
不偷盜	-11.9985
甚可	-11.9985
往到佛所	-11.9986
生疑問佛	-11.9987
囊盛	-11.9987
消文	-11.9987
根本說一切有部	-11.9988
我所說	-11.9988
杖絡囊	-11.9989
堅實	-11.9989
無暇	-11.9993
給孤獨園	-11.9993
汝是中盡形壽不得犯	-11.9993
放大光明	-11.9996
火所燒	-11.9996
呪殺	-11.9997
妙香	-11.9997
▁初列示	-11.9999
不可分別	-12
前犯中間重犯某僧殘罪	-12
蘆	-12.0001
志求	-12.0001
藕	-12.0002
佛境界	-12.0002
尊宿	-12.0003
得偷蘭	-12.0003
胤	-12.0004
辨體	-12.0004
假宗	-12.0004
小床	-12.0005
餘比丘語言	-12.0007
畦	-12.0007
金剛杵	-12.0007
捫摸	-12.0009
一心奉供	-12.001
再說	-12.001
仁王	-12.001
周旋	-12.0011
上中下座	-12.0012
棘	-12.0013
值佛	-12.0014
車馬	-12.0015
酷	-12.0016
邪業	-12.0016
豁	-12.0016
浩	-12.0018
闍維	-12.0019
邀	-12.0019
闕初緣	-12.002
眉間	-12.002
蕭	-12.002
成功	-12.0021
成別眾	-12.0022
詳審	-12.0024
共男子	-12.0025
猶尚	-12.0025
衣服飲食	-12.0026
諸尼眾	-12.0026
無始以來	-12.0026
跨	-12.0026
莎	-12.0027
拘執	-12.0027
壁上	-12.0027
迦毗羅	-12.0028
掉舉	-12.003
喜足	-12.0033
决	-12.0038
林野	-12.0038
十八日	-12.004
根種	-12.0043
田園	-12.0043
未制戒	-12.0047
順情	-12.005
圓頓	-12.0053
迷悟	-12.0058
雜藏	-12.0061
甚善	-12.0061
作衣竟	-12.0062
自手取食	-12.0064
威勢	-12.0066
清潔	-12.0067
兼制	-12.0069
持呪	-12.0069
第二十一	-12.0074
汲水	-12.0076
兩个	-12.0078
草繫	-12.0078
見好相	-12.0081
不惜	-12.0083
下二眾	-12.0088
虗空藏	-12.0088
殊妙	-12.0089
客苾芻	-12.0096
▁八十	-12.0097
放光明	-12.0098
仙道	-12.0102
如是何有正法	-12.0102
佛以此緣	-12.0104
各有所	-12.011
可信人	-12.011
非法和合眾	-12.0111
歸三寶	-12.0117
佛說如是	-12.012
越學法	-12.0121
多犯眾罪	-12.0121
午後	-12.0121
呵責六群比丘尼	-12.0123
0	-12.0123
捨之而去	-12.0123
在寺內	-12.0124
娉	-12.0125
蒲闍尼	-12.0129
屬己	-12.0129
口和	-12.013
捨惡見	-12.0131
獨與一	-12.0132
之基	-12.0133
技	-12.0133
版	-12.0134
一切法無	-12.0135
堤	-12.0135
傭	-12.0137
飢饉	-12.0138
骨牙角	-12.0139
入聚落乞食	-12.014
有幾種	-12.014
三月十六日	-12.0141
兮	-12.0142
氍氀	-12.0142
緯	-12.0142
諸惡莫作	-12.0143
從非親	-12.0144
牖	-12.0144
錯亂	-12.0147
上某下某	-12.0147
姨母	-12.0147
第二第三亦如是說	-12.0148
軌範師	-12.0148
諷經	-12.015
怙	-12.015
命終之後	-12.0152
葷	-12.0153
尺六寸	-12.0153
京兆	-12.0154
𡰱	-12.0154
爾時佛告諸比丘	-12.0154
禽	-12.0155
無二無別	-12.0155
二明應	-12.0156
楷	-12.0157
孝順父母	-12.0157
法得久住	-12.0158
八敬法	-12.016
斷惡修善	-12.0161
萌	-12.0162
澡漱	-12.0163
覆屋	-12.0165
無漏戒	-12.0165
天竺國	-12.0168
統收	-12.0169
陸地	-12.0175
隸	-12.0177
溼	-12.0177
偈讚	-12.0178
非法說法	-12.0182
相罵	-12.0184
蘭若處	-12.0186
有為法	-12.0186
機教	-12.0187
本原	-12.019
之異名	-12.019
波羅奈	-12.0191
為犯境	-12.0195
不壞信	-12.0199
調順	-12.02
階位	-12.0203
僧中唱	-12.0206
由此因緣	-12.0206
奈何	-12.021
出家修道	-12.0212
妨礙	-12.0213
張衣	-12.0215
二丈	-12.0217
薄福	-12.022
文有三	-12.0221
乏少	-12.0223
未作淨	-12.0224
祇園	-12.0227
闥利吒比丘能滅諍	-12.0228
闥利吒比丘不能滅諍	-12.0229
於佛前	-12.0229
動搖	-12.0231
中分三	-12.0231
三斗	-12.0236
不須說淨	-12.0236
十七眾	-12.0238
盜五錢	-12.0239
慎莫	-12.0239
若比丘知是物向	-12.0241
佉陀尼	-12.0242
召請	-12.0244
迎食	-12.0245
六十三	-12.0245
穢惡	-12.0249
釋罪相等	-12.0251
乘乘	-12.0251
補治	-12.0255
生希有	-12.0257
卷第九	-12.0259
案上	-12.0262
明持犯	-12.0263
萬二千	-12.0265
引此文	-12.0269
癬	-12.0269
或四五	-12.027
非色心	-12.027
至暮	-12.027
問六群比丘	-12.0272
如來至真等正覺	-12.0272
糜	-12.0273
苦酒	-12.0275
授事人	-12.0276
九十六種	-12.0276
六欲天	-12.0277
▁初正示	-12.0279
十三難人	-12.0279
斷善根	-12.0279
罄	-12.0279
眼藥	-12.0281
輕慢佛語	-12.0283
毗舍佉母	-12.0283
頭首	-12.0284
舍婆提	-12.0284
壺	-12.0285
錐	-12.0285
四十八輕	-12.0286
迄	-12.0289
光澤	-12.029
怕	-12.029
忙	-12.029
蒱	-12.0291
文殊問經	-12.0291
慊	-12.0292
黜	-12.0295
妙吉祥	-12.0296
交絡	-12.0298
卯	-12.0303
啟請	-12.0304
悉達	-12.0305
必兼	-12.0306
夏月	-12.0309
床臥	-12.0309
誇	-12.0309
諸長老比丘	-12.0309
唇	-12.0313
長劫	-12.0313
諸大臣	-12.0314
盡無餘	-12.0314
不應輒	-12.0315
在其中	-12.032
五濁	-12.032
僧常食	-12.0323
堯	-12.0324
光潔	-12.0324
時具壽阿難陀	-12.0325
移夏	-12.0326
按此戒	-12.0326
慧照	-12.0327
作擯羯磨	-12.0327
生是念	-12.0331
廣狹	-12.0335
勝光王	-12.0338
進否	-12.034
證菩提	-12.034
不可信	-12.0346
孝子	-12.0346
決判	-12.0348
入室坐	-12.0348
又三初	-12.0349
成敗	-12.0351
善趣	-12.0354
同一界	-12.0356
江南	-12.0358
雜集	-12.0359
青衣	-12.0359
同梵行	-12.0362
日更得	-12.0365
以何因緣	-12.0365
通含	-12.0366
大德憶念	-12.0369
謙下	-12.0369
舊比丘來	-12.037
▁二一下	-12.0371
知他比丘	-12.0373
諸魔	-12.0373
八十四	-12.0375
勸增	-12.038
卿等	-12.038
中有少欲知足	-12.0385
共相覆罪	-12.0385
頭面禮足却住一面	-12.0386
不失衣界	-12.0386
迦留陀比丘	-12.039
犯偷蘭	-12.0391
有多勢分	-12.0392
惡聲流布	-12.0393
手捧	-12.0396
超過	-12.0398
貝齒	-12.0398
諸佛子等	-12.0398
被舉比丘	-12.0399
幡蓋	-12.0399
某甲為鄔波馱耶	-12.04
至地了時	-12.0403
下指廣	-12.0405
明行足	-12.0407
冥然	-12.0407
凡愚	-12.0407
佛在舍衛國給孤獨園	-12.0408
無自性	-12.0408
鹿子母	-12.041
依聚落	-12.0411
作新坐具	-12.0411
持蓋	-12.0411
禮一拜	-12.0411
汝愚癡人	-12.0415
磔	-12.0415
加害	-12.0416
沙門釋子自言	-12.0417
伎術	-12.042
嗢	-12.0421
閻羅王	-12.0421
宛轉	-12.0423
遇賊	-12.0423
未受具戒者	-12.0423
序事三階	-12.0423
摧伏	-12.0424
我依大德故	-12.0425
閾	-12.0426
師弟	-12.0426
堀	-12.0426
十夜別住	-12.0427
報佛恩	-12.0427
挫	-12.0428
尠	-12.0428
書記	-12.0428
▁初列緣	-12.0428
銅器	-12.0428
百萬億	-12.043
度令出家	-12.043
除糞	-12.0432
褰衣	-12.0432
奮	-12.0433
慶喜	-12.0433
▁初敘意	-12.0433
是時世尊	-12.0434
忤	-12.0434
台	-12.0436
調適	-12.0436
帙	-12.0438
綠	-12.0439
周帀	-12.044
辟	-12.0441
下點	-12.0442
紹隆	-12.0443
草敷	-12.0445
行婬欲法	-12.0446
五戒十戒	-12.0446
一體三寶	-12.0448
隨意取	-12.0449
鼻舌身	-12.0449
攝生戒	-12.045
不名受具足	-12.0451
籤	-12.0451
僧差某甲比丘	-12.0454
初總示	-12.0454
穢污	-12.0456
年不滿	-12.0458
親里尼	-12.0459
第七十	-12.0459
事務	-12.046
舍利弗問經	-12.046
漫心	-12.046
喻顯	-12.0463
▁初釋文	-12.0464
鄔陀夷苾芻	-12.0465
妄情	-12.0465
文勢	-12.0466
句句	-12.0466
依止弟子	-12.0468
外道惡人	-12.0469
來至佛所	-12.047
苦哉	-12.0479
大悲心	-12.048
入道之	-12.0481
險道	-12.0484
擇滅	-12.0487
計理	-12.049
弘始	-12.0492
君父	-12.0492
未嘗	-12.0497
給侍	-12.0497
薩羅	-12.05
主客	-12.0501
勤䇿	-12.0506
續入	-12.0511
長老憶念	-12.0512
失儀	-12.0513
取他物	-12.0522
往僧中	-12.0524
俱舍論	-12.0528
果菜	-12.0529
白骨	-12.0531
瞋忿	-12.0537
彼非比丘尼	-12.054
毛緂	-12.054
二十八人	-12.0541
諸比丘以是事白佛	-12.0543
薜舍	-12.0547
禮儀	-12.0548
為賊所	-12.0548
十方盡虛空界	-12.0549
▁初總分	-12.055
限量	-12.0551
坻	-12.0553
墼	-12.0554
容恕	-12.0556
兼制比丘尼波逸提	-12.0556
如來無所著等正覺	-12.0557
釋義文分	-12.0558
二十人僧	-12.0558
頭面禮	-12.0559
補特伽羅	-12.056
熱病	-12.0561
黠	-12.0562
生多功德	-12.0562
幾歲	-12.0563
藕根	-12.0564
十七羣	-12.0564
嗚	-12.0564
賒	-12.0564
豪貴	-12.0564
鑪	-12.0565
釋義緣處發起	-12.0566
非法非毗尼	-12.0566
此是性罪	-12.0567
村坊	-12.0568
疲倦	-12.0569
終不能	-12.0571
赴請	-12.0571
時與非時	-12.0572
岐	-12.0575
夢中語	-12.0575
具五法	-12.0576
㓨	-12.0576
曉了	-12.0578
以下訖	-12.0579
說戒序	-12.058
兩段	-12.0582
塊	-12.0582
絛	-12.0584
求哀懺悔	-12.0584
銖	-12.0585
蒸	-12.0585
箸	-12.0586
檀那	-12.0587
中廣明	-12.059
得根本罪	-12.0591
街	-12.0593
章服儀	-12.0595
如意珠	-12.0595
略標	-12.0598
淨屋	-12.06
捨此身	-12.0603
亮	-12.0605
布草	-12.0605
士女	-12.0605
燃火	-12.0606
發大願	-12.0607
檀越施衣	-12.0607
▁二就下釋	-12.0607
天竺沙門	-12.0609
周法界	-12.061
隨覆藏日羯磨	-12.061
悋惜	-12.0611
有一界	-12.0615
平復	-12.0616
本法尼	-12.0617
舉離處	-12.0627
剋心	-12.0627
名作持	-12.0628
刀割	-12.0628
知而故	-12.0629
當如法懺悔	-12.0631
迎接	-12.0633
善戒經	-12.0634
北天竺	-12.0635
生一子	-12.0637
露地敷	-12.0638
初正明	-12.0639
作呵諫	-12.064
經明相	-12.0641
直付	-12.0641
僧今與某甲	-12.0642
默然受請	-12.0648
樹提	-12.0649
瓔珞具	-12.065
退轉	-12.0652
次第乞食	-12.0653
運想	-12.0658
雜事云	-12.0659
▁二上下	-12.0659
逼惱	-12.0664
假借	-12.0667
七十五	-12.0668
中初釋	-12.067
自受語	-12.0671
覆肩	-12.0671
須說淨	-12.0677
作覆鉢羯磨	-12.0678
下次顯	-12.068
躡上	-12.0681
燈火	-12.0684
尼犯亦	-12.0686
馬勝	-12.0687
百三十	-12.0687
當如是說戒	-12.0687
前文有	-12.0687
好覆身	-12.069
春殘一月	-12.0694
不名捨戒	-12.0695
金銀寶物	-12.0697
懺悔則安樂	-12.0698
末利	-12.0698
於此四方相內	-12.0699
阿耆	-12.0701
與覆藏羯磨	-12.0702
於大眾中	-12.0704
毗柰耶	-12.0704
▁二釋注	-12.0704
胝	-12.0705
塗拭	-12.0706
得提罪	-12.0706
從今不聽	-12.0707
能變形	-12.0707
而告之曰	-12.0708
器仗	-12.0709
跋闍	-12.0711
栴	-12.0711
輕躁	-12.0712
興供養	-12.0713
自取食	-12.0714
雹	-12.0714
瞋癡	-12.0718
廢闕	-12.0718
香華請	-12.0719
籬障	-12.0721
清濁	-12.0721
婆羅門居士等	-12.0725
習種性	-12.0726
國城	-12.073
過三由旬	-12.0731
是沙彌尼戒	-12.0732
妙賢	-12.0733
拱	-12.0734
澄清	-12.0734
呌	-12.0735
過三鉢	-12.0736
三門分別	-12.0736
肝	-12.074
百姓	-12.074
是法語	-12.0745
六十二見	-12.0748
昔有一	-12.0748
門限	-12.0751
他勝處	-12.0752
臨機	-12.0752
巳捨與僧	-12.0752
衝	-12.0753
兼濟	-12.0763
白疊	-12.0764
統攝	-12.0769
求利養	-12.0772
諸優婆塞	-12.0772
一勢分	-12.0774
▁二戒本	-12.0778
緣慮	-12.0779
文解釋	-12.078
殘藥	-12.0781
是故汝等	-12.0783
第八十	-12.0787
天王宮	-12.0791
行菩薩行	-12.0795
至十六日	-12.0797
覆藏本日治羯磨	-12.08
摩尼寶	-12.08
七尺	-12.0803
以十利故為諸比丘	-12.0805
疾滅	-12.0805
堂內	-12.0807
作突吉羅懺	-12.0808
六齋	-12.081
大威德	-12.0811
結衣界	-12.0812
一百四十	-12.0813
邊房	-12.0826
僧伽已聽許	-12.0829
獨坐床	-12.083
尸利耶婆	-12.0831
隨汝意	-12.0831
梵行已立	-12.0832
從座而起	-12.0834
阿含經云	-12.0835
眾不滿	-12.0836
雙林	-12.0837
可委	-12.0837
蚊虻	-12.0838
具壽存念	-12.0839
千劫	-12.0839
阿耆達	-12.084
有殺心	-12.084
出界去	-12.0841
說偈云	-12.0843
得波夜提罪	-12.0844
從僧乞解	-12.0847
拘那含牟尼	-12.0847
兼制比丘尼	-12.0848
得急施衣	-12.0848
耆域	-12.0849
斯陀含果	-12.085
悴	-12.0851
瓶水	-12.0852
恭敬尊重	-12.0853
撰集	-12.0854
至餘處	-12.0857
鍵𨩲	-12.0858
偏舉	-12.0858
:)「	-12.0858
廣如鈔	-12.0859
令憶念	-12.0859
摩醯首羅	-12.086
尿	-12.0861
捶	-12.0861
䟦陀羅	-12.0863
抒	-12.0864
迷亂	-12.0864
打犍椎	-12.0864
國王王子	-12.0864
便得墮罪	-12.0864
殖	-12.0865
蒲萄	-12.0865
故須制也	-12.0867
峻	-12.0867
棟	-12.0867
破僧伽	-12.0868
七十九	-12.0868
懲	-12.0868
護摩	-12.0869
構	-12.087
社	-12.087
無上福田	-12.087
相續不斷	-12.0872
菩薩心地法門戒心中	-12.0873
戟	-12.0874
耳鼻	-12.0876
晨起	-12.0877
作初羯磨	-12.0878
受他請	-12.0879
洽	-12.0879
調柔	-12.0879
著俗服	-12.0879
斬壞	-12.0879
□□□□	-12.0879
茫	-12.0879
鏁	-12.088
威光	-12.088
俳	-12.0881
崇云	-12.0882
罽賓國	-12.0883
貨物	-12.0883
葛	-12.0884
此之四	-12.0887
裘	-12.0888
五百年	-12.0888
譏醜	-12.0889
忍僧與	-12.089
強逼	-12.089
阿夷	-12.0892
婬女家	-12.0895
乳母	-12.0898
于時世尊	-12.0898
䟦提	-12.0899
爾雅云	-12.0903
生染著	-12.0906
於未來世	-12.0906
口腹	-12.0907
影現	-12.0909
歷劫	-12.0915
近聚落	-12.0916
中初科前	-12.0918
布施持戒	-12.0923
至十一日	-12.0925
憂波離	-12.0928
和合僧伽	-12.093
作如是意	-12.093
商賈	-12.0935
說過人法	-12.0938
迭	-12.0942
戶扇	-12.0944
四無因緣	-12.0944
癩病	-12.0949
痛惱	-12.0952
來不來	-12.0952
異部	-12.0953
靜坐	-12.0955
竹林園	-12.0958
香熏	-12.0959
說戒犍度	-12.0962
初三句	-12.0965
最後身	-12.0966
如是有何正法	-12.0967
審知	-12.097
露地坐	-12.0972
僧不處分	-12.0972
三釋名者	-12.0972
莫謗世尊	-12.0977
中初指	-12.0978
存略	-12.0978
堅執不捨	-12.0983
未離欲	-12.0984
歷然	-12.0984
調御丈夫	-12.0987
林樹	-12.0987
隨佛出家	-12.0988
送衣價	-12.0989
現前僧物	-12.099
但心念	-12.099
即反上句是	-12.099
增一云	-12.0991
▁二就下隨釋	-12.0991
可悲	-12.0994
大姉一心念	-12.0997
置鉢	-12.0998
細襵	-12.0998
鐶	-12.0998
羅睺	-12.0999
欽婆羅衣	-12.1
慳嫉	-12.1001
貳	-12.1001
依止而住	-12.1004
渴仰	-12.1004
生信心	-12.1004
屎尿	-12.1005
佛法僧事	-12.1005
何殊	-12.1005
吹貝	-12.1006
轝	-12.1006
可驗	-12.1006
袒	-12.1007
插香	-12.1008
怨敵	-12.1009
花菓	-12.101
限滿	-12.101
緂	-12.101
侍佛	-12.1011
闕乏	-12.1011
詭	-12.1012
佛告迦葉	-12.1013
永棄	-12.1013
筌	-12.1014
我滅度後	-12.1014
抗	-12.1016
角頭	-12.1017
賭	-12.1018
此中犯者	-12.1018
躁	-12.1018
昆	-12.1018
禪帶	-12.102
傷殺	-12.1021
往白諸比丘	-12.1022
戈	-12.1024
尺寸	-12.1024
五人巳上	-12.1026
與僧同	-12.1026
杏	-12.1026
麟	-12.103
自誓受戒	-12.103
學戒清淨	-12.1033
成羅漢	-12.1033
降魔	-12.1037
月輪	-12.104
教人殺	-12.1043
舉離本處	-12.1044
禪誦	-12.1048
條葉	-12.1048
罵謗	-12.1049
初段	-12.105
稱譽	-12.1053
十重戒	-12.1053
時勝光王	-12.1057
皆大歡喜	-12.106
寂光	-12.1064
不隨愛	-12.1065
照了	-12.1067
重收	-12.1074
云三至	-12.1075
資神	-12.1075
存亡	-12.1077
徐行	-12.1077
過後畜	-12.1085
得好相	-12.1086
圓光	-12.1088
威儀具足	-12.1089
無爽	-12.1091
接足	-12.1092
敬愛	-12.1097
金山	-12.1101
與學沙彌	-12.1103
敬仰	-12.111
事鈔云	-12.111
種種莊嚴	-12.1114
生悔恨	-12.1118
從今已後不聽	-12.1121
可學九句	-12.1126
波提	-12.1127
舐	-12.1127
僧伽棃	-12.1127
世尊不作是語	-12.113
時六群比丘尼	-12.113
斷諸煩惱	-12.1131
以無根波羅夷法謗	-12.1131
作捨置羯磨	-12.1131
釋迦子	-12.1132
彼作此想	-12.1134
宴	-12.1135
見是事已	-12.1135
閑靜	-12.1137
心生口言	-12.114
脯	-12.1141
五百乘車	-12.1141
a	-12.1142
真實淨施	-12.1142
瞻婆	-12.1144
重閣上	-12.1145
痒	-12.1146
人作人想	-12.1146
瞿曇沙門	-12.1146
迦利沙波拏	-12.1148
滅此諍事	-12.1149
無染心	-12.1149
他化自在天	-12.115
幔	-12.1151
䠒	-12.1152
受觸樂	-12.1153
呵梨勒	-12.1153
姿	-12.1156
菩	-12.1158
雉	-12.1158
幢幡	-12.1159
邪命自活	-12.1161
贍	-12.1162
色為體	-12.1163
捕魚	-12.1163
打拍	-12.1164
最小	-12.1165
黑鉢	-12.1166
誹	-12.1166
忖	-12.1167
歌詠	-12.1168
矟	-12.1169
行入室	-12.1169
雕	-12.117
攪	-12.1175
造新	-12.1175
驕	-12.1176
楷定	-12.1177
豪族	-12.1177
拙	-12.1179
毒蟲	-12.1179
孕	-12.1181
地獄苦	-12.1182
是故聖制	-12.1184
忘誤	-12.1184
方隅	-12.1186
楞嚴經云	-12.1186
剖	-12.1186
庶幾	-12.1187
千葉	-12.1189
尸利	-12.1191
為比丘作	-12.1191
全無罪	-12.1197
秉御	-12.1198
論語云	-12.1204
應捨與僧	-12.1205
下三篇	-12.1205
法應爾	-12.1206
他心智	-12.1208
初標名	-12.1213
屬四方僧	-12.1215
別住竟	-12.1217
無有異	-12.122
學問誦經	-12.1221
乞辭	-12.1223
動靜	-12.1229
全乖	-12.1236
滿五錢	-12.1237
乃至百千	-12.1257
便作是語	-12.1265
諷	-12.127
現身相	-12.127
可食不	-12.1274
外甥	-12.128
在空中	-12.1283
孫陀羅難陀	-12.1285
越威儀法	-12.1286
非理謗僧	-12.1286
略說戒	-12.1287
我生已盡	-12.1287
佛問訶責	-12.1288
槃陀	-12.129
有何義	-12.129
舍衛城中	-12.1291
?』『	-12.1291
今從僧伽乞	-12.1291
若坐若臥	-12.1296
今向大德	-12.1296
後更發起	-12.1298
馱	-12.13
店肆	-12.13
孩子	-12.13
八月十五日	-12.1305
虔誠	-12.1308
墮泥犁中	-12.1308
釜鑊	-12.1309
無上正等菩提	-12.1309
增進	-12.131
捫	-12.131
麁惡罪	-12.131
頻婆娑羅	-12.1311
灒	-12.1311
眼所見	-12.1311
盟	-12.1312
夜摩天	-12.1312
時分藥	-12.1312
噏	-12.1313
牛頭	-12.1313
目得迦	-12.1314
鋸	-12.1316
附考	-12.1319
娑婆世界	-12.132
憲	-12.1321
展轉淨施	-12.1322
柔輭	-12.1323
燕	-12.1324
謫	-12.1324
延促	-12.1325
童真	-12.1326
賖	-12.1327
娠	-12.1327
清信士	-12.1327
員	-12.1328
今在何處	-12.1329
默爾	-12.1329
懺殘	-12.1331
縵條	-12.1331
我當與汝	-12.1332
有五過失	-12.1333
十億	-12.1334
傅	-12.1334
招世譏	-12.1334
七覺支	-12.1337
乃至惡說	-12.1337
諒	-12.1337
迦葉波	-12.1338
覧	-12.1342
力強	-12.1344
傷慈	-12.1345
馬鳴	-12.1347
互造	-12.1351
出家受具	-12.1353
窣	-12.1354
成實論	-12.136
在茲	-12.1366
四萬二千	-12.1367
中前著衣持鉢	-12.137
補闕	-12.1371
五生種	-12.1374
三十九夜	-12.1377
大妹	-12.138
周圓	-12.1384
兇惡	-12.1384
重瑜	-12.139
第五篇	-12.1397
生恭敬	-12.1403
六十五	-12.1411
幸願	-12.1415
云何為四	-12.1419
僧已忍與某甲比丘	-12.142
當墮地獄	-12.142
有大威德	-12.1421
捨學處	-12.1421
一心念我	-12.1426
㥲恚	-12.1426
復有三種	-12.1432
鳥銜	-12.1432
維耶離	-12.1435
此齊幾何	-12.1436
二歲學六法	-12.1439
織師織	-12.1442
與本日治	-12.1442
是中盡形壽能持不	-12.1443
從坐起去	-12.1444
拘薩羅	-12.1445
大慈悲父	-12.1446
十三僧伽婆尸沙法	-12.1447
往至世尊所	-12.1448
渚	-12.1448
少病少惱	-12.1449
塗摩身	-12.145
婬欲意	-12.145
流傳	-12.1451
不忍者說	-12.1451
8	-12.1452
褰	-12.1453
行遍住	-12.1454
鵄	-12.1454
知是罪	-12.1455
居士譏言	-12.1455
守籠那	-12.1457
諠	-12.1457
挃	-12.1458
娑伽陀	-12.1458
問知其故	-12.1459
十八童女	-12.146
闥	-12.1462
見聞覺知	-12.1463
應至僧中	-12.1464
至十一日明相出	-12.1464
釋義律云	-12.1465
與出家受具足戒	-12.1465
穀麥	-12.1466
鐵丸	-12.1467
禮佛而去	-12.1468
手把	-12.147
次行乞食	-12.147
舒張	-12.147
平旦	-12.1472
咀	-12.1473
叱	-12.1473
蚕	-12.1473
毘尼母云	-12.1474
禮謝	-12.1475
魔軍	-12.1475
良福田	-12.1477
我迦留陀夷比丘	-12.1478
扂	-12.1478
滅惡生善	-12.1478
十四種	-12.1479
纂	-12.148
殺盜婬妄	-12.1481
波羅柰	-12.1481
蒲桃	-12.1481
桓	-12.1482
禪鎮	-12.1482
興渠	-12.1482
阿鼻獄	-12.1485
作餘用	-12.1485
相可解	-12.1485
瑩	-12.1485
萬六千	-12.1485
訓導	-12.1486
壤	-12.1487
厚薄	-12.1487
衣巳竟	-12.1488
窂	-12.1489
四月共住	-12.1491
持衣出界	-12.1492
屈曲	-12.1492
等無有異	-12.1493
衣纏頸	-12.1493
二次第者	-12.1493
一一提	-12.1495
赦	-12.1496
速滅	-12.1496
優婆塞戒經	-12.1496
心大歡喜	-12.1497
生悔心	-12.1499
久固	-12.1501
良田	-12.1503
白衣家內	-12.1503
法寶云	-12.1509
是時六眾	-12.1509
遙見世尊	-12.1511
七十七	-12.1511
雙脚	-12.1513
南海	-12.1513
誦真言	-12.1514
十九年	-12.1514
娑嚩	-12.1516
生嫉妬	-12.1519
禹	-12.1521
百一物	-12.1527
嚴好	-12.1532
綱要	-12.1532
常住三寶	-12.1535
恭敬禮拜	-12.154
▁二善下	-12.154
寂默	-12.1543
乘馬	-12.1546
善生云	-12.1547
起慈心	-12.1547
明了論云	-12.155
別利養	-12.1554
少欲苾芻	-12.1554
著異衣	-12.1565
清淨共住同見	-12.1566
猶存	-12.1567
絡囊	-12.1568
斫樹	-12.1569
斷一切惡	-12.1574
過中食	-12.1574
身語意	-12.1576
有十事	-12.1577
治擯	-12.1578
痛苦	-12.158
卒難	-12.1583
一比丘僧中唱	-12.1586
佛住毘舍離	-12.1591
酒肉	-12.1591
勝進	-12.1592
尋思	-12.1592
君臣	-12.1594
云何沙門釋子如	-12.1596
若諸具壽聽	-12.1598
摩訶波闍波提	-12.1599
前後圍遶	-12.16
鉢囉	-12.1601
引禮師	-12.1601
共相議曰	-12.1601
成苾芻性	-12.1603
作是議	-12.1608
三十尼薩耆波逸提法	-12.1608
街衢	-12.1609
哥羅	-12.161
侍縛迦	-12.161
狎習	-12.1611
携手	-12.1612
江河	-12.1612
2	-12.1614
是中有比丘	-12.1614
汝莫作是語	-12.1615
。』「『	-12.1615
朋黨	-12.1616
不淨有作	-12.1616
黑石蜜	-12.1617
父母夫主	-12.1618
溉灌	-12.1618
有五因緣	-12.1623
墮於地獄	-12.1625
堈	-12.1625
故彼文云	-12.1627
瀑	-12.1627
乞士	-12.1628
闌	-12.1629
轅	-12.1629
臰	-12.1629
下斥非	-12.163
容貌	-12.163
腐爛藥	-12.163
為施所墮	-12.163
大小不全共	-12.1631
遏	-12.1631
猥	-12.1631
親里比丘尼	-12.1632
僧今和合	-12.1632
粮	-12.1634
心地法門品	-12.1634
諸行無常	-12.1634
瓠	-12.1635
四十八輕戒	-12.1636
睛	-12.1639
修補	-12.1639
秖	-12.1643
餘身分	-12.1643
轄	-12.1643
蜜石蜜	-12.1645
染汁	-12.1647
到彼岸	-12.1647
做	-12.1647
諸妹	-12.1652
是我師	-12.1653
笛	-12.1653
從他乞	-12.1655
別緣有六	-12.1657
拈香	-12.1658
朔	-12.1659
幅	-12.1659
目之為	-12.1661
住持三寶	-12.1665
解不失衣界	-12.1667
入大海	-12.1671
諸婦女	-12.1672
京師	-12.1677
舜	-12.1679
香油	-12.1687
靈山云	-12.1688
巧師	-12.1689
時世尊以無數方便呵責	-12.1689
乖儀	-12.1689
如前所說	-12.1691
六十七	-12.1693
五停心	-12.1693
毘尼藏	-12.1698
尺四寸	-12.1699
結夏安居	-12.1702
堪行婬	-12.1707
修善品	-12.171
寄宿	-12.1711
受作迦絺那衣	-12.1716
十方現前	-12.172
疑網	-12.1727
得偷蘭遮罪	-12.1735
偷奪	-12.1737
醫方	-12.174
如法擯	-12.1745
純黑羺羊毛	-12.1752
俱舍彌	-12.1753
滿十二歲	-12.1757
無難無妨處	-12.1758
比丘與女人	-12.1758
是義不然	-12.1758
著一衣	-12.1759
毘蘭若	-12.1759
共相謂言	-12.176
有大神力	-12.1762
俗旅	-12.1762
扠	-12.1763
根條	-12.1765
義鈔云	-12.1768
應更與戒	-12.177
室羅伐	-12.1771
婬盜等	-12.1771
可學迷	-12.1771
曼陀羅	-12.1771
汙他家	-12.1772
更作新者	-12.1775
攝取於僧	-12.1776
絺	-12.1778
徧法界	-12.1779
摩醯首羅天王宮	-12.178
優波提舍	-12.1782
繒綵	-12.1783
著衣持鉢入城乞食	-12.1784
絞	-12.1787
知止足	-12.1787
蓏	-12.1788
實際	-12.1788
訶責結戒	-12.179
打鼓	-12.1792
膽	-12.1794
早晚	-12.1794
姨	-12.1794
箜篌	-12.1795
汝曹	-12.1796
心境相當	-12.1796
圊	-12.1797
六度萬行	-12.1798
尉	-12.1798
甚矣	-12.1798
妒	-12.1798
掬	-12.1799
得失意罪	-12.1801
准此應知	-12.1801
舒脚	-12.1802
聯	-12.1806
宣揚	-12.1806
暉	-12.1807
靈芝	-12.1807
萃	-12.1809
優婆塞優婆夷	-12.1809
㭊	-12.181
厲	-12.1811
狸	-12.1811
襪	-12.1814
湯水	-12.1815
適意	-12.1817
飲食衣服	-12.1818
狎	-12.1818
俄	-12.1819
總攝頌曰	-12.1819
是則名為	-12.1825
在上座前	-12.1827
父母師僧	-12.1829
點示	-12.183
所生功德	-12.1832
清規	-12.1834
參頭	-12.1834
固執	-12.1834
夫妻	-12.184
旁生	-12.1842
交易	-12.1848
四月一日	-12.185
證悟	-12.1852
准陀	-12.1852
自為己	-12.1853
增慧學	-12.1857
足食竟	-12.1859
古昔	-12.1864
露地然火	-12.1866
服飾	-12.1869
殘害	-12.1871
富樂	-12.1873
死亡	-12.1873
我及眾生	-12.1879
如是再三	-12.1879
合掌白佛言	-12.1882
》、《	-12.1903
如前廣說	-12.1905
雜阿含	-12.1914
躬自	-12.1915
意旨	-12.1915
卷第四十	-12.1916
南無彌勒佛南無釋迦牟尼佛南無	-12.1917
通凡聖	-12.1918
汝字何等	-12.1919
精妙	-12.1919
裸身	-12.1921
勝光大王	-12.1921
非法非毘尼羯磨	-12.1922
十八部	-12.1924
漱口	-12.1928
祇陀	-12.1929
一切法空	-12.1929
十鉢羅	-12.193
互求長短	-12.193
一比丘唱言	-12.1931
咤	-12.1933
向未受大戒人說	-12.1934
未白前	-12.1936
拳打	-12.1937
晨朝著衣持鉢	-12.1938
胡膠	-12.1939
慈恩	-12.1939
拘尸那城	-12.1941
蹄	-12.1942
捔	-12.1943
千二百	-12.1944
禮覲	-12.1945
非親里居士	-12.1946
噎	-12.1947
拘尸城	-12.1949
薜	-12.1949
歿	-12.1949
鑛	-12.195
一百五十	-12.1953
儭	-12.1954
刈	-12.1955
𧂐	-12.1955
阿利吒比丘	-12.1956
獺	-12.1956
虎豹	-12.1957
瞬	-12.1958
陷沒	-12.1958
慰喻	-12.1958
不可說不可說	-12.1959
蛾	-12.1959
多羅葉	-12.1961
歸依佛竟	-12.1963
窄	-12.1964
貶	-12.1965
皎	-12.1965
寒雪	-12.1965
陰界入	-12.1965
竈	-12.1966
頂戴持	-12.1968
陪	-12.1969
得離依止	-12.1971
穿鑿	-12.1972
膺	-12.1972
握	-12.1973
氎	-12.1973
儼然	-12.1974
巴	-12.1975
五戒八戒	-12.1978
與憶念毘尼	-12.1978
垣墻	-12.198
具壽鄔波離	-12.1983
浮圖	-12.1984
曇諦	-12.1985
愚痴	-12.1985
肖	-12.1986
徧照	-12.1987
差比丘尼某甲	-12.1989
錯悞	-12.199
第三羯磨竟	-12.199
武帝	-12.199
佛因訶制	-12.1991
護惜	-12.1991
得見好相	-12.1992
利吒	-12.1993
薩婆多宗	-12.1995
云律至	-12.1998
刪繁	-12.1998
墮三塗	-12.1999
濶	-12.2
甘美	-12.2003
掌護	-12.2007
雙闕	-12.2007
雙持犯	-12.201
但對首	-12.201
維持	-12.2012
聖旨	-12.2013
千由旬	-12.2014
梨車	-12.2019
小牆	-12.2026
有上中下	-12.2027
莫不皆	-12.2027
順古	-12.2032
十四年	-12.2032
作證明	-12.2033
赤銅	-12.204
初二篇	-12.2042
障蔽	-12.2044
雷同	-12.2051
同意取	-12.2069
惡不善法	-12.2072
在佛前	-12.2075
親承	-12.208
除夢中	-12.2082
有如是事聽去七夜	-12.2084
覺支	-12.2084
遮不至白衣家	-12.2084
毀呰語	-12.2084
案祇	-12.2086
大愛道瞿曇彌	-12.2087
何道之有	-12.2089
大目乾連	-12.2089
室羅筏城	-12.209
憂悲苦惱	-12.209
應往僧中	-12.2092
珠寶	-12.2093
迦毘羅	-12.2095
▁行事鈔	-12.2103
騾	-12.2104
僧今持此衣	-12.2105
迷悶	-12.2106
頂髻	-12.2107
檐	-12.2108
如是三乞	-12.2109
初夜後夜	-12.2109
我當為汝	-12.211
蹴	-12.2112
尼師但那	-12.2113
比丘所白言	-12.2115
當爾之時	-12.2115
摩訶僧祇	-12.2117
掖	-12.2117
兩長一短	-12.2118
䖍	-12.212
大便道	-12.2121
波吒	-12.2121
閑靜處	-12.2121
貽	-12.2121
呵責結戒	-12.2122
非想非非想處	-12.2123
鎔	-12.2124
爪甲	-12.2124
插	-12.2124
鞭打	-12.2124
矩	-12.2125
眄	-12.2126
佛性種子	-12.2128
復從座起	-12.2129
確	-12.2129
醬	-12.213
玄奘	-12.2131
淨戒律儀	-12.2131
碁	-12.2132
比丘行覆藏時	-12.2133
碩	-12.2134
暑	-12.2135
標幟	-12.2135
戊	-12.2135
根本雜事云	-12.2136
賄	-12.2136
正量部	-12.2136
鑄	-12.2139
行別住竟	-12.214
偕	-12.2142
揲葉	-12.2142
呻	-12.2143
陁	-12.2144
未曾聞	-12.2145
攞	-12.2146
不得左右顧視	-12.2148
僧今與某甲比丘	-12.2149
胃	-12.2149
污穢	-12.215
優婆塞戒經云	-12.215
索美食	-12.2162
禪那	-12.2168
持食來	-12.2174
名句文	-12.218
示導	-12.2181
閉門	-12.2185
首疏云	-12.2198
諸大德是中清淨	-12.22
能所俱	-12.2205
根鈍	-12.2207
自下第三	-12.2211
為其說法	-12.2217
迦梨	-12.2217
生怖畏	-12.2226
得衣者善	-12.2234
羯磨不成就	-12.2236
親舊	-12.2243
以十利故與諸比丘結戒	-12.2244
戒能持否	-12.2245
量影	-12.2246
比尼現前	-12.2249
十夜覆藏	-12.2254
不忍者便說	-12.2256
歡喜無諍	-12.2256
羅閱城中	-12.2259
我知佛所說法	-12.2262
敷座席	-12.2262
?』」「	-12.2266
今日眾僧自恣	-12.2266
去時不自舉	-12.2266
阿濕婆	-12.2268
說四波羅夷法	-12.2269
王復問	-12.227
今從僧乞出罪羯磨	-12.2272
斷眾生命	-12.2273
侍衛	-12.2278
尸波羅蜜	-12.2278
垣牆	-12.2278
見作隨喜	-12.2279
巷陌	-12.2279
喘	-12.228
賴吒	-12.2283
迦絺	-12.2285
菴羅果	-12.2286
何所作為	-12.2286
腐爛	-12.2286
坐禪誦經	-12.2287
旭	-12.2288
劫貝衣	-12.229
為止誹謗故	-12.2291
此比丘所說	-12.2291
千華上佛	-12.2291
入其舍	-12.2292
優填王	-12.2292
荷負	-12.2293
綜	-12.2293
森	-12.2296
彊	-12.2297
簿	-12.2299
翫	-12.2299
齊幾	-12.23
双	-12.23
蓮華臺	-12.2302
作前方便答	-12.2303
剃髮染衣	-12.2304
都無所	-12.2305
詣王所	-12.2307
與二歲學戒	-12.2308
交互	-12.2308
金瓶	-12.231
墮餓鬼中	-12.2311
染心男子	-12.2311
所知障	-12.2312
攀緣	-12.2315
懷慚愧	-12.2315
冶	-12.2315
越毘尼	-12.2316
破法輪僧	-12.2317
十五日布薩	-12.2318
貿寶	-12.232
復應語言	-12.2323
鋤	-12.2327
闍那	-12.2328
卜筮	-12.2329
熏習	-12.233
高牀	-12.2331
常住僧物	-12.2335
億劫	-12.2338
這	-12.2339
棋	-12.2345
主法云	-12.2346
─	-12.2347
尺八寸	-12.2349
毗婆尸佛	-12.2351
妻妾	-12.2354
使淨人知	-12.2367
歸命禮	-12.2373
准祇	-12.2378
無想天	-12.2381
第一夫人	-12.2388
應心念口言	-12.239
摩尼珠	-12.2392
下諸篇	-12.2392
犯波羅提提舍尼	-12.2397
洗鉢水	-12.2404
赴集	-12.2407
毗婆尸	-12.2407
停止	-12.2408
羯恥那	-12.2414
遣使詣	-12.2418
脫脚	-12.2419
繁略	-12.2424
摶食	-12.2426
須達多	-12.2428
尼謂吐羅難陀	-12.2432
為眾生說	-12.2433
蠲	-12.2435
共立共語	-12.2436
摧破	-12.2438
佛及比丘僧	-12.2438
蹲坐	-12.2439
僧今與比丘某甲	-12.2439
駛	-12.244
入見道	-12.244
梐	-12.2441
同一師學	-12.2441
作非法羯磨	-12.2442
愁憂不樂	-12.2443
6	-12.2444
那羅陀	-12.2445
阿脩羅	-12.2445
鳴揵稚	-12.2447
憶念犯發露	-12.2448
鞋履	-12.2449
鄔	-12.245
刮舌	-12.2453
至寺中	-12.2456
鞕	-12.2456
▁初總舉	-12.2458
飛騰	-12.2458
大姊一心念	-12.2458
那由他	-12.2459
愛恚	-12.2459
媚	-12.2461
戲弄	-12.2462
泊	-12.2465
南謨	-12.2465
豺	-12.2465
坎	-12.2467
達嚫	-12.2467
苫	-12.2467
舉輕況重	-12.2468
四波羅提提舍尼法	-12.2469
闇鈍	-12.2471
嗤	-12.2471
鍊	-12.2472
墾	-12.2472
規矩	-12.2472
學六法	-12.2473
五前人領解	-12.2473
努力	-12.2474
漠	-12.2474
禮佛足已	-12.2474
牙角	-12.2475
僥倖	-12.2476
母腹	-12.2477
牛毛	-12.2477
槽	-12.2477
又復無始以來	-12.2478
無作假色	-12.2479
矢	-12.2479
段段	-12.2479
弦	-12.2479
血流	-12.2479
三賢十聖	-12.248
心境相應	-12.2481
值遇	-12.2482
作失想	-12.2482
冰	-12.2482
徧十方	-12.2483
律無文	-12.2484
十大願	-12.2485
鞠	-12.2486
炊	-12.2486
有犯否	-12.2486
胞	-12.2486
沿	-12.2486
三種壞色	-12.2487
沃	-12.2489
欣樂	-12.2489
長老優波離問佛	-12.249
勃	-12.249
終南山	-12.2492
著屐	-12.2493
倍增	-12.2493
瑣	-12.2493
諮受	-12.2493
碗	-12.2494
婢使	-12.2496
五百結集	-12.2497
剎土	-12.2501
證初果	-12.2501
骨肉	-12.2507
餘文可知	-12.2508
名之曰	-12.2509
三人巳下	-12.2513
從初發心	-12.2517
條部	-12.252
心所出也	-12.2524
更互相	-12.2524
遵奉	-12.2527
此即第一	-12.2529
高祖	-12.2531
踝上	-12.2531
大界內相	-12.2531
老宿	-12.2533
脫脚床	-12.2535
是衣直	-12.2536
共行婬	-12.2545
華臺	-12.2546
親非親	-12.2548
整衣服	-12.2549
是遮罪	-12.2552
人作非人想	-12.2553
撫尺云	-12.2554
寬廣	-12.2558
篇第二十	-12.257
生憂惱	-12.2572
供侍	-12.2583
驅烏	-12.2593
燃燈	-12.2602
吐羅	-12.2602
禮雙足已	-12.2602
問實訶責	-12.2602
我墮可呵法	-12.2607
共相罵詈	-12.2609
修妬路	-12.2609
日所望必不能得	-12.261
奪人命	-12.261
彼比丘應三諫	-12.2611
首律師	-12.2615
柔和	-12.2617
娶妻未久	-12.2618
憂波	-12.2618
長夜受苦	-12.262
▁二一下別釋	-12.2621
九十波逸提法	-12.2622
佛告大王	-12.2622
受諸苦惱	-12.2623
覔諍	-12.2623
多羅樹葉	-12.2624
緣起此戒有	-12.2625
族姓子	-12.2626
千百億世界	-12.2627
青蓮花	-12.2629
茂盛	-12.263
晃	-12.2631
僧今和合何所作為	-12.2631
共集一處	-12.2631
無惡不造	-12.2632
喚來不來	-12.2632
七通塞者	-12.2632
堂司行者	-12.2633
脚跟	-12.2634
拽	-12.2634
騫	-12.2635
衛護	-12.2635
在阿蘭若處	-12.2636
寧捨身命	-12.2636
流淚	-12.2638
諸天世人	-12.2638
背大向小	-12.2639
佛在祇園	-12.2641
聞思修	-12.2642
澆草	-12.2643
保任	-12.2645
邇	-12.2645
若復有人	-12.2646
換易	-12.2646
苦集滅道	-12.2647
所有行法	-12.2647
以衣覆	-12.2648
庚	-12.2648
猿	-12.2649
律師述	-12.2651
為世福田	-12.2651
宴坐	-12.2651
與不癡毘尼	-12.2652
影響	-12.2652
發是願	-12.2652
山谷	-12.2654
逸提	-12.2654
惟遮不開	-12.2655
餌	-12.2656
汝出去	-12.2656
拒諫	-12.2658
芒	-12.2659
八種漿	-12.2659
流轉三界	-12.2661
外觀色	-12.2661
增一阿含經云	-12.2662
混亂	-12.2662
雍	-12.2663
壬	-12.2663
萬由旬	-12.2665
客舊	-12.2665
頂禮三拜	-12.2666
兜羅綿	-12.2669
寶莊飾	-12.2672
灼然	-12.2673
黃赤	-12.2674
三月安居	-12.2674
)○(	-12.2675
我今為汝	-12.2679
禮僧足已	-12.2679
伺求	-12.2679
八十九	-12.2681
順正理	-12.2681
【○	-12.2681
文二初	-12.2682
夏末月	-12.2692
六夜出罪	-12.2692
尺八	-12.2692
過三宿	-12.2693
馳求	-12.2694
展具	-12.2696
珠髻	-12.2698
楞嚴云	-12.2705
至比丘所	-12.2708
佛子諦聽	-12.2725
迦尸	-12.2727
優鉢羅	-12.2732
懺悔人間	-12.2732
七弓	-12.2734
胎閏	-12.2746
百句	-12.2747
與外道食	-12.2749
醜惡	-12.275
律藏卷第	-12.2757
陳詞	-12.2764
恃勢	-12.2767
牀褥	-12.2769
▁二四下釋	-12.2775
眠臥	-12.2778
未成金	-12.2778
姚秦罽賓三藏佛陀耶舍共竺佛念等譯	-12.2778
竪標	-12.2781
鄔波底沙	-12.2785
謂最初犯人	-12.2787
為世人所嫌	-12.2787
從坐而起	-12.2789
依怙	-12.2789
果報還自受	-12.279
是比丘如是諫時	-12.2791
綿褥	-12.2791
我等忍可	-12.2793
窓牖	-12.28
不起墮落	-12.28
無我所心	-12.28
惡性不受人語	-12.28
諸長者見	-12.2801
訶梨勒	-12.2801
蹲踞	-12.2802
塵坌	-12.2802
望得衣	-12.2806
棄捐	-12.2806
搦	-12.2806
伽梨	-12.2806
日時欲過	-12.2807
邨	-12.2808
献	-12.2809
百里千里	-12.2809
熨	-12.2809
筐	-12.2809
旨趣	-12.2812
剛強	-12.2812
苦聖諦	-12.2813
取尼衣	-12.2813
捷	-12.2815
四正勤	-12.2815
七逆十重	-12.2815
能詮教	-12.2815
十一條	-12.2816
西晉月支國沙門竺法護	-12.2817
赫赫	-12.2819
䔉	-12.282
咲	-12.2821
漱	-12.2821
湧	-12.2821
僧脚崎	-12.2823
遊歷	-12.2823
夷蘭	-12.2823
一合相	-12.2826
慊恨	-12.2826
正是業主	-12.2827
軌式	-12.2828
呬	-12.2828
耆年	-12.2828
巳上疏文	-12.283
撓	-12.283
鬼子母	-12.283
起大悲心	-12.283
與某甲比丘尼	-12.2832
犯僧伽婆尸沙罪	-12.2832
法身慧命	-12.2832
懿	-12.2834
􂌦	-12.2834
若復有餘	-12.2835
差降	-12.2835
四分無文	-12.2836
增輝	-12.2836
伴侶	-12.2837
破僧輪	-12.2838
阿賴耶	-12.2838
需	-12.2838
天上天下	-12.2839
汪	-12.284
豬	-12.2841
釋名牒鈔	-12.2842
憤	-12.2842
四分律鈔批	-12.2843
說非法語	-12.2846
杯	-12.2847
薪草	-12.2849
今日至誠	-12.2849
所緣境	-12.285
忿恨	-12.2853
舌根	-12.2854
散花	-12.2859
波斯匿	-12.2861
永絕	-12.2862
倡伎	-12.2866
僧所差	-12.2871
河池	-12.2871
比丘以盜心	-12.2872
所以知者	-12.2875
非親居士	-12.2876
迭相	-12.2878
授學人	-12.2893
十波羅蜜	-12.2893
從師受	-12.2895
百億國	-12.2906
如說行	-12.2916
大千界	-12.2925
助伴	-12.293
咽咽犯	-12.2943
像末	-12.2943
涯	-12.2951
盲聾	-12.2956
憶念比尼	-12.2957
極好織	-12.2961
若足者善	-12.2961
寺院	-12.2962
有如是同罪比丘	-12.2966
以無數方便呵責六群比丘已	-12.2966
故出精得僧伽婆尸沙罪	-12.2966
起居輕利	-12.2966
今問諸大德是中清淨不	-12.2969
悔恨	-12.297
汝意云何	-12.297
污他家亦見亦聞	-12.297
時此城中	-12.2971
龍象	-12.2978
趁	-12.2981
昏迷	-12.2983
貲	-12.2984
受於信心檀越	-12.2985
首陀羅	-12.2985
三明六通	-12.2987
命梵二難	-12.2987
繞塔	-12.2988
女人憙	-12.2988
諸阿梨耶	-12.2989
努	-12.2989
誚	-12.299
四衢道	-12.2992
至衣所	-12.2994
劵	-12.2994
篦	-12.2995
今請大德為	-12.2995
大王當知	-12.2996
爾時釋迦牟尼佛	-12.2996
擲籌	-12.2996
紡績	-12.2996
塲	-12.2997
日及覆藏本日治羯磨	-12.2997
何以知然	-12.2998
慇	-12.2999
憒	-12.2999
命梵難	-12.3
猪羊	-12.3001
衰惱	-12.3002
膾	-12.3003
授近圓	-12.3004
誣謗	-12.3004
轂	-12.3005
頹	-12.3006
尼僧伽聽	-12.3006
增長善法	-12.3007
慜	-12.3007
十禪支	-12.3007
奉獻	-12.3007
十二分教	-12.3007
四緣成罪	-12.3009
轉輪王位	-12.3009
剔	-12.3009
西晉	-12.3013
諧	-12.3014
腨	-12.3014
捲	-12.3014
若以三聚攝歸	-12.3016
弊壞	-12.3016
不孤起	-12.3017
映現	-12.3017
榜	-12.3017
作諸羯磨	-12.3017
黑暗	-12.3018
咬	-12.3019
應教懺悔	-12.302
能教弟子	-12.302
包含	-12.302
齅	-12.3023
紗	-12.3025
語阿難言	-12.3025
破裂	-12.3026
偈頌	-12.3033
偷婆	-12.3033
志誠	-12.3036
以是因緣往白世尊	-12.3037
師應問	-12.3038
疑滯	-12.3039
微塵許	-12.3041
調部	-12.3043
成實論云	-12.3045
精誠	-12.3045
可分別聚落	-12.3047
言二至	-12.3055
潔淨	-12.3062
不應量衣	-12.3068
以義求	-12.3074
禁防	-12.3082
宿命智	-12.3083
品第三十	-12.3108
頂戴受持	-12.3119
如佛教斷是事	-12.3125
犯波羅市迦	-12.3126
初立義	-12.3136
汲	-12.3138
▁「【	-12.314
人女想	-12.3142
不得別眾捨	-12.3149
亦見亦聞	-12.3151
食具已辦	-12.3152
祇桓精舍	-12.3152
食家中有寶	-12.3152
閻浮樹	-12.3152
富那婆娑	-12.3153
曼荼羅	-12.3155
時諸苾芻咸皆有疑	-12.3155
善思念之	-12.3156
時吐羅難陀尼	-12.3156
勿生異念	-12.3157
爾時偷蘭難陀比丘尼	-12.3158
賈	-12.3159
告之曰	-12.3159
彼便報曰	-12.3159
非障道法	-12.3161
於三法中	-12.3161
年不滿二十	-12.3162
非沙門非釋子	-12.3164
勝鬘夫人	-12.3164
佛衣量	-12.3166
端政	-12.3168
繩床木床	-12.317
含食語	-12.317
蝕	-12.3173
城隍	-12.3175
香油塗身	-12.3176
撤	-12.3176
浣濯	-12.3177
一長一短	-12.3178
昨	-12.3179
竇	-12.3179
勗	-12.318
[...]
