<unk>	0
<s>	0
</s>	0
,	-2.07214
。	-2.9582
者	-4.93323
、	-4.94702
:「	-4.96085
;	-5.20566
。」	-5.21268
:『	-5.22675
之	-5.46442
為	-5.49944
以	-5.54657
時	-5.60044
!	-5.60086
有	-5.65114
不	-5.66584
也	-5.69161
。』	-5.70782
即	-5.76234
故	-5.78684
我	-5.80232
?	-5.81005
於	-5.84611
無	-5.86335
言	-5.86728
如	-5.87155
心	-5.87971
而	-5.93732
王	-5.94192
彼	-5.95811
行	-5.99132
其	-6.00057
▁	-6.00065
爾時	-6.01506
佛	-6.05289
是	-6.07031
人	-6.09579
得	-6.09959
如是	-6.10882
已	-6.12119
此	-6.12566
菩薩	-6.14146
見	-6.17835
生	-6.23378
身	-6.24413
所	-6.26506
法	-6.28297
諸	-6.28427
中	-6.28552
一	-6.32229
自	-6.37601
大	-6.37733
若	-6.38382
世尊	-6.40004
汝	-6.40053
?」	-6.40803
。「	-6.41278
欲	-6.41486
等	-6.43403
曰	-6.43683
當	-6.45655
皆	-6.47571
一切	-6.50085
相	-6.51865
及	-6.53435
名	-6.54271
太子	-6.54777
今	-6.56655
出	-6.5681
復	-6.5898
如來	-6.60872
至	-6.61724
眾生	-6.61901
意	-6.62968
作	-6.64747
下	-6.65268
與	-6.65586
從	-6.66622
謂	-6.67025
二	-6.68095
)	-6.68274
來	-6.68553
說	-6.69847
或	-6.70191
(	-6.71387
眾	-6.71731
在	-6.72129
令	-6.74371
亦	-6.74792
上	-6.75156
能	-6.77632
便	-6.78852
天	-6.79551
三	-6.79665
?』	-6.80447
處	-6.80466
善	-6.82862
道	-6.88053
盡	-6.8844
則	-6.89256
常	-6.89264
受	-6.89922
清淨	-6.913
因	-6.91937
入	-6.92159
子	-6.93507
知	-6.94227
聞	-6.94377
比丘	-6.95306
食	-6.97153
樂	-6.98511
事	-6.98788
願	-6.98808
多	-6.99339
四	-6.99366
觀	-6.99521
求	-6.99541
語	-7.00998
前	-7.0312
非	-7.03142
可	-7.04576
無有	-7.06479
苦	-7.06959
明	-7.08006
應	-7.10268
住	-7.11082
還	-7.12098
供養	-7.12649
念	-7.12993
又	-7.1478
猶如	-7.15373
世間	-7.15638
後	-7.15784
現	-7.1645
吾	-7.17803
我今	-7.18763
取	-7.19318
悉	-7.19504
滅	-7.19519
起	-7.19828
使	-7.20706
然	-7.20716
施	-7.20987
乃	-7.22236
*	-7.22238
去	-7.22988
出家	-7.23806
難	-7.24285
惡	-7.24327
地	-7.24719
智	-7.27112
修	-7.27267
成	-7.27377
世	-7.28436
水	-7.28456
死	-7.28587
乃至	-7.28946
用	-7.29306
持	-7.29792
將	-7.29808
不能	-7.29851
聲	-7.30382
解	-7.3209
雖	-7.32334
報	-7.33164
著	-7.33422
本	-7.34201
義	-7.34265
大王	-7.34489
經	-7.35769
日	-7.36398
各	-7.36525
空	-7.36845
坐	-7.36989
正	-7.36997
捨	-7.37223
師	-7.37225
既	-7.37281
女	-7.37967
共	-7.37991
云何	-7.38008
重	-7.38162
。』「	-7.38546
過	-7.39292
離	-7.39882
勝	-7.40717
五	-7.41085
先	-7.41443
喻	-7.41455
種種	-7.4149
隨	-7.41648
國	-7.4193
問	-7.4221
教	-7.42424
歡喜	-7.43358
色	-7.44036
具	-7.44278
無量	-7.44802
果	-7.45324
生死	-7.46088
必	-7.46768
是時	-7.47126
寶	-7.47634
。】「	-7.47831
何	-7.4849
往	-7.48526
功德	-7.48692
德	-7.48997
耶	-7.49246
頭	-7.50629
向	-7.50643
力	-7.50895
火	-7.51019
。」【	-7.51038
智慧	-7.51714
度	-7.52225
命	-7.5298
好	-7.5326
除	-7.53621
是故說曰	-7.53836
具足	-7.54601
梵志	-7.54978
父母	-7.5559
淨	-7.56283
戒	-7.56526
唯	-7.56539
家	-7.56775
耳	-7.57534
尊	-7.5765
斷	-7.58316
緣	-7.58806
到	-7.58904
布施	-7.59191
化	-7.59476
定	-7.59843
俱	-7.59966
未	-7.60594
母	-7.60847
:「『	-7.61429
善男子	-7.61464
我等	-7.62203
煩惱	-7.6226
答言	-7.62556
猶	-7.62592
諸天	-7.62716
分	-7.62716
愛	-7.63851
利	-7.64292
極	-7.6443
發	-7.64615
莫	-7.64952
妙	-7.65453
於是	-7.65666
神	-7.67084
白	-7.6733
更	-7.69305
華	-7.69956
光	-7.70833
業	-7.71248
自在	-7.71462
內	-7.71482
長者	-7.71999
實	-7.72269
安	-7.72309
名曰	-7.72362
小	-7.72516
同	-7.72873
矣	-7.73136
門	-7.73156
初	-7.73433
汝等	-7.73472
轉	-7.75207
有一	-7.75242
乎	-7.75317
證	-7.75674
樹	-7.75738
斯	-7.75738
婆羅門	-7.76013
思惟	-7.76139
甚	-7.76666
滿	-7.7679
真實	-7.76889
尋	-7.77068
善哉	-7.77083
山	-7.77368
信	-7.77473
皆悉	-7.7805
沙門	-7.78411
解脫	-7.78519
即便	-7.78556
三昧	-7.7859
請	-7.78812
失	-7.79568
種	-7.80153
阿難	-7.80417
邊	-7.80456
成就	-7.806
不得	-7.80718
。△	-7.8081
病	-7.81339
深	-7.81351
是故	-7.81957
七	-7.81983
獲	-7.82351
他	-7.82591
龍	-7.82874
識	-7.82955
別	-7.8337
想	-7.83717
學	-7.83877
:	-7.8391
口	-7.84139
但	-7.84461
足	-7.84827
說法	-7.84861
依	-7.84891
由	-7.85606
稱	-7.8578
形	-7.8593
慧	-7.86063
少	-7.86233
貪	-7.86433
立	-7.8674
覺	-7.87265
。』」「	-7.87665
告	-7.87725
光明	-7.87947
象	-7.88088
自然	-7.88096
歸	-7.88132
迦葉	-7.886
福	-7.89208
所謂	-7.89333
長	-7.89385
不可	-7.89556
因緣	-7.89609
遠離	-7.90874
金	-7.91274
眼	-7.91343
體	-7.918
方	-7.91984
數	-7.92193
合	-7.92397
止	-7.92755
云	-7.92802
性	-7.93812
佛言	-7.93835
六	-7.94256
八	-7.94305
恒	-7.94545
婦	-7.94745
會	-7.94828
餘	-7.94873
於彼	-7.95082
夫	-7.95102
流	-7.9557
城	-7.95812
精進	-7.96281
結	-7.96333
莊嚴	-7.96522
夫人	-7.96695
爾	-7.97068
根	-7.98437
外	-7.9879
真	-7.98876
罪	-7.99128
父	-8.00081
藏	-8.0025
飲食	-8.00744
》	-8.00787
須	-8.00856
無所	-8.01048
分別	-8.01437
遠	-8.01737
花	-8.01799
造	-8.01833
物	-8.02356
諸佛	-8.02905
喜	-8.03187
爾時世尊	-8.03188
雨	-8.03295
香	-8.03354
殺	-8.03474
弟子	-8.03763
普	-8.04356
所有	-8.04504
衣	-8.04824
聖	-8.04946
兒	-8.05229
覩	-8.0582
答曰	-8.06479
被	-8.06509
是故說	-8.07416
理	-8.0743
廣	-8.07704
寂靜	-8.08441
如此	-8.0883
之人	-8.09463
墮	-8.09556
仙人	-8.09578
奉	-8.09802
五百	-8.10217
興	-8.10589
故云	-8.11312
致	-8.11315
開	-8.11356
亦不	-8.11373
趣	-8.11494
獨	-8.11519
或有	-8.11727
微妙	-8.11978
白佛言	-8.12176
馬	-8.12256
所以	-8.12323
聽	-8.12427
不知	-8.1276
釋	-8.12799
手	-8.13277
無常	-8.13309
通	-8.134
邪	-8.13419
人民	-8.13732
譬如	-8.1431
。」「	-8.1461
第一	-8.14907
根本	-8.15063
詣	-8.15104
汝今	-8.15297
亦復如是	-8.16127
害	-8.16202
照	-8.16524
昔	-8.1684
親	-8.16942
護	-8.17149
說偈言	-8.17234
志	-8.17512
懷	-8.17665
居	-8.18022
時彼	-8.18042
遂	-8.18336
於此	-8.18407
執	-8.18611
涅槃	-8.18778
諸比丘	-8.18962
主	-8.19157
今日	-8.19856
世界	-8.20141
設	-8.20188
壞	-8.20738
乘	-8.21314
思	-8.21463
作如是言	-8.21521
棄	-8.21559
若有	-8.21855
財	-8.22165
散	-8.22479
卿	-8.22617
十	-8.2264
即是	-8.22663
情	-8.22783
次	-8.22827
目	-8.22873
之中	-8.2331
號	-8.23352
高	-8.24628
習	-8.24705
毒	-8.25017
圓滿	-8.25263
仁	-8.25271
之法	-8.25429
放	-8.25581
服	-8.25624
菩提	-8.25655
宜	-8.257
鬼	-8.25722
集	-8.26149
速	-8.26158
舍	-8.26321
魔	-8.2638
顯	-8.26392
脫	-8.26504
不見	-8.2658
論	-8.2696
破	-8.27178
要	-8.27262
己	-8.27471
反	-8.27633
近	-8.28046
海	-8.28124
瞋恚	-8.28256
方便	-8.28352
一切眾生	-8.28442
修行	-8.28625
之所	-8.29012
盛	-8.29105
答	-8.29426
書	-8.29485
百	-8.29611
月	-8.30662
佛告	-8.30714
童子	-8.30789
勅	-8.31135
字	-8.31316
智者	-8.31505
息	-8.31536
正法	-8.31633
且	-8.32051
十方	-8.32185
國王	-8.32205
老	-8.32316
久	-8.32813
動	-8.32986
年	-8.33026
觀察	-8.33242
復有	-8.33419
千	-8.33619
舍利弗	-8.33851
適	-8.34208
車	-8.34669
怨	-8.34683
恩	-8.34718
誰	-8.34766
摩	-8.3506
羅	-8.35523
巳	-8.35737
平等	-8.35981
路	-8.36028
劫	-8.36332
忍	-8.36396
敬	-8.3652
風	-8.36528
舉	-8.36779
有情	-8.3693
異	-8.37043
患	-8.37215
三界	-8.37239
尊者	-8.37382
。「『	-8.37394
計	-8.37472
過去	-8.3796
故曰	-8.38362
憂	-8.38522
界	-8.38537
悉皆	-8.38884
達	-8.38933
加	-8.38999
視	-8.39273
道人	-8.39344
命終	-8.40023
神通	-8.40449
草	-8.40475
顛倒	-8.40773
大臣	-8.41111
今者	-8.4144
夜	-8.42253
果報	-8.42257
眷屬	-8.42313
之處	-8.42542
之時	-8.42919
臣	-8.43018
縛	-8.43338
我當	-8.43526
迦	-8.43861
不生	-8.44025
愚癡	-8.44153
身體	-8.44488
疾	-8.44539
沒	-8.44599
變	-8.44754
終	-8.44766
又復	-8.44865
亦無	-8.44919
歎	-8.45014
禮	-8.45069
而說偈言	-8.45245
以為	-8.45336
帝釋	-8.45376
天子	-8.45419
牛	-8.45644
增上	-8.45826
師子	-8.45834
端正	-8.45994
悲	-8.46149
七寶	-8.4619
辭	-8.46285
女人	-8.4629
自性	-8.46358
境	-8.46385
名為	-8.46429
眾人	-8.46584
各各	-8.46645
大眾	-8.46736
最	-8.46742
遍	-8.468
染	-8.46803
面	-8.46863
疑	-8.47128
那	-8.47229
悟	-8.4723
一者	-8.47258
鹿	-8.47421
兩	-8.47721
虛空	-8.47991
安隱	-8.48138
音	-8.48148
感	-8.48561
之心	-8.48653
無數	-8.48847
并	-8.48862
二者	-8.48929
遣	-8.50466
《	-8.50634
當知	-8.50649
地獄	-8.51494
珍寶	-8.51507
勿	-8.51652
晝夜	-8.51687
陀	-8.5179
佛告諸比丘	-8.51802
遇	-8.52137
僧	-8.52186
此是	-8.52219
宿	-8.52243
父王	-8.52392
終不	-8.52411
勸	-8.52738
邪見	-8.52773
!」	-8.52907
藥	-8.5333
福德	-8.53394
阿	-8.53494
今此	-8.53514
位	-8.53728
愚	-8.53808
邊際	-8.53898
惑	-8.54019
而不	-8.5402
調伏	-8.5418
七日	-8.54716
慈	-8.54748
對	-8.54751
治	-8.55013
宮	-8.55046
亂	-8.55176
及諸	-8.55331
恐	-8.55429
王子	-8.55511
覆	-8.55511
是為	-8.55562
天人	-8.55637
守	-8.55734
違	-8.55759
望	-8.55916
濟	-8.55961
持戒	-8.56072
器	-8.56634
供	-8.56745
所作	-8.56838
指	-8.57484
鉢	-8.57755
垂	-8.57811
天下	-8.57826
復次	-8.5804
賊	-8.58056
王曰	-8.58109
始	-8.58203
凡夫	-8.58243
直	-8.58647
其心	-8.58775
示	-8.58947
聚	-8.59007
無上	-8.59052
凡	-8.59291
攝	-8.59293
林	-8.59308
禪	-8.59316
進	-8.59332
置	-8.59569
婆	-8.59681
見佛	-8.5994
一人	-8.60793
絕	-8.60871
益	-8.61165
甘露	-8.61218
恐怖	-8.61238
究竟	-8.61246
難陀	-8.61627
了知	-8.61664
微	-8.61858
語言	-8.61895
何以故	-8.6245
其身	-8.62687
五欲	-8.62838
伏	-8.63008
一一	-8.63067
觸	-8.63235
人天	-8.63245
增	-8.63269
所說	-8.6337
隨順	-8.63737
止息	-8.63752
車匿	-8.63787
於我	-8.63879
塵	-8.63993
比	-8.64099
順	-8.64214
痛	-8.64301
一心	-8.64358
兄	-8.64652
日月	-8.65188
就	-8.65344
土	-8.65386
善根	-8.65613
遊	-8.65689
味	-8.6574
和	-8.66146
救	-8.6649
而行	-8.66501
首	-8.66599
畏	-8.6672
肉	-8.66808
白言	-8.66867
頌	-8.67038
九	-8.6716
往昔	-8.67273
不樂	-8.67379
在於	-8.67507
恭敬	-8.67609
聲聞	-8.67666
苦惱	-8.67834
八萬四千	-8.67859
龍王	-8.68176
竟	-8.68807
不淨	-8.68924
其人	-8.6898
髮	-8.69539
何故	-8.6968
類	-8.69731
或復	-8.69734
梵天	-8.69799
蓋	-8.69803
民	-8.69904
百千	-8.6996
最上	-8.69972
欲得	-8.70135
寧	-8.70225
癡	-8.70287
不應	-8.7034
安樂	-8.70457
仁者	-8.70462
障	-8.70506
辟支佛	-8.70553
石	-8.70646
金剛	-8.70704
易	-8.70741
。』」	-8.70742
諦	-8.70788
苦行	-8.71033
然後	-8.71266
問言	-8.7144
索	-8.71485
最勝	-8.71581
外道	-8.71604
惟	-8.71953
成佛	-8.72089
廣大	-8.72114
讚	-8.72341
賢	-8.72556
不如	-8.72626
座	-8.72675
貪欲	-8.72677
喚	-8.72741
。(	-8.72751
強	-8.7279
授	-8.72908
放逸	-8.73288
呼	-8.73408
積	-8.73641
文	-8.73867
修習	-8.73986
燒	-8.74058
傷	-8.74284
殊勝	-8.74342
留	-8.74345
捉	-8.74364
夜叉	-8.74506
▁一	-8.7452
瓔珞	-8.74937
造作	-8.74966
作是念	-8.75088
忽	-8.75093
彼人	-8.75366
國土	-8.75397
賢聖	-8.75397
值	-8.75495
壽	-8.75637
熱	-8.7565
是以	-8.75709
提	-8.75774
而去	-8.75876
以此	-8.76045
次第	-8.76326
美	-8.76387
于	-8.76478
咸	-8.76485
退	-8.76534
冥	-8.76708
聚落	-8.76801
輪	-8.76865
餓鬼	-8.77031
亦復	-8.77156
彼等	-8.77191
承	-8.77376
吉祥	-8.77438
輩	-8.77469
都	-8.77686
諸法	-8.77964
衣服	-8.78292
犯	-8.7878
鳥	-8.78832
為我	-8.79027
境界	-8.79175
即時	-8.79215
妻	-8.79352
飲	-8.79932
▁二	-8.79998
降	-8.80052
漸	-8.80127
無明	-8.80396
養	-8.80408
表	-8.80631
帝	-8.80654
大悲	-8.8097
無為	-8.81021
堅固	-8.8135
王言	-8.81368
畜生	-8.81625
蓮華	-8.81625
此人	-8.81761
全	-8.8183
以是	-8.81953
珠	-8.82046
得道	-8.82191
利益	-8.82426
輕	-8.82613
尼	-8.82868
雜	-8.82983
永	-8.83072
臥	-8.83763
及以	-8.83834
拔	-8.83909
教化	-8.83991
園	-8.84658
於時	-8.84729
佛法	-8.84825
制	-8.84945
波	-8.8498
應當	-8.85211
令我	-8.85222
河	-8.85261
無畏	-8.85314
引	-8.85497
忍辱	-8.8557
見已	-8.8583
財寶	-8.85964
繫	-8.86011
亦如是	-8.86068
相貌	-8.86069
密	-8.8618
塔	-8.86187
聞已	-8.8622
決定	-8.86724
增長	-8.86852
未曾	-8.86857
嚴	-8.86956
不久	-8.86957
與我	-8.86958
乞食	-8.87014
恚	-8.87223
蒙	-8.87254
虛	-8.87517
憍慢	-8.87723
此事	-8.8774
不為	-8.87764
在家	-8.8778
逮	-8.87984
間	-8.88017
堅	-8.88107
飢渴	-8.88131
樹下	-8.88205
尚	-8.88301
品	-8.88302
以是因緣	-8.88527
弟	-8.88563
瞋	-8.88579
淨飯王	-8.88609
走	-8.88805
妄	-8.88898
飯	-8.88908
所以者何	-8.88914
第二	-8.89023
迷	-8.89216
一切諸	-8.89225
雲	-8.8928
有大	-8.89651
心意	-8.89785
大乘	-8.89856
三者	-8.90231
左右	-8.90339
無不	-8.90461
池	-8.90816
讚歎	-8.90889
於中	-8.91333
!』	-8.91355
有何	-8.91362
時有	-8.91465
氣	-8.91491
不復	-8.91717
却	-8.91868
二人	-8.91943
其中	-8.91958
禪定	-8.91968
備	-8.92053
逐	-8.9207
夢	-8.92245
一時	-8.92306
佛告阿難	-8.92436
即以	-8.92574
無漏	-8.92671
法門	-8.92894
唱	-8.9298
船	-8.93039
投	-8.9307
男女	-8.93279
唯有	-8.93291
無邊	-8.93358
天王	-8.93383
宮殿	-8.93509
如彼	-8.93545
善惡	-8.93677
之事	-8.93716
柔軟	-8.93896
至於	-8.9395
快樂	-8.94007
仙	-8.94242
惱	-8.94465
多聞	-8.94485
諸根	-8.94695
箭	-8.94771
善法	-8.9487
「	-8.94884
快	-8.94885
毘	-8.94957
萬	-8.94959
決	-8.95169
三寶	-8.95379
所見	-8.95417
梵	-8.95477
故名	-8.95834
目連	-8.9587
獼猴	-8.95939
飛	-8.96017
若人	-8.96046
相應	-8.96062
厭	-8.96148
熟	-8.96169
王即	-8.96566
哀	-8.96701
如是等	-8.9681
瞿曇	-8.96982
清	-8.97005
而作是言	-8.9713
悔	-8.97338
貧窮	-8.97515
聖子	-8.97526
皆是	-8.9758
慈心	-8.97584
調	-8.97627
大海	-8.9763
錢	-8.97646
為王	-8.97712
群	-8.97718
乞	-8.97748
誓	-8.97769
提婆達多	-8.97877
即得	-8.9794
伽	-8.98453
俗	-8.98553
親近	-8.98732
聞佛所說	-8.98736
辦	-8.98736
音聲	-8.98782
唯願	-8.98862
不動	-8.99131
畢	-8.99282
毀	-8.99427
許	-8.99726
白王言	-9.00295
隱	-9.00435
梵行	-9.00531
王者	-9.00575
報言	-9.00833
亡	-9.01033
兼	-9.01091
是名	-9.01306
所願	-9.01624
忽然	-9.01687
木	-9.01765
比丘尼	-9.01766
活	-9.02005
無復	-9.02187
降伏	-9.02244
對曰	-9.02324
鬼神	-9.02569
默然	-9.02752
烏	-9.02767
羅漢	-9.0283
沙	-9.02933
國中	-9.03022
世人	-9.03049
稽首	-9.03083
無垢	-9.03108
存	-9.03159
天上	-9.03339
遮	-9.03395
恩愛	-9.03408
相好	-9.03501
眾僧	-9.03949
釋種	-9.04181
怖	-9.04215
作是念已	-9.04308
半	-9.04448
無我	-9.04502
往詣	-9.046
威儀	-9.04738
不肯	-9.0483
不同	-9.04973
諸有	-9.05291
了	-9.05322
蛇	-9.05388
況	-9.05551
亦如	-9.05926
希有	-9.05932
屬	-9.06142
笑	-9.06208
得解脫	-9.06269
若不	-9.06333
血	-9.06408
靜	-9.06534
看	-9.06555
兵	-9.06686
聞法	-9.0678
垢	-9.06898
妃	-9.06921
成道	-9.0696
身心	-9.07045
所行	-9.07074
佛說	-9.07078
處所	-9.07133
生於	-9.07141
拘	-9.07144
佛語	-9.07154
記	-9.07226
誠	-9.07259
送	-9.07432
仰	-9.07591
臨	-9.07664
士	-9.07906
抱	-9.0807
發心	-9.08127
見其	-9.08151
見之	-9.08195
發生	-9.08202
室	-9.08225
諸人	-9.0845
頓	-9.08466
魚	-9.08653
共相	-9.08709
勞	-9.08859
佛土	-9.09345
無倒	-9.0936
乳	-9.09426
寂	-9.09643
慈悲	-9.09726
逆	-9.10031
力用	-9.10073
三世	-9.10118
侍	-9.10275
避	-9.10542
四者	-9.1058
慚愧	-9.10674
量	-9.10699
焉	-9.10808
遙見	-9.10919
我見	-9.11001
有所	-9.11066
神力	-9.11071
燈	-9.11106
不受	-9.11185
越	-9.11349
急	-9.11372
結使	-9.11612
句	-9.11617
壽命	-9.11745
群臣	-9.11787
總	-9.11789
是也	-9.11965
我身	-9.12
富	-9.12142
容	-9.12159
四方	-9.12299
新	-9.12364
塗	-9.12372
神足	-9.12388
待	-9.12622
今當	-9.1267
必當	-9.12717
令其	-9.1319
不可得	-9.13259
自知	-9.13416
莫不	-9.13523
遭	-9.13523
君	-9.13539
純	-9.13628
示現	-9.13801
慢	-9.13823
王位	-9.13829
和合	-9.13928
見此	-9.13938
圓	-9.14093
若干	-9.14144
悅	-9.14301
射	-9.14416
不敢	-9.14441
內外	-9.14515
不覺	-9.14542
啟	-9.14553
眾寶	-9.14616
穢	-9.14801
妙法	-9.14946
不善	-9.14956
落	-9.15031
愛樂	-9.15063
布	-9.1513
未來	-9.15175
宣	-9.15373
身命	-9.15415
大師	-9.15497
第三	-9.15554
細	-9.15632
薄	-9.15726
無異	-9.15739
驚	-9.15829
彌勒	-9.1588
聞是語已	-9.15909
長老	-9.15987
印	-9.16127
臂	-9.16168
骨	-9.16282
皆由	-9.16283
哉	-9.16393
喪	-9.16393
鼓	-9.16496
顧	-9.16505
諸眾生	-9.16508
成阿耨多羅三藐三菩提	-9.16549
似	-9.16615
現在	-9.16752
愚人	-9.1677
齊	-9.16857
安住	-9.16924
無能	-9.16994
平	-9.17007
是處	-9.17069
隨意	-9.17127
不著	-9.17138
無量無邊	-9.17166
勝義	-9.17212
閻浮提	-9.17564
若有眾生	-9.17651
泥洹	-9.17723
遷變	-9.17753
何為	-9.178
損	-9.17869
有人	-9.179
以上	-9.17947
追	-9.18053
牽	-9.18247
入於	-9.18303
頂	-9.18357
睡眠	-9.1854
金色	-9.18544
不信	-9.18629
我所	-9.18665
欲求	-9.18678
勤	-9.18762
所生	-9.18898
堂	-9.18923
給	-9.18973
生天	-9.1909
辯	-9.191
田	-9.19196
正見	-9.19226
而白佛言	-9.19286
何等	-9.19468
空中	-9.19544
若欲	-9.19554
陰	-9.19558
捨離	-9.196
心念	-9.19646
出世	-9.19724
迴	-9.19833
助	-9.19854
貴	-9.1993
打	-9.19972
守護	-9.19984
令彼	-9.20182
精	-9.20321
人間	-9.20391
戰	-9.20398
彌	-9.20456
雖復	-9.20474
問曰	-9.20498
為人	-9.20578
今我	-9.20886
作是語已	-9.20896
有力	-9.2096
聽聞	-9.21365
像	-9.21571
受苦	-9.21708
諍	-9.21714
訖	-9.21797
之曰	-9.21815
時王	-9.21894
妻子	-9.21951
衰	-9.21954
十二	-9.2201
徹	-9.22065
導	-9.22068
渡	-9.22106
有此	-9.2218
充滿	-9.22248
速疾	-9.22264
財物	-9.22369
之行	-9.22383
所得	-9.22487
菩薩摩訶薩	-9.22505
化作	-9.2253
於諸	-9.2271
聞之	-9.2275
無礙	-9.22802
婇女	-9.22865
阿羅漢	-9.22892
見彼	-9.22971
領	-9.231
道士	-9.23355
手執	-9.23493
瓶	-9.23635
節	-9.23647
皮	-9.23695
威德	-9.23929
佛世尊	-9.24027
瞻	-9.24205
人中	-9.24233
床	-9.24248
婬	-9.24289
不與	-9.24307
此法	-9.24471
諸臣	-9.24538
心生	-9.24661
舌	-9.24699
發阿耨多羅三藐三菩提心	-9.24717
窮	-9.24774
淨妙	-9.24818
消	-9.2484
調達	-9.24864
宗	-9.24921
非法	-9.25157
塵勞	-9.25222
大聖	-9.2528
可得	-9.25468
其意	-9.25473
不離	-9.25566
若我	-9.25601
貧	-9.25607
脚	-9.25746
懸	-9.25779
不以	-9.25887
負	-9.25912
繫縛	-9.25932
魔王	-9.26048
正念	-9.26145
中有	-9.26228
懺悔	-9.26381
來至	-9.26659
葉	-9.26723
飾	-9.26826
元	-9.26898
約	-9.26904
刺	-9.26915
山林	-9.27015
何以	-9.27027
若能	-9.27085
後世	-9.27166
在此	-9.27311
憶	-9.27372
背	-9.27544
網	-9.27631
漏	-9.28183
須彌	-9.28272
每	-9.2842
何所	-9.28432
權	-9.28546
熾然	-9.28661
愛欲	-9.28748
閉	-9.28786
寶藏如來	-9.28872
偈	-9.29018
所在	-9.29049
倍	-9.29087
羅剎	-9.29156
曾	-9.29262
術	-9.29271
呪	-9.29307
並	-9.29387
我為	-9.29597
步	-9.29629
處處	-9.29703
免	-9.29715
精舍	-9.29778
功	-9.29817
鼻	-9.29856
我於	-9.29868
審	-9.29913
白王	-9.30023
嗚呼	-9.30135
不起	-9.30137
略	-9.30595
赤	-9.30648
諍訟	-9.30857
染著	-9.30899
漸漸	-9.31068
唯願世尊	-9.31189
導師	-9.31212
樹木	-9.31455
歡	-9.31494
十六	-9.31596
眾苦	-9.31943
問訊	-9.31958
超	-9.31975
察	-9.32012
色相	-9.32136
敷	-9.32176
欲界	-9.32302
沙彌	-9.32473
而彼	-9.32584
誦	-9.32603
是謂	-9.32743
於其	-9.32805
而得	-9.32854
】	-9.32864
腹	-9.32998
昔有	-9.33245
熾盛	-9.33542
南	-9.33606
天神	-9.33658
忘	-9.33915
以其	-9.34024
獄	-9.34075
五人	-9.34166
亦然	-9.34456
擲	-9.34559
獸	-9.34596
愍	-9.34661
泥	-9.34694
舍宅	-9.34749
明日	-9.34764
隋言	-9.34805
大小	-9.35235
是我	-9.35252
無盡	-9.35253
轉輪聖王	-9.3526
洗	-9.35269
代	-9.35296
苾芻	-9.35326
其子	-9.35362
迎	-9.35494
刀	-9.35511
心懷	-9.35545
小兒	-9.35638
威神	-9.35705
怒	-9.3579
須臾	-9.35814
威	-9.35934
固	-9.36024
豈	-9.36127
法寶	-9.36328
慕	-9.36334
寂然	-9.36345
福田	-9.36381
大地	-9.36446
機	-9.3655
遊戲	-9.36557
心不	-9.36762
吉	-9.36819
黑	-9.36917
差	-9.36928
多有	-9.37066
之本	-9.37069
惠施	-9.37177
出家菩薩	-9.37286
假使	-9.3738
山中	-9.37389
良以	-9.37537
汝當	-9.37538
將來	-9.37541
天帝	-9.37562
勇猛	-9.37659
懼	-9.37787
爾時菩薩	-9.37872
歡喜踊躍	-9.38089
願我	-9.38113
憐愍	-9.38194
已得	-9.3828
圍遶	-9.3834
懊惱	-9.38355
名稱	-9.38417
清涼	-9.38671
蓮花	-9.38856
三乘	-9.38952
報曰	-9.38958
袈裟	-9.39046
數數	-9.39081
殘	-9.3911
食之	-9.3923
徧	-9.39313
軍	-9.3946
城門	-9.39479
舊	-9.39505
▁三	-9.39605
暫	-9.39632
耶輸陀羅	-9.39653
而住	-9.39676
皆有	-9.39726
困	-9.39815
毒蛇	-9.39948
歷	-9.39951
族	-9.40062
善心	-9.40118
無比	-9.4017
禁	-9.40187
此云	-9.40272
周	-9.40348
手足	-9.40388
作禮	-9.40427
?』「	-9.40428
而生	-9.40456
戲	-9.40475
圍繞	-9.40661
非是	-9.40721
受持	-9.40742
不退	-9.40814
責	-9.40819
賣	-9.40956
禁戒	-9.40972
影	-9.4099
污	-9.41051
載	-9.41054
三藐三佛陀	-9.41084
為說	-9.41196
眾會	-9.41202
潤	-9.41222
天地	-9.41329
須達	-9.41396
遺	-9.41424
付	-9.41549
彼時	-9.41596
噉	-9.41772
再	-9.41778
天女	-9.41838
殿	-9.41852
睒	-9.42136
盲	-9.42139
殃	-9.4222
切	-9.42245
因果	-9.42333
皆得	-9.42342
破壞	-9.4242
演	-9.42425
善友	-9.4246
未得	-9.42492
之言	-9.42575
不捨	-9.42616
。《	-9.42634
琉璃	-9.4267
奉事	-9.42673
聞佛	-9.42721
希求	-9.42832
當得	-9.42906
為沙門	-9.4292
御	-9.43064
我以	-9.43109
至彼	-9.43143
一切智	-9.43151
修作	-9.43272
周匝	-9.43362
頂禮	-9.43408
亦爾	-9.43429
傳	-9.43543
姓	-9.43557
貪著	-9.43608
作如是念	-9.43627
滿足	-9.43744
梨	-9.43788
期	-9.43802
假	-9.43928
皆為	-9.43977
發菩提心	-9.43992
男	-9.44121
六師	-9.44147
種姓	-9.44174
生老病死	-9.4433
靡不	-9.44349
不能得	-9.44372
他人	-9.44655
諸惡	-9.44742
所須	-9.44742
而來	-9.44884
接	-9.44885
由是	-9.45125
種子	-9.45138
麤	-9.45206
入城	-9.45219
行者	-9.45295
如我	-9.4532
心生歡喜	-9.45353
四種	-9.45415
歲	-9.45461
遙	-9.4548
醫	-9.45514
踰	-9.45602
。○	-9.45618
▁「	-9.45797
我子	-9.45848
伎樂	-9.45874
長夜	-9.45906
真如	-9.45907
交	-9.46275
銀	-9.46366
奪	-9.46492
乾	-9.46506
昇	-9.46511
專	-9.46518
此處	-9.46549
天帝釋	-9.46587
曉	-9.46588
運載	-9.46599
典	-9.4669
濁	-9.46742
推	-9.46796
是人	-9.46902
或有菩薩	-9.46909
禍	-9.46911
不識	-9.46959
歡喜奉行	-9.46963
金銀	-9.46988
聖人	-9.47136
嚴飾	-9.47198
馳	-9.47209
舍利	-9.47291
報恩	-9.47315
雖有	-9.47384
應供	-9.47422
不自	-9.47482
幢	-9.47546
賢者	-9.47563
卿等	-9.47723
佛所	-9.47733
儀	-9.47813
億	-9.47965
即為	-9.48036
時諸比丘	-9.4804
靈	-9.48055
優婆塞	-9.48063
法身	-9.48102
白象	-9.48233
令得	-9.48249
告言	-9.48308
商人	-9.48404
遊行	-9.48466
三種	-9.48497
男子	-9.48629
產	-9.48656
天人師	-9.48674
尊重	-9.4868
狂	-9.48684
恨	-9.48692
闍	-9.48884
末	-9.49004
定意	-9.49015
東	-9.49059
私	-9.49086
況復	-9.49142
變化	-9.49279
弓	-9.49286
怪	-9.49318
正遍知	-9.49347
修道	-9.49398
竭	-9.49549
行人	-9.49627
闇	-9.49717
諸釋	-9.4973
迷惑	-9.49804
古	-9.49833
如人	-9.49859
宮中	-9.50068
資	-9.50213
其母	-9.50251
之相	-9.50274
四天王	-9.50344
王聞	-9.50413
誰能	-9.50417
寤	-9.50461
水中	-9.50696
堪	-9.50724
一日	-9.50855
當來	-9.50883
有漏	-9.50954
獵師	-9.50995
而自	-9.51074
村	-9.51175
無厭	-9.512
鳴	-9.51223
尸	-9.51251
召	-9.51261
伴	-9.51301
聞如是	-9.51332
往至	-9.51363
善逝	-9.51462
有二	-9.5153
欲令	-9.51551
安置	-9.51577
復問	-9.51641
必有	-9.5176
阿修羅	-9.51793
檀越	-9.5181
施與	-9.51929
啼哭	-9.5197
部	-9.52064
雙	-9.52135
諸王	-9.52208
白佛	-9.52306
棄捨	-9.52313
穀	-9.52399
星	-9.52761
復更	-9.52838
惠	-9.52928
我慢	-9.52986
非常	-9.53014
前白佛言	-9.53197
出城	-9.53281
蜜	-9.5329
三十二	-9.5335
當為	-9.53353
宿命	-9.53409
於佛	-9.53457
作是思惟	-9.53473
日日	-9.53492
歸命	-9.53582
四大	-9.53633
割	-9.5368
寂滅	-9.5379
請佛	-9.53793
官	-9.53881
甚深	-9.53882
愁	-9.53884
不失	-9.53921
倒	-9.53929
聽法	-9.53985
叉手	-9.54019
寒	-9.54081
其婦	-9.54149
老母	-9.54278
收	-9.54296
一念	-9.5438
商主	-9.54389
作是	-9.54463
瘡	-9.54653
六十	-9.54702
發起	-9.54714
如法	-9.54782
之後	-9.54826
牢固	-9.55107
自念	-9.55186
)。△	-9.55235
欺	-9.55289
宮內	-9.55293
現世	-9.55293
【	-9.5535
各自	-9.5544
其所	-9.55479
眠	-9.55648
諸佛世尊	-9.55695
合掌	-9.55707
往來	-9.55843
默	-9.55892
返	-9.55939
素	-9.5599
遣使	-9.56139
經行	-9.56226
慮	-9.56232
丈夫	-9.56378
良	-9.56402
朝	-9.56482
前後	-9.56489
佛道	-9.56562
求索	-9.56563
葢	-9.56641
屈	-9.56646
縱	-9.56653
至誠	-9.56659
於世	-9.56706
國界	-9.56729
兄弟	-9.56734
不相	-9.56757
愁憂	-9.56791
猛	-9.56813
里	-9.56817
卒	-9.56931
學道	-9.5694
野	-9.57071
永斷	-9.57075
得見	-9.57077
巧	-9.57123
獲得	-9.57201
能令	-9.57228
橫	-9.57297
時諸	-9.57299
而作	-9.57382
無憂	-9.57406
十力	-9.57464
試	-9.57492
愚者	-9.57497
婆羅門言	-9.57636
梵王	-9.57759
自思惟	-9.5795
精勤	-9.58
富貴	-9.58096
移	-9.58106
杖	-9.58308
不可思議	-9.58366
養育	-9.58416
其王	-9.58416
住處	-9.58473
呪願	-9.5848
知之	-9.58499
青	-9.5856
三十三天	-9.58596
為惡	-9.58631
露	-9.58654
奇	-9.58717
難可	-9.58804
厚	-9.58859
十八	-9.5888
五者	-9.58941
裏	-9.5895
園林	-9.59047
善行	-9.59052
擁護	-9.59079
欲使	-9.59095
彼岸	-9.59126
纏縛	-9.59229
憂愁	-9.59241
宅	-9.59287
除去	-9.59291
法中	-9.59328
四諦	-9.59343
復以	-9.59358
滅度	-9.59402
誓願	-9.59446
還歸	-9.5946
之身	-9.59608
折	-9.59669
登	-9.5967
城中	-9.59764
利養	-9.59888
不及	-9.59909
何況	-9.59914
頂禮佛足	-9.59998
為欲	-9.60073
法者	-9.60102
道路	-9.60145
是阿蘭若	-9.60173
自念言	-9.60229
脩	-9.60479
阿蘭若處	-9.60537
三十二相	-9.60563
懈怠	-9.60599
并及	-9.60606
佛告比丘	-9.60606
經歷	-9.60807
亦有	-9.60815
作是言	-9.60851
危	-9.60881
智人	-9.60892
十善	-9.60955
吹	-9.60967
榮	-9.6097
怖畏	-9.60973
大仙	-9.60991
早	-9.61005
黃	-9.61016
善業	-9.6104
度脫	-9.6119
樹神	-9.61193
不用	-9.61283
原	-9.61352
端	-9.61442
顏色	-9.61445
】【	-9.61454
擔	-9.61455
前世	-9.61471
隨時	-9.61536
應時	-9.61568
遍滿	-9.61685
佛本行	-9.61707
栴檀	-9.61782
名色	-9.6187
形體	-9.61896
尋即	-9.61949
纏	-9.62052
自身	-9.62061
陳	-9.62065
勤苦	-9.62199
如意	-9.6225
賤	-9.62303
一句	-9.62367
亦當	-9.62448
法師	-9.6246
大德	-9.62614
告曰	-9.6275
睡	-9.62804
婢	-9.6285
炎	-9.62884
徒	-9.62896
轉法輪	-9.62914
行道	-9.62941
飯食	-9.62952
不可稱計	-9.63036
不求	-9.63038
涉	-9.63102
長大	-9.63131
鐵	-9.63278
其有	-9.6331
王宮	-9.63387
乏	-9.63452
與之	-9.63519
無餘	-9.63537
勇	-9.63567
相見	-9.63568
汝可	-9.63585
大慈	-9.63611
惡業	-9.63644
其父	-9.63705
不解	-9.63836
與汝	-9.63881
佛即	-9.6392
成正覺	-9.63971
波旬	-9.64023
作沙門	-9.64035
轉輪王	-9.64071
我不	-9.64121
四天下	-9.6414
牢	-9.64179
不審	-9.64184
五道	-9.6429
乃能	-9.64328
渴	-9.6443
傷害	-9.64516
最後	-9.64535
憶念	-9.64638
一名	-9.64819
奴	-9.64849
王問	-9.64901
憂惱	-9.64902
敗	-9.64926
災	-9.65004
酒	-9.65048
蘭若	-9.65093
殊	-9.65265
苦痛	-9.65287
園中	-9.65314
人所	-9.65354
三毒	-9.65477
如何	-9.65515
毛	-9.65523
敵	-9.65624
自恣	-9.65645
差別	-9.65645
聖王	-9.65714
已來	-9.65749
跡	-9.65824
第四	-9.65855
阿耨多羅三藐三菩提	-9.65859
與彼	-9.65961
諸弟子	-9.66054
側	-9.66103
自歸	-9.66103
不足	-9.6615
釋提桓因	-9.66151
佛教	-9.66214
支	-9.66219
『	-9.66365
見我	-9.66409
集經	-9.66442
迦毘羅城	-9.66503
諸菩薩	-9.66566
本末	-9.66628
一切皆	-9.66685
彼處	-9.66692
妄語	-9.6672
義利	-9.66735
岸	-9.66776
是謂梵志	-9.66855
不能自勝	-9.6693
不出	-9.66943
軟	-9.67106
充	-9.67107
何緣	-9.67107
廣說	-9.67125
乃爾	-9.67142
聖道	-9.67166
比丘僧	-9.67274
林中	-9.67301
蟲	-9.6731
見者	-9.67357
勢	-9.67384
波羅蜜	-9.67386
顏	-9.67387
一身	-9.67405
而無	-9.67425
任	-9.6746
齒	-9.67485
為彼	-9.67536
愛敬	-9.67547
念言	-9.67652
親友	-9.67655
復言	-9.67662
狗	-9.67663
愈	-9.67671
號曰	-9.67724
標	-9.67878
剎	-9.6798
逼	-9.68041
為佛	-9.68042
象馬	-9.68098
上妙	-9.68135
觀看	-9.68182
賜	-9.68198
殺害	-9.6829
下二句	-9.68291
展轉	-9.68327
知足	-9.6834
此經	-9.68524
=	-9.68546
之義	-9.68552
群生	-9.68636
於後	-9.68727
法明門	-9.6873
眾中	-9.68739
知其	-9.68834
吾今	-9.68859
王舍城	-9.69
供給	-9.69004
無相	-9.69008
盜	-9.69013
能斷	-9.69036
吞	-9.6907
薪	-9.69071
居士	-9.69101
日光	-9.69198
演說	-9.6944
我心	-9.69474
王所	-9.69507
枝	-9.69548
心中	-9.69554
何處	-9.69563
我是	-9.69629
年少	-9.69687
停	-9.6973
說偈	-9.6974
摩訶	-9.69744
截	-9.6979
勸化	-9.69872
巍巍	-9.69946
幸	-9.69995
流轉	-9.7009
妄想	-9.70121
世世	-9.70195
法界	-9.70293
奉行	-9.70434
十一	-9.70506
道德	-9.70714
未曾有	-9.70762
歸依	-9.70779
角	-9.70787
浮	-9.70855
泉	-9.70881
輪迴	-9.70965
受其	-9.71121
納	-9.71192
多陀阿伽度	-9.71213
慳貪	-9.71222
此之	-9.71286
斷絕	-9.71303
輸頭檀王	-9.71355
牙	-9.71512
漿	-9.71516
衣食	-9.71518
侵	-9.71587
塵垢	-9.71596
四恩	-9.71602
能知	-9.71611
樓	-9.71615
大士	-9.71616
底	-9.71768
輔相	-9.71772
有如是	-9.71823
摩那婆	-9.71892
使我	-9.71923
天宮	-9.71935
娛樂	-9.71963
而為	-9.7206
出家學道	-9.72076
建立	-9.72079
畜	-9.721
波羅	-9.72161
罵	-9.72238
吐	-9.72293
徑	-9.7237
不違	-9.72371
能破	-9.72384
裂	-9.72422
我於爾時	-9.72448
有諸	-9.7246
勤修	-9.72467
虎	-9.72481
不聽	-9.72492
鴿	-9.72501
煩	-9.72518
道場	-9.72559
所為	-9.7259
齋	-9.72792
所造	-9.73105
三十	-9.73167
累	-9.73174
諫	-9.7328
輙	-9.73325
驚怖	-9.73346
述	-9.73359
五陰	-9.73436
猶若	-9.7344
胎	-9.73502
而語之言	-9.73539
難得	-9.73613
西	-9.73639
有是	-9.73647
住於	-9.73728
為是	-9.73728
陀羅	-9.738
之道	-9.73803
已訖	-9.73831
限	-9.73835
離諸	-9.73945
往彼	-9.73946
二乘	-9.74028
無極	-9.74056
嫌	-9.74078
復生	-9.74085
令人	-9.7421
祕密	-9.74344
鹿王	-9.74499
上下	-9.745
澤	-9.74568
減	-9.74598
思念	-9.7468
歌	-9.74854
鬪	-9.75022
施設	-9.75115
能生	-9.75201
聞佛說法	-9.75273
相師	-9.75327
却住一面	-9.75419
生滅	-9.75447
安靜	-9.75528
教誨	-9.75589
震動	-9.75599
和上	-9.75605
一切法	-9.75632
之聲	-9.75694
于時	-9.7577
曠野	-9.75778
是事	-9.75797
人之	-9.75875
臺	-9.75933
在彼	-9.75944
買	-9.75977
誹謗	-9.76008
皆共	-9.76031
辯才	-9.7605
而坐	-9.76086
上座	-9.76111
羅睺羅	-9.76184
悉令	-9.76208
入山	-9.76243
愛念	-9.76253
使人	-9.76263
以何因緣	-9.76386
成熟	-9.76572
採	-9.76576
而言	-9.76593
此身	-9.76653
趣求	-9.76658
諦聽	-9.76754
如前	-9.76807
塞	-9.76814
爾時諸比丘	-9.76914
化為	-9.7701
即於	-9.77064
略說	-9.77102
八十種好	-9.77108
彼王	-9.772
入是三昧	-9.77267
與諸	-9.77359
含	-9.77372
各有	-9.775
慈愍	-9.77596
聞此	-9.77618
其上	-9.7763
張	-9.7769
隨其	-9.77833
不聞	-9.77853
等正覺	-9.78329
亦名	-9.78375
知見	-9.78464
尾	-9.78594
擊	-9.78626
行施	-9.78688
二字	-9.78709
諸女	-9.78761
熱惱	-9.78799
災禍	-9.78805
墮落	-9.78809
心地	-9.78831
吾等	-9.78847
得度	-9.78848
》、《	-9.78945
正道	-9.7906
暴	-9.7908
飢	-9.79091
世俗	-9.7914
其義	-9.79217
是法門	-9.79293
嫉妬	-9.79319
墮地	-9.79349
我等今者	-9.79353
心無	-9.79355
已盡	-9.7937
彼諸	-9.79371
發願	-9.79422
及餘	-9.79505
百億	-9.79515
酥	-9.79518
斫	-9.79546
謗	-9.7955
波斯匿王	-9.79594
聰明	-9.7963
一處	-9.79661
人言	-9.79719
鬪諍	-9.79816
羊	-9.80024
智光	-9.80047
北	-9.80247
從此	-9.80284
改	-9.80341
即問	-9.80414
偏	-9.80474
呵	-9.80511
此女	-9.80526
說之	-9.80622
我之	-9.80695
得勝	-9.80698
受戒	-9.80877
玉女	-9.80888
殺之	-9.80899
如斯	-9.80928
日夜	-9.80935
借	-9.80943
受教	-9.81056
正使	-9.81109
市	-9.81165
亦復不	-9.81211
博	-9.8123
還復	-9.8129
來下	-9.81302
乾闥婆	-9.8135
一切人民	-9.8136
我已	-9.81455
淵	-9.81546
夫婦	-9.81675
婆羅	-9.81702
今已	-9.81912
得成	-9.81915
自利	-9.81926
殊妙	-9.82013
甚大	-9.82059
續	-9.82095
右	-9.82131
信心	-9.82134
解說	-9.82137
營	-9.82162
覺悟	-9.82179
運	-9.82198
焰	-9.82201
之因	-9.82238
於汝	-9.82241
逢	-9.82246
別離	-9.8228
佛為	-9.82428
其餘	-9.82454
今欲	-9.82503
善能	-9.82546
通達	-9.82547
永離	-9.82714
之德	-9.82749
弘	-9.82874
十種	-9.82885
有四	-9.82895
欲見	-9.82905
長者子	-9.82907
須彌山	-9.82939
寺	-9.8295
源	-9.82968
不須	-9.83039
意欲	-9.83152
諸苦	-9.83173
五百人	-9.83211
所施	-9.83233
謝	-9.83239
務	-9.83241
摩尼	-9.83337
一切世間	-9.83383
婦女	-9.83404
本無	-9.8342
頭面禮足	-9.83524
何不	-9.83563
從彼	-9.83589
言說	-9.83597
無窮	-9.83729
捨家	-9.838
甘	-9.83834
踊躍	-9.83861
見諸	-9.84002
以手	-9.8401
得此	-9.84017
此言	-9.8409
連	-9.84117
枝葉	-9.84134
將欲	-9.84154
圖	-9.8416
我亦	-9.84221
優婁頻螺迦葉	-9.8431
餘人	-9.84326
執持	-9.84341
不死	-9.84402
不壞	-9.84425
己身	-9.84492
貪愛	-9.84545
有緣	-9.84571
特	-9.84689
可畏	-9.8472
無智	-9.84754
種族	-9.84779
孝	-9.8478
波羅㮈國	-9.84785
入定	-9.84801
時淨飯王	-9.84836
惡道	-9.84857
於地	-9.84858
奇特	-9.84943
三千大千世界	-9.85045
蔽	-9.85069
獻	-9.85083
委	-9.85102
旋	-9.85116
知識	-9.85213
鬘	-9.85285
悲泣	-9.85298
五戒	-9.85324
不食	-9.85338
從是	-9.85344
遣人	-9.85459
惜	-9.8561
見一	-9.85629
履	-9.85667
育	-9.857
世間解	-9.85713
恣	-9.85728
亦非	-9.85786
當以	-9.85809
頗	-9.85817
現身	-9.85873
宜應	-9.85896
因行	-9.85942
保	-9.86028
常住	-9.86056
周遍	-9.86096
震	-9.86225
為諸眾生	-9.86384
擇	-9.86499
我今當	-9.86514
禽獸	-9.86548
無諸	-9.86559
耶輸陀	-9.8671
唱言	-9.8681
辱	-9.86827
油	-9.8691
心大歡喜	-9.87053
以自	-9.87084
萬物	-9.87112
授記	-9.87122
頃	-9.87167
爾時太子	-9.87186
告諸比丘	-9.87194
曲	-9.8721
無諍	-9.87283
師子吼	-9.87315
放大光明	-9.87379
歡樂	-9.87411
能滅	-9.87448
無上士	-9.87483
阿羅呵	-9.87505
短	-9.87512
慾	-9.87541
由旬	-9.87599
哀愍	-9.87724
法性	-9.87727
熏	-9.87851
厭離	-9.8786
熾	-9.87974
德行	-9.88091
所求	-9.8812
寄	-9.88145
無所著	-9.88225
延	-9.88247
至真	-9.88334
譬	-9.88342
得脫	-9.88405
生子	-9.88427
兔	-9.88438
貧人	-9.88456
善知識	-9.88541
菓	-9.88543
珍	-9.88621
國人	-9.88722
爾乃	-9.88732
互相	-9.88803
叉	-9.88896
之恩	-9.88971
孤	-9.89045
不退轉	-9.89052
念念	-9.89093
菩薩記	-9.89099
弊	-9.89101
詐	-9.89119
坐禪	-9.89132
華香	-9.89197
所以然者	-9.89209
之物	-9.89272
荷負	-9.89297
能捨	-9.89425
消滅	-9.89521
二十	-9.89555
傍	-9.89617
依止	-9.89624
城內	-9.8972
太子言	-9.89763
八難	-9.89782
緣覺	-9.89788
覺知	-9.89827
寂定	-9.8989
修學	-9.89903
其國	-9.89937
讚言	-9.90083
錢財	-9.90097
救濟	-9.90101
龜	-9.90164
端政	-9.90177
競	-9.9025
宋	-9.90313
在前	-9.9037
童女	-9.90371
一千	-9.90452
此等	-9.90552
不覩	-9.90652
律	-9.90657
修善	-9.90661
為其	-9.90765
客	-9.9085
幻	-9.9086
伐	-9.91008
教誡	-9.91045
屋	-9.91063
能得	-9.91066
憍	-9.91073
冷	-9.91087
有一長者	-9.91163
吒	-9.91178
授一	-9.9119
時婆羅門	-9.91194
夢見	-9.912
國內	-9.91215
至佛所	-9.91329
金錢	-9.91425
有三	-9.91482
今得	-9.91536
竪	-9.91544
無人	-9.91636
次當作佛號	-9.91646
禮拜	-9.91677
所可	-9.91707
狀	-9.91849
離欲	-9.91857
在世	-9.91896
受此	-9.91965
恃	-9.91966
捨身	-9.92027
所知	-9.92044
諸國	-9.9206
生天上	-9.92085
音樂	-9.92086
二名	-9.9213
穿	-9.92133
弱	-9.92206
或以	-9.92227
吾當	-9.92231
莖	-9.92274
又問	-9.92324
而有	-9.92384
乃得	-9.92441
駕	-9.92454
受於	-9.92516
友	-9.92527
宣說	-9.92543
如是我聞	-9.92579
名聞	-9.92675
力士	-9.9274
教授	-9.92822
福報	-9.92897
不作	-9.92907
終無	-9.92975
其家	-9.93146
序	-9.93281
我昔曾聞	-9.93291
大施	-9.9336
惡行	-9.93538
增益	-9.93557
優陀夷	-9.93569
不現	-9.93752
還家	-9.93839
諸婆羅門	-9.93972
菩提樹	-9.93988
劣	-9.94061
可以	-9.94112
處在	-9.94156
至心	-9.94289
不從	-9.94315
而出	-9.94344
兵眾	-9.94348
作大	-9.94351
為作	-9.94354
議	-9.9436
魔波旬	-9.94455
既得	-9.94514
四禪	-9.94567
出現	-9.94604
恒常	-9.94858
象王	-9.94913
之間	-9.9496
住阿蘭若	-9.95008
無過	-9.95063
千子	-9.95076
糞	-9.95162
於虛空中	-9.95209
大法	-9.9521
奉上	-9.95218
招	-9.95242
頭上	-9.95249
我言	-9.95256
為本	-9.95276
磨	-9.95277
碎	-9.95287
不忍	-9.95437
端嚴	-9.95462
獵者	-9.955
福業	-9.95605
時分	-9.95644
最為	-9.95681
草木	-9.95713
此則	-9.95726
諸仙	-9.95749
香花	-9.95776
墜	-9.95792
見於	-9.95815
食已	-9.95819
拜	-9.95828
三有	-9.95853
證菩提	-9.95929
淚	-9.95966
可謂	-9.96029
到佛所	-9.96031
左	-9.9618
所言	-9.96231
覓	-9.96233
無著	-9.96303
不行	-9.96329
由此	-9.9634
淺	-9.96364
雪山	-9.96367
貫	-9.96373
慇懃	-9.96542
向於	-9.96689
東方	-9.967
憐	-9.9671
如來復	-9.96757
豐	-9.96781
見是	-9.96783
及與	-9.96801
還國	-9.96834
度眾生	-9.96956
是誰	-9.96992
翻	-9.97169
之內	-9.97209
佛之	-9.9722
有五百	-9.97343
饒益	-9.97347
利他	-9.97422
心如	-9.97447
爾時阿難	-9.97485
如是如是	-9.97494
畫	-9.97497
娑	-9.97502
受樂	-9.97517
悉達	-9.97541
惡心	-9.97595
往到	-9.97605
家中	-9.97611
三塗	-9.97725
若無	-9.97758
彼佛	-9.9776
誡	-9.97833
劇	-9.97897
豫	-9.97998
大丈夫	-9.98081
休息	-9.98177
八萬	-9.98192
為道	-9.98199
承事	-9.98213
我欲	-9.98258
中間	-9.98418
枯	-9.98421
汝若	-9.98468
燃	-9.98509
更無	-9.98522
六者	-9.98605
不貪	-9.98626
言曰	-9.98641
諸龍	-9.98645
聽我	-9.9865
自心	-9.98723
威力	-9.98731
眾生類	-9.98736
優婆夷	-9.9874
隨從	-9.98816
優波離	-9.98824
不安	-9.98849
婬怒癡	-9.98864
或時	-9.98898
事火	-9.98927
却坐一面	-9.98952
怨家	-9.99
佛為說法	-9.9902
於今	-9.99066
福智	-9.99149
不遠	-9.99258
先世	-9.99377
為人所	-9.99426
求解脫	-9.99446
修梵行	-9.99509
臭	-9.99521
無厭足	-9.99526
際	-9.99562
厥	-9.99581
如日	-9.99587
告彼	-9.99644
嗣	-9.99673
我先	-9.99675
遊觀	-9.9971
五蘊	-9.99802
所欲	-9.99835
彼女	-9.99932
.	-9.99965
汝等比丘	-9.9999
制度	-10.0002
調御丈夫	-10.0003
明行足	-10.0003
甚難	-10.0008
勝因	-10.0012
得自在	-10.0014
豆	-10.0022
出現於世	-10.0026
生者	-10.0029
真珠	-10.0031
皆當	-10.0033
二句	-10.0036
劍	-10.0036
不染	-10.0047
以來	-10.0055
伺	-10.0055
造業	-10.0059
防	-10.0063
檀	-10.0072
訓	-10.0072
入海	-10.0076
旨	-10.0079
諸煩惱	-10.0082
見有	-10.0089
五體投地	-10.0094
莫不歡喜	-10.0094
佛以	-10.0101
聞是	-10.0106
正覺	-10.0109
菩提心	-10.0112
寶藏	-10.0112
惡人	-10.0113
名字	-10.0113
見是事已	-10.0118
欣	-10.0144
其言	-10.0146
鴈	-10.0157
齎	-10.0158
是佛	-10.016
說言	-10.0171
響	-10.0173
行步	-10.0174
到已	-10.0175
法行	-10.0178
皆來	-10.0192
封	-10.0194
不宜	-10.0198
斷除	-10.0198
苦樂	-10.0198
火燒	-10.0201
趣向	-10.0208
瀑流	-10.0211
不忘	-10.0212
著衣持鉢	-10.022
人身	-10.0221
相續	-10.0221
恐懼	-10.0225
阿蘭若	-10.0232
互	-10.0232
老病死	-10.0233
之類	-10.0244
滅盡	-10.0245
不欲	-10.0265
修證	-10.0273
舍衛國	-10.0274
作如是	-10.0278
既見	-10.0279
輪王	-10.0279
於世間	-10.028
陀羅尼	-10.0281
房	-10.0283
求道	-10.0288
若見	-10.0292
證得	-10.0293
如空	-10.0303
竊	-10.0304
今可	-10.0308
虛空中	-10.0308
羸	-10.031
遲	-10.031
崩	-10.031
時舍利弗	-10.0314
剋	-10.0317
文殊	-10.0318
井	-10.0322
王復	-10.0324
不住	-10.0324
天眼	-10.0327
飛鳥	-10.0328
礙	-10.0336
之力	-10.0343
求於	-10.0343
菩提樹下	-10.0345
愛著	-10.0348
之智	-10.0354
我身是也	-10.0355
奔	-10.0365
故有	-10.037
相狀	-10.0371
無量百千	-10.0376
饒	-10.0379
要當	-10.038
戀	-10.0386
觀此	-10.0389
若其	-10.0393
若當	-10.0401
若得	-10.0403
相隨	-10.041
唯然	-10.0413
賴	-10.0415
瑞	-10.0417
多諸	-10.0417
錯	-10.0418
羅網	-10.0421
不定	-10.0425
沐浴	-10.0426
不令	-10.0432
一子	-10.0433
驅	-10.0435
婦人	-10.0443
眾惡	-10.0452
充足	-10.046
大家	-10.0464
逝	-10.0469
往詣佛所	-10.047
求覓	-10.0477
侍從	-10.0478
佛剎	-10.0479
侍者	-10.0494
之子	-10.0502
十三	-10.0506
主人	-10.0514
暗	-10.0517
老死	-10.052
不斷	-10.0527
受報	-10.0532
三業	-10.0535
還至	-10.0536
法輪	-10.0544
得聞	-10.0544
誤	-10.0545
暢	-10.0546
春	-10.0547
涕泣	-10.0551
隨緣	-10.0552
薩	-10.0552
人眾	-10.0553
暗鈍	-10.0556
奢	-10.0557
奏	-10.0561
針	-10.0561
大力	-10.0562
朋友	-10.0562
三月	-10.0563
即自	-10.0569
瑞應	-10.057
誑	-10.0573
變易	-10.0575
心開意解	-10.058
十四	-10.0601
諸天人	-10.0605
向佛	-10.0609
建	-10.0611
為大	-10.0611
一國	-10.0616
善來比丘	-10.0618
見諦	-10.0622
厄	-10.0626
使者	-10.0627
救護	-10.0629
漏盡	-10.0635
善來	-10.0636
我有	-10.0639
二子	-10.0647
寐	-10.0652
能除	-10.0655
偽	-10.0656
膝	-10.0662
皆從	-10.0663
逸	-10.0665
輸	-10.0666
蘊	-10.0668
勇健	-10.0672
十五	-10.0675
瑠璃	-10.0676
支節	-10.0677
亦為	-10.0682
佛身	-10.0684
婬女	-10.0685
復見	-10.0692
以法	-10.0696
臣民	-10.0697
六年	-10.0698
五百弟子	-10.0698
於人	-10.0701
復作是言	-10.0704
出入	-10.0709
前禮佛足	-10.0711
如今	-10.0717
心者	-10.0745
不還	-10.0747
彼家	-10.0753
向彼	-10.0756
之意	-10.0756
我時	-10.0756
燋	-10.076
即前	-10.0764
受之	-10.0768
此兒	-10.0773
夏	-10.0779
極大	-10.079
灰	-10.0792
眾多	-10.0795
隨逐	-10.0796
囉	-10.0797
則無	-10.0797
見菩薩	-10.0798
醉	-10.0799
無量眾生	-10.0801
福力	-10.0809
流布	-10.0811
不念	-10.0826
菩薩言	-10.0835
衣被	-10.084
朽	-10.084
舞	-10.0841
還宮	-10.0843
又云	-10.0845
穢惡	-10.0847
五十	-10.0849
當作	-10.0866
便為	-10.087
惡趣	-10.0871
嫉	-10.0876
踊	-10.0876
無生	-10.088
捐	-10.0886
即起	-10.0892
隣	-10.0894
無所畏	-10.0902
欝	-10.0908
眾行	-10.0909
鷹	-10.0909
披	-10.0911
摧	-10.0912
低頭	-10.0919
頂上	-10.0924
無因	-10.0926
如實	-10.0927
N	-10.0932
說是偈已	-10.0932
o	-10.0932
必定	-10.0936
六度	-10.0942
得一	-10.0942
託	-10.0947
則不	-10.0964
聞此語已	-10.0966
生時	-10.0967
受用	-10.0981
將至	-10.0992
為上	-10.0993
心自念言	-10.0994
閑	-10.0998
處於	-10.0998
長跪	-10.1007
得生天	-10.1009
其事	-10.101
便生	-10.1012
我自	-10.1013
聞彼	-10.1014
烟	-10.1024
喻如	-10.1026
療	-10.1026
暮	-10.1026
法王	-10.1031
奴婢	-10.1031
永無	-10.1033
米	-10.1034
牟尼	-10.1034
祖	-10.1035
除滅	-10.1038
詣彼	-10.1039
王見	-10.1039
毀辱	-10.1047
今以	-10.1056
海水	-10.106
洗浴	-10.1062
其女	-10.1064
黃金	-10.1066
我念往昔	-10.1073
本願	-10.1077
汝等當知	-10.108
可愛	-10.108
欲往	-10.1082
之苦	-10.109
慚	-10.1094
壽終	-10.1094
人王	-10.1095
得阿羅漢果	-10.1095
敢	-10.11
讀	-10.1101
所聞	-10.1102
波羅奈國	-10.1106
聞者	-10.1107
罪福	-10.111
於道	-10.1117
羣	-10.112
壯	-10.1122
忉利天	-10.1125
以不	-10.1126
言語	-10.1129
無央數	-10.1131
成佛道	-10.1132
繩	-10.1133
優	-10.1133
王便	-10.1148
迹	-10.1148
大會	-10.1151
帶	-10.1152
體性	-10.1152
蘇	-10.1155
應知	-10.1156
鄙	-10.1157
證知	-10.1158
貢高	-10.1158
健	-10.116
北方	-10.116
勿令	-10.116
迦樓羅	-10.1173
損減	-10.118
總持	-10.1183
於一切	-10.1187
大明	-10.1188
寶蓋	-10.1191
歎未曾有	-10.1193
捨家出家	-10.1198
王如來	-10.1204
為求	-10.1214
有佛出世	-10.1224
更相	-10.1226
聖眾	-10.1228
七者	-10.1232
既不	-10.1236
即入	-10.1239
談	-10.1244
無間	-10.125
孔	-10.1254
王之	-10.1255
於法	-10.1256
五濁	-10.1271
慳	-10.1272
占	-10.1273
銅	-10.1276
即往	-10.1277
長行	-10.1279
來至此	-10.1281
孔雀	-10.1281
能為	-10.1284
懷妊	-10.1289
猶尚	-10.129
此閻浮提	-10.1292
乃是	-10.1293
不放逸	-10.1296
為第一	-10.1297
即與	-10.1298
而能	-10.1305
緊那羅	-10.1307
來還	-10.1316
為諸	-10.1317
毒藥	-10.1318
而為恐怖	-10.1322
我昔	-10.1324
觀之	-10.1326
三事	-10.133
遶	-10.1334
罪人	-10.1338
四十	-10.1339
坑	-10.1343
深山	-10.1349
聞持	-10.1354
善哉善哉	-10.1356
過於	-10.1359
汝為	-10.1365
浴	-10.1366
神變	-10.1368
墮於	-10.1372
我家	-10.1385
聚集	-10.1388
窟	-10.14
是道	-10.1401
無所得	-10.1401
其地	-10.1402
得大	-10.1405
本來	-10.1405
低	-10.141
心法	-10.141
能作	-10.1416
為苦	-10.1428
菩薩行	-10.1432
汝諸比丘	-10.1434
說此偈已	-10.1441
。」《	-10.1445
鬚髮自落	-10.1447
舉身	-10.1452
吾當為汝分別解說	-10.1454
亦可	-10.1455
未有	-10.1456
得須陀洹果	-10.1456
而告之言	-10.1463
甘美	-10.1467
自稱	-10.1474
風吹	-10.1482
大善	-10.1485
狐疑	-10.1498
墮惡道	-10.1499
挽	-10.15
此義	-10.1506
貪求	-10.1524
役	-10.1525
工	-10.1528
扶	-10.1535
崇	-10.1536
作是說	-10.1537
囑	-10.1538
分明	-10.1542
頸	-10.1544
助菩提法	-10.1545
便得	-10.1549
旃陀羅	-10.155
二種	-10.1552
開示	-10.1561
摩睺羅伽	-10.1566
浴池	-10.1571
悉得	-10.1572
諸外道	-10.1573
已竟	-10.1576
過去世時	-10.158
生處	-10.1586
休	-10.159
身口	-10.1591
爾時如來	-10.1591
無疑	-10.1593
四事	-10.1601
阿那含	-10.1607
常為	-10.1614
氣力	-10.1614
當令	-10.1614
疾病	-10.1619
死者	-10.1621
跋	-10.1624
何謂	-10.1628
不曾	-10.1629
千人	-10.1631
捕	-10.1631
諸天眾	-10.1632
炬	-10.1637
慎	-10.1638
勢力	-10.164
繞	-10.1644
雪	-10.1645
得無	-10.1647
般涅槃	-10.1652
偷	-10.1654
徐	-10.1663
行於	-10.1664
不犯	-10.1664
無上菩提	-10.1665
驢	-10.1671
天中天	-10.1677
迦羅	-10.1677
灌頂	-10.1682
當有	-10.1683
率	-10.1686
其福	-10.1691
香華	-10.1694
嚴駕	-10.1696
所應	-10.1698
一生	-10.17
憍陳如	-10.17
知佛	-10.1702
精懃	-10.1703
堪任	-10.1704
三藏	-10.1707
謂為	-10.1709
又見	-10.1712
缺	-10.1713
畢竟	-10.1713
壁	-10.1728
大智	-10.174
稱讚	-10.1741
將諸	-10.1744
怨敵	-10.1746
隨所	-10.175
多少	-10.1761
經典	-10.1762
須陀洹	-10.1762
溺	-10.1768
即勅	-10.177
耀	-10.1773
咎	-10.1778
右手	-10.178
自見	-10.1785
資財	-10.1786
身相	-10.1787
得佛	-10.1789
詣佛所	-10.1789
八種	-10.179
諸善	-10.1791
沈	-10.1794
唐	-10.1795
馳走	-10.1798
灑	-10.1801
才	-10.1803
內心	-10.1805
眾生之類	-10.1805
力勢	-10.1807
真正	-10.1807
作業	-10.1807
擬	-10.1812
乾陟	-10.1812
道者	-10.1814
剃除鬚髮	-10.1819
則為	-10.1821
不然	-10.1821
諸欲	-10.1826
遠近	-10.183
力故	-10.183
以偈	-10.1835
為最	-10.1839
於王	-10.1844
閻浮	-10.1846
時有一	-10.1846
無數劫	-10.1855
鏡	-10.1861
哭	-10.1867
斯事	-10.1874
諸行	-10.1877
皆能	-10.1882
譯	-10.189
多所	-10.1895
勝妙	-10.1898
聞其	-10.19
開化	-10.1903
受五戒	-10.1909
即還	-10.1929
晝	-10.1932
詳	-10.1935
屍	-10.1937
諸釋種	-10.1938
某	-10.1939
跪	-10.1939
出於	-10.1939
斬	-10.1939
微細	-10.194
以是之故	-10.1946
臭穢	-10.1955
於是便說此偈	-10.1958
得免	-10.1958
尋時	-10.1967
以身	-10.1969
乃知	-10.1969
選擇	-10.1969
憂苦	-10.1971
恐畏	-10.1972
心常	-10.1975
而說	-10.1978
如天	-10.1981
聽許	-10.1983
迦毘羅	-10.1988
還來	-10.1988
之樂	-10.199
神仙	-10.1992
家內	-10.1993
不畏	-10.1996
隸	-10.1996
幾	-10.2
縛著	-10.2014
募	-10.2017
樹間	-10.2021
少分	-10.2022
如佛	-10.2024
實是	-10.2024
之福	-10.2029
說此	-10.2033
來者	-10.2033
赴	-10.2036
躬	-10.2038
南無	-10.2041
經云	-10.2041
幽	-10.2043
所愛	-10.2045
悲愍	-10.206
未能	-10.206
至此	-10.207
海中	-10.2074
寶珠	-10.2075
本性	-10.2079
按	-10.2079
離於	-10.2079
猗	-10.208
咄	-10.2082
作於	-10.2083
彼彼	-10.2086
星宿	-10.2087
翳	-10.2088
宛轉	-10.2088
償	-10.2091
鳥獸	-10.2096
不思議	-10.2098
一旦	-10.2103
進止	-10.2103
更有	-10.2105
阿羅邏	-10.2107
問其	-10.2112
臥具	-10.2113
言教	-10.213
馭者	-10.2132
鉢中	-10.2133
見王	-10.2134
現前	-10.2136
四面	-10.2138
於十方	-10.2139
住蘭若	-10.214
集聚	-10.2141
釋梵	-10.2142
彼國	-10.2145
高座	-10.2149
所致	-10.2158
不免	-10.2159
忿	-10.2163
婦言	-10.2177
度世	-10.2178
衛	-10.2181
剎利	-10.2187
孫	-10.2188
幢幡	-10.2189
軍眾	-10.2189
淨行	-10.2195
持此	-10.2202
王告	-10.2205
來詣	-10.2208
於未來世	-10.2208
鼈	-10.2214
具說	-10.2216
聽受	-10.2216
恕	-10.2218
補	-10.2219
毒龍	-10.222
輒	-10.222
牢獄	-10.2223
阿須倫	-10.2224
墮地獄	-10.2225
醫藥	-10.223
有德	-10.2231
閑居	-10.2237
第七	-10.2238
復告	-10.2239
皆盡	-10.2243
梵語	-10.2248
有一人	-10.2253
欲來	-10.2257
敷演	-10.226
種種莊嚴	-10.2264
極為	-10.2266
雷	-10.2269
化佛	-10.2274
次復	-10.2275
城外	-10.2278
妙好	-10.2286
寶物	-10.2293
即告	-10.23
所居	-10.2305
然後乃	-10.2306
親族	-10.2326
我意	-10.2326
他國	-10.2326
正明	-10.2335
時節	-10.2336
附	-10.2339
三尊	-10.234
真金	-10.2343
般若	-10.2345
公	-10.2345
今為	-10.2346
皆令	-10.235
度無極	-10.2351
無益	-10.2355
昏	-10.2356
為此	-10.2362
誘	-10.2363
闕	-10.2365
不惜身命	-10.2366
不盡	-10.2372
卷第四	-10.2373
聞說	-10.2375
惟願	-10.2376
魔王波旬	-10.2377
伏藏	-10.2378
無染	-10.2382
十方諸佛	-10.2385
輪轉	-10.2387
得是	-10.2387
天樂	-10.2388
摩尼婁陀	-10.2391
聖凡	-10.2393
王聞是語	-10.2396
舍衛	-10.2397
爾時大王	-10.2402
不異	-10.2403
不能自	-10.2405
船師	-10.241
過患	-10.2413
復還	-10.2416
同聲	-10.2416
滅除	-10.2418
拔濟	-10.2423
樹上	-10.2426
女言	-10.2426
有佛	-10.2434
作何	-10.2435
中道	-10.2437
弄	-10.2438
頌曰	-10.2439
省	-10.244
都無	-10.2443
。『	-10.2443
視之	-10.2445
欲以	-10.2447
非時	-10.2448
彼天	-10.2451
父子	-10.2458
捨此	-10.2463
為一	-10.2464
開悟	-10.2465
所修	-10.2466
提婆	-10.2474
卑	-10.2475
虛妄	-10.2484
有子	-10.2484
諸天世人	-10.2486
雄	-10.2494
嬈	-10.2494
所成	-10.2495
我此	-10.25
翅	-10.25
吼	-10.2505
教令	-10.2505
纔	-10.2506
法相	-10.2506
此比丘	-10.2508
當自	-10.2509
佛性	-10.2509
名為梵志	-10.2514
當觀	-10.2515
甘蔗	-10.2515
知彼	-10.2516
工巧	-10.252
纏蓋	-10.2521
祇	-10.2522
譬如有人	-10.2523
修崇	-10.2524
有二種	-10.2528
命終之後	-10.2529
成辦	-10.2531
歸家	-10.2534
逮得	-10.2539
其後	-10.254
如是次第	-10.2543
諸婇女	-10.2561
白淨王	-10.2567
常以	-10.2569
大婆羅門	-10.2571
無想	-10.2572
殺生	-10.2574
慈母	-10.2577
希	-10.2579
正真	-10.2586
無欲	-10.2591
慶	-10.2592
列	-10.2601
其夫	-10.2618
教法	-10.2619
是身	-10.2625
是童子	-10.2625
三惡道	-10.263
疲	-10.263
定慧	-10.2631
算	-10.2631
集會	-10.2632
有異	-10.2633
死人	-10.2635
之者	-10.2643
爭	-10.2644
流淚	-10.265
身口意	-10.2655
積聚	-10.2656
譬喻	-10.2658
慎莫	-10.2663
於是世尊	-10.2663
黑闇	-10.2665
誠實	-10.2666
審諦	-10.2669
攝受	-10.267
東西	-10.2671
其事云何	-10.2677
最初	-10.2681
迴還	-10.2682
大甲	-10.2682
故來	-10.2683
以一	-10.2686
有為	-10.2687
廢	-10.2687
即將	-10.2689
來詣佛所	-10.269
天上人中	-10.2691
舉手	-10.2693
?』」「	-10.2695
二十五	-10.2698
梵德王	-10.2698
莫能	-10.2715
弊惡	-10.2715
意不	-10.2718
常行	-10.2719
少壯	-10.2721
擾	-10.2723
三千	-10.2734
萬行	-10.2736
為汝	-10.274
講	-10.2745
色界	-10.2746
施為	-10.2752
即生	-10.2753
愛子	-10.2758
一切種智	-10.2759
然彼	-10.2767
法要	-10.2773
我聞	-10.2774
柱	-10.2776
無道	-10.2779
愍傷	-10.279
住在	-10.2791
度生	-10.2792
當於	-10.2795
喻佛	-10.2796
價	-10.2797
殊特	-10.2799
此諸	-10.2805
頭髮	-10.2807
自陳	-10.2808
家業	-10.2809
自投	-10.2809
化人	-10.281
死屍	-10.2813
法服	-10.2813
出離	-10.2815
諸三昧	-10.2816
獵	-10.2834
多種	-10.2835
妄心	-10.2836
彼此	-10.2841
豈不	-10.2843
受福	-10.2843
一百	-10.2847
障礙	-10.285
戒行	-10.2858
前進	-10.2863
疑惑	-10.2868
善本	-10.2875
斯陀含	-10.2877
善女人	-10.288
住世	-10.2888
覩見	-10.2894
及其	-10.2895
作佛	-10.2895
卷	-10.2902
少欲	-10.2906
遵	-10.2907
其命	-10.291
長壽	-10.2913
剃	-10.2916
入宮	-10.2916
不在	-10.2917
能使	-10.2918
我執	-10.2918
之患	-10.292
不止	-10.2923
曜	-10.2923
傾	-10.2924
段	-10.2932
護持	-10.2932
嗔	-10.2933
晨	-10.2935
意地	-10.2936
是大	-10.2937
活命	-10.2938
圍	-10.294
嗚呼我	-10.2942
少時	-10.2943
萬歲	-10.2944
月光	-10.2945
規	-10.2945
盧	-10.2946
斧	-10.2947
第六	-10.295
所念	-10.295
亦能	-10.2952
凡人	-10.2954
目揵連	-10.2957
佉	-10.296
值遇	-10.296
雖然	-10.2962
支分	-10.2963
諸人民	-10.2966
佛在舍衛國祇樹給孤獨園	-10.2973
必得	-10.2973
久遠	-10.2982
婬欲	-10.2983
以用	-10.2983
彼有	-10.2984
舉聲	-10.2989
憂悲	-10.2991
我若	-10.2996
形容	-10.2998
八者	-10.3001
乃往過去	-10.3003
在地	-10.3007
為善	-10.3012
那羅陀	-10.3015
得法眼淨	-10.3017
生大	-10.3021
最第一	-10.3021
而復	-10.3023
釋迦	-10.3031
不虛	-10.3038
是諸	-10.3042
以彼	-10.3042
鮮	-10.305
天雨	-10.3053
心所	-10.3054
欲為	-10.3065
此為	-10.3066
法故	-10.3071
自致	-10.3074
作惡	-10.3076
食訖	-10.3076
從其	-10.3077
髻	-10.3083
大富	-10.3083
倫	-10.3084
本生	-10.3086
身中	-10.3087
爛	-10.3089
驗	-10.3091
及比丘僧	-10.3092
溫	-10.3094
關	-10.3096
庫藏	-10.3102
瞻仰	-10.3106
御者	-10.3109
因緣故	-10.311
莊嚴其身	-10.3114
結加趺坐	-10.3119
非有	-10.312
深生	-10.3131
供養佛	-10.3135
如上所說	-10.3142
合會	-10.3143
喜樂	-10.3144
之眾	-10.3147
同時	-10.3151
身上	-10.3151
未盡	-10.3158
心懷歡喜	-10.3162
佛世界	-10.3172
為說法	-10.3173
觀彼	-10.3174
不喜	-10.3175
捨我	-10.3177
於先	-10.3177
以偈讚	-10.3179
如月	-10.3184
其數	-10.3202
或在	-10.3202
此亦如是	-10.3207
諸大臣	-10.3215
顯示	-10.3219
耶舍	-10.3222
黠	-10.323
謀	-10.3234
灌	-10.3235
微笑	-10.3239
後日	-10.3239
麥	-10.3245
正理	-10.3246
勒	-10.3252
安慰	-10.3253
不取	-10.3254
空閑	-10.3255
懃	-10.3256
槃	-10.3258
往古	-10.3258
愚惑	-10.3262
慰喻	-10.3265
有偈說	-10.3265
悔過	-10.3266
來到	-10.327
即從座起	-10.3273
他方	-10.3277
是故我今	-10.3279
三十六	-10.3283
非真	-10.3284
西方	-10.3285
開門	-10.3285
般涅槃後	-10.3287
智力	-10.329
知已	-10.3292
宣令	-10.3297
此二	-10.3305
汝所	-10.3306
梵天王	-10.3309
除其	-10.3317
如海	-10.3325
四王	-10.3326
當得作佛	-10.3332
歡悅	-10.3334
飛行	-10.3347
願佛	-10.3348
正是	-10.3348
二萬	-10.3353
行法	-10.3355
擎	-10.3357
然其	-10.3359
人命	-10.3363
咸共	-10.337
茲	-10.3377
妙色	-10.3389
所獲	-10.339
嘆	-10.3395
我本	-10.3398
后	-10.3401
)《	-10.3405
我今欲	-10.3411
頻	-10.3415
雲集	-10.3416
不獲	-10.3419
勸請	-10.3432
樂聞	-10.3438
敬禮	-10.3439
一切煩惱	-10.344
毛孔	-10.3441
四人	-10.3442
說是	-10.3448
求索出家	-10.3452
語彼	-10.3452
波羅㮈城	-10.346
有智	-10.3462
出生	-10.3465
是時菩薩	-10.3476
常樂	-10.3476
生起	-10.3478
不造	-10.3479
蔭	-10.3479
是何	-10.3479
未至	-10.3482
道中	-10.3487
花鬘	-10.3487
諸苾芻	-10.3487
立名	-10.3489
惡法	-10.3489
則有	-10.3492
遷	-10.3497
義理	-10.3504
為首	-10.351
此非	-10.3512
統	-10.3513
眾善	-10.3517
得阿羅漢	-10.3521
知是	-10.3521
作諸	-10.3522
白世尊	-10.3532
甚多	-10.3535
而死	-10.3535
火坑	-10.3536
唯佛	-10.3539
妖	-10.354
此地	-10.3545
太山	-10.3547
右脇	-10.355
秋	-10.3551
太	-10.3551
風雨	-10.3554
偶	-10.3554
亦是	-10.3558
戀慕	-10.3559
百年	-10.3559
周旋	-10.3562
猪	-10.3563
陵	-10.3566
三途	-10.3566
為佛作禮	-10.3569
容貌	-10.3573
信敬	-10.3574
分衛	-10.3574
諸功德	-10.3575
善巧方便	-10.3583
花果	-10.3584
我曹	-10.3588
開解	-10.3589
無始	-10.3589
八十	-10.3592
善聽	-10.3609
師子座	-10.3615
欲知爾時	-10.362
得不退轉	-10.3625
戶	-10.3629
垢染	-10.3629
沙門婆羅門	-10.3651
難遇	-10.3653
生已	-10.3656
無動	-10.3656
一面	-10.3656
平正	-10.3664
病者	-10.3666
問佛	-10.3667
場	-10.3671
明了	-10.3671
日出	-10.3672
誰有	-10.3674
便當	-10.3684
不順	-10.3686
此頌	-10.3688
凶	-10.3689
時佛	-10.3689
捨去	-10.369
更不	-10.37
病人	-10.37
蘭	-10.3701
今在	-10.3702
過失	-10.3703
縷	-10.3711
當與	-10.3712
千歲	-10.3712
吾欲	-10.3714
不殺	-10.3718
踐	-10.3718
聞王	-10.3723
然此	-10.3727
虎狼	-10.3728
一分	-10.3728
衣裳	-10.3729
一乘	-10.3732
其形	-10.3733
申	-10.3734
不息	-10.3735
呪術	-10.3737
足下	-10.3744
復有一佛號	-10.3748
血肉	-10.3751
水邊	-10.3754
不祥	-10.3756
讚佛	-10.3758
淨戒	-10.3759
之家	-10.3764
何用	-10.3768
九十	-10.3769
取其	-10.3769
或為	-10.3773
而此	-10.3773
摩伽陀國	-10.3774
立願	-10.3774
焚燒	-10.3776
得生	-10.378
受我	-10.3782
。』『	-10.3793
若使	-10.3793
寶塔	-10.3796
竹園	-10.3799
出要	-10.3799
受生	-10.3804
佛在	-10.3814
車乘	-10.3814
一切大眾	-10.382
出家者	-10.3832
顏貌	-10.3833
置於	-10.3836
為師	-10.3838
澡	-10.3853
具以	-10.3856
堅牢	-10.3858
還入	-10.3866
結勸	-10.3866
樹林	-10.3868
光照	-10.3869
復為	-10.387
汝身	-10.3876
策	-10.3876
鎧	-10.3882
掌	-10.3882
虫	-10.3883
昔者	-10.3889
憙	-10.3889
萬法	-10.3891
掘	-10.3892
祀	-10.3893
本國	-10.3898
所食	-10.3898
為樂	-10.3901
聖師	-10.3901
喜悅	-10.3901
大光明	-10.3903
阿僧祇劫	-10.3907
卷第五	-10.3913
相與	-10.3913
五慾	-10.3918
欲心	-10.3919
當生	-10.3926
何能	-10.3928
復有一	-10.3929
王意	-10.393
》(	-10.3936
四句	-10.3942
聖賢	-10.3944
海神	-10.3948
入涅槃	-10.3948
常當	-10.3955
不觀	-10.3959
當念	-10.3962
其一	-10.3963
瓦師	-10.3964
出家得道	-10.3968
祠	-10.3969
而還	-10.397
皆大歡喜	-10.3974
身不	-10.3984
稟	-10.3985
如來世尊	-10.3986
第一義	-10.3987
魔眾	-10.3988
於如來	-10.3988
又有	-10.3995
昇天	-10.3997
即取	-10.401
諸比丘等	-10.4013
語已	-10.4016
沙門瞿曇	-10.4018
以種種	-10.4018
啼	-10.4019
一切諸法	-10.4021
復語	-10.4023
泉水	-10.4024
我今已	-10.4034
作此	-10.4036
盛滿	-10.4037
三人	-10.4037
生歡喜	-10.404
王家	-10.4042
刃	-10.4042
賓	-10.4044
參	-10.4046
或有眾生	-10.4047
雇	-10.4051
誅	-10.4052
食噉	-10.4053
肥	-10.4053
賀	-10.4055
願王	-10.4055
整	-10.4055
說經	-10.4056
頗梨	-10.406
講堂	-10.406
罵詈	-10.406
至于	-10.4061
剎那	-10.4061
明珠	-10.4063
五種	-10.4063
選	-10.4063
拏	-10.4064
矜	-10.4066
或復有	-10.4069
善知	-10.407
九十一劫	-10.407
所作已辦	-10.4073
真人	-10.4074
散亂	-10.4074
論議	-10.4077
下生	-10.4081
斯那	-10.4084
時天帝釋	-10.4087
離苦	-10.4092
汝何	-10.4093
即復	-10.4095
山澤	-10.4096
於菩薩	-10.4098
徒眾	-10.4098
汝等諦聽	-10.4099
大梵天王	-10.4101
彼修行人	-10.4102
如如	-10.4113
之上	-10.4122
十九	-10.4127
捨於	-10.4135
來入	-10.4137
白菩薩言	-10.4138
護世	-10.4139
坐於	-10.414
令住	-10.414
無限	-10.4142
天龍	-10.4148
之日	-10.4151
多羅	-10.4151
㲲	-10.4153
波羅㮈	-10.4155
從何	-10.4157
大慈悲	-10.4163
王有	-10.4167
無實	-10.4169
自巳	-10.417
重擔	-10.4172
奉迎	-10.4173
我父	-10.4173
亦不能	-10.4175
誨	-10.4177
母人	-10.418
譽	-10.4186
變成	-10.4187
以何	-10.4194
爾時世尊告	-10.4199
修施	-10.42
樹枝	-10.42
其間	-10.42
為喻	-10.4202
即遣	-10.4203
童	-10.4204
如是事	-10.4204
身為	-10.4206
倚	-10.4207
自有	-10.4209
夷	-10.4209
與其	-10.4209
酷	-10.4211
漂	-10.4212
久住	-10.4212
功勳	-10.4217
荒	-10.4219
塔寺	-10.4219
佛弟子	-10.422
揀	-10.4221
嗟歎	-10.4225
叵	-10.423
是彼	-10.4232
却後七日	-10.4232
無量阿僧祇	-10.4232
羸瘦	-10.4232
空寂	-10.4239
疲極	-10.424
得須陀洹道	-10.4241
醜陋	-10.4242
六種震動	-10.4242
奈何	-10.4246
福者	-10.4248
那由他	-10.425
六通	-10.4263
悉達太子	-10.4264
池中	-10.4266
於長夜	-10.4267
終不捨離	-10.4268
糞穢	-10.4269
種種諸	-10.4269
是時世尊	-10.4271
覩之	-10.4272
於生死	-10.4273
王勅	-10.4277
園觀	-10.4278
辦具	-10.4294
升	-10.4296
慧眼	-10.4297
告諸	-10.4299
妙音	-10.4302
六萬	-10.4309
若復	-10.4312
二百五十	-10.4323
所趣	-10.433
不以為	-10.4332
甲	-10.4336
問之	-10.4344
觀者	-10.4355
學者	-10.4355
能行	-10.4355
究	-10.4358
金輪	-10.4362
只	-10.4369
陷	-10.4373
婿	-10.4377
蕩	-10.4379
揚	-10.438
洲	-10.4384
即從	-10.4385
耆	-10.4387
更復	-10.4388
自說	-10.4389
發意	-10.4392
維	-10.4392
到彼	-10.4393
薰	-10.4396
身肉	-10.4396
祇洹	-10.4402
逼迫	-10.4403
稽首佛足	-10.4405
螺	-10.4405
悕望	-10.4405
希望	-10.4408
姊妹	-10.441
聖諦	-10.4411
出外	-10.4414
無所乏少	-10.4417
調御	-10.4422
於阿耨多羅三藐三菩提	-10.4426
之功	-10.4429
悉能	-10.4429
發是願	-10.4431
以神通力	-10.4436
大苦	-10.4436
世有	-10.4439
降魔	-10.444
之業	-10.4441
十地	-10.4441
諸子	-10.4443
人心	-10.4443
終身	-10.4445
使得	-10.4447
初句	-10.4452
觀其	-10.4455
大歡喜	-10.4458
來至佛所	-10.446
種善根	-10.4461
汝是	-10.447
於佛前	-10.4475
娑羅	-10.4483
五根	-10.4484
授與	-10.4485
檀度	-10.4488
王及	-10.4491
誦經	-10.4495
猶不	-10.4498
若以	-10.45
昨夜	-10.4509
無色	-10.4514
所依	-10.4522
展轉相	-10.4523
善淨	-10.4538
無緣	-10.454
十方世界	-10.4541
佛知	-10.4545
出遊	-10.4546
過去諸佛	-10.4546
得出家	-10.4547
如故	-10.455
柔	-10.4551
汝於	-10.4552
飽	-10.4552
餓	-10.4554
來此	-10.4559
單	-10.4561
蹈	-10.4563
化身	-10.4563
融	-10.4565
賞	-10.4565
作轉輪聖王	-10.4566
雹	-10.4567
覺寤	-10.4569
練	-10.457
正行	-10.4571
濕	-10.4573
仁今	-10.4573
茂	-10.4573
尼揵	-10.4574
席	-10.4574
咽	-10.4575
口中	-10.4575
毫	-10.458
到彼岸	-10.458
其樹	-10.4581
能解	-10.4586
便以	-10.4587
村落	-10.4587
真心	-10.4592
所逼	-10.4592
厭患	-10.4593
六波羅蜜	-10.4604
護明菩薩	-10.4607
是法	-10.4608
正定	-10.4615
行來	-10.4627
躬自	-10.4629
大樹	-10.4629
普照	-10.4633
所住	-10.4641
冠	-10.4646
波羅奈	-10.4647
因此	-10.465
賢劫	-10.465
賈客	-10.466
守戒	-10.4666
是則	-10.467
即出	-10.4671
見佛世尊	-10.4671
善解	-10.4674
三歸	-10.4674
道果	-10.4676
門戶	-10.4679
善男	-10.468
科	-10.4686
其罪	-10.4693
宮人	-10.4699
乞求	-10.4706
泣	-10.4708
飽滿	-10.4717
禮佛	-10.4718
尊貴	-10.4721
以善	-10.4723
即共	-10.4724
天中	-10.4724
所著	-10.4728
險	-10.4729
裹	-10.4729
垢穢	-10.4731
云何為	-10.4732
質	-10.4733
在後	-10.4735
鵝	-10.4738
如是思惟	-10.4739
敘	-10.474
屠	-10.474
玄	-10.4742
罰	-10.4745
五通	-10.4746
諂	-10.4747
振	-10.4748
預	-10.4751
牆	-10.4753
寬	-10.4754
曼	-10.4757
如是言	-10.4758
惡言	-10.4759
此語	-10.4761
琴	-10.4761
釋子	-10.4762
侍衛	-10.4762
形貌	-10.4763
文殊師利	-10.4764
得須陀洹	-10.4766
荊棘	-10.4768
所由	-10.4769
卷第二	-10.477
亦應	-10.477
衰老	-10.4771
開敷	-10.4771
見太子	-10.4776
訖已	-10.4777
穢濁	-10.4779
妙香	-10.4786
無上道	-10.4786
靜住	-10.4792
之尊	-10.4797
妙寶	-10.4798
頂生王	-10.4799
於諸法中	-10.4802
愁惱	-10.4802
此大沙門	-10.4803
惡友	-10.4803
苦哉	-10.4803
』	-10.4804
常有	-10.4813
不可計	-10.4825
諮	-10.4831
二事	-10.4833
老病	-10.4835
之具	-10.4838
安止	-10.4843
禮敬	-10.4844
遠來	-10.4863
利樂	-10.4864
復當	-10.4867
瘦	-10.4868
道法	-10.4868
谷	-10.4873
四等	-10.4876
值佛	-10.4877
願見	-10.4877
大劫	-10.4883
顯現	-10.4883
王今	-10.4886
得阿耨多羅三藐三菩提	-10.4889
長生	-10.4891
行布施	-10.4891
不當	-10.4893
警	-10.4896
見聞	-10.49
搖	-10.4909
動搖	-10.491
豈可	-10.4915
城邑	-10.4923
據	-10.4923
卷第三	-10.4923
乳糜	-10.4923
嶮	-10.4924
戴	-10.4928
六入	-10.493
麻	-10.4931
項	-10.4932
從我	-10.4932
退轉	-10.4932
兜率天	-10.4934
攝取	-10.4936
諸菩薩等	-10.4936
總結	-10.4936
嫁	-10.4937
塚間	-10.4938
華鬘	-10.4938
扇	-10.4938
拂	-10.4938
緩	-10.4939
尸利毱多	-10.4939
欣然	-10.494
信解	-10.494
辛苦	-10.4941
閑靜	-10.4942
澡浴	-10.4942
之名	-10.4946
欺誑	-10.4949
猶彼	-10.495
三明六通	-10.4954
誠諦	-10.4956
如上	-10.4959
母胎	-10.496
共為	-10.4962
最大	-10.4962
長養	-10.4963
慈仁	-10.4964
尸棄如來	-10.4966
言辭	-10.4967
捨棄	-10.4967
諸結使	-10.4967
啼泣	-10.4972
出家修道	-10.4973
無量無邊阿僧祇	-10.4976
若干種	-10.4978
欲知彼時	-10.4979
引導	-10.4981
佛便	-10.4982
觀見	-10.4988
國師	-10.499
聲聞弟子	-10.499
無所依	-10.4991
醜	-10.4992
之罪	-10.4996
追求	-10.4997
柔和	-10.4998
我於今者	-10.4999
善巧	-10.5
然燈	-10.5003
辟支	-10.5004
意解	-10.5004
智者所	-10.5006
不變	-10.5007
大沙門	-10.5008
修集	-10.501
之難	-10.501
大象	-10.5021
邪道	-10.5035
施者	-10.5041
無縛	-10.5041
隨喜	-10.5046
契	-10.5049
猛火	-10.5057
祭祀	-10.506
居家	-10.5063
而告之	-10.5066
何有	-10.5069
舉國	-10.5073
曠	-10.5079
忘失	-10.5081
聽之	-10.5102
銷	-10.5105
此間	-10.5106
氏	-10.5108
寢	-10.5112
作一	-10.5113
阿那律	-10.5113
令汝	-10.5114
悴	-10.5116
初二句	-10.5116
優曇	-10.5116
阿闍世王	-10.5117
涼	-10.5117
覩佛	-10.5118
饌	-10.5118
官屬	-10.5119
巳竟	-10.5121
白淨	-10.5122
貧賤	-10.5123
棄捐	-10.5124
財貨	-10.5126
煖	-10.5127
甚可	-10.5128
天龍鬼神	-10.513
香潔	-10.5131
卷第一	-10.5133
摩訶波闍波提	-10.5134
頭面作禮	-10.5135
消除	-10.5137
十千	-10.5137
與此	-10.514
隋天竺三藏闍那崛多譯	-10.5143
受請	-10.5143
既至	-10.5144
又以	-10.5144
瞿曇沙門	-10.5147
緣是	-10.515
種諸善根	-10.5152
為之	-10.5154
不隨	-10.5154
變為	-10.5163
能自	-10.5164
時彼城中	-10.5174
治化	-10.5176
問彼	-10.5177
弓箭	-10.5177
心即	-10.518
欲知	-10.5187
大道	-10.5187
求哀	-10.5188
咸皆	-10.5189
較	-10.5191
有餘	-10.5191
慈者	-10.5195
大迦葉	-10.5196
所說法	-10.5213
佛與	-10.5216
便自	-10.5219
如似	-10.522
乃可	-10.5224
專心	-10.5225
諸結	-10.5233
念佛	-10.5236
善生	-10.5238
假若	-10.5243
取之	-10.5251
惡者	-10.5252
虗	-10.5257
施行	-10.5259
等者	-10.5267
則我身是	-10.5268
淨心	-10.527
未來世	-10.527
般	-10.527
之想	-10.5271
得生天上	-10.5271
自覺	-10.5272
兩目	-10.5273
十萬	-10.5278
卷第十	-10.5278
於眾生	-10.5281
邑	-10.5284
幼	-10.5286
但當	-10.5288
得福	-10.5293
歇	-10.5293
王有子	-10.5294
鈎	-10.5297
娉	-10.5299
隆	-10.5302
摩耶	-10.5303
瓦石	-10.5303
姦	-10.5303
盈	-10.5304
法眼	-10.5305
殖	-10.5305
乞匃	-10.5307
出水	-10.5307
四十里	-10.5308
阿夷	-10.5309
阿僧祇	-10.531
繼	-10.5311
惶怖	-10.5312
人乎	-10.5314
之士	-10.5316
快哉	-10.5319
戲笑	-10.5322
而說頌曰	-10.5326
誑惑	-10.5328
修福	-10.533
請佛及僧	-10.533
昔日	-10.5336
前行	-10.5338
隣國	-10.5341
百劫	-10.5342
不說	-10.5344
樂者	-10.5344
何事	-10.5345
安庠	-10.5346
不亂	-10.5354
堪受	-10.5357
而用	-10.5369
為法	-10.5373
四兵	-10.5375
叉手合掌	-10.5379
以佛	-10.5382
世尊告諸比丘	-10.5386
無形	-10.5391
誰當	-10.5393
施主	-10.5394
眼目	-10.5395
其德	-10.5398
非我	-10.5409
波羅蜜多	-10.5411
歌舞	-10.5413
未及	-10.5425
無非	-10.5437
求法	-10.5439
是非	-10.5442
祐	-10.5445
諸大眾	-10.5448
斷諸	-10.5451
於一	-10.5453
何人	-10.5461
若在	-10.5467
過去久遠	-10.5468
與王	-10.5469
二俱	-10.5472
長者家	-10.5474
何由	-10.5475
跳	-10.5475
照曜	-10.5476
則能	-10.5476
何益	-10.5476
忠	-10.5481
丈	-10.5482
無一	-10.5484
正智	-10.5484
訶	-10.5485
王后	-10.5485
舟	-10.5485
現行	-10.5486
速證	-10.5486
操	-10.5487
軀	-10.5487
武	-10.5489
舅	-10.549
第五	-10.5492
法衣	-10.5494
突	-10.5495
利刀	-10.5496
苑	-10.5496
良醫	-10.5497
沸	-10.5497
債	-10.5497
羞	-10.5498
貧乏	-10.5499
惡口	-10.55
照明	-10.5502
無福	-10.5503
亦皆	-10.5504
滯	-10.5504
得成阿耨多羅三藐三菩提	-10.5509
戒定慧	-10.5511
後生	-10.5511
捐棄	-10.5514
床座	-10.5522
速得	-10.5527
五穀	-10.5529
求菩提	-10.5529
王女	-10.5529
樓閣	-10.5529
如山	-10.5531
度無極行	-10.5531
娑婆世界	-10.5532
香水	-10.5532
食者	-10.5532
想念	-10.5533
故為	-10.5534
禰	-10.5536
身形	-10.5539
便成沙門	-10.554
釋迦牟尼如來	-10.554
一偈	-10.554
我故	-10.5554
一切諸佛	-10.5558
然既	-10.556
入地獄	-10.5561
意在	-10.5562
汁	-10.5563
不達	-10.5564
當共	-10.5565
攻	-10.5567
我能	-10.5573
今復	-10.5574
利根	-10.5575
我從	-10.5579
年老	-10.5579
使令	-10.5588
香氣	-10.5589
將諸比丘	-10.5589
門外	-10.5596
寶車	-10.5601
毘舍	-10.5604
無知	-10.5605
皆生	-10.5607
求佛	-10.5608
嚴淨	-10.5609
受彼	-10.5612
而問之	-10.5612
迦葉如來	-10.5625
欲害	-10.5625
之果	-10.5626
馬王	-10.5635
樂法	-10.5637
持鉢	-10.564
求食	-10.5641
而問	-10.5644
云何名為	-10.5651
其兒	-10.5653
貌	-10.5655
滿月	-10.5658
所證	-10.5658
愛心	-10.5661
濟度	-10.5661
六道	-10.5662
伎	-10.5664
人者	-10.5667
處世	-10.5673
徵	-10.5674
耆闍崛山	-10.5674
奮	-10.5675
雀	-10.5676
第十	-10.5681
妙果	-10.5682
賢善	-10.5683
至世尊所	-10.5685
穴	-10.5687
聞太子	-10.5688
譏	-10.569
昔者菩薩	-10.5692
圓寂	-10.5706
常念	-10.571
覩其	-10.571
修治	-10.571
發大	-10.5714
眾病	-10.5722
入城乞食	-10.5723
即從坐起	-10.5725
為眾生	-10.5727
念曰	-10.5728
之人亦復如是	-10.5731
兜術天	-10.5734
能與	-10.5736
隨其所	-10.5737
其志	-10.5741
悲鳴	-10.5744
水火	-10.575
飲水	-10.575
不害	-10.5754
子孫	-10.5754
而為說法	-10.5754
放光	-10.5755
鬚髮	-10.5759
若彼	-10.5762
大王當知	-10.5763
不修	-10.5763
群鹿	-10.5765
五親	-10.5765
五趣	-10.5767
孝順	-10.5773
盡其	-10.5773
不至	-10.5777
止住	-10.5781
端坐	-10.5795
不堅	-10.5797
我者	-10.5799
住此	-10.5802
天冠	-10.5802
騎	-10.5809
一由旬	-10.581
此偈	-10.5812
悲哀	-10.5817
無患	-10.5818
滋	-10.582
百歲	-10.582
然我	-10.5822
兩手	-10.5827
摩竭	-10.5828
如大	-10.5828
不入	-10.5831
塵土	-10.5834
凡有	-10.5838
毒害	-10.5838
天主	-10.5842
或能	-10.5845
梵音	-10.5845
善意	-10.5846
不愛	-10.5848
自活	-10.585
水牛	-10.5857
是知	-10.5857
佛前	-10.5863
答王言	-10.5863
宮門	-10.5864
報彼	-10.5865
南方	-10.5866
江	-10.587
苦患	-10.5874
若有人	-10.5874
最尊	-10.5875
逃	-10.5875
阿羅漢者	-10.5876
師曰	-10.5876
以偈報	-10.5876
汝之	-10.588
進修	-10.5882
俱夷	-10.5882
懺	-10.5883
作福	-10.5884
微塵	-10.5884
燭	-10.5884
當體	-10.5885
壓	-10.5885
十惡	-10.5885
華果	-10.5887
洪	-10.5887
意識	-10.5887
幡	-10.5887
如火	-10.5889
􂌞	-10.589
諸神	-10.5894
求之	-10.5895
煮	-10.5897
自由	-10.5898
芽	-10.5898
得羅漢	-10.5902
仍	-10.5903
實無	-10.5903
爪	-10.5905
疊	-10.5905
不成	-10.5906
彼眾生	-10.5908
諸佛世界	-10.5908
晉言	-10.591
是真	-10.5914
怪哉	-10.5915
今生	-10.5916
輕慢	-10.5917
聞是偈已	-10.5918
作倡伎樂	-10.5919
療治	-10.592
合十指掌	-10.5925
十七	-10.5925
寧可	-10.5925
隨機	-10.5925
世樂	-10.5931
十二因緣	-10.5933
當還	-10.5935
雅	-10.5936
不移	-10.5936
以我	-10.5936
衣鉢	-10.5939
有七	-10.594
下賤	-10.594
離垢	-10.5946
所樂	-10.5946
而至	-10.5947
未見	-10.5948
若是	-10.5948
去來	-10.5951
?」「	-10.5954
著於	-10.5955
婆羅門等	-10.5957
諸方	-10.596
時至	-10.596
實語	-10.5975
金色王	-10.5981
必欲	-10.5981
即知	-10.5984
得之	-10.5986
常懷	-10.5987
之女	-10.5989
方所	-10.5997
學問	-10.6
厄難	-10.6001
宿世	-10.6003
入道	-10.601
愍念	-10.601
欲度	-10.601
有婆羅門	-10.6013
有一婆羅門	-10.6016
而立	-10.6029
為因	-10.6033
愧	-10.6036
高下	-10.6041
諸沙門	-10.6056
禮佛足	-10.6057
而欲	-10.606
超越	-10.6062
取水	-10.6062
欲出家	-10.6066
兜率	-10.6068
於太子	-10.6072
將此	-10.608
麗	-10.6087
餅	-10.6087
鉤	-10.6092
天魔	-10.6094
翔	-10.6096
憑	-10.6096
萬民	-10.6099
脊	-10.6102
諸業	-10.6104
貴賤	-10.6104
衛護	-10.6106
捧	-10.6106
無所罣礙	-10.6107
佛經	-10.611
明旦	-10.611
止觀	-10.6111
服飾	-10.6113
婆伽婆	-10.6114
無病	-10.6115
正路	-10.6116
奉獻	-10.6116
迴向	-10.6122
斯人	-10.6123
右膝著地	-10.6123
非但今日	-10.6124
謂之	-10.6126
知時	-10.6128
汝莫	-10.613
為眾	-10.6132
大悲心	-10.6132
賢者阿難	-10.6133
各相謂言	-10.6133
讀誦	-10.6137
唯願大王	-10.6148
皆以	-10.6148
與佛	-10.6151
萎	-10.6154
親屬	-10.6156
有大威德	-10.6161
其名	-10.6164
福樂	-10.6169
無可	-10.6178
染污	-10.6178
非一	-10.6181
燈明	-10.6181
迴轉	-10.6182
佛果	-10.6182
大人	-10.6182
眾星	-10.6182
百味	-10.6182
皆言	-10.6189
命盡	-10.619
獨坐	-10.619
隨我	-10.62
得成佛	-10.6203
如雲	-10.6203
不疑	-10.6207
不絕	-10.6209
為世	-10.6212
惡知識	-10.6217
有世界名	-10.622
化成	-10.6221
說此偈	-10.6221
既無	-10.6229
地上	-10.623
有五	-10.6239
正受	-10.6242
得未曾有	-10.6242
供養父母	-10.6243
令諸	-10.6245
諸童子	-10.6246
思想	-10.625
正觀	-10.6251
毘沙門	-10.6252
是時太子	-10.6254
斷一切	-10.6254
得已	-10.6255
敬心	-10.6255
一毛	-10.6256
恭	-10.6256
世之	-10.6258
為難	-10.6269
永盡無餘	-10.6271
摩耶夫人	-10.6273
疑網	-10.6276
復來	-10.6279
復於	-10.628
常得	-10.628
或言	-10.6282
因是	-10.6283
道行	-10.6286
注	-10.6288
無障礙	-10.6288
何如	-10.629
投身	-10.6291
人壽	-10.6293
司	-10.6295
行十善	-10.6297
姿	-10.6299
真諦	-10.6301
叩頭	-10.6302
剃髮	-10.6302
而後	-10.6303
苟	-10.6304
閻浮提內	-10.6305
織	-10.6307
蜂	-10.6307
寂默	-10.6311
就座	-10.6312
渴仰	-10.6313
剝	-10.6313
自當	-10.6314
膿血	-10.6314
云何得	-10.6315
甲冑	-10.6315
未知	-10.6317
紹	-10.6318
黑暗	-10.6319
卒暴	-10.6319
得戒	-10.6319
不堪	-10.632
飢餓	-10.6321
多人	-10.6322
復能	-10.6324
無害	-10.6329
所害	-10.633
金銀珍寶	-10.6331
思惟是已	-10.6331
無以	-10.6331
奉持	-10.6332
敬重	-10.6332
法財	-10.6332
壞敗	-10.6332
章句	-10.6335
不興	-10.6335
生活	-10.6336
世尊告	-10.6337
念已	-10.6337
水草	-10.6337
年漸長大	-10.6337
歎言	-10.6338
作佛事	-10.6339
結顯	-10.634
虗空	-10.634
面目	-10.6341
善者	-10.6341
威光	-10.6344
彼林	-10.6347
阿羅訶	-10.6348
善住	-10.6349
苦厄	-10.635
長跪叉手	-10.6354
眾生故	-10.6355
四姓	-10.6359
得安樂	-10.636
安詳	-10.6362
精神	-10.6364
於是世尊即	-10.6365
心淨	-10.6367
妙行	-10.6367
佛時	-10.6367
除諸	-10.6371
何等為	-10.6372
修苦行	-10.6376
佛法僧	-10.6377
皆使	-10.638
大意	-10.6383
佛邊	-10.6384
我於彼時	-10.6386
勝德	-10.6386
後時	-10.639
彼城	-10.6393
又曰	-10.6395
聞知	-10.6396
學人	-10.6402
啟王	-10.6402
宗族	-10.6402
坐臥	-10.6406
但以	-10.6407
自相	-10.6407
戒德	-10.6416
謂佛	-10.6423
不惜	-10.6423
癡人	-10.6437
何也	-10.6441
曜經	-10.6442
捨身命	-10.6445
得安隱	-10.6445
經法	-10.6452
我願	-10.6457
獲福	-10.6459
以智	-10.646
地獄中	-10.646
汝應	-10.6464
諸眾生故	-10.6468
如風	-10.6471
於諸眾生	-10.6476
枚	-10.6476
千萬	-10.648
願為	-10.6482
諸商人	-10.6486
既云	-10.6493
實有	-10.6493
自他	-10.6495
赦	-10.6496
會中	-10.6496
悉知	-10.6497
讓	-10.6502
腰	-10.6511
四德	-10.6512
溝	-10.6512
老人	-10.6516
而不能	-10.6518
安處	-10.652
兩舌	-10.6521
恚怒	-10.6521
獨自	-10.6521
萬二千	-10.6521
炭	-10.6522
伸	-10.6523
坌	-10.6524
禁制	-10.6525
湛然	-10.6526
迦旃延	-10.653
下至	-10.653
知恩報恩	-10.653
果蓏	-10.6531
我與	-10.6532
一時佛在舍衛國祇樹給孤獨園	-10.6532
呵責	-10.6534
恣意	-10.6535
慳悋	-10.6537
豪貴	-10.6542
前後圍遶	-10.6543
撲	-10.6545
而起	-10.6545
我雖	-10.6549
形相	-10.655
香美	-10.6553
甚懷	-10.6554
恒河沙數	-10.6556
皆如	-10.656
喻中	-10.6566
仙人言	-10.6568
所問	-10.6571
當行	-10.6574
為菩薩時	-10.6575
奉佛	-10.6575
善妙	-10.6576
退失	-10.6577
無價	-10.6584
狐	-10.6594
佛復	-10.6604
初生	-10.6607
盡皆	-10.6613
非為	-10.6616
各各自	-10.6621
汝今何故	-10.6623
竹	-10.6628
皆空	-10.6629
流通	-10.6631
應感	-10.6638
剛	-10.6642
又如	-10.6645
唯見	-10.6655
依法	-10.6659
已斷	-10.6662
大山	-10.6663
意樂	-10.6665
吏	-10.6667
即答言	-10.6674
憎	-10.6676
火然	-10.6683
夫主	-10.6687
鈴	-10.6691
欲殺	-10.6691
樂欲	-10.6692
一切菩薩	-10.6692
故不	-10.6693
雜寶	-10.6697
何物	-10.6701
假令	-10.6703
此名	-10.6704
國主	-10.6704
自生	-10.6704
然燈佛	-10.6706
當見	-10.6707
炙	-10.6713
僕	-10.6716
修因	-10.6717
二十八	-10.6719
向者	-10.6719
一切諸天	-10.6722
陽	-10.6724
冀	-10.6724
羅摩	-10.6725
以偈答	-10.6726
吾身是也	-10.6727
寡	-10.6727
一月	-10.6728
乖	-10.6728
澄	-10.6729
輿	-10.6731
利劍	-10.6732
告語	-10.6733
促	-10.6734
後身	-10.6735
醯	-10.6739
薩薄	-10.6739
伊	-10.674
拳	-10.6741
瞿	-10.6742
一食	-10.6744
所感	-10.6745
湯藥	-10.6745
當用	-10.6746
巷	-10.6746
枉	-10.6746
縱廣	-10.6746
發言	-10.6746
電	-10.6747
戰鬪	-10.6747
盲父母	-10.6747
傍臣	-10.6748
東西南北	-10.6748
既聞	-10.6748
消息	-10.6751
一劫	-10.6754
勝者	-10.6755
如蛇脫故皮	-10.6756
在在處處	-10.6758
能忍	-10.6759
無垢性	-10.676
是等	-10.6761
共相娛樂	-10.6761
成阿羅漢	-10.6765
瑕穢	-10.6766
一種	-10.6767
瞻視	-10.6768
娑毘耶	-10.6769
正法住世	-10.6769
具八解脫	-10.6771
世間人	-10.6771
諸力士	-10.6772
此城	-10.6772
離別	-10.6772
教化眾生	-10.6774
波利	-10.6774
可知	-10.6776
納受	-10.6777
自證	-10.6779
法服著身	-10.6782
佛土中	-10.6783
慧命	-10.6784
宿殖何福	-10.6785
亦復然	-10.6786
五逆	-10.6788
受身	-10.6789
尊敬	-10.679
貨	-10.6793
測	-10.6795
觀也	-10.6795
驚怪	-10.6796
有疑	-10.6796
二十九	-10.6798
善人	-10.6799
降神	-10.68
幡蓋	-10.6805
行七步	-10.6815
車馬	-10.6815
即語	-10.6816
三百	-10.682
難量	-10.6824
瑞相	-10.6825
眾鳥	-10.6827
花香	-10.6827
妙覺	-10.6828
教人	-10.6829
隨意所	-10.6832
往至佛所	-10.6832
其中眾生	-10.6839
汝等今者	-10.6842
無學	-10.6843
餘處	-10.6843
有信	-10.6844
白銀	-10.6851
憂陀	-10.6852
亦得	-10.6854
受罪	-10.6854
父言	-10.6858
終日	-10.686
形像	-10.686
諸眷屬	-10.6862
心故	-10.6864
羅云	-10.6868
本行	-10.6875
無量劫	-10.6877
得如是	-10.6878
諸世間	-10.6879
能度	-10.6885
便可	-10.6886
度生死	-10.6886
妬	-10.689
善道	-10.6897
此苦	-10.6899
最妙	-10.6902
潔	-10.6904
悲心	-10.6912
厭惡	-10.6913
信受	-10.6914
行惡	-10.6917
有一比丘	-10.6918
今世	-10.6924
生死苦	-10.693
彰	-10.693
摩訶那摩	-10.6931
又言	-10.694
我法	-10.6941
匠	-10.6946
潛	-10.6947
夫言	-10.6947
居處	-10.6948
不假	-10.6949
鞭	-10.6949
估客	-10.6953
抂	-10.6954
問之言	-10.6954
諾	-10.6955
否	-10.6956
求願	-10.6956
賴吒和羅	-10.6957
壍	-10.6957
頰	-10.6957
妨	-10.6959
幽冥	-10.6959
肆	-10.696
恥	-10.6961
良藥	-10.6961
盤	-10.6961
欽	-10.6962
右旋	-10.6963
掩	-10.6964
植	-10.6965
憍尸迦	-10.6967
車匿言	-10.6968
藍	-10.6969
愚冥	-10.697
悶絕	-10.6971
疲勞	-10.6973
即向	-10.6973
十者	-10.6975
作何等	-10.6975
調順	-10.6977
聖后	-10.6977
之體	-10.6977
付囑	-10.6981
增減	-10.6982
習行	-10.6983
遶佛三匝	-10.6983
內自思惟	-10.6984
在大眾中	-10.6986
復欲	-10.6986
惡鬼	-10.699
大喜	-10.6992
之辭	-10.6992
頗有	-10.6997
業障	-10.6998
還得	-10.6998
勞苦	-10.6998
豐樂	-10.6998
安坐	-10.6999
妙華	-10.7
夜半	-10.7
獲益	-10.7
六情	-10.7002
土地	-10.7005
池水	-10.7006
竹林	-10.7007
放捨	-10.7007
石室	-10.7007
數千	-10.701
所有一切	-10.7014
已後	-10.7015
未久	-10.7017
有福	-10.702
既到	-10.7021
何法	-10.7028
令此	-10.7031
甘露法	-10.7032
九者	-10.7034
與人	-10.7035
金山	-10.7035
欲取	-10.7042
小乘	-10.7043
眾事	-10.7047
大聖太子	-10.7048
當為汝說	-10.7054
更求	-10.7054
親愛	-10.7058
執著	-10.7067
百種	-10.707
可意	-10.7071
怙	-10.7077
平復	-10.7077
福利	-10.7084
俱生	-10.7087
何得	-10.7087
知我	-10.7089
此三	-10.709
或作	-10.7093
隨宜	-10.7094
食時	-10.7098
時有一人	-10.71
必能	-10.7109
重病	-10.7113
我觀	-10.7119
語之言	-10.7121
迦葉佛	-10.7121
靡	-10.7123
彼之	-10.7123
悉來	-10.7126
所縛	-10.7131
共議	-10.7136
目犍連	-10.7137
更生	-10.7156
來集	-10.7158
在外	-10.7158
妾	-10.7161
肅	-10.7163
我前	-10.7164
聖智	-10.7165
得人身	-10.7165
如水	-10.7166
欲行	-10.7166
富那奇	-10.7172
粗	-10.7175
積德	-10.7176
隔	-10.7177
斥	-10.7178
往生	-10.7178
肩	-10.7178
天衣	-10.718
毗	-10.718
諸漏	-10.7181
細滑	-10.7181
湯	-10.7181
胸	-10.7183
冬	-10.7183
是故我	-10.7184
法教	-10.7185
商	-10.7186
撿	-10.7186
自謂	-10.7187
判	-10.7187
羡	-10.7187
猶豫	-10.7189
涌	-10.719
不必	-10.719
渧	-10.7191
華嚴	-10.7191
脂	-10.7192
青衣	-10.7192
人道	-10.7193
實相	-10.7196
不懷	-10.7197
藥叉	-10.7198
供具	-10.7199
臣佐	-10.7199
莫作	-10.7201
三匝	-10.7202
願樂	-10.7202
未曾見	-10.7202
誦習	-10.7202
無由	-10.7202
從於	-10.7203
善思念之	-10.7204
有無	-10.7206
不別	-10.7206
尊卑	-10.7206
願求	-10.7207
說是語已	-10.7208
輸檀王	-10.7209
事故	-10.721
最為第一	-10.7211
默然而住	-10.7214
奉施	-10.7216
化生	-10.7217
志願	-10.722
藥草	-10.7221
涕	-10.7227
梵釋	-10.7228
自餘	-10.7229
惱亂	-10.7235
之報	-10.7245
亦兼	-10.7245
護身	-10.7245
其法	-10.7248
摩羅	-10.7249
惡意	-10.725
無惱	-10.7255
採取	-10.7258
何因	-10.726
力強	-10.7262
此中	-10.7262
生靈	-10.7263
所疑	-10.7265
有二義	-10.7265
獨尊	-10.7265
諸人等	-10.7266
無雙	-10.7269
觀於	-10.727
供佛	-10.7271
菩提道	-10.7275
眾德	-10.7276
阿修羅王	-10.728
不共	-10.7284
光相	-10.7287
到於	-10.7289
法華	-10.7289
如是語已	-10.7293
病苦	-10.7294
自己	-10.7295
生大歡喜	-10.7296
太子前	-10.73
觀門	-10.7302
麤惡	-10.7303
令入	-10.7304
之食	-10.7309
栴檀香	-10.7309
難捨	-10.7312
於彼時	-10.7313
以智慧	-10.7316
始終	-10.7316
一世	-10.7317
皆悉具足	-10.7317
還去	-10.7318
庶	-10.7319
佛說如是	-10.7322
)、	-10.7326
造立	-10.7328
政	-10.7329
佛即告	-10.7331
諸天子	-10.7332
豈能	-10.7334
之理	-10.7348
而退	-10.7348
子言	-10.7354
塗香	-10.7355
寶山	-10.7357
起於	-10.7365
山頂	-10.737
斯由	-10.7373
業力	-10.7377
冷水	-10.7379
色欲	-10.7384
長遠	-10.7388
所至	-10.7388
所習	-10.7392
繒	-10.7394
設有	-10.7396
其前	-10.7398
比丘言	-10.7403
一切有情	-10.7404
迫	-10.7406
煙	-10.7407
途	-10.7408
祠祀	-10.7408
王前	-10.7414
填	-10.7415
我今可	-10.7415
昧	-10.7416
報應	-10.7416
均	-10.7417
旱	-10.7418
邁	-10.742
不唯	-10.742
忌	-10.742
潤澤	-10.7422
弗	-10.7422
眉	-10.7423
蹋	-10.7423
萬端	-10.7425
得清淨	-10.7427
而食	-10.743
叢林	-10.743
即持	-10.7431
深法	-10.7431
永盡	-10.7432
乃有	-10.7435
那羅延	-10.7435
為太子	-10.7436
且約	-10.7436
勸助	-10.7437
撰	-10.7441
無所有	-10.7441
祇桓	-10.7443
德本	-10.7445
不可限量	-10.7447
異口同音	-10.7448
名阿	-10.7451
解了	-10.7456
地獄餓鬼畜生	-10.7457
閣	-10.7458
傾動	-10.746
牛頭栴檀	-10.7463
寶幢	-10.7463
願力	-10.7464
滿中	-10.7466
殘害	-10.7474
法幢	-10.7475
眾聖	-10.7479
伽羅	-10.748
繫念	-10.7487
八戒	-10.749
實爾	-10.749
作如是說	-10.7492
受斯	-10.7493
破戒	-10.7494
山神	-10.7495
。」』	-10.75
慈哀	-10.7515
大火	-10.7517
便共	-10.7522
供養如來	-10.7526
二百	-10.7526
寶冠	-10.7527
取此	-10.7533
貢	-10.7534
勤求	-10.7543
。』「『	-10.7545
獨行	-10.7547
之王	-10.7549
所覆	-10.7551
其色	-10.7552
於前	-10.7561
如是種種	-10.7563
聖者	-10.7569
因中	-10.7569
來世	-10.7571
用作	-10.7571
說微妙法	-10.7574
自求	-10.7577
今現在	-10.7579
其光	-10.7583
復問言	-10.7587
彌勒菩薩	-10.7593
道之	-10.7594
恒沙	-10.7602
天眾	-10.7604
法忍	-10.7604
以金	-10.7606
覺意	-10.7607
甚為	-10.7608
在中	-10.7609
鬚	-10.7609
兇	-10.761
口出	-10.7623
法味	-10.7624
旦	-10.7627
重罪	-10.7627
地神	-10.7627
不顧	-10.7628
名號	-10.7632
而今	-10.7635
自食	-10.7636
所止	-10.7637
其體	-10.7638
業報	-10.7639
覆蓋	-10.7642
所有眾生	-10.7642
實為	-10.7643
陸地	-10.7646
欲想	-10.7648
尠	-10.7648
勿得	-10.765
藝	-10.765
愕然	-10.765
其聲	-10.765
毘舍離	-10.7651
覲	-10.7655
斗	-10.7655
有八	-10.7655
淳	-10.7655
耗	-10.7659
次句	-10.7659
劫中	-10.766
勵	-10.766
生厭離	-10.7661
囚	-10.7663
欲出	-10.7663
之教	-10.7664
戾	-10.7664
螫	-10.7665
入水	-10.7666
挑	-10.7667
得羅漢道	-10.7667
城郭	-10.7667
今正是時	-10.7668
神妙	-10.7668
謹慎	-10.7669
團	-10.767
常在	-10.767
調和	-10.767
舉聲大哭	-10.767
出如是聲	-10.7671
腹中	-10.7673
師言	-10.7674
六塵	-10.7674
求出家	-10.7675
復得	-10.7678
殊異	-10.7679
縱廣正等	-10.7679
而白	-10.768
為業	-10.768
豈異	-10.7681
求佛道	-10.7682
便說此偈	-10.7682
轉正法輪	-10.7686
孫陀利	-10.7687
塗身	-10.7692
世間所有	-10.7693
寶海梵志	-10.7694
行善	-10.7694
有兩	-10.7694
」	-10.7695
息心	-10.7702
聖教	-10.7702
年少沙門	-10.7705
斯須	-10.7707
厨	-10.7711
當復	-10.7712
便欲	-10.7713
六根	-10.7713
還自	-10.7714
心為	-10.7716
為根本	-10.7717
來歸	-10.7717
復念	-10.7719
生於天上	-10.7723
得離	-10.7726
倍增	-10.7726
亦無有	-10.7727
功夫	-10.773
得利	-10.7731
摧伏	-10.7732
菩薩母	-10.7734
果也	-10.7735
四海	-10.7736
跋陀羅	-10.7737
遍照	-10.7744
師徒	-10.7746
并諸	-10.776
而告	-10.7762
還生	-10.7763
騰	-10.7764
以是故	-10.7766
詣於	-10.7769
無怨	-10.7769
力能	-10.7773
不厭	-10.7782
正顯	-10.7787
佛事	-10.7789
其有眾生	-10.779
不滅	-10.7795
摩尼珠	-10.7798
無怖	-10.7799
勸令	-10.7802
歎說	-10.7803
有六	-10.7804
發遣	-10.7807
修行人	-10.7813
從佛	-10.7813
美食	-10.7814
即成	-10.7815
佛子	-10.7819
大夫人	-10.7819
四事供養	-10.7824
未嘗	-10.7829
盲冥	-10.783
燒香	-10.7834
儻	-10.7835
非人	-10.7835
慈悲心	-10.7836
王夫人	-10.7836
我國	-10.7839
未免	-10.7849
願得	-10.7849
承受	-10.7852
當何	-10.7853
自莊嚴	-10.7853
入大海	-10.7866
摩訶迦葉	-10.7867
輔	-10.7874
聰	-10.7877
妙觀	-10.7878
命根	-10.7879
篤	-10.7883
妙花	-10.7885
比丘是也	-10.7888
糧	-10.7889
詔	-10.7889
津	-10.7891
阿私陀仙	-10.7891
喘息	-10.7891
住止	-10.7892
勝於	-10.7893
囊	-10.7893
啟白	-10.7893
媚	-10.7894
毒箭	-10.7894
甜	-10.7894
耕	-10.7894
醒	-10.7894
人皆	-10.7896
崇修	-10.7896
十五日	-10.7897
巡	-10.7897
丘	-10.7899
駈	-10.79
作種種	-10.79
匹	-10.7901
應須	-10.7901
王以	-10.7902
紛	-10.7903
妹	-10.7906
闇冥	-10.7907
佐	-10.7907
拘盧	-10.7908
漸次	-10.7908
離生死	-10.7909
綺語	-10.7909
終始	-10.7909
江河	-10.791
卑賤	-10.7912
諸事	-10.7912
宗親	-10.7912
一切人	-10.7914
飢饉	-10.7914
王命	-10.7914
淨居天	-10.7915
夢中	-10.7916
於空中	-10.7919
少雙	-10.7919
當求	-10.792
無信	-10.7922
生一男兒	-10.7922
尼提	-10.7924
之音	-10.7925
離諍王	-10.7925
羡那	-10.7926
傘蓋	-10.7927
舉動	-10.7927
恃怙	-10.7929
於晨朝時	-10.7929
坻	-10.7929
竟不	-10.7932
手脚	-10.7933
豈有	-10.7938
長短	-10.7944
亂想	-10.7948
乞兒	-10.795
臨終	-10.7951
昔有一人	-10.7951
寶樹	-10.7952
使不	-10.7952
說伽陀	-10.7953
善丈夫	-10.796
唯然世尊	-10.7964
如幻	-10.7968
諸魔	-10.7971
不惟	-10.7974
四法	-10.7974
慈父	-10.7974
尚不	-10.7975
變現	-10.7977
故也	-10.7977
自得	-10.798
帝王	-10.7987
音響	-10.7987
其頭	-10.7992
報身	-10.7996
復作	-10.7999
遙見世尊	-10.8005
其兄	-10.8006
比丘是	-10.8006
受快樂	-10.8009
之地	-10.801
治國	-10.8017
諸梵志	-10.8024
不敢違	-10.8025
舍衛城	-10.8026
得阿羅漢道	-10.8027
遂成	-10.8029
盈滿	-10.8033
設當	-10.8033
能離	-10.8033
汝父	-10.8035
師子王	-10.8049
廟	-10.8054
超過	-10.8057
彼婆羅門	-10.8075
慰	-10.8078
善友太子	-10.808
能照	-10.8083
為眾生故	-10.8086
母子	-10.8087
今既	-10.809
乞者	-10.809
河岸	-10.8091
非無	-10.8093
諸山	-10.8093
白衣	-10.8095
於外	-10.8098
謙	-10.8104
菩薩所	-10.8106
何時	-10.8106
作樂	-10.8108
侶	-10.8113
受形	-10.8115
羽	-10.8117
奈	-10.8118
難及	-10.812
能持	-10.8123
惶	-10.8123
之境	-10.8123
所敬	-10.8126
品者	-10.8128
而作是念	-10.8131
不施	-10.8136
如師子	-10.8137
繁	-10.8138
復白	-10.8138
彼諸菩薩	-10.8138
初夜	-10.8139
第八	-10.8139
便即	-10.814
諸眾生等	-10.8141
鷲	-10.8143
樹葉	-10.8144
紺	-10.8144
有無量	-10.8145
有學	-10.8146
鳩	-10.8147
能以	-10.8148
警策	-10.8148
稻	-10.8148
鴦	-10.8149
說者	-10.815
躡	-10.8151
過惡	-10.8152
酪	-10.8152
陣	-10.8153
人也	-10.8154
當爾之時	-10.8155
園苑	-10.8158
怨憎	-10.8159
茂盛	-10.816
荼	-10.8161
富蘭那	-10.8161
池沼	-10.8161
供養菩薩	-10.8163
怨讎	-10.8164
般泥洹	-10.8164
祇陀	-10.8165
如是眾生	-10.8166
諂曲	-10.8167
勝法	-10.8168
無二	-10.8168
曇	-10.8169
不使	-10.8169
生死海	-10.817
邏	-10.8174
猛風	-10.8177
如一	-10.8178
遠塵離垢	-10.8178
以本願故	-10.8178
是菩薩	-10.8179
陀羅尼門	-10.8184
除愈	-10.8185
數十	-10.8186
五濁惡世	-10.8188
我知	-10.8189
願令	-10.8191
行於梵行	-10.8193
四大天王	-10.8194
最正覺	-10.8195
世無	-10.8196
發聲	-10.8196
故以	-10.8197
而說此偈	-10.8197
不孝	-10.82
人生	-10.82
自恃	-10.8202
白馬	-10.8203
五事	-10.8205
不問	-10.8206
指示	-10.8207
四輩	-10.8211
種類	-10.8212
無敢	-10.8214
財利	-10.8216
求方便	-10.8217
隨佛	-10.8218
詣王	-10.8219
莊嚴具	-10.8227
取滅度	-10.8228
異學	-10.823
欲樂	-10.8233
不去	-10.8234
豪族	-10.8239
占相	-10.8239
生生	-10.8241
轉相	-10.8242
於虛空	-10.8243
諦觀	-10.8246
多羅樹	-10.8254
宿緣	-10.8254
樹下坐	-10.8258
中有一	-10.8262
所受	-10.8263
應作	-10.8265
能感	-10.8265
恒河沙等	-10.8265
為子	-10.8268
貪婬	-10.827
過數	-10.8272
以偈頌	-10.8272
時波斯匿王	-10.8275
淨信	-10.8275
憂患	-10.8276
受五欲	-10.8278
在其	-10.828
吾我	-10.8284
謂菩薩	-10.8284
自惟	-10.8293
向菩薩	-10.8294
具戒	-10.8296
不好	-10.8296
盲人	-10.8302
而語	-10.8305
食肉	-10.8306
無量菩薩	-10.831
而出家	-10.8311
本處	-10.8312
去離	-10.8314
不悅	-10.8322
俱共	-10.8323
諸有情	-10.8324
使其	-10.8324
左手	-10.8332
眾患	-10.8336
觀心	-10.8337
彼樹	-10.8338
法句	-10.834
已離	-10.8343
飲酒	-10.8347
心內	-10.8348
楚毒	-10.8354
受已	-10.8354
聞聲	-10.8355
從今日	-10.8366
坐起	-10.8367
永不	-10.8368
大威德	-10.8368
善事	-10.8371
諸鳥	-10.8374
本所	-10.8375
坐樹下	-10.8381
於我所	-10.8381
慈惠	-10.8387
見如來	-10.839
其夜	-10.8392
簡	-10.8403
危脆	-10.8403
所纏	-10.8406
階	-10.8407
仗	-10.8408
枕	-10.8409
大姓	-10.841
心已	-10.8411
憒	-10.8412
躃地	-10.8412
器仗	-10.8413
釜	-10.8416
抒	-10.8416
謹	-10.8417
舒	-10.8418
行詣	-10.8418
巨富	-10.8418
卷第六	-10.8419
甚善	-10.842
莊飾	-10.8423
奇哉	-10.8423
作是語	-10.8423
發如是	-10.8423
災患	-10.8424
昔佛在舍衛國祇樹給孤獨園	-10.8424
大愛道	-10.8426
而為上首	-10.8427
瞋恨	-10.8427
末香	-10.8428
影像	-10.8428
諸比丘言	-10.8428
貿	-10.8428
所生之處	-10.8432
聰明智慧	-10.8432
自大	-10.8433
人民熾盛	-10.8435
於他	-10.8436
觀世	-10.8437
親厚	-10.8437
母者	-10.8438
得己利	-10.8443
如佛所說	-10.8447
應當安住阿蘭若處	-10.8448
稱譽	-10.8456
於上	-10.8458
暗慢	-10.8459
進趣	-10.8462
成阿耨多羅三藐三菩提已	-10.8462
紹王位	-10.8463
手中	-10.8465
為他	-10.8465
見道	-10.8472
宜速	-10.8474
法也	-10.8478
以天	-10.8481
無乏	-10.8483
光澤	-10.8484
以施	-10.8485
持一	-10.8489
外有	-10.8493
反更	-10.8497
母言	-10.85
自至	-10.85
業果	-10.8502
即報	-10.8504
心大	-10.8505
雖多	-10.8506
願以	-10.8508
汝能	-10.8509
無有量	-10.8511
身有	-10.8514
檀波羅蜜	-10.8517
苦毒	-10.8524
坐處	-10.8525
之大	-10.8525
悅豫	-10.8534
我得	-10.8535
子等	-10.8535
永滅	-10.8536
大患	-10.854
證涅槃	-10.8544
罪業	-10.8551
此世	-10.8556
鈍	-10.8557
煩惱障	-10.8559
光從	-10.8563
便起	-10.8568
之師	-10.8568
四遠	-10.8579
是諸眾生	-10.8581
或執	-10.8584
出國	-10.8587
信樂	-10.8587
慳嫉	-10.8588
雖得	-10.8589
我即	-10.8595
語我	-10.8596
半身	-10.8598
善覺	-10.86
自責	-10.86
起滅	-10.8601
明達	-10.8605
照世間	-10.8606
便能	-10.8611
真言	-10.8611
著地	-10.8614
現其	-10.8615
各各相	-10.8619
於正法	-10.8625
推求	-10.8626
更不受	-10.8629
上有	-10.8635
生忉利天	-10.8635
叫	-10.8635
此心	-10.8639
五色	-10.8642
川	-10.8643
起塔	-10.8645
所從來	-10.8645
當學	-10.8649
所學	-10.8651
慼	-10.8651
覺了	-10.8652
堪能	-10.8652
汝今云何	-10.8654
說曰	-10.8654
霜	-10.8657
秉	-10.8657
戮	-10.8658
楚	-10.8658
修諸	-10.8658
令不	-10.866
迸	-10.8662
以七寶	-10.8663
虧	-10.8663
脣	-10.8664
稍	-10.8665
抱持	-10.8665
之也	-10.8666
盡未來際	-10.8666
章	-10.8668
渠	-10.8668
之頃	-10.8669
帛	-10.8672
浪	-10.8674
艱難	-10.8674
流出	-10.8676
阿難白佛	-10.8676
瞋忿	-10.8678
舐	-10.8678
訪	-10.8678
不合	-10.8679
速往	-10.868
鎮	-10.868
街巷	-10.8681
擯	-10.8683
其本	-10.8684
億那由他百千	-10.8686
前後圍繞	-10.8686
篤信	-10.8686
晨朝	-10.8686
事業	-10.8687
何謂為	-10.8689
證果	-10.8691
其父母	-10.8691
人物	-10.8693
優波伽	-10.8693
偏袒右肩	-10.8695
於此處	-10.8695
地中	-10.8696
帝釋天主	-10.8696
子息	-10.8698
如是諸	-10.87
菩薩之	-10.8701
四無所畏	-10.8704
此象	-10.8706
四果	-10.8706
願我來世	-10.8708
則知	-10.8708
佛塔	-10.8709
此乃	-10.8711
有王	-10.8712
如百千日	-10.8714
為寶	-10.8715
奔馳	-10.8716
真是	-10.8719
鬪戰	-10.8721
如王	-10.8721
復次善男子	-10.8722
汝於來世	-10.8722
長老難陀	-10.8726
刀杖	-10.8727
為名	-10.8737
空無	-10.8743
各異	-10.8744
莊嚴故	-10.8744
憂慼	-10.8744
叫喚	-10.8746
聚會	-10.8749
佛意	-10.8751
財寶無量	-10.8751
不許	-10.8753
自然而	-10.8757
不懈	-10.8758
當受	-10.876
戒律	-10.8767
知此	-10.8769
先瑞相	-10.8779
拔出	-10.8781
天身	-10.8783
十二年	-10.8784
善說	-10.8787
此大	-10.8789
欲與	-10.8792
其妻	-10.8793
出火	-10.8796
將無	-10.8799
法律	-10.88
今我身是	-10.8801
無處	-10.8808
數日	-10.8812
六日	-10.8816
雜色	-10.8817
乃為	-10.882
有如是等	-10.8821
吾為	-10.8822
詣佛	-10.8823
果實	-10.8823
令諸眾生	-10.8825
持禁戒	-10.8826
所攝	-10.8827
身無	-10.8828
魔子	-10.8828
以諸	-10.884
悅意	-10.8841
極妙	-10.8841
勿復	-10.8846
苦難	-10.8852
食飲	-10.8852
畏懼	-10.8854
有身	-10.8856
貪嫉	-10.8858
興起	-10.886
真理	-10.8861
為義	-10.8864
一類	-10.8865
以己	-10.8873
齎持	-10.8878
先所	-10.8878
及眾	-10.8879
諸大	-10.888
得於	-10.8881
曾聞	-10.8881
劫盡	-10.8886
如汝	-10.8889
財產	-10.889
億劫	-10.8891
人形	-10.8895
觀諸	-10.8903
如實知	-10.8903
大國	-10.8903
其城	-10.8903
金翅鳥	-10.8905
我等輩	-10.8906
豪	-10.8908
現於	-10.8909
明智	-10.8917
技	-10.8918
未聞	-10.8919
監	-10.892
佛德	-10.8922
諸餘	-10.8923
犢	-10.8926
酬	-10.8928
糜	-10.8928
抑	-10.8931
巨海	-10.8932
度彼岸	-10.8935
作子	-10.8936
尺	-10.8937
心喜	-10.8937
忿怒	-10.8937
縮	-10.8937
劒	-10.8937
勝利	-10.8938
遂至	-10.8939
。」【△	-10.8939
未甞	-10.8941
激	-10.8942
黨	-10.8942
一萬	-10.8943
罷	-10.8943
乳哺	-10.8946
一切苦	-10.8946
將詣	-10.8947
崖	-10.8948
犬	-10.8948
三千世界	-10.895
熾燃	-10.895
事理	-10.895
法藏	-10.8951
擾亂	-10.8952
濡	-10.8952
螺髻	-10.8953
之命	-10.8955
憂悲苦惱	-10.8956
香風	-10.8957
一切處	-10.8958
耆舊	-10.8958
遂便	-10.8958
福盡	-10.8959
正信	-10.896
淨居諸天	-10.8961
斛	-10.8961
上品	-10.8962
伴侶	-10.8964
翼從	-10.8966
各持	-10.8967
諸天龍神	-10.8968
優鉢羅華	-10.897
夫人婇女	-10.8973
為福	-10.8973
見佛聞法	-10.8974
是中有佛	-10.8975
三品	-10.8976
道逢	-10.8977
不避	-10.8981
賢愚	-10.8983
阿闍世	-10.8983
變異	-10.8986
出世間	-10.8986
佛即為其	-10.8987
可觀	-10.8988
優波	-10.8988
輕重	-10.8994
懷歡喜	-10.8997
僧寶	-10.8999
大醫王	-10.8999
愛戀	-10.9002
身出	-10.9002
倒地	-10.9011
備具	-10.9011
曾為	-10.9014
悉見	-10.9015
時辟支佛	-10.9016
眼識	-10.9019
諸善男子	-10.9021
生疑	-10.9023
善慧	-10.9024
本有	-10.9027
成一	-10.9027
常見	-10.9027
心得	-10.903
停住	-10.9032
大神通	-10.9033
欲滅	-10.9033
往問	-10.9036
無有能	-10.9037
正為	-10.9042
懷恐怖	-10.9042
吉利	-10.9046
覆其上	-10.9047
妓女	-10.9047
怨賊	-10.9053
神識	-10.9054
成等正覺	-10.9061
於是菩薩	-10.9061
如金剛	-10.9067
彼等諸	-10.9069
品下	-10.9069
白大王	-10.9069
七重	-10.9071
水上	-10.9072
火宅	-10.9074
於時世尊	-10.9078
無有異	-10.9082
之香	-10.9083
以無	-10.9085
手持	-10.9086
高樓	-10.909
即自思惟	-10.9091
被服	-10.9092
一切眾	-10.9092
威勢	-10.9094
清信士	-10.9095
我應	-10.9096
得名	-10.9097
伽陀	-10.91
生人中	-10.9109
此珠	-10.9115
諸苦惱	-10.912
當往	-10.9128
諸珍寶	-10.913
受化	-10.9137
貪心	-10.9139
心歡喜	-10.9139
王名	-10.9144
如來出世	-10.9145
令心	-10.9145
之善	-10.9145
何道	-10.9145
歡喜無量	-10.9148
悋惜	-10.9149
即詣	-10.915
居住	-10.9153
受是	-10.9155
即召	-10.9159
身者	-10.916
大悲菩薩	-10.9164
王身	-10.9165
生一	-10.9169
五蓋	-10.9169
梵德	-10.9171
三時	-10.9171
千葉	-10.9176
身色	-10.9182
一向	-10.9183
無令	-10.919
教勅	-10.919
立誓	-10.9193
以得	-10.9194
法合	-10.9195
周徧	-10.9196
三乘法	-10.9202
嬰兒	-10.9202
殞	-10.9203
闡	-10.9204
唾	-10.9205
謬	-10.9206
大道人	-10.9206
帳	-10.9209
資用得	-10.921
綵	-10.9211
板	-10.9211
肝	-10.9211
通利	-10.9211
身分	-10.9211
太平	-10.9212
束	-10.9212
各與若干百千眷屬俱	-10.9213
雞	-10.9215
煎	-10.9216
以慈	-10.9217
冤	-10.9218
一切悉	-10.9218
拍	-10.9219
氷	-10.9219
欲至	-10.9219
利益眾生	-10.922
筋	-10.922
錄	-10.922
眾祐	-10.9221
阿耨	-10.9224
迷悶	-10.9225
受諸苦	-10.9225
額	-10.9226
為己	-10.9227
謂言	-10.9227
誐	-10.9229
族姓子	-10.9229
經過	-10.9229
父母恩	-10.9231
以是義故	-10.9234
受大苦惱	-10.9235
號哭	-10.9236
其處	-10.9239
屠兒	-10.9239
試之	-10.9241
如本	-10.9242
遍滿其體	-10.9244
頂生	-10.9245
心垢	-10.9247
顧視	-10.9248
佗	-10.925
鹿野苑中	-10.925
七歲	-10.925
至死	-10.9251
往返	-10.9252
受具足戒	-10.9252
而供養之	-10.9255
迦蘭陀	-10.9257
有道	-10.9257
種種雜	-10.9262
婆提唎迦	-10.9265
得成就	-10.9267
諸天在於虛空	-10.9269
足滿十月	-10.927
鋪	-10.927
說妙法	-10.9274
觀視	-10.9276
人不	-10.9278
樂器	-10.9281
持用	-10.9282
寶殿	-10.9286
餘者	-10.9287
兩兒	-10.929
今若	-10.929
億百千	-10.9291
口言	-10.9292
其弟	-10.9294
是大沙門	-10.9294
殺人	-10.9295
一切所須	-10.93
此一	-10.9301
即喚	-10.9301
王答	-10.9301
斷滅	-10.9303
生一子	-10.9303
諸寶	-10.9305
得其	-10.9308
其邊	-10.9309
有千	-10.9311
眾華	-10.9313
鴈王	-10.9313
大龍王	-10.9314
愛重	-10.9314
生憂	-10.9315
從事	-10.9317
孝子	-10.9317
受胎	-10.9318
高聲	-10.9319
有一大	-10.9324
往詣彼	-10.9328
其道	-10.933
出三界	-10.9336
色像	-10.9337
有何因緣	-10.9338
一生補處	-10.9344
小國	-10.9344
諸菩薩摩訶薩	-10.9345
王聞是已	-10.9346
能治	-10.9347
有一子	-10.9347
而取	-10.9348
生人間	-10.9348
由其	-10.935
身行	-10.9352
大聲	-10.9353
雖無	-10.9353
自往	-10.9355
能障	-10.9355
界性	-10.9356
有七寶	-10.936
治之	-10.9362
怯弱	-10.9367
意念	-10.9368
是處菩薩	-10.9369
之明	-10.9369
可為	-10.9369
不由	-10.9373
欲捨	-10.9373
中出	-10.9373
觀法	-10.9373
王語	-10.9374
喪身	-10.9375
化眾生	-10.938
而反	-10.9381
相似	-10.9381
當於爾時	-10.9383
一切人天	-10.9384
寶所	-10.9387
出時	-10.9389
恒河	-10.939
已滅	-10.9392
二義	-10.9393
何足	-10.9393
佛已	-10.9395
大功德	-10.9396
安居	-10.9397
爾時比丘	-10.9403
埋	-10.9403
汝見	-10.9405
我作	-10.9407
吾子	-10.9409
愛之	-10.9411
釋義	-10.9411
長壽王	-10.9415
不淨觀	-10.9418
廣為	-10.9419
不知何	-10.942
一錢	-10.9422
千由旬	-10.9423
憎惡	-10.9423
受苦惱	-10.9427
三明	-10.943
常能	-10.9433
何可	-10.9434
處胎	-10.9434
賈人	-10.9435
居止	-10.9439
所困	-10.944
名曰善	-10.9441
祥	-10.9442
樂著	-10.9447
如其	-10.9451
其門	-10.9456
恩德	-10.9457
號釋迦牟尼	-10.9461
淨水	-10.9461
溢	-10.9462
應器	-10.9467
歸於	-10.9468
夫為	-10.9468
聽經	-10.9468
當度	-10.9469
共我	-10.9478
金寶	-10.9486
不過	-10.9487
無色界	-10.9487
虔	-10.9488
初地	-10.9488
去此	-10.9489
可之	-10.949
獲其	-10.949
無力	-10.949
禽	-10.9492
猴	-10.9493
秘密	-10.9494
為能	-10.9494
復有五百	-10.9494
勉	-10.9498
奄	-10.9499
例	-10.95
化度	-10.95
映	-10.9502
祕	-10.9502
赫	-10.9502
籠	-10.9503
坐已	-10.9503
卷第二十	-10.9504
晚	-10.9504
閻	-10.9505
各共	-10.9506
諸親	-10.9506
穌	-10.9506
猫	-10.9506
若知	-10.9506
裸形	-10.9511
孤獨	-10.9511
交露	-10.9513
暉	-10.9513
細軟	-10.9513
作禮而去	-10.9513
累劫	-10.9514
卷第七	-10.9515
好醜	-10.9515
於大眾中	-10.9516
追逐	-10.9516
咄哉	-10.9516
善言	-10.9517
龍神	-10.9518
擊鼓	-10.9518
珊瑚	-10.9519
至無為	-10.9519
六種	-10.952
萬德	-10.9521
盜賊	-10.9522
色身	-10.9524
諸物	-10.9524
!』「	-10.9524
前後導從	-10.9524
愁憂不樂	-10.9526
不受後有	-10.9527
我生	-10.9527
臣等	-10.9528
如須彌山	-10.953
飛騰虛空	-10.9531
而往	-10.9532
如須彌	-10.9533
今在何處	-10.9533
勅令	-10.9534
踊躍歡喜	-10.9535
度人	-10.9536
具足聞持	-10.9537
下劣	-10.9538
義兼	-10.9539
災難	-10.954
臭處	-10.954
受諸苦惱	-10.954
百味飲食	-10.954
佛及比丘僧	-10.9543
如意珠	-10.9543
瞿多彌	-10.9544
羣生	-10.9544
權實	-10.9545
汝心	-10.9546
二十一	-10.9546
受其報	-10.9549
清白	-10.9549
把	-10.9549
臣言	-10.9549
神德	-10.9552
隨心	-10.9554
便前	-10.9556
出迎	-10.9556
大目揵連	-10.9558
名譽	-10.9559
下句	-10.9563
志性	-10.9563
千里	-10.9564
寶鈴	-10.9564
佛寶	-10.9564
承佛	-10.9571
諸惑	-10.9574
吾身	-10.9576
無有是處	-10.9578
道成	-10.9578
具陳	-10.958
瓶沙王	-10.9583
即便命終	-10.9583
必不	-10.9586
即於佛前	-10.9587
禮足	-10.9587
真性	-10.9589
不善法	-10.9591
導從	-10.9592
得入	-10.9596
誠信	-10.9598
精進力	-10.9603
溺人	-10.9604
所夢	-10.9606
合成	-10.9607
寶瓔珞	-10.9611
塔廟	-10.9611
契經	-10.9612
後園	-10.9613
少許	-10.9613
謂是	-10.9614
緣生	-10.9621
墮三惡道	-10.9622
得出	-10.9623
設方便	-10.9626
眾生心	-10.9629
能見	-10.9629
隨行	-10.9632
身力	-10.9632
諸佛如來	-10.9633
亦莫	-10.9633
毘羅	-10.9633
殺我	-10.9635
二女	-10.9636
為我說	-10.9639
不了	-10.964
護念	-10.9641
就坐	-10.9646
奔走	-10.9646
美味	-10.9648
相承	-10.9649
其師	-10.9652
隨彼	-10.9653
瑕	-10.9654
困厄	-10.9667
十歲	-10.9667
釋迦如來	-10.9667
諸樹	-10.9669
能觀	-10.9674
向王	-10.968
又為	-10.9681
慧明	-10.9681
當取	-10.9686
行菩薩行	-10.9692
供養恭敬	-10.9694
若於	-10.9696
阿那含者	-10.9698
摩尼寶	-10.9703
更不復	-10.9703
摩竭國	-10.9703
為佛弟子	-10.9704
大德沙門	-10.9707
何福	-10.9707
困苦	-10.9711
法樂	-10.9717
大寶	-10.9717
三世如來	-10.9721
天趣	-10.9721
有生	-10.9722
能於	-10.9724
已成	-10.9727
不停	-10.9728
各以	-10.9729
散花	-10.9738
四種兵	-10.9738
蒙佛	-10.9739
捔	-10.974
為何所	-10.974
迦維羅衛	-10.9741
未斷	-10.9747
靜處	-10.9757
願垂	-10.976
遍觀	-10.9769
勸人	-10.977
是苦	-10.977
欲向	-10.9771
死時	-10.9773
佛功德	-10.9773
黎庶	-10.9776
日中	-10.9777
但有	-10.9777
相違	-10.9778
尋便	-10.9779
能辦	-10.978
不能令	-10.9781
我既	-10.9782
蹔	-10.9782
之寶	-10.9783
行菩薩道	-10.9786
人壽百歲	-10.9787
嘉	-10.9788
態	-10.9788
膏	-10.9788
匿	-10.9789
散華	-10.9789
度諸	-10.979
苗	-10.979
壽盡	-10.9791
剛強	-10.9791
汗	-10.9792
洞	-10.9792
訓誨	-10.9798
等類	-10.9798
效	-10.9799
豪富	-10.9799
技術	-10.98
姊	-10.98
大智慧	-10.98
犁	-10.98
二十二	-10.9801
挍	-10.9801
專精	-10.9802
疏	-10.9802
粳米	-10.9803
亦隨	-10.9803
已生	-10.9804
指鬘	-10.9804
繒綵	-10.9804
今悉	-10.9804
微塵數	-10.9807
貪瞋癡	-10.981
皮肉	-10.9811
家居	-10.9811
技藝	-10.9811
鮮潔	-10.9812
佛同號	-10.9812
於一時	-10.9813
七覺意	-10.9813
幻化	-10.9814
曲躬	-10.9814
頗胝迦	-10.9814
未久之間	-10.9815
甘果	-10.9815
外道異學	-10.9815
忽然不現	-10.9816
皆成	-10.9818
彼比丘	-10.9819
悵怏	-10.982
象師	-10.982
後得	-10.982
大千	-10.9823
見思	-10.9827
世事	-10.9829
天王釋	-10.983
無減	-10.9835
阿誐多	-10.9836
遙聞	-10.9836
普賢	-10.9837
解知	-10.984
又此	-10.984
昔有一	-10.9843
遊獵	-10.9843
持與	-10.9844
不能捨離	-10.9845
不損	-10.9846
飲之	-10.9847
好惡	-10.9848
於往昔	-10.9851
既能	-10.9851
怨恨	-10.9852
法本	-10.9853
化導	-10.9855
鹿母	-10.9857
未曾聞	-10.9857
隨後	-10.9858
貪樂	-10.9859
剃頭	-10.9859
大長者	-10.9861
妄言	-10.9861
經中	-10.9864
一人言	-10.9865
獲報	-10.9867
價直	-10.987
此樹	-10.9873
不但	-10.9879
日光明	-10.9882
時彼國王	-10.9884
斷煩惱	-10.9885
十月	-10.9887
而我	-10.989
天上人間	-10.9891
於我邊	-10.9896
此亦	-10.9897
四神足	-10.9898
於是太子	-10.9903
尊者舍利弗	-10.9908
尊者阿難	-10.9913
死亡	-10.9913
後宮	-10.9913
得食	-10.9913
至其	-10.9922
三世諸佛	-10.9928
王及夫人	-10.9932
了無	-10.9932
生長	-10.9932
誓言	-10.9932
千億	-10.9933
出聲	-10.9934
受食	-10.9935
自觀	-10.994
百千劫	-10.9941
當成阿耨多羅三藐三菩提	-10.9942
何故不	-10.9942
如夢	-10.9944
為尊	-10.9948
三達	-10.9949
手自	-10.9953
長者言	-10.9961
諸論	-10.9961
獄卒	-10.9965
濟眾生	-10.9965
三名	-10.9967
紫金	-10.9967
種種說法	-10.997
世間眾生	-10.9973
速起	-10.9974
勝彼	-10.9977
無慢	-10.9977
斯陀含者	-10.9977
曉了	-10.9978
有三種	-10.998
悔恨	-10.998
國城	-10.9981
此子	-10.9986
千佛	-10.9987
得果	-10.9991
解釋	-10.9992
不實	-10.9992
實不	-10.9996
諮受	-10.9999
彼仙人	-11
所出	-11.0003
唯除	-11.0007
如象	-11.0007
阿羅漢果	-11.001
常自	-11.0012
法雨	-11.0021
大恩	-11.0023
自受	-11.0026
用為	-11.0027
苦海	-11.0027
酸	-11.0029
我師	-11.003
攀	-11.003
王大歡喜	-11.003
執意	-11.0032
必為	-11.0036
於一切眾生	-11.0038
已還	-11.0038
世間一切	-11.0039
詞	-11.004
乞索	-11.0041
流泉	-11.0044
好樂	-11.0045
為弟子	-11.005
積年	-11.0053
聖法	-11.006
發於	-11.0061
牧牛	-11.0063
遠行	-11.0064
神通變化	-11.0065
許可	-11.0065
說經法	-11.0066
取我	-11.0066
之耳	-11.0072
替	-11.0073
娶	-11.0074
五百比丘	-11.0074
杵	-11.0076
二十四	-11.0078
大恐怖	-11.008
宰	-11.0081
欲去	-11.0082
害心	-11.0086
尤	-11.0088
姑	-11.0088
行梵行	-11.0089
五欲樂	-11.0089
滅罪	-11.009
皇	-11.0091
慘	-11.0094
恒河沙	-11.0095
可往	-11.0098
俟	-11.0098
德光太子	-11.0098
紅	-11.0099
較量	-11.01
驚愕	-11.0102
掃	-11.0106
籌	-11.0106
逃走	-11.0108
至尊	-11.0109
莫令	-11.0109
式	-11.011
諷誦	-11.011
瞋怒	-11.011
香湯	-11.011
鼠	-11.0111
鑒	-11.0112
反覆	-11.0113
僧坊	-11.0113
來聽法	-11.0113
王法	-11.0118
但為	-11.0119
為柱及以梁棟	-11.0119
為臺即	-11.012
博戲	-11.012
是汝	-11.012
諸瓔珞	-11.012
是王	-11.0123
捷疾	-11.0124
八部	-11.0125
識宿命	-11.0126
廣說如契經	-11.0127
世所希有	-11.0127
於其中間	-11.013
欲相	-11.0131
掃灑	-11.0135
從他	-11.0137
惑業	-11.014
左右圍遶	-11.0141
悲號	-11.0142
對治	-11.0142
菩薩具足	-11.0145
所見敬仰	-11.0146
如虛空	-11.0147
清明	-11.0147
如地	-11.0149
聞佛說	-11.015
磨滅	-11.0151
了達	-11.0159
初禪	-11.016
歎德	-11.0164
上至	-11.0169
在眾	-11.0172
自修	-11.0173
如師子王	-11.0173
為甲	-11.0176
仙聖	-11.0177
村人	-11.0179
謂如來	-11.018
有得須陀洹者	-11.0181
修十善	-11.0183
白世尊曰	-11.0184
諸相	-11.0185
河水	-11.0187
生信	-11.0191
加害	-11.0195
調達是	-11.0195
師長	-11.0197
不久當	-11.0202
處中	-11.0202
便與	-11.0207
見世尊	-11.0214
以是因緣故	-11.0218
可共	-11.0219
大得	-11.022
明淨	-11.0223
喜歡	-11.0225
豐饒	-11.0225
欲斷	-11.0226
見人	-11.0226
而眠	-11.0227
或因	-11.0227
不遇	-11.023
最後身	-11.0231
復至	-11.0232
亦不可	-11.0232
詮	-11.0233
整衣服	-11.0237
為所	-11.0241
普施	-11.0242
魔軍	-11.0243
愛憎	-11.0244
希有世尊	-11.0247
於彼處	-11.0247
多劫	-11.0254
說其	-11.0254
身自	-11.0254
止宿	-11.0255
異類	-11.0258
得安	-11.0259
應真	-11.026
莊嚴以	-11.0261
此者	-11.0264
便往	-11.0264
無事不	-11.0267
二障	-11.0268
何必	-11.0268
以求	-11.027
令他	-11.027
倒見	-11.0276
國事	-11.0279
諸菩薩眾	-11.028
微妙法	-11.0285
而成	-11.0289
寶衣	-11.0289
歎佛	-11.0289
孰	-11.029
以妙	-11.0292
本土	-11.0295
一心念	-11.0296
那羅	-11.0298
弘誓	-11.0298
為真	-11.0299
莫復	-11.0299
吾不	-11.0306
觀身	-11.031
執杖	-11.0312
便作是念	-11.0314
鬘論	-11.0318
共行	-11.0319
該	-11.032
現在諸佛	-11.032
人輩	-11.0322
時彼比丘	-11.0329
八方	-11.0331
何因緣	-11.0331
是故當	-11.0332
不習	-11.0332
彈	-11.0334
得知	-11.0337
用施	-11.0338
天耳	-11.0338
攝心	-11.0341
清淨心	-11.0342
神祇	-11.0343
夫妻	-11.0347
甚為難	-11.0349
如其所	-11.0349
以正法	-11.035
還到	-11.0355
白其父	-11.0356
莊	-11.0358
修善行	-11.0361
汝今可	-11.0362
出言	-11.0362
高遠	-11.0363
用是	-11.0365
之外	-11.0366
身著	-11.0366
以水	-11.0376
無量百千萬億	-11.0376
各與	-11.0377
牧	-11.0382
稱為	-11.0382
患難	-11.0383
起大慈	-11.0384
廁	-11.0385
於今日	-11.0387
皷	-11.0392
由延	-11.0395
吾以	-11.0396
瞿夷	-11.0398
淨飯	-11.0399
膚	-11.0399
綺	-11.0399
王自	-11.0399
刻	-11.04
鍊	-11.0403
陋	-11.0404
如母	-11.0404
飡	-11.0405
種種珍寶	-11.0406
遐	-11.0406
枯竭	-11.0406
疼痛	-11.0406
甞	-11.0407
能詮	-11.0408
荷	-11.0409
有女	-11.0409
候	-11.041
縱橫	-11.041
不敬	-11.041
腦	-11.0412
病比丘	-11.0413
捶	-11.0413
一日一夜	-11.0413
涕唾	-11.0414
揵陟	-11.0416
鞞	-11.0417
某甲	-11.0417
題	-11.0418
篋	-11.0419
飄	-11.042
環	-11.0421
鑽	-11.0421
宜可	-11.0421
隙	-11.0421
無等倫	-11.0421
質直	-11.0422
爾等	-11.0424
幾時	-11.0426
嚴峻	-11.0426
嶮難	-11.0427
僮僕	-11.0429
難思議	-11.0429
沒溺	-11.043
從坐而起	-11.0432
稽首作禮	-11.0433
彼辟支佛	-11.0433
教訓	-11.0433
依附	-11.0437
嚴麗	-11.0437
火鬘	-11.0437
從三昧起	-11.0438
失其	-11.0439
黠慧	-11.0439
頓教	-11.0439
其性	-11.044
秦	-11.044
瞿曇彌	-11.0441
我等今	-11.0441
便問	-11.0444
如是菩薩觀察	-11.0444
是時於眾生類而	-11.0444
尸棄	-11.0444
四無垢性	-11.0444
合掌恭敬	-11.0445
悲感	-11.0446
戀著	-11.0449
無顛倒	-11.0449
淨修梵行	-11.045
喜不自勝	-11.0452
吾所	-11.0454
即令	-11.0456
廣度眾生	-11.0456
牛王	-11.0457
以娛樂之	-11.0457
分布	-11.0458
迦尸國	-11.0459
火所燒	-11.046
悉達多	-11.0463
三句	-11.0463
便還	-11.0463
諸小王	-11.0463
志求	-11.0463
悲喜	-11.0464
不正	-11.0465
山間	-11.0467
而哭	-11.0468
之徒	-11.0468
句義	-11.0471
君子	-11.0472
隨類	-11.0473
著袈裟	-11.0475
流轉生死	-11.0477
長跪白佛	-11.0477
兵將	-11.0482
為食	-11.0484
入三昧	-11.0486
敬愛	-11.0491
設會	-11.0491
在我	-11.0494
唯此	-11.0499
俱行	-11.05
止止	-11.0501
已見	-11.0501
末後	-11.0504
比丘眾	-11.0504
望得	-11.0506
古昔	-11.0515
捨諸	-11.0516
分為	-11.0516
造惡	-11.0517
調心	-11.052
已知	-11.0522
生男	-11.0525
三日	-11.0525
眾惱	-11.0528
行苦行	-11.0528
將護	-11.0537
熾火	-11.0538
毘婆	-11.0538
初不	-11.0538
鐵圍山	-11.0541
稱歎	-11.0546
等覺	-11.0548
入地	-11.0548
專意	-11.0549
大城	-11.0549
大國王	-11.0554
諮問	-11.056
即能	-11.0563
乃至今者	-11.0564
去後	-11.0565
以供	-11.0567
常生	-11.0568
即下	-11.057
萬八千	-11.0572
國有	-11.0574
攝持	-11.0578
不來	-11.0579
欲愛	-11.0582
吾有	-11.0584
諸獸	-11.0584
眾流	-11.0585
高行	-11.0589
諸佛菩薩	-11.059
作觀	-11.0591
四智	-11.0591
求阿耨多羅三藐三菩提	-11.0592
乃令	-11.0593
即解	-11.0594
淨意	-11.0602
光中	-11.0603
剎土	-11.0603
出去	-11.0604
瓦	-11.0604
來往	-11.0605
恒以	-11.0607
稽首禮	-11.0608
內懷	-11.061
一法	-11.0613
明月	-11.0617
皆然	-11.0617
搏	-11.0626
山上	-11.0626
即滅	-11.0627
毀壞	-11.0627
為緣	-11.0627
從何而	-11.0628
白太子	-11.0628
獨處	-11.063
普世	-11.0632
在虛空	-11.0634
侍女	-11.0634
已度	-11.064
生歡喜心	-11.0641
雖未	-11.0641
經於	-11.0642
何者	-11.0643
至彼岸	-11.0644
一事	-11.0646
戒為	-11.0646
本是	-11.0648
長時	-11.0649
諸善根	-11.0651
轉輪	-11.0655
說於	-11.0667
實非	-11.067
語舍利弗	-11.0671
悋	-11.0672
不加	-11.0677
名德	-11.0679
猶如彼	-11.0681
更樂	-11.0682
犯戒	-11.0682
火光	-11.0683
此喻	-11.0687
億千	-11.0689
不墮	-11.0691
其音	-11.0691
有一仙人	-11.0692
汝今諦聽	-11.0693
得道者	-11.0694
復重	-11.0697
詣向	-11.0699
佛說是	-11.0701
化作一	-11.0702
父母兄弟	-11.0703
生梵天	-11.0704
百千億	-11.0706
迦葉言	-11.0706
佛名	-11.0707
必成	-11.0708
在其中	-11.0711
愴然	-11.0712
如所	-11.0714
儒	-11.0715
藕	-11.0717
三摩地	-11.0725
怠	-11.0725
信者	-11.0726
珠寶	-11.0727
佛出世	-11.0727
啄	-11.0728
丹	-11.0729
悲啼	-11.0731
徙	-11.0731
晃昱	-11.0731
嚴身	-11.0731
耻	-11.0732
鶴	-11.0733
當說	-11.0733
胡	-11.0734
駝	-11.0734
為死	-11.0735
穢污	-11.0735
享	-11.0736
佯	-11.0736
嚩	-11.0737
入海採寶	-11.0738
晃	-11.0739
自觀察	-11.0739
集諸	-11.0739
百官	-11.0739
虬	-11.0739
淤泥	-11.0741
真法	-11.0741
生類	-11.0741
增修	-11.0741
現今	-11.0742
然則	-11.0743
嚙	-11.0743
逃避	-11.0743
餓虎	-11.0744
八百	-11.0745
好布施	-11.0745
願為弟子	-11.0746
時輸檀王	-11.0748
猶有	-11.0748
習氣	-11.075
時到	-11.075
陰蓋	-11.075
謗毀	-11.0752
為主	-11.0752
和悅	-11.0752
蚊虻	-11.0753
諸王臣民	-11.0756
刈	-11.0756
卷第八	-11.0758
房舍	-11.0759
結跏趺坐	-11.0759
妓樂	-11.076
永息	-11.076
高聲唱言	-11.0761
在樹下	-11.0761
前科	-11.0763
請法	-11.0767
室家	-11.0768
已至	-11.0768
數年	-11.077
雖是	-11.077
真常	-11.077
行業	-11.077
汝於今者	-11.077
備辦	-11.0771
金剛座	-11.0772
晝夜當念是	-11.0772
愍哀	-11.0774
是為最吉祥	-11.0775
醫師	-11.0776
萬億	-11.0777
婬妷	-11.0777
頻頭王	-11.0777
施心	-11.0778
何等為四	-11.0778
受具戒	-11.0778
守門者	-11.0778
螺髻梵志	-11.0778
發誓願	-11.0779
沙門及婆羅門	-11.0779
優鉢羅花	-11.0781
行作沙門	-11.0786
汝但	-11.0788
興盛	-11.0788
神呪	-11.0789
便取	-11.079
獨步	-11.079
長者居士	-11.0791
受法	-11.0792
優波低沙波離婆闍迦	-11.0794
行乞食	-11.0796
於樹下	-11.0796
剃髮師	-11.0797
護口	-11.0799
遭遇	-11.0799
發大心	-11.08
得至	-11.0802
之機	-11.0803
月滿	-11.0804
損壞	-11.0805
即佛	-11.0806
所殺	-11.0809
不容	-11.0809
或現	-11.081
遍覆	-11.0812
立字	-11.0816
毒蟲	-11.0817
定力	-11.0818
或是	-11.0819
刀劍	-11.082
射獵	-11.0822
教導	-11.0824
佛告長者	-11.0826
此賢劫中	-11.0828
時彼仙人	-11.0829
行路	-11.0831
已死	-11.0838
唯當	-11.0839
便語	-11.0841
來向	-11.0845
講說	-11.0848
斷其	-11.0848
顏貌端正	-11.0848
不被	-11.0849
甘露味	-11.0851
百千萬	-11.0851
不近	-11.0853
頭目	-11.0853
我今亦	-11.0858
眾妙	-11.0859
無慚	-11.0859
有十	-11.086
人曰	-11.086
今始	-11.086
如魚	-11.0861
汝自	-11.0861
唯我	-11.0864
稱善	-11.0866
後來	-11.0867
王甚	-11.0868
能發	-11.0869
備足	-11.0871
而見	-11.0873
深心	-11.0873
王教	-11.0874
大子	-11.0878
時彼長者	-11.0878
喪命	-11.0881
不計	-11.0885
今故	-11.0891
時長者子	-11.0891
五十由旬	-11.0891
生隨喜	-11.0892
深重	-11.0893
大河	-11.0894
長者婦	-11.0896
求無上道	-11.0898
服之	-11.0899
理家	-11.0903
捨世	-11.0905
解脫門	-11.0906
無放逸	-11.091
百由旬	-11.0913
無量世中	-11.0915
所使	-11.0917
慧解	-11.0918
芥子	-11.0919
金鉢	-11.0922
同學	-11.0924
」「	-11.0926
惡報	-11.0927
而便	-11.0927
我向	-11.0933
如來所	-11.0934
大魚	-11.0934
為國王	-11.0935
由我	-11.0935
身毛	-11.0938
無塵	-11.0945
施食	-11.0946
欲意	-11.0947
出曜	-11.0951
來乞	-11.0952
非我所	-11.0954
二執	-11.0962
羅閱祇	-11.0962
於夜	-11.0964
能仁	-11.0968
虛空諸天	-11.0969
若為	-11.0969
雖為	-11.0971
由彼	-11.0971
有好	-11.0972
當死	-11.0973
無所不	-11.0976
有恩	-11.0976
取一	-11.0976
無念	-11.0979
本心	-11.0981
諸禽獸	-11.0982
已除	-11.0982
三惡	-11.0987
美妙	-11.099
以濟	-11.099
億載	-11.099
今來	-11.0995
之水	-11.0996
不可以	-11.0997
來生	-11.0997
用心	-11.1002
亦云	-11.1002
或云	-11.1008
先有	-11.1015
此岸	-11.1018
猶未	-11.102
斷盡	-11.1026
餚饍	-11.1029
巖	-11.103
能伏	-11.1034
人說	-11.1036
優陀	-11.1044
佛復告	-11.1049
已不	-11.105
相謂言	-11.1051
梟	-11.1051
慧者	-11.1051
世榮	-11.1052
得為	-11.1055
經久	-11.1058
屎尿	-11.1058
纖	-11.106
〔	-11.106
刑	-11.1061
父母及	-11.1061
一體	-11.1063
焉能	-11.1064
僧祇	-11.1067
皆同	-11.1067
有愛	-11.1068
相將	-11.1069
悶	-11.1069
數百	-11.1069
度彼	-11.107
詰	-11.107
往見	-11.107
薄伽梵	-11.107
祭	-11.1071
經戒	-11.1071
語諸	-11.1071
無等	-11.1071
訴	-11.1072
疎	-11.1074
撫	-11.1075
嚕	-11.1075
雌	-11.1076
若知時	-11.1076
之光	-11.1076
會當	-11.1077
大莊嚴論	-11.1077
無數百千	-11.1079
王仙	-11.1079
石蜜	-11.1079
統領	-11.108
完具	-11.108
愆	-11.1081
清徹	-11.1081
無有厭足	-11.1081
普為	-11.1083
三千大千	-11.1083
如是至三	-11.1084
姚秦涼州沙門竺佛念譯	-11.1084
麤獷	-11.1085
光明照	-11.1086
拘胝	-11.1086
佐助	-11.1087
給與	-11.1087
蠅	-11.1087
或有婇女	-11.1088
天福	-11.1089
畢鉢羅耶	-11.1091
後夜	-11.1092
無物	-11.1092
自相謂言	-11.1092
革屣	-11.1093
非不	-11.1093
二十三	-11.1093
右遶三匝	-11.1093
兩足	-11.1095
少欲知足	-11.1096
滅盡泥洹	-11.1096
普慈	-11.1097
有娠	-11.1098
毀呰	-11.1099
將去	-11.11
覆蔽	-11.1101
眼見	-11.1101
來至我所	-11.1101
端坐思惟	-11.1102
稱揚	-11.1103
文字	-11.1105
合掌向佛	-11.1107
以是善根	-11.1112
三分	-11.1112
之性	-11.1112
無情	-11.1112
請問	-11.1115
此婆羅門	-11.1117
娉以為婦	-11.1119
我獨	-11.1121
緣是功德	-11.1122
惡世	-11.1124
能壞	-11.1124
天花	-11.1124
恒為	-11.1125
怖懼	-11.1127
醉象	-11.1128
摩納	-11.1128
淨潔	-11.1129
貧苦	-11.1129
業道	-11.113
幻惑	-11.1131
優陀夷言	-11.1134
萬里	-11.1134
給施	-11.1135
纏裹	-11.1138
亦復讚歎	-11.1142
往趣	-11.1144
無量阿僧祇劫	-11.1144
我母	-11.1145
與大眾	-11.1147
調戲	-11.1147
大悲菩薩摩訶薩	-11.1149
逼切	-11.1149
又觀	-11.115
佛恩	-11.1152
必是	-11.1154
住立	-11.1155
盡力	-11.1156
一邊	-11.1157
與一	-11.1158
從何來	-11.1158
入此	-11.1159
阿私陀	-11.116
致此	-11.116
豈得	-11.1162
其水	-11.1164
思欲	-11.1166
容受	-11.1169
像法	-11.117
取彼	-11.1171
以天眼	-11.1175
何因緣故	-11.1176
欲有所	-11.1179
水洗	-11.1181
能修	-11.1181
有病	-11.1182
自娛	-11.1185
共議言	-11.1186
仙人所	-11.1186
少小	-11.1188
疑怪	-11.1188
此華	-11.1189
一時佛在	-11.1189
象龍	-11.119
勝處	-11.1193
解脫者	-11.1195
何從	-11.1197
人意	-11.1199
百福	-11.12
其主	-11.1202
所化	-11.1205
空處	-11.1205
清淨無垢	-11.1207
噉食	-11.1209
此道	-11.1212
乃見	-11.1213
歸依佛	-11.1214
王四天下	-11.1215
廣博	-11.1215
稱之	-11.1216
狀如	-11.1216
進道	-11.1217
極令	-11.1218
醜惡	-11.1219
欲入	-11.1221
三十七	-11.1226
此夢	-11.1232
少有	-11.1235
下方	-11.1236
天祠	-11.1238
證道	-11.1239
若生	-11.1249
後當	-11.1249
及於	-11.125
沙王	-11.1255
世所	-11.1259
知有	-11.1259
無上法	-11.1261
自守	-11.1266
為恐怖	-11.1269
合集	-11.1272
勝行	-11.1273
佛問	-11.1274
遠去	-11.1275
火聚	-11.1277
毘陀	-11.1277
二經文	-11.1279
於一切法	-11.1279
驚喜	-11.1281
於四	-11.1282
於佛所	-11.1282
將非	-11.1282
牛羊	-11.1283
性行	-11.1285
鐵圍	-11.1285
無苦	-11.1285
出宮	-11.1286
佛智	-11.1287
出於世	-11.129
一切施	-11.129
如雨	-11.1292
漸至	-11.1293
欲何所	-11.1293
二十六	-11.1294
害人	-11.1295
證阿耨多羅三藐三菩提	-11.1299
是名為	-11.13
則得	-11.1302
四魔	-11.1304
我在	-11.1307
令知	-11.1309
瓶沙	-11.131
問於	-11.1311
能燒	-11.1315
開發	-11.1315
身光	-11.1316
不善業	-11.1317
皆具	-11.1319
頭面	-11.1319
復往	-11.132
以神足	-11.1321
稱佛	-11.1322
一切恐怖	-11.1323
富樂	-11.1325
一宿	-11.1331
彼園	-11.1332
乘車	-11.1333
欲說	-11.1334
禪思	-11.1334
行檀波羅蜜	-11.1335
而受	-11.1336
習於	-11.1336
中央	-11.1337
利益安樂	-11.1338
不也	-11.134
是故菩薩	-11.134
有王名	-11.1341
四邊	-11.1342
皆圓滿	-11.1344
從來	-11.1344
諸聖	-11.1346
寶瓶	-11.1348
之首	-11.1349
無貪	-11.1349
不爾	-11.135
如有	-11.1352
放光明	-11.1352
即白	-11.1352
受諸	-11.1357
其次	-11.136
欲界諸天	-11.1361
滅則	-11.1364
出家人	-11.1365
殿上	-11.1371
泡	-11.1371
然火	-11.1378
河中	-11.1383
亦知	-11.1384
同前	-11.1386
若聞	-11.1388
捨命	-11.1389
景	-11.1395
眾許	-11.1397
銜	-11.1398
縣	-11.1398
輝	-11.1399
又能	-11.1401
意謂	-11.1403
西域	-11.1403
訟	-11.1404
暴風	-11.1404
語其	-11.1404
親戚	-11.1405
卵	-11.1406
發無上正真道意	-11.1406
霹靂	-11.1407
岸邊	-11.1407
貝	-11.1408
之形	-11.1409
乘船	-11.1409
海濟婆羅門	-11.1412
兆民	-11.1412
悼	-11.1413
憔悴	-11.1414
塹	-11.1414
革	-11.1414
懇	-11.1415
云何乃	-11.1415
吉凶	-11.1416
擒	-11.1417
矢	-11.1417
面貌	-11.1418
清淨無瑕穢	-11.1419
良田	-11.142
英	-11.142
心地法門	-11.142
娑婆	-11.142
隨應	-11.1421
祈	-11.1421
割截	-11.1421
鎖	-11.1421
麁	-11.1421
乞士	-11.1422
資糧	-11.1423
怡	-11.1426
悉當	-11.1426
聞是事已	-11.1427
后妃	-11.1428
不亦	-11.1428
脇	-11.1429
龍象	-11.143
不妄	-11.1434
耆年	-11.1434
沈沒	-11.1434
共相謂言	-11.1437
祕藏	-11.1437
危害	-11.1438
引發	-11.1439
優波斯那	-11.1439
熟視	-11.144
林樹	-11.1441
自悔責	-11.1441
威儀庠序	-11.1442
拜手	-11.1442
右邊	-11.1442
兜	-11.1442
那提迦葉	-11.1442
分陀利	-11.1445
有發無上菩提心者	-11.1446
佛及僧	-11.1446
莊挍	-11.1447
各執	-11.1447
耳鼻	-11.1449
而共	-11.1452
如我今也	-11.1453
惡露	-11.1453
因為立字	-11.1453
我命	-11.1454
還詣	-11.1456
十號具足	-11.1456
蓮華上	-11.1457
我夫	-11.1461
受五欲樂	-11.1462
厭離世間	-11.1462
告其	-11.1463
語王言	-11.1463
端政殊妙	-11.1464
遊歷	-11.1464
可止	-11.1465
如我今者	-11.1465
歎譽	-11.1465
其婦懷妊	-11.1466
止寂	-11.1467
妙理	-11.1468
奉敬	-11.1468
以三昧力故	-11.1469
阿羅	-11.1469
爾時海濟婆羅門	-11.147
佛土微塵數	-11.1472
已捨	-11.1472
等無差別	-11.1475
大莊嚴	-11.1475
五百歲	-11.1476
奉教	-11.1476
頭陀	-11.1478
及至	-11.1478
世界中	-11.1481
妻息	-11.1482
善惠	-11.1483
辭別	-11.1485
慎勿	-11.1489
稱性	-11.1491
劫奪	-11.1492
號名	-11.1493
或復有人	-11.1494
猶故	-11.1496
五樂	-11.1496
於佛法	-11.1497
電光	-11.1497
文義	-11.1498
糞掃衣	-11.1498
堪為	-11.15
當須	-11.15
佛說是時	-11.1501
畢訖	-11.1502
還本	-11.1504
財施	-11.1504
朗	-11.1504
六親	-11.1505
受佛	-11.1507
於後時	-11.1508
山野	-11.151
而下	-11.151
道理	-11.1514
迦葉佛時	-11.1515
男兒	-11.1518
即起合掌	-11.1518
相娛樂	-11.1522
無有餘	-11.1524
勝果	-11.1525
供養於佛	-11.1529
河邊	-11.153
至王所	-11.153
四寶	-11.1532
法空	-11.1533
智慧者	-11.1533
如來所說	-11.1533
道心	-11.1535
已能	-11.1535
供養者	-11.1537
無勝	-11.1538
留難	-11.1543
云何而	-11.1544
今見	-11.1546
有一大臣	-11.1548
彼長者	-11.1555
來會	-11.1555
其舍	-11.1557
飛來	-11.1557
云何能	-11.1559
歷劫	-11.1564
大石	-11.1568
護法	-11.157
驚畏	-11.157
捨彼	-11.1571
王心	-11.1573
下車	-11.1573
所有諸	-11.1575
教他	-11.1575
又不	-11.1577
行求	-11.1578
前人	-11.158
苦本	-11.1583
愚癡故	-11.1583
頻婆娑羅王	-11.1585
自作	-11.1585
此國	-11.1587
成無上道	-11.1589
懷疑	-11.1589
若非	-11.159
設我	-11.1592
消化	-11.1592
生此	-11.1594
於過去世	-11.1594
至如來所	-11.1595
匝	-11.1596
復何	-11.1599
此意	-11.1601
自以	-11.1602
行處	-11.161
聲響	-11.1614
之志	-11.1615
江水	-11.1618
族姓	-11.1619
忉利天上	-11.1619
還本國	-11.162
聲聞眾	-11.1622
其目	-11.1625
已到	-11.1631
釋眾	-11.1632
無有一人	-11.1633
象子	-11.1642
巨	-11.1646
無慧	-11.1654
兔王	-11.1655
果樹	-11.1661
欲詣	-11.1663
已過	-11.1665
座上	-11.1665
渴乏	-11.1666
過去佛	-11.1666
得佛道	-11.1667
其力	-11.1667
徵釋	-11.1667
猶如大海	-11.1672
復更重	-11.1675
何須	-11.1675
不願	-11.1676
不待	-11.1679
事事	-11.168
此行	-11.1681
是何人	-11.1681
釋迦牟尼	-11.1681
何方	-11.1684
仁慈	-11.1685
王種	-11.1685
乳母	-11.1688
定光	-11.169
息意	-11.1692
寶藏佛	-11.1698
遇佛	-11.17
沒在	-11.17
去者	-11.1702
所度	-11.1704
善惡業	-11.1705
定中	-11.1705
王聞此語	-11.1707
苦身	-11.1708
恭敬供養	-11.171
安得	-11.1713
自取	-11.1715
如樹	-11.1716
七珍	-11.1722
彼地	-11.1722
齋法	-11.1725
畢已	-11.1729
寔	-11.1733
王又	-11.1741
銀錢	-11.1745
更增	-11.1745
著衣	-11.1746
乘此	-11.1746
敬信	-11.1747
展	-11.1748
聞是已	-11.1749
誠心	-11.1751
沫	-11.1752
求出	-11.1752
哀慟	-11.1754
閻浮利	-11.1754
還歸家	-11.1755
然今	-11.1755
回	-11.1755
僉然	-11.1757
辟支佛乘	-11.1757
為禮	-11.1757
虺	-11.1758
王與	-11.1759
疫	-11.1761
葬	-11.1761
沃	-11.1761
貞	-11.1761
挾	-11.1762
阻	-11.1763
片	-11.1764
芬	-11.1764
各還	-11.1764
農	-11.1768
諸群臣	-11.1768
斂	-11.177
曩	-11.1771
𦟛	-11.1771
橋梁	-11.1772
宴	-11.1773
欣慶	-11.1773
鍾	-11.1774
踈	-11.1774
象馬車乘	-11.1775
欻	-11.1775
摶	-11.1775
聲聞乘	-11.1776
比丘當知	-11.1776
議言	-11.1776
軀命	-11.1777
身壞命終	-11.1778
有如此	-11.1778
律儀	-11.1779
本座	-11.1779
頞	-11.1779
搖動	-11.178
可獲	-11.178
漫	-11.1781
虛偽	-11.1781
拭	-11.1782
職	-11.1783
屈伸	-11.1784
寒熱	-11.1784
拾	-11.1784
魔羅	-11.1786
塜間	-11.1788
振動	-11.1789
毘沙門天王	-11.1789
轉輪王位	-11.179
剃鬚髮	-11.1793
作聲	-11.1793
其諸	-11.1794
報佛恩	-11.1794
喪失	-11.1794
澡漱	-11.1794
從座而起	-11.1794
商客	-11.1796
書寫	-11.1797
憎愛	-11.1797
又聞	-11.1797
淨飯大王	-11.1798
下四句	-11.1798
故不如我道真也	-11.18
而說斯偈	-11.18
服藥	-11.1802
上中下	-11.1803
剜	-11.1804
八道	-11.1806
頻頭娑羅	-11.1808
深自	-11.1808
在人間	-11.1808
欲還	-11.1808
五百長者	-11.181
如前所說	-11.181
不如一日	-11.181
退散	-11.1811
發大誓願	-11.1812
能所	-11.1815
云何為四	-11.1815
孝養	-11.1815
以奉	-11.1815
設諸餚饍	-11.1816
罪咎	-11.1819
今汝	-11.1819
聖德	-11.1821
無悔恨	-11.1821
猶如虛空	-11.1823
便告	-11.1823
感動	-11.1825
九十日	-11.1826
孰能	-11.1827
泉池	-11.1827
苦空	-11.1828
如來得成於佛道已	-11.1828
諸人眾	-11.1832
得證	-11.1833
以大	-11.1833
佛出現於世	-11.1834
妄念	-11.1834
在虛空中	-11.1834
解脫句	-11.1836
于地	-11.1836
外人	-11.1837
送之	-11.1839
四向	-11.1841
猶如有人	-11.1843
自護	-11.1845
我於往昔	-11.1846
棄藥	-11.185
生善處	-11.1852
大火聚	-11.1854
能施	-11.1858
不逆	-11.1858
福力太子	-11.1859
大沙門邊	-11.1859
人情	-11.1861
濟眾	-11.1867
面色	-11.1867
又於	-11.1869
正直	-11.187
依此	-11.1872
在胎	-11.1872
法說	-11.1873
人語	-11.1874
可喜	-11.1874
聞見	-11.1875
見有一	-11.188
染衣	-11.1884
七十	-11.1888
修羅	-11.1889
於欲	-11.1893
菩薩如是	-11.1896
一合	-11.1899
速成	-11.1899
無師	-11.1899
以此因緣	-11.19
前云	-11.19
。】	-11.1901
成菩提	-11.1901
若斷	-11.1902
而已	-11.1904
欲共	-11.1905
床上	-11.1906
當如	-11.1912
布施如是	-11.1913
爾時長者	-11.1916
生老死	-11.1916
▁【	-11.1917
要誓	-11.1918
二日	-11.192
染諍	-11.1925
今乃	-11.1926
喜心	-11.1928
非身	-11.193
釋迦文佛	-11.1935
各得	-11.1936
以見	-11.1936
本覺	-11.1936
共居	-11.1937
爾時尊者	-11.1937
所有功德	-11.1937
及諸眷屬	-11.1938
為梵志	-11.1941
威神力	-11.1943
從乞	-11.1949
障染	-11.195
頂戴	-11.1952
群牛	-11.1952
來見	-11.1955
能入	-11.1955
商賈	-11.1956
無幾	-11.1956
汝以	-11.1957
月明	-11.1958
奧	-11.1959
汝意	-11.1961
有能	-11.1966
七世	-11.1967
乏短	-11.1974
此生	-11.1976
釋迦文	-11.1976
不擇	-11.1976
輕躁	-11.1976
入深山	-11.1978
必獲	-11.1981
悲願	-11.1981
意所	-11.1983
總言	-11.199
名婆	-11.199
林樹間	-11.1991
六十四	-11.1994
法聲	-11.1997
堅實	-11.1998
施於	-11.1999
大用	-11.2
又無	-11.2
?「	-11.2002
乃名	-11.2003
三十一	-11.2003
雜種	-11.2008
有一女	-11.2011
為天人	-11.2015
取命終	-11.2016
共彼	-11.2017
五千	-11.202
強力	-11.202
信施	-11.2024
佛威神	-11.2024
正教	-11.2026
久長	-11.2026
勸發	-11.2027
我當為	-11.2029
饑	-11.2031
初發	-11.2032
業緣	-11.2032
之故	-11.2032
云何不	-11.2034
初出	-11.2037
二親	-11.2038
方計	-11.2038
勿使	-11.2041
真解脫	-11.2043
於諸三昧	-11.2045
心自	-11.2047
大風	-11.2047
真淨	-11.2049
何以不	-11.2053
還其	-11.2054
如此之	-11.2063
識知	-11.2063
斷生死	-11.2064
化彼	-11.2064
聞我	-11.2068
女身	-11.2069
少年	-11.2072
趣菩提	-11.2072
尸羅	-11.2073
何忍	-11.2078
上樹	-11.2083
故得	-11.2083
利生	-11.2084
不具	-11.2089
欲觀	-11.2092
諸病	-11.2093
薩婆	-11.2096
戟	-11.2098
有一梵志	-11.21
阿蘭	-11.21
同處	-11.21
大海水	-11.21
度之	-11.2101
能成	-11.2106
阿難言	-11.2107
肌	-11.2112
當修	-11.2113
掉	-11.2113
心行	-11.2114
王頭	-11.2114
而求	-11.2115
當詣	-11.2116
悉共	-11.2118
渚	-11.2118
偈言	-11.2119
治生	-11.2119
貿易	-11.2125
五比丘	-11.2126
不得自在	-11.2128
無作	-11.2128
膽	-11.2128
宿行	-11.2131
末二句	-11.2131
豈況	-11.2132
今現	-11.2133
行相	-11.2136
願聽	-11.2136
夕	-11.2138
摩伽陀	-11.2138
悵然	-11.2139
四名	-11.2139
㘁	-11.214
能分別	-11.2142
頭目髓腦	-11.2142
橋	-11.2142
乞人	-11.2143
依彼	-11.2143
危厄	-11.2143
歸伏	-11.2144
為諸天人	-11.2144
註	-11.2144
怛	-11.2145
機關	-11.2145
哽咽	-11.2145
偷盜	-11.2146
婁	-11.2146
机	-11.2146
胞胎	-11.2146
歡娛	-11.2147
欣悅	-11.2147
屋宅	-11.2147
緣經	-11.2147
行住坐臥	-11.2148
渡河	-11.2148
悚然	-11.2149
大菩提	-11.2149
結名	-11.215
如影隨形	-11.2151
清潔	-11.2151
湧	-11.2152
即放	-11.2152
大如車輪	-11.2154
苷蔗	-11.2155
嫌恨	-11.2155
諸如來	-11.2155
朋	-11.2155
感應	-11.2156
時阿私陀	-11.2156
釋氏	-11.2157
尊勝	-11.2158
名之為	-11.2158
心驚毛竪	-11.2159
在家時	-11.2159
八正道	-11.2159
金粟	-11.2159
受我請	-11.2159
遂即	-11.216
屋舍	-11.2161
牸牛	-11.2162
衣被飲食	-11.2162
如彼愚人	-11.2162
百千萬倍	-11.2163
梵行已立	-11.2164
孝養父母	-11.2164
牛乳	-11.2165
慙愧	-11.2165
床臥具	-11.2166
敗壞	-11.2166
山川	-11.2166
徹照	-11.2169
首羅	-11.2171
授阿耨多羅三藐三菩提記	-11.2172
了解	-11.2173
入於涅槃	-11.2176
戒善	-11.2177
謂既	-11.2177
勇猛精進	-11.2177
令住其中	-11.2178
菩提道場	-11.2178
施戒	-11.218
精進勇猛	-11.2181
世出世間	-11.2186
而以	-11.2187
將我	-11.2187
當捨	-11.2187
大涅槃	-11.2188
無與等者	-11.2188
既自	-11.2188
說四諦法	-11.2189
不改	-11.219
有發辟支佛	-11.219
遷神	-11.2191
應當知	-11.2194
與共	-11.2194
有國名	-11.2194
遂致	-11.2194
入佛	-11.2195
露地	-11.2197
善願	-11.2199
奇異	-11.2199
一言	-11.22
向家	-11.2201
不負	-11.2202
諸天玉女	-11.2204
唯一	-11.2204
至孝	-11.2204
惟願世尊	-11.2204
於諸法	-11.2207
服食	-11.2207
舍利弗是	-11.2209
毀害	-11.2209
前文	-11.221
為三界	-11.221
諸罪	-11.2212
於佛法中	-11.2212
來供養	-11.2214
五塵	-11.2215
說偈曰	-11.2215
妙樂	-11.2215
罵辱	-11.2217
復有世界名	-11.222
自出	-11.2221
往佛所	-11.2225
就死	-11.2226
眾結	-11.2229
拔苦	-11.2229
八法	-11.2232
獲道果	-11.2233
豪尊	-11.2235
一味	-11.2236
損害	-11.2239
乃謂	-11.2244
百二十	-11.2244
舉頭	-11.2244
始得	-11.2245
大海中	-11.2246
響應	-11.2249
生念	-11.2249
一切下	-11.2249
又值	-11.225
閻浮提中	-11.2251
忽見	-11.2251
身被	-11.2253
心願	-11.2254
成其	-11.2255
困乏	-11.2256
三禪	-11.2256
射之	-11.2258
彈琴	-11.2259
降伏魔	-11.2259
內有	-11.226
若有善男子	-11.2267
踊躍無量	-11.2267
所住處	-11.2268
奉法	-11.2269
專念	-11.2276
七年	-11.2276
未曾有法	-11.2277
昔佛	-11.2285
各相	-11.2285
諸人輩	-11.2285
義也	-11.2286
待我	-11.229
二十七	-11.2293
復起	-11.2294
敬意	-11.2297
令太子	-11.2297
六牙	-11.2301
其根	-11.2304
於理	-11.2305
稱心	-11.2308
誰不	-11.2314
大富長者	-11.2315
中夜	-11.2317
宮城	-11.2318
道邊	-11.2319
令彼眾生	-11.232
貢上	-11.2321
但見	-11.2321
五體	-11.2321
見汝	-11.2323
觀照	-11.2327
令發阿耨多羅三藐三菩提心	-11.2328
取食	-11.233
寶器	-11.2331
意行	-11.2333
來求	-11.2333
方得	-11.2337
正等	-11.2339
忉利天王	-11.234
應為	-11.234
火滅	-11.2343
亦未	-11.2343
受三歸	-11.2346
應受	-11.2348
轉增	-11.235
高山	-11.2351
終不得	-11.2357
迎接	-11.2358
已畢	-11.2359
焚	-11.2359
何異	-11.236
青蓮	-11.236
從佛聞	-11.2364
內自	-11.2367
復將	-11.2368
是故汝等	-11.2369
善思	-11.2371
人若	-11.2372
坐聽法	-11.2373
法義	-11.2377
妙義	-11.2378
風起	-11.2387
亦同	-11.2387
與食	-11.2388
欲聞	-11.2392
白色	-11.2393
欲盡	-11.2395
眾相	-11.2395
果證	-11.2396
佛亦	-11.2399
有聲	-11.2401
聞偈	-11.2409
在宮	-11.241
今亦	-11.2414
說已	-11.2415
知不	-11.2418
必須	-11.2421
施我	-11.2423
生天緣	-11.2428
我今應當	-11.2428
聞此言	-11.2428
或食	-11.2429
其塔	-11.2429
已作	-11.2434
是名菩薩	-11.2435
欲離	-11.2435
以此為	-11.2436
眾罪	-11.2437
便於	-11.2438
福慧	-11.2438
亦以	-11.2438
能制	-11.2441
布施持戒	-11.2444
復令	-11.2445
中國	-11.2445
我食	-11.2447
是言	-11.2449
欲求解脫	-11.2449
愚夫	-11.245
將一	-11.2452
然可	-11.2453
來去	-11.2455
若行	-11.2455
澤中	-11.2455
眾人見	-11.2455
時白淨王	-11.2456
布地	-11.2457
證明	-11.2457
說是言	-11.246
法施	-11.2461
尋求	-11.2462
色界諸天	-11.2464
如鳥	-11.2464
正意	-11.2465
先當	-11.2467
不妄語	-11.2468
持戒者	-11.2468
昨	-11.2468
身也	-11.2471
此塔	-11.2473
而歸	-11.2474
以神力	-11.2475
於父母	-11.2479
為一切眾生	-11.2481
諸塵	-11.2484
聽我出家	-11.2485
王國	-11.2486
云何名	-11.2489
所用	-11.2492
翼	-11.2493
天仙	-11.2504
敬奉	-11.2506
悵	-11.2507
効	-11.2508
認	-11.251
莊嚴身	-11.2514
梁	-11.2515
叔	-11.2516
〕-【	-11.2517
餉	-11.2518
閒	-11.2519
巨細	-11.2519
暑	-11.2519
徑路	-11.252
霧	-11.252
儞	-11.2521
天竺	-11.2521
滅之	-11.2521
徵起	-11.2522
係	-11.2523
泯	-11.2523
姿容	-11.2523
諭	-11.2523
嗚	-11.2524
為於	-11.2525
道法御	-11.2525
彼言	-11.2525
利他之	-11.2526
萌芽	-11.2527
光耀	-11.2527
攀緣	-11.2527
娑羅那	-11.2528
伎女	-11.2529
駄	-11.253
日月星辰	-11.253
童男	-11.253
泥犁	-11.2531
疲乏	-11.2531
三解脫	-11.2531
狼	-11.2533
斤	-11.2533
含笑	-11.2533
兄弟二人	-11.2534
財富	-11.2535
乍	-11.2535
使女	-11.2536
爾所	-11.2536
一時佛遊舍衛祇樹給孤獨園	-11.2537
慰勞	-11.2538
穀米	-11.2538
波婆梨	-11.2538
摩休勒	-11.2539
釋梵四王	-11.254
涕淚	-11.254
從坐起	-11.2541
舉右手	-11.2541
般遮	-11.2541
稅	-11.2542
之前	-11.2543
二十由旬	-11.2544
流水	-11.2544
已辦	-11.2544
作瓶天子	-11.2546
鳩槃茶	-11.2547
之謂也	-11.2547
屏處	-11.2548
閻浮利地	-11.2549
從空來	-11.2549
算數	-11.255
無聲	-11.255
至一	-11.2551
初頌	-11.2551
流馳	-11.2552
不可量	-11.2553
普遍	-11.2557
曬	-11.2558
者必	-11.2559
釋種童子	-11.2559
福增	-11.2561
王子名為	-11.2562
肉眼	-11.2566
下結	-11.2566
若我所願成就	-11.2567
十德	-11.2567
無壞	-11.2569
尊師	-11.257
光明普曜	-11.257
咸來	-11.2571
掌中	-11.2571
七種	-11.2573
汝師	-11.2574
甚大歡喜	-11.2576
敬仰	-11.2577
執志	-11.258
受苦無量	-11.2581
一一分別	-11.2584
生此念	-11.2589
尋復	-11.2591
踊出	-11.2591
久存	-11.2593
有求	-11.2593
諸婇女等	-11.2594
難值	-11.2596
舉世	-11.2597
得淨	-11.2598
十戒	-11.2599
微塵等	-11.2599
驚起	-11.2599
口業	-11.26
弟言	-11.2602
復聞	-11.2603
饒益眾生	-11.2605
將軍	-11.2606
般若波羅蜜	-11.2606
。」「『	-11.2607
報也	-11.2612
其實	-11.2613
千年	-11.2614
於今者	-11.2614
與樂	-11.2618
供養眾僧	-11.2618
所詮	-11.262
無罪	-11.262
欲令眾生	-11.2621
水精	-11.2621
何行	-11.2624
二商主	-11.2629
行如是事	-11.263
流離王	-11.263
天降	-11.2631
迴施	-11.2635
起諸	-11.2635
滿鉢	-11.2637
喜根	-11.2638
中生	-11.2639
毀戒	-11.2639
瑟	-11.264
世間諸	-11.264
照了	-11.2641
覺者	-11.2641
不殺生	-11.2641
歌頌	-11.2643
皆應	-11.2644
不可說	-11.2648
自手	-11.2649
宮室	-11.2651
入胎	-11.2652
亦無所	-11.2652
真智	-11.2656
設供養	-11.2656
後復	-11.2661
惡獸	-11.2662
自濟	-11.2663
衣者	-11.2663
此眾生類	-11.2663
不勝	-11.2668
功用	-11.2669
釋迦牟尼佛	-11.2679
所棄	-11.268
形狀	-11.2681
於其中	-11.2682
奉戒	-11.2683
正心	-11.2684
食果	-11.2684
吾已	-11.2686
此食	-11.2689
不處	-11.2691
之要	-11.2693
之德也	-11.2693
餘殃	-11.2698
惡龍	-11.2704
妙藥	-11.2706
善權	-11.2706
共汝	-11.2707
初心	-11.2708
於三界	-11.2708
以斯	-11.2708
稱意	-11.2711
不飲	-11.2714
高大	-11.2715
那伽	-11.2715
以天眼觀	-11.2716
諸群生	-11.272
差摩	-11.2721
罪過	-11.2724
林間	-11.2725
捨之	-11.2727
華言	-11.2727
種種供養	-11.2728
墜墮	-11.2728
有人來	-11.273
亦不見	-11.2731
作轉輪王	-11.2732
便作	-11.2733
之用	-11.2736
毛竪	-11.2738
如大海	-11.2741
終不能	-11.2742
見他	-11.2742
彼諸眾生	-11.2747
可度	-11.2747
得住	-11.2747
入禪	-11.275
大哀	-11.275
示之	-11.2753
堅持	-11.2753
火中	-11.2759
鐵鼓	-11.2759
身意	-11.2761
其土	-11.2762
入禪定	-11.2764
浣	-11.2768
而入	-11.2769
之甚	-11.277
大願	-11.2774
以草	-11.2774
如來身	-11.2775
度脫眾生	-11.2777
在山中	-11.2781
隱身	-11.2783
暫時	-11.2787
善教	-11.2788
他化自在天	-11.279
解義	-11.2795
不耶	-11.2799
須彌山王	-11.2802
於來世	-11.2802
摩訶薩	-11.2804
情欲	-11.2804
諮白	-11.2804
使彼	-11.2807
薄福	-11.2809
等無異	-11.2812
門中	-11.2819
端正殊妙	-11.2822
樹根	-11.2826
來迎	-11.2828
是吾	-11.2829
盡止	-11.283
摩那	-11.2832
行慈	-11.2835
錯亂	-11.284
如彼行人	-11.2842
此科	-11.2843
賈	-11.2844
女色	-11.2851
方廣	-11.2854
不知足	-11.2855
聞於	-11.2857
僕使	-11.2858
各隨	-11.2859
佛在王舍城	-11.2863
時淨居天	-11.2865
汝等當	-11.2866
窮乏	-11.2868
汝宜	-11.2869
即我身是	-11.287
心之	-11.2871
不盜	-11.2874
彼仙	-11.2884
石上	-11.2884
條	-11.2884
容色	-11.2893
之極	-11.2893
施人	-11.2894
案	-11.2894
為勝	-11.2897
加之	-11.2897
唯然已	-11.2899
仰觀	-11.2899
良善	-11.29
必應	-11.29
汝欲	-11.2901
宜當	-11.2904
無違	-11.2905
皆歡喜	-11.2908
迦尸	-11.2908
無上正真	-11.2911
雖行	-11.2911
羹	-11.2911
來生此	-11.2912
乃應	-11.2913
非也	-11.2914
伯	-11.2914
耆婆	-11.2915
壤	-11.2915
終不為	-11.2916
當得阿耨多羅三藐三菩提	-11.2916
仇	-11.2917
頑	-11.2917
必死	-11.2918
?』」	-11.2918
羅雲	-11.2918
存在	-11.2918
裝	-11.2918
絡	-11.2918
我實不	-11.2918
克	-11.2918
屏	-11.2918
拒	-11.2919
八千	-11.2919
生憂惱	-11.292
自宮	-11.292
鄉	-11.2921
欄楯	-11.2922
千輻	-11.2922
余	-11.2923
層	-11.2924
般特	-11.2925
諸大菩薩	-11.2926
威神巍巍	-11.2926
衰耗	-11.2929
深坑	-11.2929
人無	-11.2929
我悉	-11.2929
憤	-11.2929
和雅	-11.293
皮膚	-11.2932
四衢	-11.2932
駛	-11.2932
不可稱數	-11.2933
若茲	-11.2933
鎧甲	-11.2934
無央數劫	-11.2934
嘆譽	-11.2936
清淨戒	-11.2937
如日初出	-11.2937
佛知其意	-11.2938
街	-11.2938
茶	-11.2938
究竟成佛	-11.2938
籌量	-11.2939
聰慧	-11.2939
僧伽	-11.2939
二偈	-11.2941
求請	-11.2941
須臾間	-11.2941
七分	-11.2941
先度	-11.2941
承佛威神	-11.2941
今世後世	-11.2941
出妙音聲	-11.2943
缾	-11.2943
釋種子	-11.2944
主宰	-11.2945
於阿耨達池	-11.2945
佛所說	-11.2946
瓦礫	-11.2947
甚奇甚特	-11.2948
普濟	-11.295
發露	-11.295
造諸	-11.295
唯有一子	-11.2951
頭面著地	-11.2951
玉女寶	-11.2951
辨	-11.2951
愁憂苦惱	-11.2951
稱言	-11.2953
解脫道	-11.2954
應先	-11.2955
遠布	-11.2955
優樓頻螺迦葉	-11.2956
便去	-11.2956
聞此偈已	-11.2956
摩尼寶珠	-11.2957
幾許	-11.2957
袈裟著身	-11.2958
經無量劫	-11.2959
彌樓	-11.2959
寶莊嚴	-11.2959
阿耨多羅三藐三菩提記	-11.2961
喜踊	-11.2961
三千界	-11.2962
急疾	-11.2962
非凡	-11.2962
便入	-11.2963
隱沒	-11.2964
十六分	-11.2964
進路	-11.2964
長跪合掌	-11.2965
於如來所	-11.2965
雜毒	-11.2965
死入地獄	-11.2968
竪立	-11.2968
乃往過去無量世時	-11.2969
大人相	-11.297
阿鼻地獄	-11.2971
如卿	-11.2972
見辟支佛	-11.2973
平地	-11.2973
法執	-11.2974
在王舍城迦蘭陀竹林	-11.2974
▁○	-11.2975
攝意	-11.2976
必生	-11.2976
懷惡	-11.2977
懷憂	-11.2977
至涅槃	-11.2979
作事	-11.2981
熏修	-11.2982
汝曹	-11.2985
及聲聞眾	-11.2986
無願	-11.2988
聞有	-11.299
缺減	-11.2991
摧折	-11.2991
白骨	-11.2995
思惑	-11.2995
渡水	-11.2995
皆稱	-11.2995
本形	-11.2996
所不能	-11.2998
方能	-11.2998
流溢	-11.2999
受眾苦	-11.3001
明燈	-11.3001
共同	-11.3001
奇妙	-11.3005
便復	-11.3007
苦滅	-11.3008
行菩薩道時	-11.3009
愛惜	-11.3009
失於	-11.3013
夜分	-11.3016
驚動	-11.3016
國王者	-11.3022
發心者	-11.3022
復自思惟	-11.3023
橫生	-11.3026
聖力	-11.3026
此沙門	-11.3029
香油	-11.3031
及彼	-11.3032
所奉	-11.3033
夜摩天	-11.3033
金瓶	-11.3038
迷失	-11.3039
安立	-11.3039
分散	-11.3039
倒染	-11.3039
信佛	-11.304
是故名為	-11.3041
惡念	-11.3046
自滅	-11.3047
血流	-11.3048
如是展轉	-11.3049
離此	-11.3051
乾闥婆王	-11.3056
與諸弟子	-11.3062
懷慚愧	-11.3063
執行	-11.3064
天世人	-11.3065
此方	-11.3065
諸親族	-11.3068
一頭	-11.3071
更無餘	-11.3073
及諸弟子	-11.3074
名香	-11.3074
深妙	-11.3075
道術	-11.3077
已曾	-11.3079
諸仙人	-11.3081
出已	-11.3082
此座	-11.3083
汝先	-11.3085
功能	-11.3085
終不起	-11.3087
以慧	-11.3087
諸天神	-11.3087
滿其	-11.3088
得道迹	-11.309
天人所	-11.3091
凡聖	-11.3091
所能	-11.3094
種現	-11.3094
結縛	-11.3095
彼亦	-11.3099
中路	-11.3101
今有	-11.3101
傍人	-11.3101
持種種	-11.3103
是故應	-11.3103
所制	-11.3103
念處	-11.3104
大有	-11.3105
送食	-11.3106
告阿難言	-11.3109
之邊	-11.311
識心	-11.3111
以刀	-11.3112
蘭若中	-11.3114
林內	-11.3114
忽然而	-11.3115
出門	-11.3116
故說	-11.3116
如我所	-11.3117
凡愚	-11.3118
不度	-11.3123
此即	-11.3124
並皆	-11.3125
二弟	-11.3126
地獄眾生	-11.3129
人天中	-11.3129
當從	-11.313
患苦	-11.3132
十指	-11.3133
怪之	-11.3139
悉是	-11.3141
自來	-11.3142
敵國	-11.3142
民眾	-11.3144
疾得	-11.3147
遠聞	-11.3148
難行	-11.3148
有大國王	-11.3152
沙門梵志	-11.3153
知法	-11.3153
為天	-11.3157
兄言	-11.3158
殿前	-11.3161
令離	-11.3167
王乃	-11.317
須達長者	-11.3173
佛出	-11.3173
為我作	-11.3177
今應	-11.3181
大身	-11.3181
不移動	-11.3182
求彼	-11.3183
亦不求	-11.3183
詣王所	-11.3186
王舍	-11.3191
在門外	-11.3195
自隨	-11.3196
箭射	-11.3199
何業	-11.3202
其弟子	-11.3203
時國王	-11.3206
眾邪	-11.3208
非實	-11.3209
阿難陀	-11.321
令彼一切	-11.3211
教示	-11.3215
多智	-11.3219
忍力	-11.3221
移轉	-11.3221
憎嫉	-11.3223
無得	-11.3224
如是之人	-11.3226
種種飲食	-11.3226
應聲	-11.323
諸比丘尼	-11.3234
供養世尊	-11.3234
聾	-11.3238
有四種	-11.3238
○	-11.3238
總為	-11.3239
白師	-11.3242
一切如來	-11.3242
坐具	-11.3244
常處	-11.3244
皆依	-11.3246
不請	-11.3246
為轉輪王	-11.3248
自誓	-11.3258
願莫	-11.3262
山王	-11.3263
齋戒	-11.3264
即至	-11.3266
甚重	-11.3267
雖小	-11.3268
舍衛城中	-11.327
乃至一切	-11.3271
盛火	-11.3273
金光	-11.3273
』「『	-11.3274
正業	-11.3277
斷常	-11.3277
潔白	-11.328
一意	-11.3281
作王	-11.3286
持來	-11.3288
往至彼	-11.3288
懷恐懼	-11.3289
除斷	-11.3293
不可輕	-11.3294
手指	-11.3296
況我	-11.3305
所照	-11.3306
番	-11.331
上天	-11.3311
無樂	-11.3311
世有佛	-11.3312
八關齋	-11.3313
立精舍	-11.3314
道力	-11.3314
水流	-11.3315
二相	-11.332
勝上	-11.3321
年少比丘	-11.3323
群賊	-11.3324
頌前第	-11.3325
花樹	-11.3326
耽	-11.3328
高廣	-11.3329
安隱處	-11.3331
以次	-11.3331
得值	-11.3331
三十七品	-11.3331
靖	-11.3332
都盡	-11.3332
髀	-11.3333
算計	-11.3335
成滿	-11.3335
配	-11.3335
畜獸	-11.3336
嚮	-11.3337
揵	-11.3338
我法二執	-11.3338
邊地	-11.3338
往白	-11.3339
校計	-11.3341
理事	-11.3341
燥	-11.3343
岸上	-11.3343
忖	-11.3343
剎中	-11.3344
怖懅	-11.3344
捺	-11.3345
牙齒	-11.3346
屎	-11.3347
秤	-11.3347
羅睺	-11.3348
設使	-11.3348
如說修行	-11.3348
嬰孩	-11.3349
尼連河	-11.3349
陌	-11.335
摩竭魚	-11.335
窓牖	-11.335
自說本所	-11.3351
稽首足下	-11.3353
跪拜	-11.3353
暴虐	-11.3354
千二百五十人俱	-11.3354
修多羅	-11.3355
盡形壽	-11.3355
宜知是時	-11.3355
憍恣	-11.3356
藉	-11.3356
繞佛三匝	-11.3357
一品題	-11.3358
畫師	-11.3358
聞是語	-11.3358
是女	-11.3359
一種無異	-11.3359
男女大小	-11.3361
遷移	-11.3361
烏嚕尾螺迦葉	-11.3361
雜穢	-11.3361
僧伽梨	-11.3362
半由旬	-11.3363
多獲義利	-11.3364
深淵	-11.3364
奉覲	-11.3365
此寶	-11.3365
等心	-11.3365
駒	-11.3366
不能動	-11.3366
墮淚	-11.3366
六畜	-11.3368
同一	-11.3368
可爾	-11.3368
七日七夜	-11.3368
頂戴奉行	-11.3369
比豆梨	-11.3369
涕哭	-11.3369
當至	-11.337
娑訶世界	-11.3371
以歡喜心	-11.3371
導引	-11.3372
稟性	-11.3373
若不爾者	-11.3373
路側	-11.3373
一念頃	-11.3373
瀑流煩惱	-11.3374
以慈心	-11.3377
勞度差	-11.3377
歸依法	-11.3378
阿那含果	-11.3378
復如是念	-11.3379
出家之人	-11.3381
減少	-11.3382
釋王婆提唎迦	-11.3384
舉足	-11.3384
夏坐	-11.3385
空閑處	-11.3386
在所生處	-11.3386
卷下	-11.3387
毒痛	-11.3387
應如是	-11.3388
十六大國	-11.339
號毘婆尸	-11.3391
即成沙門	-11.3391
根原	-11.3392
如我今日	-11.3392
向波旬	-11.3393
我亦如是	-11.3393
雖處	-11.3394
娶婦	-11.3395
吾聞	-11.3395
不可恃怙	-11.3396
攝諸根	-11.3397
長子	-11.3397
歸佛	-11.3397
於當來世	-11.3397
往到佛所	-11.3401
化樂天	-11.3401
此林	-11.3402
阿閦	-11.3402
其教	-11.3403
淚出	-11.3403
客作	-11.3403
六欲	-11.3405
間斷	-11.3406
萬六千	-11.3407
林野	-11.341
兩邊	-11.3412
光曜	-11.3415
菩薩在胎	-11.3416
是入一切種智行陀羅尼門	-11.3418
積財	-11.3418
亦曾	-11.3421
飛去	-11.3422
勝也	-11.3422
為成佛之	-11.3422
邪徑	-11.3423
年既	-11.3424
引起	-11.3426
修持	-11.3427
由來	-11.3427
雖在	-11.3429
渴愛	-11.343
定心	-11.3433
蓮	-11.3433
奪我	-11.3434
繫著	-11.3435
沒命	-11.3435
示其	-11.3437
作方便	-11.344
緣起	-11.3441
眾賈	-11.3442
違失	-11.3442
當使	-11.3443
修行梵行	-11.3446
仰天	-11.3447
其佛號	-11.3449
令吾	-11.3449
鐵輪	-11.3451
亦各	-11.3453
一切眾會	-11.3453
山谷	-11.3456
佛國	-11.3459
親親	-11.346
受記	-11.346
等無有異	-11.3461
殺汝	-11.3462
誰為	-11.3463
步兵	-11.3464
遭值	-11.3464
善觀	-11.3466
迦毘羅婆蘇都城	-11.3468
南天竺	-11.3471
青色	-11.3475
為當	-11.3477
故來相	-11.3482
意中	-11.3483
常受快樂	-11.3484
持齋	-11.3487
或生	-11.3488
欲作	-11.349
體用	-11.3493
二邊	-11.3495
莊嚴佛土	-11.3498
而其	-11.3499
巧便	-11.35
所歎	-11.35
色力	-11.3501
唯願如來	-11.3502
將入	-11.3503
下釋	-11.3503
神通力	-11.3505
苦集	-11.3508
寧有	-11.3509
有少	-11.3517
具白	-11.352
名善	-11.3524
之衣	-11.3526
但我	-11.3526
惡聲	-11.3527
善觀察	-11.3528
佛僧	-11.3529
增進	-11.353
唱如是言	-11.3532
不吉	-11.3533
不有	-11.3533
動轉	-11.3534
以信	-11.3539
尚可	-11.3539
即答	-11.3541
為害	-11.3541
命終生天	-11.3545
麤言	-11.3548
鈍根	-11.3548
別相	-11.3549
有三十二相	-11.3549
妙善	-11.355
之表	-11.355
骨肉	-11.3552
譯人	-11.3553
入滅	-11.3555
惡風	-11.3558
頭面禮佛	-11.3561
習學	-11.3564
龍中	-11.3565
香熏	-11.3573
懈	-11.3575
智故	-11.3588
是沙門	-11.3591
以大悲	-11.3592
佛法中	-11.3593
一切善法	-11.3594
大福德	-11.3602
深宮	-11.3605
不墮地獄	-11.3609
之屬	-11.361
如來教	-11.3613
聖果	-11.3613
無別	-11.3618
善果	-11.362
而與	-11.362
且止	-11.3621
當得成佛	-11.3622
粟	-11.3624
惡逆	-11.3624
若自	-11.3627
令無	-11.3627
復有無量	-11.3628
入彼	-11.3633
坐其上	-11.3637
此是如來	-11.3643
重恩	-11.3649
雲雨	-11.365
得應真	-11.3652
燒身	-11.3654
宿福	-11.3656
一切功德	-11.3656
覺道	-11.3657
笑之	-11.3658
妙智	-11.3658
眾類	-11.3659
此理	-11.366
妙衣	-11.3662
出行	-11.3663
出生死	-11.3663
博聞	-11.3666
三衣	-11.3669
目視	-11.3669
須食	-11.367
佛說經	-11.3671
治化人民	-11.3672
閻浮提人	-11.3675
能具	-11.3676
之實	-11.3678
四子	-11.3679
將從	-11.3683
倍生	-11.3686
無有比	-11.3689
木石	-11.369
一切所有	-11.3695
國中人民	-11.3697
大安	-11.3697
者乎	-11.37
處處皆	-11.3702
已定	-11.3703
外國	-11.3705
無已	-11.3706
法藥	-11.3709
修菩薩行	-11.3709
濟拔	-11.3709
却坐	-11.371
彼等一切	-11.3711
一臣	-11.3712
士女	-11.3713
斷於	-11.3713
分別說	-11.3714
兜術	-11.3714
無量諸天	-11.3715
踰於	-11.3716
乘象	-11.3719
其首	-11.3722
東南	-11.3722
菴	-11.3726
是義	-11.3727
洗足	-11.3732
憂慮	-11.3734
出定	-11.3743
有四事	-11.3743
退還	-11.3748
受生死	-11.3748
淨眼	-11.3749
殺者	-11.3749
不復生	-11.375
沉	-11.3756
蚖	-11.3756
惻	-11.3756
成立	-11.3757
盡諸苦	-11.3759
准	-11.3761
徊	-11.3763
波婆伽梨	-11.3763
尚有	-11.3765
自在力	-11.3765
戰慄	-11.3766
儒童	-11.3767
裸	-11.3767
遏	-11.3768
翫	-11.3768
蟻	-11.3768
賢劫中	-11.377
隆盛	-11.3771
壯士	-11.3771
廬	-11.3771
游	-11.3772
初始	-11.3773
基	-11.3773
菜	-11.3773
槊	-11.3774
僂	-11.3775
苦因	-11.3775
極惡	-11.3776
惡見	-11.3776
至梵天	-11.3777
色聲香味觸	-11.3777
佳	-11.3778
頭面禮	-11.3779
阿耨菩提	-11.3779
甚可怖畏	-11.378
躍	-11.3781
簫	-11.3781
柴	-11.3782
阿含	-11.3782
殷	-11.3782
人身難得	-11.3783
無犯	-11.3783
撮	-11.3784
萬姓	-11.3784
邦	-11.3784
麤澁	-11.3784
翹	-11.3785
蓐	-11.3785
螢火	-11.3785
顯其	-11.3786
倉	-11.3786
金剛杵	-11.3786
十小劫	-11.3786
闊	-11.3787
為妙	-11.3787
之願	-11.3787
退坐一面	-11.3787
成就如是	-11.3788
於現法中	-11.3788
雉	-11.3788
諸比丘眾	-11.3789
波頭摩	-11.3789
耆域	-11.3789
骨髓	-11.3789
給孤獨	-11.3789
姉	-11.379
昔有國王	-11.379
尒時	-11.379
端正可喜	-11.3791
於五欲	-11.3791
妃后	-11.3792
嚴辦	-11.3792
縱逸	-11.3792
完	-11.3792
深固	-11.3794
迦夷	-11.3794
身安	-11.3795
漏盡意解	-11.3795
十八界	-11.3795
病瘦醫藥	-11.3795
菩	-11.3796
釧	-11.3796
稱南無佛	-11.3798
肯	-11.3798
掃除	-11.3798
云何當	-11.3798
澄寂	-11.3799
與大比丘眾	-11.3799
無上正等菩提	-11.3799
五百世中	-11.38
諸根寂定	-11.38
還白	-11.38
寬博	-11.38
曼陀羅華	-11.3801
蟻子	-11.3802
更不造	-11.3803
作十八變	-11.3803
波梨婆闍道人	-11.3803
疾疫	-11.3805
從者	-11.3805
若此	-11.3805
逮菩提已	-11.3806
目不暫捨	-11.3806
根源	-11.3807
障蔽	-11.3807
去城不遠	-11.3808
盛壯	-11.3808
老耄	-11.3808
充滿其中	-11.3809
生希有心	-11.381
無上正真道	-11.381
願樂欲聞	-11.381
五欲境	-11.381
三年	-11.381
放恣	-11.3811
群品	-11.3812
調適	-11.3812
僕從	-11.3813
稱量	-11.3813
爾時帝釋	-11.3814
思量	-11.3814
驚懼	-11.3814
難行苦行	-11.3814
自識宿命	-11.3815
畜生中	-11.3815
權智	-11.3815
技能	-11.3815
動地	-11.3816
至年十	-11.3817
異道	-11.3817
聽汝	-11.3819
林木	-11.3821
積集	-11.3821
大有威力	-11.3821
測量	-11.3822
遇此	-11.3822
即得名為	-11.3822
增盛	-11.3824
尸利	-11.3824
其行	-11.3824
是故如來	-11.3826
卷上	-11.3827
羅婆	-11.3829
欲除	-11.3829
營從	-11.383
應隨	-11.383
求索入道	-11.383
於無量劫	-11.3831
苦際	-11.3832
自止	-11.3833
理宜	-11.3834
始覺	-11.3835
燒然	-11.3836
心所念	-11.3837
父母愛念	-11.3837
諸天龍	-11.3839
道義	-11.384
弘慈	-11.3841
遊於	-11.3841
十年	-11.3841
獨遊	-11.3842
不自覺	-11.3843
說是法時	-11.3843
給使	-11.3843
自割	-11.3844
不慮	-11.3844
梵摩達王	-11.3845
蓮華上如來	-11.3846
無缺	-11.385
復更思惟	-11.3851
不減	-11.3852
愚癡之人	-11.3852
床臥	-11.3852
鐵師	-11.3853
笑耳	-11.3853
不墮惡趣	-11.3854
白父母言	-11.3856
自撲	-11.3859
再三	-11.3863
廣施	-11.3865
大利益	-11.3865
仁賢	-11.3865
生世	-11.3866
無復有	-11.3867
師所	-11.3868
得涅槃	-11.3871
汝等今	-11.3871
業行	-11.3881
羅剎女	-11.3881
市中	-11.3882
棄家	-11.3882
高度	-11.3886
深義	-11.3886
寶座	-11.3891
射殺	-11.3891
以前	-11.3891
疑問	-11.3892
不懼	-11.3892
香山	-11.3896
外學	-11.3898
白於王	-11.39
厭世	-11.3901
雷震	-11.3903
還向	-11.3905
樂無為	-11.3907
但取	-11.3907
於世間中	-11.3907
無上大菩提	-11.3909
能降伏	-11.3909
令我得	-11.391
如事	-11.3914
標定	-11.3921
邊方	-11.3924
稟受	-11.3926
謂比丘	-11.393
為母	-11.393
金輪王	-11.3931
聞佛語	-11.3933
收攝	-11.3934
豈非	-11.3935
斷欲	-11.3936
二國	-11.3936
邪命	-11.3937
汝來	-11.394
成佛時	-11.394
所持	-11.3941
彼大沙門	-11.3942
所起	-11.3942
無差別	-11.3943
不毀	-11.3943
過人	-11.3944
摩訶迦葉比丘	-11.3945
恐其	-11.3945
生怖畏	-11.3946
之神	-11.3949
此神	-11.3953
或臥	-11.3953
容儀	-11.3953
說偈讚	-11.3955
斯等	-11.3956
在上	-11.396
生在	-11.3961
甘心	-11.3962
大妃	-11.3964
安心	-11.397
常修	-11.3974
不缺	-11.3984
生人天	-11.3985
和解	-11.3987
可食	-11.3988
如此事	-11.3989
就後世	-11.3992
不依	-11.3994
四月	-11.3995
祭祀火	-11.3997
悉已	-11.3997
諸道人	-11.4
我寧	-11.4
死苦	-11.4001
諸垢	-11.4001
人有	-11.4002
生憐愍	-11.4003
息除	-11.4004
眾難	-11.4006
一何	-11.4007
無主	-11.4007
受者	-11.4008
亦令	-11.4009
遠方	-11.4011
光色	-11.4011
自用	-11.4014
罪報	-11.4015
問佛言	-11.4017
修德	-11.4019
兒子	-11.402
時轉輪王	-11.4021
即除	-11.4021
以神通	-11.4022
種種方便	-11.4023
施佛	-11.4026
當成佛	-11.4027
無分別	-11.4028
在何處	-11.4031
止此	-11.4032
迴車	-11.4034
見已即	-11.4035
見於菩薩	-11.4036
相好莊嚴	-11.4036
甚用	-11.4037
彼山	-11.4042
使去	-11.4046
謂從	-11.4046
三女	-11.4048
時優婆塞	-11.4054
上方	-11.4055
德力	-11.4056
壞其	-11.4064
即到	-11.4064
之利	-11.407
當出	-11.407
起慈心	-11.4071
迴心	-11.4073
福力王	-11.4077
一面坐	-11.4077
彼土	-11.408
五力	-11.4083
於時菩薩	-11.4083
復從	-11.4085
是佛弟子	-11.4085
無穢	-11.4087
賢王	-11.4087
遙知	-11.4088
皆各	-11.4088
即請	-11.4089
語比丘	-11.4092
相共	-11.4093
歸趣	-11.4095
食竟	-11.4096
無外	-11.4096
無量功德	-11.4096
墮苦	-11.4097
聞佛世尊	-11.4102
共往	-11.4109
火神	-11.4112
獨不	-11.4114
彼佛世尊	-11.4116
無記	-11.4117
梵摩	-11.4119
至意	-11.4126
善因	-11.4133
既知	-11.4135
所證之	-11.4137
祿	-11.4143
聖主	-11.4145
而心	-11.4149
勸修	-11.415
耶那	-11.4151
意定	-11.4152
得休息	-11.4153
白父王	-11.4154
昔來	-11.4154
必然	-11.4155
護意	-11.4164
法喻	-11.4164
仁等	-11.4165
為利益	-11.4166
佛日	-11.4169
復前行	-11.417
心開	-11.4172
雖少	-11.4172
許之	-11.4173
沙礫	-11.4177
深信	-11.418
眷	-11.4183
命過	-11.4183
既是	-11.4184
可憙	-11.4186
各將	-11.4186
此明	-11.4187
降雨	-11.4188
知恩	-11.4194
婆羅門子	-11.4195
彼實	-11.4197
三昧清淨	-11.42
干	-11.42
臻	-11.42
諸經	-11.4204
神明	-11.4205
善分別	-11.4209
絲	-11.4211
紺青	-11.4212
懅	-11.4212
不下	-11.4213
悚	-11.4213
芳	-11.4214
玉	-11.4214
躃	-11.4214
讐	-11.4215
諸天人民	-11.4216
寫	-11.4218
善利	-11.4218
共諍	-11.4218
之語	-11.4219
生苦	-11.422
鵠	-11.4222
排	-11.4223
禱	-11.4223
寒暑	-11.4223
背恩	-11.4225
無有智慧	-11.4225
慕魄	-11.4225
苦切	-11.4225
王及臣民	-11.4225
總標	-11.4226
恤	-11.4226
摩賀曩摩	-11.4226
惹	-11.4227
棘刺	-11.4228
汝昔	-11.4228
泛	-11.4229
揮	-11.4229
圓融	-11.4229
嗤笑	-11.423
良久	-11.423
肘	-11.423
表裏	-11.423
喧	-11.4231
忻	-11.4232
彩	-11.4232
大乘本生心地觀經淺註	-11.4232
阿脩羅	-11.4232
推覓	-11.4232
凍	-11.4232
膳	-11.4232
秘	-11.4232
械	-11.4232
牒	-11.4233
之餘	-11.4233
興惡	-11.4234
舋	-11.4234
悸	-11.4234
諸天子等	-11.4234
自今已後	-11.4235
峻	-11.4235
攻伐	-11.4235
弶	-11.4236
撥	-11.4236
矟	-11.4237
照耀	-11.4237
授我	-11.4237
須臾之間	-11.4237
錠	-11.4237
名稱普聞	-11.4237
給孤長者	-11.4238
令我等	-11.4239
軸	-11.4239
詭	-11.424
由是之故	-11.424
惰	-11.4241
與大比丘眾千二百五十人俱	-11.4241
紺琉璃	-11.4242
吏民	-11.4243
野干	-11.4244
到於彼岸	-11.4245
作何方便	-11.4245
車輪	-11.4245
執心	-11.4246
眠睡	-11.4246
同伴	-11.4247
褥	-11.4247
駛流	-11.4247
良久乃穌	-11.4247
無能及者	-11.4249
胸臆	-11.425
進退	-11.4251
哆	-11.4251
夜叉羅剎	-11.4251
傷損	-11.4251
為妻	-11.4252
於己	-11.4253
勤劬	-11.4254
。」』「	-11.4255
色聲香味細滑法	-11.4255
送與	-11.4255
平復如故	-11.4255
十八不共	-11.4255
不存	-11.4255
吾自	-11.4255
維那	-11.4256
僧伽藍	-11.4256
聖僧	-11.4256
波梨婆闍	-11.4257
其眼	-11.4258
思慮	-11.4258
阿耨大泉	-11.4258
佛及眾僧	-11.4258
樂遠離行	-11.4258
開閉	-11.4258
異常	-11.4259
如汝所說	-11.4259
赫奕	-11.426
受三自歸	-11.426
倍加	-11.4262
臣下	-11.4263
池邊	-11.4264
二十億	-11.4265
善法堂	-11.4266
當知是人	-11.4266
伊羅鉢	-11.4267
宿對	-11.4267
人及非人	-11.4268
斯陀含果	-11.4269
自殺	-11.4269
求未來世阿耨多羅三藐三菩提	-11.427
百千億那由他	-11.427
身口意業	-11.4275
懷抱	-11.4275
八歲	-11.4277
既生	-11.4279
黑色	-11.4281
興兵	-11.4281
亦名為	-11.4281
成就阿耨多羅三藐三菩提	-11.4281
過一恒河沙等阿僧祇劫	-11.4284
今得值我	-11.4284
佛命	-11.4286
金翅鳥王	-11.4286
遭值於我	-11.4287
生一女	-11.4288
捨施	-11.4288
能却	-11.4289
求財	-11.4289
大眾圍遶	-11.4291
眾生皆得	-11.4293
無罣礙	-11.4295
昇虛空	-11.4296
時彼國中	-11.4296
此是何人	-11.4297
四聖諦	-11.43
如牛	-11.4302
彼塔	-11.4303
是陀羅尼門	-11.4304
入般涅槃	-11.4304
獄中	-11.4305
穀食	-11.4308
防護	-11.4308
賢士	-11.4313
佛告舍利弗	-11.4314
因緣經	-11.4314
相師占	-11.4322
三昧門	-11.4322
須菩提	-11.4323
大義	-11.4324
護喜	-11.4324
怨結	-11.4324
名摩	-11.4327
不能知	-11.433
故名為	-11.4332
無央數人	-11.4334
達彼岸	-11.4335
三界之	-11.4337
經論	-11.4345
布現	-11.4346
不飲酒	-11.4351
盡壽	-11.4351
聽者	-11.4351
尋得	-11.4352
遣我	-11.4355
七寶具足	-11.4356
諸國土	-11.4356
速來	-11.4357
名寶	-11.4362
道化	-11.4364
可憙端正	-11.4366
無際	-11.4366
方知	-11.4369
罪滅	-11.437
國邑	-11.4371
其名曰	-11.4373
相三昧	-11.4374
法炬	-11.4374
清淨梵行	-11.4376
無漏戒	-11.4377
大慈大悲	-11.4378
遷流	-11.4378
老病死苦	-11.4379
若求	-11.4382
之誠	-11.4386
彼國王	-11.4387
競來	-11.4387
佛眼	-11.4389
諸鹿	-11.439
聞此語	-11.4391
脫此	-11.4391
小國王	-11.4392
共作	-11.4396
立誓願	-11.4398
相稱	-11.4398
大梵	-11.4404
常存	-11.4404
發願言	-11.4404
令去	-11.4408
妄生	-11.4409
覺分	-11.4409
以示	-11.4411
前生	-11.4416
五百賈客	-11.4421
勝負	-11.4421
本誓	-11.4421
華葉	-11.4424
路由	-11.4424
之所說	-11.4425
諸長者子	-11.4429
迎逆	-11.443
榮樂	-11.4435
常求	-11.4438
爾時仙人	-11.4439
喪亡	-11.4439
百頭	-11.444
其功	-11.4444
得清涼	-11.4445
之際	-11.4448
心地觀	-11.4449
正爾	-11.4451
婆羅門種	-11.4451
依怙	-11.4451
復現	-11.4452
其池	-11.4452
所服	-11.4453
目前	-11.4453
長跪白	-11.4455
有一國王	-11.4458
雖生	-11.446
作何事	-11.4463
若言	-11.4469
問我	-11.447
去世	-11.4472
本空	-11.4473
喻生死	-11.4474
往看	-11.4477
太子今者	-11.4479
大捨	-11.448
自縛	-11.4481
精進如是	-11.4482
得為王	-11.4485
勝人	-11.4485
及婆羅門	-11.4486
餘命	-11.4486
告勅	-11.4488
受無量苦	-11.449
有百	-11.4492
法會	-11.4494
常精進	-11.4499
有六牙	-11.4502
不明	-11.4504
未獲	-11.4509
教我	-11.4512
當更	-11.4513
同心	-11.4519
爾時梵志	-11.4522
況當	-11.4524
願速	-11.4531
)。「『	-11.4531
樓觀	-11.4534
不憂	-11.4534
捨其	-11.4535
此小兒	-11.4537
貪利	-11.4538
大名稱	-11.4543
此患	-11.4543
年已	-11.4547
精誠	-11.4548
覆面	-11.4552
棄之	-11.4552
惡事	-11.4553
何求	-11.4553
今夜	-11.4553
菩薩既	-11.4557
毒氣	-11.4561
違逆	-11.4562
上首	-11.4562
不退轉地	-11.4563
往迎	-11.4563
都不	-11.4564
發明	-11.4565
我生已	-11.4567
無上智	-11.4571
念定	-11.4572
奪其	-11.4573
婆羅門家	-11.4575
羅城	-11.4575
當就	-11.4575
為重	-11.4575
亦不知	-11.4578
而讚歎	-11.4583
行跡	-11.4584
為性	-11.4585
家室	-11.4588
本意	-11.459
有幾	-11.4591
障道	-11.4595
菩提場	-11.4595
即集	-11.4596
億眾生	-11.46
出家入道	-11.4601
樂住	-11.4601
形色	-11.4603
於天下	-11.4604
善處	-11.4604
空性	-11.4605
顛	-11.4606
一童子	-11.4608
理應	-11.4609
議曰	-11.4611
作食	-11.4614
志意	-11.4615
性相	-11.4618
阿難是	-11.4623
暇	-11.4625
大導師	-11.4627
一其心得	-11.4629
亦從	-11.4629
合掌而	-11.463
限量	-11.463
各別	-11.4632
五百商人	-11.4635
起瞋恚	-11.4637
內無	-11.4641
生瞋恚	-11.4642
我之所	-11.4643
與諸比丘	-11.4646
閻浮樹	-11.4646
過去世	-11.4648
故知	-11.4651
鳴聲	-11.4654
罣礙	-11.4654
人趣	-11.4665
不傾動	-11.4667
深廣	-11.4668
諸如是等	-11.467
窟中	-11.467
噉之	-11.4671
慎無	-11.4677
慢類	-11.4678
沈水	-11.4678
自在天	-11.4683
拯濟	-11.4683
可惡	-11.4684
㮈	-11.4686
嗟	-11.4687
率土	-11.4687
捷	-11.4688
見子	-11.4689
持去	-11.469
辛	-11.469
任運	-11.4692
七人	-11.4692
豐足	-11.4693
根性	-11.4693
檀膩䩭	-11.4694
二曰	-11.4695
安然	-11.4695
逾	-11.4696
緒	-11.4697
炊	-11.4697
瓨	-11.4697
遜	-11.4698
粮	-11.47
髓腦	-11.47
嬰	-11.47
峯	-11.47
寵	-11.4701
搆	-11.4701
有斯	-11.4701
楞嚴云	-11.4701
鋒	-11.4703
着	-11.4703
絞	-11.4703
贈	-11.4704
諛諂	-11.4705
漬	-11.4705
狹	-11.4705
嬉戲	-11.4706
𧂐	-11.4707
討	-11.4707
旬	-11.4707
幼稚	-11.4708
別異	-11.4708
拄	-11.4708
朱	-11.4708
占夢	-11.4709
髓	-11.4709
智慧力	-11.471
澹	-11.471
普曜經	-11.4711
汲水	-11.4712
閉塞	-11.4712
儲	-11.4712
准前	-11.4713
悲戀	-11.4713
尅	-11.4713
落地	-11.4713
歌詠	-11.4714
士庶	-11.4715
天龍八部	-11.4715
弦	-11.4715
垂淚	-11.4716
吾身是	-11.4716
資粮	-11.4716
瓦器	-11.4716
迦蘭	-11.4716
佛法僧寶	-11.4717
清旦	-11.4717
出入息	-11.4718
瞑	-11.4718
如是苦行	-11.4718
山藪	-11.4718
悲喜交集	-11.4719
婚	-11.4719
湊	-11.4719
瓮	-11.4719
雜寶藏經	-11.4719
得授記	-11.4719
六通清徹	-11.4719
剎帝利	-11.472
燃火	-11.472
豁然	-11.472
賴耶	-11.472
齊整	-11.4721
大將	-11.4721
怪而問	-11.4722
浮彌	-11.4723
旃檀	-11.4724
明月珠	-11.4724
捕魚	-11.4724
多力	-11.4725
挍飾	-11.4726
天言	-11.4726
骸骨	-11.4726
具以上事	-11.4726
良馬	-11.4727
身下出火	-11.4727
下閻浮提	-11.4727
為欲所	-11.4727
鮮明	-11.473
宿衛	-11.473
六年苦行	-11.4731
姨母	-11.4731
世世相承	-11.4731
嚴治	-11.4732
常行乞食	-11.4733
鹿苑	-11.4733
昵	-11.4735
愛語	-11.4736
毘婆尸佛	-11.4736
明鏡	-11.4737
弗沙	-11.4737
金輪寶	-11.4738
此事不然	-11.4738
染縛	-11.4738
最勝最妙	-11.4739
不眴	-11.4739
生生世世	-11.4739
遇斯光	-11.4739
不恨	-11.4739
身毛皆竪	-11.474
去佛不遠	-11.4741
過咎	-11.4741
頻毘娑羅王	-11.4742
運用	-11.4743
出家菩薩住阿蘭若	-11.4744
汝等善聽	-11.4745
徒自	-11.4745
從其面門	-11.4745
聞持具足	-11.4746
号	-11.4746
災害	-11.4746
月樂無垢華	-11.4746
諸善業	-11.4748
亡失	-11.4749
未來之世	-11.4749
餘世界中	-11.4749
授我阿耨多羅三藐三菩提記	-11.475
分別演說	-11.475
四足	-11.475
次第乞食	-11.4751
終竟	-11.4752
長益	-11.4754
身著袈裟	-11.4755
某處	-11.4755
使來	-11.4755
四天	-11.4756
周訖	-11.4756
大有神通	-11.4758
惡生王	-11.4759
解脫知見	-11.4759
通為	-11.476
長老耶輸陀	-11.476
不滿	-11.476
眾多比丘	-11.4761
人非人等	-11.4762
眠臥	-11.4765
膝上	-11.4766
雲童子	-11.4766
普覆	-11.4767
呼天	-11.4768
𠷐伽波羅	-11.4774
變動	-11.4775
十號	-11.4777
設供	-11.4778
此但	-11.4781
閻浮檀金	-11.4781
求利	-11.4782
放牛	-11.4784
敬待	-11.4784
自陷	-11.4786
窮厄	-11.4787
歸依處	-11.4788
嚴好	-11.4789
善男子等	-11.479
不已	-11.4791
阿鼻	-11.4791
承事供養	-11.4793
警眾	-11.4793
永除	-11.4794
離越	-11.4798
大丈夫相	-11.4798
天曉	-11.4799
諸雜	-11.48
令其中	-11.4802
瞋心	-11.4803
六神通	-11.4803
梵世	-11.4804
凡所	-11.4807
遍體	-11.4807
又復思惟	-11.4808
蓮花上	-11.4813
令使	-11.4814
十二緣	-11.4815
相值	-11.4819
步行	-11.482
志趣	-11.4821
何名	-11.4823
加復	-11.4823
不能救	-11.4823
雨淚	-11.4825
財業	-11.4825
多聞清淨	-11.4827
澡洗	-11.4828
正治	-11.4831
舉心	-11.4832
及諸大眾	-11.4834
聞是法	-11.4835
復有四	-11.4838
釋女	-11.484
人中上	-11.4841
生是念	-11.4841
充飽	-11.4842
此大地	-11.4842
佛陀	-11.4843
枯木	-11.4845
生命	-11.4848
愛護	-11.485
各各皆	-11.485
地獄苦	-11.485
佛告梵志	-11.485
有五百人	-11.4852
四無畏	-11.4853
放之	-11.4853
如是四法	-11.4854
經七日	-11.4854
為諸大眾	-11.4857
純以	-11.4862
智光長者	-11.4863
却後	-11.4863
三歸依	-11.4865
總相	-11.4866
眾等	-11.4866
深遠	-11.4867
取著	-11.4868
亦復不知	-11.4869
道跡	-11.4869
莊嚴樹	-11.4872
入泥洹	-11.4873
三輪	-11.4873
時梵德王	-11.4879
利眾生	-11.488
佛告迦葉	-11.4881
不致	-11.4882
我於今日	-11.4884
欲事	-11.4884
意常	-11.4886
生天人中	-11.4887
行檀	-11.4888
劫數	-11.4889
便受	-11.4889
之益	-11.4889
慈愍心	-11.4889
供事	-11.489
於後世	-11.4891
龍女	-11.4893
摩訶羅	-11.4896
寶華	-11.49
斷惑	-11.49
受齋	-11.49
火焚	-11.4903
離一切	-11.4903
國政	-11.4905
燒盡	-11.4906
三空	-11.4907
今者云何	-11.4907
作大利益	-11.4909
出家為道	-11.4909
屐	-11.4909
有何罪	-11.491
之火	-11.491
口唱	-11.491
目覩	-11.4914
寂然無	-11.4915
八十億	-11.4917
至彼處	-11.4918
不忍見	-11.492
聞已即	-11.492
深解	-11.4921
二禪	-11.4922
遍十方	-11.4922
於大海	-11.4923
持戒清淨	-11.4923
說法教化	-11.4923
兒婦	-11.4928
百里	-11.4929
得濟	-11.4929
善哉大王	-11.493
得初果	-11.4931
所更	-11.4937
家人	-11.4939
欲染	-11.4942
尊重讚歎	-11.4943
字曰	-11.4944
脫苦	-11.4947
修成	-11.4948
人民之類	-11.4948
出奉迎	-11.4949
感其	-11.4951
毘沙門王	-11.4953
波斯匿	-11.4953
使汝	-11.4954
我頭	-11.4957
遙見菩薩	-11.4962
純是	-11.4963
辭退	-11.4963
三曰	-11.4968
生何處	-11.4973
是則為	-11.4976
亦與	-11.4979
妙勝	-11.4982
肉血	-11.4982
絃	-11.4982
造罪	-11.4984
還所止	-11.4991
得其便	-11.4991
在於此	-11.4992
唯有一	-11.4993
供養諸佛	-11.4995
雜香	-11.4995
惱害	-11.4998
勤精進	-11.4998
之慈	-11.5002
大覺	-11.5002
諸賢	-11.5004
應念	-11.5005
近臣	-11.5015
誰應	-11.502
臥地	-11.502
但念	-11.5027
遺餘	-11.5029
多求	-11.503
為轉輪聖王	-11.5031
欲聽	-11.5033
賢人	-11.5034
所緣	-11.5041
生喜樂	-11.5041
不廢	-11.5041
令一切眾生	-11.5042
我久	-11.5042
釋之	-11.5043
大臣言	-11.5045
諸香	-11.5047
不婬	-11.5049
非理	-11.5052
以致	-11.5055
是我所	-11.5057
所種	-11.5062
外現	-11.5067
而走	-11.5072
調柔	-11.5073
癡冥	-11.5078
善修	-11.508
恒處	-11.508
空過	-11.5081
發此	-11.5082
悉捨	-11.5083
濟彼	-11.5084
復說偈	-11.5085
妙用	-11.5085
吾本	-11.5087
於閻浮提	-11.5089
而臥	-11.509
亦由	-11.509
不漏	-11.5092
昔佛在	-11.5095
受施	-11.5095
為作禮	-11.5096
又願	-11.5101
將向	-11.5103
能勝	-11.5107
變已	-11.5107
趺	-11.5107
影現	-11.5108
無量無邊眾生	-11.5108
於一日	-11.5111
善念	-11.5115
有二萬	-11.5115
語婆羅門	-11.5123
之位	-11.5124
五百童子	-11.5134
其手	-11.5138
苦果	-11.514
現神足	-11.5141
眾商	-11.5142
遍身	-11.5142
墮在	-11.5144
普告	-11.5146
得遇	-11.5147
如金山	-11.5148
其味	-11.5149
求得	-11.515
設復	-11.515
童子生	-11.5151
爾時車匿	-11.5153
皆獲	-11.5154
甚苦	-11.5155
伽耶	-11.5157
永安	-11.5159
死矣	-11.5161
覩世	-11.5163
接足	-11.5164
有大力	-11.5165
火炎	-11.5166
甥	-11.5172
嗜	-11.5173
禮世尊足	-11.5173
賢聖道	-11.5173
當云何	-11.5177
聖種	-11.5177
根熟	-11.5178
迅	-11.518
銳志	-11.5182
深著	-11.5183
利物	-11.5184
眾圍遶	-11.5186
範	-11.5187
至泥洹	-11.5188
墮惡趣	-11.5189
隻	-11.5189
奚	-11.5189
供設	-11.5189
梵摩達	-11.519
厭足	-11.5191
飛行皇帝	-11.5191
不染著	-11.5192
世間五欲	-11.5192
級	-11.5192
五百子	-11.5194
招感	-11.5195
智慧光明	-11.5196
今且	-11.5196
得五通	-11.5197
焦	-11.5197
甕	-11.5197
博學	-11.5198
僉曰	-11.5198
尊長	-11.5198
個	-11.5199
賃	-11.5199
嘗	-11.52
曳	-11.52
鄰	-11.52
讒	-11.5201
婆多梨	-11.5202
塵埃	-11.5204
青雀	-11.5205
當與汝	-11.5205
催	-11.5206
大事	-11.5206
怯	-11.5206
彊	-11.5206
挺特	-11.5207
凝然	-11.5207
鍾磬	-11.5207
矚	-11.5207
逕	-11.5207
握	-11.5208
鑊	-11.5208
燕	-11.5208
輦輿	-11.5208
我今云何	-11.5209
綠	-11.521
𠎝	-11.521
屈伸臂頃	-11.521
鞍	-11.521
蠲除	-11.521
成就一切	-11.5211
儀容	-11.5212
澆	-11.5212
倉庫	-11.5212
臭爛	-11.5212
五穀豐熟	-11.5212
今雖	-11.5213
椎	-11.5213
康	-11.5213
高峻	-11.5214
笛	-11.5214
如應說法	-11.5214
端正姝好	-11.5215
鷄	-11.5215
妬嫉	-11.5216
戈	-11.5216
爾時國王	-11.5217
身心不動	-11.5217
甚眾多	-11.5217
五樂自娛	-11.5218
優鉢	-11.5218
熊羆	-11.5218
殷重	-11.5219
出興於世	-11.522
鑰	-11.5221
四域	-11.5221
斷之	-11.5221
飼	-11.5222
天地大動	-11.5222
四意止	-11.5223
呵梨勒	-11.5223
㝹	-11.5223
烏那曳曩	-11.5224
悶絕躃地	-11.5224
行乞	-11.5224
王與夫人	-11.5224
睡臥	-11.5224
端正無比	-11.5225
猛焰	-11.5225
即得名為真實波羅蜜	-11.5226
甚奇	-11.5226
祇樹給孤獨園	-11.5227
得陀羅尼	-11.5228
毘耶離	-11.5228
䟽	-11.5228
若復有人	-11.5228
菩提薩埵	-11.5228
仰視	-11.5229
不鼓自鳴	-11.523
起立	-11.523
民彌娑囉王	-11.523
散佛上	-11.5231
十中劫	-11.5232
墮於地獄	-11.5232
野馬	-11.5232
縱情	-11.5232
自致成佛	-11.5234
受諸快樂	-11.5234
不辭	-11.5235
▁一總標	-11.5235
國王臣民	-11.5235
今為所在	-11.5236
分那	-11.5238
不至究竟	-11.5238
盡苦際	-11.5238
希有之事	-11.5239
卷第九	-11.5239
張口	-11.524
由斯	-11.5241
少病少惱	-11.5242
交通	-11.5242
兩臂	-11.5242
國大夫人	-11.5242
親里	-11.5243
上妙衣服	-11.5243
髮爪	-11.5243
百福莊嚴	-11.5243
比藍	-11.5244
無救	-11.5245
為我解說	-11.5246
採果	-11.5246
得羅漢果	-11.5247
七返	-11.5247
殿堂	-11.5247
佛即然可	-11.5247
獲安隱	-11.5248
饒益一切	-11.5249
除差	-11.5249
正法滅已	-11.5249
晝夜六時	-11.525
姓字	-11.525
收取舍利	-11.5253
應度者	-11.5253
出五色光	-11.5253
勝軍	-11.5254
希有希有	-11.5254
不惓	-11.5254
洗鉢	-11.5255
邪行	-11.5255
半月	-11.5255
大地六種震動	-11.5256
乃至如前所說	-11.5261
莊嚴自身	-11.5261
或事	-11.5263
未成	-11.5263
彼諸王	-11.5263
三萬二千	-11.5264
諍競	-11.5264
反顯	-11.5264
安止住於	-11.5265
如是名為	-11.5267
諸三昧中	-11.5267
不測	-11.5267
若夫	-11.527
與五百	-11.5271
各作是言	-11.5273
滅後	-11.5273
號曰迦葉	-11.5274
田業	-11.5274
至七日	-11.5274
正真道	-11.5277
一枚	-11.5278
當勤	-11.5279
被毒箭	-11.5281
在於佛前	-11.5282
三惡趣	-11.5283
勅諸臣	-11.5284
將詣佛所	-11.5287
毀犯	-11.5289
未生	-11.5291
五百羅漢	-11.5292
思之	-11.5292
為優婆塞	-11.5293
忽有	-11.5294
變悔	-11.5294
即便問言	-11.5294
破散	-11.5295
來供養我	-11.5296
在佛前	-11.5297
牛主	-11.5297
大雨	-11.5299
雜類	-11.53
修善法	-11.5302
輪寶	-11.5303
圓光	-11.5304
行列	-11.5305
汝速	-11.5305
菩薩初生	-11.5306
皆歸	-11.5306
不失其	-11.5308
并餘	-11.5309
寶稱	-11.5309
集百	-11.5312
同類	-11.5312
光光	-11.5313
或持	-11.5318
神人	-11.5321
其珠	-11.5322
惡行者	-11.5326
盡漏	-11.5327
異處	-11.5333
適欲	-11.5334
授其	-11.5335
其口	-11.5337
眼根	-11.5339
時有長者	-11.5339
蓮華世界	-11.5341
猶不能	-11.5342
王波斯匿	-11.5344
作如是思惟	-11.5345
聽受法	-11.5352
巨億	-11.5353
隨路	-11.5354
承前	-11.5356
即報言	-11.5357
我當云何	-11.5357
劫名	-11.5357
尋還	-11.5361
合掌白	-11.5363
時諸大眾	-11.5364
是婆羅門	-11.5365
正解脫	-11.5366
歸命佛	-11.5367
却敵	-11.5367
作是觀	-11.537
智能	-11.537
神聖	-11.5371
悉備	-11.5372
正欲	-11.5372
帝釋幢	-11.5374
極苦	-11.5376
處其中	-11.5377
能救	-11.5377
鬼王	-11.5377
然矣	-11.5378
飢虛	-11.5381
承上	-11.5381
適悅	-11.5383
各懷	-11.5383
空虛	-11.5383
處于	-11.5384
離散	-11.5386
七寶莊嚴	-11.5386
而進	-11.5388
奉命	-11.5388
福德力	-11.539
大威力	-11.5391
受取	-11.5391
我身是	-11.5394
子孫相繼有	-11.5403
何罪	-11.5408
三界尊	-11.5409
成羅漢	-11.541
當來世	-11.5412
慧力	-11.5415
一切天人	-11.5416
當獲	-11.5416
邪正	-11.5416
)。】「	-11.5417
人中尊	-11.5419
難思	-11.542
所有人民	-11.5421
不忘失	-11.5423
安樂處	-11.5425
不知所	-11.5425
三果	-11.5425
但是	-11.543
四顛倒	-11.543
猶不得阿羅漢	-11.5436
於夜半	-11.5436
識處	-11.5441
不從他	-11.5441
若斯	-11.5442
遙覩	-11.5443
後至	-11.5447
甚深法	-11.5449
被袈裟	-11.5453
諸王子	-11.5454
盡無餘	-11.5456
聞正法	-11.5457
斯言	-11.5457
不墮惡道	-11.5461
未足	-11.5461
王尋	-11.5465
福因	-11.5466
天道	-11.5466
器中	-11.5468
此何	-11.5468
所重	-11.5468
護戒	-11.5471
倍復	-11.5473
能了	-11.5474
於地上	-11.5475
所惑	-11.5476
神通清淨	-11.548
欲聽法	-11.5481
三世菩薩	-11.5482
』」	-11.5486
遣信	-11.5487
此二人	-11.5487
四願	-11.5492
頭頂	-11.5496
說是法	-11.5498
轉生	-11.5498
心識	-11.5502
欲乞	-11.5502
魔女	-11.5503
免此	-11.5504
一樹下	-11.5508
上界	-11.5509
乘虛	-11.5513
禮已	-11.5514
此句	-11.5517
作罪	-11.5518
莫過	-11.5518
乞願	-11.5523
此必	-11.5523
由汝	-11.5525
見其如是	-11.5526
懷恨	-11.5527
勿生	-11.5528
苦諦	-11.5529
得道果	-11.5532
來索	-11.5533
梵眾	-11.5533
強盛	-11.5536
設食	-11.5536
憂畏	-11.5539
用布施	-11.5543
無生智	-11.5545
漏失	-11.5546
所遊	-11.5546
來久	-11.5547
華經	-11.5548
有辟支佛	-11.5549
眾花	-11.555
順從	-11.5551
我念	-11.5552
而獨	-11.5553
純金	-11.5553
戒定	-11.5553
如汝所	-11.5555
根塵	-11.5558
凡夫人	-11.5562
復有種種	-11.5563
侍人	-11.5564
當為我	-11.5566
小果	-11.5568
入宮中	-11.557
海邊	-11.5575
上聞	-11.5578
自拔	-11.5578
山林中	-11.5578
最後一	-11.558
華色	-11.559
名聲	-11.559
無數眾生	-11.559
悉除	-11.5598
治病	-11.5603
菩薩大士	-11.5605
人頭	-11.5607
之主	-11.5607
種種瓔珞	-11.5613
脫衣	-11.5616
變身	-11.5618
入于	-11.5618
恐人	-11.562
觀知	-11.5625
迦葉等	-11.5625
若遇	-11.5625
憂念	-11.5628
無所染	-11.5631
相和	-11.5632
因相	-11.5634
於天上	-11.5636
於夢中	-11.5636
魔宮	-11.5636
我曾	-11.5639
始入	-11.5642
其內	-11.5648
我若不	-11.5648
爾時大眾	-11.5648
傳聞	-11.5651
定知	-11.5655
令彼得解	-11.5655
明照	-11.5655
來問	-11.5656
方始	-11.5658
梵志所	-11.566
實智	-11.5661
入國	-11.5663
相率	-11.5663
百萬	-11.5663
智印	-11.5663
調伏眾生	-11.5664
但能	-11.5671
舍內	-11.5673
至佛邊	-11.5675
臥起	-11.5675
七多羅樹	-11.5678
壽命無量	-11.5679
諸通	-11.568
徐步	-11.5683
大婦	-11.5684
惓	-11.5685
無所見	-11.5691
得全	-11.5692
待之	-11.5694
現在住世	-11.5694
論說	-11.5697
慈愛	-11.57
心悅	-11.5701
原本	-11.5706
生恐怖	-11.5706
能拔	-11.5707
欲用	-11.5707
欣喜	-11.5707
迷於	-11.5708
園監	-11.5708
悒	-11.5709
度攝	-11.5714
無染著	-11.5714
牟尼尊	-11.5715
株杌	-11.5716
蟒	-11.5716
努	-11.5717
供養之具	-11.5718
淫	-11.5718
踞	-11.5719
魂靈	-11.572
婚姻	-11.5721
企	-11.5722
塚	-11.5723
耐	-11.5723
從座起	-11.5724
惚	-11.5724
積行	-11.5724
九十六種	-11.5724
准長行	-11.5725
庸	-11.5725
無常苦空	-11.5725
摩訶衍	-11.5726
右臂	-11.5726
猥	-11.5726
屢	-11.5726
鹿皮衣	-11.5726
灼	-11.5726
頒宣	-11.5727
諂偽	-11.5727
籍	-11.5728
鑿	-11.5728
透	-11.5729
內院	-11.5729
輦	-11.573
殆	-11.573
來入城	-11.573
蔓	-11.573
副	-11.573
六反震動	-11.5731
儼然	-11.5731
晡	-11.5731
覽	-11.5731
躓	-11.5732
入城分衛	-11.5732
滴	-11.5733
五盛陰	-11.5733
兆	-11.5733
眄	-11.5734
樂具	-11.5734
爵	-11.5734
達多	-11.5735
屈申	-11.5735
寇	-11.5735
扣	-11.5735
綿	-11.5736
鹽	-11.5736
王及群臣	-11.5737
蹹	-11.5737
諸花	-11.5737
腐	-11.5737
兼復	-11.5738
亦使正法久存於世	-11.5738
我今為汝	-11.5738
以法合喻	-11.5739
心心所法	-11.5739
贍部洲	-11.574
我不齊為	-11.574
胎中	-11.574
涸	-11.574
懺謝	-11.574
究暢	-11.574
腫	-11.574
盈溢	-11.5741
合會有離	-11.5741
暖	-11.5742
陶家	-11.5742
劫初	-11.5742
真道	-11.5743
誕	-11.5743
局	-11.5743
敕	-11.5743
親附	-11.5744
侵欺	-11.5744
肉髻	-11.5744
灰土	-11.5745
誼	-11.5745
散華燒香	-11.5745
號泣	-11.5745
羞恥	-11.5745
良福田	-11.5746
膩	-11.5746
夫婦二人	-11.5746
未度者	-11.5746
崩壞	-11.5747
夙夜	-11.5747
墨	-11.5747
婆私吒	-11.5748
一夜	-11.5748
覆盆	-11.5748
瞻仰尊顏	-11.5748
萬劫	-11.5748
不逆人意	-11.5748
閱叉	-11.5748
壇	-11.5749
眾經	-11.5749
觸嬈	-11.5749
放逸多憂愆	-11.575
金團	-11.5751
寂靜處	-11.5751
酥油	-11.5751
縫	-11.5751
而自娛樂	-11.5751
老公	-11.5751
覺觀	-11.5752
倍於常	-11.5752
育養	-11.5752
名稱遠聞	-11.5752
摸	-11.5752
交橫	-11.5752
愚闇	-11.5752
萌	-11.5752
泰山	-11.5753
取要言之	-11.5753
金翅	-11.5753
夫人處世	-11.5754
戰掉	-11.5755
攘	-11.5755
身上出水	-11.5756
即遣使人	-11.5756
示教利喜	-11.5756
鈍弱	-11.5756
功効	-11.5756
妄計	-11.5756
床褥	-11.5757
百千無量億那由他	-11.5757
所知障	-11.5757
莫知所	-11.5758
受地獄苦	-11.5758
憐愍眾生	-11.5758
步步	-11.5758
卑下	-11.5759
作諸伎樂	-11.576
甘雨	-11.576
契經所說	-11.5761
知自覺者	-11.5761
發是言	-11.5763
壽終之後	-11.5763
二卷	-11.5764
轉于法輪	-11.5764
迦梨	-11.5764
娑訶佛土	-11.5764
五百釋種	-11.5765
發生勝義	-11.5765
四部眾	-11.5765
八萬四千諸小國王	-11.5766
佛本行經	-11.5766
真陀羅	-11.5767
過七日已	-11.5767
微供	-11.5767
幢蓋	-11.5768
何謂為四	-11.5769
所居之處	-11.5769
怪未曾有	-11.5769
愚迷	-11.577
薩婆若	-11.5771
雨種種華	-11.5771
為供養故	-11.5771
遮止	-11.5772
伽耶迦葉	-11.5773
還從頂入	-11.5773
恒有	-11.5773
船筏	-11.5773
料理	-11.5773
下流	-11.5774
未離	-11.5774
四洲	-11.5775
飲血	-11.5775
兩錢	-11.5775
火神堂	-11.5776
梵音聲	-11.5777
彌勒菩薩摩訶薩	-11.5777
有七重	-11.5778
掃地	-11.5779
深生信敬	-11.578
約勅	-11.578
能遮	-11.5781
解了一切陀羅尼門	-11.5782
將導	-11.5782
伊羅鉢龍王	-11.5783
弘願	-11.5783
不休息	-11.5784
恭敬圍遶	-11.5785
假設	-11.5785
十二頭陀	-11.5786
異國	-11.5786
紺青色	-11.5786
有大光明	-11.5789
難事	-11.5791
許我	-11.5792
纔起心時而	-11.5794
衣服飲食	-11.5797
幻法	-11.5797
所有財寶	-11.5797
佛說是已	-11.5798
列名	-11.5799
而取命終	-11.5799
貪瞋	-11.58
貧女	-11.58
塵數	-11.58
彌滿	-11.5801
兩眼	-11.5803
汝何以	-11.5803
設計	-11.5803
忽爾	-11.5804
眾圍繞	-11.5805
汝善丈夫	-11.5806
入池	-11.5806
以十善	-11.5808
非道	-11.5811
汝今若能	-11.5811
境內	-11.5817
最後世	-11.5819
不乎	-11.5822
諸梵行	-11.5825
尊者護	-11.5827
幽靜	-11.5827
卒至	-11.5828
貪利養	-11.5833
覆藏	-11.5834
或有世界	-11.5835
從無數劫	-11.5843
勤加	-11.5843
得病	-11.5843
)【	-11.5847
稱名	-11.5849
自存活	-11.5849
伺其	-11.5851
該盡	-11.5852
時諸商人	-11.5852
我亦不	-11.5855
如是功德	-11.5858
智慧了知	-11.5863
發道心	-11.5864
癡心	-11.5865
諸鬼神	-11.5865
豈當	-11.5866
佛成道	-11.5868
莫作異	-11.587
所作功德	-11.5871
日增	-11.5871
起塔供養	-11.5873
同共	-11.5873
七匝	-11.5874
煩惱海	-11.5879
施辟支佛	-11.5881
明星	-11.5881
有得須陀洹	-11.5885
慰問	-11.5887
心存	-11.5887
財色	-11.5888
至家	-11.589
於迦毘羅城	-11.5892
本具	-11.5892
能爾者	-11.5894
僧中	-11.5894
異相	-11.5897
復增	-11.5901
至於佛所	-11.5902
報怨	-11.5904
以方便	-11.5904
如蓮華	-11.5905
我等云何	-11.591
堅強	-11.591
見婦	-11.5912
遙見太子	-11.5913
處分	-11.5913
血出	-11.5915
自省	-11.5916
昔佛在世	-11.5916
缺漏	-11.5916
終已	-11.5918
極微妙	-11.5919
聖尊	-11.5919
所未聞	-11.5919
龍華	-11.5922
豐熟	-11.5926
而得自在	-11.5927
今者何故	-11.5927
倒錯	-11.5928
作使	-11.593
極重	-11.5932
輕便	-11.5933
於一切時	-11.5933
是其光	-11.5934
自悟	-11.5936
最為勝	-11.5936
心驚	-11.5937
出過	-11.5938
未熟	-11.5939
本寂	-11.5939
捨此身	-11.5941
當作佛	-11.5943
何者是	-11.5945
摩達	-11.5946
既爾	-11.5948
過踰	-11.595
慢等	-11.5953
墮此	-11.5953
於城外	-11.5955
但說	-11.5958
無損	-11.5961
雨七寶	-11.5964
江海	-11.5966
得無漏	-11.5968
不亡	-11.5969
龍宮	-11.597
寧自	-11.5971
得相見	-11.5972
雨於	-11.5973
身業	-11.5976
聽其	-11.5977
解悟	-11.5977
有大長者	-11.5981
競共	-11.5981
無有疑	-11.5981
火焰	-11.5982
年耆	-11.5983
當以何	-11.5988
勝福	-11.5995
安寧	-11.5996
作如是語	-11.5996
浣衣	-11.5998
受勅	-11.6001
充盈	-11.6002
瓔珞其身	-11.6002
年歲	-11.6003
母恩	-11.6003
悉歡喜	-11.6006
紫	-11.6007
口意	-11.6009
其狀	-11.6016
怨親	-11.6018
重問	-11.6021
諸惡趣	-11.6025
騰空	-11.6027
汝輩	-11.6027
脫身	-11.6027
深知	-11.6028
悲痛	-11.6031
惡毒	-11.6031
自歸佛	-11.6032
遠涉	-11.6035
馳奔	-11.6037
依正	-11.6037
惑亂	-11.6039
始生	-11.6039
所執	-11.604
盡滅	-11.6041
著五欲	-11.6042
經文	-11.6045
斷結	-11.6046
首陀	-11.6047
室中	-11.605
白㲲	-11.6052
弊衣	-11.6055
作賊	-11.6057
此約	-11.6057
如來今者	-11.6058
摩醯首羅	-11.6059
悉具足	-11.606
道教	-11.6061
愛別離苦	-11.6067
相遇	-11.6069
自造	-11.6072
十二億	-11.6072
廣設	-11.6073
前立	-11.608
之藥	-11.608
知我心	-11.6081
遍至	-11.6082
曹	-11.6083
合前	-11.6083
卿今	-11.6084
捨國	-11.6087
說諸法	-11.6091
亦不著	-11.6093
仙言	-11.6094
正值	-11.6094
染法	-11.6095
爾時目連	-11.6097
不及一	-11.6104
皆屬	-11.6106
不退轉阿耨多羅三藐三菩提	-11.611
香象	-11.611
請佛及比丘僧	-11.6111
有一天子	-11.6112
命終時	-11.6114
乏少	-11.6115
顯赫	-11.6119
第四禪	-11.6119
逢見	-11.612
久居	-11.6122
得見佛	-11.6123
永寂	-11.6125
苦逼	-11.6129
覆護	-11.6129
願為我說	-11.613
察其	-11.613
非義	-11.6133
入內	-11.6136
城中有	-11.6136
無處不	-11.6139
淨飯王宮	-11.614
往日	-11.6141
託生	-11.6141
何故如是	-11.6143
異見	-11.6143
不可盡	-11.6145
太子出遊	-11.6147
無人能	-11.6147
染因	-11.6148
往請	-11.6149
為最上	-11.6151
羅剎鬼	-11.6152
一歲	-11.6158
隨病	-11.6158
四千	-11.6158
下馬	-11.6159
慈孝	-11.616
善神	-11.616
心不亂	-11.6165
捨王位	-11.6168
至其家	-11.6169
美音	-11.6172
下種	-11.6177
志在	-11.6178
為諸菩薩	-11.6181
一切眾生皆	-11.6183
我今當往	-11.6187
食草	-11.6188
還天上	-11.6188
千二百五十	-11.6198
得善利	-11.6199
從索	-11.6201
憶昔	-11.6204
本宮	-11.6207
六處	-11.6212
後必	-11.6213
病患	-11.6214
頓然	-11.6214
萬人	-11.6215
天人尊	-11.6223
繫心	-11.6228
十里	-11.6235
智明	-11.6241
如秋	-11.6241
盛年	-11.6243
咸言	-11.6243
暫捨	-11.6245
勇力	-11.6249
翁	-11.625
悲導	-11.6252
得一切智	-11.6253
以何為	-11.6253
不見佛	-11.6254
鶖鷺子	-11.6254
不牢	-11.6256
汝善男子	-11.6257
同行	-11.6258
第九	-11.6262
與我等	-11.6263
嵐	-11.6264
淚下	-11.6265
祚	-11.6265
軌	-11.6268
躁	-11.6269
歸命三尊	-11.6271
陸	-11.6272
虐	-11.6274
以清淨心	-11.6274
地水火風	-11.6274
轂	-11.6276
鉀	-11.6276
朝夕	-11.6276
是故今	-11.6278
至其所	-11.628
彫	-11.628
優填	-11.6282
上山	-11.6282
初總標	-11.6282
昔佛在舍衛國	-11.6282
恬	-11.6283
諦視	-11.6283
梯	-11.6283
䩕	-11.6284
禦	-11.6284
於中路	-11.6284
所以爾者	-11.6284
庠	-11.6286
賦	-11.6286
亭	-11.6287
儉	-11.6287
阿群	-11.6287
携	-11.6287
哀哉	-11.6287
撾	-11.6287
姉妹	-11.6288
不差	-11.6288
迦栴延	-11.6288
綱	-11.6289
灑掃	-11.6289
裁	-11.6289
魂神	-11.6289
厲	-11.6289
佛說偈已	-11.6289
毱	-11.6289
惛	-11.6291
詠	-11.6291
咨嗟	-11.6291
哮吼	-11.6291
典籍	-11.6291
罔	-11.6292
纏綿	-11.6292
曀	-11.6292
無常苦空無我	-11.6293
飢寒	-11.6293
哽噎	-11.6293
駃	-11.6293
仙道	-11.6293
隨業受報	-11.6293
鉾	-11.6293
喚呼	-11.6294
寶臺	-11.6295
倮形	-11.6295
鋸	-11.6295
甘饍	-11.6295
污泥	-11.6295
醒悟	-11.6296
投機	-11.6296
危嶮	-11.6296
孕	-11.6297
華上	-11.6297
翠	-11.6297
怡悅	-11.6297
因業	-11.6297
蠕動	-11.6297
便勅	-11.6297
雲霧	-11.6298
數千萬	-11.6299
二次第列名	-11.6299
醫王	-11.6299
徐徐	-11.6299
毘首羯磨	-11.6299
呻吟	-11.63
為聽法故	-11.63
子曹	-11.63
貪恚癡	-11.6301
墜落	-11.6301
蓊欝	-11.6301
韋陀	-11.6301
蹄	-11.6301
真偽	-11.6301
不但今日	-11.6301
慈育	-11.6302
彈指	-11.6302
伎藝	-11.6303
轉妙法輪	-11.6303
若不得	-11.6303
不復退轉	-11.6303
善男下結	-11.6303
歡喜踊躍不能自勝	-11.6303
銀色女	-11.6304
滋蔓	-11.6304
從今已後	-11.6304
吾將	-11.6304
翻譯	-11.6305
目真隣陀	-11.6305
四無量心	-11.6305
根莖	-11.6305
矛	-11.6306
叱	-11.6307
轉於法輪	-11.6307
乾竭	-11.6308
深邃	-11.6309
街衢	-11.631
野獸	-11.631
田主	-11.631
久停	-11.631
囑累	-11.631
筆	-11.631
四維上下	-11.631
貢獻	-11.6311
渡海	-11.6312
生大苦惱	-11.6312
大乘本生心地觀經	-11.6313
哭泣	-11.6313
阿若憍陳如	-11.6313
慘然	-11.6313
曝	-11.6313
是謂為梵志	-11.6313
初生之時	-11.6314
大方便佛報恩	-11.6314
修清淨行	-11.6314
君臣	-11.6315
曾作	-11.6315
集不善根	-11.6316
逼近	-11.6316
嗜欲	-11.6316
毘舍遮	-11.6317
起大悲心	-11.6318
為眾說法	-11.6318
不知其	-11.6319
證羅漢果	-11.6319
相去不遠	-11.632
品類	-11.6321
為是誰	-11.6321
淨光	-11.6321
足跡	-11.6322
百千萬億	-11.6322
圍遶三匝	-11.6322
王舍大城	-11.6324
飢渴所逼	-11.6325
作是誓已	-11.6325
阿羅邏仙人	-11.6325
不惱	-11.6326
鉢囉	-11.6327
六十二見	-11.6328
本際	-11.6328
門徒	-11.6328
剎利種	-11.6328
無生法忍	-11.6328
床榻	-11.6329
百鳥	-11.6329
次第而行	-11.6329
優波低沙	-11.633
受命	-11.633
城邑聚落	-11.6331
無量無邊阿僧祇劫	-11.6331
障閡	-11.6331
鹿皮	-11.6331
五百由旬	-11.6331
終亡	-11.6331
慈哀憐愍	-11.6333
為法王	-11.6333
四真諦	-11.6333
乃往過去九十一劫	-11.6334
時王聞已	-11.6334
受持五戒	-11.6335
轉於無上法輪	-11.6335
涌出	-11.6335
利群生	-11.6335
斷諸結使	-11.6337
并比丘僧	-11.6338
給足	-11.6339
國師婆羅門	-11.634
比丘勝彼此	-11.6341
」【	-11.6342
指授	-11.6342
調馬	-11.6343
花葉	-11.6344
思議	-11.6344
慈恩	-11.6344
令其佛土	-11.6345
調伏諸根	-11.6347
有大恩	-11.6347
證得阿耨多羅三藐三菩提	-11.6348
扶持	-11.6348
盲者	-11.6349
染障	-11.6351
鉢器	-11.6351
可去	-11.6352
愍之	-11.6352
可保	-11.6353
時老比丘	-11.6353
持淨戒	-11.6354
究竟涅槃	-11.6355
無缺漏	-11.6357
禮拜供養	-11.636
墮餓鬼	-11.6361
末世	-11.6362
守門人	-11.6362
惟願如來	-11.6362
孰不	-11.6364
是故汝今	-11.6364
佛土莊嚴	-11.6364
為人說	-11.6369
悉使	-11.6369
供奉	-11.6371
慕樂	-11.6371
何所作	-11.6372
不復更	-11.6373
猶恐	-11.6375
生慚愧	-11.6376
未審	-11.6379
仁愛	-11.6379
敷具	-11.6379
作是願	-11.638
即以神力	-11.6382
此是何	-11.6382
於世尊所	-11.6382
地動	-11.6382
淨居天子	-11.6386
散壞	-11.6386
愚者所	-11.6386
卷第三十	-11.6386
不妄有	-11.639
阿難問佛	-11.639
光明照耀	-11.6391
】*	-11.6391
備悉	-11.6392
飛空	-11.6393
諸天女	-11.6394
降伏一切	-11.6395
此翻	-11.6399
現神通	-11.6403
真濟	-11.6404
羅國	-11.6406
捨壽	-11.6407
因地	-11.641
淨業	-11.6411
金沙	-11.6415
而巳	-11.6418
四等心	-11.6419
三界之中	-11.642
能令眾生	-11.642
無倦	-11.6426
為我說法	-11.6428
所重者	-11.6428
義味	-11.6436
共詣	-11.6437
愛結	-11.644
能作如是	-11.6441
助道	-11.6442
有心疑	-11.6444
淨無垢	-11.6445
與卿	-11.6446
富有	-11.6446
如來尊重	-11.6449
造惡業	-11.645
五指	-11.6453
五神通	-11.6454
於一切處	-11.6455
我為汝	-11.6455
不礙	-11.6456
行孝	-11.6456
如恒沙	-11.646
於愛欲	-11.6461
仁義	-11.6461
如此之人	-11.6461
於無上道	-11.6464
與我共	-11.6466
出遊觀	-11.6466
失道	-11.6468
貧家	-11.6472
一鉢	-11.6473
信財	-11.6473
棄國	-11.6473
船上	-11.6474
無畏處	-11.6474
貧困	-11.6478
滋長	-11.648
可依	-11.6481
悲念	-11.6482
惡罵	-11.6487
非獨	-11.6488
興立	-11.649
盡諸漏	-11.649
正釋	-11.6494
口行	-11.6503
受大苦	-11.6512
爾時獵師	-11.6513
時魔波旬	-11.6514
獲斯	-11.6515
人邊	-11.652
於何處	-11.652
逼惱	-11.6521
我於此處	-11.6523
癡暗	-11.6526
攝化	-11.6526
齊等	-11.6528
有多種	-11.6534
有益	-11.6536
成佛號	-11.6537
白父母	-11.6539
六人	-11.6541
坐於樹下	-11.6541
目連等	-11.6542
暴惡	-11.6546
不甘	-11.6553
大笑	-11.6554
貴人	-11.6554
有一大國	-11.6557
求出世	-11.6557
信根	-11.6558
坐上	-11.656
恩愛別離	-11.6565
滿虛空中	-11.6566
毒樹	-11.6571
至竟	-11.6573
園內	-11.6582
勅使	-11.6584
諸婦女	-11.6588
以用供養	-11.6598
者是也	-11.66
此諸根	-11.6604
是一切智	-11.6608
所居處	-11.661
不能免	-11.661
飛騰	-11.6614
國位	-11.6616
華蓋	-11.6617
勸我	-11.6619
度量	-11.6619
入惡道	-11.6621
好色	-11.6622
還報	-11.6628
慈念	-11.663
是故當知	-11.6633
往還	-11.6634
在家出家	-11.6636
足指	-11.6636
正化	-11.6639
一切無常	-11.6641
於三寶	-11.6643
能攝	-11.6645
愍其	-11.6646
不自在	-11.6647
彼業報	-11.6648
嚴整	-11.6649
詣宮門	-11.6657
諸餓鬼	-11.6662
所乏	-11.6662
諸塵垢	-11.6665
長老阿難	-11.6665
一切凡夫	-11.6666
色香	-11.6668
見諸眾生	-11.667
窓	-11.667
過於彼	-11.667
乃可得	-11.6671
得作佛	-11.6671
安施	-11.6674
諸情	-11.6678
此名為	-11.6683
戴天冠	-11.6683
次當	-11.6688
大方便	-11.6689
烏王	-11.6691
大悟	-11.6693
染惡	-11.6694
諸佛國土	-11.6696
寶宮	-11.6696
法數	-11.6697
更作	-11.6697
為伴	-11.67
一切眷屬	-11.6703
各齎	-11.6707
所親	-11.6714
此是我	-11.6723
無過於	-11.6729
畏死	-11.6729
到其所	-11.673
作何業	-11.6731
流離	-11.6735
其最	-11.6736
象牙	-11.6736
村中	-11.6739
出胎	-11.6739
如斯之	-11.674
所譽	-11.6744
未來世中	-11.6745
經道	-11.6755
守門	-11.6757
告諸大眾	-11.676
制伏	-11.676
未證	-11.6762
栽	-11.6763
安隱快樂	-11.6763
作諸功德	-11.6766
足滿	-11.6768
摩伽	-11.6769
抱兒	-11.6769
念子	-11.6775
本業	-11.6776
邪婬	-11.6777
明白	-11.6777
樂想	-11.6782
善不善	-11.6784
時四天王	-11.6786
聞法已	-11.6786
所患	-11.6786
何者為	-11.679
及弟子	-11.6795
皆蒙	-11.6795
遭苦	-11.6796
奪取	-11.6797
是故應當	-11.6798
所障	-11.6801
我當以	-11.6802
千萬億	-11.6805
遍行	-11.6806
方面	-11.6811
轉變	-11.6816
大利	-11.6818
其頂	-11.6819
夭	-11.6819
神化	-11.6821
造塔	-11.6821
一方	-11.6821
如上說	-11.6824
如是等種種	-11.6829
久在	-11.683
象護	-11.6833
度勝	-11.6834
皆被	-11.6835
長歎	-11.6838
佛所行	-11.6845
恭敬尊重	-11.6846
唼食	-11.6846
掠	-11.6848
二合	-11.6849
讎	-11.6851
八事	-11.6852
還精舍	-11.6853
泰	-11.6853
除饉	-11.6855
上句	-11.6855
犇	-11.6856
株	-11.6858
聟	-11.6858
拱	-11.686
拷	-11.6861
包	-11.6861
二足	-11.6863
欄	-11.6864
不見太子	-11.6864
穿珠師	-11.6864
則不能	-11.6865
堆	-11.6865
諸比丘僧	-11.6867
雷電	-11.6867
㵎	-11.6867
楞嚴	-11.6867
此誓	-11.6867
跳踉	-11.6868
攬	-11.6869
佞	-11.687
寸	-11.6871
受享法樂	-11.6871
贖	-11.6871
叛	-11.6872
訛	-11.6872
兩肩	-11.6872
影響	-11.6872
吸	-11.6872
析	-11.6872
釋童子	-11.6872
沉淪	-11.6872
笞	-11.6872
敏	-11.6873
蓬	-11.6873
庫	-11.6873
行菩提行	-11.6873
殄	-11.6874
財富無數	-11.6874
薩埵	-11.6874
採華	-11.6874
黎	-11.6874
撾打	-11.6875
兵仗	-11.6875
又觀自身	-11.6876
慙	-11.6876
憘	-11.6876
調良	-11.6877
迭	-11.6877
少聞	-11.6878
足蹈	-11.6878
慈氏	-11.6879
復有無量百千	-11.6879
慶賀	-11.6879
厩	-11.688
叮	-11.688
懈惓	-11.688
忿恨	-11.688
四大洲	-11.688
澡罐	-11.688
怕	-11.688
在菩薩前	-11.688
怱怱	-11.688
釘	-11.6881
胡麻	-11.6881
攝眾生	-11.6881
蚊	-11.6881
旃	-11.6882
費	-11.6882
苗稼	-11.6882
佛說是義足經	-11.6882
煑	-11.6882
之別稱	-11.6882
勸勉	-11.6883
摩拏嚩迦	-11.6883
姝好	-11.6883
珍琦	-11.6883
於最後王復生一	-11.6883
王軍	-11.6883
即呼	-11.6883
麤細	-11.6884
坐一樹下	-11.6884
逐境	-11.6884
今日世尊	-11.6884
傭	-11.6884
羅列	-11.6884
不生不滅	-11.6884
復經數日	-11.6884
疲厭	-11.6885
雷電霹靂	-11.6885
滋茂	-11.6885
柔順	-11.6885
棒	-11.6886
身出水火	-11.6886
觝	-11.6886
苗裔	-11.6886
澄靜	-11.6886
殞命	-11.6886
慳惜	-11.6886
翫習	-11.6887
繼嗣	-11.6887
五熱炙身	-11.6887
容顏	-11.6888
里巷	-11.6889
須臾之頃	-11.6889
青黃赤白	-11.6889
宗仰	-11.6889
狂象	-11.6889
爾時世尊以天眼觀	-11.6889
本起經	-11.6889
拔刀	-11.689
憍曇彌	-11.689
淡	-11.689
困篤	-11.6891
慜	-11.6891
弘廣	-11.6892
說此語已	-11.6892
無救護者	-11.6892
芻	-11.6893
舉兩手	-11.6893
遣人往	-11.6894
牟	-11.6894
手自斟酌	-11.6894
從今已去	-11.6894
鬚髮自墮	-11.6895
高一由旬	-11.6895
出城門	-11.6895
曼陀羅花	-11.6895
嗅	-11.6895
無所恃怙	-11.6896
賢聖八品道	-11.6896
得甘露	-11.6896
指環	-11.6896
紹繼	-11.6896
四天大王	-11.6897
轉無上法輪	-11.6897
優波低沙童子	-11.6897
宣揚	-11.6897
賒	-11.6898
看之	-11.6898
撿挍	-11.6898
以杖	-11.6898
無數億劫	-11.6898
懸繒幡蓋	-11.6898
垂愍	-11.6899
與其眷屬	-11.6899
逆順	-11.6899
侵害	-11.69
走獸	-11.69
心之所念	-11.6901
然既云	-11.6901
讚嘆	-11.6901
燃燈	-11.6902
供養如來及比丘僧	-11.6902
健夫	-11.6902
塗香末香	-11.6902
顏容	-11.6902
假使有人	-11.6904
值見	-11.6904
離貪	-11.6904
變怪	-11.6905
乃至菩提際	-11.6905
提頭賴吒	-11.6906
半偈	-11.6906
拜為	-11.6906
除鬚髮	-11.6906
俗諦	-11.6907
蔭涼	-11.6907
美言	-11.6907
五百金錢	-11.6908
間錯	-11.6908
日暮	-11.6908
坐金剛座	-11.6908
骨節	-11.6909
合為一	-11.6909
華敷	-11.6909
甘露藥	-11.691
飢困	-11.691
不可沮壞	-11.691
發歡喜心	-11.6911
閉門	-11.6912
偈頌	-11.6912
積累	-11.6912
心懷踊躍	-11.6912
銷滅	-11.6912
禰舞迦	-11.6913
恭奉	-11.6913
微薄	-11.6913
拘留孫	-11.6914
娑訶佛剎	-11.6914
拘離多	-11.6915
大科	-11.6915
過罪	-11.6915
多億那由他百千	-11.6916
和順	-11.6916
寂志	-11.6916
娑毘耶波梨婆闍	-11.6916
大赦	-11.6917
超異	-11.6917
▁「『	-11.6918
普光如來	-11.6918
如汝所願	-11.6918
在空中	-11.6919
破薪	-11.692
兜率陀天	-11.692
第二禪	-11.6921
經十二年	-11.6921
使我來世	-11.6921
大目犍連	-11.6924
仙士	-11.6924
徧滿	-11.6924
種種功德	-11.6926
年在	-11.6927
。』」《	-11.6927
根力	-11.6929
如汝所言	-11.693
憐愍一切	-11.693
師子遊戲	-11.693
而以供養	-11.693
調達是也	-11.6931
光影	-11.6931
大乘法	-11.6931
俱梨迦長者	-11.6932
因緣力故	-11.6932
拔提	-11.6932
去之後	-11.6933
壽百歲	-11.6934
平滿	-11.6934
疾患	-11.6935
紫磨金	-11.6935
恭敬禮拜	-11.6935
險難	-11.6935
甚深微妙	-11.6935
佛以神力	-11.6936
大眾中	-11.6936
何等名為	-11.6936
擔負	-11.6936
於賢劫中	-11.6938
燒炙	-11.6939
牛馬	-11.6943
年始	-11.6943
身體柔軟	-11.6945
早起	-11.6946
如來滅後	-11.6946
節會	-11.6946
族望	-11.6948
黃門	-11.695
露現	-11.6951
於王前	-11.6951
凶惡	-11.6953
當於彼時	-11.6953
無量阿僧祇眾生	-11.6956
釋師子	-11.6957
地獄畜生餓鬼	-11.6957
七步	-11.6958
我今此身	-11.6959
心境	-11.6962
投之	-11.6962
尊奉	-11.6962
終不可得	-11.6963
吾當為汝	-11.6964
擲置	-11.6965
大哭	-11.6965
高顯	-11.6965
無悔	-11.6966
受佛教	-11.6966
持戒之人	-11.6968
久久	-11.6969
真金色	-11.6971
汝今當知	-11.6971
所得功德	-11.6972
清淨教誨	-11.6972
擲著	-11.6974
牧牛人	-11.6974
我今既	-11.6975
天宮殿	-11.6976
習惡	-11.6977
憶持	-11.6977
安和	-11.6978
道樹	-11.698
彼頂生王	-11.698
魔界	-11.6982
和同	-11.6983
諸根具足	-11.6984
是汝師	-11.6986
餘方	-11.6989
安徐	-11.699
遊化	-11.6991
親證	-11.6992
舉體	-11.6993
感佛	-11.6995
爾時白淨王	-11.6998
調達比丘	-11.6999
三垢	-11.6999
文陀	-11.7
成辟支佛	-11.7
善好	-11.7
是故智者	-11.7002
滿面	-11.7002
器物	-11.7003
更受	-11.7005
消盡	-11.7005
廣行	-11.7007
值此	-11.7009
要須	-11.7012
普光	-11.7013
然燈如來	-11.7014
顛狂	-11.7014
所從生	-11.7015
非機	-11.7016
汝寧	-11.7019
怨嫉	-11.7021
道品	-11.7021
身病	-11.7023
說是偈	-11.7026
雙足	-11.7028
閉在	-11.7029
饑渴	-11.703
泉源	-11.7032
奴僕	-11.7032
令得解脫	-11.7032
檀那	-11.7034
雪山中	-11.7036
色衣	-11.7037
手捉	-11.7038
迴向阿耨多羅三藐三菩提	-11.7043
淨佛土	-11.7043
忿恚	-11.7045
歸依僧	-11.7055
作如是事	-11.7057
皆同一	-11.7057
恭敬親近	-11.7062
無差	-11.7067
五情	-11.707
諸龍王	-11.707
諦聽諦聽	-11.7072
歎息	-11.7073
復以種種	-11.7085
來至於此	-11.7086
日天子	-11.7087
快意	-11.7091
舍中	-11.7093
興發	-11.7094
除遣	-11.7096
寺中	-11.7096
解散	-11.7097
成沙門	-11.7098
大王今者	-11.7099
資生	-11.7101
利益一切眾生	-11.7111
須知	-11.7112
如真金	-11.7113
能達	-11.7116
曠野中	-11.7117
借問	-11.7118
十億	-11.7118
即遣人	-11.7125
生惡念	-11.7126
十八億	-11.713
悉解	-11.7131
之道也	-11.7135
豈復	-11.7137
世出世	-11.7142
無休息	-11.7143
深奧	-11.7147
獨往	-11.7152
相輪	-11.7155
絃歌	-11.7156
土石	-11.7156
之惱	-11.7157
生恭敬	-11.7157
三億	-11.7157
入無為	-11.7161
共會	-11.7163
覆上	-11.7166
真空	-11.7166
持律	-11.7171
不充	-11.7173
受苦樂	-11.7176
界內	-11.7176
于今	-11.7179
不任	-11.7182
大目連	-11.7185
尼拘陀樹	-11.7185
尼連禪河	-11.7191
二偈頌	-11.7194
爾時魔王	-11.7196
莫使	-11.72
獲果	-11.7205
無數人	-11.7207
方欲	-11.7207
去城	-11.7208
三字	-11.721
城內外	-11.7212
疑心	-11.7212
獲致	-11.7215
斷德	-11.7216
日照	-11.7218
欲使不	-11.7219
為妃	-11.7223
餓鬼中	-11.7223
不朽	-11.7224
適生	-11.7225
作利益	-11.7227
法音	-11.7232
立地	-11.7233
得天眼	-11.7241
能覺知	-11.7242
父母妻子	-11.7245
持五戒	-11.7247
到已即	-11.7248
墮畜生	-11.7252
戒香	-11.7252
道真	-11.7252
不休	-11.7252
田中	-11.7255
不驚	-11.726
偈義	-11.7261
復有無量無邊	-11.7263
老比丘	-11.7265
叢樹	-11.7265
一生補處菩薩	-11.7266
相傳	-11.7267
長者女	-11.7267
入園	-11.727
更取	-11.7276
牆壁	-11.728
若其不	-11.7282
蓋覆	-11.7288
乃獲	-11.7289
父母歡喜	-11.7297
尚能	-11.7297
自鳴	-11.7298
避之	-11.7302
劇於	-11.7306
佛在世時	-11.7307
諸賈客	-11.7316
初果	-11.7316
正命	-11.7318
心得解脫	-11.732
窮困	-11.7321
欲飲	-11.7324
諸不淨	-11.7326
周行	-11.7334
從我乞	-11.7335
汝今不應	-11.7337
火焚燒	-11.734
所聞法	-11.7341
應死	-11.7341
由前	-11.7344
所修行	-11.7348
為奇	-11.7349
付與	-11.735
賢眾	-11.7355
大白象	-11.7364
後更	-11.7369
寶床	-11.7372
幢如來	-11.7373
眾寶瓔珞	-11.7374
八萬四千波羅蜜	-11.7377
於山中	-11.7379
深入	-11.7381
無狀	-11.7381
不瞋	-11.7385
作此語	-11.7386
二兒	-11.7387
決疑	-11.7387
內宮	-11.7388
樓上	-11.7389
庭	-11.7392
分別諸法	-11.7393
人非人	-11.7393
虛空之中	-11.7394
猶故不	-11.7395
滿願	-11.7396
婆羅門聞是語已	-11.7397
未得道	-11.7399
却住	-11.7408
焉得	-11.7412
不得食	-11.7415
彼眾中	-11.7419
所領	-11.7423
躭	-11.7424
難保	-11.7426
噉肉	-11.7429
難計	-11.7433
始知	-11.7435
國民	-11.7442
不錯亂	-11.7442
欲脫	-11.7445
和調	-11.7449
漢	-11.7453
梨耆彌	-11.7459
)。(○	-11.7466
食畢	-11.7473
欲試	-11.7474
一禪	-11.7474
供養舍利	-11.7476
輕毀	-11.7477
調身	-11.7479
湩	-11.7481
五家	-11.7481
烈	-11.7482
乃成	-11.7482
勤方便	-11.7483
以上皆	-11.7483
吾昔	-11.7486
鬼魅	-11.7486
攢	-11.7487
霍然	-11.7489
犍	-11.749
晦	-11.7491
所懷	-11.7491
桃	-11.7492
如意寶珠	-11.7493
六度集經	-11.7493
拯	-11.7493
塜	-11.7494
探	-11.7495
如是之事	-11.7495
天壽	-11.7495
產生	-11.7496
燒煮	-11.7496
寶瓔	-11.7496
征	-11.7497
料	-11.7498
的	-11.7498
栴陀羅	-11.7498
蠱道	-11.7498
飡那	-11.7498
為漏義	-11.7498
老翁	-11.7499
來近	-11.7499
大乘悲分陀利經	-11.7499
併	-11.75
允	-11.75
迅速	-11.7501
墾	-11.7501
挺	-11.7501
泄	-11.7502
慈悲喜護	-11.7502
澡瓶	-11.7502
鏁	-11.7503
聞是說已	-11.7503
誇	-11.7503
水上泡	-11.7504
靽	-11.7504
如星中月	-11.7504
狼藉	-11.7504
偃	-11.7504
曚	-11.7505
妙后	-11.7505
冒	-11.7505
軌持	-11.7505
棘	-11.7505
錦	-11.7505
泰然	-11.7505
檢	-11.7505
庠序	-11.7506
衝	-11.7506
𤛓	-11.7506
研	-11.7506
財賄	-11.7506
憍薩羅	-11.7506
曼殊沙	-11.7506
軒	-11.7506
丈六	-11.7507
勳	-11.7508
迦良那伽梨	-11.7508
滓	-11.7508
炳著	-11.7508
尸毘王	-11.7508
毀譽	-11.7509
粒	-11.7509
旃陀	-11.7509
京	-11.751
四輩弟子	-11.751
行住坐起相隨	-11.751
鹹	-11.751
恭肅	-11.751
慶幸	-11.7511
點	-11.7511
羯	-11.7511
轉復前行	-11.7511
流泉浴池	-11.7512
喧諍	-11.7512
纖長	-11.7513
平治道路	-11.7513
努力	-11.7513
燈燭	-11.7514
次二句	-11.7514
宅主	-11.7514
世多有人	-11.7515
存亡	-11.7515
得阿那含道	-11.7515
純熟	-11.7515
并與	-11.7516
胤	-11.7516
超過三界	-11.7517
四百四病	-11.7517
沮壞	-11.7517
虗妄	-11.7517
師子之座	-11.7518
曇摩	-11.7518
為後眾生	-11.7518
矜愍	-11.7518
虱	-11.7519
若在家者	-11.7519
潔淨	-11.7519
和尚	-11.7519
駱駝	-11.7519
戲論	-11.752
憒亂	-11.752
毀謗	-11.752
搦	-11.7521
象馬牛羊	-11.7521
淹	-11.7521
即得名為親近波羅蜜	-11.7521
既出家已	-11.7521
如來重說偈言	-11.7522
阿練	-11.7522
短促	-11.7522
然後方	-11.7522
行道淨其迹	-11.7522
無有出期	-11.7522
田宅	-11.7522
祇洹精舍	-11.7522
嘿然	-11.7522
受十戒	-11.7523
寬廣	-11.7523
誰有智者	-11.7523
身上出火	-11.7524
作眾伎樂	-11.7524
還歸本國	-11.7524
饒益有情	-11.7524
塵坌	-11.7524
迦毘梨	-11.7524
此為何人	-11.7524
肅然	-11.7525
無辜	-11.7525
朝散大夫試鴻臚少卿	-11.7525
怨憎會苦	-11.7525
廻	-11.7525
同譯經梵才大師紹德慧詢等奉詔譯	-11.7525
叡	-11.7525
示導	-11.7525
若能覺此苦	-11.7525
迴波	-11.7526
暉曜	-11.7526
揵沓和	-11.7526
閡	-11.7526
雄猛	-11.7527
瞎	-11.7527
怪其所以	-11.7527
祠天	-11.7527
捨之而去	-11.7527
作天伎樂	-11.7527
樹提伽	-11.7527
出微妙音	-11.7528
善樂於	-11.7528
閻浮樹下	-11.7528
六度無極	-11.7529
不知厭足	-11.7529
月十五日	-11.7529
甚可愛樂	-11.7529
猶如師子	-11.7529
生有死	-11.753
昨日	-11.753
金銀琉璃	-11.753
皆發無上正真道意	-11.753
地為大動	-11.7531
廣演	-11.7531
九色鹿	-11.7531
談論	-11.7531
居蘭若	-11.7531
決了	-11.7532
肋	-11.7532
互為父母	-11.7532
加報	-11.7532
威德力故	-11.7533
文飾	-11.7533
千兩金	-11.7533
犢子	-11.7533
各各執持	-11.7534
愁毒	-11.7534
冤家	-11.7534
諸蟲	-11.7535
飯食已訖	-11.7535
隨汝意	-11.7535
閉目	-11.7535
真實義	-11.7536
迦尸迦衣	-11.7537
十二由旬	-11.7537
長老摩尼婁陀	-11.7538
戰動	-11.7539
無有遺餘	-11.7539
重告	-11.754
多饒	-11.754
是則名為	-11.754
妄見	-11.7541
船舶	-11.7541
長老摩訶迦葉	-11.7541
月光天子	-11.7542
在一樹下	-11.7542
倍更	-11.7544
昔舍衛國	-11.7544
左邊	-11.7544
禍福	-11.7547
無生忍	-11.7548
護明菩薩大士	-11.7548
如世尊教	-11.7549
投地	-11.7551
十倍	-11.7551
遊行教化	-11.7551
成佛已	-11.7553
將諸群臣	-11.7553
生埋	-11.7554
乃至成阿耨多羅三藐三菩提	-11.7555
牛跡	-11.7555
長老婆提唎迦	-11.7555
一日之中	-11.7557
彼諸佛世尊	-11.7557
盡老病死	-11.7558
草衣	-11.7561
無有休息	-11.7563
受我供養	-11.7563
白黑	-11.7563
家財	-11.7563
敷設	-11.7564
供養佛僧	-11.7564
泣淚	-11.7566
聖位	-11.7567
二千一百	-11.7567
隨形	-11.7567
令其中眾生	-11.7569
如我所見	-11.757
千比丘	-11.757
生惡心	-11.7571
自思念	-11.7571
時彼二人	-11.7571
枝條	-11.7573
給侍	-11.7574
現神變	-11.7576
地主	-11.7577
僧房	-11.7578
菩薩如是思惟念	-11.758
勸請如來	-11.7581
摩竭提國	-11.7581
法鼓	-11.7581
將諸弟子	-11.7582
平安	-11.7582
減損	-11.7583
諸眷屬等	-11.7583
盲者得	-11.7584
未必	-11.7585
七日之中	-11.7585
無遺	-11.7586
網中	-11.7586
一切施王	-11.7586
貴重	-11.7587
始出	-11.759
阿難是也	-11.7593
不從他聞	-11.7594
天上天下	-11.7595
無替	-11.7596
求作沙門	-11.7597
愍眾生	-11.7599
火燃	-11.7599
棄惡	-11.7601
當求方便	-11.7602
今此童子	-11.7603
諸苦行	-11.7603
究竟解脫	-11.7604
具三十二相	-11.7606
往度之	-11.7608
截流	-11.7609
二萬夫人	-11.7609
央	-11.761
我今與汝	-11.7611
五仙	-11.7612
未竟	-11.7612
諸惡法	-11.7614
億萬	-11.7615
暫住	-11.7617
為說妙法	-11.7618
及諸群臣	-11.7619
我不敢違	-11.762
違犯	-11.762
喜無量	-11.7622
形神	-11.7626
爾耳	-11.7628
狂癡	-11.7629
千劫	-11.763
倍常	-11.7633
大叫	-11.7635
梵宮	-11.7636
其事如是	-11.7642
漸進	-11.7645
大罪	-11.7647
欲入海	-11.7647
增廣	-11.7648
隨汝所	-11.7652
時頂生王	-11.7656
餘殘	-11.7656
告之言	-11.7659
我今所願	-11.766
巳往	-11.7662
覺慧	-11.7664
遵行	-11.7665
甚微妙	-11.7666
猶如蓮華	-11.7667
上虛空中	-11.7668
婬女人	-11.7668
堪忍	-11.7669
合掌向	-11.7669
逝心	-11.767
手擎	-11.767
是童子身	-11.7671
悉皆具足	-11.7671
黑雲	-11.7674
觀諸眾生	-11.7674
滅度之後	-11.7674
田作	-11.7675
王舍城中	-11.7677
縛解	-11.7677
致斯	-11.7678
如是四種	-11.7679
和難	-11.7679
識神	-11.7682
到其家	-11.7682
埋之	-11.7682
言談	-11.7689
福慶	-11.769
「『	-11.769
美色	-11.7697
會同	-11.7699
城裏	-11.77
調象	-11.7702
隨流	-11.7704
所統	-11.7706
那得	-11.7707
名色滅	-11.7709
魔軍眾	-11.771
有二菩薩	-11.7714
不污	-11.7717
妙香花	-11.7718
猶如金剛	-11.7719
又復大王	-11.7719
一一眾生	-11.7721
聞其語	-11.7724
狂惑	-11.7725
四大身	-11.7725
遍布	-11.7726
即答之	-11.7729
菩薩告言	-11.7734
我等今日	-11.7736
華散	-11.7737
聞此事	-11.7738
天文	-11.7738
存活	-11.7738
還歸本	-11.7741
死魔	-11.7742
其兩手	-11.7742
坐道場	-11.7743
不迴	-11.775
是時仙人	-11.775
尊教	-11.7751
至後世	-11.7752
而滅度	-11.7753
巧妙	-11.7753
觀者無厭	-11.7756
陳說	-11.7759
速還	-11.7759
諸賢聖	-11.7761
天玉女	-11.7761
離家	-11.7761
化沙門	-11.7764
禪定智慧	-11.7769
起居	-11.777
眾味	-11.7774
況今	-11.7776
愛別離	-11.7778
光明照曜	-11.7779
出家之法	-11.778
於時如來	-11.7784
明顯	-11.7786
中最勝	-11.7791
越諸	-11.7792
誠為	-11.7794
哀號	-11.7795
辭父母	-11.7797
其中有	-11.7801
軟語	-11.7801
所不及	-11.7803
八苦	-11.7803
請命	-11.7811
近道	-11.7812
勤心	-11.7812
語眾人	-11.7812
太子聞已	-11.7823
七十二	-11.7825
拘羅	-11.7828
甘露道	-11.7833
應物	-11.7834
而當不	-11.7836
慈忍	-11.7838
亦復不見	-11.7841
蒙光	-11.7843
入舍衛城	-11.7843
為清信士	-11.7843
一切佛法	-11.7843
一升	-11.7843
支體	-11.7847
自高	-11.7849
求福	-11.7849
性命	-11.7852
親善	-11.7856
敬事	-11.7858
尊豪	-11.7859
非人所	-11.7861
所牽	-11.7861
衣毛	-11.7863
駕乘	-11.7865
憐愛	-11.7865
向佛所	-11.7875
吐毒	-11.7878
有於一	-11.7881
道迹	-11.7882
善趣	-11.7883
遺法	-11.7886
尊榮	-11.7886
而白之	-11.7886
所生處	-11.7887
理智	-11.7889
洗手	-11.7897
大機	-11.7902
欲賣	-11.7903
問答	-11.7904
放汝	-11.7909
頌中	-11.791
恚恨	-11.7912
咸生	-11.7916
無量劫中	-11.7918
大聖尊	-11.7922
墮地獄中	-11.7937
善馭者	-11.7937
推之	-11.7938
兵馬	-11.7939
疾走	-11.7939
實不虛	-11.7942
情深	-11.7951
遶佛	-11.7953
合家	-11.7954
年過	-11.7954
狂醉	-11.7957
恣心	-11.7963
如牛王	-11.7971
自傷	-11.7971
破魔軍	-11.7973
乘馬	-11.7973
疑慮	-11.7974
光明普照	-11.7975
不淨行	-11.7979
憚	-11.7981
是名真	-11.7987
懷嫉妬	-11.7989
有菩薩摩訶薩	-11.7993
受性	-11.7993
生我國	-11.7995
諸天宮殿	-11.7999
而得解脫	-11.8007
寶網	-11.8009
持刀	-11.801
真覺	-11.8023
車載	-11.8027
大雲	-11.8028
毛髮	-11.803
亦復不能	-11.8032
終不可	-11.8035
不肯受	-11.8038
眾物	-11.804
富家	-11.804
相撲	-11.8042
蒙度	-11.8048
妙㲲	-11.8053
日沒	-11.8057
觀自身	-11.8059
校飾	-11.8073
證無上菩提	-11.8074
為友	-11.8075
瞬	-11.8075
自供	-11.8079
眾中有一	-11.8081
視瞻	-11.8081
識別	-11.8082
是諸菩薩	-11.8083
我所願	-11.8086
所演	-11.8097
於曠野	-11.8097
無婬怒癡	-11.8102
漸近	-11.8108
不得久	-11.8113
淚流	-11.812
忽至	-11.8125
河側	-11.8126
作是唱	-11.8133
阿淚吒	-11.8133
舶	-11.8134
魂	-11.8135
爐	-11.8137
阿羅漢道	-11.8138
結怨	-11.8138
宮婇女	-11.8139
黎民	-11.8143
被燒	-11.8143
自說言	-11.8144
艱	-11.8144
憂懼	-11.8145
嫡	-11.8145
眾人皆	-11.8146
裘夷	-11.8147
得飽滿	-11.8148
妓	-11.8148
賞賜	-11.8149
循	-11.8149
假名	-11.815
芥	-11.8152
馨	-11.8153
四寶所成	-11.8153
利箭	-11.8153
說斯偈	-11.8155
襲	-11.8156
白四羯磨	-11.8156
脾	-11.8157
他受用身	-11.8157
瘳	-11.8157
􂍖	-11.8158
餌	-11.8158
幔	-11.8159
委曲	-11.8159
慊	-11.816
屠割	-11.8162
維耶離	-11.8162
駿	-11.8162
脅	-11.8163
閻羅王	-11.8163
哀鸞	-11.8163
牝馬口海	-11.8163
鑑	-11.8164
腸	-11.8164
羸劣	-11.8164
沐	-11.8164
綩綖	-11.8165
大圓鏡智	-11.8165
乞丐	-11.8165
撥無因果	-11.8165
憒閙	-11.8166
色界無色界	-11.8166
阿育王	-11.8167
吟	-11.8167
昏暗	-11.8167
藤	-11.8167
維衛	-11.8168
迎佛	-11.8169
按摩	-11.8169
杜	-11.8169
隘	-11.8169
沾	-11.8169
自受用身	-11.817
澄清	-11.817
鐘	-11.817
獲寶	-11.8171
􂎂	-11.8171
蓋屋	-11.8171
唄	-11.8171
販賣	-11.8171
參究	-11.8172
卜	-11.8172
和顏悅色	-11.8172
耕種	-11.8173
飛蛾	-11.8173
萬法唯	-11.8173
提婆達	-11.8173
唵	-11.8174
綜	-11.8174
復有二佛同號	-11.8174
降伏魔怨	-11.8174
身體羸瘦	-11.8175
停止	-11.8175
狂亂	-11.8175
臘	-11.8175
折伏	-11.8175
刖	-11.8176
鞭杖	-11.8176
拘勿頭	-11.8176
端正殊好	-11.8176
九十九	-11.8176
受想行識	-11.8177
右面魔子	-11.8177
豪姓	-11.8177
爆	-11.8177
長老比丘	-11.8177
剝皮	-11.8178
廐	-11.8178
狸	-11.8178
波浪	-11.8179
諧	-11.8179
嬭	-11.8179
郡縣	-11.8179
姿態	-11.8179
車𤦲馬瑙	-11.8179
應病與藥	-11.818
不惜軀命	-11.818
考	-11.818
麋鹿	-11.818
十二部經	-11.8181
布薩婆梨迦	-11.8181
嗤	-11.8182
從頭至足	-11.8183
貧窮下賤	-11.8183
即於座上	-11.8183
瞿波利	-11.8183
俾	-11.8184
在閑靜處	-11.8184
疲倦	-11.8184
曼陀羅	-11.8184
強敵	-11.8184
端正可憙	-11.8184
金團天子	-11.8185
緊	-11.8185
受如是苦	-11.8185
筋骨	-11.8185
無反復	-11.8186
一四句偈	-11.8186
一時佛遊	-11.8186
明日食時	-11.8186
北涼天竺三藏	-11.8186
馬麥	-11.8187
棖	-11.8187
履屣	-11.8187
香水灑地	-11.8188
百姓	-11.8188
人民飢餓	-11.8188
南面	-11.8188
脈	-11.8188
七寶所成	-11.8189
以是緣故	-11.8189
改悔	-11.8189
修布施行	-11.8189
疫病	-11.8189
瘂	-11.8189
身下出水	-11.8189
於意云何	-11.8189
迦婁羅	-11.8189
招禍	-11.8189
明行成	-11.8189
有形之類	-11.819
鬪訟	-11.819
船舫	-11.819
垢膩	-11.819
力所加	-11.8191
惺悟	-11.8191
痛痒	-11.8191
一萬大臣	-11.8191
羅閱城	-11.8192
仰瞻	-11.8192
遙見佛來	-11.8192
愁慼	-11.8192
經於七日	-11.8193
追憶	-11.8193
虛空印菩薩摩訶薩	-11.8193
怨讐	-11.8194
割肉	-11.8194
債主	-11.8194
揚聲	-11.8194
欝單越	-11.8195
受佛戒	-11.8195
獨母	-11.8195
杖捶	-11.8195
年七歲	-11.8195
願為解說	-11.8195
摩訶曼陀羅華	-11.8196
是以聖人	-11.8196
刑戮	-11.8196
出家菩薩又觀自身	-11.8196
供給所須	-11.8196
加趺而坐	-11.8197
五體禮寶藏如來足	-11.8198
親近善友	-11.8199
隱身不現	-11.8199
運動	-11.8199
開士	-11.8199
紫磨金色	-11.8199
降伏眾魔	-11.8201
二種生死	-11.8201
略說其要	-11.8201
第二第三	-11.8202
退敗	-11.8202
後宮婇女	-11.8202
採寶	-11.8203
召喚	-11.8203
多億那由他百千眾生	-11.8203
鹿野	-11.8203
凡一切	-11.8203
持此功德	-11.8204
不能自解	-11.8204
廣學	-11.8205
從地踊出	-11.8205
於七日中	-11.8206
闍維	-11.8206
草葉	-11.8207
長存	-11.8207
父教	-11.8207
長老瞿曇	-11.8208
不依他	-11.8208
經書	-11.8208
臨欲	-11.8209
辟支佛緣覺世尊	-11.821
肌肉	-11.821
寶月如來	-11.8211
齎持香花	-11.8211
金器	-11.8211
所獲功德	-11.8211
汝意云何	-11.8212
聽佛說法	-11.8212
盜竊	-11.8213
主四天下	-11.8213
驚覺	-11.8214
對境	-11.8215
乃至般若波羅蜜	-11.8215
便作是語	-11.8215
不識恩	-11.8215
四大王天	-11.8216
持用布施	-11.8216
至心諦聽	-11.8217
得成佛道	-11.8218
水泡	-11.8218
百千萬眾	-11.8218
音樂樹	-11.8219
勸進	-11.8219
廣布	-11.8219
不倦	-11.822
五戒十善	-11.822
擇取	-11.822
廣宣	-11.8222
永劫	-11.8222
尼乾子	-11.8223
於我法中	-11.8225
㲲衣	-11.8228
其後命終	-11.8229
其中或有	-11.8229
不知所在	-11.823
學堂	-11.823
棄背	-11.8231
救度	-11.8231
勤力	-11.8232
我時供養彼	-11.8233
復有天子	-11.8234
入山林	-11.8235
隱藏	-11.8236
傷殺	-11.8237
出家未久	-11.8238
八齋	-11.8239
諸梵志等	-11.824
重殃	-11.824
導化	-11.824
無侶	-11.8241
佛告目連	-11.8241
著諸瓔珞	-11.8242
何假	-11.8243
不可移動	-11.8243
四萬歲	-11.8244
諸天子眾	-11.8245
山巖	-11.8247
諸小國王	-11.825
無等等	-11.8253
形類	-11.8253
免脫	-11.8253
所說之法	-11.8255
割斷	-11.8255
具宣	-11.8255
有大名稱	-11.8256
與諸眷屬	-11.8259
禮畢	-11.826
主領	-11.826
請佛供養	-11.8261
貪恚	-11.8263
修諸功德	-11.8266
捨俗	-11.8267
神足變化	-11.8267
隨意所欲	-11.8267
世間無比	-11.8268
見道跡	-11.8269
不能自出	-11.827
優陀耶	-11.8273
誦持	-11.8275
如此之事	-11.8275
三自歸	-11.8277
時彼女人	-11.8277
生死之苦	-11.8278
於時梵志	-11.8278
初發阿耨多羅三藐三菩提心	-11.8279
不知有身	-11.828
於生死中	-11.828
口過	-11.8281
閻浮金	-11.8282
說此偈言	-11.8283
入王舍城	-11.8284
敷榮	-11.8284
何所求	-11.8286
莊校	-11.8288
即以偈頌	-11.8288
平事	-11.8292
自墜	-11.8295
依教	-11.8295
稱我名	-11.8298
汝等輩	-11.8298
無悋	-11.8301
告諸臣	-11.8302
言詞	-11.8302
得大利益	-11.8303
未詳	-11.8306
共論	-11.8309
生悔心	-11.8311
青蓮花	-11.8314
大梵王	-11.8314
一句義	-11.8315
有現如	-11.8316
欲入涅槃	-11.8317
染淨	-11.8318
八識	-11.8319
善生女	-11.8323
至他國	-11.8324
域	-11.8324
迦維羅衛國	-11.8325
供養三寶	-11.8325
即告彼	-11.8327
索食	-11.8327
何以故說	-11.8329
含毒	-11.8332
是謂為	-11.8334
惟除	-11.8337
不動搖	-11.8339
語其夫	-11.834
我亦當	-11.8342
羅閱祇城	-11.8342
青蓮華	-11.8343
是時車匿	-11.8344
宜往	-11.8344
住於蘭若	-11.8348
從王乞	-11.8349
收取	-11.8351
燋然	-11.8352
頭痛	-11.8352
且待	-11.8352
降伏諸魔	-11.8353
石窟	-11.8354
自然而有	-11.8354
往白佛	-11.8356
快樂無極	-11.8356
危難	-11.8358
淨戒為	-11.8366
度生死海	-11.8366
恒河沙等諸佛	-11.8368
莫愁	-11.8369
便微笑	-11.8372
一切大地	-11.8374
挽弓	-11.8374
年幼	-11.8374
神通遊戲	-11.8375
如是等事	-11.8375
鮮白	-11.8375
親近供養	-11.8376
諸釋童子	-11.8377
不憚	-11.8377
心得自在	-11.8381
有大智慧	-11.8381
聽我說	-11.8382
聞佛名	-11.8385
可不聞	-11.8387
臣吏	-11.8387
道側	-11.8388
說此法	-11.8392
諸佛土	-11.8394
手搏	-11.8397
千頭	-11.8399
本所造	-11.8407
戒品	-11.8408
此是滅	-11.841
上岸	-11.8412
時優陀夷	-11.8414
愚癡無智	-11.8415
懷憂惱	-11.842
千二百五十比丘	-11.8421
若諸眾生	-11.8425
遊戲神通	-11.8427
現在前	-11.8427
奔趣	-11.8428
生育	-11.8429
古佛	-11.8432
種種音樂	-11.8443
五百世	-11.8444
更莫	-11.8448
諸惡人	-11.8452
染倒	-11.8457
師子步	-11.8459
兵力	-11.8464
標徵	-11.8466
香木	-11.8469
常恐	-11.8471
彼釋迦牟尼如來	-11.8472
移動	-11.8473
難測	-11.8477
大劫中	-11.8478
自纏	-11.8479
比丘白言	-11.8483
但云	-11.8489
願滿足	-11.8489
雖爾	-11.8494
闍耶	-11.8496
蛇毒	-11.8496
還本處	-11.8499
犯罪	-11.85
華實	-11.85
聞其聲	-11.8503
一切諸世間	-11.8504
天上世間	-11.8504
十度	-11.8509
無能勝	-11.8513
諸根不具	-11.8514
居業	-11.8519
勅之言	-11.852
事畢	-11.8521
審知	-11.8523
圓明	-11.8524
觀諸法	-11.8528
久矣	-11.8528
出世間法	-11.8531
軍馬	-11.8541
佛世尊所	-11.8544
都無有	-11.8547
使我得	-11.8554
在其前	-11.8557
叉手白佛	-11.8563
時彼童子	-11.8563
其耶輸陀	-11.8564
事情	-11.8568
諸聖眾	-11.8571
救眾生	-11.8575
耆老	-11.8575
占之	-11.8576
得大菩提	-11.8577
智臣	-11.8579
致死	-11.8579
華菓	-11.858
十地菩薩	-11.8582
不淨想	-11.8583
不平	-11.8583
於諸世間	-11.8586
假如	-11.8588
熏成	-11.8595
勝益	-11.86
及諸眾生	-11.8601
懷瞋恚	-11.8613
柔軟音	-11.8614
是能仁	-11.8616
甚深難	-11.8619
眾苦惱	-11.8622
娑羅樹	-11.8626
獨覺	-11.8632
授我記	-11.8637
勤苦行	-11.8641
黑山	-11.8643
如電	-11.8645
化自在天	-11.8647
幻夢	-11.8648
普聞	-11.8652
淨不淨	-11.8653
墮惡	-11.8653
往反	-11.8657
共鬪	-11.8669
自毀	-11.8672
無數世	-11.8678
諸相師	-11.868
部鬼神	-11.8685
悟解	-11.8687
可恃怙	-11.8689
可惜	-11.8689
諸民眾	-11.8695
大阿羅漢	-11.8696
酷毒	-11.8702
是道無	-11.871
之所願	-11.8714
破暗	-11.8722
香味	-11.8723
看視	-11.8723
以身肉	-11.873
今何所	-11.876
月光王	-11.8773
進前	-11.8777
優鉢羅	-11.8784
我不用	-11.8784
手掌	-11.8789
取薪	-11.8792
無言說	-11.8793
末法	-11.8796
何憂	-11.8798
一念不生	-11.8799
施惠	-11.88
草鋪	-11.8801
共集會	-11.8803
枯樹	-11.8803
降生	-11.881
貴族	-11.8815
生信心	-11.8815
自調者	-11.8816
身瘡	-11.882
隋	-11.8823
舍夷國	-11.8824
三因緣	-11.8826
馭	-11.8827
獲安	-11.883
聞其言	-11.8831
空觀	-11.8831
凝	-11.8833
既蒙	-11.8836
世尊復說	-11.8847
罽賓	-11.885
那婆	-11.885
波羅提木叉戒	-11.8854
紫磨	-11.8856
弓射	-11.8856
室內	-11.8858
粥	-11.8858
能摧	-11.886
無量億	-11.8861
縛染	-11.8861
欠	-11.8861
設大會	-11.8861
漱口	-11.8862
受果報	-11.8862
蠱	-11.8862
換	-11.8863
益增	-11.8864
腸胃	-11.8864
客比丘	-11.8865
䟦	-11.8865
脉	-11.8867
軛	-11.8867
末句	-11.8867
祝	-11.8867
奮迅	-11.8868
牸象	-11.8869
仞	-11.887
猿	-11.8871
薄祐	-11.8871
頭戴	-11.8872
終不能得	-11.8873
三輪體空	-11.8873
跨	-11.8873
積功累德	-11.8873
平等性智	-11.8873
盥	-11.8875
眠寐	-11.8875
僥	-11.8875
衣毛為竪	-11.8875
醜形	-11.8876
涎	-11.8876
林藪	-11.8876
皺	-11.8876
錫	-11.8877
歸恩於佛	-11.8877
瞪	-11.8877
瞽	-11.8877
敬諾	-11.8877
慨	-11.8878
脆	-11.8878
謁	-11.8878
網縵	-11.8879
追悔	-11.8879
恣情	-11.8879
紙	-11.8879
厨士	-11.8879
三十三	-11.8879
妙觀察智	-11.888
函	-11.888
擣	-11.888
依教奉行	-11.8881
俱胝	-11.8881
欝多羅	-11.8881
歡欣	-11.8881
援	-11.8881
乃致	-11.8882
抆	-11.8882
威儀禮節	-11.8882
無涯	-11.8882
波闍波提	-11.8882
貸	-11.8883
寂寞	-11.8883
向菩提樹	-11.8883
肅肅	-11.8883
質多羅	-11.8884
強健	-11.8884
脛	-11.8884
警覺	-11.8885
鐵丸	-11.8885
埵	-11.8885
讖	-11.8886
八功德水	-11.8886
削	-11.8886
菩提妙果	-11.8886
欺詐	-11.8886
尊者迦栴延	-11.8887
洟	-11.8887
腋下	-11.8887
頭陀行	-11.8887
越次取證	-11.8887
吉義如來	-11.8887
漲	-11.8887
聞此法	-11.8888
拔劍	-11.8888
墻	-11.8888
吠	-11.8888
閣道	-11.8888
錐	-11.8889
無遮會	-11.8889
為利他	-11.8889
無所傷損	-11.8889
身相端嚴	-11.8889
統攝	-11.889
末利夫人	-11.889
灰河	-11.889
命令坐	-11.889
尼乾	-11.8891
紡	-11.8891
慚恥	-11.8891
伴黨	-11.8891
拘薩羅國	-11.8891
自利利他	-11.8892
倉卒	-11.8892
軌範	-11.8892
罽	-11.8892
聰叡	-11.8892
三歎德結眾	-11.8892
阿耆達	-11.8892
比丘謹慎樂	-11.8892
繁茂	-11.8892
欵	-11.8892
禾	-11.8893
漂沒	-11.8893
講論	-11.8894
熊	-11.8894
欣踊	-11.8894
飛鳥走獸	-11.8894
慈悲喜捨	-11.8895
眉間白毫	-11.8895
淚下如雨	-11.8895
懇惻	-11.8895
又有種種妙	-11.8895
車𤦲	-11.8895
臨命終時	-11.8896
曼坻	-11.8896
不但今世	-11.8896
跋陀	-11.8896
在何許	-11.8896
錯謬	-11.8896
問訊起居	-11.8896
蔭覆	-11.8896
七十九	-11.8896
迷荒	-11.8896
臂頃	-11.8897
擾動	-11.8897
得阿惟越致	-11.8897
富蘭迦葉	-11.8898
禮儀	-11.8898
音聲叢樹	-11.8898
八十由旬	-11.8898
真善知識	-11.8898
無有窮盡	-11.8898
耳璫	-11.8899
尊榮豪貴	-11.8899
呵制	-11.8899
清淨無瑕	-11.8899
求不得苦	-11.8899
葦	-11.8899
阿脂王	-11.8899
漢言	-11.8899
東西馳走	-11.89
廣度一切	-11.89
心意開解	-11.89
良久乃	-11.89
忠孝	-11.89
蓮華尊佛	-11.8901
普光如来	-11.8901
四威儀中	-11.8901
富樓那	-11.8901
勤勞	-11.8901
迦陵頻伽	-11.8901
從地獄出	-11.8902
蹤跡	-11.8902
波塞奇	-11.8903
人相具足	-11.8903
珍奇	-11.8903
南西北方	-11.8903
從兜率下	-11.8903
若男若女	-11.8903
優婁頻螺聚落	-11.8904
人所不至	-11.8904
美妙聲等	-11.8904
心善解脫	-11.8904
侵奪	-11.8905
諸相具足	-11.8905
群鳥	-11.8905
降怨王	-11.8906
更不復受有	-11.8907
閱頭檀	-11.8907
滿十月	-11.8907
安處無為	-11.8908
蒲	-11.8908
苦習盡道	-11.8908
甚為希有	-11.8909
聽受妙法	-11.8909
於其晨朝	-11.8909
分陀利華	-11.8911
勸諫	-11.8911
不傾	-11.8911
牽連	-11.8912
經六帝釋滅	-11.8912
世之希有	-11.8912
北俱盧洲	-11.8912
問馭者言	-11.8912
無數億那由他百千	-11.8912
承順	-11.8913
如慧之所見	-11.8913
精勤修習	-11.8913
還歸所止	-11.8913
佛知其	-11.8913
用求佛道	-11.8914
】*【	-11.8914
光顏	-11.8914
假借	-11.8915
令不斷絕	-11.8915
親近善知識	-11.8916
在於宮內	-11.8916
覺支	-11.8916
自共議言	-11.8917
謙下	-11.8917
逮阿耨多羅三藐三菩提	-11.8918
最為上首	-11.8918
吳月支優婆塞支謙譯	-11.8918
捨而去	-11.8919
若有佛子	-11.8919
希奇	-11.8919
諸獼猴	-11.8919
輕舉	-11.892
附近	-11.892
虛空印菩薩	-11.892
羅闍	-11.892
繫閉	-11.8921
齊平	-11.8922
於當來世過一恒河沙數阿僧祇	-11.8922
刀兵	-11.8922
心懷喜悅	-11.8922
以是業緣	-11.8923
案行	-11.8923
眾德具足	-11.8924
破魔	-11.8924
交流	-11.8924
懈廢	-11.8924
觀世音	-11.8924
罷道	-11.8925
若我如是意滿	-11.8926
往至其所	-11.8927
迦毗羅	-11.8928
文句	-11.8928
了不能得	-11.8928
遙望	-11.8928
於三乘中	-11.8929
下生人間	-11.893
入於大海	-11.893
宿造何	-11.8931
閑靜處	-11.8932
唯願仁者	-11.8932
童子在胎	-11.8932
於一念中	-11.8933
供辦	-11.8934
有七七	-11.8934
非世所	-11.8936
時彼五人	-11.8938
負重	-11.8938
為其說法	-11.8939
應儀	-11.8939
受天快樂	-11.8939
爾時世尊有如是	-11.8939
毒飯	-11.894
積久	-11.894
三十二種	-11.8941
波離婆闍迦	-11.8942
是處國王	-11.8942
永離生死	-11.8944
福祐	-11.8944
樹王下	-11.8944
身昇虛空	-11.8945
如前解	-11.8946
於佛邊	-11.8946
群象	-11.8948
出生死海	-11.8948
何可貪	-11.8949
四十九	-11.895
成敗	-11.895
金鼓	-11.8951
如千日	-11.8952
十二年中	-11.8953
卷第十二	-11.8954
嚪婆羅	-11.8956
大鐵圍山	-11.8956
不相違	-11.8956
牧人	-11.8957
此是菩薩希奇之事	-11.8959
執空	-11.8959
諸不善根	-11.8959
摧滅	-11.896
仁和	-11.8961
自在有力	-11.8962
無數方便	-11.8962
經營	-11.8963
奉侍	-11.8965
不自勝	-11.8966
遠逝	-11.8967
安布	-11.8968
乃往過去久遠世	-11.8968
汝等諸人	-11.8971
實際	-11.8971
悉檀	-11.8973
累世	-11.8976
能降	-11.8976
清信	-11.8977
卷第十一	-11.8977
光焰	-11.8978
陀樹下	-11.898
亦復爾	-11.8981
所願成就	-11.8982
不瞬	-11.8989
不自覺知	-11.899
三叉	-11.8992
智光比丘	-11.8992
萬法聚	-11.8994
顛倒染	-11.8994
無上覺	-11.8996
尊位	-11.8996
以用布施	-11.9002
大眾之中	-11.9002
爾時會中	-11.9005
難見難	-11.9008
能違逆	-11.9013
未得道者	-11.9013
二儀	-11.9014
大憂愁	-11.9016
月月	-11.9016
右遶	-11.9019
半國	-11.902
不暇	-11.902
馬車	-11.9022
於彼命終	-11.9024
最極	-11.9025
母右脇	-11.9025
奉上世尊	-11.9025
勿妄	-11.9027
割身肉	-11.9027
姓名	-11.9028
根栽	-11.9033
大施主	-11.9035
善哉仁者	-11.9035
纏繞	-11.904
第一夫人	-11.904
根本寂靜	-11.9043
疋	-11.9048
般涅槃已	-11.9049
大菩提心	-11.9053
除却	-11.9054
如聚沫	-11.9056
父母師長	-11.9056
於彼之時	-11.9056
諸弟子等	-11.9059
不退轉於阿耨多羅三藐三菩提	-11.906
聖慧	-11.9062
希有事	-11.9062
靡所不	-11.9066
無漏法	-11.9067
迷真	-11.9071
苦行林	-11.9071
他化自在天王	-11.9072
垂死	-11.9073
四非常	-11.9073
自在天子	-11.9074
生滅法	-11.9074
從何處	-11.9075
成菩提道	-11.9078
為上首	-11.9079
八萬諸天	-11.9079
求大乘	-11.9084
眾穢	-11.9086
逆流	-11.9086
捨位	-11.9087
乃至成佛	-11.9092
為說經法	-11.9093
淨草	-11.91
宿業	-11.9106
獼猴王	-11.9107
獲果報	-11.9107
生悔恨	-11.9116
金象	-11.9122
無數諸天	-11.9125
復以偈答	-11.913
詣菩提場	-11.913
一科	-11.9131
成一切種智	-11.9131
身口意行	-11.9135
未嘗不	-11.9137
罪畢	-11.914
被他	-11.914
摧邪	-11.9142
通稱	-11.9146
舍衛國中	-11.9146
攝度	-11.9147
而得出家	-11.9148
遊止	-11.9148
雖有此	-11.9152
頭首	-11.9152
四鉢	-11.916
如法治化	-11.9162
涼冷	-11.9162
證理	-11.9164
是故今者	-11.9167
知他心	-11.9171
頗羅	-11.9173
海潮	-11.9173
聞佛教	-11.9174
無瑕	-11.9174
乘騎	-11.918
隨心所	-11.9183
濟命	-11.9185
善吉	-11.9189
無有人能	-11.9194
弘法	-11.9196
昔在人	-11.9198
一朝	-11.9198
以與之	-11.9203
聞此已	-11.9203
普雨	-11.9211
垢濁	-11.9213
如芥子	-11.9219
不復現	-11.922
六識	-11.922
能消	-11.9221
持應器	-11.9228
影隨	-11.9236
鼓聲	-11.9242
詣門	-11.9243
歸無常	-11.9245
頭破	-11.9251
一匝	-11.9253
即詣佛所	-11.9256
重任	-11.9261
有何異	-11.9265
履行	-11.927
妻子眷屬	-11.9276
詣佛樹	-11.9279
如忉利天	-11.928
得見諦	-11.928
甚可畏	-11.9287
往至世尊所	-11.929
長老優陀夷	-11.9292
被毒	-11.9297
憂怖	-11.9302
最難	-11.9305
作是事	-11.9305
今若不	-11.9307
喪身命	-11.9308
可怪	-11.9322
畏怖	-11.9332
梵聲	-11.9333
較之	-11.9334
痛哉	-11.9337
聖財	-11.9338
深妙法	-11.9342
蘭若修證	-11.935
誨示	-11.935
我當為汝	-11.9354
善賢	-11.9357
數百千	-11.9362
違背	-11.9365
憂陀答	-11.9369
初句標	-11.9374
無數億	-11.9382
老年	-11.9385
云何而得	-11.9385
倦	-11.9386
所生子	-11.9386
諸妓女	-11.9395
喜踊躍	-11.9397
其價	-11.9399
來到此	-11.9406
罪根	-11.9408
諸惡業	-11.9414
留住	-11.9418
虛寂	-11.9422
無時不	-11.9422
求出離	-11.943
疲惓	-11.9434
何時當	-11.9435
得大利	-11.9436
尚不能	-11.944
到王所	-11.9443
恚害	-11.9444
我今已得	-11.945
以偈問	-11.9456
無由得	-11.9465
即便往詣	-11.947
佛剎中	-11.9473
自在遊戲	-11.9478
一切樹木	-11.9483
佛舍利	-11.949
塵世	-11.9491
阿毘曇	-11.95
世尊復告	-11.9501
標舉	-11.9509
仙歎	-11.951
往其所	-11.9514
祥瑞	-11.9516
為世所	-11.9517
啟受	-11.952
狀似	-11.953
水底	-11.9534
與禽獸	-11.9534
二萬歲	-11.9534
及諸釋種	-11.9538
毀罵	-11.9539
白象寶	-11.9539
長久	-11.954
所愛樂	-11.9541
以偈告	-11.9545
謂青	-11.9552
成就大悲	-11.9555
智辯	-11.9559
乾草	-11.9561
攝其心	-11.9563
珍妙	-11.9564
彼婬女	-11.9569
法皆空	-11.9581
諸釋子	-11.9584
十方三世	-11.9588
手臂	-11.9591
意專	-11.9592
坑中	-11.96
豐盈	-11.9605
光明遍照	-11.9606
時彼大臣	-11.9611
至他方	-11.9614
眉間	-11.9616
澡盤	-11.9617
妖蠱	-11.9618
無邊劫	-11.9619
各隨所	-11.9619
照于	-11.9621
冶	-11.9624
肺	-11.9626
輻	-11.9628
惺	-11.963
靜室	-11.963
模	-11.9631
這裏	-11.9631
理事無礙	-11.9634
獻供	-11.9634
另	-11.9635
緣一覺	-11.9636
材	-11.9636
百兩金	-11.9637
師子奮迅	-11.9637
馳騁	-11.9637
愕	-11.9637
竄	-11.9637
癡迷	-11.9638
跛	-11.9638
格	-11.9639
俱梨迦	-11.9639
呼嗟	-11.9639
錠光佛	-11.964
鵒	-11.9642
滌	-11.9642
雕	-11.9643
伺候	-11.9644
歸宮	-11.9644
閤	-11.9644
儀式	-11.9645
在於虛空	-11.9645
魅	-11.9645
瞢	-11.9645
燿	-11.9646
褰	-11.9646
傅	-11.9646
刻鏤	-11.9646
聊	-11.9646
鞭打	-11.9647
枷	-11.9647
月八日	-11.9647
䏶	-11.9647
汲汲	-11.9647
從何所來	-11.9647
擁	-11.9648
興隆	-11.9648
九品	-11.9648
坏	-11.9648
提婆大婆羅門	-11.9648
陶	-11.9649
佩	-11.9649
稀	-11.9649
猨猴	-11.9649
餚饌	-11.9649
腋	-11.965
得漏盡	-11.965
不起法忍	-11.965
惕	-11.9651
自致得佛	-11.9651
混	-11.9651
尸利苾提	-11.9651
𣫍	-11.9651
以水灑	-11.9651
隋數十	-11.9651
群僚	-11.9652
利樂有情	-11.9652
丁	-11.9652
万	-11.9653
隨自福力	-11.9653
悔過自責	-11.9653
宇	-11.9654
木槍	-11.9654
玻	-11.9654
孚	-11.9655
香爐	-11.9655
藍弗	-11.9655
妬忌	-11.9655
長行云	-11.9655
受持讀習	-11.9656
椎胸	-11.9656
辭謝	-11.9656
坏器	-11.9657
側塞	-11.9657
分段生死	-11.9658
世間愚人亦復如是	-11.9658
如月盛滿	-11.9658
色聲香味細滑之法	-11.9658
零	-11.9659
院	-11.9659
崛	-11.9659
鴦仇摩羅	-11.966
餘命無幾	-11.966
掣	-11.966
故從遠來	-11.966
即如其言	-11.966
香瓔	-11.966
玩	-11.966
自今以後	-11.9661
汝不知耶	-11.9661
無礙辯才	-11.9661
鹿野苑	-11.9661
毗舍	-11.9661
疆	-11.9661
尋究本末	-11.9661
不久當得	-11.9661
西天譯經三藏朝	-11.9661
馱	-11.9661
周法界	-11.9661
褐	-11.9661
癩	-11.9662
羯磨	-11.9662
威容	-11.9662
濁穢	-11.9662
抗	-11.9662
融通	-11.9663
得全濟	-11.9663
羞耻	-11.9663
幻術	-11.9663
管	-11.9663
淑	-11.9664
倍於前	-11.9664
販	-11.9665
讚詠	-11.9665
禱祀	-11.9665
噎	-11.9665
廕	-11.9665
正念正知	-11.9665
栴	-11.9666
其家大富	-11.9666
觸處遍灑旃檀香水	-11.9666
長幼	-11.9666
何緣乃爾	-11.9666
評	-11.9666
佛在舍衛國	-11.9666
䭾	-11.9666
形骸	-11.9666
萬物無常	-11.9666
五百群鴈	-11.9667
金繩交絡垂金鈴鐸	-11.9667
狀貌	-11.9668
孩	-11.9668
猛獸	-11.9668
須闍提	-11.9668
深淺	-11.9668
癰	-11.9668
今現我父	-11.9669
發道意	-11.9669
欽仰	-11.9669
以正法治國	-11.9669
三福地	-11.9669
犀	-11.9669
舁	-11.9669
饒財多寶	-11.967
財富無量	-11.967
西天譯經三藏朝散大夫試鴻臚少卿	-11.967
拘物頭華	-11.967
晝夜不息	-11.967
搥	-11.967
堆阜	-11.967
節節	-11.967
乳哺力	-11.9671
吃	-11.9671
毀敗	-11.9672
三脫門	-11.9672
從定起	-11.9672
其樹所出四色妙衣	-11.9672
老死患	-11.9672
摧破	-11.9672
浮雲	-11.9672
汎	-11.9672
求於解脫	-11.9673
均提	-11.9673
奉諸所安	-11.9673
跋伽仙人	-11.9674
無有過者	-11.9674
受大快樂	-11.9674
遇善知識	-11.9675
彈指之頃	-11.9675
無常對至	-11.9675
轉大法輪	-11.9675
謙卑	-11.9675
過去之世	-11.9676
或有諸鬼	-11.9676
所住之處	-11.9676
跋陀羅迦卑梨耶比丘尼	-11.9677
村邑	-11.9677
嚴備	-11.9677
鼉	-11.9677
天主帝釋	-11.9677
兜率天宮	-11.9678
若好若醜	-11.9678
不能制	-11.9678
聞我名者	-11.9678
威猛	-11.9678
地祇	-11.9678
外寇	-11.9678
天曼陀羅華散布其地	-11.9678
波頭摩華	-11.9678
福祚	-11.9679
涉歷	-11.9679
利鈍	-11.9679
證甘露	-11.9679
無有及者	-11.9679
勇士	-11.9679
黑繩	-11.968
不能自安	-11.968
猶如赤子	-11.968
灑地	-11.968
胡跪合掌	-11.9681
威嚴	-11.9682
童男童女	-11.9682
慈力	-11.9682
頓息	-11.9682
無有限量	-11.9682
羼提	-11.9682
左面	-11.9682
著袈裟衣	-11.9683
印三昧	-11.9683
可喜端正	-11.9683
禮節	-11.9684
八萬歲	-11.9684
毘羅摩	-11.9684
酬報	-11.9684
憐愍我故	-11.9685
諸大弟子	-11.9685
須曼那	-11.9685
重賞	-11.9686
諸漏已盡	-11.9686
擎持	-11.9686
闥	-11.9686
墮於惡道	-11.9686
大光普照	-11.9686
安隱豐樂	-11.9687
入三摩地	-11.9687
摧壞	-11.9687
遷轉	-11.9687
暴雨	-11.9687
何因何緣	-11.9687
四念處	-11.9687
統四天下	-11.9688
岐	-11.9688
正等覺	-11.9688
往至其家	-11.9688
乘白象	-11.9689
歡喜丸	-11.9689
悟無生忍	-11.969
日在東方	-11.969
於諸善法	-11.969
快士	-11.969
聖旨	-11.969
萬歲世人中	-11.9691
跋陀羅迦卑梨耶	-11.9691
獲福無量	-11.9691
為作救護	-11.9691
四寸	-11.9692
生渴仰	-11.9692
勝力兵眾	-11.9692
及諸臣民	-11.9692
元魏涼州沙門慧覺等在高昌郡譯	-11.9692
阿脩羅眾	-11.9692
飽食	-11.9693
悕求	-11.9693
恒河沙數世界	-11.9693
毛羽	-11.9693
汝是何人	-11.9693
五跋陀羅	-11.9693
為眾生說法	-11.9693
天帝復	-11.9694
道諦	-11.9694
俱發聲	-11.9694
若彼天男及天女等思其	-11.9695
衣服臥具	-11.9695
諸善普	-11.9695
聽在道次	-11.9695
不暫停	-11.9695
如之何	-11.9695
速證菩提	-11.9696
產一男兒	-11.9696
雷聲	-11.9696
勝義無倒	-11.9697
無垢德明王如來	-11.9697
往到其所	-11.9698
謙敬	-11.9698
面像	-11.9698
晝日	-11.9698
作是願已	-11.9699
眷屬圍遶	-11.97
兜率宮	-11.97
作此念已	-11.97
六衰	-11.97
掘地	-11.9701
畵	-11.9701
難陀龍王	-11.9701
馳趣	-11.9701
剃除	-11.9701
銷除	-11.9702
氣息	-11.9702
稠林	-11.9702
宿舊	-11.9702
我逮菩提時	-11.9702
志存	-11.9702
及其眷屬	-11.9703
詣向佛所	-11.9703
禪悅	-11.9705
生於人中	-11.9705
事三火	-11.9705
路傍	-11.9705
見一餓鬼	-11.9706
釋童摩尼婁陀	-11.9707
痛不可言	-11.9707
西沒	-11.9707
北沒	-11.9708
悉達多太子	-11.9708
萬人俱	-11.9709
槍亦	-11.9709
佛在迦毘羅衛國尼拘	-11.971
捐捨	-11.971
赤眼	-11.9711
施佛及僧	-11.9711
感傷	-11.9712
深生歡喜	-11.9713
娛	-11.9713
墮餓鬼中	-11.9715
瞻覩	-11.9716
二利之	-11.9717
猶如一子	-11.9718
惑障	-11.9719
娑羅窟	-11.9719
醫方	-11.972
是大有情	-11.972
外異學	-11.9722
諫喻	-11.9722
作如是聲	-11.9722
生於人間	-11.9723
妙巧	-11.9723
黑業	-11.9723
尼拘陀樹下	-11.9724
經歷生死	-11.9724
中夭	-11.9725
得除愈	-11.9726
末度	-11.9726
利樂眾生	-11.9726
更歷	-11.9726
盲冥眾生	-11.9727
發如是願	-11.9728
修建	-11.9728
勝義寂靜	-11.9728
自覺知	-11.9729
益濟	-11.9729
爾許	-11.973
與長行	-11.9731
恒沙劫	-11.9732
厭離生死	-11.9732
其心平等	-11.9734
終歸	-11.9734
退墮	-11.9735
房中	-11.9738
受是苦	-11.9738
出現世間	-11.9739
作此觀	-11.9739
聲聞僧	-11.9739
迴顧	-11.974
戲樂	-11.9741
如是下結	-11.9742
自餘眾生	-11.9742
哀念	-11.9745
罽賓國	-11.9746
分半	-11.9748
心生恐怖	-11.9748
乃至略說	-11.975
諸珍	-11.975
無一眾生	-11.9752
起大慈悲	-11.9753
誨人	-11.9753
追隨	-11.9757
引導眾生	-11.9759
飲食衣服	-11.9761
眾寶莊嚴	-11.9762
獲安樂	-11.9765
彼等諸人	-11.9769
其菩薩母	-11.9769
是故當離	-11.9772
聖達	-11.9774
緣則有	-11.9775
果熟	-11.9776
寧捨	-11.9776
相逢	-11.9779
不能得前	-11.978
求無上正真之道	-11.9781
甚痛	-11.9781
?』『	-11.9784
有佛性	-11.9785
盲父母言	-11.9786
菴羅	-11.9787
恐失	-11.979
為他所	-11.9792
引喻	-11.9792
釋族	-11.9793
種種餚饍	-11.9794
有一女人	-11.9794
兒息	-11.9795
國王大臣	-11.9796
以是三昧	-11.9798
興顯	-11.9799
既見太子	-11.98
愛染	-11.9802
天像	-11.9803
怨嫌	-11.9803
諸過患	-11.9807
掬水	-11.981
至我所	-11.981
不用處	-11.9811
有一商主	-11.9811
未始	-11.9812
其餘諸	-11.9813
欲入大海	-11.9814
屈意	-11.9817
極醜	-11.9817
有一辟支佛	-11.9818
便自思惟	-11.9819
最勝尊	-11.9822
大殿	-11.9822
如日照	-11.9823
更加	-11.9824
不可壞	-11.9826
取食之	-11.9829
塵穢	-11.9838
供養佛已	-11.9839
願乞	-11.9845
濟活	-11.9846
入山中	-11.9846
學習	-11.9852
發此心	-11.9855
眾庶	-11.9857
沙門婆羅門等	-11.9862
奉佛教	-11.9862
無愧	-11.9868
領納	-11.9872
無悋惜	-11.9875
此諸人等	-11.9875
海岸	-11.9877
不聞正法	-11.9884
未幾	-11.9893
第	-11.9898
母摩耶夫人	-11.9899
無一可	-11.9903
令汝得	-11.9903
得如願	-11.9904
左手執	-11.9907
成道果	-11.9907
形影	-11.9909
追念	-11.991
懷愁憂	-11.9912
心如是念	-11.9914
捕得	-11.9921
入母胎	-11.9929
億歲	-11.9939
詣世尊所	-11.9943
赴火	-11.9945
往見佛	-11.9945
聽汝出家	-11.9948
於一面	-11.995
無益於	-11.9951
遙觀	-11.9956
不自由	-11.996
應機	-11.9961
語諸臣	-11.9964
大自在天	-11.9965
善御	-11.9969
目無所見	-11.9971
見真諦	-11.9973
病瘦	-11.9976
生兜率天	-11.9982
五百眷屬	-11.9988
生天上人中	-11.9989
百千由旬	-12.0002
訖了	-12.0006
大火坑	-12.0008
罪垢	-12.001
越度	-12.0011
全命	-12.0014
為死所	-12.0017
本誓願	-12.0034
當證菩提	-12.0034
力無畏	-12.0035
募人	-12.004
道路長	-12.0046
普集	-12.0048
魔怨	-12.0049
無怯弱	-12.008
騰虛	-12.0086
御車	-12.0093
形壽	-12.0101
所修學	-12.0105
瓔珞莊嚴其身	-12.0107
五百比丘尼	-12.0121
尼拘陀	-12.0124
無去來	-12.0126
懷害	-12.0131
更不復受	-12.0144
王子名曰	-12.0145
何瑞相	-12.0147
尊重恭敬	-12.0147
出於世間	-12.0156
說種種法	-12.0157
千數	-12.0159
四十五	-12.016
藥治	-12.0166
如上所	-12.0169
不缺漏	-12.0182
頻婆娑羅	-12.0187
變壞	-12.0194
過去世中	-12.0206
香汁	-12.0209
得值遇	-12.0217
佛之所說	-12.022
五通仙	-12.0223
諸天及人	-12.0227
在一處	-12.0236
萬種	-12.0245
兩種	-12.0254
恚癡	-12.0255
專正	-12.027
王厨	-12.0282
尚未	-12.0284
於後夜	-12.0287
波陀	-12.0295
修施行	-12.0297
閻浮園	-12.0298
佛法眾	-12.0298
遣一人	-12.0303
方域	-12.0308
復前進	-12.0326
延壽	-12.0337
勤修習	-12.0338
安庠而	-12.034
歸誠	-12.0341
驚疑	-12.0341
鐵城	-12.0345
相娛	-12.0345
輸頭檀	-12.0352
生死原	-12.0368
蹈地	-12.0372
得道跡	-12.0372
乘載	-12.0376
污染	-12.0385
知我意	-12.0395
大力士	-12.0395
一把	-12.0409
餓鬼畜生	-12.041
全體	-12.0411
明耀	-12.0414
唯佛能	-12.0415
一掬	-12.0422
異哉	-12.0425
遂增	-12.0429
無所堪	-12.043
睛	-12.0432
池岸	-12.0433
諸乞兒	-12.044
纔起心時	-12.0444
採花	-12.0445
阿闍黎	-12.0448
辜	-12.0449
彌蘭	-12.0455
獘	-12.0455
行四等心	-12.0455
譖	-12.0457
恩慈	-12.0457
紀	-12.0459
霍	-12.0459
烹	-12.046
頞誰那	-12.0463
福梨伽	-12.0468
俄	-12.0468
巢	-12.0468
無與等	-12.0468
良友	-12.0469
榮祿	-12.0469
竝	-12.0469
與愚從事	-12.047
諧偶	-12.0472
幹	-12.0472
郭	-12.0472
頷	-12.0473
匐	-12.0475
暴露	-12.0476
如赤銅	-12.0476
拘睒彌	-12.0477
凋落	-12.0478
執劍	-12.0478
輕蔑	-12.0479
煥	-12.0479
蝕	-12.0479
鹵	-12.0479
恡	-12.048
潰	-12.048
禱祠	-12.048
即召相師	-12.0481
見佛光相	-12.0481
太官	-12.0481
柰	-12.0481
鵄	-12.0481
遽	-12.0481
如幻如化	-12.0482
誣	-12.0482
慟	-12.0483
陛	-12.0483
幟	-12.0483
豪強	-12.0483
沓	-12.0483
千輻輪	-12.0483
三僧祇劫	-12.0483
脚蹋	-12.0484
投巖	-12.0484
鹿母夫人	-12.0485
鬱	-12.0485
訾	-12.0485
一念相應	-12.0485
屣	-12.0485
張弓	-12.0486
縛束	-12.0486
全彰	-12.0486
鴻	-12.0486
月上如來	-12.0486
搥胸	-12.0486
歸功於	-12.0487
夫欲安命	-12.0487
默然不答	-12.0487
葛	-12.0487
佛在羅閱祇耆闍崛山中	-12.0488
朝露	-12.0488
瑩	-12.0488
光音天	-12.0488
灰覆火	-12.0488
澡手	-12.0488
為水所漂	-12.0489
大如毛髮	-12.0489
阿儞嚕馱	-12.0489
是故當晝夜	-12.0489
校	-12.0489
恒伽達	-12.0489
鑊湯	-12.049
役使	-12.049
枷鏁	-12.049
喜慶	-12.049
流汗	-12.049
坐其下	-12.049
有為法	-12.0491
拘物頭	-12.0491
睹	-12.0491
弓刀	-12.0491
距	-12.0491
征伐	-12.0491
沈溺	-12.0491
俯仰	-12.0492
殃禍	-12.0492
安明山	-12.0492
防衛	-12.0492
喘	-12.0492
熙怡	-12.0492
栖	-12.0492
轍	-12.0492
甫	-12.0493
名句文	-12.0493
嵐毘尼園	-12.0493
洞然	-12.0493
羈	-12.0493
拘耶尼	-12.0493
行澡水	-12.0494
帆	-12.0494
專注	-12.0494
炷	-12.0494
雜譬喻經	-12.0494
解說書寫	-12.0494
好喜布施	-12.0494
解見前文	-12.0494
三聚淨戒	-12.0494
髠	-12.0494
如赤子	-12.0494
鞍馬	-12.0494
洽	-12.0494
八十里	-12.0495
珂雪	-12.0495
慢惰	-12.0495
須陀素彌	-12.0495
專意不散	-12.0495
閙	-12.0496
錫杖	-12.0496
國城妻子	-12.0496
濫	-12.0496
南贍部洲	-12.0496
地大動	-12.0497
無上正等正覺	-12.0497
恭恪	-12.0497
蘇陀味	-12.0497
線	-12.0498
取莊嚴佛土	-12.0498
妻妾	-12.0498
有想無想	-12.0498
動天地	-12.0498
端直	-12.0498
庶民	-12.0498
說如是法	-12.0498
奉大夫試光祿卿傳法大師賜紫	-12.0499
妙高山王	-12.0499
姝	-12.0499
杅	-12.0499
捫摸	-12.0499
暢達	-12.0499
清涼池	-12.0499
加趺	-12.05
𤚲	-12.05
乾薪	-12.05
譚	-12.05
數千萬眾	-12.05
圓頓	-12.05
穩	-12.05
奴婢僕使	-12.05
禮佛而退	-12.05
踊悅	-12.0501
豎	-12.0501
從遠方來	-12.0501
殿堂樓閣	-12.0501
為母說法	-12.0501
羂	-12.0501
遨	-12.0501
羸弱	-12.0502
孤窮	-12.0502
譏呵	-12.0502
水陸	-12.0502
鐸	-12.0502
禳	-12.0502
得法眼	-12.0502
不可久保	-12.0502
法衣在身	-12.0502
住不退地	-12.0502
忉利諸天	-12.0503
方便善巧	-12.0503
隱蔽	-12.0503
廣照后	-12.0503
睺	-12.0503
滑澤	-12.0504
身諸毛孔	-12.0504
骸	-12.0504
韋陀論	-12.0504
虵	-12.0504
貯	-12.0504
三界唯心	-12.0504
曩昔	-12.0504
無數千歲	-12.0504
蹙	-12.0505
不可計數	-12.0505
正解脫義	-12.0505
彼不能乘	-12.0505
仁惠	-12.0505
善權方便	-12.0505
輕賤	-12.0506
乳汁	-12.0506
甚為奇特	-12.0506
資益	-12.0506
耶賒	-12.0506
燒眾名香	-12.0506
有何差別	-12.0506
非空非海中	-12.0506
匃	-12.0506
膏油	-12.0507
周匝千由旬	-12.0507
伎兒	-12.0507
止住其中	-12.0507
榮位	-12.0507
三耶三佛	-12.0507
精氣	-12.0507
恣汝所	-12.0508
身死神	-12.0508
從生已來	-12.0508
揣食	-12.0508
顯露	-12.0508
香稻	-12.0508
傴	-12.0508
善能修習	-12.0509
頭面禮足在一面坐	-12.0509
四意斷	-12.0509
清涼甘美	-12.0509
動一山中	-12.0509
以慈悲力	-12.0509
貧富	-12.051
之至也	-12.051
佛與眾僧	-12.051
五欲自娛	-12.051
柄	-12.051
平等無二	-12.051
千輻輪相	-12.0511
▁18	-12.0511
入無餘涅槃	-12.0511
彌勒是也	-12.0512
平治	-12.0512
以神足力	-12.0512
應為王者	-12.0512
破碎	-12.0512
受持讀誦	-12.0512
儗	-12.0512
綖	-12.0512
歸依三寶	-12.0513
蒙賴	-12.0513
首陀會天	-12.0513
永不退轉	-12.0513
盤結	-12.0513
阿斯陀仙	-12.0513
摩訶目揵連	-12.0513
是謂名苦際	-12.0514
才辯	-12.0514
拘離多童子	-12.0514
裝嚴	-12.0514
門監	-12.0515
彰名	-12.0515
阿耨大龍王	-12.0515
盡其壽命	-12.0516
與大比丘	-12.0516
以何方便	-12.0516
智光當知	-12.0517
冤對	-12.0517
護持正法	-12.0517
坐菩提座	-12.0517
祇樹	-12.0517
尊音王	-12.0518
憂愁苦惱	-12.0518
發誓言	-12.0518
充塞	-12.0518
心中所念	-12.0518
治罰	-12.0518
資產	-12.0518
不信三寶	-12.0518
受於快樂	-12.0518
牖	-12.0518
微塵數等諸佛世界	-12.0519
超絕	-12.0519
六牙白象	-12.0519
聾者得聽	-12.0519
常坐不臥	-12.052
不應住止阿蘭若處	-12.052
赤真珠	-12.052
阿輸迦	-12.052
碎壞	-12.0521
聞王勅已	-12.0521
懃加	-12.0521
只在	-12.0522
皆成沙門	-12.0522
從今已往	-12.0522
儻能	-12.0522
三十二大人之相	-12.0522
四大海水	-12.0523
目揵羅夜那	-12.0523
取淨佛土	-12.0523
東面	-12.0523
徒步	-12.0524
却在一面	-12.0524
欲求何等	-12.0524
敬戴	-12.0524
唐捐	-12.0525
遠塵離垢得法眼淨	-12.0525
諫曉	-12.0525
聽我所說	-12.0525
寶體佛	-12.0526
比丘攝意	-12.0526
馬乾陟	-12.0526
以佛眼觀	-12.0526
羅邏	-12.0526
報其恩	-12.0527
弊魔	-12.0528
眼睛	-12.0528
彼等螺髻梵志	-12.0529
黑風	-12.053
召諸相師	-12.053
父母之恩	-12.0531
為作歸依	-12.0532
有德之人	-12.0532
命終已後	-12.0532
波梨	-12.0534
蕩盡	-12.0535
所不能及	-12.0535
七寶蓋	-12.0535
摩訶波闍波提憍曇彌	-12.0535
壽百年	-12.0535
凡僧	-12.0536
觸惱	-12.0536
云何為八	-12.0536
十六不獲一	-12.0537
無所有處	-12.0538
住菩薩前	-12.0538
餓死	-12.0539
造四寶塔	-12.0539
瞋恚熾盛	-12.0539
心生苦惱	-12.0539
及五百羅漢	-12.054
涉路	-12.0541
食摶	-12.0541
天皷	-12.0542
說頌曰	-12.0542
危命	-12.0542
安眠	-12.0543
難陀比丘是也	-12.0543
拘離多波離婆闍迦	-12.0543
。』」「『	-12.0543
猶不免	-12.0544
是處王者	-12.0544
責數	-12.0544
自唱言	-12.0545
優陀羅	-12.0545
決志	-12.0545
水漂	-12.0545
而彼童子	-12.0546
坐師子座	-12.0546
生餓鬼中	-12.0546
讚美	-12.0547
總稱	-12.0547
槃頭末帝	-12.0548
悲歎	-12.0549
師友	-12.0549
作此念	-12.055
臭惡	-12.0551
復更如是思惟	-12.0551
深泥	-12.0552
婆奴	-12.0552
身放光明	-12.0552
不能自持	-12.0552
彼波羅㮈城	-12.0553
寶髻	-12.0553
五通仙人	-12.0554
從地而	-12.0554
不可破壞	-12.0556
無上大乘	-12.0556
憂思	-12.0557
卷第十三	-12.0557
修行十善	-12.0558
唯願尊者	-12.0558
勝劣	-12.0559
壽八萬歲	-12.056
優波離童子	-12.0561
其義云何	-12.0562
水灌	-12.0563
唯願大師	-12.0564
復有四法	-12.0566
履地	-12.0567
住虛空中	-12.0568
為賊所	-12.0568
駮足王	-12.0568
護惜	-12.057
相好光明	-12.057
向佛說	-12.0571
斷截	-12.0571
五百婇女	-12.0572
復因何	-12.0574
以如是故	-12.0574
於彼法中	-12.0576
鉢羅	-12.0576
攝取眾生	-12.0577
而語王言	-12.0578
我昔曾	-12.0579
怨對	-12.0579
毀形	-12.0579
尋逐	-12.0579
事狀	-12.058
我當與汝	-12.058
皆得道迹	-12.0583
開示分別	-12.0583
最為苦	-12.0583
功力	-12.0583
具一切智	-12.0584
令得安樂	-12.0584
剃除鬚髮著	-12.0586
現大神通	-12.0588
華梵	-12.0588
行菩提行時	-12.0591
令心歡喜	-12.0591
民物	-12.0592
年高	-12.0596
博達	-12.0597
隨其所欲	-12.0598
被打	-12.0599
願賜	-12.0602
與諸大眾	-12.0604
何況餘	-12.0605
安般	-12.0607
第二夫人	-12.0609
白淨飯王言	-12.061
侍送	-12.0611
食其肉	-12.0613
耶輸陀善男子	-12.0615
我知汝	-12.0615
千二百	-12.0621
久遠世時	-12.0621
躭著	-12.0622
諸大臣等	-12.0626
五百乘車	-12.0626
令得安隱	-12.063
到彼處	-12.0632
母子俱	-12.0637
在於樹下	-12.0642
諸世界中	-12.0644
今得生天	-12.0647
真誠	-12.0648
百葉	-12.0654
為眾所	-12.0658
水漿	-12.066
不邪婬	-12.0663
攝授	-12.0667
五百白象	-12.067
修菩薩道	-12.0672
阿闍	-12.0674
禮菩薩足	-12.0674
究盡	-12.0674
供侍	-12.0676
華臺	-12.0678
詣太子所	-12.0686
投火坑	-12.0686
與諸天眾	-12.0695
萬年	-12.0697
花蓋	-12.0699
修善業	-12.07
得五神通	-12.07
欲噉	-12.0705
隨諸眾生	-12.071
入宮內	-12.071
五百力士	-12.0714
四牙	-12.0715
儻有	-12.072
著法服	-12.0722
最為上	-12.0727
應知此	-12.0735
造諸罪	-12.0742
無所乏	-12.0746
無礙大悲	-12.0759
說是語	-12.0761
滅故即	-12.0763
視之無厭	-12.0767
御座	-12.0768
默然許	-12.0777
聞此偈	-12.0779
三十四	-12.0781
惡賤	-12.0786
覆障	-12.0792
諸釋種子	-12.0794
善能分別	-12.0806
剎利王	-12.0838
病愈	-12.0841
被髮	-12.0845
光普照	-12.0847
水側	-12.0849
供養彼佛	-12.0851
大地主	-12.0851
所著衣	-12.0862
得開解	-12.0868
無遺餘	-12.0868
賊害	-12.0873
餚饍飲食	-12.0885
成一切智	-12.0889
集大眾	-12.0894
生信解	-12.0896
摩醯首羅天	-12.0901
能發菩提	-12.0923
一恒河沙等	-12.094
尼連禪	-12.0953
當勤精進	-12.0959
銀城	-12.0966
生奇特	-12.0971
明曜	-12.0974
初發意	-12.0977
婆提	-12.1005
潮	-12.1008
世世所生	-12.1011
愛慾	-12.1026
證法身	-12.1047
車兵	-12.105
作是問	-12.1053
紺色	-12.1056
停息	-12.1056
小豆	-12.1074
議論	-12.1085
授其記	-12.1095
闍那	-12.1098
珠瓔珞	-12.1099
生厭惡	-12.1108
獲大利	-12.1119
一萬八千	-12.1122
諸群鹿	-12.1122
具大悲	-12.1123
步進	-12.1123
佛形像	-12.1137
口吐	-12.1137
聚沫	-12.1176
無上正真之道	-12.1186
明朗	-12.1201
端正無雙	-12.1205
至王宮	-12.1207
槍	-12.1214
詳共	-12.1221
十二月	-12.1222
善根迴向	-12.1222
須夜摩	-12.1262
得大富	-12.1266
為他說	-12.1294
聞王語	-12.131
蒙恩	-12.1316
五穀豐	-12.1318
短命	-12.132
斛飯王	-12.1338
惱熱	-12.1341
獲其果	-12.1347
豐盛	-12.1348
偈讚	-12.1349
隕	-12.1353
品格	-12.136
眴	-12.1363
筋脉	-12.1364
輪轉無際	-12.1365
竿	-12.1369
縵	-12.1369
膠	-12.1371
應機說法	-12.1373
誰敢	-12.1373
螢	-12.1374
估	-12.1374
阿耨達池	-12.1374
揖	-12.1375
所適無患	-12.1375
鱗	-12.1377
悍	-12.1377
靤	-12.1377
侯	-12.1379
恧然	-12.1379
今世及後世	-12.1379
閉門戶	-12.1379
鬼子母	-12.138
象兵	-12.1381
悠	-12.1381
貪惜	-12.1382
菴摩羅	-12.1383
繡	-12.1384
誰不樂世	-12.1384
嶽	-12.1384
創	-12.1384
蒼	-12.1384
是處不死	-12.1386
琦	-12.1386
踏	-12.1387
將來之世	-12.1387
湖	-12.1387
十種勝利	-12.1387
不墮三塗	-12.1388
稗	-12.1388
貧富貴賤	-12.1388
葬送	-12.1389
毘世師論	-12.1389
端身正念	-12.1389
呻	-12.139
編	-12.139
緻	-12.139
挫	-12.139
拯濟眾生	-12.1391
壽八萬四千歲	-12.1391
逈	-12.1391
臆	-12.1392
曼陀	-12.1392
非有非無	-12.1392
旅	-12.1392
未經幾	-12.1392
迴旋	-12.1392
我於今	-12.1393
奇珍	-12.1393
牧羊	-12.1393
彼家所生	-12.1393
國豐	-12.1393
歡慶	-12.1393
荊	-12.1393
掛	-12.1393
甘露飯王	-12.1393
豐諸飲食	-12.1394
千乘萬騎	-12.1394
爇眾名香	-12.1394
箕	-12.1394
眾生誓度	-12.1394
不敗亡	-12.1394
旗	-12.1394
惟衛佛	-12.1394
蜜蜂	-12.1395
嬪	-12.1395
民庶	-12.1395
狎	-12.1395
紅赤	-12.1395
墓	-12.1395
舌舐	-12.1396
六萬婇女	-12.1396
幃帳	-12.1396
啖	-12.1396
典兵臣	-12.1396
珮	-12.1396
􂌤	-12.1396
淪	-12.1396
瘡痍	-12.1397
坑坎	-12.1397
婉	-12.1397
昔者菩薩為大	-12.1397
厨宰	-12.1397
皎	-12.1397
宮嬪	-12.1397
貴姓	-12.1397
懈慢	-12.1397
皎潔	-12.1398
餧	-12.1398
為磨滅法	-12.1398
乳酪	-12.1398
溪	-12.1398
姧	-12.1399
棲止	-12.1399
荅言	-12.1399
市買	-12.1399
香鑪	-12.1399
無礙辯	-12.1399
􂍧	-12.1399
蒙祐	-12.1399
倩	-12.14
𤦲	-12.14
魏	-12.14
不亦快乎	-12.14
伺捕	-12.14
文章	-12.14
冐	-12.14
靜默	-12.1401
金千兩	-12.1401
戢	-12.1401
導從前後	-12.1401
梳頭	-12.1401
月氏國	-12.1401
禿	-12.1401
譬如壯士	-12.1402
經歷劫數	-12.1402
拊	-12.1402
以心為主	-12.1402
斜	-12.1402
勝於前	-12.1402
三千大千界	-12.1402
顏色和悅	-12.1402
乾枯	-12.1403
飛昇虛空	-12.1403
踰闍那	-12.1403
亦不從受	-12.1403
在道側	-12.1403
左右顧視	-12.1403
抄	-12.1403
香汁灑地	-12.1403
逍遙	-12.1403
特牛	-12.1404
三達智	-12.1404
趨	-12.1404
倡	-12.1404
咽喉	-12.1404
靈鷲山	-12.1404
四月八日	-12.1404
塠	-12.1404
於大眾前	-12.1404
天人龍鬼	-12.1404
金沙布地	-12.1405
覔	-12.1405
剪	-12.1405
以手指地	-12.1405
尸陀林	-12.1405
兩翅	-12.1405
堂殿	-12.1405
愚騃	-12.1405
詳審	-12.1405
那羅延天	-12.1405
設供具	-12.1406
南北	-12.1406
工夫	-12.1406
獨無伴侶	-12.1406
簿	-12.1406
蛾	-12.1406
所至到處	-12.1406
娶妻	-12.1406
何憂何畏	-12.1406
屠羊	-12.1406
常樂我淨	-12.1406
睒摩迦	-12.1406
㨶	-12.1407
無慚無愧	-12.1407
奉詔譯	-12.1407
嬉戲娛樂	-12.1407
併命	-12.1407
阿彌陀	-12.1407
悅頭檀	-12.1407
乃往過去無數世	-12.1407
悕	-12.1407
大千世界	-12.1407
烏嚕尾螺	-12.1408
州	-12.1408
叚	-12.1408
騾	-12.1408
紺馬寶	-12.1408
播曩漿等	-12.1408
烏波梨	-12.1408
妊	-12.1408
王既聞已	-12.1408
浣濯	-12.1409
駟	-12.1409
保護	-12.1409
奇雅	-12.1409
迦留羅	-12.1409
天文地理	-12.1409
德樂正	-12.1409
賑	-12.1409
去此不遠	-12.1409
手足柔軟	-12.141
執持應器	-12.141
是處有王	-12.141
我身亦爾	-12.141
般遮于瑟	-12.141
奢摩他	-12.141
末香塗香	-12.141
深無底	-12.141
分陀利花	-12.141
身語意	-12.141
彼樹所出手釧足環	-12.141
彎弓	-12.141
整頓	-12.141
顏容端正	-12.1411
刀山劍樹	-12.1411
及身莊嚴妙好之具	-12.1411
生嫉妬心	-12.1411
抳	-12.1411
鉢盂	-12.1411
貧窮困苦	-12.1411
摩訶僧祇師	-12.1411
拄杖	-12.1411
惔怕	-12.1411
即復以偈	-12.1411
聲聞緣覺	-12.1411
俱母陀	-12.1411
奔拏利迦	-12.1412
寶帳	-12.1412
塼	-12.1412
優為迦葉	-12.1412
卓	-12.1412
如實證知	-12.1412
地居諸天	-12.1412
鉢訥摩	-12.1412
耽著	-12.1412
君民	-12.1412
毘樓勒	-12.1412
治政	-12.1412
徒勞	-12.1413
悲母恩	-12.1413
帥	-12.1413
毘舍離城	-12.1413
直生端立圓無缺減	-12.1413
阜	-12.1413
火鬘童子	-12.1413
憍陳如等五	-12.1414
馳逐	-12.1414
勒叉	-12.1414
大臣百官	-12.1414
肚	-12.1414
復有種種華樹	-12.1414
若頗胝迦為臺即瑠璃為柱及以梁棟	-12.1414
稱伽拔吒	-12.1414
澁	-12.1414
從何道來	-12.1414
為佛作禮而去	-12.1414
摩訶薩埵	-12.1414
聞經歡喜	-12.1414
十方佛土	-12.1415
不可稱量	-12.1415
菴婆羅	-12.1415
百千伎樂	-12.1415
空閒	-12.1415
投淵	-12.1415
信受奉行	-12.1415
成最正覺	-12.1416
草屋	-12.1416
於其後時	-12.1416
毘舍離國	-12.1416
如一佛剎微塵數等	-12.1416
怱	-12.1416
花果茂盛	-12.1417
摩訶曼陀羅花	-12.1417
地六種動	-12.1417
我我所執	-12.1417
亘	-12.1417
拘憐	-12.1417
四衢道頭	-12.1417
崩亡	-12.1417
顏華	-12.1417
墮大地獄	-12.1417
蓋不足言	-12.1417
咀	-12.1418
二恒河沙阿僧祇	-12.1418
秋節	-12.1419
城南門	-12.1419
不可思議阿僧祇劫	-12.1419
魁	-12.1419
脣口	-12.1419
多所饒益	-12.1419
資養	-12.1419
縣官	-12.142
而娛樂之	-12.142
不驚不怖	-12.142
右繞三匝	-12.142
眾相具足	-12.142
身紫金色	-12.142
生厭患	-12.142
不傷人意	-12.142
▁16	-12.1421
鋪設	-12.1421
鴦伽陀王	-12.1421
汝今被菩薩	-12.1421
摩那毘迦	-12.1421
涅	-12.1422
波羅捺	-12.1422
如兜羅緜	-12.1422
有發無上正真道意者	-12.1423
畜養	-12.1423
以佛力故	-12.1423
以界道側	-12.1423
慈心相向	-12.1423
屍骸	-12.1423
驅逐	-12.1423
床敷	-12.1424
閻披羅園	-12.1424
孝順父母	-12.1424
超彼岸	-12.1424
7	-12.1424
無數阿僧祇劫	-12.1424
嚴身之具	-12.1424
唼𠲿	-12.1425
具大威德	-12.1425
恭順	-12.1425
形質	-12.1425
在前導	-12.1425
如是人等	-12.1425
威德巍巍	-12.1425
從外來	-12.1426
炳然	-12.1426
呵罵	-12.1426
儔	-12.1426
雖得為人	-12.1426
蓮華臺	-12.1426
𠻬	-12.1427
不得久停	-12.1427
尠少	-12.1427
出家佛子	-12.1428
無明闇	-12.1428
於諸三昧示現	-12.1428
聞是聲已	-12.1428
無有能脫此	-12.1428
是瞿曇弟子	-12.1429
優波伽摩那婆	-12.1429
刪提嵐	-12.1429
發無上菩提之心	-12.1429
䐡	-12.1429
諸佛天中天	-12.143
稱慶	-12.143
銅鉢	-12.143
若干品	-12.1431
城北門	-12.1431
飽足	-12.1431
了不可得	-12.1431
渡大海	-12.1431
即以右手	-12.1432
佛法僧寶亦復如是	-12.1432
智慧深遠	-12.1432
奉王勅	-12.1432
殊勝義利	-12.1432
調御師	-12.1433
隨其所須	-12.1433
發善願	-12.1433
又有四種	-12.1434
日炙	-12.1434
聚落城邑	-12.1434
日無精光	-12.1435
目如青蓮	-12.1435
或勝此	-12.1435
無歸依者	-12.1435
稱善無量	-12.1435
遠離塵垢	-12.1435
發是心	-12.1435
迷亂	-12.1435
十勝利	-12.1435
虛假	-12.1436
演說妙法	-12.1437
精思	-12.1437
此是菩薩未曾有法	-12.1437
即遣使者	-12.1438
造無間業	-12.1438
靜寂	-12.1438
天廟	-12.1439
無我我所	-12.1439
五盛陰身	-12.144
如此語已	-12.144
得大勢	-12.144
若當有人	-12.144
拔愛根本	-12.144
於法自在	-12.1441
五通神仙	-12.1441
純金所成	-12.1441
是沙門所為	-12.1442
莫作是語	-12.1442
作諸音樂	-12.1442
頓悟	-12.1443
不退位	-12.1444
漸漸增長	-12.1444
衣食自然	-12.1445
須闍提太子	-12.1445
惱患	-12.1445
阿梨	-12.1445
不孝父母	-12.1446
又於一時	-12.1446
掉舉	-12.1446
東方去此	-12.1447
鏡智	-12.1447
諸長老輩	-12.1447
從彼優婁頻螺迦葉	-12.1448
名釋迦文	-12.1448
哭聲	-12.1449
復有一臣	-12.1449
不知慚愧	-12.145
祭祀諸天	-12.145
暴象	-12.145
纏絡	-12.145
百倍	-12.145
瞋癡	-12.145
惟願大王	-12.1451
眷屬圍繞	-12.1451
數千萬人	-12.1453
擲棄	-12.1454
求佛出家	-12.1454
坐禪思惟	-12.1454
永絕	-12.1455
長刀	-12.1455
傾倒	-12.1455
如来	-12.1455
誹謗賢聖	-12.1456
供養三尊	-12.1456
四色劫波衣樹	-12.1456
跋陀羅女	-12.1457
時彼商主	-12.1457
孤母	-12.1458
成無上正真之道	-12.1458
有一老母	-12.1459
速圓	-12.146
蒙濟度	-12.146
師質	-12.146
被誹謗	-12.1463
安庠而行	-12.1465
幻師	-12.1467
旃陀羅家	-12.1467
開演	-12.1468
唼	-12.1469
依倚	-12.147
猶如猛火	-12.147
即便以身	-12.147
今應當知	-12.1472
守衛	-12.1472
不隨他	-12.1474
提婆達多童子	-12.1474
比圖醯	-12.1475
雜染	-12.1476
諸魔眾	-12.1476
即時能知因	-12.1476
生此天	-12.1477
志固	-12.1478
斷諸煩惱	-12.148
謂既能	-12.1485
與諸群臣	-12.1485
世尊以此因緣	-12.1488
往白世尊	-12.1489
繒幡	-12.149
悉得成就	-12.149
兇惡	-12.1498
秋月	-12.1499
光潔	-12.15
是大沙門雖	-12.1501
化作一人	-12.1505
流注	-12.1505
劍戟	-12.1508
五百群賊	-12.151
西北	-12.1511
生希有想	-12.1518
雷音	-12.1519
衣冠	-12.1524
神逝	-12.1533
房室	-12.1539
正真覺	-12.1541
繩床	-12.1543
中庭	-12.1554
萬倍	-12.1554
茅草	-12.1556
兩足尊	-12.1559
趣惡道	-12.1564
共捔	-12.1567
求聲聞乘	-12.1574
欣欣	-12.1577
波羅奈城	-12.1579
汝可為我	-12.158
造諸惡	-12.1582
令無有餘	-12.1584
云何為十	-12.1591
於菩薩前	-12.1592
毀破	-12.1592
明教大師臣法賢奉詔譯爾時	-12.161
律阿毘曇	-12.161
婆沙	-12.1614
他化自在	-12.1615
特尊	-12.1617
求辟支佛乘	-12.1617
動靜	-12.1621
證大菩提	-12.1622
高幢	-12.1647
五欲之樂	-12.1648
不能自制	-12.1651
象鼻	-12.1659
從他聞	-12.1662
臥床	-12.1666
無疲惓	-12.1678
天妙衣	-12.1685
超越生死	-12.1692
照察	-12.1701
嫉恚	-12.1701
昔曾	-12.1704
損他	-12.1708
垂慈	-12.1715
復更別有	-12.1717
讀經	-12.1722
得至泥洹	-12.1726
猶尚不能	-12.1743
叢	-12.1752
大婆羅門家	-12.1759
逆風	-12.1764
王聞其言	-12.1765
巧智	-12.1793
有一貧人	-12.181
云何為五	-12.1822
嚴熾	-12.1831
濁亂	-12.1843
百味食	-12.1844
能斷愛	-12.1857
至佛前	-12.1863
涼風	-12.1884
寶屐	-12.1903
越祇國人	-12.1905
樹蔭	-12.1906
是時馭者	-12.1909
何時當得	-12.1922
今雖得	-12.1934
性本空	-12.1939
懼畏	-12.1945
我今歸依	-12.1956
能持此	-12.1963
天竺國	-12.1963
歎其德	-12.1971
經家敘置	-12.1976
得聞正法	-12.199
設餚饍	-12.2026
客婆羅門	-12.2032
眼耳鼻舌	-12.2037
海淵	-12.2045
臺閣	-12.2051
昨夜光明	-12.2063
虛渴	-12.2065
寒林	-12.2071
福之報	-12.2081
見者莫不	-12.211
幼小	-12.2139
馭者報	-12.2146
寶貨	-12.2151
那羅陀仙	-12.2155
萎華	-12.2161
懷憂慼	-12.2164
月影	-12.2174
一心合掌	-12.2184
為火所	-12.2188
壯年	-12.2205
和顏	-12.2211
放烟	-12.2242
斷二障	-12.2255
遊步	-12.2256
普照十方	-12.2278
心生希有	-12.2304
往昔曾	-12.2329
該容	-12.2335
弑	-12.2339
傘	-12.2345
滿池中	-12.2345
利師跋王	-12.2347
梵眾天	-12.235
摩竭提	-12.2354
癡闇	-12.2354
菩提分法	-12.2358
人生於世	-12.236
窈	-12.2367
權入實	-12.2367
畔	-12.2368
主兵神	-12.2369
𨽁	-12.2369
琢	-12.237
故結云	-12.2371
椽	-12.2372
衢	-12.2372
縈	-12.2373
國豐民	-12.2373
戲場	-12.2373
以三昧力	-12.2374
無恙	-12.2375
銳	-12.2375
汲	-12.2375
辟	-12.2375
痒	-12.2375
皇后	-12.2376
来	-12.2376
穆	-12.2377
護心勿復調	-12.2377
珠璣	-12.2378
煌	-12.2378
炤	-12.2378
喧閙	-12.2379
有淺深	-12.2379
阿㝹	-12.2379
壻	-12.238
憐傷	-12.238
萎悴	-12.238
踝	-12.238
聯	-12.238
催逼	-12.238
肢	-12.238
陟	-12.238
昌	-12.2381
湍	-12.2381
詩	-12.2382
鬧	-12.2382
瞞	-12.2382
如少水魚	-12.2382
當奈之何	-12.2383
辛酸	-12.2383
互有隱顯	-12.2383
搔	-12.2384
弗加沙王	-12.2384
所被之機	-12.2384
道四聖諦法	-12.2384
俛仰	-12.2385
鬪亂彼此	-12.2385
令住三乘	-12.2385
瀑	-12.2385
損耗	-12.2385
虎兕	-12.2385
迦嘍嗏	-12.2385
艸	-12.2386
獺	-12.2386
太史	-12.2387
抴	-12.2387
古德云	-12.2387
墓魄	-12.2388
蘆	-12.2388
銅鐵	-12.2388
剖	-12.2388
見思二惑	-12.2388
塊	-12.2388
染淨因果	-12.2389
謬計	-12.2389
執燭	-12.2389
波羅陀跋彌	-12.2389
擻	-12.2389
除眾生病	-12.2389
伺察	-12.2389
珂	-12.239
揩	-12.239
膖脹	-12.239
輞	-12.239
岳	-12.239
空所顯	-12.2391
丸	-12.2391
三十有二	-12.2391
巧匠	-12.2391
是為四事法	-12.2391
咄嗟	-12.2391
稼	-12.2392
矇	-12.2392
左肩	-12.2392
擾擾	-12.2392
豺狼	-12.2393
歿	-12.2393
所證之理	-12.2393
稽	-12.2393
飢渴寒熱	-12.2394
阿伽陀	-12.2394
不著二邊	-12.2394
問其僕	-12.2394
斯有何樂	-12.2394
𣣋	-12.2395
皇孫	-12.2395
亦入其中	-12.2395
術闍	-12.2395
甘饌	-12.2395
漁	-12.2396
樂少苦多	-12.2396
蘇油	-12.2396
髦	-12.2396
騎乘	-12.2396
經數時	-12.2396
息心自省	-12.2396
若彼天男及天女等思	-12.2396
磧	-12.2397
窈冥	-12.2397
打鼓	-12.2398
哩	-12.2398
交映	-12.2398
感格	-12.2398
發大道意	-12.2398
迅疾	-12.2398
怜	-12.2398
於食知止足	-12.2398
猗籌	-12.2398
入彼城	-12.2398
爭競	-12.2399
陰持入	-12.2399
俯	-12.2399
矛戟	-12.24
拂拭	-12.24
成所作智	-12.24
棲	-12.24
漚	-12.24
眉間相	-12.24
攪	-12.2401
震動天地	-12.2401
堪為彼王作	-12.2401
右繞	-12.2401
初三句	-12.2401
面如滿月	-12.2401
鳧鴈鴛鴦	-12.2401
當作何計	-12.2401
馬鳴菩薩造後秦三藏鳩摩羅什譯	-12.2401
成無上等正覺	-12.2401
若有善男子善女人	-12.2401
尼拘類	-12.2402
以杖打	-12.2402
顧戀	-12.2402
側塞虛空	-12.2402
無他異	-12.2402
相和悲鳴	-12.2402
晨旦	-12.2402
內外清徹	-12.2402
狼籍	-12.2403
不可稱限	-12.2403
何謂為八	-12.2403
捨身受身	-12.2403
閱	-12.2403
入山學道	-12.2403
熬	-12.2403
即召群臣	-12.2403
威德特尊	-12.2404
不可稱記	-12.2404
馬王乾陟	-12.2404
壑	-12.2404
夫人得善利	-12.2404
欲怒癡	-12.2404
歟	-12.2404
不可稱載	-12.2404
兄弟三人	-12.2404
黑蛇	-12.2404
快得善利	-12.2404
杓	-12.2404
五千玉女	-12.2404
嘯	-12.2405
枯乾	-12.2405
焚香	-12.2405
朽敗	-12.2405
弗婆提	-12.2405
枉屈	-12.2405
􂍰	-12.2405
最尊最勝	-12.2406
沙門臣施護等奉詔譯	-12.2406
世尊欲重宣此義	-12.2406
鑪	-12.2406
遍體戰慄	-12.2407
埏	-12.2407
四面雲集	-12.2407
私陀	-12.2407
愚惑相言	-12.2407
熅	-12.2407
惋	-12.2407
無常殺鬼	-12.2407
無明所覆	-12.2407
如父如母	-12.2407
鴦掘魔	-12.2408
以願力故	-12.2408
頭髮自墮	-12.2408
毒虫	-12.2408
悲淚	-12.2408
瘖	-12.2408
見此事已	-12.2408
乾沓和	-12.2408
埀	-12.2408
珠環	-12.2408
隷	-12.2408
挂	-12.2408
妨廢	-12.2409
而噉食之	-12.2409
獲報無有量	-12.2409
祁	-12.2409
尼俱陀樹	-12.2409
住持三寶	-12.2409
空無所獲	-12.2409
舍衛國祇樹給孤獨園	-12.2409
當作是學	-12.2409
為入道之	-12.2409
崩倒	-12.2409
捨之去	-12.241
試看	-12.241
不敢違命	-12.241
不屬他	-12.241
售	-12.241
人居世間	-12.241
燒香散花	-12.241
執炬	-12.241
無生無滅	-12.241
巴樹提	-12.241
資生具	-12.241
死命鬼	-12.241
復次邊城	-12.241
香芬馥	-12.241
濁惡世	-12.241
種殖	-12.2411
𤛓乳	-12.2411
悲哭	-12.2411
失譯人名	-12.2411
元魏西域三藏吉迦夜共曇曜譯	-12.2411
為大震動	-12.2411
愚昧	-12.2411
輪轉五道	-12.2411
那羅陀童子仙	-12.2411
發無等等阿耨多羅三藐三菩提心	-12.2412
不失時節	-12.2412
喫	-12.2412
賣薪	-12.2412
亮	-12.2412
鐶	-12.2413
納娶	-12.2413
五分法身	-12.2413
成佛未久	-12.2413
貪欲瞋恚愚癡	-12.2413
端政殊特	-12.2413
如月雲消	-12.2414
房門復開	-12.2414
省察	-12.2414
神珠寶	-12.2414
皆由前身	-12.2414
羽寶之車	-12.2414
▁19	-12.2414
譬如淨衣	-12.2415
人所樂見	-12.2415
俄爾	-12.2415
六欲諸天	-12.2415
死此生彼	-12.2416
竊盜	-12.2416
斷魔華敷	-12.2416
頭面頂禮	-12.2416
牽挽	-12.2416
鼓樂絃歌	-12.2416
伊羅	-12.2416
頭面禮世尊足	-12.2416
彼樹復有種種飛鳥	-12.2416
如結鬘師取以妙線	-12.2416
克證	-12.2417
難提迦	-12.2417
懶惰	-12.2417
震吼	-12.2417
敷座而坐	-12.2417
股肉	-12.2417
所謂隨順聽聞菩薩	-12.2417
輸頭檀王復以偈頌	-12.2417
渴飲	-12.2418
摩訶盧	-12.2418
默然受請	-12.2418
雨眾天花	-12.2418
上至三十三天	-12.2418
牸虎	-12.2418
慳貪嫉妬	-12.2418
5	-12.2419
皮骨	-12.2419
宣布	-12.2419
碎末	-12.2419
矩	-12.2419
四正勤	-12.2419
得大安樂	-12.2419
依憑	-12.2419
極世之	-12.2419
二十餘年	-12.2419
擊鼓唱令	-12.2419
又彼宮中	-12.2419
滅其惡	-12.242
如空聚落	-12.242
勤行精進	-12.242
四攝法	-12.242
滋甚	-12.242
田溝	-12.242
敬信三寶	-12.242
以本願力	-12.242
辭退而去	-12.242
知有三寶	-12.2421
洞徹	-12.2421
貧匱	-12.2421
持戒完具	-12.2421
坐其床	-12.2421
鹿皮之衣	-12.2421
披袈裟	-12.2421
修諸善法	-12.2421
心意泰然	-12.2421
一一毛孔	-12.2421
多饒財寶	-12.2422
嬰愚	-12.2422
於其中路	-12.2422
詶	-12.2423
▁17	-12.2423
昇座	-12.2423
即便下馬	-12.2423
今此會中	-12.2423
廣長舌相	-12.2424
叉手長跪	-12.2424
無能數者	-12.2424
宿住智	-12.2424
惡露不淨	-12.2424
高岸	-12.2424
即從天下	-12.2424
受是苦惱	-12.2425
其事亦如是	-12.2425
於七歲中	-12.2425
毘梨	-12.2425
埿	-12.2425
金鈴	-12.2425
亦無恐懼	-12.2425
證阿羅漢果	-12.2425
微細觀察	-12.2426
城西門	-12.2426
猶如幻化	-12.2426
住一面已	-12.2426
於爾所時	-12.2426
不寒不熱	-12.2426
逮得己利	-12.2427
從地涌出	-12.2427
▁21	-12.2427
陰謀	-12.2427
▁20	-12.2427
糞掃之衣	-12.2428
交戰	-12.2428
無緣大慈	-12.2428
摩竭國界	-12.2428
頭髮自落	-12.2428
非想非非想處	-12.2428
在於我前	-12.2429
從空下	-12.2429
是故字汝為	-12.2429
從空而下	-12.2429
嘆未曾有	-12.2429
拔提釋	-12.2429
以何義故	-12.2429
壽量	-12.2429
娑訶	-12.243
舉國人民	-12.243
汝知爾時	-12.243
正法滅後	-12.243
起居輕利	-12.243
顛倒垢染	-12.2431
與無央數菩薩圍遶	-12.2431
大地震動	-12.2431
拘那含牟尼佛	-12.2431
往詣其家	-12.2431
六通神足	-12.2431
即更以偈	-12.2431
依空而	-12.2431
寶輿	-12.2432
演說正法	-12.2432
稻田	-12.2432
毘奢蜜多	-12.2432
同日生	-12.2433
充備	-12.2434
往昔諸王	-12.2434
鳴吼	-12.2434
旨趣	-12.2434
善根已熟	-12.2434
睒至孝	-12.2434
晝夜精勤	-12.2434
得應真道	-12.2434
乞如是願	-12.2434
暗鈍我慢	-12.2434
火不能燒	-12.2435
過去有佛	-12.2435
單獨	-12.2436
樓陀	-12.2436
華敷照明如來	-12.2436
瞻養	-12.2436
證驗	-12.2436
況我今日	-12.2437
即於其夜	-12.2437
如佛無異	-12.2437
得惡戒	-12.2437
十方如恒河沙等世界	-12.2437
嶮路	-12.2437
空無所有	-12.2437
爾時菩薩以神通力	-12.2438
叉裔	-12.2438
譏論	-12.2439
修諸苦行	-12.2439
前為作禮	-12.2439
誹謗聖人	-12.2439
善覺自覺者	-12.2439
墮阿鼻地獄	-12.2439
是名出家菩薩成就	-12.2439
得福無量	-12.244
世尊重說偈言	-12.244
而得度者	-12.244
心地觀門	-12.2441
菩提之樹	-12.2441
食訖已後	-12.2442
燒滅善心	-12.2444
跋羅	-12.2444
跋提	-12.2445
淚滿目	-12.2446
毀壞正法	-12.2446
我子睒	-12.2447
遮不聽	-12.2448
不與我授記	-12.2448
令我來世	-12.2448
至第七日	-12.2448
踊在虛空	-12.2449
汝等佛子	-12.245
故受之以	-12.245
潤益	-12.2451
節量	-12.2452
多他伽多	-12.2453
赤魚	-12.2455
婆羅陀	-12.2455
次第而坐	-12.2455
女牆	-12.2457
獲道跡	-12.2458
棄捨身命	-12.2458
身心快樂	-12.2458
入第二恒河沙等阿僧祇劫後分	-12.2458
往娑婆世界	-12.2459
優波陀	-12.2462
即與弟子	-12.2464
刪闍耶波離婆闍迦	-12.2466
而答之	-12.2467
漸漸而行	-12.2467
婆闍	-12.2467
阿濕波踰祇多	-12.2467
由於彼時	-12.2469
一箇	-12.2471
問左右	-12.2472
愚者以為	-12.2475
受八關齋	-12.2478
凡庶	-12.2478
於樓上	-12.2479
如實而知	-12.2481
懈息	-12.2484
安止令住	-12.2484
在母胎	-12.2485
雜廁	-12.2488
色從容	-12.2492
昔佛在羅閱祇	-12.2495
昔作何業	-12.2504
真實不虛	-12.2504
造諸惡業	-12.2508
光照耀	-12.2512
薩婆悉達	-12.2517
真佛子	-12.2525
說真實法	-12.2528
五百賈人	-12.2531
天之論	-12.2535
受正教	-12.2549
無惡不	-12.2555
足趺	-12.2561
現在住世說法	-12.2565
如疾風	-12.2566
福祿	-12.2594
詣於佛所	-12.2611
婆羅門長者居士	-12.2616
烟焰	-12.2616
結使永盡無餘	-12.2631
足蹈地	-12.2643
殺盜	-12.2656
是時世尊告	-12.267
手攀	-12.2674
聾盲	-12.2682
種種供具	-12.2683
服法衣	-12.2685
是名出家菩薩	-12.269
處母胎	-12.2704
賢良	-12.2717
西南	-12.273
提婆婆羅門	-12.2762
銀粟	-12.2769
遍照三千大千世界	-12.2773
體不變	-12.2783
青紺	-12.2801
移易	-12.2829
躁擾	-12.2833
種種神通變化	-12.2853
一經家敘置	-12.2854
鏡照	-12.2866
佛即默然	-12.2874
還本宮	-12.2875
長跪請佛	-12.2886
手把	-12.2912
戲弄	-12.2925
獲其福	-12.2949
出世甚難	-12.297
暫停	-12.3025
大富婆羅門	-12.3043
大聲唱	-12.308
奉三尊	-12.3082
往攻	-12.3088
逮得法眼	-12.3119
叫呼	-12.3175
瓔	-12.326
泣涕	-12.3281
自他兩利	-12.3284
虛誑	-12.3293
如法治	-12.3343
折樹木	-12.3371
閻浮提中一切	-12.3372
牛頭栴檀香	-12.3387
得是陀羅尼	-12.3393
所不照	-12.3418
扠	-12.3435
告諸沙門	-12.3436
墼	-12.3438
迦蘭那迦	-12.3458
峰	-12.3463
娠	-12.3465
磋	-12.3468
僉	-12.3468
槩	-12.3471
晉	-12.3471
弈	-12.3474
相續不斷	-12.3474
臣僚	-12.3475
卦	-12.3475
三十兩金	-12.3477
菩薩禪度無極	-12.3477
豈敢	-12.3478
泊	-12.348
播	-12.348
牀	-12.348
[...]
