<unk>	0
<s>	0
</s>	0
。	-1.65769
也	-4.3105
故	-4.35075
者	-4.51178
有	-4.98826
以	-5.22076
無	-5.24575
為	-5.26672
是	-5.28466
若	-5.41218
此	-5.45444
之	-5.46397
即	-5.48909
而	-5.50823
一	-5.5793
則	-5.60238
如	-5.60279
二	-5.63171
非	-5.67213
義	-5.69567
謂	-5.71074
法	-5.72046
生	-5.7715
不	-5.81397
)	-5.8204
(	-5.8204
中	-5.84738
言	-5.86135
於	-5.8699
明	-5.87666
名	-5.87952
又	-5.88049
因	-5.88281
▁	-5.90955
等	-5.91791
破	-5.93918
下	-5.98256
亦	-5.98332
云	-6.01652
相	-6.03631
說	-6.07244
耶	-6.08716
三	-6.10932
答	-6.11165
今	-6.13647
,	-6.19061
見	-6.2144
空	-6.21642
人	-6.21725
彼	-6.2559
得	-6.2788
問	-6.28007
。「	-6.29955
體	-6.31346
心	-6.34258
與	-6.37502
果	-6.3864
異	-6.39763
時	-6.40289
我	-6.45899
」	-6.46447
佛	-6.47317
知	-6.48999
前	-6.49722
涅槃	-6.51243
但	-6.52534
應	-6.53151
後	-6.54235
作	-6.55196
如是	-6.55286
論	-6.56768
智	-6.568
其	-6.56835
成	-6.57049
自	-6.57732
即是	-6.58398
用	-6.58523
皆	-6.58949
。」【	-6.60369
既	-6.60615
常	-6.60972
然	-6.61221
滅	-6.62092
同	-6.62347
是故	-6.63634
性	-6.66905
四	-6.66959
理	-6.67573
起	-6.69038
從	-6.70423
行	-6.70812
雖	-6.71375
及	-6.71387
初	-6.72104
大	-6.72839
實	-6.74007
釋	-6.76896
緣	-6.77707
所	-6.78365
能	-6.80552
離	-6.80692
眾生	-6.80744
本	-6.81334
通	-6.82077
云何	-6.82679
一切	-6.82709
色	-6.83217
菩薩	-6.83874
耳	-6.84673
名為	-6.85135
上	-6.8543
觀	-6.85958
出	-6.86054
立	-6.86439
曰	-6.87247
正	-6.8766
由	-6.90151
至	-6.90161
。】「	-6.90185
真	-6.9019
意	-6.90321
復次	-6.92403
汝	-6.93362
在	-6.93613
解	-6.94412
道	-6.94897
因緣	-6.96038
物	-6.96394
諸法	-6.96993
何以故	-6.97264
身	-6.98432
難	-6.9863
故云	-6.99539
可	-7.00069
諸	-7.00304
別	-7.01557
次	-7.01627
境	-7.0187
就	-7.02337
顯	-7.02435
所以	-7.03532
經	-7.06721
合	-7.07094
二諦	-7.08139
有無	-7.08334
住	-7.08557
事	-7.08663
執	-7.09205
無常	-7.09838
教	-7.10343
文	-7.1202
業	-7.12071
*	-7.1242
依	-7.12468
門	-7.12487
釋曰	-7.1272
假	-7.12983
定	-7.13203
識	-7.13966
宗	-7.14282
多	-7.15351
入	-7.16181
外	-7.17527
斷	-7.17652
或	-7.18718
已	-7.19021
無有	-7.19573
取	-7.22092
去	-7.2303
因果	-7.25065
生死	-7.25528
證	-7.27264
盡	-7.27495
一者	-7.27855
過	-7.28237
當	-7.28624
神	-7.2905
復	-7.29173
令	-7.29648
二者	-7.29709
五	-7.30451
般若	-7.30602
先	-7.30789
分別	-7.31908
亦無	-7.32032
分	-7.33005
辨	-7.33902
失	-7.34856
他	-7.35063
苦	-7.35119
不同	-7.3525
受	-7.35447
未	-7.35463
如來	-7.36785
處	-7.37714
照	-7.39282
乃	-7.40046
善	-7.41622
何	-7.42287
聞	-7.42384
不得	-7.42815
疏	-7.43403
並	-7.43864
大乘	-7.44544
內	-7.4488
求	-7.44935
方便	-7.45105
兩	-7.45143
具	-7.45238
對	-7.45755
瓶	-7.45788
論主	-7.46385
唯	-7.47041
俱	-7.47144
餘	-7.47665
開	-7.49477
欲	-7.50714
不生	-7.5185
隨	-7.52127
此是	-7.5236
外道	-7.52779
煩惱	-7.54266
不可	-7.54373
無為	-7.54384
悟	-7.54892
無生	-7.55464
佛性	-7.55654
無相	-7.56013
語	-7.57058
俗	-7.57546
來	-7.57713
世間	-7.57854
喻	-7.58474
小	-7.58586
眼	-7.59222
故名	-7.60207
覺	-7.60467
何者	-7.6056
邪	-7.60562
不能	-7.6088
師	-7.61536
方	-7.62052
波若	-7.62978
第二	-7.63199
世諦	-7.63431
真諦	-7.6361
生滅	-7.63794
約	-7.63888
矣	-7.64236
便	-7.64602
引	-7.658
迷	-7.67447
若言	-7.67638
計	-7.68238
舉	-7.68565
指	-7.68811
巳	-7.69224
聖	-7.69396
實相	-7.71141
火	-7.71715
現	-7.73264
則無	-7.73475
不成	-7.73785
小乘	-7.73794
乃至	-7.74205
待	-7.74962
結	-7.75003
樂	-7.75456
第三	-7.76547
慧	-7.77624
今明	-7.77853
如此	-7.78574
會	-7.78866
壞	-7.7897
若有	-7.7912
深	-7.79158
譬如	-7.80223
論云	-7.80342
必	-7.80462
六	-7.80999
答曰	-7.81633
位	-7.8224
若無	-7.82562
總	-7.82974
不知	-7.83349
轉	-7.83396
著	-7.83629
中道	-7.83806
動	-7.83967
自性	-7.84277
。】△	-7.84309
此中	-7.8453
絕	-7.847
亦應	-7.85326
攝	-7.85504
除	-7.85551
地	-7.86039
不異	-7.8608
聖人	-7.86129
不應	-7.86174
故知	-7.8624
捨	-7.87635
乎	-7.87774
問曰	-7.87867
差別	-7.88047
天	-7.88063
形	-7.88202
第一	-7.88488
不見	-7.88757
自體	-7.88904
二乘	-7.88961
修	-7.89016
稱	-7.89392
偈	-7.8968
解脫	-7.89917
重	-7.89973
惑	-7.90673
法身	-7.91204
品	-7.91677
外人	-7.91794
若爾	-7.91817
凡	-7.91898
世	-7.92798
故言	-7.92835
勝	-7.92844
非有非無	-7.93284
三乘	-7.93356
根	-7.93849
還	-7.93869
而有	-7.94091
亦是	-7.94279
五陰	-7.94557
皆是	-7.94821
諦	-7.94867
.	-7.95007
化	-7.95572
顛倒	-7.95724
示	-7.95827
感	-7.95843
水	-7.96315
無知	-7.96441
乘	-7.97153
虛空	-7.97746
和合	-7.99227
未來	-7.99898
遠	-8.00449
四句	-8.00525
等者	-8.00608
所說	-8.01233
淨	-8.01453
不二	-8.01455
夫	-8.02092
遍	-8.02681
數	-8.02708
了	-8.02801
發	-8.03154
廣	-8.03205
德	-8.03288
各	-8.03522
三者	-8.03843
終	-8.04772
論者言	-8.04979
、	-8.04986
非是	-8.05645
現在	-8.05736
十	-8.06041
信	-8.06517
性空	-8.06576
聲	-8.06878
子	-8.06968
何故	-8.07097
八	-8.07482
更	-8.07691
學	-8.07946
過去	-8.08145
無體	-8.08282
亦非	-8.0883
亦不	-8.09351
將	-8.09467
不可得	-8.09538
施	-8.10053
七	-8.10479
屬	-8.10532
次第	-8.11069
反	-8.11114
既無	-8.11749
須	-8.11887
長	-8.11896
一異	-8.11992
非有	-8.12208
有為	-8.12223
竟	-8.12617
豈	-8.12665
一切法	-8.12725
力	-8.13721
障	-8.13777
妙	-8.13791
共	-8.13895
外曰	-8.14362
惡	-8.14823
極	-8.15278
悉	-8.1546
少	-8.15844
思	-8.16227
頌言	-8.16238
真俗	-8.16343
即無	-8.16516
情	-8.16599
相續	-8.16664
爾	-8.17016
可得	-8.17239
凡夫	-8.17255
亦爾	-8.17464
猶	-8.17647
妄	-8.17777
三世	-8.18039
變	-8.18126
故曰	-8.18315
疑	-8.18633
能生	-8.19073
不然	-8.19251
遮	-8.19631
不遷	-8.19918
而不	-8.20411
始	-8.20749
止	-8.20774
境智	-8.20874
之義	-8.20888
經云	-8.21309
修妬路	-8.2181
又云	-8.22141
第一義中	-8.22466
病	-8.22649
義也	-8.22736
故有	-8.22774
權	-8.23334
無量	-8.23903
相待	-8.23904
實有	-8.23939
內曰	-8.24302
;	-8.24859
倒	-8.2489
無因	-8.24974
相違	-8.25016
向	-8.25164
境界	-8.25255
生時	-8.25557
無明	-8.25578
虛	-8.26131
愛	-8.26256
一時	-8.27095
種種	-8.27266
所作	-8.27309
此即	-8.2733
造	-8.27369
望	-8.27391
觸	-8.27479
申	-8.27553
念	-8.27967
略	-8.28081
虗	-8.28102
智慧	-8.28108
此則	-8.28286
偏	-8.28601
則是	-8.28602
眾	-8.29171
是以	-8.29296
歸	-8.29384
寂	-8.29462
王	-8.29528
人法	-8.2963
道理	-8.2999
此義	-8.30046
非無	-8.30198
違	-8.30313
作者	-8.30374
陰	-8.30503
玄	-8.3063
決定	-8.30652
流	-8.30892
所謂	-8.31087
息	-8.31416
有所得	-8.31638
聲聞	-8.32466
第四	-8.32848
色等	-8.3294
類	-8.33262
有二	-8.33418
度	-8.33455
燈	-8.33671
窮	-8.34591
?	-8.34637
家	-8.35235
萬物	-8.35394
本無	-8.35572
塵	-8.35595
字	-8.35835
且	-8.36281
救	-8.36619
想	-8.36651
昔	-8.36721
往	-8.37088
存	-8.37134
中論	-8.37165
亦有	-8.37168
哉	-8.37815
責	-8.38183
量	-8.38216
要	-8.38323
標	-8.38489
表	-8.3874
誰	-8.38911
內外	-8.38963
是有	-8.39153
使	-8.39384
可見	-8.39657
無所	-8.39801
末	-8.40057
是常	-8.40193
論曰	-8.40201
述曰	-8.40255
以為	-8.40479
遣	-8.4093
三界	-8.40963
直	-8.41232
無我	-8.41311
俗諦	-8.41443
二智	-8.41527
達	-8.42042
故名為	-8.42143
無所得	-8.42182
戲論	-8.4219
假名	-8.4224
縛	-8.42643
能所	-8.42653
所言	-8.42949
前後	-8.43296
雙	-8.43317
不滅	-8.43488
諸佛	-8.43928
是則	-8.44141
斯	-8.44858
細	-8.4508
之理	-8.45135
菩提	-8.4514
象	-8.45143
法體	-8.45165
只	-8.4533
之法	-8.45417
興	-8.45669
似	-8.45927
空有	-8.45969
為因	-8.46018
諸行	-8.46302
常住	-8.46743
微	-8.47863
順	-8.47971
別有	-8.48065
日	-8.48769
無故	-8.48794
獨	-8.49113
邊	-8.49221
利	-8.49481
可知	-8.49916
不生不滅	-8.50186
遂	-8.50198
若謂	-8.50235
故無	-8.50325
八不	-8.50325
所見	-8.50485
死	-8.50695
未有	-8.50875
推	-8.51333
所依	-8.51422
二種	-8.51453
古	-8.5158
不有	-8.51653
無性	-8.52201
九	-8.52326
寂滅	-8.52407
此論	-8.52432
習	-8.52783
龍樹	-8.52858
例	-8.52917
有異	-8.52949
亦然	-8.53085
下半	-8.53549
此二	-8.53931
染	-8.54025
麁	-8.54029
一切眾生	-8.54277
山	-8.54533
正法	-8.54601
十二	-8.54641
目	-8.55176
法性	-8.5551
風	-8.55982
尚	-8.56057
邪見	-8.56175
一乘	-8.56407
則有	-8.56485
有法	-8.56485
無別	-8.56756
謂之	-8.56969
據	-8.57019
應有	-8.57138
三相	-8.57249
之人	-8.57467
亦如是	-8.57474
足	-8.57511
集	-8.57692
真實	-8.57777
中有	-8.57791
報	-8.5807
明之	-8.58681
不空	-8.58724
靜	-8.58863
有二種	-8.59224
無二	-8.59238
無礙	-8.59328
去者	-8.59494
墮	-8.59502
並是	-8.5956
圓	-8.59868
冥	-8.6003
不取	-8.6013
解云	-8.6017
何有	-8.60395
體用	-8.60431
去來	-8.60485
而生	-8.60563
亦得	-8.60794
歎	-8.61023
況	-8.61047
平等	-8.61318
無窮	-8.61464
偈說	-8.61466
大小	-8.62048
佛果	-8.62227
一法	-8.62247
即有	-8.62297
之心	-8.62428
益	-8.62501
清淨	-8.62552
不離	-8.62852
趣	-8.62896
現見	-8.62961
第一義	-8.63053
而言	-8.63602
所以然者	-8.63929
年	-8.63946
三種	-8.6408
真如	-8.64779
尋	-8.65071
亦名	-8.65277
國	-8.65297
易	-8.65537
四諦	-8.65636
界	-8.65757
先有	-8.65867
若是	-8.65897
罪	-8.65946
同時	-8.66097
故說	-8.66311
如論	-8.66772
自然	-8.66964
未生	-8.67114
故經云	-8.6727
佛法	-8.67343
互	-8.67404
譬	-8.67463
安	-8.67703
遷	-8.67711
近	-8.67819
下第二	-8.67922
翻	-8.68191
四者	-8.68487
萬法	-8.68488
殊	-8.68503
虛妄	-8.68636
為體	-8.69001
亡	-8.69174
正破	-8.69183
不住	-8.69391
猶如	-8.69518
雖有	-8.69543
功德	-8.69709
之言	-8.69867
不說	-8.69872
周	-8.70022
述	-8.70058
有三	-8.70245
種	-8.70309
伏	-8.70935
畢竟空	-8.71211
所以者何	-8.71422
正觀	-8.71515
傳	-8.71546
聖心	-8.71797
如偈	-8.71838
迹	-8.7186
善惡	-8.72152
序	-8.72235
無異	-8.72264
不定	-8.72284
縱	-8.72572
十地	-8.72574
福	-8.7286
極微	-8.72982
牛	-8.72984
復有	-8.73273
當知	-8.73567
徵	-8.73772
自在	-8.7441
眼見	-8.75025
藏	-8.75147
過失	-8.75171
部	-8.75199
四大	-8.75261
既有	-8.75393
品云	-8.75685
第一義諦	-8.75883
所成	-8.75894
借	-8.75955
汝言	-8.76525
宜	-8.76794
若不	-8.77027
老	-8.77434
名相	-8.77528
但是	-8.77878
機	-8.78026
為有	-8.7813
所生	-8.78343
薪	-8.78429
為二	-8.78751
戒	-8.78898
有性	-8.79065
致	-8.79289
敘	-8.79385
一體	-8.79405
不出	-8.79424
若以	-8.7981
無所有	-8.8002
句	-8.80225
牒	-8.80226
出世	-8.80302
去法	-8.80351
斷常	-8.80367
許	-8.8063
不起	-8.80769
切	-8.80917
具足	-8.81272
無名	-8.81456
常無常	-8.81556
不作	-8.81705
金	-8.8172
是無	-8.81751
所知	-8.81862
自有	-8.8231
書	-8.82355
之中	-8.83171
大品	-8.83256
隱	-8.83633
乖	-8.83904
有體	-8.84129
月	-8.8416
食	-8.84253
世俗	-8.84264
新	-8.84376
經中	-8.84397
頌	-8.84398
本有	-8.84577
為一	-8.84646
唯有	-8.84719
短	-8.84768
如何	-8.84859
卷	-8.84885
□	-8.84917
緣生	-8.85082
權實	-8.8514
是事不然	-8.8519
不可說	-8.8545
高	-8.85576
闇	-8.85747
佛說	-8.86175
像	-8.8621
釋之	-8.86354
然後	-8.8646
實無	-8.86541
何得	-8.86708
治	-8.86844
美	-8.86954
馬	-8.87009
以此	-8.87086
第五	-8.87089
雖復	-8.87247
光	-8.87436
如前	-8.87473
▁二	-8.87489
因中	-8.87633
章	-8.87896
蓋	-8.88075
二義	-8.88409
非真	-8.88439
次明	-8.88654
願	-8.89047
云何有	-8.89235
是名	-8.89296
自他	-8.89299
何異	-8.89422
土	-8.8947
驗	-8.89477
燒	-8.89499
十二因緣	-8.8959
恒	-8.89667
定有	-8.89814
名之為	-8.89879
究竟	-8.89957
無不	-8.9005
緣起	-8.90052
法師	-8.90445
毘曇	-8.90473
恐	-8.90578
i	-8.90647
心境	-8.90973
相應	-8.91045
萬	-8.91321
又如	-8.91419
齊	-8.91623
m	-8.9183
寄	-8.91883
體相	-8.91883
提婆	-8.92399
悲	-8.92435
此明	-8.92469
有生	-8.92489
淨名	-8.92501
聚	-8.92501
命	-8.92502
根本	-8.92607
而無	-8.9274
法華	-8.92858
無生滅	-8.92896
:>	-8.93024
<	-8.93028
g	-8.93029
此文	-8.93296
談	-8.93343
河	-8.93475
上半	-8.93555
門破	-8.93563
有餘	-8.93726
意云	-8.94206
暗	-8.94339
真空	-8.94412
好	-8.94494
前明	-8.9457
長行	-8.94721
手	-8.95268
兼	-8.95596
有所	-8.95776
百論	-8.95789
運	-8.95794
既是	-8.95858
音	-8.95861
不失	-8.95884
此言	-8.95978
此三	-8.96024
說法	-8.96077
肇公	-8.96084
破之	-8.96255
判	-8.96377
有相	-8.96438
智者	-8.96491
一念	-8.96554
什	-8.96814
契	-8.96981
亦可	-8.972
微塵	-8.97202
二法	-8.97351
伹	-8.97402
問何故	-8.97533
其義	-8.97607
之所	-8.97966
立義	-8.98179
實智	-8.98193
吾	-8.9847
相即	-8.98474
世尊	-8.9857
簡	-8.98724
無餘	-8.98856
居	-8.98911
之名	-8.99073
不在	-8.99188
:「	-8.9935
為緣	-8.99443
然則	-8.99863
是無常	-9.00118
比	-9.00247
則非	-9.00289
莫	-9.00344
今謂	-9.00635
此亦不然	-9.00801
燃	-9.00857
論之	-9.00867
為義	-9.01211
眼等	-9.01214
若離	-9.01301
公	-9.01685
不名	-9.01688
正因	-9.01746
巧	-9.01774
大意	-9.01808
生者	-9.01844
之相	-9.01849
於諦	-9.01864
愚	-9.02036
親	-9.02377
無作	-9.02512
即真	-9.02723
忘	-9.02891
剎那	-9.02987
不須	-9.03117
滿	-9.0321
功	-9.03342
一分	-9.03348
若法	-9.03361
》	-9.03365
口	-9.03572
有此	-9.03655
此謂	-9.03722
白	-9.03734
所立	-9.03745
四緣	-9.03787
竝	-9.0384
金剛	-9.03978
海	-9.03985
不待	-9.041
言說	-9.04326
無自性	-9.04403
必有	-9.04408
都無	-9.04503
散	-9.04505
舊	-9.0487
說有	-9.04904
豈非	-9.0498
折	-9.0502
都	-9.05138
經論	-9.05394
一云	-9.05594
能見	-9.05624
其體	-9.05636
名字	-9.05672
為是	-9.05953
無法	-9.06188
無實	-9.06192
備	-9.06233
味	-9.06552
非實	-9.06576
藥	-9.06613
百	-9.06621
有人言	-9.06637
以無	-9.06754
旨	-9.06831
所執	-9.06834
瓶等	-9.07177
此意	-9.07195
何所	-9.07413
一一	-9.07431
不動	-9.07453
半	-9.07509
無住	-9.0753
僧	-9.07583
柱	-9.07857
不無	-9.07933
主	-9.08074
不受	-9.08259
種子	-9.08545
權智	-9.08844
果報	-9.08982
劫	-9.09025
是非	-9.09133
此下	-9.0921
異者	-9.09256
頭	-9.09474
謂有	-9.0954
論者	-9.09771
故非	-9.09815
成就	-9.09841
不為	-9.09907
樹	-9.1
無自體	-9.10165
則不	-9.10338
列	-9.10347
續	-9.10443
我見	-9.10661
初明	-9.10671
華	-9.10693
故不	-9.10739
同異	-9.10778
千	-9.10788
一義	-9.10864
眾緣	-9.10964
三論	-9.11092
退	-9.11487
此品	-9.11615
泥	-9.1196
無得	-9.1211
久	-9.12135
初句	-9.12261
但有	-9.12326
辭	-9.12489
是一	-9.12565
始終	-9.1257
超	-9.12861
奪	-9.13074
秤	-9.1319
虗空	-9.13361
由此	-9.13579
弟子	-9.1364
本來	-9.13691
何以	-9.13719
脩	-9.13733
比量	-9.13841
造論	-9.13895
則知	-9.14139
焉	-9.14429
此說	-9.14737
羅	-9.14852
所得	-9.15055
持	-9.151
成實	-9.152
未曾	-9.15289
故次頌曰	-9.15294
猶是	-9.15536
所行	-9.15649
空故	-9.15689
今破	-9.16077
正明	-9.16228
非有無	-9.16267
第六	-9.16293
為實	-9.16308
懷	-9.16343
到	-9.1661
四論	-9.16731
意也	-9.16756
進	-9.16761
之道	-9.16768
熱	-9.16813
幻	-9.16828
應無	-9.16959
三時	-9.17008
乃是	-9.17027
異相	-9.17134
相似	-9.17508
罪福	-9.17531
思惟	-9.17694
得成	-9.17741
如是等	-9.17774
能破	-9.17822
立名	-9.1792
所有	-9.17979
不識	-9.18048
有二義	-9.18074
七地	-9.18096
陳	-9.18162
諸法實相	-9.18372
感應	-9.18576
無漏	-9.18761
皆有	-9.18864
師云	-9.18904
功能	-9.19081
辯	-9.1916
乳	-9.19219
見者	-9.19609
以其	-9.1962
以明	-9.19745
了因	-9.19812
老死	-9.20093
不斷	-9.20403
衣	-9.20411
蘊	-9.20486
沒	-9.20593
謬	-9.20612
不爾	-9.20615
作用	-9.20694
所破	-9.2073
礙	-9.20764
譬喻	-9.20886
無始	-9.21149
之用	-9.21157
法中	-9.21162
經說	-9.21217
於此	-9.21297
初地	-9.21298
言有	-9.21432
覆	-9.21538
中間	-9.21719
不可見	-9.2179
有時	-9.21867
不淨	-9.21892
寶	-9.22077
非但	-9.22099
一人	-9.22159
一心	-9.22178
俱無	-9.22254
有人	-9.22257
關	-9.22343
有三種	-9.22355
而得	-9.22548
亦云	-9.22597
之時	-9.22634
諸見	-9.22766
漸	-9.2287
支	-9.22944
聽	-9.22987
生法	-9.22987
則應	-9.23096
蓋是	-9.23117
破其	-9.23163
隨緣	-9.2329
之體	-9.23308
不一	-9.23327
能知	-9.23509
總別	-9.23599
下第三	-9.2365
異也	-9.23723
是實	-9.23727
是有為	-9.23881
二相	-9.23888
全	-9.23933
自相	-9.24064
而非	-9.24101
決	-9.24137
和	-9.24288
云何言	-9.2434
或言	-9.24389
非緣	-9.24497
今言	-9.2462
三藏	-9.24682
吉	-9.24768
一切諸法	-9.24852
不破	-9.24902
二門	-9.24915
為宗	-9.25037
之意	-9.25155
欲令	-9.2517
初偈	-9.25176
請	-9.25359
呵	-9.25434
詮	-9.25478
不自	-9.25493
六道	-9.25532
收	-9.25585
長短	-9.25895
被	-9.25975
敬	-9.26101
清	-9.2613
▁初	-9.26258
癡	-9.26406
然此	-9.26406
義不然	-9.26482
何處	-9.26666
忍	-9.26822
滯	-9.26998
數論	-9.27321
雜	-9.2789
成立	-9.27903
非謂	-9.27986
教諦	-9.28005
氣	-9.28098
中無	-9.281
各有	-9.28173
或有	-9.28361
此之	-9.28397
非一	-9.28562
是事	-9.28817
大悲	-9.28928
問答	-9.29172
無邊	-9.29472
西	-9.29545
有為法	-9.29638
開善	-9.29647
肇師	-9.29659
聖智	-9.2973
有知	-9.29753
固	-9.29764
亂	-9.2985
傍	-9.30158
應知	-9.30512
又若	-9.30868
含	-9.3105
可燃	-9.31051
不解	-9.31053
不信	-9.31141
三寶	-9.31394
轉變	-9.31421
甚深	-9.31544
妄想	-9.31941
源	-9.3198
執有	-9.32081
上來	-9.32093
異故	-9.3215
莊嚴	-9.32252
觀察	-9.32312
斥	-9.32376
無體故	-9.32435
有我	-9.32452
畢竟	-9.32551
次破	-9.32619
三昧	-9.32808
橫	-9.32817
東	-9.33095
淺	-9.33138
厭	-9.33182
損	-9.33266
非常	-9.33451
幾	-9.33605
融	-9.33607
無也	-9.3414
為異	-9.34177
器	-9.34246
設	-9.34252
此云	-9.34533
意謂	-9.34554
以是故	-9.34703
之智	-9.34812
母	-9.34884
審	-9.34985
增	-9.34994
所緣	-9.35031
可有	-9.35148
有果	-9.35302
甚	-9.35348
精	-9.35771
不以	-9.35937
異法	-9.36026
印	-9.36161
我今	-9.36239
章門	-9.36452
已生	-9.36614
言無	-9.36639
累	-9.36949
皆空	-9.36968
木	-9.37012
題	-9.37033
密	-9.3705
成佛	-9.37073
有因	-9.37203
非因非果	-9.37246
之境	-9.37259
苦樂	-9.3737
於中	-9.3738
亦有亦無	-9.37434
今此	-9.37675
故是	-9.37709
即知	-9.37833
廢	-9.38101
香	-9.38137
彼云	-9.38149
領	-9.38195
論文	-9.38196
法者	-9.38294
差	-9.38324
文二	-9.38375
滅度	-9.38486
破邪	-9.38545
生相	-9.38626
無果	-9.38689
已有	-9.38854
不真	-9.38891
如彼	-9.38892
託	-9.38898
小乘人	-9.38903
動靜	-9.38928
四種	-9.3893
不盡	-9.39121
釋迦	-9.39222
《	-9.39442
是亦不然	-9.3946
如人	-9.39475
中說	-9.39628
不實	-9.39909
得道	-9.40042
前云	-9.40166
生起	-9.40319
而起	-9.40452
滅時	-9.40472
之流	-9.40544
勝義	-9.40704
斷滅	-9.40731
所起	-9.40903
自生	-9.40944
一往	-9.40984
亦如	-9.41103
生於	-9.41131
得失	-9.41435
假有	-9.41532
不善	-9.41682
所取	-9.41698
遇	-9.41742
而說	-9.41745
屈	-9.41771
不從	-9.41933
物體	-9.4196
有見	-9.42049
凡聖	-9.42226
成論	-9.42244
用也	-9.42311
說空	-9.42332
有得	-9.425
□□	-9.42531
謗	-9.42653
難也	-9.42708
不言	-9.42796
而今	-9.42808
守	-9.42819
不變	-9.42839
往來	-9.42892
跡	-9.42982
何況	-9.43165
實法	-9.43206
第七	-9.43444
鑒	-9.43508
不來	-9.43948
人天	-9.44007
輪	-9.44177
金剛心	-9.44201
那	-9.44218
如其	-9.44289
終不	-9.44324
永	-9.44385
不失法	-9.44415
不遍	-9.44479
盛	-9.44594
外人言	-9.44699
父	-9.44755
強	-9.44815
爾時	-9.44921
無心	-9.44933
為無	-9.45066
非色	-9.45083
斷見	-9.45136
貪	-9.45309
十方	-9.45327
謝	-9.45501
理教	-9.45644
故能	-9.4565
施設	-9.45833
利益	-9.45845
不了	-9.4586
勿	-9.45906
路	-9.45918
最後	-9.45961
酪	-9.45991
僧佉	-9.46322
此釋	-9.46331
為真	-9.46587
相對	-9.46603
正理	-9.46617
二見	-9.46759
所攝	-9.46761
拔	-9.46794
以是義故	-9.47144
平	-9.47169
可以	-9.47288
最	-9.47346
論中	-9.47393
經曰	-9.47522
廣說	-9.47604
正是	-9.477
質	-9.47877
返	-9.47911
去時	-9.48131
一向	-9.48284
為破	-9.4837
相生	-9.48375
今欲	-9.48527
有名	-9.48618
悲心	-9.48694
能作	-9.48716
異於	-9.48719
得涅槃	-9.48723
禮	-9.48768
釋論	-9.48796
為本	-9.49048
太	-9.49283
竪	-9.4934
夢	-9.4947
勝義諦中	-9.49823
曾	-9.49943
解釋	-9.50022
首	-9.50073
不可以	-9.50185
過故	-9.50345
布	-9.50388
亦不成	-9.50448
問若	-9.50517
生生	-9.50585
泯	-9.50693
可解	-9.50876
不相	-9.50971
空義	-9.51045
任	-9.51049
何謂	-9.51092
可相	-9.51102
導	-9.51189
所明	-9.51381
是法	-9.51457
又二	-9.51457
前破	-9.51487
之教	-9.51685
空者	-9.51709
不去	-9.51787
第二偈	-9.51792
有為無為	-9.51938
染者	-9.51955
既云	-9.52035
幽	-9.52083
舍	-9.52113
無記	-9.52187
未得	-9.52239
并	-9.52269
不捨	-9.52314
於彼	-9.52335
疾	-9.52394
生已	-9.52521
當體	-9.52585
號	-9.5262
諸有	-9.52643
第八	-9.52699
不有有	-9.52718
若見	-9.52758
車	-9.52857
大涅槃	-9.52859
對治	-9.531
頓	-9.53111
阿羅漢	-9.53207
林	-9.53211
稟	-9.53272
非實有	-9.53281
彌	-9.53289
影	-9.53408
豈不	-9.53468
五者	-9.5358
智度論云	-9.53648
已滅	-9.53724
際	-9.53807
斷惑	-9.53965
鳥	-9.5416
是中	-9.54267
不合	-9.54359
城	-9.54374
脫	-9.54403
萬行	-9.54409
此語	-9.54473
今以	-9.54569
破外道	-9.54796
引經	-9.54997
靈	-9.55239
一句	-9.55248
但明	-9.55264
及以	-9.55329
應如	-9.55381
改	-9.55462
芽	-9.5547
棄	-9.55515
之本	-9.5555
得解脫	-9.55587
善根	-9.55593
四相	-9.55664
詺	-9.5569
正道	-9.55708
法空	-9.55908
常有	-9.55961
法界	-9.55987
自作	-9.5612
世界	-9.56229
世人	-9.56265
如實	-9.56316
是空	-9.56333
故得	-9.56505
無色	-9.5653
無分別	-9.56561
復次若	-9.56594
空等	-9.56602
此偈	-9.56629
是果	-9.56636
放光	-9.56658
文云	-9.5668
牙	-9.5669
此亦	-9.56819
樂等	-9.56838
般若波羅蜜	-9.56858
次釋	-9.56875
不許	-9.56906
云云	-9.56942
寧	-9.56977
不因	-9.5705
問若爾	-9.57053
明無	-9.57073
人也	-9.57135
之與	-9.57152
諸根	-9.57193
女	-9.57286
佛言	-9.57351
無用	-9.57568
為當	-9.57585
阿	-9.57766
略云	-9.57773
未盡	-9.57793
遊	-9.57796
珠	-9.578
患	-9.5795
大士	-9.58004
是假	-9.58063
有過	-9.58066
義不成	-9.58092
性相	-9.58097
體性	-9.58143
注	-9.58204
弘	-9.58297
真理	-9.5842
能照	-9.58475
釋成	-9.5853
不思議	-9.5853
一切智	-9.58601
于	-9.58654
從緣生	-9.58803
之有	-9.58808
尊	-9.5883
記	-9.58945
但以	-9.59011
次第緣	-9.59032
即空	-9.59063
羅漢	-9.59111
理內	-9.59138
破也	-9.59173
汝今	-9.59179
修行	-9.59205
佛教	-9.59209
中假	-9.59232
出家	-9.59321
詳	-9.59339
元	-9.59369
見有	-9.59382
是人	-9.59621
有其	-9.59682
有分	-9.59728
現量	-9.59773
南	-9.59816
云何名	-9.5993
不壞	-9.59945
無差別	-9.60078
勸	-9.60141
二慧	-9.602
汝說	-9.60357
途	-9.60389
昧	-9.60408
上明	-9.60797
變異	-9.60846
應是	-9.60934
龍	-9.61055
於世諦中	-9.61076
此人	-9.61091
秦王	-9.61303
偽	-9.61316
注云	-9.61477
後時	-9.61484
己	-9.61557
方等	-9.61678
既其	-9.61685
是世諦	-9.61807
作業	-9.62033
禪	-9.62153
因緣故	-9.62177
初二句	-9.62304
受者	-9.62336
令其	-9.62511
同喻	-9.62515
彰	-9.62554
稱為	-9.62567
因故	-9.62597
諸佛菩薩	-9.62621
故今	-9.62702
賢	-9.62769
色心	-9.62784
理外	-9.62802
二俱	-9.62886
更無	-9.6297
為欲	-9.63212
變化	-9.63271
劣	-9.63531
發心	-9.6356
有何	-9.63583
古今	-9.63591
洗	-9.63609
則為	-9.63673
堅	-9.63745
生死涅槃	-9.63754
越	-9.63766
有四	-9.63823
云何得	-9.63885
而能	-9.63896
諍	-9.63905
成壞	-9.63936
容	-9.64306
之事	-9.64387
無物	-9.64407
波	-9.64445
因中無果	-9.64479
二云	-9.64502
摩訶衍	-9.64588
間	-9.64675
是因	-9.64688
誠	-9.64692
演	-9.64739
一切皆	-9.64756
之過	-9.6478
隔	-9.64873
雖無	-9.64948
雲	-9.64952
闕	-9.65186
皆無	-9.65252
豈有	-9.65408
前有	-9.65454
十一	-9.65554
只是	-9.65559
有一	-9.65568
無言	-9.65583
接	-9.65632
總非	-9.65652
定慧	-9.65699
何用	-9.65736
作因	-9.65738
所證	-9.65769
未起	-9.65788
緣會	-9.65875
五種	-9.65892
大品經	-9.66122
害	-9.66208
豈得	-9.66226
天竺	-9.66288
華嚴	-9.66304
此句	-9.66329
泥團	-9.6634
丈夫	-9.66363
節	-9.66374
宛然	-9.66413
神通	-9.66439
可生	-9.6656
不如	-9.66632
天地	-9.6664
迦葉	-9.66699
為正	-9.66735
何能	-9.66886
能起	-9.66898
法相	-9.6693
若人	-9.66967
先後	-9.67062
科	-9.67248
但為	-9.67255
誦	-9.67439
講	-9.67539
即非	-9.67656
撿	-9.67734
後有	-9.67759
因者	-9.67787
非因	-9.67807
不與	-9.67842
之外	-9.6795
善法	-9.67986
今問	-9.68063
之說	-9.68101
承	-9.6815
生果	-9.68153
聖教	-9.68402
曉	-9.68511
欲明	-9.68562
迴	-9.68562
言其	-9.68574
此破	-9.68581
難者	-9.68684
輕	-9.68733
釋云	-9.68948
之因	-9.69132
總相	-9.69224
第十	-9.69265
求之	-9.6931
以有	-9.69315
▁三	-9.69337
一切法空	-9.69388
不成故	-9.69432
即應	-9.69535
無見	-9.69555
群	-9.69653
始有	-9.69656
空華	-9.69657
之物	-9.69711
為果	-9.69733
五塵	-9.69794
一物	-9.69801
有情	-9.69827
仰	-9.69953
讀	-9.6998
為三	-9.70014
此乃	-9.70064
住相	-9.7012
取者	-9.7012
須菩提	-9.70185
炎	-9.70189
此法	-9.70241
薩婆多	-9.70264
義故	-9.70295
此復云何	-9.70571
其實	-9.70781
無分別智	-9.70795
別破	-9.70821
無間	-9.70852
穀	-9.70862
不有不無	-9.70869
為世諦	-9.70952
依他	-9.71023
觀行	-9.71056
相違故	-9.71065
招	-9.71093
此四	-9.71142
勢	-9.71199
石	-9.71236
明二諦	-9.71324
阿含	-9.71554
亦無有	-9.71632
行者	-9.7165
常見	-9.71707
不行	-9.71725
因中有果	-9.71787
難曰	-9.71903
遠離	-9.71904
法門	-9.71956
悟入	-9.72094
名曰	-9.72147
三假	-9.72203
制	-9.72342
展轉	-9.7237
之性	-9.72456
起時	-9.72528
端	-9.72557
數人	-9.72599
喜	-9.72606
加	-9.72622
勞	-9.72684
􂎥	-9.72699
劉公	-9.72724
義者	-9.72779
重破	-9.72976
殺	-9.7311
滅故	-9.73319
三句	-9.73367
而後	-9.73375
歡喜	-9.7348
破有	-9.7355
何等	-9.73574
三德	-9.7358
因義不成	-9.73633
偈為二	-9.73668
草木	-9.737
普	-9.73847
依止	-9.73887
性故	-9.7391
徧	-9.73988
等也	-9.74064
取相	-9.74124
經文	-9.74149
我無我	-9.74177
更有	-9.7419
又復	-9.74288
智度論	-9.74362
有五	-9.74395
亦復如是	-9.7442
別異	-9.74579
今就	-9.74637
既言	-9.7487
什師	-9.74945
具有	-9.75211
盲	-9.75243
必須	-9.7528
帝	-9.75291
縷	-9.75321
各各	-9.75354
是為	-9.75444
滅相	-9.75457
無復	-9.75505
總結	-9.75523
提	-9.75539
召	-9.75561
不覺	-9.75621
之功	-9.75736
等法	-9.75784
不絕	-9.75814
釋上	-9.75861
又汝	-9.7588
舍利弗	-9.75918
單	-9.75936
三法	-9.75961
不名為	-9.75965
空也	-9.76047
過去世	-9.76068
常法	-9.761
可說	-9.76209
破於	-9.76254
載	-9.7636
無過	-9.76374
見諦	-9.76585
有漏	-9.76607
假說	-9.76624
何物	-9.76704
如是說	-9.76713
悉皆	-9.76723
呼	-9.76862
婆羅門	-9.76866
觀智	-9.76919
適	-9.7693
其性	-9.76965
他性	-9.7697
惱	-9.77063
亦復	-9.77105
避	-9.77113
不得言	-9.77123
別相	-9.77198
又此	-9.77221
論師	-9.77229
流轉	-9.77229
第二明	-9.77482
即成	-9.7761
徒	-9.77628
以顯	-9.77684
是佛	-9.77692
論意	-9.77742
推求	-9.7782
非不	-9.77826
暫	-9.78007
定無	-9.78055
何則	-9.78066
既非	-9.78123
有四種	-9.78181
寺	-9.78209
疎	-9.78228
假實	-9.78611
初破	-9.78657
復有人言	-9.78677
理也	-9.78707
故下頌	-9.78756
斷煩惱	-9.78767
以不	-9.78903
不復	-9.78937
藉	-9.79051
建立	-9.79169
二人	-9.79239
」【	-9.79284
體也	-9.79314
番	-9.79384
不相應	-9.79417
何處有	-9.7945
下釋	-9.79472
逆	-9.79556
汝立	-9.79615
此理	-9.7962
摩	-9.79703
背	-9.79713
漚和	-9.79733
杖	-9.79811
一家	-9.79842
各異	-9.79858
又問	-9.79862
次句	-9.8002
若或	-9.8005
聖諦	-9.80115
無生無滅	-9.80142
秦	-9.80152
若就	-9.80237
之果	-9.80371
既不	-9.80455
此事	-9.80474
二不二	-9.80492
取著	-9.80494
積	-9.80523
而為	-9.80532
有生滅	-9.80563
大品云	-9.80581
相離	-9.80598
文字	-9.80658
而實	-9.80688
能相	-9.80728
青	-9.80731
畢竟無	-9.80974
鹹	-9.80995
句義	-9.81007
偈云	-9.81093
讚	-9.81101
天下	-9.81117
懸	-9.81183
大經	-9.81263
有瓶	-9.81266
沙門	-9.81271
起者	-9.81314
段	-9.81378
後二句	-9.81392
無能	-9.81411
唯一	-9.81436
偈言	-9.81438
佛經	-9.81464
緣因	-9.81513
則墮	-9.81578
至於	-9.81647
大論	-9.81699
布施	-9.81787
鏡	-9.82027
即為	-9.82028
故成	-9.82097
淺深	-9.82136
譯	-9.82181
莊子	-9.82204
二句	-9.82251
計有	-9.82259
緣緣	-9.82265
正見	-9.82273
從來	-9.82291
北	-9.82345
釋也	-9.824
有色	-9.82473
作此	-9.82475
因緣生	-9.82633
至人	-9.82669
免	-9.82682
若汝	-9.82698
相故	-9.82733
羅什	-9.82754
能取	-9.82774
迷悟	-9.82782
留	-9.82981
花	-9.83061
隨順	-9.83089
二空	-9.83135
欲得	-9.83205
中論云	-9.83251
還是	-9.83322
勤	-9.83369
三義	-9.83531
非諦	-9.83552
則失	-9.83581
俱有	-9.83646
不立	-9.83671
此等	-9.83734
本性	-9.8375
分位	-9.83782
無緣	-9.83947
念念	-9.83982
擬	-9.84003
不到	-9.84028
之異	-9.84035
日月	-9.84064
苟	-9.84149
是諦	-9.84189
熟	-9.84189
了知	-9.84311
身心	-9.84361
遮遣	-9.84367
是真	-9.84404
一相	-9.84485
有兩	-9.8459
不著	-9.84754
大乘人	-9.84893
士	-9.85209
十二門	-9.85239
豈是	-9.85293
義宗	-9.85321
三毒	-9.85448
名色	-9.85507
二名	-9.85555
比丘	-9.85607
義成	-9.85637
却	-9.85661
得名	-9.85718
眾經	-9.85755
教門	-9.85932
於空	-9.85981
欲界	-9.86045
「	-9.86059
二釋	-9.86068
果者	-9.86131
開善云	-9.86152
光明	-9.86321
可取	-9.86372
涅槃經云	-9.8651
無滅	-9.86587
若能	-9.86618
在於	-9.86681
二邊	-9.86756
先無	-9.8681
為成	-9.8688
一種	-9.86931
無人	-9.86994
少分	-9.87045
什公	-9.87082
法也	-9.87145
惑者	-9.87167
生故	-9.8718
:	-9.87334
未能	-9.87387
乞者	-9.87465
其相	-9.87467
不應有	-9.87483
明中道	-9.87498
證成	-9.87519
故須	-9.87557
力故	-9.87604
者不然	-9.87653
豈可	-9.87665
有佛性	-9.87678
前二	-9.87709
微妙	-9.8772
異性	-9.8777
何不	-9.87839
無從	-9.88056
是即	-9.88189
應身	-9.88275
燃可燃	-9.88295
歷	-9.88356
捲	-9.88389
猶未	-9.88486
若說	-9.88487
染法	-9.88669
濟	-9.8867
期	-9.88722
原	-9.88755
其心	-9.88756
條	-9.8877
該	-9.88824
婆	-9.88831
!	-9.88871
捉	-9.88907
因成	-9.88988
第九	-9.89045
資	-9.8907
護	-9.89072
此經	-9.89143
難云	-9.89186
為名	-9.89253
作法	-9.89377
問云何	-9.8941
落	-9.8949
即此	-9.89517
何須	-9.8959
此義云何	-9.89682
亦得言	-9.89816
言教	-9.89955
於無	-9.89984
諸師	-9.90007
合故	-9.90057
負	-9.9008
有為相	-9.90102
參	-9.90132
置	-9.90189
明義	-9.9024
之旨	-9.90247
不攝	-9.90285
清涼	-9.9035
夜	-9.90361
魔	-9.90428
六種	-9.90477
前問	-9.9054
不二而二	-9.90556
六地	-9.90619
經意	-9.9071
是故今明	-9.90797
六根	-9.90809
眼根	-9.90888
絕待	-9.909
傷	-9.9097
增長	-9.90988
異喻	-9.9104
應不	-9.91096
不可言	-9.91205
立宗	-9.91274
二破	-9.91279
那得	-9.91424
何名	-9.91565
一處	-9.91603
為諦	-9.91626
共相	-9.91644
服	-9.91647
唱	-9.91676
為常	-9.91678
逐	-9.9171
可謂	-9.91808
準	-9.91811
亦不得	-9.91873
未必	-9.91896
疊	-9.91939
佛道	-9.91986
略說	-9.92024
未甞	-9.92113
從緣	-9.9218
良由	-9.92182
是無為	-9.92184
最勝	-9.9219
勝義諦	-9.92305
薪火	-9.9231
有用	-9.92335
畏	-9.92384
是涅槃	-9.92429
如來藏	-9.92434
異體	-9.92454
依此	-9.92588
若異	-9.92602
所相	-9.92793
已未	-9.92816
初牒	-9.92867
惠	-9.92907
通別	-9.92963
慈	-9.93117
為論	-9.93155
慮	-9.9319
皆悉	-9.93359
面	-9.93434
互相	-9.93451
泥洹	-9.93462
所造	-9.93465
如上	-9.93469
黑	-9.93535
徹	-9.93543
四門	-9.9357
現前	-9.93593
亦不然	-9.93699
定性	-9.93707
天親	-9.93778
便是	-9.93826
無上	-9.9386
共生	-9.93923
說言	-9.94279
能成	-9.94316
自宗	-9.94342
此非	-9.94417
一明	-9.94689
果體	-9.94692
無當	-9.94728
執著	-9.94818
為證	-9.94821
真常	-9.94839
鈍根	-9.94876
理事	-9.9488
問此	-9.949
習氣	-9.94921
偈本	-9.94996
所引	-9.95148
應化	-9.95172
統	-9.95191
果生	-9.95208
無去	-9.95224
競	-9.95259
前說	-9.95293
有所作	-9.95355
知有	-9.95367
諸菩薩	-9.9537
或說	-9.954
小生	-9.95499
物不遷	-9.95542
所解	-9.95583
過也	-9.95601
法華云	-9.95743
為真諦	-9.9587
若因	-9.95881
應當	-9.95956
生住滅	-9.95965
其人	-9.9602
若於	-9.96021
非瓶	-9.96087
亦同	-9.96148
六度	-9.96183
不至	-9.9624
色空	-9.96272
後世	-9.96295
下第四	-9.96304
立有	-9.96426
答云	-9.965
涅槃是	-9.96702
世出世	-9.96711
世俗諦	-9.96729
二十	-9.9673
中觀	-9.96804
貴	-9.96878
宿	-9.96931
喪	-9.96946
之見	-9.97007
角	-9.97041
見色	-9.97045
諸煩惱	-9.9707
為喻	-9.97079
青目	-9.97098
駁	-9.97102
二難	-9.97132
善男子	-9.97137
見空	-9.97199
鈍	-9.97211
世諦中	-9.97612
則成	-9.97616
外云	-9.97731
頂	-9.97871
肇	-9.97901
無定	-9.97903
既爾	-9.97914
六者	-9.97926
皆得	-9.9794
是故說	-9.97958
無起	-9.9797
第一義空	-9.97977
便謂	-9.98099
無形	-9.98129
軌	-9.98163
決定有	-9.98168
造作	-9.98193
臣	-9.98288
之緣	-9.9831
發起	-9.98356
廣破	-9.98376
亦不生	-9.98431
默	-9.98451
闡提	-9.98456
下半破	-9.98538
已去	-9.98564
鄣	-9.98575
責之	-9.98599
供養	-9.9872
繫	-9.98721
響	-9.98727
破他	-9.98799
得生	-9.98801
愚癡	-9.9882
真妄	-9.98879
慈悲	-9.98964
假名說	-9.98994
涅槃經	-9.99016
各別	-9.99028
未見	-9.99111
三結	-9.99152
開示	-9.99197
生等	-9.99204
不遷也	-9.99212
安立	-9.99394
以何	-9.99462
能令	-9.99496
論主破	-9.99498
即破	-9.99561
說之	-9.99623
三性	-9.99646
辟支佛	-9.99689
實義	-9.99734
陀	-9.99737
歲	-9.99775
是故當知	-9.998
下句	-9.99841
通達	-9.99907
諸相	-9.99923
二明	-9.9999
二果	-10.0005
謂無	-10.0015
微細	-10.0022
則不應	-10.0025
潛	-10.0027
連	-10.003
畢	-10.0037
速	-10.0038
底	-10.0041
而未	-10.0046
此有	-10.0048
出生	-10.0048
本無今有	-10.0052
福德	-10.0056
所用	-10.0058
前釋	-10.006
寂靜	-10.0069
大經云	-10.0086
究	-10.0101
餘二	-10.0143
於聖	-10.0144
如涅槃	-10.0148
起故	-10.0149
作是	-10.0155
彼此	-10.0165
一品	-10.0182
異義	-10.0191
晉	-10.02
壽	-10.021
十六	-10.0213
但破	-10.0215
時體	-10.0217
毀	-10.0219
大有	-10.0223
地等	-10.0224
此名	-10.0228
若一	-10.023
淨土	-10.0236
後明	-10.0269
滅者	-10.027
十住	-10.0273
令悟	-10.0274
不必	-10.0274
所照	-10.0278
有實	-10.0279
階	-10.0283
應生	-10.0287
智也	-10.0292
為涅槃	-10.0294
垢	-10.0298
如說	-10.03
序云	-10.0311
不達	-10.0325
符	-10.0326
汝等	-10.0327
令人	-10.0335
有心	-10.0339
何時	-10.0346
明於	-10.0354
第	-10.0361
為得	-10.0366
調達	-10.037
相可相	-10.0371
而成	-10.0387
有物	-10.039
麤	-10.0398
得果	-10.0408
夷	-10.0412
不出不在	-10.042
以成	-10.0421
涉	-10.0422
二論	-10.0425
無智	-10.0427
第二句	-10.0429
之文	-10.0431
為無為	-10.044
故說頌曰	-10.0469
有滅	-10.047
有住	-10.0472
大道	-10.0472
可破	-10.0477
三有	-10.0477
助	-10.0479
長行云	-10.0492
不足	-10.0493
以彼	-10.0501
經言	-10.0511
今既	-10.0511
可信	-10.0514
非真非俗	-10.0528
顯示	-10.0538
前中	-10.0542
釋上半	-10.0543
二因	-10.0549
為我	-10.0557
若果	-10.0558
同體	-10.0568
雨	-10.0568
伴	-10.0573
欣	-10.0575
沙	-10.0582
諸經	-10.0583
大生	-10.0595
湛然	-10.0606
今當	-10.0627
妙有	-10.063
不一不異	-10.0632
他作	-10.0634
上云	-10.0638
一切法皆	-10.0649
是故無	-10.0655
而巳	-10.0657
遺	-10.0658
相因	-10.066
如虛空	-10.0663
能為	-10.0666
道也	-10.0667
如幻	-10.0681
見佛	-10.0681
何由	-10.0686
華嚴云	-10.0688
為空	-10.069
諍論	-10.0692
應名	-10.0694
若彼	-10.0702
為正因	-10.0707
猶有	-10.0709
牒上	-10.071
兔角	-10.0724
不能自	-10.0735
大師	-10.0736
復何	-10.0737
結成	-10.074
今更	-10.0741
說為	-10.0742
君	-10.0745
淵	-10.0754
如燈	-10.0755
登	-10.0766
答言	-10.0768
正性	-10.077
室	-10.0771
舌	-10.0775
不通	-10.0777
准	-10.0778
宅	-10.0779
防	-10.078
與彼	-10.078
理智	-10.0781
塞	-10.0784
仍	-10.0787
老子云	-10.0787
的	-10.0788
進退	-10.0794
三門	-10.0795
為境	-10.0795
心也	-10.0802
一道	-10.0804
若汝意謂	-10.0804
變易	-10.081
不斷不常	-10.0815
由是	-10.0815
體一	-10.0825
知者	-10.0826
不相違	-10.083
不證	-10.0838
所計	-10.0842
諸部	-10.0845
此難	-10.0846
正義	-10.0854
利根	-10.0859
志	-10.0865
果果	-10.0872
中實	-10.088
皆應	-10.0886
不當	-10.0892
見法	-10.0904
才	-10.0905
緣有	-10.0912
是因緣	-10.0921
皆不成	-10.0927
次偈	-10.093
破外	-10.0932
我體	-10.0932
御	-10.0933
其所	-10.0934
則無有	-10.0935
財	-10.0936
訓	-10.0951
楞伽	-10.0951
移	-10.0951
功用	-10.0953
二別	-10.0953
陽	-10.0955
江	-10.0962
勉	-10.0969
持戒	-10.0972
獲	-10.0976
不可思議	-10.0984
不明	-10.0987
士夫	-10.0988
真智	-10.0989
兩關	-10.1
顯現	-10.1008
入涅槃	-10.1011
說名	-10.1012
佛菩薩	-10.1014
青等	-10.1018
修習	-10.102
之辭	-10.1022
非見	-10.1023
神力	-10.1023
建	-10.1048
亦空	-10.1072
取捨	-10.1084
自上已來	-10.1086
本末	-10.1088
無所依	-10.1089
今云	-10.1089
則不得	-10.1096
總破	-10.1112
無方	-10.1117
無為法	-10.1122
而彼	-10.1124
無盡	-10.1125
明佛性	-10.1126
皆同	-10.1126
方廣	-10.1128
三事	-10.1141
析	-10.1146
有不有	-10.115
之論	-10.115
未知	-10.1152
嚴	-10.1155
再	-10.1155
為他	-10.1156
皆不然	-10.1156
祖	-10.116
地前	-10.1161
揀	-10.1163
刀	-10.1166
已遮	-10.1168
飯	-10.1169
交	-10.1173
奪破	-10.1174
為四	-10.1181
若執	-10.1186
性實	-10.1193
受想行識	-10.1194
無性故	-10.12
言之	-10.1205
空花	-10.1209
舉頌	-10.121
方得	-10.1216
修道	-10.1216
或有人言	-10.122
妄執	-10.1227
所詮	-10.1227
體者	-10.1242
餘法	-10.1257
二體	-10.1259
為大	-10.1261
不違	-10.1262
聲等	-10.1268
俱是	-10.127
五百	-10.1272
何故不	-10.1278
苦諦	-10.1278
作佛	-10.1283
汝謂	-10.1285
不相離	-10.1287
又言	-10.1287
未滅	-10.1289
無名曰	-10.1299
亦不可得	-10.1299
分明	-10.1301
下半明	-10.1305
實際	-10.132
初中	-10.1323
玅	-10.1326
老氏	-10.1326
習因	-10.133
宗本	-10.1332
見聞	-10.1333
則不然	-10.1334
而復	-10.1335
九地	-10.1336
詰	-10.1337
起於	-10.1337
實也	-10.1341
其理	-10.135
不觀	-10.1351
名也	-10.1355
實是	-10.1355
相成	-10.1361
為方便	-10.1364
竭	-10.1366
貫	-10.1374
攝法	-10.1374
彈	-10.1376
諸外道	-10.1384
實性	-10.139
非常非無常	-10.139
頌遣言	-10.1396
上下	-10.1399
真應	-10.14
五性	-10.1405
善巧	-10.1406
如斯	-10.1407
同於	-10.1408
說無	-10.1412
六塵	-10.1423
於有	-10.1431
之力	-10.1433
別釋	-10.1446
身子	-10.1448
知見	-10.145
良	-10.1469
今是	-10.1475
行人	-10.1478
次答	-10.1482
性有	-10.1491
二意	-10.15
無瓶	-10.1502
文中	-10.1509
有解	-10.1511
今時	-10.1512
未來世	-10.1513
緣覺	-10.1515
本空	-10.1518
所受	-10.1519
是知	-10.1527
答此	-10.1533
故稱	-10.1535
舉體	-10.1536
能依	-10.1537
賓	-10.1541
未去	-10.1546
後釋	-10.1548
研	-10.155
百年	-10.155
始得	-10.1554
律	-10.1555
每	-10.1556
料簡	-10.156
是真諦	-10.1561
別故	-10.1562
我我所	-10.1564
坐	-10.1572
體無	-10.1574
我者	-10.1589
一切處	-10.1592
諸緣	-10.1599
八地	-10.1604
增上緣	-10.1611
此即是	-10.1624
因有	-10.1626
本迹	-10.1627
色即空	-10.163
可成	-10.1631
並觀	-10.1643
其名	-10.165
聞說	-10.1655
我所	-10.1659
高下	-10.1663
金心	-10.1666
不由	-10.1669
假立	-10.1669
是我	-10.167
同類	-10.168
廣大	-10.1687
有邊	-10.1688
前三	-10.1698
上破	-10.1703
為第一義諦	-10.1725
以破	-10.1725
之處	-10.1727
為難	-10.1728
之身	-10.1729
一雙	-10.1736
答前	-10.1738
有自體	-10.1741
諸法性空	-10.1746
之妙	-10.1752
是實有	-10.1753
文殊	-10.1757
感佛	-10.1758
後念	-10.1758
有所得人	-10.176
分之	-10.1761
法師云	-10.1762
張	-10.1762
代	-10.1772
草	-10.1773
摧	-10.1777
何得言	-10.1778
僧祇	-10.1781
故稱為	-10.1789
得之	-10.1798
非空非有	-10.1801
傳云	-10.1804
萬化	-10.1811
何意	-10.1819
今論	-10.182
寂照	-10.1822
中二	-10.1823
可言	-10.1826
能緣	-10.1827
之失	-10.1828
業果	-10.1838
過去未來	-10.1849
憂	-10.1853
不真空	-10.186
眼識	-10.1861
我說	-10.1863
所斷	-10.1876
初標	-10.1885
所為	-10.1893
妄心	-10.1902
破病	-10.1919
有多	-10.192
十八	-10.1924
人言	-10.1932
了悟	-10.1934
不依	-10.1937
對待	-10.194
今亦爾	-10.1962
縛解	-10.1963
因滅	-10.1964
涼	-10.1969
外有	-10.1971
教也	-10.1973
文中有	-10.1977
即離	-10.1981
索	-10.1983
彌勒	-10.1984
排	-10.1985
千年	-10.1985
智人	-10.1987
特	-10.1994
檢	-10.1998
實等	-10.1999
汎	-10.1999
或可	-10.2003
減	-10.2003
訖	-10.2003
更復	-10.2005
兩句	-10.2021
幻有	-10.2023
其過	-10.2028
之實	-10.203
就文為二	-10.2031
不能見	-10.2033
言象	-10.2067
不共	-10.2069
勝論	-10.2081
同一	-10.2081
因生	-10.2086
涅槃者	-10.2095
從此	-10.2096
是方便	-10.2098
無常故	-10.2102
故不得	-10.2107
能感	-10.2117
事理	-10.2118
甘露	-10.2118
初釋	-10.2118
值	-10.212
生住	-10.2122
說二諦	-10.2126
議	-10.2129
即生	-10.2132
步	-10.2151
亦非有	-10.2158
即彼	-10.2159
知無知	-10.2162
汝若	-10.2164
不墮	-10.2173
儒	-10.218
二乘人	-10.2186
空不空	-10.2187
典	-10.2192
化身	-10.2196
理實	-10.2199
姓	-10.22
意識	-10.2202
二世	-10.2203
狹	-10.2208
處處	-10.2209
曲	-10.2211
捨福	-10.2211
色法	-10.2217
若言其	-10.2218
正為	-10.2219
涅槃云	-10.2219
余	-10.2221
朋	-10.2226
今初	-10.2227
非二非不二	-10.2235
一切諸	-10.2235
為用	-10.2239
應物	-10.2243
釋名	-10.2252
心法	-10.2252
法說	-10.2261
此門	-10.2268
詞	-10.2273
同前	-10.2276
何以知	-10.2277
邪正	-10.2278
二於諦	-10.2279
初發心	-10.2285
是中道	-10.2285
如前說	-10.2289
不生滅	-10.2296
初章	-10.2301
難解	-10.232
為權	-10.2331
虛假	-10.2334
釋八不	-10.2347
心生	-10.2352
域	-10.2353
覩	-10.236
賢聖	-10.2362
住滅	-10.2368
犢子	-10.2379
意者	-10.2383
成者	-10.2389
不吉	-10.2396
而作	-10.2399
涉有	-10.2401
無餘涅槃	-10.2402
本始	-10.2405
授	-10.2406
體故	-10.2409
今且	-10.241
並皆	-10.2411
諸分	-10.2421
正意	-10.2424
附	-10.2425
幸	-10.2425
相者	-10.2427
鹽	-10.243
網	-10.2431
曠	-10.2434
作論	-10.2435
其言	-10.2437
破我	-10.2444
若無有	-10.2447
但說	-10.2451
因名	-10.2462
三偈	-10.2463
文也	-10.2464
上半牒	-10.2472
以理	-10.2473
不顛倒	-10.2476
有神	-10.2478
一破	-10.248
譬喻無體	-10.2481
於佛	-10.2483
得悟	-10.2487
之間	-10.2493
彼經	-10.2497
此土	-10.2501
果性	-10.2502
應非	-10.2504
亦不能	-10.2513
非物	-10.2521
中有二	-10.2522
有眾生	-10.2523
尚無	-10.2535
寂用	-10.2538
不可得故	-10.254
得益	-10.2543
為說	-10.2549
不可取	-10.2556
中道也	-10.2559
智用	-10.2562
中之	-10.2565
仙	-10.2566
雙結	-10.2566
復言	-10.2566
唯是	-10.2569
與他	-10.258
有名曰	-10.2589
住者	-10.2596
於眾生	-10.2602
明矣	-10.261
失於	-10.2611
若先	-10.2611
不能生	-10.2616
今昔	-10.2617
非正	-10.2619
二家	-10.2626
學者	-10.2629
智體	-10.263
應成	-10.2635
答上	-10.2645
大小乘	-10.2648
斷伏	-10.2648
梵志	-10.265
尼	-10.2652
無去來	-10.2654
消	-10.2655
一是	-10.2656
能生果	-10.2657
破有無	-10.2658
又初	-10.2663
是謂	-10.2665
本住	-10.267
不過	-10.2673
是真實	-10.2674
乃名	-10.2675
悉是	-10.2676
汝執	-10.2678
以見	-10.268
稟教	-10.2681
等諸	-10.2682
不常不斷	-10.2688
若知	-10.2693
經中說	-10.2694
初生	-10.2699
第四句	-10.2701
餘處	-10.2703
百非	-10.2705
從眾緣生	-10.2705
色陰	-10.2706
即便	-10.271
作者作業	-10.271
果起	-10.2715
長者	-10.2717
而立	-10.2717
法華經	-10.2723
能證	-10.2727
▁「	-10.2737
諸業	-10.2741
在後	-10.2741
宣	-10.2741
修多羅	-10.2745
亦應爾	-10.2747
非異	-10.2747
於凡	-10.2749
但言	-10.2749
無所不知	-10.2751
內有	-10.2753
處有	-10.2761
如夢	-10.2771
生耶	-10.2775
四時	-10.2776
果法	-10.2779
誰為	-10.2783
一名	-10.2785
定執	-10.2785
問云	-10.2823
四偈	-10.2823
無方便	-10.2824
於有無	-10.2825
。】	-10.2829
自心	-10.283
卷云	-10.283
此義不然	-10.2834
二關	-10.2834
豈能	-10.2835
一偈	-10.2841
離相	-10.2848
滅諦	-10.2849
有為空	-10.2851
有力	-10.2853
婆沙	-10.2862
遠公	-10.2866
教理	-10.2867
不應說	-10.2869
羣	-10.2871
父母	-10.2875
混	-10.2876
履	-10.288
即事	-10.288
兒	-10.2882
菩薩行	-10.2887
此無	-10.2887
正釋	-10.2888
茲	-10.289
本性空	-10.29
力能	-10.29
略明	-10.2902
等皆	-10.2904
賴	-10.2905
引證	-10.2905
嘖	-10.2908
時有	-10.2909
色即是空	-10.2917
知諸法	-10.2925
非唯	-10.2928
穢	-10.2933
前念	-10.2933
法喻	-10.2934
不可知	-10.2934
具云	-10.2934
亦不應	-10.2936
不欲	-10.2936
之無	-10.2944
中亦無	-10.2946
而知	-10.2957
龍樹菩薩	-10.2962
涅槃之道	-10.2966
敢	-10.2976
意在	-10.2987
方有	-10.2997
時方	-10.3004
汝宗	-10.3017
般若無知	-10.3025
一性	-10.3032
為眾生	-10.3036
亦非無	-10.3037
謂情	-10.3039
有作者	-10.3041
雖同	-10.3043
四見	-10.3045
儀	-10.3049
以何為	-10.3054
便成	-10.3056
之行	-10.3057
謂以	-10.3058
身見	-10.3059
餘物	-10.3059
由來	-10.306
難言	-10.306
性住	-10.3066
後句	-10.3068
內法	-10.3075
佛身	-10.3077
諸眾生	-10.3081
應如是	-10.3087
什法師	-10.3087
時分	-10.3092
地獄	-10.3093
實非	-10.3094
至理	-10.3095
相與	-10.3096
毛	-10.3096
不假	-10.3098
淡	-10.3111
示現	-10.3111
州	-10.3112
明了	-10.3113
正論	-10.3114
若爾者	-10.3115
因性	-10.3117
頃	-10.3119
蒲	-10.3122
遠法師	-10.3124
二諦義	-10.3125
一剎那	-10.313
煖	-10.313
鼻	-10.3131
肇法師	-10.3133
太虛	-10.3133
有差別	-10.3139
昇	-10.3139
信受	-10.314
如先	-10.314
括	-10.3141
次二句	-10.3142
木石	-10.3144
於他	-10.3145
心無	-10.3153
終日	-10.3154
之知	-10.3158
則同	-10.3161
菩薩思惟	-10.3161
即失	-10.3165
二教	-10.3165
一切物	-10.3168
非第一義	-10.3169
被破	-10.3174
於理	-10.3182
或謂	-10.3186
赤	-10.3188
或復	-10.3192
雖殊	-10.3194
繫縛	-10.3198
便有	-10.3199
障礙	-10.3201
舊云	-10.3206
妙存	-10.3214
合者	-10.3214
攝論	-10.3214
三業	-10.3221
入於	-10.3221
有二諦	-10.3222
至此	-10.3229
上句	-10.323
三身	-10.3234
三位	-10.3244
離有無	-10.3249
簡異	-10.3252
能說	-10.3254
於色	-10.327
於一	-10.3272
若依	-10.3273
法寶	-10.3275
自是	-10.3276
四法	-10.3278
論也	-10.3284
當時	-10.3285
傾	-10.3286
因此	-10.329
能滅	-10.3304
不和合	-10.3304
皆從	-10.3309
煩	-10.3317
不入	-10.3321
其中	-10.3324
正難	-10.3326
是二	-10.3329
諸陰	-10.3339
是能	-10.3342
慕	-10.3345
用之	-10.3345
還成	-10.3345
繩	-10.3346
此因	-10.3346
可滅	-10.3351
亦破	-10.3353
卦	-10.3357
初門	-10.3357
星	-10.3363
有非有	-10.3368
逼	-10.3373
巳上	-10.3373
瞋	-10.3376
油	-10.3376
魚	-10.338
局	-10.3381
檀	-10.3382
雙非	-10.3384
凡有	-10.3384
為顯此義	-10.3387
今謂不然	-10.3393
噵	-10.3393
東西	-10.3397
名為涅槃	-10.3398
為相	-10.3402
又前	-10.3404
絕名	-10.3407
之宗	-10.3412
了義	-10.3412
無窮過	-10.3413
非智	-10.3415
凡有二義	-10.3425
之病	-10.3443
或云	-10.3448
無執	-10.3448
現有	-10.3451
先已說	-10.3453
若有若無	-10.3456
從生	-10.3466
不常	-10.3474
所不能	-10.3485
正答	-10.3489
得菩提	-10.349
起信	-10.3491
開為	-10.3495
起滅	-10.3505
外道計	-10.3512
共有	-10.352
有三義	-10.3534
永滅	-10.3541
佛為	-10.3543
疏云	-10.3543
受用	-10.3544
強名	-10.3549
破立	-10.355
於緣	-10.3554
一諦	-10.3557
無身	-10.3564
今日	-10.357
兩義	-10.3571
即顯	-10.3575
若為	-10.3579
品初	-10.3583
空無	-10.3586
作此說	-10.3587
此約	-10.3592
長安	-10.3595
而云	-10.3606
詣	-10.3607
庶	-10.361
因不成	-10.3612
淨名經	-10.3612
不妨	-10.3618
照空	-10.362
尺	-10.3621
牽	-10.3626
咸	-10.3628
嘆	-10.3629
二事	-10.3629
一切時	-10.363
觀者	-10.3631
覓	-10.3631
有去	-10.3639
淨不淨	-10.3641
中觀論疏卷第	-10.3641
第三句	-10.3646
虛空等	-10.3655
破無	-10.3656
之情	-10.3659
非果	-10.366
得有	-10.3664
單假	-10.3664
承前	-10.3669
不及	-10.3676
破外人	-10.3677
如一	-10.3678
一身	-10.3679
離於	-10.368
是所	-10.3682
三明	-10.3684
無量劫	-10.3684
成故	-10.3693
芽等	-10.3703
覺慧	-10.3704
十善	-10.3706
第一明	-10.3706
五乘	-10.3707
為性	-10.3714
兩種	-10.3716
了達	-10.3716
十五	-10.3718
在因	-10.3728
執無	-10.3732
通論	-10.3734
便應	-10.3735
情塵	-10.3741
為對	-10.3741
有緣	-10.3745
文言	-10.3749
非道	-10.3754
斯論	-10.3754
唯有一	-10.3757
六入	-10.3762
父子	-10.3769
自在天	-10.3775
他人	-10.3779
則生	-10.3785
不成就	-10.3787
非知	-10.3792
作作者	-10.3793
為其	-10.3793
無知也	-10.3793
有去者	-10.3799
過患	-10.3803
時節	-10.3807
結破	-10.3809
愚者	-10.3818
來者	-10.382
名言	-10.3822
作是說	-10.3826
彼人	-10.3827
異耶	-10.3828
二偈	-10.383
十信	-10.3833
何為	-10.3845
已成	-10.3845
三十	-10.3845
道者	-10.3846
予	-10.3858
何等是	-10.3859
其事	-10.3861
飛	-10.3861
地論	-10.3863
愛見	-10.3863
餘人	-10.3864
三乘之	-10.3865
時無	-10.3866
沈	-10.3868
迦旃延	-10.3876
成瓶	-10.3878
初有	-10.3885
阿難	-10.3886
雖言	-10.3886
前難	-10.3888
若破	-10.3888
No	-10.3889
虗無	-10.3903
所表	-10.3904
常樂	-10.3919
顯正	-10.392
測	-10.3923
若作	-10.3932
七者	-10.3936
彼說	-10.3945
□□□	-10.3951
欲顯	-10.3952
實不	-10.3959
如文	-10.3961
知無	-10.3962
已來	-10.3963
與果	-10.3963
止遣	-10.3977
之內	-10.3979
名諦	-10.398
語言	-10.3983
豈曰	-10.3991
良以	-10.3995
即涅槃	-10.4006
行相	-10.401
智論	-10.4012
五句	-10.4017
兩偈	-10.4024
相望	-10.4024
之徒	-10.4025
既稱	-10.4031
寂滅相	-10.4033
太虗	-10.4036
雖然	-10.4036
真是	-10.404
不異者	-10.4047
能詮	-10.4054
亦異	-10.4055
假生	-10.4056
寧得	-10.4056
我亦	-10.4058
即前	-10.4065
四倒	-10.4068
後二	-10.4071
令眾生	-10.4075
佛所說	-10.4081
無煩惱	-10.4082
有礙	-10.4087
能斷	-10.4095
仁王經	-10.4099
一瓶	-10.4102
斷或	-10.4111
思議	-10.4112
色界	-10.4113
失二諦	-10.4115
證得	-10.4116
既不成	-10.4119
樞	-10.4122
受名	-10.4123
富	-10.4127
孔子	-10.4127
降	-10.4133
鹿	-10.4135
四依	-10.4137
寒	-10.4138
點	-10.4139
淪	-10.4141
畫	-10.4143
成論師	-10.4143
朗	-10.4145
赴	-10.4145
身根	-10.4146
試	-10.4147
方言	-10.4149
以喻	-10.4149
此顯	-10.4151
若諸法	-10.4154
麻	-10.4161
大論云	-10.4162
以果	-10.4165
牒外義	-10.4173
難測	-10.4177
是生	-10.4192
複中	-10.4194
下云	-10.4196
若未	-10.4197
善不善	-10.4201
解者	-10.4205
四聖諦	-10.4205
因緣品	-10.4206
初章名	-10.4207
要須	-10.4208
證真	-10.4209
名為中道	-10.4211
阿毘曇	-10.4212
二諦是	-10.4217
見佛性	-10.4219
若滅	-10.4221
破法	-10.4224
俱非	-10.4224
虗妄	-10.4232
緣果	-10.4233
有作	-10.4243
五根	-10.4244
何法	-10.4247
劫初	-10.4248
離色	-10.4252
觀空	-10.4254
所能	-10.4262
諸法空	-10.4271
咎	-10.4275
若此	-10.4276
為顯	-10.4276
體中	-10.4284
撥	-10.4284
於心	-10.4291
今還	-10.4293
一部	-10.4305
佛地	-10.4311
無畏	-10.4312
今文	-10.4317
自見	-10.432
不改	-10.4323
常義	-10.4335
色非	-10.434
若欲	-10.434
即不	-10.4343
此正	-10.4344
從緣起	-10.4344
受生	-10.4346
不即	-10.4351
解惑	-10.4352
生因	-10.4356
欲滅	-10.436
照有	-10.4364
察	-10.4364
心為	-10.4369
惡見	-10.4373
空解	-10.4378
顯理	-10.4379
斯則	-10.4384
遺民	-10.4385
無取	-10.4388
此上	-10.4389
封	-10.4392
○	-10.4393
皆名	-10.4395
視	-10.4396
忽	-10.44
奇	-10.4402
有如來	-10.4402
常樂我淨	-10.4403
衰	-10.4404
則一切	-10.4406
政	-10.4409
隱顯	-10.441
黃	-10.441
又釋	-10.4411
叡師	-10.4412
因緣和合	-10.4412
狀	-10.4415
促	-10.4418
考	-10.4419
為物	-10.4421
􂲹	-10.4421
男女	-10.4421
不應理	-10.4422
怪	-10.4423
緣合	-10.4432
下明	-10.4432
外人云	-10.4435
若約	-10.4435
躡前	-10.4436
名生	-10.4439
唯識	-10.4445
東方	-10.4449
莊子云	-10.4451
三釋	-10.4457
問何以知	-10.4457
非作	-10.4458
非有故	-10.4458
非心	-10.4459
為生	-10.4459
度眾生	-10.4462
十種	-10.4475
實教	-10.4477
今亦	-10.4479
三諦	-10.4479
四微	-10.448
遍計	-10.4483
非一向	-10.4484
二境	-10.4488
六情	-10.4488
心行	-10.4491
新故	-10.4493
根塵	-10.4496
比知	-10.4497
又彼	-10.4499
第一義中有	-10.4499
如有	-10.4501
有三段	-10.4522
妨	-10.4525
大方	-10.4535
假緣	-10.4541
目之為	-10.4546
未嘗	-10.4548
終是	-10.4563
應捨	-10.4564
止息	-10.4566
法起	-10.4567
云何是	-10.4568
於果	-10.4576
根境	-10.4577
貪等	-10.4581
未生時	-10.4581
為中	-10.4583
非有也	-10.4592
佛智	-10.4592
者第二	-10.4595
為門	-10.4606
義得成	-10.4609
能了	-10.4616
能立	-10.462
復云	-10.462
生義	-10.4626
無合	-10.463
皆不可得	-10.463
宛然而	-10.4635
是故今	-10.4635
正果	-10.4636
他家	-10.4648
自無	-10.465
出世間	-10.4653
緣性	-10.4653
非眾生	-10.4654
夏	-10.4662
出因	-10.4665
攝一切	-10.4666
專	-10.4672
外無	-10.4674
紛	-10.4674
世閒	-10.4678
術	-10.4678
上品	-10.4679
希	-10.468
谷	-10.468
知其	-10.4681
二用	-10.4683
友	-10.4685
非是有	-10.4686
充	-10.4688
熏	-10.4689
揚	-10.4691
為佛性	-10.4692
靡	-10.4692
文義	-10.4693
釋偈本	-10.4693
云何為	-10.4695
怖	-10.4695
疲	-10.4696
合成	-10.4701
後果	-10.4702
後心	-10.4702
增上	-10.4708
見諸法	-10.471
萬德	-10.4713
券	-10.4723
雖異	-10.4726
俱生	-10.473
如佛	-10.4733
方是	-10.4751
在前	-10.4753
波羅蜜	-10.4761
破性	-10.4767
之稱	-10.4767
七日	-10.4768
皆非	-10.4772
三十心	-10.4773
昔物	-10.4777
大乘經	-10.4778
未始	-10.478
所以不	-10.4781
即是涅槃	-10.4782
我宗	-10.4792
論釋	-10.4792
故今明	-10.4793
神知	-10.4795
能造	-10.4799
以辨	-10.4807
廣釋	-10.4816
聖道	-10.4822
作如是說	-10.4823
無可	-10.4825
共合	-10.4827
滅不滅	-10.4832
常情	-10.4832
道行	-10.4834
如先說	-10.4835
如前所說	-10.484
為非	-10.4843
六識	-10.4848
住處	-10.4849
而可	-10.4849
別明	-10.485
成實論	-10.4856
一切種智	-10.4857
應云	-10.4858
為眾生故	-10.4863
緣故	-10.4879
不化	-10.4882
愚人	-10.4883
三乘人	-10.4888
性也	-10.489
六十	-10.4891
無有實	-10.4892
則不可	-10.4893
若論	-10.4893
有合	-10.4895
真體	-10.4895
停	-10.4897
實慧	-10.4901
人見	-10.4905
方能	-10.4907
破云	-10.4908
於我	-10.4912
五蘊	-10.4915
來去	-10.4917
則不成	-10.4919
於法	-10.4922
扶	-10.4923
內道	-10.4925
分別者	-10.4927
三品	-10.4927
擊	-10.4929
於二諦	-10.4935
梁	-10.4941
大慧	-10.4944
憶	-10.4955
即以	-10.4957
滅法	-10.4957
博	-10.4959
大海	-10.4961
破空	-10.4961
此就	-10.4963
空無我	-10.4964
倍	-10.4965
陶師	-10.4971
損益	-10.4977
異名	-10.4977
舒	-10.4982
潤	-10.4983
呪	-10.4988
論初	-10.4989
是瓶	-10.4989
丈六	-10.4992
何必	-10.4994
五百部	-10.4999
般若燈論	-10.5001
果中	-10.5008
文三	-10.5008
染染者	-10.5009
境也	-10.5012
二分	-10.5019
後辨	-10.502
十力	-10.5025
通於	-10.5025
有病	-10.5031
略釋	-10.5032
第三明	-10.5032
一數	-10.5035
又有	-10.5045
有淺深	-10.5049
明其	-10.5051
彼宗	-10.5053
不悟	-10.5054
非有為	-10.5061
單中	-10.5064
而曰	-10.5066
真俗二諦	-10.5068
於物	-10.5069
為人	-10.5076
不乖	-10.5079
種類	-10.5081
略破	-10.5082
今大乘明義	-10.5082
寂也	-10.5086
無神	-10.5092
證有	-10.5092
佛語	-10.5093
不存	-10.5104
不生果	-10.5105
呵責	-10.5107
但應	-10.5108
無境	-10.5108
過去時	-10.5111
品中	-10.5113
虛妄分別	-10.5114
即名	-10.5117
若生	-10.5118
無自體故	-10.512
詮表	-10.5127
未曾有	-10.5128
不轉	-10.5128
明涅槃	-10.5131
此結	-10.5136
之前	-10.5136
出離	-10.5139
得於	-10.514
大小乘人	-10.5142
今略	-10.5145
慧眼	-10.5146
體非	-10.515
宗也	-10.5153
由彼	-10.5155
了別	-10.5157
等義	-10.5158
空寂	-10.516
故大品經	-10.5164
前偈	-10.5169
方為	-10.5171
無依	-10.5173
世諦中道	-10.5178
通破	-10.5179
非非	-10.5181
智斷	-10.5181
徵釋	-10.519
破常	-10.5193
四家	-10.5194
私	-10.5196
離諸	-10.5197
經明	-10.5198
尚不	-10.5199
萬有	-10.5205
即是中道	-10.5206
取其	-10.5213
上半明	-10.5213
於是	-10.5214
與我	-10.5216
本際	-10.5219
篇	-10.5222
有何過	-10.5222
心不	-10.523
果有	-10.523
非空	-10.5238
為佛	-10.5243
本生	-10.5244
真性	-10.5245
甞	-10.5246
今物	-10.5247
更生	-10.5248
大宗	-10.5249
恨	-10.5252
擇	-10.5253
釋經	-10.5254
寂然	-10.5258
絕四句	-10.526
寫	-10.5262
臨	-10.5266
浮	-10.5267
釋義	-10.5267
遍計所執	-10.5268
般涅槃	-10.527
能除	-10.527
佛滅度後	-10.5271
須陀洹	-10.5272
發生	-10.5273
財物	-10.5276
非涅槃	-10.5277
洞	-10.5279
能通	-10.528
因法	-10.5282
童子	-10.5283
住法	-10.5286
不俗	-10.5286
作如是言	-10.529
無象	-10.5292
懺悔	-10.5298
皆為	-10.5304
若許	-10.5307
彼岸	-10.531
周遍	-10.5311
真偽	-10.5311
動寂	-10.5316
破因緣	-10.5319
大等	-10.532
身口	-10.5327
不戲論	-10.5328
前文	-10.533
先破	-10.5331
最上	-10.5331
而常	-10.5332
例破	-10.5333
後破	-10.5334
覺知	-10.5336
非緣生	-10.5354
學人	-10.5358
此皆	-10.5364
無以	-10.5369
而來	-10.5369
非我	-10.5374
下第二明	-10.5381
如火	-10.5395
住時	-10.54
今但	-10.5402
汝義	-10.541
同歸	-10.541
天人	-10.5416
是第一義	-10.5418
初發	-10.5418
為因者	-10.5422
既同	-10.5426
略示	-10.5429
壞故	-10.5431
心體	-10.5438
非是無	-10.5438
聞之	-10.544
作緣	-10.5441
不能知	-10.5447
佛性者	-10.5452
神明	-10.5455
苦樂等	-10.5458
難意	-10.5459
故無有	-10.5459
縱破	-10.5465
並照	-10.5467
此為	-10.5467
起作	-10.5468
異見	-10.5471
亦言	-10.5474
開為二	-10.5479
今依	-10.5485
會通	-10.5488
巳下	-10.5489
等經	-10.5495
心數	-10.5496
天子	-10.5515
無有異	-10.5516
心中	-10.5516
未變	-10.5517
瓶體	-10.5518
心識	-10.5518
無生忍	-10.552
有無等	-10.5521
是故不應	-10.5521
如虗空	-10.5522
性空故	-10.5524
舊義	-10.5524
隣	-10.5526
妙契	-10.5531
後一	-10.5531
是義	-10.5533
辨之	-10.5536
遠近	-10.5537
復是	-10.5537
論宗	-10.5538
一生	-10.554
付	-10.554
苦集	-10.5545
果故	-10.5546
四絕	-10.5547
真一	-10.5555
迎	-10.5557
只是一	-10.5557
有成	-10.5557
慢	-10.556
客	-10.556
閑	-10.5563
愚夫	-10.5564
義中	-10.5565
鄙	-10.5568
拘	-10.5569
兵	-10.5569
澄	-10.557
來意	-10.5572
此空	-10.5572
垂	-10.5574
拂	-10.5575
無成	-10.5577
而已	-10.5579
哀	-10.5579
就初	-10.558
佗	-10.5582
故前	-10.5584
複假	-10.5585
如此等	-10.5586
玄旨	-10.5593
貪著	-10.5593
但見	-10.5593
拆	-10.5597
梨耶	-10.5598
獨存	-10.5601
若成	-10.5606
二俱不然	-10.5608
有定性	-10.5608
佛告	-10.5611
雖無而有	-10.5616
之難	-10.5617
精進	-10.5619
所燒	-10.5621
不燒	-10.5622
有業	-10.5623
身智	-10.563
前已	-10.5631
無際	-10.5632
顯事	-10.5633
之大	-10.5633
入空	-10.5636
四結	-10.5641
示之	-10.5645
若非	-10.5647
今說	-10.5647
而去	-10.565
是時	-10.565
生滅無生滅	-10.5655
非所	-10.5655
是俗	-10.5657
二諦者	-10.5662
兩教	-10.5666
應會	-10.5667
能發	-10.5668
世性	-10.5671
為所	-10.5673
何人	-10.5676
謂諸法	-10.5676
何得有	-10.5677
初心	-10.568
色等法	-10.5688
空色	-10.5692
標宗	-10.5701
見他	-10.5701
復次下	-10.5703
復次第一義中	-10.5705
昔人	-10.5706
第二破	-10.5708
易知	-10.5711
古人	-10.5711
所顯	-10.5715
應之	-10.5717
以觀	-10.5717
無常者	-10.5722
以來	-10.5722
自立	-10.5724
以通	-10.5724
釋前	-10.5729
之異名	-10.5732
論旨	-10.5736
撥無	-10.5738
證也	-10.5745
斷無	-10.5751
明有	-10.5751
非離	-10.5752
十二門論	-10.5759
利他	-10.576
有煩惱	-10.5775
因緣者	-10.5776
漏	-10.5778
可名	-10.5779
見等	-10.5779
結責	-10.5782
為瓶	-10.5783
有常	-10.5787
於後	-10.5797
等覺	-10.58
非俗	-10.5802
申佛	-10.5802
性地	-10.5802
義理	-10.5808
毫	-10.5817
觀色	-10.582
不礙	-10.5825
將欲	-10.5826
果地	-10.5831
所疑	-10.5832
皆由	-10.5833
五時	-10.5835
緣中	-10.5837
衛世	-10.5838
結使	-10.5845
已說	-10.5848
是故汝	-10.5849
所觀	-10.5852
同無	-10.5857
本不生	-10.5857
六法	-10.5858
所由	-10.586
今何故	-10.5863
西域	-10.5866
所化	-10.5868
謙	-10.587
非他	-10.587
於一切法	-10.5872
秦主	-10.5875
廣明	-10.5876
從他生	-10.5877
即能	-10.5878
非理	-10.5878
迦	-10.5879
有別	-10.588
苦行	-10.588
朝	-10.5881
調	-10.5882
譏	-10.5885
亦通	-10.5887
賊	-10.5887
純	-10.5888
正教	-10.5889
破邪顯正	-10.5891
鑑	-10.5892
預	-10.5895
撰	-10.5895
任運	-10.59
謂此	-10.5905
一切世間	-10.5907
二緣	-10.5913
善吉	-10.5915
內無	-10.5915
眾緣和合	-10.5916
權實二智	-10.5918
初後	-10.5921
是苦	-10.5922
所以有	-10.5923
說三	-10.5928
雖有而無	-10.5929
還復	-10.5929
歎曰	-10.5932
對上	-10.5938
中三	-10.5938
有所成	-10.5941
皆失	-10.5943
觀之	-10.595
更不	-10.595
厭離	-10.5951
有體無體	-10.5952
是俗諦	-10.5952
由有	-10.5955
非彼	-10.5957
念念滅	-10.596
道諦	-10.5961
因緣所生法	-10.5962
亦無體	-10.5962
引經證	-10.5964
頌中	-10.5965
亦復不	-10.5965
像法	-10.597
依二諦說法	-10.5971
肉	-10.5971
然彼	-10.5972
亦具	-10.5985
八者	-10.5985
般若之	-10.5992
救上	-10.5993
其本	-10.5998
於涅槃	-10.5998
門中	-10.6003
譬說	-10.6006
初敘	-10.6014
集諦	-10.6019
無名相	-10.6019
是虛妄	-10.6026
則違	-10.6026
空見	-10.6027
宗中	-10.603
未了	-10.603
頌曰	-10.6031
是一邊	-10.6031
是菩薩	-10.6032
得言	-10.6035
照用	-10.6047
即滅	-10.6048
未悟	-10.6049
之談	-10.6056
證涅槃	-10.6062
名體	-10.6063
言語	-10.6068
是故有	-10.6069
絕言	-10.6074
悲者	-10.6086
有身	-10.609
始生	-10.6095
夫論	-10.6099
是其	-10.6111
知會	-10.6119
非法	-10.6119
今取	-10.6122
若先有	-10.6123
假設	-10.6125
來也	-10.6128
無知者	-10.6132
果也	-10.6139
翻為	-10.6142
無非	-10.6145
即墮	-10.6153
頭足	-10.6157
去者去	-10.6157
一味	-10.6159
假人	-10.616
是理	-10.6161
竝是	-10.6179
故非有	-10.6181
報身	-10.6186
摩訶	-10.6187
同是	-10.6188
薄	-10.619
信解	-10.6194
馳	-10.6196
席	-10.6199
章云	-10.62
伐	-10.62
失也	-10.62
乾	-10.6201
右	-10.6202
恩	-10.6202
限	-10.6203
飲	-10.6203
為能	-10.6203
申正	-10.6204
似有	-10.6204
既破	-10.6204
第二科	-10.6205
梵	-10.621
諦智	-10.621
答中	-10.6211
束	-10.6218
大眾部	-10.6218
葉	-10.622
然即下	-10.6222
假俗	-10.6227
心心數法	-10.6227
非一非異	-10.6228
生公	-10.6228
二俱有過	-10.6228
有何咎	-10.6229
二十五諦	-10.6231
此中立驗	-10.6233
此心	-10.6234
有自體者	-10.6238
妙悟	-10.6238
而不知	-10.6241
非有非不有	-10.6242
若聞	-10.6243
為斷	-10.6243
是境	-10.6243
自起	-10.6243
我立	-10.6246
八倒	-10.6252
本自不生	-10.6252
瓶衣	-10.6254
我當	-10.6254
非因果	-10.6255
真諦中道	-10.6256
汝雖	-10.6258
次辨	-10.626
外國	-10.6261
有大	-10.6263
共成	-10.6264
十方諸佛	-10.6268
離五陰	-10.6268
如汝所說	-10.6278
若如是者	-10.628
泥中	-10.6281
都盡	-10.6295
無有我	-10.6296
成於	-10.6299
不例	-10.6301
如瓶	-10.6304
教化	-10.6305
共許	-10.6305
乃有	-10.6309
偈破	-10.6317
教意	-10.6317
問既	-10.6325
無所見	-10.6328
以知	-10.6329
已破	-10.633
非因緣	-10.6331
若得	-10.6342
不應生	-10.6344
過於	-10.6358
不滯	-10.6362
外別有	-10.6363
眾師	-10.6364
空空	-10.6375
相反	-10.6377
造化	-10.6377
提婆達多	-10.6384
隨眾生	-10.6385
妄見	-10.6387
應見	-10.6391
釋者	-10.6395
初又	-10.6396
放光云	-10.6397
眾多	-10.6398
是當	-10.6399
故論云	-10.64
三人	-10.6402
真心	-10.6409
不應言	-10.6414
空觀	-10.6416
佛意	-10.6417
脩行	-10.6419
以法	-10.642
佛法中	-10.6423
觀因緣	-10.6428
觀照	-10.643
是同	-10.6433
一牒	-10.644
本為	-10.6447
即色	-10.6447
左	-10.6455
錯	-10.6468
三聚	-10.6468
薩婆若	-10.6475
我是	-10.6476
愍	-10.6477
能得	-10.6485
問前	-10.6495
青黃	-10.6496
具如	-10.6497
先世	-10.6499
狂	-10.6501
但釋	-10.6502
座	-10.6506
敵	-10.6507
有如是	-10.6509
孔	-10.651
史	-10.651
色因	-10.6511
說此	-10.6512
初一	-10.6513
悉檀	-10.652
昏	-10.6521
姚興	-10.6526
按	-10.6527
伽	-10.6528
有六	-10.6528
蒙	-10.6529
仲尼	-10.6533
釋論云	-10.6533
焰	-10.6534
惟	-10.6537
投	-10.654
包	-10.6541
所問	-10.6541
奉	-10.6542
啟	-10.6544
汝以	-10.6549
二執	-10.6549
覈	-10.655
此彼	-10.6551
若從	-10.6556
與今何異	-10.6556
禪定	-10.6557
脩習	-10.6557
遷流	-10.6558
昔日	-10.6558
梵王	-10.6558
作苦	-10.6559
破生	-10.656
隨義	-10.656
求那	-10.6563
其文	-10.6563
麁細	-10.6564
破申	-10.6566
若瓶	-10.6566
因中先有果	-10.6569
瓶衣等	-10.6569
攀緣	-10.6569
正顯	-10.657
次一偈	-10.6572
維摩	-10.6577
遍不遍	-10.6578
凡有二種	-10.658
安樂	-10.6582
出現	-10.6583
正宗	-10.6583
大種	-10.6584
不異故	-10.6586
計我	-10.6589
雖不	-10.659
後方	-10.6591
別立	-10.6591
緣非緣	-10.6591
是以聖人	-10.6603
二時	-10.6605
無色界	-10.6606
於前	-10.6606
不聞	-10.6607
梵行	-10.6612
國土	-10.6614
毒	-10.6616
不生故	-10.6617
易云	-10.6619
有二過	-10.662
死有	-10.662
乘體	-10.6626
自住	-10.663
自部人	-10.6635
相貌	-10.6636
化生	-10.6637
同也	-10.6643
此三種	-10.6647
了了	-10.665
若立	-10.6653
無別異	-10.6654
化眾生	-10.6656
造色	-10.6656
但取	-10.6656
未成	-10.6656
與外道	-10.6664
以證	-10.6664
因緣生法	-10.6667
當果	-10.6668
四心	-10.667
此二句	-10.667
實不實	-10.6679
從因緣	-10.6679
阿毘曇人	-10.668
釋中	-10.6682
如如	-10.6683
非定	-10.6684
五陰中	-10.6685
四果	-10.6685
玄道	-10.6687
明知	-10.6687
相不可得	-10.6687
色等諸法	-10.669
色性	-10.6696
故就	-10.67
為俗	-10.67
至佛	-10.6707
若言無	-10.6708
常寂	-10.6722
具破	-10.6723
天王	-10.6725
顯道	-10.6726
今為	-10.6726
無此	-10.6731
可了	-10.6733
若其	-10.6734
住於	-10.6737
感應義	-10.674
一致	-10.6741
窮盡	-10.6742
以下	-10.6743
下文	-10.6743
幻化	-10.6748
即是實相	-10.6748
亦應然	-10.6748
若復	-10.6754
。《	-10.6755
非無也	-10.6757
假無	-10.6761
非想	-10.6764
及與	-10.6765
上半破	-10.6767
果名	-10.6771
位中	-10.6772
三無為	-10.6774
故大經	-10.6774
又曰	-10.6779
無生法忍	-10.6779
第二義	-10.6785
物物	-10.6792
而現	-10.6797
而失	-10.6802
亦三	-10.6804
長行釋	-10.6809
至論	-10.6812
正智	-10.6815
破內	-10.6821
無障礙	-10.6821
實體	-10.6824
玄得	-10.683
外謂	-10.6834
先已	-10.6836
但約	-10.6836
無有自性	-10.6838
我法	-10.6842
三菩提	-10.6844
又上	-10.6844
是教	-10.6846
身中	-10.6847
中求	-10.6847
開合	-10.6849
陀羅	-10.6858
野	-10.6861
雅	-10.6866
有何異	-10.6866
弱	-10.687
與其	-10.687
生無生	-10.6872
舟	-10.6872
詠	-10.6873
故頌	-10.6874
弊	-10.6874
津	-10.6875
楞嚴	-10.6876
二十五	-10.6878
聲聞人	-10.6879
亦不見	-10.6879
笑	-10.6881
神覺	-10.6882
朕	-10.6883
髮	-10.6884
有方分	-10.6884
閉	-10.6885
恒有	-10.6887
蜜	-10.6889
儒童	-10.689
須彌	-10.689
兮	-10.6892
帶	-10.6896
淳	-10.6897
唯佛	-10.6898
依世俗	-10.6898
已明	-10.69
抑	-10.6902
如水	-10.6902
即是破	-10.6902
亦說	-10.6903
因體	-10.6903
憶念	-10.6904
非道理	-10.6905
澄師	-10.6908
六十二見	-10.6913
為言	-10.6917
受記	-10.6919
所遮	-10.692
不仁	-10.692
仁	-10.6922
六因	-10.6925
妙道	-10.6927
龍光	-10.6931
第一義悉檀	-10.6931
答彼	-10.6935
由如是故	-10.6935
流動	-10.6937
並非	-10.694
三無性	-10.694
之色	-10.6944
聞者	-10.6949
有四句	-10.6949
行行	-10.6949
云何當有	-10.6951
宗極	-10.6952
不真空論	-10.6955
名教	-10.6957
此有無	-10.6961
故無過	-10.6962
知也	-10.6967
三空	-10.6968
十地菩薩	-10.6973
禪師	-10.6975
問佛	-10.6975
有無之	-10.6985
所聞	-10.6994
契會	-10.6999
是有法	-10.7
根緣	-10.7003
直明	-10.7004
之極	-10.7005
是體	-10.7007
等相	-10.7007
得解	-10.7011
為道	-10.7012
假施設	-10.7016
兩捨	-10.7017
亦滅	-10.702
理無	-10.7024
雖說	-10.7027
結上	-10.7034
人等	-10.7037
佛乘	-10.7038
是緣	-10.7041
如意	-10.7044
者即是	-10.7046
因緣法	-10.7055
牒八不	-10.706
二諦教	-10.7066
自破	-10.7068
是破	-10.7068
必當	-10.7071
捨離	-10.7071
宮	-10.7076
有義	-10.7085
異類	-10.71
心神	-10.71
離此	-10.711
牒前	-10.7111
為凡	-10.7113
答若	-10.7118
故名為大	-10.712
得成佛	-10.712
謂彼	-10.7131
等是	-10.7132
施者	-10.7134
長行為	-10.7134
具明	-10.7158
一切有為	-10.7159
之根	-10.716
受果	-10.7165
多有	-10.7166
是以下	-10.7167
方便說	-10.7167
為彼	-10.7172
唐	-10.7174
根性	-10.7176
無著	-10.718
五十	-10.719
不用	-10.7192
是第一義諦	-10.7196
便失	-10.7197
悟解	-10.7197
歎佛	-10.7197
照境	-10.72
亦許	-10.7201
今舉	-10.7201
方圓	-10.7205
二身	-10.7206
性有無	-10.7209
同法喻	-10.7209
因緣空	-10.7214
凡有二	-10.7214
邪執	-10.7216
立比量	-10.722
不屬	-10.7221
池	-10.7221
不差	-10.7223
鉢	-10.7227
犯	-10.7228
自照	-10.723
胡	-10.7231
川	-10.7233
宋	-10.7234
威	-10.7234
之耳	-10.7235
今復	-10.7236
溺	-10.7237
攬	-10.7237
恒沙	-10.7238
一劫	-10.7238
務	-10.724
崇	-10.7241
音聲	-10.7243
為正因佛性	-10.7243
眷屬	-10.7245
心者	-10.7246
之空	-10.7246
君子	-10.7247
出有無	-10.7247
蕩	-10.7248
立也	-10.7249
迦毘羅	-10.7249
不從緣生	-10.7249
爾雅云	-10.725
灰	-10.725
不免	-10.7251
亦一亦異	-10.7251
隨俗	-10.7256
無有是處	-10.726
聲聞辟支佛	-10.7263
以有為	-10.7264
所宗	-10.7264
亦能	-10.7265
犢子部	-10.7266
便無	-10.7267
為主	-10.7275
能取所取	-10.7275
前之	-10.728
一真	-10.7282
▁【	-10.7282
稱歎	-10.7283
若不爾	-10.7284
何耶	-10.7285
處所	-10.7291
有果無果	-10.7294
所欲	-10.7296
起業	-10.7296
則壞	-10.7299
怖畏	-10.7301
況復	-10.7304
氏	-10.7307
救云	-10.7312
我與	-10.7318
無說	-10.7324
眾苦	-10.7329
合時	-10.7329
欲求	-10.7333
本是	-10.7334
遍學	-10.7334
誰能	-10.7334
之類	-10.7334
同時起	-10.7335
更無別	-10.7337
空理	-10.734
借名	-10.7343
何義	-10.7344
總明	-10.735
思量	-10.7352
不別	-10.7353
不自在	-10.7355
二諦也	-10.7359
本意	-10.7366
破彼	-10.7367
因緣有	-10.7369
無寄	-10.737
過者	-10.7372
有方便	-10.7377
未達	-10.7379
人之	-10.7384
以空為	-10.7385
貌	-10.7387
則無所	-10.7391
半偈	-10.7396
其道	-10.7396
如理	-10.7396
論師云	-10.7397
又三	-10.7401
於今	-10.7402
亦二	-10.7404
如是一切	-10.7408
破壞	-10.7409
四人	-10.7412
無異故	-10.7412
我為	-10.7413
自上已來破	-10.7414
俱絕	-10.742
全體	-10.7422
物也	-10.7422
亦不異	-10.7424
故論偈	-10.7432
俱舍論	-10.7434
是業	-10.7435
並有	-10.744
汝所立	-10.7444
令彼	-10.7453
各住	-10.7453
緣生故	-10.7453
我義	-10.7454
二十七	-10.7457
生死中	-10.7459
汝既	-10.7469
孤	-10.7478
此敘	-10.748
已後	-10.7482
是無記	-10.7483
不論	-10.7496
人無	-10.75
違害	-10.7501
所以須	-10.7503
語意	-10.7505
諸論師	-10.7506
文意	-10.7507
有對	-10.7508
此解	-10.7508
弗	-10.7509
問今	-10.752
五度	-10.7524
大眾	-10.7527
後生	-10.7528
可是	-10.7531
得意	-10.7532
因義	-10.7539
從本	-10.7543
惡止	-10.7544
智照	-10.7545
契真	-10.7546
能與	-10.7546
解不同	-10.7546
善行	-10.7548
如是決定	-10.755
空即	-10.7552
皆以	-10.7552
名為世諦	-10.7556
不執	-10.7563
有所生	-10.7564
其意	-10.7565
識等	-10.7566
云何知	-10.7568
此五	-10.757
其用	-10.757
如石女兒	-10.7577
以釋	-10.7579
本自	-10.758
可尋	-10.758
無聲	-10.7584
苦果	-10.7585
尤	-10.7586
軍	-10.7589
起染	-10.759
繁	-10.759
養	-10.7591
若實有	-10.7591
戲	-10.7593
燭	-10.7593
憑	-10.7593
偏破	-10.7594
龜毛	-10.7595
三時門	-10.7596
智境	-10.76
製	-10.7601
弁	-10.7602
寸	-10.7603
毗	-10.7605
冷	-10.7606
常者	-10.7606
濁	-10.7609
率	-10.761
飲食	-10.7611
離苦	-10.7611
名無	-10.7611
有三相	-10.7612
麥	-10.7612
壅	-10.7614
厚	-10.7616
追	-10.7616
今世	-10.7617
復云何	-10.7618
莊周	-10.7618
中為二	-10.7619
異部	-10.762
裁	-10.7621
搜	-10.7623
橫竪	-10.7625
是異	-10.7627
九流	-10.7628
菩薩摩訶薩	-10.7632
得見	-10.7634
是顛倒	-10.7636
而實不爾	-10.7637
故說此品	-10.7639
得者	-10.764
封執	-10.7641
常遍	-10.7644
皆明	-10.7645
諸體	-10.7649
稱之為	-10.7649
物不遷論	-10.7651
不是	-10.7656
後之	-10.7657
是何	-10.7658
應言	-10.7659
偏執	-10.7661
於二	-10.7663
無始終	-10.7664
雙絕	-10.7669
現在世	-10.767
凡有三義	-10.7672
染淨	-10.7673
至道	-10.768
出入	-10.7682
遮故	-10.7682
破異	-10.7685
次問答	-10.7687
獨覺	-10.7687
有所得者	-10.7687
二諦中道	-10.769
全真	-10.7691
從他	-10.7699
取意	-10.7699
非佛性	-10.7699
生時生	-10.7701
不出有無	-10.7701
至極	-10.7703
捨罪	-10.7707
自利	-10.7709
大也	-10.7709
第一真諦	-10.771
諸蘊	-10.7714
解脫者	-10.7717
真身	-10.7717
空門	-10.772
惑智	-10.7724
莊嚴云	-10.7727
苦等	-10.7728
如虛空等	-10.773
及彼	-10.7736
而應	-10.7738
動也	-10.7748
故涅槃云	-10.7754
欲示	-10.7754
見之	-10.7755
亦為	-10.7756
涅槃無名	-10.7758
動而	-10.7763
何故爾	-10.7764
必然	-10.7764
為無常	-10.7764
後際	-10.7764
已起	-10.777
若我	-10.7771
謂般若	-10.7773
歸於	-10.7774
中觀論	-10.7778
不曾	-10.7779
故非無	-10.778
方成	-10.778
初中後	-10.7782
必是	-10.7784
有為有	-10.7786
既得	-10.7788
具二義	-10.7788
初立	-10.7789
自知	-10.779
今無	-10.7793
第三偈	-10.7796
無一	-10.7797
?」	-10.7811
三十二	-10.7812
答以	-10.7812
三家	-10.7817
常無	-10.7817
而取	-10.7819
非真俗	-10.7821
非二	-10.7826
病故	-10.7829
一多	-10.7829
作故	-10.7834
而見	-10.7836
常故	-10.7838
有所得心	-10.7839
自體空	-10.7843
一理	-10.7843
二部	-10.7844
略廣	-10.7846
一類	-10.7846
肇論	-10.7859
階級	-10.7861
兩品	-10.7864
常為	-10.7867
定是	-10.7869
則見	-10.7873
乞	-10.7877
理內外	-10.7879
名為佛性	-10.7888
空中	-10.789
論語	-10.7891
生死苦	-10.7894
無作者	-10.7895
與瓶	-10.7896
一氣	-10.7902
叡	-10.7903
邊見	-10.7904
一邊	-10.7906
解也	-10.7907
即心	-10.7912
今則	-10.7913
品竟	-10.7915
是邪見	-10.7915
次云	-10.792
其身	-10.7921
既曰	-10.7925
外救	-10.7925
但知	-10.7926
亦復無	-10.7927
義云	-10.7928
二諦是教	-10.7928
傍正	-10.7928
惑盡	-10.7934
方乃	-10.7934
一果	-10.7934
不見佛性	-10.7935
有善	-10.7936
問論主	-10.7936
此引	-10.794
漢	-10.794
亦應無	-10.7942
若心	-10.7943
動轉	-10.7954
滅盡	-10.7955
次就	-10.7967
兩法	-10.7968
岸	-10.797
告	-10.797
去來品	-10.7971
不生者	-10.7971
與前	-10.7975
大聖	-10.7975
喚	-10.7975
離陰	-10.7976
體空	-10.7978
莊	-10.7985
老子	-10.7985
千里	-10.7986
玉	-10.7986
依經	-10.7989
悅	-10.799
生老死	-10.7991
何緣	-10.7992
二文	-10.7993
籍	-10.7996
盜	-10.7998
五識	-10.7998
勒沙婆	-10.7999
暢	-10.8
遙	-10.8001
澤	-10.8001
須識	-10.8001
轍	-10.8002
鼓	-10.8002
委	-10.8004
非斷	-10.8006
因緣假	-10.8006
毗曇	-10.8007
男	-10.8007
論語云	-10.8007
現事	-10.8008
壁	-10.8008
中道為體	-10.8009
帖	-10.801
不容	-10.8012
纏	-10.8012
事相	-10.8014
片	-10.8016
則便	-10.8017
果與果果	-10.8017
凡有三	-10.8018
墮於	-10.8021
烟	-10.8021
為明	-10.8023
已上	-10.8028
作意	-10.8028
反照	-10.8029
此若無者	-10.803
上中下	-10.8032
百千	-10.8032
紛然	-10.8037
則破	-10.8039
師子吼品	-10.804
真法身	-10.8043
滿足	-10.8044
說無常	-10.8044
說有無	-10.8047
二乘之人	-10.8049
後段	-10.805
無蹤	-10.8052
一論	-10.8054
不可為無	-10.8057
中住	-10.8058
雙破	-10.8059
果亦	-10.8067
無所作	-10.8069
前際	-10.8069
二過	-10.8069
成論師云	-10.807
皆云	-10.8073
若了	-10.8075
其旨	-10.8077
之所以	-10.8078
為失	-10.808
隨所	-10.8084
如言	-10.8086
浮虛	-10.8087
無如是	-10.8089
二無我	-10.8091
或名	-10.8095
衛世師	-10.8096
三際	-10.8109
類遣	-10.8109
師子吼	-10.811
分為	-10.8113
分段	-10.8114
名為正	-10.8124
圓成	-10.8125
宣說	-10.813
有形	-10.8137
入道	-10.8138
真知	-10.814
現在時	-10.8141
推之	-10.8143
說頌曰	-10.8145
是名為	-10.8145
初二	-10.8146
巳去	-10.8152
二章	-10.8155
二道	-10.8156
前識	-10.8158
無益	-10.8159
無自性故	-10.8161
若實	-10.8163
亦不可	-10.8164
今破此	-10.8165
未足	-10.8167
說名為	-10.817
和合故	-10.8171
有生死	-10.8171
涅槃之體	-10.8172
使我	-10.8174
一切有為法	-10.8174
此乃是	-10.8174
於第一義中	-10.8176
今約	-10.8177
我等	-10.8179
明空	-10.8182
之能	-10.8185
於其	-10.819
實方便	-10.8191
不顯	-10.8195
無為無	-10.8197
初四句	-10.8199
所論	-10.8208
於大	-10.8213
萬物之	-10.8216
鬼	-10.8216
所以明	-10.822
可立	-10.8226
夢中	-10.8231
▁二釋	-10.8232
冥寂	-10.8234
七種	-10.8238
頌破	-10.8239
就文為	-10.8245
大明	-10.8248
又諸	-10.8251
二處	-10.8256
先釋	-10.8257
無失	-10.8258
見道	-10.826
迦葉品	-10.8265
例如	-10.8267
破闇	-10.8271
始起	-10.8272
有本云	-10.8274
無二故	-10.8283
之義也	-10.8284
始是	-10.8285
顛倒故	-10.8288
本覺	-10.8289
用中	-10.829
十七	-10.8291
無上菩提	-10.8295
標相	-10.8297
苦受	-10.8297
大覺	-10.83
以有無	-10.8302
依何	-10.8306
空慧	-10.8308
非戲論	-10.831
意同	-10.831
若然者	-10.8328
爾者	-10.8328
以人	-10.8331
答曰下	-10.8332
報因	-10.8339
複	-10.834
得佛	-10.8343
即物	-10.8346
如色	-10.835
真境	-10.8351
應離	-10.8355
作無作	-10.8355
配	-10.8357
有無二	-10.8359
無實體	-10.8359
堪	-10.8361
行善	-10.8362
二業	-10.8365
以前	-10.8366
於人	-10.8371
則不見	-10.8377
逈	-10.8379
殆	-10.8379
蘇	-10.8384
亦應有	-10.8384
恭敬	-10.8384
康	-10.8389
因緣有無	-10.839
弟	-10.8391
應得	-10.8391
評	-10.8393
供	-10.8394
佛滅後	-10.8396
懃	-10.8397
門者	-10.8398
如中論	-10.84
復次下第二	-10.8405
有幾種	-10.8406
天女	-10.8406
蔽	-10.8407
振	-10.8408
論主對破	-10.8408
物無不是	-10.841
既知	-10.841
理無不統	-10.841
論文云	-10.8414
文殊師利	-10.8415
昔物不至今	-10.8417
發菩提心	-10.8417
三大	-10.8421
染污	-10.8423
道場	-10.8424
何所以邪	-10.8428
我相	-10.8429
華嚴經云	-10.8433
眾生有佛性	-10.8434
如因	-10.8434
四智	-10.8435
明有無	-10.8435
能生所生	-10.8436
諸大乘經	-10.8436
多分	-10.8436
有失	-10.8437
更無異	-10.8439
遷而不遷	-10.844
眼等根	-10.8442
五道	-10.8442
幻事	-10.8444
隨宜	-10.8445
定是無常	-10.8447
去時去	-10.8449
受報	-10.8452
如經云	-10.8455
初步	-10.8458
諸賢聖	-10.8462
於諸法	-10.8464
本宗	-10.8472
而求	-10.8473
通也	-10.8477
無別故	-10.8479
以示	-10.8481
如空	-10.8482
無處	-10.8485
二地	-10.8487
名涅槃	-10.8489
破一切	-10.8489
有壞	-10.8492
起見	-10.8494
境界因	-10.85
無患	-10.85
二約	-10.8501
圓滿	-10.8501
不俱	-10.8502
諸法性	-10.8503
指前	-10.8503
雖知	-10.8503
為五	-10.8505
三云	-10.8507
不但	-10.8508
行陰	-10.8509
中道佛性	-10.8509
極數	-10.8516
世間法	-10.8519
不見有	-10.8519
盡也	-10.852
難可	-10.8521
種智	-10.8523
得樂	-10.8524
所以言	-10.8525
義同	-10.8526
下第二破	-10.853
初就	-10.8531
師子	-10.8533
為新	-10.8533
救義	-10.8534
便得	-10.8536
所許	-10.8537
五名	-10.8541
行處	-10.8543
大乘中	-10.8545
有過失故	-10.8546
非勝義諦	-10.8546
結前	-10.8549
一實	-10.855
是如來	-10.855
簡別	-10.8553
想心	-10.8563
作相	-10.8567
多種	-10.8568
理應	-10.857
在果	-10.8571
二俱無	-10.8571
諸論	-10.8573
得起	-10.8576
辟支	-10.8578
義則不然	-10.8582
雙照	-10.8582
亦遍	-10.8583
不得成	-10.8583
思之	-10.8586
和合生	-10.8595
無咎	-10.8595
名方便	-10.8597
是大乘	-10.8598
忘言	-10.8602
四重	-10.8603
人功	-10.8604
我執	-10.8605
不令	-10.8607
此二人	-10.8608
運出	-10.861
用故	-10.861
滅道	-10.8619
合明	-10.8619
自分	-10.8623
說於	-10.8627
有彼	-10.863
有能	-10.8631
但得	-10.8633
難之	-10.8639
應廣說	-10.8639
非所作	-10.8643
說彼	-10.8644
常在	-10.8649
汝所說	-10.8657
若使	-10.8658
彼明	-10.8659
此四句	-10.8662
不起故	-10.8663
無相故	-10.8667
而自	-10.8668
法非法	-10.867
真俗不二	-10.867
教中	-10.867
諸子	-10.8679
妙用	-10.8687
為始	-10.8688
令得	-10.869
如見	-10.8694
有為之法	-10.8694
中有三	-10.8695
從用	-10.8696
同生	-10.8697
亦不離	-10.87
無所知	-10.87
五難	-10.8705
則無因	-10.8717
開善義	-10.8717
秤為	-10.8718
利樂	-10.8718
不退	-10.8719
所歸	-10.8721
若望	-10.8725
有殊	-10.8727
自因	-10.8732
無理	-10.8736
如所說	-10.8737
論序云	-10.8737
量云	-10.8738
之於	-10.8739
破四緣	-10.8739
語者	-10.8746
得涅槃者	-10.8747
無異性	-10.8752
都不	-10.8752
直是	-10.876
道人	-10.876
妙理	-10.877
躡	-10.877
後得	-10.8773
動作	-10.8773
師等	-10.8774
之表	-10.8777
至當	-10.8778
後當	-10.8778
婬	-10.8782
塗	-10.8782
唯心	-10.8783
立驗	-10.8784
丘	-10.8788
劉	-10.8788
廣百論	-10.8789
成具	-10.8794
貧	-10.8795
廓	-10.8796
有去來	-10.8799
之別	-10.88
莫不	-10.88
山中	-10.88
復生	-10.88
維摩經	-10.8803
三破	-10.8804
於一切	-10.8808
物不	-10.8808
別名	-10.8809
腹	-10.8809
二善	-10.881
曇	-10.881
恢	-10.881
兆	-10.8811
壯	-10.8811
則與	-10.8812
放	-10.8815
小雅	-10.8816
烏	-10.8817
名第一義諦	-10.8817
本有今無	-10.8818
綱	-10.882
渡	-10.8821
謂我	-10.8821
寒暑	-10.8823
並破	-10.8824
遮彼	-10.8824
所因	-10.8824
攝論師	-10.8826
雜亂	-10.8831
蓮華	-10.8833
九品	-10.8835
弘始	-10.8836
以緣求智	-10.884
如上偈說	-10.8843
依他起性	-10.8846
假有不名	-10.8846
彌存	-10.8847
有耶	-10.8848
不來不出	-10.8848
若不因	-10.8849
常存	-10.8849
無差別差別	-10.8851
然其	-10.8851
此智	-10.8855
作瓶	-10.8861
但就	-10.8864
莫能	-10.8866
答婆沙	-10.8868
法本	-10.8872
無有一法	-10.8873
為聖	-10.8875
永離	-10.8876
有無俱	-10.8877
先已破	-10.8878
為眾生說法	-10.8879
反覆	-10.8882
故不須	-10.8882
假令	-10.8884
不緣	-10.8885
風俗	-10.8885
鏡像	-10.8886
無相無名	-10.8887
生可生	-10.8889
眾聖	-10.889
三時門破	-10.8891
論其	-10.8897
法藏	-10.8898
共有因	-10.89
應說	-10.8903
所辨	-10.8904
汝所執	-10.8906
生後	-10.8909
破洗	-10.8911
為解脫	-10.8914
形相	-10.8914
如是知	-10.8915
今當說	-10.8915
一闡提	-10.8917
不可為有	-10.8918
不自生	-10.8919
不在有無	-10.8921
五陰和合	-10.8922
大師云	-10.8922
表理	-10.8925
大同	-10.8926
內入	-10.8927
聖言	-10.8928
有人法	-10.8931
法塵	-10.8939
破救	-10.8939
品末	-10.8943
香等	-10.8947
亦以	-10.8949
唯見	-10.8952
故不可	-10.8953
未明	-10.8954
肇師云	-10.8954
以物	-10.8956
眼色	-10.8956
為作	-10.896
執我	-10.896
有相續	-10.8961
未去者	-10.8963
僧佉人言	-10.8969
今總	-10.8972
愚智	-10.8972
未嘗有	-10.8976
相見	-10.8976
無覺	-10.898
為此	-10.898
彼如是	-10.8981
若定	-10.8986
異說	-10.899
開宗	-10.8992
此執	-10.8993
一佛乘	-10.8993
宗義	-10.8996
地論師	-10.8996
思我	-10.9002
物有	-10.9005
名波若	-10.9006
變為	-10.9007
為勝	-10.9011
中道第一義諦	-10.9013
不相離故	-10.9014
第三義	-10.9015
三因	-10.9016
結難	-10.9017
有始	-10.9019
破人法	-10.9022
既明	-10.9023
此過	-10.9023
又是	-10.9025
在未來	-10.9027
是假名	-10.9029
修福	-10.9032
佛出世	-10.9032
大疏	-10.9033
生念	-10.9036
定相	-10.904
待緣	-10.904
釋觀	-10.904
所立宗	-10.9043
共知	-10.9049
實權	-10.905
彼有	-10.905
顯了	-10.9053
彼即	-10.9056
石女	-10.9059
外法	-10.9059
則唯	-10.9063
但云	-10.9069
無有性	-10.907
諸因	-10.9073
竟無	-10.9074
成人	-10.9076
旨也	-10.9078
致問	-10.9079
若別	-10.908
則名為	-10.9081
受戒	-10.9082
大地	-10.9083
破神	-10.9086
而恒	-10.9089
色相	-10.9092
題目	-10.9096
法為	-10.9097
中下	-10.9101
十卷	-10.9102
二性	-10.9102
本非	-10.9109
幻化人	-10.9111
五部	-10.9112
今觀	-10.9115
引教	-10.912
說涅槃	-10.9125
於世	-10.913
即得	-10.9131
報佛	-10.9139
非佛	-10.9139
天眼	-10.915
於般若	-10.9152
更說	-10.9153
先說	-10.9154
佛性義	-10.9159
今釋	-10.9166
與此	-10.9171
論義	-10.9174
今正	-10.9179
有為世諦	-10.9183
從因緣生	-10.9185
不息	-10.9188
初偈明	-10.9188
我有	-10.9188
寧有	-10.9194
此章	-10.9199
則通	-10.9199
依二諦	-10.92
一則	-10.9206
破執	-10.9208
斯二	-10.9211
亦當	-10.9212
徐	-10.9213
三地	-10.9214
云何能	-10.9215
並不	-10.9221
謂涅槃	-10.9226
扣	-10.9227
春秋	-10.9228
口中	-10.923
脚	-10.923
皆實	-10.923
哲	-10.9232
永斷	-10.9234
顧	-10.9234
說經	-10.9234
已下	-10.9235
浪	-10.9235
延	-10.9236
堂	-10.9237
慳	-10.9238
三雙	-10.9243
兔	-10.9244
逮	-10.9244
保	-10.9245
血	-10.9247
無定性	-10.925
箭	-10.9251
動與事會	-10.9251
蛇	-10.9252
為俗諦	-10.9252
招提	-10.9252
聊	-10.9254
聲聞緣覺	-10.9255
積集	-10.9255
之始	-10.9256
俱空	-10.9257
㮈	-10.9257
明闇	-10.9258
增減	-10.9259
因因而果	-10.926
同明	-10.926
墜	-10.926
審察	-10.926
三字	-10.9261
急	-10.9261
向有今無	-10.9262
併	-10.9262
使一切眾生	-10.9263
即其事也	-10.9263
應機	-10.9265
無始無終	-10.9265
成實師	-10.9266
無依無得	-10.9267
若如	-10.9267
二而不二	-10.9268
報恩	-10.9269
單複	-10.927
欣樂	-10.9271
聞聲	-10.9272
滿字	-10.9273
三乘同	-10.9273
因中發觀	-10.9275
無耶	-10.9277
則名	-10.9277
嬰兒	-10.9279
穀子	-10.9285
轉為	-10.9287
西方	-10.9287
貪欲	-10.9288
但由	-10.9289
□□□□	-10.9289
寂而	-10.9291
皆依	-10.9294
說真	-10.9298
他生	-10.9299
無分別慧	-10.9305
句也	-10.9305
即名為	-10.9305
之令	-10.9307
後解釋	-10.931
破邪見	-10.931
此牒	-10.9313
為令	-10.9317
惑業	-10.9318
無為空	-10.9318
偈意	-10.9321
心等	-10.9326
前境	-10.933
縱有	-10.9333
融通	-10.9334
如下	-10.9334
一毫	-10.9334
相待故	-10.9335
各自	-10.9335
無生滅生滅	-10.9335
虗寂	-10.9337
若是有	-10.9337
故舉	-10.9342
六趣	-10.9345
色是	-10.9345
故有此品	-10.9352
自作苦	-10.9356
應同	-10.9361
五欲	-10.9363
解行	-10.9367
既一	-10.9373
妙盡	-10.9375
於自	-10.938
涅槃無名論	-10.9381
無名相中	-10.9385
以眾生	-10.9386
疑者	-10.9387
說無我	-10.9389
下二句	-10.939
申經	-10.9392
執也	-10.94
同彼	-10.94
至果	-10.9405
總說	-10.9406
不測	-10.9408
之終	-10.9408
他云	-10.9416
是則不然	-10.9416
得無生法忍	-10.942
彼二	-10.9427
無學	-10.9432
無佛性	-10.9433
生不生	-10.9434
明昧	-10.9439
三章	-10.9441
五事	-10.9445
問言	-10.9449
作如此	-10.9452
前章	-10.9453
但解	-10.9455
我空	-10.9464
以是因緣	-10.9468
始自	-10.9468
智能	-10.9469
書云	-10.947
瓶是	-10.947
虛無	-10.9472
空法	-10.9473
是故無有	-10.9475
多用	-10.9476
無受	-10.9476
能遮	-10.9476
無戲論	-10.9476
俗有	-10.9476
性義	-10.9479
無因果	-10.9484
此生	-10.9485
非體	-10.9493
亦一	-10.9493
正因佛性	-10.9494
不相似	-10.9498
亦不有	-10.9499
會歸	-10.95
以世諦	-10.95
空為真諦	-10.9508
隨有	-10.9509
方便慧	-10.9513
既以	-10.9513
舉譬	-10.9514
而欲	-10.9518
義引	-10.952
大異	-10.9523
理之	-10.9524
無所取	-10.9527
現行	-10.953
是故我	-10.9531
多瓶	-10.9534
五偈	-10.9536
正覺	-10.9539
如大	-10.9539
如世	-10.9539
既成	-10.9539
實相波若	-10.954
我言	-10.9542
差別故	-10.9542
如法華	-10.9543
亦作	-10.9545
第一破	-10.9547
處中	-10.955
生空	-10.9555
受等	-10.9558
之意也	-10.9558
共起	-10.9561
深義	-10.9563
而論之	-10.9566
必定	-10.9573
明諸法	-10.9576
諦觀	-10.9582
易見	-10.9583
無自	-10.9585
初起	-10.959
無相門	-10.9593
明無生	-10.9594
住住	-10.9594
非後	-10.9595
彼謂	-10.9599
不求	-10.9601
三年	-10.9606
隨其	-10.9612
雖是	-10.9618
隨意	-10.9624
歸一	-10.963
善解	-10.9636
前心	-10.9641
談者	-10.9642
聲色	-10.9642
真名	-10.9644
執言	-10.9644
分為二	-10.9645
為智	-10.9645
起等	-10.9646
體同時	-10.9646
無違	-10.9647
若過去	-10.9648
當有	-10.9649
著有	-10.9655
鄉	-10.9656
物性	-10.9658
六波羅蜜	-10.9661
是故無過	-10.9661
舉喻	-10.9663
此立	-10.9665
游	-10.9665
汝之	-10.9673
立量	-10.9673
初是	-10.9675
自果	-10.9676
對緣	-10.9679
繫辭	-10.9682
難論主	-10.9683
嘿	-10.9684
註	-10.9685
以中道	-10.9685
送	-10.9685
貧窮	-10.9687
於諸	-10.9688
三中	-10.969
擇滅	-10.9692
式	-10.9692
濕	-10.9693
奔	-10.9695
敗	-10.9696
呈	-10.9696
搆	-10.9696
優劣	-10.9699
府	-10.97
性假	-10.9701
覽	-10.9701
故以為門	-10.9702
緣正	-10.9702
非能非所	-10.9704
先標	-10.9706
橫謂	-10.9706
因他	-10.9707
峯	-10.9708
走	-10.9709
倒不倒	-10.971
米	-10.9711
熏習	-10.9711
逾	-10.9712
則不名	-10.9713
堅固	-10.9715
梵語	-10.9715
屈申	-10.9716
憐愍	-10.9717
豁	-10.9718
不二之理	-10.9722
釋吉藏撰	-10.9723
本無惑取之知	-10.9723
薩埵	-10.9723
貪瞋	-10.9724
遍滿	-10.9724
就緣假	-10.9725
此之二	-10.9726
此諸	-10.9726
別體	-10.9728
云何乃	-10.9729
有不自有	-10.973
後起	-10.973
前人	-10.9731
若取	-10.9731
亦是中道義	-10.9733
無累	-10.9737
如經說	-10.9738
令他解	-10.9739
又開二	-10.9739
近遠	-10.974
不倒	-10.9741
捨罪福	-10.9741
聚集	-10.9741
為是義故	-10.9741
故云爾	-10.9742
今之	-10.9742
與佛	-10.9743
依他起	-10.9746
復說	-10.9746
常過	-10.9747
自謂	-10.9747
並得	-10.9748
所以名	-10.9748
具二	-10.975
修靜慮	-10.9752
遠師	-10.9752
念念生滅	-10.9753
不正	-10.9756
從初發心	-10.9759
非不有	-10.9761
即體	-10.9761
應用	-10.9764
示其	-10.9767
小大	-10.9768
復起	-10.9768
更互	-10.9769
四宗	-10.977
四德	-10.977
」「	-10.9772
二十四	-10.9772
無所不為	-10.9772
中道為佛性	-10.9773
關中	-10.9774
性無性	-10.9775
不空者	-10.9775
因成假	-10.9776
是色	-10.978
問意	-10.9783
淨名經云	-10.9783
兩人	-10.9785
人作	-10.9788
而言有	-10.9791
于時	-10.9793
絕百非	-10.9796
離言	-10.9796
或時	-10.9798
思慮	-10.9802
餘無餘	-10.9802
受苦	-10.9808
若言有	-10.981
之殊	-10.9811
聖凡	-10.9811
為遮	-10.9812
有八	-10.9812
水土	-10.9812
照真	-10.9812
此通	-10.9814
不現	-10.9816
無殊	-10.9817
有餘無餘	-10.9817
大劫	-10.9819
廣略	-10.9823
成聖	-10.9824
秦言	-10.9827
注中	-10.9829
絕於	-10.9836
行解	-10.984
下第五	-10.984
巳還	-10.9841
何容	-10.9842
誰當	-10.9843
能化	-10.9848
成論云	-10.9854
女人	-10.9854
內曰下	-10.9861
非獨	-10.9861
述成	-10.9864
證無為	-10.9866
無力	-10.9867
釋不同	-10.9867
當以	-10.9869
大小內外	-10.987
果果性	-10.987
坦	-10.987
一色	-10.9876
正以	-10.9877
下品	-10.9878
無別體	-10.9878
自性故	-10.9878
所現	-10.9879
諸塵	-10.9885
各執	-10.9886
然後方	-10.9889
善業	-10.9891
相好	-10.9893
化人	-10.9896
不生而生	-10.9903
不遷者	-10.9908
二經	-10.9912
行苦	-10.9912
體不成	-10.9913
法無我	-10.9914
有本住	-10.9916
生疑	-10.9921
不染	-10.9922
即是有	-10.9923
細果	-10.9928
有於	-10.9931
上來破	-10.9936
可得言	-10.9936
之後	-10.994
神我	-10.9943
上根	-10.9947
大事	-10.9947
為實智	-10.9948
一切不成	-10.995
緣成	-10.9953
亦然也	-10.9953
彼去	-10.9955
其猶	-10.9959
不可信	-10.996
是何物	-10.9965
立因	-10.9965
悟理	-10.9966
無惑取	-10.997
雙牒	-10.9971
正行	-10.9973
無不無	-10.9974
外人立	-10.9976
有七	-10.9977
涅槃體	-10.9977
作之	-10.9977
見其	-10.9983
起迷	-10.999
正辨	-10.9991
緣法	-10.9992
與中論	-10.9995
上以	-10.9996
以般若	-10.9997
亦名為	-10.9999
極成	-11.0002
經義	-11.0006
唯得	-11.0009
即時	-11.0012
虛空相	-11.0012
現觀	-11.0014
此善	-11.0014
亦成	-11.0014
是誰	-11.0014
如地	-11.0023
本願	-11.0024
然矣	-11.0024
破小乘	-11.0025
汝若言	-11.0025
少有	-11.0027
有縛	-11.003
難明	-11.0031
若有人言	-11.0033
所應	-11.0035
小乘教	-11.0037
同源	-11.0037
有無二見	-11.0038
從緣生故	-11.0038
於境	-11.004
重生	-11.0045
即是常	-11.0047
更須	-11.0052
無所住	-11.0055
顯真	-11.0056
不相因	-11.0058
兩家	-11.0063
眼所見	-11.0065
不隨	-11.0068
有六道	-11.0069
絕無	-11.0072
今先	-11.0072
天上	-11.0073
證滅	-11.0076
寄名	-11.0081
而體	-11.0082
不有者	-11.0084
此方	-11.0084
破世間	-11.0086
亦即	-11.0086
之要	-11.0089
民	-11.009
法身菩薩	-11.0094
合論	-11.0096
就勝義諦	-11.0098
數論師	-11.0099
依空	-11.0099
墮在	-11.01
有取	-11.0101
在昔	-11.0102
今云何	-11.0103
不無也	-11.0104
十四	-11.0108
無所有故	-11.0113
前品	-11.0118
先明	-11.0118
其異	-11.0118
諸取	-11.0118
未嘗無	-11.012
胎	-11.0123
枝	-11.0125
俱破	-11.0129
芥子	-11.0136
問云何名	-11.0137
有體故	-11.0147
五百年	-11.0149
進修	-11.0149
之本意	-11.015
渾	-11.0152
嘗	-11.0153
莊老	-11.0153
未是	-11.0153
是故知	-11.0157
問汝	-11.0158
即中道	-11.016
法無去來	-11.016
嗔	-11.0162
十二因緣不生不滅	-11.0163
玄妙	-11.0164
流轉者	-11.0166
行施	-11.0168
鈔	-11.0169
變成	-11.0169
枯	-11.017
係	-11.0171
慨	-11.0174
沖	-11.0174
納	-11.0176
地水火風	-11.0177
光宅	-11.0177
前位	-11.0178
火宅	-11.0179
不稱	-11.0179
巨	-11.018
旦	-11.0181
恚	-11.0181
冥會	-11.0182
不物於物	-11.0184
仙人	-11.0185
無差	-11.0185
糞	-11.0186
驚	-11.0187
不無無	-11.0188
當而無當	-11.0188
萬象	-11.0189
無量無邊	-11.019
初地巳上	-11.0191
輒	-11.0191
就緣	-11.0192
雖云	-11.0193
如幻如夢	-11.0195
自下	-11.0195
緣觀俱寂	-11.0197
歟	-11.0197
外人謂	-11.0197
無明初念	-11.0198
是而無是	-11.02
設許	-11.0201
小兒	-11.0203
眼耳等	-11.0203
我說即是空	-11.0204
幽深	-11.0205
滯於	-11.0207
喻非也	-11.0209
亡不為無	-11.021
蒼生	-11.0212
今次	-11.0217
大乘論	-11.0218
此二種	-11.0219
如兔角等	-11.0219
非謂是非	-11.022
既無有	-11.0221
妄語	-11.0223
四緣中	-11.0224
虗玄	-11.0225
教化眾生	-11.0225
三輪	-11.0226
何也	-11.0227
漸捨	-11.0229
承上	-11.023
佛弟子	-11.0231
無涯	-11.0232
正言	-11.0233
緣生無性	-11.0234
三歸一	-11.0235
一切種	-11.0235
淨穢	-11.0237
滅法人	-11.0238
之執	-11.024
青黃等	-11.024
凝然	-11.0244
答外人	-11.0247
不遷之	-11.0248
諦也	-11.025
圓覺	-11.0251
有境	-11.0253
方知	-11.0254
色塵	-11.0255
上智	-11.0256
例之	-11.0257
前言	-11.0265
以無為	-11.0266
以智為	-11.0268
後偈	-11.027
能入	-11.0273
如是則	-11.0273
深遠	-11.0276
正破也	-11.0277
謝滅	-11.0278
在乎	-11.0285
因果二法	-11.0285
謂從	-11.0285
經也	-11.0288
故立	-11.029
權用	-11.0293
是故汝說	-11.0293
能運	-11.0298
十八空	-11.0303
諸有為法	-11.0303
責其	-11.0304
兩因	-11.0308
業因	-11.0309
四忘	-11.0313
亦遮	-11.0315
著空	-11.0316
問此論	-11.0317
若唯	-11.0321
位也	-11.0322
之一	-11.0325
故論主	-11.0327
覺體	-11.0331
彼緣	-11.0331
諸法自性	-11.0332
盡淨	-11.0332
自壞	-11.0333
體同	-11.0335
不同故	-11.0337
與理	-11.0339
不能作	-11.0342
因與果	-11.0342
未詳	-11.0349
二十五有	-11.0349
相續假	-11.0352
無識	-11.0353
真也	-11.0353
麁果	-11.0354
龜茲	-11.0355
四緣生	-11.0357
應常	-11.036
取之	-11.0364
施為	-11.0366
法花	-11.0368
境界故	-11.0369
頗	-11.0373
因果義	-11.0374
結業	-11.0378
則是無	-11.0383
此用	-11.0384
一一皆	-11.0386
若先無	-11.0389
可作	-11.039
等四句	-11.039
今借	-11.0391
要由	-11.0391
餘三	-11.0392
依彼	-11.0392
就文	-11.0392
說耶	-11.0394
則無法	-11.0394
而滅	-11.0398
化物	-11.0399
真際	-11.0405
有所依	-11.0405
亦隨	-11.0409
通明	-11.0409
虛實	-11.041
為真實	-11.0412
香味	-11.0413
界外	-11.0421
波若無知	-11.0423
無壞	-11.0424
彼義	-11.0431
可度	-11.0434
故復	-11.0434
是正因	-11.0436
非空有	-11.0441
兩論	-11.0441
捨身命	-11.0444
而行	-11.0446
有相無相	-11.0447
三總結	-11.0452
冥冥	-11.0452
義耳	-11.0459
有智	-11.0461
則不能	-11.0462
疏中	-11.0463
此見	-11.0465
因緣假名	-11.0466
定知	-11.0467
不二之	-11.0467
大智	-11.047
化之	-11.0473
具四	-11.0478
皆成	-11.0482
空性	-11.0483
入第一義	-11.0488
體絕	-11.0488
中陰	-11.0493
相待假	-11.0498
無不盡	-11.05
異執	-11.0502
性是	-11.0505
可去	-11.0505
如百論	-11.0506
有過失	-11.0507
取色	-11.0508
依正	-11.0509
就初又	-11.0512
有無是	-11.0513
盡故	-11.0514
此兩	-11.0514
若色	-11.0519
不偏	-11.052
此果	-11.0521
就世俗	-11.0522
不決定	-11.0524
便為	-11.0524
諸識	-11.0531
身等	-11.0533
破耶	-11.0535
實無有	-11.0537
遣執	-11.054
開為三	-11.0541
有行	-11.0542
有實體	-11.0542
是立因	-11.0544
有十	-11.0547
是立宗	-11.0549
不異也	-11.0554
何以故下釋	-11.0554
春	-11.0555
世俗法	-11.056
為別	-11.056
之主	-11.0562
即悟	-11.0562
有無者	-11.0567
其因	-11.0567
有別異	-11.0569
不可執	-11.057
大苦	-11.0571
所以作此	-11.0573
無異也	-11.058
二際	-11.0583
意言	-11.0588
云何生	-11.0594
破三相	-11.0601
明不二	-11.0603
人多	-11.0605
則不爾	-11.0606
第四明	-11.0609
亦不受	-11.0611
性空之理	-11.0614
例然	-11.0617
正由	-11.0617
如本	-11.0618
既然	-11.0618
不忍	-11.062
因緣中	-11.0621
如來說	-11.0622
何者是	-11.0622
善惡業	-11.0624
何妨	-11.0628
若不見	-11.063
今對	-11.0631
以第一義中	-11.0632
初云	-11.0633
品明	-11.0635
難知	-11.0635
據此	-11.0637
師言	-11.0638
無義	-11.0642
後結	-11.0643
可爾	-11.0643
即見	-11.0648
用寂	-11.0648
瓶時	-11.0648
婉	-11.0648
力用	-11.0649
匠	-11.065
十重	-11.0656
真則	-11.0658
妙盡冥符	-11.0661
均	-11.0663
明不遷	-11.0666
四大五根	-11.0667
房	-11.0668
既失	-11.0669
五見	-11.0669
甘	-11.067
為有為無	-11.0671
殘氣	-11.0672
名為常	-11.0672
猛	-11.0673
嘉	-11.0673
環中	-11.0674
翳	-11.0676
是則無	-11.0676
罔	-11.0676
耀	-11.0676
好醜	-11.0677
磨	-11.0679
相破	-11.0679
吐	-11.068
羊	-11.0682
此下解釋也	-11.0684
濫	-11.0684
次別	-11.0684
不二而二明之	-11.0685
邊無邊	-11.0687
崩	-11.0687
酥	-11.0688
智名	-11.0689
校	-11.0689
輕重	-11.0691
陰界入	-11.0692
癈	-11.0693
筆	-11.0693
晝夜	-11.0693
在其中	-11.0694
奢	-11.0694
非內非外	-11.0694
今物自在今	-11.0695
大鈔	-11.0696
總名	-11.0696
言迹	-11.0697
非境非智	-11.0698
實理	-11.07
增益	-11.07
憶想分別	-11.0702
生法二空	-11.0704
相因待	-11.0705
若眾生	-11.0705
身口業	-11.0706
十方三世諸佛	-11.0706
猶如兔角	-11.0707
埿	-11.0708
現在法	-11.0708
佗性	-11.071
無彼	-11.071
智度論釋	-11.0712
如乾闥婆城	-11.0714
三十二相	-11.0715
五逆	-11.0715
十九	-11.0716
出莊子	-11.0717
譬如兔角	-11.0719
梵音	-11.0723
推釋	-11.0725
此中意者	-11.0725
棄捨	-11.0725
所發	-11.0726
空有二諦	-11.0726
法無生	-11.0728
無始來	-11.0729
第一句	-11.0732
名之	-11.0734
燒時	-11.0736
諸天	-11.0737
是以經云	-11.0744
豈可以	-11.0745
漸次	-11.0747
諸物	-11.0752
涅槃耶	-11.0753
乃得	-11.0754
物者	-11.0756
前句	-11.0756
即同	-11.0759
始末	-11.0763
豈容	-11.0765
乃曰涅槃	-11.0765
無所不	-11.0771
猶在	-11.0774
即明	-11.0778
破法人	-11.0778
初舉	-11.0779
略舉	-11.078
之善	-11.0785
問若為	-11.0785
破中	-11.0789
有執	-11.079
見終	-11.079
悲愍	-11.0791
名之為有	-11.0796
以此為	-11.0797
故秤	-11.0803
法輪	-11.0804
彼法	-11.0804
轉成	-11.0807
安住	-11.0813
權方便	-11.0813
生天	-11.0817
四事	-11.0818
須菩提言	-11.082
易解	-11.0823
會之	-11.0823
汝先	-11.0823
不關	-11.0824
斷結	-11.0825
若一切	-11.0825
名義	-11.0826
智無知	-11.0831
名第一義	-11.0832
乃至云	-11.0835
非復	-11.0836
斷除	-11.0836
即不有	-11.0837
緣起法	-11.0838
起煩惱	-11.0839
時相	-11.0839
我心	-11.084
是皆不然	-11.0842
多少	-11.0842
之初	-11.0843
三根	-11.0845
不得生	-11.0849
引之	-11.0849
涅槃道	-11.0851
法華經云	-11.0854
以上	-11.0858
在初	-11.0858
類破	-11.0863
是有無	-11.0863
諸法皆空	-11.0869
本識	-11.0871
無所行	-11.0872
流來	-11.0872
似如	-11.0874
故來	-11.0879
人說	-11.0879
非究竟	-11.088
疑難	-11.0883
通者	-11.0885
變壞	-11.089
應佛	-11.0891
無倒	-11.0891
因無	-11.0894
彼因	-11.0895
。△	-11.0896
若未生	-11.0899
偈上半	-11.0903
修因	-11.0903
眼見色	-11.0903
即無有	-11.0906
出於	-11.0909
滅已	-11.0909
直言	-11.0909
等物	-11.0912
離斷常	-11.0913
所分別	-11.0915
於勝義諦中	-11.0916
破戒	-11.0918
可捨	-11.0921
無本住	-11.0923
此責	-11.0925
而汝	-11.0928
答亦得	-11.093
為心	-11.0932
心異	-11.0933
而人	-11.0933
上有	-11.0938
下結	-11.0947
名真	-11.0947
彼見	-11.0947
是心	-11.0949
心相	-11.0949
相傳	-11.0949
異品	-11.0956
身相	-11.0959
自行	-11.0962
以悟	-11.0971
領前	-11.0972
釋破	-11.0973
有苦	-11.0976
已生未生	-11.0981
下論云	-11.0982
所餘	-11.0986
兩體	-11.0986
真無	-11.099
四句皆	-11.0993
與物	-11.0995
水火	-11.0997
離欲	-11.1
有無二諦	-11.1005
是眾生	-11.1006
已竟	-11.1007
自性空	-11.1008
之業	-11.101
瓶衣等物	-11.1014
何者下	-11.1015
墮斷常	-11.1022
今古	-11.1022
不照	-11.1023
復更	-11.1023
外物	-11.1023
體應	-11.1024
是則無窮	-11.1028
福慧	-11.1029
八事	-11.1032
與論主	-11.1033
此性	-11.1037
之上	-11.1038
與上	-11.1038
汝自	-11.1042
體不可得	-11.1043
知一切法	-11.1048
文理	-11.1051
之實相	-11.1051
未合	-11.1053
離微	-11.1055
是智	-11.1055
迷情	-11.1057
輩	-11.1058
其證	-11.1059
破相	-11.106
令捨	-11.1062
捨於	-11.1063
未來善	-11.1064
則俱	-11.1066
不能照	-11.1069
位體	-11.1071
異門	-11.1072
義意	-11.1072
立異	-11.1074
真如性	-11.1081
初品	-11.1084
兩難	-11.1086
為是故	-11.1086
始成	-11.109
兩釋	-11.1095
九者	-11.1097
一門	-11.11
於神	-11.11
望聖	-11.11
自滅	-11.1103
三節	-11.1107
亦有過	-11.111
等事	-11.1112
能觀	-11.1115
無常相	-11.1115
若在	-11.112
名為真諦	-11.1121
出處	-11.1121
因中無	-11.1123
非思	-11.1132
已去未去	-11.1135
誓	-11.1135
而觀	-11.1136
欲令眾生	-11.1136
四十	-11.1136
則離	-11.1137
諸戲論	-11.1147
環	-11.1147
馬鳴	-11.1148
證理	-11.1149
明菩薩	-11.115
無決定	-11.1151
言異	-11.1152
菩薩言	-11.1153
色體	-11.1155
涯	-11.1156
但隨	-11.1162
豈待	-11.1166
約人	-11.1167
毘婆沙	-11.1168
自己	-11.1168
不縛	-11.1168
所縛	-11.1168
俱不成	-11.1169
將滅	-11.1173
披	-11.1173
詩	-11.1174
篇云	-11.1176
菩薩道	-11.1177
三種中道	-11.1178
佛世尊	-11.118
種種因緣	-11.1181
逸	-11.1182
三世佛	-11.1182
於三界	-11.1183
小教	-11.1184
盖	-11.1188
酒	-11.1189
老病死	-11.119
遯	-11.1191
湛	-11.1192
破塵	-11.1192
刃	-11.1193
可為	-11.1193
得無得	-11.1193
逝	-11.1193
挫	-11.1195
南北	-11.1195
孫	-11.1196
誑	-11.1196
雪山	-11.1197
虎	-11.1197
作此釋	-11.1197
皮	-11.1198
倫	-11.1198
彼體	-11.1198
騰	-11.1199
鐵	-11.1201
豈非是	-11.1201
露	-11.1202
厥	-11.1203
織	-11.1203
共作	-11.1204
衡	-11.1204
俯	-11.1205
今求	-11.1205
泊	-11.1206
聖天菩薩	-11.1207
三世諸佛	-11.1208
縱其	-11.121
莖	-11.1211
爰	-11.1211
故復頌曰	-11.1211
影響	-11.1211
着	-11.1213
毘	-11.1215
幽微	-11.1216
不同時	-11.1216
瓶瓫	-11.1216
法生	-11.1216
割	-11.1216
看	-11.1217
外計	-11.1217
姚嵩	-11.1218
轉法輪	-11.1218
非大非小	-11.1219
九十六術	-11.1219
十二部經	-11.122
圖度	-11.122
袪	-11.1221
幽途	-11.1221
居無不無	-11.1222
是斷常	-11.1222
上座部	-11.1222
動而非靜	-11.1222
第三重	-11.1223
不應爾	-11.1224
眼等諸根	-11.1225
出入觀	-11.1225
二十五品	-11.1225
法施	-11.1227
舍那	-11.1227
發生二智	-11.123
安隱	-11.123
表非有非無	-11.123
出二諦外	-11.123
則常	-11.123
瞿曇	-11.1231
諸果	-11.1231
序主	-11.1231
非色非心	-11.1232
南方	-11.1233
中具	-11.1235
顯中道	-11.1235
為一為異	-11.1235
不殊	-11.1235
得佛之理	-11.1236
世間顛倒謂有	-11.1236
即二諦	-11.1236
生未生	-11.1236
畢竟清淨	-11.1237
大般涅槃	-11.1237
久近	-11.1239
本來寂滅	-11.1241
盡智	-11.1244
瓶有	-11.1245
多羅	-11.1246
脩慧	-11.1246
於解脫	-11.1251
一標	-11.1251
下第三總結	-11.1252
又說頌曰	-11.1254
先牒	-11.1255
色身	-11.1255
內外大小	-11.1255
永盡	-11.1258
門說	-11.1258
萬善	-11.1258
一總	-11.1259
鑒照	-11.1263
通名	-11.1264
歷然	-11.1265
隔別	-11.1266
後三	-11.1266
楞伽經	-11.1268
十家	-11.1269
一源	-11.127
聲性	-11.1272
勢力	-11.1276
初教	-11.1281
止惡	-11.1285
總攝	-11.1285
解心	-11.1286
亦復然	-11.1289
緣具	-11.1289
國王	-11.129
四悉檀	-11.1292
還生	-11.1292
細分	-11.1293
大乘義	-11.1294
盛行	-11.1295
通三性	-11.1296
佛與	-11.1297
彼論	-11.1298
生滅斷常	-11.13
為六	-11.1304
可聞	-11.1304
自言	-11.1304
斷者	-11.1308
而不取	-11.1313
而明之	-11.1313
橫計	-11.1314
於空義	-11.1316
五大	-11.1319
之咎	-11.1327
即是我	-11.1329
山門	-11.133
無生智	-11.1331
經曰下	-11.1332
於生死	-11.1332
不復更	-11.1334
勝鬘	-11.1334
群生	-11.1336
分際	-11.1336
自身	-11.1336
始於	-11.134
即上	-11.1341
有三意	-11.1342
妙法	-11.1344
自性有	-11.1349
得無生忍	-11.1352
汝先說	-11.1355
自體有	-11.1361
正使	-11.1361
我不	-11.1363
梵天	-11.137
成我義	-11.1374
觀門	-11.1375
全同	-11.1376
亦常	-11.1376
下釋下半	-11.1376
畢竟無生	-11.1379
何故但	-11.138
果從	-11.1381
釋曰若	-11.1381
智力	-11.1382
佛所	-11.1382
無所生	-11.1384
眾生及	-11.1384
外凡夫	-11.1384
起用	-11.1384
即是空	-11.1387
有兩種	-11.1389
此所說	-11.1391
若前	-11.1395
百劫	-11.1397
十二入	-11.14
宗本義	-11.1401
如涅槃云	-11.1405
又欲	-11.1409
不窮	-11.1412
入實相	-11.1412
注釋	-11.1413
彼經云	-11.1414
五求	-11.1415
則長	-11.1415
是作法	-11.1415
流通	-11.142
不從緣	-11.1423
妄情	-11.1424
如幻化	-11.1426
豈謂	-11.1426
中已有	-11.1428
即是無	-11.143
又上來	-11.1431
總釋	-11.1434
不遷之義	-11.1438
不諦	-11.1442
智惠	-11.1442
因待	-11.1444
如化	-11.1444
正取	-11.1447
斯皆	-11.1451
為定	-11.1452
三師	-11.1452
釋偈	-11.1452
蓋以	-11.1452
盡則	-11.1452
今論主	-11.1457
如我	-11.1459
能生他	-11.1461
非無常	-11.1462
虗實	-11.1465
若一切法	-11.1473
有二相	-11.1474
此喻	-11.1475
六師	-11.1475
能縛	-11.1475
我亦如是	-11.1476
亦壞	-11.1481
上三句	-11.1482
此處	-11.1482
自成	-11.1483
意欲	-11.1485
僧寶	-11.1489
住體	-11.1495
以智	-11.1496
無因生	-11.1498
如所	-11.1499
謂於	-11.1502
已還	-11.1503
約義	-11.1507
從境	-11.1509
業用	-11.151
四塵	-11.1512
來出	-11.1513
初正破	-11.1519
不具	-11.152
有惡	-11.152
為傍	-11.1524
藉緣	-11.1524
之所以也	-11.1525
今品	-11.1528
何等為	-11.153
行時	-11.1534
三名	-11.1534
生善	-11.1535
此身	-11.1536
欲成	-11.1544
以一切法	-11.1545
外來	-11.1547
歸敬	-11.1548
明暗	-11.1549
之風	-11.1553
業果報	-11.1556
雙定	-11.1557
三分	-11.156
世師	-11.1561
何事	-11.1563
悟道	-11.1565
文旨	-11.1569
趣向	-11.1569
無自體者	-11.1571
為總	-11.1572
樂受	-11.1573
開之	-11.1575
六句	-11.1576
非三世	-11.1577
乃曰	-11.1579
未說	-11.158
斫	-11.1581
遷也	-11.1582
生滅相	-11.1583
照實相	-11.1585
難家	-11.159
智相	-11.1592
證之	-11.1596
理極	-11.16
地攝	-11.16
生已生	-11.1601
觀心	-11.1604
互不相	-11.1604
下第二釋	-11.1608
五指	-11.1608
體異	-11.1612
釋章門	-11.1612
是法身	-11.1612
所出	-11.1614
不二二	-11.1616
謂言	-11.1617
而釋之	-11.1619
受身	-11.1619
菩提果	-11.1621
合離	-11.1624
大乘法	-11.1625
不有故	-11.1626
為苦	-11.163
無知而知	-11.1631
實相故	-11.1633
此猶是	-11.1637
皆無常	-11.1638
八苦	-11.1638
學佛	-11.1642
無相也	-11.1644
八正	-11.1655
即是無生	-11.1659
即俗	-11.1661
滅壞	-11.1663
明二諦是教	-11.1668
時未有	-11.1671
合也	-11.1672
雖非	-11.1673
遠也	-11.1675
方生	-11.1677
是權	-11.1679
斯即	-11.168
不往	-11.1682
謂能	-11.1682
責也	-11.1684
能破闇	-11.1685
我所說	-11.1688
何曾	-11.1688
有作用	-11.1691
事也	-11.1692
凝	-11.1692
非相	-11.1695
種性	-11.1699
既除	-11.1701
演說	-11.1701
無為者	-11.1701
世間現見	-11.1703
成前	-11.1705
二品	-11.1705
通有	-11.1709
行道	-11.1715
相有故	-11.1722
旨歸	-11.1723
會釋	-11.1723
體上	-11.1727
有我者	-11.1727
允	-11.1729
太子	-11.1731
震旦	-11.1734
俗真	-11.1735
廬山	-11.1737
救濟	-11.1737
浴	-11.1737
四難	-11.1738
餘四	-11.1739
妄有	-11.174
汝上	-11.174
孰	-11.1741
若悟	-11.1741
雖滅	-11.1743
界內	-11.1744
一切煩惱	-11.1745
即陰	-11.1745
無功用	-11.1746
十品	-11.1749
人有	-11.1749
臺	-11.175
優	-11.1752
斯乃	-11.1752
噫	-11.1753
溫	-11.1754
逕	-11.1755
會三歸一	-11.1756
圖	-11.1756
妄境	-11.1756
秋	-11.1756
隆	-11.1757
賜	-11.1757
失者	-11.1757
撫會	-11.1757
來現在	-11.1757
物我	-11.1758
大乘明義	-11.1759
慎	-11.176
到不到	-11.176
如鏡中像	-11.176
撫	-11.176
寥	-11.1761
奏	-11.1762
毘婆闍婆提	-11.1762
深旨	-11.1763
斯陀含	-11.1764
悟也	-11.1764
仗	-11.1765
阿耨多羅三藐三菩提	-11.1766
阿那含	-11.1766
今借此語	-11.1766
枝末	-11.1767
擾	-11.1767
萬端	-11.1767
折之	-11.1767
居士	-11.1768
八地巳上	-11.1768
於今未嘗有	-11.1769
地攝兩論成毗二家	-11.1769
為滅	-11.177
諸有智者	-11.1772
射	-11.1772
果不俱因	-11.1774
怕	-11.1774
緣會而生	-11.1774
其餘	-11.1775
惑取	-11.1776
寬	-11.1777
默然	-11.1777
闍	-11.1777
今當更說	-11.178
有異相	-11.178
相續不斷	-11.1782
非無非不無	-11.1783
觀十二因緣	-11.1783
若一若異	-11.1784
假名為	-11.1785
亦為是假名	-11.1785
影像	-11.1785
誹謗	-11.1786
而終	-11.1786
繫屬	-11.1786
不斷亦不常	-11.1788
毛詩	-11.1788
去住	-11.1788
物各性住	-11.1788
名無得物之功	-11.1788
今亦無滅	-11.179
二諦體	-11.179
諸方等經	-11.1791
半字	-11.1793
現起	-11.1794
對緣假	-11.1795
半有半無	-11.1795
長等	-11.1796
此執不然	-11.1798
譯經三藏朝散大夫試鴻臚卿	-11.1799
無有生	-11.18
大乘中觀釋論卷第十	-11.1801
安慧菩薩造	-11.1801
大乘中觀釋論	-11.1802
頓盡	-11.1805
夫人經云	-11.1805
久矣	-11.1806
有四義	-11.1806
若無自性	-11.1806
後破救	-11.1807
皆屬	-11.1807
甚多	-11.1808
猶存	-11.1812
有不失	-11.1814
畢竟不可得	-11.1818
三部	-11.1818
為他作	-11.1818
亦不作	-11.1819
攝受	-11.182
二字	-11.1822
念佛	-11.1823
其法	-11.1823
引經證成	-11.1824
善趣	-11.1824
俱起	-11.1826
審實	-11.1828
猶如虛空	-11.1829
方便智	-11.1829
名為大	-11.183
二正問	-11.183
二行	-11.183
世諦有	-11.1831
譬如瓶等	-11.1831
不分	-11.1832
法譬	-11.1833
是滅	-11.1833
二正破	-11.1835
而用	-11.1839
前雖	-11.184
俗即真	-11.1842
今辨	-11.1844
成壞二法	-11.1845
具縛	-11.185
二儀	-11.185
是道	-11.1853
因起	-11.1853
說因	-11.1854
火薪	-11.1855
空即色	-11.1858
亦應如是	-11.186
同喻不成	-11.1862
往也	-11.1862
為正因體	-11.1864
若常	-11.1869
初總標	-11.187
因中有	-11.1873
入理	-11.1876
非能	-11.1876
謂聖心	-11.1878
偏邪	-11.1884
動靜不二	-11.1885
智所	-11.1886
說有我	-11.1887
不停	-11.189
即三	-11.1892
謗法	-11.1892
為法身	-11.1893
如兔角	-11.1894
十三	-11.1894
難陀	-11.1903
申明	-11.1907
契理	-11.1907
上人	-11.191
少多	-11.191
開境智	-11.1912
汝意	-11.1914
依之	-11.1919
心心法	-11.192
何因緣故	-11.1922
而弗	-11.1922
中復有	-11.1923
約用	-11.1924
彼一切法	-11.1925
可縛	-11.1926
如向	-11.1928
必依	-11.1928
就勝義	-11.1932
之域	-11.1934
顯明	-11.1936
而惑者	-11.1938
之慧	-11.1942
是無因	-11.1946
世諦之中	-11.1949
攝一切法	-11.195
無常苦	-11.195
無差別故	-11.1953
俱失	-11.1954
引喻	-11.1954
因是	-11.1957
今次破	-11.1959
能顯	-11.196
有起	-11.1961
人云	-11.1963
識知	-11.1964
設難	-11.1973
信矣	-11.1973
斷之	-11.1986
即智	-11.1988
只為	-11.1989
可然	-11.1989
亦無常	-11.1992
無由	-11.1992
偈中	-11.1992
此師	-11.1992
而意	-11.1993
皆是世諦	-11.1993
次四句	-11.1994
先正破	-11.1995
一世	-11.1997
始覺	-11.1997
立難	-11.2001
要待	-11.2001
過去時中	-11.2003
展轉相	-11.2004
則無窮	-11.2009
般若之體	-11.201
今立	-11.2011
變異故	-11.202
為第一義	-11.2021
呵之	-11.2024
若有體	-11.2025
因有果	-11.2026
以二智為	-11.2028
現身	-11.2031
共位	-11.2033
思者	-11.2039
一體異體	-11.2041
神亦	-11.2042
有顛倒	-11.2046
更相	-11.2049
解脫道	-11.2058
所迷	-11.2058
諸惡	-11.2059
離四句	-11.206
更立	-11.2061
善感	-11.2064
巳盡	-11.2065
有表不有	-11.2066
此部	-11.2071
一道清淨	-11.2074
有成壞	-11.2076
續故不斷	-11.2078
不應作	-11.2081
深也	-11.2082
有愛	-11.2084
非其	-11.2095
常無常等	-11.2097
六合	-11.2098
所修	-11.2099
上就	-11.21
偈文	-11.2101
亦不可說	-11.2102
如來滅後	-11.2105
根等	-11.2106
皆然	-11.2107
以其不來	-11.2108
破可破	-11.2109
有本	-11.2109
有所無	-11.2116
若起	-11.2116
此義故	-11.2118
玄義	-11.212
神相	-11.2127
不見其	-11.2131
因相	-11.2138
之子	-11.2141
此舉	-11.2144
苦惱	-11.2144
壞時	-11.2145
果因	-11.2148
論說	-11.2149
四取	-11.2149
空即是色	-11.215
是一物	-11.2157
並云	-11.2159
未來現在時	-11.2161
故秤為	-11.2161
今大乘	-11.2162
於聖人	-11.2173
五果	-11.2181
本自無	-11.2181
受陰	-11.2181
若云	-11.2181
故前破	-11.2182
文有三	-11.2182
無礙道	-11.2185
無生者	-11.2187
二十三	-11.2191
心想	-11.2191
如云	-11.2191
如遮	-11.2194
無容	-11.2195
難得	-11.2195
對他	-11.2201
空名	-11.2206
世俗有	-11.2218
因過去時	-11.2221
初總	-11.2221
聰	-11.2223
師說	-11.2227
立論	-11.2227
攝故	-11.2234
立於	-11.224
故不常	-11.2241
信也	-11.2243
次第生	-11.2245
何故言	-11.2247
諦耶	-11.225
人情	-11.225
神則	-11.2254
時人	-11.2255
諸德	-11.2262
於瓶	-11.2264
二依	-11.2265
名為解脫	-11.2266
十門	-11.2268
般	-11.2268
色異	-11.227
之士	-11.2272
所緣境	-11.2273
但舉	-11.2278
都無所	-11.2279
若都	-11.2283
為己	-11.2288
即畢竟空	-11.2292
俗非諦	-11.2295
之曰	-11.2301
菩薩悲心	-11.2306
梨	-11.2307
直說	-11.2308
流入	-11.2308
不對	-11.231
今難	-11.2313
孝	-11.2313
之解	-11.2314
苦者	-11.2315
邈	-11.2315
無佛	-11.2315
宇	-11.2316
起愛	-11.2317
不開	-11.2318
歡	-11.2318
贊	-11.232
武	-11.232
杜	-11.2321
此一偈	-11.2321
休	-11.2322
沙彌	-11.2322
其功	-11.2324
慶	-11.2325
佛陀	-11.2327
婦	-11.2327
彖	-11.2328
範	-11.233
睿	-11.2331
葢	-11.2331
一時有	-11.2332
為眾生說	-11.2335
無眼	-11.2335
愈	-11.2335
亦多	-11.2336
陋	-11.2336
理極同無	-11.2338
訶梨	-11.2339
遁	-11.2339
乏	-11.2339
丈	-11.234
卒	-11.234
進修三位	-11.2341
稍	-11.2341
照俗	-11.2342
漸漸	-11.2343
冀	-11.2344
漭	-11.2344
稽	-11.2347
朱	-11.2348
裂	-11.2349
拙	-11.2349
須彌入芥子	-11.2349
恒河	-11.2351
匡山	-11.2351
如來者	-11.2351
賤	-11.2352
詶	-11.2352
雙融	-11.2354
如說而行	-11.2355
恬	-11.2355
無少法	-11.2355
十八部	-11.2355
曜	-11.2355
如行而說	-11.2356
有可生	-11.2356
所生果	-11.2356
渴	-11.2357
翻譯	-11.2357
幽玄	-11.2357
為權智	-11.2358
陰陽	-11.2358
格	-11.236
屋	-11.236
脩萬行	-11.236
優樓迦	-11.2361
施主	-11.2361
冶	-11.2361
於向未嘗無	-11.2361
如大品	-11.2361
地攝兩論	-11.2361
又經云	-11.2363
欲言其有	-11.2363
金光明	-11.2363
誤	-11.2363
縱關	-11.2365
染及染者	-11.2366
地攝等四家	-11.2366
壽命	-11.2367
田	-11.2367
不二法門	-11.2367
虛誑	-11.2367
此亦是	-11.2367
超出	-11.2368
阿闍梨	-11.2369
有其所以不無	-11.2369
萬累	-11.237
釋頌文	-11.2371
安置	-11.2371
操	-11.2371
智之	-11.2371
老少	-11.2373
則不生	-11.2373
故經	-11.2373
未生法	-11.2373
旃陀羅	-11.2373
昭然	-11.2373
摩醯首羅	-11.2374
即常	-11.2375
萬機	-11.2375
授記	-11.2375
增上慢	-11.2375
中後假	-11.2376
方分	-11.2377
此中應問	-11.2378
人身	-11.2378
一性異性	-11.2379
第十地	-11.238
若必	-11.2381
學二諦失二諦	-11.2382
又何	-11.2383
正量部	-11.2383
因過	-11.2383
建立諸法	-11.2384
聖旨	-11.2386
一異門破	-11.2388
中道為二諦體	-11.2388
極細	-11.2389
有三句	-11.239
如佛所言	-11.2391
次兩偈	-11.2392
處有不有	-11.2392
同品	-11.2392
塵識	-11.2393
知即無知	-11.2394
而存	-11.2396
無起滅	-11.2396
復次僧佉人言	-11.2396
他體	-11.2398
說非有非無	-11.2398
外道立	-11.2398
何關	-11.2399
令物解	-11.2401
此計	-11.2401
知而無知	-11.2402
小劫	-11.2403
宗途	-11.2404
具含	-11.2406
已生位	-11.2408
方所	-11.2409
即是果	-11.241
起信云	-11.241
用前後	-11.2411
龍樹出世	-11.2411
火性	-11.2413
復何所	-11.2413
佛眼	-11.2414
一事	-11.2415
著於	-11.2417
收入	-11.2418
有老死	-11.242
即是佛性	-11.2427
三果	-11.2427
結習	-11.2428
而有而無	-11.2428
二俱是	-11.2429
問上	-11.243
相現	-11.2431
為深	-11.2431
德王	-11.2432
諸大	-11.2433
曾當	-11.2434
道德	-11.2435
世法	-11.2438
前就	-11.2439
極重	-11.244
略標	-11.2441
不堪	-11.2442
樂者	-11.2442
大悲心	-11.2443
即無自性	-11.2443
故有此門來	-11.2448
諸法性相	-11.245
七地菩薩	-11.2451
妄計	-11.2451
驗無體	-11.2452
開三	-11.2456
般若無知論	-11.246
造論意	-11.2461
可斷	-11.2464
往復	-11.2465
俱成	-11.2466
第一家	-11.2467
此證	-11.2468
不在於	-11.2469
若有自體	-11.247
輪轉	-11.2472
意業	-11.2475
就真性	-11.2475
一字	-11.2475
有多種	-11.2479
斯文	-11.2479
終不能	-11.248
故次	-11.2482
此二諦	-11.2482
末世	-11.2482
第二重	-11.2484
開發	-11.2485
所遷	-11.2486
第二釋	-11.2487
單空	-11.2488
作善業	-11.2488
了了見	-11.2489
雙泯	-11.249
夫人	-11.2491
指前破	-11.2492
若除	-11.2492
大菩薩	-11.2493
家之	-11.2495
歷法	-11.2496
能有所	-11.2497
不二之道	-11.25
二障	-11.2501
初地斷	-11.2502
僧佉人	-11.2503
能燒	-11.2505
邊際	-11.2505
一日	-11.2506
諸行無常	-11.2507
大教	-11.251
謂因	-11.2511
如來性品	-11.2511
為目	-11.2512
下兩句	-11.2513
諸世間	-11.2513
故前明	-11.2515
為假	-11.2517
合為一	-11.2519
名慧	-11.2519
經書	-11.2521
神心	-11.2524
謂如來	-11.2525
問前云	-11.253
為內	-11.2532
五地	-11.2533
照理	-11.2535
諸趣	-11.2536
名中道	-11.2537
故不可以	-11.2539
最為	-11.2543
既空	-11.2544
初句牒	-11.2544
開善等	-11.2546
下第六	-11.2547
明大乘觀行	-11.2547
觸對	-11.2548
佛法身	-11.2549
有所取	-11.2551
陰等	-11.2553
壞因	-11.2555
施與	-11.2556
之地	-11.2556
令信解	-11.2557
盡言	-11.2558
一切諸法皆	-11.2561
三苦	-11.2565
則不須	-11.2565
我欲	-11.2567
無變	-11.2568
眾生是	-11.2572
空行	-11.2577
而有差別	-11.2583
眾生心	-11.2584
意以	-11.2586
更無有	-11.2587
無所執	-11.2587
初序	-11.2588
一言	-11.2588
然燈	-11.259
既異	-11.259
終教	-11.2591
待也	-11.2593
過未	-11.2593
雖與	-11.2595
反本	-11.2602
空無相	-11.2605
發言	-11.2606
說我	-11.2607
破斥	-11.2607
亦得是	-11.2607
無有別	-11.2608
彼果	-11.2609
不二故	-11.2612
惡趣	-11.2613
望前	-11.2614
非顛倒	-11.262
於生	-11.262
捨身	-11.2622
雖爾	-11.2624
物理	-11.2625
盡見	-11.2625
前四	-11.2626
大小乘經	-11.2631
結非	-11.2632
我以	-11.2634
次更	-11.2639
學二諦	-11.2642
三科	-11.2643
有果生	-11.2644
業煩惱	-11.2645
取故	-11.2647
強說	-11.2647
又依	-11.2648
感報	-11.2649
初標宗	-11.265
去去者	-11.265
此四種	-11.2653
為去	-11.2654
能受	-11.2662
顯相	-11.2662
微者	-11.2667
得相	-11.2669
之宗本	-11.267
為色	-11.2672
豈同	-11.2674
何失	-11.2676
四名	-11.2679
於外	-11.2689
正量	-11.2689
異滅	-11.2691
鞞世師人	-11.2691
復何用	-11.2691
能障	-11.2692
法滅	-11.2698
漏盡	-11.2699
義亦不成	-11.2701
五種求	-11.2701
人空	-11.2708
順釋	-11.2709
無同喻	-11.271
無知論	-11.271
初引經	-11.2712
不敢	-11.2718
如是第一義中	-11.272
方見	-11.2722
三結成	-11.2727
見不見	-11.2727
發智	-11.2728
大生生	-11.2732
後四句	-11.2735
亦類	-11.2736
無遺	-11.2736
妄知	-11.2737
執異	-11.2741
二科	-11.2749
今引	-11.2757
難差	-11.2758
不可得者	-11.276
所存	-11.2761
全無	-11.2763
會教	-11.277
若一切法空	-11.277
邪因	-11.2773
唯在	-11.278
不可以有無	-11.2782
離緣	-11.2782
初正明	-11.2782
上半牒下半	-11.2788
無別有	-11.2789
第十一	-11.2789
顯於	-11.279
經部	-11.2793
為末	-11.2795
眾人	-11.2799
無見者	-11.2802
異果	-11.2804
為理	-11.2805
為妙	-11.2809
即是世諦	-11.2811
天下之	-11.2811
之跡	-11.2812
不成過	-11.2815
之方	-11.2818
作老	-11.2818
如是見	-11.282
除此	-11.2821
成熟	-11.2822
辨於	-11.2825
他義	-11.2825
已前	-11.2829
分分	-11.2831
或曰	-11.2834
有前後	-11.2835
心起	-11.2836
福報	-11.2836
如餘	-11.2836
初二偈	-11.2838
無體者	-11.2839
是故言	-11.2839
未生位	-11.2842
與智	-11.2845
真諦無	-11.2847
上雖	-11.2848
釋中二	-11.2851
而不動	-11.2854
所以下	-11.2854
名滅	-11.2856
不廢	-11.2857
生子	-11.2858
百論云	-11.2863
為表	-11.2864
四失	-11.2869
令識	-11.2871
信心	-11.2872
分別智	-11.2876
所申	-11.2876
異處	-11.2877
遮破	-11.2877
諸色	-11.2878
隨一	-11.2884
後人	-11.2884
言非有	-11.2886
不遠	-11.2891
總標	-11.2891
自說	-11.2891
內教	-11.29
近也	-11.29
能應	-11.291
問意云	-11.2911
即不生	-11.2917
苦無常	-11.292
不愛	-11.2923
悞	-11.2925
四禪	-11.2928
相因而	-11.2928
賢首	-11.2928
分二	-11.2929
銘	-11.2929
何言	-11.2929
引大品	-11.293
李	-11.2931
異端	-11.2932
欲以	-11.2933
應作	-11.2936
即無生	-11.2937
今應	-11.2938
未生生	-11.2938
以二諦為宗	-11.2945
詐	-11.2946
安在	-11.2947
雷	-11.295
可轉	-11.2951
己身	-11.2952
紀	-11.2954
英	-11.2954
工	-11.2954
偶	-11.2955
無數	-11.2955
身業	-11.2956
十二緣	-11.2957
常燃	-11.2959
欽	-11.2959
厲	-11.296
冲	-11.296
仲	-11.2962
婬欲	-11.2962
恃	-11.2962
億	-11.2963
郢人	-11.2963
回	-11.2963
從初至	-11.2964
祀	-11.2964
有二體	-11.2964
今此論	-11.2964
墨	-11.2964
抽	-11.2964
卑	-11.2964
契經	-11.2965
是故如來	-11.2965
逢	-11.2966
事中	-11.2967
闊	-11.2969
纔	-11.2969
箇	-11.2969
匿	-11.297
素	-11.297
姚萇	-11.2971
悔	-11.2972
遲	-11.2972
翼	-11.2973
殘	-11.2973
早	-11.2974
責向物於今	-11.2975
至七地	-11.2975
契經言	-11.2976
闡	-11.2976
敷	-11.2977
令我	-11.2977
黨	-11.2977
貶	-11.2978
竹	-11.2978
煙	-11.2978
鳩摩羅什	-11.2978
舍利	-11.2979
漫	-11.298
不動真際	-11.298
醫	-11.298
侍	-11.2981
壽量	-11.2981
蕭然	-11.2982
此據	-11.2982
拳	-11.2982
照不失虗	-11.2982
薩	-11.2982
筌	-11.2983
不相到	-11.2983
扇	-11.2984
無去無來	-11.2985
逍遙園	-11.2985
自謙	-11.2987
頑	-11.2988
惡取空	-11.2989
有無之外	-11.299
道遠乎哉	-11.299
注釋為二	-11.299
用歸體	-11.2991
白牛	-11.2991
新新	-11.2991
無十方分	-11.2993
如水中月	-11.2993
如空花等	-11.2994
中百二論	-11.2996
無名無說	-11.2996
未兆	-11.2999
本性清淨	-11.2999
聖賢	-11.3
十二年	-11.3
灰身滅智	-11.3
絹	-11.3001
明實相	-11.3001
勝劣	-11.3001
生老病死	-11.3001
積聚	-11.3002
五陰身	-11.3003
長養	-11.3004
能證之人	-11.3005
二諦合明中道	-11.3005
今此一品	-11.3005
異自我耳	-11.3005
立破	-11.3005
遠離二邊	-11.3006
非有亦非無	-11.3007
勸學	-11.301
此疑	-11.3011
能相所相	-11.3011
非空非不空	-11.3011
次半偈	-11.3013
c	-11.3014
存不為有	-11.3014
久住	-11.3014
是故非	-11.3015
諸比丘	-11.3015
悲心者	-11.3017
漚和般若	-11.3017
名假	-11.3019
結歸	-11.3019
無常教	-11.3019
命終	-11.302
境為智	-11.3021
施戒	-11.3021
弘道	-11.3022
起邪見	-11.3025
皆言	-11.3028
神道	-11.3028
異而同	-11.303
現在未來時	-11.3034
次問	-11.3038
之迹	-11.3039
推窮	-11.3041
對偏	-11.3044
外執	-11.3044
此論正	-11.3046
設復	-11.3047
聖心無知	-11.3049
德也	-11.305
極果	-11.305
在論初	-11.305
覆疏	-11.3051
上座	-11.3051
問經	-11.3052
煩重	-11.3053
立教	-11.3053
泥曰	-11.3054
勤修	-11.3056
已去未去去時	-11.3057
語非也	-11.3061
自害	-11.3061
或以	-11.3062
愛著	-11.3063
旋	-11.3064
無縛	-11.3065
始名	-11.3069
諸有情	-11.3071
為依	-11.3071
皆具	-11.3072
隨世俗	-11.3073
同法	-11.3074
五種佛性	-11.3075
偈為三	-11.3076
妙絕	-11.3076
於顛倒	-11.3081
從四緣生	-11.3084
因云	-11.3084
空為有	-11.3084
▁No	-11.3084
不住故	-11.3085
別說	-11.3088
後秦	-11.3092
乃明	-11.3093
有餘涅槃	-11.3094
此非道理	-11.3096
命根	-11.3097
若其無	-11.3098
何以言	-11.3105
」《	-11.3106
如下云	-11.3107
奪其	-11.3108
不能稱	-11.3108
若無聖人	-11.3109
煩惱障	-11.3109
菩提心	-11.3111
諸外道等	-11.3113
菩薩藏	-11.3114
還同	-11.3114
亦同此	-11.3116
如是應知	-11.3116
無住處	-11.3116
成道	-11.3118
中十信	-11.312
半行	-11.312
故名為實	-11.312
他宗	-11.3124
化他	-11.3128
受果報	-11.3129
如是五句	-11.3133
離彼	-11.3134
下地	-11.3135
內義	-11.3137
異熟	-11.314
雖多	-11.3143
廣辨	-11.3143
此因不成	-11.3144
十者	-11.3148
無私	-11.3148
迷者	-11.3149
如是分別	-11.315
不可壞	-11.3151
許有	-11.3152
若未有	-11.3155
大人	-11.3156
決定相	-11.3159
何所滅	-11.3163
斷證	-11.3168
本身	-11.3175
及餘	-11.3176
所不攝	-11.3177
過現	-11.3179
性空也	-11.318
三千	-11.3182
不壞假名	-11.3184
問外人	-11.3186
四方	-11.3187
三難	-11.3189
受稱	-11.319
救眾生	-11.3193
便壞	-11.3193
還以	-11.3195
大患	-11.3196
故中論	-11.3198
眾緣生	-11.3199
此不相應	-11.3203
雙明	-11.3204
識中	-11.3207
平正	-11.3208
離去法	-11.321
成論等	-11.321
待於	-11.321
判二諦	-11.3212
爾乃	-11.3214
有無二法	-11.3214
因有故	-11.3217
樹下	-11.3218
豈以	-11.322
如虛空花	-11.322
有多門	-11.3221
誰復	-11.3226
無本際	-11.3233
十年	-11.3237
便滅	-11.3239
即動	-11.3242
所說法	-11.3246
於真	-11.3247
色聲	-11.3251
屬於	-11.3253
失旨	-11.3255
運動	-11.3257
明二智	-11.326
業報	-11.3261
可知矣	-11.3266
靜而	-11.3267
略解	-11.3268
無知無見	-11.3268
二宗	-11.3269
三車	-11.3271
壞者	-11.3274
有瓶生	-11.3274
愛樂	-11.3275
應在	-11.3275
若第一義中	-11.3276
問經云	-11.3279
復成	-11.3279
善心	-11.3284
神與	-11.3284
謂聖人	-11.3286
文中初	-11.3294
文殊問	-11.3294
眾生空	-11.3295
二種俱	-11.3299
為略	-11.3301
信之	-11.3304
復有何	-11.3309
不得名	-11.3315
若待	-11.3315
廣如	-11.3321
宜須	-11.3321
義耶	-11.3321
二諦一體	-11.3325
為外	-11.3326
第十二	-11.3327
斷諸煩惱	-11.333
思益經	-11.3331
能感佛	-11.3336
顯不二	-11.3339
不能得	-11.3342
今只	-11.3343
既見	-11.3343
應許	-11.3344
雙林	-11.3344
是諸佛	-11.3346
真諦無相	-11.335
前二句	-11.335
不應以	-11.3359
同異性	-11.3361
小住	-11.3364
四義	-11.3364
即般若	-11.3366
說世諦	-11.3367
據理	-11.3367
觀諸法	-11.3372
不欲令	-11.3374
虗心	-11.3376
義壞	-11.3379
當於	-11.3382
不可斷	-11.3384
度之	-11.3385
境相	-11.3386
因生果	-11.3387
不可聞	-11.3387
方便權	-11.3389
時處	-11.3391
若言諸法	-11.3391
內證	-11.3396
諸苦	-11.3396
二十二	-11.3397
攝大乘	-11.34
化佛	-11.3402
後位	-11.3404
第三難	-11.3404
中行	-11.3406
抱	-11.3407
止觀	-11.3407
有縛解	-11.3413
作解	-11.3413
如是所說	-11.3419
所以得	-11.3432
等過	-11.3433
明一乘	-11.3437
既盡	-11.3439
方便道	-11.3447
竪論	-11.3453
從多	-11.3453
隨機	-11.3456
對前	-11.3464
能生本生	-11.3465
和合中	-11.3465
不能令	-11.3468
常自	-11.3468
今即	-11.3469
目之	-11.3471
三教	-11.3472
過去現在	-11.3473
一切皆空	-11.3475
有兩義	-11.3476
為究竟	-11.3478
護法	-11.3478
當知是	-11.3479
微言	-11.3479
若定有	-11.348
兩處	-11.3485
言詮	-11.3487
聖應	-11.3494
彼自性	-11.3496
未至	-11.3496
正感	-11.3498
巳來	-11.3499
相資	-11.35
前世	-11.35
四生	-11.3502
無因無果	-11.3503
申破	-11.3503
瑤	-11.3504
為因果	-11.3505
因明	-11.3511
三藏教	-11.3512
法亦無	-11.3513
本論	-11.3513
治道	-11.3518
偏病	-11.3518
不應復	-11.3519
何獨	-11.3521
無異相	-11.3523
無塵	-11.3526
有此義	-11.3529
隨之	-11.3529
成病	-11.3538
中國	-11.3539
永無	-11.3545
不虛	-11.3554
以心為	-11.3555
生識	-11.3557
宗致	-11.3558
行亦不受	-11.3559
因喻	-11.3561
皇帝	-11.3562
無一物	-11.3564
宗法	-11.3566
理性	-11.3566
鴈	-11.3573
錄	-11.3573
即是二諦	-11.3574
生身	-11.3574
九十六種	-11.3575
四品	-11.3575
過咎	-11.3577
逍遙	-11.3584
次說	-11.3586
是有為法	-11.3587
斷過	-11.3588
對境	-11.3591
慰	-11.3594
釋下半	-11.3595
雪	-11.3595
末後	-11.3596
盡理	-11.3597
所求	-11.3598
出之	-11.3598
之數	-11.36
論人	-11.3601
沉	-11.3613
形色	-11.3615
或人	-11.3615
盧	-11.3616
凉	-11.3619
調伏	-11.3622
但空	-11.3622
竺	-11.3623
歌	-11.3624
北方	-11.3624
如陶師	-11.3624
輕薄	-11.3625
孟	-11.3625
野馬	-11.3628
讓	-11.3629
隨眠	-11.3629
性本	-11.363
密嚴	-11.363
舜	-11.3632
竺法汰	-11.3633
定慧之名	-11.3634
財寶	-11.3634
麗	-11.3634
枝條	-11.3634
伸	-11.3634
官	-11.3634
畢竟不生	-11.3634
偃	-11.3635
尚書	-11.3636
眇	-11.3636
畔	-11.3637
此中云何	-11.3639
健	-11.3639
污	-11.3639
先已有	-11.3639
還墮	-11.3639
物無不當	-11.364
夫以	-11.364
真實相	-11.3641
前引	-11.3641
觸事而真	-11.3643
躰	-11.3643
白首	-11.3643
惚	-11.3643
問若言	-11.3644
苞	-11.3644
第三總結	-11.3644
迴小入大	-11.3645
八十	-11.3645
求向物於向	-11.3645
乍	-11.3647
下顯	-11.3647
薩衛	-11.3648
壑	-11.3648
紐	-11.3649
快樂	-11.365
缾	-11.3651
存乎	-11.3651
設有	-11.3652
如來有	-11.3652
虗不失照	-11.3652
前滅後生	-11.3653
名目	-11.3654
窺	-11.3654
倦	-11.3654
執者	-11.3654
狗	-11.3655
物物斯照	-11.3655
非真有	-11.3656
棗	-11.3656
心行處滅	-11.3657
非有為非無為	-11.3658
真般若者	-11.3658
梁武	-11.3658
積德	-11.3659
此中說驗	-11.3661
隣虛塵	-11.3661
入不二法門	-11.3661
非非有非非無	-11.3662
文正爾	-11.3662
分別說三	-11.3662
闡提人無	-11.3663
絙	-11.3665
無能破	-11.3665
兔馬	-11.3665
遷即不遷	-11.3666
是不思議	-11.3666
財施	-11.3668
初念	-11.3669
常與無常	-11.3669
之形	-11.3669
善根人有	-11.367
有本作	-11.367
云何成	-11.367
求其	-11.367
二者上	-11.367
精勤	-11.367
摩尼	-11.3671
究竟之道	-11.3671
欲釋	-11.3671
塵勞	-11.3672
如是等諸修多羅	-11.3673
數緣盡	-11.3673
頓悟	-11.3674
佛告極勇猛	-11.3674
諸賢聖真知顛倒性空	-11.3674
云何名為	-11.3675
能得之人	-11.3676
身口意	-11.3676
十四難	-11.3677
喻說	-11.3677
不相往來	-11.3679
定異	-11.3679
三不三	-11.3679
及諸	-11.3679
乃以	-11.368
定有定無	-11.3681
一實諦	-11.3681
自違	-11.3682
泯絕	-11.3682
有佛無佛	-11.3683
是名般若波羅蜜	-11.3683
去時有去	-11.3684
通漏無漏	-11.3686
彼意	-11.3686
能破暗	-11.3687
染法染者	-11.3688
二推釋	-11.3689
治之	-11.3691
申正涅槃	-11.3695
前後一時	-11.3695
不朽	-11.3696
梵云	-11.3696
又開三	-11.3697
無表不無	-11.37
大段	-11.3702
從自體生	-11.3705
應信	-11.3706
四天下	-11.3707
解脫門	-11.3708
前陰	-11.3709
計人	-11.371
二語	-11.3711
▁二推釋	-11.3711
八謬	-11.3712
不長	-11.3712
不遷之理	-11.3712
者戲論	-11.3713
即壞	-11.3714
中有四	-11.3715
所須	-11.3715
是義云何	-11.3715
前釋上半	-11.3715
識支	-11.372
道行云	-11.3722
地水	-11.3727
作如此說	-11.3728
二說	-11.3729
玄門	-11.3731
如苦樂等	-11.3733
舉一	-11.3734
宗旨	-11.3734
失道	-11.3735
染著	-11.3735
先已遮故	-11.3736
即是智	-11.3736
自部	-11.3737
是故名諦	-11.374
因能生果	-11.374
之苦	-11.3743
證上	-11.3744
住持	-11.3745
無此過	-11.3747
斯意	-11.3752
其照	-11.3753
十住菩薩	-11.3754
雜心	-11.3756
次偈明	-11.376
逐近	-11.3761
隨俗說	-11.3761
世諦第一義諦	-11.3766
有二理	-11.3766
非方便	-11.3769
其間	-11.377
第二家	-11.3773
亦有此義	-11.3773
一塵	-11.3774
迷執	-11.3774
云何言無	-11.3774
兩物	-11.3774
益物	-11.3775
破顛倒	-11.3777
止善	-11.3777
去者去法	-11.3781
總立	-11.3783
即世諦	-11.3783
直云	-11.3783
令解	-11.3784
諸佛如來	-11.3785
破因果	-11.3786
非昔人	-11.3789
業行	-11.3789
此中所說	-11.3791
如上說	-11.3792
於實相	-11.3793
有為波若	-11.3794
無罪福	-11.3796
若據	-11.3797
陰中	-11.3799
令他	-11.3801
仁王	-11.3801
二諦教門	-11.3802
既不得	-11.3804
亦不應言	-11.3805
重空	-11.3807
若常無常	-11.3809
齊觀	-11.3812
有漏無漏	-11.3814
本自無生	-11.3815
種等	-11.3816
此比量	-11.3822
法忍	-11.3825
答一往	-11.3825
真金	-11.3827
世俗言說	-11.3828
礙故	-11.383
眼不能見	-11.383
此品中	-11.3833
下半釋	-11.3833
得戒	-11.3835
引二經	-11.3836
異宗	-11.3836
不無者	-11.3837
應信受	-11.384
下論	-11.384
第二念	-11.3841
可待	-11.3841
有名者	-11.3845
有六種	-11.3851
為令眾生	-11.3852
何名為	-11.3855
取果	-11.3855
所待	-11.386
乃能	-11.3863
偏明	-11.3864
深重	-11.3864
如實智	-11.3864
三時中	-11.3865
或體	-11.3867
物外	-11.3867
了不了	-11.387
能修	-11.3872
故不可言	-11.3873
見人	-11.3879
未解	-11.388
先立	-11.388
復須	-11.388
墮無因	-11.3885
未來現在	-11.3885
如大品云	-11.3887
說不說	-11.3888
入關	-11.389
畢竟寂滅	-11.3894
無因作	-11.3895
是同法喻	-11.3895
望也	-11.3895
不應分別	-11.3897
云何得有	-11.3897
至虗	-11.3898
實果	-11.3898
梵本	-11.3901
他相	-11.3901
內出	-11.3904
義利	-11.3904
異時	-11.3907
名家	-11.3911
名句	-11.3913
答此是	-11.3914
所害	-11.3916
菩提智	-11.3917
凡夫二乘	-11.3918
道門	-11.3919
問曰下第二	-11.3919
出生死	-11.3921
分齊	-11.3924
此中先	-11.3927
既不生	-11.3929
不可稱	-11.393
縱奪	-11.393
三相是	-11.3931
一切空	-11.3932
舉事	-11.3934
值佛	-11.3934
空智	-11.3934
非真實	-11.3936
地持論	-11.3936
但用	-11.3937
破除	-11.3937
實相般若	-11.3937
情執	-11.3938
別義	-11.3939
表不有	-11.394
傍破	-11.3941
小乘中	-11.3945
此問	-11.3949
而經云	-11.395
既能	-11.3952
之甚	-11.3953
作不作	-11.3954
方顯	-11.3955
如僧佉	-11.3956
故經言	-11.3957
未聞	-11.3958
作名	-11.396
凡物	-11.396
對破	-11.3963
然則下	-11.3964
觀義	-11.3965
為煩惱	-11.3966
有一物	-11.3969
智諦	-11.3969
故次破	-11.397
亦未曾	-11.3971
正因性	-11.3971
不遮	-11.3972
而不得	-11.3974
未曾有無	-11.3977
結盡	-11.3982
不來不去	-11.3983
凡有四	-11.3984
故不斷	-11.3986
可依	-11.3988
是龍樹	-11.3995
諸家	-11.3995
寄言	-11.3998
可證	-11.3999
實有性	-11.4001
初正釋	-11.4003
容有	-11.4003
明八不	-11.4005
無極	-11.4006
之門	-11.4007
不能起	-11.4008
將來	-11.4008
此則是	-11.4009
標章門	-11.401
皆因	-11.4013
本對	-11.4014
俱得	-11.4015
他者	-11.4016
六義	-11.4017
破汝	-11.4018
故名中道	-11.4019
成佛時	-11.402
未斷	-11.4021
於智	-11.4024
所執我	-11.4027
分中	-11.4029
一切眾生皆	-11.4034
若諸	-11.4038
顯矣	-11.4045
餘義	-11.4046
不可說言	-11.4048
如是觀察	-11.4051
能持	-11.4051
成論明	-11.4052
不可測	-11.4053
前來	-11.4055
有間	-11.4067
利根者	-11.4067
是故經云	-11.4073
通義	-11.4074
皆盡	-11.4075
△	-11.4078
自他共	-11.4078
無分位	-11.4081
不獨	-11.4082
如來品	-11.4083
違經	-11.4085
主諦	-11.4086
成實者	-11.4091
後一偈	-11.4092
一質	-11.4093
通經	-11.4094
就情	-11.4095
一切因果	-11.4096
此辨	-11.4096
又說	-11.4099
斷心	-11.41
微塵等	-11.41
獨立	-11.4101
非非有	-11.4101
云何不成	-11.4103
別者	-11.4105
斥破	-11.4112
答如	-11.4113
里	-11.4114
顯外人	-11.4115
出過	-11.4115
二諦理	-11.4117
若因中無果	-11.4123
是有故	-11.4123
初約	-11.4125
敬三寶	-11.4127
攝大乘論	-11.4132
心緣	-11.4133
如前釋	-11.4135
八法	-11.4138
總別一體	-11.4139
無因有果	-11.4143
所受用	-11.4145
如指	-11.4146
二智為	-11.4148
三藏中	-11.4153
是故諸法	-11.4154
不殺	-11.4157
障中道	-11.4158
具在	-11.4159
第二兩偈	-11.4165
諸極微	-11.4168
兩理	-11.4168
自覺	-11.4169
常性	-11.4172
進也	-11.4173
初正答	-11.4179
若用	-11.4184
如長短	-11.4185
不可令	-11.419
出意	-11.419
當現	-11.4191
果不生	-11.4193
會理	-11.4194
穢土	-11.4194
二涅槃	-11.4194
無漏法	-11.4198
中亦有	-11.4199
略出	-11.42
念生	-11.42
有九	-11.4201
真實義	-11.4206
瓶初	-11.4206
壞滅	-11.4208
二周	-11.4209
於凡有	-11.421
釋僧肇	-11.4211
說十二因緣	-11.4218
人有法	-11.4218
復何為	-11.4221
即無常	-11.4226
向有	-11.423
異彼	-11.4231
一意	-11.4232
所乘	-11.4237
悟非有非無	-11.4239
破一切法	-11.4241
此六	-11.4245
而轉	-11.4248
可會	-11.4249
名無名	-11.4259
同上	-11.4263
唯是一	-11.4263
之末	-11.4264
莫之	-11.4266
天地之	-11.4273
所釋	-11.4274
即波若	-11.4275
有無門	-11.4276
異計	-11.4278
不能自有	-11.4281
大住	-11.4284
歸無	-11.4287
則應有	-11.4289
無有餘	-11.4292
有三家	-11.4293
但立	-11.4296
魯	-11.4297
假名因緣	-11.4297
本來不生	-11.4303
發生正觀	-11.4304
地大	-11.4311
第二就	-11.4313
寡	-11.4316
佇	-11.4317
勒	-11.4319
所以稱	-11.4323
性空者	-11.4324
蔚	-11.4324
彼計	-11.4325
答之	-11.4326
弘始三年	-11.433
採	-11.433
火燒	-11.433
捨之	-11.433
姚	-11.4331
成實義	-11.4332
頻	-11.4332
顯體	-11.4332
心智寂滅	-11.4333
洪	-11.4334
企	-11.4336
冠	-11.4337
丸	-11.4338
色香味觸	-11.4339
螢	-11.4339
心大歡喜	-11.434
嚮	-11.4341
童	-11.4342
本經二十	-11.4342
捐	-11.4342
為何所	-11.4344
希夷	-11.4344
懷抱	-11.4345
困	-11.4345
暇	-11.4346
弘道終日	-11.4346
盈	-11.4346
恍	-11.4346
役	-11.4348
刻	-11.4349
偷	-11.435
柔	-11.435
爭	-11.4351
井	-11.4351
法爾	-11.4352
爻	-11.4353
十號	-11.4353
於此中	-11.4353
季	-11.4355
掩	-11.4355
注肇論疏	-11.4355
昧者不覺	-11.4356
眠	-11.4356
泛	-11.4357
唐捐	-11.4357
萌	-11.4357
杳	-11.4359
▁釋曰	-11.436
輪迴	-11.436
通釋	-11.436
有別體	-11.4361
更互相	-11.4361
常人	-11.4362
憂喜	-11.4362
側	-11.4362
凡有心者	-11.4362
即為三	-11.4363
彌綸	-11.4363
憎	-11.4363
嶽	-11.4363
荷	-11.4364
於昔	-11.4364
因謂之有	-11.4364
霄	-11.4365
因與因因	-11.4366
無名之致	-11.4366
戴	-11.4366
成毗二家	-11.4366
錯亂	-11.4366
晦	-11.4367
神御	-11.4367
剎	-11.4368
所以破	-11.4369
侶	-11.4369
罔象	-11.4369
是則為	-11.4369
豐	-11.4369
法尚	-11.4369
勇猛	-11.437
言語道斷	-11.437
打	-11.4371
初生燈	-11.4371
篤	-11.4371
補處	-11.4372
破上	-11.4372
瓶等諸物	-11.4372
軍林	-11.4372
列名	-11.4372
八聖道	-11.4372
薩婆多部	-11.4372
是因非果	-11.4372
陵	-11.4373
遷去	-11.4373
所知之境	-11.4373
緣盡於觀	-11.4373
恬淡	-11.4374
是果非因	-11.4374
累無不寂	-11.4374
遍一切處	-11.4375
生滅無常	-11.4375
伺察	-11.4375
一中解無量	-11.4375
徃來	-11.4375
世間相常住	-11.4375
昔物自在昔	-11.4376
即俗之真	-11.4376
無為波若	-11.4376
欲言其無	-11.4378
物我冥一	-11.4378
涅	-11.4378
取外意	-11.4379
是故偈中說	-11.4379
答曰下第三破救	-11.4379
以有觀故	-11.4379
明法空	-11.4379
樂苦癡	-11.438
認	-11.4381
萬里	-11.4381
相與而無	-11.4381
緣所不能生	-11.4381
譬喻部	-11.4381
本有始有	-11.4382
求生不得	-11.4382
不知何以目之	-11.4383
二人俱有	-11.4383
羣方	-11.4383
學士	-11.4384
以神從覺	-11.4385
瓔珞經云	-11.4385
畜生	-11.4385
性常自空	-11.4386
存亡	-11.4386
終歸於空	-11.4387
設教	-11.4387
不遷之旨	-11.4388
假有假無	-11.4389
偈本龍樹菩薩釋論分別明菩薩	-11.439
]	-11.439
真諦破假	-11.4393
世諦即第一義諦	-11.4393
涉求	-11.4393
猶如色等	-11.4393
即是因緣	-11.4394
一切有無法	-11.4395
▁157	-11.4395
[	-11.4395
f	-11.4395
妙智	-11.4395
8	-11.4396
十六諦	-11.4396
隣人	-11.4396
同疑因	-11.4397
四不四	-11.4399
是斷	-11.4399
無如此義	-11.44
通相	-11.44
下半正破	-11.4401
光宅云	-11.4401
荅言	-11.4401
不三三	-11.4401
不攝瓶	-11.4401
由有故無	-11.4401
以何義故	-11.4403
少年	-11.4403
發願	-11.4403
譬如餘物	-11.4404
過去未來現在	-11.4405
黑白	-11.4405
從因生	-11.4406
治病	-11.4407
譬如有人	-11.4409
須廢	-11.4409
諸佛世尊	-11.4409
因微	-11.441
不行中道	-11.4411
次舉	-11.4412
自性他性	-11.4412
心外	-11.4419
分有分	-11.4419
因無果	-11.442
二正答	-11.4423
所愛	-11.4424
舉果	-11.4426
無所相	-11.4427
互現	-11.4429
平等無二	-11.4431
應現	-11.4432
反責	-11.4433
出世法	-11.4435
盡滅	-11.4435
玄根	-11.4437
今第二破	-11.4438
未忘	-11.4438
本傳	-11.4438
豈復	-11.444
違自宗	-11.444
如鏡	-11.444
滅諸戲論	-11.4441
明與無明	-11.4442
慈心	-11.4442
五戒	-11.4442
隨順眾生	-11.4442
同真	-11.4444
三行	-11.4445
下釋第二	-11.4447
九種	-11.4448
是故下	-11.445
功業	-11.4451
今略舉	-11.4453
云何能生果	-11.4453
復作是	-11.4454
有所得大乘	-11.4454
真諦三藏	-11.4455
百論疏卷	-11.4457
佛答云	-11.4458
深玄	-11.4458
往而	-11.446
問波若	-11.4461
由前	-11.4462
同處	-11.4463
覩變	-11.4463
是故不得言	-11.4463
已謝	-11.4464
不煩	-11.4465
有處	-11.4465
法無故	-11.4468
不住無為	-11.4469
至長安	-11.4469
禮佛	-11.4469
何益	-11.4469
之生	-11.4471
利根人	-11.4472
色根	-11.4474
情計	-11.4475
復次偈	-11.4475
今始	-11.4476
夫聖人	-11.4478
墮負	-11.4478
初三句	-11.448
有此品	-11.4481
住世	-11.4483
第一云	-11.4486
三乘之人	-11.4486
不見佛	-11.4486
詳之	-11.4487
盲人	-11.4488
總攝一切	-11.449
一法一時	-11.4491
次難	-11.4492
光明等	-11.4494
於一切時	-11.4494
所無	-11.4494
不死	-11.4498
而論	-11.4499
解脫樂	-11.4501
妄分別	-11.4501
已盡	-11.4503
神用	-11.4504
不平等	-11.4505
如佛所說	-11.4506
如空中	-11.4506
眾分	-11.4508
既許	-11.4511
八種	-11.4513
於五陰	-11.4513
後陰	-11.4513
虛空是有	-11.4514
一語	-11.4514
初果	-11.4514
第二時	-11.4515
八計	-11.4525
莫過	-11.4525
數量	-11.4527
是常住	-11.4527
方可	-11.4527
空有俱	-11.4528
聞思	-11.4529
佛子	-11.4531
明得失	-11.4532
而言之	-11.4537
二諦相即	-11.4539
何足	-11.4539
成異	-11.4543
雙標	-11.4545
識心	-11.4545
請問	-11.4547
總身	-11.4548
六度等	-11.4551
始可	-11.4551
經稱	-11.4552
外道所計	-11.4553
無因而有	-11.4554
軌則	-11.4555
周易	-11.4557
一一別	-11.4557
耳目	-11.4559
惑也	-11.4559
數法	-11.4566
橫論	-11.4566
假說為	-11.4568
跋	-11.4569
為此義故	-11.4571
十演之	-11.4576
二百	-11.4577
八識	-11.4579
見瓶	-11.4579
王宮	-11.458
四師	-11.4582
故不名	-11.4583
無有自體	-11.4584
出三界	-11.4585
或有人	-11.4585
非非無	-11.4588
皆不能	-11.4589
自然有	-11.459
無常性	-11.459
俱泯	-11.459
遂成	-11.4591
明二諦中道	-11.4593
正定	-11.4593
靈明	-11.46
具四相	-11.4601
攝論云	-11.4603
世間出世間	-11.4606
有非真有	-11.4609
施作	-11.4612
有染者	-11.4613
諸法無性	-11.4616
四章	-11.4619
雖合	-11.462
則為常	-11.4621
彼業	-11.4624
有遠近	-11.4625
空病	-11.4626
故引	-11.4627
所覆	-11.463
要因	-11.4632
鈍根人	-11.4633
心無義	-11.4634
壞相	-11.4635
文句	-11.4635
悟無生	-11.4635
強為	-11.4637
為道者	-11.4639
奧	-11.464
者矣	-11.464
之患	-11.464
徵問	-11.4643
亦非實有	-11.4645
所作因	-11.4648
聽者	-11.4649
凡人	-11.4652
為火	-11.4653
為通	-11.4653
引放光	-11.4653
修多羅人	-11.4655
今是初	-11.4657
未嘗不	-11.4658
義說	-11.4658
前論	-11.4659
妄謂	-11.466
中已破	-11.466
無方分	-11.4662
無垢	-11.4663
一剎那中	-11.4667
歸依	-11.4669
合釋	-11.467
方便淨	-11.4672
悲心施	-11.4673
耳等	-11.4674
第三卷	-11.4675
之德	-11.4676
故放光云	-11.4678
理本	-11.4679
略同	-11.4685
今穀	-11.4685
息滅	-11.4687
反異	-11.4687
冥真	-11.4691
一地	-11.4697
大乘宗	-11.47
體成	-11.4703
前已破	-11.4704
有利鈍	-11.4706
內學	-11.4707
事外	-11.4709
今直	-11.4709
不假緣	-11.471
外緣	-11.4715
六事	-11.4719
重玄	-11.472
所感	-11.4723
無相違	-11.4723
空無所有	-11.4723
異解	-11.4726
佛土	-11.4726
內心	-11.4727
現相	-11.4729
此二義	-11.4729
非止	-11.473
證空	-11.4732
何得云	-11.4738
所屬	-11.474
號為	-11.4742
皆滅	-11.4743
名為法身	-11.4746
斷德	-11.4747
深淺	-11.4749
滅苦	-11.4752
假真	-11.4752
以相違故	-11.4754
於世俗	-11.4756
涅槃為果	-11.4766
必由	-11.4766
華嚴經	-11.4766
自相違	-11.4768
開因果	-11.477
大象	-11.477
境界性	-11.4774
波若波羅蜜	-11.4774
中品	-11.4778
初文	-11.4782
求法	-11.4783
答有二種	-11.4785
除其	-11.4786
無所得義	-11.4786
去者不去	-11.4786
亦有二	-11.4788
之源	-11.4795
無非無	-11.4796
喻如	-11.4802
執法	-11.4803
如瓶衣等	-11.4805
說不同	-11.4805
菩薩地	-11.4807
經論中	-11.4808
未來時	-11.4812
行布施	-11.4815
現世	-11.4816
顯色	-11.4819
如先所說	-11.482
一時俱	-11.482
若汝復	-11.482
於法身	-11.4821
通因果	-11.4821
是中亦無	-11.4827
亦有三	-11.4828
執常	-11.4832
答曰下第二	-11.4833
菩薩觀	-11.4836
無緣緣	-11.4836
一異破	-11.4841
若已有	-11.4844
言不有有	-11.4846
獨空	-11.4852
緣集	-11.4856
而墮	-11.4857
待義	-11.4861
不熱	-11.4861
約理	-11.4862
有人云	-11.4864
是二邊	-11.4864
品品	-11.4867
入滅	-11.487
自稱	-11.4871
我所欲	-11.4875
應須	-11.4875
為求	-11.4881
更開	-11.4884
自類	-11.4887
不能用	-11.4888
到彼	-11.4894
不樂	-11.4894
亦非涅槃	-11.4896
失因	-11.4898
於道	-11.4904
無所得故	-11.4905
善道	-11.491
開顯	-11.4911
作世界	-11.4912
申大小	-11.4912
即是解脫	-11.4913
世間眾生	-11.4915
凡所	-11.4916
亦有二種	-11.492
四計	-11.492
一宗	-11.4923
既非有	-11.4927
不疾	-11.4928
隅	-11.4933
一師	-11.4933
初句明	-11.4934
之聲	-11.4934
立義過	-11.4936
名世諦	-11.4938
復應	-11.4941
我今說	-11.4942
因為果	-11.4942
重成	-11.4943
即非有	-11.4945
影師	-11.4946
若離於	-11.4949
病人	-11.4951
文亦	-11.4953
是故汝言	-11.4962
心所	-11.4963
正說	-11.4965
彼等	-11.4967
苦因	-11.4971
後分	-11.4974
不具足	-11.4974
習果	-11.4975
不除	-11.498
若無自體	-11.4981
上求	-11.4983
理外無	-11.4984
死生	-11.4991
上二門	-11.4995
不生不滅等	-11.5
推徵	-11.5004
真解	-11.5007
別論	-11.5008
種種說	-11.501
之水	-11.5012
不唯	-11.5013
辦	-11.5013
得無生	-11.5015
故說名	-11.5015
此出	-11.5016
初兩偈	-11.5017
眾生與佛	-11.5022
雙釋	-11.5023
外人聞	-11.5024
證知	-11.5026
應當有	-11.503
申教	-11.5032
約境	-11.5034
惡人	-11.5034
名為實	-11.5037
所悟	-11.5039
而破	-11.5047
法王	-11.5047
猴	-11.5048
令悟不	-11.5051
空無性	-11.5053
無三寶	-11.5058
是則非	-11.5061
佛則	-11.5061
自然之	-11.5063
一乘之	-11.5064
婆伽婆	-11.5066
卷上	-11.5068
禹	-11.5069
四句者	-11.5073
以明空	-11.5075
幼	-11.5082
第三時	-11.5082
不更	-11.5083
人之所	-11.5084
恂恂	-11.5084
三惡道	-11.509
應可得	-11.5094
巳滅	-11.5097
諸人	-11.5098
皇	-11.5098
有通別	-11.5098
倉	-11.5099
堯	-11.5099
忘懷	-11.51
親友	-11.5102
班	-11.5102
大品明	-11.5102
波羅	-11.5103
漠	-11.5104
山林	-11.5105
愧	-11.5105
十翼	-11.5106
無慮	-11.5106
匠石	-11.5107
宛	-11.511
無人法	-11.511
坐禪	-11.5112
蹈	-11.5112
擔	-11.5114
念佛三昧	-11.5114
災	-11.5114
而不見	-11.5114
無會可撫	-11.5116
談真	-11.5117
庸	-11.5118
嶮	-11.5118
完	-11.5118
初結	-11.5119
龍光傳開善	-11.5119
弱喪	-11.5121
泰	-11.5122
銀	-11.5122
珍	-11.5122
耽	-11.5122
候	-11.5123
牛馬	-11.5125
影闇	-11.5125
男女等相	-11.5125
若提子	-11.5125
閻浮提	-11.5126
省	-11.5126
應逾動	-11.5126
因緣所生	-11.5126
坐道場	-11.5127
去者住	-11.5127
為首	-11.5127
塔	-11.5127
鎔	-11.5128
勇	-11.5128
電	-11.5128
冬	-11.5129
雖在昔而不化	-11.5129
撓	-11.513
曹	-11.513
入地獄	-11.513
斤	-11.5131
聾	-11.5132
五陰永滅	-11.5132
迭	-11.5132
旃延	-11.5132
幽靈不竭	-11.5132
何能生果	-11.5133
垂迹	-11.5134
諸入	-11.5134
脩短	-11.5135
代謝	-11.5135
八萬四千	-11.5135
從本以來	-11.5136
起行	-11.5136
生心動念	-11.5136
引說證成	-11.5137
勤勞	-11.5138
檀越	-11.5138
方寸	-11.5138
谷神	-11.5138
謂標釋結	-11.5139
見有得道	-11.5139
迦夷	-11.5139
德無不圓	-11.514
何以得知	-11.514
欲取	-11.5141
一家相傳云	-11.5141
衍	-11.5141
那忽	-11.5141
試論之曰	-11.5142
從大生	-11.5142
冥符	-11.5142
不動等覺而建立諸法	-11.5142
如龜毛等	-11.5143
正對	-11.5143
芻	-11.5143
果德	-11.5143
滅盡定	-11.5144
混融	-11.5145
生住異滅	-11.5145
若因若果	-11.5145
必求靜於諸動	-11.5145
即是法身	-11.5145
有十方分	-11.5146
威儀	-11.5146
有邊無邊	-11.5146
苦集滅道	-11.5148
竅	-11.5148
遷與不遷	-11.5149
不滅不來	-11.5149
變動	-11.5149
理無不契	-11.5149
禁	-11.515
緣起故不無	-11.515
。」△	-11.5151
無動	-11.5151
展轉相續	-11.5152
反質	-11.5153
物無當名之實	-11.5153
順忍	-11.5153
答略明	-11.5153
立已成	-11.5154
本性空寂	-11.5154
故下文云	-11.5155
稟教之流	-11.5155
因中前有果	-11.5155
物非真物	-11.5155
諸法無生	-11.5156
十六知見	-11.5156
不破暗	-11.5156
好尚	-11.5156
如是等類	-11.5157
假生假滅	-11.5157
有生有滅	-11.5157
遍破一切	-11.5157
罪福報應	-11.5158
成我所成	-11.5158
是事則不然	-11.5159
半滿	-11.516
此中明	-11.516
為二諦攝	-11.5162
比度	-11.5163
剎那剎那	-11.5163
天女曰	-11.5163
穀牙	-11.5163
於不二	-11.5165
餘皆	-11.5166
證時	-11.5166
我即無為	-11.5167
新舊	-11.5168
幻士	-11.5168
初如文	-11.5169
不復更滅	-11.5169
火能燒	-11.5169
三災	-11.5169
可稱	-11.517
體既無	-11.517
有因無因	-11.5172
空無我理	-11.5172
不著有	-11.5175
亦有亦無非有非無	-11.5175
玄微	-11.5176
如契經	-11.5178
無隅	-11.5178
有為俗	-11.5179
雙亡	-11.5179
論師等	-11.518
凡有三種	-11.5181
世間所解	-11.5182
本業經	-11.5182
今現見	-11.5182
時無別體	-11.5183
能表	-11.5184
三塗	-11.5185
若無體	-11.5185
徧計	-11.5185
散壞	-11.5185
敵論	-11.5187
永絕	-11.5187
二世無義	-11.519
摩訶衍論云	-11.519
常住佛果	-11.5191
一行半	-11.5193
殊勝	-11.5194
答中上半	-11.5199
學無所得	-11.5202
理致	-11.5203
失世諦	-11.5208
不識世諦	-11.521
第一偈	-11.5212
離二邊	-11.5216
遮止	-11.5218
卷第二	-11.5218
取意破	-11.5218
▁初引經	-11.5218
得繩	-11.522
利益眾生	-11.522
譬如瓶	-11.5221
隨其所	-11.5222
聖人之心	-11.5223
內入等	-11.5224
倒情	-11.5226
以破於	-11.5226
蹤跡	-11.5226
至昔	-11.5227
不矜	-11.523
十二門論云	-11.523
反成	-11.523
能生大	-11.523
有無相生	-11.5231
生死無始	-11.5231
苦聖諦	-11.5234
口業	-11.5236
止其	-11.5237
皆無自性	-11.5238
違宗	-11.5238
覺悟	-11.5246
▁○	-11.5248
而不失	-11.5251
內身	-11.5251
非作者	-11.5251
一家云	-11.5253
惑情	-11.5253
乃名為	-11.5254
同觀	-11.5256
常途	-11.5257
因中果	-11.5257
無所著	-11.5257
謂實有	-11.526
且約	-11.526
般若清淨	-11.5263
神體	-11.5264
計度	-11.5267
學大乘	-11.5268
得解脫者	-11.5269
執有無	-11.527
今詳	-11.5279
非名非	-11.528
不能自異	-11.5281
頌文	-11.5283
合譬	-11.5283
虗空無為	-11.5286
如經中說	-11.5286
大判	-11.5287
真諦無名	-11.5288
言非無	-11.5288
得知	-11.5289
相承	-11.5292
決了	-11.5294
是故應知	-11.5297
九折之	-11.53
此句明	-11.5302
分三	-11.5304
定不定	-11.5305
有無之表	-11.5305
同而異	-11.5306
不能是	-11.5309
世諦中有	-11.531
五情	-11.5311
生心	-11.5311
滅諸煩惱	-11.5311
智緣	-11.5312
此之三	-11.5313
入無餘	-11.5313
第二總結	-11.5315
能淨	-11.5316
玄宗	-11.5319
此標	-11.5322
徵責	-11.5322
責異	-11.5324
去不去	-11.5325
所收	-11.5326
王子	-11.5326
二世無	-11.5327
數數	-11.533
諸門	-11.5332
情見	-11.5332
性淨	-11.5336
問他	-11.5336
是作故	-11.5337
順通	-11.5337
有空為真諦	-11.5338
諸句	-11.5341
次解	-11.5342
此引證	-11.5343
外人義	-11.5343
退轉	-11.5343
在世	-11.5344
有相故	-11.5345
問何故破	-11.5346
第三一偈	-11.5349
兩言	-11.535
若能如是	-11.5351
覺了	-11.5351
離合	-11.5351
大小俱	-11.5353
起愛見	-11.5354
亦除	-11.5354
空解脫門	-11.5355
迴心	-11.5358
大德	-11.536
始教	-11.5363
抱一	-11.5364
既悟	-11.5364
無思	-11.5366
決定無	-11.5367
隨轉	-11.5371
心意	-11.5374
如色等	-11.5375
第二章	-11.5376
墮於常	-11.5377
是因緣義	-11.538
歸本	-11.538
何故非	-11.5382
非有性	-11.5386
不從因緣	-11.5386
於勝義	-11.5393
鑒有	-11.5396
無為相	-11.5397
下總結	-11.5398
小成	-11.5403
書問	-11.5405
依毘曇	-11.5407
學教	-11.5408
起惡	-11.5408
有三階	-11.5409
異位	-11.5409
伏惑	-11.5414
依他性	-11.5414
去人	-11.5419
則無自性	-11.5423
斷集	-11.5424
如來性	-11.5429
初二句明	-11.5431
不行於	-11.5433
應是無常	-11.5437
相待義	-11.5437
元無	-11.5438
所造作	-11.5438
如金剛	-11.5439
六通	-11.5441
眾生是佛	-11.5441
上來明	-11.5441
從無明	-11.5445
見思	-11.5447
方曰	-11.5447
如經偈	-11.5449
夫人經	-11.5449
盡不盡	-11.5453
彼處	-11.5455
上三門	-11.5455
乃知	-11.5458
既是無	-11.5459
驗知	-11.5464
宜當	-11.5469
心慧	-11.5469
所遣	-11.5469
亦不同	-11.5472
問若然	-11.5472
前已廣	-11.5474
七業	-11.5475
此一句	-11.5476
生歡喜	-11.5476
照空有	-11.5477
不能說	-11.5479
未待	-11.5485
非二不二	-11.5487
執見	-11.5487
亦如前	-11.549
責破	-11.549
有質礙	-11.549
十二處	-11.5491
尚不能	-11.5493
名有餘	-11.5497
亦不名	-11.5505
何不名	-11.5505
成正覺	-11.5508
問有二	-11.551
諸佛說法	-11.5513
或見	-11.5519
今悟	-11.552
方便用	-11.552
理實無	-11.5524
小乘義	-11.5525
名號	-11.5525
法自體	-11.5529
取悟	-11.5531
之益	-11.5532
中道正觀	-11.5539
假有無	-11.554
此十二	-11.5541
非聲	-11.5542
不備	-11.5543
為邪見	-11.5544
摩訶波若	-11.5546
妄取	-11.555
違理	-11.5552
兩偈為	-11.5555
故疏云	-11.5555
之謂也	-11.5558
公曰	-11.5562
在家	-11.5563
大王	-11.5566
不了義	-11.5567
唯我	-11.5567
無生義	-11.5568
此亦如是	-11.5569
假號	-11.557
分析	-11.557
若識	-11.5575
而歸	-11.5588
證有神	-11.5598
虛空是無	-11.5602
來世	-11.5603
願力	-11.5603
成實明	-11.5603
一一根	-11.5604
入一乘	-11.5607
入法性	-11.5607
外道等	-11.5611
定有性	-11.5613
第三結	-11.5621
破毘曇	-11.5621
故下云	-11.5633
離薪	-11.5633
敘之	-11.5636
俱時	-11.5637
云何待	-11.5637
不覺知	-11.5637
自性涅槃	-11.5642
無漏業	-11.5642
質礙	-11.5643
仁者	-11.5644
何故偏	-11.5647
肇之	-11.5648
大利	-11.5654
問云何為	-11.5656
靈智	-11.5658
妄智	-11.566
汝言有	-11.566
不留	-11.5666
二十七品	-11.5673
意趣	-11.5677
更作	-11.5677
作難	-11.5677
之經	-11.5679
亦不立	-11.5679
斷常見	-11.5681
我意	-11.5683
樂欲	-11.5685
重救	-11.5685
執情	-11.5692
又前破	-11.5694
已見	-11.5696
不借	-11.5697
則知有	-11.5704
四對	-11.5705
復由	-11.5706
悟不二	-11.5707
是何等	-11.5712
義亦如是	-11.5713
前過失	-11.5716
中假義	-11.5717
注為	-11.5718
如舍利弗	-11.5718
須破	-11.5721
復次若謂	-11.5725
有因有果	-11.5732
▁諦	-11.5734
常淨	-11.5743
之所歸	-11.5743
是故名	-11.5745
行般若波羅蜜	-11.5745
皆是無常	-11.5746
不虗	-11.5747
執實	-11.5748
聽法	-11.5748
邪觀	-11.5749
皆無所有	-11.575
如車	-11.5765
體用不二	-11.5769
覺分	-11.5769
有五種	-11.5772
了出	-11.5774
亦復非	-11.5774
諸所作	-11.5776
論主云	-11.5776
能御	-11.5777
非定有	-11.5779
有無兩	-11.578
一卷	-11.5783
方便實	-11.5784
九折	-11.579
墮斷滅	-11.5791
於其中	-11.5793
猶是一	-11.5794
我無過	-11.5797
二十一	-11.58
萬世	-11.5801
無味	-11.5801
有二門	-11.5802
空有兩	-11.5804
標指	-11.5807
能住	-11.5808
妙體	-11.5811
無染	-11.5812
後文	-11.5816
非無為	-11.5817
破此二	-11.5817
以理推	-11.582
世智	-11.5823
不復生	-11.5824
眾緣中	-11.583
章中	-11.583
復有異	-11.5832
能分別	-11.5833
論大宗	-11.5834
是故決定	-11.5845
所宜	-11.5848
生怖畏	-11.5852
定宗	-11.5859
須破之	-11.5859
而今有	-11.586
亦如此	-11.5861
虛心	-11.5864
如數論	-11.5866
已具	-11.5871
半無	-11.5873
說佛性	-11.5873
即是真諦	-11.5873
第四偈	-11.5875
自不成	-11.588
都是	-11.5886
詩云	-11.589
收取	-11.589
內外兩	-11.5891
非根境	-11.5896
緣由	-11.5898
無生觀	-11.5898
直非	-11.59
巳斷	-11.5902
多門	-11.5904
陸	-11.5904
托	-11.5912
忍辱	-11.5913
無顛倒	-11.5916
如大經	-11.5917
難信	-11.5919
陰身	-11.5919
舞	-11.592
陰攝	-11.592
顏	-11.592
三法一體	-11.5921
如華嚴	-11.5924
還就	-11.5925
楚	-11.5929
無所得善	-11.593
魂	-11.593
瀑	-11.593
一途	-11.5932
危	-11.5932
岳	-11.5934
煮	-11.5935
辛	-11.5937
槃	-11.5938
粗	-11.5939
龜	-11.594
皮陀	-11.594
開道	-11.594
謹	-11.5941
獸	-11.5941
蹄	-11.5941
繼	-11.5942
罷	-11.5942
險	-11.5943
符堅	-11.5944
焦	-11.5944
誨	-11.5945
有三諦	-11.5945
神而無功	-11.5946
妻	-11.5946
泉	-11.5946
祛	-11.5947
案	-11.5948
話	-11.5949
浩	-11.595
諸法師	-11.595
東晉	-11.595
論序	-11.5951
嵩	-11.5951
倣	-11.5951
徑	-11.5952
憙	-11.5952
斧	-11.5953
臂	-11.5953
碍	-11.5954
十萬偈	-11.5954
為破彼執	-11.5955
圍	-11.5955
鹿苑	-11.5956
四大所生色	-11.5956
蘭	-11.5956
謀	-11.5956
羈	-11.5956
曇摩	-11.5956
猛利	-11.5956
多果	-11.5956
銷	-11.5957
於今未甞有	-11.5957
燃燈佛	-11.5958
坑	-11.596
懼	-11.596
趨	-11.596
惡止善行	-11.596
決擇	-11.5961
循	-11.5961
闍那	-11.5961
抱一湛然	-11.5961
物類	-11.5961
洽	-11.5961
正解	-11.5962
汗	-11.5962
除糞	-11.5963
此一章	-11.5963
暑	-11.5964
褒貶	-11.5964
禾	-11.5964
拒	-11.5965
百家	-11.5966
賓主	-11.5966
氷	-11.5967
森羅	-11.5967
不可以智知	-11.5967
無明住地	-11.5967
思擇	-11.5968
高僧傳	-11.5968
着寂	-11.5968
無滯而不通	-11.5968
皆稱	-11.5968
陽焰	-11.5968
色不自色	-11.5968
放逸	-11.5969
皎	-11.5969
叩	-11.5969
宰	-11.597
善知識	-11.597
京	-11.5971
隣虛	-11.5971
今所明者	-11.5971
理無差	-11.5972
論初已來	-11.5973
廁	-11.5974
稻穀等	-11.5974
損害	-11.5974
又一切法	-11.5974
各性住於一世	-11.5974
兩言一會	-11.5975
觀盡於緣	-11.5976
四悉壇	-11.5976
能緣所緣	-11.5976
諦不諦	-11.5976
無狀無名	-11.5976
靜而非動	-11.5977
金剛三昧	-11.5977
法性生身	-11.5977
阿梨耶識	-11.5978
塊	-11.5978
依福捨罪	-11.5978
無動轉者	-11.5978
無如上過	-11.5979
群情	-11.5979
一有一無	-11.598
自上以來	-11.598
即是顛倒	-11.598
聖無有無之知	-11.5981
虛不失照	-11.5982
非實非不實	-11.5982
北土	-11.5983
撥無因果	-11.5983
涅盤	-11.5983
物莫之逆	-11.5983
起盡法	-11.5983
餘分	-11.5984
能破所破	-11.5984
但有名字	-11.5984
性莫之易	-11.5985
色聲香味觸	-11.5985
陰入界	-11.5985
譬如幻化人	-11.5986
譯經	-11.5987
因中有果無果	-11.5987
無我無我所	-11.5987
人法俱有	-11.5987
似空花	-11.5987
名實無當	-11.5987
不生亦不滅	-11.5987
薩波若	-11.5988
萬像	-11.5988
觀門次第	-11.5989
此間	-11.5989
眾緣合時	-11.599
有於凡實	-11.599
江南	-11.599
可壞	-11.5991
二人俱無	-11.5991
學道	-11.5993
無功	-11.5993
十二相生	-11.5994
聖智之無	-11.5994
為凡說有	-11.5994
怙	-11.5995
釋卷第十	-11.5995
數義	-11.5996
譬如耶若達多	-11.5996
生時亦不生	-11.5997
善星	-11.5998
此無過失	-11.5998
眼光	-11.5999
體位	-11.6
勸捨	-11.6001
?「	-11.6001
無所從來	-11.6001
化母	-11.6002
不出人法	-11.6003
借無以	-11.6003
無有定相	-11.6003
何處當有	-11.6003
真即俗	-11.6004
復次有作是	-11.6004
凡有四義	-11.6004
汝不應言	-11.6004
差別無差別	-11.6007
眼能見	-11.6007
如汝所言	-11.6007
如來無一切智	-11.6008
即屬	-11.6008
頓教	-11.6012
聰明	-11.6013
三解脫門	-11.6018
待不待	-11.6019
大用	-11.602
三乘同觀	-11.6021
從因生果	-11.6021
施時	-11.6021
亦例	-11.6022
端正	-11.6023
重牒	-11.6023
能作所作	-11.6024
接引	-11.6025
靈照	-11.6028
深妙	-11.6028
文勢	-11.6028
關內	-11.6029
逆順	-11.603
入於涅槃	-11.603
起信論	-11.6031
不二之旨	-11.6033
略有二種	-11.6034
空為空	-11.6035
能伏	-11.6035
彼去者	-11.6036
▁二正答	-11.6036
此中應知	-11.6038
猶未盡	-11.604
自體生	-11.6041
善惡等	-11.6042
加行	-11.6043
含識	-11.6045
定惠	-11.6045
他作苦	-11.605
玅道	-11.605
受受者	-11.6053
六難	-11.6053
思念	-11.6054
他論	-11.6055
亦因	-11.6057
有與無	-11.6059
致令	-11.606
反照智	-11.606
聖人無心	-11.6061
得清淨	-11.6066
□□□□□	-11.6066
不忘	-11.6068
王宮生	-11.6069
果空故	-11.6072
得佛理	-11.6074
言非有非無	-11.6076
種種差別	-11.6078
合上	-11.6082
不並	-11.6083
下第	-11.6087
所謂非有	-11.6088
此有何異	-11.6089
作天	-11.6091
自相住	-11.6094
滅惡	-11.6094
佛理	-11.6096
因果相生	-11.6098
塵想	-11.6098
遷不遷	-11.61
欲使	-11.6102
機感	-11.6102
略有三	-11.6103
必得	-11.6103
令物	-11.6104
人無我	-11.6105
眼識等	-11.611
理奪	-11.611
直以	-11.611
無同法喻	-11.6118
罪業	-11.6118
巳見	-11.6119
如來智	-11.6124
未縛	-11.6124
如前云	-11.6125
數人云	-11.6126
兩字	-11.6127
絕相	-11.6129
故被破	-11.613
悟實相	-11.6131
都無所有	-11.6132
正在	-11.6134
成斷常	-11.6135
已辨	-11.6136
為凡夫	-11.6137
往來者	-11.6138
一切行	-11.6142
爾耶	-11.6144
未生而生	-11.6147
若無相	-11.6147
我法中	-11.6149
如來所說	-11.615
若有性	-11.615
既無自性	-11.6151
下三句	-11.6155
利益他	-11.6155
其義不成	-11.6156
不從他生	-11.6156
道果	-11.6159
無復有	-11.616
於聖心	-11.6162
有知無知	-11.6162
垢心	-11.6163
開為四	-11.6165
受持	-11.6166
千萬	-11.617
可住	-11.6173
得人空	-11.6174
最大	-11.6174
以不生故	-11.6177
非有非無為中	-11.6183
有餘無餘者	-11.6183
竝觀	-11.6186
依主	-11.6189
所了	-11.6194
因緣二諦	-11.6199
遷而	-11.6202
改變	-11.6203
四海	-11.6204
直就	-11.6204
只以	-11.6206
不到闇	-11.6213
定是有	-11.6214
凡迷	-11.6215
有無之境	-11.6217
還用	-11.6217
無見有	-11.6218
佛言不	-11.6219
亦不可言	-11.6221
應迹	-11.6222
常依二諦	-11.6224
同虗空	-11.6226
無有決定	-11.6226
得無上菩提	-11.6227
因果俱	-11.6227
外塵	-11.6228
順理	-11.6236
只此	-11.6239
能使	-11.6242
法自相	-11.6243
呵外人	-11.6248
有廣略	-11.6249
無作業	-11.6253
橫破	-11.6254
如佛說	-11.6254
緣中無	-11.6254
初難	-11.6254
心無所依	-11.6256
聲無常	-11.6258
眾緣合	-11.6259
反難	-11.6262
本自不	-11.6263
不可言說	-11.6267
不害	-11.6268
無三相	-11.6274
以之為	-11.6277
四象	-11.6277
四住	-11.6277
名為慧	-11.6278
學小乘	-11.6278
因不生果	-11.628
自所依	-11.6281
例同	-11.6286
四流	-11.6289
眾流	-11.629
虛通	-11.6291
門外	-11.6294
於斯	-11.6295
宛然而有	-11.6303
六諦	-11.6305
塵成	-11.6305
若本有	-11.6309
乃可	-11.6309
四陰	-11.6323
先舉	-11.6334
四字	-11.6338
不可翻	-11.6339
雙難	-11.6346
實爾	-11.6347
起一念	-11.6347
為七	-11.6349
迷惑	-11.6351
兩殊	-11.6352
王言	-11.6353
一陰	-11.6356
我思	-11.6356
斷善根	-11.6365
大小兩教	-11.6367
合德	-11.637
不得解脫	-11.6372
無淺深	-11.6375
眾見	-11.6376
正勤	-11.6377
卷第四	-11.6382
無有差別	-11.6384
形量	-11.6385
進之	-11.6385
隨滅	-11.6386
汝意欲	-11.6386
悲智	-11.6387
古之	-11.6388
一切皆是	-11.6391
動搖	-11.64
為頂	-11.64
一切境	-11.6405
搖	-11.6405
不欲得	-11.6407
大樂	-11.6407
現在未來	-11.6409
接前	-11.6414
不從他	-11.6417
本有佛性	-11.6421
先敘	-11.6431
破作作者	-11.6432
三段	-11.6434
後當廣	-11.6437
卷第三	-11.6439
合不合	-11.6443
果先有	-11.6447
實句	-11.645
法可說	-11.6453
相害	-11.6455
不久	-11.6455
利鈍	-11.6456
不可異	-11.646
不傷	-11.6461
當來	-11.6463
云何而言	-11.6464
七品	-11.6466
有傍正	-11.6467
有二釋	-11.6471
正思惟	-11.6472
對二乘	-11.6475
火體	-11.6475
見倒	-11.6476
無為法中	-11.6481
唯取	-11.6483
不從因緣生	-11.6486
只見	-11.6486
決定無生	-11.6496
而可成	-11.6497
所了知	-11.6497
無所滅	-11.6499
是有見	-11.6502
之機	-11.6504
五常	-11.6508
能論	-11.6511
何假	-11.6515
五住	-11.6518
般若方便	-11.6522
菩薩位	-11.6525
陰外	-11.6528
應感	-11.6528
有所得義	-11.6531
終無有	-11.6537
宜以	-11.654
有一瓶	-11.6544
為淺	-11.6545
名不思議	-11.6546
誓願	-11.655
非照	-11.6558
之惑	-11.6559
依二諦說	-11.6563
略論	-11.6563
總答	-11.6565
我所立	-11.6567
譬於	-11.6568
兩文	-11.657
常靜	-11.657
偈上半牒	-11.6572
不明了	-11.6575
自樹	-11.6575
問云何是	-11.6579
常倒	-11.6584
變生	-11.6586
十演	-11.6594
自性空故	-11.66
有幾	-11.6601
應變	-11.6602
非緣生故	-11.6604
染等	-11.6606
斷常二見	-11.661
大心	-11.6613
多聞	-11.6615
世諦破性	-11.6617
玄理	-11.6621
相助	-11.6622
即無復	-11.6623
得並觀	-11.6624
六道眾生	-11.6626
成得	-11.6629
今破其	-11.6629
方起	-11.6636
歸一乘	-11.6637
非直	-11.6639
唯依	-11.664
正受	-11.6641
滅則無	-11.6647
緣感	-11.6649
象師	-11.6653
為不	-11.6653
中道義	-11.6658
更增	-11.666
念言	-11.6662
將何	-11.6667
兼破	-11.6667
云何驗	-11.6687
我亦不	-11.6692
諸佛所說	-11.6693
又汝言	-11.6698
無無知也	-11.6703
詮理	-11.6704
略引	-11.6711
便墮	-11.6712
虗而不	-11.6715
三界繫	-11.6716
第二雙	-11.6716
佛國土	-11.6717
菩薩乘	-11.6718
釋迦佛	-11.6718
偏釋	-11.6719
無窮破	-11.6721
是所緣	-11.6726
無量名	-11.6727
有二十	-11.6729
等諸因	-11.6731
耳聞	-11.6732
以彼為	-11.6733
生義不成	-11.6737
邪教	-11.674
此品初	-11.6741
助成	-11.6744
二死	-11.6744
自他俱	-11.6753
本處	-11.6755
漏無漏	-11.6761
不二理	-11.6763
此中如是	-11.6773
依報	-11.6774
釋疑	-11.6777
法花經	-11.6784
無滯	-11.6788
不障	-11.6796
若為是	-11.6798
為福	-11.6802
離法有	-11.6805
兩異	-11.6808
小智	-11.6809
魏	-11.6813
姚主	-11.6815
維摩詰	-11.6819
吞	-11.6823
姑臧	-11.6823
蓮社	-11.6824
動用	-11.6826
黃帝	-11.6827
指後	-11.683
陶	-11.6836
義邊	-11.6836
畢竟無有	-11.6838
虛言	-11.6838
已有果	-11.6839
醉	-11.684
甲	-11.6841
緒	-11.6844
快	-11.6845
創	-11.6846
駕	-11.6846
煥	-11.6847
遐	-11.6847
骨	-11.6848
秀	-11.685
習種性	-11.6851
為本有	-11.6851
柰	-11.6851
俗亦諦亦非諦	-11.6852
拯	-11.6852
竊	-11.6852
翅	-11.6852
詭	-11.6853
璃	-11.6854
大乘教	-11.6854
七地以上	-11.6855
儒老	-11.6855
肆	-11.6855
是能化	-11.6855
汰	-11.6855
痛	-11.6856
祈	-11.6856
若是中論	-11.6858
小後大	-11.6858
老莊	-11.6858
數以應之	-11.6858
剋	-11.6858
因中先有	-11.6858
挍	-11.6859
東南	-11.6859
少壯	-11.6859
愕	-11.6859
雖處有名之中	-11.686
紙	-11.686
三雙六句	-11.6861
延促	-11.6861
踟	-11.6861
鉤	-11.6861
初十心	-11.6861
訶	-11.6862
桑	-11.6863
須臾	-11.6863
喜樂	-11.6863
祇	-11.6864
雲庵	-11.6864
嫌	-11.6865
洲	-11.6865
瞻	-11.6866
羅睺羅	-11.6866
遭	-11.6866
圜	-11.6866
襟	-11.6866
玄之又玄	-11.6867
與物推移	-11.6867
支道林	-11.6867
芳	-11.6868
是則名為	-11.6868
園	-11.6868
生緣老死	-11.6868
蘇酪	-11.6868
茫	-11.6868
臥	-11.6868
斬	-11.6869
用即寂	-11.6869
神彌靜	-11.6869
未滿	-11.6869
縣	-11.687
食油	-11.687
踰	-11.687
昔物住昔	-11.687
於向未甞無	-11.6871
猥	-11.6871
樓	-11.6871
會不失機	-11.6871
吠	-11.6872
焚燒	-11.6872
知無所遺	-11.6872
怨	-11.6872
童壽	-11.6872
十八界	-11.6873
誑惑	-11.6873
三獸渡河	-11.6873
前果後因	-11.6873
摩耶經	-11.6874
三破救	-11.6874
法自相相違	-11.6875
義中說	-11.6875
瑜伽	-11.6875
譯場	-11.6875
晚	-11.6875
不從非緣生	-11.6876
讚歎	-11.6877
阿羅漢辟支佛	-11.6877
三是故下結	-11.6878
垢淨	-11.6878
諱	-11.6878
截	-11.6879
琰	-11.6879
虫	-11.6879
無來無去	-11.6879
廣狹	-11.6879
否	-11.6879
真如為	-11.688
即事而真	-11.688
去者不至方	-11.688
言而無當	-11.688
改易	-11.688
高尚	-11.688
非本非始	-11.688
施莫之廣	-11.688
照體	-11.688
桎梏	-11.6881
倚	-11.6881
超越	-11.6881
寂寥	-11.6881
為莫之大	-11.6881
左右	-11.6881
二世有義	-11.6881
誡	-11.6881
糸	-11.6882
瓦	-11.6882
以實為義	-11.6882
定住	-11.6882
瞖	-11.6882
古譯	-11.6883
暨	-11.6883
寂怕	-11.6883
能生於果	-11.6883
所作性故	-11.6883
宿命	-11.6884
醜	-11.6884
差殊	-11.6884
聞熏習	-11.6884
落有所得	-11.6884
生死長遠	-11.6884
墮頂	-11.6884
以目品	-11.6884
浣	-11.6884
睡	-11.6885
觀方知彼去	-11.6885
體同時用前後	-11.6885
依名釋義	-11.6885
色性自空	-11.6885
無而謂有	-11.6886
無心於內	-11.6886
開二關責	-11.6886
物莫之無	-11.6887
橫絕百非	-11.6887
曇無德	-11.6887
雖往而常靜	-11.6887
應會之道	-11.6888
稟佛教	-11.6888
輪王	-11.6888
雖靜而常往	-11.6888
佛與菩薩	-11.6889
離去有去	-11.6889
若尒	-11.6889
補特伽羅	-11.6889
如幻夢	-11.6889
至論佛性	-11.6889
昔物在昔	-11.6889
汝不善說	-11.6889
壞故不常	-11.689
待長	-11.689
照不失虛	-11.6891
生生生時	-11.6891
亦為遮空所對治	-11.6891
法空故	-11.6891
要誓	-11.6892
雖有而非有	-11.6892
所乘不一	-11.6892
有得有失	-11.6892
若以無相為無相	-11.6892
眾糸	-11.6893
為緣之所起	-11.6894
根性不同	-11.6894
分別戲論	-11.6895
聚散	-11.6895
無生亦無滅	-11.6895
互相因待	-11.6895
今此品者	-11.6895
無為雖一	-11.6895
非生死非涅槃	-11.6896
苦樂癡	-11.6897
非無幻化人	-11.6897
空無相無作	-11.6897
能依所依	-11.6898
惑智之無	-11.6898
師資	-11.6899
能捨	-11.6899
生已更生	-11.6899
能說是因緣善滅諸戲論	-11.6899
無有方所	-11.6899
亦實亦不實	-11.6899
初發心菩薩	-11.6901
取及取者	-11.6901
其然矣	-11.6902
鞞世師等	-11.6902
於教二諦	-11.6902
一亦無三	-11.6902
境空	-11.6902
非有邊非無邊	-11.6902
道慧道種慧	-11.6903
亦有邊亦無邊	-11.6903
無不自無	-11.6903
依世諦說	-11.6904
至于	-11.6905
還源	-11.6905
末代	-11.6906
最第一	-11.6906
肇公不遷	-11.6907
無所寄	-11.6907
立義有過	-11.6908
不見空與不空	-11.6908
於聖是實	-11.6909
二與不二	-11.691
了達非有無	-11.691
還歸	-11.6911
功德智慧	-11.6911
文易知	-11.6911
令開解	-11.6912
遷變	-11.6912
如上所說	-11.6912
靈鑒	-11.6913
久習	-11.6914
卷第五	-11.6915
入芥子	-11.6915
亦是無常	-11.6915
聲聞法中	-11.6916
不盡有為	-11.6916
興皇大師	-11.6917
佛不出世	-11.6917
遍計所執自性	-11.6919
歎美	-11.6919
瓶與有合	-11.6919
有所得善	-11.692
過甚	-11.6921
有無之數	-11.6921
但不但	-11.6921
善財	-11.6922
驗破	-11.6923
度一切眾生	-11.6924
下第七	-11.6924
如先已遮	-11.6925
此說不然	-11.6927
靈覺	-11.6929
故名為佛	-11.6929
問曰下第三	-11.693
則無復	-11.693
玄機	-11.6931
假無不名無	-11.6931
無依無得大乘四論玄義記卷第	-11.6931
何勞	-11.6932
暫住	-11.6932
前後際	-11.6933
初兩句	-11.6935
次段	-11.6935
變現	-11.6935
窮學	-11.6937
是法住法位	-11.6938
體無異	-11.6938
改轉	-11.694
義亦同	-11.6941
當生善	-11.6943
亦不從他生	-11.6944
不得法空	-11.6944
睿師	-11.6945
所知障	-11.6946
求解脫	-11.6948
一家意	-11.6948
不極成	-11.6952
謂之無	-11.6952
諸國	-11.6953
但有言說	-11.6954
先際	-11.6954
往來生死	-11.6957
下半呵	-11.696
之鄉	-11.6963
無果因	-11.6964
猶尚	-11.6965
帝釋	-11.6967
無因邪因	-11.6968
依勝義諦	-11.6972
水想	-11.6973
互舉	-11.6974
諸法無自性	-11.6974
且止	-11.6974
大秦	-11.6978
並皆是	-11.6981
有何所以	-11.6982
有悲心者	-11.6983
不從因生	-11.6983
五音	-11.6984
雖空而	-11.6984
諸結使	-11.6985
如契經言	-11.6985
覩其	-11.6985
本無生	-11.6988
墮地獄	-11.6989
強立	-11.6989
聲聞乘	-11.6991
品開為二	-11.6991
是故釋云	-11.6991
是故偈言	-11.6993
廣示	-11.6997
百偈	-11.6997
雙遮	-11.7
羣生	-11.7002
一切法無生	-11.7003
心行滅	-11.7006
觀五陰	-11.7009
一切法性空	-11.7009
一微	-11.7011
作是念	-11.7011
更無餘	-11.7011
有法自相	-11.7012
從緣而生	-11.7021
成辦	-11.7021
名俗諦	-11.7022
如鳥	-11.7024
第三家	-11.7025
作此論	-11.7026
故須破之	-11.7027
畢竟淨	-11.7027
一時而有	-11.7028
如是意	-11.7029
心意識	-11.7031
普應	-11.7032
互相違故	-11.7034
眼不見	-11.7035
無名無相	-11.7038
相異故	-11.7039
車輪	-11.7042
以無自性故	-11.7042
佛法內	-11.7042
窮極	-11.7042
辨差	-11.7043
一切言說	-11.7046
詰難	-11.7048
因非因	-11.705
通而為	-11.7054
不相至	-11.7054
若先有果	-11.7057
立量破	-11.7059
不識二諦	-11.7059
提婆菩薩	-11.7059
取信	-11.7064
其辭	-11.7065
例前	-11.7066
所染	-11.7069
無所緣	-11.7072
有為無	-11.7074
佛寶	-11.7081
運載	-11.7082
自在天作	-11.7082
第二論	-11.7083
春時	-11.7084
外事	-11.7084
諸法有體	-11.7085
去聲	-11.7085
有而不有	-11.7086
緣生之法	-11.7087
如我所說	-11.7088
非無知也	-11.7093
所持	-11.7094
依智度論	-11.7098
不能自見	-11.7101
假使	-11.7103
應如色等	-11.7104
無暗	-11.7106
一義耳	-11.7106
種種分別	-11.7108
十里	-11.7109
無生滅觀	-11.7111
所成法	-11.7112
神妙	-11.7112
三推釋	-11.7112
釋諦	-11.7114
學般若	-11.7115
為息	-11.7117
經旨	-11.7119
水月	-11.712
二皆不成	-11.7121
為所緣	-11.7123
有所住	-11.7123
破他法	-11.7124
諸法是有	-11.7126
有不成過	-11.7126
勢破	-11.7127
多途	-11.7127
之玅	-11.7135
滅於前	-11.7137
世間現見故	-11.7138
與舊	-11.7138
佛不說	-11.7141
無來去	-11.7142
今明二諦	-11.7143
是能相	-11.7146
終不得	-11.7146
前生後	-11.7149
我不言	-11.7153
有四難	-11.7156
之貌	-11.716
深廣	-11.716
名為去者	-11.7161
既亡	-11.7162
若不如是	-11.7164
終是一	-11.7165
假有不有	-11.7166
破空品	-11.7169
前偈明	-11.7171
世尊說	-11.7171
因果相續	-11.7171
為聖說	-11.7172
為患	-11.7172
如涅槃經云	-11.7174
說八不	-11.7174
有作是	-11.7177
三百	-11.7182
釋論中	-11.7184
可領	-11.7186
去世	-11.7189
此並是	-11.7191
以之而	-11.7193
緣發	-11.7196
世事	-11.7198
不成問答	-11.7199
羅云	-11.7204
世俗諦中	-11.7208
之懷	-11.7208
反顯	-11.7209
能生諸法	-11.7211
二諦二智	-11.7211
此則不然	-11.7212
亦不起	-11.7218
何須更	-11.7224
破微塵	-11.7226
日光	-11.7227
必待	-11.7228
捨受	-11.7233
不續	-11.7234
第二縱破	-11.7234
貪求	-11.7235
六家	-11.7235
是三乘通教	-11.7235
故言不有有	-11.7236
如來自體	-11.7237
開悟	-11.7237
不取相	-11.7238
心慧境	-11.7239
有深淺	-11.724
廣分別	-11.7242
壞苦	-11.7244
河傾	-11.7246
性實生滅	-11.7247
乖理	-11.7248
兩門	-11.7251
明權實	-11.7256
六十二	-11.7256
妙果	-11.7258
殊異	-11.7267
甘露法	-11.727
一豪	-11.7272
惑滅	-11.7273
有三門	-11.7273
進趣	-11.7279
一切皆無	-11.7281
例知	-11.729
何能生本生	-11.7292
所行處	-11.7295
世所攝	-11.7298
之志	-11.7301
大略	-11.7303
答二義	-11.7304
以何為體	-11.7306
苦苦	-11.7309
翻成	-11.731
正就	-11.7313
如父子	-11.7317
問何故明	-11.7321
如大經云	-11.7321
淺智	-11.7325
牒經	-11.7326
內外並	-11.7327
現見世間	-11.7329
二破救中	-11.7331
是名涅槃	-11.7331
隨逐	-11.7334
兩忘	-11.7346
是有是無	-11.7348
俱舍	-11.7356
申難	-11.7361
異學	-11.7364
天曰	-11.7368
假非實	-11.7372
三相品	-11.7375
三類	-11.7376
通稱	-11.7376
無僧寶	-11.7379
從緣故	-11.7384
無定相	-11.7392
既竟	-11.7394
修證	-11.7397
自性皆空	-11.7399
實慧方便	-11.7409
有得無得	-11.741
一無差	-11.7411
眼病	-11.742
皆無自體	-11.7424
思益	-11.7424
不離斷常	-11.7429
要前	-11.7432
正翻	-11.7433
合喻	-11.7435
理相違	-11.7439
水流	-11.7441
作福	-11.7442
得度	-11.7443
執一異	-11.7449
推究	-11.7456
真波若	-11.7458
望道	-11.7458
常隨逐	-11.7459
所願	-11.7464
皆是方便	-11.7464
瓶亦應	-11.7465
通感應	-11.7466
彼家	-11.747
以涅槃為	-11.747
有性無性	-11.7475
有二去	-11.7476
此二門	-11.7491
菩薩所行	-11.7496
離火	-11.7506
非無體	-11.751
業道	-11.7512
未曾見	-11.7512
假立名	-11.7514
體非體	-11.7519
不滅法	-11.752
一切法不生	-11.7531
是所破	-11.7535
了境	-11.7536
果從緣生	-11.7541
起貪	-11.7545
地位	-11.7546
破能破	-11.7547
去處	-11.7552
陰體	-11.7566
眾行	-11.7567
六境	-11.7572
緣生性空	-11.7573
與世	-11.7575
離有為	-11.7576
其內	-11.7582
牙相	-11.7592
此二偈	-11.7592
假名方便	-11.7598
為了因	-11.7608
世間有邊	-11.7614
最初	-11.7615
般若波羅蜜中	-11.7621
三門破	-11.7622
諸法不動	-11.7623
照他	-11.7627
大虛	-11.763
序其	-11.7635
得報	-11.7636
責迷	-11.7637
不似	-11.7643
彼所取	-11.7644
橫生	-11.7652
何所論	-11.7658
有起滅	-11.7663
受著	-11.7666
眾德	-11.7667
各有體	-11.7669
勝鬘經	-11.7676
真是俗	-11.7676
名正因	-11.7678
釋道安	-11.768
萬物皆	-11.7686
而不去	-11.7687
亦應得	-11.7689
已生生	-11.7692
顛倒眾生	-11.7693
此五陰	-11.771
其致一也	-11.771
後釋下半	-11.7716
二段	-11.7717
寧非	-11.7728
亦無自性	-11.7732
言說因	-11.7732
常無常義	-11.7734
明其非有	-11.7736
無動無	-11.7737
酬	-11.7742
如實知	-11.7753
成山	-11.7756
破斷常	-11.7757
牒彼	-11.7761
無縛解	-11.7762
相待門	-11.7766
蒼	-11.7776
惡業	-11.7776
如成實論	-11.7781
四節	-11.7791
朽	-11.7795
不易	-11.7797
大數	-11.7799
魄	-11.7803
伯	-11.7805
同類因	-11.7805
二諦相待	-11.781
色可見	-11.7811
楚夏	-11.7812
待可燃	-11.7813
如空華	-11.7816
是俗義	-11.7818
斯人	-11.7819
雀	-11.7821
針	-11.7822
是有漏	-11.7823
說有二諦	-11.7824
蓋言	-11.7826
信根	-11.7827
游刃	-11.7829
鬱	-11.7832
大乘觀行	-11.7832
互相違	-11.7833
名題	-11.7833
王弼	-11.7834
吹	-11.7834
旋嵐	-11.7836
㒵	-11.7837
悠	-11.7837
經中言	-11.7839
肩	-11.7839
窈	-11.784
綿	-11.784
叔	-11.7841
對邪	-11.7841
極遠	-11.7842
辰	-11.7842
太極	-11.7842
毗婆沙	-11.7843
幢	-11.7843
輔	-11.7843
喻三乘	-11.7843
大菩提	-11.7844
運用	-11.7844
蟲	-11.7845
七地巳上	-11.7845
斗	-11.7846
俊	-11.7848
卷第一	-11.7848
如瓶等	-11.7849
方外之	-11.7849
薩雲	-11.7849
不繫	-11.785
道超名外	-11.785
簣	-11.7851
訛	-11.7852
性種性	-11.7852
嫉	-11.7852
矯	-11.7853
碩	-11.7854
璣	-11.7855
斯理之玄	-11.7855
三十四心	-11.7855
聽之不聞	-11.7855
是名世間第	-11.7855
兄	-11.7855
養育	-11.7856
軀	-11.7857
尸	-11.7857
耆	-11.7858
叢	-11.7858
攻	-11.7858
破四緣生	-11.7858
掩室	-11.7859
疆	-11.7859
商	-11.7859
藥草	-11.7859
缺	-11.786
渺	-11.786
研覈	-11.786
侔	-11.786
誘	-11.7861
大患永滅	-11.7861
鍊	-11.7861
佛在世時	-11.7861
飾	-11.7862
軌轍	-11.7863
曆	-11.7863
爛	-11.7863
窮靈極數	-11.7864
祥	-11.7864
實如明詔	-11.7865
剃	-11.7865
精巧	-11.7865
遞	-11.7865
其中有精	-11.7866
其性本空	-11.7866
漠漠	-11.7866
窮理盡性	-11.7866
低	-11.7867
炷	-11.7867
本護法菩薩釋三藏法師玄奘奉詔譯	-11.7868
籠	-11.7868
擬議	-11.7868
一切大乘經	-11.7868
空不異色	-11.7868
熾盛	-11.7868
由無故有	-11.7868
八萬劫	-11.7869
一切眾生悉有佛	-11.7869
奇特	-11.787
幽旨	-11.787
眾庶	-11.787
由果有緣	-11.787
復是一	-11.7871
郡	-11.7871
淺近	-11.7871
視聽	-11.7872
氣味	-11.7872
幽致	-11.7873
須得	-11.7873
從體起用	-11.7873
疎而不漏	-11.7874
無為而無所不為	-11.7874
以此而推	-11.7874
鳧	-11.7874
逃	-11.7875
構	-11.7875
滋	-11.7875
莊子外篇	-11.7875
應而不為	-11.7875
泥洹盡諦	-11.7875
上二界	-11.7876
園林	-11.7876
諸論義師	-11.7876
末世鈍根	-11.7876
孰能	-11.7876
可住子	-11.7876
因不昔滅	-11.7876
新新生滅	-11.7877
舍主	-11.7877
有無絕於內	-11.7877
如幻如化	-11.7877
六道迴宗	-11.7878
毘曇人云	-11.7878
縱橫	-11.7878
寶積	-11.7878
不自不他	-11.7879
混雜	-11.7879
祕	-11.7879
整	-11.7879
即動而靜	-11.7879
純陀	-11.7879
檀波羅蜜	-11.7879
無縛無解	-11.7879
鞞婆沙	-11.788
二來意者	-11.788
薪有火	-11.788
造論所由	-11.788
雖動而常寂	-11.788
內外並冥	-11.7881
躁	-11.7881
所證之理	-11.7881
團	-11.7881
如何可說	-11.7881
僻	-11.7882
長為短	-11.7882
因及譬喻	-11.7882
為了義	-11.7882
五陰成人	-11.7882
寂而常照	-11.7882
迦旃延子	-11.7882
今則無因待	-11.7883
生死輪迴	-11.7883
惜	-11.7883
嗟	-11.7883
七覺	-11.7883
無始已來	-11.7883
金石	-11.7884
不相關	-11.7884
從佛起	-11.7884
下第二別釋	-11.7884
賦	-11.7884
男等相	-11.7884
舉非緣決	-11.7885
入菩薩位	-11.7885
三十二相八十種好	-11.7885
得聲聞菩提	-11.7886
戢	-11.7886
不生不滅是無常義	-11.7886
不知何因緣故空	-11.7887
不知佛意	-11.7887
栖	-11.7888
入佛知見	-11.7888
恐繁	-11.7888
浩然大均	-11.7888
栗	-11.7888
稻	-11.7889
無患雖同	-11.7889
隱覆	-11.7889
無量中解一	-11.7889
實錄	-11.789
吉祥	-11.789
非人非法	-11.789
瓜	-11.7891
佛未出世	-11.7891
尋究	-11.7891
故滅身以歸無	-11.7891
泡	-11.7891
非無假說無	-11.7892
憍尸迦	-11.7892
統御	-11.7892
於一時中	-11.7893
安穩	-11.7893
聖以之靈	-11.7893
中論四諦品	-11.7893
大集經	-11.7893
果有其所以不有	-11.7893
斯過者	-11.7894
求不可得	-11.7894
知與無知	-11.7894
說我無我	-11.7894
誰當信者	-11.7894
親近	-11.7894
諸佛依二諦為眾生說法	-11.7894
正言似反	-11.7895
本性自空	-11.7895
如般若波羅蜜經中	-11.7895
九十六	-11.7895
雙彰	-11.7895
成已復成	-11.7897
是假非真	-11.7897
上智觀故得	-11.7897
異亦無三	-11.7897
淵默	-11.7897
當於無當	-11.7898
攝嶺	-11.7899
寂然不動	-11.79
非有非空	-11.79
絕不絕	-11.7901
植	-11.7901
從果觀	-11.7901
若色至識	-11.7902
6	-11.7902
精麁	-11.7902
永息	-11.7902
剎利	-11.7902
是事亦不然	-11.7902
善根人無	-11.7903
不滯於無	-11.7903
僧佉衛世	-11.7903
此說畢竟	-11.7903
渧	-11.7903
真諦絕假	-11.7903
無成壞	-11.7904
三獸	-11.7904
行菩薩道	-11.7904
答亦有此義	-11.7905
不屬二乘	-11.7906
以空有為世諦	-11.7906
愛敬	-11.7907
二者欲顯	-11.7909
第二次破	-11.7909
生已亦有	-11.7909
卷第六	-11.7911
▁185	-11.7911
是因是果	-11.7912
此應思擇	-11.7912
如前已說	-11.7912
無二之性	-11.7913
從緣無性	-11.7913
微妙無相	-11.7913
怗	-11.7914
逆俗	-11.7915
若是百論	-11.7915
於是乎	-11.7916
不敢自	-11.7916
因中先無果	-11.7916
四大造	-11.7918
梵志曰	-11.7918
推尋	-11.7919
安車	-11.7919
五百偈	-11.792
力遍	-11.7921
無有知也	-11.7922
人法二空	-11.7922
乃免	-11.7924
求之不得	-11.7924
念退	-11.7925
能生觀智	-11.7925
問曰下第二救	-11.7925
兔角龜毛	-11.7925
洗淨	-11.7927
第二節	-11.7928
下第四總結	-11.7929
於凡是有	-11.793
淨不淨顛倒	-11.7932
畢定	-11.7933
世共知	-11.7934
為聖說空	-11.7936
文字般若	-11.7938
總持	-11.7938
不見始	-11.7939
於一佛乘	-11.7939
方便實慧	-11.794
絕慮	-11.794
學大乘人	-11.7942
超四句	-11.7942
既本有	-11.7943
住壽	-11.7944
諸法實性	-11.7945
佛婆伽婆	-11.7946
呵論主	-11.7946
捨生死	-11.7946
次一句	-11.7947
假生不生	-11.7947
梁傳	-11.7949
違順	-11.795
絕待大	-11.7954
二諦為教	-11.7954
西天	-11.7954
鬼見	-11.7955
在於無	-11.7955
以無因故	-11.7957
唯有一諦	-11.7959
第一序	-11.7959
未具足	-11.7959
云何乃言	-11.7959
四大種	-11.7961
遣情	-11.7962
餘句	-11.7964
無礙解脫	-11.7964
有常樂我淨	-11.7965
不能自起	-11.7966
淺識	-11.7966
苦陰	-11.7967
興世	-11.7967
方便說三	-11.7968
第二頭	-11.797
苦是空	-11.7971
前序	-11.7977
即是實性	-11.7978
和上	-11.7979
國師	-11.798
初禪	-11.798
申佛教	-11.7982
十使	-11.7984
有異人言	-11.7985
注文	-11.7986
我所立義	-11.7987
不得稱	-11.7987
眼不見色	-11.7988
若就勝義	-11.7988
一切皆非	-11.7988
從母	-11.7988
擊發	-11.7991
五味	-11.7991
被斷	-11.7992
既未有	-11.7993
自心變	-11.7995
人民	-11.7995
品中說	-11.7996
法性實相	-11.7997
未燒	-11.7997
眾惑	-11.7998
所謂非無	-11.7998
妙之門	-11.8
大丈夫	-11.8
法身父母	-11.8002
如先偈	-11.8005
與有合	-11.8005
實方便智	-11.8006
一枝	-11.8006
還同前	-11.8006
理內外義	-11.8007
眾生之性	-11.801
終始	-11.8011
必應有	-11.8012
古來	-11.8016
寧起	-11.8016
戒取	-11.8021
未亡	-11.8023
二引證	-11.8025
超境	-11.8026
未圓	-11.8027
顛倒謂有	-11.8032
故須破	-11.8032
手執	-11.8034
第二卷	-11.8035
徧行	-11.8038
石女兒	-11.8042
理必不	-11.8043
令人解	-11.8044
問何故就	-11.8046
亦非作者	-11.8048
無合義	-11.8049
俱不說	-11.8049
當云何有	-11.8051
眼目	-11.8051
可許	-11.8052
具三義	-11.8052
故曰無知	-11.8054
解釋之	-11.8054
出經論	-11.8061
不作法	-11.8062
如毘曇	-11.8062
所以爾	-11.8063
摩訶衍論	-11.8065
相傳云	-11.8066
於一切處	-11.8066
總破一切法	-11.8068
諸法未曾	-11.8068
從緣有	-11.8069
不可得而有	-11.8072
師所說	-11.8075
迹身	-11.8079
從來云	-11.808
是義則不然	-11.8083
有兩意	-11.8085
有隱顯	-11.8086
於生死中	-11.8091
非無非有	-11.8092
覺諦	-11.8093
脩善	-11.8095
為一類	-11.8095
豈唯	-11.8097
足分等	-11.81
亦非道理	-11.81
破神品	-11.8103
未曉	-11.8105
如前釋之	-11.8106
形現	-11.8106
處處皆	-11.8108
光影	-11.8116
益眾生	-11.8118
阿僧祇劫	-11.8118
上敘	-11.812
人柱	-11.812
二百年	-11.8122
理奪破	-11.8124
名一切種智	-11.8124
三才	-11.8126
見在未來	-11.8132
虗假	-11.8132
而有所成	-11.8133
元空	-11.8135
初偈上半	-11.8135
得佛時	-11.8135
共和合	-11.8136
第二段	-11.8136
通申	-11.814
居後	-11.8141
問經中	-11.8142
形像	-11.8146
有如是過	-11.8149
實有常住	-11.815
罪滅	-11.8154
▁演	-11.8154
寧言	-11.8158
曾見	-11.8159
如來說法	-11.8159
眾教	-11.8164
神變	-11.8165
權實並	-11.8166
所招	-11.8168
犢子計	-11.8171
則非緣	-11.8172
之一字	-11.8173
取空相	-11.8174
四階	-11.8181
利物	-11.8185
諸法畢竟空	-11.8186
一切智人	-11.819
緣能生果	-11.8191
名一切智	-11.8193
無為無二	-11.8195
亦義引	-11.8201
初句舉	-11.8202
初地菩薩	-11.8205
修多羅中	-11.8209
如是正觀	-11.8211
上來諸	-11.8212
既不立	-11.8213
互用	-11.8213
探	-11.8213
凡情	-11.8213
不記	-11.8215
能如此	-11.8219
冥然	-11.822
今此文	-11.8221
無新無	-11.8223
有時云	-11.8227
不欲滅	-11.8234
尋文	-11.8236
五求破	-11.8238
不孤	-11.8244
本無義	-11.8249
為同喻	-11.825
草木等	-11.8256
汝向	-11.8256
內執	-11.8257
用三去	-11.8267
摩訶衍經	-11.827
不能取	-11.8273
二種涅槃	-11.8276
名為智慧	-11.8276
餘方	-11.8279
譬如虛空	-11.8282
涅槃亦爾	-11.8287
終歸	-11.8292
所欲義	-11.8298
凡有十	-11.8299
由斯	-11.8299
表非有	-11.83
無我我所	-11.83
文有二義	-11.8306
第三雙	-11.831
處處有	-11.8312
一切諸佛	-11.8318
謂之涅槃	-11.8319
彼無體故	-11.8323
盡其理	-11.833
有我所	-11.8335
有法不成	-11.8342
緣盡	-11.8344
知無我	-11.8359
三引證	-11.8375
已未生	-11.8378
真不真	-11.8379
行滿	-11.8384
叡法師	-11.8391
如來法身	-11.8394
眾論	-11.8395
非真非俗中道	-11.8397
無諍	-11.8409
此等皆	-11.8413
如涅槃經	-11.842
觀法品	-11.8424
牛相	-11.8424
何位	-11.8425
在因中	-11.8427
復有說	-11.8437
上卷	-11.8443
有六家	-11.8446
極難	-11.8451
作此語	-11.8453
希有	-11.8455
能見他	-11.8475
緣而起	-11.8479
無故亦無	-11.848
覆相	-11.8484
得自在	-11.8485
內外有無	-11.8489
如提婆達多	-11.8489
應不名	-11.849
不收	-11.8498
凡有五	-11.8499
所說道理	-11.8502
申大乘	-11.8506
覺苦樂	-11.8506
具有四句	-11.8515
故說為	-11.8515
今亦不往	-11.8515
機緣	-11.8537
憂苦	-11.8542
舉例	-11.8544
十二緣河	-11.8546
問何故爾	-11.8547
諸佛出世	-11.8555
二智俱	-11.8558
無作門	-11.856
之詞	-11.8573
大智論	-11.8578
所緣法	-11.8584
故不應執	-11.86
名大涅槃	-11.8604
緣而生	-11.8612
正道未曾	-11.8623
成己	-11.8625
諸邪見	-11.863
甚可	-11.8631
不斷常	-11.8635
是斷見	-11.8639
唯遮	-11.8642
要先	-11.8646
中論序	-11.8663
前列	-11.8676
俱不絕	-11.8676
已壞	-11.8679
所依止	-11.868
波羅蜜多	-11.868
六種品	-11.868
能起果	-11.8692
論所明	-11.8714
無有少法	-11.8719
獨自	-11.872
未來當	-11.8721
持業	-11.8726
毒藥	-11.8729
餘可知	-11.8738
摩訶衍中	-11.8744
有二破	-11.8747
謂真智	-11.8748
十萬	-11.8753
尋求	-11.8753
是浮虛	-11.876
相離性	-11.8773
有無之名	-11.8773
如上釋	-11.8773
地持	-11.8777
作此問	-11.8779
假名字	-11.8792
為緣因	-11.8796
未曾是	-11.8799
依中論	-11.8813
無有顛倒	-11.8816
能成立	-11.8818
故說世諦	-11.8822
不依於	-11.8833
經論意	-11.8837
云何可得	-11.8837
何所斷	-11.8838
不善業	-11.8857
非有非無之道	-11.8868
無因待	-11.8876
緣縛	-11.8883
不滅不化	-11.8885
下半呵責	-11.8887
領解	-11.8887
為顯此	-11.889
不泯	-11.89
上二句	-11.89
名此為	-11.8907
第二偈上半	-11.8912
殿	-11.8915
法住法位	-11.8915
明波若無知	-11.8916
則無物	-11.8919
肯	-11.8921
斵	-11.8923
農	-11.8926
令其悟	-11.8927
蘇摩	-11.8927
豪	-11.8931
夜半	-11.8935
此四論	-11.8937
場	-11.8937
潔	-11.8938
草堂	-11.8938
計有我	-11.8939
僕	-11.8939
賞	-11.894
玩	-11.894
躍	-11.8941
乞求者	-11.8941
富樓那	-11.8942
無所造	-11.8942
司	-11.8942
澡	-11.8945
一釋名	-11.8946
爾雅	-11.8946
痾	-11.8947
乾慧地	-11.8947
彥	-11.8948
蓮	-11.8948
初二因微	-11.895
赤縣	-11.895
區	-11.8952
嗣	-11.8952
晝	-11.8953
映	-11.8954
侯	-11.8954
肥	-11.8955
佳	-11.8955
欺	-11.8955
抗	-11.8957
邁	-11.8957
盤	-11.8958
尾	-11.8958
飢	-11.8959
夾	-11.896
踐	-11.896
逵	-11.8961
洹	-11.8961
頹	-11.8962
算	-11.8962
鎮	-11.8963
茂	-11.8964
廣雅云	-11.8964
褒	-11.8964
翰	-11.8964
蕩蕩	-11.8964
黑疊	-11.8965
瞽	-11.8965
輸	-11.8966
噉	-11.8966
叡公	-11.8966
頭陀	-11.8968
厝	-11.8968
市	-11.8968
言象莫測	-11.8968
體之即神	-11.8969
陀羅尼	-11.8969
䨱	-11.8969
萬累都捐	-11.897
破如可破	-11.897
超度四流	-11.897
唐譯	-11.897
物莫能一	-11.8971
騁	-11.8971
盛行天竺	-11.8972
鑿	-11.8972
午	-11.8972
壤	-11.8972
窅	-11.8972
出生入死	-11.8973
竺道生	-11.8973
因中先無	-11.8974
杌	-11.8974
活	-11.8975
躊躇	-11.8975
怨憎	-11.8975
歸于無二	-11.8975
紫	-11.8976
臭	-11.8976
員	-11.8976
如來無處所	-11.8976
既曰古今	-11.8977
彩	-11.8977
鎖	-11.8977
左見右識	-11.8977
無有定性	-11.8977
無一法為說	-11.8977
宏	-11.8978
碑	-11.8978
杜口	-11.8978
稽首	-11.8978
推移	-11.8978
徒眾	-11.8979
經稱有餘涅槃	-11.8979
天而不周	-11.8979
苻	-11.8979
怳	-11.8979
初偈上半牒	-11.8979
達磨	-11.898
少踐大方	-11.898
丁	-11.898
周旋	-11.898
郭注云	-11.898
迄	-11.898
三乘五教	-11.8981
誕	-11.8981
世與第一	-11.8981
月十五日	-11.8981
尊卑	-11.8981
歲月	-11.8981
以此推之	-11.8981
交謝	-11.8982
至功常存	-11.8982
眼耳等諸根	-11.8982
可以神會	-11.8982
囊括	-11.8983
僧肇言	-11.8983
星紀	-11.8983
因而不施	-11.8983
誹	-11.8983
今無依無得宗	-11.8984
因變為果	-11.8984
寂即用	-11.8984
四大造色	-11.8984
哀哉	-11.8985
慜	-11.8985
驚怖	-11.8985
滓	-11.8985
不受亦不受	-11.8985
江河競注而不流	-11.8986
小頓悟	-11.8986
藍	-11.8986
細微	-11.8986
不可謂之不有	-11.8987
穴	-11.8987
維	-11.8987
九流於是乎交歸	-11.8988
借異破	-11.8988
共離二門	-11.8988
若法有待成	-11.8988
一念之力權慧具矣	-11.8988
惻	-11.8988
能詮所詮	-11.8988
詔	-11.8989
降伏	-11.8989
捨有入無	-11.8989
正使盡	-11.8989
不非物於物	-11.8989
借無破有	-11.8989
不釋動以求靜	-11.8989
無在無不在	-11.8989
色不異空	-11.8989
八萬	-11.899
感而後應	-11.899
任持	-11.899
上更起	-11.899
中發於觀	-11.899
恐外人云	-11.899
緣成非緣	-11.899
西國	-11.899
㝡	-11.8991
非推之使無	-11.8991
與人合	-11.8991
故契經說	-11.8991
去無所去	-11.8991
審觀察	-11.8991
應物現形	-11.8991
能燒所燒	-11.8991
驥	-11.8992
五百聲聞	-11.8992
均天人	-11.8992
銅	-11.8992
應物之假名耳	-11.8992
何以故下第三釋	-11.8992
是法還成待	-11.8992
隻	-11.8992
大分深義	-11.8993
略鈔	-11.8993
亦破亦收	-11.8993
似不似	-11.8993
法無有無之相	-11.8993
十八不共法	-11.8993
視聽之所不暨	-11.8993
所遇而順適	-11.8993
力士	-11.8993
呪術	-11.8993
四空之所昏昧	-11.8994
譚	-11.8994
照而常寂	-11.8994
去無所至	-11.8994
見他苦時	-11.8995
實而不有	-11.8995
即能涉有	-11.8995
目對真而莫覺	-11.8995
耶若達多	-11.8996
無是無當	-11.8996
掌珍論	-11.8996
交絡	-11.8997
如何可言	-11.8997
五陰都盡	-11.8997
本自有之	-11.8997
三乘賢聖	-11.8997
呂光	-11.8997
物莫之有	-11.8997
道種慧	-11.8998
刧	-11.8998
有非真生	-11.8998
避苦求樂	-11.8999
秤之為	-11.8999
於聖非諦	-11.8999
靈味	-11.8999
二言未始一	-11.8999
亦因亦果	-11.8999
去亦無所至	-11.8999
瓶與有	-11.9
晉書	-11.9
七星	-11.9
諮	-11.9
去時亦無去	-11.9
至虗無生	-11.9001
於世人為實	-11.9001
無道無果	-11.9001
功高	-11.9001
誠諦之言	-11.9001
故曰動而非靜	-11.9001
眩	-11.9001
不苦不樂	-11.9001
俯仰順化	-11.9001
四無所畏	-11.9002
方域	-11.9002
初敘計	-11.9002
中道發生正觀	-11.9002
秪	-11.9002
問曰下生第二	-11.9003
離四句百非	-11.9003
不遷當俗	-11.9003
永嘉	-11.9003
由如此義	-11.9003
去未去去時	-11.9004
受多瓶	-11.9004
雖無而非無	-11.9004
心想都滅	-11.9004
與思合	-11.9004
各各不相知	-11.9004
生相不能生	-11.9004
湛寂	-11.9004
大品經三慧品	-11.9005
他有有可有	-11.9005
熾然	-11.9005
以其不動	-11.9005
聞畢竟空如刀傷	-11.9005
不遷而遷	-11.9005
四依出世	-11.9005
下智觀	-11.9006
能表之教	-11.9006
對治悉檀	-11.9006
極勇猛	-11.9006
非有非無假說有	-11.9006
象非真象	-11.9006
安公	-11.9007
絕於靈照	-11.9007
無本無始	-11.9007
又汝所言	-11.9007
不一亦不異	-11.9007
如我立義	-11.9007
何以故下第二釋	-11.9008
利他樂	-11.9008
三藏法師	-11.9008
燈能自照	-11.9008
下第二解釋	-11.9008
以無為為	-11.9009
生死及涅槃	-11.9009
不常亦不斷	-11.9009
亦常亦無常	-11.9009
大智論云	-11.901
門一偈	-11.901
非有假說有	-11.901
於凡是諦	-11.9011
緣會性空	-11.9011
非陰相	-11.9011
偽號	-11.9011
假不生假不滅	-11.9011
不可謂之有	-11.9012
知獨照	-11.9012
與義相違	-11.9012
寂滅為樂	-11.9013
一切智一切種智	-11.9013
善巧方便	-11.9013
因法有人	-11.9013
有名有實	-11.9013
入滅定	-11.9014
不須復	-11.9014
說於佛性	-11.9014
靜慮	-11.9015
若生是無為	-11.9015
光梵大師賜紫沙門臣惟淨等奉詔譯	-11.9016
然則涅槃之道	-11.9016
同歸一乘	-11.9016
復次經部師言	-11.9016
我樂淨	-11.9016
今此一章	-11.9016
空於聖實	-11.9017
付屬	-11.9017
s	-11.9018
忘懷用	-11.9018
身口意業	-11.9018
覺非神相	-11.9019
甲辰歲高麗國大藏都監奉𠡠彫造	-11.9019
可指示	-11.902
亦違汝	-11.902
修觀行者	-11.9021
受想行識亦復如是	-11.9021
維摩詰言	-11.9022
二十一品	-11.9022
神無慮	-11.9022
無名之道	-11.9022
雜心云	-11.9022
觀照般若	-11.9022
玄鑒	-11.9022
今亦不滅	-11.9023
灾	-11.9023
百王	-11.9023
導達	-11.9023
如涅槃法性	-11.9024
四沙門果	-11.9024
若一時生	-11.9024
論主答云	-11.9024
形勢	-11.9024
如來身者	-11.9024
六神通	-11.9024
無師智	-11.9025
不知之知	-11.9025
實無所破	-11.9025
性淨涅槃	-11.9025
出世無分別智	-11.9025
前後相生	-11.9025
製作	-11.9026
有為法空故	-11.9026
彼即無	-11.9027
相似相續	-11.9027
次釋下半	-11.9028
謝過去	-11.9028
今大乘意	-11.9028
不即不離	-11.9028
為著有	-11.9029
胡本	-11.9029
不欲爾	-11.9029
不聞其	-11.9029
能見所見	-11.9029
以色為	-11.9029
其義亦然	-11.903
有名無實	-11.903
皆非真實	-11.9031
乃至一切智	-11.9033
同一味	-11.9034
起見處	-11.9034
但有假名	-11.9034
乖違	-11.9035
諸天子	-11.9035
被縛	-11.9036
十二月	-11.9036
外人便謂	-11.9036
翻上	-11.9036
是因緣假名	-11.9036
白日	-11.9036
理智不二	-11.9037
不肯	-11.9038
擇滅無為	-11.9038
不能避	-11.9038
外人救義	-11.9039
無三說三	-11.9039
更無第三	-11.904
讀之	-11.9041
相與而有	-11.9041
刈者	-11.9041
不由無故有	-11.9042
非無物也	-11.9042
方等經	-11.9043
非有知也	-11.9043
譬如空華	-11.9043
能成所成	-11.9045
運轉	-11.9046
申明二諦	-11.9047
本性無生	-11.9047
不應言無	-11.9048
應如現在	-11.9048
非不能非	-11.9049
色無色界	-11.9049
此云覺	-11.905
悟入無為	-11.9051
斷煩惱障	-11.9051
所言空者	-11.9052
學毘曇	-11.9053
十章	-11.9054
虛妄人法	-11.9054
尋思	-11.9054
外人品初	-11.9055
未熟	-11.9055
夢覺	-11.9056
自在所作	-11.9057
▁二引證	-11.9057
下第二次破	-11.9058
劫奪	-11.9059
眾生無佛性	-11.906
龍光云	-11.9061
苦忍	-11.9061
不應言有	-11.9062
是我家	-11.9063
四大和合	-11.9064
扶生	-11.9065
通達大乘	-11.9065
一頌約	-11.9066
真如法性	-11.9067
今縱有	-11.9068
未生是有	-11.9069
皆上句	-11.9069
二俱不可得	-11.907
第二釋名	-11.9071
世間無邊	-11.9073
以無生故	-11.9073
此是般若波羅蜜	-11.9076
故偏引	-11.9076
生故生	-11.9077
居處	-11.9077
眾家	-11.9078
精識	-11.9079
婆伽婆說	-11.9079
與瓶合	-11.9079
非擇滅	-11.908
毘曇成實	-11.908
成實師云	-11.9082
此如是義	-11.9083
師子吼文	-11.9085
配之	-11.9086
二諦相即義	-11.9087
前已具	-11.9087
仁義	-11.9088
天然之	-11.9089
平等不二	-11.9091
泥洹智	-11.9092
中論涅槃品	-11.9092
科文	-11.9092
共利	-11.9093
大臣	-11.9095
諸惡見	-11.9095
尋夫	-11.9096
終古	-11.9098
且夫	-11.91
風動	-11.91
始終俱	-11.91
狂言	-11.9101
生死往來	-11.9101
內曰不然	-11.9102
複義	-11.9102
能生大生	-11.9104
一隅	-11.9105
可施設	-11.9105
縛所縛	-11.9105
外人執有	-11.9106
問何意	-11.9106
不待餘	-11.9107
更無有法	-11.9108
曰無餘	-11.911
今此所說	-11.911
遠離一切	-11.9112
得初果	-11.9116
此之謂	-11.9119
無量義經	-11.9119
所說亦然	-11.9121
所行之道	-11.9123
不見不空	-11.9124
所譯	-11.9124
如此之人	-11.9125
而不取相	-11.9128
靈知	-11.9128
無作色	-11.9129
後三句	-11.913
生不自生	-11.9131
因為因緣	-11.9134
胎生	-11.9135
故不別	-11.9136
第四家	-11.9136
唐言	-11.9136
文似	-11.9137
玄寂	-11.9139
次三偈	-11.914
有少法	-11.9142
暫時	-11.9143
何等過	-11.9144
引類	-11.9146
此之二諦	-11.9148
權實不二	-11.9149
且置	-11.9149
言無因果	-11.9151
則是中道	-11.9152
敘述	-11.916
虛妄顛倒	-11.9161
如前偈說	-11.9163
勝德	-11.9163
大千	-11.9164
二乘凡夫	-11.9166
得如是過	-11.9168
曰希	-11.9169
阿羅漢果	-11.9173
初中三	-11.9175
隨類	-11.9176
玄悟	-11.9176
偏舉	-11.9179
正念	-11.9179
初際	-11.9182
真諦之理	-11.9185
今何故復	-11.9188
有無二教	-11.9188
上已明	-11.919
萬動	-11.9191
有所著	-11.9194
與神異	-11.9196
說文云	-11.9198
成就眾生	-11.9201
離已去未去	-11.9203
一步	-11.9203
生住滅相	-11.9203
不證空	-11.9204
上難云	-11.9206
圓教	-11.9208
若法自體	-11.9214
應無差別	-11.9217
方始	-11.9218
問論主何故	-11.9228
為眼所見	-11.923
入道之	-11.923
都滅	-11.9232
因果罪福	-11.9232
清淨無知	-11.9233
力劣	-11.9234
非眼所見	-11.9236
契合	-11.9237
若不生者	-11.9242
種種不同	-11.9244
破有見	-11.9245
因非一向	-11.9247
縷等	-11.9249
有入無	-11.9249
六觸	-11.9249
當學般若	-11.9254
有四重	-11.9255
單明	-11.9259
往昔	-11.9261
彼此俱	-11.9263
如所說過	-11.9264
今對此	-11.9264
錯解	-11.9267
何曾是	-11.9271
諸經論	-11.9271
說善行	-11.9273
尚不可得	-11.928
不能到	-11.9281
此有何過	-11.9281
八輩	-11.9285
誠實	-11.9295
即色義	-11.9296
答具有二	-11.9296
論議	-11.93
斷習氣	-11.9303
此三句	-11.9304
心而應	-11.9313
眾生作佛	-11.9313
世表	-11.9316
亦復非無	-11.9321
一切皆破	-11.9323
破內學	-11.9323
以眾生為正因	-11.9325
面折	-11.9326
師說不同	-11.9327
不能測	-11.9333
俗非真	-11.9338
有而言無	-11.9338
諸功德	-11.9339
不能生果	-11.9346
彼調達	-11.9348
無所斷	-11.9352
形質	-11.9357
無行解	-11.9359
不得自在	-11.936
安法師	-11.9364
悟入實相	-11.9365
捲異	-11.9367
後破法	-11.9369
無有少法可	-11.9373
不礙於	-11.9376
心境俱	-11.9377
無由得	-11.9378
中道種子	-11.9381
五番	-11.9386
五趣	-11.9386
文借	-11.9389
斷五住	-11.939
如彼所說	-11.9393
宗因喻	-11.9405
內凡夫	-11.9405
外道所執	-11.9412
海水	-11.9414
諸緣生	-11.9431
二諦異體	-11.9431
罪過	-11.9436
不相因待	-11.9443
成邪見	-11.9445
過半	-11.945
則應常	-11.9454
無階級	-11.9454
弘誓	-11.9458
分為三	-11.9461
大夢	-11.9466
阿毘曇中	-11.9474
所不及	-11.9495
開三門	-11.9497
有不異故	-11.9497
眾具	-11.9517
不須更	-11.9522
墮二邊	-11.9525
相相之	-11.9539
五時教	-11.9546
不名過去	-11.9546
我所有	-11.9564
順中論	-11.9568
第三節	-11.9569
己體	-11.957
安處	-11.9581
可見有對	-11.96
真智無知	-11.9615
中假師	-11.9616
今略明	-11.9626
當止遣	-11.9631
不即真	-11.9642
成有所得	-11.9644
是何義	-11.9646
味觸	-11.965
頗有	-11.9655
強名相	-11.9659
設使	-11.9669
墮於斷	-11.9669
復以何	-11.9685
有身智	-11.9695
然後始	-11.9716
苦報	-11.9729
有無四句	-11.973
大經師子吼	-11.9737
摩訶般若	-11.9742
形聲	-11.9771
三乘通教	-11.9772
偈意如	-11.9776
則有過	-11.9788
以生為	-11.9795
三十一	-11.9807
若言生時	-11.9813
有無二邊	-11.9815
中已說	-11.9819
探大	-11.9819
無初中後	-11.9821
說其過	-11.9822
九住	-11.9834
下生第二	-11.9879
許極微	-11.9886
肉眼	-11.9888
於佛地	-11.99
如是有故	-11.9934
永異	-11.9941
疑惑	-11.9961
何等法	-11.9973
內外大小乘	-11.9977
放光經	-11.9983
此三門	-11.9984
有無相違	-12.0016
有三分	-12.0025
緣慮	-12.0026
意欲令	-12.004
為他說	-12.0044
欲避	-12.0068
自寂	-12.0076
劫數	-12.0082
有能受	-12.0084
二俱不生	-12.0099
近生者	-12.0104
表示	-12.0105
鵽	-12.0108
妙慧	-12.0123
如汝所	-12.0126
說惡止	-12.013
屬何	-12.0133
先已遮	-12.0134
有為法體	-12.0139
後舟	-12.0151
應有三相	-12.0169
畜	-12.0175
還屬	-12.0177
忻	-12.0178
汙	-12.0179
昆	-12.0179
規	-12.018
墮淚	-12.018
昭	-12.0188
吳	-12.019
逗	-12.019
何故不見	-12.019
劉遺民	-12.0191
九年	-12.0194
可不欣乎	-12.0195
瑣	-12.0195
虗伯獨感	-12.0196
閱	-12.0198
伎	-12.0199
委曲	-12.0199
夕	-12.0202
有同有	-12.0202
僧肇	-12.0202
極象外之談	-12.0203
優婆掘多	-12.0203
士聞道	-12.0203
恥	-12.0204
丈尺	-12.0204
剛	-12.0204
儔	-12.0205
猶豫	-12.0205
通其情	-12.0205
伊	-12.0206
僧伽	-12.0206
乃累劫之津梁矣	-12.0207
不疾而疾	-12.0207
开	-12.0208
徽	-12.0208
飄	-12.0208
虞	-12.0208
邃	-12.0208
荖	-12.0209
恍惚	-12.0209
懈	-12.021
畢竟空寂	-12.021
與道通洞	-12.021
菩薩捨身	-12.021
萇	-12.021
虧盈	-12.021
營	-12.021
何不用耳見	-12.0211
破而不立	-12.0211
恙	-12.0211
理事不二	-12.0211
社	-12.0212
交徹	-12.0212
迫	-12.0213
北天之運	-12.0214
抑揚	-12.0214
瓔珞經	-12.0214
正遍知	-12.0215
寂漠	-12.0215
慳貪	-12.0216
故是定慧之體	-12.0216
三百餘	-12.0216
􂎥􂎥	-12.0216
屬虗子	-12.0216
垂文作則	-12.0216
四十四智	-12.0217
廿	-12.0217
大分深義所謂空也	-12.0217
域中有四大	-12.0217
鶴	-12.0217
比擬	-12.0217
紛綸	-12.0218
幽隱	-12.0218
秘	-12.0218
言之者失其真	-12.0219
釋迦掩室於摩竭	-12.0219
絲	-12.022
傳譯	-12.022
眹	-12.022
難可了知	-12.022
道與神會	-12.022
從淺至深	-12.022
欲求聖心之異	-12.022
侵	-12.0221
羸	-12.0221
金七十論	-12.0221
外國法師	-12.0221
七十七	-12.0221
嗅	-12.0221
璿璣	-12.0221
各住自位	-12.0222
牟尼	-12.0222
目連	-12.0222
巾	-12.0222
俗有真無	-12.0222
反擲	-12.0222
升	-12.0223
戾	-12.0223
則寂照之名	-12.0223
興皇	-12.0223
燋	-12.0223
同無不極	-12.0223
瑞	-12.0223
無幽不	-12.0224
斯皆感往者之難留	-12.0224
是相待假	-12.0224
為諸法立處	-12.0224
啞	-12.0224
眼不自見	-12.0224
出現於世	-12.0225
玄室	-12.0225
而遠與無名同	-12.0225
松	-12.0225
行李	-12.0225
道絕群方	-12.0225
人命逝速	-12.0225
群數之應	-12.0225
甫	-12.0226
此敘計	-12.0226
地得一以寧	-12.0226
炳然	-12.0226
日月歷	-12.0226
前因後果	-12.0227
神與知合	-12.0227
成山假就於始簣	-12.0227
煞	-12.0227
忘知遺會	-12.0227
閻浮	-12.0227
談真有不遷之稱	-12.0228
兩雙四句	-12.0228
遲速	-12.0228
因滅果生	-12.0228
邕邕	-12.0228
然藉光明虛空顯了	-12.0228
速於川流	-12.0229
屢	-12.0229
儒僮	-12.0229
崖	-12.0229
若干	-12.0229
宣揚	-12.0229
合掌	-12.023
鐘	-12.023
剖	-12.0231
必有會於可會	-12.0231
言語道斷心行處滅	-12.0231
襲	-12.0232
教轉名境	-12.0232
可物於物	-12.0232
百千萬	-12.0232
言辭相寂滅	-12.0233
俟	-12.0233
逼迫	-12.0233
百姓	-12.0233
宣之於口	-12.0233
閑人之常想	-12.0233
鼻舌身	-12.0233
強為立名	-12.0233
凡夫結使	-12.0233
出真外	-12.0233
勵	-12.0233
四釋文中	-12.0233
從無住本立一切法	-12.0233
往而弗遷	-12.0233
損不可虧	-12.0233
虧	-12.0234
桎	-12.0234
大唐中印度三藏波羅頗蜜多羅譯	-12.0234
何嘗	-12.0234
花嚴	-12.0234
勝義理中	-12.0234
必有知於可知	-12.0234
齊物篇	-12.0234
益不可盈	-12.0234
則謂昔物不至今	-12.0234
寄懷無所	-12.0234
一不有有屬	-12.0234
汝等所行是菩薩道	-12.0234
闢	-12.0234
震	-12.0235
猒	-12.0235
離心緣相	-12.0235
推功歸佛	-12.0235
首尾	-12.0236
物莫能二	-12.0236
尊貴	-12.0236
寢	-12.0236
包含	-12.0236
不離諸法而得涅槃	-12.0236
知無者誰	-12.0236
麼	-12.0236
有何物而可	-12.0236
度脫眾生	-12.0236
與實相相應	-12.0237
所立能立	-12.0237
為當咸覩其變	-12.0237
求果不可得	-12.0237
豈曰排今而可往	-12.0238
若因中先有果生	-12.0238
前總後別	-12.0238
電卷	-12.0238
尤多	-12.0238
領納	-12.0238
可燃無燃	-12.0238
習應品	-12.0239
手足	-12.0239
轉輪聖王	-12.0239
不壞假名而說實相	-12.0239
具縛凡夫	-12.0239
彌昏	-12.0239
五取蘊	-12.0239
天地與我同根	-12.0239
離欲地	-12.024
萬物與我一體	-12.024
雖異而合	-12.024
戰	-12.024
應緣而現	-12.024
不可以事相求之耳	-12.024
胡吉藏撰	-12.024
乃所以為至當	-12.024
以明物不來	-12.024
故知物不去	-12.024
無有是事	-12.024
聖遠乎哉	-12.0241
梵文	-12.0241
仲尼之所以臨川	-12.0241
雖寂而常動	-12.0241
開一為三	-12.0241
無漏慧	-12.0241
雖合而異	-12.0242
福田	-12.0242
道無隱機	-12.0242
懷德者	-12.0242
用不離體	-12.0242
見可見見者	-12.0242
因應而作	-12.0242
婉轉	-12.0242
價	-12.0242
恰	-12.0242
渝	-12.0242
結縛永除	-12.0242
那羅延	-12.0242
主宰	-12.0243
稱謂淪於外	-12.0243
別而為言	-12.0243
非真非應	-12.0243
萬義皆	-12.0243
方便以為父	-12.0243
無惑取之知	-12.0243
已有還無	-12.0243
所見未甞同	-12.0243
首楞嚴三昧	-12.0244
智度菩薩母	-12.0244
寂泊	-12.0244
雖妙非無	-12.0244
有無既已無	-12.0244
逆之所謂塞	-12.0244
順之所謂通	-12.0244
僧那	-12.0245
毗婆沙師	-12.0245
即法沙門	-12.0245
損減	-12.0245
無數於外	-12.0245
俗入真	-12.0245
不緣色生識	-12.0245
即為二別	-12.0245
有分故無常	-12.0245
瞿	-12.0245
不從昔以至今	-12.0245
鈴	-12.0245
或有或無	-12.0246
從真諦單假入	-12.0246
四微成柱	-12.0246
乘乘各異	-12.0246
為對由來	-12.0246
妄顯真	-12.0247
韻	-12.0247
故以為名	-12.0247
智有窮幽之鑒而無知焉	-12.0247
竪超四句	-12.0247
宮商	-12.0247
從因緣品至	-12.0247
械	-12.0247
若復有人	-12.0248
則不遷之致明矣	-12.0248
乾坤	-12.0248
吾聞其語	-12.0248
照理達事	-12.0248
瓶與一合	-12.0248
無起無滅	-12.0248
邪見斷見之無	-12.0248
大小學人	-12.0249
稱去而不遷	-12.0249
一切因緣故不應有	-12.0249
從真諦複中出	-12.0249
自性清淨心	-12.0249
古今常存	-12.0249
至當可當	-12.0249
妖	-12.0249
不出斯二	-12.0249
効	-12.0249
應病授藥	-12.0249
非色滅空	-12.025
悕望	-12.025
負財	-12.025
攝不攝	-12.0251
八相成道	-12.0251
空是有空	-12.0251
下句反此	-12.0251
相與俱無	-12.0251
謗佛法僧	-12.0251
曼殊室利	-12.0251
二十四諦	-12.0251
知其不去	-12.0251
通而言之	-12.0251
毒虫	-12.0251
鳥鳥各異	-12.0252
聆流動者	-12.0252
遍體和合	-12.0252
汝是破人	-12.0252
亦得亦失	-12.0252
斯言有由矣	-12.0253
無心意而現行	-12.0253
迢	-12.0253
杜塞視聽	-12.0253
五眼不見	-12.0253
虛妄不實	-12.0253
寒暑迭遷	-12.0253
故曰靜而非動	-12.0253
諸佛常依二諦說法	-12.0254
歛	-12.0254
九部	-12.0254
入三解脫門	-12.0254
相因可相	-12.0254
論云不取者	-12.0254
知即不取	-12.0254
等定慧地	-12.0254
智則知矣	-12.0255
昏昧	-12.0255
貪瞋癡	-12.0255
不馳騁於古今	-12.0255
尚書云	-12.0255
勞勤莫先於有智	-12.0255
豈曰必然	-12.0255
非生滅非不生滅	-12.0255
一切因緣故應有	-12.0255
所破立名	-12.0255
但破不收	-12.0256
身及諸根	-12.0256
無取無捨	-12.0256
貴賤	-12.0256
無所畏	-12.0256
夭	-12.0257
日損	-12.0257
母生子	-12.0257
於其間哉	-12.0257
畢竟無遺	-12.0257
不離六法	-12.0257
以此而觀	-12.0258
義應爾	-12.0258
至於無損	-12.0258
從單假入	-12.0258
今而無古	-12.0258
對緣而照	-12.0258
初地以上	-12.0258
智者了達其性無二	-12.0258
而有而無為假	-12.0259
住而可留	-12.0259
十二部	-12.0259
以其異故	-12.0259
不備三相	-12.0259
從複中出	-12.0259
真故俗	-12.0259
造此中論	-12.0259
古不至今	-12.0259
重輕	-12.026
燄	-12.026
今世後世	-12.026
從單中出	-12.026
來無所從	-12.026
凡夫著有	-12.026
有為作相	-12.026
非未來相	-12.026
寢疾	-12.0261
從俗諦單假入	-12.0261
汎敘	-12.0262
到彼岸	-12.0262
軸	-12.0262
餘相合	-12.0262
離無無有	-12.0262
故中觀云	-12.0263
各各為人	-12.0263
從俗諦複中出	-12.0264
淵深	-12.0265
非權非實	-12.0265
十二因緣河	-12.0265
不成因過	-12.0265
有是空有	-12.0266
五華施佛	-12.0266
無成無得	-12.0266
此釋下半頌	-12.0266
在身內	-12.0266
猶如瓶等	-12.0267
更無第五緣	-12.0267
為於無為	-12.0268
緣緣增上緣	-12.0268
闡提人有	-12.0268
復次鞞世師言	-12.0269
0	-12.0269
還債	-12.0269
迴轉	-12.0269
推斥	-12.0269
遊履	-12.0269
六麤	-12.027
路伽	-12.027
釋二章門	-12.0271
邪徒	-12.0271
真如實際	-12.0271
彼生法	-12.0271
下根人	-12.0272
何況我耶	-12.0272
由旬	-12.0272
釋梵	-12.0272
不可破壞	-12.0273
能知之智	-12.0273
所相能相	-12.0274
問何故作此	-12.0274
又復說言	-12.0274
有於凡是實	-12.0275
希望	-12.0275
穀種	-12.0275
物各性住於一世	-12.0275
以物各性住為	-12.0275
則同外道	-12.0275
念念不住	-12.0276
不無於無	-12.0276
統攝	-12.0276
復次有執	-12.0277
匍	-12.0277
小招提	-12.0278
法住智	-12.0279
如前廣說	-12.0279
無譬喻故	-12.0279
今第二次破	-12.0279
膏明	-12.0279
無心之心	-12.0279
通而為言	-12.0279
今大乘明	-12.0279
悟無生忍	-12.028
物體有性	-12.028
具如前說	-12.0281
薪火二法	-12.0281
兼亡	-12.0281
好惡	-12.0281
有無可無	-12.0281
境界法寶	-12.0281
是故有智者	-12.0283
生滅不生滅	-12.0283
復次毘婆沙	-12.0283
增長生死	-12.0284
無漏界	-12.0284
外典	-12.0284
懷疑	-12.0285
分位差別	-12.0286
不識第一義諦	-12.0286
十一根	-12.0289
師承	-12.029
諸愚夫	-12.0291
功力	-12.0291
由此道理	-12.0292
將何物	-12.0292
真諦絕名	-12.0294
雖生不生	-12.0295
所斫	-12.0295
開士	-12.0296
眾生起見	-12.0296
離於斷常	-12.0296
四緣生諸法	-12.0296
我慢	-12.0298
能作苦	-12.03
餘文可	-12.03
瑤疏	-12.03
聲聞藏	-12.0301
旨趣	-12.0301
為所觀之境	-12.0301
群方	-12.0302
明三種中道	-12.0303
種子相續	-12.0305
無所不在	-12.0305
不捨自體	-12.0306
無而不無	-12.0306
悟入性空	-12.0307
依第一義	-12.0307
諸體有自體	-12.0308
天主	-12.0308
二諦攝法盡	-12.0308
有不住有	-12.0309
生名有餘	-12.0309
設令	-12.031
相躡	-12.031
彌勒菩薩	-12.0311
彼地等	-12.0311
酬前	-12.0312
人所乘	-12.0313
對偏中	-12.0313
逈破	-12.0314
學三論	-12.0317
千古	-12.0317
有無共合	-12.0318
布施持戒	-12.0318
求佛道	-12.0318
三慧品	-12.0319
不知何以	-12.0319
二世有無	-12.0319
緣因緣果	-12.0319
無我無法	-12.0319
譯出	-12.0319
返照	-12.0321
遮救	-12.0322
酬因	-12.0322
諸婆羅門	-12.0322
所緣之境	-12.0323
照空為實	-12.0323
四句之中	-12.0324
第三段	-12.0325
妙術	-12.0326
有無量種	-12.0326
千化	-12.0326
不可得而無	-12.0327
金剛般若經	-12.0327
一總標	-12.0328
譬喻不成	-12.0328
了二諦	-12.0328
問何人	-12.0329
受屈	-12.0331
注解	-12.0331
互望	-12.0332
有無為教	-12.0332
改宗	-12.0333
如如智	-12.0334
無量句	-12.0334
毘婆沙師	-12.0334
受決	-12.0334
造此論	-12.0335
引佛經	-12.0336
次三句	-12.0336
論主申佛	-12.0337
位退	-12.0338
眾病	-12.0339
初法說	-12.034
第一義中有如是	-12.0341
具此二	-12.0341
當作佛	-12.0343
下第三正	-12.0343
多端	-12.0344
何所待	-12.0344
我於過去世	-12.0346
反推	-12.0348
表不無	-12.0351
入無餘涅槃	-12.0355
不應更生	-12.0356
發菩提	-12.0356
妄念	-12.0358
破邪迷	-12.0359
略有四	-12.0359
潛用	-12.0359
無自性故空	-12.0359
方是涅槃	-12.036
八部	-12.0361
因何而	-12.0361
初總明	-12.0362
境智能所	-12.0363
前生因	-12.0364
為釋疑	-12.0365
諸有二者	-12.0365
我我所見	-12.0366
不相應行	-12.0368
動靜不異	-12.0371
彼諸外道	-12.0374
遍法界	-12.0374
四總結	-12.0374
世間共許	-12.0378
不二為體	-12.0381
行六波羅蜜	-12.0384
生而不生	-12.0386
三乘之智	-12.0387
猶屬	-12.0388
假十信	-12.0389
故非真諦	-12.0392
如明鏡	-12.0394
用何物	-12.0403
破不收	-12.0405
就體明	-12.0406
所立宗言	-12.0407
去留	-12.0409
得作佛	-12.0409
文中有四	-12.0411
遣除	-12.0412
有起者	-12.0413
真諦之境	-12.0414
短長	-12.0415
非相非	-12.0419
上已破	-12.0422
二諦所攝	-12.0427
相扶	-12.0427
等至所緣境	-12.0429
色界思惟	-12.0437
等諸物	-12.0437
都失	-12.0439
前二偈	-12.0442
作論之	-12.0445
乃能見	-12.0446
與前異	-12.0451
有生可生	-12.0451
在門外	-12.0459
空處等至	-12.0464
初總非	-12.0467
則不應言	-12.0474
為著空	-12.0475
地正斷	-12.048
一一地	-12.0482
欲拔	-12.0488
有自性者	-12.0489
方便力	-12.0489
熱病	-12.0497
教為理	-12.0499
凡有五義	-12.0499
墮無用	-12.0505
能說人	-12.0509
初段	-12.0509
顛倒虛妄	-12.0509
大仙	-12.0511
不曾有	-12.0544
性之性	-12.055
文可見	-12.0557
成毒藥	-12.0561
從他起	-12.0566
終不得成	-12.0579
菩薩結使	-12.0579
或時說	-12.058
有何利	-12.0585
有大過	-12.0589
釋名門	-12.06
相可相異	-12.0602
不能制	-12.0615
釋偈中	-12.0626
不依空	-12.0637
有眼法	-12.0651
知有神	-12.0658
智慮	-12.0659
可生之理	-12.0662
四句百非	-12.067
得一切種智	-12.0674
違宗過	-12.0681
未易言也	-12.0687
遣法自相	-12.0688
人御	-12.0688
有有有無	-12.0693
云何可說	-12.0695
以真為	-12.07
傍感	-12.0702
起無見	-12.071
三相是有為	-12.0713
俱無體故	-12.0716
全了	-12.0721
覆障	-12.0734
能用法	-12.0737
鬼神	-12.0744
煩惱無實	-12.0751
如前引	-12.0758
已久	-12.0765
極麁	-12.077
機宜	-12.0778
成未來現在時	-12.078
初題目	-12.0787
依勝義	-12.0839
符合	-12.0846
緣中無果	-12.0852
樂等為性	-12.0864
更有餘	-12.087
容可	-12.0871
有種種名	-12.089
略敘	-12.0892
俱融	-12.0896
測量	-12.0908
成壞品	-12.091
無理不	-12.0911
智證理	-12.0911
破內人	-12.0923
明人空	-12.093
今欲示	-12.093
處有神	-12.0934
所成立	-12.0963
可分析	-12.0996
第一卷	-12.0999
燃可燃品	-12.0999
覆而求今	-12.1052
先已廣	-12.1055
所發起	-12.1069
若法未生	-12.1119
流布	-12.1128
深奧	-12.1132
有一豪	-12.1143
今復破	-12.1149
明得益	-12.1156
種勢	-12.1181
中道正法	-12.1235
引經立	-12.1237
違比量	-12.1245
赤色	-12.1271
悟不有無	-12.1287
有七種	-12.1301
色是我	-12.1313
對面	-12.1315
相證有	-12.1316
凡有八	-12.1319
有實時	-12.1326
俱不到	-12.1347
尚不可	-12.1352
五住惑	-12.1371
心所現	-12.1376
根鈍	-12.1384
則無瓶	-12.1394
矜	-12.1404
無思慮	-12.1428
影現	-12.1456
貪愛	-12.1475
論所宗	-12.148
眼耳鼻舌身	-12.1492
禪經	-12.1502
龍樹提婆	-12.152
結非論主	-12.1521
榮	-12.1546
有標釋	-12.1547
十八賢	-12.1562
不矜不恃	-12.1584
頴	-12.1589
趙	-12.159
孟浪	-12.1595
邑	-12.1603
諫	-12.1606
髓	-12.1608
恠	-12.1616
寓	-12.1616
莫逆	-12.1617
西涼	-12.162
緬	-12.162
拓	-12.1621
乾乾	-12.1622
焚	-12.1623
淚	-12.1623
辟	-12.1624
領公	-12.1624
鼇	-12.1624
那由他	-12.1625
瑕	-12.1625
卵	-12.1625
茨	-12.1626
罕	-12.1626
離繫外道	-12.1626
假無不名	-12.1627
羯	-12.1627
敏	-12.1627
無明支	-12.1627
藪	-12.1627
膠	-12.1628
啼	-12.1628
排方外之談	-12.1628
婆羅	-12.1629
殷	-12.1629
堯舜	-12.1629
鸚	-12.1629
技	-12.1629
卅	-12.1629
劫得到	-12.163
派	-12.163
城塹	-12.1631
霞	-12.1632
影嚮	-12.1632
理為神御	-12.1632
所觀之境	-12.1633
優婆塞	-12.1633
駒	-12.1633
景	-12.1633
悶	-12.1634
朴	-12.1634
不徐而徐	-12.1635
項	-12.1635
於我何為	-12.1635
刺	-12.1636
愆	-12.1636
索之而不得	-12.1637
千萬億	-12.1637
昨	-12.1637
恭	-12.1637
羽	-12.1638
祠	-12.1638
翫	-12.1638
弗若多羅	-12.1638
類相關	-12.164
則異乎無相	-12.164
靈怕獨感	-12.164
丹	-12.164
旬	-12.1641
跋摩	-12.1641
休納	-12.1641
軟	-12.1641
閇	-12.1641
升降	-12.1642
冰	-12.1642
六地巳下	-12.1642
怏怏	-12.1642
非其言也	-12.1642
端嚴	-12.1643
萃	-12.1643
俯提弱喪	-12.1643
禍	-12.1644
黎	-12.1644
憩	-12.1644
嘵	-12.1644
挺	-12.1644
利樂有情	-12.1644
無成是成	-12.1644
補	-12.1645
夙	-12.1645
輙	-12.1645
因以名之	-12.1646
數有承問	-12.1646
黎邪	-12.1646
羣數之應	-12.1646
爽	-12.1646
燒煮等	-12.1647
水月鏡像	-12.1647
洪流滔天	-12.1647
不面在昔	-12.1647
熾	-12.1647
仰攀玄根	-12.1648
得五神通	-12.1648
勝趣非一	-12.1648
十方佛土中	-12.1648
妄心妄境	-12.1648
摸	-12.1648
寔	-12.1649
佛初成道	-12.1649
無謂不靜	-12.1649
是以梵志出家	-12.1649
獄	-12.1649
字林云	-12.165
恑	-12.165
導俗有流動之說	-12.165
一念相應慧	-12.165
不可以形名得	-12.165
瞋恚	-12.165
嬰	-12.1651
祕藏	-12.1651
憶想	-12.1651
地上忍	-12.1651
有無既廢	-12.1651
與波若相應	-12.1651
鮮	-12.1651
奚	-12.1651
遍云何念	-12.1651
衛	-12.1651
若稱生同外	-12.1651
初節二諦	-12.1651
感無不應	-12.1652
稱非我也	-12.1652
四住地	-12.1652
昔人尚存乎	-12.1652
亦合云	-12.1652
般舟三昧	-12.1652
實德業	-12.1652
揀擇	-12.1653
眉	-12.1653
佛應眾生	-12.1653
如瓶盆等	-12.1653
帛	-12.1653
巳去未去	-12.1653
服膺	-12.1653
丑	-12.1653
固以幾乎息矣	-12.1653
草堂寺	-12.1653
得意毫微	-12.1653
眾緣所生法	-12.1654
長壽	-12.1654
謝公	-12.1654
始簣	-12.1654
破散無體	-12.1654
灌	-12.1654
擲	-12.1655
弗顧	-12.1655
學徒	-12.1655
修途託至於初步	-12.1655
內自免過	-12.1655
苦無常無我不淨	-12.1655
鳩摩羅	-12.1655
逍	-12.1655
外難內	-12.1656
問此與上	-12.1656
峻	-12.1656
不失容	-12.1656
自照照他	-12.1656
重出論義	-12.1656
為破彼言	-12.1656
塵垢	-12.1657
休息	-12.1657
涎	-12.1657
第四總結	-12.1657
瓔	-12.1657
累無不寂德無不圓	-12.1657
動而常寂	-12.1657
則名相異陳	-12.1657
淵府	-12.1658
津梁	-12.1658
時方物類	-12.1658
立巳成過	-12.1658
庭	-12.1658
討	-12.1658
爐	-12.1659
薄地	-12.1659
主張	-12.1659
雖速而不轉	-12.1659
誠真一之無差	-12.1659
左眼見	-12.1659
俗是浮虛	-12.1659
院	-12.166
顏回	-12.166
愛非愛顛倒	-12.166
即萬物之自虗	-12.166
象馬等	-12.166
緩	-12.166
就法說門	-12.166
無二無三	-12.166
非三非一	-12.166
紛然久矣	-12.166
千載之下	-12.1661
燸	-12.1661
求果無蹤	-12.1661
非色不異色	-12.1661
通百劫而彌固	-12.1661
唯此一事實	-12.1661
汪洋無涯	-12.1661
言其非有者	-12.1661
北天竺	-12.1662
藏山於	-12.1662
得無我智	-12.1662
頭中有足	-12.1662
立言之本意	-12.1662
覩斯論	-12.1662
粟	-12.1662
長行發起	-12.1662
馭	-12.1662
剌	-12.1662
化母所育	-12.1662
善將生	-12.1662
四韋陀	-12.1662
聖言量	-12.1662
時處決定	-12.1662
名相靡因	-12.1663
佉	-12.1663
鬪	-12.1663
滌除	-12.1663
四弘誓願	-12.1663
十八年	-12.1663
乳中有酪	-12.1663
身口二業	-12.1663
無明緣行	-12.1663
鞞	-12.1663
客塵	-12.1663
邦	-12.1664
當有深證	-12.1664
安慰	-12.1664
天竺國	-12.1664
八萬法藏	-12.1664
敬禮	-12.1664
甚奇世尊	-12.1664
先牒計總	-12.1664
忠	-12.1664
昨日	-12.1664
觀發於中	-12.1664
既以取捨為心	-12.1664
為定量	-12.1664
念屬神	-12.1664
菩薩得無生智	-12.1664
江河	-12.1665
漢地	-12.1665
枚	-12.1665
煩惱而得涅槃	-12.1665
釋迦牟尼	-12.1665
百萬	-12.1665
發揮	-12.1666
百齡一質	-12.1666
梏	-12.1666
非無為有三	-12.1666
法及有法	-12.1666
果以功業不可朽故	-12.1666
速疾	-12.1666
中前假	-12.1667
十方三世佛	-12.1667
懺	-12.1667
極數故數以應之	-12.1667
摩羅	-12.1667
三法異體	-12.1667
極於五陰之內	-12.1667
巖	-12.1667
蒙利	-12.1667
霜	-12.1667
不相違背	-12.1667
聖默然	-12.1667
煩惱業苦	-12.1667
辱	-12.1667
迭遷	-12.1667
各住一世	-12.1668
所依止處	-12.1668
甘露味	-12.1668
猶如幻事	-12.1668
菴	-12.1668
不共不無因	-12.1668
炭	-12.1668
色分等	-12.1668
非迹無以	-12.1668
目擊道存	-12.1668
稟二諦教發生二智	-12.1668
道門未曾	-12.1668
窮其原	-12.1668
聞大乘法說畢竟空	-12.1668
北斗	-12.1668
能領受	-12.1668
為當唯照無相耶	-12.1669
交臂非故	-12.1669
如牛二角	-12.1669
俗於凡是諦	-12.1669
疎密	-12.167
隨自意語	-12.167
脣	-12.167
不從今以至昔	-12.167
旋嵐偃嶽而常靜	-12.167
浣衣	-12.167
果中說因	-12.167
滅名無餘	-12.167
二若謂下	-12.167
為心要	-12.1671
法身初建	-12.1671
良有以	-12.1671
逆推	-12.1671
莫知所之	-12.1671
塵沙	-12.1671
因無為而有差別	-12.1671
是法不可示	-12.1671
不可以識識	-12.1671
為此人故	-12.1671
極於相內	-12.1671
楷	-12.1671
亭毒蒼生	-12.1671
耆婆	-12.1672
南天竺	-12.1672
五百論師	-12.1672
呂隆	-12.1672
今物在今	-12.1672
我觀如來	-12.1672
離法無人	-12.1672
𨷂	-12.1672
一真法界	-12.1672
精舍	-12.1673
盛水	-12.1673
便違自宗	-12.1673
一生一不生	-12.1673
不能救濟	-12.1673
業與果合	-12.1673
成無量分	-12.1673
第十六心	-12.1673
高山	-12.1673
鑒有淺深	-12.1673
故能不取而知	-12.1673
復何滯哉	-12.1673
苟得其道	-12.1673
薄福鈍根	-12.1674
復次有說	-12.1674
泣	-12.1674
汝是破法人	-12.1674
業謝過去	-12.1674
即萬物之自虛	-12.1674
心非我生	-12.1674
無方便慧縛	-12.1674
若法因待成	-12.1674
我之所謂靜者	-12.1674
此得在於神靜	-12.1674
俗以真為義	-12.1674
瓦石	-12.1674
寶珠	-12.1675
撫掌	-12.1675
不染塵累	-12.1675
本迹雖殊	-12.1675
無色無見無對	-12.1675
非果而果	-12.1675
所引實智	-12.1675
謂其不住	-12.1675
有此品來者	-12.1676
充滿	-12.1676
不化故不遷	-12.1676
同故無心於彼此	-12.1676
強弱	-12.1676
高而無上	-12.1676
清虛	-12.1676
與前何異	-12.1676
眼能見色	-12.1676
請詰	-12.1676
不即六法	-12.1676
往物既不來	-12.1676
金翅鳥	-12.1677
命初即	-12.1677
醎	-12.1677
欣厭	-12.1677
債	-12.1677
不因不果	-12.1677
尋夫不動之作	-12.1677
非斷非常	-12.1677
因法假名時	-12.1677
通達是義	-12.1677
象馬兔	-12.1677
舉體全	-12.1678
離有離無	-12.1678
圓音	-12.1678
一去來以成體	-12.1678
總六合以鏡心	-12.1678
著故有得	-12.1678
離色因有色	-12.1678
卷第九	-12.1678
齊功	-12.1678
實智照理	-12.1678
未始無事	-12.1678
混而不渝	-12.1678
稱住不必住	-12.1679
微弱	-12.1679
寶積曰	-12.1679
假無假不無	-12.1679
俱出火宅	-12.1679
亦以昔物不至今	-12.1679
非因而因	-12.1679
得神覺一	-12.168
假伏中斷	-12.168
即偽即真	-12.168
撮	-12.168
生而非有	-12.168
二諦為所說	-12.168
彼岸豈異	-12.168
真偽之途	-12.168
卷第八	-12.168
服甘露	-12.168
通鑒不為有	-12.168
順俗則違真	-12.168
而可往	-12.168
漫語	-12.168
即須知	-12.168
於外無數於內無心	-12.168
智為雜毒	-12.168
勤精進	-12.1681
毫微	-12.1681
十二部經八萬法藏	-12.1681
七百年	-12.1681
觀性門	-12.1681
彼無相之	-12.1681
阿賴耶識	-12.1681
即事契真	-12.1681
樊	-12.1681
卷第七	-12.1681
大患莫若於有身	-12.1681
豈曰去而可遣	-12.1682
知病識藥	-12.1682
空所對治	-12.1682
世人知者名	-12.1682
若常若無常	-12.1682
自語相違	-12.1682
因緣所生法我說即是空	-12.1682
罄	-12.1682
十九年	-12.1682
可得聞乎	-12.1683
長夜	-12.1683
等流果	-12.1683
譬彼真無	-12.1683
處計常之中	-12.1683
佛來應	-12.1683
善不善無記	-12.1683
苽	-12.1683
知所歸	-12.1683
而無慮焉	-12.1683
工巧	-12.1683
今牒之	-12.1684
有此文來	-12.1684
空不自空	-12.1684
鷄	-12.1684
心根身	-12.1684
日輪	-12.1684
而謂今物可至昔	-12.1684
佛不答	-12.1684
觀發中	-12.1684
非生非不生	-12.1684
非苦非樂	-12.1684
堓	-12.1684
彊	-12.1684
不著於有	-12.1684
但有是語	-12.1685
返覆	-12.1685
鄰人	-12.1685
無形不形	-12.1685
而無知焉	-12.1685
自作他作	-12.1685
慧行無分別	-12.1685
一體三寶	-12.1686
古而無今	-12.1686
若以有為有	-12.1686
本來已有	-12.1686
至第二步	-12.1686
又非不應	-12.1686
地菩薩斷	-12.1686
初句標	-12.1686
指掌	-12.1686
勞患	-12.1686
無為法亦空	-12.1686
有者有於無	-12.1686
我適無為	-12.1687
學二諦成一	-12.1687
末世眾生	-12.1687
眾緣所成	-12.1687
則不應有三	-12.1687
而語聖心者乎	-12.1687
故不得以得之	-12.1687
有何物而可去來	-12.1687
般若力也	-12.1687
支法詳	-12.1688
衣食	-12.1688
物無彼此	-12.1688
若當離於	-12.1688
廓然	-12.1688
一一法上	-12.1689
初長行發起	-12.1689
亦無所成法	-12.1689
若色受想行識	-12.1689
出入息	-12.1689
是愚癡論	-12.1689
般若無所有相	-12.1689
是生滅法	-12.1689
故成具云	-12.1689
更互相違	-12.1689
資助	-12.1689
瓶是現見	-12.1689
與此相違	-12.1689
智有窮幽之鑒	-12.169
馬角	-12.169
此頌意	-12.169
二因二果	-12.169
故造斯論	-12.169
若有不即真	-12.169
俗諦絕實	-12.169
內凡夫位	-12.169
無言不盡	-12.169
色陰所攝	-12.169
隨聖說	-12.1691
中吳	-12.1691
語默	-12.1691
譬如燈滅	-12.1691
不累於有	-12.1691
無法不窮	-12.1691
河中七	-12.1691
非生非滅	-12.1692
果出有無之域	-12.1692
問不成問	-12.1692
守護	-12.1692
更無二體	-12.1692
羅漢最後心	-12.1692
有破不破	-12.1692
見多者著	-12.1692
見緣起為見法	-12.1693
有體有用	-12.1693
觸所攝	-12.1693
理外行心	-12.1693
章句	-12.1693
普遍	-12.1693
有及非有	-12.1693
苦空無常	-12.1694
階位	-12.1694
實無方分	-12.1694
三昧力	-12.1694
還原	-12.1694
此中止遣	-12.1694
由智故境	-12.1695
空亦復空	-12.1695
惑智有知	-12.1695
應如空等	-12.1695
能說是因緣	-12.1696
有無齊觀	-12.1696
空無相無願	-12.1697
無起亦無滅	-12.1697
真諦離緣	-12.1697
化城	-12.1697
去時中無發	-12.1698
即寂之	-12.1698
縛可縛	-12.1698
若都畢竟空	-12.1698
若汝欲得	-12.1699
亦可以言	-12.1699
永寂	-12.1699
住滅亦爾	-12.17
智非知也	-12.17
諸佛依二諦說法	-12.17
異有之空	-12.1701
此說義成	-12.1701
生死之始	-12.1701
頓赴	-12.1701
實無所入	-12.1701
學佛教人	-12.1701
令人信解	-12.1701
大唐中印度三藏波羅頗蜜多羅譯復次	-12.1701
滅而不滅	-12.1702
再往	-12.1702
冥契	-12.1702
而惑者不同	-12.1702
並易見	-12.1702
四絕之理	-12.1702
象手	-12.1702
不定聚	-12.1703
經部師	-12.1703
生滅滅已	-12.1704
壞敗	-12.1704
復次鞞婆沙	-12.1704
是故下結	-12.1705
以之為門	-12.1705
佛告迦葉	-12.1706
生已復生	-12.1706
無性法亦無	-12.1706
七十七智	-12.1706
本來清淨	-12.1707
無此道理	-12.1707
見道斷	-12.1707
所證之法	-12.1707
俗物不遷	-12.1707
實相自無	-12.1707
指同前	-12.1707
遷謝	-12.1708
嘿然	-12.1709
夫至人	-12.1709
怖畏生死	-12.171
芽等相續	-12.171
眾因緣生法	-12.171
如來在世	-12.1711
無他緣	-12.1711
天龍咸敬	-12.1711
母子	-12.1711
依何立	-12.1712
教授	-12.1713
捐形	-12.1713
示是道	-12.1713
箇即是	-12.1713
出論義	-12.1714
應名現在	-12.1714
無窮之過	-12.1714
萬殊	-12.1715
不知諸法性空	-12.1716
不能自巳	-12.1717
皆攝在	-12.1718
不識第一義	-12.1719
則為是常	-12.1719
外道橫計	-12.1721
天即是人	-12.1721
理而論之	-12.1722
今是第二	-12.1722
世間所無	-12.1722
此義應知	-12.1723
有漏善	-12.1723
已如前說	-12.1723
不共生	-12.1724
應如兔角	-12.1725
諸行聚	-12.1726
非有非無是涅槃	-12.1726
具足六波羅蜜	-12.1727
不動不出	-12.1727
若有說言	-12.1727
往生品	-12.1729
審諦	-12.173
凡有兩	-12.1731
無是無非	-12.1731
真境無相	-12.1731
欲界繫	-12.1733
隨喜	-12.1735
生死即涅槃	-12.1737
盡其言	-12.1737
假後中	-12.1738
道種性	-12.1738
諸顯事	-12.1739
神既遍	-12.1739
諸法從四緣生	-12.174
語言道	-12.1741
生滅心也	-12.1743
寺開	-12.1744
比量道理	-12.1744
若無我者	-12.1746
申正因緣	-12.1746
如幻所作	-12.1747
自誓	-12.1747
初釋偈本	-12.1748
文字波若	-12.1749
初半偈	-12.1749
初偈上半明	-12.175
損壞	-12.175
有所得大乘人	-12.1751
引接	-12.1752
說有說無	-12.1754
第二一偈	-12.1754
六十六	-12.1754
夫有所知	-12.1755
連環	-12.1756
實相為本	-12.1758
經律	-12.1758
善不善業	-12.1758
患累	-12.176
以無所得為	-12.1761
我亦不說	-12.1762
四儀	-12.1763
人法俱無	-12.1765
方是真諦	-12.177
二本文	-12.1773
影略	-12.1774
中根人	-12.1779
凡夫二乘有所得	-12.1781
亮師	-12.1782
兩節	-12.1783
罪福果報	-12.1787
分中有	-12.179
有無二事	-12.1794
反照知	-12.18
心心所	-12.1802
三中不成	-12.1805
非中非	-12.1809
分為兩	-12.1812
小名大	-12.1812
大品淨名	-12.1816
從因起	-12.1822
斷二障	-12.1822
無知無慮	-12.1824
中論以二諦為宗	-12.1831
無可為	-12.1832
世人信	-12.1838
不有於有	-12.1838
波若漚和	-12.1839
十三卷	-12.1845
上二經	-12.1846
後得智	-12.1854
是邪說	-12.1854
與理冥	-12.1869
九十六種外道	-12.187
同出生死	-12.1885
第十六	-12.1885
真為俗	-12.1889
取而不破	-12.1891
甚深佛法	-12.1902
以覺為	-12.1911
有何法可	-12.1916
三如是下	-12.1922
外人不解	-12.1929
更說六	-12.1932
總唱	-12.1934
體既常	-12.1936
定性有無	-12.1941
果則不生	-12.1948
故不應捨	-12.1952
空為第一義	-12.1962
是橫論	-12.1972
故今破之	-12.1975
略陳	-12.1985
能用去法	-12.1987
今當復	-12.1996
諸苦惱	-12.2025
境生智	-12.2035
山中舊	-12.2061
六道三乘	-12.2075
通別兩	-12.2113
行不行	-12.2124
希聲	-12.2143
百歲	-12.2153
力強	-12.2166
含眾	-12.2171
能生牙	-12.2176
能斫	-12.2178
世出世一切	-12.2182
釋頌中	-12.2201
宣流	-12.2201
修萬行	-12.2202
以法為	-12.2235
無有無無	-12.2254
容受	-12.2266
成實論師	-12.2278
梵行品	-12.2284
應非眼	-12.2297
同是一	-12.2319
非色根境	-12.236
報無記	-12.2368
文甚多	-12.2375
此一問	-12.2388
滅後有無等	-12.2407
人證法	-12.2434
語義如	-12.2442
雙林滅	-12.2458
空與不空	-12.2466
可以無名	-12.2466
為眾生捨身	-12.2473
修梵行	-12.2504
如虛空華	-12.2508
僧叡	-12.2508
義意如	-12.2543
果若有得	-12.2614
為眾生故強	-12.2625
悉遮遣	-12.263
龜茲王	-12.2653
妙旨	-12.2699
詎	-12.2756
陰陰	-12.284
以真諦為	-12.2903
蹤	-12.2904
凡有七	-12.2972
說諸法有	-12.2975
是當之	-12.3003
微隱難測	-12.3103
立義出因	-12.3128
受諸苦	-12.3192
小生生大	-12.3204
攀	-12.3242
膚	-12.3248
吉凶	-12.325
膏	-12.3261
北山錄	-12.3264
阿順那	-12.3265
干	-12.327
脉	-12.327
瓫	-12.3271
摘	-12.3273
昂	-12.3273
行大施	-12.3273
翫味	-12.3275
堊	-12.3276
乾乾宵夕	-12.3276
草澤	-12.3276
湯	-12.3277
龍宮	-12.3279
給	-12.3279
滑	-12.3281
神冥累之方	-12.3282
今演論之作	-12.3285
村	-12.3286
床	-12.3286
埃	-12.3287
祿	-12.3287
霑	-12.3287
生起中初敘	-12.3288
逝者如斯	-12.3289
陂	-12.3289
伽陀	-12.3289
磐	-12.3292
聦	-12.3292
殉	-12.3292
翹	-12.3293
剪	-12.3294
道源是同	-12.3294
來問婉切	-12.3294
灯	-12.3294
每一言集	-12.3294
胸	-12.3295
台	-12.3295
排斥	-12.3296
萬有參分	-12.3296
頂戴	-12.3296
視之不見	-12.3296
享	-12.3296
圖以弘顯幽旨	-12.3297
紹	-12.3297
蠱	-12.3297
譽	-12.3298
隙	-12.3298
駛	-12.3298
法華實相之旨	-12.3299
淨瑕穢	-12.3299
羞	-12.3299
茅	-12.33
顏子	-12.33
何晏	-12.33
妙期不二	-12.33
服像雖殊	-12.33
瓦礫	-12.33
珍寶	-12.33
徤	-12.33
搖動	-12.33
綸	-12.33
口不能言	-12.3301
隨他意語	-12.3301
良醫	-12.3301
不能釋手	-12.3301
等無間緣	-12.3301
阿漚	-12.3302
南返	-12.3302
掌	-12.3302
苑	-12.3302
於高論之旨	-12.3303
力負無以化其體	-12.3303
誚	-12.3303
壽星	-12.3303
規矩	-12.3303
九折十演者	-12.3303
論有九折十演	-12.3304
晨	-12.3304
交臂	-12.3305
論至日	-12.3305
瑩	-12.3305
稠	-12.3305
誣	-12.3305
有既成瓶	-12.3305
若有一瓶一	-12.3305
六趣不能攝其生	-12.3305
因來何少	-12.3306
蒼蒼	-12.3306
所言大者	-12.3306
應物之假名	-12.3306
怨賊	-12.3307
晏	-12.3307
聃	-12.3307
貞	-12.3307
模	-12.3307
沈沒	-12.3307
浸	-12.3307
恣	-12.3308
聆	-12.3308
佇想用勞	-12.3308
因中前有	-12.3308
鳴	-12.3308
妙契環中	-12.3308
為法城塹	-12.3308
能文之士	-12.3308
猪	-12.3309
本無實相法性	-12.3309
正定聚	-12.3309
普賢觀	-12.3309
鞭	-12.331
措	-12.331
嘉遁	-12.331
鵂	-12.331
迮	-12.331
七十論	-12.331
鋒	-12.331
誰見誰曉	-12.331
船	-12.331
仞	-12.3311
諭	-12.3311
總別義異	-12.3311
今物住今	-12.3311
遊刃萬機	-12.3311
梵網	-12.3311
見佛聞法	-12.3311
漂	-12.3311
壹	-12.3312
其身而身	-12.3312
裏	-12.3312
劉公致問	-12.3312
慈氏	-12.3312
從此已後	-12.3312
若存若亡	-12.3312
但今談者	-12.3312
士受道以	-12.3312
推過還外	-12.3312
臧否	-12.3312
比丘白佛	-12.3312
逾動逾寂	-12.3313
象從手	-12.3313
一一中皆	-12.3314
捉破為立	-12.3314
穿鑿	-12.3314
源品無明	-12.3314
內以流滯	-12.3315
階差	-12.3315
離於言數	-12.3315
盡言為論	-12.3315
姑蘇堯峯蘭若沙門遵式述	-12.3316
墮惡道	-12.3316
惘	-12.3316
寶性論	-12.3316
欝	-12.3316
飛鳥	-12.3316
暖	-12.3316
理外感理外	-12.3316
阿修羅	-12.3317
喉	-12.3317
往物不化	-12.3317
天棺	-12.3317
威被蒼生	-12.3317
無謂其動	-12.3317
憚	-12.3317
二種法印	-12.3318
低頭舉手	-12.3318
復何怪哉	-12.3318
迴向三有	-12.3318
戲論斯滅	-12.3318
指後品	-12.3318
正法五百年	-12.3318
隣人見之曰	-12.3318
今所釋者	-12.3318
應必有由矣	-12.3318
窈冥	-12.3318
瘡	-12.3318
矜恃	-12.3318
弓	-12.3318
東扇	-12.3318
欲界思惟	-12.3318
本末精悉	-12.3319
若欲止於心	-12.3319
殺生祀天	-12.3319
巨細相容	-12.3319
無教不申	-12.3319
具得二空	-12.3319
揮	-12.3319
沖而不改	-12.3319
諸法從本來常自寂滅	-12.3319
鍮	-12.3319
以少從多	-12.3319
所物而可物	-12.3319
雞	-12.3319
朱顏	-12.332
權入實	-12.332
雖眾經殊致	-12.332
說一乘法事	-12.332
亦假亦中	-12.332
薄福	-12.3321
無為而無不為	-12.3321
事事有	-12.3321
虗而照	-12.3321
囑	-12.3321
形不可以象	-12.3321
豈尋化以階道	-12.3321
晉朝	-12.3321
至當真是	-12.3321
衿	-12.3321
伺	-12.3321
在天而天	-12.3322
故聖心不有有	-12.3322
經喻螢日	-12.3322
即色遊玄論	-12.3322
滅一切戲論	-12.3322
躬	-12.3322
當知如佛	-12.3322
司馬	-12.3322
藏舟於壑	-12.3322
十方世界	-12.3322
既知既會	-12.3322
以中為名者	-12.3323
薗	-12.3323
是故下第三結	-12.3323
彌淪	-12.3323
復何惑於去留	-12.3323
方等之淵府	-12.3323
有稱非同	-12.3323
異無相之照乎	-12.3323
要損之又損之	-12.3323
曇無德部	-12.3324
是以物不即名而就實	-12.3324
陽𦦨	-12.3324
為凡說我無我	-12.3324
眾聖於是乎冥會	-12.3324
以況遠	-12.3324
義承有本	-12.3324
然非不物	-12.3324
像法決疑經	-12.3325
如十地義中說	-12.3325
踈	-12.3325
阿鞞䟦致	-12.3325
以教為門	-12.3325
名色支	-12.3325
能而不所	-12.3325
各體破	-12.3325
蕭	-12.3325
秦乘入國之謀	-12.3325
移易	-12.3325
愁	-12.3325
誥	-12.3326
閑居學肆	-12.3326
火熱相	-12.3326
千萬種	-12.3326
引小乘經	-12.3326
非行非不行	-12.3326
標說曰	-12.3326
老君	-12.3326
京兆	-12.3326
歸乎無極	-12.3326
然異端之論	-12.3326
內曰若爾無	-12.3326
其唯聖人乎	-12.3326
三十七品	-12.3326
愽	-12.3326
是所未悟也	-12.3326
瀉	-12.3326
靈鑑	-12.3326
誠以不異於異	-12.3327
監	-12.3327
因不來今	-12.3327
矛	-12.3327
長爪	-12.3327
可不哀	-12.3327
多即言以定旨	-12.3327
昔因不化	-12.3327
皷	-12.3327
盧舍那	-12.3327
牢	-12.3327
有其所以不有	-12.3327
窮本極末	-12.3328
盡偏中	-12.3328
吐不一之殊教	-12.3328
此以人三	-12.3328
金剛佛舍利	-12.3328
有既有矣	-12.3328
窟	-12.3328
衣服	-12.3328
是以言去不必去	-12.3328
初句躡前	-12.3328
言無相寂滅之道	-12.3328
不可而物	-12.3328
是諸聖智不相違背	-12.3328
諸佛以此為性	-12.3328
頓盡於五陰之內	-12.3329
業報猶魂	-12.3329
增一阿含	-12.3329
無心無識	-12.3329
見思惑	-12.3329
諮參無所	-12.3329
猶如麁果	-12.3329
理外感理內	-12.3329
纏縛	-12.333
離一切相	-12.333
雹	-12.333
無想定	-12.333
嘉會	-12.333
受天身	-12.333
無言無說	-12.333
觀身實相觀佛亦然	-12.333
飽	-12.333
復何知哉	-12.333
繹	-12.333
𢭀	-12.333
情有理無	-12.333
秖	-12.333
言於無言	-12.333
韜	-12.333
心生於有心	-12.333
舉足下足	-12.333
聖人無私於知會	-12.333
正破內傍破外	-12.333
聖智尚存	-12.333
伐龜茲	-12.3331
相續道中	-12.3331
名不即物而履真	-12.3331
無復別有一盡處	-12.3331
第一義空名為智慧	-12.3331
婬怒癡	-12.3331
知空亦空	-12.3331
體絕陰入	-12.3331
趾	-12.3331
然則眾生之性	-12.3331
宜先定聖心所以應會之道	-12.3331
緣離則滅	-12.3331
白虎	-12.3332
怨家	-12.3332
無上照世	-12.3332
靡所不	-12.3332
乞食	-12.3332
隱映	-12.3332
不為而過為	-12.3332
回也見新	-12.3332
汪洋	-12.3333
幽宅	-12.3333
無病不破	-12.3333
義乃圓	-12.3333
人與杖合	-12.3333
如烟微鄣	-12.3333
孰與止之	-12.3333
犬	-12.3333
眼等五根	-12.3333
雖物而非物	-12.3333
應接無方	-12.3333
動而常靜	-12.3333
佛告須菩提	-12.3333
故仲尼曰	-12.3333
神有應會之用而無慮焉	-12.3333
窮所不能滯	-12.3333
超語兼默	-12.3333
門戶	-12.3333
可例說	-12.3334
觀空而不證	-12.3334
諸賢聖真知性空	-12.3334
七地巳下	-12.3334
案爪	-12.3334
若自在作者	-12.3334
馳騁	-12.3334
即而究之	-12.3334
知何以傳	-12.3334
即寂滅性	-12.3334
極耳目於視聽	-12.3334
言其非無者	-12.3334
能見之眼	-12.3334
毘尼	-12.3334
佛說何等善法	-12.3334
必應許	-12.3334
心境兩忘	-12.3335
墻	-12.3335
不非色於非色	-12.3335
何莫由之哉	-12.3335
寧曰無知	-12.3335
得意忘言	-12.3335
易曉	-12.3335
俗諦事法	-12.3335
不真故空	-12.3335
執諸法有決定	-12.3335
所造未甞異	-12.3335
正亦不留	-12.3335
稱去不必去	-12.3335
並決破	-12.3335
互相違反	-12.3335
因因而果因不昔滅	-12.3335
斷惑證理	-12.3335
滅惡生善	-12.3335
當而無是	-12.3335
評家	-12.3335
歲次星紀	-12.3336
其斯之謂歟	-12.3336
導而弗先	-12.3336
豈唯無知名無知	-12.3336
放捨	-12.3336
堅牢	-12.3336
會歸同致矣	-12.3336
不遍同品	-12.3336
就汝覓	-12.3336
蟬	-12.3336
文處易知	-12.3336
於然燈佛所	-12.3336
融冶二儀	-12.3336
亦同亦異	-12.3336
離壞無成	-12.3336
屍	-12.3337
法法皆真	-12.3337
異於木石	-12.3337
個	-12.3337
之所由生也	-12.3337
於無異法中而說諸法異	-12.3337
盧山	-12.3337
隨其流處	-12.3337
粹	-12.3337
心既無為	-12.3337
同出而異名	-12.3337
夢虎	-12.3337
廣博	-12.3337
竪窮四句	-12.3337
今物何所往	-12.3337
愛佛地功德	-12.3337
靈絕待	-12.3337
寂照同時	-12.3338
其道既存	-12.3338
欲以通其鑒	-12.3338
違真故迷性而莫返	-12.3338
不自有其知	-12.3338
復次數論師言	-12.3338
謂不從今至古	-12.3338
報佛恩	-12.3338
清濁	-12.3338
有物之宗極者	-12.3338
不近人情	-12.3338
頰	-12.3338
寂然而往	-12.3338
寂默	-12.3338
失在於物虛	-12.3338
因去知去者	-12.3338
靈鑒幽燭	-12.3338
難以事求	-12.3339
進退墮負	-12.3339
會萬物以成	-12.3339
河西道朗	-12.3339
所造未嘗異	-12.3339
樑椽	-12.3339
此非我異無為	-12.3339
妙絕於有	-12.3339
瑠璃珠	-12.3339
阻	-12.3339
二理未始殊	-12.3339
待緣而後有	-12.3339
祐	-12.3339
內視不	-12.3339
既知往物而不來	-12.3339
無心於彼此	-12.334
宰割	-12.334
憍慢	-12.334
確	-12.334
八百年時	-12.334
所生實果	-12.334
理屈辭窮	-12.334
真諦可亡而知	-12.334
離成無壞	-12.334
不知非不知	-12.334
有慧方便解	-12.334
無慧方便縛	-12.334
觸事皆	-12.3341
微塵非現見	-12.3341
迴邪入正	-12.3341
下第五總結	-12.3341
俱常俱	-12.3341
嗤	-12.3341
迴小入大之人	-12.3341
非數緣滅	-12.3341
已縛者	-12.3341
怕爾而來	-12.3341
債主	-12.3341
度五百	-12.3341
而謂今物	-12.3341
囊	-12.3341
心亦不有亦不無	-12.3341
靜而非動以其不去	-12.3341
從真諦複假入	-12.3342
越諸根境	-12.3342
非緣非觀	-12.3342
相即是可相	-12.3342
破他法故自法成	-12.3342
耆年解脫	-12.3342
人之常情	-12.3342
三世十方佛	-12.3342
第一大道無有兩正	-12.3342
夫生死交謝	-12.3342
妙盡常數	-12.3342
尋此有無之言	-12.3342
無所行而行	-12.3342
開空法道	-12.3342
乘五衍之安車	-12.3342
書寫	-12.3342
於今為無	-12.3342
諒	-12.3342
二乘滯空	-12.3342
恐是當之生	-12.3342
畢竟皆空	-12.3342
覩變之知異無相	-12.3342
其猶高下相傾	-12.3342
即事契理	-12.3342
埴	-12.3342
開宗第一	-12.3343
從本已來	-12.3343
獨建於三有之外	-12.3343
釋人之所謂往	-12.3343
飜	-12.3343
必有方分	-12.3343
下半結破	-12.3343
枝流	-12.3343
初釋名者	-12.3343
終日域中	-12.3343
佛法大宗	-12.3343
可謂識法	-12.3343
若於爾時	-12.3343
盾	-12.3343
吾無生不生	-12.3344
有八句	-12.3344
然則眾生非眾生	-12.3344
然其為物	-12.3344
而無照功	-12.3344
既論涅槃	-12.3344
權歸實	-12.3344
愛非愛	-12.3344
從果受名	-12.3344
須菩提白佛言	-12.3344
動即靜	-12.3344
託空而起	-12.3344
言其非是無	-12.3344
有分與分	-12.3344
無三寶四諦	-12.3344
底腹	-12.3344
是謂昔物自在昔	-12.3344
湛若虗空	-12.3344
非前非後	-12.3344
有便不便	-12.3344
但見於空不見不空	-12.3345
其道不無	-12.3345
不可以知名哉	-12.3345
大師長講沙門文才述	-12.3345
釋源大白馬寺宗主贈邽國公海印開法	-12.3345
非色敗空	-12.3345
今此一品次破	-12.3345
是名不見色	-12.3345
如是三乘眾生	-12.3345
彌昧	-12.3345
答通而為論	-12.3345
而以南北為喻	-12.3346
非我非無我	-12.3346
賢聖之道存	-12.3346
應接無窮	-12.3346
於一乘道	-12.3346
不能用是去	-12.3346
夫談真則逆俗	-12.3346
法無故人無	-12.3346
生死涅槃凡聖	-12.3346
金剛身品	-12.3346
應如後位	-12.3346
患難以之而起	-12.3346
因中前無	-12.3346
是諸見根	-12.3346
乳有酪	-12.3347
非善非惡	-12.3347
待果起方滅	-12.3347
汪哉洋哉	-12.3347
從俗諦單中出	-12.3347
觀相門	-12.3347
聖心雖無知	-12.3347
標多佛	-12.3347
若有不空法	-12.3347
自行化他	-12.3347
今若至古	-12.3347
是以言常而不住	-12.3347
豈釋動以求靜	-12.3347
空則不遍	-12.3348
淵默以之而遼	-12.3348
即入有境	-12.3348
神雖世表	-12.3348
空有並觀	-12.3348
智不取所知	-12.3348
無蹤迹	-12.3348
相應不相應	-12.3348
色是現見	-12.3348
九十八	-12.3348
以無一二故	-12.3348
中智觀	-12.3348
一道出生死	-12.3348
若不開示	-12.3348
菩薩瓔珞本業經	-12.3348
故萬德斯弘	-12.3348
斯皆即動而求靜	-12.3348
有方便慧解	-12.3348
隱顯同源	-12.3348
顯於茲矣	-12.3348
聞無作無解	-12.3348
發心畢竟二不別	-12.3349
夫真由離起	-12.3349
王舍城	-12.3349
聞有作有解	-12.3349
苦所苦	-12.3349
不真為真	-12.3349
近而不可知者	-12.3349
余則謂之不然	-12.3349
於何而不在	-12.3349
動而逾寂	-12.3349
有無一異生滅去來	-12.3349
大苦聚	-12.335
傷歎	-12.335
與身合	-12.335
不著不二法	-12.335
不識二諦失二諦	-12.335
墮三惡道	-12.335
形以智勞	-12.335
三乘之路開	-12.335
應物而形	-12.335
真諦無兔馬之遺	-12.335
所以有此破來者	-12.335
烈	-12.335
補續	-12.335
成破不一	-12.335
無方大用	-12.3351
因緣是門	-12.3351
無常亦常亦無常非常非無常	-12.3351
雖真而非有	-12.3351
緣自非緣	-12.3351
離去者有去	-12.3351
而演非常之教	-12.3351
觀世音	-12.3351
能為智所	-12.3351
波若照實相	-12.3351
誡勸	-12.3351
豈待宰割以求通哉	-12.3351
如毛孔	-12.3351
故不知以知之	-12.3351
諸說中第一	-12.3351
從有名有	-12.3351
辯才	-12.3352
不從師得	-12.3352
未去亦無去	-12.3352
夫止此而此	-12.3352
則以無為無	-12.3352
昔物住昔不來	-12.3352
異自我	-12.3352
凡成聖	-12.3352
離色有色因	-12.3352
我則言其住	-12.3352
捨於身命	-12.3352
有佛無佛性相常住	-12.3352
撫接	-12.3352
楊	-12.3352
離故無名	-12.3352
不可於色中求	-12.3352
蹹	-12.3352
非有所以不取	-12.3352
定知諸法有體	-12.3353
邊云何有後世	-12.3353
齊平	-12.3353
莊嚴寺	-12.3353
違自言	-12.3353
二位無別	-12.3353
如世尊言	-12.3353
蘊處界	-12.3354
雖象而非象	-12.3354
非無所以不捨	-12.3354
神有應會之用	-12.3354
存而不可論者	-12.3354
智雖事外	-12.3354
去者不用三	-12.3354
憎背	-12.3354
是義應知	-12.3354
譬如龜毛	-12.3354
宗途屈於好異	-12.3354
下引經顯	-12.3354
不見其始	-12.3354
猶如幻等	-12.3354
以知存不為有	-12.3355
以因緣故諸法生	-12.3355
因緣義總	-12.3355
幻術	-12.3355
若無有自性云何有	-12.3355
惡鬼	-12.3355
亦能亦所諦	-12.3355
所隨遂	-12.3355
死已而滅	-12.3355
界處等	-12.3355
聞世諦謂是第一義諦	-12.3355
隨順眾生說有二諦	-12.3355
妙契自然	-12.3355
說法不有亦不無	-12.3355
靜而弗留矣	-12.3355
所知生於知	-12.3355
三相品末	-12.3355
諸有二者無道無果	-12.3355
可曰無知	-12.3355
而忘其	-12.3355
十八種	-12.3356
故照緣而非	-12.3356
先所立義	-12.3356
徧一切處	-12.3356
混成一	-12.3356
無縛無脫	-12.3356
及違義	-12.3356
斯則物我不異之	-12.3356
泥中之瓶	-12.3356
真俗不真俗	-12.3356
十九章	-12.3356
邈遠	-12.3356
菩薩住二諦中	-12.3356
迷教於諦	-12.3356
有諦無諦中道第一義諦	-12.3356
果有無相之知	-12.3356
漚和功也	-12.3356
真之與俗	-12.3356
仕	-12.3357
三百年中從	-12.3357
不名無煩惱	-12.3357
是無煩惱果	-12.3357
若能若所	-12.3357
初地已上	-12.3357
即體之用	-12.3357
有是自有	-12.3357
菟角	-12.3357
外人既聞	-12.3357
六家七宗	-12.3357
墮在失處	-12.3357
引兩經	-12.3357
攷	-12.3357
是名諸佛法	-12.3357
財主	-12.3357
影公	-12.3357
改凡成聖	-12.3357
真以俗為義	-12.3357
真應二身	-12.3358
萬差	-12.3358
亦可如來言耳	-12.3358
相似不相似	-12.3358
以知不來	-12.3359
寂焉無聞	-12.3359
無為即我	-12.3359
云何當可得	-12.3359
菩薩坐道場時	-12.3359
得緣覺菩提	-12.336
以物求名	-12.336
百家異說	-12.336
金光明經云	-12.336
佛性真我	-12.336
適彼而彼	-12.336
具不具	-12.336
見者聞者	-12.336
遍五道	-12.336
▁87	-12.336
何用更生	-12.3361
增上所作	-12.3361
屬果性	-12.3361
我說即是無	-12.3361
世界悉檀	-12.3361
答不成答	-12.3361
常等諸見	-12.3361
生死與涅槃	-12.3361
非理不聖	-12.3361
▁182	-12.3361
能證之智	-12.3362
權智外應	-12.3362
此有何義	-12.3362
為作為不作	-12.3362
強稱為	-12.3363
內有獨鑒之明	-12.3363
在茲而顯	-12.3363
將非如來	-12.3363
發生二慧	-12.3363
a	-12.3363
十白業道	-12.3363
今還在汝	-12.3363
五衍	-12.3363
一為無量	-12.3364
今略述	-12.3364
夷平	-12.3364
內無機照之勤	-12.3364
外息大患之本	-12.3364
去與去者	-12.3364
非體非非體	-12.3364
世間眼見萬物不	-12.3364
開善莊嚴	-12.3365
鈍使	-12.3365
是事終不然	-12.3365
因去了去者	-12.3365
異空之有	-12.3365
世諦破實	-12.3365
以其不去	-12.3365
貪恚癡	-12.3365
唯破不立	-12.3365
常見之有	-12.3365
5	-12.3366
作者及業	-12.3366
7	-12.3366
如幻如焰	-12.3366
攝嶺興皇	-12.3366
見有見無	-12.3366
增損	-12.3367
復有人言勝義諦中	-12.3367
微塵世性	-12.3367
答中上半牒	-12.3367
不可謂之無	-12.3367
意正爾	-12.3368
謂之漚和	-12.3368
聖智之能	-12.3368
緣覺聲聞	-12.3368
獨王於世表	-12.3369
無形礙	-12.3369
初生即有	-12.3369
如其無者	-12.3369
長行與偈	-12.337
或有說言	-12.337
是品義意	-12.337
東北	-12.3371
幟	-12.3371
數緣無為	-12.3371
應假理	-12.3371
不和合對治	-12.3371
瓶家有	-12.3372
衰變	-12.3372
作者及作業	-12.3372
故非生滅非無生滅	-12.3372
申大教	-12.3372
是佛性之異名	-12.3372
論之宗旨	-12.3372
已生之果	-12.3373
捨此身	-12.3373
作相違難	-12.3373
有應法起	-12.3373
無作無緣	-12.3373
起等諸相	-12.3373
無所成故	-12.3374
去者用去法	-12.3374
引曾見	-12.3374
非有非非有	-12.3375
不當善惡	-12.3375
欲令眾生深識第一義諦	-12.3375
燈明一時	-12.3376
何能生生生	-12.3377
有如是等過	-12.3377
安得有	-12.3377
由此聖教	-12.3377
無果有因	-12.3378
不顯差別	-12.3379
普賢	-12.3379
是見處	-12.338
?」「	-12.338
八賢聖	-12.3381
本際品	-12.3381
立已成過	-12.3383
非實非常	-12.3384
為能成就	-12.3387
多種勢	-12.3387
異相不成故	-12.3388
修行般若波羅蜜	-12.3388
不能生法體	-12.339
涉有不著	-12.3392
境故智	-12.3393
歸一極	-12.3394
異故無合	-12.3396
執一邊	-12.3398
十信位中	-12.3399
正因緣因	-12.3403
法皆如是	-12.3403
如死人	-12.3405
縛時有	-12.3405
與陰一	-12.3406
若涅槃是有	-12.3408
因故說常	-12.3408
八天子	-12.341
攝法盡	-12.3411
所生之果	-12.3415
以萬物為	-12.3418
以明不真	-12.3425
漢書	-12.3428
則五陰不	-12.343
燈焰	-12.3438
有受果者	-12.3438
賢首大師	-12.3439
從眾生自體	-12.3444
唯此一	-12.3446
二十部	-12.345
有既不有	-12.3453
正因正果	-12.3457
就立中	-12.3465
陰中無如來	-12.3466
六情品	-12.347
偈釋章門	-12.3472
教生智	-12.3475
無為尚空	-12.3479
俗諦複假	-12.3479
後邊身	-12.349
遮異品	-12.3494
須聖人為	-12.3496
常等四倒	-12.3499
以二慧為	-12.3506
照明品	-12.3519
若先定有	-12.352
實相發生正觀	-12.3523
瑤師	-12.3525
無而言無	-12.3547
和合中無果	-12.3548
釋前偈下半	-12.356
馬鳴龍樹	-12.356
□□□□□□	-12.3562
耳鼻舌身意	-12.3589
略明四種	-12.3595
閒	-12.3598
眾生等有	-12.3603
妨礙	-12.3605
可怜	-12.361
是汝立義	-12.361
陀婆	-12.3619
我之自	-12.3619
本性寂滅	-12.3634
力無畏	-12.3654
舟載	-12.3675
道安法師	-12.3677
略明三種	-12.3705
彼此無定	-12.3726
左傳	-12.3748
肇法師所作	-12.375
語出老	-12.3759
無一法可	-12.376
事不然	-12.3867
詎可	-12.3943
所以靜躁之極	-12.3945
蘊積	-12.3979
為他利	-12.4
就人明	-12.4039
喻之如	-12.409
無常等四	-12.41
偈義如	-12.4156
說此頌	-12.4176
四句五句	-12.4204
窮則無因	-12.4207
論第十八	-12.424
墮落	-12.4248
見多者	-12.427
為顯一道	-12.4286
復次鞞世師	-12.4325
智者見空	-12.4333
猶如幻化	-12.4418
生非滅	-12.4553
滅相是無	-12.4637
靜躁之極未易言	-12.4659
能行之	-12.4723
明不妄	-12.4727
跋陀	-12.478
云一切無	-12.4899
不覺形隨	-12.4908
徒知年往	-12.4926
然則去住雖殊	-12.4962
怜	-12.4977
一家舊	-12.4983
郭象	-12.5065
現在之我	-12.52
出現品	-12.5213
犍度	-12.5233
凶	-12.5234
𢄶	-12.5245
儁	-12.525
奴	-12.5251
族	-12.5254
鑄	-12.5255
廷	-12.5257
如其有差	-12.5261
刻舟	-12.5265
周續之	-12.5266
禮拜	-12.5266
波羅捺	-12.5267
匪	-12.5268
黜	-12.527
嵐	-12.5271
伯陽	-12.5271
鄭玄	-12.5271
炳	-12.5272
輪扁	-12.5272
炬	-12.5272
自非道用潛流	-12.5273
遜	-12.5274
無二亦無三	-12.5275
裔	-12.5275
推涉聖文	-12.5275
但一應身	-12.5275
遠法師頃恒履宜	-12.5276
遵	-12.5277
履踐	-12.5277
怯	-12.5278
窮虗極數	-12.5279
感寄之誠	-12.5279
日月銘至	-12.5279
舍那婆斯	-12.528
稀	-12.528
俗待真	-12.528
短故長	-12.528
柔軟	-12.5281
肅	-12.5281
鳳	-12.5282
諂	-12.5283
不面當年	-12.5283
齋	-12.5283
癘	-12.5283
鵞	-12.5283
九層之臺	-12.5283
釆	-12.5284
懷疑終日	-12.5284
慣	-12.5285
寂彼廓然	-12.5285
曇摩掘多	-12.5285
波若定實相	-12.5285
六合之外	-12.5286
開三顯一	-12.5286
戶	-12.5287
撫机歎	-12.5287
庇	-12.5287
玄關之唱	-12.5288
再供養火	-12.5289
少壯老	-12.5289
阮	-12.5289
雅詠	-12.5289
葱	-12.529
理微言約	-12.529
情非情	-12.529
多聞部	-12.529
呂	-12.5291
二智體殊	-12.5291
邕	-12.5291
若蠅翼	-12.5291
列子湯問篇	-12.5291
淹	-12.5291
產	-12.5292
三千大千世界	-12.5293
祇夜	-12.5293
廬阜	-12.5293
惘悒	-12.5293
課	-12.5294
摭	-12.5294
涼風屆節	-12.5294
揖	-12.5294
覔	-12.5294
或未盡上	-12.5294
瞻霞永歎	-12.5294
在靈鷲山	-12.5295
亦諦亦非諦	-12.5295
瘵	-12.5296
摩訶僧祇	-12.5296
豫	-12.5296
輿	-12.5297
悼	-12.5297
柯	-12.5297
豈貪豐文	-12.5297
澁	-12.5297
雄	-12.5297
燥	-12.5297
滌	-12.5297
標越俗之美	-12.5297
綽	-12.5298
是以雖復江山悠邈	-12.5298
順時愛敬	-12.5298
詠及序	-12.5298
代謝隔別	-12.5298
儒墨	-12.5298
柏梁	-12.5298
潢漭	-12.5298
常守之	-12.5298
無器而不形	-12.5298
曇影	-12.5299
勅	-12.5299
六年苦行	-12.5299
柴桑	-12.5299
身所覺	-12.5299
釧	-12.5299
豈曰關詣神心	-12.53
卜	-12.53
尠	-12.53
佐	-12.53
則般若眾流	-12.53
識緣名色	-12.53
三脩比丘	-12.53
幽旨淪而更顯	-12.53
論曰諸有至	-12.53
遊戲	-12.5301
君清對終日	-12.5301
何美如之	-12.5301
盆	-12.5301
若心體自然	-12.5301
游刃萬機	-12.5301
君得與相見	-12.5301
彌沙塞	-12.5301
腐	-12.5301
窮化母之始物	-12.5302
未更近問	-12.5302
兩言雖殊	-12.5302
勘	-12.5302
妹	-12.5302
羲	-12.5302
陷	-12.5302
緣門破緣	-12.5302
飢渴	-12.5302
風吹	-12.5303
瑤和尚	-12.5303
懼言題之流	-12.5303
所以望途致想	-12.5303
燃灯	-12.5303
柏	-12.5304
將爰燭殊方	-12.5304
優樓迦弟子	-12.5304
砂	-12.5304
據梁傳	-12.5304
法師亦好相領得	-12.5304
受化者	-12.5304
清散未期	-12.5304
五根五塵及	-12.5304
既曰為同	-12.5305
涌	-12.5305
視之不見名曰夷	-12.5305
酌	-12.5305
靈竭天棺	-12.5306
廢三立一	-12.5307
諦智傍正	-12.5307
橋梁	-12.5307
神無觸	-12.5307
匿耀	-12.5307
虛怕獨感	-12.5307
於瓦官寺教習禪道	-12.5307
厚自保愛	-12.5307
未始不寂	-12.5307
顛	-12.5307
惓	-12.5308
請大乘禪師一人	-12.5308
有不定過	-12.5308
捕	-12.5308
即實之權	-12.5308
坌污	-12.5308
正申傍破	-12.5308
習之餘	-12.5308
十迴向	-12.5308
暄	-12.5309
成其私	-12.5309
是以聲聞悟非常以成道	-12.5309
訶梨跋摩	-12.5309
伊字	-12.5309
夙夜匪懈	-12.5309
祗	-12.5309
法次譬	-12.5309
嶺	-12.5309
塹	-12.5309
中十心	-12.5309
是以觀聖人心者	-12.5309
宇於無疆	-12.5309
昭昭	-12.5309
大秦天王者	-12.5309
壽極雙樹	-12.5309
若真若俗	-12.5309
吏	-12.531
鼈	-12.531
集起無知	-12.531
雖覆一簣	-12.531
夫聖心冥寂	-12.531
隨之弗得其蹤	-12.531
就體釋	-12.531
釋八不之始	-12.531
吟	-12.531
什法師於大石寺	-12.531
道契百王之端	-12.531
想開究之功	-12.531
不名不語	-12.531
有無二法攝一切法	-12.5311
發趣品	-12.5311
驢	-12.5311
譬如為山	-12.5311
有何物而可動乎	-12.5311
任十信	-12.5311
比知相故	-12.5311
牢固	-12.5311
物生物者	-12.5311
啟八正之平路	-12.5311
寧復痾癘中逵	-12.5311
率稱其美	-12.5311
夫涅槃之為道也	-12.5311
犍	-12.5311
得滅度者	-12.5312
管	-12.5312
結僧那於始心	-12.5312
三明鏡於內	-12.5312
懷前識以標玄	-12.5312
百論治外以閑邪	-12.5312
開方便門示真實相	-12.5312
矚	-12.5312
與火合	-12.5312
而王居一焉	-12.5312
能說深淨法	-12.5312
虵	-12.5312
某	-12.5312
人則謂少壯同體	-12.5312
現在愛取	-12.5313
心數既玄而孤運其照	-12.5313
徙	-12.5313
殃	-12.5313
猥蒙國恩	-12.5313
荊	-12.5313
辭致清婉	-12.5313
屈申與指	-12.5313
知之者反其愚	-12.5313
觀辨於心	-12.5313
智證之時	-12.5313
識等四法無	-12.5313
講肆	-12.5313
終大悲以赴難	-12.5314
然則心生於有心	-12.5314
無心於萬物	-12.5314
研機斯趣	-12.5314
而惑者居見聞之境	-12.5314
心及心法	-12.5314
徵出第四	-12.5314
冲而不改	-12.5314
依聞思所成智正比量	-12.5314
得忍菩薩	-12.5314
簣土	-12.5314
覩眾相	-12.5314
夫言迹之興	-12.5315
永淪太	-12.5315
有何物而可同哉	-12.5315
跛	-12.5315
巳作地	-12.5315
支法領	-12.5315
蒲有席	-12.5315
鼠	-12.5315
但標位似各有本	-12.5315
何有同無之極	-12.5315
尋夫立文之本旨者	-12.5315
猥參嘉運	-12.5315
而獨曳	-12.5315
能建大	-12.5315
輕毛	-12.5315
然則乾坤倒覆	-12.5315
三藏法師一人	-12.5316
律儀	-12.5316
則物而即真	-12.5316
此蓋悟	-12.5316
齒	-12.5316
若覩其變	-12.5316
道俗通佳	-12.5316
入無為境	-12.5316
繕	-12.5316
鳩摩羅陀	-12.5316
廬山遠法師	-12.5316
忌	-12.5316
堪忍	-12.5316
不循聲	-12.5316
君王得一以治天下	-12.5316
無想天	-12.5316
無有實行二乘人	-12.5316
介	-12.5317
今用此語	-12.5317
夫言色者	-12.5317
有天竺沙門鳩摩羅什者	-12.5317
而慧明獨存	-12.5317
論末章云	-12.5317
籌量	-12.5317
阿闍世	-12.5317
聖智無知而無所不知	-12.5317
毒龍	-12.5317
幸復誨之	-12.5317
即今文是	-12.5317
天得一以清	-12.5317
架	-12.5317
漬	-12.5317
遲疾	-12.5317
憰	-12.5318
什法師以午年	-12.5318
庶述其言	-12.5318
若唯照無相	-12.5318
縮	-12.5318
明逾日月	-12.5318
以此為懷	-12.5318
不來相來	-12.5318
牘	-12.5318
付法藏經	-12.5318
從果立名	-12.5318
情尚於無	-12.5318
窈窈	-12.5318
鋌	-12.5319
尋大方而徵隅	-12.5319
領公遠舉	-12.5319
乙	-12.5319
繪	-12.532
隣人皆愕然	-12.532
城壍	-12.532
無是而物無不是	-12.532
初長行立	-12.532
法法不相到	-12.532
言生於象	-12.532
權實互具	-12.532
以為欣慰	-12.532
霧	-12.532
忙	-12.532
但有虛言	-12.5321
所存之必當	-12.5321
推之無鄉	-12.5321
傍破於外	-12.5321
謁	-12.5321
亦收亦破	-12.5321
三本迹俱	-12.5321
五家為	-12.5321
分段變易	-12.5321
毘陀	-12.5321
且夫心之有也	-12.5321
辭雖不文	-12.5321
心敏難繪	-12.5321
便為邪觀	-12.5321
因興因因	-12.5321
幅	-12.5322
緣覺覺緣離以即真	-12.5322
頗胝迦寶	-12.5322
初地至七地	-12.5322
尋夫經論之作	-12.5322
替	-12.5322
福滅時苦	-12.5322
象生於意	-12.5322
雖未清承	-12.5322
宗本蕭然	-12.5322
性住於昔	-12.5322
絕視聽之域	-12.5322
老耄	-12.5322
自利利他	-12.5322
千五百年	-12.5322
爪	-12.5322
夫以不同而適同	-12.5322
憤愧何深	-12.5322
感而遂通	-12.5322
訪	-12.5322
難為郢人	-12.5322
即物之情哉	-12.5322
體應窮微	-12.5322
悋	-12.5323
鈍根未悟	-12.5323
騁六通之神驥	-12.5323
佛於空中現	-12.5323
若以相可相成	-12.5323
伏惟陛下	-12.5323
斯不遠而可知矣	-12.5323
無畏之廣	-12.5323
苟能契神於即物	-12.5323
勤修加行	-12.5323
無常遷滅	-12.5323
所以智周萬物而不勞	-12.5323
䬸	-12.5323
此直好無之談	-12.5323
請試陳	-12.5323
文字章句	-12.5323
昧者不知	-12.5324
弄	-12.5324
一說部	-12.5324
蕩無始之遺塵	-12.5324
不愚不智	-12.5324
例上可知	-12.5324
肅肅	-12.5324
獻	-12.5324
而曰體而	-12.5324
日初出	-12.5324
見此不見彼	-12.5324
非若肇公	-12.5324
穿	-12.5324
若稱生同內	-12.5324
婆藪	-12.5324
於七住初獲無生忍	-12.5324
見苦眾生	-12.5325
薩迦耶見	-12.5325
秉	-12.5325
請以近喻	-12.5325
動寂第十五	-12.5325
乘莫二之真心	-12.5325
是以言往不必往	-12.5325
無異指南為北	-12.5325
若涅槃一也	-12.5325
闚	-12.5325
于何不名	-12.5325
佛性河滿	-12.5325
偏行六度菩薩	-12.5325
品各五偈	-12.5325
狩	-12.5325
六地以還	-12.5325
銅鍱	-12.5325
非離真而立處	-12.5325
履萬惑而常通	-12.5325
貧道思不關微	-12.5325
昔有今無	-12.5325
豈曰有而為有	-12.5325
名也極於題目	-12.5325
因不至果	-12.5326
非二諦攝	-12.5326
括囊無咎	-12.5326
兼拙於筆語	-12.5326
既無往返之微朕	-12.5326
無聽而聽者	-12.5326
何必非有無此有	-12.5326
非無無彼無	-12.5326
像出於有	-12.5326
千里之行	-12.5326
脇	-12.5326
恬焉而夷	-12.5326
九道眾生	-12.5326
心無影響	-12.5327
五千偈	-12.5327
傍破吉	-12.5327
事不失真	-12.5327
奔逝	-12.5327
故彼所執	-12.5327
五眼所不見	-12.5327
猷	-12.5327
編	-12.5327
寂滅永安	-12.5327
眴	-12.5327
薪盡火滅	-12.5327
如外地等	-12.5327
尸羅	-12.5327
首盧	-12.5327
舉師以來之	-12.5328
且至趣無言	-12.5328
三性三無性	-12.5328
非復眾生得涅槃也	-12.5328
如之何謂覩變之知	-12.5328
豎	-12.5328
得而無得	-12.5328
不應重執	-12.5328
六境之內非涅槃之宅	-12.5328
別立別破	-12.5328
互相開避	-12.5328
從深至淺	-12.5328
漆	-12.5328
我語取	-12.5328
神與覺一	-12.5328
即之明文	-12.5328
因破異執	-12.5328
肇以人微	-12.5328
二乘得盡智	-12.5328
剖判	-12.5328
蟻	-12.5328
題牓	-12.5328
破而不收	-12.5329
超邁三域	-12.5329
不出魔界而入佛界	-12.5329
然性本常一	-12.5329
豈不以其即萬物之自	-12.5329
然其量有	-12.5329
蓋是返本之真名	-12.5329
阿羅羅	-12.5329
本之聖意	-12.5329
耕	-12.5329
寂寥虗曠	-12.5329
獨蹈大方	-12.5329
動之微	-12.5329
內外相與以成其照功	-12.5329
明漸第十三	-12.5329
涅槃與無煩惱不異	-12.5329
三五教	-12.5329
從本至末	-12.5329
銳	-12.5329
共論世諦	-12.5329
雖復千途異唱	-12.533
丙	-12.533
真心真境	-12.533
餘迹不泯	-12.533
靜思幽尋	-12.533
數極於是	-12.533
蓋是三乘之宗極也	-12.533
糠	-12.533
進之弗先	-12.533
亦破亦立	-12.533
俗無真	-12.533
而子欲聞之耶	-12.533
堅濕暖動	-12.533
扸	-12.533
此豈頓得之謂	-12.533
然涅槃一義	-12.533
可燃有燃	-12.533
書不云乎	-12.533
有而性常自空	-12.533
以緣求知	-12.533
整歸駕於道場	-12.533
紛繞	-12.533
違害共知	-12.533
際限	-12.533
似去而留	-12.533
宣明序意	-12.5331
寐	-12.5331
五陰十二入十八界	-12.5331
退之弗後	-12.5331
糧	-12.5331
未發無去時	-12.5331
野馬飄鼓而不動	-12.5331
焉可以名於無名	-12.5331
若覩初制	-12.5331
同我則非復有無	-12.5331
異我則乖於會通	-12.5331
采	-12.5331
衰惱	-12.5331
蔡邕	-12.5331
寂用何妨	-12.5331
湛若虛空	-12.5331
理內感理外	-12.5331
在什公門下十有餘	-12.5331
控	-12.5331
燃有重成	-12.5331
脩妬路	-12.5331
言用則異	-12.5331
憩七覺之茂林	-12.5332
澡八解之清流	-12.5332
妙盡之道	-12.5332
了第一義諦世諦	-12.5332
然亦不捨於有無	-12.5332
逾寂逾動	-12.5332
理無餘翳	-12.5332
而有餘緣不盡	-12.5332
遼	-12.5332
大小兩乘	-12.5332
不寒不暑	-12.5333
所謂有力者負之而趨	-12.5333
涅槃之始為生死之終	-12.5333
為通論之	-12.5333
照逾明	-12.5333
神道之妙稱	-12.5333
將人比日	-12.5333
攝末歸本	-12.5333
萬累滋彰	-12.5333
豈曰續鳧截鶴	-12.5333
談者似謂無相與變	-12.5333
齊異學於迦夷	-12.5333
無物從緣而生也	-12.5333
今真諦曰真	-12.5333
斯則窮理盡性	-12.5333
中觀論三字	-12.5333
物不生物	-12.5333
本於妄想	-12.5333
𦦨	-12.5333
臧	-12.5333
記錄	-12.5334
鍛	-12.5334
未來兩果	-12.5334
猶有餘疑一兩	-12.5334
所知即緣也	-12.5334
夫聖人真心獨朗	-12.5334
妙悟在於即真	-12.5334
斯可謂不自有其知	-12.5334
結縛既除	-12.5334
行一切善	-12.5334
託情絕域	-12.5334
譏動第十四	-12.5334
以如是義故	-12.5334
吾以無得為得	-12.5334
滌蕩萬有	-12.5334
為利根人說	-12.5334
零	-12.5334
一義無量名	-12.5334
餌	-12.5334
影響既淪	-12.5334
卓	-12.5334
忻躍	-12.5334
萬法雖實	-12.5334
語言雖同	-12.5334
若如來旨	-12.5334
㲉	-12.5334
觸物而一	-12.5334
作若為解	-12.5334
子以有得為得	-12.5334
丑月	-12.5335
破離陰我	-12.5335
擅	-12.5335
交言曰論	-12.5335
百是所不是	-12.5335
所以千聖同轍	-12.5335
涅槃既不出有無	-12.5335
且談論之作	-12.5335
必先定其本	-12.5335
我無我為方便	-12.5335
乘真心而理順	-12.5335
目擊而道存	-12.5335
牓	-12.5335
無說無聞	-12.5335
審一氣以觀化	-12.5335
而論旨竟莫知所歸	-12.5335
大品三慧品	-12.5335
有實行二乘	-12.5335
冤	-12.5336
從何生	-12.5336
毘婆舍那	-12.5336
與身俱	-12.5336
五陰若都盡	-12.5336
汝亦不許	-12.5336
翔	-12.5336
向在為有	-12.5336
在家起愛	-12.5336
果以非天非人	-12.5336
然未經高勝先唱	-12.5336
而論旨云	-12.5336
言象之所得	-12.5336
不全許	-12.5336
今有合瓶故	-12.5336
勳	-12.5336
壞因來壞	-12.5336
本有於當	-12.5336
轉名最勝	-12.5336
逕庭	-12.5336
然則法相為無相之相	-12.5336
所以為即無為	-12.5336
登高座	-12.5336
若一心見色	-12.5336
其為稱也	-12.5336
故真智亦非知	-12.5336
五大生十一根	-12.5337
時問中事	-12.5337
八百餘年	-12.5337
即色是空	-12.5337
吾則求今於古	-12.5337
百非所不非	-12.5337
世所共知	-12.5337
故言覩變之知	-12.5337
使夫懷德者自絕	-12.5337
:『	-12.5337
不幸什公去世	-12.5337
擯	-12.5337
色心等是	-12.5337
雖偽而非無	-12.5337
其為治	-12.5337
庶通心君子	-12.5337
成與壞	-12.5337
黃絹	-12.5337
隨自意	-12.5337
夫言由名起	-12.5337
同稱無為	-12.5337
漚和之門涉有	-12.5337
無異杜耳目於胎	-12.5337
然則物我同根	-12.5337
安得無知哉	-12.5337
而言有所不言	-12.5337
莫先於無	-12.5337
籌	-12.5338
婁	-12.5338
吾猶昔人	-12.5338
練	-12.5338
陶汰	-12.5338
借妄止妄	-12.5338
至此已來	-12.5338
設二乘不見此理	-12.5338
不內不外	-12.5338
涉求則損益交陳	-12.5338
不若無心之無	-12.5338
和鸞	-12.5338
妄與真	-12.5338
物從因緣故不有	-12.5338
罵	-12.5338
莫定其本	-12.5338
靡不度生	-12.5338
有高必有下	-12.5338
絕有之稱	-12.5338
豎窮	-12.5338
憂悲苦惱	-12.5338
超情離見	-12.5338
然則般若之門觀空	-12.5338
若覺是神相	-12.5338
是以善言言者	-12.5338
取相故名知	-12.5339
世稱無知者	-12.5339
緣使中人未分於存亡	-12.5339
今滅為無	-12.5339
而陛下聖德不孤	-12.5339
前時去	-12.5339
衣絹	-12.5339
抄	-12.5339
方廣道人	-12.534
有如上過	-12.534
其唯聖言乎	-12.534
無不夷跡	-12.534
羊角	-12.534
今亦不至古	-12.534
同升無為	-12.534
墮常邊	-12.534
汝不知耶	-12.534
況乃有言	-12.534
無取則無是	-12.534
誠以般若無有有相之知	-12.534
有美若人	-12.534
十二入攝一切法	-12.534
未領色之非色	-12.534
其用不勤	-12.534
人則求古於今	-12.534
廣破邪涅槃	-12.534
但未是玄寂絕言之幽致	-12.534
實無水可破	-12.534
斂	-12.534
然非無心	-12.534
所見未嘗同	-12.534
適時而用	-12.534
懷六合於胸中	-12.5341
夫智之生也	-12.5341
智者了達知其無二	-12.5341
是以三乘觀法無異	-12.5341
今應有古	-12.5341
無三世三世	-12.5341
理無幽顯	-12.5341
詰漸第十二	-12.5341
生可生不能生	-12.5341
碎	-12.5341
萬善為乘	-12.5341
囉	-12.5341
四合生知	-12.5341
必若止於五陰	-12.5341
生老病死憂悲苦惱	-12.5341
汝語不善	-12.5341
大慧之稱	-12.5341
彼自不然	-12.5341
昏默	-12.5341
知是神相	-12.5341
般若即能知也	-12.5341
若謂以現見而有	-12.5341
俱濟緣起之津	-12.5341
禽獸	-12.5341
緣正兩性	-12.5341
腸	-12.5341
諸賢聖真知諸法空	-12.5341
迷故見有	-12.5341
豈容終始於其間哉	-12.5342
能破有無見	-12.5342
定有則著常	-12.5342
爰延十二	-12.5342
般若為能觀之	-12.5342
相生即緣法	-12.5342
乘即無為	-12.5342
返聽不我聞	-12.5342
余甞	-12.5342
諸有礙物	-12.5342
央	-12.5342
雖畢竟空而	-12.5342
不亦遠乎	-12.5342
其文有似不同	-12.5342
恐所示轉遠	-12.5342
破過去世四見	-12.5342
總立總破	-12.5342
虗心玄鑒	-12.5342
長行前釋上半	-12.5342
尋文求實	-12.5342
為小生生	-12.5342
等觀性空	-12.5342
學因緣成自性	-12.5343
所以會而不差	-12.5343
無數劫	-12.5343
丈六之身	-12.5343
我及我所	-12.5343
以知涅槃之道	-12.5343
汝遂言	-12.5343
二釋三結	-12.5343
誰為得之者	-12.5343
馮	-12.5343
古應有今	-12.5343
古若至今	-12.5343
於凡是實故	-12.5343
諸佛世尊之所說	-12.5343
離法無別時	-12.5343
亦名毒藥	-12.5343
倒與不倒皆	-12.5343
然則我即無為	-12.5343
而止無為之境	-12.5343
觀易成	-12.5343
鼠嘍栗	-12.5343
世諦即第一義	-12.5344
靈照永滅	-12.5344
刀不自割	-12.5344
為不爾耶	-12.5344
然則有餘可以有稱	-12.5344
則無異而不同	-12.5344
恍焉而有	-12.5344
苟領其所同	-12.5344
以啟末俗	-12.5344
其致不乖	-12.5344
然則三乘之路開	-12.5344
生生奔競	-12.5344
躬執秦文	-12.5344
果未起時	-12.5344
異故不失於照功	-12.5344
此攀緣之外	-12.5344
以明夫聖人之於物也	-12.5344
於勝義上更	-12.5344
是常是遍	-12.5344
為無知故不取	-12.5344
緣法故非真	-12.5344
萬動可即而靜	-12.5344
鑛	-12.5344
今應詰問	-12.5344
說入不二	-12.5344
豈曰文殊而乖其致哉	-12.5344
􂒀	-12.5344
秘藏	-12.5344
覩變則異乎無相	-12.5345
如生盲人	-12.5345
五臺大萬聖	-12.5345
則深遠之言	-12.5345
若知得於聖心	-12.5345
夫物無以自通	-12.5345
從思生	-12.5345
物雖非名	-12.5345
有有可有	-12.5345
人之所謂去	-12.5345
求向物	-12.5345
而行業湛然	-12.5345
鴿	-12.5345
從勝受名	-12.5345
其致一而	-12.5345
因之與果	-12.5345
外有萬法之	-12.5345
故無此失	-12.5345
空有異照耶	-12.5345
譬猶三鳥出網	-12.5345
所以應化無方	-12.5346
神常覺無常	-12.5346
終日言而未嘗言	-12.5346
而子欲以緣求智	-12.5346
般若無不窮之鑒	-12.5346
韜光	-12.5346
既無心於動靜	-12.5346
是以聖人空洞其懷	-12.5346
見一不見二	-12.5346
亥	-12.5346
道存乎其間	-12.5346
已住未住住時	-12.5346
罄佛淵海	-12.5346
若無知故不取	-12.5346
俗諦以明非無	-12.5346
未見其當	-12.5346
知亦生所知	-12.5346
如刀傷心	-12.5346
故不聞以聞之	-12.5346
故不見以見之	-12.5346
乃曰一切知	-12.5346
絕偽即真	-12.5346
二示正義	-12.5347
我既是常	-12.5347
信其言也	-12.5347
無常苦空無我	-12.5347
體不離用	-12.5347
夫有若真有	-12.5347
故聖智存焉	-12.5347
於如來是第一義諦	-12.5347
豈待緣而後有哉	-12.5347
快盡其中方寸	-12.5347
或總或別	-12.5347
比知中無神	-12.5347
相異可相	-12.5347
非遷非不遷	-12.5347
所知自常淨	-12.5347
不見有法無緣而生	-12.5347
然則有生於無	-12.5347
豈有心於彼此	-12.5347
造詣也	-12.5347
奈	-12.5348
辨異者異於同	-12.5348
迂迴	-12.5348
三乘人同觀	-12.5348
大小二生	-12.5348
摩訶迦葉	-12.5348
諸法假號不真	-12.5348
何乖不一耶	-12.5348
夫人之所謂動者	-12.5348
所以聖迹萬端	-12.5348
窮源第十六	-12.5348
般若未嘗淨	-12.5348
菩薩住盡不盡平等法門	-12.5348
豈可以有為便有為	-12.5348
所以為患耳	-12.5348
是則涅槃有始	-12.5348
竪論表理	-12.5348
菩薩得無礙	-12.5348
雖靜而不離動	-12.5348
豈謂滌除萬物	-12.5348
將無以般若體性真淨	-12.5348
四諦二諦一諦	-12.5348
言雖不能言	-12.5348
然則莊生之所以藏山	-12.5348
半有同有	-12.5349
俗以浮虛	-12.5349
不來亦不去	-12.5349
依持建立	-12.5349
則邪見非惑	-12.5349
謂物無耶	-12.5349
故名教絕焉	-12.5349
墮斷邊	-12.5349
必待眾因	-12.5349
無執無競	-12.5349
覺慧增益	-12.5349
馬喻馬之非馬	-12.5349
更有所從	-12.5349
聖心非不能是	-12.5349
若真是可是	-12.5349
其唯物性乎	-12.5349
而曰不出不在	-12.5349
宇宙	-12.5349
究竟涅槃常寂滅相	-12.5349
斯則無知之所知	-12.5349
誠以異於人者神明	-12.5349
是以聖人乘千化而不變	-12.5349
溪	-12.5349
色即是空空即是色	-12.5349
有一毫法	-12.535
但著文字	-12.535
於內無心	-12.535
於外無數	-12.535
病無不破	-12.535
故能不出有無	-12.535
然則群籍殊文	-12.535
不可定判	-12.535
智能為境所	-12.535
五十二位	-12.535
似無影像	-12.535
則不辨於惑智	-12.535
是以聖智之用	-12.535
然則不真空義	-12.535
聰慢者	-12.535
起有無見	-12.535
令知佛法	-12.535
偽因著生	-12.535
成就來現在	-12.535
無有異有而非無	-12.535
自照照彼	-12.535
誠以無是可是	-12.535
明眾聖之	-12.535
生生之所生	-12.535
來有所從	-12.535
去有所至	-12.535
不厭有而觀空	-12.535
如幻焰	-12.535
欲以辨其相	-12.535
不說我非我	-12.535
誰獨不然耶	-12.535
住處亦無闇	-12.535
如來常依二諦說法	-12.535
心是能緣	-12.5351
佛告大慧	-12.5351
君臣父子	-12.5351
惑者既聞	-12.5351
為破此執	-12.5351
眾庶止於妄想	-12.5351
薪中亦無火	-12.5351
然則動靜未始異	-12.5351
然則法無有無之相	-12.5351
於何而可物	-12.5351
神遍覺	-12.5351
三乘別教	-12.5351
明不見暗	-12.5351
其猶燈盡火滅	-12.5351
無上正等菩提	-12.5351
假號久矣	-12.5351
理外眾生有佛性	-12.5351
大象隱於無形	-12.5351
就世諦門	-12.5351
無是自無	-12.5351
禪典唱無緣之慈	-12.5351
若汝定謂	-12.5351
非自非他	-12.5352
今不去古	-12.5352
誠以即物順通	-12.5352
鍾	-12.5352
不可得而同也	-12.5352
是以聖心不有	-12.5352
故絕智以淪虛	-12.5352
有化而無	-12.5352
求今於古	-12.5352
種種推斥	-12.5352
大音匿於希聲	-12.5352
汝雖種種破	-12.5352
父母生身	-12.5352
辨相不為無	-12.5352
逆俗故言淡而無味	-12.5352
離眼耳等根苦樂等法	-12.5352
以覺從神	-12.5352
佛說種種名	-12.5352
使一切眾生皆得	-12.5352
已去無有去	-12.5353
若有知性空而稱淨	-12.5353
則心無為	-12.5353
故知萬物非真	-12.5353
由是而知	-12.5353
若我異無為	-12.5353
性淨方便淨	-12.5353
求生不可得	-12.5353
從眾因緣生	-12.5353
到色見	-12.5353
無為自無為	-12.5353
色入所攝	-12.5353
婆私弗多羅	-12.5353
無所得謂之得者	-12.5353
然則我與無為	-12.5353
皆以無為法	-12.5353
神一覺	-12.5353
是故如來宣說	-12.5353
有無所以稱有	-12.5353
極微定有方分	-12.5353
無者無於有	-12.5353
然其所統	-12.5353
空名有空	-12.5353
見法為見佛	-12.5353
諦觀察之	-12.5353
其唯聖智乎	-12.5354
未釋不取之理	-12.5354
豈殊文之能惑哉	-12.5354
適化眾生	-12.5354
妙智存乎物外	-12.5354
有因有因因	-12.5354
有果有果果	-12.5354
無有所以稱無	-12.5354
物各住位	-12.5354
從複假入	-12.5354
超境第五	-12.5354
緣未合時	-12.5354
依二諦為眾生說法	-12.5354
為直往菩薩	-12.5354
經所為論能	-12.5354
難成立故	-12.5354
世間外道小乘大乘	-12.5354
五塵成瓶	-12.5354
則無患一也	-12.5354
各據一	-12.5354
惑者初非無	-12.5354
然則彼此初非有	-12.5354
然則有無稱異	-12.5354
以本垂迹	-12.5354
物不能隱	-12.5354
其實既宣	-12.5354
明過去不作	-12.5354
豈曰有無之外別有一有而可稱哉	-12.5354
隨凡說有	-12.5355
苟得其會	-12.5355
今此一門	-12.5355
虛誑妄取	-12.5355
如觀緣品	-12.5355
待對故	-12.5355
故童子歎曰	-12.5355
死屍	-12.5355
心有大小	-12.5355
朗然懸解	-12.5355
若分有者	-12.5355
彼已寂滅	-12.5355
百非不能非	-12.5355
若使無有有云何當有無	-12.5355
深有所以	-12.5356
好尚涉求	-12.5356
有業有果報	-12.5356
不可以有無得之	-12.5356
物不遷正量論	-12.5356
用二諦為宗	-12.5356
諸業本不生	-12.5356
是定量	-12.5356
劣慧者	-12.5356
而悉不有	-12.5356
實相之折中	-12.5356
然則有無之境	-12.5356
不如有見常見之有	-12.5356
全如意珠	-12.5356
問他亦云	-12.5356
能覺所覺	-12.5356
以佛性為本	-12.5356
妄想之域	-12.5356
應如此知	-12.5357
無常無斷	-12.5357
開方便門	-12.5357
如楞伽經偈	-12.5357
由滅故生	-12.5357
賖	-12.5357
入大般若波羅蜜	-12.5357
得須陀洹果	-12.5357
無無可無	-12.5357
一名無量義	-12.5357
於菩薩之行道場之照	-12.5357
無是乃所以為真是	-12.5357
起則非無	-12.5357
故天帝曰	-12.5357
未受五陰	-12.5357
神覺體一	-12.5357
若他人作苦	-12.5357
通古第十七	-12.5357
便攝得	-12.5358
如理諦觀	-12.5358
橫論顯發	-12.5358
非非二非非不二	-12.5358
奉詔譯	-12.5358
菩薩入無盡三昧	-12.5358
生更有生	-12.5358
而不化者	-12.5358
所不迹	-12.5358
斯則不可得而異	-12.5358
空不住空	-12.5358
隨寄一	-12.5358
無得之偽號	-12.5358
無知可無	-12.5358
論以明之	-12.5359
明二諦俱無生	-12.5359
是故得無所得也	-12.5359
而信不常不斷	-12.5359
是則此我	-12.536
是大邪見	-12.536
為存略	-12.536
照於事外	-12.536
以知亡不為無	-12.536
阿毗曇人言	-12.536
問此品何故	-12.536
如來滅度後	-12.536
如軍眾等	-12.536
言殊致一	-12.536
圓而是常	-12.536
神覺體異	-12.536
聊復寄心於動靜之際	-12.536
有物流動	-12.536
壇	-12.536
佛性無眾生	-12.536
從俗諦複假入	-12.536
愛結所	-12.536
會異第十一	-12.536
若立顯事	-12.536
非聖不理	-12.536
是故瓶非現見	-12.5361
與意合	-12.5361
就相待門破	-12.5361
便違經說	-12.5361
言用即同而異	-12.5361
非凡非聖	-12.5361
2	-12.5361
不待泯三	-12.5361
如般若中說	-12.5361
寂怕無兆	-12.5361
如梵王所問經	-12.5361
或一或異	-12.5361
言教法寶	-12.5361
過去非過去	-12.5361
染汙	-12.5362
經能為論所	-12.5362
責異第十	-12.5362
負債人	-12.5362
頗胝迦	-12.5362
何以異之	-12.5362
性本自空	-12.5362
從眾緣出	-12.5362
汝謂我著空	-12.5362
夫以名求物	-12.5362
宗皆許	-12.5362
非實非非實	-12.5362
非即非離	-12.5363
冥冥長往	-12.5363
犢子及假有體	-12.5363
顯慶三年歲次戊午	-12.5363
▁1564	-12.5363
初正明單複	-12.5363
因因而有故名因因	-12.5363
自作若不成	-12.5363
亦實亦非實	-12.5363
斷集證滅修道	-12.5363
非凡夫行	-12.5363
住本位	-12.5364
笋	-12.5364
傳梵大師賜紫沙門臣法護等奉詔譯	-12.5364
果為從緣生	-12.5364
答第一問	-12.5364
以不特	-12.5364
生生從本生	-12.5364
教異意同	-12.5364
言不有不無者	-12.5364
如指端	-12.5365
昔我於無數劫	-12.5365
百是亦不	-12.5365
智能滅障	-12.5365
巍	-12.5366
無所有如是有	-12.5367
了義不了義	-12.5367
假有假不有	-12.5367
惶	-12.5367
世諦破假	-12.5367
既能如是遠離二邊	-12.5368
所以成失	-12.5368
得語不得意	-12.5368
令物信解	-12.5369
彼去則不去	-12.5369
是不一一	-12.5369
於聖人是實	-12.5369
4	-12.537
因緣即是八不	-12.537
怕爾無兆	-12.537
離去不去者	-12.537
總別體異	-12.537
如汝分別	-12.5371
曇影法師	-12.5371
有則俱有	-12.5371
以破其執	-12.5371
能拔物苦	-12.5371
地中脩	-12.5372
誰語義	-12.5372
[...]
