<unk>	0
<s>	0
</s>	0
之	-3.86206
也	-3.92751
而	-4.20705
者	-4.51549
以	-4.58519
則	-4.62762
為	-4.82812
(	-4.84533
)	-4.89866
其	-4.94307
有	-4.97745
是	-5.06714
不	-5.07787
於	-5.12875
言	-5.1829
曰	-5.20279
人	-5.44556
矣	-5.4897
此	-5.49227
故	-5.52691
與	-5.5443
無	-5.5549
○	-5.65823
然	-5.70518
自	-5.74209
如	-5.74549
一	-5.76509
非	-5.77297
亦	-5.81794
謂	-5.8656
乎	-5.86735
皆	-5.98109
在	-6.03155
得	-6.05137
見	-6.0744
知	-6.08386
事	-6.08562
至	-6.11568
行	-6.11844
若	-6.13199
又	-6.15401
所	-6.17666
字	-6.21038
處	-6.21084
子	-6.22251
大	-6.23778
必	-6.23994
已	-6.24731
云	-6.24823
説	-6.28248
所以	-6.29103
道	-6.29613
心	-6.30589
上	-6.31141
雖	-6.33354
中	-6.35691
孟子	-6.36295
問	-6.37818
當	-6.37846
能	-6.40645
欲	-6.41721
下	-6.41854
聖人	-6.42116
所謂	-6.42146
正	-6.43868
時	-6.44172
即	-6.44508
耳	-6.44761
反	-6.44908
▁	-6.46186
用	-6.46535
可	-6.47365
爲	-6.47428
孔子	-6.47859
乃	-6.51244
焉	-6.52051
明	-6.53207
使	-6.55217
禮	-6.55943
意	-6.56266
學	-6.59335
本	-6.59566
民	-6.61126
哉	-6.62009
君子	-6.62255
不可	-6.62915
義	-6.63452
同	-6.65029
而不	-6.66036
仁	-6.66234
王	-6.67199
以為	-6.67242
猶	-6.67998
君	-6.70359
夫子	-6.7139
我	-6.71774
不能	-6.73011
善	-6.73056
夫	-6.73714
如此	-6.73717
出	-6.74792
或	-6.75668
蓋	-6.76349
天	-6.77258
章	-6.77867
樂	-6.78433
生	-6.78963
名	-6.78964
既	-6.8015
作	-6.8028
相	-6.80407
之意	-6.80479
從	-6.80953
文	-6.8128
三	-6.82209
未	-6.82772
便	-6.83138
說	-6.8342
者也	-6.8365
去	-6.8434
但	-6.86705
後	-6.87001
今	-6.88762
而已	-6.89372
實	-6.89441
何	-6.89528
國	-6.90087
方	-6.91414
吾	-6.91537
惟	-6.91739
先	-6.92899
易	-6.93473
理	-6.93636
固	-6.93981
及	-6.94835
立	-6.95913
成	-6.96201
盡	-6.9722
小	-6.97746
物	-6.97989
音	-6.99217
公	-7.00058
)○	-7.00469
徳	-7.00954
于	-7.02039
論	-7.02732
己	-7.02875
不知	-7.0352
來	-7.03561
子曰	-7.04585
信	-7.05247
盖	-7.05613
天下	-7.05804
二	-7.06579
分	-7.06602
氣	-7.0661
多	-7.07679
命	-7.07896
通	-7.08054
,	-7.08418
敬	-7.09288
惡	-7.0948
且	-7.09967
求	-7.09974
/	-7.106
將	-7.11794
取	-7.12117
食	-7.12273
之事	-7.12391
因	-7.12637
性	-7.12714
常	-7.13041
好	-7.14161
世	-7.14445
周	-7.14523
安	-7.14554
思	-7.1477
難	-7.15105
節	-7.16622
齊	-7.17343
直	-7.1749
要	-7.18347
重	-7.18708
臣	-7.18734
身	-7.19067
合	-7.19246
書	-7.19403
死	-7.20021
只是	-7.2023
語	-7.20331
誠	-7.21431
過	-7.21689
居	-7.21981
外	-7.22173
不得	-7.22356
長	-7.22563
治	-7.23827
舉	-7.24409
士	-7.24844
又曰	-7.25353
就	-7.2557
學者	-7.26222
只	-7.26406
深	-7.26861
舜	-7.27033
由	-7.27054
始	-7.27448
發	-7.27639
凡	-7.28139
師	-7.28786
聞	-7.28944
可以	-7.29345
四	-7.29507
志	-7.30252
動	-7.30398
此章	-7.3169
親	-7.32129
切	-7.32206
稱	-7.32711
五	-7.32762
了	-7.32778
日	-7.33983
他	-7.34249
人之	-7.34604
至於	-7.34625
法	-7.34915
之心	-7.35162
注	-7.35451
復	-7.35475
指	-7.3605
入	-7.36057
傳	-7.36941
主	-7.37219
止	-7.37494
聖	-7.37572
教	-7.38728
魯	-7.3928
地	-7.39409
之道	-7.39677
内	-7.40113
賢	-7.40763
利	-7.40887
德	-7.41575
便是	-7.42664
獨	-7.43173
經	-7.43564
諸侯	-7.4371
似	-7.43745
謂之	-7.44303
甚	-7.44322
亂	-7.44619
而後	-7.45054
前	-7.45096
諸	-7.45417
葢	-7.45565
故曰	-7.45744
註	-7.46248
解	-7.4678
去聲	-7.47412
祭	-7.47658
兼	-7.49074
觀	-7.49781
逺	-7.49956
服	-7.5027
致	-7.5066
子路	-7.51143
彼	-7.51144
辭	-7.5133
家	-7.51551
極	-7.51756
爾	-7.52005
力	-7.52087
不同	-7.53158
中庸	-7.53219
體	-7.53552
疑	-7.53559
政	-7.55165
對	-7.55366
失	-7.55486
終	-7.55502
兩	-7.55778
異	-7.55844
豈	-7.5598
著	-7.56279
言之	-7.56612
近	-7.57026
全	-7.57616
守	-7.57829
遂	-7.57909
之間	-7.58126
定	-7.58288
其所	-7.58622
養	-7.5871
和	-7.58997
父	-7.59192
數	-7.59984
受	-7.60142
大夫	-7.6068
詩	-7.61174
宜	-7.61245
而言	-7.61882
視	-7.62005
歸	-7.62057
古	-7.62725
進	-7.6276
孟子曰	-7.63114
少	-7.63481
衆	-7.64088
却	-7.64206
朝	-7.64247
存	-7.6507
之説	-7.66049
水	-7.66973
然後	-7.67295
足	-7.67784
看	-7.67986
才	-7.68149
髙	-7.68546
愛	-7.68786
引	-7.68814
無所	-7.68849
推	-7.6903
有所	-7.69792
之所	-7.70302
變	-7.70504
益	-7.70935
制	-7.7209
於此	-7.72578
各	-7.72966
色	-7.73052
尚	-7.73164
位	-7.73294
子貢	-7.73363
平	-7.73441
須	-7.74181
孝	-7.74267
尊	-7.74329
智	-7.75162
之言	-7.75386
氏	-7.75559
或問	-7.76288
而無	-7.77352
斯	-7.77467
加	-7.77574
容	-7.7781
化	-7.78573
程子	-7.78636
順	-7.78736
小人	-7.79587
六	-7.8055
朱子	-7.80788
年	-7.80944
集註	-7.81887
文王	-7.82043
起	-7.82294
不足	-7.82312
情	-7.82576
殺	-7.83525
也故	-7.83618
朱子曰	-7.83832
亡	-7.83844
喪	-7.83932
門	-7.83989
神	-7.84141
工夫	-7.84547
九	-7.84659
美	-7.85131
執	-7.85612
是也	-7.85703
嘗	-7.86118
告	-7.86371
疏	-7.86542
是以	-7.86729
初	-7.86936
之時	-7.87868
原	-7.87945
達	-7.88349
恐	-7.88544
勝	-7.88565
如何	-7.88729
之中	-7.89063
唯	-7.89737
自然	-7.8987
篇	-7.89929
天子	-7.89989
比	-7.90424
興	-7.90743
間	-7.90918
權	-7.91101
厚	-7.91272
末	-7.913
忠	-7.91456
仕	-7.915
精	-7.91664
屬	-7.91964
憂	-7.92148
)(	-7.92483
更	-7.92742
莫	-7.92899
官	-7.93617
山	-7.93685
任	-7.93784
不必	-7.94092
按	-7.94223
陳	-7.94303
其心	-7.94615
衣	-7.94767
論語	-7.94871
程子曰	-7.95318
别	-7.95592
仁者	-7.95807
强	-7.95818
之理	-7.96681
不是	-7.96769
天理	-7.97156
釋	-7.97583
勇	-7.97623
害	-7.9775
必有	-7.97811
疾	-7.98033
應	-7.98223
做	-7.98316
尤	-7.98339
私	-7.98423
顔子	-7.98552
友	-7.98744
交	-7.98865
輔氏曰	-7.99392
二字	-7.99481
天地	-7.99603
備	-8.00064
病	-8.00378
器	-8.00565
習	-8.006
田	-8.00695
百	-8.00735
邪	-8.01424
宋	-8.01494
徒	-8.01536
詳	-8.01698
真	-8.01816
特	-8.0196
廣	-8.02106
次	-8.02422
質	-8.02946
都	-8.03103
之說	-8.03334
輕	-8.03636
伐	-8.0407
據	-8.04611
等	-8.04875
大學	-8.04919
車	-8.05025
辨	-8.05056
以其	-8.05482
這	-8.05578
適	-8.05634
東	-8.05772
俱	-8.05937
苟	-8.06068
的	-8.06435
功	-8.06802
放	-8.06905
往	-8.07053
夏	-8.07147
恕	-8.07148
天下之	-8.0732
之義	-8.07404
到	-8.0752
專	-8.08111
不敢	-8.08168
識	-8.0824
聖賢	-8.08682
流	-8.08843
為之	-8.08963
楚	-8.09252
施	-8.09294
窮	-8.09357
微	-8.09489
改	-8.09518
則是	-8.09571
予	-8.09945
令	-8.10019
之功	-8.1078
木	-8.11203
之人	-8.11242
可見	-8.11297
愚	-8.11306
類	-8.11393
無不	-8.11404
不及	-8.11527
形	-8.11615
察	-8.1207
射	-8.12094
南	-8.12329
老	-8.12436
。	-8.125
記	-8.12576
度	-8.13084
怨	-8.13216
人心	-8.13225
亦有	-8.13349
章句	-8.13422
禄	-8.13468
室	-8.13587
絶	-8.13956
足以	-8.14103
周公	-8.14267
果	-8.1534
底	-8.15541
春秋	-8.157
禮樂	-8.15987
當時	-8.16054
則其	-8.16096
風	-8.16157
也然	-8.16285
虚	-8.16448
扵	-8.16492
待	-8.16879
仁義	-8.16935
貴	-8.17068
馬	-8.17249
簡	-8.17287
萬	-8.1739
不為	-8.1785
不可以	-8.17999
元	-8.18253
辟	-8.18415
具	-8.18476
考	-8.19003
子思	-8.192
不以	-8.19201
請	-8.19625
向	-8.19718
聲	-8.19799
口	-8.19991
未嘗	-8.20247
何以	-8.20267
太	-8.20968
可謂	-8.21245
而已矣	-8.21421
右	-8.21473
愈	-8.21676
之後	-8.21827
富	-8.22459
約	-8.22662
卒	-8.22848
並	-8.23085
讀	-8.23249
聖人之	-8.23277
見得	-8.23641
責	-8.23734
廟	-8.23806
堯舜	-8.23876
十	-8.24042
行之	-8.24401
開	-8.248
隠	-8.25115
見其	-8.25174
序	-8.25313
盛	-8.25467
修	-8.25574
廢	-8.25939
講	-8.26435
傷	-8.26517
患	-8.26742
邑	-8.26782
務	-8.2709
依	-8.27226
偏	-8.27315
勿	-8.27315
以下	-8.2733
設	-8.27415
此心	-8.27459
西	-8.27622
知其	-8.28026
聽	-8.28065
知之	-8.28351
謹	-8.28423
漢	-8.28454
皆是	-8.28512
久	-8.29117
弟	-8.29154
耶	-8.29559
隱	-8.29828
喜	-8.29971
素	-8.30266
象	-8.30274
陽	-8.30354
恭	-8.30425
㑹	-8.30576
戒	-8.30631
目	-8.31009
克	-8.31102
七	-8.31114
弟子	-8.31153
商	-8.3118
也若	-8.31359
之謂	-8.31462
有以	-8.31902
伯	-8.32502
首	-8.32719
八	-8.32854
帝	-8.33144
:「	-8.33286
舊	-8.33624
父母	-8.33753
之類	-8.33989
旣	-8.34052
餘	-8.34629
謀	-8.34762
幾	-8.3488
者亦	-8.34946
也云	-8.34988
下文	-8.35049
衛	-8.35051
言其	-8.35135
未有	-8.35198
畏	-8.35203
薄	-8.35258
最	-8.35738
斷	-8.35838
兵	-8.36355
里	-8.36407
以此	-8.36545
道之	-8.36604
使之	-8.36665
湯	-8.36988
舍	-8.37366
宗	-8.37431
堯	-8.3745
来	-8.37471
不仁	-8.3761
顯	-8.37718
敎	-8.37808
武	-8.37873
土	-8.37909
卑	-8.38117
白	-8.384
句	-8.38612
晉	-8.38732
出於	-8.38858
計	-8.39213
曽子	-8.39326
勉	-8.39538
退	-8.39887
秦	-8.39919
擇	-8.40072
載	-8.40384
離	-8.4041
張	-8.40497
賦	-8.40755
一句	-8.41055
勞	-8.41235
答	-8.41313
量	-8.41611
端	-8.41838
感	-8.42016
哀	-8.42034
費	-8.42136
季氏	-8.42198
熟	-8.42369
後世	-8.42593
之學	-8.42595
怒	-8.4264
於人	-8.42903
共	-8.42926
禹	-8.43053
繼	-8.43272
此言	-8.43277
味	-8.43326
上下	-8.43361
戰	-8.43367
高	-8.43393
况	-8.43443
鬼神	-8.4345
新安陳氏曰	-8.43669
喻	-8.43782
讓	-8.43799
然則	-8.44035
一事	-8.4425
覺	-8.44292
衰	-8.44425
卿	-8.44636
巳	-8.44833
訓	-8.44894
武王	-8.451
條	-8.45201
不然	-8.45566
徃	-8.4561
殷	-8.45713
承	-8.45765
玉	-8.45978
不待	-8.46115
助	-8.46174
道理	-8.46257
隨	-8.46312
逆	-8.46333
新	-8.46346
違	-8.46484
不過	-8.46646
暴	-8.46756
女	-8.46789
其言	-8.46912
其事	-8.46959
路	-8.47031
賢者	-8.47148
之實	-8.4727
慮	-8.47304
財	-8.4755
之地	-8.47631
也夫	-8.47806
矣然	-8.47972
望	-8.48184
告子	-8.48573
箇	-8.48625
嚴	-8.48873
曾子	-8.49091
弗	-8.49243
罪	-8.49245
可也	-8.49306
坐	-8.4937
積	-8.49744
其實	-8.50039
曲	-8.50115
耕	-8.50713
為仁	-8.50733
孰	-8.50801
顧	-8.50834
之禮	-8.51028
遺	-8.51101
不見	-8.51276
不如	-8.51326
牛	-8.51371
而不知	-8.51453
忘	-8.51939
萬物	-8.51973
手	-8.52137
息	-8.52197
三年	-8.52222
亦是	-8.52252
差	-8.52483
俗	-8.52651
管仲	-8.52738
清	-8.52818
亦不	-8.5306
未能	-8.53092
急	-8.5347
脩	-8.53671
門人	-8.53729
審	-8.5386
月	-8.53937
危	-8.5398
誤	-8.54071
總	-8.54087
否	-8.54405
得之	-8.545
卷	-8.54972
人也	-8.5508
者皆	-8.55317
北	-8.55362
孫	-8.55383
忠信	-8.55582
不足以	-8.5559
道也	-8.5579
也言	-8.55805
㣲	-8.5592
自有	-8.56248
周禮	-8.5635
恥	-8.56398
其意	-8.56477
博	-8.56504
剛	-8.56541
慎	-8.56871
則有	-8.57046
史	-8.57105
雖有	-8.57179
格	-8.57735
金	-8.57744
之際	-8.5795
梁	-8.58172
而不能	-8.58486
孔	-8.58528
即是	-8.58797
惑	-8.58991
冠	-8.59069
嵗	-8.59103
君子之	-8.59337
之法	-8.59344
将	-8.59367
子夏	-8.59505
濟	-8.59566
所以為	-8.59607
上文	-8.59613
仲	-8.59789
仲尼	-8.6004
其身	-8.6014
悦	-8.60213
持	-8.60313
為善	-8.60341
邦	-8.60363
得其	-8.60588
民之	-8.60602
而有	-8.60653
率	-8.60698
之所以	-8.60888
使人	-8.6091
賊	-8.61317
古人	-8.6147
侯	-8.61618
細	-8.61887
也此	-8.61911
之辭	-8.62377
惠	-8.62617
懼	-8.63026
召	-8.63087
儀	-8.63106
千	-8.63503
兄弟	-8.63636
胡氏曰	-8.63646
逹	-8.63822
避	-8.63917
包	-8.64229
假	-8.64401
述	-8.64429
為政	-8.64676
刑	-8.64763
充	-8.64985
遷	-8.64994
不善	-8.6513
鄭	-8.65334
棄	-8.65821
那	-8.65906
強	-8.66001
封	-8.6607
列	-8.66088
則又	-8.66091
姓	-8.66128
藏	-8.66148
參	-8.66171
二者	-8.66182
滅	-8.66277
於是	-8.66325
為人	-8.66386
通曰	-8.66391
夫子之	-8.66418
君臣	-8.66502
此是	-8.66645
井	-8.66936
移	-8.66969
散	-8.67042
歎	-8.67074
未必	-8.67131
救	-8.67403
蔽	-8.67441
純	-8.67448
夷	-8.67633
州	-8.67724
勢	-8.68086
子張	-8.68207
好惡	-8.68353
乘	-8.68876
専	-8.68917
補	-8.68962
與之	-8.69134
則不	-8.69183
宫	-8.69221
略	-8.69292
之外	-8.69405
兄	-8.69423
期	-8.69528
以爲	-8.69596
歟	-8.6962
頭	-8.69754
賤	-8.69815
貫	-8.69947
義理	-8.69993
孝弟	-8.70052
省	-8.70302
臨	-8.70513
奪	-8.70535
故夫子	-8.70558
偽	-8.70622
乎曰	-8.70729
代	-8.70887
職	-8.70902
拜	-8.70917
虞	-8.70965
鄉	-8.71014
良	-8.71064
統	-8.71301
忽	-8.71323
可知	-8.71393
升	-8.7143
至誠	-8.71444
左	-8.71624
面	-8.71691
許	-8.71979
昭	-8.71997
見於	-8.72127
遇	-8.72324
不當	-8.72511
伊尹	-8.72609
叔	-8.7262
求之	-8.72622
其所以	-8.72822
春	-8.7301
何也曰	-8.73256
乗	-8.73312
孔子曰	-8.735
妄	-8.73515
降	-8.73857
天命	-8.73985
又有	-8.73991
寡	-8.74074
證	-8.74084
澤	-8.74183
城	-8.74244
祖	-8.74251
抑	-8.74424
布	-8.74429
燕	-8.74718
石	-8.74724
語録曰	-8.74996
乆	-8.75481
富貴	-8.7549
庸	-8.75542
歌	-8.75575
申	-8.7572
纔	-8.75819
史記	-8.7597
征	-8.76
敢	-8.76235
勸	-8.76249
人君	-8.7631
案	-8.76416
及其	-8.76529
眀	-8.76608
賜	-8.7665
接	-8.76675
忠恕	-8.76703
而能	-8.76827
用之	-8.76854
享	-8.769
忍	-8.76988
徹	-8.77025
者必	-8.77055
顔淵	-8.77077
寛	-8.77353
一日	-8.77498
有餘	-8.77594
不在	-8.77646
該	-8.77685
肉	-8.7778
保	-8.78066
荅	-8.78129
再	-8.78138
古之	-8.78162
爭	-8.78167
殊	-8.78205
淺	-8.78302
母	-8.78319
氣象	-8.78348
舎	-8.7836
至此	-8.78405
不忍	-8.78424
循	-8.78655
之本	-8.78662
速	-8.7877
各有	-8.78787
厲	-8.78798
矣故	-8.78811
羣	-8.79168
黨	-8.79356
誠意	-8.79462
則亦	-8.79578
朋友	-8.79745
此意	-8.79943
一節	-8.80207
妙	-8.80228
皆有	-8.80419
闕	-8.80519
先生	-8.80774
置	-8.80869
介	-8.80894
妻	-8.8107
議	-8.81371
諫	-8.81453
決	-8.81508
不言	-8.81516
祀	-8.81615
豈不	-8.81629
衞	-8.81687
造	-8.81758
貧	-8.82072
飾	-8.82105
也蓋	-8.82114
火	-8.8234
如是	-8.82573
業	-8.82726
貌	-8.82767
授	-8.8284
須是	-8.82977
亦非	-8.82996
語録	-8.83047
縣	-8.8313
如此則	-8.832
學問	-8.83356
爵	-8.83468
畧	-8.83486
除	-8.83499
之分	-8.83583
其理	-8.83617
教人	-8.83662
𤼵	-8.8369
魏	-8.83836
上聲	-8.83863
願	-8.83919
慶源輔氏曰	-8.8399
之於	-8.84274
百姓	-8.84524
丘	-8.84666
念	-8.84688
堂	-8.84702
不行	-8.84751
一人	-8.84883
飲	-8.84967
而又	-8.85002
借	-8.85383
敗	-8.85488
均	-8.85535
䘮	-8.85536
雜	-8.8559
其本	-8.8564
被	-8.85695
愚謂	-8.85761
連	-8.85787
驕	-8.85895
孟	-8.86129
衆人	-8.86359
還	-8.86438
余	-8.86467
所當	-8.86489
奉	-8.86501
每	-8.86589
覆	-8.86672
齊王	-8.86897
術	-8.87202
事君	-8.8732
誰	-8.87523
失之	-8.87542
修身	-8.87656
尺	-8.87708
二句	-8.87812
者非	-8.87857
攻	-8.87934
則無	-8.88152
仁也	-8.8831
者言	-8.88411
倫	-8.88474
趨	-8.88553
錯	-8.88698
故云	-8.88735
賓	-8.88747
君之	-8.88785
屈	-8.88809
性之	-8.88817
欲其	-8.88926
楊氏	-8.88935
無以	-8.88996
隂	-8.89282
市	-8.89305
遠	-8.89356
半	-8.89363
何如	-8.89794
不容	-8.89923
回	-8.89975
表	-8.90035
先王	-8.90181
紂	-8.90344
所言	-8.90364
固有	-8.90497
祿	-8.90579
或曰	-8.90607
人之所	-8.90707
畢	-8.90827
此理	-8.90993
肆	-8.91087
也今	-8.91184
陳氏曰	-8.91336
威	-8.91406
困	-8.91542
氏曰	-8.91631
靈	-8.91783
則必	-8.91831
誅	-8.91872
此則	-8.92073
附	-8.9211
知者	-8.92241
是非	-8.92266
終身	-8.9231
乎此	-8.92414
魚	-8.92441
竊	-8.92622
較	-8.92665
儒	-8.92751
報	-8.92752
拘	-8.92863
於天下	-8.9291
私意	-8.92966
越	-8.93024
自是	-8.93095
恩	-8.93188
不欲	-8.93361
役	-8.93401
把	-8.93508
悟	-8.93519
與人	-8.93694
懐	-8.94006
聚	-8.94026
倍	-8.94293
三者	-8.94351
之士	-8.94473
河	-8.94506
空	-8.94544
無窮	-8.946
海	-8.94746
其君	-8.948
根	-8.95071
不明	-8.95122
工	-8.95123
見之	-8.95171
種	-8.95294
結	-8.95365
何也	-8.95368
唐	-8.95573
氣質	-8.95638
大人	-8.95704
掌	-8.95797
篤	-8.95891
觀之	-8.95984
辯	-8.96126
免	-8.96149
曉	-8.9619
不復	-8.9621
淫	-8.96397
不正	-8.96403
畫	-8.96407
慕	-8.96649
之事也	-8.97032
犯	-8.97045
材	-8.97059
學之	-8.97133
苦	-8.9723
堅	-8.97351
古者	-8.97362
汝	-8.97401
自家	-8.97454
酒	-8.97582
四者	-8.97612
之大	-8.97631
遜	-8.97666
野	-8.97788
子之	-8.97801
内外	-8.97831
儉	-8.97876
葬	-8.97981
轉	-8.98026
發明	-8.98055
禽獸	-8.98296
然而	-8.98396
破	-8.98427
在我	-8.98428
季	-8.98715
之名	-8.98776
恱	-8.98807
昏	-8.98855
典	-8.99022
漸	-8.99224
歴	-8.99251
況	-8.99397
禍	-8.99576
取之	-8.99626
集	-8.99698
善人	-8.99739
豈有	-8.99753
輔	-8.99761
第	-8.99776
他人	-8.99794
寧	-8.99951
正是	-9.00043
而為	-9.00077
閒	-9.00099
言之則	-9.00267
莫不	-9.00506
之道也	-9.00563
禘	-9.00598
不肯	-9.00774
好學	-9.00818
光	-9.00852
其中	-9.01084
焉則	-9.01185
留	-9.01207
事親	-9.01238
操	-9.01272
之徒	-9.01374
配	-9.01408
效	-9.01555
告之	-9.0167
華	-9.01685
善惡	-9.01805
左傳	-9.01815
聘	-9.01848
二子	-9.01889
虛	-9.01925
皆以	-9.02048
宰	-9.02081
不用	-9.02136
玩	-9.02169
言也	-9.02223
無所不	-9.02315
郊	-9.02372
干	-9.02417
大抵	-9.02839
天道	-9.02943
二十	-9.02961
用力	-9.03018
一章	-9.03182
其道	-9.03288
於我	-9.03288
藝	-9.03301
巧	-9.03331
者則	-9.03359
非謂	-9.03371
輕重	-9.03405
也曰	-9.03541
静	-9.03553
有此	-9.03827
以禮	-9.03963
迹	-9.04118
舜之	-9.04145
茍	-9.04229
御	-9.04257
父子	-9.04313
建	-9.04344
逐	-9.04489
而非	-9.04513
昔	-9.04568
温	-9.04607
而行	-9.0466
討	-9.04792
社	-9.05014
故以	-9.05015
運	-9.0504
貪	-9.0521
之至	-9.05275
淵	-9.05326
背	-9.05348
於心	-9.05354
履	-9.05366
格物	-9.05431
於己	-9.05441
靜	-9.05441
主於	-9.05585
孔子之	-9.05598
驗	-9.05605
飲食	-9.05625
會	-9.05632
奚	-9.05641
矜	-9.05662
在其中	-9.05681
新民	-9.05776
損	-9.05929
謙	-9.05953
有道	-9.06223
説得	-9.06234
吕	-9.0631
姑	-9.06373
夫人	-9.06413
曾	-9.06456
草	-9.06648
窮理	-9.06753
殆	-9.07005
欺	-9.07065
言語	-9.07284
全體	-9.07348
莊	-9.07359
冕	-9.07363
其志	-9.07364
五十	-9.07398
縱	-9.07527
平聲	-9.07693
譽	-9.07904
亦可	-9.07932
失其	-9.08057
并	-9.08187
泰	-9.08249
註云	-9.08318
不與	-9.08345
也盖	-9.08374
力行	-9.08378
如之何	-9.0843
因其	-9.08453
人所	-9.08481
紀	-9.08602
翼註曰	-9.08655
在於	-9.08698
鄙	-9.08841
毁	-9.08916
亦無	-9.08982
則為	-9.09001
今日	-9.09027
秋	-9.09075
黄	-9.09258
先生曰	-9.09297
階	-9.09367
追	-9.09826
源	-9.09933
教之	-9.09945
矣此	-9.09962
農	-9.10102
之失	-9.1011
致知	-9.10193
賔	-9.10342
帶	-9.10391
使民	-9.10504
本末	-9.1053
决	-9.10606
人欲	-9.10641
胡	-9.10692
庶	-9.108
李	-9.10811
累	-9.10826
孟子言	-9.10992
於外	-9.10998
觀其	-9.11147
照	-9.11237
受之	-9.11269
以明	-9.11283
曽	-9.11301
若是	-9.11393
伯夷	-9.116
無非	-9.11695
平日	-9.11709
不失	-9.11878
之性	-9.11995
資	-9.12023
可知矣	-9.12044
游	-9.12258
人倫	-9.123
則知	-9.12395
龍	-9.12466
塞	-9.12626
今之	-9.12874
幸	-9.12918
尹氏曰	-9.12995
天之	-9.13058
之志	-9.13077
眞	-9.13101
人皆	-9.13189
滿	-9.13199
理之	-9.13544
孟子之	-9.13704
一貫	-9.13732
下同	-9.13773
而自	-9.13786
密	-9.13867
粗	-9.13876
稍	-9.13893
形容	-9.13906
其為	-9.14014
以求	-9.14095
則非	-9.14163
不可不	-9.142
禮義	-9.14302
圖	-9.14365
人情	-9.14407
陵	-9.14432
親親	-9.14475
分明	-9.1448
懷	-9.14539
負	-9.14682
敏	-9.14738
號	-9.14821
僭	-9.14867
潔	-9.14899
三十	-9.14926
物之	-9.14964
相似	-9.1501
夫音扶	-9.15121
七十	-9.15424
冬	-9.15492
衡	-9.15613
徐	-9.1564
之論	-9.15749
凶	-9.1585
一言	-9.15873
文公	-9.1599
以道	-9.16018
示	-9.16043
未嘗不	-9.16081
之謂也	-9.16101
一時	-9.16298
盈	-9.16305
非禮	-9.16522
徳之	-9.16563
無道	-9.1674
迎	-9.16803
先後	-9.16827
收	-9.16831
音義	-9.16856
司	-9.16962
從之	-9.17113
毋	-9.17161
關	-9.17218
欽定四庫全書	-9.17318
一般	-9.17424
世之	-9.17435
䟽	-9.17473
;	-9.17509
角	-9.17648
滕	-9.17654
朱	-9.17705
辱	-9.17708
脩身	-9.17751
襲	-9.17846
獻	-9.18015
粟	-9.18296
遊	-9.18484
本文	-9.18556
王者	-9.18629
故也	-9.1872
尋	-9.18889
者是	-9.18901
虎	-9.18924
冉有	-9.18939
四書	-9.18983
否曰	-9.18989
安得	-9.18996
不至	-9.19188
國之	-9.19213
也故曰	-9.19228
防	-9.19304
於民	-9.19312
未發	-9.19332
萌	-9.19335
遽	-9.19345
狂	-9.19448
仲弓	-9.19484
倚	-9.19602
在人	-9.19616
君子之道	-9.19718
畝	-9.19722
慈	-9.19866
謝氏	-9.19941
蔡	-9.2
皮	-9.20225
者又	-9.20346
席	-9.204
也孟子曰	-9.20411
悅	-9.20515
如何曰	-9.20702
蒙引	-9.20705
四十	-9.20757
存心	-9.20758
左右	-9.20902
禁	-9.20917
意思	-9.21692
者謂	-9.21728
義也	-9.21753
后	-9.21807
異端	-9.21833
以見	-9.21842
獲	-9.21844
悔	-9.21961
事之	-9.22191
以至	-9.2222
丁	-9.22294
踐	-9.22489
推之	-9.22496
之妙	-9.22656
取其	-9.22659
桓公	-9.22688
云云	-9.22693
詐	-9.22742
惟其	-9.22758
甲	-9.22831
冝	-9.22953
柔	-9.23066
短	-9.23148
裘	-9.23189
弱	-9.23212
王道	-9.23269
之徳	-9.23289
者有	-9.23388
不相	-9.2342
者蓋	-9.23423
揚	-9.23564
性善	-9.23651
闗	-9.23658
故孔子	-9.23682
重在	-9.2374
如字	-9.23758
一箇	-9.2379
鮮	-9.24004
私欲	-9.24053
此節	-9.24094
其親	-9.24168
至善	-9.24195
心之	-9.24198
吉	-9.24323
穀	-9.24418
試	-9.24496
例	-9.24627
謬	-9.24649
毛	-9.24663
此説	-9.24705
有司	-9.24733
聴	-9.24822
仁義禮智	-9.25043
對曰	-9.25068
為主	-9.25192
境	-9.25205
畜	-9.25235
㸃	-9.25278
之體	-9.25291
元按	-9.25407
者其	-9.25435
痛	-9.25522
乾	-9.2556
其餘	-9.25615
啓	-9.25756
饒氏曰	-9.25794
曰吾	-9.25913
范氏	-9.25967
敵	-9.25987
尹氏	-9.25996
聞之	-9.26042
必先	-9.26131
體用	-9.26348
乃是	-9.26441
恁地	-9.26467
孟子之言	-9.26485
其義	-9.2657
其説	-9.26595
機	-9.26601
鼓	-9.26772
詩云	-9.26799
只在	-9.26977
使其	-9.27053
又以	-9.27198
己之	-9.27225
今人	-9.27265
舞	-9.27373
管	-9.27397
飯	-9.27617
之私	-9.27705
者乎	-9.2773
之問	-9.27798
所行	-9.27812
在此	-9.27846
泛	-9.27873
此所謂	-9.27908
故其	-9.27994
然其	-9.28
客	-9.28141
不息	-9.28185
吳	-9.28345
崇	-9.28349
慢	-9.28446
究	-9.28546
不成	-9.28604
不若	-9.28605
惡之	-9.28625
納	-9.28645
笑	-9.28658
羊	-9.28705
上章	-9.28889
者以其	-9.28898
不盡	-9.2893
是就	-9.29061
猶有	-9.29101
毎	-9.29115
哀公	-9.29222
故孟子	-9.29297
譬	-9.29357
則民	-9.29369
是亦	-9.29421
幽	-9.29425
四方	-9.29436
也如	-9.29451
分别	-9.29461
桀	-9.29547
此亦	-9.29553
日用	-9.29726
不合	-9.29772
厭	-9.29918
側	-9.29954
所為	-9.29958
詞	-9.30067
采	-9.30101
㡬	-9.30102
范	-9.30138
以上	-9.30149
之制	-9.30175
一物	-9.30175
鳥	-9.30331
譏	-9.30365
發見	-9.30415
勤	-9.30508
塗	-9.30553
僅	-9.30694
育	-9.30723
赤	-9.30765
軍	-9.30774
而不可	-9.30827
羽	-9.30833
逸	-9.30841
與平聲	-9.30862
也孟子	-9.30868
程	-9.3087
愛人	-9.30947
仁之	-9.31065
大小	-9.31294
文王之	-9.31379
禮也	-9.3138
者此	-9.31388
繫	-9.31486
也疏	-9.31645
横	-9.31771
皇	-9.31788
之行	-9.3197
賈	-9.32155
也又	-9.3216
止於	-9.32191
不義	-9.32229
也君子	-9.32294
之過	-9.32339
樹	-9.32398
道者	-9.32422
帥	-9.32445
反覆	-9.3251
方是	-9.32551
以自	-9.32581
則曰	-9.32586
宗廟	-9.32624
為己	-9.32632
聖人之道	-9.32713
無可	-9.33086
貧賤	-9.3314
託	-9.33167
悖	-9.33213
景	-9.3323
顔	-9.33344
天地之	-9.33381
學而	-9.33386
注孔曰	-9.3352
宰我	-9.33561
而言之	-9.33698
黙	-9.33734
國家	-9.33844
鄒	-9.33919
雙峯饒氏曰	-9.33938
索	-9.34115
罔	-9.3417
為一	-9.34172
至矣	-9.34176
雖不	-9.34194
事物	-9.34234
絜矩	-9.34268
十二	-9.34283
自得	-9.34289
之意也	-9.34305
三代	-9.34324
未至	-9.34379
之語	-9.34383
未見	-9.34432
利害	-9.345
也又曰	-9.34508
寒	-9.34551
不易	-9.34562
便有	-9.34609
所欲	-9.3471
掩	-9.34776
者矣	-9.34799
蒙	-9.35056
此又	-9.35108
題	-9.35109
又何	-9.35155
祭祀	-9.35222
仍	-9.35325
註孔安國曰	-9.35361
政事	-9.35372
四字	-9.35389
争	-9.35553
古今	-9.35617
若不	-9.35669
𢎞	-9.35688
仰	-9.35723
枉	-9.35803
張子	-9.35804
丗	-9.35884
所能	-9.3592
三子	-9.35947
完	-9.35969
誦	-9.36025
吝	-9.3608
仁則	-9.36112
人者	-9.36195
楊	-9.36337
一也	-9.36436
則雖	-9.36479
嘆	-9.36512
尊賢	-9.36747
明徳	-9.36773
怪	-9.36792
惜	-9.36926
攝	-9.37107
禦	-9.37151
不食	-9.37172
楊氏曰	-9.37253
欲以	-9.37439
活	-9.37522
矣夫	-9.37542
甘	-9.37553
泰伯	-9.37633
天子之	-9.37639
大全	-9.3764
去之	-9.37687
人物	-9.37691
没	-9.37746
自欺	-9.37767
尹曰	-9.3795
子産	-9.38067
旁	-9.38131
刻	-9.38323
想	-9.38395
其徳	-9.38405
這箇	-9.3847
之故	-9.38476
雲峯胡氏曰	-9.38547
三月	-9.38556
故謂之	-9.38615
輿	-9.38708
子孫	-9.38716
耳目	-9.38797
㸔	-9.38848
不信	-9.38905
宻	-9.38909
未知	-9.38912
極其	-9.38957
沒	-9.39021
首章	-9.39049
警	-9.39137
佞	-9.39187
君子小人	-9.39256
夫子之言	-9.39308
不忘	-9.39352
認	-9.39371
裏	-9.39504
云云者	-9.39658
書曰	-9.3968
齋	-9.39705
豈可	-9.39749
先儒	-9.39812
榖	-9.39899
福	-9.39971
公孫丑	-9.40605
齒	-9.40619
必以	-9.40703
揖	-9.40817
也然則	-9.40827
盡心	-9.40878
言行	-9.41008
之極	-9.41018
戚	-9.41047
為本	-9.41208
貨	-9.41245
之屬	-9.41263
㫖	-9.41319
不從	-9.41336
齊人	-9.41418
革	-9.4142
隂陽	-9.41478
則可	-9.41601
在外	-9.41608
不免	-9.41609
登	-9.41633
所見	-9.41634
則當	-9.41643
旅	-9.41664
竭	-9.4179
又云	-9.41807
於天	-9.41839
進退	-9.4184
賢人	-9.41942
行事	-9.41989
律	-9.42085
?」	-9.42159
却是	-9.4228
上説	-9.42441
縁	-9.4246
出入	-9.42558
禮記	-9.42664
尸	-9.42688
有過	-9.42774
渾然	-9.4279
於中	-9.42874
折	-9.43123
援	-9.43148
垂	-9.43151
也子曰	-9.43205
行道	-9.43217
其人	-9.43265
前後	-9.43277
激	-9.4332
之㫖	-9.43333
融	-9.43514
社稷	-9.43579
言者	-9.43593
不止	-9.43634
聖人之心	-9.4368
着	-9.43735
聖門	-9.43753
徇	-9.43851
而得	-9.44142
何為	-9.44206
裳	-9.44213
生於	-9.44256
語錄曰	-9.44271
有天下	-9.44347
委	-9.44361
豫	-9.44434
歸於	-9.44517
事也	-9.44612
歲	-9.44628
某	-9.4482
吕氏	-9.4493
百里	-9.4501
物欲	-9.45028
亷	-9.45073
故不	-9.45133
許多	-9.45156
係	-9.45187
萬章	-9.45271
寢	-9.45277
落	-9.45294
滯	-9.4531
日月	-9.45401
夫婦	-9.4544
之樂	-9.4551
宣王	-9.45572
性也	-9.45576
又言	-9.45605
迫	-9.45719
彊	-9.45991
之可	-9.46022
仁人	-9.46032
者乃	-9.46168
甚矣	-9.46186
諒	-9.46205
太王	-9.46275
也孔子	-9.4633
丑	-9.46433
然亦	-9.46455
。」	-9.46457
南軒張氏曰	-9.46459
其可	-9.46478
流行	-9.46487
不動	-9.46553
胡氏	-9.46563
休	-9.46586
此所以	-9.46669
理㑹	-9.46798
此皆	-9.46811
而實	-9.46814
而言也	-9.4687
莫非	-9.46909
四海	-9.4692
固是	-9.46971
悉	-9.47049
范氏曰	-9.4718
求其	-9.47225
而反	-9.47335
穆	-9.47362
未可	-9.47363
而民	-9.47409
諌	-9.47479
振	-9.4748
呼	-9.47481
地位	-9.4754
矯	-9.47655
之美	-9.47735
集曰	-9.47774
亦曰	-9.47861
楊曰	-9.47939
輒	-9.48163
昧	-9.48185
不敬	-9.48263
湯武	-9.48286
人有	-9.48384
克己	-9.48389
考之	-9.48509
入於	-9.48668
次第	-9.48696
畔	-9.48846
在内	-9.48861
之國	-9.48892
大本	-9.49109
草木	-9.4913
何哉	-9.49207
羿	-9.49273
一理	-9.49284
然後可以	-9.49285
歳	-9.49298
韓	-9.49306
消	-9.49307
萬世	-9.49371
徴	-9.49453
屏	-9.49456
之説曰	-9.49489
恃	-9.49495
樊遲	-9.49507
贊	-9.49525
舒	-9.49554
泥	-9.49756
羞	-9.49846
霸	-9.49879
之内	-9.49913
豐	-9.49991
卿大夫	-9.50066
子游	-9.50184
之善	-9.50191
仲子	-9.50301
可使	-9.50313
不去	-9.50319
此語	-9.50433
故能	-9.50576
第二	-9.50634
之序	-9.50707
若夫	-9.5073
宿	-9.50777
千里	-9.50837
不得已	-9.50865
人事	-9.51015
之要	-9.51076
段	-9.51102
析	-9.51122
孤	-9.51125
法度	-9.51143
豈非	-9.51273
恒	-9.51497
不動心	-9.51498
府	-9.51509
其後	-9.51513
夜	-9.51524
缺	-9.51574
前章	-9.51575
限	-9.51576
小學	-9.5168
以至於	-9.51805
文章	-9.51811
大國	-9.51815
亦不可	-9.5187
有二	-9.51878
雍	-9.5191
竟	-9.51994
得失	-9.51995
其位	-9.52003
遲	-9.52009
此句	-9.52014
品	-9.52019
之臣	-9.52022
為君	-9.52036
貞	-9.52083
養之	-9.52169
司馬	-9.52206
荒	-9.52259
契	-9.52264
二章	-9.52312
是為	-9.52391
若此	-9.5249
藉	-9.52499
侵	-9.52571
未得	-9.5265
不違	-9.52656
鬼	-9.52674
故君子	-9.5276
測	-9.52762
此等	-9.52844
盡其	-9.52873
川	-9.52925
於其	-9.52931
江	-9.52944
所得	-9.52954
實理	-9.52981
耻	-9.5299
都是	-9.53047
偶	-9.53095
陶	-9.53212
户	-9.53219
盜	-9.53229
曰此	-9.53238
中和	-9.5326
一身	-9.53262
幼	-9.534
溺	-9.53465
楊墨	-9.53469
互	-9.5349
繹	-9.53706
1	-9.53803
撰	-9.53911
禱	-9.5394
趙	-9.53996
之子	-9.54026
個	-9.54032
者盖	-9.54063
之情	-9.54229
恭敬	-9.54276
校	-9.54276
厯	-9.54428
語意	-9.54448
非有	-9.54492
為學	-9.54517
冉求	-9.54539
之詩	-9.54541
其民	-9.54578
屋	-9.54632
飽	-9.54672
守之	-9.54755
殺之	-9.54768
近於	-9.54834
星	-9.5505
有三	-9.55094
送	-9.55142
凡人	-9.55202
踰	-9.55281
其間	-9.5538
公子	-9.55482
成徳	-9.55489
周之	-9.55508
則能	-9.55588
謂其	-9.55603
之病	-9.5564
讀書	-9.55667
之異	-9.55678
傳之	-9.55765
或有	-9.55886
尹	-9.55907
斂	-9.56099
得以	-9.56194
吏	-9.56231
子弟	-9.56323
不可以不	-9.56336
雅	-9.56352
誘	-9.56355
逃	-9.56391
已矣	-9.56474
優	-9.56479
無一	-9.56496
弔	-9.56598
做得	-9.56609
闢	-9.56678
善而	-9.56695
殺人	-9.56801
五者	-9.56814
格物致知	-9.56973
招	-9.57115
注云	-9.57154
有不	-9.57184
奔	-9.57204
要之	-9.57296
相反	-9.57308
而欲	-9.57381
之君	-9.57438
世子	-9.57527
之前	-9.57557
惰	-9.57619
之所為	-9.57695
無異	-9.57773
康	-9.57775
譬如	-9.57899
其能	-9.57915
之氣	-9.57916
王之	-9.57951
又問	-9.5802
混	-9.5804
飬	-9.58047
緩	-9.58077
存疑	-9.58108
節文	-9.58325
廉	-9.58341
為大	-9.5838
責之	-9.58418
集義	-9.58443
與其	-9.5848
受命	-9.5854
走	-9.58581
何必	-9.58623
朔	-9.5863
省察	-9.58633
陋	-9.58834
可得而	-9.58965
父兄	-9.58992
不已	-9.59038
則可以	-9.59072
税	-9.59076
怠	-9.59082
樂之	-9.5916
也但	-9.59194
以天下	-9.59205
奥	-9.59249
聖人之言	-9.59308
三句	-9.59341
知也	-9.59345
一條	-9.5939
始終	-9.59454
其性	-9.59506
其次	-9.59577
鄉黨	-9.59672
博學	-9.59677
伸	-9.59767
致其	-9.5977
拒	-9.59845
續	-9.59971
宣	-9.60025
治國	-9.60061
之文	-9.60084
俟	-9.60086
不安	-9.60089
也注	-9.6012
不但	-9.60164
减	-9.60209
黄氏曰	-9.60312
所惡	-9.60484
吾之	-9.60531
此章言	-9.60535
含	-9.60584
行也	-9.60753
不聞	-9.6081
可以為	-9.61028
之下	-9.61104
夢	-9.6111
稅	-9.61121
無有	-9.6113
貢	-9.61146
人道	-9.61156
則不可	-9.61264
慎獨	-9.61287
希	-9.61316
而可	-9.61498
鄉原	-9.61523
戎	-9.61585
飢	-9.61613
露	-9.61617
煩	-9.6162
莊子	-9.61653
庶幾	-9.61684
其功	-9.61725
三字	-9.61768
榮	-9.61838
知言	-9.61865
也惟	-9.61866
亦何	-9.61869
正義曰此章言	-9.61879
亦可以	-9.61948
定公	-9.6198
治人	-9.62009
廣大	-9.62083
知覺	-9.62085
而行之	-9.62111
賛	-9.62134
三百	-9.62145
自謂	-9.62255
恐其	-9.62326
嗚呼	-9.62355
昬	-9.62358
侍	-9.62377
性命	-9.62465
時中	-9.62481
血氣	-9.62525
變化	-9.62586
玄	-9.626
汙	-9.62768
不求	-9.62788
十五	-9.62856
蹈	-9.62871
泉	-9.62878
誨	-9.62912
亦然	-9.62954
於道	-9.63011
邊	-9.63041
不厭	-9.63072
蕩	-9.63164
謹獨	-9.63173
雖欲	-9.63185
於上	-9.63224
孔安國曰	-9.63271
恵	-9.63401
牧	-9.63421
不可得而	-9.63426
殘	-9.63458
稱之	-9.63513
雙峰	-9.63582
烈	-9.63685
徵	-9.6393
預	-9.63936
之篇	-9.63995
治天下	-9.64044
明白	-9.64055
禀	-9.64087
圭	-9.64105
之所在	-9.6416
當然	-9.64181
嘉	-9.64185
忌	-9.64188
暗	-9.64221
饑	-9.64234
不勝	-9.64391
中國	-9.64505
明矣	-9.64534
非是	-9.64583
為先	-9.64715
挾	-9.64745
䖏	-9.6478
未盡	-9.64785
族	-9.648
何所	-9.64826
矢	-9.64885
當以	-9.64922
之盛	-9.64967
牆	-9.64988
先王之	-9.65007
南軒曰	-9.6504
不知其	-9.65128
者故	-9.65187
耳若	-9.65214
奢	-9.65253
伊川	-9.65273
是故	-9.65291
文子	-9.65299
有所不	-9.65359
理也	-9.65366
毅	-9.65444
此處	-9.65452
其辭	-9.65495
不能無	-9.65555
之始	-9.65563
信之	-9.65602
可為	-9.65613
而復	-9.65646
妻子	-9.65751
單	-9.65763
之弊	-9.65784
下章	-9.65785
太子	-9.65809
給	-9.65818
之難	-9.65867
不得不	-9.65905
所知	-9.66031
以致	-9.66033
於齊	-9.6609
貼	-9.66171
過於	-9.66189
呉	-9.66198
日新	-9.66209
三家	-9.6623
濫	-9.66295
以仁	-9.66321
寓	-9.66333
雨	-9.66365
羙	-9.66375
本無	-9.66455
臺	-9.66593
咸	-9.66602
者不	-9.66646
歩	-9.66648
范曰	-9.66801
之位	-9.66909
矣而	-9.66943
不出	-9.66959
害於	-9.6707
異於	-9.67088
其子	-9.67094
林	-9.67101
躬	-9.67191
無事	-9.67231
之效	-9.67251
知天	-9.67316
死生	-9.67341
是説	-9.67428
用功	-9.67441
不受	-9.67447
𤼵明	-9.67508
問曰	-9.67515
淺深	-9.67572
小大	-9.67609
聖賢之	-9.67684
朝廷	-9.67702
體之	-9.67736
為我	-9.67753
叚	-9.67819
渾	-9.67829
禮之	-9.67895
視之	-9.67962
家語	-9.67967
誣	-9.67975
終始	-9.68013
而為之	-9.68139
人能	-9.68163
牲	-9.68182
本心	-9.68242
靣	-9.68269
觸	-9.68272
精粗	-9.68316
而立	-9.68383
不好	-9.68446
驅	-9.68482
土地	-9.6851
快	-9.68522
歸之	-9.68655
名也	-9.68692
髙明	-9.68696
謝	-9.68697
刺	-9.68795
智者	-9.68838
徳行	-9.68931
成物	-9.68951
永	-9.68987
憤	-9.69037
確	-9.69046
娶	-9.6907
式	-9.69084
科	-9.69089
好之	-9.69134
是心	-9.69183
庭	-9.6931
擯	-9.69336
趣	-9.69374
堯舜之道	-9.69376
知所	-9.69483
有為	-9.69578
盟	-9.69604
亦未	-9.69637
存養	-9.6972
稟	-9.69786
隅	-9.69852
大徳	-9.69936
在上	-9.69938
王制	-9.70018
威儀	-9.70019
經文	-9.70066
則不能	-9.70098
四端	-9.70099
烏	-9.70102
成人	-9.70125
夷齊	-9.70239
衍	-9.70253
精神	-9.70353
諡	-9.70365
主人	-9.70424
磨	-9.70434
無他	-9.70442
以及	-9.70477
興起	-9.70526
知人	-9.70653
有箇	-9.70759
達道	-9.70821
有徳	-9.7085
是時	-9.70898
養氣	-9.70903
景公	-9.70919
裁	-9.71133
恐懼	-9.71174
之長	-9.71209
而言則	-9.71356
成功	-9.71357
沈	-9.71406
奏	-9.71523
言則	-9.71529
浮	-9.71544
下學	-9.71544
濁	-9.71566
昌	-9.71577
戒懼	-9.71683
劉	-9.7172
曰君子	-9.71776
不惑	-9.71776
小人之	-9.7179
之才	-9.71891
六十	-9.72008
之仁	-9.72037
即此	-9.72061
好善	-9.72083
故有	-9.72086
截	-9.72089
可見矣	-9.72096
從容	-9.72122
壞	-9.7216
兮	-9.72165
欲使	-9.72205
徑	-9.7221
稷	-9.72286
性情	-9.72297
施於	-9.72341
亦以	-9.72355
旦	-9.72371
以告	-9.72406
圍	-9.72413
矩	-9.72457
人人	-9.72478
云爾	-9.72499
語錄	-9.72756
魯之	-9.72812
知得	-9.7291
行者	-9.72935
治之	-9.72938
措	-9.72976
者固	-9.72977
本於	-9.73006
制度	-9.73031
襄	-9.7305
下句	-9.73089
之政	-9.73114
於仁	-9.73114
也至於	-9.73127
孟子所謂	-9.73175
事理	-9.73215
不孝	-9.7327
媚	-9.73293
嗜	-9.73331
陸	-9.73395
一字	-9.73406
、	-9.73428
能盡	-9.73449
齊宣王	-9.73496
礼	-9.73498
從而	-9.73542
鳴	-9.73551
正心	-9.73638
而發	-9.73644
成王	-9.73729
文義	-9.7379
此乃	-9.73799
步	-9.73805
稽	-9.73818
鐘	-9.73853
僕	-9.73925
行而	-9.73948
之罪	-9.73974
他日	-9.74028
録	-9.74074
戾	-9.74148
提	-9.74258
為臣	-9.74325
皆非	-9.74367
居之	-9.74379
知有	-9.74385
知止	-9.74427
諂	-9.74472
道義	-9.74492
至于	-9.74607
大道	-9.74644
不識	-9.7467
諱	-9.74751
顔子之	-9.74758
墨	-9.74763
亟	-9.7477
以成	-9.74791
一段	-9.7482
有一	-9.74855
兩端	-9.74859
監	-9.74981
邇	-9.75036
瞽瞍	-9.75064
猶言	-9.75198
之甚	-9.75283
岐	-9.75285
我之	-9.75322
閑	-9.75335
隆	-9.75345
不自	-9.75397
寳	-9.75403
讀者	-9.75409
於物	-9.75427
四句	-9.75623
従	-9.75653
厥	-9.75667
之末	-9.7568
二節	-9.75805
攷	-9.75933
大臣	-9.75936
牽	-9.75963
去聲下同	-9.76014
於孔子	-9.76109
一篇	-9.76216
壊	-9.76223
苗	-9.76266
之門	-9.76293
終日	-9.7638
此說	-9.76382
公田	-9.76441
庶人	-9.76497
之方	-9.76497
葛	-9.76533
編	-9.76539
十分	-9.76567
無過不及	-9.76601
看來	-9.76678
之貌	-9.76748
且如	-9.76772
中間	-9.76805
樂正子	-9.76847
之不同	-9.76977
哭	-9.77081
雲	-9.77093
嫌	-9.77125
崩	-9.77129
夷狄	-9.77131
桑	-9.77135
黒	-9.77172
於義	-9.77181
進於	-9.77422
隔	-9.7744
藥	-9.77453
匡	-9.77508
大意	-9.77559
敢問	-9.77586
謝氏曰	-9.77591
不得其	-9.776
引詩	-9.77675
之正	-9.77681
但以	-9.77683
戴	-9.77696
彌	-9.77724
綱	-9.77836
善者	-9.77842
水火	-9.77845
囘	-9.78006
叛	-9.78013
僣	-9.78028
鄉人	-9.78107
訟	-9.78164
周公之	-9.78248
張彦陵曰	-9.78259
即所謂	-9.78303
伏	-9.78306
囿	-9.78317
稱其	-9.78339
之書	-9.78355
之節	-9.78358
此以	-9.78361
云者	-9.78387
可乎	-9.78453
所引	-9.78487
思之	-9.78524
之民	-9.78541
求仁	-9.78582
以義	-9.78598
忿	-9.78617
諸侯之	-9.78648
其說	-9.78656
於理	-9.78678
之至也	-9.78693
則心	-9.78733
而止	-9.78734
文武	-9.7876
疎	-9.7878
於内	-9.78796
談	-9.78912
於世	-9.78927
詩曰	-9.78927
然後能	-9.78955
之使	-9.78976
甞	-9.78978
𫝊	-9.79
貴賤	-9.79099
不思	-9.79169
佐	-9.79211
以正	-9.79221
傅	-9.79262
涵養	-9.79265
事而	-9.79268
者即	-9.79277
道而	-9.7948
寄	-9.79506
饒氏	-9.79511
併	-9.79557
家臣	-9.79618
道則	-9.79686
勉强	-9.79695
肅	-9.79699
一體	-9.79759
宮	-9.79804
義之	-9.79808
禪	-9.7987
此事	-9.79884
惟恐	-9.79923
不通	-9.79933
而未	-9.79935
用心	-9.79984
氣之	-9.79999
而不敢	-9.80067
為惡	-9.80102
臯陶	-9.80107
大王	-9.80125
𤣥	-9.80139
常人	-9.80144
維	-9.8016
未有不	-9.80199
陽貨	-9.80203
未免	-9.8024
性者	-9.80268
不暇	-9.80367
德之	-9.80369
於事	-9.80405
盗	-9.80466
鑿	-9.80476
後人	-9.80477
此道	-9.80499
此一章書是	-9.80554
而求	-9.80568
其大	-9.80649
而成	-9.80682
多聞	-9.80752
鄰	-9.80771
符	-9.80827
中之	-9.80851
止於至善	-9.80854
其才	-9.80877
士之	-9.80891
季孫	-9.80938
相去	-9.80966
全在	-9.80978
狹	-9.81033
七年	-9.81074
之教	-9.81088
貎	-9.81092
件	-9.81111
而遂	-9.81128
以後	-9.81182
畆	-9.81196
化之	-9.81208
天命之性	-9.81239
字與	-9.81313
吾身	-9.8139
之初	-9.8139
潛	-9.81404
倒	-9.81407
而死	-9.81425
供	-9.81426
莫能	-9.81437
知禮	-9.81526
陷	-9.8155
而至於	-9.81578
以利	-9.81614
斈	-9.81657
晦	-9.81706
存焉	-9.81724
青	-9.81745
觀之則	-9.81751
正義曰	-9.81809
物而	-9.81837
當作	-9.82008
叙	-9.82056
自知	-9.82082
兩節	-9.82104
之家	-9.82241
在其中矣	-9.82245
愼	-9.8226
不逺	-9.8228
出來	-9.82283
斗	-9.82285
謝曰	-9.82313
鼎	-9.8233
人心之	-9.82336
不誠	-9.8244
亦必	-9.82479
在我者	-9.82627
閉	-9.82667
所聞	-9.8267
班	-9.8268
理而	-9.82737
朝服	-9.82773
若以	-9.82798
?	-9.82829
生知	-9.82839
無疑	-9.82867
以行	-9.8287
貶	-9.82969
傾	-9.82974
存乎	-9.83011
不離	-9.83024
竹	-9.83044
慊	-9.83053
而知	-9.83096
出處	-9.83105
誠者	-9.83132
自反	-9.83178
總是	-9.83183
飛	-9.83281
發於	-9.83327
狀	-9.83409
初無	-9.83454
其有	-9.83603
為國	-9.83606
中有	-9.83703
實有	-9.83711
不能盡	-9.8372
猶未	-9.83776
先王之道	-9.8381
指其	-9.83829
翼	-9.83851
未及	-9.83948
項	-9.84039
韶	-9.8405
無間	-9.84076
之用	-9.84077
者也故	-9.84146
不亦	-9.84194
也葢	-9.84203
小國	-9.84206
在己	-9.84214
者言之	-9.84271
存之	-9.84294
禹稷	-9.84311
是知	-9.84327
國人	-9.8433
自以為	-9.84353
而不及	-9.84397
之不可	-9.84407
其失	-9.84457
天下國家	-9.84459
者如	-9.84481
此篇	-9.84511
須要	-9.84512
馳	-9.8453
之常	-9.84586
諸人	-9.84647
領	-9.84854
躍	-9.84901
秉	-9.84918
四時	-9.84919
豈能	-9.84953
於君	-9.84995
曰我	-9.85065
兩句	-9.85153
貫通	-9.85216
兆	-9.85217
兹	-9.85241
身上	-9.85312
不特	-9.85349
手足	-9.8536
學也	-9.8538
也孔子曰	-9.85417
後來	-9.85424
不改	-9.85451
魯人	-9.85458
誠身	-9.8547
一心	-9.85523
啟	-9.85531
束	-9.8554
為君子	-9.85548
弓	-9.85548
不可為	-9.85579
幣	-9.85607
若有	-9.85644
之上	-9.85654
有序	-9.85737
厚薄	-9.85748
骨	-9.85828
孔氏	-9.85867
而不為	-9.85878
擊	-9.85881
何有	-9.85912
遵	-9.85918
則自	-9.85929
命也	-9.85934
昔者	-9.85938
不顧	-9.86078
一本	-9.86141
只就	-9.86143
蘇	-9.86147
為是	-9.86187
不失其	-9.86188
知行	-9.86198
之物	-9.86204
良心	-9.86211
井田	-9.86221
安於	-9.86222
有異	-9.86292
孔子之言	-9.86342
孔子弟子	-9.86363
字是	-9.8638
此之謂	-9.8646
說得	-9.86468
不學	-9.86519
克己復禮	-9.8654
不怨	-9.86563
秀	-9.86566
或人	-9.86652
一邊	-9.8666
明道	-9.86686
可行	-9.86806
曹	-9.86806
侈	-9.86862
規矩	-9.86872
矣若	-9.86983
屢	-9.87021
中庸之	-9.87152
支	-9.87153
之害	-9.87155
滕文公	-9.87215
梁惠王	-9.87217
牖	-9.8723
小子	-9.87258
餒	-9.87274
而下	-9.87319
臭	-9.87486
之别	-9.87529
涉	-9.87531
巻	-9.8754
染	-9.87578
命之	-9.87601
而去	-9.8763
外物	-9.87742
血	-9.87751
所在	-9.87759
堯之	-9.87767
由也	-9.87873
薦	-9.87905
之深	-9.88019
多少	-9.88071
上達	-9.8808
所云	-9.88145
詔	-9.88202
人不	-9.88213
豆	-9.88221
寜	-9.88271
張子曰	-9.88318
也且	-9.88367
救之	-9.88392
不由	-9.88408
損益	-9.88504
知此	-9.88504
䇿	-9.88544
顔色	-9.88554
禮者	-9.88583
其情	-9.88679
不至於	-9.88745
愛之	-9.88812
舉其	-9.88827
皆同	-9.88946
所宜	-9.88983
子路之	-9.88983
子貢曰	-9.89
其父	-9.89063
何謂	-9.89122
不應	-9.89129
自明	-9.89166
以事	-9.89173
憚	-9.89226
餽	-9.89252
可不	-9.89356
相應	-9.89359
二人	-9.89363
長者	-9.89555
浩然之氣	-9.89563
住	-9.89571
言君子	-9.89604
相近	-9.89649
之閒	-9.89657
知至	-9.89666
生物	-9.89708
告以	-9.89722
也或問	-9.89728
肯	-9.89787
若無	-9.89796
趙氏曰	-9.89807
遭	-9.8987
晝	-9.89894
有功	-9.89895
築	-9.89919
知所以	-9.89945
佩	-9.8996
好勇	-9.90201
檢	-9.90228
括	-9.90248
論其	-9.90252
中節	-9.90277
中道	-9.90456
此與	-9.90457
恤	-9.90504
其行	-9.9053
論之	-9.90578
導	-9.90632
所好	-9.90697
大事	-9.90743
其用	-9.90747
中也	-9.90802
偃	-9.90892
語之	-9.90892
明之	-9.90894
賞	-9.90897
渉	-9.9091
第一	-9.90983
.	-9.91096
桓	-9.91119
事事	-9.91162
在下	-9.91197
堯舜之	-9.91197
阿	-9.91241
削	-9.91267
圓	-9.91283
艾	-9.91299
一則	-9.91311
是乃	-9.91433
丈	-9.9146
此便是	-9.91509
三代之	-9.91518
吳因之曰	-9.91626
壽	-9.91642
所當然	-9.91691
誠之	-9.91705
人知	-9.91775
耳非	-9.91779
童子	-9.91787
見孟子	-9.9184
明明徳	-9.91907
徧	-9.91911
脱	-9.9193
不顯	-9.91933
早	-9.91979
盤	-9.92001
國君	-9.92066
之德	-9.92108
是謂	-9.92127
三章	-9.92148
旋	-9.92207
用人	-9.92231
未聞	-9.92252
此一節	-9.92277
卦	-9.92295
凡事	-9.92321
逺矣	-9.9234
久矣	-9.92346
物也	-9.92376
一家	-9.92382
好色	-9.92462
雖然	-9.92462
不患	-9.92527
弑	-9.92546
過不及	-9.92547
誓	-9.92637
曲禮	-9.92682
太甲	-9.92712
三王	-9.92804
五人	-9.92812
能知	-9.92812
明堂	-9.92838
心之所	-9.92844
造化	-9.92918
乙	-9.92963
齊家	-9.92993
獸	-9.93041
九經	-9.93097
規模	-9.93122
愚案	-9.93131
而生	-9.93135
之患	-9.93201
能行	-9.93235
所由	-9.93295
靡	-9.93341
此其	-9.93375
侯氏	-9.93425
為義	-9.93429
更無	-9.93489
告之以	-9.93509
許行	-9.9356
在位	-9.9359
表裏	-9.93636
辰	-9.9366
既曰	-9.93693
虐	-9.93713
又謂	-9.93719
窺	-9.93721
與夫	-9.93771
若曰	-9.93791
中者	-9.93822
也按	-9.93853
雖是	-9.93949
綱領	-9.93965
於彼	-9.93977
輩	-9.94003
籍	-9.9405
之所以為	-9.94058
毫	-9.94067
胥	-9.94106
聞見	-9.94127
敬也	-9.94188
至徳	-9.94191
道心	-9.94191
有常	-9.94205
趙氏	-9.94281
資質	-9.94306
游氏	-9.94331
養其	-9.94354
筆	-9.9437
必至於	-9.94434
庻	-9.94435
調	-9.94435
畢竟	-9.94457
其國	-9.94462
綏	-9.94484
陳氏	-9.94514
自古	-9.94534
身之	-9.94612
也夫子	-9.9468
鍾	-9.94721
姦	-9.94758
人之道	-9.94783
百畝	-9.94791
咎	-9.94809
不然則	-9.94816
誠也	-9.94888
而無所	-9.94928
故必	-9.94941
小者	-9.94997
為不善	-9.95009
子曰君子	-9.95026
愠	-9.95031
無一毫	-9.95069
亦當	-9.95092
慶	-9.95131
言人	-9.95177
是其	-9.95337
於前	-9.95414
君命	-9.95418
昭公	-9.95433
之賢	-9.9547
不爲	-9.95479
慾	-9.95502
饋	-9.95511
一百	-9.95555
相對	-9.95573
及物	-9.9559
為能	-9.95605
死者	-9.95651
晦菴朱氏	-9.95684
是箇	-9.95705
尚書	-9.95713
不察	-9.95777
心也	-9.95817
斥	-9.95871
成就	-9.95894
則無以	-9.95919
一分	-9.95926
野人	-9.9597
以來	-9.95977
明善	-9.96032
於禮	-9.96071
百官	-9.96081
自為	-9.96083
一説	-9.96147
界	-9.96149
龜	-9.9616
恨	-9.96233
竒	-9.96238
孝子	-9.96276
安能	-9.96284
衣服	-9.96292
必欲	-9.96345
人之心	-9.96412
夀	-9.96548
沮	-9.96601
為天子	-9.96681
其時	-9.96685
觚	-9.96712
此正	-9.96739
其他	-9.96757
求諸	-9.9677
由是	-9.96875
不可得	-9.96888
者所以	-9.96915
有命	-9.96922
與天地	-9.97067
平天下	-9.97093
義理之	-9.97125
可畏	-9.97144
寸	-9.97163
可與	-9.97211
己者	-9.97224
詩書	-9.97233
何嘗	-9.97233
鄭氏	-9.97233
有罪	-9.97242
正也	-9.97308
弊	-9.97313
植	-9.97315
之辨	-9.97317
亦可謂	-9.9732
一旦	-9.97365
不順	-9.9745
由此	-9.97506
齊之	-9.97602
館	-9.97667
之端	-9.9767
盡性	-9.9767
凝	-9.97674
繁	-9.97675
之誠	-9.97692
汚	-9.97699
為去聲	-9.97703
乞	-9.97706
拂	-9.97727
惡惡	-9.9789
矣曰	-9.97981
之本也	-9.98
賴	-9.98056
一以貫之	-9.98096
禽	-9.98141
婦	-9.98232
父母之	-9.9825
此三者	-9.98283
灌	-9.98365
災	-9.98409
為貴	-9.98423
什一	-9.98666
雞	-9.98761
一毫	-9.98767
程子所謂	-9.98791
孔門	-9.98806
基	-9.98874
無私	-9.98937
杜	-9.98943
道體	-9.98945
馮氏曰	-9.98965
皆當	-9.99036
也聖人	-9.9909
峻	-9.9918
正與	-9.99204
君臣父子	-9.9922
乎其	-9.99221
所載	-9.99223
而出	-9.99229
微子	-9.99297
相為	-9.99334
聰明	-9.99366
徳者	-9.9937
而必	-9.9941
惠王	-9.99508
乎哉	-9.9951
一念	-9.99516
減	-9.99519
流於	-9.99553
未易	-9.99555
得罪於	-9.9956
親切	-9.99571
亦不能	-9.99615
諸子	-9.99622
則固	-9.99704
箕子	-9.99745
疑其	-9.99778
義者	-9.99825
添	-9.99861
嗣	-9.99879
為心	-9.99894
溢	-9.99912
五年	-9.99914
推而	-9.99921
廬	-9.99934
距	-9.99954
躬行	-9.99982
其名	-10
條理	-10
愚按	-10.0002
芟一條	-10.0009
非義	-10.0011
先覺	-10.0013
並去聲	-10.0015
神明	-10.0015
環	-10.0018
臧	-10.002
匿	-10.0029
正義曰此章	-10.003
探	-10.0031
者何	-10.0039
不覺	-10.0046
氣禀	-10.0048
之一字	-10.0053
責人	-10.0064
之命	-10.0065
春秋傳	-10.0066
絲	-10.0067
其上	-10.0069
做工夫	-10.0072
而不得	-10.0078
異乎	-10.0082
以此為	-10.0084
法也	-10.0102
八十	-10.0106
合乎	-10.011
樂音洛	-10.0115
徙	-10.0119
其仁	-10.012
:『	-10.013
不入	-10.0134
有時而	-10.0134
為言	-10.0141
皆可	-10.0143
於魯	-10.0148
雖曰	-10.0166
及於	-10.0171
循理	-10.0177
狂者	-10.0186
之稱	-10.019
或以	-10.0195
曰子	-10.0196
愧	-10.0205
言性	-10.0206
由之	-10.0209
合於	-10.021
仁而	-10.0221
知道	-10.0221
隙	-10.0222
亦自	-10.0226
在乎	-10.0229
雉	-10.025
多能	-10.0252
間斷	-10.0252
伊	-10.0253
太極	-10.0258
聼	-10.026
邾	-10.0261
十年	-10.0262
許之	-10.0266
寡人	-10.0268
十六	-10.0269
司徒	-10.0269
反之	-10.0272
無罪	-10.0273
志於	-10.0285
瞽	-10.0292
營	-10.0296
區	-10.0297
百年	-10.0297
祝	-10.03
所居	-10.0301
播	-10.0301
人性	-10.0304
匹夫	-10.0307
帝王	-10.0312
者是也	-10.0318
憲	-10.0319
專以	-10.0323
食之	-10.0327
随	-10.0337
遏	-10.0339
獄	-10.0344
擴充	-10.0347
公孫	-10.0348
其罪	-10.0356
諸家	-10.0358
之憂	-10.0361
道徳	-10.0361
之詞	-10.0364
祥	-10.0374
太公	-10.0375
創	-10.0377
自修	-10.0379
以身	-10.0382
在天	-10.0386
夾	-10.0405
靈公	-10.0407
者葢	-10.041
教民	-10.042
不屑	-10.0428
婦人	-10.043
之變	-10.0433
樂也	-10.0434
知仁	-10.0434
動而	-10.0436
其體	-10.0442
明德	-10.0443
頌	-10.0444
而不知其	-10.0455
險	-10.0464
有定	-10.0465
者不能	-10.0467
所學	-10.0477
其所謂	-10.0478
之本然	-10.0479
倦	-10.0482
三軍	-10.0483
2	-10.0484
規	-10.0485
付	-10.0492
辨之	-10.0492
去就	-10.0493
漢書	-10.0496
虧	-10.0496
子貢問	-10.0496
之力	-10.0498
爾雅	-10.0508
精微	-10.051
行仁	-10.0511
爲之	-10.0519
以善	-10.0532
是以君子	-10.0532
不使	-10.0533
時人	-10.0537
焉者	-10.0541
以德	-10.0542
不得已而	-10.0547
所守	-10.0547
用其	-10.055
如今	-10.055
之勢	-10.0557
葉	-10.0558
矣故曰	-10.0568
猛	-10.0571
瑟	-10.0571
非其	-10.0576
天理之	-10.0587
非特	-10.0588
之主	-10.0591
將以	-10.0594
孟子謂	-10.0598
一端	-10.0601
矣又	-10.0602
二事	-10.0603
其效	-10.0603
犬	-10.0604
以生	-10.0607
無過	-10.0608
之耳	-10.0608
栁下惠	-10.0615
觧	-10.0617
曠	-10.0617
膚	-10.0618
禍福	-10.0618
話	-10.0624
仁知	-10.0627
在所	-10.063
臣之	-10.0631
未達	-10.0635
方可	-10.0639
記者	-10.0641
房	-10.0642
跡	-10.0647
去其	-10.065
迷	-10.0653
無復	-10.0655
本然之	-10.0655
僻	-10.0657
親之	-10.066
於身	-10.0661
所記	-10.0663
人為	-10.0663
文字	-10.0666
天下之事	-10.0669
治民	-10.0672
明其	-10.0675
有事	-10.0679
又如	-10.0686
裏面	-10.0687
増	-10.069
刪	-10.0698
而夫子	-10.0702
物事	-10.0705
不實	-10.071
人亦	-10.0714
惡人	-10.0716
動静	-10.0718
所論	-10.0721
皆不	-10.0722
執中	-10.0724
推己	-10.0726
遁	-10.0731
裼	-10.0731
廹	-10.0734
歛	-10.0736
慝	-10.0736
為難	-10.0738
用也	-10.074
也以其	-10.0743
比干	-10.0746
晏子	-10.0751
不恭	-10.0752
不變	-10.0765
竈	-10.0765
則天下	-10.0766
問孟子	-10.0766
準	-10.0773
吉凶	-10.0777
而后	-10.0779
耳故	-10.0786
一切	-10.0792
伐之	-10.0794
則人	-10.08
郷	-10.0801
宅	-10.0804
之心而	-10.0805
其德	-10.0811
事上	-10.0815
以示	-10.0816
淳	-10.0818
乖	-10.0818
罷	-10.082
亦猶	-10.0822
名之	-10.0823
自新	-10.0825
非聖人	-10.0826
人以	-10.0826
根本	-10.0827
動靜	-10.0832
侮	-10.0839
而後能	-10.0844
仁矣	-10.0848
未至於	-10.0849
薛	-10.0852
固不	-10.0857
途	-10.0857
姬	-10.0858
暫	-10.0859
一語	-10.086
不修	-10.086
此類	-10.0865
扶	-10.0866
及人	-10.0868
何如曰	-10.0871
往往	-10.0887
無常	-10.0888
人自	-10.0893
民心	-10.0895
揆	-10.0897
透	-10.0898
孚	-10.0898
絶之	-10.09
齊國	-10.0903
須知	-10.0904
上句	-10.0904
而推之	-10.0904
王曰	-10.0908
於其間	-10.0909
君子之所	-10.091
但言	-10.0911
不重	-10.0917
淺説	-10.0928
得人	-10.0938
億	-10.0939
徳也	-10.094
佚	-10.0942
固非	-10.0944
立言	-10.0947
其文	-10.0947
君子不	-10.0963
只説	-10.0977
迂	-10.098
雷	-10.0983
㫁	-10.0983
凖	-10.0984
義則	-10.0985
牛羊	-10.0987
萬事	-10.0987
輪	-10.099
是皆	-10.0992
杖	-10.0993
閔子	-10.1002
承上文	-10.1008
小徳	-10.1009
大學之	-10.1014
康子	-10.1015
能使	-10.1016
酌	-10.1017
在彼	-10.1019
緣	-10.1019
麻	-10.102
一國	-10.1021
亦只是	-10.1032
泰山	-10.1033
曰然則	-10.1038
陷於	-10.1042
髙下	-10.1044
戰國	-10.1046
譬之	-10.1047
様	-10.1049
究其	-10.1054
不存	-10.106
敦	-10.106
天下之大	-10.1065
踈	-10.1066
頗	-10.1067
韻	-10.1068
者雖	-10.1077
閔	-10.1077
之禍	-10.1078
舜禹	-10.1078
之説則	-10.1083
則已	-10.1084
全是	-10.1086
甫	-10.1092
字子	-10.1092
為正	-10.1092
者豈	-10.1098
以徳	-10.1101
之殊	-10.1101
康誥	-10.1105
同而	-10.1105
鹿	-10.1105
墻	-10.1106
眼	-10.1108
之大者	-10.111
無禮	-10.1111
鬼神之	-10.1115
言仁	-10.1122
三節	-10.1124
而入	-10.1125
引之	-10.1125
而不失	-10.1131
尾	-10.1136
深矣	-10.1137
一件	-10.1143
無惡	-10.1147
功夫	-10.1149
逢	-10.1149
三年之喪	-10.1153
曲折	-10.1156
人皆有	-10.1157
大而	-10.1158
死而	-10.1159
之云	-10.1165
此書	-10.117
不仁者	-10.1174
壯	-10.1191
之類是也	-10.1191
其善	-10.1193
特以	-10.1195
相與	-10.1195
之理也	-10.1196
平常	-10.1197
上帝	-10.1203
止也	-10.1203
方能	-10.1209
專指	-10.1211
際	-10.1213
節張彦陵曰	-10.1225
生之	-10.1226
不立	-10.1226
擾	-10.1228
此時	-10.1232
吾心	-10.1232
所存	-10.1232
辭氣	-10.1233
割	-10.1235
舟	-10.1236
敝	-10.1236
杞	-10.1237
章指言	-10.1239
憎	-10.1239
易曰	-10.1247
一等	-10.1258
各有所	-10.1258
三日	-10.1262
十章	-10.1267
集注	-10.1271
好去聲	-10.1273
内則	-10.1277
此二	-10.1279
公都子	-10.1279
百里奚	-10.1282
之明	-10.1286
觀人	-10.1286
其㫖	-10.1289
過也	-10.1292
便見	-10.1297
其樂	-10.1301
其地	-10.1302
以理言	-10.1304
者或	-10.1307
乃能	-10.131
惟聖人	-10.131
醬	-10.1316
産	-10.1316
為天下	-10.1316
而卒	-10.1317
其極	-10.1317
蒲	-10.1321
之服	-10.1324
而孟子	-10.1325
亦豈	-10.1326
容貌	-10.1329
之資	-10.1331
猶可	-10.1332
始得	-10.1339
旨	-10.1339
是理	-10.1348
真知	-10.135
是指	-10.135
些	-10.1354
正名	-10.1355
弘	-10.1356
人主	-10.1356
之偏	-10.1361
豪	-10.1363
醫	-10.1365
已發	-10.1366
善之	-10.1366
不死	-10.1367
陽虎	-10.1368
大體	-10.1371
而弗	-10.1377
外面	-10.1378
至聖	-10.1379
不齊	-10.138
子張問	-10.1381
者多	-10.1383
退而	-10.1391
人臣	-10.1393
而終	-10.1393
不得而	-10.1396
此一	-10.1398
此三	-10.1401
察之	-10.1402
善言	-10.1406
栗	-10.1407
唐虞	-10.1409
豚	-10.1409
耳然	-10.141
於國	-10.1412
當如此	-10.1419
不惟	-10.1427
不中	-10.1431
却不	-10.1435
矣今	-10.1435
第十	-10.1439
攘	-10.1443
何事	-10.145
而天下	-10.1455
之心也	-10.1456
二説	-10.1464
羞惡	-10.1466
而後可	-10.1467
本意	-10.1472
誠則	-10.1475
上說	-10.1475
其曰	-10.1477
三人	-10.1483
莫之	-10.1491
陰	-10.1491
人不知	-10.1492
就其	-10.1494
拔	-10.1496
委曲	-10.1496
人欲之私	-10.1497
者然	-10.15
必不	-10.1514
其一	-10.1519
之誤	-10.153
而見	-10.1532
墓	-10.1534
皆然	-10.1539
惡而	-10.1541
思慮	-10.1542
子謂	-10.1543
二三子	-10.1552
於此而	-10.1552
只是一	-10.1556
為大夫	-10.156
所當為	-10.1563
事業	-10.1564
為重	-10.1566
㓜	-10.1574
問於	-10.1577
改過	-10.1582
上面	-10.1582
溝	-10.1583
註苞氏曰	-10.1584
水之	-10.1584
無益	-10.159
而猶	-10.1598
征伐	-10.1599
則吾	-10.1608
文質	-10.1611
雖未	-10.1615
如此説	-10.1621
孰為	-10.1625
鄰國	-10.1627
屨	-10.1627
於下	-10.1627
待之	-10.1631
苖	-10.1634
言之也	-10.1635
天下之理	-10.1646
氣稟	-10.1649
理則	-10.1654
出而	-10.1657
儒者	-10.1663
隘	-10.1666
其氣	-10.1667
璧	-10.1668
懲	-10.1668
驚	-10.1669
至誠無息	-10.1671
裕	-10.1672
繆公	-10.168
始於	-10.1689
而食	-10.1695
人之善	-10.1699
其大者	-10.1699
四體	-10.1701
而後可以	-10.1702
理義	-10.1703
入徳	-10.1705
大賢	-10.1708
朋	-10.171
問仁	-10.1718
於其所	-10.1724
之人也	-10.1732
心之徳	-10.1733
進而	-10.1736
天下之人	-10.1737
曾子曰	-10.1744
。』	-10.1746
一定	-10.1757
軌	-10.176
不肖	-10.1766
施之	-10.1769
一偏	-10.1776
無怨	-10.1783
學者之	-10.1801
局	-10.1802
勇也	-10.1803
狄	-10.1804
占	-10.1805
注包曰	-10.1806
作亂	-10.1809
文集曰	-10.1809
自言	-10.1809
孔孟	-10.1809
不難	-10.1817
彼此	-10.1817
黙識	-10.1818
終不	-10.1826
天性	-10.1828
及此	-10.1831
既有	-10.1833
之數	-10.1834
十一	-10.1834
脚	-10.1845
不能自	-10.1845
三分	-10.1849
般	-10.185
有可	-10.1851
古之人	-10.1857
居敬	-10.1858
輅	-10.1858
卻	-10.1859
音扶	-10.1861
莫不有	-10.1862
之意而	-10.1872
愛之理	-10.1877
善道	-10.1882
復有	-10.1883
妾	-10.1889
斬	-10.1891
厎	-10.1894
不曽	-10.1898
耆	-10.1901
之處	-10.1905
而不言	-10.1906
奈何	-10.191
逺近	-10.1912
生死	-10.1913
其政	-10.1914
風俗	-10.1914
言此	-10.1917
不能行	-10.1922
天也	-10.1923
誠實	-10.1925
緒	-10.1931
看得	-10.1933
餓	-10.1933
之術	-10.1933
不取	-10.1934
徳性	-10.1938
不仕	-10.1939
固無	-10.1941
影	-10.1941
捨	-10.1945
知仁勇	-10.195
仁政	-10.1961
第三	-10.1969
者多矣	-10.1971
斯民	-10.1972
次之	-10.1972
世家	-10.1976
何歟	-10.1979
以是為	-10.198
瞻	-10.1982
冇	-10.1986
溪	-10.1988
光明	-10.1991
夷子	-10.2
之勇	-10.2003
是性	-10.2006
治也	-10.2008
槩	-10.2008
如天	-10.201
兼愛	-10.2013
貴於	-10.2018
下愚	-10.2019
隨時	-10.2027
不同然	-10.2028
暢	-10.203
辛	-10.2035
苟且	-10.2037
鳥獸	-10.2037
不可及	-10.2039
得天下	-10.2046
而何	-10.2055
之義也	-10.2064
下面	-10.207
荀子	-10.2071
惻隱	-10.2073
則所謂	-10.2073
而心	-10.2073
以取	-10.2077
不睹不聞	-10.2079
魯論	-10.208
只有	-10.2081
大綱	-10.2086
常存	-10.2091
著力	-10.2097
誠能	-10.2116
詭	-10.2122
即其	-10.2123
顓臾	-10.2123
祗	-10.2124
理會	-10.2124
滋	-10.2126
或謂	-10.2128
整	-10.213
教化	-10.2138
之迹	-10.2142
有德	-10.2143
本體	-10.2144
與此	-10.2147
議論	-10.2164
然非	-10.2167
其始	-10.2168
無為	-10.2169
栁	-10.2169
魄	-10.217
賢才	-10.2172
讒	-10.2172
貳	-10.2176
直是	-10.218
自此	-10.2186
易之	-10.2189
魯大夫	-10.219
緊	-10.2196
此非	-10.2199
以待	-10.2199
是之謂	-10.2202
不貳	-10.2204
必得	-10.221
些子	-10.2212
別	-10.2215
得志	-10.2215
其勢	-10.2217
礙	-10.2218
合而	-10.2226
釋之	-10.2229
禮則	-10.2237
賽合註曰	-10.2238
侯曰	-10.224
之流	-10.2251
之目	-10.2252
而用之	-10.2252
無形	-10.2258
只為	-10.2258
檀弓	-10.2259
者何曰	-10.2261
季子	-10.2265
憾	-10.2276
仁字	-10.2278
未安	-10.2279
宫室	-10.228
儀禮	-10.229
芟一條减	-10.2292
自己	-10.2295
義而	-10.2301
繆	-10.2307
胷中	-10.2308
竝	-10.2311
肥	-10.2314
汎	-10.2314
只要	-10.2314
傲	-10.2314
保其	-10.2316
周流	-10.2318
望之	-10.2318
以及人	-10.2318
桀紂	-10.232
乃以	-10.2321
而致	-10.2322
一一	-10.2324
牙	-10.2324
五百	-10.2326
之官	-10.2327
一夫	-10.2335
大槩	-10.234
食色	-10.234
之職	-10.2348
和而	-10.235
但知	-10.2351
固不可	-10.2354
擬	-10.2359
狎	-10.2363
郡	-10.2363
而已故	-10.2369
氣質之性	-10.2372
引此	-10.2378
之所存	-10.2386
豈得	-10.2387
士師	-10.2389
止至善	-10.239
用其力	-10.2392
洪	-10.2396
心術	-10.2398
錄	-10.2398
善也	-10.2398
非仁	-10.2401
惻隠	-10.2402
不獨	-10.2402
頑	-10.2409
者惟	-10.2411
存亡	-10.2413
寂	-10.2413
也所謂	-10.2413
所指	-10.2416
大節	-10.2416
反復	-10.2418
斯言	-10.2422
之辭也	-10.2423
所蔽	-10.2424
盡善	-10.2431
有善	-10.2433
此即	-10.2434
自盡	-10.244
其下	-10.2442
妨	-10.2443
武子	-10.2444
欲人	-10.2444
正意	-10.2447
只是一箇	-10.2449
從政	-10.245
不和	-10.2452
英	-10.2454
戸	-10.2458
者正	-10.2465
傳曰	-10.2465
亦皆	-10.2472
受其	-10.2473
揜	-10.2473
是仁	-10.2475
襄公	-10.2477
不悦	-10.248
孰能	-10.2486
暇	-10.2487
同一	-10.2488
如在	-10.2492
猶云	-10.2492
孟子之意	-10.2497
天地萬物	-10.2498
淮	-10.25
駕	-10.2507
倉	-10.2507
閭	-10.2509
副	-10.2509
伍	-10.251
心體	-10.2511
在心	-10.2516
從周	-10.2517
率性	-10.2517
爲政	-10.2524
故又	-10.2524
生民	-10.2526
又是	-10.2532
逺者	-10.2535
字上	-10.2535
已有	-10.2537
而可以	-10.2538
濯	-10.2549
生而	-10.2549
緫	-10.2552
公室	-10.2552
性與天道	-10.2555
者如此	-10.2559
逺之	-10.2563
伯魚	-10.2565
自得之	-10.2577
紂之	-10.2584
帛	-10.2584
親愛	-10.2598
愛親	-10.26
文意	-10.2601
更不	-10.2601
十二章	-10.2602
焚	-10.2605
陳蔡	-10.2609
交際	-10.2611
無知	-10.2614
百工	-10.2618
發之	-10.262
節目	-10.2621
辭也	-10.2623
乃為	-10.2626
天下之民	-10.2635
王者之	-10.2635
前日	-10.2643
頓	-10.2644
曽子之	-10.2644
两	-10.2645
亮	-10.2647
譎	-10.2649
浴	-10.265
中行	-10.2651
墜	-10.2656
之域	-10.2658
五霸	-10.2671
文也	-10.2683
饗	-10.27
上言	-10.2704
所同	-10.2705
不智	-10.2712
䝉引	-10.2712
子曰至	-10.2713
自治	-10.2713
而得之	-10.2714
功效	-10.2726
相因	-10.2733
乃可	-10.2735
南面	-10.2738
所固有	-10.2746
托	-10.2747
經綸	-10.2747
人之性	-10.2749
拱	-10.2749
此二句	-10.275
不直	-10.2752
必自	-10.2753
子糾	-10.2754
所施	-10.2755
無違	-10.2757
免於	-10.2759
舊説	-10.2766
不曰	-10.2767
山川	-10.2781
君臣之義	-10.2781
善則	-10.2784
敎人	-10.2789
之日	-10.2791
而進	-10.2794
季康子	-10.2797
欠	-10.2797
米	-10.2797
琴	-10.2798
闑	-10.2799
巍巍	-10.2801
乎夫	-10.2802
孺子	-10.2802
清明	-10.2802
充之	-10.2802
五世	-10.2803
必須	-10.2804
穆公	-10.2805
疆	-10.2809
伐燕	-10.2813
升堂	-10.282
今乃	-10.2821
中庸之道	-10.2822
有子	-10.2833
異也	-10.2838
是故君子	-10.2839
皆得	-10.2839
德者	-10.2841
逺而	-10.2844
天資	-10.2844
大哉	-10.2848
之本體	-10.2849
所及	-10.285
許子	-10.2852
躁	-10.2852
於人者	-10.2852
邦有道	-10.2853
卜	-10.2853
刀	-10.2855
萬鍾	-10.2856
次序	-10.2858
武城	-10.286
之惡	-10.2861
本是	-10.2862
所養	-10.2872
勉人	-10.2874
由於	-10.2874
過而	-10.2876
立於	-10.2879
元年	-10.2883
喜怒哀樂	-10.2885
蔡氏曰	-10.289
緇	-10.2896
赴	-10.2901
寅	-10.2903
刃	-10.2905
紫	-10.2906
敎之	-10.2907
充塞	-10.291
太廟	-10.2917
與孟子	-10.2922
魯君	-10.2925
伊川曰	-10.2928
荘	-10.2933
當為	-10.2937
未嘗有	-10.2939
作用	-10.2944
孔安國	-10.2945
天人	-10.2946
吳氏曰	-10.2947
不倦	-10.2947
品節	-10.2947
鬭	-10.2949
羅	-10.295
之機	-10.2953
中正	-10.2957
孝弟慈	-10.2965
之聲	-10.2965
但當	-10.2974
成德	-10.2975
得其正	-10.2978
好仁	-10.2982
然有	-10.2985
諸説	-10.2985
則謂之	-10.299
直以	-10.2991
匹	-10.2991
姜	-10.2996
髙逺	-10.2996
又當	-10.2997
戮	-10.2997
哲	-10.2998
壬	-10.2999
道不行	-10.2999
柳下惠	-10.3002
則一	-10.3005
之事則	-10.3007
非以	-10.3008
未足	-10.3008
藴	-10.3009
不可謂	-10.3011
有恒	-10.3017
日用之間	-10.3017
之次	-10.302
非惟	-10.3021
大德	-10.3022
無意	-10.3026
與我	-10.3029
何等	-10.303
傳云	-10.3032
僖公	-10.304
而取	-10.3042
專言	-10.3042
何其	-10.305
知命	-10.305
諭	-10.3052
自然之	-10.3059
莒	-10.3064
信乎	-10.307
之田	-10.3073
條目	-10.3075
子路問	-10.3077
見聖人	-10.3077
十二年	-10.3078
皆在	-10.3079
似乎	-10.3082
故集註	-10.3083
而忘	-10.3084
離婁	-10.309
何故	-10.3093
黜	-10.3093
禹之	-10.3095
與之言	-10.3098
菜	-10.3098
將去	-10.3099
標	-10.31
鳯	-10.3103
脫	-10.3105
炙	-10.3106
七人	-10.3106
大學之道	-10.3108
在前	-10.3109
更有	-10.3112
與道	-10.3113
文之	-10.3118
於已	-10.3125
祭之	-10.3134
夕	-10.3135
而巳	-10.3143
時習	-10.3148
雪	-10.3151
謟	-10.3154
泄	-10.3157
未甞	-10.3157
註文	-10.3159
有疾	-10.3161
已甚	-10.3161
可知也	-10.3161
而求之	-10.3165
大矣	-10.3169
以心言	-10.318
行其道	-10.3181
若能	-10.3186
必待	-10.3188
不苟	-10.319
不可曉	-10.3194
子賤	-10.3196
易見	-10.3196
也若夫	-10.32
為物	-10.3202
邱	-10.3202
邪正	-10.3205
協	-10.3206
幅	-10.3208
丈人	-10.3208
值	-10.3208
箋	-10.3209
縫	-10.3209
谷	-10.3209
上節	-10.3216
計較	-10.3216
池	-10.3218
人子	-10.3218
視其	-10.322
自棄	-10.322
聞其	-10.3221
識其	-10.3223
近而	-10.3223
叔子	-10.3225
童	-10.3226
則失	-10.323
言我	-10.3232
不移	-10.3235
固當	-10.3239
久而	-10.3252
在後	-10.3253
庠	-10.3254
矣蓋	-10.3256
篤實	-10.3258
以證	-10.3258
諷	-10.3259
意誠	-10.3259
吿	-10.326
講學	-10.3261
衛靈公	-10.3261
懈	-10.3261
此一章書見	-10.3262
聚斂	-10.3263
由其	-10.3263
之事而	-10.3264
祫	-10.327
天爵	-10.327
洞	-10.327
犬馬	-10.3271
欲速	-10.3274
孟氏	-10.3277
有得	-10.3278
底道理	-10.3281
承上章	-10.3281
墮	-10.3284
實而	-10.3286
樂道	-10.3293
非徒	-10.3294
不假	-10.3294
玉藻	-10.33
者當	-10.3301
衽	-10.3304
夫子之道	-10.3307
財用	-10.3311
吾心之	-10.3311
抱	-10.3311
允	-10.3311
詠	-10.3311
駁	-10.3312
故為	-10.3313
説到	-10.3314
乎外	-10.3315
卓	-10.3316
䙝	-10.3317
其序	-10.3318
叔孫	-10.3322
所止	-10.3325
也凡	-10.3326
天下無	-10.3327
便自	-10.3333
亦不是	-10.3343
不可無	-10.3348
天地間	-10.3351
十四年	-10.3353
也謝曰	-10.3355
延	-10.3359
七篇	-10.3361
柄	-10.3361
夭	-10.3361
溺於	-10.3361
章總㫖	-10.3362
狥	-10.3365
湏	-10.3366
琢	-10.3366
子西	-10.3368
逝	-10.3369
不可以為	-10.3369
狂狷	-10.337
貧富	-10.3378
方其	-10.3384
桓子	-10.3388
公曰	-10.3392
只管	-10.3395
有一毫	-10.3396
中心	-10.3408
冉	-10.3409
視聽	-10.3411
按此	-10.3412
䝉	-10.3413
荆	-10.3413
寫	-10.3415
以前	-10.3421
而使之	-10.3429
伯子	-10.3431
誠之者	-10.3433
之君子	-10.3434
所以能	-10.3435
莫如	-10.3439
能如此	-10.3442
其初	-10.3445
不可易	-10.3446
而去之	-10.3449
仁心	-10.3451
之實也	-10.3452
者猶	-10.3452
王政	-10.3456
聞而	-10.3456
為聖人	-10.3457
皆所以	-10.3465
爲善	-10.3467
分曉	-10.3467
斟酌	-10.347
蒼	-10.3472
蓄	-10.3472
不憂	-10.3475
未詳	-10.3476
殊不知	-10.3479
黄帝	-10.3479
之路	-10.348
師也	-10.3481
各得其	-10.3482
自處	-10.3484
如有	-10.3486
接物	-10.3489
扶又反	-10.349
可得	-10.3491
有人	-10.3496
二年	-10.3499
無不盡	-10.3501
之累	-10.3502
順理	-10.3502
而遽	-10.3513
學文	-10.3513
天之所	-10.3519
必由	-10.3521
别有	-10.3522
逮	-10.3522
盍	-10.3522
德行	-10.3523
悲	-10.3524
闊	-10.3524
無實	-10.3526
禮而	-10.3527
所以爲	-10.3528
優劣	-10.3529
東西	-10.3535
論性	-10.3537
其過	-10.3537
為性	-10.3542
功用	-10.3545
不可行	-10.3553
此論	-10.356
而樂	-10.3561
而歸	-10.3562
有不善	-10.3565
焉故	-10.3565
子夏曰	-10.3569
皮弁	-10.3571
粹	-10.3573
其家	-10.3576
牢	-10.3577
髪	-10.3578
燭	-10.3579
熱	-10.3579
詖	-10.358
此其所以	-10.358
前篇	-10.3591
誠其意	-10.36
此謂	-10.3607
可以無	-10.3611
不要	-10.3612
敬之	-10.3612
必然	-10.3623
士大夫	-10.3624
之微	-10.3626
同姓	-10.3626
睹	-10.3629
徳而	-10.3629
不窮	-10.3631
王天下	-10.3634
舌	-10.3637
顔回	-10.3639
太宰	-10.3642
雖若	-10.365
十三	-10.3655
不外乎	-10.3656
兵車	-10.3658
不可勝	-10.3662
九年	-10.3666
相類	-10.3671
女樂	-10.3673
不外	-10.3676
者既	-10.3677
作為	-10.3679
志氣	-10.3681
而後有	-10.3682
囚	-10.3683
暮	-10.3683
黍	-10.3684
衛君	-10.3684
懸	-10.3685
鼻	-10.3685
茅	-10.3687
殉	-10.3689
管叔	-10.3696
可以見	-10.3698
隨事	-10.37
見孔子	-10.3704
王季	-10.3705
費隠	-10.3707
也或曰	-10.3707
是氣	-10.3713
鄙夫	-10.3717
以俟	-10.3723
者哉	-10.3725
事皆	-10.373
過矣	-10.373
貉	-10.3737
鵠	-10.3737
發而	-10.3738
其惡	-10.3738
底人	-10.3739
叩	-10.3739
程子之言	-10.374
培	-10.3742
片	-10.3743
其生	-10.3751
矣又曰	-10.3752
位而	-10.3755
萬殊	-10.3756
從心	-10.3757
教以	-10.3757
方百里	-10.3765
患難	-10.3769
愚不肖	-10.3769
盖以	-10.377
以見其	-10.3772
明日	-10.3778
矣但	-10.3778
父之	-10.3779
心存	-10.3783
是要	-10.3786
子路曰	-10.3795
紛	-10.3796
先言	-10.3799
公私	-10.38
膏	-10.3802
自任	-10.3802
覇	-10.3802
言必	-10.3802
詩大雅	-10.3803
神農	-10.3804
生者	-10.3805
為美	-10.381
判	-10.3813
人多	-10.3815
知性	-10.3817
玩味	-10.382
何不	-10.3823
執一	-10.3826
齊景公	-10.3838
佛	-10.3838
者能之	-10.3843
從事於	-10.3843
末節	-10.3847
為道	-10.3847
儘	-10.3848
下節	-10.3848
展	-10.3848
熊	-10.3852
奴	-10.3852
撫	-10.3853
織	-10.3854
章首	-10.3856
纓	-10.386
使者	-10.3861
如此而	-10.3863
周旋	-10.3865
罕言	-10.3866
亦須	-10.3867
蓋以	-10.3868
當世	-10.3868
也吾	-10.3874
之差	-10.3874
不免於	-10.3877
物我	-10.3878
行仁政	-10.3889
當是時	-10.3889
多矣	-10.3901
不如此	-10.3902
人之惡	-10.3904
誠心	-10.3905
蜡	-10.3905
茂	-10.3905
后稷	-10.3906
阻	-10.3907
殖	-10.3908
顛	-10.3909
清濁	-10.3915
然後知	-10.3918
固已	-10.3918
樂天	-10.392
置之	-10.3926
六經	-10.3928
賜也	-10.3933
皆為	-10.3934
聰	-10.3936
形體	-10.394
乎故	-10.3943
高明	-10.3944
繼之以	-10.3947
切於	-10.3948
擴	-10.3951
枝	-10.396
坤	-10.396
勉齋黄氏曰	-10.3961
冀	-10.3961
丹	-10.3961
輙	-10.3962
体	-10.3962
乏	-10.3962
以盡	-10.3963
有淺深	-10.3964
到得	-10.3964
其常	-10.3964
鈞	-10.3964
不如是	-10.3965
謂之仁	-10.3965
収	-10.3966
推廣	-10.3971
相承	-10.3971
賢而	-10.3973
一生	-10.3977
夫子以	-10.3979
盡矣	-10.3983
命者	-10.3984
信也	-10.3985
於後	-10.3985
所發	-10.3986
一意	-10.399
不同也	-10.3994
故雖	-10.3995
乆矣	-10.3996
長短	-10.3996
湯之	-10.3998
有是心	-10.4
節翼註曰	-10.4002
成章	-10.4006
之哉	-10.4008
乎天	-10.4009
以仁義	-10.4011
雄	-10.4015
打	-10.4016
俊	-10.4017
㕓	-10.4019
洒掃應對	-10.4023
尤為	-10.4025
郤	-10.4025
可與言	-10.4026
非道	-10.4026
萬物之	-10.4027
賔客	-10.4028
仁義之	-10.4031
萬理	-10.4038
但其	-10.4038
國政	-10.404
孟子以	-10.4041
其長	-10.4043
守身	-10.405
尊卑	-10.405
性分	-10.4052
故聖人	-10.4053
在已	-10.4058
篤信	-10.4061
潤	-10.4063
其利	-10.4068
幹	-10.4073
洋洋	-10.4074
呂	-10.4075
候	-10.4077
箴	-10.4079
接輿	-10.408
柯	-10.4081
止是	-10.4083
惡其	-10.4088
蓋有	-10.4091
耶曰	-10.4093
者但	-10.4106
然自	-10.4112
四子	-10.4116
從其	-10.4117
之世	-10.4117
所以明	-10.4118
致曲	-10.4121
答之	-10.4121
心者	-10.4123
罰	-10.4126
極言	-10.4128
止之	-10.4128
伊川解曰	-10.413
鼔	-10.4131
天下之物	-10.4137
農夫	-10.4138
宗廟之	-10.414
死於	-10.4142
真實	-10.4143
非獨	-10.4144
經傳	-10.4145
不備	-10.415
理之當然	-10.415
不妨	-10.4151
不親	-10.4156
有成	-10.4157
其終	-10.4165
可否	-10.4167
如孔子	-10.4168
豈以	-10.417
亦多	-10.4171
所受	-10.4173
主忠信	-10.4176
謙辭	-10.4176
體認	-10.4179
欲學者	-10.4179
其類	-10.418
到此	-10.4181
功業	-10.4184
騐	-10.4186
曾㸃	-10.4189
一時之	-10.4189
萬章曰	-10.419
選	-10.4191
無妄	-10.4192
二百	-10.4192
至大	-10.4198
如彼	-10.4199
識之	-10.4199
有物	-10.4201
志於道	-10.4204
助長	-10.4205
其所以為	-10.4206
不幸	-10.4206
六章	-10.4209
未見其	-10.4214
自其	-10.4215
其末	-10.4221
成之	-10.4222
不得為	-10.4222
自成	-10.4223
最為	-10.4227
好樂	-10.423
也是以	-10.4231
哉故	-10.4236
涵	-10.4236
一二	-10.4238
錢	-10.424
為利	-10.4242
結之	-10.4243
亥	-10.4245
萊	-10.4247
救民	-10.4248
戲	-10.4248
窒	-10.425
二十五	-10.4251
憂患	-10.4252
安排	-10.4253
之宜	-10.4259
之首	-10.426
此詩	-10.4267
之風	-10.4267
蓋亦	-10.4268
問政	-10.4271
至極	-10.4276
人生	-10.4287
南子	-10.4287
亦將	-10.4287
不論	-10.4287
同也	-10.4294
孔子言	-10.4297
子男	-10.4301
属	-10.4302
橫	-10.4305
區區	-10.4306
僖	-10.4307
三桓	-10.4308
為體	-10.4308
義利	-10.4308
識得	-10.431
故言	-10.431
齊侯	-10.4311
器也	-10.4311
邦無道	-10.4311
世俗	-10.4312
赤子之心	-10.4312
難知	-10.4314
殯	-10.4314
雖無	-10.4318
當在	-10.4319
學者當	-10.4319
有許多	-10.4319
一層	-10.432
有諸己	-10.4324
未始	-10.4329
得乎	-10.433
隨其	-10.4335
問答	-10.4339
朱子謂	-10.4348
枉道	-10.435
有意	-10.4357
人雖	-10.4357
郢	-10.4358
不專	-10.4358
聖學	-10.436
沽	-10.436
樂天齋翼註曰	-10.4362
畿	-10.4362
銘	-10.4362
矣其	-10.4363
亦云	-10.4366
也既	-10.4367
其兄	-10.4371
不平	-10.4371
有心	-10.4372
不獲	-10.4374
首尾	-10.4375
非所以	-10.4376
自無	-10.4383
超	-10.4386
俱是	-10.4388
大經	-10.4389
則凡	-10.4398
習於	-10.4398
無訟	-10.4399
仕者	-10.44
大過	-10.4401
字指	-10.4402
此段	-10.4403
而獨	-10.4404
説文	-10.4405
此四者	-10.4406
人爵	-10.4407
正而	-10.4409
以立	-10.4412
不同而	-10.4414
蕭	-10.4417
山之	-10.4417
勵	-10.442
滛	-10.442
純粹	-10.442
逸民	-10.4421
寵	-10.4422
愿	-10.4423
旱	-10.4424
合而言之	-10.4425
道問學	-10.4427
棄之	-10.4432
焉得	-10.4435
蔽於	-10.4436
之言也	-10.444
五穀	-10.4442
爲人	-10.4449
其進	-10.445
不為也	-10.445
與仁	-10.4453
而易	-10.4454
此一章書是孔子	-10.4465
行其	-10.4466
排	-10.4467
果能	-10.4469
責善	-10.4473
得之矣	-10.4474
蘇氏	-10.4476
不忠	-10.4477
之和	-10.4478
厚葬	-10.4478
若使	-10.4478
慨	-10.4479
柳	-10.4479
可觀	-10.4479
投	-10.4481
讎	-10.4482
豕	-10.4482
男	-10.4482
為害	-10.4486
第四	-10.4487
桴	-10.4489
有才	-10.449
羞惡之心	-10.4493
於善	-10.4494
而今	-10.4495
吕氏曰	-10.4495
天地之間	-10.4498
體也	-10.4515
安得不	-10.4518
無能	-10.452
精義	-10.452
以敬	-10.4526
繼之	-10.4529
制禮	-10.4529
可言	-10.4531
生知安行	-10.4536
於夫子	-10.4538
季桓子	-10.4538
注馬曰	-10.454
左氏	-10.4541
練	-10.4543
繩	-10.4544
註馬融曰	-10.4545
恰好	-10.4548
小而	-10.4557
也然而	-10.4565
比之	-10.4568
疾病	-10.4574
曽子曰	-10.4579
一世	-10.4581
大者	-10.4588
以時	-10.4589
其私	-10.4592
不達	-10.4593
不以為	-10.4593
壁	-10.4598
方見	-10.46
津	-10.4602
四章	-10.4604
人才	-10.4604
急於	-10.4608
應之	-10.4609
明道曰	-10.4611
之本意	-10.4611
陳相	-10.4614
意亦	-10.4615
有若	-10.4623
於聖人	-10.4624
志於仁	-10.4624
與民	-10.4626
充滿	-10.4628
而與之	-10.4631
而推	-10.4632
圃	-10.4634
舉之	-10.4635
先有	-10.4636
改之	-10.4638
善矣	-10.4639
人力	-10.464
而後已	-10.4641
狷者	-10.4644
饒氏謂	-10.4654
事親從兄	-10.4656
蒯聵	-10.4658
記孔子	-10.4658
荀	-10.466
汲汲	-10.4661
形甸反	-10.4661
復禮	-10.4661
須臾	-10.4662
縮	-10.4665
入門	-10.4665
行王政	-10.4668
六年	-10.4671
率性之道	-10.4675
孟子答	-10.4675
作春秋	-10.4676
九章	-10.4677
葉公	-10.4678
十一年	-10.4681
皆由	-10.4683
相接	-10.4683
即位	-10.4684
秦楚	-10.4685
無少	-10.4687
是從	-10.4691
赤子	-10.4696
果何	-10.4703
世人	-10.4704
則皆	-10.4708
明明德	-10.471
深造	-10.4711
與天	-10.4715
翼註	-10.4717
廛	-10.4717
約而	-10.4718
相逺	-10.4719
策	-10.4719
恣	-10.472
瀆	-10.472
於家	-10.4723
氣化	-10.4723
莫大於	-10.4724
正月	-10.4725
毁譽	-10.4726
愬	-10.4728
皆曰	-10.4729
庶民	-10.473
化育	-10.4733
臨事	-10.4734
七十里	-10.4735
何處	-10.4735
釁	-10.4736
有意於	-10.4738
道字	-10.4739
雍也	-10.4743
方得	-10.4745
足矣	-10.4754
皆出於	-10.4757
所稱	-10.4758
不加	-10.4761
教之以	-10.4761
也音義	-10.4763
矣孟子	-10.4764
言外	-10.4765
有能	-10.4766
洛	-10.4767
終於	-10.4768
有不同	-10.4774
掃	-10.4774
欣	-10.4775
壤	-10.4776
搏	-10.4776
待人	-10.4779
謗	-10.4779
書之	-10.478
以明之	-10.478
之為言	-10.4781
將有	-10.4782
之心則	-10.4783
苞氏曰	-10.4785
具於	-10.479
而知之	-10.479
之神	-10.479
焉此	-10.4792
仁智	-10.4793
糾	-10.4794
目之	-10.4797
五行	-10.4797
後章	-10.4797
夜氣	-10.4804
這裏	-10.4805
誠明	-10.4808
備矣	-10.4812
意在	-10.4815
人之情	-10.4815
德也	-10.482
有未	-10.4823
奮	-10.4825
女子	-10.4829
故知	-10.483
不能用	-10.4831
!	-10.4831
曰仁	-10.4835
拒之	-10.4839
也尹曰	-10.484
評	-10.4843
出奔	-10.4846
秩	-10.4846
合當	-10.4847
胸中	-10.4848
進徳	-10.4849
下手	-10.4851
老者	-10.4856
見聞	-10.4859
六藝	-10.4861
聖人所	-10.4862
新安	-10.4867
直道	-10.4867
或作	-10.487
一有	-10.4873
夏商	-10.4876
餼	-10.4885
愚者	-10.4887
注同	-10.489
相傳	-10.4891
為孝	-10.4891
之權	-10.4898
主宰	-10.4899
敷	-10.49
八字	-10.49
棘	-10.49
陪臣	-10.4901
焉於䖍反	-10.4902
堪	-10.4902
君子所	-10.4904
所處	-10.4904
巽	-10.4905
枝葉	-10.4905
幾希	-10.4905
不害	-10.4909
陷溺	-10.491
所不能	-10.4911
吾道	-10.4912
承上	-10.4913
而作	-10.4915
千萬	-10.4916
其論	-10.4916
真氏曰	-10.4919
其所以然	-10.4921
凡有	-10.4925
不遺	-10.4928
五章	-10.4936
行則	-10.4937
我者	-10.4942
動其心	-10.4946
為二	-10.4949
必有所	-10.495
於親	-10.4954
無聲無臭	-10.4961
艱	-10.4962
曷	-10.4964
烝	-10.4966
君子所以	-10.4968
一曰	-10.4968
己之心	-10.4968
黃	-10.4971
緩急	-10.4973
釋氏	-10.4974
在這裏	-10.4978
分之	-10.498
尋常	-10.4987
過之	-10.4988
所樂	-10.499
九十	-10.4992
惡者	-10.4996
與物	-10.4996
有諸	-10.4997
效驗	-10.5001
以己	-10.5008
無時不	-10.5009
於斯	-10.5009
知其所	-10.501
平生	-10.5014
韋	-10.5015
守約	-10.5016
於人也	-10.5017
庚	-10.5021
大孝	-10.5022
先進	-10.5023
憂懼	-10.5024
柱	-10.5024
則有以	-10.5025
錦	-10.5025
無適	-10.5028
物格	-10.5033
一個	-10.5035
成己	-10.5035
皆無	-10.5035
太祖	-10.5037
不能知	-10.5039
伯玉	-10.5041
故先	-10.5041
又不可	-10.5043
周室	-10.5049
天所	-10.505
苟不	-10.5052
玉帛	-10.5055
恥之	-10.5056
重於	-10.5057
反求	-10.5063
彼之	-10.5064
使我	-10.5066
未可以	-10.5067
甚於	-10.5067
亦不過	-10.5067
夫子嘗	-10.507
其力	-10.5071
此數	-10.5076
養老	-10.508
域	-10.5087
蘧伯玉	-10.5087
歡	-10.5089
棖	-10.509
博施濟衆	-10.509
誇	-10.509
弛	-10.5091
返	-10.5092
結上文	-10.5098
不徒	-10.51
擇善	-10.5102
天時	-10.5102
天子諸侯	-10.5105
博厚	-10.5106
首節	-10.5107
喜怒	-10.5108
近者	-10.5114
勇於	-10.5118
夫子所	-10.5123
氣也	-10.5126
小註	-10.5127
斯文	-10.5128
務本	-10.5134
近之	-10.5136
旒	-10.5137
楹	-10.5138
不多	-10.5141
也况	-10.5143
南軒	-10.5145
為賢	-10.5146
沐浴	-10.5147
歉	-10.5149
狼	-10.5149
婉	-10.5152
詘	-10.5154
心上	-10.5156
此五者	-10.5159
如云	-10.5159
惜乎	-10.5161
報怨	-10.5163
偏倚	-10.5164
各自	-10.5166
不謹	-10.5167
持守	-10.5169
可取	-10.5172
徙義	-10.5178
十八	-10.5182
萬章問曰	-10.5183
不知也	-10.5184
䧟	-10.5194
為可	-10.5197
當其可	-10.5198
不居	-10.5198
用力於	-10.5199
之全體	-10.5202
因之	-10.5203
鬻	-10.5212
王子	-10.5212
而不見	-10.5212
毫釐	-10.5214
邵	-10.5215
八佾	-10.5217
髮	-10.5217
人之身	-10.5217
慧	-10.5218
謨	-10.5221
朝音潮	-10.5221
兩字	-10.5222
庶㡬	-10.5223
也子路	-10.5224
如人	-10.5232
人之所以	-10.5233
病痛	-10.5233
考證	-10.5234
仁道	-10.5234
可通	-10.5235
昭昭	-10.5235
不告	-10.5236
正大	-10.5242
往來	-10.5243
齊大夫	-10.5244
如是則	-10.5249
何以異	-10.5252
居處	-10.5252
不服	-10.5254
為小人	-10.5262
不著	-10.5263
而徒	-10.5265
此義	-10.5272
稼	-10.5272
羔裘	-10.5273
鬬	-10.5273
鯉	-10.5273
朴	-10.5274
噐	-10.5276
也孟子言	-10.5276
之中而	-10.5279
穿	-10.528
不可知	-10.5282
者可以	-10.5282
不疑	-10.5282
民無	-10.5283
立心	-10.5283
生意	-10.5284
積累	-10.5286
功利	-10.5286
魯國	-10.5292
乃所以	-10.5296
學於	-10.5301
此一章	-10.5306
只言	-10.531
臣也	-10.5312
説話	-10.5313
饒	-10.5313
重而	-10.5319
亦未嘗	-10.532
意味	-10.5323
聖道	-10.533
推其	-10.533
馮	-10.5331
蟲	-10.5341
汨	-10.5342
珠	-10.5348
三千	-10.5349
尊徳性	-10.5349
抑揚	-10.535
奈何曰	-10.5351
如何先生曰	-10.5352
所以養	-10.5354
其分	-10.5355
封人	-10.5356
行乎	-10.5359
便可	-10.5362
亞	-10.5362
盡其道	-10.5362
正理	-10.5363
遂以	-10.5363
又引	-10.5366
必能	-10.5366
本自	-10.5369
書云	-10.537
合下	-10.5373
事父母	-10.5378
邪說	-10.5387
也豈	-10.5389
邦國	-10.5391
人之有	-10.5397
天徳	-10.5398
洗	-10.54
美之	-10.5402
曾晳	-10.5403
轍	-10.5403
刑罰	-10.5405
俯	-10.5406
鎰	-10.5406
曽晳	-10.5409
而况	-10.541
不務	-10.5411
也註	-10.5412
聞道	-10.5414
鐘鼓	-10.5415
達於	-10.5416
自足	-10.5419
闇	-10.542
物物	-10.5422
形氣	-10.5423
附庸	-10.5424
大註	-10.5426
道路	-10.5427
外而	-10.5427
又自	-10.5429
五十里	-10.5429
欲為	-10.543
千古	-10.5436
然後可	-10.5437
尊者	-10.544
不治	-10.5443
諸儒	-10.5443
正義曰云	-10.5446
欲得	-10.5449
利之	-10.5452
昭穆	-10.546
令尹	-10.5465
十一章	-10.5468
醯	-10.5469
芥	-10.5471
沂	-10.5471
脉	-10.5471
宏	-10.5473
巖	-10.5473
專為	-10.5473
睿	-10.5474
聖人之所	-10.5474
濶	-10.5475
棺	-10.5477
几	-10.5478
盡其心	-10.548
喪禮	-10.5481
底事	-10.5485
亡矣	-10.5488
貴者	-10.5493
奪之	-10.55
若只	-10.5514
聖人所以	-10.5521
京	-10.5522
林氏	-10.5522
未定	-10.5522
盛德	-10.5525
所問	-10.5526
不敢以	-10.5528
羣臣	-10.553
噫	-10.553
循其	-10.5532
不得其正	-10.5533
右師	-10.5533
增	-10.5535
酬	-10.5535
仁民	-10.5535
盧	-10.5537
寶	-10.5537
版	-10.5539
處事	-10.554
自能	-10.554
獻子	-10.5545
焉耳	-10.5545
之而已	-10.5545
而安	-10.5547
黑	-10.5548
五常	-10.5548
者謂之	-10.5548
戒之	-10.5554
必至	-10.5562
各得其所	-10.5563
能改	-10.5564
事物之	-10.5564
能守	-10.5566
所遇	-10.5571
天生	-10.5576
周制	-10.5578
於諸侯	-10.558
列國	-10.5581
而知其	-10.5581
亦作	-10.5582
者若	-10.5583
學校	-10.5585
驩	-10.5585
無所不至	-10.5587
貴乎	-10.5587
一說	-10.5591
忘其	-10.5593
其職	-10.5596
取友	-10.5596
謂之性	-10.5598
宇	-10.5603
悠久	-10.5604
矣豈	-10.5605
昆弟	-10.5608
千乘	-10.5609
反身	-10.5609
平公	-10.5611
飲酒	-10.5611
何用	-10.5611
盛徳	-10.5612
王驩	-10.5617
平時	-10.5619
教也	-10.562
告朔	-10.5623
邪説	-10.5631
二子之	-10.5634
大凡	-10.5639
自信	-10.5642
見前篇	-10.5642
凡言	-10.5646
不善者	-10.5648
所以行	-10.565
不足於	-10.5654
明而	-10.5654
慟	-10.5656
横渠曰	-10.5656
何也曰此	-10.5661
今王	-10.5661
不幸而	-10.5662
之學也	-10.5663
立而	-10.5665
讀為	-10.5665
地而	-10.5665
紹	-10.5666
冰	-10.5667
誠字	-10.5667
郭	-10.5668
戈	-10.5669
迭	-10.5671
濡	-10.5671
放心	-10.5671
應事	-10.5671
塵	-10.5672
純亦不已	-10.5672
殿	-10.5672
孟軻	-10.5672
然後為	-10.5675
幾於	-10.5675
聽訟	-10.5677
貧而	-10.5686
修己	-10.5686
之所由	-10.5694
導之	-10.5694
有力	-10.5695
樂者	-10.5696
事物之理	-10.5698
桓文	-10.57
周書	-10.5702
難也	-10.5702
北面	-10.5704
與人同	-10.5707
乎人	-10.5708
知新	-10.5709
禁止	-10.571
不分	-10.5711
不作	-10.5711
於父母	-10.5711
何足	-10.5712
或者	-10.5715
曾子之	-10.5715
念慮	-10.5717
學詩	-10.5717
感動	-10.5717
自慊	-10.572
世道	-10.5724
君子之於	-10.5729
告之曰	-10.5731
壇	-10.5733
知之者	-10.5736
庶乎	-10.5737
孝悌	-10.5739
所用	-10.5743
十人	-10.5743
一書	-10.5748
責其	-10.575
也彼	-10.5751
孟子對曰	-10.5752
數也	-10.5756
方有	-10.5761
前言	-10.5763
方始	-10.5766
天下後世	-10.5766
公劉	-10.5767
生而知之	-10.5769
自道	-10.5771
墨子	-10.5776
好義	-10.5777
不知禮	-10.5779
來者	-10.578
敬長	-10.578
十四	-10.5782
齊其家	-10.5783
異者	-10.5783
之容	-10.5785
意也	-10.5786
不以禮	-10.5788
一善	-10.5788
溫	-10.5793
應物	-10.5793
算	-10.5798
夲	-10.5798
彰	-10.5799
壅	-10.5799
二物	-10.58
擅	-10.58
芻	-10.5801
亦不必	-10.5804
價	-10.5805
相合	-10.5808
楚人	-10.5808
無二	-10.5812
周子	-10.5814
故以為	-10.5815
天理人欲	-10.5819
如此其	-10.5823
則易	-10.5824
在中	-10.5825
所傳	-10.5827
而益	-10.5827
必求	-10.5832
此一句	-10.5833
恐人	-10.5835
其所為	-10.5836
學力	-10.5836
匡人	-10.5836
不差	-10.5841
之多	-10.5843
三子之	-10.5844
大義	-10.5856
至道	-10.5861
樞	-10.5865
何謂也	-10.5866
小異	-10.5866
博文約禮	-10.5867
思無邪	-10.5867
躐等	-10.587
菴	-10.5872
三山陳氏曰	-10.5874
此條	-10.5882
二者皆	-10.5894
六尺	-10.5895
三事	-10.5896
起於	-10.5897
所主	-10.5898
之蔽	-10.5898
非常	-10.5899
失於	-10.59
章張彦陵曰	-10.5901
之得失	-10.5901
當日	-10.5902
不偏	-10.5903
抑之	-10.5904
記之	-10.5908
形而	-10.591
服之	-10.5912
亦可見	-10.5917
聲色	-10.5918
麟	-10.5925
孟子弟子	-10.5926
嘗謂	-10.5926
憑	-10.5931
少有	-10.5932
晚	-10.5932
个	-10.5935
彦	-10.5936
遍	-10.5936
淡	-10.5937
淪	-10.5937
圈外	-10.5938
絜	-10.5939
之所能	-10.5939
國名	-10.5939
緯	-10.594
杜預	-10.594
不遇	-10.5941
睦	-10.5943
動之	-10.5945
誤矣	-10.5949
父子之	-10.595
故特	-10.595
天下皆	-10.5955
孟子又	-10.5958
尚有	-10.5964
門外	-10.5966
字即	-10.5971
用工	-10.5981
輔氏	-10.5981
不遷	-10.5983
欲往	-10.5987
夫豈	-10.5996
斯二者	-10.5997
不許	-10.5997
悼	-10.6
天命之	-10.6
目前	-10.6001
模	-10.6005
行行	-10.6005
壹	-10.6006
膠	-10.6006
匪	-10.6008
怕	-10.6008
仁之方	-10.6009
耘	-10.601
陰陽	-10.6011
之以禮	-10.6011
得一	-10.6012
訥	-10.6013
不須	-10.6021
知天命	-10.6024
求也	-10.6026
亦足以	-10.6028
第五	-10.603
便能	-10.603
十五年	-10.6035
當如	-10.6035
治亂	-10.6038
昭著	-10.6039
故欲	-10.6043
上之人	-10.6044
詩人	-10.6046
先祖	-10.6047
此特	-10.6051
好禮	-10.6052
於衆	-10.6054
見於外	-10.6055
觀於	-10.6057
子華	-10.6059
川流	-10.6059
者何也	-10.606
且以	-10.6065
然猶	-10.6068
為魯	-10.6068
道統	-10.6069
臧文仲	-10.6073
詰	-10.6073
貨殖	-10.6074
註中	-10.6076
一朝	-10.6077
又非	-10.6077
五字	-10.6078
對言	-10.6081
錫	-10.6082
樂則	-10.6083
斷之	-10.6091
上有	-10.6096
而巳矣	-10.6096
無不善	-10.6099
正謂	-10.61
必不能	-10.6102
君也	-10.6106
不足以為	-10.6109
思誠	-10.6109
字對	-10.6111
不到	-10.6111
為非	-10.6115
黄氏	-10.6118
道是	-10.6121
惡平聲	-10.6124
今夫	-10.6127
大㫖	-10.6128
而孔子	-10.6128
以事言	-10.613
5	-10.613
狐	-10.6131
羮	-10.6137
芟	-10.6138
哂	-10.614
鏡	-10.6141
正道	-10.6144
徼	-10.6145
得於心	-10.6145
周官	-10.6147
當行	-10.6147
事事物物	-10.6147
懇	-10.6147
微生	-10.6148
甸	-10.6149
正義曰案	-10.615
可疑	-10.615
事功	-10.6151
誠敬	-10.6156
時君	-10.6157
而仁	-10.6157
愛敬	-10.6158
得於天	-10.6159
為聖	-10.6161
可見其	-10.6161
西南	-10.6161
通章	-10.6161
這便是	-10.6162
不愛	-10.6166
故問	-10.6168
是用	-10.617
此二者	-10.6171
未足以	-10.6176
矣盖	-10.6176
習之	-10.6176
和之	-10.6179
何爲	-10.618
之驗	-10.6181
雖非	-10.6189
四年	-10.6189
因以	-10.6191
往者	-10.6191
及之	-10.6191
田獵	-10.6191
正人	-10.6192
聲音	-10.6194
道之大	-10.6196
民之所	-10.6197
害其	-10.6198
純乎	-10.6201
為治	-10.6206
近世	-10.6206
袒	-10.6207
健	-10.6208
執之	-10.6209
哉此	-10.6211
醜	-10.6213
懦	-10.6213
惕	-10.6215
頒	-10.6217
又須	-10.6217
醉	-10.6218
擔	-10.6218
庠序	-10.6219
焉是	-10.622
公侯	-10.6221
王文憲曰	-10.6224
自見	-10.6224
失其本心	-10.6226
辭以	-10.6228
當理	-10.6229
者而言	-10.6231
可恥	-10.6231
無遺	-10.6235
行禮	-10.6238
長幼	-10.6243
但有	-10.6248
氏云	-10.6249
加於	-10.625
聘禮	-10.625
召之	-10.6252
一國之	-10.6252
欲立	-10.6257
之訓	-10.6259
之類也	-10.6262
生也	-10.6262
南容	-10.6263
而不自知	-10.6268
實心	-10.6268
未知其	-10.6271
於王	-10.6271
庾	-10.6275
語黙	-10.6275
直指	-10.6277
魂	-10.6277
未必能	-10.6278
之質	-10.628
所生	-10.6284
忠厚	-10.6284
為亂	-10.6285
技	-10.6285
楊子	-10.6285
註鄭𤣥曰	-10.6285
兩事	-10.6287
一處	-10.6288
醢	-10.6288
如一	-10.6289
南軒張氏	-10.6293
謂孔子	-10.6293
既已	-10.6293
一而已矣	-10.6294
推本	-10.6299
鄭聲	-10.6307
其言而	-10.6307
則仁	-10.6311
莫知	-10.6312
學以	-10.6316
孔顔	-10.632
察其	-10.6322
何可	-10.6322
害之	-10.6325
自立	-10.6325
以其所	-10.6327
之流行	-10.6331
初不	-10.6336
七章	-10.6342
嗇	-10.6347
偏於	-10.6348
翕	-10.635
嫁	-10.6352
非但	-10.6354
寗	-10.6354
赦	-10.6356
料	-10.6358
語類	-10.6358
詳矣	-10.6359
邠	-10.6359
耦	-10.636
得他	-10.636
雲峰	-10.6362
以進	-10.6365
無餘	-10.6367
知字	-10.637
當有	-10.637
哀矜	-10.6373
知我	-10.6378
發出	-10.6381
犯上	-10.6384
自責	-10.6386
既得	-10.6387
東南	-10.6391
孟子論	-10.6401
之餘	-10.6403
之法也	-10.6408
者何也曰	-10.6415
仁是	-10.6417
磬	-10.6418
郎	-10.6424
嫡	-10.6424
於外者	-10.6424
伯夷叔齊	-10.6425
嬖	-10.6427
不能守	-10.6427
思量	-10.6427
鈍	-10.6428
兒	-10.6429
之類皆	-10.6435
志學	-10.6437
季氏之	-10.6437
不宜	-10.644
愛民	-10.644
也雖然	-10.6451
居室	-10.6451
以成其	-10.6452
此所以為	-10.6454
回也	-10.6456
不説	-10.6458
惡去聲	-10.6458
的人	-10.6459
天之生	-10.646
至公	-10.646
獨知	-10.6463
爲仁	-10.6466
告之以此	-10.6476
視朝	-10.6478
大舜	-10.6479
者不過	-10.6483
其學	-10.6485
所不及	-10.6491
是說	-10.6492
悠逺	-10.6494
不忍之心	-10.6496
柴	-10.6497
者孔子	-10.6499
舍之	-10.6499
莭	-10.6499
禮曰	-10.65
公孫丑曰	-10.6501
無害	-10.6502
絞	-10.6502
踵	-10.6502
儺	-10.6503
處便是	-10.6504
仞	-10.6504
喟然	-10.6508
又按	-10.6508
司馬牛	-10.651
有云	-10.6511
是如此	-10.6512
民皆	-10.6512
人之言	-10.6515
宰予	-10.6515
似亦	-10.6517
邪曰	-10.6518
為諸侯	-10.6529
大宰	-10.6532
而未能	-10.6532
喜怒哀樂未發	-10.6533
許其	-10.6534
以安	-10.6536
去魯	-10.6537
賔主	-10.6537
而失其	-10.6538
有本	-10.6539
豈可以	-10.6542
此孟子所以	-10.6546
政教	-10.6546
去也	-10.6547
令人	-10.6549
無定	-10.6551
盖有	-10.6554
天下有道	-10.6555
藻	-10.6558
安仁	-10.6559
一年	-10.6561
以警	-10.6564
北辰	-10.6565
制作	-10.6565
無不在	-10.6566
是已	-10.6568
停	-10.6568
亳	-10.6568
崔	-10.6568
諾	-10.657
示之	-10.6571
洽	-10.6574
一様	-10.6576
賣	-10.6578
又豈	-10.6579
緅	-10.6581
狷	-10.6581
最難	-10.6581
之詳	-10.6582
為政者	-10.6587
服人	-10.6592
不廢	-10.6592
取舍	-10.6593
老而	-10.6595
巧言	-10.6597
身之所	-10.6599
能充	-10.6599
兩章	-10.6601
二女	-10.6603
國中	-10.6603
理之所	-10.6603
浩然	-10.6606
為已	-10.6607
去做	-10.6608
出乎	-10.6608
篤志	-10.6611
孟子所以	-10.6614
者衆	-10.6616
李氏	-10.6618
亦只	-10.662
有大小	-10.6621
敬則	-10.6622
處説	-10.6623
前説	-10.6626
王氏曰	-10.6627
而難	-10.6627
芟二條减	-10.6631
之久	-10.6633
則不得	-10.6634
説出	-10.6642
醒	-10.6643
泣	-10.6643
誥	-10.6646
饌	-10.6646
驟	-10.6647
撓	-10.6647
薪	-10.6648
敦厚	-10.6649
陽明	-10.6655
仲雍	-10.6655
體物	-10.6658
底意思	-10.6661
與他	-10.6662
當其	-10.6663
司敗	-10.6663
與民同樂	-10.667
也古者	-10.6671
為知	-10.6671
為邦	-10.6674
不可勝用	-10.6676
居於	-10.6681
有兩	-10.6683
至於此	-10.6685
只說	-10.6686
將來	-10.6686
百世	-10.6688
道之所以	-10.6694
者耳	-10.6697
又從而	-10.6698
二條	-10.6699
為士	-10.6704
其弊	-10.6705
初非	-10.6705
無君	-10.6707
正所謂	-10.671
則道	-10.6712
輯	-10.6712
鳳	-10.6713
鉤	-10.6716
不見諸侯	-10.6717
桓魋	-10.6718
亨	-10.6719
泯	-10.6719
紺	-10.6719
儻	-10.672
不可須臾離	-10.6721
大夫士	-10.6722
複	-10.6723
異於人	-10.6723
説者	-10.6727
或疑	-10.6728
其母	-10.673
亦能	-10.6732
其賢	-10.6739
受業	-10.6742
專主	-10.6743
其端	-10.6744
作樂	-10.6746
詩之	-10.6751
一鄉	-10.6752
而先	-10.6753
有仁	-10.6758
矣或問	-10.676
夏時	-10.6766
疑之	-10.6768
自覺	-10.6771
太師	-10.6771
誅之	-10.6773
為説	-10.6774
食也	-10.6776
自我	-10.6778
不過如此	-10.6779
立志	-10.6779
主君	-10.6779
文勢	-10.6781
普	-10.6792
四書脉曰	-10.6793
知本	-10.6794
不輕	-10.6795
悪	-10.6796
鄭𤣥	-10.6797
此豈	-10.68
百畆	-10.6801
皇皇	-10.6802
沼	-10.6803
所以成	-10.6806
無息	-10.6807
於衛	-10.6809
至是	-10.6822
精㣲	-10.6825
皆指	-10.6826
而告之	-10.6828
不問	-10.6831
後面	-10.6834
後學	-10.6839
周人	-10.6841
同然	-10.6845
天下平	-10.6852
固執	-10.6854
3	-10.6854
絜矩之道	-10.6856
十三章	-10.6858
是道	-10.6861
軒	-10.6861
謂性	-10.6861
霸者	-10.6862
鑑	-10.6864
千乗之國	-10.6866
焉而	-10.6866
天下歸仁	-10.6867
口氣	-10.6874
深切	-10.6874
八章	-10.6877
成湯	-10.6877
武王之	-10.6878
知其為	-10.6881
徒知	-10.6881
東陽許氏曰	-10.6885
不可離	-10.6885
不害其為	-10.6886
疏云	-10.6888
道之不行	-10.6896
匡章	-10.6897
始有	-10.6897
富而	-10.6898
世間	-10.6899
子禽	-10.6901
善不善	-10.6907
雖多	-10.691
無足	-10.6919
一息	-10.6921
便見得	-10.6926
孟子引	-10.6927
冉子	-10.6931
不可考	-10.6937
証	-10.6938
敘	-10.6939
惻	-10.694
無忌憚	-10.6941
天命之謂性	-10.6942
篤恭而天下平	-10.6943
正其心	-10.6945
紐	-10.6951
忿懥	-10.6951
有是理	-10.6952
弑君	-10.6954
死亡	-10.6954
所當止	-10.6955
所執	-10.6958
正義	-10.6959
勉強	-10.6961
矣且	-10.6964
因此	-10.6964
貢法	-10.6966
尚何	-10.6967
達徳	-10.6969
正義曰此	-10.6971
大人者	-10.6972
武帝	-10.6972
聖人之意	-10.6978
為禮	-10.698
夫子所以	-10.6985
處便	-10.699
一言而	-10.6994
罪人	-10.6995
小節	-10.6999
以義為	-10.7
正命	-10.7005
里仁	-10.7008
當然之則	-10.7008
斤	-10.7012
藐	-10.7014
立命	-10.7014
三公	-10.7018
欽	-10.7018
吐	-10.7021
則一也	-10.7022
不脩	-10.7023
變而	-10.7024
口腹	-10.7025
助法	-10.7025
淺近	-10.7026
則可謂	-10.7028
武仲	-10.7036
其迹	-10.7039
執圭	-10.7039
一種	-10.7041
還是	-10.7043
不願	-10.7046
愛物	-10.7052
學禮	-10.7055
通乎	-10.7056
不恱	-10.7057
門弟子	-10.7064
而不復	-10.7067
諸生	-10.707
曉得	-10.707
為王	-10.7071
也楊曰	-10.7072
字當	-10.7074
本原	-10.7085
其孰能	-10.7085
潜	-10.709
巨室	-10.7091
摩	-10.7092
厚齋馮氏曰	-10.7093
吁	-10.7093
闔	-10.7093
叟	-10.7093
敖	-10.7093
亦不得	-10.7094
酉	-10.7094
朱註	-10.7095
惻怛	-10.7097
物格知至	-10.7097
竊意	-10.7098
圗	-10.71
為上	-10.7102
惟知	-10.7103
無所用	-10.7107
恐非	-10.7112
所貴	-10.7113
一截	-10.7115
相通	-10.7119
推之則	-10.7121
恭儉	-10.7122
温故	-10.7123
明徳新民	-10.7125
漢儒	-10.7125
之喪	-10.7125
學易	-10.7126
亦可見矣	-10.7127
則將	-10.7128
丁音	-10.7128
審其	-10.7138
失之矣	-10.7141
國之君	-10.7141
要人	-10.7148
夫子之意	-10.7148
所以深	-10.7149
了又	-10.715
其所當	-10.7151
情也	-10.7153
得力	-10.7153
合義	-10.7155
此之謂也	-10.7155
取人	-10.7156
難言	-10.7156
斯道	-10.7161
繅	-10.7161
疇	-10.7165
在齊	-10.7166
不止於	-10.7168
績	-10.7169
腹	-10.7169
捐	-10.717
生之謂性	-10.717
麤	-10.7171
圉	-10.7173
斛	-10.7174
帷	-10.7175
撥	-10.7176
夫婦之	-10.7177
季路	-10.718
有别	-10.718
卷十	-10.718
伯夷伊尹	-10.7181
譖	-10.7183
非若	-10.7188
愛其	-10.7188
心無	-10.7199
孔子對曰	-10.7201
本作	-10.7201
之意則	-10.7201
以理	-10.7202
也苟	-10.7211
之端也	-10.7211
子文	-10.7212
主乎	-10.7214
只得	-10.7218
成也	-10.722
害也	-10.7227
不答	-10.7235
之疑	-10.7239
此以下	-10.724
白圭	-10.7246
肩	-10.7248
爰	-10.7249
祈	-10.7249
泛言	-10.725
之説曰程子	-10.7252
巢	-10.7252
致敬	-10.7253
十六章	-10.7254
穿窬	-10.7254
得其所	-10.7254
魯公	-10.7261
安在	-10.7263
時時	-10.7266
仲孫	-10.7267
豈無	-10.727
只重	-10.7271
父子兄弟	-10.7274
而言之則	-10.7276
無所不在	-10.7285
相須	-10.7289
知去聲	-10.729
之色	-10.729
足以知	-10.7293
儲子	-10.7296
一㸃	-10.7297
從此	-10.73
車馬	-10.73
二說	-10.7309
悦之	-10.7309
利而	-10.7315
情性	-10.7319
亡也	-10.7319
便不是	-10.7325
淺說	-10.7326
駟	-10.7326
膺	-10.7327
而不已	-10.7329
沉	-10.733
咨	-10.733
事實	-10.7331
注鄭曰	-10.7331
奕	-10.7332
惻隠之心	-10.7335
其本心	-10.7336
宣公	-10.7337
朕	-10.7339
商之	-10.7339
未有能	-10.7342
如此然	-10.7343
未免於	-10.7345
君父	-10.7348
朝夕	-10.7348
有甚於	-10.7349
尚未	-10.7352
字意	-10.7352
世俗之	-10.7353
難易	-10.736
深逺	-10.7366
三者皆	-10.7367
蓋其	-10.7368
五祀	-10.737
好貨	-10.7371
度之	-10.7373
祖考	-10.7375
中立	-10.7376
二意	-10.7378
之言而	-10.7379
想見	-10.738
弁	-10.738
天下之善	-10.7383
之甚也	-10.7384
有所不為	-10.7384
勉而	-10.7385
妄作	-10.7389
居上	-10.7389
其先	-10.7392
辭命	-10.7392
自省	-10.7393
之所及	-10.7401
而廢	-10.7401
雅頌	-10.7403
麗	-10.7404
沈無回曰	-10.7404
其爲	-10.7406
其要	-10.7406
仇	-10.7407
食音嗣	-10.7408
全無	-10.741
嚮	-10.741
自脩	-10.741
紊	-10.7411
拾	-10.7411
哉蓋	-10.7415
也范曰	-10.7415
不欺	-10.7417
因其所	-10.7423
充實	-10.7424
哉曰	-10.7425
人道之	-10.7427
伯牛	-10.7427
為主而	-10.7429
不賢	-10.7429
聖王	-10.743
芟二條	-10.7431
千乗	-10.7433
乆而	-10.7438
主敬	-10.7442
日進	-10.7442
其臣	-10.7443
可謂之	-10.7444
也昔	-10.7445
所安	-10.7447
而我	-10.7448
大率	-10.7448
箕	-10.7448
若謂	-10.7451
懿	-10.7452
偶然	-10.7456
原憲	-10.7458
未善	-10.7463
然必	-10.747
國語	-10.747
有五	-10.7473
齊衰	-10.7475
利仁	-10.7478
瑞	-10.7481
䕶	-10.7484
震	-10.7484
誕	-10.7485
戒謹恐懼	-10.7486
隐	-10.7486
蚤	-10.7487
魋	-10.7489
不曾	-10.7492
音洛	-10.7492
安知	-10.7499
老子	-10.7499
鄭玄	-10.7501
曰夫	-10.7502
每事	-10.7508
權衡	-10.751
因人	-10.7511
有所未	-10.7513
所長	-10.7522
太過	-10.7523
道德	-10.7524
都不	-10.7526
尊親	-10.7527
為用	-10.7532
周氏	-10.7533
衆理	-10.7535
邦家	-10.7537
篤行	-10.7538
註曰	-10.754
辭受	-10.7543
裁之	-10.7544
聖人之事	-10.7545
古人之	-10.7546
授受	-10.755
未到	-10.7552
之亂	-10.7553
宗建曰	-10.7556
百世之	-10.756
使知	-10.7561
他人之	-10.7561
荷蕢	-10.7563
態	-10.7565
尼	-10.7565
祭服	-10.7566
得民	-10.7566
不改其樂	-10.7566
戀	-10.7567
膳	-10.7569
卧	-10.7571
富貴貧賤	-10.7573
佛氏	-10.7578
之大者也	-10.7583
制之	-10.7585
無愧	-10.7586
多寡	-10.7589
警之	-10.7591
意謂	-10.7594
二十章	-10.7597
甚明	-10.7598
與上文	-10.7601
之意亦	-10.7604
公卿	-10.7604
能擇	-10.7605
甚大	-10.7605
乃知	-10.7607
無私心	-10.7609
期於	-10.761
何耶	-10.7611
學術	-10.7612
之念	-10.7612
自取	-10.7612
保民	-10.7612
之喻	-10.7613
以致其	-10.7614
以誠	-10.7619
所以然者	-10.7625
之當然	-10.7627
而改	-10.7628
並行	-10.7636
盡得	-10.7639
下民	-10.7639
事有	-10.764
安之	-10.7641
穿鑿	-10.7644
屈伸	-10.7645
偷	-10.7646
極於	-10.7647
黝	-10.7649
遣	-10.7651
政刑	-10.7651
其害	-10.7651
帝王之	-10.7653
相見	-10.7654
龜山	-10.7655
人品	-10.7655
凡民	-10.7657
何以言	-10.766
莊公	-10.766
但能	-10.766
孔子孔子	-10.7663
之説也	-10.7667
記曰	-10.7671
得聞	-10.7671
經界	-10.7672
而深	-10.7676
下大夫	-10.7681
如此者	-10.7683
昭王	-10.7684
有限	-10.7687
其書	-10.7691
畏之	-10.7692
時事	-10.7695
爾汝	-10.7697
遷善	-10.7698
有諸已	-10.7702
後漢	-10.7703
臣子	-10.7704
悠	-10.7706
其形	-10.771
佞人	-10.7711
却又	-10.7714
長上聲	-10.7716
無物	-10.7718
樣	-10.7723
匠	-10.7724
頼	-10.7726
挽	-10.7729
羊棗	-10.7729
跖	-10.7731
生生	-10.7733
吾之所	-10.7736
紳	-10.7737
弑其君	-10.7737
不均	-10.7738
學者所當	-10.7739
視朔	-10.774
三省	-10.7743
字之義	-10.7752
比於	-10.7753
召忽	-10.7753
流俗	-10.7758
名實	-10.7761
南北	-10.7762
輔氏曰此	-10.7764
什	-10.7766
八年	-10.7767
文理	-10.777
良知	-10.7774
既以	-10.7774
一作	-10.7775
不甚	-10.7775
時便	-10.7779
惡乎	-10.778
氣數	-10.7782
當先	-10.7782
深思	-10.7793
皆從	-10.7795
不可復	-10.7796
使天下	-10.7798
緝	-10.7801
何以為	-10.7801
屋廬子	-10.7803
花	-10.7807
譲	-10.7807
不好學	-10.7808
輟	-10.781
以忠	-10.781
顛倒	-10.781
褒	-10.7811
鑒	-10.7811
涵泳	-10.7811
攷證	-10.7812
治國平天下	-10.7813
史魚	-10.7816
哉然	-10.7819
再拜	-10.7819
責己	-10.7825
言志	-10.7826
而有天下	-10.7826
所作	-10.7827
程子之説	-10.7829
人惟	-10.783
治水	-10.7831
欲去	-10.7833
之罪也	-10.7833
無倦	-10.7835
或以為	-10.7839
為事	-10.7842
操存	-10.7847
足以盡	-10.785
者只是	-10.7851
薨	-10.7854
已是	-10.7855
外之	-10.7856
充其	-10.7857
功名	-10.7858
齊氏曰	-10.7861
之㑹	-10.7863
焉能	-10.7866
不遜	-10.7867
不自知其	-10.7875
北方	-10.7877
所可	-10.7878
臂	-10.7882
修其	-10.7886
数	-10.7887
所有	-10.7889
四時之	-10.7889
語録曰問	-10.7889
可及	-10.789
菑	-10.7891
關雎	-10.7892
曽㸃	-10.7893
豳	-10.7895
揚子	-10.7897
傳者	-10.7904
為樂	-10.7905
難於	-10.7906
身心	-10.7912
固然	-10.7912
辨其	-10.7914
事天	-10.7919
而已然	-10.792
詳見	-10.7921
沛然	-10.7922
不懼	-10.7923
其質	-10.7923
病也	-10.7925
立身	-10.7925
合一	-10.7925
貨財	-10.7926
喪服	-10.7929
十二月	-10.793
矣然則	-10.793
董	-10.794
賜之	-10.794
而起	-10.7941
以下皆	-10.7945
不精	-10.7945
南方	-10.795
是他	-10.7951
絶無	-10.7951
體道	-10.7953
勇者	-10.7953
之頃	-10.7955
兩箇	-10.7956
之正也	-10.7956
門之外	-10.7957
血氣之	-10.7958
二氣	-10.7961
凡三	-10.7962
正君	-10.7965
鬯	-10.797
椁	-10.7972
厄	-10.7973
洒	-10.7973
驗之	-10.7975
上去	-10.7976
四書家訓曰	-10.7976
贄	-10.7977
諛	-10.7977
奠	-10.7977
說文	-10.7977
糧	-10.7978
剖	-10.798
奸	-10.7981
揖遜	-10.7982
寐	-10.7983
彫	-10.7983
踐履	-10.7985
公綽	-10.7986
故可以	-10.7987
天道人道	-10.7989
射者	-10.799
則自然	-10.7992
上智	-10.7994
博文	-10.7996
太宗	-10.7997
所從	-10.7997
求放心	-10.7998
一例	-10.7999
明則	-10.7999
何足以	-10.7999
欲求	-10.8001
天地之心	-10.8008
與天地同	-10.801
常在	-10.8015
譏之	-10.8017
不以其道	-10.8017
之大小	-10.8024
賢否	-10.8025
由是而	-10.8026
屢空	-10.8028
唯其	-10.8028
馬融曰	-10.8033
失禮	-10.8035
為子	-10.804
致中和	-10.805
郵	-10.8051
不讓	-10.8051
漏	-10.8056
無可無不可	-10.8057
低	-10.8058
碎	-10.8058
梏	-10.8059
摇	-10.8059
甚麽	-10.8059
蚓	-10.806
縷	-10.8064
疑於	-10.807
横渠	-10.8071
而來	-10.808
用事	-10.8084
祖述	-10.8084
兄弟之	-10.809
學道	-10.8091
亦在其中	-10.8094
而未嘗	-10.8098
後進	-10.8105
乃謂	-10.8105
所向	-10.8107
差等	-10.8109
概	-10.8117
正如	-10.8119
故謂	-10.8122
再言	-10.8123
有功於	-10.8125
述之	-10.8126
之遺	-10.8126
反經	-10.8126
能得	-10.8128
寡欲	-10.8129
不諫	-10.8131
以仁為	-10.8131
李氏曰	-10.8137
冒	-10.8137
也此言	-10.814
熙	-10.814
道無	-10.8142
顓	-10.8142
疵	-10.8142
簒	-10.8144
視聽言動	-10.8145
競	-10.8147
無弊	-10.8147
奄	-10.8147
漆	-10.8147
脯	-10.8149
愆	-10.8151
今有	-10.8152
一變	-10.8153
姓名	-10.8158
十七	-10.8165
獨言	-10.8166
儼然	-10.8167
晏	-10.8167
難得	-10.8167
以全其	-10.8175
月令	-10.8177
過乎	-10.8178
東周	-10.8178
趙註	-10.8181
不聽	-10.8187
知其非	-10.8191
哀公問	-10.8194
邉	-10.8195
一念之	-10.8196
不驕	-10.8197
成公	-10.8201
不敢自	-10.8202
形而上者	-10.8202
自守	-10.8203
此蓋	-10.8205
苟無	-10.8208
於朝	-10.821
即在	-10.822
君子之學	-10.8221
河東	-10.8222
鬱	-10.8223
文武之	-10.8224
暑	-10.8225
齊桓	-10.8226
脈	-10.8229
另	-10.8231
豪傑	-10.8233
公冶長	-10.8235
從事	-10.8237
揭	-10.8237
先知	-10.824
逺人	-10.8247
凡物	-10.8248
都鄙	-10.8254
勉之	-10.8257
氣質之	-10.826
脩道	-10.826
古文	-10.8262
無心	-10.8263
而失之	-10.8265
時文	-10.827
至理	-10.8272
事長	-10.8274
夷之	-10.8278
志士	-10.8279
萬民	-10.8281
注疏	-10.8283
則爲	-10.8288
其為人也	-10.829
便要	-10.8291
不一	-10.8293
自天子	-10.8295
往而不	-10.8295
子曰吾	-10.8304
三樂	-10.8306
之於身	-10.8308
寇	-10.8309
隣	-10.8312
裔	-10.8314
臯	-10.8315
㝠	-10.8316
章這一章	-10.8316
攸	-10.8316
詆	-10.8316
公西華	-10.8317
亂臣賊子	-10.8317
無欲	-10.8318
頂	-10.8318
存者	-10.8319
輸	-10.832
永嘉陳氏曰	-10.8321
為父	-10.8321
氓	-10.8321
心中	-10.8322
之所至	-10.8323
共之	-10.8323
木鐸	-10.8323
者孟子言	-10.8325
如日月	-10.8325
他國	-10.8331
子罕	-10.8334
學而知	-10.8335
皆能	-10.8335
不同故	-10.8337
冨	-10.8338
謹之	-10.8343
矣况	-10.8345
善政	-10.8346
八音	-10.8346
天地之道	-10.8347
失其正	-10.8351
心之德	-10.8352
隱微	-10.8353
如顔子	-10.8359
男女	-10.8363
大倫	-10.8364
方千里	-10.8365
卷二	-10.8367
擯者	-10.8369
時雨	-10.8376
不見其	-10.8382
猶以為	-10.8383
須看	-10.8385
前面	-10.8389
今以	-10.8391
能盡其性	-10.8395
驥	-10.8396
張氏曰	-10.8397
其流	-10.8397
夏后氏	-10.8398
毫髪	-10.8398
坦	-10.8398
突	-10.8399
倪	-10.8399
吾聞	-10.84
儆	-10.8401
弼	-10.8402
事父	-10.8402
蒙引存疑	-10.8403
舊說	-10.8403
㡳	-10.8404
讀之	-10.8404
荀卿	-10.8405
毒	-10.8406
莫先於	-10.8407
級	-10.8408
苟能	-10.8409
衣食	-10.8411
朽	-10.8411
何由	-10.8412
叢説	-10.8412
無位	-10.8415
天地之性	-10.8416
和樂	-10.8419
立教	-10.8419
若是其	-10.842
為法	-10.842
申言	-10.8421
西伯	-10.8422
以喻	-10.8423
下士	-10.8423
以心	-10.8425
論孟	-10.8425
章集註	-10.8426
不待言	-10.8428
近道	-10.8429
小白	-10.8434
利欲	-10.8434
而不受	-10.8435
一身之	-10.8436
仁義之道	-10.8437
分上	-10.8438
請問	-10.8438
為學者	-10.8438
望其	-10.8439
兼言	-10.8439
本領	-10.844
不利	-10.8442
所取	-10.8444
勞之	-10.8444
天理流行	-10.8447
人倫之至	-10.8448
大行	-10.8448
為證	-10.845
行去聲	-10.8453
皆可以	-10.8454
感發	-10.846
無一毫之	-10.8463
燕居	-10.8469
二書	-10.8471
辭讓	-10.8471
天下有	-10.8478
正己	-10.8483
廷	-10.8484
《	-10.8486
》	-10.8486
支離	-10.8489
湛	-10.849
慙	-10.849
籩豆	-10.8491
無用	-10.8491
旌	-10.8491
見音現	-10.8491
顔路	-10.8492
覩	-10.8492
實事	-10.8493
也是故	-10.8494
養生	-10.8496
司冦	-10.8497
自然之理	-10.8497
孟孫	-10.8505
用舍	-10.8507
曰吾聞	-10.851
武成	-10.851
大全朱子	-10.8514
嘗聞	-10.8515
程子謂	-10.8516
難能	-10.8517
亦謂	-10.8518
又必	-10.852
蘇氏曰	-10.852
一是	-10.8521
何能	-10.8534
吾儒	-10.8534
浩	-10.8535
韓子	-10.8538
知之矣	-10.854
執事	-10.854
有志	-10.8544
也大抵	-10.8548
不可廢	-10.855
正言	-10.8552
不知其仁	-10.8558
二代	-10.8561
7	-10.8564
八家	-10.8564
理㑹得	-10.8566
互相	-10.8568
畏天	-10.8568
恰	-10.857
先君	-10.8573
弦	-10.8573
不能絜矩	-10.8574
倘	-10.8575
履祥	-10.8575
枯	-10.8575
組	-10.8578
光輝	-10.8578
反身而誠	-10.858
丙	-10.858
氷	-10.858
靖	-10.858
零	-10.8581
學問思辨	-10.8581
志道	-10.8583
癰	-10.8583
荷	-10.8586
謹於	-10.8587
生焉	-10.8594
皆以為	-10.8594
孔子之道	-10.8597
不可移	-10.8604
一向	-10.8606
頃	-10.8607
理財	-10.8614
來見	-10.8615
去齊	-10.8618
不離乎	-10.862
者也然	-10.8622
考其	-10.8624
若論	-10.8627
致知格物	-10.8629
知識	-10.863
二義	-10.8634
舎之	-10.8636
無一物	-10.8636
原是	-10.8637
盡己	-10.8638
不期	-10.8641
歟曰	-10.8642
洪氏曰	-10.8643
討論	-10.8646
敬信	-10.8647
於其中	-10.8647
亦嘗	-10.8651
季歴	-10.8658
亦得	-10.866
亢	-10.8662
漫	-10.8663
或不能	-10.8664
一家之	-10.8665
軫	-10.8665
橋	-10.8666
仲由	-10.8666
溝洫	-10.8667
未之有也	-10.8669
有不得	-10.8669
束脩	-10.8671
心廣體胖	-10.8671
易也	-10.8672
其詳	-10.8672
匱	-10.8673
真有	-10.8673
用之則	-10.8674
字更定次序	-10.8675
簞	-10.8677
麟士	-10.8679
粥	-10.868
求諸人	-10.868
在陳	-10.8683
㳺	-10.8685
惻隱之心	-10.8685
根於	-10.8687
約禮	-10.8689
也曰然則	-10.869
而後知	-10.8695
官名	-10.8698
之業	-10.8703
不勝其	-10.8705
敬字	-10.8707
不傳	-10.8708
以示人	-10.8711
仁聖	-10.8714
之意故	-10.8719
力量	-10.8721
也言人	-10.8724
篇首	-10.8725
禮文	-10.8726
萬世之	-10.8728
問孔子	-10.873
軻	-10.8731
只是要	-10.8732
無失	-10.8738
所損益	-10.8739
正當	-10.8744
叔齊	-10.8745
黻	-10.8749
豈不是	-10.875
讐	-10.8751
至若	-10.8753
是則所謂	-10.8754
翁	-10.8754
股	-10.8755
嬰	-10.8755
同異	-10.8757
後生	-10.8758
擴而充之	-10.8758
髠	-10.8759
穴	-10.8759
遏人欲	-10.876
障	-10.876
前定	-10.8761
抗	-10.8761
商鞅	-10.8762
具衆理	-10.8762
大而化之	-10.8762
應萬事	-10.8764
聖賢之心	-10.8764
貽	-10.8765
暴虐	-10.8765
不仁之人	-10.8767
不忍人之心	-10.8768
為智	-10.8769
夷惠	-10.8769
天意	-10.8772
無義	-10.8773
揖讓	-10.8779
與人為善	-10.8779
不愠	-10.878
宜其	-10.8781
何晏	-10.8785
三子者	-10.8785
獵較	-10.879
截然	-10.8792
誦詩	-10.8798
無恥	-10.8799
終是	-10.8801
四節	-10.8802
言此以	-10.8802
之為人	-10.8804
道不可離	-10.8805
方言	-10.8805
空空	-10.8805
中庸所謂	-10.8806
可食	-10.8808
天民	-10.8811
盡已	-10.8818
右以	-10.8819
祧	-10.882
而已哉	-10.8821
河南	-10.8822
而歸之	-10.8823
之象	-10.8824
衣裳	-10.8829
答問	-10.8837
磋	-10.884
羔	-10.884
矯揉	-10.884
各以其	-10.8841
忮	-10.8842
麥	-10.8846
觀聖人	-10.8846
復問	-10.8846
巧言令色	-10.8848
㳟	-10.8849
蠻	-10.8849
洪水	-10.885
偕	-10.885
不能忘	-10.885
烹	-10.885
驕吝	-10.8851
驕泰	-10.8851
女音汝	-10.8853
倉廩	-10.8854
衮	-10.8855
𦵏	-10.8855
與孔子	-10.8859
繪	-10.8859
所共由	-10.887
緇衣	-10.8871
使學者	-10.8872
盖謂	-10.8876
適齊	-10.8876
辨惑	-10.8879
之本心	-10.8881
同類	-10.8884
其目	-10.8886
須先	-10.8887
不篤	-10.8892
盖亦	-10.8894
行得	-10.8901
一叚	-10.8902
本㫖	-10.8904
不可謂之	-10.8905
鄉遂	-10.8907
不越	-10.8914
無所容	-10.8915
之説亦	-10.8917
亦通	-10.892
宜乎	-10.8921
卓然	-10.8921
宴	-10.8924
身體	-10.8925
害人	-10.8925
亦未必	-10.8926
乎蓋	-10.8926
紇	-10.8929
語辭	-10.8931
孟子乃	-10.8935
集疏曰	-10.8937
兩意	-10.8938
文之以禮樂	-10.8938
所共	-10.8939
叅	-10.8939
謚	-10.894
周家	-10.894
為季氏宰	-10.8941
孝友	-10.8941
企	-10.8941
訪	-10.8941
晝夜	-10.8942
研	-10.8942
就是	-10.8943
廩	-10.8943
掘	-10.8944
這道理	-10.8945
晚年	-10.8947
念念	-10.895
欽定四庫全書論語	-10.895
程氏	-10.895
言之耳	-10.8954
附於	-10.8955
有得於	-10.8962
此文	-10.8963
包得	-10.8966
由求	-10.8968
本根	-10.8972
故其言	-10.8978
隨之	-10.898
襄王	-10.8985
緊要	-10.8985
又能	-10.8993
於是乎	-10.8996
嗟	-10.9001
仁禮	-10.9001
也其曰	-10.9003
不妄	-10.9003
當從	-10.9008
西北	-10.9008
申明	-10.9009
哉夫	-10.9017
輔相	-10.9017
一致	-10.9021
未敢	-10.9021
袂	-10.9022
三歸	-10.9025
聽之	-10.9029
丈夫	-10.903
旗	-10.9031
眷	-10.9032
其聲	-10.9033
闡	-10.9033
怡怡	-10.9036
觶	-10.9039
透徹	-10.9039
辯之	-10.9042
封之	-10.9047
山林	-10.9049
丁云	-10.9055
必信	-10.9055
改本	-10.9057
干禄	-10.9057
何獨	-10.9057
心正	-10.9059
並耕	-10.9059
虚靈	-10.9062
同意	-10.9067
自勉	-10.9068
教他	-10.9069
王肅	-10.9076
衛侯	-10.9077
五音	-10.9079
之月	-10.908
猶曰	-10.9081
按史記	-10.9084
史記云	-10.9087
取諸	-10.9087
桮棬	-10.9088
勿施	-10.9088
超然	-10.9095
正位	-10.9097
他説	-10.9102
而莫之	-10.9102
地名	-10.9103
聖人之徳	-10.9108
節用	-10.9108
匠人	-10.9112
之言曰	-10.9113
自相	-10.9114
己也	-10.9114
憲問	-10.9115
趙岐	-10.9116
度量	-10.9117
知及之	-10.9119
冥	-10.9122
千乘之國	-10.9123
原壤	-10.9124
如好好色	-10.9124
沙	-10.9125
卽	-10.9126
了便	-10.913
淳于髠	-10.913
愉	-10.9131
絢	-10.9134
捷	-10.9135
誾誾	-10.9135
四海之内	-10.9136
抑亦	-10.9139
己之所	-10.9139
要在	-10.9139
篤恭	-10.9147
之極功	-10.9148
七字	-10.915
第二節	-10.9155
尊之	-10.9157
不違仁	-10.9159
真箇	-10.9162
前知	-10.9164
成名	-10.9165
總之	-10.9166
同歸	-10.917
安行	-10.9172
邢氏	-10.9173
尚可	-10.9175
欺人	-10.9178
不在於	-10.9178
如是之	-10.918
五月	-10.9181
克治	-10.9183
獻公	-10.9184
不可揜	-10.919
無不通	-10.9191
至今	-10.9191
言之矣	-10.9196
齊桓公	-10.9196
非我	-10.92
諸弟子	-10.9202
樂樂	-10.9203
而不察	-10.9207
輯釋亦引	-10.921
廓	-10.9213
他事	-10.9214
動也	-10.9214
亂世	-10.9214
近仁	-10.9216
茫	-10.9218
閔子騫	-10.9219
彝	-10.9219
西山真氏曰	-10.922
憫	-10.922
尺二寸	-10.9221
灼	-10.9222
溥	-10.9222
㢘	-10.9223
軰	-10.9223
子羔	-10.9224
古之君子	-10.923
孺悲	-10.923
兩件	-10.9233
轂	-10.9235
只以	-10.9236
専以	-10.9243
此身	-10.9243
南宫	-10.9244
改作	-10.9248
之功用	-10.9252
未成	-10.9253
顏子	-10.9254
師友	-10.9254
朱氏	-10.9258
采地	-10.9258
不可不知	-10.927
程子之意	-10.9275
字最	-10.928
坫	-10.9282
相連	-10.9286
之小者	-10.9288
井地	-10.9289
非真	-10.9294
孝經	-10.9296
持其志	-10.9298
志在	-10.93
恁	-10.9305
時節	-10.9305
亭	-10.9309
戕賊	-10.9311
莽	-10.9311
大師	-10.9311
字義	-10.9312
流而	-10.9313
大亂	-10.9314
逰	-10.9314
上聲下同	-10.9314
豹	-10.9315
知所先後	-10.9319
樊	-10.9321
涖	-10.9321
採	-10.9322
被其澤	-10.9323
書傳	-10.9324
等級	-10.9324
與民同	-10.9325
自私	-10.933
有窮	-10.9331
此性	-10.9336
怨慕	-10.9336
四寸	-10.9338
不踰	-10.9344
便當	-10.9348
當務	-10.9348
前聖	-10.9357
詳味	-10.9365
九字	-10.9365
何待	-10.9366
崇禮	-10.937
能絜矩	-10.9374
有是言	-10.9378
敬叔	-10.938
門人記	-10.9381
闢之	-10.9386
仁者人也	-10.9388
和順	-10.9393
非指	-10.9395
姑以	-10.9396
深衣	-10.9397
古語	-10.9399
要知	-10.94
大段	-10.9402
問孝	-10.9407
逞	-10.9409
物理	-10.9409
孳孳	-10.9412
頃刻	-10.9413
阼階	-10.9413
紛紛	-10.9414
脅	-10.9414
佑	-10.9415
修道	-10.9417
巫	-10.9417
三卿	-10.9417
吿子	-10.9419
明辨	-10.9421
不孤	-10.9421
侃侃	-10.9422
蔡氏	-10.9422
豈容	-10.9423
皆稱	-10.9426
號令	-10.9428
既言	-10.9429
長㓜	-10.9432
言仁義	-10.9434
武丁	-10.9434
便須	-10.9435
並言	-10.9437
願學	-10.9437
新安陳氏	-10.9442
心之用	-10.9454
與聖人	-10.9457
集解	-10.9458
都無	-10.9462
一名	-10.9462
器小	-10.9465
不敢當	-10.9466
十七年	-10.9469
只看	-10.947
位育	-10.9472
得位	-10.9476
判然	-10.9477
可據	-10.9483
親戚	-10.9484
耳豈	-10.9488
節謂	-10.9491
在外者	-10.9491
所謂道者	-10.9493
可不慎	-10.9501
十三年	-10.9502
君民	-10.9503
轅	-10.9503
姚	-10.9503
呂氏	-10.9504
張彥陵曰	-10.9504
愛無差等	-10.9505
李毅侯曰	-10.9506
宼	-10.9508
釡	-10.9508
有待於	-10.9508
上二句	-10.9509
之幾	-10.9509
現	-10.951
多學而識	-10.9511
勲	-10.9511
園	-10.9511
諸公	-10.9511
殃	-10.9511
囂囂	-10.9512
字不同	-10.9512
諧	-10.9513
繋	-10.9515
牡	-10.9517
乃所以為	-10.9524
棣	-10.9524
不足為	-10.9526
妾婦	-10.9527
韓曰	-10.9531
如矢	-10.9534
上看	-10.9539
五榖	-10.9541
求知	-10.9542
於此可見	-10.9546
空言	-10.9547
係於	-10.9553
限量	-10.9554
仁人之	-10.9556
至德	-10.9557
形於外	-10.9557
美惡	-10.9558
配天	-10.9566
六十四	-10.9566
上大夫	-10.9575
小小	-10.9579
未發之中	-10.9582
何益	-10.9593
釐	-10.9596
琴瑟	-10.9601
袁	-10.9602
渠	-10.9603
中央	-10.9605
不可使	-10.9605
硬	-10.9606
所不欲	-10.9607
佛肸	-10.9607
疚	-10.9607
安百姓	-10.9608
楊朱	-10.9608
應之曰	-10.9608
蕩蕩	-10.9608
訒	-10.9609
不亦宜乎	-10.961
糞	-10.9611
乎然則	-10.9611
七十二	-10.9612
界限	-10.9612
四肢	-10.9614
無暴其氣	-10.9615
未盡善	-10.9615
天地之化育	-10.9616
見夫子	-10.9618
可得聞	-10.9618
孔文子	-10.9618
貴貴	-10.9619
行藏	-10.9624
寡過	-10.9627
弗能	-10.9635
其病	-10.9646
之具	-10.9647
譬則	-10.965
章末	-10.9652
於心而	-10.9654
三仁	-10.9655
堯舜禹	-10.9655
文勝	-10.9655
其法	-10.966
然後有以	-10.9662
欲殺	-10.9663
不佞	-10.9666
天之命	-10.9668
四者皆	-10.9669
受田	-10.9669
學不厭	-10.9671
心有所	-10.9672
此其所以為	-10.9674
地方	-10.9682
務外	-10.9682
九百	-10.9685
上篇	-10.9692
往見	-10.9696
親其親	-10.9697
䏻	-10.97
紾	-10.9703
状	-10.9703
如惡惡臭	-10.9703
靠	-10.9703
鴻	-10.9704
彛	-10.9704
真實無妄	-10.9705
麋	-10.9705
黙而識之	-10.9707
何異	-10.9707
夸	-10.9708
煞	-10.9708
藏於	-10.9708
怵惕	-10.9709
槁	-10.971
依舊	-10.971
丕	-10.9711
不雜	-10.9712
械	-10.9713
精義入神	-10.9713
子敖	-10.9714
之不齊	-10.9714
蹙	-10.9715
形而下者	-10.9716
明堂位	-10.9716
矣而又	-10.9716
繡	-10.9717
吴	-10.9718
而不去	-10.9721
假借	-10.9722
夫如是	-10.9724
三重	-10.9725
養志	-10.9731
論之則	-10.9731
其禍	-10.9738
推原	-10.9738
知人之	-10.9739
程子以為	-10.974
果有	-10.974
養民	-10.974
動作	-10.9759
樂記	-10.976
通達	-10.9764
三十年	-10.9765
或云	-10.9766
馬融	-10.9767
這是	-10.977
不肖者	-10.9771
如何是	-10.9772
道之體	-10.9774
敬止	-10.9775
四事	-10.9778
從來	-10.978
之水	-10.9782
性中	-10.9784
否則	-10.9786
聖徳	-10.9789
中和之	-10.979
有所得	-10.9792
所以異於	-10.9795
範	-10.9796
板	-10.9798
赧	-10.98
未𤼵	-10.9802
極至	-10.9803
云子曰云云者	-10.9804
而不可得	-10.9804
蒸	-10.9804
咈	-10.9805
而進之	-10.9805
㧞	-10.9805
督	-10.9805
裂	-10.9806
䕫	-10.9808
天地生物之心	-10.9808
網	-10.9808
廪	-10.9808
筵	-10.9808
虎豹	-10.9809
庳	-10.9809
夫子答	-10.981
旦晝	-10.9811
可惡	-10.9811
禹貢	-10.9811
戚戚	-10.9811
欲罷不能	-10.9812
賀孫	-10.9812
有所不能	-10.9816
渴	-10.9816
老彭	-10.9816
提起	-10.9819
延平	-10.9819
天下之達道	-10.9821
晉侯	-10.9826
歎曰	-10.9829
天下之心	-10.9829
八尺	-10.9831
事之宜	-10.9839
水土	-10.984
公卿大夫	-10.9847
陳良	-10.9847
心思	-10.9853
所愛	-10.9857
中人	-10.9857
未學	-10.986
推明	-10.9863
知其不可	-10.9866
修徳	-10.9868
分量	-10.9869
莊周	-10.9876
十四章	-10.9879
大成	-10.9879
性相近	-10.9879
本來	-10.9888
愛惡	-10.9891
蒙引謂	-10.9894
獵	-10.9896
為堯舜	-10.9899
噲	-10.9902
各因其	-10.9902
桐	-10.9903
絺	-10.9905
鼓瑟	-10.9907
折衷	-10.9907
良知良能	-10.9907
欒	-10.9907
倡	-10.9911
不能勝	-10.9913
有先後	-10.9913
覽	-10.9913
自暴自棄	-10.9914
禮之本	-10.9917
旬	-10.9918
當於理	-10.9922
極其至	-10.9924
要看	-10.9925
畿内	-10.9925
墨氏	-10.9926
齊宣	-10.9927
前輩	-10.9929
竭力	-10.993
三黜	-10.9931
仁賢	-10.9932
懿子	-10.9939
己私	-10.9943
所不當	-10.9943
音烏	-10.9946
不相似	-10.9948
禮器	-10.9949
其是非	-10.995
復其初	-10.995
侯伯	-10.995
舊本	-10.9952
於陵	-10.9954
正指	-10.9956
公山	-10.9959
亦未嘗不	-10.9964
如此若	-10.9964
何患	-10.9965
賤者	-10.9967
皆言	-10.9969
著見	-10.9971
聖人之教	-10.9974
要君	-10.9976
三聖	-10.9978
為仁之本	-10.9985
祠	-11
驂	-11.0001
戊	-11.0001
棠	-11.0004
精一	-11.0004
能養	-11.0006
薦之	-11.0006
馬氏	-11.0008
敺	-11.001
東方	-11.0011
□	-11.0012
瑩	-11.0012
骸	-11.0013
怠惰	-11.0013
戌	-11.0013
通鑑	-11.0015
佛老	-11.0015
賓客	-11.0016
莘	-11.0016
世臣	-11.0018
宗族	-11.0019
畒	-11.0022
求道	-11.0024
踐形	-11.0025
視天下	-11.0027
圭田	-11.0028
萬古	-11.0028
舍上聲	-11.0029
恥辱	-11.0036
首篇	-11.0036
夏殷	-11.0041
各異	-11.0043
以是而	-11.0051
至於如此	-11.0055
得罪	-11.0058
而後行	-11.006
博施	-11.0064
天下之大本	-11.0064
司空	-11.0067
今之諸侯	-11.0068
崇徳	-11.007
示人	-11.0073
行怪	-11.0075
賓主	-11.0079
吳氏	-11.0086
文武之道	-11.0087
國之政	-11.0089
二國	-11.0091
去了	-11.0091
所禀	-11.0092
妙用	-11.0093
人所同	-11.0095
語氣	-11.0098
聖人教人	-11.0101
正相反	-11.0102
祔	-11.0102
安樂	-11.0104
蔬	-11.0104
腥	-11.011
究竟	-11.011
衞靈公	-11.011
妥	-11.011
彭	-11.011
慚	-11.0111
傍	-11.0112
啻	-11.0112
宛	-11.0112
印	-11.0113
故下文	-11.0114
獧	-11.0114
釜	-11.0114
傑	-11.0115
怯	-11.0117
誨人不倦	-11.0117
彭更	-11.0117
浸	-11.0118
鼓舞	-11.0118
先務	-11.012
孝乎	-11.0121
幽厲	-11.0122
得這	-11.0125
萬變	-11.0129
人皆知	-11.0132
篇云	-11.0132
愼獨	-11.0132
做去	-11.0133
是一箇	-11.0136
不能及	-11.0139
在家	-11.0142
吾何	-11.0144
出来	-11.0144
道中庸	-11.0144
摯	-11.0146
理義之	-11.0149
也翼註曰	-11.0153
因時	-11.0154
斯須	-11.0155
荘子	-11.0156
以實之	-11.0158
張氏	-11.0164
權度	-11.0166
之名也	-11.0167
豈知	-11.0169
大路	-11.0169
則庶乎	-11.0179
行簡	-11.0182
故朱子	-11.0184
不中節	-11.0187
十六年	-11.0187
衛大夫	-11.0188
𦂳	-11.0195
外朝	-11.0197
此一事	-11.0203
悠乆	-11.0204
塾	-11.0207
効	-11.0213
渡	-11.0216
必將	-11.0217
揚雄	-11.0218
佾	-11.0218
鎮	-11.0218
不逮	-11.0218
誄	-11.0219
恪	-11.022
從容中道	-11.0221
毋自欺	-11.0222
雕	-11.0222
太公望	-11.0222
便是仁	-11.0223
半塗而廢	-11.0223
萃	-11.0223
考工記	-11.0224
梏亡	-11.0224
切磋	-11.0227
卓爾	-11.0227
文仲	-11.0233
稱王	-11.0235
賢君	-11.0244
亦謂之	-11.0249
足以見	-11.025
禮貌	-11.0251
其蔽	-11.0253
武伯	-11.0254
真能	-11.0255
太平	-11.0255
終不能	-11.0258
何以能	-11.026
封於	-11.0263
之禮也	-11.027
盛時	-11.0275
此可見	-11.0276
無憂	-11.0284
亦似	-11.0287
師摯	-11.0288
務實	-11.0291
不謂之	-11.0295
助祭	-11.0297
而不求	-11.0302
未嘗無	-11.0303
性之善	-11.0305
要當	-11.0305
卒章	-11.0307
存誠	-11.0308
切磋琢磨	-11.0314
不踰矩	-11.0315
鑽	-11.0316
揣	-11.0318
鞭	-11.0318
爼	-11.0319
纁	-11.032
粉	-11.032
㤗	-11.0321
贈	-11.0321
熄	-11.0322
干戈	-11.0322
文集	-11.0323
欠缺	-11.0323
郊特牲	-11.0325
收斂	-11.0325
軍旅	-11.0325
孔子嘗	-11.0325
逼	-11.0326
㦸	-11.0326
必有事焉	-11.0326
疽	-11.0326
紀綱	-11.0327
口之於味	-11.0327
蹶	-11.0327
府庫	-11.0327
俞	-11.0328
本諸身	-11.0329
到底	-11.033
利口	-11.033
林放	-11.0331
詩小雅	-11.0335
何物	-11.0345
只當	-11.0347
安宅	-11.0349
何人	-11.0353
能如是	-11.0357
者莫如	-11.036
指出	-11.0365
宋人	-11.0365
得之於	-11.0367
之極致	-11.0367
上擯	-11.037
大人之事	-11.0371
天理之公	-11.0372
鄭注	-11.0375
乃欲	-11.0378
無待於	-11.0382
報之	-11.0387
屑	-11.0391
隨其所	-11.0391
進學	-11.0392
有位	-11.0398
主皮	-11.0404
此一段	-11.0408
無迹	-11.0408
6	-11.0408
綽	-11.0412
最是	-11.0416
有形	-11.0416
奉養	-11.0419
為人所	-11.0421
𤓰	-11.0426
瓜	-11.0427
串	-11.0427
毫髮	-11.0427
中人以上	-11.0428
銖	-11.0428
拙	-11.0428
戒慎恐懼	-11.0429
删	-11.0429
勿忘勿助	-11.0429
禮儀	-11.043
稻	-11.0431
未備	-11.0431
明明徳於天下	-11.0432
大約	-11.0432
徂	-11.0433
翔	-11.0433
栽	-11.0433
司寇	-11.0434
致其知	-11.0434
道不逺人	-11.0436
葉氏曰	-11.0436
諍	-11.0438
五句	-11.0439
化民	-11.0443
轉移	-11.0444
十月	-11.0445
曾西	-11.0447
升降	-11.0448
由此觀之	-11.0448
追王	-11.0449
昭然	-11.0453
入德	-11.0455
和平	-11.0463
二語	-11.0463
天下歸之	-11.0468
爵禄	-11.0469
士君子	-11.0469
左傳云	-11.0471
道之用	-11.0471
只是箇	-11.0472
依仁	-11.0474
古註	-11.0481
心之體	-11.0486
仁義之心	-11.0486
常情	-11.0487
豈特	-11.0494
格致	-11.0503
勃	-11.0504
無憾	-11.0506
誠意章	-11.0507
法制	-11.0511
懼其	-11.0515
㣲子	-11.052
四夷	-11.0521
員	-11.0522
持志	-11.0524
不出乎	-11.0526
淑	-11.0528
與下文	-11.0529
此兩句	-11.053
進賢	-11.053
慰	-11.0531
纂	-11.0531
饜	-11.0532
扉	-11.0534
癸	-11.0534
适	-11.0535
錮	-11.0537
鑄	-11.0537
施之於	-11.0538
僥倖	-11.0539
公叔文子	-11.0539
匹夫匹婦	-11.0539
時措之宜	-11.0539
陳臻	-11.0539
樸	-11.054
硜硜	-11.0541
訐	-11.0541
季文子	-11.0541
正心誠意	-11.0543
己意	-11.0546
堂堂	-11.0547
譏其	-11.0548
纂疏	-11.0549
八百	-11.0551
衆人之所	-11.056
戰國時	-11.0562
相表裏	-11.0563
費隱	-11.0564
仁人心也	-11.0564
有些	-11.0566
七月	-11.057
和氣	-11.0574
未逹	-11.0577
加焉	-11.058
賢不肖	-11.0585
喪祭	-11.0585
政令	-11.0585
象山	-11.0596
寡矣	-11.0603
行義	-11.0607
髙宗	-11.061
有此理	-11.0621
又安得	-11.0621
天下之人皆	-11.0628
仁者之心	-11.0629
得民心	-11.0629
有偏	-11.0634
入大學	-11.0634
如此看	-11.0634
眸子	-11.0637
禮法	-11.0638
未免有	-11.064
上蔡	-11.064
旂	-11.0641
冢宰	-11.0641
頴	-11.0641
醇	-11.0642
釣	-11.0643
辦	-11.0644
多識	-11.0644
犧牲	-11.0644
依乎中庸	-11.0644
下學上達	-11.0644
冺	-11.0646
此謂知本	-11.0646
卒子	-11.0648
句踐	-11.0649
騂	-11.0649
壺	-11.065
丹朱	-11.065
浮海	-11.0651
喬	-11.0651
渇	-11.0651
凢	-11.0652
有不同者	-11.0658
勉齋	-11.0661
力不足	-11.0662
愚意	-11.0665
黎民	-11.067
有善惡	-11.0679
生理	-11.0685
元氣	-11.0686
得箇	-11.0689
何如耳	-11.069
以徳言	-11.0693
特舉	-11.0694
十九章	-11.0697
取法	-11.0699
三十六	-11.0699
天吏	-11.0699
陸氏	-11.0703
養心	-11.0706
提出	-11.0706
讓國	-11.0706
相稱	-11.0714
分明是	-11.0715
乎其間	-11.0721
日日	-11.0721
抵	-11.0724
先王之法	-11.073
耳順	-11.0733
用兵	-11.0733
亦必有	-11.0739
只作	-11.0742
問之曰	-11.0742
大功	-11.0742
刋	-11.0745
少間	-11.0746
巨	-11.0746
恝	-11.0748
黎	-11.0748
活潑潑地	-11.0753
誠者天之道	-11.0753
贅	-11.0754
祇	-11.0754
僞	-11.0754
喚做	-11.0755
觳觫	-11.0757
好仁者	-11.0758
波	-11.0759
錘	-11.0759
浪	-11.076
苟得	-11.076
你	-11.0764
簣	-11.0765
劣	-11.0765
其所守	-11.0773
人之常情	-11.0773
居喪	-11.0774
雍容	-11.0776
循循	-11.0777
覆載	-11.0778
只因	-11.078
周徧	-11.0781
公羊傳	-11.0786
武王周公	-11.0787
俟命	-11.079
陳恒	-11.079
聲容	-11.0793
未仁	-11.0798
有所不知	-11.0801
既往	-11.0804
之子也	-11.0805
入道	-11.0809
天下無道	-11.0811
存天理	-11.0813
芟三條减	-11.0814
又加	-11.082
部	-11.0822
以告之	-11.0822
無間斷	-11.0824
罕	-11.0824
變易	-11.0826
必因	-11.0829
何者為	-11.0834
情狀	-11.0838
叢	-11.084
斯道之	-11.0841
章尹曰	-11.0841
無有不	-11.0849
十八章	-11.085
4	-11.0852
大雅	-11.0852
因論	-11.0856
轡	-11.0859
墨翟	-11.0859
膰	-11.0861
拳拳	-11.0861
漠	-11.0862
涕	-11.0862
稼穡	-11.0864
闗雎	-11.0864
不偏不倚	-11.0864
三綱五常	-11.0866
不祥	-11.0866
樓	-11.0867
夫子既	-11.0868
坎	-11.0868
所稟	-11.0868
呉因之曰	-11.0869
武王伐紂	-11.0869
索隠	-11.087
子聞之曰	-11.0871
綿	-11.0871
忠臣	-11.0871
所過者化	-11.0873
絳	-11.0873
時勢	-11.0874
明德新民	-11.0874
之中又	-11.0875
譬喻	-11.0876
再問	-11.0877
也故君子	-11.0887
𦂳要	-11.0891
謂何曰	-11.0894
邑宰	-11.09
有所未盡	-11.0906
九州	-11.0913
說到	-11.0915
之旨	-11.0917
萬物之理	-11.0919
天地之氣	-11.0933
鮮能	-11.0934
我之所	-11.0937
不可奪	-11.0941
田里	-11.0945
好名	-11.0951
不豫	-11.0951
洞然	-11.0954
又恐	-11.0958
十九年	-11.096
高下	-11.0962
原思	-11.0966
者正以	-11.0967
深味	-11.0971
在上者	-11.0972
舜之心	-11.0972
詣	-11.0974
豈若	-11.0976
蔵	-11.0976
詢	-11.0978
赫	-11.098
慎其獨	-11.098
塊	-11.098
詭遇	-11.098
濵	-11.098
篡	-11.098
涼	-11.0981
泰誓	-11.0981
春秋時	-11.0982
認得	-11.0982
寗武子	-11.0982
巷	-11.0983
動容周旋	-11.0983
溝壑	-11.0985
陳亢	-11.0985
獨立	-11.0986
繳	-11.0987
力不足者	-11.0989
曹交	-11.099
弋	-11.0991
期月	-11.0991
夏后	-11.0993
合為一	-11.0994
性之所有	-11.0998
陳仲子	-11.0998
亦猶是也	-11.1001
堂下	-11.1002
人之所欲	-11.1004
適衛	-11.1011
不消	-11.1016
伐紂	-11.102
他求	-11.1024
通曰集註	-11.1026
隨處	-11.1031
甚多	-11.1037
六月	-11.1038
有未盡	-11.1046
廣居	-11.1051
章此章	-11.1063
不絶	-11.1065
闇然	-11.1068
豈獨	-11.1069
句句	-11.1071
王氏	-11.1071
小道	-11.1073
此三句	-11.108
誠意正心	-11.108
遯	-11.1081
騶	-11.1081
枕	-11.1082
惜其	-11.1083
嶽	-11.1087
僩	-11.1087
伏羲	-11.1088
換	-11.1088
三尺	-11.1088
蹠	-11.1088
賁	-11.1089
阜	-11.1092
侗	-11.1093
日月至焉	-11.1093
餂	-11.1093
膾	-11.1094
無父無君	-11.1095
鐵	-11.1095
垢	-11.1096
管晏	-11.1096
夏禮	-11.1097
擊磬	-11.1098
優優	-11.1098
為民父母	-11.1099
盡心知性	-11.1099
弗擾	-11.1102
剛毅	-11.1103
忽然	-11.1103
無傷	-11.111
治其國	-11.1113
五寸	-11.1113
其機	-11.1114
形迹	-11.1116
十有二	-11.1117
兼知行	-11.1117
困窮	-11.1117
六律	-11.1119
二十四	-11.1123
四世	-11.1123
致和	-11.1125
博約	-11.1126
性之徳	-11.1137
善心	-11.1139
泛説	-11.114
聖王之	-11.114
勿忘	-11.1141
周衰	-11.1141
不得其死	-11.1142
雜記	-11.1143
習俗	-11.1147
以此觀之	-11.1152
竊謂	-11.116
大受	-11.1161
那裏	-11.1161
有言曰	-11.1164
五等	-11.1165
未暇	-11.1169
孰不	-11.1171
温公	-11.1182
所自出	-11.1183
北海	-11.1183
怍	-11.1191
君賜	-11.1191
所性	-11.1193
文帝	-11.1194
鳶魚	-11.1199
促	-11.12
鳶飛魚躍	-11.1202
函	-11.1203
三等	-11.1203
牟	-11.1204
合於義	-11.1204
酬酢	-11.1204
帝堯	-11.1206
淇澳	-11.1206
章諸生	-11.1206
至大至剛	-11.1209
斧斤	-11.1209
苑	-11.1209
僴	-11.1209
曰諸説如何曰	-11.1211
奇	-11.1211
距心	-11.1212
牀	-11.1215
應對	-11.1215
六寸	-11.122
太史	-11.1221
容易	-11.1229
不合於	-11.123
千載	-11.1235
奔齊	-11.1241
致廣大	-11.1244
何敢	-11.1244
道學	-11.1245
一步	-11.1246
相關	-11.1248
所造	-11.125
趨於	-11.125
上介	-11.1252
其良心	-11.1265
未之見	-11.1272
不能自已	-11.1284
其所以然者	-11.1286
齊楚	-11.1293
而况於	-11.1295
行險	-11.1298
一則曰	-11.1302
守死	-11.1315
祐	-11.1315
午	-11.1317
內	-11.1318
陟	-11.1318
㓗	-11.1319
纎	-11.132
所繫	-11.1321
樊遲問仁	-11.1324
邢昺	-11.1324
絶糧	-11.1324
磷	-11.1324
十一月	-11.1325
他書	-11.1327
不忍人之政	-11.1327
俎	-11.1329
穆穆	-11.1329
私覿	-11.133
揠	-11.133
無敵於天下	-11.133
渭按	-11.133
褐	-11.133
雙峯	-11.1331
斧	-11.1331
匏	-11.1332
稱堯舜	-11.1333
孔悝	-11.1334
惟恐其	-11.1336
這般	-11.1338
六國	-11.1339
不容己	-11.1339
的意思	-11.134
求利	-11.1343
専指	-11.1346
得其要	-11.1346
曽西	-11.1346
當時諸侯	-11.1347
自謙	-11.1349
章甫	-11.135
方寸	-11.1353
者心之	-11.1355
瞽者	-11.1355
出於天	-11.1359
聖人之所以	-11.1367
一部	-11.1368
存疑謂	-11.1373
墮於	-11.1384
三月不違	-11.1401
切近	-11.1404
盡力	-11.1404
通上下	-11.1409
復扶又反	-11.141
四科	-11.141
之基	-11.1412
不有天下	-11.1414
一己之	-11.1417
均平	-11.1419
可樂	-11.1422
四代	-11.1427
䆒	-11.1432
袍	-11.1433
阨	-11.1433
有國者	-11.1433
緼	-11.1434
駢	-11.1435
以知言	-11.1436
逄	-11.1436
修已	-11.1436
悱	-11.1437
弄	-11.1437
饔	-11.1438
棲	-11.1439
弈	-11.144
慍	-11.1441
秉彛	-11.1443
鞅	-11.1443
公孫丑問曰	-11.1443
嬴	-11.1443
衷	-11.1443
從心所欲不踰矩	-11.1444
循環	-11.1445
和而不流	-11.1445
隋	-11.1445
碩	-11.1445
縓	-11.1446
仔細	-11.1447
七寸	-11.1448
籥	-11.1448
苞	-11.1449
丘陵	-11.1449
梁恵王	-11.145
孟施舍	-11.1453
朝覲	-11.1454
無適而非	-11.1455
瓢	-11.1456
可欺	-11.1458
念頭	-11.146
下二句	-11.1461
者鮮矣	-11.1462
未可知也	-11.1462
有人於此	-11.1463
這個	-11.1467
惡不仁者	-11.147
宗伯	-11.1476
盛衰	-11.1477
節節	-11.1478
高逺	-11.1479
度數	-11.148
倣此	-11.148
畏天命	-11.1485
身修	-11.1492
可以觀	-11.1492
路門	-11.1492
德性	-11.1495
詩傳	-11.1513
不能改	-11.1528
無恒	-11.1532
二十六章	-11.1535
博士	-11.1538
數語	-11.154
造道	-11.1541
鄭云	-11.1549
鳶	-11.1551
豈徒	-11.1555
於義理	-11.1555
俑	-11.1557
盎	-11.1557
孩提	-11.1558
霜	-11.1558
抽	-11.1559
鶴	-11.1559
湍水	-11.1559
諉	-11.156
挈	-11.156
肇	-11.156
家國天下	-11.156
安貧	-11.1562
寤	-11.1562
晨門	-11.1563
不誠無物	-11.1563
孟施舎	-11.1564
嘐嘐	-11.1564
莩	-11.1565
拯	-11.1566
而不至於	-11.1566
額	-11.1568
内省不疚	-11.1572
封疆	-11.1572
甲兵	-11.1574
學焉	-11.1574
春秋之時	-11.1577
簞食	-11.1577
第三節	-11.1581
諸説皆	-11.1582
盛大	-11.1584
先後之序	-11.1584
自然而然	-11.1585
二南	-11.1588
萬乗	-11.1593
果敢	-11.1594
縱横	-11.1606
何嘗不	-11.1608
雨露	-11.1613
五典	-11.1616
沈同	-11.1621
正路	-11.1621
消長	-11.163
其詞	-11.1634
顏	-11.1635
相親	-11.1638
示人以	-11.1645
奈	-11.1646
不可不察	-11.1646
之一端	-11.1653
先之以	-11.1654
之藴	-11.1656
質直	-11.166
誨人	-11.1669
晋	-11.1669
旄	-11.1671
亦自有	-11.1672
善矣然	-11.1674
致中	-11.1675
等語	-11.1675
汪	-11.1676
威而不猛	-11.1677
產	-11.1677
率性之謂道	-11.1678
坊	-11.1678
白虎通	-11.1679
巡	-11.1679
番	-11.1679
榮辱	-11.168
貫革	-11.1681
極好	-11.1681
替	-11.1681
濱	-11.1681
籠	-11.1682
贍	-11.1683
不告而娶	-11.1684
齊家治國平天下	-11.1685
公明儀	-11.1686
管蔡	-11.1686
仁之體	-11.1687
鄭玄曰	-11.1687
反坫	-11.1688
澮	-11.169
蕢	-11.169
斯世	-11.169
騖	-11.1691
倩	-11.1691
事事皆	-11.1693
小弁	-11.1698
何以知	-11.1708
執御	-11.1714
王良	-11.1715
將何以	-11.1724
未及乎	-11.1725
出門	-11.1728
有之矣	-11.1733
光景	-11.1734
㸔來	-11.1735
凡此皆	-11.1751
後儒	-11.1755
北極	-11.1768
之用也	-11.177
小雅	-11.1783
天下之公	-11.1785
所能及	-11.1788
苛	-11.1796
畎	-11.1798
人所易	-11.18
遮	-11.18
艮	-11.1801
汶	-11.1801
誠者物之終始	-11.1801
凌	-11.1803
眩	-11.1803
爽	-11.1804
南宫适	-11.1804
腔	-11.1805
群	-11.1805
燔	-11.1805
恒心	-11.1806
聰明睿知	-11.1806
珍	-11.1806
場	-11.1807
食肉	-11.1807
冡宰	-11.1807
栁下恵	-11.1808
賚	-11.1808
斯可矣	-11.1809
物有本末	-11.1809
輯釋	-11.1809
孟之反	-11.1813
為人子者	-11.1813
廣狹	-11.1814
過了	-11.1815
正色	-11.1816
無所歸	-11.1817
三百篇	-11.1822
無一息之	-11.1829
放逸	-11.183
九月	-11.1833
如水之	-11.1834
不誠則	-11.1837
脩其身	-11.1838
十六字	-11.1838
賊害	-11.1838
窮達	-11.1848
顔氏	-11.1848
終食	-11.1849
大丈夫	-11.185
可與權	-11.1851
今之世	-11.1853
嗟乎	-11.1853
郷人	-11.1853
許多道理	-11.1854
誰與	-11.1855
隠微	-11.186
不辱	-11.186
漸漸	-11.1861
三讓	-11.1864
不若人	-11.1866
其輕重	-11.1866
减二十	-11.187
豈必	-11.1872
應接	-11.1884
近似	-11.1894
讀作	-11.1894
不勉而中	-11.1896
喜怒哀樂之	-11.1898
老氏	-11.1902
只説得	-11.1905
田賦	-11.1906
無疆	-11.1907
以氣言	-11.1908
受教	-11.1909
以位言	-11.1918
克復	-11.1918
恂慄	-11.1919
蛇	-11.1919
蠻貊	-11.192
韠	-11.1921
城郭	-11.1921
洫	-11.1921
憤悱	-11.1922
忤	-11.1923
澆	-11.1923
臼	-11.1924
優游	-11.1924
乖戾	-11.1924
配義與道	-11.1924
天地位萬物育	-11.1925
禰	-11.1925
喭	-11.1926
誠意正心修身	-11.1927
人物之生	-11.1927
禮之實	-11.1928
爛	-11.1929
易地則皆然	-11.1929
俾	-11.1929
中人以下	-11.193
蠶	-11.193
為人臣者	-11.1936
違道不逺	-11.1937
遯世	-11.1937
隂陽五行	-11.1937
宁	-11.1937
戰國之時	-11.1938
取其一	-11.1941
禮運	-11.1945
可貴	-11.1953
之過也	-11.1953
天子之事	-11.1956
有闕文	-11.1956
不曉	-11.1957
為桮棬	-11.1959
着力	-11.1964
細微	-11.1966
靈公問陳	-11.1966
虚心	-11.1966
為己任	-11.1972
逹道	-11.1974
疑惑	-11.1977
兼内外	-11.1978
分貼	-11.1978
發動	-11.1981
所以為仁	-11.1982
毎事	-11.1985
由是觀之	-11.1986
孔子稱	-11.1991
闕文	-11.1991
邢	-11.2
衣冠	-11.2001
無不正	-11.2009
不侮	-11.2009
沛	-11.201
矣又何	-11.2015
質美	-11.2025
合宜	-11.2027
察識	-11.2029
受禄	-11.2029
8	-11.2031
横逆	-11.2033
聖賢之言	-11.2034
『	-11.2042
仆	-11.2042
監本訛	-11.2046
遥	-11.2046
今改正	-11.2047
毀	-11.2047
潘	-11.2049
犯而不校	-11.2049
誼	-11.205
今觀	-11.205
凛	-11.2051
從兄	-11.2051
此謂知之至也	-11.2052
鄭康成	-11.2053
維持	-11.2054
扞	-11.2055
不憂不懼	-11.2055
犂	-11.2055
康叔	-11.2056
翻	-11.2056
發政施仁	-11.2056
奡	-11.2057
此夫子所以	-11.2058
詩書禮樂	-11.2059
胷	-11.206
互鄉	-11.2063
卷三	-11.2064
天地之大	-11.2065
能知能行	-11.2066
但見其	-11.2067
疑辭	-11.2069
路寢	-11.2074
起居	-11.208
推致	-11.2094
無益於	-11.2101
豈肯	-11.2103
趨進	-11.2106
公薨	-11.2109
東夷	-11.2113
其用心	-11.2119
以行言	-11.212
承順	-11.2123
大端	-11.2123
今之學者	-11.2128
私智	-11.2129
最明	-11.2137
先儒謂	-11.2138
私心	-11.2152
到那	-11.2152
事勢	-11.2152
夫何	-11.2155
人莫不	-11.2159
見於事	-11.2164
輕易	-11.2168
鳩	-11.2171
妃	-11.2174
碍	-11.2174
勘	-11.2174
黍稷	-11.2175
浞	-11.2175
學知利行	-11.2175
漆雕開	-11.2175
不足道	-11.2176
彘	-11.2177
本然之性	-11.2177
為士者	-11.2178
尓	-11.2178
宇宙	-11.2178
境界	-11.2181
持敬	-11.2182
漬	-11.2183
源頭	-11.2183
過失	-11.2184
千駟	-11.2185
八條目	-11.2186
可以語上	-11.2189
敦化	-11.2195
平陸	-11.2196
可勝	-11.2196
太史公	-11.2199
依於仁	-11.2203
執玉	-11.2204
孝弟忠信	-11.2207
遂以為	-11.2208
篤厚	-11.2211
發揮	-11.2218
所從來	-11.2219
獨舉	-11.2222
人而不仁	-11.2226
三月不違仁	-11.2229
無以加	-11.223
欲人之	-11.2232
無可疑	-11.2232
崇德	-11.2241
辟世	-11.2247
主於敬	-11.2267
是一意	-11.2271
二十八	-11.2272
適莫	-11.2276
否乎	-11.228
0	-11.229
其本體	-11.2291
閣	-11.2293
異姓	-11.2293
功利之	-11.2294
壑	-11.2297
素位而行	-11.2299
之有哉	-11.23
訕	-11.23
蕃	-11.2301
齊治平	-11.2302
穢	-11.2303
寒暑	-11.2303
忠信篤敬	-11.2304
訓詁	-11.2304
允執厥中	-11.2305
虧欠	-11.2305
鋭	-11.2306
炎	-11.2307
含蓄	-11.2307
不思而得	-11.2308
元亨利貞	-11.2308
過與不及	-11.2308
乂	-11.2309
鑚	-11.2309
亶	-11.2309
岳	-11.2309
澄	-11.231
趙魏	-11.231
熊氏曰	-11.2311
閒暇	-11.2313
靈臺	-11.2313
伐顓臾	-11.2314
修己以敬	-11.2314
禮之用	-11.2315
不相干	-11.2316
形色	-11.2317
躩	-11.2318
折獄	-11.2319
郊社	-11.2324
從先進	-11.2327
十世	-11.233
善與人同	-11.2333
精密	-11.2333
優於	-11.2334
五行之	-11.2335
否先生曰	-11.2336
不知而作	-11.234
君子之所以	-11.234
大概	-11.2345
興邦	-11.2346
徳業	-11.2347
病根	-11.237
有餘力	-11.2372
洪氏	-11.2373
以處之	-11.2374
於吾心	-11.2379
四月	-11.239
在言外	-11.2395
庶子	-11.2401
卷四	-11.2405
得之但	-11.2408
莫知其	-11.2409
處置	-11.2415
莊敬	-11.2418
綴	-11.2427
伺	-11.2428
覺軒蔡氏曰	-11.243
緦	-11.2431
路史	-11.2432
慘	-11.2434
不入於	-11.2434
龜山楊氏曰	-11.2434
怡	-11.2434
填	-11.2436
俛	-11.2436
章總㫖張彦陵曰	-11.2437
瑚璉	-11.2437
臘	-11.2437
棗	-11.2437
蒯瞶	-11.2438
鏗	-11.2439
孔子答	-11.2439
委吏	-11.244
孟武伯	-11.244
屋漏	-11.2441
騎	-11.2441
為政之道	-11.2442
父兄百官	-11.2443
直道而行	-11.2444
效死	-11.2445
紏	-11.2445
附㑹	-11.245
入室	-11.2451
體察	-11.2452
克去	-11.2454
小事大	-11.2454
此一章書是言	-11.2456
姑息	-11.2457
豈但	-11.2457
平居	-11.2458
無往而不	-11.2459
强弱	-11.2464
十七章	-11.2466
不恤	-11.2468
奮發	-11.2468
賤惡	-11.2484
無物不	-11.2495
莫之能	-11.2502
非聖人不能	-11.2502
張敬夫曰	-11.2502
不欲觀	-11.2505
豈惟	-11.2506
義之所在	-11.2519
冨貴	-11.2529
互相發	-11.2529
入井	-11.253
古之道	-11.2537
雖同而	-11.2549
當如是	-11.2549
進德	-11.2552
何邪	-11.2556
殀	-11.2558
不屈	-11.256
泚	-11.2562
愈深	-11.2562
祼	-11.2563
象先問	-11.2563
㓕	-11.2564
蹴	-11.2566
五伯	-11.2566
歠	-11.2566
狩	-11.2567
先事後得	-11.2567
飢餓	-11.2567
三分天下有其二	-11.2568
褻	-11.2568
殄	-11.2568
悉井反	-11.2568
陶冶	-11.2568
易曉	-11.2569
阱	-11.2569
宋朱子撰	-11.2571
日用常行	-11.2571
竦	-11.2571
滔滔	-11.2571
惴	-11.2572
父不得而子	-11.2572
好善惡惡	-11.2573
相離	-11.2574
漿	-11.2574
丁寧	-11.2575
踧踖	-11.2576
弗措	-11.2576
文飾	-11.2578
動以天	-11.2589
最好	-11.259
面前	-11.2594
伯禽	-11.2603
所以待	-11.261
河内	-11.2613
天地之化	-11.2615
氣質之偏	-11.2625
生財	-11.2626
引孔子之言	-11.2632
左氏傳	-11.2633
之為道	-11.2636
潔身	-11.2638
公共	-11.2641
不可掩	-11.2647
親疎	-11.2649
要看得	-11.2649
敵國	-11.2653
設施	-11.2657
閒居	-11.2666
正以其	-11.2673
與此同	-11.2676
可與立	-11.2683
初間	-11.2685
:	-11.2685
冡	-11.2691
香	-11.2693
卞	-11.2695
滑	-11.2697
纊	-11.2699
洩	-11.2699
格致誠正	-11.2699
渾淪	-11.27
沮溺	-11.27
新安倪氏曰	-11.27
知覺運動	-11.2701
徐儆弦曰	-11.2701
想像	-11.2703
這些	-11.2703
熈	-11.2703
孟懿子	-11.2704
四書脈曰	-11.2704
佳	-11.2704
恬	-11.2704
動容周旋中禮	-11.2705
駭	-11.2705
彈	-11.2706
萬物各得其所	-11.2706
男子	-11.2706
孽	-11.2709
學記	-11.2709
鹽	-11.2711
造其極	-11.2711
廐	-11.2712
剛柔	-11.2714
人之所以為人	-11.272
武叔	-11.2723
天理之自然	-11.2725
可考	-11.273
射御	-11.2734
徐氏	-11.2735
為人君者	-11.274
致逺	-11.2744
斷斷	-11.2745
理勢	-11.2746
非其人	-11.2757
呉氏曰	-11.2776
衍文	-11.2779
既沒	-11.278
尤甚	-11.2781
具於心	-11.2789
交友	-11.279
數句	-11.28
陋巷	-11.2808
愈逺	-11.281
本文之意	-11.2816
人鬼	-11.2818
薑	-11.2825
冦	-11.2825
烏得	-11.2826
可使南面	-11.2827
臆	-11.2827
盡其性	-11.2828
子桑伯子	-11.2828
瘠	-11.2832
未知孰是	-11.2832
擇乎中庸	-11.2832
熾	-11.2833
尊德性	-11.2833
絃	-11.2833
舛	-11.2833
子畏於匡	-11.2833
筭	-11.2834
縛	-11.2834
恆	-11.2835
查滓	-11.2835
無所不用其極	-11.2835
臧倉	-11.2835
壓	-11.2836
皦	-11.2836
幣帛	-11.2836
弓矢	-11.2837
興於詩	-11.2839
鴈	-11.2839
摘	-11.2839
動心忍性	-11.284
玉溪盧氏曰	-11.284
郷黨	-11.284
敬以直内	-11.2842
俎豆	-11.2842
心裏	-11.2842
蠡	-11.2842
俯仰	-11.2842
避世	-11.2844
雙峰饒氏曰	-11.2846
照管	-11.2847
無時而不	-11.285
二程	-11.2851
乍見	-11.2865
空虚	-11.2867
宴樂	-11.2868
祖廟	-11.2873
運用	-11.2873
䧟於	-11.2882
九河	-11.2884
造次	-11.2884
髙祖	-11.2885
引書	-11.2888
心之所發	-11.2888
東北	-11.2894
鄭註	-11.2895
私恩	-11.2898
不可不謹	-11.29
何以知其	-11.2903
末句	-11.2905
田野	-11.2919
一歩	-11.2938
各當其	-11.2939
文武周公	-11.2952
子㳺	-11.2952
張子所謂	-11.2954
知者知	-11.2956
公族	-11.2956
狐裘	-11.2961
覲	-11.2964
至誠之道	-11.2965
黼	-11.2967
汗	-11.2968
烏獲	-11.2968
緜	-11.2969
存心養性	-11.297
凱風	-11.297
尉	-11.2971
晏嬰	-11.2972
朞月	-11.2973
北宫黝	-11.2974
偲	-11.2975
斐	-11.2975
行其所無事	-11.2975
漁	-11.2976
舞雩	-11.2977
可與適道	-11.2977
反求諸己	-11.2977
似是而非	-11.2978
屠	-11.2979
私淑	-11.2979
恂恂	-11.298
芳	-11.298
馴致	-11.2981
始祖	-11.2982
蓼	-11.2984
暴慢	-11.2984
劉向	-11.2984
少異	-11.2985
方員	-11.2987
知所止	-11.2997
無二致	-11.2997
横流	-11.2998
後丗	-11.2999
父母之喪	-11.3
二十三年	-11.3001
終之以	-11.3007
盡心上	-11.3007
魯頌	-11.3011
謀食	-11.3012
人而人	-11.3012
耳非謂	-11.3023
一邉	-11.303
便佞	-11.3053
行王道	-11.3058
聞韶	-11.3065
最重	-11.3072
萬章問	-11.3074
先王之制	-11.3082
安社稷	-11.3086
繼之曰	-11.3086
色莊	-11.3086
一件事	-11.3087
各不同	-11.3096
室家	-11.3097
杞栁	-11.3102
忒	-11.3106
沃	-11.3107
聊	-11.3107
捉	-11.3109
鯀	-11.3109
訂	-11.3109
濳	-11.3109
可與共學	-11.3111
鄧	-11.3111
倨	-11.3112
淨	-11.3112
鐸	-11.3112
袗	-11.3112
圎	-11.3112
綱紀	-11.3113
兕	-11.3114
然而不王者未之有也	-11.3114
顔閔	-11.3114
造次顛沛	-11.3114
㨗	-11.3115
湣王	-11.3116
魚鼈	-11.3116
勺	-11.3117
慤	-11.3118
周南召南	-11.3118
制民之産	-11.3119
咏	-11.3119
鞠躬	-11.3119
放過	-11.312
䘏	-11.3121
致知力行	-11.3124
京師	-11.3124
朱子集註	-11.3126
索隱	-11.3127
不得於言	-11.3139
諡法	-11.3144
章伊川曰	-11.3146
形而上	-11.3147
忠告	-11.3147
如保赤子	-11.3153
飲食之人	-11.3154
循序	-11.3154
歴山	-11.3159
交接	-11.316
的道理	-11.3164
二十九	-11.3165
勃然	-11.3167
董子	-11.3177
雖聖人亦	-11.3185
東首	-11.3192
忠清	-11.3195
汙下	-11.3202
倣	-11.3208
觀感	-11.3212
被他	-11.3213
乍	-11.3223
子夏之言	-11.3223
讀詩	-11.3226
統體	-11.3229
至善之所在	-11.3233
竊取	-11.3233
持身	-11.3234
太山	-11.3243
乳	-11.3244
王孫賈	-11.3245
辜	-11.3245
困知勉行	-11.3246
庾公之斯	-11.3246
歆	-11.3247
臻	-11.325
踞	-11.325
芸	-11.325
菽	-11.3251
寂然不動	-11.3251
愁	-11.3251
勞而不怨	-11.3253
浹洽	-11.3254
棘子成	-11.3254
約之以禮	-11.3254
北溪陳氏曰	-11.3255
飱	-11.3256
撻	-11.3258
順乎親	-11.3258
瀾	-11.3259
諺	-11.326
玄端	-11.3261
兩層	-11.3261
庶物	-11.3264
知言養氣	-11.3265
八寸	-11.3265
曷嘗	-11.3271
晉文公	-11.3271
油然	-11.3273
漸次	-11.3273
知其性	-11.3274
貫徹	-11.3275
狂簡	-11.3278
永終	-11.3279
第一節	-11.3297
可以有為	-11.33
露出	-11.3312
尹士	-11.3313
爵位	-11.3313
師冕	-11.3316
取舎	-11.3317
幽王	-11.3333
聞夫子之言	-11.334
正顔色	-11.3348
見南子	-11.3358
楊氏之説	-11.3359
弗去	-11.3371
清和	-11.3388
五聲	-11.339
感應	-11.339
跪	-11.3391
吸	-11.3391
吾道一以貫之	-11.3392
江熙曰	-11.3393
萬物皆備於我	-11.3396
無諂無驕	-11.3396
盻	-11.3397
莫大乎	-11.3397
乾坤	-11.3397
切問近思	-11.3399
教誨之	-11.3399
仁民愛物	-11.34
江河	-11.34
大哉聖人之道	-11.3401
雩	-11.3401
予欲無言	-11.3401
戒懼慎獨	-11.3405
與天為一	-11.3405
集疏曰或問	-11.3406
孟賁	-11.3406
封建	-11.3406
章諸生問	-11.3407
堯典	-11.3413
粲然	-11.3414
商賈	-11.3417
盡之矣	-11.3422
純熟	-11.3423
君臣上下	-11.3425
大匠	-11.3428
温厚	-11.3431
正義曰此章論	-11.3431
動容貌	-11.3432
只縁	-11.344
取諸人	-11.3465
竊位	-11.3466
悔過	-11.3483
南陽	-11.3497
開口	-11.3506
徇人	-11.3509
莫非天理	-11.3513
9	-11.3525
日夜	-11.3526
方纔	-11.3528
譜	-11.3532
葵丘	-11.3532
左丘明	-11.3533
埋	-11.3535
彀	-11.3536
仁義禮知	-11.3537
禮樂征伐	-11.3537
訛	-11.3538
聚歛	-11.3538
諄諄	-11.3539
睨	-11.3539
秉彞	-11.354
仲虺	-11.354
天理之節文	-11.354
凂	-11.3541
浼	-11.3541
竄	-11.3541
顚	-11.3541
意必固我	-11.3541
睡	-11.3542
不遷怒	-11.3544
捍	-11.3544
腦	-11.3544
淹	-11.3545
减十	-11.3547
㬰	-11.3548
主張	-11.3548
心之所同然	-11.3549
不可則止	-11.3552
𤣥端	-11.3553
義以為質	-11.3553
三千三百	-11.3554
唐棣	-11.3556
互相發明	-11.3562
庸徳	-11.3565
安頓	-11.3567
充虞	-11.3567
正心脩身	-11.3568
聦明	-11.3568
那箇	-11.357
金玉	-11.3571
鄭注云	-11.358
孟子去齊	-11.359
學之序	-11.3603
復其性	-11.3608
脩徳	-11.3643
呉氏	-11.3661
許氏	-11.3662
瑕	-11.368
憐	-11.368
它	-11.3681
沿	-11.3684
兖	-11.3685
彞	-11.3685
不能免	-11.3685
施由親始	-11.3686
恭而安	-11.3686
膾炙	-11.3686
薰	-11.3687
畨	-11.3687
衾	-11.3688
粱	-11.3688
蠻夷	-11.3689
顛沛	-11.3689
易簀	-11.369
掲	-11.3691
富而無驕	-11.3691
銳	-11.3691
禮儀三百威儀三千	-11.3691
夜之所息	-11.3691
古字通用	-11.3692
學者讀這章書	-11.3692
提醒	-11.3692
寮	-11.3692
與物接	-11.3693
程朱	-11.3698
黄鍾	-11.3699
游藝	-11.3701
燧	-11.3703
必以其道	-11.3704
謙遜	-11.3706
金氏曰	-11.3715
天之所以	-11.3724
孝子之心	-11.373
饒説	-11.3731
入小學	-11.3734
鬼神之徳	-11.3744
太伯	-11.3746
父子相	-11.3748
見而知之	-11.3777
辨别	-11.3787
妻妾	-11.3816
姒	-11.3824
三綱	-11.3826
憶	-11.3827
羡	-11.3831
就事上	-11.3831
浩浩	-11.3835
賞罰	-11.3835
洪範	-11.3836
扣	-11.3836
剥	-11.3837
狃	-11.3837
縦	-11.3837
松	-11.3837
有物有則	-11.3838
芻豢	-11.3839
裹	-11.3839
應事接物	-11.3839
巨細	-11.384
也註孔安國曰至	-11.3842
以人治人	-11.3843
裼衣	-11.3843
潦	-11.3844
裨	-11.3844
委積	-11.3845
蚳鼃	-11.3846
資禀	-11.3848
人皆可	-11.3849
潔其身	-11.3857
充積	-11.3857
不相離	-11.3861
陳文子	-11.3862
七尺	-11.3868
庫門	-11.3871
明乎善	-11.3875
金聲	-11.3876
孔子世家	-11.3889
心與理	-11.3904
加損	-11.3916
感化	-11.3934
窮究	-11.3954
相闗	-11.397
琅邪	-11.3979
梓	-11.398
克伐怨欲	-11.3981
峯	-11.3981
叫	-11.3982
篤信好學	-11.3982
淮南子	-11.3982
蘖	-11.3982
巡狩	-11.3983
碑	-11.3983
閎	-11.3986
大音泰	-11.3986
盤銘	-11.3986
博學於文	-11.3987
裡	-11.3988
倖	-11.3988
星辰	-11.3989
居天下之廣居	-11.3989
孟敬子	-11.3989
諟	-11.399
擁	-11.3991
舉一隅	-11.3991
惟義所在	-11.3991
閾	-11.3992
齊桓晉文	-11.3993
慈愛	-11.3993
弑父與君	-11.3994
典籍	-11.3994
蔽賢	-11.3995
笙	-11.3995
公子荆	-11.3997
嗅	-11.3999
佩玉	-11.4
敖惰	-11.4
成於樂	-11.4
少康	-11.4001
豈敢	-11.4003
漸進	-11.4037
周禮司	-11.4043
先飯	-11.4048
仁之至	-11.4051
三寸	-11.4066
終條理	-11.4072
恒産	-11.4075
少儀	-11.4078
西山	-11.4086
何也朱子曰	-11.4098
此孔子所以	-11.4116
一寸	-11.4121
令尹子文	-11.4129
梅	-11.4132
靳	-11.4133
棺椁	-11.4134
霄	-11.4134
簿	-11.4135
君君臣臣父父子子	-11.4137
煖	-11.4137
必有事焉而勿正	-11.4138
毫釐之差	-11.4139
禮樂刑政	-11.4139
孤竹	-11.414
樂與好禮	-11.414
悴	-11.414
剛毅木訥	-11.414
衣錦尚絅	-11.4141
詖淫邪遁	-11.4141
朞	-11.4141
廋	-11.4141
庖	-11.4143
昊	-11.4143
䖍	-11.4143
心不在焉	-11.4143
芒	-11.4144
蔑	-11.4144
桃應	-11.4144
偹	-11.4144
罅	-11.4145
吟	-11.4145
貿	-11.4145
胎	-11.4145
迨	-11.4146
孟獻子	-11.4146
焉用佞	-11.4146
莫不皆然	-11.415
内省	-11.415
潤澤	-11.415
集義所生	-11.4152
孟仲子	-11.4153
軍旅之事	-11.416
勿欺	-11.416
視聴言動	-11.4162
増益	-11.4165
在陋巷	-11.4167
這様	-11.4169
在下位	-11.4169
自不能已	-11.417
陳賈	-11.4172
公羊	-11.4186
玉藻云	-11.4198
熟讀	-11.4205
心之發	-11.4214
開導	-11.4228
顔曽	-11.4232
兩截	-11.4244
變化氣質	-11.4249
鄹	-11.4286
睢	-11.4294
湖	-11.4294
蕭牆	-11.4295
扈	-11.4295
不念舊惡	-11.4295
纎毫	-11.4295
丞	-11.4296
炭	-11.4296
戕	-11.4297
頤	-11.4297
藍田吕氏	-11.4298
膝	-11.4298
荼	-11.4298
摹	-11.4298
虗	-11.4298
如有所立卓爾	-11.4298
二帝三王	-11.4298
誠之不可揜	-11.4299
奔走	-11.4299
浚	-11.4299
槨	-11.4299
卯	-11.43
繪事後素	-11.43
囬	-11.4301
撮	-11.4301
發出來	-11.4302
八月	-11.4302
鉞	-11.4302
恍惚	-11.4302
渾然天理	-11.4303
侍坐	-11.4304
當然之理	-11.4304
孜孜	-11.4304
秦誓	-11.4305
玄冠	-11.4306
昨	-11.4306
廵	-11.4308
江漢	-11.4314
不由其道	-11.4315
哀公問政	-11.4315
承上章而言	-11.4327
離婁上	-11.4368
賔師	-11.4378
晁氏	-11.4381
包氏	-11.4386
前段	-11.4386
千二百	-11.4402
仁在其中矣	-11.4402
指㸃	-11.4404
保赤子	-11.443
滄浪	-11.4436
祖宗	-11.4441
「	-11.4443
絺綌	-11.4445
袁了凡曰	-11.4447
覿	-11.4448
荷蓧	-11.4448
勾	-11.4448
簞食豆羮	-11.445
穎	-11.4451
桃	-11.4452
𥘉	-11.4452
瓦	-11.4452
晨	-11.4453
蒐	-11.4453
炳	-11.4455
意誠心正	-11.4455
稽首	-11.4455
搜	-11.4456
惺惺	-11.4456
買	-11.4456
二十七章	-11.4456
斃	-11.4457
核	-11.4457
爻	-11.4457
参	-11.4457
請事斯語	-11.4457
先難後獲	-11.4458
婚	-11.4458
柏	-11.4458
韶樂	-11.4458
麻冕	-11.4459
行夏之時	-11.4459
抄	-11.4459
畱	-11.446
默	-11.446
學而時習之	-11.4461
體段	-11.4461
趙簡子	-11.4462
好貨好色	-11.4462
東郭	-11.4462
堯舜其猶病諸	-11.4463
緇布冠	-11.4465
疫	-11.4466
虢	-11.4466
中霤	-11.4466
驩虞	-11.4469
廵狩	-11.4469
論語注疏卷	-11.447
明其明徳	-11.4471
瓠	-11.4481
虞仲	-11.4481
這一箇	-11.4498
亦此意也	-11.4499
餓死	-11.45
勝負	-11.4501
窮理盡性	-11.4508
附益	-11.4511
冕服	-11.4535
盡精微	-11.4537
治國家	-11.4556
拈	-11.4598
嚭	-11.4608
胄	-11.4608
鎬	-11.4608
㪯	-11.4608
鉏	-11.4612
十室之邑	-11.4612
凑	-11.4612
閏	-11.4613
矛盾	-11.4614
飫	-11.4614
濮	-11.4614
訖	-11.4614
致知在格物	-11.4615
騫	-11.4615
血脉	-11.4616
麑	-11.4616
臧武仲	-11.4616
寖	-11.4618
潜室陳氏曰	-11.4618
羞惡辭讓是非	-11.4618
冊	-11.4618
垣	-11.4619
降衷	-11.4619
耳目口鼻	-11.4619
孫臏	-11.462
彼列反	-11.4621
遯世不見知而不悔	-11.4621
冶	-11.4621
點	-11.4622
何必曰利	-11.4622
悻悻	-11.4623
遑	-11.4623
昜	-11.4623
荆蠻	-11.4624
冷	-11.4624
㡬希	-11.4625
拈出	-11.4626
大徳之敦化	-11.4627
雲峯	-11.4629
𨽻	-11.463
休息	-11.4633
修德	-11.4635
德之賊	-11.4636
容貎	-11.4641
以此推之	-11.4643
民鮮能	-11.4643
盡人之性	-11.4645
恩惠	-11.4645
精宻	-11.4647
趨向	-11.4649
潤身	-11.4658
蘓氏	-11.4663
長府	-11.4668
歸宿	-11.471
管仲之功	-11.4713
亞聖	-11.4717
二十五章	-11.4718
兩段	-11.4736
細玩	-11.4751
驛	-11.4762
。」13.	-11.4766
衮冕	-11.4772
呌	-11.4776
柝	-11.4777
自强不息	-11.4777
錯綜	-11.4779
三年之䘮	-11.478
絅	-11.478
悌	-11.478
温故知新	-11.478
莫我知	-11.478
歇	-11.478
主一無適	-11.4781
為仁由己	-11.4781
肺	-11.4781
過猶不及	-11.4781
勝殘去殺	-11.4782
聃	-11.4783
坦蕩蕩	-11.4783
賂	-11.4783
子臣弟友	-11.4783
董仲舒	-11.4785
欠闕	-11.4785
邀	-11.4785
亘	-11.4785
天之所以為天	-11.4786
寝	-11.4786
不言而信	-11.4786
塲	-11.4787
侃	-11.4787
唱	-11.4788
自始至終	-11.4788
自外至	-11.4788
喙	-11.4789
壬申	-11.479
柔弱	-11.4791
耰	-11.4793
細密	-11.4797
士庶人	-11.4799
三達徳	-11.4805
體貼	-11.481
達之天下	-11.4816
各盡其道	-11.4819
治天下國家	-11.4825
接續	-11.4864
張敬夫	-11.4881
在是矣	-11.4895
諸侯之國	-11.4928
等差	-11.4931
體物而不可遺	-11.4938
守死善道	-11.494
喫	-11.4941
岑	-11.4941
萌芽	-11.4943
貸	-11.4943
鬲	-11.4944
引而不發	-11.4945
㐮	-11.4946
門户	-11.4946
瞷	-11.4947
幡	-11.4947
微之顯	-11.4947
六尺之孤	-11.4947
孺子入井	-11.4948
戎狄	-11.4948
刼	-11.4948
使於四方	-11.4948
為政以徳	-11.4948
禾	-11.4948
舅	-11.4949
天之所以與我	-11.4949
影響	-11.495
擇善固執	-11.495
盡人物之性	-11.495
梓匠輪輿	-11.495
需	-11.4951
深造之以道	-11.4951
疊	-11.4951
筋	-11.4951
反諸身	-11.4951
齊側皆反	-11.4951
枉尺直尋	-11.4952
甑	-11.4952
后妃	-11.4952
頽	-11.4953
柔逺人	-11.4953
徹上徹下	-11.4953
小徳之川流	-11.4954
毗	-11.4955
無為而治	-11.4956
侔	-11.4957
宗廟朝廷	-11.4957
心誠求之	-11.496
正心修身	-11.4961
傾覆	-11.4962
百世之師	-11.4965
昆夷	-11.4966
眞氏曰	-11.4968
憮然	-11.4977
散殊	-11.4981
月朔	-11.4982
夕死	-11.4985
伊川程子	-11.4985
盛徳之至	-11.4986
儲	-11.5009
有間矣	-11.5026
尭	-11.5038
裁制	-11.5074
所自來	-11.5079
鼗	-11.5088
胸	-11.5089
輈	-11.5107
㪚	-11.5109
絃歌	-11.511
五十而知天命	-11.5112
阡陌	-11.5112
薫	-11.5113
舉而措之	-11.5114
㮣	-11.5114
售	-11.5114
百乘之家	-11.5115
費而隠	-11.5115
察其所安	-11.5116
人焉廋哉	-11.5116
煥	-11.5117
性道教	-11.5118
束帛	-11.5118
迸	-11.5118
宋牼	-11.5118
絰	-11.5118
發而中節	-11.5118
欲居九夷	-11.512
若合符節	-11.512
醴	-11.512
明善誠身	-11.5121
響	-11.5121
陸費墀	-11.5121
絹	-11.5121
温而厲	-11.5121
總纂官	-11.5122
月恭校上	-11.5122
賢於堯舜	-11.5122
長沮桀溺	-11.5123
驪	-11.5123
此一節書是	-11.5126
話頭	-11.5126
忠恕違道不逺	-11.5127
柰何	-11.5129
反經合道	-11.5132
七百里	-11.5134
消息	-11.5136
英才	-11.5137
中庸一書	-11.5138
愧怍	-11.514
不足徴	-11.515
第九	-11.516
扶持	-11.5195
中流出	-11.5197
層	-11.5231
綱目	-11.5235
後之學者	-11.5248
而達之	-11.5272
按翼註	-11.5276
皷	-11.5276
順受其正	-11.5279
洚	-11.5282
瞭	-11.5282
顙	-11.5283
盡其在我	-11.5283
修身以俟	-11.5284
使枉者直	-11.5284
軀	-11.5284
序昭穆	-11.5284
獺	-11.5286
彬彬	-11.5287
墟	-11.5288
日月星辰	-11.5288
晏平仲	-11.5288
矙	-11.5289
灑	-11.5289
霍	-11.5289
由仁義行	-11.529
招虞人	-11.529
皎	-11.5291
㝢	-11.5291
吞	-11.5291
王子比干	-11.5291
孥	-11.5291
彀率	-11.5292
圜	-11.5292
盥	-11.5292
夙	-11.5292
蔚	-11.5293
發育萬物	-11.5294
見賢遍反	-11.5294
孫士毅總校官	-11.5294
出門使民	-11.5294
隕	-11.5295
操則存	-11.5295
箭	-11.5295
人皆有不忍人之心	-11.5296
徐自溟曰	-11.5297
飭	-11.5298
滕薛	-11.5298
造詣	-11.5298
狗	-11.5298
公明賈	-11.5299
盼	-11.53
色斯舉矣	-11.53
健順	-11.5301
懸絶	-11.5303
巫醫	-11.5305
博奕	-11.5309
二十八年	-11.5311
以理言之則	-11.5311
端緒	-11.533
二十四章	-11.533
君子所性	-11.5355
注王曰	-11.5365
兩項	-11.5426
爵弁	-11.544
百二十	-11.5442
趙孟	-11.5446
何暇	-11.545
涓	-11.5453
?』	-11.5454
藝文志	-11.5454
枲	-11.5456
遞	-11.5459
纎悉	-11.5459
黻冕	-11.546
翳	-11.546
王觀濤曰	-11.546
渭	-11.546
蹊	-11.5461
臧孫	-11.5463
賢賢易色	-11.5463
脉絡	-11.5464
鋪	-11.5465
溥博淵泉	-11.5465
獨善其身	-11.5465
僎	-11.5465
倉廪	-11.5466
櫝	-11.5466
生民以來	-11.5466
亦可以為成人矣	-11.5467
其言也訒	-11.5467
宦	-11.5467
性之本善	-11.5467
䛕	-11.5467
日知其所亡	-11.5468
弘毅	-11.5468
取之而燕民	-11.5468
遡	-11.5468
懸空	-11.5468
欿	-11.5469
存焉者寡	-11.547
咸丘蒙	-11.547
平旦之氣	-11.547
大戴禮	-11.547
琴張	-11.547
馭	-11.5471
羈	-11.5471
庶人在官者	-11.5471
豁	-11.5472
肌膚	-11.5472
夔	-11.5473
畮	-11.5473
至誠盡性	-11.5474
過化存神	-11.5475
折枝	-11.5475
忿戾	-11.5476
暖	-11.5476
腐	-11.5477
正謂此也	-11.5477
庻幾	-11.5478
疢疾	-11.548
不出家而成教於國	-11.548
周霄	-11.548
教不倦	-11.5483
人之大倫	-11.5485
底物事	-11.5487
到這裏	-11.5493
屛	-11.5496
史記世家	-11.5534
尭舜	-11.5545
賽合註	-11.5567
存於中	-11.5607
寢衣	-11.5631
架	-11.5634
煦	-11.5636
𣏌	-11.5637
汲	-11.5638
顏淵	-11.5638
欽定四庫全書經部八	-11.5638
潰	-11.5638
繭	-11.5638
司城貞子	-11.564
握	-11.564
等謹案	-11.5641
愽	-11.5641
明季講家	-11.5641
栖栖	-11.5641
製	-11.5642
無非教也	-11.5644
畎畝之中	-11.5644
團	-11.5644
腸	-11.5645
如予何	-11.5646
純一無偽	-11.5647
以辭害意	-11.5647
惓惓	-11.5648
七八月	-11.5649
森	-11.5649
葸	-11.5649
逺暴慢	-11.565
松栢	-11.5651
盡事親之道	-11.5651
妖	-11.5652
齊家治國	-11.5654
二十六年	-11.5655
翦商	-11.5655
鲁	-11.5657
這箇道理	-11.5658
無所成名	-11.5673
而不可易者	-11.5675
二十五年	-11.5675
睹聞	-11.5683
不貳過	-11.5683
兩様	-11.5689
揮	-11.5749
芟三條	-11.5751
沐	-11.5815
笏	-11.5815
把栁	-11.5818
銜	-11.5819
蒲盧	-11.582
篚	-11.5821
禮樂射御書數	-11.5821
終身誦之	-11.5822
灰	-11.5822
不怨不尤	-11.5822
杠	-11.5822
佗	-11.5823
合内外之道	-11.5824
摟	-11.5824
下學而上達	-11.5825
沾	-11.5825
牝	-11.5826
悠悠	-11.5826
嬖奚	-11.5827
一言以蔽之	-11.5827
郭璞	-11.5827
四書集義精要	-11.5827
邁	-11.5827
輯講	-11.5828
褊	-11.5828
季札	-11.5828
入公門	-11.5828
閲	-11.5828
不屑之教誨	-11.5829
聶	-11.5829
狭	-11.5829
巾	-11.583
義精仁熟	-11.583
規規	-11.583
百乗之家	-11.5831
灑掃應對	-11.5831
何難之有	-11.5831
表裏如一	-11.5832
鹵莽	-11.5832
胖	-11.5832
雌	-11.5833
自誠而明	-11.5833
骨肉	-11.5834
涸	-11.5834
説音悦	-11.5835
節釋曰	-11.5835
成都范氏	-11.5836
檮杌	-11.5837
文武之政	-11.5838
無穿窬之心	-11.584
細宻	-11.5843
郷原	-11.5844
性情之正	-11.5856
問於子貢	-11.5872
所求乎	-11.5874
程張	-11.5921
百里之國	-11.597
楣	-11.5996
』	-11.5996
躋	-11.5999
泗	-11.6
射不主皮	-11.6002
菲	-11.6002
遼	-11.6003
脛	-11.6003
粢盛	-11.6005
酢	-11.6006
戒愼恐懼	-11.6006
羲	-11.6007
縝	-11.6007
反求諸身	-11.6008
肫肫	-11.6009
淅	-11.6009
㴱	-11.6009
斁	-11.601
集大成	-11.601
自衛反魯	-11.601
穿踰	-11.6011
之外别有	-11.6011
鸞	-11.6011
待洛反	-11.6011
拓	-11.6012
隘與不恭	-11.6012
瑣	-11.6012
大中至正	-11.6012
至誠惻怛	-11.6012
窒礙	-11.6012
再拜稽首	-11.6013
到極處	-11.6013
性即理也	-11.6013
偪	-11.6013
冢	-11.6013
克已復禮	-11.6013
殽	-11.6014
鄉愿	-11.6014
所存者神	-11.6014
眉	-11.6015
陸錫熊	-11.6015
恠	-11.6015
所以行之者一也	-11.6016
弭	-11.6016
不可小知	-11.6016
十八年	-11.6017
資之深	-11.6017
音潮	-11.6017
湼	-11.6017
件件	-11.6018
誠者自成	-11.6018
嚳	-11.602
檢㸃	-11.6021
非人之所能	-11.6022
何所不至	-11.6022
翔而後集	-11.6023
潤色	-11.6024
休戚	-11.6025
滋味	-11.6026
衣帛	-11.6029
公冶	-11.6032
貢助	-11.6032
鮑叔	-11.6033
一介不	-11.6039
不思不勉	-11.6057
如禮何	-11.6067
圈内	-11.6078
各盡其	-11.6084
以孝弟為	-11.6086
謝楊	-11.6113
杜氏	-11.6121
風雨	-11.6149
聦	-11.617
騁	-11.6184
餙	-11.6189
鹵	-11.6189
紅	-11.619
陛	-11.619
三王之罪人	-11.6192
」8.	-11.6192
詎	-11.6193
李衷一曰	-11.6195
見善如不及	-11.6196
狐貉	-11.6196
荑稗	-11.6196
虜	-11.6197
恍	-11.6197
繩墨	-11.6197
榦	-11.6197
三過其門而不入	-11.6197
掊	-11.6198
仁也者人也	-11.6198
率獸食人	-11.6198
簞瓢陋巷	-11.62
糊	-11.62
亹	-11.62
樂而不淫	-11.62
賈誼	-11.62
派	-11.62
劒	-11.6201
洙泗	-11.6201
淆	-11.6201
駸	-11.6201
枉尺而直尋	-11.6201
包咸	-11.6202
賑	-11.6203
理無大小	-11.6203
犬羊	-11.6203
班爵	-11.6203
人之生也直	-11.6203
迅	-11.6203
堯舜禹湯文武	-11.6204
歷	-11.6204
附蒙引曰	-11.6204
武庚	-11.6204
眇	-11.6205
譛	-11.6205
不踐迹	-11.6205
刑戮	-11.6206
孟子曰否不然	-11.6206
燾	-11.6206
斿	-11.6206
表而出之	-11.6207
遲速	-11.6208
祚	-11.6209
姻	-11.6209
老佛之	-11.6209
格君心之非	-11.6212
茹	-11.6215
嫂溺	-11.6216
浸潤	-11.6218
崔杼	-11.6228
知與行	-11.6234
記檀弓	-11.6246
九男	-11.6324
馮氏	-11.6357
諸矦	-11.6377
百畒	-11.6378
夫里之布	-11.6384
不遷怒不貳過	-11.6386
大禹謨	-11.6386
昆蟲	-11.6387
祁	-11.6387
滓	-11.6387
號泣	-11.6387
事物當然之理	-11.6388
不在其位不謀其政	-11.6388
可以仕則仕可以止則止	-11.6388
盪	-11.6389
齊明盛服	-11.639
伋	-11.6391
能近取譬	-11.6392
蜀	-11.6392
逺人以為道	-11.6392
洲	-11.6392
中庸不可能	-11.6392
斲	-11.6392
外本内末	-11.6392
不願乎外	-11.6392
嫉	-11.6393
薛居州	-11.6393
五畝之宅	-11.6394
反求諸已	-11.6395
藹	-11.6395
皋	-11.6395
為善去惡	-11.6395
範圍	-11.6395
盲	-11.6395
三十而立	-11.6395
人不知而不愠	-11.6396
不患人之不已知	-11.6396
有始有卒	-11.6397
造化之迹	-11.6397
泊	-11.6397
方十里	-11.6398
松柏	-11.6398
述而不作	-11.6399
莫大焉	-11.6399
匝	-11.6399
莫善於	-11.6399
見小利	-11.6399
哀公十一年	-11.6401
維天之命於穆不已	-11.6401
鄉飲酒	-11.6405
當此之時	-11.6405
集疏曰朱子曰	-11.6407
小徳川流	-11.6408
大徳敦化	-11.6408
行之者一	-11.6414
愧恥	-11.6424
王霸之	-11.6434
流弊	-11.6456
雉門	-11.647
十有五	-11.6508
昆	-11.6564
己所不欲勿施於人	-11.6567
!」	-11.6571
怎麽	-11.6576
溱洧	-11.6583
諮	-11.6583
撃	-11.6584
寕	-11.6584
掇	-11.6584
䨇峯饒氏曰	-11.6584
豺	-11.6585
從大夫之後	-11.6586
鮀	-11.6586
喚	-11.6586
喫緊	-11.6587
夫子之道忠恕而已矣	-11.6587
炊	-11.6587
仁敬孝慈信	-11.6587
湊	-11.6588
信道不篤	-11.6588
小人反是	-11.6588
悍	-11.6588
竇	-11.6588
睟	-11.6588
懵	-11.6588
焉於虔反	-11.6588
麄	-11.6589
寃	-11.6589
鈎	-11.659
為國以禮	-11.659
把捉	-11.659
條凑合	-11.659
妍	-11.6591
公山弗擾	-11.6591
拳拳服膺	-11.6591
謳	-11.6591
贊化育	-11.6591
市宅	-11.6591
可欲之善	-11.6592
欲其自得之也	-11.6593
事君盡禮	-11.6594
稜	-11.6594
邕	-11.6596
雙	-11.6598
桀溺	-11.6601
一怒而安天下之民	-11.6601
放勲	-11.6603
四十五十	-11.6611
不相悖	-11.6612
甚於水火	-11.6623
而勿失	-11.6639
芟四條减	-11.6644
上蔡謝氏	-11.6662
不謂命	-11.6744
縣西北	-11.6776
霤	-11.6776
譌	-11.6781
聨	-11.6781
公孫丒	-11.6782
莫非命也	-11.6784
剪	-11.6784
凟	-11.6784
形諸外	-11.6785
杵	-11.6785
秤	-11.6786
怎	-11.6786
畀	-11.6786
盍何不也	-11.6786
勁	-11.6786
饐	-11.6787
衒	-11.6788
博我以文約我以禮	-11.6788
咺	-11.6788
演	-11.6788
鋒	-11.6788
私淑艾	-11.6789
葵	-11.679
曰古之人古之人	-11.679
親親而仁民仁民而愛物	-11.679
盛徳至善	-11.679
仕止久速	-11.679
掠	-11.679
冐	-11.679
婢	-11.6791
膠鬲	-11.6791
涅	-11.6791
揉	-11.6791
無入而不自得	-11.6791
孫奭	-11.6792
楯	-11.6792
齧	-11.6792
麛	-11.6792
阮	-11.6792
不足與有為	-11.6792
繚	-11.6792
百世以俟聖人而不惑	-11.6793
隨感而應	-11.6793
篆	-11.6795
内自訟	-11.6795
距楊墨	-11.6796
行法以俟命	-11.6796
匹夫之勇	-11.6797
執鞭	-11.6797
窺測	-11.6797
鄰里鄉黨	-11.6798
礪	-11.6798
貞而不諒	-11.6798
斬衰	-11.6798
事君事長使衆	-11.6799
凉	-11.68
倒置	-11.6802
耨	-11.6807
糗	-11.6808
輻	-11.6808
勾踐	-11.6812
躬稼	-11.6922
三復白圭	-11.6978
歐陽	-11.698
餉	-11.698
有虞氏	-11.6981
墉	-11.6983
。」「	-11.6983
肱	-11.6983
非爾所及	-11.6985
桎梏	-11.6986
鑠	-11.6986
曲肱	-11.6986
劄	-11.6987
豁然貫通	-11.6987
淇	-11.6987
殺身成仁	-11.6988
虞仲夷逸	-11.6988
專心致志	-11.6989
收歛	-11.6989
不可偏廢	-11.6989
樲	-11.699
頻	-11.699
浄	-11.699
墦	-11.6991
肝	-11.6991
洋	-11.6991
搆	-11.6992
澹	-11.6992
坑	-11.6992
糴	-11.6992
挺	-11.6993
出門如見大賔使民如承大祭	-11.6993
舉直錯諸枉能使枉者直	-11.6993
崖	-11.6993
公伯寮	-11.6993
畦	-11.6993
囊	-11.6994
跳	-11.6994
餐	-11.6994
軾	-11.6994
聞之師曰	-11.6995
以善養人	-11.6995
素其位而行	-11.6996
鶩	-11.6996
岌	-11.6996
潛室陳氏曰	-11.6996
牛山之木	-11.6996
縲絏	-11.6996
蕘	-11.6996
浹	-11.6996
貧而無怨	-11.6996
勇者不懼	-11.6997
尊君親上	-11.6997
粘	-11.6997
貴戚之卿	-11.6997
杇	-11.6998
梃	-11.6998
躐	-11.6999
脊	-11.6999
湖南講曰	-11.7
天何言哉	-11.7
徽	-11.7
吾斯之未能信	-11.7001
㤗伯	-11.7002
雖欲從之末由也已	-11.7003
襜	-11.7004
屑屑	-11.7005
曵	-11.7006
貪戾	-11.7012
有深意	-11.7021
稼圃	-11.7051
非禮勿視	-11.717
劉歆	-11.7187
衢	-11.7191
隄	-11.7192
飪	-11.7192
凍餒	-11.7194
僚	-11.7194
佯狂	-11.7195
涂	-11.7196
無終食之間違仁	-11.7196
盆成括	-11.7196
艴	-11.7196
求則得之	-11.7197
張狀元孟子傳卷第	-11.7197
斗筲	-11.7198
旅酬	-11.7198
莫之致而至	-11.7199
扺	-11.7199
範我馳驅	-11.7199
兢兢業業	-11.72
安於小成	-11.72
不忮不求	-11.72
贈内閣學士陸隴其撰	-11.72
聞一知十	-11.72
全體大用	-11.72
臨事而懼	-11.7201
允執其中	-11.7201
可欲之謂善	-11.7201
居仁由義	-11.7202
知止能得	-11.7202
戰兢	-11.7202
世衰道微	-11.7202
散宜生	-11.7202
日講四書解義	-11.7202
食菜羮	-11.7202
徳輶如毛	-11.7202
砥	-11.7202
脈絡	-11.7202
以三隅反	-11.7203
齡	-11.7203
月無忘其所能	-11.7203
仗	-11.7203
苑囿	-11.7203
為貧而仕	-11.7203
切切偲偲	-11.7204
食色性也	-11.7204
人皆可以為堯舜	-11.7204
顔讎由	-11.7204
濕	-11.7205
及其成功一也	-11.7205
𩔖	-11.7205
肎	-11.7206
嚚	-11.7206
食稻衣錦	-11.7206
過則勿憚改	-11.7206
好古敏求	-11.7206
秘	-11.7206
嘑	-11.7206
霍光	-11.7206
臆度	-11.7206
七到反	-11.7208
不厭不倦	-11.7208
雀	-11.7209
飢寒	-11.721
胙	-11.7215
埀	-11.7216
自明而誠	-11.7216
幬	-11.7217
不濟事	-11.722
有性焉	-11.728
百五十	-11.7311
儼	-11.7363
畞	-11.7374
啜	-11.7405
泰而不驕	-11.7405
摸	-11.7406
閻	-11.7406
帖	-11.7407
赦小過	-11.7408
湍	-11.7408
感而遂通	-11.7409
不為己甚	-11.7409
跂	-11.7409
暨	-11.7409
祝鮀	-11.7409
在邦必聞在家必聞	-11.7409
杏	-11.741
四書講義困勉録卷	-11.741
梧	-11.741
甯	-11.741
雞鳴而起	-11.7411
彼善於此	-11.7411
不見諸侯何義	-11.7411
墳	-11.7412
魏文侯	-11.7412
忖	-11.7412
僑	-11.7413
蘭	-11.7413
晳	-11.7413
四書或問卷	-11.7413
形色天性	-11.7413
紅紫	-11.7414
宗楷	-11.7414
公行子	-11.7415
公西赤	-11.7415
克伐怨欲不行	-11.7415
唯天下至誠	-11.7415
有為者亦若是	-11.7415
孑	-11.7416
周禮春官	-11.7416
農隙	-11.7416
緝熈	-11.7416
訑訑	-11.7417
札	-11.7417
殛	-11.7417
自反而縮	-11.7418
否宗建曰	-11.7418
清濁厚薄	-11.7418
女安則為之	-11.7419
遷善改過	-11.7419
見幾而作	-11.742
民無得而稱	-11.7421
尺寸	-11.7423
可兼用	-11.7426
粒	-11.7427
源源	-11.7438
千四百	-11.745
十餘年	-11.7491
肖	-11.7499
所以然之故	-11.7546
賀	-11.761
天未欲平治天下	-11.762
博厚高明	-11.7621
紘	-11.7622
諶	-11.7622
餔	-11.7622
尅	-11.7626
見危授命	-11.7626
戰國䇿	-11.7628
冩	-11.7628
悶	-11.7629
磯	-11.7629
襁	-11.763
蘊	-11.763
温故而知新	-11.7631
像	-11.7631
贐	-11.7632
懟	-11.7632
襯	-11.7632
逈	-11.7633
閽	-11.7633
羨	-11.7633
犀	-11.7633
行一不義殺一不辜而得天下	-11.7634
五十而慕	-11.7634
誘掖	-11.7634
不以三公易其介	-11.7634
瞽瞍底豫	-11.7635
隳	-11.7635
夫子之得邦家	-11.7636
舅犯	-11.7636
耿	-11.7636
泄泄	-11.7636
文質彬彬	-11.7636
不亦君子乎	-11.7636
殁	-11.7637
至聖之徳	-11.7637
肻	-11.7638
不相妨	-11.7638
狹隘	-11.7638
東西南北	-11.7638
逵	-11.7639
貧富貴賤	-11.7639
人性皆善	-11.7639
展轉	-11.764
錡	-11.764
衣帛食肉	-11.764
觚哉觚哉	-11.7641
跌	-11.7642
凰	-11.7642
峰	-11.7642
並育並行	-11.7643
懽	-11.7645
粟米	-11.7646
敬事而信	-11.7648
皡	-11.7648
論語類考	-11.765
吹	-11.7651
縕	-11.7827
不得於言勿求於心	-11.7829
奭	-11.7835
陪	-11.7836
庫	-11.7837
毳	-11.7838
博厚髙明	-11.7839
無善無不善	-11.7842
袪	-11.7846
輝	-11.7846
泛應曲當	-11.7846
軛	-11.7847
撞	-11.7847
涯	-11.7847
卜筮	-11.7848
四書類提要	-11.7848
腰	-11.7849
躓	-11.7849
勿軒熊氏曰	-11.785
我欲仁斯仁至矣	-11.7851
紛紜	-11.7851
恢	-11.7851
彪	-11.7852
槖	-11.7852
盡物之性	-11.7852
无	-11.7852
宛轉	-11.7852
聖而不可知	-11.7852
護	-11.7853
齊梁之君	-11.7853
租	-11.7853
猛獸	-11.7853
誑	-11.7854
君子哉若人	-11.7854
行有餘力則以學文	-11.7854
伯夷之清	-11.7854
臥	-11.7854
無伐善	-11.7855
蛟	-11.7855
隊	-11.7855
竅	-11.7856
摳	-11.7856
其至矣乎	-11.7856
謁	-11.7857
媢	-11.7857
技藝	-11.7857
與音餘	-11.7857
禎祥	-11.7857
宥	-11.7857
嗜慾	-11.7857
宫之竒	-11.7858
無宿諾	-11.7858
穫	-11.7858
巧言令色鮮矣仁	-11.7859
盾	-11.7859
觚不觚	-11.7859
郁	-11.7859
蠱	-11.786
有生之初	-11.786
加毫末	-11.786
悾悾	-11.786
性命之正	-11.786
質諸鬼神而無疑	-11.7861
禓	-11.7864
發憤忘食	-11.7864
二千五百	-11.7866
不嗜殺人	-11.7867
如斯而已	-11.7867
没世而名不稱	-11.7873
祖之所自出	-11.7874
好仁惡不仁	-11.7875
足與議	-11.7877
模様	-11.802
14	-11.8064
湣	-11.8065
竿	-11.8065
杞柳	-11.8069
綸	-11.807
不知命無以為君子	-11.807
繞	-11.807
頸	-11.8073
噬	-11.8073
纒	-11.8077
窮而在下	-11.8078
鬰	-11.8078
勑	-11.8079
庵	-11.8079
媵	-11.808
繇	-11.808
偉	-11.808
彖	-11.808
不俟駕	-11.8081
祓	-11.8081
呈露	-11.8081
不辱君命	-11.8081
窈	-11.8081
脗	-11.8081
挫	-11.8082
甥	-11.8082
註王肅曰	-11.8082
絡	-11.8082
惇	-11.8083
夭夭	-11.8083
苐	-11.8083
以言舉人	-11.8084
好惡與人相近	-11.8085
周生烈	-11.8086
樂以忘憂	-11.8086
凋	-11.8086
鞟	-11.8087
其庶幾乎	-11.8088
霓	-11.8089
子莫執中	-11.8089
羸	-11.8089
陣	-11.809
不占而已矣	-11.8091
義以方外	-11.8092
義之與比	-11.8094
陳善閉邪	-11.8096
閨門	-11.8097
猶愈於	-11.8097
分作兩	-11.8218
聖之清	-11.825
更定次序	-11.8292
士冠禮	-11.8296
壝	-11.8299
定静安	-11.83
郯	-11.8301
登東山	-11.8304
馴	-11.8304
戍	-11.8305
覸	-11.8305
舍生取義	-11.8308
巫馬期	-11.8308
刁蒙吉	-11.8308
莠	-11.8308
顧諟天之明命	-11.8309
鄒肇敏曰	-11.8309
四十而不惑	-11.8309
琮	-11.831
抹	-11.831
袖	-11.831
樂天知命	-11.831
得志行乎中國	-11.8311
以力服人	-11.8311
俯而就	-11.8312
燒	-11.8312
踊	-11.8312
如琢如磨	-11.8312
疲	-11.8313
軏	-11.8313
哀而不傷	-11.8313
史記弟子傳	-11.8314
割不正不食	-11.8314
燦	-11.8314
肺肝	-11.8314
明日遂行	-11.8314
無一物不得其所	-11.8314
闞	-11.8315
衝	-11.8315
公山不狃	-11.8315
使民戰栗	-11.8315
不動而敬不言而信	-11.8315
樊遲問知	-11.8316
達而在上	-11.8316
議禮制度考文	-11.8316
卞莊子	-11.8316
庖厨	-11.8316
媢嫉	-11.8317
瑗	-11.8317
游於藝	-11.8317
不願乎其外	-11.8317
非禮之禮非義之義	-11.8318
致堂胡氏	-11.8318
取諸人以為善	-11.8319
丒	-11.8319
心之全徳	-11.8319
已然之迹	-11.832
翅	-11.832
以幣交	-11.832
所識窮乏者得我	-11.832
仁與不仁	-11.832
窮理盡性以至於命	-11.8321
四時行百物生	-11.8321
上無道揆	-11.8322
施諸己而不願亦勿施於人	-11.8328
曳	-11.8328
軔	-11.8329
也注孔曰至	-11.8333
信以成之	-11.8398
分為兩	-11.8511
不計其	-11.853
武王克商	-11.8542
徹頭徹尾	-11.8542
所厚者薄	-11.8546
巧言令色足恭	-11.8546
刑罰不中	-11.8546
放於利而行	-11.8546
仁逺乎哉	-11.8547
世希不失矣	-11.8547
摰	-11.8547
先之勞之	-11.8547
以力假仁	-11.8548
凍	-11.8548
昵	-11.8548
俟再定	-11.8549
恊	-11.8549
察乎天地	-11.8549
夏禮吾能言之	-11.8549
春夏秋冬	-11.8549
罵	-11.8549
聰明聖知	-11.855
璋	-11.855
喧	-11.855
今也則亡	-11.855
曲能有誠	-11.855
衣敝緼袍	-11.855
迂濶	-11.8551
彌子瑕	-11.8551
比必二反	-11.8551
懾	-11.8551
莫見乎隱莫顯乎微	-11.8551
㩀	-11.8551
蹉	-11.8552
簋	-11.8552
行不掩	-11.8552
不舍晝夜	-11.8552
妖孽	-11.8553
銷	-11.8554
莫敢不	-11.8554
榱	-11.8554
藩	-11.8555
滌	-11.8555
執其兩端	-11.8556
壮	-11.8557
濩	-11.8558
不復夢見周公	-11.8559
斵	-11.8559
中道而廢	-11.856
為人上者	-11.8561
修道之教	-11.8562
夘	-11.8562
榆	-11.8567
言不及義	-11.8575
禹湯文武	-11.8646
靷	-11.8756
義禮智	-11.8767
馮婦	-11.8778
棟	-11.8781
逓	-11.8781
腊	-11.8781
闈	-11.8782
鰥	-11.8783
禹吾無間然矣	-11.8783
鶻	-11.8784
獲罪於天	-11.8787
徐行後長	-11.8788
韓詩外傳	-11.8788
鈔	-11.8788
居處恭執事敬與人忠	-11.8789
杯	-11.8789
無往而非	-11.8789
有不可勝言者	-11.8789
食貨志	-11.8789
脩己以敬	-11.879
駒	-11.879
虚靈不昧	-11.8791
聞斯行之	-11.8791
為仁由已	-11.8792
絮	-11.8792
旺	-11.8792
慿	-11.8792
垤	-11.8792
纑	-11.8792
有恥且格	-11.8794
媒	-11.8795
慄	-11.8795
翟	-11.8795
幕	-11.8795
柙	-11.8795
行已有恥	-11.8795
小弁之怨	-11.8795
好謀而成	-11.8795
務民之義	-11.8795
不愧屋漏	-11.8795
擘	-11.8796
隷	-11.8796
學如不及猶恐失之	-11.8796
子貢方人	-11.8796
啇	-11.8797
咻	-11.8797
無所忌憚	-11.8797
莞	-11.8797
菹	-11.8798
酷	-11.8798
呈	-11.8798
幻	-11.8799
宵	-11.88
求仁而得仁	-11.88
席不正不坐	-11.88
蘇秦張儀	-11.8801
酸	-11.8801
賢者而後樂此	-11.8802
辟與闢同	-11.8803
叔孫武叔	-11.8803
莅	-11.8803
脂	-11.8803
掖	-11.8804
藪	-11.8804
分田制禄	-11.8804
痺	-11.8804
尚書大傳	-11.8809
拜而受之	-11.8811
司㓂	-11.8822
晁	-11.8933
有一定之	-11.8943
晦菴朱氏南軒張氏	-11.897
侑	-11.9033
鷩	-11.9033
軸	-11.9033
縚	-11.9034
朝聞道夕死可矣	-11.9036
山節藻梲	-11.9036
槃	-11.9036
地理志	-11.9037
居下位	-11.9039
塟	-11.9039
悞	-11.904
瘁	-11.904
劍	-11.9041
不怨天不尤人	-11.9041
非助我	-11.9041
宓	-11.9041
桞	-11.9041
樂則韶舞	-11.9041
降志辱身	-11.9042
蒯	-11.9042
君子思不出其位	-11.9043
天生蒸民	-11.9043
如有用我	-11.9044
旻	-11.9044
古之人有行之者	-11.9044
祭神如神在	-11.9044
癢	-11.9044
自天子以至於庶人	-11.9044
吾不與祭如不祭	-11.9044
窮不失義	-11.9044
賄	-11.9045
湮	-11.9045
蹲	-11.9045
套	-11.9045
待其人而後行	-11.9045
寇讎	-11.9045
㓙	-11.9046
湯放桀	-11.9046
服周之冕	-11.9046
首陽山	-11.9047
閹	-11.9047
夜氣不足以存	-11.9047
奬	-11.9047
劑	-11.9048
援而止之而止	-11.9048
卵	-11.9048
磽	-11.9048
墨氏兼愛	-11.9049
沓沓	-11.9049
取瑟而歌	-11.9049
蚩	-11.905
喪大記	-11.905
聲音笑貌	-11.9051
三年無改於父之道可謂孝矣	-11.9051
與朋友交	-11.9051
掉	-11.9052
僨	-11.9052
子張學干禄	-11.9052
陽貨欲見孔子	-11.9052
顔師古	-11.9052
本立而道生	-11.9052
覬	-11.9052
緑	-11.9053
梯	-11.9053
一匡天下	-11.9053
無所取材	-11.9053
生財有大道	-11.9054
修己以安百姓	-11.9054
下無法守	-11.9056
無以尚之	-11.9056
嫂	-11.9056
徳之賊也	-11.9057
有所為而為	-11.9059
並行而不相悖	-11.9059
犁	-11.9066
鑑空衡平	-11.9068
笥	-11.9076
蕪	-11.9279
髙堅前後	-11.9288
狙	-11.9291
淮泗	-11.9292
籩	-11.9293
趾	-11.9294
仁山金氏	-11.9295
墊	-11.9295
富貴利達	-11.9295
渺	-11.9297
危邦不入亂邦不居	-11.9297
栢	-11.9298
構	-11.9298
禮樂征伐自諸侯出	-11.9298
捄	-11.9298
鮑	-11.9298
天命之謂性率性之謂道	-11.9299
斜	-11.9299
戰戰兢兢	-11.9299
芟五條减	-11.9299
喫𦂳	-11.93
狠	-11.93
行可之仕	-11.93
萇	-11.93
罟擭陷阱	-11.93
信而好古	-11.93
王弼曰	-11.9301
泳	-11.9301
課	-11.9303
橐	-11.9303
軀殻	-11.9303
不愧不怍	-11.9303
鴃	-11.9303
各有攸當	-11.9303
訣	-11.9304
宰予晝寢	-11.9304
揺	-11.9304
鍼	-11.9304
皜	-11.9304
穩	-11.9305
蹇	-11.9305
古之學者為己	-11.9305
割烹要湯	-11.9305
若聖與仁則吾豈敢	-11.9305
拖	-11.9306
憒	-11.9306
絀	-11.9307
安人安百姓	-11.9307
尊徳樂義	-11.9307
六言六蔽	-11.9307
無適無莫	-11.9308
匏瓜	-11.9308
舊染之汚	-11.9309
棊	-11.9315
縞	-11.9316
膚受之愬	-11.9317
圭璋	-11.932
謹其獨	-11.9322
中天下而立	-11.9336
麽	-11.9543
韍	-11.9543
桐梓	-11.9549
先立乎誠	-11.9551
迄	-11.9554
芮	-11.9556
常目在之	-11.9556
心之全德	-11.9557
子濯孺子	-11.9557
遐	-11.9558
屯	-11.9558
廿	-11.9558
有王者作	-11.9559
見賢思齊	-11.9559
㓂	-11.9559
上天之載無聲無臭	-11.9559
頻顣	-11.9559
彩	-11.956
猷	-11.9561
堯舜之道孝弟而已矣	-11.9561
不使不仁者加乎其身	-11.9561
欲平治天下	-11.9562
與衣狐貉者立	-11.9562
四書鏡曰	-11.9562
可離非道	-11.9563
戯	-11.9563
揀	-11.9564
皥皥	-11.9564
足用為善	-11.9565
避兄離母	-11.9565
誡	-11.9565
聰明睿智	-11.9565
絕	-11.9565
有不期然而然者	-11.9565
無餘藴矣	-11.9565
渙	-11.9565
谿	-11.9566
十目所視十手所指	-11.9566
販	-11.9566
言不必信行不必果	-11.9566
聞一知二	-11.9566
反身而誠樂莫大焉	-11.9566
睟面盎背	-11.9567
􁈭	-11.9567
蓍龜	-11.9567
知及仁守	-11.9567
鎡	-11.9567
邦君之妻	-11.9567
晰	-11.9568
麀	-11.9568
林放問禮之本	-11.9568
麰麥	-11.9568
𫝑	-11.9569
擇不處仁	-11.9569
論語集註大全卷	-11.9569
妻妾之奉	-11.9569
冉牛閔子顔淵	-11.9569
三月無君則弔	-11.957
穏	-11.957
攙	-11.9571
紆	-11.9571
鄭衛之	-11.9571
方五百里	-11.9571
任其責	-11.9573
䂓	-11.9575
黔	-11.9576
色厲而内荏	-11.9578
荏	-11.9579
滑釐	-11.9579
求為可知	-11.9581
廱	-11.9807
棁	-11.9816
四書近指卷	-11.9825
窟	-11.9825
焦	-11.9827
號泣于旻天	-11.9827
用之則行舍之則藏	-11.9827
碌	-11.9827
郁郁	-11.9828
僇	-11.9829
賊夫人之子	-11.9829
不違農時	-11.983
灾	-11.983
孫叔敖	-11.9831
不舎晝夜	-11.9831
臾	-11.9831
信道篤	-11.9832
峻極于天	-11.9832
栻	-11.9832
庇	-11.9833
仰事俯育	-11.9833
巍	-11.9833
見利思義	-11.9834
襟	-11.9834
洵	-11.9834
黙識心通	-11.9834
座	-11.9834
仁能守之	-11.9834
色取仁而行違	-11.9835
左丘明恥之丘亦恥之	-11.9835
熏	-11.9835
擇善而固執之	-11.9835
洒埽應對	-11.9835
言近而指逺	-11.9836
不能違天	-11.9836
胞	-11.9837
喚醒	-11.9837
雖得之必失之	-11.9837
内省不疚夫何憂何懼	-11.9837
鈇	-11.9838
閫	-11.9838
尊徳性而道問學	-11.9838
博學審問慎思明辨	-11.9838
可同日	-11.9839
尺寸之膚	-11.984
簟	-11.984
千變萬化	-11.984
通功易事	-11.984
濬	-11.9841
豎	-11.9841
仁政必自經界始	-11.9842
知愚賢不肖	-11.9842
非其義也非其道也	-11.9843
淄	-11.9843
罟	-11.9844
何事於仁必也聖乎	-11.9844
見義不為	-11.9844
恒胡登反	-11.9844
義襲而取	-11.9847
先立乎其大者	-11.9848
不害不悖	-11.9849
居深山	-11.985
烏路切	-11.985
放辟邪侈	-11.9851
蘓	-12.0028
觳	-12.0097
変	-12.0098
」9.	-12.0102
漯	-12.0103
尹公之他	-12.0104
筮	-12.0104
継	-12.0104
不逆不億	-12.0105
分崩離析	-12.0106
真積力久	-12.0106
寔	-12.0106
造端乎夫婦	-12.0107
糲	-12.0108
舉直錯枉	-12.0109
逝者如斯	-12.0109
造次必於是顛沛必於是	-12.011
富於周公	-12.011
裴	-12.011
子貢欲去告朔之餼羊	-12.011
猾	-12.011
讙	-12.0112
際可之仕	-12.0112
熹	-12.0112
一統志云	-12.0112
鉅	-12.0112
孔子曰以吾從大夫之後不敢不告也	-12.0112
事死如事生	-12.0113
摧	-12.0113
物之所以自成	-12.0113
九合諸侯	-12.0113
齊必變食	-12.0113
緡	-12.0113
不負戴於道路	-12.0113
循序漸進	-12.0114
附存疑曰	-12.0114
瀹	-12.0114
知和而和	-12.0115
撤	-12.0115
彼哉彼哉	-12.0116
先慎乎徳	-12.0116
鮮能知味	-12.0116
勇而無禮	-12.0116
貧且賤	-12.0116
好徳如好色	-12.0116
妬	-12.0117
子罕言利與命與仁	-12.0117
堯舜猶病	-12.0118
蠢	-12.0118
非其君不事	-12.0118
禆諶	-12.0118
蘧	-12.0118
剰	-12.0118
血流漂杵	-12.0118
段干木	-12.0119
耒耜	-12.0119
色勃如也	-12.0119
賻	-12.0119
異姓之卿	-12.0119
大畏民志	-12.0119
可耕且為	-12.0119
有朋自逺方來	-12.0119
繒	-12.012
朝祭之服	-12.012
出入無時莫知其鄉	-12.012
珪	-12.012
子游為武城宰	-12.012
何莫學夫詩	-12.012
騷	-12.0122
定靜安	-12.0122
槐	-12.0122
跟	-12.0123
志至焉氣次焉	-12.0123
麓	-12.0123
以羊易牛	-12.0123
知徳者鮮	-12.0124
倍上士上士倍中士中士倍下士下士與	-12.0124
不敢不勉	-12.0129
犧	-12.0131
圈	-12.0301
精察力行	-12.0378
兔	-12.0378
括地志	-12.0382
非其有而取之	-12.0382
因時制宜	-12.0383
虆	-12.0386
冗	-12.0388
陘	-12.0389
大而化之之謂聖	-12.039
聲聞過情	-12.039
蝕	-12.0391
紙	-12.0392
惠而不知為政	-12.0392
劉上玉	-12.0392
迴	-12.0392
耄	-12.0393
訾	-12.0394
何文定曰	-12.0394
茁	-12.0394
不素餐兮	-12.0394
籩豆之事則有司存	-12.0395
惟天下至誠	-12.0395
檟	-12.0395
一鄉之善士	-12.0395
断	-12.0396
雛	-12.0396
質勝文則野	-12.0396
可與入堯舜之道	-12.0396
貯	-12.0396
曼	-12.0396
仁内義外	-12.0397
猜	-12.0397
自天子至於庶人	-12.0397
徒法不能以自行	-12.0397
手舞足蹈	-12.0397
鷹	-12.0397
孶	-12.0398
異乎三子者之撰	-12.0398
堯舜帥天下以仁	-12.0398
不可階而升	-12.0398
涇	-12.0399
春服既成	-12.0399
輗	-12.0399
周雖舊邦其命維新	-12.0399
修道之謂教	-12.04
兢	-12.04
已見大意	-12.04
吾聞西伯善養老者	-12.0401
吾猶及史之闕文	-12.0401
有翦商之志	-12.0402
耐	-12.0402
無友不如己者	-12.0403
稠	-12.0403
以直養而無害	-12.0403
放鄭聲逺佞人	-12.0403
犢	-12.0404
瞑眩	-12.0404
一朝之忿	-12.0404
申申夭夭	-12.0404
彷彿	-12.0404
惟精惟一	-12.0404
彦昇按	-12.0405
嗛	-12.0405
贖	-12.0405
獯	-12.0405
羹	-12.0405
豈其然乎	-12.0406
蹝	-12.0406
心不外馳	-12.0406
易子而教	-12.0406
弩	-12.0406
杼	-12.0407
天地之道可一言而盡	-12.0407
君仁莫不仁君義莫不義	-12.0408
輗軏	-12.0408
敬以直内義以方外	-12.0409
百家衆技	-12.041
昩	-12.0411
袵	-12.0411
汁	-12.0415
心徳之全	-12.0417
盡性至命	-12.0606
東陽許氏	-12.0622
臨大節而不可奪	-12.0676
苴	-12.0679
周顯王	-12.0679
稚	-12.0681
翰林院	-12.0682
叔梁紇	-12.0684
寥	-12.0685
戒愼不睹恐懼不聞	-12.0686
急親賢	-12.0687
灑埽應對	-12.0688
無時無處	-12.0688
徐子以告夷子	-12.0689
凡為天下國家有九經	-12.0689
爨	-12.0689
𬒳	-12.0689
喜怒哀樂之未發謂之中	-12.0689
焄	-12.0689
饕	-12.0689
三年無改	-12.069
潑	-12.069
而由人乎哉	-12.069
前言往行	-12.069
蜚	-12.0691
剔	-12.0691
滚	-12.0691
在邦無怨在家無怨	-12.0691
天時不如地利	-12.0691
達巷黨人	-12.0691
系	-12.0691
不撤薑食	-12.0691
周有八士	-12.0693
知者樂水	-12.0693
自天子達於庶人	-12.0693
貟	-12.0693
遇諸塗	-12.0693
鏤	-12.0693
韜	-12.0693
君子去仁惡乎成名	-12.0693
閟	-12.0694
漂	-12.0694
愛之欲其生	-12.0694
循循善誘	-12.0694
舜何人也予何人也	-12.0694
而不足以解憂	-12.0694
由教而入	-12.0694
罃	-12.0694
文王之所以為文	-12.0695
如切如磋	-12.0695
孕	-12.0695
四體不言而喻	-12.0695
繼志述事	-12.0696
立則見其參	-12.0696
顔淵問為邦	-12.0696
扶問反	-12.0696
孝者所以事君	-12.0697
唐棣之華	-12.0697
窄	-12.0697
滲漏	-12.0697
言必信行必果	-12.0697
天與賢則與賢天與子則與子	-12.0698
禹之行水	-12.0698
大哉堯之為君	-12.0699
諦	-12.0699
一簞食一	-12.07
羖	-12.07
畜許六反	-12.07
二畝半	-12.0702
力役之征	-12.0702
管登之曰	-12.0702
邪說暴行	-12.0702
禆	-12.0703
子行三軍則誰與	-12.0703
徐岩泉曰	-12.0703
放僻邪侈	-12.0703
痿	-12.0704
曰未之思也夫何逺之有	-12.0704
嫂溺援之以手	-12.0705
綯	-12.0706
錯行代明	-12.071
縲	-12.0721
芟四條	-12.09
檐	-12.0968
韎	-12.0971
卷而懷之	-12.0979
法制禁令	-12.0979
鸇	-12.0985
璿	-12.0986
衿	-12.0987
悝	-12.0987
上好禮則民	-12.0988
簫	-12.0989
博學而篤志切問而近思	-12.0989
廣平游氏曰	-12.0989
哺	-12.0989
均無貧	-12.099
鶃鶃	-12.099
人之所以異於禽獸者	-12.0991
訝	-12.0991
博學於文約之以禮亦可以弗畔矣夫	-12.0992
聳	-12.0992
裝	-12.0992
7.1	-12.0992
以友輔仁	-12.0992
邈	-12.0993
子服景伯	-12.0993
佛肸之召	-12.0994
雍之言然	-12.0994
彎	-12.0994
能好人能惡人	-12.0994
糓	-12.0994
兢兢	-12.0995
縐	-12.0995
大同小異	-12.0995
智仁勇	-12.0995
敕	-12.0995
片言可以折獄	-12.0995
正己而物正	-12.0995
管夷吾	-12.0996
蔟	-12.0996
吾老矣不能用也	-12.0996
莊以涖之	-12.0996
公山弗擾以費畔	-12.0996
得之為有財	-12.0997
盍歸乎來	-12.0997
歸咎於	-12.0998
參前倚衡	-12.0998
具體而微	-12.0998
水逆行	-12.0998
有教無類	-12.0998
當仁不讓於師	-12.0998
既竭吾才	-12.0998
桓公殺公子糾	-12.0999
徯我后	-12.0999
規矩準繩	-12.0999
舉斯心加諸彼	-12.1
用我者吾其為東周乎	-12.1
仁之至義之盡	-12.1
好是懿徳	-12.1
狂而不直	-12.1
不賢者雖有此不樂	-12.1001
君子不以紺緅飾	-12.1001
翦	-12.1001
知義理之無窮	-12.1001
猥	-12.1001
寡小君	-12.1002
此二節書是	-12.1002
乱	-12.1002
陂	-12.1003
兼氣質而言	-12.1004
好勇過我	-12.1004
非徒無益而又害之	-12.1005
觽	-12.1005
寘	-12.1006
非其鬼而祭之	-12.1008
乾道變化各正性命	-12.1008
頎	-12.1009
迅雷風烈必變	-12.101
鴻鴈麋鹿	-12.101
鴟鴞	-12.1011
鄕	-12.1012
三分去一	-12.1028
侏	-12.1291
䢵	-12.1292
貍	-12.1294
為力不同科	-12.13
矧	-12.1301
六十而耳順	-12.1301
綬	-12.1301
鎛	-12.1301
彥	-12.1302
軟	-12.1303
加我數年	-12.1303
凊	-12.1303
知我者其天乎	-12.1303
少孔子四十	-12.1304
祕	-12.1304
閱	-12.1304
猗	-12.1305
婁	-12.1305
泆	-12.1305
髓	-12.1305
餲	-12.1305
炫	-12.1306
居必遷坐	-12.1306
已所不欲勿施於人	-12.1306
蹵	-12.1307
坐如尸	-12.1307
唯聖者能之	-12.1307
倐	-12.1307
耗	-12.1307
浡	-12.1307
非禮勿視聽言動	-12.1307
文王治岐	-12.1307
孔子對曰言不可以若是其幾也	-12.1307
鄉射禮	-12.1308
或問此一節曰	-12.1308
天地之正氣	-12.1308
幷	-12.1308
雖之夷狄不可棄也	-12.1308
章總旨	-12.1309
攖	-12.1309
謾	-12.131
𠂻	-12.131
所性不存焉	-12.131
釀	-12.131
察言觀色	-12.131
君子道者三我無能焉	-12.131
怵	-12.1311
簠簋	-12.1311
上行下效	-12.1311
陳成子弑簡公	-12.1311
未之聞也	-12.1311
匐	-12.1312
匍	-12.1312
終亦必亡而已矣	-12.1312
五畆之宅	-12.1312
於穆不已	-12.1312
行下孟反	-12.1312
踏	-12.1312
公伯竂	-12.1312
恂	-12.1313
孰甚焉	-12.1313
民徳歸厚	-12.1314
憂道不憂貧	-12.1314
玷	-12.1314
盡窮天下之	-12.1314
與百姓同之	-12.1314
檀	-12.1314
莖	-12.1314
襞	-12.1315
君子有三樂而王天下不與存焉	-12.1315
饉	-12.1315
授之以政	-12.1315
甚矣吾衰也	-12.1316
蒞	-12.1316
知之為知之不知為不知	-12.1316
址	-12.1317
攝行相事	-12.1317
我善養吾浩然之氣	-12.1317
痒	-12.1318
鰌	-12.1318
不知老之將至	-12.1319
仭	-12.1319
墾	-12.132
何怨之有	-12.1322
蕤	-12.1322
右第三十	-12.1323
飦	-12.1324
王文憲	-12.1557
孺	-12.1572
矦	-12.1584
称	-12.1608
翺	-12.1611
」	-12.1613
嘿	-12.1617
隴	-12.162
汜	-12.1621
從容不迫	-12.1621
埤	-12.1621
一草一木	-12.1622
剝	-12.1623
屺	-12.1623
舂	-12.1624
裸	-12.1625
仁之於父子	-12.1625
蘆	-12.1625
糜	-12.1625
汩	-12.1626
倚於一偏	-12.1626
癩	-12.1626
充類至義之盡	-12.1626
整齊嚴肅	-12.1626
忘人之勢	-12.1627
蹄	-12.1627
桂	-12.1627
於䖍切	-12.1627
墮三都	-12.1627
俄	-12.1627
攜	-12.1628
覈	-12.1628
壙	-12.1628
心統性情	-12.1628
孟僖子	-12.1628
糜爛其民	-12.1629
𥙷	-12.1629
若由也不得其死然	-12.163
斟	-12.163
壹是皆以修身為本	-12.163
俚	-12.163
据	-12.163
不惡而嚴	-12.163
眂	-12.163
松陽講義	-12.163
耕者九一	-12.163
舜有臣五人而天下治	-12.1631
瞻之在前忽焉在後	-12.1631
狐貉之厚以居	-12.1631
畛	-12.1631
子路使子羔為費宰	-12.1631
㤀	-12.1631
慎終追逺	-12.1631
戹	-12.1632
國不以利為利以義為利	-12.1632
移風易俗	-12.1632
忝	-12.1633
温良恭儉讓	-12.1633
子使漆雕開仕	-12.1634
㝷	-12.1634
誰毁誰譽	-12.1634
冲	-12.1634
丘之禱久矣	-12.1634
功烈如彼其卑	-12.1634
郝	-12.1634
皿	-12.1635
寬	-12.1635
罹	-12.1635
顧麟士曰	-12.1635
文莫吾猶人也	-12.1635
皁	-12.1636
瓘	-12.1636
璞	-12.1636
不以天下儉其親	-12.1637
飽乎仁義	-12.1637
鼈	-12.1637
天下可運於掌	-12.1637
實始翦商	-12.1638
莧	-12.1639
鷄	-12.1639
韞	-12.1639
妣	-12.164
萬二千五百家	-12.164
原思為之宰	-12.164
車中不内顧	-12.1641
瞶	-12.1641
蓧	-12.1647
殍	-12.166
子謂顔淵曰	-12.1747
不得於心勿求於氣	-12.1919
。」11.	-12.1939
堕	-12.1947
勅	-12.1949
以能問於不能	-12.1949
浙	-12.195
䳘	-12.1952
習與性成	-12.1955
麒	-12.1956
茨	-12.1956
䋲	-12.1957
黄衣狐裘	-12.1957
見志不從又敬	-12.1958
三人行必有我師	-12.1958
上下與天地同流	-12.1958
於人何所不容	-12.1958
上知與下愚不移	-12.1958
敷救反	-12.1958
以文㑹友	-12.1958
管仲之器小哉	-12.1959
何莫由斯	-12.1959
搖	-12.1959
蟻	-12.196
天下有道則政不在大夫	-12.196
邃	-12.196
郉	-12.196
遵道而行	-12.1961
范甯曰	-12.1961
燼	-12.1962
壟	-12.1962
楷	-12.1962
生質之美	-12.1963
升成拜	-12.1963
伎	-12.1963
関	-12.1964
列女傳	-12.1964
敬鬼神而逺之	-12.1964
劫	-12.1964
矛	-12.1964
鵝	-12.1965
挑	-12.1965
澤梁無禁	-12.1965
蔣	-12.1965
迤	-12.1965
蠧	-12.1965
禹稷當平世	-12.1965
氣以成形	-12.1965
耽	-12.1966
惡紫之奪朱	-12.1966
無欲害人之心	-12.1966
夫何使我至於此極也	-12.1966
子曰聽訟吾猶人也必也使無訟乎	-12.1966
受堯之天下	-12.1966
陌	-12.1966
機變之巧	-12.1966
體信達順	-12.1966
孔子曰殷有三仁焉	-12.1967
㢤	-12.1967
以其兄之子妻之	-12.1967
謫	-12.1968
餱	-12.1968
株	-12.1968
麾	-12.1968
水之就下	-12.1968
鍵	-12.1969
葷	-12.1969
鐡	-12.1969
邶	-12.1969
願無伐善無施勞	-12.1969
觴	-12.197
靮	-12.197
刄	-12.197
船	-12.197
袷	-12.1971
足食足兵	-12.1972
君不君臣不臣父不父子不子	-12.1973
詩云永言配命自求多福	-12.1973
翩	-12.1973
周禮地官	-12.1974
栘	-12.1976
綺	-12.1976
岸	-12.1977
肢	-12.1977
仰不愧俯不怍	-12.1977
物各付物	-12.1977
人不足與適也	-12.1978
孫以出之	-12.1978
瞞	-12.1978
豢	-12.1979
曰何如斯可	-12.1979
耜	-12.198
齕	-12.198
勒	-12.1985
。」4.	-12.1985
筏	-12.1991
蒍	-12.2288
殺身以成仁	-12.2294
詁	-12.2296
見不善如探湯	-12.2296
龎	-12.2297
球	-12.2298
杳	-12.2299
鰥寡孤獨	-12.2299
翰	-12.23
雎	-12.23
天下莫能載	-12.2301
性相近也習相逺也	-12.2302
嬉	-12.2302
苙	-12.2302
流風餘韻	-12.2303
老安少懐	-12.2304
鋸	-12.2304
罔之生也幸而免	-12.2304
仕止乆速	-12.2305
秬	-12.2305
公孫衍張儀	-12.2305
雖曰未學吾必謂之學矣	-12.2306
赫兮喧兮	-12.2306
與朋友交言而有信	-12.2306
深切著明	-12.2306
格庵趙氏曰	-12.2306
辭尊居卑辭富居貧	-12.2306
貧而無諂	-12.2306
禹平水土	-12.2306
逾	-12.2306
孟子對曰於傳有之	-12.2307
譚梁生	-12.2307
仲叔圉	-12.2308
煬	-12.2308
如用之則吾從先進	-12.2308
自任以天下之重	-12.2309
宋趙順孫撰	-12.2311
禹稷顔回同道	-12.2311
捆	-12.2311
蒿	-12.2311
拔本塞源	-12.2311
以其所愛及其所不愛	-12.2311
竪	-12.2311
是心足以王矣	-12.2311
齊景公田招虞人以旌不至將殺之	-12.2311
謹權量	-12.2311
攻其惡無攻人之惡	-12.2311
事其大夫之賢者友其士之仁者	-12.2312
元劉因撰	-12.2312
豈若匹夫匹婦之為諒也	-12.2312
九夫為井	-12.2313
詩大雅文王之篇	-12.2313
㢲	-12.2313
兾	-12.2313
子莫之執中	-12.2313
芑	-12.2314
孩提之童無不知愛其親	-12.2314
志者心之所之	-12.2314
曰否以粟易之	-12.2314
兀	-12.2315
六斗四升	-12.2315
辟土地朝秦楚	-12.2315
禮之用和為貴	-12.2315
父在觀其志	-12.2315
利者義之和	-12.2315
耑	-12.2316
鼃	-12.2316
三宿出晝	-12.2316
吉月必朝服而朝	-12.2316
扁	-12.2317
亾	-12.2317
駑	-12.2317
憧	-12.2318
王者之迹熄	-12.2318
疋	-12.2318
綂	-12.2318
以財發身	-12.2318
三家者以雍徹	-12.2318
。」2.	-12.2319
象憂亦憂象喜亦喜	-12.232
曰得其所哉得其所哉	-12.2321
耳目鼻口	-12.2322
先發後聞	-12.2323
於從政乎何有	-12.2324
方一里者	-12.2328
慱	-12.233
箱	-12.2637
剡	-12.2644
殀壽不貳	-12.2646
肘	-12.2649
何如斯可謂	-12.265
耀	-12.2656
求生以害仁	-12.2656
孔叢子	-12.2656
果於忘世	-12.2657
姊	-12.2657
周監於二代郁郁乎文哉	-12.2658
人事之儀則	-12.2658
養心莫善於寡欲	-12.2658
任重而道逺	-12.2659
黶	-12.266
格其非心	-12.266
矇	-12.266
其淵其天	-12.266
子産有君子之道四焉	-12.266
大徳不踰閑	-12.2661
薇	-12.2661
緘	-12.2661
皇朝太師	-12.2661
抱闗擊柝	-12.2661
不忮不求何用不臧	-12.2662
君子所貴乎道者三	-12.2662
扇	-12.2662
可以寄百里之命	-12.2662
翣	-12.2663
蕩蕩乎民無能名焉	-12.2663
㒺	-12.2663
紬	-12.2663
深耕易耨	-12.2663
剽	-12.2663
摶	-12.2663
仁之實事親是也	-12.2663
子曰無欲速無見小利	-12.2663
泄栁申詳	-12.2663
爭民施奪	-12.2664
鴟	-12.2664
好呼報反	-12.2664
不如丘之好學也	-12.2664
見危致命	-12.2665
芬	-12.2665
有不善未嘗不知知之未嘗復行	-12.2665
廣土衆民	-12.2665
梢	-12.2666
仁義禮智根於心	-12.2666
不明乎善不誠乎身	-12.2666
敬忠以勸	-12.2666
余氏辨曰	-12.2666
無忠做恕不出	-12.2666
鋤	-12.2667
敬大臣體羣臣	-12.2667
溥博淵泉而時出之	-12.2667
勿求於氣	-12.2667
以意逆志	-12.2667
定四海之民	-12.2667
少正卯	-12.2667
踴	-12.2668
吾末如之何也已矣	-12.2668
吕侍講曰	-12.2668
子張問十世可知也	-12.2668
桷	-12.2668
仰之彌高	-12.2668
也使先知覺後知使先覺覺後覺	-12.2668
守約而施博	-12.2668
不受命而貨殖	-12.2668
齊必有明衣布	-12.2669
纉	-12.2669
椎	-12.2669
三年無改於父之道	-12.2669
四時行焉百物生焉	-12.2669
舉直錯諸枉	-12.2669
享禮有容色	-12.2669
戢	-12.2669
田獵於此百姓聞王車馬之音見羽旄之	-12.2669
姣	-12.2669
予也有三年之愛於其父母乎	-12.267
村	-12.267
盆	-12.267
而不繹從而不改	-12.267
叠	-12.267
四書辨疑卷	-12.2671
燥	-12.2672
阼	-12.2672
必有事焉而勿正心勿忘勿助長也	-12.2672
修徳凝道	-12.2673
不逆詐不億不信	-12.2673
窶	-12.2673
妁	-12.2673
焦漪園曰	-12.2673
寺	-12.2673
孟子又答之曰	-12.2673
人告之以有過則喜	-12.2673
齊景公有馬千駟	-12.2675
理一而分殊	-12.2675
其義則丘竊取之矣	-12.2676
繢	-12.2676
天將以夫子為木鐸	-12.2676
舜亦以命禹	-12.2676
氣壹則動志	-12.2678
雁	-12.2678
躬自厚而薄責於人	-12.2678
蓁	-12.2678
踖	-12.2681
疾沒世而名不稱	-12.2681
隧	-12.2682
褐寛博	-12.2685
油	-12.2988
柰	-12.2998
虔	-12.3019
眾	-12.3022
頫	-12.3025
有如時雨化之者	-12.3025
如其禮樂以俟君子	-12.3027
岀	-12.3027
慣	-12.3028
陳司敗問昭公知禮乎	-12.3028
余氏辯曰	-12.3029
儔	-12.3029
必世而後仁	-12.3029
塞乎天地之間	-12.303
夫子之言性與天道不可得而聞也	-12.3031
郈	-12.3031
天生徳於予	-12.3031
趍	-12.3032
崇國文忠公臨安府鹽官張九成子韶	-12.3032
霆	-12.3032
君子固窮小人窮斯濫矣	-12.3032
莾	-12.3033
伶	-12.3033
定宇陳氏曰	-12.3033
殫	-12.3033
疏食飲水	-12.3033
悽	-12.3033
匿怨而友其人	-12.3033
豉	-12.3034
愴	-12.3034
硜	-12.3034
雖愚必明	-12.3034
卹	-12.3034
誰能出不由户	-12.3034
子張問政子曰居之無倦行之以忠	-12.3035
葦	-12.3035
夫子循循然善誘人	-12.3035
逢君之惡	-12.3035
知為君之難	-12.3035
好是懿德	-12.3035
無或乎王之不智	-12.3036
可以取可以無取	-12.3036
如不可求從吾所好	-12.3036
綢	-12.3036
寛裕温柔	-12.3037
不見是而無悶	-12.3037
賢者在位能者在職	-12.3037
難與並為仁	-12.3037
某在斯某在斯	-12.3037
悛	-12.3037
不幸短命死矣	-12.3037
黨之小子狂簡斐然成章不知所以裁之	-12.3037
潁	-12.3038
葱	-12.3038
孟子集編卷	-12.3038
生而知之者上也學而知之者次也	-12.3039
徒善不足以為政	-12.3039
漓	-12.304
其斯之謂與	-12.304
學問之道無他求其放心而已矣	-12.304
綌	-12.3041
摭	-12.3041
蘄	-12.3041
物有本末事有終始知所先後則近道矣	-12.3041
死生有命富貴在天	-12.3041
事理當然之極	-12.3042
濱聞文王作興曰盍歸乎	-12.3042
很	-12.3042
挟	-12.3042
李九我曰	-12.3042
以不賢人之招招賢人	-12.3042
嵩	-12.3042
父子不相見兄弟妻子離散	-12.3042
輶	-12.3042
牾	-12.3043
肸	-12.3043
篡弑之	-12.3043
壻	-12.3043
出疆必載質	-12.3043
天作孽猶可違自作孽不可活此之謂也	-12.3043
三分天下有其二以服事殷	-12.3043
是可忍也孰不可忍也	-12.3043
子貢曰文武之道未墜於地在人賢者識	-12.3044
工不信度	-12.3044
請野九一而助國中什一使自賦	-12.3044
。」3.	-12.3045
邦有道不廢邦無道免於刑戮	-12.3045
合性與知覺有心之名	-12.3045
其大者不賢者識其小者莫不有文	-12.3046
虚齋蔡氏曰	-12.3046
山梁雌雉	-12.3047
伹	-12.3047
瞽瞍亦允若	-12.3047
天子不能以天下與人	-12.3048
孝弟也者其為仁之本與	-12.3048
孔穎達	-12.3048
庶人在官者同禄禄足以代其耕也	-12.3049
不言不笑不取	-12.3049
劈	-12.305
滔	-12.3051
柞	-12.3051
紓	-12.3052
富有四海之内宗廟饗之子孫保之	-12.3054
家之本在身	-12.3056
蹯	-12.3062
窬	-12.3069
杭	-12.3403
隠居放言	-12.3405
軓	-12.3406
江熙云	-12.3406
鞠	-12.3407
所包者廣	-12.3408
閤	-12.3408
𥙿	-12.3409
兠	-12.3409
如有周公之才之美	-12.341
䟽食飲水	-12.341
濓	-12.3411
簞食瓢飲	-12.3412
瑚	-12.3412
蜃	-12.3412
燎	-12.3412
仁孝誠敬之至	-12.3413
隻	-12.3413
旃	-12.3413
聵	-12.3413
子張書諸紳	-12.3414
願為小相	-12.3414
酈	-12.3414
跋	-12.3414
近取諸身	-12.3415
不患無位患所以立	-12.3415
梗	-12.3415
流動充滿	-12.3415
昂	-12.3415
暘	-12.3415
糟	-12.3415
覜	-12.3416
凜	-12.3416
地利不如人和	-12.3416
渝	-12.3417
魯人為長府	-12.3417
閹然媚於世	-12.3418
今之大夫今之諸侯之罪人也	-12.3418
中也養不中	-12.3418
張侗初曰	-12.3419
朋友切切偲偲兄弟怡怡	-12.3419
家貧親老	-12.3419
帯	-12.342
雞豚狗彘之畜無失其時	-12.342
請益曰無倦	-12.342
岱	-12.342
乗殷之輅	-12.3421
以能問於不能以多問於寡有若無實若	-12.3421
季氏將伐顓臾	-12.3421
面而征西夷怨南面而征北狄怨曰奚	-12.3421
志士不忘在溝壑勇士不忘喪其元	-12.3421
若存若亡	-12.3421
其本亂而末治者否矣	-12.3422
徯	-12.3422
鎧	-12.3422
興於詩立於禮成於樂	-12.3422
墁	-12.3422
李林甫	-12.3422
公伯寮其如命何	-12.3422
瓊	-12.3423
季康子問政於孔子	-12.3423
錐	-12.3423
兜	-12.3423
食饐而餲	-12.3423
八佾舞於庭	-12.3423
多識於鳥獸草木之名	-12.3423
人莫不飲食也鮮能知味也	-12.3424
姚承菴曰	-12.3424
懌	-12.3424
袒裼裸裎	-12.3424
蔽陷離窮	-12.3424
彼白而我白之	-12.3424
嚶	-12.3424
莫見莫顯	-12.3424
膽	-12.3424
我則異於是無可無不可	-12.3424
山徑之蹊	-12.3424
必也使無訟乎	-12.3425
台	-12.3425
殞	-12.3425
孟氏使陽膚為士師	-12.3425
子曰必也正名乎	-12.3425
所令反其所好	-12.3425
脾	-12.3425
纘	-12.3426
呼報切下	-12.3426
道其不行矣夫	-12.3426
鱉	-12.3426
于偽切下	-12.3427
一隂一陽之謂道	-12.3427
周因於殷禮所損益可知也	-12.3427
東溪劉氏	-12.3427
憂勤惕厲	-12.3427
璜	-12.3428
建諸天地而不悖	-12.3428
躬行君子則吾未之有得	-12.3428
麥丘邑人	-12.3429
聖人復起不易吾言	-12.3429
可須㬰離	-12.3429
籔	-12.3429
子不語怪力亂神	-12.343
匵	-12.343
行道而有得於心	-12.343
沽酒市脯不食	-12.3431
聞一善言見一善行	-12.3431
斆	-12.3431
灸	-12.3431
明睿所照	-12.3432
摺	-12.3434
闘	-12.3435
白石錢氏	-12.3435
銅	-12.3437
傒	-12.3438
紲	-12.3453
。」6.	-12.379
妹	-12.3799
蜼	-12.3801
劵	-12.3803
檻	-12.3804
獮	-12.3806
有言者不必有徳	-12.3809
王宇泰曰	-12.381
盡其道而死者正命也	-12.3812
非存心無以致知	-12.3812
地方百里而可以王	-12.3812
鵞	-12.3812
傚	-12.3812
小人閒居為不善	-12.3813
由堯舜至於湯	-12.3813
描	-12.3813
都鄙用助法	-12.3813
可以為善可以為不善	-12.3814
物格而后知至	-12.3814
誠哉是言也	-12.3815
局量褊淺	-12.3815
愕	-12.3815
劭	-12.3815
一日用其力於仁矣乎我未見力不足者	-12.3816
忙	-12.3816
儕	-12.3817
猖	-12.3817
廸	-12.3817
車馬輕裘	-12.3817
禘自既灌而往	-12.3818
蔓	-12.3818
以杖叩其脛	-12.3818
致中和天地位焉萬物育焉	-12.3819
菑必逮夫身	-12.3819
仰之彌髙	-12.3819
民無所措手足	-12.3819
伯夷叔齊孤竹君之二子	-12.3819
有斐君子終不可諠兮	-12.3819
億則屢中	-12.3819
周季侯曰	-12.3819
三老五更	-12.382
啄	-12.382
刮	-12.382
哇	-12.382
鏘	-12.382
然則從之者與	-12.382
文王之囿方七十里	-12.382
斯人也而有斯疾也	-12.382
顧涇陽曰	-12.382
蔡虚齋曰	-12.382
仰鑚瞻忽	-12.382
被堯舜之澤	-12.382
不知言無以知人	-12.382
失衆失國	-12.382
燔肉不至	-12.3821
憲章文武	-12.3821
天之未喪斯文也匡人其如予何	-12.3821
菟	-12.3822
鄭聲淫佞人殆	-12.3822
齊人伐燕勝之	-12.3822
道二仁與不仁而已	-12.3822
有罪不敢赦	-12.3823
拆	-12.3823
隨事精察而力行之	-12.3823
跛	-12.3824
民事不可緩	-12.3824
虚無寂滅	-12.3824
富與貴是人之所欲也	-12.3824
果哉末之難矣	-12.3824
來朝走馬	-12.3825
王者之迹熄而詩亡詩亡然後春秋作	-12.3825
老者安之朋友信之少者懷之	-12.3825
籌	-12.3825
天覆地載	-12.3825
仙	-12.3826
畧更次序	-12.3826
㨿	-12.3826
仁者安仁知者利仁	-12.3826
老吾老以及人之老幼吾幼以及人之幼	-12.3826
子貢曰管仲非仁者與	-12.3826
知止而后有定定而后能	-12.3826
杜元凱	-12.3826
道不同不相為謀	-12.3826
自經於溝瀆而莫之知也	-12.3826
非其君不事非其民不使治則進亂則退	-12.3826
斷髪文身	-12.3827
滹	-12.3827
大舜有大焉	-12.3827
老者衣帛食肉黎民不飢不寒	-12.3827
斯民也三代之所以直道而行也	-12.3827
尢	-12.3827
徳慧術知	-12.3827
好察邇言	-12.3827
孟子注疏卷十	-12.3828
明陳士元撰	-12.3829
君召使擯	-12.3829
可與立未可與權	-12.383
逡	-12.383
盂	-12.383
升車必正立執綏	-12.383
禹聞善言則拜	-12.383
取之左右逢其原	-12.383
侍於君子有三愆	-12.383
聒	-12.383
不可以長處樂	-12.383
先正其心欲正其心者先誠其意	-12.383
揔	-12.383
徴諸庶民	-12.3831
幽暗之中	-12.3832
饘	-12.3832
雖有粟吾得而食諸	-12.3833
朝服而立於阼階	-12.3833
康子饋藥	-12.3834
黈	-12.3834
由之瑟奚為於丘之門	-12.3835
埽	-12.3836
騰	-12.3838
訴	-12.3838
喟	-12.4197
陬	-12.4213
剋	-12.4218
」19.	-12.422
責難陳善	-12.422
堊	-12.4223
雖多亦奚以為	-12.4223
輢	-12.4225
誚	-12.4227
們	-12.4228
璉	-12.4228
亞於浴沂	-12.4229
瞿	-12.4229
陜	-12.423
􁂯	-12.423
以是心至斯受之	-12.423
躱	-12.423
殻	-12.423
墠	-12.4231
俠	-12.4231
君子喻於義小人喻於利	-12.4231
鄒與魯閧	-12.4231
善繼善述	-12.4232
大全辨芑山張氏曰	-12.4232
憲問第十四	-12.4232
朗	-12.4232
濤	-12.4233
王滹南曰	-12.4233
千條萬緒	-12.4233
難乎免於今之世矣	-12.4233
事父母能竭其力事君能致其身	-12.4233
畎畆之中	-12.4233
南山有臺	-12.4233
禮樂征伐自天子出	-12.4233
思知人不可以不知天	-12.4234
酖	-12.4234
子夏之門人問交於子張	-12.4234
居是邦不非其大夫	-12.4234
慢令致期謂之賊	-12.4234
孟子纂箋卷	-12.4234
孔子沐浴而朝告於哀公	-12.4234
飯扶晚反	-12.4234
原泉混混	-12.4234
此章入要畧一之	-12.4234
吾未見能見其過而内自訟	-12.4235
可欺也不可罔也	-12.4235
泌	-12.4235
佃	-12.4235
披	-12.4235
季氏第十六	-12.4235
誌	-12.4235
名不正則言不順言不順則事不成	-12.4236
庸徳之行庸言之謹	-12.4236
樂正雅頌各得其所	-12.4236
陽貨第十七	-12.4236
春秋無義戰	-12.4236
湯霍林曰	-12.4236
恫	-12.4236
臟	-12.4237
卬	-12.4237
闌	-12.4237
孟子集註大全卷	-12.4237
無行而不與二三子	-12.4237
考證欽定四庫全書孟子注疏卷	-12.4237
好仁不好學其蔽也愚	-12.4237
其所厚者薄而其所薄者厚未之有也	-12.4237
曰今日我疾作不可以執弓	-12.4238
學而不思則罔思而不學則殆	-12.4238
擇其善者而從之多見而識之知之次也	-12.4238
邸	-12.4238
帑	-12.4238
不泄邇不忘逺	-12.4238
銀	-12.4238
以堯舜之道要湯	-12.4238
䑕	-12.4238
莆	-12.4238
道之將行也與命也道之將廢也與命也	-12.4239
生事之以禮死葬之以禮祭之以禮	-12.4239
魯無君子者斯焉取斯	-12.4239
胡炳文撰朱子集註	-12.4239
芝	-12.4239
弃	-12.4239
咽	-12.4239
不圖為樂之至於斯	-12.424
穪	-12.424
許子必種粟而後食乎	-12.424
昻	-12.4241
良人出則必饜酒肉而後反	-12.4241
虹	-12.4241
濂	-12.4241
白馬白人	-12.4241
酧	-12.4241
先進第十一	-12.4242
子曰桓公九合諸侯	-12.4242
先仁後知	-12.4242
恙	-12.4242
莊忠甫曰	-12.4242
舘	-12.4242
豈欺我哉	-12.4243
尚書逸篇	-12.4243
先難而後獲	-12.4243
以約失之者鮮	-12.4243
上老老而民興孝上長長而民興弟	-12.4243
視民如傷	-12.4243
駿	-12.4243
寛則得衆	-12.4243
刑于寡妻至于兄弟以御于家邦	-12.4243
賾	-12.4243
曾子曰吾聞諸夫子	-12.4243
簇	-12.4244
孟子見梁襄王	-12.4244
衎	-12.4244
溷	-12.4244
唇	-12.4244
彜	-12.4244
冉子與之粟五秉	-12.4244
出則事公卿入則事父兄	-12.4244
權然後知輕重	-12.4244
阨窮而不憫	-12.4244
季氏使閔子騫為費宰	-12.4245
及其長也無不知敬其兄	-12.4245
所求乎子以事父未能	-12.4245
孟子為卿於齊	-12.4245
道於虞以伐虢	-12.4246
徭	-12.4246
天何言哉四時行焉百物生焉天何言哉	-12.4246
所謂平天下在治其國者	-12.4247
責難於君謂之恭	-12.4248
催	-12.4248
欲誠其意者先致其知致知在格物	-12.4248
下孟切下	-12.4248
贏	-12.4248
猝	-12.4248
窳	-12.4249
私覿愉愉如也	-12.4249
芟六條	-12.4249
廓然大公	-12.425
君子欲訥於言而敏於行	-12.425
湎	-12.4251
一動一靜	-12.4251
珩	-12.4253
修身以道修道以仁	-12.4253
瞰	-12.4253
惬	-12.4254
攣	-12.4256
陥	-12.4256
大國地方百里	-12.4257
抔	-12.4264
緌	-12.4267
憮	-12.4613
襃	-12.4642
泮	-12.4645
泝	-12.4656
煌	-12.4658
奢而犯禮	-12.4659
暴虎馮河	-12.4659
鎔	-12.4659
惲	-12.466
見不賢而内自省	-12.466
不患人之不己知	-12.466
拳	-12.466
褎	-12.4661
跲	-12.4662
从	-12.4663
耼	-12.4664
蹟	-12.4664
無入不自得	-12.4664
恚	-12.4664
數罟不入洿池	-12.4664
狸	-12.4665
山節藻棁	-12.4665
茶	-12.4665
掾	-12.4665
鴆	-12.4666
眊	-12.4666
寰	-12.4666
明哲保身	-12.4667
此不再述	-12.4667
小人學道則易使也	-12.4667
食飲水曲肱而枕之樂亦在其中矣	-12.4667
皇甫謐	-12.4668
攀	-12.4668
蚔	-12.4668
親賢樂利	-12.4668
鳶飛戾天魚躍于淵	-12.4668
成己仁也成物知也	-12.4668
無乃為佞乎	-12.4668
寡人願安承教	-12.4668
嘬	-12.4668
戒謹不睹恐懼不聞	-12.4668
武王曰予有亂臣十人	-12.4669
擇其善者而從之	-12.467
如有政雖不吾以吾其與聞之	-12.467
斑	-12.467
言忠信行篤敬	-12.467
岩	-12.467
針	-12.467
迥	-12.467
孝子慈孫	-12.467
述而第七	-12.467
唤	-12.467
甄	-12.4671
吾十有五而志于學	-12.4671
勞之來之匡之直之輔之翼之	-12.4671
道之以徳齊之以禮	-12.4671
父母之不我愛於我何哉	-12.4671
五就湯五就桀	-12.4671
主癰疽與侍人瘠環	-12.4671
篤於親則民興於仁故舊不遺則民不偷	-12.4671
上律下襲	-12.4671
由仁義行非行仁義	-12.4671
叔孫武叔毁仲尼	-12.4671
君子恥其言而過其行	-12.4671
公叔文子之臣大夫僎與文子同升諸公	-12.4672
植其杖而芸	-12.4672
齊景公問政於孔子	-12.4672
好直不好學其蔽也絞	-12.4672
則民莫敢不用情	-12.4672
之三子告不可	-12.4673
人而不仁如禮何人而不仁如樂何	-12.4673
車馬衣輕裘與朋友共敝之而無憾	-12.4673
元詹道傳撰	-12.4673
岡	-12.4673
蟠	-12.4673
居之似忠信行之似	-12.4673
規矩凖繩	-12.4673
上智與下愚不移	-12.4673
子見南子子路不	-12.4673
胾	-12.4673
勞於王事而不得養	-12.4674
好好之民之所惡惡之此之謂民之父母	-12.4674
嶺	-12.4674
愚夫愚婦	-12.4674
同流合汙	-12.4674
箸	-12.4674
以善及人而信從者衆	-12.4675
宜兄宜弟	-12.4675
殀夀不貳	-12.4675
吾未見好德如好色者也	-12.4675
食不語寢不言	-12.4676
堯曰第二十	-12.4676
非帷裳必殺之	-12.4676
聦明睿知	-12.4676
疾首蹙頞而相告曰吾王之好	-12.4677
堂堂乎張也難與並為仁矣	-12.4677
淡而不厭簡而文温而理	-12.4677
府史胥徒	-12.4677
先進於禮樂野人也後進於禮樂君子也	-12.4677
居吾語女	-12.4677
廚	-12.4678
以不忍人之心行不忍人之政	-12.4678
如有所譽者其有所試矣	-12.4678
非天之降才爾殊	-12.4678
忿懥恐懼好樂憂患	-12.4679
三宿而後出晝	-12.4679
黯	-12.4679
年然後免於父母之懐	-12.4679
能近取譬可謂仁之方也已	-12.4679
不至阿其所好	-12.468
忠信行不篤敬雖州里行乎哉	-12.468
由氣化有道之名	-12.468
燖	-12.4681
孟子曰伯夷辟紂居北海之	-12.4681
困心衡慮	-12.4681
䜟	-12.4682
蹌	-12.4682
古者民有三疾今也或是之亡也	-12.4682
伊尹耕於有莘之野	-12.4682
撙	-12.4683
悚	-12.4683
色厲内荏	-12.4683
皞	-12.4684
后國治國治而后天下平	-12.4684
欲治其國者先齊其家欲齊其家者先	-12.4684
舜相堯二十有八載	-12.4684
筐	-12.4685
餕	-12.4686
烖	-12.4686
縂	-12.4687
侍食於君君祭先飯	-12.4693
君命召不俟駕行矣	-12.4698
。10.	-12.5072
粲	-12.5077
南宮适	-12.5103
净	-12.5104
畷	-12.5104
斉	-12.5107
蜂	-12.5108
刖	-12.5113
無政事則財用不足	-12.5114
槀	-12.5115
軹	-12.5115
拱把之桐梓	-12.5116
瓚	-12.5117
我不欲人之加諸我也吾亦欲無加諸人	-12.5117
金聲而玉振之	-12.5117
有道則見無道則隠	-12.5118
曰可者與之其不可者拒之	-12.5118
父慈子孝	-12.5118
姪	-12.5118
舎生取義	-12.5119
君子之所以教者五	-12.5119
親長其長而天下平	-12.5119
牘	-12.512
黽	-12.512
稱家之有無	-12.512
久則久可以速則速	-12.512
克伐怨欲不行焉可以為仁矣	-12.512
怛	-12.512
璟	-12.512
豷	-12.5121
吾無行而不與二三子者是丘也	-12.5121
皥	-12.5121
小役大弱役强	-12.5121
綠	-12.5121
關譏而不征	-12.5122
人受天地之中以生	-12.5122
詩書六藝之文	-12.5123
欲潔其身而亂大倫	-12.5123
先行其言而後從之	-12.5123
諸葛武侯	-12.5123
廏	-12.5123
見之雖少必作過之必趨	-12.5123
毛猶有倫上天之載無聲無臭至矣	-12.5123
一暴十寒	-12.5123
昔者吾友嘗從事於斯矣	-12.5123
醤	-12.5124
子曰是聞也非達也	-12.5124
隰	-12.5124
煑	-12.5124
忠信之人可以學禮	-12.5124
入孝出弟	-12.5124
不講聞義不能徙不善不能改是吾憂也	-12.5124
容光必照	-12.5125
四書講義困勉錄卷	-12.5125
誠中形外	-12.5125
鬨	-12.5125
謂夫莫之禁	-12.5125
恭而無禮則勞	-12.5126
躡	-12.5126
媸	-12.5126
十一月徒杠成十二月輿梁成	-12.5126
子見齊衰者冕衣裳者與瞽者	-12.5126
矢人豈不仁於函人哉	-12.5126
有大人之事有小人之事	-12.5126
不知足之蹈之手之舞之	-12.5127
子曰不得中行而與之必也狂狷乎	-12.5127
大貉小貉	-12.5127
舟車所至	-12.5127
今之從政者殆而	-12.5127
幾無疾病與何以能	-12.5127
其餘則日月至焉而已矣	-12.5127
慷	-12.5128
久要不忘平生之言	-12.5128
無情者不得盡其辭大畏民志此謂知本	-12.5128
牼	-12.5128
抑王興甲兵	-12.5128
孟子致為臣而歸	-12.5128
為人父止於慈與國人交止於信	-12.5128
暱	-12.5128
署	-12.5128
不咈乎愛之理	-12.5128
天下之本在國國之本在家家之本在身	-12.5128
猶之與人也出納之吝謂之有司	-12.5128
之將喪斯文也後死者不得與於斯文也	-12.5128
以其所不愛及其所愛也	-12.5129
歃	-12.5129
所藏乎身不恕而能喻諸人者未之有也	-12.5129
詮	-12.5129
貊	-12.5129
有事弟子服其勞有酒食先生饌	-12.5129
鑊	-12.513
君子有大道必忠信以得之驕泰以失之	-12.513
狡	-12.513
拗	-12.513
身中清廢中權	-12.513
此三節書是	-12.513
王如改諸則必反予	-12.513
堅甲利兵	-12.513
亦悖而入貨悖而入者亦悖而出	-12.513
聲色臭味	-12.5131
棬	-12.5131
邦人稱之曰君夫人	-12.5131
詹	-12.5131
周有大賚善人是富	-12.5131
遺佚而不怨	-12.5131
囂	-12.5131
孟子對曰昔者大王居邠狄人侵之	-12.5131
安見方六七十如五六十而非邦也者	-12.5132
子問公叔文子於公明賈曰	-12.5132
挨	-12.5132
霧	-12.5132
仁者以天地萬物為一體	-12.5133
聿	-12.5133
思過半矣	-12.5133
見賢而不能舉舉而不能先	-12.5133
聽訟吾猶人也	-12.5133
疢	-12.5133
克明峻徳	-12.5133
不啻若自其口出	-12.5133
過中失正	-12.5134
恔	-12.5134
遙	-12.5134
父頑母嚚	-12.5134
脤	-12.5134
彼長而我長之	-12.5135
非禮勿視非禮勿聽非禮勿言非禮勿動	-12.5135
之斯行綏之斯來動之斯和	-12.5135
在陳曰歸與歸與	-12.5135
長馬長人	-12.5135
非公事未嘗至於偃之室	-12.5136
吾無隠乎爾	-12.5136
無物不有無時不然	-12.5136
祛	-12.5136
单	-12.5136
我非生而知之者好古敏以求之者也	-12.5136
言忠信行篤敬雖蠻貊之邦行矣言不	-12.5136
鑽之彌堅	-12.5136
逃墨必歸於楊	-12.5136
十夫有溝	-12.5136
惟大人為能格君心之非	-12.5136
行有不慊於心則餒矣	-12.5137
肄	-12.5137
徴招角招	-12.5137
與上大夫言誾誾如也	-12.5137
可與適道未可與立可與立未可與權	-12.5138
於予與何誅	-12.5138
言未及之而言謂之躁	-12.5138
有盛饌必變色而作	-12.5139
所惡於上毋以使下所惡於下毋以事上	-12.5139
貝	-12.5142
譚	-12.5144
立不中門行不履閾	-12.5147
見齊衰者雖狎必變	-12.5147
煎	-12.5148
違道不遠	-12.515
厩	-12.5157
如示諸掌	-12.5552
毓	-12.5574
芾	-12.5577
」14.3	-12.5579
馹	-12.5586
燠	-12.5587
雝	-12.5588
臝	-12.5588
瘍	-12.559
鏃	-12.5591
逕	-12.5591
就有道而正焉	-12.5591
藁	-12.5591
線	-12.5592
氾	-12.5592
斡	-12.5593
學不厭智也教不倦仁也	-12.5594
不義而富且貴於我如浮雲	-12.5594
惟我與爾有是夫	-12.5595
梲	-12.5595
元金履祥撰	-12.5595
駮	-12.5595
季路問事鬼神子曰未能事人焉能事鬼	-12.5596
人無有不善水無有不下	-12.5596
詈	-12.5596
穡	-12.5596
子張曰何謂四惡	-12.5597
脡	-12.5597
儗	-12.5597
其餘不足觀也已	-12.5597
霽	-12.5597
子在齊聞韶三月不知肉味	-12.5598
㰱	-12.5598
帝使其子九男二女	-12.5598
天下有道則庶人不議	-12.5598
魯平公將出	-12.5598
終日不食終夜不寢	-12.5598
竂	-12.5599
樊遲從遊於舞雩之下	-12.5599
怙	-12.5599
叶	-12.5599
無所偏倚故謂之中	-12.5599
域民不以封疆之界	-12.56
一萬八百年	-12.56
紾兄之臂而奪之食	-12.56
今之諸侯五霸之罪人也	-12.56
以吾從大夫之後不可徒行也	-12.56
莫敢不敬上好義則民莫敢不服上好信	-12.56
説大人則藐之	-12.56
四海困窮天禄永終	-12.56
自明誠謂之教	-12.56
充實而有光輝之謂大	-12.56
頥	-12.56
償	-12.56
惡濕而居下	-12.5601
枉道而事人何必去父母之邦	-12.5601
厭然揜其不善而著其善	-12.5601
曰陳恒弑其君請討之	-12.5601
唯天為大唯堯則之	-12.5601
賸	-12.5601
立天下之正位行天下之大道	-12.5601
事不成則禮樂不興禮樂不興則	-12.5601
儼然人望而畏之斯不亦威而不猛乎	-12.5601
衆物之表裏精粗無不到	-12.5601
哉抑亦可以為次矣	-12.5602
心平氣和	-12.5602
畋	-12.5602
拜下禮也今拜乎上泰也雖違衆吾從下	-12.5602
夫仁天之尊爵也人之安宅也	-12.5602
子出門人問曰何謂也	-12.5602
事之云乎豈曰友之云乎	-12.5602
異邦人稱之亦曰君夫人	-12.5602
子曰可以為難矣仁則吾不知也	-12.5602
志士仁人無求生以害仁有殺身以成仁	-12.5603
今不取後世必為子孫憂	-12.5603
使契為司徒	-12.5603
嬪	-12.5603
予未得為孔子徒也予私淑諸人也	-12.5603
由誨女知之乎	-12.5603
陽貨欲見孔子而惡無禮	-12.5603
行有不得者皆反求諸	-12.5603
行義以達其道	-12.5603
改父之臣與父之政是難能也	-12.5603
植桑種田育雞豚畜狗彘	-12.5603
君子於其言無所苟而已矣	-12.5603
孟莊子之孝也其他可能也其不	-12.5603
正牆面而立	-12.5603
皙	-12.5604
抑為之不厭誨人不倦則可謂云爾已矣	-12.5604
不學詩無以言	-12.5604
孟子集疏卷	-12.5604
不賴勇而裕如	-12.5604
脅肩諂笑	-12.5604
訢	-12.5604
十目十手	-12.5605
造次顚沛	-12.5605
巍巍乎舜禹之有天下也而不與焉	-12.5605
循物無違謂信	-12.5605
巴	-12.5605
撇	-12.5605
曰詩云如切如磋如琢如磨其斯之謂與	-12.5605
不見知而不悔	-12.5605
竊負而逃	-12.5605
㤙	-12.5605
在邦域之中	-12.5605
之心仁之端也羞惡之心義之端也	-12.5606
在下位不獲乎上民不可得而治矣	-12.5606
愾	-12.5606
瞬	-12.5606
劔	-12.5607
君止於仁為人臣止於敬為人子止於孝	-12.5607
上無禮下無學	-12.5607
人少則慕父母	-12.5607
條出下題	-12.5607
溟	-12.5607
迪	-12.5607
娣	-12.5607
仁者必有勇勇者不必有仁	-12.5607
曰王之好樂甚則齊	-12.5607
曰其言也訒斯謂之仁	-12.5608
未若貧而樂富而好禮者也	-12.5608
纍	-12.5608
太山以超北海	-12.5608
葛伯仇餉	-12.5608
唯求則非邦也與	-12.5608
廀	-12.5608
鄉人之善者好之其不善者惡之	-12.5608
彚	-12.5608
徹始徹終	-12.5608
子路有聞未之能行唯恐有聞	-12.5608
帙	-12.5609
帝臣不蔽簡在帝心	-12.5609
使吏治其國而納其貢	-12.5609
壹是皆以脩身為本	-12.5609
而不仁者有矣夫未有小人而仁者也	-12.5609
祭於公不宿肉	-12.5609
過我門而不入我室	-12.561
惟送死可以當大事	-12.561
成始而成終	-12.561
蛙	-12.561
其事則齊桓晉文其文則史	-12.561
毋以交於左	-12.561
秦誓曰若有一个臣	-12.561
跬	-12.5611
毁瓦畫墁	-12.5612
一家仁一國興仁一家讓一國興讓	-12.5612
子貢問君子子曰先行其言而後從之	-12.5612
牛多言而躁	-12.5613
之夜以繼日幸而得之坐以待旦	-12.5613
好犯上而好作亂者未之有也	-12.5613
是集義所生者非義襲而取之也	-12.5613
於前也在輿則見其倚於衡也夫然後行	-12.5613
冠者五六人	-12.5614
方里而井井九百	-12.5614
朝與下大夫言侃侃如也	-12.5614
子曰弗如也吾與女弗如也	-12.5614
子貢曰子如不言則小子何述焉	-12.5614
不行知和而和不以禮節之亦不可行也	-12.5614
搢	-12.5614
萬二千五百人為軍	-12.5614
鄙夫可與事君也與哉	-12.5615
君子之道四丘未能一焉	-12.5615
子曰可與共學未可與適道	-12.5615
敢問夫子惡乎長	-12.5615
無憂者其惟文王乎	-12.5615
入公門鞠躬如也如不容	-12.5615
子謂公冶長可妻也	-12.5615
凶服者式之式負版者	-12.5615
執圭鞠躬如也如不勝	-12.5616
今之矜也忿戾	-12.5616
鵲	-12.5619
布縷之征	-12.562
好行小慧	-12.5622
豭	-12.5622
怖	-12.5624
糒	-12.5629
嶲	-12.5632
肹	-12.5635
棋	-12.5635
灋	-12.5658
舊令尹之政必以告新令尹	-12.6082
舄	-12.6085
鄘	-12.6087
亦各言其志也	-12.6089
碧	-12.609
卑宫室而盡力乎溝洫	-12.6092
揷	-12.6092
敢問死曰未知生焉知死	-12.6092
羶	-12.6092
鍊	-12.6093
乃若其情則可以為善	-12.6093
閼	-12.6094
蔥	-12.6095
茲	-12.6095
子貢曰夫子之文章可得而聞也	-12.6095
子張問士何如斯可謂之達矣	-12.6095
於我空空如也我叩其兩端而竭焉	-12.6096
洿	-12.6096
之於天下也無適也無莫也義之與比	-12.6096
埸	-12.6096
容城孫竒逢撰	-12.6096
致君澤民	-12.6096
孟子道性善言必稱堯舜	-12.6097
父之臣與父之政	-12.6097
禮之實節文斯二者是也	-12.6098
孔子曰諾吾將仕矣	-12.6098
不患貧而患不安	-12.6098
閔子侍側誾誾如也	-12.6098
樊遲請學稼	-12.6098
蟄	-12.6099
大雅桑柔之篇	-12.6099
一怒而諸侯懼安居而天下熄	-12.6099
賜也女以予為多學而識之者與	-12.6099
捕	-12.6099
吾不得而見之矣得見君子者斯可矣	-12.6099
焉擇其善者而從之其不善者而改之	-12.6099
祝鮀治宗廟王孫賈治軍旅夫如是奚其	-12.6099
子曰回也其心三月不違仁	-12.6099
宋真徳秀撰	-12.61
夫子之牆數仞	-12.61
仁言不如仁聲之入人深也	-12.61
臧氏之子焉能使予不遇哉	-12.61
恥躬之不逮	-12.61
㐫	-12.6101
尙	-12.6101
廖	-12.6101
有若對曰盍徹乎	-12.6101
綦	-12.6101
學而不厭誨人不倦何有於我哉	-12.6101
焉能為有焉能為亡	-12.6101
峭	-12.6101
仲弓曰雍雖不敏請事斯語矣	-12.6102
夫聞也者色取仁而行違居之不疑	-12.6102
吾之不遇魯侯天也	-12.6102
逍	-12.6102
劇	-12.6102
努	-12.6102
吾學周禮今用之吾從周	-12.6102
姑舍女所學而從我	-12.6102
冉有問聞斯行諸子曰聞斯行之	-12.6102
不幸短命死矣今也則亡未聞好學者也	-12.6102
所謂大臣者以道事君不可則止	-12.6102
閃	-12.6102
勦	-12.6102
文勝質則史文質彬彬然後君子	-12.6102
孔子豈不欲中道哉不可必得故思其次	-12.6102
凡有四端於我者知皆擴而充之	-12.6103
猖狂妄行	-12.6103
胼	-12.6103
克明峻德	-12.6103
子聞之曰可以為文矣	-12.6103
因其所發而遂明之	-12.6103
五畝之宅樹之以桑五十者可以衣帛矣	-12.6103
而今而後吾知免夫小子	-12.6103
告於王而私與之吾子之	-12.6103
問聞斯行諸子曰聞斯行之赤也惑敢問	-12.6103
子曰有父兄在如之何其聞斯行之	-12.6103
謂武盡美矣未盡善也	-12.6103
子曰求也退故進之由也兼人故退之	-12.6103
子噲不得與人燕子之不得受燕於子噲	-12.6103
公伯寮愬子路於季孫	-12.6103
不好學其蔽也亂好剛不好學其蔽也狂	-12.6103
故君子名之必可言也言之必可行也	-12.6103
邐	-12.6104
莫之禦而不仁是不智也	-12.6104
正已而物正者也	-12.6104
曰二吾猶不足如之何其徹也	-12.6104
富而可求也雖執鞭之士吾亦為之	-12.6104
必也臨事而懼好謀而成者也	-12.6104
峙	-12.6104
之節不可廢也君臣之義如之何其廢之	-12.6104
子貢問曰何如斯可謂之士矣子曰行	-12.6104
少也賤故多能鄙事君子多乎哉不多也	-12.6104
敢問其次曰言必信行必果硜硜然小人	-12.6105
已欲立而立人已欲達而達人	-12.6105
子夏問孝子曰色難	-12.6105
耕田鑿井	-12.6105
㸑	-12.6105
杌	-12.6105
扼	-12.6105
有人此有土有土此有財有財此有用	-12.6105
聾	-12.6105
子夏為莒父宰問政	-12.6105
為政在人取人以身	-12.6105
愍	-12.6105
彤	-12.6105
欬	-12.6105
是豈人之情也哉	-12.6105
瘳	-12.6105
謹庠序之教申之以孝悌之義頒白者	-12.6106
或學而知之或困而知之及其知之一也	-12.6106
街	-12.6106
必有寢衣長一身有半	-12.6106
逆詐億不信	-12.6106
澡	-12.6106
鹹	-12.6106
在國曰市井之臣	-12.6106
待孔子曰若季氏則吾不能以季孟之	-12.6106
倒行逆施	-12.6106
公西華曰正唯弟子不能學也	-12.6106
子曰才不才亦各言其子也鯉	-12.6107
强恕而行求仁莫近焉	-12.6107
惡得有其一以慢其二哉	-12.6107
稱諸異邦曰寡小君	-12.6107
黎民於變時雍	-12.6107
詩云樂只君子民之父母	-12.6107
出降一等逞顔色怡怡如也	-12.6107
厮	-12.6107
簞食壺漿以迎王師	-12.6108
好人之所惡惡人之所好是謂拂人之性	-12.6108
滄	-12.6108
壘	-12.6108
濵聞文王作興	-12.6108
面盎於背施於四體四體不言而喻	-12.6108
不以兵車管仲之力也如其仁如其仁	-12.6108
禦人以口給	-12.6108
賤是人之所惡也不以其道得之不去也	-12.6108
夫子之求之也其諸異乎人之求之與	-12.6108
天地變化草木蕃	-12.6109
善反之則天地之性存焉	-12.6109
論語纂箋卷	-12.6109
此謂治國在齊其家	-12.6109
火吾見蹈而死者矣未見蹈仁而死者也	-12.6109
他日又獨立鯉趨而過庭曰學禮乎	-12.6109
中庸之為徳也其至矣乎	-12.6109
其或繼周者雖百世可知也	-12.611
其生也榮其死也哀如之何其可及也	-12.611
君子有三戒少之時血氣未定	-12.611
忸	-12.611
掬	-12.611
孟武伯問子路仁乎子曰不知也	-12.611
先聖後聖其揆一也	-12.611
百姓足君孰與不足百姓不足君孰與足	-12.611
老者安之朋友信之少者懐之	-12.6111
肉雖多不使勝食氣	-12.6111
擺	-12.6111
鄉為身死而不受	-12.6111
炯	-12.6111
公事畢然後敢治私事	-12.6111
飢色野有餓莩此率獸而食人也	-12.6111
聖人復起必從吾言矣	-12.6111
牴	-12.6111
君子病無能焉不病人之不已知也	-12.6111
微服而過宋	-12.6111
鄫	-12.6111
位天地育萬物	-12.6112
回也聞一以知十賜也聞一以知二	-12.6112
䰟	-12.6112
加之以師旅因之以饑饉	-12.6112
男女授受不親	-12.6112
祭肉不出三日出三日不食之矣	-12.6112
逭	-12.6113
疾君視之東首加朝服拖紳	-12.6114
熬	-12.6114
兌	-12.6114
栖	-12.6115
䨇	-12.6115
迁	-12.6115
興兵搆怨	-12.6115
為之鄉為身死而不受今為	-12.6115
頞	-12.6115
惠則足以使人	-12.6116
為法於天下可傳於後世	-12.6116
堵	-12.6116
問辨録卷	-12.6116
以及禽獸而功不至於百姓者獨何與	-12.6117
攝齊升堂鞠躬如也屏氣似不息者	-12.6117
仰不愧於天俯不怍於人	-12.6118
君在踧踖如也與與如也	-12.6118
仄	-12.612
徵招角招	-12.612
有臣吾誰欺欺天乎	-12.612
内外交相養	-12.612
從流下而忘反謂之流	-12.6123
兼内外該本末而言	-12.6127
猶質也質猶文也虎豹之鞟猶犬羊之鞟	-12.6129
鞶	-12.613
。」14.1	-12.6586
莬	-12.66
献	-12.6604
螻	-12.6609
珽	-12.6613
孔門傳授心法	-12.6614
爐	-12.6614
廻	-12.6614
洋洋乎如在其上如在其左右	-12.6615
出妻屏子	-12.6616
吾何為不豫哉	-12.6617
滄浪之水清兮	-12.6618
謡	-12.6618
博厚所以載物	-12.6618
不揣其本而齊其末	-12.6618
聖而不可知之之謂神	-12.6619
凱	-12.6619
軋	-12.6619
用夏變夷	-12.6619
凡事豫則立	-12.662
煥乎其有文章	-12.662
縈	-12.662
貧而樂富而好禮	-12.662
眠	-12.6621
塹	-12.6621
張問善人之道子曰不踐迹亦不入於室	-12.6621
瞍	-12.6622
腎	-12.6622
找	-12.6622
子曰棖也慾焉得剛	-12.6622
農圃醫卜	-12.6622
子為政焉用殺子欲善而民善矣	-12.6623
歐	-12.6623
閧	-12.6623
溉	-12.6623
榜	-12.6624
自大夫出五世希不失矣	-12.6624
退而省其私亦足以發回也不愚	-12.6624
嚼	-12.6624
子曰吾與回言終日不違如愚	-12.6624
櫟	-12.6624
人歸女樂季桓子受之三日不朝孔子行	-12.6624
㷀	-12.6624
然而無有乎爾則亦無有乎爾	-12.6625
昔者偃也聞諸夫子曰君子學道則愛人	-12.6625
雞豚狗彘	-12.6625
瀹濟漯	-12.6625
礿	-12.6625
蹤	-12.6625
我未見好仁者惡不仁者	-12.6625
或乞醯焉乞諸其鄰而與之	-12.6626
論語全解卷	-12.6626
三黜人曰子未可	-12.6626
士志於道而恥惡衣惡食者未足與議也	-12.6626
舉爾所知爾所不知人其舍諸	-12.6626
豻	-12.6626
澹臺滅明	-12.6626
如其善而莫之違也	-12.6626
或曰管仲儉乎	-12.6626
巍巍乎其有成功也煥乎其有文章	-12.6626
子曰弑父與君亦不從也	-12.6626
興孝興弟不倍	-12.6626
子張曰子夏云何對曰子夏	-12.6627
子曰夫人不言言必有中	-12.6627
孔子曰才難不其然乎唐虞之際於斯	-12.6627
人吾不得而見之矣得見有恒者斯可矣	-12.6627
而學之又其次也困而不學民斯為下矣	-12.6627
子曰切切偲偲怡怡如也可謂士矣	-12.6627
子在回何敢死	-12.6627
絆	-12.6627
羔裘𤣥冠不以弔	-12.6627
禮與其奢也寧儉喪與其易也寧戚	-12.6627
苟志於仁矣無惡也	-12.6627
仲弓曰居敬而行簡以臨其民不亦可乎	-12.6627
非夫人之為慟而誰為	-12.6627
子之燕居申申如也夭夭如也	-12.6627
怨天不尤人下學而上達知我者其天乎	-12.6627
君子哉蘧伯玉邦有道則仕邦無道則可	-12.6628
人之言曰為君難為臣不易	-12.6628
始條理者智之事也終條理者聖之事也	-12.6628
翫	-12.6628
辟則為天下僇	-12.6628
寇或曰寇至盍去諸	-12.6628
師冕出子張問曰與師言之道與	-12.6628
今由與求也可謂具臣矣	-12.6628
司馬牛問君子子曰君子不憂不懼	-12.6628
君子不重則不威	-12.6628
七十者可以食肉矣百畝之田勿奪其時	-12.6628
子曰然固相師之道也	-12.6628
子曰何傷乎亦各言其志也	-12.6628
孔子對曰君使臣以禮臣事君以忠	-12.6629
有子曰信近於義言可復也	-12.6629
御子告之曰孟孫問孝於我我對曰無違	-12.6629
素貧賤行乎貧賤	-12.6629
老老長長恤孤	-12.6629
子路問政子曰先之勞之	-12.6629
君子賢其賢而親其親	-12.6629
以萬乗之國伐萬乗之國	-12.6629
矣彼為善之小人之使為國家	-12.6629
人之過也各於其	-12.6629
正其誼不謀其利明其道不計其功	-12.6629
粃	-12.6629
朕躬有罪無以萬方萬方有罪罪在朕躬	-12.663
顔淵閔子騫冉伯牛仲弓言語	-12.663
拚	-12.663
孔子退揖巫馬期而進	-12.663
褘	-12.663
曰牛羊茁壯長而已	-12.663
映	-12.663
狂者又不可得欲得不屑不	-12.663
子路曽晳冉有公西華侍坐	-12.663
子曰敏而好學不恥下問是以謂之文也	-12.663
洋洋乎盈耳哉	-12.663
祜	-12.663
互鄉難與言童子見門人惑	-12.663
子張曰士見危致命	-12.663
則四方之民襁負其子而至矣焉用稼	-12.663
是故言悖而出者	-12.663
子路曰願聞子之志	-12.663
欲速則不達見小利則大事不成	-12.6631
子路曰有是哉子之迂也奚其正	-12.6631
耕也餒在其中	-12.6631
生於其心害於其政發於其政害於其事	-12.6631
莅中國而撫四夷	-12.6631
弟子曰吾何執執御乎執射乎吾執御矣	-12.6632
璣	-12.6632
塡	-12.6632
􁂒	-12.6632
事思敬疑思問忿思難見得思義	-12.6632
裎	-12.6632
謂孔子曰來予與爾言	-12.6632
舜有天下選於衆舉臯陶不仁者	-12.6632
逹巷黨人	-12.6632
孔子曰唐虞禪夏后殷周繼其義一也	-12.6632
睫	-12.6632
子曰夫召我者而豈徒哉如有	-12.6632
魯欲使樂正子為政	-12.6633
大孝終身慕父母	-12.6633
他人之賢者丘陵也猶可踰也仲尼	-12.6633
丘也聞有國有家者不患寡而患不均	-12.6633
八口之家可以無飢矣	-12.6633
長國家而務財用者必自小人	-12.6633
椒	-12.6633
若夫為不善非才之罪也	-12.6633
不有祝鮀之佞	-12.6633
人之其所親愛而辟焉	-12.6633
召忽死之管仲不死曰未仁乎	-12.6633
恩足以及禽獸而功不至於百姓	-12.6633
勇而無禮則亂直而無禮則絞	-12.6634
吃	-12.6634
孤臣孽子	-12.6634
季文子三思而後行子聞之曰再斯可矣	-12.6634
有馬者借人乗之	-12.6634
黷	-12.6634
液	-12.6634
尖	-12.6634
煢	-12.6634
哭泣之哀	-12.6634
抱關擊柝	-12.6634
沮桀溺耦而耕孔子過之使子路問津焉	-12.6634
赤也何如子曰赤也束帶立於朝可使與	-12.6634
鬴	-12.6634
恭寛信敏惠	-12.6634
子貢曰固天縱之將聖又多能也	-12.6634
悵	-12.6634
君子謀道不謀食耕也餒在其中矣學也	-12.6634
夫子之得邦家者所謂立之斯立道	-12.6634
覘	-12.6635
直情徑行	-12.6635
稔	-12.6635
知所以治人則知所以治天下國家矣	-12.6635
深則厲淺則揭	-12.6635
節彼南山維石巖巖赫赫師尹民具爾瞻	-12.6635
鄉人飲酒杖者出斯出矣	-12.6635
出則弟謹而信汎愛衆而親仁	-12.6635
求也何如子曰求也千室之邑百	-12.6635
今有同室之人	-12.6635
以己之心度人之心	-12.6635
或安而行之或利而行之	-12.6635
季康子問仲由可使從政也與	-12.6635
其何傷於日月乎多見其不知量也	-12.6636
髡	-12.6636
好古敏以求之	-12.6636
胝	-12.6636
路問曰子見夫子乎丈人曰四體不勤五	-12.6636
覊	-12.6636
孺悲欲見孔子孔子辭以疾	-12.6636
樂然後笑人不厭其笑	-12.6636
友直友諒友多聞益矣	-12.6636
翯	-12.6636
論語稽求篇	-12.6637
斷斷兮無他技其心休休焉其如有容焉	-12.6637
耕稼陶漁	-12.6637
所惡於智者為其鑿也	-12.6637
仁者愛人有禮者敬人	-12.6637
喝	-12.6637
今此下民或敢侮予	-12.6637
冉有曰夫子欲之吾二臣者皆不欲也	-12.6637
子路曰昔者由也聞諸夫子曰親於其	-12.6637
中天下而立定四海之民君子樂之	-12.6637
子與人歌而善必使反之而後和之	-12.6638
所惡於前毋以先後所惡於後毋以從前	-12.6638
子曰管仲相桓公霸諸侯一匡天下	-12.6638
燈	-12.6638
不以三隅反則不復也	-12.6638
未聞以道殉乎人者也	-12.6639
孔子曰求無乃爾是過與	-12.6639
恤孤而民不倍是以君子有絜矩之道也	-12.6639
一人貪戾一國作亂	-12.6639
姞	-12.6639
哭死而哀非為生	-12.6639
不恒其徳或承之羞	-12.664
父母全而生之子全而歸之	-12.664
未有上好仁而下不好義者也未有好義	-12.664
焉有仁人在位罔民而可為也	-12.664
泄泄猶沓沓也	-12.664
輦	-12.6641
言寡尤行寡悔禄在其中矣	-12.6642
肌	-12.6642
舜之飯糗茹草也	-12.6642
大車無輗小車無軏其何以行之哉	-12.6642
得天下英才而教育之	-12.6642
頰	-12.6642
君賜食必正席先嘗之	-12.6642
懋	-12.6643
樂云樂云鐘鼓云乎哉	-12.6643
炮	-12.6643
婣	-12.6644
寧死於二三子之手乎	-12.6644
刈	-12.6645
入太廟每事問	-12.6645
籬	-12.6645
相維辟公天子穆穆奚取於三家之堂	-12.6646
論語學案卷	-12.6647
且予與其死於臣之手也無	-12.6647
餌	-12.6648
煮	-12.6648
有一言而可以終身行之者乎	-12.6698
駘	-12.7164
葅	-12.7165
蓬	-12.7167
厠	-12.7169
予不得視猶子也非我也夫二三子也	-12.7169
子曰忠矣曰仁矣乎曰未知焉得仁	-12.7169
。」14.2	-12.717
一邦則又曰猶吾大夫崔子也違之何如	-12.717
至於他邦則曰猶吾大夫崔子也違之之	-12.717
放之則彌六合	-12.717
嘖	-12.717
潮	-12.7171
豊	-12.7171
騧	-12.7172
嘻	-12.7173
魅	-12.7173
問政於孔子曰如殺無道以就有道何如	-12.7173
徤	-12.7173
肚	-12.7174
粗鄙近利	-12.7174
道庸者天下之定理	-12.7175
檜	-12.7175
㳂	-12.7176
子曰清矣曰仁矣乎曰未知焉得仁	-12.7176
御者且羞與射者比	-12.7176
不見而章不動而變無為而成	-12.7177
俸	-12.7178
恥者其由也與	-12.7178
子路問事君子曰勿欺也而犯之	-12.7178
子曰吾見其居於位也	-12.7178
子曰回也其庶乎屢空	-12.7178
智之實知斯二者弗去是也	-12.7179
子曰民可使由之不可使知之	-12.7179
嵎	-12.7179
聯	-12.718
子曰不然獲罪於天無所禱也	-12.718
求爾何如對曰方六七十如五六十	-12.718
莫見乎隠莫顯乎微	-12.718
金石絲竹匏土革木	-12.718
邦有道危言危行邦無道危行言孫	-12.7181
將胥天下而遷之焉	-12.7181
極於至大而無外	-12.7181
之言失人不可與言而與之言失	-12.7181
皂	-12.7181
葉公語孔子曰吾黨有直躬者	-12.7181
簞食豆羹	-12.7181
誠其意者毋自欺也如惡惡臭如好好色	-12.7181
盍各言爾志	-12.7181
言知者不失人亦不失言	-12.7181
顔淵曰回雖不敏請事斯語矣	-12.7182
辟婢亦反	-12.7182
放飯流歠	-12.7182
雋	-12.7182
兄弟也君子何患乎無兄弟也	-12.7182
敬而無失與人恭而有禮四海之内皆	-12.7182
夷考其行而不掩焉者也	-12.7182
襌	-12.7182
子路問曰何如斯可謂之士矣	-12.7182
曰何器也曰瑚璉也	-12.7182
内無怨女外無曠夫	-12.7182
所重民食喪祭	-12.7182
子於是日哭則不歌	-12.7182
不亦善乎如不善而莫之違也不	-12.7182
禦人以口給屢憎於人不知其仁焉用佞	-12.7183
孔子曰天下有道則禮樂征伐自天子出	-12.7183
赤爾何如對曰非曰能之	-12.7183
好從事而亟失時可謂知乎曰不可	-12.7183
柜	-12.7183
誠不以富亦祗以異	-12.7183
栭	-12.7183
定公問一言而可以興邦有諸	-12.7183
子夏曰商聞之矣	-12.7183
一朝之忿忘其身以及其親非惑與	-12.7184
不信不信民弗從	-12.7184
定公問君使臣臣事君如之何	-12.7184
與先生並行也非求益者也欲速成者也	-12.7184
子曰不教而殺謂之虐不戒視成謂之暴	-12.7184
孟子去齊宿於晝	-12.7184
明蔡清撰	-12.7184
桮	-12.7184
不以舜之所以事堯事君	-12.7184
􁃦	-12.7184
閔子騫曰仍舊貫如之何何必改作	-12.7184
痼	-12.7184
君稱之曰夫人夫人自稱曰小童	-12.7185
狂者進取狷者有所不為也	-12.7185
路曰自孔氏曰是知其不可而為之者與	-12.7185
魁	-12.7185
搬	-12.7185
惡惡臭好好色	-12.7185
瘡	-12.7185
欲見賢人而不以其道	-12.7185
白雪之白猶白玉之白	-12.7185
身為不善者君子不入也	-12.7185
沖	-12.7185
天理人欲同行異情	-12.7185
臣弑其君者有之子弑其父者有之	-12.7185
寤寐反側	-12.7185
季子然問仲由冉求可謂大臣與	-12.7185
殺其麋鹿者如殺人之罪	-12.7185
之謂集大成集大成也者金聲而玉振之	-12.7186
夫子矢之曰予所否者天厭之天厭之	-12.7186
後天而奉天時	-12.7186
司馬牛憂曰人皆有兄弟我獨亡	-12.7186
必誠必信勿之有悔	-12.7186
有道則見無道則隱	-12.7186
食膾炙而不食羊棗	-12.7186
使老者衣帛食肉不負戴於道路	-12.7186
愷	-12.7186
不敬子路子曰由也升堂矣未入於室也	-12.7186
進退則可矣抑末也本之則無如之何	-12.7186
素富貴行乎富貴	-12.7186
使者出子曰使乎使乎	-12.7186
食不厭精膾不厭細	-12.7187
足蹜蹜如有循	-12.7187
子曰麻冕禮也今也純儉吾從衆	-12.7187
問於孔子曰羿善射奡盪舟	-12.7187
張問仁於孔子孔子曰能行五者於天下	-12.7187
賜不受命而貨殖焉億則屢中	-12.7187
」12.1	-12.7187
磔	-12.7187
宰我子貢政事冉有季路文學子游子夏	-12.7187
辭讓之心禮之端也是非之心智之端也	-12.7187
云瞻彼淇澳菉竹猗猗有斐君子如切如	-12.7187
仇滄柱	-12.7187
人之視己如見其肺肝然	-12.7187
子服景伯以告子貢子貢曰譬	-12.7187
見牛未見羊	-12.7187
對曰有政子曰其事也	-12.7187
蕢而過孔氏之門者曰有心哉擊磬乎	-12.7187
夫子何為對曰夫子欲寡其過而未能也	-12.7187
袤	-12.7187
郕	-12.7187
繆公無人乎子思之側則不能安子思	-12.7188
子路終身誦之子曰是道也何足以臧	-12.7188
雖日撻而求其	-12.7188
素夷狄行乎夷狄	-12.7188
忻	-12.7188
王勃然變乎色	-12.7188
敬事而信節用而愛人使民以時	-12.7188
民無職事者出夫家之征	-12.7188
子曰是故惡夫佞者	-12.7188
吻	-12.7188
無情者不得盡其辭	-12.7188
不下帶而道存	-12.7188
高叟之為詩也	-12.7188
少連降志辱身矣言中倫行中慮其斯而	-12.7188
誠以心言本也道以理言用也	-12.7188
曰盡信書則不如無書	-12.7189
居則曰不吾知也如或知爾則何以哉	-12.7189
赤也為之小孰能為之大	-12.7189
疾首蹙頞	-12.7189
也小人不可大受而可小知也	-12.7189
惻隱羞惡恭敬是非	-12.7189
滕文公問曰滕小國也	-12.7189
之何矣此謂國不以利為利以義為利也	-12.7189
𥚹	-12.7189
牢曰子云吾不試故藝	-12.7189
子之仕也行其義也道之不行已知之矣	-12.7189
樂取於人以為善	-12.7189
為天吏則可以伐之	-12.719
莱	-12.719
邦無道則愚其知可及也其愚不可及也	-12.719
公綽為趙魏老則優不可以為滕薛大夫	-12.719
隠居以求其志	-12.719
子曰暴虎馮河死而無悔者吾不與也	-12.7191
䑓	-12.7191
養至於犬馬皆能有養不敬何以别乎	-12.7191
吾其為東周乎	-12.7191
使畢戰問井地	-12.7191
思兼三王以施四事其有不合者仰而思	-12.7191
孔子曰益者三友損者三友	-12.7191
日月也無得而踰焉人雖欲自絶	-12.7191
詩云殷之未喪師克配上帝儀監	-12.7191
井出入相友守望相助疾病相扶持	-12.7191
野九一而助	-12.7191
信乎夫子不言不笑不取乎	-12.7191
季康子問弟子孰為好學孔子對曰	-12.7191
殷峻命不易道得衆則得國失衆則失國	-12.7191
士師不能治士	-12.7192
螬	-12.7192
仁之勝不仁也猶水勝火	-12.7192
滸	-12.7192
泰而不驕乎君子正其衣冠尊其瞻視	-12.7192
云其儀不忒正是四國	-12.7192
轉附朝儛	-12.7192
陳亢退而喜曰問一得三	-12.7192
至纎至悉	-12.7192
惶	-12.7192
對曰未也不學禮無以立鯉退而學禮	-12.7193
韙	-12.7193
好樂則不得其正有所憂患則不得其正	-12.7193
也中人以下不可以語上也	-12.7193
家齊國治天下平	-12.7193
焞	-12.7193
所惡於左毋以交於右此之謂絜矩之道	-12.7193
曰求周任有言曰陳力就列不能者止	-12.7194
身有所忿懥則不得其正有所	-12.7194
醋	-12.7194
桓公殺公子糾不能死又相之	-12.7194
怩	-12.7194
其機如此此謂一言僨事一人定國	-12.7194
衆叛親離	-12.7195
也弟者所以事長也慈者所以使衆也	-12.7195
子曰泰伯其可謂至	-12.7195
仁而遺其親者也未有義而後其君者也	-12.7195
親親之殺尊賢之等禮所生也	-12.7195
刑于寡妻	-12.7195
對曰賜也何敢望回	-12.7195
其如是孰能禦之	-12.7195
子所雅言詩書執禮皆雅言也	-12.7195
不失其身而能事其親者	-12.7195
其事不終者也未有府庫財非其財者也	-12.7196
今天下之君有好仁者	-12.7196
子曰人而無信不知其可也	-12.7196
民惟恐王之不好勇也	-12.7197
盡去其文而獨存其質	-12.7197
之者寡為之者疾用之者舒則財恒足矣	-12.7197
我非堯舜之道不敢以陳於王前	-12.7197
曰吾宗國魯先君莫之行	-12.7197
曰去食自古皆有死民無信不立	-12.7197
至於是邦也必聞其政求之與抑與之與	-12.7197
子曰書云孝乎惟孝友	-12.7198
天子之卿受地視侯	-12.7198
霸者之民驩虞如也	-12.7199
古之愚也直今之愚也詐而已矣	-12.7199
孔子於鄉黨恂恂如也似不能言者	-12.7199
丸	-12.72
葉公問孔子於子路子路不對	-12.72
曰百工居肆以成其事君子學以致其道	-12.72
臣固知王之不忍也	-12.7202
民到于今受其賜	-12.7203
子謂子貢曰女與回也孰愈	-12.7203
宫商角徴羽	-12.7203
識其端而推廣之	-12.7204
帨	-12.7207
六十杖於鄉	-12.7207
於言勿求於心不得於心勿求於氣	-12.7282
齎	-12.7746
藿	-12.7747
螟	-12.7755
存其心養其性所以事天也	-12.7755
虎豹之鞟猶犬羊之鞟	-12.7757
畸	-12.7757
梁上短柱	-12.7758
禴	-12.776
欲輕之於堯舜之道者	-12.7761
與國人交止於信	-12.7762
鬪	-12.7762
豔	-12.7762
弒	-12.7763
禹吾無閒然矣	-12.7763
若火之始然泉之始達	-12.7763
欝	-12.7763
託孤寄命	-12.7763
縳	-12.7764
册	-12.7764
從政乎何有不能正其身如正人何	-12.7764
子曰何哉爾所謂達者	-12.7765
先簿正祭器	-12.7765
幾乎一言而喪邦乎	-12.7765
庶民去之君子存之	-12.7766
孔子豚孔子時其亡也而往拜之遇諸塗	-12.7766
我知之矣知者過之愚者不及也道之不	-12.7766
曰非敢為佞也疾固也	-12.7766
宄	-12.7766
君請擇於斯二者	-12.7766
窠	-12.7767
君子之志於道也不成章不達	-12.7767
軼	-12.7767
行年六十而六十化	-12.7767
子張曰異乎吾所聞君子	-12.7767
乃所願則學孔子	-12.7767
龠	-12.7768
子曰如有王者必世而後仁	-12.7768
尊賢而容衆嘉善而矜不能我之大賢與	-12.7768
是猶執熱而不以濯也	-12.7768
誠者自成也而道自道也	-12.7768
差之毫釐繆以千里	-12.7769
子曰善人為邦百年亦可以勝殘去殺矣	-12.7769
顔淵曰請問其目子曰非禮勿視非禮勿	-12.7769
郰	-12.777
夣	-12.777
人莫大焉亡親戚君臣上下	-12.777
君曰告夫三子者	-12.777
屍	-12.7771
則何益矣此謂誠於中形於外故君子必	-12.7771
臨大節而不可奪也君子人與君子人也	-12.7771
不好學其蔽也蕩好信不好學其蔽也賊	-12.7771
遵先王之法而過者未之有也	-12.7771
不患莫已知求為可知也	-12.7771
曰以齊王由反手也	-12.7771
子曰賜也爾愛其羊我愛其禮	-12.7771
礱	-12.7771
孟懿子問孝子曰無違	-12.7771
曰亡之命矣夫斯人也而有斯疾也	-12.7771
敬其所尊愛其所親	-12.7771
賙	-12.7771
思事親不可以不知人	-12.7771
吾心之全體大用無不明	-12.7771
興周道於東方	-12.7772
制其田里教之樹畜	-12.7772
人之有道也飽食煖衣逸居而無	-12.7772
卑禮厚幣以招賢者	-12.7772
子曰不有祝鮀之佞而有宋朝之	-12.7772
今也小國師大國而恥受命焉	-12.7772
狗彘食人食而不知檢塗有餓莩而不知	-12.7772
治天下可運之掌上	-12.7772
先天而天弗違	-12.7772
子曰上好禮則民易使也	-12.7772
聲也者始條理也玉振之也者終條理也	-12.7772
子曰夷狄之有君不如諸夏之亡也	-12.7773
子貢問曰孔文子何以謂之文也	-12.7773
文王視民如傷望道而未之見	-12.7773
雖有周親不如仁人百姓有過在予一人	-12.7773
佯	-12.7773
仕而優則學	-12.7773
子曰與其進也不與其退也唯何甚	-12.7773
曰為國以禮其言不讓是故哂之	-12.7773
銓	-12.7773
子張曰何謂五美	-12.7773
戎狄是膺荆舒是懲	-12.7773
赫兮喧兮者威儀也有斐君子終不可	-12.7773
曰其身正不令而行其身不正雖令不從	-12.7773
䑛	-12.7773
曰管氏有三歸官事不攝焉得儉	-12.7773
抒	-12.7773
時子因陳子而以告孟子	-12.7773
埴	-12.7773
藍	-12.7773
然則聖人且有過與	-12.7774
瓶	-12.7774
佛肸召子欲往	-12.7774
惟命不于常道善則得之不善則失之矣	-12.7774
子貢曰無以為也仲尼不可毁也	-12.7774
先自治而後治人	-12.7774
商道寖衰	-12.7774
椅	-12.7774
曰於止知其所止可以人而不如鳥乎	-12.7774
而不信乎傳不習乎	-12.7774
萬取千焉千取百焉	-12.7774
詩云邦畿千里惟民所止	-12.7774
曰行或使之止或尼之行止非人所能也	-12.7774
衘	-12.7774
子路宿於石門晨門曰奚自	-12.7774
子釣而不綱弋不射宿	-12.7775
吾聞之也君子周急不繼富	-12.7775
子謂韶盡美矣又盡善也	-12.7775
孔子進以禮退以義得之不得曰有命	-12.7775
顰	-12.7775
夫如是故逺人不服則	-12.7775
謂泰山不如林放乎	-12.7775
去喪無所不佩	-12.7775
母之年不可不知也一則以喜一則以懼	-12.7775
菑害並至雖有善者亦	-12.7775
子謂伯魚曰女為周南召南矣乎	-12.7775
今王與百姓同樂則王矣	-12.7775
子曰述而不作信而好古竊比於我老彭	-12.7776
天下之善士斯友天下之善士	-12.7776
也死有棺而無椁吾不徒行以為之椁	-12.7776
沈同以其私問曰燕可伐與	-12.7776
當暑袗絺綌必表而出之	-12.7776
一國之善士斯友一國之善士	-12.7776
膜	-12.7776
介然用之而成路	-12.7776
鳥之將死其鳴也哀人之將死其言也善	-12.7776
孔子奚取焉取非其招不往也	-12.7776
無為而治者其舜也與	-12.7776
日月逝矣嵗不我與	-12.7776
歸市者不止耕者不變誅其君而弔其民	-12.7776
顔淵死顔路請子之車以為之椁	-12.7776
伊尹相湯以王於天下	-12.7776
子産鄭大夫公孫僑	-12.7776
賊義者謂之殘	-12.7776
隱居以求其志	-12.7777
徒取諸彼以與此	-12.7777
子曰不降其志不辱其身伯夷叔齊與	-12.7777
使民盻盻然	-12.7777
一日暴之十日寒之	-12.7777
立之斯立道之斯行綏之斯來動之斯和	-12.7777
人之有是四端也猶其有四體也	-12.7777
恭敬之心禮也是非之心智也	-12.7777
宰我出子曰予之不仁也子生三	-12.7777
弔入門有進而與	-12.7777
周公使管叔監殷管叔以殷畔	-12.7777
或曰陋如之何子曰君子居之何陋之有	-12.7777
百里之地而君之皆能以朝諸侯有天下	-12.7777
子夏子游子張皆有聖人之一體	-12.7777
其為父子兄弟足法而后民法之也	-12.7777
後車數十乗從者數百人	-12.7778
汰	-12.7778
寛則得衆信則人任焉敏則有功	-12.7778
牣	-12.7778
煉	-12.7778
両	-12.7778
變乎色曰寡人非能好先王之樂也直好	-12.7778
於從政乎何有曰求也可使從政也與	-12.7778
撼	-12.7778
是故財聚則民散財散則民聚	-12.7778
夏后氏五十而貢殷人七十而助周人百	-12.7779
沓	-12.7779
暴之於民而民受之	-12.7779
不以其道得之不處也貧	-12.7779
愼終追逺	-12.7779
仁義禮智根於心其生色也睟然見於	-12.7779
鈴	-12.7779
充仲子之操則蚓而後可者	-12.778
子貢問曰鄉人皆好之何如	-12.778
子謂仲弓曰犂牛之子騂且角	-12.778
子曰誦詩三百授之以政不	-12.778
也是以君子惡居下流天下之惡皆歸焉	-12.778
僧	-12.778
夏曰校殷曰序周曰庠學則三代共之	-12.778
擇可勞而勞之又誰怨欲仁而得仁	-12.778
問使民敬忠以勸如之何子曰臨之以	-12.778
誾	-12.778
子曰務民之義敬鬼神而逺之可謂知矣	-12.778
子曰過而不改是謂過矣	-12.778
子曰三軍可奪帥也匹夫不可奪志也	-12.778
諠	-12.778
興滅國繼絶世舉逸民天下之民歸心焉	-12.778
曰有澹臺滅明者行不由徑	-12.778
齊人有一妻一妾而處室者	-12.778
子曰沽之哉沽之哉我待賈者也	-12.778
詩云桃之夭夭其葉蓁蓁之子于歸	-12.778
趕	-12.778
寔不能容以不能保我子孫黎民亦曰殆	-12.7781
有美玉於斯韞匵而藏諸求善賈而沽諸	-12.7781
之其所賤惡而辟焉	-12.7781
五十而慕者予於大舜見之矣	-12.7781
不遺其親不後其君	-12.7781
有見行可之仕有際可之仕有公養之仕	-12.7781
翰林院檢討毛竒齡撰	-12.7781
夫志氣之帥也氣體之充也	-12.7781
彦聖而違之俾不通	-12.7781
詖辭知其所蔽	-12.7781
哀公問於有若曰年饑用不足如之何	-12.7781
以告者過也夫子時然後言人不厭其言	-12.7781
對曰未也不學詩無以言鯉退而學詩	-12.7781
綰	-12.7781
喘	-12.7781
子絶四毋意毋必毋固毋我	-12.7781
上祀先公以天子之禮	-12.7781
夫有賜於士不得受於其家則往拜其門	-12.7781
喪不哀吾何以觀之哉	-12.7782
惡勇而無禮者惡果敢而窒者	-12.7782
樂正子從於子敖之齊	-12.7782
長沮曰夫執輿者為誰	-12.7782
猶以一杯水救一車薪之火	-12.7782
苟得其養無物不長苟失其養無物不消	-12.7782
雖不中不逺矣未有學養子而后嫁者也	-12.7782
唯仁人放流之迸諸四夷不與同中國	-12.7782
故諺有之曰人莫知其子之惡莫知其	-12.7782
天開於子地闢於丑人生於寅	-12.7782
夫子之不可及也猶天之不可階而升也	-12.7782
之其所敖惰而辟焉	-12.7782
禹避舜之子於陽城	-12.7782
子路從而後遇丈人以杖荷蓧	-12.7783
諸枉則民服舉枉錯諸直則民不服	-12.7783
能言距楊墨者聖人之徒也	-12.7783
此謂唯仁人為能愛人能惡人	-12.7783
子夏曰君子信而後勞其民未信則以	-12.7783
曰然曰滔滔者天下皆是也而誰以易之	-12.7783
戒之在色及其壯也血氣方剛戒之在	-12.7783
症	-12.7784
子曰飽食終日無所用心難矣哉	-12.7784
子曰事君敬其事而後其食	-12.7784
子貢曰君子之過也如日月之	-12.7784
行仁政而王莫之能禦也	-12.7784
如有博施於民而能濟衆何如可謂仁乎	-12.7784
子葬其親厚則是以所賤事親也	-12.7784
樂正裘牧仲	-12.7784
朋友死無所歸曰於我殯	-12.7784
謂顔淵曰惜乎吾見其進也未見其止也	-12.7784
圻	-12.7784
姍	-12.7784
立誠意以格之	-12.7785
事君無義進退無禮	-12.7785
以齊王猶反手	-12.7785
寧死而不失信	-12.7785
曰必不得已而去於斯三者何先曰去兵	-12.7785
父子主恩君臣主敬	-12.7785
褰	-12.7786
子貢曰必不得已而去於斯二者何先	-12.7786
鈃	-12.7786
曰禮後乎子曰起予者商也始可與言詩	-12.7786
揖所與立左右手衣前後襜如也	-12.7787
廼	-12.7787
爱	-12.7787
質禮以行之孫以出之信以成之君子哉	-12.7787
陸地行舟	-12.7787
坂	-12.7788
澗	-12.7788
子曰君子不重則不威學則不固	-12.7788
陳善閉邪謂之敬吾君不能謂之賊	-12.7788
帚	-12.7788
聪	-12.7789
天子之制地方千里	-12.7789
其在宗廟朝廷便便言唯謹爾	-12.779
僂	-12.7791
孔子曰益者三樂損者三樂樂節禮樂	-12.7791
朋友之饋雖車馬非祭肉不拜	-12.7792
郄	-12.7795
唐棣之華偏其反而豈不爾思室是逺而	-12.7796
嫗	-12.78
捶	-12.7807
嘗之義治國其如示諸掌乎	-12.7839
罘	-12.834
羯	-12.8361
插	-12.8375
韐	-12.8377
汭	-12.8379
漾	-12.838
裾	-12.838
藜	-12.8382
院	-12.8384
其父攘羊而子證之	-12.8384
楫	-12.8386
痕	-12.8386
簾	-12.8386
啼	-12.8387
盡其心者知其性也知其性則知天矣	-12.8387
􁎠	-12.8387
腴	-12.8388
明徳為本新民為末	-12.8388
使天下之人齊明盛服以承祭祀	-12.8388
笄	-12.8389
貧且賤焉恥也邦無道富且貴焉恥也	-12.839
筓	-12.8391
顕	-12.8391
樊遲請學稼子曰吾不如老農請學為圃	-12.8392
求也為之比及三年可使足民	-12.8392
㕘	-12.8392
奨	-12.8392
子言衛靈公之無道也	-12.8392
夏曰瑚商曰璉	-12.8392
不教民而用之謂之殃民	-12.8392
為盛有婦人焉九人而已	-12.8393
發而皆中節謂之和中也者	-12.8393
大全辨卓菴張氏曰	-12.8393
穰	-12.8393
問師與商也孰賢子曰師也過商也不及	-12.8393
都鄙有章上下有服田有封洫廬井有伍	-12.8393
從政者何如子曰噫斗筲之人何足算也	-12.8393
明也我知之矣賢者過之不肖者不及也	-12.8393
腯	-12.8394
蓋有之矣我未之見也	-12.8394
楚狂接輿歌而過孔子	-12.8394
夷子曰儒者之道古之人若保赤子	-12.8394
王子墊問曰士何事	-12.8394
以母則不食以妻則食之以兄之室則	-12.8395
水信無分於東西	-12.8395
彄	-12.8395
天之生物也使之一本而夷子二本故也	-12.8395
澀	-12.8395
詩云不愆不忘率由舊章	-12.8395
楊慈湖曰	-12.8395
子為長者慮而不及子思	-12.8395
名不正則言不順	-12.8395
舜其大知也與舜好問而好察邇言	-12.8395
圯	-12.8396
人不堪其憂回也不改其樂賢哉回也	-12.8396
掛	-12.8396
鄊	-12.8396
不誅則疾視其長上之死而不救	-12.8396
書曰湯一征自葛始天下信之東	-12.8396
在陳絶糧從者病莫能興	-12.8396
浩生不害問曰樂正子何人也	-12.8396
小人閒居為不善無所不至見君子而后	-12.8396
子曰論篤是與君子者乎色莊者乎	-12.8396
曰焉知賢才而舉之	-12.8396
菲飲食而致孝乎鬼神惡衣服而致美乎	-12.8396
伯牛有疾子問之自牖執其手	-12.8396
子曰大哉堯之為君也巍巍乎	-12.8396
奚翅食重	-12.8396
居下流而訕上	-12.8396
子曰齊一變至於魯魯一變至於道	-12.8396
誠則明矣明則誠矣	-12.8396
君行仁政斯民親其上死其長矣	-12.8396
國之所以廢興存亡者亦然	-12.8396
如恥之莫若師文王	-12.8397
宋蔡模撰	-12.8397
或問子産子曰惠人也	-12.8397
丐	-12.8397
夫章子豈不欲有夫妻子母之屬哉	-12.8397
子曰從我於陳蔡者皆不及門也	-12.8397
子路行行如也冉有子貢侃侃如也子樂	-12.8397
論語集編卷	-12.8397
一鄉之善士斯友一鄉之善士	-12.8397
神之格思不可度思矧可射思	-12.8397
弧	-12.8398
療	-12.8398
䜴	-12.8398
然而不勝者是天時不如地利也	-12.8398
雖小道必有可觀者焉致逺恐泥	-12.8398
不羞汙君不卑小官	-12.8398
吾學殷禮有宋存焉	-12.8398
子曰加我數年五十以學易可以無大過	-12.8398
殘賊之人謂之一夫聞誅一夫紂	-12.8398
穽	-12.8398
曰不逆詐不億不信抑亦先覺者是賢乎	-12.8398
若藥不瞑眩厥疾不瘳	-12.8398
孟子曰待文王而後興者	-12.8398
居下位不以賢事不肖者伯夷也	-12.8398
覃	-12.8398
紅紫不以為䙝服	-12.8398
子曰愛之能勿勞乎忠焉能勿誨乎	-12.8398
文獻不足故也足則吾能徴之矣	-12.8398
詩者不以文害辭不以辭害志以意逆志	-12.8398
陳子曰古之君子何如則仕	-12.8398
子曰賢哉回也一簞食一瓢飲	-12.8399
鈕	-12.8399
侯多謀伐寡人者何以待之	-12.8399
宜與夫禮若不相似然	-12.8399
故舊無大故則不棄也無求備於一人	-12.8399
達巷黨人曰大哉孔子博學而無所成名	-12.8399
昇	-12.8399
昔者趙簡子使王良與嬖奚	-12.8399
毁於櫝中是誰之過與	-12.8399
其大無外其小無内	-12.8399
冉有曰今夫顓臾固而近於費	-12.8399
皆惡之何如子曰未可也不如	-12.8399
吾與回言終日	-12.8399
是率天下而路也	-12.8399
社於宰我宰我對曰夏后氏以松殷人以	-12.8399
子曰工欲善其事必先利其器居是邦也	-12.84
孔子對曰苟子之不欲雖賞之不竊	-12.84
子貢曰夫子温良恭儉讓以得之	-12.84
白羽之白也猶白雪之白	-12.84
繆公亟見於子思曰古千	-12.84
乾隆四十六年	-12.84
聫	-12.84
而私受之於子則可乎何以異於是	-12.84
非其道則一簞食不可受於人如其道則	-12.84
宗廟之禮所以序昭穆也	-12.84
見不善如探湯吾見其人矣吾聞其語矣	-12.84
詩云於戲前王不忘	-12.84
刑罰不中刑罰不中則民無所措手足	-12.84
降下民作之君作之師惟曰其助上帝寵	-12.84
子張問於孔子曰何如斯可以	-12.84
曰諸君子皆與驩言	-12.84
公綽之不欲卞莊子之勇冉求之藝	-12.84
戰戰兢兢如臨深淵如履薄氷	-12.84
樂正子二之中四之下也	-12.84
聖人之憂民如此而暇耕乎	-12.84
子游問孝子曰今之孝者是謂能	-12.8401
南容三復白圭孔子以其兄之子妻之	-12.8401
其下朝不食夕不食	-12.8401
勞心者治人勞力者治於人治	-12.8401
邯	-12.8401
昔者齊景公問於晏子曰	-12.8401
齊宣王問曰文王之囿方七十里有諸	-12.8401
宣王問曰或謂寡人勿取或謂寡人取之	-12.8401
子曰吾未見剛者或對曰申棖	-12.8401
讜	-12.8401
民受天地之中以生	-12.8401
馬期以告子曰丘也幸苟有過人必知之	-12.8401
不以堯之所以治民治民賊其民者也	-12.8401
有民人焉有社稷焉何必讀書然後為學	-12.8401
惡之欲其死既欲其生又欲其死是惑也	-12.8401
故士窮不失義達不離道	-12.8401
古之人所以大過人者無他焉善推其所	-12.8401
行義以達其道吾聞其語矣未見其人也	-12.8402
如以朝衣朝冠坐於塗炭	-12.8402
微子去之箕子為之奴比干諫而死	-12.8402
肌膚之㑹筋骸之束	-12.8402
隸	-12.8402
是天子而友匹夫也	-12.8402
當是時陽貨先豈得不見	-12.8402
周公兼夷狄驅猛獸而百姓	-12.8402
孔子對曰俎豆之事則嘗聞之矣	-12.8402
矣乎子曰為之難言之得無訒乎	-12.8402
立則見其參於前在輿則見其倚於衡	-12.8402
子曰君子坦蕩蕩小人長戚戚	-12.8402
昔者禹抑洪水而天下平	-12.8402
無有失也則口腹豈適為尺寸之膚哉	-12.8402
前以士後以大夫前以三鼎而後以五鼎	-12.8402
苫	-12.8403
俱不得其死然禹稷躬稼而有天下	-12.8403
之其所畏敬而辟焉之其所哀矜而辟焉	-12.8403
國有道其言足以興國無道其黙足以容	-12.8403
禫	-12.8403
子夏曰小人之過也必文	-12.8403
别長幼有序朋友有信	-12.8403
天子父尊之至也以天下養養之至也	-12.8403
譁	-12.8403
子曰吾之於人也誰毁誰譽	-12.8403
曰是魯孔丘與曰是也曰是知津矣	-12.8403
且爾言過矣虎兕出於柙龜玉	-12.8404
右師言者有就右師之位而與右師言者	-12.8404
則身弑國亡不甚則身危國削	-12.8404
㽦	-12.8404
子曰伯夷叔齊不念舊惡怨是用希	-12.8404
由今之道無變今之俗	-12.8404
人有言曰人而無恒不可以作巫醫善夫	-12.8404
為誰曰為仲由曰是魯孔丘之徒與	-12.8404
而不為周南召南其猶正牆面而立也與	-12.8404
者其惟春秋乎罪我者其惟春秋乎	-12.8404
裒	-12.8404
知虞公之將亡而先去之	-12.8404
見冕者與瞽者雖䙝必以貌	-12.8404
作於其心害於其事作於其事害於其政	-12.8404
得侍同朝甚喜	-12.8404
五者廢其一非學也	-12.8404
得道者多助失道者寡助	-12.8405
曰凱風親之過小者也	-12.8405
嘗獨立鯉趨而過庭曰學詩乎	-12.8405
若於齊則未有處也	-12.8405
窘	-12.8405
吾聞夷子墨者墨之治喪也以薄	-12.8405
子張問明子曰浸潤之	-12.8405
武王周公其達孝矣乎	-12.8405
攬	-12.8405
子貢曰紂之不善不如是之甚	-12.8405
故君子以人治人改而止	-12.8405
今則可以見矣不直則道不見我且直之	-12.8405
孟子曰大人者不失其赤子之心者也	-12.8405
人未有自致者也必也親喪乎	-12.8406
聽於無聲視於無形	-12.8406
曰如斯而已乎曰修己以安	-12.8406
我不欲人之加諸我吾亦欲無加諸人	-12.8406
諄	-12.8406
子曰禮云禮云玉帛云乎哉	-12.8406
不惑於鬼神之不可知	-12.8406
呆	-12.8406
惽	-12.8406
江漢以濯之秋陽以暴之皜皜乎不可尚	-12.8406
㧞本塞源	-12.8406
一介不以與人一介不以取諸人	-12.8406
掦	-12.8406
寔能容之以能保我子孫黎民尚亦有利	-12.8406
不行王政云爾苟行王政	-12.8407
菁	-12.8407
故齊人莫如我敬王也	-12.8407
焉貪君子無衆寡無小大無敢慢斯不亦	-12.8407
天下溺援之以道	-12.8407
問於桀溺桀溺曰子	-12.8407
逺之近知風之自知微之顯	-12.8407
蕕	-12.8407
仁者人也親親為大義者宜也尊賢為大	-12.8407
痔	-12.8407
此詩者其知道乎能治其國家誰敢侮之	-12.8407
所謂修身在正其心者	-12.8407
齊人無以仁義與王言者	-12.8407
不飲酒不茹葷	-12.8408
墨者夷之因徐辟而求見孟子	-12.8408
山梁雌雉時哉時哉子路共之三嗅而作	-12.8408
故患有所不辟也	-12.8408
聽其言而信其行	-12.8408
樴	-12.8408
理而無私心則仁矣	-12.8408
體膚空乏其身行拂亂其所	-12.8408
絏	-12.8408
地不改辟矣民不改聚矣	-12.8409
天之方蹶無然泄泄	-12.8409
上如揖下如授勃如戰色足蹜蹜如有循	-12.8409
率西水滸	-12.8409
上下四旁均齊方正	-12.8409
古之狂也肆今之狂也蕩古之矜也	-12.8409
問人於他邦再拜而送之	-12.841
酳	-12.841
。」7.2	-12.841
夏后殷周之盛地未有過千里	-12.841
有為者辟若掘井	-12.841
巵	-12.841
勛	-12.841
君正莫不正一正君而國定矣	-12.841
璽	-12.841
今也南蠻鴃舌之人	-12.8411
語人曰我不能是	-12.8411
兄弟既翕和樂且耽	-12.8411
牿	-12.8411
生不忍見其死聞其聲不忍食其肉	-12.8411
曰羣居終日言不及義好行小慧難矣哉	-12.8411
拭	-12.8411
不嗜殺人者則天下之民皆引領而望	-12.8411
聞詩聞禮又聞君子之逺其子也	-12.8412
寢不尸居不容	-12.8412
曰其取諸民之不義也	-12.8412
多見闕殆慎行其餘則寡悔	-12.8412
禮與其奢也寜儉	-12.8412
子曰女奚不曰其為人也	-12.8412
懥	-12.8412
中食七人中次食六人下食五人	-12.8412
子路曰君子尚勇乎子曰君子義以為	-12.8412
子貢問政子曰足食足兵民信之矣	-12.8412
所欲與聚所惡勿施	-12.8412
用圭璧有庭實	-12.8412
莫見乎隠莫顯乎㣲	-12.8413
四十五十而無聞焉斯亦不足畏也已	-12.8413
翼如也復其位踧踖如也	-12.8413
今夫蹶者趨者是氣也而反動其心	-12.8413
䜛	-12.8413
樂道人之善樂多賢友益矣樂驕樂	-12.8413
鄉黨圖考卷	-12.8414
君召使擯色勃如也足躩如也	-12.8415
𬒮	-12.8416
咄	-12.8417
爪	-12.8417
柘	-12.8419
事親若曽子者可也	-12.8424
也夫國君好仁天下無敵	-12.8471
棱	-12.9014
鉶	-12.9035
翬	-12.904
耳無聞目無見	-12.9042
綉	-12.9043
搭	-12.9047
四書管窺卷	-12.9048
躭	-12.9048
子曰回也視予猶父也	-12.9049
頡	-12.9049
矣以其數則過矣以其時考之則可矣	-12.9051
苻	-12.9051
曰彼一時此一時也	-12.9052
貓	-12.9052
闋	-12.9052
君子多乎哉不多也	-12.9052
晃	-12.9052
桎梏死者非正命也	-12.9053
我之不賢與人將拒我如之何其拒人也	-12.9054
願耕於其野矣	-12.9054
之大夫皆逢君之惡故曰	-12.9054
正其衣冠尊其瞻視	-12.9055
泓	-12.9055
粢	-12.9055
繕	-12.9055
瞀	-12.9055
子曰君子上達小人下達	-12.9056
湧	-12.9056
膓	-12.9056
佔	-12.9056
曰是何傷哉彼身織屨妻辟纑以易之也	-12.9056
吾與女弗如也	-12.9056
子曰君子泰而不驕小人驕而不泰	-12.9056
流水之為物也不盈科不行	-12.9056
查	-12.9056
末擯末擯傳	-12.9056
詩云誰能執熱逝不以濯	-12.9057
敢問何如斯可謂狂矣	-12.9057
値	-12.9057
至於身而不知所以養之	-12.9057
不偏之謂中不易之謂庸中者天下之正	-12.9057
近聖人之居若此其甚也	-12.9057
今也欲無敵於天下而不以仁	-12.9057
儷	-12.9057
惟酒無量不及亂	-12.9057
餔啜也我不意子學古之道而以餔啜也	-12.9057
夫子莞爾而笑曰割雞焉用牛刀	-12.9058
人性之善也猶水之就下也	-12.9058
也與之食之其兄自外至曰是	-12.9058
戞	-12.9058
魯欲使慎子為將軍	-12.9059
鳯鳥不至河不出圖	-12.9059
子食於有喪者之側未嘗飽也	-12.9059
草上之風必偃	-12.9059
聽非禮勿言非禮勿動	-12.9059
稿	-12.9059
譙	-12.9059
制之於外以安其内	-12.9059
白圭曰丹之治水也愈於禹	-12.9059
所謂西伯善養老者	-12.9059
從之純如也皦如也繹如也以成	-12.9059
得淑女以配君子	-12.9059
樵	-12.9059
君子之徳風小人之徳草草上之風必偃	-12.9059
逺人不服而不能來	-12.906
當行而行無所顧慮	-12.906
子貢問曰賜也何如子曰女器也	-12.906
子曰非吾徒也小子鳴鼓而攻之可也	-12.906
宰我問曰仁者雖告之曰井有仁焉其	-12.906
子思曰如伋去君誰與守	-12.906
臣請為王言樂	-12.906
芽	-12.906
去志不欲變故不受也	-12.906
道也者不可須臾離也可離非道也	-12.9061
魯自文公始不視朔	-12.9061
此之謂自謙故君子必慎其獨也	-12.9061
可以濯我纓滄浪之水濁兮可以濯我足	-12.9061
詒	-12.9061
使天下之人皆有以明其明徳	-12.9061
孫弟長而無述焉老而不死是為賊	-12.9061
方寸之木可使髙於岑樓	-12.9062
是猶弟子而恥受命於先師也	-12.9062
言非禮義謂之自暴	-12.9062
好勇疾貧亂也人而不仁疾之已甚亂也	-12.9062
吾見於夫子而問知	-12.9062
以去乎曰直道而事人焉往而不三黜	-12.9062
盟之後言歸于好	-12.9062
嘘	-12.9062
蛇龍而放之菹	-12.9062
曰吾有司死者三十三人而民莫之死也	-12.9062
殺一無罪非仁也非其有而取之非義也	-12.9062
雖有天下易生之物也	-12.9062
今之諸侯皆犯此五禁	-12.9062
物交物則引之而已	-12.9062
孟子曰桀紂之失天下也	-12.9062
丈夫之冠也父命之女子之嫁也母命之	-12.9062
一日克己復禮天下歸仁焉	-12.9062
櫽	-12.9062
其親死則舉而委之於壑	-12.9062
王天下有三重焉其寡過矣乎	-12.9062
綻	-12.9062
天下之大本也和也者天下之達道也	-12.9063
人亦孰不欲富貴	-12.9063
要其有酒食黍稻者奪	-12.9063
不以一毫私欲自累	-12.9063
吾未能有行焉乃所願則學孔子也	-12.9063
曰君子不施其親不使大臣怨乎不以	-12.9063
洧	-12.9063
四書經疑貫通卷	-12.9063
子曰天生徳於予桓魋其如予何	-12.9063
惟自暴者拒之以不信自棄者絶之以不	-12.9063
火益熱亦運而已矣	-12.9063
孟子謂樂正子曰子之從於子敖來	-12.9063
吾豈匏𤓰也哉焉能繫而不食	-12.9063
公行子有子之喪右師	-12.9063
不仁者以其所不愛及其所愛	-12.9063
禮與其奢也寧儉	-12.9063
詩云雨我公田遂及我私	-12.9063
扃	-12.9063
况於親炙之者乎	-12.9063
𫉬	-12.9063
孟子曰言人之不善當如後患何	-12.9063
季氏旅於泰山子謂冉有曰女弗能救與	-12.9063
衫	-12.9063
孟子曰善人也信人也	-12.9064
仁人之安宅也義人之正路也	-12.9064
可使過顙激而行之可	-12.9064
懶	-12.9064
則是方四十里為阱於國中	-12.9064
尽	-12.9064
此則滑釐所不識也	-12.9064
陽貨矙孔子之亡也而饋孔子蒸豚	-12.9064
枚	-12.9064
欵	-12.9064
則犬之性猶牛之性牛之性猶人之性與	-12.9064
鶂	-12.9064
貧賤不能移威武不能屈此之謂大丈夫	-12.9064
日三省吾身為人謀而不忠乎與朋友交	-12.9064
子曰由也果於從政乎何有	-12.9064
志與民由之不得志獨行其道富貴不能	-12.9064
萑	-12.9064
類也乎若仲子者蚓而後充其操者也	-12.9064
謔	-12.9064
子曰其言之不怍則為之也難	-12.9065
曰求也藝於從政乎何有	-12.9065
是也則孝子仁人之掩其親亦必有道矣	-12.9065
子曰詩三百一言以蔽之曰思無邪	-12.9065
嬖人臧倉者請曰	-12.9065
悾	-12.9065
黿	-12.9065
相去三丈六尺	-12.9065
䐑	-12.9065
名實未加於上下	-12.9065
有王者作則魯在所損乎在所益乎	-12.9065
孔子對曰政者正也子帥以正孰敢不正	-12.9065
孟子見齊宣王曰所謂故國者	-12.9065
出曰二三子何患於喪乎天下之無道也	-12.9065
今魯方百里者五子以	-12.9065
乎親不可以為人不順乎親不可以為子	-12.9065
尚不愧于屋漏	-12.9065
擲	-12.9065
父母愛之喜而不忘父母惡之勞而不怨	-12.9065
去齊接淅而行去魯曰遲遲吾行	-12.9065
仲弓為季氏宰問政子曰先有司	-12.9065
有諸己而後求諸人無諸己而後非諸人	-12.9065
歴位而相與言不踰階而相揖	-12.9065
取食之重者與禮之輕者而比之	-12.9066
人死則曰非我也	-12.9066
曰吾子與子路孰賢	-12.9066
故天將降大任於是人也	-12.9066
曰是詩也非是之謂也	-12.9066
曰賜也可使從政也與曰賜也	-12.9066
王亦曰仁義而已矣何必曰利	-12.9066
有欲為王留行者	-12.9066
苽	-12.9066
趋	-12.9066
雲漢之詩曰周餘黎民靡有	-12.9066
其次雖未行其言也	-12.9066
孟子曰於齊國之士吾必以仲子	-12.9066
夫達也者質直而好義察言而	-12.9066
無如寡人之用心者	-12.9066
公明儀曰古之人三月無君則弔	-12.9066
天子不仁不保四海諸侯不仁不保社稷	-12.9066
曰君子成人之美不成人之惡小人反是	-12.9066
如之何其使斯民飢而死也	-12.9066
腋	-12.9066
其行已也恭其事上也敬	-12.9066
或相什伯或相千萬	-12.9066
君子之澤五世而斬小人之澤五世而斬	-12.9067
曰士之仕也猶農	-12.9067
仁内也非外也義外也非内也	-12.9067
如智者亦行其所無事則智亦大矣	-12.9067
陳子以時子之言告孟子	-12.9067
非之無舉也刺之無刺也同乎流俗合乎	-12.9067
大夫能薦人於諸侯	-12.9067
所欲有甚於生者所惡有甚於死者	-12.9067
瀠	-12.9067
諸侯能薦人於天子	-12.9067
侵于之疆則取于殘殺伐用張于湯有光	-12.9067
一息尚存此志不容少懈	-12.9067
好仁者無以尚之惡不仁者其為仁矣	-12.9067
有田則祭無田則薦	-12.9067
唾	-12.9067
曰射有似乎君子失諸正鵠反求諸其身	-12.9067
有官守者不得其職則去有言責者不得	-12.9067
湯之於伊尹學焉而後臣之	-12.9067
伯達伯适仲突仲忽叔夜叔夏季隨季騧	-12.9067
五旬而舉之人力不至於此	-12.9067
問燕可伐與吾應之曰可彼然而伐之也	-12.9067
就之而不見所畏焉	-12.9068
而不動者未之有也不誠未有能動者也	-12.9068
然後知生於憂患而死於安樂也	-12.9068
正其義不謀其利明其道不計其功	-12.9068
令聞廣譽施於身所以不願人之文繡也	-12.9068
異於白馬之白也無以異於白人之白也	-12.9068
仁者如射射者正	-12.9068
使之主事而事治百姓安之是	-12.9068
垂涕泣而道之	-12.9068
也是何異於刺人而殺之曰非我也兵也	-12.9068
今將行王政齊楚惡而伐之則如之何	-12.9068
所令反其所好而民不從是故君子有諸	-12.9068
見孟子問曰周公何人也	-12.9068
嘗不得見也從者見之	-12.9068
縊	-12.9068
前日不知虞之不肖	-12.9068
思曰睿睿作聖	-12.9068
未可以言而言是以言餂之	-12.9068
頌其詩讀其書	-12.9068
於智矣禹之行水也行其所無事也	-12.9068
子路曰不仕無義長	-12.9068
湯有天下選於衆舉伊尹不仁者逺矣	-12.9068
不知天命而不畏也狎大人侮聖人之言	-12.9069
小人之中庸也小人而無忌憚也	-12.9069
必先苦其心志勞其筋骨餓其	-12.9069
故凡同類者舉相似也	-12.9069
無聞目無見也井上有李螬食實者過半	-12.9069
己而后求諸人無諸己而后非諸人	-12.9069
如智者若禹之行水也則無惡	-12.9069
尸則誰敬彼	-12.9069
親之過小而怨是不可磯也	-12.9069
創業垂統為可繼也若夫成功則天也	-12.9069
悌守先王之道以待後之學者	-12.9069
擎	-12.9069
白圭曰吾欲二十而取一何如	-12.9069
仁則榮不仁則辱今惡辱而居不仁是猶	-12.9069
子貢方人子曰賜也賢乎哉夫我則不暇	-12.9069
王色定然後請問異姓之卿	-12.9069
皐	-12.9069
苟能充之足以保四海苟不充之	-12.9069
媿	-12.907
予豈若是小丈夫然哉	-12.907
今有殺人者或問之曰人可殺與則	-12.907
孟子曰子之道貉道也	-12.907
宰問於子貢曰夫子聖者與何其多能也	-12.907
仁且智夫子既聖矣	-12.907
子曰不仁者不可以久處約	-12.907
羇	-12.907
天地之大也人猶有所憾	-12.907
夫子當路於齊管仲晏子之功可復許乎	-12.907
仁而何其血之流杵也	-12.907
孟子三見齊王而不言事	-12.907
名之曰幽厲雖孝子慈孫百世不能改也	-12.907
子之所慎齊戰疾	-12.907
知而使之是不仁也不知而使之是不	-12.907
燕人畔王曰吾甚慙於孟子	-12.907
必察乎此而敬以直之	-12.907
子服景伯以告曰夫子固有惑志	-12.907
惹	-12.907
其言則去我無官守我無言責	-12.907
應之曰可彼如曰孰可以殺之則	-12.907
有所不足不敢不勉有餘不敢盡	-12.907
孟子不與右師言右師不	-12.907
兎	-12.907
則吾進退豈不綽綽然有餘裕哉	-12.907
君子有三畏畏天命畏大人畏聖人之言	-12.907
仁者以財發身不仁者以身發財	-12.907
鏝	-12.907
以大夫之招招虞人虞人死不敢	-12.907
子路問成人子曰若臧武仲之知	-12.907
曰使管叔監殷管叔以殷畔也有諸	-12.907
曰梓匠輪輿其志將以求食也君子之	-12.907
莫大乎尊親尊親之至莫大乎以天下養	-12.907
有惡惡稱人之惡者惡居下流而訕上者	-12.907
故曰或勞心或勞力	-12.907
於利以罷三軍之師	-12.907
非天子不議禮不制度不考文	-12.907
則農有餘粟女有餘布	-12.907
及紂之身天下又大亂	-12.907
子曰君子周而不比小人比而不周	-12.9071
寡取之凶年糞其田而不足則必取盈焉	-12.9071
危而不持顛而不扶則將焉用彼相矣	-12.9071
比及三年可使有勇且知方也夫子哂之	-12.9071
子曰君子食無求飽居無求安敏於事而	-12.9071
終身由之而不知其道者衆也	-12.9071
苟為善後世子孫必有王者矣	-12.9071
非有我之得私也	-12.9071
顔淵問仁子曰克己復禮為仁一日克	-12.9071
夫孝者善繼人之志善述人之事者也	-12.9071
𨗳	-12.9071
也禮門也惟君子能由是路出入是門也	-12.9071
苟為後義而先利不奪不饜	-12.9071
元陳天祥撰	-12.9071
脆	-12.9071
愛人者人恒愛之敬人者人恒敬之	-12.9071
周公弟也管叔兄也周公之過不亦宜乎	-12.9071
夫婦之愚可以與知焉及其至也雖聖人	-12.9071
知焉夫婦之不肖可以能行焉	-12.9071
雖大行不加焉雖窮居不損焉分定故也	-12.9071
緇衣羔裘素衣麑裘黄衣狐裘	-12.9072
葬以士祭以大夫	-12.9072
父母干戈朕琴朕弤朕二嫂使治朕棲	-12.9072
吾聞西伯善養老者太公辟紂居東海之	-12.9072
曰貧而無諂富而無驕何如子曰可也	-12.9072
陳賈曰王無患焉王自以	-12.9072
從流上而忘反謂之連	-12.9072
逋	-12.9072
推恩足以保四海不推恩無以保妻子	-12.9072
昔者有王命有采薪之憂	-12.9072
其為氣也配義與道無是餒也	-12.9072
不我足也恐其不能盡於大事	-12.9072
之矣失其身而能事其親者吾未之聞也	-12.9072
知及之仁能守之不莊以涖之則民不敬	-12.9072
今也不幸至於大故	-12.9072
曰無恒産而有恒心者惟士	-12.9072
有馬者借人乘之	-12.9072
朝覲訟獄謳歌	-12.9072
子曰以吾一日長乎爾毋吾以也	-12.9072
猶未洽於天下武王周公繼之然後大行	-12.9072
尹士聞之曰士誠小人也	-12.9073
也所求乎臣以事君未能也	-12.9073
葺	-12.9073
自得之則居之安居之安則資之深	-12.9073
雖使五尺之童適市	-12.9073
前日之不受是則今日之受非也	-12.9073
子曰古者言之不出恥躬之不逮也	-12.9073
子曰唯女子與小人為難養也	-12.9073
已知之理而益窮之以求至乎其極	-12.9073
匈	-12.9073
仁能守之莊以涖之動之不以禮未善也	-12.9073
子在川上曰逝者如斯夫不舍晝夜	-12.9073
食焉過也人皆見之更也人皆仰之	-12.9073
春秋天子之事也是故孔子曰知我	-12.9073
曰内則父子外則君臣人之大倫也	-12.9073
夫子加齊之卿相得行道焉	-12.9074
遇舊館人之喪	-12.9074
之道造端乎夫婦及其至也察乎天地	-12.9074
駰	-12.9074
覷	-12.9074
謂人皆有不忍人之心者今人乍見孺子	-12.9074
堯舜之道不以仁政不能平治天下	-12.9074
聖人之行不同也或逺或近或去或不去	-12.9074
心勿求於氣可不得於言勿求於心不可	-12.9074
子曰君子無所爭必也射乎	-12.9074
曰否許子衣褐	-12.9074
千里而見王是予所欲也	-12.9074
在物為理處物為義	-12.9074
王如用予則豈徒齊民安天下之民舉安	-12.9074
今日之受是則前日之不受非	-12.9074
問仁曰仁者先難而後獲可謂仁矣	-12.9074
施諸已而不願亦勿施於人	-12.9074
疾視曰彼惡敢當我哉	-12.9074
玦	-12.9075
曰賜也亦有惡乎惡徼以為知者	-12.9075
吾於人也聽其言而觀其行於予與改是	-12.9075
啐	-12.9075
然後取人不厭其取子曰其然豈其然乎	-12.9075
決江河沛然莫之能禦	-12.9075
覦	-12.9075
子曰人無逺慮必有近憂	-12.9075
襍	-12.9075
人之徒與而誰與天下有道丘不與易也	-12.9075
見之及其更也民皆	-12.9076
嚬	-12.9076
吾聞用夏變夷者未聞變於夷者也	-12.9076
子曰朽木不可雕也糞土之牆不可杇也	-12.9076
恭敬者幣之未將者也	-12.9076
丹朱之不肖舜之子亦不肖	-12.9076
杓	-12.9076
曰嫂溺則援之以手乎	-12.9076
惡鄭聲之亂雅樂也惡利口之覆邦家者	-12.9076
飢食渴飲	-12.9076
無君子莫治野人無野人莫養君子	-12.9076
博學而詳説之將以反説約也	-12.9076
他日子夏子張子游	-12.9076
是故諸侯雖有善其辭命	-12.9076
自能尋向上去下學而上達	-12.9076
用下敬上謂之貴貴	-12.9076
椘	-12.9077
無法家拂士出則無敵國外患者國恒亡	-12.9077
交也以道其接也以禮斯孔子受之矣	-12.9077
子曰知者不惑仁者不憂勇者不懼	-12.9077
曰昔者疾今日愈如之何不弔	-12.9077
飧	-12.9077
不有博奕者乎為之猶賢乎已	-12.9077
治天下豈無所用其心哉亦不用於耕耳	-12.9077
邑有先君之廟曰都	-12.9078
曰尊者賜之曰其所取之者義乎	-12.9079
万	-12.908
在邦域之中矣是社稷之臣也何以伐為	-12.908
夜氣不足以存則其違禽獸不逺矣	-12.908
與木石居與鹿豕遊	-12.908
煙	-12.908
鄄	-12.908
子曰多聞闕疑慎言其餘則寡尤	-12.908
行逺自邇登髙自卑	-12.9081
轕	-12.9081
屡	-12.9081
子曰攻乎異端斯害也已	-12.9082
摽	-12.9082
五家為鄰五鄰為里	-12.9082
王使人問疾醫來	-12.9083
曰奚而不知也象憂亦憂象喜亦喜	-12.9083
苟患失之無所不至矣	-12.9083
罥	-12.9083
君賜腥必熟而薦之君賜生必畜之	-12.9083
而后知至知至而后意誠意誠而后心正	-12.9086
楢	-12.9087
齗	-12.9092
儛	-12.9095
狗彘食人食	-12.9098
事非君何使非民治亦進亂亦進伊尹也	-12.9126
子曰其恕乎己所不欲勿施於人	-12.9157
國君好仁天下無敵焉	-12.9692
何事非君何使非民治亦進亂亦進	-12.9715
簀	-12.9747
扄	-12.9753
𬞞	-12.9759
昺	-12.9763
孟子曰不仁而得國者有之矣	-12.9764
儱	-12.9764
抉	-12.9765
順乎天而應乎人	-12.9765
子夏曰仕而優則學學而優則仕	-12.9766
由文王至於孔子五百有餘	-12.9767
正則眸子瞭焉胷中不正則眸子眊焉	-12.9767
堆	-12.9767
百世之下聞者莫不興起也	-12.9768
子曰苟正其身矣於	-12.9768
子曰吾以女為死矣曰子在回何敢死	-12.9768
子曰人之過也各於其黨觀過斯知仁矣	-12.9769
行一不義殺一不辜	-12.9769
欲寡其過而未能	-12.977
齊宣王問曰湯放桀武王伐紂有諸	-12.977
由湯至於文王五百有餘	-12.977
明於庶物察於人倫由仁義行非行仁義	-12.977
薄乎云爾惡得無罪	-12.977
僃	-12.977
惟順於父母可以解憂	-12.9771
孟子對曰有人不得則非其上矣	-12.9772
集溝澮皆盈其涸也可立而待也	-12.9772
鶃鶃之肉也出而哇之	-12.9772
微生畝謂孔子曰丘何為是栖栖者與	-12.9772
郊社之禮所以事上帝也	-12.9772
闕黨童子將命或問之曰益者與	-12.9772
可使制梃以撻秦楚之堅甲利兵矣	-12.9772
孟子曰君子不亮惡乎執	-12.9772
曰非也於崇吾得見王退而有	-12.9772
反左右曰待先生如此其忠且敬也	-12.9773
人病不求耳子歸而求之有餘師	-12.9773
去齊充虞路問曰夫子若有不豫色然	-12.9773
何哉君所為輕身以先於匹夫者	-12.9773
㦯	-12.9773
悌忠信入以事其父兄出以事其長上	-12.9774
人之親其兄之子為若親其鄰之赤子乎	-12.9774
擗	-12.9774
物我一理纔明彼即曉此	-12.9774
務農講武之法	-12.9774
不百里不足以守宗廟之典籍	-12.9774
心不若人則不知惡此之謂不知類也	-12.9774
跽	-12.9774
見得思義祭思敬喪思哀其可已矣	-12.9774
仲尼亟稱於水曰水哉水哉何取於水也	-12.9774
愜	-12.9774
子曰吾有知乎哉無知也有鄙夫問	-12.9774
而不勝夫環而攻之必有得天時者矣	-12.9774
也吾身不能居仁由義謂之自棄也	-12.9775
亞飯干適楚三飯繚適蔡四飯缺適秦	-12.9775
子曰道之以政齊之以刑民免而無恥	-12.9775
非全體而不息者不足以當之	-12.9775
天之所覆地之所載日月所照霜露所	-12.9775
湯居亳與葛為鄰	-12.9775
銑	-12.9775
曰今有受人之牛羊而	-12.9775
孟子對曰是謀非吾所能及也無	-12.9775
得之有命是求無益於得也求在外者也	-12.9775
反諸其人乎抑亦立而視其死與	-12.9775
凡民也若夫豪傑之士雖無文王猶興	-12.9775
曰乃若其情則可以為善矣乃所謂善也	-12.9775
沈猶行曰是非汝所知也昔	-12.9775
也欲重之於堯舜之道者大桀小桀也	-12.9775
恧	-12.9775
彼奪其民時使不得耕耨以養	-12.9775
彌近理而大亂真	-12.9776
駉	-12.9776
今有仁心仁聞而民不被其澤	-12.9776
曰伯夷聖之清者也伊尹聖之任者也	-12.9776
今又倍地而不行仁政是動天下之兵也	-12.9776
孟子曰孔子不得中道而與之	-12.9776
漿以迎王師若殺其父兄係累其子弟	-12.9776
剩	-12.9776
果能此道矣雖愚必明雖柔必强	-12.9776
怨乎曰求仁而得仁又何怨出曰夫子不	-12.9776
斯二者天也順天者存逆天者亡	-12.9776
移一條入上題	-12.9776
鷺	-12.9776
才也養不才故人樂有賢父兄也	-12.9776
詩云其何能淑載胥及溺此之謂也	-12.9776
坫管氏亦有反坫管氏而知禮孰不知禮	-12.9776
導其妻子使養其老	-12.9777
然則夫子既聖矣乎	-12.9777
一戰勝齊遂有南陽然且不可	-12.9777
惡佞恐其亂義也	-12.9777
廊	-12.9777
天視自我民視天聽自我民聽	-12.9777
子曰以不教民戰是謂棄之	-12.9777
子路愠見曰君子亦有窮乎	-12.9777
冠者五六人童子六七人浴乎沂風乎舞	-12.9777
子曰臧武仲以防求為後於	-12.9777
如知為君之難也不幾乎一言而興邦乎	-12.9777
壯者散而之四方者幾千人矣	-12.9777
者不仁而可與言則何亡國敗家之有	-12.9778
彼丈夫也我丈夫也吾何畏彼哉	-12.9778
行後長者謂之弟疾行先長者謂之不弟	-12.9778
請輕之以待來年	-12.9778
弗能弗措也有弗問	-12.9778
者不勉而中不思而得從容中道聖人也	-12.9778
古之人得志澤加於民不得志	-12.9778
曰公孫衍張儀豈不誠大丈夫哉	-12.9778
友便辟友善柔友便佞損矣	-12.9778
麰	-12.9778
公都子曰冬日則飲湯	-12.9778
樂之實樂斯二者樂則生矣生則惡可	-12.9778
他日君出則必命有司所之今	-12.9778
於公伯寮吾力猶能肆諸市朝	-12.9778
其顙有泚睨而不視夫泚也非	-12.9778
君之視臣如手足則臣視君如腹心	-12.9778
豈有他哉避水火也如水益深如	-12.9778
稊	-12.9778
是國也其君用之則安富尊榮其子弟從	-12.9778
率其子弟攻其父母自	-12.9778
斧斤以時入山林材木不可勝用也	-12.9778
田獵也此無他與民同樂也	-12.9778
恥辱也因不失其親亦可宗也	-12.9779
湯之於伊尹桓公之於管仲則不敢召	-12.9779
然則管仲知禮乎曰邦君樹塞門管	-12.9779
困而不學民斯為下	-12.9779
當堯之時天下猶未平洪水	-12.9779
萬章曰庶人召之役則	-12.9779
王速出令反其旄倪止其重	-12.9779
謀於燕衆置君而後去之則猶可及止也	-12.9779
刁	-12.9779
不識長馬之長也無以異	-12.9779
己欲立而立人己欲達而達人	-12.9779
曰不憂不懼斯謂之君子矣乎	-12.9779
琥	-12.9779
稀	-12.9779
鄉人長於伯兄一	-12.9779
惡利口恐其亂信也	-12.9779
水逆行謂之洚水洚水者洪水也仁人之	-12.9779
以其小者信其大者奚可哉	-12.9779
小弁小人之詩也孟子曰何以言之曰怨	-12.9779
智譬則巧也聖譬則力也由射於百	-12.9779
三里之城七里之郭環而攻之	-12.9779
使在山是豈水之性哉其勢則然也	-12.9779
居於陵三日不食耳	-12.9779
徳者本也財者末也	-12.9779
砭	-12.9779
善事父母為孝善事兄長	-12.978
曰士之失位也猶諸侯之失國家也	-12.978
不勞而王桓公之於管仲	-12.978
子曰善人教民七年亦可以即戎矣	-12.978
仲弓問子桑伯子子曰可也簡	-12.978
執柯以伐柯睨而視之猶以為逺	-12.978
孟子對曰王何必曰利亦有仁義而已矣	-12.978
不仁不保宗廟士庶人不仁不保四體	-12.978
人知之亦囂囂人不知亦囂囂	-12.978
喪畢舜避堯之子	-12.978
讓之心非人也無是非之心非人也	-12.978
樂正子見孟子曰克告於君君為	-12.978
位卑而言髙罪也	-12.978
孟子曰生之謂性也猶白之謂白與	-12.978
得天下有道得其民斯得天下	-12.978
景子曰否非此之謂也禮曰父召無諾	-12.978
食無求飽居無求安	-12.978
樂正子入見曰君奚為不見孟軻也	-12.978
於齊主侍人瘠環	-12.9781
譴	-12.9781
文王以民力為臺為沼	-12.9781
王在靈沼於牣魚躍	-12.9781
㦸之士一日而三失伍則去之否乎	-12.9781
不能三年之喪而緦小功之察	-12.9781
由鄒之任見季子由平陸之齊不見儲子	-12.9781
踐其位行其禮奏其樂	-12.9781
蹷	-12.9781
不得於君則熱中	-12.9781
天之所與我者先立乎其大者則其小者	-12.9781
今之成人者何必然見利思義見危授命	-12.9781
今有璞玉於此雖萬鎰必使玉人彫琢之	-12.9781
為巨室則必使工師求大木	-12.9781
逗	-12.9781
南面而征北狄怨東面而征西夷怨曰奚	-12.9781
臑	-12.9781
在野曰草莽之臣皆謂庶人	-12.9781
天子能薦人於天	-12.9781
諸侯朝於天子曰述職	-12.9781
戱	-12.9781
小弁之怨親親也親親仁也固矣夫	-12.9781
不足以待諸侯諸侯之地方百里	-12.9781
孔子下欲與之言趨而辟之不得與之言	-12.9781
獻子之與此五人者友也	-12.9781
不取必有天殃取之何如	-12.9781
其三人則予忘之矣	-12.9781
得其心斯得民矣	-12.9781
㫖不甘聞樂不樂居處不安故不為也今	-12.9781
下焉者雖善不尊不尊不信不信民弗從	-12.9781
居惡在仁是也路惡在義是也	-12.9781
諸大夫皆曰賢未可也國人皆曰賢然	-12.9781
雖在縲絏之中非其罪也以其子妻之	-12.9781
浡然而生至於日至之時皆熟矣	-12.9781
親親之殺尊賢之等	-12.9782
布帛長短同則賈相若	-12.9782
斫	-12.9782
瑑	-12.9782
由是則生而有不用也由是則可以	-12.9782
繆公之於子思也亟問亟餽鼎肉子思不	-12.9782
而天受之暴之於民而民受之如何	-12.9782
終日不食終夜不寢以思無益不如學也	-12.9782
而不獲一禽嬖奚反命曰天下之賤工也	-12.9782
成覸謂齊景公曰	-12.9782
也曰非所謂踰也貧富不同也	-12.9782
於卒也摽使者出諸大門	-12.9782
昔者堯薦舜於天而天受之	-12.9782
曰使之主祭而百神享之是天受之	-12.9782
曰獨樂樂與人樂樂孰樂	-12.9782
曰然則吾子與管仲孰賢	-12.9782
孔子君命召不俟駕而行然則孔子非與	-12.9782
孟子曰封之也或曰放焉	-12.9782
恐不傷人函人	-12.9782
易牙先得我口之所耆者也	-12.9782
曰君餽之則受之不識可常繼乎	-12.9782
曰周之則受賜之則不受何也	-12.9782
謹權量審法度修廢官四方之政行焉	-12.9782
夫蚓上食槁壤下飲黄泉	-12.9782
慎於言就有道而正焉可謂好學也已	-12.9782
欲與之偕亡雖有臺池鳥獸豈能獨樂哉	-12.9782
曰否士無事而食不可也	-12.9782
且而與其從辟人之士也	-12.9782
無畏寧爾也非敵百姓也若崩厥角稽首	-12.9782
孫叔敖舉於海百里奚舉於市	-12.9782
曰以行與事示之者如之何	-12.9782
訑訑之聲音顔色距人於千里之外	-12.9782
惡㫖酒而好善言	-12.9783
未同而言觀其色赧赧然非由之所知也	-12.9783
為知一言以為不知言不可不慎也	-12.9783
若犬馬之與我不同類也	-12.9783
也嬖人有臧倉者沮君君是以不果來也	-12.9783
之心人皆有之羞惡之心人皆有之	-12.9783
夫麰麥播種而耰之其地同樹之時又同	-12.9783
孔子曰夫子聖矣乎孔子曰聖	-12.9783
敬之心人皆有之是非之心人皆有之惻	-12.9783
甲悔過自怨自艾於桐處仁	-12.9783
静静而后能安安而后能慮慮而后能得	-12.9783
紛紛然與百工交易何許子之不憚煩	-12.9783
孟子曰自暴者不可與有言也	-12.9783
譬如平地雖覆一簣進吾往也	-12.9783
子曰年四十而見惡焉其終也已	-12.9783
然則小固不可以敵大	-12.9783
詩云自西自東自南自北無思不服此	-12.9783
為政於天下者湯是也未聞以千里畏人	-12.9783
古之人與民偕樂故能樂也	-12.9783
欲為君盡君道欲為臣盡臣道	-12.9783
與之人與之故曰天子不能以天下與人	-12.9783
武王之伐殷也革車三百兩虎賁三千人	-12.9783
若是乎賢者之無益於國也	-12.9783
詩曰永言孝思孝思維則此之謂也	-12.9783
邠人曰仁人也不可失也從之者如歸市	-12.9783
觀色慮以下人在邦必達在家必達	-12.9783
故好而知其惡惡而知其美者天下鮮矣	-12.9783
榛	-12.9783
孟子獨不與驩言是簡驩也	-12.9783
小弁親之過大者也親之過大而	-12.9783
孟子之平陸謂其大夫曰子之持	-12.9783
餽之是貨之也焉有君子而可以貨取乎	-12.9784
内之地方千里者九	-12.9784
天與之者諄諄然命之乎	-12.9784
季路見於孔子曰季氏將有事於顓臾	-12.9784
曰不同有貴戚之卿有異姓之卿	-12.9784
者不之堯之子而之舜訟獄者不之堯之	-12.9784
國不以山谿之險威天下不以兵革之利	-12.9784
曰行吾敬故謂之内也	-12.9784
島	-12.9784
孟子曰養生者不足以當大事	-12.9784
耕者之所獲一夫百	-12.9784
語大天下莫能載焉語小天下莫能破焉	-12.9784
於南河之南天下諸侯朝覲	-12.9784
智也仁智周公未之盡也而	-12.9784
畏天者也樂天者保天下畏天者保其國	-12.9784
耳目之官不思而蔽於物	-12.9784
子曰食夫稻衣夫錦於女安乎曰安	-12.9784
有若曰豈惟民哉	-12.9784
今日格一物明日格一物	-12.9785
今也不然師行而糧食	-12.9785
不得免焉事之以犬馬不得免焉事之以	-12.9785
人皆曰予知擇乎中庸而不能期月守也	-12.9785
所以考其善不善者豈有他哉於	-12.9785
子曰人能𢎞道非道𢎞人	-12.9785
得其門者或寡矣夫子之云不亦宜乎	-12.9785
歡樂之謂其臺	-12.9785
湯始征自葛載十一征而無敵於天下東	-12.9785
以己及物仁也推己及物恕也	-12.9785
自耕稼陶漁以至為帝無非取於人者	-12.9785
不得已而之景丑氏宿焉	-12.9785
仁義禮智非由外鑠我也我固有之也	-12.9785
他日王謂時子曰我欲中國而授孟子室	-12.9785
使虞敦匠事嚴虞不敢請今	-12.9785
古之欲明明德於天下者先治其國	-12.9785
平其政行辟人可也焉得人人而濟之	-12.9785
王就見孟子曰前日願見而不可得	-12.9785
人恒過然後能改困於心衡於慮而後作	-12.9785
王欲行之則盍反其本矣	-12.9785
竭力以事大國則不得免焉如之何則可	-12.9785
孟子曰否我四十不動心	-12.9785
設為庠序學校以教之	-12.9785
孟子曰以善服人者未有能服人者也	-12.9785
民以仁摩民以義	-12.9785
然也雖小國之君亦有之費	-12.9785
閒暇及是時明其政刑雖大國必畏之矣	-12.9785
孺子之父母也非所以要譽於	-12.9785
且志曰喪祭從先祖曰吾有所受之也	-12.9785
君辟土地充府庫	-12.9785
孟子曰愛人不親反其仁	-12.9785
曰孔子當仕有官職而以其官召之也	-12.9785
語不能顯黙不能藏	-12.9785
願竊有請也木若以美然	-12.9785
子夏曰君子有三變望之儼然即之也温	-12.9786
以其所有易其所無者有司者治之耳	-12.9786
如不待其招而往何哉	-12.9786
黠	-12.9786
孟子自齊葬於魯反於齊止於嬴	-12.9786
之民哉吾豈若於吾身親見之哉	-12.9786
當在薛也予有戒心辭曰聞戒故	-12.9786
之有家父母之心人皆有之	-12.9786
堯舜之君哉吾豈若使是民	-12.9786
色則慕少艾有妻子則慕妻子仕則慕君	-12.9786
祍	-12.9786
由百世之後等百世之王	-12.9786
生亦我所欲也義亦我所欲也	-12.9786
欲者吾土地也吾聞之也君子不以其所	-12.9786
難變也武丁朝諸侯有天下猶運之掌也	-12.9786
使人之所惡莫甚於死者	-12.9786
勤學好問為文	-12.9786
皆賢人也相與輔相之	-12.9786
人曰何以利吾身上下交征利而國危矣	-12.9786
命也見不善而不能退退而不能逺過也	-12.9786
推廣仁術則仁民易而愛物難	-12.9787
無若宋人然宋人有閔其	-12.9787
之中由是以樂堯舜之道吾豈若使是君	-12.9787
周公相武王誅紂伐奄三年討其君	-12.9787
舅犯曰亡人無以為寳仁親以為寳	-12.9787
獸相食且人惡之	-12.9787
王曰何以利吾國大夫曰何以利吾家士	-12.9787
考諸三王而不謬	-12.9787
子曰法語之言能無從乎改之為貴	-12.9787
子曰自行束脩以上吾未嘗無誨焉	-12.9787
何以是嘐嘐也言不顧行行不顧言	-12.9787
民父母行政不免於率獸而食人惡在其	-12.9787
祖述堯舜憲章文武上律天時下襲水土	-12.9787
吾聞其以堯舜之道要湯未聞以割烹也	-12.9787
所以不願人之膏粱之味也	-12.9787
及其至也雖聖人亦有所不能焉	-12.9787
心之官則思思則得之不思則不得也	-12.9787
楚書曰楚國無以為寳惟善以為寳	-12.9787
若無罪而就死地故以羊易之也	-12.9787
莊則敬孝慈則忠舉善而教不能則勸	-12.9787
其所以異於深山之野人者幾希	-12.9787
曰尊賢使能俊傑在位	-12.9787
出門如見大賓使民如承大祭	-12.9787
豈無仁義之心哉其所以放其良心者	-12.9787
儀封人請見曰君子之至於斯也吾未	-12.9787
宜若小然今一見之大則以王小則	-12.9787
孟子曰人之所不學而能者	-12.9787
惟耳亦然至於聲	-12.9787
知者不惑勇者不懼子貢曰夫子自道也	-12.9787
若大旱之望雨也	-12.9787
貨財不聚非國之害	-12.9787
由太虚有天之名	-12.9788
萬章曰士之不託諸侯何也	-12.9788
吾欲使子問於孟子然後行事	-12.9788
吾聞出於幽谷遷	-12.9788
耆秦人之炙無以異於耆吾炙	-12.9788
以遏徂莒以篤周祜以對于天下	-12.9788
立於惡人之朝與惡人言	-12.9788
不得吾心夫子言之於我心有戚戚焉	-12.9788
行之而不著焉習矣而不察焉	-12.9788
㕔	-12.9788
東方之夷有九種	-12.9788
譬諸小人其猶穿窬之盜也與	-12.9788
事兄未能也所求乎朋友先施之未能也	-12.9788
惡不孫以為勇者惡訐以為直者	-12.9788
爟	-12.9788
天下有道以道殉身天下無道以身殉道	-12.9788
對曰不嗜殺人者能一之	-12.9788
對曰王請無好小勇夫撫	-12.9788
且古之君子過則改之今之君	-12.9788
此心之所以合於王者何也	-12.9788
於宋餽七十鎰而受於薛餽五十鎰而受	-12.9788
用其二而民有殍用其三而父子離	-12.9788
熄則謂之水不勝火此又與於不仁之甚	-12.9788
仁矣請問之曰恭寛信敏惠恭則不侮	-12.9789
也夫子必居一於此矣	-12.9789
有寒疾不可以風朝	-12.9789
之事君也務引其君以當道志於仁而已	-12.9789
如使人之所欲莫甚於生	-12.9789
者棺椁無度中古棺七寸椁稱之自天子	-12.9789
雖與之天下不能一朝居也	-12.9789
之徒陳相與其弟辛負耒耜而自宋之滕	-12.9789
曰夫尹士惡知予哉	-12.9789
滕君則誠賢君也雖然未聞道也	-12.9789
娛	-12.9789
妻子好合如鼓瑟琴	-12.9789
曰吾自衛反魯然後樂正雅頌各得其所	-12.9789
上下與天地同流豈曰小補之哉	-12.9789
人能無以飢渴之害為心害	-12.9789
其友不友不立於惡人之朝不與惡人言	-12.9789
萬章曰堯以天下與舜有諸	-12.9789
有天民者達可行於天下而後行之者也	-12.979
治國必先齊其家者其家不可教而能	-12.979
樊遲退見子夏曰鄉	-12.979
今夫天下之人牧未有不嗜殺人者也	-12.979
王曰大哉言矣寡人有疾寡人好勇	-12.979
此非君子之言齊東野人之語也	-12.979
非先王之道子倍子之師而學之	-12.979
使數人要於路曰請必無歸而造於朝	-12.979
其自反而仁矣自反而有禮矣其	-12.979
孟獻子魯之賢大夫仲孫蔑	-12.979
然則舜偽喜者與	-12.979
有楚大夫於此欲其子	-12.979
人有言至於禹而徳衰	-12.9791
曰王無異於百姓之以王	-12.9791
[...]
