<unk>	0
<s>	0
</s>	0
之	-4.21594
也	-4.85293
爲	-5.0342
以	-5.14084
者	-5.14552
而	-5.18873
/	-5.20558
)	-5.20938
(	-5.22195
有	-5.32459
於	-5.33017
一	-5.41278
不	-5.48362
中	-5.57621
神	-5.58067
其	-5.60871
生	-5.61666
天	-5.62569
上	-5.66294
人	-5.70368
則	-5.73274
無	-5.8022
道	-5.81309
心	-5.90288
大	-5.91602
自	-5.92346
曰	-6.00101
行	-6.01846
三	-6.0228
得	-6.02675
明	-6.03444
此	-6.04619
眞	-6.04935
如	-6.12964
至	-6.13299
在	-6.1422
是	-6.17523
)(	-6.17947
下	-6.20137
氣	-6.20841
靈	-6.20999
日	-6.21116
乃	-6.22402
見	-6.24511
子	-6.24854
玄	-6.26846
法	-6.29124
入	-6.30111
故	-6.30925
時	-6.34653
水	-6.34775
成	-6.3478
與	-6.3541
所	-6.35713
即	-6.36363
山	-6.38281
身	-6.38735
炁	-6.39824
元	-6.41763
五	-6.42247
金	-6.42494
皆	-6.42772
火	-6.44355
相	-6.44592
出	-6.44707
名	-6.44744
言	-6.45455
九	-6.48127
非	-6.49575
玉	-6.50192
陽	-6.50331
經	-6.50613
化	-6.51054
四	-6.51499
矣	-6.51597
二	-6.52484
地	-6.53078
君	-6.53356
仙	-6.54016
符	-6.54288
精	-6.55199
來	-6.55844
若	-6.56022
用	-6.5762
我	-6.57838
▁	-6.58227
合	-6.59858
无	-6.60648
文	-6.60681
光	-6.60713
後	-6.63476
命	-6.63974
當	-6.64886
書	-6.65125
同	-6.65218
帝	-6.66017
音	-6.6632
又	-6.66363
主	-6.66455
或	-6.67205
常	-6.67458
能	-6.67568
正	-6.68599
師	-6.69185
可	-6.70491
事	-6.71263
方	-6.71373
内	-6.71469
形	-6.71661
宫	-6.72266
王	-6.73213
妙	-6.73445
通	-6.73563
作	-6.74339
諸	-6.74603
令	-6.74975
應	-6.76048
及	-6.76561
龍	-6.77038
知	-6.77419
雲	-6.77555
六	-6.77889
度	-6.79212
云	-6.79236
受	-6.79336
今	-6.80028
臣	-6.80112
復	-6.80441
亦	-6.83173
丹	-6.83755
長	-6.84471
去	-6.84606
眞人	-6.85995
前	-6.8631
月	-6.87273
風	-6.87655
使	-6.87815
從	-6.87938
天地	-6.88262
居	-6.88295
乎	-6.88565
運	-6.88996
觀	-6.89139
因	-6.8917
分	-6.90185
空	-6.90812
開	-6.90854
世	-6.91015
欲	-6.91048
善	-6.91112
八	-6.91649
然	-6.92284
降	-6.9267
清	-6.93147
華	-6.93694
飛	-6.94248
字	-6.94515
真	-6.96154
陰	-6.96233
未	-6.96254
本	-6.96549
年	-6.9744
數	-6.98729
歸	-6.99049
自然	-6.99697
右	-7.00237
體	-7.0147
將	-7.01619
天帝	-7.01784
安	-7.0208
死	-7.02807
景	-7.04019
吾	-7.04042
萬	-7.0425
洞	-7.04602
門	-7.05247
立	-7.0558
傳	-7.05653
已	-7.05668
處	-7.06605
性	-7.06705
先	-7.09637
七	-7.09785
流	-7.10125
聞	-7.10971
外	-7.11612
物	-7.12885
白	-7.12903
德	-7.13517
寳	-7.1493
虚	-7.15233
何	-7.15457
定	-7.15511
隂	-7.15832
先生	-7.15859
修	-7.16049
離	-7.16391
存	-7.16996
多	-7.17006
意	-7.17062
起	-7.17566
章	-7.18252
青	-7.18313
土	-7.19029
凡	-7.1936
念	-7.19457
取	-7.20615
召	-7.2064
盡	-7.20719
初	-7.20903
星	-7.21258
重	-7.21499
變	-7.22308
聖	-7.22354
過	-7.22714
遂	-7.23077
和	-7.23164
十	-7.23578
始	-7.23599
守	-7.24083
隨	-7.24753
象	-7.25196
公	-7.25623
發	-7.26273
散	-7.26358
色	-7.2639
木	-7.26501
次	-7.27257
聲	-7.27293
石	-7.27542
謂	-7.27883
家	-7.27909
還	-7.2816
天尊	-7.28273
黄	-7.28956
于	-7.29124
動	-7.29509
結	-7.30877
求	-7.31351
南	-7.31401
焉	-7.31685
治	-7.32194
難	-7.3234
衆	-7.32381
鬼	-7.32743
功	-7.32902
各	-7.33047
位	-7.3359
東	-7.34934
極	-7.34935
理	-7.34964
官	-7.35594
元始	-7.35939
交	-7.36636
遊	-7.36698
惡	-7.38436
說	-7.38978
雖	-7.39182
小	-7.39728
會	-7.40064
福	-7.41356
都	-7.41687
兩	-7.42011
既	-7.4206
等	-7.42299
朝	-7.42562
西	-7.42659
不可	-7.42821
保	-7.42886
雷	-7.43152
食	-7.43271
必	-7.43345
解	-7.43463
邪	-7.43825
魂	-7.4399
周	-7.44038
隱	-7.44042
女	-7.44392
靜	-7.44478
樂	-7.44711
並	-7.45406
根	-7.45438
藥	-7.45455
日月	-7.45729
教	-7.45837
口	-7.46486
赤	-7.47055
願	-7.47249
奉	-7.47285
耳	-7.47726
夫	-7.47773
問	-7.47941
一切	-7.48201
號	-7.48579
惟	-7.48724
實	-7.48919
香	-7.49229
服	-7.49349
藏	-7.49471
絶	-7.49733
滅	-7.49767
高	-7.50172
之中	-7.51061
諸天	-7.51498
信	-7.51657
宗	-7.5174
深	-7.51853
易	-7.51988
平	-7.52003
俱	-7.52529
目	-7.53299
致	-7.53338
北	-7.53793
蓋	-7.5388
上清	-7.54067
攝	-7.5411
呪	-7.54497
紫	-7.5496
轉	-7.55198
張	-7.5532
百	-7.558
向	-7.5597
異	-7.56223
坐	-7.56293
廣	-7.56504
國	-7.56564
除	-7.56726
圖	-7.57063
登	-7.57171
須	-7.57493
夜	-7.57635
府	-7.5785
母	-7.58384
左	-7.58422
力	-7.58422
幽	-7.58665
不得	-7.59063
太上	-7.59156
思	-7.59277
遇	-7.59305
終	-7.59847
回	-7.60136
全	-7.60576
告	-7.60792
海	-7.60861
病	-7.61226
便	-7.61321
中有	-7.62006
伏	-7.62174
司	-7.62248
罪	-7.62786
制	-7.6298
宜	-7.63517
乾	-7.63595
千	-7.63928
關	-7.63932
但	-7.63997
永	-7.64137
執	-7.64399
陰陽	-7.6459
鍊	-7.64692
照	-7.64845
請	-7.64884
汝	-7.65167
頭	-7.65175
舉	-7.65532
不能	-7.6605
持	-7.6631
授	-7.66887
少	-7.67046
息	-7.67397
首	-7.67467
巳	-7.67634
苦	-7.67745
止	-7.68123
集	-7.68372
老	-7.68557
之道	-7.68755
更	-7.68784
語	-7.68787
間	-7.68886
失	-7.68937
感	-7.69034
學	-7.69828
壇	-7.69868
識	-7.69922
素	-7.7005
太	-7.70284
爾	-7.70517
顯	-7.71012
微	-7.71034
衣	-7.71064
神仙	-7.72012
往	-7.73039
節	-7.7328
衆生	-7.73653
五行	-7.73719
畢	-7.73864
臨	-7.7407
要	-7.7436
劫	-7.74951
斗	-7.74999
九天	-7.75041
莫	-7.75563
指	-7.756
足	-7.75698
羅	-7.76694
雨	-7.76923
著	-7.7706
奏	-7.7707
業	-7.77099
太一	-7.77384
好	-7.78377
别	-7.78547
謂之	-7.78562
皇	-7.78576
萬物	-7.78699
三界	-7.78833
養	-7.78909
坤	-7.79056
尊	-7.79192
之炁	-7.79401
到	-7.79613
故曰	-7.80146
朱	-7.80467
由	-7.80695
十方	-7.81037
積	-7.81309
魔	-7.81352
室	-7.81528
宿	-7.81645
果	-7.81766
塵	-7.81884
禮	-7.82286
馬	-7.82612
壽	-7.82684
且	-7.8316
甚	-7.83457
訣	-7.83501
遠	-7.83752
戒	-7.83759
縁	-7.83833
長生	-7.84043
加	-7.84131
依	-7.8427
威	-7.84343
胎	-7.84343
覺	-7.8456
滿	-7.84597
延	-7.84658
留	-7.85158
玉女	-7.85286
哉	-7.85316
民	-7.85426
施	-7.85462
面	-7.85488
靈寳	-7.86183
凝	-7.86198
固	-7.86209
啓	-7.86678
直	-7.87368
情	-7.87431
建	-7.87468
稱	-7.87616
機	-7.87685
進	-7.87818
共	-7.88222
普	-7.88434
志	-7.88992
變化	-7.89039
乘	-7.89163
具	-7.89205
花	-7.8945
兵	-7.89526
不知	-7.8954
虎	-7.89552
所以	-7.90245
望	-7.90283
悟	-7.90463
造	-7.90934
旣	-7.91146
州	-7.91157
期	-7.91174
升	-7.91257
落	-7.91476
境	-7.91485
却	-7.91718
宣	-7.91738
鉛	-7.91745
品	-7.91953
興	-7.92081
利	-7.92267
對	-7.92642
齊	-7.92853
賜	-7.92892
卦	-7.9313
引	-7.93295
可以	-7.93348
某	-7.93468
咸	-7.93794
列	-7.9383
仰	-7.94004
順	-7.94047
天尊志心朝禮	-7.94208
災	-7.94249
臺	-7.94391
消	-7.9479
親	-7.94859
義	-7.94992
乗	-7.95316
震	-7.95402
輪	-7.95529
黑	-7.9558
天下	-7.95593
布	-7.95893
誦	-7.96135
兆	-7.96618
淨	-7.96622
珠	-7.9674
就	-7.96854
歲	-7.97335
獨	-7.974
庭	-7.97565
害	-7.98168
屬	-7.98355
大道	-7.9837
城	-7.98498
玉清	-7.9904
春	-7.9935
了	-7.99388
忽	-7.99473
録	-7.99513
再	-7.99583
備	-7.997
生死	-7.99968
疾	-7.99986
速	-7.99996
昇	-8.00037
論	-8.00123
總	-8.00178
○	-8.00339
手	-8.00385
陳	-8.00441
古	-8.01398
達	-8.01485
垂	-8.01496
煙	-8.02248
慶	-8.02385
濟	-8.02415
尋	-8.02498
隂陽	-8.02569
路	-8.02731
帝君	-8.02852
聽	-8.02926
源	-8.03012
冥	-8.03029
林	-8.03043
視	-8.03138
猶	-8.03178
車	-8.03816
髙	-8.03864
昌	-8.04302
益	-8.04429
齋	-8.04501
一日	-8.04846
返	-8.04898
煉	-8.05047
斷	-8.05146
祖	-8.05201
反	-8.05289
寒	-8.05525
太極	-8.05547
水火	-8.05714
傷	-8.05843
汞	-8.05934
悉	-8.06195
呼	-8.0623
聚	-8.06437
道士	-8.06509
弟子	-8.06616
亂	-8.06665
辭	-8.06672
己	-8.06719
輕	-8.06766
歌	-8.06778
破	-8.06922
容	-8.06968
父	-8.07164
十二	-8.07178
餘	-8.07182
浮	-8.07334
超	-8.07348
記	-8.07549
謹	-8.07643
羽	-8.07784
勿	-8.08157
所謂	-8.08629
寧	-8.08674
造化	-8.0871
住	-8.09182
而不	-8.09388
愛	-8.09587
混	-8.09766
承	-8.0988
妄	-8.10148
恩	-8.1017
諱	-8.10536
侍	-8.10775
封	-8.10858
乾坤	-8.1115
被	-8.11316
每	-8.11333
骨	-8.11339
駕	-8.11648
勝	-8.11678
切	-8.11782
許	-8.11858
眞君	-8.12184
金丹	-8.12298
誠	-8.12747
報	-8.12825
卷	-8.12918
辰	-8.13016
盛	-8.1309
李	-8.133
予	-8.13304
魄	-8.13359
育	-8.13381
部	-8.13397
窮	-8.13515
使者	-8.13641
注	-8.13848
大神	-8.13978
證	-8.14114
霞	-8.14134
酒	-8.14251
是也	-8.14334
姓	-8.14451
獲	-8.14581
簡	-8.14757
如此	-8.14852
御	-8.14857
之所	-8.15087
智	-8.15134
童	-8.15135
晨	-8.15292
亡	-8.155
士	-8.15936
籍	-8.16051
於是	-8.16248
勑	-8.1637
漢	-8.16453
急	-8.17056
血	-8.17097
泉	-8.17144
瓊	-8.17278
慈	-8.17415
曲	-8.17616
三元	-8.17696
氏	-8.17696
坎	-8.17813
鬼神	-8.18411
質	-8.1859
印	-8.18611
尚	-8.18702
河	-8.18725
祕	-8.18767
收	-8.18983
載	-8.18992
貴	-8.19218
上帝	-8.19452
如是	-8.19518
似	-8.19549
然後	-8.20072
敕	-8.20451
豈	-8.20707
之上	-8.20743
拜	-8.20847
以爲	-8.20876
現	-8.20941
喜	-8.2109
想	-8.21163
考	-8.21211
碧	-8.21354
吉	-8.21356
黃	-8.21453
示	-8.2177
萬神	-8.22069
禁	-8.22086
江	-8.22311
堂	-8.22362
昔	-8.22788
得道	-8.22877
圓	-8.23087
按	-8.23275
童子	-8.23551
累	-8.23573
穢	-8.23584
露	-8.23766
英	-8.24059
澤	-8.24135
休	-8.24669
忘	-8.24815
崇	-8.24929
并	-8.25024
急急如律令	-8.25157
他	-8.25208
殺	-8.25287
宮	-8.25463
表	-8.25595
紀	-8.25659
夢	-8.25725
宅	-8.25922
犯	-8.26476
鼎	-8.26685
昭	-8.26778
嘗	-8.26823
唯	-8.27081
迷	-8.2718
連	-8.27185
禍	-8.27188
眼	-8.27227
乆	-8.27294
比	-8.27795
遺	-8.27919
谷	-8.28242
冠	-8.28275
鳳	-8.28331
慧	-8.28347
彼	-8.28485
遣	-8.28599
近	-8.28607
疑	-8.28674
種	-8.28746
篇	-8.29308
左右	-8.29612
類	-8.29619
闕	-8.29626
尸	-8.29729
救	-8.29753
之後	-8.29934
光明	-8.3027
飲	-8.30319
敬	-8.30451
逆	-8.30533
元君	-8.30604
殿	-8.30645
遍	-8.3076
良	-8.31258
劉	-8.3141
獄	-8.31426
斯	-8.31874
毒	-8.32224
而爲	-8.32543
謝	-8.32544
腎	-8.32747
寂	-8.32798
含	-8.32954
液	-8.33169
鎮	-8.33309
緑	-8.33325
聖人	-8.3351
肺	-8.33636
甲	-8.33945
吏	-8.3396
清淨	-8.34006
之法	-8.3404
五帝	-8.34559
詩	-8.34639
映	-8.34705
淵	-8.34852
之氣	-8.35108
密	-8.35172
梵	-8.3527
呪曰	-8.35499
放	-8.35564
歷	-8.35656
卿	-8.35695
功德	-8.357
驚	-8.3589
凶	-8.36048
惠	-8.36139
任	-8.36288
序	-8.36575
房	-8.36607
秋	-8.36735
徒	-8.36828
蒙	-8.36961
草	-8.37154
候	-8.37212
監	-8.37396
契	-8.3789
衛	-8.38058
嚴	-8.38282
詔	-8.38427
客	-8.38454
之内	-8.38672
儀	-8.39013
㑹	-8.39059
代	-8.39224
仁	-8.39242
地獄	-8.39248
裏	-8.39316
北方	-8.39601
田	-8.39607
領	-8.3969
宇	-8.39799
遷	-8.39816
賢	-8.39949
夫人	-8.40257
無爲	-8.40322
鶴	-8.40458
採	-8.40747
徹	-8.41046
三天	-8.41104
真人	-8.41121
術	-8.41294
推	-8.41349
池	-8.41425
耀	-8.41544
榮	-8.41577
恐	-8.41806
假	-8.41891
掌	-8.42234
畫	-8.42288
漸	-8.42433
護	-8.42543
負	-8.42677
詣	-8.42699
付	-8.42897
肝	-8.42974
父母	-8.43089
覆	-8.43456
投	-8.43554
參	-8.43569
筆	-8.43592
武	-8.43829
紅	-8.44002
招	-8.44081
只	-8.44519
騰	-8.44549
世人	-8.44695
愚	-8.44775
燈	-8.44862
游	-8.44897
而生	-8.4496
龍虎	-8.45051
輔	-8.45108
无量	-8.45221
唐	-8.45475
之時	-8.45604
沉	-8.45629
人之	-8.45756
堅	-8.45763
待	-8.45794
端	-8.45892
移	-8.45916
縣	-8.46245
道君	-8.46355
迎	-8.46662
懷	-8.46672
刑	-8.46842
半	-8.47022
損	-8.47261
接	-8.47493
曜	-8.47521
申	-8.48047
釋	-8.48119
而成	-8.48249
天尊至心歸命信禮	-8.48378
愈	-8.48542
退	-8.48795
置	-8.48882
履	-8.48894
味	-8.49135
之間	-8.4945
新	-8.49695
調	-8.49712
天人	-8.49739
盈	-8.5027
器	-8.50305
神王	-8.50785
憂	-8.50864
迹	-8.5093
徧	-8.50954
逐	-8.51128
察	-8.51146
朗	-8.51257
洪	-8.51258
上下	-8.51259
輝	-8.51422
㫖	-8.51443
俗	-8.51516
伯	-8.51703
舍	-8.51874
潜	-8.51949
户	-8.52159
康	-8.52279
司命	-8.52482
此經	-8.52494
勤	-8.52558
東方	-8.52603
賊	-8.53089
曹	-8.53096
魔王	-8.53177
恭	-8.53214
抱	-8.53343
泥丸	-8.5336
丘	-8.5348
兮	-8.53559
五嶽	-8.5363
人也	-8.53682
津	-8.53708
舊	-8.53854
孫	-8.53886
秀	-8.53917
納	-8.53998
律	-8.54119
科	-8.54293
祥	-8.54924
奔	-8.5509
井	-8.55189
充	-8.55277
乞	-8.5528
鼓	-8.55329
幾	-8.55933
稽首	-8.55953
佩	-8.55961
耶	-8.56081
焚	-8.56216
䰟	-8.56297
太清	-8.56386
妖	-8.5654
敷	-8.56804
鳴	-8.56849
停	-8.56857
看	-8.56936
樹	-8.57102
劍	-8.57126
太玄	-8.57173
追	-8.57179
原	-8.57351
不見	-8.57541
送	-8.57777
設	-8.57791
計	-8.57891
典	-8.5792
艮	-8.5807
鐵	-8.58072
籙	-8.58074
美	-8.58274
飛天	-8.58423
迴	-8.5843
瑞	-8.58471
界	-8.58609
笑	-8.58752
將軍	-8.58949
黄帝	-8.59089
今日	-8.59135
兊	-8.59214
角	-8.59324
波	-8.5949
還丹	-8.5965
炎	-8.59867
頂	-8.59878
强	-8.59909
吐	-8.6003
無窮	-8.60166
鎭	-8.60216
午	-8.60316
夏	-8.60328
之人	-8.60381
丹田	-8.60436
之神	-8.60524
仍	-8.60529
服之	-8.60586
殊	-8.60629
鬱	-8.60804
棄	-8.6096
澄	-8.61006
三年	-8.61111
雪	-8.61235
盜	-8.61336
人間	-8.61378
奇	-8.6161
違	-8.61686
无極	-8.61839
勞	-8.621
刻	-8.62269
巽	-8.62393
松	-8.62595
披	-8.62607
泰	-8.62627
患	-8.62676
金闕	-8.62737
西方	-8.62809
錬	-8.62988
玉帝	-8.63569
梁	-8.63578
里	-8.63585
冲	-8.63641
顧	-8.63686
三官	-8.63804
巨	-8.63807
牛	-8.64026
揚	-8.64049
演	-8.64092
北斗	-8.64115
南方	-8.64121
詞	-8.64129
資	-8.64198
閉	-8.6425
天中	-8.64398
絳	-8.64464
魚	-8.64748
閑	-8.64914
蕩	-8.64998
之精	-8.65118
雷霆	-8.65226
蒼	-8.65328
統	-8.65365
座	-8.65373
阿	-8.65377
内外	-8.65565
省	-8.65637
火候	-8.65881
野	-8.66118
脾	-8.66154
步	-8.6619
剛	-8.6641
虛	-8.66439
否	-8.6645
役	-8.66734
孝	-8.66786
傾	-8.66822
度人	-8.66822
旋	-8.66905
者也	-8.66996
怪	-8.67113
驅	-8.67124
五方	-8.67146
經云	-8.67222
試	-8.67276
名曰	-8.6732
像	-8.67355
生於	-8.67393
群	-8.67496
三十六	-8.67519
扶	-8.67557
盟	-8.67567
天地之	-8.67617
出入	-8.67797
越	-8.68026
殃	-8.68156
拔	-8.68192
是以	-8.68192
兼	-8.68231
末	-8.68514
祈	-8.68821
逺	-8.68839
太陽	-8.68876
侯	-8.69261
嶽	-8.69269
五色	-8.69344
久	-8.69349
燒	-8.69522
八卦	-8.69562
無量	-8.69652
丁	-8.69963
霄	-8.70052
干	-8.70077
葉	-8.70269
仲	-8.70688
適	-8.70698
二十四	-8.70746
走	-8.70802
詳	-8.70944
中央	-8.71093
龜	-8.71139
祝	-8.71165
横	-8.71197
男女	-8.71517
暉	-8.71646
敢	-8.71763
慮	-8.71848
曉	-8.71876
純	-8.71965
貪	-8.71975
格	-8.72086
量	-8.72148
館	-8.72198
元始天尊	-8.72212
第一	-8.7223
爻	-8.72255
雙	-8.72292
若有	-8.72314
三清	-8.72319
職	-8.72468
驗	-8.72543
廟	-8.72757
條	-8.72774
鼻	-8.72937
鳥	-8.72976
陵	-8.73152
背	-8.73214
宋	-8.73517
習	-8.73613
特	-8.73733
大洞	-8.73959
仙人	-8.74041
曾	-8.74328
之日	-8.74334
而去	-8.74366
竹	-8.74418
又曰	-8.74432
㝠	-8.74469
帶	-8.74563
狀	-8.74582
禀	-8.74755
雜	-8.74765
智慧	-8.75008
之士	-8.75068
謁	-8.75122
吞	-8.75279
三十	-8.75398
權	-8.75415
專	-8.75456
第二	-8.75488
太虚	-8.75499
訪	-8.76066
天子	-8.76093
男	-8.76212
寅	-8.76219
響	-8.76369
學者	-8.76399
昏	-8.76585
七祖	-8.7667
盖	-8.7673
營	-8.7675
於此	-8.77102
銀	-8.77246
註	-8.77492
朱書	-8.775
髮	-8.77506
一炁	-8.77552
縱	-8.7756
樞	-8.77939
卧	-8.78042
種種	-8.78103
烈	-8.78119
免	-8.78129
學道	-8.78207
逢	-8.78415
太微	-8.78486
捨	-8.78628
邊	-8.78669
貫	-8.78775
曰吾	-8.78925
修行	-8.79077
錢	-8.79129
而已	-8.79247
誰	-8.7927
暗	-8.79279
之妙	-8.79416
補	-8.79519
峰	-8.79521
句	-8.79664
悲	-8.79735
染	-8.79804
□	-8.80011
蜀	-8.80054
兹	-8.80497
辛	-8.80935
云何	-8.81003
之事	-8.81072
尺	-8.81205
世間	-8.8122
化爲	-8.81307
喻	-8.81331
之理	-8.81501
爽	-8.81543
一身	-8.81609
吹	-8.81735
寶	-8.81943
煥	-8.82014
逸	-8.82042
一時	-8.82088
紫微	-8.82112
徳	-8.82317
改	-8.8248
無所	-8.82525
溪	-8.82552
爐	-8.82741
眞炁	-8.82811
罡	-8.82818
産	-8.83119
鄉	-8.83121
兒	-8.83177
化生	-8.83178
冬	-8.83189
鉛汞	-8.83189
第三	-8.83206
玉京	-8.83285
默	-8.83375
四時	-8.83551
述	-8.83587
醉	-8.83594
無極	-8.83661
題	-8.83687
嘉	-8.83688
歳	-8.83731
至道	-8.83886
幸	-8.84122
索	-8.84131
卯	-8.84269
身中	-8.84806
之數	-8.84907
危	-8.84924
敗	-8.84944
也故	-8.85005
庵	-8.85145
希	-8.85151
騎	-8.85224
灌	-8.85587
逍遥	-8.85696
禳	-8.85848
善男子	-8.85896
玄都	-8.86222
史	-8.86223
略	-8.86247
八景	-8.86257
至於	-8.86262
四方	-8.86364
功曹	-8.864
奪	-8.86551
玉皇大天尊玄穹髙上帝	-8.86626
穴	-8.86735
廼	-8.86773
屋	-8.86784
不敢	-8.8682
差	-8.86845
純陽	-8.86933
答	-8.86936
錫	-8.86963
夷	-8.8698
是謂	-8.87139
樓	-8.8718
軒	-8.87378
霹靂	-8.87391
京	-8.8744
財	-8.87569
巖	-8.8757
之下	-8.87703
洞章	-8.87802
趙	-8.87809
市	-8.87833
混沌	-8.87841
式	-8.87878
爭	-8.87914
羣	-8.88146
天眞	-8.88166
長存	-8.88296
吸	-8.88332
坎離	-8.8836
滯	-8.88364
愆	-8.8843
陶	-8.88436
蟲	-8.8863
隆	-8.88715
基	-8.88723
煩惱	-8.88895
綱	-8.8898
賔	-8.8908
世界	-8.89105
潔	-8.89175
克	-8.89179
白虎	-8.89545
輿	-8.89581
友	-8.89641
天門	-8.89744
烏	-8.89804
芝	-8.89999
晝夜	-8.90083
紙	-8.90319
泄	-8.90324
無有	-8.9047
老君	-8.90481
一名	-8.90505
濁	-8.90542
爾時	-8.90616
萬劫	-8.90638
喪	-8.90738
務	-8.90819
校	-8.90877
下降	-8.9107
師曰	-8.91101
助	-8.91144
混合	-8.91409
道德	-8.91707
環	-8.91959
燿	-8.92051
萬里	-8.92146
泥	-8.92525
約	-8.92577
蕭	-8.92607
翁	-8.92693
酉	-8.92884
无上	-8.93118
沐浴	-8.93128
徑	-8.9315
上昇	-8.93205
吴	-8.93333
貌	-8.93364
先天	-8.93388
沙	-8.93495
虚空	-8.93638
毛	-8.93936
太空	-8.94064
吿	-8.94267
管	-8.94316
大聖	-8.9442
熱	-8.94557
厚	-8.94855
係	-8.95183
顔	-8.95526
不動	-8.95799
温	-8.95909
篆	-8.95994
戰	-8.9602
因縁	-8.96062
軍	-8.96235
甘	-8.96352
誦經	-8.96562
黄庭	-8.96607
十月	-8.96617
庶	-8.96762
尤	-8.96897
政	-8.96913
薄	-8.97167
棲	-8.97177
三光	-8.97274
經曰	-8.97389
黒	-8.9742
策	-8.97707
融	-8.97767
早	-8.97805
繫	-8.97829
斬	-8.9784
哀	-8.97989
俾	-8.98015
至眞	-8.98221
性命	-8.98264
灾	-8.98417
之功	-8.98439
祐	-8.98576
上元	-8.98587
貞	-8.9867
筭	-8.98681
孤	-8.98704
際	-8.98859
莫不	-8.99076
茅山	-8.99102
微妙	-8.99283
夕	-8.99291
才	-8.99318
各有	-8.9932
影	-8.99343
誓	-8.99492
限	-8.99608
懸	-8.99629
郡	-8.99673
天君	-8.99748
怒	-8.99887
衰	-9.0001
鍾	-9.00126
卒	-9.00167
惑	-9.00173
自在	-9.00227
厭	-9.00281
不死	-9.00478
電	-9.0052
青龍	-9.00546
竒	-9.00648
壁	-9.00754
潤	-9.00826
範	-9.00858
最	-9.00885
魁	-9.00985
偶	-9.01056
跡	-9.0111
豐	-9.01125
寄	-9.01128
忠	-9.01149
等志心歸命禮願	-9.01265
鏡	-9.01292
砂	-9.01297
舌	-9.0137
細	-9.01521
三炁	-9.01573
畏	-9.01719
生成	-9.01737
摧	-9.01774
頌	-9.01774
茅	-9.01854
嬰	-9.01874
往來	-9.01974
一切衆生	-9.01978
西北	-9.02178
是時	-9.02205
二年	-9.02216
贈	-9.02281
海空	-9.02308
擊	-9.02397
雄	-9.02415
包	-9.02605
上聖	-9.02719
亥	-9.02722
晋	-9.02729
黙	-9.02802
答曰	-9.02839
九幽	-9.02875
把	-9.02895
沖	-9.03134
不生	-9.03242
大帝	-9.0325
衝	-9.03269
伐	-9.03286
塞	-9.0329
秘	-9.033
熟	-9.03342
符命	-9.03405
川	-9.03443
汝等	-9.03636
東南	-9.03684
腹	-9.03775
竟	-9.03793
三日	-9.03852
善惡	-9.04147
誅	-9.04173
四象	-9.04211
私	-9.04223
九宫	-9.04311
那	-9.04316
再拜	-9.04482
翠	-9.04526
慕	-9.04544
障	-9.04617
赴	-9.04757
是爲	-9.04816
繼	-9.04916
珍	-9.05078
峯	-9.05264
芒	-9.05273
修眞	-9.05387
獻	-9.05505
麗	-9.05578
暮	-9.05589
霜	-9.05629
頓	-9.05752
慾	-9.05818
煞	-9.05838
歩	-9.05838
清微	-9.05855
没	-9.06059
禄	-9.06079
亦不	-9.06087
徐	-9.0619
摩	-9.06215
附	-9.0623
效	-9.06257
丈人	-9.06261
天機	-9.06381
妻	-9.06571
增	-9.06583
讀	-9.06695
勸	-9.06842
狂	-9.06867
苟	-9.06886
十五	-9.07014
俯	-9.072
趣	-9.07234
霧	-9.07255
説	-9.07307
委	-9.07477
脩	-9.07533
導	-9.07534
▲	-9.07667
階	-9.07711
恒	-9.0779
上天	-9.07815
盤	-9.07853
之門	-9.07985
靈官	-9.08046
郭	-9.08099
獸	-9.08141
供養	-9.08251
眞氣	-9.08325
之宫	-9.08336
天師	-9.08385
柔	-9.08436
分明	-9.08486
緫	-9.08496
遵	-9.08532
漏	-9.08579
無不	-9.08694
萬靈	-9.08728
庚	-9.08767
茂	-9.0877
元氣	-9.08791
楊	-9.08804
儒	-9.08816
蘭	-9.08852
旛	-9.08876
蛇	-9.09013
況	-9.09095
肅	-9.09123
遥	-9.0919
妙道	-9.09233
醮	-9.09238
着	-9.09242
祖師	-9.09438
之象	-9.09448
晝	-9.09459
檢	-9.09482
三五	-9.09513
岀	-9.09594
曰此	-9.09691
以此	-9.09694
解脫	-9.09718
華陽	-9.0976
底	-9.09879
叔	-9.10113
得其	-9.10148
億	-9.10153
沈	-9.10173
號曰	-9.10182
五臟	-9.10258
維	-9.10323
三寳	-9.10409
身心	-9.10433
肉	-9.10458
彰	-9.10519
院	-9.10522
壯	-9.10559
天道	-9.10653
開度	-9.10686
四十	-9.10707
無形	-9.10716
脱	-9.10792
吟	-9.10865
振	-9.10886
崑崙	-9.11178
保命	-9.11202
腦	-9.11225
覩	-9.11238
髙上	-9.11265
上眞	-9.11304
翼	-9.11517
馳	-9.11543
祠	-9.11563
上有	-9.11564
僧	-9.11586
佛	-9.11895
提	-9.11927
眞仙	-9.11934
工	-9.12168
旦	-9.12172
占	-9.12214
飛昇	-9.12262
靖	-9.12375
辟	-9.12378
嬰兒	-9.12509
晦	-9.1259
日中	-9.12664
更生	-9.12707
七寳	-9.12743
金剛	-9.12909
輒	-9.1293
脫	-9.12975
竅	-9.13083
鸞	-9.13271
東華	-9.13493
慈悲	-9.13511
秦	-9.13591
玉皇	-9.1361
激	-9.13616
郎	-9.13713
人身	-9.13904
撰	-9.13996
故云	-9.14035
彌	-9.14039
旨	-9.14082
拘	-9.14196
一氣	-9.14237
酆都	-9.14256
弘	-9.14329
嗣	-9.14357
有所	-9.14571
佐	-9.1467
其中	-9.14793
太平	-9.14807
金液	-9.14811
墮	-9.14822
如何	-9.14919
是故	-9.15098
一年	-9.15114
孔	-9.15305
而有	-9.15319
梵炁	-9.15385
宻	-9.15389
太乙	-9.15458
而後	-9.15485
一人	-9.15681
大法	-9.15689
胡	-9.15696
壞	-9.15734
貧	-9.15756
幻	-9.15775
避	-9.15797
精神	-9.16032
咽	-9.16055
毋	-9.16101
西南	-9.16217
廬	-9.16388
神明	-9.16476
杖	-9.16488
之則	-9.16783
捉	-9.1689
太素	-9.17126
夭	-9.17188
席	-9.17193
滋	-9.17196
三才	-9.17219
道人	-9.17341
眞文	-9.17385
不同	-9.17441
神虎	-9.1761
水銀	-9.17905
觸	-9.17949
誤	-9.17987
究	-9.18165
眞一	-9.18177
神靈	-9.18202
法師	-9.18308
痛	-9.18319
第四	-9.18528
二十	-9.18567
輩	-9.18672
玉符	-9.18699
透	-9.18763
也若	-9.18975
談	-9.19003
齒	-9.19079
宴	-9.19291
傍	-9.19336
錦	-9.19339
九轉	-9.1935
植	-9.19359
給	-9.19396
之術	-9.19459
墨	-9.19618
瑶	-9.19691
鮮	-9.1976
五星	-9.2003
配	-9.20053
奉行	-9.20205
冰	-9.20565
眞王	-9.20687
也此	-9.20749
燒香	-9.20831
厄	-9.20839
大梵	-9.21053
神氣	-9.21073
枯	-9.21161
辨	-9.21648
箇	-9.21895
山中	-9.2191
者即	-9.21932
陸	-9.22027
清靜	-9.22075
皓	-9.22113
十六	-9.22299
五十	-9.22319
此道	-9.22331
五老	-9.22346
廻	-9.22384
巾	-9.22391
浩	-9.2244
北極	-9.22571
癸	-9.22742
見之	-9.22831
十八	-9.22911
雷公	-9.23068
淫	-9.23149
不離	-9.23359
燭	-9.23367
羊	-9.23442
神霄	-9.23448
即是	-9.23478
伸	-9.23495
責	-9.23554
胞	-9.23568
寸	-9.23621
神通	-9.23631
鑒	-9.23792
不信	-9.23805
湯	-9.23808
無上	-9.23876
葬	-9.239
三十二天	-9.2409
此言	-9.2411
彩	-9.24185
點	-9.24259
衞	-9.24266
枝	-9.24287
亦有	-9.24359
洗	-9.24363
丑	-9.24409
髓	-9.24442
八方	-9.24596
動靜	-9.24704
議	-9.24718
此乃	-9.24801
名山	-9.24838
誥	-9.24849
皆得	-9.24887
九炁	-9.24921
晶	-9.25032
謀	-9.25163
黄芽	-9.25192
續	-9.25219
有一	-9.25273
脉	-9.25414
遐	-9.25445
廢	-9.25488
而無	-9.25721
曆	-9.25807
洞天	-9.25836
我今	-9.26222
所居	-9.26393
玄元	-9.2646
三千	-9.26499
六甲	-9.26575
元年	-9.26634
六天	-9.26638
亭	-9.26702
唱	-9.26751
龍漢	-9.26791
訖	-9.26833
預	-9.27014
淳	-9.27047
嶺	-9.271
勢	-9.27103
方便	-9.27138
倒	-9.27159
塗	-9.27197
之物	-9.27215
之地	-9.27337
瞻	-9.27416
魏	-9.27455
七日	-9.27457
風雨	-9.27459
之本	-9.27468
標	-9.27518
金光	-9.27528
不復	-9.27593
東北	-9.27765
君子	-9.27826
郷	-9.27929
眉	-9.28146
之以	-9.2821
飛仙	-9.28281
束	-9.28284
催	-9.2829
魂魄	-9.28294
辯	-9.28317
冷	-9.28356
凌	-9.28374
混元	-9.28477
昧	-9.28479
功徳	-9.28566
漠	-9.2869
邑	-9.28696
舟	-9.28754
若能	-9.28764
逹	-9.28772
大丹	-9.2919
東曰	-9.2932
虚無	-9.29345
昇天	-9.29362
侵	-9.2948
五炁	-9.295
行之	-9.2951
偏	-9.29551
第	-9.29556
仙道	-9.29559
錯	-9.29586
宛	-9.29705
子孫	-9.29796
桃	-9.29877
冀	-9.29893
三洞	-9.29949
側	-9.29973
赦	-9.30067
剋	-9.302
牢	-9.3032
琴	-9.30323
舒	-9.30399
韓	-9.30402
名爲	-9.30467
鹿	-9.30613
之心	-9.30681
國土	-9.30752
睡	-9.30761
赤帝	-9.30792
孕	-9.30814
之機	-9.30838
域	-9.30869
六合	-9.3092
舞	-9.31159
富	-9.31192
大羅	-9.31214
水中	-9.31269
欽	-9.31526
享	-9.31633
折	-9.31646
名也	-9.31766
焚香	-9.31928
忌	-9.32041
暫	-9.32067
者乃	-9.32133
之初	-9.32153
刀	-9.32202
奥	-9.32254
之義	-9.32294
祭	-9.32368
成就	-9.32491
空洞	-9.32707
菴	-9.32763
絳宫	-9.32793
天罡	-9.32806
寢	-9.32849
學人	-9.33037
千里	-9.33059
其人	-9.33108
自有	-9.3316
帥	-9.33178
下元	-9.33232
率	-9.33232
瑩	-9.33292
吕	-9.33295
五藏	-9.3334
長夜	-9.33665
北帝	-9.33681
懼	-9.33699
捧	-9.33728
完	-9.3374
大神無鞅之衆浮空而至	-9.33799
神光	-9.33846
行道	-9.33947
毎	-9.33979
為	-9.34146
杜	-9.34151
須臾	-9.34171
二人	-9.34253
廓	-9.34527
蘇	-9.34549
天上	-9.34567
罷	-9.34654
之名	-9.3478
何以	-9.34865
救苦	-9.34865
之根	-9.34888
其所	-9.34897
也夫	-9.34949
携	-9.35017
翔	-9.35022
人能	-9.35286
博	-9.3529
第五	-9.35324
則爲	-9.35349
臻	-9.3543
誕	-9.35464
鑑	-9.35534
巧	-9.35536
老子	-9.35561
甲子	-9.35723
幽棲曰	-9.35737
爲人	-9.3576
歎	-9.35797
燕	-9.35859
竭	-9.35933
五雷	-9.35956
元炁	-9.35962
慢	-9.36175
寫	-9.36245
僊	-9.36251
循	-9.36355
悔	-9.3639
是名	-9.3657
而得	-9.36684
浪	-9.36741
灰	-9.36776
覽	-9.36779
咎	-9.36781
蓬萊	-9.36794
南宫	-9.36845
婦	-9.37002
一月	-9.37066
人有	-9.37291
中宫	-9.37304
南極	-9.37463
互	-9.37512
道者	-9.37537
行持	-9.37571
丈	-9.37571
之音	-9.37631
薦	-9.37632
太和	-9.3766
禱	-9.37668
言之	-9.37679
洞玄	-9.37852
宸	-9.37864
未嘗	-9.37901
大夫	-9.38091
余	-9.38155
王母	-9.38261
工夫	-9.38279
草木	-9.38327
層	-9.3848
肇	-9.3857
玉字	-9.38577
佑	-9.38971
之外	-9.39047
誡	-9.39049
寒暑	-9.39054
修鍊	-9.3938
者是	-9.39407
祅	-9.39539
天之	-9.39705
金華	-9.39792
竊	-9.39866
族	-9.39933
律令	-9.39947
幼	-9.4004
知其	-9.40095
飛行	-9.40308
大小	-9.40328
爲一	-9.40375
脚	-9.40384
殘	-9.4041
清虚	-9.40547
審	-9.40656
隔	-9.40753
三月	-9.40754
萬象	-9.40762
尸解	-9.40999
正一	-9.4101
令人	-9.41023
乙	-9.41084
不爲	-9.41163
之位	-9.41232
翳	-9.41309
諸法	-9.41535
尾	-9.41644
戲	-9.41684
烟	-9.41723
口訣	-9.41964
得之	-9.4207
入室	-9.42075
併	-9.4223
宰	-9.42244
瘟	-9.42252
炁吹	-9.42266
隱居	-9.42308
急急如	-9.42374
四海	-9.42428
十四	-9.42602
暴	-9.42703
纒	-9.42774
十一	-9.42785
三塗	-9.42897
之要	-9.42966
旬	-9.42973
仙官	-9.42978
誦之	-9.43004
膽	-9.43024
擇	-9.43145
託	-9.43198
戸	-9.43247
戊己	-9.43266
天寳	-9.43285
无窮	-9.4332
元神	-9.43385
正月	-9.43534
决	-9.43633
盧	-9.4364
牙	-9.43651
百神	-9.4368
朔	-9.43711
穀	-9.43932
二字	-9.43946
歡	-9.44011
大乗	-9.4407
生人	-9.44086
途	-9.44237
醫	-9.44248
妃	-9.44293
醜	-9.44443
俄	-9.44567
以成	-9.44597
值	-9.44626
逃	-9.44632
分别	-9.44702
洞陽	-9.44798
之際	-9.44868
内音	-9.44948
遁	-9.45014
暢	-9.45045
仗	-9.45059
七星	-9.4509
朱陵	-9.452
皆是	-9.45397
掃	-9.45449
亡魂	-9.45452
活	-9.45536
冬至	-9.45543
升降	-9.45595
我身	-9.45618
嘯	-9.45662
南嶽	-9.45695
訓	-9.45783
无爲	-9.45909
受度	-9.45912
罪福	-9.46095
輪轉	-9.46136
人民	-9.46218
橋	-9.46237
二物	-9.46363
詠	-9.4641
胃	-9.46444
恍惚	-9.4658
射	-9.46764
則有	-9.46815
測	-9.46918
呈	-9.47018
弟	-9.47066
萬炁	-9.47224
者皆	-9.47244
山川	-9.47268
絡	-9.47326
供	-9.4737
閣	-9.47391
穿	-9.47443
知之	-9.47521
翻	-9.47578
由是	-9.47587
不出	-9.476
支	-9.47753
丹陽	-9.47848
纔	-9.47973
曰我	-9.48084
盗	-9.48119
季	-9.48227
彭	-9.48277
六十	-9.48304
神炁	-9.48384
膺	-9.48403
出於	-9.48449
班	-9.48483
窺	-9.4852
之境	-9.48662
青帝	-9.48749
一一	-9.48765
白帝	-9.48797
神君	-9.4891
憑	-9.48945
額	-9.48986
藴	-9.4899
禪	-9.48999
攻	-9.49003
惜	-9.49004
淪	-9.49022
用之	-9.49048
屍	-9.4907
頌曰	-9.49187
虚皇	-9.49209
中元	-9.49295
平等	-9.49299
八月	-9.49321
眷	-9.49371
罔	-9.49431
奚	-9.49433
旺	-9.49445
虞	-9.49471
墜	-9.49489
大慈	-9.4949
眞經	-9.49578
十三	-9.49746
超度	-9.49831
金精	-9.4986
泛	-9.49925
亦復如是	-9.49955
神人	-9.49958
繞	-9.49985
鑪	-9.49987
荒	-9.49998
均	-9.50004
真君	-9.50199
當以	-9.50212
猛	-9.50218
天一	-9.50248
短	-9.50388
伏願	-9.50398
眇	-9.5042
逮	-9.5047
商	-9.50508
朕	-9.50523
開明	-9.50845
叩齒	-9.5095
飢	-9.50982
疏	-9.51027
認	-9.51062
通靈	-9.51081
一百	-9.51273
三田	-9.51289
三十二	-9.514
墓	-9.51418
磨	-9.51468
頗	-9.51468
防	-9.51471
遲	-9.5149
赫	-9.51515
溢	-9.51522
抽添	-9.51532
姦	-9.51538
神呪	-9.51577
飲食	-9.51738
不祥	-9.51761
功成	-9.51791
三一	-9.51875
眞道	-9.51919
叩	-9.51949
寓	-9.52026
一云	-9.52042
靈文	-9.52068
姓名	-9.52146
圍	-9.52517
度世	-9.52749
正炁	-9.52809
即得	-9.5285
何以故	-9.52884
陽神	-9.52964
夙	-9.52968
躬	-9.5301
四字	-9.5302
牽	-9.53022
怨	-9.53082
編	-9.53082
紫陽	-9.53122
呼吸	-9.53176
洞明	-9.53187
白雲	-9.53211
豈不	-9.53304
堪	-9.53501
眞鉛	-9.53531
三宫	-9.53534
允	-9.53543
潭	-9.53565
稍	-9.53595
虚无	-9.53617
復有	-9.53668
報應	-9.5376
利益	-9.53764
具足	-9.53813
豈非	-9.53817
第六	-9.53836
禽	-9.5408
戀	-9.5413
玉虚	-9.54238
人皆	-9.54256
自己	-9.54373
成眞	-9.54607
廉	-9.54657
生神	-9.54793
遭	-9.55013
濟度	-9.55019
尅	-9.55074
欺	-9.55148
纏	-9.55192
拂	-9.55227
歡喜	-9.55275
无有	-9.55276
之意	-9.55279
山林	-9.55571
七月	-9.55669
然而	-9.55686
神化	-9.55911
結成	-9.55967
鍊形	-9.5597
正氣	-9.56092
䇿	-9.5614
元陽	-9.56141
晴	-9.56174
鎖	-9.56254
副	-9.56255
前後	-9.56279
仙公	-9.56339
常以	-9.56353
赤明	-9.5637
之謂	-9.56476
而行	-9.56492
正道	-9.56546
藥物	-9.566
太清樂	-9.56613
韻	-9.56635
挺	-9.56654
成道	-9.56713
丸	-9.56726
不在	-9.56735
祝曰	-9.56754
火鈴	-9.56888
百日	-9.56945
弱	-9.57099
搯	-9.571
天王	-9.57117
局	-9.57236
太陰	-9.57241
仕	-9.57302
繒	-9.57329
皆有	-9.57331
甘露	-9.5744
靈書	-9.57528
仙翁	-9.57591
戌	-9.57648
第十	-9.57656
宫中	-9.57664
是經	-9.57768
握	-9.57789
其道	-9.57837
空中	-9.57862
旗	-9.57882
人心	-9.57929
主人	-9.57971
吉凶	-9.58
姑	-9.58187
之體	-9.58268
規	-9.58347
靈光	-9.58363
缺	-9.58395
賤	-9.58544
判	-9.58676
弦	-9.58729
視之	-9.58773
戴	-9.58829
弗	-9.58839
金木	-9.58867
延生	-9.58872
撫	-9.5891
牒	-9.58942
飄	-9.59051
旱	-9.59102
大將軍	-9.59136
之章	-9.59254
圎	-9.59405
一點	-9.59425
疾病	-9.59448
垢	-9.59472
腰	-9.59481
此是	-9.59485
齡	-9.59508
至人	-9.59674
七十	-9.59684
使人	-9.5978
妙行	-9.59833
明堂	-9.59858
若不	-9.59872
大魔	-9.59902
荷	-9.59986
頃	-9.59993
囊	-9.60053
丹砂	-9.60054
據	-9.60104
度命	-9.60205
三素	-9.60235
告下	-9.60427
太隂	-9.6045
斧	-9.60464
船	-9.60579
南斗	-9.60584
懇	-9.606
岸	-9.60604
不可思議	-9.6061
尊神	-9.60635
不成	-9.60657
故能	-9.6075
九年	-9.60771
丹成	-9.60799
莫能	-9.60815
眞人曰	-9.60818
自生	-9.60866
稽	-9.60998
孟	-9.61039
栢	-9.61065
毫	-9.61067
希夷	-9.6108
其心	-9.6108
烹	-9.611
孰	-9.61105
后	-9.61122
困	-9.61133
程	-9.61163
埋	-9.61173
萌	-9.612
朱雀	-9.61201
悉皆	-9.61283
上仙	-9.61317
帝王	-9.61433
受持	-9.61449
其身	-9.61476
皇帝	-9.61557
餌	-9.61565
周天	-9.61588
擲	-9.616
左手	-9.61615
増	-9.61715
呵	-9.61727
網	-9.61728
几	-9.61741
洛	-9.61821
天仙	-9.61854
一心	-9.61965
鴻	-9.62135
謙	-9.62176
蓮	-9.62193
之用	-9.6226
厥	-9.6226
亦無	-9.62273
徘徊	-9.6228
棺	-9.62295
紛	-9.62295
又云	-9.62344
礙	-9.62368
聖胎	-9.62371
八字	-9.62435
所在	-9.62445
一曰	-9.62603
太元	-9.62656
兔	-9.62758
鄭	-9.62775
世之	-9.62789
邈	-9.62801
以來	-9.62832
者爲	-9.62876
兄	-9.62884
玄牝	-9.62898
玉晨	-9.62945
又有	-9.63021
妙用	-9.63022
肆	-9.63141
不足	-9.63178
葛	-9.63339
采	-9.63433
碑	-9.63433
綿綿	-9.63472
上皇	-9.63599
也又	-9.63622
一念	-9.63766
讃	-9.63769
劒	-9.63986
皮	-9.63995
我等	-9.64041
僕	-9.64051
箕	-9.64075
開化	-9.64508
桑	-9.64509
授以	-9.64552
延年	-9.64596
便是	-9.6463
巍巍	-9.6463
賓	-9.64688
五日	-9.64775
二氣	-9.64781
虧	-9.64814
修之	-9.64864
元皇	-9.64942
之尊	-9.64997
无形	-9.65032
芳	-9.65034
罰	-9.65119
二月	-9.65144
姹女	-9.65236
鋒	-9.6524
兇	-9.65281
亦可	-9.65319
輦	-9.65354
又以	-9.65572
徃	-9.65696
軀	-9.65703
柳	-9.65721
躍	-9.65773
繁	-9.65782
寡	-9.65796
精氣	-9.65802
扇	-9.65841
洞房	-9.65845
上升	-9.65942
玉童	-9.65987
之處	-9.66146
相生	-9.66163
祀	-9.66295
曰汝	-9.66308
十過	-9.66323
灑	-9.66424
天關	-9.66446
訟	-9.66458
玉文	-9.6654
少微曰	-9.66544
古今	-9.6656
人道	-9.66608
第八	-9.66677
第七	-9.66796
滌	-9.66897
探	-9.66916
雞	-9.66924
拱	-9.66932
睹	-9.66951
屈	-9.66952
縛	-9.66964
添	-9.66979
擒	-9.67026
一粒	-9.67236
劫運	-9.67298
紫雲	-9.67307
溟	-9.67391
和合	-9.6744
下方	-9.67458
俟	-9.67483
婁	-9.67527
眞火	-9.6755
整	-9.67565
寳珠	-9.67589
八十一	-9.67659
青華	-9.67675
簿	-9.67758
畜	-9.67807
玄武	-9.67936
恨	-9.68171
渾	-9.68181
本命	-9.68183
案	-9.68196
臍	-9.68425
慎	-9.68507
壬	-9.68594
女子	-9.68656
之始	-9.68657
不識	-9.68685
煩	-9.6869
賦	-9.68711
魯	-9.68717
遏	-9.68743
毀	-9.68748
騫	-9.68778
僞	-9.68782
朴	-9.68793
玄珠	-9.68833
元精	-9.68912
函	-9.69005
不用	-9.69089
三百	-9.69172
億劫	-9.69238
月中	-9.69256
齎	-9.69292
屢	-9.69316
琅	-9.69326
區	-9.69341
焕	-9.69415
猿	-9.69459
之文	-9.69464
富貴	-9.6949
柱	-9.6952
十餘	-9.69652
萬化	-9.69789
湖	-9.6983
闡	-9.69923
楚	-9.69985
玄妙	-9.70004
隸	-9.70023
世世	-9.70036
於人	-9.70144
雷神	-9.70199
般	-9.7042
不覺	-9.70444
銅	-9.70573
陀	-9.70582
扶桑	-9.706
崖	-9.70624
驛	-9.70663
寃	-9.70767
天宫	-9.7083
洞神	-9.7099
禹	-9.71093
虔	-9.71115
穹	-9.7122
傅	-9.71229
秉	-9.71275
桂	-9.71286
十二月	-9.71317
無所不	-9.71395
神將	-9.71404
壺	-9.71508
夫婦	-9.71617
普度	-9.71656
玄師曰	-9.71659
其神	-9.7166
征	-9.71662
紹	-9.71683
九霄	-9.71713
金甲	-9.71759
淺	-9.71785
屏	-9.71853
星君	-9.71855
循環	-9.71881
以其	-9.71903
十七	-9.71926
其文	-9.71999
九靈	-9.72106
丙	-9.72126
齋戒	-9.72162
曰子	-9.72204
之前	-9.72322
安寧	-9.7235
學士	-9.7235
綿	-9.72484
抑	-9.72513
蹤	-9.72541
五苦	-9.726
全眞	-9.72642
歌曰	-9.72649
莊	-9.72684
不相	-9.72697
守一	-9.72821
者以	-9.72855
衆眞	-9.72941
淡	-9.73082
操	-9.73104
亨	-9.73109
卜	-9.73111
園	-9.73125
爰	-9.73133
三百六十	-9.73221
白鶴	-9.7331
得一	-9.73331
囚	-9.73603
門人	-9.73656
揮	-9.73685
東海	-9.73696
黎	-9.73712
茶	-9.73756
裂	-9.73766
眠	-9.73801
之宗	-9.73809
書符	-9.73832
爾時天尊	-9.73925
至于	-9.74042
大有	-9.74085
祗	-9.74232
治病	-9.74267
鳯	-9.74363
流行	-9.74372
馭	-9.74382
覓	-9.74406
競	-9.74406
九色	-9.74497
華池	-9.74609
運度	-9.74612
侍衛	-9.74638
大衆	-9.74749
二炁	-9.74786
無礙	-9.74806
哭	-9.74811
及諸	-9.75053
溺	-9.7509
而出	-9.75093
靄	-9.75117
衡	-9.75153
譬如	-9.75214
碧落	-9.75222
運行	-9.75255
不及	-9.75316
右符	-9.75449
神水	-9.75471
八極	-9.75514
卑	-9.75622
膏	-9.75635
道之	-9.75639
凝神	-9.75655
邦	-9.75686
蔽	-9.75727
篤	-9.7573
疫	-9.75782
萬物之	-9.75792
良乆	-9.75811
百年	-9.75838
帝一	-9.75879
真符	-9.75905
至此	-9.75995
司馬	-9.76034
牧	-9.76256
恣	-9.76304
悦	-9.7633
促	-9.76336
牀	-9.7639
者謂	-9.76458
道成	-9.76466
欣	-9.76499
杳	-9.76535
神丹	-9.76564
日辰	-9.76575
者則	-9.76618
之曰	-9.7663
諸衆生	-9.76643
後世	-9.76648
天官	-9.76684
法輪	-9.76718
天元	-9.76729
文昌	-9.76923
選	-9.76957
妙經	-9.76975
熙	-9.76987
功過	-9.76991
乖	-9.76996
五行之	-9.77071
重陽	-9.77139
斗中	-9.77184
河車	-9.77202
詩曰	-9.77214
詩云	-9.77217
三尸	-9.77406
未能	-9.77475
安鎮	-9.77544
焰	-9.77611
藉	-9.77632
絲	-9.7765
謬	-9.77653
練	-9.77673
險	-9.77679
▲▲	-9.77708
三景	-9.77743
赤書	-9.77817
修道	-9.77829
幽魂	-9.77848
死魂	-9.7804
天尊曰	-9.78079
一道	-9.78132
上生	-9.78183
赤子	-9.78267
之類	-9.78312
靈符	-9.78313
徴	-9.78324
其事	-9.78378
研	-9.78392
故有	-9.78444
聞之	-9.78522
一卷	-9.78567
芽	-9.78567
九陽	-9.78623
内有	-9.78636
大吉	-9.78657
贊	-9.78674
六丁	-9.78679
亦如	-9.7893
遽	-9.78931
鑿	-9.78944
飾	-9.79008
臭	-9.79012
闊	-9.79065
陛下	-9.79171
閉目	-9.79217
蓬	-9.79265
手執	-9.79336
陰符	-9.79396
天炁	-9.79414
伏以	-9.79463
圓明	-9.79483
眞符	-9.79513
與之	-9.79526
削	-9.79533
五年	-9.79589
之府	-9.79601
顛倒	-9.79629
不聞	-9.7964
偉	-9.79642
頼	-9.79668
况	-9.79685
某人	-9.79702
或有	-9.79702
中黄	-9.79707
内義曰	-9.79799
進退	-9.79868
見其	-9.79986
朝元	-9.80021
形神	-9.8003
嚥	-9.80066
黑帝	-9.80082
時人	-9.80179
婆	-9.80238
無邊	-9.80241
上品	-9.80247
頻	-9.80325
鄰	-9.80358
北方八天	-9.8046
亦名	-9.80647
天丁	-9.8066
日用	-9.80737
消滅	-9.80751
旌	-9.80851
憫	-9.80944
彈	-9.80962
爛	-9.81026
金石	-9.81029
巴	-9.81037
六根	-9.81038
不知其	-9.81138
雷電	-9.81405
正法	-9.81451
一旦	-9.81482
帝諱	-9.81551
崔	-9.81633
諭	-9.81694
垣	-9.81722
鐘	-9.81736
倚	-9.81775
神也	-9.81915
仙姑	-9.82026
元始上帝	-9.82054
丹書	-9.82241
保舉	-9.82288
九玄	-9.82341
尹	-9.82345
施行	-9.82365
色界	-9.8238
曠	-9.82414
十五日	-9.82436
誘	-9.82441
道經	-9.82442
所有	-9.82444
郁	-9.82463
西方八天	-9.82481
庸	-9.82637
陽精	-9.82652
金水	-9.82833
此法	-9.82878
自是	-9.82957
玄關	-9.8299
心不	-9.83016
眞形	-9.83113
南方八天	-9.83163
消除	-9.83244
學仙	-9.83378
髙眞	-9.83389
之身	-9.83395
此文	-9.83396
之道也	-9.83403
帛	-9.83582
丞	-9.83586
玉光	-9.83628
蟾	-9.83701
地仙	-9.83733
璧	-9.83759
托	-9.83797
百里	-9.83829
擾	-9.83839
毁	-9.83857
一陽	-9.83907
先生曰	-9.84158
在天	-9.84192
遊行	-9.8428
无量度人	-9.84345
下有	-9.84358
功行	-9.84358
數十	-9.84422
也今	-9.84441
掩	-9.84556
巡	-9.84573
𡨚	-9.84579
唵	-9.84593
煇	-9.84618
倫	-9.84642
導引	-9.84713
三關	-9.84757
六月	-9.84774
惱	-9.84775
直符	-9.84787
安樂	-9.84978
偃	-9.85103
内丹	-9.85135
吾今	-9.85177
犬	-9.85195
所說	-9.85196
雅	-9.85251
姿	-9.85255
暑	-9.85266
婬	-9.8529
蔚	-9.85295
死生	-9.85316
上宫	-9.85389
之天	-9.85506
當知	-9.85518
主宰	-9.85583
胎息	-9.8561
七元	-9.85652
之符	-9.85672
骸	-9.85738
上道	-9.85773
之性	-9.85821
抱一	-9.85831
阜	-9.85843
馘	-9.85898
革	-9.85901
東西	-9.85906
人以	-9.85919
减	-9.85946
七年	-9.85967
飽	-9.85994
陷	-9.86024
二八	-9.86048
爲主	-9.86218
上朝	-9.86237
不失	-9.86277
消息	-9.86328
之光	-9.86357
自此	-9.86447
而來	-9.86476
甫	-9.86567
華蓋	-9.86574
緒	-9.86616
駐	-9.86618
講	-9.86627
經法	-9.86663
修齋	-9.86686
裙	-9.86686
借	-9.86713
儲	-9.86719
刃	-9.86738
長跪	-9.86791
武帝	-9.86807
眷屬	-9.86811
有形	-9.86821
八百	-9.86845
以至	-9.86907
法身	-9.87068
大劫	-9.87182
此天	-9.87185
鄧	-9.87253
恬	-9.87414
忍	-9.87418
迅	-9.87454
跨	-9.87468
𩲸	-9.87506
敎	-9.87533
威儀	-9.8764
進火	-9.87679
說經	-9.87716
壘	-9.87741
魂神	-9.87948
太守	-9.88031
威神	-9.8805
幡	-9.88091
銜	-9.88156
築	-9.88159
殆	-9.88167
揺	-9.88222
凡人	-9.8827
始生	-9.88348
心中	-9.88487
南昌	-9.88661
祖炁	-9.88683
其間	-9.88763
役使	-9.88769
健	-9.88827
之源	-9.88836
魅	-9.88858
勃	-9.88884
與道	-9.88886
勒	-9.88889
句曲	-9.88938
警	-9.88969
假令	-9.8904
太眞	-9.89084
雌	-9.89143
口中	-9.89163
華山	-9.89168
主者	-9.89221
子曰	-9.89227
能生	-9.89338
神室	-9.895
耳目	-9.89516
勵	-9.89524
范	-9.89555
好道	-9.89575
有三	-9.89606
交合	-9.8963
暎	-9.89709
猶如	-9.89719
湛然	-9.89825
煉度	-9.89872
億萬	-9.89888
五月	-9.89914
何處	-9.89937
幽冥	-9.90027
各各	-9.90046
丕	-9.9016
之先	-9.90191
凡有	-9.90206
五氣	-9.90242
躡	-9.90298
煎	-9.90322
叱	-9.90342
天尊歸命信禮	-9.90365
伺	-9.90366
泣	-9.90367
哲	-9.90367
成仙	-9.90372
濯	-9.904
說法	-9.90408
肩	-9.90413
皈	-9.90415
賴	-9.90435
金液還丹	-9.90456
亦非	-9.90698
不行	-9.90731
不可以	-9.90937
掛	-9.90959
好生	-9.90968
風火	-9.91085
風雷	-9.91123
叙	-9.91162
逼	-9.9119
四年	-9.91208
岳	-9.91221
居之	-9.91234
金門	-9.91234
星辰	-9.91248
莫測	-9.91302
出家	-9.91313
天文	-9.91368
無復	-9.91597
如意	-9.91638
之方	-9.91648
妙化	-9.91675
大藥	-9.9168
苦惱	-9.91692
精思	-9.91725
道言	-9.91752
急急	-9.91753
竈	-9.91777
玄玄	-9.91832
道法	-9.91864
身形	-9.91875
乳	-9.91883
趨	-9.91888
嘆	-9.91919
怠	-9.91995
湘	-9.91999
受生	-9.9205
法界	-9.9207
无所	-9.92072
有大	-9.9218
夏至	-9.9221
方可	-9.9223
九月	-9.92354
西山	-9.92395
流光	-9.92413
終不	-9.92503
玉堂	-9.92571
曽	-9.92593
社	-9.926
陰陽之	-9.92623
喬	-9.92624
佳	-9.92648
麟	-9.92657
戊	-9.92667
抽	-9.92669
鑄	-9.92689
愁	-9.92727
枉	-9.92733
戮	-9.9275
符使	-9.92812
相交	-9.92822
三陽	-9.92835
運用	-9.92918
一寸	-9.93044
能知	-9.93066
南北	-9.93078
可謂	-9.93118
化身	-9.93197
白日	-9.93227
捷	-9.93337
衍	-9.93417
麻	-9.93434
嗟	-9.9345
八威	-9.9347
耗	-9.93479
擁	-9.93521
静	-9.93532
吒	-9.93533
與我	-9.93556
▁(	-9.93568
九十	-9.93652
三台	-9.93779
一十二	-9.93783
星在	-9.93798
五神	-9.93811
不絶	-9.93875
雖有	-9.94113
神變	-9.94129
敢有	-9.94138
台	-9.94167
旁	-9.94211
涉	-9.94229
宏	-9.94234
泯	-9.94251
卓	-9.94276
冶	-9.94292
玉章	-9.94358
其形	-9.94385
入於	-9.94565
剪	-9.94588
此時	-9.94606
玉眞	-9.94609
水府	-9.94632
三境	-9.9464
太華	-9.94645
轟	-9.94774
善功	-9.94781
癡	-9.94868
筌	-9.94975
生化	-9.95
沐	-9.95016
項	-9.95031
拯	-9.9506
鷄	-9.95067
玉華	-9.95076
玉音	-9.95098
枕	-9.95099
相見	-9.95122
得見	-9.95127
入山	-9.95329
皆由	-9.95344
解釋	-9.9536
元帥	-9.95362
次第	-9.95391
有二	-9.95392
百姓	-9.95431
兆身	-9.95462
眞靈	-9.95533
也其	-9.95568
隅	-9.95596
九竅	-9.95601
不受	-9.95604
風雲	-9.95633
袍	-9.9565
演說	-9.95661
採藥	-9.95678
成形	-9.95739
紫虚	-9.95782
云云	-9.95789
筋	-9.95791
剥	-9.95793
從官	-9.95811
四肢	-9.95853
叅	-9.95869
敵	-9.95878
此符	-9.95878
天真	-9.95888
冒	-9.95894
上方	-9.95905
常存	-9.95911
四月	-9.9593
未有	-9.96017
定録	-9.9618
通玄	-9.96188
四衆	-9.96362
展	-9.96362
不食	-9.96365
无不	-9.96382
老人	-9.96438
太子	-9.9646
自然之	-9.96584
減	-9.96652
皇君	-9.96659
上陽子曰	-9.96661
寵	-9.96677
諸仙	-9.96705
子時	-9.96709
金鼎	-9.9672
存思	-9.96759
成丹	-9.96792
得仙	-9.96846
夜半	-9.96923
臣某	-9.96948
洲	-9.96994
乆之	-9.9709
寥	-9.97122
妙法	-9.9715
九光	-9.97215
周流	-9.97295
之言	-9.97296
食之	-9.97327
幢	-9.97395
神風	-9.97403
歟	-9.97444
無名	-9.97449
究竟	-9.97529
五賊	-9.97585
愼	-9.97934
白雪	-9.97962
有人	-9.98047
不言	-9.98069
眞水	-9.98093
恊	-9.98102
洞眞	-9.98144
構	-9.98195
祈禱	-9.98219
劵	-9.98226
頒	-9.9825
邀	-9.98262
準	-9.98262
内諱	-9.98273
必有	-9.98275
熾	-9.98276
姤	-9.98287
百靈	-9.98291
内觀	-9.98293
生生	-9.98305
剛柔	-9.98319
丙丁	-9.98345
二儀	-9.98347
誦詠	-9.98385
萬法	-9.9849
不息	-9.98579
上相	-9.98584
八難	-9.98663
聰	-9.98819
在人	-9.98827
文字	-9.98865
勉	-9.98879
時有	-9.98879
詰	-9.99015
古人	-9.99036
煮	-9.9904
蔡	-9.9908
至真	-9.99084
打	-9.9909
低	-9.99191
温養	-9.99249
軿	-9.99257
百餘	-9.99266
道也	-9.99283
三人	-9.99304
後天	-9.99451
有餘	-9.99556
焦	-9.99583
法門	-9.99687
如前	-9.99806
浴	-9.99825
棗	-9.99871
黨	-9.99904
饑	-9.99926
怡	-9.99955
謫	-9.99966
又問	-9.99996
截	-9.99998
腸	-10.0003
生萬物	-10.0007
在乎	-10.0011
片	-10.0011
是非	-10.0013
裳	-10.0028
之徒	-10.0035
之災	-10.0036
不悟	-10.004
易曰	-10.0062
匪	-10.0065
繩	-10.007
延壽	-10.007
費	-10.0072
單	-10.0072
琳	-10.0074
橘	-10.0074
攀	-10.0074
問曰	-10.0075
渡	-10.0075
話	-10.0076
漱	-10.0078
窗	-10.0081
二十八宿	-10.0085
昨	-10.0086
一聲	-10.0093
太上道君	-10.0102
紫清	-10.0127
之鬼	-10.0131
漿	-10.0134
神符	-10.0148
桓	-10.0151
叟	-10.0151
括	-10.0153
介	-10.0153
恃	-10.0155
村	-10.0159
枚	-10.0159
岡	-10.0159
四大	-10.0162
賞	-10.0163
飛天神王	-10.0164
飯	-10.0164
之說	-10.0164
之狀	-10.0167
入道	-10.0168
而言	-10.0182
梵行	-10.0195
從此	-10.0197
緯	-10.0197
日月之	-10.0203
之靈	-10.0205
決	-10.0232
天皇	-10.0233
辱	-10.0234
憐	-10.0237
於天	-10.0237
萬人	-10.0238
爲用	-10.0243
郊	-10.0245
逾	-10.0246
人生	-10.0249
魁罡	-10.0254
平叔	-10.0254
一本	-10.0256
而至	-10.0258
恭敬	-10.026
無方	-10.026
宗師	-10.0264
九眞	-10.0267
佩之	-10.0276
甲乙	-10.0285
欲界	-10.0294
道場	-10.0297
念念	-10.0301
抵	-10.0301
紫府	-10.0307
若人	-10.0308
生氣	-10.031
巳上	-10.0313
浄	-10.0314
福德	-10.0317
蘂	-10.0317
奕	-10.0324
真王	-10.0324
曷	-10.033
模	-10.033
餐	-10.033
矜	-10.0331
不壞	-10.0333
制伏	-10.034
六十四卦	-10.0342
二十五	-10.0342
法象	-10.0344
以應	-10.035
兩儀	-10.0357
逝	-10.037
服食	-10.0377
受鍊	-10.0384
感應	-10.0385
一物	-10.0387
飛空	-10.0393
青衣	-10.0399
而下	-10.0407
灼	-10.0409
之祖	-10.041
揖	-10.0411
梅	-10.0412
収	-10.0415
五道	-10.0416
膝	-10.0417
於物	-10.0421
遶	-10.0422
丹經	-10.0424
後學	-10.0431
之號	-10.0433
飲酒	-10.047
終日	-10.0482
兩手	-10.0483
思惟	-10.0487
膀胱	-10.0497
得聞	-10.0497
擬	-10.0498
禦	-10.0499
寺	-10.0502
希有	-10.0504
顚倒	-10.0506
罏	-10.0506
藏於	-10.051
運轉	-10.0512
有五	-10.0512
清明	-10.0517
所得	-10.0518
道備	-10.0521
發生	-10.0524
種民	-10.0527
有道	-10.0537
傳授	-10.054
明日	-10.0549
流精	-10.055
大王	-10.055
變爲	-10.0555
廣大	-10.0558
天蓬	-10.0559
之主	-10.0559
之難	-10.0569
三十日	-10.0569
生炁	-10.0569
黄金	-10.057
大定	-10.0577
符呪曰	-10.058
清齋	-10.0583
鞭	-10.0583
合道	-10.0586
飛騰	-10.0589
兄弟	-10.0591
啼	-10.0592
不明	-10.0595
黃帝	-10.0596
咽液	-10.0596
眞空	-10.0598
浩劫	-10.0599
津液	-10.06
不可得	-10.0604
不過	-10.0609
无色	-10.061
寳籙	-10.0613
與人	-10.0614
茅君	-10.0621
上奏	-10.0637
金玉	-10.0646
者亦	-10.0646
元元	-10.0661
去來	-10.0662
作用	-10.0665
璞	-10.0668
燥	-10.067
漂	-10.0671
生身	-10.0673
翊	-10.0674
命門	-10.0678
濕	-10.0678
拒	-10.0679
碎	-10.0679
帀	-10.068
奴	-10.068
何謂	-10.0685
也乃	-10.0688
十年	-10.069
堅固	-10.0696
念呪	-10.0696
眞元	-10.07
九地	-10.0702
太无	-10.0707
太白	-10.0713
龍王	-10.0715
猷	-10.0716
仙眞	-10.0722
神神	-10.0729
二百	-10.073
不然	-10.0738
或爲	-10.075
生而	-10.0753
㧞	-10.0758
不起	-10.0758
蛟	-10.0758
蒸	-10.0761
顛	-10.0761
澗	-10.0761
熏	-10.0761
綵	-10.0762
陣	-10.0762
獅子	-10.0762
快	-10.0763
粉	-10.0763
軌	-10.0764
葉士表曰	-10.0767
盻	-10.0767
酬	-10.0767
飈	-10.0771
氤氲	-10.0774
丹元	-10.0776
斤	-10.0777
山下	-10.0781
還元	-10.0783
上登	-10.0783
乃至	-10.0791
或以	-10.0801
下手	-10.0809
生滅	-10.081
對曰	-10.0815
陽明	-10.0823
萬天	-10.0823
鈴	-10.0825
於心	-10.0834
鍊丹	-10.0842
堯	-10.0843
中指	-10.0848
也故曰	-10.0848
麤	-10.0851
疊	-10.0853
後人	-10.0854
汲	-10.0857
如法	-10.0858
栖	-10.0859
徵	-10.0859
冝	-10.086
東向	-10.0861
異之	-10.0863
快樂	-10.0867
之臺	-10.0869
分形	-10.0873
凝結	-10.0879
之色	-10.0894
傳送	-10.0899
應化	-10.0906
本來	-10.0912
有時	-10.0915
出離	-10.0924
人天	-10.0926
二者	-10.0926
大乘	-10.0928
斷絶	-10.0931
受命	-10.0936
八十	-10.0936
湛	-10.0936
终	-10.0941
自得	-10.0941
儻	-10.0946
簫	-10.0947
雍	-10.0947
汗	-10.0948
泊	-10.0949
皆爲	-10.0956
之力	-10.0958
良久	-10.0963
修煉	-10.0964
紫房	-10.098
黄籙	-10.0981
精炁	-10.0982
月華	-10.0984
力士	-10.099
玉闕	-10.0992
其色	-10.0998
狀如	-10.1003
大將	-10.101
九州	-10.1011
隠	-10.1024
瀆	-10.1025
紐	-10.1027
別	-10.1027
内名	-10.1033
玉液	-10.1034
金書	-10.1035
褒	-10.1037
湧	-10.1037
崩	-10.1038
觀之	-10.1039
邁	-10.1039
宇宙	-10.1041
罩	-10.1041
捕	-10.1041
璇璣	-10.1041
弄	-10.1044
臂	-10.1046
家人	-10.1053
不肯	-10.1084
二景	-10.109
度人經	-10.1095
而入	-10.1096
作禮	-10.1098
三寸	-10.1101
光照	-10.1102
米	-10.1112
金籙	-10.1113
勾	-10.1114
難可	-10.1119
北向	-10.1121
眞陽	-10.1123
衣服	-10.1125
數也	-10.1127
晩	-10.1131
梯	-10.1132
之聲	-10.1133
昇仙	-10.1133
遼	-10.1137
之象也	-10.1142
冥冥	-10.1142
千年	-10.1143
太霄	-10.1149
不欲	-10.1156
東井	-10.1162
長生不死	-10.1164
不已	-10.1164
交媾	-10.1169
之㫖	-10.1177
拔度	-10.1182
不是	-10.1186
此爲	-10.1189
六年	-10.1191
玉宸	-10.1201
帔	-10.1211
師云	-10.1212
愍	-10.1212
例	-10.1214
跪	-10.1216
已上	-10.1219
憶	-10.1221
洒	-10.1223
謗	-10.1224
石室	-10.1226
歛	-10.1226
靡	-10.1231
大洞經	-10.1232
大神无鞅之衆浮空而至	-10.1233
一乘	-10.124
三者	-10.1246
五靈	-10.1252
於道	-10.1265
五味	-10.1266
禍福	-10.1268
中生	-10.127
寳經	-10.1273
此皆	-10.1283
玄微	-10.1283
九壘	-10.129
侍衞	-10.1291
造化之	-10.1295
穆	-10.1305
祚	-10.1306
具位	-10.1308
攝召	-10.1308
闇	-10.1312
道性	-10.1314
樵	-10.1314
韶	-10.1317
劔	-10.1319
消災	-10.132
在心	-10.132
鄙	-10.1323
非常	-10.1328
橫	-10.1329
爲陽	-10.1336
諸惡	-10.1338
黄素	-10.1339
存想	-10.134
變成	-10.1342
至今	-10.1346
太上老君	-10.135
之謂也	-10.1356
陽氣	-10.1356
鼎器	-10.1357
在世	-10.1378
其下	-10.1389
群生	-10.1391
經典	-10.1393
飛玄	-10.1394
不散	-10.1403
亶	-10.1406
一千	-10.1409
銘	-10.1412
雀	-10.1412
苗	-10.1413
玄眞	-10.1413
鱗	-10.1415
威靈	-10.1415
嗔	-10.1418
奈何	-10.1423
其後	-10.1432
忽然	-10.1439
成功	-10.1452
輪迴	-10.1452
布施	-10.1453
二十八	-10.1467
玉清樂	-10.148
不須	-10.1483
掠	-10.1484
道炁	-10.1485
眞精	-10.15
不以	-10.1501
虹	-10.1505
人知	-10.1506
叩齒九通	-10.1507
聾	-10.151
非人	-10.1511
刀圭	-10.1511
綺	-10.1513
侣	-10.1513
故得	-10.1515
昇入	-10.1517
則神	-10.1518
泰山	-10.1529
不解	-10.1534
陽炁	-10.1534
玄一	-10.1535
碧霞	-10.1537
若是	-10.1542
三皇	-10.1548
兆民	-10.1552
生靈	-10.1557
成數	-10.1562
靈章	-10.1563
玉簡	-10.1565
小人	-10.1566
至神	-10.1567
瓶	-10.1587
眞土	-10.159
豫	-10.1593
祟	-10.1596
暖	-10.1607
河海	-10.1609
离	-10.161
渺	-10.1611
傲	-10.1612
這	-10.1612
的	-10.1613
尊師	-10.1615
卵	-10.1616
所生	-10.1633
一者	-10.1639
所見	-10.1643
與天地	-10.1643
京師	-10.165
杳冥	-10.1651
胎仙	-10.1659
此章	-10.1665
陽光	-10.1673
存焉	-10.1675
其功	-10.1677
靈童	-10.1684
非有	-10.1688
天下之	-10.1689
敦	-10.1692
有無	-10.1692
明月	-10.1695
排	-10.1695
粗	-10.1697
三魂	-10.1699
以是因縁	-10.1702
霐	-10.1702
之義也	-10.1704
氛	-10.1707
豁落	-10.1714
紫霄	-10.1717
西王母	-10.1718
陽生	-10.1729
无礙	-10.1731
泉曲	-10.1733
日精	-10.1756
慶雲	-10.1756
亦是	-10.1757
萬事	-10.1758
十一月	-10.1761
四極	-10.1766
天眞皇人	-10.1775
洞靈	-10.1776
太歲	-10.1785
朽	-10.1786
春秋	-10.1787
可不	-10.1791
尚書	-10.1793
屯	-10.1794
未來	-10.1799
沸	-10.1799
弊	-10.18
化成	-10.1801
北都	-10.1803
尉	-10.1806
扣	-10.1809
玄中	-10.181
算	-10.181
飛升	-10.1814
道光曰	-10.1814
鬼官	-10.1816
得此	-10.1816
洞淵	-10.1816
三萬六千	-10.1819
丞相	-10.1826
十九	-10.1828
青童	-10.1836
九重	-10.1841
三華	-10.1849
壬癸	-10.1862
北酆	-10.1866
人物	-10.1868
精血	-10.1872
亦曰	-10.1876
洞照	-10.1877
换	-10.1881
聖母	-10.1884
未知	-10.1885
言曰	-10.1897
也然	-10.1897
耽	-10.1903
割	-10.1903
段	-10.1904
笈	-10.1904
駭	-10.1905
仇	-10.1905
吁	-10.1906
者非	-10.1908
阻	-10.1909
板	-10.191
吽	-10.1911
館主	-10.1912
子午	-10.1915
奸	-10.1916
生天	-10.1916
所言	-10.1924
人鬼	-10.1925
勤行	-10.1936
上真	-10.194
教化	-10.1952
是一病	-10.1958
相合	-10.1962
少陽	-10.1962
不通	-10.1966
歸於	-10.1968
動而	-10.1974
七十二	-10.1975
爲我	-10.1978
登眞	-10.1982
是我	-10.1988
赤炁	-10.1991
不應	-10.1998
洞中	-10.2004
床	-10.2005
襲	-10.2008
詐	-10.201
饒	-10.201
功滿	-10.2011
之子	-10.2011
鉞	-10.2013
眇眇	-10.2014
之書	-10.2015
己身	-10.2016
八節	-10.2023
數日	-10.2026
遊宴	-10.2032
明年	-10.2033
中斗	-10.2037
飛雲	-10.2039
羣生	-10.2044
萬年	-10.2045
通神	-10.2046
普告	-10.2048
之山	-10.2051
人世	-10.207
森	-10.208
中間	-10.2081
天光	-10.2081
不勝	-10.2085
之首	-10.2091
頑	-10.2094
謡	-10.21
倉	-10.2101
耕	-10.2101
搜	-10.2103
於中	-10.2108
淸	-10.2109
也蓋	-10.211
做	-10.2111
釋氏	-10.2129
運火	-10.2131
寂然	-10.214
而復	-10.2143
神眞	-10.2147
赤文	-10.2154
公子	-10.2155
爲一藥	-10.216
過去	-10.2161
高眞	-10.2161
精進	-10.2169
經上清	-10.2171
不傳	-10.2171
第九	-10.2172
星宿	-10.2183
仙王	-10.2184
王君	-10.2187
青玄	-10.2188
弼	-10.2202
於外	-10.2202
轡	-10.2204
太初	-10.2204
懴悔	-10.2205
圭	-10.2206
粹	-10.2207
諒	-10.2207
換	-10.2209
謾	-10.221
神公	-10.221
飛神	-10.2211
亢	-10.2211
至尊	-10.2211
白日昇天	-10.2215
在於	-10.2216
窟	-10.2216
天有	-10.2228
廬山	-10.2234
不必	-10.2238
鍾離	-10.2243
端坐	-10.2243
中嶽	-10.2246
是知	-10.2248
而行之	-10.2251
日夜	-10.2268
大明	-10.2269
仙都	-10.2271
聲色	-10.2295
昆	-10.2296
爍	-10.23
誦此經	-10.231
不容	-10.231
通眞	-10.2312
扉	-10.2314
爵	-10.2315
奮	-10.2315
優	-10.2318
渴	-10.2318
鬚	-10.2318
宥	-10.2318
浸	-10.2319
降眞	-10.232
而歸	-10.2324
至誠	-10.2325
爲道	-10.2325
年月日時	-10.2327
奉道	-10.234
有異	-10.234
長安	-10.234
凡夫	-10.2341
而化	-10.2343
當時	-10.2344
五百	-10.2348
聰明	-10.2354
安鎭	-10.2357
衆聖	-10.2358
始於	-10.2362
五符	-10.2369
仙君	-10.2374
豈知	-10.2379
子良	-10.2381
九華	-10.2382
歸一	-10.2384
水官	-10.2387
愚人	-10.2395
若非	-10.2397
流珠	-10.2397
流通	-10.2405
伊	-10.2407
賣	-10.241
名字	-10.2414
銷	-10.2415
懴	-10.2416
漫	-10.2417
憲	-10.2418
乍	-10.242
裝	-10.2422
匿	-10.2424
庚辛	-10.2424
頃刻	-10.2424
縱横	-10.2428
奎	-10.2429
皈依	-10.2431
千餘	-10.2439
求之	-10.2443
度厄	-10.2445
有此	-10.2461
之辰	-10.2465
豈有	-10.2474
之母	-10.2479
一百二十	-10.2481
之魂	-10.2481
涯	-10.2487
終始	-10.2488
靈根	-10.2489
得度	-10.249
以致	-10.2493
譬	-10.2498
知此	-10.2499
䝉	-10.2502
札	-10.2504
之眞	-10.2516
各三十二人	-10.2516
邪精	-10.2517
控	-10.2519
異名	-10.2521
啖	-10.2522
萬聖	-10.2523
不測	-10.2523
凉	-10.2523
顏	-10.2523
右手	-10.2524
撓	-10.2524
離宫	-10.2524
寬	-10.2524
腥	-10.2526
尼	-10.2527
醒	-10.2527
旅	-10.2527
寜	-10.2529
憎	-10.2531
海空智藏	-10.2532
狼	-10.2532
子母	-10.2532
故以	-10.2533
洞府	-10.2537
百骸	-10.2539
書云	-10.2544
殊不知	-10.2551
八天	-10.2553
蕩蕩	-10.2556
若見	-10.2558
青城	-10.2559
水旱	-10.2568
無人	-10.2569
三塗五苦	-10.257
開通	-10.2574
元洞	-10.2575
洞視	-10.2578
只是	-10.2587
若以	-10.2589
戈	-10.259
人事	-10.2591
紫光	-10.2591
日月星辰	-10.2592
皆以	-10.2592
其氣	-10.2595
白炁	-10.2596
九日	-10.2597
萬變	-10.2597
而能	-10.26
生民	-10.2604
闢	-10.2612
九祖	-10.2613
於世	-10.2615
以道	-10.2621
山嶽	-10.2622
馥	-10.2625
釣	-10.2625
歴	-10.2628
杯	-10.2629
梓	-10.263
蔭	-10.263
攸	-10.2631
蠲	-10.2633
䟽	-10.2633
禮拜	-10.2634
亮	-10.2636
匡	-10.2636
內	-10.2636
譴	-10.2637
翹	-10.2638
筵	-10.264
上玄	-10.2644
其上	-10.2645
餓鬼	-10.2655
一十	-10.2657
者蓋	-10.266
金童	-10.2661
十天	-10.2669
鍊神	-10.2671
長年	-10.2675
方寸	-10.2675
可得	-10.2679
寳藏	-10.2679
可見	-10.2683
天中之	-10.2689
吕曰	-10.271
渠	-10.2723
斡	-10.2724
天尊言	-10.2729
洞觀	-10.2732
晃	-10.2733
療	-10.274
秩	-10.2743
訣曰	-10.2744
飬	-10.2744
福堂	-10.2745
仞	-10.2746
之至	-10.2748
靈飛	-10.275
東極	-10.2754
峻	-10.2755
笑曰	-10.2757
之節	-10.276
飛龍	-10.276
七返	-10.2763
至聖	-10.2763
乃得	-10.2777
將吏	-10.2783
偈	-10.2793
肯	-10.2794
安得	-10.2798
四十九	-10.2799
柄	-10.2808
真炁	-10.2808
卷下	-10.281
歸依	-10.2813
不變	-10.2816
在此	-10.2822
長春	-10.2823
六十四	-10.2827
爲水	-10.2833
臣等	-10.2834
吾身	-10.2836
邵	-10.2836
忽有	-10.2841
皂	-10.2842
其言	-10.2843
買	-10.2843
他人	-10.2845
貨	-10.2845
析	-10.285
賈	-10.285
狐	-10.285
黍米	-10.2851
踏	-10.2852
躋	-10.2853
盲	-10.2853
蠱	-10.2854
無色	-10.2856
逕	-10.2856
天魔	-10.2857
縷	-10.2859
地官	-10.286
五臓	-10.2862
制魔	-10.288
遠近	-10.2881
勿令	-10.2893
而自	-10.29
至妙	-10.29
混洞	-10.2903
身體	-10.2908
九皇	-10.2911
此則	-10.2916
形容	-10.2917
故名	-10.2919
還山	-10.2927
入水	-10.2935
爲陰	-10.294
授之	-10.294
下丹田	-10.294
一二	-10.2941
吏兵	-10.2945
无常	-10.2947
洽	-10.2948
呪畢	-10.2952
馮	-10.2956
死者	-10.2958
剖	-10.296
抗	-10.296
淮	-10.2961
壑	-10.2963
縳	-10.2964
眞官	-10.2965
炳	-10.2965
鈞	-10.2965
匠	-10.2966
罕	-10.2966
迸	-10.2969
上通	-10.2969
衢	-10.2969
西華	-10.297
浮黎	-10.2973
玉札	-10.2976
國王	-10.2978
三惡	-10.2983
一字	-10.2985
眞誥	-10.2993
使之	-10.3002
四天	-10.3004
玉訣	-10.3007
薛	-10.3011
光華	-10.3011
敕命	-10.3012
交會	-10.3014
人人	-10.302
精華	-10.3021
其理	-10.3022
之形	-10.3023
萬丈	-10.3026
靈風	-10.3031
位爲	-10.3033
二音	-10.3034
心神	-10.3039
始終	-10.3039
追魂	-10.3059
神兵	-10.3064
霑	-10.3066
董	-10.3071
材	-10.3071
賛	-10.3072
債	-10.3073
泓	-10.3074
縮	-10.3075
訶	-10.3077
感通	-10.3079
塊	-10.3079
聳	-10.3079
陞	-10.308
髪	-10.3081
到此	-10.3093
鍊度	-10.3112
清濁	-10.3117
合於	-10.3118
八門	-10.3119
聖衆	-10.3125
不易	-10.3131
農	-10.3133
其性	-10.3133
以生	-10.3135
羽蓋	-10.3136
此山	-10.314
八年	-10.3142
開悟	-10.3142
吉祥	-10.3147
天地萬物	-10.3147
言訖	-10.315
雖然	-10.3153
若無	-10.3153
四百	-10.3154
輕泄	-10.3158
大師	-10.3163
千萬	-10.3164
心心	-10.3174
峙	-10.3174
軫	-10.3178
靣	-10.3182
涵	-10.3184
無生	-10.3185
萬鬼	-10.3185
荆	-10.3188
言其	-10.3188
愧	-10.319
恢	-10.319
物之	-10.3192
㝷	-10.3193
火輪	-10.3195
巢	-10.3197
級	-10.3198
羲	-10.3198
復還	-10.3198
方外	-10.3202
之罪	-10.3202
之官	-10.3202
五斗	-10.3207
反覆	-10.3215
口舌	-10.3221
也言	-10.3223
皆從	-10.3226
圓滿	-10.3232
眞藏	-10.3235
六府	-10.3245
未幾	-10.3245
養生	-10.3255
太宗	-10.3256
人所	-10.3256
妻子	-10.3259
乃是	-10.326
書之	-10.3262
隱語	-10.328
朱宫	-10.3282
丹靈	-10.3285
閱	-10.3286
一斤	-10.3288
本無	-10.3295
而退	-10.3295
未盡	-10.3297
褐	-10.3301
曇	-10.3305
玄冥	-10.3306
纓	-10.3306
無非	-10.3308
悟眞篇	-10.3308
帳	-10.3308
畔	-10.3309
摇	-10.3309
郞	-10.3309
愚癡	-10.3313
溟涬	-10.3314
十餘年	-10.3315
騫林	-10.3317
衣冠	-10.3318
隱韻	-10.3325
夫妻	-10.3334
門户	-10.3336
邪魔	-10.334
眞實	-10.3341
雷火	-10.3344
衆人	-10.3345
河圖	-10.3346
及其	-10.3353
高士	-10.3355
他日	-10.3357
妙行眞人	-10.3365
未聞	-10.3369
天堂	-10.3383
言語	-10.3389
運化	-10.339
妙理	-10.3392
黄炁	-10.3393
宿命	-10.3398
記名	-10.34
速降	-10.341
坦	-10.3412
修持	-10.3413
滓	-10.3413
中來	-10.3415
玩	-10.3416
稼	-10.3416
惡業	-10.3417
復命	-10.3418
汙	-10.3421
勇	-10.3422
軒轅	-10.3422
柯	-10.3422
唤	-10.3422
而不知	-10.3423
媒	-10.3424
之志	-10.3424
酸	-10.3424
於内	-10.3429
或曰	-10.3435
自非	-10.3435
黄婆	-10.3436
三要	-10.3438
洞徹	-10.3442
常行	-10.3447
倍	-10.3452
眞常	-10.3452
孔子	-10.3455
妄想	-10.3455
歸根	-10.3459
若夫	-10.3465
皆當	-10.3466
以明	-10.3472
之圖	-10.3475
五千	-10.3476
六畜	-10.3479
隱諱	-10.348
生根	-10.348
蓮花	-10.3484
七曜	-10.3488
地上	-10.3492
列言	-10.3493
或云	-10.3493
也是	-10.3507
金母	-10.3508
白元	-10.3512
貺	-10.3513
常住	-10.3516
徊	-10.352
相傳	-10.3527
以象	-10.3528
元始天王	-10.3531
狗	-10.3532
拙	-10.3539
薰	-10.3539
壤	-10.354
蹈	-10.3541
摶	-10.3541
藹	-10.3542
陋	-10.3542
不與	-10.3542
綂	-10.3543
以示	-10.3544
下鬼	-10.3549
陰德	-10.3552
紋	-10.3552
多少	-10.3552
用心	-10.3563
入口	-10.3565
照耀	-10.3565
一徧	-10.3566
元始符命	-10.3567
三業	-10.357
又見	-10.3573
水之	-10.3574
玄明	-10.3578
无復	-10.3579
祝云	-10.3581
依法	-10.3593
三尺	-10.3598
莫知其	-10.3602
洞清	-10.3603
通達	-10.3605
孚	-10.3605
今以	-10.3606
外藥	-10.3607
存亡	-10.361
乘雲	-10.3614
教人	-10.3619
之堂	-10.3621
不至	-10.3625
眄	-10.3626
天曹	-10.3633
大千	-10.3635
謝以聞	-10.3639
挹	-10.364
戎	-10.3642
禧	-10.3642
晏	-10.3646
求道	-10.365
寰	-10.3652
厲	-10.3653
調和	-10.3654
自稱	-10.3655
墳	-10.3656
系	-10.366
蝕	-10.366
晚	-10.366
三氣	-10.3662
鼠	-10.3662
闔	-10.3664
三茅	-10.3664
有九	-10.3669
骨肉	-10.3669
福地	-10.3672
萬民	-10.3679
九龍	-10.3681
乃曰	-10.3686
黄老	-10.3697
至精	-10.3699
火龍	-10.3702
萬道	-10.3707
天台	-10.3709
眞性	-10.3712
最上	-10.3713
不求	-10.3717
洞元	-10.3729
身爲	-10.3731
酆	-10.3742
得長生	-10.3745
動則	-10.3748
西斗	-10.3749
一體	-10.375
門下	-10.376
在上	-10.3765
者不	-10.3765
檄	-10.3769
其數	-10.3771
聞其	-10.3772
始青	-10.3772
諧	-10.3772
悟道	-10.3772
拳	-10.3774
乏	-10.3776
酌	-10.3776
伴	-10.3777
扃	-10.3777
濛	-10.3778
潮	-10.3779
邇	-10.378
陟	-10.378
團	-10.3781
夀	-10.3782
䕃	-10.3783
幅	-10.3783
娥	-10.3786
至眞大神無鞅之衆浮空而至	-10.379
舘	-10.379
得遇	-10.3791
迷惑	-10.3792
有數	-10.3795
方諸	-10.3797
欻火	-10.3802
俯仰	-10.3802
進士	-10.3808
受苦	-10.3813
沖和	-10.3819
豈能	-10.3824
永無	-10.3834
無間	-10.3836
既濟	-10.3836
頂門	-10.3838
貴人	-10.3841
俱入	-10.3843
火車	-10.3855
玄臺	-10.3856
别有	-10.3856
二千	-10.3866
火光	-10.3869
萬福	-10.387
少年	-10.387
室中	-10.3871
是道	-10.3871
心爲	-10.3882
此三	-10.3882
空玄	-10.3883
蹟	-10.3886
頥	-10.389
無常	-10.3891
更無	-10.3893
從來	-10.3893
玄門	-10.3895
梨	-10.3895
二十七	-10.3895
零	-10.3896
挑	-10.3898
熒惑	-10.3898
葆	-10.3898
踰	-10.3898
服氣	-10.3899
受之	-10.3899
衷	-10.3899
藍	-10.3901
眀	-10.3901
踈	-10.3901
籟	-10.3901
妨	-10.3902
鬰	-10.3906
九宮	-10.3909
朱砂	-10.391
救度	-10.3918
十里	-10.392
身命	-10.3921
玉府	-10.3922
延康	-10.3937
鬼道	-10.3939
互相	-10.3942
衣食	-10.3943
陽火	-10.3947
五穀	-10.3948
癘	-10.3951
百歲	-10.3956
紫炁	-10.3959
佩服	-10.396
黄房	-10.3967
仙籍	-10.3977
七魄	-10.3982
虬	-10.3983
正眞	-10.3984
境界	-10.3985
男子	-10.3991
青炁	-10.3992
其時	-10.3992
流傳	-10.3994
和氣	-10.3995
忽見	-10.3999
號令	-10.4003
但見	-10.4004
金丹之	-10.4006
姬	-10.4009
沓	-10.401
太皇	-10.401
祛	-10.4013
煉丹	-10.4014
墟	-10.4015
豪	-10.4015
翰	-10.4016
髻	-10.402
皎	-10.4021
譚	-10.4021
术	-10.4021
庫	-10.4022
蒲	-10.4023
遯	-10.4024
肌	-10.4024
冕	-10.4026
一身之	-10.4026
彦	-10.4027
讃歎	-10.4027
叢	-10.4027
五常	-10.4027
渺渺	-10.4027
襟	-10.4028
凖	-10.4028
捐	-10.4028
准	-10.4028
出世	-10.4034
見一	-10.4036
其本	-10.404
表裏	-10.4044
漸漸	-10.4044
永保	-10.4044
過度	-10.4044
修身	-10.4046
流火	-10.4052
昇遷	-10.4053
西嶽	-10.4056
太帝	-10.4057
也且	-10.4063
使我	-10.4064
山水	-10.4068
五雲	-10.407
見在	-10.4071
冲和	-10.4072
不如	-10.4076
隱名	-10.408
贊曰	-10.4082
神后	-10.4083
而死	-10.4087
明皇	-10.4091
千二百	-10.4093
其炁	-10.4096
日光	-10.4098
生門	-10.4098
何所	-10.41
登仙	-10.4101
顔色	-10.4103
次存	-10.4111
未分	-10.4113
聖師	-10.4115
册	-10.4116
皇人	-10.4119
所治	-10.4122
激切之至謹奉表	-10.4127
玄虚	-10.4128
播	-10.4136
未可	-10.4138
現形	-10.414
翫	-10.4141
銖	-10.4142
壽命	-10.4142
該	-10.4146
薪	-10.4147
遮	-10.4149
冤	-10.4149
袁公輔曰	-10.4151
紛紛	-10.4154
眞人志心朝禮	-10.4156
觀其	-10.4156
物外	-10.4156
吐納	-10.4157
長生久視	-10.416
聖賢	-10.4162
爲天	-10.4163
玄英曰	-10.4168
丹天	-10.4186
永離	-10.4189
形體	-10.4198
羅列	-10.4198
人得	-10.4203
無英	-10.4207
天樞	-10.4214
神功	-10.4219
未見	-10.4224
數百	-10.4224
月光	-10.4227
勝先	-10.4229
金龍	-10.4231
孽	-10.4236
群仙	-10.4246
靈臺	-10.4248
所受	-10.4256
時刻	-10.4257
往往	-10.4257
養氣	-10.4264
廷	-10.4264
汝今	-10.4265
韋	-10.4268
不從	-10.4269
詢	-10.427
受煉	-10.4271
于天	-10.4271
殻	-10.4272
嫌	-10.4272
裹	-10.4274
朋	-10.4275
求仙	-10.4275
稟	-10.4275
法籙	-10.4276
絹	-10.4277
寂滅	-10.4277
價	-10.4278
濫	-10.4279
龜蛇	-10.4283
青宫	-10.4285
各一	-10.4288
諸神	-10.4289
庚申	-10.4289
輕舉	-10.4289
紫金	-10.4292
存神	-10.4292
之極	-10.4297
參同契曰	-10.4298
白素	-10.4303
十萬	-10.4305
道妙	-10.4306
是諸	-10.4309
數年	-10.431
東嶽	-10.431
於地	-10.432
清風	-10.4326
當有	-10.433
之苦	-10.4344
之庭	-10.4345
不免	-10.4351
然則	-10.4358
安能	-10.4359
小吉	-10.4362
無差	-10.4365
金公	-10.4368
金眞	-10.4371
氣爲	-10.4374
說是	-10.4376
眞汞	-10.4377
一夕	-10.4387
徽	-10.439
仙靈	-10.4392
一息	-10.4399
善男子譬如	-10.4399
炭	-10.4401
嘘	-10.4402
油	-10.4402
淑	-10.4405
昩	-10.4406
桃康	-10.4407
袖	-10.4407
押	-10.4408
赫奕	-10.4408
靈音	-10.4413
混融	-10.4415
之衆	-10.4416
法相	-10.4421
成都	-10.4423
殺害	-10.4436
修習	-10.4437
離合	-10.4437
終於	-10.4439
其家	-10.4445
賜號	-10.4446
轉輪	-10.4449
微塵	-10.4449
香火	-10.445
伏藏	-10.4458
之路	-10.4461
疾速	-10.4464
而立	-10.4466
度生	-10.4467
分野	-10.4469
名書	-10.4469
皇天	-10.4479
青陽	-10.4483
玄壇	-10.4484
豈可	-10.4487
此人	-10.4492
五寸	-10.4493
也人之	-10.4499
視聽	-10.4499
天命	-10.4501
十日	-10.4502
神名	-10.4506
驂	-10.4519
繪	-10.4522
伍	-10.4522
苦爽	-10.4523
者有	-10.4524
殷	-10.4525
宵	-10.4525
病者	-10.4526
糧	-10.4527
其名	-10.4528
誨	-10.4533
暇	-10.4533
妾	-10.4535
燦	-10.4537
員	-10.4538
歇	-10.4538
囉	-10.4538
則是	-10.4538
弓	-10.4538
上極	-10.4542
非非	-10.4543
戍	-10.4544
分爲	-10.4544
禹餘	-10.4545
坎中	-10.4545
劄	-10.4548
流鈴	-10.4552
塵世	-10.4559
不窮	-10.4563
入聖	-10.4567
以手	-10.4567
風刀	-10.4572
二章	-10.4583
來迎	-10.4589
物物	-10.4589
寳章	-10.4589
群魔	-10.4593
將來	-10.4595
聞道	-10.4599
急急如律令召	-10.4601
道本	-10.4603
紫庭	-10.4605
之師	-10.4613
不遇	-10.4617
萬類	-10.4618
其精	-10.4619
一本作	-10.462
土地	-10.4622
所行	-10.4624
魔鬼	-10.4624
要知	-10.4629
少女	-10.4638
豁	-10.4642
至寳	-10.4652
或問	-10.4653
道化	-10.4654
者天	-10.4654
舜	-10.4654
繡	-10.4656
故知	-10.4656
陽之炁	-10.4656
玄機	-10.4656
俞	-10.4658
儉	-10.4658
緣	-10.4659
脂	-10.4661
玊	-10.4661
貼	-10.4662
涕	-10.4663
轅	-10.4663
南昌上宫	-10.4663
踐	-10.4664
朱衣	-10.4664
瓜	-10.4667
猛獸	-10.4667
上音	-10.4668
斥	-10.4669
隻	-10.467
滴	-10.467
戾	-10.467
踵	-10.467
衆妙	-10.4671
榜	-10.4672
中出	-10.4672
之鄉	-10.4672
上士	-10.4673
三辰	-10.4675
下世	-10.4676
鍊成	-10.4678
場	-10.468
六道	-10.4683
森羅	-10.4684
本性	-10.4691
接引	-10.4693
威光	-10.4694
開元	-10.4694
曰夫	-10.4695
此之謂也	-10.4702
无色界	-10.4702
也凡	-10.4703
樞機	-10.4703
遊於	-10.4714
以求	-10.4714
孰能	-10.472
何爲	-10.4731
諸侯	-10.4739
明眞	-10.4741
與天	-10.4742
行於世	-10.4742
歸命	-10.4746
其義	-10.4749
護持	-10.4756
服符	-10.4759
隱顯	-10.4761
島	-10.4765
足以	-10.4777
亦當修齋行香誦經	-10.4777
故言	-10.478
亟	-10.4781
欻	-10.4783
二十一	-10.4784
自成	-10.4786
洞虚	-10.4788
噴	-10.4789
麾	-10.479
晉	-10.479
塚	-10.479
洎	-10.479
勘	-10.4791
嗜	-10.4792
唾	-10.4793
討	-10.4793
緩	-10.4794
簇	-10.4794
生殺	-10.4796
蜕	-10.4797
平坐	-10.4799
噫	-10.4799
讚	-10.4802
道術	-10.481
呪詛	-10.4811
者言	-10.4813
其意	-10.4817
道果	-10.482
其實	-10.4823
君臣	-10.4832
之變	-10.4833
三教	-10.4835
一眞	-10.4857
官吏	-10.4859
太霞	-10.486
仙聖	-10.4862
採取	-10.4869
經中	-10.487
煥明	-10.4873
世上	-10.4881
亦當	-10.4883
黒帝	-10.4886
情性	-10.4886
守之	-10.4888
天心	-10.4889
武夷	-10.4889
其法	-10.4891
號爲	-10.4905
欲求	-10.4916
軸	-10.4917
老子曰	-10.4917
周易	-10.4921
罄	-10.4922
大臣	-10.4924
幽夜	-10.4925
乃可	-10.493
迫	-10.4931
鈎	-10.4932
件	-10.4932
閒	-10.4932
非眞	-10.4934
赫赫	-10.4937
唎	-10.4938
矣故	-10.4938
内藥	-10.4943
無知	-10.4943
沉淪	-10.4944
玉童玉女	-10.4944
經教	-10.4947
日月星宿	-10.4947
上詣	-10.4949
不遠	-10.4951
甲申	-10.4952
叉	-10.4952
師事	-10.4953
與道合眞	-10.4954
升入	-10.4959
仙去	-10.496
七世	-10.496
其日	-10.4962
根本	-10.4964
其地	-10.4966
畜生	-10.4967
長齋	-10.4967
神僊	-10.4976
未得	-10.4984
正陽	-10.4986
異香	-10.4994
右法	-10.4997
運動	-10.5001
人爲	-10.5006
養神	-10.5008
正音	-10.5009
文章	-10.5011
直至	-10.5021
歷劫	-10.5026
白玉	-10.5026
宣和	-10.503
嵩	-10.5039
之期	-10.5042
遣使	-10.5045
品訣在	-10.5051
在地	-10.5058
天書	-10.506
以制	-10.5061
則無	-10.5061
爲仙	-10.5064
閭	-10.5065
寇	-10.5066
劣	-10.5066
屬陰	-10.5066
屠	-10.5069
高上	-10.507
抛	-10.507
孩	-10.5071
之元	-10.5073
柏	-10.5073
茍	-10.5073
沾	-10.5074
酷	-10.5074
鼔	-10.5075
懽	-10.5075
天氣	-10.5075
侍郎	-10.5076
較	-10.5078
鳥獸	-10.5079
矯	-10.5081
仙經	-10.5081
婦人	-10.5086
見於	-10.5094
地祇	-10.5099
九江	-10.51
胞胎	-10.5102
金簡	-10.5108
帝尊	-10.511
休息	-10.5113
七玄	-10.5113
罪魂	-10.5114
自知	-10.5117
卯酉	-10.5121
故也	-10.5128
而不能	-10.5129
一句	-10.5129
離坎	-10.5134
上香	-10.5137
居中	-10.5137
慧光	-10.5137
玉曆	-10.5142
上聞	-10.5145
粒	-10.5146
霍	-10.5173
應時	-10.5178
圓光	-10.5181
崑	-10.5181
萬國	-10.5183
甚多	-10.5184
此二	-10.5187
僅	-10.5198
緬	-10.52
賁	-10.5201
黄書	-10.5204
幹	-10.5204
衮	-10.5204
驕	-10.5207
瑛	-10.5207
轄	-10.5207
倦	-10.5209
蠢	-10.521
亦復	-10.5212
善哉	-10.5215
先須	-10.5215
長生大君	-10.5215
字子	-10.5216
懿	-10.5217
玉經	-10.5217
生數	-10.5217
頓首	-10.5219
廕	-10.5219
讎	-10.5221
巫	-10.5224
也頌曰	-10.5226
服餌	-10.5232
歡樂	-10.5237
不作	-10.5243
善人	-10.5248
煙霞	-10.5249
學道者	-10.5251
而坐	-10.5255
藏之	-10.5257
有功	-10.5264
百二十	-10.5265
刀山	-10.5266
起於	-10.5266
此理	-10.5268
紫微宫	-10.5275
不滅	-10.5276
傳曰	-10.5277
用事	-10.5284
方知	-10.5287
學之士	-10.529
而作	-10.5294
昇玄	-10.5298
如玉	-10.5299
恍	-10.5299
輕重	-10.53
之教	-10.5303
也如	-10.5306
等衆	-10.531
玄宗	-10.531
玄天	-10.5313
九元	-10.5317
一如	-10.5318
戒者	-10.5322
牝	-10.5326
朱履	-10.5326
諦	-10.5326
皇上	-10.5334
月之	-10.5334
則知	-10.5337
閏	-10.5337
裔	-10.5342
醴	-10.5343
一國	-10.5345
創	-10.5347
墻	-10.5347
贖	-10.5348
鑊湯	-10.5348
挾	-10.5349
斑	-10.535
填	-10.535
形神俱妙	-10.535
到處	-10.535
二日	-10.5351
城隍	-10.5351
三眞	-10.5351
瓦	-10.5352
縈	-10.5353
偕	-10.5354
臘	-10.5356
喉	-10.5356
州人	-10.5358
功夫	-10.5358
其機	-10.5359
起死	-10.5365
此身	-10.5366
通天	-10.5366
依科	-10.5384
不忘	-10.5389
髙明	-10.5389
侍經	-10.5391
要在	-10.5392
萬魔	-10.5394
焚之	-10.5395
二君	-10.5403
玄炁	-10.5404
丹藥	-10.5405
身得	-10.5407
自古	-10.5407
朝禮	-10.5407
二十年	-10.5409
順行	-10.5413
黄道	-10.5413
上法	-10.5418
腹中	-10.5422
通明	-10.5425
天之道	-10.5426
得爲	-10.5432
氣氣	-10.5435
之德	-10.5435
有物	-10.5437
者必	-10.5437
發明	-10.544
昊	-10.5445
來往	-10.5446
金陵	-10.5446
書名	-10.545
玉樞	-10.545
雲霞	-10.545
谷神	-10.5453
隨其	-10.5456
高宗	-10.5459
無任感幸	-10.5472
元命	-10.5474
之時也	-10.5476
風吹	-10.5476
獵	-10.5481
妹	-10.5482
説經	-10.5482
蝗	-10.5482
貢	-10.5484
黄華	-10.5488
濤	-10.5489
囘	-10.5491
穎	-10.5493
七宿	-10.5493
旙	-10.5494
雌雄	-10.5494
大哀天尊	-10.5496
甚深	-10.5496
頤	-10.5497
熈	-10.5498
世法	-10.5499
青天	-10.5501
態	-10.5503
慈尊	-10.5505
仙家	-10.5506
甲午	-10.5512
師子	-10.5516
浮沉	-10.5518
故爲	-10.5521
而求	-10.5527
終南	-10.5528
而曰	-10.5528
由此	-10.5535
不正	-10.5536
心無	-10.5536
玉池	-10.5538
其餘	-10.5538
玉清訣	-10.5541
以養	-10.5546
玄洲	-10.5548
在前	-10.555
三十九	-10.555
四明	-10.555
不審	-10.5551
二十三	-10.5553
雲篆	-10.5553
太始	-10.5554
之訣	-10.5555
昇度	-10.5565
存念	-10.5565
圓象	-10.5569
執法	-10.5572
南上	-10.5574
圓成	-10.5575
天雷	-10.5576
聖人之	-10.5581
公曰	-10.559
言此	-10.5594
節度	-10.56
碧玉	-10.5612
七人	-10.5615
悟解	-10.5616
之患	-10.5617
内景	-10.5617
筆書	-10.5619
掾	-10.5622
鹽	-10.5626
不去	-10.5626
紫極	-10.5626
夾	-10.5627
帝敕	-10.5627
撼	-10.563
協	-10.5632
咄	-10.5632
存心	-10.5633
春分	-10.5634
溥	-10.5634
不入	-10.5634
漆	-10.5636
簾	-10.5637
忙	-10.5638
瞳	-10.564
辦	-10.5642
籠	-10.5644
當此之時	-10.5646
陽也	-10.5646
派	-10.5646
之東	-10.5647
赤龍	-10.5647
生道	-10.5649
靈寳大法	-10.565
如人	-10.5657
合成	-10.5662
救苦天尊	-10.5664
復生	-10.5665
帝命	-10.5666
五篇	-10.5667
之恩	-10.5668
炁合	-10.567
總領	-10.5674
根源	-10.568
大海	-10.568
神祇	-10.5683
經緯	-10.569
火急	-10.5694
亦无	-10.5695
財物	-10.5697
見世	-10.5701
四維	-10.5703
帝庭	-10.5708
爲火	-10.5721
赤城	-10.5735
止於	-10.5736
玄黄	-10.5737
誦呪	-10.5738
下觀	-10.5747
流布	-10.5754
降伏	-10.5754
未生	-10.5758
三世	-10.5759
煉形	-10.577
匹	-10.5771
蔣	-10.5778
欲得	-10.5779
不昧	-10.578
手足	-10.5781
歷世眞仙體道通鑑卷之	-10.5781
不許	-10.5783
岩	-10.5783
陁	-10.5784
平生	-10.5784
菩	-10.5785
慘	-10.5786
捲	-10.5786
濃	-10.5788
倘	-10.5789
跛	-10.5791
之餘	-10.5794
无所不	-10.5796
化形	-10.5796
以聞	-10.5797
三字	-10.5807
至理	-10.5815
火也	-10.5818
後聖	-10.5819
心腎	-10.5819
元始天王曰	-10.582
玄上	-10.5823
旣濟	-10.5825
飄飄	-10.5826
汞鉛	-10.5835
常人	-10.5835
形質	-10.5837
羽衣	-10.5839
當得	-10.5842
八維	-10.5843
二曰	-10.5844
其方	-10.5847
署	-10.5848
魔試	-10.5848
鼎中	-10.586
合景	-10.5862
仙童	-10.5864
唯有	-10.5865
何不	-10.5867
記云	-10.5873
人多	-10.5875
言我	-10.5878
媾	-10.5879
地户	-10.589
散花	-10.5895
无極飛天神王長生大聖无量度人	-10.5895
圃	-10.5895
地府	-10.5896
東斗	-10.5897
有象	-10.5909
有情	-10.5917
無象	-10.5917
悅	-10.5918
肥	-10.5923
金蓮	-10.5924
無心	-10.5927
針	-10.5929
芬	-10.593
替	-10.593
沃	-10.5931
三十六天	-10.5934
猪	-10.5934
結爲	-10.5934
氐	-10.5935
勲	-10.5936
閉塞	-10.5937
搏	-10.5938
七轉	-10.5938
相應	-10.5939
細塵	-10.594
芥	-10.5941
萬氣	-10.5943
頭戴	-10.5944
閻	-10.5944
大德	-10.5947
祕宻	-10.5948
甲寅	-10.595
不自	-10.5957
寂寂	-10.5957
神仙之	-10.5958
空空	-10.5966
中天	-10.5969
金銀	-10.5972
也人能	-10.5982
時時	-10.5985
四季	-10.5989
女人	-10.6002
十二人	-10.6002
握固	-10.6002
符吏	-10.6005
九過	-10.6008
天經	-10.6009
與諸	-10.6011
白天尊言	-10.6011
養炁	-10.6016
澄清	-10.6019
治在	-10.6019
高下	-10.6022
復歸	-10.6025
得道者	-10.6026
異人	-10.6032
大羅天	-10.6033
官將	-10.6035
度脫	-10.6036
長樂	-10.6039
有四	-10.6041
受其	-10.6043
雹	-10.605
皇后	-10.6062
形如	-10.6064
榖	-10.6064
相隨	-10.6068
師道	-10.6068
俠	-10.6069
洞微	-10.6073
吞之	-10.6074
訝	-10.6077
製	-10.6078
此心	-10.6079
鬢	-10.608
瘡	-10.6081
同前	-10.6082
叩齒三通	-10.6082
倏	-10.6083
厨	-10.6084
麥	-10.6086
瓢	-10.6087
奠	-10.6087
升仙	-10.6088
大梵隱語	-10.6089
黍	-10.6089
諫	-10.6089
不可得而	-10.6089
地下	-10.609
羅酆	-10.609
吼	-10.6091
顆	-10.6092
周而復始	-10.6092
鍊氣	-10.6092
飲之	-10.6093
諷	-10.6093
歲月	-10.6094
黃芽	-10.6094
誣	-10.6095
擔	-10.6095
金丹之道	-10.6096
撥	-10.6097
宫殿	-10.6098
性命之	-10.6107
一度	-10.6111
大道君	-10.6112
靈應	-10.6115
玉房	-10.6116
已身	-10.6117
元化	-10.6123
之數也	-10.6123
仙傳	-10.6125
日月五星	-10.6127
歎曰	-10.6134
不拘	-10.6134
至矣	-10.6138
唯願	-10.6144
不能自	-10.6146
天尊說	-10.6147
隱書	-10.6148
爲道士	-10.6149
真文	-10.6149
六日	-10.6151
皆可	-10.6153
更有	-10.6156
不善	-10.6157
返本	-10.6163
爲民	-10.6164
惡根	-10.6172
種子	-10.6174
祇	-10.6176
者當	-10.6179
行者	-10.618
空无	-10.6181
妙炁	-10.6183
天界	-10.6183
父子	-10.6184
有生	-10.6185
分度	-10.6185
三昧	-10.6188
乾之	-10.6191
不顧	-10.6195
而言之	-10.6202
紫氣	-10.6211
日魂	-10.6214
臟	-10.6225
疇	-10.6226
爲害	-10.6229
鐡	-10.6229
中有一	-10.623
薩	-10.623
問道	-10.6231
需	-10.6231
岐	-10.6235
襄	-10.6236
勅	-10.6237
誑	-10.6237
潰	-10.6237
纖	-10.6237
鎔	-10.6237
神鬼	-10.6238
𩔖	-10.6239
髯	-10.624
竇	-10.624
其用	-10.624
寔	-10.6244
脊	-10.6244
躔	-10.6246
悶	-10.6246
慰	-10.6246
攬	-10.6247
在下	-10.6247
舊註曰	-10.6248
叨	-10.6248
若得	-10.6248
是時一國是男是女莫不傾心	-10.625
叩頭	-10.6252
今人	-10.6255
靜而	-10.6257
數足	-10.6269
白鹿	-10.6272
千日	-10.6273
必先	-10.6273
讀誦	-10.6274
起火	-10.6282
爲地	-10.6284
不住	-10.6287
午時	-10.6287
宫室	-10.6295
靜坐	-10.6304
天河	-10.6305
河源	-10.6307
無私	-10.6307
萬物生	-10.631
一家	-10.6314
持符	-10.6314
失其	-10.632
南宮	-10.6323
兩腎	-10.6327
七炁	-10.6334
不差	-10.6339
无邊	-10.6345
須是	-10.6345
志心	-10.6352
滅形	-10.6354
外丹	-10.6356
靈寶	-10.6358
祕訣	-10.6358
無事	-10.6362
殄	-10.6363
上應	-10.6369
天地之間	-10.6369
流水	-10.6371
傳道	-10.6375
妙有	-10.6375
忻	-10.6376
見形	-10.6376
或作	-10.6377
幽關	-10.6379
豆	-10.6379
何物	-10.6381
隴	-10.6381
建立	-10.6383
徂	-10.6384
下入	-10.6385
翅	-10.6388
瀉	-10.6389
兌	-10.6389
肖	-10.6389
聊	-10.639
訛	-10.6391
果報	-10.6392
你	-10.6392
矢	-10.6392
罹	-10.6392
斂	-10.6392
蟬	-10.6394
拭	-10.6395
韜	-10.6395
賀	-10.6397
戹	-10.6398
讓	-10.6398
忿	-10.6399
拈	-10.6402
何必	-10.6402
誹謗	-10.6402
十轉	-10.6403
翌日	-10.6404
疲	-10.6405
四者	-10.641
之室	-10.6414
脱胎	-10.6418
心生	-10.6418
諦聽	-10.6422
普度天人	-10.6422
解脱	-10.6424
說此	-10.6427
百六	-10.6427
一百八十	-10.6435
超昇	-10.6441
王子	-10.6448
則能	-10.6451
無上道	-10.6454
古之	-10.6457
也或	-10.646
登明	-10.6472
相連	-10.6473
下弦	-10.6474
隱於	-10.6475
八素	-10.6477
以授	-10.6477
少君	-10.6477
四司	-10.6479
女青	-10.6479
止止	-10.6483
在我	-10.6486
不安	-10.6489
虎嘯	-10.6493
妖精	-10.6494
光景	-10.6494
殺之	-10.6498
後有	-10.6502
用此	-10.6504
山海	-10.6506
不異	-10.6509
清都	-10.6511
百關	-10.6512
陰符經	-10.6513
消魔	-10.6513
然如	-10.6515
六洞	-10.6516
上靈	-10.6519
三品	-10.652
洞庭	-10.6528
薈	-10.6528
秋分	-10.6533
九天之	-10.6534
符火	-10.6537
萊	-10.6541
恕	-10.6543
保護	-10.6543
嫁	-10.6544
憩	-10.6547
怖	-10.6548
戟	-10.6548
苑	-10.6548
伽	-10.6549
痾	-10.6549
喫	-10.655
粟	-10.6551
痊	-10.6551
若此	-10.6551
浮雲山聖壽萬年宮道士趙道一編修	-10.6551
惶	-10.6552
䖍	-10.6553
璣	-10.6555
匝	-10.6557
漁	-10.6557
法中	-10.6558
援	-10.6558
攺	-10.6559
綬	-10.6559
壓	-10.656
三千六百	-10.6561
不老	-10.6561
争	-10.6562
九還	-10.6562
降臨	-10.6563
庶幾	-10.6563
尾閭	-10.6563
符呪	-10.6563
之役	-10.6566
重樓	-10.6567
掃蕩	-10.6567
下田	-10.6567
流金	-10.6567
十月長齋誦詠是經	-10.6567
道言行道之日皆當香湯沐浴齋戒入室	-10.6569
心拜	-10.657
考校	-10.6571
丹臺	-10.6572
默默	-10.6572
之祕	-10.6573
九府	-10.6575
紫宸	-10.6576
差别	-10.6577
一切諸法	-10.6578
一國男女	-10.6579
生神章	-10.6582
月十五日	-10.6583
復卦	-10.6584
當爲	-10.6587
火火	-10.6588
正音云	-10.6588
告行	-10.6591
萬二千	-10.6592
春夏	-10.6592
形魂	-10.6596
所願	-10.6596
洛陽	-10.6596
爲物	-10.6597
滅度	-10.6601
真仙	-10.6607
徃來	-10.6608
上經	-10.6608
悟眞	-10.6609
玉京山	-10.6613
其年	-10.6616
輕慢	-10.6618
兵起	-10.6621
之西	-10.6621
之月	-10.6622
名號	-10.6622
玉臺	-10.6624
空洞之	-10.6626
直指	-10.6629
明珠	-10.6632
禳災	-10.6632
聖功	-10.6633
四面	-10.6634
金晶	-10.6636
地戸	-10.6637
傳之	-10.6644
八會	-10.6648
玉隆	-10.6649
向上	-10.6651
一片	-10.6653
金色	-10.6654
萬有	-10.6656
精誠	-10.6657
大力	-10.6666
常樂	-10.6668
無異	-10.6668
我以	-10.6671
元符	-10.6675
頂上	-10.6676
石上	-10.668
傳言	-10.6684
普天	-10.6688
杳㝠	-10.6688
電光	-10.6695
普濟	-10.6696
濡	-10.67
因果	-10.6701
幘	-10.6702
笙	-10.6704
立春	-10.6705
亦能	-10.6705
貽	-10.6707
寐	-10.6708
裴	-10.671
合符	-10.6711
奈	-10.6711
矣夫	-10.6712
靜室	-10.6713
之司	-10.6713
株	-10.6714
飮	-10.6715
婚	-10.6715
菜	-10.6718
馨	-10.6718
徼	-10.6718
渉	-10.6719
景霄	-10.672
虐	-10.672
之格	-10.6721
陽魂	-10.6723
莖	-10.6723
陰也	-10.6725
擎	-10.6726
乾元	-10.6726
魔精	-10.6727
陰氣	-10.6727
汎	-10.6728
九清	-10.6728
其志	-10.6729
何有	-10.6729
金虎	-10.6733
鄉里	-10.6733
五人	-10.6734
丹光	-10.6739
百餘年	-10.674
玉書	-10.674
太歳	-10.674
内視	-10.675
聖君	-10.6752
和平	-10.6753
寳光	-10.6756
仙師	-10.6756
主領	-10.6758
政和	-10.6758
七竅	-10.6763
易遷	-10.6763
一箇	-10.6764
有何	-10.6767
九醜	-10.677
上啓	-10.6774
不干	-10.6776
也但	-10.6777
常在	-10.6778
靈眞	-10.678
問之	-10.6782
謂曰	-10.6788
四十五	-10.679
不退	-10.6791
口鼻	-10.6794
道用	-10.6799
所修	-10.6801
亦得	-10.6801
與道合	-10.6802
保生	-10.6813
大地	-10.6818
二十三日	-10.6819
仙品	-10.6819
十華	-10.6821
律曰	-10.6822
靈明	-10.6823
文帝	-10.6832
無情	-10.6833
至大	-10.6834
九氣	-10.6839
護命	-10.684
或在	-10.6842
法事	-10.6843
腎中	-10.6846
二十九	-10.6848
在其中	-10.6851
則无	-10.6851
衆中	-10.6853
開圖	-10.6855
大如	-10.6858
火鍊	-10.6859
奢	-10.686
太明	-10.6861
修丹	-10.6864
無聲	-10.6869
咀	-10.6869
聿	-10.687
一通	-10.6871
阮	-10.6871
素靈	-10.6875
嵗	-10.6876
歘	-10.6876
絃	-10.6877
瞑目	-10.6878
敏	-10.6879
揭	-10.6879
氷	-10.6879
六氣	-10.688
耿	-10.688
產	-10.6881
不修	-10.6881
桐	-10.6881
妬	-10.6882
浙	-10.6883
裕	-10.6883
或見	-10.6883
超凡入聖	-10.6885
品卷第	-10.6888
無鞅數衆	-10.6888
月餘	-10.6898
則不能	-10.69
致雨	-10.69
校録	-10.6904
鴈	-10.6904
呼爲	-10.6905
日日	-10.6906
符召	-10.6907
太衝	-10.6908
擲火	-10.6909
洛書	-10.6911
事也	-10.6911
燈儀	-10.6912
平旦	-10.6912
統御	-10.6913
明師	-10.6914
十極	-10.6914
斬馘	-10.6917
諸經	-10.6919
虚靜	-10.6921
三曰	-10.6925
星斗	-10.6928
所求	-10.6931
交感	-10.6935
昊天	-10.6938
成真	-10.6941
三分	-10.6942
飛歩	-10.6944
而起	-10.695
次以	-10.6952
胸	-10.6952
震動	-10.6952
不可勝	-10.6954
紫煙	-10.696
光輝	-10.6961
在外	-10.6961
其徒	-10.6962
大茅	-10.6963
玉明	-10.6963
人自	-10.6966
央	-10.697
妖魔	-10.697
元靈	-10.6976
之語	-10.6979
百萬	-10.6981
不定	-10.6983
十六日	-10.6986
經籙	-10.6997
揲	-10.6999
飛度	-10.7
在中	-10.7001
天根	-10.7002
始皇	-10.701
靡不	-10.7014
以度	-10.7014
鼻引	-10.7018
人不知	-10.7021
兩目	-10.7025
荐	-10.7025
眞神	-10.7025
眞境	-10.7027
俊	-10.7028
胥	-10.7031
仙卿	-10.7035
澡	-10.7037
青紙	-10.7038
生育	-10.7038
虎豹	-10.7041
雷雨	-10.7042
悮	-10.7043
沛	-10.7044
譜	-10.7045
其次	-10.7045
赤松子	-10.7046
佩帶	-10.7048
些	-10.7048
𨽻	-10.7049
所爲	-10.7049
帷	-10.7049
一如告命	-10.705
怕	-10.7051
潘	-10.7052
頁	-10.7052
腐	-10.7053
防危	-10.7054
各以	-10.7054
神龍	-10.7055
廣成子	-10.7057
出臣身中三五功曹左右官使者侍香	-10.7059
勾陳	-10.7059
之車	-10.7063
疑惑	-10.7063
之甚	-10.7064
亘	-10.7065
鬱鬱	-10.7067
同類	-10.7067
不敬	-10.7068
㝠㝠	-10.7069
甲辰	-10.7072
其德	-10.7072
功圓	-10.7082
腎爲	-10.7085
閉息	-10.7085
方能	-10.7086
六陽	-10.7092
泥丸宫	-10.7092
三焦	-10.7093
外道	-10.7095
不足以	-10.7099
禁戒	-10.7105
飛符	-10.7107
本是	-10.7108
福田	-10.7108
長史	-10.7112
炎炎	-10.7117
而巳	-10.712
山遇	-10.712
北海	-10.7122
北辰	-10.7123
空有	-10.7132
召呪	-10.7133
四人	-10.7139
之可	-10.714
不淨	-10.7142
一遍	-10.7144
生焉	-10.7149
變易	-10.715
清靈	-10.7155
所欲	-10.7156
機也	-10.7158
實相	-10.716
天兵	-10.7161
參同	-10.7165
未悟	-10.7167
爲先	-10.7172
貴賤	-10.7173
黄衣	-10.7177
王亦保舉爾身得道者乃當洞明至言也	-10.718
梵天	-10.7183
救人	-10.7184
者是也	-10.7186
霆	-10.7186
以意	-10.7189
既得	-10.7192
大齋	-10.7192
若欲	-10.7196
無餘	-10.7196
故聖人	-10.7197
中國	-10.7197
糞	-10.72
非可	-10.72
驢	-10.7202
二陽	-10.7202
璽	-10.7204
浹	-10.7205
萃	-10.7205
雲營	-10.7205
福慶	-10.7206
徙	-10.7207
熒	-10.7208
竿	-10.7212
十二時	-10.7212
措	-10.7213
君子以	-10.7214
喧	-10.7215
姚	-10.7218
樸	-10.7218
橐籥	-10.722
懈	-10.722
重陽祖師	-10.722
宦	-10.7221
箭	-10.7222
眞妙	-10.7222
瀝	-10.7222
閲	-10.7223
鴉	-10.7223
結璘	-10.7224
莊嚴	-10.7224
玄化	-10.7225
玉童傳言玉女五帝直符直日香官	-10.7228
下界	-10.7228
會稽	-10.7229
冠帶	-10.7232
妙音	-10.7233
忠孝	-10.7233
包含	-10.7234
者多	-10.7237
萬仙	-10.7237
殺人	-10.7243
刀兵	-10.7243
司命君	-10.7246
已成	-10.7249
方得	-10.725
明道	-10.725
日在	-10.726
萬萬	-10.7262
羽化	-10.7268
火中	-10.7268
閉氣	-10.727
夫子	-10.7271
明了	-10.7273
從魁	-10.7275
也非	-10.7275
建壇	-10.7277
忘形	-10.7278
宫觀	-10.7279
紫霞	-10.7284
苦海	-10.7291
枯骨	-10.7293
曰爾	-10.7296
隨意	-10.7297
丹霞	-10.7298
又何	-10.7299
皆非	-10.7301
虚心	-10.7305
不問	-10.7306
元眞	-10.7307
中和	-10.7314
得入	-10.7314
紫素	-10.7329
有命	-10.7329
受事	-10.7334
斬邪	-10.7342
鄉人	-10.7342
參同契	-10.7345
宫主	-10.7347
靜則	-10.7352
純陰	-10.7353
之域	-10.7354
周行	-10.7359
世俗	-10.7366
珮	-10.7367
大慧	-10.7369
遘	-10.737
主之	-10.7372
眞眞	-10.7373
是何	-10.7377
眉間	-10.7377
僚	-10.7377
无英	-10.7378
道家	-10.7379
禾	-10.7382
羣仙	-10.7383
窈	-10.7385
揆	-10.7385
刊	-10.7386
滄	-10.7386
詎	-10.7386
批	-10.7386
誇	-10.7387
綸	-10.7388
嗚	-10.739
償	-10.739
暘谷	-10.7391
淮南	-10.7392
海蟾	-10.7393
竺	-10.7393
咒	-10.7394
玄功	-10.7395
長生乆視	-10.7395
供飬	-10.7395
須㬰	-10.7396
色如	-10.74
不止	-10.7401
在内	-10.7403
獨立	-10.7408
大洞眞經	-10.7409
子野曰	-10.741
天府	-10.7414
也所謂	-10.7415
吉日	-10.7415
山澤	-10.7418
敢不	-10.7419
貧窮	-10.7421
直入	-10.7421
救護	-10.7424
直事	-10.7427
玄靈	-10.7431
當願一切	-10.7432
年月日	-10.7433
曰君	-10.7435
小兒	-10.7436
朝夕	-10.7436
何故	-10.744
江南	-10.7441
持戒	-10.7445
合明	-10.7446
金火	-10.7454
口吐	-10.7458
丹訣	-10.7459
非道	-10.7461
安靜	-10.7462
青城山	-10.7462
成人	-10.7462
秋冬	-10.7465
小腸	-10.7467
六爻	-10.7471
玄通	-10.7474
見有	-10.7476
點化	-10.7478
聞此	-10.7481
香花	-10.7487
定位	-10.7487
精光	-10.7491
何也	-10.7491
萬遍	-10.7493
空歌	-10.7493
自然之道	-10.7494
如斯	-10.7496
十遍	-10.7496
青面	-10.7497
體用	-10.75
太無	-10.7503
是曰	-10.7507
上弦	-10.751
不妄	-10.751
百病	-10.7511
周遊	-10.7515
七眞	-10.7516
疆	-10.7518
腎氣	-10.7519
無任懇倒之至謹詞	-10.752
長乆	-10.7521
於我	-10.7522
者其	-10.7525
陛	-10.7525
願得	-10.7526
去後	-10.7528
行事	-10.7532
之基	-10.7532
箱	-10.7536
浮空	-10.7538
眞宗	-10.7539
兵馬	-10.754
催生	-10.7541
𠃔	-10.7544
匀	-10.7547
祉	-10.7551
佇	-10.7551
二子	-10.7552
與物	-10.7555
戚	-10.7556
懶	-10.7557
一竅	-10.7559
磬	-10.7559
此謂	-10.7559
隋	-10.756
頸	-10.756
鈆	-10.756
悖	-10.7561
酣	-10.7561
殁	-10.7561
剔	-10.7561
榻	-10.7561
跳	-10.7562
鋪	-10.7562
黄帝陰符經	-10.7564
料	-10.7565
蒂	-10.7566
玄之又玄	-10.7568
蹇	-10.7568
街	-10.7568
歸根復命	-10.7569
夢中	-10.757
明矣	-10.7571
麻姑	-10.7571
帝曰	-10.7572
烏兔	-10.7573
寥廓	-10.7574
至真大神無鞅之衆浮空而至	-10.7576
十六字	-10.7579
四聖	-10.7579
下音	-10.7581
之屬	-10.7581
侍宸	-10.7581
依前	-10.7584
之疾	-10.7585
鬱儀	-10.7586
要妙	-10.7588
州刺史	-10.7591
蛟龍	-10.7591
水火之	-10.7594
無鞅之衆	-10.7598
無遺	-10.7598
若遇	-10.7599
之火	-10.76
爲一過	-10.7608
汞也	-10.7609
邪鬼	-10.7618
五者	-10.7618
七政	-10.7621
加封	-10.7623
今在	-10.7623
隨時	-10.7624
廣寒	-10.7627
心印	-10.763
間隔	-10.7632
經書	-10.7633
修誦	-10.7635
道要	-10.7638
當來	-10.7638
位登	-10.7639
混成	-10.7644
天冠	-10.7654
列仙	-10.7661
千載	-10.7662
與日	-10.7668
合眞	-10.7674
所至	-10.7677
自可	-10.7684
身入	-10.7684
之儀	-10.7685
遞	-10.7686
云此	-10.7687
億千	-10.7687
一味	-10.7689
雌一	-10.769
即非	-10.769
時年	-10.7691
江河	-10.7691
青書	-10.7692
真靈	-10.7693
善能	-10.7696
即爲	-10.7696
洞煥	-10.7696
即有	-10.77
只在	-10.7705
人見	-10.7706
爲金	-10.7707
皓靈	-10.7708
色塵	-10.7711
旻	-10.7711
注云	-10.7715
名利	-10.7717
汨	-10.7719
劫劫	-10.772
者從	-10.772
太極眞人	-10.7721
室内	-10.7722
某等	-10.7722
乆而	-10.7723
自身	-10.7726
緘	-10.7727
不思	-10.7728
十九日	-10.7729
今爲	-10.773
上聖髙尊	-10.7731
元老	-10.7731
一言	-10.7734
二星	-10.7734
取其	-10.7736
諾	-10.7736
架	-10.7738
一切法	-10.7738
弭	-10.7739
不立	-10.774
丐	-10.7741
十徧	-10.7741
而上	-10.7741
淩	-10.7741
䘮	-10.7743
㸃	-10.7745
非一	-10.7745
恱	-10.7747
嫉	-10.7747
俄頃	-10.7747
属	-10.7748
瘞	-10.7749
盞	-10.775
不知所在	-10.776
之藥	-10.7761
喜怒	-10.7763
朝廷	-10.7765
句容	-10.7766
天地日月	-10.7767
㧞度	-10.7767
細微	-10.7769
餌之	-10.7769
道人曰	-10.7771
水神	-10.7771
並是	-10.7772
恩愛	-10.7778
已而	-10.7779
之罪或	-10.778
天庭	-10.7786
太丹	-10.779
思慮	-10.7793
長短	-10.7795
不著	-10.7797
三災	-10.7798
死亡	-10.7799
寧海	-10.7803
玄奥	-10.7804
天眞皇人曰	-10.7805
初生	-10.7806
眞心	-10.7806
不孝	-10.7812
紫皇	-10.7812
浮雲	-10.7814
斗柄	-10.7815
無終	-10.7818
蓋以	-10.7818
洞真	-10.7822
住於	-10.7824
伏望	-10.7824
不盡	-10.7828
也昔	-10.7838
九九	-10.7841
執著	-10.7843
下士	-10.7844
度魂	-10.7847
幽顯	-10.7847
相逢	-10.7847
此等	-10.785
登壇	-10.785
之卦	-10.7853
大魔王	-10.7862
雷震	-10.7865
三十年	-10.7866
應感	-10.7867
靈篇	-10.7868
心火	-10.7879
天神	-10.788
斷除	-10.7881
之年	-10.7882
天理	-10.7884
萬生	-10.7884
何時	-10.7884
禎	-10.7885
可知	-10.7886
之候	-10.7895
又如	-10.7896
以傳	-10.7896
聦	-10.7901
土爲	-10.7901
諸苦	-10.7902
信心	-10.7902
無由	-10.7907
十二年	-10.7909
忱	-10.791
彊	-10.7917
華房	-10.7917
嗣天子	-10.7918
三府	-10.7918
所由	-10.7918
恪	-10.7919
牖	-10.7921
耆	-10.7921
眞一之水	-10.7922
睿	-10.7922
冢	-10.7923
貯	-10.7924
諮	-10.7925
區區	-10.7925
儔	-10.7925
纎	-10.7926
心地	-10.7927
七百	-10.7928
道生	-10.7928
炬	-10.793
天符	-10.793
斜	-10.793
無相	-10.7932
代宗師	-10.7933
御史	-10.7933
教主	-10.7933
稽首再拜	-10.7934
方丈	-10.7938
持誦	-10.794
不堪	-10.7944
相對	-10.7948
木爲	-10.7951
景雲	-10.7954
總監	-10.7955
之戸	-10.7956
更相	-10.7956
未判	-10.7959
又能	-10.7963
朝謁	-10.7966
歸去	-10.7967
敷落	-10.7968
瓊文	-10.797
光玄曰	-10.7973
者如	-10.798
一紀	-10.7982
元和	-10.7982
不見其	-10.7985
莫知	-10.7987
不停	-10.7991
通於	-10.7995
成文	-10.7996
善根	-10.7998
指示	-10.7998
至藥	-10.8002
及至	-10.801
之命	-10.801
道在	-10.8013
執符	-10.8016
之分	-10.8017
合和	-10.802
以神	-10.8021
吞服	-10.8025
年正月	-10.8027
吾奉	-10.8029
自已	-10.803
飛走	-10.8031
黙念	-10.8036
治之	-10.8044
來生	-10.8044
罪業	-10.8052
解義	-10.8053
出没	-10.8054
言人	-10.8054
付之	-10.8059
四指	-10.8061
則曰	-10.8064
至靈	-10.8065
其一	-10.8066
時加	-10.8068
仙伯	-10.8071
故謂之	-10.8074
大哉	-10.8078
何人	-10.808
也既	-10.8082
天帝君	-10.8082
白馬	-10.8083
玄科	-10.8089
夢見	-10.8093
如何是	-10.8095
隂符	-10.8095
盪	-10.8097
殞	-10.8097
慄	-10.8101
裘	-10.8102
澹	-10.8103
萬邪	-10.8103
肌膚	-10.8104
駢	-10.8105
潛	-10.8105
混化	-10.8105
恬淡	-10.8105
濱	-10.8106
数	-10.8106
勳	-10.8108
袋	-10.8108
莽	-10.8108
囂	-10.8108
召龍	-10.8108
幕	-10.8108
漏泄	-10.8109
璇	-10.8109
杓	-10.8109
洋	-10.8109
緊	-10.8109
度數	-10.811
身有	-10.811
緋	-10.811
七日七夜	-10.811
飊	-10.8111
辟穀	-10.8111
襌	-10.8111
蘿	-10.8111
裁	-10.8112
冉冉	-10.8113
害人	-10.8113
修仙	-10.8114
鴻濛	-10.8114
前驅	-10.8114
膚	-10.8116
閉炁	-10.8116
屯蒙	-10.8116
譬喻	-10.8116
之理也	-10.8118
火燒	-10.8119
山河	-10.8119
半斤	-10.8121
太上大道君	-10.8121
空寂	-10.8121
七月長齋誦詠是經	-10.8123
䕶	-10.8123
仙曹	-10.8124
曇誓天	-10.8124
立於	-10.8124
也謂	-10.8127
謡歌	-10.8127
之表	-10.8136
而止	-10.8138
徹視	-10.8138
隨方	-10.8139
凱	-10.8139
祈雨	-10.8141
土也	-10.8144
坐卧	-10.8144
代諱	-10.8145
六通	-10.8146
於身	-10.8146
隨心	-10.8149
蕩除	-10.815
紫陽眞人	-10.8154
鬱羅	-10.8154
光芒	-10.8155
傍門	-10.8159
最爲	-10.816
皆自	-10.8161
玄丹	-10.8162
積金	-10.8164
精䰟	-10.8164
黃庭	-10.8165
鬼兵	-10.8165
頭上	-10.8167
配合	-10.8169
召靈	-10.8169
肅清	-10.8172
對齋	-10.8174
皇極	-10.8178
樓觀	-10.8181
收攝	-10.8184
流演	-10.8187
落落	-10.8187
相與	-10.8192
不難	-10.8194
萬徧	-10.8194
三卷	-10.8196
大赤	-10.8198
終身	-10.8202
周回	-10.8203
幽微	-10.8219
眞宰	-10.8221
拔出	-10.8225
之法也	-10.8229
陰功	-10.8232
鍊之	-10.8232
化作	-10.8233
碧落空歌	-10.8234
之郷	-10.8235
精心	-10.8236
而易	-10.8239
金星	-10.8239
二尺	-10.824
上白天尊	-10.824
明白	-10.824
之家	-10.8241
侍者	-10.8242
三傳	-10.8244
白簡	-10.8245
超出	-10.8245
百千萬	-10.8254
所作	-10.8256
夜光	-10.8257
金花	-10.8258
乃以	-10.8259
者何也	-10.826
此事	-10.8263
登天	-10.8268
以正	-10.8268
炁炁	-10.8271
眞金	-10.8271
五福	-10.8271
亦然	-10.8271
第三十	-10.8272
爲國	-10.8272
道流	-10.8274
相通	-10.8274
法主	-10.8275
大化	-10.8277
不宜	-10.8282
告盟	-10.8282
玃	-10.8286
綽	-10.8286
雲中	-10.8287
拆	-10.8287
百千	-10.8289
蛻	-10.8289
貟	-10.829
琪	-10.8292
不生不滅	-10.8293
轂	-10.8294
爲災	-10.8294
文武	-10.8294
葺	-10.8295
昴	-10.8296
紹興	-10.8296
俓	-10.8297
膜	-10.8297
瑠璃	-10.8298
侮	-10.8298
顚	-10.8299
翟	-10.83
奄	-10.83
化天帝	-10.8301
迥	-10.8303
一乘海空	-10.8303
擕	-10.8303
栽	-10.8304
其根	-10.8305
而不可	-10.8305
復以	-10.8305
檀	-10.8305
聽之	-10.8306
浩浩	-10.8306
無令	-10.8308
柰	-10.8308
陽爻	-10.8309
興隆	-10.8309
流火之庭	-10.8311
六腑	-10.8312
九鼎	-10.8313
毫髮	-10.8314
地中	-10.8315
一般	-10.832
二卦	-10.8323
處士	-10.8324
爐鼎	-10.8326
若有衆生	-10.8327
録籍	-10.8328
無盡	-10.8329
而終	-10.8329
還家	-10.8329
嘯詠	-10.833
六情	-10.8332
二分	-10.8336
宣揚	-10.8337
)▲(	-10.8339
欲以	-10.8342
歩虚	-10.8343
圓通	-10.8345
流轉	-10.8347
謹按	-10.8347
門外	-10.8351
周迴	-10.8353
乃命	-10.8353
發心	-10.8356
是人	-10.8356
三萬	-10.836
六時	-10.836
爲說	-10.8367
屬陽	-10.8367
九載	-10.8375
會於	-10.8375
天威	-10.8379
十人	-10.8382
起居	-10.8385
彼此	-10.8387
有司	-10.8389
又名	-10.8393
終無	-10.8401
之民	-10.8408
無二	-10.8409
還返	-10.8409
養性	-10.841
不交	-10.841
是此	-10.8411
之職	-10.8412
冲虚	-10.8413
然燈	-10.8417
每日	-10.8419
其二	-10.842
寳符	-10.8429
傳於	-10.8431
亡人	-10.8431
齊到	-10.8431
于此	-10.8437
伏魔	-10.844
之旨	-10.8442
無物	-10.8446
眸	-10.8451
不假	-10.8451
保度	-10.8453
令我	-10.8455
無任	-10.8457
髙下	-10.8461
空無	-10.8468
社令	-10.8468
璫	-10.847
祖宗	-10.8471
威德	-10.8472
爲本	-10.8472
爲大	-10.8474
艾	-10.8475
曳	-10.8477
齋醮	-10.848
姥	-10.8481
澆	-10.8482
迪	-10.8483
隨機	-10.8484
次思	-10.8484
蕃	-10.8485
淚	-10.8485
暈	-10.8486
歸于	-10.8487
績	-10.8488
鬥	-10.8488
袁	-10.849
鵲	-10.8491
陪	-10.8491
槩	-10.8492
凍	-10.8493
版	-10.8493
片餉	-10.8494
禽獸	-10.8495
踴躍	-10.8496
粲	-10.8496
苔	-10.8497
𥘉	-10.8497
金丹大藥	-10.8498
長春眞人	-10.8498
上元夫人	-10.8498
金木水火土	-10.8499
臼	-10.85
之所以	-10.8501
設醮	-10.8509
人家	-10.8513
有如	-10.8514
不經	-10.8517
年七十	-10.8519
養之	-10.8519
輕清	-10.852
去矣	-10.8521
玄精	-10.8521
月魄	-10.8526
崇寧	-10.8526
玉蟾	-10.8527
嵩山	-10.853
龍吟	-10.8531
侍女	-10.8531
不知何	-10.8533
四十年	-10.8535
神識	-10.8549
司徒	-10.8558
即此	-10.856
玉陽	-10.856
千人	-10.856
丙子	-10.8561
龍章	-10.8563
驅除	-10.8566
容易	-10.8568
之質	-10.8574
道德經曰	-10.8574
祖先	-10.8575
吾道	-10.8579
歸來	-10.8586
存之	-10.8586
小有	-10.8589
二十六	-10.8591
而用之	-10.8595
山有	-10.8601
執節	-10.8602
居於	-10.8604
壺中	-10.861
鍊精	-10.8616
數千	-10.8616
下臨	-10.8619
而傳	-10.862
太易	-10.8621
亦以	-10.8622
眞人童子	-10.8623
三山	-10.8624
冨	-10.8627
玉篇	-10.8628
小童	-10.863
皆悉	-10.863
髙真	-10.8634
少隂	-10.8635
有縁	-10.8636
南方赤	-10.864
謹召	-10.8644
朝眞	-10.8647
羅浮	-10.8647
九天之上	-10.8648
諸子	-10.8648
元宫	-10.865
於斯	-10.8652
含光	-10.8652
寳華	-10.866
彖	-10.8668
藪	-10.8673
最靈	-10.8674
靚	-10.8674
涸	-10.8675
筠	-10.8676
聖境	-10.8676
箋	-10.8676
庇	-10.8677
蠶	-10.8677
東方八天	-10.8678
幞頭	-10.8679
萬縁	-10.868
竦	-10.868
開天	-10.868
瞽	-10.868
羸	-10.8681
凋	-10.8681
釜	-10.8681
凛	-10.8681
稀	-10.8684
突	-10.8687
娑	-10.8687
雕	-10.8689
懐	-10.8689
刺	-10.869
賣藥	-10.8691
彤	-10.8692
飢渴	-10.8692
楅	-10.8692
絶粒	-10.8695
偷	-10.8696
稽首歸依虔誠讃詠	-10.8699
豫章	-10.8699
斛	-10.8699
超凌	-10.87
鍾曰	-10.87
爾時元始天尊	-10.8704
王者	-10.8707
無疆	-10.8722
升天	-10.8722
始也	-10.8722
皆因	-10.8723
所傳	-10.8727
於上	-10.8728
一小	-10.873
赦罪	-10.8738
官屬	-10.8743
會合	-10.8743
九百	-10.8744
眞風	-10.8747
仙名	-10.8747
則氣	-10.8747
下布	-10.8748
鉛中	-10.8748
其位	-10.8751
梵氣	-10.8753
龍駕	-10.8755
相剋	-10.8756
丹道	-10.8757
二十七日	-10.8764
見聞	-10.8765
含眞	-10.8765
皆在	-10.8765
萬歲	-10.8775
知識	-10.8779
烈火	-10.878
而逝	-10.8785
江海	-10.8789
蟠	-10.8789
掌握	-10.879
王相	-10.879
爲衆生	-10.879
至心	-10.8795
金房	-10.8797
神吏	-10.8803
常道	-10.8806
不達	-10.8806
以定	-10.8811
三百日	-10.8823
無過	-10.8826
通用	-10.883
天然	-10.8831
敢問	-10.8833
不調	-10.8834
不二	-10.8839
無益	-10.884
與神	-10.8841
洞達	-10.8842
眞聖	-10.8842
日新	-10.8843
祖考	-10.8843
九品	-10.8846
勿以	-10.8849
靈芝	-10.8849
▲(	-10.8853
是日	-10.8858
覺悟	-10.8859
欲知	-10.8859
龍神	-10.8864
暨	-10.887
人莫	-10.8872
婢	-10.8876
虚靈	-10.8877
如是等	-10.8877
茲	-10.8877
芙	-10.8878
八日	-10.8878
吉祥檀熾鈞	-10.8878
藻	-10.8879
流金火鈴	-10.8879
剌	-10.888
爪	-10.888
巒	-10.888
唇	-10.8881
鮑	-10.8881
螣蛇	-10.8881
娶	-10.8881
不忍	-10.8882
邃	-10.8883
姓某	-10.8883
黜	-10.8884
沒	-10.8884
抜	-10.8885
蟄	-10.8886
刋	-10.8886
三峰	-10.8886
柴	-10.8887
塘	-10.8887
靑	-10.8888
霽	-10.8888
谿	-10.8889
偽	-10.8889
鳳凰	-10.889
問曰何謂	-10.8891
除邪	-10.8891
飛空之音	-10.8895
紏	-10.8895
妙哉	-10.8896
仭	-10.8896
玄牝之門	-10.8896
復次	-10.8896
廵	-10.8897
聞是	-10.8897
之科	-10.8898
大象	-10.8899
也黄帝曰	-10.8901
無鞅	-10.8902
光玄	-10.8904
虎狼	-10.8905
三十九章	-10.8905
永斷	-10.8905
玉眸	-10.8908
其母	-10.8908
無名子曰	-10.8908
京兆	-10.8909
玉樓	-10.8912
彌羅	-10.8913
朗徹	-10.8917
不可見	-10.8919
知有	-10.892
皆空	-10.8924
仁義	-10.8925
永嘉	-10.8925
光映	-10.8929
諸大	-10.8932
天后	-10.8932
我說	-10.8933
千眞	-10.8934
今當	-10.8939
主録	-10.8941
靈天帝	-10.8942
靜定	-10.8945
神凝	-10.8946
臨軒	-10.8949
周旋	-10.895
解化	-10.8952
三四	-10.8954
妖氛	-10.8959
帝主	-10.896
無定	-10.8971
也於是	-10.8971
四寸	-10.8971
極而	-10.898
所以爲	-10.8981
靈壇	-10.8983
如雲	-10.8985
白石	-10.8989
今則	-10.8992
或問曰	-10.8998
先生姓	-10.9001
五劫	-10.9007
鼎内	-10.9008
上至	-10.9009
度仙	-10.9009
三途	-10.9014
極則	-10.9024
身輕	-10.9024
正坐	-10.9032
莊子	-10.9035
隨縁	-10.9035
風澤	-10.9047
玄文	-10.9048
難言	-10.9052
元景	-10.9056
超生	-10.906
先師	-10.906
復見	-10.906
非凡	-10.9061
䰟神	-10.9067
衆靈	-10.907
乾卦	-10.907
靈通	-10.9073
真元	-10.9073
上將	-10.9074
亡者	-10.9074
殖	-10.9075
纂	-10.9075
刻書	-10.9076
鎚	-10.9077
囑	-10.9078
真一	-10.9078
兢	-10.9079
在人身	-10.9079
汁	-10.9081
重玄	-10.9082
熊	-10.9082
羡	-10.9082
之運	-10.9083
所主	-10.9085
今古	-10.9086
蔵	-10.9088
銅柱	-10.9088
擢	-10.9089
倣	-10.909
翕	-10.909
鹹	-10.9091
闌	-10.9091
若復有人	-10.9092
攪	-10.9092
栗	-10.9092
應物	-10.9092
奴婢	-10.9092
神威	-10.9094
修眞之士	-10.9096
鳩	-10.9096
辜	-10.9097
日出	-10.9098
一方	-10.9098
七歲	-10.9099
掘	-10.91
眞士	-10.91
樣	-10.9101
牌	-10.9101
壬辰	-10.9102
土釜	-10.9104
受經	-10.9106
否泰	-10.9106
彼岸	-10.9109
海水	-10.9111
徒勞	-10.9114
山福地仙官聖衆	-10.9117
如故	-10.9117
符籙	-10.9117
玄宫	-10.9119
與天齊	-10.9119
之界	-10.9119
立教	-10.912
物我	-10.9125
仙骨	-10.9126
土皇	-10.9127
有志	-10.9128
金碧	-10.9128
開皇	-10.913
辟邪	-10.913
而反	-10.9134
十四年	-10.9141
道君諱	-10.9147
换骨	-10.915
其體	-10.9154
欲令	-10.9154
前生	-10.9155
但能	-10.9155
即時	-10.9156
三十五	-10.9157
此書	-10.9159
令其	-10.916
取捨	-10.9161
國人	-10.9161
人不能	-10.9164
所臨	-10.9165
是矣	-10.9166
與道同	-10.9167
之神也	-10.9167
髙尊	-10.9168
告命	-10.9174
年上神	-10.9175
四十八	-10.9182
自號	-10.9182
山谷	-10.9183
十方三界	-10.9188
引炁	-10.9189
也是以	-10.9192
賢者	-10.9192
入泥丸	-10.9197
城中	-10.9198
如來	-10.9199
以下	-10.9199
下爲	-10.9203
猶未	-10.9203
之奥	-10.921
太真	-10.9211
卦象	-10.9214
水帝	-10.9215
亦同	-10.9215
榮華	-10.9216
不染	-10.9218
多有	-10.9219
無虧	-10.922
朱陽	-10.922
取之	-10.9221
衆仙	-10.9223
無言	-10.923
交泰	-10.9234
爲君	-10.9237
其㫖	-10.9243
拜章	-10.9247
宫闕	-10.9253
至靜	-10.9254
請問	-10.9255
歸眞	-10.9256
中一	-10.9256
教法	-10.9257
以自	-10.9258
不空	-10.9261
召符	-10.9261
聖號	-10.9265
紫文	-10.9266
太古	-10.9266
定光	-10.9273
血食	-10.9274
同志	-10.9275
下至	-10.9275
无名	-10.9277
修奉	-10.9277
無他	-10.9278
音聲	-10.9281
確	-10.9284
至公	-10.9286
也聖人	-10.9286
槁	-10.9286
自家	-10.929
墉	-10.929
蜜	-10.9291
遜	-10.9291
葩	-10.9294
黄白	-10.9294
尊重	-10.9294
九拜	-10.9294
法王	-10.9295
三尊	-10.9295
葷	-10.9297
瑕	-10.9297
挈	-10.9298
晦朔	-10.9299
硯	-10.9299
煒	-10.93
謚	-10.93
驟	-10.9301
徇	-10.9303
一陽生	-10.9305
混洞赤文	-10.9308
魔王保舉	-10.9308
丁亥	-10.9308
三度	-10.9311
說經十遍	-10.9312
外物	-10.9313
誰能	-10.9314
道德經	-10.9315
西靈	-10.9316
超脱	-10.9318
昇降	-10.9319
開闢	-10.9319
十方无極	-10.932
崑崙山	-10.9321
眞誥云	-10.9321
咸得	-10.9322
三十五分	-10.9325
血脉	-10.9326
騰空	-10.9327
百脉	-10.9328
詩彖	-10.9328
同歸	-10.933
不可測	-10.9332
音吉祥檀熾鈞	-10.9337
幽明	-10.9343
稱揚	-10.9346
令得	-10.935
追攝	-10.9355
之場	-10.9356
子細	-10.936
不待	-10.9361
乃爲	-10.9362
立至	-10.9363
左宫	-10.9364
神童	-10.9365
殺機	-10.9365
龍山	-10.9367
元素	-10.9369
累劫	-10.9371
五天	-10.9373
不一	-10.9374
大抵	-10.9374
體道	-10.9383
難得	-10.9384
取炁	-10.9386
住世	-10.9386
疫癘	-10.9387
二十日	-10.9388
十二河源	-10.939
入妙	-10.9391
統攝	-10.9396
不衰	-10.9399
師友	-10.9402
太常	-10.9411
神力	-10.942
所載	-10.9422
靈威	-10.9425
火府	-10.9426
二十四人	-10.9427
事畢	-10.943
大帥	-10.9432
三師	-10.9433
保胎	-10.9438
八㑹	-10.9438
衆神	-10.9438
玉霄	-10.9438
所奏	-10.9438
又復	-10.9438
手把	-10.9439
道言夫	-10.9439
皆成	-10.9443
則一	-10.9444
道之人	-10.9445
召見	-10.9447
左目	-10.9448
無憂	-10.945
所不能	-10.9455
可與	-10.9455
亡過某	-10.9457
之館	-10.9462
氏之	-10.9468
開光	-10.9472
變仙	-10.9473
入地	-10.9477
覬	-10.9483
若无	-10.9486
天尊志心朝禮妙	-10.9487
君主	-10.9488
奉命	-10.9489
桐栢	-10.9493
苦趣	-10.9494
艱	-10.9495
合自然	-10.9496
餓	-10.9498
縫	-10.9499
噀	-10.9503
驪	-10.9504
渥	-10.9505
二象	-10.9505
迭	-10.9505
腑	-10.9507
變通	-10.9507
後來	-10.9508
盆	-10.9508
淘	-10.9508
注生	-10.9509
嚮	-10.9509
笥	-10.951
嫉妬	-10.9511
迨	-10.9511
随	-10.9511
瞬	-10.9511
咸使	-10.9511
風月	-10.9513
巍	-10.9514
貸	-10.9515
三部八景	-10.9516
惡鬼	-10.9516
七月七日	-10.9517
釘	-10.9517
無所不辟無所不禳無所不度無所不成	-10.9518
恠	-10.9519
甕	-10.952
赤書玉字	-10.952
純粹	-10.952
爓	-10.952
巿	-10.9521
天一生水	-10.9521
无上玄元三天玉堂大法卷之	-10.9522
十分	-10.9524
越衡天	-10.9524
無疾	-10.9525
謹爲上請	-10.9525
麽	-10.9526
鍊化	-10.9527
賢人	-10.9528
滋味	-10.9528
統領	-10.9532
卷之四	-10.9532
於前	-10.9538
髙仙	-10.9539
修行之人	-10.954
榮衛	-10.9541
錬度	-10.9543
須知	-10.9545
見性	-10.9547
解厄	-10.9547
貪愛	-10.9548
妙義	-10.9548
包羅	-10.9548
清浄	-10.9549
飛霞	-10.9552
白衣	-10.9553
何如	-10.9553
大梵之炁	-10.9554
群品	-10.9558
勤苦	-10.9559
戒之	-10.9562
元始以	-10.9569
不由	-10.9569
朗朗	-10.9569
無文不	-10.9574
陽九	-10.9574
之房	-10.9575
清微天	-10.9576
形骸	-10.9577
洞天仙官	-10.9579
坤宫	-10.9582
韓司	-10.9582
之禮	-10.9583
解悟	-10.9584
龍蛇	-10.9586
頓悟	-10.9587
火焚	-10.9588
百億	-10.9595
丹華	-10.9597
住持	-10.9599
中秋	-10.96
四十二	-10.9604
各自	-10.9604
一周天	-10.9606
于時	-10.9608
女也	-10.9613
如嬰兒	-10.9627
墨書	-10.9628
了無	-10.9632
蒼龍	-10.9633
一生	-10.9636
於是天尊	-10.9647
流霞	-10.9647
年八十	-10.9656
西方白	-10.9656
所授	-10.9657
隨吾	-10.9661
龜山	-10.9664
自然之理	-10.9671
時爲	-10.9673
福報	-10.9683
敬之	-10.9687
之誠	-10.9691
上南宫	-10.9691
强名	-10.9691
說經八遍	-10.9694
涼	-10.9695
咽之	-10.9696
金寳	-10.9698
方圓	-10.97
金甲朱衣	-10.9701
一朝	-10.9702
林木	-10.9704
災殃	-10.9704
下土	-10.9705
因此	-10.9706
受報	-10.9708
七千	-10.9709
虚无自然	-10.9709
雲飛	-10.9717
僻	-10.9718
核	-10.9719
七遍	-10.972
布炁	-10.9721
噉	-10.9722
不貪	-10.9722
流入	-10.9723
笛	-10.9724
紺	-10.9725
擘	-10.9725
嗜慾	-10.9727
輻	-10.9727
慨	-10.9729
岑	-10.9729
二神	-10.9729
棋	-10.9729
熖	-10.973
棟	-10.973
鄕	-10.9732
扁	-10.9732
睛	-10.9733
藝	-10.9733
六炁	-10.9733
章奏	-10.9734
貧賤	-10.9735
玉珮	-10.9737
租	-10.9739
欠	-10.9739
九道	-10.974
繡衣	-10.974
說經九遍	-10.9741
受錬	-10.9741
三十二天三十二帝諸天隱諱諸天隱名	-10.9741
孝道	-10.9742
烹煎	-10.9742
祭祀	-10.9743
無數	-10.9747
卷之二	-10.9747
眞一之精	-10.9752
邪見	-10.9752
在其中矣	-10.9753
二十二	-10.9754
焚符	-10.9754
篇東方八天	-10.9756
救拔	-10.9757
滯魄	-10.976
歷代	-10.9763
神遊	-10.9764
長壽	-10.9766
玄風	-10.9775
學道之人	-10.9776
殺生	-10.9777
爲吾	-10.978
返形	-10.9782
腎水	-10.9785
展轉	-10.9786
中指中	-10.9787
道境	-10.9787
八兩	-10.9789
衆真	-10.979
爲樂	-10.9793
合同	-10.9794
海嶽	-10.9796
不傾	-10.9801
雲氣	-10.9808
步虚	-10.9808
太祖	-10.9811
邪炁	-10.9811
某甲	-10.9814
盡矣	-10.9816
方平	-10.9819
修證	-10.982
金仙	-10.982
保鎮	-10.9822
者乎	-10.9822
汝當	-10.9836
庚子	-10.9837
王侯	-10.9844
子訓	-10.9851
神全	-10.9851
黄寧	-10.9853
全身	-10.9856
一兩	-10.9857
之盛	-10.9859
昭昭	-10.9861
三界之上	-10.9864
分身	-10.9864
結胎	-10.9864
陽極	-10.9868
請命	-10.9871
居此	-10.9871
冠衣	-10.9873
堂堂	-10.9877
一丈	-10.9879
之印	-10.9882
者即是	-10.9884
各隨	-10.9885
相推	-10.9888
人身中	-10.989
復來	-10.9892
心識	-10.9892
滿室	-10.9893
年命	-10.9893
天醫	-10.9894
成矣	-10.9895
小劫	-10.9896
消散	-10.9901
即見	-10.9901
瘟疫	-10.9907
白金	-10.9913
何由	-10.9915
雲霧	-10.9919
某處	-10.992
姜	-10.9923
閬	-10.9924
錦衣	-10.9926
六宫	-10.9928
紫微上宫	-10.9928
於市	-10.9931
顙	-10.9932
處處	-10.9935
無量度人	-10.994
嘿	-10.994
鈍	-10.9941
饌	-10.9944
甦	-10.9946
璘	-10.9946
悠悠	-10.9947
煌	-10.9948
滑	-10.9948
達者	-10.9948
籥	-10.9948
之辭	-10.9949
飡	-10.9949
嘆曰	-10.995
蓊	-10.995
死户	-10.995
摘	-10.995
稚	-10.9951
帝王子	-10.9952
北斗七星	-10.9953
五臟六腑	-10.9953
悃	-10.9954
樊	-10.9954
𩀱	-10.9954
盃	-10.9955
杵	-10.9956
拷	-10.9957
崆峒	-10.9957
忍辱	-10.9957
神真	-10.9957
說經十徧	-10.9958
霖	-10.9959
玄女	-10.9959
說經七遍	-10.9962
慎勿	-10.9962
有違	-10.9962
玄都四極明科曰	-10.9963
枷	-10.9963
指揮	-10.9967
丁丑	-10.9969
叫	-10.9969
削落	-10.997
散則	-10.9973
混然	-10.9979
人我	-10.9981
飛入	-10.9981
來降	-10.9981
絳闕	-10.9983
衝天	-10.9984
皇人曰	-10.9986
中央黄	-10.9989
升度	-10.9989
眞一之炁	-10.9989
身外	-10.999
無始	-10.9992
照徹	-10.9995
登山	-10.9996
虎龍	-10.9996
火池	-10.9997
直上	-10.9998
不犯	-11.0002
急急如律令敕	-11.0002
鬼精	-11.0002
超然	-11.0005
亡過某人	-11.0008
大驚	-11.001
驅邪	-11.001
炁凝	-11.001
具載	-11.0012
慕道	-11.0015
以是	-11.0021
太虛	-11.0025
雲雨	-11.0025
天地人	-11.0026
護身	-11.0032
青牛	-11.0037
聖德	-11.0037
語言	-11.0038
臍下	-11.0039
金帛	-11.0041
謹請	-11.0042
五彩	-11.0045
受符	-11.0048
開張	-11.0052
無欲	-11.0053
六度	-11.0054
千古	-11.0054
三色	-11.0055
守護	-11.0057
從之	-11.0062
長久	-11.0062
會得	-11.0064
玉泉	-11.0064
木液	-11.0064
真形	-11.0066
黑炁	-11.0066
應運	-11.0069
黒炁	-11.0072
莫知所	-11.0073
九煉	-11.0076
凡欲	-11.0087
靈府	-11.0089
始得	-11.0091
出乎	-11.0091
萬眞	-11.0092
朗然	-11.0094
遍滿	-11.0099
一千二百	-11.0099
七曲	-11.0102
乃知	-11.0105
孰爲	-11.0106
是夕	-11.0114
有五色	-11.0114
帝前	-11.0114
帝皇	-11.0116
靈寳天尊	-11.0117
紫蓋	-11.0119
靈藥	-11.0128
萬衆	-11.0132
即便	-11.0132
無功	-11.0136
御前	-11.0137
叶	-11.014
其象	-11.0141
詮	-11.0144
萬方	-11.0146
了了	-11.0146
无方	-11.0148
惟願	-11.0149
侍從	-11.015
養素	-11.0151
其中有	-11.0152
三道	-11.0158
燎	-11.0158
掖	-11.0161
遨	-11.0163
燼	-11.0163
羙	-11.0165
精舍	-11.0168
杪	-11.0168
溝	-11.0171
昂	-11.0171
夬	-11.0172
胄	-11.0172
邸	-11.0172
竪	-11.0173
詭	-11.0173
譽	-11.0174
隊	-11.0174
珏	-11.0175
浦	-11.0177
氣候	-11.0177
神水華池	-11.0177
伎	-11.0178
上宰	-11.0178
通微	-11.0179
効	-11.018
净	-11.0181
屠割	-11.0181
傳度	-11.0181
無限	-11.0181
念道	-11.0181
憚	-11.0182
而說偈曰	-11.0182
㖟	-11.0182
祺	-11.0183
牧童	-11.0183
身外有身	-11.0183
障礙	-11.0184
逰	-11.0184
七十二候	-11.0184
八威龍文	-11.0184
鍊炁	-11.0186
脇	-11.0187
說經六徧	-11.0188
說經七徧	-11.0189
說經二遍	-11.0189
煅鍊	-11.0189
倏忽	-11.019
品道言昔於	-11.019
說經三遍	-11.019
學仙之人	-11.0191
劾	-11.0191
皆即受度	-11.0192
玉匱	-11.0192
月圓	-11.0192
安穩	-11.0197
二弟	-11.02
相承	-11.021
三島	-11.021
烹鍊	-11.0212
紫陽曰	-11.0213
而返	-11.0214
來歸	-11.0214
首尾	-11.0215
太漠	-11.0216
殺伐	-11.0218
備矣	-11.0219
上帝敕	-11.022
遠遊	-11.0222
左有	-11.0227
霍山	-11.023
青童君	-11.0232
年月	-11.0233
火星	-11.0235
萬億	-11.0238
常居	-11.0239
實爲	-11.0239
闕下	-11.0241
識其	-11.0242
道俗	-11.0243
司空	-11.0243
愚者	-11.0243
昭然	-11.0246
精氣神	-11.0248
未及	-11.025
五隂	-11.0253
仰視	-11.0254
超升	-11.0257
大腸	-11.0258
罪人	-11.0259
玉英	-11.0268
洞隂	-11.0271
大事	-11.0271
之輿	-11.0276
玉籙	-11.0277
也又曰	-11.0283
虚白	-11.0284
丈餘	-11.0285
可致	-11.0285
老父	-11.0287
遥唱	-11.0288
至樂	-11.0288
黄精	-11.0288
死䰟	-11.029
雷聲	-11.0291
无上道	-11.0292
過此	-11.0298
神機	-11.03
朝拜	-11.0301
玉芝	-11.0301
道徳	-11.0307
臣今	-11.0308
陽宫	-11.0309
位居	-11.0309
永劫	-11.0311
所聞	-11.0311
作丹	-11.0312
智藏	-11.0314
之用也	-11.0316
便宜	-11.0323
不雜	-11.0328
當令	-11.0336
禮敬	-11.034
道路	-11.034
丁卯	-11.0341
一歲	-11.0343
死籍	-11.0343
石壁	-11.0344
養命	-11.0346
君名	-11.0353
郎君	-11.0354
未濟	-11.0354
災厄	-11.0354
萬物皆	-11.0356
可得而	-11.0359
初出	-11.0363
思之	-11.0363
誠心	-11.037
幽寥	-11.0372
笑而	-11.0373
司録	-11.0382
呬	-11.0386
龍文	-11.0389
正教	-11.0389
蔕	-11.0389
至士	-11.0392
左右二	-11.0396
麄	-11.0397
勃勃	-11.0401
輙	-11.0401
之根本	-11.0402
距	-11.0402
蓄	-11.0402
鑰	-11.0403
衘	-11.0404
冩	-11.0407
杏	-11.0407
佞	-11.0408
炙	-11.0409
分布	-11.0409
瘦	-11.0409
滔	-11.0409
家國	-11.041
紂	-11.041
篋	-11.0411
窒	-11.0411
隙	-11.0412
猜	-11.0413
逞	-11.0413
宋徽宗	-11.0413
東方青	-11.0415
匹配	-11.0416
扄	-11.0417
刹	-11.0418
善哉善哉	-11.0419
檢校	-11.0419
社稷	-11.0419
列聖	-11.0419
說經四徧	-11.042
漢武帝	-11.042
說經八徧	-11.042
祝融	-11.042
端的	-11.042
湛寂	-11.0421
帝真	-11.0422
說經六遍	-11.0422
說經四遍	-11.0423
孝芒天	-11.0423
下功	-11.0427
玉宸道君	-11.0428
浮空而至	-11.043
塵寰	-11.043
儼然	-11.0434
五帝大魔	-11.0434
修養	-11.0436
方一丈	-11.0438
眞一之氣	-11.0439
大法師	-11.0441
血湖	-11.0442
甲戌	-11.0442
瞻仰	-11.0444
青靈	-11.0445
化機	-11.0445
當先	-11.0445
樓臺	-11.0446
萬世	-11.0446
老君曰	-11.0449
惟有	-11.045
受法	-11.0452
三界十方	-11.0452
赴闕	-11.0455
真經	-11.046
秘訣	-11.0461
不改	-11.0464
北嶽	-11.0465
孟子	-11.0466
幽爽	-11.0468
示人	-11.0468
無漏	-11.0471
不順	-11.0472
紙上	-11.0472
悉得	-11.0473
之冠	-11.0476
無思	-11.0477
故號	-11.0483
等閑	-11.0486
皇老	-11.0489
終南山	-11.0491
猛吏	-11.0498
此物	-11.0499
故稱	-11.0503
降福	-11.0504
無傾	-11.0504
澄心	-11.0507
洞賔	-11.0508
以兩手	-11.051
不得已	-11.0511
不捨	-11.0513
法服	-11.0513
形影	-11.0514
眞源	-11.0514
玉都	-11.0517
太妙	-11.0518
說偈	-11.0525
胎根	-11.053
上清大洞	-11.0532
月十八日	-11.0535
稱慶	-11.0538
含生	-11.0539
大過	-11.0539
元綱	-11.0539
九變	-11.054
寳文	-11.0544
度天人	-11.0545
黑鉛	-11.0546
以表	-11.0547
吾將	-11.0556
五濁	-11.0557
百魔	-11.0557
祕於	-11.0558
與吾	-11.056
臨目	-11.0562
要識	-11.0562
子文	-11.0562
志士	-11.0562
者此也	-11.0566
龍鳳	-11.0568
臣聞	-11.0569
亦不能	-11.0572
雲宫	-11.0573
神聖	-11.0575
從事	-11.0575
之流	-11.0575
氣足	-11.0576
不失其	-11.058
盈虚	-11.0583
吕公	-11.0586
天恩	-11.0587
也假令	-11.0589
降于	-11.0589
不可不	-11.0589
根基	-11.0589
黄老君	-11.0591
太山	-11.0593
得解脫	-11.0595
回光	-11.0603
度師	-11.0603
下部	-11.0605
門弟子	-11.0607
上景	-11.0607
眞武	-11.0607
蒼生	-11.0612
金烏	-11.0613
謹言	-11.0614
髙清	-11.0616
形狀	-11.0616
鵠	-11.0626
諸天人	-11.0629
總眞	-11.0629
南海	-11.063
侈	-11.0631
次念	-11.0631
虚寂	-11.0634
儼	-11.0634
蹄	-11.0636
聽法	-11.0637
財寳	-11.0638
鄒	-11.0638
睦	-11.0639
嵎	-11.0639
捻	-11.064
稔	-11.0642
祥光	-11.0642
惒	-11.0642
鸞鶴	-11.0643
穩	-11.0643
大壯	-11.0644
倪	-11.0644
擅	-11.0645
昬	-11.0647
嚼	-11.0647
葫蘆	-11.0648
屈伸	-11.0649
金書祕于天之	-11.065
拍	-11.065
譔	-11.065
茫	-11.0651
綿綿若存	-11.0652
欹	-11.0653
无量无邊	-11.0654
洞宫	-11.0654
槐	-11.0654
未甞	-11.0654
收拾	-11.0656
行香誦經	-11.0657
塵埃	-11.0657
攢簇	-11.0657
說經九徧	-11.0658
撞	-11.0658
沼	-11.0658
怎	-11.0659
土受元始度人	-11.066
今號	-11.066
寳臺	-11.066
說經三徧	-11.0661
兵馬各九億萬騎太玄	-11.0661
說經五遍	-11.0661
乾道	-11.0661
亦猶	-11.0662
向來	-11.0663
阿那	-11.0664
竹杖	-11.0664
平日	-11.0667
灌注	-11.067
長生度世	-11.0671
吐毒	-11.0674
日月星	-11.0676
斡運	-11.0676
厄難	-11.0677
天上天下	-11.068
出門	-11.068
紫元	-11.0681
陰陽升降	-11.0682
上達	-11.0683
動植	-11.0689
微祝曰	-11.0689
國祚	-11.0693
拘制	-11.0694
誰知	-11.0695
惡人	-11.0695
斬滅	-11.0697
存身	-11.0697
在人爲	-11.0698
伏聞	-11.0703
豈得	-11.0707
高祖	-11.0708
靈書中篇	-11.0708
泉源	-11.0711
九泉	-11.0712
浩然	-11.0718
不知何許人也	-11.0718
不侵	-11.072
沖虚	-11.072
勉之	-11.0723
七過	-11.0724
斗牛	-11.0733
何況	-11.0741
積善	-11.0741
讀書	-11.0742
含靈	-11.0744
名言	-11.0745
無影	-11.0749
丁未	-11.0751
奉勑	-11.0752
天性	-11.0754
布衣	-11.0758
誦持	-11.0758
幽隂	-11.076
讃曰	-11.0761
任意	-11.0767
光彩	-11.0769
大旱	-11.0773
卦爻	-11.0775
返照	-11.0775
西城	-11.0787
師資	-11.0787
應聲	-11.0787
符圖	-11.0787
掌中	-11.0799
上乘	-11.0806
金錢	-11.0807
之始也	-11.0818
郡人	-11.0819
證果	-11.0821
以心爲	-11.0831
不違	-11.0834
白書	-11.0836
尖	-11.085
東方九炁	-11.085
歌音	-11.085
月朔	-11.0852
一篇	-11.0852
特賜	-11.0853
依時	-11.0856
邅	-11.0862
功名	-11.0863
覃	-11.0863
陂	-11.0863
至德	-11.0863
掐	-11.0864
三晨	-11.0865
從容	-11.0866
慙	-11.0867
混一	-11.0868
豹	-11.0871
某誠感誠慶頓首頓首再拜謹言	-11.0874
惚	-11.0874
矧	-11.0876
嘻	-11.0877
鏗	-11.088
拾	-11.0882
法性	-11.0882
荀	-11.0883
堆	-11.0884
殺鬼	-11.0884
繿	-11.0887
挽	-11.0889
鉤	-11.0889
岫	-11.0889
疾疫	-11.0889
哺	-11.0889
摹	-11.0889
肘	-11.089
垠	-11.0891
訣云	-11.0891
暁	-11.0891
筌蹄	-11.0891
鑽	-11.0892
袂	-11.0892
曹仙官太玄女青下元	-11.0893
萬彚	-11.0893
峨	-11.0893
彌綸	-11.0893
並皆	-11.0894
囿	-11.0894
夾脊	-11.0894
面東	-11.0894
巷	-11.0894
籌	-11.0895
輸	-11.0895
瘵	-11.0895
迂	-11.0895
蝶	-11.0896
皇甫	-11.0896
斃	-11.0897
一枚	-11.0897
之君中有	-11.0897
薰蒸	-11.0897
渚	-11.0898
壅	-11.0898
監生大神	-11.0898
形神俱妙與道合眞	-11.0899
泰定	-11.0899
北都羅酆	-11.09
說經五徧	-11.0901
返本還元	-11.0901
右目	-11.0901
猛火	-11.0901
這箇	-11.0902
至心皈命禮	-11.0903
徐徐	-11.0903
金璫	-11.0903
丙午	-11.0903
葛洪	-11.0904
航	-11.0904
懈怠	-11.0904
塡	-11.0905
肘後	-11.0906
玄都玉京	-11.0906
恰	-11.0907
吟詠	-11.0907
解結	-11.0907
滄海	-11.0907
鬱勃	-11.0908
畿	-11.0908
虧盈	-11.0908
著書	-11.0908
決定	-11.0909
總括	-11.0911
右件	-11.0912
三寶	-11.0912
空虚	-11.0913
𠔃	-11.0913
江湖	-11.0914
可乎	-11.0916
曰昔	-11.0919
鬼門	-11.092
影響	-11.0921
頑空	-11.0922
騎吏	-11.0924
陰炁	-11.0924
至眞大神	-11.0924
以俟	-11.0925
和暢	-11.0926
乙未	-11.0926
丹基	-11.0931
人不識	-11.0932
卷之五	-11.0933
金闕帝君	-11.0933
四直	-11.0934
斬絶	-11.0935
本始	-11.0936
玄景	-11.0939
遊戲	-11.0941
畢竟	-11.0941
靈源	-11.0944
誓願	-11.0944
州縣	-11.0944
右手執	-11.0945
性情	-11.0949
升遷	-11.0957
有一人	-11.0958
方隅	-11.0959
告文	-11.0959
諸天大聖	-11.0963
三十三	-11.0964
守靜	-11.097
智者	-11.0971
百邪	-11.0972
吾當	-11.0974
亦如之	-11.0981
受福	-11.0987
科曰	-11.0987
度南宫	-11.0987
地雷	-11.0994
世傳	-11.0999
仙階	-11.1
正位	-11.1003
眞思	-11.1004
未有不	-11.1005
合天地	-11.1008
爐中	-11.101
鍊就	-11.1016
雲房	-11.1018
一百五十	-11.1023
有病	-11.1025
黄紙	-11.1026
帝晨	-11.1028
風伯	-11.1035
結而成	-11.104
天闕	-11.1043
應變	-11.1045
聚散	-11.1047
凡所	-11.1053
來朝	-11.1056
墮地獄	-11.1058
北元	-11.106
中庸	-11.1061
追度	-11.1062
王氏	-11.1064
相續	-11.1064
欣然	-11.1069
端正	-11.107
何得	-11.1073
所指	-11.1077
干犯	-11.108
大慈悲	-11.1081
爰有	-11.1087
利物	-11.1088
敢忘	-11.1089
史崇	-11.1092
骨髓	-11.1094
於中宫	-11.1095
勝因	-11.1096
往還	-11.1098
化育	-11.1099
洗心	-11.1108
普化	-11.111
此所以	-11.1111
德行	-11.1113
慈光	-11.1114
木郎	-11.1115
七覺	-11.1117
邢	-11.1121
駿	-11.1122
沴	-11.1122
钁	-11.1122
仰觀	-11.1124
一條	-11.1124
茹	-11.1126
芟邪	-11.1128
躁	-11.1128
斟	-11.1129
繇	-11.113
嶷	-11.1133
燄	-11.1134
賫	-11.1135
同卷	-11.1136
擣	-11.1137
簪	-11.1137
頽	-11.1138
蹊	-11.1138
評	-11.1138
苴	-11.1138
得失	-11.1139
茯苓	-11.1139
手持	-11.1139
吾昔	-11.114
届	-11.1141
神仙之道	-11.1141
耦	-11.1142
湧泉	-11.1142
朵	-11.1142
斡旋	-11.1143
劑	-11.1143
宗祖	-11.1143
與汝	-11.1144
掣電	-11.1145
盂	-11.1145
擺	-11.1146
毓	-11.1146
甜	-11.1146
西江月	-11.1147
溟泠	-11.1147
青雲	-11.1147
蚩尤	-11.1148
混合百神	-11.1148
三官九府	-11.1149
峭	-11.115
陶鑄	-11.1151
琳琅	-11.1151
地上外音	-11.1152
督	-11.1152
仙童玉女	-11.1153
魏夫人	-11.1153
皆受護度咸得長生道言是時	-11.1154
同體	-11.1155
本命之日	-11.1155
謨	-11.1156
百餘歲	-11.1156
萬劫一傳	-11.1156
磚	-11.1156
喝	-11.1156
鬭	-11.1156
上徹	-11.1157
輔翼	-11.1158
唯願天尊	-11.1158
無際	-11.1159
蠢動	-11.116
單衣	-11.116
捷疾	-11.1161
童顔	-11.1166
分別	-11.1166
五色雲	-11.1166
興雲	-11.1167
自然而然	-11.1167
少頃	-11.1169
差殊	-11.1172
年二十	-11.1176
停輪	-11.1178
飛天神人	-11.1178
黄雲	-11.1179
一尺	-11.118
四瀆	-11.118
密呪曰	-11.1184
遇至人	-11.1185
凡遇	-11.1187
莫非	-11.1188
忘言	-11.1188
養育	-11.1189
相和	-11.119
七百年	-11.1192
官君	-11.1192
通幽	-11.1196
呪水	-11.1198
玄圃	-11.12
破獄	-11.1201
執斧	-11.1201
偃月	-11.1202
開導	-11.1204
愛河	-11.1206
救濟	-11.1207
瓊臺	-11.1209
又存	-11.1209
死戸	-11.121
妄作	-11.1212
恭惟	-11.1216
氣散	-11.1218
重濁	-11.1218
爾身	-11.1221
无上玄元太上道君召	-11.1223
奉迎	-11.1224
同學	-11.1226
法師曰	-11.1229
火炎	-11.1234
金容	-11.1236
九寸	-11.1236
濟人	-11.124
鬼魔	-11.124
九十日	-11.1241
慎之	-11.1243
鬼賊	-11.1244
王公	-11.1253
無端	-11.1255
甲庚	-11.1255
及夫	-11.1262
無色界	-11.1265
龍蟠	-11.1265
備足	-11.1265
土星	-11.1268
滅盡	-11.1271
丹霄	-11.1273
七七	-11.1275
正念	-11.1278
水中金	-11.1282
華陰	-11.1283
矣遂	-11.1286
十八年	-11.129
此義	-11.1295
九芒	-11.1301
行藏	-11.1303
感化	-11.1305
奉戒	-11.1306
之輦	-11.1307
青龍白虎朱雀玄武	-11.1312
君諱	-11.1315
精修	-11.1317
莫能知	-11.1317
所向	-11.1317
洞門	-11.1319
天地造化	-11.1336
善種	-11.1337
二篇	-11.1342
始知	-11.1343
九曲	-11.1343
九老	-11.1346
一半	-11.1348
先亡	-11.1348
千千	-11.135
得之者	-11.1354
紫書	-11.136
坐忘	-11.1361
駕龍	-11.1364
南丹	-11.1364
入腹	-11.1365
妄言	-11.1366
不怠	-11.1366
交結	-11.1372
筮	-11.1374
觴	-11.1376
志心朝禮	-11.1382
返還	-11.1384
十一年	-11.1385
醖	-11.1385
唵吽吽	-11.1386
不答	-11.1387
人倫	-11.1388
須延	-11.1389
圖書	-11.1389
狄	-11.1393
御製	-11.1394
㣲	-11.1394
菌	-11.1395
寤	-11.1395
婦女	-11.1396
罵	-11.1396
廊	-11.1398
汴	-11.1398
十通	-11.1398
旂	-11.1398
線	-11.14
太微天帝君	-11.1401
大悲大願大聖大慈	-11.1401
毗	-11.1401
衲	-11.1402
脾胃	-11.1403
冑	-11.1403
眞鉛眞汞	-11.1403
涌	-11.1404
媚	-11.1404
樞紐	-11.1406
旦夕	-11.1406
酥	-11.1407
當此之時喜慶難言法事粗悉諸天復位	-11.1407
髣髴	-11.1408
闘	-11.1408
齊同慈愛異骨成親國安民豐欣樂太平	-11.1408
恤	-11.1408
說經二徧	-11.1409
八角垂芒	-11.1409
聖位	-11.141
古歌曰	-11.141
伯陽	-11.1412
無色之境梵行東方八天	-11.1413
污	-11.1414
無極無量品	-11.1416
太乙元精	-11.1418
瑶池	-11.1419
削除	-11.1427
五老上帝	-11.1429
清凉	-11.1429
夭傷	-11.143
黑雲	-11.143
利貞	-11.1434
瓊輪	-11.1435
國家	-11.1439
豁然	-11.144
道本無	-11.1441
金壇	-11.1442
后土	-11.1443
此三界之上飛空之中	-11.1449
翠虚	-11.1453
泛景	-11.1454
丁巳	-11.1456
不可輕	-11.1458
遠矣	-11.1459
長嘯	-11.146
願聞	-11.1461
關告	-11.1463
民物	-11.1466
未必	-11.1466
竟不	-11.1468
須要	-11.1469
禮樂	-11.147
炎帝	-11.1473
染著	-11.1473
長生之道	-11.1477
元始一炁	-11.1479
無涯	-11.1479
幽玄	-11.1484
何異	-11.1491
穢氣	-11.1492
束形	-11.1492
報對	-11.1493
中孚	-11.1494
不移	-11.1495
如此則	-11.1496
釋曰	-11.1497
長沙	-11.1498
三花	-11.1503
交接	-11.1505
畢矣	-11.1507
洞浮	-11.1511
胎光	-11.1512
舉手	-11.1515
何能	-11.1521
上卷	-11.1522
啓請	-11.1525
下卷	-11.1531
所啓	-11.1531
關啓	-11.1532
數里	-11.1541
抱陽	-11.1544
通真	-11.1545
冥官	-11.1546
天地之根	-11.1547
酒色	-11.1548
不聽	-11.1549
鏡中	-11.1549
專一	-11.1551
山頭	-11.1554
深重	-11.1557
請師	-11.1559
只要	-11.1564
思念	-11.1564
此八字	-11.1569
五十五	-11.1582
本源	-11.1584
二十八日	-11.1587
左府	-11.159
頂中	-11.159
宣告	-11.1592
巽風	-11.1592
玉契	-11.1594
九都	-11.1598
蓮華	-11.1602
尋眞	-11.1611
不乆	-11.1618
必當	-11.1621
紫衣	-11.1623
天柱	-11.1624
燔	-11.1628
金科	-11.1629
粤	-11.163
飴	-11.1635
隱形	-11.1637
七尺	-11.1639
精勤	-11.1639
除殃	-11.1639
輅	-11.164
鐸	-11.1643
炎光	-11.1644
呂	-11.1647
𥙷	-11.1648
韞	-11.1648
屬金	-11.165
地司	-11.165
眩	-11.1651
娠	-11.1652
邪怪	-11.1653
汩	-11.1653
霓	-11.1654
聘	-11.1659
呌	-11.1659
浣	-11.1659
椿	-11.1662
曹仙官太玄女青中元	-11.1663
綴	-11.1663
霏	-11.1663
司命司録	-11.1663
汪	-11.1663
袐	-11.1665
眞陰眞陽	-11.1665
玉晨道君	-11.1666
五靈玄老	-11.1666
茫茫	-11.1667
婉	-11.1667
菩提	-11.1668
衫	-11.1669
觀天之道執天之行盡矣	-11.1669
祖禰	-11.1671
說經都竟衆眞監度以授於我	-11.1671
麒麟	-11.1671
煥爛	-11.1671
畢乃口微祝曰天上内音	-11.1672
㦸	-11.1672
曩	-11.1672
爲國王帝主君臣父子安	-11.1673
枝葉	-11.1673
鬱單	-11.1673
法輪之門	-11.1677
思邈	-11.1677
普告三界	-11.1678
九鳳	-11.1678
上古	-11.1679
簷	-11.168
南方火	-11.1681
圍繞	-11.1681
藥材	-11.1681
無量度人上品妙經	-11.1683
緫領	-11.1684
咸臻	-11.1685
昏昏	-11.1686
眞訣	-11.1689
九色之	-11.1692
凡有此災	-11.1693
神霄玉清	-11.1694
七祖父母	-11.1696
輪廻	-11.1698
在人間	-11.1699
判官	-11.1703
五榖	-11.1705
長生大帝	-11.1705
哀尊	-11.1706
坤卦	-11.1707
震兊	-11.1707
黄庭經	-11.1709
塵勞	-11.171
保安	-11.1712
四象五行	-11.1712
劫數	-11.1713
愼勿	-11.1715
祝畢	-11.1715
降鑒	-11.172
丹竈	-11.1721
毫分	-11.1721
雲輿	-11.1724
諸司	-11.1726
佩身	-11.1727
經營	-11.1728
數十年	-11.1732
俗人	-11.1732
混沌之中	-11.1733
九炁青天	-11.1733
命魔	-11.1743
大羅玉清	-11.1743
道眼	-11.1752
兵戈	-11.1755
河伯	-11.1758
立冬	-11.1759
弱水	-11.1763
丘山	-11.1763
未易	-11.1765
返老	-11.1769
三部	-11.1774
濟物	-11.1781
謝過	-11.1781
開目	-11.1783
服藥	-11.1783
毎日	-11.1793
玄圖	-11.1795
飛華	-11.1797
仙樂	-11.18
舊文	-11.1805
人之所	-11.181
設教	-11.181
安泰	-11.1815
玄恩	-11.1816
關節	-11.1818
土木	-11.1818
物類	-11.1818
青霞	-11.182
每月	-11.1827
服色	-11.183
禀受	-11.1831
六賊	-11.1834
下教	-11.1836
苦魂	-11.1846
只此	-11.1853
不曾	-11.186
腎炁	-11.1863
白元君	-11.1872
十三年	-11.1878
辰上神	-11.1881
祕要	-11.1883
黃金	-11.1888
萬品	-11.1892
幽㝠	-11.1895
熠	-11.1896
教門	-11.1904
直下	-11.1904
敞	-11.1906
麓	-11.1908
釁	-11.191
主吏	-11.1914
總是	-11.1914
沌	-11.1919
遙	-11.192
矩	-11.1922
魒	-11.1923
龍虎交媾	-11.1928
斯文	-11.1929
寂寞	-11.1929
痕	-11.1929
忤	-11.1929
昉	-11.193
巧拙	-11.193
諸天諸地	-11.1931
券	-11.1931
軟	-11.1932
勇猛	-11.1932
孝悌	-11.1932
胷	-11.1933
臆	-11.1934
一毫	-11.1934
款	-11.1934
保胎護命	-11.1934
千變萬化	-11.1934
上品妙首	-11.1935
肢體	-11.1935
稻	-11.1935
聯	-11.1936
鯨	-11.1936
王屋山	-11.1936
蹠	-11.1936
遨遊	-11.1936
祈晴	-11.1937
掣	-11.1937
降眞延壽	-11.1937
徽宗	-11.1937
燧	-11.1937
景貺	-11.1938
束首鬼精自亡琳琅振響十方肅清河海	-11.1939
絕	-11.194
杳杳冥冥	-11.194
太靈	-11.1941
温温	-11.1942
叩齒三十六通	-11.1942
庚寅	-11.1942
徑御无上三十二天元始上帝至尊几前	-11.1942
不知所之	-11.1942
皇曽天	-11.1943
堂修行至經无量度人願所啓上徹	-11.1945
周回十方	-11.1947
華胥	-11.1947
章謹請	-11.195
何童天	-11.1951
大洞仙經	-11.1954
破壞	-11.1956
元始祖炁	-11.1956
刀利	-11.1957
久久	-11.1961
碧霄	-11.1961
瑶臺	-11.1962
列位	-11.1963
士庶	-11.1966
不仁	-11.1967
二十四獄	-11.197
萬般	-11.1974
向外	-11.1975
白紙	-11.198
建康	-11.199
足矣	-11.199
无量大神	-11.199
普照	-11.1993
不勞	-11.1994
賜紫	-11.1996
化生諸天	-11.1997
五府	-11.1997
冲天	-11.1997
乗雲	-11.1998
丹井	-11.2
妙成天	-11.2001
色青	-11.2003
九層	-11.2005
積功	-11.2014
微呪曰	-11.2017
伏尸	-11.2018
謝罪	-11.2019
考罰	-11.202
得道之人	-11.2023
屬木	-11.2023
周徧	-11.2023
十方諸天	-11.2025
可贈	-11.2034
雷風	-11.2035
之神中有	-11.2039
專心	-11.2045
和釋	-11.2049
治國	-11.2051
十二辰	-11.2063
致使	-11.2064
戊子	-11.2064
猶在	-11.2065
長男	-11.2065
正直	-11.2067
各一人	-11.2072
甲子日	-11.2075
疾苦	-11.2078
入靖	-11.2078
地肺	-11.2087
上篇	-11.2089
陰鬼	-11.2098
必獲	-11.2106
合而成	-11.2112
善果	-11.2113
依此	-11.212
離苦	-11.2128
玉宸大道	-11.2131
靜思	-11.2133
至眞大神无鞅之衆浮空而至	-11.2134
敬禮	-11.2142
了悟	-11.215
舍人	-11.2153
夜夢	-11.2155
未始	-11.2157
匱	-11.2161
定志	-11.2162
飛輪	-11.2172
絶滅	-11.2175
八冥	-11.2177
也子野曰	-11.2183
掇	-11.2183
幾時	-11.2184
召集	-11.2186
降魔	-11.2187
焚修	-11.2189
漬	-11.2189
着靴	-11.219
先存	-11.2191
匣	-11.2192
汾	-11.2193
坡	-11.2194
綜	-11.2196
織	-11.2196
不倦	-11.2198
圜	-11.2199
灌溉	-11.2199
終不能	-11.22
闈	-11.2201
綏	-11.2201
東西南北	-11.2203
一如告命風火驛傳	-11.2204
歩斗	-11.2204
瑟	-11.2205
汧	-11.2205
少好道	-11.2205
咨	-11.2206
仗劒	-11.2206
榆	-11.2207
廚	-11.2209
尹喜	-11.221
薑	-11.2212
戊辰	-11.2212
咫尺	-11.2213
五嶽四瀆	-11.2213
艷	-11.2213
凑	-11.2213
庚辰	-11.2213
恁	-11.2213
隱祕之音	-11.2214
瘥	-11.2214
蟻	-11.2214
爲諸衆生	-11.2215
大如黍米	-11.2215
喚	-11.2216
詵詵	-11.2216
甘泉	-11.2216
棄殻	-11.2216
極樂	-11.2216
燃	-11.2217
火生於木	-11.2217
秪	-11.2217
揣	-11.2218
運應滅度身經太隂臨過之時同學至人	-11.2218
如彼	-11.2218
颺	-11.2218
拓	-11.2218
亞	-11.2219
内諱名字鎭我	-11.2219
沈淪	-11.222
勑劉混康	-11.2221
侔	-11.2221
衣朱履	-11.2221
鐺	-11.2221
娱	-11.2221
天中空洞自然靈章諸天隱韻	-11.2223
劫仞	-11.2223
八萬四千	-11.2224
戊戌	-11.2224
偈頌	-11.2224
有知其音能齋而誦之者諸天皆遣	-11.2224
承禎	-11.2226
者道之	-11.2227
等志心歸命禮願稽首讃嘆	-11.2227
六十卦	-11.2227
揚州	-11.2228
積德	-11.2228
所以者何	-11.2228
學道之士	-11.2228
圎滿	-11.223
六親	-11.2233
耗散	-11.2234
己酉	-11.2236
十洲	-11.2237
元始无量度人上品妙經卷之	-11.224
營衛	-11.224
益筭	-11.2245
間斷	-11.2247
敷演	-11.225
脫胎	-11.225
最勝	-11.225
延陵	-11.2255
吾不知其	-11.2258
兩箇	-11.2265
五億	-11.2267
亦不可	-11.2275
感格	-11.2276
此經微妙普度無窮一切天人莫不受慶	-11.2279
深處	-11.2279
根塵	-11.2286
雲錦	-11.2288
飄然	-11.229
然後可以	-11.229
天地之數	-11.2296
監舉	-11.2303
解說	-11.2309
與語	-11.231
三徧	-11.2311
反復	-11.2313
精微	-11.2315
思微	-11.2324
碧空	-11.2331
宿對	-11.2337
滅亡	-11.2338
異類	-11.2355
汞汞	-11.2356
坎位	-11.2359
三徒	-11.2363
韓君	-11.2363
回旋	-11.2372
壬子	-11.2374
莊子曰	-11.2376
驚異	-11.2383
長房	-11.2388
洞室	-11.2391
星曜	-11.2408
妙訣	-11.2409
不知何許人	-11.2413
斬鬼	-11.2414
皛	-11.2416
五苦八難	-11.2418
北府	-11.2418
目前	-11.2419
獲福	-11.2425
長養	-11.243
咸陽	-11.2434
我界	-11.2434
彌明	-11.2436
在目前	-11.2442
飛揚	-11.2442
入丹田	-11.2442
何哉	-11.245
昨夜	-11.245
貪嗔	-11.2451
毒龍	-11.2451
甚重	-11.2451
屬水	-11.2457
棘	-11.2458
七情	-11.2463
坎宫	-11.2465
舂	-11.2465
走失	-11.2466
殯	-11.2468
虛無	-11.247
無停	-11.2471
夔	-11.2473
仗劔	-11.2473
蓍	-11.2474
某誠感誠慶頓首頓首再拜上言	-11.2476
如何得	-11.2478
劈	-11.2479
顒	-11.2481
惕	-11.2483
檜	-11.2484
夐	-11.2484
逍遙	-11.2484
哥	-11.2485
良常	-11.2485
矛	-11.2486
堵	-11.2488
賚	-11.249
烜赫	-11.2492
查	-11.2492
吝	-11.2492
傑	-11.2493
杏林	-11.2493
膠	-11.2494
餅	-11.2494
富國安民	-11.2495
迓	-11.2495
𡨋	-11.2495
洪崖	-11.2495
来	-11.2496
吿下	-11.2497
四極明科	-11.2497
四序	-11.2499
脯	-11.25
織女	-11.25
訥	-11.2501
捷徑	-11.2501
廨	-11.2501
百六十	-11.2502
攢	-11.2502
帖	-11.2502
劃	-11.2502
太倉	-11.2502
姻	-11.2502
業報	-11.2503
文昌大洞玉章第	-11.2503
侍郞	-11.2503
瀟	-11.2503
元亨利貞	-11.2503
過結作	-11.2504
無窮萬神咸聽三界五帝列言上清	-11.2504
踞	-11.2504
無鞅數衆乗空而來	-11.2505
椎	-11.2506
鉢	-11.2507
五帝直符各三十二人	-11.2507
懲	-11.2507
惺惺	-11.2508
陶隱居	-11.2509
遊行太空	-11.2509
鼓舞	-11.251
綱維	-11.2511
去奢	-11.2511
筋骨	-11.2513
乃昇此天	-11.2514
純熟	-11.2518
至孝	-11.2518
瑩徹	-11.252
塵垢	-11.252
講說	-11.2521
安國	-11.2523
古仙	-11.2526
辛苦	-11.2527
祈禳	-11.2527
符篆	-11.2529
洞玄靈寳	-11.2529
朗耀	-11.2529
尊卑	-11.253
鬼魅	-11.253
市中	-11.2531
鬱秀	-11.2532
曹仙官太玄女青上元	-11.2535
爾等	-11.2537
宣說	-11.2537
流芳	-11.2539
砂汞	-11.254
地軸	-11.2542
不復見	-11.2545
禁上天	-11.2546
慈憫	-11.2547
造作	-11.2551
蕩穢	-11.2552
仁慈	-11.2553
十三日	-11.2555
玉漿	-11.2557
示現	-11.2558
不得妄	-11.2564
紫賢	-11.2566
相尅	-11.2566
五芽	-11.2567
丈夫	-11.2569
書寫	-11.2578
果然	-11.258
掃除	-11.2581
曹治	-11.2582
此所謂	-11.2583
右腎	-11.2585
貪求	-11.2588
嘉定	-11.2589
紫户	-11.2593
門戸	-11.2596
與天地同	-11.26
盟誓	-11.2602
眼目	-11.2606
辟非	-11.2609
神農	-11.2613
之至也	-11.2613
黄河	-11.2616
光耀	-11.2619
肝氣	-11.2622
司迎	-11.2624
福禄	-11.2625
赤色	-11.2628
消禳	-11.2632
彩雲	-11.2634
制御	-11.2635
悉令	-11.2637
驅雷	-11.2641
頭面	-11.2644
孛	-11.2648
育養	-11.2649
斬妖	-11.2649
下統	-11.265
衣裳	-11.2654
髙功	-11.2661
曲江	-11.2665
咽氣	-11.2666
華陽洞	-11.2669
二卷	-11.2671
元辰	-11.2673
奏聞	-11.2674
照燭	-11.2675
衡山	-11.2678
幾何	-11.2678
金砂	-11.2687
斯道	-11.2688
相接	-11.2691
貪欲	-11.2698
忽聞	-11.2725
萬卷	-11.2735
昔日	-11.2742
辰星	-11.2745
放下	-11.2746
斗極	-11.2747
拜謝	-11.2749
召魂	-11.2751
炁一口	-11.2751
勤修	-11.2754
然後而付焉道言夫	-11.2764
出現	-11.2764
涂	-11.2765
九曜	-11.2765
咤	-11.2765
始青天	-11.2766
二十四氣	-11.2766
五炁玄天	-11.2767
橐	-11.2767
山頂	-11.2771
憤	-11.2775
不墮	-11.2776
甄	-11.2777
鑚	-11.2778
莭	-11.2778
藩	-11.278
駡	-11.2781
瞿	-11.2783
煅煉	-11.2784
玉清境	-11.2784
善男子若有衆生	-11.2786
壷	-11.2786
倩	-11.2786
股	-11.2786
剡	-11.2786
強	-11.2786
晷	-11.2786
耳聞	-11.2787
色赤	-11.2787
墀	-11.2787
修學	-11.2788
韓君丈人	-11.2788
羈	-11.2788
强兵戰勝	-11.2789
泳	-11.279
弈	-11.279
醴泉	-11.279
叛	-11.279
上解祖考億劫種親	-11.279
濳	-11.279
訴	-11.2791
惻	-11.2791
鵬	-11.2791
寂然不動	-11.2793
哀愍	-11.2793
坑	-11.2794
暘	-11.2795
喘	-11.2795
翮	-11.2795
媪	-11.2796
鬻	-11.2797
巵	-11.2799
埏	-11.2799
天丁力士	-11.2799
本起録云	-11.28
腰帶	-11.28
鷹	-11.28
蕩滌	-11.28
八節之日誦詠是經	-11.2802
周迴十方	-11.2802
格皆九年受化更生得爲貴人	-11.2803
𨇠	-11.2804
琚	-11.2805
振響	-11.2805
故經云	-11.2805
東向叩齒三十二通上聞三十二	-11.2805
穆王	-11.2807
啞	-11.2807
爲其行香誦經十過以度屍形如法	-11.281
九玄七祖	-11.281
跣足	-11.2812
兵革	-11.2812
華林	-11.2812
給玉童玉女各	-11.2813
禁忌	-11.2816
沉滯	-11.2821
淺深	-11.2822
雷車	-11.2822
羅絡	-11.2822
演化	-11.2822
賢愚	-11.283
天眞大神	-11.2832
坦然	-11.2833
惡趣	-11.2834
六十四字	-11.2835
騰騰	-11.2837
尋常	-11.2838
總統	-11.284
震巽	-11.2843
定息	-11.2844
覆載	-11.2845
變化無窮	-11.2846
各三十二人關啓所言今日吉慶長齋	-11.2848
寒池	-11.2849
部領	-11.2852
未免	-11.2855
芝草	-11.286
不相剋	-11.286
黑書	-11.2863
反胎	-11.2864
亦謂之	-11.2864
左旋	-11.2865
林泉	-11.2866
註解	-11.287
五湖	-11.2878
天地間	-11.2878
消亡	-11.2879
半夜	-11.2884
經絡	-11.2886
老子云	-11.2887
頌云	-11.2903
崇奉	-11.2904
寒庭	-11.2904
是以聖人	-11.2907
簡易	-11.2912
旬日	-11.2915
必須	-11.292
癸亥	-11.292
爽靈	-11.2923
左腎	-11.2923
八節之日	-11.2924
泰清	-11.2927
信禮	-11.2928
瘟鬼	-11.2929
合爲一	-11.2941
吕眞人	-11.2942
有道人	-11.2943
剛風	-11.2948
乙丑	-11.2958
照臨	-11.2961
混混	-11.297
大範	-11.2976
白骨	-11.2977
護國	-11.2979
慈仁	-11.2982
所感	-11.2983
咽津	-11.2984
乘空	-11.2991
乗空	-11.2993
聽吾	-11.2996
潜形	-11.2997
十有八	-11.3001
道言夫末學道淺或仙品未充	-11.3004
固濟	-11.3007
幽深	-11.3018
受之於	-11.302
圖籙	-11.3027
列宿	-11.303
第十二	-11.3032
急速	-11.3035
諸大衆	-11.3036
造物	-11.3038
而已矣	-11.304
凶惡	-11.3045
本末	-11.3053
×	-11.3053
扈	-11.3057
左官	-11.3058
璿	-11.307
隳	-11.3074
丁酉	-11.3076
髙聖	-11.3077
艶	-11.3078
旡	-11.3078
𧵥	-11.3078
返胎	-11.308
拊	-11.308
嗽	-11.308
琢	-11.3081
漑	-11.3083
埃	-11.3083
蔓	-11.3084
吳	-11.3085
嗚呼	-11.3085
址	-11.3087
渙	-11.3088
頡	-11.3089
霸	-11.3089
𣗳	-11.309
醇	-11.309
皆是大梵之言非世上常辭	-11.3091
吹嘘	-11.3091
掬	-11.3091
焼	-11.3092
閬苑	-11.3092
去地五丈	-11.3093
丗	-11.3094
幣	-11.3094
天中人壽	-11.3094
監度	-11.3094
名列太玄	-11.3095
廛	-11.3095
棹	-11.3097
犢	-11.3098
錢塘	-11.3098
色黑	-11.3098
有祕上天文諸天共所崇泄慢墮地獄	-11.3098
虜	-11.3099
戊午	-11.3099
厠	-11.3099
㓜	-11.31
菊	-11.31
若人非人	-11.31
妓	-11.31
怖畏	-11.31
度去北辰	-11.3101
馴	-11.3101
千歲	-11.3101
常鎭我	-11.3102
摩夷天	-11.3102
太尉	-11.3103
東都	-11.3103
縱橫	-11.3104
光玉皇大天尊聖父天尊聖母元君	-11.3104
紫虚元君	-11.3104
不經地獄	-11.3104
機緘	-11.3104
讃詠	-11.3104
番	-11.3105
默菴曰	-11.3106
中合五方飛玄之炁以和八字自然之音	-11.3107
常融天	-11.3107
疋	-11.3108
太玄都四極明科曰凡	-11.3108
勤而行之	-11.3109
丙申	-11.311
字皆廣長一丈	-11.3111
讃揚	-11.3111
十倍	-11.3111
嫗	-11.3111
輔弼	-11.3111
蹤跡	-11.3111
江由天	-11.3114
黒簿	-11.3115
休咎	-11.3115
改名	-11.3116
牢獄	-11.3121
難遇	-11.3122
彈指	-11.3124
徊風	-11.3127
長生大聖	-11.3132
太后	-11.3132
災害	-11.3133
紫戸	-11.3137
有道者	-11.3137
百八十	-11.3137
禍患	-11.3139
十方世界	-11.3139
藏府	-11.3141
章表	-11.3142
採訪	-11.3142
太史	-11.3144
羽客	-11.3146
原其	-11.315
除滅	-11.315
羅浮山	-11.315
旌陽	-11.3151
爲一功	-11.3153
孤魂	-11.3153
乾祐	-11.3154
紫芝	-11.3156
靜黙	-11.3157
廣陵	-11.3159
充滿	-11.3159
要訣	-11.3159
蒙恩	-11.316
三界魔王	-11.3164
毒害	-11.3167
不朽	-11.3169
群靈	-11.3172
四溟	-11.3175
垂慈	-11.3177
秀樂	-11.3183
隱隱	-11.3183
獨存	-11.3184
貪著	-11.3188
往昔	-11.3194
赴壇	-11.3195
位列	-11.3199
解除	-11.3205
失所在	-11.3212
曜洞	-11.3213
二星在	-11.3213
車馬	-11.3216
照破	-11.3222
臨壇	-11.3223
河東	-11.3224
立夏	-11.323
居其中	-11.3249
祥雲	-11.3267
面目	-11.3269
無一物	-11.3274
張果	-11.3278
九遍	-11.3283
百節	-11.3283
帝卿	-11.3286
復歸於	-11.3286
驂駕	-11.3297
聽受	-11.3297
兵士	-11.3299
閉口	-11.3307
三元八節	-11.3308
爲玄武	-11.3308
精專	-11.331
三炁丹天	-11.3315
形像	-11.332
太玄都	-11.332
罪根	-11.333
眼前	-11.3335
岀入	-11.3336
未敢	-11.3352
毫釐	-11.3354
炯	-11.3361
老翁	-11.3363
興雷	-11.3366
遑	-11.3383
光透	-11.3387
鋤	-11.3391
隗	-11.3392
畀	-11.3392
劉蔣	-11.3394
洩	-11.3395
鏘	-11.3396
夤	-11.3397
粥	-11.3399
九還七返	-11.34
轍	-11.3401
胤	-11.3401
薫	-11.3401
七返九還	-11.3401
紫光丹靈	-11.3402
猒	-11.3402
寛	-11.3404
搬	-11.3405
誌	-11.3405
三百八十四爻	-11.3405
寘	-11.3405
上部洞天八景自然靈寳神僊	-11.3405
笞	-11.3406
睽	-11.3406
忝	-11.3407
繕	-11.3408
北都除殃	-11.3408
中部洞玄八景自然靈寳神僊	-11.3408
具法位	-11.3409
欽承	-11.3409
疫毒流行兆民死傷師友命過	-11.3409
下部洞靈八景自然靈寳神僊	-11.3409
龔	-11.3409
引炁三十二過東向誦經元始	-11.3409
痼	-11.341
順時吐息誦玉經大洞玉經曰	-11.3411
總監衆靈	-11.3411
羞	-11.3412
大量玄玄	-11.3413
先祖	-11.3413
飛行鼓從	-11.3413
元洞玉曆	-11.3414
清泠	-11.3414
瓊漿	-11.3414
七寳林中	-11.3417
至學之士誦之十過則	-11.3417
燦爛	-11.3417
繡衣玉女三十二人	-11.3417
勁	-11.3417
五色玉童三十二人	-11.3418
若亡若存	-11.3418
萬神朝禮名書上天功滿德就飛昇上清	-11.3418
中大梵隱語无量之音以付道君使教	-11.3418
曰无量洞章	-11.3419
而好學至經功滿德就皆得神仙飛	-11.342
見一人	-11.342
十一日	-11.342
努	-11.342
嶽瀆	-11.3421
青天魔王	-11.3421
罪消滅玉皇大天尊玄穹髙上帝	-11.3422
清涼	-11.3424
黄籙院	-11.3424
擁護	-11.3424
夙夜	-11.3425
之雲文	-11.3425
九天應元雷聲普化天尊	-11.3427
外魔	-11.3428
參差	-11.343
降下定三䰟安七𩲸保胎護命	-11.3431
□□	-11.3431
百丈	-11.3432
城郭	-11.3433
青黄白	-11.3434
人也少	-11.3437
芝英	-11.3438
穢濁	-11.3441
萬神咸聽	-11.3447
龜臺	-11.345
祈恩	-11.3452
七炁素天	-11.3452
聦明	-11.3453
推遷	-11.3456
桃康合延	-11.3456
三十七	-11.3459
黃籙	-11.346
不輟	-11.346
枯木	-11.3462
牛馬	-11.3462
書篆	-11.3462
黑暗	-11.3463
惠澤	-11.3467
巳午	-11.347
紫陽觀	-11.3475
至學之士	-11.3477
羣魔	-11.3478
舌根	-11.3481
扶持	-11.3483
前導	-11.3485
玉衡	-11.3486
遊行三界	-11.3487
十二時中	-11.3492
總御	-11.3494
三掠	-11.3494
情慾	-11.3495
兩眉	-11.3501
災癘	-11.3501
固辭	-11.3503
浩蕩	-11.3503
結習	-11.3506
五月五日	-11.3507
雲鶴	-11.351
青霄	-11.3511
萬事畢	-11.3515
施功	-11.3517
冨貴	-11.3521
究其	-11.3521
十五年	-11.3523
導從	-11.3523
一切天人	-11.3526
乎其中	-11.3526
羣臣	-11.3527
天猷	-11.3532
彭祖	-11.3544
昇舉	-11.3548
高尚	-11.3548
服御	-11.3552
微微	-11.3554
接物	-11.3554
鬼帥	-11.3556
契合	-11.3561
寳座	-11.3567
酒肆	-11.3574
節候	-11.3577
邪源	-11.3585
陰陽造化	-11.3593
攝魂	-11.3601
獅子白鶴羅列左右日月照明洞煥室内	-11.3606
丹房	-11.3617
心不動	-11.3618
莫不由	-11.3621
道言凡誦是經十過諸天齊到	-11.3645
具奏	-11.3647
敢有干試拒遏	-11.3655
滿口	-11.3673
呪唵	-11.3681
鎮星	-11.3691
閟	-11.3698
螭	-11.3701
入水中	-11.3702
胚	-11.3707
蜃	-11.3708
兀	-11.3713
丙寅	-11.3714
題詩	-11.3715
貝	-11.3719
四句	-11.3721
堯舜	-11.3721
嬉	-11.3722
燁	-11.3722
大行梵炁	-11.3722
妍	-11.3722
弩	-11.3722
此則元始以鎮	-11.3723
斫	-11.3723
叩齒二十四通	-11.3724
杞	-11.3724
迮	-11.3725
雷平山	-11.3725
課	-11.3726
啜	-11.3726
賢聖	-11.3727
霈	-11.3727
一陰一陽	-11.3727
瓦礫	-11.3727
洗滌	-11.3728
梗	-11.3728
愔	-11.3728
刳	-11.3728
皮膚	-11.3728
玄關一竅	-11.3728
挂	-11.3728
伏羲	-11.3729
吹笙	-11.373
渭	-11.373
閩	-11.3731
錦帔	-11.3731
不得拘留	-11.3732
𨓜	-11.3732
正陽之氣	-11.3732
鈕	-11.3733
朱陵火府	-11.3733
戊寅	-11.3733
囬	-11.3734
陰中之陽	-11.3734
隷	-11.3734
眞藏童子	-11.3735
魍魎	-11.3735
生身受度劫劫長存隨劫輪轉與天齊年	-11.3735
䧟	-11.3735
頰	-11.3735
釡	-11.3735
无量度人上品妙經卷之	-11.3736
中有自然之書八字文曰	-11.3736
建齋	-11.3736
恐懼	-11.3737
若男若女	-11.3737
覲	-11.3737
化應聲天	-11.3737
雷師皓翁	-11.3739
東方朔	-11.374
肚	-11.374
裸	-11.374
眞中有神	-11.374
蘆	-11.3741
明八方元始下教使撰其字解其音合成	-11.3741
人發殺機	-11.3741
白鵠	-11.3742
中宿有仙名者度應得道人也	-11.3742
培	-11.3742
甚麽	-11.3742
天心拜三十二過閉目靜思身坐	-11.3743
護受經者身道言正月長齋誦詠是經	-11.3744
一陽來復	-11.3744
八字之音	-11.3745
尾閭穴	-11.3746
回風混合	-11.3748
役使鬼神	-11.3748
昭彰	-11.375
鼓琴	-11.375
盤旋	-11.375
激切	-11.3751
太玄玉女	-11.3751
延夀	-11.3752
束送	-11.3753
觸犯	-11.3756
河魁	-11.3756
文昌大洞	-11.3756
宜甫	-11.3757
狀貌	-11.3757
遇眞師	-11.3758
九幽地獄	-11.3758
偃月爐	-11.3758
鶴鳴	-11.3759
開八門	-11.3759
楊許	-11.3761
毒蛇	-11.3762
深淺	-11.3763
潤澤	-11.3763
盛衰	-11.3767
盜賊	-11.377
法橋	-11.377
東北方	-11.3775
在人則	-11.3784
海底	-11.3785
盗萬物	-11.3788
北方五炁	-11.3789
震雷	-11.379
頂禮	-11.3796
六寸	-11.3798
齎金寳	-11.3802
滅爽	-11.3803
隱祕	-11.3804
塵俗	-11.381
百二十曹	-11.3811
萬八千	-11.3814
天台山	-11.3818
宅舍	-11.3821
反對	-11.3822
博學	-11.3827
玉局	-11.383
答言	-11.3834
玉妃	-11.384
公卿	-11.3841
輪驂駕	-11.385
俯伏	-11.3851
之至謹	-11.3851
空不空	-11.3855
秋石	-11.3864
冥關	-11.3865
每遇	-11.3867
紫晨	-11.3869
二炁交	-11.3873
長樓	-11.3874
數百人	-11.3874
流血	-11.39
雲霄	-11.3905
西臺	-11.3906
秋月	-11.3907
玉篆	-11.3907
小乘	-11.3933
三盗	-11.3937
末後	-11.3946
自幼	-11.3962
炁結成	-11.3988
世人受誦則	-11.3988
凌空	-11.3993
雨露	-11.3994
宗親	-11.3996
神王長生大聖无量度人西南无極	-11.4002
鬼妖	-11.4002
招真	-11.4008
神王長生大聖无量度人東南无極	-11.4009
閼	-11.4022
牟	-11.4023
玄中太皇	-11.4029
无極无量品	-11.4036
絢	-11.4038
蓬瀛	-11.4044
蠻	-11.4044
香爐	-11.4044
泗	-11.4045
豕	-11.4045
姪	-11.405
塔	-11.4051
元符萬寧宫	-11.4052
縹	-11.4053
湮	-11.4053
騁	-11.4053
躭	-11.4053
壼	-11.4054
一隂一陽	-11.4054
紀録	-11.4054
䆫	-11.4054
安期生	-11.4055
涎	-11.4055
榛	-11.4056
度厄尊神	-11.4056
柩	-11.4057
琅玕	-11.4059
𥿄	-11.406
不知其所	-11.406
陽九百六	-11.406
硃砂	-11.406
執符把籙	-11.4061
峩峩	-11.4061
大慈大悲	-11.4061
恙	-11.4063
暝	-11.4063
綾	-11.4063
金闕玉房	-11.4063
壊	-11.4063
鐵笛	-11.4064
四時失度隂陽不調	-11.4065
慚	-11.4065
一乘海空智藏	-11.4066
常守兆	-11.4066
死炁之門使	-11.4066
冐	-11.4066
咭	-11.4067
天有五賊見之者昌	-11.4067
抄	-11.4067
恥	-11.4068
翛然	-11.4069
盱	-11.4069
中斗大魁	-11.4069
癩	-11.4069
无量度人上品妙經元始洞玄靈寳本章	-11.407
球	-11.407
嬪	-11.4071
裾	-11.4071
其八字飛玄自然之書字方一丈文彩煥	-11.4071
幃	-11.4071
作是念	-11.4071
跛痾	-11.4072
闔闢	-11.4072
天眞皇人曰其章以	-11.4073
魂神暫滅不經地獄即得返形遊行太空	-11.4073
舅	-11.4074
孳	-11.4074
月十四日	-11.4074
衰老	-11.4075
驛吏	-11.4075
海南白玉蟾著	-11.4077
少微曰此八字	-11.4077
蘂珠	-11.4077
萬神之宗	-11.4078
許長史	-11.4079
皇笳天	-11.4079
風伯雨師	-11.4079
啓途	-11.408
寅卯	-11.4081
宗飄天	-11.4082
野戰	-11.4083
瘴癘	-11.4083
蠻雷	-11.4084
禎祥	-11.4085
津梁	-11.4086
平育天	-11.4087
經同卷	-11.4087
輔佐	-11.4091
交并	-11.4091
嘯歌	-11.4092
嘉祥	-11.4092
五行顛倒	-11.4094
病癘	-11.4095
先天一炁	-11.4096
機關	-11.4098
旁門	-11.4099
髙上神霄	-11.41
墮落	-11.4101
罪消滅	-11.4103
武陵	-11.4104
容貌	-11.4105
衛護	-11.4109
兩般	-11.4112
宛轉	-11.4112
戊已	-11.4113
預修	-11.4119
髙奔	-11.4121
如是之人	-11.4121
邵陽	-11.4125
年四月	-11.413
懷胎	-11.4136
齊并	-11.4139
片時	-11.4142
金生水	-11.4142
敬仰	-11.4143
神王長生大聖无量度人東北无極	-11.4145
黑虎	-11.415
乆乆	-11.4151
當修齋行香誦經夫齋戒誦經功德甚重	-11.4155
玉兔	-11.4156
光普照	-11.4161
乞食	-11.4167
傷害	-11.417
光射	-11.4172
珍寳	-11.4177
逺離	-11.4182
聖像	-11.4182
忘機	-11.4187
鍊質	-11.4188
雷轟	-11.4197
末學	-11.4201
魂爽	-11.4214
政事	-11.4214
老氏	-11.4215
祖劫	-11.4223
人見之	-11.4224
嚥津	-11.4229
橋梁	-11.4238
萬倍	-11.4244
狀若	-11.4247
三百年	-11.425
胸中	-11.4254
演教	-11.4263
次序	-11.4266
玉亰	-11.4268
煉己	-11.4294
華盖	-11.4301
神王長生大聖无量度人上方无極	-11.4304
冠服	-11.4305
各有所	-11.431
日月之精	-11.4338
禮謝	-11.4347
何曾	-11.4348
霜雪	-11.4349
十方無極	-11.4361
𦍙	-11.4364
幽䰟	-11.4365
神王長生大聖无量度人南方无極	-11.4369
且夫	-11.4369
瓌	-11.4373
亘古	-11.4375
洞陽宫	-11.4377
謐	-11.4383
饋	-11.4387
梟	-11.4387
縻	-11.4388
肱	-11.4388
遵奉	-11.4388
坼	-11.4389
忒	-11.439
疼	-11.4391
歆	-11.4392
嶼	-11.4394
抹	-11.4398
翥	-11.4398
觜	-11.4398
岱	-11.44
啄	-11.44
舄	-11.44
汚	-11.44
紊	-11.4401
粮	-11.4401
澮	-11.4402
執簡	-11.4402
凾	-11.4402
坐在立亡	-11.4402
鯉	-11.4402
翦	-11.4402
仲尼	-11.4402
悵	-11.4403
濟生度死	-11.4404
煆	-11.4404
狹	-11.4404
恍恍惚惚	-11.4405
玉暦	-11.4407
圗	-11.4407
抱元守一	-11.4407
靴	-11.4408
𠑽	-11.4408
綉	-11.4408
白元尊神	-11.4408
瀛洲	-11.4408
元綱流演	-11.4409
甸	-11.4409
夢寐	-11.4411
燮	-11.4411
天師志心朝禮	-11.4412
正日時	-11.4412
從座而起	-11.4413
諄	-11.4413
陰符陽火	-11.4414
鬱羅蕭臺	-11.4414
梳	-11.4415
所以爾者	-11.4416
无鞅之衆	-11.4416
黍珠	-11.4416
功滿德就	-11.4417
齋主某人	-11.4417
上世亡䰟	-11.4417
里域	-11.4419
打破	-11.4419
辤	-11.4419
長九寸	-11.442
酆山	-11.442
一呼一吸	-11.442
昇金闕遊宴玉京也上學之士修誦是經	-11.4421
𥟵首	-11.4421
哀憫	-11.4422
壇場	-11.4422
蜂	-11.4422
高上玉皇	-11.4422
地二生火	-11.4423
搬運	-11.4424
太一救苦天尊	-11.4426
桑田	-11.4427
惶懼	-11.4428
鸞鳳	-11.4429
愆尤	-11.4429
有道之士	-11.443
晋陵	-11.443
紫河車	-11.4432
直符從官十	-11.4432
六十甲子	-11.4437
男兒	-11.4439
收捕	-11.4439
松竹	-11.4439
可憐	-11.444
年九十	-11.4446
妖怪	-11.4451
辛勤	-11.4452
眉山	-11.4454
幽棲曰旣	-11.4455
休否	-11.4459
鬼營	-11.4462
始青天中	-11.4464
雲芽	-11.4468
凝滯	-11.4469
柔和	-11.4474
鐵面	-11.448
鼻息	-11.4483
寒泉	-11.4484
好生君	-11.4487
可知矣	-11.4489
妖孽	-11.4491
瓊林	-11.4495
逍遥上清	-11.4495
圓羅	-11.4521
如其言	-11.4522
遭遇	-11.4525
純隂	-11.4529
大元帥	-11.4531
乆視	-11.4536
五百年	-11.4536
浮羅	-11.4539
罪犯	-11.4544
嗣師	-11.4545
茅山志卷之	-11.4556
嗣宗	-11.4568
綱紀	-11.4581
玉函	-11.4616
炁所化	-11.4634
忘情	-11.4665
淨室	-11.4678
籙上清	-11.4691
玉童玉女各	-11.4695
莫敢	-11.47
宿天華	-11.4703
此經微妙普度	-11.4705
神王長生大聖无量度人西北无極	-11.471
神王長生大聖无量度人西方无極	-11.4711
灝	-11.4721
神王長生大聖无量度人十方	-11.4725
茨	-11.4732
華陽洞天	-11.4739
校定	-11.474
某誠感誠慶頓首頓首再拜上言伏以	-11.4744
聶	-11.4746
亰	-11.4746
者死入	-11.4747
撻	-11.4747
闓	-11.475
宙	-11.4751
唐明皇	-11.4753
槎	-11.4755
慈父	-11.4755
械	-11.4756
甞	-11.4756
髭	-11.4756
棠	-11.4756
腫	-11.4756
怙	-11.4757
藜	-11.4757
晡	-11.4757
栖巖	-11.4758
捫	-11.4758
玄靜先生	-11.4759
㳙	-11.4759
𩲃	-11.4759
敲	-11.4759
嗇	-11.476
廓奕	-11.476
疰	-11.4761
哩	-11.4761
垓	-11.4761
笏	-11.4761
善男子眞人童子	-11.4762
鄂	-11.4762
神王長生大聖无量度人下方无極	-11.4763
承誥奉行	-11.4763
楷	-11.4763
蒼梧	-11.4763
啗	-11.4764
讖	-11.4764
趁	-11.4764
欄	-11.4765
荼	-11.4765
氲	-11.4765
玊札	-11.4765
彫	-11.4766
紅杏	-11.4768
身有光明	-11.4768
葛仙翁	-11.4768
開明三景	-11.4768
黔	-11.4768
喉嚨	-11.4769
迍	-11.4769
侍衛送迎	-11.4769
知之修鍊謂之聖人	-11.4769
宇宙在乎手萬化生乎身	-11.4769
恚	-11.477
叩齒十二通	-11.477
葱	-11.477
崐崘	-11.477
牘	-11.477
歩罡	-11.4771
白天魔王	-11.4771
放大光明	-11.4771
月華隂景	-11.4771
峨嵋山	-11.4771
娘	-11.4772
並是諸天上帝内名隱韻之音亦是	-11.4772
技	-11.4772
拄	-11.4772
籬	-11.4772
庚午	-11.4773
紏察	-11.4773
上品妙經	-11.4773
子午卯酉	-11.4774
滌蕩	-11.4774
赤天魔王	-11.4774
云何有衆生	-11.4776
申酉	-11.4777
蟲蝗	-11.4778
八字雲篆鎮	-11.4778
都督	-11.4779
弱冠	-11.4779
衡嶽	-11.478
萬神朝禮	-11.478
鈺	-11.4781
臣衆等志心歸命	-11.4781
伯史	-11.4783
閼伯	-11.4783
五帝玉童玉女各二十四人營衛神文保	-11.4784
炷香	-11.4784
長一丈	-11.4784
欽崇	-11.4785
六甲六丁	-11.4785
大赤天	-11.4786
賈奕天	-11.4787
辛亥	-11.4788
博士	-11.4789
欣慶	-11.4789
咦	-11.479
歌詠	-11.4792
徙居	-11.4793
急急如玉清上帝律令	-11.4793
涓子	-11.4793
遵承	-11.4794
白玉蟾	-11.4795
吴越	-11.4797
刻漏	-11.4798
一尺二寸	-11.4798
賔客	-11.4799
愛慾	-11.4799
虔誠	-11.4801
桃源	-11.4801
驅役	-11.4802
靈寳符命	-11.4808
二十餘年	-11.4808
哀哉	-11.4809
戊土	-11.4814
眞詮	-11.4817
無名子	-11.4821
昭示	-11.4821
育萬物	-11.4823
敬奉	-11.4827
慳貪	-11.4829
削罪	-11.4838
一切神靈	-11.4838
囚死	-11.4839
今日日辰	-11.4841
注想	-11.4842
雙關	-11.4842
紅鉛	-11.4842
流浪	-11.4845
牛頭	-11.4846
杳杳	-11.4852
清虚眞人	-11.4853
親近	-11.4855
久視	-11.4858
十七年	-11.4865
解禳	-11.4871
太淵	-11.4876
遞相	-11.4876
圓覺	-11.4877
廓然	-11.4882
今日欣慶受度	-11.4884
嬰童	-11.489
死喪	-11.4898
一百四十	-11.49
朔旦	-11.4909
月孛	-11.4915
有聞靈音	-11.494
五十年	-11.4944
虚無自然	-11.4965
壁間	-11.5001
徧滿	-11.5011
豈容	-11.5013
榮枯	-11.5023
律令敕	-11.5026
天真皇人	-11.5039
神王長生大聖无量度人北方无極	-11.5039
當爲汝	-11.5074
刺史	-11.5083
五方五帝	-11.5087
筒	-11.5091
覔	-11.5093
湊	-11.5098
閤	-11.5098
欵	-11.5109
黄紙朱書	-11.5111
晤	-11.5112
廡	-11.5118
煅	-11.5118
淹	-11.5118
漕	-11.5121
戢	-11.5121
脣	-11.5121
蕤	-11.5122
琅函	-11.5122
儵	-11.5122
藤	-11.5124
白日飛昇	-11.5125
舛	-11.5125
僕射	-11.5126
緼	-11.5127
宫參校曰别本註云帝主	-11.5128
暄	-11.5128
漲	-11.5129
帙	-11.5129
煖	-11.5129
瀛	-11.5129
肌肉	-11.513
日午時	-11.513
巔	-11.5132
搗	-11.5133
干戈	-11.5134
狩	-11.5135
塑	-11.5135
鵲橋	-11.5135
瘴	-11.5136
麾幢鼓節	-11.5136
年五月	-11.5136
雉	-11.5136
愕	-11.5137
岷	-11.5137
臟腑	-11.5137
峩	-11.5137
儛	-11.5137
訾	-11.5137
昺	-11.5137
元載孔昇天	-11.5138
洞天福地	-11.5138
紱	-11.5138
五十有五	-11.5139
袪	-11.5139
斲	-11.5139
三官九署	-11.514
括蒼	-11.514
腸胃	-11.514
十徧周竟十方无極	-11.5141
開明三景是爲天根	-11.5141
撮	-11.5142
夏禹	-11.5143
道言此諸天中大梵隱語无量之音舊文	-11.5143
嬰孩	-11.5144
乙卯	-11.5144
雷公電母	-11.5144
能悉其章誦之十過	-11.5145
饑渴	-11.5145
屑	-11.5145
孺子	-11.5145
讃嘆	-11.5145
迦	-11.5145
蹙	-11.5146
枯朽	-11.5146
皇崖天	-11.5146
壬午	-11.5147
摸	-11.5147
姊	-11.5148
殺戮	-11.5148
琅琅	-11.5148
偷盜	-11.5148
儲祥	-11.5148
飛行太空	-11.5149
項負	-11.5149
聴	-11.515
出有入無	-11.515
淑眞曰	-11.515
死入地獄	-11.5152
无文不	-11.5153
把握	-11.5153
洞陽之宫	-11.5153
仗劍	-11.5154
其中有精	-11.5156
飢寒	-11.5157
視之不見	-11.5158
己亥	-11.5158
烟霞	-11.5159
隠語	-11.5159
檢察	-11.5159
暫停	-11.516
達磨	-11.5161
金匱	-11.5163
十有二	-11.5163
般運	-11.5164
梵度天	-11.5165
齎持	-11.5166
大丈夫	-11.5166
自子至	-11.5166
下剋上	-11.5167
曠劫	-11.5171
扶衰	-11.5173
瞻禮	-11.5174
通玄究微	-11.5174
奔走	-11.5175
陰陽二炁	-11.5175
未曽	-11.5176
送迎	-11.5176
不死之道	-11.5177
懴謝	-11.5177
用黄紙	-11.518
瓊樓	-11.5181
誡者不得	-11.5182
胎嬰	-11.5183
霄漢	-11.5183
若有一人	-11.5184
率土	-11.5199
康寧	-11.5204
百川	-11.5205
獄吏	-11.5206
實腹	-11.5207
五緯	-11.521
混俗	-11.5213
崑山	-11.5214
許眞君	-11.5218
深逺	-11.522
分判	-11.5221
西京	-11.5222
仁壽	-11.5229
恍然	-11.5229
紅塵	-11.5232
寥寥	-11.5234
一國地土山川林木	-11.5235
虚皇天尊	-11.5248
初弦	-11.525
天尊答言	-11.5259
宛然	-11.5263
后妃	-11.527
皇人曰夫	-11.5289
誅斬	-11.5308
成大藥	-11.5317
將帥	-11.5318
朔望	-11.5324
原赦	-11.5327
薛幽棲	-11.5334
玄明洞淵	-11.5393
今日欣慶受度歷關諸天	-11.5408
泄天機	-11.5426
輟	-11.5467
摽	-11.5478
沆	-11.5479
踊	-11.5486
聖祖天尊大帝	-11.5488
祁	-11.5494
駟	-11.5497
墠	-11.5497
歷世眞仙體道通鑑	-11.55
功勤	-11.55
咳	-11.5501
趙丞	-11.5507
濬	-11.5507
茗	-11.5507
臧	-11.5507
鐶	-11.5507
笳	-11.5508
拾遺	-11.5508
圈	-11.551
崇禧觀	-11.551
嬌	-11.5511
蕪	-11.5511
鏤	-11.5511
塗炭	-11.5511
三色雲炁	-11.5511
卉	-11.5511
踪	-11.5512
鉅	-11.5513
宋眞宗	-11.5513
戸興隆世世昌熾與善因縁萬災不干	-11.5514
淋	-11.5515
耐	-11.5515
麈	-11.5515
嵐	-11.5515
畧	-11.5515
千和萬合	-11.5516
腴	-11.5516
壬寅	-11.5516
巓	-11.5516
搆	-11.5516
叩齒七通	-11.5516
軰	-11.5517
乙酉	-11.5517
勦	-11.5517
衾	-11.5517
恩生於害害生於恩	-11.5517
鞋	-11.5518
璇璣玉衡	-11.5519
什	-11.552
倐忽	-11.552
秦始皇	-11.552
潢	-11.552
謹爲拜章一通上聞三天伏望	-11.552
壬申	-11.552
塜	-11.5521
煌煌	-11.5521
庠	-11.5521
玄元始三炁	-11.5522
唐玄宗	-11.5522
張子房	-11.5522
左右官使者	-11.5523
黄帝陰符經注	-11.5523
碩	-11.5523
紗	-11.5523
臉	-11.5523
懺	-11.5523
釀	-11.5524
驥	-11.5524
貧乏	-11.5525
鎻	-11.5525
鬱單无量天	-11.5526
无英公子	-11.5526
趺	-11.5526
瞋	-11.5526
倏歘之間寂無遺響是時天人遇值經法	-11.5526
交姤	-11.5526
癸酉	-11.5526
東方甲乙	-11.5526
菩薩	-11.5527
合而爲一	-11.5527
召制十方	-11.5527
梧桐	-11.5527
黎庶	-11.5527
星宿錯度日月失昏	-11.5527
師友命過	-11.5528
無量無邊	-11.5529
蒼胡頡	-11.5529
娑訶	-11.5529
臣衆等志心皈命	-11.5529
礬	-11.5529
湛湛	-11.5529
爲上世亡魂斷地逮役度上南宫	-11.5529
梏	-11.5529
戊申	-11.5531
周天火候	-11.5531
艱難	-11.5531
水火既濟	-11.5532
各三十六人關啓所言今日吉慶長齋清	-11.5534
火急奉行	-11.5534
梓潼帝君	-11.5535
梵炁彌羅	-11.5535
告盟而傳	-11.5535
鍾吕	-11.5536
太𡻕	-11.5536
无鞅	-11.5538
東向叩齒三十二通上聞三十二天心拜	-11.5539
奔馳	-11.5541
這裏	-11.5542
策杖	-11.5542
芝田	-11.5543
迄今	-11.5546
祥瑞	-11.5547
戊巳	-11.5547
在空玄之中	-11.5549
迷途	-11.5549
神王長生大聖無量度人	-11.555
充塞	-11.5556
斤兩	-11.5556
須憑	-11.5559
易邈	-11.5559
洪波	-11.556
祭酒	-11.5561
與天同	-11.5561
香湯	-11.5561
困苦	-11.5562
特垂	-11.5567
些兒	-11.5569
希夷先生	-11.5569
安排	-11.557
端嚴	-11.5573
名之曰	-11.5574
舊科	-11.5575
宴坐	-11.5575
延祐	-11.5577
寶珠	-11.5578
塵沙	-11.558
凡軀	-11.5583
敷陳	-11.5584
生死受頼其福難勝故曰	-11.559
寳誥	-11.5591
威猛	-11.5597
强名曰	-11.5603
玉册	-11.5612
返覆	-11.5622
尺餘	-11.5625
輕誦此章身則被殃供養尊禮門	-11.5651
帝主兆民行是功德有災之日發心修齋	-11.5663
與天相	-11.5679
味甘	-11.5682
武夷山	-11.5693
誦洞章	-11.5699
敕符呪曰	-11.572
泄漏	-11.575
醮謝	-11.5753
日月之光	-11.5766
告之曰	-11.5777
雲軿	-11.582
氛穢	-11.5821
一國地土山川林木緬平一等無復髙下	-11.5823
金鉞前戮	-11.5825
十有三	-11.5862
洙	-11.5872
湍	-11.5876
隕	-11.5885
涓	-11.5888
逵	-11.5893
拉	-11.5897
登眞隱訣	-11.5898
殂	-11.5898
蠟	-11.59
撲	-11.59
稷	-11.5901
販	-11.5902
弔	-11.5903
滂	-11.5904
麋	-11.5905
傘	-11.5905
馳騁	-11.5905
廽	-11.5907
性有巧拙可以伏藏	-11.5908
弛	-11.5908
諸天記人功過毫分無失天中	-11.5908
珪	-11.5909
趾	-11.5909
悴	-11.5909
寮	-11.591
拽	-11.591
徉	-11.5911
紆	-11.5911
訊	-11.5911
乂	-11.5911
砌	-11.5912
彷彿	-11.5912
者何也鍾曰	-11.5912
鍳	-11.5912
𡜍	-11.5913
凈	-11.5913
陜	-11.5913
曄	-11.5914
朽骸	-11.5915
諶姆	-11.5915
悚	-11.5915
貳	-11.5915
霄度天	-11.5916
繳	-11.5917
鳧	-11.5917
帽	-11.5917
蠡	-11.5918
茭龍	-11.5918
火翳	-11.5919
薊	-11.592
脅	-11.5921
謹據齋意	-11.5921
义	-11.5921
毗陵	-11.5922
体	-11.5922
誦之千徧	-11.5922
峨峨	-11.5922
黄天魔王	-11.5922
生者死之根死者生之根	-11.5922
奉道之士	-11.5923
姝	-11.5923
考掠	-11.5924
霎	-11.5924
猫	-11.5924
猴	-11.5924
無量普度天人道言凡有是經能爲	-11.5925
萬壽宫	-11.5925
噬	-11.5925
轉輪不惑便得神仙	-11.5926
内諱百靈之隱名也	-11.5926
黄帝中主	-11.5926
保制劫運使天長存	-11.5926
章第二十	-11.5926
天發殺機	-11.5926
大修行人	-11.5927
地藏發泄金玉露形	-11.5927
劉海蟾	-11.5927
仙化成人	-11.5927
所以爾者學士	-11.5927
郁馥	-11.5928
赤明和陽天	-11.5928
山魈	-11.5928
經始出教一國以道預有至心宗奉禮敬	-11.5928
售	-11.5928
尋聲救苦	-11.5929
誠惶誠恐稽首頓首	-11.5929
𥋋	-11.5929
𡨚仇	-11.5929
太安皇崖天	-11.5929
灰燼	-11.5929
保制劫運	-11.5929
本命之日誦詠是經	-11.5929
畝	-11.593
無中生有	-11.593
丙辰	-11.5931
機在目	-11.5931
陽中之陰	-11.5932
殊途	-11.5932
玉山上京	-11.5933
汝等當知	-11.5933
蓊鬱	-11.5933
雞鳴	-11.5933
毛髮	-11.5934
充溢	-11.5934
三五功曹	-11.5935
嗣續	-11.5935
碍	-11.5936
眇眇億劫	-11.5936
鍼	-11.5936
善明童子	-11.5937
與天地齊	-11.5938
辛酉	-11.5938
纒綿	-11.5938
陰中陽	-11.5939
司馬大神	-11.594
委曲	-11.594
玉清聖境	-11.5941
厄大聖北斗七元君能解	-11.5944
極瑶天	-11.5944
殄滅	-11.5946
五千文	-11.5952
極風天	-11.5955
晨夕	-11.5955
衆妙門	-11.5957
太玄都四極明科曰	-11.596
手握	-11.5962
東華帝君	-11.5962
噀水	-11.5962
道言此二章並是諸天上帝及至靈	-11.5962
眞大神上聖髙尊妙行眞人	-11.5964
瓊瑶	-11.5966
閬風	-11.5967
黑煞	-11.5972
迷津	-11.5973
謂人曰	-11.5978
最尊	-11.5979
兆庶	-11.5982
命侍女	-11.5985
代謝	-11.5985
鶴唳	-11.5985
歷歷	-11.5986
森然	-11.5988
萬物之母	-11.5991
吴郡	-11.5996
司禄	-11.6007
風火無停	-11.604
者水也	-11.6043
也炁者	-11.6047
遇異人	-11.6077
南方三炁	-11.608
十有四	-11.6088
度人无量	-11.618
二十二日	-11.6182
中指中文	-11.6208
簿録	-11.6225
飛行三界	-11.6236
神霄玉府	-11.6263
瑰	-11.6285
熬	-11.6295
璈	-11.6298
諶	-11.6303
赭	-11.6305
瀹	-11.6306
𠂻	-11.6308
瑤	-11.631
荅	-11.6312
幄	-11.6314
厖	-11.6319
身得受生上聞諸天諸天之上各有生門	-11.632
覿	-11.632
三皇内文	-11.6321
繆	-11.6321
帥班	-11.6321
兕	-11.6323
賄	-11.6324
兎	-11.6324
張道陵	-11.6325
刄	-11.6326
西山記曰	-11.6327
栁	-11.6328
監眞度生	-11.6328
窅	-11.6329
菖蒲	-11.6329
遊觀太空	-11.6329
甯	-11.633
卞	-11.6331
一乘海空寳藏	-11.6332
琰	-11.6332
汝等徒衆	-11.6332
大衍之數	-11.6333
輕泄漏慢	-11.6333
瀑	-11.6333
中有空洞謡歌之章	-11.6333
嶮	-11.6333
快活	-11.6334
嘯歌噰噰	-11.6334
炊	-11.6334
潯	-11.6334
騾	-11.6334
孜孜	-11.6335
中有度人不死之神	-11.6335
煑	-11.6335
躅	-11.6335
蛙	-11.6335
弁	-11.6335
鵝	-11.6336
檐	-11.6336
鞍	-11.6336
齊唱後吹	-11.6336
哆	-11.6336
舟楫	-11.6336
彬	-11.6337
鞠	-11.6337
端拱	-11.6338
繫縛	-11.6338
蔬	-11.6338
趍	-11.6338
潼	-11.6338
右一條	-11.6339
聮	-11.6339
皂衣	-11.6339
說經八徧西北无極无量品	-11.6339
齊到帝前	-11.6339
魏伯陽	-11.634
梢	-11.634
繚繞	-11.634
賾	-11.634
贅	-11.634
舫	-11.634
倐	-11.634
帆	-11.634
天上地下	-11.6341
遼廓	-11.6341
贍	-11.6341
丙戌	-11.6341
說經二徧南方无極无量品	-11.6341
策役	-11.6341
父母未生	-11.6341
顓頊	-11.6341
說經三徧西方无極无量品	-11.6342
旋斗歷箕	-11.6342
玲瓏	-11.6342
殷勤	-11.6343
龕	-11.6343
煥赫	-11.6344
啻	-11.6344
臣道一曰	-11.6344
上世亡魂	-11.6345
㖿	-11.6345
萬靈振伏	-11.6345
火星守	-11.6346
虚室生白	-11.6346
箇箇	-11.6347
承誥奉行列師銜	-11.6347
疫毒流行兆民死傷	-11.6347
天之至私用之至公	-11.6348
元始即於	-11.6348
縉雲	-11.6348
飲刀圭	-11.6348
追魂使者	-11.6349
崐	-11.6349
榮辱	-11.6349
端靖天	-11.6349
提挈	-11.635
鍊炁變仙	-11.635
㓂	-11.635
玉完天	-11.635
元始祖劫化生諸天	-11.635
一時同至一國男女傾心歸仰	-11.6351
松栢	-11.6351
吟詠洞章	-11.6351
笪	-11.6351
一點眞陽	-11.6352
律吕	-11.6352
晃朗	-11.6353
旋斗歷箕回度五常	-11.6354
盈虧	-11.6355
十方飛天神王	-11.6356
巨細	-11.6357
疑網	-11.6357
歌舞	-11.6358
莫大於	-11.6358
大羅之天	-11.6359
卿直符從官十	-11.636
譏	-11.6362
用黄紙朱書	-11.637
諦觀	-11.6372
五雷使者	-11.6375
群迷	-11.6382
米貴	-11.6383
輕健	-11.6387
部第	-11.6389
阿丘	-11.6394
堅剛	-11.6396
賦詩	-11.6402
卷之六	-11.6418
二百四十	-11.6475
炁從兆泥丸中入兆乃口吸神雲咽津	-11.6573
言無韻麗曲無華宛	-11.6578
月八日	-11.6652
飈輪	-11.6695
福地仙官聖衆	-11.6725
諸靈官臣聞	-11.674
這些	-11.6743
溜	-11.6743
矚	-11.6744
非世之常辭上聖已成眞人通玄究微	-11.675
嶠	-11.6752
玉皇上帝	-11.6753
渤	-11.6754
僑	-11.6755
拖	-11.6756
髙上神霄玉清	-11.6757
訂	-11.6757
噏	-11.6758
畋	-11.676
睠	-11.676
插	-11.6761
斌	-11.6761
刼	-11.6762
嬴	-11.6762
坊	-11.6762
彗	-11.6762
蘊	-11.6762
絶利一源	-11.6763
倡	-11.6763
穰	-11.6763
涕唾	-11.6763
品彚	-11.6763
釗	-11.6764
樽	-11.6765
嵒	-11.6765
留形住世	-11.6766
大浮黎土	-11.6767
冊	-11.6767
時物文理	-11.6767
乹	-11.6768
膳	-11.6768
欒	-11.6768
殽	-11.6768
炷	-11.6768
宋徽宗政和	-11.6768
不驕樂天	-11.6768
皷	-11.6769
喜怒哀樂	-11.6769
浚	-11.6769
懋	-11.6769
不忠不孝	-11.6769
優游	-11.677
騶	-11.677
翩翩	-11.677
北鄷	-11.6771
眞龍眞虎	-11.6771
燒香誦經十過皆諸天記名萬神侍衛	-11.6771
珍奴	-11.6771
僣	-11.6771
天生天殺道之理也	-11.6772
歷關諸天	-11.6772
六道四生	-11.6772
昻	-11.6772
滛	-11.6772
道言正月長齋誦詠是經	-11.6772
空洞靈章	-11.6772
劇	-11.6773
殫	-11.6773
飛天上僊官各十	-11.6773
戶	-11.6773
阿奕	-11.6774
抽添運用	-11.6774
一生二二生三	-11.6775
錯綜	-11.6775
末學之夫亦有疾傷	-11.6776
汗漫	-11.6776
翰林	-11.6776
言善哉善哉善男子	-11.6776
拂袖	-11.6776
覧	-11.6776
道備剋得遊行三界昇入金門此音	-11.6776
笠	-11.6776
洋洋	-11.6776
峽	-11.6776
仗旛	-11.6777
歐	-11.6777
蛾	-11.6777
吞火食炭	-11.6777
本來面目	-11.6777
叔火王	-11.6777
傭	-11.6778
說經四徧北方无極无量品	-11.6778
地四生金	-11.6778
長夜之府	-11.6778
效心盟天而傳輕泄漏慢殃及九祖長役	-11.6778
脱胎神化	-11.6778
緱	-11.6779
胡麻	-11.6779
風澤洞虚	-11.678
乙亥	-11.678
璨	-11.678
耳目聰明	-11.678
付囑	-11.6781
泝流	-11.6781
天中之音天中之尊天中之神	-11.6781
渇	-11.6781
宿命因縁	-11.6782
大千世界	-11.6783
皆受護度咸得長生	-11.6783
降眞召靈	-11.6783
纏綿	-11.6783
腋	-11.6783
阮樂天	-11.6783
攜	-11.6783
玄明恭華天	-11.6783
違科犯	-11.6783
焦枯	-11.6784
焼香	-11.6784
癸卯	-11.6784
一陰一陽之謂道	-11.6785
何也廣成子曰	-11.6785
淵通元洞天	-11.6785
下宫女青律文受者明愼奉行太	-11.6785
爲五過	-11.6786
合八字皆方一丈八角煥明	-11.6786
一切有情	-11.6786
九州社令	-11.6786
中天眞皇人曰修飛仙之道當以	-11.6786
嚥液	-11.6787
再拜稽首	-11.6787
權衡	-11.6787
氛穢地無祅塵冥慧洞清大量玄玄也	-11.6787
畢引炁三十二過東向誦經元始	-11.6788
賞罰	-11.6788
亢旱	-11.6788
晃耀	-11.6789
五賊在心	-11.6789
中天真皇人曰凡修飛仙之道當以	-11.6789
各一拜	-11.679
涕泣	-11.679
六丁六甲	-11.679
元始祖劫	-11.679
孔昇天	-11.6791
恭慶天	-11.6792
能悉其章誦之十過諸天遥唱萬帝設禮	-11.6792
參同契云	-11.6792
差忒	-11.6792
隱祕之音皆是大梵之言非世上常辭	-11.6793
祠宇	-11.6793
普受開度死魂生身	-11.6794
蓬島	-11.6794
絳霄	-11.6798
百步	-11.6799
艱辛	-11.6799
門攝之若	-11.68
官僚	-11.6801
之類是也	-11.6801
驚怖	-11.6802
道言夫天地運終	-11.6803
不退轉	-11.6803
長生大帝君	-11.6806
禍及七祖翁	-11.6809
活計	-11.6809
足躡	-11.6811
犯者過去受	-11.6815
毒蟲	-11.6818
風霆	-11.6819
東方青帝	-11.6823
北酆明檢鬼營不得容隱金馬驛呈普告	-11.6825
道塲	-11.6828
養浩	-11.6841
呪曰唵	-11.6843
雪雹	-11.6861
老莊	-11.6911
五帝直符	-11.6912
朱砂鼎	-11.6928
支干	-11.6932
敕制地祇	-11.7039
皆得度世道言元始天尊說經中所言	-11.7101
延壽長年後皆得作尸解之道	-11.7116
之罪懴悔弟子或	-11.7158
腠	-11.7162
谷神不死	-11.7174
琯	-11.7176
西方七炁	-11.7178
曵	-11.719
裒	-11.7193
崿	-11.7194
寤寐	-11.7196
蓐	-11.7196
貲	-11.7201
籛	-11.7202
壟	-11.7202
禍及七祖翁道言此二章並是諸天上帝	-11.7203
溉	-11.7203
診	-11.7204
四字祕天之	-11.7204
譬諭	-11.7205
萎	-11.7207
鄞鄂	-11.7209
𡻕	-11.721
泮	-11.7211
鑊	-11.7212
緜	-11.7212
飼	-11.7213
懇禱	-11.7214
兜	-11.7215
舐	-11.7216
元始无量度人上品妙經	-11.7216
四象生八卦	-11.7216
灘	-11.7216
晞	-11.7216
毅	-11.7217
瞽者善聽聾者善視	-11.7217
玉笥山	-11.7218
膿	-11.7218
碁	-11.7218
沿	-11.7219
鋸	-11.7219
専	-11.7219
杖屨	-11.7219
蠅	-11.722
泠	-11.722
婺	-11.7221
岱宗	-11.7221
蟬蜕	-11.7222
鷗	-11.7222
苞	-11.7222
貪嗔癡	-11.7222
用師萬倍	-11.7223
蒿	-11.7223
霓旌	-11.7223
恡	-11.7223
搯玉清訣	-11.7224
獰	-11.7224
涣	-11.7224
玄都中宫女青律文受者明慎奉行	-11.7224
九竅之邪在乎三要可以動靜	-11.7224
東嶽上卿	-11.7225
太平興國	-11.7225
戌亥	-11.7225
星宿錯度日月	-11.7225
閡	-11.7225
臥	-11.7226
擲火萬里	-11.7226
迤邐	-11.7226
疵	-11.7226
霓裳	-11.7226
擬議	-11.7227
所受記	-11.7227
窆	-11.7227
閽	-11.7227
九龍符命	-11.7227
隱顯莫測	-11.7227
隱韻離合自然	-11.7228
瘖	-11.7228
曦	-11.7228
玉珮金璫	-11.7228
槌	-11.7228
信受奉行	-11.7228
賑	-11.7228
竄	-11.7229
崢嶸	-11.7229
府眞神道	-11.7229
飛天神王下觀其身書其功勤上奏諸天	-11.7229
迅雷烈風莫不蠢然	-11.7229
中有南上司命司録延壽益筭度厄尊神	-11.723
姑射	-11.723
萍	-11.723
奕奕	-11.723
萬彙	-11.723
三日三夜	-11.7231
說經七徧西南无極无量品	-11.7231
烈焰	-11.7232
調燮	-11.7232
說經十徧下方无極无量品	-11.7232
儕	-11.7233
日月合明	-11.7233
銳	-11.7233
黑天魔王	-11.7233
兀兀	-11.7233
顯定極風天	-11.7233
畞	-11.7234
翱翔	-11.7234
說經都竟衆真監度以授於我當此之時	-11.7234
飱	-11.7235
君臣父子	-11.7235
上揲阮樂天	-11.7235
西城王君	-11.7235
𢖍	-11.7235
渝	-11.7235
悠	-11.7235
赤明開圖運度自然	-11.7236
年月朔日時告行	-11.7236
太一含眞	-11.7236
十方无極世界	-11.7236
森列	-11.7237
南方丹天	-11.7237
朋友	-11.7237
恢漠	-11.7237
濛濛	-11.7238
羶	-11.7238
餐霞	-11.7238
早晚	-11.7239
以是之故	-11.7239
衿	-11.7239
天尊告曰	-11.724
隨其學功計日而得更生	-11.724
周匝	-11.724
魂神澄正萬炁長存不經苦惱身有光明	-11.724
南宮延生	-11.724
驅馳	-11.7242
五篇眞文	-11.7243
緑軿	-11.7245
東向誦經	-11.7246
窈冥	-11.7246
貪慾	-11.7247
修丹之士	-11.7247
無上至眞	-11.7247
祀典	-11.7247
齋沐	-11.7248
䰟𩲸	-11.7248
善種大王	-11.7249
陽中陰	-11.7249
暗昧	-11.725
仙道貴生无量度人	-11.7251
猛烈	-11.7251
恭華天	-11.7253
也此四字書	-11.7254
鍛鍊	-11.7255
蠲消	-11.7256
憂惱	-11.7258
竒特	-11.7258
桑林	-11.7265
始當詣座	-11.7274
文舉天	-11.7284
得度世道言元始天尊說經中所言並是	-11.7384
三界侍衛五帝司迎	-11.7447
遄	-11.7618
巘	-11.7641
神王長生大聖无量度人	-11.7647
剉	-11.7649
酢	-11.7653
罙	-11.7658
鍛	-11.7663
蜒	-11.7665
上奏諸天萬神朝禮地祇侍門大	-11.7672
漾	-11.7674
負石塡河之役	-11.7675
葵	-11.7677
鉉	-11.7679
皂履	-11.7679
呉	-11.768
佺	-11.768
靈寳无量度人上經	-11.7681
吁員	-11.7681
榦	-11.7681
餞	-11.7684
燠	-11.7684
以是義故	-11.7685
牲	-11.7685
狸	-11.7685
郝	-11.7685
持是經人名	-11.7688
呪曰謹請	-11.7689
或問何謂	-11.7689
睫	-11.769
落滅惡根	-11.7691
瑋	-11.7692
壬戌	-11.7693
我位上王	-11.7693
鑾	-11.7694
翺翔	-11.7694
撒	-11.7694
眇莽	-11.7694
田蠶	-11.7694
犀	-11.7695
霹	-11.7696
一如吿命	-11.7696
瀾	-11.7696
管轄	-11.7697
赤明開圖	-11.7697
愉	-11.7697
嶂	-11.7698
沮	-11.7698
九月九日	-11.7698
粉碎	-11.7698
櫛	-11.7699
禆	-11.7699
當知是人	-11.7699
逓	-11.7699
許遜	-11.77
爾時海空智藏	-11.77
毀謗	-11.77
珎	-11.77
五氣朝元	-11.77
中有南極長生之君	-11.77
杳杳㝠㝠	-11.7701
殗	-11.7701
執籙把籍齊到帝前	-11.7701
螟	-11.7701
珞	-11.7701
脱殻	-11.7702
惰	-11.7702
譯	-11.7702
混而爲一	-11.7702
隣	-11.7702
兖	-11.7703
燒灰	-11.7703
縊	-11.7703
漚	-11.7703
𡖖	-11.7703
中理五炁混合百神	-11.7703
隘	-11.7704
九和十合變化上清	-11.7704
盍	-11.7704
國安民	-11.7704
以爲效信	-11.7704
雞犬	-11.7704
中央黄老君	-11.7704
繹	-11.7704
觀妙先生	-11.7704
殃及九祖	-11.7705
敷落五篇	-11.7705
魔王敬形	-11.7705
千和萬合自然成眞	-11.7705
嵇	-11.7705
天中大魔天中之靈	-11.7705
靉	-11.7705
攷	-11.7706
說經九徧上方无極无量品	-11.7706
濵	-11.7706
幨	-11.7706
彎	-11.7707
粧	-11.7707
太玄道父	-11.7707
蚪	-11.7707
老聃	-11.7707
三千三百度	-11.7708
悼	-11.7708
和不可思議功德	-11.7708
來者有如	-11.7708
杭	-11.7708
上下兩弦	-11.7708
神仙抱一之道	-11.7709
彗孛	-11.7709
滚	-11.7709
說經五徧東北无極无量品	-11.7709
天神地祇	-11.7709
同氣皆當齊心修齋六時行香十遍轉經	-11.7709
庻	-11.7709
炁入玄玄	-11.771
癸丑	-11.7711
魁𩲃𩵄䰢魓𩳐魒	-11.7711
崗	-11.7711
昊天玉皇上帝	-11.7711
生身受度	-11.7711
牝牡	-11.7711
醺	-11.7712
杲	-11.7712
三界侍衞五帝司迎	-11.7713
渾淪	-11.7713
陰中有陽	-11.7713
十遍周竟十方無極	-11.7713
隄防	-11.7713
无鞅數衆	-11.7713
泠泠	-11.7714
泉曲之府	-11.7714
嫩	-11.7714
爍爍	-11.7715
觀復曰	-11.7715
等志心歸命禮	-11.7715
閃爍	-11.7715
清凈	-11.7715
獲福无量	-11.7715
皓庭霄度天	-11.7715
日魂月魄	-11.7716
閃電	-11.7716
萬範開張	-11.7716
堂修行至經無量度人願所啓上徹	-11.7716
闡揚	-11.7716
眞一子曰	-11.7716
辛丑	-11.7717
無生無滅	-11.7717
三天門下	-11.7717
昏衢	-11.7717
玄都右宫女青律文受者明慎奉行	-11.7717
斬伐	-11.7718
官寮	-11.7718
玄都左宫女青律文受者明愼奉行太	-11.7718
悲泣	-11.7719
羅公曰	-11.7719
无量爲萬道之宗巍巍大範德難可勝	-11.7721
勘破	-11.7721
龍漢延康	-11.7724
南斗上生	-11.7724
提携	-11.7725
木生火	-11.7727
長養萬物	-11.7729
真人志心朝禮	-11.7735
扶桑大帝	-11.7737
嗣敎	-11.7739
如是人者	-11.7743
地獄罪第	-11.7754
之驗也	-11.7777
塵不染	-11.7781
樓閣	-11.7841
和陽天	-11.7841
搯中指中	-11.7874
十過以召十方	-11.7896
苦惱身有光明三界侍衛五帝司迎	-11.7995
鱠	-11.8112
懀	-11.8161
殤	-11.8162
禺	-11.8166
渟	-11.8166
絆	-11.8168
汶	-11.8171
椒	-11.8171
萇	-11.8171
屨	-11.8175
鶉	-11.8175
濮	-11.8176
表一道玉皇嗣	-11.8176
虫	-11.818
頷	-11.8181
若有至人齎金寳質心依舊格告盟	-11.8182
永斷輪轉	-11.8182
萬劫不原	-11.8182
某誠感誠慶頓首頓首再拜謹言謝	-11.8183
卜筮	-11.8186
嘔	-11.8187
𡵯	-11.8187
徤	-11.8187
轆	-11.8188
嚙	-11.8189
清微元降大法	-11.8189
牋	-11.819
硬	-11.819
錐	-11.819
執符把籙保命生根	-11.8191
兩儀生四象	-11.8191
奧	-11.8192
純禧	-11.8192
猖狂	-11.8192
梁武	-11.8192
天人合發	-11.8194
坂	-11.8194
餒	-11.8194
石景水母	-11.8195
牡	-11.8195
殼	-11.8195
亡故某人	-11.8195
棺槨	-11.8195
詵	-11.8195
惹	-11.8195
稽首皈依虔誠讃詠	-11.8195
一陽初動	-11.8196
咬	-11.8196
翼轅	-11.8196
兜術天	-11.8197
轝	-11.8198
閔	-11.8198
不思議	-11.8198
騭	-11.8198
紳	-11.8199
週	-11.8199
珊瑚	-11.8199
閫	-11.8199
元始登引天眞大神上聖髙尊妙行眞人	-11.82
𦤺	-11.82
百姓日用而不知	-11.82
僉	-11.82
蚌	-11.8201
磕	-11.8201
務猷	-11.8201
九和十合	-11.8201
葉公曰	-11.8202
回骸起死	-11.8202
三十二天三十二帝	-11.8203
靈寳无量度人上經大法卷之五十	-11.8203
大有妙庭	-11.8203
犧	-11.8203
五藏六府	-11.8203
春夏秋冬	-11.8203
森羅淨霐	-11.8204
四炁朗清	-11.8204
諂	-11.8204
緇	-11.8204
稜	-11.8205
規矩	-11.8205
涿	-11.8205
五帝大魔萬神之宗	-11.8205
奉聖㫖	-11.8205
如經故難遇設使	-11.8206
福德立降消諸不祥无量之文普度	-11.8206
普掃不祥	-11.8206
幔亭	-11.8206
三茅眞君	-11.8207
億曾萬祖	-11.8207
鄷都	-11.8207
能令衆生	-11.8207
痢	-11.8207
姨母	-11.8207
傾土歸仰咸行善心	-11.8207
延壽益筭	-11.8208
亶婁阿薈	-11.8208
玉清无極總眞文昌大洞仙經	-11.8208
誠惶誠恐	-11.8208
信禮無上大羅天	-11.8208
龍蹻經	-11.8208
稚川	-11.8209
烜	-11.8209
善男女等	-11.8209
而作頌曰	-11.8209
老嫗	-11.8209
敖	-11.8209
土皆作	-11.821
鋟	-11.821
說經六徧東南无極无量品	-11.821
黑帝通血	-11.821
瀟瀟	-11.821
志心皈命	-11.821
蚊	-11.821
太煥極瑶天	-11.821
楓	-11.821
口口相傳	-11.821
澇	-11.821
上消天災保鎭帝王下禳毒害以度兆民	-11.8211
衆眞侍座	-11.8211
歃	-11.8212
咽喉	-11.8212
疾除罪簿落滅惡根不得拘留逼合鬼群	-11.8213
僖	-11.8213
安鎮國祚	-11.8213
四司五帝	-11.8213
抉	-11.8213
下有强兵戰勝之術	-11.8213
錄	-11.8213
𢍆	-11.8214
踐履	-11.8214
掀翻	-11.8214
保命延生	-11.8215
下禳毒害以度兆民	-11.8215
億曽萬祖	-11.8215
覷	-11.8216
金魚玉龍各一枚	-11.8216
跋	-11.8217
鎮其方民稱太平八節之日誦詠是經	-11.8218
釋迦	-11.8218
嗜酒	-11.8218
赤書玉篇眞文	-11.8219
普受開度	-11.8219
道言凡誦是經十過	-11.8219
空洞自然之	-11.8221
也義曰	-11.8223
天皇大帝	-11.8224
翁重天	-11.8224
逆旅	-11.8226
恍惚杳冥	-11.8227
何也天眞皇人曰	-11.8236
憐愍	-11.8243
之雷書曰一乃	-11.825
雷也五乃	-11.8256
雷也四乃	-11.8256
雷也三乃	-11.8256
雷也二乃	-11.8257
无量品至眞大神无鞅之衆浮空而至	-11.8268
獅子白鶴羅列左右	-11.8436
百千萬億	-11.8499
神王長生度世无量大神並乗	-11.8588
乾坤爲鼎	-11.8659
遒	-11.867
孺	-11.8674
明檢鬼營	-11.8686
氈	-11.8699
韁	-11.87
旭	-11.8701
歉	-11.8701
憊	-11.8702
介祉	-11.8703
亹	-11.8706
峨嵋	-11.8706
饗	-11.8707
侍經五帝玉童玉女各二十四人營	-11.8709
羹	-11.871
楮	-11.8712
杰	-11.8712
詹	-11.8712
𤔵	-11.8712
翛	-11.8713
稠	-11.8713
諫議大夫	-11.8715
已上正文	-11.8716
芻	-11.8716
姆	-11.8716
執籙把籍齊到帝前隨所應度嚴校諸天	-11.8717
愚人以天地文理聖我以時物文理哲	-11.8717
劉大彬	-11.8718
猗	-11.8719
潄	-11.8719
抽鉛添汞	-11.8719
江寧府	-11.872
鄱	-11.872
當爾之時	-11.8721
一如吿命風火驛傳	-11.8721
朱砂水銀	-11.8721
譙	-11.8722
遣中使	-11.8722
崇寧五年	-11.8722
聾盲	-11.8723
嗅	-11.8723
咽液九過	-11.8723
飛神召靈	-11.8724
葛仙公	-11.8724
浮空而來	-11.8724
閤皂	-11.8724
蔑	-11.8724
九嶷山	-11.8725
蕙	-11.8725
縑	-11.8725
十轉回靈	-11.8725
日用常行	-11.8725
倖	-11.8726
蝦	-11.8726
乙未年六月	-11.8726
登道岸	-11.8726
魚鼈	-11.8726
其詞略曰以爾	-11.8727
無去無來	-11.8727
夫行初品宗旨	-11.8728
功成行滿	-11.8728
三魂七魄	-11.8728
沫	-11.8728
是男是女	-11.8728
饑饉	-11.8728
脘	-11.8729
如彈丸	-11.8729
五行順治	-11.8729
閃	-11.8729
澆灌	-11.8729
青靈始老	-11.8729
莽莽	-11.8729
天地運度否終日月五星虧盈至聖	-11.873
驀	-11.873
華池神水	-11.8731
君度南極	-11.8731
狎	-11.8731
秖	-11.8731
盥	-11.8731
廻骸起死	-11.8731
至簡至易	-11.8731
穹窿	-11.8732
硫黄	-11.8732
許旌陽	-11.8732
正心誠意	-11.8732
耄	-11.8732
泒	-11.8732
九九八十一	-11.8733
出死入生	-11.8733
下鎮人身	-11.8733
天地運度亦有否終	-11.8733
玉符服符微祝曰	-11.8733
鼉	-11.8733
噬嗑	-11.8733
河上公	-11.8733
靈寳无量度人上經大法卷之六十	-11.8733
損之又損	-11.8733
芬芳	-11.8733
全其本年	-11.8733
魘	-11.8733
過去未來	-11.8734
元明文舉天	-11.8734
潦	-11.8734
再告左右侍眞曰	-11.8735
枯槁	-11.8735
窠	-11.8735
懶翁	-11.8735
觀明端靖天	-11.8736
獬	-11.8736
青腰玉女	-11.8736
普得濟度全其本年無有中傷傾土歸仰	-11.8736
貪婪	-11.8736
入藥鏡	-11.8736
慚愧	-11.8737
先天先地	-11.8737
妻妾	-11.8737
蘄	-11.8737
學之士修誦是經	-11.8738
母隱子胎	-11.8738
滕	-11.8738
封一通於	-11.8738
大梵隱語无量之音	-11.8738
道言此諸天中	-11.8739
㔶	-11.8739
喜慶難言法事粗悉諸天復位	-11.874
東斗主筭	-11.874
䑓	-11.874
生老病死	-11.874
甌	-11.874
太明玉完天	-11.874
鎭國祚保天長存世世不絶常爲人君安	-11.874
是謂無量普度無窮	-11.874
吒唎	-11.8742
天三生木	-11.8743
葛稚川	-11.8743
刀山食火	-11.8744
迯	-11.8746
誦詠是經	-11.8746
讒	-11.8746
謂弟子曰	-11.8746
向本命服	-11.8747
化作微塵	-11.8749
天立地	-11.8756
天眞皇人昔書其文以爲正音	-11.8766
神霄玉清王府	-11.8777
釐	-11.8797
勑制地祇	-11.881
本行經	-11.8886
歷世眞仙體道通鑑卷之三十	-11.8926
保迎萬徧道備	-11.9019
歷世眞仙體道通鑑卷之二十	-11.9094
茅山志卷之二十	-11.9138
夫齋戒誦經功德甚重	-11.9142
茅山志卷之十	-11.9166
供養尊禮	-11.9168
愬	-11.9208
顓	-11.9221
䙱	-11.9236
蹶	-11.9237
滉	-11.924
輳	-11.9243
梭	-11.9246
蟹	-11.9247
侖	-11.9253
蒨	-11.9254
慿	-11.9256
𤑔	-11.9258
猥	-11.9258
清微元降大法卷之十	-11.9262
砥	-11.9262
刁	-11.9262
煬	-11.9263
棒	-11.9263
脆	-11.9264
不知所終	-11.9265
鞏	-11.9265
昔書其文以爲正音	-11.9266
啄齒	-11.9266
泝	-11.9267
蟆	-11.9269
叠	-11.927
磻溪	-11.927
闠	-11.927
猖	-11.9271
山嶽藏雲	-11.9271
湄	-11.9271
嚳	-11.9271
縞	-11.9272
楫	-11.9272
颯	-11.9273
魑魅	-11.9274
亳州	-11.9274
有祕上天文諸天共所崇泄慢	-11.9274
玉符羽章呪曰	-11.9276
踴	-11.9276
五金八石	-11.9276
返老還童	-11.9276
神變氣化	-11.9276
馥郁	-11.9277
億乘萬騎浮空而來	-11.9277
慜	-11.9277
寂然不動感而遂通	-11.9277
埴	-11.9277
醪	-11.9278
是爲大梵天中之天	-11.9278
揀	-11.9278
萬六千	-11.9278
磁	-11.9279
魂精祕音内諱玉	-11.9279
梧	-11.9279
四千三百二十	-11.9279
吕洞賔	-11.928
疵癘	-11.928
上帝有敕	-11.928
太微小童	-11.9281
靈寳无量度人上經大法卷之十	-11.9281
菲	-11.9282
心生於物	-11.9282
受化更生	-11.9282
撑	-11.9282
蹔	-11.9282
吉凶悔吝	-11.9282
膩	-11.9282
膈	-11.9282
請滅三惡斬絶地根	-11.9282
无上内祕眞藏經卷之	-11.9283
太上一乘海空智藏經卷之	-11.9283
元始洞玄靈寳本章	-11.9283
恢弘	-11.9283
仰觀俯察	-11.9283
象帝之先	-11.9283
金木間隔	-11.9284
皁	-11.9284
中有度世司馬大神中有好生韓君丈人	-11.9284
兑	-11.9284
億乗萬騎浮空而來	-11.9284
赦宥	-11.9284
軻	-11.9285
咽液三過	-11.9285
璚	-11.9285
勺	-11.9285
瑜	-11.9285
𩵄䰢	-11.9285
同氣皆當齊心修齋六時行香十徧轉經	-11.9285
三華離便	-11.9286
神仙兵馬無鞅數衆悉令下降	-11.9286
仝	-11.9286
擲火萬里流鈴八衝	-11.9286
荆棘	-11.9286
非長非短	-11.9286
倏歘之間寂無	-11.9286
茹葷	-11.9286
刮	-11.9286
榭	-11.9287
謄	-11.9287
如見不得認是	-11.9287
上聖高尊	-11.9287
道言此諸天中大梵隱語無量之音舊文	-11.9288
旒	-11.9288
黄籙白簡	-11.9288
潺	-11.9289
三百八十四銖	-11.9289
天發殺機龍蛇起陸	-11.9289
太霄隱書	-11.9289
半箇時	-11.9289
今月某日	-11.9289
礴	-11.9289
一乘海空祕宻寳藏	-11.929
蟒	-11.929
貞白先生	-11.929
上生天堂	-11.929
矅	-11.929
劬	-11.929
内名隱韻之音亦是	-11.929
具位臣姓	-11.9291
佯	-11.9291
旤	-11.9291
斷地逮役	-11.9291
朱陵度命天尊	-11.9291
鷃	-11.9291
倶	-11.9292
龍變梵度天	-11.9292
日月五星亦有虧盈至聖神人亦有休否	-11.9292
掀	-11.9292
輻輳	-11.9292
感而遂通	-11.9292
右篆是前	-11.9292
悸	-11.9293
五文開廓普植神靈	-11.9293
𥨸	-11.9293
窈窕	-11.9293
靜黙山嶽吞煙萬靈振伏招集群仙天	-11.9294
太素秀樂禁上天	-11.9294
靈寳无量度人上經大法卷之三十	-11.9294
聞是說巳	-11.9294
骨肉同飛	-11.9294
諠	-11.9294
傾土歸仰	-11.9294
无无上眞	-11.9294
太極濛翳天	-11.9295
本命元辰	-11.9295
小人得之輕命	-11.9295
太上靈寳朝天謝罪大懴卷之	-11.9295
後天地生	-11.9296
這般	-11.9296
林靈素	-11.9296
𦋇於頂上乃黙呪曰	-11.9296
削死上生	-11.9296
捩	-11.9297
笙簧	-11.9297
如雞子	-11.9297
制魔保舉度品南宫	-11.9297
我命在我	-11.9297
官君將吏	-11.9298
笄	-11.9298
虎之弦氣	-11.9298
刀山食火二十四獄三塗五苦	-11.9298
月初三日	-11.9299
嵩高山	-11.9299
鎮國祚保天長存世世不絶常爲人君安	-11.9299
異香滿室	-11.9299
神明護門斯經尊妙獨歩玉京度人	-11.93
得爲九宫眞人本命之日誦詠是經	-11.93
殟	-11.9302
上開八門飛天法輪罪福禁戒宿命因縁	-11.9303
生身受度劫劫長存	-11.9305
溷	-11.9306
故來相	-11.9306
其第七第八二字	-11.9307
爲丹田者此是	-11.9307
非色非	-11.9311
上天所寳祕於	-11.9317
聖君金闕之臣諸天記人功過毫分無失	-11.9336
澄正萬氣長存不經	-11.9353
六百萬歳	-11.9373
大神一時同至一國男女傾心歸仰來者	-11.9425
道言凡有是經能爲天地	-11.9494
萬神朝禮三界侍軒	-11.9544
輕誦此章身則被殃	-11.9698
十轉回靈萬炁齊仙	-11.9701
天眞大神一時同至一國男女傾心歸仰	-11.9744
嫂	-11.9811
驤	-11.9817
尺二寸	-11.9818
眚	-11.9826
可加贈	-11.983
脗	-11.9833
爕	-11.9835
炫	-11.9835
㝢	-11.9836
詛	-11.9842
卭	-11.9845
劉混康	-11.9846
穹昊	-11.9846
囗	-11.985
摳	-11.9851
蟠桃	-11.9854
禬	-11.9855
䂓	-11.9856
執天之行	-11.9857
肘後飛金精	-11.9857
靈寳无量度人上經大法卷之四十	-11.9858
颼	-11.9859
鈐	-11.986
糠	-11.986
砭	-11.986
善信男子女人	-11.9861
奬	-11.9861
邕邕	-11.9861
上消天災保鎮帝王下禳毒害以度兆民	-11.9861
臣謹言曰	-11.9861
他效此占	-11.9862
緡	-11.9863
箴	-11.9863
之臣良謹言	-11.9863
噓	-11.9864
磧	-11.9865
八景神合	-11.9865
凭	-11.9866
精神魂魄意	-11.9866
缾	-11.9867
葉文叔	-11.9867
傾光回駕	-11.9867
吊	-11.9868
霾	-11.9868
悞	-11.9869
聻	-11.9869
無量度人上品妙經卷之三十	-11.987
寳不傳下世至士齎金寳效心盟天而傳	-11.987
嘹	-11.987
踊躍	-11.987
横天擔力	-11.987
鑠	-11.987
鰲	-11.987
礪	-11.987
十回度人	-11.987
鄷	-11.9871
糜	-11.9871
巴元醜伯	-11.9871
恍恍惚惚其中有物	-11.9871
雛	-11.9871
楝	-11.9872
税	-11.9872
褥	-11.9872
腭	-11.9872
攄	-11.9872
積功累行	-11.9872
鱉	-11.9872
元始即於寳珠之内	-11.9872
燾	-11.9872
俛	-11.9872
狠	-11.9872
芸芸	-11.9872
僮	-11.9872
牓	-11.9873
行住坐卧	-11.9873
渺茫	-11.9873
琉璃	-11.9873
磐	-11.9873
癰	-11.9874
隊仗	-11.9874
斬絶地根	-11.9874
風刀之考	-11.9874
羌	-11.9875
𢹂	-11.9875
禽之制在炁	-11.9875
萬帝設禮	-11.9876
青帝護魂	-11.9876
可特封	-11.9876
小陽九小百六	-11.9876
湫	-11.9876
生死受賴其福難勝故曰无量普度天人	-11.9876
侍香金童	-11.9876
宂	-11.9877
餉	-11.9877
玷	-11.9877
上相青童君	-11.9877
北都寒池	-11.9877
電掣	-11.9877
蹉跎	-11.9878
瞑	-11.9878
秤	-11.9878
騎九億萬衆九天玄元太空洞虚自然	-11.9878
道言是時元始天尊說經一徧東方	-11.9878
皇曾天	-11.9878
左日右月	-11.9878
彌羅無上天妙有玄	-11.9878
鏁	-11.9879
諸徒衆	-11.9879
哪	-11.988
奉辭而退	-11.988
梵監須延天	-11.988
鬧	-11.988
光玉皇天尊欽惟玉帝	-11.988
瘧	-11.988
十洲三島	-11.988
疫毒流行	-11.988
難思議	-11.9881
玄中之玄	-11.9881
號志心歸命禮	-11.9881
楹	-11.9881
今辰弟子	-11.9881
天尊曰善哉善哉	-11.9881
瑣	-11.9881
恍愡	-11.9881
二五之精	-11.9882
廻十過以召十方始當詣座	-11.9882
招集群仙	-11.9882
使者眞形符	-11.9883
光無文不明無文不立無文不成無文不	-11.9883
本命生辰	-11.9883
洫	-11.9883
紫虚鬱秀輔翼萬仙	-11.9883
非空非有	-11.9883
昱	-11.9883
懺悔	-11.9883
纖毫	-11.9883
具位臣某	-11.9883
直日香官	-11.9884
說經二遍南方無極無量品	-11.9884
恩生於害	-11.9884
北斗落死	-11.9884
蓑	-11.9885
拏	-11.9885
九老仙都君	-11.9885
上天度人嚴攝北酆	-11.9885
濟度垂死絶而得生所以爾者學士	-11.9885
飜	-11.9885
盲者目明	-11.9885
當知此人	-11.9885
白帝侍魄	-11.9885
說經三遍西方無極無量品	-11.9885
太張上	-11.9886
說經四遍北方無極無量品	-11.9886
迅雷烈風	-11.9887
沽	-11.9887
蓼	-11.9887
無量度人上品妙經元始洞玄靈寳本章	-11.9888
九真妙戒	-11.989
凌三界逍遥上清上清之天天帝	-11.989
長齋誦詠是經	-11.989
莱	-11.9891
蓬萊都水	-11.9891
大恩生	-11.9903
天王之内名	-11.9917
綿綿若存用之不勤	-11.9945
萬災不干	-11.9965
可不愼	-11.9985
屠割鬼爽	-12.0018
言無韻麗曲無華宛故謂玄奥難可尋詳	-12.0186
月十二日	-12.0195
項生圓象光映十方如此分明宻呪曰	-12.0244
慳	-12.0386
蕆	-12.0446
盼	-12.0457
兟	-12.0465
蜿	-12.0467
吻	-12.0468
錮	-12.0469
涪	-12.047
蠁	-12.0471
觚	-12.0472
魈	-12.0472
斿	-12.0474
河圖洛書	-12.0475
悛	-12.0477
臯	-12.0479
醎	-12.0479
飆	-12.0479
一如告命太歲年月日具位	-12.0479
組	-12.0479
穆天子傳	-12.048
斐	-12.048
八十七萬二千	-12.0481
𩵄	-12.0481
蚤	-12.0484
無質生質	-12.0484
闍	-12.0484
柱下史	-12.0485
郴	-12.0485
夾脊雙關	-12.0485
魃	-12.0485
焴	-12.0486
櫃	-12.0486
将	-12.0487
窮理盡性	-12.0487
魓	-12.0488
太素三元君	-12.0488
滲	-12.0488
涬	-12.0488
四千六百	-12.0488
寨	-12.049
有諸罪人	-12.049
鍊氣成神	-12.049
犁	-12.0492
盥漱	-12.0492
漙	-12.0492
中部八景洞玄飛行自然靈寳神僊	-12.0492
翶翔	-12.0492
庖	-12.0493
參校曰	-12.0493
中部三十二天洞玄	-12.0493
七八九六	-12.0493
聞吾呼召	-12.0493
沔	-12.0493
螺	-12.0493
鼇	-12.0494
輕泄漏慢殃及九祖長役鬼官侍經	-12.0494
以道用言	-12.0495
心生於物死於物機在目	-12.0495
與天地合德	-12.0495
叩齒三通咽液三過	-12.0495
熒熒	-12.0495
蒞	-12.0495
䑕	-12.0495
一動一靜	-12.0495
靈寳无量度人上經大法卷之二十	-12.0496
勛	-12.0496
至尊几前	-12.0496
溶溶	-12.0496
毬	-12.0497
綃	-12.0497
澍	-12.0498
潑	-12.0498
叚	-12.0498
千千截首萬萬剪形	-12.0498
五文開廓	-12.0498
泡	-12.0498
誼	-12.0498
臍下三寸	-12.0498
下部八景洞靈飛行自然靈寳神僊	-12.0499
上部八景洞天飛行自然靈寳神僊	-12.0499
升太空過度三界位登	-12.05
窻	-12.05
不得久停	-12.05
謟	-12.05
文始先生	-12.05
裊	-12.05
虵	-12.0501
妊	-12.0501
玄胎平育天	-12.0501
萬劫還生不人之道	-12.0501
满	-12.0502
璜	-12.0502
綻	-12.0502
玄明恭慶天	-12.0502
屐	-12.0502
辭參髙真第一	-12.0502
刀利禪猷	-12.0502
神人休否末學之夫疾傷凡有此災	-12.0502
陳景元	-12.0502
遺響是時天人遇值經法普得濟度	-12.0503
牎	-12.0503
仆	-12.0503
无所不辟无所不禳无所不度无所不成	-12.0503
左右中三府	-12.0503
穢氣未消體未洞眞	-12.0503
本行集經	-12.0504
威未制天政德可伏御地祇	-12.0504
敢有干試	-12.0504
具法位臣姓某	-12.0504
屣	-12.0504
筏	-12.0504
靈化梵輔天	-12.0504
深根固蒂	-12.0504
碓	-12.0504
搦	-12.0504
飭	-12.0504
螻蟻	-12.0504
是持經人	-12.0505
靈篇辭參髙眞第一	-12.0505
三反晝夜	-12.0505
一撞三關	-12.0505
褻	-12.0505
竺落皇笳天	-12.0505
饉	-12.0505
朱書上二字向	-12.0505
天地水三官	-12.0505
非有非無	-12.0505
衆等志心皈命大	-12.0505
琥	-12.0506
國主有災兵革四興	-12.0506
億劫種親	-12.0506
怱	-12.0507
說經六遍東南無極無量品	-12.0507
噪	-12.0507
陽中有陰	-12.0507
眹	-12.0507
急急如靈寳大法律令	-12.0507
修眞十書上清集卷	-12.0508
枯骨更生皆起成人	-12.0508
潁	-12.0508
蘇幕遮	-12.0509
空起滅同故以是因縁	-12.0509
天人仰看	-12.0509
善男子善女人	-12.0509
終而復始	-12.0509
是則爲空云何	-12.0509
螢	-12.0509
上清之天天帝	-12.0509
同時稱善	-12.051
太皇翁重浮容天	-12.051
陶弘景	-12.051
因藉而生與之起滅不得相離是則皆空	-12.051
硤	-12.051
歡喜踊躍	-12.051
天上天下無幽無㝠無形無影無極無窮	-12.051
飛雲丹霄	-12.0511
度人百魔隱韻離合自然	-12.0511
說經九遍上方無極無量品	-12.0511
無量之福生死蒙惠上天所	-12.0511
貶	-12.0512
戕	-12.0512
二寸四分	-12.0512
捍厄	-12.0513
靈風聚煙	-12.0513
蘚	-12.0513
入闇獄	-12.0513
禍發必剋	-12.0513
徑御無上三十二天元始上帝至尊几前	-12.0513
脛	-12.0514
𣲖	-12.0514
糾	-12.0514
金能生水	-12.0514
總炁上元	-12.0515
溫	-12.0515
蕊	-12.0515
歙	-12.0516
慵	-12.0516
憾	-12.0516
字皆廣長一丈天真皇人	-12.0516
庾	-12.0517
莾	-12.0518
至仁至孝至聖至慈聖	-12.0524
骨以受我	-12.0526
梵寳天	-12.0526
上剋下	-12.0532
瓔	-12.0533
神明護門	-12.0559
月望日	-12.0573
三界五帝列言上清	-12.0578
今日校録諸天臨軒	-12.0598
一口吹	-12.0643
歷關諸天請滅	-12.0699
氣之中内外蓊冥有青龍白虎朱雀玄武	-12.0758
從兆泥丸中入兆乃口吸神雲咽津	-12.0805
已身並充	-12.089
蟉	-12.0983
琛	-12.1075
三十二過閉目靜思身坐青黄白三色雲	-12.1076
迄	-12.1097
鞅	-12.1099
執法眞宰	-12.1104
萼	-12.1105
絛	-12.1107
嵬	-12.111
廩	-12.1118
莎	-12.1126
扆	-12.1126
四百萬歳	-12.1126
弋	-12.1131
逗	-12.1131
邏	-12.1134
下觀其身書其功勤	-12.1134
上天眷命皇帝聖㫖	-12.1136
顫	-12.1136
荘	-12.1137
纛	-12.1137
無任精虔激切之至謹奉表奏告以聞	-12.1139
嘶	-12.1141
珊	-12.1142
縶	-12.1143
皆當修齋行香誦經	-12.1144
玉谿子	-12.1144
曖	-12.1145
藁	-12.1145
罌	-12.1146
攘	-12.1146
虹蜺	-12.1147
周武王	-12.1148
槍	-12.1149
以何因縁	-12.1149
𩳐	-12.1149
惋	-12.115
匏	-12.115
說是語巳	-12.1151
右别至人剋得爲聖君金闕之臣	-12.1151
甥	-12.1151
用師十倍	-12.1153
癰疽	-12.1153
祈禳水旱	-12.1154
粘	-12.1154
啓道童子	-12.1155
郢	-12.1155
冽	-12.1155
鉗	-12.1155
圓陀陀	-12.1156
堕	-12.1156
愷	-12.1156
鳯凰	-12.1157
立天之道以定人也	-12.1157
逼合鬼群	-12.1157
串	-12.1157
誚	-12.1157
黄華蕩形	-12.1157
會眞記	-12.1158
有王相氣	-12.1158
瞋恚	-12.1158
駁	-12.1159
噠	-12.116
監醜朗馥	-12.116
羽林監	-12.116
瑯	-12.116
鬬	-12.116
旄	-12.1161
殳	-12.1161
正音有知其音能齋而誦之者諸天皆遣	-12.1161
高虚清明天	-12.1161
氅	-12.1161
匡御衆魔	-12.1161
冗	-12.1161
凄	-12.1162
朦朧	-12.1162
孑	-12.1162
漉	-12.1163
涅槃	-12.1163
末學之夫	-12.1163
澈	-12.1163
諸天仙衆	-12.1163
三天扶教輔元大法	-12.1163
鎬	-12.1163
日月有數大小有定聖功生焉神明出焉	-12.1163
蹉	-12.1164
逋	-12.1164
内外蓊冥有青龍白虎朱雀玄武	-12.1164
慟	-12.1164
下觀其身書其功勤上奏諸天	-12.1164
淆	-12.1164
名爲恬愉我說	-12.1165
𦋇	-12.1165
硃	-12.1165
鍵	-12.1166
故曰食其時百骸理動其機萬化安	-12.1166
㓕	-12.1166
五嶽眞形圖	-12.1166
玉音攝氣靈風聚	-12.1166
姧	-12.1166
如車輪	-12.1166
嵳峩	-12.1166
負天擔石	-12.1166
普吿三界	-12.1166
伶	-12.1167
素奏丹符	-12.1167
動其機萬化安	-12.1167
靜黙山嶽吞煙萬靈振伏	-12.1167
眞境渺渺紫金闕太微玉清宫	-12.1168
嚴攝北酆	-12.1168
視之不見聽之不聞	-12.1168
聞是語巳	-12.1168
眇眇劫仞若亡若存	-12.1169
襪臈	-12.1169
某月某日	-12.1169
天性人也人心機也立天之道以定人也	-12.117
等志心稽首禮謝无上	-12.117
不得又仙五犯	-12.117
品道言昔於始青天中	-12.117
胸臆	-12.117
罵詈	-12.117
諸天齊功	-12.117
髏	-12.117
蒜	-12.1171
桀	-12.1171
身得神仙諸天書名黄籙白簡削死上生	-12.1172
九萬九千	-12.1172
使之然也	-12.1172
廳	-12.1172
天五生土	-12.1172
痰	-12.1172
鶯	-12.1172
繋	-12.1172
无量之奥深不可詳	-12.1173
山嶽吞煙	-12.1173
正謂此也	-12.1173
東方安寳華林青靈始老	-12.1174
西方七寳金門皓靈皇老	-12.1174
芋	-12.1174
陰盡陽純	-12.1174
學之士誦之十過則五帝侍衛三界稽首	-12.1174
身得神仙諸天書名黃籙白簡削死上生	-12.1175
淳祐九年	-12.1175
周流六虚	-12.1175
喑	-12.1175
千乘萬騎	-12.1175
様	-12.1175
色衆真侍座元始天尊玄坐空浮	-12.1175
太極平育賈奕天	-12.1175
生天生地	-12.1176
曜明宗飄天	-12.1176
檀熾鈞	-12.1176
說經十遍下方無極無量品	-12.1176
魔無干犯鬼無祅精	-12.1176
得道之後昇入無形	-12.1176
法自生是知	-12.1176
憍	-12.1176
元始上帝告左右侍眞曰	-12.1176
龍之弦氣	-12.1176
謹上請	-12.1176
攴	-12.1177
龍從火裏出	-12.1177
出法度人	-12.1177
賞善罰惡	-12.1177
說經五遍東北無極無量品	-12.1178
店	-12.1178
鎗	-12.1178
施肩吾	-12.1179
說經七遍西南無極無量品	-12.118
褚	-12.118
元始符命時刻升遷	-12.1181
生生化化	-12.1182
吾今爲汝	-12.1182
蠧	-12.1182
怏	-12.1182
鷺	-12.1183
剩	-12.1183
摭	-12.1183
黄演之炁	-12.1184
君一人官將一百二十人	-12.1187
媒娉	-12.119
如前吸咽吹水鏡	-12.1191
盟天而傳輕泄漏慢殃及九祖長役鬼官	-12.1195
臨過之時同學至人	-12.1202
少室山	-12.1214
堂曜天	-12.1247
寳不傳下世至士齎金寳	-12.1279
千千截首	-12.1327
天真自然之音也故誦之致飛天下觀	-12.1359
興隆世世昌熾與善因縁萬	-12.138
無上玄元太上道君召	-12.139
上天所寳祕於玄都紫微	-12.1489
神王長生大聖無量度人上方無極	-12.1624
神王長生大聖無量度人東北無極	-12.1708
神王長生大聖無量度人西南無極	-12.1721
神王長生大聖無量度人東南無極	-12.1736
神王長生大聖無量度人西北無極	-12.1737
神王長生大聖無量度人南方無極	-12.177
神王長生大聖無量度人西方無極	-12.1771
軺	-12.1808
企	-12.1817
頴	-12.1819
縟	-12.1828
發改正	-12.1829
渦	-12.1832
𨚧	-12.1833
紇	-12.1835
蹻	-12.1835
盎	-12.1836
澒	-12.1837
璉	-12.184
漪	-12.1844
絮	-12.1851
繖	-12.1853
罟	-12.1853
虺	-12.1853
萬五千二百	-12.1854
揉	-12.1855
鬛	-12.1855
邛	-12.1855
睟	-12.1855
升此天釋云	-12.1856
神王長生大聖無量度人下方無極	-12.1857
瀘	-12.1858
鶩	-12.1858
冬夏二至	-12.186
流鈴八衝	-12.1861
迤	-12.1861
通玄究微能悉其章誦之十過	-12.1862
宋高宗紹興	-12.1863
到靈解山	-12.1863
杻	-12.1863
哂	-12.1863
聒	-12.1864
生於天地之先	-12.1864
太極生兩儀	-12.1864
謠	-12.1864
解禳山谷瘴癘	-12.1865
爇	-12.1865
衒	-12.1865
著諸小兒	-12.1865
腕	-12.1866
滸	-12.1866
自午至亥	-12.1867
狡	-12.1867
逈	-12.1868
膻	-12.1868
上件亡魂	-12.1868
君子得之固躬小人得之輕命	-12.1868
濠	-12.1868
五行生成之數	-12.1869
猛馬四張	-12.1869
憔悴	-12.187
侶	-12.187
二三四五	-12.187
檻	-12.187
糺	-12.1871
吠	-12.1871
薨	-12.1871
翩	-12.1872
鹵	-12.1872
定録君㖟言	-12.1872
光透簾幃	-12.1872
枷鎻	-12.1872
懌	-12.1872
甓	-12.1873
移星易宿	-12.1873
非内非外	-12.1873
善男善女	-12.1873
三十六部尊經	-12.1874
勉旃	-12.1874
特降玉清道炁靈寳妙光	-12.1874
鄭思遠	-12.1874
怛	-12.1874
謳	-12.1875
憲宗元和	-12.1875
疥	-12.1875
天一地二	-12.1875
凹	-12.1875
天人合發萬變定基	-12.1876
齊同慈愛異骨成親	-12.1877
逭	-12.1877
喗	-12.1877
妥	-12.1877
鋭	-12.1877
三盜既宜三才既安	-12.1877
乾道成男坤道成女	-12.1878
魑	-12.1878
順行虎向水中生	-12.1878
匕	-12.1878
混元實録	-12.1878
椽	-12.1878
箸	-12.1878
匆	-12.1878
驅雷役電	-12.1878
壙	-12.1878
以女妻	-12.1878
喜慶難言	-12.1879
從劫至劫	-12.1879
黯	-12.1879
虚明堂曜天	-12.1879
飛度五戸	-12.188
掉	-12.188
冥慧洞清	-12.1881
魔王監舉無拘天門	-12.1881
日月停景璇璣不行	-12.1881
賒	-12.1881
元始天尊說經一徧東方无極无量品	-12.1881
濟度垂死絶而得生	-12.1881
諸天中大梵隱語无量音	-12.1882
周廻十方	-12.1882
闋	-12.1882
陌	-12.1882
玉皇尊帝	-12.1882
无思江由天	-12.1882
攅	-12.1882
抺	-12.1882
臓腑	-12.1882
罪福禁戒宿命因縁普受開度	-12.1882
襃	-12.1882
隨所應度	-12.1883
耘	-12.1883
難可思議	-12.1883
一得永得	-12.1883
三百六十五度	-12.1883
岀臣身中三五功曹左右官使者侍香	-12.1883
一三五七九	-12.1884
無拘天門東斗	-12.1884
鍚	-12.1884
我以時物文理哲	-12.1884
㝠慧洞清大量玄玄也元始	-12.1884
汰	-12.1884
鬟	-12.1884
左街道録	-12.1885
彝	-12.1885
髙上神霄玉清王祝曰	-12.1885
无文不光无文不明无文不立无文不	-12.1885
搖	-12.1886
覈	-12.1886
木金間隔	-12.1886
吉凶法第	-12.1886
純陽帝君神化妙通紀卷之	-12.1886
衙	-12.1886
溟涬大梵遼廓無光	-12.1886
太釋玉隆騰勝天	-12.1886
國人廓散地還平正無復欹陷元始即於	-12.1886
太虚无上常融天	-12.1886
司徒師坦	-12.1887
魂神徑上南宫隨其學功計日而得更生	-12.1887
捍	-12.1887
宇宙在乎手	-12.1887
恭準元降	-12.1887
貪累苦形	-12.1887
九千九百度	-12.1887
八景玉輿	-12.1887
灣	-12.1887
勃勃從珠口中入既入珠口不知所在	-12.1887
皺	-12.1888
知白守黑	-12.1888
蕉	-12.1888
魔精喪眼鬼祅滅爽	-12.1888
說經八遍西北無極無量品	-12.1889
北都寒池部衛形魂	-12.1889
而好學至經功滿	-12.1889
㗸	-12.1889
泆	-12.189
晻	-12.189
上天所寳	-12.189
自下而上	-12.189
音參洞章誦之百遍名度南宮誦之千遍	-12.189
之難所以爲大不易者	-12.189
華都曲麗	-12.189
束縳魔靈但却死而已不能更生	-12.1891
舊科七千年	-12.1891
承天效法	-12.1891
不得留停	-12.1892
翽	-12.1892
負石填河	-12.1892
傚	-12.1892
南方梵寳昌陽丹靈眞老	-12.1893
中上二字書	-12.1893
跛痾積逮皆能起行	-12.1893
賺	-12.1894
刅	-12.1894
之神龍宫官屬	-12.1894
睨	-12.1894
轉禮經懴	-12.1896
各一人官將各一百二十人	-12.1896
犯伐功斷事	-12.1896
喑者能言	-12.1896
今日吉慶	-12.1896
日朱書第五第六二字	-12.1897
茆	-12.1897
萬神朝禮名書上天功滿徳就飛昇上清	-12.1898
閶	-12.1898
迮國一半土皆偏陷非可禁止於是元始	-12.1899
叮嚀	-12.1899
明炁四騫	-12.19
迮國一半土皆偏䧟非可禁止於是元始	-12.19
佚	-12.1902
霪	-12.1903
面三目	-12.1903
保迎萬遍道備飛	-12.1904
應夢儲祥	-12.1904
天眞自然之音也	-12.1905
揈	-12.1906
大觀元年	-12.1907
唵嚩	-12.1907
符師曰凡人	-12.1926
者其德如	-12.1926
量之福生死䝉惠上天	-12.2037
帝遥唱萬神朝禮三界侍軒群祅	-12.2102
无量上品元始天尊當說是經周	-12.2118
道言夫末學道淺或	-12.2123
之上說經一遍諸天大聖同時稱善是時	-12.2124
末學道淺	-12.2173
昇太空過度三界位登仙公有聞靈音	-12.2305
上宫依玄科四萬劫一傳若有至人齎	-12.2421
天真自然之音也故誦之致	-12.2438
之上說經一徧諸天大聖同時稱善是時	-12.2513
唳	-12.2516
執鴈翎刀	-12.252
生死受頼其福難勝故曰无量普度天人	-12.2522
下觀上帝遥唱萬神朝禮三界侍軒群祅	-12.2539
𤤠	-12.2553
蛆	-12.2562
塲	-12.258
鮓	-12.2591
估	-12.2593
騤	-12.2597
邕	-12.2606
闃	-12.2607
珂	-12.261
屹	-12.2612
涘	-12.2614
茱	-12.2617
慝	-12.2617
嗤	-12.2619
碭	-12.262
朂	-12.2621
擯	-12.2622
竚	-12.2625
帬	-12.2625
聃	-12.2625
种	-12.2625
帑	-12.2626
肢	-12.2626
沱	-12.2626
痺	-12.2626
臓	-12.2626
閴	-12.2627
五萬五千九百	-12.2628
闐	-12.2628
薬	-12.2629
三田返復	-12.2629
丘劉譚馬	-12.263
幟	-12.263
疽	-12.263
賂	-12.2631
正一盟威	-12.2633
赤符丹光	-12.2633
紫度炎光	-12.2634
湛然常寂	-12.2635
沂	-12.2635
鑛	-12.2635
厢	-12.2636
畦	-12.2636
漳	-12.2636
六七八九	-12.2637
嘏	-12.2638
嘯命風雷	-12.2639
三尸九蟲	-12.2639
非有非无	-12.2639
叩齒三十二通	-12.2639
沁園春	-12.2639
五萬五千五百	-12.264
挫	-12.264
撚	-12.264
帝一尊君	-12.264
甃	-12.264
閔巴狂	-12.2641
莢	-12.2641
反山六目	-12.2641
慇懃	-12.2641
罐	-12.2641
嵯峨	-12.2642
愴	-12.2642
魔王保迎	-12.2642
天无浮翳	-12.2642
神王長生度世無量大神並乗	-12.2643
皆諸天記名萬神侍衛	-12.2643
徐來勒	-12.2643
襁	-12.2643
泬	-12.2643
常應常靜	-12.2643
天眞自然之音也故誦之致	-12.2643
蠹	-12.2643
仁義禮智	-12.2643
瀨	-12.2643
恵	-12.2644
亳	-12.2644
䘵	-12.2644
懿宗咸通	-12.2645
抃	-12.2645
吐故納新	-12.2645
篡	-12.2646
返本還源	-12.2646
无上洞清混沌自然	-12.2646
嚞	-12.2646
磴	-12.2647
紿	-12.2647
御女之術	-12.2647
罅	-12.2647
七情六慾	-12.2647
冥慧洞清大量玄玄也	-12.2647
束縛魔靈	-12.2647
螫	-12.2647
藂	-12.2648
撿	-12.2648
三百八十四	-12.2648
朝屯暮蒙	-12.2648
流羅梵萌	-12.2649
懊	-12.265
度學者之身	-12.265
著想尊容	-12.265
種罪報一者	-12.265
粱	-12.2651
其福難勝	-12.2651
惡口兩舌	-12.2651
個	-12.2652
不亦難乎	-12.2652
眥	-12.2652
攣	-12.2652
有物混成先天地生	-12.2652
詧	-12.2652
鄲	-12.2652
麝	-12.2652
妙品元始天尊當說是經周	-12.2652
普告三界无極神郷	-12.2653
化屍受形	-12.2653
取五方炁吹	-12.2653
十月胎圓	-12.2653
害生於恩	-12.2653
普得濟度全其本年無有中傷	-12.2653
天中空洞自然靈章	-12.2654
拜表上章	-12.2654
普植神靈	-12.2654
天中第一第二二字	-12.2655
瓮	-12.2655
大陽九大百六	-12.2655
呢	-12.2655
元始天尊說經一遍東方無極無量品	-12.2655
婿	-12.2655
仙鄕童子	-12.2655
丞相南昌上宫韓司主録監生大神	-12.2656
魂度朱陵受鍊更生是謂无量普度	-12.2656
默朝上帝	-12.2656
日月照明洞煥室内	-12.2656
敇	-12.2656
誦之百徧名度南宫誦之千徧	-12.2657
卿比平安好遣書指不多及	-12.2657
雁	-12.2657
負石之役	-12.2657
襯	-12.2657
黿	-12.2657
摺	-12.2657
保制劫運使天長存梵炁彌羅萬範開張	-12.2657
廻生起死	-12.2658
阿人歌洞章以攝北羅酆	-12.2658
帝玉司君	-12.2658
洗心滌慮	-12.2658
畊	-12.2658
白素右元君	-12.2658
精津氣血液	-12.2658
騷	-12.2659
至樂性餘至靜則廉	-12.2659
冡	-12.2659
衞神文保護受經者身	-12.2659
三家相見結嬰兒	-12.2659
謌	-12.2659
鎭其方民稱太平八節之日誦詠是經	-12.266
大福堂國	-12.266
亢倉子	-12.266
項生圓象光映十方如此分明	-12.2661
不得稽停	-12.2661
捜	-12.2661
泰玄都省	-12.2661
東三南二同成五	-12.2662
郵	-12.2663
不可稱量	-12.2663
後皆得作尸解之道	-12.2663
㠯	-12.2663
虎之弦炁也	-12.2663
霹靂轟轟	-12.2664
尋聲赴感	-12.2664
上無復祖惟道爲身	-12.2665
青元眞人曰	-12.2665
河海靜黙山嶽藏雲	-12.2666
濛翳天	-12.2667
金剛乗天	-12.2672
臣含光言	-12.2673
萬神朝禮地祇侍門大勲魔王保舉	-12.268
君各一人官將各一百二十人主	-12.2683
桂香内殿文昌輔宫	-12.2684
生身身得受生上聞諸天諸天之上	-12.2695
各有生門中有	-12.27
無量度人今日校録諸天臨軒東方無極	-12.2706
一切神仙諸靈官	-12.2715
言凡有是經能爲天地帝主兆民行是功	-12.3028
故謂玄奥難可尋詳上天所寳祕於玄都	-12.3098
三色雲氣之中内外蓊冥	-12.3164
无量上品元始天尊當說是經周回十過	-12.3237
无量度人今日校録諸天臨軒東方无極	-12.3264
斬邪滅怪	-12.3382
神王長生大聖無量度人北方無極	-12.3393
以召十方始當詣座天眞大神	-12.34
扐	-12.3401
顥	-12.3407
呱	-12.3411
翬	-12.342
汎景太霞嘯詠洞章	-12.3423
乃膜拜而受	-12.343
脹	-12.3432
葦	-12.3434
釵	-12.3436
摙	-12.3437
嗷	-12.3437
七萃之士	-12.3437
楠	-12.3438
七星除祅	-12.3446
崛	-12.3448
凊	-12.3448
酩	-12.3448
鍔	-12.3449
畛	-12.3449
兠鍪	-12.3449
隥	-12.345
烝	-12.3451
窘	-12.3451
暦	-12.3452
蜚	-12.3453
跼	-12.3453
崙	-12.3453
崎	-12.3453
㗶	-12.3454
敘	-12.3454
涇	-12.3455
喙	-12.3455
嶇	-12.3455
躶	-12.3455
祓	-12.3456
爨	-12.3456
徯	-12.3457
瀰	-12.3457
茸	-12.3457
金蓮正宗記	-12.3457
棊	-12.3457
曼	-12.3458
修眞十書雜著捷徑卷之二十	-12.3458
墮地獄禍及七祖翁道言此二章並是	-12.3459
茭	-12.3459
瓣	-12.3459
宮請進	-12.3459
瘕	-12.3459
弑	-12.3459
歧	-12.3459
懾	-12.346
自强不息	-12.3461
大元至元	-12.3465
聖功生焉神明出焉	-12.3465
波梨答惒天	-12.3466
郄	-12.3467
太歲年月日具位	-12.3467
能事畢矣	-12.3467
僝	-12.3467
在日辰陰陽中	-12.3468
蚖	-12.3468
斁	-12.3469
茟	-12.3469
草衣兒	-12.3469
萬物皆備於我	-12.347
武宗皇帝加封	-12.347
芷	-12.347
甍	-12.347
俻	-12.347
睢	-12.347
變化助吾真靈攝召生炁爲亡過某化生	-12.347
翼轅億乗萬騎浮空而來傾光回駕	-12.3471
黄水月華	-12.3471
又爲上請	-12.3471
貰	-12.3471
呑	-12.3471
炤	-12.3471
嚧	-12.3472
糵	-12.3473
金龍驛傳	-12.3473
蜺	-12.3473
顱	-12.3473
朶	-12.3473
能聞是此香者	-12.3473
攬姿運容	-12.3474
殢	-12.3474
聆	-12.3474
七祖充責	-12.3474
拘魂制魄	-12.3474
宓	-12.3474
攖	-12.3475
嶓	-12.3475
瞞	-12.3475
關尹子	-12.3475
白日登晨	-12.3475
榼	-12.3475
邙	-12.3476
婆泥咎通	-12.3476
熳	-12.3477
經靈符上清境	-12.3477
筍	-12.3477
面壁九年	-12.3478
萬神敬聽	-12.3478
眼耳鼻舌身意	-12.3478
恂	-12.3478
律曰男官女官主者	-12.3478
煦	-12.3478
天之无恩而大恩生	-12.3478
幽幽冥冥	-12.3478
悌	-12.3478
嫰	-12.3479
髽	-12.3479
珀	-12.3479
角亢氐房心尾箕	-12.3479
皿	-12.3479
一以貫之	-12.3479
豢	-12.3479
日瘟鬼名	-12.3479
元始符命時刻昇遷北都寒池部衛形	-12.3479
棄賢世界	-12.348
獅	-12.348
三辰光煇	-12.348
九日導乾	-12.348
簧	-12.348
南方丙丁火	-12.348
消魔玉符訣曰當朱書黄繒佩之存呼	-12.348
緝	-12.348
不相剋陰得	-12.348
吾過去後	-12.348
無有窮盡	-12.348
瘁	-12.3481
易有太極是生兩儀	-12.3481
弦望晦朔	-12.3481
魂度朱陵	-12.3481
可得聞乎鍾曰	-12.3481
帝主兆民行是功徳有災之日發心修齋	-12.3481
蘋	-12.3481
韵	-12.3481
一升一降	-12.3481
女虚危室壁	-12.3482
圯	-12.3483
魂神澄正	-12.3483
蝸	-12.3483
廖	-12.3483
金童傳言玉女五帝直符直日香官	-12.3483
轉輪不滅便得神仙	-12.3483
之報此乃深可畏	-12.3484
巽離兊	-12.3484
澀	-12.3484
筯	-12.3484
丰	-12.3484
還精補腦	-12.3484
天地運終星宿錯度日月失昏四時失度	-12.3484
豺	-12.3484
頫	-12.3484
福徳立降消諸不祥無量之文普度無窮	-12.3485
洄	-12.3485
攔	-12.3485
羨	-12.3485
𩲙	-12.3485
月瘟鬼名	-12.3485
子後午前	-12.3486
炅	-12.3486
孰能與於此哉	-12.3486
辰戌丑未	-12.3486
芹	-12.3486
龐	-12.3486
異骨成親	-12.3486
迢迢	-12.3486
愜	-12.3487
二四六八十	-12.3487
諳	-12.3487
國人廓散地還平正	-12.3487
千和萬合自然成真真中有神	-12.3487
鮮菩育臻	-12.3487
奎婁胃昴畢觜參	-12.3487
心肝脾肺腎	-12.3487
有災之日發心修齋焼香誦經十過	-12.3488
堤	-12.3488
西斗記名北斗落死南斗上生中斗大魁	-12.3488
鸚	-12.3488
輪轉不惑便得神仙道言夫天地運終	-12.3489
塋	-12.3489
三花聚頂	-12.3489
火生於木禍發必尅	-12.3489
無量之奥深不可詳	-12.3489
懸一寳珠	-12.3489
皆方一丈八角煥明	-12.3489
可不慎歟	-12.349
我等徒衆	-12.349
:	-12.349
眼耳鼻舌	-12.349
言无韻麗曲无華宛故謂玄奥難可尋詳	-12.349
喃	-12.349
皆即受度飛昇南宫世人受誦	-12.3491
上昇朱宫格皆九年受化更生得爲貴人	-12.3491
中天星主紫微	-12.3491
人官將各一百二十人	-12.3491
禽之制在氣	-12.3492
霶	-12.3492
帯	-12.3493
一國地土	-12.3493
隱韻之音亦是	-12.3493
右别至人尅得爲	-12.3493
素景燿靈	-12.3493
說經十遍下方无極无量品	-12.3493
人誦此章即	-12.3493
吾爲汝說	-12.3494
天騶甲卒	-12.3494
一之炁而成天境	-12.3494
害命坐人	-12.3494
黒帝通血	-12.3494
捨身受身	-12.3494
獄考鬼靈官酆都山	-12.3495
寖	-12.3495
蒙惠上天所寳不傳下世至士	-12.3495
髙虚清明天	-12.3495
太文翰寵妙成天	-12.3495
色聲香味觸	-12.3496
笻	-12.3496
元始安鎮敷落五篇赤書玉字八威龍文	-12.3496
北一西方四共之	-12.3497
玄坐空浮	-12.3497
臣及甲乙	-12.3498
嚤	-12.3498
安爐立鼎	-12.3498
无想无結无愛天	-12.3498
徳難可勝道言凡誦是經十過	-12.35
遡	-12.3501
隲	-12.3501
制魔保舉度品南宫死魂受鍊仙化成人	-12.3502
胎卵濕化	-12.3502
劫輪轉與天齊年永度三塗五苦八難超	-12.3502
金闕昭凝	-12.3504
太清樂太清樂右十	-12.3504
勾婁吉利	-12.3507
迴十過以召十方始當詣座天	-12.3508
元始登引天真大神上聖髙尊妙行真人	-12.3522
人營衛神文保護受經者身道言正月	-12.3532
金寳質心依舊格告盟十天然後而付焉	-12.356
來者有如細雨宻霧	-12.3607
細入毫	-12.3616
充左右二官	-12.3865
不經苦惱身有光明	-12.388
保迎萬徧道備飛昇太空過度三界位登	-12.3903
送迎拔出地戸五苦八難七祖升遷永離	-12.4136
莘	-12.4267
彚	-12.4307
不得容隱金馬驛呈	-12.4308
魂神澄正萬氣長存	-12.4315
詡	-12.4316
贏	-12.4325
煜	-12.4327
攫	-12.433
隈	-12.4339
淙	-12.4342
闥	-12.4342
璟	-12.4347
玄憲仙格	-12.4347
璖	-12.4349
糊	-12.4349
竽	-12.4352
彷	-12.4352
窄	-12.436
慷	-12.436
狻	-12.4362
鵰	-12.4363
寗	-12.4364
鈃	-12.4364
礦	-12.4364
嶸	-12.4365
劉仲禄	-12.4366
扎	-12.4368
癃	-12.4368
黷	-12.4368
縉	-12.4369
纘	-12.437
耻	-12.4371
褁	-12.4372
譎	-12.4372
鼈	-12.4373
碌碌	-12.4373
奭	-12.4373
甑	-12.4374
沍	-12.4374
斬滅五行邪怪	-12.4375
質心依舊格告盟十天然後而付焉道言	-12.4375
懃	-12.4376
紫英玉惠元君	-12.4376
清微元降大法卷之二十	-12.4376
專氣致柔	-12.4376
迺	-12.4377
修眞十書雜著指玄篇卷之	-12.4378
潜深淵浮游守規中	-12.4378
金逢望遠	-12.4378
儘	-12.4378
仔	-12.4379
瑾	-12.4379
旁門小法	-12.4379
千經萬論	-12.4379
飛砂走石	-12.438
一寒一暑	-12.438
喜客泉	-12.438
思惟義味	-12.438
趕	-12.438
尫	-12.438
複	-12.438
元世祖皇帝封號	-12.4381
朞	-12.4381
有箇烏飛	-12.4381
祖先見存眷屬塵寰品彚長夜幽	-12.4381
驎	-12.4382
犂	-12.4382
天羅地網	-12.4383
廐	-12.4383
口是心非	-12.4383
金書祕字	-12.4384
孱	-12.4384
袠	-12.4384
眞人濟生度死眞人萬福護身眞人	-12.4385
定録君受言	-12.4385
𧷤	-12.4385
唐太宗貞觀	-12.4385
荄	-12.4385
自然之道靜故天地萬物生	-12.4385
乙未年七月	-12.4385
嚇	-12.4386
榴	-12.4386
玲	-12.4386
宗靈七非天宫	-12.4386
歎未曽有	-12.4386
風雲雷雨電	-12.4386
傀	-12.4386
捏	-12.4386
萬化生乎身	-12.4386
七十二相八十一好	-12.4386
枸	-12.4386
蝎	-12.4386
𠮷	-12.4386
道言元始天尊說經中所言	-12.4386
忖	-12.4387
鴛	-12.4387
鄴	-12.4387
萬有一千五百二十	-12.4387
打成一片	-12.4387
魓𩳐魒	-12.4387
矍	-12.4388
凡禱輒應吾民是依錫之新封用彰	-12.4388
象馬車乘	-12.4388
消魔玉符訣曰當	-12.4388
窮理盡性以至於命	-12.4388
非世上常辭	-12.4388
有嘆莫能窮	-12.4388
帝父帝母至聖至眞三寳三界一切眞靈	-12.4388
傾光迴駕	-12.4388
舁	-12.4388
踖	-12.4389
投胎奪舍	-12.4389
幷	-12.4389
俸	-12.4389
閨	-12.439
無有異色衆眞侍座元始天尊玄坐空浮	-12.439
厥懿朕命惟允其鑒于兹可特封	-12.439
曝	-12.439
天之無恩而大恩生	-12.4391
千三百九十二萬	-12.4391
灸	-12.4391
𩴑	-12.4391
急急如律令太上三洞神呪卷之	-12.4391
𧇊	-12.4391
搶	-12.4391
艤	-12.4391
袒	-12.4392
八百一十丈	-12.4392
聵	-12.4392
哽	-12.4392
二千一十五萬五	-12.4392
温温鉛鼎	-12.4392
慊	-12.4393
膂	-12.4393
青帝護魂白帝侍魄赤帝	-12.4393
烱	-12.4393
無量上品元始天尊當說是經周	-12.4393
爲其行香誦經十過以度尸形如法	-12.4393
磑	-12.4393
二百一十有六坤之	-12.4394
埀	-12.4394
㨿	-12.4394
瞰	-12.4394
宫太一大天帝保制劫運天尊	-12.4394
無量爲萬道之宗巍巍大範德難可勝	-12.4394
翦形魔無干犯鬼無祅精三官	-12.4394
祿	-12.4394
欀	-12.4394
懵	-12.4394
散騎常侍	-12.4395
立降消諸不祥無量之文普度無窮	-12.4396
酹	-12.4396
袴	-12.4396
姹	-12.4396
蕚	-12.4396
雲上九都飛生自騫	-12.4396
髙上玉皇滿願寳懴	-12.4396
無有限量	-12.4396
醋	-12.4397
愛累苦神門	-12.4397
閥	-12.4397
金籙簡文	-12.4397
食其時百骸理	-12.4397
急急如眞科律令	-12.4397
坤母東覆形攝上玄	-12.4397
𧕏	-12.4397
金樓玉殿	-12.4397
欲界色界无色界	-12.4397
疾除罪簿落滅惡根	-12.4397
碧落浮黎空歌保珍	-12.4398
爾不樂仙道三界那得過	-12.4398
淄	-12.4398
黄帝中主萬神无越	-12.4398
一闔一闢	-12.4398
華競苦精門	-12.4398
薤	-12.4398
龍蛇起陸	-12.4398
沉水入火自取滅亡	-12.4399
滿庭芳	-12.4399
波羅尼密不驕樂天	-12.4399
六天洞淵大帝伏魔上上太一天尊六波	-12.4399
經靈符太清境	-12.4399
无鞅數衆俱入寳珠之中天人仰看	-12.4399
無極無上聖廓落發光明寂寂浩	-12.4399
幢鼓節遊觀太空自號赫奕諸天齊功	-12.44
膊	-12.44
糟	-12.44
色累苦心門	-12.44
修眞十書卷之五十	-12.44
癸生須急採	-12.44
人知其神而神不知不神而所以神	-12.4401
焼香誦經十過皆諸天記名萬神侍衛	-12.4401
九天採訪使應元保運妙化	-12.4401
靈寳天尊太清仙境	-12.4401
无量之文普度无窮	-12.4401
若存若亡	-12.4401
靂	-12.4401
修眞十書金丹大成集卷之	-12.4401
雞抱卵	-12.4401
相吞相啖	-12.4401
馥朗廓奕神纓自宫	-12.4402
諦聽善思	-12.4402
擎羊陀羅	-12.4402
陰陽不測之謂	-12.4402
說經八遍西北无極无量品	-12.4402
某領録奉大道弟子某等謹	-12.4403
輕誦此章	-12.4403
說經七遍西南无極无量品	-12.4403
項生圎象光映十方如此分明宻呪曰	-12.4403
敭	-12.4403
上清眞境太上道君	-12.4404
群祅束首鬼精自亡琳琅振響十方肅清	-12.4404
說經六遍東南无極无量品	-12.4404
說經五遍東北无極无量品	-12.4404
國安民豐欣樂太平經始出教一國	-12.4405
壻	-12.4405
檏	-12.4405
說經三遍西方无極无量品	-12.4405
說經四遍北方无極无量品	-12.4405
豚	-12.4406
世界无極國土解禳山谷瘴癘大神	-12.4406
稼那阿奕忽訶流吟	-12.4407
熛	-12.4407
威靈恢廓	-12.4408
斸	-12.4408
上无復色下无復淵	-12.4408
死者生之根	-12.4408
舉隨方救苦天尊	-12.4408
戯	-12.4408
至尊至貴	-12.4408
通天徹地	-12.4409
梵形落空九靈推前	-12.441
取東南炁吹	-12.441
飛灑玉都明魔上門	-12.4411
隨劫輪轉與天齊年	-12.4411
聾病耳皆開聰	-12.4411
十迴度人	-12.4412
撤	-12.4412
李德裕	-12.4413
洞魔王聖衆酆都山	-12.4413
缸	-12.4414
永度三途五苦八難	-12.4415
幪	-12.4415
讁	-12.4416
諸天共所崇泄慢墮地獄禍及七祖翁	-12.4418
生慳貪心或見	-12.442
懸一寳珠大如黍米在空玄之中去地	-12.4421
違律罰筭	-12.4421
溪真仙官聖衆	-12.4433
旣入珠口不知所在	-12.4467
歌音音參洞章誦之百	-12.4554
運應滅度身經太隂	-12.4596
後刑屠割鬼爽風火無停千千截首萬萬	-12.4614
仙道貴生無量度人	-12.4663
中理五氣混合百神	-12.4811
屠割鬼爽風火無停千千截首萬萬剪形	-12.4917
恭望天慈	-12.4985
飛天保延世劫神王長生大聖无量度人	-12.5265
上天所寳不傳下世至士齎金寳效心	-12.5268
長生眞人年四十	-12.5303
旍	-12.5308
无極消禳災厄神王長生大聖无量度人	-12.5312
上清樂上清樂右	-12.5317
腆	-12.5326
鉏	-12.5327
埤	-12.5328
是故海空亦非非	-12.5328
三界之上飛空之中魔王歌音音參洞章	-12.5329
翌	-12.533
罰功墮事	-12.5335
滇	-12.5338
憇	-12.5341
戞	-12.5346
𡣕	-12.5346
茄	-12.535
元始符命金籙白簡長生靈符	-12.5352
縝	-12.5352
褰	-12.5353
窪	-12.5354
搢	-12.5355
珉	-12.5357
駝	-12.5359
以度屍形如法	-12.5359
玻	-12.5361
鎰	-12.5361
漭	-12.5363
𦍒	-12.5364
䰢	-12.5364
始天尊說經中所言並是諸天上帝内名	-12.5365
蚓	-12.5366
欝	-12.5366
宋哲宗	-12.5367
𦕈	-12.5367
僥	-12.5368
三元九宫太一真皇長生大聖无量度人	-12.5368
寞	-12.5368
躇	-12.5368
冦	-12.5369
肸	-12.537
炁總炁丈人	-12.537
蘧	-12.5371
禳災解厄洞神至眞	-12.5371
𠷈	-12.5373
邴	-12.5373
麵	-12.5373
餚	-12.5374
化尸受形	-12.5374
峪	-12.5374
墮地獄長劫受苦苦盡復生	-12.5374
卻	-12.5374
瑗	-12.5375
烘	-12.5375
鴨	-12.5376
疾除罪簿落滅惡根不得拘留逼合鬼羣	-12.5376
藕	-12.5376
簑	-12.5376
從微至著	-12.5377
疹	-12.5377
燋	-12.5377
太霄琅書瓊文帝章	-12.5377
𦋇於頂上黙呪曰	-12.5378
譁	-12.5378
顯瑞符應	-12.5378
天三地四天五地六天七地八天九地十	-12.5379
其盜機也天下莫能見莫能知	-12.5379
演法垂文	-12.538
略試論之	-12.538
桉	-12.5381
湎	-12.5381
薛季昌	-12.5381
經靈符玉清境	-12.5381
叵	-12.5382
碽	-12.5382
三世金仙大乗菩薩十方至聖無量帝君	-12.5382
删	-12.5382
殮	-12.5382
方城勝因童子	-12.5382
笋	-12.5382
忮	-12.5382
泪	-12.5383
土皆作碧玉無有異色	-12.5383
職惟領教理難抑違謹㳙今月某日	-12.5383
之境梵行東方八天	-12.5383
迴骸起死无量度人今日校録諸天臨軒	-12.5383
鷰	-12.5383
警化純陽孚佑帝君	-12.5384
祼	-12.5384
三盗既宜三才既安	-12.5384
業者見在世中	-12.5384
積行累功	-12.5384
伏望聖慈	-12.5384
寂兮寥兮	-12.5384
宣揚懴法	-12.5384
仙衆雷霆諸司天將法籙	-12.5385
上聞諸天諸天之上各有生門	-12.5385
父精母血	-12.5385
碣	-12.5385
大聖大慈大悲大願昔未	-12.5385
等下情無任懇祝讃揚之至普與過	-12.5385
巻	-12.5385
恭望暫離帝闕欵駐凡筵俯察精䖍鑒蘋	-12.5386
吞魔食鬼	-12.5386
襦	-12.5386
度朱陵受鍊更生是謂無量普度	-12.5386
鎮國祚保天長存世世	-12.5386
上上禪善无量壽天	-12.5386
道場衆等人各運心長跪禮懴如法具籙	-12.5386
曲之府北都羅酆三官九府十二河源	-12.5386
至眞大聖無鞅之衆浮空而至	-12.5386
澳	-12.5386
闚	-12.5386
覆護受持是此經者敕命	-12.5386
三元三官大帝北極四聖眞君	-12.5387
旦式展芻忱香花羅列以	-12.5387
屛	-12.5387
叡	-12.5387
婆婁阿貪	-12.5387
慈悲度厄眞人	-12.5387
𤓁	-12.5387
玉宸大道自然大神無鞅之衆浮空而至	-12.5388
嘈	-12.5388
鴆	-12.5388
巇	-12.5388
躓	-12.5388
瘳	-12.5388
訕	-12.5388
梵摩迦夷天	-12.5388
重陽祖師年四十	-12.5388
軄	-12.5389
飛天大醜總監上天	-12.5389
黛	-12.5389
宣宗大中	-12.5389
勗	-12.5389
髫	-12.5389
仙化成人生身受度劫劫長存隨	-12.539
至聖神人亦有	-12.539
三十二字祕文書于	-12.539
痒	-12.539
金馬驛程	-12.539
不宜輕弄	-12.539
帝父光嚴妙樂國王帝母寳月光皇后清	-12.5391
憧	-12.5391
杉	-12.5391
成變化而行鬼神	-12.5391
混混沌沌	-12.5391
歌音音參洞章誦之百遍名度南	-12.5392
乘雲駕龍白日昇天	-12.5392
詫	-12.5392
五仙中靈之炁	-12.5392
魂神徑上南宮隨其學功計日而得更生	-12.5392
黄婆媒合	-12.5392
天一地二天三地四	-12.5392
群魔束形鬼精滅爽	-12.5392
跌	-12.5392
敢司連宛	-12.5393
大中祥符	-12.5393
鎸	-12.5393
斯經尊妙	-12.5393
柝	-12.5393
焜	-12.5393
惡業罪消滅天尊言弟子受真戒者不得	-12.5393
隨所應度嚴校諸天	-12.5393
非可禁止於是元始	-12.5393
瘢	-12.5394
天動地靜	-12.5394
嶢	-12.5394
䜛	-12.5394
是大惡業非真人行	-12.5394
蠱毒鬼名	-12.5394
僭	-12.5394
沬	-12.5394
上大光明圓滿大神呪	-12.5394
分梨十化	-12.5395
統天元聖天尊東極青華大帝太	-12.5395
无鞅數衆乗空而來	-12.5395
飛天玉明主運	-12.5395
彪	-12.5395
正陽開悟傳道	-12.5395
願神願仙	-12.5395
洞煥太空七日七夜諸天	-12.5395
右玉皇誥命以錫	-12.5396
两	-12.5396
悉是空法一切	-12.5396
自然香妙洞眞香超三界香三境	-12.5396
道備克得遊行三界升入金門此音	-12.5396
人志心朝禮慈悲救度	-12.5396
夙生慶幸	-12.5397
東蜀蓬萊山中陽子衛琪	-12.5397
炁天君令統御	-12.5397
无惒觀音	-12.5397
不能更生輕誦此章身則被殃供養尊禮	-12.5397
氓	-12.5397
瞭	-12.5397
天性人也人心機也	-12.5398
秣	-12.5398
在靈解山	-12.5398
是故燒香歸身	-12.5398
衆眞侍座元始天尊玄坐空浮	-12.5398
濩	-12.5398
人爲萬物之靈	-12.5398
南極星主紫微上宫天皇	-12.5398
眞香滿瓊樓玉京遍周天法界	-12.5398
冀肸蠁以潜通馨香感神仗氤氲而上達	-12.5398
溶	-12.5399
捶	-12.5399
鎮人身泥丸絳宫中理五炁混合百神	-12.5399
闕者考屬	-12.5399
之隱名也非世之常辭	-12.5399
明大聖九天應元雷聲普化天尊九天雷	-12.5399
金眞朗郁流響雲營	-12.5399
君各五人官將各一百二十人主	-12.5399
帝消魔王呪曰	-12.5399
道德天尊太上昊天至尊金闕玉皇上帝	-12.5399
億曽萬祖幽魂苦爽皆即受度上升朱	-12.5399
萬神朝禮名書上天功滿德就飛升上清	-12.5399
那育郁馥摩羅法輪	-12.54
厚德光大后土皇地祇南極長生大帝	-12.54
青靈始老洞空天尊南方三炁天中丹靈	-12.54
姨	-12.54
元梵恢漠幽寂度人	-12.54
坎男離女	-12.54
天尊中央一炁天中玄靈元老洞眞天尊	-12.54
剗	-12.5401
悄	-12.5401
可韓司丈人	-12.5401
說經九遍上方无極无量品	-12.5401
銀青光禄大夫	-12.5401
從東出配	-12.5401
飛天神符除難神王長生大聖無量度人	-12.5401
右件玉章天篆一百	-12.5402
狙	-12.5402
雲行雨施	-12.5402
須延明首法攬菩曇	-12.5402
凙	-12.5402
己之陰汞	-12.5402
精正氣至真大神無鞅之衆浮空而至	-12.5402
嶽仙官至長齋百日精思靈寳尊神則	-12.5403
豸	-12.5403
弃	-12.5403
神仙抱一演道章	-12.5403
嶽神仙芝草不死之藥	-12.5403
玉明運度至眞大神無鞅之衆浮空而至	-12.5403
龍王水旱二司无鞅之衆浮空而至	-12.5404
椀	-12.5404
若有善信男女	-12.5404
十遍周竟十方无極	-12.5405
佪	-12.5405
道言是時元始天尊說經一遍東方	-12.5405
無極飛光騰燿神王長生大聖無量度人	-12.5405
犯廢功斷事不得又仙	-12.5405
靈寳无量度人上品妙經卷之十	-12.5406
延劫保世至真大神無鞅之衆浮空而至	-12.5406
無極靈威神王長生大聖無量度人	-12.5406
六慾七情	-12.5406
㳺	-12.5406
紵	-12.5406
九開自辯阿那品首	-12.5407
鞅之衆升空而至	-12.5407
淼	-12.5407
龍之弦炁也	-12.5407
下部三十二天洞靈八景	-12.5408
瀣	-12.5408
修眞十書武夷集卷之五十	-12.5408
梵氣彌羅萬範開張	-12.5408
徭	-12.5408
絞	-12.5408
霳	-12.5409
無極鍊氣變仙長生大聖無量度人	-12.5409
眞皇人曰修飛仙之道	-12.541
生諸瞋怒或見	-12.541
回屍起死白骨成人	-12.5411
說經二遍南方无極无量品	-12.5411
亘古亘今	-12.5412
无極飛天主律神王長生大聖无量度人	-12.5413
答落大梵散煙慶雲	-12.5415
愠	-12.5415
隂陽不調國境有災	-12.5416
故誦之致飛天下觀上帝遥唱	-12.5418
夸	-12.5419
天君無鞅之衆浮空而至	-12.5419
司馬季主	-12.542
勻	-12.542
三級紅樓	-12.5424
薄由我恩	-12.5428
眞帝皇鍊炁洞	-12.5431
不肯布施或見	-12.5436
度符神王至真大神無鞅之衆浮空而至	-12.5438
荣	-12.5443
變化上清无量之奥深不可詳敷落神眞	-12.546
宫女青律文受者明慎奉行	-12.5493
无極洞神禳災神王長生大聖无量度人	-12.5566
无量普度天人道言凡有是經能爲	-12.5578
十方至眞飛天神王長生度世无量大神	-12.5663
明護門斯經尊妙獨歩玉亰度人	-12.5936
之日發心修齋燒香誦經十過	-12.6101
九千六百	-12.6294
座之上說經一	-12.6368
岵	-12.6395
無極飛天正氣神王長生大聖無量度人	-12.64
暾	-12.6418
嶪	-12.642
傞	-12.6421
浥	-12.643
鎭塚墓	-12.6432
稅	-12.6432
斯經尊妙獨步玉京	-12.6435
遊上清出入華房八冥之内細微之中下	-12.6443
㐫	-12.6443
攙	-12.6448
偁	-12.645
撃	-12.6451
成无文不度无文不生	-12.6452
岨	-12.6452
苓	-12.6455
黼	-12.6457
沅	-12.6457
名誠惶誠懼頓首頓首謹言	-12.6458
囹	-12.646
睇	-12.646
儆	-12.646
鸛	-12.646
丹陽眞人年五十	-12.646
涖	-12.6461
狴	-12.6461
碾	-12.6464
是謂无量普度无窮	-12.6465
元始懸一寳珠大如黍米在空玄之中	-12.6465
縲	-12.6465
鏹	-12.6465
頏	-12.6466
俎	-12.6467
軾	-12.6468
姙	-12.6468
樗	-12.6468
嘷	-12.6469
曈	-12.6469
鉦	-12.6469
侁	-12.647
竢	-12.647
纊	-12.647
諺	-12.6471
皦	-12.6472
飦	-12.6472
熄	-12.6473
鳶	-12.6473
苐	-12.6473
衛神文保護受經者身	-12.6474
蒭	-12.6476
欬	-12.6476
骼	-12.6476
桴	-12.6476
弇	-12.6476
澌	-12.6477
撇	-12.6478
箒	-12.6478
璃	-12.6478
莅	-12.6478
綦	-12.6479
佃	-12.648
霄明烈真君	-12.6481
明體貫氣	-12.6481
靳	-12.6481
异	-12.6481
生化胎根斷除邪穢	-12.6481
芟	-12.6482
磊	-12.6482
地獄畜生餓鬼	-12.6482
犠	-12.6483
眞人無極之國	-12.6483
受元始度人无量上品	-12.6483
箠	-12.6483
⬤	-12.6483
髼	-12.6483
羽飛衣駕	-12.6483
三字祕天之	-12.6483
罰筭一紀	-12.6483
玉清昭應宫	-12.6484
腔	-12.6485
蹕	-12.6485
炁威龍上將	-12.6485
昶	-12.6486
軋	-12.6486
悒	-12.6487
躊	-12.6488
輯	-12.6488
憨	-12.6488
瘠	-12.6488
舋	-12.6488
觀覺鬱繿	-12.6489
火生於木禍發必尅姦生於國時動必潰	-12.6489
惺	-12.6489
自從無始以來	-12.6489
㐲	-12.649
魔王監舉无拘天門	-12.649
韭	-12.649
華陽眞人施肩吾希聖	-12.649
月胎鬼名	-12.649
名爲恬愉能行	-12.6491
一切天人莫不受慶无量之福生死蒙惠	-12.6491
自號赫奕諸天齊功	-12.6491
璇璣玉衡一時停輪	-12.6491
蠲化水火災癘	-12.6492
夢幻泡影	-12.6492
桶	-12.6492
江水府之神龍宫官屬	-12.6492
汀	-12.6493
活潑潑	-12.6493
暐	-12.6494
吮	-12.6494
紫皇太乙神捷	-12.6494
怯	-12.6494
太霄琅書瓊文一徧則	-12.6495
泥象執文	-12.6495
厮	-12.6495
右謹上請帝眞	-12.6495
𦂶	-12.6495
襪	-12.6495
㓗	-12.6495
諌	-12.6495
巵神燈施	-12.6495
保仙元君靈寳道德正一全眞諸	-12.6495
妙行眞人夜光玉女靈妃玉女一切元君	-12.6495
三華離便大有妙庭金闕玉房森羅淨霐	-12.6496
上帝遥唱萬神朝禮三界侍軒羣祅	-12.6496
閎	-12.6497
奉道之士所患者	-12.6497
㕑	-12.6497
天師眞君九天開化司禄宏仁帝君演	-12.6497
璋	-12.6497
擦	-12.6497
糴	-12.6497
次焚符旋遶誦	-12.6497
癖	-12.6497
丿	-12.6497
矇	-12.6498
和光同塵	-12.6498
行步如飛	-12.6498
跂	-12.6498
銓	-12.6498
魂傾倒䖍恭皈依敬禮稱揚名號	-12.6498
氤	-12.6498
國安民豐欣樂太平	-12.6498
錠	-12.6498
咏	-12.6498
主管教門公事	-12.6498
悽	-12.6498
慱	-12.6498
琁	-12.6498
景蔚蕭嵎	-12.6499
印令官君十方飛天神王	-12.6499
口傳心授	-12.6499
賙	-12.6499
明晨耐犯武城天宫	-12.6499
瘂	-12.6499
和願薦此亡靈往生極樂國	-12.6499
澶	-12.6499
眞一不二法門	-12.6499
驄	-12.6499
𥝠	-12.6499
仰對元慈	-12.6499
絶利一源用師十倍三反晝夜用師萬倍	-12.65
奏爲入意願冀感通曲從所禱以今恭逢	-12.65
長生大君無英公子白元尊神	-12.65
乾兊離震	-12.65
衹	-12.65
撈	-12.65
紫陽眞人悟眞篇三註卷之	-12.65
經筵啓問玉虚上帝昊天上帝五老上帝	-12.65
淤	-12.6501
元始无量度人上品妙經註解卷	-12.6501
櫟	-12.6501
玦	-12.6501
娛	-12.6501
撩	-12.6501
時動必潰	-12.6501
或隱或顯	-12.6501
上遊上清岀入	-12.6501
譌	-12.6502
拔出地户五苦八難	-12.6502
保眞者少迷惑者多	-12.6502
人能常清靜天地悉皆歸	-12.6502
迢	-12.6502
目擊道存	-12.6502
芊	-12.6502
尅得爲聖君金闕之臣	-12.6502
咈	-12.6503
裨	-12.6503
立躋聖位	-12.6503
肘後飛金晶	-12.6503
而海空者實非	-12.6503
玉誕長桑栢空度仙	-12.6503
𡨕	-12.6503
内諱百靈之隱名也非世之常辭	-12.6503
七祖昇遷永離鬼官魂度朱陵受鍊更生	-12.6503
揜	-12.6503
欷	-12.6503
寝	-12.6503
上无復祖唯道爲身	-12.6503
焚香供養冥府第	-12.6504
故謂玄奥難可尋詳上天所寶	-12.6504
地土皇君玄契曰	-12.6504
元始說先天道德經註解卷之	-12.6505
神公受命普掃不祥	-12.6505
宜弘善以迎之其眞君戴星冠躡朱履衣	-12.6505
白絹四十尺	-12.6505
僵	-12.6505
如世人運炁逢遇多有	-12.6505
郤	-12.6505
今故賚爾	-12.6505
彙	-12.6505
腿	-12.6506
漣汲溟波	-12.6506
靜極復動	-12.6506
白骨成人至學之士誦之十過則	-12.6506
九日九夜諸天	-12.6506
卿比平安好遺書指不多及	-12.6506
惔	-12.6506
但却死而已不能更生	-12.6506
賽	-12.6506
佩身又書白紙本命八節日服之内思	-12.6506
泱	-12.6506
覆護受持是此經者我敕	-12.6506
十徧周竟十方	-12.6507
甖	-12.6507
邳	-12.6507
五老啓途群仙翼轅	-12.6507
普伸供養說經教主元始天尊抱送玉帝	-12.6507
效心盟天而傳輕泄漏慢殃	-12.6507
芭	-12.6507
蟾光終日照西川	-12.6507
千乗萬騎	-12.6507
咸蒙護度	-12.6507
元始安鎭敷落五篇赤書玉字	-12.6508
靈寶无量度人上品妙經卷之二十	-12.6508
娟	-12.6508
身累苦魂門	-12.6508
匍	-12.6508
匐	-12.6508
使其幽扄輝耀地獄澄清㧞度	-12.6508
太上昇玄消災護命妙經	-12.6508
籃	-12.6508
無鞅數衆俱入寳珠之中天人仰看惟見	-12.6508
我界難度故作洞文變化飛空以試爾身	-12.6508
既入珠口不知所在	-12.6508
周氏玄通記	-12.6509
易數鈎隱	-12.6509
某人備嚴醮典首謝眞靈謹依科式建立	-12.6509
鋩	-12.6509
竸	-12.6509
无極飛天日中神王長生大聖无量度人	-12.6509
保世升平	-12.6509
肴	-12.6509
宕	-12.6509
師子白鶴羅列左右日月照明洞煥室内	-12.6509
攢簇五行合和四象	-12.6509
簟	-12.651
雲從龍風從虎	-12.651
水調歌頭	-12.651
嗄	-12.651
刀山火郷二十四獄三塗五苦	-12.651
丧	-12.651
久病痼疾	-12.651
爲上世亡䰟斷地逮役度上南	-12.651
貴實人道貴華	-12.651
俓御无上三十二天元始上帝至尊几前	-12.651
楙	-12.651
七星金劔垂白玉環珮宜圖形供養以異	-12.651
八眞合景君	-12.651
昃	-12.651
道備尅得遊行三界昇入金門此音	-12.651
戸五苦八難七祖昇遷永離	-12.651
歸命五體投地志心朝禮玉清聖境	-12.6511
扛	-12.6511
格然燈威儀科式至重今齋官某人修建	-12.6511
花珍果淨水名香	-12.6511
上部三十二天洞天八景	-12.6511
今醮士某	-12.6512
天中大梵隱語无量音道君撰元始靈書	-12.6512
姜叔茂	-12.6512
天晶騰曜	-12.6512
祖大帝除災濟物天尊紫微碧玉	-12.6512
細雨密霧	-12.6512
摧山倒嶽	-12.6513
帝梵行觀生	-12.6513
惡獸毒螫皆不生害心反善仁	-12.6513
永度三塗五苦八難超凌三界逍遥上清	-12.6513
五賊在心施行於天	-12.6513
髮白返黑齒落更生	-12.6513
帝龍羅覺長	-12.6513
寂然兠術天	-12.6513
眞仙聖衆一切威靈符命所臨如誥奉行	-12.6513
億曽萬祖幽魂苦爽皆即受度上	-12.6513
自利利他	-12.6513
無宗玄範總十方湛寂眞常道恢漠大神	-12.6514
姒	-12.6514
所受神呪誥命	-12.6514
洲上真得道一切神仙	-12.6514
前嘯九鳳齊唱後吹八鸞同鳴	-12.6514
老洞清天尊西方七炁天中皓靈皇老洞	-12.6514
東華南極西靈北	-12.6514
度上南宮七月長齋誦詠是經	-12.6515
呪天蓬天蓬	-12.6515
依玄科四萬劫一	-12.6515
帝君從吏神兵无鞅之衆浮空而至說經	-12.6515
玉帝誥一遍	-12.6515
急勑律令元始天尊說下元衆生	-12.6515
清堂修行至經	-12.6515
鬼道樂兮當人生門	-12.6516
色雲氣之中内外蓊㝠有	-12.6516
升遷永離鬼官魂度朱陵受鍊更生	-12.6516
仙道貴度鬼道相連	-12.6516
蛤	-12.6516
忉	-12.6516
悋	-12.6516
𡵨	-12.6517
更生永命天尊	-12.6517
千和萬合自然成眞眞中有神長生大君	-12.6517
胖	-12.6517
而好學至經功滿徳就皆得神仙飛	-12.6517
火裏栽蓮	-12.6517
等志心皈神皈身皈命	-12.6518
譖	-12.6518
壠	-12.6518
第二色界魔王之章	-12.6519
生神寳章衆和宣章	-12.6519
禫	-12.6519
齁	-12.652
他准此第	-12.6522
天尊告太上道君曰	-12.6524
元綱流演三十二天輪轉無色周	-12.6524
宋神宗熙寧	-12.6527
志心朝禮九天應元雷聲普化天尊髙上	-12.6527
帝眞文篇以安	-12.6528
三人持符降下定三䰟安七𩲸保胎護命	-12.6528
斗七星除祅大神無鞅之衆浮空而至	-12.6528
无窮一切天人莫不受慶无量之福生	-12.6529
戒曰勸助	-12.653
蔌	-12.653
右别至人剋得爲聖君金	-12.6536
立人之道曰仁與義	-12.6538
个	-12.6546
批答李含光表	-12.6558
是謂无量普度无窮有祕上天文	-12.6558
分野社令正神	-12.6582
諸天皆遣飛天神王下觀其身書其功勤	-12.6592
㦎	-12.6622
執符把籙保命生根上遊上清出入	-12.6738
亦保舉爾身得道者乃當洞明至言也	-12.6787
童玉女各二十四人	-12.6832
天慈俯垂	-12.6967
人身泥丸絳宫中理五氣混合百神十轉	-12.7183
泉曲之府北都羅酆三官九署十二河源	-12.7246
犍	-12.7615
三界之上飛空之中眞王歌音音參洞章	-12.7624
氊	-12.7658
璆	-12.7658
不知所在國人廓散	-12.7664
遹	-12.7665
无量之奥深不可詳敷落神眞普度天人	-12.7666
醯	-12.7681
糅	-12.7681
瞀	-12.7684
長生眞人年五十	-12.7684
洚	-12.7685
跣	-12.7686
犇	-12.7686
酎	-12.7692
摛	-12.7694
按道君玉注云	-12.7695
騖	-12.7696
琤	-12.7696
漯	-12.7696
鬲	-12.7699
臨過之時同學至人爲其行香誦經十過	-12.7702
應運下傳若有至人齎金寳質心依舊格	-12.7705
騮	-12.7706
霔	-12.7707
髦	-12.7707
峴	-12.771
璠	-12.7712
蓀	-12.7713
嵯	-12.7713
璀	-12.7714
三爻皆變而之	-12.7714
𠰢	-12.7717
繄	-12.7718
羆	-12.7719
麴	-12.7719
馹	-12.772
餔	-12.7721
尸起死白骨成人	-12.7722
錞	-12.7722
行而行行之一相衆生一相	-12.7723
鋉	-12.7723
一如告命准靈寳大法律令	-12.7724
汜	-12.7725
嫣	-12.7726
郡開國公	-12.7727
苖	-12.7727
稊	-12.7727
魔之所試也當	-12.7728
篩	-12.7729
喏	-12.773
紬	-12.7732
葭	-12.7733
蚩	-12.7733
睥	-12.7733
駑	-12.7734
纁	-12.7734
一萬三千五百息	-12.7734
䑛	-12.7734
㗭	-12.7735
五帝六甲左右靈飛之	-12.7736
覡	-12.7736
賖	-12.7737
隤	-12.7737
𠎝	-12.7737
崦	-12.7737
乾道變化各正性命	-12.7738
疣	-12.7738
龍光道明元君	-12.7739
臾	-12.7739
中部八景洞玄飛行三五直靈神僊	-12.7739
欎	-12.774
搐	-12.7741
圄	-12.7741
龢	-12.7741
酪	-12.7741
金闕昭凝妙道保仙元君祖	-12.7741
天眞自然之音也故誦之致飛天下觀上	-12.7742
嶧	-12.7742
外陽而内陰	-12.7742
不憎不𡜍	-12.7742
傳藥不傳火	-12.7742
代宗大曆	-12.7743
呷	-12.7743
装	-12.7743
大聖衆至眞尊神无極大道	-12.7743
紉	-12.7744
下部八景洞靈飛行三五直靈神僊	-12.7744
大巧若拙	-12.7744
少私寡欲	-12.7744
霰	-12.7744
䘙	-12.7744
殺諒事宗天宫	-12.7744
羗	-12.7745
諸天隱諱諸天隱名	-12.7745
琬	-12.7745
苾	-12.7745
湟	-12.7745
億乗萬騎	-12.7745
唐德宗貞元	-12.7745
𢇁	-12.7745
允執厥中	-12.7745
舸	-12.7745
下觀上帝遙唱萬神朝禮三界侍軒	-12.7745
募	-12.7746
天地之道浸故陰陽勝	-12.7746
閈	-12.7746
匙	-12.7747
毳	-12.7747
跽	-12.7747
儂	-12.7747
俚	-12.7747
悍	-12.7747
駸	-12.7747
玉谿子丹經指要	-12.7747
飛僊上眞各三千二百人	-12.7748
不疾而速不行而至	-12.7748
蛛	-12.7748
慤	-12.7748
其大無外其小無内	-12.7748
𢡖	-12.7748
𠻗	-12.7749
磅	-12.7749
孤陰寡陽	-12.7749
出天尊懿號	-12.7749
弧	-12.7749
瑀	-12.7749
蘩之報謝洞矜懇禱副草芥之微	-12.7749
帝鬱繿玉明	-12.7749
啇	-12.7749
天地萬物之盜萬物人之盜人萬物之盜	-12.7749
奩	-12.7749
碭尸冥演由之炁	-12.7749
簉	-12.7749
敢有小鬼欲來	-12.7749
大千世界之内十方國土之中一切	-12.775
丫	-12.775
天上天下無幽無冥無形無影無極無窮	-12.775
空洞謡歌之章真王靈篇辭參髙真第一	-12.775
胜	-12.775
阿繿郁竺	-12.775
應感一切眞仙悉仗眞香普同供養恭望	-12.775
碗	-12.7751
嫡	-12.7751
硝	-12.7751
而行智慧入諸	-12.7751
魂神俓上南宮隨其學功計日而得更生	-12.7751
無量之奥深不可詳敷落神真普度天人	-12.7751
諷經宣䟽	-12.7751
斾	-12.7751
櫬	-12.7751
尪	-12.7751
窮召延嘉	-12.7752
和不可思議功德爾時眞人聞是頌巳	-12.7752
䆒	-12.7752
皋	-12.7752
藿	-12.7753
荔	-12.7753
四司所糾考屬左右三官至	-12.7753
苛	-12.7753
生圓象光暎十方如此分明	-12.7753
誦之百遍名度南宫誦之千遍魔王保迎	-12.7753
鍜	-12.7753
歌音音參洞章誦之百徧名度南	-12.7753
閙	-12.7753
齓	-12.7753
兠	-12.7753
天主帝君普施法潤天尊九天	-12.7753
卹	-12.7754
難固鬼道易邪人道者心諒不由他仙道	-12.7754
神功妙濟眞君	-12.7754
九萬九千九百九十九	-12.7754
而説偈曰	-12.7754
太極平育賈奕天帝大擇法門	-12.7754
一時辰内管丹成	-12.7755
烽	-12.7755
見之不可用用之不可見	-12.7755
慼	-12.7755
三界之上眇眇大羅	-12.7755
老者反壯少者皆强	-12.7755
仿	-12.7755
玉光會中眞靈眞宰伏願	-12.7755
諸天發瑞靈應自然玉字煥爛障蔽天光	-12.7755
楯	-12.7755
黄籙白簡削死上生十月長齋誦詠是經	-12.7756
灧	-12.7756
娼	-12.7756
懲忿窒慾	-12.7756
蠕	-12.7756
遅	-12.7756
淇	-12.7757
癱	-12.7757
之難所有符命謹當告下舉	-12.7757
闕之臣諸天記人功過毫分无失天中	-12.7757
流精玉光五色鬱勃洞煥太空	-12.7757
草衣木食	-12.7757
鴟	-12.7757
修行八年勿失一節	-12.7757
佩之永消殃患	-12.7757
壘仙王土皇神君无鞅之衆浮空而至	-12.7757
瓠	-12.7757
撝	-12.7757
爰有奇器是生萬象八卦甲子神機鬼藏	-12.7757
𢌞	-12.7757
甚可哀傷	-12.7757
坎戊月精離己日光	-12.7758
耜	-12.7758
饕	-12.7758
腮	-12.7758
不見可欲使心不亂	-12.7758
而求道者不住	-12.7758
輔元開化文昌司禄宏仁帝君	-12.7758
魂早超明境謹懴	-12.7758
櫝	-12.7758
匈	-12.7759
如法持念是此眞經	-12.7759
朱書文向王叩齒	-12.7759
篙	-12.7759
庥	-12.7759
魔无干犯鬼无	-12.7759
金闕遊宴玉亰也上學之士修誦是經	-12.7759
二十四年身得神仙但佩此文亦得尸解	-12.776
輾	-12.776
怳	-12.776
蝣	-12.776
厦	-12.776
炮	-12.7761
中央玉寳元靈元老	-12.7761
玉音攝炁靈風聚煙紫虚鬱秀輔翼萬仙	-12.7761
十尺金鐶	-12.7762
咖	-12.7762
穗	-12.7762
燈燭清醴䖍心瞻敬至心而呪曰	-12.7762
菑	-12.7762
得爲九宮真人本命之日誦詠是經	-12.7763
躄	-12.7763
寳齋兼㸃九幽神燈奉用追薦亡過某人	-12.7763
神王受命普掃不祥	-12.7763
无極飛天護世神王長生大聖无量度人	-12.7763
斯經尊妙獨歩玉京度人	-12.7763
勃勃從珠口中入	-12.7763
姓白係金	-12.7764
嗒	-12.7764
國人廓散地還平正无復欹陷	-12.7764
得爲九宫真人本命之日誦詠是經	-12.7764
調神出殻	-12.7764
窩	-12.7764
屇	-12.7765
元始天尊當說是經	-12.7765
成敗懈退度者幾人笑爾不度故爲歌音	-12.7765
哦	-12.7766
之隱名也非世之常辭上聖已成真人	-12.7766
之日朱書第七第八二字向	-12.7766
胯	-12.7766
彘	-12.7766
齧	-12.7766
無所不度無所不成	-12.7767
修眞十書悟眞篇卷之二十	-12.7768
玉光㑹中眞靈眞宰伏願	-12.7768
元始天尊說經一遍東方无極无量品	-12.7768
威未制天政	-12.7769
北方洞隂朔單鬱絶五靈玄老	-12.7769
吃	-12.777
𠗂	-12.777
五老大聖諸天眞人導引三光	-12.777
文召之遣呪曰	-12.777
時一百二十五眞人誦詠法契八會之音	-12.777
行諸愚癡或	-12.777
右四象八卦六	-12.7771
與弟子某等下情無任懇祝之至	-12.7771
空洞謡歌之章眞王靈篇辭參髙眞第一	-12.7771
剽	-12.7773
四萬劫一開道士命屬	-12.7773
四人持符降下定三䰟安七𩲸保胎護命	-12.7774
陰陽相勝之術昭昭乎進乎象矣	-12.7774
饍	-12.7775
逥	-12.7775
暠	-12.7775
血中赤炁君	-12.7775
曙	-12.7777
姓黑節諱靈	-12.7777
五人持符降下定三䰟安七𩲸保胎護命	-12.7778
人謫此章即	-12.7778
穽	-12.7779
碧落空歌大浮黎土受元始度人	-12.778
善種長者大王	-12.7781
三五一都三箇	-12.7784
萬神朝禮地祇侍門	-12.7811
供養尊禮門户興隆世世昌熾與善因	-12.7987
天地帝主兆民行是功德	-12.7999
大神无鞅之衆浮空而至幽棲曰此初說	-12.8075
敢有干試拒遏上眞金鉞前戮巨天後刑	-12.8091
人受誦則延壽長年後皆得作尸解之道	-12.8111
碧落空歌玉音神王長生大聖无量度人	-12.8128
依玄科四萬劫一傳若有至人齎金寳	-12.8149
飛天玄明洞淵神王長生大聖無量度人	-12.8264
日月照明洞煥室内項生圓象光映十方	-12.8341
諸仙兵馬五嶽眞君地水聖衆城隍瘟火	-12.8679
如此分明宻呪曰无上玄元太上道君召	-12.877
一切天人莫不受慶無量之福生死	-12.8895
災不干神明護門斯經尊妙獨	-12.89
太一司命桃康合延執符把籙保命生根	-12.8942
敬形勑制地祇侍衛送迎	-12.8944
天上天下无幽无冥无形无影无極无窮	-12.8981
律文受者明慎奉行太玄都四極明科曰	-12.9043
掲	-12.9066
鏜	-12.9077
礫	-12.9084
悆	-12.9087
莞	-12.9093
瓘	-12.9094
禋	-12.9098
珥	-12.9103
洮	-12.9104
鄼	-12.9104
适	-12.9105
賡	-12.9107
闕之臣諸天記人功過毫分無失天中真	-12.9109
謦	-12.911
贄	-12.9114
堲	-12.9115
淀	-12.9116
嶤	-12.9117
誾	-12.9118
言無韻麗曲無華宛故謂玄奥難可	-12.9118
倨	-12.9119
哿	-12.9121
除禳水火漂焚	-12.9121
嬖	-12.9121
膾	-12.9125
黠	-12.9126
孥	-12.9127
厩	-12.9127
有聞靈音魔王敬形敕制地祇侍衛送迎	-12.9131
嚚	-12.9131
徠	-12.9133
蝮	-12.9135
翾	-12.9136
臰	-12.9136
描	-12.9137
磔	-12.9139
岧	-12.9139
溏	-12.914
飇	-12.914
莓	-12.9142
舌柱上腭	-12.9142
霙	-12.9144
邾	-12.9145
灊	-12.9146
蹲	-12.9148
顗	-12.9148
羿	-12.9148
蕖	-12.9149
畸	-12.9149
其魔自退夫	-12.9149
漣	-12.915
葳	-12.915
繽	-12.9151
潞	-12.9152
疚	-12.9153
糲	-12.9155
窬	-12.9155
諤	-12.9155
眺	-12.9155
章並已詳校略無舛誤	-12.9155
騏	-12.9156
𤤽	-12.9156
盾	-12.9157
蹷	-12.9157
幙	-12.9158
劎	-12.9159
百四十六萬四千	-12.9159
秃	-12.9159
襖	-12.9161
木生火火生土土生金	-12.9161
六十七萬一千八	-12.9161
𣑽	-12.9162
皥	-12.9162
敝	-12.9163
蛭	-12.9163
諛	-12.9163
鯤	-12.9163
奂	-12.9164
䜟	-12.9164
功過儀典上眞緫領	-12.9164
愊	-12.9165
淬	-12.9165
大神一時同至一國男女	-12.9165
之術百數其要在	-12.9165
囷	-12.9166
貿	-12.9166
熨	-12.9167
凢	-12.9167
𦆑	-12.9167
㗖	-12.9167
帕	-12.9167
烕	-12.9167
取將坎位中心實點化離宫腹裏陰	-12.9167
絶利一源用師十倍三返晝夜用師萬倍	-12.9168
籲	-12.9168
藎	-12.9168
桒	-12.917
洹	-12.917
木性愛金順義金情戀木慈仁	-12.917
洺	-12.917
章並已參校略無舛誤臣謹言曰	-12.917
壮	-12.9171
締	-12.9171
上清之天天帝玉眞无色之境梵行	-12.9171
蘸	-12.9171
入地獄無由出離今對聖前咸悉懴悔	-12.9171
筇	-12.9171
招集羣仙天無氛穢地無祅塵	-12.9171
槃	-12.9172
太上洞玄靈寳无量度人上品妙經	-12.9172
南辰北斗周天列曜拱極群眞	-12.9172
旆	-12.9173
九州都仙太史	-12.9173
簣	-12.9173
煨	-12.9173
而覩天尊稽首无上尊稽首无上法	-12.9173
嚴校諸天普告三界无極神鄉	-12.9173
𦤀	-12.9173
耨	-12.9173
同鳴獅子白鶴	-12.9173
天地不仁以萬物爲	-12.9173
上清嗣宗師劉大彬造錄金石篇	-12.9173
右件玉章天篆八十字上鎮	-12.9173
經始出教一國以道預有	-12.9174
蜩	-12.9174
洞玄惠世玉蟾白眞人清微啓教紫	-12.9174
詬	-12.9174
蜋	-12.9174
蓂	-12.9174
澣	-12.9174
南上司命司録延壽益	-12.9174
玃无自育九日導乾	-12.9175
觥	-12.9175
它	-12.9175
報盡復還却	-12.9175
歘火律令大神	-12.9175
猱	-12.9175
觔	-12.9175
埳	-12.9176
圉	-12.9176
陶魂鑄魄	-12.9176
痣	-12.9176
茵	-12.9176
𠆸	-12.9176
普受開度死䰟生身身得受生	-12.9176
急急如長生大帝律令勑	-12.9176
佗	-12.9176
啾	-12.9176
爱	-12.9176
㟪	-12.9176
飫	-12.9176
愚人以天地文理聖	-12.9177
是故聖人知自然之道不可違因而制之	-12.9177
蹴	-12.9177
七炁金靈八天尊神白虎	-12.9177
元炁上應天關天關轉地	-12.9177
肓	-12.9177
爲始就某處肅建玄壇依按	-12.9177
𣣱	-12.9177
上遊上清出入華房八㝠之内細微之中	-12.9178
墾	-12.9178
槲	-12.9178
屩	-12.9178
𠒋	-12.9178
枳	-12.9178
疢	-12.9178
疴	-12.9178
致虚極守靜篤萬物並作吾以觀其復	-12.9178
羣魔束形鬼精滅爽	-12.9178
等神功曹符使里域靈官三界萬靈十方	-12.9178
獅子白鶴嘯歌邕邕	-12.9178
鬱羅蕭臺玉山上京上極无上大羅玉清	-12.9178
宄	-12.9179
不因師指此事難知	-12.9179
莽九醜韶謡縁邅	-12.9179
知其雄守其雌	-12.9179
饒君聰慧過顔閔不遇	-12.9179
妝	-12.9179
褶	-12.9179
曰復其見天地之心乎	-12.9179
犴	-12.9179
度品南宮死魂受鍊	-12.918
運應滅度身經太陰	-12.918
太皇黄曽天	-12.918
酈	-12.918
大道無形生育天地	-12.918
天地萬物之盗萬物人之盗人萬物之盗	-12.918
下手速修猶太遲	-12.918
諸天内音自然玉字	-12.918
元始無量度人上品妙經卷之五十	-12.918
娉	-12.9181
夘	-12.9181
諸天之上各有生門	-12.9181
八方捷疾使者天神地祇萬靈同歸合天	-12.9181
桔	-12.9181
殍	-12.9181
蛸	-12.9181
摯	-12.9181
極星辰之象備香花燈供之儀志心皈命	-12.9181
祥物阜時康學道之士以時服之三年之	-12.9181
群魔束形鬼精滅爽回屍起死	-12.9181
燻	-12.9182
瘍	-12.9182
䙝	-12.9182
金紫光禄大夫	-12.9182
五色令人目盲	-12.9182
玉符上元洞天氣	-12.9182
嶔	-12.9182
燌	-12.9182
曁	-12.9182
空中萬變穢氣紛葩	-12.9183
𨶒	-12.9183
請滅三惡斬絶地根飛度五户名列太玄	-12.9183
藐	-12.9183
輭	-12.9183
玉光㑹上一切神仙諸靈官	-12.9183
此變成乾健體潜藏飛躍盡由心	-12.9184
以道預有至心宗奉禮敬皆得度世道言	-12.9184
紈	-12.9184
天皇地皇人皇	-12.9184
𥠖	-12.9184
唯有元始浩劫之家部制我界統	-12.9184
經始出敎一國以道預有至心	-12.9184
烙	-12.9185
缘	-12.9185
謹遵科法崇建寳燈供養大	-12.9185
追二炁於黄道會三性於	-12.9185
箓	-12.9185
拂拂從珠口中入既入珠口不知所在	-12.9185
天中空洞自然靈章諸天隠韻	-12.9185
𦆵	-12.9185
㮣	-12.9185
妣	-12.9185
惡奕无品洞妙自眞	-12.9185
无量度人上品妙經元始洞玄靈寶本章	-12.9185
颷	-12.9185
諸行道求仙思神存眞謝罪解過上希	-12.9185
杼	-12.9186
搔	-12.9186
天人合發萬化定基	-12.9186
諸天齊到億曾萬祖幽魂苦爽皆即受度	-12.9186
兩舌惡罵	-12.9186
九幽拔罪天尊志心朝禮隨願	-12.9186
七月長齋誦詠是經身得神仙諸天書名	-12.9187
濟沉溺苦	-12.9187
尭	-12.9188
邡	-12.9188
上聖髙尊妙行眞人無鞅數衆乘空而來	-12.9188
入大乗證成功徳	-12.9188
既已知矣所謂	-12.9188
老者返壯少者皆强	-12.9188
赬	-12.9188
寶不傳下世至士齎金寶	-12.9188
運容者玄和玉女	-12.9189
方无極太上靈寳天尊	-12.9189
七夜諸天日月星宿璇璣玉衡一時停輪	-12.9189
敗仙相也第	-12.9189
三界樂兮過之長存身度我界體入自然	-12.9189
土皆作碧玉无有異色	-12.919
經始岀教一國以道預有至心宗奉禮敬	-12.919
玄門苗善時校正編次詩彖	-12.919
至眞大神无鞅數衆俱入	-12.919
開不死之路流長生之炁	-12.919
國人廓散地還平正無復欹䧟元始即於	-12.919
昇金闕遊宴玉京也	-12.919
刷	-12.9191
外想不入内想不出	-12.9191
日中入室夜半露身	-12.9191
南方丹靈眞老	-12.9191
迎之不見其首隨之不見其後	-12.9191
五色玄龍建九色之節十絶靈	-12.9191
之日朱書第三第四二字向	-12.9191
生我之門死我户	-12.9191
墅	-12.9191
緬平一等無復高下	-12.9191
上无復祖惟道爲身	-12.9192
坯	-12.9192
惡根地根魔籍鬼帳常以	-12.9192
倏歘之間寂无遺響是時天人	-12.9192
火生於木禍發必剋姦生於國時動必潰	-12.9192
財物或偷盗	-12.9192
縳魔靈但	-12.9192
靜黙山嶽吞烟萬靈振伏招集群仙天無	-12.9193
髙上消魔玉清王祝曰	-12.9193
却入三寸爲丹田	-12.9193
玉光會上一切神仙諸靈官	-12.9193
來者有如細雨密霧无鞅之衆	-12.9193
澤洛菩臺緑羅大千	-12.9193
無量之文普度無窮道言夫末學道淺或	-12.9193
呆	-12.9194
志心皈身皈神皈命	-12.9194
跟	-12.9194
爟	-12.9194
雌右武鸞	-12.9194
誦契畢服三符	-12.9194
得爲九宮眞人本命之日誦詠是經	-12.9194
終劫說之亦不能盡	-12.9194
地獄一切冥官廣賜慈悲普垂開度伏願	-12.9194
蜉	-12.9194
升金闕遊宴玉京也上學之士修誦是經	-12.9194
太上靈寳諸天内音自然玉字卷之	-12.9195
至樂性餘至靜性廉	-12.9195
侑	-12.9195
▁至心歸命信禮	-12.9195
精斬馘六鬼鋒諸天炁蕩蕩我道日興隆	-12.9196
齗	-12.9196
歩玉京度人無量爲萬道之宗巍巍大範	-12.9196
第五第六第七第八四字	-12.9196
醜以輔三官數極九九八十一萬度天炁	-12.9197
四萬一千一百二十萬	-12.9197
傴	-12.9197
縠	-12.9197
云何法相由於	-12.9197
鈇	-12.9197
紫陽眞人悟眞篇請義卷之	-12.9198
井鬼柳星張翼軫	-12.9198
參校曰此青元註經條分八事之	-12.9198
𡪹	-12.9198
唯願仙道成不欲人道窮	-12.9198
深根固蔕	-12.92
貴生鬼道貴終仙道常自吉鬼道常自凶	-12.9201
人道眇眇仙道莽莽	-12.9201
同炁皆當齊心修齋六時行香十徧轉經	-12.9201
懦	-12.9202
拔度六道四生孤魂滯魄等衆解除	-12.9202
絓	-12.9202
陽將軍符到奉行不得留停急急如律令	-12.9202
栰	-12.9203
天帝丈人九老仙都君九炁丈人百千萬	-12.9203
紫陽眞人悟眞篇講義卷之	-12.9203
遇值經法普得濟度	-12.9204
士農工商	-12.9205
燒香誦經十過皆諸天記名萬神侍衞	-12.9206
太極妙化神靈混洞赤文	-12.9207
踢	-12.9207
旣空法相亦空法相之興由於	-12.9209
神文聖武孝德忠仁	-12.921
夫齋戒誦經功徳甚重上消天災保鎮帝	-12.9221
進號太玄都四極明科	-12.9223
北斗玄冥大聖第	-12.9233
俁	-12.9236
華房八冥之内細微之中下	-12.9259
道人之心亦當如是	-12.9267
谷神不死是謂玄牝玄牝之門是	-12.9387
翎	-12.9406
過閉目靜思身坐青黄白三色雲氣之中	-12.9489
徧諸天大聖同時稱善是時一國男女	-12.9492
無極神郷泉曲之府北都羅酆三官九	-12.9792
飛天下觀上帝遥唱萬神	-12.9886
末學道淺仙品未充	-13.0033
如此分明宻呪曰無上玄元太上道君召	-13.0333
十轉回靈萬氣齊仙仙道貴生	-13.0349
養尊禮門戸興隆世世昌熾與善因	-13.0399
縁萬災不干神明護門斯經尊妙獨	-13.0412
諸天中大梵隱語无量音道君譔元始	-13.0566
關啓所言今日吉慶長齋清	-13.0568
有如細雨宻霧無鞅之衆	-13.0621
桁	-13.0711
狢	-13.0721
璲	-13.0736
𧓍	-13.0737
奣	-13.0743
錚	-13.0747
鐫	-13.0749
呇	-13.0751
嚩	-13.0758
字皆廣長一丈天眞皇人昔書其	-13.0758
齅	-13.0759
醅	-13.0759
頳	-13.0759
汭	-13.0761
𢷤	-13.0762
蚿	-13.0764
懟	-13.0767
柞	-13.0769
祧	-13.0769
𦆯	-13.0774
賵	-13.0776
尋詳上天所寳祕於神霄玉清	-13.0778
㳂	-13.0778
穄	-13.0781
清江後學張理仲純述	-13.0786
蟊	-13.0786
晣	-13.0786
旼	-13.0789
邐	-13.079
怍	-13.079
忸	-13.0791
褫	-13.0793
隂陽離合五行化體	-13.0798
於未來世必當得果	-13.0798
幔	-13.08
闉	-13.08
洸	-13.0803
惷	-13.0804
眊	-13.0805
萬遍道備飛昇太空過度三界位登仙公	-13.0806
𩴮	-13.0806
痴	-13.0807
陬	-13.0807
菹	-13.0807
莧	-13.0808
槨	-13.0808
彥	-13.081
俶	-13.081
瀦	-13.081
彌羅萬範開張元綱流演三十二天輪轉	-13.081
扵	-13.0812
玕	-13.0813
洊	-13.0814
𩲲	-13.0814
長春演道主教眞人	-13.0814
跏	-13.0815
符靈寳符命拔度亡過某出離	-13.0816
悰	-13.0817
邉	-13.0817
晋郭璞注古文	-13.0817
酋	-13.0817
旃	-13.0817
穏	-13.0818
懣	-13.082
某誠惶誠懼頓首頓首再拜謹言	-13.082
迮國一半土皆偏陷非可禁止	-13.082
上眞各三千二百人上部三十二天洞天	-13.0821
劓	-13.0821
尿	-13.0821
驃	-13.0821
痿	-13.0822
蠆	-13.0822
𦤎	-13.0822
菡	-13.0823
芍	-13.0823
箬	-13.0823
稗	-13.0823
唆	-13.0824
嵌	-13.0824
皤	-13.0824
誠感誠慶頓首頓首再拜謹言	-13.0825
丱	-13.0825
淦	-13.0826
不足以名道故亦無無	-13.0828
鯀	-13.0828
詈	-13.0829
隰	-13.0829
躃	-13.0829
豔	-13.0829
在雲嶺之上抱月而明	-13.0829
妒	-13.0829
咆	-13.083
哨	-13.083
簽	-13.083
鞾	-13.083
陀羅育邈眇炁合雲	-13.0831
威未制天政徳可伏御地祇	-13.0831
九年得乗太霄瓊輪上昇	-13.0832
善才又言如是所說	-13.0832
魔精喪眼鬼妖滅爽	-13.0833
遺書指不多及	-13.0833
櫳	-13.0834
臚	-13.0834
郍	-13.0834
非禮勿視非禮勿聽非禮勿言	-13.0834
槿	-13.0834
上眞各三千二百人下部三十二天洞靈	-13.0834
遣仙官下迎授書爲	-13.0835
近取諸身遠取諸物	-13.0835
呴	-13.0835
楂	-13.0835
确	-13.0836
諜	-13.0836
要得谷神長不死須憑玄牝立根基	-13.0836
巑	-13.0836
芡	-13.0836
鎧	-13.0836
餽	-13.0836
妟	-13.0836
蚣	-13.0836
陲	-13.0837
蒯	-13.0837
袤	-13.0837
趄	-13.0837
塼	-13.0837
扳	-13.0837
當說是經周廻十過以召十方始當詣座	-13.0838
芮	-13.0838
三天大聖都天大法天師	-13.0838
儋	-13.0838
禇	-13.0839
駞	-13.0839
髀	-13.0839
俵	-13.0839
蔀	-13.0839
鱔	-13.0839
缶	-13.0839
尢	-13.084
驍	-13.084
外變化昇入洞門七祖出夜九幽	-13.084
孾	-13.0841
牒至準勑故牒	-13.0841
篇辭參高眞第一	-13.0841
鵑	-13.0842
睎	-13.0842
要知産藥川源處只在西南是本鄉	-13.0842
三萬七千年應運下傳若有至人齎金	-13.0842
擗	-13.0842
蟜	-13.0842
薾	-13.0842
衣金甲朱履執	-13.0842
璐	-13.0842
說經一遍諸天大聖同時稱善是時一國	-13.0842
不絶常爲人君安鎮其方民稱太平	-13.0842
祈求嗣續慶延門閥	-13.0842
謔	-13.0843
𨤲	-13.0843
都梁清菴瑩蟾子李道純元素撰	-13.0843
門弟子損菴寳蟾子蔡志頤編	-13.0843
太上太玄女青三元品誡㧞罪妙經卷	-13.0843
往生天尊志心朝禮慈悲救苦	-13.0843
剃	-13.0843
煴	-13.0843
亷	-13.0843
灤	-13.0843
以今吉辰伏地貢章一通上詣三天曹	-13.0843
道言昔於始青天中碧落空歌大浮黎土	-13.0844
雩	-13.0844
堦	-13.0844
坌	-13.0844
冉	-13.0844
登引天眞大神上聖高尊妙行眞人十方	-13.0844
紲	-13.0844
一百六十七萬九	-13.0844
宛藪滌色太眇之堂	-13.0844
无上玄元三天玉堂大法宗旨卷之二十	-13.0844
洼	-13.0844
状	-13.0844
薜	-13.0844
梯周旋八天七祖相隨	-13.0844
蔔	-13.0844
魔無干犯鬼無妖精	-13.0844
鄔	-13.0845
韮	-13.0845
千六百一十六萬	-13.0845
太明玉完天帝須阿那田	-13.0845
獨立而不改周行而不殆	-13.0845
俣	-13.0845
右別至人克得爲聖君金	-13.0845
方无極碧落空歌玉音神王之音	-13.0845
生而不有爲而不恃	-13.0846
蚋	-13.0846
踣	-13.0846
蕘	-13.0846
嵓	-13.0846
繭	-13.0846
星壇備香花供養之儀志心歸命	-13.0846
復色下無復淵	-13.0846
杇	-13.0846
魔束形鬼精滅爽廻屍起死白骨成人	-13.0846
承玄都有過我界身入玉	-13.0846
之座說經一徧諸天大聖同時稱善是時	-13.0847
其文九千年一出	-13.0847
搭	-13.0847
𣸉	-13.0847
唤來歸舍養配將姹女作親情	-13.0847
籖	-13.0847
竺落皇笳天帝摩夷妙辯	-13.0847
消除疾疫保命延年	-13.0847
眞人志心朝禮慈悲大惠眞人志心朝禮	-13.0848
不殺不害不嫉不妬不淫不	-13.0848
中朝帝尊壽億年太平滅兵刀稽首望玉	-13.0848
二萬四千一百八十	-13.0848
六萬四千七百四萬	-13.0848
䨱	-13.0848
其欲轉五道我當復奈何	-13.0848
清明何童天帝元育齊京	-13.0848
眞人曰五行顛倒術龍從火裏出五行不	-13.0848
太釋玉隆騰勝天帝眇眇行元	-13.0848
持者龍淵之名	-13.0848
鼐	-13.0849
將以順性命之理	-13.0849
蜣	-13.0849
檮	-13.0849
玉清上極梵炁氤氲分靈布炁降注	-13.0849
醻	-13.0849
上詣三天金闕玉陛下請降	-13.0849
𢘆	-13.0849
但欲遏人筭斷絶人命門	-13.0849
茅山上清三十八代宗師蔣宗瑛校勘	-13.085
蜍	-13.085
蜘	-13.085
伹	-13.085
正一陽初動中宵漏永	-13.085
二物會時情性合五行全處虎龍蟠	-13.085
氣无極世界之中應身乃有	-13.085
青天魔王巴元醜伯赤天魔王負天	-13.085
淨自然覺王如來髙虚清明天主帝	-13.085
群仙天無氛穢地無祅塵	-13.085
真皇人曰凡修飛仙之道	-13.085
下洞太淵誦之一	-13.085
齋行香誦經四時失度陰陽不調亦當	-13.085
天人仰看惟見勃勃從	-13.085
號者今須至心歸命信禮至心歸命信禮	-13.085
凌三界逍遙上清上清之天天	-13.085
夫齋戒誦經功德甚重上消天災保鎭帝	-13.085
夜生反此東出配之	-13.0851
渌	-13.0851
粛	-13.0851
姓洞浮諱極炎字赤熛弩	-13.0851
昔書其文以爲正音有知其音能齋而誦	-13.0851
天尊禮足至心懴悔	-13.0851
箔	-13.0851
玄明恭慶天帝龍羅菩	-13.0851
在天成象在地成形	-13.0851
戛	-13.0851
簞	-13.0851
諷經向來回向	-13.0851
嚕	-13.0851
𠜍	-13.0851
靈寳無量度人上品妙經卷之五十	-13.0852
延壽長年後皆得作屍解之道	-13.0852
櫺	-13.0852
強兵戰勝演術章	-13.0852
玄胎平育天帝劉度内鮮	-13.0852
青天魔王姓斌諱齒成	-13.0852
上上禪善无量夀天	-13.0852
羅屯碧霄元始九龍駕皇人按青軺靈光	-13.0853
天尊答妙思言善哉善哉善男子	-13.0853
盲修瞎鍊	-13.0853
斗中神仙諸靈官伏聞	-13.0853
概	-13.0853
菓	-13.0853
飪	-13.0853
前行諸綺言或於	-13.0853
綿灌我身形冠帶北單受	-13.0854
天丁前驅大帥仗旛擲火萬里流鈴八衝	-13.0854
天尊於赤明世界栢陵	-13.0854
等恭運道香德香慧香無爲香清	-13.0854
无量爲萬道之宗巍巍大梵德難可勝	-13.0854
塢	-13.0854
駮	-13.0854
至人爲其行香誦經十	-13.0854
若彈丸色同朱橘	-13.0854
三元八卦豈離壬	-13.0854
上聖巳成眞人通玄究微	-13.0854
嚴玉音泛雲璈无量匪得思道海生波濤	-13.0855
神公受命普掃不祥八威吐毒猛馬四張	-13.0855
上部八景洞天飛行三五直靈神僊	-13.0855
至眞三寳髙上玉皇滿願寳懴卷之	-13.0855
子在胞中豈有殊	-13.0855
𩲕	-13.0855
靈寳无量度人上經大法卷之七十	-13.0855
侃	-13.0855
囦	-13.0855
嶒	-13.0855
並乘飛雲丹輿緑輦羽蓋瓊輪驂駕朱鳳	-13.0855
无邊諸法或善或惡以不定因生於惡果	-13.0855
朝天謝雷眞經	-13.0855
麞	-13.0855
N	-13.0855
A	-13.0855
廂	-13.0855
陽寥出示靈寳篇福德由是招洞玄隱	-13.0855
U	-13.0856
J	-13.0856
无任懇禱之至	-13.0856
栱	-13.0856
貪不欲不憎不𡜍言無華綺口無惡聲	-13.0856
制十方威未制天政德可伏御地祇束	-13.0856
易邈无寂宛首少都	-13.0856
懸坐空浮五色獅子	-13.0856
非世之常辭上聖已成真人通玄究微	-13.0857
蒺	-13.0857
果生枝上終期熟	-13.0857
霅	-13.0857
元明文舉天帝醜法輪	-13.0857
濟度埀死絶而得生所以爾者學士	-13.0857
諍	-13.0858
天尊地卑乾坤定矣	-13.0858
嶽府命元自然玄照之炁	-13.0858
轉經受生願所啓上徹	-13.0858
上明七曜摩夷天帝恬懀延	-13.0858
祕文書于玄都玉臺	-13.0858
金真朗郁流響雲	-13.0858
天徘徊流景上清大有啓運八字	-13.0858
天人仰看惟見拂拂從	-13.0858
僂	-13.0858
棚	-13.0859
瓿	-13.0859
玞	-13.0859
玉女五帝直符直日香官各三十六人出	-13.0859
太極濛翳天帝曲育九昌	-13.0859
焚香然燈供養本音東廚司命竈君	-13.0859
擴	-13.0859
今封一通於西城山中	-13.0859
掯	-13.0859
昕	-13.0859
之座說經一遍諸天大聖同時稱善是時	-13.086
巴元醜伯赤天魔王負天擔石白天魔王	-13.086
萬神朝禮地祇侍門大勳魔王保舉上仙	-13.086
毆	-13.086
三十二天三十二帝諸天隠諱諸天隱名	-13.086
弟子五雷三司判官知北極驅邪院事	-13.086
皓庭霄度天帝慧覺昏	-13.086
太文翰寵妙成天帝那育醜	-13.086
饒他爲主我爲賓	-13.086
伏御地祇束縳魔靈	-13.086
玉梵七寳層臺	-13.086
一炁化分三因成九若龍若蜒蟠曲九道	-13.086
晋穆帝永和元年	-13.086
方无極自然神王玉宸大道无量度人	-13.086
而得成道不以具足	-13.086
混洞赤文无无上眞元始祖劫化生	-13.0861
断	-13.0861
第三无色界魔王歌曰	-13.0861
纍	-13.0861
高上清靈爽悲歌朗太空	-13.0861
内外蓊㝠有青龍白虎朱雀玄武	-13.0862
拶	-13.0862
大仁大孝大聖大慈	-13.0862
古今明者實然稀	-13.0862
七十二萬五千五百九十	-13.0862
六時行香十遍轉經福德立降消諸不祥	-13.0863
魔精䘮眼鬼祅滅爽	-13.0863
誦是經皆即受度飛昇南宫	-13.0863
鱸	-13.0864
不用尋冬至身中自有一陽生	-13.0864
袱	-13.0865
以今醮官某人	-13.0865
耒	-13.0865
沙陁劫量龍漢瑛鮮	-13.0865
見有帝王國主文武大臣	-13.0865
无量扶蓋浮羅合神	-13.0865
仰嚥九過止行此道八年	-13.0866
捺	-13.0866
又以五月五日七月七日朱書	-13.0866
朦	-13.0866
夊	-13.0867
諸天書名黄籙白簡削死上生	-13.0867
四拜三叩齒長跪啓曰	-13.0867
枲	-13.0867
髮白反黑齒落更生	-13.0867
朱書上四字向王服之百日	-13.0868
无量大神皆由我身我有洞章萬徧成仙	-13.0868
百錢爲一過貫錢爲十過	-13.0868
之香流五雲之華以	-13.0868
羯	-13.0868
之言在雷府乃	-13.0868
蝨	-13.0869
琮	-13.087
再拜以聞太清玄元太上无極大道	-13.087
戊己還從生數五	-13.0871
元綱流演三十二天輪轉无色周回十方	-13.0871
吏罡風騎置吏驛馬上章吏飛龍騎吏等	-13.0872
大如彈丸黄如橘	-13.0872
戽	-13.0872
至心皈命禮桂香内殿文昌内宫	-13.0872
億重道炁千二百官君太清玉陛下	-13.0873
意所到皆可爲	-13.0873
又以七月七日朱書第七第八二字向	-13.0873
搧	-13.0875
綘	-13.0875
旣空法相亦空	-13.0875
呻	-13.0878
噐	-13.0878
和其光同其塵	-13.0879
驛馬上章吏	-13.0879
列言靈寳玄都上宫太玄上宫	-13.0879
剜	-13.0881
見存眷屬塵寰品彚長夜幽魂傾倒䖍誠	-13.0883
英公子白元尊神太一司命桃康合延	-13.0886
仄	-13.0886
嘙	-13.0888
立天之道曰陰與陽	-13.0894
駒	-13.0896
等日至心敬禮有	-13.0901
黅	-13.0903
琵	-13.0913
天真皇人昔書其文以	-13.0918
方无極飛神召靈長生大聖无量度人	-13.0987
齋六時行香十徧轉經福德立降	-13.1011
範德難可勝道言凡誦是經	-13.1354
天中大梵隱語無量音道君撰元始靈書	-13.1576
誠感誠慶頓首頓首謹言謝	-13.1973
仙品未充運應滅度身經太隂	-13.2225
世世昌熾與善因縁萬災不干神明護門	-13.2486
群祅束首鬼精自亡	-13.2568
羃	-13.2646
𣰉	-13.2685
澱	-13.2697
胼	-13.2698
墩	-13.2721
橙	-13.2722
扭	-13.274
汹	-13.2744
黳	-13.2744
轣	-13.2754
㛗	-13.2754
泫	-13.2755
蜞	-13.2764
澥	-13.2765
喭	-13.2765
㽔	-13.2766
柢	-13.2767
鑣	-13.2769
蕣	-13.2769
亦當修齋行香誦經夫齋戒誦經功	-13.277
禰	-13.277
鄽	-13.2772
螣	-13.2773
畤	-13.2775
傒	-13.2777
湏	-13.2778
錘	-13.2778
頺	-13.2778
霄帝后遍告	-13.2779
簮	-13.278
嵫	-13.278
儺	-13.2781
𠪨	-13.2781
沲	-13.2781
桅	-13.2782
㪍	-13.2783
棐	-13.2784
窿	-13.2785
噩	-13.2785
𪃋	-13.2786
衎	-13.2786
蝟	-13.2786
鎪	-13.2787
塾	-13.2787
郯	-13.2787
莛	-13.2788
消禳國君王侯世土災祥	-13.2789
塤	-13.2789
昵	-13.2792
變隂合而生水火木金土	-13.2792
靦	-13.2792
媛	-13.2793
鄞	-13.2795
胙	-13.2796
玗	-13.2798
軨	-13.2798
蔞	-13.2799
緗	-13.28
歩綱畢正身入魁中	-13.28
蚑	-13.2803
閧	-13.2805
𥹋	-13.2806
蔗	-13.2806
葆眞觀妙沖和先生	-13.2806
易象圖說外篇卷	-13.2807
鑱	-13.2808
殛	-13.2809
万	-13.2809
阼	-13.2809
䤈	-13.281
砧	-13.281
蝱	-13.2811
芸	-13.2811
荃	-13.2811
𠯐	-13.2812
林間羽客樗櫟道人編	-13.2812
胎中一元白炁君	-13.2813
𡬶	-13.2813
厝	-13.2813
莠	-13.2813
偎	-13.2813
諸天上帝及至靈眞王隱祕之音	-13.2813
荊	-13.2814
章炎通泛堅敷澄宗	-13.2814
港	-13.2815
宬	-13.2815
硫	-13.2815
滁	-13.2816
淖	-13.2816
鼾	-13.2816
慥	-13.2817
靈根赤精純道成號威尊利雲	-13.2818
諸天上帝及至靈魔王隱祕之音	-13.2818
天下歌謡欣國太平	-13.2818
醑	-13.2818
輜	-13.2818
帝煉質亡魂飛昇極頂一如	-13.2818
風之狀多汗惡風	-13.2818
會靈堅丕順道	-13.2819
鬒	-13.2819
海蟾明悟弘道眞君	-13.2819
殺鬼都伯吏姓	-13.2819
篁	-13.282
鰥	-13.282
邠	-13.282
堇	-13.2821
般若波羅蜜多	-13.2821
驩	-13.2821
摩兩掌令熱	-13.2822
砒	-13.2822
瓏	-13.2823
橡	-13.2823
纈	-13.2823
膓	-13.2823
鬯	-13.2823
面到平地路三里	-13.2823
淒	-13.2824
躐	-13.2824
篷	-13.2824
鄠	-13.2824
纉	-13.2824
讟	-13.2824
袷	-13.2824
扑	-13.2825
斵	-13.2825
搓	-13.2825
鬃	-13.2826
某誠惶誠懼頓首頓首再拜上言	-13.2826
煤	-13.2826
執鑚鎚背雷車	-13.2827
五日爲一候三候爲一	-13.2827
或爲餓鬼或爲畜生	-13.2827
滎	-13.2827
齕	-13.2828
䖏	-13.2828
書白紙上存思訖而頓服之	-13.2828
雚	-13.2828
今對聖前咸悉懴悔	-13.2828
歩玉京度人无量爲萬道之宗巍巍大	-13.2828
鉛不知火候也如閑大都全藉	-13.2829
廪	-13.2829
卛	-13.2829
天應星地應潮	-13.283
朱外向内塗後墨内向外塗	-13.283
後召復到一如故事	-13.2831
檝	-13.2831
購	-13.2831
鈔	-13.2831
唏	-13.2832
天幞頭黄抺額	-13.2832
沭	-13.2832
𤼣	-13.2832
暵	-13.2832
怫	-13.2832
隱名也非世上之常辭上聖已成	-13.2833
套	-13.2833
惲	-13.2833
趎	-13.2833
菱	-13.2833
霤	-13.2833
黧	-13.2834
裀	-13.2834
嘲	-13.2834
郿	-13.2834
廿	-13.2834
靈寳旡量度人上經大法卷之	-13.2834
神也者妙萬物而爲言也	-13.2834
形類而得受潤見此神變尋光而來不動	-13.2835
白首面皺皆得化度	-13.2835
従	-13.2836
呤	-13.2836
畨	-13.2836
畚	-13.2836
芘	-13.2836
變化自然元始混炁玄中之玄上干有	-13.2836
腪	-13.2836
視不見我聽不得聞	-13.2836
澠	-13.2836
此文以度學者人身其文九千年一出	-13.2836
文以爲正音有知其音能齋而誦之者	-13.2836
唧	-13.2837
棣	-13.2837
瀼	-13.2837
是行邪道亦名謗法不名迴向	-13.2837
法事粗悉諸天復位	-13.2837
地發殺機龍蛇起陸人發殺機天地反覆	-13.2837
十方湛寂眞常道恢漠大神	-13.2837
䦨	-13.2838
休妻謾遣陰陽隔絶粒徒教腸胃空	-13.2838
𣢾	-13.2838
常以雞鳴陽光始分	-13.2838
迕	-13.2838
大哉乾元萬物資始	-13.2838
天中大梵隱語無量音道君譔元始靈書	-13.2838
之炁納化身中以生	-13.2838
小兆臣薛季昭	-13.2838
安鎮九壘土祅不祥	-13.2838
嵋	-13.2839
鍍	-13.2839
曨	-13.2839
戴九履一左三右七二四爲肩六八爲足	-13.2839
矻	-13.2839
愿	-13.284
飢來喫飯困來眠	-13.284
清泰玄元君文慵	-13.284
三十五分緫氣上元八景㝠合氣入玄玄	-13.284
也身長九尺玄毛被體皆長尺餘	-13.284
縱識朱砂及黑	-13.284
𤩹	-13.284
鐃	-13.284
帝符誦呪曰謹召	-13.284
灌以水母之精導以太和之炁	-13.284
天眞大聖妙行眞人靈妃玉女	-13.284
饒君了悟眞如性未免抛身却入身	-13.2841
母呼亦呼母吸亦吸	-13.2841
鸇	-13.2841
上弦兊數八下弦	-13.2841
恬照罪氣天宫	-13.2841
某領録奉大道弟子某	-13.2841
消除災障道炁長存臣衆等志心歸命	-13.2841
縢	-13.2841
善男子眞人童子復作是願寧以	-13.2841
尺盟天登修之日書	-13.2841
頽雲三角髻餘髮	-13.2842
楪	-13.2842
瓴	-13.2842
二十四獄三塗五苦之中萬劫得還長充	-13.2842
枰	-13.2842
獅子捧轅七炁	-13.2842
人以虞愚我以不虞	-13.2842
䈁	-13.2842
離坎若還無戊己雖含四象不成丹	-13.2842
憮	-13.2843
櫓	-13.2843
揩	-13.2843
减蓋以子母之理如此	-13.2843
在天爲五星在地爲五嶽	-13.2843
然骨四明破骸天猷滅	-13.2843
善男子眞人童子復作是願寜以	-13.2843
陡	-13.2843
五老啓途羣仙翼轅	-13.2844
涅	-13.2844
天行化助國救	-13.2844
擡	-13.2844
犮	-13.2844
剛健中正純粹精	-13.2844
我地不能載我衝	-13.2844
菁	-13.2844
其盗機也天下莫能見莫能知	-13.2844
天無浮翳四氣朗清	-13.2844
等謹同誠上啓	-13.2844
縁彼此懷眞土遂使金丹有返還	-13.2844
各隨人心生種種想假使恒得則	-13.2844
浸故陰陽勝陰陽相推而變化順矣	-13.2844
符并赤書真文以	-13.2844
簡學仙之人生死録籍開度九幽之魂	-13.2845
萬神朝禮地祗侍門大勲魔王保舉上	-13.2845
特賜洞微先生右街鑒義主管教門	-13.2845
囓	-13.2845
貍	-13.2845
靨	-13.2845
瀚	-13.2845
䰟神澄正萬炁長存不經苦惱身有光明	-13.2845
大魔萬神之宗飛行鼓從總領鬼兵麾	-13.2845
鶱	-13.2845
湩	-13.2845
筞	-13.2845
篇一千言章第一章	-13.2846
十轉迴靈萬炁齊仙	-13.2846
𥘞	-13.2846
太易太初太始太素	-13.2846
本因戊己爲媒娉遂使夫妻鎮合歡	-13.2846
蕞	-13.2846
兾	-13.2846
命酒鼎中收取返魂漿	-13.2846
太清泰玄元君文鏞	-13.2846
㫁	-13.2846
之炁盤旋勃勃入壇叩齒	-13.2846
九重奉爲亡過某人纒其	-13.2846
即得化生始分之中刻書金札以佩身	-13.2846
泛景太霞嘯詠洞章金眞朗郁流響	-13.2846
英命靈旛攝召長夜府開	-13.2846
𠋣	-13.2846
擔石白天魔王反山六目黑天魔王監	-13.2847
魂神逕上南宫隨其學功計日而得更生	-13.2847
龍從火裏出虎向水中生	-13.2847
燬	-13.2847
鋼	-13.2847
岌	-13.2847
施巧僞爲功力認取他家不死方	-13.2847
瞻之在前忽焉在後	-13.2847
蝡	-13.2847
諗	-13.2847
雇	-13.2847
薇	-13.2847
太歲年月日吉時告下具法位	-13.2847
若不恒得生種種求種種計度或見人善	-13.2847
北方洞隂朔單鬰絶五靈玄老黑帝	-13.2848
衞送迎拔出地戸五苦八難七祖	-13.2848
唫	-13.2849
蓽	-13.2849
消魔玉符訣曰當朱書青繒佩之存呼	-13.2849
本是東家子送在西鄰寄體生認得	-13.2849
氳	-13.2849
貙	-13.2849
鏌	-13.2849
𨊧	-13.2849
倏欻之間寂無遺響是時天人遇值經法	-13.2849
錯度日月失明四時失度隂陽不調國境	-13.2849
坰	-13.285
𥞫	-13.285
河出圖洛出書聖人則之	-13.285
箚	-13.285
佩明驗施之於至學不宣於下俗也太極	-13.285
桷	-13.285
惟道爲身丹臺紫府金闕玉京祕此妙法	-13.285
朱髮巨翅雙目	-13.285
鉛見癸生須急採金逢望遠不堪嘗	-13.285
鬼精自亡琳琅振響十方肅清河海	-13.285
臣身形神俱妙變化飛昇	-13.285
渰	-13.2851
南方得三炁以分天境劫號赤明	-13.2851
鍤	-13.2851
伐功斷事萬不得仙三犯	-13.2851
十二炁以分天境劫號上皇	-13.2851
方以類聚物以羣分	-13.2851
日月三旬一遇逢以時易日法神功	-13.2851
覀	-13.2851
讌	-13.2851
如此等輩直置自生无量苦惱	-13.2851
宴紫庭七祖同慶歡樂劫齡七寳林中	-13.2851
高而洞浮懸而不落	-13.2851
九江冰湖埜人薛季昭	-13.2851
大哉至道無宗上眞上度諸天下濟幽	-13.2851
剙	-13.2852
先把乾坤爲鼎器次搏烏兔藥來烹	-13.2852
癤	-13.2852
齋戒禮誦萬過飛仙无上	-13.2852
西方得七炁以分天境劫號延康	-13.2852
龍不在東溟虎不在西	-13.2852
制九天炁以度學者其三元符命保固	-13.2852
北方得五炁以分天境劫號開皇	-13.2852
南閻洞浮玉眸詵詵	-13.2852
河車不敢暫留停運入崑崙峰頂	-13.2852
珠之中天人仰看惟見勃勃從珠口中入	-13.2852
諸天記人功過亳分無失天中	-13.2852
魔王制邪玉文姓	-13.2852
不寧也地官奉書百靈	-13.2852
箎	-13.2852
至心歸命信禮无上天尊重復懴悔	-13.2852
之初劫運流復之本	-13.2852
日魂月魄庚虎甲龍水銀朱	-13.2852
輪流煙九萬重髙上洞清	-13.2852
寀	-13.2853
亊	-13.2853
下丹田内安心定意	-13.2853
晁	-13.2853
眞師莫强猜	-13.2853
否泰交則陰陽或升或降	-13.2853
異名同出少人知兩者玄玄是要機	-13.2853
絳雲三重覆匝身形	-13.2853
七返朱砂返本九還金	-13.2853
但將地魄擒朱汞	-13.2853
屯蒙作則動靜在朝在昏	-13.2853
轅飛軿九萬重髙上洞清紫虚空洞	-13.2853
興方便意開利益門	-13.2853
瞢	-13.2854
翠虚妙悟全集	-13.2854
𥬇	-13.2854
趯	-13.2854
在人先須鍊己待時	-13.2854
呼則接天根吸則接地根	-13.2854
仙公有聞靈音魔王敬形勑制地祇侍	-13.2854
同契曰金來歸性初乃得稱還丹	-13.2854
菽	-13.2854
仙公有聞靈音眞王敬形敕制地祇侍	-13.2854
産在坤種在乾	-13.2854
蚯	-13.2854
帝云大劫交周當刻書金札以佩身	-13.2854
根因縁亦復如是著諸	-13.2854
珠之中天人仰看惟見拂拂從珠口中入	-13.2854
衆等志心皈身皈神皈命神霄投誠玉府	-13.2854
𨌩	-13.2854
數衆乘空而來飛雲丹霄緑輿瓊輪羽蓋	-13.2854
宫誦之千遍眞王保迎萬遍道備飛	-13.2854
靈童之名常運育輪	-13.2854
山嶽吞煙萬靈振伏招集羣仙	-13.2855
鉸	-13.2855
幌	-13.2855
蓆	-13.2855
硏	-13.2855
鍋	-13.2855
自然有鼎烹龍虎何必擔家戀子妻	-13.2855
觧	-13.2855
道君天尊流演聖教	-13.2855
鈸	-13.2855
人之位有犯科違禁	-13.2855
全其本年无有中傷傾土歸仰咸行善心	-13.2855
却入二寸爲洞房	-13.2855
参	-13.2855
寳自然八合之音主治世會地壘洪澤	-13.2855
東方八天森角儲雲九	-13.2855
此時樂兮薄由我恩龍漢蕩蕩何能别	-13.2855
萬灾不干神明護門	-13.2856
迮國一半土皆徧陷非可禁止於是元始	-13.2856
亶渾都戟芸荼炫井欺持蒲掌維迮儀奕	-13.2856
筐	-13.2856
微吉日大慶我道洞開朱丹哺飴仰吸靈	-13.2856
貎	-13.2856
䡩	-13.2856
亦當面北存神靜慮至心禮念自然	-13.2856
媅	-13.2856
濶	-13.2856
西東四象交加戊己中復	-13.2857
䋲	-13.2857
丹術著明莫大乎金火	-13.2857
髑	-13.2857
婦人懷妊鳥獸含胎已生未生皆得生成	-13.2857
挨	-13.2857
萬劫受苦不捨晝夜又見	-13.2857
輕誦此章身則被殃供飬尊禮門	-13.2857
所以爾者學士穢氣未消體未洞真	-13.2857
億曾萬祖幽䰟苦爽皆即受度上昇朱宫	-13.2858
參校曰别本註云帝	-13.2858
穫	-13.2858
一犯伐功斷事不得又仙三犯	-13.2858
一霎火焰飛眞人自出現	-13.2858
北都泉曲府中有萬鬼羣但欲遏人筭斷	-13.2858
某州郡縣郷里	-13.2858
橈	-13.2858
从	-13.2858
慈光燭三界眞聖妙道師天人依仗師大	-13.2858
法侈宜廣帝理生衛肇宏人	-13.2858
竝	-13.2858
幽夜之魂受眞人開度謂之浮	-13.2859
育者天關空輪之名郁馥	-13.2859
承受玉女上奏靈官	-13.2859
南上司命司録延夀益筭度厄尊神	-13.2859
昪	-13.2859
在迷津似恁欺心安忍	-13.2859
果生枝上子在胞中	-13.2859
涔	-13.2859
太上三五都功職籙弟子陳椿榮集註	-13.2859
嗶	-13.2859
東方得九炁以分天境劫號龍漢	-13.2859
虯	-13.2859
赤明和陽天帝理禁上眞	-13.2859
䡠	-13.2859
以道預有志心宗奉禮敬皆得度世道言	-13.2859
上消天災下禳毒害	-13.286
賢薛道光子野陸墅上陽子陳致虚註	-13.286
分而有九層之臺處乎玉京之	-13.286
赧	-13.286
抬	-13.286
未鍊還丹須急鍊鍊了	-13.286
道言行道之日皆當香湯	-13.286
墊	-13.286
龜山丹黄飛玄紫文	-13.286
一犯不得又仙三犯	-13.286
緾	-13.286
氣至真大聖無鞅之衆浮空而至	-13.2861
舎	-13.2861
白虎性猖狂東海青龍不可當兩手捉來	-13.2861
孜	-13.2861
元洞玉曆龍漢延康眇眇億劫混沌之中	-13.2862
知宣太靈湮漠	-13.2862
倅	-13.2862
妖魔精斬馘六鬼	-13.2863
嶰	-13.2863
願得除臣七祖以來下逮臣身	-13.2863
九天炁始生荐无英扶陽通攝御丹林合	-13.2863
揄	-13.2863
氣丈人而君主之在人爲	-13.2863
淨者生此天釋云	-13.2863
盧隨哲京常華墟咸堅沙栗鐸黜株會衍	-13.2863
群魔束形鬼精滅爽迴屍起死白骨成人	-13.2863
𨎿	-13.2863
魁靜夷損光混元覺縁道守岑遥綿	-13.2863
有過我界身入玉虚	-13.2863
跖	-13.2864
八門飛天法輪罪福禁戒宿命因	-13.2864
㘽	-13.2864
五行備足生靈壽域	-13.2864
校定世人罪福之籍	-13.2864
既見仙官各禮而受之即服覺其味	-13.2864
龍變梵度天帝運上玄玄	-13.2864
始皇孝芒天帝薩羅婁	-13.2865
鷇	-13.2865
阿陀龍羅四象吁員	-13.2865
黽	-13.2865
蒐	-13.2866
其運之極又經一劫九炁各生	-13.2866
萬神朝禮地祇侍門大功眞王保舉	-13.2866
䏶	-13.2866
府定罪𡨋官酆都山	-13.2866
繒佩之九年玉司削兆死過度兆生宫遣	-13.2866
踧	-13.2866
婦人懷姙鳥獸含胎已生未生皆得生成	-13.2867
拋	-13.2868
凡起火識五行生尅也	-13.2868
歸根曰靜靜曰復命	-13.2868
獺	-13.2868
紫虚了眞子蕭廷芝元瑞述	-13.2868
謹依科式建立星壇備香花燈燭之儀	-13.2868
至靜之道律曆所不能契	-13.2869
癎	-13.2869
姫	-13.2869
萬神綿綿心中心呪重復宣傳貪羅洞	-13.287
勑劉混康省所上表	-13.287
用鉛不得用凡鉛用了眞鉛也棄捐	-13.287
煩惱爲結學業爲習	-13.2871
踝	-13.2871
瞎	-13.2871
人知其天而不知其賊	-13.2871
肋	-13.2872
之人七百年内聽得三傳盟	-13.2872
祖炁玉曆者以紀天元	-13.2873
畺	-13.2873
㨂	-13.2874
即當修齋禮懴讀誦此經以	-13.2874
道入口相交連訣吹彈符中	-13.2876
棧	-13.2877
𡖥	-13.2877
速降急速現形吾奉帝命與吾速降速	-13.2877
帝靈寳赤書玉篇上	-13.2878
聚則成形散則成炁	-13.2878
少女初開北地花	-13.2878
淩三界逍遥上清上清之天天帝洞	-13.2878
七祖昇遷永離鬼官䰟度朱陵受鍊更生	-13.2879
鵶	-13.2879
見有帝王后妃將相大臣	-13.2879
壌	-13.288
誹	-13.288
愚謹因二官直使正一功曹左右官	-13.2881
六害七傷八難九厄	-13.2883
靶	-13.2885
炁上元八景冥合炁入玄玄玄中太皇	-13.2886
三十二天輪轉無色周廻十方	-13.2888
焱	-13.289
氣尅賊令長生久視	-13.2893
鷙	-13.2895
炁至真大聖無鞅之衆浮空而至說經	-13.2895
丈元始登引天眞大神上聖髙尊	-13.29
黄白三色雲炁之中内外蓊	-13.291
无文不度无文不生是爲大梵天中之天	-13.2934
名誠感誠慶頓首頓首謹言	-13.3104
袍玉帶朱履執	-13.3185
緬平一等無復髙下土皆	-13.3435
戸五苦八難七祖升遷永	-13.3469
北酆明檢鬼營不得容隱金馬驛程普告	-13.3584
諸天中大梵隱語無量音道君撰元始	-13.4283
三官北酆明檢鬼營不得容隱金馬驛程	-13.4477
牝之門是謂天地根綿綿若存用之不勤	-13.5019
普告无窮萬神咸聽三界五帝列言上清	-13.5074
礔	-13.5163
𦈢	-13.5178
瑑	-13.5188
檉	-13.5188
喁	-13.5196
遝	-13.5201
菟	-13.5202
寶質心依舊格告盟	-13.5203
愎	-13.5207
蘤	-13.5214
洴	-13.5216
焮	-13.522
伾	-13.5227
尨	-13.5229
皜	-13.5235
愐	-13.5237
臒	-13.5238
礎	-13.5245
甡	-13.5245
馗	-13.5245
䣙	-13.5247
窊	-13.5248
黮	-13.525
雷霆都督元帥玉府真君辛忠義	-13.5251
瓉	-13.5252
柷	-13.5255
嚲	-13.5255
鋹	-13.5255
娣	-13.5259
秫	-13.5259
閉目靜思身坐青黄白三色雲炁之中	-13.526
歕	-13.5261
栝	-13.5261
輗	-13.5261
埒	-13.5261
鬐	-13.5263
諴	-13.5265
沄	-13.5267
圩	-13.5267
黥	-13.5268
濆	-13.527
逢人莫說人事笑指白雲去來	-13.5271
洑	-13.5271
豬	-13.5272
篨	-13.5272
憒	-13.5272
猋	-13.5273
肫	-13.5274
筦	-13.5276
埛	-13.5277
机	-13.5278
綆	-13.5278
擷	-13.5279
祸	-13.5279
璺	-13.528
㠗	-13.528
淝	-13.528
生此天亦號四襌天釋云	-13.5282
窴	-13.5282
𢈔	-13.5283
屧	-13.5284
槽	-13.5284
糶	-13.5289
䟦	-13.5289
臠	-13.529
蕕	-13.529
佀	-13.529
琩	-13.5291
蹁	-13.5291
瓓	-13.5292
荻	-13.5293
訐	-13.5294
抒	-13.5295
溽	-13.5295
瀋	-13.5296
剸	-13.5296
虢	-13.5296
郪	-13.5298
瓖	-13.5299
緉	-13.5299
左青龍右白虎前朱雀後玄武	-13.5301
滬	-13.5301
喊	-13.5302
倞	-13.5302
茁	-13.5302
地獄乘此陽光得生人道中	-13.5302
犒	-13.5303
眎	-13.5304
形長三寸二分頭建	-13.5304
薯	-13.5304
祔	-13.5304
騑	-13.5305
關三紐大梵飛空隱覺	-13.5306
甎	-13.5308
捄	-13.5308
八上始遭逢口訣傳來便有功	-13.5308
賭	-13.5308
瞶	-13.5309
阪	-13.5311
𩴹	-13.5311
賃	-13.5311
么	-13.5312
岏	-13.5313
天中下來降室内須臾化生	-13.5313
伋	-13.5313
鄜	-13.5313
琦	-13.5315
媿	-13.5315
灨	-13.5315
鋌	-13.5316
[...]
