<unk>	0
<s>	0
</s>	0
之	-3.85873
也	-4.06228
/	-4.13454
而	-4.358
以	-4.44672
)(	-4.59126
者	-4.69129
為	-4.78735
則	-4.81842
(	-4.8946
其	-4.8994
)	-4.97149
有	-5.08343
曰	-5.16092
言	-5.28242
於	-5.29562
不	-5.32563
故	-5.42021
是	-5.50946
此	-5.5632
自	-5.63503
于	-5.65083
在	-5.72432
無	-5.73813
與	-5.75767
至	-5.76075
大	-5.80498
矣	-5.82972
一	-5.8496
皆	-5.85976
人	-5.91472
謂	-5.9177
乃	-5.96268
非	-5.98128
惟	-6.03386
亦	-6.03445
所	-6.04698
王	-6.06051
又	-6.08501
用	-6.11818
作	-6.12314
今	-6.15501
如	-6.16028
天	-6.19252
民	-6.22451
然	-6.22901
當	-6.25108
乎	-6.25618
云	-6.27076
即	-6.28374
事	-6.2859
水	-6.31247
爲	-6.316
若	-6.3319
時	-6.33698
明	-6.35734
正	-6.36589
○	-6.38598
中	-6.3909
▁	-6.39581
所以	-6.43368
我	-6.4342
命	-6.44296
徳	-6.4444
上	-6.45069
行	-6.45924
使	-6.46413
下	-6.46919
得	-6.47766
必	-6.48401
見	-6.4888
既	-6.49688
已	-6.51993
出	-6.5374
三	-6.56267
反	-6.57944
山	-6.59847
同	-6.60577
能	-6.62451
周公	-6.62455
子	-6.63701
雖	-6.6371
治	-6.6489
知	-6.6498
從	-6.65012
及	-6.66673
河	-6.66716
二	-6.67869
相	-6.68267
書	-6.68526
傳	-6.68748
道	-6.70586
日	-6.70695
哉	-6.70813
君	-6.71651
汝	-6.72445
以為	-6.7371
所謂	-6.76701
可	-6.76729
始	-6.78039
欲	-6.79814
成	-6.80706
五	-6.80847
地	-6.82524
名	-6.83067
蓋	-6.83072
心	-6.83407
國	-6.84648
本	-6.85085
州	-6.85701
入	-6.8604
後	-6.86148
安	-6.86309
爾	-6.86351
縣	-6.86537
文	-6.87436
周	-6.87962
臣	-6.881
四	-6.88472
東	-6.89702
禹	-6.89776
耳	-6.89893
或	-6.90148
生	-6.90519
多	-6.90829
公	-6.9121
服	-6.91459
德	-6.9207
/)	-6.9297
方	-6.93169
分	-6.93726
經	-6.94318
合	-6.94656
舜	-6.95002
焉	-6.95526
居	-6.95559
南	-6.96295
立	-6.97501
先	-6.98029
成王	-6.98255
法	-6.99741
猶	-7.00024
未	-7.02681
字	-7.02901
訓	-7.03314
實	-7.04025
復	-7.0432
禮	-7.06609
意	-7.07302
長	-7.0787
因	-7.08075
謂之	-7.08237
敬	-7.08718
義	-7.08915
不可	-7.08919
漢	-7.08998
北	-7.09093
西	-7.09122
天下	-7.09692
武王	-7.09831
常	-7.11141
舉	-7.11223
如此	-7.11284
受	-7.11523
將	-7.11525
易	-7.11701
通	-7.11862
去	-7.1207
世	-7.13037
刑	-7.13341
稱	-7.13478
官	-7.13942
善	-7.14863
諸侯	-7.15063
平	-7.16777
古	-7.17122
土	-7.17443
説	-7.17595
定	-7.17794
何	-7.17971
重	-7.18032
夫	-7.18068
之事	-7.18447
音	-7.19175
處	-7.19398
亂	-7.19415
而不	-7.19738
九	-7.2068
盡	-7.21665
之意	-7.22882
六	-7.25188
政	-7.2547
和	-7.26037
不能	-7.26107
帝	-7.26586
遂	-7.26598
師	-7.27493
而已	-7.27495
陽	-7.28963
盖	-7.29313
殷	-7.29366
告	-7.29431
終	-7.29636
物	-7.2969
江	-7.2997
夏	-7.30024
堯	-7.31051
湯	-7.31065
來	-7.31205
功	-7.31249
過	-7.31311
凡	-7.31435
數	-7.32058
主	-7.32569
小	-7.33717
信	-7.34687
順	-7.3633
說	-7.3678
度	-7.37458
逺	-7.37888
文王	-7.38032
氏	-7.38133
前	-7.38217
屬	-7.38707
流	-7.40348
固	-7.4037
商	-7.41994
且	-7.42307
樂	-7.42534
衆	-7.42814
但	-7.43271
紂	-7.43487
是也	-7.43967
罪	-7.45213
外	-7.45489
極	-7.46753
志	-7.47112
者也	-7.47146
都	-7.47177
惡	-7.47563
聖人	-7.47665
諸	-7.47864
由	-7.4877
取	-7.49098
予	-7.49269
疑	-7.49833
近	-7.50203
克	-7.50241
内	-7.51352
教	-7.51566
各	-7.51907
可以	-7.52436
異	-7.52443
葢	-7.5247
制	-7.52638
觀	-7.53249
,	-7.53403
位	-7.53901
歸	-7.54049
次	-7.55564
引	-7.55609
豈	-7.56187
初	-7.57371
深	-7.57477
理	-7.57664
致	-7.58371
求	-7.58398
宜	-7.58639
親	-7.58753
遷	-7.58842
難	-7.58923
月	-7.5908
注	-7.59182
止	-7.59318
序	-7.59512
濟	-7.59907
厥	-7.60086
天子	-7.60086
思	-7.60429
祭	-7.6065
之心	-7.6086
之所	-7.60956
考	-7.61688
化	-7.61709
失	-7.62074
八	-7.62373
之道	-7.6274
陳	-7.62883
甚	-7.63663
廣	-7.64202
亡	-7.64779
兩	-7.64932
聖	-7.64961
令	-7.65184
正義曰	-7.65191
㑹	-7.65303
興	-7.65764
至于	-7.66002
辭	-7.66043
元	-7.67001
齊	-7.67339
而後	-7.67652
身	-7.67717
論	-7.67983
不知	-7.6812
史	-7.68309
天命	-7.68607
朝	-7.68795
指	-7.68883
家	-7.69054
武	-7.69219
修	-7.70054
至於	-7.70527
賢	-7.71086
海	-7.71224
故曰	-7.71966
少	-7.72525
謀	-7.72665
聲	-7.7267
按	-7.72733
太甲	-7.72832
戒	-7.73025
獨	-7.73047
年	-7.73053
之後	-7.73272
益	-7.73284
問	-7.73384
先王	-7.73399
殺	-7.73733
祀	-7.73957
卜	-7.73975
伊尹	-7.74129
之言	-7.74226
澤	-7.74265
風	-7.75295
城	-7.75375
田	-7.7544
髙	-7.75547
金	-7.75641
七	-7.75796
士	-7.75939
尚	-7.75994
視	-7.76039
▁(	-7.76552
應	-7.77146
封	-7.77149
變	-7.77368
動	-7.77381
進	-7.77487
體	-7.78313
聞	-7.78605
篇	-7.789
死	-7.7984
神	-7.79946
氣	-7.80294
百	-7.80332
保	-7.80548
直	-7.81016
據	-7.81181
載	-7.81441
貢	-7.81892
木	-7.82006
起	-7.82386
然後	-7.82417
改	-7.82469
力	-7.82633
語	-7.83177
畏	-7.8396
之地	-7.84014
發	-7.84421
承	-7.84754
旣	-7.84829
召公	-7.8489
等	-7.84892
之時	-7.8496
尊	-7.85219
吾	-7.85228
郡	-7.86099
唐	-7.86107
其所	-7.86353
宗	-7.86488
口	-7.86715
己	-7.86829
越	-7.86858
彼	-7.87238
新	-7.87378
學	-7.87442
好	-7.88
疏	-7.88249
廢	-7.88323
舊	-7.88695
往	-7.88701
解	-7.88944
備	-7.89328
絶	-7.89573
府	-7.89937
詩	-7.89969
更	-7.90419
之人	-7.90479
率	-7.90633
賦	-7.9077
任	-7.91235
别	-7.9138
永	-7.91756
開	-7.91762
伐	-7.91883
輕	-7.91991
建	-7.92043
𫝊	-7.92218
後世	-7.92273
美	-7.92927
望	-7.92993
不得	-7.93156
共	-7.93203
之間	-7.93219
罰	-7.93423
石	-7.93734
原	-7.9374
並	-7.93882
加	-7.94058
要	-7.94095
誠	-7.94406
詳	-7.94599
威	-7.94842
代	-7.95247
仁	-7.95588
言之	-7.95755
降	-7.96039
太	-7.96363
伯	-7.96592
職	-7.96594
象	-7.97059
念	-7.9734
父	-7.9764
於此	-7.97694
禹貢	-7.97996
吉	-7.98145
就	-7.98156
食	-7.98966
節	-7.99443
典	-7.99651
勤	-7.9979
又曰	-7.99923
享	-8.0023
守	-8.00309
紀	-8.00356
宋	-8.00432
不敢	-8.00455
簡	-8.01203
聽	-8.01251
逸	-8.01367
祖	-8.01768
恭	-8.02069
嵗	-8.02368
星	-8.02758
人之	-8.02792
記	-8.02793
繼	-8.0288
秦	-8.02995
鄭	-8.03255
首	-8.0328
周禮	-8.03411
章	-8.03459
人君	-8.03599
利	-8.0372
喪	-8.04178
夷	-8.04279
奉	-8.05035
厯	-8.05194
弗	-8.0523
邦	-8.05532
置	-8.0576
火	-8.05776
侯	-8.05955
比	-8.06297
不言	-8.06535
洛	-8.07093
有所	-8.07303
著	-8.07392
圖	-8.0746
之辭	-8.07514
害	-8.07563
恐	-8.07615
臨	-8.07724
監	-8.07979
漢孔氏曰	-8.09158
色	-8.0934
兼	-8.09445
門	-8.09446
晉	-8.09904
萬	-8.10623
特	-8.10737
執	-8.10748
隂	-8.10937
顯	-8.11083
白	-8.11385
餘	-8.11721
釋	-8.12514
不同	-8.12619
怨	-8.12835
間	-8.12856
臯陶	-8.12863
民之	-8.13014
掌	-8.13027
厚	-8.13475
十	-8.13845
無所	-8.13888
四方	-8.13907
兵	-8.14044
咸	-8.14128
便	-8.14368
叙	-8.14521
慎	-8.15003
盤庚	-8.15014
性	-8.15134
玉	-8.1515
憂	-8.15677
謹	-8.16205
全	-8.16333
君子	-8.16414
邑	-8.16693
孔	-8.16964
格	-8.18226
文武	-8.18631
足	-8.18639
誥	-8.18676
於是	-8.18784
五行	-8.18956
最	-8.19396
寧	-8.19513
他	-8.19525
容	-8.19666
此言	-8.19678
當時	-8.19986
歴	-8.20273
箕子	-8.20672
讀	-8.20709
桀	-8.20744
川	-8.20814
也故	-8.21216
之中	-8.21333
天下之	-8.2158
。	-8.21809
推	-8.22248
勝	-8.22284
總	-8.22451
淮	-8.23388
昭	-8.23407
存	-8.23507
春秋	-8.23666
宅	-8.237
設	-8.23881
衛	-8.23921
馬	-8.2393
似	-8.24109
酒	-8.24144
疾	-8.24204
逆	-8.2423
使之	-8.2443
勉	-8.24537
決	-8.24555
布	-8.24649
光	-8.24707
敎	-8.24819
盛	-8.25412
之義	-8.25625
罔	-8.25715
以下	-8.25961
施	-8.25989
愛	-8.26026
導	-8.2619
邪	-8.26221
嘗	-8.26315
只	-8.26513
之法	-8.26707
無不	-8.26726
斷	-8.26903
敘	-8.27225
尤	-8.27343
天之	-8.27456
依	-8.27734
庶	-8.2802
張	-8.28172
軍	-8.28375
統	-8.28443
福	-8.28583
養	-8.29022
者皆	-8.29045
之功	-8.2916
對	-8.29466
莫	-8.29659
魯	-8.30221
陵	-8.30383
上下	-8.30699
放	-8.31047
誅	-8.31274
敢	-8.31643
誤	-8.31687
形	-8.31709
之説	-8.31757
而無	-8.32574
棄	-8.33118
私	-8.33411
廟	-8.33489
精	-8.3366
天地	-8.33759
滅	-8.3392
三年	-8.34035
清	-8.34057
老	-8.34157
須	-8.34204
雨	-8.34303
肆	-8.34594
類	-8.34762
敗	-8.35266
敷	-8.35312
其心	-8.3543
輔	-8.35956
微	-8.36475
情	-8.36629
朕	-8.36832
入海	-8.37085
差	-8.3713
嚴	-8.3714
則是	-8.37186
造	-8.37505
凶	-8.37637
誓	-8.37657
虞	-8.37702
適	-8.37994
車	-8.38009
苟	-8.38039
此篇	-8.3808
其事	-8.38365
后	-8.38524
向	-8.38667
寛	-8.38708
梁	-8.38731
司	-8.38984
切	-8.39358
征	-8.3944
徐	-8.39589
黄	-8.39788
冀	-8.39889
左	-8.39936
遺	-8.40723
古文	-8.41063
危	-8.41076
之徳	-8.41263
表	-8.41414
案	-8.41509
退	-8.41567
源	-8.41662
律	-8.41694
計	-8.4172
末	-8.41849
略	-8.41925
孔子	-8.42379
蔡	-8.42496
康叔	-8.42531
之理	-8.42628
辟	-8.4279
上帝	-8.42798
巳	-8.4281
必有	-8.42859
休	-8.4289
列	-8.42941
右	-8.42957
述	-8.4296
獻	-8.43513
俱	-8.43526
違	-8.43591
尚書	-8.43595
斯	-8.43788
出於	-8.43819
畢	-8.44218
路	-8.44241
髙宗	-8.44364
春	-8.44548
徒	-8.44726
果	-8.44798
豫	-8.44869
揚	-8.4487
人心	-8.44886
除	-8.45051
達	-8.45185
虐	-8.45339
足以	-8.4534
勿	-8.45402
羣臣	-8.4551
西南	-8.45801
責	-8.45921
者以	-8.4613
交	-8.46144
卒	-8.46263
皇	-8.46617
察	-8.46644
良	-8.46674
省	-8.46692
左右	-8.4671
小人	-8.46775
習	-8.46822
朔	-8.47045
塞	-8.47052
吕氏曰	-8.47093
宫	-8.47293
以此	-8.47477
漸	-8.47729
而言	-8.47939
辨	-8.47953
真	-8.48045
豐	-8.48167
勞	-8.48189
古人	-8.48203
史記	-8.48211
况	-8.48264
被	-8.48329
具	-8.4848
卷	-8.48575
牧	-8.48669
面	-8.49048
業	-8.49076
孟子	-8.49204
庸	-8.4945
大夫	-8.49663
懐	-8.49817
納	-8.4985
未嘗	-8.50288
專	-8.5064
之官	-8.50663
東南	-8.50791
君臣	-8.50872
故以	-8.51185
青	-8.51572
積	-8.516
辰	-8.51673
下文	-8.51696
一人	-8.5186
不及	-8.52132
言其	-8.52137
啓	-8.52193
東北	-8.52426
留	-8.52654
氏曰	-8.52668
康	-8.5305
叛	-8.53073
孫	-8.53174
勸	-8.53447
工	-8.5353
尹	-8.5355
顧	-8.53641
九州	-8.53757
升	-8.53887
亳	-8.54248
微子	-8.5425
淫	-8.54536
務	-8.54723
龍	-8.54746
目	-8.54989
兹	-8.55002
百官	-8.55013
附	-8.55038
嗣	-8.55041
離	-8.55346
欲其	-8.55364
并	-8.55465
左傳	-8.55473
集傳	-8.55817
之類	-8.55836
接	-8.55935
集	-8.5619
曲	-8.56301
昔	-8.56923
審	-8.57303
俗	-8.57438
幾	-8.57488
待	-8.57644
循	-8.5788
孔氏曰	-8.5793
智	-8.58198
申	-8.58221
勢	-8.58396
歟	-8.58593
洪範	-8.58831
成湯	-8.58927
室	-8.59491
里	-8.59604
感	-8.59924
以爲	-8.60105
病	-8.60123
慮	-8.60213
器	-8.60223
耶	-8.60519
𤼵	-8.6052
歌	-8.60573
不足	-8.60627
郊	-8.6088
日月	-8.61339
之臣	-8.61604
靈	-8.61678
楚	-8.61679
之名	-8.6168
可見	-8.61691
協	-8.61865
西北	-8.61894
句	-8.62194
雍	-8.62231
半	-8.62273
秋	-8.62407
谷	-8.62427
何以	-8.62691
隨	-8.62869
呼	-8.63259
荆	-8.63268
也此	-8.63362
不可以	-8.63541
治水	-8.63868
而為	-8.63954
朱子曰	-8.64077
窮	-8.64308
故言	-8.6435
允	-8.64527
貴	-8.6453
戰	-8.64577
卿	-8.64611
註	-8.64657
是以	-8.64699
然則	-8.64803
再	-8.65121
乂	-8.65126
唐孔氏曰	-8.65192
叔	-8.65216
四岳	-8.6525
皇極	-8.65433
也然	-8.65482
爵	-8.6552
其地	-8.65647
徙	-8.65701
戎	-8.65898
患	-8.66117
迪	-8.66267
渠	-8.66358
嘉	-8.66463
之下	-8.66536
十二	-8.66541
莫不	-8.66717
闕	-8.66818
者亦	-8.66881
聚	-8.66888
錫	-8.67303
移	-8.67327
孝	-8.67394
子孫	-8.67448
妄	-8.67647
人主	-8.67899
其言	-8.68186
每	-8.6821
宣	-8.68259
百姓	-8.68354
忽	-8.68438
之說	-8.68441
丕	-8.68498
知其	-8.68524
龜	-8.68796
如何	-8.69002
虚	-8.6907
示	-8.69178
華	-8.69495
之外	-8.69627
富	-8.70005
也夫	-8.70067
其徳	-8.7014
助	-8.70285
柔	-8.70335
之命	-8.70488
役	-8.70577
受命	-8.70606
至此	-8.70621
權	-8.70657
仲	-8.70711
嗚呼	-8.70788
不可不	-8.70857
荒	-8.70992
将	-8.71227
畫	-8.71417
鄉	-8.71423
湖	-8.71439
剛	-8.71451
之所以	-8.71609
垂	-8.71634
茍	-8.71719
配	-8.71847
久	-8.71878
崩	-8.71962
可知	-8.71974
不然	-8.71995
扵	-8.72006
五事	-8.72146
族	-8.72166
冀州	-8.72172
之民	-8.72268
號	-8.72284
上文	-8.72423
包	-8.72571
識	-8.72628
急	-8.72655
胡	-8.72681
忠	-8.727
二年	-8.7274
還	-8.72741
千	-8.72894
渭	-8.72965
一篇	-8.73055
均	-8.73085
界	-8.73201
康王	-8.73235
周之	-8.73735
之書	-8.73745
父母	-8.73925
皆有	-8.73971
社	-8.74145
乗	-8.74217
錯	-8.74419
無有	-8.74516
而下	-8.74579
縱	-8.74945
今日	-8.74964
鯀	-8.74979
太保	-8.75113
運	-8.75131
武庚	-8.75345
弟	-8.75374
儀	-8.75613
賞	-8.75641
林	-8.75807
農	-8.75838
欽	-8.75924
朱	-8.76053
林氏曰	-8.76156
期	-8.76278
射	-8.76294
丘	-8.76378
彭蠡	-8.76449
占	-8.76552
亦有	-8.76633
冬	-8.76665
水出	-8.769
御	-8.76958
采	-8.77037
孔氏	-8.77201
證	-8.77275
質	-8.77332
皆是	-8.7734
卑	-8.7738
不復	-8.77432
一日	-8.77636
悉	-8.77835
宿	-8.77971
只是	-8.77977
種	-8.77986
之故	-8.78145
强	-8.78323
元年	-8.78473
不必	-8.78561
周官	-8.78577
劉	-8.788
則有	-8.79
其君	-8.79085
高	-8.79121
得其	-8.79159
九江	-8.7923
魏	-8.79262
未有	-8.79342
才	-8.79365
其意	-8.79501
入河	-8.79645
衞	-8.79982
可謂	-8.80232
堯典	-8.80301
皆以	-8.8045
用之	-8.80511
況	-8.80551
細	-8.80578
則其	-8.80672
延	-8.80719
即位	-8.80897
恤	-8.80915
草	-8.80946
肅	-8.81053
會	-8.81068
大臣	-8.81108
之文	-8.81167
不以	-8.81316
祗	-8.8137
懼	-8.81384
蒙	-8.81424
殷民	-8.81449
愈	-8.81462
授	-8.81493
讓	-8.81572
諫	-8.8166
羣	-8.81723
舍	-8.81932
連	-8.81971
君陳	-8.82133
眀	-8.8215
徃	-8.82183
刻	-8.82189
弱	-8.82401
舜典	-8.8246
崇	-8.82515
覆	-8.82524
旅	-8.8264
愚	-8.82811
于此	-8.82838
端	-8.82968
條	-8.83031
黎	-8.83382
否	-8.83525
在位	-8.83568
乘	-8.83651
散	-8.8368
山川	-8.83847
二字	-8.83849
於天	-8.84008
泰誓	-8.84053
禹之	-8.84187
縣南	-8.8419
蔽	-8.84275
夀	-8.84342
寒	-8.84357
蔡傳	-8.84495
穆王	-8.84501
溢	-8.84515
衣	-8.84772
以見	-8.8494
奏	-8.85173
浮	-8.85184
縣北	-8.85225
録	-8.85253
兆	-8.85266
昏	-8.8538
也言	-8.85384
洛邑	-8.85592
在今	-8.85635
衡	-8.85754
景	-8.85771
蔡氏	-8.85818
賜	-8.85822
懷	-8.85853
參	-8.86053
暴	-8.86428
女	-8.8647
自然	-8.86498
甲	-8.86555
朱子	-8.86559
議	-8.86697
立政	-8.86779
播	-8.86844
堯舜	-8.86944
三公	-8.87051
徴	-8.8711
資	-8.87164
以其	-8.87177
哲	-8.87223
聴	-8.87725
圭	-8.87765
伏生	-8.87855
纂註	-8.88047
犯	-8.88133
禍	-8.88304
報	-8.88312
昌	-8.88473
災	-8.88553
友	-8.88729
雜	-8.88936
藏	-8.8909
之君	-8.89098
四海	-8.89153
傷	-8.89202
壽	-8.89207
底	-8.8948
革	-8.89691
純	-8.89901
祭祀	-8.90028
歲	-8.90096
為一	-8.90136
疇	-8.90709
麗	-8.90846
殊	-8.90884
余	-8.91
禁	-8.91082
獄	-8.91113
却	-8.91229
爾雅	-8.91351
遜	-8.91469
拜	-8.91566
咎	-8.91573
擇	-8.91768
竹	-8.91782
先王之	-8.91791
不過	-8.91925
恒	-8.91945
水經	-8.91964
故云	-8.92035
怠	-8.92132
堂	-8.92377
兖	-8.92388
稽	-8.92422
䘮	-8.92451
而又	-8.92525
各有	-8.92633
某	-8.92939
怒	-8.93024
貌	-8.93076
漢志	-8.93121
王之	-8.93137
王者	-8.93151
揚州	-8.93247
偏	-8.93315
驗	-8.93519
惠	-8.93783
惑	-8.93928
其實	-8.94004
聰明	-8.94028
鬼神	-8.94235
俾	-8.94237
其功	-8.94262
尺	-8.94339
舜之	-8.94507
小民	-8.94726
法度	-8.94867
周公之	-8.9494
治之	-8.9505
手	-8.95079
無逸	-8.95579
登	-8.956
陳氏曰	-8.95607
中國	-8.95662
艱	-8.95667
古者	-8.95668
關	-8.95721
故謂之	-8.95999
喜	-8.96011
音義	-8.96221
之水	-8.96428
王命	-8.9658
經文	-8.96608
下民	-8.96617
貨	-8.96634
則為	-8.96698
之際	-8.96811
卿士	-8.97033
苦	-8.97182
姓	-8.97187
碣石	-8.97223
攻	-8.97353
未必	-8.97372
孤	-8.97496
亦不	-8.97501
井	-8.9778
撫	-8.97929
味	-8.9797
五刑	-8.97975
伏	-8.9803
式	-8.98178
王氏	-8.98362
而有	-8.98447
潛	-8.98468
殷之	-8.98523
来	-8.98708
召	-8.98739
敵	-8.98847
鳥	-8.99058
横	-8.99151
許	-8.99169
卦	-8.99215
見其	-8.9942
營	-8.99728
司徒	-8.99796
薄	-8.99804
母	-8.99898
之使	-9.00056
之職	-9.00183
衰	-9.00219
迎	-9.00222
懋	-9.00224
結	-9.00437
成功	-9.00476
之謂	-9.00583
荆州	-9.00586
赤	-9.00659
羲和	-9.00738
慶	-9.00767
百里	-9.00822
于是	-9.0092
卜筮	-9.00932
所當	-9.01072
距	-9.01119
矣故	-9.01182
避	-9.01214
羽	-9.01267
持	-9.01322
六卿	-9.01404
陸	-9.01473
旁	-9.01551
吳	-9.01574
築	-9.01593
雲	-9.0174
鑿	-9.01871
古之	-9.01905
之禮	-9.01957
之罪	-9.02103
賔	-9.02129
謨	-9.02133
幽	-9.02265
天道	-9.02281
魚	-9.02327
𤣥	-9.024
又有	-9.02437
湯之	-9.02624
吕	-9.02642
例	-9.02667
不明	-9.02848
約	-9.02899
闗	-9.03061
飾	-9.03206
學者	-9.03378
其後	-9.0338
之政	-9.03399
襄	-9.03715
後人	-9.03733
孟	-9.03766
注云	-9.03769
文王之	-9.03883
徳之	-9.03924
堯之	-9.04037
也蓋	-9.04123
泉	-9.04179
于天	-9.04313
如是	-9.04315
於民	-9.04497
愼	-9.04505
篤	-9.04619
遠	-9.04663
穀	-9.04693
息	-9.04776
者蓋	-9.04866
雖有	-9.04884
者非	-9.05027
其所以	-9.05233
汶	-9.05273
悔	-9.05517
在於	-9.05549
請	-9.05603
又云	-9.05653
季	-9.05657
如此則	-9.05672
鎮	-9.05773
也傳	-9.0604
舟	-9.06082
㣲	-9.06108
呉	-9.06221
也惟	-9.06268
壤	-9.0634
三江	-9.06355
見於	-9.06379
博	-9.06389
之初	-9.06402
大抵	-9.06455
四時	-9.06499
武王之	-9.06529
遇	-9.06651
趨	-9.0694
野	-9.07061
所言	-9.07197
祥	-9.07259
司空	-9.07508
抑	-9.07627
沙	-9.07716
三月	-9.07743
討	-9.07789
艱難	-9.07948
明徳	-9.07986
材	-9.08031
之内	-9.08086
五服	-9.08093
猷	-9.08175
偽	-9.08267
也今	-9.08471
黒水	-9.08799
行之	-9.08896
者則	-9.08927
所以為	-9.09074
之於	-9.09092
乾	-9.0924
為善	-9.09358
奄	-9.09371
蘇氏曰	-9.09587
畧	-9.09637
故也	-9.09764
答	-9.09825
洪水	-9.09846
燕	-9.10003
此説	-9.10095
不當	-9.1015
蘇	-9.1015
先儒	-9.10232
其民	-9.10402
矣然	-9.10478
寳	-9.10522
管	-9.10604
五年	-9.10893
五百里	-9.11015
考之	-9.11052
正月	-9.11142
南北	-9.11157
乆	-9.11256
鼓	-9.11347
無窮	-9.11481
收	-9.11676
廸	-9.11716
誰	-9.11859
此心	-9.12028
胥	-9.12137
萬物	-9.12207
背	-9.1225
逹	-9.12271
九河	-9.124
决	-9.12455
也若	-9.12499
之數	-9.12544
救	-9.12561
脩	-9.12566
短	-9.12569
太康	-9.1258
瀆	-9.12717
山在	-9.12732
桑	-9.12892
宗廟	-9.12898
干	-9.12905
王室	-9.12919
坐	-9.13013
轉	-9.1309
李	-9.1313
民心	-9.13212
追	-9.13271
折	-9.13369
江漢	-9.13498
事也	-9.13548
侮	-9.13682
萬邦	-9.13707
旦	-9.13741
史官	-9.13742
茲	-9.13766
蔡氏曰	-9.13793
不與	-9.13917
不相	-9.14048
夜	-9.1427
安國	-9.14303
舞	-9.14336
有罪	-9.14537
寡	-9.14547
兄	-9.1456
弼	-9.14719
毛	-9.14789
無垢曰	-9.14829
夢	-9.14914
漢水	-9.14936
了	-9.15023
求之	-9.15087
庶民	-9.15265
恃	-9.1537
津	-9.1538
商之	-9.15443
祝	-9.15476
成周	-9.15499
喻	-9.15551
不應	-9.15642
寶	-9.15651
紂之	-9.15688
相與	-9.15691
古今	-9.15769
假	-9.15797
其義	-9.15864
沔	-9.15879
矣此	-9.15891
濟水	-9.15964
畢公	-9.1615
豈有	-9.16153
甘	-9.16243
烈	-9.16288
太史	-9.16289
纂疏	-9.16381
三十	-9.16438
其説	-9.1644
黒	-9.1653
之前	-9.16552
河南	-9.16615
君之	-9.16847
佐	-9.16929
負	-9.16948
其罪	-9.17173
寜	-9.17258
張氏曰	-9.17426
反覆	-9.17477
漢書	-9.17522
效	-9.17728
昬	-9.17805
奪	-9.1787
淮夷	-9.17946
三篇	-9.1823
不敬	-9.18235
候	-9.18272
唐虞	-9.18299
之南	-9.18317
豈不	-9.18476
然而	-9.1848
契	-9.18537
之本	-9.18606
攝	-9.18665
嶺	-9.18712
孰	-9.18782
縣西	-9.18817
供	-9.18822
貫	-9.18823
充	-9.18831
之上	-9.18863
聖人之	-9.18882
受之	-9.19054
周書	-9.19092
庶幾	-9.19161
小大	-9.19167
之屬	-9.19184
榖	-9.19345
者謂	-9.19359
雍州	-9.19397
墜	-9.1944
顧命	-9.19466
忘	-9.19613
國之	-9.19654
牛	-9.19727
知之	-9.19845
之國	-9.1985
二十	-9.1994
側	-9.19965
繫	-9.20062
其身	-9.20094
仰	-9.20117
迹	-9.20187
政事	-9.20208
其中	-9.20316
之事也	-9.20326
歳	-9.20366
百工	-9.20407
仍	-9.2042
赦	-9.20485
多方	-9.2049
速	-9.20516
量	-9.20543
有天下	-9.20558
上天	-9.20695
雅	-9.20708
幣	-9.20743
不用	-9.20843
梁州	-9.20954
人事	-9.21001
二水	-9.21036
泗	-9.21047
者必	-9.21205
三代	-9.21303
飲	-9.21331
哀	-9.21339
先後	-9.21386
夫子	-9.21412
之位	-9.21457
東西	-9.21511
岳	-9.21529
介	-9.21612
慢	-9.2164
有夏	-9.21709
司馬	-9.21769
又按	-9.21791
詔	-9.21799
于民	-9.21821
姑	-9.2187
趙	-9.21927
出于	-9.22005
孔傳	-9.22015
免	-9.22039
取其	-9.22163
翼	-9.22255
蜀	-9.22272
多士	-9.22448
不善	-9.2245
武成	-9.22559
小子	-9.2259
𢎞	-9.22638
囚	-9.22656
彰	-9.22664
戒之	-9.22667
又東逕	-9.22794
防	-9.2282
財	-9.22829
稍	-9.22832
有功	-9.23028
慕	-9.23222
有此	-9.23383
黨	-9.23384
泰	-9.23606
五十	-9.23817
誕	-9.23887
或曰	-9.24015
攸	-9.24035
席	-9.24141
歎	-9.24152
冝	-9.24246
之德	-9.24271
秉	-9.24451
高宗	-9.24545
四年	-9.24581
失其	-9.24615
之意也	-9.24662
輕重	-9.24691
寅	-9.24771
皮	-9.2502
墨	-9.25125
帝曰	-9.25198
震	-9.25233
治民	-9.25289
専	-9.25311
咨	-9.25414
陳氏大猷曰	-9.25432
唯	-9.25765
補	-9.25809
之大	-9.25815
十二月	-9.25826
所出	-9.25853
七年	-9.26009
康誥	-9.26106
房	-9.26149
又東	-9.2634
之語	-9.26474
領	-9.26497
賓	-9.2659
教之	-9.26873
大陸	-9.26926
別	-9.26935
御事	-9.26937
維	-9.2694
得之	-9.27247
緩	-9.27274
險	-9.273
庭	-9.27348
恩	-9.27458
天子之	-9.27653
冢宰	-9.27674
千里	-9.27705
之世	-9.27733
徵	-9.27752
謙	-9.27783
斯民	-9.27978
尾	-9.28082
龍門	-9.28137
今文	-9.28158
不足以	-9.28316
續	-9.28395
倫	-9.28439
曉	-9.28485
矜	-9.2853
竒	-9.28544
者盖	-9.28653
忍	-9.28776
稷	-9.2889
冠	-9.28892
葛	-9.28917
欽定四庫全書	-9.28924
命之	-9.28945
王曰	-9.29064
徧	-9.29311
看	-9.2934
貞	-9.29412
戮	-9.29471
杜	-9.29576
機	-9.29584
刑罰	-9.29765
狂	-9.29906
温	-9.29907
不在	-9.29922
黜	-9.30044
試	-9.30102
姦	-9.30116
禾	-9.30163
擊	-9.302
積石	-9.30311
韓	-9.30385
大誥	-9.30525
洪	-9.30549
以來	-9.30575
藝	-9.30591
愆	-9.30618
其文	-9.30783
天理	-9.308
明矣	-9.30839
亦惟	-9.30888
啟	-9.30942
音釋經	-9.31124
以上	-9.31128
弱水	-9.31188
境	-9.31245
竊	-9.31297
有以	-9.31553
兖州	-9.3167
不見	-9.31862
閒	-9.3193
地名	-9.3195
集說	-9.3196
割	-9.31962
準	-9.31991
所載	-9.32016
沈	-9.32062
國家	-9.32103
綏	-9.32236
岷山	-9.32322
自有	-9.32401
於人	-9.32461
析	-9.32515
賢者	-9.32548
大小	-9.3257
桓	-9.32707
頑	-9.32815
縣東北	-9.32823
草木	-9.32827
陽縣	-9.32855
九州之	-9.32879
到	-9.32939
穆	-9.3301
此書	-9.33023
傳云	-9.33056
之責	-9.33056
逐	-9.33059
蘇氏	-9.33077
不為	-9.33186
用刑	-9.33368
故其	-9.33433
而非	-9.33456
矢	-9.33481
乎此	-9.33546
之北	-9.3358
角	-9.33629
虎	-9.33666
遽	-9.33686
賊	-9.33896
頭	-9.3401
第	-9.34047
洛誥	-9.34265
辛	-9.34283
惟其	-9.34324
亦曰	-9.34344
當以	-9.34361
調	-9.34444
縣東	-9.34481
安得	-9.34538
奠	-9.34595
兄弟	-9.34653
閏	-9.34774
羿	-9.34839
罔不	-9.34935
豈非	-9.34941
嚮	-9.35149
道也	-9.35255
為主	-9.35266
有司	-9.35301
荆山	-9.35365
聰	-9.35372
滿	-9.35442
鄭氏	-9.35468
陰	-9.35532
撰	-9.35777
在上	-9.3586
人情	-9.35875
空	-9.36311
入于	-9.36399
皆在	-9.36508
淺	-9.36567
禄	-9.3659
鼎	-9.36609
逾	-9.36732
二月	-9.36884
諸侯之	-9.36884
商民	-9.36941
履	-9.37007
是為	-9.37019
入江	-9.37165
新邑	-9.37236
孔安國	-9.37256
京師	-9.37315
耕	-9.37329
賤	-9.37355
截	-9.37375
耿	-9.37547
支	-9.37626
暨	-9.37634
基	-9.37638
可知矣	-9.37763
伯夷	-9.37829
一名	-9.37848
予一人	-9.37855
鮮	-9.37876
傅説	-9.37889
宥	-9.37993
河水	-9.37994
不通	-9.38041
不從	-9.38088
於天下	-9.38089
隋	-9.38119
也盖	-9.38131
也自	-9.38183
賴	-9.38199
及其	-9.3834
亦無	-9.38399
佑	-9.38497
可也	-9.38499
之西	-9.38524
之東	-9.38589
者為	-9.38608
部	-9.3868
釐	-9.38728
逕	-9.38764
之實	-9.38825
夾	-9.38877
其間	-9.39013
愚謂	-9.39017
屢	-9.39052
九疇	-9.39134
者惟	-9.39249
其人	-9.39481
使人	-9.39509
岐	-9.39642
集説	-9.39655
不忍	-9.39674
則曰	-9.3975
法也	-9.39842
此章	-9.39847
於上	-9.39913
此說	-9.39998
忌	-9.40088
禮記	-9.40166
無非	-9.40206
則民	-9.40266
渡	-9.40285
豫州	-9.40352
厲	-9.40364
朝廷	-9.40494
十三	-9.40501
則知	-9.40576
擾	-9.40675
辯	-9.40874
而能	-9.40904
巧	-9.40927
内外	-9.40966
共工	-9.41041
増	-9.41057
熟	-9.41059
蕩	-9.41068
吏	-9.4112
一也	-9.41163
衍	-9.41281
萬世	-9.41298
為天子	-9.41397
黄帝	-9.414
𩔖	-9.41453
較	-9.41478
彊	-9.415
緫	-9.41744
斂	-9.41746
當在	-9.41773
縣西南	-9.41777
君牙	-9.41805
此所以	-9.41816
獲	-9.41817
徐州	-9.41835
善惡	-9.41958
規	-9.41959
知人	-9.41986
詩曰	-9.42069
吉凶	-9.42124
限	-9.42183
其能	-9.42237
隂陽	-9.42342
平王	-9.4249
縣西北	-9.42494
之變	-9.42541
此則	-9.42693
西土	-9.42842
鄭𤣥	-9.42861
之情	-9.42989
孚	-9.42991
青州	-9.43025
蹈	-9.43042
因其	-9.43184
其職	-9.43208
三監	-9.43208
之道也	-9.43216
僕	-9.4322
溝	-9.43311
甫	-9.43496
殆	-9.43581
贖	-9.43945
費	-9.4396
安民	-9.43965
以成	-9.43988
侵	-9.44029
俊	-9.44054
磬	-9.44171
東流	-9.4434
甸	-9.44359
五福	-9.44361
鳴	-9.4445
没	-9.44499
者言	-9.446
單	-9.44613
績	-9.44652
其德	-9.44714
一時	-9.44741
奔	-9.44774
其餘	-9.44854
倚	-9.44931
秩	-9.44977
不易	-9.45003
可畏	-9.45055
隆	-9.45143
不如	-9.45345
稼穡	-9.45345
不順	-9.45438
屈	-9.45515
有二	-9.45535
階	-9.4554
下流	-9.45601
十六	-9.45709
委	-9.45714
缺	-9.45783
隱	-9.4579
則又	-9.45792
相去	-9.45927
謬	-9.45967
晦	-9.46003
未知	-9.46011
正直	-9.46089
書序	-9.46097
便是	-9.46101
為君	-9.46129
勇	-9.46193
蠻	-9.46223
冒	-9.46237
貝	-9.46273
在此	-9.46275
躬	-9.46415
索	-9.46449
斗	-9.46465
獸	-9.46472
傅	-9.46544
洛書	-9.46673
在天	-9.46679
天地之	-9.4668
水之	-9.46841
聖賢	-9.46843
符	-9.46848
累	-9.46861
箋	-9.46876
講	-9.4688
孟津	-9.46914
贊	-9.46919
丗	-9.47057
江水	-9.47111
則必	-9.47311
終始	-9.47521
浸	-9.47527
此又	-9.47528
四國	-9.4759
固有	-9.47593
東方	-9.47689
亦是	-9.47697
強	-9.47752
猶有	-9.47962
后稷	-9.48063
嗣王	-9.48076
緯	-9.48095
周家	-9.48156
言我	-9.48157
測	-9.48201
益稷	-9.48332
遊	-9.48468
一事	-9.48664
困	-9.48665
昧	-9.48687
怪	-9.48876
南方	-9.48902
導之	-9.49152
之辭也	-9.49233
伊	-9.4926
之制	-9.49277
者有	-9.49322
淵	-9.49397
之極	-9.49429
子曰	-9.49471
丈	-9.49495
亦以	-9.49522
之序	-9.49526
鄭云	-9.49554
崑崙	-9.49563
三百	-9.49681
逸豫	-9.49746
第一	-9.49824
池	-9.50012
自古	-9.50224
其道	-9.50237
烏	-9.50256
二公	-9.50301
地理志	-9.50335
綱	-9.5038
人所	-9.504
盈	-9.50441
之患	-9.50484
得以	-9.50484
偶	-9.50493
不盡	-9.50529
沮	-9.50531
戾	-9.50542
治天下	-9.5062
這	-9.50758
以至	-9.50852
百揆	-9.50991
從而	-9.51162
臣民	-9.51172
之日	-9.51177
社稷	-9.51225
爭	-9.51244
甲子	-9.51292
三百里	-9.513
濬	-9.5133
正義	-9.51467
盤	-9.51579
素	-9.51665
襲	-9.51823
人臣	-9.5187
文武之	-9.51888
自是	-9.51941
為惡	-9.51963
也又	-9.51971
伐紂	-9.51983
王氏曰	-9.51987
天意	-9.52098
有徳	-9.52106
毋	-9.52117
其國	-9.52129
鳥獸	-9.52152
薦	-9.52318
岸	-9.52423
之體	-9.52512
則不	-9.52552
倍	-9.526
九年	-9.52602
妻	-9.52655
而不能	-9.52705
而不知	-9.5272
東征	-9.52763
貳	-9.52806
絲	-9.52825
用人	-9.52934
東至	-9.53152
豈可	-9.53176
所云	-9.53226
一身	-9.53304
者乎	-9.53376
之物	-9.5338
傳曰	-9.53392
遵	-9.53393
覺	-9.53461
託	-9.53496
其可	-9.53699
枝	-9.53705
不至	-9.53769
不合	-9.53777
夔	-9.5378
大江	-9.53792
之勢	-9.53862
根	-9.53877
臺	-9.53948
不肯	-9.5396
仲康	-9.5406
其辭	-9.54182
自此	-9.54302
十三年	-9.54342
之性	-9.54364
訖	-9.5446
以告	-9.54505
一月	-9.54661
損	-9.54676
不待	-9.5469
亦非	-9.54696
羞	-9.54697
祠	-9.54703
懲	-9.54731
黄河	-9.54784
帥	-9.54795
合於	-9.54808
箕	-9.54812
静	-9.54898
徑	-9.54954
陳氏	-9.54976
漳	-9.55086
也然則	-9.55166
三宅	-9.55174
玩	-9.55187
之處	-9.552
之子	-9.55221
一曰	-9.55267
二人	-9.55361
入於	-9.55375
丁	-9.55407
邦國	-9.55423
陶	-9.55491
以後	-9.55505
無以	-9.55559
禮樂	-9.55605
之謂也	-9.55642
毎	-9.55712
召誥	-9.55721
三王	-9.55746
一句	-9.55842
遲	-9.55851
篚	-9.55868
一心	-9.55929
寵	-9.5593
之要	-9.55935
陟	-9.56048
即此	-9.56083
逺近	-9.56098
尸	-9.5615
史臣	-9.5623
之主	-9.56262
是時	-9.56317
壊	-9.56401
殘	-9.56414
域	-9.56455
不容	-9.56491
五紀	-9.56524
武帝	-9.56536
㡬	-9.56592
之士	-9.56733
所在	-9.56737
臣下	-9.56768
六年	-9.56787
刑之	-9.56804
三徳	-9.56834
其為	-9.56977
大命	-9.57038
派	-9.57081
卽	-9.57084
又以	-9.57114
伯禽	-9.57155
在下	-9.57188
堅	-9.57213
虞書	-9.57283
而不可	-9.57425
其說	-9.57468
㫖	-9.57503
風俗	-9.57517
桐	-9.57559
金縢	-9.57577
荅	-9.5761
隠	-9.57637
地志	-9.57686
京	-9.57775
泥	-9.57841
亭	-9.58019
紹	-9.58047
仲虺	-9.58091
而已矣	-9.58152
環	-9.58164
殺人	-9.58164
即今	-9.58233
所行	-9.58257
黑	-9.58296
河北	-9.58358
箇	-9.58379
詞	-9.58383
滎	-9.58449
筮	-9.58451
之用	-9.58463
振	-9.5861
王若曰	-9.58643
寸	-9.59023
汴	-9.59024
㣲子	-9.59052
係	-9.59194
勑	-9.59444
殺之	-9.59466
裕	-9.59468
流沙	-9.59539
繹	-9.59617
事之	-9.59625
彝	-9.59716
曾	-9.59726
征伐	-9.59801
觀之	-9.59834
繁	-9.59848
舎	-9.5988
一徳	-9.60011
悟	-9.60026
踐	-9.60087
讎	-9.60103
七十	-9.60121
敏	-9.60147
有餘	-9.60233
厎	-9.60327
市	-9.60394
隄	-9.60465
蔡叔	-9.60588
歸于	-9.60619
使民	-9.60798
括	-9.60808
管蔡	-9.60908
帝堯	-9.60964
何也	-9.61174
涇	-9.61279
不得不	-9.61343
竄	-9.61369
上言	-9.61551
縁	-9.61607
帝都	-9.61664
冕	-9.61685
宗周	-9.61689
不服	-9.61743
父子	-9.61802
之山	-9.61879
漆	-9.61883
之美	-9.61897
頑民	-9.62146
教化	-9.6222
震澤	-9.62221
毖	-9.62224
曽	-9.62228
禪	-9.62302
之刑	-9.6235
做	-9.62418
比干	-9.62475
縣界	-9.62526
皇天	-9.62652
歩	-9.62652
成王之	-9.62672
彞	-9.62683
編	-9.62711
鐵	-9.62726
猶言	-9.62774
之難	-9.62807
八政	-9.62809
西傾	-9.62837
左氏	-9.62891
非一	-9.62975
無所不	-9.63009
此一節書是	-9.6302
我之	-9.63052
有一	-9.6316
鄰	-9.63297
四月	-9.63321
次第	-9.63361
衡山	-9.63364
故稱	-9.63579
儒	-9.63593
則無	-9.63595
照	-9.63695
壞	-9.63704
驕	-9.63708
為民	-9.6371
唐孔氏	-9.63729
曠	-9.6399
日新	-9.64145
頗	-9.64181
的	-9.64235
此皆	-9.64244
聼	-9.64475
賛	-9.64502
苗民	-9.64503
亦當	-9.64547
以正	-9.64626
陂	-9.64675
破	-9.6472
竟	-9.64754
不暇	-9.65028
錄	-9.65034
葬	-9.65048
明德	-9.65175
黑水	-9.6518
僅	-9.65212
沒	-9.65299
皐陶	-9.6545
頌	-9.65462
僭	-9.65501
嗟	-9.65543
佞	-9.65609
幼	-9.65749
故能	-9.65751
題	-9.6576
縣東南	-9.65791
先言	-9.65799
斥	-9.6581
三十里	-9.65937
太原	-9.65967
必以	-9.66038
粟	-9.66042
其名	-9.6608
傲	-9.6613
而行	-9.66142
裳	-9.66646
一度	-9.66672
十一年	-9.66736
清河	-9.66786
洞庭	-9.66819
觧	-9.66851
知所	-9.66873
宻	-9.66889
毁	-9.66896
去聲	-9.66898
靜	-9.66902
舉其	-9.66978
輅	-9.67026
欺	-9.67138
黙	-9.6715
新安陳氏曰	-9.67159
不安	-9.67232
之訓	-9.67278
或問	-9.67303
姦宄	-9.67397
肇	-9.6743
其勢	-9.67474
有常	-9.67558
沂	-9.67578
以明	-9.67606
預	-9.67663
徳者	-9.67705
慰	-9.6772
之失	-9.67775
君奭	-9.6778
大禹	-9.67814
道心	-9.67929
弓	-9.6794
何所	-9.68039
人皆	-9.68102
之氣	-9.68126
儉	-9.68211
密	-9.68223
痛	-9.68247
育	-9.68279
者葢	-9.68281
而立	-9.68314
甸服	-9.68334
想	-9.68339
而不敢	-9.6842
夏之	-9.68446
涉	-9.6846
傳言	-9.68471
範	-9.68525
、	-9.68534
遷都	-9.68563
悦	-9.68589
即是	-9.68591
阿	-9.68724
如字	-9.68779
嫌	-9.68798
而成	-9.68817
水經注	-9.6885
肯	-9.68855
熙	-9.68857
觀其	-9.6889
遏	-9.69007
亦可	-9.69031
隔	-9.69032
拘	-9.69063
落	-9.69102
若是	-9.69109
帝王	-9.69114
非是	-9.6919
誘	-9.69366
事而	-9.69369
三苗	-9.69382
此州	-9.69385
之長	-9.69483
大事	-9.69495
然也	-9.69556
天威	-9.69614
不欲	-9.69688
汝當	-9.69755
者不	-9.69828
者所以	-9.69828
推之	-9.6985
矣而	-9.69888
沱	-9.69898
漆沮	-9.69907
又言	-9.70007
苗	-9.70037
十五	-9.70066
選	-9.70073
祇	-9.70142
夏書	-9.70158
而復	-9.70169
貪	-9.7019
其一	-9.7024
卿大夫	-9.70245
猶未	-9.70343
十二年	-9.70397
殖	-9.70454
泛	-9.707
舒	-9.7074
毒	-9.70748
不若	-9.70831
而行之	-9.70884
之任	-9.70906
瑞	-9.7092
徽	-9.70978
萬民	-9.71018
壇	-9.71023
雉	-9.71032
爽	-9.71066
併	-9.71296
諸家	-9.713
其上	-9.71319
故道	-9.71339
兆民	-9.71388
不忘	-9.71414
無事	-9.71521
此意	-9.71566
屏	-9.71607
壺口	-9.71615
論語	-9.71662
以前	-9.71671
縣有	-9.71704
西伯	-9.71778
戴	-9.71803
城縣	-9.71804
故知	-9.71832
㑹于	-9.71848
於下	-9.71865
詢	-9.71877
書傳	-9.71885
其有	-9.7189
而天下	-9.71955
大河	-9.71968
得人	-9.71976
無常	-9.71977
好惡	-9.72051
㒺	-9.72069
太公	-9.72143
王畿	-9.7219
失之	-9.72198
告之	-9.72202
其性	-9.72216
可不	-9.72365
此所謂	-9.72368
樹	-9.72411
疆	-9.72438
拜手稽首	-9.72452
之效	-9.72506
牲	-9.72509
諸儒	-9.72514
王肅	-9.7266
者乃	-9.72685
緒	-9.72702
增	-9.72703
丹朱	-9.72742
汭	-9.72779
使其	-9.72812
婦	-9.72833
庶邦	-9.72969
為天下	-9.73065
庻	-9.73079
帝舜	-9.73313
曹	-9.73379
幸	-9.73404
取之	-9.73414
其子	-9.73534
之正	-9.73598
出入	-9.736
雲夢	-9.73602
山東	-9.73698
祖考	-9.73795
倡	-9.73866
迫	-9.73868
予小子	-9.73903
凖	-9.73911
嶓冢	-9.73998
澧	-9.74035
煩	-9.74039
徳也	-9.74088
吕刑	-9.74116
弊	-9.74172
十四	-9.74395
其終	-9.74399
非特	-9.74409
而用之	-9.74458
該	-9.74461
雷	-9.74498
泰山	-9.74609
三危	-9.74679
墳	-9.74687
天心	-9.74801
灌	-9.7496
賈	-9.75
榮	-9.75025
惜	-9.75028
禹治水	-9.75031
邊	-9.75048
丹	-9.75079
太子	-9.75086
羣后	-9.75106
不行	-9.75257
訪	-9.75329
祖乙	-9.7535
水患	-9.75453
恐其	-9.75507
染	-9.75559
也周公	-9.75577
三事	-9.75593
齋	-9.75637
嶽	-9.75642
有大	-9.75706
十一	-9.75717
大禹謨	-9.75722
於王	-9.75832
沃	-9.75874
班固	-9.759
創	-9.75902
此亦	-9.7619
鄭康成	-9.76222
菏	-9.7629
鎬京	-9.76354
塗	-9.76383
流言	-9.76409
繩	-9.76467
巡	-9.76476
十七	-9.76538
治也	-9.7658
泗水	-9.76714
互	-9.76728
范	-9.7676
洲	-9.76814
前人	-9.76818
無一	-9.76906
武丁	-9.76967
消	-9.77048
詩云	-9.77051
銅	-9.77198
不惟	-9.77276
同心	-9.7731
義理	-9.77411
暇	-9.77454
管叔	-9.77463
之志	-9.77479
警	-9.77494
之衆	-9.77504
告汝	-9.77703
漯	-9.77912
圗	-9.77935
其命	-9.78002
敬徳	-9.78039
程	-9.78061
傅說	-9.78168
始終	-9.78209
夏商	-9.78232
一節	-9.78257
不成	-9.78258
祖父	-9.78267
賢人	-9.78286
睦	-9.78336
此事	-9.78345
十里	-9.78393
與夫	-9.78401
亦猶	-9.78456
入渭	-9.78478
未能	-9.78489
韻	-9.7849
憲	-9.78528
諧	-9.78575
之始	-9.78622
二者	-9.78666
東郊	-9.78689
所經	-9.78697
或有	-9.78774
蒲	-9.78775
迷	-9.78971
四夷	-9.79034
者如此	-9.79046
不失	-9.79061
歸之	-9.79129
溪	-9.7913
悖	-9.79217
文祖	-9.79259
也葢	-9.79276
楊	-9.79278
奮	-9.79291
第二	-9.79378
其時	-9.79415
化之	-9.79418
生於	-9.79463
邱	-9.79509
止於	-9.79572
匯	-9.79575
之次	-9.79607
我周	-9.79731
六十	-9.79762
鹽	-9.79768
扶	-9.79799
提	-9.79813
書曰	-9.79845
稱王	-9.79962
之謀	-9.80009
之論	-9.80044
以示	-9.80055
愚按	-9.80092
君道	-9.80098
孟子曰	-9.80103
珠	-9.80128
夭	-9.80161
典禮	-9.80192
冊	-9.80208
蠻夷	-9.80241
嘆	-9.8028
靡	-9.80334
狹	-9.80346
于上	-9.80356
故城	-9.80391
几	-9.80466
陳氏經曰	-9.80514
波	-9.80614
不恭	-9.80629
璧	-9.80751
術	-9.80808
安能	-9.80894
私意	-9.80898
皆可	-9.80956
臯	-9.80979
弔	-9.81033
含	-9.81038
伐之	-9.81045
步	-9.81077
我民	-9.81081
鄭𤣥云	-9.81101
竝	-9.8113
文字	-9.81212
不常	-9.81263
輸	-9.81359
視聽	-9.81368
穿	-9.8137
䇿	-9.81389
於我	-9.81421
林氏之竒曰	-9.81423
無罪	-9.81426
譽	-9.81429
而言之	-9.81451
利害	-9.81494
道之	-9.81507
鄙	-9.81612
五典	-9.81651
亮	-9.81671
治亂	-9.81705
道理	-9.81712
付	-9.81763
五十里	-9.81813
歸於	-9.81846
重言	-9.81852
勤勞	-9.81937
今按	-9.81957
禦	-9.81996
逮	-9.8215
國語	-9.82191
三分	-9.8229
殯	-9.82321
侈	-9.82329
齒	-9.82342
至是	-9.82425
者以其	-9.8257
既言	-9.82606
天降	-9.82805
邇	-9.82924
𦙍	-9.8293
畜	-9.82975
!	-9.83028
則可以	-9.83094
林氏	-9.83107
也又曰	-9.83189
溺	-9.83253
為大	-9.833
無他	-9.83387
究	-9.83424
盡其	-9.83487
耳目	-9.83569
焚	-9.83623
平地	-9.8373
俞	-9.83924
其位	-9.8393
而得	-9.83931
享國	-9.83938
書之	-9.83967
上篇	-9.83982
洛水	-9.8406
華山	-9.84104
跨	-9.84175
致其	-9.84197
西方	-9.84324
心之	-9.84331
五行之	-9.84425
潤	-9.84529
阻	-9.84532
田賦	-9.84547
侍	-9.84576
暴虐	-9.84629
以治	-9.84669
天之所	-9.84702
盧	-9.84707
太戊	-9.84726
遂以	-9.84769
惟恐	-9.84776
九族	-9.84827
所居	-9.84834
不出	-9.85065
告以	-9.85104
之徒	-9.85211
言天	-9.85216
奔走	-9.85253
當然	-9.85349
河圖	-9.85374
工夫	-9.8545
𫝑	-9.85456
神明	-9.85511
志云	-9.85608
必先	-9.85725
黃	-9.85792
邦君	-9.85796
八年	-9.85828
蕃	-9.85831
祈	-9.85852
祖甲	-9.85922
冇	-9.85937
也如	-9.86014
天時	-9.86024
江南	-9.86034
克艱	-9.86057
巴	-9.86152
一嵗	-9.86152
四方之	-9.86158
羙	-9.86184
午	-9.86187
則當	-9.86269
今我	-9.86373
西河	-9.86421
逃	-9.86442
諭	-9.86447
輯	-9.865
之行	-9.86503
是非	-9.86589
誅之	-9.86901
莊	-9.87188
滙	-9.87196
三日	-9.8725
河東	-9.87263
狄	-9.87317
辜	-9.87361
之業	-9.87471
非謂	-9.87474
而民	-9.87478
濫	-9.87488
此其	-9.87494
馨香	-9.87519
人者	-9.8758
非也	-9.87607
十八	-9.87643
淮泗	-9.87665
罪人	-9.87694
無疑	-9.87714
可見矣	-9.87723
班	-9.87743
訛	-9.87796
前日	-9.87827
人也	-9.8783
説文	-9.87886
為正	-9.87902
以道	-9.87905
同姓	-9.88004
漕	-9.88048
踰	-9.88073
滋	-9.88111
元和志	-9.88118
矣夫	-9.88122
此乃	-9.88172
三者	-9.88199
堯舜之	-9.88209
在于	-9.88212
王城	-9.88222
費誓	-9.88271
者是	-9.88322
酒誥	-9.88365
夏氏曰	-9.88391
命汝	-9.88447
回	-9.88471
随	-9.88479
奚	-9.88486
禱	-9.88496
畿内	-9.88549
國名	-9.88593
之治	-9.88677
未可	-9.8871
庚	-9.88783
之年	-9.88787
歴年	-9.88809
當作	-9.88837
烝	-9.8886
衆人	-9.88876
四十	-9.88921
祖伊	-9.88939
徳而	-9.88942
征之	-9.88945
尊卑	-9.88979
滎澤	-9.89032
於外	-9.8904
首尾	-9.89054
惟時	-9.89061
羌	-9.89143
二百	-9.89176
萌	-9.89192
至誠	-9.89281
五帝	-9.89308
不可以不	-9.89352
若此	-9.89386
本於	-9.89439
篇首	-9.89503
闢	-9.89514
日月星辰	-9.89525
長短	-9.89532
宮	-9.89534
廬	-9.89662
蔡仲	-9.89684
今王	-9.89716
廣大	-9.89808
無敢	-9.89812
入淮	-9.89888
未盡	-9.89927
改過	-9.89962
周公以	-9.9001
渉	-9.90151
敷淺原	-9.90159
者即	-9.90159
露	-9.90173
酉	-9.90188
争	-9.90189
早	-9.90189
乙	-9.90227
稽疑	-9.90314
商書	-9.90322
五日	-9.90383
順之	-9.90477
厭	-9.90477
左傳云	-9.90503
茂	-9.90556
亦如	-9.90617
也王	-9.90678
言曰	-9.90771
彛	-9.90787
𨽻	-9.90804
沿	-9.90842
徇	-9.90876
也既	-9.90907
熊耳	-9.90956
此時	-9.90966
卜之	-9.90972
乎天	-9.90976
巡守	-9.91003
冢	-9.9114
其本	-9.91151
六日	-9.91153
亦未	-9.91164
激	-9.91192
慈	-9.91197
欲使	-9.91254
二州	-9.91264
戊午	-9.91292
為治	-9.91309
云云	-9.91479
淪	-9.91499
茅	-9.91508
大伾	-9.91524
地理	-9.91565
;	-9.91567
誓師	-9.91582
與天	-9.91616
未詳	-9.91674
厯數	-9.91753
鍾	-9.91762
善者	-9.91766
安危	-9.91778
屋	-9.91781
為二	-9.91883
乖	-9.91888
亦然	-9.91896
紛	-9.91934
減	-9.91935
以自	-9.92006
濁	-9.92008
始於	-9.92101
渾	-9.92108
抵	-9.92231
蓄	-9.92232
曰我	-9.92271
博士	-9.92283
皆為	-9.92293
然其	-9.92309
典常	-9.92329
常人	-9.92357
逸樂	-9.9239
盛徳	-9.92409
是謂	-9.92419
此經	-9.92431
見于	-9.92458
游	-9.92544
諱	-9.92577
優	-9.92604
可以為	-9.92617
虛	-9.92622
乃有	-9.92642
悔過	-9.92733
豫章	-9.9274
也周禮	-9.92784
冬至	-9.92786
所見	-9.92803
饗	-9.92956
庶徴	-9.92964
愧	-9.9298
伊訓	-9.92986
不正	-9.92998
侯服	-9.93011
大學	-9.93067
際	-9.93084
善也	-9.93098
而作	-9.93148
巫	-9.932
不知其	-9.93232
之利	-9.93272
不特	-9.93274
台	-9.93286
闇	-9.93357
于王	-9.93426
天之命	-9.9344
二篇	-9.93465
鄭玄	-9.93473
乎其	-9.93496
為政	-9.93496
校	-9.93523
知此	-9.93597
矧	-9.93645
户	-9.93669
熈	-9.93669
歛	-9.93687
董	-9.93744
太平	-9.93877
之大者	-9.93953
常道	-9.93994
所為	-9.94014
削	-9.94048
山也	-9.94049
湯武	-9.94058
以致	-9.94071
宗伯	-9.94139
傳正義曰	-9.94245
五者	-9.94304
確	-9.94313
臭	-9.94316
睿	-9.94335
朝夕	-9.94415
又東北	-9.9446
賞罰	-9.94523
漢儒	-9.94547
徂	-9.94637
願	-9.94642
壅	-9.94643
殄	-9.94691
燠	-9.94748
于下	-9.94778
亦云	-9.94829
求其	-9.94849
聦明	-9.94862
所作	-9.94882
龜筮	-9.95005
者矣	-9.95013
晝	-9.95087
記曰	-9.95104
汾	-9.95149
前後	-9.95205
鄭氏曰	-9.95239
用也	-9.95248
互相	-9.95275
不克	-9.95306
元子	-9.95308
鐘	-9.95311
而猶	-9.95321
相應	-9.95377
束	-9.95399
言之則	-9.95419
星辰	-9.95496
其生	-9.9554
一言	-9.95555
絳	-9.95706
梓材	-9.95727
無間	-9.95741
無道	-9.95772
貢賦	-9.95786
河内	-9.95872
小臣	-9.95887
飲酒	-9.95892
而歸	-9.95944
輔相	-9.95946
之服	-9.95967
而東	-9.96004
惇	-9.96063
行事	-9.96063
操	-9.96098
植	-9.96114
畿	-9.96115
而為之	-9.96286
不已	-9.96366
庶人	-9.96401
之言也	-9.96417
周公既	-9.96471
驅	-9.96518
之末	-9.96551
酈道元	-9.9662
俟	-9.96631
以求	-9.96809
眞	-9.96882
辱	-9.96889
濮	-9.96914
休美	-9.9696
尋	-9.97101
吁	-9.9713
者如	-9.97131
豬	-9.97178
雒	-9.97213
障	-9.97219
柱	-9.97223
從之	-9.97275
甘盤	-9.97276
天命之	-9.97295
中有	-9.97399
河之	-9.97537
暘	-9.9754
所引	-9.97587
貽	-9.97594
脉	-9.97599
湯誓	-9.97608
髙下	-9.9761
二百里	-9.97858
受其	-9.97868
壁	-9.97918
遭	-9.97944
仇	-9.97964
恱	-9.9798
之稱	-9.97987
誣	-9.97989
也吕氏曰	-9.98039
德之	-9.98101
己之	-9.98193
以待	-9.98223
有不	-9.98271
功成	-9.98305
彭	-9.98314
之域	-9.98315
靖	-9.9832
佚	-9.98339
恥	-9.98361
有三	-9.98444
咈	-9.98448
牧誓	-9.98485
已有	-9.98552
人欲	-9.98565
本末	-9.98614
者又	-9.98625
罔有	-9.98647
故又	-9.98689
之私	-9.98736
皆言	-9.9874
河自	-9.98746
輯録	-9.98768
北流	-9.98812
中庸	-9.98879
新安	-9.98955
刺	-9.99031
垣	-9.99033
在人	-9.99055
丑	-9.9906
獒	-9.99075
忱	-9.99106
拒	-9.9912
檢	-9.99134
二曰	-9.99222
梁山	-9.99308
誨	-9.99326
孔疏	-9.99334
下云	-9.99337
則非	-9.99401
孔子曰	-9.99409
匪	-9.99461
豈能	-9.99478
旬	-9.99537
州府	-9.99547
顓頊	-9.99576
。」	-9.99582
者當	-9.99586
又謂	-9.99631
因以	-9.99684
民皆	-9.99757
䝉	-9.99766
有苗	-9.99781
恵	-9.99827
之分	-9.99849
贄	-9.99855
分為	-9.99938
羊	-9.9997
之盛	-9.99994
予惟	-10.0001
籍	-10.0001
北方	-10.0005
中正	-10.0007
欽哉	-10.0014
導山	-10.0014
羲	-10.0014
筆	-10.0017
裁	-10.0018
閉	-10.0018
騐	-10.0019
淳	-10.0021
棐	-10.0022
其理	-10.0023
臣之	-10.0026
惟天	-10.003
五色	-10.0037
土地	-10.0039
圻	-10.0051
郭	-10.0052
分明	-10.0059
作書	-10.0066
顔	-10.0068
徳則	-10.0074
太師	-10.0077
修身	-10.0077
措	-10.0087
于洛	-10.0088
東萊	-10.0091
㓜	-10.0099
孔氏穎達曰	-10.01
馬融	-10.0106
人君之	-10.011
之禍	-10.0116
而使	-10.0123
能用	-10.0124
揆	-10.0125
其臣	-10.0127
焉則	-10.0127
隅	-10.013
柄	-10.0137
穆公	-10.014
無可	-10.0144
縣地	-10.0144
銀	-10.0149
渭按	-10.0149
堪	-10.015
其情	-10.0155
不改	-10.0158
整	-10.0162
既已	-10.0163
宏	-10.0166
頒	-10.0173
册	-10.0175
及於	-10.0177
六極	-10.0197
天下之大	-10.0206
笙	-10.0208
而南	-10.0209
給	-10.0209
玄	-10.0209
䕫	-10.021
衝	-10.021
三人	-10.0212
常法	-10.0212
蒼	-10.0214
雖不	-10.022
一百	-10.0222
所用	-10.0227
之常	-10.0228
萬事	-10.0229
受天命	-10.0231
職方	-10.0233
跡	-10.0234
號令	-10.0235
熊	-10.0238
所能	-10.0238
十九	-10.0241
勉之	-10.0243
古文尚書	-10.0249
一旦	-10.0251
物之	-10.0251
織	-10.0252
所得	-10.0252
祖宗	-10.0253
鈞	-10.0254
蚩尤	-10.0255
由此	-10.0272
配天	-10.0273
漾	-10.0278
天人	-10.0285
攘	-10.0286
替	-10.0288
諄諄	-10.0289
繡	-10.0291
真氏曰	-10.0301
杜預	-10.0304
又何	-10.0305
王家	-10.0311
畀	-10.0313
非天	-10.0315
鳥鼠	-10.0316
于天下	-10.0321
米	-10.0323
堰	-10.0324
可知也	-10.0332
告戒	-10.034
䟽	-10.0344
商家	-10.0353
之妙	-10.0357
七十里	-10.0364
養民	-10.0365
重意	-10.0365
商人	-10.0366
恊	-10.0369
戰國	-10.0375
所聞	-10.0376
之差	-10.0377
久矣	-10.0378
當從	-10.0381
在我	-10.0381
疏云	-10.0382
禍福	-10.0385
安定	-10.0385
人之所	-10.0395
勲	-10.0399
未嘗不	-10.0403
殛	-10.0404
宰	-10.0404
不畏	-10.0406
皆然	-10.0409
下同	-10.0411
而致	-10.0412
之境	-10.0412
禹時	-10.0413
王制	-10.0418
在外	-10.0422
明明	-10.0424
正人	-10.0425
禋	-10.0429
四凶	-10.0432
未至	-10.0433
汨	-10.0441
羅	-10.0442
嵎夷	-10.0443
有道	-10.0444
斬	-10.0444
我一人	-10.0453
倉	-10.0478
倒	-10.0484
入于海	-10.0486
滛	-10.0489
狎侮	-10.0496
不義	-10.05
山西	-10.0501
所以能	-10.0502
之異	-10.0504
覲	-10.0507
精神	-10.0515
非有	-10.0519
合流	-10.0519
歐陽	-10.0521
畎	-10.0522
之深	-10.0524
矯	-10.0525
與此	-10.0533
山海經	-10.0541
賢臣	-10.0546
誦	-10.0561
鰥寡	-10.0563
招	-10.0566
洞	-10.0566
亞	-10.0566
王朝	-10.058
攷	-10.0584
日之	-10.0585
至矣	-10.0586
穴	-10.059
皆不	-10.0593
疎	-10.0602
三卿	-10.0604
音釋	-10.0611
十年	-10.0622
大法	-10.0624
得罪	-10.063
渭水	-10.0639
送	-10.064
後漢	-10.0641
之賢	-10.0641
順天	-10.0646
先生	-10.0647
妙	-10.0655
九十	-10.0664
世之	-10.0666
鹿	-10.0672
之教	-10.0673
股肱	-10.0684
中道	-10.0689
我所	-10.0703
導水	-10.0706
其始	-10.0706
以謂	-10.071
應之	-10.0714
名篇	-10.0715
儆	-10.0716
賁	-10.0718
馭	-10.0721
男	-10.0723
必不	-10.0727
自取	-10.0735
之所在	-10.074
有過	-10.0742
王道	-10.0744
要之	-10.0744
阜	-10.0745
河源	-10.0749
明白	-10.0753
仁人	-10.0754
西漢	-10.076
圍	-10.0761
東南流	-10.0763
捨	-10.0763
投	-10.0764
虢	-10.0764
一二	-10.0765
曷	-10.0766
陳氏櫟曰	-10.0766
以徳	-10.077
月令	-10.0772
漢孔氏	-10.0773
用此	-10.0781
三苖	-10.0781
蔡𫝊	-10.0784
敬德	-10.0785
主於	-10.0788
則天下	-10.0793
旋	-10.0794
善政	-10.0796
張掖	-10.0797
之義也	-10.0798
竭	-10.0799
公之	-10.0799
可疑	-10.0801
徹	-10.0805
能使	-10.0805
師保	-10.0806
諌	-10.0809
多矣	-10.081
遣	-10.0819
之首	-10.0826
也故曰	-10.0829
呂	-10.0829
之力	-10.083
而不言	-10.0835
所有	-10.0837
貎	-10.084
亦不可	-10.0846
其下	-10.0846
相似	-10.0849
司冦	-10.085
勅	-10.085
以安	-10.0853
將以	-10.0855
所受	-10.0857
掩	-10.086
雖欲	-10.086
者是也	-10.0863
四十里	-10.0865
司寇	-10.0866
松江	-10.0867
見之	-10.0869
之師	-10.087
正朔	-10.0872
而北	-10.0875
之善	-10.0877
爰	-10.0883
潔	-10.0883
岡	-10.0883
迂	-10.0886
湯誥	-10.089
而終	-10.0891
王肅云	-10.0894
矣今	-10.0902
恒山	-10.0903
他人	-10.0919
如是則	-10.0919
閭	-10.0926
十一月	-10.0926
孜孜	-10.0929
蔡傳曰	-10.0931
訟	-10.0936
大野	-10.0937
之象	-10.0938
乃能	-10.0939
也禹	-10.0946
經言	-10.0947
五聲	-10.0948
之詞	-10.0954
葉	-10.0956
此二	-10.0957
任之	-10.0957
陷	-10.0958
浦	-10.0964
或以	-10.0964
鎬	-10.0969
則亦	-10.0972
申言	-10.0972
遼	-10.0973
戒其	-10.0973
三千	-10.0983
之學	-10.0986
二十七	-10.0987
所陳	-10.0988
于先王	-10.0988
乃以	-10.0989
不自	-10.099
多寡	-10.0991
衷	-10.0992
即所謂	-10.0994
由是	-10.0997
恭敬	-10.0999
入于河	-10.1003
朋	-10.1008
公卿	-10.1011
狀	-10.1012
規模	-10.1013
之樂	-10.1015
順其	-10.1016
邦之	-10.1018
所掌	-10.1022
其大	-10.1026
之害	-10.1033
根本	-10.1033
也按	-10.1034
矣又	-10.1036
魄	-10.104
帝乙	-10.1045
不遷	-10.1048
褒	-10.1049
臣名	-10.1051
也且	-10.1056
合為一	-10.1061
此下	-10.1063
文公	-10.1067
菏澤	-10.1068
不止	-10.1075
說命	-10.1078
名曰	-10.1085
讐	-10.1092
技	-10.11
民不	-10.1101
其不	-10.1101
四人	-10.1115
聖人之心	-10.1126
品	-10.1129
弦	-10.1135
遯	-10.1136
髙祖	-10.1137
栗	-10.1137
之計	-10.1138
理之	-10.114
乃心	-10.1144
思之	-10.1144
炎	-10.1144
之戒	-10.1145
甚矣	-10.1146
天所	-10.1149
敬也	-10.1155
蓋以	-10.1159
五月	-10.1162
旱	-10.1165
合于	-10.1177
以身	-10.118
厥徳	-10.1188
亦皆	-10.1191
不聞	-10.1196
言語	-10.1206
故先	-10.1213
亦必	-10.1216
三叔	-10.1218
廵守	-10.1218
洛陽	-10.1222
黎民	-10.1224
未有不	-10.1225
南河	-10.1235
藪	-10.1244
巢	-10.1252
既有	-10.1252
馬云	-10.1253
史記作	-10.126
藥	-10.1262
従	-10.1263
其善	-10.1265
懌	-10.1266
馳	-10.1267
然後可以	-10.1267
縣今	-10.1268
敬則	-10.1269
而入	-10.1286
乃命	-10.129
牛馬	-10.1298
當是	-10.1299
攝位	-10.1302
王莽	-10.1304
五子之歌	-10.1309
在西	-10.1322
曲直	-10.1326
不幸	-10.1328
故為	-10.1328
泲	-10.1333
之子孫	-10.1341
寓	-10.1346
坤	-10.135
道者	-10.1351
其志	-10.1351
天下之民	-10.1352
壬	-10.1357
無過	-10.1368
自謂	-10.1371
長安	-10.1372
不可得而	-10.1375
萊	-10.1376
修徳	-10.1379
産	-10.1382
鳳	-10.1384
則可	-10.1384
頼	-10.139
脊	-10.1391
王氏樵曰	-10.1394
瞽	-10.1398
行而	-10.1399
匹	-10.1406
有能	-10.1407
不肖	-10.1409
我惟	-10.1412
水名	-10.1412
六府	-10.1416
人有	-10.1425
釋文	-10.1426
隷	-10.1428
偃	-10.1431
凝	-10.1434
墓	-10.1437
厥德	-10.1437
禀	-10.1439
畢命	-10.1442
逺矣	-10.1443
攝政	-10.1454
相傳	-10.1455
名也	-10.1461
百年	-10.1463
又東北逕	-10.1465
三德	-10.1466
混	-10.1472
纂	-10.1472
陵縣	-10.1473
漫	-10.1474
饑	-10.1475
脈	-10.1476
奉天	-10.1476
懸	-10.1476
惰	-10.1479
黼	-10.148
聞之	-10.1481
釋詁文	-10.1484
松	-10.1497
於周	-10.1508
異於	-10.1513
畔	-10.1515
弁	-10.1517
戚	-10.1521
憚	-10.1523
萬國	-10.1524
劓	-10.1526
以和	-10.1532
八百	-10.1534
欲以	-10.1534
用兵	-10.1535
也成王	-10.154
九徳	-10.154
我先王	-10.1542
純一	-10.1546
其官	-10.1551
遼東	-10.1552
能盡	-10.1556
饒	-10.1558
天位	-10.1562
廹	-10.1566
嗜	-10.1567
纔	-10.1568
周召	-10.1568
易曰	-10.1571
有德	-10.1577
事者	-10.158
惟王	-10.1582
故周公	-10.1593
三曰	-10.1597
次之	-10.1597
属	-10.1601
營洛	-10.1602
有辭	-10.1602
老成	-10.1603
絺	-10.1608
恕	-10.161
段	-10.161
物也	-10.1612
詰	-10.1614
本無	-10.1616
能敬	-10.1617
王業	-10.1619
明年	-10.1622
中星	-10.1624
有位	-10.1624
方且	-10.1628
此即	-10.163
五百	-10.1631
説者	-10.1632
史氏	-10.1639
者此	-10.164
牽	-10.1641
日食	-10.165
援	-10.1653
之詩	-10.1653
斧	-10.1655
初無	-10.1655
走	-10.1657
通典	-10.1657
世家	-10.1666
嶓冡	-10.1668
皆非	-10.1678
以敬	-10.1679
第十	-10.1681
一體	-10.1684
之餘	-10.1686
要服	-10.1686
漳水	-10.1689
𤾉	-10.1691
於心	-10.1691
五人	-10.1692
之𩔖	-10.1696
此是	-10.17
浮于	-10.1701
視之	-10.1703
孺子	-10.1705
苖	-10.1707
無疆	-10.1712
帝位	-10.1712
小人之	-10.1714
此理	-10.1715
臯陶謨	-10.1715
南海	-10.1716
施功	-10.1719
也舜	-10.1722
大國	-10.1725
之身	-10.1741
日行	-10.1741
牢	-10.1742
亥	-10.1747
干戈	-10.1749
二句	-10.1753
太史公	-10.1755
於君	-10.1757
十五里	-10.1761
庶殷	-10.1761
南至	-10.1764
渡河	-10.178
盟	-10.1782
陪尾	-10.1784
無異	-10.1784
各得其	-10.1785
軌	-10.1787
貧	-10.1788
以生	-10.1788
一書	-10.1792
織皮	-10.1792
十有二	-10.1797
匡	-10.1806
區	-10.1818
任人	-10.1819
滎陽	-10.1823
孔𫝊	-10.1828
讒	-10.1829
夲	-10.1832
有扈	-10.1832
夷狄	-10.1834
韋昭	-10.1839
堯時	-10.1848
一語	-10.185
所稱	-10.1851
其書	-10.1852
黄道	-10.1853
之惡	-10.1853
者何	-10.1855
伐商	-10.1862
秦漢	-10.1863
風雨	-10.1863
水火	-10.1873
而巳	-10.1873
彌	-10.1873
不違	-10.1877
太宗	-10.1882
周人	-10.1892
不怠	-10.1892
又當	-10.1895
霍	-10.1899
六十里	-10.1911
治道	-10.1925
稼	-10.1925
詐	-10.1925
王氏炎曰	-10.1927
:「	-10.1932
此蓋	-10.1933
秦誓	-10.1941
本漢	-10.1949
所宜	-10.1963
成也	-10.1964
鹹	-10.1966
人而	-10.1969
吕氏	-10.1971
彤	-10.1972
勵	-10.1972
記云	-10.1973
克商	-10.1975
衆士	-10.1992
陜	-10.1993
程氏	-10.2002
必當	-10.2008
萬里	-10.2008
忠厚	-10.2021
逆河	-10.2024
山名	-10.2028
相通	-10.2029
二三	-10.2036
惟當	-10.2041
也凡	-10.2042
萬方	-10.2043
何其	-10.2049
刋	-10.2051
桐柏	-10.2052
皆當	-10.2056
藉	-10.2057
或謂	-10.2057
桀紂	-10.2059
圓	-10.206
劉歆	-10.2061
虎賁	-10.2061
峻	-10.2062
分别	-10.2063
何為	-10.2064
虧	-10.2067
合黎	-10.2068
則能	-10.2075
王曰嗚呼	-10.2084
不獨	-10.2092
故特	-10.2095
二十五	-10.2096
雄	-10.2099
保其	-10.2107
大水	-10.2107
冡宰	-10.2108
懿	-10.2112
昴	-10.2115
太湖	-10.2122
為名	-10.2126
在東	-10.2127
岐山	-10.2128
曰予	-10.2129
其數	-10.2138
成王既	-10.2139
岱	-10.214
居攝	-10.214
寇	-10.2141
進退	-10.2143
斜	-10.215
喪亡	-10.2151
故城在今	-10.2153
洽	-10.2153
相對	-10.2159
皆得	-10.2164
所及	-10.2173
帝王之	-10.2175
建極	-10.2177
無辜	-10.2179
者多	-10.2193
君徳	-10.2197
霸	-10.2198
戈	-10.2199
勸勉	-10.2201
非常	-10.2201
謂其	-10.2203
次序	-10.2208
謂我	-10.2217
夏至	-10.2223
山之	-10.2224
發源	-10.2225
猶可	-10.2231
南江	-10.2232
所由	-10.2235
薛	-10.2237
以北	-10.2237
巨	-10.2239
廵	-10.2245
鬯	-10.2247
隴	-10.2247
敬畏	-10.2248
僻	-10.2249
理也	-10.2249
澄	-10.2249
即政	-10.2251
法之	-10.2255
改元	-10.2257
九疇之	-10.2263
後王	-10.2264
六師	-10.2267
不廢	-10.2268
制度	-10.2271
其山	-10.2279
可考	-10.228
之甚	-10.228
東海	-10.2282
南流	-10.2284
也古者	-10.2284
賚	-10.2288
於其間	-10.2291
曰王	-10.2292
敦	-10.2297
膺	-10.2298
之權	-10.23
匱	-10.23
城北	-10.2303
可得而	-10.2308
罰之	-10.2315
公曰	-10.2324
上流	-10.2324
我周家	-10.2326
未見	-10.2328
荒服	-10.233
傾	-10.2333
我小子	-10.2335
諸臣	-10.234
綴	-10.234
剛柔	-10.234
也武王	-10.2341
策	-10.2341
耆	-10.2343
十月	-10.2344
威儀	-10.2344
其他	-10.2348
沱潛	-10.2349
而未	-10.235
湘	-10.2353
上生	-10.2355
感動	-10.2356
太祖	-10.2359
𦙍侯	-10.2362
不免	-10.2371
率循	-10.2372
於時	-10.2378
諸水	-10.2379
潤下	-10.2385
以事	-10.2386
祼	-10.2386
帶	-10.2389
黄鍾	-10.2391
希	-10.2392
程子曰	-10.2393
普	-10.2394
桀之	-10.2402
二十里	-10.2403
從其	-10.2404
以刑	-10.2407
皇極之	-10.2407
東漢	-10.2417
文侯	-10.242
路寢	-10.2421
時則有	-10.2422
君民	-10.2423
有九	-10.2428
民者	-10.2428
國君	-10.2429
不能自	-10.2431
衣服	-10.2433
縮	-10.2434
峽	-10.2434
吴	-10.2435
璣	-10.2437
鴻	-10.2437
下言	-10.2441
信之	-10.2444
之心也	-10.2444
隴西	-10.2451
所欲	-10.2453
繼之	-10.2461
未敢	-10.2461
五禮	-10.2464
朔食	-10.2465
僖	-10.2471
枯	-10.2474
僚	-10.2479
政教	-10.248
而上	-10.2482
注于	-10.2483
纎	-10.2484
東平	-10.2484
鳯	-10.2484
湏	-10.2486
為九	-10.2486
橋	-10.2487
醉	-10.2487
穆穆	-10.2491
不可得	-10.2495
如此故	-10.2496
朔方	-10.2497
行也	-10.2498
五子	-10.2501
太行	-10.2503
於其	-10.2509
不信	-10.2509
民之所	-10.251
之目	-10.2514
水土	-10.2516
命也	-10.252
為難	-10.2525
採	-10.2527
殷人	-10.2528
渤海	-10.2528
所致	-10.2535
庶徵	-10.2537
困窮	-10.254
達于	-10.2544
成湯之	-10.2551
汝之	-10.256
不得已	-10.2568
於前	-10.2572
惟有	-10.2573
則不可	-10.2576
浮言	-10.2577
以西	-10.2577
僣	-10.2582
月之	-10.2582
穫	-10.2583
昵	-10.2584
暗	-10.2584
麓	-10.2594
之源	-10.2595
甚明	-10.2597
進戒	-10.2612
在内	-10.2612
地志在	-10.2616
詠	-10.2626
謂此	-10.2628
而遂	-10.2629
韋	-10.2631
尚有	-10.2631
靣	-10.2633
萬年	-10.2635
自為	-10.2636
源出	-10.2638
此等	-10.2638
其法	-10.2639
服事	-10.264
之本也	-10.2642
得其人	-10.2642
殷家	-10.2652
昭明	-10.2654
第三	-10.266
敬之	-10.2666
使我	-10.2672
展	-10.2678
之重	-10.2679
幹	-10.268
犬	-10.268
説命	-10.2681
藻	-10.2684
而知	-10.2686
大别	-10.2692
禮也	-10.2696
畝	-10.2701
見得	-10.2701
以東	-10.2703
得天下	-10.2703
是故	-10.2709
極其	-10.2714
大徳	-10.2714
可乎	-10.2716
昆	-10.2726
伍	-10.2731
宇	-10.2731
庶㡬	-10.2738
而出	-10.2741
乎曰	-10.2744
鬼	-10.2747
六月	-10.2752
命者	-10.2762
惡之	-10.2763
韶	-10.2764
歸周	-10.2769
廷	-10.277
祿	-10.2779
而謂之	-10.278
揔	-10.2782
扶風	-10.2783
為諸侯	-10.2783
先正	-10.2786
道則	-10.2786
裔	-10.2788
錢	-10.2792
之野	-10.2797
于我	-10.2807
水道	-10.282
無復	-10.2823
殷命	-10.283
乃是	-10.283
雖然	-10.2831
慙	-10.2832
瑁	-10.2833
合而	-10.2834
而告之	-10.2836
不修	-10.2842
北至	-10.2843
四曰	-10.2846
說文	-10.2854
所好	-10.2856
古人之	-10.2857
惟汝	-10.2864
飛	-10.2878
窺	-10.2879
一年	-10.288
寄	-10.2881
曰惟	-10.2883
縣也	-10.2891
今人	-10.2897
髙明	-10.2902
所治	-10.2903
為害	-10.2903
亦謂	-10.2915
罸	-10.2927
九等	-10.293
庶官	-10.2931
灼	-10.2931
甘誓	-10.2939
睢	-10.2939
望之	-10.2941
好徳	-10.2945
安知	-10.2947
與汝	-10.295
皆謂	-10.2954
皆云	-10.296
而止	-10.2965
其在	-10.2966
百餘里	-10.2968
為三	-10.2968
安得不	-10.2968
寧王	-10.2969
亦謂之	-10.2977
各以其	-10.2977
踈	-10.2977
黍稷	-10.2978
祚	-10.298
始也	-10.2982
曰吾	-10.299
在後	-10.2991
二女	-10.2994
武功	-10.2996
必欲	-10.2997
夫人	-10.3001
禹曰	-10.3002
福極	-10.3008
氣象	-10.3009
武王既	-10.3014
脱	-10.3023
念之	-10.3025
屯	-10.3026
閔	-10.3029
東陵	-10.303
待之	-10.3032
商王	-10.3034
于海	-10.3035
輿	-10.3049
文考	-10.3053
曰此	-10.3054
而後可	-10.3055
用其	-10.3058
何如	-10.3058
惟一	-10.3063
若曰	-10.3068
寕	-10.308
是之謂	-10.3083
亶	-10.3083
英	-10.3084
伊陟	-10.3091
王屋	-10.3094
一物	-10.3104
東入	-10.3107
𫝊言	-10.3108
汝衆	-10.311
以相	-10.3113
也林氏曰	-10.3116
去之	-10.3117
斁	-10.3118
中也	-10.3119
稱其	-10.313
笑	-10.3131
毫	-10.3133
民生	-10.3136
戌	-10.3141
非我	-10.3141
有一毫	-10.3146
晋	-10.3147
如今	-10.3151
禮義	-10.3155
辭也	-10.3157
無益	-10.3161
賢才	-10.3168
而實	-10.3171
刑者	-10.3171
七月	-10.3178
夏桀	-10.3182
朏	-10.3182
拳拳	-10.3184
厎柱	-10.3189
那	-10.319
之久	-10.3191
八音	-10.3195
有殷	-10.3197
為先	-10.3201
稽古	-10.3204
也或曰	-10.3205
至洛	-10.3211
之可	-10.3214
剛克	-10.3216
天下之事	-10.3216
其行	-10.3219
滅亡	-10.322
施於	-10.3223
漢孔氏曰言	-10.3223
不和	-10.3224
耄	-10.3225
之篇	-10.3225
之别	-10.3229
洮	-10.3229
墟	-10.323
鹵	-10.3231
卯	-10.3233
礪	-10.3235
不聽	-10.3235
枉	-10.3236
隩	-10.3238
島夷	-10.324
之一字	-10.3241
滔天	-10.325
蜀郡	-10.3251
漢中	-10.3252
八十	-10.3255
上古	-10.3256
之事而	-10.326
尋陽	-10.3266
前言	-10.3272
沖	-10.3274
要荒	-10.3275
逺而	-10.3277
康王之誥	-10.3288
為己	-10.3291
守之	-10.3292
而言也	-10.3292
綿	-10.3293
澗	-10.3294
是言	-10.3296
岳陽	-10.3296
有終	-10.3299
惟是	-10.33
反又	-10.3307
居之	-10.3315
未及	-10.3315
文也	-10.3316
大川	-10.3319
宣王	-10.332
故我	-10.332
爾多方	-10.3335
本紀	-10.3337
能知	-10.3337
放勲	-10.3339
大傳	-10.3343
瀍水	-10.3343
飬	-10.3344
之所為	-10.3344
文義	-10.3347
也案	-10.3347
下篇	-10.3349
帝曰俞	-10.335
其政	-10.3353
造化	-10.3353
一字	-10.3359
八卦	-10.3359
宫室	-10.336
皆無	-10.3362
未聞	-10.3363
事則	-10.3369
之賦	-10.338
暫	-10.3381
東北流	-10.3381
皆自	-10.3383
寫	-10.3388
之應	-10.3389
冡	-10.339
邁	-10.3391
艾	-10.3391
之閒	-10.3393
中篇	-10.3393
酌	-10.3395
服行	-10.3398
圻内	-10.3403
始有	-10.3404
寰宇記	-10.3404
雪	-10.3406
不可曉	-10.3406
吾之	-10.3414
受終	-10.3415
異姓	-10.3419
帛	-10.3422
故有	-10.3425
豈得	-10.3426
各自	-10.3438
以輔	-10.344
秀	-10.3444
四者	-10.3445
故不	-10.3447
□	-10.3447
西戎	-10.3447
歷	-10.3449
繒	-10.3449
瘳	-10.345
以通	-10.3453
五曰	-10.3458
中間	-10.3459
心之所	-10.346
帝之	-10.3461
下至	-10.3463
眷	-10.3464
哉此	-10.3465
侯甸	-10.3466
凡人	-10.3466
光明	-10.3466
潜	-10.3467
炎上	-10.3476
婦人	-10.3477
弗克	-10.348
東行	-10.3486
識其	-10.349
沛	-10.3491
鄭玄云	-10.3492
變而	-10.3493
平聲	-10.3496
球	-10.35
圯	-10.3501
自稱	-10.3505
民以	-10.3517
殊不知	-10.3521
以此為	-10.3522
成就	-10.3523
西流	-10.3526
于人	-10.3526
廬江	-10.3529
中則	-10.353
天下之人	-10.3531
為人	-10.3535
遷于	-10.3535
貢道	-10.3536
侯伯	-10.3536
者猶	-10.3539
嗣位	-10.3541
孔氏謂	-10.3541
諸州	-10.3542
血	-10.3544
言之也	-10.3544
鉞	-10.3549
中宗	-10.3549
文勢	-10.3549
忿	-10.3551
脫	-10.3552
猛	-10.3552
拊	-10.3552
鑒	-10.3553
柔克	-10.3553
以義	-10.3553
災異	-10.3554
秬鬯	-10.3554
者豈	-10.3556
吕侯	-10.3558
晝夜	-10.356
施之	-10.3561
刑殺	-10.3566
君也	-10.3566
太岳	-10.3567
乃謂	-10.3568
人為	-10.3569
有事	-10.3582
兗	-10.3582
去其	-10.3585
州牧	-10.359
驗之	-10.3591
濵	-10.3593
遷徙	-10.3598
巴陵	-10.3598
明日	-10.36
其初	-10.3601
吉士	-10.3602
獨言	-10.3603
惟在	-10.3604
簫	-10.3604
惟爾	-10.3605
諡	-10.3606
樂之	-10.3607
咸有一徳	-10.3607
完	-10.3608
平原	-10.3609
文侯之命	-10.3609
明哲	-10.361
旅獒	-10.3611
怠惰	-10.3612
命以	-10.3616
中者	-10.3623
西域	-10.3634
詳見	-10.3634
代之	-10.3644
因之	-10.3652
融	-10.3656
之過	-10.3657
相近	-10.3663
官之長	-10.3663
人以	-10.367
亦名	-10.367
山南	-10.367
今爾	-10.3677
儀禮	-10.3679
此豈	-10.3683
為北江	-10.3692
和夷	-10.3695
誠信	-10.3697
往往	-10.3699
内史	-10.37
其父	-10.3703
第五	-10.3707
輩	-10.3708
之舊	-10.371
飭	-10.371
有五	-10.3711
孽	-10.3711
何哉	-10.3711
兮	-10.3712
鑄	-10.3717
何也曰	-10.3717
明也	-10.3718
蠶	-10.3719
驛	-10.3719
蔡仲之命	-10.372
刀	-10.3721
察之	-10.3727
岷	-10.3734
紀綱	-10.3737
言已	-10.3738
愛民	-10.3741
乃所以	-10.3745
二十四	-10.3747
鉅野	-10.3752
然亦	-10.3753
既成	-10.3753
童	-10.3754
和也	-10.3761
城南	-10.3762
譬	-10.3766
邢	-10.3767
埴	-10.3767
地中	-10.3769
墮	-10.377
洗	-10.3772
此非	-10.3775
不變	-10.3782
皆從	-10.3785
南山	-10.379
土之	-10.3792
明其	-10.3803
牙	-10.3805
華隂	-10.3805
則自	-10.3806
北境	-10.3808
五千里	-10.3809
以定	-10.3811
漢之	-10.3811
其可不	-10.3813
江淮	-10.3813
不一	-10.3816
黍	-10.3819
大業	-10.3819
漏	-10.382
觀兵	-10.3821
發明	-10.3822
戕	-10.3823
相距	-10.3823
寒暑	-10.3825
洛汭	-10.3826
郎	-10.3826
但言	-10.3828
旨	-10.3829
飢	-10.3829
之誤	-10.3829
變化	-10.3835
一章	-10.3838
馬鄭	-10.3841
下生	-10.3848
而使之	-10.3849
作威	-10.3851
月行	-10.3852
不失其	-10.3854
以供	-10.386
則謂之	-10.386
庶士	-10.386
千餘里	-10.3862
五常	-10.3863
為臣	-10.3863
而來	-10.3864
而求	-10.3864
張氏	-10.3865
脅	-10.3866
召南	-10.3868
一夫	-10.3868
定其	-10.387
鄒	-10.3872
生魄	-10.3873
是亦	-10.3874
借	-10.3878
于河	-10.3878
之誠	-10.3882
不齊	-10.3884
三百六十	-10.3884
不念	-10.3884
四瀆	-10.3889
或作	-10.3892
善而	-10.3892
上之	-10.3895
㑹稽	-10.3897
上有	-10.3897
大訓	-10.3898
陰陽	-10.39
洚水	-10.3905
焉故	-10.3906
人主之	-10.3912
於後	-10.3915
于周	-10.3922
淤	-10.3925
祭之	-10.3928
船	-10.3928
俯	-10.3933
生生	-10.3935
爻	-10.3941
丙	-10.3941
王者之	-10.3941
𦙍征	-10.3942
告于	-10.3944
槩	-10.3944
漢武帝	-10.3946
遏絶	-10.395
斤	-10.3954
要囚	-10.3956
不至於	-10.3961
之意而	-10.3961
河流	-10.3961
無有不	-10.3966
為此	-10.3966
曰嗚呼	-10.3967
方伯	-10.397
二説	-10.3972
莫非	-10.3973
形容	-10.3975
天以	-10.3976
可信	-10.3978
肉	-10.3979
臯陶之	-10.3984
以行	-10.3985
者雖	-10.3985
則天	-10.3989
顛	-10.3989
仕	-10.3989
冦	-10.3989
叢	-10.399
重黎	-10.399
鞠	-10.399
麻	-10.3991
磨	-10.3991
冏命	-10.3994
庚戌	-10.3997
今文古文皆有	-10.3997
水自	-10.3999
聲色	-10.4005
經傳	-10.4009
又案	-10.4015
沉	-10.4018
先祖	-10.4021
後言	-10.4022
之機	-10.4022
呂氏曰	-10.4027
之諸侯	-10.4028
二山	-10.4033
官名	-10.4034
壯	-10.4046
滌	-10.4048
狎	-10.4049
逰	-10.405
未定	-10.4054
與我	-10.4056
之先	-10.408
夕	-10.4093
文帝	-10.4096
暢	-10.4099
算	-10.4108
他州	-10.4109
牧野	-10.4109
於中	-10.4111
戊辰	-10.4113
戲	-10.4114
不可易	-10.4114
在乎	-10.4115
寛裕	-10.4116
故天	-10.4116
三國	-10.4118
飲食	-10.412
祭天	-10.4123
北面	-10.4125
幽州	-10.4132
因而	-10.4133
最為	-10.4138
為心	-10.4138
東坡	-10.4139
為王	-10.4145
任用	-10.4146
莫之	-10.4149
三州	-10.4152
為戒	-10.4156
亦可以	-10.4159
琴瑟	-10.416
㫁	-10.4161
晏	-10.4161
余曰	-10.4162
起於	-10.4162
亦何	-10.4163
建官	-10.4166
拔	-10.4168
此四	-10.4174
治洛	-10.4175
水所出	-10.4176
來朝	-10.4176
州之	-10.4178
儆戒	-10.4179
有衆	-10.4183
之助	-10.4185
禹貢之	-10.4187
先后	-10.4188
爾惟	-10.4193
大家	-10.4197
道路	-10.4198
則人	-10.4203
地勢	-10.4204
蘭	-10.4206
政治	-10.4206
汲	-10.4211
讀書	-10.4211
亦自	-10.4211
闊	-10.4212
客	-10.4214
孟豬	-10.4217
刃	-10.4218
弓矢	-10.4218
以天下	-10.4221
拂	-10.4221
牆	-10.4221
恣	-10.4222
既以	-10.4227
自任	-10.4227
爾乃	-10.4229
九功	-10.423
篇中	-10.423
流入	-10.423
涇水	-10.4241
時事	-10.4243
其子孫	-10.4245
長也	-10.4249
相屬	-10.4251
休咎	-10.4254
戒以	-10.4254
明王	-10.4256
而不及	-10.4257
而欲	-10.4259
挾	-10.4264
可為	-10.4264
體也	-10.4265
峙	-10.427
元首	-10.4271
我則	-10.4272
婁	-10.4272
第九	-10.4275
殷王	-10.4275
舌	-10.4277
奈何	-10.4278
慝	-10.4278
吾心	-10.4284
綴衣	-10.4285
十二牧	-10.4285
二十八宿	-10.4286
否則	-10.4301
學之	-10.4303
臧	-10.4304
于殷	-10.4304
聦	-10.4305
惡者	-10.4306
而况	-10.431
惟曰	-10.4312
一一	-10.4316
為重	-10.4316
殷士	-10.432
告之以	-10.432
不但	-10.4324
必是	-10.433
旌	-10.4331
豳	-10.4334
原隰	-10.4334
山澤	-10.4335
祐	-10.4336
以威	-10.4338
既得	-10.434
武王克商	-10.4345
先儒謂	-10.4346
者多矣	-10.4348
者正	-10.4348
之宜	-10.4348
沮水	-10.4349
於己	-10.4349
若兹	-10.435
而無所	-10.4354
地也	-10.4355
議論	-10.436
神人	-10.4366
相為	-10.4366
北江	-10.437
無遺	-10.4371
有邦	-10.4373
山陽	-10.4374
九川	-10.4377
其所當	-10.4378
註云	-10.438
準人	-10.4384
辨之	-10.4385
責其	-10.4385
仁義	-10.4388
尚書詳解卷	-10.4389
奸	-10.4391
許多	-10.4392
帝嚳	-10.4397
一統志	-10.4404
生民	-10.4405
故爲	-10.4411
我國家	-10.4413
百八十	-10.4417
周制	-10.442
入洛	-10.4423
無或	-10.443
大意	-10.4434
釋之	-10.4436
不息	-10.4436
觀此	-10.4437
九官	-10.4439
又東過	-10.4443
梓	-10.4443
所據	-10.4445
禹所	-10.4446
邦君御事	-10.4449
致治	-10.4451
前代	-10.4452
其流	-10.4457
而生	-10.446
至今	-10.4463
第六	-10.4468
哉故	-10.4474
毛詩	-10.4478
記其	-10.448
繼以	-10.4484
善則	-10.4488
求賢	-10.4491
承天	-10.4492
弛	-10.4494
都邑	-10.4495
未成	-10.4495
親近	-10.4496
何故	-10.4499
經營	-10.4499
之形	-10.4503
潞	-10.4503
則不能	-10.4505
驚	-10.4507
注之	-10.4508
菑	-10.4508
馴	-10.4509
其罰	-10.4509
存之	-10.4509
九徳之	-10.4523
也哉	-10.4527
貴賤	-10.4529
一人之	-10.4533
隨山	-10.4541
五里	-10.4542
也張氏曰	-10.4551
以及	-10.4553
大中	-10.4554
百篇	-10.4556
此數	-10.4556
不中	-10.4558
或云	-10.4558
夫婦	-10.4559
奇	-10.456
之至也	-10.4561
陋	-10.4563
禽	-10.4565
十七年	-10.4566
其難	-10.4568
淮水	-10.4568
可用	-10.4569
冥	-10.457
篇末	-10.4573
此三者	-10.4573
鳴條	-10.4574
曰天	-10.4577
申命	-10.4577
衡漳	-10.4583
相承	-10.4588
其過	-10.4594
葉氏曰	-10.4596
日日	-10.4604
必自	-10.4608
欲遷	-10.461
與人	-10.4614
何不	-10.4617
太僕	-10.4622
巽	-10.4623
坎	-10.4625
繪	-10.4626
大道	-10.463
孔氏安國曰	-10.4631
至公	-10.4638
名為	-10.4639
以遷	-10.4641
愚案	-10.4641
綱領	-10.4649
不可勝	-10.4652
綏服	-10.4658
此三	-10.466
蕭	-10.4666
莫大於	-10.4671
衆民	-10.4671
南郡	-10.4671
乃大	-10.4672
日在	-10.4674
西山	-10.4677
之憂	-10.468
常行	-10.468
譌	-10.4683
濱	-10.4683
粗	-10.4685
不可復	-10.4686
濰	-10.4689
當敬	-10.469
夙夜	-10.4692
金氏曰	-10.4693
實有	-10.4693
注曰	-10.4696
子弟	-10.4698
孔以	-10.4699
紂之惡	-10.4711
哉惟	-10.4712
則雖	-10.4713
非徒	-10.4717
三載	-10.4722
安於	-10.4724
法以	-10.4728
敬典	-10.4731
漢世	-10.4732
會于	-10.4732
付之	-10.4732
此一	-10.4735
也聖人	-10.4742
分為二	-10.4743
㸔	-10.4744
伏羲	-10.4745
謀及	-10.4746
信都	-10.4746
所生	-10.4746
入泗	-10.4747
裏	-10.4748
天下皆	-10.475
畋	-10.475
酷	-10.475
汶水	-10.4752
不謹	-10.4752
阿衡	-10.4753
唐虞之	-10.4753
云爾	-10.4756
瞽瞍	-10.4756
濬川	-10.4756
八十里	-10.4757
常也	-10.476
固已	-10.4761
遷之	-10.4766
知天命	-10.4768
之土	-10.4769
唐叔	-10.477
從容	-10.4778
十夫	-10.4784
敎之	-10.4786
數之	-10.4789
六宗	-10.479
序言	-10.4792
九月	-10.4793
洋	-10.4802
太華	-10.4803
以是知	-10.4804
用心	-10.4805
恪	-10.4806
副	-10.4807
絃	-10.4812
戎狄	-10.4812
沃丁	-10.4813
黜陟	-10.4813
官之	-10.4816
禹之治水	-10.4816
殷先哲王	-10.4819
而至於	-10.482
未易	-10.4823
之具	-10.4823
於理	-10.4824
而用	-10.4824
大義	-10.4825
皆能	-10.4829
土中	-10.4836
武王伐紂	-10.4836
常理	-10.4839
故舉	-10.4846
一時之	-10.4854
奭	-10.4855
天討	-10.4859
秸	-10.4863
托	-10.4864
舜禹	-10.4866
聘	-10.4869
冐	-10.487
官也	-10.487
盜	-10.4871
輪	-10.4871
曁	-10.4871
驩兜	-10.4872
大同	-10.4874
衮冕	-10.4874
當有	-10.4874
撻	-10.4878
成徳	-10.4878
隕	-10.4881
不是	-10.4884
典刑	-10.4884
之耳	-10.4888
此正	-10.4888
也嗚呼	-10.4891
漢地理志	-10.4891
先生曰	-10.4904
如此其	-10.491
▁新安陳氏曰	-10.4914
相接	-10.4915
地之	-10.4916
渚	-10.4923
九黎	-10.4926
談	-10.4928
腆	-10.4928
云者	-10.493
謗	-10.4931
今乃	-10.4934
若夫	-10.4936
不使	-10.4943
以禮	-10.4946
善之	-10.4946
十二州	-10.4948
臯陶曰	-10.4949
非獨	-10.495
盡矣	-10.4953
于新邑	-10.4954
建立	-10.4957
之法也	-10.4958
之路	-10.4962
其序	-10.4964
黎陽	-10.4976
和之	-10.4976
意也	-10.4977
又南	-10.4978
教民	-10.498
箴	-10.4981
南面	-10.4985
以立	-10.4986
豈無	-10.4987
督	-10.4988
科	-10.4989
鳩	-10.4992
祈天永命	-10.4993
疑之	-10.4995
而去	-10.4998
汝等	-10.5006
之㫖	-10.501
人力	-10.5012
九德	-10.5019
漆水	-10.502
威福	-10.5021
于酒	-10.5025
鄭注	-10.5029
王子	-10.5031
其源	-10.5031
伊尹之	-10.5031
左𫝊	-10.5033
責之	-10.5034
命羲和	-10.504
自以為	-10.5041
滑	-10.5045
崖	-10.5049
税	-10.5051
為上	-10.5054
仲虺之誥	-10.5056
心不	-10.5057
譲	-10.5058
桐宫	-10.5059
德者	-10.506
相因	-10.5061
有可	-10.5065
事神	-10.5069
既定	-10.5075
孟子所謂	-10.5076
中而	-10.5078
聲教	-10.5082
同也	-10.5086
江州	-10.5086
之心而	-10.5086
從諫	-10.5091
正其	-10.5093
據此	-10.51
徒駭	-10.5103
其禮	-10.5103
或以為	-10.5107
則一	-10.5109
一則	-10.511
逢	-10.5111
勉力	-10.5111
其惡	-10.5112
人功	-10.5112
頓	-10.5115
而後能	-10.5115
終之	-10.5116
居中	-10.5117
判	-10.5118
覽	-10.5118
各有所	-10.5119
三辰	-10.512
薨	-10.5121
於殷	-10.5122
髙宗之	-10.5125
文王武王	-10.5126
而可	-10.5132
沂水	-10.514
既不	-10.515
通用	-10.5152
數十	-10.5152
其南	-10.5154
謀之	-10.5156
言紂	-10.5161
戊	-10.5163
五千	-10.5164
下有	-10.5165
太王	-10.5165
定陶	-10.5166
絶其	-10.5166
若不	-10.517
其力	-10.5174
繆	-10.5176
暑	-10.5176
䕶	-10.5177
所傳	-10.5178
德則	-10.5179
能明	-10.5179
閑	-10.5179
寢	-10.5179
絶之	-10.518
力行	-10.518
渠搜	-10.5181
以理	-10.5183
躬行	-10.5184
巫咸	-10.5186
尊之	-10.5186
且如	-10.5186
三后	-10.5187
如之何	-10.5191
烈祖	-10.5194
錫之	-10.52
皆以為	-10.52
汝所	-10.5201
我周王	-10.5202
為句	-10.5203
過也	-10.5205
指其	-10.5205
止于	-10.5207
長沙	-10.5212
往來	-10.5216
下句	-10.5221
如何曰	-10.5221
畏天	-10.5223
禹河	-10.5228
苖民	-10.523
經云	-10.5232
不敢自	-10.5233
敬忌	-10.5234
當日	-10.5235
膏	-10.5239
不知何	-10.5239
稅	-10.524
洩	-10.5243
第四	-10.5243
也孟子曰	-10.5243
蟲	-10.5244
疵	-10.5244
緜	-10.5245
徳之人	-10.5245
乃可	-10.5253
奉上	-10.5258
三十六	-10.5258
自用	-10.5259
此盖	-10.5259
于帝	-10.5261
而西	-10.5263
天惟	-10.5263
不率	-10.5264
此文	-10.5267
衣食	-10.5272
皇帝	-10.5275
江夏	-10.5275
多少	-10.5276
無一毫	-10.5276
之精	-10.5277
此云	-10.5287
非其人	-10.5289
故必	-10.5292
前人之	-10.5295
濟隂	-10.5295
頃	-10.5297
栁	-10.5301
罷	-10.5302
戸	-10.5303
焦	-10.5304
故傳	-10.5306
亷	-10.5307
絡	-10.5307
遐	-10.5307
說者	-10.5307
之所當	-10.5312
左旋	-10.5316
自作	-10.5321
成之	-10.5323
理㑹	-10.5324
案曰	-10.5329
東北至	-10.5329
不治	-10.5333
冕服	-10.5335
君心	-10.5337
水合	-10.5339
附㑹	-10.5343
竊謂	-10.5355
逺者	-10.5356
七政	-10.5356
曽氏曰	-10.5362
股	-10.5363
妨	-10.5366
正是	-10.5367
述其	-10.5368
公劉	-10.5368
迴	-10.537
徯	-10.537
拱	-10.5371
穢	-10.5372
䧟	-10.5372
各以	-10.5373
與民	-10.5374
常性	-10.5376
十五年	-10.5382
鄱陽	-10.5384
第七	-10.5386
微子之命	-10.5388
萬姓	-10.5389
今汝	-10.539
堂上	-10.5391
我有周	-10.5393
何嘗	-10.5395
為商	-10.5396
將欲	-10.5403
之所謂	-10.5404
贖刑	-10.5408
考工記	-10.541
篇名	-10.5414
濕	-10.5414
亦不能	-10.5416
在朝	-10.5416
擬	-10.5429
四字	-10.543
貢篚	-10.543
濶	-10.5432
迓	-10.5435
儒者	-10.5436
樵	-10.5436
九十里	-10.5437
牖	-10.5438
爲善	-10.5439
纁	-10.5442
君臣之	-10.5443
親親	-10.5445
三山	-10.5446
夏王	-10.5448
羽山	-10.5452
皆所以	-10.5454
伐桀	-10.546
也盤庚	-10.5462
當如	-10.5471
出而	-10.5474
功臣	-10.5478
虞夏	-10.5479
元后	-10.5481
百僚	-10.5486
紊	-10.5492
祭法	-10.5494
翟	-10.5496
七日	-10.5498
燉煌	-10.5498
二十五篇	-10.55
酗	-10.5502
畆	-10.5504
大明	-10.5506
陸氏	-10.5508
諴	-10.5508
十人	-10.5509
之遺	-10.5515
六服	-10.5516
此道	-10.5519
乎故	-10.5522
故先言	-10.5528
使知	-10.5528
未嘗有	-10.5533
胡氏	-10.554
州界	-10.5541
為首	-10.5542
言當	-10.555
必須	-10.5553
用功	-10.5553
其治	-10.5555
肥	-10.556
鬱	-10.5563
酸	-10.5563
基業	-10.5565
自治	-10.5568
有六	-10.5568
宅洛	-10.5571
沴	-10.5571
以聽	-10.5572
其家	-10.5579
之所由	-10.5581
不恤	-10.5581
衆也	-10.5582
以德	-10.5585
東夷	-10.559
今日之	-10.5597
邵	-10.5597
其體	-10.5599
法則	-10.56
氏之	-10.5604
之得失	-10.5606
惟民	-10.5606
者哉	-10.5607
非聖人	-10.5611
自得	-10.5613
或言	-10.5615
薛氏曰	-10.5616
在南	-10.5617
吳氏曰	-10.5618
德也	-10.562
十有	-10.5624
教以	-10.5625
區區	-10.5628
天神	-10.5628
番	-10.5629
膠	-10.5629
悲	-10.563
者或	-10.5631
醜	-10.5631
藴	-10.5631
而獨	-10.5632
于外	-10.5632
官人	-10.5632
隙	-10.5632
本作	-10.5633
導江	-10.5633
備矣	-10.5634
妖	-10.5635
自周	-10.5635
我不	-10.5638
維持	-10.5638
一國	-10.5642
丁寧	-10.5642
人之心	-10.5646
其失	-10.5647
四百	-10.565
故禹	-10.565
請命	-10.5653
興起	-10.5654
人人	-10.5657
能順	-10.5668
上章	-10.5669
民命	-10.567
流而	-10.5671
養之	-10.5672
及于	-10.5672
甞	-10.568
之福	-10.5681
郭璞	-10.5683
得失	-10.5686
所貢	-10.5688
本篇	-10.5689
顯然	-10.569
意者	-10.5691
豈可以	-10.5693
殃	-10.5694
縞	-10.5694
者非是	-10.5694
飽	-10.5696
八月	-10.5697
四時之	-10.5697
西伯戡黎	-10.5697
遷善	-10.5698
粤	-10.5699
谿	-10.5699
大功	-10.5701
青徐	-10.5702
父子兄弟	-10.5703
俊民	-10.5705
其舊	-10.5707
城東	-10.5709
濟南	-10.5712
赤道	-10.5716
以酒	-10.5717
荀子	-10.5717
林少頴謂	-10.5718
升降	-10.5721
即古	-10.5726
名之	-10.5726
常任	-10.5728
禹迹	-10.573
不得其	-10.5734
喪服	-10.5738
太常	-10.5743
厯象	-10.5746
天生	-10.5748
倦	-10.5751
南境	-10.5753
滹沱	-10.5754
之而已	-10.5756
彦	-10.5757
話	-10.5757
刪	-10.576
下都	-10.5761
意謂	-10.5762
奴	-10.5764
用力	-10.5767
也周	-10.5767
鼔	-10.5771
凡有	-10.5771
從上	-10.5775
㑹同	-10.5775
不啻	-10.5775
安之	-10.5777
盖以	-10.5778
互見	-10.578
其害	-10.5783
私心	-10.5787
敬哉	-10.5787
功業	-10.5793
何必	-10.5794
后土	-10.5795
程子	-10.5796
朝歌	-10.5799
無能	-10.5801
寰宇記云	-10.5801
者言其	-10.5805
明堂	-10.581
性命	-10.5811
存亡	-10.5813
言不	-10.5819
百四十	-10.5821
潰	-10.5824
必在	-10.5826
耉	-10.5828
罹	-10.583
於酒	-10.5832
之不可	-10.5834
悠	-10.5834
始于	-10.5836
徐戎	-10.5838
一切	-10.5839
劉氏	-10.5841
之言而	-10.5843
之役	-10.5845
四面	-10.5846
徳惟	-10.5847
天之所以	-10.5849
宰相	-10.5851
三字	-10.5851
典謨	-10.5853
亂也	-10.5855
民主	-10.5859
自言	-10.586
有定	-10.586
戒成王	-10.586
灉	-10.586
皆由	-10.5862
之哉	-10.5868
自外	-10.587
降水	-10.5873
有苖	-10.5878
可以見	-10.5879
不可知	-10.5882
餘州	-10.5884
此其所以	-10.5889
不載	-10.589
祖廟	-10.5892
西海	-10.5894
裘	-10.5896
矣蓋	-10.5897
据	-10.5898
周室	-10.5899
姑洗	-10.5901
此類	-10.5904
事君	-10.5906
地理今釋	-10.5906
淄	-10.5909
剕	-10.5909
北海	-10.5916
黄鐘	-10.5922
保衡	-10.5924
三宗	-10.5926
為可	-10.5927
監視	-10.5931
顧氏	-10.5937
前此	-10.5938
導河	-10.594
陶丘	-10.5943
相連	-10.5948
父兄	-10.5948
固不	-10.595
三等	-10.595
厯年	-10.5954
銍	-10.596
伏流	-10.5966
璋	-10.5966
桃	-10.5966
觸	-10.5967
正義曰此	-10.5967
泄	-10.5969
酣	-10.5969
十六日	-10.5969
禹之功	-10.5971
人謀	-10.5971
陜西	-10.5971
娶	-10.5972
未免	-10.5974
又東至	-10.5975
河濟	-10.5976
損益	-10.5979
水出焉	-10.5981
職事	-10.5982
父之	-10.5983
康成	-10.5985
蘇公	-10.5985
天之明	-10.5994
不察	-10.6002
禹湯	-10.6003
幽王	-10.6004
所知	-10.6005
論之	-10.6006
人無	-10.6012
江漢之	-10.6015
自今	-10.6017
王季	-10.6023
是乃	-10.6029
告爾	-10.603
長久	-10.6031
一説	-10.6033
亂之	-10.6036
稽首	-10.6044
沇水	-10.6047
深矣	-10.605
輔翼	-10.6053
以盡	-10.6059
書云	-10.6062
不可信	-10.6063
序云	-10.6067
放之	-10.6069
於身	-10.6072
朝覲	-10.6072
然後能	-10.6072
箕子之	-10.6085
為長	-10.6088
起而	-10.6092
民則	-10.6093
貢之	-10.6093
者謂之	-10.6095
别有	-10.6097
姜	-10.6101
健	-10.6102
幷	-10.6102
必能	-10.6103
噐	-10.6103
謝	-10.6104
眚	-10.6104
之逺	-10.6104
又北	-10.6106
有兩	-10.6107
朋黨	-10.611
呂氏祖謙曰	-10.6111
上黨	-10.6113
納言	-10.6119
惟以	-10.612
河出	-10.6124
在洛	-10.6125
之才	-10.6127
鞏	-10.6128
逸書	-10.6129
民事	-10.6129
雖小	-10.613
曽氏	-10.613
父師	-10.6133
惟能	-10.6144
條理	-10.6151
亦作	-10.6152
文王受命	-10.6155
故瀆	-10.6157
古之人	-10.6159
後世之	-10.6162
澤在	-10.6162
蠢	-10.6168
浪	-10.617
奥	-10.617
五十八篇	-10.6171
伸	-10.6172
藩	-10.6172
浩	-10.6176
憤	-10.6176
天性	-10.6177
賀	-10.6177
組	-10.6178
同而	-10.6182
座	-10.6187
輔弼	-10.6188
任賢	-10.6191
近而	-10.6191
後嗣	-10.6195
棄之	-10.6203
亦在	-10.6205
故此	-10.6206
二十八	-10.6214
永保	-10.6225
厥辟	-10.6225
自此以下	-10.6226
其次	-10.623
也觀	-10.6231
潮	-10.6234
驪	-10.6236
湯以	-10.6237
終南	-10.6237
者固	-10.6239
苑	-10.624
明聽	-10.624
士大夫	-10.6242
忝	-10.6242
匿	-10.6245
迭	-10.6246
湮	-10.6247
悅	-10.6247
佩	-10.6247
泣	-10.6249
果何	-10.6254
舊人	-10.6254
整齊	-10.6254
從革	-10.6256
濟河	-10.6262
詩書	-10.6264
諸山	-10.6267
告神	-10.627
進也	-10.6271
行其	-10.6282
腹	-10.6287
此語	-10.6289
南吕	-10.6297
潁	-10.6297
君師	-10.63
克明	-10.6301
郡縣	-10.6301
治事	-10.6302
滄	-10.6302
必無	-10.6303
者因	-10.6303
之類是也	-10.6303
大槩	-10.6304
於善	-10.6306
赴	-10.6307
姚	-10.6308
湎	-10.6308
輒	-10.6309
之由	-10.6309
吐蕃	-10.631
蔵	-10.6312
其氣	-10.6313
不享	-10.6317
達於	-10.6319
洪範九疇	-10.6319
豈敢	-10.6323
駕	-10.6326
播種	-10.6326
變易	-10.6329
雷夏	-10.6329
鉅鹿	-10.6334
今予	-10.6334
東南至	-10.6336
通道	-10.6342
民有	-10.6343
之地也	-10.6344
昊天	-10.6344
兗州	-10.6345
天與	-10.6347
地理志云	-10.6348
前日之	-10.6351
東土	-10.6353
父祖	-10.6353
折獄	-10.6359
虞舜	-10.637
居民	-10.6373
周公之訓	-10.6374
晁氏	-10.6377
逞	-10.6382
非人	-10.6382
以善	-10.6383
水所	-10.6385
涯	-10.6385
為周	-10.6385
成其	-10.6385
峰	-10.6387
所以致	-10.6389
告成王	-10.6391
是汝	-10.6391
雙	-10.6395
人心之	-10.6409
此句	-10.641
也豈	-10.6411
不得已而	-10.6412
憸人	-10.6414
城西	-10.6415
不勝	-10.6418
漾水	-10.6421
憂勤	-10.6422
又自	-10.6422
疆界	-10.6425
治功	-10.6425
沇	-10.6426
漢陽	-10.6426
其水	-10.6426
終於	-10.6426
休命	-10.6431
作樂	-10.6432
所都	-10.6435
書者	-10.6437
近於	-10.6438
安陸	-10.6445
佑助	-10.6451
榦	-10.6451
緣	-10.6452
用賢	-10.6454
文徳	-10.6457
蠱	-10.6457
扞	-10.6458
遥	-10.6458
其要	-10.6459
如此而	-10.646
鴈	-10.646
大司徒	-10.6461
後之	-10.6462
上文言	-10.6464
鼻	-10.6464
是天	-10.6464
成文	-10.647
司宼	-10.647
作洛	-10.6473
為宫	-10.6473
河間	-10.6475
以養	-10.6476
安邑	-10.6477
譬如	-10.6481
周禮司	-10.6481
以奉	-10.6482
不畀	-10.6484
輔我	-10.6485
五星	-10.6492
春分	-10.6496
百穀	-10.6503
始得	-10.6506
本原	-10.6514
沔水	-10.6518
毅	-10.6519
二十九篇	-10.6519
而始	-10.652
穡	-10.6524
之流	-10.6524
警戒	-10.6525
𫝊正義曰	-10.6525
故事	-10.6526
徳義	-10.6527
䖍	-10.6527
三王之	-10.6527
舉事	-10.6527
繞	-10.653
老成人	-10.653
可以觀	-10.6535
在焉	-10.6535
此二者	-10.6537
書以	-10.6537
他日	-10.6538
鞭扑	-10.6539
入濟	-10.6542
五刑之	-10.6542
乃惟	-10.6544
不可用	-10.6545
于中	-10.6546
厥篚	-10.6547
禍亂	-10.6548
其用	-10.6549
成王即政	-10.655
發於	-10.6551
百九十	-10.6552
隨其	-10.656
夾室	-10.6563
九州之外	-10.6566
正道	-10.6567
而必	-10.6569
能以	-10.657
大矣	-10.6574
杜預云	-10.6575
歸政	-10.6577
慮其	-10.6583
而云	-10.6584
誅紂	-10.6587
此處	-10.6587
思慮	-10.659
一條	-10.6592
改易	-10.6592
以達	-10.6593
珍	-10.6595
梅	-10.6599
之月	-10.66
項	-10.66
滯	-10.6601
靑	-10.6602
儻	-10.6603
大辟	-10.6609
聽朕	-10.6615
而見	-10.6616
而言之則	-10.6618
曰昔	-10.6619
十九年	-10.662
又能	-10.6627
常伯	-10.663
即上文	-10.663
日用	-10.663
程氏曰	-10.663
退而	-10.6632
有徳者	-10.6635
爾雅曰	-10.6637
二縣	-10.6638
在其中	-10.6639
禹謨	-10.664
二臣	-10.6647
不入	-10.665
見矣	-10.665
文王之徳	-10.6654
周天	-10.6656
不能無	-10.6661
易氏曰	-10.6664
鎭	-10.6667
浚	-10.6667
舊説	-10.667
底柱	-10.667
衮	-10.6671
十餘	-10.6671
寃	-10.6671
禹以	-10.6671
毫釐	-10.6675
其才	-10.6677
仲丁	-10.6678
蕩蕩	-10.6683
之所能	-10.6684
徂征	-10.6686
曰汝	-10.6696
殺戮	-10.6697
者無不	-10.6701
也王肅云	-10.6707
不類	-10.6712
二十五里	-10.6712
故得	-10.6715
致敬	-10.6715
莫能	-10.6716
也蘇氏曰	-10.6724
封建	-10.6725
汾水	-10.6732
共為	-10.6733
矣若	-10.6735
也但	-10.6736
反徐	-10.6738
彼此	-10.6741
義也	-10.6742
之交	-10.6744
柴	-10.6745
亦豈	-10.6748
金氏履祥曰	-10.6752
燭	-10.6752
顚	-10.6755
杜氏	-10.676
必至	-10.676
于汝	-10.6764
梁雍	-10.6769
興亡	-10.6771
而進	-10.6772
敢不	-10.6772
在官	-10.6775
數百里	-10.6782
積石山	-10.6782
之言曰	-10.679
于前	-10.6791
不逮	-10.6791
以下皆	-10.6793
無私	-10.6795
之實也	-10.6798
吕梁	-10.6799
作誥	-10.68
立君	-10.68
三節	-10.6801
常山	-10.6804
生于	-10.6805
小水	-10.6806
日月之	-10.6807
而紂	-10.6809
可疑者	-10.6809
芮	-10.6811
枚	-10.6814
矣其	-10.6817
絜	-10.6818
停	-10.6819
抱	-10.682
功也	-10.6824
仲壬	-10.6824
閲	-10.6825
刑也	-10.6825
朋友	-10.6826
彝倫	-10.6828
自滿	-10.6828
郷	-10.6831
南陽	-10.6831
朝宗	-10.6833
顯明	-10.6836
烝祭	-10.6836
莽	-10.6839
康寧	-10.6845
而卒	-10.6845
聖王	-10.6854
説見	-10.6855
國家之	-10.6856
故次	-10.6856
於洛	-10.6857
之廟	-10.6862
哀矜	-10.6862
有疑	-10.6863
雍之	-10.6863
八尺	-10.6865
朝諸侯	-10.6867
水旱	-10.6867
陳之	-10.6869
四方之民	-10.6878
於彼	-10.6879
忒	-10.6885
澗水	-10.6886
時已	-10.6886
之職也	-10.689
冶	-10.6892
粹	-10.6894
瞻	-10.6895
首言	-10.6898
十四年	-10.6898
曲折	-10.69
木之	-10.6902
不勉	-10.6903
百執事	-10.6903
稷契	-10.6903
纂䟽	-10.6904
成於	-10.6905
所施	-10.6907
少昊	-10.6907
何由	-10.6908
不孝	-10.6908
一毫	-10.6909
神祇	-10.6911
沈湎	-10.6912
也後世	-10.6913
言汝	-10.6913
乃祖	-10.6916
八州	-10.6916
有善	-10.6916
不然則	-10.6923
忠良	-10.6924
語辭	-10.6927
六百	-10.6928
二伯	-10.693
雖曰	-10.6935
逸欲	-10.6935
周公曰	-10.6936
氣之	-10.6936
以至於	-10.6936
能治	-10.6942
三禮	-10.6944
天下之心	-10.6944
天下無	-10.6954
一段	-10.6957
兒	-10.6958
為中	-10.696
元和志云	-10.6961
十八年	-10.6961
怙	-10.6962
知其為	-10.6963
言文王	-10.6963
内而	-10.6964
富貴	-10.6965
亘	-10.6966
以教	-10.6966
二日	-10.6969
骨	-10.6969
前既	-10.6969
銘	-10.6972
芒	-10.6974
氷	-10.6974
巖	-10.6974
陳其	-10.6978
㑹於	-10.6979
劉向	-10.6981
所至	-10.6985
死而	-10.6989
作歌	-10.6993
其弟	-10.6995
一周	-10.7
七宿	-10.7001
斯言	-10.7007
忠信	-10.701
之界	-10.7014
變亂	-10.7024
丁未	-10.7028
後魏	-10.7029
使汝	-10.7037
察其	-10.7041
凉	-10.7041
芮伯	-10.7044
影	-10.7045
變也	-10.7045
者衆	-10.7045
而弗	-10.7046
塾	-10.7046
圮	-10.7047
推而	-10.7047
朞	-10.7049
紫	-10.7052
順流	-10.7055
過九江	-10.7058
之迹	-10.7059
孔氏以	-10.706
二典	-10.7061
山下	-10.7062
知恤	-10.707
庶獄	-10.707
盡心	-10.7071
梁岐	-10.7075
尤為	-10.7075
諸篇	-10.7077
不勤	-10.7077
山林	-10.7079
朝鮮	-10.7081
命禹	-10.7084
上公	-10.7101
成王命	-10.7102
以兵	-10.7108
以保	-10.7109
伐殷	-10.7111
居其	-10.7112
舊章	-10.7112
用是	-10.7115
後來	-10.7116
有文	-10.7117
閩	-10.7118
敝	-10.712
灃	-10.712
哭	-10.7121
迤	-10.7121
河決	-10.7122
諒	-10.7123
馮翊	-10.7124
賈逵	-10.7124
其聲	-10.7124
存焉	-10.7125
島	-10.7127
三條	-10.7127
一箇	-10.7127
人倫	-10.7132
之微	-10.7134
死者	-10.7135
則我	-10.7136
大略	-10.7138
外事	-10.7139
刑辟	-10.7139
揆度	-10.7142
而難	-10.7146
建中	-10.7146
霍叔	-10.7146
百榖	-10.7147
更端	-10.7152
者也故	-10.7157
異也	-10.7157
輔之	-10.7161
周公攝政	-10.7162
陳列	-10.7162
一念	-10.7163
東都	-10.7166
其利	-10.7168
城在	-10.7173
聽之	-10.7177
以寛	-10.718
壁中	-10.7185
安有	-10.7188
神宗	-10.719
瀍	-10.7193
亟	-10.7193
之節	-10.7195
廉	-10.7201
奢	-10.7201
豆	-10.7201
故名	-10.7203
之貢	-10.7211
慶府	-10.7213
鞭	-10.7215
西縣	-10.7216
一寸	-10.7216
源流	-10.7219
未甞	-10.722
梁州之	-10.7221
滅之	-10.7222
已成	-10.7225
逺人	-10.7228
潛水	-10.7233
不吉	-10.7234
隂陽之	-10.7234
澤也	-10.7237
湎于酒	-10.724
斷獄	-10.7243
歴代	-10.7251
有異	-10.7251
而不得	-10.7258
交相	-10.726
黄金	-10.726
馬頰	-10.7263
率諸侯	-10.7263
居東	-10.7268
之人也	-10.7268
藏之	-10.7269
两	-10.7269
經之	-10.7273
職方氏	-10.7274
傍	-10.7274
茫	-10.7275
它	-10.7275
狐	-10.7278
櫟	-10.7279
氣質	-10.728
焉此	-10.7281
亢	-10.7281
覩	-10.7282
喬	-10.7282
叚	-10.729
夏殷	-10.729
甚大	-10.7291
一家	-10.7291
乃知	-10.7293
止言	-10.7299
盖謂	-10.7301
立事	-10.7303
皆曰	-10.7309
又在	-10.7322
岷江	-10.7324
一水	-10.7327
内方	-10.733
和氣	-10.7338
十二日	-10.7339
州東	-10.7341
封康叔	-10.7345
榆	-10.7347
麟	-10.7352
于兹	-10.7352
𫉬	-10.7352
諛	-10.7352
弑	-10.7354
標	-10.7355
祖己	-10.7358
賄	-10.7361
紵	-10.7362
宣帝	-10.7362
既遷	-10.7365
克勤	-10.7367
食貨	-10.737
流行	-10.737
上上	-10.7372
德惟	-10.7374
堂下	-10.7376
無赦	-10.7379
必待	-10.738
歎息	-10.7383
唐孔氏謂	-10.7383
慎厥	-10.7387
云在	-10.7391
雜出	-10.7394
先人	-10.7397
政令	-10.7397
不逺	-10.7401
大罪	-10.7402
臣子	-10.7404
不動	-10.7407
安逸	-10.7413
而遽	-10.7415
凡民	-10.7415
國人	-10.7416
使天下	-10.7421
取諸	-10.7422
昔者	-10.7423
汜	-10.7424
則凡	-10.7424
又東南逕	-10.7429
迄	-10.743
㸃	-10.7432
」	-10.7433
淮南	-10.7433
雀	-10.7434
泛濫	-10.7434
信也	-10.7436
卻	-10.7436
舛	-10.7436
之明日	-10.7437
返	-10.7438
憫	-10.7439
牿	-10.744
三皇	-10.744
墜厥命	-10.7443
拜稽首	-10.7444
揚之	-10.7445
十日	-10.7446
銖	-10.7446
而反	-10.7447
德之人	-10.7448
九章	-10.7449
成康	-10.745
下邳	-10.7451
以致其	-10.7452
期於	-10.7453
之夷	-10.7462
物則	-10.7463
尙書	-10.7469
大吕	-10.7472
今屬	-10.7474
郡國	-10.7474
至治	-10.7477
死生	-10.7478
遜志	-10.748
行者	-10.7488
在豐	-10.7489
外方	-10.749
近世	-10.7491
經緯	-10.7491
不敢以	-10.7492
扈	-10.7496
桓水	-10.7506
直言	-10.7507
於汝	-10.7507
三正	-10.7508
應在	-10.7512
狼	-10.7512
一端	-10.7512
籲	-10.7513
弗率	-10.7513
惕	-10.7513
匹夫匹婦	-10.7514
運行	-10.7514
昌言	-10.7514
醫	-10.7515
伯冏	-10.7516
商邑	-10.752
釋詁云	-10.752
知人安民	-10.752
但以	-10.7522
秋分	-10.7523
與日	-10.7524
水注之	-10.7526
按此	-10.7528
堯舜禹	-10.7532
縣屬	-10.7533
我亦	-10.7533
分流	-10.7533
自絶	-10.7533
伐夏	-10.7541
于四方	-10.7542
學問	-10.7546
為近	-10.7546
小序	-10.7546
二千	-10.7547
法者	-10.7548
與其	-10.7566
商郊	-10.7567
之勞	-10.7569
從事	-10.757
器用	-10.7574
曉然	-10.7575
重華	-10.7577
羣飲	-10.7579
沅	-10.7583
臣也	-10.7586
滄州	-10.7587
五玉	-10.7588
五罰	-10.7588
杜佑	-10.759
龠	-10.759
雞	-10.759
譜	-10.7592
何者	-10.7592
重於	-10.7593
桑欽	-10.7594
癸	-10.7601
易以	-10.7602
新民	-10.7602
雷首	-10.7604
安寧	-10.7605
冰	-10.7605
當如此	-10.7611
舜既	-10.7617
治事之臣	-10.7617
蓋謂	-10.762
其居	-10.7621
之來	-10.7623
為法	-10.7626
諸侯也	-10.763
叔父	-10.7632
惡而	-10.7636
郊祀	-10.7642
渭汭	-10.7646
于後	-10.7649
零	-10.7649
中江	-10.7654
一等	-10.7658
未安	-10.7659
為天	-10.766
言舜	-10.7663
臆	-10.7665
億	-10.7667
爲政	-10.7668
灘	-10.7669
地而	-10.767
成都	-10.7671
馮	-10.7671
有竒	-10.7672
皆同	-10.7672
兢業	-10.7673
所取	-10.7673
糾	-10.7674
突	-10.7674
矣惟	-10.7674
㝠	-10.7674
眉	-10.7676
籥	-10.7678
繇	-10.7678
于心	-10.7681
耇	-10.7681
禹治	-10.7681
耽樂	-10.7681
其形	-10.7681
此之謂	-10.7682
戡黎	-10.7682
歴數	-10.7684
反復	-10.7688
百世	-10.7688
禹既	-10.7691
中央	-10.7692
曰禹	-10.7692
元祀	-10.7693
民情	-10.7694
須是	-10.7696
異同	-10.7704
出焉	-10.7709
以歸	-10.7712
始祖	-10.7713
牧夫	-10.7714
萊夷	-10.7714
與周公	-10.7715
四海之	-10.7717
教人	-10.7717
更有	-10.7718
之例	-10.7723
考其	-10.7725
營州	-10.7731
勿用	-10.7731
交修	-10.7731
卓	-10.7731
委任	-10.7734
繼之以	-10.7736
利口	-10.774
同其	-10.774
九服	-10.7743
不可無	-10.7744
亦為	-10.7745
幽明	-10.7745
豪	-10.7747
化民	-10.7747
為天所	-10.7748
吐	-10.7749
冊書	-10.7751
綽	-10.7752
考終命	-10.7752
汳	-10.7754
日中	-10.7755
吝	-10.7755
醴	-10.7755
恨	-10.7757
芳	-10.7758
宄	-10.776
咤	-10.776
禰	-10.7761
此序	-10.7761
四輔	-10.7763
臬	-10.7763
稟	-10.7763
不由	-10.7763
積累	-10.7767
革夏	-10.777
試之	-10.777
固不可	-10.7771
有疾	-10.7772
昭然	-10.7774
御覽	-10.7776
責難	-10.7778
乎人	-10.7778
而至于	-10.7778
恐懼	-10.778
轉而	-10.7781
無功	-10.7783
欲令	-10.7786
聖徳	-10.7787
作亂	-10.7789
東遷	-10.7789
左氏傳	-10.7791
違卜	-10.7793
咨嗟	-10.7799
好生	-10.7803
分職	-10.7805
遣使	-10.7806
六者	-10.7814
厥土	-10.7817
揖	-10.7818
小國	-10.7821
初服	-10.7825
凶徳	-10.7826
摇	-10.7829
先君	-10.7829
其責	-10.7833
潘	-10.7836
漂	-10.7837
萃	-10.7838
儲	-10.784
千乗	-10.7841
分北	-10.7844
委曲	-10.7846
恭儉	-10.785
不顧	-10.785
以戒	-10.7853
等事	-10.7853
心者	-10.7853
秩宗	-10.7853
汝身	-10.7858
相反	-10.7859
地志云	-10.786
及此	-10.7864
注疏	-10.7867
食之	-10.7877
導漾	-10.7877
勸之	-10.7879
心術	-10.7884
鍰	-10.7888
成矣	-10.7892
而已故	-10.7894
處之	-10.7895
復有	-10.7896
精一	-10.7896
之基	-10.7902
濳	-10.7902
士師	-10.7903
治田	-10.7903
艮	-10.7909
元龜	-10.7909
漲	-10.7913
以證	-10.7913
敬順	-10.7915
之病	-10.7918
寔	-10.7919
弘	-10.7921
黷	-10.7921
賜姓	-10.7921
而起	-10.7922
所執	-10.7923
乃得	-10.7924
楯	-10.7926
天既	-10.7926
不立	-10.7926
失於	-10.7927
斆	-10.7927
安也	-10.7932
簡而	-10.7934
諸侯皆	-10.7937
善言	-10.7943
與天地	-10.7945
君臣上下	-10.7946
或者	-10.7947
典樂	-10.7953
馬本作	-10.7954
清明	-10.7954
成周之	-10.7955
四鄰	-10.7956
兩端	-10.7958
汝能	-10.7959
相類	-10.7962
之歌	-10.7962
宥之	-10.7969
本文	-10.7971
酈	-10.7971
必然	-10.7975
晚	-10.7976
四門	-10.7976
不甚	-10.7976
誤也	-10.7978
器也	-10.7984
山水	-10.7988
之不同	-10.7989
永命	-10.799
賜之	-10.7991
矣何	-10.7992
亦將	-10.7993
所任	-10.7996
涸	-10.7997
膚	-10.7998
視其	-10.7998
四句	-10.8
吹	-10.8001
汧	-10.8001
排	-10.8003
朂	-10.8005
篆	-10.8005
而居	-10.8005
澮	-10.8006
開元	-10.8006
論也	-10.8007
陳氏師凱曰	-10.8007
如此也	-10.8008
肜	-10.8009
告之曰	-10.8009
於事	-10.801
:	-10.8011
乙卯	-10.8014
别之	-10.8015
五教	-10.8019
為五	-10.8019
授受	-10.802
𤼵源	-10.802
為之説	-10.8021
孟春	-10.8022
之術	-10.8022
不思	-10.8026
位也	-10.8031
人才	-10.8043
帝命	-10.8043
七廟	-10.8043
聲音	-10.8043
自下	-10.8044
今天	-10.8044
未然	-10.8046
所係	-10.8051
北極	-10.8052
邳	-10.8052
河徙	-10.8056
天罰	-10.8058
自上	-10.8061
正義云	-10.8061
鄴	-10.8069
此義	-10.8077
擇其	-10.8081
反下同	-10.8081
後漢書	-10.8084
乎且	-10.8086
顛倒	-10.8089
處也	-10.8089
凢	-10.809
橘柚	-10.809
事理	-10.8091
憑	-10.8091
扆	-10.8092
之端	-10.8093
安居	-10.8094
軫	-10.8095
而還	-10.8098
為彭蠡	-10.8098
此五者	-10.8099
欲去	-10.8106
亦通	-10.8106
聖賢之	-10.8107
其敢	-10.8108
丕顯	-10.811
二十九日	-10.8111
職業	-10.8112
上句	-10.8116
周公之言	-10.8117
成帝	-10.8119
豈特	-10.8122
其北	-10.8123
未得	-10.8126
遷都之	-10.8128
無所不至	-10.8131
如後世	-10.8134
者言之	-10.8138
辨其	-10.814
之為言	-10.8142
立言	-10.8142
一支	-10.8144
朔日	-10.8144
周公東征	-10.8145
尉	-10.8148
常情	-10.8148
而盡	-10.8149
獨夫	-10.8149
一里	-10.8151
當謹	-10.8152
四分	-10.8153
昭王	-10.8154
所命	-10.8159
析城	-10.816
形勢	-10.8161
五等	-10.8163
穎	-10.8165
穿鑿	-10.8167
愿	-10.8168
繋	-10.8169
器物	-10.8169
涵	-10.817
者不能	-10.817
禘	-10.8172
数	-10.8173
應劭	-10.8174
華蟲	-10.8175
甲戌	-10.8175
水中	-10.8176
邉	-10.8176
趣	-10.8177
㓕	-10.8178
甲胄	-10.8179
誥命	-10.8179
之器	-10.8181
旗	-10.8181
踐奄	-10.8182
典獄	-10.8183
蒲姑	-10.8184
血氣	-10.8186
教誨	-10.819
光華	-10.8191
名者	-10.8194
文章	-10.8195
足矣	-10.8195
不殺	-10.8195
下下	-10.8196
而思	-10.8196
大率	-10.8198
錯簡	-10.8198
之口	-10.82
楚語	-10.8207
之辨	-10.8208
入南海	-10.8209
耳非	-10.821
說文云	-10.8214
告歸	-10.8216
商民之	-10.8218
開導	-10.8218
天降威	-10.8218
以從	-10.8218
邦伯	-10.8219
塞外	-10.8229
汝惟	-10.8229
目前	-10.8235
萬物之	-10.8241
以觀	-10.8241
祗敬	-10.8247
錯亂	-10.8249
舟楫	-10.8249
自反	-10.8249
固無	-10.825
礙	-10.825
為中江	-10.825
大體	-10.825
柏	-10.825
堙	-10.8251
認	-10.8253
藝文志	-10.8253
之輕重	-10.8253
之險	-10.8253
當其	-10.8253
非所以	-10.8257
兢兢業業	-10.8257
姒	-10.8258
襄公	-10.8258
剖	-10.8259
蓍	-10.826
瑕	-10.826
躔	-10.826
演	-10.826
庶言	-10.8261
不絶	-10.8262
創業	-10.8263
競	-10.8264
簜	-10.8264
䙝	-10.8266
重者	-10.8267
特言	-10.8269
而死	-10.8269
葢以	-10.8269
平陽	-10.827
今河南	-10.8271
終身	-10.8272
一朝	-10.8272
此一節	-10.8276
於此而	-10.8277
横流	-10.8278
侯國	-10.8279
不以為	-10.828
什一	-10.8281
惡也	-10.8282
中氣	-10.8282
呂刑	-10.8282
州南	-10.8282
本朝	-10.8283
臣妾	-10.8284
南交	-10.8284
此葢	-10.8286
采地	-10.8289
言文武	-10.8292
子男	-10.8294
所主	-10.8296
百二十	-10.8297
見聖人	-10.8298
難保	-10.8299
鞏縣	-10.8301
莫大	-10.8302
而言曰	-10.8303
諸書	-10.8303
夏侯	-10.8303
安天下	-10.8305
異物	-10.8308
農事	-10.8308
六十四	-10.8309
赦之	-10.8314
相合	-10.8319
之事故	-10.832
山縣	-10.8321
亦因	-10.8324
乃復	-10.8331
之積	-10.8332
歎息言	-10.8334
尭	-10.8335
苛	-10.8338
樸	-10.8339
則已	-10.8341
核	-10.8343
鰥	-10.8343
豬野	-10.8344
吕氏祖謙曰	-10.8344
訂	-10.8346
乏	-10.8346
銳	-10.8346
民亦	-10.8346
咸有一德	-10.8349
三句	-10.8349
僞	-10.835
為患	-10.8351
析支	-10.8351
天之罰	-10.8351
也此言	-10.8355
保安	-10.8362
嶓冢山	-10.8362
成臯	-10.8364
岍	-10.8364
舜曰	-10.8366
不識	-10.8367
所不及	-10.8369
州之境	-10.8374
道徳	-10.8375
六經	-10.8376
果能	-10.8377
無違	-10.838
四寸	-10.8382
之本心	-10.8382
也周官	-10.8388
於衆	-10.8391
東郡	-10.8391
改正	-10.8394
無愧	-10.8395
當為	-10.8396
文教	-10.8402
兾	-10.8402
能勝	-10.8404
之義故	-10.8404
精微	-10.8408
祧	-10.8409
冲	-10.8412
也渭按	-10.8414
有理	-10.8417
戰于	-10.8418
為亂	-10.8418
順也	-10.8419
今在	-10.8422
說見	-10.8424
其來	-10.8424
饋	-10.8425
仞	-10.8428
快	-10.8428
所以成	-10.8429
網	-10.8429
馬牛	-10.8429
墊	-10.843
而後可以	-10.843
晨	-10.843
貶	-10.843
是知	-10.8431
簒	-10.8431
匏	-10.8431
晷	-10.8431
琴	-10.8432
鼠	-10.8432
母弟	-10.8433
彩	-10.8434
凱	-10.8435
姑息	-10.8435
逋逃	-10.8435
臨洮	-10.8436
論其	-10.8436
紛紛	-10.8437
初不	-10.8438
地下	-10.8439
怨詈	-10.8439
颺	-10.844
蔑	-10.844
也惟其	-10.8443
也史記	-10.8444
上承	-10.8445
嵗月日	-10.8448
顔師古	-10.8453
凡此	-10.8457
班師	-10.8458
六曰	-10.846
禹功	-10.8462
敷布	-10.8462
大火	-10.8462
當先	-10.8463
河患	-10.8468
必使	-10.8469
於經	-10.847
之列	-10.8471
不加	-10.8473
已然	-10.8474
百五十里	-10.8475
也其曰	-10.8481
達河	-10.8482
五臣	-10.8485
西序	-10.8485
其屬	-10.8488
也王氏曰	-10.849
置之	-10.8493
曰若稽古	-10.8497
當是時	-10.8501
有四	-10.8501
不同者	-10.8502
杞	-10.8504
冬夏	-10.8506
若時	-10.8506
克終	-10.8511
良心	-10.8515
祁	-10.8516
超	-10.8517
作聖	-10.8517
収	-10.8518
摩	-10.852
隐	-10.8524
璆	-10.8526
室家	-10.8531
逺方	-10.8532
咨四岳	-10.8533
而亡	-10.8535
水勢	-10.8535
近者	-10.854
數語	-10.854
已定	-10.8541
浙江	-10.8541
雷澤	-10.8549
竊意	-10.8557
日至	-10.8559
能行	-10.856
車服	-10.8561
以喻	-10.8565
求諸	-10.8568
正如	-10.8573
必有所	-10.8574
高宗之	-10.8575
袁	-10.8578
武都	-10.8579
去極	-10.8579
取法	-10.8582
千載	-10.8583
也又按	-10.8583
慎罰	-10.8586
用徳	-10.8589
三俊	-10.8593
事事	-10.8598
以此知	-10.8598
而言則	-10.8599
大旱	-10.8599
酢	-10.8603
瓚	-10.8603
何疑	-10.8603
經曰	-10.8604
東原	-10.8605
彞倫	-10.8605
壘	-10.8606
知稼穡之艱難	-10.8607
翦	-10.8607
徼外	-10.8607
囂	-10.8607
禽獸	-10.8608
瘝	-10.8609
渙	-10.8609
詩所謂	-10.8609
侮慢	-10.861
阪	-10.8611
豕	-10.8612
歡	-10.8612
京兆	-10.8613
先儒以	-10.8613
蟻	-10.8614
時人	-10.8614
太蔟	-10.8615
岍岐	-10.8615
以是為	-10.8615
濟漯	-10.8616
黼扆	-10.8619
酒泉	-10.8619
九寸	-10.8619
所止	-10.862
歎而	-10.8621
數也	-10.8622
立于	-10.8622
天下後世	-10.8623
分野	-10.8625
一州	-10.8629
我其	-10.8631
誓衆	-10.8635
迷惑	-10.8635
不死	-10.8637
平日	-10.8637
武王崩	-10.8639
協于	-10.864
賢君	-10.8641
授之	-10.8642
神農	-10.8644
所記	-10.8645
祀之	-10.8647
皆指	-10.865
計之	-10.8651
大降	-10.8654
少康	-10.8654
受顧命	-10.8655
降格	-10.8656
十二次	-10.8662
惟德	-10.8664
周家之	-10.8667
誤矣	-10.8668
西至	-10.8668
無度	-10.8669
官刑	-10.8673
古書	-10.8673
能如此	-10.8674
引書	-10.8675
宼	-10.8677
五湖	-10.8678
總言	-10.868
記之	-10.8688
㦲	-10.869
念哉	-10.8691
事業	-10.8693
間斷	-10.8695
矛	-10.8695
代天	-10.8696
乃祖乃父	-10.8697
地平天成	-10.8697
三江既入	-10.8698
七十二	-10.8699
惻怛	-10.8702
我所以	-10.8702
爾衆	-10.8702
王樵曰	-10.8703
不利	-10.8703
莞	-10.8703
自安	-10.8703
承上	-10.8704
戊申	-10.8706
名山	-10.8709
惟言	-10.8712
通稱	-10.8712
不疑	-10.8712
與否	-10.8715
其詳	-10.8716
耳故	-10.8716
間有	-10.8719
汝心	-10.8723
而後言	-10.8723
不祥	-10.8725
封之	-10.8726
之心則	-10.8726
荆揚	-10.873
非周公	-10.8735
世本	-10.8735
敬而	-10.8735
四海之内	-10.8736
省文	-10.8736
救之	-10.8737
復辟	-10.8738
天命也	-10.8739
陳謨	-10.8741
十五日	-10.8741
相視	-10.8743
知天	-10.8744
不獲	-10.8744
大龜	-10.8745
雖已	-10.8745
敬天	-10.8746
凡此皆	-10.8747
度數	-10.875
而不為	-10.8755
常事	-10.8756
多誥	-10.8756
别為	-10.8764
言之耳	-10.8765
戒王	-10.8765
過於	-10.8766
感應	-10.8767
四方諸侯	-10.877
朕志	-10.8773
以見其	-10.8774
惟在於	-10.8777
隸	-10.8778
豹	-10.8778
拙	-10.878
襃	-10.878
𨗳	-10.8783
今觀	-10.8783
居亳	-10.8784
傑	-10.8785
粉米	-10.8786
東境	-10.8786
鳴球	-10.8787
阼階	-10.8788
孔頴達	-10.8789
固當	-10.8792
協和	-10.8793
方千里	-10.8796
五常之	-10.8797
仁者	-10.8798
過誤	-10.88
舊都	-10.8803
酈注	-10.8803
眷顧	-10.8807
置閏	-10.8808
為次	-10.8808
六軍	-10.8813
保惠	-10.8814
其刑	-10.8815
相當	-10.8816
則必有	-10.8821
夏后	-10.8824
師氏	-10.8828
也雖然	-10.883
未可以	-10.8834
省察	-10.8837
此地	-10.8839
於海	-10.884
立於	-10.8841
未可知	-10.8841
水流	-10.8842
先民	-10.8844
以終	-10.8845
光武	-10.8845
亂而	-10.8848
顔師古曰	-10.8849
猶曰	-10.8851
又東南	-10.8852
皆用	-10.8853
何獨	-10.8865
藁	-10.8865
反側	-10.8867
之典	-10.8867
穗	-10.8867
者能	-10.8867
邠	-10.8869
而可以	-10.8869
居於	-10.8869
之時也	-10.887
門内	-10.887
列於	-10.887
鑑	-10.887
得名	-10.887
潭	-10.8871
苞	-10.8872
歆	-10.8872
刑書	-10.8872
畨	-10.8873
旄	-10.8874
沾	-10.8875
媚	-10.8877
凡三	-10.8877
體統	-10.8878
金城	-10.8879
魁	-10.888
盗	-10.888
黻	-10.888
過失	-10.8881
璣衡	-10.8881
殿	-10.8882
汲汲	-10.8883
閱	-10.8884
未為	-10.8885
郫	-10.8886
今既	-10.8886
之序也	-10.8887
爲天子	-10.8888
之道而	-10.8889
微而	-10.8892
灃水	-10.8892
仲春	-10.8895
師師	-10.89
不偏	-10.8901
禹臯陶	-10.8902
不經	-10.8903
啓迪	-10.8904
深思	-10.8905
若使	-10.8907
莫如	-10.8907
勉强	-10.8908
有極	-10.8909
長子	-10.8912
澧水	-10.8922
言民	-10.8929
始皇	-10.893
自漢	-10.8933
甚逺	-10.8935
久而	-10.8936
其親	-10.8938
以告之	-10.8938
千古	-10.894
之所言	-10.8941
嘗謂	-10.8944
而益	-10.8946
訓之	-10.8946
浙	-10.8949
鯀之	-10.895
外而	-10.895
疑其	-10.8951
君臣相	-10.8951
放齊	-10.8952
用工	-10.8953
以俟	-10.8954
于闐	-10.8954
常在	-10.8956
惑於	-10.8957
陳氏雅言曰	-10.8957
小而	-10.8957
科斗	-10.8964
十餘里	-10.8965
也至於	-10.8965
証	-10.8967
言周公	-10.8968
而發	-10.8968
卣	-10.8969
勾	-10.897
治理	-10.897
自相	-10.897
糧	-10.8971
在河南	-10.8972
《	-10.8973
很	-10.8973
則無以	-10.8973
伏犧	-10.8974
勞而	-10.8974
太宰	-10.8976
與上	-10.8978
事有	-10.8978
朴	-10.898
二十八篇	-10.898
夘	-10.8982
人臣之	-10.8983
典章	-10.8983
分命	-10.8988
而忘	-10.8996
第八	-10.8998
周公之心	-10.8998
者不過	-10.9004
地平	-10.9005
何敢	-10.9006
八十一	-10.9007
封於	-10.901
等處	-10.9015
之意謂	-10.9018
七里	-10.902
蘇氏謂	-10.902
文意	-10.9023
為文	-10.9027
某事	-10.9027
此論	-10.9036
匹夫	-10.9036
漯水	-10.9037
細行	-10.9037
為不善	-10.904
百鍰	-10.9042
錫命	-10.9042
難曉	-10.9049
湛	-10.9053
所封	-10.9054
畏懼	-10.9055
輙	-10.9056
稾	-10.9056
泝	-10.906
攸好徳	-10.906
爲君	-10.9062
釁	-10.9062
高明	-10.9064
毳	-10.9064
欠	-10.9065
𢎞農	-10.9067
治人	-10.9068
其長	-10.9072
加以	-10.9073
往征	-10.9079
失道	-10.9079
縣故城南	-10.9079
三家	-10.908
鮮食	-10.9082
三十年	-10.9088
專以	-10.9091
凶人	-10.9098
盛德	-10.91
使無	-10.9104
陳留	-10.9106
畢門	-10.9106
偽作	-10.9107
知者	-10.9108
山北	-10.9108
讀之	-10.911
中和	-10.911
福也	-10.9111
再三	-10.9113
乃在	-10.9114
荀	-10.9115
致功	-10.9115
溝洫	-10.9117
州西	-10.9121
髙后	-10.9122
之時而	-10.9125
命畢公	-10.9129
于四海	-10.9132
若無	-10.9133
九載	-10.9134
華夏	-10.9139
者既	-10.9139
載之	-10.9142
澨	-10.9142
又南逕	-10.9145
夏正	-10.9147
戒也	-10.9149
澗瀍	-10.915
熊耳山	-10.9152
不孝不友	-10.9152
曲阜	-10.9153
由其	-10.9153
宴	-10.9153
恢	-10.9153
刈	-10.9154
敬用	-10.9154
性之	-10.9155
嫡	-10.9155
五采	-10.9156
在前	-10.9156
汙	-10.9156
熱	-10.9157
髙宗肜日	-10.9159
優游	-10.9159
䜛	-10.916
伻	-10.9161
並屬	-10.9161
焉是	-10.9162
董氏鼎曰	-10.9162
三里	-10.9162
無射	-10.9163
陽城	-10.9163
樞	-10.9163
爵禄	-10.9164
雕	-10.9164
錫之福	-10.9166
孟門	-10.9167
以治之	-10.9168
人鬼	-10.9168
妹邦	-10.9168
向背	-10.917
稱帝	-10.9172
我乃	-10.9174
殄絶	-10.9176
於天子	-10.9178
危懼	-10.9178
軍旅	-10.9179
懋勉	-10.9179
我之所	-10.9184
考績	-10.9184
猶在	-10.9186
知所以	-10.9188
復出	-10.919
于衆	-10.9191
攷之	-10.9192
表裏	-10.9193
濟濟	-10.9194
孔意	-10.9197
天亦	-10.9199
之理也	-10.92
如我	-10.9201
石山	-10.9201
君臣之間	-10.9203
孰能	-10.9205
乙未	-10.9206
淮南子	-10.9206
告太甲	-10.9214
也大抵	-10.9217
太丁	-10.9217
美之	-10.9223
安府	-10.9223
西漢水	-10.9226
四百里	-10.9227
禹言	-10.9231
大梁	-10.9234
三品	-10.9236
楚子	-10.9237
人能	-10.9239
相繼	-10.924
聖人所以	-10.9241
若謂	-10.9244
敖	-10.9245
𫝊云	-10.9246
師尹	-10.9246
牟	-10.9246
途	-10.9246
仲尼	-10.9247
敉	-10.9247
儀刑	-10.9249
摯	-10.9249
卞	-10.925
溫	-10.925
保之	-10.9251
東出	-10.9251
肩	-10.9252
五過	-10.9252
六律	-10.9256
繼自今	-10.9258
奉承	-10.9263
不仁	-10.9263
之家	-10.9264
之休	-10.9264
彭澤	-10.9267
未明	-10.9267
一歲	-10.927
清濁	-10.9273
故城在	-10.9275
貴乎	-10.9277
為萬世	-10.9279
以應	-10.9284
之可也	-10.9288
江陵	-10.9289
往伐	-10.9292
自奄	-10.9298
湖口	-10.9298
此説是也	-10.93
疆土	-10.9302
亦難	-10.9303
家法	-10.9304
北條	-10.9305
葢謂	-10.9306
私欲	-10.931
分之	-10.9311
五章	-10.9311
致政	-10.9311
天地之間	-10.9319
安縣	-10.9319
偃師	-10.932
撫安	-10.9321
一山	-10.9322
孰為	-10.9323
以圖	-10.9324
五篇	-10.9324
者特	-10.9325
發之	-10.9328
之謨	-10.9328
以取	-10.9329
謂舜	-10.933
不能盡	-10.9333
苟不	-10.9333
蹇叔	-10.9334
故雖	-10.9334
在徳	-10.9336
言桀	-10.9336
古文作	-10.9337
一定之	-10.9337
而不變	-10.9338
不得其所	-10.9338
坊	-10.9339
鏞	-10.934
逋	-10.934
概	-10.9342
覃懐	-10.9342
朱圉	-10.9343
平水土	-10.9343
曲禮	-10.9344
之意故	-10.9344
秘	-10.9345
効	-10.9345
如是之	-10.9347
益州	-10.9347
其衆	-10.9347
之坐	-10.935
有時而	-10.9357
妹土	-10.9358
讀為	-10.9359
攜	-10.9362
昆弟	-10.9362
太極	-10.9363
宅百揆	-10.9367
水害	-10.9374
天下國家	-10.9375
所同	-10.9377
漢屬	-10.9378
刑法	-10.9378
同穴	-10.9378
今為	-10.9379
即禹貢	-10.9379
語録	-10.9381
之田	-10.9381
五十年	-10.9381
以表	-10.9384
善人	-10.939
天官	-10.939
薛氏	-10.9392
而不復	-10.9393
稱之	-10.9393
北距	-10.9394
象賢	-10.9394
天必	-10.9398
陳戒	-10.94
為濟	-10.9403
馬本	-10.9406
元老	-10.9409
思所以	-10.9412
其外	-10.9414
相須	-10.9416
敬承	-10.942
告君	-10.9423
宗人	-10.9426
鬲津	-10.9427
稽考	-10.9427
之本意	-10.9428
矣於是	-10.9428
之狀	-10.9429
戡	-10.9431
民間	-10.9431
戍	-10.9433
訓迪	-10.9433
在河東	-10.9434
徼	-10.9434
異名	-10.9436
一千	-10.9437
隣	-10.9438
剥	-10.9438
杖	-10.9439
隄防	-10.944
塗炭	-10.944
林少穎	-10.944
乎夫	-10.9441
隨山刋木	-10.9441
殽	-10.9442
眇	-10.9445
叅	-10.9446
結之	-10.9448
霜	-10.9449
鐡	-10.9454
莫大于	-10.9454
分為九	-10.9455
余謂	-10.9456
蔡沈	-10.9456
猶今	-10.9459
重其事	-10.9461
以濟	-10.9463
輔佐	-10.9466
所指	-10.9466
在彼	-10.9467
又引	-10.947
日月之行	-10.9471
治矣	-10.9472
直是	-10.9473
明帝	-10.9473
甚重	-10.9476
山在今	-10.9477
萬幾	-10.9477
疆理	-10.9478
之俗	-10.9479
告康叔	-10.9482
之綱	-10.9483
乆矣	-10.9485
毗	-10.9486
反馬云	-10.9487
惟我	-10.9487
蘓氏	-10.9488
自成湯	-10.9489
裕民	-10.9493
其任	-10.9494
善矣	-10.9497
古訓	-10.9498
同一	-10.9498
不同而	-10.9503
於國	-10.9504
好善	-10.9505
敬者	-10.9507
親見	-10.9508
五百餘里	-10.9511
東逕	-10.9519
遷於	-10.952
者三	-10.952
州北	-10.952
豐鎬	-10.9522
祀典	-10.9526
遷洛	-10.9527
棣	-10.9529
我心	-10.953
必克	-10.953
堂上之樂	-10.9531
傲上從康	-10.9532
隰	-10.9533
巡狩	-10.9535
悍	-10.9535
興師	-10.9536
㳟	-10.9536
赫	-10.9539
嬖	-10.954
變文	-10.9541
鄂	-10.9541
遍	-10.9542
恁地	-10.9542
庫	-10.9543
今文無古文有	-10.9543
繼世	-10.9545
文命	-10.9545
在雍州	-10.9545
孔穎達	-10.9545
天下之理	-10.9546
交趾	-10.9546
漢武	-10.9547
至周	-10.9551
始封	-10.9552
▁吕氏曰	-10.9552
呉氏曰	-10.9554
難以	-10.9555
死魄	-10.9555
云凡	-10.9559
有功者	-10.9561
大司馬	-10.9567
四日	-10.957
至極	-10.9571
民之心	-10.9571
變為	-10.9572
縣本漢	-10.9577
之風	-10.9582
江河	-10.9583
千里而	-10.9587
而誓	-10.959
降衷	-10.959
五行傳	-10.9591
可通	-10.9593
目之	-10.9594
是書	-10.9595
此條	-10.9595
將使	-10.9597
無心	-10.961
可居	-10.9614
天之威	-10.9615
泯	-10.9625
唐志	-10.9626
其目	-10.9626
留之	-10.9626
涼	-10.9628
於是乎	-10.9628
之偏	-10.9629
少頴	-10.9629
響	-10.9629
弋	-10.963
傳授	-10.9631
恬	-10.9631
茨	-10.9634
戛	-10.9634
司牧	-10.9636
誡	-10.9636
有常刑	-10.9637
邰	-10.9638
日月五星	-10.9639
圭瓚	-10.9639
賂	-10.9639
不平	-10.9639
狥	-10.964
皆知	-10.964
慾	-10.9641
癸亥	-10.9642
我二人	-10.9642
悛	-10.9645
其所居	-10.9648
弗弔	-10.9648
伊川	-10.9653
修治	-10.9654
方其	-10.9657
也傳正義曰	-10.9658
服命	-10.9661
也予	-10.9661
以祀	-10.9662
受天	-10.9662
陶唐	-10.9665
新君	-10.9666
然後知	-10.9666
王政	-10.9667
之證	-10.967
讓于	-10.9673
太室	-10.9673
三孤	-10.9674
既曰	-10.9676
命令	-10.9676
主宰	-10.9677
以授	-10.9678
百五十	-10.9678
孝經	-10.9681
不敢知	-10.9682
總之	-10.9683
斷之	-10.9684
曾氏曰	-10.9686
求備	-10.9687
石門	-10.9689
之詳	-10.9689
畏之	-10.9699
百餘	-10.97
注引	-10.9703
孔壁	-10.9704
為澤	-10.9705
無定	-10.9709
不得以	-10.9711
不可不敬	-10.9714
唐書	-10.9714
氐	-10.9715
傳記	-10.9716
複	-10.9716
虐政	-10.9722
正在	-10.9722
威命	-10.9725
同時	-10.9726
懼其	-10.9729
哉盖	-10.973
中國之	-10.9731
詳矣	-10.9733
霽	-10.9734
由是而	-10.9734
犬戎	-10.9735
纖	-10.9736
也唐孔氏曰	-10.9738
犧	-10.9738
遁	-10.9739
亳邑	-10.974
我命	-10.9743
敬民	-10.9746
東晉	-10.9751
之名也	-10.9752
未足	-10.9754
下大夫	-10.9756
江源	-10.9757
推其	-10.9762
定矣	-10.9762
大畧	-10.9763
皆出於	-10.9764
天人之	-10.9765
王曰封	-10.9765
王天下	-10.9766
執事	-10.9768
郭璞云	-10.9768
於神	-10.9771
并吉	-10.9773
夷人	-10.9774
説得	-10.9774
商周	-10.9775
過郡	-10.9776
有國	-10.9776
不差	-10.978
一代之	-10.9781
入於海	-10.9784
感格	-10.9784
萬世之	-10.9788
荆州之	-10.9801
即下文	-10.9802
不可謂	-10.9803
庶獄庶慎	-10.9804
有成	-10.9805
象刑	-10.9807
之資	-10.9808
足以見	-10.9809
伯父	-10.9812
漢孔	-10.9812
李氏	-10.9813
一己之	-10.9814
其味	-10.9815
謂武王	-10.9815
惟敬	-10.9815
下愚	-10.9819
之所自	-10.9824
州治	-10.9827
如漢	-10.9827
南宫	-10.9827
中興	-10.9828
此節	-10.983
汎	-10.983
行其所無事	-10.983
順從	-10.9832
嶓	-10.9834
翔	-10.9835
六府三事	-10.9837
翁	-10.9838
乾坤	-10.9838
奢侈	-10.9838
助祭	-10.9841
這箇	-10.9841
多有	-10.9843
嵩髙	-10.9845
也文王	-10.9845
喜怒	-10.9849
是爲	-10.9849
不專	-10.9852
而先	-10.9854
所可	-10.9855
伏生書	-10.9855
大綱	-10.9855
遂謂	-10.9858
陷於	-10.9861
君天下	-10.9861
漢唐	-10.9864
而何	-10.9865
不能敬	-10.9866
汝往	-10.9879
賢否	-10.988
天休	-10.9881
霍山	-10.9882
民居	-10.9882
國子	-10.9883
成王周公	-10.9883
連屬	-10.9885
元孫	-10.9889
以金	-10.9891
八寸	-10.9893
戒懼	-10.9894
師法	-10.9895
湯崩	-10.9899
以助	-10.9905
妻子	-10.9906
刑戮	-10.9913
名之曰	-10.9915
水性	-10.9916
日出	-10.992
翼日	-10.9921
舉之	-10.9922
愛君	-10.9924
鴻溝	-10.9927
九成	-10.993
胙	-10.993
楛	-10.993
瀕	-10.9931
閣	-10.9935
噫	-10.9935
唱	-10.9935
筵	-10.9936
逼	-10.9936
六典	-10.9936
嬪	-10.9937
駁	-10.9937
皇輿表	-10.9939
玉食	-10.9941
南條	-10.9943
絕	-10.9944
弃	-10.9945
不救	-10.9952
和則	-10.9953
和平	-10.9956
之所出	-10.996
大中之道	-10.996
郊廟	-10.9961
也昔	-10.9962
每州	-10.9964
爾尚	-10.9964
荆公	-10.9966
間之	-10.9966
其所以為	-10.9971
上宗	-10.9983
叛逆	-10.9989
不離	-11.0001
十二律	-11.0002
敷言	-11.0004
思念	-11.0011
妾	-11.0012
可推	-11.0012
東注	-11.0014
望其	-11.0015
而興	-11.0018
烝民	-11.0019
命我	-11.0023
非可	-11.0023
妹	-11.0026
誠有	-11.0026
地利	-11.0028
瀦	-11.0029
粟米	-11.003
壑	-11.0032
香	-11.0032
低	-11.0032
堂下之樂	-11.0032
捍	-11.0033
滎波	-11.0034
状	-11.0035
固非	-11.0035
為司徒	-11.0035
安矣	-11.0035
其效	-11.0036
灉沮	-11.0036
有才	-11.0036
漁	-11.0037
揭	-11.0038
孥戮	-11.0041
而已哉	-11.0042
勗	-11.0043
相宅	-11.0043
乙丑	-11.0048
為角	-11.0048
也先儒	-11.0054
救民	-11.0055
勞苦	-11.0058
肉刑	-11.0062
怨咨	-11.0066
貢物	-11.0073
權衡	-11.0073
終日	-11.0076
岳州	-11.0076
兾州	-11.008
然後可	-11.0081
之别名	-11.0082
白水	-11.0084
甚於	-11.0084
歴試	-11.0084
逆命	-11.0086
吾身	-11.0086
曰吁	-11.0089
為羽	-11.0089
有容	-11.0089
與紂	-11.0091
厚生	-11.0092
格天	-11.0092
逆天	-11.0097
不審	-11.0101
留後	-11.0101
乎若	-11.0102
第二十	-11.0102
將有	-11.0104
咎徴	-11.0107
春秋傳	-11.0108
祥刑	-11.011
小罪	-11.011
土圭	-11.0118
皇甫謐	-11.012
東井	-11.012
之下流	-11.0122
猶且	-11.0124
之管	-11.0125
祖已	-11.0125
泰誓三篇	-11.0126
惟兹	-11.0128
也歟	-11.013
食者	-11.0131
輔成	-11.0131
吳氏	-11.0131
蒙山	-11.0134
潼	-11.0135
林鍾	-11.0137
塘	-11.0138
嚌	-11.0139
肈	-11.014
屑	-11.0141
魯侯	-11.0142
▁陳氏大猷曰	-11.0142
蓍龜	-11.0145
狠	-11.0147
施于	-11.0149
盥	-11.0149
岱宗	-11.0149
休戚	-11.015
夏后氏	-11.015
三澨	-11.0156
夏氏	-11.0157
廣平	-11.0158
敬事	-11.0159
明君	-11.0159
殷本紀	-11.0162
逹于	-11.0167
沖子	-11.0172
仲冬	-11.0179
不爲	-11.0181
其輕重	-11.0182
何謂	-11.0184
所犯	-11.0184
為君之道	-11.0189
無偏	-11.019
人物	-11.019
爲惡	-11.0194
而歸之	-11.0202
奉行	-11.0202
上之人	-11.0203
申之	-11.0207
哉蓋	-11.0208
不取	-11.0209
不雜	-11.0209
其類	-11.0215
六臣	-11.0216
本心	-11.0216
雍州之	-11.0217
方可	-11.0217
夷則	-11.0219
斯民之	-11.0219
河朔	-11.0219
手足	-11.0219
弟子	-11.0221
推本	-11.0225
為證	-11.0225
卷二	-11.0226
先世	-11.0233
故欲	-11.0234
流放	-11.0236
天所以	-11.0236
莒	-11.0236
在北	-11.0239
砥	-11.024
號曰	-11.0241
懈	-11.0241
升聞	-11.0242
梗	-11.0242
碎	-11.0243
於朝	-11.0244
我聞	-11.0244
汚	-11.0244
彭城	-11.0245
廩	-11.0245
宛	-11.0246
探	-11.0246
裂	-11.0247
㳂	-11.0248
鄧	-11.0248
在河北	-11.0249
書中	-11.0249
五福六極	-11.025
軒	-11.0251
妲己	-11.0252
作民父母	-11.0253
勇智	-11.0254
河之南	-11.0254
?	-11.0255
底績	-11.0255
具區	-11.0257
又見	-11.0258
厥賦	-11.0259
五氣	-11.026
虢叔	-11.0261
皋陶	-11.0261
南巢	-11.0271
殄滅	-11.0274
咸在	-11.0274
城在今	-11.0276
三十日	-11.0277
司馬遷	-11.028
宜乎	-11.0284
於地	-11.0284
二分	-11.0291
凡言	-11.0292
倣此	-11.0292
以天下為	-11.0293
不詳	-11.0297
實在	-11.0297
尤甚	-11.0297
有虞氏	-11.0301
諸國	-11.0303
公子	-11.0305
安治	-11.0309
不可輕	-11.0309
五遷	-11.0311
定天下	-11.0315
千七百	-11.0317
水經注云	-11.0321
先代	-11.0323
五等之	-11.0323
天下之至	-11.0324
之功也	-11.0325
元良	-11.0326
世變	-11.0327
舊臣	-11.0328
此人	-11.0328
能成	-11.0328
子聲	-11.0331
東過	-11.0332
不存	-11.0336
亦未嘗	-11.0337
推廣	-11.0341
和順	-11.0343
授時	-11.0345
豈容	-11.0346
神祗	-11.0347
渝	-11.0348
坦	-11.0348
騭	-11.035
所謀	-11.035
圜	-11.0351
羑	-11.0351
穽	-11.0353
孥	-11.0353
秦始皇	-11.0353
之數也	-11.0355
南入	-11.0355
秦州	-11.0357
可耕	-11.0358
癸酉	-11.0358
蠢動	-11.0359
不作	-11.0364
億萬	-11.0364
主之	-11.0364
而命之	-11.0365
曽子	-11.0368
為武王	-11.0369
十六年	-11.037
嗇夫	-11.0371
其川	-11.0372
括地志云	-11.0373
之號	-11.0373
告王	-11.0375
而分	-11.0377
尚未	-11.0378
不如是	-11.0381
主于	-11.0381
作乂	-11.0381
終于	-11.0384
也愚按	-11.0389
非敢	-11.039
班氏	-11.0391
可與	-11.0392
之驗	-11.0396
以名篇	-11.0396
同義	-11.0396
盧氏	-11.0402
也此章	-11.0406
倣	-11.0411
正聲	-11.0413
此又言	-11.0418
二千五百	-11.0418
一見	-11.0425
亦不敢	-11.0427
不惠	-11.0428
漢書作	-11.0431
紂既	-11.0439
汝乃	-11.0447
其所為	-11.0447
必由	-11.0448
以成其	-11.045
贅	-11.045
絶句	-11.0451
亡國	-11.0455
拯	-11.0455
雲中	-11.0455
終焉	-11.0457
灌溉	-11.0457
把	-11.0457
燎	-11.0459
括地志	-11.046
聨	-11.046
險阻	-11.0461
十有二月	-11.0462
在冀州	-11.0465
一道	-11.0466
本又作	-11.0468
鼓舞	-11.0469
奠爵	-11.047
其年	-11.0472
林鐘	-11.0478
縱欲	-11.0479
誠意	-11.0483
引此	-11.0487
全數	-11.0492
事畢	-11.0492
孫炎曰	-11.0494
經流	-11.0494
一念之	-11.0496
道里	-11.0497
尊賢	-11.0504
廣運	-11.0506
菏水	-11.0507
彗	-11.0508
凡四	-11.0509
兼之	-11.051
舊說	-11.051
常存	-11.0513
爾多士	-11.0513
昭公	-11.0514
者無非	-11.0515
初生	-11.0516
耳目之	-11.0517
也苟	-11.0517
不堪	-11.0518
千萬	-11.0519
以警	-11.0519
萬一	-11.052
首受	-11.0522
百人	-11.0531
而稱	-11.0531
想見	-11.0532
餘民	-11.0533
一理	-11.0533
對曰	-11.0533
丹陽	-11.0541
雅州	-11.0543
無餘	-11.0547
澶	-11.0547
動而	-11.0548
惟厥	-11.0552
後代	-11.0555
日進	-11.0557
既畢	-11.0557
曾子	-11.056
飫	-11.056
點	-11.0563
命于天	-11.0564
遑	-11.0564
菁茅	-11.0564
闡	-11.0566
赤子	-11.0568
其極	-11.057
厎績	-11.057
氐道	-11.0581
有扈氏	-11.0581
小乙	-11.0583
所共	-11.0586
本性	-11.0587
海中	-11.0588
石磬	-11.0588
人掌	-11.0589
孔云	-11.0594
十二辰	-11.0598
誠心	-11.0598
圖功	-11.0606
未必然	-11.0612
上既	-11.0616
詳審	-11.0616
之念	-11.0625
而治之	-11.0625
非但	-11.0631
徒見	-11.0632
則所謂	-11.0633
月日	-11.0634
王制云	-11.0635
生數	-11.0635
輔君	-11.0637
亦得	-11.0638
聖經	-11.0638
率其	-11.0643
居憂	-11.0644
寛大	-11.0646
徐音	-11.0649
月朔	-11.0649
周語	-11.0651
濼	-11.0653
一江	-11.0653
二事	-11.0659
匭	-11.0664
克敬	-11.0666
從我	-11.0666
勃	-11.0666
廵狩	-11.0667
屠	-11.0667
之類皆	-11.0667
拾	-11.0668
擅	-11.0668
人君所	-11.0669
墻	-11.067
岷嶓	-11.0672
乃敢	-11.0672
駭	-11.0673
幼沖	-11.0674
岀	-11.0675
誑	-11.0675
峯	-11.0675
嫉	-11.0677
孔氏穎逹曰	-11.0677
孳	-11.0678
以来	-11.0679
燮	-11.068
孟子言	-11.0681
壅塞	-11.0681
極矣	-11.0682
祖庚	-11.0682
一周天	-11.0682
暋	-11.0683
趣馬	-11.0683
逆流	-11.0683
扑	-11.0685
平州	-11.0686
順理	-11.0688
此二句	-11.0689
沈潛	-11.0691
在兹	-11.0704
物皆	-11.0706
此特	-11.071
海内	-11.071
九分	-11.0712
達于河	-11.0722
答拜	-11.0726
天子諸侯	-11.0731
僉	-11.0734
大邦	-11.0734
方岳	-11.0735
本意	-11.0735
源委	-11.0736
不許	-11.0739
教訓	-11.0739
其祖	-11.074
王制曰	-11.0741
生物	-11.0743
君德	-11.0743
祭告	-11.0745
此一節書	-11.0746
人君當	-11.0749
漢時	-11.0749
建國	-11.075
不可為	-11.0751
與此同	-11.0752
學古	-11.0754
衆國	-11.0755
一德	-11.0756
無知	-11.0768
杶	-11.0769
有無窮之	-11.077
漢初	-11.077
平康	-11.0772
德義	-11.0773
穎達	-11.0773
三危山	-11.0774
值	-11.0774
為貴	-11.0776
三紀	-11.0777
憾	-11.0777
聊	-11.0779
折而東	-11.078
鳥鼠同穴	-11.0781
安汝止	-11.0781
頂	-11.0782
崤	-11.0782
兵刑	-11.0784
弭	-11.0785
荘	-11.0786
促	-11.0788
惻	-11.0788
經綸	-11.079
綬	-11.0791
命之曰	-11.0791
千五百里	-11.0791
既立	-11.0791
朝臣	-11.0794
顔色	-11.0794
洛出	-11.0794
唐孔	-11.0798
殺武庚	-11.0802
水去	-11.0803
師長	-11.0804
是人	-11.0806
二十三	-11.081
用酒	-11.0811
必不能	-11.0812
丞	-11.0818
錫禹	-11.0819
六寸	-11.0819
易曉	-11.0822
厥田	-11.0824
東坡曰	-11.0827
與天合	-11.0829
有窮	-11.083
衆多	-11.0834
討罪	-11.0835
聞見	-11.0837
艱大	-11.0838
東光	-11.0839
大惡	-11.0839
大猷	-11.0841
一百二十里	-11.085
不同故	-11.0852
今案	-11.0855
敬致	-11.0856
昏迷	-11.0858
明威	-11.086
作室	-11.0863
而言之也	-11.0867
東河	-11.0869
七八	-11.087
世世	-11.087
雖不同	-11.0871
句讀	-11.0873
不可違	-11.0874
奔告	-11.0877
髙山	-11.0879
嵩	-11.088
平時	-11.0881
淸	-11.0884
溢為滎	-11.0885
訓誥	-11.0886
叶	-11.0889
詩言	-11.089
綂	-11.089
桂	-11.089
金氏	-11.0892
醇	-11.0892
巨室	-11.0893
塗泥	-11.0894
瓜	-11.0894
尺二寸	-11.0895
稻	-11.0895
枲	-11.0896
朽	-11.0897
等語	-11.0897
降威	-11.0899
不可考	-11.09
翳	-11.09
公卿大夫	-11.0901
淫泆	-11.0902
二里	-11.0902
記載	-11.0905
以别	-11.0905
勿替	-11.0906
偽書	-11.0907
集大命	-11.0908
也以其	-11.0909
淫朋	-11.0909
休徴	-11.0916
師古	-11.0917
任官	-11.092
少師	-11.0921
列反	-11.0922
武王時	-11.0927
徳化	-11.0928
予奪	-11.0928
世子	-11.093
與上文	-11.0931
九水	-11.0933
𫝊曰	-11.0936
塗山	-11.0937
眷命	-11.0937
𤼵明	-11.0937
曹州	-11.0938
其私	-11.0942
古註	-11.0942
天地之中	-11.0947
二說	-11.0951
所依	-11.0956
永平	-11.0956
爾等	-11.0957
總結	-11.0958
我后	-11.0965
可否	-11.0966
營洛邑	-11.0971
胄	-11.0975
簡編	-11.0977
也鄭玄云	-11.0977
有事於	-11.0983
耀	-11.0988
可據	-11.099
耽	-11.0992
其有不	-11.0992
並同	-11.0992
矣故曰	-11.0994
河西	-11.0996
地形	-11.0996
鵠	-11.0996
沱水	-11.0997
参	-11.0997
砮	-11.0998
一州之	-11.0999
二渠	-11.0999
腥	-11.1
公羊傳	-11.1
否曰	-11.1001
任土作貢	-11.1003
髪	-11.1003
譏	-11.1005
影響	-11.1005
燥	-11.1005
些	-11.1005
矩	-11.1006
施行	-11.1006
鳥䑕	-11.1008
導岍	-11.1008
深知	-11.1009
暮	-11.1015
所當為	-11.1016
渡孟津	-11.1016
僭差	-11.1018
日月所㑹	-11.1019
殷禮	-11.102
幄帳	-11.1022
諸侯之長	-11.1025
照臨	-11.1025
郊社	-11.1026
為界	-11.1026
嗟歎	-11.1029
不赦	-11.103
一丈	-11.1031
五代	-11.1034
不可使	-11.1038
孫氏曰	-11.1039
經籍	-11.104
考翼	-11.104
任事	-11.104
五品	-11.1042
耳若	-11.1044
爾衆士	-11.1045
常刑	-11.1045
厥心	-11.1047
使不得	-11.105
尚存	-11.1054
而不忘	-11.1058
之明年	-11.1059
有所歸	-11.1059
加於	-11.106
許氏	-11.1061
開明	-11.1071
三年不言	-11.1073
毛公	-11.1078
去就	-11.1078
百神	-11.1078
所存	-11.108
卜吉	-11.1086
十餘年	-11.1089
順道	-11.109
縣故城	-11.1094
矣又曰	-11.1097
海水	-11.1098
董氏	-11.11
水入焉	-11.1101
功徳	-11.1106
伯益	-11.1106
葉榆	-11.1112
已久	-11.1113
革命	-11.1114
不悛	-11.1117
小物	-11.1117
虗	-11.1121
䖏	-11.1122
彛倫	-11.1122
嚚	-11.1124
厥終	-11.1125
蠡	-11.1126
涔	-11.1127
綴衣虎賁	-11.113
無過不及	-11.113
鄠縣	-11.1131
審矣	-11.1131
禄父	-11.1133
擇人	-11.1135
之書也	-11.1136
不移	-11.1136
金木	-11.1139
居上	-11.1144
有商	-11.1144
商紂	-11.1144
晦朔	-11.1148
西境	-11.1149
井田	-11.115
家語	-11.115
之可畏	-11.1152
不悟	-11.1154
凡事	-11.1154
周旋	-11.1156
古字	-11.1157
考證	-11.1165
歎美	-11.1168
味别	-11.1168
作書者	-11.1176
監殷	-11.1178
三考	-11.1179
往新邑	-11.1182
語意	-11.1185
武徳	-11.119
矣又按	-11.1192
未立	-11.1194
莫敢	-11.1196
商俗	-11.1198
末年	-11.1201
降災	-11.1203
隋志	-11.1207
郭璞曰	-11.1213
南行	-11.1215
肆其	-11.1221
琅玕	-11.1222
祕	-11.1226
驟	-11.1228
已下	-11.1229
不循	-11.123
蕤賔	-11.1232
小事	-11.1233
泗沂	-11.1234
鋒	-11.1234
祭地	-11.1234
姬	-11.1234
如彼	-11.1236
潯陽	-11.1237
而知之	-11.1237
不知所	-11.1238
巫蠱	-11.1239
吉服	-11.1239
兢兢	-11.124
國事	-11.124
蘇氏軾曰	-11.124
胤	-11.1245
春官	-11.1246
亮隂	-11.1254
春秋傳曰	-11.1256
以入海	-11.1257
能致	-11.1257
之基業	-11.1262
渾天	-11.127
禹平水土	-11.127
綱紀	-11.1274
忠臣	-11.1274
下士	-11.1274
繫辭	-11.1274
吉康	-11.1284
漢文帝	-11.1286
迪知	-11.1288
既平	-11.1289
震動	-11.1294
公羊	-11.1296
其大者	-11.1297
五載	-11.1298
土性	-11.1299
能受	-11.13
江北	-11.1303
四川	-11.1305
旻天	-11.1306
之貌	-11.1307
治河	-11.1311
篇終	-11.1312
危亡	-11.1312
豈惟	-11.1316
周禮大	-11.1317
孔君	-11.132
諸侯來朝	-11.1322
成王之命	-11.1324
形如	-11.1326
居延	-11.1333
不敢輕	-11.1333
有限	-11.1334
所繫	-11.1338
已上	-11.1339
隨時	-11.1339
金石	-11.1342
敬勞	-11.1342
勃海	-11.1343
餉	-11.1345
晢	-11.1345
戛擊	-11.1348
諄	-11.1349
嘉靖	-11.1349
廓	-11.135
浮磬	-11.1351
夸	-11.1351
汝若	-11.1352
故不言	-11.1353
懦	-11.1356
餞	-11.1356
耦	-11.1356
二水名	-11.1356
駿	-11.1358
林氏之奇曰	-11.1359
犀	-11.136
二十八年	-11.1363
其色	-11.1364
雍梁	-11.1365
衣裳	-11.1365
癸巳	-11.1368
華陽	-11.1368
學官	-11.1369
所職	-11.1376
相生	-11.1376
允信	-11.1376
哲人	-11.138
淺深	-11.138
愼罰	-11.138
碣石在	-11.1385
沔陽	-11.1385
上洛縣	-11.1386
七百里	-11.1388
政典	-11.139
許商	-11.1394
孝恭	-11.1396
試舜	-11.1398
至於此	-11.14
灼然	-11.1403
列國	-11.1403
隋唐	-11.1404
衛侯	-11.1405
不能用	-11.1406
法制	-11.1407
其下流	-11.1407
馬融云	-11.1409
至此則	-11.1412
餘分	-11.1413
廟門	-11.1413
深逺	-11.1414
不見其	-11.1415
數千里	-11.1418
師古曰	-11.1418
樂安	-11.1419
主災	-11.1421
罔念	-11.1421
周道	-11.1425
于上帝	-11.1426
於廟	-11.1426
所舉	-11.1427
勉其	-11.1427
呂氏	-11.1428
加之以	-11.1432
哉夫	-11.1432
不敢忽	-11.1433
不可掩	-11.1437
子産	-11.1437
罔非	-11.1442
觀之則	-11.1446
太和	-11.1449
生焉	-11.145
支流	-11.145
庶子	-11.145
淄水	-11.1456
麥	-11.1458
愛敬	-11.1462
便有	-11.1463
馨	-11.1465
壹	-11.1465
安可	-11.1466
畎澮	-11.1466
服食器用	-11.1468
緘	-11.1468
扶持	-11.1469
滄浪	-11.1469
血流漂杵	-11.1469
霖雨	-11.1469
園	-11.1469
不忠	-11.147
黼黻	-11.1471
渴	-11.1472
𥘉	-11.1472
蠲	-11.1472
抗	-11.1473
得賢	-11.1474
恆	-11.1475
甲寅	-11.1481
臣扈	-11.1483
威虐	-11.1484
都尉	-11.1485
不覺	-11.1488
在昔	-11.1489
幻	-11.149
警之	-11.149
思永	-11.1491
觀政	-11.1493
讒説	-11.1494
禪位	-11.1494
春夏	-11.1494
猶存	-11.1498
家人	-11.15
江海	-11.1503
命君陳	-11.1511
衆庶	-11.1515
三龜	-11.1517
蝕	-11.1518
自知	-11.1518
元帝	-11.1523
作冊	-11.1524
三千里	-11.1529
對揚	-11.1531
河之北	-11.1533
以入于海	-11.1534
成法	-11.1534
般	-11.1534
南流至	-11.1538
宗彝	-11.1539
又名	-11.1539
▁林氏曰	-11.1542
告天	-11.1542
錦	-11.1546
紂惡	-11.1546
西廂	-11.1546
西階	-11.1547
全體	-11.1555
一律	-11.1555
必亡	-11.1556
何自而	-11.1558
子思	-11.1559
自足	-11.156
圖書	-11.1562
宗祀	-11.1569
合朔	-11.1569
高祖	-11.157
三亳	-11.1571
三十二	-11.1572
又次之	-11.1573
厯家	-11.1575
不可通	-11.1578
初一	-11.1579
濡	-11.1579
縂	-11.158
孔傳云	-11.158
伊尹之言	-11.1581
乞	-11.1584
門外	-11.1585
勒	-11.1585
㧞	-11.1589
厥邦	-11.159
郢	-11.1592
孝子	-11.1592
上上錯	-11.1593
蘖	-11.1595
星鳥	-11.1595
九百四十分日之	-11.1596
玉輅	-11.1596
猾	-11.1598
雩	-11.1598
羲仲	-11.1598
東入海	-11.1598
曽孫	-11.1599
羽毛	-11.16
恐非	-11.1602
下雋	-11.1603
濁漳	-11.1603
日月星	-11.1606
許慎	-11.1607
即位之初	-11.1608
須當	-11.1608
富平	-11.1609
女子	-11.161
作偽	-11.1612
庶事	-11.1613
童子	-11.1615
必至於	-11.1615
四裔	-11.1616
會同	-11.1617
何時	-11.1618
崇徳	-11.1624
必將	-11.1625
可行	-11.1627
兩山	-11.1627
惟終	-11.1632
人之道	-11.1632
改悔	-11.1634
誠能	-11.1634
守成	-11.1635
當有以	-11.1636
二十六	-11.1644
其何以	-11.1653
無害	-11.1662
黎水	-11.1663
臣服	-11.1663
殷周	-11.1664
什	-11.167
之舞	-11.1673
湯之心	-11.1677
遂以為	-11.1677
舜命	-11.1678
叛亂	-11.168
俱是	-11.1681
忘其	-11.1683
節氣	-11.1683
在縣西	-11.1687
冬官	-11.1691
天禄	-11.1692
亦稱	-11.1693
鄭元	-11.1695
者何也	-11.1696
伋	-11.17
王位	-11.1701
偕	-11.1704
轍	-11.1704
巻	-11.1706
墉	-11.1707
麻冕	-11.1708
康誥酒誥梓材	-11.1709
公侯伯子男	-11.1709
慎徽五典	-11.171
鄒季友曰	-11.171
格于皇天	-11.171
狩	-11.1711
翰	-11.1711
耻	-11.1712
得其正	-11.1712
欣	-11.1712
全在	-11.1712
涿	-11.1713
練	-11.1714
瑟	-11.1715
淮夷徐戎	-11.1715
浮於	-11.1716
圻父	-11.1716
律厯志	-11.1718
天吏	-11.1719
風聲	-11.172
宏父	-11.1721
寡兄	-11.1721
公孫	-11.1724
其兆	-11.173
南向	-11.1731
能勤	-11.1734
討有罪	-11.1742
前功	-11.1742
生死	-11.1745
太僕正	-11.1746
王宫	-11.1749
通典云	-11.1753
也孔子曰	-11.1755
州境	-11.1755
孰不	-11.1756
有恒	-11.1759
安得有	-11.176
山海經曰	-11.1761
此說是也	-11.1761
陸行	-11.1762
禹之所	-11.1763
留召公	-11.1764
象恭	-11.1766
㒺不	-11.1766
象天	-11.1766
亳姑	-11.1782
大猷曰	-11.1783
武陵	-11.1785
尋常	-11.1791
經歴	-11.1791
相望	-11.1792
一五行	-11.1794
貫通	-11.1798
告成	-11.1798
書説	-11.18
先定	-11.1805
虐民	-11.1807
告卜	-11.1819
上云	-11.1821
栝	-11.1822
柷敔	-11.1822
蹈行	-11.1823
迨	-11.1823
詭	-11.1825
不可以為	-11.1825
叢脞	-11.1826
以禮制心	-11.1829
浚儀	-11.1829
擭	-11.183
隳	-11.1831
皇祖	-11.1832
慿	-11.1832
伺	-11.1832
不犯	-11.1832
吉人	-11.1832
毫髪	-11.1833
隮	-11.1833
鶉火	-11.1833
活	-11.1834
淮浦	-11.1834
愁	-11.1835
名山大川	-11.1837
君子小人	-11.1838
惟其人	-11.1839
秬	-11.1839
幕	-11.184
賢俊	-11.184
卽位	-11.184
文武成康	-11.1842
仲吕	-11.1843
唐太宗	-11.1843
后羿	-11.1843
類于上帝	-11.1843
銜	-11.1844
於魯	-11.1845
丁巳	-11.1846
而不自知	-11.1849
十有三年	-11.1851
横渠	-11.1851
天下諸侯	-11.1851
汝君	-11.1851
上中下	-11.1851
之過也	-11.1854
立法	-11.1855
參差	-11.1857
千乘	-11.1858
敎民	-11.1861
叔向	-11.1862
古注	-11.1864
身修	-11.1864
殛之	-11.1865
事勢	-11.187
非常之	-11.1871
短長	-11.1874
前寧人	-11.1875
度量	-11.1875
嗟嘆	-11.1883
章句	-11.1884
在我者	-11.1885
老子	-11.1886
餘里	-11.1888
二孔	-11.1893
小邦	-11.1895
黄氏	-11.1899
譬之	-11.1903
意思	-11.1913
相背	-11.1914
民獻	-11.1919
孔氏以為	-11.192
既能	-11.1926
犯法	-11.193
終篇	-11.1932
東江	-11.1933
逹於	-11.1934
大要	-11.1936
經理	-11.1938
𠂻	-11.1942
涪	-11.1943
永年	-11.1943
西旅	-11.1944
楨榦	-11.1944
盡其心	-11.1945
執中	-11.1946
亦不得	-11.1946
孔子所	-11.1948
昧爽	-11.1952
疊	-11.1953
賡歌	-11.1954
棐忱	-11.1955
圭璧	-11.1956
示人	-11.1958
側陋	-11.1958
郊特牲	-11.1958
陑	-11.196
三宅三俊	-11.1961
宅心	-11.1961
收斂	-11.1964
羣僕	-11.1964
鴟	-11.1965
瘠	-11.1967
衆人之	-11.1967
念我	-11.1968
不止於	-11.1968
命官	-11.1968
諸侯之國	-11.1969
金縢之書	-11.1969
盛大	-11.1969
萬民之	-11.1975
簡核	-11.1976
曆	-11.1976
化育	-11.1978
所守	-11.1983
耕作	-11.1985
州西南	-11.1985
三尺	-11.1985
夏時	-11.1989
不迷	-11.1991
難得	-11.1992
而下皆	-11.1994
無自而	-11.1994
兵車	-11.2
之所行	-11.2001
二者皆	-11.2002
湯既	-11.201
伐淮夷	-11.2012
民怨	-11.2015
互文	-11.2015
亦不必	-11.2015
何待	-11.202
百司	-11.2024
治國	-11.2027
百四十里	-11.203
平平	-11.2033
簡易	-11.2033
從康	-11.2038
承王命	-11.2044
永世	-11.2048
自責	-11.2057
川澤	-11.2061
謹罰	-11.2062
邪正	-11.2068
二章	-11.2069
凡七	-11.207
菁	-11.207
鋭	-11.2071
詁	-11.2072
荷	-11.2072
舉舜	-11.2073
賢材	-11.2073
祖宗之	-11.2074
漠	-11.2075
罕	-11.2075
菴	-11.2076
河亶甲	-11.2076
齡	-11.2076
狃	-11.2077
貴於	-11.2077
啇	-11.2078
圭瓉	-11.2078
郤	-11.2079
敎化	-11.2079
壺	-11.2079
逖	-11.208
乍	-11.208
繫於	-11.208
纊	-11.2081
疑周公	-11.2081
浩浩	-11.2085
矣况	-11.2087
荒野	-11.2093
休祥	-11.2094
最大	-11.2094
相率而	-11.2095
行天罰	-11.2099
無失	-11.2099
玉磬	-11.21
方始	-11.2106
西安府	-11.2106
區處	-11.2107
九牧	-11.2116
成憲	-11.212
日夜	-11.213
憐	-11.2134
咸寧	-11.2135
皇極之道	-11.2142
聽我	-11.2143
兩句	-11.2145
者皆是	-11.2149
既修	-11.2151
降下	-11.2153
允徳	-11.2154
之用也	-11.2158
説文云	-11.2159
湘水	-11.2159
於洛邑	-11.2166
天工	-11.2166
公孤	-11.2167
三門	-11.2169
自然之理	-11.2171
無怨	-11.2175
好德	-11.2177
夏禹	-11.2182
之中星	-11.2184
訓告	-11.2184
並列	-11.2185
斷絶	-11.2189
春秋時	-11.219
齊侯	-11.2191
又北逕	-11.2191
等篇	-11.2194
鉅	-11.2196
廡	-11.2197
板	-11.2198
界中	-11.2199
有先後	-11.2199
填	-11.2201
麤	-11.2202
檿絲	-11.2202
叟	-11.2202
為君者	-11.2203
以義制事	-11.2204
无	-11.2205
司徒司馬司空	-11.2205
垢	-11.2206
秦穆公	-11.2206
知小人之依	-11.2206
迤邐	-11.2206
蔡邕	-11.2207
盪	-11.2207
粉	-11.2208
縣故城北	-11.2209
仆	-11.2209
遷殷頑民	-11.2209
畱	-11.221
黜殷	-11.221
黄氏度曰	-11.2211
荅拜	-11.2211
而與之	-11.2213
官府	-11.2215
敎誨	-11.2217
譴告	-11.2217
明堂位	-11.2217
臻	-11.2219
瀘	-11.2223
相揖	-11.2224
河南府	-11.2224
天象	-11.2227
七十五	-11.2228
犍為	-11.223
近代	-11.2234
承上文	-11.2239
傷人	-11.2245
視聴	-11.2247
南康	-11.2249
亦可謂	-11.2251
至于帝乙	-11.2258
下土	-11.2261
安其居	-11.2263
疾病	-11.2266
居喪	-11.2271
西夾	-11.2272
定四年	-11.2273
矣然則	-11.2275
陽鳥	-11.2275
郡治	-11.2275
晉侯	-11.2276
樂記	-11.2276
修德	-11.2279
弗順	-11.2282
永終	-11.2287
陽縣西北	-11.2288
者此也	-11.2289
尚何	-11.2289
廣陵	-11.2295
林少頴	-11.2297
四載	-11.2298
職分	-11.2303
告諸侯	-11.2304
者莫如	-11.2305
曷不	-11.231
出納	-11.2312
總名	-11.2312
龍門山	-11.2314
禹導	-11.2324
鄖	-11.2326
慚	-11.2328
用命	-11.2328
騰	-11.2329
定公	-11.233
黥	-11.2331
大司樂	-11.2333
劣	-11.2334
詈	-11.2334
虎蜼	-11.2335
側階	-11.2336
窒	-11.2337
蕪湖	-11.2337
製	-11.2338
敬之哉	-11.2338
雁	-11.2342
聽命	-11.2344
奎	-11.2344
閎夭	-11.2345
也是故	-11.2346
周公之意	-11.2346
木鐸	-11.2347
太傅	-11.2351
建丑	-11.2351
感神	-11.2354
貨利	-11.2355
改正朔	-11.2356
天文志	-11.2361
北岸	-11.2366
宣布	-11.237
夫豈	-11.2371
哉生魄	-11.2373
感召	-11.2375
偽泰誓	-11.2377
艱食	-11.2377
怠忽	-11.2383
白馬	-11.2387
貞觀	-11.2391
之水皆	-11.2395
有此理	-11.2396
共爲	-11.2396
非一人	-11.2398
文選	-11.2398
我之所以	-11.2399
之所自出	-11.2405
三苗之	-11.2406
享上	-11.2409
慎徳	-11.241
旅祭	-11.2411
絶逺	-11.2426
敷求	-11.2427
言此者	-11.2428
五敎	-11.243
盧氏縣	-11.2431
亦不過	-11.244
鬱陶	-11.244
孔氏云	-11.2448
流逕	-11.2449
二物	-11.2452
致辟	-11.2454
蒸	-11.2454
蘆	-11.2454
相助	-11.2456
棘	-11.2459
豈獨	-11.246
斟酌	-11.2462
嬴	-11.2462
詛	-11.2462
額	-11.2462
㦸	-11.2462
捕	-11.2462
護	-11.2463
搏	-11.2464
芻	-11.2464
肥瘠	-11.2464
諶	-11.2464
添	-11.2465
殂落	-11.2465
脉絡	-11.2465
蒐	-11.2466
擊刺	-11.2467
凛	-11.2467
帝王世紀	-11.2468
何足	-11.2469
舅	-11.2469
脱簡	-11.2472
桃林	-11.2472
通鑑	-11.2473
愍	-11.2473
賔客	-11.2475
周易	-11.2476
申戒	-11.2478
此四人	-11.2482
厥貢	-11.2483
純佑	-11.2483
韶樂	-11.2483
並行	-11.2487
田獵	-11.249
天秩	-11.249
所感	-11.2494
羌中	-11.2495
逺邇	-11.2496
齊家	-11.25
晚出	-11.2502
炎帝	-11.2503
養老	-11.2506
顧氏云	-11.2506
保釐	-11.2508
舊服	-11.251
冊命	-11.2513
羣神	-11.2514
輕刑	-11.252
衆官	-11.252
農父	-11.252
不徒	-11.2521
亂治也	-11.2521
歌詠	-11.2522
為南江	-11.2527
能容	-11.253
旁求	-11.2535
民之所以	-11.2538
明著	-11.2539
自强	-11.2541
天佑	-11.2549
一叚	-11.2559
導弱水	-11.2559
正救	-11.2562
天子之位	-11.2562
五者之	-11.2563
理之所	-11.2565
四十八	-11.2567
愼厥	-11.257
黔	-11.2572
武陽	-11.2578
䇿書	-11.2578
道元	-11.2582
綦	-11.2585
不靜	-11.2586
瓦	-11.2587
去惡	-11.2587
也傳言	-11.2589
碑	-11.259
祭服	-11.259
潦	-11.2591
其禍	-11.2594
蕩析離居	-11.2595
様	-11.2595
倘	-11.2596
渭洛	-11.2597
件	-11.2597
廻	-11.2598
尚書注疏卷	-11.2599
孔氏頴達曰	-11.2599
肄	-11.26
住	-11.26
柴望	-11.2601
灾	-11.2601
刑人殺人	-11.2602
注同	-11.2602
左右前後	-11.2605
漢孔氏謂	-11.2606
歷年	-11.2607
昧谷	-11.2609
不可以無	-11.261
商先王	-11.2612
同惡	-11.2614
緩急	-11.2616
趨於	-11.2616
曷為	-11.2617
誅戮	-11.2617
此一句	-11.262
斯人	-11.2621
憂民之	-11.2624
腹心	-11.2624
寧人	-11.2625
立功	-11.2625
財賦	-11.2625
登庸	-11.2626
也若夫	-11.2627
敷奏	-11.2628
在縣南	-11.2632
西土之人	-11.2633
可證	-11.2634
長乆	-11.2634
厯法	-11.2638
人道	-11.2647
不在於	-11.265
聖學	-11.265
錫貢	-11.2651
死刑	-11.2651
嗣子	-11.2654
水經云	-11.2657
無敢不	-11.2657
諸夏	-11.2659
論道	-11.2663
洚	-11.2664
昭著	-11.2665
倫理	-11.2666
果斷	-11.2666
仁愛	-11.2666
一統	-11.2667
和協	-11.2668
有成命	-11.267
良臣	-11.2671
憸	-11.2678
人紀	-11.2681
玩物	-11.2681
竹簡	-11.2681
順帝	-11.2686
而不知其	-11.2686
輔助	-11.2686
厥后	-11.269
五岳	-11.2691
衆賢	-11.2692
卷四	-11.2702
獄訟	-11.2706
天地萬物	-11.2709
虞度	-11.2714
芻茭	-11.2716
淇	-11.2717
罰殛	-11.2717
久逺	-11.2719
禹貢錐指	-11.2719
寖	-11.2722
柘	-11.2722
特舉	-11.2722
標準	-11.2723
相貫	-11.2724
弼成五服	-11.2724
員	-11.2725
次敘	-11.2726
敔	-11.2728
氣節	-11.2728
盡力	-11.2729
張霸	-11.2729
乂民	-11.273
蘇軾	-11.273
𣲖	-11.273
帝甲	-11.273
殁	-11.273
卿士師尹	-11.273
億兆	-11.2731
治梁及岐	-11.2733
寐	-11.2733
覃懷	-11.2734
儼	-11.2734
沈溺	-11.2737
分為三	-11.2737
咎徵	-11.2737
劫	-11.2737
殛鯀	-11.2738
自今以往	-11.2738
舊典	-11.2741
忿疾	-11.2741
電	-11.2742
田畝	-11.2743
期于	-11.2743
赤刀	-11.2746
夏翟	-11.2752
于其間	-11.2753
青衣	-11.2755
仲夏	-11.276
書契	-11.2761
戎夷	-11.2764
聽聞	-11.2765
最難	-11.2766
可願	-11.277
史記云	-11.2773
河東郡	-11.2774
考古	-11.2775
荆岐	-11.2777
武昌	-11.2779
之意蓋	-11.2779
南嚮	-11.2783
四列	-11.2793
灉水	-11.2794
相協	-11.2804
千二百	-11.2809
并州	-11.2813
若順也	-11.2815
别出	-11.2818
無一不	-11.2819
六鄉	-11.282
楊氏	-11.2824
後嗣王	-11.2827
誠實	-11.2828
厥官	-11.2829
滔	-11.2832
懋徳	-11.2836
礫	-11.2838
君之所	-11.2841
復還	-11.2846
難通	-11.2851
獵	-11.2851
黄鐘之	-11.2855
新進	-11.2856
朝夕納誨	-11.2857
九歌	-11.2858
慘	-11.2858
坑	-11.2858
戞	-11.2859
魂	-11.2859
南岳	-11.2861
壚	-11.2861
錫土姓	-11.2861
陸渾	-11.2862
囘	-11.2862
凶短折	-11.2862
减	-11.2862
扇	-11.2863
未知孰是	-11.2863
尚書全解卷	-11.2865
佳	-11.2867
秋冬	-11.2868
鬱鬯	-11.2869
境内	-11.2869
禹曰俞	-11.287
榭	-11.2871
藉口	-11.2873
東西南北	-11.2873
劼毖	-11.2873
日景	-11.2873
貞悔	-11.2874
宗社	-11.2875
鳯凰	-11.2876
臨淮	-11.2877
中大夫	-11.2878
俊徳	-11.288
典籍	-11.2883
罔覺	-11.2884
甲乙	-11.2884
庶績	-11.2884
其實一也	-11.2888
親九族	-11.2889
美玉	-11.289
陽武	-11.2891
再成	-11.2895
仲秋	-11.2896
氣盈	-11.2896
政敎	-11.2902
周本紀	-11.2905
晉人	-11.2908
錫福	-11.2909
清廟	-11.2912
脅從	-11.2912
元和	-11.2912
溝洫志	-11.2914
不可失	-11.2917
刑之中	-11.2918
灼見	-11.2922
任重	-11.2924
殷多士	-11.2927
西京	-11.2929
顔子	-11.2931
新造	-11.2934
助我	-11.2939
所以紀	-11.294
殷紂	-11.2946
周公君陳	-11.2948
伯禹	-11.295
至于豐	-11.2951
常度	-11.2952
論語云	-11.2958
輔成王	-11.2959
其故道	-11.2959
千五百	-11.2959
誥毖	-11.2964
王屋山	-11.2965
爾邑	-11.2966
邦家	-11.2976
不悦	-11.2979
所藏	-11.2987
大衍	-11.2988
撓	-11.2993
近臣	-11.2993
勞來	-11.2993
挽	-11.2996
村	-11.2996
棟	-11.2997
光輝	-11.2997
並興	-11.2998
羡	-11.2998
蛇	-11.2998
不足信	-11.2999
古文書	-11.2999
明徳慎罰	-11.2999
建武	-11.3
歲月日	-11.3
挈	-11.3001
函	-11.3002
湧	-11.3002
胡蘇	-11.3003
逾于河	-11.3003
緝	-11.3003
莊子	-11.3004
陛	-11.3006
應鍾	-11.3007
閎	-11.3009
載籍	-11.3009
此之謂也	-11.301
謨明弼諧	-11.3011
江沱	-11.3012
外丙	-11.3015
吕氏春秋	-11.3015
罔攸	-11.3018
在其中矣	-11.3021
責人	-11.3021
存心	-11.3022
紊亂	-11.3023
尤難	-11.3027
著見	-11.3027
都鄙	-11.303
殷國	-11.3035
制刑	-11.3036
厥躬	-11.3037
其所行	-11.3038
織文	-11.3039
詩序	-11.3041
有德者	-11.3041
治體	-11.3044
三百餘里	-11.3045
于三危	-11.3048
傳顧命	-11.3057
次叙	-11.3059
狀如	-11.3061
于是又	-11.3062
五瑞	-11.3062
忠誠	-11.3066
致太平	-11.3068
周廟	-11.3069
高下	-11.3075
九州之内	-11.3083
斷然	-11.3091
謀慮	-11.3098
深切	-11.3098
嚴道	-11.3098
别流	-11.3098
二語	-11.3099
舜之徳	-11.31
樂陵	-11.3102
商州	-11.3104
東距	-11.3108
粒	-11.3112
違道	-11.3114
所以然者	-11.3117
武帝時	-11.3121
館	-11.3122
二十九	-11.3123
刑獄	-11.3126
圎	-11.3127
觀感	-11.3127
理會	-11.3129
商容	-11.3132
慨	-11.3134
閼	-11.3134
掠	-11.3135
九州攸同	-11.3135
梁國	-11.3138
納誨	-11.3138
騂	-11.3138
修武	-11.3139
眷佑	-11.314
熊羆	-11.314
誇	-11.314
憝	-11.3141
片	-11.3141
傅巖	-11.3141
腥穢	-11.3141
厄	-11.3142
訖于四海	-11.3142
圉	-11.3142
辦	-11.3143
柳	-11.3143
筭	-11.3143
三百六十五度四分度之一	-11.3144
浞	-11.3144
股肱耳目	-11.3144
淑	-11.3145
諷	-11.3145
篠	-11.3146
磬錯	-11.3148
掌六師	-11.3149
柩	-11.3149
殄戮	-11.315
鏤	-11.315
感人	-11.3151
勉勵	-11.3152
海濵	-11.3153
告廟	-11.3153
無斁	-11.3166
雲南	-11.3174
管子	-11.3176
留公	-11.3176
周邦	-11.3186
在縣東	-11.3186
郡國志	-11.3188
長幼	-11.3189
平秩	-11.319
克念	-11.3192
太行山	-11.3195
神后	-11.32
公之功	-11.3201
改月	-11.3203
甚多	-11.3205
平格	-11.3206
小異	-11.3216
自積石	-11.3228
天之聰明	-11.3229
相配	-11.323
良善	-11.323
得其所	-11.3232
縣故城西	-11.3234
不得不然	-11.3235
示天下	-11.325
山一名	-11.3254
無疑矣	-11.3254
生民之	-11.3254
賢能	-11.3259
原山	-11.3264
夾輔	-11.3267
璿	-11.3273
欲康叔	-11.3274
嚳	-11.3275
六官	-11.3275
頴達	-11.3275
終南惇物	-11.3276
導洛自熊耳	-11.3277
恫	-11.3277
昜	-11.3277
絀	-11.3277
凌	-11.3278
蘄	-11.3279
悶	-11.3279
九江孔殷	-11.3279
祫	-11.3279
諺	-11.3279
優劣	-11.328
裴	-11.328
揉	-11.3281
胎	-11.3281
嫁	-11.3281
俘	-11.3282
隘	-11.3283
爕	-11.3284
港	-11.3284
琳	-11.3284
髳	-11.3286
罽	-11.3286
雊雉	-11.3287
侍御僕從	-11.3289
乎其間	-11.329
海岱	-11.3293
晁	-11.3293
陜州	-11.3294
刋木	-11.3295
湯之伐桀	-11.3295
徃徃	-11.3299
甘州	-11.3301
慙徳	-11.3306
清漳	-11.3308
怠荒	-11.3308
寳玉	-11.3311
商頌	-11.3312
蔡蒙	-11.3312
不可一日	-11.3315
告諭	-11.3315
動用非	-11.3315
陟方	-11.332
未備	-11.332
文武受命	-11.3325
朱子謂	-11.3332
又東北過	-11.3335
此其所以為	-11.3336
歸美	-11.3341
取幣	-11.3343
居洛	-11.3343
毛傳	-11.3343
民而民	-11.3345
勿使	-11.3345
正義引	-11.3358
崇山	-11.3372
無傲	-11.3374
千里之外	-11.3375
相表裏	-11.338
説者謂	-11.3388
獄官	-11.339
偶然	-11.3396
曾氏	-11.3397
未足以	-11.3398
李氏曰	-11.3399
命重黎	-11.3405
莊公	-11.3408
上既言	-11.3409
溉	-11.3412
仲叔	-11.3414
尤不可	-11.3418
汗	-11.3418
箘簵	-11.3419
莠	-11.342
胎簪	-11.3421
齊桓公	-11.3421
鬭	-11.3421
陣	-11.3421
器械	-11.3422
謚	-11.3422
滇池	-11.3422
三朡	-11.3424
鴟鴞	-11.3424
索隱	-11.3424
密邇	-11.3424
昩	-11.3425
肝	-11.3425
豈待	-11.3426
杵	-11.3427
華容縣	-11.3427
友邦冢君	-11.3427
帖	-11.3427
罪惡	-11.3428
慄	-11.3429
有闕文	-11.3432
踐履	-11.3432
𦵏	-11.3433
二十二人	-11.3435
為口實	-11.3438
罔愆	-11.3438
休徵	-11.3438
未發	-11.3439
卉服	-11.344
嵗一見	-11.3442
十八里	-11.3442
欽若	-11.3443
年而崩	-11.3445
黜殷命	-11.3447
經典	-11.3451
孝友	-11.3456
千六百	-11.346
釗	-11.3461
條目	-11.3465
惇物	-11.3467
幾微	-11.3469
伊水出	-11.347
靡常	-11.3472
反注同	-11.3473
先後之序	-11.3474
田野	-11.3476
諧和	-11.3476
六尺	-11.3477
上智	-11.3478
不敢違	-11.3482
考工記云	-11.3482
澤藪	-11.3483
徐揚	-11.3483
西南流	-11.3486
究其	-11.3488
西傾山	-11.349
虞氏	-11.3491
初年	-11.3492
伐奄	-11.3498
嶧山	-11.3504
山古文以為	-11.3509
積徳	-11.3514
受封	-11.3515
堅固	-11.3516
殷之命	-11.3519
從違	-11.3521
漢書地理志	-11.3525
無所容	-11.3536
昏亂	-11.3541
平陸	-11.3544
天地鬼神	-11.3549
申重	-11.3553
湎酒	-11.3557
胸	-11.3557
程大昌	-11.3559
頴	-11.3562
橫	-11.3564
樊	-11.3565
慼	-11.3565
坂	-11.3565
搏拊	-11.3565
翻	-11.3565
宻邇	-11.3568
父師少師	-11.3568
一篇之綱領	-11.3568
瓉	-11.3569
閘	-11.3569
贏	-11.3569
森	-11.3569
陳少南	-11.3569
百獸率舞	-11.3569
蔓	-11.357
象以典刑	-11.357
嘆息	-11.357
旌旗	-11.3571
欽明文思	-11.3572
百官族姓	-11.3572
卬	-11.3573
王應麟曰	-11.3573
皇建其有極	-11.3573
史録其	-11.3575
咸秩無文	-11.3575
漸染	-11.3575
好生之徳	-11.3575
丙午	-11.3576
沬	-11.3576
民彝	-11.3577
傅氏	-11.3578
驩兠	-11.3579
湔	-11.3579
水所經	-11.358
牽牛	-11.358
其本心	-11.3581
非汝封	-11.3581
記功	-11.3582
知覺	-11.3583
貨賄	-11.3583
符節	-11.3583
孟諸	-11.3583
誥告	-11.3585
不可恃	-11.3587
無復有	-11.3587
覆冒	-11.3588
惇厚	-11.359
不厭	-11.3593
班志	-11.3597
入震澤	-11.3599
應鐘	-11.3603
牽合	-11.3603
見於經	-11.3603
王庭	-11.3607
餘波	-11.3607
己未	-11.3609
養生	-11.361
豈可不	-11.3612
無愧於	-11.3612
不勝其	-11.3612
黃帝	-11.3617
贖罪	-11.3619
史遷	-11.362
西南夷	-11.3623
士女	-11.3623
忠直	-11.3626
伯爵	-11.3626
神靈	-11.363
髙平	-11.3632
釋文云	-11.3633
廂	-11.3636
明禋	-11.3637
舊迹	-11.3638
沙州	-11.3643
輕忽	-11.3649
馬氏曰	-11.3651
各異	-11.366
邵子	-11.3661
刑賞	-11.3663
又從而	-11.3664
孔注	-11.3665
一歳	-11.3672
學士	-11.3674
州西北	-11.3676
四尺	-11.368
不可忽	-11.3682
堯之徳	-11.3684
頓丘	-11.3693
親愛	-11.3693
罪疾	-11.3695
一百里	-11.3698
書亡	-11.3699
責望	-11.3699
趾	-11.3704
吞	-11.3706
惠順	-11.3706
梅賾	-11.3707
控	-11.3707
沽	-11.3707
典獄者	-11.3709
過差	-11.371
檀弓	-11.371
標凖	-11.3711
雌	-11.3712
居東二年	-11.3716
克終允徳	-11.3716
黽	-11.3716
穎逹	-11.3717
斥鹵	-11.3717
剪	-11.3717
十有三載	-11.3719
届	-11.3719
巾	-11.3719
掃	-11.372
將士	-11.372
宗廟社稷	-11.372
社稷宗廟	-11.3721
埋	-11.3722
博昌	-11.3723
乙夘	-11.3723
敬授人時	-11.3723
只得	-11.3724
百夫長	-11.3724
賓客	-11.3725
涵養	-11.3725
時乃功	-11.3725
遊畋	-11.3727
旁死魄	-11.3728
凶惡	-11.3731
鳥鼠山	-11.3731
律吕	-11.3733
休休	-11.3735
文理	-11.3735
巫賢	-11.3736
我亦不敢	-11.3736
俊乂	-11.3736
未見其	-11.3737
北屈	-11.3744
二十年	-11.3745
宋儒	-11.3746
今日之事	-11.3749
未至於	-11.3751
變異	-11.3753
句龍	-11.3762
有次序	-11.3765
十有五	-11.3766
卜兆	-11.3771
魏晉	-11.3772
幽都	-11.3778
所言皆	-11.3783
不可征	-11.3784
常貢	-11.3785
臨川	-11.3788
我文考	-11.3789
皮服	-11.3801
昊	-11.3805
分布	-11.3809
濮州	-11.381
古人之言	-11.3816
四十五	-11.382
三十三	-11.3821
念慮	-11.3823
姦惡	-11.3829
三十四	-11.383
三十三年	-11.3831
翕	-11.3832
有不善	-11.3836
愆過	-11.3844
一隅	-11.3844
言則曰	-11.3852
料	-11.3853
斷斷	-11.3853
草木鳥獸	-11.3854
汴渠	-11.3854
沁	-11.3854
掘	-11.3855
勿誤	-11.3856
廬山	-11.3858
湖廣	-11.3858
摶	-11.386
兌	-11.386
培	-11.3862
燒	-11.3865
古人有言曰	-11.3866
筍	-11.3867
懲創	-11.3867
蠙	-11.3869
新安胡氏曰	-11.387
流宥五刑	-11.387
十二章	-11.3871
羔	-11.3872
時氏瀾曰	-11.3873
金作贖刑	-11.3873
教胄子	-11.3874
教養	-11.3876
襄陽	-11.3877
羣吏	-11.3877
頮	-11.3878
亮采	-11.3879
敵讎	-11.3881
分置	-11.3882
羲和之罪	-11.3882
冲子	-11.3883
還政	-11.3883
墨子	-11.3886
城郭	-11.3886
迪哲	-11.3887
政化	-11.3887
衡陽	-11.3888
古我先王	-11.3895
宗彞	-11.3895
孟侯	-11.39
升歌	-11.39
單辭	-11.3904
此等人	-11.3907
玩人	-11.3914
司馬法	-11.3917
嵗月	-11.3924
矜伐	-11.3924
理之自然	-11.3924
先儒以為	-11.3925
職掌	-11.3927
此二節書是	-11.3933
温縣	-11.3938
明其徳	-11.3946
命𦙍侯	-11.3956
仁厚	-11.3957
己意	-11.3959
而納之	-11.3964
睢陽	-11.3966
憲天	-11.3967
星宿	-11.3968
若稽古	-11.3971
蔡傳云	-11.3971
商周之	-11.398
農夫	-11.3987
蒙羽	-11.3997
無厭	-11.3999
俗謂之	-11.4006
本然之	-11.4006
宵	-11.4008
匈奴	-11.4009
柷	-11.4009
婚	-11.401
聱牙	-11.4011
瞿	-11.4012
洋洋	-11.4015
之外别有	-11.4015
世變風移	-11.4016
十有一年	-11.4016
論道經邦	-11.4016
漬	-11.4016
輟	-11.4018
潁川	-11.4019
玉帛	-11.4019
巷	-11.402
肅慎氏	-11.402
難知	-11.402
刵	-11.402
王氏安石曰	-11.4021
肇稱殷禮	-11.4022
不用命	-11.4023
頃刻	-11.4023
迆	-11.4023
濟南府	-11.4024
墨劓	-11.4025
碞	-11.4025
平陽府	-11.4026
相敵	-11.4026
濁水	-11.4027
〇	-11.4029
治直吏反	-11.4032
蔡註	-11.4032
嚚訟	-11.4033
入于南海	-11.4033
九類	-11.4036
懈怠	-11.4036
經界	-11.4036
金輅	-11.4038
越三日	-11.4039
舊染	-11.4047
刑措	-11.4053
天地人之	-11.4059
有大功	-11.4059
憂患	-11.4062
海隅	-11.4063
男子	-11.4068
胡氏曰	-11.4068
海口	-11.4071
不煩	-11.4083
昔日	-11.4087
常憲	-11.4088
何如哉	-11.4089
速由	-11.4094
爾有衆	-11.4097
坐視	-11.4106
功畢	-11.4108
禹稷	-11.4108
告召公	-11.4111
鄭注云	-11.4112
自此始	-11.412
訓廸	-11.4122
景帝	-11.414
必不然	-11.414
其㫖	-11.4142
大行人	-11.4142
百六十	-11.4147
放心	-11.4147
沭	-11.415
馬氏	-11.4152
相維	-11.4152
紀年	-11.4156
瀛	-11.4157
龜從筮	-11.4159
懲戒	-11.416
分界	-11.4162
何以能	-11.4164
滇	-11.4164
鐸	-11.4165
迅	-11.4166
扺	-11.4166
涇屬渭汭	-11.4167
頗僻	-11.4167
柯	-11.4167
枝江縣	-11.4167
妃	-11.4168
鬻	-11.4168
沮洳	-11.4169
恰	-11.417
肺	-11.417
儒林傳	-11.417
文子文孫	-11.4171
眩	-11.4171
崑	-11.4171
磧	-11.4172
一簣	-11.4172
蔚	-11.4173
課	-11.4174
着	-11.4175
極備	-11.4175
頑嚚	-11.4176
腐	-11.4176
㡳	-11.4176
斮	-11.4178
天地間	-11.4178
刖	-11.4179
泛溢	-11.4181
能事鬼神	-11.4181
齊七政	-11.4182
有官君子	-11.4182
朱氏	-11.4182
所以待	-11.4183
虞廷	-11.4183
聖人之所	-11.4184
學校	-11.4185
龜卜	-11.4187
耀州	-11.4187
飲福	-11.4188
肅愼	-11.4189
僚屬	-11.4191
律和聲	-11.4192
洛水出	-11.4193
豈復有	-11.4193
玩好	-11.4194
百八十里	-11.42
振旅	-11.4203
恒衛	-11.4203
君臣之分	-11.4205
正義曰地理志云	-11.4206
不倦	-11.4215
一篇之中	-11.4216
盡其道	-11.4216
遷亳	-11.4217
紹興	-11.4217
一人之身	-11.4218
庶尹	-11.4224
至于大别	-11.4226
淫過	-11.423
報誥	-11.4232
一百二十	-11.4235
獄辭	-11.4239
發首	-11.4246
䟽云	-11.4248
宅憂	-11.4249
國之君	-11.425
小子封	-11.4254
千八百	-11.4256
剛制	-11.4261
詠歌	-11.4267
殄行	-11.4272
日蝕	-11.4277
大麓	-11.4291
期望	-11.4291
月三日	-11.4296
水之流	-11.4299
鄆	-11.4302
前面	-11.4306
肅恭	-11.4307
縢	-11.4309
糗糧	-11.431
䧏	-11.4312
版	-11.4315
羮	-11.4315
三年之喪	-11.4316
三郊三遂	-11.4317
奕	-11.4319
晁錯	-11.4319
撮	-11.432
伏生所傳	-11.4321
旒	-11.4323
像	-11.4323
張皇六師	-11.4324
訊	-11.4324
同惡相濟	-11.4326
冬至日	-11.4326
騎	-11.4327
復子明辟	-11.4327
西界	-11.4327
允執厥中	-11.4329
彜	-11.4329
修人紀	-11.433
怡	-11.433
忸怩	-11.433
釋言云	-11.4331
憎	-11.4331
漯川	-11.4331
剝	-11.4332
脛	-11.4332
保乂	-11.4332
揮	-11.4332
建子之月	-11.4333
廿	-11.4333
分器	-11.4334
㬥	-11.4335
一日二日	-11.4335
合而為一	-11.4335
巴郡	-11.4337
燔柴	-11.4338
管仲	-11.434
過三澨	-11.434
帝念哉	-11.4346
枚卜	-11.4346
二十四氣	-11.4347
乃言曰	-11.4349
單環	-11.4353
𤣥黄	-11.4354
翼室	-11.4355
師衆也	-11.4357
秦屬	-11.4359
休息	-11.4359
粒食	-11.436
寶玉	-11.436
湯征	-11.4361
穆卜	-11.4371
豈徒	-11.4371
距海	-11.4371
十三里	-11.4375
六百里	-11.4375
東北入海	-11.4378
頑愚	-11.438
弼教	-11.439
十九日	-11.4395
謙辭	-11.4401
舜攝位	-11.4409
後丗	-11.4413
樂器	-11.442
始末	-11.4422
僉曰	-11.4423
汴水	-11.4449
總論	-11.445
禮運	-11.4456
職任	-11.4457
後之人	-11.4461
左傳稱	-11.4471
參考	-11.4471
水災	-11.4473
九域志	-11.4474
撥	-11.4475
播為九河	-11.4478
瀾	-11.4479
槀	-11.448
賈讓	-11.4481
塈	-11.4482
不敢侮鰥寡	-11.4482
朗	-11.4482
孔子序書	-11.4483
爛	-11.4483
伊洛瀍澗	-11.4483
竟陵	-11.4483
芟	-11.4484
吐谷渾	-11.4484
昃	-11.4485
兊	-11.4485
鄆州	-11.4485
旌别淑慝	-11.4485
骨肉	-11.4485
詆	-11.4487
樏	-11.4488
所其無逸	-11.4489
大統未集	-11.4489
偷	-11.4489
其如台	-11.449
周公攝政七年	-11.4492
早晚	-11.4493
臯陶謨益稷	-11.4493
隴西郡	-11.4494
東武陽	-11.4496
遊田	-11.4499
各率其	-11.4501
𤣥孫	-11.4508
踰年	-11.4509
周禮職方氏	-11.451
二十一日	-11.4514
大賚	-11.4514
泗州	-11.452
昌邑	-11.4521
導川	-11.4522
消長	-11.4523
皇甫謐云	-11.4526
歴陵	-11.4526
既生魄	-11.4534
龍門西河	-11.4535
永嘉	-11.4537
大别山	-11.4546
比附	-11.4548
魏郡	-11.4551
遂其性	-11.4562
遵王	-11.4574
兵器	-11.4576
謨訓	-11.4579
徃來	-11.4581
元嘉	-11.4582
七星	-11.4582
太守	-11.4585
南流入	-11.4587
廢棄	-11.4588
不可解	-11.4595
天命不易	-11.4602
乂王家	-11.4603
萊蕪	-11.4606
先王之道	-11.4614
世孫	-11.4622
棗	-11.4625
湯之所以	-11.4634
以今輿地言之	-11.4636
十五度	-11.4637
大宗伯	-11.4637
堤	-11.4637
琅邪	-11.4637
十一篇	-11.4638
魏晉間	-11.4639
喜怒哀樂	-11.4642
雊	-11.4643
閟	-11.4643
濤	-11.4644
鬬	-11.4644
盍	-11.4644
福善禍淫	-11.4645
淆	-11.4645
顓	-11.4645
雘	-11.4645
聿	-11.4646
六府孔修	-11.4646
賈誼	-11.4647
漆沮既從	-11.4648
偹	-11.4648
釋言文	-11.4649
弄	-11.4649
竄三苗	-11.465
卿士庶民	-11.4651
克明俊徳	-11.4651
惟有司之牧夫	-11.4651
堲	-11.4652
堯舜之道	-11.4652
幣帛	-11.4655
敷五教	-11.4656
幄	-11.4658
古先哲王	-11.466
境界	-11.466
晉文侯	-11.4661
種藝	-11.4662
稷契臯陶	-11.4663
致仕	-11.4664
危殆	-11.467
十六篇	-11.4673
虎賁氏	-11.4676
傲慢	-11.468
篤厚	-11.468
允迪	-11.4683
翕然	-11.4684
三江口	-11.4685
大㫖	-11.4686
零陵	-11.4688
受禪	-11.4694
泉源	-11.4697
蒲州	-11.4719
世俗	-11.4719
親征	-11.4721
北狄	-11.4722
太廟	-11.4722
分析	-11.4726
說文作	-11.4732
示之以	-11.4733
晋人	-11.4733
充實	-11.4734
何耶	-11.4736
濟瀆	-11.4739
歴象	-11.4741
情狀	-11.4743
入于江	-11.4745
入于渭	-11.4747
新安陳氏	-11.4751
三帥	-11.4752
各盡其	-11.4761
岍山	-11.4765
織貝	-11.4766
思庸	-11.4771
私家	-11.4771
不知所在	-11.4773
百六十里	-11.4776
暴亂	-11.4777
畿外	-11.478
災祥	-11.4781
文武之道	-11.4784
藍	-11.4785
八里	-11.4788
建侯	-11.479
入於河	-11.4792
雎	-11.4797
昭昭	-11.4798
魚臺	-11.4799
朐	-11.4801
圃	-11.4801
我聞曰	-11.4802
覈	-11.4802
聳動	-11.4802
糞	-11.4804
諸儒皆	-11.4804
跋	-11.4805
陟方乃死	-11.4805
為一分	-11.4805
東入于海	-11.4806
耨	-11.4806
爽明	-11.4806
亹	-11.4807
莭	-11.4807
蒲坂	-11.4808
纉	-11.4808
董仲舒	-11.4808
場	-11.4808
岌	-11.4809
㷀	-11.4809
筐	-11.481
薪	-11.481
㑹于渭汭	-11.481
辜罪	-11.481
過九江至于東陵	-11.4811
澠池	-11.4811
凡厥庶民	-11.4814
導河積石	-11.4814
恭黙思道	-11.4815
彖	-11.4815
殫	-11.4815
殉	-11.4815
汝惟小子	-11.4816
唐虞三代	-11.4817
贑	-11.4818
申氏時行曰	-11.4818
旦夕	-11.4818
懍	-11.4819
汩	-11.482
侯甸男衛	-11.4821
潤色	-11.4823
朱虎熊羆	-11.4823
朝至于洛	-11.4823
傲虐	-11.4826
只縁	-11.4827
轉移	-11.4828
庚寅	-11.4829
「	-11.4831
征討	-11.4834
》。	-11.4835
葛伯	-11.4837
不敢廢	-11.4838
虞賔	-11.4838
封域	-11.484
殷之賢	-11.4846
史臣記	-11.4852
牛羊	-11.4859
每嵗	-11.4863
總百官	-11.4864
不能自已	-11.4872
崇伯	-11.4872
南入于江	-11.4876
媯水	-11.4876
以民為	-11.4876
一般	-11.4878
不臧	-11.488
自絶于天	-11.488
隴州	-11.4882
下管	-11.4902
匡正	-11.4904
得民心	-11.4907
對越	-11.4907
嗣前人	-11.4919
百川	-11.492
僕臣	-11.4932
孔註	-11.4936
無此理	-11.4938
得其情	-11.4941
稱元年	-11.4955
周職方	-11.4958
斛	-11.4967
摘	-11.4968
湍	-11.4969
溥	-11.4971
夾右碣石入于河	-11.4972
導岍及岐	-11.4972
㪚	-11.4973
湊	-11.4974
箾	-11.4974
搜	-11.4975
不剛不柔	-11.4976
慆	-11.4976
山龍華蟲	-11.4976
輝光	-11.4976
聲依永	-11.4977
譁	-11.4978
耐	-11.4978
薰	-11.4979
莫先於	-11.498
士毅	-11.498
現	-11.498
杌	-11.498
顛覆	-11.4981
羈縻	-11.4981
糓	-11.4981
鹽梅	-11.4981
四海㑹同	-11.4982
花	-11.4982
既載壺口	-11.4983
戀	-11.4983
合黎山	-11.4985
班瑞	-11.4985
縱横	-11.4986
隲	-11.4987
舜命禹	-11.4988
歳月日	-11.4989
咎單	-11.499
遒人	-11.4993
若之何	-11.4994
司㓂	-11.4995
輿地	-11.4998
我商家	-11.4999
地震	-11.5001
宅俊	-11.5001
廣韻	-11.5007
榖梁	-11.5008
多士多方	-11.5008
馬融王肅	-11.501
附庸	-11.5013
荆豫	-11.5015
建寅	-11.5017
幽并	-11.5019
安得而不	-11.5021
星紀	-11.5022
承弼	-11.5027
折而北	-11.5027
抑畏	-11.503
以此觀之	-11.5033
二十四年	-11.5033
發端	-11.5036
哉又按	-11.5036
城西北	-11.504
近習	-11.5047
周公若曰	-11.5052
宗工	-11.5058
後世人主	-11.507
三百篇	-11.5074
欽敬	-11.508
甫刑	-11.5085
哀公	-11.5086
九州之川	-11.5096
同姓諸侯	-11.5097
房心	-11.5101
庻民	-11.511
戒勑	-11.5128
瓠子	-11.5129
删	-11.5132
五味	-11.5135
三昭三穆	-11.5136
雀弁	-11.5138
袤	-11.514
蚤	-11.5141
雨𤾉燠寒風	-11.5143
祖考來格	-11.5143
復歸于亳	-11.5143
髙山大川	-11.5143
級	-11.5145
噬	-11.5145
崐崘	-11.5146
襄陽府	-11.5146
覇	-11.5146
匣	-11.5147
柔逺能邇	-11.5147
乖戾	-11.5147
模	-11.5148
制禮作樂	-11.5149
規矩	-11.5149
𤓰	-11.5149
元王天與撰	-11.5149
恐懼修省	-11.515
彊弗友	-11.515
今朕必往	-11.5151
欽厥止	-11.5151
復扶又反	-11.5151
肢	-11.5151
吿	-11.5152
銷	-11.5152
宦	-11.5153
升遐	-11.5153
十有三祀	-11.5153
蚌	-11.5154
烝烝	-11.5154
鼖	-11.5155
讙	-11.5155
祝融	-11.5155
澆	-11.5155
結繩	-11.5156
翰林院	-11.5156
珪	-11.5156
見形甸反	-11.5156
鏡	-11.5157
逃亡	-11.5158
㣲子之命	-11.5162
滱水	-11.5165
文王世子	-11.5167
牖間	-11.5168
冀兖	-11.517
皐陶謨	-11.517
淪喪	-11.5171
厚薄	-11.5178
右轉	-11.5178
星火	-11.518
▁陳氏雅言曰	-11.5184
誥康叔	-11.5185
淮沂	-11.5189
古者天子	-11.5198
人君之所	-11.5199
運道	-11.5201
西裔	-11.5219
失其本	-11.5226
還歸	-11.5231
按漢志	-11.5235
在江北	-11.5255
荒廢	-11.5261
違怨	-11.5278
誅殺	-11.5278
友邦	-11.5297
一二三四	-11.5307
龜兆	-11.5308
鼗	-11.531
謐	-11.5313
笴	-11.5314
齬	-11.5314
遞	-11.5315
。「	-11.5315
伊陟臣扈	-11.5315
篡	-11.5316
河渠書	-11.5317
衙	-11.5317
侔	-11.5317
鹿臺	-11.5318
湟	-11.5318
東流為漢	-11.5318
尚書纂傳卷	-11.5319
懔	-11.532
煖	-11.532
局	-11.532
疆域	-11.532
尼	-11.532
嚻	-11.532
遯于荒野	-11.5321
與孔異	-11.5321
沱潛既道	-11.5321
仍几	-11.5321
撲滅	-11.5321
洫	-11.5322
不矜不伐	-11.5323
戊辰王在新邑	-11.5323
仙	-11.5323
顔氏曰	-11.5323
平秩東作	-11.5324
誚	-11.5324
胥靡	-11.5325
彈	-11.5325
三百四十八	-11.5325
沈酗于酒	-11.5325
泌	-11.5325
雨暘燠寒風	-11.5325
冊祝	-11.5326
男女	-11.5326
散宜生	-11.5328
蠻夷猾夏	-11.5328
訓詁	-11.5329
靡靡	-11.5329
暘谷	-11.5329
受命于周	-11.5332
曾孫	-11.5335
廣狹	-11.5337
嘉禾	-11.5339
好貨	-11.5345
接界	-11.5345
七寸	-11.5347
與天同	-11.5351
上曲陽	-11.5354
僖公	-11.5359
二百餘里	-11.5359
孝弟	-11.5362
辭氣	-11.5363
忠愛	-11.5366
王莽時	-11.5374
憂恤	-11.538
析木	-11.5383
阜城	-11.5385
導渭	-11.5386
不可不監	-11.5388
後儒	-11.5393
配食	-11.5394
蘓	-11.5395
今河南府	-11.5398
酈道元云	-11.5409
康乂	-11.5413
丕變	-11.5418
有虞之	-11.543
孔疏云	-11.5435
情性	-11.5441
湯伐桀	-11.5451
穀城	-11.5459
淇水	-11.5476
禫	-11.548
聽獄	-11.5483
灣	-11.5485
葱嶺	-11.5486
宕渠	-11.5486
𨼆	-11.5487
九河既道	-11.5487
瑶琨	-11.549
陂障	-11.549
庖	-11.549
四十六卷	-11.549
王肅亦	-11.549
旂	-11.5491
淹	-11.5491
貸	-11.5491
周髀	-11.5491
箭	-11.5491
粲	-11.5492
罪人斯得	-11.5493
雲土夢作乂	-11.5493
口授	-11.5493
絶地天通	-11.5493
代武王之死	-11.5494
蹟	-11.5495
懫	-11.5495
舂	-11.5496
欽定四庫全書尚書纂傳卷	-11.5497
㤗誓	-11.5497
侯甸男衞	-11.5497
南條荆山	-11.5498
亂臣十人	-11.5499
鸞	-11.5499
誰能	-11.5499
輯五瑞	-11.55
天難諶	-11.55
寗	-11.55
誌	-11.5501
動摇	-11.5501
九載績用弗成	-11.5503
膠鬲	-11.5503
貞正也	-11.5503
曜	-11.5504
酗酒	-11.5506
异	-11.5507
杞子	-11.5508
二十八字	-11.5508
遲速	-11.5509
攘竊	-11.5511
純乎天	-11.5512
啟迪	-11.5513
宵中	-11.5514
泯亂	-11.5515
推衍	-11.5515
卿大夫士	-11.5515
宗彛	-11.5521
又東北流	-11.5522
操存	-11.5524
婁江	-11.5524
藝祖	-11.5525
墳典	-11.5525
肅慎	-11.5526
金牛	-11.553
桐柏山	-11.5534
此一段	-11.5537
納錫	-11.5539
天地之性	-11.5541
縱酒	-11.5542
二十八日	-11.5542
修其身	-11.5548
定陶縣	-11.5548
胄子	-11.555
迷亂	-11.5555
不期而	-11.5559
太甲元年	-11.556
除害	-11.5563
公曰嗚呼君	-11.5564
史記正義	-11.5565
舞衣	-11.5566
色白	-11.5598
若有疾	-11.5601
武庚叛	-11.5611
孫炎	-11.5622
我不知其	-11.5622
封伯禽	-11.563
先哲王	-11.5634
子釗	-11.5639
百二十里	-11.5648
盤庚之遷	-11.5653
如字徐	-11.5661
轅	-11.5662
改過不吝	-11.5664
涌	-11.5664
駮	-11.5666
勁	-11.5667
斵	-11.5669
遷善逺罪	-11.567
南旺	-11.567
蒼頡	-11.5671
鳥獸蹌蹌	-11.5671
莘	-11.5671
刪丹	-11.5672
律度量衡	-11.5672
五虐之刑	-11.5672
刼	-11.5673
楨	-11.5673
百官總已	-11.5673
又東為滄浪之水	-11.5674
江漢朝宗于海	-11.5674
三風十愆	-11.5675
漢書五行志	-11.5676
岷山導江	-11.5676
冩	-11.5676
保乂有殷	-11.5676
烙	-11.5676
洪水既平	-11.5676
逝	-11.5676
燮友	-11.5676
庶績咸熙	-11.5676
湯放桀	-11.5677
亦此意也	-11.5677
揣	-11.5677
,「	-11.5678
臼	-11.5678
怙終賊刑	-11.5678
喉	-11.5679
彫	-11.5679
殳	-11.5679
壅遏	-11.5679
𤣥枵	-11.568
尙書大傳	-11.568
懇	-11.5681
兜	-11.5682
作大邑	-11.5683
北極出地	-11.5683
丕丕基	-11.5684
默	-11.5684
説話	-11.5689
功之成	-11.569
岳牧	-11.5695
何以知之	-11.5699
自以為功	-11.5704
校官	-11.5709
介助	-11.5722
申勸	-11.5729
在王庭	-11.5735
下濕	-11.5739
偃師縣	-11.5745
初昏	-11.5746
覆亡	-11.5747
征苗	-11.5749
初一曰五行	-11.575
富平縣	-11.5764
百畝	-11.5769
旻	-11.5772
䘮亡	-11.5777
歸亳	-11.5778
媯	-11.5779
堯舜禹湯	-11.578
十一日	-11.581
淵源	-11.5821
葉氏	-11.5823
五等諸侯	-11.5825
三百六十五	-11.5827
何也蓋	-11.583
劍	-11.5841
路門	-11.5841
跣	-11.5845
張騫	-11.5846
不肯遷	-11.5849
昀	-11.5849
陸費墀	-11.5849
月恭校上	-11.585
誰敢不	-11.585
紩	-11.585
握	-11.5851
篠簜	-11.5851
箘簵楛	-11.5852
夾鍾	-11.5852
浮于積石至于龍門西河	-11.5853
掖	-11.5853
諂	-11.5854
纘	-11.5854
弱水既西	-11.5855
惟三月哉生魄	-11.5855
時人斯其惟皇之極	-11.5855
成厥功	-11.5856
敕	-11.5856
大坰	-11.5857
今商王受	-11.5857
甸侯綏	-11.5858
輴	-11.5858
廬阜	-11.5858
炮	-11.5858
炙	-11.5858
擯	-11.5858
檿	-11.5859
自北而南	-11.5859
遘	-11.586
鑿龍門	-11.586
昆侖	-11.5861
允迪厥徳	-11.5862
鄯	-11.5862
求多聞	-11.5864
戈矛	-11.5865
鈔	-11.5865
胷中	-11.5866
張掖郡	-11.5867
昭穆	-11.5868
昌黎	-11.5868
者鮮矣	-11.5869
揚雄	-11.5869
戡定	-11.5874
簡冊	-11.5875
人心之所	-11.5879
夏本紀	-11.588
怪石	-11.5881
按孔傳	-11.5884
動静	-11.5888
羣牧	-11.5892
太王王季文王	-11.5894
分寸	-11.5896
傅㑹	-11.5897
匠人	-11.5898
伏生之書	-11.5899
孛	-11.59
沂水出	-11.5903
三帛	-11.5905
行遲	-11.5905
卓然	-11.591
誕保	-11.5913
錯雜	-11.5915
後裔	-11.592
今湖廣	-11.5941
詩歌	-11.5957
禹貢之書	-11.5972
西羌	-11.5973
毗陵	-11.5975
流宥	-11.598
時燠	-11.5981
御治事	-11.5981
二十五年	-11.5988
河自積石	-11.5996
太王王季	-11.5998
上天之命	-11.6019
租	-11.6023
真定府	-11.6026
卭	-11.6029
內	-11.6029
釡	-11.603
槃	-11.6031
紆	-11.6032
溉田	-11.6032
揲	-11.6034
滎播	-11.6034
楣	-11.6035
欽定四庫全書經部二	-11.6035
灊	-11.6036
燮理隂陽	-11.6036
我生不有命在天	-11.6037
三帛二生一死	-11.6037
遡	-11.6037
惓惓	-11.6038
需	-11.6039
崔	-11.6039
思日孜孜	-11.6039
尹躬暨湯	-11.604
瞑眩	-11.604
罔不率俾	-11.604
濰淄	-11.6041
惟日不足	-11.6041
欲敗度縱敗禮	-11.6041
羆	-11.6041
寛而栗	-11.6042
壩	-11.6042
庶常吉士	-11.6042
金縢之匱	-11.6042
后王君公	-11.6043
與之同	-11.6043
詛祝	-11.6043
態	-11.6044
格于上帝	-11.6044
暖	-11.6044
恭行天之罰	-11.6045
惟正之供	-11.6045
副貳	-11.6046
涕	-11.6046
故繼之曰	-11.6046
崑崙析支渠搜	-11.6047
抽	-11.6048
坼	-11.6048
條支	-11.605
輯錄	-11.605
之輕者	-11.6051
防閑	-11.6052
你	-11.6052
五服之制	-11.6054
方命圯族	-11.6055
人心道心	-11.6056
困苦	-11.6056
生則逸	-11.6056
宅嵎夷	-11.6057
雹	-11.6059
一百一十	-11.6062
伊洛	-11.6062
由是觀之	-11.6067
孟康	-11.6067
有是徳	-11.607
十三載	-11.6074
忠孝	-11.6077
禹跡	-11.6077
至于大陸	-11.6087
五行五事	-11.6093
貨寳	-11.6094
徐奄	-11.6102
夜半	-11.6102
脩身	-11.6104
果敢	-11.6113
非有意	-11.6115
嶓冡山	-11.6127
北流注	-11.6149
意若曰	-11.6155
臣之職	-11.6178
酈氏	-11.6186
罔敢知	-11.6187
二十六年	-11.6202
劓刵	-11.6204
碣	-11.6205
油	-11.6208
所自出	-11.6209
嘉陵江	-11.6211
陪	-11.6219
七世之廟	-11.6219
汝則有大疑	-11.622
贛	-11.6221
敖倉	-11.6221
不邇聲色不殖貨利	-11.6224
鞫	-11.6226
竹書紀年	-11.6226
媯汭	-11.6226
肱	-11.6227
壬辰	-11.6227
餙	-11.6227
皇極之敷言	-11.6228
仲虺作誥	-11.6228
玆	-11.6229
薊	-11.6229
繢	-11.623
兑	-11.623
得吉卜	-11.623
予則孥戮汝	-11.6231
摇動	-11.6231
瀰漫	-11.6231
擁	-11.6232
濬畎澮距川	-11.6232
嚴恭寅畏	-11.6232
獄之兩辭	-11.6232
竇	-11.6233
彭蠡既豬	-11.6233
水火木金土	-11.6233
呈	-11.6234
金城郡	-11.6234
黎民於變時雍	-11.6235
潤下作鹹	-11.6235
蠙珠	-11.6236
賣	-11.6236
垂拱	-11.6236
譯	-11.6236
河圖洛書	-11.6237
天明畏	-11.6237
亨	-11.6238
三百六十五度	-11.6238
脫簡	-11.6238
僃	-11.6239
詩言志	-11.6239
撫綏	-11.6242
只是一箇	-11.6243
曷嘗	-11.6245
壁藏	-11.6248
提要	-11.6248
滅淮夷	-11.625
脱誤	-11.6251
木輅	-11.6254
整理	-11.6264
兩階	-11.6264
劓刵人	-11.6267
交錯	-11.6269
白黒	-11.6273
青州府	-11.6273
表識	-11.6274
沱濳	-11.6274
播棄	-11.6284
中江北江	-11.631
路寢門	-11.6321
十二里	-11.6326
肖	-11.6351
丞相	-11.6353
營成周	-11.6367
氐道縣	-11.6376
鞏昌府	-11.6405
个	-11.6408
葭萌	-11.6409
騷	-11.6411
謟	-11.6414
入沅	-11.6414
麋	-11.6414
汎濫	-11.6415
威用六極	-11.6416
轉輸	-11.6417
奠髙山大川	-11.6417
武庚之叛	-11.6417
稔	-11.6418
惟洛食	-11.6418
寘	-11.6418
東為中江入于海	-11.6418
踵	-11.6419
灃水攸同	-11.642
畫八卦	-11.642
遶	-11.642
躋	-11.642
弩	-11.642
克享天心	-11.6421
侗	-11.6421
秕	-11.6421
推亡固存	-11.6421
至公無私	-11.6422
荀卿	-11.6422
折衷	-11.6422
干楯	-11.6423
張氏九成曰	-11.6423
郁	-11.6423
凍	-11.6423
一人冕	-11.6424
址	-11.6424
蒙羽其藝	-11.6424
錯綜	-11.6424
嶧陽	-11.6424
漸漬	-11.6424
皥	-11.6425
設官分職	-11.6425
墳壚	-11.6425
羣叔流言	-11.6425
纎縞	-11.6425
褻	-11.6426
考妣	-11.6426
常伯常任準人	-11.6427
謁	-11.6428
霍光	-11.6429
陽鳥攸居	-11.6429
釀	-11.643
隕墜	-11.6431
:『	-11.6431
腎	-11.6432
華陰	-11.6434
辛卯	-11.6434
臆度	-11.6435
直而温	-11.6436
考制度	-11.6437
僕御	-11.6437
景陵	-11.644
違戾	-11.6441
夀張	-11.6442
運轉	-11.6445
任其責	-11.6446
京口	-11.6446
合而言之	-11.6458
老成之人	-11.6461
居延澤	-11.6467
前人之功	-11.6472
所産	-11.6473
文王之廟	-11.648
首陽縣	-11.649
至于龍門	-11.6493
連延	-11.6493
閏餘	-11.651
輿地記	-11.6513
違背	-11.6519
迷錯	-11.6531
盡其力	-11.6532
見導山	-11.6547
瀘水	-11.655
沫水	-11.6568
罪戾	-11.6579
盡之矣	-11.6587
戊子	-11.6593
永久	-11.6601
孔頴逹	-11.6604
諞	-11.6607
㐮	-11.6607
悼	-11.6607
从	-11.6608
綸	-11.661
等謹案	-11.661
縫	-11.6612
樓	-11.6613
廪	-11.6613
嵐	-11.6613
梧	-11.6614
泆	-11.6614
濟源縣	-11.6614
萬夫之長	-11.6615
揜	-11.6616
剽	-11.6616
陳經撰	-11.6616
創業垂統	-11.6616
陻	-11.6617
㕘	-11.6617
冺	-11.6617
捐	-11.6617
部伍	-11.6617
風雷之變	-11.6617
璿璣玉衡	-11.6617
乃命以位	-11.6617
洪水未平	-11.6617
系	-11.6617
擴	-11.6617
藩屏	-11.6617
峨	-11.6618
煥	-11.6618
作十有三載乃同	-11.6619
賁飾	-11.6619
庚午	-11.6619
菽	-11.6619
偉	-11.6619
𤣥牡	-11.6619
笥	-11.662
綴輅	-11.6621
陘	-11.6621
箴規	-11.6621
熾	-11.6621
惟精惟一	-11.6622
唐一行	-11.6623
䢴	-11.6623
䞇	-11.6623
姦慝	-11.6624
羑里	-11.6624
惟天不畀	-11.6624
寒燠	-11.6624
殱	-11.6625
命公後	-11.6625
琬琰	-11.6625
孺子王矣	-11.6626
七百二十九	-11.6626
殷之頑民	-11.6627
言以道接	-11.6627
稚子	-11.6629
百步	-11.663
私昵	-11.6631
皮弁	-11.6631
拜手	-11.6631
隂溝	-11.6633
二十四篇	-11.6633
賔階	-11.6634
修五禮	-11.664
登歌	-11.6644
千九百	-11.6646
忠厚之至	-11.665
耄荒	-11.6655
此周公所以	-11.6665
耿光	-11.6684
二十九年	-11.6684
條列	-11.6691
召六卿	-11.6711
鉅鹿縣	-11.6727
聞于上帝	-11.6739
召畢	-11.6739
外二百里	-11.6754
魚鼈	-11.678
伾	-11.6788
暇逸	-11.6796
埽	-11.6801
犢	-11.6803
㝡	-11.6806
槎	-11.6807
鞅	-11.6808
世輕世重	-11.681
墾	-11.681
震澤底定	-11.6812
桐栢	-11.6814
水土既平	-11.6814
四隩既宅	-11.6814
朕卜并吉	-11.6814
枝津	-11.6814
邈	-11.6814
負荷	-11.6814
惟皇作極	-11.6815
州刺史	-11.6815
無忌憚	-11.6815
導渭自鳥鼠同穴	-11.6815
毳冕	-11.6816
庶頑讒説	-11.6817
矯誣	-11.6817
邗	-11.6817
簧	-11.6818
假借	-11.6818
震澤厎定	-11.6818
天人之際	-11.6818
仗	-11.6819
善則稱君	-11.6819
北條荆山	-11.6819
躁	-11.6819
罰弗及嗣	-11.682
腸	-11.6821
蒻	-11.6821
濩	-11.6821
旁求俊彦	-11.6821
島夷皮服	-11.6821
濬哲	-11.6822
周公作立政	-11.6824
召誥洛誥	-11.6825
篾席	-11.6825
金銀銅	-11.6826
婢	-11.6827
仁義禮智信	-11.6827
虹	-11.6828
四分度之一	-11.6828
辟疑赦	-11.6828
鍪	-11.6828
辛亥	-11.6829
等級	-11.6829
橘	-11.683
荼	-11.6832
崇飲	-11.6836
支離	-11.6836
夾鐘	-11.6836
踰越	-11.6837
精密	-11.6837
須暇	-11.6838
憸利	-11.6839
己丑	-11.6842
抑揚	-11.6844
恒寒	-11.6848
為人君者	-11.6873
習俗	-11.6875
怠棄	-11.6879
男邦	-11.6926
十一度	-11.6937
陳氏大猷	-11.696
匠	-11.6971
幅	-11.6995
孺	-11.7
滕	-11.7006
嬰	-11.7009
篤馬河	-11.7011
蓬	-11.7013
膳	-11.7013
墠	-11.7013
睹	-11.7015
冨	-11.7015
洛書本文	-11.7016
蹌蹌	-11.7016
黏	-11.7016
鳯翔	-11.7016
逭	-11.7016
嶲	-11.7016
昏墊	-11.7017
縛	-11.7017
杓	-11.7017
在璿璣玉衡以齊七政	-11.7018
璿璣	-11.7018
刑故無小	-11.7019
寰	-11.7019
叨	-11.7019
梮	-11.7019
聳	-11.702
朂哉夫子	-11.702
式化厥訓	-11.702
闢四門	-11.702
掌邦禁	-11.7021
泳	-11.7022
琮	-11.7022
脂	-11.7022
敞	-11.7022
牡	-11.7023
裹	-11.7023
貌言視聽思	-11.7023
壺口雷首	-11.7023
酬	-11.7024
印	-11.7025
姜姓	-11.7025
宋黄倫撰	-11.7026
允釐百工	-11.7026
巨浸	-11.7026
江南之夢	-11.7026
牝雞	-11.7026
頤	-11.7026
慤	-11.7026
紐	-11.7027
頻	-11.7027
荒忽	-11.7028
漆林	-11.7029
三公三孤	-11.7029
耄期	-11.7029
西山真氏曰	-11.7029
正月上日	-11.703
𦂳	-11.703
庶明勵翼	-11.703
布帛	-11.703
折而南	-11.7031
孝悌	-11.7031
郭鄰	-11.7031
簡潔	-11.7033
榮辱	-11.7034
二百三十五	-11.7034
立政立事	-11.7034
𤣥圭	-11.7034
重複	-11.7035
保䕶	-11.7039
來相宅	-11.704
堯舜禹湯文武	-11.7042
品節	-11.7042
閱實其罪	-11.7046
竭力	-11.7046
距四海	-11.7049
欽恤	-11.7056
厭斁	-11.7058
甲辰	-11.7058
墳起	-11.706
偏倚	-11.7074
袁氏	-11.7079
湖陵	-11.7088
蕭何	-11.709
嶧	-11.7092
屋壁	-11.7099
數百年	-11.7105
由是言之	-11.715
尙	-11.7167
不外乎	-11.7173
天子六軍	-11.7184
涇渭	-11.7195
顛越	-11.7203
之所同然	-11.7203
》	-11.7206
屯氏河	-11.7207
邽	-11.7213
鄜	-11.7217
庾	-11.7219
樊綽	-11.7219
隋開皇	-11.722
雷夏既澤	-11.722
縷	-11.7221
浮于淮泗達于河	-11.7222
疾痛	-11.7223
眼	-11.7223
外丙仲壬	-11.7223
諾	-11.7223
躍	-11.7224
隨山濬川	-11.7224
仁義禮智	-11.7224
瑶	-11.7225
治天下之大法	-11.7225
蚩	-11.7225
姻	-11.7225
自漢以來	-11.7226
渇	-11.7226
同為逆河	-11.7226
賡	-11.7227
新陟王	-11.7227
宇宙	-11.7228
高宗肜日	-11.7228
犂	-11.7228
顧諟	-11.7229
臣作朕股肱耳目	-11.7229
毀	-11.723
逾于沔	-11.723
肅乂哲謀聖	-11.723
鄘	-11.723
學于甘盤	-11.723
濯	-11.723
早夜	-11.7231
欽定四庫全書尚書精義卷	-11.7231
摭	-11.7231
冉	-11.7231
莱	-11.7232
明明揚側陋	-11.7232
官不必備惟其人	-11.7233
懇切	-11.7233
果毅	-11.7233
増損	-11.7234
枕	-11.7234
上下比罪	-11.7236
殘賊	-11.7236
忿怒	-11.7236
摧	-11.7236
差忒	-11.7237
利害之實	-11.7238
沃壤	-11.7239
津涯	-11.724
緇衣	-11.7241
人心惟危	-11.7242
昬迷	-11.7242
付託	-11.7243
顙	-11.7244
鎧	-11.7244
無往而不	-11.7245
筍席	-11.7245
卿士邦君	-11.7246
臨羌	-11.7246
怙終	-11.7248
往欽哉	-11.725
辛酉	-11.7252
滎陽縣	-11.7252
萬九千	-11.7256
序書者	-11.727
南門之外	-11.7275
心腹	-11.7284
才智	-11.7345
庻邦	-11.7411
佛	-11.7427
險膚	-11.7429
聪	-11.7431
鏃	-11.7432
鮒	-11.7432
魯人三郊三遂	-11.7434
戺	-11.7434
歙	-11.7436
鬲縣	-11.7437
聒聒	-11.7437
予曷敢不	-11.7437
闔	-11.7438
九夷八蠻	-11.7439
劒	-11.7439
萊蕪縣原山	-11.7439
橇	-11.744
通鑑前編	-11.7441
藐	-11.7441
髦	-11.7441
駟	-11.7441
鬲	-11.7441
為人上者	-11.7441
掦	-11.7442
王拜手稽首曰	-11.7442
孕	-11.7442
子子孫孫	-11.7442
之心為心	-11.7443
多歴年所	-11.7443
者未之有也	-11.7443
訴	-11.7443
耗	-11.7443
出納五言	-11.7444
五刑之屬三千	-11.7444
秬黍	-11.7444
天地之化育	-11.7445
揆文教	-11.7446
牀	-11.7446
敬用五事	-11.7446
竦	-11.7446
淄川	-11.7446
協時月正日	-11.7447
猗	-11.7448
蜼	-11.7448
詛盟	-11.7448
納于百揆	-11.7448
新安王氏曰	-11.7448
旄牛	-11.7448
享國百年	-11.7449
丁卯	-11.7449
紬繹	-11.745
恰好	-11.7451
徃欽哉	-11.7451
師保萬民	-11.7452
周禮大宗伯	-11.7454
不一而足	-11.7455
恒燠	-11.7455
丁寜	-11.7456
朝廷之上	-11.7461
以箕子歸	-11.7461
鎮撫	-11.7461
館陶	-11.7465
赴功	-11.7467
非有他	-11.7477
皆再拜稽首	-11.7529
皇極經世	-11.757
沱潜	-11.7583
鄭王皆	-11.7608
河之經流	-11.7646
鄭司農	-11.7649
淮安府	-11.765
王安石	-11.7651
觜	-11.7652
寂	-11.7652
鷄	-11.7652
輝	-11.7652
姑臧	-11.7652
皓	-11.7652
燔	-11.7653
灉沮㑹同	-11.7653
克綏厥猷	-11.7653
在府東	-11.7653
伎	-11.7653
鶴	-11.7654
秒	-11.7654
汝鳩汝方	-11.7654
應天順人	-11.7655
宥過無大	-11.7655
邀	-11.7656
燦	-11.7656
百姓有過在予一人	-11.7656
𧰼	-11.7657
不敢荒寧	-11.7657
貿	-11.7658
肌	-11.7658
黄度曰	-11.7658
洛書之數	-11.7658
遙	-11.7659
莅	-11.7659
金履祥曰	-11.7659
張揖	-11.7659
我何敢不	-11.7659
憑玉几	-11.7659
敿	-11.7659
導菏澤被孟豬	-11.766
祔	-11.766
鷩冕	-11.766
巧言令色	-11.766
阼	-11.7661
二王之後	-11.7661
土爰稼穡	-11.7661
衡山之陽	-11.7661
􁅾	-11.7661
欽若昊天	-11.7662
咏	-11.7662
喚	-11.7663
巍巍	-11.7663
熒	-11.7663
鉅橋	-11.7663
唐陸氏曰	-11.7663
朱子語類問	-11.7664
在我後嗣子孫	-11.7664
捷	-11.7664
無反無側	-11.7665
周公作無逸	-11.7665
無我怨	-11.7665
僝	-11.7665
漢中府	-11.7665
一月戊午師渡孟津	-11.7665
荊	-11.7665
濬畎澮	-11.7666
僰	-11.7666
革輅	-11.7666
廢時亂日	-11.7666
我之弗辟	-11.7668
外庶子	-11.7668
五典克從	-11.7668
五百里甸服	-11.7668
頟頟	-11.7668
史敘其事作	-11.7668
琰	-11.7669
齒革	-11.7669
魚鹽	-11.767
三有俊	-11.767
淞江	-11.7671
禜	-11.7671
蕃屏	-11.7672
鴆	-11.7673
驕侈	-11.7673
㐫	-11.7673
殳斨伯與	-11.7674
琬	-11.7674
受命文考	-11.7675
虞夏商周	-11.7677
降𠂻	-11.7679
微盧	-11.7686
一月壬辰	-11.7699
灼龜	-11.7721
萊蕪縣	-11.7722
有自然之	-11.7729
十有七	-11.7743
矜憐	-11.779
十六里	-11.7798
恐未必	-11.7835
譴	-11.7861
巂	-11.7863
可攷	-11.7865
逵	-11.7866
塔	-11.7866
璩	-11.7867
牂	-11.7869
稚	-11.7871
禆	-11.7872
牾	-11.7873
東出于陶丘北	-11.7873
大名府	-11.7873
忻	-11.7875
彰厥有常吉哉	-11.7875
詣	-11.7875
庶尹允諧	-11.7876
洪大誥治	-11.7876
㨗	-11.7876
鈎盤	-11.7877
夙	-11.7877
閻	-11.7878
蹙	-11.7879
籌	-11.7881
瀟	-11.7881
庶邦冢君	-11.7881
纓	-11.7882
姚方興	-11.7882
搖	-11.7882
渾天儀	-11.7882
忱恂	-11.7883
與天下共	-11.7883
三分天下有其二	-11.7884
出入起居	-11.7884
土地所生	-11.7884
鄭曉曰	-11.7884
群	-11.7884
璧與珪	-11.7884
一朝一夕	-11.7884
研	-11.7884
窋	-11.7885
傚	-11.7885
太簇	-11.7885
卵	-11.7885
胃	-11.7885
奮武衛	-11.7885
漕渠	-11.7886
攸好德	-11.7886
唐孔氏曰地理志云	-11.7887
版築	-11.7887
軸	-11.7887
治國平天下	-11.7888
陟帝位	-11.7888
左右有民	-11.7888
多材多藝	-11.7888
塵	-11.7888
俶	-11.7889
濰淄其道	-11.7889
厥土惟塗泥	-11.7889
顒	-11.789
鉛	-11.7891
非汝封刑人殺人	-11.7891
遭洪水	-11.7892
永樂大典	-11.7892
龎	-11.7893
洞庭湖	-11.7894
壬申	-11.7897
氄	-11.7898
無時而不	-11.7901
愛戴	-11.7904
月十六日	-11.7909
桓毛	-11.7913
譸張	-11.7925
由此觀之	-11.7929
縣南五十里	-11.7942
縣故城東	-11.8025
進於善	-11.8034
侯甸男	-11.8046
衍忒	-11.8093
定王五年	-11.8095
東北逕	-11.8097
褒斜	-11.8097
鄙夭	-11.8097
北過降水	-11.81
壇墠	-11.8102
膂	-11.8102
剛而塞	-11.8103
滎波既豬	-11.8103
江沱潛漢	-11.8103
寸六分	-11.8103
泊	-11.8104
壓	-11.8104
外有州牧侯伯	-11.8105
嶓冢導漾東流為漢	-11.8105
五十九篇	-11.8105
貊	-11.8106
髮	-11.8106
東為北江入于海	-11.8106
不格姦	-11.8107
拓	-11.8107
愉	-11.8107
越若來	-11.8108
外薄四海咸建五長	-11.8108
潟	-11.8108
盗賊	-11.8108
草竊姦宄	-11.8109
其于官也為	-11.8109
蠻貊	-11.811
寺	-11.811
宕	-11.8111
幡	-11.8111
臂	-11.8111
治定功成	-11.8111
允執其中	-11.8111
慎乃在位	-11.8111
炫	-11.8112
怵惕	-11.8112
庶績咸熈	-11.8112
誹	-11.8113
典獄之官	-11.8113
六年五服一朝	-11.8113
臨川吳氏曰	-11.8113
降丘宅土	-11.8113
窟	-11.8113
伊闕	-11.8114
軰	-11.8115
惟一月壬辰旁死魄	-11.8116
底意思	-11.8116
竅	-11.8117
各以類	-11.8117
王其疾敬徳	-11.8117
賓階	-11.8117
寤	-11.8118
㤀	-11.8118
姬姓	-11.8118
尺五寸	-11.8118
匡救	-11.812
仁山金氏曰	-11.812
竹箭	-11.812
一月戊午	-11.812
民非后	-11.812
夏至之日	-11.8121
易繫辭云	-11.8121
包裹	-11.8122
瞍	-11.8123
庻幾	-11.8127
臯陶之謨	-11.8144
頑讒	-11.8145
廢弛	-11.8149
在今陜西	-11.8158
首至地	-11.8158
自湯至	-11.8158
世世享	-11.8194
百七十里	-11.8213
滱	-11.8314
囬	-11.8329
司馬彪	-11.8333
鉤	-11.8333
瀹	-11.8333
開封府	-11.8333
俎	-11.8334
濟河惟兖州	-11.8336
鳳皇	-11.8337
堆	-11.8337
乳	-11.8337
芥	-11.8338
籲俊	-11.8338
苐	-11.8339
祗遹	-11.8339
嗚	-11.834
歉	-11.834
亾	-11.834
戕賊	-11.8341
伊尹相湯伐桀	-11.8342
祥符	-11.8342
在武丁時則有若甘盤	-11.8343
有邦有土	-11.8343
畤	-11.8343
丸	-11.8343
羨	-11.8343
導淮自桐柏	-11.8343
師錫帝曰	-11.8344
能自得師	-11.8344
庇	-11.8344
浮于濟漯達于河	-11.8344
盾	-11.8344
東過洛汭	-11.8345
觀政于商	-11.8345
狗	-11.8346
司政典獄	-11.8347
秣	-11.8347
煢	-11.8347
詹	-11.8347
厥賦貞	-11.8347
渾儀	-11.8347
四分之一	-11.8348
淮海惟揚州	-11.8348
盈縮	-11.8348
海岱惟青州	-11.8349
契丹	-11.8349
商先哲王	-11.835
。』	-11.8351
成允成功	-11.8351
州十有二師	-11.8351
粢盛	-11.8352
譸張為幻	-11.8352
囧	-11.8353
玩味	-11.8353
匹休	-11.8354
傾覆	-11.8354
與天為一	-11.8354
燮理	-11.8355
穀熟	-11.8355
勲勞	-11.8356
熹	-11.8358
夏氏僎曰	-11.8358
秉持	-11.836
雷雨	-11.8369
十萬曰億	-11.8373
互註	-11.8375
以是觀之	-11.8392
齊魯之間	-11.8561
仡仡	-11.8563
纒	-11.8566
杶榦栝柏	-11.8566
王與卿士師尹	-11.8567
偪	-11.8568
笞	-11.8568
東郊不開	-11.8569
蕪	-11.857
闞駰	-11.8571
灤	-11.8571
琨	-11.8572
佗	-11.8573
論語孝經	-11.8574
煮	-11.8575
大戴禮	-11.8576
禳	-11.8577
郿	-11.8577
無疆之休	-11.8578
蒼梧之野	-11.8578
自貽哲命	-11.8578
金吉甫	-11.8578
賢聖之君六七作	-11.8578
孫氏繼有曰	-11.8578
邾	-11.8578
逓	-11.8579
殞	-11.8579
璜	-11.8579
葛伯仇餉	-11.8579
撫摩	-11.8579
檢身若不及	-11.8579
厮	-11.858
倖	-11.858
適于山	-11.858
呂祖謙曰	-11.8581
鳬	-11.8581
犧牲	-11.8581
師尹惟日	-11.8582
白虎通	-11.8582
菟	-11.8583
樞機	-11.8583
纎悉	-11.8583
咨汝羲暨和	-11.8584
頽	-11.8584
鶉尾	-11.8584
卿士惟月	-11.8584
分北三苗	-11.8585
𤣥冕	-11.8585
悚	-11.8585
自西而東	-11.8585
羑里之囚	-11.8585
酹	-11.8586
畛	-11.8586
元祀十有二月	-11.8586
揖遜	-11.8588
𤯝	-11.8588
𤣥纁	-11.8589
脗合	-11.8589
大告武成	-11.8591
降于國人	-11.8592
殂	-11.8594
旌旄	-11.8594
柚	-11.8595
牷	-11.8596
眾	-11.8597
舜生三十	-11.8689
灃涇	-11.8749
隧	-11.8801
水火木金	-11.8808
昇	-11.8813
天降災	-11.8814
灋	-11.8814
奉嗣王祗見厥祖	-11.8814
戣	-11.8815
兢	-11.8817
澱	-11.8817
丹砂	-11.8818
濬哲文明温恭允塞	-11.8818
礪砥砮丹	-11.8821
脈絡	-11.8821
無小無大	-11.8822
儘	-11.8822
層	-11.8822
格君心之非	-11.8822
四方無虞	-11.8823
評	-11.8823
戯	-11.8823
綜	-11.8823
一話一言	-11.8823
上帝時歆	-11.8824
彌縫	-11.8824
侯甸男采衛	-11.8824
䜟	-11.8824
隈	-11.8824
西戎即叙	-11.8825
終始惟一時乃日新	-11.8825
璞	-11.8825
度量衡	-11.8825
靈承于旅	-11.8825
八政五紀	-11.8826
有明文	-11.8826
坐以待旦	-11.8826
絲枲	-11.8826
梏	-11.8827
摰	-11.8827
惟民之承	-11.8828
𢎞朕恭	-11.8829
牝牡	-11.883
愧恥	-11.883
無有作好遵王之道無有作惡遵王之路	-11.883
引泰誓曰	-11.883
禹别九州	-11.8831
自天子出	-11.8831
相息亮反	-11.8831
囚奴	-11.8832
惟明后	-11.8832
平章百姓	-11.8832
明德慎罰	-11.8833
降爾命	-11.8834
虞芮	-11.8835
九百四十分	-11.8835
罔攸兼	-11.8836
軒轅	-11.8837
刻鏤	-11.8837
慈祥	-11.8844
與江合	-11.8872
貝錦	-11.8915
沉湎	-11.8935
北江中江	-11.8982
蒗蕩渠	-11.9053
㑹通河	-11.9059
瀾滄	-11.9061
陌	-11.9064
山林川澤	-11.9064
九山刋旅	-11.9065
耘	-11.9065
洵	-11.9065
毫髮	-11.9067
旺	-11.9067
怍	-11.9067
妥	-11.9067
海岱及淮惟徐州	-11.9068
諍	-11.9068
㢲	-11.9068
寬	-11.9068
曷其奈何弗敬	-11.9069
麾	-11.9069
壟	-11.907
戒之用休	-11.907
季札	-11.9071
刄	-11.9071
隉	-11.9071
砥柱	-11.9072
惟皇上帝降衷于下民	-11.9072
勘	-11.9072
當此之時	-11.9072
吟	-11.9072
沃饒	-11.9072
虺	-11.9072
一曰水二曰火三曰木四曰金五曰土	-11.9073
殊厥井疆	-11.9073
荆岐既旅	-11.9073
湔氐道	-11.9073
磯	-11.9073
錫汝保極	-11.9074
脚	-11.9074
董正治官	-11.9074
徽柔懿恭	-11.9075
亂臣賊子	-11.9075
虜	-11.9076
禹敷土	-11.9076
㳺	-11.9076
格其非心	-11.9076
鋤	-11.9077
授宗人同	-11.9077
舊勞于外	-11.9077
列爵惟五分土惟三	-11.9078
驩	-11.9078
禎	-11.9078
鶉首	-11.9078
隊	-11.9078
夫音扶	-11.9078
烹	-11.9079
鄕	-11.9079
致意焉	-11.9079
發號施令	-11.9079
長上聲	-11.908
欽哉欽哉惟刑之恤哉	-11.908
畎畝	-11.908
李巡曰	-11.908
斨	-11.908
管蔡流言	-11.908
降時喪	-11.908
摠	-11.9081
山南曰陽	-11.9081
憑藉	-11.9081
肆汝小子封	-11.9082
縱弛	-11.9082
偃武修文	-11.9083
怙恃	-11.9083
往哉汝諧	-11.9087
疇咨若時登庸	-11.9089
静言庸違	-11.909
呱呱	-11.9091
日有食之	-11.9095
湯之慙	-11.9277
番番	-11.9311
東昌府	-11.9312
鷟	-11.9313
弓榦	-11.9316
一毫私意	-11.9316
陻塞	-11.9319
邸	-11.932
斲	-11.9324
飲食醉飽	-11.9324
枯洚	-11.9324
苴	-11.9324
次九曰嚮用五福威用六極	-11.9325
渦	-11.9326
彘	-11.9326
列爵惟五	-11.9327
叩	-11.9327
人謀鬼謀	-11.9328
顛隮	-11.9329
紏	-11.933
墊溺	-11.933
䋲	-11.9331
隻	-11.9331
枿	-11.9331
厥貢惟球琳琅玕	-11.9331
東北流逕	-11.9331
無偏無陂遵王之義	-11.9331
無偏無陂	-11.9331
蔡蒙旅平	-11.9332
膩	-11.9332
穆王命君牙	-11.9332
綏爰有衆	-11.9332
狹隘	-11.9332
瑣	-11.9333
宋林之竒撰	-11.9333
三百六十五日四分日之一	-11.9333
水北曰汭	-11.9333
協于克一	-11.9333
受天明命	-11.9333
王未克變	-11.9333
方岳之下	-11.9334
百篇之序	-11.9334
鬛	-11.9334
罵	-11.9334
公無困哉	-11.9334
匝	-11.9335
豢	-11.9335
有缺文	-11.9335
殪戎殷	-11.9336
五宅三居	-11.9336
爾其戒哉	-11.9337
得專征伐	-11.9337
冬至日在斗	-11.9338
惟帝時克	-11.9339
乃并是吉	-11.9339
習與性成	-11.9339
作其即位	-11.934
祲	-11.9341
翠	-11.9342
薛氏季宣曰	-11.9342
尊顯者	-11.9343
慎厥身修	-11.9343
黑黍	-11.9345
反徐扶	-11.9347
毨	-11.935
東南流逕	-11.9458
所恃以	-11.9515
大河故瀆	-11.9577
阨	-11.9582
僑	-11.9582
膽	-11.9584
交阯	-11.9585
充耘	-11.9586
葵	-11.9587
大野既豬	-11.9587
河亶甲居相	-11.9587
協時月正日同律度量衡	-11.9588
邶鄘	-11.9589
鈍	-11.9589
湍悍	-11.9589
三泉縣	-11.959
豈有他哉	-11.959
淮沂其乂	-11.959
豁	-11.9591
潼關	-11.9591
表厥宅里	-11.9591
綿亘	-11.9591
洱	-11.9591
迺	-11.9591
駸	-11.9592
垣曲縣	-11.9592
濠	-11.9592
吳才老	-11.9592
以臣伐君	-11.9592
絰	-11.9592
彝倫攸敘	-11.9592
克配上帝	-11.9593
舜命九官	-11.9593
浹洽	-11.9593
鍵	-11.9594
唐明皇	-11.9594
欽崇天道	-11.9594
三面距河	-11.9594
稀	-11.9594
王氏充耘曰	-11.9595
精意以享	-11.9595
柴桑	-11.9595
千夫長	-11.9595
妖孽	-11.9596
睿作聖	-11.9596
棫	-11.9596
林之竒曰	-11.9596
懷山襄陵	-11.9596
蓼	-11.9597
眚災肆赦	-11.9597
荆及衡陽惟荆州	-11.9597
輕重諸罰有權	-11.9597
羣后四朝	-11.9597
饕餮	-11.9597
慧	-11.9597
天其永我命于	-11.9597
肆覲東后	-11.9597
穆王命伯冏	-11.9598
不腆于酒	-11.9598
有言逆于汝心	-11.9598
無若丹朱傲	-11.9598
禋于六宗	-11.9598
芽	-11.9598
掌天地四時之官	-11.9599
三分益一	-11.9599
祀于周廟	-11.9599
犧牲粢盛	-11.9599
酆	-11.9599
心腹腎腸	-11.9599
可不戒哉	-11.9599
載采采	-11.9599
升自陑	-11.96
惟皇上帝	-11.96
玉五重	-11.96
拜手稽首誨言	-11.9601
不罹于咎	-11.9601
盜賊	-11.9602
僧	-11.9602
齊聖廣淵	-11.9602
項羽	-11.9602
誕敷文徳	-11.9603
太平御覽	-11.9606
煙	-11.9607
路寝	-11.9613
鳥獸魚鼈	-11.9633
百一十二	-11.9723
東故曰東	-11.9759
樗	-11.9844
不少延	-11.9846
蟄	-11.9848
雝	-11.9853
四百里粟五百里米	-11.9853
自河徂亳	-11.9855
尅	-11.9855
一極備凶一極無凶	-11.9856
鯀陻洪水	-11.9856
融堂書解卷	-11.9857
浹	-11.9857
杼	-11.9857
又其外方五百里曰	-11.9858
殷獻臣	-11.9858
又西南逕	-11.9858
滹	-11.9859
絫	-11.9859
狡	-11.9859
郭景純	-11.9859
憲天聰明	-11.9859
曰貞曰悔	-11.986
圛	-11.986
㬰	-11.986
秬鬯二卣	-11.986
抱祭器	-11.986
洙	-11.986
伊尹以冕服奉嗣王	-11.986
雺	-11.9861
垂裕後昆	-11.9861
勦	-11.9861
行之惟艱	-11.9861
惟和惟一	-11.9862
處仁遷義	-11.9862
甲子昧爽	-11.9862
事事物物	-11.9863
保釐東郊	-11.9863
天視自我民視天聽自我民聽	-11.9863
奬	-11.9863
眡	-11.9863
耜	-11.9863
黹	-11.9864
臣無有作福作威玉食	-11.9864
東别為沱	-11.9864
荆河惟豫州	-11.9864
愷	-11.9864
恭天成命	-11.9865
愾	-11.9865
世禄之家	-11.9865
犧牷牲	-11.9865
庶獄庶愼	-11.9865
與孔同	-11.9865
應門之内	-11.9866
善無常主	-11.9866
鼗鼓	-11.9867
准	-11.9867
率西方諸侯	-11.9867
東匯澤為彭蠡	-11.9867
史叙其事作	-11.9867
賔于四門	-11.9867
壷口	-11.9867
虎賁三百人	-11.9868
亦克用勸	-11.9868
誘掖	-11.9868
覃	-11.9868
帷	-11.9868
岷嶓既藝	-11.9869
院	-11.9869
尺有二寸	-11.9869
藹	-11.9869
珥	-11.9869
咸和萬民	-11.9869
威侮五行怠棄三正	-11.9869
嵎	-11.987
㠀	-11.987
惟天地萬物父母惟人萬物之靈	-11.987
陳師凱曰	-11.987
釣	-11.987
庶頑讒說	-11.987
允恭克讓	-11.9871
周公相成王	-11.9871
歸馬放牛	-11.9871
不協于極	-11.9871
酗于酒	-11.9871
建寅之月	-11.9871
糗	-11.9871
喋	-11.9873
儆戒無虞	-11.9873
慊	-11.9874
可識矣	-11.9874
于征伐商	-11.9874
斆學半	-11.9874
藳	-11.9875
幼冲	-11.9875
愚夫愚婦	-11.9878
鄣	-11.9879
閠	-11.988
肯構	-11.9882
王在新邑	-11.9888
三有宅	-11.9912
經世書	-11.9997
鄱	-12.0073
閬	-12.0119
瓠	-12.0124
紅	-12.013
阮	-12.0132
簸	-12.0132
打	-12.0133
天乃錫禹洪範九疇	-12.0134
鴟鴞之詩	-12.0135
九川滌源	-12.0135
查	-12.0135
爰立作相	-12.0135
其弼直	-12.0135
十夫予翼	-12.0136
囿	-12.0137
茹	-12.0137
羽毛齒革	-12.0137
訓夏贖刑	-12.0138
文獻通考	-12.0138
隋煬帝	-12.0138
内有百揆四岳	-12.0138
黯	-12.0138
正心誠意	-12.0138
坐作進退	-12.0138
闋	-12.0138
軾	-12.0138
刷	-12.0139
帙	-12.0139
相協厥居	-12.0139
棼棼	-12.0139
三監及淮夷	-12.0139
檀	-12.014
以旦代某之身	-12.014
惟十有三祀王訪于箕子	-12.014
披	-12.014
岱畎	-12.014
禮樂刑政	-12.014
不犯于有司	-12.0141
順天應人	-12.0141
配享在下	-12.0141
一戎衣天下大定	-12.0141
越厥命以自覆	-12.0142
煬	-12.0142
念兹在兹	-12.0142
文祖之廟	-12.0142
籩	-12.0142
這般	-12.0143
天一生水	-12.0143
訾	-12.0143
慄慄危懼	-12.0143
黜夏命	-12.0144
須臾	-12.0144
筋	-12.0144
洎	-12.0144
勗哉夫子	-12.0144
垂衣拱手	-12.0144
㑹其有極歸其有極	-12.0144
典謨訓誥誓命	-12.0145
鈎	-12.0145
其承厥志	-12.0145
痡	-12.0145
無偏無黨王道蕩蕩無黨無偏王道平平	-12.0146
太行恒山	-12.0146
羲氏和氏	-12.0146
燾	-12.0146
大降爾四國民命	-12.0147
殷始咎周	-12.0147
貍	-12.0147
鍜	-12.0148
無怠無荒	-12.0148
數紂之罪	-12.0149
沈湎于酒	-12.015
有成績	-12.015
師尚父	-12.015
蠲潔	-12.0151
四分日之一	-12.0151
無或敢伏小人之攸箴	-12.0151
郵	-12.0154
舞干羽于兩階	-12.0155
平康正直	-12.0155
出其不意	-12.0155
有司牧夫	-12.0157
推賢讓能	-12.0159
不匿厥指	-12.0162
鋝	-12.0168
水地志出	-12.0186
三宅無義民	-12.0284
管蔡霍	-12.0367
懇惻	-12.0405
云者則以言夫	-12.0411
鉤盤	-12.0411
椓	-12.0415
鬴	-12.0416
碧	-12.0418
簫韶九成	-12.0419
不務咎	-12.0419
譙	-12.042
神龜負	-12.042
格于上下	-12.0421
涖	-12.0421
五者來備	-12.0422
紛紜	-12.0422
功虧一簣	-12.0423
邁種徳	-12.0423
繳	-12.0423
予欲聞六律五聲八音	-12.0423
右北平	-12.0423
袁黄曰	-12.0424
克敬惟親	-12.0424
敜	-12.0424
正徳利用厚生	-12.0425
行所無事	-12.0425
光天之下	-12.0425
帝乃震怒	-12.0425
蠧	-12.0426
趨事赴功	-12.0426
東滙澤為彭蠡	-12.0426
董之用威	-12.0426
遹	-12.0426
相為表裏	-12.0426
自怨自艾	-12.0426
祗見厥祖	-12.0426
自作元命	-12.0426
至于再至于三	-12.0426
惟周公誕保文武受命惟七年	-12.0427
俄	-12.0427
墊隘	-12.0427
栢	-12.0427
線	-12.0427
月之行則有冬有夏月之從星則以風雨	-12.0427
卉	-12.0428
凡民自得罪	-12.0428
郟鄏	-12.0429
厠	-12.0429
高山大川	-12.0429
棲	-12.0429
孔氏頴逹曰	-12.0429
垂拱而天下治	-12.0429
庶土交正	-12.043
時惟天命	-12.043
凟	-12.043
僴	-12.043
予決九川距四海濬畎澮距川	-12.043
荒度土功	-12.0431
庸蜀羌髳微盧彭濮	-12.0431
馘	-12.0431
規摹	-12.0431
刊	-12.0431
恫痛	-12.0431
斧鉞	-12.0431
沐浴	-12.0431
鼵	-12.0432
松潘	-12.0432
無為而治	-12.0432
與孔不同	-12.0432
三綱五常	-12.0432
四海困窮天禄永終	-12.0432
康濟小民	-12.0433
祓	-12.0433
優㳺	-12.0433
天佑下民作之君作之師	-12.0433
厥土青黎	-12.0433
惟婦言是用	-12.0434
躭	-12.0434
汝作士	-12.0434
其如我何	-12.0434
㵎	-12.0434
劼	-12.0435
惟戊午王次于河朔	-12.0435
荼毒	-12.0436
惟時惟幾	-12.0437
倨	-12.0437
蠻夷率服	-12.0438
為羿所	-12.0439
狄設黼扆綴衣	-12.0439
蘷	-12.0441
既免喪	-12.0441
文王惟克厥宅心	-12.0442
釋器云	-12.0443
二百四十三	-12.0475
漢舊縣	-12.05
蒲昌海	-12.0503
不敢有後	-12.0659
金沙江	-12.0696
繕	-12.0699
崧	-12.0706
蒼梧	-12.0706
琅槐	-12.0707
舄	-12.0707
騶	-12.071
郯	-12.0711
作民明辟	-12.0711
鈗	-12.0712
掇	-12.0712
構	-12.0712
秋大熟	-12.0712
衢	-12.0713
鍳	-12.0713
梯	-12.0713
鮪	-12.0713
夾右碣石	-12.0713
載之髙地	-12.0714
聯	-12.0714
寅亮天地	-12.0714
庶草蕃廡	-12.0715
尚書正義卷第	-12.0715
巒	-12.0715
冗	-12.0716
泯泯	-12.0716
渭源縣	-12.0716
蒯	-12.0717
汝則從龜從筮從卿士從庶民從	-12.0717
孔叢子	-12.0717
莖	-12.0718
南郡臨沮縣	-12.0718
納于大麓	-12.0718
敹	-12.0718
勖	-12.0718
其于政也以	-12.0718
詰戎兵	-12.0718
婉	-12.0718
炭	-12.0718
燥濕	-12.0719
不被其澤	-12.0719
引夏書曰	-12.0719
諉	-12.0719
王氏肯堂曰	-12.0719
元惡大憝	-12.0719
無若爾考之違王命	-12.0719
與亂同事	-12.072
鄭武公	-12.072
顧諟天之明命	-12.072
烈風雷雨	-12.0721
兪	-12.0721
三年不齒	-12.0721
浮于汶達于濟	-12.0722
瑯琊	-12.0722
在今予小子旦	-12.0723
庶民惟星星有好風星有好雨	-12.0723
行下孟反	-12.0723
償	-12.0723
旅王若公	-12.0723
毘	-12.0724
氏敘章指見	-12.0724
伊瀍澗	-12.0724
下中三錯	-12.0724
慣	-12.0724
諳	-12.0724
凡厥庶民有猷有為有守汝則念之	-12.0724
汝弗能使有好于而家時人斯其辜	-12.0724
樂音洛	-12.0724
次于河朔	-12.0725
宋時瀾撰	-12.0725
文王騂牛一武王騂牛一	-12.0725
導河積石至于龍門	-12.0725
恍	-12.0725
臨事而懼	-12.0726
亶聰明作元后元后作民父母	-12.0727
謳	-12.0727
初學記	-12.0727
𧖟	-12.0727
惟時厥庶民于汝極錫汝保極	-12.0728
十步	-12.0728
餘波入于流沙	-12.0728
劑	-12.0728
若保赤子	-12.0728
夙夜祗懼	-12.0729
致天之罰于爾躬	-12.0729
大勲未集	-12.0729
工以納言	-12.0729
十三度十九分度之七	-12.0729
畔官離次	-12.073
監于先王成憲其永無愆	-12.0731
受有殷命	-12.0731
律歴志	-12.0732
伻嚮即有僚	-12.0733
千里而遥	-12.0733
㤗	-12.0734
面稽天若	-12.0737
號泣于旻天	-12.0747
敢知于兹	-12.0823
奉圭兼幣	-12.0904
京相璠	-12.0996
泰安州	-12.1007
齧	-12.1009
覡	-12.1013
彞倫攸叙	-12.1013
琅	-12.1013
摹	-12.1014
稜	-12.1016
郴	-12.1016
禺	-12.1017
瞀	-12.1017
籩豆	-12.1017
光被四表	-12.1017
我聞在昔	-12.1017
錮	-12.1018
墨劓剕宫大辟	-12.1019
王介甫	-12.1019
賈公彦	-12.1019
民協于中	-12.1019
謀及乃心謀及卿士謀及庶人謀及卜筮	-12.102
愜	-12.102
又北播為九河同為逆河入于海	-12.102
惟三祀十有二月朔	-12.102
其澤藪曰	-12.1021
簿	-12.1021
烈風雷雨弗迷	-12.1021
肇十有二州	-12.1021
䘏	-12.1022
有方多士	-12.1022
天聰明自我民聰明	-12.1022
頰	-12.1022
輓	-12.1022
無餘藴矣	-12.1023
賞延于世	-12.1023
治厯明時	-12.1023
皇天無親	-12.1023
鴟梟	-12.1024
春夏秋冬	-12.1024
詩言志歌永言聲依永律和聲	-12.1024
餒	-12.1024
王亦未敢誚公	-12.1024
覬覦	-12.1024
詢于四岳	-12.1025
夙夜罔或不勤	-12.1025
紹乃辟	-12.1025
萬二千五百人	-12.1025
其于爾躬有戮	-12.1025
同心同徳	-12.1026
霍太山	-12.1026
不于我政人得罪	-12.1026
耒	-12.1026
保厥位	-12.1026
其爾萬方有罪在予一人	-12.1026
勺	-12.1026
鍛	-12.1026
惟帝念功	-12.1026
徃哉汝諧	-12.1027
乃卜三龜一習吉	-12.1027
野無遺賢	-12.1027
王氏十朋曰	-12.1027
炳	-12.1027
五經博士	-12.1027
次輅在右塾之前	-12.1027
朱子語録云	-12.1027
臣哉鄰哉	-12.1028
咎單作明居	-12.1028
代天理物	-12.1028
水火金木	-12.1028
豐于昵	-12.1028
今爾奔走臣我監五祀	-12.1028
欽明文思安安	-12.1028
増修東萊書說卷	-12.1029
同寅協恭和衷	-12.1029
河出孟門之上	-12.1029
航	-12.103
月正元日	-12.103
伊洛瀍澗既入于河	-12.103
綺	-12.103
六千五百六十一	-12.103
娵訾	-12.1031
嗇	-12.1031
罪疑惟輕	-12.1031
子丑寅	-12.1031
王若曰嗚呼羣后	-12.1031
拆	-12.1032
蕝	-12.1032
壺口雷首至于太岳	-12.1032
戈㦸	-12.1033
皇天既付中國民	-12.1034
誼	-12.1034
成王既黜殷命	-12.1034
祗承于帝	-12.1034
矧汝剛制于酒	-12.1036
務時敏	-12.1036
檮杌	-12.1037
復齋董氏曰	-12.1038
嘉乃丕績	-12.1041
秬鬯一卣	-12.1048
南去縣	-12.1116
無偏無黨	-12.129
百一十里	-12.1313
譚	-12.1316
車服以庸	-12.1319
㓂	-12.1319
穯	-12.1322
鬰	-12.1324
寧羌州	-12.1324
鄭漁仲	-12.1325
三百里納秸服	-12.1326
六七八九	-12.1327
冤	-12.1327
无垢謂	-12.1327
甯	-12.1327
飼	-12.1328
㠯	-12.1328
婺	-12.1328
事神則難	-12.1328
欒	-12.1329
甌	-12.1329
異姓之邦	-12.1329
澀	-12.133
槐	-12.133
踐天子位	-12.133
先王克謹天戒	-12.133
如五器卒乃復	-12.1331
程泰之	-12.1331
屨	-12.1332
臣下不匡	-12.1332
還歸在豐	-12.1332
不旋踵	-12.1332
煞	-12.1333
王乃言曰嗚呼箕子惟天	-12.1333
其于物也為	-12.1333
大公至正	-12.1333
熄	-12.1334
皋	-12.1334
厥貢羽毛齒革惟金三品	-12.1334
誥告庶殷越自乃御事	-12.1334
賊虐諫輔	-12.1334
酬酢	-12.1334
架	-12.1335
以蕃王室	-12.1335
苹	-12.1335
克終允德	-12.1335
從欲以治	-12.1335
卧	-12.1335
刳剔	-12.1336
千二百黍	-12.1336
宣力四方	-12.1336
籈	-12.1336
學于古訓	-12.1336
錐	-12.1336
釐降二女	-12.1337
徐廣曰	-12.1337
不協于極不罹于咎皇則受之	-12.1337
罟	-12.1337
鞭作官刑	-12.1337
怵	-12.1337
鱗	-12.1337
臣之有作福作威玉食其害于而	-12.1338
醫無閭	-12.1338
浴	-12.1338
伊訓肆命徂后	-12.1338
竒技淫巧	-12.1338
儔	-12.1338
建邦設都	-12.1338
刑亂國用重典	-12.1339
擊石拊石	-12.1339
弔民伐罪	-12.1339
虖	-12.1339
民訖自若是多盤	-12.1339
司徒司馬司空亞旅	-12.1339
議事以制	-12.1339
先輅在左塾之前	-12.1339
澠	-12.1339
與其殺不辜寧失不經	-12.134
惟乃丕顯考文王	-12.134
自暴自棄	-12.134
侯以明之	-12.134
其難其慎	-12.134
予一人有罪無以爾萬方	-12.134
劓刵椓黥	-12.1341
蔟	-12.1341
麴蘖	-12.1341
巧言令色孔壬	-12.1342
若有恒性	-12.1342
熊羆狐貍織皮	-12.1342
夬	-12.1342
凶人為不善亦惟日不足	-12.1342
燄燄	-12.1342
懐山襄陵	-12.1342
庶殷侯甸男邦伯	-12.1342
宅乃事宅乃牧宅乃準	-12.1343
自東而西	-12.1343
迓續乃命	-12.1343
十七萬七千一百四十七	-12.1343
光宅天下	-12.1343
羹	-12.1343
蒙隂縣	-12.1343
列用中罰	-12.1343
昔朕來自奄	-12.1343
脾	-12.1343
萬億年	-12.1343
皷	-12.1344
不敢含怒	-12.1344
時措之宜	-12.1344
帝其念哉	-12.1345
厥土惟白壤	-12.1345
示天下弗服	-12.1346
惟狂克念作聖	-12.1346
戮于社	-12.1346
西傾因桓是來	-12.1347
正月朔旦	-12.1347
李廵曰	-12.1347
一人有慶	-12.1347
后克艱厥后	-12.1347
套	-12.1348
禧	-12.1348
矇	-12.1349
三八政一曰食	-12.1349
穪	-12.1349
饉	-12.1349
禹拜昌言曰俞	-12.135
此厥不聽	-12.135
汝終陟元后	-12.1355
友于兄弟	-12.1356
今陜西西安府	-12.1362
萬八千	-12.1485
年中更	-12.1547
堵	-12.1643
𡊮	-12.1647
杭	-12.1649
釜	-12.165
矛盾	-12.165
僥倖	-12.165
鳳凰	-12.165
辟以止辟	-12.1651
六歩七歩	-12.1651
王置諸其左右	-12.1651
六十五字	-12.1652
九共九篇	-12.1653
東漸于海	-12.1653
㢘	-12.1653
卿士從龜從筮從汝則逆庶民逆吉	-12.1653
觴	-12.1653
以寵利居成功	-12.1653
有正有事	-12.1654
疲	-12.1654
庶民從龜從筮從汝則逆卿士逆吉	-12.1654
戢	-12.1654
河出圖洛出書聖人則之	-12.1655
馮翊夏陽縣	-12.1655
溷	-12.1655
謹天戒	-12.1655
溼	-12.1656
愛克厥威	-12.1656
表正萬邦	-12.1656
三監之叛	-12.1656
外四面又各五百里	-12.1656
惟帝降格于夏	-12.1656
南陽平氏縣	-12.1656
通上下之情	-12.1656
舉而措之	-12.1656
鉏	-12.1657
滴	-12.1657
枹	-12.1658
萊夷作牧	-12.1658
王徂桐宫居憂	-12.1658
如岱禮	-12.1658
予乗四載	-12.1658
自我民明威	-12.1658
扶風武功縣	-12.1658
舊為小人	-12.1658
腴	-12.1658
上刑適輕下服下刑適重上服	-12.1659
紂子武庚	-12.1659
威克厥愛	-12.1659
寥	-12.1659
徂兹淮夷徐戎並興	-12.1659
孩	-12.166
樽	-12.166
杜元凱	-12.166
惟爾有神尚克相予以濟兆民無作神羞	-12.166
菲	-12.166
一以貫之	-12.166
受命于神宗	-12.166
修其禮物	-12.166
擿	-12.1661
殺越人于貨	-12.1661
菹	-12.1661
篚厥𤣥黄	-12.1661
無世在下	-12.1661
懇懇	-12.1661
惟口起羞	-12.1662
汝萬民乃不生生	-12.1662
悌	-12.1662
困學紀聞	-12.1662
我武惟揚侵于之疆	-12.1662
朞三百有六旬有六日以閏月定四時成	-12.1663
率遏衆力率割夏邑	-12.1663
札	-12.1663
淶	-12.1664
窄	-12.1664
水曰潤下火曰炎上木曰曲直金曰從革	-12.1664
各迪有功	-12.1664
帝曰來禹汝亦昌言	-12.1664
葉夢得	-12.1664
媿	-12.1664
不作無益害有益	-12.1664
月正元日舜格于文祖	-12.1664
為滄浪之水	-12.1664
吉凶軍賔嘉	-12.1665
屑屑	-12.1665
王若曰孟侯朕其弟小子封	-12.1665
舞干羽	-12.1665
諦	-12.1665
麴糵	-12.1665
惟二月既望	-12.1665
任天下之重	-12.1665
如下文所云也	-12.1666
鄭氏曉曰	-12.1666
司空掌邦土居四民時地利	-12.1666
扑作教刑	-12.1666
虐煢獨	-12.1667
惟聖罔念作狂	-12.1667
欲王以小民受天永命	-12.1667
可愛非君可畏非民	-12.1667
其惟王位在	-12.1668
惟吕命	-12.1669
筦	-12.1669
俶擾天紀	-12.167
栽培	-12.167
推原其	-12.1672
長丁丈反	-12.1673
三過其門而不入	-12.1673
灼知厥若	-12.1676
有星孛于	-12.1715
貟	-12.1965
釃	-12.1973
近天子之光	-12.198
聖有謨訓	-12.198
茶	-12.1982
又西逕	-12.1982
鯀則殛死禹乃嗣興天乃錫禹洪範九疇	-12.1983
棧	-12.1984
穆天子傳	-12.1984
鄭端簡	-12.1985
故此遂言	-12.1985
臘	-12.1986
班孟堅	-12.1986
人惟求舊	-12.1986
霖	-12.1986
汝則從龜從筮從卿士逆庶民逆吉	-12.1986
求諸非道	-12.1986
敬以直内	-12.1987
克寛克仁彰信兆民	-12.1987
過三澨至于大别南入于江	-12.1987
晹	-12.1988
民之所欲天必從之	-12.1988
筮短龜長	-12.1988
筠	-12.1988
長我王國	-12.1988
猶有存者	-12.1988
萇	-12.1988
帝告釐沃	-12.1988
尹兹東郊	-12.1988
績用弗成	-12.1989
踊	-12.1989
棺	-12.1989
塊	-12.199
安土重遷	-12.199
沈存中	-12.199
天其以予乂民	-12.199
予沖子夙夜毖祀	-12.199
厥四月哉生明王來自商至于豐	-12.199
嚮用五福	-12.199
陬	-12.199
戰戰兢兢	-12.1991
雨霽蒙驛克	-12.1991
周公初基作新大邑于東國洛	-12.1991
劇	-12.1992
鍊	-12.1992
凑	-12.1992
賢聖之君	-12.1992
忝厥祖	-12.1993
箘	-12.1993
三危既宅	-12.1993
汝則從龜從筮逆卿士逆庶民逆作内	-12.1993
惟幾惟康	-12.1993
郝	-12.1993
惟辟作福惟辟作威惟辟玉食	-12.1993
醒	-12.1993
王如弗敢及天基命定命	-12.1993
統承先王	-12.1994
髙辛氏	-12.1994
作周孚先	-12.1994
作周恭先	-12.1994
朕承王之休無斁	-12.1994
縉	-12.1994
人之有能有為使羞其行而邦其昌	-12.1994
復政厥辟	-12.1995
奉湯祀	-12.1995
簡賢附勢	-12.1995
肆予大化誘我友邦君	-12.1995
武王崩三監及淮夷叛	-12.1995
襟	-12.1995
皇天眷佑誕受厥命	-12.1995
永綏厥位	-12.1995
眷求一徳	-12.1995
敦煌	-12.1996
緇	-12.1996
槁	-12.1996
度作刑以詰四方	-12.1996
厥田惟上上厥賦中下	-12.1996
啓籥見書	-12.1997
正月上日受終于文祖	-12.1997
予克受非予武惟朕文考無罪	-12.1997
惟明克允	-12.1998
惟十有一年武王伐殷	-12.1998
孺子其朋	-12.1998
受克予非朕文考有罪惟予小子無良	-12.1998
無皇曰今日耽樂	-12.1998
分土惟三	-12.1998
西戎即敘	-12.1998
予未有知	-12.1998
裁成輔相	-12.1998
蘇忿生	-12.1998
三載考績三考黜陟幽明	-12.1998
二曰疾三曰憂四曰貧五曰惡六曰弱	-12.1998
二典三謨	-12.1999
貔	-12.1999
獄貨非	-12.1999
壌	-12.1999
任賢勿貳	-12.2
鄢	-12.2
肆念我天威	-12.2
五流有宅	-12.2
萬世永賴	-12.2
夫婦長幼朋友	-12.2
于其無好徳汝雖錫之福其作汝用咎	-12.2001
䜴	-12.2001
朢	-12.2001
錫貢磬錯	-12.2001
皇帝哀矜庶戮之不辜	-12.2002
厥土惟壤下土墳壚	-12.2002
干先王之誅	-12.2002
焯	-12.2002
袞	-12.2003
先格王	-12.2003
蹤	-12.2004
㽔	-12.2004
冑	-12.2005
二曰貨三曰祀四曰司空五曰司徒六曰	-12.2006
嗣守文武大訓	-12.2007
䛕	-12.2007
歴試諸難	-12.2007
路史後紀	-12.2007
觀逸遊田	-12.2007
稽謀自天	-12.2009
宐	-12.201
潛江縣	-12.2011
傅陽山	-12.2096
樂大典原	-12.2309
渮	-12.2321
三公三少	-12.2323
竺	-12.2323
殷小腆誕敢紀其	-12.2327
啓乃心沃朕心	-12.2328
惟辟作福	-12.2328
汨陳其五行	-12.2329
埤	-12.233
崐	-12.233
壮	-12.233
洸	-12.2331
顏	-12.2331
秉璋以酢	-12.2332
蟠	-12.2332
甲戌我惟征徐戎	-12.2332
玊	-12.2332
剔	-12.2332
是之謂大同身其康彊子孫其逢吉	-12.2332
授宗人同拜王答拜	-12.2333
天惟純佑命則商實百姓	-12.2333
埏	-12.2333
王先服殷御事比介于我有周御事	-12.2333
鰥寡孤獨	-12.2333
㨿	-12.2333
鄰哉臣哉	-12.2334
撫于五辰	-12.2334
肆祖甲之享國三十有三年	-12.2334
輻	-12.2334
立時人作卜筮三人占則從二人之言	-12.2334
麻冕黼裳	-12.2335
王省惟歲	-12.2335
自時厥後立王生則逸	-12.2335
凡七卜五占用二衍忒	-12.2335
李校書	-12.2335
膊	-12.2335
其克詰爾戎兵以陟禹之迹	-12.2335
惟十有二年六月庚午朏	-12.2336
戊午師逾孟津癸亥陳于商郊俟天休命	-12.2336
馬四匹	-12.2336
周公拜手稽首曰朕復子明辟	-12.2336
𢎞敷五典式和民則	-12.2336
䟦	-12.2336
賾	-12.2336
球琳琅玕	-12.2336
取亂侮亡	-12.2336
頑不即工	-12.2336
懽	-12.2336
縦	-12.2336
曰予恐來世以台為口實	-12.2337
企	-12.2337
西王母	-12.2337
深切著明	-12.2337
覬	-12.2337
昳	-12.2337
三載汝陟帝位	-12.2337
嵗月日時無易	-12.2337
楹	-12.2338
胡氏士行曰	-12.2338
蕩蕩平平正直	-12.2338
節性惟日其邁	-12.2338
晰	-12.2339
凡厥庶民極之敷言是訓是行以近天	-12.2339
若有恒性克綏厥猷惟后	-12.2339
正色率下	-12.2339
無或私家于獄之兩辭	-12.2339
昂	-12.2339
煽	-12.2339
敷奏以言明試以功車服以庸	-12.2339
柰	-12.2339
率德改行	-12.234
朕志先定詢謀僉同鬼神其依龜筮協從	-12.234
狭	-12.234
厥田惟下下厥賦下上上錯	-12.234
騁	-12.234
義或然也	-12.234
導弱水至于合黎餘波入于流沙	-12.234
人有士君子之行	-12.234
䂓	-12.2341
純亦不已	-12.2341
政在養民	-12.2341
溧	-12.2341
簟	-12.2341
燧	-12.2341
夔曰於予擊石拊石百獸率舞	-12.2341
猶以為未也	-12.2341
疫	-12.2341
予念我先神后之勞爾先	-12.2342
爾小子乃興從爾遷	-12.2342
任大責重	-12.2342
太行恒山至于碣石入于海	-12.2342
日講書經解義	-12.2342
六極一曰凶短折	-12.2342
二十有二人	-12.2343
錦綺	-12.2343
齊侯吕伋	-12.2343
承保乃文祖受命民越乃光烈考武王	-12.2343
丕乃崇降弗祥	-12.2343
駢	-12.2343
佯	-12.2344
與之更始	-12.2344
暨益奏庶鮮食	-12.2344
斫	-12.2344
王享國百年耄荒	-12.2344
出納朕命	-12.2344
越三日庚戌柴望大告武成	-12.2344
武夷熊氏曰	-12.2344
而泣予弗子惟荒度土功	-12.2344
俾必爾反	-12.2344
孜	-12.2345
一視同仁	-12.2345
鎖	-12.2345
俟天休命	-12.2345
炎上作苦曲直作酸從革作辛稼穡作甘	-12.2345
故乃明于刑之中	-12.2346
刑期于無刑	-12.2346
光烈考	-12.2346
肇位四海	-12.2346
惟彼陶唐	-12.2346
周書孔氏傳	-12.2347
換	-12.2347
刑發聞惟腥	-12.2347
伯夷降典	-12.2347
蕤	-12.2348
魅	-12.2348
盡執拘以歸于周予其殺	-12.2348
汝惟不矜天下莫與汝	-12.2349
寛綽厥心	-12.2349
澹	-12.2349
個	-12.235
朽索之馭六馬	-12.235
季秋月朔	-12.235
敢對揚天子之休命	-12.2351
通解續	-12.2351
文王罔攸兼于	-12.2351
署	-12.2353
錫命乃貢	-12.2356
十里水去縣	-12.2513
冏	-12.2677
明致天罰	-12.2678
蘇子瞻	-12.2679
繭	-12.2679
龔	-12.2681
寨	-12.2682
葦	-12.2684
覧	-12.2685
冷	-12.2685
於予擊石拊石	-12.2685
藻火粉米黼黻絺繡	-12.2685
饔	-12.2685
貯	-12.2686
分水嶺	-12.2687
鄠	-12.2688
水火金木土榖惟修	-12.2689
亦惟助王宅天命作新民	-12.2689
腑	-12.269
伊尹祠于先王	-12.269
若跣弗視地厥足用傷	-12.269
掊	-12.2691
明王奉若天道	-12.2691
嬀	-12.2691
哈	-12.2691
聲音笑貌	-12.2691
惟厥攸居政事惟醇	-12.2691
弗迓克奔以役西土	-12.2691
戴九履一	-12.2691
汝曷弗念我古后之聞	-12.2692
淯	-12.2692
爾乃自時洛邑尚永力畋爾田	-12.2692
斟	-12.2692
薫	-12.2692
君罔以辯言亂舊政	-12.2693
咸則三壤成賦中邦	-12.2693
俚	-12.2693
食哉惟時	-12.2693
時乃不可殺	-12.2693
報以庶尤	-12.2693
胥匡以生	-12.2693
輳	-12.2693
溠	-12.2693
永清四海	-12.2693
惠篤敘	-12.2693
菜	-12.2694
汝陳時臬	-12.2694
擢	-12.2694
敷納以言	-12.2694
天不庸釋于文王受命	-12.2694
殪	-12.2694
罰及爾身弗可悔	-12.2694
厓	-12.2695
小臣外正	-12.2695
王惟庸罔念聞	-12.2695
自時厥後	-12.2695
帝曰咨汝二十有二人	-12.2695
鋪	-12.2695
周公曰未可以戚我先王	-12.2695
永孚于休	-12.2696
厥田惟上中厥賦中中	-12.2696
受終于文祖	-12.2696
亦惟君惟長	-12.2696
不適有居	-12.2696
妍	-12.2696
衋	-12.2696
少師少傅少保曰三孤	-12.2696
勸之以九歌	-12.2696
霄	-12.2696
閲實其罪	-12.2697
罔有敵于我師前徒倒戈攻于後以北	-12.2697
自契至于成湯八遷	-12.2697
左洞庭右彭蠡	-12.2697
崈	-12.2697
仲虺乃作誥	-12.2697
若崩厥角	-12.2697
賞于祖	-12.2698
華夏蠻貊罔不率俾	-12.2698
殷侯尹民	-12.2698
家凶于而國人用側頗僻民用僭忒	-12.2699
鎔	-12.2699
淦	-12.2699
我不敢知曰有夏服天命惟有	-12.2699
伻來毖殷	-12.2699
欽哉惟時亮天功	-12.2699
東匯澤為彭蠡東為北江入于海	-12.2699
士農工商	-12.2699
汪	-12.2699
罄	-12.2699
龜筮協從	-12.27
甲士三人	-12.27
厥田惟下上厥賦下中三錯	-12.27
亦惟爾多士攸服奔走臣我多遜	-12.27
衽	-12.27
刑新國用輕典	-12.27
姓姬氏	-12.27
東漸于海西被于流沙朔南暨聲教	-12.27
王命衆悉至于庭	-12.27
食喪祭	-12.2701
泠	-12.2701
比屋可封	-12.2701
予畏上帝不敢不正	-12.2701
丘陵墳衍	-12.2701
惟其克相上帝寵綏四方	-12.2702
遮	-12.2702
剛克髙明柔克	-12.2702
氾	-12.2703
眊	-12.2703
罪人以族	-12.2703
商罪貫盈天命誅之予弗順天厥罪惟鈞	-12.2703
兠	-12.2704
映	-12.2704
昔先正保衡作我先王	-12.2705
苻	-12.2705
黿	-12.2705
致君澤民	-12.2705
顧氏錫疇曰	-12.2705
以功作元祀	-12.2706
非天庸釋有殷	-12.2708
厖	-12.2708
念終始典于學	-12.2709
不役耳目百度惟貞	-12.2711
我其試哉	-12.2711
常事司牧人	-12.2713
厥貢惟土五色	-12.2737
河關縣	-12.2762
縣本漢舊縣屬	-12.2842
華州華隂縣	-12.2897
珊瑚	-12.3042
寸五分	-12.3042
咫	-12.3046
胷	-12.3048
涐	-12.3049
蒗	-12.305
彞倫攸敘	-12.3053
鋸	-12.3054
碩	-12.3054
憶	-12.3055
博物志	-12.3055
碭	-12.3055
哲時燠若曰謀時寒若曰聖時風若	-12.3056
頥	-12.3057
下管鼗鼓合止柷敔笙鏞以	-12.3057
緡	-12.3057
夏僎撰	-12.3058
與治同道	-12.3059
史記索隠	-12.3059
諟	-12.306
庠	-12.306
卜掌三兆	-12.306
水自江出為沱	-12.306
醢	-12.306
伊尹作太甲三篇	-12.306
曰雨曰霽曰蒙曰驛曰克	-12.3061
車轍馬跡	-12.3061
惟王受命無疆惟休亦無疆惟恤	-12.3061
三墳五典	-12.3061
爰暨小人	-12.3061
或十年或七八年或五六年或四三年	-12.3061
不率大戛	-12.3062
有其善喪厥善矜其能喪厥功	-12.3062
師汝昌言	-12.3062
惟天生聰明時乂	-12.3062
琢	-12.3062
禹錫𤣥圭	-12.3062
讞	-12.3062
若網在綱有條而不紊	-12.3062
漢五行志	-12.3063
卜河朔黎水	-12.3063
七稽疑擇建立卜筮人乃命卜筮	-12.3063
世家大族	-12.3063
眺	-12.3063
臟	-12.3063
周公居東二年則罪人斯得	-12.3063
惟我事不貳適惟爾王家我適	-12.3063
酋	-12.3063
嘏	-12.3063
䑓	-12.3063
唘	-12.3063
王若曰父義和	-12.3064
心勞日拙	-12.3064
海隅蒼生	-12.3064
方伯連帥	-12.3064
尖	-12.3064
敬哉有土	-12.3064
允恭克讓光被四表格于上下	-12.3064
王若曰猷殷王元子	-12.3064
齒革羽毛惟木	-12.3065
安居樂業	-12.3065
慢神虐民	-12.3065
乃裕民曰我惟有及則予一人以懌	-12.3065
庶民惟星	-12.3065
凡爾衆其惟致告	-12.3065
彪	-12.3065
崇徳報功	-12.3065
瑗	-12.3065
二十有八載	-12.3065
厥貢漆絲厥篚織文	-12.3066
夏暑雨小民惟曰怨咨	-12.3066
盩	-12.3066
八音克諧無相奪倫神人以和	-12.3066
克知灼見	-12.3066
周公拜手稽首曰王命予來	-12.3066
慮善以動動惟厥時	-12.3066
嘉言罔攸伏	-12.3066
洽于民心	-12.3066
王來紹上帝自服于土中	-12.3066
出入起居罔有不欽	-12.3066
方施象刑惟明	-12.3066
擕	-12.3066
時乃功懋哉	-12.3066
顧炎武曰	-12.3066
㕓	-12.3066
另	-12.3067
崐崘析支渠搜	-12.3067
賙	-12.3067
伶	-12.3067
朕夢協朕卜	-12.3067
無塊曰壤	-12.3067
爾曷不忱裕之于爾多方	-12.3067
威以彰周公之	-12.3068
咸乂四篇	-12.3068
簮	-12.3068
畋爾田	-12.3068
王省惟嵗	-12.3068
順考古道	-12.3068
穀梁傳	-12.3068
乃穆考文王	-12.3068
畢則多雨	-12.3068
無曠庶官天工人其代之	-12.3068
自絶于天結怨于民	-12.3068
之格則承之庸之否則威之	-12.3069
天既訖我殷命	-12.3069
讚	-12.3069
予不允惟若兹誥	-12.3069
厥土惟黄壤	-12.307
蘉	-12.307
竑	-12.307
爾尚輔予一人致天之罰	-12.307
越有雊雉	-12.307
商曰祀周曰年	-12.307
肆中宗之享國七十有五年	-12.307
不遑暇食	-12.3071
允廸厥徳	-12.3071
有并兩刑	-12.3071
嘉謀嘉猷	-12.3071
心油然而生	-12.3071
輦	-12.3072
尚書古文疏證	-12.3072
予不敢宿則禋于文王武王	-12.3072
麽	-12.3072
祗載見瞽瞍	-12.3072
顯聞于天	-12.3073
厥田惟中上厥賦錯上中	-12.3073
髓	-12.3073
衆非元后何戴后非衆罔與守邦	-12.3073
罔不配天其澤	-12.3074
焚炙忠良刳剔孕婦	-12.3074
驂	-12.3074
友邦冡君	-12.3075
達觀于新邑營	-12.3075
卜不習吉	-12.3075
厥草惟繇	-12.3075
罔聞知	-12.3075
惟以在周工	-12.3076
􁅟	-12.3077
率百官若帝之初	-12.3077
邇可逺在兹	-12.3078
予視天下愚夫愚婦一能勝予	-12.3078
屆	-12.3079
椎	-12.308
念敬我衆	-12.308
罍	-12.3081
見賢遍反	-12.3084
用康乂民	-12.3085
跖	-12.3085
沫	-12.3163
萬六千	-12.3223
節書是紀禹	-12.3288
犍	-12.3371
啻	-12.3393
卣中尊	-12.3413
圖叙說	-12.3423
娑	-12.3428
明試以功	-12.343
瀉	-12.3431
鼂	-12.3432
用人惟己	-12.3432
奈	-12.3433
移爾遐逖	-12.3434
稹	-12.3435
潛行地下	-12.3436
堡	-12.3438
𢾗	-12.3438
軼	-12.3439
九山刋旅九川滌源九澤既陂	-12.344
欲敗度縱敗禮以速戾于厥躬	-12.3441
塗丹雘	-12.3441
九澤既陂	-12.3441
其爾衆士懋戒哉	-12.3442
燼	-12.3443
乃言曰我聞在昔鯀陻洪水汨陳其五行	-12.3444
東西兩川	-12.3444
此一莭書	-12.3444
􁆣	-12.3444
鶉	-12.3445
厥賦惟上上錯厥田惟中中	-12.3445
兹予大享于先王爾祖其從與享之	-12.3445
惟刑之恤	-12.3445
歸格于藝祖	-12.3445
若藥弗瞑眩厥疾弗瘳	-12.3446
貼	-12.3446
予違汝弼汝無面從退有後言	-12.3446
阡	-12.3446
翊	-12.3446
天子建徳因生	-12.3446
灰	-12.3446
知小人之所依	-12.3446
徳無常師	-12.3446
于湯有光	-12.3447
乃審厥象俾以形旁求于天下	-12.3447
逄	-12.3447
不知稼穡之艱難不聞小人之勞惟耽樂	-12.3447
惇宗將禮稱秩元祀咸秩無文	-12.3447
茂州汶山縣	-12.3447
伊尹作咸有一徳	-12.3447
我心之憂日月逾邁若弗云來	-12.3448
以意逆志	-12.3448
冬祁寒小民亦惟曰怨咨	-12.3448
太保受同祭嚌	-12.3448
受有億兆夷人離心離	-12.3448
不愆于四伐五伐六伐七伐乃止齊焉	-12.3448
詎	-12.3448
各守爾典以承天休	-12.3448
繅	-12.3448
后來其蘇	-12.3449
刑期無刑	-12.3449
辛壬癸甲	-12.3449
汝不憂朕心之攸困	-12.3449
炊	-12.3449
有猷有為有守	-12.345
自作不典	-12.345
罔弗憝	-12.345
故我至于今克受殷之命	-12.345
煑	-12.345
霧	-12.345
翕受敷施	-12.345
勱	-12.345
今予將試以汝遷安定厥邦	-12.345
儕	-12.3451
月之從星則以風雨	-12.3451
盱眙	-12.3451
爾有善朕弗敢蔽	-12.3451
紓	-12.3451
欵	-12.3451
保后胥慼	-12.3451
爾其孜孜奉予一人恭行天罰	-12.3451
祸	-12.3451
涂	-12.3451
亮采惠疇	-12.3451
桎	-12.3451
熏	-12.3451
弼成五服至于五千州十有二師	-12.3452
祗台徳先不距朕行	-12.3452
凜	-12.3452
月之從星	-12.3452
害虐烝民為天下逋逃主萃淵藪	-12.3452
惟克商遂通道于九夷八蠻	-12.3452
春風和氣	-12.3452
考朕昭子刑	-12.3452
民惟邦本	-12.3452
后克艱厥后臣克艱厥臣政乃乂黎民敏	-12.3452
監我士師工	-12.3452
鄭氏康成曰	-12.3452
王敬作所不可不敬徳	-12.3453
慄慄危懼若將隕于深淵	-12.3453
而康而色	-12.3453
惟受罪浮于桀	-12.3453
諸侯来朝	-12.3453
劓割夏邑	-12.3453
予旦以多子越御事篤前人成烈	-12.3453
自一至九	-12.3453
欲宅洛邑	-12.3453
羣行攻	-12.3453
序所以為作者之意	-12.3453
牝雞之晨惟家之索	-12.3453
造攻自鳴條朕哉自亳	-12.3453
唇	-12.3453
汝乃是不蘉乃時惟不永哉	-12.3453
惟天惠民惟辟奉天	-12.3453
格人元龜罔敢知吉	-12.3454
篾	-12.3454
忤	-12.3454
辟管叔于商	-12.3454
順乎天而應乎人	-12.3454
用其義刑義殺勿庸以次汝封	-12.3454
熊耳外方桐柏至于陪尾	-12.3454
螫	-12.3454
浮于洛達于河	-12.3455
楩	-12.3455
越五日甲寅位成	-12.3455
荆梁二州	-12.3455
􁀾􁀾	-12.3455
坐而論道	-12.3455
股肱惟人良臣惟聖	-12.3455
胼	-12.3456
嚴惟丕式	-12.3456
誕保文武受民	-12.3456
熊羆狐狸	-12.3456
胝	-12.3456
具乃貝玉	-12.3456
爾尚一乃心力其克有勲	-12.3456
其惟王勿以小民淫用非	-12.3456
敢知曰不其延惟不敬厥徳乃早墜厥命	-12.3456
懋昭周公之訓	-12.3457
兹在兹釋兹在兹	-12.3457
漿	-12.3457
敬授民時	-12.3457
尚書句解卷	-12.3457
為人上者奈何不敬	-12.3457
沲	-12.3457
太康失邦	-12.3457
厥木惟條	-12.3457
59.	-12.3457
勳	-12.3457
褊	-12.3458
宜于冢土	-12.3458
避居東都	-12.3458
其一曰皇祖有訓	-12.3458
嵎夷既略	-12.3459
厥四月哉生明	-12.3459
踞	-12.3459
二千一百八十七	-12.3459
立八尺之表	-12.346
七旬有苗格	-12.346
岷山之陽至于衡山過九江至于敷淺原	-12.346
天子惟君萬邦百官承式	-12.346
予創若時娶于塗山辛壬癸甲	-12.346
人心惟危道心惟微惟精惟一允執厥中	-12.346
天有顯道	-12.346
我先后綏乃祖乃父	-12.3461
州山鎮曰	-12.3461
羗	-12.3461
伶州鳩	-12.3461
皮氏縣	-12.3461
孺子其朋孺子其朋其	-12.3462
小曰橘大曰柚	-12.3463
供音恭	-12.3465
紳	-12.3468
罰移爾遐逖比事臣我宗多遜	-12.3474
䨇	-12.3481
博陽山	-12.3567
郃	-12.3822
緑	-12.3828
趵	-12.383
緹	-12.3831
箱	-12.3832
萬曰億	-12.3832
砱	-12.3833
霆	-12.3833
黷于祭祀	-12.3833
以五采彰施于五色作服汝明	-12.3835
撞	-12.3836
鎛	-12.3836
禹疏九河	-12.3838
水火金木土榖	-12.3838
猜	-12.3838
茭	-12.3839
昨	-12.384
下引水經注云	-12.384
殻	-12.384
若曰豫恒燠若曰急恒寒若曰蒙恒風若	-12.3841
曄	-12.3841
庳	-12.3841
扼	-12.3841
懵	-12.3843
召公為保周公為師相成王為左右	-12.3843
閤	-12.3844
王與大夫盡弁	-12.3844
東受降城	-12.3844
王曰公予小子其退即辟于周命公後	-12.3845
俾萬姓咸曰大哉王言	-12.3845
迥	-12.3845
天視自我民視	-12.3845
肆命徂后	-12.3845
闌	-12.3845
佃	-12.3846
購	-12.3846
慎厥終惟其始	-12.3846
黒水西河惟雍州	-12.3847
一隂一陽	-12.3847
天乃錫王勇智	-12.3847
弼亮四世	-12.3847
立民長伯	-12.3847
三百五十四日	-12.3847
彷	-12.3847
旅巢命	-12.3847
民受天地之中以生	-12.3847
亦則以穆穆在乃位	-12.3847
怯	-12.3847
方行天下至于海表罔有不服	-12.3848
頡	-12.3848
用爽厥師	-12.3848
厥土惟塗泥厥田惟下中厥賦上下	-12.3848
亦罔不克敬典乃由裕民惟文王之敬忌	-12.3848
夏后氏之璜	-12.3848
澇	-12.3848
鵌	-12.3848
念念不忘	-12.3849
瞭	-12.3849
東漸西被	-12.3849
殺受立武庚	-12.3849
即辟于周	-12.3849
心逸日休	-12.3849
官伯族姓	-12.3849
今我即命于元龜	-12.3849
両	-12.3849
爾身克正罔敢弗正民心罔中惟爾之中	-12.385
罔不懼于非辜	-12.385
華陽國志	-12.385
譊	-12.385
縻	-12.385
芮伯彤伯	-12.385
先知稼穡之艱難乃逸則知小人之依	-12.385
姚氏舜牧曰	-12.385
自古商人亦越我周文王立政立事牧夫	-12.385
餓	-12.3851
俾予一人輯寧爾邦家	-12.3851
惟事事乃其有備有備無患	-12.3851
平康正直彊弗友剛克燮友柔克	-12.3851
墜厥宗	-12.3851
其刑其罰其審克之	-12.3851
麄	-12.3852
主善為師	-12.3852
肆予東征綏厥士女惟其士女篚厥	-12.3852
附我大邑周	-12.3852
西傾朱圉鳥鼠至于太華	-12.3852
王曰多士昔朕來自奄	-12.3852
嫂	-12.3852
娥	-12.3852
命君陳分正東郊成周	-12.3852
婣	-12.3853
我不可不監于有夏亦不可不監于有殷	-12.3853
曰其自時中乂萬邦咸休惟王有成績	-12.3853
檻	-12.3853
以秬鬯二卣曰明禋拜手稽首休享	-12.3853
刑平國用中典	-12.3853
爾無忿疾于頑無求備于一夫	-12.3853
大都小伯	-12.3853
爾有嘉謀嘉猷則入告爾后于内	-12.3853
文考文王克成厥勲誕膺天命以撫方夏	-12.3853
今商王受無道暴殄天物	-12.3853
予惟率肆矜爾非予罪時惟天命	-12.3853
于弟弗念天顯乃弗克恭厥兄	-12.3853
惟口出好興戎朕言不再	-12.3853
天秩有禮自我五禮有庸哉	-12.3854
躇	-12.3854
禹拜曰都帝予何言予思日孜孜	-12.3854
予告汝于難若射之有志	-12.3854
悱	-12.3854
喧	-12.3854
命汝作納言夙夜出納朕命惟允	-12.3854
乃惟以爾多方之義民不克永于多享	-12.3854
使來告卜	-12.3854
六律五聲八音	-12.3854
告嗣天子王矣	-12.3854
我聞吉人為善惟日不足	-12.3855
王釋冕反喪服	-12.3855
洺	-12.3855
鼈	-12.3855
穉	-12.3855
侯甸男采衞	-12.3855
乃用三有宅克即宅曰三有俊克即俊	-12.3855
建邦啓土	-12.3855
克諧以孝烝烝乂不格姦	-12.3855
我無以告我先王	-12.3855
乃偃武修文歸馬于華山之陽放牛	-12.3856
必求諸道有言遜于汝志必求諸非道	-12.3856
糠	-12.3856
馬氏森曰	-12.3856
于桃林之野示天下弗服	-12.3856
知稼穡艱難	-12.3856
諸葛亮	-12.3856
皇天眷命奄有四海為天下君	-12.3856
越翼日戊午乃社于新邑牛一羊一豕一	-12.3856
君陳克和厥中	-12.3856
惟治亂在庶官	-12.3856
咨十有二牧曰食哉惟時	-12.3857
帝曰咨四岳有能典朕三禮僉曰伯夷	-12.3857
邦君有一于身國必亡	-12.3857
殷遺多士	-12.3857
沐	-12.3857
紹復先王之大業	-12.3858
不役志于享凡民惟曰不享惟事其爽侮	-12.3858
五過之疵	-12.3858
汝其敬識百辟享亦識其有不	-12.3858
所從受天下者	-12.3858
堯授舜舜授禹	-12.3858
天矜于民民之所欲天必從之	-12.3858
罔遊于逸罔淫于樂	-12.3858
公曰君告汝朕允	-12.3858
佑我烈祖格于皇天	-12.3859
彚	-12.3859
海物惟錯	-12.3859
締	-12.3859
乏軍興	-12.386
方鳩僝功	-12.386
瓴	-12.386
敢恭生生	-12.386
戒謹恐懼	-12.386
太康尸位	-12.386
惟四月哉生魄王不懌	-12.3861
相照應	-12.3862
王來自奄	-12.3863
藝文類聚	-12.3863
好呼報反	-12.3864
三旬苗民逆命	-12.3865
罔失法度	-12.3866
暈	-12.3871
凡我造邦	-12.4201
李吉甫	-12.4248
穰	-12.4249
遒	-12.4249
二從三逆	-12.4249
徭	-12.4254
予不敢閉于天降威用	-12.4254
挾武庚以叛	-12.4255
謾	-12.4256
盆	-12.4256
導沇水東流為濟入于河溢為滎	-12.4256
過九江至于敷淺原	-12.4257
蹇	-12.4257
有不期然而然者	-12.4258
壄	-12.4258
詮	-12.4259
袒	-12.4259
忿疾于頑	-12.4259
敬明乃罰	-12.4259
放僻邪侈	-12.426
峒	-12.4261
靜言庸違	-12.4261
周禮典瑞	-12.4261
迪簡在王庭尚爾事有服在大僚	-12.4261
兼弱攻昧	-12.4262
資富能訓惟以永年	-12.4262
戛擊鳴球搏拊琴瑟以詠	-12.4262
有天命謂敬不足行謂祭無益謂暴無傷	-12.4262
太子宜臼	-12.4262
自時中乂	-12.4262
矧予之徳言足	-12.4263
天休滋至	-12.4263
折民惟刑	-12.4263
服田力穡	-12.4263
管叔及其羣弟	-12.4263
今汝永念則有固命厥亂明我新造邦	-12.4263
告君乃猷裕我不以後人迷	-12.4264
岷山導江東别為沱又東至于澧	-12.4264
在太戊時則有若伊陟臣扈格于上帝	-12.4264
故一人有事于四方若卜筮罔不是孚	-12.4264
舍己從人	-12.4264
燄	-12.4264
夷微盧烝三亳阪尹	-12.4265
王執書以泣曰其勿穆卜	-12.4265
至武都為漢	-12.4265
粢	-12.4265
怙侈滅義	-12.4265
以覲文王之耿光以揚武王之大烈	-12.4265
父子有親君臣有義	-12.4265
厥罪小乃不可不殺乃有大罪非終乃惟	-12.4265
萬化之原	-12.4265
速由文王作罰	-12.4266
王歸自克夏至于亳誕告萬方	-12.4266
大戰于甘乃召六卿	-12.4266
篤棐時二人我式克至于今日休	-12.4266
朕夢協朕卜襲于休祥戎商必克	-12.4266
内卦為貞外卦為悔	-12.4266
庾仲雍	-12.4266
立太師太傅太保兹惟三公	-12.4266
胥動浮言	-12.4266
無違朕不敢有後無我怨	-12.4266
予其曰惟爾洪無度我不爾動自乃邑	-12.4267
非天私我有商惟天佑	-12.4267
厥不聽人乃訓之乃變亂先王之正刑至	-12.4267
雖有周親不如仁人	-12.4267
簡厥修亦簡其或不修	-12.4267
水火金木土穀	-12.4267
導岍及岐至于荆山逾于河	-12.4267
孺子來相宅其大惇典殷獻民亂	-12.4268
聃	-12.4268
萬邦黎獻共惟帝臣惟帝時舉	-12.4268
肻	-12.4268
冬至日在虚	-12.4268
不有康食	-12.4268
售	-12.4268
若不在時侯以明之撻以記之書用識	-12.4268
爾之許我我其以璧與珪歸俟爾	-12.4268
𤣥黄昭我周王天休震動用附我大邑周	-12.4268
洑	-12.4268
不忍人之政	-12.4268
鐫	-12.4268
漢上曰沔	-12.4268
洪惟圖天之命弗永寅念于祀	-12.4268
盡禮致敬	-12.4269
剛克高明柔克	-12.4269
后式典集庶邦丕享	-12.4269
笛	-12.4269
咸庶中正	-12.4269
熬	-12.4269
爾曷不夾介乂我周王享天之命	-12.4269
蓄疑敗謀	-12.4269
纉禹舊服	-12.4269
乃元孫不若旦多材多藝不能事鬼神	-12.4269
予曰宥爾惟勿宥惟厥中	-12.4269
包匭菁茅	-12.4269
欽若先王成烈以休于前政	-12.427
厥愆曰朕之愆允若時不啻不敢含怒	-12.427
乃言厎可績	-12.427
進厥良以率其或不良	-12.427
詢謀僉同	-12.427
岳曰瞽子父頑母嚚象傲	-12.4271
與治同道罔不興與亂同事罔不亡	-12.4271
遏密八音	-12.4271
若兄考乃有友伐厥子民養其勸弗救	-12.4271
越三日丁巳用牲于郊牛二	-12.4271
乃非民攸訓非天攸若時人丕則有愆	-12.4271
絹	-12.4271
文王受命惟中身厥享國五十年	-12.4271
又曰時惟爾初不克敬于和則無我怨	-12.4271
流放竄殛	-12.4271
尹兹東夏	-12.4271
舜讓于徳弗嗣	-12.4271
于父不能字厥子乃疾厥子	-12.4271
厥貢璆鐵銀鏤砮磬	-12.4271
周公曰嗚呼我聞曰昔在殷王中宗	-12.4272
是信是使是以為大夫卿士	-12.4272
好于而家	-12.4272
惟三月周公初于新邑洛用告商王士	-12.4272
韜	-12.4272
公不敢不敬天之休來相宅其作周匹休	-12.4272
肅將天威	-12.4272
嗚呼臣人咸若時惟良顯哉	-12.4272
失于政陳于兹	-12.4272
椁	-12.4272
詰姦慝刑暴亂	-12.4272
有臣億萬惟億萬心予有臣三千惟一心	-12.4272
投諸四裔	-12.4272
厥考翼其肯曰予有後弗棄基	-12.4272
斷制五刑以亂無辜上帝不蠲	-12.4272
殄戮多罪亦克用勸開釋無辜亦克用勸	-12.4272
越七日甲子周公乃朝用書命	-12.4272
斷乃罔後艱	-12.4273
惟朕小子其新逆	-12.4273
我聞亦惟曰在今後嗣王酣身	-12.4273
三分損一	-12.4273
公將不利於孺子	-12.4273
成王東伐淮夷	-12.4273
予大降爾四國民命我乃明致天	-12.4273
畢協賞罰	-12.4273
王庸作書以誥曰	-12.4273
有鰥在下曰虞舜	-12.4273
王曰汝陳時臬事罰蔽殷	-12.4274
恭從明聰睿	-12.4274
伏羌縣	-12.4274
以弼五教	-12.4274
爾不克敬爾不啻不有爾土予亦	-12.4274
不敢侮鰥寡庸庸祗祗威威顯民	-12.4274
既生魄庶邦冢君暨百工受命于周	-12.4274
惟九年大統未集予小子其承厥志	-12.4274
肆爾多士非我小國敢弋殷命	-12.4274
亦越成湯陟丕釐上帝之耿命	-12.4274
以容將食無災	-12.4275
享享多儀儀不及物惟曰不享	-12.4275
今王即命曰記功宗以功作元祀	-12.4275
疻	-12.4275
二曰月三曰日四曰星辰五曰厯數	-12.4275
人乃或譸張為幻	-12.4275
帝曰禹官占惟先蔽志昆命于元龜	-12.4275
乃言底可績	-12.4276
疑謀勿成	-12.4276
有幹有年	-12.4276
廼	-12.4276
跌	-12.4276
予齊百工伻從王于周予惟曰庶有事	-12.4276
寵綏四方	-12.4277
罰之屬三百大辟之罰其屬二百	-12.4277
倚法以削	-12.4277
二十有八載帝乃殂落	-12.4277
乃曰予弗克俾厥后惟堯舜其心	-12.4277
排淮泗而注之江	-12.4277
五子咸怨述大禹之戒以作歌	-12.4277
纊細綿	-12.4278
撿	-12.4278
斃	-12.4278
師氏虎臣百尹御事	-12.4279
殺戮無辜爰始	-12.4279
我惟無斁其康事公勿替刑四方其世享	-12.428
王若曰明大命于妹邦	-12.428
以佑乃辟永康兆民萬邦惟無斁	-12.428
明作有功惇大成裕汝永有辭	-12.4281
五辭簡孚正于五刑	-12.4281
湼	-12.4281
𬒳	-12.4282
赧	-12.4283
氂	-12.4284
延入翼室恤宅宗	-12.4285
株	-12.4286
腰	-12.4292
筒	-12.4294
無黨無偏	-12.4329
千餘年	-12.4621
韈	-12.4657
檜	-12.4665
泇	-12.467
小勃律	-12.4674
亦行有九徳	-12.4676
楛矢石砮	-12.4682
透	-12.4684
牁	-12.4685
咽	-12.4685
宿胥口	-12.4687
作福作威玉食	-12.4688
獻臣百宗工	-12.4689
徠	-12.469
葭	-12.469
歐陽大小夏侯	-12.469
三邦厎貢厥名	-12.4691
漣	-12.4691
東南據濟西北距河	-12.4691
閻百詩	-12.4691
蟲之孽	-12.4691
天作孽猶可違自作孽不可逭	-12.4691
頸	-12.4692
列爵分土	-12.4692
霤	-12.4692
邕	-12.4692
以同授宗人	-12.4693
天道福善禍淫降災于夏以彰厥罪	-12.4693
腦	-12.4693
垻	-12.4694
涓	-12.4694
新服厥命	-12.4694
隂騭下民相協厥居	-12.4694
戻	-12.4694
肘	-12.4694
南至下邳入泗	-12.4695
無敢不供汝則有無餘刑非殺	-12.4695
囊	-12.4696
偏黨反側	-12.4696
負固不服	-12.4696
天畏棐忱民情大可見小人難保	-12.4696
葉氏夢得曰	-12.4696
天生民而立之君	-12.4696
立賢無方	-12.4696
蕞	-12.4696
視民如傷	-12.4696
惟爾知惟殷先人有冊有典殷革夏命	-12.4697
惟予小子嗣守文武成康遺緒	-12.4697
成賦中邦	-12.4697
西被于流沙	-12.4697
柞	-12.4697
乃大降罰崇亂有夏因甲于内亂	-12.4697
若伊尹格于皇天在太甲時則有若保衡	-12.4697
自土沮漆	-12.4697
植璧秉珪	-12.4698
東原底平	-12.4698
西傾朱圉鳥鼠	-12.4698
緱	-12.4698
帝庸作歌	-12.4698
直而温寛而栗剛而無虐簡而無傲	-12.4698
乃别播敷造民大譽弗念弗庸	-12.4698
潘氏士遴曰	-12.4699
商耇成人	-12.4699
吉凶軍賓嘉	-12.4699
曰唐虞稽古建官惟百内有百揆四岳	-12.4699
昔君文武丕平富不務咎	-12.4699
夏社疑至臣扈	-12.4699
王曰嗚呼封敬明乃罰	-12.4699
王若曰嗚呼父師	-12.4699
劬	-12.4699
倭	-12.4699
聮	-12.4699
爍	-12.4699
尊徳樂道	-12.47
古人有言曰撫我則后虐我則	-12.47
邶	-12.47
篤敘乃正父	-12.47
嗚呼乃祖成湯克齊聖廣淵	-12.47
爾謂朕曷震動萬民以遷	-12.47
遏佚前人光	-12.47
若農服田力穡乃亦有秋	-12.47
苗頑弗即工	-12.47
天惟畀矜爾我有周惟其大介賚爾	-12.47
洶	-12.4701
九江納錫大龜	-12.4701
水由地中行	-12.4701
不能厥家人越厥小臣外正	-12.4701
斂時五福	-12.4701
矧今卜并吉	-12.4701
相亦罔終	-12.4701
惟帝其難之	-12.4702
王曰嗚呼多士爾不克勸忱我命	-12.4702
兕	-12.4702
蒿	-12.4702
于周周公咸勤乃洪大誥治	-12.4702
恪謹天命	-12.4702
嗚呼尚克時忱乃亦有終	-12.4702
管叔于商囚蔡叔于郭鄰以車七	-12.4702
仭	-12.4702
嗚呼惟我文考若日月之照臨	-12.4702
有服在大僚	-12.4702
王曰猷告爾多士予惟時其遷居西爾	-12.4702
周公曰嗚呼我聞曰古之人猶胥訓告	-12.4702
爾乃不大宅天命爾乃屑播天命	-12.4702
華陽黒水惟梁州	-12.4703
天乃佑命成湯降黜夏命	-12.4703
曰嗚呼厥亦惟我周太王王季克自抑畏	-12.4703
明王立政不惟其官惟其人	-12.4703
我西土棐徂邦君御事小子尚克用文王	-12.4703
曰告爾殷多士今予惟不爾殺予惟時命	-12.4703
乃不良于言予罔聞于行	-12.4703
乃命爾先祖成湯革夏俊民甸四方	-12.4703
王曰若昔朕其逝朕言艱日思	-12.4703
􁂵	-12.4703
侯甸男邦采衞	-12.4703
罪在朕躬	-12.4703
圖厥政莫或不艱	-12.4703
水火金木土穀惟修	-12.4704
盡善盡美	-12.4704
人未見聖若不克見既見聖亦不克由聖	-12.4704
爽惟天其罰殛我我其不怨	-12.4704
無足怪者	-12.4704
殷民在辟予曰辟爾惟勿辟	-12.4704
爾其戒哉爾惟風下民惟草	-12.4704
庸建爾于上公	-12.4704
建官惟賢位事惟能重民五教惟食	-12.4704
姊	-12.4704
公曰前人敷乃心乃悉命汝作汝民極	-12.4704
濋	-12.4704
恐不獲誓言嗣	-12.4705
取彼凶殘我伐用張于湯有光	-12.4705
楫	-12.4705
贊贊襄哉	-12.4705
濞	-12.4705
乃有不用我降爾命我乃其大罰殛之	-12.4705
晳	-12.4705
敬敷五教在寛	-12.4705
惟夏之恭多士大不克明保享于民	-12.4705
十龠為合	-12.4705
慎終于始	-12.4705
今我曷敢多誥我惟大降爾四國民命	-12.4705
汝克黜乃心	-12.4705
自靖人自獻于先王我不顧行遯	-12.4705
今汝其曰夏罪其如台	-12.4706
罪當朕躬弗敢自赦惟簡在上帝之心	-12.4706
隔八相生	-12.4706
左右攜僕	-12.4706
天之厯數在爾躬	-12.4706
乃命三后恤功于民伯夷降典折民惟刑	-12.4706
惟天降命肇我民惟元祀	-12.4706
貉	-12.4706
王曰封元惡大憝矧惟不孝不友	-12.4706
禹曰枚卜功臣惟吉之從	-12.4706
紬	-12.4707
士有正越庶伯君子其爾典	-12.4707
䏻	-12.4707
天用勦絶其命	-12.4707
無怠無荒四夷來王	-12.4707
㓗	-12.4707
朔旦冬至	-12.4707
嗚呼欽予時命其惟有終	-12.4707
九十曰耄	-12.4707
滲	-12.4708
用五紀次五曰建用皇極次六曰乂用三	-12.4708
䳜	-12.4708
醟	-12.4708
惟五月丁亥王來自奄至于宗周	-12.4708
拳	-12.4708
夏王弗克庸徳	-12.4708
畮	-12.4708
予迓續乃命于天予豈汝威用奉畜汝衆	-12.4708
有罪無罪予曷敢有越厥志	-12.4708
王曰嗟四方司政典獄非爾惟作天牧	-12.4708
居寵思危罔不惟畏弗畏入畏	-12.4708
爾克敬天惟畀矜爾	-12.4708
宅爾邑繼爾居爾厥有幹有年于兹洛	-12.4708
左輔右弼	-12.4709
率徳改行	-12.4709
今惟殷墜厥命我其可不大監撫于時	-12.4709
制治保邦	-12.4709
太師太傅太保	-12.4709
眞氏德秀曰	-12.4709
邁迹自身	-12.4709
克勤于邦克儉于家不自滿假惟汝賢	-12.4709
言曰在時二人天休滋至惟時二人弗戡	-12.4709
御非其馬之正汝不恭命	-12.471
饕	-12.471
搢	-12.471
上下勤恤其曰我受天命丕若有夏	-12.471
今予以爾有衆奉將天罰	-12.471
嗣爾股肱純其藝黍稷奔走事厥考厥長	-12.471
昔君文王武王宣重光	-12.471
帝曰俾予從欲以治四方風動惟乃之休	-12.471
右不攻于右汝不恭命	-12.471
詔王子出迪	-12.471
息齋余氏曰	-12.4711
股肱心膂	-12.4711
罔敢湎于酒不惟不敢亦不暇	-12.4711
㦯	-12.4711
堯都平陽	-12.4711
禹曰吁咸若時惟帝其難之知人則哲能	-12.4711
遺厥先宗廟弗祀	-12.4711
乃惟爾商後王逸厥逸	-12.4712
岯	-12.4712
周公曰王若曰猷告爾四國多方	-12.4713
劾	-12.4713
朝直遥反	-12.4713
永建乃家	-12.4713
帝曰契百姓不親五品不遜	-12.4713
暴殄天物	-12.4713
王曰嗚呼肆汝小子封惟命不于常	-12.4713
克厥宅心	-12.4713
旁招俊乂	-12.4714
恠	-12.4714
三令五申	-12.4714
乃伻我有夏式商受命奄甸萬姓	-12.4714
嗚呼王若曰誥告爾多方非天庸釋有夏	-12.4714
厥或誥曰羣飲汝勿佚	-12.4714
分命和仲宅西曰昧谷	-12.4714
𠞰	-12.4715
庵	-12.4715
撻以記之	-12.4715
予惟曰汝劼毖殷獻臣	-12.4716
五萬九千四十九	-12.4716
天之厯數在汝躬	-12.4717
帳	-12.4719
試可乃已	-12.472
息浪反	-12.4723
䀌	-12.4723
頟	-12.4724
次二曰敬用五事	-12.4901
雋	-12.5091
坡	-12.5131
僎	-12.5133
天子作民父母以為天下王	-12.5134
東狼谷	-12.5141
塲	-12.5142
街	-12.5144
在治忽以出納五言汝聽	-12.5145
灕	-12.5146
賄肅慎之命	-12.5146
愼徽五典	-12.5146
夹	-12.5146
愽	-12.5146
四門穆穆納于大麓烈風雷雨弗迷	-12.5146
擇建立卜筮人	-12.5146
爾惟訓于朕志	-12.5146
牝	-12.5147
知我國有疵民不康曰予復反鄙我周邦	-12.5147
飯	-12.5147
克寛克仁	-12.5147
昧昧我思之	-12.5147
澁	-12.5147
朱子語錄	-12.5148
告于衆曰嗟予有衆	-12.5148
畢獻方物	-12.5148
動丕應徯志以昭受上帝天其申命用休	-12.5148
栽者培之傾者覆之	-12.5149
曰惟祖惟父其伊恤朕躬	-12.5149
􁆞	-12.5149
其或不恭邦有常刑	-12.5149
爾萬方百姓罹其凶害弗忍荼毒	-12.5149
逈	-12.5149
曰雨曰暘曰燠曰寒曰風	-12.5149
斿	-12.5149
皁	-12.515
豎	-12.515
械	-12.515
宋魏了翁撰	-12.515
悴	-12.515
偏陂好惡	-12.5151
嵯	-12.5151
四方迪亂未定于宗禮亦未克敉公功	-12.5151
宥過無大刑故無小罪疑惟輕功疑惟重	-12.5151
撲	-12.5151
玉石俱焚	-12.5151
其浸波溠	-12.5151
扶風汧縣	-12.5151
伯叔之國	-12.5151
予欲觀古人之象日月星辰山龍華蟲作	-12.5151
承以大夫師長不惟逸豫惟以亂民	-12.5151
尚書要義卷	-12.5151
庶績其凝	-12.5151
萬邦咸休	-12.5151
克諧以孝	-12.5152
虞芮質成	-12.5152
懋遷有無化居	-12.5152
爾乃邁迹自身克勤無怠以垂憲乃後	-12.5152
葘	-12.5152
予曷其極卜敢弗于從	-12.5152
鄯州龍支縣	-12.5152
癉	-12.5152
惟元祀十有二月乙丑伊尹祠于先王	-12.5152
經無明文	-12.5152
撕	-12.5153
瓊	-12.5153
瘝厥君時乃引惡惟朕憝	-12.5153
朔南暨聲教	-12.5153
輯纂引	-12.5153
后來無罰	-12.5153
武王戎車三百兩	-12.5154
卿士邦君麻冕蟻裳入即位	-12.5154
厥貢惟金三品	-12.5154
汝不和吉言于百姓惟汝自生毒	-12.5154
惇大成裕	-12.5154
羣僕侍御之臣	-12.5155
敗度敗禮	-12.5155
鮑	-12.5155
肆予沖人	-12.5155
剏	-12.5155
天棐忱辭其考我民予曷其不于前	-12.5155
乃敗禍姦宄以自災于厥身	-12.5155
負罪引慝	-12.5155
自作不和爾惟和哉爾	-12.5155
洹	-12.5155
聞曰上帝引逸有夏不適逸則惟帝降格	-12.5155
惟十有三年春	-12.5155
今命爾予翼作股肱心膂	-12.5156
視乃厥祖	-12.5156
王曰公功棐迪篤罔不若時	-12.5156
汊	-12.5156
遲任有言曰人惟求舊器非求舊惟新	-12.5156
東序西嚮	-12.5156
訑	-12.5156
王命作冊逸祝冊惟告周公其後	-12.5156
乃告二公曰我之弗辟我無以告我先王	-12.5156
夫子朂哉	-12.5156
伊尹作書曰先王顧諟天之明命	-12.5156
􁆈	-12.5156
爾尚克羞饋祀爾乃自介用逸	-12.5156
葵初王氏曰	-12.5156
朕及篤敬恭承民命用永地于新邑	-12.5156
惰農自安	-12.5156
率惟兹有陳保乂有殷故殷禮陟配天	-12.5156
嗚呼天明畏弼我丕丕基	-12.5157
昉	-12.5157
疚	-12.5157
轂	-12.5157
爾亦則惟不克享凡民惟曰不享	-12.5157
爾乃自作不典圖忱于正	-12.5157
予亦念天即于殷大戾肆不正	-12.5157
罔不祗肅	-12.5157
亦敢殄戮用乂民若有功	-12.5157
周公曰嗚呼君子所其無逸	-12.5157
若虞機張往省括于度則釋	-12.5157
自今至于後日各恭爾事齊乃位度乃口	-12.5157
帝曰格汝舜詢事考言乃言	-12.5158
書蔡氏傳旁通卷	-12.5158
度其隰原	-12.5158
永畏惟罰非天不中惟人在命	-12.5158
漳水横流入河	-12.5158
今其有今罔後汝何生在上	-12.5158
四夷咸賔	-12.5158
掘陵原	-12.5158
羣后之逮在下明明棐常鰥寡無	-12.5158
天惟時求民主乃大降顯休命于成湯	-12.5159
王若曰猷大誥爾多邦越爾御事	-12.5159
鵲	-12.5159
五百里荒服三百里蠻二百里流	-12.5159
䳺	-12.5159
暨汝奭其濟小子同未在位	-12.5159
天位艱哉	-12.5159
欽定書經傳說彚纂卷	-12.5159
裝	-12.516
太保太史太宗皆麻冕彤裳	-12.516
腋	-12.516
甑	-12.516
侯甸男邦采衛	-12.516
有夏桀弗克若天流毒下國	-12.516
燕喪威儀	-12.516
前徒倒戈	-12.516
攬	-12.516
刳	-12.516
我非敢勤惟恭奉幣用供王能祈天永命	-12.516
今汝聒聒起信險膚予弗知乃所訟	-12.516
今天其相民矧亦惟卜用	-12.516
明清于單辭	-12.5161
疴	-12.5161
陞	-12.5161
越三日庚戌太保乃以庶殷攻位于洛汭	-12.5161
緅	-12.5161
反曰嗚呼乃罪多參在上乃能責命于天	-12.5161
亦惟天丕建保乂有殷殷王亦罔敢失帝	-12.5162
罔有攸赦	-12.5162
三細不宥	-12.5162
武王惟兹四人尚迪有禄	-12.5162
我亦不敢知曰其終出于不祥	-12.5162
相小人厥父母勤勞稼穡	-12.5162
爾萬方百姓	-12.5162
大弗克恭上下遏佚前人光在家不知	-12.5162
峪	-12.5162
天惟求爾多方大動以威開厥顧天	-12.5162
不敢自暇自逸矧曰其敢崇飲	-12.5162
天討有罪五刑五用哉政事懋哉懋哉	-12.5162
文王九十七而終	-12.5162
曰格汝禹朕宅帝位三十有三載耄期倦	-12.5162
惟府辜功	-12.5163
禋于文王武王	-12.5163
都白所治	-12.5163
我不敢知曰厥基永孚于休若天棐忱	-12.5163
楙	-12.5163
萬姓仇予	-12.5163
諸侯各朝于方岳	-12.5163
𤣥衣纁裳	-12.5163
祖乙圯于耿	-12.5163
今至于爾辟弗克以爾多方享天之命	-12.5163
古我先后既勞乃祖乃父	-12.5163
恐人倚乃身迂乃心	-12.5163
淫酗肆虐臣下化之	-12.5163
公明保予沖子	-12.5164
其能而亂四方以敬忌天威	-12.5164
舉能其官惟爾之能稱匪其人惟爾不任	-12.5164
功乃成不貴異物賤用物民乃足	-12.5164
文王武王克知三有宅心灼見三有俊心	-12.5164
死者不可復生	-12.5164
乃惟成湯克以爾多方簡代夏作民主	-12.5164
澗水東瀍水西	-12.5164
汝猷黜乃心	-12.5165
莆	-12.5165
告于皇天后土	-12.5165
蔡氏元度曰	-12.5165
曰要囚服念五六日至于旬時丕蔽要囚	-12.5165
上時掌反	-12.5165
析因夷隩	-12.5165
爾衆士同力王室尚弼予欽承天子威命	-12.5165
左不攻于左汝不恭命	-12.5166
旦曰其作大邑其自時配皇天毖祀	-12.5166
其爾典常作之師無以利口亂厥官	-12.5166
乃敢告教厥后曰拜手稽首后矣	-12.5166
越獻臣百宗工矧惟爾事服休服采	-12.5166
麴	-12.5166
惇徳允元	-12.5167
降霍叔于庶人	-12.5167
泮	-12.5167
溝通江淮	-12.5167
墨罰之屬千劓罰之屬千剕罰之屬五百	-12.5167
百司庶府	-12.5168
學古入官議事以制政乃不迷	-12.5168
戒爾卿士功崇惟志業廣惟勤惟克果	-12.5169
道積于厥躬	-12.5169
申命和叔宅朔方曰幽都平在朔易	-12.517
稷降播種	-12.517
帝曰俞咨禹汝平水土惟時懋哉	-12.517
汝祖汝父	-12.517
伻來以圖及獻卜	-12.517
􁆦	-12.5172
五刑之疑有赦五罰之疑有赦其審克之	-12.5173
咨十有二牧	-12.5173
周公曰嗚呼嗣王其監于兹	-12.5174
棉	-12.5184
嘉績于朕邦	-12.5212
盎	-12.5603
糜	-12.5609
畊	-12.5609
液	-12.5612
佾	-12.5614
臾	-12.5616
杳	-12.5616
槽	-12.5618
駱	-12.5619
柏葉松身	-12.5619
沌	-12.562
佶	-12.5621
身其康彊	-12.5622
持盈守成	-12.5622
阞	-12.5622
水從西來注之	-12.5622
苫	-12.5623
東原厎平	-12.5623
嵗大旱用汝作霖雨	-12.5623
硤	-12.5623
丕從厥志	-12.5623
隂隲下民	-12.5623
殄資澤于下民侵戎我國家純	-12.5624
陲	-12.5624
徳清胡渭撰	-12.5624
杪	-12.5624
敗常亂俗	-12.5625
為山九仞	-12.5625
垂拱仰成	-12.5625
夏與春交	-12.5625
嗚呼閔予小子嗣造天丕愆	-12.5625
聫	-12.5625
嗚呼皇天上帝改厥元子兹大國殷之命	-12.5626
宋錢時撰	-12.5626
兼攻取侮	-12.5626
王出在應門之内	-12.5626
其作汝用咎	-12.5626
巫咸乂王家在祖乙時則有若巫賢	-12.5626
漢出為潛	-12.5626
御非其馬之正	-12.5627
濛	-12.5627
以成周之衆命畢公保釐東郊	-12.5627
鑰	-12.5627
匕	-12.5627
嗚呼繼自今後王立政其惟克用常人	-12.5627
若金用汝作礪若濟巨川用汝作舟楫若	-12.5628
乾隆四十六年	-12.5628
重華協于帝	-12.5628
覿	-12.5628
柢	-12.5628
今蠢今翼日民獻有十夫予翼以于敉	-12.5628
稱爾戈比爾干立爾矛予其誓	-12.5628
弗率訓典殊厥井疆俾克畏慕	-12.5628
嗟人無譁聽命	-12.5628
隗	-12.5628
纘禹舊服	-12.5629
漓	-12.5629
對揚文武之光命追配于前人	-12.5629
作新大邑	-12.5629
嗚呼古我前后罔不惟民之承	-12.5629
民咨胥怨	-12.5629
四曰攸好徳五曰考終命	-12.563
曰乃其速由文王作罰刑兹無赦	-12.563
怕	-12.563
除其邪虐	-12.563
鉛松怪石	-12.563
厥惟艱哉	-12.563
報本反始	-12.563
越予小子考翼不可征王害不違卜	-12.563
瑤	-12.563
侯服百里采二百里男邦三百里諸侯	-12.5631
桞	-12.5631
君臣父子兄弟夫婦朋友	-12.5631
冕執劉立于東堂一人冕執鉞立于西堂	-12.5631
二公及王乃問諸史與百執事	-12.5631
代虐以寛	-12.5631
犛	-12.5631
大航頭	-12.5631
贍	-12.5631
又曰天不可信我道惟寧王	-12.5631
牘	-12.5631
郕	-12.5631
為四方新辟作周恭先	-12.5631
有斯明享乃不用我	-12.5632
歇	-12.5632
憒	-12.5632
敢知曰不其延惟不敬厥德乃早墜厥命	-12.5632
欽定書經傳説彚纂卷	-12.5632
汝不謀長以思乃災汝誕勸憂	-12.5632
保后胥慼鮮以不浮于天時	-12.5632
于小大民否則厥心違怨否則厥口詛祝	-12.5632
汝曷弗告朕而胥動以浮言恐沈于衆	-12.5632
乃反商政政由舊釋箕子囚封比干墓	-12.5632
亦惟有夏之民叨懫日欽劓割夏邑	-12.5632
以親九族九族既睦平章百姓百姓昭明	-12.5633
皐	-12.5633
驕淫矜侉	-12.5633
產	-12.5633
不能容以不能保我子孫黎民亦曰殆哉	-12.5633
政貴有恒辭尚體要不惟好異	-12.5633
命爾不許我我乃屏璧與珪	-12.5633
家給人足	-12.5633
而康而色曰予攸好徳汝則錫之福	-12.5633
士制百姓于刑之中	-12.5633
越天棐忱爾時罔敢易法矧今天降戾	-12.5633
惟説不言有厥咎	-12.5633
光于四方顯于西土惟我有周誕受多方	-12.5633
誕鄰胥伐于厥室爾亦不知天命不易	-12.5634
薛士龍	-12.5634
如自其口出是能容之	-12.5634
今商王受狎侮五常荒怠弗敬	-12.5634
買	-12.5634
乃命建侯樹屏在我後之人	-12.5634
鈴	-12.5634
亦惟先王之臣克左右亂四方	-12.5634
夏迪簡在王庭	-12.5634
明明我祖萬邦之君有典有則貽厥子孫	-12.5634
乃惟孺子頒朕	-12.5634
降之百殃	-12.5634
其惟不言言乃雍不敢荒	-12.5634
初惟厥終終以不困不惟厥終終以困窮	-12.5634
責人斯無難惟受責俾如流是惟艱哉	-12.5634
君子在野小人在位民棄不保天降之咎	-12.5634
天命弗僭賁若草木兆民允殖	-12.5634
曰敢敬告天子皇天改大邦殷之命	-12.5634
乃司兹率厥常懋昭周公之訓惟民其乂	-12.5634
亦惟先正克左右昭事厥辟	-12.5634
越若來三月惟丙午朏越三日戊申太	-12.5634
襍	-12.5635
猥	-12.5635
保朝至于洛卜宅厥既得卜則經營	-12.5635
文王卑服即康功田功	-12.5635
娛	-12.5635
于周邦惟大艱人	-12.5635
錫周公曰拜手稽首旅王若公	-12.5635
兄亦不念鞠子哀大不友于弟惟弔	-12.5635
予乃𦙍保大相東土其基作民明辟	-12.5635
王曰我不惟多誥我惟祗告爾命	-12.5635
越惟有胥伯小大多正爾罔不克臬	-12.5635
厥田惟中下厥賦貞作十有三載乃同	-12.5635
宗伯掌邦禮治神人和上下	-12.5635
王翼日乃瘳	-12.5635
乃惟四方之多罪逋逃是崇是長	-12.5635
予其懋簡相爾念敬我衆	-12.5635
乃命于帝庭敷佑四方	-12.5635
之臧惟汝衆邦之不臧惟予一人有佚罰	-12.5635
今我民罔弗欲喪	-12.5635
尚式時周公之猷訓惟日孜孜無敢逸豫	-12.5636
彛倫攸叙	-12.5636
三宿三祭三咤	-12.5636
王其徳之用祈天永命	-12.5636
五百里要服三百里夷二百里蔡	-12.5636
惟爾元孫某	-12.5636
王末有成命王亦顯	-12.5636
庶土交正底慎財賦	-12.5636
夑	-12.5636
郊社不修宗廟不享作	-12.5636
刑罰世輕世重惟齊非齊有倫有要	-12.5636
王曰嗟六事之人予誓告汝	-12.5637
憸人其惟吉士用勱相我國家	-12.5637
今天降疾殆弗興弗悟爾尚明時朕言	-12.5637
𥙿	-12.5637
穟	-12.5637
庾仲初	-12.5637
咅	-12.5637
宅中圖治	-12.5637
傷心惟荒腆于酒不惟自息乃逸厥心疾	-12.5637
率乃祖攸行	-12.5637
庶羣自酒腥聞在上故天降喪于殷	-12.5637
若顛木之有由蘖	-12.5638
惟嗣王不惠于阿衡	-12.5638
惟曰欲至于萬年惟王子子孫孫永保民	-12.5638
王曰古人有言曰牝雞無晨	-12.5638
黷于祭祀時謂弗欽禮煩則亂事神則難	-12.5638
殷罔不小大好草竊姦宄	-12.5638
端本澄源	-12.5638
九敘惟歌	-12.5638
河東彘縣	-12.5638
望秩于山川	-12.5638
以敬事上帝立民長伯	-12.5638
敷前人受命	-12.5638
汝分猷念以相從各設中于乃心	-12.5638
誕受厥命越厥邦厥民惟時	-12.5638
卒其伐功	-12.5639
一人三失怨豈在明不見是圖	-12.5639
父義母慈兄友弟恭子孝	-12.5639
若爾三王是有丕子之責于天	-12.5639
惟爾多方罔堪顧之	-12.5639
越小大邦用喪亦罔非酒惟辜	-12.5639
宋史浩撰	-12.5639
漊	-12.564
四獸之皮	-12.564
我二人共貞公其以予萬億年敬天之休	-12.564
盤庚斆于民由乃在位以常舊服正法度	-12.5641
逕葭萌入漢	-12.5641
其爾克紹乃辟于先王永綏民	-12.5641
越七日癸酉伯相命士須材	-12.5641
寅餞納日平秩西成宵中星	-12.5641
予惟曰襄我二人汝有合哉	-12.5641
非台小子敢行稱亂有夏多罪天命殛之	-12.5642
近附近之近	-12.5642
賦功屬役	-12.5642
曰無戲怠懋建大命	-12.5642
禹能修鯀之功	-12.5642
殱厥渠魁	-12.5642
邯	-12.5642
曰惟先格王正厥事	-12.5642
造次顛沛	-12.5642
無作神羞	-12.5643
五月丁亥	-12.5643
王曰嗚呼封敬哉無作怨勿用非謀非	-12.5643
用肇造我區夏越我一二邦以修	-12.5643
上下其自時中乂王厥有成命治民今休	-12.5643
爾安百姓何擇非人何敬非刑何度非及	-12.5643
汝共作我畜民汝有戕則在乃心	-12.5643
今在予小子旦若游大川	-12.5644
儀禮經傳通解	-12.5644
亦越武王率惟敉功不敢替厥義	-12.5644
亂罰無罪殺無辜怨有同是叢于厥身	-12.5645
畋于有洛之表	-12.5645
沿于江海達于淮泗	-12.5647
怨豈在明	-12.5647
劓辟疑赦其罰惟倍	-12.5648
朓	-12.5648
率作興事慎乃憲欽哉屢省乃成欽哉	-12.5648
五過之疵惟官惟反惟内惟貨惟來	-12.5649
殤	-12.565
武王勝殷殺受立武庚以箕子歸作洪範	-12.5651
乃罔畏畏	-12.5651
子之光曰天子作民父母以為天下王	-12.5654
埸	-12.5656
臯陶曰都亦行	-12.5661
王用丕欽罔有逸言民用丕變	-12.5666
丕視功載	-12.5824
初一曰五行次二曰敬用五事次三曰	-12.5906
尚書通考卷	-12.6109
比事臣我宗多遜	-12.6111
狁	-12.6113
明徵定保	-12.6113
惲	-12.6115
嘔	-12.6115
椒	-12.6116
緬	-12.6117
笮	-12.6117
摶埴之工	-12.6118
衛輝府	-12.612
國外曰郊	-12.6121
筑	-12.6121
土黏曰埴	-12.6122
威克厥愛允濟	-12.6123
岫	-12.6123
漷	-12.6123
率寧人有指疆土	-12.6123
悊	-12.6124
有大艱于西土西土人亦不	-12.6124
饜	-12.6124
嗚呼有績予一人永綏在位	-12.6124
王曰若昔大猷制治于未亂保邦于未危	-12.6124
取彼凶殘	-12.6125
串	-12.6125
逖矣西土之人	-12.6125
飄	-12.6126
無所忌憚	-12.6126
心廣體胖	-12.6126
恪慎克孝肅恭神人	-12.6126
鯁	-12.6126
溯	-12.6126
古之謀人則曰未就予忌惟今之謀人姑	-12.6126
功多有厚賞不迪有顯戮	-12.6126
不克靈承于旅罔丕惟進之恭洪舒于民	-12.6127
峙乃芻茭無敢不多汝則有大刑	-12.6127
葛伯不祀湯	-12.6127
於變時雍	-12.6127
暨厥終罔顯	-12.6127
世篤忠貞服勞王家厥有成績紀于太常	-12.6128
誕受羑若	-12.6128
文鹿子皮	-12.6128
軟	-12.6128
肇十有二州封十有二山濬川	-12.6128
鶻	-12.6128
桴	-12.6128
惟口起羞惟甲胄起戎惟衣裳在笥惟	-12.6128
我咸成文王功于不怠丕冒海隅出日	-12.6128
㑹于澗瀍又東㑹于伊又東北入于河	-12.6128
亞旅師氏千夫長百夫長	-12.6128
日宣三徳夙夜浚	-12.6129
敜乃穽無敢傷牿牿之傷汝則有常刑	-12.6129
爾秬鬯一卣彤弓一彤矢百盧弓一盧矢	-12.6129
建亥之月	-12.6129
旌别淑慝表厥宅里彰善癉惡樹之風聲	-12.6129
崇髙富貴	-12.6129
平秩南訛	-12.6129
盂	-12.6129
無胥戕無胥虐	-12.6129
二公曰我其為王穆卜	-12.6129
敢用𤣥牡敢昭告于上天神后請罪有夏	-12.613
旁作穆穆迓衡不迷文武勤教	-12.613
惟天聰明惟聖時憲惟臣欽若惟民從乂	-12.613
肆台小子將天命明威不敢赦	-12.613
探天之威我則致天之罰離逖爾土	-12.613
𤼵號施令	-12.613
王若曰嗚呼君牙惟乃祖乃父	-12.613
罇	-12.613
乃咸大不宣乃心欽念以忱動予一人	-12.613
惟時天罔念聞厥惟廢元命降致罰	-12.613
修齊治平	-12.613
孝乎惟孝	-12.613
棄咎若保赤子惟民其康乂	-12.613
天工人其代之	-12.613
曰嗚呼惟天生民有欲無主乃亂	-12.6131
軀	-12.6131
俾暴虐于百姓以姦宄于商邑	-12.6131
曰嗚呼天難諶命靡常	-12.6131
抄	-12.6131
已汝惟小子乃服惟𢎞王應保殷民	-12.6131
王曰嗚呼肆哉爾庶邦君越爾御事	-12.6131
惟周公左右先王綏定厥家毖殷頑民遷	-12.6131
王曰嗚呼小子封恫瘝乃身敬哉	-12.6131
予聞曰能自得師者王謂人莫	-12.6131
周公曰嗚呼自殷王中宗	-12.6131
邦乃其昌	-12.6131
相時憸民猶胥顧于箴言其	-12.6132
既克商二年王有疾弗豫	-12.6132
武王有疾周公作金縢	-12.6132
上天孚佑下民罪人黜伏	-12.6132
導黒水至于三危入于南海	-12.6132
弗若于汝政弗化于汝訓辟以止辟乃辟	-12.6132
斂時五福用敷錫厥庶民	-12.6132
莾	-12.6132
圄	-12.6132
承以大夫師長	-12.6132
鍔	-12.6133
與受戰于牧野作牧誓	-12.6133
與天下更始	-12.6133
滓	-12.6133
宋蘇軾撰	-12.6133
祭公謀父	-12.6133
若火之燎于原不可嚮邇其猶可撲滅	-12.6133
聞曰怨不在大亦不在小惠不惠懋不懋	-12.6133
劭	-12.6133
若升髙必自下若陟遐必自邇	-12.6133
嗚呼往哉惟休無替朕命	-12.6134
縳	-12.6134
王曰封我聞惟曰在昔殷	-12.6134
舍我穡事而割正夏	-12.6134
娶于塗山	-12.6134
將遜于位讓于虞舜	-12.6134
乃命重黎絶地天通罔有降格	-12.6134
消息盈虚	-12.6134
不惕予一人予若觀火予亦拙謀作乃逸	-12.6134
赭	-12.6134
駒	-12.6135
王曰嗚呼敬之哉官伯族姓朕言多懼	-12.6135
旼	-12.6135
十三度有竒	-12.6135
無荒失朕命	-12.6135
澤潤生民	-12.6135
罔水行舟朋淫于家用殄厥世	-12.6135
糵	-12.6135
掌建邦之六典	-12.6135
欽定四庫全書書傳卷	-12.6135
琊	-12.6135
今商王受力行無度	-12.6135
今王嗣受厥命我亦惟兹二國命嗣若功	-12.6135
父師若曰王子天毒降災荒殷邦方興	-12.6135
綌	-12.6136
㢤	-12.6136
狃于姦宄敗常亂俗三細不宥	-12.6136
琪	-12.6136
惟天不畀允罔固亂弼我我其敢求位	-12.6136
砭	-12.6136
緊	-12.6136
今爾有衆汝曰我后不恤我衆	-12.6136
禹敷土隨山刋木奠髙山大川	-12.6136
伊尹乃言曰先王昧爽丕顯坐以待旦	-12.6136
周公曰嗚呼繼自今嗣王則其無	-12.6136
罪無在大亦無在多矧曰其尚顯聞于天	-12.6136
攸受休畢	-12.6137
蒞	-12.6137
咨伯汝作秩宗夙夜惟寅直哉惟清	-12.6137
子弗祗服厥父事大傷厥考心	-12.6137
有廢有興出入自爾師虞庶言同則繹	-12.6137
書經大全卷	-12.6137
立愛惟親立敬惟長始于家邦終于四海	-12.6137
矧惟若疇圻父薄違農父若保宏父定辟	-12.6138
滿招損謙受益時乃天道	-12.6138
惟十有三年春大㑹于孟津	-12.6138
今商王受弗敬上天降災下民	-12.6138
陳啓源曰	-12.6138
不克畏死辜在商邑越殷國滅無罹	-12.6138
公功肅將祗歡	-12.6138
逋逃主萃淵藪	-12.6138
怖	-12.6138
非汝封又曰劓刵人無或劓刵人	-12.6138
𡵨	-12.6139
百僚師師百工惟時撫于五辰庶績其凝	-12.6139
于殷我有周佑命將天	-12.6139
笠	-12.6139
孶	-12.6139
彝倫攸叙	-12.6139
同力度徳同徳度義	-12.6139
怵惕惟厲中夜以興思免厥愆	-12.6139
式敷民徳永肩一心	-12.6139
嚴惟丕式克用三宅三俊其在商邑用	-12.6139
欽定四庫全書尚書講義卷	-12.6139
臯陶拜手稽首颺言曰念哉	-12.614
商其淪喪我罔為臣僕	-12.614
爲于僞反	-12.614
忞	-12.614
太御中大夫	-12.614
今予命汝一無起穢以自臭	-12.614
六府三事允治萬世永賴時乃功	-12.614
國則罔有立政用憸人不訓于	-12.614
始源曰沔	-12.6141
臯陶曰都在知人在安民	-12.6141
典祀無豐于昵	-12.6141
今爾何監非時伯夷播刑之迪	-12.6141
執藝事以諫	-12.6141
曰疇若予上下草木鳥獸僉曰益哉帝曰	-12.6141
寅餞納日	-12.6141
惟慢遊是好	-12.6142
帝曰疇咨若予采驩	-12.6142
山襄陵浩浩滔天下民其咨	-12.6142
汝作士五刑有服五服三就	-12.6142
厥子乃不知稼穡之艱難乃逸乃諺	-12.6142
王曰吁來有邦有土告爾祥刑	-12.6142
十旬弗反	-12.6142
星火以正仲夏厥民因鳥獸希革	-12.6142
商今其有災我興受其敗	-12.6142
公執桓圭	-12.6143
今爾罔不由慰日勤爾罔或戒不勤	-12.6143
墩	-12.6143
帝曰俞允若兹	-12.6143
爾尚敬逆天命以奉我一人	-12.6144
肇牽車牛逺服賈	-12.6144
是訓用違	-12.6144
黑水西河惟雍州	-12.6144
脊以東之水	-12.6144
天齊于民俾我一日非終惟終在人	-12.6144
王曰嗚呼念之哉伯父伯兄仲叔季弟	-12.6144
去邪勿疑	-12.6145
價	-12.6145
翡	-12.6145
其罪惟均其審克之	-12.6145
降年有永有不永	-12.6146
賑	-12.6147
享明乃服命	-12.6147
珣	-12.6147
民弗用靈制以刑惟作五虐之刑曰法	-12.615
氣朔分齊	-12.6151
曰若古有訓蚩尤惟始作亂延及于平民	-12.6151
贈	-12.6153
日講官起居注	-12.6164
年春彗	-12.6196
農用八政次四曰	-12.6345
乃汝其悉自教工	-12.6346
厥田惟上下厥賦中上	-12.6599
鄊	-12.663
遮害亭	-12.6632
㲼	-12.6638
無餘刑非殺	-12.6642
又東北㑹于汶又北東入于海	-12.6642
弧	-12.6643
五者來備各以其叙庶草蕃廡	-12.6643
淡	-12.6643
枋	-12.6645
糊	-12.6645
歐	-12.6645
皇天無親惟徳是輔	-12.6645
瑩	-12.6645
式敬爾由獄	-12.6646
弦蒲藪	-12.6646
庶頑䜛説	-12.6646
孟明西乞白乙	-12.6646
矦	-12.6647
筴	-12.6647
堨	-12.6647
餐	-12.6647
㓙	-12.6648
臣人克有常憲百官修輔厥后惟明明	-12.6648
遺我大寳龜	-12.6649
父義和汝克昭乃顯祖	-12.6649
大誥爾多邦	-12.6649
寂然不動	-12.665
沸	-12.665
作福作災予亦不敢動用非徳	-12.665
嗚呼威克厥愛允濟愛克厥威允罔功	-12.665
滎陽下引河東南為鴻溝	-12.665
楷	-12.665
至于岱宗柴望秩于山川肆覲東后	-12.6651
媢	-12.6651
率性之謂道	-12.6652
初征自葛東征西夷怨南征北狄怨	-12.6652
沓	-12.6652
道有升降政由俗革不臧厥臧民罔攸勸	-12.6652
殲	-12.6653
惟截截善諞言俾君子易辭我皇多有之	-12.6653
惸	-12.6653
予欲左右有民汝翼予欲宣力四方汝為	-12.6653
予若觀火	-12.6653
紺	-12.6653
東至角西至婁	-12.6653
三壇同墠	-12.6653
芑	-12.6653
宅爾宅畋爾田	-12.6653
以殷餘民封康叔	-12.6654
震動萬民以遷	-12.6654
曰奚獨後予攸徂之民室家相慶曰徯	-12.6654
蹉	-12.6654
惟暨乃僚罔不同心以匡乃辟	-12.6654
于後公乃為詩以貽王名之曰鴟鴞	-12.6654
爾忱不屬惟胥以沈不其或稽自怒曷瘳	-12.6654
司馬掌邦政統六師平邦國	-12.6655
竈	-12.6655
造攻自鳴條	-12.6655
爾衆士其尚迪果毅以登乃辟	-12.6655
爾庶邦君越庶士御事罔不反曰艱大	-12.6655
蹄	-12.6655
妬	-12.6655
尚桓桓如虎如貔如熊如羆于商郊	-12.6655
櫽	-12.6655
芟夷藴崇	-12.6655
斑	-12.6655
湯征諸侯葛伯不祀湯始征之作湯征	-12.6655
肆其監于兹我受命無疆惟休亦大惟艱	-12.6655
對曰信噫公命我勿敢言	-12.6656
商俗靡靡利口惟賢餘風未殄公其念哉	-12.6656
鱉	-12.6656
四千九十六	-12.6656
后非民罔使民非后罔事無自廣以	-12.6656
兆民允殖	-12.6656
三分天下有其二以服事殷	-12.6656
予得吉卜予惟以爾庶邦于伐殷逋播臣	-12.6656
惟仲康肇位四海𦙍侯命掌六師	-12.6656
嚮于時夏弗克庸帝大淫泆有辭	-12.6656
天罰不極庶民罔有令政在于天下	-12.6656
公曰君奭我聞在昔成湯既受命	-12.6657
予小子既獲仁人敢祗承上帝以遏亂	-12.6657
伊尹去亳適夏既醜有夏復歸于亳	-12.6657
兹朕未知獲戾于上下	-12.6657
臧厥臧	-12.6657
帝曰吁臣哉鄰哉鄰哉臣哉禹曰俞	-12.6657
肆予告我友邦君越尹氏庶士御事	-12.6657
刑金作贖刑眚災肆赦怙終賊刑	-12.6657
于其子孫弗率皇天降災假手于我有命	-12.6658
兹率厥典奉若天命	-12.6658
嶠	-12.6658
其在祖甲不義惟王舊為小人	-12.6658
里伯七十里子男五十里	-12.6658
之從自時厥後亦罔或克	-12.6658
小心翼翼	-12.6658
四岳諸侯各朝于方岳大明黜陟	-12.6658
承汝俾汝惟喜康共非汝有咎比于罰	-12.6658
不邇不殖	-12.6658
監本纂圖重言重意互註尚書卷	-12.6658
六服羣辟罔不承徳	-12.6658
繼志述事	-12.6658
九共九篇槀飫	-12.6659
象以典刑流宥五刑鞭作官刑扑作教	-12.6659
朶	-12.6659
東迤北㑹于匯	-12.6659
聾	-12.6659
厥既命殷庶庶殷丕作	-12.6659
甲子昧爽受率其旅若林㑹于牧野	-12.6659
詒	-12.6659
嗚呼王司敬民罔非天𦙍典祀無豐于昵	-12.6659
公其惟時成周建無窮之基	-12.6659
沙州燉煌縣	-12.6659
詢事考言	-12.6659
無安厥位惟危	-12.6659
仲丁遷于嚻	-12.666
既墜厥命今相有殷天	-12.666
淞	-12.666
今王嗣厥徳罔不在初	-12.666
益曰吁戒哉儆戒無虞罔失法度	-12.666
為君難為臣不易	-12.666
兢兢業業一日二日萬幾	-12.666
嗚呼孺子王矣繼自今我其立政立事	-12.666
帝用不臧式商受命用爽厥師	-12.666
抹	-12.666
敺	-12.666
古先民有夏天迪從子保面稽天若今時	-12.6661
哉欲並生哉工以納言時而颺	-12.6661
屹	-12.6661
吸	-12.6661
夏王有罪矯誣上天以布命于下	-12.6661
殷之即喪指乃功不無戮于爾邦	-12.6661
公曰君奭在昔上帝割申勸寧王之	-12.6661
喩	-12.6661
隤	-12.6661
格汝衆予告汝訓汝猷黜乃心無傲從康	-12.6661
棼	-12.6661
周公告召公作將蒲姑	-12.6661
仲桓南宫毛	-12.6661
無輕民事惟難	-12.6661
眞氏徳秀曰	-12.6661
既墜厥命我有周既受	-12.6661
百榖用成乂用明俊民用章家用平康	-12.6661
萊夷作牧厥篚檿絲	-12.6662
懋乃攸績睦乃四鄰以蕃王室以和兄弟	-12.6662
人不易物惟徳其物	-12.6662
凡厥正人既富方榖	-12.6662
麯	-12.6662
五瑞既月乃日覲四岳羣牧班瑞于羣后	-12.6662
惟先王建邦啓土公劉克篤前烈至于	-12.6662
正月朔旦受命于神宗率百官若帝之初	-12.6662
君牙乃惟由先正舊典時式民之治亂在	-12.6662
矧今民罔迪不適不迪則罔政在厥邦	-12.6662
煉	-12.6662
畞	-12.6662
聞汝衆言夏氏有罪予畏上帝不敢不正	-12.6662
是罔顯在厥世繼自今立政其勿以	-12.6662
立政任人準夫牧作三事	-12.6662
盲	-12.6663
㭬	-12.6663
胞	-12.6663
蟜	-12.6663
夢帝賚予良弼	-12.6663
予仁若考能多材多藝能事鬼神	-12.6663
獺	-12.6663
用牲于郊	-12.6663
哲人惟刑無疆之辭屬于五極咸中有慶	-12.6663
用答揚文武之光訓	-12.6663
我聞曰世禄之家鮮克由禮	-12.6664
鷩	-12.6664
予惟乙卯朝至于洛師我卜河朔黎水	-12.6664
惟公克成厥終	-12.6664
有窮后羿因民弗忍距于河	-12.6664
今爾又曰夏迪簡在王庭有服在百僚	-12.6664
蔣	-12.6664
爾乃尚有爾土爾乃尚寧幹止	-12.6664
類于上帝禋于六宗望于山川徧于羣神	-12.6664
惟宫室臺榭陂池侈服以殘害于爾萬姓	-12.6664
位冡宰正百工	-12.6664
用能定爾子孫于下地	-12.6664
有衆率怠弗協曰時日曷	-12.6664
罔擇吉人觀于五刑之中惟時庶威奪貨	-12.6664
秭	-12.6664
今文子文孫孺子王矣其勿誤于庶獄	-12.6664
觀于五刑之中	-12.6664
地二生火	-12.6664
無逺用戾	-12.6664
文命敷于四海祗承于帝	-12.6664
用孝養厥父母厥父母慶自洗腆致用酒	-12.6664
簫韶九成鳯凰來儀	-12.6664
敷求哲人俾輔于爾後嗣	-12.6664
其五曰嗚呼曷歸予	-12.6664
又歌曰元首叢脞哉股肱惰哉萬事墮哉	-12.6664
浮于江沱潛漢逾于洛至于南河	-12.6664
乃胥惟虐于民至于百為大不克開	-12.6665
名言兹在兹允出兹在兹惟帝念功	-12.6665
七曰賓八曰師	-12.6665
侉	-12.6665
作好作惡	-12.6665
肆予以爾衆士奉辭伐罪	-12.6665
有能俾乂僉曰於鯀哉帝曰吁咈哉方命	-12.6665
澡	-12.6666
盤遊無度	-12.6666
視三公四瀆視諸侯其餘視伯子男	-12.6666
若予上下草木鳥獸	-12.6666
不虐無告不廢困窮	-12.6666
日短星昴以正仲冬厥民隩鳥獸氄毛	-12.6666
欽哉慎乃有位敬修其可願	-12.6666
迪知天威乃惟時昭文王	-12.6666
訐	-12.6666
𡨕	-12.6666
奄甸萬姓	-12.6666
無有逺邇畢獻方物惟服食器用	-12.6666
衣裳在笥	-12.6666
王曰嗚呼凡我有官君子欽乃攸司	-12.6667
貳公𢎞化寅亮天地弼予一人	-12.6667
王若曰往哉封勿替敬典	-12.6667
俞咨益汝作朕虞益拜稽首讓于朱虎	-12.6667
誕無我責	-12.6667
惇信明義	-12.6667
乃祖乃父乃斷棄汝不救乃死	-12.6667
痾	-12.6667
愎	-12.6668
百姓如喪考妣	-12.6668
帝拜曰俞往欽哉	-12.6668
徳惟一動罔不吉徳二三動罔不凶	-12.6668
詰爾戎兵	-12.6668
二百里奮武衞	-12.6669
劓刵㭬黥	-12.6669
其稽我古人之	-12.6669
惟民生厚因物有遷違上所命從厥攸好	-12.6669
囚蔡叔于郭鄰	-12.6669
藻火粉米黼黻	-12.6669
三邦底貢厥名	-12.667
六步七步	-12.667
􁀈	-12.6671
黎民咸貳	-12.6671
遐棄厥司	-12.6672
東序西嚮敷重豐席畫純雕玉仍几	-12.6672
盡力乎溝洫	-12.6672
懋遷有無	-12.6673
一稃二米	-12.6673
丁卯命作冊度	-12.6673
旦夕聽事之坐	-12.6673
穆穆在上明明在下灼于四方罔不惟	-12.6673
瞽亦允若	-12.6674
永肩一心	-12.6674
其二曰訓有之内作色荒外作禽荒	-12.6674
四罪而天下咸服	-12.6674
其三曰惟彼陶唐有此冀方	-12.6674
辟必亦反	-12.6674
惟爾殷侯尹民我惟大降爾命爾罔不知	-12.6674
帝曰疇若予工僉曰垂哉帝曰俞咨垂汝	-12.6675
惟爾辟以爾多方大淫圖天之命屑有辭	-12.6677
虐威庶戮方告無辜于上上帝監民罔有	-12.6677
苴以白茅	-12.668
其勿誤于庶獄	-12.6888
怛	-12.7162
為善不同同歸于治為惡不同同歸于亂	-12.7166
椿	-12.7189
之地封疆方	-12.7193
滚	-12.7194
䦨	-12.7195
瘁	-12.7196
塟	-12.7196
追孝于前文人	-12.7197
笄	-12.7198
拉	-12.7198
溱	-12.7199
玭	-12.7199
去古未逺	-12.7199
獾	-12.72
稗	-12.72
劔	-12.7201
垠	-12.7201
塡	-12.7201
䆒	-12.7201
霑	-12.7202
悞	-12.7202
濊	-12.7202
緻	-12.7202
郟	-12.7203
夙夜惟寅直哉惟清	-12.7203
嘵	-12.7203
篁	-12.7203
砂	-12.7204
㫄	-12.7204
邔	-12.7204
㵼	-12.7205
𦕈	-12.7205
滻	-12.7205
賫	-12.7205
裒	-12.7205
有九徳亦言其人有徳乃言曰載采采	-12.7205
以至仁伐至不仁	-12.7206
去嵗大餘	-12.7206
先賦後田	-12.7206
取諸人以為善	-12.7206
瑄	-12.7206
讋	-12.7206
穹	-12.7206
廢厥職酒荒于厥邑𦙍后承王命徂征	-12.7206
畢公率東方諸侯	-12.7206
霞	-12.7206
汝若恒越曰我有師師	-12.7206
國子祭酒上護軍曲阜縣開國子	-12.7206
疉	-12.7207
劄	-12.7207
窬	-12.7207
王省惟嵗卿士惟月師尹惟日	-12.7207
外丙二年仲壬四年	-12.7207
受天明命以有九有之師爰革夏正	-12.7207
以木鐸徇于路官師相規工執藝事以諫	-12.7208
胥及逸勤	-12.7208
軻	-12.7208
涑	-12.7208
猫	-12.7208
同州朝邑縣	-12.7208
塹	-12.7208
草木暢茂	-12.7208
惟動丕應徯志	-12.7208
尫	-12.7208
王曰嗟我友邦冢君御事司徒司馬司空	-12.7208
蔬	-12.7209
民用僭忒	-12.7209
沂州費縣	-12.7209
狹人匹夫匹婦不獲自盡民主罔與成厥	-12.7209
帝乃震怒不畀洪範九疇彝倫攸斁	-12.7209
爪	-12.7209
洄	-12.7209
批	-12.721
徳威惟畏徳明惟明	-12.721
在下曰虞舜帝曰俞予聞如何	-12.721
帝曰我其試哉女于時觀厥刑于二女	-12.721
癘	-12.721
人有小罪非眚乃惟終自作不典式爾	-12.721
撤	-12.721
巴郡宕渠縣	-12.721
帝釐下土方設居方	-12.721
爾惟敬明乃訓用奉若于先王	-12.721
爾惟踐修厥猷舊有令聞	-12.721
二昭二穆	-12.721
謂人莫已若	-12.7211
民之亂罔不中聽獄之兩辭	-12.7211
踐修厥猷	-12.7211
敷賁敷前人受命兹不忘大功	-12.7211
貞屯悔豫皆八	-12.7211
奉答天命和恒四方民居師	-12.7211
如有一介臣斷斷猗無他	-12.7211
王出在應門之内太保率西方諸侯	-12.7211
汝多修扞我于艱若汝予嘉	-12.7211
禹曰都帝慎乃在位帝曰俞	-12.7211
崙	-12.7211
貲	-12.7211
啓佑我後人咸以正罔缺	-12.7212
坈	-12.7212
遷于殷民不適有居率籲衆慼出矢言	-12.7212
乃既先惡于民乃奉其恫汝悔身何及	-12.7212
往盡乃心無康好逸豫乃其乂民	-12.7212
抉	-12.7212
何遷乎有苗何畏乎巧言令色孔壬	-12.7212
四人綦弁執戈上刃夾兩階戺	-12.7212
㑹于灃又東㑹于涇又東過漆沮入于河	-12.7212
澣	-12.7212
駛	-12.7212
公侯百里伯七十里子男五十里	-12.7213
隂陽和風雨時	-12.7213
太保暨芮伯咸進相揖皆再拜稽首	-12.7213
萹	-12.7213
曰若稽古帝堯曰放勲欽明文思安安	-12.7213
峴	-12.7213
糴	-12.7213
呉江朱鶴齡撰	-12.7213
厥惟艱哉思其艱以圖其易民乃寧	-12.7213
劉不能胥匡以生卜稽曰其如台	-12.7213
讓于稷契暨臯陶	-12.7213
冢宰掌邦治統百官均四海	-12.7213
寧嘉靖殷邦至于小大無時或怨肆	-12.7214
則亦有熊羆之士不二心之臣保乂王家	-12.7214
既道極厥辜	-12.7214
拜手稽首曰予小臣敢以王之讎民	-12.7214
無稽之言勿聽弗詢之謀勿庸	-12.7214
爾惟自鞠自苦	-12.7214
堯老而舜攝	-12.7214
太保受同降盥以異同秉璋以酢	-12.7214
淫于觀于逸于遊于田以萬民惟正之供	-12.7214
昔之人無聞知	-12.7214
寝	-12.7214
古我先王暨乃祖乃父胥及逸	-12.7214
曰若稽古帝舜曰重華協于帝	-12.7214
淨	-12.7214
恂	-12.7215
王懋昭大徳建中于民	-12.7215
乃不畏戎毒于逺邇惰農自安不	-12.7215
終始慎厥與惟明明后	-12.7215
瞶	-12.7215
已有之人之彦聖其心好之不啻	-12.7215
嗚呼嗣王祗厥身念哉	-12.7215
王人求多聞時惟建事學于古訓乃有獲	-12.7215
烝民乃粒萬邦作乂	-12.7215
有夏誕厥逸不肯慼言于民乃大	-12.7215
公不敢不敬天之休	-12.7215
仰惟前代時若訓迪厥官	-12.7215
汳水受陳留浚儀隂	-12.7215
幾者動之微	-12.7215
咸造勿䙝在王庭	-12.7216
奉先思孝接下思	-12.7216
欽厥止率乃祖攸行惟朕以懌萬世有辭	-12.7216
往敷乃訓	-12.7216
惟受罔有悛心乃夷居	-12.7216
嗚呼予旦已受人之徽言咸告孺子王矣	-12.7216
文王不敢盤于遊田以庶邦惟正之供	-12.7216
夏師敗績湯遂從	-12.7216
龜山楊氏曰	-12.7216
兀	-12.7216
王曰封爽惟民迪吉康	-12.7216
熊氏禾曰	-12.7217
聆	-12.7217
王命周公後作冊逸誥在十有二月	-12.7217
汝無侮老成人無弱孤有幼	-12.7217
兹予其明農哉彼裕我民無逺用戾	-12.7217
用端命于上帝皇天用訓厥道付畀四方	-12.7217
禹曰俞哉帝光天之下至于海隅蒼生	-12.7217
葆	-12.7217
使召公先相宅	-12.7218
桑土既蠶是降丘宅土	-12.7218
王曰君陳爾惟𢎞周公丕訓無依	-12.7218
公既定宅伻來來視予卜休恒吉	-12.7218
成王既伐管叔蔡叔以殷餘民封康叔	-12.7218
進于王曰嗚呼明王奉若天道建邦設都	-12.7218
予一二伯父尚胥暨顧綏爾先公之臣服	-12.7218
曰嗚呼西土有衆咸聽朕言	-12.7218
受王嘉師監于兹祥刑	-12.7218
罔或干予正	-12.7218
五皇極皇建其有極斂時五福用敷錫厥	-12.7218
觀周樂見舞韶箾者	-12.7218
陳氏傅良曰	-12.7218
閫	-12.7218
苕	-12.7218
古人有言曰人無於水監當於民監	-12.7219
臣罔以寵利居成功邦其永孚于休	-12.7219
諸侯出廟門俟	-12.7219
櫛	-12.7219
丁未祀于周廟邦甸侯衛駿奔走執豆籩	-12.7219
乃受同瑁王三宿三祭三咤上宗曰饗	-12.7219
用命賞于祖不用命戮于社	-12.722
民可近不可下民惟邦本本固邦寧	-12.722
汝作司徒敬敷五教在寛	-12.722
觀厥刑于二女	-12.722
蹶	-12.722
罔違道以干百姓之譽罔咈百姓以從	-12.722
呉氏澄曰	-12.722
輂	-12.722
功疑惟重	-12.722
靜言庸違象恭滔天	-12.722
惟曰我民迪小子惟土物愛厥心臧	-12.722
箎	-12.722
我舊云刻子王子弗出我乃顛隮	-12.7221
公若曰拜手稽首告嗣天子王矣用咸戒	-12.7221
真氏徳秀曰	-12.7221
有道曾孫周王	-12.7221
柟	-12.7221
悻	-12.7221
克知三有宅心	-12.7221
乙卯周公朝至于洛	-12.7221
暨稷播奏庶艱食鮮食懋遷有無化居	-12.7221
予其大賚汝爾無不信朕不	-12.7221
皇天震怒命我文考肅將天威大勲未集	-12.7222
子罔以盡人心狎侮小人罔以盡其力	-12.7222
日覲四岳羣牧	-12.7222
歩卒七十二人	-12.7222
口不道忠信之言	-12.7222
銕	-12.7222
典獄非訖于威惟訖于富敬忌	-12.7222
王出郊天乃雨反風禾則盡起二公命	-12.7222
厥貢鹽絺	-12.7222
三月甲辰朔	-12.7223
帝曰咨四岳湯湯洪水方割蕩蕩	-12.7223
虞芮質厥成	-12.7223
覊	-12.7223
涅	-12.7223
爾尚弼予一人永清四海時哉弗可失	-12.7223
曰皇后憑玉几道揚末命命汝嗣訓	-12.7223
罪合于一多瘠罔詔	-12.7223
申命羲叔宅南交平秩南訛敬致日永	-12.7223
先王惟時懋敬厥徳克配上帝	-12.7223
周公相成王將黜殷作大誥	-12.7223
五流有宅五宅三居惟明克允	-12.7223
僮	-12.7223
愧恥若撻于市一夫不獲則曰時予之辜	-12.7223
王入太室祼	-12.7224
斡	-12.7224
寅賓出日	-12.7224
須暇之子孫誕作民主罔可念聽	-12.7224
五刑不簡正于五罰五罰不服正于五過	-12.7224
稠	-12.7224
𣺌	-12.7225
王若曰爾殷遺多士弗弔旻天大降喪	-12.7225
柔逺能邇安勸小大庶邦	-12.7225
雖畏勿畏雖休勿休惟敬五刑	-12.7225
爾交修予罔予棄予惟克邁乃訓	-12.7225
敷五典擾兆民	-12.7226
适	-12.7226
蹲	-12.7226
擣	-12.7226
違道以干百姓之譽	-12.7227
公曰已汝惟沖子惟終	-12.7227
垂拜稽首讓于殳斨暨伯與	-12.7227
禹乃㑹羣后	-12.7227
本固邦寧	-12.7227
咈百姓以從己之欲	-12.7232
仄	-12.7235
奪攘矯䖍	-12.7235
閹	-12.7239
敷同日奏罔功	-12.7253
今我民用蕩析離居罔有定極	-12.7287
曰小人怨汝詈汝則信之則若時不永念	-12.7326
厥土白墳海濵廣斥	-12.7733
姪	-12.7762
瀵	-12.7764
曰雨曰𤾉曰燠曰寒曰風	-12.7777
臚	-12.778
㛰	-12.7783
缶	-12.7785
訣	-12.7786
坻	-12.7786
之喪二十五月而畢	-12.7787
葅	-12.7788
鉉	-12.7788
嶂	-12.7789
琛	-12.779
穩	-12.779
虡	-12.779
縈	-12.779
杯	-12.7791
徒駭胡蘇鬲津	-12.7791
噩	-12.7791
曩	-12.7792
焰	-12.7792
君予不惠若兹多誥予惟用閔于天越民	-12.7792
馬牛其風臣妾逋逃勿敢越逐	-12.7792
又東過漆沮入于河	-12.7792
薇	-12.7793
憔	-12.7793
昺	-12.7793
眚災適爾既道極厥辜時乃不可殺	-12.7793
后非民罔以辟四方	-12.7794
次五曰建用皇極	-12.7794
布乗黄朱	-12.7794
王曰封汝典聽朕毖勿辯乃司民湎于酒	-12.7794
塤	-12.7794
乃得周公所自以為功代武王之説	-12.7794
扁	-12.7795
仔	-12.7795
予永念曰天惟喪殷若	-12.7795
挺	-12.7796
今嗣王新服厥命惟新厥徳	-12.7796
迪將其後監我士師工誕保文武受民亂	-12.7796
卿大夫及都家	-12.7796
辯言亂舊政	-12.7796
五百里甸服百里賦納總二百里納銍	-12.7796
銓	-12.7796
煌	-12.7796
天降割于我家	-12.7797
嗚呼丕顯哉文王謨丕承哉武王烈	-12.7797
方興而未艾	-12.7797
斂福錫民	-12.7797
瀰	-12.7797
翌	-12.7797
矧曰其有能格	-12.7797
僊	-12.7797
東方謂之斥西方謂之鹵	-12.7797
勤予敢動用非罰世選爾勞予不掩爾善	-12.7798
謫	-12.7798
禹曰安汝止惟幾惟康其弼直	-12.7798
謡	-12.7798
鷹	-12.7798
並告無辜于上下神祇	-12.7798
魯人三郊三遂峙乃楨榦甲戌我惟築	-12.7798
璺	-12.7798
王曰嗟爾萬方有衆明聽予一人誥	-12.7798
古我先王將多于前功適于山用降我凶	-12.7798
妲	-12.7799
一人冕執戣立于東垂一人冕執瞿立	-12.7799
王其效邦君越御事厥命曷以	-12.7799
司中司命風師雨師	-12.7799
刑期于無刑民協于中時乃功懋哉	-12.7799
刮	-12.7799
入應門左畢公率東方諸侯入應門右	-12.7799
訖于四海禹錫𤣥圭告厥成功	-12.7799
王遺我大寶龜	-12.7799
凡四方小大邦喪罔非有辭于罰	-12.7799
鯀則殛死禹乃嗣興	-12.7799
惟公懋徳克勤小物弼亮四世正色率下	-12.7799
丌	-12.7799
芝	-12.7799
譸	-12.7799
恒衛既從大陸既作	-12.7799
厥貢惟金三品瑶琨篠簜齒革羽毛惟木	-12.7799
尚書埤傳卷	-12.7799
蔀	-12.7799
饌	-12.7799
作其即位爰知小人之依能保惠于	-12.78
厥圖帝之命不克開于民之麗	-12.78
挹	-12.78
峙乃糗糧無敢不逮汝則有大刑	-12.78
王曰嗚呼小子胡汝往哉無荒棄朕命	-12.78
爾大克羞耉惟君爾乃飲食醉飽	-12.78
宅心知訓别求聞由古先哲王用康保民	-12.78
旁作穆穆迓衡	-12.78
杖黄鉞右秉白旄以麾曰逖矣西土之人	-12.78
綻	-12.7801
除惡務本	-12.7801
羲伯和伯	-12.7801
為厥疆畎若作室家既勤垣墉惟其塗	-12.7801
大和㑹侯甸男邦采衛百工播民和見士	-12.7801
準人牧夫我其克灼知厥若丕乃俾亂	-12.7801
厥監惟不逺在彼夏王	-12.7801
王與大夫盡弁以啓金縢之書	-12.7801
民有欲無主乃亂	-12.7801
肎	-12.7801
聿求元聖與之戮力以與爾有衆請命	-12.7802
公乃自以為功為三壇同墠為壇	-12.7802
不克開于民之麗	-12.7802
湯始居亳從先王居作帝告釐沃	-12.7802
惟恭奉幣	-12.7802
濄	-12.7802
鄡	-12.7802
王曰嗚呼父師邦之安危惟	-12.7802
簵	-12.7802
不常厥邑于今五邦今不承于古	-12.7802
自朝至于日中昃不遑暇食用咸和萬民	-12.7802
導淮自桐柏東㑹于泗沂東入于海	-12.7802
綾	-12.7802
篠簜既敷厥草惟夭厥木惟喬	-12.7802
奉辭伐罪	-12.7802
獄成而孚輸而孚其刑上備有并兩刑	-12.7802
小伯藝人表臣百司太史尹伯庶常吉士	-12.7802
戒之用休董之用威勸之以九歌俾勿壊	-12.7802
弗慮胡獲弗為胡成一人元良萬邦以貞	-12.7803
聽朕告汝乃以殷民世享	-12.7803
臯陶曰吁如何禹曰洪水滔天浩浩	-12.7803
六卿分職各率其屬以倡九牧阜成兆民	-12.7803
滂	-12.7803
太保承介圭上宗奉同瑁由阼階隮	-12.7803
用敬保元子釗𢎞濟于艱難	-12.7803
協賞罰戡定厥功用敷遺後人休	-12.7804
各守爾典	-12.7804
鴞	-12.7804
穢徳彰聞	-12.7804
紕	-12.7804
衎	-12.7804
厎柱析城至于王屋	-12.7804
卿士師師非度	-12.7804
别生分類	-12.7804
眎	-12.7804
彥	-12.7804
鏐	-12.7804
兹乃允惟王正事之臣	-12.7804
驕淫矜侉將由惡終雖收放心閑之惟艱	-12.7804
菌	-12.7804
保奭其汝克敬以予監于殷喪大否	-12.7804
恭作肅從作乂明作哲聰作謀睿作聖	-12.7805
民可近不可下	-12.7805
皂	-12.7805
既勝夏欲遷其社不可作夏社疑至臣扈	-12.7805
五國以為屬屬有長	-12.7805
賡載歌曰元首明哉股肱良哉庶事康哉	-12.7805
閿	-12.7805
我惟時其教告之我惟時其戰要囚之	-12.7805
咸建五長	-12.7805
峭	-12.7805
山川鬼神亦莫不寧暨鳥獸魚鼈咸若	-12.7805
責難於君謂之恭	-12.7805
凡厥正人既富方穀	-12.7805
綏服三百里揆文教二百里奮武衛	-12.7805
曓	-12.7805
永康軍導江縣	-12.7806
肆嗣王丕承基緒	-12.7806
王惟徳用和懌先後迷民用懌先王受命	-12.7806
島夷卉服厥篚織貝厥包橘柚錫貢	-12.7806
幼子童孫	-12.7806
愬	-12.7806
湥	-12.7806
其侍御僕從罔匪正人以旦夕承弼厥辟	-12.7806
厥弟五人御其母以從徯于洛之汭	-12.7807
政典曰先時者殺無赦不及時者殺無赦	-12.7807
雖休勿休	-12.7807
父族四母族三妻族二	-12.7807
司徒掌邦教敷五典擾兆民	-12.7808
慎厥麗乃勸厥民刑用勸	-12.7808
鮐	-12.7808
雨止畢陳	-12.7808
導嶓冢至于荆山内方至于大别	-12.7809
曰皇極之敷言是彝是訓于帝其訓	-12.7809
厥土黒墳	-12.7809
毖庶邦庶士越少正御事朝夕曰祀兹酒	-12.7809
二曰剛克三曰柔克	-12.7809
列于庶位	-12.7809
今王嗣有令緒尚監兹哉	-12.7809
濟漢而陳自小别至于大别	-12.7809
友于兄弟克施有政命汝尹兹東郊敬哉	-12.7809
王曰嗚呼猷告爾有方多士暨殷多士	-12.781
公曰體王其罔害予小子新命	-12.781
奠厥攸居	-12.781
于小民今休王不敢後用顧畏于民碞	-12.781
亦惟純佑秉徳	-12.781
王曰封予不惟若兹多誥	-12.781
衅	-12.781
因民弗忍	-12.781
肆予曷敢不越卬敉寧王大命	-12.781
昔在文武聰明齊聖小大之臣咸	-12.781
公曰嗟我士聽無譁予誓告汝羣言之首	-12.7811
唐虞稽古建官惟百	-12.7811
方命圮族	-12.7811
底柱析城至于王屋	-12.7811
王忱不艱	-12.7811
自成湯至于帝乙罔不明徳恤祀	-12.7811
亦惟終其後嗣王罔克有終相亦罔終	-12.7811
嗚呼有王雖小元子哉其丕能諴	-12.7811
若稽古大禹曰文命敷于四海祗承于帝	-12.7812
閽	-12.7812
奡	-12.7812
圈	-12.7812
兹予有亂政同位具乃貝玉乃祖	-12.7812
惟學遜志務時敏厥修乃來	-12.7812
有若散宜生有若泰顛有若南宫括	-12.7812
三后成功惟殷于民	-12.7813
左思蜀都賦	-12.7813
髠	-12.7813
越兹麗刑并制罔差有辭	-12.7813
如天之無不覆	-12.7813
惟說不言有厥咎	-12.7813
日中星鳥以殷仲春厥民析鳥獸孳尾	-12.7814
乃季秋月朔辰弗集于房瞽	-12.7814
車轍馬迹	-12.7815
火炎崑岡	-12.7816
帟	-12.7816
惟聖罔念作狂惟狂克念作聖天惟五年	-12.7816
恭默思道	-12.7816
赤刀大訓𢎞璧琬琰在西序	-12.7816
鬱金香草	-12.7817
大玉夷玉天球河圖在東序	-12.7817
卅	-12.7819
篋	-12.782
升鼎耳而鳴	-12.782
王人罔不秉徳	-12.7821
瘡	-12.7822
厥君先敬勞肆徂厥敬勞肆往姦宄殺人	-12.7822
天生烝民有物有則	-12.7825
貃	-12.7825
㣧	-12.7827
六兩曰鍰	-12.7828
荐	-12.7862
庶尹惟亞惟服宗工越百姓里居	-12.8196
淮夷蠙珠暨魚	-12.8353
䓁	-12.8404
滳	-12.8405
梟	-12.8407
汁	-12.8408
羶	-12.8408
隨西山下東北去	-12.8408
反鄙我周邦	-12.841
褚	-12.841
跳	-12.8411
澈	-12.8412
漈	-12.8412
渺	-12.8414
狙	-12.8414
轘	-12.8414
翹	-12.8414
倂	-12.8414
禹别九州隨山濬川任土作貢	-12.8414
薾	-12.8414
恫瘝乃身	-12.8414
澬	-12.8415
倪	-12.8416
柔遠能邇	-12.8416
遵義遵道遵路	-12.8416
穏	-12.8416
次七曰明用稽疑	-12.8417
脯	-12.8417
克閱于乃邑謀介	-12.8417
永不忘在王家	-12.8418
柔而立愿而恭亂而敬擾而毅直而	-12.8418
搆	-12.8418
𢎞于天若徳裕乃身不廢在王命	-12.8419
王朝至于商郊牧野	-12.8419
籬	-12.8419
得平土而居	-12.8419
篤恭而天下平	-12.8419
綘	-12.8419
夏王滅徳作威以敷虐于爾萬方百姓	-12.842
廊	-12.842
闗石和鈞	-12.842
有商俾嗣王克終厥徳實萬世無疆之休	-12.8421
四征弗庭綏厥兆民	-12.8421
以予小子揚文武烈	-12.8421
離逖爾土	-12.8421
潢	-12.8421
震驚朕師	-12.8421
紙	-12.8421
爾尚不忌于凶	-12.8421
並其有邦厥鄰乃曰徯我后后來無罰	-12.8422
畵	-12.8422
义	-12.8422
魯侯伯禽宅曲阜	-12.8422
包匭菁茅厥篚𤣥纁璣組九江納錫大龜	-12.8422
民亦憂其憂	-12.8422
在亶乘兹大命	-12.8422
克綏先王之禄永底烝民之生	-12.8422
厥猷肆予命爾侯于東土往即乃封敬哉	-12.8422
五月南巡守至于南岳	-12.8422
于四海而萬姓悦服	-12.8422
太甲既立不明伊尹放諸桐	-12.8423
覆宗絶祀	-12.8423
七世之廟可以觀徳萬夫之長可以觀政	-12.8423
已汝乃其速由兹義率殺	-12.8423
予后后來其蘇民之戴商厥惟舊哉	-12.8424
山川鬼神亦莫不	-12.8424
鷙	-12.8424
汝明勗偶王	-12.8424
磽	-12.8424
[...]
