<unk>	0
<s>	0
</s>	0
─	-3.45145
之	-4.5638
(	-4.92658
而	-5.13615
/	-5.19053
以	-5.1997
有	-5.24699
)	-5.33077
為	-5.40962
也	-5.47341
花	-5.48499
者	-5.5261
香	-5.53327
其	-5.59064
不	-5.60282
一	-5.62065
中	-5.63944
如	-5.66808
生	-5.73823
子	-5.79233
於	-5.80737
人	-5.8579
水	-5.92031
無	-5.98098
/)	-6.00326
時	-6.02667
出	-6.0495
山	-6.06301
大	-6.06457
葉	-6.07252
曰	-6.07634
上	-6.08708
作	-6.10552
與	-6.10568
則	-6.10632
原	-6.11992
増	-6.12178
春	-6.18076
用	-6.21071
自	-6.21888
石	-6.23998
白	-6.25974
黄	-6.2789
得	-6.2943
風	-6.30051
下	-6.32864
多	-6.36353
入	-6.36465
長	-6.36658
茶	-6.37261
此	-6.37751
小	-6.37923
紅	-6.38775
見	-6.3915
亦	-6.42696
日	-6.43765
可	-6.43962
云	-6.44262
色	-6.4437
在	-6.44435
三	-6.44879
至	-6.45244
草	-6.46198
竹	-6.46891
天	-6.47852
一名	-6.48646
樹	-6.48656
開	-6.5183
似	-6.53613
皆	-6.53983
名	-6.54614
成	-6.54646
木	-6.54816
金	-6.56964
青	-6.57528
又	-6.57697
同	-6.59887
新	-6.59941
種	-6.62142
去	-6.62411
增	-6.62721
取	-6.62938
後	-6.63241
▁	-6.63351
方	-6.64328
是	-6.64846
若	-6.6532
清	-6.65384
玉	-6.67412
地	-6.68608
根	-6.68922
心	-6.6984
或	-6.69845
今	-6.70305
酒	-6.71239
魚	-6.71461
兮	-6.71841
乃	-6.72089
氣	-6.72324
二	-6.72761
食	-6.7318
相	-6.74136
雲	-6.74484
已	-6.75696
文	-6.76161
然	-6.76471
秋	-6.76856
枝	-6.77078
王	-6.77416
實	-6.78098
即	-6.78172
及	-6.78426
所	-6.78522
故	-6.78857
寒	-6.79759
詩	-6.79841
月	-6.82225
來	-6.82929
欲	-6.83397
紫	-6.8382
初	-6.84161
菊	-6.84419
行	-6.84447
州	-6.84487
)(	-6.85161
未	-6.87168
書	-6.87645
髙	-6.87852
和	-6.88545
重	-6.89025
明	-6.90964
非	-6.91575
傳	-6.93984
兩	-6.96561
能	-6.97269
言	-6.97439
深	-6.97442
知	-6.97908
頭	-6.98457
家	-7.0013
處	-7.00385
分	-7.00435
五	-7.0142
公	-7.01568
老	-7.01622
雨	-7.02564
松	-7.03377
何	-7.03565
細	-7.03809
梅	-7.03867
光	-7.04237
令	-7.04287
前	-7.04508
古	-7.04807
當	-7.05548
過	-7.05758
更	-7.0597
華	-7.06391
宜	-7.07829
間	-7.07839
道	-7.08222
唐	-7.08488
四	-7.08905
半	-7.09073
龍	-7.09323
墨	-7.09345
正	-7.09611
矣	-7.09976
好	-7.09992
先	-7.10159
因	-7.10503
土	-7.10587
宋	-7.11732
李	-7.12057
物	-7.12767
常	-7.13154
于	-7.13291
雪	-7.13568
熟	-7.14151
南	-7.14435
元	-7.14778
盡	-7.14874
賦	-7.15465
内	-7.16071
林	-7.16092
来	-7.16302
露	-7.16321
獨	-7.16727
異	-7.16738
味	-7.17842
發	-7.18378
惟	-7.18906
平	-7.19286
錢	-7.19778
空	-7.19999
火	-7.20076
落	-7.21702
記	-7.22247
甚	-7.22261
數	-7.22575
硯	-7.22638
應	-7.22929
君	-7.23008
西	-7.23344
江	-7.23534
緑	-7.23681
海	-7.23819
從	-7.23896
本	-7.24226
我	-7.25294
外	-7.25435
輕	-7.25674
芳	-7.25971
事	-7.25989
將	-7.26023
東	-7.27171
仙	-7.27348
微	-7.27714
復	-7.28281
節	-7.28484
合	-7.28868
陽	-7.29295
舊	-7.29334
字	-7.29406
夜	-7.29809
客	-7.29846
少	-7.29848
飛	-7.29897
經	-7.29977
滿	-7.30038
隂	-7.3054
起	-7.31386
歸	-7.31751
國	-7.32055
霜	-7.32428
逺	-7.33331
謂	-7.34101
年	-7.34246
百	-7.34281
使	-7.34501
蘭	-7.34803
向	-7.35359
翠	-7.36284
治	-7.36408
聞	-7.36488
諸	-7.37106
近	-7.37614
朝	-7.37714
張	-7.37879
皮	-7.38357
真	-7.38651
醉	-7.39018
意	-7.39169
雖	-7.39198
耳	-7.39383
結	-7.39895
衣	-7.40083
凡	-7.40621
萬	-7.40763
著	-7.40946
思	-7.42164
神	-7.4217
乎	-7.42177
流	-7.42934
别	-7.43424
九	-7.43791
世	-7.44562
始	-7.44606
莫	-7.44634
赤	-7.44814
莖	-7.45378
碧	-7.4607
類	-7.47273
聲	-7.47397
柳	-7.47446
猶	-7.4745
野	-7.48367
每	-7.48375
通	-7.48458
勝	-7.48501
焉	-7.48869
且	-7.48872
易	-7.49047
臣	-7.49141
還	-7.4923
餘	-7.49345
居	-7.49769
極	-7.50063
法	-7.50411
門	-7.51084
安	-7.51128
美	-7.51613
難	-7.51692
乾	-7.52019
留	-7.52065
漢	-7.52552
手	-7.52561
看	-7.52574
千	-7.52934
筆	-7.54049
甘	-7.54389
末	-7.5446
園	-7.5453
池	-7.54811
散	-7.54942
桃	-7.55339
藥	-7.55357
但	-7.55737
直	-7.55909
北	-7.56034
既	-7.56239
馬	-7.57142
采	-7.57177
品	-7.57735
右	-7.57815
稱	-7.57879
陳	-7.5788
面	-7.57945
蟹	-7.5855
六	-7.5882
夏	-7.59285
採	-7.59361
絶	-7.59522
誰	-7.60286
觀	-7.60295
植	-7.6065
志	-7.60714
官	-7.60791
扵	-7.61281
氏	-7.61726
珠	-7.61726
綠	-7.61729
高	-7.62049
十	-7.62191
苦	-7.62273
泉	-7.62425
羅	-7.62549
録	-7.62829
靈	-7.63289
必	-7.63787
性	-7.63898
粉	-7.63963
烟	-7.64079
謂之	-7.64535
不可	-7.6496
身	-7.65534
幽	-7.65707
形	-7.65866
肉	-7.65898
女	-7.66183
含	-7.66202
果	-7.66259
口	-7.66976
嘗	-7.67896
宫	-7.6807
精	-7.68164
許	-7.68439
夫	-7.68469
謝	-7.68593
麥	-7.68795
素	-7.68868
歌	-7.69142
英	-7.69355
帝	-7.69428
遂	-7.6955
嵗	-7.69641
並	-7.69675
城	-7.69951
田	-7.69958
折	-7.70021
湯	-7.7018
比	-7.70215
浮	-7.70223
目	-7.70315
足	-7.70475
豈	-7.70515
眼	-7.70635
條	-7.7076
筍	-7.70799
飲	-7.70881
譜	-7.70897
帶	-7.70921
菜	-7.70927
一兩	-7.70987
薄	-7.71291
丹	-7.71632
以為	-7.72007
裏	-7.72361
卷	-7.72695
病	-7.73225
坐	-7.73226
連	-7.736
移	-7.73653
竒	-7.7371
煙	-7.73943
溪	-7.73993
須	-7.74054
冷	-7.74123
吾	-7.74367
次	-7.74447
冬	-7.74765
盛	-7.74909
題	-7.75007
桑	-7.75011
垂	-7.7511
收	-7.75192
七	-7.75347
周	-7.75401
各	-7.75555
縣	-7.76035
詠	-7.76543
夢	-7.76549
桂	-7.76586
影	-7.76856
興	-7.76866
最	-7.77212
止	-7.77384
附	-7.77579
蓋	-7.77844
朱	-7.77954
共	-7.78172
對	-7.78213
久	-7.78343
注	-7.79329
沙	-7.79941
隨	-7.80119
爾	-7.80539
景	-7.80589
叢	-7.80937
俱	-7.8113
齊	-7.81141
笑	-7.81278
潤	-7.81318
便	-7.8148
厚	-7.81572
骨	-7.81587
寄	-7.81615
動	-7.81904
愛	-7.82346
畫	-7.82353
亭	-7.82606
首	-7.82697
都	-7.8273
棗	-7.83272
盤	-7.83543
遺	-7.83543
問	-7.8394
嘉	-7.84687
廣	-7.84712
藏	-7.85113
到	-7.85765
望	-7.8597
僧	-7.85995
米	-7.86385
解	-7.86771
雜	-7.86949
布	-7.86963
貴	-7.86993
㸃	-7.87383
早	-7.87406
破	-7.87527
賞	-7.87629
葢	-7.87794
絲	-7.87969
牡丹	-7.87976
曲	-7.88121
集	-7.88272
遊	-7.88345
照	-7.88464
疑	-7.88636
路	-7.88673
錦	-7.88736
置	-7.89161
堂	-7.89236
服	-7.89506
致	-7.89653
製	-7.89709
余	-7.89763
立	-7.89771
却	-7.90066
庭	-7.90655
尚	-7.9072
瓜	-7.91048
載	-7.91226
蜜	-7.91411
命	-7.91428
太	-7.91516
主	-7.9177
士	-7.91908
汁	-7.92285
語	-7.92331
堅	-7.92894
化	-7.93024
送	-7.9304
珍	-7.93245
劉	-7.93497
情	-7.93592
待	-7.93829
益	-7.9385
紙	-7.93936
熱	-7.94007
質	-7.94299
澤	-7.94364
八	-7.94493
吳	-7.94551
波	-7.94744
體	-7.94771
賜	-7.94918
橘	-7.94993
映	-7.95077
定	-7.95221
信	-7.95428
本草	-7.95476
終	-7.95683
善	-7.95769
俗	-7.9579
不知	-7.96082
驚	-7.96214
徳	-7.96268
晩	-7.96765
尤	-7.9678
肥	-7.96945
房	-7.96961
荔支	-7.96989
容	-7.97577
艶	-7.97692
星	-7.97726
引	-7.97734
臨	-7.97749
榮	-7.97859
按	-7.97982
佳	-7.97995
鳥	-7.98011
染	-7.98268
亂	-7.98345
愁	-7.98391
塵	-7.98441
度	-7.99174
泥	-7.99195
研	-7.99225
民	-7.99635
力	-8.0004
蜀	-8.00188
論	-8.00321
幾	-8.00507
濕	-8.00546
晚	-8.00642
等	-8.00666
殿	-8.00699
梁	-8.00708
樂	-8.00921
喜	-8.01117
臺	-8.01249
殊	-8.01264
圓	-8.01553
要	-8.01642
理	-8.01745
栽	-8.02098
繁	-8.02216
説	-8.02383
秀	-8.02615
産	-8.02629
端	-8.02882
食之	-8.03359
蓮	-8.03452
圖	-8.03466
忽	-8.03559
求	-8.03666
茂	-8.04083
衆	-8.04108
寳	-8.04231
海棠	-8.04338
楊	-8.04467
血	-8.04513
吹	-8.04683
豆	-8.04718
殘	-8.04762
蒸	-8.04917
斷	-8.05059
芽	-8.05362
油	-8.05453
學	-8.0591
就	-8.05935
瓣	-8.0605
拂	-8.06469
晉	-8.06517
利	-8.06633
獻	-8.06732
交	-8.07225
煮	-8.07246
全	-8.07264
銀	-8.07359
音	-8.07371
死	-8.07531
府	-8.07956
盖	-8.08052
摘	-8.08216
淡	-8.08327
集藻	-8.08635
變	-8.0889
消	-8.089
彼	-8.08918
寺	-8.09033
加	-8.09061
鮮	-8.09102
凝	-8.09225
麻	-8.09228
予	-8.09663
號	-8.09664
造	-8.09917
封	-8.10425
温	-8.10565
再	-8.10974
列	-8.11048
恨	-8.11333
母	-8.11479
接	-8.11514
轉	-8.1153
進	-8.11587
只	-8.11657
器	-8.11671
黒	-8.11777
良	-8.11884
麗	-8.12102
曽	-8.12171
堪	-8.12211
刻	-8.12329
吐	-8.1247
疎	-8.12515
毛	-8.12926
梅花	-8.13054
枯	-8.13144
麝香	-8.13227
孤	-8.13236
不能	-8.13304
稻	-8.13366
𤣥	-8.13394
蟲	-8.13635
燕	-8.14171
芝	-8.14172
晴	-8.14394
眀	-8.14408
持	-8.1472
宿	-8.14855
江南	-8.15187
半兩	-8.15307
凉	-8.15459
遇	-8.15728
虚	-8.15873
永	-8.15965
候	-8.16014
春風	-8.1618
尋	-8.16324
曉	-8.16657
㑹	-8.16716
識	-8.1695
孫	-8.16963
固	-8.17125
彚考	-8.172
貢	-8.17371
膏	-8.17455
漸	-8.17455
藤	-8.1759
蘇	-8.17605
楚	-8.17605
史	-8.17609
嫩	-8.17644
徑	-8.1773
御	-8.17851
傷	-8.17958
象	-8.18141
試	-8.18235
巖	-8.18309
修	-8.18355
黑	-8.18776
霞	-8.19097
補	-8.19101
除	-8.19159
樓	-8.19162
浸	-8.19931
密	-8.2
離	-8.20111
洗	-8.20215
中有	-8.2049
吟	-8.20495
背	-8.20504
邊	-8.20506
被	-8.20752
烏	-8.20852
稍	-8.20899
覆	-8.20953
煎	-8.21228
韻	-8.21249
蒲	-8.21263
斜	-8.21352
丁香	-8.21851
柔	-8.21906
煑	-8.22386
功	-8.22443
片	-8.22711
休	-8.22801
蕊	-8.23089
代	-8.23204
銘	-8.23713
翦	-8.23786
玊	-8.23862
角	-8.23929
而不	-8.23973
毒	-8.24003
灰	-8.24164
登	-8.24182
特	-8.24286
趙	-8.2465
錄	-8.24654
狀	-8.24673
秦	-8.24776
斯	-8.25063
可以	-8.25329
指	-8.25354
偏	-8.25873
䨇	-8.25931
舉	-8.2597
荷	-8.25991
妙	-8.26086
閒	-8.26372
栗	-8.26444
井	-8.26486
胡	-8.26583
仁	-8.27031
桐	-8.27224
舞	-8.2723
横	-8.27276
恐	-8.27462
暖	-8.2752
兒	-8.27687
郡	-8.28169
他	-8.28388
屬	-8.28523
側	-8.28739
濃	-8.28835
羣	-8.28926
傍	-8.29058
燒	-8.29083
宗	-8.29235
失	-8.29239
短	-8.29263
谷	-8.29279
碎	-8.29366
仍	-8.29383
雞	-8.29419
師	-8.29439
鳴	-8.29492
乳	-8.29528
逐	-8.29989
供	-8.30227
将	-8.30309
車	-8.30691
牛	-8.3081
疾	-8.31106
核	-8.31106
惡	-8.3111
皇	-8.31134
苗	-8.31135
聖	-8.31156
閣	-8.31322
徐	-8.31389
章	-8.3142
雙	-8.31621
積	-8.31623
表	-8.31658
陸	-8.31672
杏	-8.31877
瑞	-8.3193
放	-8.32238
懐	-8.32302
河	-8.32401
㸔	-8.32413
柏	-8.32432
一種	-8.32612
乆	-8.32676
羊	-8.33089
室	-8.33347
翻	-8.3342
底	-8.33542
遲	-8.33724
序	-8.33907
姿	-8.34193
一枝	-8.34453
薦	-8.34523
養	-8.34704
妝	-8.34794
詞	-8.34855
亦有	-8.34992
檀香	-8.351
昔	-8.35268
齋	-8.35296
感	-8.35346
芙蓉	-8.35796
惜	-8.35837
榖	-8.3589
湖	-8.36034
顧	-8.36576
梨	-8.36719
膠	-8.36896
承	-8.36988
工	-8.37068
㣲	-8.37225
三月	-8.37244
沉	-8.37298
倚	-8.37317
軟	-8.37501
舟	-8.3782
栁	-8.38071
郎	-8.38108
守	-8.38171
陵	-8.38253
期	-8.38411
刺	-8.38449
寶	-8.38557
屋	-8.38571
川	-8.38741
覺	-8.38786
逢	-8.38929
冠	-8.38995
爛	-8.392
沈	-8.39283
建	-8.39311
暮	-8.39512
寧	-8.39631
視	-8.39655
依	-8.40044
魏	-8.40355
洞	-8.4041
左	-8.40563
尾	-8.40671
淺	-8.40799
伯	-8.40847
團	-8.40954
友	-8.41502
村	-8.41504
受	-8.41534
弱	-8.41755
幸	-8.41809
材	-8.42081
滋	-8.42233
里	-8.42322
腹	-8.42394
武	-8.42406
頗	-8.42481
仲	-8.42665
不得	-8.42696
抱	-8.42729
具	-8.42761
大如	-8.42821
二月	-8.42882
歲	-8.42921
隔	-8.43028
所謂	-8.43547
陶	-8.44167
豐	-8.44201
夀	-8.44272
桃花	-8.44333
曾	-8.44615
夕	-8.44661
教	-8.44826
鹽	-8.4518
槐	-8.45474
調	-8.45577
瓊	-8.45872
損	-8.46372
漿	-8.46397
紋	-8.46493
贈	-8.46547
嬌	-8.4673
蠶	-8.46773
五月	-8.46855
沉香	-8.47044
哉	-8.47091
暗	-8.47161
奉	-8.4724
虎	-8.47261
願	-8.47479
荒	-8.47609
苔	-8.4795
壓	-8.48211
市	-8.48311
親	-8.4841
齒	-8.48412
萼	-8.48543
龜	-8.48602
芍藥	-8.48623
義	-8.48773
宻	-8.48915
呼	-8.48947
繞	-8.49093
鳳	-8.49172
岸	-8.49191
句	-8.49299
先生	-8.49449
羽	-8.4951
天下	-8.49531
東風	-8.49572
故名	-8.49645
越	-8.49733
院	-8.49777
翁	-8.49787
蒼	-8.50016
殻	-8.50466
蘂	-8.50812
二錢	-8.50894
茗	-8.51135
疏	-8.51182
葵	-8.51466
籠	-8.51574
切	-8.51587
磨	-8.51612
雅	-8.51998
勿	-8.52107
降	-8.52197
存	-8.52248
二兩	-8.52371
兹	-8.52388
偶	-8.52607
盆	-8.52693
贊	-8.52748
任	-8.52875
酸	-8.53141
淨	-8.53255
橋	-8.53409
環	-8.53611
佛	-8.53627
杯	-8.53716
憶	-8.53882
旋	-8.53924
窓	-8.54057
傾	-8.54354
說	-8.54414
炒	-8.54628
草木	-8.54755
愈	-8.54828
黃	-8.5487
旁	-8.55041
低	-8.55322
葉似	-8.55345
侯	-8.55392
苑	-8.5546
嶺	-8.55485
榦	-8.55509
伏	-8.55712
穿	-8.55946
焙	-8.56141
考	-8.56167
伴	-8.56195
鶴	-8.56297
鄭	-8.56302
貯	-8.56309
一日	-8.56322
圍	-8.56754
瓦	-8.56827
制	-8.56878
兼	-8.57017
鄉	-8.57434
爭	-8.57736
憐	-8.57742
龍腦	-8.57792
脚	-8.57957
飄	-8.58005
舒	-8.58122
辭	-8.58233
滑	-8.58247
紀	-8.58368
怪	-8.58371
并	-8.58801
邉	-8.58886
苞	-8.59231
者為	-8.59396
蔓	-8.59525
鑄	-8.5979
銅	-8.59801
山中	-8.59836
湏	-8.59842
懸	-8.59946
揚	-8.6001
延	-8.60164
羙	-8.60166
本草綱目	-8.60448
蝶	-8.60706
為之	-8.6075
回	-8.61057
君子	-8.61143
顔	-8.61176
甲	-8.61242
坑	-8.61332
㡬	-8.61436
總	-8.61486
浪	-8.61492
氷	-8.61623
椒	-8.61664
宣	-8.61869
反	-8.61892
扶	-8.62121
静	-8.62248
透	-8.62255
升	-8.62301
隠	-8.6232
約	-8.62326
勻	-8.62493
忌	-8.62528
一錢	-8.62539
聚	-8.62594
腸	-8.62885
貞	-8.63121
杜	-8.63326
往	-8.64056
狀如	-8.64219
窮	-8.6435
辛	-8.64548
孔	-8.64568
糞	-8.64813
茅	-8.64848
徒	-8.64905
急	-8.64905
之所	-8.65143
洪	-8.65224
歩	-8.65272
詩散句	-8.65299
寛	-8.65322
鬚	-8.65337
又有	-8.65372
挺	-8.65422
管	-8.65726
篇	-8.65985
人間	-8.65987
卿	-8.66098
漫	-8.66126
游	-8.66152
適	-8.66161
耶	-8.66588
禁	-8.66782
續	-8.66955
飯	-8.66958
宅	-8.66984
印	-8.67083
禮	-8.6727
瓶	-8.67272
葉如	-8.67291
刀	-8.67798
穴	-8.67801
買	-8.67833
尖	-8.6811
爾雅	-8.68448
罷	-8.68511
慶	-8.68527
潔	-8.68538
蠟	-8.68586
抽	-8.68594
苖	-8.68595
大者	-8.68616
簾	-8.68783
甘松	-8.68819
巧	-8.6882
如此	-8.68843
昌	-8.68944
冰	-8.68945
弄	-8.68953
鳯	-8.69143
辨	-8.69371
盈	-8.69575
花開	-8.69727
䕶	-8.69791
闕	-8.69832
四月	-8.70034
父	-8.70136
粒	-8.70178
宮	-8.70232
九月	-8.70266
寫	-8.70287
七言絶句	-8.70585
麤	-8.70681
千葉	-8.70874
漆	-8.7105
羞	-8.71073
争	-8.71095
把	-8.71246
斑	-8.71349
插	-8.71462
負	-8.71763
十二	-8.72057
壁	-8.72188
此花	-8.72385
戲	-8.72498
鏡	-8.72659
腰	-8.72709
支	-8.72724
户	-8.72759
倒	-8.73005
薑	-8.73077
走	-8.73086
綴	-8.73144
賢	-8.73145
畧	-8.73154
泛	-8.73169
態	-8.73176
葱	-8.73431
其根	-8.7359
鼎	-8.73611
湘	-8.73717
請	-8.74075
想	-8.74145
脂	-8.74269
忘	-8.74294
源	-8.74354
四兩	-8.74401
鐫	-8.74451
不同	-8.7471
彩	-8.74798
投	-8.74846
燈	-8.74878
參	-8.75144
枝葉	-8.75195
塗	-8.75323
不見	-8.75403
媚	-8.75404
桃李	-8.75642
可愛	-8.7565
衰	-8.75711
黍	-8.76039
迎	-8.76155
毎	-8.76199
藻	-8.76519
助	-8.76632
圃	-8.76633
祥	-8.76701
丸	-8.7674
開花	-8.76896
宴	-8.77018
韓	-8.77273
荆	-8.77692
鐵	-8.77753
省	-8.77782
况	-8.7779
才	-8.77886
結實	-8.78038
舍	-8.78048
軒	-8.78099
祖	-8.78215
亦可	-8.78249
二十	-8.78277
蔕	-8.78385
三年	-8.7851
蘆	-8.7867
餅	-8.78715
蛇	-8.78783
勞	-8.78867
競	-8.78899
息	-8.79136
粟	-8.79346
披	-8.79348
痛	-8.79356
厥	-8.79381
圎	-8.7942
改	-8.79653
遠	-8.7982
枕	-8.79841
稀	-8.80237
頻	-8.80246
不及	-8.80273
博	-8.80576
報	-8.80591
梢	-8.80625
價	-8.80801
爐	-8.80882
鱗	-8.80985
顔色	-8.81142
味甘	-8.81148
霧	-8.8116
索	-8.81194
福	-8.81648
杖	-8.8165
擬	-8.81686
船	-8.81723
上有	-8.81773
羮	-8.82069
芋	-8.82098
避	-8.82114
䕃	-8.82148
所以	-8.82393
暑	-8.82487
柯	-8.82521
八月	-8.82574
汝	-8.82636
晨	-8.82896
玩	-8.83037
徧	-8.83079
斗	-8.83359
幹	-8.83373
詩云	-8.83402
席	-8.83633
三兩	-8.83651
殺	-8.83667
風吹	-8.83878
澗	-8.83928
聊	-8.84025
牙	-8.84399
詔	-8.84435
晝	-8.84455
迷	-8.84491
頂	-8.84677
種之	-8.84747
是也	-8.84922
强	-8.8497
惠	-8.84983
鬱	-8.85057
雷	-8.8519
榆	-8.85232
勢	-8.8524
渠	-8.85298
卧	-8.85423
聽	-8.85463
纔	-8.85478
觧	-8.85495
煩	-8.85705
山谷	-8.8573
仰	-8.85828
者也	-8.85883
囘	-8.8592
嚴	-8.85924
琴	-8.86014
菊花	-8.86049
唯	-8.86188
烹	-8.86357
占	-8.86371
扇	-8.86412
差	-8.86414
頌	-8.86416
蒙	-8.86797
櫻桃	-8.86871
縁	-8.86922
錫	-8.86923
乍	-8.86941
蓬	-8.87322
館	-8.87393
獲	-8.87469
六月	-8.87496
藍	-8.8769
狂	-8.87735
洛	-8.87786
夷	-8.87798
五言古詩	-8.87824
耕	-8.87931
念	-8.87932
柑	-8.8795
廟	-8.88232
掃	-8.88331
妍	-8.88403
逸	-8.8842
活	-8.8853
可食	-8.88715
十月	-8.88749
爲	-8.88877
侵	-8.88879
退	-8.88899
設	-8.88904
資	-8.88915
午	-8.88969
誤	-8.88982
暈	-8.89003
歎	-8.89142
傅	-8.89299
施	-8.89323
婦	-8.89339
津	-8.896
符	-8.89879
令人	-8.89902
德	-8.89919
眉	-8.89986
囊	-8.90102
尺	-8.90126
佩	-8.90301
了	-8.90347
丁	-8.90434
彌	-8.90461
之類	-8.90484
随	-8.90658
呉	-8.90671
悉	-8.90953
巨	-8.90964
風雨	-8.91284
勁	-8.91361
曹	-8.91365
丘	-8.91398
東坡	-8.9145
簡	-8.91481
遍	-8.91508
蒿	-8.91762
瘦	-8.91969
伊	-8.91992
遣	-8.9204
計	-8.92047
司	-8.92061
蕭	-8.92158
閩	-8.92312
蜂	-8.92362
遥	-8.92472
叔	-8.92531
名曰	-8.92652
揺	-8.92652
備	-8.92701
葛	-8.92943
雕	-8.92953
憂	-8.92986
李時珍曰	-8.93011
添	-8.93014
編	-8.93043
韭	-8.93106
别錄	-8.93196
阿	-8.93251
京	-8.93316
歳	-8.9337
薰	-8.93381
療	-8.93448
乗	-8.93482
敢	-8.93525
灑	-8.93563
杏花	-8.93688
葩	-8.93825
薔薇	-8.93834
大小	-8.93879
架	-8.94042
柱	-8.94417
液	-8.94429
歡	-8.9451
擇	-8.94548
綺	-8.94571
充	-8.94578
炎	-8.94854
絳	-8.94873
催	-8.94999
由	-8.95017
層	-8.95042
洲	-8.95101
標	-8.95108
誇	-8.95111
召	-8.95132
壽	-8.95134
左右	-8.95193
株	-8.95472
悲	-8.95676
借	-8.95695
醒	-8.9589
邪	-8.9608
辰	-8.96091
澆	-8.96145
甜	-8.96155
凍	-8.962
棃	-8.96361
政	-8.96666
燥	-8.96678
繡	-8.96706
吴	-8.96748
昭	-8.96749
檀	-8.96752
顆	-8.97126
陸游	-8.97157
包	-8.97222
嗟	-8.97232
崇	-8.9726
孝	-8.97394
土人	-8.97527
滴	-8.97648
二年	-8.97666
麝	-8.97693
雄	-8.9771
蔡	-8.97766
黄色	-8.97805
廻	-8.97828
麴	-8.97862
屈	-8.97889
釋	-8.97929
縷	-8.98173
水中	-8.98247
其葉	-8.9836
畢	-8.98386
葡萄	-8.98405
一株	-8.98763
郭	-8.98902
孟	-8.98903
黄花	-8.99103
鬼	-8.99145
自然	-8.99163
秋風	-8.99338
康	-8.9936
燭	-8.99433
綿	-8.99449
痕	-8.99465
納	-8.99492
溫	-8.99516
恩	-8.99984
虛	-9.00017
畔	-9.00063
朶	-9.00154
衡	-9.00198
𤓰	-9.0041
咸	-9.00483
烈	-9.00594
效	-9.00604
不足	-9.00653
脆	-9.00797
硬	-9.01063
掌	-9.01071
蔬	-9.01113
熏	-9.01355
睡	-9.01589
蘇軾	-9.01675
式	-9.01981
飽	-9.0214
郊	-9.02224
濟	-9.02326
無人	-9.02419
搗	-9.02668
墻	-9.02684
伐	-9.02771
委	-9.02775
奪	-9.02888
順	-9.02921
壺	-9.03053
竹筍	-9.03148
其中	-9.03213
白居易	-9.0331
膚	-9.0339
焦	-9.03446
竟	-9.03953
讀	-9.03959
閑	-9.0402
隱	-9.04056
擁	-9.04063
蓮花	-9.04086
服之	-9.04096
七月	-9.04212
肌	-9.0442
軍	-9.04486
山海經	-9.0452
砌	-9.04615
融	-9.04617
推	-9.04636
織	-9.0464
潭	-9.04646
膩	-9.04753
第	-9.04821
籬	-9.04832
第一	-9.05107
吉	-9.0516
𫝊	-9.05185
鋤	-9.05204
紛	-9.05205
停	-9.05224
住	-9.05291
束	-9.05455
儀	-9.05529
季	-9.05595
裹	-9.05687
棄	-9.05721
浄	-9.05744
不復	-9.05753
掩	-9.05763
毫	-9.05772
賣	-9.05786
註	-9.05836
鍾	-9.05844
御製	-9.05856
數十	-9.05859
洛陽	-9.05919
庶	-9.06332
袖	-9.06346
石榴	-9.06362
潛	-9.06416
淚	-9.0642
以上	-9.06831
萍	-9.0684
一斤	-9.06931
削	-9.07035
僅	-9.07081
胎	-9.07093
清香	-9.07094
畦	-9.07266
瘡	-9.07496
用之	-9.0756
脫	-9.0759
歴	-9.07598
峰	-9.07611
誠	-9.07614
鹿	-9.08012
檜	-9.08032
棘	-9.08252
零陵香	-9.08309
商	-9.08393
瑩	-9.08402
奴	-9.08441
魯	-9.08699
棲	-9.08779
吏	-9.08835
鋪	-9.0884
執	-9.08873
保	-9.08886
黄金	-9.08971
畏	-9.09038
為末	-9.09096
紫色	-9.0914
别録	-9.09159
沸	-9.09178
漬	-9.09305
尊	-9.09385
敗	-9.0943
奏	-9.09503
寸	-9.09512
其花	-9.0959
不敢	-9.09722
階	-9.09879
浦	-9.09893
渾	-9.09984
墮	-9.10065
律	-9.10071
怨	-9.1008
濶	-9.10113
鄰	-9.10458
魂	-9.10603
敷	-9.10625
璧	-9.10634
純	-9.10642
換	-9.10649
招	-9.10651
逰	-9.10703
藉	-9.10705
澄	-9.11102
盧	-9.11179
裁	-9.11311
三十	-9.11323
輙	-9.11329
曰此	-9.11615
欄	-9.11867
浴	-9.11879
蟬	-9.11879
􁀙	-9.11901
墜	-9.11977
貫	-9.11995
那	-9.12086
塘	-9.12423
風流	-9.12435
年年	-9.12459
啼	-9.12466
翼	-9.12481
醋	-9.12496
縱	-9.12523
木香	-9.12746
千里	-9.12767
杜甫	-9.13078
維	-9.13099
酉陽雜俎	-9.13189
又名	-9.1319
乘	-9.13201
社	-9.13228
雀	-9.13437
然後	-9.13632
眞	-9.1382
均	-9.13824
纎	-9.13839
□	-9.13952
長安	-9.14077
石硯	-9.14088
嚼	-9.14475
典	-9.14499
裂	-9.14524
厭	-9.14645
童	-9.14667
藕	-9.14966
五言律詩	-9.15054
戴	-9.15081
濯	-9.15129
甫	-9.15141
蕙	-9.15175
減	-9.15617
業	-9.15626
乳香	-9.1572
炭	-9.15757
鼻	-9.1576
餐	-9.15774
饒	-9.15779
關	-9.15795
不如	-9.1583
卒	-9.15837
倍	-9.16092
斤	-9.16284
鸞	-9.16292
嫌	-9.16432
奇	-9.16474
荔	-9.16521
南方	-9.16708
叢生	-9.16749
旦	-9.16752
三錢	-9.16804
結子	-9.16836
屏	-9.16887
蕩	-9.17106
拌	-9.17118
飾	-9.17132
三四	-9.17448
西風	-9.17453
楓	-9.17604
禽	-9.17609
賔	-9.17644
崖	-9.17732
碾	-9.17736
富	-9.17776
觸	-9.17794
脱	-9.17794
宋蘇軾	-9.17832
草一名	-9.17865
五分	-9.18189
四時	-9.18382
攜	-9.18415
屑	-9.18437
繫	-9.18461
今日	-9.1893
崔	-9.19072
較	-9.19086
累	-9.19154
覽	-9.19159
亭亭	-9.19277
沈香	-9.19409
七言律詩	-9.19725
訪	-9.19799
牀	-9.19814
沃	-9.19817
厯	-9.19831
告	-9.19836
粥	-9.19936
下有	-9.20181
春色	-9.20281
裳	-9.20363
其實	-9.20388
騎	-9.20427
介	-9.20469
螺	-9.20487
鼓	-9.20493
之上	-9.20581
簇	-9.20675
主人	-9.20687
髪	-9.2089
欽定四庫全書	-9.20964
眠	-9.20979
蓼	-9.21053
塞	-9.21061
虞	-9.21099
揚州	-9.21119
得之	-9.21151
座	-9.21181
拜	-9.21193
茄	-9.21407
正月	-9.21495
一分	-9.21581
青青	-9.21604
生於	-9.21659
率	-9.21672
錯	-9.21787
楊萬里	-9.21797
展	-9.21849
緣	-9.21866
呈	-9.21872
費	-9.21875
缺	-9.21879
梗	-9.21881
壯	-9.21882
皆有	-9.22085
術	-9.22158
妃	-9.22493
衛	-9.22523
漏	-9.22534
觴	-9.22561
剛	-9.22593
形如	-9.22649
旱	-9.22839
假	-9.22888
渚	-9.23217
汗	-9.23243
跡	-9.23267
筋	-9.23883
醫	-9.23919
部	-9.23974
檻	-9.23975
范	-9.23987
峯	-9.23988
筠	-9.24001
勤	-9.24003
毬	-9.24435
仙人	-9.24566
凌	-9.24634
澀	-9.24637
臙脂	-9.2469
暉	-9.24726
芬	-9.24925
辟	-9.2512
白花	-9.25176
柰	-9.25181
穗	-9.2524
藿香	-9.25312
徃	-9.25332
舌	-9.25385
啓	-9.25401
皺	-9.25432
廢	-9.25464
詳	-9.25469
潮	-9.25471
少許	-9.25583
單	-9.25617
農	-9.25863
窺	-9.26136
希	-9.26158
貨	-9.26184
五言絶句	-9.26778
取出	-9.26788
篆	-9.26789
談	-9.26802
截	-9.26815
人家	-9.26818
靜	-9.26869
徹	-9.26894
不用	-9.26896
而已	-9.27122
卉	-9.2718
免	-9.27222
排	-9.27232
而生	-9.27459
芒	-9.27464
案	-9.2754
酌	-9.27584
其名	-9.27588
白芷	-9.27588
運	-9.27602
侍	-9.2761
聳	-9.27619
纖	-9.27627
鎮	-9.27635
拔	-9.27646
饑	-9.27652
可作	-9.27685
次韻	-9.277
白色	-9.27752
五色	-9.27755
何處	-9.27813
鶯	-9.27888
本草云	-9.27974
灌	-9.28102
馥	-9.2826
懷	-9.28312
射	-9.28368
族	-9.28373
唐杜甫	-9.28402
恒	-9.28408
或云	-9.28526
帳	-9.28716
鬭	-9.28767
菖蒲	-9.28964
坡	-9.28982
格	-9.29087
宇	-9.29089
弗	-9.29246
墨池	-9.2935
莊	-9.29443
此物	-9.29454
乞	-9.29541
呼為	-9.29653
橙	-9.29727
者名	-9.29757
擢	-9.29783
朔	-9.29803
肅	-9.29803
亞	-9.29853
害	-9.29857
圗	-9.29858
荔枝	-9.29918
炙	-9.29934
艾	-9.30009
三日	-9.30113
清明	-9.30193
剖	-9.30239
五錢	-9.30255
否	-9.30314
菌	-9.30338
姓	-9.30355
三分	-9.30398
盞	-9.30406
而小	-9.30413
禾	-9.30488
未嘗	-9.30536
履	-9.30606
匪	-9.3064
縈	-9.30648
據	-9.30688
取之	-9.31025
焚	-9.3103
萬里	-9.31033
於是	-9.31303
甲香	-9.31328
響	-9.31354
十里	-9.31559
當時	-9.31596
臘	-9.31669
芥	-9.31674
蒜	-9.31938
禪	-9.32005
瑶	-9.32013
頓	-9.32043
蟠	-9.32057
挂	-9.32118
卵	-9.32123
其色	-9.32136
步	-9.32185
姬	-9.32224
太守	-9.3226
菱	-9.32269
腦	-9.32469
速	-9.32526
之名	-9.32784
爽	-9.32845
遷	-9.32863
界	-9.32874
元年	-9.32896
黏	-9.32913
巾	-9.32919
達	-9.32928
授	-9.32936
超	-9.32965
明年	-9.32988
私	-9.33125
歇	-9.3315
石上	-9.33244
大夫	-9.33332
樣	-9.33427
塊	-9.33502
夾	-9.3359
臭	-9.33608
可憐	-9.33681
摩	-9.33681
収	-9.33714
戒	-9.33715
甌	-9.33865
取其	-9.33985
其下	-9.34027
堆	-9.34177
十餘	-9.34177
殷	-9.34254
恵	-9.34411
闗	-9.34426
輪	-9.34447
小者	-9.34451
機	-9.34483
刈	-9.34487
穂	-9.34504
京師	-9.34541
一曰	-9.34652
二字	-9.34937
簷	-9.34972
扁	-9.35057
后	-9.3507
二種	-9.35095
香氣	-9.35116
九日	-9.35117
紗	-9.35243
古人	-9.35258
薪	-9.35289
述	-9.35294
婦人	-9.3532
板	-9.35356
一年	-9.35367
劑	-9.35501
曬	-9.35706
疊	-9.35715
腴	-9.35733
梓	-9.35772
至於	-9.35825
託	-9.35964
箭	-9.35983
忠	-9.36029
牆	-9.36034
宋梅堯臣	-9.36065
愧	-9.36075
孰	-9.36095
/)(	-9.36291
甕	-9.36293
相似	-9.36383
重陽	-9.36392
銜	-9.36649
於此	-9.36802
七言古詩	-9.36817
几	-9.36825
打	-9.36826
埋	-9.36836
䖏	-9.36846
育	-9.36931
洞庭	-9.3698
其上	-9.37106
十五	-9.37236
種植	-9.37507
甘草	-9.37549
絮	-9.37568
藝	-9.37613
敬	-9.37638
智	-9.3764
上下	-9.37646
荷花	-9.37649
會	-9.3767
偷	-9.37685
竊	-9.37716
蔽	-9.3772
牽	-9.37748
楊柳	-9.37796
天子	-9.37826
楊梅	-9.38072
夫人	-9.38391
姑	-9.38416
閉	-9.3844
製用	-9.38516
領	-9.38528
宣和	-9.38779
耀	-9.39198
拾	-9.3926
壅	-9.39313
靡	-9.39351
撲	-9.39356
困	-9.39376
者謂之	-9.39538
示	-9.39646
其味	-9.39669
昏	-9.39909
患	-9.39958
泰	-9.39971
嗜	-9.40061
天地	-9.40071
𢃄	-9.40157
琢	-9.40168
稠	-9.40168
略	-9.40177
巢	-9.40915
賛	-9.40927
剉	-9.40936
儒	-9.41011
危	-9.41022
參差	-9.41027
嘉禾	-9.41123
又云	-9.41237
五六	-9.41306
際	-9.41451
佳人	-9.41534
是硯	-9.41588
砂	-9.41732
兎	-9.41754
纒	-9.41839
隆	-9.4184
屢	-9.41861
賈	-9.41887
翔	-9.41892
嶺南	-9.4208
自是	-9.42179
肺	-9.42552
蕃	-9.42677
者曰	-9.42678
繼	-9.42699
駕	-9.42699
祗	-9.42708
鴈	-9.42719
境	-9.42722
韋	-9.42736
操	-9.42776
馨	-9.42992
幽人	-9.43073
椀	-9.43119
汲	-9.43154
枚	-9.43171
糖	-9.43332
時有	-9.43335
掘	-9.4347
二首	-9.43486
兵	-9.43514
邑	-9.43519
追	-9.43556
蠻	-9.43573
祠	-9.43574
宵	-9.43582
釣	-9.43587
翳	-9.43598
萬物	-9.43617
痩	-9.43629
茹	-9.43636
北苑	-9.43651
監	-9.43698
明月	-9.43718
山茶	-9.43731
可為	-9.4381
攀	-9.43844
様	-9.4413
山有	-9.4427
健	-9.4435
祭	-9.44408
一寸	-9.44432
千年	-9.44444
帖	-9.44451
寜	-9.44459
箋	-9.44463
謹	-9.44466
滌	-9.44466
寂寞	-9.44482
棃花	-9.44488
笛	-9.44514
沒	-9.4452
丈	-9.44893
線	-9.44936
貧	-9.4494
小兒	-9.44941
晦	-9.45269
彭	-9.45282
攪	-9.45303
賤	-9.45314
渡	-9.45315
霄	-9.45323
鬢	-9.45336
鑿	-9.45341
四年	-9.4554
廬	-9.45564
凋	-9.45734
道人	-9.45765
之以	-9.45996
觔	-9.46108
割	-9.46111
銷	-9.4619
婆	-9.46192
晏	-9.46199
鴻	-9.46202
營	-9.46243
務	-9.46297
氣味	-9.46398
雨露	-9.4665
色如	-9.46896
寒食	-9.46915
蘇頌曰	-9.46965
暫	-9.47049
樵	-9.47085
徴	-9.47087
沾	-9.47093
澹	-9.47104
程	-9.47132
至今	-9.47151
勒	-9.47193
曬乾	-9.47356
樽	-9.47487
故曰	-9.47558
頃	-9.47676
色白	-9.47734
淵	-9.47876
干	-9.47893
捲	-9.47939
寓	-9.47982
翫	-9.48043
幕	-9.48046
議	-9.48093
防	-9.4835
萌	-9.48514
其子	-9.48743
綵	-9.48782
南山	-9.48785
茯苓	-9.48807
給	-9.48836
偃	-9.48847
不堪	-9.48857
餉	-9.48866
暴	-9.48891
遮	-9.48898
鐘	-9.48913
妖	-9.48942
岐	-9.48955
日月	-9.48989
答	-9.48989
彦	-9.49059
十年	-9.49061
番	-9.49291
上方	-9.49432
慎	-9.4948
鈴	-9.49508
芳菲	-9.49527
詩人	-9.49534
襲	-9.49534
一樹	-9.49585
榴	-9.49607
茱萸	-9.49732
脉	-9.49769
肝	-9.49781
署	-9.49783
擊	-9.49791
鈎	-9.49801
岡	-9.49853
潘	-9.49878
覆手	-9.49949
淮	-9.49978
去皮	-9.50107
何人	-9.50185
五寸	-9.503
茉莉	-9.50309
西域	-9.50332
風味	-9.50351
大而	-9.50398
之後	-9.50517
間有	-9.50607
痰	-9.50692
揀	-9.50717
隐	-9.50732
規	-9.50737
滅	-9.50745
振	-9.50763
遶	-9.50778
歛	-9.50781
𦂳	-9.50808
權	-9.50838
亦名	-9.50912
不過	-9.50995
東南	-9.51018
爾雅云	-9.51146
窠	-9.51202
亦不	-9.51396
翰	-9.5144
芹	-9.51467
涼	-9.51616
滯	-9.51626
撰	-9.51646
溝	-9.51653
視之	-9.51658
茴香	-9.5166
􁁊	-9.51699
輒	-9.51721
扶疎	-9.51747
大抵	-9.51808
神仙	-9.51817
以其	-9.51862
簪	-9.51957
五年	-9.52038
芸	-9.52127
托	-9.52177
蕨	-9.52276
犀	-9.5231
釀	-9.52473
搖	-9.52509
匀	-9.52509
薛	-9.52589
筵	-9.526
值	-9.52616
穆	-9.52653
䑕	-9.52674
量	-9.52681
瓠	-9.52705
壑	-9.52705
學士	-9.52767
付	-9.52834
十日	-9.52907
之間	-9.53105
不宜	-9.5324
薫	-9.5334
旗	-9.53503
熬	-9.53511
貼	-9.53531
彈	-9.53562
臥	-9.5357
穎	-9.53576
怒	-9.53619
俟	-9.53792
楊花	-9.54091
花譜	-9.54107
夲	-9.54384
渇	-9.54388
柴	-9.54396
徘徊	-9.5451
捧	-9.54543
慰	-9.54567
驗	-9.54589
騰	-9.54597
蔗	-9.54614
曰吾	-9.54763
稜	-9.54831
猪	-9.55106
一莖	-9.55275
薺	-9.55394
醬	-9.55449
鬬	-9.55463
顯	-9.55493
拆	-9.55493
壇	-9.55502
快	-9.5551
南海	-9.55698
煤	-9.5571
之為	-9.56256
輝	-9.56381
纍纍	-9.5642
瑤	-9.56431
叚	-9.56522
陂	-9.56523
僕	-9.56524
泣	-9.5653
蔚	-9.56547
芭蕉	-9.56568
蝦	-9.56582
漁	-9.56673
春秋	-9.56804
草增	-9.5692
者以	-9.56934
二寸	-9.56975
天然	-9.56995
嵗寒	-9.57024
探	-9.57066
庚	-9.57156
長生	-9.57287
冬月	-9.57293
西湖	-9.57348
枇杷	-9.57365
選	-9.57375
稷	-9.57392
曝	-9.57463
緩	-9.57472
詎	-9.57475
豪	-9.57476
輸	-9.57506
愚	-9.57527
李白	-9.57557
網	-9.57557
爪	-9.57559
相思	-9.57559
硯背	-9.5774
東籬	-9.5787
不為	-9.58027
數百	-9.58058
仿	-9.58292
慙	-9.58427
播	-9.58469
妻	-9.58481
裙	-9.58485
籍	-9.58493
悦	-9.585
處處有之	-9.58519
梧桐	-9.58644
拾遺記	-9.58788
開時	-9.58801
之則	-9.58819
尚書	-9.58867
十兩	-9.58934
端溪	-9.58961
平生	-9.58978
味苦	-9.59215
綃	-9.5933
美人	-9.59362
梧	-9.59413
踏	-9.59451
瀉	-9.59477
欺	-9.59485
述異記	-9.59495
陰	-9.59499
往往	-9.59534
覩	-9.59564
萎	-9.59577
忍	-9.59813
怕	-9.59989
荔子	-9.59991
今年	-9.60043
多少	-9.60366
森	-9.60377
天香	-9.60392
熊	-9.60475
發墨	-9.60485
島	-9.60513
寂	-9.60518
壤	-9.60527
而長	-9.60624
咏	-9.60633
千金	-9.60974
蕉	-9.61029
紫花	-9.61047
十八	-9.61064
旬	-9.61279
零	-9.61283
渴	-9.61407
清風	-9.61459
卑	-9.61495
𣝕香	-9.61512
提	-9.61547
筒	-9.61562
塲	-9.61586
輩	-9.61611
而無	-9.61718
宛	-9.61727
状	-9.6176
之不	-9.61833
籜	-9.62065
春光	-9.62301
莎	-9.6245
范成大	-9.62464
茸	-9.62467
擅	-9.62509
貌	-9.6252
枝上	-9.62537
恭	-9.62566
偽	-9.62584
寵	-9.626
勸	-9.62609
酬	-9.62609
班	-9.62613
慈	-9.62641
别有	-9.62717
者皆	-9.62848
蘋	-9.63138
之法	-9.6324
多情	-9.63337
堦	-9.63538
杵	-9.63544
吕	-9.63559
亡	-9.63622
驅	-9.63632
蕪	-9.63635
征	-9.63664
之屬	-9.63671
不勝	-9.63771
右件	-9.63776
端石	-9.6396
太平	-9.64077
花落	-9.64188
啖	-9.64194
如何	-9.6423
餌	-9.64239
為度	-9.64279
枝頭	-9.64357
有之	-9.64393
匠	-9.64468
斫	-9.64474
酣	-9.64541
莧	-9.64586
水浸	-9.64632
噉	-9.64641
料	-9.6465
隂乾	-9.64665
鴛鴦	-9.64667
十六	-9.64676
襟	-9.64682
趣	-9.64703
兄	-9.64713
額	-9.64746
撫	-9.64758
鏤	-9.64761
專	-9.64765
初生	-9.64767
花葉	-9.64945
芬芳	-9.64975
畝	-9.65095
岩	-9.65343
無毒	-9.65497
一時	-9.65674
迹	-9.65756
酥	-9.65763
蛤	-9.65774
縹	-9.65829
揉	-9.65856
榛	-9.65868
荅	-9.65936
處處	-9.65946
一物	-9.66055
四十	-9.66196
之曰	-9.66218
春日	-9.66241
武帝	-9.66331
故人	-9.66418
亦曰	-9.66633
髮	-9.6664
蓴	-9.66665
茅香	-9.66678
話	-9.66679
昬	-9.66684
玉堂	-9.66732
五兩	-9.66751
艷	-9.66819
握	-9.66825
摧	-9.66832
堯	-9.66848
職	-9.66877
喧	-9.66883
粗	-9.66898
犯	-9.66899
混	-9.66899
彰	-9.66915
一本	-9.67002
天上	-9.67032
人以	-9.67081
一二	-9.67123
人呼為	-9.67183
無所	-9.67302
其後	-9.67389
燒之	-9.67506
名醫别録	-9.67645
緑葉	-9.67753
臼	-9.67758
喬	-9.67847
培	-9.67897
俯	-9.67948
威	-9.67948
齊民要術	-9.67958
輿	-9.6796
葦	-9.67974
芳草	-9.67998
黎	-9.68029
注云	-9.68035
擘	-9.68052
未有	-9.684
化為	-9.68577
啜	-9.68621
二分	-9.68666
莽	-9.68915
所産	-9.68947
和勻	-9.68968
婆娑	-9.6898
筐	-9.68985
剝	-9.69011
髻	-9.69019
驛	-9.69022
欵	-9.6905
殆	-9.69061
甞	-9.69061
為上	-9.69074
遙	-9.69085
𢎞	-9.691
倫	-9.69116
憑	-9.69118
肯	-9.69125
爾雅翼	-9.69166
山下	-9.69248
見之	-9.69282
出於	-9.69315
霜雪	-9.69425
者有	-9.69471
道士	-9.69581
各一	-9.69686
松柏	-9.69806
薇	-9.69855
不甚	-9.69911
巴	-9.70074
貝	-9.70095
流水	-9.70098
有一	-9.70124
跗	-9.70132
菰	-9.70135
倦	-9.7017
菴	-9.70183
罕	-9.70196
臉	-9.70208
佐	-9.70209
蓄	-9.70213
馳	-9.70217
柄	-9.70218
哀	-9.7022
抑	-9.70226
遭	-9.70259
當年	-9.70272
曝乾	-9.70277
自有	-9.70281
色青	-9.70324
人謂之	-9.70413
竿	-9.70612
或以	-9.70673
螯	-9.70715
入藥	-9.71093
羅紋	-9.71147
瓊花	-9.71165
隴	-9.71226
斧	-9.71232
獸	-9.71278
叟	-9.71309
炊	-9.71315
盛開	-9.71319
妾	-9.7133
四分	-9.7134
腥	-9.71346
粱	-9.71346
瘴	-9.71347
契	-9.71353
絡	-9.71358
遐	-9.71372
黄白	-9.71463
南人	-9.71545
如玉	-9.7168
一夜	-9.71705
色紫	-9.71708
五銖	-9.71897
杉	-9.72174
賴	-9.72178
百餘	-9.72301
科	-9.72398
竅	-9.72407
楮	-9.72411
讓	-9.72445
倉	-9.72447
位	-9.72456
汎	-9.72458
申	-9.72462
雉	-9.72464
返	-9.72471
玲瓏	-9.7248
尹	-9.72481
蚌	-9.72491
紅花	-9.72513
袁	-9.72513
奚	-9.72543
朋	-9.72569
唐白居易	-9.72576
飲之	-9.72576
莖葉	-9.72893
使君	-9.73133
賀	-9.73158
某	-9.73305
而為	-9.73311
一尺	-9.73335
隋	-9.73444
蘿	-9.73505
鑒	-9.73554
脾	-9.73563
腦麝	-9.73564
併	-9.73589
糟	-9.73594
隅	-9.73617
怯	-9.73646
三百	-9.73661
障	-9.73662
舜	-9.73668
整	-9.73685
粉紅	-9.73818
乏	-9.7403
棠	-9.74173
生者	-9.74184
甑	-9.74307
之氣	-9.74317
安得	-9.74383
相對	-9.74505
得其	-9.74619
一片	-9.74665
今之	-9.74749
庾	-9.74758
䦨	-9.74779
牧	-9.7479
紛紛	-9.74792
蟻	-9.74796
一切	-9.74796
濡	-9.74806
剪	-9.74831
薤	-9.74835
其香	-9.74843
惹	-9.74859
㳺	-9.74881
慕	-9.74895
朽	-9.74977
不然	-9.75128
木𤓰	-9.75192
八分	-9.75515
之地	-9.75546
金錢	-9.75549
宰	-9.75828
山之	-9.75859
閩中	-9.75902
紅梅	-9.75941
揮	-9.75972
預	-9.75996
㫖	-9.76001
鴨	-9.76023
駐	-9.76028
忙	-9.7604
邀	-9.76061
唱	-9.76061
暢	-9.76063
形似	-9.76128
唐書	-9.76188
有餘	-9.76291
成都	-9.76319
岳	-9.76361
慢	-9.76366
皆可	-9.76518
靣	-9.76523
腫	-9.7686
數日	-9.77078
菘	-9.77081
飢	-9.77094
篩	-9.77154
槎	-9.77182
慚	-9.77183
脈	-9.77208
逾	-9.77211
鞭	-9.77211
練	-9.77215
蠧	-9.77227
叙	-9.77236
香爐	-9.77305
好事	-9.77315
富貴	-9.77365
一笑	-9.77394
蕭蕭	-9.77409
也其	-9.7743
其所	-9.77476
拌勻	-9.77512
離離	-9.77622
不是	-9.77673
茶之	-9.77696
焚香	-9.77862
雨後	-9.78043
綠葉	-9.78106
益氣	-9.78121
其間	-9.78212
之中	-9.78274
十四	-9.78275
窨	-9.78358
啄	-9.78405
𨽻書	-9.78405
盌	-9.78409
犬	-9.7841
苧	-9.78426
帷	-9.78429
蘇合油	-9.78445
皓	-9.78449
懼	-9.78453
蹙	-9.78463
匹	-9.7847
雌	-9.7849
顛	-9.78491
半斤	-9.78561
弟	-9.7871
何如	-9.79192
一人	-9.79279
磁	-9.79336
拳	-9.79393
箇	-9.79431
西山	-9.795
築	-9.79582
鵲	-9.79603
改元	-9.79615
荼	-9.79627
斂	-9.79654
䝉	-9.79659
荼䕷	-9.7966
笋	-9.79664
霑	-9.79668
貪	-9.79684
雁	-9.79687
中國	-9.79689
慮	-9.79696
董	-9.79697
穢	-9.79717
五十	-9.79725
不相	-9.7973
爰	-9.7988
依依	-9.79916
荷葉	-9.80056
之狀	-9.8011
深紅	-9.80263
雜記	-9.80372
奈	-9.80428
鷄	-9.80684
堤	-9.80763
脊	-9.80772
繭	-9.80852
覓	-9.80877
踈	-9.80878
互	-9.80889
臯	-9.80904
普	-9.80911
配	-9.80914
妬	-9.80942
強	-9.80959
邦	-9.80969
鵞	-9.81067
水晶	-9.81083
勿令	-9.81131
而大	-9.81145
十分	-9.81173
淮南子	-9.81181
南史	-9.81292
踰	-9.81519
姚	-9.81774
白雲	-9.81864
暇	-9.81994
胃	-9.82062
淑	-9.82067
焚之	-9.82086
色黄	-9.82094
繩	-9.82124
衝	-9.82134
蘿蔔	-9.82137
攢	-9.82146
逼	-9.8215
溢	-9.82155
魁	-9.82161
習	-9.82171
琉璃	-9.82201
閲	-9.82209
净	-9.82242
蕚	-9.82249
秫	-9.82267
茲	-9.82268
不生	-9.82344
十二月	-9.82496
得名	-9.83028
細葉	-9.83048
紅紫	-9.83051
也又	-9.83114
一枚	-9.83216
故謂之	-9.83299
寢	-9.83395
欹	-9.83399
剥	-9.83407
搜	-9.8342
蔵	-9.83422
綻	-9.83427
歟	-9.83484
秘	-9.83491
浩	-9.83494
闌	-9.83516
瓢	-9.83516
擲	-9.83521
鈿	-9.83535
茍	-9.8355
爇之	-9.83554
子如	-9.83577
相傳	-9.83609
子孫	-9.83686
木犀	-9.83687
少年	-9.83937
次之	-9.84296
惟有	-9.84364
三尺	-9.84379
有毒	-9.84399
柘	-9.84514
味辛	-9.84547
粲	-9.84577
黄庭堅	-9.84677
像	-9.84684
震	-9.84716
循	-9.84732
區	-9.84738
峽	-9.84741
雍	-9.84768
詩曰	-9.84819
従	-9.84821
半錢	-9.84839
所出	-9.84852
棹	-9.84861
江湖	-9.85029
行人	-9.85185
文章	-9.855
獨立	-9.85675
此君	-9.85737
术	-9.85747
煉	-9.85898
濁	-9.85926
梨花	-9.85973
熙	-9.86001
激	-9.86045
腐	-9.86048
禹	-9.86054
涵	-9.86062
金顔香	-9.86064
悟	-9.86086
絹	-9.86089
珊瑚	-9.86098
旅	-9.86105
酢	-9.8615
峻	-9.8616
鴉	-9.8618
香草	-9.86328
滿地	-9.86617
味酸	-9.86665
有三	-9.86699
歙	-9.86738
葉青	-9.86756
單葉	-9.86832
造化	-9.86841
好事者	-9.87093
百年	-9.87253
腎	-9.87266
之時	-9.87269
受墨處	-9.87288
酪	-9.87308
精神	-9.87337
筯	-9.8736
没	-9.87382
娥	-9.87385
蒂	-9.87387
之精	-9.87393
坊	-9.87403
亮	-9.87417
豫章	-9.87419
㯽榔	-9.87433
浥	-9.8744
黛	-9.87451
着	-9.87451
唇	-9.87461
白玉	-9.87467
五味	-9.87542
菽	-9.87592
各有	-9.87744
木蘭	-9.87837
徙	-9.87853
月明	-9.87894
二三	-9.87912
一宿	-9.88073
十三	-9.88166
甚多	-9.88353
俗呼	-9.88425
爇	-9.88648
馮	-9.88716
狗	-9.88724
千萬	-9.88732
莢	-9.88743
縮	-9.88747
㧞	-9.88751
缸	-9.88764
廷	-9.88775
麫	-9.88781
霽	-9.88811
蘓	-9.88814
庵	-9.88855
篆書	-9.88876
將軍	-9.88993
尺餘	-9.89035
甘露	-9.89099
百花	-9.89225
不必	-9.89276
釵	-9.89615
夏月	-9.89823
輔	-9.8989
楸	-9.90069
虀	-9.90086
蒔	-9.90094
厨	-9.90098
刷	-9.90101
淳	-9.90117
衍	-9.90127
嘆	-9.90127
靄	-9.90137
而有	-9.9014
琅玕	-9.90145
駢	-9.90148
㝠	-9.90152
局	-9.90169
圭	-9.90177
脩	-9.90182
帛	-9.90186
武陵	-9.90204
牋	-9.90212
吞	-9.9023
脯	-9.90233
野人	-9.90256
零落	-9.90326
隂陽	-9.90364
戎	-9.90405
故有	-9.90429
棧香	-9.90437
花如	-9.90472
月令	-9.9064
園中	-9.90695
沉水	-9.90718
初開	-9.90739
則不	-9.90795
白者	-9.91026
天氣	-9.91041
東海	-9.91187
濤	-9.91322
滓	-9.91375
入水	-9.91428
白菊	-9.91436
敵	-9.91477
匣	-9.91491
椿	-9.91496
校	-9.91497
臂	-9.91498
惱	-9.91501
遽	-9.91515
沫	-9.91528
誦	-9.91536
栖	-9.9154
醅	-9.91585
冶	-9.91588
杪	-9.91595
也今	-9.91601
矜	-9.91602
古今	-9.91728
植之	-9.9185
十一月	-9.91865
千載	-9.91903
附子	-9.91958
有人	-9.92168
或曰	-9.92327
百尺	-9.92342
未知	-9.9254
巳	-9.92599
不成	-9.92705
祐	-9.92754
嵓	-9.9278
另	-9.92856
痢	-9.92859
掇	-9.92886
鎖	-9.92897
翹	-9.92902
孕	-9.92907
嶽	-9.92908
黙	-9.92921
垣	-9.92952
裝	-9.92967
何以	-9.92968
嗅	-9.92968
北方	-9.92973
赴	-9.92984
睂	-9.93021
秉	-9.93062
廷珪	-9.93075
天涯	-9.93081
雨過	-9.93226
連理	-9.93272
甘菊	-9.9335
不與	-9.9342
水仙	-9.93713
遼	-9.93899
門外	-9.93906
本草拾遺	-9.94043
焙乾	-9.9406
者亦	-9.94101
蕈	-9.94238
児	-9.94265
沐	-9.94281
廊	-9.94284
大黄	-9.94302
攅	-9.94334
陋	-9.94335
𢷬	-9.94338
係	-9.94342
今人	-9.94358
認	-9.94358
挿	-9.94383
谿	-9.94384
陀	-9.94394
袋	-9.94396
晋	-9.94423
徵	-9.94449
幅	-9.94474
四面	-9.94487
南北	-9.94694
數枝	-9.94837
捜	-9.94843
斛	-9.94866
此草	-9.94975
無情	-9.94988
馨香	-9.95229
紅色	-9.9525
寒熱	-9.95326
喚	-9.95436
欣	-9.95437
去年	-9.95465
御製題	-9.95479
柿	-9.95532
􁈣	-9.95537
韶	-9.9555
沼	-9.95639
枸杞	-9.95716
歸去	-9.95717
篁	-9.95727
開元	-9.95746
倣	-9.95764
魄	-9.9577
矢	-9.95786
襯	-9.95796
宋宋祁	-9.95801
幽香	-9.9582
證	-9.95859
忩	-9.95863
卓	-9.95864
為君	-9.95873
糝	-9.95874
不受	-9.95884
𤣥參	-9.95888
簫	-9.95899
鼈	-9.95921
荻	-9.95947
羊肉	-9.95957
人多	-9.95957
蜀葵	-9.96134
四寸	-9.96141
蠟梅	-9.96408
朗	-9.96424
濵	-9.96657
明日	-9.96721
月中	-9.96755
一作	-9.96775
迥	-9.96975
涎	-9.97119
老人	-9.97126
椹	-9.97158
韓愈	-9.97203
鯉	-9.97236
矮	-9.97258
癖	-9.97261
罪	-9.97264
縫	-9.97277
有白	-9.97277
狹	-9.97286
產	-9.97288
隣	-9.97298
緒	-9.97318
劍	-9.97319
博物志	-9.97324
聼	-9.97334
裊	-9.97337
人所	-9.97349
統	-9.97361
緗	-9.97377
無毒治	-9.97408
武夷	-9.97518
尺許	-9.97522
長條	-9.97546
又曰	-9.97563
海南	-9.97614
三寸	-9.97713
小而	-9.97719
四五	-9.9796
是以	-9.98005
傲	-9.98087
俗名	-9.98124
咽	-9.98256
終日	-9.98388
誰知	-9.98413
朱子	-9.98457
風霜	-9.98467
以此	-9.98508
寡	-9.98512
蔥	-9.98513
芝草	-9.98633
之至	-9.98649
前後	-9.98678
枳	-9.9868
瘧	-9.98688
稽	-9.98693
熟時	-9.98711
泊	-9.98728
然而	-9.98741
戰	-9.9875
翅	-9.98752
翡翠	-9.98755
而成	-9.98766
祝	-9.98776
童子	-9.9878
一㸃	-9.98801
弓	-9.98805
陸羽	-9.98809
霏	-9.98833
五臟	-9.98846
趨	-9.98851
食貨志	-9.98852
金盤	-9.98894
即此	-9.98935
煉蜜	-9.98945
者多	-9.98952
下氣	-9.99066
蜀中	-9.99101
移栽	-9.99117
神農	-9.99227
赤色	-9.994
枝幹	-9.9945
者佳	-9.99496
如今	-9.99529
北人	-9.99571
異香	-9.99638
根如	-9.99718
十一	-9.99931
浙	-10.0001
烘	-10.0005
狀似	-10.0006
説文	-10.0009
一卷	-10.0015
逆	-10.0018
匙	-10.0023
肇	-10.0023
兔	-10.0024
婢	-10.0024
閱	-10.0026
邵	-10.0026
妄	-10.0027
臍	-10.0027
螭	-10.0028
泡	-10.0028
蛾	-10.0028
嚢	-10.0029
粘	-10.0029
汚	-10.0029
訖	-10.0032
劒	-10.0032
詣	-10.0033
偉	-10.0036
而後	-10.0038
績	-10.0041
喻	-10.0044
飲食	-10.0045
大葉	-10.0054
七年	-10.0056
園林	-10.0058
沸湯	-10.0065
記云	-10.0075
夕陽	-10.0081
禁中	-10.0084
移植	-10.0087
王孫	-10.0103
鬱金	-10.0111
髓	-10.0122
二色	-10.0122
晉書	-10.0128
襄	-10.013
移根	-10.015
四字	-10.0151
穰	-10.0164
瀝	-10.0164
澄泥	-10.017
藜	-10.0174
右為末	-10.0174
蔣	-10.0177
槁	-10.0178
項	-10.0178
橘柚	-10.0179
纂	-10.0182
畨	-10.0182
躍	-10.0182
蘸	-10.0182
怡	-10.0182
婉	-10.0183
惆悵	-10.0183
蕤	-10.0184
紹興	-10.0185
挹	-10.0186
袍	-10.0189
勃	-10.019
亁	-10.019
宋陸游	-10.0192
曜	-10.0192
詩話	-10.0198
誰家	-10.021
百草	-10.0212
之下	-10.0219
故事	-10.0226
穀	-10.0228
白檀	-10.0232
見其	-10.0236
洪志	-10.0254
不待	-10.0261
不識	-10.0262
為硯	-10.0274
不須	-10.0276
煎茶	-10.0298
不死	-10.0309
麺	-10.0313
有兩	-10.0316
賓	-10.0322
模	-10.0327
秧	-10.0328
匝	-10.0331
曠	-10.0335
禦	-10.0336
擎	-10.0337
舂	-10.0337
躬	-10.0338
王安石	-10.0339
冬青	-10.0339
花發	-10.034
鼠	-10.034
迸	-10.0341
冒	-10.0341
爵	-10.0341
圖經本草	-10.0342
幼	-10.0346
不盡	-10.0347
林下	-10.0348
素馨	-10.0354
物也	-10.0359
御史	-10.036
合歡	-10.0361
以自	-10.0366
無不	-10.037
無異	-10.0372
其樹	-10.0378
銖	-10.0391
廣州	-10.0404
庭前	-10.0414
梔子	-10.042
耐	-10.0433
茶經	-10.0445
訛	-10.0452
其地	-10.0458
騷	-10.0461
寸許	-10.0472
人也	-10.0473
紅白	-10.0486
萱	-10.0492
栢	-10.0493
卜	-10.0494
荇	-10.0494
陣	-10.0494
糧	-10.0495
癡	-10.0495
海中	-10.0496
奔	-10.0497
救	-10.0498
墀	-10.0501
崑崙	-10.0501
個	-10.0501
阮	-10.0503
抱朴子	-10.0505
鬻	-10.0505
浮萍	-10.0508
洋	-10.0508
煥	-10.0509
拱	-10.051
江東	-10.0511
凌波	-10.0514
珪	-10.0515
采之	-10.0538
者其	-10.0538
故也	-10.054
色深	-10.0547
猶有	-10.0551
草生	-10.0572
一斗	-10.0577
有毛	-10.0587
月下	-10.0591
龍涎	-10.0602
飲酒	-10.0609
無窮	-10.0615
藿	-10.0624
夭	-10.0625
諸香	-10.0641
櫻	-10.0641
青色	-10.0649
蝕	-10.065
洩	-10.0652
南方草木狀	-10.0652
蟾	-10.0654
蝴蝶	-10.0654
講	-10.0655
訝	-10.0656
潜	-10.0657
俄	-10.0657
疇	-10.0658
撒	-10.0659
寅	-10.0659
一百	-10.066
粹	-10.066
謬	-10.0661
杜牧	-10.0661
者如	-10.0663
祕	-10.0664
僊	-10.0665
允	-10.0667
旌	-10.0667
售	-10.0668
修竹	-10.0668
祈	-10.0669
蘇恭曰	-10.0671
延年	-10.0671
池中	-10.0676
所載	-10.0685
含笑	-10.0706
君家	-10.071
所在	-10.0715
以來	-10.0723
淮南	-10.0726
落花	-10.0726
作餅	-10.0739
漢書	-10.0745
己	-10.076
右為細末	-10.0771
紫薇	-10.0783
輭	-10.0785
西南	-10.0785
霜後	-10.079
而細	-10.0791
穠	-10.0792
時節	-10.0796
難得	-10.0798
海上	-10.0799
濾	-10.0811
箔	-10.0814
綬	-10.0815
噐	-10.0816
丞	-10.0817
塢	-10.0817
拭	-10.0819
何事	-10.0821
兆	-10.0822
辱	-10.0822
的	-10.0823
戸	-10.0823
誕	-10.0823
災	-10.0823
秋色	-10.0823
煖	-10.0824
紺	-10.0824
針	-10.0826
茁	-10.0826
丹砂	-10.0828
攀折	-10.0831
坎	-10.0831
腮	-10.0834
萱草	-10.0839
淵明	-10.0852
之可	-10.0861
人皆	-10.0865
髙下	-10.0868
此時	-10.0876
則有	-10.0881
皆以	-10.0883
内有	-10.0886
七日	-10.0893
無力	-10.0903
龍眼	-10.0907
土中	-10.0918
二十四	-10.0922
日暮	-10.0925
世人	-10.0933
其質	-10.0939
氣味辛	-10.0941
有所	-10.0943
樓子	-10.095
可用	-10.0958
不食	-10.0963
其形	-10.0971
㕔	-10.0972
無復	-10.0972
人之	-10.0975
竈	-10.0977
釘	-10.0981
牕	-10.0985
微風	-10.0985
葅	-10.0986
裴	-10.0988
逄	-10.0989
瓤	-10.099
貽	-10.099
啟	-10.099
謁	-10.0992
减	-10.0993
墓	-10.0994
窟	-10.0995
珮	-10.0996
蓬萊	-10.1001
一丈	-10.1005
豈無	-10.1008
不凋	-10.1015
紅妝	-10.102
冬至	-10.102
使者	-10.1023
樹下	-10.1031
未開	-10.1037
亦自	-10.1045
一層	-10.1048
耳目	-10.1052
建安	-10.1056
實如	-10.1057
辛夷	-10.1062
手植	-10.1068
同食	-10.1078
江上	-10.108
一月	-10.1091
無花	-10.1092
花中	-10.1098
取汁	-10.1102
堂前	-10.1102
白露	-10.111
其法	-10.1115
東君	-10.112
疑是	-10.1131
橄㰖	-10.1136
鬛	-10.1146
鄧	-10.1151
五言排律	-10.1151
樸	-10.1152
籃	-10.1153
硯面	-10.1155
挑	-10.1155
暄	-10.1156
渭	-10.1156
檢	-10.1157
杞	-10.1157
妓	-10.1158
鍼	-10.1159
相類	-10.1159
廵	-10.1161
鵠	-10.1161
黯	-10.1162
篛	-10.1162
拍	-10.1163
山礬	-10.1165
肩	-10.1165
㑹稽	-10.1166
頰	-10.1167
潑	-10.1167
捕	-10.1169
盈盈	-10.1173
忽見	-10.1181
唐李白	-10.1186
玉蘂	-10.1187
西施	-10.119
羣臣	-10.1192
十斤	-10.1194
同上	-10.1194
細雨	-10.1198
千樹	-10.1201
疎影	-10.1208
桂花	-10.1208
尋常	-10.1216
胡桃	-10.1216
不覺	-10.1222
繡毬	-10.1222
山林	-10.1224
薄荷	-10.1235
暗香	-10.1243
其性	-10.1249
採蓮	-10.125
昔人	-10.1265
雨中	-10.1268
以水	-10.1268
賦詩	-10.1269
枝榦	-10.1278
下方	-10.128
金沙	-10.131
聞之	-10.1313
丹青	-10.1319
玫瑰	-10.1321
竇	-10.1324
鐡	-10.1325
門前	-10.1326
梳	-10.1326
彚	-10.1327
直上	-10.1327
撥	-10.1328
綱	-10.1329
殷勤	-10.133
絃	-10.1331
㪚	-10.1331
昆	-10.1331
謀	-10.1332
克	-10.1332
各半兩	-10.1333
閨	-10.1333
繪	-10.1333
卯	-10.1334
丙	-10.1335
例	-10.1336
漠漠	-10.1337
挽	-10.1337
林檎	-10.1338
審	-10.1339
鄙	-10.134
馬蹄	-10.134
訓	-10.1341
櫟	-10.1343
蔓生	-10.1362
為第一	-10.1366
羣芳	-10.1366
廣志	-10.1366
釀酒	-10.1367
望之	-10.137
採桑	-10.1382
壊	-10.1388
痺	-10.1392
龍涎香	-10.1396
日日	-10.1407
者不	-10.1414
如雪	-10.1415
文房	-10.1427
黑色	-10.1433
上林	-10.1437
各一兩	-10.1447
行書	-10.1463
埤雅	-10.1478
鷺	-10.1485
乃知	-10.149
第二	-10.1491
綸	-10.1493
昇	-10.1493
燦	-10.1493
歐陽修	-10.1496
瀹	-10.1496
鷗	-10.1499
饌	-10.1502
㯶	-10.1502
擣	-10.1503
西京雜記	-10.1503
温庭筠	-10.1503
鳩	-10.1503
西北	-10.1505
察	-10.1505
祇	-10.1505
逹	-10.1507
幻	-10.1507
慘	-10.1507
梵	-10.1508
冲	-10.1509
陪	-10.1509
慿	-10.1509
牢	-10.1511
擔	-10.1512
冉冉	-10.1512
榕	-10.1512
促	-10.1513
趁	-10.1513
宋楊萬里	-10.1515
福州	-10.1517
柳絮	-10.1517
消息	-10.1517
▁(	-10.1517
硏	-10.1517
䇿	-10.1518
足以	-10.152
薊	-10.152
潔白	-10.1527
七分	-10.1534
次第	-10.1535
金瘡	-10.1543
未必	-10.1544
讀書	-10.1545
枝條	-10.1545
芳心	-10.1546
可謂	-10.1573
金粟	-10.1575
衆芳	-10.158
繁華	-10.1589
淘	-10.1593
輕身	-10.1595
黄菊	-10.1602
使人	-10.1606
無數	-10.1607
第三	-10.1608
邪氣	-10.162
陌	-10.162
皆有之	-10.1626
西園	-10.1645
二百	-10.1647
儼	-10.1653
曲江	-10.1655
常以	-10.1657
硯銘	-10.166
若夫	-10.1669
皮日休	-10.1672
淋	-10.1678
今朝	-10.1678
膽	-10.168
淪	-10.1681
蘚	-10.1682
戀	-10.1682
泄	-10.1684
學圃餘疏	-10.1684
此樹	-10.1684
函	-10.1685
虹	-10.1686
舎	-10.1686
琳	-10.1687
清異録	-10.1687
鬆	-10.1688
麓	-10.1688
茵	-10.1688
畜	-10.1689
諒	-10.169
祀	-10.169
帚	-10.1692
憲	-10.1692
風露	-10.1693
何時	-10.1694
杳	-10.1694
頴	-10.1697
五日	-10.1703
此種	-10.1704
雪霜	-10.1706
樹髙	-10.1711
榴花	-10.1712
靈芝	-10.1723
丁香皮	-10.1729
香味	-10.1729
黄昬	-10.1731
聖人	-10.1739
五榖	-10.174
香附子	-10.1741
中心	-10.1763
而厚	-10.1766
之功	-10.1769
為誰	-10.178
之義	-10.178
胡麻	-10.1786
二尺	-10.1787
類也	-10.1788
大麥	-10.1788
胸	-10.1809
一朶	-10.1822
一葉	-10.183
不絶	-10.1833
公子	-10.1844
衫	-10.1844
扉	-10.185
芰	-10.1853
幄	-10.1854
纈	-10.1856
寛三寸	-10.1858
棟	-10.1859
駭	-10.186
漳	-10.1861
策	-10.1862
聴	-10.1864
喫	-10.1864
汙	-10.1865
岑	-10.1866
鉢	-10.1866
狐	-10.1866
副	-10.1867
渉	-10.1868
街	-10.1869
虬	-10.187
巷	-10.187
噴	-10.1872
邁	-10.1873
燃	-10.1874
評	-10.1875
羌	-10.1876
鳳凰	-10.1877
醇	-10.1878
木棉	-10.1879
翰林	-10.1882
爛漫	-10.1883
離披	-10.1884
李時珍云	-10.1886
松子	-10.1887
色紅	-10.1892
女子	-10.1893
周禮	-10.1893
或作	-10.1898
其木	-10.1911
然則	-10.1928
辣	-10.1929
生意	-10.1933
未詳	-10.1944
清露	-10.1948
鹹	-10.1954
所用	-10.1957
此錢	-10.1963
有刺	-10.198
朝陽	-10.198
羡	-10.1983
花史	-10.1992
千餘	-10.2
天台	-10.2005
生薑	-10.2015
甚美	-10.2018
物之	-10.202
採之	-10.2027
恰	-10.2034
池上	-10.2036
靖	-10.2036
或有	-10.204
尉	-10.204
庭中	-10.2041
未央	-10.2041
顧渚	-10.2044
鳬	-10.2045
蠲	-10.2045
上品	-10.2045
肖	-10.2046
紹	-10.2046
酲	-10.2047
湛	-10.2047
豆蔲	-10.2047
攻	-10.2048
糊	-10.2049
湧	-10.2049
詢	-10.2051
雛	-10.2052
糯	-10.2052
吸	-10.2053
鋭	-10.2054
無名氏	-10.2054
仕	-10.2054
聨	-10.2055
水上	-10.2056
迴	-10.2057
交趾	-10.2059
郭璞	-10.206
劣	-10.2062
先以	-10.2064
後有	-10.2067
清水	-10.2067
司馬	-10.2068
無限	-10.2074
魴	-10.2078
青州	-10.2082
臘月	-10.2091
六年	-10.2099
之句	-10.2113
五六月	-10.2124
去其	-10.2124
蜀人	-10.2131
瞻	-10.2143
盡日	-10.2157
涯	-10.2162
惡瘡	-10.2162
言其	-10.2165
杜若	-10.2166
東西	-10.2169
宫中	-10.2173
大者如	-10.2175
翠葉	-10.2201
碧玉	-10.2207
種竹	-10.2214
亦如	-10.2214
鍋	-10.2218
玉盤	-10.2219
苜蓿	-10.2221
鉛	-10.2229
之物	-10.223
鑑	-10.223
嘯	-10.2233
劚	-10.2234
塔	-10.2235
俞	-10.2238
有花	-10.2238
險	-10.2239
耘	-10.2239
粧	-10.2239
床	-10.2241
敲	-10.2241
諫	-10.2243
竭	-10.2244
鄴	-10.2244
萃	-10.2244
侈	-10.2246
劈	-10.2246
兄弟	-10.2246
膾	-10.2246
綘	-10.2246
掛	-10.2248
其皮	-10.225
鄭谷	-10.225
所居	-10.2253
豔	-10.2253
悴	-10.2253
天門冬	-10.2259
昨夜	-10.2259
結根	-10.2261
數尺	-10.2265
洗淨	-10.2266
八九月	-10.2269
温潤	-10.2282
其人	-10.2288
因名	-10.2297
夏日	-10.2298
嵩	-10.232
不可得	-10.2321
不可食	-10.2347
看花	-10.2351
中書	-10.2362
有黄	-10.2366
千嵗	-10.2368
花瓣	-10.2375
臨風	-10.2377
有聲	-10.2395
經霜	-10.2401
漢宫	-10.2402
立春	-10.2409
知其	-10.2412
桂海虞衡志	-10.242
牡	-10.2421
酉	-10.2422
毋	-10.2425
溜	-10.2426
多食	-10.2426
娘	-10.2428
麵	-10.243
叩	-10.243
樊	-10.2431
樝	-10.2431
裔	-10.2432
畆	-10.2432
䕫	-10.2434
奩	-10.2434
衢	-10.2435
穫	-10.2435
肆	-10.2435
冀	-10.2435
縛	-10.2435
亥	-10.2437
優	-10.2437
樗	-10.2438
竦	-10.2439
葳蕤	-10.2439
庇	-10.244
瀟灑	-10.244
俾	-10.2442
藴	-10.2443
亨	-10.2444
逕	-10.2446
胡椒	-10.2447
有意	-10.245
藏之	-10.2461
孔子	-10.2463
楊妃	-10.2471
朱實	-10.2473
久服	-10.2481
白蓮	-10.2481
花紅	-10.2482
為貴	-10.2484
黄精	-10.2486
者必	-10.249
清隂	-10.2502
淺紅	-10.2503
賦得	-10.2503
金線	-10.2512
其莖	-10.2528
天下之	-10.2535
歌曰	-10.2542
四方	-10.2553
緋	-10.2553
蓮子	-10.2554
其枝	-10.2558
人參	-10.256
名也	-10.2565
可以為	-10.2567
殿前	-10.2568
而味	-10.257
草也	-10.2577
多葉	-10.2579
瑞香	-10.2582
雞冠	-10.2588
後人	-10.259
居士	-10.2592
無風	-10.2604
為佳	-10.2611
因以	-10.2615
梅堯臣	-10.2618
𨽻	-10.2618
物類相感志	-10.2624
員	-10.2625
完	-10.2625
課	-10.2627
一升	-10.2627
漲	-10.2628
袂	-10.2628
儉	-10.2628
蒨	-10.2628
恍	-10.2629
豚	-10.2629
狼	-10.263
輦	-10.2631
巵	-10.2631
基	-10.2632
窗	-10.2633
汾	-10.2634
跋	-10.2634
欽	-10.2635
儲	-10.2635
協	-10.2635
嗣	-10.2636
援	-10.2636
嫋嫋	-10.2638
嬋娟	-10.2641
得地	-10.2644
酘	-10.2646
江淮	-10.2652
太祖	-10.2654
製作	-10.2666
不減	-10.2693
木之	-10.2694
幽蘭	-10.2702
烏頭	-10.2708
由是	-10.2708
無言	-10.2712
徽	-10.2722
龍尾	-10.2725
逮	-10.2735
早梅	-10.274
歸來	-10.2743
鄉人	-10.2749
廬山	-10.2752
不改	-10.2756
題詩	-10.2758
明目	-10.2761
金星	-10.2766
杭	-10.2774
麋	-10.2784
垂楊	-10.2784
木芙蓉	-10.279
其一	-10.2793
昨	-10.2794
褐	-10.2798
千瓣	-10.2806
楠	-10.2811
風光	-10.2818
罌	-10.2821
陸龜蒙	-10.2822
股	-10.2823
銅雀	-10.2823
白日	-10.2823
欠	-10.2826
拈	-10.2827
寮	-10.2827
倘	-10.2829
嫁	-10.2831
箱	-10.2833
簟	-10.2835
白如	-10.2835
不入	-10.2836
金黄	-10.2836
枸	-10.2837
君謨	-10.2837
禀	-10.2837
牽牛	-10.2838
賦并序	-10.2841
壠	-10.2841
匏	-10.2842
竹葉	-10.2842
勿食	-10.2844
青松	-10.2844
峭	-10.2845
扶桑	-10.2851
團團	-10.2857
一云	-10.2859
大錢	-10.2859
何必	-10.286
人不	-10.2869
餘香	-10.287
杏仁	-10.2874
背文	-10.2875
木也	-10.2886
也右	-10.2892
文曰	-10.2895
至春	-10.2897
臨池	-10.2903
葉葉	-10.2905
說文	-10.2912
從此	-10.2917
水仙花	-10.2917
其為	-10.2921
山在	-10.2925
種者	-10.2927
處士	-10.2934
冰雪	-10.2945
台	-10.2953
心腹	-10.2956
必有	-10.2957
經年	-10.2959
茶録	-10.2964
箬	-10.2966
化工	-10.2976
翠羽	-10.2978
脹	-10.2979
般	-10.2981
相與	-10.2983
醃	-10.2986
和香	-10.2997
和之	-10.3002
二斤	-10.301
置之	-10.3011
笑曰	-10.3015
九分	-10.3021
花似	-10.3027
藷	-10.3028
汪	-10.3028
宸	-10.3029
醪	-10.3029
乙	-10.3031
天竺	-10.3032
北山	-10.3032
盂	-10.3033
晁	-10.3033
梁簡文帝	-10.3034
系	-10.3034
算	-10.3034
裊裊	-10.3034
鋒	-10.3035
括	-10.3036
穉	-10.3037
訣	-10.3037
檳榔	-10.3038
戊	-10.3038
其文	-10.3039
違	-10.3041
銙	-10.3042
紫檀	-10.3042
蔓菁	-10.3042
碩	-10.3043
蒼苔	-10.3044
磁器	-10.3045
相宜	-10.3049
而去	-10.3059
南陽	-10.306
唐人	-10.3061
時人	-10.3072
而自	-10.3073
不散	-10.3073
真珠	-10.3073
名花	-10.3076
數里	-10.3082
之餘	-10.3085
三稜	-10.3087
金絲	-10.3098
世間	-10.3099
山藥	-10.3099
宋史	-10.3108
花香	-10.3109
又詩	-10.3115
南枝	-10.3115
太真	-10.3116
草果	-10.3116
一花	-10.3117
李賀	-10.3131
猶未	-10.314
家家	-10.3148
日華	-10.3156
謫	-10.3161
以成	-10.3165
數年	-10.3166
寒無毒	-10.3167
也集藻	-10.3175
草木之	-10.3194
不似	-10.3203
下種	-10.321
上苑	-10.3211
入山	-10.3212
圓如	-10.3219
芳香	-10.3219
一首	-10.3225
限	-10.3226
甘美	-10.3226
淹	-10.3229
故園	-10.323
俎	-10.3231
極細	-10.3232
腹中	-10.3232
粤	-10.3233
向日	-10.3234
猛	-10.3234
秤	-10.3234
羲	-10.3235
元稹	-10.3236
三五	-10.3238
霍亂	-10.3239
窈窕	-10.3239
膜	-10.3239
緘	-10.3239
黝	-10.324
鍊	-10.3241
文賦散句	-10.3242
靑	-10.3242
瓷	-10.3243
樟腦	-10.3243
曷	-10.3244
庫	-10.3244
噫	-10.3244
域	-10.3244
塵埃	-10.3245
旣	-10.3246
稼	-10.3246
敏	-10.3247
餳	-10.3248
夹	-10.3249
豹	-10.3249
侍郎	-10.3249
突	-10.325
毁	-10.3252
厚一寸	-10.3254
盈尺	-10.3254
蓍	-10.3255
笙	-10.3257
百卉	-10.3265
降真香	-10.3269
半月	-10.3277
騷人	-10.3279
一品	-10.3293
花時	-10.3301
細辛	-10.3304
蔓延	-10.3304
收藏	-10.3329
佳品	-10.3329
賦云	-10.3333
一杯	-10.3335
子一名	-10.3335
又一種	-10.3361
求之	-10.3369
芸香	-10.337
人言	-10.3377
慢火	-10.3378
細而	-10.3379
國香	-10.3381
有五	-10.339
著花	-10.3393
鮫	-10.3412
尚有	-10.3424
芡	-10.3424
根下	-10.3424
桃紅	-10.3429
之形	-10.3432
朴	-10.3434
桓	-10.3435
桂樹	-10.3437
以竹	-10.344
塩	-10.344
久之	-10.3446
桞	-10.3448
王十朋	-10.3448
淒	-10.3449
蘄	-10.3449
山上	-10.3449
驢	-10.345
撚	-10.345
盗	-10.345
騐	-10.345
勅	-10.3451
荘	-10.3452
咀	-10.3452
抛	-10.3454
冽	-10.3454
憔悴	-10.3455
鱸	-10.3456
紉	-10.3457
倩	-10.3457
箕	-10.3457
森森	-10.3459
煌煌	-10.3461
帽	-10.3461
拙	-10.3462
徃徃	-10.3463
壑源	-10.3464
山隂	-10.3465
壞	-10.3466
其類	-10.3468
士大夫	-10.3468
一字	-10.347
石質	-10.347
苐	-10.3472
龍腦香	-10.3476
飄零	-10.3482
六兩	-10.3484
有大	-10.3488
可得	-10.3493
右一品	-10.3494
即今	-10.3499
服食	-10.35
不到	-10.3504
得一	-10.3512
夜深	-10.353
雞頭	-10.3533
五箇	-10.3536
大率	-10.3536
兒女	-10.3538
州刺史	-10.3541
白雪	-10.3544
余嘗	-10.3548
杜鵑	-10.3556
依然	-10.3568
一面	-10.3581
誰與	-10.3585
魚一名	-10.3588
燒香	-10.359
萬年	-10.3591
如小	-10.3593
而尖	-10.3594
仙子	-10.3595
不忍	-10.3612
文帝	-10.3619
風動	-10.3624
榖雨	-10.3627
夏至	-10.3638
梅雨	-10.3639
采根	-10.3643
遜	-10.3647
璞	-10.3652
刻作	-10.3654
抵	-10.3655
庸	-10.3658
試之	-10.3661
江梅	-10.3662
踐	-10.3663
彫	-10.3663
齡	-10.3664
擷	-10.3667
潄	-10.3669
癸	-10.367
篠	-10.3671
羃	-10.3671
癰腫	-10.3671
饋	-10.3672
柚	-10.3673
填	-10.3674
仗	-10.3675
尼	-10.3676
享	-10.3676
敎	-10.3676
鈐寳	-10.3676
灘	-10.3676
悵	-10.3676
謙	-10.3677
革	-10.3677
鄒	-10.3677
東方	-10.3678
毅	-10.3679
懶	-10.368
㫁	-10.3681
衞	-10.3682
同時	-10.3682
芙蕖	-10.3683
秋日	-10.3683
四五尺	-10.3683
胥	-10.3684
多生	-10.3686
邇	-10.3687
者乃	-10.3692
細剉	-10.3696
其氣	-10.3698
已上	-10.3699
為人	-10.37
詩注	-10.3701
不知其	-10.3702
離騷	-10.3702
重重	-10.3706
永嘉	-10.3708
松樹	-10.3709
鵝	-10.371
龍鳯	-10.3711
政和	-10.3714
春來	-10.3718
江水	-10.3725
杭州	-10.3731
白檀香	-10.3745
長而	-10.375
當歸	-10.3752
所生	-10.376
葉而	-10.3772
多種	-10.3786
用以	-10.3804
識者	-10.3806
不若	-10.3809
野菊	-10.3824
錢按	-10.3828
露華	-10.383
而下	-10.383
誰能	-10.3838
滚	-10.3841
長者	-10.3848
謂其	-10.3848
炷	-10.3863
真人	-10.3874
莓苔	-10.388
若乃	-10.3883
决	-10.3885
途	-10.3885
尸	-10.3887
楹	-10.3888
猿	-10.3888
春夏	-10.3889
段	-10.3889
六分	-10.389
礙	-10.389
韓偓	-10.3891
捻	-10.3891
縠	-10.3891
苓	-10.3891
碗	-10.3891
糯米	-10.3894
春時	-10.3894
䑓	-10.3895
麪	-10.3895
垢	-10.3896
牖	-10.3896
閭	-10.3898
叠	-10.3899
析	-10.3899
瑰	-10.3901
蠱毒	-10.3901
與君	-10.3903
鱠	-10.3904
斵	-10.3904
新羅	-10.3906
麟	-10.3906
春月	-10.3906
阜	-10.3908
籟	-10.391
厲	-10.3911
貴妃	-10.3916
荚	-10.3919
斷腸	-10.3922
薛能	-10.393
異物志	-10.3932
正色	-10.3937
見日	-10.394
大笑	-10.3944
依舊	-10.3946
有情	-10.395
籬落	-10.3956
註云	-10.3961
古松	-10.3972
結實如	-10.3973
之美	-10.3973
之意	-10.3975
采采	-10.3976
同心	-10.3984
妃子	-10.3985
種類	-10.4
文字	-10.4003
江頭	-10.4003
可惜	-10.4006
史記	-10.4006
世所	-10.4006
最多	-10.4007
衣香	-10.402
緑色	-10.4024
書云	-10.4025
長短	-10.4027
三升	-10.4029
金谷	-10.4029
與此	-10.4031
九華	-10.4033
春初	-10.4034
春歸	-10.4037
有節	-10.4041
花木	-10.405
南有	-10.405
云此	-10.406
東山	-10.4063
一色	-10.4072
風起	-10.4077
麻子	-10.4082
此香	-10.4084
陳紫	-10.4087
有異	-10.4094
嘉樹	-10.4096
州有	-10.4097
山記	-10.4097
緻	-10.4102
白芨	-10.4102
琢為	-10.4108
小麥	-10.4108
瑣	-10.4113
菁	-10.4114
曙	-10.4116
花前	-10.4116
榻	-10.4117
杓	-10.4117
之士	-10.4119
風前	-10.4119
萋萋	-10.4119
等謹案	-10.4121
曵	-10.4122
偃蹇	-10.4122
悶	-10.4122
汀	-10.4122
孟郊	-10.4123
効	-10.4125
僻	-10.4126
醜	-10.4126
之月	-10.4127
諺云	-10.4129
沿	-10.4129
稗	-10.4129
姚合	-10.4134
俊	-10.4134
澆灌	-10.4134
醖	-10.4134
厚而	-10.4137
方岳	-10.4139
紫芝	-10.4142
氣味苦	-10.4144
黄熟香	-10.4144
云是	-10.4145
木槿	-10.4147
不一	-10.4148
新茶	-10.4148
觀之	-10.4151
一兩半	-10.4152
二物	-10.4155
十九	-10.4159
車馬	-10.4165
金鈴	-10.4167
皇帝	-10.4167
始知	-10.4172
神仙傳	-10.4175
方可	-10.4178
臨水	-10.4185
二日	-10.4189
有此	-10.419
周刻	-10.419
玉樹	-10.4193
淡紅	-10.4196
如金	-10.4198
二曰	-10.4199
觀其	-10.4201
石渠	-10.4214
相逢	-10.4219
南國	-10.422
之盛	-10.4221
俗呼為	-10.4223
滿庭	-10.4228
真香	-10.4231
其本	-10.4241
二升	-10.4242
山石	-10.4244
産茶	-10.4245
之用	-10.4247
名為	-10.4247
周公	-10.4248
山多	-10.4249
養之	-10.426
山水	-10.4265
八十	-10.4273
田家	-10.4284
為墨池	-10.4284
於上	-10.4285
得所	-10.4285
冷氣	-10.4295
林中	-10.4295
之令	-10.43
暮春	-10.4302
男	-10.4306
可觀	-10.4308
歙州	-10.4316
夭桃	-10.4317
有二	-10.4331
淺深	-10.4332
髙枝	-10.4338
乾清宫	-10.4343
豬	-10.4343
凹	-10.4343
三字	-10.4346
欝	-10.4346
何所	-10.4347
秋光	-10.4347
蹋	-10.4348
碑	-10.4349
哲	-10.4349
嘲	-10.435
庖	-10.435
甆	-10.4351
璫	-10.4351
棟梁	-10.4351
纓	-10.4352
鮑	-10.4354
測	-10.4354
専	-10.4355
税	-10.4355
萊	-10.4355
貺	-10.4356
禄	-10.4356
汴	-10.4356
姜	-10.4356
燼	-10.4356
耿	-10.4356
㵼	-10.4356
沁	-10.4357
攝	-10.4357
膝	-10.4357
遵	-10.4357
霏霏	-10.4357
灼灼	-10.4357
搴	-10.4359
蘇合香	-10.436
澁	-10.4361
揖	-10.4361
麄	-10.4361
中央	-10.4362
謾	-10.4362
王者	-10.4363
熈	-10.4364
䖍	-10.4364
一統志	-10.4366
又以	-10.4367
樹之	-10.4367
豈不	-10.4367
青春	-10.4369
仙家	-10.4369
蕎麥	-10.4372
所得	-10.4385
尤佳	-10.4388
而圓	-10.4389
二三月	-10.4392
成隂	-10.4396
相如	-10.4404
桑葉	-10.4406
耐久	-10.4407
雨聲	-10.4408
胸中	-10.4428
熟則	-10.4428
成林	-10.4434
水面	-10.4436
蘭亭	-10.4437
五出	-10.4444
前有	-10.4447
王母	-10.4456
可種	-10.4459
日中	-10.4471
次年	-10.4473
云云	-10.4476
蛟	-10.4476
亦無	-10.4485
一箇	-10.4486
其家	-10.4486
孤根	-10.4486
碧色	-10.449
光澤	-10.4491
本草綱目云	-10.4492
城東	-10.4496
分明	-10.4497
無聲	-10.4498
以備	-10.4503
李氏	-10.4508
仁宗	-10.4509
復生	-10.451
妨	-10.4519
亦以	-10.452
花經	-10.4521
入貢	-10.4522
生苖	-10.4524
不肯	-10.4525
竹林	-10.4526
枝枝	-10.4528
民間	-10.4533
花枝	-10.4538
錦繡	-10.4543
七八	-10.4548
晶	-10.4555
南中	-10.4555
大豆	-10.4559
非也	-10.456
有二種	-10.4575
風日	-10.4578
棣	-10.458
屠	-10.4583
堇	-10.4584
飬	-10.4584
隙	-10.4586
剔	-10.4586
岫	-10.4586
装	-10.4587
窪	-10.4589
苕	-10.4589
暝	-10.4589
慧	-10.4589
菡蓞	-10.459
晞	-10.4591
拒	-10.4591
携	-10.4592
卦	-10.4592
鷹	-10.4592
詰	-10.4593
什	-10.4594
枉	-10.4594
寥	-10.4595
唐太宗	-10.4595
筋骨	-10.4595
嚥	-10.4595
飇	-10.4596
恣	-10.4596
郎中	-10.4596
應是	-10.4596
層層	-10.4597
蔡君謨	-10.4597
霓裳	-10.4597
呂	-10.4598
頑	-10.4598
傑	-10.4598
空山	-10.4599
嵐	-10.4599
邈	-10.46
縱横	-10.46
些	-10.4601
陳與義	-10.4602
地黄	-10.4602
猗	-10.4602
髣髴	-10.4602
阻	-10.4603
鞠	-10.4607
占城	-10.4613
十數	-10.4616
百姓	-10.4616
者良	-10.4616
城中	-10.4617
一石	-10.4617
廣志云	-10.4619
錢塘	-10.462
進士	-10.4629
瓦硯	-10.463
中庭	-10.4634
黄丹	-10.464
清泉	-10.464
一叢	-10.4647
遣使	-10.4652
花白	-10.4658
深黄	-10.4666
六七	-10.4668
泰山	-10.4669
煑熟	-10.4672
百里	-10.4676
號為	-10.4676
所見	-10.4677
檀心	-10.4682
只有	-10.4687
刮	-10.4696
亦有之	-10.4696
諸山	-10.4702
紅葉	-10.4704
香聞	-10.4716
髙可	-10.4716
重臺	-10.4718
一半	-10.4724
亦云	-10.4733
之際	-10.4743
菲	-10.4745
春分	-10.4749
雪裏	-10.4754
未見	-10.4763
郁	-10.4766
至秋	-10.4772
何年	-10.4787
不老	-10.4788
未識	-10.4795
不出	-10.4796
脾胃	-10.4803
人取	-10.4813
簮	-10.4814
外有	-10.4818
八九	-10.4818
丑	-10.482
疲	-10.4824
此魚	-10.4826
鬯	-10.4826
檐	-10.4829
掬	-10.4831
隈	-10.4831
唐王維	-10.4832
釡	-10.4832
䦨干	-10.4832
距	-10.4833
判	-10.4833
導	-10.4833
查	-10.4833
如常法	-10.4835
瑟	-10.4835
捐	-10.4835
頸	-10.4836
範	-10.4836
藩	-10.4836
醢	-10.4836
蚓	-10.4837
匾	-10.4837
刋	-10.4837
帆	-10.4837
酷	-10.4837
構	-10.4838
譬	-10.4838
攤	-10.4839
役	-10.484
紐	-10.4841
因其	-10.4841
逓	-10.4841
挼	-10.4841
創	-10.4841
幃	-10.4841
栽培	-10.4842
員外	-10.4842
宋歐陽修	-10.4842
敞	-10.4843
兒童	-10.4844
雨餘	-10.4844
號曰	-10.4844
灼	-10.4845
慣	-10.4845
屯	-10.4845
椽	-10.4847
糠	-10.485
霜露	-10.4854
春雨	-10.4854
不言	-10.4858
攷	-10.4859
收貯	-10.486
有小	-10.4861
之外	-10.4863
緑隂	-10.4866
晝夜	-10.4867
者為上	-10.4867
圖經	-10.4871
有時	-10.4881
以供	-10.4885
玉女	-10.4887
龍鱗	-10.4892
生于	-10.4894
右件用	-10.4894
河東	-10.4897
東閣	-10.4898
深淺	-10.4898
江陵	-10.4903
青翠	-10.4903
蒼翠	-10.4903
七八月	-10.4905
修治	-10.4908
猶在	-10.4912
凌雲	-10.4914
十丈	-10.4914
襲人	-10.4917
空中	-10.4918
青苔	-10.492
歲寒	-10.4931
姚黄	-10.4933
輕盈	-10.4936
飲茶	-10.4936
左傳	-10.4938
與之	-10.494
而堅	-10.4952
何物	-10.4953
七十	-10.496
賦曰	-10.4962
落英	-10.4963
一觔	-10.4966
七錢	-10.4966
甘棠	-10.4976
莊子	-10.4978
弟子	-10.4981
更無	-10.4982
深處	-10.4983
城南	-10.4984
他日	-10.4984
紫雲	-10.4989
相連	-10.4993
圓而	-10.4998
者非	-10.5005
同前	-10.5005
前人	-10.5008
不厭	-10.5023
雖有	-10.5023
一次	-10.5024
復有	-10.5032
清霜	-10.5038
拘	-10.504
葉細	-10.5045
之美者	-10.5047
零陵	-10.5049
山人	-10.505
舶	-10.5052
花下	-10.5054
秀色	-10.5055
之説	-10.5056
三種	-10.5058
岕	-10.506
棉	-10.5063
十七	-10.5064
何足	-10.5064
漉	-10.5066
劉禹錫	-10.5068
香滿	-10.5069
每日	-10.5073
戌	-10.5073
周庾信	-10.5073
賽	-10.5075
蘇轍	-10.5076
嬾	-10.5078
荆州	-10.5078
韋莊	-10.5078
亟	-10.5081
宋司馬光	-10.5082
凛	-10.5082
懿	-10.5082
不禁	-10.5083
賊	-10.5084
儂	-10.5085
夢溪筆談	-10.5085
糜	-10.5086
顰	-10.5086
冩	-10.5086
忘憂	-10.5086
札	-10.5087
虢	-10.5087
漂	-10.5087
侔	-10.5088
責	-10.5088
辯	-10.509
漪	-10.5091
躑躅	-10.5092
鈞	-10.5093
槃	-10.5093
乾坤	-10.5097
箆	-10.51
松蘿	-10.5103
池塘	-10.5103
宋黄庭堅	-10.5103
刃	-10.5104
甚佳	-10.5106
王維	-10.5108
寺僧	-10.511
此品	-10.5122
君王	-10.5141
另研	-10.5141
蒼蒼	-10.5146
五六寸	-10.515
官桂	-10.5156
茶譜	-10.5162
用鹽	-10.5162
四錢	-10.517
柳色	-10.5173
不易	-10.5175
天地之	-10.5175
出水	-10.5178
多用	-10.5179
陽氣	-10.5184
他年	-10.5192
百日	-10.5198
蘭蕙	-10.5198
相間	-10.5201
而上	-10.5201
速香	-10.5208
見一	-10.5217
桂林	-10.522
未可	-10.5221
凌霜	-10.5221
以後	-10.5222
貴人	-10.5224
人謂	-10.5229
春生	-10.5229
酒浸	-10.5235
丞相	-10.5237
亦佳	-10.5241
肥地	-10.5247
為最	-10.5249
蘆花	-10.5265
不惜	-10.5268
把酒	-10.5273
五行	-10.5273
也故	-10.5275
長松	-10.5281
不自	-10.5286
六出	-10.53
状如	-10.5302
言之	-10.5304
葉圓	-10.531
不朽	-10.531
㦸	-10.5319
苦竹	-10.5321
滇	-10.5325
蔡襄	-10.5326
磚	-10.5329
稟	-10.5334
掖	-10.5336
湖州	-10.5337
捨	-10.5338
樟	-10.5338
六七月	-10.5339
姝	-10.5339
蠣	-10.5341
歐陽	-10.5341
閟	-10.5341
瓮	-10.5342
羨	-10.5342
落盡	-10.5342
槩	-10.5342
蹤	-10.5343
藹	-10.5343
繇	-10.5343
埃	-10.5343
眩	-10.5344
参	-10.5345
獵	-10.5345
頼	-10.5345
榜	-10.5346
宋王安石	-10.5346
渥	-10.5347
芬馥	-10.5348
二人	-10.5348
磬	-10.5349
奮	-10.535
劉克莊	-10.535
儔	-10.5351
抹	-10.5352
露滴	-10.5353
耆	-10.5353
巻	-10.5354
葫蘆	-10.5356
器中	-10.5364
他處	-10.5365
絶句	-10.5377
傾城	-10.5382
㸃綴	-10.5383
禮記	-10.5385
說硯	-10.5386
其餘	-10.5387
樹上	-10.5389
右軍	-10.5391
薰風	-10.5394
蕉葉	-10.5395
之竒	-10.5401
合抱	-10.5402
元和	-10.5404
迎風	-10.5412
石灰	-10.5417
無鱗	-10.5424
朝日	-10.5425
明朝	-10.5425
去之	-10.5428
春花	-10.5429
後世	-10.5432
合香	-10.5433
光彩	-10.5438
不獨	-10.5441
羅浮	-10.5444
長卿	-10.5447
細細	-10.5452
莫不	-10.5456
上人	-10.5468
大寒	-10.547
所種	-10.5482
五七	-10.5482
寒暑	-10.5483
造物	-10.5487
花實	-10.549
向人	-10.5493
槿	-10.5497
老夫	-10.55
花頭	-10.5506
向陽	-10.5506
此則	-10.5517
貯之	-10.5519
皆不	-10.552
二錢半	-10.5523
春深	-10.5533
陌上	-10.5539
少時	-10.5541
有四	-10.5543
品類	-10.5544
一處	-10.5547
日乾	-10.5552
香烟	-10.5557
瓶中	-10.5558
無心	-10.5562
百果	-10.5569
也然	-10.5575
芷	-10.5581
芩	-10.5582
陽春	-10.5583
豉	-10.5587
酒杯	-10.5587
未得	-10.5589
歐	-10.559
晉郭璞	-10.559
漾	-10.5591
壬	-10.5592
堕	-10.5594
裘	-10.5596
蟄	-10.5597
醴	-10.5598
酉陽雜爼	-10.5599
遞	-10.5599
豫	-10.5599
恱	-10.5601
寂寥	-10.5602
洽	-10.5603
薝蔔	-10.5603
罩	-10.5604
滲	-10.5604
清異錄	-10.5604
徂	-10.5605
花心	-10.5605
鸚鵡	-10.5605
赬	-10.5605
濺	-10.5606
羸	-10.5606
虯	-10.5606
瘁	-10.5606
銳	-10.5607
虧	-10.5607
煠	-10.5607
耗	-10.5607
敦	-10.5608
宋韓琦	-10.5608
複	-10.5608
早春	-10.5609
張籍	-10.5609
夘	-10.561
㸑	-10.5611
碁	-10.5611
帥	-10.5611
膳	-10.5611
涕	-10.5612
𣺌	-10.5613
凖	-10.5614
究	-10.5616
不湏	-10.5623
何妨	-10.5624
春寒	-10.5624
畵	-10.5624
氣味甘	-10.5625
而出	-10.5625
廣雅	-10.5625
猗猗	-10.5625
太宗	-10.5625
漢武帝	-10.5627
瑶池	-10.563
又有一種	-10.5631
三四尺	-10.5634
乃有	-10.5635
糖霜	-10.5637
枲	-10.5637
翠袖	-10.5642
后土	-10.5643
宣城	-10.5643
樓臺	-10.5645
豐年	-10.5657
嫩時	-10.566
吳中	-10.5661
側面	-10.5661
衣裳	-10.5662
不妨	-10.5673
公曰	-10.5675
八年	-10.568
新妝	-10.5681
腦子	-10.5682
斜陽	-10.5691
更有	-10.5692
二株	-10.5695
山川	-10.5697
河南	-10.5698
形製	-10.5702
最為	-10.5706
秋菊	-10.5708
初出	-10.5712
出于	-10.572
人知	-10.5725
盆中	-10.5729
鮮明	-10.573
者則	-10.5736
千株	-10.5746
紅絲	-10.5753
裛	-10.5755
對曰	-10.576
世傳	-10.576
甘蔗	-10.5761
一名白	-10.5762
公主	-10.5763
一名地	-10.5763
滋味	-10.5774
珍重	-10.5776
席上	-10.5776
石理	-10.5777
豈知	-10.5778
青黄	-10.5779
縣有	-10.5779
中空	-10.578
日用	-10.5788
茶味	-10.5793
百合	-10.5808
天寒	-10.5809
中出	-10.5809
井水	-10.5815
以下	-10.5818
得此	-10.582
嬌紅	-10.5822
秋冬	-10.5824
承露	-10.5825
折枝	-10.5834
吳人	-10.5835
為我	-10.5842
各一錢	-10.5854
採茶	-10.5858
嘴	-10.5864
殖	-10.5865
皎	-10.5867
穹	-10.5867
凄	-10.5867
崩	-10.5869
厄	-10.587
爛熳	-10.5871
迨	-10.5871
呵	-10.5872
斧斤	-10.5873
僚	-10.5873
濛	-10.5874
搓	-10.5874
遁	-10.5875
翩翩	-10.5875
柤	-10.5875
輪囷	-10.5877
銚	-10.5877
寔	-10.5878
掠	-10.5878
峩	-10.5878
榭	-10.5879
荑	-10.5879
颺	-10.588
坼	-10.588
辦	-10.588
淫	-10.588
做	-10.5881
矯	-10.5881
夫子	-10.5882
斬	-10.5882
顏	-10.5882
擾	-10.5883
曄	-10.5884
薏苡	-10.5884
萬嵗	-10.5885
禱	-10.5885
榨	-10.5887
黄山志	-10.5887
紋如	-10.5889
腸胃	-10.589
陽縣	-10.5891
為一	-10.5892
厚二寸	-10.5893
許渾	-10.5895
兎絲	-10.5895
而食之	-10.5896
衆木	-10.5897
一條	-10.5898
覆之	-10.5906
王氏	-10.5907
葉底	-10.5908
一夕	-10.5909
只恐	-10.5912
三卷	-10.5921
褐色	-10.5922
自生	-10.5923
輕紅	-10.5925
落日	-10.5932
大樹	-10.5933
不變	-10.594
遂為	-10.5941
黄帝	-10.5941
半開	-10.5943
愛之	-10.5945
密葉	-10.5946
老則	-10.5963
老子	-10.5972
四五月	-10.5973
以前	-10.5975
一法	-10.5977
時時	-10.5978
嘉名	-10.598
烹茶	-10.5986
陳皮	-10.5992
鐫御題銘一首楷書鈐寳	-10.5995
黄柑	-10.6001
始生	-10.6002
山丹	-10.6004
金陵	-10.6007
則無	-10.601
未能	-10.6011
之故	-10.6013
通寳錢	-10.6016
而多	-10.6018
一聲	-10.6023
風月	-10.6025
無以	-10.6038
辟邪	-10.604
五百	-10.6043
味極	-10.6053
三千	-10.6059
傳云	-10.6065
地上	-10.6068
無一	-10.6068
青絲	-10.6069
若有	-10.607
作詩	-10.6087
歸来	-10.6087
不可與	-10.6088
而實	-10.6088
作羮	-10.609
堪作	-10.6096
細如	-10.6107
人生	-10.6111
貴重	-10.6118
一名馬	-10.6135
霰	-10.6138
羙人	-10.614
鷓鴣	-10.6142
墨鏽	-10.6142
飼	-10.6142
棚	-10.6143
癭	-10.6143
欒	-10.6146
毗	-10.6148
摭	-10.6148
躁	-10.6149
諧	-10.6149
明李東陽	-10.6149
布葉	-10.6149
氛	-10.615
摶	-10.6151
竪	-10.6151
卽	-10.6153
撼	-10.6153
牒	-10.6153
皁	-10.6153
寐	-10.6154
盧橘	-10.6154
燎	-10.6154
炯	-10.6154
鞍	-10.6155
悔	-10.6156
瑪	-10.6156
陜西	-10.6156
盃	-10.6156
恥	-10.6156
周必大	-10.6157
筩	-10.6157
呌	-10.6157
煨	-10.6157
麯	-10.6157
于是	-10.6158
赫	-10.6158
邢	-10.6158
蘼蕪	-10.6159
繒	-10.6159
峙	-10.616
刑	-10.616
是時	-10.616
剰	-10.616
伸	-10.6161
宛轉	-10.6161
篤耨	-10.6161
數寸	-10.6161
㸃㸃	-10.6162
縞	-10.6162
未足	-10.6162
跨	-10.6162
閏	-10.6163
奎	-10.6163
名山	-10.6165
磊落	-10.6165
風土記	-10.6168
佛頂	-10.6169
鐫御題詩一首楷書鈐寳	-10.6169
楚辭	-10.6173
五六尺	-10.6174
君子之	-10.6175
唐韓愈	-10.6175
見於	-10.6181
益人	-10.6184
肌膚	-10.6191
黄華	-10.6192
睡起	-10.6196
小桃	-10.6202
廣陵	-10.6206
一般	-10.6212
姓名	-10.6222
盤中	-10.6222
知之	-10.6226
人以為	-10.6231
二品	-10.6232
丈餘	-10.6235
不佳	-10.6235
金盞	-10.6235
殺人	-10.6236
内府	-10.6247
外國	-10.6247
之事	-10.6247
或如	-10.625
孤山	-10.6254
元氣	-10.6255
明皇	-10.6258
絶品	-10.6259
終不	-10.6267
日出	-10.6272
寒梅	-10.6276
非常	-10.6282
無端	-10.6287
所植	-10.6288
其大	-10.6288
白蜜	-10.6294
差小	-10.6296
沉檀	-10.6297
四圍	-10.6314
大如指	-10.6316
雲南	-10.6319
白頭	-10.6329
根似	-10.6339
至冬	-10.6339
人呼	-10.6342
陽和	-10.6344
北地	-10.6346
彼人	-10.635
翰墨	-10.6353
無此	-10.6358
雲氣	-10.6358
江西	-10.6388
之若	-10.6394
平地	-10.6401
棧	-10.6401
如蜜	-10.6401
古之	-10.6401
出入	-10.6405
今按	-10.6411
莫能	-10.6415
宫人	-10.6416
稚	-10.6417
入土	-10.6419
萬株	-10.6419
瑕	-10.6419
尤多	-10.6423
簿	-10.6426
奕	-10.6429
髯	-10.6429
喙	-10.6431
賁	-10.6433
熖	-10.6433
旺	-10.6433
晒乾	-10.6433
巡	-10.6433
頒	-10.6433
逞	-10.6433
山僧	-10.6433
拖	-10.6434
款	-10.6434
雀舌	-10.6435
租	-10.6435
野菜譜	-10.6435
涉	-10.6435
逝	-10.6436
凸	-10.6436
泫	-10.6437
此地	-10.6437
濱	-10.6437
鋸	-10.6437
囿	-10.6437
筠籠	-10.6437
雌雄	-10.6438
昻	-10.6438
柟	-10.6438
罈	-10.6438
缾	-10.6439
宏	-10.6439
几案	-10.6439
禮記月令	-10.644
苴	-10.644
綽約	-10.6441
冗	-10.6441
止渇	-10.6443
姑射	-10.6444
霖	-10.6444
痔	-10.6444
鼔	-10.6445
華林園	-10.6445
囬	-10.6445
博士	-10.6446
緜	-10.6447
炳	-10.6447
狼籍	-10.6449
嶼	-10.6451
卭	-10.6452
蠅	-10.6452
譏	-10.6456
消渇	-10.6456
異常	-10.6458
生青熟	-10.6459
千畝	-10.6459
切片	-10.6461
秋月	-10.6461
九月九日	-10.6462
銀杏	-10.6467
丁皮	-10.6468
又似	-10.6471
甘香	-10.6473
漢武	-10.6478
無事	-10.6479
酸棗	-10.6485
良久	-10.6486
語曰	-10.6491
松脂	-10.6493
柔條	-10.6493
蘇州	-10.6496
香餅	-10.6498
肉白	-10.65
香美	-10.6502
吳興	-10.6503
蘭花	-10.6508
始見	-10.6513
生根	-10.6514
至此	-10.6518
經宿	-10.6522
别離	-10.6527
子也	-10.6535
甘泉	-10.6542
西蜀	-10.6542
相近	-10.6554
道家	-10.6554
食者	-10.6563
綠色	-10.6565
火齊	-10.657
久則	-10.6571
數千	-10.6574
劉郎	-10.6575
嵗月	-10.658
金銀	-10.6583
金玉	-10.6583
龍團	-10.6585
所宜	-10.6585
薄而	-10.6589
出者	-10.6589
者又	-10.6604
何須	-10.6606
牛羊	-10.662
先用	-10.6622
未成	-10.6626
登髙	-10.6628
人面	-10.6628
夏秋	-10.663
有數種	-10.6633
花也	-10.6641
以紙	-10.6643
秋水	-10.6645
濕地	-10.6646
不壊	-10.6652
異之	-10.6654
先春	-10.6655
之異	-10.6659
日照	-10.6677
火燒	-10.668
紅塵	-10.6681
迎春	-10.6687
不饑	-10.6688
桐花	-10.6693
嘉祐	-10.6703
小松	-10.6704
滿枝	-10.671
拾遺	-10.6711
十株	-10.6711
鑄錢	-10.6713
人亦	-10.6714
姥	-10.6717
匡	-10.6719
如是	-10.672
黒色	-10.6721
隄	-10.6722
儻	-10.6724
忽有	-10.6725
香風	-10.6725
丰	-10.6726
蚤	-10.6726
勲	-10.6727
硝	-10.6727
霍	-10.6728
茝	-10.6728
唾	-10.6729
裕	-10.673
旖旎	-10.6731
電	-10.6731
巖石	-10.6731
上林苑	-10.6732
驕	-10.6733
并序	-10.6734
聰	-10.6734
欣然	-10.6735
迦	-10.6735
的皪	-10.6736
瀟湘	-10.6736
憎	-10.6736
鉤	-10.6737
妒	-10.6738
㡌	-10.6738
沛	-10.6739
嶠	-10.6739
掲	-10.674
販	-10.6741
臆	-10.6742
軸	-10.6744
芳意	-10.6744
芎藭	-10.6745
漚	-10.6746
篋	-10.6746
姸	-10.6748
雞舌香	-10.6749
蒸熟	-10.6752
籬邊	-10.6753
薜荔	-10.6754
宋王	-10.6755
半觔	-10.6758
决明	-10.6758
六十	-10.676
南州	-10.6764
夜月	-10.6766
天池	-10.6768
千古	-10.6768
五更	-10.6769
乃是	-10.677
回首	-10.6773
建溪	-10.6773
名之	-10.6774
旃檀	-10.6776
棄之	-10.6777
友人	-10.6779
清芬	-10.6787
三春	-10.6787
老圃	-10.6792
同名	-10.6793
識語	-10.6796
飛去	-10.6803
生苗	-10.6803
不堪用	-10.6807
楚客	-10.6811
益精	-10.6814
水邊	-10.6819
樂府	-10.6822
飛燕	-10.6824
過之	-10.6826
茂盛	-10.6826
元豐	-10.6826
於水	-10.6827
靈根	-10.6827
孤芳	-10.6829
惟此	-10.6832
中州	-10.6833
無語	-10.6835
金石	-10.6838
一一	-10.6839
二斗	-10.6839
夜雨	-10.684
人有	-10.6843
每嵗	-10.6849
後主	-10.6853
珠簾	-10.6857
者為勝	-10.6864
二曰㑹心不逺曰徳充符	-10.6869
可喜	-10.687
建州	-10.6875
乃以	-10.6876
夢中	-10.688
紫莖	-10.6881
之日	-10.6883
歎曰	-10.689
味如	-10.6891
而香	-10.6895
寄生	-10.6901
其次	-10.6904
無毒主	-10.6904
冰霜	-10.6907
太和	-10.6908
如石	-10.6912
知是	-10.6917
繁枝	-10.6918
不歇	-10.692
曰蟹	-10.6923
銘曰	-10.6924
内外	-10.6927
不類	-10.6929
盆内	-10.6931
巖桂	-10.6931
漁人	-10.694
風飄	-10.694
映日	-10.694
諸州	-10.6944
者即	-10.6946
龍門	-10.6946
刺史	-10.6946
亦未	-10.6947
石色	-10.6947
有詩	-10.695
此日	-10.695
者是	-10.6951
金橘	-10.6952
木瓜	-10.696
金縷	-10.6964
始開	-10.6966
問之	-10.6966
收之	-10.698
白而	-10.6983
衙	-10.6998
紅藥	-10.6999
巫	-10.6999
府志	-10.7001
小山	-10.7004
色味	-10.7005
雪中	-10.7008
栝	-10.7013
種花	-10.7017
檉	-10.7021
楷	-10.7023
坤	-10.7025
是為	-10.7026
淄	-10.7026
潁	-10.7028
須用	-10.7031
蒺藜	-10.7032
琥珀	-10.7032
逃	-10.7032
故以	-10.7032
芻	-10.7033
虎邱	-10.7033
㕘	-10.7033
綰	-10.7034
秋雨	-10.7034
婀娜	-10.7034
义	-10.7035
篾	-10.7035
螫	-10.7036
稉	-10.7036
夙	-10.7037
昊	-10.7037
芟	-10.7037
冐	-10.7038
縑	-10.7038
疉	-10.7038
闊	-10.7039
鄂	-10.7039
返魂	-10.704
攬	-10.704
帙	-10.704
甄	-10.704
玳瑁	-10.704
斸	-10.7041
拏	-10.7041
頤	-10.7041
獨自	-10.7042
藂	-10.7042
醤	-10.7043
摹	-10.7043
濫	-10.7043
猫	-10.7043
疆	-10.7043
宋范成大	-10.7043
稅	-10.7044
脛	-10.7044
蓊	-10.7044
蜃	-10.7044
篔簹	-10.7044
圈	-10.7046
軰	-10.7047
蓓蕾	-10.7048
陟	-10.7048
悵望	-10.7048
擕	-10.7051
柞	-10.7051
燒灰	-10.7052
之味	-10.7054
貢茶	-10.7055
暴乾	-10.7056
南越志	-10.7057
海外	-10.7059
陳藏器曰	-10.706
春去	-10.7062
閉門	-10.7064
城西	-10.7064
鯽魚	-10.7065
昨日	-10.7065
陶潛	-10.7072
北斗	-10.7074
樽前	-10.7075
太湖	-10.7076
蘭香	-10.7077
元祐	-10.7079
其名曰	-10.708
家有	-10.7085
石楠	-10.7089
幽姿	-10.709
有感	-10.709
勁節	-10.709
幾時	-10.7093
不在	-10.7095
君不見	-10.7096
譜云	-10.7107
開白花	-10.7108
君之	-10.7109
東風吹	-10.7109
眀年	-10.7112
變化	-10.7114
人力	-10.7116
何為	-10.712
龍鬚	-10.7122
千丈	-10.7126
有力	-10.7129
候冷	-10.7132
不去	-10.7136
既而	-10.7137
我欲	-10.7141
雪花	-10.7144
而歸	-10.7146
隨意	-10.7152
葉綠	-10.7153
有神	-10.7165
下垂	-10.7167
其事	-10.7168
根葉	-10.7169
研細	-10.7172
丹陽	-10.7177
輕薄	-10.7183
之東	-10.7192
玉泉	-10.7192
宋玉	-10.7195
下巖	-10.72
白衣	-10.72
紫蘇	-10.7206
春事	-10.7209
南越	-10.7213
常有	-10.7214
石湖	-10.7215
太子	-10.7215
不許	-10.7218
調和	-10.722
於人	-10.7233
二丈	-10.7244
書之	-10.7245
黄赤	-10.7245
者謂	-10.7251
宿根	-10.7253
成叢	-10.7267
葷	-10.7278
不動	-10.7284
菜一名	-10.7285
佩之	-10.7287
金華	-10.7288
之言	-10.7294
初見	-10.7296
通志	-10.7299
古今注	-10.7306
嫩葉	-10.7306
花色	-10.7307
蹊	-10.7307
書曰	-10.7313
其筍	-10.7316
鬟	-10.7322
無香	-10.7326
一名水	-10.733
一小	-10.7331
陶𢎞景	-10.7333
本朝	-10.7333
當是	-10.7335
朱櫻	-10.7336
濇	-10.7337
多有之	-10.7339
劇	-10.7341
惑	-10.7342
黔	-10.7342
咬	-10.7343
氤氲	-10.7344
勉	-10.7344
皴	-10.7344
用水	-10.7345
炮炙論	-10.7345
睿	-10.7346
蓂	-10.7346
飈	-10.7347
秋聲	-10.7347
坂	-10.7348
疫	-10.7349
張舜民	-10.7349
盜	-10.7349
演	-10.7349
狎	-10.735
蘖	-10.735
槽	-10.735
安石榴	-10.735
跳	-10.7352
斥	-10.7352
皂	-10.7352
灣	-10.7352
墟	-10.7352
娟	-10.7352
膓	-10.7353
司馬光	-10.7353
沮	-10.7353
緇	-10.7353
鯽	-10.7354
悄	-10.7354
艱	-10.7355
炫	-10.7355
矗	-10.7355
翩	-10.7355
陛下	-10.7356
伽	-10.7356
樛	-10.7356
奢	-10.7356
榆莢	-10.7357
儘	-10.7357
悠悠	-10.7358
白樂天	-10.7359
財	-10.7359
硫黄	-10.7359
治風	-10.7361
毳	-10.7361
娱	-10.7362
西王母	-10.7364
夸	-10.7364
校官	-10.7364
茜	-10.7365
提要	-10.7366
沙糖	-10.7366
陳藏器云	-10.7367
禎	-10.7367
未盡	-10.7368
五尺	-10.7368
鶴翎	-10.7369
易生	-10.7374
堪為	-10.7376
鯉魚	-10.7379
為細末	-10.7382
女貞	-10.7384
十枚	-10.7386
松風	-10.7388
黃色	-10.7391
波斯	-10.7392
而澤	-10.7393
鶴頂	-10.7395
何由	-10.7395
紅者	-10.7396
壓枝	-10.7406
苦菜	-10.7406
如新	-10.7407
太史	-10.741
有竒	-10.7411
頭痛	-10.7411
澤中	-10.7412
頗類	-10.7419
赤者	-10.7422
以蜜	-10.7427
觀音	-10.7428
滿山	-10.743
鳳池	-10.7432
國有	-10.7432
隨風	-10.7434
千尺	-10.7434
五字	-10.7435
冬瓜	-10.744
二三寸	-10.744
陶令	-10.7443
之象	-10.7443
紅蓮	-10.7448
於世	-10.7453
入口	-10.7454
生南海	-10.7456
扵是	-10.7457
頭上	-10.7463
九年	-10.7463
又如	-10.7463
剖之	-10.7467
金莖	-10.7469
蛀	-10.7472
滿樹	-10.7474
而獨	-10.7476
硯首	-10.7481
沉沉	-10.7493
子大如	-10.7494
歙硯	-10.7495
名園	-10.7503
微有	-10.7507
中間	-10.7516
地名	-10.752
所製	-10.7523
一節	-10.7525
皮厚	-10.753
曉露	-10.7535
石竹	-10.7538
揺落	-10.754
之清	-10.7544
塵土	-10.7545
錢文	-10.7548
火山	-10.7551
遂以	-10.7552
切作	-10.7556
以手	-10.756
一名山	-10.7565
而今	-10.7569
白石	-10.7573
三徑	-10.7578
三斤	-10.7578
爾乃	-10.7579
華清	-10.7588
柏葉	-10.7588
人意	-10.759
幽獨	-10.759
天寳	-10.759
則生	-10.7597
不解	-10.7598
衆草	-10.7599
冷水	-10.7604
手自	-10.7607
浣	-10.7609
蒸之	-10.7609
故能	-10.7618
於中	-10.7625
管子	-10.7627
月餘	-10.7627
秋深	-10.7633
自號	-10.7641
者是也	-10.7642
蹄	-10.7643
來自	-10.7646
色赤	-10.7653
不下	-10.7653
長大	-10.7654
𥙷	-10.7654
金英	-10.7655
器物	-10.7657
滄	-10.7659
薹	-10.7659
青女	-10.766
射干	-10.7661
鱟	-10.7662
葆	-10.7662
不以	-10.7663
槍	-10.7663
戯	-10.7664
覔	-10.7664
護	-10.7665
椏	-10.7665
斟	-10.7665
棣棠	-10.7666
深山	-10.7666
不已	-10.7671
鱧	-10.7671
碧雲	-10.7672
䟽	-10.7672
旭	-10.7672
罐	-10.7673
巔	-10.7673
潦	-10.7674
箸	-10.7674
欽定四庫全書子部九	-10.7674
文散句	-10.7675
膺	-10.7675
樓上	-10.7675
昀	-10.7676
訴	-10.7676
督	-10.7677
冥	-10.7678
咎	-10.7678
梅聖俞	-10.7678
嫣然	-10.7678
偕	-10.7678
蜂蝶	-10.768
牘	-10.7682
莞	-10.7682
慵	-10.7682
葉長	-10.7683
殺蟲	-10.7684
朕	-10.7685
濯濯	-10.7686
巴豆	-10.7687
三分許	-10.7688
豌豆	-10.7688
山泉	-10.7688
版	-10.7689
不欲	-10.769
分種	-10.769
蟹螯	-10.7691
椰子	-10.7692
溺	-10.7692
揭	-10.7692
福建	-10.7693
蕭條	-10.7695
雜以	-10.7696
樹生	-10.7697
水出焉	-10.7697
相向	-10.7698
二曰比徳曰朗潤	-10.77
隋書	-10.77
純白	-10.7706
片片	-10.7706
漉出	-10.7706
乾隆	-10.7707
其言	-10.7721
多有	-10.7721
片腦	-10.7723
最盛	-10.7723
桑麻	-10.7724
殘紅	-10.7727
通考	-10.7727
是知	-10.7729
葉落	-10.7731
白梅	-10.7735
本紀	-10.7738
最佳	-10.774
柏樹	-10.7742
當以	-10.7743
用此	-10.7745
葉上	-10.7754
其功	-10.7759
扣之	-10.776
於斯	-10.776
臘茶	-10.7764
有文	-10.7765
相去	-10.7765
根莖	-10.7767
萬條	-10.7767
香譜	-10.7772
色淡	-10.7775
桃源	-10.7777
雲霧	-10.7778
東北	-10.7785
如故	-10.7787
冬夏	-10.7789
秋蘭	-10.779
秋來	-10.7794
從容	-10.7795
西瓜	-10.7798
臨海	-10.7798
青山	-10.7799
流鶯	-10.7804
相見	-10.781
覆以	-10.7812
第四	-10.7813
其説	-10.7813
萬花	-10.7818
好者	-10.7825
千歲	-10.7828
細末	-10.7836
記得	-10.7837
八兩	-10.7838
愛此	-10.784
遊人	-10.784
日光	-10.7845
三十年	-10.7853
想見	-10.7857
半夏	-10.787
之珍	-10.7871
謂曰	-10.7881
松花	-10.7883
與前	-10.7883
越王	-10.7884
和劑	-10.7891
十餘日	-10.7892
凌寒	-10.7893
色類	-10.7893
肥大	-10.7895
形狀	-10.7895
所作	-10.7897
水澆	-10.7897
者為佳	-10.79
俱有	-10.7905
以示	-10.7909
中鐫	-10.7912
大約	-10.7913
曰臣	-10.7918
如絲	-10.7918
溪水	-10.7923
鹿角	-10.7923
近世	-10.7934
一顆	-10.7939
新安	-10.794
多則	-10.7942
爰有	-10.7945
置於	-10.7946
三十六	-10.7947
白楊	-10.7954
新竹	-10.7954
風字	-10.7965
半日	-10.7968
一丸	-10.7969
一家	-10.7975
無用	-10.7981
弦	-10.7983
造茶	-10.7984
涸	-10.7984
樹枝	-10.7985
磊	-10.7985
穴中	-10.7991
鈐	-10.7992
鴟	-10.7992
背有	-10.7993
紅粉	-10.7993
軫	-10.7993
一生	-10.7993
罨	-10.7994
抄	-10.7997
鯊	-10.7997
巒	-10.7998
陸放翁詩	-10.7999
諸菊	-10.8
蔆	-10.8
勾	-10.8
趺	-10.8001
場	-10.8001
幢	-10.8001
豈非	-10.8001
跪	-10.8002
窖	-10.8002
緝	-10.8003
紆	-10.8003
笻	-10.8003
媒	-10.8004
隊	-10.8004
菊譜	-10.8004
冬日	-10.8005
稔	-10.8005
蘤	-10.8005
媿	-10.8006
三四月	-10.8006
李商隠	-10.8007
盟	-10.8007
茫	-10.8007
月恭校上	-10.8007
墳	-10.8007
貎	-10.8008
矧	-10.8008
荳蔲	-10.8008
韜	-10.8008
桔梗	-10.8008
牟	-10.8009
鐸	-10.8009
赭	-10.8009
以獻	-10.801
溪上	-10.801
孚	-10.8011
㾗	-10.8011
蟳	-10.8011
蕋	-10.8012
侣	-10.8012
秪	-10.8012
葭	-10.8013
益智	-10.8013
溉	-10.8013
睛	-10.8014
拒霜	-10.8015
㺯	-10.8017
楷書	-10.8017
彭澤	-10.8022
鬱鬱	-10.8024
指甲	-10.8027
良薑	-10.8027
宻封	-10.8027
橡	-10.8028
收拾	-10.8028
瑶臺	-10.8031
山居	-10.8035
亦作	-10.8045
臭味	-10.8046
所化	-10.8048
賔客	-10.805
諸葛	-10.8053
唐李	-10.8054
莫教	-10.8056
五里	-10.8056
草堂	-10.8057
止血	-10.806
任意	-10.8063
供御	-10.8064
四季	-10.8067
録云	-10.8068
四足	-10.8069
端午	-10.807
與客	-10.8072
矣今	-10.8077
酒醒	-10.8077
􁀙(	-10.8078
氷雪	-10.8082
成穗	-10.8089
玉蘂花	-10.8095
兩兩	-10.8096
長三寸	-10.81
生菜	-10.8102
之未	-10.8106
二三尺	-10.8108
清逺	-10.811
家人	-10.8111
此木	-10.8113
庭院	-10.8116
藿香葉	-10.8118
從來	-10.812
所有	-10.8128
詩句	-10.8129
含桃	-10.8133
一大	-10.8135
志云	-10.8137
和氣	-10.8139
猶帶	-10.814
一番	-10.8143
其核	-10.8144
攸	-10.8147
不可以	-10.815
芳叢	-10.8151
地氣	-10.8156
常食	-10.8163
羅衣	-10.8168
頗似	-10.8168
士人	-10.8169
日色	-10.8176
昔有	-10.8179
最宜	-10.8181
每年	-10.8183
其用	-10.8184
杜鵑花	-10.819
二箇	-10.8192
著意	-10.8194
爾其	-10.8194
青緑	-10.8195
之側	-10.8203
虚心	-10.8203
無核	-10.8204
玉蘭	-10.8204
香雪	-10.8219
印香	-10.8221
與人	-10.8224
舍人	-10.8225
愛惜	-10.8225
置酒	-10.8231
随風	-10.8236
雲母	-10.824
玉簪	-10.824
秋露	-10.8245
長春	-10.8247
種也	-10.8257
之别	-10.8261
曰汝	-10.8263
滿林	-10.8263
蜜和	-10.8264
數種	-10.8266
六字	-10.8271
重九	-10.8272
張華	-10.828
亦何	-10.8287
釋名	-10.829
月夜	-10.8291
味美	-10.8292
盛之	-10.8292
已見	-10.8296
紫菊	-10.8296
𣝕	-10.8297
此書	-10.83
甘酸	-10.83
香霧	-10.8308
宋時	-10.831
光風	-10.8313
無奈	-10.8318
有光	-10.8321
種麥	-10.8325
不多	-10.8333
笠	-10.8334
一曲	-10.8337
荈	-10.8339
桑椹	-10.8341
陸龜䝉	-10.8341
寕	-10.8342
恬	-10.8342
廉	-10.8342
瘥	-10.8342
祁	-10.8343
有紫	-10.8344
室中	-10.8344
剥蝕	-10.8344
靨	-10.8344
牡丹花	-10.8345
不通	-10.8346
韋應物	-10.8346
駿	-10.8346
亘	-10.8346
蒻	-10.8347
鯨	-10.8348
罔	-10.8348
髄	-10.8348
楫	-10.8348
癰疽	-10.8349
駁	-10.8349
其美	-10.8349
輟	-10.8349
娛	-10.8349
茈	-10.835
現	-10.835
伍	-10.8351
裾	-10.8351
獺	-10.8351
申時行	-10.8351
於時	-10.8352
喘	-10.8352
嗤	-10.8352
煎湯	-10.8352
明周嘉胄撰	-10.8352
須臾	-10.8352
嬰	-10.8353
準	-10.8353
爍	-10.8353
百丈	-10.8354
河中	-10.8354
陸璣詩疏	-10.8355
歎息	-10.8355
𠻳	-10.8356
安息香	-10.8356
瓌	-10.8356
臧	-10.8356
詭	-10.8356
闢	-10.8357
綽	-10.8357
陽羡	-10.8357
戚	-10.8358
戴復古	-10.8358
對花	-10.8358
眷	-10.8358
魏文帝	-10.8358
彥	-10.8359
祚	-10.836
雒	-10.836
訟	-10.836
山寺	-10.8361
腕	-10.8361
揀芽	-10.8362
水龍吟	-10.8363
澗底	-10.8365
叶	-10.8367
一方	-10.8367
樹如	-10.8367
靈草	-10.8367
長沙	-10.8367
深紫	-10.8368
降真	-10.8369
為衣	-10.8369
六七尺	-10.837
平頭	-10.8373
積聚	-10.8373
上黨	-10.8377
清秋	-10.8377
宛然	-10.8378
皇后	-10.8378
吳越	-10.838
後漢書	-10.8381
陶𢎞景曰	-10.8382
到處	-10.8389
酵	-10.8389
子猷	-10.8391
露濕	-10.8397
即是	-10.8398
蓮房	-10.8405
薔薇水	-10.8407
所鑄	-10.8409
蜜煎	-10.8413
天成	-10.8419
即活	-10.8428
石之屬	-10.843
子弟	-10.8431
未聞	-10.8435
髙祖	-10.8445
日曬	-10.8445
身輕	-10.8445
微黄	-10.8445
那得	-10.8447
益州	-10.8448
此意	-10.8448
以鹽	-10.8452
子曰	-10.8455
諸名	-10.8457
硯詩	-10.8461
槿花	-10.8461
積雪	-10.8461
注曰	-10.8463
脚氣	-10.8464
以進	-10.8467
人名	-10.8468
西方	-10.8468
何曽	-10.847
瓊枝	-10.8472
大都	-10.8472
棠棃	-10.8475
牡丹皮	-10.8476
青雲	-10.8478
五代	-10.8479
獨有	-10.8481
水煮	-10.8485
帶露	-10.8485
何用	-10.8495
葉下	-10.8498
年華	-10.8511
紋理	-10.8512
出茶	-10.8518
子瞻	-10.8519
一畝	-10.8523
赤莖	-10.8525
疏云	-10.8526
黄州	-10.8528
晴日	-10.8529
茄子	-10.8535
蟹眼	-10.8538
蓮葉	-10.854
東園	-10.8541
採摘	-10.8545
熟食	-10.8545
凉州	-10.8546
古者	-10.8547
可供	-10.8548
節節	-10.8549
夜來	-10.8551
所食	-10.8552
實大	-10.8552
故其	-10.8552
物志	-10.8554
先後	-10.8555
防風	-10.8556
莖青	-10.8557
惡氣	-10.8566
清凉	-10.8567
嵗時	-10.8573
三葉	-10.8575
英華	-10.8577
雜志	-10.8583
子由	-10.8584
俗謂之	-10.8588
廣南	-10.8589
田野	-10.859
作花	-10.8591
龍麝	-10.8593
胡為	-10.8602
黄白色	-10.8602
去土	-10.8603
紅芳	-10.8604
大觀	-10.8607
方物	-10.8612
蒼龍	-10.8615
有名	-10.8615
不信	-10.8619
鵝黄	-10.8621
氣香	-10.8621
廣寒	-10.8626
紫玉	-10.8628
紫筍	-10.8628
驟	-10.8629
小團	-10.8632
但見	-10.8632
人事	-10.8634
老去	-10.8637
莖端	-10.8641
諸家	-10.8646
比之	-10.8649
自憐	-10.8654
此亦	-10.8655
深院	-10.8658
千秋	-10.8662
孺	-10.868
答曰	-10.868
凌霄	-10.8682
揷	-10.8683
復見	-10.8689
彤	-10.8689
米芾	-10.8691
蘩	-10.8692
三月三日	-10.8693
宋書符瑞志	-10.8696
槌	-10.8696
陳繼儒	-10.8697
孟浩然	-10.8698
鳶	-10.8699
芼	-10.8699
誌	-10.87
叅	-10.87
䟦	-10.87
隕	-10.8701
閤	-10.8701
鵬	-10.8702
鴛	-10.8702
餽	-10.8703
冊	-10.8703
絞	-10.8703
蠱	-10.8703
瘻	-10.8704
花間	-10.8704
盪	-10.8705
莆	-10.8705
張耒	-10.8705
峡	-10.8705
控乾	-10.8705
挈	-10.8707
顒	-10.8707
鑠	-10.8707
邸	-10.8707
廼	-10.8708
虱	-10.8708
瀨	-10.8708
仇	-10.8708
沅	-10.8708
蹇	-10.8708
鐺	-10.8708
轂	-10.8709
悅	-10.8709
峯巒	-10.8709
渝	-10.8709
晁補之	-10.8709
伺	-10.8709
嗔	-10.871
此其	-10.871
娟娟	-10.871
橫	-10.8711
紈	-10.8711
滷	-10.8711
袪	-10.8711
釜	-10.8712
眉子	-10.8712
渺	-10.8712
醺	-10.8712
彬	-10.8713
名品	-10.8713
衮	-10.8713
億	-10.8713
賦有序	-10.8714
勺	-10.8714
褭	-10.8714
羔	-10.8715
蕪菁	-10.8715
嬉	-10.8715
水經注	-10.8715
縦	-10.8715
組	-10.8715
乖	-10.8716
禪師	-10.8716
娃	-10.8718
脉脉	-10.8718
四海	-10.8721
安縣	-10.8721
維揚	-10.8721
吉貝	-10.8722
鮓	-10.8722
緯	-10.8722
鱣	-10.8722
搗碎	-10.8723
洗浄	-10.8724
曦	-10.8724
蝶戀花	-10.8724
丹鉛	-10.8725
朱草	-10.8725
遊蜂	-10.8731
庭珪	-10.8734
新詩	-10.8739
諸公	-10.8745
芳馨	-10.8746
卷四	-10.875
溪澗	-10.8751
細研	-10.8752
花繁	-10.8752
天工	-10.8753
者宜	-10.8754
猶自	-10.8755
搖落	-10.8755
藥譜	-10.8755
光輝	-10.8757
誰為	-10.8757
所云	-10.876
卷二	-10.8763
章臺	-10.8763
解毒	-10.8766
淡黄	-10.8767
凉風	-10.8769
朝夕	-10.8769
龍蛇	-10.8771
傾國	-10.8776
花影	-10.8777
元日	-10.8778
後漢	-10.8778
蜜漬	-10.8779
唐昌	-10.878
易水	-10.8782
無塵	-10.8783
年少	-10.8784
客來	-10.8784
者不可食	-10.8788
海榴	-10.8788
色正	-10.8789
不聞	-10.879
老翁	-10.8792
赤白	-10.8792
終身	-10.8793
黄昏	-10.8797
者惟	-10.88
細切	-10.88
而莫	-10.8805
白髪	-10.8807
通體	-10.881
之性	-10.8813
何郎	-10.8814
其狀如	-10.8818
廣州記	-10.8819
雞子	-10.8819
上元	-10.882
偏宜	-10.8825
日夜	-10.8827
霜降	-10.8829
樂事	-10.8837
林間	-10.8842
為業	-10.8843
尤甚	-10.8843
千花	-10.8844
髙宗	-10.8847
王建	-10.8848
大於	-10.885
玉山	-10.8853
百病	-10.8862
之南	-10.8865
等分	-10.887
雨水	-10.8873
㸔花	-10.8877
葉尖	-10.8877
九重	-10.8878
之山	-10.888
毬子	-10.8881
不畏	-10.8882
日暖	-10.8891
堅實	-10.8893
如火	-10.8894
餅子	-10.8895
盛於	-10.8895
因風	-10.8899
獨秀	-10.89
圃中	-10.89
封植	-10.8901
温中	-10.8903
不耐	-10.8907
葉小	-10.8911
黄熟	-10.8912
對此	-10.8913
河陽	-10.8914
王公	-10.8916
其殻	-10.8917
一旦	-10.8917
新芽	-10.8919
無疑	-10.8927
故得	-10.8927
致之	-10.8931
竹之	-10.8932
相映	-10.8933
中使	-10.8933
蕙草	-10.8939
人心	-10.894
水調	-10.8943
竹也	-10.8943
有一種	-10.8944
如法	-10.8945
明帝	-10.8953
喉痺	-10.8964
鱗甲	-10.8965
各二兩	-10.8971
色香	-10.8973
禹貢	-10.8977
河水	-10.8985
不斷	-10.8985
五株	-10.8986
聞道	-10.8989
甲子	-10.8993
五葉	-10.8994
法用	-10.8996
白牡丹	-10.8997
何也	-10.9
此藥	-10.9001
自此	-10.9003
當作	-10.9007
雖不	-10.9007
實中	-10.9009
煙雨	-10.9009
春意	-10.901
子石	-10.9013
不失	-10.9019
品第	-10.9021
化作	-10.9024
金花	-10.9026
九節	-10.9031
不道	-10.9034
則易	-10.9035
之始	-10.904
賦散句	-10.9043
青白	-10.9047
又作	-10.9048
華山	-10.9049
曉風	-10.905
雖無	-10.9051
冕	-10.9054
瑒	-10.9062
肚	-10.9065
瑛	-10.9065
漕	-10.9066
摛	-10.9067
奠	-10.9069
屐	-10.9069
讌	-10.9069
喉	-10.9071
莠	-10.9071
叱	-10.9071
鱉	-10.9071
茭	-10.9071
梯	-10.9072
甎	-10.9072
糕	-10.9072
盎	-10.9073
水洗	-10.9073
朱慶餘	-10.9074
溥	-10.9074
翥	-10.9074
觜	-10.9075
未若	-10.9075
昂	-10.9076
棋	-10.9076
勇	-10.9076
疹	-10.9076
亷	-10.9076
睨	-10.9077
篝	-10.9077
夏小正	-10.9078
臻	-10.9078
稱之	-10.9078
凄凉	-10.9078
江蘺	-10.9078
緬	-10.9079
店	-10.908
山其草多	-10.908
饗	-10.908
蚶	-10.9081
礪	-10.9081
壮	-10.9081
譜録類	-10.9081
于若瀛	-10.9082
𤨏	-10.9082
盒	-10.9082
軌	-10.9082
杜陽雜編	-10.9083
蓆	-10.9083
曺	-10.9083
詫	-10.9083
檀欒	-10.9084
宦	-10.9084
止渴	-10.9086
以待	-10.9086
夣	-10.9086
雜爼	-10.9087
賚	-10.9087
猴	-10.9088
杲	-10.9088
襄陽	-10.9089
肎	-10.9089
一朝	-10.909
鈔	-10.909
憤	-10.909
雖然	-10.909
如雲	-10.9091
㝷	-10.9092
貴賤	-10.9093
陸㳺	-10.9093
菀	-10.9094
鮎	-10.9094
出自	-10.9097
誅	-10.9098
松枝	-10.9099
鯤	-10.9101
色稍	-10.9102
鄧州	-10.9105
真臘	-10.9106
閩廣	-10.9107
朱欄	-10.9107
崑山	-10.9108
鉛華	-10.9108
搗羅	-10.9109
仲春	-10.911
飛絮	-10.9111
嘉靖	-10.9115
微紅	-10.912
鬼神	-10.912
徑寸	-10.9124
野生	-10.9127
石芝	-10.913
蘇頌曰今	-10.913
國色	-10.9135
不分	-10.9136
絳雪	-10.9136
水氣	-10.9137
榮枯	-10.9141
幾度	-10.9143
芒種	-10.9146
白蘋	-10.9147
佳者	-10.9148
魚也	-10.9148
比徳	-10.9148
照耀	-10.9149
飲水	-10.9149
真宗	-10.9151
三柰	-10.9152
殷紅	-10.9155
薫風	-10.9158
宗廟	-10.9164
異苑	-10.9164
垂絲	-10.9167
蒲桃	-10.9168
碧葉	-10.9169
華之	-10.9169
磨墨	-10.917
正二月	-10.9173
蜜香	-10.9174
酒服	-10.9175
含情	-10.9177
或用	-10.9178
初夏	-10.9185
不堪食	-10.9187
青梅	-10.9188
垂垂	-10.919
田田	-10.9191
苦筍	-10.9192
嵗嵗	-10.9194
無處	-10.9194
每一	-10.9202
無因	-10.9207
州府志	-10.9209
不著	-10.9211
秋霜	-10.9212
大明	-10.9214
潤澤	-10.9215
明王	-10.9218
地黃	-10.9221
寒香	-10.9221
愛其	-10.9224
萬樹	-10.9235
可見	-10.9237
小雅	-10.9242
沈周	-10.9242
兩頭	-10.9248
竹根	-10.9251
極大	-10.9255
土地	-10.9256
髙麗	-10.9256
竒品	-10.9266
之候	-10.9268
莖如	-10.9268
可知	-10.927
衣服	-10.9273
一名紫	-10.9277
于此	-10.9277
相公	-10.928
起居	-10.9281
風韻	-10.9283
此法	-10.9283
紫金	-10.9284
五升	-10.9287
去白	-10.9288
之能	-10.929
水底	-10.9293
四尺	-10.9296
養生	-10.9298
此詩	-10.9303
為勝	-10.9317
紫霞	-10.9317
久而	-10.932
諸國	-10.9321
楓香	-10.9323
逺近	-10.9323
一名赤	-10.933
詳見	-10.9333
十餘年	-10.9334
如指	-10.9334
炒令	-10.9336
松江	-10.9338
煮熟	-10.9341
蟹詩	-10.9343
白鶴	-10.9345
已上各	-10.9348
明珠	-10.935
新栽	-10.9352
有司	-10.9356
細膩	-10.9364
還家	-10.9366
一名金	-10.9366
李花	-10.937
佳名	-10.9371
朱顔	-10.9382
無由	-10.9386
以此為	-10.9397
未乾	-10.9398
不住	-10.9404
若木	-10.9405
飴	-10.9409
不定	-10.9415
有數	-10.9415
礬	-10.9425
黨	-10.9427
炭末	-10.9432
匣盖並鐫是詩𨽻書鈐寳	-10.9436
皮膚	-10.9437
秬	-10.9442
以酒	-10.9444
闇	-10.9447
繄	-10.9449
蓂莢	-10.9451
笥	-10.9451
苔蘚	-10.9451
癰	-10.9451
軀	-10.9452
二子	-10.9452
不拘多少	-10.9452
憩	-10.9453
方印一	-10.9453
槐樹	-10.9454
濛濛	-10.9455
茶具	-10.9455
穄	-10.9456
禍	-10.9456
葉庭珪云	-10.9457
窻	-10.9457
槖	-10.9457
益部方物畧記	-10.9458
絨	-10.9458
蟾蜍	-10.9458
趾	-10.9458
梭	-10.9459
抗	-10.9459
竝	-10.9459
傘	-10.9459
東坡詩	-10.9459
鳯凰	-10.9459
敝	-10.9459
扈	-10.946
百歩	-10.946
盛夏	-10.9461
肪	-10.9461
為名	-10.9461
橄欖	-10.9461
岷	-10.9461
梁元帝	-10.9462
成事件	-10.9462
瞿	-10.9463
駮	-10.9463
閙	-10.9463
洞㝠記	-10.9464
菉豆	-10.9465
不問	-10.9465
酷烈	-10.9465
哥	-10.9465
豕	-10.9465
況	-10.9465
鮒	-10.9466
坦	-10.9466
氊	-10.9466
煌	-10.9466
蛾眉	-10.9468
鶻	-10.9468
藪	-10.9468
沐浴	-10.9468
五月五日	-10.9469
炬	-10.9469
弁	-10.9469
張騫	-10.9469
篤	-10.947
噀	-10.9471
茸茸	-10.9471
新筍	-10.9471
詹	-10.9471
矩	-10.9471
則知	-10.9471
對菊	-10.9472
摧折	-10.9472
栟櫚	-10.9472
不管	-10.9472
御溝	-10.9473
曼	-10.9473
女蘿	-10.9474
㤀	-10.9474
鶉	-10.9475
糅	-10.9475
茅屋	-10.9475
橈	-10.9475
萬斛	-10.9475
箒	-10.9476
椘	-10.9477
蝤蛑	-10.9477
瑟瑟	-10.9477
薰陸	-10.9478
蟠桃	-10.9482
敷榮	-10.9482
戞	-10.9483
藁本	-10.9483
翠幄	-10.9483
鍋内	-10.9484
銀燭	-10.9484
嶺表	-10.9485
廕	-10.9486
已成	-10.9486
嘗以	-10.9489
風景	-10.9489
其葉如	-10.949
如珠	-10.949
開早	-10.9491
黄葵	-10.9495
疎籬	-10.9499
腸斷	-10.9503
成蹊	-10.9505
甚大	-10.9506
照水	-10.9507
京兆	-10.9507
花飛	-10.9509
宰相	-10.951
宣帝	-10.9513
封固	-10.9515
尚存	-10.9519
如拳	-10.9519
百斤	-10.9522
如豆	-10.9523
上巳	-10.9534
次日	-10.9536
白馬	-10.9539
梢頭	-10.9542
所稱	-10.9545
貞元	-10.9546
竹箭	-10.9549
又若	-10.9552
世説	-10.9563
江邊	-10.9563
黃花	-10.9563
畏寒	-10.9565
爐香	-10.9566
清晨	-10.9567
依前	-10.9568
燕子	-10.9568
腫毒	-10.9569
黄蠟	-10.9572
訛為	-10.9573
無時	-10.9574
其狀	-10.9577
之品	-10.9582
愁絶	-10.9584
竒絶	-10.9587
南唐	-10.959
比目	-10.9591
火候	-10.9591
沙門	-10.9594
之稱	-10.9594
黄連	-10.9595
不取	-10.9595
子似	-10.9601
詠柳	-10.9603
否則	-10.9605
魏花	-10.9606
澆之	-10.9609
沉香一兩	-10.9611
矣然	-10.9617
洛中	-10.9619
自謂	-10.9619
蘇子	-10.9621
百藥	-10.9622
至若	-10.9626
絶勝	-10.963
魚狀如	-10.9635
造墨	-10.9635
數朶	-10.9636
江北	-10.9636
已覺	-10.9636
綠隂	-10.9637
大食	-10.964
排草	-10.964
形容	-10.964
斑㸃	-10.9643
江城	-10.9643
如鐵	-10.9645
一塊	-10.9647
之勢	-10.9648
嘗新	-10.9649
之數	-10.966
其精	-10.966
徳之	-10.9664
固不	-10.9666
一合	-10.9672
麝香一錢	-10.9675
金色	-10.9676
八日	-10.9677
二十日	-10.9681
留客	-10.9682
寺有	-10.9685
不語	-10.9685
不知何	-10.9685
腹下	-10.9688
徽宗	-10.9689
人情	-10.9691
一名天	-10.9696
如許	-10.9701
連枝	-10.9705
差大	-10.9705
花神	-10.9706
十畝	-10.9715
庭下	-10.9715
卷三	-10.9715
樹似	-10.9718
大雅	-10.9732
各二錢	-10.9732
未許	-10.9734
斑竹	-10.9735
萬顆	-10.9735
傷人	-10.9736
不容	-10.9741
一嵗	-10.9742
又法	-10.9747
闌干	-10.975
野老	-10.975
北土	-10.975
二十五	-10.9753
江中	-10.9754
世之	-10.9755
於庭	-10.9763
本無	-10.9768
髙者	-10.977
髙樹	-10.9776
玉人	-10.9779
衡山	-10.9788
山南	-10.979
可與	-10.979
翠色	-10.9791
東都	-10.9793
而外	-10.9794
却是	-10.9804
何似	-10.9805
文理	-10.982
忽生	-10.982
異也	-10.9821
荀	-10.9823
葉間	-10.9828
大官	-10.983
風熱	-10.9833
紫藤	-10.9834
詠竹	-10.9836
發生	-10.9838
漢銅雀瓦硯	-10.9838
不愛	-10.9839
熬成	-10.9843
十五日	-10.9843
􁁜	-10.9844
疼痛	-10.9844
恃	-10.9845
芑	-10.9847
狀類	-10.9848
蓀	-10.9849
藋	-10.9851
醍醐	-10.9851
一粒	-10.9852
賒	-10.9852
咀嚼	-10.9852
東方朔	-10.9854
艇	-10.9855
陳師道	-10.9855
鉅	-10.9856
左側鐫	-10.9856
洵	-10.9856
秔	-10.9856
缶	-10.9857
妖嬈	-10.9857
琖	-10.9858
佞	-10.9859
趂	-10.9859
鎔	-10.986
洮	-10.986
寘	-10.986
两	-10.9861
寂寂	-10.9861
溟	-10.9861
虗	-10.9861
疋	-10.9861
洛陽伽藍記	-10.9861
繖	-10.9861
乾隆四十六年	-10.9861
週	-10.9862
靚	-10.9862
蹟	-10.9862
哭	-10.9862
孫覿	-10.9863
慨	-10.9863
是月也	-10.9864
僮	-10.9864
討	-10.9864
囂	-10.9865
頽	-10.9865
措	-10.9865
窰	-10.9866
婁	-10.9866
鞋	-10.9867
河豚	-10.9867
警	-10.9867
貍	-10.9867
串	-10.9867
渭川	-10.9867
泌	-10.9867
嚙	-10.9867
獄	-10.9868
秩	-10.9868
徼	-10.9868
描	-10.9869
凜	-10.9869
後園	-10.987
褥	-10.987
紅衣	-10.987
甸	-10.987
㨗	-10.987
蓬蒿	-10.987
洎	-10.987
也余	-10.9871
苻	-10.9871
諱	-10.9871
宋祁	-10.9872
仞	-10.9873
葺	-10.9873
灌溉	-10.9873
郭索	-10.9873
愚齋云	-10.9873
厚五分	-10.9875
松烟	-10.9875
譽	-10.9875
悽	-10.9876
㶚	-10.9876
桑柘	-10.9877
江浙	-10.9877
右以	-10.9878
圜	-10.9879
桄榔	-10.988
飛花	-10.988
出西京	-10.9881
雜俎	-10.9881
淡紫	-10.9885
朝廷	-10.9886
髙二三尺	-10.9889
鱸魚	-10.9889
長丈餘	-10.9892
不落	-10.9894
韶光	-10.9897
暮雨	-10.9898
飛來	-10.9899
不應	-10.9903
並蔕	-10.9903
黃連	-10.9906
本是	-10.9909
形色	-10.9915
白术	-10.9916
尤妙	-10.9916
杉木	-10.9916
成熟	-10.9918
不可用	-10.9918
知我	-10.992
飛鳥	-10.9921
柔弱	-10.9921
數株	-10.9924
投之	-10.9924
左思	-10.9926
歌舞	-10.9927
猶存	-10.9927
諸品	-10.9928
五斗	-10.9928
秦觀	-10.993
生江南	-10.993
方干	-10.9934
不拘	-10.9934
一見	-10.9935
日斜	-10.9939
嶺外	-10.9941
南軒	-10.9944
幽谷	-10.9945
定粉	-10.9951
半升	-10.9952
為小	-10.9953
沙土	-10.9955
南風	-10.996
道中	-10.9964
一室	-10.997
有客	-10.9974
色似	-10.9974
亦同	-10.9979
之患	-10.9979
山上有	-10.9982
宣州	-10.9984
落葉	-10.9984
四日	-10.9984
連珠	-10.9989
枝間	-10.999
品題	-10.9993
紫者	-10.9995
附見	-10.9995
石首	-10.9998
味亦	-10.9998
四周	-10.9999
佳節	-11.0003
餌之	-11.0003
安知	-11.0003
别種	-11.0004
後凋	-11.0011
元嘉	-11.0012
白魚	-11.0022
滿堂	-11.0024
遼東	-11.0027
侍臣	-11.0027
玉川	-11.0031
不比	-11.0032
容易	-11.0033
不作	-11.0037
是日	-11.0041
三伏	-11.0043
銅錢	-11.0044
奈何	-11.0047
黄門	-11.005
十觔	-11.005
天風	-11.0054
亦足	-11.0057
神明	-11.006
人或	-11.0062
楚王	-11.0062
其品	-11.0063
托根	-11.0063
名之曰	-11.0067
立秋	-11.0071
侍中	-11.0071
幽芳	-11.0073
淺紫	-11.0074
江東呼	-11.0075
實似	-11.0079
如泥	-11.0079
澤蘭	-11.0082
不常	-11.0087
南陌	-11.0087
髙士	-11.0088
芬香	-11.009
相顧	-11.0091
君臣	-11.0099
雪後	-11.0102
筆硯	-11.0109
十箇	-11.0117
皮薄	-11.012
煩熱	-11.0124
之殊	-11.0128
俗人	-11.0129
熏衣	-11.0131
載酒	-11.0137
未覺	-11.014
移來	-11.014
詩有	-11.0142
賞心	-11.0144
太清	-11.0144
即止	-11.0148
過熟	-11.0149
最先	-11.0151
滿園	-11.0154
付與	-11.0158
泥中	-11.0159
上方鐫	-11.0164
功用	-11.0164
相和	-11.0165
之變	-11.0165
三秀	-11.0166
湖上	-11.0169
烟雨	-11.0172
謂此	-11.0175
為良	-11.0177
紅雲	-11.0178
湘水	-11.018
帝曰	-11.0182
浮雲	-11.0184
大谷	-11.0185
不足以	-11.0186
向上	-11.0187
張公	-11.0197
而見	-11.0204
清溪	-11.0205
三層	-11.0215
亦如之	-11.0224
諸人	-11.0229
小園	-11.0235
其實如	-11.0239
都勝	-11.0241
樂天	-11.0253
茇	-11.0254
我家	-11.0255
通寳	-11.0256
隰	-11.0259
籬下	-11.0262
硃	-11.0262
深深	-11.0265
頬	-11.0266
蠡	-11.0267
四角	-11.0267
拌和	-11.0268
羶	-11.0269
柳花	-11.0271
陜	-11.0271
實繁	-11.0272
捺	-11.0272
閔	-11.0272
鱓	-11.0273
來年	-11.0273
眺	-11.0273
痿	-11.0274
菂	-11.0275
蜿蜒	-11.0276
瀾	-11.0276
茱茰	-11.0276
澡	-11.0276
搆	-11.0277
霸	-11.0277
腊	-11.0277
纍	-11.0279
蘓軾	-11.0279
囀	-11.0279
刳	-11.0279
何首烏	-11.0279
一脚子缷	-11.0279
駝	-11.0279
鋸齒	-11.0279
僵	-11.0279
彈丸	-11.028
撮	-11.028
褪	-11.028
嬪	-11.028
御袍黄	-11.028
菅	-11.0281
聯	-11.0282
本性	-11.0283
楚人	-11.0283
神異經	-11.0283
有大毒	-11.0284
燄	-11.0284
蔞	-11.0284
嗚呼	-11.0284
沈約	-11.0285
蒼术	-11.0285
熾	-11.0285
瓏	-11.0286
彪	-11.0286
扣之有聲	-11.0287
鴻漸	-11.0287
盤根	-11.0287
墅	-11.0287
小枝	-11.0287
誓	-11.0287
苣	-11.0287
大食國	-11.0288
嶺表録異	-11.0288
挾	-11.0288
餘甘	-11.0288
扁舟	-11.0288
菹	-11.0289
囚	-11.0289
懋	-11.0289
霓	-11.0289
鰻	-11.029
仄	-11.029
倐	-11.029
王世貞	-11.0291
迄今	-11.0291
雋	-11.0291
泓	-11.0291
茫茫	-11.0291
知白	-11.0291
滕	-11.0292
借問	-11.0293
茆	-11.0293
主簿	-11.0293
鏗	-11.0294
東坡集	-11.0295
寰	-11.0296
依稀	-11.0296
楛	-11.0303
碧桃	-11.0303
當風	-11.0306
四出	-11.0307
魏武	-11.0309
以来	-11.031
禁苑	-11.0312
傅𤣥	-11.0312
鳳尾	-11.0313
桂枝	-11.0313
西番	-11.0314
二曰古香曰太璞	-11.0314
柑橘	-11.0317
引蔓	-11.0319
何當	-11.0319
白麺	-11.0322
吾鄉	-11.0322
靈均	-11.0322
長尺餘	-11.0324
十字	-11.0326
稍大	-11.0326
何䖏	-11.0326
而肥	-11.0326
口腹	-11.0329
横斜	-11.033
唐本草	-11.0333
之徒	-11.0333
自稱	-11.0335
久不	-11.0335
千頃	-11.0335
之良	-11.0338
嚴霜	-11.0339
器用	-11.0342
自得	-11.0344
昭陽	-11.0345
此果	-11.0347
亞深	-11.0347
西子	-11.0361
八字	-11.0362
微酸	-11.0364
眼前	-11.0364
應制	-11.0366
獨活	-11.0367
却笑	-11.0368
七星	-11.0368
如粟	-11.0369
仍以	-11.037
木上	-11.037
繁英	-11.037
萍實	-11.0372
收子	-11.0372
蒼然	-11.0377
尤為	-11.0381
又見	-11.0381
面背	-11.0383
丹桂	-11.0383
隂隂	-11.0384
成式	-11.0386
長一尺	-11.0387
朝霞	-11.0393
即以	-11.0395
楓葉	-11.0396
往來	-11.0397
鷄子	-11.04
秋花	-11.0405
大可	-11.0409
雲雨	-11.041
不實	-11.0416
半夜	-11.0419
右用	-11.042
金刀	-11.0424
一名木	-11.0425
留連	-11.0432
第五	-11.0432
天生	-11.0434
揺風	-11.0435
乆服	-11.0437
名字	-11.0438
七尺	-11.0443
家貧	-11.0446
風生	-11.0447
紫薇花	-11.0447
天意	-11.0449
尤物	-11.0451
月影	-11.0451
離别	-11.0456
欽定四庫全書欽定西清硯譜卷	-11.0469
羣花	-11.0469
凌風	-11.0472
清淺	-11.0474
數畝	-11.0474
紫草	-11.0475
含風	-11.0475
出土	-11.0475
秋後	-11.0479
按此	-11.0485
雲霞	-11.0486
金蓮	-11.0488
之語	-11.0489
欽定四庫全書御定佩文齋廣羣芳譜	-11.0489
不逮	-11.0495
異物	-11.0498
光潤	-11.0499
神女	-11.05
光明	-11.05
辛苦	-11.0501
天寶	-11.0504
竒巧	-11.0505
戲作	-11.0505
芳樹	-11.0514
猶是	-11.0515
正是	-11.0517
種子	-11.0521
法也	-11.0522
别名	-11.0525
必先	-11.0532
每服	-11.0532
紅杏	-11.0533
之内	-11.0536
正如	-11.0537
煮食	-11.0537
建茶	-11.0537
嵩山	-11.0539
籬菊	-11.0543
長年	-11.0544
銀紅	-11.0546
匣盖	-11.0549
湯煑	-11.055
七寸	-11.0566
以墨	-11.0569
髙人	-11.0572
誰言	-11.0572
桃枝	-11.0572
曰君	-11.0578
太陽	-11.0585
扣	-11.0585
從事	-11.0591
折來	-11.0591
唐張	-11.0601
冷香	-11.0603
臨安	-11.0603
古柏	-11.0606
隻	-11.061
即生	-11.0614
滿眼	-11.0615
玉骨	-11.0616
鵞黄	-11.062
佳色	-11.0621
茶事	-11.0621
無味	-11.0625
在内	-11.0628
濃香	-11.0632
山澤	-11.0637
行之	-11.0637
之前	-11.0639
嘉木	-11.064
龍尾石	-11.0645
髙節	-11.0645
嶺上	-11.0647
或名	-11.0647
葉類	-11.0653
旁有	-11.0656
而弗	-11.0656
二分許	-11.0659
諸郡	-11.0662
丈夫	-11.0664
琪	-11.0665
月桂	-11.0665
如前	-11.0673
一名苦	-11.0674
不暇	-11.0674
茶芽	-11.0676
雞舌	-11.0678
消食	-11.0679
人物	-11.0681
不忘	-11.0683
可比	-11.0686
生香	-11.0687
識之	-11.0692
字楷書	-11.0692
青綠	-11.0695
横枝	-11.0697
𣙜	-11.07
腹痛	-11.07
攣	-11.07
近道	-11.0701
佇	-11.0701
文公	-11.0703
飣	-11.0703
礱	-11.0703
闈	-11.0704
蠵	-11.0705
腰膝	-11.0707
蒲萄	-11.0707
巉岩	-11.0708
需	-11.0708
秃	-11.0708
航	-11.0708
世俗	-11.0708
燧	-11.0708
攫	-11.0708
湼	-11.0709
鴨脚	-11.0709
蘆菔	-11.071
玉井	-11.071
颯	-11.071
丹實	-11.071
頷	-11.071
砧	-11.071
仆	-11.0711
荄	-11.0713
芫荽	-11.0713
州郡	-11.0713
瀘	-11.0713
刪	-11.0714
斐	-11.0715
訶	-11.0715
不飲	-11.0715
蕾	-11.0715
五代史	-11.0716
港	-11.0716
螢	-11.0716
綾	-11.0716
春華	-11.0716
異魚圖贊	-11.0716
曖	-11.0716
曇	-11.0716
詩小雅	-11.0717
蕭瑟	-11.0717
驚蟄	-11.0718
蕡	-11.0718
匕	-11.0718
焰	-11.0718
而不能	-11.0719
青白色	-11.0719
淹留	-11.0719
娜	-11.072
謝靈運	-11.072
鰌	-11.072
鈍	-11.0721
肅肅	-11.0721
甃	-11.0721
宋蘇轍	-11.0721
齒牙	-11.0722
樞	-11.0722
歙溪	-11.0722
搏	-11.0722
瞳	-11.0722
穟	-11.0723
宋張耒	-11.0723
張孝祥	-11.0723
笏	-11.0723
鱮	-11.0724
皁莢	-11.0724
惻	-11.0724
九畹	-11.0724
㢠廻	-11.0725
俚	-11.0725
杼	-11.0725
訊	-11.0725
羗	-11.0725
榧	-11.0726
翠雲	-11.0726
牌	-11.0727
吏部	-11.0727
吕氏春秋	-11.0728
倭	-11.073
弊	-11.073
鬐	-11.0733
萌芽	-11.0734
鮪	-11.0736
烈日	-11.0737
煒	-11.0739
夢魂	-11.0741
天女	-11.0742
釵頭	-11.0743
右同	-11.0743
鼉	-11.0743
攀條	-11.0744
掩映	-11.0744
林邑	-11.0745
松栢	-11.0746
彭城	-11.0748
堦前	-11.075
洪武	-11.075
秀才	-11.0752
無瑕	-11.0752
黑而	-11.0754
大如斗	-11.0758
世宗	-11.0759
舊唐書	-11.076
龍池	-11.076
一篇	-11.0761
各自	-11.0762
春生苗	-11.0762
旋取	-11.0765
風氣	-11.0766
薄暮	-11.0769
二螯	-11.0772
黄雲	-11.0772
賞之	-11.0778
蕭然	-11.0779
周旋	-11.078
託根	-11.0786
仲夏	-11.0786
二月生苗	-11.0787
龍牙	-11.0788
數丈	-11.0791
宜男	-11.0792
放冷	-11.0792
二十年	-11.0794
其書	-11.0795
大風	-11.0795
遲遲	-11.08
帶雨	-11.0802
數十年	-11.0803
父老	-11.0804
五銖錢	-11.0808
諸侯	-11.0808
萬木	-11.0809
能使	-11.0811
昔年	-11.0812
秦皮	-11.0814
殊絶	-11.0815
者乎	-11.0815
瓦松	-11.0817
青木香	-11.0817
玉質	-11.0818
園圃	-11.0819
末利	-11.0821
雜録	-11.0823
茗飲	-11.0823
底事	-11.0824
腹脹	-11.0828
不學	-11.0833
清曉	-11.0833
白茅香	-11.0834
石菖蒲	-11.0835
鬱金香	-11.0836
傷寒	-11.0836
青蒿	-11.084
天台山	-11.0846
蓼花	-11.0847
千朶	-11.0851
樣曰	-11.0853
車前	-11.0856
宜隂	-11.0859
人共	-11.086
北齊	-11.0861
予嘗	-11.0861
第十	-11.0869
貞心	-11.087
羅漢	-11.0871
瑞香花	-11.0872
紅艶	-11.0872
下血	-11.0876
歌聲	-11.0876
譜序	-11.0879
柳條	-11.0885
千條	-11.0887
方莖	-11.0889
不結實	-11.089
山東	-11.0891
空庭	-11.0891
自古	-11.0893
端硯	-11.0901
狂風	-11.0904
堅潤	-11.091
所藏	-11.0912
水淘	-11.0912
閩人	-11.0913
嵗貢	-11.0915
自持	-11.0916
其瓣	-11.0918
之道	-11.0919
欲知	-11.0921
加以	-11.0923
已過	-11.0923
下水	-11.0927
上等	-11.0927
水濵	-11.0928
蛟龍	-11.0929
山野	-11.0935
玉露	-11.0935
百枚	-11.0939
久服輕身	-11.0939
生津	-11.0945
一簇	-11.0945
金屋	-11.0946
三角	-11.0947
色澤	-11.0953
同類	-11.096
造酒	-11.0963
刮去	-11.0972
五斤	-11.0973
都賦	-11.0977
瑩白	-11.0982
只是	-11.0983
不顧	-11.099
前身	-11.099
魚似	-11.099
侍御	-11.0991
萬事	-11.0993
海邊	-11.1003
王家	-11.1005
龍井	-11.1009
萬錢	-11.101
花底	-11.1018
相望	-11.1018
垂柳	-11.102
孤松	-11.1022
小者如	-11.1022
囊盛	-11.1033
新花	-11.1035
羅隠	-11.1035
墨法	-11.1035
相親	-11.1037
交州	-11.1039
之利	-11.1042
多者	-11.1043
其利	-11.1044
寒菊	-11.1047
金杯	-11.1047
多刺	-11.1048
兖州	-11.105
栽種	-11.1055
乃止	-11.1056
流霞	-11.1061
硯譜	-11.1062
俗傳	-11.1063
乾之	-11.1064
二枚	-11.1064
吾聞	-11.1065
荔支譜	-11.1074
櫻桃花	-11.1079
當為	-11.1079
種稻	-11.108
豈惟	-11.108
簷下	-11.108
以充	-11.1081
先將	-11.1085
久矣	-11.1085
之遺	-11.1095
稱為	-11.1102
三品	-11.1102
擇其	-11.1102
陸離	-11.1108
長樂	-11.1108
夏初	-11.1113
根株	-11.1114
列於	-11.1116
田中	-11.1123
君看	-11.1123
榿	-11.1128
生水中	-11.1129
槲	-11.1131
堪食	-11.1143
李東陽	-11.1151
凶	-11.1151
清絶	-11.1151
諸書	-11.1152
鐫御題銘一首	-11.1155
利小便	-11.1155
瑯	-11.1156
悞	-11.1156
劉子翬	-11.1157
炮	-11.1157
忿	-11.1158
膈	-11.1159
巍	-11.1159
擦	-11.116
梁江淹	-11.116
燔	-11.116
虵	-11.1161
右側鐫	-11.1161
幙	-11.1161
鵞梨	-11.1162
粳	-11.1162
秋氣	-11.1162
戈	-11.1162
疰	-11.1163
三十二	-11.1163
老坑端石	-11.1163
澈	-11.1163
盛時	-11.1163
丁謂	-11.1164
苹	-11.1164
筮	-11.1164
莒	-11.1164
諳	-11.1165
衲	-11.1165
川芎	-11.1165
廹	-11.1166
牲	-11.1166
㝡	-11.1167
寝	-11.1167
蓉	-11.1167
李徳裕	-11.1167
煦	-11.1167
龔	-11.1167
天真	-11.1168
姊	-11.1168
膿	-11.1168
畹	-11.1168
渤	-11.1168
泠	-11.1169
鸛	-11.1169
釅	-11.1169
劔	-11.1169
嬴	-11.1169
列仙傳	-11.1169
羈	-11.1169
避暑	-11.1169
說硯髙五寸	-11.117
輕風	-11.117
罍	-11.117
罰	-11.117
東坡雜記	-11.117
縟	-11.1171
从	-11.1171
枿	-11.1171
蛛	-11.1172
産於	-11.1172
鶯啼	-11.1172
頡	-11.1172
蝨	-11.1172
凱	-11.1173
贍	-11.1173
糾	-11.1173
圑	-11.1174
椎	-11.1174
煆	-11.1174
決	-11.1174
消渴	-11.1174
大竹	-11.1175
邨	-11.1175
襍	-11.1175
瑣碎	-11.1176
雲南志	-11.1176
殫	-11.1176
地理志	-11.1176
包裹	-11.1177
鑽	-11.1177
七八尺	-11.1177
蒼梧	-11.1177
笙歌	-11.1177
魯直	-11.1178
仝	-11.1178
誣	-11.1178
沽酒	-11.1179
刼	-11.1179
含露	-11.1179
彷彿	-11.1179
琅	-11.1179
萵苣	-11.1179
諭	-11.1179
歐陽公	-11.1179
侶	-11.1179
會稽	-11.118
擢秀	-11.118
稼穡	-11.118
糞壤	-11.118
擁腫	-11.118
含芳	-11.1183
衾	-11.1183
搗爛	-11.1183
捫	-11.1184
楊慎	-11.1185
窄	-11.1186
遂成	-11.1188
一根	-11.1189
瓊漿	-11.1192
虚勞	-11.1193
六寸	-11.1193
虎丘	-11.1195
琪樹	-11.1196
鼻觀	-11.1197
罏	-11.1203
荆棘	-11.1203
荆芥	-11.1204
亦似	-11.1204
䨇井	-11.1205
更好	-11.1205
百餘年	-11.1205
香藥	-11.1209
互相	-11.1213
之華	-11.1215
農家	-11.1215
元寳錢	-11.1216
濃淡	-11.1218
三輔	-11.1219
貞觀	-11.1221
凌霄花	-11.1221
夲草	-11.1224
其肉	-11.1227
未應	-11.1228
朶朶	-11.1229
嘗聞	-11.1229
勁直	-11.1229
如飴	-11.1229
莫遣	-11.1229
人不識	-11.123
家園	-11.123
可取	-11.123
忽驚	-11.1232
側理	-11.1234
南宋	-11.1239
塞外	-11.1241
交加	-11.1241
逐旋	-11.1248
但恐	-11.1254
歙石	-11.1259
三脊	-11.1259
莖赤	-11.126
繁花	-11.1261
畫圖	-11.1261
色淺	-11.1261
生涯	-11.1266
亦能	-11.1268
嘉定	-11.1268
文君	-11.127
曉日	-11.127
紅綃	-11.1273
三十餘	-11.1273
歳寒	-11.1273
灌之	-11.1273
龍焙	-11.1274
糞土	-11.1277
其榦	-11.1278
温無毒主	-11.1279
背上	-11.1281
又次之	-11.1286
大紅	-11.1289
國語	-11.1296
華實	-11.1302
空谷	-11.1303
肉食	-11.1306
尋芳	-11.1308
屏風	-11.1309
劉氏	-11.1311
花上	-11.1312
慶雲	-11.1316
英英	-11.1316
微雨	-11.1316
為受墨處	-11.1318
海棠花	-11.1319
玉硯	-11.132
其妙	-11.1321
夜合	-11.1323
如畫	-11.1324
二十餘	-11.1326
薔薇露	-11.1328
厚薄	-11.133
不辭	-11.1333
紅藍	-11.1335
香囊	-11.1335
細鱗	-11.1338
偶然	-11.1339
最勝	-11.1345
殘春	-11.1347
作穗	-11.1359
醉裏	-11.137
主治	-11.1376
臨江	-11.1381
百官	-11.1384
一類	-11.139
帳中	-11.1395
不載	-11.1399
東宫	-11.1399
亦然	-11.1399
未及	-11.1401
華堂	-11.1406
製墨	-11.1414
梁書	-11.1417
南園	-11.1427
行樂	-11.1429
未敢	-11.1434
異名	-11.1436
樹樹	-11.1437
頗有	-11.1444
凡使	-11.1447
風暖	-11.1456
四種	-11.146
猩	-11.1467
隂氣	-11.1473
五丈	-11.1476
唯有	-11.1476
柑子	-11.1478
二兩半	-11.1478
一束	-11.1482
細看	-11.1484
命名	-11.1492
國人	-11.1494
馬乳	-11.1494
數莖	-11.1495
不損	-11.1496
細潤	-11.1497
冬生	-11.1502
冷落	-11.1502
未至	-11.1503
朝露	-11.1508
谷中	-11.1516
對酒	-11.1516
譜中	-11.1517
錢文曰	-11.152
始得	-11.1521
誰道	-11.1522
風波	-11.1524
春盡	-11.1524
匣盖並鐫是銘𨽻書鈐寳	-11.1528
便是	-11.153
白華	-11.1533
其他	-11.1535
廣東	-11.1538
玉立	-11.1538
十萬	-11.1544
清影	-11.1544
露下	-11.1546
江山	-11.1551
問曰	-11.1553
宋元	-11.1556
千百	-11.1558
三首	-11.1559
西京	-11.1569
即位	-11.157
黄鳥	-11.1577
語云	-11.158
白菜	-11.1581
字子	-11.1586
槐葉	-11.1588
洞中	-11.1591
人衣	-11.1593
娑羅	-11.1595
一名玉	-11.1598
茶園	-11.1599
罅	-11.1602
百株	-11.1603
縣東	-11.1611
收採	-11.1612
殘雪	-11.1619
西國	-11.162
韌	-11.1624
誥	-11.1629
翎	-11.1629
春隂	-11.163
謨	-11.163
荳	-11.163
瀋	-11.163
罌粟	-11.1631
馬尾	-11.1631
茨	-11.1632
各二	-11.1632
沆瀣	-11.1632
韓琦	-11.1633
鑚	-11.1633
饞	-11.1633
疼	-11.1634
薈	-11.1634
粲粲	-11.1634
粳米	-11.1634
詵	-11.1634
餙	-11.1634
刓缺	-11.1635
磁盒	-11.1635
葑	-11.1635
熨	-11.1636
悠	-11.1636
農政全書	-11.1636
十圍	-11.1637
石泉	-11.1637
臟	-11.1638
孩兒	-11.1638
憚	-11.1638
齧	-11.1639
軋	-11.164
滁	-11.164
昧	-11.164
喪	-11.164
疸	-11.164
蔴	-11.164
凌冬不凋	-11.164
鯪	-11.1641
蔫	-11.1641
蓽撥	-11.1641
胭脂	-11.1641
焰硝	-11.1642
各等分	-11.1642
盧仝	-11.1642
棺	-11.1643
髩	-11.1643
鹵	-11.1643
冡	-11.1644
疎寮詩	-11.1644
勵	-11.1644
唐宋	-11.1644
犁	-11.1644
䄂	-11.1645
睦	-11.1645
翟	-11.1645
右為細末煉蜜	-11.1645
孝義傳	-11.1646
溼	-11.1646
恠	-11.1646
唐李嶠	-11.1647
開小白花	-11.1647
麥門冬	-11.1647
驂	-11.1647
蝦蟇	-11.1647
挫	-11.1648
莨	-11.1648
潰	-11.1648
仙人掌	-11.1648
猊	-11.1648
舫	-11.1648
珠璣	-11.1649
肘	-11.1649
蒙頂	-11.165
三佛齊	-11.1651
莘	-11.1651
筥	-11.1651
涓	-11.1651
簸	-11.1651
弼	-11.1652
赦	-11.1652
洒	-11.1653
瘟	-11.1653
諷	-11.1654
訂	-11.1654
襦	-11.1656
杜荀鶴	-11.1656
璇	-11.1656
猥	-11.1656
酈	-11.1656
蔡邕	-11.1656
栁宗元	-11.1657
八寸	-11.1659
金元好問	-11.1659
厓	-11.1659
諺曰	-11.1659
么	-11.1659
雨航雜錄	-11.1661
袤	-11.1661
岱	-11.1663
宋朱子	-11.1664
菩薩蠻	-11.1665
異種	-11.1665
清池	-11.1666
廣雅云	-11.1667
徑二寸	-11.1669
昱	-11.1669
燠	-11.167
酸漿	-11.1674
堂下	-11.1674
時候	-11.1675
色黄而	-11.1675
占斷	-11.1677
膚理	-11.1677
宜用	-11.168
有毒治	-11.1681
經雨	-11.1682
森然	-11.1683
金鈴菊	-11.1687
崇寧	-11.1688
婦女	-11.1688
楊栁	-11.1689
一二尺	-11.1689
隴西	-11.169
藤蔓	-11.1691
暖風	-11.1692
甕中	-11.1692
開胃	-11.17
大如拳	-11.1703
别是	-11.1705
御題	-11.1705
等閒	-11.1705
葉大如	-11.1708
可生食	-11.1709
南康	-11.171
山頂	-11.1712
盛衰	-11.1714
舶上	-11.1717
芳春	-11.172
泥封	-11.1722
誰憐	-11.1723
蒼耳	-11.1723
槐花	-11.1723
太上	-11.1726
過雨	-11.1728
伐之	-11.1742
佳果	-11.1742
澄清	-11.1742
太原	-11.1746
羅列	-11.1751
清流	-11.1751
三十里	-11.1752
杜蘅	-11.1752
曰我	-11.1753
其生	-11.1753
安南	-11.1755
七寳	-11.1762
笑語	-11.1764
屬也	-11.1767
金釵	-11.1768
杜詩	-11.177
狀元	-11.177
庭除	-11.1771
髙低	-11.1773
凝結	-11.1778
三斗	-11.1778
曲水	-11.1779
博物	-11.1781
夢裏	-11.1782
大臣	-11.1782
天柱	-11.1783
翠盖	-11.1787
是書	-11.1787
道傍	-11.1793
乞與	-11.1795
耐寒	-11.1796
商人	-11.1797
不負	-11.18
其色如	-11.18
食筍	-11.181
驚起	-11.1813
樓前	-11.1813
低枝	-11.1813
芳塵	-11.1814
折一枝	-11.1814
居人	-11.1815
體輕	-11.1815
手足	-11.1817
台州	-11.1818
不止	-11.1819
立夏	-11.1822
成實	-11.1826
寒氣	-11.1826
桐葉	-11.1826
小便	-11.1827
不任	-11.1828
得意	-11.1829
相憶	-11.1832
知音	-11.1833
尚未	-11.1833
十一年	-11.1837
晩節	-11.1837
唐韻	-11.1837
再生	-11.1839
滿室	-11.184
桃花菊	-11.1841
河北	-11.1845
坐對	-11.1849
小異	-11.1849
早晩	-11.1854
團茶	-11.1854
錄云	-11.1855
開遲	-11.1862
為報	-11.1863
染翰	-11.1865
土人以	-11.1868
諸譜	-11.1869
坐客	-11.1869
夜半	-11.1871
或謂之	-11.1882
青天	-11.1883
西江	-11.1886
詩註	-11.1895
茅山	-11.1897
疥	-11.19
王元	-11.1907
梔子花	-11.1909
月色	-11.191
為問	-11.1913
嵗華	-11.1916
道旁	-11.1917
海人	-11.1919
無他	-11.1925
和尚	-11.1927
季春	-11.1927
叢竹	-11.1933
無定	-11.1946
疎雨	-11.1947
端州	-11.1948
物華	-11.1952
或謂	-11.1952
辛香	-11.196
異品	-11.1964
筆墨	-11.1964
九秋	-11.1968
春晚	-11.1968
兩株	-11.1968
雨濕	-11.197
九江	-11.1971
所貴	-11.1982
忽然	-11.1984
朝來	-11.1985
韓子	-11.1987
亦猶	-11.1987
布地	-11.1989
通神	-11.1989
尚可	-11.199
豆大	-11.199
種瓜	-11.1993
舊事	-11.1995
烹之	-11.1996
魚蟹	-11.1996
木蘭花	-11.1997
若此	-11.2011
天公	-11.2012
之誤	-11.2012
後庭	-11.2015
青皮	-11.2016
白玊	-11.2017
緑竹	-11.2021
苦寒	-11.2023
凡五	-11.2025
飛来	-11.2027
學書	-11.2032
古墨	-11.2034
不可多	-11.2034
落落	-11.2036
夜光	-11.2042
沈水	-11.2042
六斤	-11.205
寒泉	-11.2052
蒼玉	-11.2053
緑楊	-11.2055
面文	-11.2058
宫殿	-11.2063
皆是	-11.2063
移時	-11.2066
色黒	-11.2075
清和	-11.2079
文昌	-11.2087
翠竹	-11.209
氣力	-11.2091
葚	-11.2098
天麻	-11.2098
桃杏	-11.2101
南土	-11.2101
未放	-11.2111
未全	-11.2114
賖	-11.2115
李商隐	-11.2118
分别	-11.2124
酥油	-11.2126
木蓮	-11.2128
另硏	-11.2129
艾蒳	-11.2129
日影	-11.213
捉	-11.213
山其上多	-11.213
綈几	-11.213
陶弼	-11.2131
籩	-11.2131
蚊	-11.2132
菩提	-11.2133
箴	-11.2133
魏曹植	-11.2134
嗽	-11.2134
虞美人草	-11.2134
瑜	-11.2135
蘘荷	-11.2136
吉祥	-11.2137
瀑布	-11.2137
鮆	-11.2138
㯶櫚	-11.2138
夭矯	-11.2139
珣	-11.2139
繋	-11.2139
詩豳風	-11.2139
踵	-11.214
鱖	-11.214
晷	-11.214
郢	-11.214
琵琶	-11.214
兜	-11.2141
十八娘	-11.2141
縳	-11.2141
溷	-11.2141
纎纎	-11.2141
張九齡	-11.2141
惕	-11.2142
御定佩文齋廣羣芳譜卷九十	-11.2142
為粗末	-11.2142
荏	-11.2142
琴瑟	-11.2142
迺	-11.2142
瑞應圖	-11.2142
后妃	-11.2143
鎻	-11.2143
璣	-11.2143
倡	-11.2144
何日	-11.2144
償	-11.2144
栘	-11.2144
憇	-11.2145
而柔	-11.2145
元馬祖常	-11.2145
博山香爐	-11.2146
汀洲	-11.2147
彊	-11.2147
崔豹古今注	-11.2148
黍稷	-11.2148
楊巽齋	-11.2148
宋景文	-11.2148
瀛	-11.2148
確	-11.2148
闔	-11.2148
御定佩文齋廣羣芳譜卷八十	-11.2149
覿	-11.2149
瘤	-11.2149
芰荷	-11.2149
嘶	-11.2149
梁沈約	-11.2149
鰥	-11.215
奥	-11.215
斟酌	-11.215
為丸	-11.215
婺州	-11.215
馴	-11.215
鮮紅	-11.215
紹聖	-11.215
邕	-11.215
該	-11.2151
値	-11.2151
武宗	-11.2151
壟	-11.2152
波濤	-11.2152
陶隠居	-11.2153
躡	-11.2153
陶淵明	-11.2153
御定佩文齋廣羣芳譜卷五十	-11.2154
繁衍	-11.2154
淳祐	-11.2154
陶隱居	-11.2154
毓	-11.2154
寤	-11.2155
黿	-11.2155
孤生	-11.2155
齎	-11.2155
楊維楨	-11.2155
非真	-11.2156
替	-11.2156
悠然	-11.2157
熙寧	-11.2157
太尉	-11.2157
北海	-11.2158
桶	-11.2158
高三四尺	-11.2158
淳化	-11.2159
噪	-11.216
掾	-11.2161
鷹爪	-11.2161
禮部	-11.2162
灔	-11.2162
和露	-11.2162
揚雄	-11.2163
漁父	-11.2163
建炎	-11.2164
唐劉禹錫	-11.2165
刷絲	-11.2165
蚌坑	-11.2166
烝	-11.2167
博雅	-11.2167
孜	-11.2167
斑斑	-11.2167
各少許	-11.2167
鍾乳	-11.2168
一錢半	-11.2169
品目	-11.2171
李孝美	-11.2171
濯錦	-11.2173
庶幾	-11.2174
伯仲	-11.2174
吾將	-11.2174
飛雪	-11.2175
御定佩文齋廣羣芳譜卷七十	-11.2175
鹿葱	-11.2175
歴代	-11.2178
之具	-11.218
郁李	-11.2181
妖艶	-11.2181
隆冬	-11.2181
沉香檀香	-11.2182
鳥雀	-11.2182
黄魯直	-11.2184
宣宗	-11.2184
沈水香	-11.2185
支離	-11.2187
三足	-11.2188
夾道	-11.2189
杯盤	-11.2189
不自持	-11.2189
乞馬	-11.219
農夫	-11.2191
樓閣	-11.2192
和匀	-11.2193
戲題	-11.2193
毎嵗	-11.2196
孟夏	-11.2197
態度	-11.2198
沉香亭	-11.2199
春生苖	-11.2199
傅粉	-11.2201
七夕	-11.2201
却憶	-11.2203
米粒	-11.2203
園丁	-11.2204
數百年	-11.2206
相國	-11.2209
既成	-11.2211
衙香	-11.2212
自知	-11.2219
歲久	-11.222
二三丈	-11.222
掘地	-11.2221
舊坑	-11.2226
青蔥	-11.2227
益母	-11.2227
李嘉祐	-11.2227
豈是	-11.2228
數十里	-11.223
曹唐	-11.2231
一炷	-11.2232
眀目	-11.2235
神宗	-11.2236
女兒	-11.2241
遊絲	-11.2244
柯葉	-11.2246
衆果	-11.2247
圖畫	-11.2248
白髮	-11.2253
果實	-11.2259
泥沙	-11.2259
昔聞	-11.2263
窓前	-11.2264
受墨	-11.2264
尖長	-11.2265
輭香	-11.2268
冷淡	-11.2275
小草	-11.2275
性喜	-11.2275
交廣	-11.2275
郡國	-11.2277
切細	-11.2277
孫枝	-11.228
肉厚	-11.228
漢苑	-11.2281
蠟瓣	-11.2285
羣仙	-11.2285
照眼	-11.2286
膠法	-11.2286
奉和	-11.2287
老僧	-11.2287
人多以	-11.2287
無毛	-11.229
不論	-11.2295
臣等	-11.2296
夜則	-11.2297
含煙	-11.2299
一啜	-11.2304
方丈	-11.2308
細碎	-11.2313
土膏	-11.2321
右為細末以	-11.2322
橘皮	-11.2323
大熱	-11.2324
本草經	-11.2325
春工	-11.2327
艶陽	-11.2328
縣西	-11.2329
如錦	-11.2332
御定佩文齋廣羣芳譜卷四十	-11.2333
珍果	-11.2334
爛然	-11.2338
繁盛	-11.2344
赤城	-11.2345
樹皮	-11.2345
商山	-11.2359
不息	-11.236
無餘	-11.2361
龍文	-11.2361
神物	-11.2364
竹萌	-11.2366
之為物	-11.2371
中毒	-11.2375
肥美	-11.2377
風塵	-11.2384
茉莉花	-11.2384
凭	-11.2387
妝成	-11.2387
忘歸	-11.2394
瑞蓮	-11.2396
留得	-11.2396
重疊	-11.24
辛夷花	-11.2404
四靣	-11.2405
湯浸	-11.2405
安可	-11.2408
食令人	-11.241
紅絲石	-11.2423
取次	-11.2428
客至	-11.2429
玉壺	-11.2431
入甕	-11.2438
石門	-11.2441
其苗	-11.245
之術	-11.2453
新晴	-11.2461
流芳	-11.2462
千林	-11.2464
即今之	-11.2467
倚風	-11.2472
吳王	-11.2474
宛如	-11.2482
清潤	-11.2485
復何	-11.2485
湖南	-11.2492
萬餘	-11.2494
何異	-11.2494
頗多	-11.2503
麻油	-11.2504
年光	-11.2512
馬上	-11.2512
肌骨	-11.2519
成膏	-11.252
宋張	-11.2525
亦謂之	-11.2525
来年	-11.2528
千頭	-11.2528
鐫御題銘一首楷書鈐寳二曰	-11.2529
一二寸	-11.2529
竹節	-11.2532
生芽	-11.2535
調中	-11.2539
以奉	-11.2542
北堂	-11.2545
熱氣	-11.2546
薌	-11.2548
葉密	-11.2555
錢右	-11.2556
水際	-11.2557
香煤	-11.2565
初熟	-11.2572
從来	-11.2572
題畫	-11.2594
欄干	-11.2597
喜食	-11.2603
數枚	-11.2603
亦可食	-11.2608
一名土	-11.2613
居然	-11.2618
椰	-11.2619
梔	-11.2627
李元	-11.2633
固有	-11.2634
潯	-11.2641
十七年	-11.2642
甘苦	-11.2642
猷	-11.2642
嵌	-11.2647
祭祀	-11.2649
斜日	-11.2652
色黑	-11.2653
豳	-11.2654
阬	-11.2655
蕎	-11.2655
黄瓜	-11.2656
邃	-11.2656
山其木多	-11.2656
迫	-11.2656
零露	-11.2657
空腹食之	-11.2657
俶	-11.2657
乂	-11.2658
嘔	-11.2659
髙丈餘	-11.2659
哇	-11.2659
爆	-11.2659
卞	-11.2659
種樹書	-11.266
邵雍	-11.266
䱜	-11.2661
廡	-11.2662
侍宴	-11.2662
牛膝	-11.2662
貶	-11.2662
惲	-11.2662
夥	-11.2662
嶂	-11.2663
盍	-11.2663
㤗	-11.2663
韓保昇曰	-11.2664
堵	-11.2664
購	-11.2665
窨一月	-11.2665
剉碎	-11.2666
蛙	-11.2666
撩	-11.2666
厠	-11.2666
罥	-11.2666
曄曄	-11.2666
巘	-11.2666
大秦國	-11.2666
王荆公	-11.2666
嗁	-11.2666
佚	-11.2667
駒	-11.2667
蘅	-11.2667
吠	-11.2668
錐	-11.2668
龎	-11.2668
瘠	-11.2668
翊	-11.2668
聘	-11.2669
軒轅	-11.2669
疳	-11.2669
泔	-11.2669
一盞	-11.2669
嶰谷	-11.2669
鉏	-11.267
腑	-11.267
拄杖	-11.267
李咸用	-11.267
愼	-11.267
搯	-11.2671
𡨕	-11.2671
蘇子瞻	-11.2671
紡	-11.2671
竄	-11.2672
淅	-11.2672
概	-11.2672
司空圖	-11.2672
褰	-11.2673
葬	-11.2673
珂	-11.2673
耨	-11.2673
陸機	-11.2673
夔	-11.2674
帯	-11.2674
禽魚之	-11.2674
緡	-11.2674
摸	-11.2675
淋漓	-11.2675
贄	-11.2675
侑	-11.2675
撈	-11.2675
劉敞	-11.2675
如雞卵	-11.2675
醉不可	-11.2675
采擷	-11.2676
朧	-11.2676
楨	-11.2676
陳淳	-11.2677
薫陸	-11.2677
騁	-11.2677
鳥獸	-11.2677
四肢	-11.2677
搔頭	-11.2677
薑汁	-11.2678
芎	-11.2678
徤	-11.2679
撩亂	-11.268
右細末	-11.268
皷	-11.268
欖	-11.2681
揮毫	-11.2681
晳	-11.2681
狭	-11.2681
元趙孟頫	-11.2682
愷	-11.2682
堆盤	-11.2683
咨嗟	-11.2683
胡荽	-11.2684
魏武帝	-11.2684
澄泥硯	-11.2684
驪山	-11.2684
種黍	-11.2685
苺	-11.2685
宗本紀	-11.2685
胡蘿蔔	-11.2686
蓴菜	-11.2686
哈	-11.2689
三昧	-11.2689
標格	-11.2689
甆器	-11.2691
冰肌	-11.2691
翦伐	-11.2691
真味	-11.2693
姚魏	-11.2693
沙棠	-11.2695
蒹葭	-11.2695
柴胡	-11.2697
吾廬	-11.2697
料物	-11.2698
獅子	-11.2698
脂麻	-11.2698
素娥	-11.2699
橙橘	-11.2699
延夀	-11.2699
搗汁	-11.2699
三百顆	-11.2702
八月采根	-11.2702
朝菌	-11.2703
藕絲	-11.2703
霜霰	-11.2705
米腦	-11.2705
芥菜	-11.2705
韶華	-11.2706
微小	-11.2706
賓客	-11.2706
朱砂	-11.2706
燕脂	-11.2706
龍腦麝香	-11.2707
永昌	-11.2708
其族	-11.2709
瑞草	-11.271
藕花	-11.271
欵冬	-11.2713
流𫝊	-11.2714
風度	-11.2714
朱明	-11.2716
萬頃	-11.2718
髙三四尺	-11.2718
有五色	-11.2718
長二三寸	-11.2719
囘首	-11.2722
大㦸	-11.2722
茶竈	-11.2723
錯落	-11.2725
倒垂	-11.2726
占春	-11.2727
野葛	-11.2732
一枝春	-11.2733
由来	-11.2735
秋夜	-11.2736
路傍	-11.2739
高祖	-11.274
至孝	-11.274
按本草	-11.2741
藍田	-11.2741
暇日	-11.2743
葵菜	-11.2743
無涯	-11.2744
永樂	-11.2746
周圍	-11.2746
萬厯	-11.2747
越女	-11.2749
嘗與	-11.275
如小豆	-11.275
仙掌	-11.275
待制	-11.2752
鮫人	-11.2753
埤雅云	-11.2755
製造	-11.2756
蒸食	-11.2759
養性	-11.2759
夭夭	-11.2759
瑞麥	-11.2763
東家	-11.2763
世祖	-11.2763
每歲	-11.2765
階前	-11.2765
與他	-11.2768
華夷	-11.2768
入藥用	-11.2768
甚羙	-11.2769
元參	-11.2771
日夕	-11.2774
還似	-11.2776
二合	-11.2778
可啖	-11.2779
東陵	-11.278
雷雨	-11.2781
一隻	-11.2784
暑月	-11.2785
象形	-11.2786
採取	-11.2787
有稜	-11.2787
試問	-11.2788
獨行	-11.2791
栽植	-11.2793
飽食	-11.2793
江左	-11.2794
詠菊	-11.2794
照影	-11.2795
平樂	-11.2796
豆一名	-11.2796
成簇	-11.2797
吾家	-11.2799
内實	-11.28
葵花	-11.28
折得	-11.2803
者為良	-11.2804
啖之	-11.2808
一斛	-11.2809
千葉者	-11.2809
侯家	-11.281
郡齋	-11.281
誤矣	-11.2812
濃隂	-11.2814
珍珠	-11.2814
味苦平無毒	-11.2818
鳯池	-11.2824
絳囊	-11.2825
山之陽	-11.2826
天雄	-11.2829
江表	-11.2834
令乾	-11.2836
合為一	-11.2836
庚子	-11.2836
開黄花	-11.2842
金爐	-11.2843
未肯	-11.2843
所致	-11.2847
其中有	-11.2848
岩石	-11.2852
又謂之	-11.2857
丈人	-11.2857
越州	-11.286
謫仙	-11.286
供佛	-11.2862
移種	-11.2862
乾濕	-11.2868
形圓	-11.2871
雅州	-11.2874
老松	-11.288
金雀	-11.2881
月冷	-11.2885
徑尺	-11.2886
那知	-11.2886
諸病	-11.2889
鬭茶	-11.289
一椀	-11.2891
相倚	-11.2895
緋桃	-11.2895
尤宜	-11.2903
我今	-11.2908
隨時	-11.2919
一甌	-11.292
七里	-11.292
他如	-11.2928
滿城	-11.2929
正氣	-11.2932
兩螯	-11.2937
者次之	-11.2938
可佩	-11.2938
絶少	-11.294
定知	-11.2941
宜都	-11.2941
蘭麝	-11.2946
一窠	-11.2947
出灰	-11.2947
却老	-11.2951
滿院	-11.2953
籜龍	-11.2961
狀若	-11.2962
青葱	-11.2967
午時	-11.2968
酒器	-11.2969
御定佩文齋廣羣芳譜卷三十	-11.2972
明堂	-11.2976
六錢	-11.2978
拂地	-11.2978
秋葵	-11.298
入夏	-11.298
食物	-11.2984
楝花	-11.2985
故鄉	-11.2985
深谷	-11.2987
繞樹	-11.2992
春風吹	-11.2997
欲語	-11.3
溪頭	-11.3001
無足	-11.3002
不能自	-11.3003
風揺	-11.3007
百六十	-11.301
相合	-11.3013
西海	-11.3014
一把	-11.3016
解語	-11.3017
郡人	-11.302
猩血	-11.3022
方圓	-11.3024
黄冠	-11.3025
常侍	-11.3034
藤一名	-11.3034
有三種	-11.3036
雲錦	-11.3037
無益	-11.3043
仙客	-11.3044
其葉似	-11.3045
腹内	-11.3052
青陽	-11.3056
一百二十	-11.306
生嶺南	-11.3063
曬乾用	-11.3066
照日	-11.3067
各異	-11.3068
甚竒	-11.3098
二十七	-11.3099
所思	-11.3114
最後	-11.3117
莫言	-11.3119
由此	-11.3121
辟惡	-11.3122
景物	-11.3126
萬竿	-11.3127
司花	-11.3127
墨經	-11.3134
别研	-11.3139
諸處	-11.3141
節間	-11.3147
流傳	-11.3151
露冷	-11.3166
羣木	-11.3167
節物	-11.3171
紅蕉	-11.3174
陳藏器	-11.3175
試茶	-11.3182
小蟲	-11.3182
白茅	-11.3189
物性	-11.319
州志	-11.3193
春愁	-11.3194
廣西	-11.3195
韓翃	-11.3202
戢戢	-11.3204
重湯煮	-11.3205
未易	-11.3206
臈茶	-11.3207
七月七日	-11.3209
禊	-11.3211
降眞香	-11.3213
涪翁	-11.3213
㨂	-11.3213
湧幢小品	-11.3213
物理	-11.3214
迄	-11.3214
伶倫	-11.3214
荳䓻	-11.3214
盼	-11.3215
蔞蒿	-11.3216
癬	-11.3218
邱	-11.3219
峒	-11.3219
賸	-11.3219
懽	-11.3219
淇	-11.322
禺	-11.322
爼	-11.322
虞美人	-11.322
繹	-11.3221
唐石渠硯	-11.3221
泚	-11.3222
筭	-11.3222
璜	-11.3223
轅	-11.3223
元郝經	-11.3223
塌	-11.3223
宋王禹偁	-11.3223
左側	-11.3223
桷	-11.3224
僕射	-11.3224
蹲	-11.3224
擺	-11.3224
別	-11.3224
泳	-11.3225
珥	-11.3225
浣溪沙	-11.3225
逈	-11.3225
熒	-11.3225
攘	-11.3226
瀼	-11.3226
熱毒	-11.3226
盥	-11.3226
褁	-11.3226
明吳寛	-11.3227
百菊集譜	-11.3228
鵝毛	-11.3228
婚	-11.3228
胯	-11.3229
相識	-11.3229
潘岳	-11.3229
陳藏噐曰	-11.3229
盻	-11.3229
踞	-11.3229
開以九月末	-11.3229
件	-11.3229
嫗	-11.323
蒔蘿	-11.323
文與可	-11.323
絢	-11.323
白芨末	-11.323
淡淡	-11.323
䘮	-11.323
禾黍	-11.323
肱	-11.323
吻	-11.323
瘀血	-11.323
蘧	-11.323
禿	-11.3231
咄	-11.3231
蘢	-11.3231
鬼疰	-11.3231
耒	-11.3232
鵒	-11.3232
澄泥為之	-11.3232
鎗	-11.3233
磯	-11.3233
槭	-11.3233
涪州	-11.3233
太乙	-11.3233
有二種一種	-11.3233
恕	-11.3234
穹起	-11.3234
芊	-11.3234
生結香	-11.3234
㓜	-11.3234
敘	-11.3234
淇澳	-11.3235
櫛	-11.3235
倅	-11.3235
鮧	-11.3235
搜神記	-11.3235
鏘	-11.3235
廓	-11.3235
王羲之	-11.3235
夲草云	-11.3235
俛	-11.3236
饕	-11.3236
菼	-11.3236
出門	-11.3236
涇	-11.3236
中有細子	-11.3236
常棣	-11.3237
問其故	-11.3238
聚八仙	-11.3238
鰣	-11.3238
御定佩文齋廣羣芳譜卷六十	-11.3238
巴蜀	-11.3238
林逋	-11.3239
薯蕷	-11.3239
塼	-11.3239
睹	-11.3239
拂拭	-11.3239
番禺	-11.324
絳紗	-11.324
旄	-11.3241
洛浦	-11.3241
菩薩	-11.3241
玉版	-11.3242
幣	-11.3242
孔雀	-11.3243
鰱	-11.3244
螃蟹	-11.3244
採掇	-11.3246
太平興國	-11.3247
百嵗	-11.3247
蘭芷	-11.3248
蟛蜞	-11.3249
麝香少許	-11.3249
前漢書	-11.325
西掖	-11.325
隙地	-11.3251
菱角	-11.3251
一畨	-11.3251
蕭索	-11.3252
建康	-11.3253
吐出	-11.3255
紛披	-11.3255
岕茶	-11.3255
江淹	-11.3256
将軍	-11.3257
蘄州	-11.3259
蜂兒	-11.326
相似但	-11.326
盈把	-11.3264
分付	-11.3265
韶州	-11.3265
傾倒	-11.3265
厚朴	-11.3267
斜倚	-11.3267
真宰	-11.3269
堅緻	-11.3269
去滓	-11.327
麥秋	-11.327
經旬	-11.3271
石罅	-11.3271
雲鬟	-11.3273
生薑汁	-11.3276
之暇	-11.3277
給事	-11.3278
憶昔	-11.3279
下品	-11.328
稚子	-11.3281
品格	-11.3281
炎帝	-11.3281
漁書	-11.3281
小説	-11.3282
丹丘	-11.3282
滴瀝	-11.3283
可代	-11.3288
墻隂	-11.3289
耐老	-11.329
溪橋	-11.3291
稍稍	-11.3294
喬木	-11.3296
二十八	-11.3299
南浦	-11.3301
吳郡	-11.3303
尊前	-11.3303
鮮鮮	-11.3306
老農	-11.3315
安國	-11.3318
泉州	-11.3318
垂隂	-11.3321
最是	-11.3321
筍譜	-11.3323
蒙山	-11.3324
東皇	-11.3324
醉鄉	-11.3325
勿使	-11.3333
仙翁	-11.3335
珠樹	-11.3339
草花譜	-11.334
頂上	-11.3341
贈我	-11.3343
沈譜	-11.3344
當軒	-11.3344
蘇合	-11.3345
何湏	-11.3346
宋坑	-11.3346
十餘丈	-11.3346
寄語	-11.3348
水腫	-11.3349
莫惜	-11.3349
相催	-11.3351
麥秀	-11.3352
閒居	-11.3353
北史	-11.3353
長三尺	-11.3357
十歩	-11.3358
錦囊	-11.3359
炎方	-11.336
一名鹿	-11.3361
和羮	-11.3365
長二尺	-11.3366
四川	-11.3369
雞冠花	-11.3387
三月開花	-11.3392
畫松	-11.3392
真定	-11.3396
洗去	-11.3397
髙樓	-11.3404
五湖	-11.3404
張遇	-11.3405
嫩緑	-11.3405
朱門	-11.3411
宗即位	-11.3412
芥子	-11.3426
雙頭	-11.3426
最難	-11.3428
是嵗	-11.3429
便可	-11.3429
檀香一兩	-11.3429
相伴	-11.3429
大塊	-11.3434
烏梅	-11.3437
金錢花	-11.344
一名鬼	-11.3441
後苑	-11.3442
粟米	-11.3444
嘉瑞	-11.3444
三株	-11.3446
猪肉	-11.3449
今詳	-11.3451
衣冠	-11.3452
氣候	-11.3455
棠梨	-11.3471
池邊	-11.3475
更佳	-11.3485
廣平	-11.3493
甘平無毒	-11.3496
曉來	-11.3496
鈐寳二曰乾隆	-11.3498
未免	-11.3499
十五年	-11.3505
仙靈	-11.3506
五藏	-11.3513
常服	-11.3516
多用之	-11.3517
桐木	-11.3522
四五寸	-11.3532
紅萼	-11.3532
玉環	-11.3535
二十六	-11.3536
以刀	-11.3537
橘録	-11.354
三四寸	-11.3541
不假	-11.3542
木奴	-11.3544
數竿	-11.3545
香毬	-11.3546
獨揺	-11.3555
遣人	-11.3555
一名烏	-11.3559
季秋	-11.3578
一穗	-11.3582
書畫	-11.3588
王瓜	-11.3593
御定佩文齋廣羣芳譜	-11.3595
朱夏	-11.3597
一百五	-11.3601
有木名	-11.3602
玉樓	-11.3607
不乏	-11.3607
春暮	-11.3608
菊叢	-11.361
雨洗	-11.3625
石室	-11.3626
方士	-11.3628
蜀郡	-11.3633
相隨	-11.364
煑茶	-11.3644
山石榴	-11.3645
正圓	-11.3647
必須	-11.3649
錢起	-11.365
莫道	-11.3665
金丸	-11.3667
皮肉	-11.3675
之佳者	-11.3682
千顆	-11.3682
相比	-11.3687
八月采	-11.3696
墻頭	-11.3698
俟其	-11.3703
紳	-11.3718
河西	-11.3722
隠起	-11.3735
水邉	-11.3735
甚盛	-11.3739
男女	-11.3742
芳華	-11.3748
社前	-11.3749
舊譜	-11.3767
錦城	-11.3768
左思蜀都賦	-11.378
戎州	-11.3781
􁑭	-11.3782
椑	-11.3783
頳	-11.3795
覃	-11.3795
溫庭筠	-11.3795
蓑	-11.3796
方盛	-11.3796
篚	-11.3798
樺	-11.38
萞麻	-11.3801
􁐓	-11.3802
鼐	-11.3802
㽔	-11.3803
塹	-11.3804
窑	-11.3804
有小毒	-11.3804
疥癬	-11.3804
㹠	-11.3804
上方側面	-11.3805
嫦娥	-11.3805
廿	-11.3805
渡江	-11.3805
雚	-11.3805
蓴羮	-11.3805
哈昔泥	-11.3806
遯	-11.3806
鸎	-11.3806
笈	-11.3806
蕖	-11.3806
牙硝	-11.3806
曛	-11.3807
䏻	-11.3807
癩	-11.3807
磨礲	-11.3807
都梁香	-11.3807
㢘	-11.3807
贅	-11.3807
譜錄類	-11.3808
溲	-11.3808
楚屈原離騷	-11.3808
猜	-11.3808
羣芳譜	-11.3808
萸	-11.3808
幡	-11.3809
舅	-11.3809
拊	-11.3809
技	-11.381
撤	-11.381
罄	-11.381
桞宗元	-11.3811
剌	-11.3811
嘔吐	-11.3811
老學庵筆記	-11.3811
莪	-11.3811
瀰	-11.3811
迅	-11.3811
詮	-11.3811
㸃絳唇	-11.3812
髭	-11.3812
韋荘	-11.3812
忝	-11.3812
嗇	-11.3813
皁角	-11.3813
八稜	-11.3813
蓯	-11.3813
惬	-11.3813
癎	-11.3813
硃砂	-11.3813
弔	-11.3814
眸	-11.3814
暘	-11.3814
轍	-11.3814
縮砂	-11.3814
開細花	-11.3814
茅茨	-11.3815
氣味苦平無毒治	-11.3815
罽	-11.3815
韞	-11.3815
皎皎	-11.3815
崖蜜	-11.3816
蜕	-11.3816
李孝光	-11.3816
蝠	-11.3816
博山爐	-11.3817
性堅	-11.3817
宋史五行志	-11.3817
愆	-11.3817
滄浪	-11.3817
庻	-11.3817
球	-11.3818
都尉	-11.3818
涌	-11.3818
逅	-11.3819
莭	-11.382
戾	-11.382
董其昌	-11.382
耙	-11.382
爻	-11.382
稊	-11.382
兀	-11.3821
斑駁	-11.3821
柔韌	-11.3821
枝柯	-11.3821
祉	-11.3822
濕痺	-11.3822
五色線	-11.3822
風俗通	-11.3823
匣葢	-11.3823
淳熙	-11.3823
曩	-11.3823
瀛洲	-11.3823
續茶經	-11.3823
羽翼	-11.3824
瘕	-11.3824
燒如常法	-11.3824
薏	-11.3824
毘	-11.3825
杜宇	-11.3825
𨼆	-11.3825
蓬莱	-11.3825
綏	-11.3825
荆楚嵗時記	-11.3825
李商隱	-11.3826
湄	-11.3826
纖纖	-11.3826
三洞珠囊	-11.3826
甆盒	-11.3826
拌匀	-11.3828
姑蘇	-11.3828
貿	-11.3828
蓊鬱	-11.3829
微凹	-11.3829
孩兒菊	-11.3829
顆顆	-11.3829
庭筠	-11.383
鰼	-11.3834
繽紛	-11.3834
張蠙	-11.3834
活眼	-11.3834
謠	-11.3834
浮槎	-11.3835
七錢半	-11.3835
婆律	-11.3835
羌活	-11.3837
徑三寸	-11.3837
羊蹄	-11.3839
梁棟	-11.3839
徐熙	-11.3839
冝	-11.3839
𤣥宗	-11.3839
大厦	-11.384
莫知其	-11.384
瑤臺	-11.384
宋蔡襄	-11.384
氷肌	-11.3841
瑩潔	-11.3841
湘妃	-11.3841
彛	-11.3842
通判	-11.3842
杜陵	-11.3843
再拜	-11.3843
百和香	-11.3845
突起	-11.3845
盤屈	-11.3847
陰乾	-11.3848
鸞鳳	-11.3849
單瓣	-11.3849
牛膠	-11.385
青瑣	-11.3851
庾嶺	-11.3852
永叔	-11.3853
數百里	-11.3853
姓氏	-11.3855
凌冬	-11.3856
衆卉	-11.3857
驛使	-11.3857
父母	-11.3859
麴塵	-11.386
歳貢	-11.386
扶持	-11.3863
蕭疎	-11.3863
不易得	-11.3864
燥濕	-11.3864
隔宿	-11.3867
荆楚	-11.3868
羅敷	-11.387
放翁	-11.387
肌肉	-11.387
荆州記	-11.3874
漸漸	-11.3875
日烘	-11.3877
去毛	-11.3878
紫茸	-11.3879
銀器	-11.3882
農事	-11.3882
麩炭	-11.3882
池館	-11.3884
欽定四庫全書香乗卷	-11.3884
至八月	-11.3884
津液	-11.3886
便覺	-11.3886
酒酣	-11.3887
數千里	-11.3887
荀子	-11.3887
春衫	-11.3889
圖經云	-11.3891
洛陽牡丹	-11.3893
折二錢	-11.3893
服餌	-11.3894
石延年	-11.3895
長數寸	-11.3895
滴露	-11.3896
肺氣	-11.3898
竹籬	-11.39
只愁	-11.39
萬朶	-11.3903
筆管	-11.3903
數倍	-11.3907
濕熱	-11.3908
餘芳	-11.3908
活火	-11.3909
夢覺	-11.3915
旬日	-11.3916
一二丈	-11.3916
况復	-11.3918
喚作	-11.3919
種藝	-11.3919
供養	-11.3919
如其言	-11.392
苑中	-11.392
願君	-11.392
内鐫	-11.3921
佳客	-11.3921
者尤佳	-11.3922
含章	-11.3922
稜稜	-11.3922
浣花	-11.3923
好顔色	-11.3927
匠石	-11.3927
仙茅	-11.393
萬年枝	-11.3931
驟雨	-11.3931
李紳	-11.3931
江東人	-11.3933
嘉蓮	-11.3933
二妃	-11.3933
茶甌	-11.3936
試新	-11.394
無賴	-11.3947
仰視	-11.3948
詔曰	-11.3951
不才	-11.3951
而扁	-11.3953
京洛	-11.3953
隔年	-11.3955
委地	-11.3956
長一丈	-11.3956
百榖	-11.3957
牛皮	-11.3958
夏熟	-11.3958
夀陽	-11.3959
素質	-11.3959
為席	-11.3961
急雨	-11.3963
迥出	-11.3964
最愛	-11.3966
我皇	-11.3967
帝女	-11.3967
暑氣	-11.3968
平章	-11.3973
絶艶	-11.3978
短小	-11.3987
芝蘭	-11.3993
兩岸	-11.3993
幽叢	-11.3996
火焙	-11.3997
雲腴	-11.3998
今人以	-11.3998
陶家	-11.4003
眀月	-11.4005
色香味	-11.4009
洗盡	-11.401
影落	-11.4011
只應	-11.4012
竒怪	-11.4012
魏書	-11.4014
六尺	-11.4014
慎勿	-11.4015
咽喉	-11.4016
大蒜	-11.4019
竹軒	-11.4024
凝露	-11.4024
巖下	-11.4027
十倍	-11.4029
龍孫	-11.4031
眼看	-11.4036
瘡疥	-11.4038
玉肌	-11.4045
榮落	-11.4048
卉木	-11.4048
相依	-11.4054
馬齒	-11.4064
成塊	-11.4064
數㸃	-11.4067
公卿	-11.4072
經冬	-11.4072
凝霜	-11.4072
疎疎	-11.4084
縣南	-11.4085
詳其	-11.4086
一様	-11.4088
春雷	-11.4089
一樽	-11.4101
作畦	-11.4107
張氏	-11.4108
賦詠	-11.4114
傷根	-11.412
動揺	-11.4123
天教	-11.4124
省中	-11.4129
誰將	-11.4132
特地	-11.4138
洞天	-11.4146
紫荆	-11.4154
天聖	-11.4156
昔在	-11.4157
昔日	-11.4163
墨工	-11.4182
豈能	-11.4199
為上時	-11.4201
二十二	-11.4209
孝武	-11.4211
之攸	-11.4215
穀雨	-11.422
堪入藥	-11.4227
五月采	-11.4228
十餘里	-11.4231
僧院	-11.4231
余所	-11.4251
流落	-11.4255
無私	-11.4259
三丈	-11.4261
受命	-11.4268
鑴	-11.4281
荅曰	-11.4286
微苦	-11.4319
學道	-11.4324
艾葉	-11.4336
水澆之	-11.4351
山薑	-11.4353
御定佩文齋廣羣芳譜卷十	-11.4361
郡守	-11.4365
初試	-11.4369
獨占	-11.4369
晴明	-11.437
枯枝	-11.4386
諺	-11.4388
火炙	-11.4394
以報	-11.4396
褒	-11.4401
太液	-11.4402
宼	-11.4413
鎚	-11.4416
堰	-11.4417
剡	-11.4418
點	-11.4418
陛	-11.442
琛	-11.4422
嵌空	-11.4423
麝臍	-11.4424
嵇康	-11.4425
藹藹	-11.4425
禮記内則	-11.4426
氣味辛温無毒	-11.4428
玉芝	-11.4428
嫣	-11.4428
性熱	-11.4428
䋲	-11.4428
蠢	-11.4428
南齊書	-11.4428
荒蕪	-11.4429
忤	-11.4429
繅	-11.4429
咮	-11.4429
鵶	-11.4429
撓	-11.443
瘍	-11.443
衿	-11.443
肋	-11.4431
聾	-11.4431
睇	-11.4432
遨	-11.4432
司馬相如	-11.4432
伶	-11.4433
紵	-11.4433
瓦礫	-11.4433
謔	-11.4433
撏	-11.4434
整頓	-11.4434
岀	-11.4435
味淡	-11.4435
淸	-11.4435
檟	-11.4435
巽	-11.4436
蹲鴟	-11.4436
莱	-11.4437
騫	-11.4437
丫	-11.4438
璚	-11.4438
媛	-11.4438
滂	-11.4438
愴	-11.4438
香乘卷	-11.4439
萆	-11.4439
耿耿	-11.4439
談苑	-11.4439
閻	-11.4439
蝎	-11.4439
匣盖鐫御題銘與硯同	-11.4439
驩	-11.4439
彎	-11.4439
溶	-11.4439
海藥本草	-11.444
册	-11.4441
衂	-11.4441
飫	-11.4441
鸜鵒眼	-11.4441
摩挲	-11.4441
郵	-11.4441
涴	-11.4442
嘘	-11.4442
右為末煉蜜	-11.4442
它	-11.4442
櫳	-11.4442
雷電	-11.4442
晾	-11.4442
煜	-11.4443
金鑾	-11.4443
高二三尺	-11.4443
腰脚	-11.4443
寃	-11.4443
搭	-11.4443
嬰兒	-11.4444
泗	-11.4444
小平錢	-11.4444
誘	-11.4444
闘	-11.4444
宕	-11.4444
湍	-11.4444
匿	-11.4445
湏臾	-11.4445
牝	-11.4445
凋零	-11.4445
戍	-11.4446
瞿麥	-11.4446
叫	-11.4446
籌	-11.4446
衷	-11.4447
檄	-11.4447
聿	-11.4447
衒	-11.4447
救荒	-11.4447
唐彦謙	-11.4448
七八寸	-11.4448
採蓮曲	-11.4448
畢竟	-11.4448
詡	-11.4448
𦙍	-11.4448
髙似孫	-11.4448
五行志	-11.4448
謳	-11.4448
藁	-11.4449
苾	-11.4449
誡	-11.445
低昂	-11.445
吳都賦	-11.445
謡	-11.445
六分許	-11.445
簾櫳	-11.4451
太后	-11.4451
禧	-11.4451
撐	-11.4452
三百六十	-11.4452
骸	-11.4452
工部	-11.4453
八九尺	-11.4453
鯿	-11.4453
綿綿	-11.4454
渙	-11.4454
儷	-11.4454
唐元稹	-11.4454
文房四譜	-11.4454
蹏	-11.4455
出波斯國	-11.4456
寒水石	-11.4456
壻	-11.4456
俸	-11.4457
璀璨	-11.4457
欽定四庫全書錢録卷	-11.4457
凌晨	-11.4457
採菱	-11.4457
沓	-11.4458
歘	-11.4458
肥瘠	-11.4458
味甘酸	-11.4458
鮠	-11.4459
諤	-11.446
鱒	-11.4461
白礬	-11.4461
螖	-11.4461
蘑菰	-11.4462
養魚經	-11.4462
消痰	-11.4463
炊飯	-11.4463
百斛	-11.4465
簇簇	-11.4465
唐皮日休	-11.4466
招魂	-11.4468
良辰	-11.4468
無恙	-11.4469
心腹痛	-11.447
阿魏	-11.4471
漫漫	-11.4472
宋王十朋	-11.4475
淒凉	-11.4476
光景	-11.4477
鷓鴣天	-11.4477
侍兒	-11.4477
靖節	-11.4477
麻姑	-11.4477
虞集	-11.4478
髙尺餘	-11.4479
紫赤色	-11.448
折楊柳	-11.4482
八尺	-11.4482
雕刻	-11.4483
屈曲	-11.4484
司農	-11.4485
凝脂	-11.449
相類但	-11.449
氣味甘平無毒	-11.4492
療風	-11.4493
甜瓜	-11.4495
織女	-11.4495
恰似	-11.4496
良材	-11.4502
故以名	-11.4503
湯餅	-11.4504
牛角	-11.4504
潯陽	-11.4505
弱質	-11.4508
淑氣	-11.4508
十有二	-11.4511
遲暮	-11.4512
唐崔	-11.4514
絶壁	-11.4515
精舍	-11.4516
淺碧	-11.452
低垂	-11.4521
手把	-11.4522
太液池	-11.4522
雞骨	-11.4524
紙裹	-11.4526
洛神	-11.4526
湯調	-11.4526
開紫花	-11.4527
司空	-11.4527
咸平	-11.4528
瓊英	-11.453
佳麗	-11.4531
管城	-11.4531
縷金	-11.4532
巫山	-11.4534
男子	-11.4536
走馬	-11.4538
繁茂	-11.4539
嵗暮	-11.4539
銀臺	-11.4543
新唐書	-11.4543
南京	-11.4543
女郎	-11.4544
繁星	-11.455
御愛	-11.4551
破血	-11.4551
離宫	-11.456
長寸許	-11.4563
折傷	-11.4565
二尺許	-11.4566
来禽	-11.4566
氷霜	-11.4567
玉妃	-11.4568
儼如	-11.4568
蠶事	-11.457
由來	-11.4571
朱橘	-11.4576
淨洗	-11.4578
少陵	-11.4582
絲絲	-11.4582
耐乆	-11.4582
醒酒	-11.4582
飛瓊	-11.4585
三眠	-11.4589
諸毒	-11.4594
洗妝	-11.4594
猶堪	-11.4597
芳姿	-11.4601
冷艶	-11.4602
汝南	-11.4608
掃地	-11.4608
歌吹	-11.461
陸費墀欽定四庫全書	-11.4612
也用以	-11.4614
西川	-11.4615
梓樹	-11.4616
終嵗	-11.4621
箬葉	-11.4621
光武	-11.4624
研末	-11.4627
進御	-11.463
河内	-11.463
何曾	-11.463
卿雲	-11.464
宿露	-11.4648
頭尾	-11.4651
覆土	-11.4657
甘羙	-11.4659
玉篇	-11.466
大旱	-11.466
不羡	-11.4667
紅葩	-11.4667
洛下	-11.4672
半邊	-11.4673
舊製	-11.4678
苦參	-11.4685
况是	-11.47
十二年	-11.4702
等物	-11.4703
黄鶯	-11.4704
萬卷	-11.4706
西域記	-11.4709
甘蕉	-11.4716
菱花	-11.4719
方寸	-11.4737
清越	-11.474
二十里	-11.4741
愁殺	-11.4745
裛露	-11.4748
白榆	-11.4771
不踰	-11.478
四月開花	-11.4794
補腎	-11.4815
南岳	-11.4817
色深紅	-11.4817
川谷	-11.4819
不怕	-11.4821
晉安	-11.4832
惜哉	-11.4841
蜀錦	-11.4873
錢另研	-11.492
鶯聲	-11.4928
陸費墀	-11.4934
微炒	-11.496
隠居	-11.4967
良工	-11.4977
楝	-11.4989
叢叢	-11.4989
雨晴	-11.5005
四十里	-11.5012
徳宗	-11.5026
瓦盆	-11.5036
神芝	-11.5037
李時珍	-11.5038
蘇恭	-11.5053
為茹	-11.5078
厦	-11.5081
洞冥記	-11.5081
磈	-11.5083
濾去滓	-11.5084
㗋	-11.5085
墾	-11.5088
芫	-11.5089
棫	-11.5089
圅	-11.5089
漢司馬相如上林賦	-11.5089
周禮天官	-11.509
磵	-11.5091
佗	-11.5092
宋劉子翬	-11.5093
朝士	-11.5093
宋邵雍	-11.5094
穏	-11.5094
洩痢	-11.5094
魅	-11.5095
籞	-11.5096
蒟	-11.5098
稃	-11.5098
昉	-11.5099
儆	-11.5099
馮琦	-11.5099
○	-11.5099
肝膽	-11.51
杵臼	-11.51
黄太史詩	-11.51
泝	-11.51
鷃	-11.51
秈	-11.51
曰朕	-11.51
御衣黄	-11.5101
一首楷書	-11.5101
淳熈	-11.5101
縝	-11.5102
明楊基	-11.5102
葶藶	-11.5102
李嶠	-11.5102
王象晉	-11.5102
唐王勃	-11.5103
的的	-11.5103
垂絲海棠	-11.5103
潺	-11.5103
狗脊	-11.5104
癥瘕	-11.5104
鯈	-11.5104
埏	-11.5104
祛	-11.5104
倪瓚	-11.5104
凄凄	-11.5104
譚	-11.5105
節度使	-11.5105
低昻	-11.5105
鬲	-11.5105
肻	-11.5105
荃	-11.5106
舘	-11.5106
襪	-11.5106
曳	-11.5106
優劣	-11.5106
笄	-11.5106
沱	-11.5107
厴	-11.5107
慳	-11.5107
陁	-11.5107
四民月令	-11.5108
烰炭	-11.5108
薙	-11.5108
佃	-11.5108
斤斧	-11.5108
濓	-11.5108
塜	-11.5108
顧瑛	-11.5108
胸膈	-11.5108
新汲水	-11.5108
宋錢惟演	-11.5109
瀕	-11.5109
故以為名	-11.5109
三輔黄圖	-11.5109
吝	-11.5109
壌	-11.5109
屛	-11.5109
杉木炭	-11.5109
臓	-11.5109
扣之無聲	-11.5109
殞	-11.5109
晃	-11.5109
䱐	-11.5109
二字𨽻書	-11.511
劃	-11.511
誚	-11.511
岑寂	-11.511
旨	-11.511
榼	-11.511
浩蕩	-11.511
西溪叢語	-11.511
湔	-11.5111
癢	-11.5111
菑	-11.5111
臛	-11.5111
淘淨	-11.5111
兩兩相對	-11.5112
蓽	-11.5112
閩部疏	-11.5112
樾	-11.5112
竽	-11.5112
蕕	-11.5113
埴	-11.5113
瀆	-11.5113
梁庾肩吾	-11.5113
狄	-11.5113
通寳大錢	-11.5113
鴨卵	-11.5113
手自栽	-11.5114
偈	-11.5114
拚	-11.5114
篸	-11.5114
薺苨	-11.5115
巗	-11.5115
焜	-11.5115
箧	-11.5115
闍	-11.5115
晒	-11.5115
翕	-11.5116
辜負	-11.5116
踪	-11.5116
闡	-11.5116
賞心樂事	-11.5116
据	-11.5117
泠泠	-11.5117
耻	-11.5117
凢	-11.5117
儲光羲	-11.5118
瑩徹	-11.5118
陷	-11.5118
楞嚴經	-11.5119
明文徴明	-11.5119
唐張九齡	-11.5119
嵇	-11.5119
烏賊	-11.5119
蟚	-11.5119
暾	-11.512
江瑶柱	-11.512
酡	-11.5121
觕	-11.5121
馥郁	-11.5121
笑靨	-11.5121
閩粤	-11.5121
沂	-11.5122
顛狂	-11.5122
熠	-11.5123
黃白色	-11.5123
鞓紅	-11.5123
蛇牀	-11.5124
啼鶯	-11.5125
頻澆	-11.5125
想像	-11.5125
佑	-11.5126
罟	-11.5126
並𨽻書	-11.5127
魟	-11.5127
唐張籍	-11.5128
琰	-11.5129
翦綵	-11.5129
舞腰	-11.5129
有白毛	-11.5129
蓴絲	-11.5131
狀元紅	-11.5131
酉陽	-11.5131
澧	-11.5131
煑粥	-11.5131
馬鞭	-11.5132
五加皮	-11.5133
栩	-11.5133
管絃	-11.5134
封禪	-11.5135
占候	-11.5135
長三四寸	-11.5135
原隰	-11.5135
鱗鱗	-11.5135
隱逸	-11.5135
喚起	-11.5136
肌理	-11.5136
忠州	-11.5137
馬臻	-11.5137
葛洪	-11.5138
偃蓋	-11.5139
玉樓春	-11.514
荽	-11.514
漁書云	-11.514
紫陌	-11.5142
聖賢	-11.5142
柴桑	-11.5142
食之令人	-11.5144
獨擅	-11.5145
乗熱	-11.5145
嫩苖	-11.5145
芡實	-11.5145
鹽鐵	-11.5146
廬陵	-11.5148
筆談	-11.5149
蜂房	-11.5149
建寧	-11.5151
杞菊	-11.5153
牛舌	-11.5154
培植	-11.5155
服藥	-11.5155
乹	-11.5156
施朱	-11.5157
孤標	-11.5158
亭午	-11.5161
粲然	-11.5162
汶水	-11.5162
世界	-11.5163
佳茗	-11.5163
修榦	-11.5166
燕尾	-11.5166
右為末入	-11.5167
絲綸	-11.5168
倒影	-11.5169
為誰開	-11.517
長數尺	-11.517
羊角	-11.517
揺動	-11.5171
孺子	-11.5171
承晏	-11.5173
何遜	-11.5174
曉妝	-11.5177
咸陽	-11.5179
江妃	-11.5179
髙數尺	-11.518
桐油	-11.518
磁瓶	-11.518
脂粉	-11.5182
漁家	-11.5182
羅綺	-11.5183
嗟乎	-11.5185
沈立	-11.5188
堤上	-11.5193
最忌	-11.5195
河泥	-11.5195
除熱	-11.5197
滿架	-11.5199
鄰家	-11.5199
官舍	-11.5204
南湖	-11.5208
𥙷中益氣羊	-11.5212
最妙	-11.5213
柿葉	-11.5214
郎官	-11.5216
四銖	-11.5217
紀聞	-11.523
刻畫	-11.5236
白鷺	-11.5239
公擇	-11.524
過了	-11.524
南壁	-11.5241
杏園	-11.5242
丹霞	-11.5247
海鏡	-11.5249
烟霞	-11.525
山谷間	-11.5254
難尋	-11.5258
深紅色	-11.526
齋前	-11.5268
堅硬	-11.5268
佛頭	-11.5269
光滑	-11.5272
波羅	-11.5277
院落	-11.5279
感物	-11.5282
生海中	-11.5283
傷神	-11.5284
古雅	-11.5284
嵗晩	-11.5287
青鸞	-11.5287
八足	-11.5288
青蘋	-11.5291
心痛	-11.5291
甘瓜	-11.5294
候湯	-11.5298
化為石	-11.5304
襄州	-11.5306
成堆	-11.5327
太極	-11.5329
凡草木	-11.5341
七十二	-11.5354
四十九	-11.5356
蜀州	-11.5357
曰某	-11.536
甑蒸	-11.5364
鹽藏	-11.5365
猩猩	-11.5369
國獻	-11.5375
形體	-11.5405
八月採	-11.5414
阿誰	-11.5456
有草名	-11.5461
蔗漿	-11.5462
多食令人	-11.5463
變易	-11.5471
攀枝	-11.5487
腎氣	-11.5502
欽定西清硯譜卷	-11.5508
可入藥	-11.5519
不蛀	-11.5523
楚宫	-11.5533
粉團	-11.5534
呼童	-11.5539
倚欄	-11.5555
鐫御題詩一首	-11.5574
作粥	-11.5593
近侍	-11.5629
除煩	-11.5654
見花譜	-11.5663
味甘平無毒主	-11.5738
汶	-11.5774
驪	-11.5781
羅浮山	-11.5783
芘	-11.5791
菓	-11.5792
九寸	-11.5794
癃	-11.5799
耽	-11.58
蘽	-11.5801
瑁	-11.5802
宋徐鉉	-11.5802
生施州	-11.5803
魔	-11.5803
幘	-11.5804
芾	-11.5804
欬逆	-11.5804
左方鐫	-11.5805
寰宇記	-11.5805
簽	-11.5805
櫨	-11.5806
鸜鵒	-11.5806
沚	-11.5807
張栻	-11.5807
迷迭	-11.5808
弆	-11.5808
陕	-11.5808
鑱	-11.5808
痼	-11.5808
壘	-11.5808
名同物異	-11.5809
脇	-11.5809
涪	-11.5809
珏	-11.5809
三栁軒雜識	-11.5809
醎	-11.5809
覯	-11.581
斃	-11.581
軾	-11.581
濆	-11.581
澼	-11.581
辟榖	-11.581
韓駒	-11.581
醑	-11.5811
梁元帝纂要	-11.5811
癧	-11.5811
味辛平無毒	-11.5812
國史補	-11.5812
弇	-11.5812
切作片	-11.5812
寥寥	-11.5812
肴	-11.5812
徐似道	-11.5813
砍	-11.5813
五勞七傷	-11.5813
不以多少	-11.5813
溶溶	-11.5813
硯面正平	-11.5813
逗	-11.5813
突兀	-11.5814
鞏	-11.5814
剏	-11.5814
鱷	-11.5814
奕奕	-11.5814
苫	-11.5814
竚	-11.5815
挟	-11.5815
跌	-11.5815
啾	-11.5815
稭	-11.5815
剩	-11.5815
淬	-11.5815
鯁	-11.5816
陳憲章	-11.5816
囬囬豆子	-11.5816
孝經援神契	-11.5816
丙午	-11.5816
矛	-11.5817
揜	-11.5817
汞	-11.5817
瘞	-11.5817
顫	-11.5817
婺源	-11.5817
椅桐	-11.5818
幌	-11.5818
頹	-11.5818
琱	-11.5818
摯	-11.5818
馭	-11.5818
祓	-11.5818
馬志曰	-11.5818
二字篆書	-11.5818
嚮	-11.5818
明陳憲章	-11.5818
企	-11.5819
櫺	-11.5819
譲	-11.5819
亢	-11.5819
帔	-11.5819
陶宏景曰	-11.5819
壅培	-11.5819
㗖	-11.5819
醲	-11.5819
羊肚	-11.5819
釧	-11.582
懋勤殿	-11.582
反胃	-11.582
颭	-11.582
聫	-11.582
四川志	-11.582
棕	-11.582
利水道	-11.582
脣	-11.5821
斚	-11.5821
繚繞	-11.5821
趙抃	-11.5821
㩦	-11.5821
蘊	-11.5821
刓	-11.5821
癘	-11.5821
蕳	-11.5821
陶泓	-11.5822
控	-11.5822
諌	-11.5822
綢繆	-11.5822
迭	-11.5822
彞	-11.5822
朱淑真	-11.5823
熈寧	-11.5823
鷰	-11.5823
盈掬	-11.5823
韶腦	-11.5823
幔	-11.5823
周禮地官	-11.5823
謝肇淛	-11.5823
恂	-11.5824
殢	-11.5824
褊	-11.5824
稈	-11.5824
腋	-11.5824
金顏香	-11.5824
靡靡	-11.5825
奔走	-11.5825
槍旗	-11.5825
醸	-11.5825
醴泉	-11.5825
窩	-11.5825
轡	-11.5826
昌黎	-11.5826
閬苑	-11.5826
妆	-11.5826
卸	-11.5826
纓絡	-11.5826
胞	-11.5826
暨	-11.5827
梂	-11.5827
蜨	-11.5827
砥	-11.5827
劉攽	-11.5827
蹈	-11.5827
罇	-11.5827
封殖	-11.5827
解酒毒	-11.5827
峨	-11.5827
陂塘	-11.5827
个	-11.5827
姢	-11.5828
吉凶	-11.5828
遏	-11.5828
晉宫閣名	-11.5828
顙	-11.5828
明髙啓	-11.5828
滛	-11.5828
蓓	-11.5828
甲申	-11.5829
疽	-11.5829
彭蜞	-11.5829
荇菜	-11.5829
儋	-11.5829
奄	-11.5829
賫	-11.5829
呂氏春秋	-11.5829
麰	-11.583
咫尺	-11.583
顥	-11.583
鴿	-11.583
歆	-11.5831
皇太子	-11.5831
粽	-11.5831
區區	-11.5831
忭	-11.5831
段成式	-11.5832
禎祥	-11.5832
蛤蜊	-11.5832
戚里	-11.5832
啇	-11.5832
恤	-11.5832
飱	-11.5832
匣底	-11.5832
維摩	-11.5833
轉蓬	-11.5833
豁	-11.5833
孩	-11.5833
宋林逋	-11.5834
蠶飢	-11.5834
雹	-11.5834
料理	-11.5834
藜藿	-11.5834
淇園	-11.5834
怎	-11.5834
瓊液	-11.5835
赩	-11.5835
闥	-11.5835
壬寅	-11.5835
稂	-11.5836
蕭艾	-11.5836
八九寸	-11.5836
蘆葦	-11.5837
蕭森	-11.5837
鏁	-11.5838
鱅	-11.5839
瓊瑶	-11.5839
因以為名	-11.584
范村	-11.584
㕔事	-11.5842
流涎	-11.5842
梁武帝	-11.5842
王褒	-11.5842
牡荆	-11.5842
璋	-11.5843
釐	-11.5843
頓覺	-11.5843
御定佩文齋廣羣芳譜卷二	-11.5843
錢録卷	-11.5844
南粤	-11.5845
莫訝	-11.5845
旋旋	-11.5845
荀令	-11.5846
昇平	-11.5846
詩并序	-11.5846
奚庭珪	-11.5848
彤管	-11.585
窨乾	-11.5852
日一澆	-11.5852
秘閣	-11.5853
瑤池	-11.5853
舞袖	-11.5853
翦裁	-11.5854
切忌	-11.5854
長二三尺	-11.5856
短籬	-11.5856
嘉卉	-11.5857
瓶史	-11.5858
武昌	-11.5858
二曰幾暇怡情曰得佳趣	-11.5858
夾岸	-11.5859
頃刻	-11.5861
浙江	-11.5862
斷魂	-11.5863
川椒	-11.5864
穠李	-11.5867
集賢	-11.5868
年七十	-11.5868
慈竹	-11.5868
各三錢	-11.5869
幾番	-11.587
二百里	-11.587
夜話	-11.5871
牛糞	-11.5871
階庭	-11.5872
兩般	-11.5872
味極甘	-11.5873
敬宗	-11.5874
㕔前	-11.5875
武夷山	-11.5876
楓亭	-11.5877
温室	-11.5881
牛乳	-11.5882
根柢	-11.5884
呼兒	-11.5887
慶厯中	-11.5888
南渡	-11.5889
新篁	-11.5889
合浦	-11.5891
髙一尺	-11.5891
目之為	-11.5891
氷盤	-11.5893
臨軒	-11.5894
淡妝	-11.5895
長嘯	-11.5897
修貢	-11.5897
佳期	-11.5898
京口	-11.5898
玉簮	-11.5899
佳句	-11.59
隴頭	-11.59
西域傳	-11.5901
文選	-11.5902
忽憶	-11.5903
清濁	-11.5904
浙東	-11.5904
滋茂	-11.5908
八角	-11.5908
瓶口	-11.5908
誰把	-11.591
弄影	-11.5913
風濤	-11.5917
下嵓	-11.5917
長四五寸	-11.5918
綠苔	-11.592
古檜	-11.5921
淮海	-11.5926
黑豆	-11.5927
靈龜	-11.5928
四鄰	-11.5929
莫辭	-11.593
髙數丈	-11.5935
徃來	-11.5936
醉倒	-11.5936
但願	-11.5939
土人謂之	-11.5947
滑無毒	-11.5948
柔軟	-11.5948
直榦	-11.5951
三百年	-11.5959
及第	-11.5966
長尺許	-11.5972
今人謂之	-11.598
多寡	-11.5987
莖葉皆	-11.5998
孝宗	-11.601
菖	-11.6012
鳥銜	-11.602
飄飄	-11.6032
書禹貢	-11.6039
鹽醃	-11.6046
朱槿	-11.6067
夜合花	-11.6068
葉尖長	-11.6097
骨髓	-11.6098
消腫	-11.6146
萬縷	-11.616
呉越	-11.617
傲霜	-11.6179
上方側鐫	-11.6181
州皆有之	-11.6181
二十斤	-11.6181
亦不甚	-11.6185
味鹹	-11.6187
微尖	-11.6227
楊柳枝	-11.6238
甘脆	-11.6241
農書	-11.6285
不可多食	-11.6309
青紫色	-11.6329
味甘温無毒	-11.6403
百顆	-11.6456
百八十	-11.6479
𥙷中益氣	-11.6484
風痺	-11.6515
瘡腫	-11.6533
崑	-11.6541
醋浸	-11.6551
錢買	-11.656
獅	-11.6561
俠	-11.6563
言古詩	-11.6567
芃芃	-11.6568
于敏中	-11.6569
适	-11.6572
不計多少	-11.6572
沽	-11.6572
篘	-11.6573
螘	-11.6573
鶗鴂	-11.6573
祿	-11.6574
嶮	-11.6574
餞	-11.6574
樨	-11.6574
亶	-11.6575
葳	-11.6575
㢤	-11.6575
涓涓	-11.6576
頋	-11.6576
蝟	-11.6577
右先將	-11.6578
咨	-11.6578
司空曙	-11.6578
攙	-11.6578
墩	-11.6578
癯	-11.6579
仭	-11.6579
覧	-11.6579
斕斑	-11.658
峴	-11.658
哦	-11.658
漣	-11.6581
徳充符	-11.6581
廩	-11.6582
沖	-11.6582
户牖	-11.6582
芣	-11.6582
茗椀	-11.6582
蜓	-11.6583
鸂	-11.6583
咳	-11.6583
蛻	-11.6583
勑	-11.6584
揣	-11.6584
鰐	-11.6584
交阯	-11.6584
翺	-11.6584
說硯髙六寸	-11.6584
拌和令勻	-11.6585
芭	-11.6585
錬	-11.6585
斾	-11.6585
齒頰	-11.6585
其音如	-11.6585
蝸	-11.6586
任昉	-11.6586
筴	-11.6586
帕	-11.6586
磴	-11.6586
斁	-11.6586
宋楊億	-11.6586
滴滴金	-11.6586
蝗	-11.6586
郭祥正	-11.6586
鉗	-11.6586
参差	-11.6587
念奴嬌	-11.6587
胄	-11.6587
奶	-11.6587
薷	-11.6587
犢	-11.6587
七品三命	-11.6587
馢香	-11.6587
閬	-11.6587
菶	-11.6587
鎭	-11.6587
瀘戎	-11.6587
迂	-11.6587
榔	-11.6588
爇如常法	-11.6588
蠕	-11.6588
耶律楚材	-11.6588
剜	-11.6588
甓	-11.6588
哺	-11.6589
吾儕	-11.6589
姊妹	-11.6589
生下濕地	-11.6589
墨客揮犀	-11.6589
旻	-11.6589
長方式	-11.6589
鷂	-11.6589
叨	-11.6589
驛騎	-11.6589
湫	-11.6589
琯	-11.6589
宼宗奭曰	-11.6589
曾鞏	-11.6589
煞	-11.6589
杳杳	-11.6589
稌	-11.659
笑蘭香	-11.659
畱	-11.659
賀新郎	-11.659
鑰	-11.6591
招隱	-11.6591
奭	-11.6591
照灼	-11.6591
髠	-11.6592
蔭	-11.6592
㽞	-11.6592
无咎	-11.6592
髙一二尺	-11.6592
搦	-11.6592
臞	-11.6592
佺	-11.6593
軼	-11.6593
搥碎	-11.6593
倪	-11.6593
燃燈	-11.6593
真臘國	-11.6593
辜	-11.6593
宋晏殊	-11.6593
漙	-11.6593
逶迤	-11.6593
嫵媚	-11.6593
所在有之	-11.6594
贏得	-11.6594
砑	-11.6594
北户録	-11.6594
㬰	-11.6594
元袁桷	-11.6594
陸璣	-11.6595
駱	-11.6595
萁	-11.6595
瓞	-11.6596
瓔	-11.6596
冄	-11.6596
藜蘆	-11.6596
黄蘗	-11.6596
鼂	-11.6596
密雲龍	-11.6597
攄	-11.6597
俯仰	-11.6597
芝蔴	-11.6597
岑參	-11.6597
闐	-11.6597
五雜組	-11.6597
穫稻	-11.6597
臞仙	-11.6598
李德裕	-11.6598
馬牙硝	-11.6598
麒麟	-11.6598
琦	-11.6598
悠揚	-11.6598
匱	-11.6598
涘	-11.6599
胷	-11.6599
雨航雜録	-11.6599
虺	-11.6599
焯過	-11.6599
菡萏	-11.6599
晡	-11.66
熒熒	-11.66
蛩	-11.66
呪	-11.66
龕	-11.66
採擷	-11.66
芋魁	-11.66
史月表	-11.66
驥	-11.6601
貓	-11.6601
箘	-11.6602
嫋	-11.6602
虐	-11.6602
鯢	-11.6603
枯槁	-11.6603
這	-11.6603
白膠香	-11.6603
䰟	-11.6603
邵堯	-11.6603
彗	-11.6603
豢	-11.6603
紥	-11.6604
澹蕩	-11.6604
埓	-11.6604
虎掌	-11.6604
薛濤	-11.6604
延佇	-11.6604
葛陂	-11.6605
屹	-11.6605
鰕	-11.6605
吴融	-11.6605
昶	-11.6605
絺	-11.6605
弋	-11.6606
毛滂	-11.6606
連翹	-11.6606
搥	-11.6606
牛蒡	-11.6606
讚	-11.6606
日三服	-11.6607
欄檻	-11.6607
冦	-11.6607
蘜	-11.6608
蒭	-11.6608
巧匠	-11.6608
暎	-11.6609
鉛粉	-11.6609
鉉	-11.6609
漁舟	-11.661
衰翁	-11.661
葒	-11.661
華嚴經	-11.6611
孽	-11.6611
鄭域	-11.6612
歐公	-11.6612
犀角	-11.6612
姪	-11.6612
浴罷	-11.6612
刀斧	-11.6612
洞仙歌	-11.6612
生平澤	-11.6613
以竹刀	-11.6613
壺盧	-11.6613
把玩	-11.6614
淤泥	-11.6615
籬落間	-11.6615
清癯	-11.6615
紅蕖	-11.6616
菘菜	-11.6617
雞犬	-11.6618
製甲香	-11.6619
戎葵	-11.662
承恩	-11.6623
銅瓶	-11.6624
濠	-11.6625
啼鳥	-11.6625
延蔓	-11.6626
黒黍	-11.6627
歴歴	-11.6629
嶧陽	-11.663
丹荔	-11.663
錦帳	-11.6633
活眼一	-11.6634
厥包	-11.6634
滄海	-11.6636
錦屏	-11.6637
赤鯉	-11.6638
長一二尺	-11.6639
薑桂	-11.6642
輔國	-11.6643
交州記	-11.6644
太康	-11.6644
江干	-11.6644
柔脆	-11.6645
斫雪	-11.6645
穠華	-11.6646
淡泊	-11.6648
睡足	-11.6649
頃年	-11.6653
栝樓	-11.6653
安排	-11.6653
豆粥	-11.6653
刺桐花	-11.6655
爲末	-11.6656
燦然	-11.6656
築實	-11.6657
滇南	-11.6657
仲宣	-11.6658
雞鳴	-11.666
少頃	-11.666
三百里	-11.6662
王粲	-11.6663
芳馥	-11.6664
嗜好	-11.6664
各三兩	-11.6666
馬肝	-11.6668
𤣥圃	-11.6669
椒房	-11.667
厚一寸二分	-11.6671
建武	-11.6671
城郭	-11.6671
形模	-11.6677
團圓	-11.6677
景福	-11.6679
塗身	-11.668
王莽	-11.6682
娑羅樹	-11.6685
欣欣	-11.6685
充貢	-11.6695
滚湯	-11.6713
旱蓮	-11.672
竒葩	-11.6723
夢想	-11.6772
因以名	-11.6776
盛暑	-11.6778
六七寸	-11.6811
知己	-11.6837
刺桐	-11.6895
百歲	-11.6919
十斛	-11.6927
探梅	-11.6973
粉墻	-11.6977
輕身益氣	-11.6983
左上方	-11.7019
徙倚	-11.7169
𨽻書鈐寶	-11.7189
隠隠	-11.719
淺淺	-11.7242
工巧	-11.7317
慶厯	-11.7339
鷄頭粉	-11.7385
芺	-11.7388
侃	-11.7389
飲膳正要	-11.7391
味甘無毒主	-11.7392
欬	-11.7395
師古曰	-11.7398
鬼臼	-11.7401
元好問	-11.7401
北山酒經	-11.7403
籪	-11.7404
戕	-11.7404
橢	-11.7404
派	-11.7405
檝	-11.7406
庾肩吾	-11.7406
蒼髯	-11.7406
李羣玉	-11.7406
輟耕	-11.7407
檿	-11.7407
騖	-11.7407
畿	-11.7408
㡬暇怡情曰得佳趣	-11.7408
𨫼	-11.7408
崗	-11.7408
金漳蘭譜	-11.7408
培壅	-11.7409
犧	-11.741
娠	-11.741
霤	-11.741
孔平仲	-11.7411
陸樹聲	-11.7411
枌	-11.7411
治中風	-11.7411
珎	-11.7413
可以禦	-11.7413
煤一斤	-11.7413
擀	-11.7413
枰	-11.7414
睡魔	-11.7414
而斗建	-11.7414
淞江	-11.7414
經冬不凋	-11.7414
餑	-11.7414
躭	-11.7414
朅	-11.7414
溯	-11.7415
吁	-11.7415
掉	-11.7415
愔	-11.7415
瘴癘	-11.7415
臯盧	-11.7415
瀑	-11.7415
真誥	-11.7415
掀	-11.7416
皂角	-11.7416
鵷	-11.7416
鉤吻	-11.7416
氣味甘寒無毒	-11.7416
渗	-11.7416
跂	-11.7416
郷	-11.7417
蔽芾	-11.7417
亰	-11.7417
偎	-11.7417
波斯國	-11.7417
笴	-11.7418
采無時	-11.7418
礧	-11.7418
籙	-11.7418
月季花	-11.7418
灼爍	-11.7418
米元章	-11.7418
蹶	-11.7418
乾隆宸翰	-11.7418
沍	-11.7419
譯	-11.7419
廽	-11.742
之辰也	-11.742
鎬	-11.7421
石産土中	-11.7421
俄頃	-11.7421
斑斕	-11.7421
宋澄泥製	-11.7421
葍	-11.7421
賭	-11.7421
勾萌	-11.7421
青城山	-11.7421
諫議	-11.7421
䜴	-11.7422
麁	-11.7422
捲簾	-11.7422
宋文同	-11.7422
雋永	-11.7422
魮	-11.7422
澣	-11.7422
鯔	-11.7422
騏	-11.7423
燿	-11.7423
瞰	-11.7423
兎毫	-11.7423
天寳遺事	-11.7423
滸	-11.7423
粢	-11.7423
蓬瀛	-11.7423
唐書南蠻傳	-11.7423
賡	-11.7424
羇	-11.7424
驚癎	-11.7424
琮	-11.7424
劵	-11.7424
名醫别錄	-11.7424
瑾	-11.7424
唐錢起	-11.7424
縂	-11.7425
習習	-11.7425
廨	-11.7425
插秧	-11.7425
兠	-11.7425
勰	-11.7425
林和靖	-11.7425
瘳	-11.7425
吃	-11.7426
鷗鷺	-11.7426
觚	-11.7426
𢎞農	-11.7426
蒼筤	-11.7426
應劭	-11.7426
廂	-11.7427
薁	-11.7427
縉	-11.7427
嵇含	-11.7427
戊申	-11.7427
吁嗟	-11.7427
右先将	-11.7428
金髙士談	-11.7428
涪陵	-11.7428
酒浸一宿	-11.7428
賞皇十	-11.7428
巴㦸	-11.7428
薅	-11.7428
宋劉敞	-11.7428
凰	-11.7428
齅	-11.7428
扃	-11.7429
葙	-11.7429
蠔	-11.7429
狸	-11.7429
遒	-11.7429
嫰	-11.7429
綜	-11.7429
卬	-11.743
諾	-11.743
故有諸名	-11.743
布濩	-11.743
秔稻	-11.743
屈軼	-11.743
滴乳香	-11.743
洄	-11.743
煩悶	-11.743
禹錫	-11.743
潞	-11.7431
鷸	-11.7431
爐灰	-11.7431
珉	-11.7431
醯	-11.7431
塩醋調和	-11.7431
東觀漢記	-11.7431
漠	-11.7431
汜勝之書	-11.7431
畛	-11.7431
駟	-11.7432
㦯	-11.7432
靛	-11.7432
鍾繇	-11.7432
鬰	-11.7432
百藥煎	-11.7433
凈	-11.7433
徐鉉	-11.7433
春秋運斗樞	-11.7433
花客卿	-11.7433
癲	-11.7433
僉	-11.7434
鄭康成	-11.7434
鮝	-11.7435
羅襪	-11.7435
鶡	-11.7435
菝葜	-11.7435
指佞	-11.7435
鸞鳯	-11.7436
蔥蒨	-11.7436
灝	-11.7436
穤	-11.7436
汨	-11.7436
羅岕	-11.7436
颯颯	-11.7437
羅鄴	-11.7437
陸羽茶經	-11.7438
蘭蓀	-11.7438
宋秦觀	-11.7438
啗	-11.7439
妹	-11.7439
豆腐	-11.744
糞忌	-11.744
千仞	-11.744
辛棄疾	-11.7441
簾幕	-11.7441
竟陵	-11.7441
方寸匕	-11.7442
蒼茫	-11.7442
徂徠	-11.7442
澇	-11.7443
礦	-11.7443
援筆	-11.7443
艾納	-11.7444
朱欒	-11.7444
樹髙丈餘	-11.7445
晉武帝	-11.7445
喂	-11.7445
撿	-11.7445
玉壘	-11.7445
蝶翅	-11.7445
清泠	-11.7446
漢武内傳	-11.7446
誠齋	-11.7446
插鬢	-11.7447
吹簫	-11.7449
翦絨	-11.7449
王冕	-11.745
庶㡬	-11.745
篲	-11.7451
耜	-11.7451
搨	-11.7451
箘簵	-11.7452
宴罷	-11.7452
月開小花	-11.7452
縈繞	-11.7452
驪龍	-11.7453
銀模	-11.7453
甲辰	-11.7454
鯶	-11.7455
司徒	-11.7455
酋	-11.7456
湛露	-11.7457
鄰里	-11.7457
輝映	-11.7457
陌上桑	-11.7458
鰉	-11.7458
車螯	-11.7458
瞻彼	-11.7459
天竺國	-11.7459
炎蒸	-11.746
而已哉	-11.746
江淮間	-11.7461
勾引	-11.7462
庭際	-11.7463
當十錢	-11.7464
吉祥草	-11.7469
稽首	-11.747
佛頭菊	-11.7472
為下時	-11.7473
西湖志	-11.7473
花使令	-11.7474
汲泉	-11.7475
晨霞	-11.7481
滋蔓	-11.7483
商陸	-11.7484
形扁	-11.7485
以一當	-11.7489
桓公	-11.7494
鐵線	-11.7499
五鬛	-11.7532
糖蟹	-11.7599
千竿	-11.7656
橢圓式	-11.7674
二月二日	-11.7706
紅千瓣	-11.7774
丹楓	-11.7786
下方側面	-11.7828
羽儀	-11.7865
一寸七分	-11.809
寛二寸八分	-11.8191
四寸五分	-11.821
柢	-11.8262
杻	-11.8265
橦	-11.8276
蔊	-11.8282
䘖	-11.8298
蠃	-11.83
搔	-11.83
泮	-11.8301
􁂶	-11.8301
蘗	-11.8301
菱芡	-11.8302
唼	-11.8306
法華經	-11.8306
豨薟	-11.8307
名勝志	-11.8307
姙	-11.8307
楯	-11.8308
虎豹	-11.8308
玉帶生	-11.8308
榎	-11.8308
鍤	-11.8309
璽	-11.831
夐	-11.8311
墉	-11.8311
格古要論	-11.8312
泐	-11.8312
五味調和	-11.8312
絛	-11.8312
味苦無毒主	-11.8313
婺	-11.8313
味辛温無毒主	-11.8315
有赤白二種	-11.8315
詩召南	-11.8316
冦宗奭曰	-11.8316
陶侃	-11.8316
蕘	-11.8316
鑾	-11.8317
挐	-11.8317
北壁石	-11.8317
牛妳子	-11.8317
空心食之	-11.8317
崦	-11.8317
楥	-11.8317
隷	-11.8317
飛廉	-11.8317
品茶要録	-11.8318
天南星	-11.8318
鉢内研	-11.8318
梧潯雜佩	-11.8318
團圞	-11.8318
故字從	-11.8319
廣東志	-11.8319
㢲	-11.8319
批	-11.8319
洛陽花木記	-11.8319
厚一寸五分	-11.832
飡	-11.832
旒	-11.832
恧	-11.832
唐觀象硯	-11.832
獠	-11.832
裒	-11.832
曽鞏	-11.8321
右件為細末	-11.8321
季疵	-11.8321
櫪	-11.8321
磁礶	-11.8322
中山經	-11.8322
菉	-11.8322
唐蔆鏡硯	-11.8322
惨	-11.8322
繚	-11.8323
馬祖常	-11.8323
痾	-11.8323
埽	-11.8323
鷟	-11.8323
匣底内鐫	-11.8323
宋澄泥虎符硯	-11.8323
縚	-11.8324
枋	-11.8324
夲草拾遺云	-11.8324
筌	-11.8324
雷霆	-11.8324
碓	-11.8324
藺	-11.8324
邽	-11.8325
艮嶽	-11.8325
鉞	-11.8325
稳	-11.8325
綦	-11.8325
分厚七分	-11.8325
簳	-11.8325
端溪子石	-11.8325
皎潔	-11.8326
舷	-11.8326
疝瘕	-11.8326
綱目云	-11.8326
逋	-11.8327
州郡皆有之	-11.8327
科斗	-11.8327
磧	-11.8327
瓊琚	-11.8327
鹽豉	-11.8328
姮娥	-11.8328
氤氳	-11.8328
䃮	-11.8328
皿	-11.8328
萋	-11.8328
療饑	-11.8328
煅	-11.8328
瞥	-11.8329
伎	-11.8329
楩	-11.8329
棖	-11.8329
纊	-11.8329
躋	-11.8329
絞取汁	-11.8329
鄘	-11.8329
秣	-11.8329
鰒	-11.8329
臠	-11.833
頺	-11.833
訥	-11.833
葡	-11.833
顔氏家訓	-11.833
屎	-11.833
欬逆上氣	-11.833
獬	-11.833
䱡	-11.8331
晉嵇康	-11.8331
黼	-11.8331
童童	-11.8331
説硯髙四寸	-11.8331
鱗皴	-11.8331
破癥	-11.8331
避暑録話	-11.8331
蕩漾	-11.8331
樞宻	-11.8331
忻	-11.8332
捎	-11.8332
𬎼	-11.8332
稿	-11.8332
袒	-11.8332
魏興和甎硯	-11.8332
驪珠	-11.8332
蜘蛛香	-11.8332
纛	-11.8332
仿宋天成風字硯	-11.8332
癥	-11.8332
蔑	-11.8333
宥	-11.8333
槳	-11.8333
匣葢鐫御題銘與硯同	-11.8333
佇立	-11.8334
箇箇	-11.8334
鰲	-11.8334
顧盻	-11.8334
覊	-11.8334
豎	-11.8334
蜿	-11.8334
睢	-11.8334
楷書御製	-11.8334
大戴禮	-11.8334
四品六命	-11.8334
嵬	-11.8334
椵	-11.8334
穆天子傳	-11.8335
絳綃	-11.8335
痞滿	-11.8335
曼陀羅	-11.8335
睠	-11.8335
九齡	-11.8336
兠婁	-11.8336
盈筐	-11.8336
玳	-11.8336
劉克荘	-11.8336
醁	-11.8336
𣲖	-11.8336
䖝	-11.8336
陸鴻漸	-11.8336
氣味苦寒無毒治	-11.8336
曲沼	-11.8336
豨	-11.8337
華而不實	-11.8337
張又新	-11.8337
舄	-11.8337
鰻鱺	-11.8337
文武火	-11.8337
漢官儀	-11.8337
劬	-11.8337
晰	-11.8337
辛卯	-11.8338
捜神記	-11.8338
矚	-11.8338
芬敷	-11.8338
劉孝綽	-11.8338
靚妝	-11.8338
濟源	-11.8338
膽瓶	-11.8338
瞑	-11.8338
韮	-11.8339
山其下多	-11.8339
媪	-11.8339
㫰	-11.8339
劉孝威	-11.8339
嶺表錄異	-11.8339
蜆	-11.8339
魼	-11.8339
賈島	-11.8339
陬	-11.8339
㕓	-11.8339
郝	-11.8339
判官	-11.834
爬	-11.834
婆羅門	-11.834
宛陵	-11.834
陶之屬	-11.834
畚	-11.8341
姹	-11.8341
日未出	-11.8341
鮞	-11.8341
葽	-11.8341
殃	-11.8341
苒苒	-11.8341
鶩	-11.8341
憶昨	-11.8341
皇甫冉	-11.8342
去皮尖	-11.8342
鴽	-11.8342
蘋藻	-11.8342
債	-11.8342
豇豆	-11.8343
廖	-11.8343
璘	-11.8343
煼	-11.8344
蕭颯	-11.8344
吐逆	-11.8344
劉貢父	-11.8344
譌	-11.8345
波瀾	-11.8346
癸辛雜識	-11.8346
詐	-11.8346
祝融	-11.8346
譙	-11.8346
螻蟻	-11.8346
歩障	-11.8346
荔枝殻	-11.8346
苒	-11.8347
駛	-11.8347
蔤	-11.8347
晏元獻	-11.8347
鸚	-11.8347
鑛	-11.8347
湛湛	-11.8347
觥	-11.8347
扶踈	-11.8348
柹	-11.8348
揩	-11.8348
花木考	-11.8348
鯇	-11.8348
紛敷	-11.8348
姨	-11.8348
㬠	-11.8348
柳宗元	-11.8349
甲乙	-11.8349
莆田	-11.8349
閃	-11.8349
悮	-11.835
貧賤	-11.835
囷	-11.835
穬	-11.8351
亳州	-11.8351
暹羅	-11.8352
郁烈	-11.8352
苕溪	-11.8352
聮	-11.8352
菟	-11.8353
侮	-11.8353
門巷	-11.8354
刀圭	-11.8354
豐腴	-11.8354
堅筋骨	-11.8354
貲	-11.8355
淵材	-11.8355
旌節花	-11.8355
宋之問	-11.8355
瑣瑣	-11.8355
欹枕	-11.8356
颸	-11.8356
對曰臣	-11.8357
而有尖	-11.8358
鵝兒	-11.8358
甘藷	-11.8358
虋	-11.836
虇	-11.8361
糟薑	-11.8362
鱘	-11.8363
酘飯	-11.8364
爐烟	-11.8365
龍腦少許	-11.8365
池沼	-11.8366
欹斜	-11.8367
筆札	-11.8367
尚書郎	-11.8368
烏喙	-11.8369
季卿	-11.837
祥符	-11.8372
穠艶	-11.8374
治頭風	-11.8375
盤桓	-11.8375
紫而潤	-11.838
顧烜	-11.8381
鼓鑄	-11.8387
彤雲	-11.8387
腰肢	-11.8388
瓜虀	-11.8399
耐旱	-11.8402
隋堤	-11.8422
健脾	-11.8439
辛温無毒	-11.8503
肉不可與	-11.8509
槿籬	-11.8558
汲井	-11.8634
開元寺	-11.8656
𨽻書鈐寳二曰乾隆御製	-11.8685
器物之	-11.8766
七枚	-11.8796
蔓生葉	-11.8829
茅簷	-11.8869
苦楝	-11.8875
匣盖鐫御題詩與硯同	-11.9017
御題銘一首楷書鈐寳二曰比徳曰朗潤	-11.9038
捜拌	-11.9042
寸有半	-11.9079
二曰幾暇怡情曰得佳趣御製	-11.9079
饀	-11.9088
說硯髙四寸	-11.9195
麩	-11.9204
香乗卷十	-11.9218
内府舊藏	-11.9269
各切細	-11.9281
勾芒	-11.9301
一原本	-11.9302
蔌	-11.9304
建安十五年	-11.9305
鍜	-11.9307
黽	-11.9308
受墨處正平	-11.9309
韓非子	-11.9309
襞積	-11.931
羊尾子	-11.931
峩峩	-11.9311
埒	-11.9311
楙	-11.9312
􁅳	-11.9312
四字篆書	-11.9312
桋	-11.9313
鎸	-11.9313
防己	-11.9313
曾端伯	-11.9313
顚	-11.9313
贏	-11.9314
汪由敦銘	-11.9315
藨	-11.9315
狩	-11.9315
靭	-11.9315
劄	-11.9316
溱	-11.9317
摽	-11.9317
璀	-11.9317
轉運使	-11.9317
殷璠	-11.9317
簋	-11.9317
利九竅	-11.9317
宋雘村石	-11.9318
粃	-11.9318
味苦寒無毒主	-11.9318
慤	-11.9318
董邦達	-11.9318
槀本	-11.9318
捻作餅子	-11.9319
糭	-11.9319
沬	-11.9319
小苑春望宫池柳色	-11.9319
歉	-11.9319
楞	-11.932
媧	-11.932
檠	-11.932
二字方印一	-11.932
訶黎勒	-11.932
疵	-11.9321
捋	-11.9321
本草衍義	-11.9321
柱各有眼	-11.9321
唐八稜澄泥硯	-11.9321
氲	-11.9321
斬伐	-11.9321
溽	-11.9322
鄊	-11.9322
夾竹桃	-11.9322
鳧	-11.9322
大觀茶論	-11.9322
月花盟主	-11.9323
灞	-11.9323
咱夫蘭	-11.9323
墨鏽深厚	-11.9323
籦	-11.9323
味苦微寒無毒	-11.9323
紇	-11.9323
笵	-11.9324
餒	-11.9324
踴	-11.9324
墨池深廣	-11.9324
枻	-11.9324
繰	-11.9324
馮夷	-11.9324
鱀	-11.9324
瑞雲翔龍	-11.9324
嶮怪	-11.9325
李義山	-11.9325
押	-11.9325
王昌齡	-11.9325
綂	-11.9325
橢圓	-11.9325
劉原父	-11.9325
恪	-11.9325
徐渭	-11.9326
東溪試茶録	-11.9326
綯	-11.9326
王禹偁	-11.9326
謝人送	-11.9326
彫胡	-11.9326
宋謝脁	-11.9326
殺三蟲	-11.9326
白虎通	-11.9327
汴京	-11.9327
通風處	-11.9327
馬齒莧	-11.9327
洧	-11.9327
明項元汴	-11.9327
鐫御題詩與硯同	-11.9328
尅	-11.9328
珊珊	-11.9328
盛京志	-11.9328
左紐	-11.9328
廸	-11.9328
成公綏	-11.9328
揮麈	-11.9329
慄	-11.9329
偓	-11.9329
鶚	-11.9329
郭鈺	-11.933
石龍芮	-11.933
韓詩外傳	-11.933
遑	-11.933
佶	-11.933
纂纂	-11.933
簣	-11.933
舸	-11.933
蜩	-11.933
犂	-11.9331
壬午	-11.9331
炰	-11.9331
欬𠻳	-11.9331
逵	-11.9331
揑	-11.9331
巉	-11.9331
亳	-11.9331
霅	-11.9331
髦	-11.9331
忒	-11.9332
熒煌	-11.9332
掣	-11.9332
續仙傳	-11.9332
媼	-11.9332
秉燭	-11.9332
大中祥符	-11.9332
韓魏公	-11.9332
樞密	-11.9332
鱯	-11.9332
金盞銀臺	-11.9332
豈比夫	-11.9333
稲	-11.9333
破癥瘕	-11.9333
元劉詵	-11.9333
抝	-11.9333
簞	-11.9333
蕃衍	-11.9333
循吏	-11.9333
皂莢	-11.9333
陳氏香譜	-11.9333
大如彈丸	-11.9333
晻	-11.9333
属	-11.9334
渟	-11.9334
琨	-11.9334
腦麝少許	-11.9334
盲	-11.9334
琲	-11.9334
嶧	-11.9334
礶	-11.9335
長二寸許	-11.9335
漢東方朔七	-11.9335
棊	-11.9335
縋	-11.9335
兩頭尖	-11.9335
櫂	-11.9335
猛獸	-11.9335
皚	-11.9335
坻	-11.9335
令人有子	-11.9335
賜近臣	-11.9336
弩	-11.9336
愍	-11.9336
明州黄	-11.9336
金鳯花	-11.9336
拓	-11.9336
禽獸	-11.9336
驄	-11.9336
秦始皇	-11.9336
慈姑	-11.9336
雍陶	-11.9336
四時不凋	-11.9336
鱁	-11.9336
悼	-11.9337
隠逸傳	-11.9337
葉夢得	-11.9337
摻	-11.9337
殽	-11.9338
林景熙	-11.9338
鱔	-11.9338
榱	-11.9338
𦕈	-11.9338
鯷	-11.9338
三餘贅筆	-11.9338
逖	-11.9338
獰	-11.9339
梣	-11.9339
籊	-11.9339
嘔逆	-11.9339
葳㽔	-11.9339
向子諲	-11.9339
琭	-11.9339
碕	-11.934
雲夢之	-11.934
炒葱塩醋調和	-11.934
坌	-11.934
趙嘏	-11.934
陳傅良	-11.934
淆	-11.9341
縉紳	-11.9341
丰茸	-11.9341
歐陽永叔	-11.9341
喟	-11.9341
鋩	-11.9341
抃	-11.9342
笙簧	-11.9342
薜	-11.9342
籖	-11.9342
諦	-11.9342
延春閣	-11.9342
續博物志	-11.9342
不過一二	-11.9342
辨訛	-11.9342
仲尼	-11.9343
龍團勝雪	-11.9343
霹靂	-11.9343
拂手香	-11.9343
盆盎	-11.9343
愿	-11.9344
謝宗可	-11.9344
孌	-11.9344
長九尺	-11.9344
史記貨殖	-11.9344
偹	-11.9344
鐫礲	-11.9345
多伽羅香	-11.9345
縐	-11.9345
寞	-11.9345
渣	-11.9345
湮	-11.9346
庠	-11.9346
郫	-11.9346
彘	-11.9346
㤙	-11.9346
不宜多食	-11.9346
提刑	-11.9347
届	-11.9347
干霄	-11.9348
茋	-11.9348
嘻	-11.9348
贋	-11.9348
浣紗	-11.9348
搔首	-11.9349
赤小豆	-11.9349
䥥	-11.9349
鹿蹄	-11.9349
澌	-11.935
窣	-11.935
華陽國志	-11.935
謗	-11.9351
圉	-11.9351
頎	-11.9351
蠞	-11.9351
芙	-11.9351
元張翥	-11.9352
怠	-11.9353
矞	-11.9353
桀	-11.9353
苯	-11.9354
􁘥	-11.9354
長寸餘	-11.9355
愉	-11.9356
稗史	-11.9357
篙	-11.9358
露未晞	-11.9358
蠘	-11.9358
餓	-11.9359
篻	-11.9359
鼊	-11.9359
開寶本草	-11.9359
両	-11.9359
玉照堂	-11.9359
鎡	-11.936
奉勅	-11.936
纜	-11.936
窈	-11.9362
䱤	-11.9362
耬	-11.9364
瑋	-11.9365
准	-11.9367
輪郭	-11.9367
辛巳	-11.9368
刻流雲	-11.937
茎	-11.937
堅韌	-11.9371
笆	-11.9371
麈尾	-11.9372
孑	-11.9376
簩	-11.9379
剡溪	-11.9381
鮯	-11.9386
匡廬	-11.9396
鐫御題銘一首楷書鈐	-11.94
三月生苗	-11.9431
二曰㡬暇怡情曰得佳趣御製	-11.9469
𨽻書鈐寳二曰比徳曰朗潤	-11.9487
花之冠	-11.9493
兖	-11.9641
倚闌干	-11.9656
麋鹿	-11.9665
菲菲	-11.9686
腫痛	-11.9784
左丞	-11.9814
月采隂乾	-11.9853
凭欄	-11.9909
辛辣	-12.0023
受墨處橢圓	-12.0094
芬郁	-12.0175
苦平無毒	-12.0376
璲	-12.0404
萐莆	-12.0405
潛確類書	-12.0409
宓	-12.041
刄	-12.0412
蕪荑	-12.0413
斲	-12.0416
雲林石譜	-12.0416
誨	-12.0417
疣	-12.0417
豫樟	-12.0417
冉	-12.0417
幾暇怡情	-12.0417
裴廸	-12.0417
梁昭明太子錦	-12.0419
䲛	-12.042
欽定西清硯譜卷十	-12.042
韲	-12.0421
鮬	-12.0421
籓	-12.0421
鰾	-12.0421
瞭	-12.0421
眇	-12.0421
擂	-12.0421
朿	-12.0421
棒	-12.0422
梁國治	-12.0422
絹袋盛	-12.0423
枵	-12.0423
塍	-12.0423
扎	-12.0424
妳	-12.0424
詩周南	-12.0425
宋劉筠	-12.0425
笮	-12.0426
涿	-12.0426
䔲	-12.0426
玦	-12.0426
麈	-12.0427
隨見録	-12.0427
磁罐	-12.0427
郤	-12.0427
憫	-12.0427
两岐	-12.0427
陳江總	-12.0427
浚	-12.0427
得佳趣	-12.0428
鍇	-12.0428
輻	-12.0428
𦍑	-12.0428
黜	-12.0429
膂	-12.0429
缷	-12.0429
鳬茈	-12.0429
春渚紀聞	-12.0429
浡	-12.0429
蜡	-12.0429
馗	-12.0429
蔦	-12.043
廣輿記	-12.043
桁	-12.043
彦周詩話	-12.043
不住手攪	-12.0431
蛸	-12.0431
痊	-12.0431
匣盖外鐫	-12.0431
埋地中	-12.0432
鳯咮	-12.0432
梁詩正銘	-12.0432
兌	-12.0432
塩調和	-12.0432
噤	-12.0432
赤白痢	-12.0432
取濃汁	-12.0433
屨	-12.0433
濂	-12.0433
雩	-12.0433
鯧	-12.0433
礲	-12.0433
仿宋玉兔朝元硯	-12.0433
瓊玖	-12.0434
鬼督郵	-12.0434
俱有剥蝕	-12.0434
記事珠	-12.0434
蓏	-12.0434
賈思勰	-12.0434
犖	-12.0434
篷	-12.0434
與千户侯等	-12.0434
贑	-12.0434
覈	-12.0434
鍑	-12.0434
宻雲龍	-12.0434
鍳	-12.0434
仿漢未央甎海天初月硯	-12.0434
有白茸	-12.0435
杴	-12.0435
竺	-12.0435
和作餅子	-12.0435
匣㡳内鐫乾隆御用四字	-12.0435
圻	-12.0435
甖	-12.0435
氳	-12.0436
明呉寛	-12.0436
青桂香	-12.0436
酎	-12.0436
㝠㝠	-12.0436
杰	-12.0436
楊國忠	-12.0437
􁎐􁎐	-12.0437
慾	-12.0437
農桑通訣	-12.0437
范文正公	-12.0437
雨初晴	-12.0437
檾	-12.0437
瀟瀟	-12.0437
疴	-12.0438
􁗀	-12.0438
㟁	-12.0438
堞	-12.0438
蘼	-12.0438
蟣	-12.0438
漣漪	-12.0438
罾	-12.0438
䱥	-12.0439
舊坑端石	-12.0439
藾	-12.0439
﨑	-12.0439
六品四命	-12.0439
尠	-12.0439
米泔浸	-12.0439
候補主事陸廷燦撰	-12.044
元王惲	-12.044
泖	-12.044
五臺山	-12.044
鄭樵通志	-12.044
王敬美	-12.044
霆	-12.044
簜	-12.044
莩	-12.044
蠒	-12.044
蒯	-12.0441
棬	-12.0441
蚩	-12.0441
麽	-12.0441
渺渺	-12.0441
隸	-12.0441
滄溟	-12.0441
寳一曰乾隆	-12.0441
面青背淡	-12.0441
畬	-12.0442
南齊書祥瑞志	-12.0442
騮	-12.0442
說硯髙三寸	-12.0442
蠏	-12.0442
炤	-12.0442
纚	-12.0443
擒	-12.0443
歜	-12.0443
冢	-12.0443
禮斗威儀	-12.0443
唳	-12.0443
糁	-12.0443
綯紋	-12.0443
踈寮詩	-12.0443
刑部	-12.0444
褫	-12.0444
惶	-12.0444
歐陽文忠	-12.0444
駞	-12.0444
拘攣	-12.0444
滄洲	-12.0444
餔	-12.0444
蒐	-12.0444
懊	-12.0444
捍	-12.0445
壬申	-12.0445
脰	-12.0445
金光明經謂之	-12.0445
絆	-12.0445
蛇虺	-12.0445
松化石	-12.0446
宗景祐三年禮官宗正請每	-12.0446
督郵	-12.0446
劉向九歎	-12.0446
大理府	-12.0446
摺	-12.0446
級	-12.0446
揆	-12.0446
㠶	-12.0446
金萬鈴	-12.0446
笳	-12.0447
紿	-12.0447
裨	-12.0447
䙀	-12.0447
周成王	-12.0447
蘿菔	-12.0447
玉盤盂	-12.0447
嬌嬈	-12.0447
鄱	-12.0447
黼黻	-12.0448
窊	-12.0448
李山甫	-12.0448
宋史禮志	-12.0448
徐致中	-12.0448
宋史藝文志	-12.0448
鸇	-12.0448
嶇	-12.0449
鏃	-12.0449
法和衆妙香	-12.0449
或大或小	-12.0449
戊寅	-12.045
驤	-12.045
搘	-12.045
菴䕡	-12.045
本草圗經曰	-12.045
崕	-12.045
方輿勝覽	-12.045
㶚橋	-12.0451
伏惟陛下	-12.0451
芮	-12.0451
榝	-12.0451
濩	-12.0451
雈	-12.0451
輯	-12.0451
癸酉	-12.0451
蟶	-12.0451
狡	-12.0452
蜚	-12.0452
風寒濕痺	-12.0452
楷書鈐寶一曰	-12.0452
舁	-12.0452
堠	-12.0452
屣	-12.0453
櫓	-12.0453
淛	-12.0453
䱟	-12.0453
瞞	-12.0453
籥	-12.0453
躅	-12.0454
羯鼓	-12.0454
藐	-12.0454
澄懐錄	-12.0454
一類二種	-12.0454
鯋	-12.0454
鴻鵠	-12.0454
一騎紅塵	-12.0454
諡	-12.0455
毎百觔稅銀	-12.0455
清泉白石	-12.0455
唐彦猷	-12.0456
楊巨源	-12.0456
緊	-12.0456
異魚圖贊箋	-12.0456
陶商翁詩	-12.0456
嫓	-12.0456
暵	-12.0456
狙	-12.0456
墨譜法式	-12.0457
楊柳枝詞	-12.0457
鮭	-12.0457
矯矯	-12.0458
縞袂	-12.0458
崔嵬	-12.0458
有細毛	-12.0458
哆	-12.0459
李建勲	-12.0459
纏	-12.0459
韋仲將	-12.046
骰	-12.046
藙	-12.046
塚	-12.046
蔀	-12.046
寨	-12.046
蘠	-12.046
戴叔倫	-12.046
滿江紅	-12.0461
亹亹	-12.0462
羯	-12.0462
黟	-12.0462
祜	-12.0462
襜	-12.0462
薯	-12.0463
塡	-12.0464
􁫣	-12.0464
彭螖	-12.0464
耆舊傳	-12.0464
𧖟豆	-12.0465
陸務觀	-12.0466
遝	-12.0467
肺腑	-12.0467
褒姒	-12.0467
寖	-12.0468
芉	-12.0468
咫	-12.0468
髙觀國	-12.047
蛣	-12.047
刹	-12.0472
葛藟	-12.0472
闍婆	-12.0475
范蠡	-12.0475
雍熙	-12.0476
其詞曰	-12.0477
磐	-12.0477
撃	-12.0477
萑葦	-12.0478
鄴中記	-12.0479
霜天曉	-12.0481
估	-12.0482
纑	-12.0488
椇	-12.0489
郭璞江賦	-12.0493
䰽	-12.0499
匣葢並鐫是詩	-12.0553
月採根	-12.0572
鈐寳二曰㑹心不逺曰徳充符	-12.0659
郁郁	-12.0745
鐫御題詩一首𨽻書鈐寳	-12.0778
上方側鐫御題詩一首楷書鈐寳	-12.1058
一曰朗潤	-12.1142
並鐫是詩𨽻書鈐寳二曰乾隆御製題	-12.1209
右件同熬成湯濾浄	-12.1282
醃一宿	-12.1553
旃	-12.1573
之山有木焉	-12.1582
肢	-12.1609
鹺	-12.1632
趙孟頫	-12.1661
淤	-12.1662
􁥀	-12.1662
沈存中筆談	-12.1668
元方䕫	-12.1668
浹	-12.1668
棐几	-12.1669
苽	-12.167
弧	-12.167
嶰	-12.1671
吼	-12.1671
大如拇指	-12.1671
飀	-12.1672
琉球	-12.1672
惰	-12.1672
甍	-12.1673
田園雜興	-12.1673
罡	-12.1673
五榖之長	-12.1674
張衡南都賦	-12.1674
筤	-12.1674
元許有壬	-12.1674
諼	-12.1674
右方鐫	-12.1674
筅	-12.1674
有大小二種	-12.1675
怖	-12.1675
冬夏常青	-12.1676
洱	-12.1676
詩弼風	-12.1676
饜	-12.1676
嶙峋	-12.1676
弛	-12.1676
鄭氏允端	-12.1677
邯鄲	-12.1677
離几一寸	-12.1677
凑	-12.1677
撇	-12.1678
山家清供	-12.1678
卣	-12.1678
洽聞記	-12.1678
櫸	-12.1678
乙丑	-12.1679
闞	-12.1679
氣味辛平無毒治	-12.1679
椅	-12.1679
沈佺期	-12.1679
右為末煉蜜和勻	-12.168
晉書樂志	-12.168
滔	-12.168
齊東野語	-12.168
郴	-12.168
㰖	-12.168
鏨	-12.1681
璹	-12.1681
悸	-12.1681
畮	-12.1681
悁	-12.1681
淄澠	-12.1681
張祥鳶	-12.1681
卅	-12.1681
璉	-12.1681
碍	-12.1681
􁊨	-12.1681
生熟皆可食	-12.1682
黎峒	-12.1682
右件一同熬成	-12.1682
李珣曰	-12.1682
宋鮑照	-12.1683
右爲細末	-12.1683
紡績	-12.1683
舊澄泥玉堂硯	-12.1683
僧北澗	-12.1683
令人身香	-12.1684
麾	-12.1684
畎	-12.1684
葇	-12.1684
醮	-12.1684
延年益夀	-12.1685
而狹長	-12.1685
靳	-12.1685
瞬	-12.1685
蓐	-12.1685
宋張鎡	-12.1685
杜子美	-12.1685
町	-12.1686
開小黄花	-12.1686
翕赩	-12.1686
喊	-12.1686
恢	-12.1686
萬鈴菊	-12.1686
鎌	-12.1687
淖	-12.1687
彿	-12.1687
令人肥健	-12.1687
遵生八牋	-12.1687
蘞	-12.1687
飰	-12.1687
佯	-12.1687
渌	-12.1687
脞	-12.1687
在處有之	-12.1687
坳	-12.1687
杷	-12.1688
隋煬帝	-12.1688
瑗	-12.1688
畤	-12.1688
銹	-12.1688
寒有小毒治	-12.1688
王不留行	-12.1688
回回豆子	-12.1688
朴硝	-12.1688
宋宣和梁苑雕龍硯	-12.1689
郄	-12.1689
窅	-12.1689
屠本畯	-12.1689
屧	-12.1689
篠簜	-12.1689
櫚	-12.1689
仿宋徳夀殿犀紋硯	-12.1689
鎪	-12.1689
明袁凱	-12.1689
橑	-12.1689
祟	-12.1689
右件用好肉湯	-12.1689
鐙	-12.1689
􁬡	-12.1689
籯	-12.169
毯	-12.169
僧仲殊	-12.169
鏞	-12.169
豊	-12.169
宋徐積	-12.169
史正志	-12.169
謝幼槃詩	-12.1691
㵎	-12.1691
大泉五十	-12.1691
眎	-12.1691
䧟	-12.1691
依韻和	-12.1691
鑪	-12.1691
丁晉公	-12.1692
泉南雜志	-12.1692
蘇文忠	-12.1692
受墨處寛平	-12.1692
字欵俱行書	-12.1692
𤣥都觀裏	-12.1692
菝	-12.1692
𧖟	-12.1692
魵	-12.1692
宋端石洛書硯	-12.1692
􁑀	-12.1693
麻九疇	-12.1693
碪	-12.1693
芄	-12.1693
柈	-12.1693
潢	-12.1693
右除腦麝	-12.1693
唘	-12.1693
詩鄭風	-12.1693
鱊	-12.1693
憨	-12.1693
謝應芳	-12.1693
慷慨	-12.1693
腳	-12.1693
韡韡	-12.1693
􁵂	-12.1693
杜陽編	-12.1694
渦	-12.1694
撑	-12.1694
顱	-12.1694
鑊	-12.1694
南州異物志	-12.1694
昴	-12.1694
勛	-12.1695
夏侯湛	-12.1695
黟歙	-12.1695
抺	-12.1695
盛京通志	-12.1695
戢	-12.1695
嵯峨	-12.1695
撾	-12.1695
傚	-12.1695
悚	-12.1695
掐	-12.1695
鶴林玉露	-12.1695
爕	-12.1696
楚屈原九	-12.1696
塑	-12.1696
諠	-12.1696
姣	-12.1696
凟	-12.1696
奐	-12.1696
唐李頎	-12.1696
貝多樹	-12.1696
隘	-12.1696
煕	-12.1696
陟釐	-12.1697
恊	-12.1697
熹	-12.1697
淩	-12.1697
罽賓	-12.1697
禇	-12.1697
痞	-12.1697
潘岳閒居賦	-12.1698
北户錄	-12.1698
紝	-12.1698
譁	-12.1698
貸	-12.1698
禋	-12.1698
鱭	-12.1698
旛	-12.1699
氐	-12.1699
明高啓	-12.17
栴檀	-12.17
禳	-12.17
膨	-12.17
屩	-12.17
斧柯山	-12.17
瘢	-12.17
䧏	-12.17
穩	-12.17
敕	-12.1701
阡	-12.1701
及奔馬	-12.1702
襞	-12.1702
宙	-12.1702
續竹譜	-12.1702
景龍文館	-12.1702
九月末開	-12.1702
蘺	-12.1702
煿	-12.1702
嘬	-12.1702
悍	-12.1702
鄞	-12.1702
鰫	-12.1702
儗	-12.1702
懲	-12.1702
倪瓉	-12.1702
盱	-12.1702
漈	-12.1702
鬖	-12.1703
䱇	-12.1703
珝	-12.1703
栲	-12.1703
歲時記	-12.1703
巫峽	-12.1703
媸	-12.1704
忱	-12.1704
碌碌	-12.1704
緼	-12.1704
冥冥	-12.1705
宋史鑄撰	-12.1705
壹	-12.1705
磑	-12.1705
禹餘糧	-12.1705
之山有草焉其狀如	-12.1705
蜯	-12.1705
先賢傳	-12.1705
懃	-12.1706
涏	-12.1706
輅	-12.1706
袁桷	-12.1706
葉少藴	-12.1706
蠆	-12.1706
嫵	-12.1707
蓺	-12.1707
噓	-12.1707
鱏	-12.1707
抖	-12.1707
轄	-12.1707
囓	-12.1707
鵑	-12.1708
僭	-12.1708
翮	-12.1708
蚘	-12.1708
翺翔	-12.1709
阡陌	-12.1709
繕	-12.1709
􁇪	-12.1709
穡	-12.1709
䔩	-12.1709
臨海異物志	-12.1709
惋	-12.171
䱱	-12.171
顓	-12.1711
鄆	-12.1712
虞衡志	-12.1712
懌	-12.1715
繢	-12.1715
王沂孫	-12.1715
銓	-12.1715
茺	-12.1715
薐	-12.1716
氣味苦微寒無毒治	-12.1716
富鄭公	-12.1717
赫赫	-12.1717
㓨	-12.1717
嫉	-12.1717
依常法	-12.1718
鷁	-12.1718
譜二卷	-12.1718
獵獵	-12.1719
鯼	-12.1719
萇	-12.172
酤	-12.172
潏	-12.172
閴	-12.1721
兩三莖	-12.1722
䵟	-12.1722
錦被堆	-12.1722
厮	-12.1722
蟛螖	-12.1725
狥	-12.1726
透風處	-12.1726
大業拾遺	-12.1727
􁇩	-12.1728
沔	-12.1728
開元通寶	-12.173
鱨	-12.1732
問君何	-12.1737
右理宗	-12.1737
生江湖中	-12.174
今所收	-12.1741
檖	-12.1761
畝用子	-12.1771
二曰㑹心不逺曰徳充符御製	-12.1819
仿漢石渠閣瓦硯	-12.1852
匣盖鐫御題詩與硯同𨽻書鈐寳	-12.2087
瘙	-12.2975
梀	-12.306
橛	-12.3062
松花石為之	-12.3066
樅	-12.3074
恡	-12.3074
聒	-12.3079
棪	-12.3083
㙡	-12.3085
䕩	-12.3086
咒	-12.3086
荍	-12.3086
羆	-12.3086
耬耩	-12.3087
疔	-12.3087
説硯髙七寸	-12.3088
檽	-12.3091
杬	-12.3091
夏枯草	-12.3092
㬉	-12.3092
如蒸栗	-12.3092
棼	-12.3094
贖	-12.3095
文徴明	-12.3095
崒	-12.3095
膊	-12.3096
秕	-12.3096
鰽	-12.3096
秠	-12.3097
箏	-12.3098
粼	-12.3098
㡳	-12.3098
莓	-12.3099
閽	-12.3099
南部新書	-12.3099
搽	-12.3099
䕷	-12.31
閶闔	-12.31
茒	-12.31
儕	-12.31
􁩌	-12.3101
窒	-12.3101
葯	-12.3101
鋌	-12.3102
紅塵一騎	-12.3102
㫄	-12.3103
在在有之	-12.3103
袁宏道	-12.3103
闋	-12.3103
扦	-12.3104
㕑	-12.3104
小油煠	-12.3104
薔	-12.3104
芊芊	-12.3104
氣味苦温無毒	-12.3104
籝	-12.3104
羊士諤	-12.3105
隳	-12.3105
稧	-12.3105
月之管名為	-12.3105
茟	-12.3106
噎	-12.3106
鄕	-12.3106
張若靄銘	-12.3106
劉夢得	-12.3106
筝	-12.3106
明劉基	-12.3107
貂	-12.3107
椶	-12.3107
㛰	-12.3107
説硯髙六寸	-12.3107
紱	-12.3107
言排律	-12.3107
腠	-12.3107
栯	-12.3107
湊	-12.3107
耮	-12.3108
煜煜	-12.3108
謝承後漢書	-12.3108
兩腋清風	-12.3108
蝉	-12.3108
元劉因	-12.3108
葭莩	-12.3109
斡	-12.3109
􁐍	-12.3109
綉	-12.3109
虫	-12.3109
曈	-12.311
晤	-12.311
金蔡松年	-12.311
䑃朧	-12.311
讒	-12.311
撻	-12.311
程敦厚	-12.311
張文潛	-12.311
嶄	-12.311
圏	-12.3111
麞	-12.3111
稏	-12.3111
實别見果譜	-12.3111
黻	-12.3111
琬	-12.3111
水出焉西注	-12.3112
址	-12.3112
槧	-12.3112
臊	-12.3112
㪷	-12.3112
窘	-12.3113
謐	-12.3113
㝛	-12.3113
勵宗萬銘	-12.3113
漢未央甎海天初月硯	-12.3113
磥	-12.3113
一曰㡬暇怡情	-12.3113
廪	-12.3113
拂林國	-12.3113
幽州人謂之	-12.3113
嬖	-12.3114
錢惟演	-12.3114
哂	-12.3114
懦	-12.3114
瀬	-12.3114
你	-12.3114
荏苒	-12.3114
鈕	-12.3114
𤣥扈先生曰	-12.3114
抉	-12.3115
糗	-12.3115
呀	-12.3115
帨	-12.3115
九域志	-12.3115
蕹	-12.3115
如渥丹	-12.3116
雲林遺事	-12.3116
僧皎然	-12.3116
全芳備祖	-12.3116
興善寺	-12.3116
匣盖並鐫是銘𨽻書鈐寳二曰乾隆	-12.3116
金士松	-12.3116
煎茶水記	-12.3116
悰	-12.3116
誼	-12.3116
蜷	-12.3117
彝	-12.3117
洛陽名園記	-12.3117
治産後	-12.3117
蓛	-12.3117
周環以渠	-12.3117
張商英	-12.3117
知制誥	-12.3117
艧	-12.3118
虆	-12.3118
司馬温公	-12.3118
庾肩吾謝賚	-12.3118
磷	-12.3118
銘十二字	-12.3118
蔔	-12.3118
槮	-12.3119
先薦寢廟	-12.3119
徐茂吳	-12.3119
裴晉公	-12.3119
䭲	-12.3119
姻	-12.3119
嶷	-12.3119
䌫	-12.3119
陳張正見	-12.3119
韈	-12.3119
劉寄奴	-12.312
塩少許調和	-12.312
眄	-12.312
蔏	-12.312
頥	-12.312
氣味苦寒有毒治	-12.312
樹高丈餘	-12.312
被花惱	-12.312
􁡜	-12.312
翦春羅	-12.312
蕺	-12.312
努	-12.3121
䬼	-12.3121
緌	-12.3121
孝經緯	-12.3121
緹	-12.3121
拽	-12.3121
噙	-12.3121
噎膈	-12.3122
戰國䇿	-12.3122
郯	-12.3122
醆	-12.3122
鈐寶一曰乾隆御玩	-12.3122
頩	-12.3122
土中出石	-12.3122
元方回	-12.3122
王龜齡	-12.3122
娶	-12.3122
枹	-12.3122
耦	-12.3122
鸜鵒活眼一	-12.3122
捶	-12.3122
稽神録	-12.3122
裼	-12.3122
開細黄花	-12.3122
蒳	-12.3123
一千二百	-12.3123
稀稠得所	-12.3123
益部方物略記	-12.3123
集句詩	-12.3123
髙似孫硯箋	-12.3123
䳄	-12.3123
吒	-12.3123
薸	-12.3123
瓝	-12.3123
嗚	-12.3123
胫	-12.3124
鍛	-12.3124
跖	-12.3124
脁	-12.3124
不可勝數	-12.3124
徊	-12.3124
書録解題	-12.3124
披香殿	-12.3124
濬	-12.3125
不可一日無	-12.3125
兗	-12.3125
葴	-12.3125
斆	-12.3125
滙	-12.3125
沈存中	-12.3125
徉	-12.3125
鵙	-12.3125
麕	-12.3125
醞	-12.3125
醨	-12.3125
妺	-12.3125
說硯髙八寸	-12.3125
崧	-12.3126
潼	-12.3126
冺	-12.3126
奸	-12.3126
熁	-12.3126
䕡	-12.3126
徑可三寸	-12.3127
穊	-12.3127
姦	-12.3127
御苑玉芽	-12.3127
戱	-12.3127
鰅	-12.3128
滉	-12.3128
眀髙啓	-12.3128
莙	-12.3128
乾淳嵗時記	-12.3128
瀦	-12.3128
締	-12.3128
霎	-12.3128
埤	-12.3128
㘭	-12.3128
東京夢華錄	-12.3128
罹	-12.3128
律厯志	-12.3128
面青背白	-12.3128
爨	-12.3129
䲙	-12.3129
磔	-12.3129
章甫詩	-12.3129
顗	-12.3129
氓	-12.313
炕	-12.313
愜	-12.313
慟	-12.313
磊磈	-12.313
舖	-12.313
寇	-12.313
擡	-12.313
翾	-12.313
璆	-12.313
春秋元命苞	-12.3131
啞	-12.3131
晼	-12.3131
白白紅紅	-12.3131
辟瘟疫	-12.3131
蒋	-12.3131
䜟	-12.3131
詆	-12.3131
綈	-12.3131
瀟	-12.3131
䜿	-12.3131
石季倫	-12.3131
舞青猊	-12.3132
搬	-12.3132
阨	-12.3132
解諸藥毒	-12.3132
權徳輿	-12.3133
捃	-12.3133
朂	-12.3133
石出土中	-12.3133
鮀	-12.3133
周益公	-12.3133
佛手柑	-12.3133
簀	-12.3133
傅若金	-12.3133
盧祖臯	-12.3133
漱	-12.3133
蟛	-12.3134
何景明	-12.3134
薨	-12.3134
泯	-12.3134
礫	-12.3134
凡使勿用	-12.3134
娯	-12.3135
䔩䔩	-12.3135
雀頭香	-12.3136
徑二寸有半	-12.3136
憾	-12.3136
長丈許	-12.3136
艸	-12.3136
欽定四庫全書百菊集譜卷	-12.3136
儵	-12.3137
澱	-12.3137
輈	-12.3137
汜	-12.3137
綆	-12.3137
泱	-12.3137
利大腸	-12.3138
篃	-12.3138
栭	-12.3138
不知何許人	-12.3139
皦	-12.3139
王子年拾遺記	-12.3139
蒚	-12.3139
珊	-12.314
擠	-12.314
竹籬茅舍	-12.314
窳	-12.314
卜算子	-12.314
昭明太子	-12.3141
油烟墨	-12.3141
迤	-12.3142
沲	-12.3142
鼇	-12.3142
臨海水土記	-12.3142
贗	-12.3143
馬莊父	-12.3143
桴	-12.3143
絺綌	-12.3143
躚	-12.3144
覲	-12.3144
微溫無毒	-12.3144
𣙜貨務	-12.3144
魶	-12.3144
無腸公子	-12.3145
飭	-12.3146
僖	-12.3146
吳正仲	-12.3147
讃	-12.3147
渫	-12.3147
舛	-12.3148
畯	-12.3148
口在腹下	-12.3149
周邦彦	-12.3149
跬	-12.3149
跛	-12.3149
魾	-12.3149
櫐	-12.3149
籧	-12.3149
兢	-12.315
洪志引舊譜	-12.3152
畀	-12.3154
鮸	-12.3155
夜不眠	-12.3158
藭	-12.3159
蹉跎	-12.3164
阪	-12.3164
􁉨	-12.3176
疥瘙	-12.3264
御題詩一首楷書鈐寳二曰比徳曰朗潤	-12.3297
分厚一寸一分	-12.3304
周鐫御題詩一首楷書鈐寳一曰	-12.3764
央	-12.4653
羊肉羊脂羊尾子葱陳皮	-12.4699
榣	-12.4703
橿	-12.4716
右為末煉蜜和劑作餅焚之	-12.4732
朝開暮落	-12.4742
睪	-12.4742
蠙	-12.4744
恚	-12.4746
武元衡	-12.4747
錠	-12.4751
佘	-12.4752
蒴	-12.4754
莕	-12.4755
陶宏景	-12.4756
簄	-12.4756
蟇	-12.4757
泬	-12.476
盧照鄰	-12.476
㓂	-12.476
明髙啟	-12.4762
鶬	-12.4763
繆	-12.4763
欏	-12.4764
漵	-12.4764
綫	-12.4764
瀛厓勝覽	-12.4765
那悉茗	-12.4765
頊	-12.4765
􁬊	-12.4765
蛹	-12.4765
箣	-12.4766
坰	-12.4766
縶	-12.4767
麨	-12.4767
齒落更生	-12.4767
如種菜法	-12.4767
蛑	-12.4768
零陵總記	-12.4768
浸一伏時	-12.4768
櫧	-12.4768
端午帖子	-12.4769
頫	-12.4769
彧	-12.4769
剗	-12.477
蘇軾和子由岐下	-12.477
蒁	-12.477
陳景沂	-12.477
蹴	-12.477
宫以植所得竒草異木	-12.4771
歊	-12.4771
沆	-12.4771
㷔	-12.4771
燖	-12.4771
岕茶彚鈔	-12.4772
齕	-12.4772
馬兠鈴	-12.4772
妊	-12.4772
侯鯖録	-12.4772
掄	-12.4772
元成廷珪	-12.4772
聃	-12.4772
落盛開之後	-12.4772
内鐫御題銘與硯同並𨽻書鈐寳	-12.4773
蝤	-12.4773
屍	-12.4773
詩話總龜	-12.4773
犍	-12.4773
縢	-12.4774
端溪老坑石	-12.4774
㵸	-12.4774
壒	-12.4775
蘇頌圖經	-12.4775
墨池深五分	-12.4775
筏	-12.4775
手足不遂	-12.4775
檕	-12.4775
質細而潤	-12.4775
虞允文	-12.4775
丸如梧桐子大	-12.4775
浃	-12.4776
一脚子卸成事件	-12.4776
貳	-12.4776
饁	-12.4776
五沃之土	-12.4776
四時有葉無花	-12.4777
晏子春秋	-12.4777
押不蘆	-12.4777
硫	-12.4777
槊	-12.4778
以為孝感所致	-12.4778
厚七分許	-12.4778
酸石榴皮	-12.4778
海録碎事	-12.4778
辛温有小毒	-12.4778
洪駒父	-12.4778
氏談録	-12.4778
馞	-12.4778
豸	-12.4779
湖山勝槩	-12.4779
䱽	-12.4779
紫河車	-12.4779
色如猪肝	-12.4779
元張𢎞範	-12.4779
格物叢話	-12.4779
曬極乾	-12.4779
陳徐陵	-12.4779
韓元吉	-12.4779
陳邦彦銘	-12.4779
覆手深一寸	-12.4779
面青背紫	-12.4779
倣宋徳夀殿犀文硯倣宋天成風字硯	-12.4779
喇	-12.4779
牓	-12.4779
劭	-12.478
長者近尺	-12.478
鷖	-12.478
石曼卿	-12.478
媺	-12.4781
􁜍	-12.4781
岧	-12.4781
鞾	-12.4781
㳫	-12.4781
宋澄泥石函硯	-12.4781
稡	-12.4782
砦	-12.4782
劾	-12.4782
錦紋大黄	-12.4782
叵	-12.4782
愕	-12.4782
换	-12.4782
灧	-12.4782
文潞公	-12.4782
温子皮云	-12.4782
溫有小毒治	-12.4782
監察御史	-12.4782
昵	-12.4782
張文潜詩	-12.4783
櫖	-12.4783
獐	-12.4783
九品一命	-12.4783
飜	-12.4783
煑泉小品	-12.4783
慝	-12.4783
顋	-12.4784
僰	-12.4784
媵	-12.4784
裀	-12.4784
十様菊	-12.4784
蘓頌云	-12.4784
䭔	-12.4784
丸如桐子大	-12.4784
邯	-12.4784
杆	-12.4785
壖	-12.4785
鵜	-12.4785
蒲統領	-12.4785
秸	-12.4785
箎	-12.4785
簍	-12.4785
帟	-12.4785
煉蜜和劑作餅	-12.4785
遯齋閒覽	-12.4785
滳	-12.4785
党	-12.4786
症	-12.4786
鞚	-12.4786
輥	-12.4786
扄	-12.4786
楊廷秀	-12.4786
容齋隨筆	-12.4786
撘	-12.4787
褚	-12.4787
箐	-12.4787
楪	-12.4787
署欵曰	-12.4787
拄	-12.4787
鐫乾隆御用四字	-12.4787
王右丞	-12.4787
崔徳符	-12.4787
撒䭱蘭	-12.4787
右件同熬成湯濾淨	-12.4787
瑚	-12.4788
焦氏易林	-12.4788
刮去麤皮	-12.4788
垓	-12.4788
糓	-12.4788
聞人善言	-12.4788
許次杼茶疏	-12.4788
騩	-12.4788
孔武仲	-12.4788
苕溪漁隠叢話	-12.4788
蘵	-12.4788
梁簡文	-12.4789
慈恩寺	-12.4789
診	-12.4789
隃	-12.4789
老學菴筆記	-12.4789
腓	-12.4789
荸	-12.4789
馜	-12.4789
咍	-12.4789
朹	-12.4789
澄泥八方硯	-12.4789
蓁	-12.479
燋	-12.479
塋	-12.479
背明國有	-12.479
夜視有光	-12.479
宋澄泥圭硯	-12.479
嵒	-12.4791
如釵股	-12.4791
种	-12.4791
鵓	-12.4791
緱	-12.4791
蕣	-12.4791
姚氏殘語	-12.4791
碌	-12.4792
沴	-12.4792
崔道融	-12.4792
婪	-12.4792
疝	-12.4793
嬝	-12.4793
欽定四庫全書續茶經卷下之	-12.4793
翬	-12.4793
東方朔外傳	-12.4793
礎	-12.4793
宋謝惠連	-12.4793
詩史堂前	-12.4793
夬	-12.4793
王審知	-12.4793
黠	-12.4793
幛	-12.4793
范成大梅譜	-12.4794
㝢	-12.4794
年夏四月	-12.4794
霾	-12.4794
王叔承	-12.4794
頔	-12.4794
亞夫營	-12.4794
賂	-12.4794
𨽻書鈐寳一曰乾隆御玩外鐫標識曰	-12.4794
菔	-12.4794
蝥	-12.4794
劎	-12.4795
左圭百川學海	-12.4795
石決明	-12.4795
岳陽風土記	-12.4795
五品五命	-12.4795
釭	-12.4795
􁬈	-12.4795
黄中通理	-12.4795
以静為用	-12.4795
俘	-12.4795
郛	-12.4795
覘	-12.4795
嚲	-12.4795
罽賔國	-12.4795
壍	-12.4795
籀	-12.4795
鵲尾香爐	-12.4795
霈	-12.4796
妥	-12.4796
鞓	-12.4796
壚	-12.4796
戮	-12.4796
䙝	-12.4796
丐	-12.4796
弹	-12.4796
蔟	-12.4796
扳	-12.4796
韵	-12.4796
挨	-12.4797
潺潺	-12.4797
斿	-12.4797
何可一日無此君	-12.4797
婿	-12.4797
齊王融	-12.4798
胝	-12.4798
閶	-12.4799
㐮	-12.4799
嬝嬝	-12.4799
元朱徳潤	-12.4799
絙	-12.4799
荂	-12.4799
陸希聲	-12.48
觀察使	-12.48
噦	-12.48
廌	-12.48
鰍	-12.48
紫桃軒雜綴	-12.4801
蚏	-12.4801
釋氏㑹要	-12.4801
隲	-12.4801
􁸎	-12.4801
威靈仙	-12.4801
湓	-12.4801
菪	-12.4801
零陵香藿香甘松	-12.4801
燕昭王	-12.4801
霉	-12.4802
崛	-12.4802
垠	-12.4802
枮	-12.4802
鵰	-12.4802
璟	-12.4802
採蘭雜志	-12.4802
殁	-12.4802
隧	-12.4802
郍	-12.4802
鯖	-12.4802
皃	-12.4803
墨法集要	-12.4803
鱐	-12.4803
藘	-12.4803
李商老詩	-12.4803
􁞟	-12.4804
腔	-12.4804
岏	-12.4804
鯸	-12.4804
酹	-12.4805
戶	-12.4805
䑛	-12.4805
綳	-12.4805
恁	-12.4805
􁫂	-12.4805
下田家志	-12.4806
􁙯	-12.4806
矴	-12.4807
伏羲氏	-12.4807
髙丈許	-12.4808
窿	-12.4808
濳	-12.4808
開元天寶遺事	-12.4809
矻	-12.4809
䘂	-12.4809
娼	-12.481
皥	-12.481
嘿	-12.4811
簴	-12.4811
明吴寛	-12.4812
驃	-12.4813
深山窮谷	-12.4814
成都古今記	-12.4814
譎	-12.4815
小芽十二水	-12.4815
櫾	-12.4815
􁉤	-12.4816
利大小腸	-12.4816
灃	-12.4816
􁫗	-12.4816
伏惟皇帝陛下	-12.4817
咤	-12.4817
滎	-12.4817
𣪚	-12.4818
一品九命	-12.4818
蠌	-12.4818
􁟝	-12.4818
藟	-12.4819
弭	-12.482
薍	-12.482
饔	-12.4822
迤邐	-12.4822
募	-12.4823
宋蘇易簡撰	-12.4823
袐	-12.4824
高丈許	-12.4825
蓫	-12.4825
糴	-12.4825
三公九卿	-12.4826
懈	-12.4827
牛頭旃檀	-12.4827
稞	-12.4828
鱤	-12.4829
匽	-12.483
朱敦儒	-12.483
永安五銖	-12.4831
旂	-12.4832
臕	-12.4833
鯾	-12.4834
豌	-12.4836
昕	-12.4836
􁉩	-12.4837
嶔	-12.4838
砮	-12.4842
鈐寶二曰幾暇怡情曰得佳趣	-12.5116
說硯髙四寸五分寛二寸	-12.5871
黮	-12.673
机	-12.6733
灤	-12.6742
成式狀温荅云	-12.6743
㮚	-12.6744
搊	-12.6745
薀	-12.6745
臈	-12.6747
撝	-12.6747
眙	-12.6749
屡	-12.675
虌	-12.675
廙	-12.6751
楱	-12.6752
猨	-12.6753
昃	-12.6753
采莖葉隂乾	-12.6756
與兒洗面作	-12.6756
刁	-12.6757
鎰	-12.6757
竆	-12.6757
痂	-12.6758
説硯髙二寸	-12.6758
蘘	-12.6759
肄	-12.676
愠	-12.676
抒	-12.676
䦕	-12.676
檣	-12.6761
熲	-12.6761
茴	-12.6762
砘	-12.6762
婆那娑	-12.6762
餁	-12.6763
俱𨽻書御製	-12.6763
崐	-12.6763
仝前正貢一百片	-12.6763
􁱔	-12.6763
鏽	-12.6764
鴆	-12.6764
述征記	-12.6764
蔎	-12.6766
桌	-12.6766
槱	-12.6766
拇指大	-12.6766
隋薛道衡	-12.6767
曲洧舊聞	-12.6768
垜	-12.6768
病勿多食	-12.6768
嚬	-12.6769
廛	-12.6769
鞮	-12.6769
吮	-12.6769
誰謂荼苦其甘如薺	-12.6769
滃	-12.6769
范純仁	-12.6769
二曰乾隆宸翰曰惟精惟一	-12.677
始皇起雲明臺窮四方之珍木	-12.677
葈	-12.677
紓	-12.677
燬	-12.6771
躓	-12.6771
疎影横斜水清淺暗香浮動月黄昬	-12.6771
淞	-12.6772
盝	-12.6772
魚在在藻	-12.6772
硯背印建安十五年五字	-12.6772
猪膽汁	-12.6772
廞	-12.6772
瑑	-12.6772
宋文天祥玉帶生硯	-12.6773
笱	-12.6773
熇	-12.6773
明孫齊之	-12.6773
陳堯佐	-12.6773
片入腦子大鳯一千	-12.6773
漁隱叢話	-12.6774
撆	-12.6774
並與硯同	-12.6774
癱	-12.6774
芍	-12.6774
鉎	-12.6774
莵	-12.6774
桔	-12.6774
邅	-12.6775
姱	-12.6775
撅	-12.6775
陸羽茶經不第建安之品	-12.6775
漑	-12.6775
諮	-12.6775
張芸叟	-12.6775
澠水燕談	-12.6775
兔朝元硯	-12.6776
帘	-12.6776
痒	-12.6776
朱彛尊	-12.6776
萬夀龍芽	-12.6776
長夀玉圭	-12.6776
籕	-12.6776
覬	-12.6776
二曰㡬暇怡情曰得佳趣匣	-12.6776
元凝松硯	-12.6776
宋翠濤硯	-12.6776
箄	-12.6777
傭	-12.6777
僂	-12.6777
深根固蔕	-12.6777
暁	-12.6777
嚇	-12.6778
繽	-12.6778
黧	-12.6778
瞠	-12.6778
蜒	-12.6778
扛	-12.6778
蜠	-12.6778
庾郎貧	-12.6778
傴	-12.6778
騅	-12.6778
後十五日斗指	-12.6779
月令廣義	-12.6779
宋方井硯	-12.6779
獒	-12.6779
㳂	-12.678
無比夀芽	-12.678
瞽	-12.678
澨	-12.678
舵	-12.678
釁	-12.678
海味索隠	-12.678
幷	-12.678
䈚箭萌	-12.678
鳲鳩在桑其子	-12.678
媯	-12.6781
貟	-12.6781
張衡東京賦	-12.6781
証	-12.6781
䬣	-12.6781
丹鉛總録	-12.6781
月之辰謂為	-12.6781
作蒿艾氣	-12.6781
𨽻書鈐寳一曰乾隆宸翰御製	-12.6781
晉玉蘭堂硯	-12.6781
簧	-12.6781
庋	-12.6782
皋	-12.6782
温酒調下	-12.6782
諗	-12.6782
鷴	-12.6782
蘇舜欽	-12.6782
合璧事類	-12.6782
尨	-12.6782
琤	-12.6782
繳	-12.6782
賅	-12.6782
京鋌改造大龍	-12.6782
鰩	-12.6782
鄣	-12.6782
汰	-12.6783
佩文齋廣羣芳譜	-12.6783
員嶠山	-12.6783
宋黝玉硯	-12.6783
戔	-12.6783
捩	-12.6783
金党懐英	-12.6784
螃	-12.6784
楣	-12.6784
呷	-12.6784
友張敏叔以	-12.6784
岱輿山北有	-12.6784
宋垂乳硯	-12.6784
摇	-12.6784
湟	-12.6784
宋暈月硯	-12.6784
愽	-12.6784
鬂	-12.6784
鷲	-12.6784
墨鏽濃厚	-12.6784
蘇軾和文與可洋州園池	-12.6784
右為極細末	-12.6784
鰸	-12.6785
睍	-12.6785
鄭思肖	-12.6785
宋陳敬撰	-12.6785
磋	-12.6785
穭	-12.6785
簁	-12.6785
遡	-12.6785
入五味空腹食之	-12.6785
洑	-12.6785
袴	-12.6785
陲	-12.6785
並與舊石仿製同上方側面鐫	-12.6786
安魂魄	-12.6786
漢武帝元鼎六年破南越起扶荔	-12.6786
元宋无	-12.6786
軿	-12.6786
墊	-12.6786
壷	-12.6786
鷦	-12.6786
白合盜葉	-12.6786
懾	-12.6787
有小如拳者	-12.6787
灸	-12.6787
鏐	-12.6787
姜特立	-12.6787
蒸之從巳至	-12.6787
鏟	-12.6787
孟詵曰	-12.6787
渲	-12.6787
鰟	-12.6787
㙲	-12.6787
者梅之所自	-12.6787
說硯以歙石為之形體尺度	-12.6787
香粳米一升	-12.6787
廐	-12.6788
淥	-12.6788
餗	-12.6788
莤	-12.6788
嶒	-12.6788
輾	-12.6788
檛	-12.6788
治脾胃虚弱	-12.6788
瘵	-12.6788
薿	-12.6788
鵯	-12.6789
猱	-12.6789
綍	-12.6789
說硯係澄泥製形體尺度	-12.6789
茱	-12.6789
寳一曰乾隆御玩御製	-12.6789
棎	-12.6789
揚州后土廟	-12.6789
碏	-12.6789
古意穆然	-12.6789
菵	-12.679
葹	-12.679
䆒	-12.679
怳	-12.679
玷	-12.679
砰	-12.679
荓	-12.679
􁀧	-12.679
㓗	-12.679
後魏賈思勰	-12.679
隖	-12.679
巇	-12.6791
閼	-12.6791
劉圻父	-12.6791
咋	-12.6791
脅	-12.6791
覆手自上削下	-12.6791
尿	-12.6791
平泉草木記	-12.6791
澘	-12.6791
𠂻	-12.6792
居空令蕙草殘	-12.6792
后土廟瓊花	-12.6792
藇	-12.6792
晁無咎	-12.6793
鑵	-12.6793
羿	-12.6793
异	-12.6793
拉	-12.6793
八品二命	-12.6793
叉	-12.6793
香事分類	-12.6793
鬈	-12.6793
右同為末拌勻	-12.6793
朝野僉載	-12.6794
續齊諧記	-12.6794
璺	-12.6794
械	-12.6794
䧺	-12.6794
鐫銘二十四字	-12.6794
鬴	-12.6794
劉禹錫和令狐相公	-12.6794
厪	-12.6794
雎	-12.6794
㟧	-12.6794
葪	-12.6794
燕人易元光	-12.6794
蚳	-12.6794
蜞	-12.6794
鉄	-12.6794
蕭穎士	-12.6795
蘇軾和子由記園中草木	-12.6795
跧	-12.6795
粮	-12.6795
以朝其魁	-12.6795
十國紀年	-12.6795
宋四螭澄泥硯	-12.6795
慥	-12.6795
无	-12.6795
剽	-12.6795
苟	-12.6796
蒹	-12.6796
饙	-12.6796
萹	-12.6796
扆	-12.6796
埔	-12.6796
􁟢	-12.6796
嬋	-12.6797
隼	-12.6797
海槎餘録	-12.6797
鱳	-12.6798
桮	-12.6798
三國典畧	-12.6798
王褒僮約	-12.6798
鍪	-12.6798
鮰	-12.6798
洹	-12.6798
憒	-12.6799
犯鐵器	-12.6799
杌	-12.6799
鼯	-12.6799
朐	-12.6799
葎	-12.6799
讐	-12.6799
惇	-12.6799
丕	-12.68
戴凱之竹譜	-12.68
軻	-12.68
茳	-12.68
三品七命	-12.68
䕭	-12.68
碣	-12.6801
格物總論	-12.6801
欷	-12.6801
歔	-12.6801
耎	-12.6801
開頭可八九寸許	-12.6801
幰	-12.6801
蘅薇香	-12.6801
焯	-12.6802
萐	-12.6802
勘	-12.6802
墐	-12.6802
飥	-12.6802
瀍	-12.6802
鑣	-12.6802
三桞軒雜識	-12.6802
陳家白藥	-12.6802
梟	-12.6803
䖀	-12.6803
帡	-12.6803
搾	-12.6803
蕷	-12.6803
萯	-12.6803
陡	-12.6804
鳲	-12.6804
夌	-12.6804
帬	-12.6804
饐	-12.6804
噏	-12.6804
昩	-12.6804
珽	-12.6804
汪彦章	-12.6805
東京夢華録	-12.6806
䱾	-12.6806
崿	-12.6806
犒	-12.6806
甯	-12.6807
㚄	-12.6807
鮊	-12.6807
濮	-12.6807
麏	-12.6808
諶	-12.6808
餮	-12.6808
蕃釐觀	-12.6808
宗夲紀	-12.6808
易通卦驗	-12.6809
鰋	-12.6809
嫮	-12.6809
瞪	-12.681
縕	-12.681
睫	-12.681
蟯	-12.681
䘌	-12.6811
囑	-12.6811
遄	-12.6812
二品八命	-12.6813
嫫	-12.6813
莟	-12.6813
蓷	-12.6813
氅	-12.6814
聶	-12.6814
䔛	-12.6814
欽定四庫全書文房四譜卷	-12.6814
洶	-12.6814
菣	-12.6814
西𤓰瓤	-12.6815
覇	-12.6815
􁩉	-12.6815
亞深葉根多冗	-12.6816
晉宮閣名	-12.6816
氾	-12.6816
泞	-12.6816
套	-12.6816
漶	-12.6817
添色喜容	-12.6817
金鉢盂	-12.6818
鯮	-12.6818
􁉧	-12.6819
裡	-12.682
氍	-12.682
簢	-12.682
五沃之土其木宜	-12.6821
櫬	-12.6821
玉燭寳典	-12.6821
鼾	-12.6821
塟	-12.6822
爚	-12.6822
小芽十二水十㝛火正貢一百銙	-12.6822
疚	-12.6823
綌	-12.6824
澥	-12.6824
燾	-12.6824
鷯	-12.6824
姞	-12.6824
棱	-12.6826
躔	-12.6826
口在頷下	-12.6826
鱎	-12.6826
擯	-12.6828
霪	-12.683
丹州延州	-12.683
茀	-12.683
㠋	-12.6833
馬兜鈴	-12.6834
坪	-12.6837
䱀	-12.6838
不可與猪肉同食	-12.6842
餻	-12.6846
臝	-12.6847
嘏	-12.685
醹	-12.6858
犲	-12.6865
謹案内府	-12.69
鈐寳一曰太璞	-12.6901
浸一宿焙	-12.7044
下方側面鐫御題詩一首楷書鈐	-12.8034
右件入料物塩醤拌	-12.8605
欽定西清硯譜	-12.9226
􁪾	-12.9227
扞	-12.9233
水出焉北注於	-12.9235
褶	-12.9238
韁	-12.9241
雊	-12.9241
騶	-12.9242
聖祖仁皇帝	-12.9242
藠	-12.9242
松花石蟠螭硯	-12.9244
中細葉上不堆大葉者	-12.9244
籸	-12.9244
颶	-12.9245
暍	-12.9245
藫	-12.9245
入腦子小龍七百片	-12.9245
藄	-12.9245
劫	-12.9247
蔡寛夫詩話	-12.9247
箑	-12.9248
糶	-12.9248
揺揺墻頭花	-12.9249
鱬	-12.9249
二老堂詩話	-12.9251
坡仙食飲録	-12.9251
地窨半月取出	-12.9251
􁓨	-12.9251
馢	-12.9251
今官園種之	-12.9252
明楊明時子石科斗硯	-12.9252
㐫	-12.9252
馬思哥油	-12.9252
舩	-12.9252
橅	-12.9253
匣葢鐫御題詩與硯同𨽻書鈐	-12.9253
咂	-12.9253
閡	-12.9253
翣	-12.9253
􁴭	-12.9253
宋杜綰撰	-12.9255
䪥	-12.9255
䴡	-12.9256
觱	-12.9256
宋劉義恭	-12.9258
淙	-12.9258
穽	-12.9258
㑹心不逺曰徳充符匣葢並鐫是	-12.9258
沜	-12.9259
詧	-12.9259
明蒼雪菴鳳池硯	-12.9259
尚書考靈曜	-12.9259
鱄	-12.9259
赧	-12.926
烽	-12.926
笞	-12.926
褷	-12.926
古香曰太璞	-12.9261
丱	-12.9262
家塾事親	-12.9262
俳	-12.9262
靶	-12.9262
松花石壺盧硯	-12.9262
宋端石百一硯	-12.9263
罵	-12.9263
啅	-12.9263
之道也逆之則傷	-12.9263
錘	-12.9263
倬	-12.9264
宋端溪天然子石硯	-12.9264
宋端石風字硯	-12.9264
矦	-12.9265
劙	-12.9265
栒	-12.9265
檀几叢書	-12.9265
説硯髙五寸七分	-12.9265
䝁	-12.9265
宋澄泥虎符硯說硯高四寸	-12.9265
圖繪寳鑑	-12.9266
栱	-12.9266
鄴侯外傳	-12.9266
葞	-12.9266
多識草木之名	-12.9267
揄	-12.9267
刴	-12.9267
宋鄭思肖端石硯	-12.9267
瘇	-12.9267
漢未央宫北温室殿瓦硯	-12.9267
訕	-12.9267
杶	-12.9267
痓	-12.9267
題銘一首𨽻書鈐寳一曰	-12.9267
薋	-12.9268
芃	-12.9269
月團三百片	-12.9269
松花石翠雲硯	-12.9269
說硯髙七寸寛四寸	-12.9269
鰹	-12.9269
匣底内鐫乾隆御用四字外鐫	-12.9269
書禮儀志	-12.927
瀚	-12.927
㩁	-12.927
宋宣和八柱硯	-12.927
二十四番花信	-12.927
硯髙六寸六分寛四寸	-12.927
齁	-12.927
宋端石黻文硯	-12.927
晉書孝友傳	-12.927
挲	-12.9271
劲	-12.9271
杔	-12.9271
王禎農書云	-12.9271
陳繼儒攤破浣溪	-12.9271
闖	-12.9271
鶄	-12.9271
宋朱翼中撰	-12.9271
瞖	-12.9271
宋端石睿思東閣硯	-12.9271
朮	-12.9271
舊端石九子硯	-12.9272
舊端石折波硯	-12.9272
毛文錫茶譜	-12.9272
舊蕉白龍池硯	-12.9272
墨池作偃月形	-12.9272
煇	-12.9273
􁎐	-12.9273
淮南畢萬術	-12.9273
窽	-12.9273
鉸	-12.9273
汋	-12.9273
􁎅	-12.9273
陳孝泳詩	-12.9273
稹	-12.9273
舊蕉白𤓰瓞硯	-12.9274
􁪜	-12.9274
窞	-12.9274
獮	-12.9274
冤	-12.9274
籛	-12.9274
薲	-12.9274
浸一宿重湯	-12.9274
氣味辛大温無毒	-12.9274
麹	-12.9274
樑	-12.9274
渇忒餅兒	-12.9274
鰶	-12.9275
皪	-12.9275
侖	-12.9275
蒓	-12.9275
朱震亨曰	-12.9276
䈥	-12.9276
庚午辛未	-12.9276
洊	-12.9276
舊澄泥藻文石渠硯	-12.9276
斷之有白汁	-12.9276
宋蘇軾結繩硯	-12.9276
擥	-12.9276
靠	-12.9276
宋陳思撰	-12.9276
覆手深五分許	-12.9276
優鉢曇	-12.9276
元釋海雲端石硯	-12.9276
每用一餅徐徐噙化	-12.9276
蹔	-12.9276
龍徳膺符四字	-12.9276
宋蕉白太素硯	-12.9276
舊歙溪蒼玉硯	-12.9276
宋端石鳳池硯	-12.9276
為末入腦麝拌勻	-12.9276
舊緑端浴鵞硯	-12.9276
閫	-12.9277
宋趙時庚撰	-12.9277
数	-12.9277
玭	-12.9277
袷	-12.9277
遅	-12.9277
懔	-12.9277
柜	-12.9277
赤赤哈納	-12.9277
都梁縣有山山	-12.9277
𥙷中益精氣羊肉	-12.9277
朱彛尊井田硯	-12.9278
東觀漢紀	-12.9278
韙	-12.9278
稑	-12.9278
穜	-12.9278
快雪堂漫	-12.9278
聞龍茶箋	-12.9278
水南翰記	-12.9278
􁚐	-12.9278
宋蕉白文瀾硯	-12.9278
宋龍尾石涵星硯	-12.9278
滫	-12.9278
漢甎虎伏硯	-12.9278
宋謝靈運撰征賦	-12.9278
幞	-12.9278
敻	-12.9278
喝	-12.9278
達士堅操篤行之	-12.9278
宋蕉白七子硯	-12.9279
宋端石重卦硯	-12.9279
帝京景物畧	-12.928
亹	-12.928
裘曰修銘	-12.928
一名林蘭一名杜蘭	-12.928
嫻	-12.928
澂	-12.928
傋	-12.928
元任士林	-12.928
舊端石弦文硯	-12.928
薩都剌	-12.928
踆	-12.928
蹉	-12.928
鑢	-12.928
宋蘇軾從星硯	-12.928
寗	-12.928
樁	-12.928
䉋	-12.928
以土㑹之法辨五地之物生	-12.928
蘇欒城詩	-12.928
端石環螭風字硯	-12.928
舊端石瑞芝硯	-12.928
舊端石雁柱硯	-12.928
宋澄泥璧水硯	-12.928
宋端石五丁硯	-12.928
宋端石騰蛟硯	-12.928
虜	-12.9281
農桑撮要	-12.9281
舊端石洛書硯	-12.9281
玠	-12.9281
藳	-12.9281
宋紫端石渠硯	-12.9281
宋蘇軾東井硯	-12.9281
桐柏山志	-12.9281
王彪之閩中賦	-12.9281
甦	-12.9281
舊端石鵞硯	-12.9282
鳯凰山連屬諸焙所	-12.9282
咃	-12.9282
今海隅有千	-12.9282
溈	-12.9283
潎	-12.9283
瘃	-12.9283
紉秋蘭以為佩	-12.9283
茅亭客話	-12.9283
鋹	-12.9283
雰	-12.9283
張大復梅花筆談	-12.9283
樹野生二月花	-12.9283
端石天然六星硯	-12.9283
晉王廞璧水暖硯	-12.9283
綠雲堆裏	-12.9283
陶𨼆居云	-12.9283
櫝	-12.9283
宋端石三虎硯	-12.9283
宋端石印川硯	-12.9283
不霑工部風騷力猶占勾芒造化權	-12.9283
彷	-12.9284
張協七命	-12.9284
變態百出	-12.9284
史記龜策傳	-12.9284
湎	-12.9284
宋端石雲腴硯	-12.9284
庚辛玉册	-12.9284
螽	-12.9284
十年冬改明年為	-12.9284
宋澄泥括囊硯	-12.9284
舊端石七螭硯	-12.9284
迪	-12.9284
龍苑報春	-12.9285
宋紫端雲腴硯	-12.9285
舊洮石黄標硯	-12.9285
舊端石蟠桃硯	-12.9285
舊蕉白瓠葉硯	-12.9285
蕉白雙螭瓦式硯	-12.9285
楟	-12.9285
哢	-12.9285
舊端石鳳池硯	-12.9285
䱢	-12.9285
櫩	-12.9285
舊端石蟠䕫鐘硯	-12.9285
宋端石登瀛硯	-12.9285
尺許時掇去其顛數日則	-12.9285
熊明遇岕山茶記	-12.9285
簦	-12.9285
下事件肉	-12.9285
圩	-12.9285
太平瑞聖花	-12.9285
御製仿唐八稜澄泥硯銘	-12.9285
舊端石海日初升硯	-12.9285
萬鈴出鄜州	-12.9285
駔	-12.9285
端石七星石渠硯	-12.9286
舊蕉白雙螭硯	-12.9286
七字楷書硯背鐫御題銘一首楷書鈐寳	-12.9286
翃	-12.9286
舠	-12.9287
靧	-12.9287
籮	-12.9287
藦	-12.9287
宋端石紫袍金帶硯	-12.9287
篐	-12.9287
舊端石十二章硯	-12.9287
裸	-12.9287
銛	-12.9287
蔲	-12.9287
啣	-12.9287
錡	-12.9287
舊端石四螭硯	-12.9287
𥪡	-12.9288
韓琦中書東㕔	-12.9288
􁣸	-12.9288
嬛	-12.9288
幬	-12.9288
􁠴	-12.9288
叡	-12.9288
憮	-12.9288
洿	-12.9288
琥	-12.9288
茖	-12.9288
唐澄泥六螭石渠硯	-12.9288
埭	-12.9288
明楊士竒舊端子石硯	-12.9288
樷	-12.9288
腿	-12.9288
舊端石荷葉硯	-12.9288
宋澄泥列錢硯	-12.9288
宋澄泥海嶽硯	-12.9288
宋澄泥石渠硯	-12.9288
蹯	-12.9288
鈆	-12.9288
𨽻書鈐寶二曰比徳曰朗潤御製題	-12.9288
莉	-12.9289
禆	-12.9289
宋紫端涵星硯	-12.9289
明項元汴東井硯	-12.9289
澄泥虎伏硯	-12.9289
舊端石半蕉硯	-12.9289
舊端石轆轤硯	-12.9289
􁊼	-12.9289
群	-12.9289
蕭子良荅王僧䖍書	-12.9289
麂	-12.9289
詁	-12.9289
字欵俱楷書	-12.9289
䔅	-12.9289
姫	-12.9289
蚪	-12.9289
蟺	-12.9289
鍔	-12.9289
巂	-12.9289
欽定四庫全書硯箋卷	-12.9289
澄泥直方硯	-12.9289
舊端溪子石五明硯	-12.9289
舊端石天然壺盧硯	-12.9289
范子計然	-12.9289
藑	-12.9289
訾	-12.9289
􁆛	-12.9289
舊端石雲芝硯	-12.929
磨去齟齬以胡麻	-12.929
舊端石飛黄硯	-12.929
端石雲雷編鐘硯	-12.929
舊端石七光硯	-12.929
舊端石驪珠硯	-12.929
舊雘村石蘭亭硯	-12.929
山有木焉名曰	-12.929
薟	-12.9291
焼	-12.9291
宋韓彦直撰	-12.9291
聆	-12.9291
禩	-12.9291
三日太史謁之天子曰某日立	-12.9291
宋米芾螽斯𤓰瓞硯	-12.9291
魿	-12.9291
鵞毛玉鳯花	-12.9291
而縠理金聲而玉	-12.9291
韀	-12.9291
舊端石六龍硯	-12.9291
䲭	-12.9292
宋澄泥海濤異獸硯	-12.9292
默	-12.9292
碭	-12.9292
姧	-12.9292
元陸友撰	-12.9292
瑳	-12.9292
沈括筆談云	-12.9292
眊	-12.9292
陳眉公太平清話	-12.9292
扺	-12.9292
倕	-12.9292
天子乃齋立	-12.9292
宋澄泥蕉葉硯	-12.9292
箈	-12.9292
葯圃同春	-12.9292
優曇鉢	-12.9293
馚	-12.9293
畞	-12.9293
盾	-12.9294
桿	-12.9294
菥	-12.9294
柵	-12.9294
鼃	-12.9294
少陵為爾牽詩興可是無心賦海棠	-12.9294
漢甎石渠硯	-12.9294
偁	-12.9294
東齋記事	-12.9294
舊澄泥方池硯	-12.9294
䒒	-12.9294
宋宣和八卦十二辰硯	-12.9294
宋楊時金星歙石硯	-12.9294
宋澄泥䕫紋硯	-12.9294
宋端石石渠秘閣硯	-12.9294
隔溪諸山雖及時加意製	-12.9294
欽定四庫全書蟹畧卷	-12.9294
舊端石松皮硯	-12.9294
板蕎蕎	-12.9294
古香曰太璞匣盖並鐫是銘	-12.9295
蝘	-12.9295
豋	-12.9295
焕	-12.9295
蝑	-12.9295
賨	-12.9295
橀	-12.9295
钁	-12.9295
宋端石七星硯	-12.9295
宋紫端太平有象硯	-12.9295
螿	-12.9295
宋薛紹彭蘭亭硯	-12.9295
楂	-12.9295
舊端石海天浴日硯	-12.9295
耩	-12.9296
鮂	-12.9296
烙	-12.9296
鮦	-12.9296
睆	-12.9296
餖	-12.9296
悒	-12.9296
憬	-12.9296
㷀	-12.9296
㶑	-12.9296
舊端石多福硯	-12.9296
烏弋山離	-12.9296
王充論衡云	-12.9296
鮇	-12.9296
鮡	-12.9296
元澄泥龍珠硯	-12.9297
褵	-12.9298
醍	-12.9298
挍	-12.9298
殿中侍御史	-12.9298
蜀都雜抄	-12.9298
王維别墅在輞川有	-12.9298
用之又牙香法	-12.9298
草泥行郭索	-12.9298
遘	-12.9298
馡	-12.9298
䭱	-12.9298
宋端石列宿硯	-12.9298
墨處不出光	-12.9298
宋中岳外史端石硯	-12.9298
宋澄泥蟠螭硯	-12.9298
楔	-12.9298
藊	-12.9298
龑	-12.9298
既晚何用好	-12.9298
寬	-12.9298
白蜜六兩煉去	-12.9298
舊端石太極硯	-12.9298
葫	-12.9299
瀏	-12.9299
鶹	-12.9299
䱓	-12.9299
元戴帥初	-12.9299
渰	-12.9299
墨藪云凡書	-12.9299
孥	-12.9299
蓲	-12.9299
紶	-12.9299
元虞集澄泉結翠硯	-12.93
諲	-12.93
宷	-12.93
靴	-12.93
蒕	-12.93
鬘	-12.93
今月某日	-12.9301
孫真人種花法	-12.9301
蛉	-12.9301
宋端石貨布硯	-12.9301
細剉以絹袋盛懸於銚子當中	-12.9301
蟞	-12.9301
苨	-12.9301
懇	-12.9302
半邊山諸嵓	-12.9302
殄	-12.9302
皜	-12.9302
菆	-12.9302
彖	-12.9302
貫四時而不改柯易葉	-12.9302
沭	-12.9302
痗	-12.9302
薕	-12.9302
輳	-12.9302
鵻	-12.9302
倣唐菱鏡硯	-12.9302
印並兩刻用	-12.9302
太子納妃有	-12.9302
宋端石歸去來辭硯	-12.9302
纉	-12.9303
灕	-12.9303
金姚孝錫	-12.9303
鈹	-12.9303
㲲	-12.9303
馣	-12.9303
明楊慎原本大學士胡世安箋	-12.9303
爺	-12.9303
韝	-12.9303
揲	-12.9303
炁	-12.9303
鐮	-12.9303
紫金石太平有象硯	-12.9303
元趙孟頫澄泥斧硯	-12.9304
魚臨海志名	-12.9305
錮	-12.9305
徇	-12.9305
舊端石雙龍硯	-12.9305
孃	-12.9305
抽新條極滋茂若不	-12.9305
黳	-12.9305
有刺如三角菱	-12.9305
鞵	-12.9305
􁸈	-12.9305
郿	-12.9305
匣底鐫寳一曰乾隆御玩御製題	-12.9305
邵氏聞見後録	-12.9306
汧	-12.9306
鰨	-12.9306
㒺	-12.9306
䈄	-12.9306
悪	-12.9306
韉	-12.9306
棐	-12.9307
璠	-12.9307
悌	-12.9307
瀣	-12.9307
已别著録是	-12.9307
廹而察之	-12.9307
􁌻	-12.9307
非烟非霧	-12.9307
瑀	-12.9307
耉	-12.9307
蝱	-12.9307
㫋	-12.9307
優鉢羅花	-12.9307
遯齋閑覽	-12.9307
瑊	-12.9309
歠	-12.9309
摟	-12.9309
誑	-12.9309
螖蠌小者蟧	-12.9309
宋翁元廣	-12.9309
雇	-12.9309
襃	-12.931
醽	-12.931
漩	-12.931
莛	-12.931
宋陸㳺素心硯	-12.931
獵香新譜	-12.931
􁍴	-12.931
葶	-12.9312
負土成墳	-12.9312
悖	-12.9312
煁	-12.9312
􁖊	-12.9312
韓熙載云對花焚香	-12.9313
簵	-12.9313
􁡡	-12.9313
匐	-12.9313
胹	-12.9313
舊端石蟬硯	-12.9313
洌	-12.9313
暹	-12.9313
袵	-12.9314
示百寮者	-12.9314
壩	-12.9314
濞	-12.9316
有杕之杜	-12.9316
怍	-12.9316
竣	-12.9316
踊	-12.9316
脡	-12.9317
舊端石饕餮䕫紋硯	-12.9317
僑	-12.9318
賾	-12.9318
埀	-12.9319
鱺	-12.932
七寸二分寛四寸	-12.932
縻	-12.932
舊端石飲鹿硯	-12.932
􁆜	-12.932
庥	-12.9321
䈏	-12.9321
瘋	-12.9321
膘	-12.9321
挖	-12.9321
舊端石石田硯	-12.9322
穇	-12.9323
㝛火正貢四十片創添六十片	-12.9323
小芽十二水七㝛火正貢一百片	-12.9323
䘏	-12.9324
卻	-12.9325
右件用清汁下胡椒一兩塩醋調和	-12.9326
鯝	-12.9326
斮	-12.9327
燕翼貽謀	-12.9327
梏	-12.9327
元薩都刺	-12.9327
一螯偏大	-12.9327
橉	-12.9328
䲋	-12.933
惺	-12.933
凳	-12.9331
紏	-12.9331
蟧	-12.9331
隗	-12.9332
瘖	-12.9334
謚	-12.9334
岌	-12.9334
䈛	-12.9334
型	-12.9335
㩎	-12.9337
襕	-12.9337
薚	-12.9337
晉書文苑傳	-12.9339
綷	-12.934
㨿	-12.9341
玉衡星散為	-12.9341
虷	-12.9341
五男二女	-12.9342
玘	-12.9344
􁈴	-12.9346
箛	-12.9354
啁	-12.9362
不可與糖同食	-12.9368
通寳錢按㑹典	-12.9381
比徳曰朗潤匣盖並鐫是詩	-12.9476
曰㑹心不逺匣盖並鐫是	-12.9932
御題詩一首楷書鈐寳二曰乾隆	-13.0663
用鷄頭粉二斤豆粉一斤	-13.1449
御題詩一首楷書鈐寶二曰古香曰太璞	-13.173
漢石渠閣瓦硯七字	-13.2127
二曰比徳曰朗潤匣盖並鐫	-13.2272
二曰比徳曰朗潤匣葢並鐫是詩𨽻書鈐	-13.2291
毒治病十去其	-13.2513
崯	-13.2521
不入腦子上品揀芽小龍一千二百片	-13.253
宋朱子次韻公濟恵	-13.2531
䲃	-13.2538
皛	-13.2548
獳	-13.2548
煔	-13.255
椈	-13.2552
桵	-13.2554
天火午地火	-13.2555
瀅	-13.2557
䨴	-13.2557
碨	-13.2559
邠	-13.2559
弃	-13.2561
恙	-13.2563
餵	-13.2563
䰷	-13.2563
鮨	-13.2563
胐	-13.2565
聪	-13.2565
莜	-13.2565
柎	-13.2569
穣	-13.2569
説硯髙五寸五分寛	-13.2569
􁇖	-13.2569
松花石雙鳯硯	-13.2569
玫	-13.2571
旁挺龍目側生荔支	-13.2573
删	-13.2574
春明退朝錄	-13.2575
􁷳	-13.2575
晉何晏景福殿賦	-13.2575
郗	-13.2577
旦露池西有靈池方四百	-13.2577
錚	-13.2577
吵	-13.2577
楰	-13.2577
隰桑有阿其葉有	-13.2577
粆	-13.2579
􁟥	-13.2579
隍	-13.2579
萄	-13.2581
扒	-13.2583
艮	-13.2584
湯煎成車聲繞羊腸雞蘇胡麻留	-13.2584
南村諸楊北村盧	-13.2584
說硯髙四寸五分上寛二寸	-13.2584
松花石河圖洛書硯	-13.2585
銘𨽻書鈐寳二曰㡬暇怡情曰得佳趣	-13.2586
蔖	-13.2586
要知玉雪心腸好不是膏油首面新	-13.2586
麦	-13.2586
一名紅蘭香一名金桂香	-13.2586
寶一曰乾隆御賞	-13.2586
拘尼佗樹	-13.2586
麸	-13.2586
䗺	-13.2586
轟	-13.2588
鍬	-13.2588
驌	-13.2588
盆至半陸遽止之又以杓揚之曰自此南	-13.2588
匣底鐫寶一曰乾隆御玩御製	-13.2588
張衡思𤣥賦	-13.2588
掎	-13.2588
櫈	-13.2588
中芽十二水十㝛火正貢	-13.2589
思樂泮水薄采其	-13.259
䗶	-13.259
奴哥撒兒	-13.259
饋食之籩其實	-13.259
搶	-13.259
洞山茶系岕茶	-13.259
腂	-13.259
茢	-13.259
嵌空穿眼宛轉	-13.2592
藬	-13.2592
臣某言中使某	-13.2592
跼	-13.2592
尭	-13.2592
橘中之樂不減商山	-13.2592
蝌	-13.2592
鏖	-13.2592
蓮社髙賢傳	-13.2592
舊端石弁星硯	-13.2592
嘗識其水泉之目有二十焉㑹西走巴	-13.2592
撞	-13.2592
􁰖	-13.2592
明林春澤人瑞硯	-13.2593
松花石甘𤓰石	-13.2593
蹐	-13.2594
勒成二篇名曰茶録伏惟清	-13.2594
蜺	-13.2594
塤	-13.2594
鐫御題詩二首楷書鈐寳二曰	-13.2594
鯞	-13.2594
䓴	-13.2594
代宗朝李季卿刺湖州至維揚	-13.2594
匣盖内並鐫是銘𨽻書鈐寳	-13.2594
扭	-13.2594
楚辭云夕餐秋菊之落英	-13.2594
羅廪茶解茶	-13.2594
舟深入見者累百敢	-13.2594
蔈	-13.2594
之霧裳附玉體以行止兮順微風而舒光	-13.2595
宣城人秦精常入武昌山	-13.2595
何羅之魚一身	-13.2596
窶	-13.2596
屈到嗜芰	-13.2596
敖	-13.2596
簏	-13.2596
會心不逺曰徳充符	-13.2596
棨	-13.2596
胡嶠自契丹亡歸中國畧能道其所見云	-13.2596
觀信乎物類之	-13.2596
宣和北苑貢茶録	-13.2596
山在蕭山縣西三里	-13.2596
水至陸以杓揚	-13.2596
秷	-13.2596
糈	-13.2596
陸利器以俟	-13.2596
所感幽人之佳尚前賢之精鑒不可及已	-13.2597
?	-13.2597
蟹生伊洛池澤中	-13.2597
霮	-13.2598
孛	-13.2598
雲笈七籖	-13.2598
怵	-13.2598
螕	-13.2598
蠨	-13.2598
頮	-13.2598
乾陀羅耶香	-13.2598
匣葢並鐫是詩𨽻書鈐寶二曰乾隆	-13.2598
通寳錢亦二體書	-13.2598
鯥	-13.2598
􁸊	-13.2598
不得碾揉為大小龍團	-13.2599
襌	-13.2599
臀	-13.26
軃	-13.26
醥	-13.26
熄	-13.26
硯譜原本不著撰人	-13.26
緡調餌芳	-13.26
媠	-13.26
衘	-13.26
訏	-13.26
鄙恡之生心招神	-13.26
漿水泥一塊同浸三日	-13.26
為橋梁為飯甑	-13.26
留丹陽酌觀音泉過無錫㪺慧山水粉槍	-13.26
裠	-13.26
鷀	-13.26
瓛	-13.26
花頭極大一枝只一葩喜倒垂下	-13.2601
茶名有四探春先春次春紫	-13.2601
之初不甚香得諸香和之則特美	-13.2601
實大如指頂皮薄而扁	-13.2602
崙	-13.2602
諛	-13.2602
焙中兩三日一次用火	-13.2602
説硯髙六寸七分寛四寸	-13.2602
㪺	-13.2602
感引鶴降醮星辰燒此香	-13.2602
洪武二十四年詔天下産茶之地	-13.2602
齊書髙逸傳	-13.2602
六月食鬱及薁	-13.2602
其花白而繁其葉如橘	-13.2602
太原温從雲武威	-13.2602
折枝枯榦中或為	-13.2602
畫神問何也曰	-13.2602
矟	-13.2602
薧	-13.2602
踒	-13.2602
鸕	-13.2602
􁷰	-13.2602
且非何𦙍敢餦餭	-13.2602
艧村石泰交硯	-13.2602
殛	-13.2603
有定額以建寧為上	-13.2603
初捕輸考工	-13.2603
柬	-13.2603
騣	-13.2604
輒條數事簡而易明	-13.2604
氣如蘼蕪可以止癘即零陵香	-13.2604
苛	-13.2604
奔濤濺沫	-13.2604
宋緑端蘭亭硯	-13.2604
揚州后土祠瓊花	-13.2604
梨汁和作餅子燒	-13.2604
釃	-13.2604
一曰太璞硯背	-13.2604
份	-13.2604
使夫人者有為於當	-13.2604
匣葢外鐫御題銘與硯同	-13.2604
强作南朝風雅客夜來偷醉早梅	-13.2604
新茗齋中試一旗	-13.2604
於岷蜀角立差勝毛舉實繁	-13.2604
明唐寅龍尾石瓦式硯	-13.2604
桃李不言下自成蹊	-13.2604
淺黄者轉白而白色者漸轉紅枯	-13.2604
猧	-13.2604
蘴	-13.2604
趕	-13.2604
鈐寶二曰乾隆御賞曰幾暇怡情	-13.2604
鵀	-13.2604
山林好事者或以菊比君子其	-13.2605
漸覺離披遇風雨撼之則飄散滿地矣	-13.2605
生雲南者大如掌青黄色長四五寸取	-13.2605
穴者以天章顯茂錢塘者以徑山稀至於	-13.2605
讜	-13.2606
用麤篩隔過	-13.2606
䤖	-13.2606
右件煑令爛熟	-13.2606
扈江蘺與辟芷兮	-13.2606
棓	-13.2606
其面故有青黄紫	-13.2606
叟溺於茗事	-13.2606
噬	-13.2606
囤	-13.2606
聞雁齋筆談	-13.2606
色貴白而餅茶多以珍膏油	-13.2606
之物不可同年而語也且菊	-13.2606
亦猶是而已菊於君子之道誠有臭味哉	-13.2606
垤	-13.2606
應阻蟹螯香却乞江邊採捕郎	-13.2606
芐	-13.2606
花不見桃惟見李	-13.2606
花有落者有不落者蓋花瓣結	-13.2606
藥能輕身延年南陽人飲其潭水皆壽百	-13.2606
遇閏輒多一瓣	-13.2606
道之腴不改其樂者也神農書以菊為養	-13.2606
餘姚人虞洪入	-13.2606
鴘	-13.2606
承平雅玩龍鳯英華玉除清賞啓沃承恩	-13.2607
生東海及崑崙國二	-13.2607
傲睨風露此幽人逸士之操雖寂寥荒寒	-13.2607
元黄公望癡菴硯	-13.2607
孠	-13.2607
滯消壅一日之利暫佳瘠氣耗精終身之	-13.2607
箬扎口泥封	-13.2607
姒	-13.2607
駰	-13.2608
耄	-13.2608
剋	-13.2608
罳	-13.2608
肛	-13.2608
餱	-13.2608
棁	-13.2608
説硯髙五寸三分	-13.2608
仲將之墨一㸃如漆	-13.2608
捆	-13.2608
滏	-13.2608
漢石渠閣瓦硯倣唐八棱澄泥硯倣宋玉	-13.2608
鶗	-13.2608
罁	-13.2608
試以青白勝黄白	-13.2608
黦	-13.2608
􁲣	-13.2608
以比忠正而菊與菌桂荃蕙蘭芷	-13.2608
墁	-13.2608
恣肥得以採擷供左右杯	-13.2608
撦	-13.2608
本朝康熙年間	-13.2608
皆以花比之宜非正人	-13.2608
而菊獨後開考其理菊性介烈	-13.2608
説硯髙五寸六分	-13.2608
重之如此是菊雖以花為名固與浮冶易	-13.2608
咿	-13.2608
曰窮春秋演河圖不如載茗一車	-13.2609
花心尤大開最早	-13.2609
爽然自失矣因念草木之材一有負瓌偉	-13.2609
莽之間而其名遂冠天下借使陸羽復起	-13.2609
浼	-13.2609
兜婁婆香	-13.2609
瓚	-13.2609
大約三年或二年一分	-13.2609
峪	-13.2609
養疴漫筆	-13.2609
逶	-13.2609
右件熬成湯濾淨	-13.261
厎	-13.261
絣	-13.261
于慎行紀賜鮮	-13.261
勌	-13.261
乾則灰蒼色潤則青紫色	-13.261
憶觀淮南夜火攻不及晨	-13.261
謎	-13.261
道家以此香浴去尸蟲	-13.261
重青白者受水詳明故建安人	-13.261
井字中圓如井	-13.261
側鐫御題詩一首楷書鈐寳一曰古香	-13.261
唶	-13.261
月令以動植志氣候如桃桐	-13.261
牡丹根甜多引蟲食	-13.261
菊殘猶有傲霜枝	-13.261
讀孝經必焚香正坐	-13.261
餚	-13.261
乳之母勿太	-13.261
作搊粉羊肉切細乞馬	-13.261
宋澄泥石圅硯說硯	-13.261
少或有味苦者而紫色細莖亦無蒿艾	-13.261
䓻	-13.261
欽定四庫全書續茶經卷上之	-13.261
侍中刁存年老口臭上出雞舌香	-13.261
於三徑采於東籬裛露掇英汎以忘憂鍾	-13.2611
開元中禁中初重木芍藥即今牡丹也得	-13.2611
匣葢鐫御題銘與硯同𨽻書鈐寳一曰	-13.2611
堙	-13.2611
至奉宣聖㫖賜臣	-13.2611
繙	-13.2611
李直方常第果實若貢士以	-13.2611
蒢	-13.2611
别初採既濕尚未有香木	-13.2611
飶	-13.2611
埂	-13.2611
磐砮穡樹	-13.2611
笯	-13.2611
場人掌國之場圃而樹之果蓏珍異之物	-13.2611
包匭菁茅	-13.2611
瞢	-13.2611
鋋	-13.2611
餠	-13.2611
山水乳泉石池漫流者上	-13.2611
嵻	-13.2611
段公路北户録	-13.2611
畦留夷與揭車兮	-13.2611
病中無用雙螯處寄與夫君左手持	-13.2611
颷	-13.2611
𤾉	-13.2611
􁵒	-13.2611
䅺	-13.2611
明李夢陽端石圭硯	-13.2611
正色獨立不伍衆草變詞而言之歟	-13.2611
璡	-13.2611
瘓	-13.2611
綱正貢入腦子大龍一千	-13.2611
綿濾過取浄	-13.2611
葉紫花魏武帝以為香燒之	-13.2611
鰮	-13.2611
􁫩	-13.2611
同樹以其肌理有	-13.2612
其言雖簡而於論水盡矣	-13.2612
新所記以龍池為第十浮槎之水棄而不	-13.2612
燒銀燭照紅粧	-13.2612
懸準天極也純黄不雜后土色也早植晩	-13.2612
白菊百餘株次年盡變為黄花	-13.2612
賦以五美謂圓華	-13.2612
鞕	-13.2612
粳米其骨亦軟	-13.2613
煉蜜和劑捻作餅	-13.2613
葉而畏香藥喜温燥而忌	-13.2613
􁛖	-13.2613
䆳	-13.2613
䓈	-13.2613
譴	-13.2613
之地不以山川逺近發不以社之	-13.2613
亾	-13.2613
側面周鐫御題銘一首楷書鈐寳一曰	-13.2613
凂	-13.2613
捷	-13.2613
中妃子尤愛嗜涪州歳命驛致	-13.2613
也又以建安茶品甲	-13.2613
人間相傳為菊其已乆矣故未能輕取舊	-13.2613
人隱士籬落畦圃之間不可	-13.2613
其炭曽經燔	-13.2613
出天竺單于二國與青桂雞骨	-13.2613
唐褚遂良端溪石渠硯	-13.2613
此茶矣又論石乳出壑嶺斷崖缺石之間	-13.2613
片建寧府附發大龍茶	-13.2613
鄧州菊潭所出	-13.2613
齪	-13.2613
心起突色如深鵝黄	-13.2614
其條敷闡其葉瑩薄崖林之間偶然生出	-13.2614
有者不過四五家	-13.2614
白茶自為一種與	-13.2614
紬	-13.2614
葉比諸菊最大一花不過六七葉而	-13.2614
佀	-13.2615
燁	-13.2615
耋	-13.2615
樂浪之東有背眀之國宜種百榖有	-13.2615
乾之後循理而折之其中有香	-13.2615
戬	-13.2615
末次入乳香末等一處用生蜜和勻	-13.2615
陽文𨽻書上印古錢一文曰	-13.2615
鴇	-13.2615
上寛二寸七分下寛三寸	-13.2615
下米三合煑粥空腹食之	-13.2615
乎至於具香與色而又有態是	-13.2615
仿宋徳夀殿犀紋硯八字楷書硯背	-13.2615
倣漢石渠閣瓦硯倣唐八	-13.2615
剡縣陳務妻	-13.2615
同是一樹葉似橘經冬不	-13.2615
大者為甘菊花小而苦者為野菊若種園	-13.2615
御製後苑雜花十題以海棠為首	-13.2615
本出江東比年稍移栽	-13.2615
松竹蘭菊為君子安有君子而以態為	-13.2615
歟曰吾嘗聞於古人矣妍卉繁花為小人	-13.2615
澮	-13.2615
為甘也如是則單葉變	-13.2615
為苦薏今余所記菊中雖有莖青者然而	-13.2615
産者味佳故四方以建茶為	-13.2615
瘑	-13.2615
肥沃之處復同一體是小可變	-13.2615
膠力隳亡如	-13.2615
花可以藥囊可以枕釀可以飲所以	-13.2615
花頭徑三寸菊之大者不過此	-13.2615
説硯髙五寸一分寛三寸	-13.2615
鐫石圅二字篆書	-13.2615
露濕何郎試湯餅日烘荀令炷爐香	-13.2615
馨淑人是欽窈窕	-13.2615
鷩	-13.2615
陽尉人謂之香尉	-13.2616
水盤香類黄熟而殊大	-13.2616
菊花如端人獨立凌	-13.2616
風雨打園林殘菊飄零滿地金	-13.2616
種但花形差大且不甚香	-13.2616
毬子紅白單葉繞承之每枝只一花	-13.2617
花心極大每一鬚皆中空攅成一匾	-13.2617
白大葉三數層	-13.2617
􁴵	-13.2617
匣盖並鐫是銘亦𨽻書鈐寳	-13.2617
耰	-13.2617
青木香麻黄根附子	-13.2617
戺	-13.2617
丸如梧子大	-13.2617
賃	-13.2617
以玉毬目之者以其有圓聚之形也	-13.2617
宋端石海天硯	-13.2617
怒目横行與虎爭寒沙奔火禍胎成	-13.2617
暝焚香徹曙其驕貴如此	-13.2617
落訓始也意落英之落蓋謂始開之花	-13.2617
薾	-13.2617
螳	-13.2617
豈復有可餐之味	-13.2617
雕刻為香山佛像並出舶上	-13.2617
匣蓋鐫御題詩	-13.2617
四之辭賦一之敘事	-13.2617
如小白蓮花多葉而無心花頭疎極	-13.2617
帀	-13.2617
散清絶一枝只一葩	-13.2617
明吴寬追和朱樂圃蘇學	-13.2617
株所造止於二三銙而已	-13.2617
浴蘭湯兮沐芳	-13.2617
炅	-13.2617
米孫烏什哈	-13.2617
繞之花端極尖香尤清烈	-13.2617
蒞	-13.2617
陛下諭臣先任福建	-13.2617
鰦	-13.2617
廋	-13.2618
内足故把握而兼斤顧占城之枯朽宜	-13.2618
金堅而玉潤亦鶴骨而龍筋惟膏液	-13.2618
髣髴或鼻勞而妄聞獨沉水	-13.2618
州者最勝大如棗核近道者如杏仁許荆	-13.2618
髣	-13.2618
以鐵杵舂如粉而燒之	-13.2618
此紫所以為白之次而紅所以為紫之次	-13.2618
辛療風水毒腫去惡氣樹皮青色木似櫸	-13.2618
雌樹也不入香用	-13.2618
若山上貫太華承以銅盤中有蘭綺朱火	-13.2618
若雲時濃更薄乍聚還分火微難	-13.2618
漓	-13.2619
綢	-13.2619
􁉦	-13.2619
罋	-13.2619
􁅋	-13.2619
胕	-13.2619
芴	-13.2619
水第五廬山招賢寺下方橋潭水第六	-13.2619
䒠	-13.2619
乳今生沙溪山中	-13.2619
湯者茶之司命	-13.2619
柑橘之葉其芽發即	-13.2619
右除麝香别研外餘	-13.2619
如太華之倚天象小	-13.2619
實超然而不羣	-13.2619
或問菊奚先曰	-13.2619
紃	-13.2619
而燎蚊宛彼小山巉然可	-13.2619
近正可以配薝蔔而並云矧儋崖之異	-13.2619
銅山葛山賈超之山	-13.2619
㳟	-13.2619
分許澄泥宋製	-13.2619
抆	-13.2619
杜毓荈賦	-13.2619
縹榦緑葉青柯紅芒	-13.2619
葉似葵形如馬蹄俗	-13.2619
迓	-13.2619
黄熟之别名也其色差白不入藥品和香	-13.2619
一之敘事二之造三之雜	-13.2619
合歡蠲忿萱草忘憂	-13.2619
埜	-13.2619
晬	-13.2619
皐	-13.2619
盛𢎞之荆州記曰	-13.2619
膝勞冷痺	-13.2619
荃蕙化而為茅	-13.2619
菊草屬也以黄為正	-13.2619
蘭草今當以澤蘭為正山中又有一種	-13.2619
諍	-13.2619
人肌骨至老不病	-13.2619
容菊無處無之酒家皆以菊花縛成洞户	-13.2619
曰金鈴菊純白而大	-13.2619
環抱氣勢柔秀宜乎嘉植靈卉之所發	-13.2619
秋水江南紫蟹生寄來千里佐	-13.2619
臣前因奏事伏	-13.2619
花五出初極紅如臙脂㸃㸃然及開則漸	-13.2619
菊白而檀心曰木香菊黄色而圓	-13.2619
蟉	-13.2619
鵊	-13.262
在桃杏紅梅之間未霜即開	-13.262
最為妍麗中秋後便可賞	-13.262
至四五重粉紅色濃淡	-13.262
幹勁挺髙可	-13.262
根據銅盤雕文各異類離婁自相連誰能	-13.262
皆如鐸鈴之形	-13.262
舊歙溪石函魚藻硯	-13.262
長安巧工丁緩	-13.262
其色也菊之白者未必皆劣而列	-13.262
委翳消腐而人不知惜自國初以	-13.262
者裂為二三與花葉相雜比茸茸然	-13.262
與金萬鈴相類而花頭	-13.262
方盛開時筒之大	-13.2621
色而花葉之中間生筒葉大小相	-13.2621
馤	-13.2621
鰈	-13.2621
亦類柑葉發常	-13.2621
肥乳長二寸許為食茶之上品	-13.2621
先春民間採製	-13.2621
欲伴騷人賦落英	-13.2621
入之所分方根塵之起滅常	-13.2621
不在火前不在火後	-13.2621
乎凝霜挺葳蕤於蒼春兮表壯觀乎金商	-13.2621
䐈	-13.2621
䭯	-13.2621
參差鬱佳麗合沓紛可憐蔽虧千種樹出	-13.2621
宋澄泥蟠䕫石渠硯	-13.2621
擗	-13.2621
朱火然其中青烟颺其間	-13.2621
營營青蠅止于	-13.2621
穮	-13.2621
覦	-13.2621
香草其奪益甚正當不用	-13.2621
鮤	-13.2621
鱴	-13.2621
丈亦可攬結白花中髙品也	-13.2621
云死者皆起此則靈香非中國所致	-13.2621
喋	-13.2621
子芍藥但難培	-13.2621
宋澄泥黼黻綯紋硯	-13.2621
沙乞某児	-13.2621
燒香勿返顧	-13.2621
甲於諸焙丁謂亦云鳯山髙不百丈無危	-13.2621
簡衆材之攸宜節方圓以定形	-13.2621
蓉尤穠盛者如樓	-13.2621
開就者如小木芙	-13.2621
青木香非此之謂也	-13.2621
馮可賔岕茶牋	-13.2621
鶱	-13.2621
􁓾	-13.2621
上則垂下裊數尺如纓絡尤宜池潭之瀕	-13.2622
千葉深黄花形圓小而中有鈴	-13.2622
多葉自中至外長短相次如千葉棣棠狀	-13.2622
宋澄泥倣唐石渠硯	-13.2622
崇光香霧霏霏月轉廊只恐夜深花睡去	-13.2622
泉不甘能損茶味前世之論水品者以此	-13.2622
舊雘村石玉堂硯	-13.2622
菊粉紅色曰桃	-13.2622
葉擁聚蜂起細視若有蜂窠之狀	-13.2622
散如亂茸而枝葉細小嫋嫋有態	-13.2623
可以引長七八尺至一	-13.2623
琚	-13.2623
爁	-13.2623
齾	-13.2623
搠	-13.2623
拐	-13.2623
者數四貧民取以為利	-13.2623
𦙍侈於食味	-13.2623
蠖	-13.2623
硯髙五寸八分寛三寸	-13.2623
鐶	-13.2623
岐出兩枝又掇之每掇益岐至秋則一	-13.2623
櫄	-13.2623
深黄莖極柔細隨	-13.2623
畸	-13.2623
賺	-13.2623
􁷴	-13.2623
䨲	-13.2623
並録之按漢書	-13.2623
俯者如愁仰	-13.2623
噱	-13.2623
四座莫不歡香風難	-13.2623
宋傅肱撰	-13.2623
律中無射而數九俗尚	-13.2623
明董其昌畫禪室端石硯	-13.2623
瀧	-13.2623
蓘	-13.2623
蟹眼已過魚眼生颼颼欲作松風鳴	-13.2623
跚	-13.2623
骫	-13.2623
骳	-13.2623
㳙	-13.2623
採隂山之潛璞	-13.2623
搰	-13.2623
葉尖薄鮮明瑩徹若瓊	-13.2623
郃	-13.2623
飃	-13.2623
􁄄	-13.2623
􁉥	-13.2623
之薄者其香尤勝	-13.2624
羹	-13.2624
覽偉草之敷英慕君子之𢎞覆兮超託軀	-13.2624
熏籠矣人力勤土又膏沃花亦為之屢變	-13.2624
千葉純白長短相次而花	-13.2624
秃秃麻食	-13.2625
興國岩揀芽	-13.2625
嚴陵灘水第十九雪水第二十	-13.2625
甒	-13.2625
認桃無緑葉辨杏有青枝	-13.2625
銙自不乏山芽安可無	-13.2625
伉	-13.2625
檰	-13.2625
緍	-13.2625
一株五根一莖五枝一枝五葉一葉	-13.2625
分吳味不嫌猜	-13.2625
硾	-13.2625
金宇文虚中	-13.2625
上方側鐫御題詩一首𨽻書鈐	-13.2625
摩伽陁國	-13.2625
馟	-13.2625
鬃	-13.2625
泥鈍不任下筆矣	-13.2625
卷芳氣最烈一名腦子菊	-13.2625
右件一同熬成湯濾浄下	-13.2625
崤	-13.2625
格物縂論	-13.2625
涔	-13.2625
深黄單葉閭巷	-13.2625
漼	-13.2625
舒時并採莖葉雜黍米釀之	-13.2625
魏畧云出大秦國	-13.2626
紛紛零落中見此數枝黄	-13.2626
筍作譜記者多矣獨菊花未有為之譜者	-13.2626
唐八棱澄泥硯	-13.2626
宋米芾逺岫竒峰硯	-13.2626
朞	-13.2626
至來年九月九日始熟就飲焉	-13.2626
花葉繁縟全似茉莉	-13.2626
谺	-13.2627
晁公武讀書志	-13.2627
䦧	-13.2627
合定濕紙條固	-13.2627
嚼香味俱勝擷以作羮及泛茶極有風致	-13.2627
蠐	-13.2627
隨潮退殻一退一長	-13.2627
其香建安民間試茶皆不入香恐奪其真	-13.2627
出家梁大同初	-13.2627
呦呦鹿鳴食野之	-13.2627
癉	-13.2627
砒	-13.2627
篼	-13.2627
耕香莖生細葉	-13.2627
若烹㸃之際又雜	-13.2627
譔	-13.2627
闚	-13.2627
不留筆滑不拒墨	-13.2627
古者以芸為香以蘭為芬以鬱鬯為祼以	-13.2628
婢屣奴屩	-13.2628
迷迭香廣志云出西域魏	-13.2628
鬱金而外葉純白	-13.2628
味主於甘滑惟北苑	-13.2628
左右攅聚而生故俗以為荔枝者以其花	-13.2628
輦四面綴五色玉香囊	-13.2628
駭愕夫家力不能屈乃放還	-13.2628
於酒斚疑皆今之甘菊	-13.2628
兮一日不見如三	-13.2629
右除龍麝乳香别研	-13.2629
中而貯水水隨暈而	-13.2629
暱	-13.2629
人家種以供蔬茹凡菊葉皆深	-13.2629
屴	-13.2629
崱	-13.2629
有飶其香邦家之光	-13.2629
蹕	-13.2629
䱉	-13.2629
墨要涼涼則生光	-13.2629
孳	-13.2629
摥	-13.2629
楊允孚灤京雜詠	-13.2629
海閭生屈龍屈龍生容華	-13.2629
羊𤣥保甲馢淺俗比徐湛之甘松蘇合比	-13.2629
萟	-13.2629
蒸取其液以代	-13.2629
薓	-13.2629
陔	-13.2629
黔陽之都濡	-13.2629
黴	-13.2629
三萬杵杵多益	-13.2629
彤竿緑筒	-13.2629
甿	-13.2629
皆為萌湯直至	-13.2629
纘	-13.2629
蓋一國則曰國	-13.2629
門時及交禮更	-13.2629
鴡	-13.2629
㢠	-13.2629
歐陽九不學之過也	-13.263
患之而不欲傷其意	-13.263
弱難得團簇作大本須留意扶植乃成	-13.263
䒭	-13.263
也季和曰荀令君至人家坐席三日香	-13.263
舊龍尾石日月叠璧硯	-13.263
毖	-13.263
㬌	-13.2631
李賀有端州青花石硯	-13.2631
沗	-13.2631
黲	-13.2631
灺	-13.2631
為酒謂飲之即醉也	-13.2631
色鮮著葉滿枝翠羽	-13.2631
周墨浮光而黛起明而未融是以為用	-13.2631
懴	-13.2631
鑞	-13.2631
兕	-13.2631
嶁	-13.2631
笲	-13.2631
蒘	-13.2631
錢心瓣黄皆一	-13.2631
顒清貧寡欲終日長蔬食	-13.2631
三星右五銖穿	-13.2631
名長安有合歡殿披香殿	-13.2631
齆	-13.2631
􁬅	-13.2631
節去蜂愁蝶不知	-13.2632
付外庫後長安中大疫	-13.2632
不著撰人名氏	-13.2632
人君燕食所加庶羞	-13.2633
王𢎞送酒即便就酌	-13.2633
偸	-13.2633
焦竑國史經籍志	-13.2633
紅羅複斗帳四角垂香囊	-13.2633
䒽	-13.2633
􁎈	-13.2633
生如金鈴菊中鈴葉之狀	-13.2633
烱	-13.2633
白佛言我諸比丘燒水	-13.2633
舊澄泥卷荷硯	-13.2633
馩	-13.2633
内外大小重疊相次	-13.2633
刧	-13.2633
武帝時所獻忘其國名	-13.2633
稍異於衆人之説	-13.2633
魧	-13.2633
便令種竹或問	-13.2633
晟	-13.2633
有詩情合得嘗	-13.2633
涂	-13.2633
青蘂重陽不堪摘	-13.2633
原父揚州時㑹堂	-13.2634
皁兒膠鞭和	-13.2634
一枚以辟疫氣帝	-13.2634
以荼蕪香屑鋪地四五寸使舞	-13.2634
婢通殷勤夀踰垣而至時西域有貢	-13.2634
御物三十種有純金香爐一枚	-13.2634
為屑以沈榆	-13.2634
為賈充司空掾充女窺見夀而	-13.2634
銃	-13.2634
者出龍腦香肥者出婆律膏	-13.2634
􁦝	-13.2635
罶	-13.2635
鋟	-13.2635
十葉為貫百二十貫	-13.2635
朙	-13.2635
榽	-13.2635
溆	-13.2635
蘇門答剌	-13.2635
馝	-13.2635
繂	-13.2635
纁	-13.2635
馠	-13.2635
噲	-13.2635
更擬食根花落後一依本草太傷渠	-13.2635
沙頭郭索衆横行豈料身歸五鼎烹	-13.2635
蜋	-13.2635
䗫	-13.2635
掗	-13.2635
裂為兩翅如飛舞狀一枝之杪凡三四花	-13.2635
郡貢千步香	-13.2635
雜比方盛開時筒之	-13.2635
紈素不妄下筆	-13.2635
訢	-13.2635
映數里之間焜如星火非名畫之可	-13.2636
盜以遺夀後充與夀宴聞其芬馥	-13.2636
萑	-13.2636
鏇	-13.2636
磕	-13.2636
狖	-13.2636
䑃	-13.2636
髀	-13.2636
鶘	-13.2636
䲊	-13.2636
周輝清波雜志	-13.2636
冨	-13.2636
􁟪	-13.2636
馪	-13.2637
㧓	-13.2637
孀	-13.2637
薆	-13.2637
詩年年收稻買江蟹二月得從何處來	-13.2637
䓞	-13.2637
䫫	-13.2637
入直臺中給女侍史二人皆選端正指使	-13.2638
澠	-13.2638
盬	-13.2638
奘	-13.2638
鴂	-13.2638
䴵	-13.2638
兩花自作一髙枝出叢上	-13.2638
筦	-13.2638
飲此水上壽百二	-13.2638
南粤王尉佗以	-13.2638
晉安岑州及交廣以南樹似橘煎枝葉為	-13.2638
馛	-13.2638
馦	-13.2638
馧	-13.2638
侠	-13.2638
宂	-13.2638
王伯敡所藏趙昌	-13.2638
蜇	-13.2638
金日磾既入侍欲衣服香潔	-13.2638
𦵏	-13.2638
毎十觔稅銀一錢	-13.2638
白䨲縁人贊	-13.2638
酒杯拍浮酒池中	-13.2638
拇	-13.2639
四人合四氣香	-13.2639
其花葉皆香而燥濕不變故可刈而為佩	-13.2639
雖香而葉乃無氣其香雖美而質弱易萎	-13.2639
胠	-13.264
胾	-13.264
噍	-13.264
譍	-13.264
劖	-13.264
緤	-13.264
蘱	-13.264
追和朱樂圃蘇學	-13.264
頵	-13.264
劉晨阮肇	-13.264
匡實黄金重螯肥白玉香	-13.264
嗷	-13.264
螂	-13.264
鳸	-13.264
擎玉爐燒九和之香	-13.264
牧豎閒談	-13.264
露叢芬馥敵蘭芽	-13.264
偃額兩目上陳	-13.2641
大尾小身滑無鱗	-13.2641
除反枯死七月斷其枝有黄汁其	-13.2641
㓕	-13.2642
兾	-13.2642
香所生以香為界	-13.2642
甥	-13.2642
䔷	-13.2642
跱	-13.2642
澒	-13.2642
螗	-13.2642
儁	-13.2642
蘭蕙二物本草言之甚詳	-13.2642
㷊	-13.2644
􁟤	-13.2644
葐	-13.2644
陳八尉淳監糧	-13.2644
蕐	-13.2644
鞅	-13.2644
䱼	-13.2644
懍	-13.2644
石首魚至秋化為	-13.2644
僦	-13.2644
氿	-13.2644
爹	-13.2644
膴	-13.2646
諂	-13.2646
邏	-13.2646
涙	-13.2646
尚書令僕丞郎月賜隃	-13.2646
穈	-13.2646
小芽十二水九㝛火正貢	-13.2646
烹不能鳴渠幸生含糊終作醉	-13.2646
磻	-13.2646
葖	-13.2646
檎	-13.2647
外鐫仿唐八稜澄泥硯七字	-13.2647
媱	-13.2647
譛	-13.2647
古人藏書辟蠧用芸	-13.2647
蛆	-13.2648
櫜	-13.2648
蜌	-13.2648
􁣚	-13.2648
壇前别安一小爐以此香煎取香	-13.2648
艤	-13.2648
䭾	-13.2648
明胡世安撰	-13.2648
鮌	-13.2648
虉	-13.2648
朱崖郡洲中出諸異香	-13.2649
八魚異性色	-13.265
􁫃	-13.265
鎧	-13.265
䈽	-13.265
他年我若修花史	-13.265
十里一置五里一堠	-13.265
山下流聚沙泥	-13.265
老鵶𤓰籬	-13.265
蛋	-13.2651
鯆	-13.2652
杈	-13.2652
王得臣麈史	-13.2652
貊	-13.2652
永徽中定州僧	-13.2652
之呈色若景星之舒光	-13.2652
鑌	-13.2652
匊	-13.2652
弟鍇共用	-13.2652
絜	-13.2652
萩	-13.2652
㶸	-13.2652
帑	-13.2652
䗯	-13.2652
檓	-13.2652
鮚	-13.2652
􁃛	-13.2652
􁳃	-13.2652
䇘	-13.2654
與樂即白檀也能治熱病赤檀能治風腫	-13.2654
華香青赤白蓮華香華樹香果樹香	-13.2654
成式修竹里私第	-13.2654
髹	-13.2654
宋吳儆井田硯	-13.2654
蝝	-13.2654
䓑	-13.2654
柀	-13.2654
澳	-13.2656
鱝	-13.2656
䱰	-13.2656
堋	-13.2656
厔	-13.2656
謌	-13.2656
掞	-13.2656
秋叢遶舍似陶家	-13.2656
洙	-13.2658
入芝蘭之室久而不聞其香	-13.2658
戽	-13.2658
􁈽	-13.2658
犇	-13.266
䰲	-13.266
樲	-13.266
蚱	-13.2662
汝南桓景隨費長房	-13.2662
䞇	-13.2662
僱	-13.2662
秒	-13.2663
歐陽通每書其墨必	-13.2663
珩	-13.2664
䈚	-13.2664
䎡	-13.2664
帇	-13.2664
攽	-13.2664
鰷	-13.2665
嚅	-13.2665
言舉家登山夕還見	-13.2665
裯	-13.2665
非夫含乾坤之	-13.2665
螟	-13.2667
此貞秀姿卓為霜下傑	-13.2667
無有射地而生	-13.2667
芳菊紛然獨榮	-13.2667
畊	-13.2669
闃	-13.2669
延年莫斯之貴謹奉一束以助彭祖之術	-13.2669
就中藏吏取交州所獻甘蔗餳	-13.2669
有一小蟹在腹中為	-13.2669
茛	-13.2671
鷇	-13.2671
澑	-13.2671
和體芬芳之淑氣孰能如此故屈	-13.2671
贛	-13.2673
邴	-13.2673
悲冉冉之將老思	-13.2673
鞘	-13.2673
䰵	-13.2673
凴	-13.2675
孫亮使黄門	-13.2675
閈	-13.2675
藡	-13.2677
戛	-13.2677
鑲	-13.2677
揾	-13.2683
箠	-13.2684
倮	-13.2685
桓公伐山戎	-13.2688
艘	-13.2689
􁡠	-13.2689
鸘	-13.2691
崟	-13.2692
􁤹	-13.2692
行書云墨務官臣廷	-13.2696
右側鐫御題詩一首楷書鈐	-13.2697
芽十二水十㝛火正貢一百	-13.27
䱁	-13.27
儺	-13.2702
䱝	-13.2706
不可與鼈肉同食	-13.271
俁	-13.2714
醙	-13.2727
鰵	-13.2727
雝	-13.2735
詩𨽻書鈐寳同御製題	-13.2738
䱑	-13.2752
溪邊粟粒芽前丁後蔡相籠加	-13.3542
㑹心不逺曰徳充符匣盖並鐫是	-13.3831
鐫御題詩一首楷書鈐寶二曰	-13.4171
下方側鐫御題詩一首楷書鈐	-13.5494
蘅帶屈菖蒲薦文麝多忌而本羶蘇合若	-13.6278
上方鐫御題詩一首楷書鈐寳二曰	-13.6756
詩𨽻書鈐寳二曰㡬暇怡情曰得佳趣	-13.68
二曰㑹心不逺曰徳充符匣盖並鐫	-13.7357
下為鳳足二離几	-13.7444
漇	-13.751
推小雪天刺桐猶	-13.7513
醻	-13.7517
攀援桂枝兮聊淹留	-13.7517
隹	-13.7517
㸤	-13.752
御製再題米芾逺岫竒	-13.752
􁲈	-13.7523
無得當者惟花中之蘭果中之楊梅可	-13.7529
臙	-13.7532
甘蔗辛薑陽蓲隂敷	-13.7532
康性絶巧而好鍜宅	-13.7532
灎	-13.7535
眴	-13.7535
入座半甌輕泛緑開緘數片淺含黄	-13.7539
南劍州芋陽舖見	-13.7539
惟有城南老樹精分明知道神仙過	-13.7545
桑下春蔬綠滿畦菘心青嫩芥薹肥溪頭	-13.7545
于以采藻于彼行潦	-13.7545
蘆洲白鷺畫幅詩	-13.7545
漢武帝遣將軍趙破奴逐	-13.7548
然椒則有鳥自雲際蹁躚五色名赭爾鳥	-13.7548
次謝許少卿寄卧龍山茶	-13.7548
擇店頭賣日暮裹鹽沽酒歸	-13.7548
耕園驛佛桑花詩	-13.7548
宋洪适容齋續	-13.7548
王楙野客叢書	-13.7551
之太液池至元帝時椒生果有異鳥翔集	-13.7551
此天仙椒也塞外千里有之能致	-13.7551
渇羌不應亂我官焙香	-13.7551
越芽逺寄入都時	-13.7551
紅茅山冠子也初開粉紅即漸退白青心	-13.7551
齒頬已輸崖蜜十分甜	-13.7551
餫	-13.7551
其香殊勝在南方時植物無情者也不香	-13.7551
四方傲中國之志每見北人盛誇嶺海之	-13.7551
服者嶺北人極愛之然	-13.7551
水松葉如檜而細長出南海土	-13.7551
衆香而此木不大香故彼人無	-13.7551
斑貝蠃大者圍之得六寸	-13.7551
有草實如繭中絲為細纑名曰白疊	-13.7551
檍	-13.7551
鷽	-13.7551
莫若守中守中則無過與不及之病	-13.7554
聚珍異饌馬思荅吉湯	-13.7554
能共牡丹爭幾許得人	-13.7554
四角三角曰芰兩角曰菱	-13.7554
葛苦中真味晚方	-13.7554
乃登黍天子乃以雛嘗黍羞以含桃先薦	-13.7554
而素淡稍若大軟條冠子	-13.7554
世宗遣使入嶺館接者遺	-13.7554
幟	-13.7554
阯	-13.7557
厥味惟珍蠲除百疾	-13.7557
燀	-13.7557
故人兼致白芽薑	-13.7557
殭	-13.7557
鴦	-13.756
霏霏霧雨杏花天簾外春威著羅幕	-13.756
珙	-13.756
嘷	-13.7561
鄜州有櫻桃山上多櫻桃樹	-13.7561
右擣羅細末煉蜜拌	-13.7561
南塘水蓮葉映身摘蓮子暑衣鮮	-13.7561
十里入小路七十里至濟源	-13.7561
右件用塩减少許同和麺作	-13.7561
懋勤舊物則玉帶生宛在	-13.7561
緧	-13.7561
貙	-13.7561
鳱	-13.7561
徠	-13.7563
呿	-13.7564
薠	-13.7564
自長安至於諸州皆夾路樹槐	-13.7564
何如鬬百草賭取鳳凰釵	-13.7564
桐廬茶不亦稱乎	-13.7564
深紅楚州冠子也亦若小旋心	-13.7564
飲之清甘可口曰得此	-13.7564
鴛鴦喜作浪舞花驚不起殷勤䕶惜	-13.7564
呼為湯神奏授華	-13.7564
徐葆光中山傳信	-13.7564
栾	-13.7564
薥	-13.7564
褐色有紋如魚子極香而堅韌水漬之不	-13.7564
鎸御題詩一首鈐寳二曰	-13.7565
王揚休碾密雲龍同事十三人飲之戲作	-13.7567
奩面標云龍陂	-13.7567
子茶龍陂是顧渚山之别境	-13.7567
餧	-13.7567
張籍和韋開州盛山	-13.7567
成皇后好食之由是價重京師	-13.7567
寸一分宋老坑端石墨池深	-13.7567
指水菱初熟多新刺	-13.7567
又上展淡黄大葉枝條硬而絶黄	-13.7567
大嶺重複九十里至羅紋山	-13.7567
黄樓子也大葉中深黄小葉數重	-13.7567
凝緑髓炊來光如何重辛苦一一輸膏粱	-13.7567
堘	-13.7567
彼碧巖下恰應深二尺泥易帶雲根燒難	-13.7567
此時勺複茗野語知逾清	-13.7567
立作菌蠢勢煎為潺湲聲草堂暮雲隂松	-13.7567
脉初能燥金餅漸見乾瓊液九里共杉林	-13.7567
臘月潮州見桃李元	-13.7567
諸般湯煎桂漿	-13.7567
邢客與越人皆能造	-13.7567
似松蘿名曰太華茶普洱	-13.7568
太華山在雲南府西産茶色	-13.7568
遴	-13.757
三味懐乾為末用煆過	-13.757
饉	-13.757
憭	-13.757
濼	-13.757
傷熱則心紅傷冷則	-13.757
化為琥珀琥珀一名江珠今泰山	-13.757
十二月臘夜令人持椒	-13.757
掯	-13.757
紫寳相冠子也紫樓子心	-13.757
說硯髙八寸寛五寸四分厚	-13.757
乃黄絲頭中盛則或出四五大葉	-13.757
南山茶事動竈起巖根傍水煑石髪氣薪	-13.757
君子以賤雪貴不聞以貴雪賤	-13.757
如薔薇煎服令人不眠能誦無忘	-13.757
巴東有真香茗其花白	-13.757
江左近日方有蠟面之號	-13.757
泉歸將挂煙樹滿此是生涯黄金何足數	-13.757
眼蘋沫香沾齒松下時一看支公亦如此	-13.757
背二渉三之際為合量	-13.757
至西坑口入山三十里至羅紋山皆山谷	-13.757
吳志韋曜𫝊孫皓	-13.757
湯治元蔵虚弱	-13.757
茶塢茗地曲隈	-13.757
遊上林院後亭見櫻桃花	-13.757
􁈏	-13.757
竊比雞頭意未安	-13.7573
仙人愛杏令虎守	-13.7573
長興縣啄木嶺金沙泉	-13.7573
饠	-13.7573
右為細末羅勻以生蜜捜和搗百	-13.7573
盒封窨如常法爇	-13.7573
藼	-13.7573
安大街夾樹楊槐下走朱輪上有鸞棲英	-13.7573
茗十年燒穿折脚鼎	-13.7573
􁯨	-13.7573
異此品非今日之黄樓	-13.7573
紅寳相冠子也紅樓子心	-13.7573
㔶	-13.7573
亦名為鯧同彼狹邪滛蟲相邇其味苦嘉	-13.7573
建州陸羽茶經尚未知之但言福建等	-13.7573
或下圎米渇米折米皆可	-13.7573
日以茶相飲味劣者有罰號為湯社	-13.7573
疴甦身輕便欲登天衢不知天上有茶無	-13.7573
一斤入膠四兩再熬	-13.7573
之叢生山野葉細如茅草根極繁密八月	-13.7573
寒清曉行孤山籬落間怪而問其所得云	-13.7573
懼其尠挹岸水増之處士之	-13.7573
滺	-13.7573
邛	-13.7573
欲為設茗先問卿於水厄多少正徳不曉	-13.7575
鄉而立身以來未遭陽侯之難元乂與舉	-13.7575
宓子賤為單父宰	-13.7576
􁦛	-13.7576
臺眺月亦曰眺蟾臺酌雲菹酒菹以𤣥草	-13.7576
脚葉裏松子僧前落	-13.7576
鸜	-13.7576
三月杏花盛可菑白沙輕土之田	-13.7576
去浮蠟放冷旋入	-13.7576
蓱	-13.7576
直勒下兩跗離几	-13.7576
一樹瓏鬆玉刻成飄廊㸃地色輕輕	-13.7576
十云汝既不能光益叔父奈何穢吾素業	-13.7576
苃	-13.7576
雩都灌嬰廟左有池得瓦可為硯	-13.7576
屏爵棄巵焚罍	-13.7576
光悦取白雪取紅花與兒洗面作妍華取	-13.7576
十茶器得一鴻漸市人沽茗不利	-13.7576
志恬偶獲尺許修為界尺	-13.7576
而無琥珀益州永昌出琥珀而無茯苓	-13.7576
䱀魚䱀魚味爽可	-13.7576
何年霜夜月桂子落寒山	-13.7576
其乳作片或號曰京挺的乳	-13.7576
劑再鎚二百餘下	-13.7576
功莫我知青苔浮落處暮栁間開時	-13.7576
叟移晨前清露濕	-13.7576
土龍之屬荇莖苓根化而為鱓黄白異亹	-13.7576
安業坊唐昌觀舊有玉蘂花	-13.7576
後惡風吹香少傳何計	-13.7576
桃杏滿村春似錦踏歌椎	-13.7576
槅	-13.7576
紅膚便教桃李能言語要比嬌妍比得無	-13.7576
綱正貢不入腦子上品㨂芽小龍六百	-13.7576
茶啜之可以滌滯思而起清風	-13.7576
豹革為囊風神呼吸之具也	-13.7576
釉	-13.7576
陽文𨽻書四周葛麻文	-13.7576
飂	-13.7576
万	-13.7576
孔子侍坐扵魯哀公	-13.7576
有香癖而不相授豈小	-13.7576
野行多繚繞向陽就中	-13.7576
香譜補遺所載與前稍異今併録之臘沉	-13.7576
駒父集古今香方自謂無以過此	-13.7576
黔蜀州郡及遼州	-13.7576
𥅆	-13.7576
娑	-13.7577
隋文帝微時夢神人易其腦骨自爾腦痛	-13.7578
𥙿	-13.7579
寂寞龎眉皓首無住著偏袒右肩露	-13.7579
思李夫人東方朔獻之帝懐之夢見因名	-13.7579
折盡官橋楊柳枝春風依舊緑絲絲	-13.7579
溪女留新蟹園公	-13.7579
泉處沙中居常無水將造茶	-13.7579
堪拜漁陽太守百姓歌	-13.7579
􁎾	-13.7579
不宜見日見日則生翳	-13.7579
倒放則過夏不黄以其氣不外泄也子	-13.7579
熱處新茶不宜驟用	-13.7579
缸内缸宜砂底則不生水而常燥	-13.7579
花到手纎毫皆盡力多因不負玉川家	-13.7579
閒之宴或賜觀采臣不勝	-13.7579
便合下卵如粟頃刻	-13.7579
善治産難誕生如	-13.7579
安既至所設惟茶果而已俶遂陳盛饌珍	-13.7579
梨滓甘蔗滓等分為末名小四和四和香	-13.7579
郎君子鮝雄雌相雜置之醋盂逡	-13.7579
魚有䱟鯺一頭數尾有脚如蠶食之肥美	-13.7579
又新丈人行也為學精博	-13.7579
故刑部侍郎劉公諱伯芻	-13.7579
説硯髙八寸六分寛五寸	-13.7579
銙香口焙銙上品揀芽	-13.7579
七百二十片二水十五㝛火	-13.7579
三五日開飲之其味特香美	-13.7579
北齊盧士深妻崔	-13.7579
如欲遺人圓如芡實金箔為衣十	-13.7579
宿雨一番蔬甲嫩春山	-13.7579
山中有茗草煮而飲之當愈帝服之有	-13.7579
山花啜之當更助風景又何必羔兒酒也	-13.7579
慢亂簇香篝小何處好幽期滿巖春露曉	-13.7579
晉虞郎獻于帝庭其方俱在食經可徴	-13.7579
曰未見甘心氏先迎苦口師衆噱	-13.7579
有才學春日以桃花和雪	-13.7579
有聲發墨色青間白有金星	-13.7579
桼	-13.7579
櫻桃大一斗酒置一丸於其中却封繫令	-13.7579
汁與蜜同熬過在一	-13.7579
沙魚沙魚二族胡沙白沙	-13.7579
淦	-13.7579
玢	-13.7579
瓶於舟中親挹而比之誠如其	-13.7579
稍差功入金匱名	-13.7579
花光仲仁寄墨梅二	-13.7579
莃	-13.7579
露凝千片玉菊散一叢金	-13.7579
頭那更得君詩花開春色麗晴空惱我狂	-13.7579
魏帝一丸藥且盡盧仝七椀茶	-13.7579
大盌内坐重湯中溶成汁入蘇合油和	-13.7581
松子仁三兩揉汁於内雖大雪亦輭輭香	-13.7581
刷過花脱然後印劑則易出内府龍涎香	-13.7581
淮海京東河北陂澤中多有之	-13.7581
里内有學顰之婦以卿言之即是也	-13.7581
為大司馬東曹掾	-13.7582
賄	-13.7582
既延期以永壽又蠲疾而弭痾	-13.7582
水中成珠方可用與香末拌勻入臼杵	-13.7582
若作和羮爾惟鹽梅	-13.7582
餘作劑窨一月分爇衙香	-13.7582
仡	-13.7583
於冬末春即不生矣	-13.7583
沉以為棺槨則速腐以為	-13.7583
和得所如常爇之衙香	-13.7583
時人謂之胡釘鉸詩	-13.7583
雜申椒與菌桂兮	-13.7583
上時四月上旬為中時五月上旬為下時	-13.7583
之碧雲傾浮花之雪乳非藉湯勲何昭茶	-13.7583
之閉凍也不固則春夏之長草木也不茂	-13.7583
引風歸蟹眼半瓶飛雪起龍	-13.7583
掺	-13.7583
更以蜜兩匙拌勻窨過爇之加减四和香	-13.7583
為甆偶人號陸鴻漸買	-13.7583
芍藥受天地之氣以生而小大淺深一隨	-13.7583
菇	-13.7583
頟	-13.7583
髙丈餘花葉皆同但實稍大而色黄緑	-13.7583
又美則新芽一發便長寸餘其細如鍼	-13.7583
太璞匣葢並鐫是銘𨽻書鈐寳二曰	-13.7583
尤多南人以為器皿如花梨木類	-13.7583
御題之後下逮臣工奉勅	-13.7583
方九月十月時悉出其根滌以甘泉然後	-13.7583
曆	-13.7583
松烟二兩丁香麝香乾漆各少許	-13.7583
縁伐生樹而取香故其氣	-13.7583
至嫩也今茶之美者其質素良而所植之	-13.7583
還斾稽期則示風雷之變或見鷙獸毒蛇	-13.7583
一名紫述香出蒼梧鬱林	-13.7583
上裨天子聰而不自薦	-13.7583
以染黃不借礬而成色	-13.7583
姿七星羅心胸豈無	-13.7583
子地窨燒之如要烟聚入製過甲香一字	-13.7583
寺石水第三丹陽縣觀音寺	-13.7583
山寺石水第二蘇州虎	-13.7583
環非環玦非玦中有迷離玉	-13.7583
相雜條葉並同深紅冠子	-13.7583
笋并葉畏流其膏	-13.7583
納兄子俶怪納無所備不敢問之乃私蓄	-13.7583
茶宜者凡七等揚子江南零水第一無錫	-13.7583
葉中細葉下抽金線細細	-13.7583
觀文殿前兩廂為堂	-13.7583
還缺缺還圎此月一缺圎何年君不見	-13.7583
黄赤者其氣類於麝故名焉其品之下者	-13.7583
􁃉	-13.7583
之上瑞比或以羞王公登玉食自有此山	-13.7583
也客有熟於兩浙者言	-13.7583
佳茶不可名其鮮馥也	-13.7583
僣	-13.7583
即就散滅此茶之變也時人謂之茶百戲	-13.7583
和為一塊油紙裹入	-13.7583
和陳子良海棠四首	-13.7583
唐人以對花啜茶為殺風景故王介甫詩	-13.7583
安息香樹出波斯國波斯呼為辟邪樹	-13.7583
巖瀑布用之亦不下南零以是知客之説	-13.7583
徐伯珍宅南九里有髙山班固謂之九	-13.7583
有此菌未有此遇也遇不遇無	-13.7583
江水第六淮水最下第七	-13.7583
洸	-13.7583
浸取汁入塩少許簽子簽	-13.7583
瀨溪色至清水味甚冷	-13.7583
炙将咱夫蘭汁徐徐塗之汁盡為度食之	-13.7583
焸	-13.7583
玉清慶雲無疆夀龍玉葉長春	-13.7583
筆硯精良人生一樂	-13.7583
菊散金風起荷疎玉露圓	-13.7583
處幾得正冠人當知露井側復與夭桃鄰	-13.7583
言語蹇澀精神昏	-13.7583
金光明經謂之鉢怛羅香湼槃	-13.7583
金谷千花莫漫煎其意在花非在茶也余	-13.7583
離其處水功其半	-13.7583
􁪸	-13.7583
不用取榅桲研為膏别	-13.7583
之良者惟在瓊崖等州俗謂	-13.7583
云余與洪上座同宿潭之碧	-13.7583
似梔子冬生葉可煮	-13.7583
益佳燒時以雲母石或銀葉襯之黄太史	-13.7583
研極細入膏内相和研勻	-13.7583
綴於條上璀錯相間	-13.7583
而大子黑色大如山茱萸	-13.7583
賜蜀茶三觔蠟面茶二觔武班官各有差	-13.7583
彈子爐中爇一似百花迎曉風野花香	-13.7583
一旗猶可過是則老矣此所以為難得也	-13.7584
之間以其萌茁紫而似	-13.7584
取出爇之再投少許蜜捻作餅子亦可此	-13.7584
煉蜜和令稀稠得所盛以不津	-13.7584
優劣羊比齊魯大邦魚比邾莒小國	-13.7584
慕肅之風専習茗飲彭城王謂	-13.7584
日顧我為卿設邾莒之食亦有酪奴因此	-13.7584
曰卿不慕王侯八珍	-13.7584
沉香檀香乳香丁香甘松零陵香丁	-13.7584
茗不中與酪作奴髙祖大笑彭城王	-13.7584
茗飲為酪奴時給事中劉	-13.7584
謂肅曰卿不重齊魯大邦而愛邾莒小國	-13.7584
穪	-13.7586
白尤妙剉作小片煉白蜜一	-13.7586
並則直起而無旁枝	-13.7586
垂采煒於芙蓉流芳越乎蘭林	-13.7586
我嶺南茶爛賞飛花雪	-13.7586
以銀合閉之詰旦	-13.7586
佛書謂之天澤香言其潤澤也	-13.7586
年罷郡用意精求獲數角投之	-13.7586
視其肉已化為水矣衆服其廣識	-13.7586
名詹香生髙山中葉如老椿	-13.7586
拜勅祭泉頃之發源	-13.7586
殊而茶事則十人而九竹爐火候茗椀清	-13.7586
丁謂茶圖獨論採造之本至	-13.7586
之四院冠於此州其後民間稍稍厚賂以	-13.7586
也文震亨長物志	-13.7586
先以生蘿蔔擦了乳鉢	-13.7586
土力皆有餘故也如雀舌麥顆者極下材	-13.7586
堡	-13.7586
始從進士貢在京師或貽之硯	-13.7586
桂州出古終藤結實如鵝毳	-13.7586
水即微減供堂者畢水已半之太守造畢	-13.7586
中亦有麝香草似紅蘭而甚香最宜合香	-13.7586
之功而成之良可怪也然而天地之間事	-13.7586
二郡十年徃還道由鄉國每得其尤者命	-13.7586
其花成時如鵝毳抽其緒紡之以作布	-13.7586
出占城國樹老而仆埋於土而腐外	-13.7586
桂花或梅或蘭視之宛然取之若影酒乾	-13.7586
桓宣武有一督將因	-13.7586
樺根也爇之類煎香或云衡山亦有不及	-13.7586
磽	-13.7586
舍東種早韭生計似庾郎	-13.7586
華酒杯酌酒輙有異香	-13.7586
誤墜地毁焉乃匣歸埋	-13.7586
不知何處去桃花依舊笑春風後	-13.7586
以為䱓案酒薦馨	-13.7586
則微捲如髪之鬈	-13.7586
廣雅檦竹頭䱢滇池所饒亦名竹丁	-13.7586
所思亭海棠初開折贈兩使者	-13.7586
更異常不得與君同勝賞空燒銀燭照紅	-13.7586
桃也者山桃也煮以為豆實也	-13.7586
毉	-13.7586
温無毒主内外障眼去三蟲療五痔	-13.7586
甚類金線冠子而堆	-13.7586
硬條冠子也色絶淡	-13.7586
納為吳興太守時衛將軍謝安常欲詣納	-13.7586
羭	-13.7586
自商山茹芝而五臺天花亦甲羣彚仙居	-13.7586
交趾有蜜香樹榦似	-13.7586
六百四十片入腦子小	-13.7586
削之自卷咀之柔	-13.7586
北有棗栗之利民雖不	-13.7586
后稷葬焉爰有膏	-13.7586
呫	-13.7586
嗶	-13.7586
堁	-13.7586
天行時氣宅舎怪異並燒之有驗	-13.7586
木皮而結者謂之青桂氣尤清在土中嵗	-13.7586
未盡余嘗志之及刺永嘉過桐廬江至嚴	-13.7586
汛	-13.7586
泉珠散落如飛雨不絶	-13.7586
洫	-13.7586
湯㸃澄清調麝次入沉香次入丁香次入	-13.7586
生黄梅縣山谷黄州生麻	-13.7586
用第其品作菌譜	-13.7586
能發衆香故多用之以和香焉	-13.7586
菌事繄欲盡菌	-13.7586
軺	-13.7586
金次入餘茶及定粉共研細乃入蜜	-13.7586
物象者禽獸蟲魚花草之屬纖巧如畫但	-13.7587
何如酪漿肅對曰羊者是陸産之最魚者	-13.7587
水族之長所好不同並各稱珍以味言之	-13.7587
裏水丹青巧畫工夫學不成却笑當	-13.7587
陸鴻漸煎茶贏得好名聲	-13.7587
東晉李鄂立春日命以蘆菔芹	-13.7589
拔搴𤣥芝兮列樹芋荷	-13.7589
檀蜜水拌勻入新器中以紙封十數重地	-13.7589
攔	-13.7589
山碧水之鄉月澗雲龕之品慎勿賤用之	-13.7589
簰	-13.7589
六味同搗為末煉蜜捜拌	-13.7589
右煉蜜和勻捻作餅子燒之	-13.7589
之因名睡香四方竒之謂	-13.7589
之際傍生新葉其色紅	-13.7589
其前不得而曉者此其一也洛陽	-13.7589
其膠如飴名安息香六七月堅凝乃取之	-13.7589
削之力花既萎落亟	-13.7589
去其子屈盤枝條使不離散	-13.7589
廢用凡與之試藝春官實二年登上第行	-13.7589
永寧寺僧房樓觀一千餘間	-13.7589
甲申月丁酉日記	-13.7589
而不舒不分與分之太數皆花之病也花	-13.7589
至也花品舊傳龍興寺山子羅漢觀音彌	-13.7589
也色淡紅惟大葉有類大旋心狀	-13.7589
云去年今日此門中人面桃花相映紅人	-13.7589
其踏罨與頓遞祠祭法同	-13.7589
清秋幕府井梧寒	-13.7589
溥朝廷謂茶馬司本以博馬不可以博糴	-13.7589
章甫詩江淮九月時輸海稻盈腹	-13.7589
開元中獵人葉氏逐獸至長城	-13.7589
丁香一名丁子香以其形似丁子也雞舌	-13.7589
二蘄州蘭溪石下水第三峽州扇子山下	-13.7589
出波斯國亦出拂林國拂林呼為	-13.7589
勞大與甌江逸志	-13.7589
合香油亦出大食國氣味類	-13.7589
呂氏春秋云桂枝之下無雜木	-13.7589
地竒想得霜臺春思滿一枝聊遣博新詩	-13.7589
故謂之大秦國人合香謂之香煎其汁為	-13.7589
新年鳥聲千種囀二月楊花滿路飛	-13.7589
有香者百無一二葢木得水方結	-13.7589
樁又令茶馬官程之邵兼轉運使由是數	-13.7589
殻薄而平瓤厚而瑩膜如桃花紅核如丁	-13.7589
白樂天方齋劉禹錫正病酒	-13.7589
茸茸突起花多半開者如鈴腦子菊花瓣	-13.7589
蘷	-13.7589
郈	-13.7589
鑒神鑒也其敢隠	-13.7589
閶門風暖落花乾飛	-13.7589
鰧	-13.7589
麗多已是譜中推第一不須還更問如何	-13.7589
乾用蜜酒中拌令得所再浸一宿慢	-13.7589
作餅子尤宜作帶香龍涎香	-13.7589
動色曰此中有人不得如此豈有説耶琛	-13.7589
匣葢並鐫御題詩與硯同𨽻書鈐	-13.7589
去雲間幽路危唯應報春鳥得共斯人知	-13.7589
夫人執蘩菜以助祭	-13.7589
師絶於茶味代宗召	-13.7589
復在襄陽試作甚佳嘗語君謨亦以為然	-13.7589
收綸蘆中鼓枻樵青蘇蘭薪桂竹裏煎茶	-13.7589
曰陛下投臣以赤心臣敢不報	-13.7589
砭	-13.7589
端樣以平直斗樣為貴	-13.7589
至康居其香乃樹皮膠燒之通神	-13.7589
苦而有味如忠諫之可活國	-13.7589
醉伏上以棗投琛琛乃取栗擲上	-13.7589
飲牽吟分失饑明年應不見留此贈巴兒	-13.7589
成是貝錦貝文如錦也	-13.759
論夏后氏以𤣥貝詩	-13.759
詩横行足使斑寅懼乾死能令瘧鬼亡	-13.759
世言蟹毒甚過食風乃乗	-13.759
僧求之者多不暇精擇不及劉氏逺甚余	-13.759
其半為今劉侍郎希范家所有兩地所産	-13.759
取出待水乾入乳鉢	-13.759
於京師里中昌黎韓愈其友人也	-13.759
實廣上而圓下大可徑寸有五分香氣清	-13.759
比並茶園地色亦相類但土人不甚植爾	-13.759
不食羊肉及酪漿等	-13.759
取汲多者其沸如魚目微有聲為一沸	-13.759
始盛近世有下湯運七别施妙訣使	-13.759
新泉涓涓然酌之其江水取去人逺者井	-13.759
縐縮如腦子狀荼䕷菊心青黄	-13.759
筍泉鳴知水急雲來覺山近不愁花不飛	-13.7592
可以芼鮮可以漬蜜	-13.7592
丸彈子大每服溫酒化	-13.7592
燙	-13.7592
詩胡生辭以不能栁	-13.7592
寳二曰惟精惟一曰乾隆宸翰	-13.7592
日行五百里力舉千斤	-13.7592
獨坐其季父暐適入學館見之大用嗟異	-13.7592
中文其甲堪卜馮夷所命切和靈曲	-13.7592
右以餘香别為細末木香水和捻	-13.7592
壁每於春時木芍藥盛開之際聚	-13.7592
樹松身異葉花果	-13.7592
油并煉過好蜜二	-13.7592
僧因之中頂築室以	-13.7592
博羅縣東蒼州足簟竹	-13.7592
及期獲一兩餘服未竟而	-13.7592
多少在風雨時與不時也有間	-13.7592
搆人力俟雷之發聲併手採摘以多為貴	-13.7592
氣力不衰時到城市	-13.7592
眥	-13.7592
福州之西三舎曰水口地少加寒已不可	-13.7592
者謂之歇枝有仍歳生者半生半歇也春	-13.7592
若獲一兩以本處水煎服即能	-13.7592
蟲蛀者煎此香冷淋之即辟也	-13.7592
躪	-13.7592
里顔色更少氣力轉勝	-13.7592
乎成質陶乎成器復其質非生死類全斯	-13.7592
寂寞寄寒枝舊曲聞來似歛睂	-13.7592
影娥池有女香樹細枝葉婦人	-13.7592
汍	-13.7592
涪州出三般茶最上	-13.7592
漬之曝乾色紅而甘酸	-13.7592
率以七升為限雖不	-13.7592
百節不舒聊四五啜與醍醐甘露抗衡也	-13.7592
蜀西南人謂茶曰蔎	-13.7592
陸龜蒙嗜茶置園顧渚山下	-13.7592
露芽錯落一畨榮綴玉含珠散嘉樹	-13.7592
頭縮項味珍襄川詞林藻詠名播錦	-13.7592
香反作桑根想終不聞香氣諸相從心起	-13.7592
人咸云兎毫無優劣筆手有巧拙	-13.7592
出獵至一縣界憇蘭若中覺	-13.7592
厯城北二里有蓮子湖	-13.7592
味苦無毒主惡氣注心腹痛下氣令體	-13.7592
和諸香或作湯丸用得酒良	-13.7592
嚳	-13.7592
木之實生於海瀕巖險之逺而能名徹上	-13.7592
棄悟用人慎好惡戒玩物無不三致意焉	-13.7592
氣滌慮蠲病析	-13.7592
水第十丹陽縣觀音寺水第十一揚州大	-13.7592
無端隴上翛翛麥横起	-13.7592
者如錢小者如龍目色似金	-13.7592
至一處竒泉怪石非人境也有桃數百株	-13.7592
金柑在他柑特小	-13.7592
香禮神漢武故事昆邪王殺休屠王	-13.7592
高而寂寥無紀將尤異之物昔所未有乎	-13.7592
麻縷之與菽粟然	-13.7592
􁃯	-13.7592
􁠥	-13.7592
䔧	-13.7592
䗤	-13.7592
交榦連枝岡嶺相接	-13.7592
八兩細劈作片子以臈茶清浸一宿控出	-13.7592
初沸則水合量調之以鹽味謂棄其啜餘	-13.7592
又名薰草生零陵山谷葉如羅勒山海經	-13.7592
啜不消亦然矣茶性儉不宜廣則其味黯	-13.7592
圓華髙懸準天極也	-13.7592
妄認地菘為火	-13.7592
嬭	-13.7592
寒跏趺謝衾枕	-13.7592
寛二寸四分下寛二寸七分厚一寸五分	-13.7592
寺啄木嶺與夀州常州	-13.7592
延蔓蓊鬱縁坡被崗	-13.7592
憀	-13.7592
所孕和氣深時抽玉笤短輕	-13.7592
昭帝元始元年穿	-13.7592
曰某自南零齎至	-13.7592
槄	-13.7592
檀越日造門求觀湯戲全自咏詩曰生成	-13.7592
檘	-13.7592
欲取香伐之經年其根榦枝節各有别色	-13.7592
為末蜜拌焚之四和香沉檀	-13.7592
燒存性為末煉蜜和劑入臼杵三五百下	-13.7592
竇等州惟産生結香	-13.7592
細嚼花鬚味亦長新芽一粟葉間藏	-13.7592
結華嫩蘂初成管尋來青靄曙欲去紅雲	-13.7592
絶麗無因歸去賞芬芳偶然	-13.7592
羅浮山下四時春盧橘楊梅次第新	-13.7592
與襄州荆南義陽郡同生鳯亭山	-13.7592
舊紫端朗月踈星硯	-13.7592
[...]
