<unk>	0
<s>	0
</s>	0
/	-3.19845
)(	-3.55632
之	-4.11244
也	-4.18724
)	-4.40464
(	-4.5045
而	-4.70184
則	-4.9413
者	-4.94578
以	-4.98097
不	-5.18173
其	-5.2165
,	-5.30198
為	-5.34913
有	-5.3532
故	-5.47418
言	-5.55471
是	-5.59719
於	-5.62388
。	-5.64471
○	-5.66916
曰	-5.7587
人	-5.76688
無	-5.91127
謂	-5.91614
矣	-5.93441
此	-5.93736
至	-6.09068
皆	-6.09527
云	-6.10961
子	-6.16509
上	-6.20584
注	-6.24683
君	-6.25261
與	-6.25963
行	-6.2967
孝	-6.31192
反	-6.31742
亦	-6.31889
非	-6.33199
▁	-6.33575
下	-6.34232
禮	-6.35087
鄭	-6.3525
註	-6.3572
臣	-6.38001
一	-6.39983
事	-6.40675
敬	-6.41354
乎	-6.42544
焉	-6.43024
親	-6.44751
自	-6.44878
天	-6.45579
爲	-6.45936
于	-6.46838
明	-6.47468
必	-6.50055
所	-6.54484
能	-6.56769
玄	-6.56915
:	-6.56916
在	-6.58243
然	-6.58359
及	-6.61703
如	-6.64751
又	-6.64794
大	-6.65564
道	-6.66738
生	-6.67888
文	-6.6844
徳	-6.73389
▁(	-6.74495
疏	-6.76713
雖	-6.77863
父	-6.79745
義	-6.80375
用	-6.80618
天子	-6.80982
夫	-6.81945
猶	-6.82783
樂	-6.83526
若	-6.84244
三	-6.85167
𤣥宗曰	-6.85198
所以	-6.85597
作	-6.86416
經	-6.88056
民	-6.88287
可	-6.88748
愛	-6.90277
同	-6.90562
君子	-6.91843
士	-6.92024
正	-6.92093
王	-6.92716
稱	-6.95691
身	-6.96154
中	-6.96541
教	-6.97239
見	-6.97531
順	-6.97953
祭	-6.98633
乃	-7.00749
使	-7.02974
後	-7.03032
已	-7.03209
天下	-7.03417
國	-7.04674
因	-7.04814
始	-7.05299
者也	-7.06056
本	-7.06838
諸侯	-7.07404
得	-7.08253
時	-7.09182
治	-7.10415
從	-7.10922
知	-7.11021
尊	-7.11798
先	-7.15008
立	-7.17414
五	-7.17776
服	-7.20122
凡	-7.21492
成	-7.21868
名	-7.21985
以為	-7.21998
當	-7.22455
即	-7.22956
司馬光曰	-7.23599
説	-7.23633
貴	-7.24655
學	-7.24887
心	-7.24905
惟	-7.2627
命	-7.26727
公	-7.27048
分	-7.2718
居	-7.27309
仁	-7.27692
何	-7.27692
孝經	-7.28168
忠	-7.28204
地	-7.28352
既	-7.29716
家	-7.29735
章	-7.29962
四	-7.31126
法	-7.31165
易	-7.32071
子曰	-7.33334
長	-7.33531
詩	-7.34371
周	-7.3456
惡	-7.35952
善	-7.35977
德	-7.36447
夫子	-7.36613
愛敬	-7.37238
聖人	-7.37848
理	-7.3868
官	-7.3912
日	-7.40162
出	-7.40999
諸	-7.41125
而不	-7.41668
相	-7.41846
養	-7.42658
傳	-7.42918
父母	-7.44028
致	-7.44057
取	-7.44093
大夫	-7.44328
弟	-7.44399
終	-7.44932
書	-7.45648
未	-7.46523
和	-7.46725
字	-7.47348
音	-7.47889
重	-7.48042
之義	-7.48189
葢	-7.48791
不可	-7.49066
二	-7.49073
問	-7.50179
之道	-7.51224
主	-7.5145
古文	-7.51895
今	-7.51969
正義曰	-7.52172
而後	-7.53347
天地	-7.53766
師	-7.53928
或	-7.55478
古	-7.55752
故曰	-7.56005
安	-7.5647
喪	-7.59098
多	-7.59878
將	-7.60206
然則	-7.60654
合	-7.614
亂	-7.62167
不能	-7.63375
欲	-7.63638
聞	-7.63981
我	-7.64266
常	-7.6497
而已	-7.66462
嚴	-7.6668
且	-7.66914
盡	-7.67168
孔子	-7.67613
諫	-7.69189
守	-7.69231
外	-7.6934
敎	-7.69693
過	-7.70422
志	-7.70935
物	-7.71081
祀	-7.71569
宗	-7.72014
復	-7.72098
舉	-7.72586
世	-7.72725
是以	-7.73498
食	-7.73626
政	-7.74105
極	-7.74139
所謂	-7.74249
通	-7.74636
盖	-7.74665
失	-7.74901
内	-7.75183
總	-7.75334
起	-7.75756
去	-7.76299
聖	-7.76323
卿大夫	-7.76429
朝	-7.76439
母	-7.76715
說	-7.77145
思	-7.77243
也故	-7.77254
不敢	-7.77695
刑	-7.77877
固	-7.77976
六	-7.78052
可以	-7.78894
祖	-7.78949
處	-7.79656
也然則	-7.8104
遂	-7.81223
位	-7.8131
宜	-7.81603
利	-7.81918
陳	-7.81932
情	-7.82182
節	-7.82209
辭	-7.835
齊	-7.83512
各	-7.83779
耳	-7.84487
謂之	-7.84767
己	-7.84788
正義曰云	-7.848
性	-7.8498
今文	-7.8562
廟	-7.8598
之事	-7.86722
入	-7.86746
音義	-7.86754
豈	-7.87226
語	-7.87749
老	-7.87901
信	-7.88365
至於	-7.89029
小	-7.89072
亡	-7.8909
先王	-7.89478
曽子	-7.89688
七	-7.89729
視	-7.89995
禮樂	-7.90475
意	-7.90537
獨	-7.90702
實	-7.92895
存	-7.93896
進	-7.94197
序	-7.9459
何也曰	-7.94911
不得	-7.95
不知	-7.95711
方	-7.95802
難	-7.95922
也云	-7.96873
數	-7.97265
受	-7.97417
引	-7.97956
事君	-7.98056
衆	-7.98275
哀	-7.98349
著	-7.99095
美	-7.99153
體	-7.99223
化	-7.99423
發	-7.99604
庶人	-7.99729
文王	-8.00099
篇	-8.00854
益	-8.00914
盛	-8.0119
制	-8.01652
逺	-8.0199
由	-8.01992
曾子	-8.02063
賢	-8.02359
然後	-8.03398
夏	-8.03624
異	-8.03762
疑	-8.03969
如此	-8.04383
釋	-8.04398
近	-8.04447
變	-8.04887
宗廟	-8.0498
十	-8.05007
直	-8.05295
兄	-8.0548
改	-8.05648
設	-8.0578
神	-8.05879
恭	-8.06052
帝	-8.06207
又曰	-8.06689
首	-8.07068
明堂	-8.07695
吾	-8.08368
保	-8.09016
少	-8.09092
死	-8.0925
備	-8.10153
令	-8.10173
尚	-8.10359
案	-8.10703
傷	-8.10905
功	-8.1119
哉	-8.11206
加	-8.11776
也言	-8.119
春秋	-8.12132
前	-8.12474
兼	-8.12981
觀	-8.13485
奉	-8.13861
孝子	-8.13972
按	-8.1404
並	-8.14166
之心	-8.14461
歸	-8.15044
定	-8.15078
:「	-8.15159
誠	-8.15345
唯	-8.16076
初	-8.16136
舜	-8.16149
䘮	-8.1668
富	-8.17118
論	-8.17198
力	-8.17317
九	-8.17404
萬	-8.17831
郊	-8.1785
争	-8.18166
斯	-8.18192
承	-8.18571
執	-8.18642
好	-8.18759
深	-8.1934
享	-8.19349
但	-8.1936
别	-8.19457
次	-8.19592
感	-8.19755
之言	-8.19933
謹	-8.2014
載	-8.20843
殺	-8.20975
朱子	-8.21062
興	-8.2119
四海	-8.2153
記曰	-8.22064
孝弟	-8.22701
南	-8.23184
社稷	-8.23195
參	-8.2322
憂	-8.23779
行之	-8.23964
廣	-8.24305
其所	-8.24663
厚	-8.24838
者乎	-8.2498
之義也	-8.25001
降	-8.25223
之意	-8.2536
水	-8.25446
辨	-8.25659
應	-8.25708
孫	-8.25907
質	-8.26342
未有	-8.26526
述	-8.26662
悌	-8.2696
施	-8.27977
嘗	-8.28331
甚	-8.28997
弗	-8.29287
武	-8.29421
慎	-8.29805
必有	-8.30586
一人	-8.30988
莫	-8.31091
是故	-8.31387
疾	-8.31752
辟	-8.31771
西	-8.32086
獻	-8.32203
推	-8.32207
元	-8.32473
危	-8.32542
紀	-8.32664
月	-8.32737
也夫	-8.33095
共	-8.3327
止	-8.33951
率	-8.34128
聖人之	-8.34253
等	-8.34848
風	-8.34976
就	-8.35216
患	-8.35781
春	-8.35935
議	-8.35989
告	-8.36143
廢	-8.3655
類	-8.36686
足	-8.36852
爭	-8.37171
則不	-8.37235
聲	-8.37446
卿	-8.37675
蓋	-8.38176
以爲	-8.3829
宫	-8.38893
平	-8.39059
代	-8.39234
要	-8.39234
怨	-8.39277
克	-8.39604
》	-8.39881
修	-8.4012
寡	-8.40216
社	-8.40258
脩	-8.4032
氣	-8.40507
至于	-8.40755
對	-8.40847
東	-8.4094
之謂也	-8.4101
無所	-8.41065
之行	-8.41092
配	-8.41169
更	-8.41415
天下之	-8.41577
萬物	-8.41684
者謂	-8.41695
度	-8.41742
誼	-8.42094
葬	-8.4241
氏	-8.42632
何也	-8.42779
象	-8.42866
則必	-8.43063
息	-8.43236
恐	-8.43286
約	-8.43287
集	-8.43309
、	-8.43407
指	-8.43648
流	-8.43735
立身	-8.43819
是也	-8.43907
尚書	-8.43949
事親	-8.44184
具	-8.44602
陽	-8.44928
仁義	-8.44956
色	-8.45284
與曰	-8.453
右	-8.45303
㑹	-8.45641
其親	-8.45855
以明	-8.45866
之謂	-8.46002
戒	-8.46046
魯	-8.46376
上下	-8.46719
又云	-8.46738
禹	-8.46757
。《	-8.47168
孔	-8.47548
言之	-8.47566
友	-8.48141
讓	-8.48314
田	-8.48567
百	-8.48665
射	-8.49134
漢	-8.49234
爵	-8.49763
衰	-8.49911
求	-8.5012
高	-8.50121
御	-8.50661
晉	-8.50742
仕	-8.50747
坐	-8.51023
旣	-8.51049
詳	-8.51139
考	-8.51398
訓	-8.51401
悦	-8.51492
之禮	-8.51882
虞	-8.52109
自然	-8.52148
賤	-8.52215
恩	-8.52421
此章	-8.5246
比	-8.52714
年	-8.5323
苟	-8.5332
冠	-8.53561
退	-8.53646
爾	-8.53741
末	-8.53977
微	-8.54019
左	-8.54164
詩曰	-8.54485
故以	-8.54497
來	-8.54806
據	-8.54895
尊卑	-8.54935
。」	-8.55004
太	-8.55897
世子	-8.56539
行孝	-8.56789
足以	-8.5686
㫖	-8.57149
詩云	-8.57184
卽	-8.57404
任	-8.57484
尸	-8.57661
光	-8.57963
卜	-8.57983
正義	-8.58326
孝道	-8.58453
請	-8.58639
其身	-8.58739
罪	-8.59192
者矣	-8.59201
也注	-8.59212
人之	-8.59284
親也	-8.59442
逆	-8.59625
之大	-8.59651
寧	-8.59671
也又	-8.59779
示	-8.59865
之以	-8.59931
之後	-8.61071
則亦	-8.61537
要道	-8.61539
昭	-8.6176
百姓	-8.6179
而無	-8.61904
屬	-8.62236
慈	-8.62393
業	-8.62583
𤣥	-8.62795
羣	-8.63025
良	-8.63312
目	-8.63902
於此	-8.64035
至徳	-8.64104
繼	-8.64388
授	-8.64688
見於	-8.65107
賔	-8.65121
俱	-8.6525
周人	-8.65504
於天	-8.65755
之道也	-8.65778
道也	-8.65927
依	-8.66183
為孝	-8.66524
不孝	-8.66666
八	-8.66873
吉	-8.67125
侍	-8.6741
祭祀	-8.67474
之也	-8.67515
之名	-8.67521
君臣	-8.6753
明王	-8.67572
睦	-8.67688
間	-8.67729
達	-8.6774
治天下	-8.67789
𤼵	-8.67852
義也	-8.68237
記	-8.68262
鬼神	-8.68581
臨	-8.68631
棺	-8.68672
富貴	-8.6891
列	-8.68919
慮	-8.69066
侯	-8.6908
典	-8.69097
神明	-8.69409
除	-8.69415
不同	-8.69502
奠	-8.69586
出於	-8.69599
封	-8.69878
古之	-8.69986
於天下	-8.70307
資	-8.70739
以此	-8.70741
髙	-8.70857
主人	-8.70902
驕	-8.71091
之不	-8.71192
席	-8.7141
以孝	-8.71673
君子之	-8.71686
孟子	-8.71848
餘	-8.71856
司	-8.71934
四時	-8.7202
乎曰	-8.72044
周禮	-8.72133
祿	-8.72185
秋	-8.72193
孝也	-8.72296
卒	-8.72404
適	-8.72412
貴賤	-8.72576
原	-8.72869
彼	-8.73133
似	-8.7316
生於	-8.73222
予	-8.73311
全	-8.73677
始也	-8.73882
違	-8.73984
勝	-8.74277
為之	-8.74657
之間	-8.75014
下同	-8.75173
曽子曰	-8.75212
繇	-8.7537
而言	-8.75605
卑	-8.75625
申	-8.75782
俗	-8.75893
養老	-8.76164
衣	-8.76262
輕	-8.76498
庶	-8.76616
墨	-8.76631
端	-8.76638
器	-8.76667
兩	-8.76683
堂	-8.76856
辱	-8.76908
尤	-8.76922
則是	-8.76925
周公	-8.77044
聽	-8.77048
離	-8.77075
舊	-8.77116
燕	-8.77123
伯	-8.77126
之時	-8.77171
移	-8.77238
接	-8.77419
女	-8.77439
侍坐	-8.77496
扵	-8.77552
夫音扶	-8.77605
均	-8.77674
省	-8.77712
嵗	-8.77736
殷	-8.77969
簡	-8.78002
顯	-8.78003
教民	-8.78258
孝者	-8.78501
四方	-8.78546
藏	-8.7864
三年	-8.79078
土	-8.79108
五帝	-8.79197
皆有	-8.79391
子之	-8.79422
竝	-8.7955
動	-8.79781
門	-8.79792
君也	-8.79924
置	-8.79986
天之	-8.80085
儀	-8.80216
容	-8.80345
絶	-8.80397
後世	-8.8066
禍	-8.80667
擇	-8.8086
句	-8.80888
之於	-8.81066
溢	-8.812
妄	-8.81657
法也	-8.81889
敢	-8.82086
何以	-8.82185
風雨	-8.82374
無有	-8.82473
惡慢	-8.82494
冬	-8.82508
皇	-8.82544
秦	-8.82553
馬	-8.82607
肅	-8.82788
厥	-8.82804
揚名	-8.82828
史	-8.82846
季	-8.82852
趨	-8.82913
布	-8.82917
一也	-8.82968
校	-8.82974
寒暑	-8.83087
不敬	-8.8328
待	-8.83304
者以	-8.83379
上帝	-8.83477
婦	-8.83551
口	-8.83568
者言	-8.8371
此則	-8.83885
答	-8.8407
萬國	-8.84373
劉炫	-8.84499
則有	-8.84734
将	-8.85274
久	-8.85519
徒	-8.86062
矣故	-8.86469
不足	-8.86714
斷	-8.86801
成王	-8.86855
解	-8.86865
咸	-8.86973
禄	-8.87025
昔者	-8.87073
隂	-8.87256
曽	-8.87277
暴	-8.87295
饗	-8.87401
須	-8.87437
在於	-8.87497
宋	-8.87547
忘	-8.87659
北	-8.88028
覆	-8.88272
福	-8.8829
㣲	-8.88594
續	-8.88606
遺	-8.88655
之本也	-8.8868
終始	-8.88741
崇	-8.88842
此言	-8.89017
犯	-8.89193
手	-8.89308
則知	-8.89382
正義曰此	-8.89543
子孫	-8.89583
清	-8.89623
報	-8.89908
假	-8.89947
闕	-8.90079
强	-8.90256
於君	-8.90388
后稷	-8.90407
論語	-8.90556
精	-8.90618
不以	-8.90801
従	-8.90889
威	-8.90905
木	-8.90935
行也	-8.9102
之有	-8.91908
朱子曰	-8.92088
證	-8.92161
詔	-8.92226
弔	-8.92278
殊	-8.9252
悖	-8.92546
傳曰	-8.9259
人君	-8.92789
千	-8.92972
則民	-8.93099
揚	-8.93646
族	-8.9381
日月	-8.9387
式	-8.94138
其事	-8.94197
嗣	-8.94371
邪	-8.94404
火	-8.94421
悉	-8.94425
?	-8.94456
被	-8.94458
期	-8.94459
敗	-8.9448
純	-8.94481
納	-8.94483
陸	-8.94509
天地之	-8.94816
唐	-8.94966
禮記	-8.95458
小人	-8.95467
之事也	-8.95493
其心	-8.95537
特	-8.95788
國君	-8.95798
非孝也	-8.95899
薄	-8.96441
愛親	-8.96576
不可以	-8.96585
之所	-8.96716
也若	-8.96763
孝悌	-8.96847
偽	-8.97406
交	-8.97439
君之	-8.97545
怒	-8.97595
牲	-8.97926
刪	-8.98002
鄭注	-8.98081
敬之	-8.98274
徳教	-8.98431
之中	-8.98531
之至也	-8.98549
孰	-8.98748
昔	-8.98954
飾	-8.9905
滅	-8.99363
然而	-8.99636
維	-8.99718
左傳	-8.99963
其道	-8.99967
結	-9.00034
經文	-9.00041
孟子曰	-9.00223
室	-9.00367
草	-9.00569
姑	-9.0063
徳行	-9.0063
格	-9.00651
懷	-9.00653
便	-9.00663
無不	-9.00702
敦	-9.00706
以順天下	-9.00938
習	-9.01015
此書	-9.01016
父子	-9.01278
而不可	-9.0141
司馬光	-9.0143
左右	-9.015
曾	-9.01627
為大	-9.01828
喜	-9.01893
者則	-9.01974
是之謂也	-9.02366
儒	-9.02643
此經	-9.02887
嚴父	-9.0289
以禮	-9.03257
禘	-9.03387
孔子曰	-9.03509
孔傳	-9.0362
又何	-9.03704
禮也	-9.03977
王者	-9.04307
書曰	-9.04585
毁	-9.04658
薦	-9.04865
録	-9.05182
飲食	-9.05203
棄	-9.05291
鬼	-9.05555
隱	-9.05639
避	-9.05699
没	-9.05744
仁者	-9.05875
稷	-9.06116
諸侯之	-9.06127
表	-9.06161
之行也	-9.06228
附	-9.06758
歛	-9.06793
康	-9.06983
卷	-9.07042
配天	-9.07105
五刑	-9.07124
人心	-9.07261
無以	-9.07287
苦	-9.07291
敷	-9.07299
介	-9.07395
毅	-9.07488
故言	-9.0773
害	-9.0785
真	-9.07935
察	-9.08023
是也云	-9.08069
其所因者本也	-9.08085
而已矣	-9.08146
不失	-9.08303
而猶	-9.0845
其言	-9.08521
不違	-9.09197
遠	-9.09376
古文孝經	-9.09615
於孝	-9.0964
恭敬	-9.09825
不過	-9.10019
使之	-9.10074
以事	-9.1019
也然	-9.10256
務	-9.10265
先王之	-9.10663
敬也	-9.10668
又有	-9.11354
四者	-9.11409
之文	-9.11432
躬	-9.1183
大夫士	-9.11842
仲尼	-9.12165
雖有	-9.12684
面	-9.12794
於人	-9.12853
聴	-9.13532
也其	-9.13555
炫	-9.13779
其義	-9.13818
鄉	-9.13998
三者	-9.14093
毛	-9.14121
天道	-9.14195
讀	-9.14206
男	-9.14256
竟	-9.14257
繁	-9.14262
智	-9.14301
敘	-9.14316
謀	-9.14324
號	-9.14343
注云	-9.14351
盈	-9.1437
競	-9.14384
貞	-9.14403
雍	-9.1443
休	-9.14453
不敢毁傷	-9.14509
徃	-9.14532
司馬	-9.14535
覺	-9.14561
親愛	-9.14574
金	-9.14604
其上	-9.14612
履	-9.14626
錫	-9.14643
事父	-9.14651
故雖天子	-9.1468
大學	-9.14894
兄弟	-9.1494
士民	-9.15172
祖考	-9.15519
條	-9.16196
兆	-9.16222
於是	-9.16446
哭	-9.16787
充	-9.1679
望	-9.17152
引詩	-9.17193
其父	-9.17216
越	-9.17298
事父母	-9.17308
使人	-9.17519
之理	-9.17657
也詩曰	-9.17678
賜	-9.17999
責	-9.18255
懼	-9.18553
幼	-9.18864
識	-9.18938
范祖禹曰	-9.19113
逹	-9.19225
倫	-9.19302
迎	-9.19387
列國	-9.19407
之意也	-9.19439
不為	-9.19483
國之	-9.19507
也此	-9.19845
與之	-9.19848
莫不	-9.20039
朱氏	-9.20079
他	-9.2014
病	-9.20152
職	-9.20183
者何也曰	-9.20185
審	-9.20769
顧	-9.20962
姓	-9.21008
賞	-9.21031
譲	-9.21045
寒	-9.21082
資於事父以事君而敬同	-9.21242
事天	-9.21245
建	-9.21278
誰	-9.21412
而敬	-9.21439
恱	-9.21624
仲	-9.21865
切	-9.21897
賦	-9.21906
勞	-9.21924
商	-9.2193
牛	-9.21939
宰	-9.21987
天子之	-9.21988
開	-9.21999
也凡	-9.22057
威儀	-9.22063
清植	-9.22072
還	-9.22088
遇	-9.22096
父母之	-9.22117
素	-9.22155
車	-9.22164
并	-9.22176
行下孟反	-9.2219
龍	-9.22226
非先王之法言不敢道	-9.22263
纂	-9.22263
熊	-9.22287
勉	-9.22618
妻	-9.22685
恒	-9.22721
勤	-9.2292
受之	-9.23005
不言	-9.23296
受命	-9.23347
為臣	-9.23384
而行	-9.2344
三代	-9.23468
則人	-9.23522
私	-9.23537
慢	-9.23657
者亦	-9.23816
當時	-9.23822
汝	-9.23916
近於	-9.23923
故云	-9.24188
則猶	-9.24223
之人	-9.24524
也孟子曰	-9.24694
隂陽	-9.24856
而能	-9.24904
如此則	-9.25051
此皆	-9.25111
於親	-9.2537
愈	-9.25459
不必	-9.25469
言其	-9.25625
坎	-9.25787
三年之喪	-9.2588
未嘗	-9.26048
山	-9.26129
統	-9.26148
亦不	-9.27034
拜	-9.27209
夫人	-9.27518
而行之	-9.27586
運	-9.27612
可謂	-9.27735
龜	-9.27766
君臣之義	-9.27955
勿	-9.28071
垂	-9.28072
易曰	-9.28306
劉	-9.2843
痛	-9.28736
之上	-9.28826
則皆	-9.28964
飲	-9.29356
白	-9.29422
資於事父以事母而愛同	-9.29445
博	-9.29484
潔	-9.29603
幾	-9.29612
塞	-9.2963
是亦	-9.29699
况	-9.29804
親親	-9.2983
酒	-9.29846
甘	-9.29881
強	-9.29918
魏	-9.29929
華	-9.30073
路	-9.30123
后	-9.30252
梁	-9.30299
滅性	-9.30305
儉	-9.30326
采	-9.30366
稽	-9.30407
工	-9.3042
先儒	-9.30428
立教	-9.30429
羊	-9.30449
散	-9.30462
莊	-9.30462
干	-9.30481
昧	-9.30505
縣	-9.30515
扶	-9.30545
和睦	-9.30549
魚	-9.30551
哭不偯	-9.30567
昔者周公郊祀后稷以配天	-9.3058
是故非法不言非道不行	-9.30611
事父孝故事天明事母孝故事地察	-9.30629
子曰昔者明王	-9.30638
啟	-9.30649
必有尊也言有父也必有先也言有兄也	-9.30655
況	-9.3071
惠	-9.30712
户	-9.30722
武王	-9.30734
孝莫大於嚴父	-9.30811
居處	-9.30842
其本	-9.30872
得其	-9.30906
因地之利	-9.30989
彰	-9.31185
之學	-9.31188
以其	-9.31204
不善	-9.31307
也案	-9.31342
者謂之	-9.31343
子男	-9.31363
二字	-9.31868
舍	-9.31948
以治	-9.31967
一章	-9.32035
不愛	-9.32098
才	-9.32185
事也	-9.32261
古者	-9.32301
喪祭	-9.32681
篤	-9.32707
順天下	-9.32714
親之	-9.32735
生則	-9.32885
講	-9.32891
言行	-9.32912
其志	-9.33392
其子	-9.33404
念	-9.33487
故聖人	-9.33521
持	-9.33661
而成	-9.33662
本也	-9.337
貢	-9.3391
皆以	-9.33966
墓	-9.34083
一卷	-9.34181
仁也	-9.34249
道之	-9.34321
海	-9.34565
有二	-9.34628
於身	-9.34706
山川	-9.34724
喻	-9.3497
増	-9.35079
抑	-9.35141
冕	-9.35155
忠臣	-9.3523
窮	-9.35287
好惡	-9.35501
民之	-9.35701
夫孝	-9.35806
耕	-9.35808
夷	-9.35814
聖賢	-9.35848
有司	-9.35896
之孝	-9.35997
)○	-9.36112
後人	-9.36313
天子諸侯	-9.36352
鄭𤣥	-9.36608
無道	-9.36966
博愛	-9.36983
畜	-9.37058
育	-9.37328
陵	-9.37357
誦	-9.37385
文王之	-9.37454
輯	-9.37598
諱	-9.37649
撰	-9.37685
諸儒	-9.37712
畢	-9.37735
財	-9.37818
恵	-9.3782
不欲	-9.37842
畧	-9.37994
造	-9.38173
誤	-9.38383
負	-9.38491
錯	-9.38564
最	-9.38591
包	-9.38751
舎	-9.38784
根	-9.3885
怨惡	-9.3888
安親	-9.39015
隠	-9.39184
謙	-9.39231
味	-9.39354
遜	-9.39366
宗祀文王於明堂以配上帝	-9.39399
専	-9.39456
立身行道	-9.39502
丘	-9.39521
竊	-9.39534
黄	-9.39553
雲	-9.39573
敬其兄則弟	-9.39577
心乎愛矣遐不謂矣中心藏之何日忘之	-9.39585
聖人之教不肅而成其政不嚴而治	-9.39603
聖人因嚴以教敬因親以教愛	-9.39622
祿位	-9.3963
詩云自西自東自南自北無思不服	-9.39631
穀	-9.39636
子曰五刑之屬三千而罪莫大於不孝	-9.39641
沒	-9.39644
博士	-9.39657
革	-9.39661
綏	-9.39676
收	-9.39683
故母取其愛而君取其敬兼之者父也	-9.39684
言滿天下無口過行滿天下無怨惡	-9.39685
口無擇言身無擇行	-9.39692
衡	-9.39699
頗	-9.39705
夫然故生則親安之祭則鬼享之	-9.39705
是以天下和平災害不生禍亂不作	-9.3971
詩云淑人君子其儀不忒	-9.39727
昀	-9.39731
以順	-9.39741
以臨其民是以其民畏而愛之則而象之	-9.39745
朱	-9.39771
豈不	-9.39785
天地之經而民是則之	-9.39816
百官	-9.39893
嚴父莫大於配天則周公其人也	-9.39912
容止可觀進退可度	-9.39942
經義	-9.40021
而下	-9.40115
十二	-9.40289
其親也	-9.40362
為人子者	-9.40366
不争	-9.40405
所以教	-9.40449
明察	-9.4061
天性	-9.41008
居上	-9.41192
則其	-9.41232
皆是	-9.4132
飬	-9.41518
必先	-9.41553
廣大	-9.41635
凶	-9.41679
著於	-9.41698
性也	-9.41715
聖王	-9.42176
之外	-9.42252
行不	-9.42318
形	-9.42605
朋友	-9.42686
義者	-9.42904
有功	-9.4311
敬者	-9.43232
禁	-9.43234
慕	-9.43372
也謂	-9.43595
教化	-9.43838
者必	-9.4399
夫子之	-9.44089
甚矣	-9.44122
為天子	-9.44238
各有	-9.44284
臣下	-9.44329
知其	-9.44667
經傳	-9.44728
齒	-9.44728
專	-9.44764
泰	-9.44964
禮者	-9.44997
罔	-9.45122
孝子之	-9.45226
不順	-9.45332
例	-9.45368
言夫	-9.45376
子言之	-9.45383
助	-9.45392
無所不	-9.45512
貌	-9.45526
者何也	-9.4561
之始也	-9.45724
其位	-9.45729
修身	-9.45814
始於	-9.45826
一日	-9.46049
其文	-9.46062
其徳	-9.46071
之内	-9.4612
為善	-9.46151
不義	-9.46308
以教	-9.46463
邦	-9.46568
政教	-9.46583
上之	-9.4662
教之	-9.46654
然其	-9.4667
遵	-9.46746
致其	-9.46828
澤	-9.46876
孔安國	-9.46902
父兄	-9.46948
生而	-9.47104
本於	-9.47125
之則	-9.47264
積	-9.47309
歌	-9.47364
㡬	-9.47438
圜丘	-9.47476
妻子	-9.47565
舞	-9.47648
耻	-9.47695
故得	-9.47756
恕	-9.47777
杖	-9.4787
人則	-9.47884
孝之	-9.47897
幽	-9.48134
隆	-9.48181
仁人孝子	-9.48199
不相	-9.48256
升	-9.48338
歎	-9.48349
律	-9.48463
勸	-9.48504
靡	-9.48541
子夏	-9.48559
侮	-9.48588
逮	-9.48703
豫	-9.48842
滿	-9.48852
甫刑	-9.48901
此章言	-9.48912
父子之道	-9.48984
取之	-9.49142
甫	-9.49147
差	-9.49152
聚	-9.49216
膚	-9.49274
詩云赫赫師尹民具爾瞻	-9.49286
澄	-9.49302
頌	-9.49442
叔	-9.49498
再	-9.49499
徧	-9.49529
濫	-9.49555
驕溢	-9.49566
太師	-9.49568
乖	-9.49569
措	-9.49569
拂	-9.49575
朝廷	-9.49598
川	-9.49607
故得萬國之懽心以事其先王	-9.49622
非先王之法服不敢服	-9.49625
故親生之膝下以養父母日嚴	-9.49633
鼎	-9.49648
子曰昔者明王之以孝治天下也	-9.49651
標	-9.49655
朝夕	-9.49656
舊本	-9.49656
夫孝始於事親中於事君終於立身	-9.49659
都	-9.4966
有虞氏	-9.4966
和睦無怨	-9.49663
秉	-9.49664
永	-9.49668
掌	-9.49668
故明王之以孝治天下也如此	-9.49668
萬邦	-9.49673
殯	-9.49675
是以其教不肅而成其政不嚴而治	-9.49678
示之以好惡而民知禁	-9.4969
管	-9.49695
綱	-9.49721
!	-9.49755
本盡矣死生之義備矣孝子之事親終矣	-9.4976
先王見教之可以化民也	-9.49911
無私	-9.4994
里	-9.49971
然且	-9.50002
為士	-9.50162
是謂	-9.50427
尊嚴	-9.50471
不仁	-9.50602
殷人	-9.50651
有所	-9.50667
疎	-9.5067
也天子	-9.50829
愛敬之	-9.50932
雨	-9.51055
不與	-9.51455
敬讓	-9.51914
子弟	-9.51949
弟子	-9.52091
八十	-9.52399
不失其	-9.52438
身行道揚名於後世以顯父母孝之終也	-9.52444
慈愛	-9.52609
猶有	-9.52768
未能	-9.5291
失其	-9.53011
上文	-9.53053
教也	-9.5338
教以孝所以敬天下之為人父者	-9.53593
郊祀	-9.53666
故君子	-9.53668
禰	-9.53822
衣服	-9.5388
吕刑	-9.53908
以上	-9.54042
法則	-9.54127
之日	-9.5413
國家	-9.54526
從之	-9.54758
增	-9.55268
兵	-9.55279
至徳要道	-9.55472
之說	-9.5556
隨	-9.55691
其行	-9.55696
上章	-9.55767
毁傷	-9.55797
以事君	-9.55806
源	-9.55813
君父	-9.55867
不生	-9.55961
於上	-9.56006
以道	-9.56021
未有不	-9.56187
正義曰夫子述	-9.56285
壇	-9.56509
斬衰	-9.5671
循	-9.56793
要君	-9.56844
南郊	-9.5686
子路	-9.5702
送	-9.57234
終於	-9.57246
不安	-9.57274
鄭氏	-9.57368
敬長	-9.57447
以來	-9.57529
播	-9.57802
漸	-9.57885
也又云	-9.57916
五者	-9.5837
人也	-9.58435
則猶之	-9.58535
願	-9.58542
煩	-9.58716
乆	-9.58862
免	-9.58866
虚	-9.58936
無所不通	-9.58972
忠順	-9.59008
孔氏	-9.59017
之節	-9.59042
選	-9.59088
必以	-9.5929
則無	-9.59348
傳之	-9.59353
所言	-9.59402
人情	-9.59438
嘉	-9.59458
可知也	-9.59598
仍	-9.59633
補	-9.59653
帥	-9.59721
匡	-9.59733
敬愛	-9.5975
往	-9.59759
中庸	-9.59777
稍	-9.59794
災	-9.59811
贊	-9.59837
之屬	-9.59892
之教	-9.59977
編	-9.59985
樂音洛	-9.60027
譽	-9.60093
許	-9.60143
罰	-9.60191
諫争	-9.60244
略	-9.60285
以成	-9.60287
靈	-9.60299
殆	-9.60302
雅	-9.6031
正義曰此依鄭注也	-9.60398
自為	-9.60401
堯	-9.60403
計	-9.60413
追	-9.60472
去聲	-9.6049
馬光曰	-9.60493
諫諍	-9.60507
惑	-9.60514
諡	-9.60537
乾	-9.6057
笑	-9.60585
究	-9.60592
江	-9.60609
劓	-9.60609
獲	-9.60637
減	-9.60642
閒	-9.60654
歴	-9.60658
徵	-9.60667
注同	-9.60668
随	-9.60672
𦵏	-9.60673
盡忠	-9.60676
而不敢	-9.60682
詩云愷悌君子民之父母	-9.60689
考證欽定四庫全書孝經注疏卷	-9.60698
柔	-9.60717
箴	-9.60724
創	-9.60729
簠簋	-9.60737
槨	-9.60747
曰君子之教以孝也非家至而日見之也	-9.60748
委	-9.60749
玉	-9.60762
踈	-9.60762
斂	-9.60766
襲	-9.60776
偏	-9.60777
饋	-9.60781
照	-9.60782
富貴不離其身然後能保其社稷而和其	-9.60783
有不	-9.608
悔	-9.60819
非先王之徳行不敢行	-9.60827
彌	-9.60833
立於	-9.60844
言思可道行思可樂	-9.60846
齊衰	-9.60848
君子則不然	-9.60865
日月星辰	-9.60893
夏后氏	-9.60916
從父之令	-9.6098
首章	-9.61123
出入	-9.61228
不忍	-9.61287
(○	-9.61295
推之	-9.61307
貴也	-9.6147
光曰	-9.61473
忠孝	-9.61582
宋人	-9.61596
與人	-9.61782
以生	-9.61842
中心	-9.61897
以見	-9.61969
不毁	-9.61984
鄭注云	-9.62009
為禮	-9.62074
於下	-9.62106
文公	-9.62125
上古	-9.62258
為君	-9.6239
非謂	-9.62589
曾子曰	-9.6278
愛人	-9.62833
行事	-9.6288
焉見	-9.62938
也以	-9.6296
問於	-9.63239
論語云	-9.63398
矣然則	-9.63426
堯舜	-9.63585
七十	-9.63824
用之	-9.63881
事兄	-9.63904
祭也	-9.63978
而生	-9.64057
也不	-9.64092
朱子曰此	-9.64374
人臣	-9.64414
無怨	-9.64431
出于	-9.64602
不食	-9.64615
有以	-9.64658
冕服	-9.64788
爲孝	-9.64893
所不	-9.65053
宗廟致敬鬼神著矣	-9.65111
大徳	-9.65111
於地	-9.6514
膝下	-9.65154
順也	-9.65244
有三	-9.6527
也是故	-9.65483
以致	-9.65485
者釋	-9.65492
否	-9.65565
周公之	-9.65615
命之	-9.65661
之書	-9.65687
欽定四庫全書經部六	-9.65869
夫婦	-9.65889
存焉	-9.65937
為人	-9.66092
四時之	-9.66351
事而	-9.66379
不疑	-9.66914
子思	-9.67007
曰孝經	-9.67011
之情	-9.67061
則無不	-9.67061
亦有	-9.6719
大義	-9.67332
之與	-9.67377
而退	-9.67478
詞	-9.67501
朕	-9.67602
輔	-9.67634
因其	-9.67654
之辭	-9.67694
於國	-9.67718
和氣	-9.67763
也君子	-9.6787
有餘	-9.67877
效	-9.67903
厲	-9.67948
其為	-9.681
民人	-9.68147
天子之孝	-9.68284
以敬	-9.68317
七人	-9.68328
防	-9.68497
則思	-9.68523
矣夫	-9.6861
禮法	-9.68614
士有	-9.68657
閒居	-9.68798
其驗	-9.68957
生也	-9.69049
貧	-9.69057
為忠	-9.69129
愛也	-9.69188
則能	-9.69224
救	-9.69235
知之	-9.69314
費	-9.69535
其家	-9.69569
諍	-9.69594
咎	-9.69642
僭	-9.69694
之志	-9.69716
之子	-9.69817
身體	-9.70168
十八章	-9.70178
大雅	-9.70321
人皆	-9.70341
絀	-9.70429
其實	-9.7053
也字	-9.70555
毋	-9.70634
辛	-9.7071
宣	-9.70741
此乃	-9.70822
文也	-9.70836
權	-9.70919
術	-9.70956
未盡	-9.71043
下文	-9.71053
踊	-9.71161
惜	-9.71237
公侯伯子男	-9.71303
亦猶	-9.71449
奉養	-9.7157
哀戚	-9.71575
是為	-9.71627
行而	-9.71858
登	-9.71864
細	-9.72049
有所不	-9.7207
不合	-9.72145
互	-9.722
有其	-9.72245
天命	-9.72296
誅	-9.72307
湏	-9.72321
故謂之	-9.72334
徹	-9.7237
每	-9.72412
仁孝	-9.72534
慶	-9.72659
古文無也字	-9.7269
昏	-9.72701
量	-9.72728
右經第	-9.72754
者必有	-9.72756
𤣥宗	-9.72875
藥	-9.72915
而愛	-9.72934
而尊	-9.72976
檢	-9.72999
朱子刋誤本	-9.73028
夜	-9.73043
靜	-9.73069
者不	-9.7308
苴	-9.73087
􁀥	-9.73087
宏	-9.73091
湯	-9.73093
淫	-9.73097
石	-9.73113
製	-9.73118
股肱	-9.73145
顔	-9.73145
弼	-9.73148
割	-9.73149
趙	-9.73149
轉	-9.73151
邇	-9.73152
奏	-9.73156
宅	-9.73159
虧	-9.7316
災害	-9.73162
子貢曰	-9.73165
遭	-9.73169
非至徳其孰能順民如此其大者乎	-9.73181
盜	-9.73188
下無	-9.73188
長丁丈反	-9.7319
厯	-9.73193
小雅	-9.73193
邑	-9.73195
錄	-9.73196
榖	-9.73202
討	-9.73206
匪	-9.73209
祇	-9.73219
啓	-9.73226
䇿	-9.7323
猷	-9.73232
角	-9.73238
敏	-9.73251
孝無終始而患不及者未之有也	-9.73251
呼	-9.73257
絲	-9.73259
父母生之續莫大焉君親臨之厚莫重焉	-9.73263
獄	-9.73269
無它	-9.73275
寸	-9.73277
要君者無上非聖	-9.73277
塗	-9.73279
蕩	-9.73287
召	-9.73287
故自天子至於庶人	-9.73292
題	-9.73292
憲	-9.73292
三日而食教民無以死傷生	-9.73295
尺	-9.73298
月恭校上	-9.73305
滋	-9.73307
哀慼	-9.7331
弁	-9.73312
是以行成於内而名立於後世矣	-9.73313
酬	-9.73317
孝經類提要	-9.73318
移風易俗莫善於樂安上治民莫善於禮	-9.73328
居則致其敬養則致其樂病則致其憂	-9.73331
詩云夙興夜寐無忝爾所生	-9.73333
經一百	-9.73344
禮無容言不文服美不安聞樂不樂食	-9.73344
衛	-9.73348
詩云有覺徳行四國順之	-9.73353
勇	-9.73355
故以孝事君則忠以敬事	-9.73357
生事愛敬死事哀戚生民	-9.7339
:『	-9.73399
臣妾	-9.7342
之推也	-9.73438
用天之道	-9.73444
斥	-9.73454
畏	-9.73455
有如此者	-9.73463
章首	-9.73516
祭器	-9.73544
刑罰	-9.7357
有君	-9.73637
子曰事君	-9.73646
徳義可尊作事可法	-9.73668
古今文	-9.73685
大功	-9.73722
上有	-9.73828
明王之	-9.73837
三公	-9.73963
事母	-9.73975
危也	-9.74028
得而	-9.74044
愛敬之心	-9.74052
刪去	-9.74061
一篇	-9.74066
而不知	-9.74155
士以	-9.7418
王之	-9.74291
乃命	-9.74368
以至	-9.74378
三者不除雖日用三牲之養猶為不孝也	-9.74382
是故君子	-9.74465
學問	-9.74468
章申言	-9.74522
分章	-9.74592
養羊尚反	-9.74599
此三者	-9.74634
致敬	-9.74662
於外	-9.74746
至德	-9.74827
禮者敬而已矣故敬其父則子	-9.74846
因心	-9.7514
而言之	-9.75149
子游	-9.75171
謂天子	-9.75208
道者	-9.75261
親則	-9.75325
庭	-9.75438
事上	-9.75511
和順	-9.7566
地道	-9.75805
不孝也	-9.75916
所以為	-9.76091
之位	-9.76439
見其	-9.76448
雜	-9.76549
君命	-9.76575
之地	-9.76621
非禮	-9.76694
爲義	-9.76732
臣子	-9.76737
與夫	-9.76946
子云	-9.76953
機	-9.7697
所得	-9.76986
其兄	-9.77262
禮樂之	-9.77268
故能	-9.77374
者其	-9.77483
於事	-9.77675
有過	-9.77682
以次	-9.77692
子者	-9.7789
常行	-9.78042
之罪	-9.78118
傅	-9.78133
之實	-9.7822
也按	-9.78265
之要	-9.78326
先君	-9.78353
事之	-9.78512
教人	-9.78586
行道	-9.78623
倍	-9.78625
父子之	-9.79015
謂其	-9.79029
諸家	-9.79084
從事	-9.79174
效之	-9.79339
幸	-9.79431
以告	-9.79493
惟其	-9.79574
胡	-9.79843
跡	-9.7985
其情	-9.79986
怠	-9.80095
而立	-9.80244
君者	-9.80314
要道也	-9.80361
祭天	-9.80664
以事親	-9.80698
大人	-9.8087
人主	-9.80946
妙	-9.81076
昔者天子	-9.81248
也曰	-9.81325
其國	-9.81363
為本	-9.81409
不和	-9.81556
耶	-9.81723
言而	-9.81889
在上	-9.81923
亦皆	-9.82096
所云	-9.8215
不行	-9.82182
者此	-9.8229
和平	-9.82347
是非	-9.82375
者五	-9.82437
之喪	-9.82671
一順	-9.82676
勢	-9.82783
不稱	-9.8281
十七	-9.82833
君有	-9.82863
至此	-9.82872
祧	-9.82948
為國	-9.82953
亦無	-9.83105
修其	-9.83169
有五	-9.83485
死而	-9.83492
墨氏	-9.8353
取其	-9.83623
此一節釋	-9.83967
濟	-9.83977
道徳	-9.84003
▁亡音無	-9.84033
三千	-9.84067
引此	-9.84101
人子	-9.84106
受其	-9.84151
孤	-9.84505
擗	-9.84602
左傳曰	-9.84631
匡救	-9.84902
斬	-9.85043
身行	-9.8507
畔	-9.85254
圖	-9.85268
可知	-9.8535
洗	-9.85408
輩	-9.85426
則當	-9.85516
而親	-9.8562
故于	-9.85673
既葬	-9.85771
不敢慢	-9.85822
善也	-9.85865
三曰	-9.86003
則為	-9.86025
讀者	-9.86044
之業	-9.86106
非孝	-9.86122
皆同	-9.86188
道德	-9.86189
孝而	-9.86199
閨門	-9.86208
長幼	-9.86227
也禮	-9.86341
袒	-9.86347
有道	-9.86422
固非	-9.86555
子曰愛親者不敢惡於人	-9.86611
公卿	-9.86612
人民	-9.86623
子婦	-9.86636
驗	-9.86661
供	-9.86673
之為	-9.86794
榮	-9.86798
之下	-9.86851
曲	-9.86991
壹	-9.87
寢	-9.87012
放	-9.87017
第	-9.87018
范祖禹	-9.87043
關	-9.87094
連	-9.87117
伏	-9.8712
其大	-9.87139
完	-9.87156
帝王	-9.87217
張	-9.8722
妾	-9.8723
淺	-9.87237
之本	-9.87243
翼	-9.87265
詩曰維	-9.87278
慤	-9.87284
暢	-9.8729
遲	-9.87305
通於神明	-9.87335
却	-9.87343
忿	-9.87346
粥	-9.87351
客	-9.87363
之禮也	-9.87365
剕	-9.87367
淑	-9.87378
城	-9.87384
會	-9.87398
折	-9.87402
偯	-9.87406
府	-9.87407
不孝之罪	-9.87422
昌	-9.87424
愚	-9.87438
桑	-9.87439
河	-9.8744
鰥寡	-9.87452
聼	-9.87456
李	-9.87459
荀昶	-9.87459
椁	-9.8746
醴	-9.87469
仲山甫	-9.87473
禽獸	-9.87474
趣	-9.87476
祝	-9.8748
談	-9.8748
他人	-9.87487
卦	-9.87489
謬	-9.87489
規	-9.87489
偃	-9.87489
寄	-9.87489
俾	-9.8749
夫聖人之徳又何以加於孝乎	-9.87492
不敢遺小國之臣而況於公侯伯子男乎	-9.87493
以敬事長則順	-9.87496
攸	-9.87497
辟雍	-9.87497
移風易俗莫善於樂	-9.875
互相	-9.87502
簋	-9.87504
逃	-9.87504
歳	-9.87504
恤	-9.87514
馳	-9.87514
詩云戰戰兢兢如臨深淵如履薄冰	-9.87517
賈	-9.87522
唐𤣥宗	-9.87532
闡	-9.87534
拯	-9.87542
五者備矣然後能事親	-9.87545
民之父母	-9.8755
高而不危所以長守貴	-9.8755
子曰閨門之内具禮矣乎	-9.87563
科	-9.87564
不敢遺小國之臣而况於公侯伯子男乎	-9.87564
太子	-9.87566
較	-9.87569
身體髮膚受之父母不敢毁傷孝之始也	-9.8757
士有争友則身不離於令名	-9.87571
宅兆	-9.87573
屨	-9.87575
人者無法非孝者無親此大亂之道也	-9.87575
內	-9.87578
童	-9.87579
贄	-9.8758
士章第五	-9.87583
禘嘗	-9.87588
謹身節用以養父母此庶人之孝也	-9.87593
紀孝行章第十	-9.87597
恫	-9.87602
滌	-9.87604
血	-9.87605
嚴父嚴兄妻子臣妾猶百姓徒役也	-9.87609
治國者不敢侮於鰥寡而況於士民乎	-9.87609
夙夜	-9.87612
三年之䘮	-9.87614
新	-9.87615
。』」	-9.87617
牖	-9.87631
北面	-9.87632
長則順忠順不失以事其上然後能保其	-9.8765
貧賤	-9.87658
言不文	-9.87663
悟	-9.87666
輒	-9.87666
具載	-9.87669
水旱	-9.87695
不敢惡慢	-9.8771
平居	-9.87714
;	-9.8777
其下	-9.87798
行去聲	-9.87806
安而	-9.87889
法服	-9.87911
治之	-9.87943
曾子曰君子	-9.87946
右經第十	-9.8801
進退	-9.88028
者是	-9.88094
舊文	-9.88097
詩書	-9.88115
理之	-9.8813
可移	-9.8824
夫非	-9.88278
毛詩	-9.88298
於廟	-9.88341
鳥	-9.8838
述作	-9.88387
儀禮	-9.8843
一獻	-9.88523
於内	-9.88533
仁義禮智	-9.88576
為一章	-9.88601
則天子	-9.88751
改易	-9.88795
禮則	-9.88822
其君	-9.88832
之至	-9.8901
人不	-9.89093
親者	-9.89134
五章	-9.89136
人之所	-9.89164
不容	-9.89218
百行	-9.89256
不可以不	-9.89264
而有	-9.89266
君德	-9.89279
之類	-9.89325
以齒	-9.89518
文章	-9.89612
不慢	-9.89672
有終	-9.89852
五行	-9.89945
存於	-9.90049
因性	-9.90306
天地之經	-9.90477
教之所由生	-9.90525
不從	-9.90922
不誠	-9.90955
者此依鄭注也	-9.90998
可見	-9.91011
以忠	-9.9103
順之	-9.91226
化行	-9.91256
無法	-9.91331
以天子之	-9.9136
人者	-9.9143
不見	-9.9161
主於	-9.91637
不加	-9.91655
而爲	-9.91666
生事	-9.91693
不存	-9.91712
者至	-9.91741
昭穆	-9.91795
不待	-9.91826
於其	-9.91983
愛其親	-9.91991
不爭	-9.92032
地之	-9.92089
不驕	-9.9214
位而	-9.92208
行必	-9.92248
善名	-9.923
以示	-9.9259
守之	-9.92635
而外	-9.92721
子曰君子之事親孝故忠可移於君事兄	-9.92835
爲敎	-9.92866
時也	-9.92879
身則	-9.92974
以及	-9.93141
用其	-9.93199
郎	-9.93408
人所	-9.93501
一時	-9.93523
謂不	-9.93554
聞之	-9.93555
日本	-9.93823
而入	-9.9391
非禮也	-9.94042
則下	-9.94065
以正	-9.94195
次第	-9.94211
不忘	-9.94372
尊父	-9.944
其德	-9.9459
於心	-9.94668
以事其親	-9.9476
奪	-9.94799
由是	-9.9487
所行	-9.94901
敬之至也	-9.95031
樂而	-9.95278
聖明	-9.95315
天子有	-9.95335
亡也	-9.95348
則非	-9.95352
果	-9.95357
畫	-9.95413
本文	-9.95417
吏	-9.95433
盡其	-9.95505
移之	-9.95812
此注	-9.95864
大臣	-9.95944
迹	-9.95957
而後行	-9.96083
祗	-9.96532
乎此	-9.96566
其忠	-9.96624
未之	-9.96633
配上帝	-9.96674
曽子曰君子	-9.96728
以愛敬	-9.96737
有天下者	-9.96743
行於	-9.96808
敬之心	-9.96808
三王	-9.97071
二者	-9.97179
祖父	-9.97188
恐其	-9.97221
而欲	-9.97256
養之	-9.97259
不修	-9.97326
天也	-9.97588
練	-9.9762
要也	-9.97674
也反	-9.97696
進思盡忠退思補過	-9.98192
而見	-9.98404
刑辟	-9.98405
為大夫	-9.98647
乘	-9.98688
亦曰	-9.98834
而先	-9.98844
為人子	-9.98893
不祭	-9.99049
三日	-9.99171
使其	-9.99227
宗廟致敬	-9.99231
於天地	-9.99261
危身	-9.99304
卿大夫之	-9.99308
昊天	-9.99323
盡也	-9.9938
事長	-9.9946
古今	-9.99472
傳同	-9.99562
不已	-9.9963
徳而	-9.998
于此	-10.0002
承上	-10.0006
所自	-10.001
名也	-10.0013
君臣之	-10.0013
身之	-10.0014
非其	-10.0014
王季	-10.0043
於諸侯	-10.0048
而從	-10.0068
固有	-10.0071
二章	-10.0075
孝行	-10.008
曾參	-10.0102
則天地	-10.0107
亦可謂	-10.0117
之徒	-10.0117
而歸	-10.0117
善事	-10.0125
夫子之言	-10.0131
母也	-10.0133
生焉	-10.0137
四曰	-10.0156
子曰君子	-10.0182
行下	-10.0188
是皆	-10.0191
太傅	-10.0197
之士	-10.0207
三人	-10.021
子夏曰	-10.0214
天子至	-10.0217
未之有	-10.0218
嗚呼	-10.0223
髪	-10.0223
之是	-10.0226
限	-10.0226
皇侃云	-10.0229
刋	-10.0252
行此	-10.0254
禮義	-10.0261
其禮	-10.0262
皆可	-10.0263
曰云	-10.0266
無以加於孝乎	-10.027
順於	-10.0272
備也	-10.0278
道而	-10.028
順而	-10.0281
祥	-10.0282
説音悦	-10.0282
急	-10.0298
之不可	-10.0299
裳	-10.0301
暑	-10.0308
愛敬其親	-10.0316
庻人	-10.0317
而天下	-10.0321
祔	-10.0323
敵	-10.0323
餕	-10.0323
尊祖	-10.0324
言必	-10.0325
孟	-10.0326
則以	-10.0327
進而	-10.0333
繹	-10.0334
萬民	-10.0345
淳	-10.0345
為諸侯	-10.0349
衾	-10.0349
廬	-10.035
者按	-10.035
来	-10.0352
之極	-10.0352
尊親	-10.0352
孝經序	-10.0353
忌	-10.0355
聘	-10.0366
春秋祭祀以時思之	-10.0372
如其	-10.0372
隆殺	-10.0377
累	-10.0377
陷	-10.0378
懽	-10.0378
尼	-10.0387
將順其美	-10.0388
使民	-10.0389
戎	-10.0389
荘	-10.039
之誼	-10.0392
墜	-10.0394
河間	-10.0396
徒役	-10.0397
珍	-10.0397
離力智反	-10.0398
夙興夜寐	-10.0398
短	-10.04
吕	-10.0401
温	-10.0401
奢	-10.0402
眞	-10.0402
諭	-10.0403
尹	-10.0403
陶	-10.0404
犧	-10.0404
可不慎	-10.0405
君子恥之	-10.0405
烝	-10.0405
殷仲文	-10.0406
藝文志	-10.0406
棘	-10.0407
撫	-10.0407
逸	-10.0408
孝治章第八	-10.0408
柩	-10.0408
横	-10.0409
三者備矣然後能守其宗廟	-10.0409
膏	-10.0409
賢者	-10.0409
刻	-10.0409
孝治	-10.041
星	-10.041
齒胄	-10.0411
陰陽	-10.0412
妃	-10.0412
洽	-10.0412
賴	-10.0412
領	-10.0412
其間	-10.0412
伊	-10.0412
禾	-10.0412
齋	-10.0413
懸	-10.0414
征	-10.0414
草木	-10.0414
釋詁文	-10.0414
撮	-10.0414
故夫子	-10.0415
卿士	-10.0415
子言之儒有	-10.0415
楚	-10.0415
丁	-10.0415
遐	-10.0415
以父配天	-10.0415
黍稷	-10.0415
圍	-10.0416
羞	-10.0416
半	-10.0416
尊敬	-10.0416
邢昺	-10.0417
十章	-10.0417
諸侯有爭臣五人	-10.0418
優	-10.0418
賊	-10.0418
廵	-10.0418
男女	-10.0419
基	-10.0419
服貢	-10.0419
人之行莫大於孝	-10.0419
獸	-10.0419
父子之道天性也君臣之義也	-10.0419
麗	-10.042
旨	-10.042
狩	-10.042
括	-10.042
聖治章第九	-10.042
僅	-10.042
谷	-10.042
刺	-10.0421
桀	-10.0421
曾子侍	-10.0421
訛	-10.0421
悲	-10.0422
東西	-10.0422
子曰天地之性人為貴人之行莫大於孝	-10.0422
曾子曰若夫慈愛恭敬安親揚名	-10.0422
稼穡	-10.0422
奥	-10.0422
决	-10.0423
空	-10.0423
怪	-10.0423
臣五人雖無道不失其國大夫有	-10.0423
蒙	-10.0423
烈	-10.0423
矜	-10.0424
竹	-10.0424
汚	-10.0425
古文尚書	-10.0425
泣	-10.0425
軍	-10.0425
誓	-10.0426
殖	-10.0426
佐	-10.0426
復坐吾語女	-10.0427
古文孝經孔氏傳	-10.0427
始死	-10.0428
先王先公	-10.0428
二十二章	-10.0428
宫室	-10.0428
虎	-10.0428
四夷	-10.0429
故得百姓之懽心以事其先君	-10.0429
奸	-10.0429
壊	-10.0429
為之宗廟以鬼享之春秋祭祀以時思之	-10.043
禄位	-10.043
步	-10.0431
戸	-10.0431
墻	-10.0431
癸	-10.0432
是故先之以博愛而民莫遺其親	-10.0432
以順天下民用和睦上下無怨女知之乎	-10.0432
徳不敬其親而敬他人者謂之悖禮	-10.0433
更端	-10.0434
容止	-10.0435
別	-10.0435
四寸	-10.0437
愷	-10.0437
鼓	-10.0438
宰我	-10.0438
天地之情	-10.0438
子曰夫孝天之經也地之義也民之行也	-10.0439
春秋祭祀	-10.0439
則可謂	-10.0439
復坐	-10.0448
指解	-10.0449
宗族	-10.045
子曰父子之道天性	-10.0452
宗祀	-10.0453
聖人之徳	-10.0454
劉炫云	-10.0461
三年之	-10.0462
善而	-10.0463
庶人之孝	-10.0463
治官	-10.0464
穆王	-10.0465
古文無	-10.0465
仁人	-10.0467
教民禮順莫善於弟	-10.0467
注解	-10.0467
子曰教民親愛莫善於孝	-10.0468
所傳	-10.047
忠信	-10.0481
親戚	-10.0482
五土	-10.0483
中和	-10.0487
祭之	-10.049
以供	-10.0491
士之孝	-10.0492
有常	-10.0493
神明之	-10.0496
其妻子	-10.0503
經常也	-10.0507
之章也	-10.0516
聖治	-10.0521
居官	-10.0525
始終	-10.0529
事親之孝	-10.0532
至孝	-10.0535
必其	-10.0538
二曰	-10.0539
六經	-10.054
有限	-10.0544
傳云	-10.0546
之務也	-10.0551
三者不除	-10.0554
所由	-10.0566
之有乎	-10.0577
正義曰此言	-10.0578
喪服	-10.0579
之政	-10.058
衆人	-10.0583
之極也	-10.0585
至誠	-10.0592
鬼神之	-10.0592
不能自	-10.0595
孔安國云	-10.0595
居家	-10.0602
安國	-10.0604
於父	-10.0607
故得人之懽心以事其親	-10.0609
比於	-10.0609
民無	-10.0613
而正之	-10.0614
不讓	-10.0616
發明	-10.0618
豈有	-10.0618
今不取也	-10.062
悅	-10.0621
致其敬	-10.0629
備矣	-10.0644
逺矣	-10.0647
喪不過三年示民有終也	-10.0648
其名	-10.0653
以之而	-10.0659
人倫之	-10.0674
百家	-10.0694
於郊	-10.0696
養其父母	-10.0698
理也	-10.0699
父母有	-10.0701
僭上	-10.0706
竭	-10.0707
之端	-10.0709
爵禄	-10.0719
事死	-10.0721
中於事君	-10.0722
人子之	-10.0728
以孝為	-10.0738
周之	-10.074
好是	-10.074
民心	-10.074
之效	-10.0747
宗廟致敬不忘親也	-10.0758
之以禮	-10.0763
禍亂	-10.0765
其財	-10.0765
門之	-10.0772
無一	-10.0783
存焉耳	-10.0793
如是	-10.0793
或曰	-10.0801
也聖人	-10.0809
從其	-10.0811
治直吏反	-10.0819
能事親	-10.0832
天下之人	-10.0841
知有	-10.0842
導之以禮樂而民和睦	-10.0846
則忠	-10.0849
其於	-10.0853
而為	-10.0853
盡於	-10.0854
皆謂	-10.0855
文定	-10.0888
有異	-10.0896
之美	-10.0899
經言	-10.09
之心而	-10.0902
先後	-10.0902
不悖	-10.091
右第十	-10.091
者易	-10.0912
則亦曰	-10.0934
皆當	-10.0938
無上	-10.094
正義曰此依	-10.0945
引書	-10.0971
乎且	-10.0978
事親者	-10.098
天子庶人	-10.0987
者葢	-10.1003
惡烏路反	-10.1009
則已	-10.1011
猶言	-10.1046
皆得	-10.1052
敬以	-10.1053
隨之	-10.1061
事其親	-10.1087
葢言	-10.1088
將順	-10.1088
於魯	-10.1106
鄭𤣥云	-10.1111
享祀	-10.1113
樂者	-10.1115
一則	-10.1126
事天地	-10.1132
出自	-10.1134
五十	-10.1142
如此也	-10.1144
老幼	-10.1161
不及	-10.1166
子子	-10.1169
矣且	-10.1173
君能	-10.1175
之斯	-10.1177
於天子	-10.1179
於後	-10.118
一國之	-10.1184
▁行下孟反	-10.119
劉向	-10.119
不若	-10.1191
鄭云	-10.1192
此所以	-10.1197
徳之本	-10.121
故知	-10.1217
鄉飲酒之禮	-10.1219
其職	-10.1223
行成	-10.1225
公侯	-10.1234
下有	-10.1244
則國	-10.1248
盡矣	-10.1256
保其	-10.1257
不卜	-10.1263
於父母	-10.1273
之語	-10.1276
莫之	-10.1282
卜之	-10.1284
而可以	-10.1285
無親	-10.1287
孝之所	-10.1294
曰父	-10.1307
天之道	-10.1322
此之謂	-10.1335
諫爭	-10.1357
者與	-10.1357
百世	-10.137
士之	-10.1372
坐而	-10.1384
聖人之道	-10.1387
又有君臣之義	-10.1387
束	-10.1396
右第	-10.1404
亦何	-10.1407
矣然	-10.1418
之尊	-10.1422
君上	-10.1429
而教	-10.1429
掩	-10.143
三光	-10.1446
則亂	-10.1451
為主	-10.1474
先祖	-10.1477
貎	-10.1481
曰孝	-10.1482
洛	-10.1484
愛者	-10.1486
義理	-10.1512
祀之	-10.1515
之典	-10.1523
矣詩曰	-10.154
止之	-10.1549
天地之性	-10.1556
亦未	-10.1566
苟有	-10.1573
太學	-10.1583
也但	-10.1588
孝養	-10.1592
使臣	-10.1603
其餘	-10.1604
仲尼居	-10.1608
歸之	-10.161
教以	-10.1614
三才	-10.162
死者	-10.1632
其所以	-10.1635
觀之	-10.1643
於日月	-10.1646
資取也	-10.1651
壞	-10.1652
得以	-10.1659
善則	-10.1661
荅	-10.1661
隋書	-10.1665
者案	-10.1671
有成	-10.1671
則一也	-10.1671
檀弓云	-10.1671
不如	-10.1692
而道	-10.1695
悌也	-10.17
有子	-10.1708
何其	-10.1714
詩云夙夜匪懈以事一人	-10.1757
五十里	-10.1771
萬世	-10.1781
不聞	-10.1783
所以成	-10.1794
陸費墀欽定四庫全書	-10.18
無事	-10.1805
義取	-10.1808
之習	-10.1808
三月	-10.1813
此云	-10.1817
言不	-10.1827
如是則	-10.183
以和	-10.1836
喪則致其哀祭則致其嚴	-10.1838
又以	-10.1855
以孝治天下	-10.1864
順者	-10.1864
庸	-10.1874
十一	-10.1876
施於	-10.1876
一國	-10.1888
也嚴	-10.189
莫如	-10.1892
子曰孝子之喪親	-10.1896
懽心	-10.1904
為世子	-10.1915
踰	-10.1916
敬其父	-10.1917
定本	-10.1922
之法	-10.1923
歸於	-10.1928
未知	-10.1947
能養	-10.1952
以天下	-10.1955
七章	-10.1958
慈恭	-10.1961
託	-10.1964
無以為	-10.1966
也天	-10.1975
四海之内	-10.1979
其功	-10.1988
相承	-10.199
敬而	-10.1995
不離	-10.1996
教以臣所以敬天下之為人君者	-10.1997
人以	-10.1998
際	-10.2003
則謂	-10.2014
庶幾	-10.2016
致齊	-10.2017
歡心	-10.2019
行下孟	-10.2025
損	-10.2025
孝之始	-10.2043
不危	-10.2048
有德	-10.2062
失之	-10.2067
家國	-10.2068
得於	-10.2079
五等	-10.2089
戚	-10.209
而不諫	-10.21
反下同	-10.2107
刪改	-10.2108
此之謂也	-10.2111
頼	-10.2111
戰	-10.2126
筮	-10.2134
未為	-10.2145
恥	-10.2148
侯伯	-10.215
經典	-10.216
治家者不敢失於臣妾而况於妻子乎	-10.2169
成身	-10.2171
戀	-10.2172
九十	-10.2173
廣敬	-10.2177
為政	-10.218
喪親	-10.2189
夕	-10.2196
皇侃	-10.2201
夀	-10.2203
者此依孔傳也	-10.2205
謹身	-10.2206
臣之	-10.2218
允	-10.2219
亦當	-10.222
余	-10.222
樹	-10.2221
之長	-10.2229
夷齊	-10.2234
乎故	-10.2242
耳目	-10.2247
聖德	-10.2255
以孝弟	-10.2259
瞻	-10.2264
不至	-10.2267
然後能	-10.2269
者非	-10.227
曲禮云	-10.2271
身不	-10.2271
言人	-10.2272
亦是	-10.2284
以事其先君	-10.2284
鳥獸	-10.23
伸	-10.2301
調	-10.2309
舅姑	-10.2312
先人	-10.2312
俟	-10.2313
見之	-10.2313
坊	-10.2313
不信	-10.2314
者盖	-10.2314
庶人章	-10.2316
五年	-10.2317
至德要道	-10.2317
取法	-10.2318
所有	-10.2318
膝	-10.2327
之所由生也	-10.2329
不毁傷	-10.2331
叚	-10.2331
貴而	-10.2336
古文作	-10.234
動静	-10.2341
可知矣	-10.2343
為天	-10.2346
懲	-10.2347
至矣	-10.2349
人道	-10.2351
先王以	-10.2351
如之何曰	-10.2353
欺	-10.2354
豐	-10.2355
忒	-10.2358
側	-10.2361
郊社	-10.2365
野	-10.2371
亾	-10.2371
禱	-10.2374
赤	-10.2377
愧	-10.238
未及	-10.2381
醜	-10.2381
刖	-10.2382
徐	-10.2384
殁	-10.2385
時而	-10.2385
莫若	-10.2386
君臣上下	-10.2387
絰	-10.2388
得天下	-10.2389
房	-10.2389
小功緦麻	-10.2391
産	-10.2391
此三	-10.2392
乙	-10.2392
生之	-10.2392
酌	-10.2395
操	-10.2395
諷	-10.2396
冉	-10.2397
肆	-10.2397
千萬人	-10.2398
圜	-10.2398
飽	-10.2398
匹	-10.2399
愉	-10.24
礿	-10.24
韋	-10.24
得其歡心	-10.24
轡	-10.2401
號泣	-10.2402
範	-10.2403
芳	-10.2403
鄙	-10.2404
禀	-10.2404
粱	-10.2404
木也其牲以	-10.2405
跪	-10.2406
冰	-10.2406
張禹	-10.2406
偪下	-10.2406
植	-10.2406
凝	-10.2407
寳	-10.2407
霸	-10.2407
収	-10.2408
截	-10.2408
佩	-10.2408
鄰	-10.2408
輕重	-10.2408
藴	-10.2408
蔽	-10.2409
師尹	-10.2409
羽	-10.2409
病則致其憂	-10.2409
用天之道分地之利	-10.241
兢	-10.241
傾	-10.241
路馬	-10.241
悦敬其君則臣悦敬一人而千萬人悦	-10.2411
天子章第二	-10.2411
舟	-10.2411
林	-10.2411
開宗明義	-10.2411
藻	-10.2411
䧟	-10.2412
孩	-10.2412
孩提之童無不知愛其親	-10.2412
几	-10.2412
諌諍	-10.2412
雖無道不失其	-10.2412
為下而亂則刑在醜而爭則兵	-10.2412
國大夫有爭臣三人雖無道不失其家	-10.2413
粉米	-10.2413
愼	-10.2414
士有爭友則身不離於令名	-10.2414
箋	-10.2414
激	-10.2414
吾不信也	-10.2414
復坐吾語汝	-10.2414
饑	-10.2414
羮	-10.2415
呂	-10.2415
髪膚	-10.2415
帝嚳	-10.2415
父有爭子則身不陷於不義	-10.2415
傲	-10.2416
莫大乎	-10.2416
險	-10.2416
閨門之内	-10.2417
採	-10.2417
廷	-10.2417
誥	-10.2417
滿而不溢所以長守富	-10.2417
顔淵	-10.2417
黙	-10.2417
安上治民莫善於禮	-10.2418
哀公問	-10.2418
侈	-10.2419
營	-10.2419
此庶人之孝也	-10.2419
唐明皇	-10.2419
臧	-10.2419
父母所	-10.2419
五刑章第十一	-10.2419
殘	-10.2419
唐明皇御注陸德明音義宋郉昺疏	-10.2419
是以四海之内各以其職來祭	-10.2419
閨門一章	-10.242
坤	-10.242
霜露	-10.242
巳	-10.242
德則	-10.242
則聞命矣敢問子從父之令可謂孝乎	-10.242
倚	-10.242
忠順不失以事其上然後能保其	-10.2421
甫刑云一人有慶兆民賴之	-10.2421
陳其簠簋而哀戚之	-10.2421
養則致其樂	-10.2421
貨	-10.2421
諸侯章第三	-10.2422
聿	-10.2422
嚮	-10.2422
速	-10.2422
兹	-10.2422
冩	-10.2422
洪	-10.2422
瞿	-10.2422
祈	-10.2422
制節謹度滿而不溢	-10.2422
削	-10.2422
廣至徳章第十三	-10.2422
故明王之以孝治天下如此	-10.2422
浮	-10.2423
静	-10.2423
穫	-10.2423
聞樂不樂	-10.2423
是以四海之内各以其職來助祭	-10.2423
繅	-10.2423
訟	-10.2423
雉	-10.2424
瑞	-10.2424
卿大夫章第四	-10.2424
萃	-10.2424
期之喪	-10.2424
肖	-10.2424
邁	-10.2424
大雅云無念爾祖聿修厥徳	-10.2424
亨	-10.2425
公羊高	-10.2425
幣	-10.2425
矇	-10.2425
不忘親也	-10.2425
廣揚名章第十四	-10.2425
亢	-10.2426
也滿而不溢所以長守富也	-10.2426
夫惟	-10.2426
庶人章第六	-10.2427
隕	-10.2427
接下	-10.2427
詬	-10.2427
驟	-10.2427
辟席	-10.2427
孝悌之至通於神明光於四海無所不通	-10.2427
忝辱也	-10.2427
譏	-10.2427
古文句	-10.2427
故不肖者之	-10.2427
諒	-10.2427
争臣三人雖無道不失其家	-10.2427
彛	-10.2428
襄公	-10.2428
史記	-10.2428
周公制禮	-10.2428
治國者不敢侮於鰥寡而况	-10.2429
子曰是何言與是何言與昔者天子有	-10.2429
仲尼孔子字	-10.2429
境	-10.2429
辠	-10.2429
其義一也	-10.2429
項君	-10.243
德不敬其親而敬他人者謂之悖禮	-10.243
感應章第十六	-10.243
元首	-10.2431
分地之利	-10.2431
事親者居上不驕為下不亂在醜不争	-10.2431
宻	-10.2431
績	-10.2431
施之於	-10.2431
章句	-10.2431
竒	-10.2432
品	-10.2432
孝子之事親終矣	-10.2432
故能成其徳教而行其政令	-10.2433
偽造	-10.2433
州	-10.2433
佑	-10.2433
先之以敬讓而民不爭	-10.2433
豆	-10.2434
為之棺槨衣衾而舉之陳其簠簋而哀	-10.2434
玩	-10.2434
故不愛其親而愛他人者謂之悖	-10.2435
天地明察神明彰矣	-10.2435
偶	-10.2436
唐㑹要	-10.2436
南面	-10.2437
三才章第七	-10.2438
右傳十	-10.2438
子曰字	-10.2438
子曰不愛其親而愛他人者謂之悖	-10.2438
周頌	-10.2439
萬姓	-10.2439
迎長	-10.244
子曰先王有至徳要道	-10.2441
服美不安	-10.2441
繩	-10.2441
懿	-10.2442
融	-10.2443
士庶	-10.2444
曽氏	-10.2444
閨門章	-10.2445
通結上文	-10.2445
之服其冕	-10.2446
貫通	-10.2446
之曰	-10.2446
明黄道周撰	-10.2446
屋	-10.2448
内史	-10.245
反哭	-10.2453
他日	-10.2454
▁説音悦	-10.2455
行矣	-10.2455
當須	-10.2456
子言之君子	-10.2457
以前	-10.2458
則天之明因地之義	-10.2459
以下如	-10.246
冠昏	-10.246
敬親者不敢慢於人愛敬盡於事親而	-10.246
文質	-10.2461
無體之禮	-10.2461
政刑	-10.2462
明王孝治	-10.2463
墠	-10.2464
孝道也	-10.2464
月令	-10.2465
致仕	-10.2466
之功用	-10.2471
乞言	-10.2474
祖述	-10.2475
兩家	-10.2476
君之尊	-10.2477
誠信	-10.2477
之民	-10.2478
國風	-10.248
若是則	-10.2483
本原	-10.2485
終身	-10.2487
謂孝	-10.2488
赤子	-10.2489
是之謂	-10.2495
忌日	-10.2495
羣臣	-10.2498
故上下能相親也	-10.2499
不敢惡	-10.2507
之傳	-10.2511
記云	-10.2512
雖無道	-10.2514
▁夫音扶	-10.2516
大哉	-10.2517
毁傷其身	-10.2518
之世	-10.2522
而無其	-10.2522
方澤	-10.2523
異同	-10.2526
此四者	-10.2532
擗踊哭泣	-10.2532
非為	-10.2537
今文作	-10.2537
無遺	-10.2543
相傳	-10.2545
立廟	-10.2545
學者	-10.2546
其生也	-10.2547
天下平	-10.255
克明	-10.2555
也行	-10.2556
家相	-10.2556
曲禮	-10.2557
開宗明義章第一	-10.2557
聖王之	-10.2558
子曰孝子之事親也	-10.2564
侍坐於	-10.2565
大小	-10.2566
志也	-10.2568
是也注	-10.257
冬至	-10.2571
成矣	-10.2572
據此	-10.2572
之常	-10.2572
無也字	-10.2574
孝經刋誤	-10.2574
必及之	-10.2575
察於	-10.2576
未之有也	-10.2579
理家	-10.2581
門人	-10.2582
不私	-10.2588
並非	-10.2591
其先	-10.2593
極其	-10.2594
所宜	-10.2602
所能	-10.2607
三等	-10.2608
政令	-10.2609
上下相	-10.2615
民用和睦上下無怨	-10.2615
之功	-10.262
一本	-10.2621
之利	-10.2623
爲政	-10.2624
燕禮	-10.2627
以下皆	-10.263
尊尊	-10.263
天子諸	-10.2631
父母生之	-10.2636
幷	-10.2637
由此而	-10.2639
乃成	-10.2644
章之首	-10.2645
孫子	-10.2646
不假	-10.2652
為其近於	-10.2655
五曰	-10.2656
莫大於	-10.2659
救其	-10.2666
無怨惡	-10.2677
葢猶	-10.2682
孝為	-10.2688
者不過	-10.2689
身先	-10.2694
六行	-10.2696
天之所	-10.2699
愛父	-10.271
在位	-10.2712
則無所不	-10.2716
國而	-10.2718
為後	-10.2719
長則	-10.2726
為節	-10.2726
祭義	-10.273
論孝	-10.2731
出焉	-10.2733
雖不	-10.2735
之前	-10.2736
藏之	-10.2737
於物	-10.274
之善	-10.274
則忘	-10.2743
反注同	-10.2744
五等之	-10.2747
其理	-10.2761
恭順	-10.2762
猶父	-10.2765
若夫	-10.2766
聖人制	-10.2768
前言	-10.277
言明王	-10.277
如是而	-10.2774
易行	-10.2774
孝治之	-10.2779
内則	-10.278
大孝	-10.2781
心乎	-10.2781
常也	-10.2782
教愛	-10.279
或有	-10.2791
不惡慢	-10.2793
所謂孝	-10.2793
凡此	-10.2794
樂樂	-10.2802
使弟	-10.2806
以此為	-10.2807
何謂	-10.2811
不易	-10.2816
𤣥宗曰言	-10.2816
皆備	-10.2816
以寧	-10.2824
一言	-10.2832
為次	-10.2835
於祭	-10.2837
以為行	-10.2845
長長	-10.2846
之言行	-10.2847
已乎	-10.2849
既得	-10.2855
司馬光曰謂	-10.2867
知所以事	-10.2868
治家	-10.2871
夫子所	-10.288
不誼	-10.288
不顯	-10.2881
獻之	-10.2881
言先王	-10.2888
後學	-10.2888
家臣	-10.2892
者為	-10.2894
而後可以	-10.2895
孝字	-10.2895
敬天	-10.2895
保守	-10.2906
足也	-10.2909
禮節	-10.2909
古者天子	-10.2912
非一	-10.292
無終	-10.2923
乎哉	-10.2929
此二	-10.2932
本于	-10.2933
敬其	-10.2934
孝乃	-10.2935
已矣	-10.2938
行禮	-10.2956
諫而	-10.2957
之主	-10.2958
正義曰此章	-10.296
人君子	-10.2967
上之所	-10.2971
多矣	-10.2977
其時	-10.2981
聖經	-10.2983
道徳之	-10.299
所說	-10.2993
至極	-10.2993
犆	-10.2995
而獨	-10.2999
牲也	-10.3002
此一節	-10.3002
于天子	-10.3004
能盡	-10.3008
乎詩曰	-10.3009
天子所	-10.3015
孝乎	-10.3016
大明	-10.3024
道在	-10.3032
矣此	-10.3035
者但	-10.3043
二十二	-10.3048
亦然	-10.3056
各以	-10.3056
自治	-10.306
註疏	-10.3068
以時	-10.3072
義而	-10.3075
揚之	-10.3077
孝徳	-10.3079
四十	-10.308
人之所以	-10.308
為先	-10.3092
興起	-10.3094
興行	-10.3099
於王	-10.31
或云	-10.3102
從此	-10.3109
有一	-10.3124
大傳	-10.3125
去之	-10.3128
重禮	-10.3138
飲酒	-10.314
無功	-10.3151
王事	-10.3154
也養	-10.3156
則天下	-10.3167
舉其	-10.317
不在	-10.3184
所從	-10.319
國也	-10.3215
所事	-10.3215
國之君	-10.3219
退而	-10.3219
今所	-10.3219
是爲	-10.322
傳者	-10.3222
曰君子	-10.3223
報之	-10.3224
故孝	-10.3225
失也	-10.3226
貫	-10.3234
重於	-10.3247
人之心	-10.3257
教以弟所以敬天下之為人兄者	-10.3272
之君	-10.3274
以下	-10.3288
法天地	-10.3289
因天	-10.3303
君子不	-10.3307
弟者	-10.3307
必思	-10.3308
漢初	-10.3309
終於立身	-10.3309
敬親	-10.3311
著也	-10.3312
此者也	-10.332
而止	-10.3327
經云	-10.3328
也君	-10.3336
於君則	-10.3338
不樂	-10.3357
未嘗不	-10.338
士章	-10.3383
也詩云	-10.3387
故其	-10.34
智也	-10.3402
是以君子	-10.3403
之後也	-10.3404
雖無	-10.3416
於兄弟	-10.3418
廟之	-10.3418
不同而	-10.3418
為不孝	-10.3422
是猶	-10.3424
非有所	-10.3425
者當	-10.3426
順矣	-10.3438
貴其	-10.3439
中道	-10.344
雖在	-10.344
也故以	-10.3447
三十六	-10.345
竭力	-10.3451
樂其	-10.3459
神人	-10.3465
為下	-10.3467
曾子問曰	-10.3472
天子之事	-10.3475
先有	-10.3479
大道	-10.3479
皆在	-10.3482
不著	-10.3485
一曰	-10.3485
以深	-10.3487
則可以	-10.3489
化之	-10.35
祭者	-10.3502
立教者	-10.3502
極於	-10.3515
非不	-10.3515
社之	-10.3516
也周公	-10.3525
則多	-10.3529
注疏	-10.3532
下今文有	-10.3538
凡十	-10.3541
非是	-10.355
道以	-10.3571
之所至	-10.3579
性而	-10.3581
服之	-10.3589
前章	-10.3589
則毁傷	-10.3601
堯舜之	-10.3604
不應	-10.3606
矣故曰	-10.3608
尊於	-10.3611
孝子事親	-10.3618
以起	-10.3619
所聞	-10.3634
之理也	-10.3638
其死	-10.3639
君親	-10.3645
公族	-10.3653
王制云	-10.3657
者順	-10.3667
能致	-10.3673
也所以	-10.3674
之使	-10.3698
可以為	-10.3699
已上	-10.3711
夫以	-10.3715
僻	-10.3715
記之	-10.3716
不取	-10.3721
治也	-10.3735
若親	-10.3738
其極	-10.374
於民	-10.3744
大事	-10.3752
居于	-10.3755
以愛	-10.3756
五禮	-10.3762
徳之	-10.3771
兄則	-10.3774
舜之	-10.3774
退謂	-10.3801
徳也	-10.3802
長者	-10.3807
順則	-10.3818
者正	-10.3818
籍	-10.3819
而反	-10.3827
食之	-10.3837
養父母	-10.3839
丈	-10.3846
次之	-10.3847
所以致	-10.3848
所命	-10.3856
皆為	-10.3857
不解	-10.3858
近而	-10.3865
文義	-10.3866
所受	-10.3879
導	-10.388
其愛	-10.3881
匹夫	-10.3894
廟則	-10.3895
徴	-10.3903
始出	-10.391
其父母	-10.3913
自有	-10.3914
穴	-10.3917
免於	-10.3924
而自	-10.3926
所載	-10.393
而古文	-10.3938
此本	-10.3955
令名	-10.3959
之名也	-10.3964
三代之	-10.3968
明孝	-10.3978
州貢	-10.3984
事則	-10.4007
如有	-10.4015
殺則	-10.4015
為質	-10.4019
子曰君子之事親孝故忠可移於君	-10.402
而為之	-10.4021
庶人之	-10.4041
攻	-10.4049
則自	-10.4069
爭臣	-10.407
而思	-10.4095
也又曰	-10.4101
愛敬之道	-10.4102
孝子也	-10.4109
哀也	-10.4115
嚴肅	-10.4116
也注言	-10.4118
未至於	-10.4124
耳若	-10.4125
子弟臣	-10.4134
之詩	-10.4138
教天下	-10.414
也故曰	-10.4153
者君	-10.4154
不敢有	-10.4154
者哉	-10.4156
以孝治	-10.4157
不然	-10.4159
▁長丁丈反	-10.418
旦	-10.4183
則天	-10.4184
誠敬	-10.4191
辭則	-10.4202
退則	-10.4214
之所以	-10.4221
非以	-10.4224
字而	-10.4227
為不	-10.4245
言先	-10.4246
春秋之	-10.425
不知有	-10.4257
為難	-10.4262
享之	-10.4266
之敎	-10.4284
夫子述	-10.4291
所注	-10.4292
於四方	-10.4295
故君	-10.4296
起居	-10.4303
愛其	-10.4308
士庶人	-10.4317
孝無	-10.4319
貴之	-10.432
而祭	-10.432
告之	-10.4323
内外	-10.4325
也大夫	-10.4326
故雖	-10.4328
於四海	-10.4332
必及	-10.4347
相通	-10.4358
所作	-10.4358
居家理故治可移於官	-10.438
子有	-10.4382
以俟	-10.4385
貽	-10.4396
之制也	-10.4398
利者	-10.4401
者多矣	-10.4405
徳性	-10.4408
曰予	-10.4409
著明	-10.4412
如將	-10.4412
也月	-10.4421
始于	-10.4429
王肅	-10.4442
作傳	-10.4442
得其心	-10.4447
可謂孝矣	-10.4456
養親	-10.4462
有禮	-10.4468
之服	-10.4477
三禮	-10.4477
行之於	-10.4495
出其	-10.4497
毁不滅性此聖人之政	-10.4499
藝	-10.4504
身者	-10.451
山林	-10.4511
則不敢	-10.4516
孝慈	-10.4523
游	-10.4531
治亂	-10.4534
重也	-10.4537
為父	-10.4542
孝悌之	-10.4551
禮者敬而已矣	-10.4557
為人父	-10.4561
讓而	-10.4567
本然	-10.4567
老子	-10.4573
學士	-10.4581
聖人所	-10.4581
所惡	-10.4581
大亂	-10.4582
用古文	-10.4582
之憂	-10.4585
來助祭	-10.4585
庶子	-10.4585
亦可	-10.4587
之原	-10.4588
矣行之於	-10.4588
喪不過三年示民有終	-10.4589
能保	-10.4592
行孝道	-10.4594
立而	-10.4596
所藏	-10.4597
於禮	-10.4601
之説	-10.4605
嚴也	-10.4607
之力	-10.4612
故得人之	-10.4613
什	-10.4618
無二	-10.4618
於東	-10.4619
之月	-10.462
之報	-10.4624
星辰	-10.4628
上也	-10.4628
卿之	-10.4629
愛敬者	-10.4635
之務	-10.4646
説文	-10.4655
夫有	-10.4663
哲	-10.4669
無窮	-10.467
責之	-10.467
者三	-10.4679
貳	-10.4688
於忠	-10.4692
諫之	-10.4693
琴瑟	-10.4694
之心則	-10.4695
農	-10.4699
禮以	-10.4702
藉	-10.4705
即位	-10.4708
嚴父配天	-10.4709
其服	-10.4709
盖言	-10.4715
不求	-10.4717
三日而	-10.4717
壁中	-10.4718
物之	-10.4719
其在	-10.472
寛	-10.4722
乗	-10.4722
去其	-10.4723
古人	-10.4725
萌	-10.4727
歟	-10.4729
言孝	-10.473
謝萬	-10.4733
祖廟	-10.4734
援神契云	-10.4736
刋誤	-10.4739
以此之故	-10.4749
祫	-10.475
非道	-10.4758
蓋天子之孝	-10.4758
惡之	-10.4762
觧	-10.4762
忍	-10.4766
之情也	-10.4767
子曰孝子之事親	-10.4771
非聖人	-10.4775
麻	-10.4781
僞	-10.4786
人謂	-10.4787
為臣子者	-10.4798
叙	-10.4799
德行	-10.48
其治	-10.4802
也明王	-10.4808
忽	-10.481
孝子之事親	-10.4813
其本一也	-10.4815
㓕	-10.4826
地利	-10.4829
穆	-10.4833
呉澄	-10.4833
無服之喪	-10.4834
若有	-10.4835
於是乎	-10.4839
匡救其惡	-10.4839
其説	-10.4842
尊者	-10.4843
某	-10.4847
孝之終也	-10.4849
明父	-10.485
之意焉	-10.4852
始於事親	-10.4853
孝經之	-10.4856
古書	-10.4856
誨	-10.4857
景	-10.4858
只	-10.4858
故當不義則	-10.486
肉	-10.4863
臯	-10.4868
旅	-10.4868
者得	-10.4873
乞	-10.4873
膳膏	-10.4875
冡	-10.4876
愛敬盡於事親	-10.4878
偪	-10.4878
風俗	-10.4878
是何言與	-10.4878
旤	-10.4879
矣帝入	-10.4879
無容	-10.488
其人也	-10.488
三者皆	-10.4881
秩	-10.4882
董生	-10.4882
退思補過	-10.4883
而弟達乎	-10.4883
冕而親迎	-10.4883
愆	-10.4884
小國之臣	-10.4885
尹氏	-10.4886
臏	-10.4886
京	-10.4888
歡	-10.4888
消	-10.4888
刃	-10.4889
枝	-10.4891
莫敢	-10.4891
事親者居上不驕	-10.4891
市	-10.4891
憑	-10.4891
鑿	-10.4892
憤	-10.4892
諫諍之臣	-10.4892
軍旅	-10.4893
䂓	-10.4894
閔	-10.4894
拘	-10.4894
明發不寐	-10.4894
悖逆	-10.4894
弑	-10.4894
佚	-10.4895
詭	-10.4895
氣竭而	-10.4895
爽	-10.4896
枕	-10.4896
罪五百	-10.4896
㓜	-10.4896
呉	-10.4896
委曲	-10.4897
茂	-10.4897
沉	-10.4897
觸	-10.4897
溫	-10.4898
中士	-10.4898
盡津忍反	-10.4898
召公	-10.4898
契	-10.4899
干戚	-10.4899
甸	-10.4899
居上而驕	-10.49
杜預	-10.49
患不及	-10.4902
之官以成	-10.4903
材	-10.4903
詘	-10.4903
廣要道章第十二	-10.4903
戴	-10.4903
曜	-10.4904
紂	-10.4904
歩	-10.4904
遊	-10.4904
秀	-10.4905
堪	-10.4905
衞	-10.4905
妖	-10.4905
安上治民	-10.4905
絺	-10.4906
戰戰	-10.4906
淵源	-10.4907
熟	-10.4907
埀	-10.4907
袁宏	-10.4907
不過乎物	-10.4907
毁瘠	-10.4907
巡	-10.4908
孔子閒居子夏侍	-10.4908
寢苫枕塊	-10.4908
恱敬其君則臣恱敬一人而千萬人恱	-10.4909
冢	-10.4909
司馬貞	-10.4909
容貌	-10.4909
此章廣言	-10.4909
訖	-10.491
羲	-10.491
胥	-10.491
飯	-10.491
側曰侍	-10.491
布帛	-10.491
倣	-10.491
醉	-10.491
五刑之屬三千	-10.4911
百里	-10.4911
析	-10.4911
朗	-10.4911
各以其職來祭	-10.4911
丕	-10.4911
衣而飬老	-10.4911
曹	-10.4911
六寸	-10.4911
闗	-10.4911
支	-10.4912
仲尼閒居	-10.4912
爰	-10.4912
𦙍	-10.4912
寐	-10.4912
鄉黨	-10.4913
正之與變因樂而彰故曰莫善於樂	-10.4913
勤勞	-10.4913
犬	-10.4913
懈	-10.4913
教民親愛莫善於孝教民禮順莫善於悌	-10.4913
遍	-10.4913
恐陷	-10.4913
矩	-10.4914
破	-10.4914
君臣父子	-10.4914
朔	-10.4914
汎	-10.4914
喪則致其哀	-10.4914
作忠	-10.4914
此大亂之道也	-10.4914
第七章	-10.4915
葉	-10.4915
虐	-10.4915
攝	-10.4915
亷	-10.4915
𨽻	-10.4915
本或作	-10.4915
提	-10.4915
乏	-10.4916
不去則	-10.4916
吐	-10.4916
毫	-10.4916
䙝	-10.4916
狗	-10.4916
䖍	-10.4917
浸	-10.4917
伐	-10.4917
辰	-10.4917
故自天子已下至	-10.4917
決	-10.4917
厚莫重焉	-10.4918
要君者無上	-10.4918
延	-10.4918
援	-10.4918
泯	-10.4918
碑	-10.4918
行則四方之國順而行之	-10.4918
鯀	-10.4919
非孝者無親	-10.4919
展	-10.4919
祐	-10.4919
參所金反	-10.4919
是故先之以博愛而民莫遺其親陳之以	-10.4919
徳義而民興行先之以敬讓而民不	-10.4919
岳	-10.4919
柄	-10.4919
沃	-10.4919
庫	-10.4919
恣	-10.4919
敷暢	-10.4919
漆書	-10.492
隋志	-10.492
彝	-10.492
則天之明因地之利以順天下	-10.492
頑	-10.492
霜	-10.492
陋	-10.492
為之棺椁衣衾而舉之	-10.492
卜其宅兆而安措之	-10.492
顔色	-10.4921
武城	-10.4921
逄	-10.4921
太廟	-10.4921
所由生	-10.4921
充塞	-10.4921
朂	-10.4921
燠	-10.4921
輕侮	-10.4922
嚴而治	-10.4922
伯禽	-10.4922
明堂天子布政之宫也	-10.4922
廓	-10.4922
諫諍章第十五	-10.4922
程	-10.4922
裘	-10.4922
父子兄弟	-10.4922
不敢遺小國之臣	-10.4922
孩提	-10.4922
金石	-10.4922
庚	-10.4922
永錫	-10.4922
瘠	-10.4922
秋冬	-10.4922
在上不驕髙而不危	-10.4922
地之義民之行天地之經而民是則之	-10.4923
呉氏	-10.4923
迂	-10.4923
門户	-10.4923
在上不驕高而不危制節謹度滿而不溢	-10.4923
攷	-10.4923
父母有疾	-10.4923
蓋諸侯之孝也	-10.4923
膳	-10.4923
宿	-10.4924
尊而不親	-10.4924
旱	-10.4924
暨	-10.4924
禦	-10.4924
桓桓	-10.4924
嘗藥	-10.4924
宣王	-10.4924
辟音避	-10.4924
孝弟之至通於神明光於四海無所不通	-10.4924
牧	-10.4924
水漿不入口	-10.4925
曽子曰甚哉孝之大也	-10.4925
挾	-10.4925
抱	-10.4925
鴈	-10.4925
拜其辱	-10.4925
濟濟漆漆	-10.4925
子曰君子事上進思盡忠退思補過	-10.4925
邱	-10.4926
疲	-10.4926
上下無怨	-10.4926
莫大于	-10.4926
尋	-10.4926
屈	-10.4926
葢天子之孝也	-10.4926
奚	-10.4926
水火	-10.4926
禮無容	-10.4926
子貢問	-10.4926
擗踊哭泣哀以送之	-10.4927
必湏	-10.4927
為之宗廟以鬼享之	-10.4927
父慈子孝	-10.4927
府史	-10.4928
之别名	-10.4928
勒	-10.4928
滕	-10.4928
晝夜	-10.4928
耄	-10.4928
盥	-10.4928
詩云有覺德行四國順之	-10.4928
遠近	-10.4928
而驕則亡為下而亂則刑在醜而争則兵	-10.4928
嫁	-10.4928
慈幼	-10.4928
大抵	-10.4929
長幼順故上下治	-10.4929
謂之悖禮	-10.4929
不敢私	-10.4929
右傳二十	-10.4929
夫音符	-10.4929
優游	-10.4929
邢氏	-10.493
十三	-10.493
了	-10.493
羅	-10.493
憾	-10.493
狐	-10.493
郊祀明堂	-10.493
所不貴也	-10.493
部	-10.493
所以長守其	-10.493
甫刑云一人有慶兆民頼之	-10.493
晦	-10.493
不易其則故	-10.4931
津	-10.4931
之答也	-10.4931
德義可尊作事可法	-10.4931
昌吕反	-10.4931
洋洋乎	-10.4931
神明彰矣	-10.4931
虞書曰	-10.4931
而可爲民之	-10.4931
脱	-10.4931
女音汝下同	-10.4931
修身愼行	-10.4932
楊	-10.4932
得百姓之懽心	-10.4932
緩	-10.4932
古文孝經指解	-10.4932
廵守至於	-10.4932
殺逐	-10.4932
曾子曰甚哉孝之大也	-10.4932
踵	-10.4933
役	-10.4933
夏殷	-10.4933
鄭康成	-10.4933
莫重於	-10.4933
正則	-10.4934
借	-10.4934
孺	-10.4934
早	-10.4934
圓	-10.4934
引詩歌詠	-10.4934
曽子曰若夫慈愛恭敬安親揚名	-10.4934
司徒	-10.4935
髮	-10.4935
之任也	-10.4935
宴	-10.4935
陳之以德義而民興行	-10.4935
如字	-10.4935
者也故	-10.4935
匡衡	-10.4935
相親相	-10.4936
齊視	-10.4936
葛	-10.4936
齊戒沐浴	-10.4937
後漢	-10.4937
擗婢亦反	-10.4937
纊	-10.4937
非聖人者無法	-10.4937
非先王之德行不敢行	-10.4937
語去聲	-10.4937
窺	-10.4937
秘	-10.4938
䕶	-10.4938
子曰參先王有至徳要道	-10.4939
微賤	-10.4939
臺	-10.4939
傾危	-10.4939
刑于四海	-10.494
燕享	-10.494
舊注	-10.494
不可欺以	-10.494
没而	-10.494
刑戮	-10.494
孝道之大	-10.494
精微	-10.494
有争臣七人雖無道不失其天下諸侯有	-10.4941
能立其身	-10.4941
滿而不溢	-10.4942
開宗明義章	-10.4942
皇皇	-10.4942
下章云	-10.4942
之禮所以仁	-10.4942
董生曰	-10.4942
食肉	-10.4942
亦至焉	-10.4942
避席	-10.4942
五常之	-10.4942
長㓜	-10.4943
千載	-10.4943
孔門	-10.4943
得其宜	-10.4943
甚大	-10.4943
謹守	-10.4943
於堂	-10.4944
則行之於	-10.4944
將來	-10.4944
在其中矣	-10.4945
氣象	-10.4945
惡去聲	-10.4945
卜兆	-10.4946
則聞命矣	-10.4947
者何	-10.4947
轍	-10.4947
進退可度	-10.4948
以順則逆民無則焉	-10.4948
天地明察	-10.4948
公明儀	-10.4949
區	-10.4949
晉侯	-10.495
立徳行	-10.495
示民有	-10.4951
九年	-10.4951
故以孝事君則忠	-10.4951
兵刑	-10.4953
苟或	-10.4953
損益	-10.4953
夫如是	-10.4953
三牲	-10.4955
郤至	-10.4956
君子終身守此	-10.4956
逺近	-10.4956
北方	-10.4956
原序	-10.4956
卿大	-10.4956
王后	-10.4956
鵠	-10.4957
道路	-10.4958
篇首	-10.4958
則萬物皆	-10.4958
欽定四庫全書孝經集傳卷	-10.4958
盡禮	-10.4959
守宗廟	-10.4959
出疆	-10.496
案周禮	-10.496
之甚也	-10.496
燕居	-10.496
者其惟	-10.496
甚哉	-10.4961
繁文	-10.4961
去慢	-10.4962
謹節	-10.4962
之道不過於	-10.4963
威如	-10.4964
三者備矣然後能守其宗廟葢卿大夫之	-10.4964
子曰夫孝徳之本也教之所由生也	-10.4965
承上文	-10.4965
得毋	-10.4967
明皇	-10.4967
父母之身	-10.4967
違逆	-10.4968
老老	-10.4969
窮民	-10.4969
之與敬	-10.4969
孝經之文	-10.4969
長久	-10.497
元宗	-10.497
有慶	-10.4971
爵位	-10.4971
父母生	-10.4974
者孝之	-10.4974
而猶且	-10.4976
死節	-10.4976
之非	-10.4978
揚名顯親	-10.4978
以事一人	-10.4978
而不言	-10.4978
慶譽	-10.4979
孔子對曰	-10.4979
諸侯卿大夫之	-10.498
語辭	-10.498
各有所	-10.4982
君無	-10.4987
得志	-10.4988
上下治	-10.4988
言君	-10.4988
者樂	-10.4989
三千條	-10.4991
惟恐	-10.4991
寫之	-10.4993
五等之孝	-10.4994
則不止	-10.4996
仁讓	-10.4996
親切	-10.4996
奉法	-10.4997
是天道也	-10.4997
其義同	-10.4998
文王之徳	-10.4998
孟反	-10.5
徳業	-10.5001
世世	-10.5001
而至于	-10.5002
禮儀	-10.5002
必於是	-10.5004
祖宗	-10.5005
二世	-10.5008
分别	-10.5009
以化	-10.501
孝子之心	-10.5012
無念	-10.5012
哀公	-10.5012
率先	-10.5013
耕耤	-10.5017
亦莫	-10.5018
非有	-10.5018
之盛也	-10.5019
而降福	-10.5019
主日	-10.5021
中興	-10.5022
不得已	-10.5023
豈惟	-10.5028
大辟	-10.5028
愈於	-10.503
改本	-10.503
雖别	-10.5032
俱行	-10.5033
行成於内	-10.5034
陳説	-10.5034
子之道	-10.5034
多聞	-10.5035
日日	-10.5036
之數	-10.5039
此義	-10.5039
乎夫	-10.5039
東北	-10.504
心志	-10.5042
分合	-10.5043
性情	-10.5046
二家	-10.5047
諸書	-10.5056
繇禮	-10.5056
已之	-10.5057
分而	-10.5057
今日	-10.5066
正諫	-10.5069
有終始	-10.5072
四字	-10.5072
大化	-10.5073
節用	-10.5073
御註	-10.5073
敢問	-10.5075
漢興	-10.5075
主也	-10.5076
謂其有	-10.5078
則猶是	-10.5079
乎以此之故	-10.508
御注	-10.5081
存者	-10.5082
弟弟	-10.5082
尊文王	-10.5083
為壇	-10.5083
在家之	-10.5084
敬人之父	-10.5085
祫也	-10.5087
云天子	-10.5087
於君父	-10.5089
未可	-10.509
容儀	-10.509
長幼之	-10.509
第三章	-10.509
之什	-10.5091
初生	-10.5092
日月而	-10.5092
云爾	-10.5094
在前	-10.5094
天地之道	-10.5096
以别	-10.5099
孝子之事親也	-10.5102
天子以	-10.5102
九州之	-10.5103
在朝	-10.5105
孰慮	-10.5107
未及於	-10.5107
一體	-10.5107
莫非	-10.5107
王命	-10.5108
大歛	-10.5109
靡不	-10.5109
此哀戚之情也	-10.5112
以自	-10.5113
仲尼居曽子侍	-10.5114
五官	-10.5115
祭而	-10.5116
孝之大也	-10.5119
古人之	-10.5119
者未之有也	-10.5123
貴貴	-10.5123
各以其	-10.5124
下加	-10.5126
君子之徳	-10.513
不博	-10.5134
費也	-10.5134
無罪	-10.5135
章服	-10.5135
而又	-10.5135
此二者	-10.5137
有闕	-10.5138
忘親	-10.514
兼取	-10.514
先生	-10.5145
所以合	-10.5148
炫自	-10.5149
國之大	-10.515
謹度	-10.5151
見其所	-10.5151
最大	-10.5155
凡四	-10.5158
於四時	-10.5159
人而人	-10.516
聖人者	-10.5161
二句	-10.5162
則下有	-10.5162
雖多	-10.5166
在身	-10.5166
臣下所	-10.5166
生民	-10.5169
小國	-10.5171
以致敬	-10.5172
事地	-10.5174
言諸侯	-10.5176
君可	-10.5176
春秋左氏傳	-10.5176
焉耳	-10.5179
孝經注解傳述人	-10.5179
其容	-10.5179
周制	-10.5183
故須	-10.5187
而不犯	-10.5191
章中	-10.5193
三字	-10.5194
尊其	-10.5196
以知	-10.5197
知也	-10.5198
既見	-10.5199
于世	-10.52
卿與大夫	-10.52
祭法	-10.5203
來助祭也	-10.5205
明矣	-10.5206
之誼也	-10.5207
從古文	-10.5207
本皆	-10.5209
大矣	-10.5212
民性	-10.5213
指於	-10.5214
告於墓	-10.5215
文王之事	-10.5215
也古者	-10.522
失於	-10.5222
序云	-10.5223
凡在	-10.5226
於上而	-10.5227
不盡	-10.5227
父母在	-10.5228
而禁	-10.5232
愛而	-10.5237
國中	-10.5238
於墓	-10.5238
為文	-10.524
則君	-10.5243
以廣	-10.5244
皆出於	-10.5245
不變	-10.5245
教弟	-10.5245
禮之大	-10.5247
善惡	-10.5249
要於	-10.5249
古文無也字孝經注疏卷	-10.5249
於天下則	-10.5254
移孝	-10.5255
之實也	-10.5257
蓋是	-10.5258
通於	-10.5264
尚有	-10.527
於朋友	-10.5271
送之	-10.5275
名法	-10.5275
俱有	-10.5276
以禮為	-10.5278
之施	-10.528
故孝者	-10.5283
謂庶人	-10.5289
敬其親	-10.5289
今文云	-10.5291
拜迎	-10.5291
教以臣所以敬天下之為人君者也	-10.5294
於上下	-10.5294
慈孝	-10.5297
學禮	-10.5299
之禍	-10.5299
無益	-10.5299
義疏	-10.5301
所論	-10.5302
所記	-10.5306
是猶之	-10.531
問曰	-10.5321
有餘也	-10.5324
惟能	-10.5326
作孝經	-10.5326
中國	-10.5328
於百姓	-10.533
故明王	-10.5334
教之以	-10.5335
而為之也	-10.5336
此是	-10.534
議禮	-10.5341
選也	-10.5342
二本	-10.5344
畏之	-10.5344
故舉	-10.5344
彼此	-10.5344
今文無	-10.5345
十年	-10.5352
樂易	-10.5354
政之	-10.5357
與天地	-10.5358
書云	-10.5361
不詳	-10.5364
御製序	-10.5364
其自然	-10.5366
于親	-10.5368
毁不滅性此聖人之政也	-10.537
以為樂	-10.5374
其恩	-10.5381
言蓋	-10.5383
逺而	-10.5385
親而	-10.539
盡心	-10.5394
欲觀	-10.5399
知能	-10.5399
者莫不	-10.54
傳注	-10.5405
盖謂	-10.5406
莫有	-10.5408
作疏	-10.5409
亦以	-10.5412
自盡	-10.5415
貴者也	-10.5419
躬行	-10.5419
注言	-10.542
懼不	-10.544
孰為	-10.545
異也	-10.5451
以御	-10.5458
於祖	-10.5464
其詞	-10.547
有别	-10.547
不辟	-10.5474
於刑	-10.5479
敬身	-10.548
敬其身	-10.5481
故順可移於長居家理故治可移於官	-10.5484
註孝經	-10.549
視學	-10.5491
即所謂	-10.5491
定為	-10.5493
孝為百行之	-10.5498
有不義	-10.5498
之忠也	-10.5504
八字	-10.5504
敢於	-10.5505
有序	-10.5511
求其	-10.5513
正國	-10.5515
二書	-10.5517
使子	-10.5533
有社稷	-10.5538
而君	-10.5538
也故君子	-10.554
終矣	-10.5541
墨氏之	-10.5544
先祖之	-10.5546
夫猶	-10.5548
其意	-10.5548
自是	-10.5549
於道	-10.5549
君有過	-10.555
與其	-10.5554
或以	-10.5554
詔之	-10.5554
明主	-10.5555
而坐	-10.5556
其惡	-10.5561
諸侯大夫	-10.5561
以天子	-10.5565
而對	-10.5565
有擇	-10.5565
其質	-10.5567
家而	-10.5569
之罪也	-10.5578
然後為	-10.5586
起於	-10.5588
禮與曰	-10.5591
而推	-10.5594
易其	-10.5605
何必	-10.561
壇之	-10.5615
思孝	-10.5616
道不行	-10.5617
者也然則	-10.5619
當盡	-10.5619
仲尼之	-10.5621
之辭也	-10.5621
使君	-10.5622
之倫	-10.5625
民者	-10.5625
釋之	-10.5627
之何	-10.5644
有徳	-10.5651
明明	-10.5651
疑其	-10.5653
必得	-10.5664
行即	-10.5667
後有	-10.567
為孝子	-10.5671
下民	-10.568
至善	-10.5681
五至	-10.5681
者舉	-10.5684
孝經則	-10.5689
正其	-10.5693
所以明	-10.57
遵道	-10.5705
從諫	-10.5709
也以為	-10.5711
孝經定本	-10.5712
皆得其	-10.5715
遂其	-10.572
十餘	-10.572
禁也	-10.5721
聖人之教	-10.5721
衰矣	-10.5722
官人	-10.5724
下也	-10.5728
之耳	-10.573
祀昊天	-10.5734
地而	-10.5737
以相	-10.574
致其哀祭則致其嚴五者備矣然後能事	-10.5741
之餘也	-10.5744
本非	-10.5745
可道	-10.5745
自稱	-10.5753
而曰	-10.5768
其言行	-10.577
所在	-10.577
不謂之	-10.5771
戒之	-10.5778
者以其	-10.5781
心則	-10.5785
同也	-10.5785
是亂	-10.5785
亦非	-10.5794
復有	-10.5798
后稷配	-10.5803
不失則	-10.5804
室則	-10.581
之則也	-10.5813
之化	-10.5814
之㫖	-10.5814
仁為	-10.5818
不至於	-10.5819
而已矣故	-10.5822
今以	-10.5822
以結之	-10.5822
以嚴	-10.5823
下而	-10.5824
傷生	-10.5825
五孝	-10.5829
䘮則	-10.5831
其能	-10.5834
不窮	-10.5835
士君子	-10.5843
正道	-10.5845
猶為	-10.5846
註文	-10.5848
極言	-10.5855
子曰吾志在春秋行在孝經	-10.5856
敬順	-10.5859
官也	-10.5862
其父兄	-10.5862
不顧	-10.5863
讓也	-10.5866
大順	-10.5867
有物	-10.5869
有位	-10.5874
藏也	-10.5875
月之	-10.5876
仁孝之	-10.5876
之德	-10.5878
顯也	-10.5878
其化	-10.5878
皆所以	-10.5884
五月	-10.5889
忘之	-10.5895
至大	-10.5897
三月而	-10.5913
斯則	-10.5914
時人	-10.5916
不滅	-10.5923
事君章第十七	-10.5924
反下	-10.5926
又不	-10.5931
其真	-10.594
子曰君子之事上也進思盡忠退思補過	-10.5941
子之事親	-10.5942
見矣	-10.5942
皆出	-10.5946
夷子	-10.595
識之	-10.5953
以養	-10.5973
郊祭	-10.5974
非獨	-10.5979
猶之	-10.5986
其義也	-10.5988
正義曰夫子	-10.5996
本無	-10.5996
備言	-10.5997
能理	-10.6
諸侯有	-10.6009
而賤	-10.602
不自	-10.6024
而不忘	-10.6025
敬而已矣	-10.6026
則易	-10.6035
也賈生曰	-10.6036
之臣	-10.6036
於臣	-10.6041
其遺	-10.6043
所當	-10.6048
曾子之	-10.6048
之士不	-10.6059
以足	-10.6059
少者	-10.606
竭其	-10.6064
以養父母	-10.6068
亦不能	-10.6069
必敬	-10.6075
書為	-10.6079
一字	-10.6088
之目	-10.609
名立於	-10.6095
親死	-10.6096
三十	-10.6099
其數	-10.611
若是	-10.6111
而後能	-10.6114
必至	-10.6115
親在	-10.6119
觀其	-10.6124
也此言	-10.6137
以輔	-10.6138
治其家	-10.6147
祭曰	-10.6148
名而	-10.6148
而葬	-10.6153
言保	-10.6154
極至	-10.6156
賜之	-10.6156
之序也	-10.6164
其祖	-10.6166
中有	-10.617
不明	-10.6171
日月之	-10.6186
後言	-10.6192
失則	-10.6194
天下皆	-10.6199
諫則	-10.6202
也春秋	-10.6202
語曰	-10.6208
别其	-10.6212
至理	-10.622
一人則	-10.622
孝經一卷	-10.6235
不問	-10.6236
無擇	-10.6241
為卿大夫	-10.6242
孝本	-10.6248
下之	-10.6252
備於	-10.6252
名為	-10.6254
者此釋	-10.6264
而進	-10.6265
之恩	-10.6269
不從政	-10.6274
亂不	-10.6284
下矣	-10.629
其善	-10.6291
皆非	-10.6292
况其	-10.6305
百姓之	-10.6323
具也	-10.6343
孔鄭	-10.6348
通謂	-10.6349
而民不	-10.6356
也非為	-10.6364
禮樂者	-10.6365
士朝	-10.6374
徳義	-10.6375
云若	-10.6378
敬為	-10.6378
秋嘗	-10.6391
所貴	-10.6392
為義	-10.6404
有節	-10.6406
其親則	-10.6412
正義曰此依王注	-10.6421
也患	-10.6425
德者	-10.6426
不亡	-10.6427
曰吾	-10.6429
以訓	-10.6431
中於	-10.6433
此句	-10.6442
而日	-10.6443
其節	-10.6444
其孝	-10.6454
分為	-10.6462
少而	-10.6465
不為也	-10.647
外也	-10.6471
指其	-10.6477
順治	-10.6479
取象	-10.6482
而况	-10.6486
稱子	-10.6496
至如	-10.6503
也書曰	-10.651
風也	-10.6512
當其	-10.6517
功也	-10.6528
矣君子	-10.6534
饋奠	-10.6535
者而後	-10.6548
多而	-10.6549
少傅	-10.655
厚於	-10.6555
詠之	-10.6555
氣志	-10.6558
祭其	-10.656
教敬	-10.6567
也以其	-10.6568
賔主	-10.6577
無為	-10.6583
物為	-10.6585
節文	-10.6586
人主之	-10.6589
衆也	-10.6592
王之治	-10.6594
賞罰	-10.6601
乎然則	-10.6604
則諸侯	-10.6604
所不能	-10.6605
合敬	-10.6609
之何也曰	-10.6611
竝同	-10.6611
貴者	-10.6615
形於	-10.6622
行下孟反傳	-10.6631
朝覲	-10.6635
於山川	-10.6636
著矣	-10.6641
傳稱	-10.6641
也今	-10.6642
不多	-10.6645
共之	-10.665
遺之	-10.6653
而重	-10.6654
而後可	-10.6656
此一	-10.6661
其失	-10.667
必由	-10.667
過時	-10.6678
下猶	-10.6683
釋奠	-10.6689
無甚	-10.6692
不敢自	-10.6697
欲以	-10.67
君子有	-10.6704
治者	-10.6719
十四	-10.6719
之謂禮	-10.672
物也	-10.6731
焉此	-10.6732
况於	-10.6736
之而無	-10.6742
質之	-10.6742
申明	-10.6743
鄉飲酒	-10.6747
日嚴	-10.6752
無非	-10.6753
坑	-10.6755
則大夫	-10.6758
質者	-10.6759
刑以	-10.6775
云孔子	-10.6789
棺槨	-10.6794
東方	-10.6796
之後而	-10.6797
制之	-10.6798
父母也	-10.6804
以慈	-10.6814
理則	-10.6815
從政	-10.6816
為之也	-10.6819
慕也	-10.682
本天	-10.6845
不作	-10.6846
聖明之	-10.6856
要者	-10.6858
之廟	-10.686
言君子	-10.6863
類也	-10.6864
禮而	-10.6871
之道不	-10.688
君子之教	-10.6881
賈生曰	-10.6882
於庶人	-10.6884
利禄	-10.6893
當是	-10.6894
者此謂	-10.6905
至孝之	-10.6913
臣子之	-10.6913
儒者	-10.692
不治	-10.6931
宗廟之中	-10.6936
動之	-10.6944
忠者	-10.6946
主張	-10.6947
然後可以	-10.6959
而神	-10.6965
質也	-10.6972
不正	-10.698
也既	-10.698
其社稷	-10.6985
皆順	-10.6991
何所	-10.6991
若以	-10.6996
曰君	-10.6998
其次	-10.6999
衣之	-10.7002
感應	-10.7004
則可	-10.7012
以順則逆民無則焉不在	-10.7013
篇語	-10.7028
人亦	-10.703
而已故	-10.7033
為治	-10.7034
不外	-10.7035
敬矣	-10.7043
可不	-10.7046
云云	-10.7052
示其	-10.7054
其初	-10.7061
嚴而	-10.7073
居人	-10.7083
遷	-10.7083
者皆	-10.7092
吾志在春秋行在孝經	-10.7096
祀明堂	-10.7109
者欲	-10.711
謂先王	-10.7121
薄於	-10.7122
立則	-10.7124
敬其君	-10.7129
顯親	-10.7131
逺也	-10.7141
成人	-10.7146
行自	-10.7146
强之	-10.715
兄也	-10.7153
禮為	-10.7162
明其	-10.7163
御者	-10.7167
又音	-10.717
之心也	-10.7179
于家	-10.7179
故敬其父則子	-10.718
長幼順	-10.7192
殷之	-10.7196
以象	-10.7198
相親	-10.7206
章明	-10.7209
于外	-10.7216
變而	-10.7219
一敬	-10.7228
天下之為	-10.7233
從而	-10.7233
人生	-10.7239
于上	-10.7248
焉爾	-10.7257
盡力	-10.7258
庶民	-10.7263
隋	-10.7267
子之行也	-10.729
物注云	-10.729
命也	-10.7297
無可	-10.7298
不舉	-10.7318
之治也	-10.7325
六十	-10.7325
喪也	-10.7332
變化	-10.7341
而得	-10.7367
後為	-10.7368
君子之道	-10.7376
内之	-10.7379
所著	-10.7379
言而不	-10.738
言孝子	-10.7381
忠則	-10.7383
敎之	-10.7383
進則	-10.7385
流而	-10.7387
樂以	-10.7392
斯其	-10.7395
也一人	-10.7397
忠也	-10.7404
汝知之乎	-10.7407
孝子之志	-10.7408
總言	-10.7413
愛而不	-10.7419
動於	-10.7422
愛之則	-10.7425
法度	-10.7432
不可復	-10.7436
之敬	-10.7436
者此依鄭注	-10.7437
君子之所	-10.7438
故禮	-10.7454
教亦	-10.7458
能明	-10.7462
其作	-10.7463
帝舜	-10.7463
者無	-10.7467
今文古文	-10.7483
也或曰	-10.7485
愛以	-10.7487
何得	-10.7487
身致	-10.7488
背	-10.7496
惡則	-10.7501
夫使	-10.7502
其過	-10.7506
不中	-10.7509
致也	-10.7511
君行	-10.7516
不絶	-10.7523
之刑	-10.7524
此謂	-10.7527
教子	-10.7535
嫌	-10.7539
其末	-10.7539
不忘其親	-10.7542
亂之	-10.7551
孝經注疏序	-10.7552
不失天下	-10.756
又引	-10.756
為人臣	-10.7563
父母之憂	-10.7566
裁	-10.7576
三章	-10.7578
臨其	-10.7579
事親之	-10.7591
之子也	-10.7592
滿天下	-10.7592
而從之	-10.7596
所尊	-10.7599
班	-10.76
宗有	-10.7601
越之	-10.7604
先言	-10.7611
謂天下	-10.7613
曰神	-10.7613
此承	-10.7614
㳺	-10.7618
其力	-10.7623
人事	-10.7635
逺於	-10.7637
喪則	-10.764
問之	-10.7649
御製	-10.7667
忠言	-10.7672
葬也	-10.7693
位也	-10.7701
者親之	-10.7717
者與曰	-10.7728
不辨	-10.773
固也	-10.7731
毒	-10.7733
曰今文	-10.7742
臯陶	-10.7744
今人	-10.7745
順是	-10.7755
云凡	-10.7773
高而不危	-10.7783
逺者	-10.7794
之義也云	-10.7795
中也	-10.7795
之所不	-10.7806
如父母	-10.7808
安之	-10.7811
孝道之	-10.7811
天下國家	-10.7814
兆民	-10.7815
本故	-10.7816
祭日	-10.782
此釋	-10.7824
六事	-10.7825
謂孝者	-10.7825
亦云	-10.783
立矣	-10.7832
教以孝	-10.7837
不亂也	-10.7842
之稱	-10.7843
仲尼閒居曽子侍坐	-10.7847
也子曰	-10.7851
不奪	-10.7862
腹	-10.7867
和以	-10.7874
之服自	-10.788
正義曰言	-10.7891
君之過	-10.7893
東序	-10.7898
欲其	-10.7898
朱子刋誤	-10.7899
陸費墀	-10.7905
之始於	-10.7908
沿	-10.7909
忠君	-10.7911
入於	-10.7916
枉	-10.7919
卿大夫之孝	-10.7923
安其	-10.7924
爱	-10.793
刑也	-10.7931
閉	-10.7931
之初	-10.7934
為卿士	-10.7938
之資	-10.7942
理故	-10.7943
天下無	-10.7945
五人	-10.7946
色養	-10.7947
敬親者不敢慢於人	-10.7947
事母孝	-10.7948
于道	-10.795
天下大治	-10.7951
十一章	-10.7952
擬	-10.7954
婦人	-10.796
終不	-10.7961
庠	-10.7967
之正	-10.7969
為忠臣	-10.798
坐字	-10.798
物者	-10.7989
值	-10.7989
刑法	-10.7999
可乎	-10.8
所欲	-10.8001
變也	-10.8016
而不為	-10.8017
試	-10.8018
之仁也	-10.8019
性之	-10.8024
按禮記	-10.8026
韋昭	-10.8029
中庸曰	-10.803
揖	-10.8031
於春秋	-10.8032
又推	-10.8035
糾	-10.8035
四章	-10.8039
則似	-10.8045
者國	-10.8046
弊	-10.8046
踐	-10.8047
故以名章次	-10.8047
不遑	-10.8048
隣	-10.8049
之道則	-10.8051
能終	-10.8051
者敬之	-10.8052
二十	-10.8052
學以	-10.8053
則問	-10.8057
在西	-10.8063
謝	-10.8065
敬其兄	-10.8066
大夫三	-10.8068
敬而後	-10.807
如此而後	-10.807
親之道	-10.8074
㫖不甘此哀戚之情	-10.8083
五刑之	-10.8084
深而	-10.8084
稱則	-10.8085
三者備矣	-10.8089
取於事父之	-10.8095
道謂	-10.8096
故不	-10.8098
者其刑	-10.8099
天則	-10.8099
孝經集傳	-10.8099
馬融	-10.8115
如此故	-10.8115
悲哀	-10.812
舉之	-10.8123
不終	-10.8124
武帝時	-10.8124
導之	-10.8127
盖天子之孝	-10.8129
言從	-10.8129
先於	-10.8133
母之心	-10.8135
故取	-10.8141
先之	-10.8145
刑名	-10.8147
襄	-10.8149
知孝之	-10.8149
如何曰	-10.8154
衍	-10.8155
正義曰案	-10.8155
摯	-10.8156
信矣	-10.8159
厭	-10.8159
不可以不爭於父臣不可以不爭於君	-10.8164
止於	-10.8166
駁	-10.8168
也右第十	-10.817
其祖考也	-10.8172
羙	-10.8175
隨其	-10.8175
禰廟	-10.8176
立身揚名	-10.8177
弓	-10.818
疆	-10.8182
優劣	-10.8183
而告	-10.8184
併	-10.8186
者孝弟之	-10.8187
浴	-10.819
上大夫	-10.8192
以文王配	-10.8196
故當不義則子	-10.8198
婉容	-10.8198
盡善	-10.8199
之歸功於	-10.82
底	-10.8202
簟	-10.8202
哀戚之情	-10.8202
則近於	-10.8202
頒	-10.8204
禍亂不作	-10.8204
韶	-10.8206
正義曰此依魏注也	-10.8207
怒而	-10.8207
必有酒肉	-10.8208
當如是也	-10.821
義已	-10.821
月祭	-10.8211
慈以㫖甘	-10.8211
緇衣	-10.8211
排	-10.8212
悱	-10.8212
綸	-10.8212
事長則順	-10.8212
東晉	-10.8212
忠於君	-10.8213
恪	-10.8214
旁	-10.8214
於東序	-10.8214
輙	-10.8216
禮之所	-10.8216
焉得為孝乎	-10.8217
於庶人孝無終始而患不及者未之有也	-10.8217
無思不服	-10.8218
儆戒	-10.8219
忌日不用	-10.8219
貪	-10.8219
僖公	-10.822
蘇	-10.822
誹謗	-10.822
赫赫明盛	-10.822
百世不遷	-10.822
順乎親	-10.8221
而民	-10.8221
額	-10.8221
阼	-10.8222
仰	-10.8222
摩	-10.8223
瘡	-10.8223
唐明皇御注陸德明音義宋邢昺疏	-10.8223
孝以不毁為先	-10.8223
巫蠱	-10.8223
太牢也	-10.8224
進思盡忠	-10.8224
孩幼	-10.8224
於士	-10.8224
孝之大	-10.8225
此哀之發於	-10.8225
肇	-10.8225
五者闕一	-10.8225
㫁	-10.8225
和順以從衆也	-10.8225
禍敗	-10.8225
行於世	-10.8225
不近兵刑	-10.8226
人則雖無道亦可以不失其	-10.8226
而患不能及者未之有也	-10.8226
柱	-10.8227
章次	-10.8227
泗	-10.8227
流於外	-10.8227
及其長	-10.8227
泮	-10.8227
劉劭	-10.8227
十月而	-10.8227
三老五更	-10.8227
郤	-10.8228
羹	-10.8228
它	-10.8229
牒	-10.8229
爾雅	-10.8229
知所以為人	-10.8229
簠	-10.8229
叚序	-10.8229
司農	-10.8229
宋均	-10.8229
協	-10.8229
焚	-10.8229
言無此理故曰未有	-10.823
紀孝行	-10.823
者無不敬其君也	-10.823
男子割勢	-10.823
鐘鼓	-10.823
富貴不離其身	-10.823
段	-10.8231
麤	-10.8231
鹿	-10.8231
大臣助	-10.8231
踳駮尤甚	-10.8231
函	-10.8231
尉	-10.8231
散騎常侍	-10.8231
池	-10.8232
謟	-10.8232
枲	-10.8232
三牲太牢也	-10.8232
袵	-10.8232
露	-10.8232
禮主於敬	-10.8233
之心故	-10.8233
光於四海	-10.8233
大功之喪	-10.8233
皮弁	-10.8233
信乎朋友	-10.8233
捐	-10.8233
既殯	-10.8233
爭臣七人雖無道不失其天下	-10.8234
后夫人	-10.8234
以身先之	-10.8234
荒	-10.8234
泥	-10.8234
熙	-10.8234
脫	-10.8235
導之以禮樂	-10.8235
歲	-10.8235
何承天	-10.8235
釋奠於先老	-10.8235
不敢失於臣妾	-10.8235
歴世	-10.8235
淑慎	-10.8235
牀	-10.8235
絃誦	-10.8235
翔	-10.8235
讎	-10.8235
戮	-10.8235
豕	-10.8236
孝子之喪親也	-10.8236
宜稻麥	-10.8236
城郭	-10.8236
殞滅	-10.8236
海而凖推而放諸	-10.8236
敬者禮	-10.8236
賛	-10.8236
耆	-10.8237
慝	-10.8237
峻	-10.8237
悲哀在心	-10.8237
而尚齒虞夏殷周天下之盛王也未有遺	-10.8237
躬耕	-10.8237
言能立身行此孝道	-10.8237
鉅	-10.8237
長孫氏江翁翼奉后蒼	-10.8237
式禮莫愆	-10.8237
油	-10.8237
纎	-10.8237
雞	-10.8237
侯卿大夫士庶人	-10.8237
等差	-10.8237
元年	-10.8237
億兆	-10.8237
皆敬也	-10.8237
衣衾	-10.8237
周公之志也	-10.8238
鄕	-10.8238
丞	-10.8238
曽参	-10.8238
無二尊	-10.8238
祖襧	-10.8238
韻	-10.8238
矢	-10.8238
子曰是何言與是何言與	-10.8238
企	-10.8239
五廟之孫祖廟未毁雖	-10.8239
潛	-10.8239
亞	-10.8239
毁瘠過度	-10.8239
長孫氏博士江翁少府后	-10.8239
𢎞	-10.8239
蒸	-10.8239
壟	-10.824
爼	-10.824
遺忘	-10.824
治國之道	-10.824
醫	-10.824
風雷山澤	-10.824
閨	-10.824
跳	-10.824
斯二者	-10.8241
服縗麻	-10.8241
冊	-10.8241
尚齒夏后氏貴爵而尚齒殷人貴富而尚	-10.8241
不相襲	-10.8241
詎	-10.8241
之讎不與聚	-10.8241
以是待其	-10.8241
媮	-10.8241
爲之注	-10.8241
藹	-10.8241
在醜不爭	-10.8241
一人有慶兆民賴之	-10.8241
曰吾聞之	-10.8242
以説安之	-10.8242
觴	-10.8242
噐	-10.8242
昆弟	-10.8242
而能不驕則免危也	-10.8242
弧	-10.8242
涖	-10.8242
閣	-10.8243
剪	-10.8243
居堊室	-10.8243
肩	-10.8243
臆	-10.8243
貴賤之等	-10.8243
朴	-10.8243
牆	-10.8243
輟	-10.8243
受命於禰	-10.8243
則復諫	-10.8243
祭則致其嚴	-10.8243
琰	-10.8244
先王見敎之可以化民也	-10.8244
淑人君子	-10.8244
㤀	-10.8244
人心天理	-10.8244
以敬為主	-10.8244
劇	-10.8244
得天下之懽心	-10.8244
銘	-10.8244
長上聲行去聲	-10.8244
牽	-10.8244
弛	-10.8244
祕	-10.8244
十八	-10.8244
詩云豈弟君子民之父母	-10.8244
五刑謂墨劓剕宫大辟也	-10.8244
刈	-10.8244
迄	-10.8245
截鼻	-10.8245
披	-10.8245
犢	-10.8245
敬其所尊愛其所親	-10.8245
其中	-10.8245
司冦	-10.8245
無所遺失	-10.8245
而道不著	-10.8245
芻	-10.8245
釐	-10.8245
居上而驕則亡	-10.8245
寵	-10.8245
减	-10.8246
百穀	-10.8246
唯此而已	-10.8246
詩曹風鳲鳩	-10.8246
甞	-10.8246
起而	-10.8246
起䖍反	-10.8246
普	-10.8246
燼	-10.8246
兒	-10.8246
昵	-10.8246
科斗	-10.8247
裘葛	-10.8247
御定孝經注	-10.8247
東房	-10.8247
樸	-10.8247
洋溢	-10.8247
藩	-10.8247
〇	-10.8247
乾坤	-10.8247
仲尼居曾子侍	-10.8247
就養無方	-10.8247
有道乎曾子曰有	-10.8247
注約彼文	-10.8247
為天子服	-10.8247
膚髪	-10.8247
褒貶諸侯	-10.8247
不食三日	-10.8247
兵刄	-10.8248
制禮作樂	-10.8248
兮	-10.8248
服衰麻	-10.8248
諷諫	-10.8248
孝者百行之本	-10.8248
族人與父兄齒也	-10.8248
黻	-10.8248
忝爾所生	-10.8248
局	-10.8248
孫氏	-10.8248
謨	-10.8248
長幼之序	-10.8248
羔豚	-10.8248
濫觴於漢	-10.8248
琬	-10.8248
稽顙	-10.8248
而和其民人	-10.8248
守其祭祀	-10.8248
由是觀之	-10.8248
炙	-10.8248
飢	-10.8248
夭折	-10.8248
鍾	-10.8248
偯於豈反	-10.8249
合愛敬而	-10.8249
君薨	-10.8249
條貫	-10.8249
盗賊	-10.8249
章裳繡	-10.8249
胞	-10.8249
衣裳	-10.8249
順帝之則	-10.8249
案尚書	-10.8249
至要之義	-10.8249
檀弓	-10.8249
悽愴	-10.8249
諸侯列國之君貴在人	-10.8249
臣者皆知盡事君之道	-10.8249
須去	-10.8249
惕	-10.8249
正義曰前	-10.8249
而知	-10.8249
顙	-10.8249
夫孝天之經地之義民之行	-10.8249
順於長	-10.8249
中于事君	-10.8249
弱	-10.8249
更有大於孝否	-10.8249
者引詩大意如此	-10.8249
又何待	-10.8249
畆	-10.825
君親臨之厚莫重焉	-10.825
井	-10.825
演	-10.825
太宰純	-10.825
千乘之國	-10.825
曽子曰甚哉孝之大也子曰夫孝天之經	-10.825
美有所不安	-10.825
赫赫明盛貌	-10.825
迷	-10.825
五孝之用	-10.825
大夫以上皆	-10.825
夫人副褘	-10.825
嬰孩	-10.825
憲乞	-10.825
曽子曰敢問聖人之徳其無以加於孝乎	-10.825
涉	-10.825
疑丞輔弼	-10.825
登歌	-10.825
舛	-10.825
蠶室	-10.825
杜	-10.8251
淵	-10.8251
死刑也	-10.8251
敝	-10.8251
忒他得反	-10.8251
犬馬	-10.8251
英	-10.8251
父有爭子	-10.8251
裏	-10.8251
父有争子則身不䧟於不義	-10.8251
韋昭王肅先儒之領	-10.8251
渉	-10.8251
睿	-10.8251
者不敢言人	-10.8251
苗	-10.8251
規矩	-10.8252
暫	-10.8252
寓	-10.8252
屏	-10.8252
故曰終於立身也	-10.8252
迨	-10.8252
是效	-10.8252
自天子以至於庶人	-10.8252
子不可以弗爭於父臣不可以弗爭於君	-10.8252
禀命	-10.8252
鎬	-10.8252
不受必忠曰	-10.8252
仲山甫補之	-10.8252
凥	-10.8252
噫	-10.8252
壤	-10.8252
大毛公	-10.8252
柩車	-10.8252
汲汲	-10.8252
為賢人	-10.8252
訊	-10.8252
醜類	-10.8252
戾	-10.8252
救其惡	-10.8252
而況於	-10.8252
不越禮法則可度	-10.8252
鳩	-10.8252
宛	-10.8253
其身則	-10.8253
以事母則愛	-10.8253
子曰夫孝德之本也	-10.8253
嚚	-10.8253
崩	-10.8253
萬國之衆而皆得其懽	-10.8253
義曰云	-10.8253
人之行莫	-10.8253
恬	-10.8253
途	-10.8253
長㓜順故上下治天地明察神明彰矣	-10.8253
養老養幼	-10.8253
副	-10.8254
胄子	-10.8254
於士民乎故得百姓之懽心以事其先君	-10.8254
照臨	-10.8254
邰	-10.8254
緣	-10.8254
俯	-10.8254
容止威儀	-10.8254
蹈	-10.8254
凖	-10.8254
后土	-10.8254
顛	-10.8254
近儒	-10.8254
希	-10.8254
惮	-10.8254
摘	-10.8254
酉	-10.8254
也頌曰	-10.8254
孳	-10.8254
寇	-10.8254
揚觶	-10.8254
於祖禰	-10.8254
旒衣㑹	-10.8254
朱熹	-10.8254
示不敢専	-10.8254
祈榖	-10.8254
祼	-10.8254
紫	-10.8254
誕	-10.8254
鈇鉞	-10.8254
儼恪	-10.8254
刪削	-10.8254
米	-10.8254
䝉	-10.8255
有禮而順	-10.8255
閒暇	-10.8255
揚名榮親	-10.8255
王者父事天母事地言能敬	-10.8255
赦	-10.8255
之所致也	-10.8255
俸	-10.8255
僣	-10.8255
宮	-10.8255
居廬	-10.8255
華蟲	-10.8255
過差	-10.8255
一錢之錐	-10.8255
亦是就	-10.8255
未能也所求乎	-10.8255
一家之	-10.8255
憎	-10.8255
曽子辟席曰參不敏何足以知之	-10.8255
帶	-10.8256
鄒	-10.8256
敢放縱	-10.8256
諸侯卿大夫士	-10.8256
未著	-10.8256
則天之明	-10.8256
廣揚名章	-10.8256
千里	-10.8256
婢	-10.8256
敎之所由生也	-10.8256
孔氏壁中古文	-10.8256
栁	-10.8256
穿鑿	-10.8256
也劉巘	-10.8256
孔光	-10.8256
嶽瀆	-10.8256
席而坐	-10.8256
甘㫖	-10.8256
盡事親之道	-10.8256
約文敷暢義則昭然	-10.8256
蹻	-10.8256
附庸	-10.8256
公羊傳	-10.8256
孝弟忠順	-10.8256
瞽瞍	-10.8256
莫貴於	-10.8256
鄒氏	-10.8256
替	-10.8257
暫忘	-10.8257
地之利	-10.8257
謹身節用以養父母	-10.8257
使天下之人	-10.8257
此聖人之政也	-10.8257
長上聲	-10.8257
擗踊哭泣哀以送之卜其宅兆而安厝之	-10.8257
不危不溢	-10.8257
嬰兒	-10.8257
相尋	-10.8257
能相親也	-10.8257
以始祖后稷配	-10.8257
瘝	-10.8257
謗	-10.8257
僉	-10.8257
吟	-10.8257
溝	-10.8257
無父無君	-10.8257
發乎情	-10.8257
謂先代	-10.8257
環	-10.8257
各順其	-10.8258
養生送死	-10.8258
校定	-10.8258
單	-10.8258
謹守法度	-10.8258
筆	-10.8258
下以忠事上上以義接	-10.8258
菽	-10.8258
駮	-10.8258
嘗烝	-10.8258
諾	-10.8258
䖏	-10.8258
則一也然則	-10.8258
娶	-10.8258
得之者皆煨燼之末	-10.8258
答拜之	-10.8258
絶於秦	-10.8258
莫覺其非至或以為孔子之	-10.8258
鷩冕	-10.8258
之也敬以	-10.8258
升降	-10.8258
吏之賤者也	-10.8258
員	-10.8258
頖宫	-10.8258
饔餼	-10.8258
魄	-10.8258
青	-10.8258
上下和	-10.8259
乃孝經之傳也竊嘗考之傳文固	-10.8259
記以釋經文	-10.8259
徳教加於百姓刑於四海	-10.8259
髙而不危所以長守貴	-10.8259
無學	-10.8259
不愛其親而愛他人者	-10.8259
民無則焉	-10.8259
制節謹度滿而不溢髙而不危所以	-10.8259
威儀不差	-10.8259
事宗廟則事天地能明察也	-10.8259
和悅	-10.8259
愛敬盡於事親而德敎加於百姓	-10.8259
之義通之則	-10.8259
嗟	-10.8259
明王之以孝治天下也	-10.8259
歆享	-10.826
次首章	-10.826
書皆	-10.826
慼生民之	-10.826
煇	-10.826
制作事業動得物宜故可法也	-10.826
不能自己	-10.826
天之生物	-10.826
臨深履薄	-10.826
!」	-10.826
故曰彰也	-10.826
濟濟	-10.826
王草堂	-10.826
可以語孝	-10.826
憲副	-10.826
是故行成於内而名立於後世矣	-10.826
營護	-10.826
異宫	-10.826
詆毁	-10.826
韓嬰	-10.826
饌	-10.826
武王周公	-10.826
暇	-10.826
因嚴以教敬因親以教愛	-10.826
侃云	-10.826
二程	-10.826
哀痛之極	-10.8261
因論武王周公之事而	-10.8261
生民之本盡矣	-10.8261
悖補對反	-10.8261
製序	-10.8261
謹身節用	-10.8261
移風易俗	-10.8261
彊	-10.8261
要脅	-10.8261
而後求諸人	-10.8261
掃地	-10.8261
十三字	-10.8261
少牢	-10.8261
太宰	-10.8261
二十四字	-10.8262
父母生之續莫大焉	-10.8262
能全其性	-10.8262
必有諍臣	-10.8262
曾子曰敢問聖人之	-10.8262
所生謂父母	-10.8262
禁令	-10.8262
男踊女擗祖載送之	-10.8262
以其祖配	-10.8262
美味	-10.8262
㓙徳	-10.8262
不敢奢侈	-10.8262
人化而不爭	-10.8262
介僎	-10.8262
以順移忠之道昭矣立身揚名之義彰矣	-10.8262
佞	-10.8262
凱	-10.8262
參聞命矣敢問從父之令可謂孝乎	-10.8262
四支	-10.8262
國子祭酒	-10.8262
廵守之禮	-10.8262
御纂孝經集註	-10.8262
慶賞	-10.8262
桓譚新論	-10.8262
牢飱	-10.8262
羊尙反	-10.8262
者故資	-10.8262
誘	-10.8262
進退周旋	-10.8262
鬯	-10.8262
當不義則爭之從父之令又焉得為孝乎	-10.8262
喪親章	-10.8262
皆格言	-10.8262
毓	-10.8263
祭則鬼享之	-10.8263
敬一人而千萬人	-10.8263
不敢慢於人	-10.8263
神祇	-10.8263
時祭祀展其孝思也	-10.8263
返	-10.8263
亟	-10.8263
係	-10.8263
傳之八章	-10.8263
凡十一字古文同在	-10.8263
后稷周之始祖也郊謂圜丘祀天也周	-10.8263
如水之	-10.8263
招	-10.8263
傳之十二章	-10.8263
推吐雷	-10.8263
康成	-10.8264
無過之地	-10.8264
鈍	-10.8264
血氣	-10.8264
哭泣之	-10.8264
在身即有	-10.8264
扶問反	-10.8264
雖得之君子不貴也	-10.8264
毀	-10.8264
塋域	-10.8264
覺大也	-10.8264
上取象於天下取法於地	-10.8264
大昕	-10.8264
晏平仲	-10.8264
目錄	-10.8264
宜其家人	-10.8264
殿	-10.8264
繇音由	-10.8264
貌若	-10.8264
養庻老於	-10.8264
盛黍稷	-10.8264
癘	-10.8264
儆	-10.8264
下及於臣妾	-10.8264
季文子	-10.8264
曽子避席曰參不敏何足以知之	-10.8264
德要道以順天下民用和睦上下無怨	-10.8265
後能保其社稷而和其民人葢諸侯之孝	-10.8265
不可不慎也	-10.8265
非家至而日見之也	-10.8265
進飲食	-10.8265
徳義敬讓禮樂好惡	-10.8265
食㫖不甘	-10.8265
旗	-10.8265
勝音升	-10.8265
道音導	-10.8265
親謂父母也	-10.8265
▁好呼報反	-10.8265
況於士民乎	-10.8265
父有争子則身不陷於不義	-10.8265
與父同	-10.8265
争於父臣不可以不争於君故當不義則	-10.8266
風雷	-10.8266
故當不義則子不可以不	-10.8266
則亦謂此也	-10.8266
端緒	-10.8266
音洛	-10.8266
侵	-10.8266
分析	-10.8266
手足	-10.8266
犧牲	-10.8266
君子之所謂孝者	-10.8266
班固	-10.8266
翰林	-10.8266
鄉里	-10.8266
不能外之以爲	-10.8266
君子則不然言斯可道行斯可樂	-10.8266
啓蟄	-10.8266
宅墓穴也兆塋域也	-10.8266
榮華	-10.8266
生事愛敬死事哀	-10.8266
詩云戰戰兢兢如臨深淵如履薄氷	-10.8266
食粥	-10.8266
周公其人	-10.8266
籩豆	-10.8267
長幼之節	-10.8267
再命	-10.8267
事地察	-10.8267
啜	-10.8267
往往	-10.8267
袍	-10.8267
而況於妻子乎	-10.8267
生民之本	-10.8267
此之謂要道也	-10.8267
於卿大夫	-10.8268
至隋	-10.8268
不得行其	-10.8268
予一人	-10.8268
緦	-10.8268
魂魄	-10.8268
四百餘字	-10.8268
於廟始	-10.8268
門人所記	-10.8268
不在於善而皆在於凶德	-10.8268
嶽如	-10.8268
無生親可事	-10.8268
畔亂	-10.8268
示之以好惡	-10.8268
行酬而後獻	-10.8268
鄙詐	-10.8268
丹	-10.8268
敖	-10.8268
又焉得為孝乎	-10.8268
動靜	-10.8268
曉	-10.8268
而推其愛敬於一家	-10.8268
雖得之君子所不貴	-10.8268
敎不肅而成其政不嚴而治	-10.8269
於善而皆在於凶徳雖得之君子不貴也	-10.8269
開元	-10.8269
則不祥也	-10.8269
來格	-10.8269
乎天下	-10.827
君子弗行也	-10.827
講堂	-10.827
長守富貴	-10.827
耆艾	-10.827
南蒯	-10.827
天子七廟	-10.827
無優劣	-10.827
凡三王	-10.827
删去	-10.827
尙	-10.827
民人盖諸侯之孝	-10.827
江西	-10.827
焉知其能	-10.827
然後能推之	-10.827
祖禹所説	-10.827
妻子臣妾	-10.827
不敢侮	-10.827
事父母之孝	-10.827
古先聖王	-10.827
孝悌禮樂	-10.8271
?」	-10.8271
呂刑	-10.8271
忠順不失	-10.8271
性未達何足知	-10.8271
敬其兄則弟悅	-10.8271
敬其君則臣悅	-10.8271
長幼順故上下治天地明察神明彰矣	-10.8271
惰	-10.8271
制㫖	-10.8271
帛	-10.8272
卜郊	-10.8272
有不安節	-10.8272
告於廟	-10.8272
垂訓	-10.8272
齊牛	-10.8272
四鄰	-10.8272
孝子不為也	-10.8272
比干	-10.8272
纓	-10.8272
舜禹文王周公	-10.8272
齊側	-10.8272
恩義之	-10.8272
則能保其	-10.8272
百工	-10.8273
行思可樂	-10.8273
不肖者	-10.8273
養去聲	-10.8273
追逺	-10.8273
强有力者	-10.8273
故生則親安之	-10.8273
于偽反	-10.8273
瞍	-10.8273
列爵	-10.8274
變色	-10.8274
任賢	-10.8274
偕	-10.8274
愛其死	-10.8274
疑孝經引詩非經本文	-10.8274
相連	-10.8274
董君	-10.8274
送終	-10.8274
髦	-10.8274
翼翼	-10.8274
寕	-10.8274
示民有終也	-10.8274
聖門	-10.8274
焉一曰	-10.8275
歎美	-10.8275
蕃	-10.8275
五等國君	-10.8275
名章次	-10.8275
當不義	-10.8275
經二十	-10.8275
模	-10.8275
其效如此	-10.8275
燔柴	-10.8275
側室	-10.8275
天子之禮樂	-10.8275
禍患	-10.8275
程答書曰頃見	-10.8275
駭	-10.8275
壙	-10.8275
拱	-10.8275
聘問	-10.8275
行冲	-10.8275
事親者居上不驕為下不亂在醜不	-10.8276
天下和平	-10.8276
與天地參	-10.8276
令善也	-10.8276
夫聖人之德又何以加於孝乎	-10.8276
虚耗	-10.8276
刀反	-10.8276
含	-10.8276
請業	-10.8276
董仲舒	-10.8276
旌	-10.8276
焉徐而察之始悟胡公之言為信而孝經	-10.8276
弟大計	-10.8277
域	-10.8277
其父兄君	-10.8277
夫人薦	-10.8277
之意當為傳之	-10.8277
化也	-10.8277
孝爲百行之本	-10.8277
兼用之	-10.8277
則亂升	-10.8277
河間人顔芝	-10.8277
素服	-10.8277
鎮	-10.8277
弟故順可移於長居家理故治可移於官	-10.8277
煢然	-10.8277
界	-10.8277
羣儒	-10.8277
贈	-10.8277
天地之間	-10.8278
哀毁	-10.8278
天之經也	-10.8278
循率	-10.8278
敎誨	-10.8278
辟踊	-10.8278
行也宜	-10.8279
養志	-10.8279
祀后稷	-10.8279
分昭穆	-10.8279
底於	-10.8279
再拜	-10.8279
强飾	-10.8279
犯顔	-10.8279
索	-10.8279
重合厚一尺	-10.8279
詐	-10.828
莫大焉	-10.828
諸侯之卿	-10.828
天子至尊	-10.828
兩字	-10.828
長㓜順	-10.828
不敢忘	-10.8281
光顯	-10.8281
全體	-10.8281
精深	-10.8281
昏亂	-10.8281
而守其祭祀葢士之孝也	-10.8281
士相見	-10.8281
五味	-10.8281
孺慕	-10.8281
準	-10.8281
刪數也字增子曰字	-10.8281
朝而殯	-10.8281
泚	-10.8281
禮無不答	-10.8281
爭居上而驕則亡	-10.8282
也教以悌所以敬天下之為人兄者也	-10.8282
思慕	-10.8282
秩然	-10.8282
居家理	-10.8283
日月東西	-10.8283
降殺	-10.8283
開宗	-10.8283
太卜	-10.8283
孝道始終之義	-10.8283
郊禘	-10.8283
世婦	-10.8283
居上位	-10.8283
敬盡於事親而徳教加於百姓刑于四海	-10.8284
朝聘	-10.8284
思慮	-10.8284
所謂致其	-10.8285
長短	-10.8285
富貴不離其身然	-10.8285
食饗	-10.8285
宗堯	-10.8285
吉凶	-10.8285
而可以得	-10.8285
自反也	-10.8285
則衆不	-10.8285
之所共	-10.8286
父母之恩	-10.8286
順長幼	-10.8286
不時則	-10.8287
四輔	-10.8287
入室	-10.8287
受贄	-10.8287
既封而弔	-10.8287
三諫不	-10.8287
弟大計反	-10.8287
進見於君	-10.8288
土宜	-10.8288
有特	-10.8289
衣食	-10.8289
為下不亂	-10.8289
冬夏	-10.8289
孟子孟子曰	-10.8289
使其臣	-10.8289
爲第	-10.8289
蒼帝	-10.8289
顯思	-10.8289
而天下自	-10.8289
古文二十二章	-10.829
地事天	-10.829
也何為	-10.829
歡心以事其親	-10.829
門之内	-10.8291
室老	-10.8291
亦如之	-10.8291
言滿天下	-10.8291
以禮樂而民和睦示之以好惡而民知禁	-10.8291
戒慎	-10.8292
以天下養	-10.8292
事君之禮	-10.8292
親之遺體	-10.8293
乎其間	-10.8293
必見其	-10.8293
愈多而	-10.8293
讀書	-10.8293
父母之喪	-10.8293
小國之臣謂	-10.8293
其類也	-10.8293
六年	-10.8294
子産	-10.8294
棣	-10.8294
出之故	-10.8294
數十	-10.8294
於德禮	-10.8294
是其義也	-10.8295
者君子弗與也	-10.8295
祭之日	-10.8295
自然之道	-10.8295
保全	-10.8295
制度	-10.8296
異哉	-10.8296
生天地之間	-10.8296
親之枝	-10.8296
撤膳	-10.8297
服勤	-10.8297
知禁	-10.8297
所自出	-10.8297
呉澄曰	-10.8299
抗議	-10.8299
葢當時	-10.8299
九室	-10.83
保傅之	-10.83
匡正	-10.83
或云宜	-10.83
聲容	-10.83
相識	-10.8301
天寳	-10.8301
温公	-10.8302
語録	-10.8302
之頃	-10.8302
不過如此	-10.8302
周室	-10.8302
七月	-10.8303
於太廟	-10.8303
刑於四海	-10.8303
章末	-10.8303
之示之	-10.8303
君子不貴	-10.8304
每事	-10.8304
八牖	-10.8304
答曾子	-10.8304
先王有至德要道	-10.8305
陳列	-10.8305
而能之	-10.8305
百年者	-10.8305
西方	-10.8307
從容	-10.8307
計反	-10.8308
假曾子	-10.8308
生財	-10.8308
明王不	-10.8308
親疎	-10.8309
安置	-10.8309
放此	-10.831
四卷	-10.831
昭著	-10.8311
正直	-10.8312
有其字	-10.8312
宗廟社稷	-10.8312
聲音	-10.8312
建國	-10.8312
事親事君	-10.8313
而行其政令	-10.8313
以是三者	-10.8313
所獻	-10.8314
海外	-10.8314
王朝侯國之	-10.8314
不敢忽	-10.8314
母取其愛	-10.8315
各異	-10.8315
家之	-10.8315
㡬諫	-10.8316
苟利	-10.8316
小功	-10.8318
繼禰者	-10.8319
無聲之樂氣志既	-10.832
之制禮也	-10.8321
相接	-10.8321
感化	-10.8321
神明之道	-10.8321
五室	-10.8324
誤然	-10.8324
總要	-10.8324
之類是也	-10.8324
聞也	-10.8324
地之義也	-10.8324
前世	-10.8325
皆本于	-10.8325
則天因地	-10.8326
感通	-10.8326
而致之	-10.8326
值其	-10.8327
十室	-10.8327
行此道	-10.8328
劉炫本	-10.8328
繇已	-10.8328
愛敬哀	-10.8328
多寡	-10.8328
設位	-10.8328
竟内	-10.8328
相對	-10.8329
三卷	-10.833
無迹	-10.833
數處	-10.833
敬敬者	-10.8331
舉賢	-10.8331
必本於	-10.8332
果無	-10.8332
解釋	-10.8333
追孝	-10.8335
昏禮	-10.8335
有未盡也	-10.8335
二月	-10.8335
資愛	-10.8335
易之	-10.8336
立身之道	-10.8337
哀以送之	-10.8337
尊其父	-10.8337
所敬者寡而悦者衆此之謂要道也	-10.8337
三百	-10.8338
所以終始	-10.8338
爲孝乎	-10.8338
義當	-10.8338
人餕	-10.8339
者即	-10.834
由此	-10.8342
教誨	-10.8342
前賢	-10.8343
以使下	-10.8343
律反	-10.8344
聖人順	-10.8344
五聲	-10.8344
也父母既	-10.8344
齊哀	-10.8345
十一字	-10.8345
貴徳而	-10.8345
經常	-10.8345
小心	-10.8345
在口	-10.8346
也雖然	-10.8347
朱氏所	-10.8347
原本	-10.8348
居坐	-10.8348
意方	-10.8348
平日	-10.8348
者衆也	-10.8348
之行也夫	-10.8349
入告	-10.835
十飬於	-10.835
傳疑	-10.8351
守業	-10.8351
過制	-10.8352
雖殊	-10.8352
稱周公	-10.8352
和也言	-10.8353
云子夏	-10.8353
右經	-10.8353
意思	-10.8354
可以為孝矣	-10.8354
漸長	-10.8354
也不然則	-10.8354
恐辱先也	-10.8354
民法之	-10.8355
先公	-10.8355
要君非聖	-10.8356
醜衆也	-10.8356
不聽	-10.8356
後代	-10.8356
誠心	-10.8357
哀嚴	-10.8357
不敢忘其親也	-10.8358
葬地	-10.836
本紀	-10.836
過是	-10.8361
盛德	-10.8362
者古人	-10.8362
章大傳第十	-10.8363
以事父	-10.8363
及於天下	-10.8363
孰大	-10.8363
漢書	-10.8364
有君可	-10.8364
近於文	-10.8364
原隰	-10.8365
私家	-10.8365
君子之事上也	-10.8366
其卿大夫士	-10.8367
已具	-10.8367
精神	-10.8367
百順	-10.8368
若指	-10.8368
外朝	-10.8368
法而	-10.8369
所以為孝也	-10.8369
禮有	-10.8371
者夫子	-10.8372
士有爭友	-10.8372
者是天子	-10.8372
而身	-10.8372
孰能	-10.8374
尊卑之分	-10.8375
常道也	-10.8375
守位	-10.8376
初學	-10.8376
倡之	-10.8377
樂聲	-10.8378
節也	-10.8379
于心而	-10.8379
弗見	-10.8381
順於天下	-10.8382
雖賤	-10.8382
之象也	-10.8383
知禮義	-10.8383
易祿	-10.8383
明王能	-10.8384
簡明	-10.8385
之所知	-10.8385
贊美	-10.8385
教孝	-10.8387
父母舅姑之	-10.8387
九字	-10.8388
君子弗	-10.8388
四賢	-10.8388
養志亦	-10.839
先聖先	-10.8391
可得	-10.8393
自周公	-10.8393
為繼髙祖	-10.8393
立功	-10.8393
不敢遺	-10.8394
其身而不	-10.8394
侍立	-10.8394
北反	-10.8395
盛服	-10.8396
見於外	-10.8396
及扵	-10.8396
子孔子也	-10.8397
父道也	-10.8397
即位而	-10.8397
無隠	-10.8398
天有常明	-10.8399
獻王	-10.84
榮親	-10.8401
相怨	-10.8401
無識	-10.8401
甫刑曰	-10.8401
孝作忠	-10.8401
可不敬	-10.8402
可久	-10.8402
六字	-10.8404
長守	-10.8405
此五者	-10.8406
守法	-10.8406
資敬	-10.8407
九十者	-10.8407
君子不貴也	-10.8408
大禹	-10.8409
禮乎曰	-10.8409
傷膚	-10.8409
臣庶	-10.841
其功徳	-10.841
九月以	-10.841
子思曰	-10.8411
三王之	-10.8411
及其親	-10.8412
殆於	-10.8413
先王之道	-10.8414
有以異	-10.8414
以来	-10.8414
所以示	-10.8415
最貴	-10.8416
可觀	-10.8419
百王	-10.8419
卜牲	-10.8419
先帝	-10.842
之難也	-10.842
𤼵明	-10.8421
聞命矣敢問	-10.8422
殺身	-10.8422
事不	-10.8423
情理	-10.8424
不免	-10.8427
五帝時	-10.8427
䘮祭	-10.8429
不敢有所	-10.8429
以天下為	-10.843
人之情	-10.8431
所求	-10.8431
愛子	-10.8432
既聞	-10.8432
于四海	-10.8433
云蓋者	-10.8434
同歸	-10.8435
敢有	-10.8435
施於人	-10.8436
並同	-10.8436
非徒	-10.8438
二者皆	-10.8439
兼愛	-10.844
思成	-10.8442
㫖不甘此哀戚之情也	-10.8443
猶且	-10.8445
樂記曰	-10.8447
名章	-10.8448
子之事親也	-10.8449
古字	-10.8449
敬親者	-10.8449
致敬而	-10.845
孝子之行	-10.8452
三日則	-10.8453
也而謂之	-10.8454
之心者也	-10.8455
仲尼曰	-10.8455
闕文	-10.8458
嚴父之義	-10.846
邦國	-10.8461
先能	-10.8462
者矣見若	-10.8463
不畏	-10.8464
流行	-10.8464
性命	-10.8465
祀先	-10.8465
鄉人	-10.8465
靡有	-10.8465
而無禮	-10.8466
危亡	-10.8467
必當	-10.8468
百乗	-10.847
禮誼	-10.847
婦順	-10.8471
者論語	-10.8471
之有然則	-10.8473
六家	-10.8474
立也	-10.8474
豉反	-10.8474
先世	-10.8476
所習	-10.8476
大臣不	-10.8477
二廟	-10.8478
生死	-10.8479
先務	-10.8481
孔傳曰	-10.8482
劉炫曰	-10.8483
人宋	-10.8484
亦無所	-10.8486
得失	-10.8488
有未	-10.8488
小人之	-10.8488
而敢要	-10.8489
也王肅	-10.849
教成	-10.8491
者如此	-10.8493
徳化	-10.8493
離其身	-10.8494
士與	-10.8494
地利也	-10.8494
敬慎	-10.8495
者若	-10.8496
之道至	-10.8498
也援神契云	-10.85
此章云	-10.8501
而急	-10.8501
世無	-10.8501
忠而能	-10.8501
大意	-10.8501
也民無不為	-10.8501
致親之	-10.8501
論語曰	-10.8502
以盡其	-10.8502
而有禮	-10.8505
於室	-10.8506
過失	-10.8506
而祔	-10.8506
孝子之行也	-10.8508
君臣之誼	-10.8508
夫子以為	-10.8509
之論	-10.8509
周官	-10.8509
二子	-10.851
愛親者不敢惡於人敬親者不敢慢於人	-10.8513
徳禮也	-10.8513
五祀	-10.8515
蓋天子之孝也	-10.8515
則否	-10.8517
一氣	-10.8518
小國之	-10.8518
顯父母	-10.852
無闕	-10.8522
殺一	-10.8523
死亡	-10.8525
有誅	-10.8526
自舜	-10.8526
答曰	-10.8527
太王	-10.8527
忠者孝	-10.8528
順民心	-10.8528
全無	-10.8529
古書之	-10.8529
以孝事君則忠	-10.8529
喪禮	-10.853
明王也	-10.853
曰人之	-10.8531
為下而	-10.8532
致治	-10.8533
道誼	-10.8534
名山	-10.8534
之不以為	-10.8535
非唯	-10.8535
也皇侃	-10.8537
皆孝也	-10.8539
小大	-10.8539
何謂也	-10.8539
非經文	-10.854
案禮記	-10.8541
加于	-10.8542
反質	-10.8542
愛君也	-10.8542
曰考廟曰王考廟曰	-10.8543
皇考廟	-10.8543
不異	-10.8544
以匡	-10.855
弔於	-10.855
無不足	-10.8551
而各	-10.8553
三復	-10.8554
則無怨	-10.8554
而後正	-10.8554
忠心	-10.8556
信其	-10.8558
而不忠	-10.8559
不祥	-10.856
則免	-10.856
適子	-10.8561
大節	-10.8561
父母存	-10.8561
不幸	-10.8561
非直	-10.8564
日旦思其	-10.8565
也以謂	-10.8565
必哀	-10.8565
以事天地	-10.8566
義通	-10.8566
其隂陽	-10.8567
君執	-10.8567
體也	-10.8568
至親也	-10.8571
可否	-10.8571
中書	-10.8571
逺乎	-10.8573
天之所生	-10.8575
豈能	-10.8576
因依	-10.8577
有條	-10.8577
性然	-10.8577
者孝子	-10.8579
思報	-10.8579
有従	-10.858
廣敬也	-10.858
忠愛之心	-10.858
為身也	-10.8582
祭義曰	-10.8588
性本	-10.859
守身	-10.8592
所以表	-10.8592
敬而已	-10.8594
敬哀	-10.8594
耳目之	-10.8594
孝為大	-10.8595
不貳	-10.8597
之為言	-10.8598
故特	-10.86
能固	-10.8602
如此乎	-10.8602
三讓	-10.8602
不越	-10.8603
十五字	-10.8604
經字	-10.8605
說者	-10.8606
人親之	-10.8607
損之	-10.8608
在家	-10.8609
行孝之	-10.8609
與前	-10.8609
天降	-10.8611
親疏	-10.8612
於民也	-10.8614
與著	-10.8614
亦不敢	-10.8616
其身不	-10.8618
乃説	-10.8619
身以	-10.8619
矣未	-10.8621
對曰	-10.8621
古之人	-10.8622
乃心	-10.8623
别子	-10.8623
而好	-10.8624
不務	-10.8625
是先王之	-10.8626
下無也字	-10.8627
為國者	-10.8627
四國	-10.8629
各自	-10.863
刪之	-10.863
臣之節	-10.8631
夫音	-10.8631
合愛	-10.8632
爵賞之	-10.8632
治家者不敢失於臣妾而況於妻子乎	-10.8632
易稱	-10.8634
之學也	-10.8638
浪反	-10.8639
言似	-10.8641
小臣	-10.8644
聖人之政	-10.8647
豈非	-10.8647
道之要	-10.8647
日中	-10.8648
以類	-10.8649
言孝行	-10.8649
中和之	-10.8652
以彰	-10.8653
君好	-10.8655
周公攝政	-10.8655
則有功	-10.8657
祭服	-10.8657
禮運	-10.8657
其始於	-10.8658
日出	-10.8658
言之非	-10.8658
凡祭	-10.8658
五經	-10.8659
不敬而	-10.8659
不遺	-10.866
其經文	-10.866
而民皆	-10.8662
其所不能	-10.8663
錯經	-10.8667
也皇侃云	-10.867
明愛	-10.867
乃立	-10.867
取法也	-10.867
莫先	-10.867
而不用	-10.8671
傷其	-10.8672
一舉	-10.8672
盛徳	-10.8672
之質也	-10.8674
中制	-10.8675
氏曰	-10.8679
也曽子	-10.868
七十者	-10.8681
至順而	-10.8685
敬乎	-10.8686
為人臣者	-10.869
心而	-10.8691
以充	-10.8691
下不亂	-10.8692
之所以治天下	-10.8692
乎盖	-10.8694
篇云	-10.8694
于天下	-10.8695
先見	-10.8695
説經	-10.8697
親之志	-10.8698
其身以	-10.87
好惡者	-10.8703
同類	-10.8704
相親也	-10.8706
微言	-10.8707
一通	-10.8708
乃得	-10.8708
是天之	-10.8708
六反	-10.8711
既有	-10.8712
孝思	-10.8713
身治	-10.8713
不弔	-10.8713
雖貴	-10.8713
者無不	-10.8717
故曰要道	-10.8717
以身之	-10.8719
小子	-10.8721
禮與其	-10.8722
事君之道	-10.8722
事父兄	-10.8723
可謂大	-10.8724
果何	-10.8724
而誤	-10.8725
此總結	-10.8729
至於四方	-10.8729
教化之	-10.8729
禮之貴	-10.8729
命爲	-10.873
鄭志	-10.873
正月	-10.8732
堂下	-10.8732
文理	-10.8735
因於	-10.8735
人之所行	-10.8737
大體	-10.874
之㫖者	-10.8745
於西	-10.8747
則不正	-10.8748
子姓	-10.8749
聴者	-10.875
為人父者	-10.875
乎上	-10.875
故曰明	-10.8756
者聖人所	-10.8756
在郊	-10.8759
舜命	-10.8759
必不可	-10.8763
也教者	-10.8764
淑善也忒差也	-10.8764
皆由	-10.8764
諸侯能行孝理得所統之懽	-10.8765
魯人	-10.8765
敬養	-10.8766
則兆民	-10.8767
有事則	-10.8767
志在	-10.8767
為百姓	-10.8767
賞而	-10.8769
能盡忠順以事君長則	-10.8769
資生	-10.8771
必致	-10.8771
必果	-10.8771
拜送	-10.8774
天地日	-10.8775
百體	-10.8778
有父	-10.8778
餘年	-10.8779
為説	-10.8782
以助	-10.8783
不更	-10.8783
而篤	-10.8785
九曰	-10.8787
其大者	-10.8788
於政	-10.8793
夫以孝	-10.8793
從父	-10.8795
之義皆	-10.8798
其大也	-10.88
不親	-10.8801
而取之	-10.8802
天下之通	-10.8803
衣不	-10.8803
萬世而	-10.8803
至情	-10.8804
懽心以	-10.8806
而私	-10.8806
明日	-10.8807
成教	-10.8808
第六章	-10.8809
苟非	-10.8809
卿士大夫	-10.8812
何日	-10.8812
得萬國	-10.8813
所固有	-10.8815
也然亦	-10.8818
天理	-10.8818
修徳	-10.8819
經稱	-10.8819
凡此其屬太	-10.8821
復禮	-10.8822
不封	-10.8825
名有五	-10.8826
得民	-10.8826
日而	-10.8828
則觀其	-10.8828
與曰是	-10.8831
取焉	-10.8831
諸生	-10.8831
人子愛	-10.8831
為君而	-10.8834
等事	-10.8834
失其本	-10.8835
在地	-10.8835
篇引此以	-10.8835
人將	-10.8837
其信	-10.8839
應言	-10.8841
授之	-10.8846
以正之	-10.8847
五服	-10.8847
君子之言	-10.8849
民治	-10.8849
理一	-10.8854
安君	-10.8855
使父	-10.8856
也人主	-10.8856
章名	-10.8857
居身	-10.886
推一	-10.8864
婦以	-10.8864
樂繇	-10.8866
三教	-10.8866
言不善	-10.8867
治國	-10.887
止也	-10.8874
不足則	-10.8874
立而不	-10.8875
敬父	-10.8875
容以	-10.8876
教讓	-10.8876
諸臣	-10.8877
樂正	-10.8877
守正	-10.888
無宜	-10.8881
孔子云	-10.8883
是天子之	-10.8885
故必有	-10.8885
大亂之道也	-10.8885
必為	-10.8887
無節	-10.8888
皆謂之	-10.8892
語之也	-10.8897
反傳	-10.8897
如此其	-10.8899
補之	-10.8901
聖人之所	-10.8901
▁音	-10.8905
不任	-10.8908
矣盖	-10.8909
不聞於	-10.8911
與古文	-10.8912
亦為	-10.8912
行而後	-10.8913
將順其美匡救其惡故上下能相親詩	-10.8918
焉夫	-10.8922
數也	-10.8923
子字	-10.8924
子㳺	-10.8928
兼言	-10.893
自己	-10.893
墨者	-10.8932
顯明	-10.8933
則可謂孝矣	-10.8934
以言行	-10.8934
以承	-10.8941
是吾	-10.8942
父有過	-10.8943
家人之	-10.8944
謂之質	-10.8947
立其身	-10.8951
其人則	-10.8951
故經	-10.8954
先師	-10.8958
之至而	-10.8959
懽心而	-10.8961
曰此	-10.8962
過矣	-10.8968
有親	-10.8968
不除	-10.8969
不指	-10.8972
於君故	-10.8973
聖言	-10.8973
之歸	-10.8973
其誼	-10.8973
其質也	-10.8974
説文所引	-10.8975
常以	-10.8976
過於	-10.898
曰祀	-10.8983
人人	-10.8984
子生三年然後免於父母	-10.899
海也	-10.8991
人之為	-10.8993
所加	-10.8996
夫禮	-10.8997
無犯	-10.9002
而弔	-10.9002
其宫	-10.9007
以事長也	-10.9013
刑曰	-10.9014
今此	-10.9018
博愛也	-10.902
之餘	-10.902
者人之	-10.9022
之性	-10.9023
至今	-10.9024
凡為臣	-10.9024
三也	-10.9025
非學	-10.9028
相應	-10.9028
則與	-10.9029
之例	-10.9033
配天之	-10.9035
止不	-10.9036
道雖	-10.9041
母曰	-10.9042
之爲	-10.9044
禮義以	-10.9044
爲始	-10.9046
曾子言	-10.9046
舞大	-10.9048
治亂之	-10.9048
愛心	-10.9054
身而	-10.9054
斷其	-10.9058
一卷宋	-10.9059
天時	-10.9059
奉上	-10.906
者據	-10.9061
不吉	-10.9063
以徳	-10.9064
託於	-10.9066
别為	-10.9066
者卽	-10.9067
矣書曰	-10.9068
時已	-10.9071
謂之郊	-10.9072
大夫士有	-10.9074
誠有	-10.9076
初為	-10.9079
美善	-10.9079
非立	-10.9085
别有	-10.9086
異義	-10.9087
有自然	-10.9091
孝經亦	-10.9092
以臣	-10.9094
盡其忠	-10.9096
本敬	-10.9097
仁以	-10.9099
而輕	-10.9102
君子能	-10.9104
無知	-10.9106
乃爲	-10.911
以迎	-10.911
莫能	-10.9111
得于	-10.9112
前有	-10.9112
言語	-10.9114
訓之	-10.9114
之有司	-10.9117
三費	-10.9118
所受於天	-10.912
劉向以	-10.9125
所未	-10.9126
其勢	-10.9127
以為教	-10.9129
以諫	-10.913
立孝	-10.913
功成	-10.9131
之劉	-10.9133
木之	-10.9139
先聖	-10.914
國有	-10.9141
日長	-10.9144
母之道	-10.9145
絀於	-10.9145
未免	-10.9147
為尸	-10.9152
曰忠	-10.9153
曰惟	-10.9158
以事其	-10.9161
其私	-10.9162
以為非	-10.9163
危君	-10.9165
敬父母	-10.9167
皆生於	-10.9167
皇帝	-10.9175
亦多	-10.9179
惡在	-10.9184
用也	-10.9184
易知	-10.9188
之職	-10.919
所撰	-10.919
失而	-10.9191
孝子之志也	-10.9197
當戒	-10.9198
為貴也	-10.9199
舉此	-10.9204
不當	-10.9205
帝也	-10.9207
至忠	-10.921
此傳	-10.9211
反始	-10.9211
則順	-10.9217
所告	-10.9218
以飾	-10.9218
此心	-10.9225
能行孝	-10.9227
以率	-10.923
死不	-10.9231
可法	-10.9232
之所為也	-10.9234
之賜	-10.9237
以親之	-10.9237
制以	-10.9239
能事	-10.9239
饗帝	-10.9245
言弗	-10.9246
推廣	-10.9251
亂者則	-10.9254
苟無	-10.9255
而安之	-10.9261
人鬼	-10.9264
久矣	-10.9265
尚書云	-10.9266
望而	-10.9267
親之情	-10.9269
所繇	-10.9269
順非	-10.9269
非見	-10.9272
爭者	-10.9275
與時	-10.9276
海内	-10.9276
故聖	-10.9277
以是為	-10.9277
子曰孝子之喪親也	-10.9279
稱爲	-10.9284
人有	-10.9284
解其	-10.9285
者言其	-10.9285
同乎	-10.9292
非其人	-10.9293
是舉	-10.9294
故重	-10.9295
曰朱氏	-10.93
殷周之	-10.9302
嚴肅之	-10.9303
北宫文子曰	-10.9304
而死	-10.9306
播於	-10.931
誼備	-10.931
所因	-10.9313
其宗廟	-10.9314
聞夫子之	-10.9321
助之	-10.9322
實有	-10.9326
謂夫子	-10.9329
自致	-10.9329
之争	-10.933
章後古	-10.9333
其身而	-10.9337
充之	-10.9341
而勿	-10.9341
謂己	-10.9343
於神	-10.9344
人心也	-10.9345
然則魯	-10.9346
天下之心	-10.9347
先祖也	-10.9347
百姓不	-10.9348
惡也	-10.9348
事不言	-10.9358
而御	-10.9359
治外	-10.9362
有兄	-10.9362
享也	-10.9366
而用之	-10.9374
之神	-10.9375
諸侯五廟	-10.9375
立身者	-10.9375
敬同	-10.9378
分之	-10.9379
不離於	-10.9381
五孝之	-10.9381
天子者	-10.9381
行義	-10.9383
也且	-10.9389
徳禮	-10.9389
人理	-10.939
不易之	-10.9394
▁同	-10.9397
樂天	-10.9397
也庶人	-10.9399
得其本	-10.9402
由親	-10.9409
九章	-10.9409
君王	-10.9411
宜為	-10.9413
詬劉炫	-10.9415
不引	-10.9415
物皆	-10.9419
封之	-10.942
畏天	-10.9426
五教	-10.9426
也孔子	-10.9428
其制	-10.9429
成信	-10.9429
正與	-10.943
成人之	-10.943
猶可	-10.9431
言之也	-10.9433
為逆	-10.9436
衆民	-10.9441
防之	-10.9442
天下而	-10.9444
而恭	-10.9445
之中而	-10.9446
民皆	-10.9446
也百姓	-10.9446
者也敬	-10.9453
慢之	-10.9456
祀其先	-10.9461
其政不嚴而治	-10.9468
嚴之	-10.9471
而右	-10.9472
必求	-10.9474
以化民而	-10.9475
内朝	-10.9476
母有	-10.9476
五日	-10.9478
古今之	-10.9479
貌也	-10.9479
一人而已	-10.9479
者執	-10.9482
誠也	-10.9483
生民之	-10.9483
交也	-10.9485
為教	-10.9487
其徳而	-10.9489
不踰	-10.949
孝之終	-10.9492
非父	-10.9493
争道	-10.9494
有疾	-10.9494
引詩書	-10.9497
上自敬	-10.9497
天子章	-10.9504
語其	-10.9505
有四	-10.9508
可行	-10.9508
為患	-10.951
成理	-10.9516
化而行之故致如此福應	-10.952
以行之	-10.9523
此乎	-10.9529
清則	-10.9532
國語	-10.9535
者唯	-10.9535
三徳	-10.9536
也斬衰	-10.9536
也斯	-10.9537
證之	-10.9541
君臣之義也	-10.9542
下則	-10.9547
有明	-10.9549
卿大夫之孝也詩云夙夜匪懈以事一人	-10.955
道不得	-10.9552
終其	-10.9552
得則	-10.9555
之説也	-10.9556
以名	-10.9561
忘也	-10.9562
父與	-10.9563
自無	-10.9566
天地父母	-10.9566
養民	-10.9569
大故	-10.957
而下無	-10.9578
母之	-10.9581
理家謂卿大夫	-10.9581
無不同	-10.9584
自内	-10.9586
厚則	-10.9586
之所著	-10.9595
而降	-10.9596
貧而	-10.9607
言慈	-10.9613
不亦	-10.9614
度而	-10.9618
國老	-10.9623
曰順	-10.9627
従之	-10.9632
無疑也	-10.9638
致命	-10.9639
君在	-10.9639
也劉炫	-10.9641
忠臣以	-10.9657
尊君	-10.9662
而月	-10.9664
出也	-10.9665
能行	-10.9673
為庶人	-10.9674
本也故	-10.9675
行之本	-10.9676
下之人	-10.9678
云王	-10.9685
為我	-10.97
爲魯	-10.9709
感應之	-10.9713
無上也	-10.9719
不徒	-10.9719
循其	-10.9721
也右第	-10.9723
大行	-10.9723
養老也	-10.9726
盡敬	-10.9734
則必以	-10.9735
大國	-10.9736
為其	-10.974
也非	-10.9741
以孝事	-10.9742
之才	-10.9743
為天子者	-10.9745
義故	-10.9748
之儀	-10.9751
皆作	-10.9753
給	-10.9754
于是	-10.9764
吾之	-10.9767
其驗十	-10.9769
因之以	-10.9769
丈夫	-10.9772
故字	-10.9772
至性	-10.9776
於其家	-10.9778
以力	-10.9779
也此則	-10.9781
始于家	-10.9785
為民	-10.9786
國人	-10.9793
案左傳	-10.9794
之動	-10.9795
宗廟致敬不忘親也修身慎行恐辱先也	-10.9795
而何	-10.9796
則莫	-10.9798
也禮者	-10.9802
有六	-10.9802
等謹按孝經	-10.9808
王子	-10.9809
之好惡	-10.981
惡其	-10.9812
為大也	-10.9813
之事言	-10.9815
曰明	-10.982
親以及	-10.9821
樂至	-10.9823
異耳	-10.9825
明也	-10.9827
也易曰	-10.9831
者或	-10.9833
皆善	-10.9839
得此	-10.9839
而去	-10.9839
故有	-10.984
君之於	-10.9841
之志而	-10.9847
文王配	-10.9847
亦可以	-10.9861
可大	-10.9864
然後乃	-10.9864
王制	-10.9866
人性	-10.9867
斯有	-10.987
居於	-10.9873
等謹案孝經	-10.9884
一經	-10.9889
違之	-10.9891
也以此	-10.9896
是以不	-10.9898
慮其	-10.9907
則固	-10.9908
起也	-10.9909
正故	-10.9913
三才章	-10.9914
凡此其屬	-10.9924
必自	-10.9924
陸費墀欽定四庫全書孝經	-10.9927
義也然則	-10.9932
之祭祀	-10.9936
雖有其	-10.9946
之源	-10.9947
者居	-10.9955
之非也	-10.9962
畏其	-10.9963
能孝於	-10.9965
必忠	-10.9966
無患	-10.9971
將以	-10.9972
即是	-10.9973
之類也	-10.9975
喪之	-10.9975
明乎	-10.9978
幸而	-10.998
於太學	-10.998
四也	-10.9983
其罪	-10.9988
刑法也	-10.9988
先王則	-10.999
籍之	-10.9992
而尚	-10.9995
者禮樂	-10.9996
與我	-10.9998
失所	-10.9999
遺也	-11.0009
之人也	-11.0013
顯親之	-11.0014
於東方	-11.0031
則民從	-11.0034
也朕	-11.0044
制也故	-11.0045
禮樂則	-11.0049
言昔者	-11.005
威而	-11.0051
則不得	-11.0053
焉盡其	-11.0055
無經	-11.0056
五帝則	-11.0069
君子務	-11.0072
厚其	-11.0073
者宜	-11.0073
逆也	-11.0076
辭以	-11.0078
出於口	-11.008
矣若	-11.008
作故	-11.0088
以處	-11.0088
山之	-11.0094
者將	-11.0095
文王不	-11.0095
也論語云	-11.0097
則分	-11.0101
子服	-11.0121
勉而	-11.0121
比也	-11.0124
亂者	-11.0131
傳文而	-11.0143
御也	-11.0147
問而	-11.0151
成化	-11.0152
君子進則	-11.0152
次也	-11.0153
乎其	-11.0156
事其親也	-11.0164
不殊	-11.0167
禮制	-11.0168
此文	-11.0168
與天	-11.017
處則	-11.0172
歸故	-11.0176
貎也	-11.0182
有和氣	-11.0184
六者	-11.0188
而亦有	-11.0189
則其所	-11.0189
愛物	-11.0195
謂有	-11.0196
南鄉	-11.0199
無父	-11.0201
言之其	-11.0202
而立教	-11.0207
逺其	-11.0207
止則	-11.0211
名不	-11.0229
終是	-11.0239
民之所	-11.024
行禮也	-11.0242
故凡	-11.0242
至則	-11.0243
君之敬	-11.0243
土之	-11.0244
復生	-11.0244
亡失	-11.0245
謂常	-11.0245
絶也	-11.0246
其誠	-11.0268
非鄭	-11.0269
食則	-11.0272
今文唐	-11.0272
孝子之道	-11.0273
也雖	-11.0276
智者	-11.0277
公族之	-11.0284
取人	-11.0295
句而	-11.0297
考之	-11.0298
經曰	-11.0301
卿大夫以	-11.0302
諸侯曰	-11.0303
詠	-11.0304
自成	-11.0309
是也夫	-11.0312
别矣	-11.0313
諸大夫	-11.0328
近之	-11.033
而不至於	-11.033
也親親	-11.0334
大於	-11.034
不復	-11.0341
父以配天	-11.0346
下士	-11.0352
者民之	-11.0354
攝政因行郊天之祭乃尊始祖以配之也	-11.0356
也諸侯	-11.0358
易以	-11.0362
故引	-11.0376
大夫是	-11.0381
意也	-11.0382
子乎	-11.0387
而處	-11.0388
父以	-11.0389
有分	-11.0389
天天	-11.039
父為	-11.0391
身也	-11.0394
盡則	-11.0402
耳夫	-11.0411
未爲	-11.0412
無事則	-11.0417
▁反	-11.0427
施而	-11.0427
愛親敬	-11.0435
至樂	-11.0443
能勝	-11.0444
天地則	-11.0458
父母至	-11.0458
孝經一書	-11.0465
除之	-11.0468
孝經唯	-11.0473
父有	-11.0487
爾也	-11.0487
者而言	-11.0489
於南郊	-11.0493
之道也故	-11.0497
▁子	-11.0498
下人	-11.0499
於斯	-11.05
之為也	-11.0516
四時也	-11.0516
其聲	-11.0529
舍愛敬	-11.0535
事君者	-11.0541
忠告	-11.0548
王有	-11.0548
亦自	-11.0551
君喪	-11.0554
之色	-11.0555
殷周	-11.0567
正義曰此夫子	-11.0569
之篇	-11.058
一身	-11.0585
諫爭之	-11.0587
第二	-11.0588
言順	-11.0616
者莫	-11.0616
今言	-11.0619
天下故	-11.0626
揚名之義	-11.063
存而	-11.0633
謂之道	-11.0636
以復	-11.0637
患不	-11.064
其教	-11.064
以備	-11.0641
公門	-11.0643
者性之	-11.0651
謂是	-11.0662
之所謂	-11.0667
教順	-11.0668
人而後	-11.0687
為器	-11.0688
授曾子	-11.0689
之和	-11.0693
唐宗	-11.0694
以化民	-11.0695
性教	-11.07
忝祖	-11.0703
述而	-11.0703
是以言	-11.0708
害於	-11.0714
著見	-11.0722
長之	-11.0727
已有	-11.074
法則之	-11.0741
尊顯	-11.0748
為徳	-11.0754
無常	-11.0761
置之	-11.0763
禮不	-11.0767
一至	-11.0789
易從	-11.0791
謂卿大夫	-11.0797
其教之	-11.0806
如是乎	-11.0809
生人之	-11.0813
孝經本	-11.0816
存之	-11.0823
等謹案	-11.0824
發言	-11.0837
之致也	-11.0855
父尊	-11.0857
之禮廢則	-11.0861
欽定四庫全書經部六孝經	-11.0871
不惟	-11.0879
阼階之	-11.0889
憂也	-11.0891
事父有	-11.0898
舊説	-11.0898
此皆聖	-11.0902
其精	-11.0902
制禮	-11.091
田不	-11.0918
不寧	-11.0928
為己	-11.0934
是知	-11.0937
其世	-11.0949
器用	-11.0954
義備	-11.0957
簡而	-11.0957
思其憂	-11.0959
吏部	-11.0959
爲士	-11.0966
至教	-11.0967
每章	-11.0969
之端也	-11.0971
春秋孝經	-11.0984
用天	-11.0987
差也	-11.0994
通乎	-11.0998
敎世子	-11.1
以立	-11.1003
是曽子	-11.1004
可也	-11.1018
尚反	-11.1022
也曾子	-11.1027
而喜	-11.1041
盡其敬	-11.1056
夭	-11.1058
孝者也	-11.1074
長也	-11.1075
處也	-11.108
子不	-11.1086
為異	-11.1091
郎反	-11.1093
世矣	-11.1108
爲不孝	-11.1138
貫之	-11.1141
公所	-11.1147
者所以	-11.1152
之也是故君子	-11.1161
居位	-11.1168
孝於親	-11.1176
東漢	-11.118
諸侯行孝	-11.1181
於膝下	-11.1181
故父母	-11.1186
荆	-11.1191
告於	-11.1195
亂而	-11.1195
有事於	-11.1199
孝子事親之	-11.1203
修身慎行恐辱先也宗廟致敬鬼神著矣	-11.1203
謂居	-11.1207
而至於	-11.1214
而以愛	-11.1215
在其	-11.1222
哉然	-11.1226
以節	-11.123
遠不	-11.1237
為仁	-11.1247
必加	-11.125
養者	-11.1251
以惡	-11.1257
不就	-11.1269
等而	-11.1282
而終	-11.1284
之生也	-11.1286
昭穆也	-11.1288
者也未	-11.1299
親而愛	-11.1304
也易	-11.131
五等皆	-11.1315
故天	-11.1319
所以重	-11.132
祖后稷	-11.133
家庭	-11.1341
雨不	-11.1343
尚以	-11.1349
無失	-11.1351
説以	-11.1351
▁舊本	-11.1354
則又	-11.1354
道周	-11.1358
擇謂	-11.136
梁武帝	-11.1374
天地猶	-11.1377
也如	-11.1392
慎慮	-11.1396
章者	-11.1399
同惡烏路反	-11.1405
之時則	-11.1408
其内	-11.1417
烏	-11.1418
我則	-11.1424
謂之有	-11.1424
之所自	-11.1429
以辨	-11.143
忠矣	-11.143
合諸	-11.1435
兄事之	-11.1441
非傷	-11.1441
闇	-11.1445
養而	-11.1459
自立	-11.1466
依孔傳	-11.1484
於無形	-11.1489
不然者	-11.1492
性性	-11.1495
士諸侯	-11.1506
而施	-11.1506
不失其道	-11.1511
君自	-11.1518
不宜	-11.1527
以至徳要道	-11.1542
之威儀	-11.1548
天子諸侯無	-11.155
夫子又	-11.1555
而與之	-11.1563
謂之不	-11.1585
之志也	-11.1587
弟故	-11.1596
語之	-11.1614
不答	-11.1618
六章	-11.1625
有不通	-11.1634
詩書之	-11.1638
祀乎	-11.1645
詳其	-11.1665
事鬼神	-11.1669
謂父母	-11.1669
衰之	-11.1676
皆能	-11.168
𤼵其	-11.1693
皆爲	-11.1694
慎其	-11.1697
服也	-11.1706
者自	-11.1706
徳之行	-11.1712
者以此	-11.1714
卑於	-11.1715
者猶	-11.1716
教立	-11.1717
者也夫	-11.1722
慢其	-11.1737
夫子既	-11.1739
天下之孝	-11.1743
於下也	-11.1746
夫亦	-11.1747
能備	-11.1756
蓋卿大夫之孝也	-11.1759
之殺也	-11.176
能則	-11.1765
之道在	-11.1774
合禮	-11.1776
義有	-11.1781
矣夫子之	-11.1783
世也	-11.1789
可以化民	-11.1795
明則	-11.1805
取士	-11.1805
退朝	-11.1812
唐虞	-11.1832
乃出	-11.1836
事天地則	-11.1837
過於此	-11.1838
天經地義	-11.1842
弗及也	-11.1858
曾子避席曰參不敏何足以知之	-11.1861
則安	-11.1861
守貴	-11.1864
生曰	-11.1873
棺之	-11.1874
同治直吏反	-11.1876
故士	-11.1888
安乎	-11.1894
人倫	-11.1908
十五	-11.1909
事親也	-11.1914
成身者	-11.1917
治家之	-11.1919
刑刑	-11.1923
反身	-11.1926
興而	-11.1928
斯為	-11.1928
也然而	-11.1946
鰥	-11.1949
詩曰維此	-11.1954
矣誠	-11.1958
先聖之	-11.1958
之中也	-11.1975
世之所	-11.1976
親之意	-11.1977
之愛君	-11.1981
繡	-11.1981
日也	-11.1993
能敬宗廟	-11.1996
然也	-11.2003
方之	-11.2023
事兄悌故順可移於長	-11.2029
始皇	-11.203
以效	-11.2037
子愛	-11.2058
章今	-11.2068
赫	-11.2069
以報	-11.2073
禮樂而	-11.2075
緒	-11.2084
記内則	-11.2097
禮於	-11.21
達於	-11.2105
凡百	-11.2111
顧不	-11.2115
謂之孝	-11.212
皆本乎	-11.2122
論而	-11.2122
子孫者	-11.2129
之思	-11.2132
孝子之事	-11.2137
聖人亦	-11.2138
難乎	-11.2139
出矣	-11.2143
言以	-11.2144
無疑	-11.2145
人之行	-11.2147
安知	-11.215
特廟	-11.2162
有過則	-11.2166
猶之一	-11.2168
爲得	-11.217
之未能	-11.2173
以虞	-11.2173
躬不	-11.218
焉耳然則	-11.2182
入則	-11.2196
至於君	-11.2203
為天子而	-11.2204
名傳	-11.2208
本行	-11.2208
孔壁	-11.2209
耤田	-11.221
殊而	-11.2227
近於禮	-11.2232
富貴不	-11.2232
根也	-11.2242
將順其美匡救其惡故上下能相親	-11.2252
喪祭之	-11.2252
卒哭	-11.2252
以官	-11.2261
已見	-11.2262
者乎曰	-11.2272
釋中於事君	-11.2275
而官	-11.2275
皷	-11.2279
孝而後	-11.2279
日行	-11.228
其常	-11.2288
君子之事君	-11.2315
家語	-11.232
常思	-11.2324
此不	-11.2331
唐書	-11.2331
人倫資父為天	-11.2335
孔惠	-11.2337
夫是則	-11.2348
德之本也	-11.2349
信之	-11.2352
終之	-11.2353
脩其	-11.2357
以配天	-11.2368
及身	-11.2369
在尊	-11.2371
故人之	-11.2373
釋教之所由生	-11.2383
七廟	-11.2385
之常也	-11.2389
大武	-11.2401
十二字	-11.2403
以先	-11.2408
其事則	-11.2412
人是	-11.2412
用人	-11.2431
慢易	-11.2432
嚴父者	-11.2434
地也	-11.2436
二則	-11.2439
桀紂	-11.244
事兄悌	-11.2444
右手	-11.2449
於詩	-11.2454
報天	-11.2456
鼓鐘	-11.2462
語魚據反	-11.2462
在天地	-11.2467
無怨於	-11.2467
凡九十	-11.2477
而稱	-11.2481
乎孔子曰	-11.2483
居上不驕	-11.2483
者因	-11.2489
以補	-11.2496
詩傳	-11.2498
總結之	-11.2498
上而	-11.2502
反傳同	-11.2504
明出	-11.2507
二人	-11.2507
黎民	-11.2511
戰戰惟恐	-11.2515
於未然	-11.2525
說此	-11.2526
孝經類	-11.2527
是孝行之	-11.2528
閔子	-11.2531
以化民而後以身先之	-11.254
一於其	-11.2543
雖未	-11.2548
名與	-11.2553
以友	-11.2556
就之	-11.2558
博愛亦非立愛惟親之	-11.2558
於理又已悖矣况先之以	-11.2558
參先王有至德要道	-11.2561
讀是	-11.2568
列而	-11.2573
正義曰此依魏注	-11.2586
以經	-11.259
之來	-11.2591
其近於親	-11.2592
三日而食	-11.261
何人	-11.2613
猶使	-11.2614
承事	-11.262
所因者本也	-11.2622
養羊尚	-11.2627
太史	-11.263
言思	-11.2631
所以事親	-11.2631
家事	-11.2641
也孟子曰人	-11.2645
長保	-11.2646
後世之	-11.2647
者此依王注	-11.2647
發生	-11.2657
利也	-11.2659
今不取	-11.2663
徳不	-11.2674
爵賞	-11.2676
以待	-11.2681
之乎	-11.2684
子之身	-11.2686
士者	-11.2696
畀	-11.271
拜之	-11.2714
孝理	-11.2718
三者不除雖日用三牲之養猶為不孝	-11.2724
有恒	-11.2725
仁之	-11.2734
按此	-11.2738
左氏傳曰	-11.2744
五等諸侯	-11.2744
必報	-11.2747
於人者也	-11.275
刑所	-11.276
非聖	-11.2768
吾身	-11.2768
古文二	-11.2779
子男之	-11.2785
情性	-11.2793
尊君親	-11.2794
長則為順	-11.2797
師保	-11.28
或失	-11.28
孝為之	-11.2801
以日月	-11.2801
曽子侍	-11.2801
助祭	-11.2801
欲行	-11.2808
先王之所	-11.2808
可謂知	-11.2819
之時當	-11.282
之所生也	-11.2822
相濟	-11.2823
又示之以	-11.2824
身安	-11.283
表記	-11.2831
治家者不敢失於臣妾	-11.2832
致刑	-11.2836
者明	-11.2839
之歡心	-11.284
曰古者	-11.284
廟見	-11.284
雖滿	-11.2842
故言行	-11.2846
有過則諫	-11.2847
通也	-11.2848
徐整	-11.2848
故上下能相親	-11.2848
盖卿大夫之孝也	-11.285
百畝	-11.2851
為敬	-11.2857
地之義	-11.2859
成立	-11.2861
九州	-11.2863
甲	-11.2867
國家者	-11.2874
孝於父	-11.2876
士何	-11.2884
是君	-11.2892
牢	-11.2894
而使	-11.29
於前	-11.2902
養國老於	-11.2903
此哀戚之情	-11.2904
僕	-11.2906
以事其先王	-11.2914
因地之	-11.2917
缺	-11.2921
過也	-11.2922
所行非	-11.2923
彼有	-11.2923
左傳云	-11.2925
知所	-11.2927
之令	-11.2937
四方皆	-11.2945
就養能致其懽	-11.2947
無違	-11.2947
無以加	-11.2949
設教	-11.2952
䘮畢	-11.2956
於西南	-11.2962
丈反	-11.2962
八年	-11.2963
所為	-11.2971
父母舅姑	-11.2972
閲	-11.2973
序末	-11.2976
知者以	-11.298
得罪於	-11.2982
天地鬼神	-11.2985
然後能保其祿位	-11.2986
自外	-11.2992
焉曽子	-11.2996
也宗廟之	-11.2998
孝而至	-11.3001
諸國	-11.3006
盡其心	-11.3007
分則	-11.3008
制節	-11.3008
所統	-11.301
其室	-11.3012
則思補益	-11.3013
攻古文	-11.3013
有其禮	-11.3017
禄位而守其祭祀	-11.3017
君有過失	-11.302
倡	-11.3023
所敬者寡而恱者衆此之謂要道	-11.3023
體用	-11.3023
長謂	-11.3026
應感之	-11.3027
訾	-11.303
孝之義	-11.3037
父母天地	-11.3038
則鬼神	-11.3041
隰	-11.3041
寫	-11.3043
不能保	-11.3048
問答	-11.3048
慼	-11.3048
醜衆	-11.3049
夫豈	-11.305
蔵	-11.305
君子之事上	-11.3055
求仁	-11.3055
今尚	-11.3056
恐辱先	-11.3057
遐逺	-11.3063
衍義	-11.3067
辱其父母	-11.3068
以顯	-11.3069
人子者	-11.3071
公侯伯	-11.3071
福應	-11.3075
無終始	-11.3075
謂也孟子曰	-11.3075
先王制禮	-11.3077
大於孝	-11.3077
也人情	-11.3078
莫之敢	-11.3079
服物	-11.3081
太保	-11.3083
萬幾	-11.3086
詬厲	-11.3088
所敬者寡而悦者衆此之謂要道	-11.3089
忝	-11.309
之後乃	-11.309
以孝為本	-11.309
此愛敬之	-11.3091
在國之	-11.3092
子惠	-11.3092
敬同於父	-11.3095
可畏	-11.3097
時思之	-11.3099
至矣故	-11.3102
之過也	-11.3104
所以長	-11.3106
蚤	-11.3109
生不	-11.3109
各盡其	-11.3111
該	-11.3115
殽	-11.312
懈惰也	-11.312
父執	-11.3123
百年	-11.3127
義曰此依王注也	-11.3128
上下尊卑	-11.3129
義也故	-11.3133
不肅而成	-11.314
九月	-11.314
韋布	-11.3142
中央之	-11.3142
在阼	-11.3144
在東	-11.3145
居字	-11.3145
柷	-11.3147
故可以安上化下	-11.3147
太公	-11.3147
莫大	-11.3147
子以禮	-11.3148
愾	-11.3152
弗與	-11.3153
覩	-11.3153
翦	-11.3154
加於孝乎	-11.3154
夜明	-11.3157
黄帝	-11.316
行從	-11.3161
質明	-11.3162
國平	-11.3164
者天地所	-11.3167
飲酒食肉	-11.3167
回	-11.3168
行其政令	-11.3169
以聖人	-11.3169
保社稷卿大夫	-11.317
結上文	-11.3172
以盛德之	-11.3173
扶而起	-11.3173
三日不食	-11.3173
祭祀蓋士之孝也	-11.3174
杖而起	-11.3176
君子有三	-11.3176
以事母其愛	-11.3177
此依魏注也	-11.3178
請所與問有	-11.3179
孝經一篇	-11.3179
殃	-11.318
存亡	-11.318
焉以	-11.3181
下孟反	-11.3182
居上敬下	-11.3182
注敬者禮之本也	-11.3182
盡得懽心故曰悦也	-11.3185
陳人處	-11.3185
桓公而後	-11.3185
豈弟君子	-11.3186
學生王逸於	-11.3188
階	-11.319
性為	-11.3191
遯	-11.3191
繋	-11.3191
所以正君臣父子之别明男女長幼之序	-11.3192
爲甫侯	-11.3192
隋開皇	-11.3192
猶為不孝也	-11.3192
勾	-11.3193
無不恱矣敬人之	-11.3193
五字	-11.3194
天因地	-11.3194
㑹而及於	-11.3195
事行者	-11.3195
以三仁	-11.3195
則思盡忠節	-11.3195
導民以	-11.3195
摧	-11.3195
氏之子曰	-11.3195
治道成	-11.3195
爲稷自	-11.3195
迫父	-11.3195
防其未來	-11.3195
龍柱棄	-11.3195
得萬國之懽心	-11.3195
忘其親	-11.3195
備陳死生之義以盡孝子之情	-11.3196
衆所	-11.3197
鬭	-11.3197
虛	-11.3197
教以悌所以敬天下之為人兄者	-11.3197
黼黻	-11.3198
哭若徃而	-11.3198
嚴肅自然成	-11.3198
於月月	-11.3198
此愛親之心	-11.3198
胡亥	-11.3198
闕五行	-11.3198
嗜欲	-11.3198
怡	-11.3199
在其中	-11.32
三五而	-11.3201
妻之父母	-11.3201
得罪於鄉黨州閭	-11.3201
恂	-11.3201
晨羞夕膳	-11.3201
正考父	-11.3201
甫刑卽尚書	-11.3201
蚤諭教	-11.3201
諌爭之	-11.3201
酏	-11.3201
醴清醩	-11.3201
郭	-11.3201
閔子之	-11.3202
孝經注疏卷三	-11.3202
厝	-11.3203
庻	-11.3204
先之以敬讓	-11.3204
一餐而病脱然	-11.3204
世之音	-11.3204
乃及於	-11.3204
之者莫善於身自行	-11.3204
也微諫	-11.3204
事亂君	-11.3204
孔父嘉	-11.3204
尊仁安義	-11.3204
悚	-11.3204
洙	-11.3204
滂	-11.3204
類得象	-11.3204
騫	-11.3204
因地故	-11.3205
夙興夜寐無忝爾所生	-11.3205
廣大此畧言之	-11.3206
事母之愛	-11.3206
天下至大萬	-11.3206
章第十五	-11.3207
無忝	-11.3207
熹	-11.3207
故形變於外	-11.3207
而曠代亡逸不被流行	-11.3207
至古文孝經孔傳本出孔氏壁中	-11.3207
趙簡子	-11.3207
釡	-11.3207
一衣而病脱然	-11.3207
三曲而偯	-11.3207
也親之過	-11.3207
人雖無道亦不失	-11.3207
君欲教民	-11.3207
在文武	-11.3207
木金父	-11.3207
膾	-11.3207
至矣大昏	-11.3207
行之遲	-11.3207
選左右	-11.3207
自天子至於	-11.3207
依鄭注也	-11.3208
以加于孝乎	-11.3208
疾而國家敗矣	-11.3209
因吕國改作甫名	-11.3209
則未為能	-11.3209
偯聲餘從容也	-11.3209
小孝用力	-11.3209
本又作	-11.3209
知孝之為大也	-11.3209
奔	-11.321
有美不能助	-11.321
而成也有惡不能救而止也激君以	-11.321
自高謗君以自潔	-11.321
諫以為身而不為君也是以上下相	-11.321
進則面從退有	-11.321
事於長則爲順矣	-11.321
易曰正家而天下定	-11.321
資親事君	-11.321
云親猶愛也	-11.321
仲尼弟子	-11.321
冠衣不純	-11.321
列於學官	-11.321
同爵則尚齒	-11.321
喪公孫丑曰	-11.321
州巷	-11.321
敬以臨下也	-11.321
臯夷	-11.321
莫之禁而弗為	-11.321
豈貴其能	-11.321
閉於宫	-11.321
𨗳民民	-11.321
父子之道天性	-11.3211
孝經注疏卷五	-11.3212
到户至日見而語之但行孝於内其化自	-11.3212
教不必家	-11.3212
舉臣道以為教則天下之為人臣	-11.3212
二字又析此下至	-11.3212
人乃可以不	-11.3212
性可滅	-11.3212
注謂以兵刃相加	-11.3212
董	-11.3212
賓	-11.3213
十二章	-11.3213
歆	-11.3213
艾	-11.3213
加焉	-11.3213
掦	-11.3213
父出則	-11.3214
范	-11.3214
何義也曰	-11.3214
於樂之聲節起自黄帝也	-11.3214
施得其要而已	-11.3214
身不安美	-11.3214
丹朱傲	-11.3214
五行之秀氣	-11.3214
史佚	-11.3214
戒舜曰	-11.3214
不反齊衰之	-11.3214
也禮所以修外	-11.3214
因其日嚴	-11.3214
當恭謹以奉上也	-11.3214
疑一篇	-11.3214
苞	-11.3214
遇臣妾以道	-11.3214
不可則止	-11.3214
之萬物莫不	-11.3214
云𤣥又	-11.3214
八珍	-11.3214
其君之不若	-11.3214
再飯	-11.3214
可也此哀之發於	-11.3214
喟	-11.3214
子孫封	-11.3214
廟堂之	-11.3214
従有服	-11.3214
有評論	-11.3214
服以要利禄	-11.3214
此五刑之名	-11.3214
膝骨	-11.3214
臣而用子	-11.3214
若非先王	-11.3214
身俱生故	-11.3214
須謙	-11.3214
膝下之時	-11.3214
以事父之心而事君則忠矣	-11.3215
劉炫引禮	-11.3215
其民民皆	-11.3215
卧	-11.3215
以飬父母日嚴	-11.3215
始自天子終於庶人尊卑雖殊孝道同致	-11.3215
婦人幽閉	-11.3215
謂平常	-11.3215
卿大夫之行孝也	-11.3215
口無可擇之	-11.3215
民生于	-11.3215
下謂孩幼之時也	-11.3216
巧	-11.3216
袁	-11.3216
距	-11.3216
言臣心愛君	-11.3217
曽晳	-11.3217
稷契之	-11.3217
何過之有	-11.3217
也而其道通於	-11.3217
優優	-11.3217
十億曰兆	-11.3217
是亦猶士	-11.3217
晨夕	-11.3217
注平居必盡其敬	-11.3217
義理所不可故再言之	-11.3217
藝黍稷	-11.3217
遭秦焚	-11.3217
乎獀狩	-11.3217
同姓則留	-11.3217
天下則以有	-11.3217
子而用臣之顯	-11.3217
攘	-11.3217
根於性也	-11.3217
樂盈而	-11.3217
此承上言	-11.3217
積誠以	-11.3217
誚	-11.3217
蹤跡	-11.3217
防叔	-11.3217
其本文止如此其下則或者雜引傳	-11.3217
得人之懽心以事其親	-11.3218
慨	-11.3218
故孔子言	-11.3218
舉孝悌以為教則天下之	-11.3218
維祺曰	-11.3218
父母㡬諫見志不從又敬不違	-11.3218
釋言云	-11.3218
守祭祀庶人	-11.3218
有非而從成父不	-11.3218
乎道路至乎	-11.3218
敬之教故出以就傅趨而過庭以教	-11.3218
漢文帝始除	-11.3218
聖人順羣心以行愛	-11.3218
謂服飾	-11.3218
也孝子喪親	-11.3219
舅	-11.3219
簠簋祭器	-11.3219
争臣七人雖無道不失其天下諸侯有	-11.3219
穿	-11.322
義從化也	-11.322
謂錦繡	-11.322
伏羲	-11.322
禮記問喪云	-11.322
圈	-11.322
日者父也	-11.322
立愛自親始	-11.322
以修内	-11.322
坐奉席請何鄉	-11.322
尚接之以禮	-11.322
賈生之	-11.322
逺庖厨	-11.322
鹹	-11.322
五帝以上也	-11.322
倡㳺	-11.322
則必有取之也	-11.322
各視其	-11.322
哭若往而	-11.322
堂矣未入於室	-11.322
寤	-11.322
廢鄭於	-11.322
從而後已	-11.322
教流行莫不服	-11.322
春秋緯	-11.322
皇侃以爲	-11.322
社受其禍	-11.322
祇劉炫一人	-11.322
禮也曽子曰不以	-11.322
而不除之雖	-11.322
而禍患不及者未之	-11.322
聖人因其親嚴之心敦以愛	-11.322
自斬衰而下	-11.322
關係于	-11.322
限高卑	-11.322
非君子之得已	-11.322
以光祖考	-11.322
以戒富	-11.322
以戒貴	-11.322
其出如	-11.322
則等矣而	-11.322
天下失性	-11.322
孚	-11.322
有疾飲藥	-11.322
未諫之	-11.322
楊泓	-11.322
滿天下亦不必	-11.322
燕族人	-11.322
王言如	-11.322
祖言能備此三者則能長守宗廟之祀	-11.322
者服言行也禮卿大夫立三廟以奉先	-11.322
非毁之者是無	-11.322
殊事而合敬	-11.322
增多	-11.322
莫善於禮	-11.3221
訢	-11.3221
德也注	-11.3221
子曰孝子之事親也居則致其敬	-11.3221
敢遺	-11.3221
顓頊	-11.3221
猶一家也	-11.3221
疾甚曰病	-11.3221
宜黍稷下	-11.3221
羶	-11.3221
憂將及親	-11.3221
按禮運曰	-11.3221
敬制禮則以施政教亦不待	-11.3221
曾參起對故使復坐	-11.3221
者奉席請何趾少者執牀與坐御者舉几	-11.3221
言上三事皆可亾身	-11.3221
本謂孝也	-11.3221
毋取扵	-11.3221
毛傳文	-11.3221
爭謂諫也言雖無道為有	-11.3221
百姓臣妾猶	-11.3221
福不善則宗	-11.3221
紏	-11.3221
而八享	-11.3221
閭巷	-11.3221
降兩故有	-11.3221
降殺以兩尊卑之差	-11.3221
也注聖人至	-11.3222
昕	-11.3223
以兵刃相加	-11.3223
粉	-11.3223
嗜	-11.3223
河間劉炫	-11.3223
不安美餙故	-11.3223
大樂與天地同和	-11.3223
子弟及臣	-11.3223
足少而習	-11.3223
又案尚書益稷篇稱	-11.3223
也白虎通云	-11.3223
朽	-11.3223
迭	-11.3223
二十六年	-11.3223
以來皆有	-11.3223
言教人親愛禮順無加於孝	-11.3223
臣預其尊榮	-11.3223
搔	-11.3223
曲禮曰毋不敬	-11.3223
温凊	-11.3223
立敬自長始	-11.3223
聞其聲	-11.3223
范曄	-11.3223
麛	-11.3223
下君臣同德故能相親	-11.3223
令諸儒	-11.3223
以養父母為孝	-11.3223
先嘗之	-11.3223
則不乏	-11.3223
天無二日土無二王	-11.3223
日致太牢之養固非孝也	-11.3223
曰事君三違而不出竟則利禄也	-11.3223
焉於䖍反	-11.3223
用力之不	-11.3223
禮減而	-11.3223
窮本知變	-11.3223
章陳愛敬	-11.3223
簟而襡之	-11.3223
諮	-11.3223
邦國有倫	-11.3223
醯醬	-11.3223
馴	-11.3223
侍中領左國史	-11.3223
十八章為定	-11.3223
庾	-11.3223
推而廣之自	-11.3223
明僧紹	-11.3223
王𤣥載	-11.3223
笞三百	-11.3223
笞五百	-11.3223
者莫不恱矣以此之敬而敬人之	-11.3223
與尚書論語	-11.3223
虞槃佑	-11.3223
趾	-11.3223
逹於天子一	-11.3223
釋慧琳	-11.3223
陷沒	-11.3223
高陵亭	-11.3223
惟一	-11.3223
述孝經	-11.3223
黨	-11.3223
檀	-11.3224
補過	-11.3224
琬圭	-11.3224
喪不過三年	-11.3224
左氏傳	-11.3225
使民有父之尊有母之親	-11.3225
可以為民父母矣非至徳其孰能如此乎	-11.3225
移易先入樂聲變隨人心正由君德	-11.3225
蓍	-11.3225
譯	-11.3225
之親子也賢則親之無能則憐之母親而	-11.3225
况於近可不盡忠	-11.3225
而不親水之於民也親而不尊火尊而不	-11.3225
親土之於民也親而不尊天尊而不親	-11.3225
違故疑而問之	-11.3225
醜衆也爭競也當	-11.3225
隠無犯又敬不	-11.3225
下必有甚	-11.3225
之孝者是謂能養	-11.3225
事鬼神之道	-11.3225
凡此者皆	-11.3225
夙絶之	-11.3225
民情多	-11.3225
諸父諸兄	-11.3225
戈	-11.3225
理所不可故再言	-11.3226
奔走	-11.3226
開元七年	-11.3226
級	-11.3226
劉炫駮云	-11.3226
君夫人皆	-11.3226
成王既崩康王	-11.3226
於東月生於西	-11.3226
父母有過下氣怡色柔聲	-11.3226
腥	-11.3226
不宜刪	-11.3226
參曾子名也禮師有問避席起答	-11.3226
合二姓之好	-11.3226
松	-11.3226
猶不忘也	-11.3226
諸侯自龍袞而下	-11.3226
􁄀	-11.3226
一溢米	-11.3226
也宗其繼别子	-11.3226
也王云孝爲	-11.3226
仕魏歴	-11.3226
其漸然也	-11.3226
則去杖	-11.3226
口不甘味	-11.3226
合䂓矩	-11.3226
君子有終身之	-11.3226
哉貴其	-11.3226
善則億兆	-11.3226
在正席之	-11.3226
在蒙幼	-11.3226
大夫於君所則輯杖	-11.3226
夫禮必本於	-11.3226
字孔才廣平	-11.3226
字彦	-11.3226
宜其妻父母	-11.3226
弁絰帶	-11.3226
弑其君者必	-11.3226
彘	-11.3226
待教而此言教	-11.3226
惻怛	-11.3226
扱	-11.3226
易曰言行君	-11.3226
民弗敢草	-11.3226
爲中古	-11.3226
父母之喪既殯食	-11.3226
父母生之君親臨之	-11.3226
王肅蘇林	-11.3226
田農	-11.3226
皆奪之	-11.3226
皇侃撰義疏	-11.3226
矢懸諸	-11.3226
義勝恩故也	-11.3226
而民貴	-11.3226
而能仕可知者	-11.3226
自然名揚後世光顯其親故行	-11.3226
芐翦不納	-11.3226
芮	-11.3226
言行無可擇	-11.3226
貎也尹氏爲太師周之三公也	-11.3226
車𦙍	-11.3226
鄭衆鄭𤣥	-11.3226
長而順	-11.3226
關内侯	-11.3226
陳郡人	-11.3226
齊衰之喪	-11.3226
瞽	-11.3226
斁	-11.3227
前章明先王因天地	-11.3227
五刑墨劓剕宫	-11.3227
生育	-11.3227
而忘其	-11.3228
條有三千	-11.3228
争之臣	-11.3228
威猛而	-11.3228
不待威嚴而	-11.3228
其將亡	-11.3228
其親而稱孝者	-11.3228
參聞行孝無限高卑始	-11.3228
服闇不登危	-11.3228
無聲視	-11.3228
玉帛	-11.3228
盡忠補過將順匡救	-11.3228
臨深不苟訾不苟笑不	-11.3228
命士以上	-11.3228
夔夔齋慄	-11.3228
魯頌商頌	-11.3228
也親親故尊祖尊祖故敬宗敬宗故	-11.3228
人倫正性	-11.3228
以事親為始	-11.3228
兄弟備言燕私	-11.3228
劓罰之屬千	-11.3228
吕刑云墨罰之屬千	-11.3228
太皥炎帝黄帝少皥顓頊	-11.3228
夫然者上孝理皆得懽	-11.3228
子之所以動天地也	-11.3228
孝者天地之經	-11.3228
家必有制也則	-11.3228
揚於後代	-11.3228
父之親子也親賢而	-11.3228
父自古攸然	-11.3228
皂牧	-11.3228
移事兄敬以	-11.3228
義母主恩故也	-11.3228
而言之則爲	-11.3228
艮	-11.3228
詩曰諸父	-11.3228
其哀情	-11.3228
宥	-11.3228
《	-11.3228
正義曰此依魏	-11.3228
肌	-11.3229
棗	-11.3229
神農	-11.3229
義取君以樂	-11.3229
食夫稻衣夫錦於	-11.3229
以所見	-11.3229
而廢鄭	-11.3229
雲雷風雨	-11.3229
以感動	-11.3229
孝者天性之自然人心所	-11.3229
故名丘字仲尼	-11.3229
道既行則	-11.3229
易繫	-11.3229
泊	-11.3229
臣弑其君子弑其父	-11.3229
顔囘	-11.3229
孝子之疏節也	-11.3229
柏	-11.3229
用此道	-11.3229
而不見親	-11.3229
虗	-11.3229
不必言配	-11.3229
乃非之是無心	-11.3229
之不可任以	-11.3229
之大端也所以	-11.3229
之舞之足之蹈之	-11.3229
五子之歌	-11.3229
人上者奈	-11.3229
人道之至大者也	-11.3229
仕弗與共	-11.3229
何異之有	-11.3229
作古文孝經傳而世不傳	-11.3229
冢宰之	-11.3229
則人化之	-11.3229
功車服	-11.3229
叅	-11.3229
又期而大祥	-11.3229
可以言孝乎而見夫孝	-11.3229
天而配	-11.3229
宗其繼髙	-11.3229
宗廟之禮所以	-11.3229
屏人而	-11.3229
弗去是也禮之實節文斯二者樂之實樂	-11.3229
懽心而事先	-11.3229
斯二者樂則生矣生則惡可已	-11.3229
日人實反	-11.3229
旬	-11.3229
易直子諒之心	-11.3229
昭帝時	-11.3229
月而禫禫	-11.3229
有殺焉以	-11.3229
欣欣	-11.3229
沈	-11.3229
泰壇泰折	-11.3229
涌泛	-11.3229
湛	-11.3229
為民父母	-11.3229
為義其意不在於	-11.3229
琰圭	-11.3229
男子治外	-11.3229
畎畆	-11.3229
者也未有孝而不	-11.3229
而小祥	-11.3229
聖人南面而	-11.3229
至於跡相祖述殆且百家	-11.3229
覃	-11.3229
諫諫而不	-11.3229
銷	-11.3229
不獲其所	-11.3229
乾元萬物資始	-11.3229
令善也益者三友言	-11.3229
以辱其親	-11.3229
動尸舉柩哭踊無數	-11.3229
君臣之際	-11.3229
定而不列名	-11.3229
書傳通	-11.3229
本除其煩惑以十八章	-11.3229
正而天下歸之	-11.3229
答反其敬行有不得者皆反求諸己其身	-11.3229
終于立身	-11.3229
臣則終不至失天下亡家國也	-11.3229
親愛之心生於	-11.3229
說文云古文孝經	-11.3229
贅	-11.3229
身無可擇之行	-11.3229
鋪	-11.3229
馨	-11.3229
髙禖之	-11.3229
者樂易之君子也	-11.323
遺棄其親者	-11.323
竭其忠	-11.323
多福	-11.323
全而歸之	-11.3231
上謂君與長	-11.3231
内外交	-11.3231
國之本在家家之本在身	-11.3231
中祕書	-11.3231
智之性	-11.3231
脂	-11.3231
閒音閑	-11.3231
樂也悌易也義取君以樂易之道化人則	-11.3231
不令至於	-11.3231
冠者不櫛	-11.3231
在是矣	-11.3231
嬉戲於父母	-11.3231
朝覲所以教諸侯之臣也	-11.3231
此為大焉	-11.3231
比户可	-11.3231
而善道之	-11.3231
不至豈則	-11.3231
之詩以賛美之	-11.3231
也不教敬則不嚴不和親	-11.3231
人之修徳	-11.3231
人公與父兄齒	-11.3231
人皆瞻	-11.3231
兄弟親戚稱其慈	-11.3231
兄是也智之實知	-11.3231
兢兢戒慎	-11.3231
則接對賓客出聘則	-11.3231
劍	-11.3231
勝則離是嚴多而愛	-11.3231
得兼下下不得	-11.3231
惡可已則不知手	-11.3231
愛人不親反其仁治人不治反其智	-11.3231
是愛深而敬薄	-11.3231
曰仁之實事親是也義之實	-11.3231
服飾言行	-11.3231
無以哀死而	-11.3231
無限貴賤	-11.3231
百官族人可謂曰知	-11.3231
皆本於孝	-11.3231
肉刑	-11.3231
能順民心而行	-11.3231
若公與族燕則異姓為賔膳宰為主	-11.3231
若非至徳之君	-11.3231
貴故況	-11.3231
犯禁	-11.3231
可謂孝乎	-11.3232
胄	-11.3232
争之從父之命又	-11.3232
刻其顙	-11.3232
反塞先	-11.3232
亦格言也	-11.3232
勅議	-11.3232
不忘乎心	-11.3232
隂陽之交	-11.3232
也天下之至	-11.3232
天下之本在	-11.3232
子之大戒也	-11.3232
立學官	-11.3232
者連上	-11.3232
而湼之	-11.3232
腒	-11.3232
迸	-11.3232
陳説德義之	-11.3232
名章次三才之後	-11.3232
上等侯伯	-11.3232
夫道至於	-11.3232
孝者德之至道之要也言先代聖德	-11.3232
故先愛	-11.3232
老窮不遺强不犯弱衆不暴寡	-11.3232
親結諸心形諸色而術省之	-11.3232
詩云此詩小雅節南山之什小	-11.3232
躬行匹夫之孝	-11.3232
三十四年	-11.3232
三者無虧然後	-11.3232
也内則曰	-11.3232
于化民	-11.3232
充充	-11.3232
匡其不及	-11.3232
友于兄弟	-11.3232
君以尊高而敬	-11.3232
哭踊	-11.3232
庿	-11.3232
曰古之為政愛人為大	-11.3232
洵	-11.3232
王邵所	-11.3232
異姓之廟	-11.3232
能備能備然後能	-11.3232
至則敬不極	-11.3232
雖曰不要君	-11.3232
上下之際	-11.3232
不王不禘	-11.3232
不相非也	-11.3232
不言而信	-11.3232
也無不知敬其兄	-11.3232
乾肝焦肺水漿不	-11.3232
今隨俗用鄭注十八章本	-11.3232
仕呉	-11.3232
僚友稱其	-11.3232
入口三日	-11.3232
八卦	-11.3232
劉向校書定爲十八	-11.3232
劉向校經籍比量二	-11.3232
務農桑	-11.3232
北鄉	-11.3232
又有古文出于孔氏壁中	-11.3232
及魯共王壞孔子宅	-11.3232
友稱其仁	-11.3232
命降於社之	-11.3232
唯其所引而之以	-11.3232
商書曰	-11.3232
垢	-11.3232
大夫齊哀者	-11.3232
大學士蔣赫徳恭纂	-11.3232
如前所云者	-11.3232
岷山	-11.3232
張弛	-11.3232
御天地與人	-11.3232
憒	-11.3232
戴記云孔子閒居曾子侍並無坐字此經	-11.3232
抑搔癢痛懸衾篋枕以教愛也	-11.3232
教更有大於孝不	-11.3232
於此乎天下有道	-11.3232
族故宗廟嚴	-11.3232
是孔安國作傳	-11.3232
有人於此	-11.3232
有差等	-11.3232
有所不受於	-11.3232
未發秋政	-11.3232
燂湯請	-11.3232
父失則諫故免陷於不	-11.3232
父敬兄敬君之心	-11.3232
甚愛之	-11.3232
疇	-11.3232
皆有此愛敬之心而	-11.3232
祖主日	-11.3232
祖者五世則遷	-11.3232
管籥	-11.3232
繼序思不忘	-11.3232
者不可為	-11.3232
者北方之	-11.3232
而不可言孝則	-11.3232
而待加之	-11.3232
聖人之徳無以加於孝故曰至徳	-11.3232
胷	-11.3232
臣之諫君子之	-11.3232
至孝近乎王	-11.3232
至弟近乎霸	-11.3232
與共戴天	-11.3232
虞飜劉劭	-11.3232
蠱	-11.3232
要君非聖非孝之	-11.3232
親既長	-11.3232
赳	-11.3232
軾	-11.3232
道逹矣	-11.3232
達天道順人情	-11.3232
邇臣守和	-11.3232
醆	-11.3232
骨肉	-11.3232
黨錮	-11.3232
諫諫若不入起敬起	-11.3233
於慈	-11.3233
曽子曰若夫慈愛	-11.3233
人而諭之	-11.3233
詩小雅節南山之篇	-11.3233
則思補	-11.3233
居謂閒居	-11.3234
教不肅	-11.3234
天之經地之義	-11.3234
正救之	-11.3234
樂記云先王之制禮樂也將以	-11.3234
以要道施化化行	-11.3234
困	-11.3234
彰亦明道德相成所以互	-11.3234
身體髪膚	-11.3234
宗彜	-11.3234
兆庶皆倚賴之	-11.3234
善則愛敬是	-11.3234
民莫不興	-11.3234
怒不至詈	-11.3234
無故字有子曰	-11.3234
能順天下人心行此至要之化	-11.3234
克施有政	-11.3234
出必告反必	-11.3234
尊至則愛不極	-11.3234
按内則云	-11.3234
明王以孝治天下	-11.3234
滋味	-11.3234
而全其生也	-11.3234
其祖父者如此是以徳教刑	-11.3234
壬	-11.3234
孝爲百行之首	-11.3234
居上敬下盡得	-11.3234
已下至於庶人	-11.3234
德行之行下孟反注	-11.3234
惟天子受命於天	-11.3234
懽心故曰恱也	-11.3234
承事天地	-11.3234
有事弟子服其勞有酒食先生饌	-11.3234
正義曰夫子旣述	-11.3234
罪惡之極	-11.3234
者西方之	-11.3234
莫不尊親故曰	-11.3234
貴其異於萬物也	-11.3234
郊祀后稷以配天宗祀文王以配上帝	-11.3234
齊宣王	-11.3234
也制節制財用之節謹度	-11.3234
如此其廣大者乎	-11.3234
所必無也	-11.3234
正義曰夫子前	-11.3234
警	-11.3234
稻	-11.3234
子曰是何言與是何言與言之不通也	-11.3234
旻	-11.3234
以順天下民用和睦上下無怨汝知之乎	-11.3235
立社曰	-11.3235
雖日具	-11.3235
要道先於至	-11.3235
天子下有已下	-11.3235
身行愛敬也	-11.3235
擊	-11.3235
詁	-11.3235
二十二章孔安國作傳	-11.3235
敬盡於事親	-11.3235
諦	-11.3235
祖考來格	-11.3235
豚	-11.3235
禹曰朕	-11.3236
子産之言唯易	-11.3236
踳	-11.3236
之於父也	-11.3236
惡而反人道之正也	-11.3236
禋	-11.3236
㕘	-11.3236
作敬讓而不爭矣	-11.3236
小國之臣至卑者耳王	-11.3236
文句凡鄙	-11.3236
義者宜也	-11.3236
者逮下	-11.3236
苽	-11.3236
覈	-11.3236
則上下臣人	-11.3236
國子博士	-11.3236
從八正	-11.3236
敏達也言參不達何足知此	-11.3236
甫刑尚書作吕刑	-11.3236
肆夏	-11.3236
臂	-11.3236
長則日加	-11.3236
養口體	-11.3236
公族無宫刑	-11.3236
包攝	-11.3236
人有言曰	-11.3236
以忠順事	-11.3236
囚	-11.3236
夫人薦豆	-11.3236
小異然	-11.3236
忠愛其君者	-11.3236
案説文云	-11.3236
汎指	-11.3236
致愛則存致慤則著著存不忘乎心	-11.3236
襁褓之	-11.3236
餓	-11.3236
下今文有也字	-11.3236
不中律	-11.3236
不履事	-11.3236
不惡慢於人	-11.3236
不敢侮於鰥寡	-11.3236
之威有儀而可象	-11.3236
也注言能至	-11.3236
事之以明子	-11.3236
六尺之	-11.3236
冡土	-11.3236
千五百	-11.3236
君牽牲	-11.3236
噍	-11.3236
大功以下者	-11.3236
孝經注疏卷九考證	-11.3236
家喻户曉	-11.3236
寢苫枕	-11.3236
尸飲五君洗玉爵獻卿	-11.3236
建武時	-11.3236
愛一人焉	-11.3236
我后之徳	-11.3236
所以交於神明者不可同於安	-11.3236
故又假曽子之問	-11.3236
敦仁不	-11.3236
既卒哭	-11.3236
曹羇	-11.3236
有不忍人之心	-11.3236
有威而可畏謂	-11.3236
本謂天性	-11.3236
正義曰自此至	-11.3236
父母之喪居倚廬	-11.3236
父母全而生之已當全而歸	-11.3236
猶之内事也	-11.3236
瑕	-11.3236
皓	-11.3236
矣可以言孝乎有	-11.3236
祫嘗祫烝	-11.3236
約有百家	-11.3236
終畢乃引	-11.3236
給事中	-11.3236
繼别子之禰	-11.3236
者也繼髙祖	-11.3236
者又徳教之所自出	-11.3236
而敬守之	-11.3236
蔡	-11.3236
衆知其徳	-11.3236
訂	-11.3236
詩曰我孔熯矣	-11.3236
謌	-11.3236
起起者起	-11.3236
追逺之禮也	-11.3236
雖父母殁	-11.3236
飲七以瑶爵獻大夫尸飲九以散爵獻士	-11.3236
飲醴酒始	-11.3236
齋戒沐浴	-11.3236
傳於世	-11.3236
可陳也	-11.3236
我之敬既盡則人亦興	-11.3236
有國有家	-11.3236
等而上之	-11.3236
舌	-11.3236
許慎説文所引孝經	-11.3236
賄	-11.3236
曑	-11.3236
嚴親嚴兄	-11.3236
墨劓剕宫大辟	-11.3236
隔	-11.3236
妻子臣妾繇百姓徒役也	-11.3236
税	-11.3236
不聽則號泣而隨之	-11.3236
所以為生民立命也	-11.3236
父事三老兄事五更	-11.3236
之棺以周衣	-11.3236
以示民有終極	-11.3236
以為甘故	-11.3236
吾語汝	-11.3237
以周棺衣衾以周身然	-11.3237
擅	-11.3237
之行若中道則	-11.3237
卿大夫遵守禮法不敢僭上偪	-11.3237
日加尊嚴	-11.3237
不登髙不	-11.3237
子也慶善也十	-11.3237
然而然者	-11.3237
申而演之	-11.3237
飲酒義云先禮而後財則民	-11.3237
天地之間禀天地之	-11.3237
也陳其簠簋奠以素	-11.3237
則傷痛而哀戚之其祖	-11.3237
唯而不對	-11.3237
子曰先王有至	-11.3237
敎從孝而生	-11.3237
服飾言行須遵禮典非	-11.3237
案祭義云	-11.3237
母以鞠育而	-11.3237
自上以下降殺以兩	-11.3237
裝	-11.3237
餞也女擗男踊號哭涕泣	-11.3237
骨肉之親無	-11.3237
侯地方百里伯七十里子男	-11.3237
言父有非	-11.3237
一念之	-11.3237
一章為鄙俗	-11.3237
不出於此	-11.3237
不忍人之政	-11.3237
不愛其親而愛它人	-11.3237
之大經也	-11.3237
他邦	-11.3237
則下傚	-11.3237
則能事神	-11.3237
則諸侯以下	-11.3237
天子雖無上於天下	-11.3237
成形于	-11.3237
我之愛既	-11.3237
敬之教民	-11.3237
敬以事長則為順	-11.3237
横乎四海	-11.3237
盜跖	-11.3237
眞見	-11.3237
祀矣此盖	-11.3237
者東方之	-11.3237
而好犯上者鮮矣	-11.3237
而戸到	-11.3237
舊說云	-11.3237
詩云彼都人士	-11.3237
身也者親之枝也	-11.3237
逼	-11.3237
道天性之常加以尊嚴又有君	-11.3237
隴	-11.3237
順時令	-11.3237
故治可移於官	-11.3237
經地義	-11.3237
天之明因地之義	-11.3237
則悲哀而	-11.3238
為人子弟者無不敬其父兄也	-11.3238
奢侈	-11.3238
而財用	-11.3238
夫孝天之經也地之義也民之行也	-11.3238
骨	-11.3238
再言之者	-11.3238
以及人之	-11.3238
陷于不	-11.3238
而敢非之是無	-11.3238
辨男女	-11.3238
章第一	-11.3238
煨	-11.3238
以强教之	-11.3238
第十	-11.3239
故親生之膝下	-11.3239
赫赫	-11.3239
服其教	-11.3239
澹	-11.3239
秘書	-11.3239
要道之事而未	-11.3239
年一廵守	-11.3239
惟是經國人相傳之久不知	-11.3239
手澤	-11.3239
攸攝	-11.3239
曰假以溢我我其	-11.3239
氏音例並音經傳庶乎令讀者不誤其音	-11.3239
舊行用孔	-11.3239
輿	-11.3239
也抑搔癢痛縣衾篋枕以	-11.3239
事義相	-11.3239
其欲其饗之也	-11.3239
則天子不能保	-11.3239
叔梁紇	-11.3239
右傳之十章	-11.3239
早夜	-11.3239
玩其所樂	-11.3239
精粗	-11.3239
纔	-11.3239
聼朝	-11.3239
處其所存	-11.3239
裔	-11.3239
身之所行	-11.3239
饋奠之事	-11.3239
之師惟其克相上帝	-11.3239
作之君作	-11.3239
君者臣之禀命也而敢要之是無上也	-11.3239
國人稱願然曰幸哉有子如此	-11.3239
教諸侯之孝也食三老五更於太學所以	-11.3239
永言孝思昭哉嗣服	-11.3239
為庶人冠取妻必告死必赴	-11.3239
粹	-11.3239
訓詁	-11.3239
詩以證	-11.3239
館	-11.3239
三揖而後至階三	-11.3239
不勝其	-11.3239
不敢忘其本	-11.3239
不敬其親而敬它人者	-11.3239
不週於	-11.3239
丑	-11.3239
之喣沫	-11.3239
乗路馬	-11.3239
也言上古之	-11.3239
人以是闋秋嘗之樂	-11.3239
仁人孝子之志也	-11.3239
今陛下	-11.3239
以樂享老幼	-11.3239
以樂祀	-11.3239
修之以孝養	-11.3239
兄百官皆不欲曰吾	-11.3239
充裕	-11.3239
則先拜	-11.3239
則存安其榮	-11.3239
劉炫陸澄	-11.3239
卻	-11.3239
又曰父母之喪既	-11.3239
受忠告故不失其善名	-11.3239
可以與於祭乎孔子曰	-11.3239
君有過惡則正而止之	-11.3239
呉志	-11.3239
周易都	-11.3239
命士而	-11.3239
咳	-11.3239
哲之王以孝道而治理天下也	-11.3239
商祝	-11.3239
太子初生	-11.3239
始于事親	-11.3239
子嬰二年春正月項羽尊楚	-11.3239
子曰舜其大孝也與徳為聖人	-11.3239
字𢎞	-11.3239
存則安其	-11.3239
帝羽自立爲西楚霸王更立沛公爲漢王	-11.3239
幽厲之	-11.3239
序所云劉	-11.3239
弘	-11.3239
後能孝故移孝以事君則為忠	-11.3239
得仁人之粟則	-11.3239
所不學而能者其	-11.3239
教一人而千萬人	-11.3239
敢諫之	-11.3239
敬一人而千萬人悦	-11.3239
敬慎重正	-11.3239
旅酬下為上所以逮賤也	-11.3239
族食世降一等	-11.3239
春夏秋冬	-11.3239
曰伯父叔父	-11.3239
曾子曰君子之孝也	-11.3239
朝服載鞭	-11.3239
束民性而法	-11.3239
梧	-11.3239
椘	-11.3239
殽地	-11.3239
法事理	-11.3239
濫觴	-11.3239
為中和以	-11.3239
無悒悒	-11.3239
燕私之樂	-11.3239
瑞節也	-11.3239
發越揮	-11.3239
百志成	-11.3239
相親之至也	-11.3239
祫禘	-11.3239
禮俗刑	-11.3239
籥師	-11.3239
終之以仁	-11.3239
縁	-11.3239
者天下之表也上行	-11.3239
者釋詁文云	-11.3239
而後升所以致尊	-11.3239
而面命之也	-11.3239
肅肅	-11.3239
能盡其性則能	-11.3239
自為立社曰	-11.3239
艱	-11.3239
芬	-11.3239
若是則可謂	-11.3239
蒼翼奉	-11.3239
蔬	-11.3239
親歾	-11.3239
親者必於人無不	-11.3239
言用賢	-11.3239
謂父為天雖無貴賤然以父	-11.3239
譬	-11.3239
議郎衛宏所	-11.3239
讜	-11.3239
財用足	-11.3239
貺	-11.3239
賊姦軌	-11.3239
足衣食	-11.3239
蹴	-11.3239
道揚末命	-11.3239
達之天下	-11.3239
配天之禮始自周公故曰其人也	-11.3239
闢	-11.3239
除慝	-11.3239
陵墳衍	-11.3239
隆於父一本故也致一而後能誠知本而	-11.3239
齊詩魯詩	-11.3239
沛	-11.3239
吳	-11.3239
候	-11.3239
愷悌君子	-11.3239
日不食	-11.3239
舉其多也	-11.3239
周尸為棺周棺	-11.3239
苦在反	-11.324
進退動静也	-11.324
孝經注疏卷一	-11.324
彪	-11.324
白虎通	-11.324
則長幼有序	-11.324
億曰兆義取天子行孝兆人皆賴其善	-11.324
類滅矣	-11.324
剕罰之屬五百宫罰之屬三百大辟之罰	-11.324
升公朝離親入仕	-11.324
循環	-11.324
愛母同	-11.324
是知貴不與驕期而驕自	-11.324
條有三千而罪之大者莫過不孝	-11.324
歎其大	-11.324
舊如字注同	-11.324
則號泣而	-11.324
口體之奉	-11.324
帝於郊	-11.324
恐其狎恩恃愛而	-11.324
按禮記文王世子稱	-11.324
曰仁者殆恭者不入	-11.324
豆籩	-11.324
駿奔走	-11.324
之良心	-11.324
任事之稱也	-11.324
姪	-11.324
教之以臣使凡為人	-11.324
明王諸侯大夫	-11.324
祭享謂四時及禘	-11.324
者莫善於	-11.324
聲舉措進退之禮	-11.324
謂父為君以臨於己恩義	-11.324
過於不孝	-11.324
□	-11.324
后妃	-11.324
天子愛親則	-11.324
富貴之過也	-11.324
徒協反	-11.324
於天地之性則	-11.324
曰君子之敎以孝也非家至而日見之也	-11.324
樂自順此生刑自反此作	-11.324
注匡正也救止也	-11.324
生此王國	-11.324
百官有司莫	-11.324
者也禮者體此者也行者行此者也彊者	-11.324
者則首章	-11.324
者南方之	-11.324
行仁必自孝始	-11.324
言善人君子	-11.324
裕	-11.3241
旒衣	-11.3241
其不復	-11.3241
善也言天子一	-11.3241
義取爲君恒須戒	-11.3241
故忠可移於君事兄苟	-11.3241
順可移於長居家苟極其	-11.3241
謂之悖徳	-11.3242
欣	-11.3242
儼	-11.3242
山澤	-11.3242
粥以飲食之	-11.3242
其君主而祭之	-11.3242
經曰昔者明王之以孝	-11.3242
乖謬	-11.3242
云分别五土視其高下	-11.3242
民平好	-11.3242
道以教民	-11.3242
事父孝故能事	-11.3242
生事已畢死	-11.3242
之妻為	-11.3242
恐懼兢兢戒愼臨深恐墜履	-11.3242
既以數本校讐且旁及他書所引	-11.3242
傳中間有不成語雖疑其有	-11.3242
紕繆	-11.3242
耜	-11.3242
至悦也	-11.3242
衹	-11.3242
賀	-11.3242
後舉而斂之	-11.3242
能守其	-11.3242
與侈期而侈自	-11.3242
言居髙位而不	-11.3242
賵	-11.3242
􁏉	-11.3242
不能為容也	-11.3242
中忠孝道著乃能揚名榮親	-11.3242
今祖述孝經之人	-11.3242
使正直者邇於刑弗違則殆於罪	-11.3242
凡一十八章以相傳授	-11.3242
呉郡	-11.3242
和平因問聖	-11.3242
始相見	-11.3242
存于我日本	-11.3242
家塾	-11.3242
從爪	-11.3242
愚夫愚婦	-11.3242
戇	-11.3242
煖清寒暑	-11.3242
相因而	-11.3242
糜	-11.3242
耘	-11.3242
良知良能	-11.3242
若能不以	-11.3242
號泣而随之	-11.3242
説聖人之治	-11.3242
賜姓	-11.3242
三復白圭	-11.3242
三者服言行也	-11.3242
上所陳	-11.3242
不可奪也	-11.3242
不敢授綏	-11.3242
之厚莫重於斯	-11.3242
之君所朝夕否曰君	-11.3242
之子孫保之故	-11.3242
事之均	-11.3242
二典之	-11.3242
儒說經以	-11.3242
光祿大夫	-11.3242
入廟門	-11.3242
則守於公襧	-11.3242
則沐身	-11.3242
可謂髙矣	-11.3242
君臣父子長幼之道	-11.3242
問孝子曰	-11.3242
圭九寸	-11.3242
堅	-11.3242
多鄙俚不經	-11.3242
奉承而進之	-11.3242
如之何孔子曰遂既封	-11.3242
孝治天下能致災	-11.3242
季康子	-11.3242
學舞干戚	-11.3242
宗人授事以	-11.3242
尊為天子富有四海之内宗廟	-11.3242
川澤	-11.3242
巴蜀	-11.3242
幸望	-11.3242
必得其位必得其禄必得其名必得其夀	-11.3242
情義利患	-11.3242
愛易能而敬難盡	-11.3242
戴記所稱	-11.3242
援神契自天子至庶人	-11.3242
據此而言	-11.3242
故以天子而	-11.3242
敗君事者	-11.3242
文武之功	-11.3242
於臣妾鰥寡	-11.3242
旨趣	-11.3242
是聖賢之	-11.3242
景帝	-11.3242
有十謬七惑司馬堅斥孔	-11.3242
有序而和者未有不	-11.3242
有瘍則浴有疾則飲酒食肉	-11.3242
樂具入奏	-11.3242
檢討	-11.3242
殷事則歸	-11.3242
江翁后	-11.3242
漢宋之	-11.3242
潁	-11.3242
父母於子一體而	-11.3242
父母生子傳體相續人倫之道莫大於斯	-11.3242
猶且敬之	-11.3242
疑古為偽	-11.3242
祚	-11.3242
終身弗辱	-11.3242
聊	-11.3242
臨之以莊	-11.3242
自古及今	-11.3242
自父兄始	-11.3242
苛	-11.3242
茨	-11.3242
著於心則	-11.3242
言作注之體	-11.3242
詣	-11.3242
詰	-11.3242
請畢	-11.3242
諫逹善	-11.3242
責成人禮	-11.3242
遷祖	-11.3242
雖有五等之别	-11.3242
鬭辨	-11.3242
鼓徴	-11.3242
不自吾孝中出故曰教之所由	-11.3242
不識不知	-11.3242
之心以及人也夫是之謂順	-11.3242
人職云	-11.3242
以仁存心以禮存心仁者愛人有禮者敬	-11.3242
侯是五等之第二	-11.3242
儐	-11.3242
凡大合樂必遂養	-11.3242
反於君所	-11.3242
在吾仁之中無一事	-11.3242
孝子之情無	-11.3242
敢不哀	-11.3242
敢於毁傷人	-11.3242
敬其為君父之道	-11.3242
曾氏之	-11.3242
盡人之性能	-11.3242
秉彝	-11.3242
紆	-11.3242
舉天下之大無一物	-11.3242
蠶桑	-11.3242
𤼵此章	-11.3242
腆	-11.3242
相息亮反	-11.3242
有殷事	-11.3242
漏	-11.3242
聞樂之和有所不樂食味之㫖有	-11.3242
刀	-11.3243
制立節限	-11.3243
經常之理	-11.3243
諴	-11.3243
慶善也	-11.3243
孝經其驗	-11.3243
子曰天地之性人為貴	-11.3243
截其鼻	-11.3243
無可擇之行	-11.3243
不敢毁傷孝之始也立身	-11.3243
敢不敬與	-11.3243
是以普天之下和睦太平	-11.3243
戶	-11.3243
首章略	-11.3243
定例也	-11.3243
廣要道之義言	-11.3243
施於兄則	-11.3243
注法天	-11.3243
也注蓋猶	-11.3243
以墨劓	-11.3243
以鬼而禮享之及其	-11.3243
其位高矣高	-11.3243
安沒享人用	-11.3243
寒暑變遷益用増感	-11.3243
山龍華蟲六章	-11.3243
心則存安其榮沒享其祭	-11.3243
故孝行之大莫過尊嚴其父也	-11.3243
敬而能之也故	-11.3243
文王之祭也事死	-11.3243
文王之詩也	-11.3243
明以爲常因地利以行義	-11.3243
皆得其懽心	-11.3243
禮三年之喪三	-11.3243
聞明王孝治以致	-11.3243
蠻夷	-11.3243
行孝奉親之事而立教焉	-11.3243
邦終于	-11.3243
陵上慢下	-11.3243
不順天道則	-11.3243
兆卦也字書皆作垗廣韻云垗葬也	-11.3243
嚴父嚴兄	-11.3243
太羮	-11.3243
常須戒愼	-11.3243
所不慮而知者其良知也	-11.3243
有本父者生之本也	-11.3243
此聖人所以	-11.3243
稟天地之性	-11.3243
者也義者宜此者也忠者中此者也信者	-11.3243
貿	-11.3243
䰟	-11.3243
世祖章皇帝	-11.3243
之者謂天子有	-11.3243
五虐之	-11.3243
人無貴賤	-11.3243
以事上而不可悖亂在	-11.3243
君子必自反也曰我必	-11.3243
嚴刑肅	-11.3243
孝之大者也	-11.3243
愛君之志恒藏心中無日暫忘也	-11.3243
愛君雖離左右不謂為遠	-11.3243
所同具	-11.3243
淑常六	-11.3243
維其盡之	-11.3243
舉善而敎不能	-11.3243
行者弗敢過	-11.3243
跂	-11.3243
遐遠也義取臣心	-11.3243
配於天地矣	-11.3243
說文云	-11.3244
康王	-11.3244
愷樂也悌易	-11.3244
三年喪畢遷主	-11.3244
章雖通貴賤	-11.3244
其哭也不偯氣竭而盡不能委曲	-11.3244
不期侈	-11.3244
師尹周太師尹氏	-11.3244
親故孝為徳之至	-11.3244
「	-11.3244
嬰	-11.3244
子曰君子之事上也	-11.3245
孝弟之至通於神明光於四海	-11.3245
走	-11.3245
遐不謂矣	-11.3245
率下下順	-11.3245
天下之至順	-11.3245
屈原	-11.3245
先王有至徳要道	-11.3245
無以加於孝	-11.3245
河間劉炫為之	-11.3245
立愛惟親	-11.3245
義利之本也	-11.3245
郊祀配天宗	-11.3245
知其勞	-11.3245
下擇行行滿	-11.3245
二百里男	-11.3245
府也禮樂	-11.3245
忝厥祖	-11.3245
是以文字訛謬魚魯不辨	-11.3245
百里侯四百里伯三百里子	-11.3245
者此依孔傳也案	-11.3245
也嗟乎	-11.3245
也而非之	-11.3245
人也男者任也	-11.3245
學者所當	-11.3245
所謂古文者亦不全同今不敢從彼改此	-11.3245
拆	-11.3245
改經之漸	-11.3245
武帝末	-11.3245
治國其如	-11.3245
狥	-11.3245
皇矣之	-11.3245
社稷大夫言守	-11.3245
稱子曰者	-11.3245
至富不	-11.3245
趙衰薦郤縠云	-11.3245
一人而彼則千萬人	-11.3245
一物不得其	-11.3245
上敬下懽存	-11.3245
不入公門	-11.3245
之中言行	-11.3245
也敬譲者孝	-11.3245
克予非朕文考有罪惟予小子無良	-11.3245
則熱中	-11.3245
口為言其言也	-11.3245
右傳之二章	-11.3245
君不得於君	-11.3245
如事生	-11.3245
孝者五常之本百行之	-11.3245
守者約而施者博	-11.3245
少則慕父母知好色則慕少艾仕則慕	-11.3245
居高位而不危則不	-11.3245
明𤼵不	-11.3245
朕文考無罪	-11.3245
疾止復	-11.3245
祊	-11.3245
羽籥	-11.3245
者也禮也者	-11.3245
者亦言引詩	-11.3245
而微言絶	-11.3245
聚橡栗藜藿而食之	-11.3245
自有之情非聖人強	-11.3245
藻火粉米黼黻六章繡	-11.3245
視膳	-11.3245
誓曰予克	-11.3245
車徒	-11.3245
門徒	-11.3245
雷電	-11.3245
非予武惟	-11.3245
一家仁一國興仁一家讓一國	-11.3245
上行下效使人	-11.3245
上諸侯以下化而行之	-11.3245
之素安所以	-11.3245
人人盡孝則	-11.3245
以觀風	-11.3245
仲尼孔子字居謂閒居	-11.3245
伏靜	-11.3245
儒官連狀題其章名	-11.3245
光榮其父母	-11.3245
史為書瞽	-11.3245
右傳十五則	-11.3245
喜怒哀	-11.3245
喧	-11.3245
喪親章第十八子曰孝子之喪親也	-11.3245
居喪之禮	-11.3245
張燧	-11.3245
影響	-11.3245
徳者善之	-11.3245
或賜之	-11.3245
投	-11.3245
政入於	-11.3245
文矣文	-11.3245
昆蟲	-11.3245
曰敬之敬之天惟	-11.3245
曰臣聞	-11.3245
曽子問曰	-11.3245
未盡底已私所謂賢者之過	-11.3245
正室守太	-11.3245
沙礫	-11.3245
混	-11.3245
烹	-11.3245
物地以隂成萬物天地	-11.3245
班氏	-11.3245
用廣發揮	-11.3245
留	-11.3245
百祿	-11.3245
盆	-11.3245
盡人之性則能盡物之性	-11.3245
知愛知敬	-11.3245
竄	-11.3245
素車	-11.3245
組	-11.3245
縟節	-11.3245
縦	-11.3245
羽自立	-11.3245
老者得養死者得藏是以民不	-11.3245
者親之主也敢不敬與子	-11.3245
而患不均	-11.3245
腎	-11.3245
舉其要而言	-11.3245
蒼頡	-11.3245
諫大夫䂓誨士傳	-11.3245
適饌省醴	-11.3245
雖不足以	-11.3245
不從生生	-11.3245
不慎其心	-11.3245
不敢以貴富	-11.3245
不為之加	-11.3245
不臣不仕	-11.3245
之仇如之何曰	-11.3245
之子不敢自稱曰	-11.3245
人之大變也	-11.3245
伯舅	-11.3245
使教民播種百	-11.3245
先觀容	-11.3245
兩儀	-11.3245
其親者矣天子	-11.3245
内和理	-11.3245
刑之所能禁	-11.3245
剭	-11.3245
即上文所謂	-11.3245
去貪	-11.3245
叔舅	-11.3245
可揀擇之	-11.3245
君其國故稱曰后稷	-11.3245
唾洟	-11.3245
四十五度之	-11.3245
垢和灰請	-11.3245
宛言而	-11.3245
小子識之	-11.3245
嶽鎮河海	-11.3245
後世法之	-11.3245
悠	-11.3245
慎行其身不遺父母惡名可謂能終	-11.3245
所以明貴賤	-11.3245
故曰行在孝經	-11.3245
敬冠事	-11.3245
敬親而後敬人	-11.3245
既歾	-11.3245
春秋與紀	-11.3245
比黨	-11.3245
汰	-11.3245
漢文之時	-11.3245
父異姓天子謂之	-11.3245
畏之見逐智之見殺	-11.3245
絕	-11.3245
經孔子裁定	-11.3245
耻有其	-11.3245
自處太重	-11.3245
若此則可謂	-11.3245
行東行者弗敢過欲言政者君就之可也	-11.3245
親親而仁民仁民而愛物	-11.3245
言行皆滿於天下	-11.3245
足以及物而	-11.3245
距二其行必	-11.3245
速反而虞	-11.3245
頟	-11.3245
食養隂氣也故	-11.3245
飲養陽氣	-11.3245
飾次交言辭後	-11.3245
𤣥衣纁裳	-11.3245
天子受命於天	-11.3245
桓	-11.3245
何日忘之	-11.3245
右傳之十一章	-11.3245
十六年	-11.3245
在醜	-11.3245
而述脩	-11.3245
整	-11.3246
宅墓穴	-11.3246
則使人執	-11.3246
子曰昔者明王以孝治天下也	-11.3246
民之從於	-11.3246
食旨不甘	-11.3246
幼之道順君人之化理	-11.3246
不舉火	-11.3246
性生也言	-11.3246
聞孔子之言	-11.3247
居則致其敬	-11.3247
畢次明	-11.3247
世而名不	-11.3247
詩書義之	-11.3247
但經所謂	-11.3247
匹夫匹婦	-11.3247
盡其憂	-11.3247
筋力	-11.3247
終身之憂	-11.3247
而不仁者也未有孝而不義者也未有孝	-11.3247
而推之與此亦	-11.3247
見君父之過皆不可以苟順而不	-11.3247
之端惡者愛之反慢者敬之反	-11.3247
也然則明堂之	-11.3247
四方之人	-11.3247
存殁頓異	-11.3247
尊故標居其首	-11.3247
山之上深澤之	-11.3247
德敎加被天下當爲四夷	-11.3247
春秋祭祀以寓時思	-11.3247
父母全而生之己當全	-11.3247
稼以老十室之邑	-11.3247
箕	-11.3247
而後和和而後	-11.3247
臨兆民凛乎若朽索之馭六馬為人上者	-11.3247
興讓一人貪戾一國作亂	-11.3247
華侈	-11.3247
釋立身揚名及士之孝	-11.3247
下而人共守	-11.3247
之於一國	-11.3247
之生成萬物者雖以隂陽之	-11.3247
可不重	-11.3247
壯	-11.3247
天子身率	-11.3247
孔安國蓋約夏殷章服爲說	-11.3247
息而莫能傷	-11.3247
愛與敬父	-11.3247
文盡於此矣所以常乆而不廢也夫有生	-11.3247
是以普天之下	-11.3247
有死有始	-11.3247
棄捐而咸遂其生日以	-11.3247
樂正子春	-11.3247
為之中制中則欲其可繼也繼則欲其	-11.3247
無數後世聖人	-11.3247
無閒字	-11.3247
物無以生	-11.3247
祁奚	-11.3247
移忠移	-11.3247
羽毛	-11.3247
者此竝	-11.3247
者無他	-11.3247
逢	-11.3247
釋名云	-11.3247
不以死傷生毁不滅性	-11.3247
之以敬行之以	-11.3247
之服饘粥之食顔色之	-11.3247
人是心也	-11.3247
傳於後代	-11.3247
右傳十四則	-11.3247
天於南郊故曰郊	-11.3247
安於彼而安於此非聖人	-11.3247
宗祀謂宗廟之祭也	-11.3247
居之不能無	-11.3247
左右前後	-11.3247
帝也周公之所以	-11.3247
愛親而後愛	-11.3247
易曰乾天也故稱	-11.3247
曰士者事也	-11.3247
正也猶生長于	-11.3247
立天之心	-11.3247
聖祖仁皇帝纘	-11.3247
至此方言出一孝字	-11.3247
誦堯之言行	-11.3247
郊祀祭天則以	-11.3247
之所法則也	-11.3247
同離令並去	-11.3247
助其奉飬	-11.3247
不生禍亂	-11.3247
周之三公	-11.3247
則四海之大	-11.3247
當念其	-11.3247
耗	-11.3247
蟲	-11.3247
德敎加於百姓	-11.3247
服飾	-11.3247
以長守此富也	-11.3247
以長守此貴也處	-11.3247
失其財之	-11.3247
有其社稷而和調其	-11.3247
謹守法度則財雖	-11.3247
俯仰	-11.3247
右傳之七章	-11.3247
君子之事親孝故忠可移於君	-11.3248
六藝	-11.3248
翰	-11.3248
之教刑儀刑也	-11.3248
取其敬合愛	-11.3248
拊心也踊	-11.3248
與敬而兼之	-11.3248
雖未嘗不愛	-11.3248
沐	-11.3248
鸞	-11.3248
緝	-11.3248
餙	-11.3248
駿奔	-11.3248
雩	-11.3248
璧	-11.3248
嗜慾	-11.3248
服公子	-11.3248
之也親之也	-11.3248
自上世	-11.3248
粕	-11.3248
居不主奥坐不中席	-11.3248
礿禘嘗烝	-11.3248
私門	-11.3248
也爾雅釋	-11.3248
唐𤣥宗皇帝	-11.3248
字愛於	-11.3248
小雅小旻之	-11.3248
年者年之貴乎天下久矣次乎事親者也	-11.3248
朕嘗三復斯言景行先哲	-11.3248
注言教至	-11.3248
皆稱之	-11.3248
諸侯各脩其職來助祭	-11.3248
㢲	-11.3248
主人筵几於廟	-11.3248
之精義	-11.3248
也劉炫以為	-11.3248
也明乎郊社之	-11.3248
人謂社稷以此安	-11.3248
古文稱孔安國	-11.3248
吾之一身父母生之本同體也	-11.3248
天子之志也	-11.3248
富是所	-11.3248
富與貴	-11.3248
念痛	-11.3248
惟人為貴	-11.3248
愛之况	-11.3248
於門外	-11.3248
柰何不敬	-11.3248
每嵗	-11.3248
煇胞翟閽	-11.3248
異同則相親異則相敬樂勝則流	-11.3248
禮記文王世子云	-11.3248
聲為哭	-11.3248
自周始	-11.3248
譴	-11.3248
貌為禮其禮也	-11.3248
馘	-11.3248
㓕性此聖人之政	-11.3248
一樹殺一獸不以其時非孝也	-11.3248
上同然無	-11.3248
不可斯須	-11.3248
不毁傷其身以不毁	-11.3248
不肅而成不嚴而治	-11.3248
不致毁六十	-11.3248
丙申	-11.3248
交應	-11.3248
則上章云	-11.3248
受大禄	-11.3248
古者𦵏之中野厚衣之以薪喪期	-11.3248
可乆也措之天	-11.3248
各敬爾	-11.3248
君享其安	-11.3248
咸丘䝉	-11.3248
因天之性順人之情而利導之教父以慈	-11.3248
天以陽生	-11.3248
夫是則庶乎	-11.3248
好惡喜怒	-11.3248
如慕其反也如疑	-11.3248
孝經一十八章	-11.3248
小樂正	-11.3248
已徹而退	-11.3248
帥天下以暴而民從之其所令反	-11.3248
徙	-11.3248
心和氣和而天地之	-11.3248
惟父然也	-11.3248
感時之變	-11.3248
拓	-11.3248
攀引	-11.3248
故徳教成而政令行	-11.3248
敬齊之色	-11.3248
朋友之交	-11.3248
木以時伐焉禽獸以時殺焉	-11.3248
本亂而末治者否矣	-11.3248
正義曰此依韋注也	-11.3248
民人蓋諸侯之孝	-11.3248
氣然氣以成形而理亦賦	-11.3248
滛	-11.3248
無他亦曰敬而已	-11.3248
無諫也	-11.3248
然友反命	-11.3248
父母全而生之子	-11.3248
百川	-11.3248
瞍底豫而天下之為父子者定	-11.3248
祝史之事也	-11.3248
穆王訓夏	-11.3248
維仲山甫舉之	-11.3248
而庶人獨	-11.3248
而瞽瞍底豫瞽瞍底豫而天下化瞽	-11.3248
與平聲爭諍	-11.3248
興秩	-11.3248
衣食既足	-11.3248
複	-11.3248
言官師相䂓工執藝事	-11.3248
言春秋則包四時矣	-11.3248
言能敬事宗廟則	-11.3248
請業則起	-11.3248
賂	-11.3248
身不能居仁	-11.3248
軸	-11.3248
迎牲	-11.3248
閽	-11.3248
驕亂争	-11.3248
一出言不敢忘父母	-11.3248
一本之說	-11.3248
不讎其君	-11.3248
不足以治	-11.3248
世宗憲皇帝	-11.3248
之志在春秋崇人倫之行在孝經	-11.3248
人因之以施	-11.3248
介山之推	-11.3248
以君之喪而除父	-11.3248
以寡人為	-11.3248
以正致諫	-11.3248
入天子之國曰	-11.3248
其往送也	-11.3248
初除挾書之律	-11.3248
可肚裏先横却一個	-11.3248
吹	-11.3248
喪亾	-11.3248
姬	-11.3248
子曰武王周公	-11.3248
孔佚	-11.3248
孔子乃假立曾子	-11.3248
孝經注疏序考證	-11.3248
帝則以文王配	-11.3248
庶姓	-11.3248
庶民安	-11.3248
強之也三日而食三年而除	-11.3248
慥	-11.3248
戚哭泣之哀皆出於人情不	-11.3248
所以致敬也	-11.3248
所當然皆來助	-11.3248
接於人	-11.3248
於孝則非	-11.3248
是知孝者德之本歟	-11.3248
曰善哉	-11.3248
服堯之服	-11.3248
栢槨	-11.3248
根牟子	-11.3248
濟其志	-11.3248
無自而生焉	-11.3248
百姓之病	-11.3248
百姓之衆	-11.3248
瞽宗	-11.3248
祭敬供郊廟之	-11.3248
繼髙祖者也然則	-11.3248
而不倦	-11.3248
而後知所以為人	-11.3248
臨尸	-11.3248
自毳冕	-11.3248
色容不	-11.3248
莫嚴於	-11.3248
萬物本乎天人本乎祖	-11.3248
蒐	-11.3248
託諸空	-11.3248
詩云此大雅蕩	-11.3248
請益問答之	-11.3248
諫大夫翼奉安昌侯張禹傳之各自名家	-11.3248
諫而不逆	-11.3248
豈為之乎	-11.3248
貴有徳貴貴貴老敬長	-11.3248
足以勝之	-11.3248
通暢經	-11.3248
鉤命決云孔子曰	-11.3248
食嘗無樂	-11.3248
與平聲	-11.3248
刑之屬三千	-11.3248
妻子臣妾猶百姓徒役	-11.3248
薦而不祭又非士	-11.3248
費用約儉謂之制	-11.3248
其祿位永守其祭	-11.3249
具皆也爾女也	-11.3249
移事父之孝以事君	-11.3249
詩大雅泂酌之篇	-11.3249
取事父之道以	-11.3249
充滿矣若	-11.3249
之利謂土地	-11.3249
刑法也君行博愛廣敬之	-11.3249
則身雖居	-11.3249
卜其宅兆	-11.3249
徳化無有思而不服	-11.3249
愛親必自愛身始	-11.3249
所不甘	-11.3249
生植農桑之	-11.3249
身不能及於孝	-11.3249
也天以生覆	-11.3249
像	-11.3249
措置也	-11.3249
祀無豐于	-11.3249
親愛之心	-11.3249
行孔	-11.3249
而利導	-11.3249
旒	-11.3249
勲	-11.3249
羊豕三牲之養	-11.3249
親得安坐而食乎故曰猶為	-11.3249
躍	-11.3249
雖未嘗不敬	-11.3249
皮	-11.3249
身體髮膚	-11.3249
當不義則爭之從父之令又焉得	-11.325
積累之艱	-11.325
覲	-11.325
方始發	-11.325
之是無親也	-11.325
善事父母為孝而敢非	-11.325
嚴肅而成理也	-11.325
毎	-11.325
聖人制作禮	-11.325
貝	-11.325
不敢惡慢於天下	-11.325
事君所事者惟父母	-11.325
以日易月	-11.325
免於患	-11.325
各得懽心	-11.325
夫亦其子	-11.325
容止威儀也必合䂓矩則可觀也	-11.325
樂者為同禮者為	-11.325
猛	-11.325
自天子達於庶人	-11.325
要道當自	-11.325
也節用者省節	-11.325
也謹身者謹修其身不妄	-11.325
亦不免有離析増加之失顧自	-11.325
光顯其父母	-11.325
分别五土視其高下各盡所宜此分	-11.325
國以孝治其	-11.325
多傅㑹而經文	-11.325
天地生人	-11.325
孟子曰天下大	-11.325
家至日見	-11.325
庶民之愚	-11.325
情莫不愛其親愛之篤者莫若	-11.325
愛而不敢有所惡於人敬其	-11.325
植成遂	-11.325
死者非生則不藏人	-11.325
漢以來諸儒傳誦	-11.325
睦以致太平則災害禍亂無因而起	-11.325
終日言不在尤之	-11.325
而不敢有所慢於人	-11.325
而歸已猶草芥也惟舜為然	-11.325
親猶愛也膝下謂	-11.325
身以敬親敬親以敬天	-11.325
道使人皆不慢惡其親則	-11.325
順此以施政敎則不待嚴肅而成理也	-11.325
饘酏酒醴芼	-11.325
鰥夫寡婦	-11.325
鳥獸魚鼈咸若	-11.325
㒺	-11.325
不可以不爭爭	-11.325
乎母父有天道	-11.325
事父孝故事天明	-11.325
亦無所不通矣	-11.325
則口無	-11.325
右經十	-11.325
善則稱君過則稱	-11.325
在則禮然然而衆	-11.325
壽	-11.325
大夫有大夫之	-11.325
夫子所以首稱明王而	-11.325
復申言聖人教人以孝之故	-11.325
心和而王業	-11.325
愛出於内	-11.325
慈為愛體	-11.325
曰孝而已孝	-11.325
有師之嚴	-11.325
栗飴蜜以甘之	-11.325
横逆猶是也	-11.325
此法之所以不廢	-11.325
殘缺	-11.325
王則孝道至矣	-11.325
皆法言	-11.325
盡孝之大而	-11.325
社稷靈長而宗廟奠安	-11.325
秫唯所欲棗	-11.325
經文以便誦習	-11.325
而備矣孝子事	-11.325
菽麥蕡稻黍	-11.325
謂其文不	-11.325
顛連無告	-11.325
闋	-11.325
寅	-11.325
日星	-11.325
在一國臣民之上	-11.325
然後乃能	-11.325
音符	-11.325
人之政因人之情	-11.325
常念爾之先祖	-11.325
章繡於裳	-11.325
曰夫孝徳之本	-11.325
之經地	-11.3251
義曰此依鄭注也	-11.3251
要平聲	-11.3251
言其細	-11.3251
在上在一國臣民之上驕矜肆	-11.3251
未有此理	-11.3251
財用不妄	-11.3251
費也庶人未受命	-11.3251
雖日具牛	-11.3251
故能成其徳教而行政令	-11.3251
敕	-11.3251
稻粱器	-11.3251
也未有孝	-11.3251
閭	-11.3251
盡矣養生送死	-11.3251
而民莫不	-11.3251
有覺徳行四國順之	-11.3251
悲哀在	-11.3251
俎豆	-11.3251
犯分而致刑在醜而爭則	-11.3251
釁而召兵	-11.3251
千八百	-11.3251
廣要道章	-11.3251
失其富貴而不能保	-11.3251
上正身以	-11.3251
之常也義者	-11.3251
事未見故	-11.3251
孔鄭二家	-11.3251
孝治章云	-11.3251
杞	-11.3251
男踊女擗	-11.3251
參直養者也安能	-11.3251
天父君師	-11.3251
好事者	-11.3251
孝治聖治	-11.3251
正義曰此章首	-11.3251
覇	-11.3251
一國之長也子者字	-11.3251
五土之高	-11.3251
伯者長也	-11.3251
侯者候也	-11.3251
各擅	-11.3251
夫婦之别	-11.3251
見不必曰	-11.3251
之敬者終有限	-11.3251
事兄則悌以	-11.3251
仁與義	-11.3251
其本性立教	-11.3251
告捷	-11.3251
固所自盡	-11.3251
堂則親之而曰	-11.3251
居即坐也與上句義重禮小戴	-11.3251
撫㓜則慈	-11.3251
於君則爲忠矣	-11.3251
旣没	-11.3251
比於不慈不孝	-11.3251
沽	-11.3251
溢音逸	-11.3251
無以發端	-11.3251
疏食水飲	-11.3251
秋大享	-11.3251
縱	-11.3251
而能如此乎	-11.3251
藝文志孝經古孔氏一篇	-11.3251
誇	-11.3251
鉤命決	-11.3251
也注移事至	-11.3251
作參音同義别	-11.3251
其將葬	-11.3251
典籍	-11.3251
可聚也故	-11.3251
同而化	-11.3251
命不易哉無曰髙髙	-11.3251
垂範	-11.3251
如養致其樂恭敬如居致其	-11.3251
子從父之令夫子以令有善惡不	-11.3251
孝悌之至通於神明光于四海	-11.3251
季秋於	-11.3251
平章百姓	-11.3251
庶子庶	-11.3251
後也敢不敬與	-11.3251
得天之性	-11.3251
應感章第十	-11.3251
敬身之謂也敬	-11.3251
方曰簠圓曰	-11.3251
於其所尊	-11.3251
春生夏長秋收冬蔵	-11.3251
是數者	-11.3251
炎	-11.3251
為慈愛得地之性	-11.3251
猶修持其身謹愼其	-11.3251
生平則無悖逆之	-11.3251
禍亂如賊君弑父	-11.3251
者非壯則不長老者非少則不養	-11.3251
舉事順時	-11.3251
藏身之固也	-11.3251
補綴	-11.3251
説不通	-11.3251
身見愛敬	-11.3251
陟	-11.3251
一舉足不敢忘父母	-11.3251
七世之廟	-11.3251
三百餘年	-11.3251
上祀四世與	-11.3251
下祀四世	-11.3251
不分經傳	-11.3251
不可以一日廢也夫	-11.3251
不掩羣	-11.3251
且傳以通經爲義	-11.3251
二曾子敢問章分	-11.3251
以父之親	-11.3251
仿	-11.3251
侮聖人之言	-11.3251
其所好而民不從是故君子有諸	-11.3251
其禮益	-11.3251
冏	-11.3251
冠婚	-11.3251
則不臣也	-11.3251
則是未嘗有	-11.3251
則皆天也天	-11.3251
升中于天	-11.3251
卜商	-11.3251
及乎仁義旣有親譽益著	-11.3251
可使為亂	-11.3251
君子也者人之成名也百姓歸之名謂之	-11.3251
哀公十四年	-11.3251
四時為柄	-11.3251
土神	-11.3251
地之與天不相敵也	-11.3251
大報本反始也	-11.3251
大學傳曰	-11.3251
天子視學世子齒胄	-11.3251
子之始存於	-11.3251
子門人記錄	-11.3251
孝者畜也	-11.3251
孟仲子	-11.3251
孫卿子	-11.3251
宜乎社造乎禰	-11.3251
居下位	-11.3251
帛妙子	-11.3251
庻人章第六	-11.3251
強民者也	-11.3251
忝辱也所生	-11.3251
恠	-11.3251
患爲禍	-11.3251
所過山川亦	-11.3251
教胄子	-11.3251
日星為紀	-11.3251
曾子之自救	-11.3251
月以為量	-11.3251
有不先命於	-11.3251
未為不道也	-11.3251
樂也有親可	-11.3251
欠	-11.3251
氏尊學	-11.3251
民而無不	-11.3251
洫	-11.3251
為行始	-11.3251
無窮而立經陳紀制禮之節	-11.3251
熊禾序	-11.3251
理天下也	-11.3251
田祿者	-11.3251
男女之别	-11.3251
疑丞	-11.3251
白虎通云王者父天	-11.3251
百世不遷者也	-11.3251
稱其信	-11.3251
穆帝	-11.3251
義以必當爲主	-11.3251
者其弊	-11.3251
而不畏也狎	-11.3251
而人之行也	-11.3251
而出視朝命祝史告於	-11.3251
而遂志	-11.3251
膋	-11.3251
臣妾妻子	-11.3251
舎奠	-11.3251
芟	-11.3251
菜	-11.3251
萇	-11.3251
虞帝之	-11.3251
行不翔言不惰	-11.3251
謡	-11.3251
資於天地得其	-11.3251
賛美其孝	-11.3251
轅	-11.3251
迎精而	-11.3251
銅	-11.3251
閒居侍坐	-11.3251
闗雎	-11.3251
點	-11.3251
􁄕	-11.3251
躋	-11.3251
辯	-11.3251
驕奢	-11.3252
敬君同	-11.3252
在下位	-11.3252
士言祭祀各以其	-11.3252
慎終之禮也為廟	-11.3252
上治民	-11.3252
彜	-11.3252
傚	-11.3252
三者不除雖日用三牲之養猶	-11.3252
神明彰	-11.3252
塾	-11.3252
度周旋可則容止可觀作	-11.3252
爵禄而守其祭祀	-11.3252
使其文意分斷間隔而讀者不復得見聖	-11.3252
爲先揚名爲後	-11.3252
貴是所	-11.3252
身體髪膚受之父母不敢毁傷孝之始也	-11.3252
鹽梅之	-11.3252
之故非法	-11.3252
事可法德行可象聲氣可樂	-11.3252
令儀令色小心	-11.3252
則不言言則必合	-11.3252
右傳之四章	-11.3252
族黨	-11.3252
服法服道法言行徳行三者	-11.3252
法非道則不行行則必中	-11.3252
述諫諍之事	-11.3252
父天母地	-11.3252
故能成其德	-11.3252
三句	-11.3252
在上不驕	-11.3252
則親安之沒	-11.3253
可盡從乃	-11.3253
如此故其生而	-11.3253
必合規矩則可觀	-11.3253
爲下而亂則刑在醜而爭則兵	-11.3253
處衆而不可爭競	-11.3253
畝	-11.3253
詩大雅	-11.3253
不乗	-11.3253
孝者徳之本教之所由生	-11.3253
不敢毀傷	-11.3253
軰	-11.3253
夫聖人之徳又	-11.3253
在天為	-11.3253
大夫以循法	-11.3253
也以天子之尊	-11.3253
仰頼	-11.3253
兄弟以御	-11.3253
戰戰兢兢	-11.3253
雖五孝之用則别而百行之源不殊	-11.3253
剕罰之屬五百宫罰之屬三百大	-11.3253
案毛詩傳	-11.3253
而後禮樂興	-11.3253
而播種之	-11.3253
而致力	-11.3253
言富貴常在其身則長爲社稷之	-11.3253
上安其君	-11.3253
上有此字	-11.3253
下治其民則莫有善於禮	-11.3253
不亦宜	-11.3253
不過啓其良心	-11.3253
之至莫大乎	-11.3253
争競	-11.3253
事之以哀戚生	-11.3253
以附此而不知其非所以為天下之通訓	-11.3253
則讇也	-11.3253
古文且附上章或自别為一章可也	-11.3253
周於椁	-11.3253
善皆在於凶徳	-11.3253
天子卿大夫有善	-11.3253
年為制者使人知有終竟之限也	-11.3253
廟以奉其先祖之祭	-11.3253
意亦重複不當通為一章此語當依	-11.3253
愛之心生於孩幼比及年長漸識義方則	-11.3253
故今文連下二章為一章但下章之首語	-11.3253
日加尊嚴能致敬於父母也	-11.3253
有善於樂	-11.3253
服非法	-11.3253
毛傳云	-11.3253
洋洋如在	-11.3253
涵	-11.3253
烝烝	-11.3253
無有遺忘其親者	-11.3253
積於中則	-11.3253
等夷	-11.3253
衾被	-11.3253
裂	-11.3253
視傚	-11.3253
親切但與上文不屬而與下章相近	-11.3253
言君子之教人以孝也非必家至	-11.3253
説敬其君則臣説	-11.3253
諸侯士庶人有善	-11.3253
謂之有威儀也	-11.3253
贖刑	-11.3253
送形而往	-11.3253
長守其宗	-11.3253
離析	-11.3253
不惡而嚴	-11.3253
不愛敬其親而先	-11.3253
乞言合語	-11.3253
倉	-11.3253
其義為大於此	-11.3253
千七百七十三	-11.3253
君子之子是使其親	-11.3253
喪多而服五	-11.3253
喪與其易也	-11.3253
尊敬其父者至矣極矣不可以復加矣然	-11.3253
愉色有愉色	-11.3253
敬生於心恭為敬	-11.3253
有深愛者必有和氣	-11.3253
桃	-11.3253
殊塗而	-11.3253
焉學之為	-11.3253
無可擇之言行於身者	-11.3253
累功	-11.3253
者按禮記内則	-11.3253
苴杖	-11.3253
華蟲火宗	-11.3253
親者必能	-11.3253
諸侯者各以其職	-11.3253
謂父母也義取早起	-11.3253
配天而又	-11.3253
靜而思道也	-11.3253
頗近之矣	-11.3253
鳯	-11.3253
齒於學	-11.3253
事兄弟故順可移於長	-11.3253
不問可否而悉	-11.3253
天下有道	-11.3253
生事愛敬死事哀戚	-11.3253
聲譽	-11.3253
王有聲	-11.3253
同歸于孝	-11.3253
此又合始終而言之以結一書之㫖	-11.3253
致敬於宗廟	-11.3253
種	-11.3253
死傷生	-11.3253
一時之言無可疑者而後人	-11.3254
其首尾相應次第相承文勢連屬	-11.3254
大義為害不細故今定此六七章者合為	-11.3254
子曰者二引書者一引詩者四凡六	-11.3254
節愼行禮法謂之	-11.3254
辟之罰其屬二百五	-11.3254
右傳之九章	-11.3254
毁謂虧辱傷謂	-11.3254
高下燥濕	-11.3254
士言祭祀	-11.3254
天地明察神明彰	-11.3254
有父之尊有母之親	-11.3254
其教不肅而成其政不嚴而治	-11.3254
天子諸侯卿大夫皆以孝治天下國	-11.3254
居上而驕則失道而取亡	-11.3254
廣至德章第十	-11.3254
於客位	-11.3254
逾	-11.3254
耤	-11.3254
揚名於後世	-11.3254
茅	-11.3254
繇此矣	-11.3254
怛	-11.3254
言斯可道	-11.3254
明堂之位	-11.3254
河間王所得顔芝本	-11.3254
日不食過三日則傷生	-11.3254
君命婦	-11.3254
富貴而輕	-11.3254
悼公	-11.3254
所以教敬愛	-11.3254
有争臣	-11.3254
筵	-11.3254
不聽樂	-11.3254
則嚴威	-11.3254
君使士	-11.3254
安國之本亡	-11.3254
每讀	-11.3254
法天明	-11.3254
無閒坐二字則	-11.3254
畫圓口誦目數	-11.3254
上帝即天也	-11.3254
不得其懽心	-11.3254
不敢忘父母	-11.3254
之不以文害意焉可也其曰故親生之膝	-11.3254
之而後退	-11.3254
也上言神明	-11.3254
事宗廟能盡敬則祖考來	-11.3254
于文武	-11.3254
仲尼燕居	-11.3254
傳顧未敢耳	-11.3254
其天性非	-11.3254
凟	-11.3254
反陷於大不孝矣作傳者但見其論孝	-11.3254
士庶人之禮也	-11.3254
尸為棺周棺為椁衣謂歛衣衾被也舉謂	-11.3254
慎始而	-11.3254
所以異於人者以其存心也君子	-11.3254
按説文云	-11.3254
故不殺牛大夫無故不殺羊士無故不殺	-11.3254
曰堯舜禹湯	-11.3254
殺草木	-11.3254
犬豕	-11.3254
筭	-11.3254
織	-11.3254
聖人立制	-11.3254
至即所以為道之要順	-11.3254
蒲	-11.3254
言不過辭動不過則	-11.3254
言必守法行必遵道	-11.3254
說文曰	-11.3254
變易其俗則莫	-11.3254
郊則尊之而	-11.3254
不教則	-11.3254
不自知也	-11.3254
之弗得見也是故衣足以飾身棺周於衣	-11.3254
也商頌曰	-11.3254
也尊有𤣥酒	-11.3254
也盡此三道者	-11.3254
事父之道兼	-11.3254
事親有隐而無犯	-11.3254
人為萬物之靈	-11.3254
仁人孝子愛親之心雖	-11.3254
仰慕	-11.3254
倚廬	-11.3254
先取其	-11.3254
先資其言	-11.3254
其身不辱	-11.3254
凰	-11.3254
刑敝	-11.3254
則天下之爲	-11.3254
則無以見	-11.3254
加於父兄	-11.3254
又案司服	-11.3254
取其語以	-11.3254
受命於髙祖	-11.3254
可也夫子	-11.3254
吉甫	-11.3254
君之喪服除而	-11.3254
君皮弁素積	-11.3254
吾道一	-11.3254
周公成文武之徳追王太王王季	-11.3254
命國家五官	-11.3254
執主器	-11.3254
墳墓	-11.3254
多而刑五	-11.3254
天地參為三才	-11.3254
天子設四學當入學而太子齒	-11.3254
夾氏	-11.3254
奴婢	-11.3254
字或作	-11.3254
孝子將祭	-11.3254
孝矣乎	-11.3254
孝經述註一卷	-11.3254
孝莫大于嚴父嚴	-11.3254
孩幼之時也言親	-11.3254
尊無與對而能以已之父與之	-11.3254
尊然後兼天下而有之	-11.3254
少連大連	-11.3254
廣至徳之義	-11.3254
愛敬哀慼孝	-11.3254
慎始敬終	-11.3254
授卜商傳至大毛公名亨	-11.3254
放於日月	-11.3254
敬其父尊敬其父者亦無所不至而莫大	-11.3254
敬敷五	-11.3254
明試	-11.3254
昏姻之禮	-11.3254
昔者周公攝政踐阼而治抗世子法於伯	-11.3254
昔者天子諸侯必有	-11.3254
是以四海之內	-11.3254
曰柰何去	-11.3254
有貴者以齒	-11.3254
樂闋	-11.3254
此名而孝經	-11.3254
死生之義備矣	-11.3254
死皆虧孝道故聖人制禮施	-11.3254
殺六畜不當及	-11.3254
毛詩自夫子	-11.3254
毛詩韓詩	-11.3254
火餘	-11.3254
爭鬭之	-11.3254
牷	-11.3254
甘雨	-11.3254
生愛敬愛	-11.3254
疏食飲水	-11.3254
痛疾	-11.3254
盧	-11.3254
神氣之易感也	-11.3254
禮主敬	-11.3254
禽所以善成王也	-11.3254
立極之統無以常其	-11.3254
緯書	-11.3254
者守門	-11.3254
而有惡慢	-11.3254
而自化	-11.3254
自分經傳	-11.3254
自是天子不	-11.3254
自獻其身	-11.3254
親又施德敎於人使人皆	-11.3254
覺大也義取天子有大德	-11.3254
詬朱呉	-11.3254
諱改	-11.3254
諸侯待於	-11.3254
負劍辟咡	-11.3254
跛倚	-11.3254
身為王者不禰其父	-11.3254
逓	-11.3254
邪音耶	-11.3254
長短大小	-11.3254
隂陽四時	-11.3254
靖共爾位	-11.3254
鞶	-11.3254
風俗通	-11.3254
麟	-11.3254
逐	-11.3255
乾隆四十六年	-11.3255
章第十一	-11.3255
干犯	-11.3255
氣屈而歸也	-11.3255
梓	-11.3255
則九族	-11.3255
歠粥	-11.3255
死無憾	-11.3255
民用和睦	-11.3255
姻	-11.3255
經文之正意	-11.3255
䘮服四制	-11.3255
此六者皆孝子哀	-11.3255
蓬	-11.3255
身體髮膚受之父母	-11.3255
沐浴	-11.3256
以下别為一章	-11.3256
籥	-11.3256
盈溢	-11.3256
以孝所以敬天下之爲人父者也	-11.3256
以悌所以敬天下之爲人兄者也	-11.3256
下則當恭	-11.3256
揆	-11.3256
黼	-11.3256
不敢不勉	-11.3256
妻子家之貴者	-11.3256
主而人自和平也	-11.3256
忠于君	-11.3256
伊尹	-11.3256
力故云不敢失也	-11.3256
不敢惡于人	-11.3256
其道光明	-11.3256
為天下蒼生之父母也	-11.3256
且夫子談經志取垂訓	-11.3256
滿而不溢則不	-11.3256
聖人者法之所從出也而敢於非	-11.3256
警戒之	-11.3256
身恭謹則逺恥辱用節省	-11.3256
不害理	-11.3256
以行化	-11.3256
因心而行	-11.3256
夕月	-11.3256
失且其下文語已更端無所隔礙故今且	-11.3256
得仍舊耳	-11.3256
故可尊	-11.3256
格享於克誠故曰著也	-11.3256
父子君臣夫婦	-11.3256
父謂諸父兄謂諸兄皆祖考之	-11.3256
經以孝而和此以和而孝也引詩	-11.3256
不孝乃是大亂之道	-11.3256
不敬何以	-11.3256
不違正道	-11.3256
主于愛而愛莫切于愛親故	-11.3256
也親則父也尊則君也有父之親有君之	-11.3256
人也我亦人也舜	-11.3256
以人之行言之則	-11.3256
使之與成王居欲令成王之知父子君臣	-11.3256
倫也父子主恩君臣主敬	-11.3256
先君始受命	-11.3256
内則父子外則君臣人	-11.3256
則一身四體舉	-11.3256
右傳之五章	-11.3256
右傳之六章	-11.3256
各率其	-11.3256
后稷名棄	-11.3256
嘆美	-11.3256
夜寐無辱其親也	-11.3256
大利之	-11.3256
天性然也	-11.3256
子語然於文理無害引詩亦足以	-11.3256
封於邰	-11.3256
己著録	-11.3256
明王明哲之君遺忽忘也小國之臣謂土	-11.3256
明項霦撰	-11.3256
沮	-11.3256
注言行至	-11.3256
無忘也爾雅云勿念也	-11.3256
無憂享	-11.3256
義裁制	-11.3256
聚順以為	-11.3256
舉小以見大耳百姓	-11.3256
萃萬國之懽心	-11.3256
行之事可	-11.3256
補過亦左傳所載士貞	-11.3256
言人有上三惡豈惟	-11.3256
謂沒後奉祀安者其心	-11.3256
逺盖愛君一念	-11.3256
釋奠于先	-11.3256
陳其簠簋而哀慼之	-11.3256
順徳順道	-11.3256
黜	-11.3256
𤼵明移孝事君之意今並存之	-11.3256
黎	-11.3256
長守貴也滿而不溢所以長守富也	-11.3256
一飯	-11.3256
人死曰鬼	-11.3256
以養父母日嚴	-11.3256
人之本性	-11.3256
見因天地	-11.3257
佳賣反	-11.3257
向	-11.3257
旋	-11.3257
國之主也	-11.3257
推廣而言	-11.3257
謹身節用以養父母此庻人之孝也	-11.3257
以孝治其國推其愛敬之心以及於國人	-11.3257
以為大者本自有親切處而非此之謂乎	-11.3257
先王上有參字	-11.3257
森	-11.3257
次天子之貴者諸侯	-11.3257
禾黍	-11.3257
親之死而	-11.3257
道也徳也一	-11.3257
妣	-11.3257
次諸侯之貴者	-11.3257
諧	-11.3257
則而象之	-11.3257
曽子曰敢問聖人之徳	-11.3257
狎侮	-11.3257
預	-11.3257
泰折	-11.3257
蠶	-11.3257
彈	-11.3257
央黄	-11.3258
有終有始	-11.3258
必有先也	-11.3258
無差等	-11.3258
無聞焉	-11.3258
愴	-11.3258
皆放此	-11.3258
則周公其人也	-11.3258
言先代聖明之	-11.3258
孝經緯	-11.3258
於臣臣不	-11.3258
曰天下有道則	-11.3258
事死如事生事亡如事存孝之至也	-11.3258
出孔壁	-11.3258
列國皆有社稷其君主而祭之	-11.3258
叛	-11.3258
君能尊諸父先諸兄則長	-11.3258
夫孝始於事親	-11.3258
廣雅云	-11.3258
忠之為用	-11.3258
思而得	-11.3258
有所取之也	-11.3258
狹	-11.3258
畫方右	-11.3258
竭力盡能以	-11.3258
等子男	-11.3258
者比比	-11.3258
不勝喪乃	-11.3258
不容復有毫髪	-11.3258
不待肅而自成其政不待嚴而自治	-11.3258
之可以懽樂	-11.3258
之者至矣	-11.3258
也此言鬼神	-11.3258
也注謂父至	-11.3258
也而敢以孝道	-11.3258
于宗公神罔是怨神罔是	-11.3258
以涖之	-11.3258
再拜稽首	-11.3258
包含	-11.3258
化民成俗	-11.3258
又云善則稱人過則稱己則民	-11.3258
名曑	-11.3258
堯舜之道孝弟而已矣	-11.3258
天子章第二子曰愛親者不敢惡於人	-11.3258
姓言百	-11.3258
婦事舅姑	-11.3258
寒疾痛苛癢而敬抑搔之	-11.3258
意更定一㸃畫	-11.3258
於日三分	-11.3258
正則邪	-11.3258
治民則	-11.3258
濫觴於漢傳之者皆糟粕之餘	-11.3258
異者祇	-11.3258
神祗	-11.3258
絺冕	-11.3258
而後成服	-11.3258
聖人知孝之可以敎人也	-11.3258
肺	-11.3258
膺	-11.3258
舉而措之天下	-11.3258
若必如此而	-11.3258
著録是	-11.3258
言孝之綱領始終	-11.3258
詩曰成王	-11.3258
蹙	-11.3258
辭不得命	-11.3258
達於面目	-11.3258
遷就于其	-11.3258
鄭注論語云	-11.3258
醮	-11.3258
陶匏	-11.3258
隸	-11.3258
雖善而亦非	-11.3258
㫖美也不甘美味故	-11.3258
三宫夫人世婦之吉者	-11.3258
不念先	-11.3258
不敢辱先	-11.3258
不爭則䧟	-11.3258
不衰子	-11.3258
不足而禮有餘也不若禮不足而	-11.3258
世以不仁得之	-11.3258
中候	-11.3258
之心入之矣	-11.3258
之本教曰孝其行	-11.3258
也瘞埋	-11.3258
亂是用	-11.3258
事交乎	-11.3258
事親能孝	-11.3258
人子能事	-11.3258
任不亦重乎	-11.3258
侮慢忽也一命以上	-11.3258
元宗此註	-11.3258
八十者一子不從政九十者其家不從政	-11.3258
八章大傳第	-11.3258
公侯伯子男大國之臣乎以此之故所以	-11.3258
其所由來	-11.3258
其父母者是	-11.3258
凡若是者	-11.3258
出就外傅居宿於外	-11.3258
出雲為	-11.3258
則毛髮肌膚此皆受之	-11.3258
匪猶不	-11.3258
南宫縚	-11.3258
卿大夫當早起夜寐以事天子	-11.3258
古文此章在	-11.3258
可以贊天	-11.3258
右傳七則	-11.3258
各親其親各長	-11.3258
和故百物	-11.3258
哀毁過情滅性而	-11.3258
四月己丑	-11.3258
四輔及三公	-11.3258
因性明教	-11.3258
大也言君	-11.3258
大饗其王事與	-11.3258
寧戚	-11.3258
將繇夫	-11.3258
式路馬	-11.3258
徂	-11.3258
徳配天地	-11.3258
愛敬親死則	-11.3258
推以愛敬他人	-11.3258
於民而民	-11.3258
明孫本	-11.3258
時之氣春	-11.3258
有之乎曰	-11.3258
有始終也	-11.3258
有所託	-11.3258
有終身之憂無一朝之患也乃若所憂則	-11.3258
未免為鄉人也是則可憂也憂之如何如	-11.3258
未施敬於民而民敬	-11.3258
未有諫諍之禮	-11.3258
此得失又如前章所論子産之語今	-11.3258
此非有物力	-11.3258
治一國者	-11.3258
為人子者誠以愛親為心而不	-11.3258
然則仲尼	-11.3258
爲行在	-11.3258
父子有親	-11.3258
玊	-11.3258
發源	-11.3258
石臺孝經	-11.3258
磬	-11.3258
祭之日樂與哀半饗之必樂已至	-11.3258
秦漢	-11.3258
秦禁	-11.3258
移易之	-11.3258
稷牛	-11.3258
穆與太祖之廟而	-11.3258
穰	-11.3258
糟粕	-11.3258
繫於	-11.3258
繭	-11.3258
老而無妻曰鰥老而無夫	-11.3258
者教之所自出也	-11.3258
者皆孝也非孝則	-11.3258
而後得於	-11.3258
而無告者	-11.3258
聖人制刑	-11.3258
聨	-11.3258
臣子之恩	-11.3258
致飾於	-11.3258
舉農畝之事順四	-11.3258
落	-11.3258
行仁之本也	-11.3258
行莫大于孝	-11.3258
衛武公	-11.3258
袒割	-11.3258
言謂禮法之言徳行謂道徳之行	-11.3258
訪	-11.3258
詩大雅蒸民	-11.3258
詮解	-11.3258
諸侯受命於天子	-11.3258
貪榮	-11.3258
賔及介而衆賔	-11.3258
賜圭瓚	-11.3258
載光書	-11.3258
道死則	-11.3258
鄉道而行中道而廢	-11.3258
配太	-11.3258
隐	-11.3258
雲谷山中	-11.3258
靈為畜	-11.3258
其細而言	-11.3258
在位可畏施舍可愛進退可	-11.3258
子有如此愷悌	-11.3258
孝經述註	-11.3258
休徵	-11.3258
所以敬天下之爲人君者也	-11.3258
天子有爭臣七人雖無道不失其天下	-11.3258
之壇壝	-11.3258
傳之十四章	-11.3258
北宫文子之言與此上文既不相應而彼	-11.3258
孝旣畢	-11.3258
父母之遺體	-11.3258
生謂父母存時祭	-11.3258
簡焉今不能知其為何字也悖禮以	-11.3258
絡	-11.3258
菽麥	-11.3258
追遠	-11.3258
遽	-11.3258
於鰥寡之微亦不敢侮慢之而	-11.3258
駿奔走在廟	-11.3258
之行並去聲	-11.3259
思可道	-11.3259
也故以名章	-11.3259
四嶽	-11.3259
承顔順	-11.3259
母其體	-11.3259
舊說	-11.3259
倦	-11.3259
之比矣	-11.3259
提要	-11.3259
霦	-11.3259
矯	-11.3259
稱明王者	-11.3259
人之親則天下之人	-11.3259
臣妾營事産業宜	-11.3259
修持其身謹慎其行	-11.3259
戊午	-11.3259
戚孝行之始終也	-11.3259
移理以	-11.3259
下之後周公始制此禮以尊其父文王也	-11.3259
之尚明	-11.3259
也嚴植之曰	-11.3259
夕奠	-11.3259
尚書大傳	-11.3259
搢	-11.3259
是天地之經義也	-11.3259
有闕失	-11.3259
者人恒愛之敬人者人恒敬之	-11.3259
適父母舅姑之所及所下氣怡聲問衣燠	-11.3259
䟽	-11.3259
一百七十二字	-11.3259
上也進見於君	-11.3259
上加故字今詳此	-11.3259
不事不仁	-11.3259
不及車馬	-11.3259
之字事上相親下	-11.3259
事兄能悌	-11.3259
云衮職	-11.3259
亦猶是矣	-11.3259
以子曰今文則合之而又通上章為一章	-11.3259
伯夷叔齊	-11.3259
傲惰	-11.3259
僨	-11.3259
公賦旣充則私養不闕	-11.3259
其所引詩亦不親切今定先王見教以下	-11.3259
内名自傳於後代	-11.3259
則又當有	-11.3259
則同於	-11.3259
則哀遇祭則嚴	-11.3259
則文以君子之	-11.3259
則樂遇病則	-11.3259
古文析不愛	-11.3259
句刪其字	-11.3259
名章次五孝之	-11.3259
國極言其多	-11.3259
埋	-11.3259
始於事親中於事君	-11.3259
孝而厚於慈	-11.3259
對而不問	-11.3259
常有以致其敬則敬存而心存	-11.3259
干戈	-11.3259
康誥曰	-11.3259
復次第申	-11.3259
徳主愛	-11.3259
托	-11.3259
按文王世	-11.3259
敘述	-11.3259
施於官也	-11.3259
易而求諸難人人親其親長其長而	-11.3259
春耕	-11.3259
曰吾盡吾敬以事吾上故見為忠	-11.3259
有先後非	-11.3259
有功徳於民者	-11.3259
止乎禮義	-11.3259
此章開張一經之宗	-11.3259
求諸逺事在	-11.3259
測	-11.3259
澮	-11.3259
為人心之全徳	-11.3259
無此二子曰字而於不愛其親	-11.3259
父兄君長	-11.3259
盡故使復位而坐	-11.3259
私室則思補其身過	-11.3259
立德行義不違道正故可尊	-11.3259
而順則莫有善於悌	-11.3259
聚天下之懽心	-11.3259
胎教之道	-11.3259
膠	-11.3259
自有一定不可	-11.3259
虞夏商周	-11.3259
行恐辱先祖而毁盛業也	-11.3259
賈之屬皆是也	-11.3259
違此則於德禮為悖也	-11.3259
鄭𤣥云無念	-11.3259
銅鞮伯	-11.3259
言盡愛敬之道然	-11.3259
司馬公曰	-11.3259
能以至徳為教順	-11.3259
為下而亂	-11.3259
於衣衣	-11.326
敢少有毁傷此	-11.326
經而别𤼵一義	-11.326
两	-11.326
但嚴父配天本	-11.326
君者臣之所禀令也而	-11.326
士無臣	-11.326
焉得為孝乎所以結一章之㫖而終是何	-11.326
不敢少失其心	-11.326
亦天分之	-11.326
人子之身氣始	-11.326
善補過也	-11.326
天子袒而割牲執醬而饋	-11.326
父尊子卑	-11.326
禄位與祭祀相	-11.326
諄	-11.326
非先王之法服不敢服惟恐服之	-11.326
晝	-11.326
葢卿大夫之孝	-11.326
車馬	-11.326
婢亦反	-11.326
河間王所	-11.326
農工商	-11.326
物均得天地之氣以	-11.326
課	-11.326
十八篇	-11.326
孰能順民如此其大者乎	-11.326
氷	-11.3261
肥	-11.3261
紀孝行章	-11.3261
泰壇	-11.3261
為其然也	-11.3261
則斯道	-11.3261
物之所以生	-11.3261
伯子男	-11.3261
本立而後	-11.3261
儕	-11.3261
禘嚳而郊稷祖文王而宗武王	-11.3261
黒	-11.3261
慶賞刑威	-11.3261
言無大於孝者	-11.3261
兆域	-11.3261
十八章文字多誤	-11.3261
孝之為道	-11.3261
惡慢人而	-11.3261
數飲酒	-11.3261
立功於國	-11.3261
迪	-11.3261
丹漆	-11.3261
之質也重	-11.3261
事天地能明察則神感至	-11.3261
侍講	-11.3261
卷冕	-11.3261
宋郉昺疏	-11.3261
未安處	-11.3261
王曽孫	-11.3261
知命不	-11.3261
移事父孝以事	-11.3261
詩曰薄汚我私薄澣我衣害澣害否	-11.3261
賜爵皆	-11.3261
趙文子	-11.3261
不可飾也	-11.3261
不然何	-11.3261
享人鬼尚幽	-11.3261
以成其信	-11.3261
别本改	-11.3261
史館檢討	-11.3261
四詩去聖逾逺源流益	-11.3261
士之孝當如是也	-11.3261
士見於大夫	-11.3261
夏商	-11.3261
天有五行	-11.3261
子與曰殷	-11.3261
州閭鄉黨	-11.3261
庶幾廣愛刑于四海嗟乎夫子沒而微言	-11.3261
思可樂而後行	-11.3261
故魯史春秋學開五傳國風雅頌分	-11.3261
杜林	-11.3261
甚矣曽子之	-11.3261
眎	-11.3261
禮之經	-11.3261
胡文定	-11.3261
荷	-11.3261
衣服飲食	-11.3261
下有凍餒之民	-11.3261
不仁不保四	-11.3261
不入則犯	-11.3261
不獲乎上	-11.3261
不能事親立身	-11.3261
之父之所	-11.3261
之理始於	-11.3261
之選子	-11.3261
也幽宗	-11.3261
也雩宗	-11.3261
事其父母矣	-11.3261
五榖	-11.3261
亡于中夏	-11.3261
人之所惡也	-11.3261
人得氣	-11.3261
人心所自有	-11.3261
人情壞	-11.3261
人而以無所不	-11.3261
今去其世七百	-11.3261
今有一箇道理	-11.3261
以上嗣	-11.3261
以仁守之其量	-11.3261
以聖人之不	-11.3261
仭	-11.3261
但以順則逆以下則又雜取左傳所載	-11.3261
使民不以時失國	-11.3261
先辨忠	-11.3261
公羊傳十一卷	-11.3261
其先君豈非孝道之大者	-11.3261
其至要	-11.3261
其親而令他人	-11.3261
其邪物	-11.3261
冗	-11.3261
冡子	-11.3261
出入不以	-11.3261
出入奏	-11.3261
制度衣服	-11.3261
刻石	-11.3261
則逺於先人之	-11.3261
則非如父與	-11.3261
効	-11.3261
右傳八則	-11.3261
同㫖也	-11.3261
君愛其親則人化之無有遺其親者	-11.3261
咸平中	-11.3261
善思貽父母	-11.3261
單居離問曰	-11.3261
嘘	-11.3261
地之化育	-11.3261
堊室之中	-11.3261
天惟天為大	-11.3261
夫子没後	-11.3261
夫然者然	-11.3261
子履之必有怵惕之心如將見之	-11.3261
字亦作	-11.3261
孝經者孔子	-11.3261
年教之數	-11.3261
廣其傳	-11.3261
愴之心非其寒之謂也	-11.3261
慮四方	-11.3261
戾心	-11.3261
振風紀	-11.3261
接吾敵故見為信焉吾盡吾敬以	-11.3261
揣	-11.3261
攜	-11.3261
文相續當以今文為正至君臣之義之下	-11.3261
昔僧奝然適宋獻鄭注孝經一本	-11.3261
是世無可	-11.3261
曰吾觀於鄉而知王道之易易也	-11.3261
有不得已也	-11.3261
東海	-11.3261
案士䘮禮	-11.3261
樂之反	-11.3261
欲移改	-11.3261
武王數紂之罪曰	-11.3261
殊俗而	-11.3261
治其心氣	-11.3261
洞洞乎	-11.3261
漫	-11.3261
焉吾盡吾敬以	-11.3261
無免絰	-11.3261
無由而	-11.3261
父父子子兄兄弟弟	-11.3261
狼	-11.3261
猶水之	-11.3261
理允當	-11.3261
生則事之以愛敬死則事	-11.3261
當湏	-11.3261
祖考之神	-11.3261
祭之明日	-11.3261
祭之明日明𤼵不寐饗而致之又	-11.3261
稷矣以此而事	-11.3261
穀梁傳十一卷	-11.3261
紘躬秉耒	-11.3261
而不遺親之	-11.3261
聚羣嚮	-11.3261
芑	-11.3261
萃天下之歡心	-11.3261
蒞	-11.3261
行於妻子	-11.3261
親者必其於人無所不	-11.3261
言行孝以事親爲始事君	-11.3261
語實更端當以古文為正不愛其親語意	-11.3261
諸侯相見	-11.3261
貶	-11.3261
逸者亦不少而孔傳古文孝經全然尚存	-11.3261
道則突若	-11.3261
酳	-11.3261
院	-11.3261
陳振孫書録解題	-11.3261
随陽而	-11.3261
雨露既濡君	-11.3261
霜露既降君子履之必有悽	-11.3261
靁	-11.3261
顔引義以爭之不	-11.3261
龍於山登火於宗彜	-11.3261
推其愛敬之心	-11.3261
君弟以事長	-11.3261
使能	-11.3261
饑寒	-11.3261
䘮平聲	-11.3261
巾	-11.3261
章末舊有	-11.3261
恩義之厚	-11.3261
不安美	-11.3261
教民無以	-11.3261
有不及	-11.3261
服衣之	-11.3262
始相	-11.3262
悌所以敬其長也	-11.3262
愛則莫有善於孝	-11.3262
䘮不過三年示民有終	-11.3262
之徳行不敢行惟恐行輕而招辱也以此	-11.3262
也引詩之意葢言	-11.3262
右傳之首章	-11.3262
斯民則人	-11.3262
此事奉其先	-11.3262
為墓于郊	-11.3262
至於後段則文既可疑而謂聖人見孝可	-11.3262
徳行擇行行滿	-11.3262
三日而食粥	-11.3262
愷苦亥反悌	-11.3262
練祥	-11.3262
欽	-11.3262
順則逆	-11.3262
物得氣之偏	-11.3262
衰七雷反	-11.3262
鑒	-11.3262
宗皇帝	-11.3262
王季日三	-11.3262
以順則逆民無則焉不在於善而皆在於	-11.3262
不侔	-11.3262
上自天子下至庶人	-11.3262
失謂不得其意	-11.3262
渾	-11.3262
父母之所敬	-11.3262
協和	-11.3262
君行六事臨撫其人則下	-11.3262
室祀天	-11.3262
幽暗	-11.3262
敬吾親矣	-11.3262
稱其善	-11.3262
袖虞翻劉邵抑又次焉劉炫明安國之本	-11.3262
退動静也不越禮法則可度也	-11.3262
㨿	-11.3262
不載其名	-11.3262
九族既	-11.3262
也人之百行	-11.3262
也以此坊民民猶忘其親	-11.3262
其親以下别為一章	-11.3262
冺	-11.3262
凶謂悖其德禮也	-11.3262
分地利也	-11.3262
制後為室	-11.3262
則必有以處此矣然	-11.3262
周公輔	-11.3262
孝所以愛其親也	-11.3262
小歛之衣也	-11.3262
彼無惡在此無斁	-11.3262
恐墜	-11.3262
惟恐言輕而招	-11.3262
感化悅從	-11.3262
整齊	-11.3262
朕聞上古其風朴略雖因心之孝	-11.3262
本顯明五	-11.3262
王之子武王之弟成王之叔父	-11.3262
用節省則免饑寒	-11.3262
甫反鰥古頑反	-11.3262
百世不祧之宗	-11.3262
百姓昭明	-11.3262
短喪	-11.3262
築	-11.3262
絃歌	-11.3262
義取德	-11.3262
耆老	-11.3262
若此而已	-11.3262
蠢	-11.3262
行非徳	-11.3262
衰於妻子	-11.3262
謂上六句	-11.3262
辜也非先	-11.3262
辨地利	-11.3262
通稱也	-11.3262
邦族	-11.3262
門人稱其師	-11.3262
陳亢	-11.3262
鞠	-11.3262
類聖言亦不類漢儒語是後儒偽作明甚	-11.3262
食采於周位居	-11.3262
謙辭	-11.3263
性人為貴人之行莫大於孝	-11.3263
符	-11.3263
遭秦	-11.3263
反號户刀	-11.3263
居謂平居	-11.3263
悴	-11.3263
慘	-11.3263
瞻仰	-11.3263
致者推之而	-11.3263
蠻	-11.3263
夙夜匪解	-11.3263
得百姓之歡心	-11.3263
駕	-11.3263
上謂君也進謂進見於君	-11.3263
不為一物	-11.3263
五刑墨劓剕宫大辟	-11.3263
仁誼禮	-11.3263
何所不致其	-11.3263
傳之十三章	-11.3263
其也義取恒念先祖述脩其德	-11.3263
出耳然其前段文雖非是而理猶可通存	-11.3263
吴澄	-11.3263
妻子臣妾官也	-11.3263
尺證反	-11.3263
彌大之義告之	-11.3263
極其悌矣以	-11.3263
此論人子	-11.3263
為萬世法	-11.3263
瓦	-11.3263
節其用而	-11.3263
蛟	-11.3263
詩大雅也無念念也聿述也厥	-11.3263
辟之屬千	-11.3263
釋至徳以順天下	-11.3263
盡其歡	-11.3263
懇	-11.3263
朝直遙反	-11.3263
霤	-11.3263
復扶又	-11.3263
一字申釋	-11.3264
也由一家	-11.3264
俊	-11.3264
其先祖故也	-11.3264
哭泣擗踊	-11.3264
孝子當行之	-11.3264
擬議	-11.3264
故不加威肅而教	-11.3264
槁	-11.3264
槍	-11.3264
泄	-11.3264
祿賞不足以勸民	-11.3264
累劣偽反	-11.3264
脱衣就功	-11.3264
采七代	-11.3264
鈇鉞不足以威衆	-11.3264
饘	-11.3264
牛羊豕也	-11.3264
敢問子從父	-11.3264
詩大雅泂酌	-11.3264
熈	-11.3264
涖音利	-11.3264
成不加嚴刑而政	-11.3264
此則孝之終	-11.3264
磋	-11.3264
行其典誼	-11.3264
亦存	-11.3264
無其字	-11.3264
相摩	-11.3264
名於後世	-11.3264
後人妄	-11.3264
曰禘嘗之義大矣	-11.3264
案禮記云	-11.3264
者旣不得	-11.3264
而名立於後世矣	-11.3264
懐保小民恵鮮	-11.3264
故孝者生民	-11.3264
不稱老	-11.3264
五峰語録	-11.3264
周公因祀五方上帝於明堂乃	-11.3264
竹牒	-11.3264
而皆在於凶德	-11.3264
言諸侯貴	-11.3264
記諸篇	-11.3264
近觀孝經舊注	-11.3264
造次	-11.3264
遽塗其本編	-11.3264
元良萬邦以貞	-11.3264
公事畢	-11.3264
凡十三家雖義有精粗	-11.3264
劉共父	-11.3264
堪講授	-11.3264
始知孝之爲大也	-11.3264
拜君命	-11.3264
是不虧其體	-11.3264
狀曰周禮禮記毛詩尚書公羊左傳孝	-11.3264
萬世師	-11.3264
逝	-11.3264
開元十年	-11.3264
一以順從為孝	-11.3264
三宥	-11.3264
三日不怠三月不解期悲哀	-11.3264
三終主人獻之	-11.3264
下同樂音洛	-11.3264
不敢加於	-11.3264
不辱其身	-11.3264
之禮也然而已進矣	-11.3264
之道以率先之則人漸其	-11.3264
也微子	-11.3264
也王宫	-11.3264
事親始終之道	-11.3264
云古孝經千八百七十二字今異者	-11.3264
以其餘畀	-11.3264
以導和	-11.3264
以飬其親	-11.3264
何以異乎	-11.3264
使吾下故見為愛焉是以見	-11.3264
傳魯人	-11.3264
元吳澄撰	-11.3264
其小者	-11.3264
凡人事	-11.3264
分注錯	-11.3264
卜之示	-11.3264
又弗見也	-11.3264
取于事父之行	-11.3264
古先哲王聖人君子之所	-11.3264
可以顯親雖	-11.3264
右傳之三章	-11.3264
吾信之	-11.3264
呰	-11.3264
命於祖廟作龜於禰宫尊祖親考之義也	-11.3264
哀親之在	-11.3264
品秩	-11.3264
哭而退不聽事焉	-11.3264
唐宫闈不肅	-11.3264
嚌	-11.3264
國人詩云	-11.3264
圭璧	-11.3264
執喪則	-11.3264
墟墓之間	-11.3264
壇之北	-11.3264
士一命	-11.3264
夙早也	-11.3264
大司成	-11.3264
大報天而主日也兆於南郊就陽位也	-11.3264
大夫士去國	-11.3264
天子先君之	-11.3264
天寳二年	-11.3264
失其道無以有其	-11.3264
宜兄宜弟	-11.3264
寓祭器於	-11.3264
帯	-11.3264
庶人章凡五章	-11.3264
康熙	-11.3264
復正臣父無復正子	-11.3264
性參天地	-11.3264
恒常合宜之	-11.3264
愷樂悌易也	-11.3264
成婦禮	-11.3264
戚容	-11.3264
摭	-11.3264
故哭泣	-11.3264
教之以悌使凡為	-11.3264
斟	-11.3264
旁引	-11.3264
既能孝則于事	-11.3264
日增	-11.3264
日躋	-11.3264
是以行成於內	-11.3264
是為今文	-11.3264
有天刑	-11.3264
有驕亂忿	-11.3264
服田力	-11.3264
未若防㣲杜漸為忠之	-11.3264
案朱子刋誤	-11.3264
横命	-11.3264
殉死者	-11.3264
民之窮	-11.3264
氣也此天地之	-11.3264
治家者不敢侮於臣妾	-11.3264
溷	-11.3264
為無所用而	-11.3264
無㣲過則	-11.3264
爲九章之	-11.3264
珠	-11.3264
理亦條貫寫之琬琰	-11.3264
瘠在昔反	-11.3264
百官族姓	-11.3264
章之失云	-11.3264
粢盛夫人蠶	-11.3264
經彚刻	-11.3264
羸	-11.3264
者言乎其	-11.3264
而天下之為弟者皆悦以事	-11.3264
而無遺矣	-11.3264
耰	-11.3264
能行其道	-11.3264
自以為無罪	-11.3264
致樂病	-11.3264
舉其大數	-11.3264
舉大者言	-11.3264
葢自是	-11.3264
葢言學也	-11.3264
蓁	-11.3264
薛倉子	-11.3264
虞庠	-11.3264
衮冕	-11.3264
袞冕	-11.3264
諸侯章第三在上不驕髙而不危	-11.3264
謂然友	-11.3264
賦税	-11.3264
赫赫師尹	-11.3264
載色載笑匪怒伊教	-11.3264
輕君之危亡	-11.3264
郊之祭也迎長日之至也	-11.3264
閨門章二十四字	-11.3264
陳說德義之美爲衆所	-11.3264
食其祿	-11.3264
首火在宗彜之	-11.3264
高行子	-11.3264
魚器反	-11.3264
鰥寡即不驕不	-11.3264
黔	-11.3264
𤣥所注請不藏	-11.3264
戰兢	-11.3264
孽	-11.3264
敏何足以知	-11.3264
也而非之此有無	-11.3264
佷	-11.3264
娛	-11.3264
庶人泛指衆人學	-11.3264
故當不誼則	-11.3264
敺	-11.3264
覆芳伏反	-11.3264
重直用反	-11.3264
顔説色	-11.3264
龔	-11.3264
搥	-11.3264
敬者寡而説者衆	-11.3264
斷音短	-11.3264
如水旱疾疫	-11.3264
▁養羊尚反傳同	-11.3264
以天地之理而	-11.3264
服象其	-11.3264
柔色以	-11.3264
父兄與君是	-11.3264
盪	-11.3264
賴其福也	-11.3264
陳説徳義之	-11.3264
音扶令去聲	-11.3264
順此四者人之大	-11.3264
齊襄	-11.3264
畎	-11.3264
服法言	-11.3265
之甚者為	-11.3265
俺	-11.3265
則無善於先	-11.3265
天下之人被服其	-11.3265
天地人謂之三才	-11.3265
徳以親九族	-11.3265
懽恱	-11.3265
所以無可擇也	-11.3265
效之而各敬其	-11.3265
旨不甘此哀戚之情	-11.3265
泛指	-11.3265
父坤地也故稱	-11.3265
當體明王孝治天下	-11.3265
社土神稷榖神	-11.3265
而耕耘	-11.3265
爵祿而守其祭祀葢士之孝也	-11.3265
君子之事親孝	-11.3265
以孝道化民	-11.3265
其法令	-11.3265
凡百四十三字廣經	-11.3265
别彼列反	-11.3265
心乎愛矣遐不謂矣中心蔵之何日忘之	-11.3265
悖徳悖禮之事	-11.3265
身雖有小	-11.3265
▁弟大計反傳同	-11.3265
泉	-11.3265
臨淵恐墜履	-11.3265
庶有補於將來	-11.3265
言必守法	-11.3265
厚其生	-11.3265
殄	-11.3265
己之鵠	-11.3265
廟祔祖之後則以鬼禮享之	-11.3265
博聞	-11.3265
無不及也	-11.3265
者敎之以	-11.3265
芸苗秋	-11.3265
之綱領	-11.3265
可以觀徳	-11.3265
周禮大司徒	-11.3265
夫子答曽子之問	-11.3265
本立則道生	-11.3265
父配天之禮	-11.3265
親親而仁民仁民	-11.3265
事母孝故事	-11.3265
别立一廟	-11.3265
唐虞之治	-11.3265
因上章三可移而言嚴	-11.3265
孝之大至于	-11.3265
孟子曰道在	-11.3265
家者推其愛敬之心	-11.3265
慕則人起心而行之	-11.3265
放諸	-11.3265
朔月	-11.3265
母生之續莫大焉故親生之膝下諸家	-11.3265
父孝也嚴兄弟也	-11.3265
示好以引之示惡以止之則人知有禁令	-11.3265
臣子及天下之通孝以終焉	-11.3265
詮釋	-11.3265
阻	-11.3265
隘巷	-11.3265
之而未暇	-11.3266
使天下之人法行於逆道故人無所	-11.3266
修身愼行恐辱先也	-11.3266
其曰先王見教之可以化民又與上文	-11.3266
兼及事君立身	-11.3266
况知禮義之	-11.3266
則可謂能體明王孝	-11.3266
則吾與慮	-11.3266
則斯乃不在於	-11.3266
句之末並無也字	-11.3266
善者之必	-11.3266
大夫四命	-11.3266
孝之義理故	-11.3266
慎行禮法謂之謹	-11.3266
憂哀嚴	-11.3266
故能成其德教而行其政令	-11.3266
昭彰	-11.3266
有乖戾	-11.3266
此則庶人之孝所當然也	-11.3266
氣竭而息聲不委曲	-11.3266
治之心以爲	-11.3266
注不悖德禮也	-11.3266
王之卿六命	-11.3266
節操	-11.3266
詩大雅文王有聲之	-11.3266
詩小雅隰桑之篇	-11.3266
謂心之所在	-11.3266
足頓地	-11.3266
身踐	-11.3266
長貞丈	-11.3266
非至德其孰能順民如此其大者乎	-11.3266
黎民於變時	-11.3266
▁夫音扶傳同	-11.3266
之徳民愛	-11.3266
於此廣之故以名章次	-11.3266
此又總	-11.3266
長㓜順故上下治	-11.3266
所以為至徳	-11.3266
未審而	-11.3266
礙	-11.3266
可移於官	-11.3266
門之外	-11.3266
則人起心而行之	-11.3266
丞左	-11.3266
也故次及	-11.3266
當行之孝	-11.3266
鬼神著矣	-11.3266
不敢惡於人	-11.3266
臣民之上	-11.3266
事天如事	-11.3266
地以承	-11.3266
不相屬故	-11.3266
不觧經而别𤼵一義	-11.3266
之親又為我之君而臨乎	-11.3266
以孝則卽通于事	-11.3266
冨	-11.3266
和協而親睦上下	-11.3266
大雅云無念爾祖聿脩厥德	-11.3266
敬父敬君	-11.3266
曰林父之事君	-11.3266
法則而象效之故	-11.3266
温公改教為孝乃得粗通而下文所謂	-11.3266
穉	-11.3266
簡子賛之曰甚	-11.3266
詩大雅烝民	-11.3266
速化如此	-11.3266
遹	-11.3266
塋	-11.3266
諸兄	-11.3267
不驕不溢	-11.3267
續莫大焉	-11.3267
上下之分	-11.3267
駿	-11.3267
刪去說見	-11.3267
二章大傳第	-11.3267
而天下莫	-11.3267
君子之教以孝也	-11.3267
天下無生而貴	-11.3267
方赤	-11.3267
之屬千劓	-11.3267
樞	-11.3267
君令臣	-11.3267
恐辱	-11.3267
柴	-11.3267
齒胄養老	-11.3267
媚兹一人應侯順徳	-11.3267
尚書同出	-11.3267
詳悉	-11.3267
互相通	-11.3267
冬至祀天于	-11.3267
密	-11.3267
懃	-11.3267
楷	-11.3267
矣聚順	-11.3267
丘陵	-11.3267
之書也書	-11.3267
以后稷配郊	-11.3267
於未形	-11.3267
殷人冔而	-11.3267
維寳	-11.3267
迎尸	-11.3267
下逹則	-11.3267
並無章	-11.3267
之君子與則三年	-11.3267
也利物爲義孝爲百行之首人之	-11.3267
乾水溢	-11.3267
六藝論	-11.3267
其儀不忒	-11.3267
其終事	-11.3267
冕而祭	-11.3267
化人之易也	-11.3267
卿大夫以孝治其	-11.3267
君執干戚就舞位	-11.3267
堯舜帥天下以仁而民從之桀紂	-11.3267
報天而主日配以	-11.3267
帝堯	-11.3267
庶人敢問章為	-11.3267
建寅	-11.3267
德若三	-11.3267
意有兼明具載則文繁略之又義闕今存	-11.3267
成湯之	-11.3267
所以明長幼之序也	-11.3267
故祀天	-11.3267
教以順人心今自逆之則下無所法則也	-11.3267
旤亂	-11.3267
日月山川	-11.3267
殿中丞	-11.3267
浩	-11.3267
無方之養	-11.3267
無諸已而後非諸人所藏乎身不恕而	-11.3267
立其所能	-11.3267
絶異端起而大義乖	-11.3267
經文皆同	-11.3267
經論語孔鄭王何服杜等	-11.3267
總干率其羣臣以樂皇尸	-11.3267
自武王有	-11.3267
菁英	-11.3267
董鼎撰	-11.3267
藜	-11.3267
身恭謹則遠恥辱	-11.3267
辰運天而有常五土分地而爲義也	-11.3267
鄉飲酒之義	-11.3267
養死則	-11.3267
䕃	-11.3267
不能得之於	-11.3267
不舉樂	-11.3267
丘曽子孔子弟子名參字子輿	-11.3267
之徳切	-11.3267
之行自無怨惡	-11.3267
也其衣三章裳	-11.3267
也注云此	-11.3267
事先王者	-11.3267
事物當然之理	-11.3267
亦樂人之	-11.3267
今文之註	-11.3267
以觀民	-11.3267
以陵傲召禍	-11.3267
佐車	-11.3267
使足以成文理則釋之	-11.3267
入於刑	-11.3267
則世無不親之	-11.3267
則又雜出之以	-11.3267
則移之以貞	-11.3267
削閨門一章	-11.3267
劉知幾主古文	-11.3267
司馬貞主今文	-11.3267
吾取之以敬也吾得之以敬也	-11.3267
周家有	-11.3267
和樂而不流	-11.3267
土地人民政事	-11.3267
孝為徳之本	-11.3267
宗無禮無度之禍	-11.3267
山井鼎等	-11.3267
嵗三田	-11.3267
已質則	-11.3267
席間	-11.3267
思可道而後言人必信也思可	-11.3267
悅所敬者寡而悅者衆此之謂要道也	-11.3267
悖慢之	-11.3267
惚	-11.3267
愛敬者禮樂之	-11.3267
懽悦	-11.3267
成子高	-11.3267
成政令以	-11.3267
所以然者盖	-11.3267
所為主者皆	-11.3267
手擊胷	-11.3267
擇牲	-11.3267
敢不敬乎	-11.3267
新刋	-11.3267
旦不幸而	-11.3267
曰君子不奪人之	-11.3267
曰夫孝徳之本教之所由生復坐吾語女	-11.3267
書呂刑也一人天	-11.3267
服喪者	-11.3267
無貴無賤無親無	-11.3267
父在不杖	-11.3267
繩墨	-11.3267
罹	-11.3267
義講信修睦	-11.3267
而致卑替	-11.3267
興道者與	-11.3267
舉無所怨	-11.3267
蜀	-11.3267
諸侯礿	-11.3267
貴人而賤	-11.3267
貴信於天下之君	-11.3267
足以動衆	-11.3267
踐其朝是	-11.3267
逵	-11.3267
郊特牲曰	-11.3267
配合也周公	-11.3267
順而利導之	-11.3267
鮑	-11.3267
▁弟大計反下	-11.3267
首章略言揚名之義而	-11.3267
昔者明王之以孝治天下也	-11.3267
奉飬	-11.3267
幾諫	-11.3267
臣之事君	-11.3267
愉色	-11.3267
次第六章後	-11.3267
涖官不	-11.3267
矜肆	-11.3267
乾隆四十六年十	-11.3267
地方	-11.3268
期驕	-11.3268
一孝立而	-11.3268
不言知能	-11.3268
以孝教天下	-11.3268
則思補塞	-11.3268
哉禮之大也首尾通貫節目詳備	-11.3268
因上文不孝之云而繫於此	-11.3268
地之經而民實	-11.3268
孝則是使為人臣子者皆有今将之心而	-11.3268
将順其美匡救其惡故上下能相親	-11.3268
庻人之孝	-11.3268
德其無以加於孝乎子曰天地之	-11.3268
故當不義則子不可以弗	-11.3268
晉荀林父為楚所敗歸	-11.3268
毛髮膚	-11.3268
無善政	-11.3268
祖奠於	-11.3268
縷	-11.3268
自其章首以至因地	-11.3268
與此不同	-11.3268
言斯可道行斯可樂	-11.3268
采邑	-11.3268
馮	-11.3268
棺椁	-11.3268
第六	-11.3268
争於父臣不可以	-11.3268
子曰孝子之䘮親也	-11.3268
弗争於君故當不義則争之從父之令	-11.3268
得懽心	-11.3268
以勉人	-11.3268
偷得	-11.3268
而語之以	-11.3268
然後能事親	-11.3269
形於外	-11.3269
穆穆文	-11.3269
名從之矣	-11.3269
毀不滅性	-11.3269
稱師曰	-11.3269
冬温夏	-11.3269
季武王	-11.3269
至於犬馬	-11.3269
豫先王以作樂崇徳殷薦	-11.3269
其所嗜	-11.3269
小宛	-11.3269
彝倫	-11.3269
唐明皇時	-11.3269
四海四海之内	-11.3269
塞乎天地	-11.3269
學慮者	-11.3269
敬以入	-11.3269
萬一有	-11.3269
送葬	-11.3269
之無使昏	-11.3269
以君為親	-11.3269
凡有血氣者	-11.3269
前今詳此章	-11.3269
力一念之善則助	-11.3269
卿大夫章第四非先王之法服不敢服	-11.3269
君滅親	-11.3269
奢僭	-11.3269
宇宙	-11.3269
居䘮之	-11.3269
庶人無故不食珍	-11.3269
廣要道章第十二子曰	-11.3269
引詩以寓	-11.3269
懷寵	-11.3269
成之無使	-11.3269
泛溢	-11.3269
注觸地無容	-11.3269
淺陋	-11.3269
為之立中制節	-11.3269
無有遺其親者	-11.3269
犯禁而入	-11.3269
禮法之言焉有口過道德	-11.3269
秉徳之士	-11.3269
稱士三	-11.3269
者無不悦以此之敬而敬人之	-11.3269
能喻諸人者未之有也故	-11.3269
脯醢	-11.3269
自然之理也	-11.3269
蒼蒼然	-11.3269
蔽不明遂成而莫救也陳善閉邪慮之	-11.3269
行徳誼	-11.3269
親昵而	-11.3269
費用約儉謂之制節	-11.3269
通患而出危色	-11.3269
道徳仁義	-11.3269
雍州	-11.3269
黄昭	-11.3269
至尊無	-11.3269
子因問而	-11.3269
喪親章第十八	-11.3269
侯伯子男	-11.3269
暗	-11.3269
洞	-11.3269
綴	-11.3269
則之則天之明因地之性其下便	-11.3269
取也取事父之道	-11.3269
古之聖賢	-11.3269
四方之國皆	-11.3269
子曰因天之道	-11.3269
居陵反	-11.3269
彰矣二句	-11.3269
恊	-11.3269
懽心否則是其所以事	-11.3269
竭盡其忠	-11.3269
終始中乃敷陳天子諸侯卿大夫士	-11.3269
者有以得其懽心可知矣	-11.3269
而其末結之曰故自天子	-11.3269
孝經注疏卷七	-11.327
佳	-11.327
所已言	-11.327
陽太	-11.327
行滿天下無怨惡	-11.327
官椁音郭	-11.327
已重乎	-11.327
隙	-11.327
人之徳無加	-11.327
古文孝經二十二章	-11.327
嘉謀嘉猷	-11.327
曲禮曰	-11.327
繆	-11.327
不言注孝經	-11.327
人不過乎物孝子不過乎物	-11.327
今文十八章	-11.327
既畢乃引	-11.327
之用刑	-11.327
五世而	-11.327
出地奮	-11.327
四隅	-11.327
如有求而弗得既	-11.327
孝經者孔子爲曾參陳孝道	-11.327
神農黄帝	-11.327
賁	-11.327
享五帝	-11.327
兄弟怡怡	-11.327
則天之明因地之利以順天下是以其	-11.327
動之間	-11.327
存於中則	-11.327
孰重曰	-11.327
宫中雍雍外焉肅肅	-11.327
抒	-11.327
朋友切切	-11.327
者以貌近者以情	-11.327
自處于	-11.327
諸章以次	-11.327
丹書曰	-11.327
人皆有之不待	-11.327
俛	-11.327
入揖讓	-11.327
於西北	-11.327
是日也以吉祭易喪祭明日祔	-11.327
有名字	-11.327
正義曰經云	-11.327
汪應辰	-11.327
父母舅姑必	-11.327
狄	-11.327
睨	-11.327
翟	-11.327
而論則	-11.327
舉而委	-11.327
配社稷	-11.327
上有好	-11.327
不以其道得之不	-11.327
不以道則耻之	-11.327
不由其道	-11.327
不說其言	-11.327
並無一字	-11.327
之孝可通	-11.327
之意亦見于言表	-11.327
之治天下也士民	-11.327
乾隆四十一年五月恭校上	-11.327
于門外	-11.327
京師	-11.327
以身近之也殆於以身近之殆於身之矣	-11.327
利害	-11.327
則在于	-11.327
則成親成親則成	-11.327
則曷為必	-11.327
君之心即	-11.327
吳公	-11.327
報國之道	-11.327
士無田則亦	-11.327
壻	-11.327
大樂正	-11.327
大饗之禮	-11.327
天子親耕粢盛	-11.327
好惡著則賢不肖别矣	-11.327
如見親	-11.327
孝子無私	-11.327
尊長養老而後	-11.327
市舶	-11.327
復父讎	-11.327
所及者	-11.327
所自著則又可笑之尤者	-11.327
拾	-11.327
改此字	-11.327
於一家	-11.327
早已施	-11.327
昊天罔極	-11.327
春生夏長秋斂冬藏舉	-11.327
是乃知前輩讀書精審	-11.327
景行	-11.327
有不順者	-11.327
有以異於人	-11.327
有重服	-11.327
杜撰	-11.327
極言孝之大	-11.327
欲勝義	-11.327
法天道之	-11.327
法言謂禮法之言德行	-11.327
淑善	-11.327
無夫曰寡	-11.327
無日非	-11.327
爲常行也	-11.327
生事之以禮死	-11.327
矯偽	-11.327
禘有樂而嘗無樂	-11.327
經之首統論孝之	-11.327
罷	-11.327
者何盖言	-11.327
者無主不	-11.327
而成之惟恐不及君有	-11.327
耕蠶	-11.327
耻辱	-11.327
與齊尋兵	-11.327
號咷	-11.327
行非德則虧孝道故不敢也	-11.327
言賔南鄉	-11.327
請命不	-11.327
謂民之父母矣	-11.327
謂道德之行若言非法	-11.327
負薪之	-11.327
辜較之辭	-11.327
遏而中止也一念之惡則諫止	-11.327
邢昺等	-11.327
都南	-11.327
采采芣苢薄言	-11.327
量其短長	-11.327
鑽穴	-11.327
順内和	-11.327
鬭曰	-11.327
魏志	-11.327
齊其參錯	-11.327
勅	-11.327
▁争音諍	-11.327
故以名章次廣	-11.3271
合乎先	-11.3271
嘆	-11.3271
因其固有而	-11.3271
詩小雅隰桑	-11.3271
二十字	-11.3271
文次第五章後	-11.3271
道教即	-11.3271
自以為無	-11.3271
事天明事地察	-11.3271
分以為六七章	-11.3271
才卧反	-11.3271
順天下人心而	-11.3271
之效驗	-11.3271
其生存	-11.3271
福慶	-11.3271
保其社	-11.3271
上則當莊敬以臨	-11.3271
下而不可驕矜	-11.3271
事父孝事母孝之義	-11.3271
暴賊	-11.3271
胥徒	-11.3271
事舜也	-11.3272
陸澄	-11.3272
子男五十里	-11.3272
言滿天下無口過	-11.3272
也然而聖人	-11.3272
孝無終始	-11.3272
王於緝熈敬止	-11.3272
不㤀親也	-11.3272
凊昏定晨省	-11.3272
迎氣	-11.3272
君有君之威儀其臣畏	-11.3272
又何疑	-11.3272
筆削	-11.3272
轉移	-11.3272
尚爾	-11.3272
常其德	-11.3272
故君子不出家而成	-11.3272
玉山汪端明亦以為此書多出後	-11.3272
間隔	-11.3272
一人謂天子	-11.3272
不及之理	-11.3272
之爭臣以	-11.3272
也以至尊	-11.3272
也忿怒其臣妾	-11.3272
二十四字今文無	-11.3272
以孝治天下國家	-11.3272
則非忠孝	-11.3272
勉强	-11.3272
年七十	-11.3272
徼幸	-11.3272
有不知其	-11.3272
本諸身	-11.3272
然所論至	-11.3272
理或當何必求人今故特舉六家之異同	-11.3272
盖忠臣之事君如孝子	-11.3272
眾	-11.3272
窮理之至	-11.3272
繇而生	-11.3272
者此孔傳	-11.3272
而引之	-11.3272
自天子至于庶人	-11.3272
自阼階	-11.3272
見因天地敎	-11.3272
言悖其徳禮雖得志於人上君子	-11.3272
諫之大者	-11.3272
謂父爲	-11.3272
順逹於	-11.3272
馬牛	-11.3272
諫見志	-11.3272
也故夫所	-11.3272
教之以孝	-11.3272
率行孝道	-11.3272
盡其歡樂	-11.3272
依違	-11.3272
刄	-11.3272
栗	-11.3272
動止舉措	-11.3273
而受業晝而講貫夕	-11.3273
而習復夜而計過	-11.3273
地之理故	-11.3273
騁	-11.3273
周旋	-11.3273
諸侯有善	-11.3273
光輝	-11.3273
春雨既濡	-11.3273
此誼也	-11.3273
紛	-11.3273
天子之行孝	-11.3273
寢門之外	-11.3273
幹	-11.3273
心太剛	-11.3273
明故曰明堂	-11.3273
易曰雷	-11.3273
是以道隱小成言隱浮	-11.3273
筆則筆削則削	-11.3273
芝子貞出之	-11.3273
雷霆	-11.3273
先自天子至庶人	-11.3273
則福祿至	-11.3273
因而不改	-11.3273
夏殷之禮	-11.3273
治世之要	-11.3273
無所毁傷	-11.3273
種夏	-11.3273
釋經之	-11.3273
隂陽日星	-11.3273
之秉彛	-11.3273
卯	-11.3273
愛敬愛之	-11.3273
斬哀	-11.3273
易知則有親易	-11.3273
浮僞	-11.3273
為宜故曰義	-11.3273
狀	-11.3273
著書立	-11.3273
記曰禮之	-11.3273
象聲氣可樂動作有文言語有章以臨	-11.3273
㳺夏	-11.3273
七十子之徒	-11.3273
不忍欺	-11.3273
不敢失其驩心則于	-11.3273
之親薦	-11.3273
也舊注以為	-11.3273
也記曰君子	-11.3273
事順時此用天道也	-11.3273
以造化之	-11.3273
仲山甫衛	-11.3273
信而好古	-11.3273
六府	-11.3273
則亦庶	-11.3273
升歌	-11.3273
原本脫去	-11.3273
又申言	-11.3273
可人也吾	-11.3273
各敬其親	-11.3273
吉土	-11.3273
君舉旅	-11.3273
周公之始祖也	-11.3273
咸陽	-11.3273
唐元宗	-11.3273
在心故不樂也	-11.3273
多知而	-11.3273
大觿木燧	-11.3273
子之事父	-11.3273
孝經大義序	-11.3273
安國傳之	-11.3273
寖	-11.3273
小國之臣且不	-11.3273
嵎	-11.3273
御器	-11.3273
情文濫	-11.3273
惡乎隱而有	-11.3273
愛敬生愛敬	-11.3273
所奪於臣下	-11.3273
推以配天配上帝	-11.3273
措諸事	-11.3273
斬衰三年以	-11.3273
方圜	-11.3273
明皇御注	-11.3273
有是書	-11.3273
有首尾	-11.3273
東夷	-11.3273
歎孝之大	-11.3273
止邪	-11.3273
燃泉之	-11.3273
猶未至於行道也	-11.3273
王后夫人	-11.3273
神侑坐而食	-11.3273
禘祫	-11.3273
禮樂崩	-11.3273
綦	-11.3273
者接人以	-11.3273
而此獨舉	-11.3273
聚訟	-11.3273
胡為其	-11.3273
與大學中庸	-11.3273
興道之士	-11.3273
衆志平	-11.3273
襄王	-11.3273
言䘮親	-11.3273
訾議	-11.3273
辭其贄	-11.3273
遥	-11.3273
門外之	-11.3273
陵遲	-11.3273
隨所宜	-11.3273
雖皆謂之	-11.3273
非以為名	-11.3273
履薄	-11.3274
諸父所	-11.3274
忠為子而	-11.3274
戒懼	-11.3274
各有等差	-11.3274
且不侮	-11.3274
反不若彼之完備明此襲彼非彼取此	-11.3274
無有大於此者	-11.3274
精爽	-11.3274
解佳賣反	-11.3274
言行皆遵法道	-11.3274
通貫條目	-11.3274
供養	-11.3274
歠	-11.3274
所以長守貴	-11.3275
十九字	-11.3275
旤患	-11.3275
語更端	-11.3275
尊無二上	-11.3275
之尊有親之親	-11.3275
參用三代	-11.3275
廣雅曰	-11.3275
言非法	-11.3275
。」「	-11.3275
不敢有其身	-11.3275
人心自有	-11.3275
人所共由	-11.3275
伯仲	-11.3275
可謂知本	-11.3275
周宣王	-11.3275
士民乎故得百姓之	-11.3275
如此之君雖	-11.3275
妻子貴而親	-11.3275
孝親弟兄	-11.3275
左佩紛帨刀礪小觿金燧右佩	-11.3275
差殊	-11.3275
心為重	-11.3275
忠君順長	-11.3275
政教失	-11.3275
故聖人之制	-11.3275
於天下之民	-11.3275
為之訓傳	-11.3275
胡爌	-11.3275
舞象	-11.3275
蒙患	-11.3275
詔稱其辭者皆言傳曰其實今文孝經也	-11.3275
説卦云	-11.3275
葢士之孝	-11.3275
觸地	-11.3276
為凶徳	-11.3276
仁之𤼵為愛	-11.3276
錯簡	-11.3276
斷章取	-11.3276
輔右	-11.3276
三千刑	-11.3276
而不敢違	-11.3276
烏路	-11.3276
則凡爲	-11.3276
則貴賤有	-11.3276
欲民親愛	-11.3276
不必有餘	-11.3276
凌	-11.3276
明堂祀上	-11.3276
君言社稷卿大夫言宗廟	-11.3276
慨焉	-11.3276
者送死	-11.3276
長孫氏	-11.3276
道也誠者	-11.3276
人情以為	-11.3277
先王之制禮也	-11.3277
婣	-11.3277
帝于郊	-11.3277
心而安	-11.3277
無賢愚	-11.3277
黼黻文	-11.3277
二先生	-11.3277
弓矢	-11.3277
斯須不	-11.3277
有虞之不郊	-11.3277
炫左	-11.3277
者也太學	-11.3277
蟻	-11.3277
詩曰於繹思	-11.3277
車輪	-11.3277
三揖	-11.3277
不敬不敬	-11.3277
不獲乃	-11.3277
不至變	-11.3277
不過如此于大義	-11.3277
之喪二十五	-11.3277
之末也故	-11.3277
之立自	-11.3277
五十八篇	-11.3277
五土一曰山林二曰川澤三曰	-11.3277
五帝憲	-11.3277
五方上帝	-11.3277
仕如此其急	-11.3277
以今文孝經	-11.3277
依王肅	-11.3277
保祿位守祭祀	-11.3277
其國卿大夫	-11.3277
則天神	-11.3277
南嚮	-11.3277
去王城	-11.3277
受賜	-11.3277
同情而	-11.3277
君行嚴配之禮則德	-11.3277
單襄公	-11.3277
因敘其得喪講于人間	-11.3277
固知夫夫子之質也	-11.3277
在國中	-11.3277
報反惡如字又	-11.3277
士必有其	-11.3277
多所弗與	-11.3277
大此略言之	-11.3277
好如字又呼	-11.3277
嫌於	-11.3277
孝子事之	-11.3277
寒暑變移益用增感以	-11.3277
射也必先行	-11.3277
帝牛	-11.3277
式榖	-11.3277
徳性之根本	-11.3277
必求諸	-11.3277
必温	-11.3277
惴	-11.3277
成魄	-11.3277
故因嚴以敎敬因親以敎愛	-11.3277
書以為春秋之	-11.3277
板	-11.3277
梅賾	-11.3277
正皆放此	-11.3277
此孝道之有	-11.3277
殁身	-11.3277
殊尚	-11.3277
熹澄	-11.3277
王公貴人	-11.3277
申上文	-11.3277
略也孝道廣	-11.3277
疏用廣𤼵揮	-11.3277
簡則易從	-11.3277
紳	-11.3277
絜	-11.3277
者其盛禮見於	-11.3277
者跂而及之	-11.3277
者鮮不	-11.3277
而危之	-11.3277
而民莫不承	-11.3277
而致事	-11.3277
衣服不備不敢以祭	-11.3277
裁而後	-11.3277
西戎	-11.3277
言入則望	-11.3277
語不及	-11.3277
論二程遺書	-11.3277
輟朝而顧	-11.3277
通為一章古文則分為二章	-11.3277
遡	-11.3277
郊祀禘嘗	-11.3277
鄰哉	-11.3277
錢	-11.3277
閒字坐字參字	-11.3277
第十二章	-11.3277
恐其下有伏石	-11.3277
善則稱	-11.3277
弗之忘	-11.3277
十四章	-11.3277
大計反	-11.3277
服者身之表也先王	-11.3277
無法人莫不有	-11.3277
為人子孫	-11.3277
社稷民人	-11.3277
自此推之	-11.3277
蓋釋以順天下	-11.3277
謂舉尸	-11.3277
奉其職	-11.3277
是春秋左氏傳所載子太叔為趙簡子道	-11.3277
矣故以喪	-11.3277
許慎	-11.3278
迥	-11.3278
敢慢于人	-11.3278
基命宥宻	-11.3278
人有善	-11.3278
易曰家人有嚴君焉父母	-11.3278
見理太明	-11.3278
掦名顯	-11.3278
求福	-11.3278
免於鑿空妄言之罪也因欲掇	-11.3278
參不敏	-11.3278
天下之父老	-11.3278
彰著	-11.3278
胡宏	-11.3278
自幸有所因述而	-11.3278
下席而	-11.3278
人之父則凡	-11.3278
以僣侈費財而致	-11.3278
古文則云	-11.3278
夙早也懈惰也義取爲卿	-11.3278
廪	-11.3278
悖之行	-11.3278
擴	-11.3278
禮師有問則	-11.3278
節用而愛人	-11.3278
趙衰	-11.3278
不敢慢惡	-11.3278
以親為君	-11.3278
仰觀俯察之	-11.3278
參於天地	-11.3278
四曰墳衍五曰原隰	-11.3278
妄増	-11.3278
察司	-11.3278
曲直	-11.3278
父母雞初鳴咸盥潄櫛縰笄總	-11.3278
皇侃以為	-11.3278
逆不行	-11.3278
黄老	-11.3278
者之孝而	-11.3278
施政教	-11.3278
立身之本	-11.3278
為人子為人弟為人臣者	-11.3279
人人親其親長其長	-11.3279
曰夫禮天之經地之義民之行也天	-11.3279
東西南北	-11.3279
蓋士之孝也詩云夙興夜寐無忝爾所生	-11.3279
操七	-11.3279
弗敢	-11.3279
簠音甫簋音軌	-11.3279
不為苟	-11.3279
於人故以	-11.3279
人者天地之	-11.3279
魯共王	-11.3279
無念爾祖	-11.328
影	-11.328
遲遲	-11.328
三又多	-11.328
不如是不足以	-11.328
在隋	-11.328
網	-11.328
字今文作	-11.328
尊尊親親	-11.328
屬屬乎	-11.328
會合	-11.328
樂者天地之和也	-11.328
此一節夫子	-11.328
此數語	-11.328
牛羊	-11.328
睦友	-11.328
隮	-11.328
韋王	-11.328
一書也	-11.328
三年之喪天下達禮使不肖企及賢者	-11.328
先王之道莫大於孝仲尼之教莫先於孝	-11.328
取他書之言可𤼵此經之㫖者别為外	-11.328
奪喪	-11.328
子男武王	-11.328
孔子閒居	-11.328
封建	-11.328
徽	-11.328
慇	-11.328
故文王者得大舜之志	-11.328
於澤宫	-11.328
未為失也	-11.328
水泉	-11.328
淵源三	-11.328
然揆	-11.328
簡編	-11.328
紛紛	-11.328
聖人之所貴也	-11.328
與彼同唯	-11.328
葬事大故卜之	-11.328
要之道以順	-11.328
退燕	-11.328
酢	-11.328
開創	-11.328
隨事表名	-11.328
之誤也	-11.328
以施教于	-11.328
則人畏	-11.328
則變置	-11.328
吾黨	-11.328
土惟三	-11.328
大學經文	-11.328
天作子	-11.328
姑仍	-11.328
宅葬	-11.328
恩掩義	-11.328
成粢盛	-11.328
書監王邵訪得孔傳	-11.328
有之舜	-11.328
本然之徳性	-11.328
泰伯虞仲	-11.328
然而記	-11.328
生而願為之有	-11.328
知所立	-11.328
禚	-11.328
考叔	-11.328
者也故坐	-11.328
者人亦殺其	-11.328
者容也	-11.328
聲樂音洛	-11.328
與張南軒	-11.328
西京雜記	-11.328
言是席之	-11.328
誠慤	-11.328
賔升	-11.328
贏	-11.328
隨分	-11.328
顔氏	-11.328
鸞刀以	-11.328
軌	-11.328
直吏	-11.328
鬼享	-11.328
映	-11.328
凡六十九	-11.3281
踊音勇	-11.3281
以加於孝乎	-11.3281
道化天下	-11.3281
教之以弟	-11.3281
䂓諫	-11.3281
七章大傳第	-11.3281
何足以知之	-11.3281
其儀不忒正是四國	-11.3281
能孝理其家則得小大之懽心助其奉	-11.3281
極其愛敬	-11.3281
致其恭敬	-11.3281
遷善	-11.3281
不一而莫大於	-11.3281
以求役	-11.3281
制五服各有等差言	-11.3281
勢不得	-11.3281
墨罰	-11.3281
夫音扶下同	-11.3281
祀者似	-11.3281
繇禮謂之	-11.3281
道心純一	-11.3281
諍臣	-11.3282
永守	-11.3282
夫然猶	-11.3282
尊也廟	-11.3282
夫音扶行下孟反	-11.3282
漢藝文志	-11.3282
為徳本	-11.3282
父母之心而	-11.3282
道順而無	-11.3282
所居之	-11.3282
南北	-11.3282
則危亡之禍	-11.3282
言為臣子	-11.3283
稍長	-11.3283
青帝	-11.3283
月古人之	-11.3283
勿勿	-11.3283
曽參	-11.3283
止於信	-11.3283
孰有大于	-11.3283
不節則	-11.3283
亦該	-11.3283
則國安	-11.3283
可疑者不但此也因以書質之沙随程可	-11.3283
大小殊	-11.3283
有主行	-11.3283
望望	-11.3283
案禮記祭義稱	-11.3283
隧	-11.3283
三日而食敎民無以死傷生	-11.3283
上陳天子	-11.3283
不本諸	-11.3283
丙午八月十二日記	-11.3283
以失於自	-11.3283
仲由	-11.3283
出門如見大賔使	-11.3283
千餘	-11.3283
夕忘	-11.3283
天子至士皆	-11.3283
夫三年之喪天下之達	-11.3283
孟子曰人之	-11.3283
廟一昭	-11.3283
悞	-11.3283
懐抱	-11.3283
敬至而	-11.3283
有可疑者	-11.3283
棺土	-11.3283
椑棺	-11.3283
民如承大祭	-11.3283
無求數有	-11.3283
然則君子之於	-11.3283
獻酬之禮	-11.3283
義見於上	-11.3283
見於門人	-11.3283
非有二也	-11.3283
顔丁	-11.3283
顛倒	-11.3283
三穆廟	-11.3283
三還贄	-11.3283
之不可得而	-11.3283
之子也可	-11.3283
之才與	-11.3283
乖離	-11.3283
何也曰是猶	-11.3283
修齊治平之	-11.3283
兕牛皮	-11.3283
則是夫子之	-11.3283
動於内	-11.3283
吾恐其	-11.3283
在側	-11.3283
女安則為之	-11.3283
守宰	-11.3283
建萬	-11.3283
必告於	-11.3283
情當之謂	-11.3283
愾然必有聞乎其歎息之聲	-11.3283
持弓審固	-11.3283
故曰射者	-11.3283
書之㫖	-11.3283
有四焉	-11.3283
有是四	-11.3283
此侍立	-11.3283
歴代天子	-11.3283
為使人勿	-11.3283
為如何	-11.3283
當作某	-11.3283
真卿	-11.3283
神明之功	-11.3283
禮之報	-11.3283
總括一書	-11.3283
繹孝經	-11.3283
者俯而就之不	-11.3283
見乎其位周還出	-11.3283
言盡愛敬之道然後施教於	-11.3283
詬炫	-11.3283
謹畏	-11.3283
遽改	-11.3283
郭君	-11.3283
采蘋	-11.3283
采蘩	-11.3283
鑒諦	-11.3283
陽義也	-11.3283
𤣥冠	-11.3283
是知孝者	-11.3283
室而	-11.3283
皇尸	-11.3283
母之親	-11.3284
其事天也	-11.3284
别録	-11.3284
承上文而言	-11.3284
舉其大而言	-11.3284
也夫人之一身	-11.3284
命齒於	-11.3284
不可而况乎	-11.3284
不得不及	-11.3284
五者先王之所以	-11.3284
文王色憂行不能正履	-11.3284
感應章	-11.3284
應之詩曰	-11.3284
淳熙	-11.3284
身率下	-11.3284
乎對曰	-11.3284
僅存	-11.3284
八章申言	-11.3284
父母之䘮	-11.3284
百姓徒役也以	-11.3284
義宜也	-11.3284
▁相息亮反	-11.3285
是卽我之所以敬天下之爲人	-11.3285
今文連	-11.3285
非不美	-11.3285
民愛之	-11.3285
推愛親	-11.3286
教也記曰	-11.3286
于非道	-11.3286
周穆王	-11.3286
先王先君	-11.3286
而撮其樞要也	-11.3286
也夫子言昔者明	-11.3286
以天視	-11.3286
之禮廢而	-11.3286
安固也	-11.3286
人人知之	-11.3286
孰大于此	-11.3286
曾申	-11.3286
也此五者皆	-11.3286
也而陳	-11.3286
保赤子	-11.3286
愛者仁	-11.3286
燕射朝聘	-11.3286
稱制㫖	-11.3286
陽氣	-11.3286
鮮克	-11.3286
乎孟子曰諸侯	-11.3286
事之幹也	-11.3286
交接	-11.3286
以配之也	-11.3286
則當和順以	-11.3286
勝氣	-11.3286
善而弗	-11.3286
因嚴教敬因	-11.3286
大夫相見以	-11.3286
孟子曰舜	-11.3286
孰不為	-11.3286
居於上而	-11.3286
或失徳	-11.3286
接續	-11.3286
毁不危身	-11.3286
王不敢祧	-11.3286
王太子	-11.3286
皆在國	-11.3286
皆有以事其生	-11.3286
祭之日入室僾然必有	-11.3286
練而祔	-11.3286
義之和也貞	-11.3286
肅戒	-11.3286
蔑	-11.3286
訢然	-11.3286
蹌	-11.3286
道也首以	-11.3286
還葬而無槨	-11.3286
雄	-11.3286
雲雷雨	-11.3286
反企	-11.3286
何有不	-11.3286
天子有善	-11.3286
工商	-11.3286
神有所依	-11.3286
詩云此大雅	-11.3287
言明王以孝	-11.3287
高者必	-11.3287
則通於	-11.3287
至諴	-11.3287
上誼也	-11.3287
愛吾父母	-11.3287
一飯之恩	-11.3288
左右就	-11.3288
聖人能順	-11.3288
也葢上	-11.3288
成於國	-11.3288
溫文	-11.3288
真實	-11.3288
逺罪	-11.3288
三年問云	-11.3288
刑政之	-11.3288
注經常	-11.3288
深切	-11.3288
貴財	-11.3288
不衷	-11.3288
使天下之人皆	-11.3288
則賢人之	-11.3288
名昌	-11.3288
憂遇	-11.3288
有未至也	-11.3288
有格言焉	-11.3288
熹舊見衡山胡侍郎論語説	-11.3288
父母生育	-11.3288
申覆	-11.3288
者男子之	-11.3288
耕必有	-11.3288
頒行	-11.3288
體仁足以長人嘉	-11.3288
爵祿	-11.3288
不勝喪	-11.3288
之大者也故	-11.3289
大昏	-11.3289
則四方之	-11.3289
言之不通也	-11.3289
故曰仲	-11.3289
恭儉	-11.3289
世之功	-11.3289
乎成名	-11.3289
二百二	-11.3289
則當順	-11.3289
斷恩	-11.3289
楊氏	-11.3289
注博愛也	-11.3289
近於犯	-11.3289
齊襄公	-11.3289
之俾君之	-11.3289
十不俟朝	-11.3289
天子之於天下	-11.3289
奮	-11.3289
小聘三年	-11.3289
廟同堂	-11.3289
源流	-11.3289
祫祭	-11.3289
上能聽	-11.3289
不敢以煩長者	-11.3289
中國書	-11.3289
之長也亨	-11.3289
乎曰移而	-11.3289
亦卜牲	-11.3289
人東晉	-11.3289
何幸	-11.3289
傷其本	-11.3289
十一廟	-11.3289
問一答	-11.3289
問焉曰	-11.3289
嘉之㑹也利	-11.3289
圭璋	-11.3289
天下之逹	-11.3289
字猶之古文尚書	-11.3289
孝子亦為之	-11.3289
孺子慕	-11.3289
宗祀祭	-11.3289
射鄉	-11.3289
已多矣	-11.3289
彼此相	-11.3289
徐子以告夷	-11.3289
得正誼	-11.3289
惇史	-11.3289
成聲作而曰	-11.3289
授受	-11.3289
文武周公	-11.3289
既除喪而見予之琴和之而	-11.3289
本末差等	-11.3289
杝棺	-11.3289
死忘	-11.3289
比於樂而中	-11.3289
比於禮其節	-11.3289
水牛皮	-11.3289
穆姜	-11.3289
考廟享嘗乃止	-11.3289
而猶未忘	-11.3289
能敬其身	-11.3289
與於祭而君有	-11.3289
補入	-11.3289
視聽	-11.3289
親睦九族	-11.3289
足以合禮利物足以和義貞固足以幹事	-11.3289
重合厚二尺	-11.3289
首冬至	-11.3289
危懼	-11.329
之彰見	-11.329
序若之何而能使民不遺其親	-11.329
由親及	-11.329
能守法	-11.329
蓋士之孝也	-11.329
和其民	-11.329
而不奢	-11.329
四海諸侯不能保社稷	-11.329
乎曰未之有也	-11.3291
則為忠矣	-11.3291
無一不順其序則人道盡	-11.3291
孝治之大	-11.3291
明王孝徳感通之神	-11.3291
之風以	-11.3291
左丘	-11.3291
有甚於	-11.3291
致慤	-11.3291
配月	-11.3291
暮	-11.3291
徳義敬讓禮樂	-11.3291
以教其子	-11.3291
動止	-11.3291
理於家	-11.3292
待妻	-11.3292
誦詩	-11.3292
曲折之	-11.3292
始皇焚	-11.3292
一念而	-11.3292
之何也曰周公	-11.3292
其嗜欲	-11.3292
有六焉	-11.3292
一國之賦	-11.3292
有恒言	-11.3292
盡為子之	-11.3292
七里	-11.3292
土地之厚	-11.3292
壹不知夫	-11.3292
微詞	-11.3292
用殷禮	-11.3292
迨及	-11.3292
零七字	-11.3292
三辰	-11.3292
不亦難	-11.3292
之謂也未有	-11.3292
也若繇	-11.3292
俗儒	-11.3292
卑尊卑	-11.3292
危辱	-11.3292
取精於	-11.3292
名為宗	-11.3292
吾何慎哉	-11.3292
和彈之而	-11.3292
喪不慮居	-11.3292
感之而	-11.3292
敬愛者矣	-11.3292
此亦格言也	-11.3292
此物此志也	-11.3292
殷奠	-11.3292
無以異	-11.3292
祭祀之禮	-11.3292
者必誠必信勿之有悔焉耳矣	-11.3292
臣妾賤	-11.3292
自與也	-11.3292
舊觧云	-11.3292
託君	-11.3292
道而出	-11.3292
順天下者順	-11.3292
顔師	-11.3292
馳騁	-11.3292
之始死也	-11.3293
三曲	-11.3293
装綴以為孔子	-11.3293
姦人	-11.3293
至美之	-11.3293
統論	-11.3293
言一行	-11.3294
遂廢	-11.3294
生事愛敬	-11.3294
凡有五	-11.3294
刑於四海海内諸侯各修其職來助祭也	-11.3294
注廣敬也	-11.3294
七章申言	-11.3294
乃所以事其先	-11.3294
云熹	-11.3294
以三年為	-11.3294
侮亡	-11.3294
得其本則曰	-11.3294
殊别	-11.3294
稱也是	-11.3294
繁多	-11.3294
者詩序又曰	-11.3294
嚴尊也	-11.3294
則作參敢問	-11.3294
不安故不	-11.3294
却不相應疑亦裂取他書之成文而强加	-11.3295
與其所以則之因之之實然後	-11.3295
陳天明地性之目	-11.3295
無疆	-11.3295
循理	-11.3295
不辱其	-11.3295
所繇来	-11.3295
八月	-11.3295
孝德之本	-11.3295
人而曰父母	-11.3295
壇祭月	-11.3295
如斬	-11.3295
故父在	-11.3295
曰敢問何	-11.3295
書最	-11.3295
注風俗	-11.3295
猶之古也	-11.3295
不逺身	-11.3295
實録	-11.3295
曾子侍坐	-11.3295
此大亂之道也注	-11.3295
著則亦	-11.3295
凡九十字	-11.3295
孟子曰吾今	-11.3295
曽子至是	-11.3295
八寸	-11.3295
同故注	-11.3295
土土	-11.3295
外就前	-11.3295
失其次	-11.3295
孔叢子	-11.3295
庶人爲孝	-11.3295
教忠教順	-11.3295
明婦順	-11.3295
有不同者矣	-11.3295
職方	-11.3295
諸侯之祭	-11.3295
隱蔽	-11.3295
不失職	-11.3295
二衾	-11.3295
人心喜	-11.3295
以養諸侯兵不用而諸侯自為正之具也	-11.3295
公桑	-11.3295
其容體	-11.3295
刑罰中	-11.3295
則直用	-11.3295
反諸其所	-11.3295
喪出母	-11.3295
外又有梓棺厚	-11.3295
府學	-11.3295
敘講	-11.3295
於是觀	-11.3295
用之於戰勝	-11.3295
而民始	-11.3295
臨雍養老	-11.3295
衣冠	-11.3295
一心而	-11.3296
言孝之	-11.3296
皆化而	-11.3296
自驕則雖	-11.3296
配享	-11.3296
上謂君	-11.3296
離席	-11.3296
注不為文餙	-11.3297
郊社之義	-11.3297
諸侯言保	-11.3297
而罪莫大於不孝	-11.3297
尚其事	-11.3297
天下既有	-11.3297
修其徳則	-11.3297
宣公	-11.3297
最先	-11.3297
不可不審也	-11.3297
周旋可則容止可觀作事可法徳行可	-11.3297
音甫	-11.3297
天下之懽心	-11.3297
詩小雅小宛之	-11.3297
然後乃行	-11.3297
是故孝子	-11.3298
七人諸侯	-11.3298
號令	-11.3298
地之常經而	-11.3298
後世之名	-11.3298
則可與	-11.3298
勝于朱	-11.3298
化人是	-11.3298
也大傳曰	-11.3298
按論語云	-11.3299
愛敬各有	-11.3299
也而朱氏	-11.3299
無斁	-11.3299
興讓	-11.3299
飲水	-11.3299
宗時為	-11.3299
巧言	-11.3299
諫其君	-11.3299
不侮鰥寡	-11.3299
之執喪也	-11.3299
二帝三王之教	-11.3299
以忠順治官	-11.3299
何謂也曰	-11.3299
六畜	-11.3299
刑禁	-11.3299
則虛其	-11.3299
升堂	-11.3299
反於本	-11.3299
守亦可	-11.3299
性也性	-11.3299
所佚	-11.3299
敬吾身	-11.3299
敬肆	-11.3299
族兄	-11.3299
有子可	-11.3299
本盡則	-11.3299
漢書藝文志云	-11.3299
為諸侯日	-11.3299
王立七廟	-11.3299
用之於禮義	-11.3299
矣乾隆四十六年十	-11.3299
知所繇来者也	-11.3299
祧享嘗乃止	-11.3299
美報	-11.3299
而進一	-11.3299
若火之	-11.3299
闥	-11.3299
山井鼎	-11.3299
大於孝故	-11.3299
大雅文王	-11.33
上下交	-11.33
之所覆地之所載日月所照霜露所墜	-11.33
有何者可以加	-11.33
人心今則自	-11.33
可已矣	-11.33
十二著	-11.33
法於地	-11.33
言天子之孝天子	-11.33
之當先	-11.33
十一年	-11.33
古文居上	-11.33
一段	-11.33
凡十八章	-11.33
善性而	-11.33
尊卑貴賤	-11.33
敬其父兄君	-11.33
此即左傳	-11.33
注同治直吏反	-11.33
為下必	-11.33
親之䘮	-11.33
附㑹	-11.33
𤼵端	-11.33
參性遲	-11.33
於是乎道	-11.33
上謂君也	-11.33
者孔安國	-11.33
公侯伯子	-11.3301
字古文同在	-11.3301
補過謂	-11.3301
是士	-11.3301
疾也曾子	-11.3301
受禄	-11.3302
愛施於	-11.3302
之感人	-11.3302
各至其	-11.3302
祖而五	-11.3302
保其天下	-11.3302
厥後今文	-11.3302
未之聞	-11.3302
諭親	-11.3302
主而祭	-11.3302
于先生	-11.3302
冬藏	-11.3302
前代	-11.3302
喪内恕孔悲	-11.3302
末流	-11.3302
中其節則	-11.3302
九州之外	-11.3302
事兄悌故順可移於長注	-11.3302
人之驕	-11.3302
傅㑹	-11.3302
呉澄又	-11.3302
善降之百	-11.3302
器物	-11.3302
坐席	-11.3302
大旅	-11.3302
夷字	-11.3302
宰予之言也	-11.3302
尚齒	-11.3302
帝稷	-11.3302
廢孔	-11.3302
戰國	-11.3302
救周	-11.3302
方伯	-11.3302
曰顯考廟曰祖考廟皆月祭之逺廟為祧	-11.3302
有耻之士	-11.3302
父之尊	-11.3302
甓	-11.3302
用左氏	-11.3302
皆古文也	-11.3302
知其法	-11.3302
知其體	-11.3302
紐	-11.3302
者不足以	-11.3302
者天下之大	-11.3302
起下之	-11.3302
跳行	-11.3302
輕財	-11.3302
魏晉	-11.3302
經籍	-11.3302
身不毁傷	-11.3302
各從其	-11.3302
雖得志	-11.3303
足以為孝	-11.3303
孔子對	-11.3303
故得萬國之懽心	-11.3303
上三徳於	-11.3303
災也非先王之法言不敢	-11.3303
云黄帝	-11.3303
稱諸侯七	-11.3303
助字	-11.3303
一人之書一時之言	-11.3303
堂堂	-11.3303
所授賢人	-11.3303
誰能順	-11.3303
之詳矣	-11.3304
孝之始終	-11.3304
未達	-11.3304
為之節文	-11.3304
之者易以	-11.3304
復其位	-11.3304
卿大夫行孝	-11.3304
之王者皆	-11.3305
所以逺亂	-11.3305
稱公九	-11.3305
西階	-11.3305
宋元以	-11.3305
有不死	-11.3305
瞽亦如之	-11.3305
之㣲言	-11.3305
古者諸侯之	-11.3305
周書曰	-11.3305
盖後世	-11.3305
祈農	-11.3305
諫諍章	-11.3305
也諸侯相厲以	-11.3305
荘敬	-11.3305
藝文志文	-11.3305
不在其中	-11.3305
事者後	-11.3305
全襲	-11.3305
凡附於	-11.3305
列於朝出入	-11.3305
則不得曰	-11.3305
勇敢强有力	-11.3305
卜之日	-11.3305
去國三世爵祿	-11.3305
婦執	-11.3305
弗除	-11.3305
或未盡	-11.3305
梁王	-11.3305
求見孟子	-11.3305
深墨	-11.3305
盛業	-11.3305
盡其養	-11.3305
繋於	-11.3305
莫不欲	-11.3305
西漢	-11.3305
言其不敢	-11.3305
言合祀	-11.3305
道徳名	-11.3305
非仁人	-11.3305
則為順	-11.3305
人為貴	-11.3305
君而事	-11.3305
國之本	-11.3305
聖人非能徧	-11.3306
為上者不	-11.3306
覆載	-11.3306
也禮樂交	-11.3306
好善而	-11.3306
父子君臣	-11.3306
業擅專門猶將十室希升堂者必自開	-11.3306
牖攀逸駕者必騁殊軌轍	-11.3306
於祖考則	-11.3306
易乾	-11.3306
昔者舜	-11.3306
不飲酒食肉	-11.3306
也兩者	-11.3306
三年憂	-11.3306
刪存一千五百	-11.3306
君行敬讓則	-11.3306
失其位	-11.3306
簟反	-11.3306
斷章	-11.3307
徳教謂至	-11.3307
盎君	-11.3308
和元年	-11.3308
按舊注	-11.3308
諫盡命	-11.3308
妻曰鰥	-11.3308
入仕	-11.3308
天下盡忠	-11.3308
之類是也云	-11.3308
事長則順矣	-11.3308
五歩	-11.3308
已久矣	-11.3308
帝謂東方青帝靈威仰	-11.3308
極隆	-11.3308
求富貴	-11.3308
皆在焉	-11.3308
祖顓頊而宗	-11.3308
禘黄帝而郊	-11.3308
者必心	-11.3308
肄則	-11.3308
風聲	-11.3308
有諌	-11.3308
為人子者當	-11.3308
謹慎	-11.3308
爭導之以禮樂而民和睦	-11.3309
扶持	-11.3309
以畜	-11.3309
無聲之樂	-11.3309
難安可能也	-11.331
夏書曰	-11.331
刪之改之移易之	-11.331
故夫子稱	-11.331
景明	-11.331
者也樂者	-11.331
總而言之	-11.331
太平	-11.331
口體	-11.331
和之至也	-11.331
侯度	-11.331
多識	-11.331
七年	-11.3311
大棺六	-11.3311
任意	-11.3311
少賤之	-11.3311
私喪	-11.3311
八章	-11.3311
不備之	-11.3311
殊異	-11.3311
立政教	-11.3311
簒弑者	-11.3311
八比	-11.3311
其君者也	-11.3311
忿怒	-11.3311
愛敬不生	-11.3311
或非之	-11.3311
故見為	-11.3311
百篇	-11.3311
若是乎	-11.3311
通神明	-11.3311
不説人	-11.3311
人不使	-11.3311
去邪	-11.3311
可以治官	-11.3311
天敬親	-11.3311
妻子猶	-11.3311
季夏	-11.3311
愛敬忠順	-11.3311
皆在郊	-11.3311
積重	-11.3311
詔於國	-11.3311
諫勸	-11.3311
趨利	-11.3311
為子而	-11.3312
説所以事	-11.3312
尊后稷猶	-11.3313
親生膝	-11.3313
文勢	-11.3313
勸善	-11.3313
救正	-11.3313
虞夏	-11.3313
則天明	-11.3313
撫愛	-11.3313
文定所	-11.3313
有遯	-11.3313
如此之美	-11.3313
也位不	-11.3314
旦反	-11.3314
以保其身	-11.3314
滅亡	-11.3314
則爲忠	-11.3314
乎何其言之	-11.3314
斬衰三日不食	-11.3314
殯而臣有父母之喪則如之何孔子曰歸	-11.3314
之而弗	-11.3314
能孝能	-11.3314
順從其	-11.3314
示民不敢	-11.3314
為王者之	-11.3314
則民作讓	-11.3314
創制	-11.3314
自舜始	-11.3314
有僕	-11.3314
祖始也	-11.3314
經術	-11.3314
三年之後	-11.3314
之患弗得	-11.3314
切實	-11.3314
如客	-11.3314
宫刑	-11.3314
惡慢去	-11.3314
於君遂	-11.3314
此皆説	-11.3314
王制曰	-11.3314
甫刑即	-11.3314
若依鄭	-11.3314
驕志	-11.3314
欲移	-11.3315
涖下	-11.3316
而德教加於百姓	-11.3316
至廣	-11.3316
子從父之令可謂孝乎	-11.3316
不同位	-11.3316
外飾	-11.3316
章文也	-11.3316
髙卑	-11.3316
上農夫	-11.3316
安其位	-11.3316
父忌	-11.3316
天子諸侯卿大夫士	-11.3317
要約	-11.3317
象尼丘山	-11.3317
輔翼	-11.3317
母之喪	-11.3317
詩之大意	-11.3317
夏周之	-11.3317
注五經	-11.3317
不待戒肅而自成其	-11.3317
祖禹	-11.3317
嚳於圜丘	-11.3317
足與於	-11.3317
不刋之	-11.3317
者此依魏注也	-11.3317
之昭明	-11.3317
之深也	-11.3317
并舉	-11.3317
母也愛	-11.3317
自為愛敬	-11.3317
西郊	-11.3317
下能言	-11.3317
仁孝之義	-11.3317
以鼗	-11.3317
受爵	-11.3317
在公宫之	-11.3317
子曰非先王之法服不敢服	-11.3317
書有之	-11.3317
未篤	-11.3317
無以為身	-11.3317
禍難	-11.3317
等也然則	-11.3317
而繼禰	-11.3317
聖人之道息	-11.3317
聴命	-11.3317
集錄	-11.3317
卑上下	-11.3318
無坐字	-11.3318
可假	-11.3319
注上謂君也	-11.3319
可度	-11.3319
敬譲以	-11.3319
之有尸	-11.3319
君千萬人	-11.3319
之於末	-11.3319
之詩以結之言	-11.3319
子者皆知盡事父之	-11.3319
徐行	-11.3319
操行	-11.3319
是王者之	-11.3319
曰我其	-11.3319
用勞	-11.3319
矣然猶	-11.3319
者皇侃云	-11.3319
弓曰	-11.332
親而不尊君	-11.332
法於聖	-11.332
者也常立於	-11.332
得其報	-11.332
諸侯之喪祭	-11.332
之勢也	-11.332
慎者不	-11.332
罔以盡	-11.332
民猶以為	-11.3321
十三年	-11.3321
以見天子	-11.3321
二則曰	-11.3321
子相親	-11.3321
位也君	-11.3321
禁亂	-11.3321
之志也是	-11.3321
争辨	-11.3321
俱出	-11.3321
加隆	-11.3321
受業	-11.3321
或使之	-11.3321
明孝道之大	-11.3321
春春	-11.3321
時博士	-11.3321
氣盛	-11.3321
而翻	-11.3321
而行信	-11.3321
還坐而	-11.3321
音待	-11.3321
成形	-11.3321
平居無事	-11.3321
詳以告之也	-11.3321
無所取	-11.3321
入門	-11.3322
用則者	-11.3322
言愛父與母同敬父與君同	-11.3322
服言行	-11.3322
示神	-11.3322
繼世	-11.3322
不可違	-11.3322
宗武王	-11.3322
特起	-11.3322
者中央之	-11.3322
訓釋	-11.3322
雖稍	-11.3322
修業	-11.3323
忠之為	-11.3323
後漢馬融	-11.3323
而能改	-11.3324
可告於天子	-11.3324
蒸民	-11.3324
始於祖	-11.3324
承歡	-11.3324
所以明君臣之義也	-11.3324
能行愛敬	-11.3324
性習	-11.3324
亦曰吾	-11.3324
其地則	-11.3324
本於天地	-11.3324
注愷	-11.3324
任刑	-11.3324
君子不絶	-11.3324
詩曰天生	-11.3324
順物之	-11.3324
以著代也	-11.3324
伏生	-11.3324
愈疏	-11.3324
所刪者	-11.3324
易進難退之	-11.3324
爲河間	-11.3324
著於外	-11.3324
行三者皆	-11.3324
識音	-11.3324
還中	-11.3324
教以愛敬	-11.3324
及傳	-11.3324
行孝弟臣	-11.3324
又必謹	-11.3324
近於日	-11.3325
不失其天下	-11.3325
致其福	-11.3325
𦵏之以禮祭	-11.3325
者正身	-11.3325
也言王者	-11.3325
行孝也言	-11.3325
至其極	-11.3325
故禍亂不作	-11.3325
終於立身下	-11.3325
無方之	-11.3326
在醜而争之	-11.3326
庶人孝無終始而患不及者未之有也	-11.3326
而親母	-11.3327
敎化之	-11.3327
心常存	-11.3327
往而不	-11.3327
吾嘗	-11.3327
稱諡	-11.3327
云某	-11.3327
也注君行至	-11.3327
于一本	-11.3327
比年	-11.3327
聖人之訓	-11.3327
諸侯之於天子也	-11.3327
之喪公	-11.3327
固結	-11.3327
射者以	-11.3327
已孤	-11.3327
庶老	-11.3327
散齊	-11.3327
無體之禮威儀	-11.3327
王者出	-11.3327
矣而猶且	-11.3327
聞揚名	-11.3327
傷則其	-11.3328
長其子	-11.3328
地察	-11.3328
謹其法	-11.3328
色不滿容行不正	-11.3328
欲教民以有禮	-11.3328
則知貴賤	-11.3328
率祖	-11.3329
自下而	-11.3329
古昔	-11.3329
請死	-11.3329
非外也	-11.3329
春夏	-11.333
各尊其	-11.333
不敬其親而敬他人者	-11.333
昭穆相	-11.333
也又案	-11.333
子則可謂	-11.333
於天子天子	-11.333
禮樂之情	-11.333
則災害不生	-11.333
則黄帝	-11.333
哀之至也	-11.333
宗廟祭祀	-11.333
憂憂	-11.333
推賢	-11.333
揚命	-11.333
淳于	-11.333
為何如	-11.333
百神	-11.333
者不煩	-11.333
莊公	-11.333
謂忽	-11.333
事君則忠以	-11.333
施化	-11.333
音悦	-11.3331
君之美	-11.3331
發端	-11.3331
行莫大於孝也	-11.3331
之惑也	-11.3332
天地之所	-11.3332
莫不服	-11.3332
以多福	-11.3332
天事母	-11.3332
于是乎	-11.3332
措時	-11.3332
聖人建	-11.3332
選擇也	-11.3332
其篇	-11.3333
不得為孝	-11.3333
不及於己	-11.3333
徳教加於百姓刑于四海	-11.3333
禮記閒傳	-11.3333
爲終也	-11.3333
異於士	-11.3333
世之孝	-11.3333
而何乎	-11.3333
宗伯	-11.3333
范祖禹曰君子	-11.3333
迎長日	-11.3333
三年不為	-11.3333
傳習	-11.3333
公室	-11.3333
公劉	-11.3333
内豎曰	-11.3333
如日月之	-11.3333
宗子之	-11.3333
幾字	-11.3333
耳詩云	-11.3333
臣子所	-11.3333
必合	-11.3334
隨所	-11.3334
在卿大夫之	-11.3335
夫豈其	-11.3335
深戒	-11.3335
節省	-11.3335
變風	-11.3335
令行	-11.3335
孝徳之本	-11.3335
經一章傳十四章	-11.3336
此一字	-11.3336
皆順從	-11.3336
不虛	-11.3336
故親生	-11.3336
夷服	-11.3336
者天地所為	-11.3336
呉澄謂	-11.3336
表章	-11.3336
修其身	-11.3336
友陳	-11.3336
教民之道	-11.3336
然其意	-11.3336
畏義	-11.3336
考工記曰	-11.3336
脩政	-11.3336
先王之道徳	-11.3336
孝經論語	-11.3336
已慤	-11.3336
帝嚳配天	-11.3336
殺則下	-11.3336
浴於	-11.3336
天有常	-11.3336
之高行也	-11.3337
時雨	-11.3338
事天地之道	-11.3338
蟄不	-11.3338
以致愛	-11.3338
父母之養	-11.3338
今特	-11.3338
分職	-11.3338
式過	-11.3338
以下至於	-11.3338
言與之義	-11.3339
子孔子弟子侍謂侍坐	-11.3339
言先王行	-11.3339
易奠卒哭	-11.3339
未之有也然則	-11.3339
幼幼	-11.3339
謂之逆	-11.334
不可以居	-11.334
鬼神之能	-11.334
不用樂	-11.334
不與祭	-11.334
傷其親	-11.334
史官	-11.334
審固	-11.334
已歛	-11.334
明暢	-11.334
爵視	-11.334
理斷	-11.334
異信	-11.334
補焉	-11.334
讀孝經	-11.334
長慮	-11.334
象日月	-11.334
大雅云	-11.334
博學	-11.334
舉其大	-11.334
所以教弟	-11.334
雅頌之	-11.334
通於神明又	-11.3341
者也斬衰	-11.3341
所以敬天下之為人君者也	-11.3341
陳貴賤	-11.3341
不令而	-11.3341
異端	-11.3341
四表	-11.3341
與太子	-11.3341
乃天性	-11.3341
互文	-11.3341
令力	-11.3342
士而未	-11.3342
不忘父母	-11.3342
焉若是	-11.3342
髙祖	-11.3342
聖證	-11.3342
今文稱鄭	-11.3343
徳而無其	-11.3343
季文子曰以訓則昏民	-11.3343
無則焉不度於善而皆	-11.3343
宰夫	-11.3343
尸利	-11.3343
未之行也	-11.3343
不忠則不	-11.3343
何不敬	-11.3343
諸侯耕	-11.3343
之郊是	-11.3343
可笑	-11.3343
孝於天地	-11.3343
御政	-11.3343
本大學	-11.3343
者心之	-11.3343
親見之	-11.3343
賔入	-11.3343
亦猶此	-11.3343
何也曰聖人	-11.3343
應如此	-11.3343
盖諸侯之孝	-11.3343
祀此則	-11.3343
不曰治	-11.3344
仲長	-11.3344
之上帝以配祖考	-11.3344
止於孝	-11.3344
奉宗廟	-11.3344
二雅	-11.3344
善繼	-11.3344
經文今	-11.3344
大夫能早夜不惰敬事其	-11.3344
無愆	-11.3345
天子而下	-11.3345
知愛親	-11.3345
之職事	-11.3346
天子視學	-11.3346
文之弊	-11.3346
賔以象	-11.3346
祀典	-11.3346
八音	-11.3346
細猶	-11.3346
修春秋	-11.3346
孔聖	-11.3346
開國	-11.3346
周公然則	-11.3346
大聘	-11.3346
議論	-11.3346
代食	-11.3346
太宗	-11.3346
彼哉	-11.3346
然而未	-11.3346
祭不欲	-11.3346
經傳正	-11.3346
還拜也	-11.3346
▁離力智反	-11.3347
知幾	-11.3347
善謂身行愛敬也	-11.3347
尸位	-11.3347
愛以敬	-11.3347
所以防	-11.3347
民之心而	-11.3347
氣體	-11.3347
諸侯之孝治	-11.3347
所以為孝之始	-11.3348
明王能以孝道	-11.3348
盡其愛敬之	-11.3349
以及一國	-11.3349
古文偽	-11.3349
於敬敬以	-11.3349
偽書	-11.3349
淺學	-11.3349
行而古文	-11.3349
論語孝經	-11.3349
其君一	-11.3349
孤子	-11.3349
朝㑹	-11.3349
殺人之	-11.3349
葬其親	-11.3349
集賢	-11.3349
利之則	-11.3349
而後動	-11.335
以勸	-11.335
以結上文	-11.335
寛而不	-11.335
葢諸侯之孝	-11.335
太甲	-11.335
故五人	-11.335
前堂	-11.3351
若是者何也	-11.3351
安百姓	-11.3351
如之何	-11.3352
祖載	-11.3352
情之不可	-11.3352
莫由	-11.3352
必有婉容	-11.3352
天下之父兄	-11.3352
問答之言	-11.3352
致親於	-11.3352
金革之事無辟也者	-11.3352
得周於	-11.3352
以為後人	-11.3352
等殺	-11.3352
人信其	-11.3352
哀哉	-11.3352
慎行則	-11.3352
易簡	-11.3352
漢志	-11.3352
父母之命	-11.3352
示民	-11.3353
條理	-11.3354
而後君臣	-11.3354
足以盡	-11.3354
然後乃言	-11.3354
一而已故	-11.3354
順其性	-11.3355
於民之所	-11.3355
也然且君子	-11.3355
神而明	-11.3355
成於君	-11.3355
爾雅曰	-11.3355
五傳者	-11.3355
卒從	-11.3355
未詳	-11.3355
不回	-11.3355
字句	-11.3355
王儉	-11.3355
非謙	-11.3355
而無服	-11.3355
後而下	-11.3356
未忘	-11.3356
畏聖人之	-11.3357
書章句	-11.3357
名棄	-11.3357
今移	-11.3357
有加焉	-11.3357
謂之儀	-11.3357
謂之良	-11.3357
反説音	-11.3357
故以友	-11.3357
孝諸侯以	-11.3358
司成	-11.3358
無有惡慢及	-11.3358
禮之至著者也	-11.3358
而民從	-11.3358
與今文異者	-11.3358
再三	-11.3358
無敢有	-11.3358
不厭	-11.3358
異慮	-11.3358
併不	-11.3358
樂也者	-11.3358
不然君	-11.3358
居室	-11.3358
戎事	-11.3358
易慢	-11.3358
養其親則	-11.3358
彼我	-11.3358
推之于	-11.3358
特立	-11.3358
祖孫	-11.3358
别起	-11.336
神尚	-11.336
汝作	-11.336
故逺於	-11.3361
孔安國孝經	-11.3361
以享先	-11.3361
孔子之書	-11.3361
以尊天	-11.3362
報本反始之	-11.3362
孝弟衰	-11.3362
經者常	-11.3362
為非也	-11.3362
皆連	-11.3362
乎人情	-11.3362
以禮字	-11.3362
一源	-11.3362
以無忝	-11.3362
得其志	-11.3362
疾可以	-11.3362
神保	-11.3362
以義起也	-11.3362
刪孝經	-11.3362
君子致其	-11.3362
安寧	-11.3362
而殽	-11.3362
分祀	-11.3362
孝以事親	-11.3362
兄弟和	-11.3362
之孝心	-11.3362
而法之	-11.3363
為市朝	-11.3363
音餘	-11.3363
爲一章	-11.3363
風敎	-11.3363
上之化	-11.3363
其羙	-11.3363
嚴恭	-11.3363
畏敬	-11.3363
當門	-11.3363
遐逺也	-11.3363
樂聲不	-11.3364
相次	-11.3364
答之則	-11.3364
甲子	-11.3364
要盡	-11.3365
亦可知也	-11.3365
子夷子	-11.3365
消於	-11.3365
人所不能	-11.3365
因貞	-11.3365
愛敬之理	-11.3365
憂思	-11.3365
死制	-11.3365
澤及	-11.3365
二端	-11.3365
今文尚書	-11.3365
名𤣥	-11.3365
徵在	-11.3365
風物	-11.3365
其中矣	-11.3365
宋本	-11.3366
教以臣	-11.3366
無有窮	-11.3366
善事父母	-11.3366
克己	-11.3366
斯言之	-11.3366
盖就	-11.3366
事母能	-11.3366
正義曰此説	-11.3366
為治也	-11.3367
無而字	-11.3367
常存	-11.3367
我而皆	-11.3367
原于天	-11.3367
𤣥冕而	-11.3368
事君事長之	-11.3368
濟志	-11.3368
孝子所不	-11.3368
邢疏而	-11.3368
誠以成	-11.3368
以柷	-11.3368
六月	-11.3368
只是	-11.3368
宜哉	-11.3368
欲求	-11.3368
祭皆以	-11.3368
註經者	-11.3368
受氣	-11.3368
國人皆	-11.3368
天子負	-11.3368
将祭	-11.3368
棺音	-11.3368
致詳	-11.3368
以復經文之舊其傳文之失又别論之如	-11.3368
天之道謂	-11.3369
言是何言與	-11.3369
為法於天下可傳於後世	-11.3369
後不言	-11.337
承受	-11.337
政是故	-11.337
書記	-11.337
難備	-11.337
無損	-11.337
凡八十	-11.337
就此三	-11.337
夫子奔逸	-11.337
愾然	-11.3371
可知也注	-11.3371
而愛先	-11.3371
也誠之	-11.3371
講義	-11.3371
請問	-11.3371
分列	-11.3371
曰某	-11.3371
之實焉	-11.3371
乎曰聖人	-11.3371
在邦	-11.3371
宗社	-11.3371
於祖廟	-11.3371
歸於天	-11.3371
逺怨	-11.3371
罪惡	-11.3371
古訓	-11.3372
盛哉	-11.3372
親而外不	-11.3372
臣下忠	-11.3372
君子有此	-11.3373
也周	-11.3373
可去也	-11.3374
也夫人君	-11.3374
合而成	-11.3374
言行滿於天	-11.3374
之國爲	-11.3374
四方諸侯	-11.3374
孔傳中	-11.3374
以摯	-11.3374
勤民	-11.3374
者殃	-11.3374
上圜	-11.3374
喪紀	-11.3374
孝子之義也	-11.3374
數數	-11.3374
陽而不	-11.3374
若是其	-11.3375
是而終矣	-11.3375
為法故	-11.3376
孝悌之事	-11.3376
末章	-11.3376
不一而	-11.3377
之有詩曰	-11.3377
長上	-11.3377
不覩	-11.3377
尊賢而	-11.3377
咸知	-11.3377
既養老	-11.3377
今更	-11.3377
不行愛敬	-11.3377
又增	-11.3377
在一日	-11.3377
於公族	-11.3377
於其臣	-11.3377
易尚書	-11.3377
致尊於	-11.3377
一十八章	-11.3378
以不孝為	-11.3378
安危	-11.3378
堯之行	-11.3378
尊賢	-11.3379
馬融亦	-11.3379
此章既	-11.3379
咸服	-11.3379
一取其	-11.3379
于妻子	-11.3379
心為心	-11.338
天子用樂	-11.338
之必然	-11.338
是古人	-11.338
則無終始	-11.3381
服者言	-11.3381
與曰各	-11.3381
命臨	-11.3381
禮樂備	-11.3381
興利	-11.3381
一編	-11.3381
失其心	-11.3381
小卿	-11.3381
生兄弟	-11.3381
者通也	-11.3381
鄭氏注	-11.3381
親若	-11.3382
順人心	-11.3382
何等	-11.3382
下文云	-11.3382
自陷	-11.3382
幽明	-11.3382
仁而終	-11.3383
本事也	-11.3384
上辛	-11.3384
不裁	-11.3384
之復之	-11.3384
四象	-11.3384
自補	-11.3384
興亂	-11.3384
鬼享而	-11.3384
得福	-11.3384
刋行	-11.3385
五典	-11.3385
引詩及	-11.3385
帝以文王配	-11.3386
來世	-11.3386
用之節	-11.3386
如臯	-11.3386
報本	-11.3387
國者不	-11.3387
知禮者	-11.3387
人生所	-11.3387
君在上	-11.3387
任重	-11.3387
愧於	-11.3387
矣聘	-11.3387
不知己	-11.3387
今詳	-11.3387
凡養老	-11.3387
而不逆	-11.3387
君長	-11.3387
故此	-11.3387
淳化	-11.3388
者嫌	-11.3388
親其下	-11.3388
親遜	-11.3388
守富	-11.3389
傷天下	-11.3389
萬國舉其多也言行孝道	-11.3389
祖以配天	-11.339
親先意承志	-11.339
天下樂之	-11.339
經三	-11.339
一壇	-11.339
賜諸侯	-11.339
資始	-11.339
韋布而	-11.339
無關	-11.339
主婦	-11.339
也而諸侯	-11.339
其實皆	-11.339
似忠	-11.339
所以供	-11.339
盛世	-11.339
老氏	-11.339
諸侯而下	-11.339
而名之	-11.339
長者謂之	-11.3392
又竊	-11.3392
専一	-11.3392
以孝使	-11.3393
他家	-11.3393
此其所以	-11.3393
固執	-11.3393
昭二	-11.3393
所最	-11.3393
國史	-11.3393
在朝言	-11.3393
而該	-11.3393
能講	-11.3393
以理天下皆得懽心則各以其職	-11.3394
敬安親	-11.3394
愛敬之失	-11.3394
之以刑	-11.3395
愈大	-11.3395
天地之序也	-11.3395
不敬也敬	-11.3396
重莫	-11.3396
萬物之靈故	-11.3396
仁義禮樂	-11.3396
曰將君我而與我齒讓何也曰有	-11.3396
樂器	-11.3396
五色	-11.3396
土地	-11.3396
自持	-11.3396
侮禮	-11.3396
失其義	-11.3396
最尊	-11.3396
禰廟者	-11.3396
因性立教	-11.3398
人亦愛	-11.3398
也卑者	-11.3398
不可假	-11.3398
所望	-11.3398
盖由	-11.3398
聖帝	-11.3398
庸言	-11.3398
天下之父	-11.3399
以事上帝	-11.3399
天圜丘	-11.3399
不得懈惰	-11.3399
失之矣	-11.34
可以兼	-11.34
襄者	-11.34
道統	-11.34
悖矣悖	-11.34
交同	-11.3401
如此之謂	-11.3401
所貴有	-11.3401
既冠	-11.3402
傷生雖毁瘠而不	-11.3402
舉足	-11.3402
孝經有二	-11.3402
五者一	-11.3403
而讀之	-11.3403
也而士	-11.3403
子張	-11.3403
有其容	-11.3403
秋用	-11.3403
舜而已	-11.3403
何曰敬而已	-11.3403
服其服而	-11.3404
位卑	-11.3404
完矣	-11.3404
従父	-11.3404
曽子曽子	-11.3404
詩大雅抑	-11.3405
祀文王	-11.3406
要因	-11.3406
餘章	-11.3406
公尸	-11.3406
多死	-11.3406
其隣	-11.3406
出於天地	-11.3406
和應	-11.3406
明庭	-11.3406
相等	-11.3406
為人上	-11.3406
豈獨	-11.3406
育之恩	-11.3406
弟施	-11.3407
知無不	-11.3407
法象	-11.3407
也若乃	-11.3407
博學而無	-11.3408
多累	-11.3409
所聚	-11.3409
以致孝	-11.3409
言人之不	-11.3409
近刑	-11.3409
乎先儒	-11.3409
以駁	-11.3409
尚志	-11.3409
未施	-11.3409
謀及	-11.3409
於不義	-11.3409
味反	-11.3409
者始教	-11.3409
可謂能	-11.341
意則引	-11.341
入朝	-11.341
及遠	-11.3411
古人之意	-11.3412
敬者愛之	-11.3412
七十子	-11.3412
不蚤	-11.3412
可度以	-11.3412
不忠於君	-11.3412
可以備	-11.3412
修詩	-11.3412
明白	-11.3412
條中	-11.3412
失忠順	-11.3413
正義曰前章	-11.3413
此又所以	-11.3414
猶此志也	-11.3414
道遠	-11.3415
公田	-11.3415
卿相	-11.3415
古之君子	-11.3415
故君臣上下	-11.3415
未備	-11.3415
祭乎曰	-11.3415
老兄	-11.3415
語意	-11.3415
始於事親終於	-11.3416
入廟	-11.3417
詩書禮樂之	-11.3417
不可以不知	-11.3417
親之去	-11.3418
炫所	-11.3418
頒天下	-11.3418
而游夏	-11.3418
注悲哀	-11.3418
盡哀	-11.3418
天地宗廟	-11.3418
君之德	-11.3418
宗祀文王於明堂以配上帝注	-11.3418
國周禮	-11.3418
三年以為	-11.3418
及秦	-11.3418
尊讓	-11.3418
成其親	-11.3418
為門人	-11.3418
爲士者	-11.3418
則上下和	-11.3419
至漢	-11.3419
政齊	-11.342
言郊祀者	-11.342
何足	-11.342
人君所以	-11.342
此言宗祀	-11.3421
二篇	-11.3422
天性非由	-11.3422
求葢	-11.3422
誰非	-11.3422
賤服	-11.3423
以善道	-11.3423
言德行	-11.3423
氏門人之所記也疑所謂孝經者	-11.3423
中間	-11.3423
人之志	-11.3424
孝於親而	-11.3424
事生之	-11.3425
夫子陳說	-11.3425
合衆	-11.3425
自為文	-11.3425
不以義	-11.3425
可以諫	-11.3425
甚易	-11.3425
而父之	-11.3425
自從也	-11.3425
於郊社	-11.3425
無服之	-11.3425
是不知有	-11.3426
務在	-11.3426
以配上帝	-11.3426
無以立	-11.3426
孝誰	-11.3426
於其父母	-11.3426
之所繇生	-11.3426
於家則行	-11.3427
遺猶	-11.3427
君立	-11.3428
與國人	-11.3428
皆質也	-11.3428
物也注	-11.3428
不可辨	-11.3428
愛百姓	-11.3428
極諫	-11.3428
致憂	-11.3428
能也天地鬼神	-11.3428
因地之義	-11.3429
下方	-11.3429
聖人之德	-11.3429
衆多	-11.3429
之道備	-11.343
孔時	-11.343
於天者也	-11.343
將責	-11.343
祀帝	-11.3431
重加	-11.3431
聞之矣	-11.3431
而明之	-11.3431
曰孤	-11.3433
始仕	-11.3433
則臣佩	-11.3433
于君者	-11.3433
直可以	-11.3434
不敢入	-11.3434
之刑不	-11.3434
在昔	-11.3434
已疾	-11.3434
死之不	-11.3434
共立	-11.3434
地風	-11.3434
休焉	-11.3435
故其成	-11.3435
天賦	-11.3436
敬其所敬	-11.3436
無禮則	-11.3437
有一毫之不	-11.3437
章次則	-11.3437
不得過	-11.3437
即孝也	-11.3437
哉夫子	-11.3437
尚未	-11.3437
㣲義	-11.3437
事康	-11.3437
案史記	-11.3437
而有能	-11.3437
君有過失則思補	-11.3438
也者此依孔傳也劉炫	-11.3439
則不敢不	-11.3439
不忒	-11.3439
無怠	-11.3439
親之孝也	-11.3439
焉以其敬而	-11.344
亂由	-11.344
武公	-11.344
釋奠於	-11.344
勇敢者	-11.344
去聖	-11.344
之時已有親	-11.3441
不敢祖	-11.3441
徳義以	-11.3441
社諸侯	-11.3441
成其身	-11.3441
同於父非不	-11.3441
亦謂之	-11.3441
有敬心	-11.3441
室家	-11.3442
改過	-11.3442
於萬民	-11.3442
之士謂	-11.3442
隣里	-11.3442
有輕重	-11.3443
其職事	-11.3443
所以於此	-11.3444
故為人子	-11.3444
矣然且	-11.3444
者其本一也	-11.3444
之與君	-11.3444
然則天地不	-11.3444
多非要	-11.3445
其臣則	-11.3445
傳釋	-11.3445
始立身	-11.3445
人之道也	-11.3445
在東序	-11.3446
一例	-11.3447
亦本於	-11.3447
爲證	-11.3447
魯國	-11.3447
外體	-11.3447
能察	-11.3447
門内	-11.3448
中野	-11.3449
不能事君	-11.3449
仁人孝子所	-11.345
無咎	-11.345
參問	-11.345
更立	-11.345
能以禮	-11.345
時思之也	-11.3451
由孝而	-11.3451
語或	-11.3452
而孝弟之	-11.3452
不紊	-11.3452
佛老之	-11.3453
遂亡	-11.3453
明儒	-11.3453
祭之無	-11.3453
至痛	-11.3453
小祀	-11.3453
敬以成	-11.3453
漸矣	-11.3453
辟兵	-11.3454
須盡	-11.3454
教者孝	-11.3454
事父孝	-11.3454
慼之	-11.3455
非餕莫	-11.3455
不生非	-11.3455
所敬者寡而恱者衆此之謂要道也	-11.3455
中正	-11.3455
失位	-11.3455
和實	-11.3456
人親其	-11.3456
昭王	-11.3456
而夫子以為	-11.3456
大臨	-11.3456
正諫者	-11.3456
而又為	-11.3456
知有所	-11.3457
大雅曰	-11.3458
士行孝	-11.3458
殷禮	-11.3458
受命於君	-11.3458
為教本	-11.3459
無以得	-11.3459
大饗	-11.3459
外宗	-11.3459
萬幾之	-11.346
明報	-11.346
謂子路	-11.346
也夜明	-11.346
兩義	-11.346
地氣	-11.346
故中和	-11.346
謂父兄	-11.346
也徳者得也	-11.346
悖矣	-11.3461
五叚	-11.3461
朝朝	-11.3461
辱其父母也	-11.3461
受命與	-11.3462
死生之義	-11.3462
四章大傳第	-11.3463
於父母故	-11.3463
桀紂之	-11.3463
太史也	-11.3463
之可考	-11.3463
也在國之	-11.3463
宫中	-11.3463
帝命	-11.3463
必式	-11.3463
祭地也	-11.3463
足以見	-11.3463
勿慮	-11.3463
孝以事	-11.3463
曽子聞	-11.3464
夫猶有	-11.3464
聖智	-11.3464
文質生	-11.3465
於寢	-11.3465
父雖不	-11.3465
又有非	-11.3466
也故先王	-11.3466
而不改	-11.3467
尚何	-11.3467
親其上	-11.3467
忠之道	-11.3468
過者皆	-11.3468
立社稷	-11.3468
什一	-11.3468
理實	-11.3469
始末	-11.3469
曰譽	-11.3469
獨聞	-11.3469
不諫而	-11.3469
有隆殺	-11.3469
當争	-11.3469
其刑墨	-11.347
而一以	-11.347
今案	-11.347
六合	-11.3471
公侯伯之	-11.3471
自昔	-11.3471
生夏長秋斂冬閉	-11.3471
使過	-11.3471
能養父母	-11.3472
衾而舉	-11.3472
孔傳云	-11.3472
問答之	-11.3472
心而成其	-11.3472
必察	-11.3472
略曰	-11.3472
誰乎	-11.3472
書各	-11.3472
又假	-11.3472
外内	-11.3472
為廬	-11.3472
立春	-11.3472
者言雖	-11.3472
心敬而	-11.3473
於人非	-11.3473
以文王配之	-11.3473
此三者人	-11.3473
不敢犯也	-11.3473
顧行	-11.3474
此畧	-11.3474
者禮之實也	-11.3474
配享上	-11.3474
其動静	-11.3474
大德行	-11.3474
水有	-11.3474
以父教	-11.3475
民則民畏其	-11.3475
常聲	-11.3475
不知所謂	-11.3475
者言父	-11.3475
終篇	-11.3475
三達	-11.3475
何止	-11.3475
必須	-11.3475
有禱	-11.3475
武成	-11.3475
滿矣	-11.3475
見之故	-11.3475
使人知	-11.3476
言不及	-11.3476
患失其祿位	-11.3477
復我	-11.3477
可以保守	-11.3477
異制	-11.3478
豫順	-11.3478
而况於	-11.3478
之所愛	-11.3478
故注以	-11.3478
是也且	-11.3479
云云則	-11.3479
自致者	-11.3479
釋奠而	-11.3479
知其所由成	-11.3479
父慈	-11.3479
數章	-11.3479
至親者	-11.3479
祀非禮與曰	-11.348
也先王制禮	-11.348
心誠	-11.348
無終始之	-11.3481
始祖	-11.3481
澄謂	-11.3481
而後禮樂	-11.3481
為本於此	-11.3481
備此五	-11.3481
賢何	-11.3482
拜至	-11.3482
既設	-11.3482
古文今文	-11.3482
既備	-11.3482
卿大夫之孝治	-11.3482
蔵之	-11.3482
詩云赫赫師尹民具爾瞻此	-11.3482
三老所獻	-11.3484
之弊	-11.3484
報功	-11.3485
元士	-11.3485
尤大	-11.3485
皆可為	-11.3485
五載	-11.3485
然此則	-11.3485
者通於	-11.3485
見賢遍反	-11.3486
母存	-11.3486
非毁	-11.3486
非一日	-11.3486
以懲	-11.3486
退則思	-11.3487
所用也	-11.3488
若子之	-11.3488
未著而	-11.3488
生而孝	-11.3488
盡於此	-11.3488
言孝不	-11.3488
訾之	-11.3488
身為之	-11.3488
何以乎	-11.3488
内志	-11.3488
爲溢	-11.3488
生生於	-11.3489
取而分之	-11.3489
於君長	-11.3489
考亦	-11.3489
天下衆人	-11.3489
通於貴賤	-11.3489
也教之以孝	-11.349
死而後	-11.349
孝治天下	-11.349
日以至	-11.349
是天子所	-11.349
也然則曾子	-11.3491
於殷	-11.3491
也若用	-11.3491
為士矣	-11.3491
二語	-11.3492
位而守其祭祀盖士之孝也	-11.3492
周豐	-11.3492
麻為	-11.3493
心無不	-11.3493
能順其	-11.3494
諸侯必有	-11.3494
重言之	-11.3494
則不敢以	-11.3494
徒禮	-11.3494
必簡	-11.3494
父父不	-11.3494
古文失	-11.3496
地有常利言人法	-11.3496
唐虞之	-11.3496
人弟者皆知盡事兄之道	-11.3496
未有不繇	-11.3497
有序而	-11.3497
古文增	-11.3497
親饗	-11.3497
始定	-11.3497
者㓕	-11.3497
甲之	-11.3497
三度	-11.3497
未失	-11.3497
理之人	-11.3497
習與	-11.3497
所以為治	-11.3498
致應感	-11.3498
是編	-11.3498
和睦矣	-11.3499
行之然後	-11.3499
文言人	-11.35
之有主也	-11.35
在諸侯之	-11.35
好名	-11.35
於閒居	-11.3501
也故文	-11.3501
及羣	-11.3501
孝經之意	-11.3501
爲秦	-11.3501
射者各	-11.3501
而後謂之	-11.3501
者古文也	-11.3502
隂義也	-11.3502
事君章	-11.3502
三息	-11.3502
禮則凡	-11.3502
徳修	-11.3503
失其民	-11.3503
章第二十	-11.3504
嚴肅而	-11.3504
著心	-11.3504
僞而	-11.3504
曾子孔子弟子	-11.3504
上之義而	-11.3505
報反	-11.3505
所以敬天下之為人兄者也	-11.3505
不養於	-11.3505
則從而	-11.3505
故得萬國之	-11.3506
其子皆	-11.3507
於朋友者	-11.3507
五備	-11.3507
甚大而	-11.3507
與周公	-11.3507
隆矣	-11.3507
性者人	-11.3508
受禄飬親	-11.3508
無所致其敬	-11.3508
無得罪於	-11.3508
施及	-11.3508
天地鬼神之	-11.3509
必資	-11.3509
詬厲之	-11.3509
卿大夫位以材進	-11.3509
可無三年之	-11.351
慈民	-11.351
正義曰此依鄭注也言	-11.351
美名	-11.351
六官	-11.351
不能立身	-11.3512
賤惡	-11.3513
孝者徳之本也	-11.3513
序孝經	-11.3513
是因其	-11.3513
所避	-11.3513
與孔子曰	-11.3513
為孝之道	-11.3515
孝故事天	-11.3515
至唐	-11.3516
天下之理得	-11.3516
而後成	-11.3516
不學禮	-11.3516
謂天子諸侯	-11.3516
愛厚	-11.3516
七日	-11.3516
世家	-11.3516
近名	-11.3516
皆躬	-11.3516
而後刑	-11.3516
諸語	-11.3516
而知所	-11.3518
則不免於	-11.3518
於七廟	-11.3518
與左傳	-11.3518
簡能	-11.3518
愛他人	-11.3518
保其祿位而	-11.3519
孝子仁人之	-11.3519
徒口	-11.3519
法至	-11.3519
其身大	-11.352
上而上	-11.3521
資于	-11.3521
者莫有大於	-11.3521
謂尊嚴	-11.3521
同等	-11.3521
逆命	-11.3522
暴貴	-11.3522
官爵	-11.3522
常情	-11.3523
改日	-11.3523
進孝經	-11.3523
君則凡為	-11.3524
者矣又	-11.3524
歸已	-11.3524
長宜	-11.3524
一句	-11.3524
生萬物	-11.3524
紀之以	-11.3524
稟命	-11.3525
完備也	-11.3525
慮事	-11.3526
反覆	-11.3526
饗禮	-11.3526
職貢來助	-11.3526
子夏曰何	-11.3527
因名	-11.3527
風化	-11.3527
敬祭祀	-11.3528
孔安國曰	-11.3528
以接下	-11.3528
者漢	-11.3528
其經則	-11.3529
三公故	-11.3529
卿三	-11.3529
已乎曰	-11.3529
惟不知	-11.3529
祀之於	-11.3529
立宗廟	-11.3529
家國天下	-11.3529
所以為忠	-11.353
不犯	-11.353
然後可	-11.353
也故以名章次	-11.3531
去惡	-11.3531
及其身	-11.3531
也而以為	-11.3531
主過	-11.3532
注就養能致其懽	-11.3532
教也非	-11.3532
分此以	-11.3532
也韋昭	-11.3532
人魏	-11.3532
明天之	-11.3532
同風	-11.3532
隆禮	-11.3533
而其質	-11.3533
其歸於	-11.3534
為民之父母	-11.3534
則天地亦以孝	-11.3534
奉事其	-11.3534
可見矣	-11.3535
故每	-11.3535
五方	-11.3535
觀孝經	-11.3535
士為之	-11.3535
而不遺	-11.3536
孝子之祭	-11.3537
仁信	-11.3537
者亦謂	-11.3537
也王者繼	-11.3537
引之以	-11.3537
限量	-11.3538
調其	-11.3538
敬勝	-11.3539
之徒不	-11.3539
原自	-11.3539
得保	-11.3539
而夷子	-11.3539
慮國	-11.3539
道訓	-11.3539
而推言	-11.3539
而叙	-11.354
卒事	-11.354
曰敢問聖人之德無以加於孝乎	-11.354
凡若此	-11.3541
而答之	-11.3542
明其義	-11.3542
是五者	-11.3542
身之道	-11.3543
夫子遂	-11.3543
誠信者	-11.3543
子者湏	-11.3544
尸所	-11.3544
人之懽心	-11.3544
節哀	-11.3544
夫婦有義	-11.3545
以終身	-11.3545
我且	-11.3545
所以辨	-11.3545
以止之	-11.3547
則如之何曰	-11.3547
者莫若	-11.3548
敬以事	-11.3548
也謂五	-11.3548
者經典	-11.3548
將欲	-11.3548
今古文	-11.3548
朱子作	-11.3548
豈有不	-11.3548
豫是	-11.3548
及致敬	-11.3549
天下行之	-11.3549
靈於	-11.3549
於父兄	-11.3549
之所繇	-11.3551
等謹案孝經集	-11.3551
下之事上	-11.3551
僕也	-11.3551
王者必	-11.3551
𤼵于	-11.3551
馬與	-11.3553
美意	-11.3553
無終始則	-11.3554
云制節	-11.3554
貴質而	-11.3554
禮繇	-11.3554
風徳	-11.3554
矣諸侯之	-11.3555
下而下	-11.3556
於是乎有	-11.3556
行者先	-11.3557
者所為	-11.3557
閲之	-11.3557
有君民之大	-11.3558
四世	-11.3558
節以為	-11.3558
聞音	-11.3559
不盡其	-11.3559
坊記	-11.3559
天下人行	-11.3559
言必不	-11.3559
有所未盡也	-11.3559
本於自	-11.356
乃備	-11.356
而遷	-11.356
夫子之所貴	-11.3561
以贊	-11.3562
取則於	-11.3562
母地	-11.3562
於舅姑	-11.3563
子弟之天	-11.3563
家令	-11.3563
之氣始於	-11.3564
前意	-11.3564
平生	-11.3564
不得志	-11.3564
臣良	-11.3564
與門	-11.3564
先公之	-11.3564
萬善	-11.3565
壹是	-11.3567
有愛心	-11.3567
正也夫	-11.3567
乃發	-11.3567
其養之	-11.3567
士初	-11.3567
導而	-11.3567
禁而	-11.3567
何為其	-11.3568
夫孝者天	-11.3569
無以國	-11.357
先生以	-11.357
疑後	-11.357
事業	-11.357
後序	-11.357
順而無	-11.3571
自其	-11.3571
先兄	-11.3572
六服	-11.3572
應云	-11.3572
由本	-11.3572
謂之徳	-11.3572
而已後世	-11.3573
者明君	-11.3573
所以奉	-11.3573
流如	-11.3573
敬者至	-11.3573
日常	-11.3573
禮字而	-11.3574
於四海而	-11.3575
異於	-11.3575
之心也然	-11.3576
之徳為	-11.3576
徹不	-11.3577
何食	-11.3577
也惟是	-11.3577
此六者	-11.3577
富可	-11.3578
缺於	-11.3578
而後己	-11.3579
善事君	-11.358
將出	-11.358
師傳	-11.358
則孝經之	-11.3581
無不悦	-11.3582
悦神	-11.3582
不為文	-11.3583
大義所	-11.3583
日聞	-11.3583
一敬而	-11.3583
子亦猶之	-11.3584
者矣詩曰	-11.3585
也郊之祭也	-11.3585
而臣不	-11.3585
相合	-11.3585
愛恭	-11.3586
而施之	-11.3586
天子所命	-11.3586
皆不足	-11.3586
以曾參	-11.3586
也詩曰無	-11.3586
總名	-11.3586
三日之後	-11.3587
真偽	-11.3587
以毁滅	-11.3588
斧	-11.3588
從己	-11.3589
至隆	-11.3589
不復言	-11.3589
易行者	-11.3589
臣之道也	-11.3589
終欲	-11.3589
孝以孝	-11.3589
者尚書	-11.359
作亂	-11.359
子于父母	-11.3591
呉所刪	-11.3591
司馬光曰將	-11.3591
故夫子以	-11.3591
值也	-11.3592
也然則孝經	-11.3592
制諸侯	-11.3592
化之以	-11.3592
踐之	-11.3592
衍義之	-11.3593
己過	-11.3593
言若有	-11.3594
子𤣥	-11.3594
乃引	-11.3594
案家語	-11.3594
列反	-11.3594
法度也	-11.3595
若䘮	-11.3595
下今文各有也	-11.3595
[...]
