<unk>	0
<s>	0
</s>	0
。	-1.77782
故	-4.22817
者	-4.42444
名	-5.19635
謂	-5.21385
有	-5.27085
也	-5.28523
等	-5.32517
是	-5.34008
此	-5.36096
即	-5.38155
二	-5.38273
為	-5.47684
若	-5.48146
中	-5.48187
以	-5.52058
一	-5.61531
非	-5.63779
於	-5.65558
(	-5.66414
)	-5.66837
如	-5.66949
無	-5.68058
至	-5.68205
說	-5.69688
三	-5.71747
及	-5.72641
義	-5.78903
心	-5.79991
法	-5.83333
言	-5.86675
生	-5.86985
不	-5.88976
相	-5.89322
由	-5.93006
彼	-5.93107
論	-5.96736
.	-5.97995
之	-5.98331
得	-5.9941
依	-5.99597
▁	-6.00979
。】「	-6.01006
。」【	-6.05441
四	-6.07847
因	-6.1702
行	-6.18455
下	-6.1911
時	-6.19727
又	-6.20512
起	-6.21666
而	-6.23644
亦	-6.23736
與	-6.25468
或	-6.27898
緣	-6.30329
問	-6.32367
唯	-6.38967
答	-6.39212
見	-6.4025
後	-6.40688
性	-6.41333
攝	-6.42958
五	-6.43578
云	-6.4604
識	-6.46548
明	-6.47522
一切	-6.48171
其	-6.53008
定	-6.53032
菩薩	-6.53602
分別	-6.53787
如是	-6.54072
受	-6.55793
果	-6.5592
名為	-6.56489
體	-6.62737
初	-6.62945
智	-6.63185
疏	-6.64105
通	-6.64204
皆	-6.64381
然	-6.65575
所	-6.67013
身	-6.68577
別	-6.69269
境	-6.69347
事	-6.6941
斷	-6.69997
修	-6.70797
色	-6.71514
釋	-6.71819
自	-6.72602
前	-6.73135
餘	-6.73269
業	-6.73882
即是	-6.74267
成	-6.74721
應	-6.75086
能	-6.75191
處	-6.75417
雖	-6.76237
觀	-6.76607
諸	-6.77887
人	-6.78496
種子	-6.79047
乃至	-6.79716
解	-6.80694
煩惱	-6.82397
六	-6.82727
善	-6.82848
種	-6.8392
上	-6.84065
意	-6.84111
住	-6.85332
差別	-6.85569
同	-6.85925
俱	-6.86148
苦	-6.88057
我	-6.8809
云何	-6.88119
滅	-6.90057
離	-6.9022
隨	-6.92599
立	-6.93315
作	-6.95308
已	-6.96576
相應	-6.97263
顯	-6.9851
佛	-6.99069
取	-6.99623
則	-7.00755
】	-7.01523
位	-7.03117
七	-7.03941
從	-7.04033
今	-7.04069
在	-7.04428
現	-7.05245
令	-7.05324
知	-7.05848
捨	-7.06163
八	-7.07806
多	-7.08098
道	-7.09331
分	-7.10138
根	-7.10154
述曰	-7.10263
障	-7.10326
耶	-7.1056
難	-7.109
證	-7.10983
既	-7.11866
大	-7.11991
用	-7.12016
。【	-7.12376
門	-7.12817
欲	-7.13263
故名	-7.13342
正	-7.13365
執	-7.13497
地	-7.1423
入	-7.14401
樂	-7.14453
轉	-7.15164
無漏	-7.16116
*	-7.18471
勝	-7.18495
實	-7.18952
自性	-7.21513
具	-7.22227
十	-7.22299
次	-7.23244
文	-7.23783
清淨	-7.24033
但	-7.24282
第二	-7.24916
理	-7.25391
他	-7.25461
此中	-7.25843
異	-7.26108
方便	-7.26796
想	-7.27535
除	-7.2854
常	-7.2865
,	-7.29865
等者	-7.30741
空	-7.31015
先	-7.31658
淨	-7.3198
慧	-7.32839
解脫	-7.33875
眾生	-7.34217
第三	-7.34454
巳	-7.35546
現行	-7.35927
破	-7.35931
由此	-7.35986
不同	-7.36865
戒	-7.37624
可	-7.3858
涅槃	-7.39535
約	-7.40049
外	-7.40735
教	-7.41114
有情	-7.41609
引	-7.42051
思	-7.42418
力	-7.43145
所依	-7.43207
大乘	-7.43834
第八	-7.43903
復	-7.44158
真如	-7.45509
因緣	-7.45515
分二	-7.46028
經	-7.46037
過	-7.46266
無明	-7.4643
觸	-7.46824
總	-7.46998
愛	-7.48106
合	-7.48296
本	-7.48445
所緣	-7.48622
施	-7.48638
有漏	-7.494
如來	-7.49767
五識	-7.51055
聲	-7.51392
論曰	-7.5238
界	-7.52892
數	-7.55046
出	-7.55457
念	-7.55536
當	-7.55545
所有	-7.55595
染	-7.56535
未	-7.5661
何	-7.5666
世間	-7.56678
是故	-7.56949
作意	-7.5703
喻	-7.57941
內	-7.58259
意識	-7.58678
是名	-7.59003
釋曰	-7.60343
方	-7.61138
第七	-7.61484
不能	-7.61683
求	-7.6172
對	-7.62281
何故	-7.62707
所攝	-7.62853
真	-7.6298
九	-7.64263
諸法	-7.65031
決定	-7.65244
次第	-7.66733
類	-7.67005
異熟	-7.6794
計	-7.68776
假	-7.6927
功德	-7.69283
無有	-7.69315
一者	-7.69549
心所	-7.70094
第四	-7.70832
唯識	-7.70843
似	-7.71143
加行	-7.71799
亦有	-7.718
惡	-7.71893
二者	-7.72139
語	-7.7322
成就	-7.7343
建立	-7.73583
無量	-7.74434
第六	-7.74662
信	-7.75094
應知	-7.75239
品	-7.75611
二種	-7.7607
如何	-7.76359
惑	-7.76414
欲界	-7.77177
便	-7.7739
盡	-7.77416
辨	-7.77642
許	-7.77795
行相	-7.78602
種種	-7.78687
德	-7.79685
貪	-7.80382
不得	-7.81108
無為	-7.81745
相續	-7.8193
順	-7.82441
」	-7.82958
共	-7.83955
所以	-7.83975
持	-7.84155
結	-7.84184
相分	-7.84198
覺	-7.84437
亦名	-7.846
當知	-7.84745
第一	-7.86349
聞	-7.86456
不定	-7.86565
對治	-7.86645
發	-7.86877
宗	-7.87969
能生	-7.88724
因果	-7.8903
現在	-7.8937
故云	-7.89884
變	-7.89904
依止	-7.90318
二乘	-7.91811
各	-7.91957
亦爾	-7.92393
疑	-7.92428
二明	-7.92448
簡	-7.92584
頌	-7.92712
生死	-7.93077
自在	-7.93378
必	-7.93711
境界	-7.93995
圓滿	-7.94303
望	-7.94408
忍	-7.94958
天	-7.95144
重	-7.95288
廣	-7.95705
三種	-7.95881
舉	-7.96459
遠離	-7.97023
就	-7.98034
遍	-7.98359
極微	-7.9837
有二	-7.98373
失	-7.98422
字	-7.98491
物	-7.98521
。△	-7.98823
據	-7.99035
一分	-7.99413
無記	-8
無常	-8.00064
為因	-8.0043
增上	-8.00432
故知	-8.00482
。「	-8.00843
瑜伽	-8.01101
復次	-8.01431
精進	-8.0178
不可	-8.01864
趣	-8.02098
集	-8.0235
增	-8.02764
師	-8.02812
章	-8.0307
六識	-8.04131
修習	-8.04213
真實	-8.04222
極	-8.04859
眼	-8.05124
化	-8.05219
見分	-8.05607
眾	-8.05947
少	-8.06413
世	-8.06625
食	-8.06697
四種	-8.0688
更	-8.06881
解云	-8.07505
不說	-8.07904
無間	-8.0809
依他	-8.08514
量	-8.08561
屬	-8.08581
一明	-8.08663
報	-8.08698
皆是	-8.08803
所作	-8.09821
根本	-8.10378
學	-8.10675
略	-8.11279
句	-8.11595
願	-8.11663
究竟	-8.11809
問曰	-8.11871
不生	-8.12019
於彼	-8.12188
為體	-8.12612
和合	-8.13218
乃	-8.13304
平等	-8.13329
見道	-8.13821
造	-8.13826
聲聞	-8.13933
蘊	-8.1414
支	-8.14882
疏云	-8.1516
三者	-8.15171
亦是	-8.15251
小	-8.15291
分三	-8.15822
自體	-8.16206
論云	-8.16483
道理	-8.16778
何以故	-8.16813
觀察	-8.17331
小乘	-8.17357
二釋	-8.17605
以為	-8.17922
菩提	-8.18062
違	-8.18147
色等	-8.18296
思惟	-8.18566
之中	-8.18703
不善	-8.19063
且	-8.19201
十一	-8.19231
汝	-8.19468
伏	-8.1966
恒	-8.2013
於此	-8.20151
並	-8.20391
三界	-8.20672
唯有	-8.20852
第五	-8.21005
謂於	-8.21084
所說	-8.21119
五根	-8.21747
要	-8.21978
三性	-8.22318
王	-8.22518
諸行	-8.22722
曰	-8.22759
所生	-8.23016
未來	-8.23325
有義	-8.23433
受用	-8.2362
此二	-8.23662
如前	-8.23865
一標	-8.23924
具足	-8.2491
慢	-8.24973
相似	-8.25264
喜	-8.25689
法身	-8.26097
過去	-8.2616
死	-8.26503
外道	-8.27551
隨順	-8.28083
自相	-8.28363
將	-8.28959
中有	-8.28968
壞	-8.29275
雜染	-8.29289
亦不	-8.29601
非是	-8.29936
生起	-8.30032
水	-8.30092
勝解	-8.30371
設	-8.30704
尋伺	-8.30993
來	-8.31003
遮	-8.31215
俱生	-8.31215
不應	-8.31367
此識	-8.31597
本識	-8.32127
第八識	-8.32271
邪見	-8.32297
可知	-8.32298
所謂	-8.32318
之義	-8.32661
故名為	-8.32866
諦	-8.32928
相違	-8.33314
會	-8.3389
了	-8.34034
有三	-8.34094
細	-8.3412
我見	-8.34303
故言	-8.34366
無相	-8.34456
前後	-8.34544
火	-8.35067
不爾	-8.35163
現前	-8.35606
隨眠	-8.3574
聚	-8.35968
熏習	-8.35993
迷	-8.36141
勝義	-8.36223
聖	-8.36313
安立	-8.36762
家	-8.36817
熏	-8.3699
故說	-8.37029
功能	-8.37315
還	-8.37872
所得	-8.37934
出離	-8.3829
親	-8.39171
三明	-8.39325
為性	-8.39441
邪	-8.3971
并	-8.39886
色界	-8.40012
不成	-8.40164
無色	-8.40686
攝受	-8.41108
、	-8.4159
竟	-8.41912
說為	-8.41959
亦無	-8.42388
妄	-8.42506
若言	-8.42648
縛	-8.4273
麁	-8.4287
或有	-8.43084
滿	-8.43283
若有	-8.4347
利	-8.43666
無性	-8.43683
寂靜	-8.4378
若爾	-8.43921
不起	-8.4404
遠	-8.44077
習	-8.44122
稱	-8.44151
緣起	-8.44274
向	-8.44312
而不	-8.44382
皆有	-8.44548
度	-8.44551
同時	-8.44603
全	-8.44819
十二	-8.44865
善根	-8.45032
善法	-8.45223
諸佛	-8.45698
實有	-8.45984
癡	-8.46125
辯	-8.46167
名之為	-8.46534
尋思	-8.47078
是其	-8.47083
過失	-8.47381
兩	-8.47652
無我	-8.47794
耳	-8.47857
無學	-8.48155
八識	-8.48217
劣	-8.48664
一問	-8.48693
例	-8.49116
無別	-8.49264
眼識	-8.49692
亦非	-8.49759
准	-8.50267
證得	-8.5034
法界	-8.50628
所起	-8.50848
藏	-8.51026
而生	-8.51093
各別	-8.51131
亦得	-8.512
能緣	-8.51219
深	-8.51279
安住	-8.51301
亦應	-8.5149
所知	-8.51517
尋	-8.51925
表	-8.52064
退	-8.52083
增長	-8.52436
作用	-8.52453
須	-8.52979
流	-8.53536
宣說	-8.53735
犯	-8.53849
即此	-8.53893
若無	-8.53924
最勝	-8.54027
愚	-8.54464
妙	-8.54634
雖有	-8.55433
說名	-8.55466
近	-8.55649
邊	-8.55683
有四	-8.55797
瞋	-8.55803
豈	-8.55932
者即	-8.55964
五種	-8.56086
乘	-8.56243
義故	-8.56461
一云	-8.56592
者謂	-8.56883
四者	-8.57205
所引	-8.57278
止	-8.577
言說	-8.57925
假立	-8.57939
心心所	-8.57951
成熟	-8.58016
雜	-8.58635
猶如	-8.58802
猶	-8.59016
補特伽羅	-8.59163
顛倒	-8.59645
修道	-8.59998
記	-8.60235
非有	-8.60256
一切法	-8.60545
依處	-8.60612
等流	-8.60809
於中	-8.60924
習氣	-8.60934
一向	-8.61209
世尊	-8.61234
凡夫	-8.6125
異生	-8.61268
所知障	-8.61621
不言	-8.61802
阿賴耶識	-8.61895
修行	-8.62225
所執	-8.62306
治	-8.63069
出世	-8.63116
此初也	-8.63169
指	-8.63441
法執	-8.63461
少分	-8.63636
悔	-8.63642
子	-8.63785
生故	-8.63892
靜慮	-8.63899
不共	-8.63909
二依	-8.64132
共相	-8.64144
福	-8.64289
此即	-8.64381
之所	-8.64655
命	-8.64657
微	-8.6502
獨	-8.65059
轉依	-8.65469
無分別智	-8.65695
塵	-8.66037
唯是	-8.66079
三乘	-8.66338
未得	-8.66354
感	-8.66672
動	-8.66757
染淨	-8.6728
一依	-8.67462
有為	-8.67634
離欲	-8.6773
變異	-8.67992
意樂	-8.68494
麁重	-8.69076
開	-8.69178
顯示	-8.69212
之法	-8.69215
三摩地	-8.69276
不淨	-8.69366
施設	-8.6964
十地	-8.69641
供養	-8.69864
無分別	-8.702
無上	-8.70713
有二種	-8.70883
使	-8.70908
世俗	-8.7091
形	-8.70968
了知	-8.71036
三世	-8.71636
性故	-8.7174
我執	-8.72241
體性	-8.72737
助	-8.72771
殊勝	-8.72944
為緣	-8.73213
害	-8.73483
現量	-8.73486
有無	-8.73636
流轉	-8.74117
現觀	-8.7414
律儀	-8.74325
五蘊	-8.74325
若依	-8.74327
此論	-8.74393
影	-8.74422
標	-8.74437
而有	-8.74538
漏	-8.74561
三結	-8.74994
風	-8.74995
正法	-8.7521
六種	-8.75211
基云	-8.75473
比量	-8.75726
能引	-8.75747
遂	-8.75764
初禪	-8.75841
善巧	-8.76242
善惡	-8.76448
味	-8.76617
通達	-8.76957
能取	-8.77666
皆名	-8.77678
第六識	-8.77831
著	-8.77888
罪	-8.78326
智慧	-8.78614
大悲	-8.7879
貪等	-8.78837
不離	-8.78956
可得	-8.78979
發起	-8.79125
示	-8.79162
十種	-8.79207
光	-8.79254
種姓	-8.79459
息	-8.7948
譬如	-8.79586
安	-8.79687
漸	-8.79931
影像	-8.80099
展轉	-8.80254
僧	-8.80375
所餘	-8.80712
法性	-8.80754
本質	-8.80889
由彼	-8.80993
不然	-8.81057
而起	-8.81094
矣	-8.81223
不見	-8.81262
一一	-8.81311
微細	-8.81483
長	-8.81757
謂由	-8.8257
纏	-8.8261
斯	-8.82704
發心	-8.82767
心王	-8.82768
此文	-8.82823
我法	-8.82883
此義	-8.82909
染污	-8.83256
如此	-8.8326
廣大	-8.83291
悉	-8.83509
第七識	-8.83709
今此	-8.84035
兼	-8.84063
此三	-8.84235
質	-8.84372
末	-8.84441
所行	-8.8453
土	-8.84621
不名	-8.84983
正智	-8.85212
爾	-8.85265
詮	-8.85449
主	-8.85606
凡	-8.85766
聖道	-8.85901
又云	-8.85932
遣	-8.8611
剎那	-8.86141
厭	-8.86286
香	-8.86399
種類	-8.8644
任運	-8.86456
初地	-8.86457
轉識	-8.86687
自他	-8.86864
法故	-8.86996
往	-8.8707
俗	-8.87269
雙	-8.87485
遍計	-8.87485
互	-8.87492
情	-8.87657
覆	-8.87776
種性	-8.87942
以此	-8.8797
能令	-8.87996
意云	-8.88357
所變	-8.88376
無礙	-8.88736
此是	-8.88744
劫	-8.88745
麤	-8.88843
不動	-8.89011
上品	-8.89173
之時	-8.89205
十六	-8.89235
憂	-8.89554
分位	-8.89576
足	-8.8965
不與	-8.89823
變化	-8.89948
末那	-8.89976
益	-8.90049
收	-8.90108
相故	-8.90193
不斷	-8.90216
復有	-8.90272
假說	-8.90306
生滅	-8.90357
四諦	-8.9044
於諸	-8.90899
佛性	-8.90997
不知	-8.91115
不緣	-8.91151
對法	-8.91207
若不	-8.91278
前三	-8.91442
一立因	-8.91486
為依	-8.91609
但是	-8.91628
所以者何	-8.91697
悲	-8.91758
出家	-8.91784
說法	-8.91825
命根	-8.91873
聖教	-8.91985
滅定	-8.92168
者意云	-8.9255
耶答	-8.93546
甚深	-8.93748
諸識	-8.93779
位中	-8.94016
一種	-8.95125
易	-8.95131
所取	-8.9517
正行	-8.95212
徧	-8.95265
成立	-8.95341
翻	-8.95367
名色	-8.95411
後得智	-8.95471
去	-8.95603
相者	-8.95688
彰	-8.95696
異熟果	-8.95836
四大	-8.95883
既無	-8.96128
加	-8.96175
器	-8.96215
財	-8.96234
地獄	-8.96365
不相應	-8.96611
般若	-8.96826
偏	-8.96894
上地	-8.97007
依此	-8.97301
而得	-8.97367
不應道理	-8.97414
量云	-8.97492
散	-8.97698
釋云	-8.97704
資糧	-8.97707
自證分	-8.97727
不許	-8.97833
了別	-8.98122
諸根	-8.98333
十四	-8.98651
利益	-8.98761
阿羅漢	-8.98768
故曰	-8.98832
無色界	-8.98904
被	-8.98963
論文	-8.99031
非無	-8.99289
顯現	-8.99328
第九	-8.99329
論說	-8.99334
神通	-8.99383
不為	-8.99454
但有	-8.99602
為業	-8.99604
不取	-8.99648
決擇	-8.99713
惠	-8.99944
諸菩薩	-9.00139
照	-9.00363
歸	-9.00485
遍計所執	-9.00534
已得	-9.008
答曰	-9.00867
病	-9.00928
轉變	-9.0094
內外	-9.01257
不依	-9.0126
上界	-9.01283
闕	-9.0137
所言	-9.01401
釋言	-9.01407
二障	-9.01666
繫	-9.01759
散亂	-9.01855
超	-9.0209
始	-9.02264
受生	-9.02499
一切種	-9.0265
無倒	-9.03099
二法	-9.03111
頌曰	-9.03474
各有	-9.03481
又解	-9.03512
後二	-9.03604
二顯果	-9.0376
日	-9.03873
無邊	-9.0393
此云	-9.03972
有異	-9.04041
損	-9.04142
所成	-9.04191
能障	-9.04366
同分	-9.04409
分四	-9.04444
四明	-9.0446
禪	-9.0447
放逸	-9.04591
此說	-9.04807
得生	-9.04902
不退	-9.05094
又復	-9.05292
為一	-9.05307
但說	-9.05485
悟	-9.05995
幾	-9.06037
誰	-9.06116
百	-9.06367
隨煩惱	-9.0643
護	-9.06455
謂此	-9.06573
好	-9.06581
潤	-9.06776
必有	-9.06801
一切眾生	-9.06885
即名	-9.06903
演曰二	-9.07022
亦然	-9.0714
別有	-9.07465
能熏	-9.07478
熟	-9.07533
何等	-9.07543
爾時	-9.07737
終	-9.08016
二答	-9.08127
執受	-9.08224
畢竟	-9.08287
正見	-9.0833
俱起	-9.08514
或復	-9.0853
寶	-9.08563
進	-9.08573
初明	-9.08613
反	-9.0867
四句	-9.08682
永斷	-9.08916
判	-9.08934
俱有	-9.09122
雖無	-9.09122
本有	-9.0948
前二	-9.09531
曾	-9.09715
應非	-9.09804
問答	-9.09874
然此	-9.09949
因中	-9.09995
有三種	-9.10083
無表	-9.10176
相攝	-9.10218
列	-9.1041
過患	-9.10526
第十	-9.1057
俱時	-9.10632
勢力	-9.10656
有五	-9.10732
有別	-9.10773
之心	-9.10832
如實	-9.11012
倒	-9.11322
非實	-9.11365
喜樂	-9.11392
自身	-9.11451
五者	-9.11693
多分	-9.11705
燈	-9.11778
遍知	-9.11807
此等	-9.11811
解釋	-9.11855
增上緣	-9.12372
作業	-9.12565
救	-9.12604
後明	-9.12638
皆得	-9.12727
別故	-9.12755
能斷	-9.12904
隱	-9.13053
音義	-9.13074
何者	-9.13149
修慧	-9.13188
經說	-9.13235
亦通	-9.13274
之相	-9.13342
景云	-9.13403
齊	-9.13407
經中	-9.13413
又此	-9.1347
自然	-9.13633
居	-9.13672
即有	-9.13841
二分	-9.13895
略說	-9.139
部	-9.14002
所緣緣	-9.14083
彼論	-9.14092
不捨	-9.14124
思量	-9.14265
行者	-9.14287
法中	-9.14346
最	-9.1444
後得	-9.1459
目	-9.14626
亦能	-9.14635
三昧	-9.14659
令心	-9.14661
十八	-9.14673
後三	-9.14692
地中	-9.1475
護法	-9.1484
殺	-9.14859
與彼	-9.14949
十五	-9.14953
大種	-9.15006
眼等	-9.15057
訖	-9.15183
假名	-9.15202
苦諦	-9.15282
攝論	-9.15442
利他	-9.15762
其心	-9.15842
能持	-9.15884
光明	-9.15904
調伏	-9.15949
現起	-9.15988
捨受	-9.16113
待	-9.16143
總名	-9.16173
能起	-9.16195
能詮	-9.16291
二取	-9.16372
苦樂	-9.16575
同類	-9.16742
不異	-9.16746
牒	-9.16763
山	-9.16895
惡趣	-9.16983
自證	-9.17022
三業	-9.1724
應無	-9.17247
墮	-9.1732
攝故	-9.17349
及與	-9.17353
次明	-9.17436
二十	-9.17532
不信	-9.17692
一類	-9.17771
為境	-9.17781
直	-9.17896
有法	-9.18097
常住	-9.18217
六處	-9.184
徵	-9.18412
諸煩惱	-9.18523
勤	-9.1863
緣生	-9.18712
下地	-9.18822
生時	-9.19079
白	-9.19309
唯說	-9.19409
頓	-9.19538
輕	-9.1968
樂受	-9.19896
資	-9.19912
色心	-9.19949
如是等	-9.19952
不作	-9.19966
敘	-9.2007
無所	-9.20095
沒	-9.20147
初二	-9.20286
虛空	-9.20288
引生	-9.20481
論主	-9.20808
惱	-9.20893
且如	-9.20944
通三性	-9.21023
以彼	-9.21085
說有	-9.21105
因故	-9.21159
三依	-9.21201
難云	-9.21218
壽	-9.21255
但言	-9.21278
睡眠	-9.21282
無想	-9.21375
得名	-9.21395
名言	-9.21416
威儀	-9.21423
地前	-9.21763
別相	-9.21811
起故	-9.21914
己	-9.21969
人天	-9.22004
亦可	-9.22034
中間	-9.22091
引發	-9.22117
下品	-9.22174
一切煩惱	-9.2226
勝利	-9.22376
論云何	-9.22384
礙	-9.22432
尋求	-9.22532
處所	-9.22578
圓	-9.22742
意說	-9.2303
七識	-9.23133
最後	-9.23296
蓋	-9.23324
莊嚴	-9.2347
尚	-9.23476
新	-9.23512
十三	-9.23712
陰	-9.23901
佛法	-9.23913
嗔	-9.23932
此四	-9.24027
總結	-9.24038
互相	-9.24047
體相	-9.24064
心法	-9.24176
波羅蜜多	-9.24205
不可說	-9.24457
有學	-9.2452
如彼	-9.24589
前五	-9.2463
無餘	-9.2473
生者	-9.24734
為欲	-9.24749
能為	-9.24813
能得	-9.24869
果報	-9.25045
自類	-9.25152
當來	-9.25519
心等	-9.25644
尸羅	-9.2572
強	-9.25777
一切有情	-9.25853
況	-9.25888
義者	-9.25904
波羅蜜	-9.25986
而非	-9.26192
舊	-9.26256
段	-9.26295
示現	-9.26526
一念	-9.26535
恐	-9.26673
唯取	-9.26861
生因	-9.26882
煩惱障	-9.26918
正義	-9.26967
三藏	-9.27105
輕安	-9.27172
聖人	-9.27214
長時	-9.27241
解脫道	-9.27413
者意說	-9.27737
安樂	-9.27752
異熟識	-9.27856
意根	-9.27862
善心	-9.27974
能作	-9.28056
後時	-9.28153
不行	-9.28215
上來	-9.28247
今言	-9.28294
准此	-9.28895
上下	-9.2897
乎	-9.29011
方得	-9.29139
有四種	-9.29215
所證	-9.29502
能治	-9.29577
容	-9.29662
達	-9.29787
果故	-9.29885
依他起	-9.29963
而無	-9.30108
聖者	-9.30192
世界	-9.30298
故非	-9.30411
二云	-9.30723
於他	-9.31022
如次	-9.31215
所治	-9.31229
為勝	-9.31409
偈曰	-9.31437
無心	-9.31489
▁初	-9.31548
中說	-9.31598
獲得	-9.31658
老	-9.31735
此意	-9.31982
能變	-9.32036
羅漢	-9.32043
得果	-9.32078
四相	-9.32116
一時	-9.32146
化身	-9.32308
造作	-9.32421
三品	-9.32629
二義	-9.32656
八種	-9.32755
純	-9.32773
遍行	-9.32775
若於	-9.32791
懈怠	-9.32884
衣	-9.32913
羅	-9.32926
五塵	-9.3295
惡作	-9.32959
增益	-9.3296
眠	-9.3307
七種	-9.33247
比	-9.33293
勝進	-9.33302
有餘	-9.33429
愚癡	-9.33485
託	-9.33506
述	-9.33654
身心	-9.33681
所熏	-9.34
斷惑	-9.34125
又如	-9.34131
為我	-9.3421
一法	-9.34238
而為	-9.34306
無間道	-9.34322
所詮	-9.34418
三釋	-9.34429
品類	-9.34457
皆悉	-9.34484
間	-9.34553
此言	-9.34626
者是	-9.34706
敬	-9.34847
六度	-9.34934
長養	-9.34975
四法	-9.35081
唯一	-9.35101
次釋	-9.35149
月	-9.35182
獨覺	-9.35198
于	-9.3524
苦受	-9.35281
即前	-9.35305
》	-9.35407
不放逸	-9.35412
非一	-9.35435
不是	-9.35441
於一切	-9.35504
色法	-9.35559
執我	-9.35566
饒益	-9.3564
即以	-9.3568
所受	-9.35714
別釋	-9.35717
無差別	-9.35718
佛果	-9.35743
薩婆多	-9.3611
身中	-9.36122
無知	-9.36186
千	-9.3632
藏識	-9.36498
一總標	-9.36646
脫	-9.36808
定心	-9.36876
明知	-9.37214
變易	-9.37246
謗	-9.37413
法者	-9.37558
而說	-9.37652
此定	-9.37679
狹	-9.37775
者即是	-9.37936
外境	-9.3798
不違	-9.38024
高	-9.38146
寬	-9.3822
輪	-9.38227
力故	-9.38331
俱行	-9.38423
請	-9.38449
行支	-9.38777
一心	-9.38873
國	-9.38889
最初	-9.38892
老死	-9.39104
惡行	-9.39163
方能	-9.39167
伺	-9.39266
樹	-9.39379
決	-9.39415
定有	-9.39464
二性	-9.39479
掉舉	-9.39518
殊	-9.3962
半	-9.39716
論中	-9.39723
頌中	-9.39752
等無間緣	-9.39873
已生	-9.39953
有支	-9.39987
即無	-9.40001
無體	-9.4021
我慢	-9.40322
戲論	-9.40568
即彼	-9.40623
之因	-9.40681
不可得	-9.40767
集諦	-9.40814
隨其所應	-9.41178
起時	-9.41216
金	-9.41216
此約	-9.41331
後有	-9.41591
所緣境	-9.41654
我所	-9.41695
文中	-9.41793
賴耶	-9.41795
業果	-9.41955
怨	-9.42003
問何故	-9.42108
伹	-9.42157
能發	-9.42353
令其	-9.42398
是有法	-9.42506
諸有情	-9.42591
積集	-9.42668
慈	-9.42683
此名	-9.42755
教授	-9.42763
永	-9.42774
而言	-9.42899
所顯	-9.42922
思擇	-9.42953
執著	-9.43025
擇滅	-9.43064
命終	-9.43123
妄想	-9.43281
現見	-9.43341
麤重	-9.43346
圓成	-9.4337
青	-9.4343
招	-9.43467
趣入	-9.43472
謂諸	-9.4353
法體	-9.43633
仍	-9.43758
此解	-9.44003
業道	-9.44139
法空	-9.4426
由斯	-9.44342
差別者	-9.44362
此智	-9.44591
正理	-9.44768
大小	-9.44769
道諦	-9.44855
虛妄	-9.44856
謂諸菩薩	-9.44888
相望	-9.44966
任持	-9.45027
寂	-9.45063
依他性	-9.45067
數數	-9.45088
久	-9.45093
非如	-9.451
眷屬	-9.45249
怖畏	-9.45527
垢	-9.45574
却	-9.45761
前念	-9.45795
隨轉	-9.45822
所斷	-9.45912
性者	-9.45943
一總問	-9.45955
若約	-9.45973
五明	-9.45995
能證	-9.46053
與前	-9.46201
所立	-9.46278
偈	-9.46307
障礙	-9.46339
慳	-9.46352
善等	-9.46423
如是名為	-9.46488
棄捨	-9.46533
領受	-9.46651
自心	-9.4671
所造	-9.46745
縱	-9.46778
成佛	-9.46931
三寶	-9.47039
經部	-9.47252
色蘊	-9.47281
有六	-9.47448
未生	-9.47457
有相	-9.47472
有體	-9.47483
無盡	-9.47508
何得	-9.47607
都無	-9.4761
彼說	-9.47625
所見	-9.4764
唯依	-9.47663
二智	-9.4769
像	-9.47734
傳	-9.47799
唯在	-9.47865
四禪	-9.47968
有人	-9.47979
有色	-9.48196
如說	-9.4821
亂	-9.48293
本性	-9.48359
耳識	-9.48384
乃至廣說	-9.48393
依於	-9.48428
是有	-9.48544
寂滅	-9.48575
中品	-9.48581
惡業	-9.48674
不由	-9.4876
四依	-9.48766
總別	-9.48769
闇	-9.48844
既有	-9.48848
令彼	-9.48858
歡喜	-9.48988
極成	-9.49057
之人	-9.49123
是假	-9.49154
明了	-9.49158
脩	-9.49211
譬	-9.49228
測云	-9.49489
於境	-9.49508
終不	-9.4966
圓成實	-9.49706
自利	-9.49726
初句	-9.49774
身語	-9.50004
差別故	-9.50023
五法	-9.50076
讚	-9.50137
已下	-9.50183
布施	-9.50284
沙門	-9.50439
下文	-9.50439
音	-9.50495
功用	-9.50576
謂有	-9.50738
此亦	-9.5078
三相	-9.50869
無因	-9.50907
是實	-9.50915
依彼	-9.50945
不立	-9.51035
雖復	-9.51039
聞思	-9.51085
經云	-9.51171
之境	-9.51201
廣說	-9.5121
滅故	-9.51249
斷煩惱	-9.51309
為果	-9.51373
如來藏	-9.51447
印	-9.5153
自地	-9.51543
之言	-9.51637
定中	-9.51776
二相	-9.51908
有說	-9.51938
制	-9.51965
審	-9.52024
名曰	-9.52067
勝故	-9.52182
能感	-9.5229
不攝	-9.52391
善業	-9.5246
有此	-9.52688
智者	-9.52768
三受	-9.52783
別境	-9.52901
說名為	-9.52949
其相	-9.52997
年	-9.53022
□	-9.53117
禪定	-9.53374
體用	-9.5356
無異	-9.53696
華	-9.53728
而轉	-9.53791
其義	-9.5381
皆無	-9.53894
四緣	-9.54019
和	-9.54102
眾苦	-9.54232
異類	-9.54236
無二	-9.54238
漸次	-9.54413
無所有	-9.54419
下劣	-9.54464
眼根	-9.54482
返	-9.54656
此之	-9.54724
契經	-9.54741
若以	-9.54745
得成	-9.54929
得有	-9.54941
門中	-9.5497
名等	-9.55052
前六	-9.55157
若謂	-9.55207
無染	-9.55373
無畏	-9.55406
海	-9.55527
一處	-9.55537
既是	-9.55653
此釋	-9.55986
身見	-9.56002
如理	-9.5606
於其	-9.56079
推	-9.56098
下明	-9.56106
坐	-9.56201
十九	-9.56531
九地	-9.56565
斷故	-9.56567
謂依	-9.56572
業種	-9.56578
夢	-9.5662
弟子	-9.56756
故得	-9.56859
為先	-9.57046
堅固	-9.57091
俱轉	-9.57115
如實知	-9.57145
即於	-9.57464
阿	-9.57475
何名	-9.57494
見取	-9.57575
法爾	-9.57731
無想定	-9.57847
三法	-9.5788
多少	-9.57955
真諦	-9.57971
二諦	-9.57999
同前	-9.58008
餘三	-9.5822
所修	-9.58247
摩	-9.58353
靜	-9.58506
亦如	-9.58568
諍	-9.58583
譬喻	-9.58595
無故	-9.58686
有一	-9.58705
緣境	-9.5883
前說	-9.58879
能依	-9.58959
有多	-9.59163
。」【△	-9.59166
非餘	-9.59175
卷	-9.59196
簡擇	-9.59227
速	-9.59372
此依	-9.595
魔	-9.59621
怖	-9.59627
顯了	-9.59671
別解	-9.59677
於前	-9.597
演曰三	-9.59714
又若	-9.59716
悟入	-9.59841
心故	-9.59946
等持	-9.59977
口	-9.60013
有性	-9.60049
相見	-9.6009
又說	-9.60134
女	-9.60212
機	-9.60219
佛地	-9.60247
云何為	-9.60291
無漏心	-9.60443
前四	-9.60469
迴向	-9.60493
八地	-9.60533
信解	-9.60533
二因	-9.6055
恭敬	-9.60556
緣故	-9.60607
滅諦	-9.6072
等事	-9.60733
妄執	-9.60752
如是一切	-9.60833
第一義	-9.60842
斷滅	-9.60851
神	-9.60881
同一	-9.60989
能成	-9.61031
緣彼	-9.61174
信等	-9.61207
體是	-9.61378
減	-9.61402
到	-9.61424
後念	-9.61447
父母	-9.61494
眾多	-9.61502
有漏無漏	-9.6167
此初	-9.6168
十七	-9.61703
勢	-9.61779
若是	-9.61788
暫	-9.61856
根境	-9.61881
境故	-9.61913
六根	-9.61942
皆能	-9.61971
▁次	-9.61971
名字	-9.62058
又於	-9.62097
而住	-9.62185
堅	-9.62409
間斷	-9.6243
不了	-9.62444
毀	-9.62456
色根	-9.62496
顯揚	-9.6261
是則	-9.62679
安慧	-9.62691
及以	-9.63115
金剛	-9.63291
止觀	-9.63586
是彼	-9.63598
有五種	-9.63675
為相	-9.63699
菩薩摩訶薩	-9.63968
初釋	-9.64008
計我	-9.64062
九品	-9.64127
念念	-9.64131
變壞	-9.64139
不害	-9.64324
非想	-9.64396
此明	-9.64418
淨土	-9.64487
那	-9.64499
無始	-9.64551
業用	-9.64639
潤生	-9.64646
為令	-9.64666
不以	-9.64671
理實	-9.64789
成實	-9.64813
憶念	-9.64816
演曰二明	-9.64848
防	-9.65029
亦如是	-9.65115
為正	-9.65139
初解	-9.65147
立名	-9.65446
諸眾生	-9.65464
我今	-9.65574
出世間	-9.65629
手	-9.6566
受持	-9.65812
泰云	-9.65864
能所	-9.65885
為彼	-9.65896
苦集	-9.65929
欣	-9.65968
未斷	-9.65969
如下	-9.65982
演曰後	-9.66023
普	-9.66038
後釋	-9.66111
此五	-9.66178
存	-9.66257
謬	-9.66317
憍	-9.66466
有其	-9.66467
般涅槃	-9.66491
名義	-9.66544
亦復如是	-9.66584
分段	-9.66674
應說	-9.66751
非彼	-9.66753
正釋	-9.66762
▁二	-9.66893
如前說	-9.66975
說言	-9.66982
六者	-9.66985
是常	-9.67021
亦名為	-9.67065
則無	-9.67068
一句	-9.67181
路	-9.67236
識等	-9.67247
夫	-9.67258
之體	-9.67324
此人	-9.67342
愛味	-9.67353
如文	-9.67424
持戒	-9.67483
論又	-9.67636
不住	-9.6769
由有	-9.67727
受者	-9.67748
勸	-9.6778
從此	-9.67805
異故	-9.67823
若離	-9.67867
續	-9.67895
生等	-9.67928
七地	-9.67935
虛	-9.67939
助伴	-9.67982
三學	-9.68104
談	-9.68138
比丘	-9.68161
皆通	-9.68203
損減	-9.68214
疎	-9.68234
三身	-9.68283
未能	-9.68352
事業	-9.68416
為名	-9.68527
飲食	-9.68553
中有二	-9.6872
天眼	-9.68728
離繫	-9.68774
餘識	-9.68785
念住	-9.68895
成滿	-9.69028
邪行	-9.69068
昔	-9.69072
已說	-9.69101
無生	-9.69128
能入	-9.69283
有所	-9.69296
二答分二	-9.69305
貪欲	-9.69314
或時	-9.69321
無漏種	-9.69332
故不	-9.69382
上二界	-9.69521
猛利	-9.6953
波	-9.69563
廣釋	-9.69585
即說	-9.69657
諸色	-9.69775
應有	-9.69917
隨應	-9.6998
總相	-9.70053
不變	-9.70141
處中	-9.70245
謂彼	-9.70309
而能	-9.70319
種生	-9.70434
藥	-9.70446
何不	-9.70591
一乘	-9.70672
施等	-9.7076
彼宗	-9.70774
利根	-9.70779
應言	-9.70783
勿	-9.70848
有十	-9.70872
意業	-9.70922
虗空	-9.70971
云何菩薩	-9.70971
諸蘊	-9.7105
漏盡	-9.71076
非唯	-9.7108
實無	-9.71118
徧計	-9.71226
之識	-9.71311
阿賴耶	-9.71332
奢摩他	-9.71342
見諦	-9.71418
隔	-9.71456
五地	-9.7146
演曰二釋	-9.7163
他心智	-9.71634
不還	-9.71681
因者	-9.71695
於法	-9.71716
引證	-9.71867
希望	-9.71895
熱	-9.71929
或說	-9.72107
現法	-9.72122
更無	-9.72138
淨心	-9.72196
無罪	-9.72225
謂即	-9.72227
各各	-9.7226
以無	-9.72292
二空	-9.72391
生得善	-9.72466
此位	-9.72508
據實	-9.72537
不受	-9.72538
所發	-9.72607
不通	-9.72683
行苦	-9.7281
領	-9.7283
九種	-9.72832
聽	-9.72854
畏	-9.72876
貪愛	-9.72971
心不	-9.72982
大師	-9.73096
相對	-9.73162
二果	-9.73162
遇	-9.73191
古	-9.73341
前師	-9.73368
號	-9.73427
諸地	-9.73429
穢	-9.73461
無作	-9.73515
婆羅門	-9.73555
有為無為	-9.73571
頭	-9.73657
又彼	-9.73661
散動	-9.73744
體即	-9.73807
生得	-9.73822
答云	-9.73867
一切皆	-9.73896
正念	-9.73942
雖不	-9.7395
法師	-9.74009
等法	-9.7401
為二	-9.74083
申	-9.74144
頂	-9.74192
聞慧	-9.74196
思慧	-9.74227
不染	-9.74248
邊際	-9.74259
有為法	-9.74298
故無	-9.7434
佛說	-9.74355
同異	-9.74384
甚	-9.74407
五趣	-9.74427
愛樂	-9.74493
入見道	-9.74669
隨逐	-9.74748
揔	-9.74803
諸欲	-9.74937
令他	-9.74947
迦	-9.74956
二地	-9.75011
忿	-9.75135
一剎那	-9.75141
獲	-9.7517
今者	-9.75212
假實	-9.75227
事故	-9.75251
配	-9.75376
異門	-9.75462
觸等	-9.7547
能知	-9.75473
身業	-9.75481
俱非	-9.755
增上果	-9.75542
染心	-9.75647
法處	-9.75682
四義	-9.75759
受苦	-9.75783
窮	-9.75807
初標	-9.75862
串習	-9.7587
三心	-9.75881
或由	-9.75891
律	-9.76012
五陰	-9.76036
母	-9.76115
已上	-9.76152
滅盡定	-9.76237
三事	-9.76283
此據	-9.76286
許有	-9.76331
四智	-9.76351
之果	-9.76402
分五	-9.76484
後一	-9.76484
慚	-9.76529
不壞	-9.76541
詞	-9.76563
問云	-9.76566
教法	-9.76611
意趣	-9.76735
含	-9.76784
荅	-9.76793
初靜慮	-9.77016
唯除	-9.77018
此顯	-9.77077
有覆	-9.77088
首	-9.77169
二解	-9.77201
自下	-9.77379
損害	-9.77387
隨一	-9.77445
染汙	-9.77463
亦說	-9.77555
方名	-9.77592
因云	-9.77619
陳	-9.77626
苦根	-9.77852
梵行	-9.77879
即約	-9.77895
出體	-9.77901
先明	-9.77952
相狀	-9.77965
異相	-9.77985
他心	-9.78017
梵	-9.78031
絕	-9.78057
餘二	-9.7812
為顯	-9.78241
?	-9.78291
轉故	-9.7831
面	-9.78346
調	-9.7841
帶	-9.78411
發生	-9.78436
▁【	-9.78455
愛語	-9.78608
《	-9.78644
無所有處	-9.7865
憶	-9.78745
二緣	-9.78858
善不善	-9.78904
若許	-9.78933
當生	-9.79005
法相	-9.79044
心心所法	-9.79117
瞋恚	-9.79364
如實了知	-9.79391
是名菩薩	-9.79392
業者	-9.79696
士用	-9.797
段食	-9.79711
又有	-9.79743
執持	-9.79908
百法	-9.80009
更不	-9.80074
或於	-9.80368
受等	-9.80568
三慧	-9.80738
俱舍	-9.80919
姓	-9.80983
五位	-9.81104
地等	-9.81205
別說	-9.81291
二執	-9.81335
下釋	-9.81363
一切行	-9.81402
義分二	-9.81403
同體	-9.81422
說之為	-9.81445
實性	-9.81501
十二支	-9.81515
故今	-9.81586
不失	-9.81631
前七	-9.81634
斥	-9.8165
工巧	-9.81653
瑜伽論	-9.81689
後起	-9.81768
相分二	-9.81771
生長	-9.819
一切時	-9.81975
分別者	-9.82036
若說	-9.82269
云何名為	-9.82332
致	-9.82417
苾芻	-9.8244
謂如有一	-9.82468
准知	-9.82513
法門	-9.82667
生老死	-9.82674
備	-9.82787
別立	-9.82787
見所斷	-9.82852
亦緣	-9.82897
前解	-9.82955
憂苦	-9.83026
善趣	-9.83029
授	-9.83148
置	-9.83187
異生性	-9.8319
學處	-9.83227
無法	-9.83324
樂欲	-9.83392
他人	-9.83405
煖	-9.83571
不可思議	-9.83649
興	-9.83677
真見道	-9.83686
喻如	-9.83706
鬼	-9.83715
不相應行	-9.83718
執有	-9.83828
無著	-9.83853
攝者	-9.83866
懷	-9.8388
性相	-9.83915
亦同	-9.83919
十力	-9.83963
迴心	-9.83985
既言	-9.84072
壞苦	-9.84074
如上	-9.84128
此法	-9.84155
既不	-9.84234
豈不	-9.84406
頌云	-9.84413
率爾	-9.84415
養	-9.84441
義也	-9.84513
揀	-9.84539
無癡	-9.84556
有對	-9.84571
誑	-9.84624
四蘊	-9.84745
失念	-9.84757
聲聞乘	-9.84796
相見道	-9.84857
親近	-9.84887
於現法中	-9.84912
前際	-9.85087
應名	-9.85156
之處	-9.85156
全無	-9.85254
如法	-9.85276
何別	-9.85339
論言	-9.85339
記別	-9.85348
果者	-9.85372
心生	-9.85375
等至	-9.85397
發業	-9.85414
能造	-9.85445
三地	-9.85476
滅盡	-9.8554
染法	-9.85555
無貪	-9.85556
所觀	-9.85557
薩迦耶見	-9.85567
根本智	-9.8557
更有	-9.85639
偈言	-9.8565
退失	-9.85661
藉	-9.85666
應不	-9.85709
憂根	-9.85805
若菩薩	-9.85812
別名	-9.85824
秘	-9.8587
不思議	-9.85933
後解	-9.85943
論復次	-9.86138
即得	-9.86247
清	-9.86248
勝義諦	-9.86402
無功用	-9.86481
在於	-9.86504
共許	-9.86515
此地	-9.86585
不俱	-9.86637
諸業	-9.86698
第六意識	-9.86752
希求	-9.86785
謂若	-9.86816
當知亦爾	-9.86824
密	-9.86845
餘處	-9.86884
及彼	-9.86925
諸論	-9.86964
唯緣	-9.86977
隨所	-9.87067
善男子	-9.87124
有頂	-9.87154
巳上	-9.87186
相應故	-9.87316
勘	-9.87322
廣分別	-9.87515
增上力故	-9.87612
二禪	-9.87675
也言	-9.87722
石	-9.87859
一切諸法	-9.87929
語言	-9.88009
心中	-9.8804
若在	-9.88132
後後	-9.88181
餘法	-9.88185
除遣	-9.88207
不相違	-9.88217
不盡	-9.8827
皆不	-9.88357
斷除	-9.88375
分齊	-9.88569
淨信	-9.88598
有心	-9.88611
諸佛菩薩	-9.88721
若諸菩薩	-9.88923
色身	-9.89322
當知此中	-9.89323
燒	-9.89404
十八界	-9.89462
大菩提	-9.89572
濁	-9.89591
得起	-9.89623
雜集	-9.89635
無願	-9.8964
慚愧	-9.89685
當言	-9.89704
世諦	-9.89732
大地	-9.89788
雖是	-9.89801
何以	-9.89866
□□	-9.89921
正思惟	-9.89947
行故	-9.89978
又由	-9.89982
不滅	-9.90196
諸天	-9.90239
十因	-9.90282
有差別	-9.90384
歸依	-9.90439
非謂	-9.90598
異熟生	-9.90602
體非	-9.90637
修學	-9.90658
善友	-9.90701
變化身	-9.90708
其實	-9.90712
二略答	-9.90826
寧	-9.90914
一切智	-9.90918
准前	-9.90937
宜	-9.90941
無顛倒	-9.90955
四分	-9.90987
密意	-9.91096
諸惡	-9.91168
傍	-9.91248
前中	-9.91256
作者	-9.91284
如人	-9.91469
身根	-9.91491
菩提分法	-9.91516
計度	-9.91628
受熏	-9.91638
有二義	-9.91688
在家	-9.91812
是何	-9.91856
分別性	-9.91914
生處	-9.91931
如其次第	-9.91959
苦苦	-9.92015
慮	-9.92024
按	-9.92058
於一	-9.92103
因相	-9.92129
妨	-9.92169
南	-9.922
修集	-9.9221
滿足	-9.92226
所現	-9.92246
是實有	-9.92268
於餘	-9.92278
為三	-9.92327
以明	-9.92346
但名	-9.92392
何須	-9.92408
定慧	-9.92412
非量	-9.92442
心外	-9.92468
得定	-9.92472
此則	-9.92593
由前	-9.92601
用故	-9.92605
責	-9.92631
諸相	-9.92649
無上菩提	-9.92661
餘四	-9.92675
不正知	-9.92756
差	-9.92824
實我	-9.92921
皆依	-9.92956
單	-9.93142
諸有	-9.93197
總說	-9.93268
殺生	-9.93278
實法	-9.93392
推求	-9.93402
不遍	-9.93459
體故	-9.93551
勝處	-9.93674
睡	-9.93682
意地	-9.93705
梵王	-9.93715
然後	-9.93729
既爾	-9.93785
萬	-9.93867
防護	-9.9392
今初	-9.93972
一味	-9.94159
於中有二	-9.94252
越	-9.94267
故說為	-9.94315
虗	-9.94362
第二解	-9.94417
能伏	-9.94489
則是	-9.94513
問若	-9.94523
之上	-9.94761
為主	-9.94761
以辨	-9.94777
方起	-9.94821
當知此	-9.94885
能除	-9.94923
此十	-9.94938
生空	-9.94991
人中	-9.95066
勇猛	-9.95096
十六心	-9.95101
不成就	-9.95119
黑	-9.95137
詳曰	-9.95145
一立	-9.95155
守	-9.95206
等無間	-9.95268
十地菩薩	-9.95287
界地	-9.95327
下界	-9.95388
中有三	-9.95432
引起	-9.95473
不具	-9.95474
滅道	-9.95484
牛	-9.95596
彼彼	-9.95633
所明	-9.957
大眾	-9.95754
▁三	-9.95852
其體	-9.9594
猒	-9.96036
但以	-9.96127
以有	-9.9618
一由	-9.96182
以上	-9.96215
真俗	-9.96308
芽	-9.96319
此下	-9.96343
識支	-9.96374
以是	-9.96383
非理	-9.96391
三義	-9.96393
及餘	-9.9649
為所依	-9.96537
解了	-9.96559
田	-9.96576
住處	-9.96638
之智	-9.96758
即便	-9.96777
離識	-9.96784
別義	-9.96825
於自	-9.96867
不約	-9.96898
奪	-9.96922
摽	-9.96933
何故不	-9.97008
是善	-9.97031
本無	-9.97057
非常	-9.9718
無瞋	-9.97195
外人	-9.97227
後際	-9.9739
無想天	-9.97402
廣明	-9.97413
亦不相違	-9.97458
諸見	-9.97616
只	-9.97671
非真	-9.9768
倍	-9.97693
何義	-9.97752
長行	-9.97788
三句	-9.97811
持種	-9.97894
方生	-9.97919
如是等類	-9.97946
三位	-9.97964
鼻	-9.98019
四地	-9.98068
了義	-9.98077
尊	-9.98083
幻	-9.9829
由是	-9.98292
中道	-9.9836
如是如是	-9.98398
無記性	-9.9853
或可	-9.98556
受戒	-9.98623
三禪	-9.98636
愚夫	-9.98735
遍滿	-9.9875
愧	-9.98836
初起	-9.98846
財物	-9.98908
為證	-9.98925
所依止	-9.98962
釋中	-9.98969
善染	-9.98997
之理	-9.98998
本來	-9.98999
五果	-9.99046
修多羅	-9.99106
背	-9.9912
麁細	-9.99172
父	-9.99195
五相	-9.99201
經言	-9.99206
際	-9.99218
恩	-9.99232
捨離	-9.99344
所由	-9.99395
忿等	-9.99436
欲貪	-9.99463
無實	-9.99486
無用	-9.99486
次辨	-9.99487
若據	-9.99493
亡	-9.99526
伴	-9.99606
變似	-9.99627
一識	-9.99695
不如	-9.9972
悔眠	-9.99865
皆同	-9.9991
相縛	-9.9999
一切處	-10.0006
譯	-10.0011
留	-10.0021
有云	-10.0027
準	-10.0032
無垢	-10.0036
第四禪	-10.0043
中初	-10.0047
止息	-10.005
第四靜慮	-10.0067
二句	-10.0074
患	-10.0077
以其	-10.0087
又諸菩薩	-10.0097
然彼	-10.0099
即能	-10.0103
非色	-10.0105
等三	-10.011
邊見	-10.0112
俱是	-10.0129
過未	-10.0131
平等性智	-10.0137
識體	-10.0139
或依	-10.0142
城	-10.0143
瓶	-10.0143
大論	-10.0145
音聲	-10.0151
謂從	-10.0164
哉	-10.0169
三分	-10.017
超越	-10.0172
有執	-10.0172
慈悲	-10.0178
五色根	-10.018
有八	-10.0181
六波羅蜜	-10.0185
故立	-10.0186
難行	-10.0187
如餘	-10.0191
陀	-10.0195
應如	-10.021
無失	-10.0212
離染	-10.0213
法智	-10.0215
今說	-10.0222
前五識	-10.0232
內心	-10.0238
等是	-10.0247
後結	-10.0249
何法	-10.0257
是無	-10.0261
不障	-10.0265
通名	-10.0268
之業	-10.0268
愛取	-10.027
入定	-10.0274
受想	-10.029
頓斷	-10.0292
阿梨耶識	-10.0294
能了	-10.0297
二定	-10.0309
從彼	-10.0312
夜	-10.0328
第四句	-10.0332
是有漏	-10.0334
故不說	-10.0351
為因緣	-10.036
非不	-10.0361
導	-10.0367
變為	-10.0372
不相離	-10.0377
多聞	-10.0381
等流果	-10.0385
二位	-10.0391
故須	-10.04
智障	-10.0402
凡聖	-10.0404
滅相	-10.0406
眾同分	-10.041
眼等識	-10.0425
未有	-10.0425
具有	-10.0426
由此因緣	-10.0426
菩薩地	-10.043
」【	-10.0438
識變	-10.0443
為他	-10.0444
相貌	-10.0445
增減	-10.0452
即顯	-10.046
之事	-10.0462
之名	-10.0465
破壞	-10.0466
擇	-10.0469
最上	-10.0475
二見	-10.0482
內身	-10.0482
初果	-10.0487
無漏種子	-10.0502
林	-10.0511
等取	-10.0514
故成	-10.0523
不可得故	-10.0528
異名	-10.0531
現識	-10.0533
所計	-10.0536
散心	-10.0545
見斷	-10.0546
周	-10.0556
天親	-10.0561
掉	-10.0572
勤修	-10.0578
盡故	-10.058
或為	-10.058
言無	-10.0586
羯磨	-10.0588
七八	-10.0588
二字	-10.059
利行	-10.0592
為難	-10.0593
正知	-10.0596
一體	-10.0604
根塵	-10.0604
立為	-10.0605
有漏心	-10.0608
是一	-10.0609
勝劣	-10.0611
二釋分二	-10.0613
平	-10.0614
已斷	-10.0615
開示	-10.0621
修斷	-10.0623
濫	-10.0625
西方	-10.0626
前六識	-10.0626
煩	-10.0642
即應	-10.0642
得入	-10.0643
生彼	-10.0655
有七	-10.0659
是我	-10.066
趣向	-10.0662
棄	-10.0666
取境	-10.0677
其餘	-10.0679
未必	-10.0686
唯無記	-10.0691
法無我	-10.0692
不須	-10.07
聽聞	-10.0701
十方	-10.0701
所化	-10.0705
俗諦	-10.0709
立量云	-10.071
近分	-10.071
境相	-10.071
莫	-10.0713
有何	-10.0728
同事	-10.0732
隨念	-10.0741
補遺	-10.0745
四釋	-10.0745
可見	-10.075
唯識性	-10.076
法也	-10.0768
精	-10.0769
悅	-10.0769
唯有漏	-10.077
受用身	-10.0771
五見	-10.0773
依他起性	-10.0775
非實有	-10.0778
得清淨	-10.078
惟	-10.0782
我我所	-10.0786
隨其	-10.0786
可愛	-10.0786
覺支	-10.0786
論師	-10.0792
識種	-10.0793
第二明	-10.0793
世親	-10.0795
契	-10.0796
分明	-10.0798
因位	-10.0807
所應	-10.0811
大等	-10.0812
未盡	-10.0813
最極	-10.0813
若人	-10.0813
自性身	-10.0814
局	-10.0815
他身	-10.0815
妄計	-10.0818
實義	-10.0819
不正	-10.0824
詳	-10.0832
如實智	-10.0832
領納	-10.084
亦云	-10.0842
蘊等	-10.0846
那落迦	-10.0857
不別	-10.086
無漏法	-10.0861
非法	-10.0865
欲樂	-10.0865
呪	-10.0868
一義	-10.0873
體者	-10.0875
經論	-10.0876
以下	-10.0896
障故	-10.0897
以前	-10.0898
皆具	-10.0909
妄語	-10.0909
常見	-10.0909
即如	-10.091
出生	-10.0919
毒	-10.0922
復說	-10.0925
造色	-10.0926
為四	-10.0933
六明	-10.0936
非定	-10.0937
但由	-10.0939
文義	-10.0947
欲令	-10.0952
前文	-10.0953
修所斷	-10.0954
於所	-10.0957
為說	-10.0961
能見	-10.0962
初三	-10.0962
善知	-10.0964
論解	-10.0965
漏無漏	-10.0965
既非	-10.0968
鏡	-10.0972
無違	-10.0975
見等	-10.0979
而行	-10.0992
何所	-10.0993
;	-10.0993
後生	-10.1003
超過	-10.1013
正明	-10.1017
功	-10.1026
集論	-10.1027
貪瞋癡	-10.1028
又問	-10.1029
事者	-10.1031
鈍根	-10.1032
象	-10.1034
可說	-10.1036
趣生	-10.1037
名身	-10.104
六行	-10.1053
演曰四	-10.1053
堪	-10.1057
不待	-10.1065
欲等	-10.1074
意言	-10.1075
斷障	-10.1077
器世間	-10.1078
於諸有情	-10.108
初一	-10.1083
次說	-10.1087
見者	-10.1094
果相	-10.1095
修惑	-10.1096
專	-10.1096
廣解	-10.1097
無常等	-10.1101
第二句	-10.1103
方便善巧	-10.1108
離諸	-10.1108
彼云	-10.1109
勇	-10.1111
事中	-10.1113
因也	-10.1121
二別	-10.1126
實等	-10.1135
識所變	-10.1135
出定	-10.1148
別報	-10.1157
一釋	-10.1163
等相	-10.117
種現	-10.1171
合為	-10.1175
得自在	-10.1184
科	-10.1185
非擇滅	-10.1194
何況	-10.1196
焰	-10.1197
是菩薩	-10.1199
七者	-10.12
等說	-10.1205
鈍	-10.1206
列名	-10.1213
六地	-10.1214
五取蘊	-10.1221
毘鉢舍那	-10.1224
外緣	-10.1226
與果	-10.1229
死生	-10.1229
無為法	-10.1236
受樂	-10.1243
如理作意	-10.1243
堪能	-10.1244
今解	-10.1253
心所法	-10.1262
是無漏	-10.1273
乖	-10.1273
正解	-10.1287
餘人	-10.129
雖非	-10.1292
於內	-10.1296
可解	-10.1298
餘皆	-10.13
空性	-10.1302
五支	-10.1304
緣真如	-10.1306
骨	-10.1307
衰	-10.1311
增上慢	-10.1313
緣覺	-10.1314
因緣故	-10.1316
三門	-10.1324
義中	-10.1325
若緣	-10.1332
成唯識	-10.1334
一人	-10.1337
婆	-10.134
有實	-10.1346
依持	-10.1351
為論	-10.1352
生起因	-10.1354
六塵	-10.1363
現在前	-10.1364
巳下	-10.1364
平等智	-10.1365
說此	-10.137
作法	-10.1375
菩薩戒	-10.1381
果位	-10.1383
禮	-10.1383
為斷	-10.1385
若不爾者	-10.1392
第三句	-10.1394
生已	-10.1395
五門	-10.1396
相好	-10.1405
肉	-10.1411
世第一法	-10.1412
基	-10.1413
繫縛	-10.142
應成	-10.142
為其	-10.1423
二俱	-10.1424
能正	-10.1427
隨惑	-10.1439
第	-10.1439
彼地	-10.1452
亦復	-10.1456
守護	-10.1456
未起	-10.1459
言論	-10.146
聚集	-10.1461
永滅	-10.1464
起者	-10.1465
不解	-10.1471
令得	-10.1473
逆	-10.1474
或是	-10.1475
觀待	-10.1485
舌	-10.1501
親生	-10.1508
巧	-10.1509
偏說	-10.1511
迴	-10.1517
諸外道	-10.1518
由如	-10.1523
智故	-10.1533
後方	-10.1533
造論	-10.1537
即為	-10.1539
明其	-10.154
疾	-10.154
諸惑	-10.1543
真實性	-10.1544
七日	-10.1546
正斷	-10.1546
此師	-10.1549
所為	-10.1554
形色	-10.1555
嫉	-10.1558
惡見	-10.1559
利養	-10.1563
開導	-10.1566
彼果	-10.1566
有分別	-10.1567
即依	-10.1571
五事	-10.1576
二識	-10.1581
未至	-10.1585
業力	-10.1589
不實	-10.1592
雨	-10.1597
既云	-10.1606
聖諦	-10.1611
等四	-10.1612
此事	-10.1615
諸受	-10.1618
書	-10.1621
容有	-10.1622
淺	-10.1622
曲	-10.1625
速疾	-10.1625
善惡業	-10.1626
五識中	-10.1627
加行道	-10.1628
菩薩藏	-10.1628
破云	-10.163
身等	-10.1635
楞伽	-10.1636
世出世	-10.1636
客	-10.1641
若彼	-10.1642
旨	-10.1645
恚	-10.1658
觀心	-10.1659
猶未	-10.1662
巳後	-10.1666
結前	-10.1668
無漏智	-10.167
真實義	-10.1674
種故	-10.1674
當知是名	-10.1677
種子生	-10.1678
義別	-10.1682
諂	-10.169
色無色界	-10.1695
一生	-10.1695
能對治	-10.1697
執為	-10.17
義說	-10.1709
盛	-10.1711
何妨	-10.1713
法義	-10.1714
中云	-10.1721
皆由	-10.1733
住持	-10.1734
都	-10.1738
繫屬	-10.1745
世間道	-10.175
唯心	-10.1761
不復	-10.1763
即取	-10.1768
尼	-10.1768
合說	-10.1773
唯言	-10.1773
為增上緣	-10.1786
八者	-10.1787
中無	-10.1787
化生	-10.179
誠	-10.18
即於此	-10.18
二由	-10.1801
隨彼	-10.1801
不可言	-10.1808
既許	-10.1811
男	-10.1822
微妙	-10.1824
三苦	-10.1825
應是	-10.1836
定無	-10.1844
之性	-10.1853
所依為業	-10.1857
是無常	-10.1862
此難	-10.1865
料簡	-10.1875
心者	-10.1875
略有二種	-10.1888
勝進道	-10.1888
說彼	-10.1907
去來	-10.191
三根	-10.1913
悉皆	-10.1914
六識中	-10.1915
四行	-10.1915
一切種子	-10.1915
別破	-10.1921
餘如前說	-10.1925
心起	-10.1926
演曰後明	-10.1926
毀犯	-10.1927
若生	-10.1928
短	-10.1936
欲界繫	-10.194
不共無明	-10.1941
隨義	-10.1943
不善業	-10.1945
任	-10.1945
淨戒	-10.1945
遍處	-10.1948
經部師	-10.1951
引經	-10.196
伽	-10.1961
假法	-10.1964
還滅	-10.1964
次就	-10.1967
百千	-10.1968
新熏	-10.1968
緣者	-10.1974
一異	-10.198
生相	-10.1983
多種	-10.1988
此上	-10.1989
如疏	-10.1996
二門	-10.1996
而作	-10.1997
順決擇分	-10.1999
能受	-10.2006
定地	-10.2006
資具	-10.2013
生於	-10.2013
即通	-10.2016
虛妄分別	-10.2025
第十一	-10.2027
果也	-10.2039
戒取	-10.2042
義利	-10.2044
由是因緣	-10.2048
為義	-10.2049
若唯	-10.2053
有三義	-10.2057
瑜伽云	-10.2067
五欲	-10.2068
令不	-10.2069
猶有	-10.207
難陀	-10.2072
為有	-10.2074
一期	-10.2079
有我	-10.2088
三時	-10.2089
十法	-10.2092
色處	-10.2093
地上	-10.2096
如文可知	-10.2097
法華	-10.2098
歷	-10.2098
識中	-10.2101
等覺	-10.2106
有覆無記	-10.2114
後四	-10.2117
前之	-10.2119
欲界中	-10.2122
不樂	-10.2122
陀羅尼	-10.2123
不著	-10.2134
乞	-10.2135
之身	-10.2135
厭離	-10.2136
自下第二	-10.2141
猶豫	-10.2144
十二處	-10.2147
希	-10.2151
加行位	-10.2157
三緣	-10.2158
乃是	-10.216
豈非	-10.2167
別明	-10.2167
相中	-10.2167
有六種	-10.2173
不隨	-10.2178
疏中	-10.2178
苦行	-10.218
一身	-10.2181
無記法	-10.2194
無義	-10.2195
舍	-10.2199
語業	-10.2203
提	-10.2206
疑惑	-10.2207
善性	-10.221
相應法	-10.2214
世俗智	-10.2218
如前所說	-10.2227
依何	-10.2229
但依	-10.2239
花	-10.2242
不現	-10.2246
亦依	-10.2249
經中說	-10.2255
男女	-10.2255
一境	-10.2259
巳得	-10.226
不從	-10.2262
通三界	-10.2271
貪著	-10.2272
五因	-10.2275
演曰十	-10.228
方成	-10.2285
身土	-10.2288
徧計所執	-10.2291
彼經	-10.2296
出世道	-10.2301
圓成實性	-10.2307
色相	-10.2307
二十二	-10.231
非情	-10.2312
行蘊	-10.2312
彼計	-10.2313
犯戒	-10.2317
中亦有	-10.2324
等起	-10.2325
心無	-10.2332
沙	-10.235
有差別故	-10.235
但為	-10.2359
可言	-10.236
不律儀	-10.2362
美	-10.2365
勝行	-10.2369
第三明	-10.237
行施	-10.2371
則有	-10.2384
恨	-10.2386
以顯	-10.2388
此心	-10.2389
不假	-10.2391
不自	-10.2392
成辦	-10.2396
河	-10.2398
雲	-10.24
如意	-10.2416
佛身	-10.2419
未知	-10.2424
何緣	-10.2427
云何名	-10.2427
則應	-10.2435
有力	-10.2442
葉	-10.2442
誦	-10.2443
正受	-10.2444
分二如論	-10.2445
唯有識	-10.2447
眾緣	-10.2452
虗妄	-10.246
結成	-10.2462
遊	-10.2463
不得名	-10.2468
相違故	-10.2468
攝持	-10.2471
五依	-10.2475
缺	-10.2479
義曰	-10.2484
不轉	-10.2491
為本	-10.2506
中所有	-10.2512
三和	-10.252
皆應	-10.252
乳	-10.2524
大乘中	-10.2524
壽量	-10.2527
梵云	-10.2534
惣	-10.2537
▁「	-10.2538
為所緣	-10.2541
後說	-10.2542
抄	-10.2544
於佛	-10.2549
演曰	-10.2554
王所	-10.2558
利樂	-10.2559
名有	-10.2564
遍計所執自性	-10.2568
以理	-10.2569
士	-10.2571
善品	-10.2571
福德	-10.2572
有時	-10.2574
生苦	-10.2577
所求	-10.258
方有	-10.2584
正因	-10.2591
已後	-10.2594
而立	-10.2595
三十	-10.2596
離言	-10.2601
不還果	-10.2602
持業	-10.2605
定力	-10.2617
滅時	-10.2618
熏成	-10.2621
玄	-10.2636
入滅定	-10.2638
訶	-10.264
正勤	-10.2643
下結	-10.2644
苦果	-10.2645
發菩提心	-10.2652
合為一	-10.2659
逼	-10.2673
斷見	-10.2676
於欲界	-10.2677
無自性	-10.2677
惛沉	-10.2677
及諸	-10.2679
斷彼	-10.2681
相應者	-10.2681
木	-10.2684
自有	-10.2697
初總	-10.2701
生果	-10.2706
錯	-10.2713
通二	-10.2719
定異	-10.2727
得涅槃	-10.2745
若云	-10.2753
逼迫	-10.2755
問此	-10.276
所學	-10.2762
龍	-10.2771
與識	-10.2779
於一切法	-10.2785
能與	-10.2789
性淨	-10.2803
第六識中	-10.2803
飲	-10.2804
如其所應	-10.2804
學無學	-10.2816
身命	-10.2817
業感	-10.282
儀	-10.2834
類智	-10.2834
論如是	-10.2835
無慚	-10.2837
迹	-10.2838
寄	-10.2843
別者	-10.2846
是也	-10.2852
同緣	-10.286
十信	-10.2862
改	-10.2867
不論	-10.287
已去	-10.287
應當	-10.2873
杖	-10.2877
作此	-10.2878
毘曇	-10.2878
必無	-10.2879
謂能	-10.2887
應云	-10.2887
演曰三明	-10.2889
牽引	-10.2891
所繫	-10.2898
聲等	-10.2901
識蘊	-10.2905
頌言	-10.2908
迷理	-10.2909
作證	-10.291
毘奈耶	-10.2911
釋論	-10.2913
別緣	-10.2915
聞熏習	-10.2916
無漏道	-10.2918
有因	-10.2921
言教	-10.2921
恒行	-10.2928
草	-10.2934
聲聞緣覺	-10.2935
薄	-10.2937
供	-10.2938
是苦	-10.294
我愛	-10.294
救云	-10.2951
理趣	-10.2953
名無	-10.2957
諸善	-10.2957
不及	-10.2968
演曰三釋	-10.297
勝定	-10.2972
猛	-10.2973
拔	-10.2975
那含	-10.2975
總聚	-10.2975
也問	-10.2976
覺觀	-10.2979
唯無漏	-10.298
總是	-10.2987
同故	-10.2988
違理	-10.2995
異地	-10.2998
忘	-10.3
一相	-10.3007
麤細	-10.3014
餓鬼	-10.3014
二別釋	-10.3023
何處	-10.3024
士夫	-10.3024
運	-10.3025
大乘法中	-10.303
惠施	-10.3034
之用	-10.3034
根本煩惱	-10.3036
無始時來	-10.3036
毘	-10.3039
惡法	-10.3057
內法	-10.3066
持業釋	-10.3066
由於	-10.3067
異性	-10.3068
我當	-10.3079
於身	-10.3083
自利利他	-10.3084
太	-10.3088
但約	-10.3091
無心位	-10.3094
若取	-10.3101
珠	-10.3103
但取	-10.3105
端	-10.3114
地獄中	-10.3114
積聚	-10.3115
四果	-10.3117
現法樂住	-10.312
非得	-10.3123
青等	-10.3129
難曰	-10.3137
同處	-10.3141
似彼	-10.3144
無明支	-10.3147
謂前	-10.3153
釋成	-10.3155
瑜伽師地論	-10.3161
徒	-10.3163
竝	-10.317
於後	-10.3173
復言	-10.3176
寬狹	-10.3178
一切世間	-10.3179
自種	-10.3186
菩薩於	-10.3192
決擇分	-10.3194
淨法	-10.3195
更互	-10.3212
相雜	-10.3214
第二師	-10.3221
如言	-10.323
此處	-10.3232
了達	-10.3234
婆沙	-10.3236
如論	-10.3239
能顯	-10.3242
廢立	-10.3251
威力	-10.3251
因明	-10.3251
何失	-10.3252
金剛心	-10.3256
俱有因	-10.3257
六釋	-10.3258
一品	-10.3258
合響	-10.326
亦為	-10.3264
非我	-10.327
謝	-10.3271
聖智	-10.3272
一个	-10.3274
不出	-10.3276
必不	-10.3279
稍	-10.3288
殘	-10.3294
利益安樂	-10.3294
現有	-10.33
不求	-10.3304
世俗有	-10.3311
因此	-10.3316
於我	-10.3318
智力	-10.3321
成唯識論	-10.3322
錄	-10.333
中攝	-10.333
此因	-10.334
為對治	-10.3343
初正釋	-10.3344
預流	-10.3344
廣說乃至	-10.3348
空處	-10.3353
俱有依	-10.3358
唯約	-10.3361
蛇	-10.3369
能現	-10.3378
身識	-10.3384
般	-10.3387
演曰後釋	-10.3389
大願	-10.339
根本定	-10.3392
壽命	-10.3394
士用果	-10.3394
後果	-10.3397
得解脫	-10.3398
如所	-10.3407
廢	-10.341
至名	-10.3415
哀愍	-10.3416
成所作智	-10.3419
四事	-10.3422
作意思惟	-10.3424
為除	-10.3429
共有	-10.3431
餘乘	-10.3431
白法	-10.3431
往來	-10.3431
惡道	-10.3433
有九	-10.3435
並是	-10.3438
相依	-10.3438
忘念	-10.3447
不過	-10.3448
有漏法	-10.3451
心一境性	-10.3452
俱無	-10.3455
各異	-10.3457
此身	-10.3463
二辯	-10.3465
云何應知	-10.3466
雜亂	-10.347
亦由	-10.3472
氣	-10.3474
律儀戒	-10.3476
三處	-10.348
安隱	-10.3483
已滅	-10.3485
不遮	-10.3493
必依	-10.3497
今以	-10.3497
黃	-10.3498
清涼	-10.3499
教誡	-10.3503
思之	-10.351
此二種	-10.3524
彼執	-10.3525
如對法	-10.3526
顯此	-10.3526
本識中	-10.3526
與此	-10.353
見相	-10.3531
薪	-10.3539
於苦	-10.3541
造業	-10.3543
之意	-10.3545
憍慢	-10.3551
修定	-10.3557
修善	-10.3558
定性	-10.3559
未證	-10.3561
不可知	-10.3561
六七	-10.3564
不順	-10.3565
別也	-10.3575
初問	-10.3581
便能	-10.3582
緣義	-10.3589
之行	-10.3591
自知	-10.3596
異者	-10.3605
不空	-10.3611
入涅槃	-10.3613
見惑	-10.3618
與此相違	-10.3619
為喻	-10.3625
華嚴	-10.363
等智	-10.3635
有苦	-10.3638
牒前	-10.3647
煩𢙉	-10.3652
觀行	-10.3653
性境	-10.3658
能觀	-10.3667
初中	-10.3668
臥	-10.3671
假有	-10.3674
集起	-10.3675
受果	-10.3676
邪執	-10.3678
今依	-10.3678
其性	-10.3682
有用	-10.3687
我等	-10.3694
相分三	-10.3698
攝論云	-10.3702
無過	-10.3708
若由	-10.371
體也	-10.3711
便有	-10.3719
相從	-10.3732
即與	-10.3738
五識身	-10.3739
身者	-10.3747
以之為	-10.3749
時分	-10.3753
自性故	-10.3756
能招	-10.3757
馬	-10.3759
辭	-10.3759
:「	-10.3759
○	-10.3766
暗	-10.3784
染著	-10.3803
依主釋	-10.381
三類	-10.3812
徧行	-10.3814
前所說	-10.3817
迦葉	-10.382
熏種	-10.3822
分為二	-10.3823
願力	-10.3824
後之	-10.3824
無覆無記	-10.3827
加行智	-10.3837
未離	-10.3838
此乃	-10.3843
皆以	-10.3849
於心	-10.3853
覩	-10.3853
憐愍	-10.3854
避	-10.3855
生上	-10.3856
而成	-10.3861
顯色	-10.3865
無窮	-10.3865
欣樂	-10.3866
聞法	-10.3877
論謂	-10.3882
識者	-10.3883
一因	-10.3884
立量	-10.3892
四十	-10.3892
皮	-10.39
二約	-10.39
應身	-10.3901
依義	-10.3913
增勝	-10.3915
二支	-10.3916
分位差別	-10.3917
彼法	-10.3917
難知	-10.392
可爾	-10.3927
權	-10.393
無別體	-10.3931
通無漏	-10.3931
不相	-10.3934
自宗	-10.3936
妙智	-10.3937
□□□	-10.3937
相現	-10.3938
分六	-10.3939
三德	-10.394
自性差別	-10.3941
世俗諦	-10.3944
七支	-10.3948
宮	-10.3949
外色	-10.3952
牽	-10.3959
故不相違	-10.396
賢	-10.3962
狀	-10.3965
非正	-10.397
阿含	-10.3973
言之	-10.3975
為食	-10.3982
所收	-10.399
嚴	-10.3991
作是說	-10.3999
隨緣	-10.4
修治	-10.4003
義分三	-10.401
節	-10.4018
五十一	-10.4022
先說	-10.4024
正定	-10.4036
轉者	-10.4037
人執	-10.4047
如如	-10.4051
積	-10.4051
二品	-10.4054
證真如	-10.4055
即不	-10.4055
次約	-10.4058
時有	-10.4058
濕	-10.406
定故	-10.4061
軌	-10.4065
後智	-10.4075
處非處	-10.4076
熾然	-10.4076
能攝	-10.4078
胎	-10.4088
若起	-10.4096
不苦不樂	-10.4099
引因	-10.4099
總標	-10.41
宗中	-10.41
一切相	-10.4106
離心	-10.4112
自說	-10.4116
實相	-10.4119
當果	-10.412
現種	-10.4124
行中	-10.4127
四塵	-10.4127
識住	-10.4128
等諸	-10.4137
滅壞	-10.4141
覺悟	-10.4142
撥無	-10.415
三無性	-10.415
初定	-10.4159
其相云何	-10.4161
後別	-10.4163
覺知	-10.4166
若見	-10.4167
尊重	-10.4168
但緣	-10.4171
取支	-10.4185
之道	-10.4189
通漏無漏	-10.4195
無不	-10.42
依主	-10.4204
是識	-10.4205
到彼岸	-10.4205
便成	-10.4206
何為	-10.421
有生滅	-10.4217
無諍	-10.4218
源	-10.422
堅住	-10.4224
大造	-10.4225
彼天	-10.4227
能執受	-10.4228
諸功德	-10.423
空無我	-10.423
預流果	-10.4232
一名	-10.4234
三境	-10.424
初師	-10.4241
親所緣緣	-10.4244
初生	-10.4245
第二卷	-10.4247
自分	-10.425
未來世	-10.425
是無記	-10.4253
身口	-10.4255
無記心	-10.4256
薩	-10.4258
起於	-10.426
鄣	-10.4261
如唯識	-10.4263
今取	-10.4267
三智	-10.427
因性	-10.4271
所分別	-10.4273
未離欲	-10.4274
略有三種	-10.4278
此破	-10.4279
過故	-10.4285
便無	-10.4287
此性	-10.429
為此	-10.4291
簡別	-10.4291
所持	-10.4292
二乘無學	-10.4298
是果	-10.4301
斷常	-10.4303
名句文	-10.4304
三因	-10.4306
等言	-10.4307
計所執	-10.4308
禁戒	-10.4313
此一門竟	-10.4318
撥	-10.4323
一切菩薩	-10.4331
教理	-10.4339
相生	-10.4339
總緣	-10.434
眼耳	-10.4341
是為	-10.4341
夢中	-10.4347
是名為	-10.4347
無餘涅槃	-10.4348
無此	-10.4357
不在	-10.4363
內識	-10.4366
心行	-10.4366
地持	-10.4367
令生	-10.4369
二邊	-10.4369
若依成實	-10.4375
佛菩薩	-10.4377
非所斷	-10.4385
六句	-10.4387
如水	-10.439
且說	-10.4391
意顯	-10.4399
唯此	-10.4402
測	-10.4403
斷盡	-10.441
由此道理	-10.4417
數論	-10.4417
其身	-10.4422
三識	-10.4429
身受	-10.4432
有想	-10.4437
限	-10.4437
從他	-10.4438
處處	-10.4439
切	-10.4442
相違因	-10.4443
異熟心	-10.4449
二說	-10.4453
四聖諦	-10.4462
沈	-10.4468
赤	-10.4469
二十四	-10.4475
比知	-10.4481
彼文	-10.4481
之色	-10.4481
佛土	-10.4486
四念住	-10.4489
疎所緣緣	-10.449
菩提心	-10.449
攝一切	-10.449
見修	-10.4492
四惑	-10.4492
斷者	-10.4494
繩	-10.4495
聲聞獨覺	-10.4497
生無色界	-10.4498
諸有情類	-10.4501
能破	-10.4503
菩薩行	-10.4511
幾是	-10.4512
有見	-10.4514
是前	-10.4514
生死涅槃	-10.4516
執取	-10.4523
第三解	-10.4527
施與	-10.453
相屬	-10.4534
悶	-10.4537
諸如來	-10.4547
暫時	-10.455
國土	-10.4558
之與	-10.4559
法施	-10.4564
隨說因	-10.4572
廣辨	-10.4573
心意識	-10.4576
苦惱	-10.4582
冥	-10.4583
無動	-10.4583
數滅	-10.4587
俱名	-10.4587
序	-10.4589
數習	-10.4591
因生	-10.4594
二乘人	-10.4596
鏡智	-10.4602
心住	-10.4607
根等	-10.4617
如前應知	-10.4617
前言	-10.4619
聞聲	-10.4623
經文	-10.4626
不自在	-10.4634
二十一	-10.4634
難可	-10.4637
底	-10.464
仗	-10.4641
是心	-10.4644
始從	-10.4646
住者	-10.4651
各自	-10.4655
種子故	-10.4657
二界	-10.4659
轉計	-10.4663
餘者	-10.4665
理故	-10.4666
師云	-10.467
諸句	-10.4671
分為	-10.4672
厭患	-10.4672
引攝	-10.4674
聽法	-10.4675
想者	-10.4675
有邊	-10.4676
冷	-10.4684
三總結	-10.4684
皆非	-10.4688
專注	-10.4689
室	-10.4689
佛世尊	-10.4694
諸種子	-10.4697
非安立諦	-10.4701
見有	-10.4704
繁	-10.4704
涅槃經	-10.4707
聞思修	-10.4707
不合	-10.4707
為是	-10.4708
方廣	-10.4711
二十五	-10.4712
為首	-10.4712
若執	-10.4714
六因	-10.4717
次解	-10.4717
不平等	-10.4719
設有	-10.4728
最為	-10.4729
舍利弗	-10.4738
若諸	-10.4741
無嗔	-10.4741
生天	-10.4745
說云	-10.475
真智	-10.4756
微塵	-10.4756
威德	-10.4758
無餘依	-10.476
四善根	-10.4762
漸漸	-10.4767
演曰二辯	-10.4768
覺了	-10.477
第四定	-10.4775
攝取	-10.4777
真理	-10.478
良以	-10.478
見相二分	-10.478
處者	-10.4781
汎	-10.4784
界繫	-10.4785
實非	-10.4789
身故	-10.479
我故	-10.4792
義同	-10.4793
善修	-10.4798
逼惱	-10.48
▁次釋	-10.4801
不有	-10.4811
不寂靜	-10.4812
總報	-10.4813
次下	-10.4816
)。△	-10.4816
無所得	-10.4826
行等	-10.4831
便生	-10.4831
應得	-10.4845
善行	-10.485
有大	-10.4852
定非	-10.4857
諸餘	-10.4859
三由	-10.4865
可名	-10.4866
通於	-10.4868
今大乘	-10.4878
僧祇	-10.488
誹謗	-10.4882
解行	-10.4882
此為	-10.4886
呼	-10.4893
過去未來	-10.4896
十住	-10.4899
宿	-10.49
諸佛如來	-10.4901
不徧	-10.491
廣如	-10.4911
俱故	-10.4913
今時	-10.4914
色心等	-10.4918
友	-10.4919
勝者	-10.492
臣	-10.492
初約	-10.4922
九者	-10.4922
實事	-10.4922
妄情	-10.4927
在定	-10.4933
座	-10.4933
取蘊	-10.4939
次句	-10.4941
為得	-10.4943
見道中	-10.4945
非異	-10.4945
則不	-10.4947
等也	-10.4949
現世	-10.4952
別體	-10.4958
隨意	-10.4959
別起	-10.4962
唯善	-10.4966
為後	-10.4968
連	-10.4979
住中	-10.498
浪	-10.4982
初發心	-10.4982
方始	-10.4983
不離識	-10.4989
加行善	-10.4992
等名	-10.4992
離於	-10.4993
不唯	-10.4993
堪任	-10.4994
分別故	-10.5006
常無常	-10.5007
為自	-10.5011
為俱有依	-10.5015
未曾	-10.5018
為宗	-10.5018
彌勒	-10.5018
檀	-10.5018
一切地	-10.5023
不淨觀	-10.5029
畢竟無	-10.5031
境者	-10.5035
由他	-10.5036
佗	-10.5037
重釋	-10.5039
色無色	-10.5041
文字	-10.5042
有宗	-10.5043
執故	-10.5045
苦等	-10.5049
期	-10.5056
染污心	-10.5057
一字	-10.5057
又依	-10.5059
悶絕	-10.5059
第十地	-10.5063
識生	-10.5065
長等	-10.5068
世法	-10.5074
車	-10.5077
但云	-10.5079
修者	-10.5079
勝論	-10.5081
然非	-10.5082
羞	-10.5084
隨心	-10.5085
善十一	-10.5089
依如毘曇	-10.5091
真見	-10.5091
恒常	-10.5092
:	-10.5096
為所緣緣	-10.5098
總攝	-10.5099
苦故	-10.5104
隨喜	-10.5104
二處	-10.5111
俱者	-10.5114
名不	-10.512
雖說	-10.512
。《	-10.5136
學者	-10.5138
之過	-10.5144
是無分別智	-10.5152
無生忍	-10.5153
損惱	-10.5155
不能生	-10.5157
能緣心	-10.5162
能說	-10.5165
彼處	-10.5169
能立	-10.5171
疏主	-10.5172
謂我	-10.5176
告	-10.5176
餘九	-10.518
外法	-10.5181
六法	-10.5184
法為	-10.5187
六位	-10.5192
亦以	-10.5193
曾習	-10.5195
信等五根	-10.5196
次破	-10.5197
演曰五	-10.5197
此亦如是	-10.5197
眾具	-10.5216
若欲	-10.5218
此頌	-10.5226
二結	-10.523
賊	-10.5237
有漏善	-10.5237
三量	-10.5244
酬	-10.5244
福田	-10.5248
合有	-10.5252
所緣故	-10.5255
四門	-10.5257
念處	-10.5257
與餘	-10.5257
問也	-10.526
餘七	-10.5262
說也	-10.5262
隣近	-10.5265
不染污	-10.5265
品中	-10.5268
依身	-10.5269
他所	-10.5269
地地	-10.5272
謂一切	-10.5275
不能緣	-10.528
必由	-10.5281
又能	-10.5289
番	-10.5292
表色	-10.5295
開合	-10.5296
福智	-10.5297
無明住地	-10.5299
是真	-10.53
定障	-10.5302
執藏	-10.5311
聞正法	-10.5313
般若波羅蜜	-10.5316
神力	-10.5319
輪王	-10.532
上立	-10.5321
是慧	-10.5322
即名為	-10.5323
四無量	-10.5324
緣縛	-10.5325
巳前	-10.5331
苦者	-10.5335
行捨	-10.534
他宗	-10.5341
此亦不然	-10.5345
體即是	-10.5346
一切佛法	-10.535
滅者	-10.535
不如實知	-10.5356
合成	-10.536
報身	-10.5362
釋前	-10.5364
諸苦	-10.537
得與	-10.537
答由	-10.5373
即非	-10.5377
惡友	-10.5378
名分別	-10.5378
他世	-10.5378
後辯	-10.5379
若非	-10.5382
非異熟	-10.5383
是所緣	-10.5384
又言	-10.5389
元	-10.539
眼等根	-10.5395
何謂	-10.5398
者意云此	-10.54
擊	-10.5402
同異性	-10.5407
故不名	-10.5409
分三如論	-10.5409
西	-10.5412
不忘	-10.5413
何用	-10.5415
若得	-10.5423
有漏種	-10.5423
勝妙	-10.5424
四道	-10.5425
何故不說	-10.5425
體無	-10.5428
有能	-10.5429
諸師	-10.5429
如來法身	-10.543
假者	-10.5433
是總	-10.5438
之外	-10.5442
何因	-10.5443
軌則	-10.5451
三藏云	-10.5452
以何義故	-10.546
二道	-10.5461
一是	-10.5461
一地	-10.5462
觀待因	-10.5463
資糧位	-10.5467
若望	-10.5467
總有	-10.5468
空理	-10.5472
為因故	-10.5475
麁相	-10.548
外器	-10.549
文分為二初	-10.5491
根性	-10.5494
初後	-10.5494
至非	-10.5495
明無犯	-10.5495
三支	-10.5495
第二靜慮	-10.55
巳斷	-10.5502
非想非非想處	-10.5504
善知識	-10.5504
異熟無記	-10.5511
想受	-10.5511
能滅	-10.5517
不善性	-10.5518
並生	-10.5519
非斷	-10.5521
一物	-10.5525
種種相	-10.5529
如何說	-10.5531
已入	-10.5533
恒有	-10.5534
中邊	-10.5536
阿僧祇	-10.5539
策	-10.5539
順解脫分	-10.5541
非但	-10.5541
為根	-10.5545
有方分	-10.5546
耽著	-10.5547
即成	-10.5547
攝善法戒	-10.5548
奢摩他毘鉢舍那	-10.555
因義	-10.555
咸	-10.5551
神變	-10.5557
勝鬘	-10.5568
有德	-10.5568
安立諦	-10.5569
久住	-10.5574
十地中	-10.5576
實體	-10.558
所感	-10.558
立宗	-10.558
是第二	-10.5583
二列名	-10.559
所依故	-10.559
癡分	-10.559
現身	-10.5591
焉	-10.5598
攝大乘	-10.5599
不現前	-10.5601
牽引因	-10.5604
意處	-10.5609
或以	-10.5609
可有	-10.561
放	-10.561
以是義故	-10.5614
無智	-10.5614
聲聞等	-10.5621
奉	-10.5622
眼識等	-10.5623
六依	-10.5628
如是菩薩	-10.5631
之類	-10.5632
巳滅	-10.564
有十種	-10.5642
處故	-10.5647
巳去	-10.5652
徵釋	-10.5656
三界九地	-10.566
軟	-10.5666
親緣	-10.5669
憎	-10.5678
有境	-10.5679
道品	-10.5682
蘊界處	-10.5683
增盛	-10.5684
下中上	-10.5685
於理	-10.5688
不生故	-10.569
不清淨	-10.569
丈夫	-10.5692
沉	-10.5693
復由	-10.5694
緣慮	-10.5694
法寶	-10.5695
果中	-10.5698
為求	-10.5699
無緣	-10.57
法輪	-10.5702
四處	-10.5705
釋迦	-10.5708
先所	-10.5717
諸心心所	-10.5721
皆成	-10.5725
二身	-10.573
第七識中	-10.5734
當得	-10.5744
有染	-10.5748
與樂	-10.575
宣	-10.5752
若就	-10.5753
唯屬	-10.5755
二事	-10.5757
是因	-10.5759
固	-10.5759
之力	-10.5762
非染	-10.5762
此六	-10.5764
過去世	-10.5782
雜心	-10.5784
是人	-10.5784
通說	-10.5788
巧便	-10.5792
復云	-10.5794
二十八	-10.5799
隨觀	-10.5804
諸波羅蜜	-10.5804
現在世	-10.5807
為障	-10.5808
染故	-10.5808
惛沈	-10.5808
補	-10.5808
大海	-10.5808
所樂	-10.5813
生識	-10.5814
究	-10.5814
於中有三	-10.5816
行時	-10.5816
成有漏	-10.5817
角	-10.5818
非因緣	-10.5819
智見	-10.5829
本論	-10.583
阿難	-10.5832
二十三	-10.5834
戲	-10.5835
復以	-10.5836
通相	-10.5838
毛	-10.5838
為例	-10.584
不死	-10.584
緣此	-10.5843
是因緣	-10.5844
方便道	-10.5844
隨所應	-10.5845
能藏	-10.5855
色聲	-10.5856
名緣	-10.5856
在欲界	-10.5861
外難	-10.5862
前七識	-10.5863
變起	-10.5867
鉢	-10.5869
亦得名	-10.5873
打	-10.5877
是假有	-10.588
三惡趣	-10.5881
作事	-10.5885
五境	-10.5888
自許	-10.5888
黑白	-10.589
變現	-10.5893
圓滿故	-10.5904
三聚	-10.5904
謂欲	-10.5906
所藏	-10.5912
二世	-10.5913
皆名為	-10.5913
種生現	-10.592
論問	-10.5923
非安立	-10.5926
箭	-10.5929
刀	-10.5931
自下第三	-10.5933
堪忍	-10.5936
從初	-10.5941
二十六	-10.5941
而未	-10.5947
神足	-10.5951
諸部	-10.5953
橫	-10.5954
若爾何故	-10.5955
道故	-10.5957
恒相續	-10.5963
根身	-10.5968
能於	-10.5968
此三種	-10.5972
是故此	-10.5974
適悅	-10.5978
餘一切	-10.598
初修	-10.5981
更生	-10.5986
初門	-10.5987
所作事	-10.5993
向前	-10.5995
說正法	-10.5998
等皆	-10.5998
斷結	-10.5999
先後	-10.6004
明淨	-10.6005
不明了	-10.6008
受變易	-10.601
後世	-10.6011
表業	-10.6014
自識	-10.6017
四大種	-10.6018
論之	-10.6026
分中	-10.6027
其名	-10.6029
音義謂	-10.6029
必定	-10.603
無礙解	-10.6031
相待	-10.6035
因力	-10.6037
一性	-10.6037
〔	-10.6038
有餘依	-10.6038
相也	-10.6039
亦成	-10.605
一切善法	-10.605
何等為	-10.6051
差別相	-10.6053
稱讚	-10.6056
但於	-10.6061
違犯	-10.6063
所隨	-10.6064
教化	-10.6066
即於彼	-10.6068
今約	-10.607
論釋	-10.607
貪瞋	-10.6071
諦理	-10.6072
北	-10.6073
破之	-10.6084
狂	-10.6084
四倒	-10.6086
別別	-10.6086
追悔	-10.6087
恃	-10.6089
根識	-10.6102
彼既	-10.6106
傍生	-10.6106
清淨故	-10.6113
深生	-10.6114
理事	-10.6115
彼此	-10.612
財寶	-10.6122
順益	-10.6122
如幻	-10.6123
然有	-10.6124
七明	-10.6125
四食	-10.6126
大眾部	-10.6133
所愛	-10.6137
時節	-10.6138
於上	-10.6143
適	-10.6146
大涅槃	-10.6149
深密	-10.615
復生	-10.6153
多時	-10.6154
故稱	-10.6155
損益	-10.6156
追求	-10.6156
洲	-10.6158
論本	-10.6159
諸界	-10.616
四位	-10.6161
何有	-10.6163
五受	-10.6168
是色	-10.6169
又諸	-10.6169
不欲	-10.6171
六通	-10.6179
師說	-10.6189
文分為二一	-10.6191
展轉相	-10.6193
梵本	-10.6194
正是	-10.6197
為開導依	-10.6198
遭	-10.6198
淨不淨	-10.62
且約	-10.6205
不應理	-10.6207
二師	-10.6217
六義	-10.6222
得菩提	-10.6223
起愛	-10.6223
自受用	-10.6223
無學位	-10.6227
正說	-10.623
不稱	-10.6232
清淨者	-10.6238
以不	-10.6239
通一切	-10.6246
恒時	-10.6249
彼二	-10.6249
讀	-10.6249
果生	-10.625
功力	-10.6251
如其	-10.6252
財施	-10.6254
諸世間	-10.6259
謂除	-10.6259
頓悟	-10.6259
生現行	-10.6263
舊云	-10.6263
淨故	-10.6266
否	-10.6266
微劣	-10.6272
撿	-10.6273
我體	-10.6274
世人	-10.6276
以能	-10.6279
非有非無	-10.628
不令	-10.628
不犯	-10.6281
名捨	-10.6287
薰	-10.6294
真異熟	-10.6294
變易生死	-10.6302
妙觀察智	-10.6314
作是念	-10.6317
穀	-10.6319
永無	-10.6321
非離	-10.6322
且依	-10.6324
應斷	-10.6333
總釋	-10.6333
行解	-10.6334
卷云	-10.6335
故亦名	-10.6337
於現在	-10.6342
十善	-10.6342
何等名為	-10.6344
一解	-10.6347
聖法	-10.6347
麤相	-10.6348
然今	-10.6349
無分別故	-10.6352
業煩惱	-10.6353
異時	-10.6354
前行	-10.6357
聽聞正法	-10.6364
眼等五識	-10.6366
亦許	-10.6369
得大	-10.6372
東	-10.6376
急	-10.6379
此二門竟	-10.638
有二解	-10.6383
餘五	-10.6384
有為相	-10.6391
便違	-10.6391
識故	-10.6394
必須	-10.6403
不定性	-10.6404
他受用	-10.6405
今云	-10.6408
緣過去	-10.6409
上有	-10.641
無妨	-10.641
此緣	-10.6413
四重	-10.6414
隨身	-10.6417
他地	-10.6418
亦言	-10.6418
勝相	-10.6419
是所	-10.6426
所依處	-10.6429
六轉識	-10.643
毗	-10.643
暴流	-10.6431
正道	-10.6434
於外	-10.6434
染污意	-10.6434
所緣境界	-10.6436
流布	-10.6436
無漏業	-10.6441
衰損	-10.6443
不造	-10.6444
一頌	-10.6445
一一皆	-10.6446
樂者	-10.6449
謂如	-10.6449
是故名為	-10.645
起煩惱	-10.6451
既說	-10.6454
一明正義	-10.6455
躰	-10.6456
有十一	-10.6457
二頌	-10.646
汝等	-10.6463
屈	-10.6467
自性者	-10.6472
分者	-10.6478
所住	-10.648
欲求	-10.648
諸聲聞	-10.6488
【	-10.6488
無事	-10.6492
此問	-10.6498
阿耨多羅三藐三菩提	-10.6501
畜	-10.6505
此唯	-10.6506
是現量	-10.6507
證真	-10.6512
三科	-10.6512
生中	-10.6513
能善	-10.6513
不相似	-10.6517
等引	-10.6523
迷事	-10.6524
第十二	-10.6526
誓	-10.6526
無方分	-10.6527
佛地論	-10.6529
不簡	-10.6536
略釋	-10.6538
果法	-10.6541
初破	-10.6545
融	-10.6547
停	-10.655
成實法中	-10.6554
能生因	-10.6557
答言	-10.6558
修得	-10.6559
以後	-10.6559
望於	-10.6562
死後	-10.6565
獨行	-10.6567
折	-10.6569
不必	-10.6575
設許	-10.6577
瑜伽論說	-10.6578
心心法	-10.658
或立	-10.658
俱舍論	-10.658
具四	-10.6582
小隨	-10.6582
正覺	-10.6582
不繫	-10.6586
別解脫	-10.6588
非處	-10.6588
唯得	-10.6593
分四如論	-10.6594
識之	-10.6595
此經	-10.6603
相顯	-10.6604
防修	-10.6605
意者	-10.6609
中隨	-10.6609
因緣者	-10.6611
清辨	-10.6613
末後	-10.6615
所取能取	-10.6617
第四明	-10.6618
是故說名	-10.6618
能有	-10.6623
三輪	-10.6625
餘之	-10.6625
名句文身	-10.6625
不絕	-10.6629
惑業	-10.6634
唯以	-10.6636
大苦	-10.6639
內境	-10.6639
名言種子	-10.664
變易身	-10.664
此與	-10.6641
彼無	-10.6644
信樂	-10.6646
心境	-10.6646
相離	-10.6648
自作	-10.6649
識性	-10.6651
能捨	-10.6653
覺分	-10.6653
不決定	-10.6654
無力	-10.6654
五十五	-10.6657
皆言	-10.6662
證智	-10.6662
鳥	-10.6668
不妨	-10.667
無覆	-10.6672
景師云	-10.6674
不執	-10.6674
鐵	-10.6675
十行	-10.6678
更無別	-10.6693
離繫果	-10.6695
多生	-10.6699
隨行	-10.6707
師子	-10.6709
果時	-10.6711
代	-10.6718
三摩提	-10.6718
深心	-10.6721
釋上	-10.6724
結生	-10.6724
豈有	-10.6729
諸教	-10.6729
未滅	-10.6734
唯有一	-10.6735
十六行	-10.6737
眼等五根	-10.6738
何等為五	-10.6739
自在者	-10.6739
為五	-10.6742
無色定	-10.6742
污	-10.6742
有何差別	-10.6743
別異	-10.6745
所對治	-10.6746
欲者	-10.6746
忘失	-10.6746
無漏定	-10.6746
樂住	-10.6753
取相	-10.6753
感得	-10.6755
釋此	-10.6759
昧	-10.6761
無斷	-10.6762
出觀	-10.6764
此通	-10.6768
所以不	-10.6771
離此	-10.6771
落	-10.6773
為所依止	-10.6774
此即初也	-10.6777
毘尼	-10.6781
總破	-10.6783
善能	-10.6783
一門	-10.6785
吉祥	-10.6786
無愧	-10.6789
安惠	-10.6789
有作用	-10.6792
如眼識	-10.6793
無悔	-10.6796
承	-10.6804
真性	-10.6805
真心	-10.6807
觸受	-10.6811
香味	-10.6813
而於	-10.6814
消	-10.6814
非愛	-10.6815
若能	-10.6815
後五	-10.6823
無障礙	-10.6823
必同	-10.6825
生支	-10.6825
然由	-10.6829
慢等	-10.6831
於一切時	-10.6835
伏斷	-10.6837
祕密	-10.6841
名不共	-10.6842
名想	-10.6843
一行	-10.6845
依前	-10.685
四靜慮	-10.685
異熟因	-10.6855
色界繫	-10.6857
色界中	-10.686
名相	-10.686
第三靜慮	-10.686
緣於	-10.686
若此	-10.6871
弱	-10.6872
攝受因	-10.688
第一句	-10.6881
心緣	-10.6883
空者	-10.6885
眾生界	-10.6899
視	-10.6899
有罪	-10.6899
正教	-10.6902
賢聖	-10.6904
斷善根	-10.6908
雖同	-10.6908
巳生	-10.6911
我相	-10.6915
名意	-10.6916
初辨	-10.6916
類別	-10.6918
𢙣	-10.6922
慈心	-10.6929
相順	-10.6931
禁	-10.6933
證知	-10.6939
依之	-10.694
阿毘達磨	-10.6947
釋頌	-10.6949
實德業	-10.695
高舉	-10.6952
問言	-10.6954
第八地	-10.6955
唯識論	-10.6957
自受用身	-10.6961
薄伽梵	-10.6962
降伏	-10.6965
為依止故	-10.6967
交	-10.6968
不得生	-10.6971
巳說	-10.6972
諸趣	-10.6973
即用	-10.6974
梵語	-10.6978
化眾生	-10.6979
十者	-10.6982
斷欲界	-10.6985
惡不善法	-10.6987
了境	-10.6991
三有	-10.6992
境也	-10.6994
增上故	-10.6996
空等	-10.7001
周遍	-10.7005
二心	-10.7007
所障	-10.7008
生後	-10.7013
有礙	-10.7016
麥	-10.7017
逐	-10.7018
該	-10.702
巳來	-10.702
相應門	-10.7022
如經中說	-10.7024
彼定	-10.7025
瓶等	-10.7026
嘆	-10.703
有處	-10.703
通取	-10.7032
同彼	-10.7033
所犯	-10.7033
三諦	-10.7034
有部	-10.7035
意取	-10.7036
勞	-10.704
慧解脫	-10.704
四德	-10.7043
善清淨	-10.7045
漸斷	-10.7047
天上	-10.7048
持業釋也	-10.7052
自性清淨	-10.7064
非想地	-10.7065
仙	-10.7068
附	-10.7071
令入	-10.7073
即真如	-10.7086
亦與	-10.7087
識處	-10.7092
亦起	-10.7092
受變易身	-10.7095
別顯	-10.7095
精勤	-10.71
無明等	-10.71
又契經說	-10.7101
總持	-10.7105
無情	-10.7105
發願	-10.7108
無表色	-10.7108
定者	-10.7109
纔	-10.711
無量無邊	-10.7111
欲顯	-10.7112
非心	-10.7114
大小乘	-10.7119
妄心	-10.7127
閏	-10.7132
多法	-10.7132
大劫	-10.7136
志	-10.7142
雖未	-10.7142
四因	-10.7143
詰	-10.7147
五百	-10.7148
性是	-10.7151
小乘中	-10.7153
無心定	-10.7154
望後	-10.7154
無堪任性	-10.7157
乞食	-10.7158
所化有情	-10.7166
所緣之境	-10.7168
眼見	-10.7169
總明	-10.7169
之教	-10.7172
蔽	-10.7173
內證	-10.7179
為善	-10.718
此執	-10.7181
釋名	-10.7183
釋義	-10.7185
通果	-10.7187
究竟位	-10.7189
始終	-10.7196
四空	-10.7201
心體	-10.7203
不如理	-10.7207
創	-10.7209
原	-10.7209
不分別	-10.7209
所欲	-10.7211
初文	-10.7214
文云	-10.7218
離過	-10.722
假施設	-10.7225
此諸	-10.7226
天中	-10.7227
緣色	-10.7231
國王	-10.7232
離蘊	-10.7232
佛所說	-10.7235
無色界中	-10.7239
增上心	-10.7239
資粮	-10.7243
得阿耨多羅三藐三菩提	-10.7251
借	-10.726
色境	-10.726
無常性	-10.7262
又釋	-10.7263
然於	-10.7265
特	-10.7266
永害	-10.7266
以來	-10.7267
薩埵	-10.7272
三性心	-10.7274
陳那	-10.7277
西明	-10.7278
何者為	-10.7282
逢	-10.7283
覺時	-10.7283
俱舍云	-10.7287
所許	-10.7288
能修	-10.729
先釋	-10.7291
諸善法	-10.7293
僧寶	-10.7296
依根	-10.7296
遍染心	-10.7296
捨根	-10.73
實智	-10.73
通前	-10.7301
景	-10.7302
識為	-10.7305
第十三	-10.7311
緣事	-10.7312
詮表	-10.7318
雜集論	-10.732
十相	-10.7322
密意說	-10.7323
同類因	-10.7325
句義	-10.7325
偽	-10.7329
近住	-10.733
除滅	-10.733
觸處	-10.7332
翻此	-10.7333
當有	-10.7334
欲解	-10.7336
能引發	-10.7337
〕	-10.7338
髮	-10.7339
相差別	-10.7341
下三	-10.7341
廣略	-10.7343
生現	-10.7344
失壞	-10.7345
色者	-10.7345
頌文	-10.7345
心淨	-10.7353
應許	-10.7353
生也	-10.7356
對法云	-10.7358
半頌	-10.7364
有眾多	-10.7366
八法	-10.7368
為實	-10.737
大乘經	-10.7372
是以	-10.7372
戒等	-10.7374
婬	-10.7381
同性	-10.7384
報恩	-10.7388
破戒	-10.7392
住地	-10.7392
言有	-10.7395
如佛	-10.7396
彼所執	-10.7396
浮	-10.7397
是有為	-10.7398
觀空	-10.74
中言	-10.7403
大圓鏡智	-10.7408
無上正等菩提	-10.741
五句	-10.7416
十門	-10.7417
思議	-10.7421
證自證分	-10.7421
無能	-10.7428
八解脫	-10.7428
正願	-10.7433
不修	-10.7436
容受	-10.7437
不得自在	-10.7439
了相	-10.7443
已前	-10.7448
二受	-10.7448
心也	-10.7453
羞恥	-10.7455
演曰三結	-10.7457
釋此初也	-10.7461
淨妙	-10.7463
住故	-10.7472
所依者	-10.7472
不觀	-10.7474
住心	-10.7474
是增上緣	-10.748
若知	-10.748
實句	-10.7481
有兩	-10.7483
緣起經	-10.7487
不明	-10.7493
此障	-10.7496
二行	-10.7503
由業	-10.7505
賢善	-10.7507
八十	-10.751
六識身	-10.751
若為	-10.7511
福業	-10.7514
一切皆是	-10.7515
炷	-10.7517
利鈍	-10.7519
二業	-10.752
文也	-10.7521
綺語	-10.7522
前因	-10.7525
傷	-10.7528
二人	-10.7532
此類	-10.7533
先有	-10.7535
五釋	-10.7535
一事	-10.7536
有七種	-10.7536
無障	-10.7536
別解脫戒	-10.7537
修證	-10.7545
實色	-10.7547
前八	-10.7548
一切有漏	-10.7549
若准	-10.7553
本末	-10.7554
文分為二	-10.7556
非此	-10.7559
復有二種	-10.7564
若斷	-10.7568
欲色界	-10.7568
唯欲界	-10.7568
依他起自性	-10.7568
解深密經	-10.7569
有果	-10.7571
通攝	-10.7575
制立	-10.7577
瑜伽說	-10.7578
喜受	-10.7578
非也	-10.7585
宗鏡	-10.7585
痴	-10.7586
淺深	-10.7587
為依止	-10.7588
戒禁取	-10.759
羸劣	-10.7592
憑	-10.7596
不名為	-10.7596
自果	-10.7597
此中意說	-10.7597
無想異熟	-10.7597
與他	-10.7598
生有	-10.7598
離垢	-10.7602
或唯	-10.7603
十一種	-10.7603
所生果	-10.7604
五義	-10.7608
正破	-10.7609
或云	-10.761
三十二	-10.7611
可悉	-10.7614
今謂	-10.7614
所造色	-10.7616
別境五	-10.7618
無尋伺	-10.7626
標舉	-10.7627
第一師	-10.7635
有三品	-10.7638
云何知	-10.7638
所顯故	-10.7639
二顯	-10.7639
一切諸	-10.764
差別分二	-10.7641
亦不能	-10.765
受俱	-10.7651
濟	-10.7654
望彼	-10.7654
生欲界	-10.7659
宿命	-10.766
莊嚴論	-10.7663
毘婆沙	-10.7663
長者	-10.7665
實際	-10.7667
闡提	-10.7668
四攝	-10.7671
菩提分	-10.7677
前云	-10.7686
喜足	-10.7687
中有四	-10.7688
此總	-10.769
通緣	-10.77
皆為	-10.7704
此能	-10.7706
相似故	-10.7706
識上	-10.7708
為方便	-10.7708
非學非無學	-10.7712
拘	-10.7714
總言	-10.7715
敵	-10.7717
簡非	-10.7718
知足	-10.772
二境	-10.7721
練根	-10.7722
知見	-10.7723
不和合	-10.7726
地水火風	-10.7728
比智	-10.773
辦	-10.7731
所緣者	-10.7731
其人	-10.7733
分別煩惱	-10.7735
思業	-10.7735
不覺	-10.7736
但可	-10.7741
天人	-10.7743
又以	-10.7745
謂欲界	-10.7746
法師云	-10.7746
見彼	-10.7746
非真實	-10.7747
初總標	-10.7749
體一	-10.7754
道者	-10.7756
三師	-10.7758
知法	-10.7763
唯見	-10.7763
立一	-10.777
貧	-10.7771
見佛	-10.7775
本事	-10.7778
上座部	-10.7784
何以得知	-10.7784
此非	-10.7787
而行惠施	-10.7787
三果	-10.7787
制伏	-10.7789
伽他	-10.7789
活命	-10.779
魚	-10.779
生在	-10.779
增故	-10.7791
二破	-10.7792
入初地	-10.7796
第五明	-10.7797
更相	-10.7798
擇滅無為	-10.7801
有義下	-10.7801
具三	-10.7808
解脫分	-10.7812
心上	-10.7812
十句	-10.7824
根力	-10.7825
以何為	-10.7827
如是已說	-10.783
業招	-10.7831
善者	-10.7833
明利	-10.7834
第三禪	-10.784
餘地	-10.7841
無生無滅	-10.7844
未見	-10.7847
聞思慧	-10.785
翳	-10.785
是義不然	-10.7851
鹿	-10.7855
汝執	-10.786
此理	-10.7862
疏文	-10.7863
前義	-10.7863
定是	-10.7867
從何	-10.7869
不施	-10.787
如經說	-10.787
日月	-10.787
易了	-10.7873
相例	-10.7873
生色界	-10.7874
色識	-10.7875
愛非愛	-10.7876
所攝故	-10.7876
百年	-10.7878
應知其相	-10.788
通妨	-10.788
猶在	-10.7881
即生	-10.7881
即由	-10.7884
不伏	-10.7893
諸佛法	-10.7893
三解脫門	-10.7898
身語意	-10.7898
言我	-10.7899
界者	-10.7903
彼相	-10.7903
親因緣	-10.7911
即從	-10.7912
教導	-10.7915
同此	-10.7921
自境	-10.7922
大義	-10.7923
長夜	-10.7924
請問	-10.7928
忍辱	-10.7929
對治道	-10.7932
楞伽經	-10.7938
能通達	-10.7938
五處	-10.794
諸心	-10.7941
此中意	-10.7949
即同	-10.7954
有樂	-10.7962
此但	-10.7967
非一切	-10.7971
豈可	-10.7971
鄙	-10.7973
演曰後荅	-10.7978
身語業	-10.7983
先問	-10.7983
鼓	-10.7986
近事	-10.7987
我說	-10.7989
營	-10.7989
其中	-10.7997
施者	-10.8001
為質	-10.8005
三毒	-10.8008
希有	-10.801
應立量云	-10.8011
亦爾者	-10.8011
於善	-10.8017
人法	-10.8018
捨故	-10.8021
歎	-10.8025
如於	-10.8029
樂故	-10.8034
無對	-10.8035
剎那剎那	-10.8036
十卷	-10.8037
隨法	-10.8041
無間滅	-10.8041
為異	-10.8047
可意	-10.8048
見道斷	-10.8053
二初	-10.8054
譽	-10.8054
故者意云	-10.8057
屈曲	-10.8058
梵天	-10.8058
驗	-10.8059
二徵	-10.8059
何非	-10.8063
成熟有情	-10.8068
慧故	-10.8073
有多種	-10.8074
妄分別	-10.808
於己	-10.8081
於所緣境	-10.8085
總舉	-10.8087
所因	-10.8089
差別義	-10.8089
未至定	-10.8093
樞要	-10.8094
方斷	-10.8096
復有三種	-10.8096
能取所取	-10.8098
未了	-10.8103
受支	-10.8105
▁初正釋	-10.8108
三行	-10.8114
束	-10.8119
飢	-10.812
多住	-10.8121
四由	-10.8122
隨他	-10.8122
仰	-10.8123
摧	-10.8124
何異	-10.8126
妄識	-10.8127
恐怖	-10.8129
三十六	-10.8129
即離	-10.8133
悲心	-10.8138
無明為緣	-10.814
已還	-10.814
若論	-10.8148
論此中	-10.815
心及心所	-10.8156
後辨	-10.8157
▁四	-10.8158
後師	-10.8159
顯揚論	-10.8162
問何	-10.8163
入地	-10.8172
更互相	-10.8174
皆說	-10.8174
授記	-10.8177
同是	-10.8179
即第八識	-10.818
解脫身	-10.8181
預	-10.8184
實德	-10.8188
不可見	-10.8192
取捨	-10.8194
邪教	-10.8197
於定	-10.8198
性也	-10.8198
實物	-10.82
關	-10.8203
如虛空	-10.8204
布	-10.8207
此文意說	-10.8209
有尋伺	-10.821
三十頌	-10.8213
五力	-10.8213
二愚	-10.8215
三約	-10.8225
取彼	-10.8226
勢用	-10.8229
正量部	-10.8231
熏成種	-10.8231
證成	-10.8244
後法	-10.8246
畜生	-10.8248
從因	-10.825
題	-10.825
軍	-10.8252
隱顯	-10.8252
增上慧	-10.8253
諸極微	-10.8254
相續不斷	-10.8256
空無	-10.8259
法喻	-10.8259
相見二分	-10.8261
彌	-10.8264
名識	-10.8266
盡智	-10.8269
或分為	-10.8269
云何得	-10.8269
除此	-10.8269
同於	-10.827
即起	-10.827
成故	-10.827
名大	-10.8272
謂無	-10.8275
不增	-10.8278
諸所有	-10.8279
何等為四	-10.8282
如涅槃說	-10.8284
生歡喜	-10.8285
九門	-10.8288
復有四種	-10.8289
惡慧	-10.8289
無差別故	-10.8291
白品	-10.8298
一於	-10.8301
亦取	-10.8302
即知	-10.8303
析	-10.8304
如前已說	-10.8304
次一	-10.8305
劣故	-10.8307
顧	-10.8314
入聖	-10.832
釋之	-10.8325
易知	-10.8327
清淨法	-10.8327
定果色	-10.8328
所變相分	-10.8328
如所說	-10.8333
即唯	-10.8333
理亦不然	-10.8334
大法	-10.8337
無實體	-10.8337
言顯	-10.8341
十處	-10.8343
必是	-10.8345
雜染清淨	-10.8348
所行境	-10.8348
為本質	-10.835
生無色	-10.8351
伺察	-10.8354
此業	-10.8355
伏除	-10.8355
香等	-10.8361
發趣	-10.8369
由得	-10.837
伏惑	-10.8372
亦不得	-10.8372
所知境	-10.8375
不得起	-10.8379
未知當知根	-10.838
跡	-10.8381
諦現觀	-10.8382
有無量	-10.8387
能淨	-10.8392
文中分二初	-10.8396
名心	-10.8397
受報	-10.8397
了因	-10.8398
呵	-10.8399
第三卷	-10.8403
於未來	-10.8403
自在故	-10.8409
皆從	-10.841
下二句	-10.841
察	-10.8412
六道	-10.8414
初地已上	-10.8414
之文	-10.8418
第九品	-10.8422
業故	-10.8425
於義	-10.843
彼所	-10.8432
有十二	-10.8437
此相	-10.8437
非無漏	-10.8438
集成	-10.8446
善說法	-10.8449
等義	-10.845
不善法	-10.845
定生	-10.8451
厭心	-10.8451
善士	-10.8453
能分別	-10.8454
此論文	-10.8454
須陀洹	-10.8456
謂佛	-10.8456
若法	-10.8457
於識	-10.8457
應作	-10.8466
已離	-10.8467
一切諸佛	-10.8468
為自性	-10.8469
攝大乘論	-10.847
續生	-10.8473
蘇	-10.8477
三云	-10.8482
無漏界	-10.8484
妙行	-10.8486
如是乃至	-10.8486
十使	-10.8489
遠近	-10.849
之我	-10.8493
演曰六	-10.8494
如眼	-10.8497
定體	-10.8498
異於	-10.8502
四境	-10.8505
五蓋	-10.8506
聞說	-10.8507
於諸眾生	-10.8509
增上力	-10.851
二類	-10.851
小分	-10.851
次二	-10.8512
如何言	-10.8515
二就	-10.8516
成實論	-10.8517
實是	-10.8518
正直	-10.8521
永不	-10.8522
應爾	-10.8522
如何得	-10.8524
練	-10.8526
入息	-10.8527
若自	-10.8536
愛等	-10.8536
割	-10.8542
陀那	-10.8542
而自	-10.8545
良	-10.8555
方所	-10.8555
阿羅漢果	-10.8556
脩習	-10.8556
是處	-10.8559
富	-10.8564
五十六	-10.8567
不忍	-10.8568
別離	-10.8569
一答	-10.857
化心	-10.8574
一劫	-10.8577
家家	-10.8578
假設	-10.858
餘部	-10.8581
麤色	-10.8586
說一乘	-10.8586
第二月	-10.8588
菩提涅槃	-10.8592
釋論曰	-10.8594
諦觀	-10.8595
有處說	-10.8596
具戒	-10.86
親相分	-10.8601
七作意	-10.8604
注	-10.8604
疲	-10.8604
慈氏	-10.8605
弘	-10.8606
務	-10.8608
得勝	-10.8608
我法二執	-10.8608
喚	-10.861
炎	-10.8611
有識	-10.8612
演曰七	-10.8613
於世間	-10.8614
各一	-10.8615
是故菩薩	-10.8616
而是	-10.862
罵	-10.8621
攀緣	-10.8622
五業	-10.8623
一聚	-10.8625
而復	-10.8628
淨者	-10.863
悲愍	-10.863
論議	-10.8635
前明	-10.8635
唯立	-10.8639
兩句	-10.8641
於中初	-10.8643
他故	-10.8651
餘義	-10.8651
無所緣	-10.8652
識食	-10.8653
無根	-10.8657
佛位	-10.8661
願樂	-10.8661
無減	-10.8662
所以不說	-10.8662
見色	-10.8664
恒與	-10.8665
亦唯	-10.8666
合名	-10.8667
不相應故	-10.8667
諸心所	-10.8667
住於	-10.8667
多人	-10.8668
本生	-10.8671
是主	-10.8672
餘六	-10.8674
有四句	-10.8675
上上	-10.8679
現量所得	-10.8681
無住涅槃	-10.8681
遺	-10.8685
讚歎	-10.8685
通別	-10.869
▁○	-10.8691
如地持說	-10.8692
事相	-10.8693
不善心	-10.87
互為	-10.8701
舉喻	-10.8703
阿陀那識	-10.8703
名色支	-10.8706
能執	-10.8706
邪命	-10.871
於彼彼	-10.8712
說無	-10.8718
為治	-10.8721
大生	-10.8722
是無記性	-10.8723
一切障	-10.8723
出世心	-10.8728
此後	-10.8733
故不可	-10.8734
有實體	-10.8735
例破	-10.8739
此中有	-10.8739
三解	-10.874
有間斷	-10.874
先辨	-10.8744
義准	-10.8747
今據	-10.875
諸聖	-10.875
緣之	-10.8753
別有體	-10.8758
此方	-10.876
隨相	-10.876
尚不	-10.8761
問既	-10.8762
妙法	-10.8764
遍一切	-10.8764
黑品	-10.8765
隣虛	-10.8767
體同	-10.8769
種子識	-10.8769
五品	-10.877
從前	-10.8772
緣起支	-10.8772
應思	-10.8773
二利	-10.8774
即簡	-10.8775
安處	-10.8776
證淨	-10.8777
第二釋	-10.8778
言詞	-10.878
有八種	-10.8781
隣	-10.8784
略攝	-10.8785
為人	-10.8786
作是	-10.8788
是異熟	-10.8788
雖多	-10.8789
五十八	-10.8789
依定	-10.8789
熏修	-10.8792
菩薩住	-10.8795
無礙智	-10.8795
佛智	-10.8804
親所緣	-10.8805
一百	-10.8807
依法	-10.8812
彼障	-10.8813
扶塵	-10.882
个	-10.8823
三列名	-10.8825
調柔	-10.8827
思等	-10.8827
金剛喻定	-10.8827
所除	-10.8829
錯亂	-10.8829
門者	-10.8831
服	-10.8831
彼言	-10.8831
飢渴	-10.8832
初二句	-10.8835
為初	-10.8837
云云	-10.8839
全分	-10.884
何故如是	-10.8841
此四種	-10.8842
辨其	-10.8845
易解	-10.8846
第一卷	-10.8847
思慮	-10.885
應同	-10.8851
善中	-10.8853
唯佛	-10.8856
我於	-10.8856
體是一	-10.8864
問意	-10.8869
通論	-10.887
同境	-10.887
而緣	-10.8871
大乘法	-10.8872
是別	-10.8873
無依	-10.8873
出現	-10.8876
得滅定	-10.8879
諸諦	-10.8879
自義	-10.8879
復次云何	-10.8879
勝德	-10.8882
攝事	-10.8883
能遍計	-10.8884
勝功德	-10.8885
極重	-10.8886
神我	-10.8886
計為	-10.8887
有間	-10.8887
證理	-10.8888
演曰四釋	-10.889
無差	-10.8891
問若爾	-10.8892
誰為	-10.8892
耳根	-10.8894
作意者	-10.8897
公	-10.8897
初敘	-10.89
不定故	-10.8905
三見	-10.8906
不亂	-10.8908
圓鏡智	-10.8908
所了	-10.8909
之失	-10.891
之後	-10.891
略有五種	-10.891
能所取	-10.8912
血	-10.8912
納	-10.8914
汝宗	-10.8917
大有	-10.8919
印持	-10.8919
火等	-10.8922
與五識	-10.8925
不發	-10.8934
法是	-10.8937
無有差別	-10.8938
言語	-10.8943
聲聞地	-10.8947
第二念	-10.8948
解脫者	-10.8949
故能	-10.8951
二釋分三	-10.8954
似有	-10.8964
界處	-10.8966
由依	-10.8966
諸轉識	-10.8967
厚	-10.8972
戒者	-10.8976
威儀工巧	-10.8978
作意故	-10.8979
若作	-10.8982
親疎	-10.8982
後報	-10.8983
開導依	-10.8987
器世界	-10.8988
唯於	-10.899
學人	-10.8991
諸門	-10.8998
得此	-10.8998
十二因緣	-10.9005
通力	-10.9006
身在欲界	-10.9007
諸經	-10.9012
義成	-10.9016
非福	-10.9017
輕重	-10.9026
一界	-10.9026
淨色	-10.9026
先業	-10.9027
言音	-10.9031
和上	-10.9033
其理	-10.9039
忽	-10.904
無實用	-10.9043
顧戀	-10.9043
一切功德	-10.9044
無變異	-10.9046
信心	-10.9047
品說	-10.9048
崇	-10.9049
同喻	-10.905
令起	-10.905
勝用	-10.9051
盜	-10.9051
降	-10.9053
盡未來際	-10.9056
雖亦	-10.9061
相符	-10.9062
觀察作意	-10.9065
現果	-10.9069
勝智	-10.907
身行	-10.9072
是義云何	-10.9072
歲	-10.9073
者何	-10.9076
自他利	-10.9081
利益眾生	-10.9081
二十唯識	-10.9082
及於	-10.9083
修果	-10.9084
執為我	-10.9085
六十二見	-10.9088
亦攝	-10.9089
識類	-10.9091
名言熏習	-10.9092
不用	-10.9097
心解脫	-10.9099
所遍計	-10.9099
無雜	-10.91
四取	-10.91
相稱	-10.9107
證入	-10.9109
惑障	-10.9111
一切門	-10.9112
盲	-10.9112
默	-10.9113
此復	-10.9117
不現行	-10.9117
互為緣	-10.9118
可生	-10.912
支分	-10.9121
邊執見	-10.9121
一實	-10.9122
免	-10.9124
為常	-10.9124
於諸法中	-10.9124
要須	-10.9124
後依	-10.9124
懼	-10.9128
諸義	-10.9129
獄	-10.9131
善人	-10.9131
可欣	-10.9132
四住	-10.9132
彼人	-10.9132
分別起	-10.9135
酒	-10.9136
初地菩薩	-10.9139
於色	-10.9142
亦應爾	-10.9144
令住	-10.9146
不得成	-10.9148
為苦	-10.9148
如夢	-10.9149
從緣生	-10.915
想受滅	-10.9154
此界	-10.9155
定果	-10.9155
二根	-10.9156
擇法	-10.9157
難破	-10.9157
受菩薩戒	-10.916
應更	-10.9165
還生	-10.9166
所攝者	-10.9168
求菩提	-10.9169
說以為	-10.9169
令增長	-10.9169
第二第三	-10.917
又非	-10.9172
對法論	-10.9175
爾者	-10.9176
有過	-10.9178
種種差別	-10.9179
上中下	-10.9182
先起	-10.9186
判為	-10.9191
即滅	-10.9192
復於	-10.9195
彼復	-10.9196
澁	-10.9197
四中	-10.9198
擬	-10.9198
由先	-10.9199
中際	-10.9203
立量破	-10.9205
不顛倒	-10.9206
常樂我淨	-10.9208
三十七品	-10.9212
身證	-10.9215
染意	-10.9215
識相	-10.9216
煗	-10.9217
一來果	-10.9217
法隨法行	-10.9219
能了知	-10.9219
空華	-10.9222
隨增	-10.9222
三塗	-10.9222
長短	-10.9222
不能自	-10.9223
受想行識	-10.9224
身分	-10.9224
質礙	-10.9227
要由	-10.9227
聖言	-10.9227
非他	-10.9228
二無我	-10.9229
能離	-10.9238
緣自	-10.9239
餘心所	-10.9249
謂觀	-10.9252
兔角	-10.9255
利益事	-10.9256
本地	-10.9261
於生死	-10.9264
意界	-10.9266
煩惱相應	-10.9267
五心	-10.9267
攝益	-10.927
轉時	-10.9273
空中	-10.9273
水火	-10.9274
中陰	-10.9275
不顯	-10.9276
尸	-10.9276
觀彼	-10.9277
先標	-10.9281
毘曇法中	-10.9285
忍受	-10.9286
成事智	-10.9287
遠離一切	-10.9289
蘊處界	-10.929
受想思	-10.9295
下解	-10.9298
道果	-10.9299
下文云	-10.93
觸食	-10.9302
於所緣	-10.9304
無退	-10.9304
煩惱種子	-10.9304
無相觀	-10.9305
不許有	-10.9305
次後	-10.9309
退屈	-10.9311
知其	-10.9314
攝善	-10.9317
二十七	-10.9321
正命	-10.9323
等位	-10.9325
見道前	-10.9326
諸定	-10.9328
言非	-10.9333
先已	-10.9334
先世	-10.9336
方便者	-10.9336
即許	-10.934
心平等	-10.9343
臨	-10.9348
諸聖教	-10.9348
均	-10.9351
諸漏	-10.9352
諂誑	-10.9354
昏	-10.9354
雜染法	-10.936
演	-10.9361
十度	-10.9361
離彼	-10.9361
行人	-10.9366
相用	-10.9366
空觀	-10.9366
演曰四明	-10.9368
略有四種	-10.937
其所	-10.9371
永盡	-10.9371
一緣	-10.9373
不息	-10.9375
一師言	-10.9375
空有	-10.9375
本頌	-10.9376
顯彼	-10.9376
往還	-10.9378
破彼	-10.9378
如經言	-10.938
在未來	-10.9381
化作	-10.9382
大隨	-10.9389
最後身	-10.939
七生	-10.9391
諸法種子	-10.9396
令諸有情	-10.9397
我宗	-10.94
外別有	-10.9401
此見	-10.9402
入無餘	-10.9405
施設建立	-10.9406
此論中	-10.9407
一分攝	-10.9408
修道煩惱	-10.9408
聖性	-10.9408
比度	-10.9408
差別門	-10.9411
空故	-10.9413
反顯	-10.9416
知彼	-10.942
現境	-10.9425
死時	-10.9426
俱生煩惱	-10.9427
非要	-10.9428
契經說	-10.9431
阿笈摩	-10.9433
所說法	-10.9436
不定者	-10.9438
此色	-10.944
相同	-10.9445
心所有法	-10.9446
我有	-10.9446
故經說言	-10.9447
能行	-10.9448
頓悟菩薩	-10.9448
起行	-10.9455
災	-10.9455
處起	-10.9457
心性	-10.9457
六門	-10.9458
文意	-10.946
例餘	-10.9463
心所相應	-10.9465
唯能	-10.9468
次答	-10.9468
薩迦耶	-10.9469
一總	-10.947
二十二根	-10.9472
起現行	-10.9482
別開	-10.9482
基師	-10.9482
愛著	-10.9484
四尋思	-10.9484
果體	-10.9489
師義	-10.9489
二於	-10.949
論善男子至	-10.9495
熱惱	-10.9496
是第三	-10.9497
自體故	-10.9498
以何	-10.9499
如空	-10.9505
茲	-10.9506
形相	-10.9511
心王心所	-10.9513
不增不減	-10.9513
當知即是	-10.9514
懺悔	-10.9515
或執	-10.952
斷所知障	-10.9522
加行故	-10.9524
遠行	-10.9525
身智	-10.9527
能化	-10.9527
能自	-10.9528
准此應知	-10.9531
於四	-10.9534
依實	-10.9537
此文即	-10.954
可厭	-10.9546
尒	-10.9549
不入	-10.9552
自在轉	-10.9553
不定地	-10.9554
色中	-10.9557
若與	-10.9557
意明	-10.9558
品類差別	-10.9559
法華經	-10.9563
想等	-10.9563
日夜	-10.9565
自乘	-10.9569
依緣	-10.9569
獨頭	-10.9571
非恒	-10.9572
音義先	-10.9577
知有	-10.9579
為緣生	-10.9581
無住	-10.9582
畢	-10.9584
結上	-10.9585
故論云	-10.9586
拔濟	-10.9586
他方	-10.9587
所作業	-10.9588
侵	-10.959
轉法輪	-10.9596
疎遠	-10.9597
羊	-10.96
五大	-10.9601
勝義無性	-10.9602
雖言	-10.9604
真如理	-10.9604
緣他	-10.9606
懃	-10.9606
為簡	-10.9606
遍緣	-10.9609
果色	-10.961
第一義諦	-10.961
要集云	-10.9611
真妄	-10.9612
念慧	-10.9615
即緣	-10.9617
阿那含	-10.9626
不散	-10.9627
見聞	-10.9631
為作	-10.9632
為量	-10.9636
八禪	-10.9636
引發因	-10.9637
形量	-10.964
諸聖者	-10.9641
成熟眾生	-10.9641
現行識	-10.9648
悲願	-10.9648
所聞	-10.965
下云	-10.965
於未來世	-10.9652
阿陀那	-10.9653
如世	-10.9658
佛眼	-10.966
體義	-10.966
增上意樂	-10.9661
不同分	-10.9662
呪術	-10.9663
已來	-10.9665
見聞覺知	-10.9666
為行相	-10.9666
猶是	-10.9667
如所有性	-10.9668
隔越	-10.9668
作如是	-10.967
起下	-10.9671
油	-10.9671
及果	-10.9671
見分緣	-10.9671
感果	-10.9672
前方便	-10.9672
見疑	-10.9672
利養恭敬	-10.9672
酪	-10.9674
答此	-10.9676
鼻舌	-10.9677
八地巳上	-10.9677
相見分	-10.9678
應知亦爾	-10.968
殺害	-10.968
常樂	-10.968
是事	-10.9682
若未	-10.9687
中亦	-10.9692
苦樂等	-10.9695
此偈	-10.9696
華嚴經	-10.9697
遍智	-10.9698
是不善	-10.9701
但舉	-10.9701
謂住	-10.9702
一約	-10.9703
如何名	-10.9705
能順	-10.9708
難也	-10.9714
無流	-10.9715
所緣相	-10.9716
瑜伽等	-10.9722
報果	-10.9724
善不善無記	-10.9725
登	-10.9725
色故	-10.9727
違教	-10.9728
佛法僧	-10.9728
如一	-10.9732
等云	-10.9733
寒	-10.9735
有分	-10.9741
後心	-10.9743
如理應思	-10.9744
遷	-10.9744
取果	-10.9745
參	-10.9747
修道斷	-10.9747
證涅槃	-10.9748
惛	-10.9749
貧窮	-10.9752
薩婆多等	-10.9752
目之為	-10.9754
推度	-10.9757
無量功德	-10.9757
中起	-10.9758
上座	-10.9759
能持種	-10.976
大智	-10.9764
四支	-10.9765
略由	-10.9766
於其中	-10.9767
誤	-10.9768
觸等五	-10.9768
法處色	-10.9772
身在	-10.9774
遮止	-10.9776
十煩惱	-10.9777
文句	-10.9777
苦具	-10.9778
有愛	-10.9781
成不成	-10.9781
亦不成	-10.9781
剎那滅	-10.9781
二十句	-10.9783
有緣	-10.9785
而論	-10.9786
諸異生	-10.9789
所攝受	-10.979
不苦不樂受	-10.9794
肉眼	-10.9796
易脫	-10.9798
同一所緣	-10.9798
貫	-10.9799
如是次第	-10.9803
結顯	-10.9805
計有	-10.9806
不聞	-10.9808
一切種智	-10.9808
是善性	-10.981
何者是	-10.9815
共不共	-10.9817
大段	-10.9821
為何義故觀	-10.9822
軛	-10.9822
不證	-10.9823
彼於	-10.9823
入見道時	-10.9824
難得	-10.9825
沙門婆羅門	-10.9829
不共佛法	-10.9832
𦦨	-10.9833
貴	-10.9834
無間解脫	-10.9836
善說	-10.9836
迷亂	-10.9837
總名為	-10.9838
依主釋也	-10.984
發露	-10.9845
無增減	-10.9845
分成	-10.985
十七地	-10.985
依識	-10.9852
根者	-10.9852
成道	-10.9856
名言種	-10.9857
之別	-10.9859
緣所生	-10.9861
總顯	-10.9864
二廣解	-10.9867
即當	-10.9868
無別故	-10.9874
真義	-10.9876
此即是	-10.9876
有殊	-10.9878
是法	-10.9878
女人	-10.9885
今既	-10.989
證菩提	-10.989
一部	-10.9891
下破	-10.9892
緣現在	-10.9894
衣服	-10.9894
佛寶	-10.9896
二立	-10.9898
愛支	-10.9898
為捨執著	-10.9899
廣說如前	-10.99
一有情	-10.9904
無慚無愧	-10.9907
資助	-10.991
色等法	-10.991
六品	-10.991
主宰	-10.9912
名斷	-10.9913
率爾心	-10.9914
法空觀	-10.9914
懸	-10.9914
護月	-10.9916
階	-10.9916
今謂不爾	-10.9918
既同	-10.992
戒學	-10.9922
此三門竟	-10.9923
如大	-10.9925
圓明	-10.9925
未成	-10.9929
身上	-10.9931
無漏故	-10.9932
亦具	-10.9933
六十五	-10.9934
長壽	-10.9934
通達位	-10.9935
於涅槃	-10.9936
橫計	-10.9937
等文	-10.9938
心識	-10.9939
樂等	-10.994
第四解	-10.994
仙人	-10.994
上假立	-10.9941
並名	-10.9945
是智	-10.9946
證法	-10.995
永離	-10.9954
委	-10.9957
轉釋	-10.9958
又應	-10.9958
番釋	-10.9961
彼亦	-10.9962
能了別	-10.9968
多修習	-10.9969
本疏	-10.9969
諸障	-10.997
名法	-10.9972
煞	-10.9974
自業	-10.9978
久遠	-10.998
住時	-10.998
外塵	-10.9981
此遮	-10.9982
滑	-10.9984
妄見	-10.9984
染淨法	-10.9987
響	-10.9987
生上地	-10.9987
前境	-10.9989
諸處	-10.999
牟尼	-10.999
兒	-10.9993
着	-10.9994
護法等	-10.9994
怯弱	-10.9995
如來地	-10.9995
法行	-10.9996
初徵	-11
銅	-11.0002
有情數	-11.0003
經生	-11.0003
能趣	-11.0003
自釋言	-11.0005
圓寂	-11.0007
平等平等	-11.0009
見相分	-11.0009
各別故	-11.0009
謂真如	-11.0014
便非	-11.0015
能盡	-11.0017
亦有二	-11.0017
應化	-11.0018
對治故	-11.0019
三十三	-11.0024
不了義	-11.0025
入於	-11.0026
此第八識	-11.0026
分別門	-11.0027
之物	-11.003
會通	-11.003
時無	-11.0033
所得果	-11.0036
離合	-11.0037
與心	-11.004
應受	-11.0041
令成	-11.0043
能斷惑	-11.0043
攝在	-11.0045
顯其	-11.0048
眼界	-11.0055
如有	-11.0056
名成	-11.0059
或名	-11.0059
能執持	-11.0062
如聲聞地	-11.0063
聲者	-11.0065
通上	-11.0066
為破	-11.0069
利眾生	-11.0072
有如是	-11.0073
見道所斷	-11.0075
灰	-11.0078
復次若	-11.0079
由無明	-11.0079
妻子	-11.0079
復起	-11.0079
增上戒	-11.0081
墮在	-11.0082
和集	-11.0085
慧為體	-11.0087
方可	-11.0092
正觀	-11.0094
聖弟子	-11.0096
若已	-11.0098
無明發	-11.0098
施主	-11.0101
起執	-11.0101
諍論	-11.0107
彼岸	-11.0108
如契經說	-11.0108
有漏定	-11.0112
此種	-11.0112
所依根	-11.0113
前已	-11.0115
利生	-11.0115
第三果	-11.0116
執者	-11.0122
因緣變	-11.0122
外餘	-11.0123
復能	-11.0125
通三	-11.0126
覺慧	-11.0127
途	-11.0128
諸惡行	-11.0129
人趣	-11.0134
未入	-11.0138
前生	-11.014
標列	-11.0146
演說	-11.0146
陵	-11.0147
蜜	-11.0149
慈愍	-11.0151
內法異生	-11.0153
乏	-11.0155
解深密	-11.0155
廣說如經	-11.0156
種望	-11.0157
不相違故	-11.0157
可以	-11.0157
乾	-11.0158
十支	-11.0159
唱	-11.016
即蘊	-11.0161
方乃	-11.0162
次別釋	-11.0165
時方	-11.0165
利樂有情	-11.0166
結生相續	-11.0166
對法第十	-11.0166
令離	-11.0172
名苦	-11.0172
法眼	-11.0172
改轉	-11.0173
能發業	-11.0175
地前菩薩	-11.0177
非因	-11.0177
生巳	-11.018
實境	-11.0184
體雖	-11.0184
緣上	-11.0186
凡所	-11.0188
如大論	-11.0188
惡心	-11.019
應生	-11.0192
第一解	-11.0192
有二一	-11.0193
證云	-11.0195
之位	-11.0195
真識	-11.0196
法空智	-11.0198
斷煩惱障	-11.0199
行德	-11.0201
正加行	-11.0204
佛所	-11.0205
更加	-11.0206
更無餘	-11.0206
唯與	-11.021
六支	-11.0211
雖知	-11.0211
熏生	-11.0212
隨事	-11.0213
生解	-11.0216
三無漏根	-11.0217
二形	-11.0218
所集	-11.0222
若不許	-11.0225
詐	-11.0227
此品	-11.0227
我為	-11.0228
沙門果	-11.0228
內種	-11.0228
族	-11.0228
無執	-11.0231
網	-11.0233
但隨	-11.0234
似色	-11.0236
身邊二見	-11.0238
己身	-11.0238
泥	-11.024
高下	-11.0242
轉成	-11.0244
善逝	-11.0244
半擇迦	-11.0244
六入	-11.0247
醉	-11.0247
戒禁	-11.0247
一就	-11.0249
清淨法界	-11.0252
不安	-11.0252
義門	-11.0258
狗	-11.026
由見	-11.0261
所宜	-11.0266
親證	-11.0267
結集	-11.0269
為根本	-11.0276
現故	-11.0278
有對色	-11.0281
二彰	-11.0283
得自在故	-11.0283
依他圓成	-11.0284
不現見	-11.0284
識等五	-11.0288
三歸	-11.0288
離惡	-11.0292
略義	-11.0293
離一切	-11.0293
惑種	-11.0294
辟支佛	-11.0294
論文中	-11.0306
十地經	-11.0308
前九	-11.031
當說	-11.0312
慧者	-11.0313
廣辯	-11.0314
又解云	-11.0317
智也	-11.0317
舊論	-11.0317
為自性故	-11.0318
無間斷	-11.0318
於無相	-11.0318
無果	-11.0323
善無記	-11.0323
一切有為	-11.0326
富貴	-11.0327
幽	-11.0327
離生喜樂	-11.033
弊	-11.0331
非現	-11.0333
悕望	-11.0333
不動業	-11.0333
極微細	-11.0334
投	-11.0336
且據	-11.0338
可為	-11.0339
虗空等	-11.034
施物	-11.0341
一邊	-11.0341
非數滅	-11.0343
間雜	-11.0344
生死相續	-11.0345
彼依	-11.0348
前所	-11.0354
又前	-11.0355
外無別	-11.0356
知故	-11.0359
障者	-11.0361
求者	-11.0363
能照	-11.0364
引業	-11.0368
塗	-11.0372
分析	-11.0373
無礙道	-11.0373
破他	-11.0373
不可以	-11.0374
人身	-11.0377
此中言	-11.0383
損伏	-11.0384
生下	-11.0384
同聚	-11.0386
攝也	-11.0389
須陀	-11.0392
二障種	-11.0394
彼識	-11.0396
下一句	-11.0397
至得	-11.0397
覺者	-11.0398
習近	-11.0398
六十二	-11.0404
捨者	-11.0405
殷重	-11.0406
次別	-11.0407
能隨順	-11.0409
有其二	-11.0411
前前	-11.0412
飾	-11.0413
作如是說	-11.0413
無因緣	-11.0414
聖說	-11.0415
是佛	-11.0415
非能熏	-11.0415
於勝	-11.0415
分為四	-11.0415
謂之	-11.0416
生緣	-11.0416
方是	-11.0417
中間禪	-11.0418
寺	-11.0418
為眾生	-11.0419
劬勞	-11.0419
麤動	-11.042
耎	-11.0421
腹	-11.0421
解者	-11.0423
故偏	-11.0424
六十	-11.0428
便起	-11.0429
惱害	-11.0429
為能	-11.0432
八明	-11.0434
空行	-11.0434
恒隨轉	-11.0435
所相	-11.0438
由此故知	-11.044
耳等	-11.0442
堅執	-11.0443
引教	-11.0445
五識緣	-11.0447
身表	-11.0447
觀智	-11.0448
若正	-11.045
作惡	-11.045
自相續	-11.0451
定不定	-11.0455
指前	-11.0456
具五	-11.0459
乃名	-11.046
所有諸	-11.046
業所感	-11.046
彼種	-11.0461
愍	-11.0465
有幾種	-11.0468
是能	-11.0469
一自性	-11.0469
移	-11.047
轉易	-11.0472
小十	-11.0473
一對	-11.0476
先時	-11.0476
「	-11.0478
分七	-11.0479
彼種子	-11.0479
會違	-11.048
他受用身	-11.0481
五通	-11.0483
未審	-11.0485
未潤	-11.0488
梵住	-11.0491
命者	-11.0492
受相應	-11.0493
染者	-11.0494
率	-11.0494
罰	-11.0498
為大	-11.0499
耽	-11.0499
名樂	-11.0499
池	-11.0501
心品	-11.0501
星	-11.0502
上生	-11.0502
中第一	-11.0504
妄念	-11.0504
強盛	-11.0504
牙	-11.0505
生身	-11.0508
由自	-11.0509
之種	-11.0509
得彼	-11.0509
園	-11.051
斷對治	-11.051
緣也	-11.0511
類故	-11.0516
以成	-11.0516
廣破	-11.0517
壽煖	-11.052
苦因	-11.052
能生果	-11.0521
悉是	-11.0521
入出息	-11.0521
自緣	-11.0525
界中	-11.0528
識有	-11.0528
四業	-11.053
論意	-11.0531
無生智	-11.0532
人等	-11.0532
各具	-11.0533
力者	-11.0533
▁初標	-11.0537
識緣	-11.0538
同品	-11.0539
何言	-11.054
方便故	-11.0542
無其	-11.0545
問云何	-11.0545
世出世間	-11.0547
世道	-11.055
定也	-11.0557
增上義故	-11.0558
舉數	-11.0559
所無	-11.0561
乃得	-11.0564
相應心所	-11.0566
理教	-11.0567
說之	-11.0567
思擇力	-11.0567
教者	-11.0567
增上者	-11.0568
緣如	-11.0568
故但	-11.0572
五識俱	-11.0573
苾蒭	-11.0574
文分為二先	-11.0575
三十七	-11.0577
所須	-11.0578
粗	-11.0579
後得智中	-11.0583
教授教誡	-11.0584
瞻	-11.0586
自相故	-11.0587
立因	-11.059
孤	-11.0591
條	-11.0591
恒沙	-11.0592
無定	-11.0592
聚中	-11.0593
典	-11.0593
界攝	-11.0597
無生滅	-11.0598
小乘說	-11.0605
無疑	-11.0607
恒起	-11.061
有二說	-11.0613
既然	-11.0615
五戒	-11.0619
皆可	-11.0622
自行	-11.0623
受學	-11.0626
通二種	-11.0627
滯	-11.0628
四總結	-11.0629
虗妄分別	-11.0631
說一切法	-11.0634
一切如來	-11.0634
攝法	-11.0635
妙慧	-11.0636
備云	-11.0637
或應	-11.0637
若無此識	-11.0639
是世間	-11.0645
彼非	-11.0646
決了	-11.065
其因	-11.0653
義顯	-11.0654
難解	-11.0656
或緣	-11.0658
永伏	-11.0661
七依	-11.0662
事理	-11.0662
八地已上	-11.0662
若復	-11.0664
緩	-11.0666
不答	-11.0669
勸導	-11.0669
離欲界	-11.067
理亦	-11.067
為淨	-11.0671
化地部	-11.0672
何理	-11.0672
攬	-11.0673
每	-11.0676
博	-11.0676
具知根	-11.0678
晝夜	-11.0679
道中	-11.0679
便為	-11.068
至心	-11.0681
自受	-11.0685
妻	-11.0685
十二部經	-11.0687
總合	-11.0687
慢類	-11.0688
影顯	-11.0692
有幾	-11.0693
流出	-11.0694
前來	-11.0694
何因緣故	-11.0699
修道中	-11.0699
當體	-11.0701
會釋	-11.0702
種子生現行	-11.0703
數量	-11.0704
又無	-11.0706
善不善業	-11.0706
小乘法中	-11.0707
名勝義	-11.0709
等五	-11.071
相應無明	-11.071
三字	-11.0712
如經	-11.0713
因緣種	-11.0714
功能差別	-11.0715
聲聞藏	-11.0717
識是	-11.0722
出世法	-11.0725
不相違因	-11.0726
亦隨	-11.0727
於下	-11.073
緣相	-11.0737
未滿	-11.0737
愚者	-11.0738
鈔	-11.0739
此間	-11.0742
通有漏無漏	-11.0744
非道	-11.0745
為六	-11.0746
一切佛	-11.0746
演曰後辯	-11.0747
無境	-11.0749
由心	-11.075
淨定	-11.075
假相	-11.0752
汝言	-11.0752
名見	-11.0756
般涅槃法	-11.0757
是染	-11.0759
義不成	-11.0761
如燈	-11.0762
於理無違	-11.0762
七八二識	-11.0765
宗鏡云	-11.0766
柔軟	-11.077
鬼畜	-11.0771
端嚴	-11.0773
追	-11.0773
由二因緣	-11.0774
名生	-11.0778
正顯	-11.0779
中有五	-11.078
幻事	-11.0783
身口意	-11.0785
立三	-11.0787
現前故	-11.0792
五數	-11.0797
移轉	-11.0798
欲繫	-11.0798
初二果	-11.0799
此中說	-11.08
二量	-11.0803
何故說	-11.0807
出過	-11.0809
為所	-11.0812
雖得	-11.0815
有無不定	-11.0816
或現	-11.0817
初念	-11.0818
中文	-11.082
種子也	-11.0822
同也	-11.0827
初得	-11.0827
涅盤	-11.0827
兩重	-11.0828
二十九	-11.0828
器界	-11.0832
是諸菩薩	-11.0834
非執受	-11.0836
明處	-11.084
修所成	-11.084
深信	-11.0842
有九種	-11.0844
盡所有性	-11.0845
過失故	-11.085
瑜伽師	-11.085
必與	-11.0851
貪嗔癡	-11.0851
說十	-11.0853
辨相	-11.0853
別報業	-11.0854
成無漏	-11.0854
所依身	-11.0855
諸弟子	-11.086
於色等	-11.0861
修起	-11.0861
光影	-11.0862
曾無	-11.0862
云何可見	-11.0868
緣緣	-11.0869
承事	-11.0872
分別惑	-11.0873
有間斷故	-11.0874
不同故	-11.0877
慧眼	-11.0878
差別應知	-11.0879
他作	-11.088
求解脫	-11.0885
七地巳前	-11.0886
由此義故	-11.089
依士釋	-11.0894
有行	-11.0894
樂著	-11.0895
現在前時	-11.0901
無性云	-11.0901
豈無	-11.0903
無量眾生	-11.0903
過者	-11.0906
非所緣	-11.0907
定道	-11.0908
所招	-11.0909
無漏者	-11.0914
即將	-11.0921
不如是	-11.0921
即入	-11.0922
俱得	-11.0923
非擇	-11.0923
同法	-11.0924
平等心	-11.0925
初中有二	-11.0927
識等五種	-11.0927
增進	-11.0929
非根	-11.0929
無學道	-11.0931
定時	-11.0931
非一異	-11.0935
佛性論	-11.0935
第三師	-11.0936
曉	-11.0937
宅	-11.0941
發勤精進	-11.0942
甘	-11.0942
常有	-11.0942
十二分教	-11.0943
審決	-11.0943
八句	-11.0945
暴惡	-11.0945
擔	-11.0946
為識支	-11.0946
名阿賴耶	-11.0947
五十二	-11.0948
算數	-11.0951
從緣	-11.0951
為因緣故	-11.0951
有執受	-11.0954
名無相	-11.0956
出入息	-11.0956
與一切	-11.0958
諸門分別	-11.0958
方便因	-11.0958
則能	-11.0958
饒益有情	-11.0958
三十四	-11.0963
為第一	-11.0964
五逆	-11.0964
文中有二初	-11.0964
問如	-11.0964
聖教說	-11.0966
具二	-11.0968
無體故	-11.097
一略釋	-11.0972
為十	-11.0973
有所得	-11.0974
略明	-11.0975
亦應然	-11.0976
有頂地	-11.0976
謂緣	-11.0979
有實用	-11.098
箇	-11.098
此句	-11.098
出息	-11.0981
今當	-11.0982
愛取有	-11.0983
攝彼	-11.0986
青黃等	-11.0988
色想	-11.0988
慧學	-11.0989
境起	-11.0993
遇緣	-11.0997
所依止故	-11.0998
趣生體	-11.0999
修習位	-11.0999
四結	-11.0999
所執我	-11.0999
三破	-11.1001
初列	-11.1002
隨其所	-11.1003
信受	-11.1005
漏盡通	-11.1005
中先	-11.1013
此何	-11.1013
俱不成	-11.1013
亦令	-11.1015
相等	-11.1015
有功用	-11.1015
違順	-11.1016
六境	-11.1016
根本故	-11.1016
有釋	-11.1018
修方便	-11.1019
自性無記	-11.102
成辨	-11.1021
胎藏	-11.1021
自性分別	-11.1023
於現在世	-11.1023
事境	-11.1024
破經部	-11.1024
二辨	-11.1024
謟	-11.1025
於諸法	-11.1027
頗	-11.1033
增上慧學	-11.1034
十智	-11.1035
業障	-11.1037
細分	-11.1038
相應義	-11.1039
不俱起	-11.1039
應修	-11.1041
十五界	-11.1041
為有情	-11.1042
萬物	-11.1046
趣寂	-11.1047
離言說	-11.1048
欲得	-11.105
勝解行地	-11.105
活	-11.1051
後彰	-11.1051
相及	-11.1051
增上心學	-11.1052
前十	-11.1053
種子為	-11.1053
演曰八	-11.1053
現在法	-11.1054
能憶	-11.1055
於事	-11.1055
如其所	-11.1057
有功能	-11.1061
人空	-11.1063
應理	-11.1063
生老	-11.1064
色聚	-11.1067
於世	-11.1068
於如是	-11.1069
或因	-11.1069
同利	-11.107
初心	-11.1071
水等	-11.1071
復為	-11.1078
便得	-11.1078
任運起	-11.1081
苦法智	-11.1081
謂初	-11.1082
唐	-11.1084
釋中有二	-11.1085
正辨	-11.1089
有質礙	-11.1089
例明	-11.1097
論荅至	-11.1098
說如是言	-11.1099
種子依	-11.11
申正義	-11.1101
天耳	-11.1102
如瑜伽	-11.1105
如是所說	-11.1108
此菩薩	-11.1109
除其	-11.1109
義邊	-11.111
性罪	-11.1111
由何	-11.1111
所染	-11.1112
為遮	-11.1112
數取趣	-11.1117
無常者	-11.1119
界等	-11.1119
於眾生	-11.112
作因	-11.1121
註	-11.1122
前解為勝	-11.1122
道支	-11.1125
第二義	-11.1125
策勵	-11.1126
地界	-11.1127
未曾得	-11.1127
八根	-11.1129
餘文	-11.1132
虛偽	-11.1133
不與取	-11.1134
俱通	-11.1135
者據	-11.1138
不淨品	-11.1138
則為	-11.1138
假想	-11.1138
明記	-11.114
謂諸如來	-11.114
此舉	-11.1141
所破	-11.1143
與心相應	-11.1145
釋也	-11.1145
既通	-11.1147
迷諦	-11.1147
正起	-11.1147
初云	-11.1148
寂靜故	-11.1149
財法	-11.1151
涅槃故	-11.1152
或於一時	-11.1157
諸佛世尊	-11.1159
簡異	-11.1161
唯識義	-11.1166
六事	-11.1169
是故說言	-11.1171
諸靜慮	-11.1171
彼由	-11.1172
望前	-11.1173
表示	-11.1173
慳悋	-11.1175
種識	-11.1175
第七卷	-11.1181
語者	-11.1181
貪嗔	-11.1182
名異	-11.1183
法上	-11.1187
四生	-11.1188
生信	-11.1197
唯識觀	-11.1197
隨自	-11.1197
後所得	-11.1199
難言	-11.1204
真如是	-11.1207
収	-11.1209
法住	-11.1213
已作	-11.1214
夢境	-11.1214
住異	-11.1216
幻化	-11.1218
上文	-11.1219
所量	-11.1221
狹小	-11.1222
無始來	-11.1223
苦法智忍	-11.1224
行處	-11.1225
資生	-11.1226
展轉相望	-11.1231
分限	-11.1233
無彼	-11.1234
】【	-11.1234
境界故	-11.1235
略標	-11.1236
三自性	-11.1236
逈色	-11.1237
演曰次	-11.1237
此第二	-11.1239
自餘	-11.1239
體實	-11.1241
離煩惱	-11.1242
假色	-11.1243
有輕安	-11.1245
西明云	-11.1246
行也	-11.1248
亦無失	-11.1249
身語意業	-11.1249
二徵問	-11.125
人無我	-11.1253
下上	-11.1256
攝入	-11.1256
能障礙	-11.1257
即言	-11.126
諸隨煩惱	-11.1261
前難	-11.1262
運轉	-11.1262
為所依故	-11.1265
何識	-11.1265
以自	-11.1265
煩惱現行	-11.1268
義理	-11.1268
神境	-11.127
圓成實自性	-11.1272
本意	-11.1273
不愛	-11.1276
理門	-11.1277
如是諸	-11.1278
斷道	-11.1281
名內	-11.1282
無識	-11.1283
先於	-11.1284
難意	-11.1287
問荅	-11.1289
今明	-11.1291
故說名	-11.1293
智品	-11.1294
六十九	-11.1296
可成	-11.1298
决定	-11.1302
擯	-11.1302
為加行	-11.1305
具明	-11.1306
至下當知	-11.1311
喪	-11.1312
初說	-11.1314
復有差別	-11.1315
不善根	-11.1317
若異	-11.1319
總答	-11.1319
皆空	-11.132
富樂	-11.1324
離欲者	-11.1324
八萬劫	-11.1328
法處攝	-11.1332
餘門	-11.1332
惱亂	-11.1333
是第一	-11.1334
增語	-11.1336
三十二相	-11.134
不能伏	-11.134
及無	-11.1344
般若波羅蜜多	-11.1349
故此不說	-11.1351
彼因	-11.1354
總報業	-11.1356
內有	-11.1358
前人	-11.1359
由其	-11.1361
俱相違	-11.1361
通依	-11.1361
傍修	-11.1362
教體	-11.1364
此由	-11.1364
要集	-11.1365
不堪	-11.1367
貪分	-11.1367
聖行	-11.1367
處說	-11.1367
翻前	-11.1372
同時意識	-11.1373
二體	-11.1375
地持論	-11.1376
所不攝	-11.1377
定散	-11.1377
相緣	-11.1378
未熟	-11.1379
了義經	-11.138
此皆	-11.138
大乘宗	-11.138
建	-11.1384
嗢拕南曰	-11.1386
除之	-11.1386
有根	-11.1388
為當	-11.1389
中解	-11.139
者意云若	-11.1391
不顯現	-11.1396
准下	-11.1397
信者	-11.1401
解也	-11.1403
白淨	-11.1403
群	-11.1405
分故	-11.1407
勝鬘經	-11.1408
為種子	-11.1408
延	-11.1412
了相作意	-11.1413
不惱	-11.1413
既得	-11.1414
安置	-11.1415
能住	-11.1416
異說	-11.1419
忿等十	-11.142
永不生	-11.1423
觀真如	-11.1423
帝釋	-11.1425
就此	-11.1425
折伏	-11.1426
利他行	-11.1426
輕微	-11.143
開為	-11.1435
寶性論	-11.1437
漸悟	-11.1439
於色界	-11.1441
於現法	-11.1441
有覆無記性	-11.1441
法合	-11.1445
不肯	-11.1446
忍可	-11.1446
七寶	-11.1447
對前	-11.1447
答以	-11.145
臥具	-11.1451
能遍	-11.1452
六界	-11.1454
若無此	-11.1455
十地論	-11.1456
為空	-11.1457
觀見	-11.1458
境智	-11.1461
如色	-11.1461
身見等	-11.1462
為助伴	-11.1464
行於	-11.1465
此量	-11.1466
顯理	-11.1468
於諸行中	-11.147
名句	-11.1472
謂隨	-11.1473
智斷	-11.1478
定位	-11.1479
不定四	-11.1481
舉頌	-11.1482
即依此	-11.1483
緣無	-11.1484
斷善	-11.1484
七分別	-11.1487
一根	-11.1489
對法論說	-11.149
表無表	-11.1491
苦無常等	-11.1491
如地	-11.1492
有其二種	-11.1494
再	-11.1494
成唯識說	-11.1495
映	-11.1495
兩門	-11.1497
慶	-11.1498
可斷	-11.15
無漏慧	-11.15
闍	-11.1501
沙彌	-11.1501
佛無	-11.1502
生法	-11.1503
信等五	-11.1503
熏發	-11.1504
噉	-11.1504
世間出世間	-11.1506
不相違也	-11.1507
刺	-11.1511
外有	-11.1512
此時	-11.1517
莊嚴具	-11.1519
解脫門	-11.1522
生死苦	-11.1525
不應說	-11.1526
此無明	-11.1527
現行故	-11.1527
宗法	-11.1531
根及	-11.1534
八依	-11.1541
所生故	-11.1542
進修	-11.1543
外種	-11.1545
得成佛	-11.1545
熏習種子	-11.1547
不定過	-11.1548
佛言	-11.1548
上無	-11.1548
入此定	-11.1551
即是此中	-11.1565
次以	-11.1566
或總	-11.1566
十六種	-11.1567
二乘等	-11.1568
若大乘	-11.1568
佛為	-11.1571
無漏善	-11.1573
壞滅	-11.1574
之惑	-11.1574
不無	-11.1575
趣中	-11.1577
不屬	-11.1582
餘時	-11.1584
此所	-11.1584
分十	-11.1587
滋潤	-11.1589
如前釋	-11.159
別分	-11.1592
若隨	-11.1594
羯	-11.1594
接	-11.1596
匱乏	-11.1597
祖	-11.1599
聰慧	-11.16
亦斷	-11.1602
至皆	-11.1602
起言說	-11.1603
宮殿	-11.1604
是空	-11.1605
勤精進	-11.1607
從本	-11.1608
不顧	-11.161
俱生分別	-11.1611
三十八	-11.1611
定俱	-11.1612
二問	-11.1616
分段身	-11.1618
在家出家	-11.1618
含藏	-11.1619
所觸	-11.1621
次起	-11.1622
第十四	-11.1625
如緣	-11.1626
色性	-11.1629
差別建立	-11.1629
化佛	-11.1629
獨名	-11.163
地大	-11.1631
無明愛取	-11.1633
前巳	-11.1641
八苦	-11.1641
無畏施	-11.1642
觀時	-11.1643
二答分三	-11.1646
如世間	-11.165
為生	-11.1651
故者意說	-11.1654
聲明	-11.1654
惜	-11.1657
無厭	-11.1657
者解云	-11.1658
種名	-11.1659
無垢識	-11.1661
是所熏	-11.1661
修行者	-11.1662
即由此	-11.1663
此種子	-11.1663
餘煩惱	-11.1664
分別所起	-11.1664
果名	-11.1665
所縛	-11.1667
百劫	-11.1668
聖位	-11.1668
行法	-11.167
迷四諦	-11.1672
親屬	-11.1676
亦尒	-11.1677
不成故	-11.1677
二廣答	-11.1679
答中	-11.1682
此七	-11.1684
顯果	-11.1684
何勞	-11.1686
嫉妬	-11.1688
研	-11.1688
無尋無伺	-11.169
若別	-11.169
易可	-11.1691
無漏位	-11.1691
為自內我	-11.1692
托	-11.1697
唯識理	-11.1698
何相	-11.1698
無所畏	-11.17
糞	-11.17
徹	-11.17
疾病	-11.1701
共生	-11.1701
欲愛	-11.1704
初位	-11.1706
天住	-11.1708
色聲香味觸	-11.171
據此	-11.171
亦有三	-11.171
此亦不爾	-11.1714
心心所等	-11.1715
無記故	-11.1716
餘可知	-11.1716
欣厭	-11.1717
是業	-11.1719
二障種子	-11.1723
諸經論	-11.1725
自相共相	-11.1725
是名第二	-11.1726
意生身	-11.1726
得戒	-11.1727
九根	-11.1734
欲行	-11.1735
義分	-11.1741
此根	-11.1746
通有	-11.1746
所滅	-11.1747
現生	-11.1747
成佛時	-11.1748
始起	-11.1751
第七地	-11.1752
色塵	-11.1754
頌意	-11.1754
中收	-11.1755
具攝	-11.1758
不相續	-11.176
若我	-11.1762
煩惱斷	-11.1762
先以	-11.1763
上忍	-11.1765
依色根	-11.1769
非想非非想	-11.177
細故	-11.1771
滅法	-11.1772
通局	-11.1773
為增上	-11.1778
無文	-11.1778
踈	-11.178
此應	-11.1781
諸纏	-11.1783
暴	-11.1783
大意	-11.1784
謂諸菩薩於	-11.1786
扶根塵	-11.1787
識外	-11.1792
受蘊	-11.1793
猗	-11.1793
作是思惟	-11.1795
旋	-11.1795
因體	-11.1795
證滅	-11.1796
能變識	-11.18
不如理作意	-11.1801
無過失	-11.1802
論復次至	-11.1802
剎	-11.1803
獨影	-11.1803
謂離	-11.1808
進趣	-11.1814
中除	-11.1814
龍樹	-11.1815
薩婆多師	-11.1816
常無	-11.1821
非煩惱	-11.1822
歸敬	-11.1824
菩薩如是	-11.1825
問幾	-11.1828
皆盡	-11.1829
同行	-11.183
波羅	-11.183
憂喜	-11.1831
無相行	-11.1831
受身	-11.1839
佛出世	-11.184
觀此	-11.1841
有生	-11.1841
亦作	-11.1843
覆藏	-11.1845
第八識中	-11.1848
四句分別	-11.1849
菩薩得	-11.185
得無漏	-11.1851
然依	-11.1852
或見	-11.1858
但能	-11.1862
行相所緣	-11.1862
修道所斷	-11.1863
非諸	-11.1866
就前	-11.1868
何別答	-11.1871
而取	-11.1873
生上界	-11.1873
決定心	-11.1873
起諸	-11.1874
處轉	-11.1875
勝解作意	-11.1878
先破	-11.1878
能隨	-11.1883
上妙	-11.1885
毘柰耶	-11.1888
及佛	-11.1888
苦俱	-11.1888
已離欲	-11.1888
隱密	-11.1889
通明	-11.1889
無漏現行	-11.1891
常等	-11.1891
刀杖	-11.1892
是宗	-11.1894
正障	-11.1894
心變	-11.1895
樂果	-11.1895
成壞	-11.1896
四見	-11.1896
發言	-11.1896
中之	-11.1897
即除	-11.1898
生雜染	-11.1898
虫	-11.1901
體既	-11.1902
無常想	-11.1902
時中	-11.1904
知量	-11.1904
十障	-11.1904
名異熟	-11.1904
億	-11.1906
純苦	-11.1907
轉根	-11.1911
除去	-11.1912
加行位中	-11.1912
不增減	-11.1913
勝果	-11.1913
中上	-11.1914
異不異	-11.1914
盡無生智	-11.192
▁初釋	-11.1923
異生位	-11.1924
淨相	-11.1928
下三無色	-11.1928
七法	-11.1928
無勝	-11.1935
由五相	-11.1936
領解	-11.1937
計常	-11.1939
總略	-11.1939
迷苦	-11.1939
彼心	-11.1939
蓮華	-11.194
釋難	-11.1941
莖	-11.1943
非佛	-11.1943
諸有漏	-11.1946
三於	-11.1946
不離心	-11.1947
學等	-11.1947
定知	-11.1947
答若	-11.1947
微薄	-11.1948
大般若	-11.1948
十二種	-11.1949
青色	-11.195
無復	-11.1954
若如是者	-11.1957
佛教	-11.1965
次依	-11.1967
唯量	-11.1969
自能	-11.1971
甞	-11.1974
惡戒	-11.1975
不虛	-11.1975
彌勒菩薩說三藏法師玄奘奉詔譯	-11.1976
所詮義	-11.1977
以立	-11.1978
空門	-11.1981
地者	-11.1981
生惡趣	-11.1982
大門	-11.1982
余	-11.1982
故者此	-11.1982
速證	-11.1983
辯才	-11.1984
為別	-11.1985
頃	-11.1985
獸	-11.1985
觀色	-11.1988
以釋	-11.1988
如斯	-11.1989
義釋	-11.1994
八萬四千	-11.1995
隨情	-11.1995
令知	-11.1997
得無上菩提	-11.1997
次第者	-11.1998
一來	-11.2
廣百論	-11.2
佛告	-11.2003
合釋	-11.2003
斯陀	-11.2008
諸法自性	-11.2008
無間緣	-11.2009
即攝	-11.201
所知事	-11.201
中又二	-11.201
無記者	-11.2012
名稱	-11.2013
唯二	-11.2019
性空	-11.2022
苦依	-11.2024
空相	-11.2025
性攝	-11.2025
本計	-11.2026
隨生	-11.2027
縱許	-11.2028
七門	-11.2032
或無	-11.2036
本願	-11.2036
果上	-11.2036
盡理	-11.2037
論當知	-11.2038
作具	-11.2039
同地	-11.204
以別	-11.2043
尊者	-11.2044
就彼	-11.2045
護持	-11.2046
漸增	-11.2048
可熏	-11.2051
心外法	-11.2051
習種	-11.2051
略為	-11.2053
進退	-11.2053
初中有三	-11.2053
生喜	-11.2053
於三世	-11.2054
名得	-11.2055
對法說	-11.2058
識名	-11.2058
共住	-11.2063
不恒	-11.2065
有何過	-11.2067
乃至非想	-11.207
開蒙	-11.2071
於爾時	-11.2073
唯意識	-11.2073
證有	-11.2073
貪恚	-11.2074
同事因	-11.2075
可然	-11.2075
略不說	-11.2077
三能變	-11.2077
是時	-11.2077
唯觀	-11.2079
初頌	-11.208
但明	-11.208
矯	-11.2081
艱難	-11.2081
喜樂捨	-11.2082
四正斷	-11.2082
正知而住	-11.2083
謂三界	-11.2085
遊戲	-11.2086
是正	-11.2087
善法欲	-11.2087
緣實	-11.2088
文言	-11.2089
正體智	-11.209
觀四諦	-11.2092
通有漏	-11.2093
阿黎耶識	-11.2094
世界中	-11.2094
助成	-11.2096
不一不異	-11.2096
不足	-11.21
我應	-11.2101
能緣見分	-11.2101
不雜	-11.2103
▁初明	-11.2105
受想等	-11.2105
不二	-11.2105
此結	-11.2105
阿賴耶名	-11.2107
正修	-11.211
資粮位	-11.2115
不退菩薩	-11.2116
受熏持種	-11.2116
得失	-11.2121
應可	-11.2123
究竟道	-11.2132
於一切處	-11.2133
地上菩薩	-11.2135
皆容	-11.2136
如來住	-11.2139
起上	-11.2142
善淨	-11.2143
知者	-11.2144
第四禪中	-11.2144
故所以	-11.2145
忍者	-11.2146
共成	-11.2147
除彼	-11.2149
應以	-11.2155
有上	-11.2155
論主答	-11.2156
戒中	-11.2157
受之	-11.2157
無染淨	-11.216
妨難	-11.216
但與	-11.2161
有心無心	-11.2161
上流	-11.2162
等字	-11.2163
三和合	-11.2163
十二支中	-11.2166
緣智	-11.2169
明修	-11.2173
於一時	-11.2175
亦別	-11.2182
露	-11.2186
眾中	-11.2186
為樂	-11.2189
笑	-11.2191
如汝	-11.2195
心得	-11.2195
今且	-11.2196
非色非心	-11.2196
頌明	-11.2197
名同	-11.2198
謂阿羅漢	-11.2202
為他說	-11.2203
犯重	-11.2203
景師	-11.2204
境界受	-11.2205
餘非	-11.2206
風輪	-11.2207
此偈顯示	-11.2208
能發起	-11.2209
正語	-11.2211
色種	-11.2211
世第一	-11.2213
入出	-11.2215
之相分	-11.2215
何故此中	-11.2219
苦集諦	-11.2219
伏難	-11.2225
五俱意識	-11.2225
於人	-11.2226
答意	-11.2227
以解	-11.2228
起欲	-11.2229
計執	-11.2231
位別	-11.2232
斷二障	-11.2233
解脫果	-11.2233
自見	-11.2235
是煩惱	-11.2236
大德	-11.2239
三辯	-11.2239
行住	-11.224
即令	-11.2241
所行境界	-11.2242
離縛	-11.2242
世尊說	-11.2243
揔結	-11.2244
愛故	-11.2246
引經證	-11.2247
多諸	-11.2249
無自性性	-11.2249
破僧	-11.225
五法中	-11.2255
內色	-11.2255
非遍行	-11.2259
四定	-11.226
非食	-11.2261
六十三	-11.2264
或說為	-11.2265
第二云	-11.2266
順生	-11.227
善方便	-11.227
非主	-11.2272
所識	-11.2273
是故說	-11.2274
別法	-11.2274
法之	-11.228
第八緣	-11.228
方便善	-11.2282
我能	-11.2287
識無邊處	-11.2288
不同小乘	-11.2289
喜捨	-11.2291
辛	-11.2291
因名	-11.2293
中有二初	-11.2293
墜	-11.2295
不放逸者	-11.2296
謂眼	-11.2296
所生之	-11.2296
為第二	-11.2297
三際	-11.2297
而現	-11.2299
是能熏	-11.2299
摧伏	-11.2299
意識相應	-11.2301
譏	-11.2302
三界唯心	-11.2302
可通	-11.2302
當地	-11.2304
一闡提	-11.2305
引故	-11.2305
分十一	-11.2308
意在	-11.2308
菩提資糧	-11.231
我無	-11.2311
品麁重	-11.2311
五八	-11.2313
如來所說	-11.2314
無容	-11.2316
次第緣	-11.2318
演曰九	-11.2319
在見道	-11.2321
不可意	-11.2321
辨體	-11.2322
所厭	-11.2324
立理	-11.2326
見趣	-11.2326
喜根	-11.2327
意俱	-11.233
現相	-11.2331
由如是	-11.2331
曾得	-11.2332
顯揚云	-11.2332
不念	-11.2333
境中	-11.2335
唯不善	-11.2336
入過去	-11.2336
文中分二一	-11.2341
違逆	-11.2342
正思	-11.2347
是諸	-11.2349
約對	-11.2349
現緣	-11.2349
邪分別	-11.235
此簡	-11.235
施戒	-11.235
三障	-11.2351
及無漏	-11.2352
損壞	-11.2353
轉得	-11.2355
無我理	-11.2357
亦有二種	-11.2357
隨說	-11.2357
勝法	-11.2358
得增長	-11.2359
若對	-11.236
會云	-11.2362
疎緣	-11.2363
有財	-11.2366
煩惱雜染	-11.2366
人法二	-11.2367
非必	-11.2367
相傳	-11.2368
不離身	-11.2372
生厭	-11.2374
極善	-11.2376
分為三	-11.2376
於過去	-11.2381
彼諸	-11.2381
德業	-11.2384
無作用	-11.2384
無執受	-11.2385
盖	-11.2389
有漏業	-11.2389
色陰	-11.2391
遲	-11.2392
總立	-11.2393
不退轉	-11.2394
䇿	-11.24
若定	-11.24
智生	-11.2401
於十方	-11.2401
餘八	-11.2401
青黃赤白	-11.2401
餘生	-11.2402
熾盛	-11.2404
得法	-11.2404
飛	-11.2404
所託	-11.2406
拒	-11.2407
齒	-11.2407
俱生俱滅	-11.2408
相隨	-11.241
州	-11.241
義意	-11.2412
此第二解	-11.2413
本地分	-11.2416
還起	-11.2418
為道	-11.242
亦在	-11.2421
真如性	-11.2422
資養	-11.2422
有勝	-11.2423
得修	-11.2425
無質礙	-11.2425
此就	-11.2426
謂一切法	-11.2429
於後時	-11.2429
亦應有	-11.2431
依真	-11.2431
意也	-11.2437
第二依	-11.2438
名取	-11.2438
皆云	-11.2442
之門	-11.2442
第六明	-11.2444
亦不應理	-11.2445
遍計所執性	-11.2446
有情界	-11.2447
正方便	-11.2448
俱解脫	-11.2449
已成	-11.245
恩德	-11.2453
資財	-11.2455
無常苦	-11.246
得住	-11.2464
斷所知	-11.2465
法忍	-11.2467
一切境	-11.2467
體上	-11.2469
隨好	-11.2472
断	-11.2472
慧俱	-11.2473
巳成	-11.2474
不能知	-11.2475
亦生	-11.2475
何假	-11.2478
𢢔	-11.2478
通善惡	-11.2481
慧根	-11.2484
一切苦	-11.2486
聖果	-11.2487
立二	-11.2489
其事	-11.2491
唯識論云	-11.2492
涅槃界	-11.2492
如前已	-11.2494
眾相	-11.2495
相起	-11.2495
具足中	-11.2496
或作	-11.2498
非緣	-11.2499
假建立	-11.2501
位次	-11.2503
若爾如何	-11.2504
彈	-11.2506
即於如是	-11.2506
據實而言	-11.2506
優劣	-11.2507
前約	-11.2507
慧為性	-11.2507
篇	-11.2509
說法者	-11.2509
讀誦	-11.251
聲聞辟支佛	-11.2512
類同	-11.2513
四念處	-11.2514
則知	-11.2515
若依毘曇	-11.2515
先斷	-11.2517
猛赤	-11.2518
能轉	-11.2523
合明	-11.2523
故涅槃云	-11.2524
不正思惟	-11.2524
靜慮者	-11.2525
不曾	-11.2527
是依他	-11.2528
是名下結	-11.2529
離障	-11.2533
取之	-11.2537
但遮	-11.2538
識不離身	-11.2538
初四	-11.2539
若時	-11.2539
初依	-11.2539
苦樂受	-11.2543
有九品	-11.2546
於何	-11.2548
相增	-11.255
初中後	-11.2551
六十四	-11.2551
假說為	-11.2554
法教	-11.2555
能忍	-11.2557
堅等	-11.2557
八聖道	-11.2559
天親菩薩	-11.256
無貪等	-11.2563
無比	-11.2563
影像相	-11.2564
得緣	-11.2564
九明	-11.2564
七十三	-11.2565
有堪能	-11.2567
隨業	-11.2567
勝品	-11.2568
有退	-11.257
邪欲	-11.257
簡之	-11.2571
惑故	-11.2572
若第六識	-11.2574
等者意云	-11.2574
一切雜染	-11.2575
智自在	-11.2575
所能	-11.2575
退還	-11.2579
時時	-11.2581
識依	-11.2582
而修	-11.2583
業生	-11.2587
以去	-11.2592
依他起相	-11.2593
□□□□	-11.2594
退轉	-11.2594
揚	-11.2597
二廣答分二	-11.2603
由有此	-11.2603
識俱	-11.2605
有種種	-11.2605
我已	-11.2605
明之	-11.2608
憤發	-11.2608
於中有	-11.2609
蕩	-11.261
童	-11.2613
何地	-11.2614
解行地	-11.2616
非於	-11.2616
賤	-11.2616
靈	-11.2617
無學果	-11.2618
敬禮	-11.2618
唯攝	-11.2618
事識	-11.2622
文分為	-11.2623
眼根等	-11.2626
能徧計	-11.2626
自體分	-11.2627
意謂	-11.2627
眾色	-11.263
就初	-11.2631
死者	-11.2632
變故	-11.2633
便是	-11.2633
為利益	-11.2634
迴趣	-11.2634
阿梨耶	-11.2636
善住	-11.2636
能壞	-11.2638
名善	-11.2638
第二禪	-11.2639
諸有學	-11.2641
次前	-11.2641
轉輪王	-11.2641
是無為	-11.2643
門竟	-11.2645
子微	-11.2645
斯乃	-11.2649
在後	-11.2651
具分	-11.2653
佛子	-11.2657
文分為三	-11.2657
五所	-11.2658
顯現故	-11.2659
寂止	-11.266
違宗	-11.2662
麁色	-11.2663
不久	-11.2664
卷第十	-11.2666
逸	-11.2667
五十三	-11.2667
顯前	-11.2669
色名	-11.2669
無堪任	-11.267
非時	-11.2672
名異熟生	-11.2674
是俱生	-11.2674
演曰二別	-11.2674
空智	-11.2675
二別釋分二	-11.2675
無用故	-11.2677
是定	-11.2678
俱依	-11.268
是依他起	-11.2681
見他	-11.2683
善修習	-11.2683
現量得	-11.2685
男根	-11.2685
8	-11.269
何意	-11.2691
誓願	-11.2691
如常	-11.2693
有因緣	-11.2699
名隨煩惱	-11.27
稠林	-11.2702
蘊處界等	-11.2707
無戲論	-11.2707
初能變	-11.2708
又為	-11.271
諸有情所	-11.2712
畢竟不	-11.2712
如世尊言	-11.2713
葢	-11.2715
步	-11.2716
涉	-11.2718
定等	-11.2719
能施	-11.2719
脚	-11.272
如小乘	-11.2722
所慮	-11.2722
鬪諍	-11.2724
即第八	-11.2724
優婆塞	-11.2725
於大乘	-11.2726
呵責	-11.2727
危	-11.2727
未永斷	-11.2728
文分三段	-11.2728
何因緣	-11.2728
饒益有情戒	-11.2729
怨害	-11.2729
即識	-11.273
無有是處	-11.2734
作是言	-11.2734
破斥	-11.2735
加行心	-11.2735
第四卷	-11.2737
中夭	-11.2738
二生	-11.2738
動搖	-11.2741
厭背	-11.2744
能攝受	-11.2745
略不	-11.2746
今釋	-11.2746
顯揚第一	-11.2749
問如何	-11.2749
七眾	-11.275
諸事	-11.2751
聚色	-11.2751
自利行	-11.2753
乃至有頂	-11.2759
頓生	-11.2761
▁論	-11.2762
財位	-11.2768
教化眾生	-11.2768
在前	-11.2768
外凡	-11.277
淨智	-11.2771
判屬	-11.2775
謂修	-11.2777
五分	-11.2777
寬故	-11.278
謝滅	-11.2784
輪轉	-11.2785
外道計	-11.2786
空無邊處	-11.2786
能作因	-11.2788
理應	-11.2788
我亦	-11.2789
不堅	-11.279
後邊	-11.2792
或此	-11.2793
則此	-11.2796
有一類	-11.2797
能以	-11.28
變化心	-11.2801
二無心定	-11.2801
二斷	-11.2801
不得言	-11.2802
不熏	-11.2803
執彼	-11.2804
為我所	-11.2808
由五種相	-11.2809
能生識	-11.2811
凝	-11.2812
相名分別	-11.2813
常恒	-11.2813
亦立	-11.2816
優	-11.2816
四字	-11.2818
皆滅	-11.2822
𤏙	-11.2823
報佛	-11.2825
披	-11.2825
名自性	-11.2827
稽首	-11.2828
離相	-11.2828
非所熏	-11.2829
第十五	-11.2829
塔	-11.283
侍	-11.283
煩惱業	-11.283
得見	-11.2832
隱沒	-11.2833
餘十	-11.2833
餘心	-11.2834
孔	-11.2836
如我	-11.2844
亦應無	-11.2845
自內	-11.2845
梵音	-11.2846
若從	-11.2847
最勝故	-11.2847
令身	-11.2847
界差別	-11.2847
重解	-11.2848
具縛	-11.2848
無性釋云	-11.2848
以定	-11.2849
見道時	-11.2849
喻中	-11.285
諸行無常	-11.2851
第十六心	-11.2851
餘因	-11.2852
斷疑	-11.2852
後當	-11.2853
我所見	-11.2854
都無所有	-11.2855
普於一切	-11.2857
隨欲	-11.2858
即以此	-11.2862
此疏文	-11.2864
知諸法	-11.2865
第五解	-11.2866
驚	-11.2868
法住智	-11.2868
善道	-11.2868
發身語	-11.2874
為滅	-11.2875
其量	-11.2875
為生因	-11.2876
即因	-11.2878
影像相分	-11.288
為第三	-11.2881
明唯識	-11.2881
故但說	-11.2883
攝大乘論釋	-11.2884
強故	-11.2886
所依處故	-11.2888
五十九	-11.2891
遂求	-11.2892
有所緣	-11.2893
其果	-11.2894
非所	-11.2895
於當來世	-11.2896
相合	-11.2897
謂即於彼	-11.29
今世	-11.2901
染不染	-11.2901
過現	-11.2902
諸苾芻	-11.2903
力用	-11.2903
得之	-11.2905
天魔	-11.2905
依心	-11.291
名外	-11.2913
煩惱隨煩惱	-11.2913
是名第三	-11.2913
不達	-11.2917
無明行	-11.2917
不極成	-11.2917
何等為三	-11.2918
初地中	-11.2918
帶質	-11.292
貪瞋等	-11.2922
為離	-11.2923
論中說	-11.2923
善事	-11.2926
行修	-11.2927
隨護	-11.2933
為涅槃	-11.2935
義類	-11.2937
履	-11.294
相續中	-11.294
因緣依	-11.2945
修善法	-11.2946
彼許	-11.2948
彼雖	-11.2949
痛	-11.2949
名住	-11.2949
皆與	-11.295
巳知根	-11.295
於一切種	-11.2951
大同	-11.2953
彼論云	-11.2959
一切法皆	-11.296
貪心	-11.2963
此師意說	-11.2964
次三	-11.2966
無亂	-11.2966
起此	-11.2969
定境	-11.2969
十因中	-11.2969
不善無記	-11.297
智度論	-11.2974
無所依	-11.2975
文復	-11.2977
圓成實攝	-11.2978
斷之	-11.2979
將欲	-11.2982
約就	-11.2984
隨眠故	-11.2984
四無色	-11.2985
相用故	-11.2991
有漏位	-11.2992
成大	-11.2993
緣闕	-11.2993
自性涅槃	-11.2993
貪等煩惱	-11.2993
則非	-11.2994
觀品	-11.2995
御	-11.2996
證二空	-11.2997
勝能	-11.2997
彼由如是	-11.2998
七覺支	-11.3
人所	-11.3
滅已	-11.3001
先無	-11.3002
八地巳去	-11.3004
命終時	-11.3004
工巧處	-11.3009
略答	-11.3009
非由	-11.3011
此土	-11.3013
所顯真如	-11.3013
初言	-11.3015
文勢	-11.3016
中下	-11.3016
淨不淨業	-11.3017
之慧	-11.3018
被他	-11.3018
如次配	-11.3018
一果	-11.302
空識	-11.3022
吐	-11.3022
空空	-11.3024
未捨	-11.3024
要期	-11.3025
唯自	-11.3027
能斷煩惱	-11.3028
變者	-11.3029
俱生我執	-11.303
一切異生	-11.3033
分五如論	-11.3033
稱量	-11.3033
毗鉢舍那	-11.3035
起貪	-11.3036
卑	-11.3038
起盡	-11.3039
證成道理	-11.3042
一切世界	-11.3046
流注	-11.3048
門義	-11.305
略有六種	-11.3051
今當顯示	-11.3051
懺	-11.3051
相應縛	-11.3052
餘趣	-11.3055
不能得	-11.3057
或有或無	-11.3057
此若無者	-11.3057
文分為二初明	-11.3057
生善	-11.3059
具四義	-11.306
至教	-11.306
無處	-11.306
純熟	-11.306
品惑	-11.306
已有	-11.306
聚落	-11.3062
一時頓斷	-11.3063
大乘教	-11.3063
無病	-11.3066
諸境	-11.3067
有異熟	-11.3068
不墮	-11.307
推尋	-11.307
二藏	-11.3071
我是	-11.3071
道諦攝	-11.3075
緣前	-11.3077
並起	-11.3077
待眾緣	-11.3077
戒定慧	-11.3079
等引地	-11.3079
煖等	-11.3084
通二性	-11.3084
唯斷	-11.3087
信有	-11.3087
於三界	-11.3094
無異熟	-11.3095
遍行五	-11.3098
自共相	-11.3099
如似	-11.31
色非色	-11.3101
水月	-11.3108
初牒	-11.3108
有餘涅槃	-11.311
外門	-11.3111
事差別	-11.3113
八十九	-11.3114
威	-11.3115
極清淨	-11.3119
皆約	-11.312
合響宗鏡	-11.3122
若略說	-11.3129
意言分別	-11.313
定自在	-11.3131
厭惡	-11.3132
謂先	-11.3133
執我法	-11.3137
最清淨	-11.3139
緣未來	-11.3143
瑜伽論云	-11.3143
非直	-11.3144
感生	-11.3147
以離	-11.3147
自己	-11.3147
阿僧祇劫	-11.3149
晝	-11.3151
曾有	-11.3152
之曰	-11.3156
中分二	-11.3156
保	-11.3158
惡人	-11.3159
如攝論	-11.3159
有為無漏	-11.3161
負	-11.3161
增上戒學	-11.3162
處攝	-11.3166
無住處涅槃	-11.3168
親友	-11.3171
今論	-11.3171
地繫	-11.3172
次有	-11.3173
隨所欲	-11.3174
滅定等	-11.3178
處時	-11.3179
可得故	-11.3179
無退轉	-11.318
令我	-11.3182
門也	-11.3182
平等性	-11.3182
假智	-11.3182
身口意業	-11.3182
三千界	-11.3182
相違過	-11.3183
鏡像	-11.3183
地法	-11.3184
伽陀	-11.3187
衣食	-11.3187
相應心品	-11.3188
初句牒	-11.3188
云何建立	-11.3188
從種生	-11.319
即在	-11.3193
雖於	-11.3196
但得	-11.3196
此境	-11.3196
中復二	-11.3197
法自相相違	-11.3197
寒熱	-11.3198
於大乘中	-11.3198
六相	-11.3199
名法身	-11.32
就實	-11.3201
於有情	-11.3202
乃至於	-11.3202
和合故	-11.3203
他利	-11.3204
轉勝	-11.3204
次二句	-11.3207
能生現行	-11.3208
汝今	-11.3209
雖異	-11.321
皆不離識	-11.3211
於果	-11.3212
自力	-11.3212
作善	-11.3213
依圓	-11.3214
謂無明	-11.3214
唯修所斷	-11.3215
業雜染	-11.3217
名色等	-11.3219
聞者	-11.3219
第四果	-11.322
即違	-11.3222
不相離故	-11.3224
彼論說	-11.3228
具三義	-11.323
聞已	-11.323
人也	-11.3233
若於此	-11.3233
當起	-11.3236
一剎那中	-11.3236
然而	-11.3241
惑業苦	-11.3242
何故名	-11.3246
無有我	-11.3247
金銀	-11.3248
幾種	-11.3251
屬於	-11.3252
緣力	-11.3253
之聲	-11.3253
憤	-11.3253
不應理故	-11.3254
違越	-11.3254
盡處	-11.3261
演曰二彰	-11.3262
有作	-11.3262
死屍	-11.3264
影略	-11.3265
顏	-11.3267
修加行	-11.3269
省	-11.3271
自無	-11.3277
立支	-11.3278
緣種	-11.328
泰師	-11.3282
競	-11.3283
覆障	-11.3283
由四種	-11.3284
諸位	-11.3286
學道	-11.3286
到究竟	-11.3287
且舉	-11.3288
境時	-11.3289
煩惱隨眠	-11.3289
未轉依位	-11.3289
此復云何	-11.329
淨行	-11.3291
緣過未	-11.3292
得非擇滅	-11.3294
日輪	-11.3294
時得	-11.3295
諦實	-11.3295
所問	-11.3295
處生	-11.3296
即於此中	-11.3298
彼對治	-11.3298
拘礙	-11.3299
得初果	-11.33
不但	-11.3301
破執	-11.3302
無慚愧	-11.3304
外無	-11.3306
心所等	-11.3308
境等	-11.3309
種子成就	-11.331
瑜伽第十	-11.3315
今觀	-11.3315
大性	-11.3316
或彼	-11.3317
發語	-11.3321
名滅	-11.3322
無數	-11.3323
無漏識	-11.3325
文中有二	-11.3325
起慢	-11.3326
淨識	-11.3329
繫念	-11.3329
意思	-11.3329
自界	-11.333
憶持	-11.333
拔苦	-11.3332
正信	-11.3333
雜染故	-11.3334
願求	-11.3342
此觀	-11.3346
此亦應爾	-11.3349
自稱	-11.3349
聖住	-11.335
唯染	-11.3351
有分別故	-11.3351
本智	-11.3353
第一云	-11.3354
必應	-11.3355
無熏習	-11.3356
由此下	-11.3356
一觀	-11.3357
應起	-11.3359
文中分	-11.336
重觀	-11.336
三性中	-11.3361
空也	-11.3364
章云	-11.3365
伏煩惱	-11.3366
有學無學	-11.3369
三人	-11.3371
引後	-11.3375
無漏後得智	-11.3375
是誰	-11.3377
昇	-11.3377
利有情	-11.3377
修梵行	-11.3378
十三種	-11.3382
隨覺	-11.3382
業等	-11.3382
龜毛	-11.3384
猶預	-11.3385
究竟者	-11.3385
謂餘	-11.3386
諸漏永盡	-11.3386
宰	-11.3386
所觀境	-11.3388
轉增	-11.3388
我語取	-11.3389
隨轉理門	-11.3389
施波羅蜜多	-11.3391
阿毘曇	-11.3392
充滿	-11.3393
客塵	-11.3393
八地以上	-11.3394
最為殊勝	-11.3395
嫌	-11.3396
為成	-11.3397
略無	-11.3397
三千大千世界	-11.3397
恒審思量	-11.3398
可許	-11.3399
截	-11.3402
色像	-11.3405
共依	-11.3406
兩釋	-11.3407
亦變	-11.3407
不護	-11.3409
天趣	-11.3409
色及	-11.3411
而巳	-11.3412
大慧	-11.3413
本母	-11.3413
無本質	-11.3414
諸心心法	-11.3414
若汝	-11.342
真空	-11.3421
分別變	-11.3423
泰	-11.3423
實我法	-11.3423
大果	-11.3426
佛法身	-11.3428
遍計所執相	-11.3431
大文	-11.3431
經所說	-11.3432
破小乘	-11.3435
是名第一	-11.3436
生報	-11.3436
何以故以	-11.3438
非遍	-11.3439
入見	-11.3441
第八卷	-11.3443
用別	-11.3445
兩種	-11.3446
不動無為	-11.3447
本淨	-11.3447
智境	-11.3448
但據	-11.3449
亦未	-11.3449
無餘依涅槃界	-11.345
第一釋名	-11.345
好惡	-11.3451
有非有	-11.3452
於現	-11.3453
口業	-11.3453
從因生	-11.3454
彼界	-11.3458
在現在	-11.3462
增廣	-11.3463
為所緣境	-11.3464
二惑	-11.3465
空義	-11.3466
遍行別境	-11.347
雖通	-11.3471
憂受	-11.3471
三千	-11.3472
執實	-11.3473
相觀	-11.3478
自在力	-11.348
事等	-11.348
十一根	-11.3482
值	-11.3482
若入	-11.3482
不續	-11.3483
植	-11.3483
初義	-11.3486
名一切種	-11.3488
想蘊	-11.3489
與後	-11.3492
經典	-11.3492
重障	-11.3494
第三第四	-11.3494
外道等	-11.3494
求法	-11.3495
一辯	-11.3496
通三乘	-11.3496
用彼	-11.3497
染污法	-11.3497
內緣	-11.3498
是名略說	-11.3498
除佛	-11.3498
果俱有	-11.3501
沈沒	-11.3501
戀	-11.3503
根依處	-11.3503
即是前	-11.3503
忍位	-11.3504
惛沈睡眠	-11.3505
此物	-11.3505
五十一心所	-11.3508
非徧行	-11.3509
諫	-11.3509
調善	-11.3511
後隨別釋	-11.3512
尺	-11.3513
飽	-11.3515
無缺	-11.3516
便應	-11.3516
五心所	-11.3516
與佛	-11.3518
心與心所	-11.3518
名無分別	-11.352
文分為二一明	-11.3521
非全	-11.3522
五十七	-11.3522
色香味觸	-11.3523
若佛	-11.3523
瑜伽處	-11.3524
同喻如	-11.3526
總說為	-11.3526
迷於	-11.3531
諸佛法身	-11.3535
苦集滅道	-11.3536
前加行	-11.354
求涅槃	-11.354
十明	-11.3541
從多	-11.3542
二文	-11.3543
願智	-11.3549
染淨心	-11.3549
聞持	-11.355
觀之	-11.3551
善惡等	-11.3553
無間生	-11.3554
待緣	-11.3554
如世尊說	-11.3555
發識	-11.3558
萬法	-11.356
所伏	-11.3562
識所緣	-11.3566
而實	-11.3567
雖斷	-11.3569
五由	-11.3571
修道位	-11.3574
一念中	-11.3576
隨何	-11.3576
四心	-11.3576
有兩釋	-11.3577
有前後	-11.3579
四神足	-11.3583
或在	-11.3583
平等故	-11.3584
文分三段一	-11.3584
頓漸	-11.3585
為最勝	-11.3586
入大乘	-11.3587
大種所造	-11.3588
種子名	-11.3589
大力	-11.3591
應知此中	-11.3597
不恒行	-11.3601
上之	-11.3605
佛語	-11.3606
上心	-11.3608
實我實法	-11.3609
無欲	-11.3611
緣三界	-11.3612
里	-11.3612
如火	-11.3613
雖依	-11.3614
諸度	-11.3616
修正行	-11.3617
中邊論	-11.3617
吾	-11.3618
輩	-11.3618
藤	-11.362
祠祀	-11.3621
無常故	-11.3621
學法	-11.3622
學勝利	-11.3622
充	-11.3622
中分三	-11.3622
渴	-11.3628
西國	-11.3628
審慮	-11.3629
所食	-11.363
若使	-11.3631
麻	-11.3631
烏	-11.3631
復更	-11.3632
本無今有	-11.3633
一標經句	-11.3633
苦滅	-11.3633
思現觀	-11.3636
初性	-11.3636
名句等	-11.3638
珍寶	-11.3639
破前	-11.3639
世事	-11.3639
張	-11.364
理也	-11.3644
或分為二	-11.3645
知根	-11.3645
例同	-11.3646
帝	-11.365
五根五塵	-11.3652
二念	-11.3654
唯是有漏	-11.3654
有十六	-11.3656
為解脫	-11.3657
隣次	-11.3659
餘根	-11.3663
由加行	-11.3666
第十卷	-11.3667
縛者	-11.3667
所安立	-11.3667
自在天	-11.3669
境生	-11.3669
亦不可	-11.3669
四無礙	-11.3669
往惡趣	-11.367
果性	-11.3671
能斷道	-11.3672
非空	-11.3672
中初一	-11.3673
如前廣說	-11.3673
有四義	-11.3674
議	-11.3679
名事	-11.368
無塵	-11.368
無漏有為	-11.3687
為同喻	-11.3688
第五卷	-11.3688
或不	-11.3689
雜修	-11.3689
隨轉門	-11.3689
於所觀境	-11.369
總解	-11.369
成種	-11.3691
作佛	-11.3691
各有二	-11.3692
違自宗	-11.3694
而入	-11.3694
有十八	-11.3695
淨天	-11.3696
獄卒	-11.3696
見慢	-11.3696
染分	-11.3696
攝藏	-11.3697
安樂住	-11.3698
穴	-11.3702
慢疑	-11.3706
滅心	-11.3707
一佛	-11.3708
不越	-11.3708
先舉	-11.3709
三別釋	-11.371
唯見所斷	-11.3711
五六	-11.3712
上二句	-11.3713
問前	-11.3717
不同前	-11.3718
諸惡趣	-11.3718
欲界煩惱	-11.3719
獄卒等	-11.3723
此果	-11.3728
違背	-11.3729
貌	-11.3731
香味觸	-11.3734
生愛	-11.3734
功能故	-11.3736
知義	-11.3736
翻為	-11.3737
漂	-11.3739
是思	-11.374
有何別	-11.374
村	-11.3742
修對治	-11.3742
有取	-11.3742
及自	-11.3742
唯捨受	-11.3742
素	-11.3742
名義如是	-11.3742
至教量	-11.3744
等行	-11.3744
懈	-11.3744
違損	-11.3745
無量種	-11.3746
語表	-11.3748
由此應知	-11.3749
是能緣	-11.3753
義不同	-11.3755
所入	-11.3756
從此無間	-11.3759
緣下	-11.3759
誑諂	-11.3762
章中	-11.3763
間起	-11.3763
初標列	-11.377
對彼	-11.377
第三時	-11.3771
窮盡	-11.3771
差別功能	-11.3771
所受用	-11.3775
而知	-11.3775
是佛說	-11.3777
能證得	-11.3777
俗智	-11.3778
諸比丘	-11.3779
未知根	-11.3781
後身	-11.3781
能永斷	-11.3781
餘位	-11.3782
非聖	-11.3784
則不如是	-11.3793
據勝	-11.3796
種子現行	-11.38
二解釋	-11.3802
性種	-11.3804
顯勝	-11.3804
明得	-11.3806
諸果	-11.3807
相違者	-11.3811
先觀	-11.3812
幾根	-11.3812
並皆	-11.3812
淨品	-11.3812
諸塵	-11.3814
諸愚夫	-11.3815
今更	-11.3816
十二緣	-11.3817
皆緣	-11.3819
為上首	-11.382
有覆性	-11.3821
分位建立	-11.3821
亦得說	-11.3825
諸緣	-11.3825
不動地	-11.3827
小乘宗	-11.3827
是真實	-11.3829
中般	-11.3829
起滅	-11.383
業中	-11.3832
文中分二一釋	-11.3833
無犯	-11.3841
邪正	-11.3841
入無餘涅槃	-11.3841
第八見分	-11.3843
異見	-11.3845
名不成	-11.3846
是故當知	-11.3846
立有	-11.3847
者不然	-11.385
磨	-11.3852
貫穿	-11.3854
俱句	-11.3856
法身故	-11.3856
如來說	-11.3856
穢污	-11.3857
更起	-11.3858
此偈明何義	-11.3858
所覆	-11.3858
次引證	-11.3858
則不爾	-11.3858
決斷	-11.3861
中第二	-11.3862
無生法忍	-11.3863
點	-11.3864
若遇	-11.3864
五乘	-11.3864
餘支	-11.3864
為建立	-11.3865
三摩呬多地	-11.3867
現證	-11.3868
後別釋	-11.387
俱不俱	-11.387
遊觀	-11.387
識等五支	-11.3871
總觀	-11.3872
看	-11.3873
維摩	-11.3873
意解	-11.3873
翻譯	-11.3874
云何名王	-11.3874
地經	-11.3874
小大	-11.3875
觀中	-11.3876
萬行	-11.3876
皆用	-11.3876
違害	-11.3877
隨其次第	-11.3878
何時	-11.3878
有無漏	-11.3879
得道	-11.3882
不生不滅	-11.3882
依附	-11.3885
諸善根	-11.3886
索	-11.3888
與見	-11.3889
彼於爾時	-11.3889
聽者	-11.389
若有眾生	-11.3892
起用	-11.3893
合故	-11.3895
說諸法	-11.3896
攝因	-11.3897
未曾有	-11.3897
體事	-11.3902
是唯識	-11.3905
氣力	-11.3907
我空	-11.391
離色	-11.3911
▁次明	-11.3911
非自	-11.3912
及後	-11.3913
為門	-11.3914
生空智	-11.3915
無漏觀	-11.3915
常相續	-11.3916
重故	-11.3917
法觀	-11.3918
於自身	-11.3921
正等覺	-11.3921
為識	-11.3921
手足	-11.3921
義如前說	-11.3923
攝屬	-11.3924
等業	-11.3924
其境	-11.3927
無我性	-11.3927
名體	-11.3934
邊無邊	-11.3935
非有故	-11.3935
惡因	-11.3937
分八	-11.3937
之樂	-11.3938
欲取	-11.3939
過惡	-11.3939
先徵	-11.3941
有增減	-11.3941
四顛倒	-11.3942
化他	-11.3942
生位	-11.3942
之餘	-11.3944
流類	-11.3945
更有餘	-11.3946
理通	-11.395
分段生死	-11.395
論又諸菩薩至	-11.3953
師長	-11.3954
歡	-11.3955
順樂受	-11.3957
定學	-11.3958
縛故	-11.3959
演曰二徵	-11.396
為煩惱	-11.3961
如是說	-11.3963
瑜伽等說	-11.3963
所不能	-11.3967
名利	-11.3968
得相應	-11.3969
緣他心	-11.3971
中唯有	-11.3971
諂曲	-11.3971
道共戒	-11.3971
生生	-11.3972
循	-11.3974
方便中	-11.3975
災橫	-11.3976
暢	-11.3976
生無想天	-11.3977
豈得	-11.3977
不迷	-11.3977
初中有二先	-11.3979
搆	-11.3979
文可知	-11.3979
草木	-11.398
初正明	-11.3981
評	-11.3982
羸	-11.3982
後二句	-11.3984
何以然者	-11.3985
竭	-11.3986
達師云	-11.3986
煩惱種	-11.3987
神通等	-11.3987
次論	-11.3988
異論	-11.3988
於一一	-11.3989
已成熟	-11.399
總為	-11.399
三心見道	-11.3991
外道執	-11.3992
新生	-11.3992
根本識	-11.3993
德句	-11.3995
持心	-11.3996
修成	-11.3997
濕生	-11.3999
界內	-11.4
下別釋	-11.4
初略	-11.4002
一支	-11.4002
滅除	-11.4003
互為因	-11.4003
亦有三種	-11.4004
八品	-11.4006
義說為	-11.4011
符	-11.4014
亦不可說	-11.4016
起惑	-11.4016
入唯識	-11.4018
善惡無記	-11.4024
沈掉	-11.4028
問何因緣故	-11.4028
退墮	-11.4031
正發	-11.4034
善慧	-11.4035
圓鏡	-11.4037
善取	-11.4038
有體法	-11.404
一分者	-11.404
無心地	-11.4041
色等諸法	-11.4042
故偏說之	-11.4049
業報	-11.4049
似義	-11.4053
若無下	-11.4054
出入	-11.4056
亦不得成	-11.4058
光明想	-11.4059
內六處	-11.406
是所依	-11.4061
欲為	-11.4062
與諸	-11.4063
自釋	-11.4063
十義	-11.4063
佛事	-11.4065
下三禪	-11.4067
十方世界	-11.4067
後義	-11.4068
正理師	-11.4071
先敘	-11.4076
十年	-11.4076
宿住	-11.4077
復有五種	-11.4079
本地分中	-11.408
以分	-11.408
見道煩惱	-11.4081
大智論	-11.4083
七十	-11.4083
漏俱	-11.4091
此位中	-11.4091
三界繫	-11.4092
此卷	-11.4093
薀	-11.4095
若餘	-11.4097
及緣	-11.4098
筆	-11.41
愁	-11.4101
身器	-11.4102
集論說	-11.4103
諸文	-11.4107
若他	-11.4107
他受用土	-11.4109
尤重	-11.4109
馳	-11.4109
卒爾	-11.4111
胎生	-11.4112
坑	-11.4112
三徵	-11.4113
補闕云	-11.4114
無形	-11.4115
違經	-11.4116
滿業	-11.4117
而未能	-11.4118
柱	-11.4118
等類	-11.4119
貪癡	-11.4119
善戒經	-11.4119
一切色	-11.412
得成就	-11.412
精進三根	-11.4122
欲邪行	-11.4125
無染污	-11.4125
不應有故	-11.4126
者所謂	-11.4126
極喜地	-11.4127
從無始來	-11.4128
令修	-11.4128
勸修	-11.413
信根	-11.413
大士	-11.4131
復次頌曰	-11.4134
變相	-11.4134
果義	-11.4137
之本	-11.4138
能得清淨	-11.4141
或多	-11.4141
散位	-11.4142
大梵	-11.4143
岸	-11.4144
新舊	-11.4145
三解脫	-11.4145
境體	-11.4147
答彼	-11.4147
遊觀無漏	-11.4148
身語二業	-11.4151
境名	-11.4152
識生時	-11.4155
薩婆多宗	-11.4155
如前解	-11.4158
所辨	-11.4161
多羅	-11.4161
十中	-11.4162
執心	-11.4162
從無始	-11.4163
無住處	-11.4166
如幻事等	-11.4166
若於是處	-11.4167
為緣故	-11.417
後約	-11.4171
以五識	-11.4173
果報識	-11.4173
身邊	-11.4174
圓滿者	-11.4174
翻對	-11.4175
亦知	-11.4177
第三云	-11.4177
三乘無學	-11.4178
真如相	-11.4179
內處	-11.418
性同	-11.4182
下乘	-11.4183
五俱	-11.4183
皆共	-11.4184
出體者	-11.4185
演曰五明	-11.4188
頓起	-11.419
又即此	-11.4191
四如實智	-11.4192
生疑	-11.4193
如阿羅漢	-11.4193
煗等	-11.4194
是身	-11.4194
於內外	-11.4195
滅因	-11.4195
異熟生心	-11.4197
勵	-11.4198
依教	-11.4199
死有	-11.4199
地論	-11.4201
以為喻	-11.4202
熏成種子	-11.4205
亦皆	-11.4206
無見	-11.4208
汝應	-11.4209
不生斷	-11.4211
非前	-11.4212
理必	-11.4212
修作	-11.4213
漸伏	-11.4214
心倒	-11.4215
依聲	-11.4217
是故名	-11.4219
或生	-11.422
所解	-11.4221
是第四	-11.4222
所防	-11.4222
倦	-11.4223
他性	-11.4224
略有二	-11.4225
有自性	-11.4226
超過一切	-11.4227
成就故	-11.4227
不究竟	-11.4228
三摩鉢底	-11.4229
生空觀	-11.4229
不引	-11.4229
包	-11.423
勝義無自性性	-11.4231
遍一切處	-11.4232
一色	-11.4234
今應	-11.4234
挾帶	-11.4235
快樂	-11.4235
所屬	-11.4235
枯	-11.4236
各有三	-11.4238
遊行	-11.4239
奴	-11.4239
惛昧	-11.4239
非一向	-11.424
怨敵	-11.4241
那洛迦	-11.4241
善果	-11.4244
倣	-11.4244
不盡理	-11.4244
逆次	-11.4246
不倒	-11.4246
天等	-11.4246
所對	-11.4246
豆	-11.4248
八相	-11.4249
但應	-11.4249
三蘊	-11.4253
怨家	-11.4256
陀羅尼門	-11.4256
歡喜地	-11.4257
促	-11.4257
所待	-11.4262
此二義	-11.4262
梁	-11.4262
似塵	-11.4264
鼻識	-11.4265
後破	-11.4267
樹下	-11.4267
多名	-11.4268
現報	-11.4269
支節	-11.427
永斷故	-11.427
五十四	-11.427
釋經	-11.4271
若有漏	-11.4272
凡夫二乘	-11.4272
我及我所	-11.4273
不犯者	-11.4274
無性攝論	-11.4275
從初地	-11.4275
繫心	-11.4276
行位	-11.4277
難思	-11.4277
疏云此	-11.4278
異也	-11.4279
還復	-11.428
何位	-11.4282
六位心所	-11.4283
釋文	-11.4289
相濫	-11.429
多念	-11.4291
廣前	-11.4291
有何所以	-11.4291
應為	-11.4293
為顯此	-11.4296
何也	-11.4296
五種相	-11.4298
勸他	-11.43
不敬	-11.43
故彼論云	-11.43
而不能	-11.43
能燒	-11.43
五無	-11.43
報心	-11.4303
此中所說	-11.4304
因起	-11.4304
用者	-11.4305
非勝	-11.4306
摽列	-11.4309
生起識	-11.431
五別境	-11.431
後更	-11.4314
立四	-11.4319
稱曰	-11.432
大論第十	-11.432
不可記	-11.4321
令無	-11.4322
為實有	-11.4322
第二解云	-11.4323
期願	-11.4323
順違	-11.4323
等物	-11.4324
世智	-11.4326
於巳	-11.4326
徧染心	-11.4328
且第一	-11.4329
異品	-11.4333
前三果	-11.4333
所執性	-11.4334
修道位中	-11.4335
二月	-11.4335
所依所緣	-11.4335
為真	-11.4337
自變	-11.4338
分出	-11.4338
㸦	-11.4338
不淨等	-11.4339
無明與	-11.4339
演曰三辯	-11.4342
相識	-11.4356
具說	-11.4359
爛	-11.436
如是展轉	-11.4361
床	-11.4362
句身	-11.4364
右	-11.4365
聽受	-11.4367
象馬	-11.4367
六七二識	-11.4368
能令心	-11.4368
垂	-11.4369
分六如論	-11.4369
緣五塵	-11.4369
無數大劫	-11.4369
故唯識云	-11.437
無染心	-11.4371
心相續	-11.4371
別有自性	-11.4372
一切智智	-11.4375
斯陀含	-11.4377
至處道	-11.4377
真如名	-11.4378
愛非愛果	-11.4379
心受	-11.438
是本	-11.4381
此既	-11.4383
大功德	-11.4383
相順故	-11.4384
若唯有識	-11.4384
憂惱	-11.4385
道智	-11.4386
能緣之心	-11.4389
應撿	-11.439
思察	-11.4391
婬欲	-11.4397
六十六	-11.4397
無厭倦	-11.4398
雖具	-11.4398
謂諸有情	-11.4398
四門竟	-11.4401
伏滅	-11.4402
證果	-11.4402
念定慧	-11.4403
而非是	-11.4407
外處	-11.441
不云	-11.4413
此五種	-11.4414
能遮	-11.4419
蘊中	-11.442
細相	-11.4421
及見	-11.4423
諸阿羅漢	-11.4424
帶相	-11.4425
壞時	-11.4428
未說	-11.443
下忍	-11.4431
有一分	-11.4431
餘緣	-11.4433
名別	-11.4434
制多	-11.4435
事成	-11.4436
具二義	-11.4439
起信論	-11.4441
雖與	-11.4444
大覺	-11.4444
息滅	-11.4446
逈	-11.4446
修慈	-11.4448
如虗空	-11.4448
擾	-11.4449
別論	-11.4449
論宗	-11.445
二時	-11.445
或通	-11.4452
極果	-11.4453
於是處	-11.4458
常遍	-11.4459
後廣	-11.4462
一切種子識	-11.4462
緣一切法	-11.4462
威勢	-11.4462
前釋	-11.4465
𢙉	-11.4466
真如體	-11.4469
等種種	-11.4471
大王	-11.4471
有漏故	-11.4475
顯說	-11.4476
隨根	-11.4476
後有愛	-11.4476
滋	-11.4476
初中分二一	-11.4477
根本後得	-11.4478
講	-11.448
真事	-11.448
族姓	-11.4482
若先	-11.4484
攝樂作意	-11.4484
心散亂	-11.4485
忍智	-11.4485
滅巳	-11.4486
纂	-11.4487
安住其心	-11.4489
如是名王	-11.4491
哀	-11.4491
已知	-11.4493
泯	-11.4494
趣涅槃	-11.4496
無想等	-11.4499
非一非異	-11.4499
難斷	-11.4501
軟語	-11.4501
此世他世樂	-11.4502
思可知	-11.4503
所立不成	-11.4507
八門	-11.4507
諸聖弟子	-11.451
害伴	-11.4511
能詮名	-11.4512
皆屬	-11.4512
聖慧	-11.4513
無上乘	-11.4513
亦異	-11.4517
資糧道	-11.4517
可樂	-11.4517
法塵	-11.4517
不計	-11.4518
怨親	-11.4518
觸境	-11.4518
親種	-11.4519
世俗智種子	-11.4521
菩薩種性	-11.4522
攝義	-11.4523
解行住	-11.4524
第二能變	-11.4524
遮罪	-11.4524
八萬	-11.4524
所歸	-11.4525
入觀	-11.4525
如應	-11.4526
為定	-11.4527
應是無常	-11.4529
所潤	-11.453
十解	-11.4533
山河等	-11.4534
天王	-11.4534
佛道	-11.4536
斥前	-11.4537
資益	-11.4537
迴轉	-11.4538
總以	-11.4541
七轉識	-11.4542
不動行	-11.4545
一切所知	-11.4547
亂心	-11.4549
定起	-11.455
答依	-11.4551
第二門	-11.4552
寧有	-11.4552
斷也	-11.4552
此正	-11.4553
二顯果分二	-11.4553
在此	-11.4554
相資	-11.4555
日光	-11.4558
妙理	-11.4564
有尋有伺	-11.4566
緣第八	-11.4571
今為	-11.4572
種子義	-11.4573
不正義	-11.4577
未轉依	-11.4578
各各別	-11.4579
三彰	-11.4582
乃言	-11.4583
第七八識	-11.4583
了別境	-11.4585
謂貪	-11.4587
四煩惱	-11.4589
等用	-11.459
淨穢	-11.4591
體常	-11.4592
即屬	-11.4593
方處	-11.4593
此中顯示	-11.4596
名勝	-11.4597
謂於一切	-11.46
期心	-11.46
能相	-11.4604
論世尊至	-11.4605
三乘人	-11.4605
不散亂	-11.4607
妙善	-11.4607
盡壽	-11.4607
奇	-11.4608
義如前	-11.4608
二種俱	-11.4609
調暢	-11.461
决擇	-11.461
下論文	-11.4611
朽	-11.4611
唐捐	-11.4612
執為實	-11.4612
則不得	-11.4613
明非	-11.4613
為能熏	-11.4613
經句	-11.4614
威儀路	-11.4614
盡滅	-11.4614
中說偈	-11.4615
現等覺	-11.4615
一日	-11.4615
西域	-11.4617
胡	-11.4617
祇	-11.4618
嘗	-11.4618
非有想非無想	-11.4618
未名	-11.4619
不由功用	-11.4619
世親攝論	-11.462
隨境	-11.4621
柔和	-11.4621
餘文可知	-11.4621
弟	-11.4621
應不得成	-11.4625
擾亂	-11.4626
略舉	-11.4626
本文	-11.4627
常起	-11.463
由智	-11.463
不能斷	-11.463
劫中	-11.463
自所證	-11.4631
瑜伽第一	-11.4632
動作	-11.4633
流散	-11.4635
於此中	-11.4636
若住	-11.4636
是初	-11.4637
慳貪	-11.4637
千世界	-11.4637
是知	-11.4637
後以	-11.4638
得俱起	-11.4639
不別立	-11.4639
對法第一	-11.4639
此義不然	-11.464
等流心	-11.4641
先得	-11.4645
斷時	-11.4646
為問	-11.465
則不然	-11.4651
同世	-11.4655
同種	-11.4657
由轉	-11.4657
正翻	-11.4661
引論	-11.4662
非色心	-11.4663
品云	-11.4664
唯起	-11.4666
如是四種	-11.4667
果德	-11.467
不饒益	-11.4672
有恩	-11.4675
因果相	-11.4676
纏縛	-11.4678
邪定	-11.4679
入胎	-11.4681
恐彼	-11.4683
問答辨	-11.4683
此初也謂	-11.4684
立義	-11.4684
身也	-11.4684
五明處	-11.4684
發光	-11.4687
一師	-11.4689
十五種	-11.469
羅漢果	-11.4695
是徧行	-11.4701
正取	-11.4701
能聞	-11.4702
救言	-11.4704
依識變	-11.4705
出世智	-11.4705
一向是	-11.4706
於三界中	-11.4708
老死支	-11.4708
而彼	-11.4711
有色界	-11.4713
二空所顯	-11.4717
一大	-11.4718
所知境界	-11.4719
和雜	-11.472
正了知	-11.4723
人我	-11.4725
趣求	-11.4725
簡去	-11.4725
惣結之	-11.4728
無量無數	-11.4728
所云	-11.4728
入息出息	-11.473
離質	-11.4732
之下	-11.4733
初以	-11.4737
所作者	-11.4738
亦得有	-11.4739
不應言	-11.474
此二法	-11.474
等者意說	-11.4741
五塵境	-11.4742
齊等	-11.4742
險	-11.4743
朝	-11.4744
嗢拕南	-11.4745
之德	-11.4746
此世	-11.4747
此復三種	-11.4747
未成熟	-11.4748
產	-11.4748
扇	-11.4748
隱覆	-11.4749
衣鉢	-11.475
忿恨	-11.475
暖	-11.4751
有漏善法	-11.4752
謂有國王	-11.4752
盧	-11.4752
扶	-11.4753
男女二根	-11.4754
吹	-11.4754
語聲	-11.4754
要先	-11.4754
毀謗	-11.4755
齋	-11.4756
何不許	-11.4757
範	-11.4757
溫	-11.4757
智等	-11.4758
法同分	-11.4759
而行布施	-11.4759
前二句	-11.476
三無漏	-11.4761
解說	-11.4761
能詮所詮	-11.4761
化現	-11.4762
授與	-11.4762
二趣	-11.4763
決定故	-11.4763
復依	-11.4763
能成辦	-11.4763
佛地論云	-11.4766
諸德	-11.4767
本法	-11.4767
知一切	-11.4767
常行	-11.4768
結云	-11.4768
婦	-11.4769
相分是	-11.477
四根	-11.4771
微隱	-11.4771
緣諦	-11.4775
不殊	-11.4777
招感	-11.478
至究竟	-11.478
開解	-11.4781
不能見	-11.4782
三性門	-11.4785
依世俗	-11.4787
阿含經	-11.4788
彼所依	-11.4788
親迷	-11.4791
能潤	-11.4791
觸對	-11.4791
輪迴	-11.4792
愛恚	-11.4792
究竟現觀	-11.4793
心不相應行	-11.4795
異生性障	-11.4796
第十地菩薩	-11.4797
實無有	-11.4798
復有二	-11.4798
妄生	-11.4799
卷第三	-11.48
因果俱	-11.4801
真中	-11.4801
勝生	-11.4802
與二乘	-11.4803
不自在故	-11.4805
不了義經	-11.4806
應時	-11.4806
舉例	-11.4807
捨相	-11.481
愛果	-11.4811
不作意	-11.4811
二十種	-11.4812
正量	-11.4814
既與	-11.4816
善等三性	-11.4816
文中有	-11.4818
結示	-11.482
所趣	-11.482
具足住	-11.4821
闕一	-11.4822
亦兼	-11.4825
或言	-11.4826
受苦樂	-11.4827
自害	-11.4829
因緣生	-11.483
壽盡	-11.4831
若大乘中	-11.4831
無足	-11.4832
是癡分	-11.4834
稱為	-11.4835
滅心定	-11.4835
已捨	-11.4836
二差別	-11.4837
同一處	-11.4837
無輕安	-11.4838
巳伏	-11.484
別脫	-11.484
如日	-11.4842
七十八	-11.4842
相攝門	-11.4842
故不與	-11.4842
還淨	-11.4843
今此論	-11.4844
有漏道	-11.4846
分別俱生	-11.4847
增上生	-11.4847
恒轉	-11.4847
俱滅	-11.4851
舒	-11.4852
各分	-11.4854
勤修習	-11.4854
非現量	-11.4854
不能熏	-11.4855
種種想	-11.4855
意識中	-11.4859
而發	-11.4859
苦下	-11.4859
五識種	-11.486
能量	-11.4866
我見等	-11.4866
通慧	-11.4866
無種姓	-11.4867
名空	-11.487
離喜	-11.4871
通無記	-11.4874
親依	-11.4875
治道	-11.4875
闡	-11.4877
不死矯亂	-11.4878
細者	-11.4879
何要	-11.488
往生	-11.488
有三解	-11.488
乍	-11.488
治罰	-11.4881
轉捨	-11.4882
五性	-11.4883
純無漏	-11.4883
已能	-11.4884
樞要云	-11.4885
可得者	-11.4885
何以知	-11.4886
如龍樹	-11.4887
成劫	-11.4888
斷諸	-11.4888
入現觀	-11.4888
禮拜	-11.4891
順逆	-11.4892
斫	-11.4892
已復	-11.4894
涅槃者	-11.4894
七方便	-11.4895
故論說言	-11.4897
即自	-11.4898
重言	-11.4898
法藏	-11.4899
隨其所欲	-11.49
以證	-11.49
無尋	-11.49
未轉	-11.4901
互用	-11.4904
故作是說	-11.4904
圓證	-11.4906
一趣	-11.4913
護法師	-11.4913
見道已前	-11.4915
三惡道	-11.4916
五十	-11.4916
如理應知	-11.4916
戒行	-11.4917
如次應知	-11.4918
第三總結	-11.4921
障定	-11.4922
略有三	-11.4923
類忍	-11.4924
所熏習	-11.4925
三解釋分	-11.4929
起邪行	-11.4934
將死	-11.4934
演曰後結	-11.4937
除斷	-11.494
大空	-11.494
名是何	-11.4941
過去未來現在	-11.4942
者約	-11.4944
雖緣	-11.4944
慼	-11.4946
卷第四	-11.4948
業所招	-11.4949
正答	-11.4951
自生	-11.4952
畫	-11.4952
教行	-11.4952
現量境	-11.4954
已證得	-11.4954
寧知	-11.4955
別境中	-11.4958
以欲界	-11.4959
少欲	-11.496
通釋	-11.4961
各三	-11.4962
皆不離	-11.4963
六現觀	-11.4964
無忘失	-11.4967
意言境	-11.4969
受用故	-11.497
染淨依	-11.497
不愚	-11.4971
增明	-11.4974
留身	-11.4975
下之	-11.4976
真金	-11.4977
諸雜染	-11.4978
事邊際	-11.4978
初禪中	-11.4978
行緣識	-11.4979
舌識	-11.498
憙	-11.4981
八正	-11.4983
後剎那	-11.4986
牒上	-11.4994
相當	-11.4996
已盡	-11.4997
綱	-11.4998
性自	-11.4998
而般涅槃	-11.4999
俱生者	-11.5
五受相應	-11.5001
起信	-11.5001
能助	-11.5004
電	-11.5005
則名	-11.5006
斷三界	-11.5007
於時時間	-11.5007
處定	-11.5009
誰言	-11.5009
教中	-11.5009
此文意	-11.5009
按彼論云	-11.5009
眾德	-11.501
迫	-11.5013
所有功德	-11.5013
抑	-11.5014
同處不相離	-11.5014
略而不說	-11.5015
如應當知	-11.5016
臭	-11.5016
聰叡	-11.5017
無明緣行	-11.5018
著我	-11.502
答雖	-11.5021
漂溺	-11.5021
不即不離	-11.5021
滋長	-11.5021
洗	-11.5022
嬰兒	-11.5023
有心位	-11.5024
身邊見	-11.5026
或時起	-11.5026
猶起	-11.5028
名淨	-11.5028
雖在	-11.5029
訛	-11.5029
勝軍	-11.5029
嗔恚	-11.503
化生有情	-11.5031
過慢	-11.5031
彼境	-11.5032
某甲	-11.5032
窟	-11.5033
意同	-11.5036
文說	-11.5041
何獨	-11.5041
軌持	-11.5042
此十煩惱	-11.5043
冷觸	-11.5043
見道位	-11.5044
第三地	-11.5044
已熟	-11.5044
勝意樂	-11.5044
護法菩薩	-11.5045
初難	-11.5047
轉變故	-11.5047
文略	-11.5048
言簡	-11.5051
乞求	-11.5051
等四種	-11.5052
句者	-11.5053
大自在天	-11.5054
可依	-11.5054
演曰第二	-11.5055
七釋	-11.5058
倍增	-11.5059
如涅槃	-11.5062
方顯	-11.5062
諸字	-11.5062
唯內	-11.5062
雖皆	-11.5063
來求	-11.5064
教誨	-11.5064
所覺	-11.5065
以此為	-11.5065
依現	-11.5067
力強	-11.5067
二觀	-11.5067
四識住	-11.5069
隨法行	-11.507
無想定等	-11.5072
亦從	-11.5074
問答分別	-11.5074
第二段	-11.5074
不爾如何	-11.5074
若爾即	-11.5075
有諍	-11.5076
八地已去	-11.5078
語行	-11.5078
大自在	-11.5079
摩訶	-11.5081
作四句	-11.5082
四無礙解	-11.5083
欲色	-11.5084
今當說	-11.5084
惡事	-11.5087
演曰後別	-11.5088
心學	-11.5089
轉滅	-11.5091
非梵行	-11.5092
後位	-11.5093
卑慢	-11.5094
邪解	-11.5095
一段	-11.5097
智為體	-11.5098
二禪巳上	-11.5099
初學	-11.5099
用增	-11.5099
但見	-11.5103
後識	-11.5104
斷已	-11.5104
不相應法	-11.5105
得聖	-11.5106
如瑜伽論	-11.5106
極淨	-11.5107
各隨	-11.5108
遍染	-11.5108
依斯	-11.5108
出家者	-11.5109
火燒	-11.511
所建立	-11.5111
卵	-11.5111
非見	-11.5112
空寂	-11.5112
雖別	-11.5113
上首	-11.5115
不能起	-11.5117
五識無	-11.5118
計云	-11.5119
聖教中	-11.5123
▁次破	-11.5125
等三法	-11.5125
本有種	-11.5126
定異因	-11.5127
生彼天	-11.5127
名為苦	-11.5127
往善趣	-11.5132
念佛	-11.5133
破分二	-11.5133
外質	-11.5134
後句	-11.5135
修習者	-11.5136
九心	-11.5136
六中	-11.5136
畢竟不生	-11.5137
為正因	-11.5138
遠行地	-11.514
得淨	-11.5141
分位假立	-11.5141
所生起	-11.5143
有斯	-11.5144
如是下	-11.5146
定非實有	-11.5146
與此同	-11.5149
悕	-11.515
非智	-11.515
不為說	-11.5151
聞等	-11.5151
復有別	-11.5152
識起	-11.5153
之中有	-11.5154
欲天	-11.5154
妬	-11.5155
圍	-11.5156
本來寂靜	-11.5157
真實義愚	-11.5157
敗	-11.5158
堂	-11.5158
諸有情故	-11.516
應當了知	-11.516
亦非實有	-11.516
先解	-11.516
大自在宮	-11.5161
智人	-11.5161
壁	-11.5161
如別章	-11.5164
此前	-11.5165
不分	-11.5165
釋頌意	-11.5167
翻彼	-11.5167
陰界入	-11.517
經意	-11.5171
以是因緣	-11.5171
應作四句	-11.5172
第二地	-11.5177
謂要	-11.5178
因所生	-11.5179
餘色	-11.518
直往	-11.518
通不善	-11.518
乃能	-11.5181
皆不得成	-11.5181
聞所成	-11.5182
諸所	-11.5183
所知障種	-11.5185
染無記	-11.5186
捨彼	-11.5187
欲勝解	-11.5188
一類相續	-11.5191
復引	-11.5195
五人	-11.5196
知之	-11.5198
又約	-11.5198
貪行	-11.5199
凡有	-11.52
捨戒	-11.52
種立	-11.5201
此第七識	-11.5201
不同也	-11.5201
禪支	-11.5203
隨時	-11.5204
今此中	-11.5205
釋第三句	-11.5205
去來今	-11.5206
名喜	-11.5206
第九卷	-11.5207
大者	-11.5208
十波羅蜜	-11.5208
配之	-11.5208
餘惑	-11.5212
五受根	-11.5213
於十地中	-11.5215
宗也	-11.5221
定屬	-11.5221
出世間道	-11.5223
無漏緣	-11.5224
徵起	-11.5224
可了知	-11.5225
非人	-11.5227
亂識	-11.5231
眾會	-11.5236
無色無	-11.5236
威儀等	-11.5237
差別中	-11.5237
鬘	-11.5239
見已	-11.5239
上三句	-11.524
於三寶	-11.524
瑜伽第三	-11.5243
如是三種	-11.5246
以真如	-11.5246
財利	-11.5247
正生	-11.525
一切境界	-11.5252
隨識	-11.5253
有漏者	-11.5254
因果性	-11.5254
安穩	-11.5254
別解脫律儀	-11.5254
多剎那	-11.5255
自在菩薩	-11.5256
無我故	-11.5257
相扶	-11.5257
根攝	-11.5258
作功用	-11.526
諸蓋	-11.5262
而後	-11.5264
應信	-11.5265
非染污	-11.5265
多起	-11.5265
無覺	-11.5266
或分為三	-11.5267
罪人	-11.5267
有所作	-11.5267
菩薩以	-11.5271
正證	-11.5273
行迹	-11.5274
教他	-11.5275
灾	-11.5276
種子體	-11.5276
何等為二	-11.5276
不相障礙	-11.5277
由此智	-11.5279
如夢中	-11.528
雖殊	-11.528
明略義	-11.5281
善處	-11.5281
珍	-11.5282
波若	-11.5283
照了	-11.5284
不疑	-11.5284
無相住	-11.5285
善巧方便	-11.5285
欲色二界	-11.5287
以慧	-11.5289
飜	-11.5289
沙門若婆羅門	-11.5289
或隨	-11.529
加行究竟作意	-11.529
蒙	-11.529
執我我所	-11.5291
尅	-11.5292
正業	-11.5292
是常住	-11.5293
現可得	-11.5294
亦不說	-11.5294
眾名	-11.5294
混	-11.5294
興盛	-11.5295
有犯	-11.5296
悋	-11.5297
閻浮提	-11.5299
嗅	-11.5299
泥洹	-11.53
遍計執	-11.53
阿羅耶識	-11.5301
樓	-11.5305
本有種子	-11.5306
得非得	-11.5307
於欲界中	-11.5312
獨影境	-11.5312
是貪分	-11.5313
衣服等	-11.5315
不安隱	-11.5316
義應知	-11.5316
非親	-11.5318
有色無色	-11.5318
生住滅	-11.5319
分分	-11.5319
業習氣	-11.532
九十三	-11.532
斷欲	-11.5322
有財釋	-11.5325
建立者	-11.5325
初地巳上	-11.5328
相狀如何	-11.5329
前第一	-11.533
長短等	-11.5331
諸法皆	-11.5331
警	-11.5332
無漏根	-11.5332
應知即是	-11.5332
依耽嗜	-11.5339
皆然	-11.5341
不離識故	-11.5342
無分別慧	-11.5342
增一	-11.5342
所生得	-11.5346
清淨智	-11.5347
法花	-11.5347
慈恩	-11.5347
如是二種	-11.5349
亦約	-11.5349
相續而轉	-11.5349
離散	-11.535
具不具	-11.535
所有善法	-11.535
牽引生起	-11.5352
計度分別	-11.5352
之想	-11.5358
若汝說	-11.5358
實無所有	-11.5359
眾生心	-11.536
愛念	-11.536
來至	-11.5361
一卷	-11.5362
善順	-11.5363
今顯	-11.5365
第九地	-11.5366
常故	-11.5371
五淨居	-11.5372
約此	-11.5376
淨修	-11.5379
此雖	-11.538
牒釋	-11.5382
本性住	-11.5383
未至定中	-11.5385
唯是一	-11.5388
總攝一切	-11.5389
此慧	-11.5391
三辨	-11.5392
退者	-11.5394
鏡中	-11.5395
不信等	-11.5395
自下第四	-11.5397
顯發	-11.5397
故得有	-11.5397
正修行	-11.5398
亦不應	-11.54
隨機	-11.54
五度	-11.5401
心外境	-11.5401
唯用	-11.5403
不思	-11.5406
身起	-11.5407
皆不成	-11.5407
似我法	-11.541
類同故	-11.541
青瘀等	-11.541
尓	-11.5413
道斷	-11.5415
時捨	-11.5416
無學人	-11.5416
勢速	-11.5416
復有四	-11.5417
亦無違	-11.5419
平等性故	-11.5419
要待	-11.5422
何容	-11.5425
應正	-11.5426
骨鎖	-11.5427
所礙	-11.5428
死後有想	-11.5428
之苦	-11.543
聲體	-11.5432
波浪	-11.5432
矯亂	-11.5433
是信	-11.5434
甘露	-11.5434
入滅盡定	-11.5434
善護	-11.5434
官	-11.5436
淵	-11.5438
敷	-11.5439
次對	-11.5441
流蕩	-11.5442
此覺	-11.5442
眼處	-11.5443
顯揚等	-11.5443
役	-11.5445
誰能	-11.5446
無限	-11.5448
第四云	-11.5449
性別	-11.5449
能出	-11.545
然說	-11.545
不容	-11.5451
離增上慢	-11.5452
各二	-11.5452
無相故	-11.5453
眼所見	-11.5454
此八	-11.5454
明闇	-11.5455
惑盡	-11.5457
▁三結	-11.5457
因果故	-11.5458
三大	-11.5458
住劫	-11.546
以有漏	-11.5461
現無	-11.5462
梵世	-11.5464
空三昧	-11.5465
定成	-11.5465
釋第四句	-11.5466
相近	-11.547
彰其	-11.5473
由二種	-11.5473
卷第二	-11.5473
就行	-11.5474
思食	-11.5475
變帶	-11.5476
一重	-11.5477
修道惑	-11.5479
中景云	-11.5481
攝大乘云	-11.5482
依彼轉	-11.5483
獨一	-11.5483
苦相	-11.5484
有漏種子	-11.5488
觸生	-11.5489
有種	-11.5489
所緣緣義	-11.5489
有似	-11.5492
獨覺乘	-11.5493
楞伽云	-11.5493
八地以去	-11.5493
釋中有四	-11.5496
等四法	-11.5497
聞思修慧	-11.5502
無益	-11.5502
寬通	-11.5503
得擇滅	-11.5504
四人	-11.5504
如來智	-11.5505
相異	-11.5505
令不生	-11.5505
取性	-11.5507
三就	-11.5508
此文即是	-11.551
前三種	-11.5511
決擇分善	-11.5511
六無為	-11.5513
有情世間	-11.5513
離欲界欲	-11.5515
悉名	-11.5516
將為	-11.5517
涅槃經云	-11.5519
第二門中	-11.5519
以何為體	-11.5521
別觀	-11.5521
任運分別	-11.5525
大神通	-11.5526
有十一種	-11.5526
即由如是	-11.5526
若諸有情	-11.5526
為教體	-11.5526
唯望	-11.5529
緣色等	-11.5529
心心所滅	-11.553
一切法中	-11.5532
證自證	-11.5532
似於	-11.5534
五緣	-11.5536
廣如彼	-11.5536
並無	-11.5538
悉能	-11.5538
識自體	-11.5543
如鏡	-11.5544
多說	-11.5545
𠛴那	-11.5548
心清淨	-11.5548
復有餘	-11.555
廣說應知	-11.555
諸無為	-11.5552
重明	-11.5552
等時	-11.5554
惡趣業	-11.5555
攝論等	-11.5555
空界	-11.5555
今此文中	-11.5557
往彼	-11.556
知一切法	-11.5561
修觀	-11.5563
種類故	-11.5566
此世他世	-11.5567
剋	-11.5567
斷見惑	-11.5567
擇滅攝	-11.5568
廣慧	-11.5569
意生	-11.557
證實	-11.5571
初中分二初	-11.5571
榮	-11.5572
滅定中	-11.5572
陽	-11.5574
欺	-11.5575
引喻	-11.5576
訶責	-11.5578
無厭足	-11.5578
略也	-11.5578
彼類	-11.5579
無恚	-11.558
可愛樂	-11.558
稱之為	-11.5581
窮未來際	-11.5582
便能永斷	-11.5583
四天下	-11.5584
杌	-11.5584
青瘀	-11.5584
是染污	-11.5584
三分別	-11.5586
今於此中	-11.5587
於中先	-11.5587
北洲	-11.5587
夏	-11.5588
真實功德	-11.5589
名果	-11.5589
故地持云	-11.5591
下別顯之	-11.5592
業種子	-11.5593
內門	-11.5594
先牒	-11.5594
漸悟菩薩	-11.5594
正觀察	-11.5597
勝利分二	-11.5599
分別心	-11.5599
不能動	-11.5599
妙欲	-11.56
二世樂	-11.5601
相形	-11.5604
此即第一	-11.5604
隨入	-11.5604
五識相應	-11.5606
佛菩提	-11.5608
佛乘	-11.5608
聚義	-11.561
得知	-11.561
若不爾	-11.5611
辟支	-11.5613
世間智	-11.5616
計為我	-11.5619
不齊	-11.5619
釋第二句	-11.5621
別配	-11.5622
待因	-11.5622
巧方便	-11.5625
三善根	-11.5626
和合相	-11.5626
現法涅槃	-11.5627
所餘諸	-11.5627
何性	-11.5628
緣理	-11.5628
是假非實	-11.5629
習氣依處	-11.563
剎帝利	-11.563
緣生法	-11.5635
亦即	-11.5638
四別釋	-11.5639
順世	-11.5639
智殊勝	-11.5645
文有三	-11.5645
聲性	-11.5646
謂佛菩薩	-11.565
不受熏	-11.565
圓成實相	-11.5651
三性分別	-11.5654
徧計性	-11.5654
鼻舌身三	-11.5658
八戒	-11.5658
現受	-11.5664
無量劫	-11.5665
顯非	-11.5665
情非情	-11.5666
為假	-11.5669
而今	-11.567
何必	-11.5672
相攝者	-11.5673
唯現量	-11.5674
手等	-11.5674
身及	-11.5674
三道	-11.5676
六種波羅蜜多	-11.5678
唯明	-11.5678
論其	-11.5679
如理思	-11.5679
復次於	-11.5679
七八識	-11.568
因時	-11.5682
未來法	-11.5682
初中二	-11.5683
為上	-11.5685
相宗	-11.5685
家之	-11.5686
相翻	-11.5686
二各二	-11.5687
此等皆	-11.5688
於諸諦	-11.5689
苦報	-11.569
後十	-11.569
卷說	-11.5691
三答	-11.5692
菩薩道	-11.5693
更互為因	-11.5696
云何得知	-11.5698
此復有二	-11.5699
初中有三一	-11.57
名為善	-11.57
卷中	-11.57
成就如是	-11.5701
陀羅	-11.5701
如金	-11.5704
一見	-11.5707
其第七識	-11.5708
有二十	-11.571
照境	-11.5711
渡	-11.5713
耳鼻舌身	-11.5716
螺	-11.5716
修習力	-11.5717
止舉捨	-11.5717
歸禮	-11.5718
諸如是等	-11.5719
淳	-11.5719
行施等	-11.572
糅	-11.5721
無明望行	-11.5722
如何得有	-11.5723
驅	-11.5724
團	-11.5725
累	-11.5726
總以標舉	-11.5726
昧略	-11.5726
受所引色	-11.5727
潔	-11.5728
得轉依	-11.5728
毫	-11.5729
枝	-11.5731
耐	-11.5732
亦違	-11.5732
三無為	-11.5732
第十六	-11.5733
真見道中	-11.5733
從他聞	-11.5734
舍宅	-11.5734
屠	-11.5736
二苦	-11.5736
一極微	-11.5737
此有二種	-11.5737
未伏	-11.5737
非有漏	-11.5738
諸法體	-11.5738
如經廣說	-11.5739
卷第五	-11.5739
瞋癡	-11.574
似法	-11.574
無加行	-11.5745
於此處	-11.5746
取所緣	-11.5747
若汝言	-11.5748
得無分別智	-11.5749
二列	-11.575
未圓滿	-11.5751
未定	-11.5751
第二果	-11.5752
復有一類	-11.5754
彼經中	-11.5756
隨類	-11.5756
清淨色	-11.5757
無人	-11.5758
所簡	-11.5758
訓	-11.5759
自性空	-11.576
而言之	-11.5761
如理思惟	-11.5761
男女根	-11.5762
戒體	-11.5762
檀波羅蜜	-11.5763
當知一切	-11.5763
自種子	-11.5765
明了意識	-11.5769
近遠	-11.5772
迷悟	-11.5775
六波羅蜜多	-11.5775
生老病死	-11.5776
初正破	-11.5777
四部	-11.578
憂俱	-11.5781
思准	-11.5783
三不善根	-11.5784
小生	-11.5785
取像	-11.5786
諸菩薩等	-11.5787
轉智	-11.5788
世俗勝義	-11.5788
彼約	-11.5788
釋中有三	-11.5789
入無餘依	-11.5791
非報	-11.5791
厭逆	-11.5793
有心定	-11.5795
來求者	-11.5796
助力	-11.5798
能受熏	-11.5798
假使	-11.5799
思種	-11.5799
欲生	-11.58
及法	-11.5801
容俱	-11.5804
由慧	-11.5805
以外	-11.5806
之所依止	-11.5807
合前	-11.5808
依他起攝	-11.581
因能變	-11.5811
二十二法	-11.5812
唯聖	-11.5813
威儀心	-11.5817
九句	-11.5818
轉生	-11.5818
速得	-11.5819
略解	-11.5819
恥	-11.5821
若立	-11.5821
麤顯	-11.5823
第七末那	-11.5826
東西	-11.5827
自巳	-11.5828
於樂	-11.5832
有爾所	-11.5835
二正釋	-11.5839
天眼耳	-11.5841
更立	-11.5841
諸法差別	-11.5843
復應	-11.5844
修戒	-11.5846
作意等	-11.5846
業異熟	-11.5848
住法	-11.585
自我	-11.5851
碍	-11.5851
互相違	-11.5852
不減	-11.5853
當知亦尒	-11.5853
種體	-11.5854
實用	-11.5854
者意云如	-11.5857
因依處	-11.5858
文顯可知	-11.5858
轉依位	-11.586
慕	-11.586
安心	-11.5862
唯就	-11.5862
個	-11.5864
如俱舍	-11.5866
九結	-11.5866
思之可知	-11.5867
便作是念	-11.5867
無質	-11.5867
自他身	-11.587
今破	-11.5871
所出	-11.5872
等三種	-11.5873
略辨	-11.5874
歌	-11.5874
同名	-11.5875
攝餘	-11.5876
非一切時	-11.5877
昇進	-11.5877
俱能	-11.5877
煩惱及隨煩惱	-11.5878
七心界	-11.5878
愛敬	-11.588
隨分	-11.5882
結縛	-11.5885
以慧為體	-11.5886
為究竟	-11.5887
此中問意	-11.5887
善心所	-11.5888
清淨道	-11.5888
唯應	-11.5888
福分善	-11.5888
十二有支	-11.5889
樂淨	-11.589
於此門中	-11.589
體類	-11.589
少時	-11.5891
觸所生受	-11.5891
僧佉	-11.5896
無作用故	-11.59
若薩婆多	-11.59
兩頭	-11.59
若其	-11.5901
明勝利	-11.5906
依處中	-11.5907
遍善心	-11.591
故瑜伽云	-11.591
上定	-11.591
資糧加行	-11.5911
古師	-11.5911
如兔角等	-11.5917
若具	-11.592
定名	-11.5922
常委	-11.5923
作此說	-11.5927
成實說	-11.5927
明也	-11.5929
不破	-11.593
何故唯	-11.5933
冥性	-11.5933
舊論云	-11.5934
果差別	-11.5936
得解脫故	-11.5937
假故	-11.5937
四十九	-11.5938
復次菩薩	-11.5938
所緣相分	-11.5941
發行	-11.5942
無為等	-11.5944
佛弟子	-11.5944
無惑	-11.5946
種種異	-11.5948
謂第八識	-11.595
返顯	-11.595
文雖	-11.5951
準此	-11.5951
我癡	-11.5952
觀外色	-11.5955
驚怖	-11.5957
無心所	-11.5957
應供	-11.5959
意行	-11.5959
除障	-11.5959
神通力	-11.5959
純淨	-11.5959
劣無漏	-11.596
永不行	-11.5961
無我見	-11.5961
顯揚論說	-11.5964
色等境	-11.5968
故置	-11.5969
勝也	-11.597
內淨	-11.5974
初文分	-11.5974
於正法	-11.5975
文分為四一	-11.5975
卒	-11.5977
帶質境	-11.5978
妙觀	-11.598
心得解脫	-11.5984
定前	-11.5984
必不生	-11.5984
根熟	-11.5987
第七明	-11.5987
文分三分	-11.5988
十三住	-11.5992
常義	-11.5992
令眾生	-11.5993
解脫道中	-11.5993
遍淨	-11.5993
七十二	-11.5993
二縛	-11.5995
大慈	-11.5998
工	-11.5999
斷絕	-11.6002
對法第二	-11.6002
之異名	-11.6005
其文	-11.6006
勤求	-11.601
慶慰	-11.6011
分別意識	-11.6012
異界	-11.6012
一辨	-11.6013
三菩提	-11.6014
捨心	-11.6016
有一人	-11.6016
戾	-11.6017
安足處	-11.6017
色類	-11.6017
初時	-11.6018
犢子部	-11.6023
被損	-11.6023
不決	-11.6023
從自	-11.6023
由三種相	-11.6023
恣	-11.6024
初發	-11.6024
與第八識	-11.6024
玅	-11.6025
自解	-11.6025
拏	-11.6025
紛	-11.6026
不具足	-11.6026
宿世	-11.603
音義此	-11.6032
所計我	-11.6032
仁王	-11.6032
恒住	-11.6034
不饒益事	-11.6034
必俱	-11.6034
菩薩見道	-11.6035
眼等轉識	-11.6036
正死	-11.6036
初中分	-11.6037
普照	-11.6037
得大菩提	-11.6037
色無色繫	-11.6041
彰名	-11.6042
諸智	-11.6044
亦有亦無	-11.6045
善根力	-11.6046
成所作	-11.6046
無因生	-11.6047
緣外	-11.6047
知他心	-11.6047
盡諸漏	-11.6048
一一別	-11.6048
殺生等	-11.6049
是欲界	-11.605
未自在	-11.605
皆起	-11.6051
如何通	-11.6054
應別有	-11.6058
引瑜伽	-11.6061
如此等	-11.6062
於一切眾生	-11.6062
為體故	-11.6063
於修道中	-11.6068
文有二	-11.6069
現化	-11.607
寧不	-11.607
至所有	-11.6071
所攝受故	-11.6071
不忘失	-11.6075
相分種	-11.6076
入定時	-11.6076
麥等	-11.6082
斷諸煩惱	-11.6086
行為緣	-11.6087
不共法	-11.6089
極遠	-11.609
五十五說	-11.6093
定當	-11.6096
故不立	-11.6097
諸煩惱故	-11.6103
辨之	-11.6108
開發	-11.6109
他界	-11.6109
兼取	-11.611
汝若	-11.6111
受用境界	-11.6113
心種	-11.6113
彼論中	-11.6115
二三四	-11.6115
三住	-11.6118
於諸行	-11.6118
名無心	-11.6119
分取	-11.6126
聲聞人	-11.6127
滿故	-11.6127
初業	-11.6128
四緣中	-11.613
百五十	-11.613
異熟者	-11.6133
所思	-11.6133
佛果位	-11.6135
於中有四	-11.6136
2	-11.6138
言辭	-11.6138
此空	-11.6138
變他	-11.614
觀諦	-11.6142
經論中	-11.6146
前引	-11.6148
自性清淨心	-11.6148
心之所	-11.6149
薄伽梵說	-11.615
大菩薩	-11.6151
住相	-11.6151
邪見等	-11.6152
一思	-11.6152
相似法	-11.6156
三災	-11.6158
分之為二	-11.6159
書寫	-11.6161
十八界中	-11.6162
異色心等	-11.6162
製	-11.6163
與上相違	-11.6163
八支聖道	-11.6164
賴	-11.6164
救濟	-11.6165
所居	-11.6165
六方	-11.6166
初之二	-11.6166
無相界	-11.6167
驅擯	-11.6168
二所依	-11.6168
一切種妙智	-11.6168
忻	-11.617
黑闇	-11.6171
嫌恨	-11.6171
文中有二一	-11.6172
美妙	-11.6172
皆不可得	-11.6173
我今當說	-11.6174
乃至云	-11.6174
甚深義	-11.6175
阿毗達磨	-11.6175
左	-11.6175
稟	-11.6175
悕求	-11.6176
擁	-11.6176
電光	-11.6178
護法正義	-11.6179
藏義	-11.6179
翼	-11.6179
實性故	-11.6179
怨憎	-11.6179
精勤修習	-11.618
下辨	-11.6182
似外境	-11.6182
已說菩薩	-11.6182
本為	-11.6182
法雲地	-11.6184
飲酒	-11.6184
俱生惑	-11.6185
十一善	-11.6188
又汝何所欲	-11.6189
自法	-11.6189
有十四	-11.6191
次四	-11.6191
非有者	-11.6191
印順	-11.6192
耶荅	-11.6192
雖見	-11.6195
能任持	-11.6198
如樞要說	-11.6199
從欲界	-11.6199
不別說	-11.62
修止	-11.6202
多依	-11.6203
金銀等	-11.6203
得士用果	-11.6206
還是	-11.6208
初一頌	-11.6209
助發	-11.6212
能動	-11.6214
已知根	-11.6214
法苑	-11.6214
不說有	-11.6215
別執	-11.6216
非假	-11.6217
語依處	-11.6217
我我所執	-11.6218
容起	-11.6218
初總明	-11.6219
約義	-11.622
釋頌中	-11.622
方得生故	-11.622
配屬	-11.6221
滅離	-11.6222
大菩提心	-11.6222
斷智	-11.6223
虛空等	-11.6223
墮於	-11.6225
滅道諦	-11.6225
三不護	-11.6226
差別之相	-11.6227
不障礙	-11.6228
有其三	-11.6228
尋求心	-11.6231
皆爾	-11.6232
深細	-11.6232
滅度	-11.6233
亦得起	-11.6234
況復	-11.6234
四無畏	-11.6236
約詮	-11.6236
惣結	-11.6236
名智	-11.6236
閏生	-11.6237
自在等	-11.6239
即合	-11.6239
指廣	-11.6242
離貪	-11.6242
合時	-11.6243
方知	-11.6246
此翻	-11.6246
謂即此	-11.6246
名圓成實	-11.6254
成就者	-11.6255
不重	-11.6256
於所樂	-11.6257
放光	-11.626
觀行人	-11.6261
無慚等	-11.6262
我有色	-11.6262
持用	-11.6265
在過去	-11.6267
先約	-11.6269
釋初句	-11.627
煩惱障種	-11.6271
攝大乘說	-11.6272
識等五果	-11.6272
人分三	-11.6274
對法第五	-11.6279
文分為五一	-11.628
於空	-11.6285
違於	-11.6287
好樂	-11.6288
9	-11.6292
初劫	-11.6294
則不成	-11.6295
極少	-11.6296
善通達	-11.6296
生死時	-11.6297
揔標列	-11.6298
不能持種	-11.6301
或從	-11.6302
六因中	-11.6302
則不能	-11.6303
戚	-11.631
設難	-11.6312
為第四	-11.6312
伎	-11.6313
何知	-11.6315
採	-11.6316
灌	-11.6317
式	-11.6318
至彼	-11.6318
潛	-11.6319
蹔	-11.6319
愈	-11.632
從自種生	-11.632
烈	-11.6322
輕蔑	-11.6322
縷	-11.6322
真淨	-11.6322
九依	-11.6323
麟角	-11.6324
二轉依果	-11.6325
墮惡趣	-11.6325
誘	-11.6326
俱分	-11.6326
踰繕那	-11.6326
波羅夷	-11.6327
宿習	-11.6327
在地前	-11.6327
已起	-11.6328
依託	-11.6328
意趣分二	-11.6328
術	-11.6329
鷄	-11.633
能為障礙	-11.6332
三答所以	-11.6332
非現量得	-11.6333
轉救	-11.6333
順後	-11.6335
𨷂	-11.6336
故稱為	-11.6337
成正覺	-11.6338
或離	-11.6338
」「	-11.634
三念住	-11.634
息除	-11.6342
緣四諦	-11.6344
不得解脫	-11.6348
障斷	-11.6352
等流性故	-11.6352
出三界	-11.6353
古德	-11.6353
緣無漏	-11.6355
利物	-11.6356
專心	-11.6357
非所緣緣	-11.6359
先來	-11.6359
迷謬	-11.636
初家	-11.6361
現行煩惱	-11.6361
一眼識	-11.6361
輕慢	-11.6362
定性二乘	-11.6364
二宗	-11.6365
為欲對治	-11.6365
方說	-11.6368
入母胎	-11.637
五十八云	-11.6371
諸菩薩眾	-11.6374
有餘無餘	-11.6374
心念	-11.6375
之障	-11.6377
居家	-11.6378
二例餘	-11.6381
非擇滅攝	-11.6381
未正	-11.6382
智體	-11.6382
六識俱	-11.6383
唯據	-11.6384
曾受	-11.6384
三受相應	-11.6385
中庸	-11.6385
諸色根	-11.6386
十一明	-11.6387
諸禪	-11.6388
尚無	-11.639
直至	-11.639
空閑	-11.6391
苦諦下	-11.6392
及不繫	-11.6392
作如是言	-11.6394
貪者	-11.6394
唯第六	-11.6394
補特伽羅無我	-11.6395
不隨順	-11.6398
今但	-11.6399
百四十	-11.6399
貪慢	-11.6399
諸染法	-11.6401
後半	-11.6401
善解	-11.6402
成唯識云	-11.6403
前二種	-11.6404
亦得緣	-11.6404
有盡	-11.6405
善生	-11.6406
八支	-11.6406
無我等	-11.6408
法我	-11.641
此之二	-11.6412
餘七識	-11.6416
作緣	-11.6416
分三一明	-11.6418
之緣	-11.6418
大般涅槃	-11.6419
教令	-11.642
斷德	-11.642
而出	-11.642
異分	-11.6423
四卷	-11.6423
能礙	-11.6424
以喻	-11.6425
欲界人天	-11.6425
應頌	-11.6427
病苦	-11.6427
亦無妨	-11.6427
真觀	-11.6431
無字	-11.6431
善達	-11.6432
雖實	-11.6435
無心時	-11.6437
體異	-11.6444
樂根	-11.6444
若謂下	-11.6444
無同喻	-11.6447
如先	-11.6447
善觀察	-11.6448
統	-11.6448
唯從	-11.6449
亦說為	-11.6453
衰變	-11.6453
成其	-11.6454
身量	-11.6454
非真異熟	-11.6455
徃	-11.6456
脩道	-11.6456
如上說	-11.6457
謂諸異生	-11.6458
現行者	-11.646
名為解脫	-11.6461
所治障	-11.6466
是能依	-11.6469
能生後	-11.647
所徧計	-11.647
而與	-11.647
自然生	-11.6471
調御	-11.6472
遠分對治	-11.6472
庶	-11.6477
寫	-11.6477
欲起	-11.6477
違緣	-11.6479
斷果	-11.6479
不親緣離自	-11.6479
給	-11.648
囀	-11.6481
卷舒	-11.6481
下分結	-11.6482
阿耨菩提	-11.6483
竪	-11.6484
此義應思	-11.6484
發大心	-11.6487
名阿羅漢	-11.6487
云何下	-11.6487
果能變	-11.6489
有智	-11.649
通障	-11.649
乃至老死	-11.6491
引果	-11.6493
滅受想定	-11.6493
迎	-11.6493
根本惑	-11.6496
相續者	-11.6498
所知依	-11.6499
環	-11.6499
觸塵	-11.6499
觸為緣	-11.65
望自	-11.6504
則成	-11.6504
未聞	-11.6505
合響開蒙	-11.6506
本釋	-11.6506
流轉還滅	-11.6508
色界心	-11.6508
未解	-11.6508
獨頭意識	-11.6508
故彼論言	-11.6509
身中有	-11.6511
出世淨	-11.6511
動轉	-11.6512
能薰	-11.6514
所取境	-11.6515
一間	-11.6516
實理	-11.6518
欲界身	-11.652
心所變	-11.652
默然	-11.652
通五蘊	-11.6521
在定中	-11.6522
後顯	-11.6522
不說餘	-11.6525
因何	-11.6525
不礙	-11.6526
次師	-11.6527
聖凡	-11.6527
退法	-11.6528
依眼	-11.6528
有二師	-11.6528
七覺	-11.653
故偏說	-11.6533
戒律儀	-11.6535
是故世尊	-11.654
自在成就	-11.654
故略不說	-11.6541
對法等	-11.6542
第一明	-11.6543
約人	-11.6544
廣義	-11.6545
初惣	-11.6549
論一者	-11.6552
如欲界	-11.6552
印可	-11.6552
心數	-11.6553
報生	-11.6555
有漏善心	-11.6558
文別	-11.6558
乖離	-11.6559
願於當來	-11.6559
今生	-11.6561
令人	-11.6563
初中有	-11.6565
有三相	-11.6567
隨所依	-11.6567
未來禪	-11.657
穢土	-11.657
覺等	-11.6574
五道	-11.6574
大慈悲	-11.6576
一門說	-11.6577
有三句	-11.6577
入滅	-11.6578
不能執受	-11.6578
今有	-11.658
飲食等	-11.658
習種姓	-11.6581
中前二	-11.6581
即是真如	-11.6586
識境	-11.6588
雖無實	-11.659
非此所	-11.659
水中	-11.6591
第九云	-11.6593
▁初約	-11.6593
據理	-11.6594
方便修	-11.6595
所隨逐	-11.6598
攝盡	-11.6598
淨心地	-11.6601
顯揚第二	-11.6603
属	-11.6608
現居	-11.6608
實諦	-11.6611
怯	-11.6612
然其	-11.6612
有求	-11.6614
劫初	-11.6615
若定若慧	-11.6617
後文	-11.6617
極樂	-11.6617
法界中	-11.6618
或觀	-11.6618
湛	-11.6619
害者	-11.662
不平等因	-11.6621
勤方便	-11.6621
無多	-11.6623
是無漏故	-11.6623
都不	-11.6623
隨文	-11.6623
因緣相	-11.6623
外相	-11.6626
苦忍	-11.6627
唯第八識	-11.6628
蘊善巧	-11.663
不俱起故	-11.663
勇悍	-11.6631
七十四	-11.6632
觀法	-11.6632
此門	-11.6635
漢	-11.6635
瑟	-11.6635
二舉頌總答	-11.6636
非有性	-11.6636
放大光明	-11.6637
慧行	-11.6637
鼻舌二識	-11.6638
夷	-11.6639
癈	-11.6639
瞿	-11.664
案	-11.664
阿犁耶識	-11.6641
映奪	-11.6642
無失壞	-11.6643
米	-11.6645
與捨受相應	-11.6646
難了	-11.6646
相涉入	-11.6646
天眼耳根	-11.6646
生死流轉	-11.6647
慢過慢	-11.6647
何成	-11.6649
如前巳說	-11.6649
惡取空	-11.6649
更說	-11.665
爾所	-11.665
然此中	-11.6651
如別抄	-11.6651
舌根	-11.6653
叵	-11.6654
法處所攝色	-11.6654
舍利	-11.6656
形質	-11.6658
往趣	-11.6658
無餘心所	-11.6661
捨俱	-11.6662
俱名為	-11.6662
有二分	-11.6662
第三義	-11.6662
願我	-11.6662
心想	-11.6664
前相	-11.6664
父母極微	-11.6665
受心法	-11.6665
法為因	-11.6665
頌釋	-11.6666
不厭	-11.6666
內凡	-11.6668
無樂	-11.6668
顯揚十八	-11.667
演曰二依	-11.667
虛誑	-11.6672
過此	-11.6673
亦通無漏	-11.6676
成業論	-11.6677
亦得名為	-11.6678
局在	-11.6679
四十八	-11.6682
品數	-11.6685
現在前故	-11.6687
菩	-11.6687
初句標名	-11.6687
次列	-11.6688
治斷	-11.6689
六七識	-11.669
一立所治	-11.669
攝事分	-11.6695
後有業	-11.6699
既唯	-11.6701
無漏五識	-11.6704
所學處	-11.6705
標宗	-11.6706
福行	-11.6713
謂如有一於	-11.6714
於眼等識	-11.6714
集會	-11.6715
方名為	-11.6715
三食	-11.6715
不似	-11.6716
順正理	-11.6716
第八云	-11.6717
於諸諦中	-11.6719
善決定	-11.6719
有不定過	-11.672
分折	-11.6721
無異故	-11.6721
若有人	-11.6722
空花	-11.6723
所熏成種	-11.6723
勢分	-11.6724
屬當	-11.6726
業自在	-11.6727
復有三	-11.6731
菩薩所行	-11.6732
老病死	-11.6736
因樂	-11.6738
後無	-11.6745
謂如前說	-11.6745
標釋	-11.6748
方便說	-11.6748
種生種	-11.6749
四大所造	-11.675
第二復次	-11.675
根境等	-11.6752
淨居	-11.6753
現業	-11.6754
非約	-11.6754
不現行故	-11.6756
世間法	-11.6757
何不說	-11.6757
於初地	-11.6759
無常行	-11.6759
眼耳等	-11.6759
為同類因	-11.676
成阿羅漢	-11.6761
因緣所生	-11.6761
寤	-11.6763
悅意	-11.6763
同法者	-11.6765
唯無記性	-11.6769
而為自性	-11.677
所應作	-11.6773
作受	-11.6773
若爾云何	-11.6773
共為	-11.6773
一顯	-11.678
二乘有學	-11.6783
誡	-11.6783
異計	-11.6786
此證	-11.6789
如實觀	-11.6791
不改	-11.6791
天竺	-11.6794
▁次答	-11.6795
軍林	-11.6797
廣果天	-11.6798
百億	-11.6798
鑒	-11.6798
掌	-11.6799
麁重縛	-11.6799
傲	-11.68
爛壞	-11.68
苦類智忍	-11.6802
既知	-11.6802
四辨	-11.6803
心及心法	-11.6804
相顯現	-11.6804
穿	-11.6805
引彼	-11.6805
壯	-11.6805
早	-11.6806
愛重	-11.6807
故此不	-11.6808
青黃	-11.6809
鈴	-11.6811
他人心	-11.6811
界外	-11.6814
有十二種	-11.6815
迴心向大	-11.6815
卷第六	-11.6816
性戒	-11.6817
縱有	-11.6817
無上依經	-11.6818
次復	-11.682
僧伽	-11.6821
展轉相續	-11.6822
不慳	-11.6824
依他起上	-11.6824
示相	-11.6824
三業為性	-11.6825
彼師	-11.6826
救護	-11.6826
此師意	-11.6826
謂貪瞋癡	-11.6826
不易	-11.6826
故名涅槃	-11.6827
總為一	-11.6828
修差別	-11.6829
感總報	-11.6829
卷第七	-11.683
亂相	-11.683
勸令	-11.6832
至極	-11.6833
無記性攝	-11.6833
先修	-11.6834
八難	-11.6834
能覺	-11.6836
界義	-11.6837
中劫	-11.6839
分九	-11.6843
遍於一切	-11.6843
意化	-11.6843
生無自性性	-11.6844
是增上果	-11.6846
無想報	-11.6846
眾僧	-11.6848
從初發心	-11.6849
伽羅	-11.685
名等流果	-11.6851
無學身中	-11.6853
安慧師	-11.6853
依內	-11.6853
諸根大種	-11.6854
名身等	-11.6854
我非我	-11.6856
無違犯	-11.6857
麁動	-11.6859
分別起者	-11.686
三種自性	-11.6861
唐言	-11.6863
唯在欲界	-11.6864
所引發故	-11.6865
善惡性	-11.6865
愛著處	-11.6866
聲處	-11.6866
無分別影像	-11.6867
後報業	-11.6869
調順	-11.687
獨得	-11.6873
不由他	-11.6875
淨分	-11.6875
可愛果	-11.6876
有難言	-11.6877
動身	-11.6881
正精進	-11.6884
非究竟	-11.6885
奉行	-11.6885
更受	-11.6886
少年	-11.6896
命根等	-11.6897
者此釋	-11.6897
障道	-11.6899
無時	-11.69
蘊為我	-11.6901
四攝事	-11.6904
貪瞋癡等	-11.6907
隨緣現	-11.6908
在因	-11.6912
如上所說	-11.6912
不思惟	-11.6914
云何說言	-11.6917
欲塵	-11.6918
文中有二先	-11.6919
未作	-11.692
根本地	-11.692
希奇	-11.6921
五住	-11.6922
有兩解	-11.6923
通前為	-11.6923
偏執	-11.6924
非徧	-11.6925
入住出	-11.6926
名為不共	-11.6926
如外	-11.6926
十歲	-11.6927
論若諸菩薩至	-11.6931
緣起法	-11.6931
修所成慧	-11.6933
之功能	-11.6933
清淨真如	-11.6935
文證	-11.6935
之所依	-11.6936
外境界	-11.6936
和合句	-11.6938
下半	-11.6938
尚不能	-11.6939
邪法	-11.6942
麁顯	-11.6945
算	-11.6947
通因果	-11.6947
瑜伽師地	-11.6947
記憶	-11.6948
此等諸	-11.6949
無對色	-11.695
雅	-11.695
云何得有	-11.6951
失戒	-11.6952
諦察法忍	-11.6952
窮生死蘊	-11.6956
啟	-11.6956
為量果	-11.6958
外空	-11.6958
怒	-11.6959
根本靜慮	-11.6959
軌範	-11.6959
種種法	-11.696
膚	-11.6962
居士	-11.6962
唯識教	-11.6964
禽獸	-11.6965
怛	-11.6967
炭	-11.6967
法雲	-11.6967
嬉戲	-11.6968
玉	-11.6968
吒	-11.6968
言詮	-11.6968
衛	-11.6969
烟	-11.6969
朋	-11.6969
無色界繫	-11.697
已永斷	-11.697
准上	-11.697
五分法身	-11.697
付	-11.697
雞	-11.697
一立正義	-11.6972
雪山	-11.6973
皆令	-11.6975
得自相	-11.6975
非天	-11.6977
名為共	-11.6979
七地以前	-11.6981
燒然	-11.6982
通三世	-11.6983
解脫知見	-11.6984
乃至十地	-11.6986
捨念	-11.6988
不善業道	-11.6988
離言自性	-11.699
答第二問	-11.699
名憂	-11.6991
所轉得	-11.6991
相分色	-11.6991
雜穢	-11.6994
生善趣	-11.6994
捨命	-11.6995
偈云	-11.6996
文分為二先明	-11.6996
三性俱	-11.6996
初是	-11.6996
速能	-11.7001
人間	-11.7004
三無色	-11.7004
各有四	-11.7004
當知建立	-11.7006
餘有情	-11.7007
清淨意樂	-11.701
福慧	-11.7012
心懷	-11.7012
染愛	-11.7012
似火	-11.7013
入住	-11.7015
通假實	-11.7015
伹說	-11.7016
所引發	-11.7016
報因	-11.7017
十二部	-11.7018
類差別	-11.702
本師	-11.7022
能除遣	-11.7025
現熏種	-11.7027
貫通	-11.7027
靜相	-11.7029
決定義	-11.703
還生欲界	-11.703
九十	-11.7031
如心心所	-11.7031
不分明	-11.7031
外人問	-11.7031
二破分二	-11.7032
如論中說	-11.7032
嗔等	-11.7032
破薩婆多	-11.7033
今略	-11.7033
通能所	-11.7034
相異故	-11.7035
現行種子	-11.7036
合觀	-11.7037
無有一法	-11.7038
緣起善巧	-11.7039
中忍	-11.7041
有漏識	-11.7041
為等無間緣	-11.7042
本性清淨	-11.7043
而求	-11.7043
其第八識	-11.7045
大八	-11.7047
隨人	-11.705
前卷	-11.7051
諸有為法	-11.7053
淨尸羅	-11.7054
業盡	-11.7054
雙斷	-11.7057
諸結	-11.7057
是依他性	-11.7058
所有一切	-11.7058
久習	-11.7059
五結	-11.706
但斷	-11.7061
出世間智	-11.7062
隨一攝故	-11.7063
於諸欲	-11.7065
其意	-11.7066
隨滅	-11.7068
謗無	-11.7068
非福業	-11.7069
第二頌	-11.707
觸所生	-11.7072
第三段	-11.7072
三門分別	-11.7072
作因緣	-11.7074
通見修	-11.7074
因等起	-11.7076
常法	-11.7077
若諸菩薩於	-11.7079
靜慮等	-11.708
善因	-11.7081
三賢	-11.7083
第八所變	-11.7083
無變	-11.7085
辨差別	-11.7087
但除	-11.7089
燈光	-11.7089
次說菩薩	-11.7092
皆許	-11.7093
假施設有	-11.7097
智果	-11.7098
故得名	-11.7099
轉因	-11.71
穀麥等	-11.7102
對法論云	-11.7102
所知障中	-11.7102
勝義故	-11.7104
唯是善	-11.7106
任運生	-11.7107
出體性	-11.7109
定數	-11.7109
唯種	-11.7112
故不說之	-11.7115
於諦	-11.7116
不可言說	-11.7116
佉	-11.7117
雪	-11.7119
瑜伽下	-11.7121
依士	-11.7125
飯	-11.7126
羯邏藍	-11.7127
以要言之	-11.7127
綺	-11.7129
所染污	-11.713
商	-11.713
祕	-11.7131
先未	-11.7132
生喜樂	-11.7133
巨	-11.7135
同相	-11.7135
文身	-11.7136
為開導	-11.7136
意欲	-11.7136
▁初問	-11.7136
老死位中	-11.7137
相分中	-11.7137
蟲	-11.7137
遷流	-11.7138
仁	-11.7139
亦不可得	-11.714
滿心	-11.714
觀待道理	-11.714
一切皆有	-11.7141
錢	-11.7141
極微體	-11.7141
識緣名色	-11.7142
是能詮	-11.7143
自他俱	-11.7143
毀壞	-11.7143
法爾道理	-11.7143
滴	-11.7143
是異熟生	-11.7143
是故如來	-11.7143
福德智慧	-11.7144
鮮白	-11.7148
眼等諸識	-11.7148
何等為十	-11.715
第八識體	-11.7152
離識實有	-11.7152
有二解一云	-11.7154
八智	-11.7156
不持	-11.7157
字身	-11.7157
相續住	-11.7158
不復現行	-11.7158
如幻事	-11.7159
所表	-11.7163
持種心	-11.7164
四於	-11.7165
能悟入	-11.7165
能厭	-11.7166
之自性	-11.7166
端正	-11.7167
別迷	-11.7167
果圓滿	-11.7171
為第五	-11.7174
之云	-11.7179
四諦理	-11.7179
終成	-11.7179
極大	-11.7181
宣說正法	-11.7182
已伏	-11.7183
所望	-11.7184
一切物	-11.7186
木石	-11.7187
更問	-11.7187
所變相	-11.7189
防非	-11.7189
根隨	-11.719
合會	-11.7194
一偈	-11.7195
不俱生	-11.7197
強力	-11.7198
從他受	-11.7198
隨宜	-11.72
流轉生死	-11.72
心便	-11.72
前地	-11.7201
正慧	-11.7202
佛經	-11.7202
大財	-11.7204
或取	-11.7204
而便	-11.7204
造惡	-11.7205
互有	-11.7206
同念	-11.7206
諸經中	-11.7208
持義	-11.721
更不別	-11.721
方便究竟	-11.7215
也意說	-11.7216
出其	-11.7218
若第八識	-11.722
之見	-11.7222
如是諸法	-11.7222
變相分	-11.7223
第六地	-11.7224
他心通	-11.7225
設遮	-11.7225
種子所生	-11.7226
歸趣	-11.7226
有三一	-11.7226
菩薩於此	-11.7227
不待因	-11.7227
得捨	-11.7227
伹是	-11.723
共相種	-11.7234
所行處	-11.7235
名目	-11.7235
本際	-11.7236
思惑	-11.7238
念定	-11.7239
但觀	-11.7239
故次明	-11.724
不嫉	-11.7241
相分四	-11.7241
諸大	-11.7242
見倒	-11.7246
所修行	-11.7246
無二相	-11.7246
不捨生死	-11.7247
歡喜住	-11.7248
必假	-11.7248
破外道	-11.7248
外事	-11.7253
虛假	-11.7254
今此文	-11.7256
尋伺地	-11.7259
知世間	-11.7261
受記	-11.7263
於如來所	-11.7265
遍通	-11.7266
一分為體	-11.7268
逆觀	-11.7269
一音	-11.727
有喜	-11.727
不據	-11.7271
亦滅	-11.7271
本質境	-11.7272
作所緣緣	-11.7276
持身	-11.7276
迷悟依	-11.7278
意成天	-11.7278
為所緣故	-11.7281
不爾便	-11.7281
宿作	-11.7281
不深	-11.7282
無體法	-11.7285
四大造	-11.7285
▁1	-11.7292
廣顯	-11.7293
無因論	-11.7293
似我	-11.7293
思所成慧	-11.7293
一切一分是	-11.7294
真法界	-11.7294
諸心所法	-11.7296
之見分	-11.7298
不被	-11.7298
澤	-11.7298
自證緣見	-11.7298
受用法樂	-11.73
籍	-11.73
種上	-11.73
五識所緣	-11.7302
認	-11.7303
微微心	-11.7303
已具	-11.7304
未明	-11.7305
勞倦	-11.7307
又字	-11.7308
檀越	-11.7308
燸	-11.7309
悟解	-11.731
伊	-11.731
第二俗	-11.7311
略廣	-11.7311
現思	-11.7312
憂慼	-11.7312
殺盜	-11.7312
謙	-11.7313
文殊師利	-11.7313
善染等	-11.7313
十三卷	-11.7313
順現受	-11.7314
臨終	-11.7315
輕毀	-11.7318
清淨品	-11.7319
即捨	-11.732
凡位	-11.732
習所成	-11.732
六欲天	-11.7321
增上戒住	-11.7321
三別釋分二	-11.7321
為依處	-11.7321
居處	-11.7322
理非有故	-11.7322
起邪見	-11.7325
長老	-11.7327
種性已上	-11.7329
有三釋	-11.7329
能引所引	-11.7329
合成一	-11.7332
性決定	-11.7333
此中但說	-11.7333
未證得	-11.7333
得無學果	-11.7334
感異熟果	-11.7334
緣藏識	-11.7334
演曰二列	-11.7335
得彼定	-11.7342
登地	-11.7345
極略	-11.7349
攝樂	-11.735
分四一明	-11.7353
眾善	-11.7353
以理推	-11.7357
別辨	-11.736
分別二障	-11.7362
等者等取	-11.7365
依出離	-11.7366
起化	-11.7368
得大自在	-11.737
有勝用	-11.7371
以為依止	-11.7373
四辯	-11.7376
亦除	-11.7383
是故偏說	-11.7384
巳捨	-11.7386
答當言	-11.7387
故攝論云	-11.7387
勤苦	-11.7388
相違也	-11.7388
此位菩薩	-11.739
上半	-11.7391
能往	-11.7392
所應作事	-11.7392
二部	-11.7392
迷惑	-11.7393
於聲	-11.7394
無量差別	-11.7397
通染淨	-11.7398
文中分三一	-11.74
非理作意	-11.7404
先總標	-11.7405
此有二義	-11.741
此體	-11.7415
得異熟果	-11.7417
除苦	-11.7417
欲界天	-11.7417
如實見	-11.7418
色不相應	-11.7419
萬劫	-11.7419
無前後	-11.7419
內聲	-11.7419
次顯	-11.7419
中有六	-11.7421
瑜伽論記卷第	-11.7422
諸惡業	-11.7423
七句	-11.7424
由貪	-11.7424
信行	-11.7426
論復有	-11.7428
壞劫	-11.743
偏言	-11.743
風界	-11.7431
不發業	-11.7431
第六解	-11.7432
聰明	-11.7433
佛身中	-11.7433
於自他	-11.7434
漸頓	-11.7434
同種生	-11.7437
親愛	-11.7437
亦能緣	-11.7438
5	-11.7441
可分析	-11.7444
不例	-11.7448
論云何菩薩至	-11.7448
觸證	-11.7449
七處	-11.7452
處界	-11.7454
二十二根中	-11.7457
以為本質	-11.7457
依空	-11.7464
舉罪	-11.7464
加行究竟果作意	-11.7466
外難云	-11.7467
退不退	-11.7467
慶喜	-11.7468
方便智	-11.7468
沐浴	-11.747
耆	-11.7471
虧	-11.7472
有別體	-11.7472
為除此疑	-11.7473
羞耻	-11.7473
復如何知	-11.7473
躁擾	-11.7474
四智心品	-11.7474
別種	-11.7475
峯	-11.7475
曠	-11.7477
六趣	-11.7479
併	-11.7479
愛結	-11.7479
惰	-11.748
想受滅無為	-11.7481
鉢羅	-11.7482
第七解	-11.7482
外人難	-11.7482
如論應知	-11.7483
癰	-11.7483
疑網	-11.7483
愛不愛	-11.7483
香氣	-11.7484
引導	-11.7484
味著	-11.7485
隨眾生	-11.7487
論又於	-11.7487
多小	-11.7488
分七如論	-11.7489
作意力	-11.749
壽行	-11.749
疲極	-11.7491
此意說云	-11.7491
四念	-11.7492
初二果人	-11.7492
二立能治	-11.7492
愚昧	-11.7493
斷修惑	-11.7494
資生具	-11.7495
業體	-11.7496
龍王	-11.7497
遍計性	-11.7498
不壞淨	-11.7498
法處所攝	-11.75
緣自地	-11.7505
若不言	-11.7505
外五塵	-11.7506
起下地	-11.7507
是滅諦	-11.7511
六種轉識	-11.7511
逼切	-11.7511
五蘊等	-11.7512
合有十	-11.7516
文中有三	-11.7517
決不	-11.752
唯識論中	-11.7522
釋外難	-11.7522
今日	-11.7523
在其中	-11.7523
方便攝	-11.7523
應無差別	-11.7524
諸境界	-11.7526
慚等	-11.7526
無忘失法	-11.7527
下引證	-11.7527
初未至定	-11.753
遍諸	-11.753
無散亂	-11.7532
極喜	-11.7533
分別論者	-11.7534
有情類	-11.7534
師等	-11.7535
未至地	-11.7536
能縛	-11.7537
命終心	-11.7539
解頌	-11.754
於諸善法	-11.7541
之內	-11.7542
宗要	-11.7543
成立唯識	-11.7545
諸學	-11.7546
不增長	-11.7549
義得成	-11.755
逐難	-11.755
各各自	-11.7551
往昔	-11.7551
有力能	-11.7554
第一義空	-11.7555
諸支	-11.7557
父母等	-11.7557
斷隨眠	-11.7559
重病	-11.7559
愛憎	-11.7559
唯第六識	-11.7561
此中不說	-11.7561
魔事	-11.7562
退分	-11.7562
分別隨眠	-11.7565
奢摩他品	-11.7567
修因	-11.7568
疏云然	-11.7568
信現觀	-11.7568
犯罪	-11.7568
迷執	-11.7569
略不論	-11.7569
所取義	-11.757
與欲俱	-11.7574
九想	-11.7575
發惡	-11.7582
能速	-11.7582
如有人	-11.7585
無能取	-11.7587
業所引	-11.7588
誨	-11.7589
欲知	-11.759
與第六	-11.7593
分異	-11.7593
為是不	-11.7595
必得	-11.7596
清淨相	-11.7596
應無別	-11.7596
自成	-11.7604
四不定	-11.7604
非謂一切	-11.7605
所說義	-11.7607
未可	-11.7609
三劫	-11.761
恱	-11.7611
同小乘	-11.7613
喜心	-11.7613
一明因	-11.7614
於過去世	-11.7616
得三摩地	-11.7616
能令眾生	-11.7616
求欲	-11.762
百二十八	-11.7621
是共相	-11.7622
略不言	-11.7624
彼同分	-11.7629
有因緣義	-11.7629
就人	-11.763
捨身	-11.7631
種種界	-11.7633
若更	-11.7633
有差別者	-11.7635
不望	-11.7635
閑	-11.7637
難見	-11.7639
果滿	-11.7639
三十五	-11.7639
更不生	-11.764
糞穢	-11.764
秘密	-11.7641
瓶甌等	-11.7641
眩翳	-11.7641
各據一義	-11.7641
終無	-11.7643
所顯得	-11.7645
健	-11.7645
六行伏惑	-11.7645
入正性離生	-11.7645
生死法	-11.7646
饒	-11.7646
香味等	-11.7647
其猶	-11.7647
引生無漏	-11.7648
釋論云	-11.7648
任運緣	-11.7648
安布	-11.7649
處非處善巧	-11.7651
慶悅	-11.7651
召	-11.7651
勇健	-11.7652
三空	-11.7653
問訊	-11.7653
中二大八	-11.7653
詣	-11.7654
大乘阿毘達磨	-11.7654
躡	-11.7655
委細	-11.7655
作善為業	-11.7655
緣第八識	-11.7656
現法樂	-11.7657
五遍行	-11.7657
作等無間緣	-11.7657
不同時	-11.7658
一說部	-11.7658
唯有心	-11.7658
但顯	-11.7658
苣	-11.7659
為諸眾生	-11.7659
中前三	-11.766
諸法相	-11.7661
淨業	-11.7662
此頌顯示	-11.7664
八十八	-11.7666
復次嗢拕南曰	-11.7666
祈願	-11.7666
前五轉識	-11.7668
亦不違	-11.767
發動	-11.767
上位	-11.7671
四句中	-11.7671
證得涅槃	-11.7671
能成極微	-11.7676
契經等	-11.7677
無因而生	-11.7677
知他	-11.7678
然准	-11.7678
何乃	-11.7678
是等流果	-11.768
初文有二	-11.768
集論云	-11.7681
如文可解	-11.7682
緣起正理	-11.7683
兩解	-11.7686
回心	-11.7687
阿羅漢等	-11.7689
相違釋	-11.769
初結前生後	-11.7695
通八識	-11.7697
種殖	-11.7698
清淨分	-11.77
夜分	-11.77
及諸菩薩	-11.77
無別體故	-11.7701
巳知	-11.7701
前中初	-11.7702
故瑜伽說	-11.7703
真如無為	-11.7704
似事	-11.7706
修位	-11.7706
引論證	-11.7707
卷第八	-11.7707
無實境	-11.7708
通達真如	-11.771
色等五塵	-11.771
新新	-11.7711
瞋等	-11.7712
論主云	-11.7713
自覺	-11.7715
煩惱纏	-11.7716
入道	-11.7718
苦類智	-11.772
斷壞	-11.772
見分種	-11.7721
當廣說	-11.7729
不住生死	-11.7731
安忍	-11.7731
難前師	-11.7731
諸識相應	-11.7732
前三句	-11.7732
今就	-11.7733
能受用	-11.7735
所變現	-11.7736
彼據	-11.7738
初二禪	-11.7738
出心	-11.7739
受數	-11.7741
開顯	-11.7741
中隨一攝故	-11.7742
執受大種	-11.7743
世間離欲	-11.7743
淨法界	-11.7746
不要	-11.7749
可取	-11.775
聞熏	-11.775
智德	-11.7751
法王	-11.7753
初禪地	-11.7753
不並生	-11.7756
後得智攝	-11.7756
取著	-11.7757
五部	-11.7758
痴分	-11.7762
三段	-11.7762
有俱有依	-11.7763
眼等六識	-11.7765
異熟生無記	-11.7765
何過	-11.7766
大地法	-11.7766
第八識見分	-11.7767
已方	-11.7768
心起時	-11.777
論問至	-11.7772
勤勇	-11.7776
將生	-11.7779
唯本有	-11.7781
下約	-11.7782
所敬	-11.7783
純善	-11.7783
無實作用	-11.7784
攝論說	-11.7786
互相違故	-11.7787
不多	-11.7787
業性	-11.7788
身念住	-11.7788
後總結	-11.7791
為此難	-11.7791
對法第七	-11.7792
所作因	-11.7794
極多	-11.7795
論謂諸菩薩至	-11.7798
身表業	-11.78
真覺	-11.78
從勝	-11.7801
悲智	-11.7801
對法文	-11.7802
云何得成	-11.7805
四諦智	-11.7806
後三種	-11.7808
論當知此中至	-11.7809
諸法空	-11.781
相應因	-11.781
天眼通	-11.781
初未至	-11.7812
文易可知	-11.7813
第八變	-11.7815
人天等	-11.7817
身財	-11.7817
證無上正等菩提	-11.782
能所詮	-11.7821
四十七	-11.7821
從師	-11.7822
兔	-11.7823
起自心相	-11.7824
吉	-11.7825
如虛空等	-11.7826
此翻為	-11.7826
梵志	-11.7827
非盡理	-11.7827
末尼	-11.7827
魯	-11.7829
瞖	-11.7829
煙	-11.783
當來世	-11.783
當作	-11.783
恐濫	-11.7831
是不善性	-11.7831
漫	-11.7831
疲倦	-11.7831
野	-11.7832
射	-11.7833
精血	-11.7833
離色界欲	-11.7833
有根身	-11.7834
凡時	-11.7834
何故但說	-11.7835
亦攝心所	-11.7836
大梵天	-11.7836
君	-11.7836
虎	-11.7837
欝	-11.7837
閉	-11.7837
境行果	-11.7838
徒眾	-11.7839
如意足	-11.7841
俱有根	-11.7842
上二界中	-11.7842
現法後法	-11.7845
有勢力	-11.7846
現法中	-11.7846
愁憂	-11.7847
似外境現	-11.7848
魔王	-11.7848
外物	-11.7849
故說一乘	-11.785
謂第七識	-11.7851
能正了知	-11.7853
復有所餘	-11.7853
隨一不成	-11.7854
被潤	-11.7855
禾	-11.7857
空見	-11.7857
次云	-11.7858
如何可說	-11.786
涅槃寂靜	-11.7862
然則	-11.7863
離垢地	-11.7866
能益	-11.7866
對法藏	-11.7868
唯識相	-11.7871
所緣縛	-11.7871
著處	-11.7873
前剎那	-11.7874
勝道	-11.7876
覆蔽	-11.7877
廣如彼說	-11.7878
釋中有五	-11.7879
緣縛斷	-11.7879
四大種所造	-11.788
為他說法	-11.7881
舊種	-11.7883
帶數	-11.7883
在下地	-11.7884
承上	-11.7884
多身	-11.7886
不住涅槃	-11.7887
在纏	-11.7888
不一異	-11.7888
與彼相違	-11.7889
總義	-11.789
鼻根	-11.7894
是因義	-11.7894
卷第九	-11.7895
分六中第	-11.7896
卵生	-11.7897
別列	-11.7897
待餘	-11.7899
與念	-11.7902
愛為緣	-11.7904
應不成	-11.7904
說三乘	-11.7906
四道理	-11.7907
相續轉	-11.7907
隨用	-11.7907
何故不言	-11.7908
七返	-11.791
所引生故	-11.7916
空教	-11.7916
無邊際	-11.7918
苦無常	-11.7919
成業道	-11.792
常修	-11.7922
作此解	-11.7937
但從	-11.7938
摽舉	-11.794
能堪忍	-11.7942
仍是	-11.7942
大寶	-11.7944
佛國	-11.7946
末那識	-11.7947
意識所緣	-11.7948
所緣行相	-11.7951
大種造	-11.7952
斷種	-11.7953
影現	-11.7956
思為體	-11.7956
破我	-11.7957
一時俱	-11.7959
第一第二	-11.7962
能引生	-11.7962
尊勝	-11.7963
熏禪	-11.7965
互相熏	-11.7966
瞋心	-11.7966
故不別說	-11.7967
同梵行	-11.7967
互為因緣	-11.7967
今舉	-11.7971
蘊所攝	-11.7972
應須	-11.7973
與力	-11.7974
緣上地	-11.7976
於此位中	-11.7977
牒計	-11.7983
當情	-11.7983
𤗊	-11.7984
變影	-11.7988
如實通達	-11.7988
辯釋	-11.7988
對法論中	-11.7989
法非法	-11.799
為己	-11.7995
􂎫	-11.7998
他引	-11.8
維摩經	-11.8
思惟真如	-11.8002
如顯揚	-11.8002
慢緩	-11.8003
名相見道	-11.8004
能遠	-11.8005
生如來家	-11.8005
多識	-11.8005
艱辛	-11.8006
所化生	-11.8006
體是無	-11.8007
杜	-11.8008
臺	-11.8008
麁惡語	-11.8009
深妙	-11.8012
有本質	-11.8012
能遠離	-11.8013
隨信行	-11.8013
淨分依他	-11.8013
昔所	-11.8014
歌舞	-11.8015
金剛喻定現在前時	-11.8015
根律儀	-11.8016
倚	-11.8016
塞	-11.8017
梨耶	-11.8018
苦集二諦	-11.8018
弄	-11.8018
聾	-11.8019
極逈色	-11.8019
乃至七地	-11.802
具此三義	-11.8021
二釋分三如論	-11.8021
初靜慮中	-11.8022
走	-11.8022
不行故	-11.8023
今助	-11.8023
由三因緣	-11.8023
得般涅槃	-11.8024
度眾生	-11.8024
觀諸法	-11.8026
緣境時	-11.8027
順樂	-11.8028
希法	-11.8029
汝之	-11.803
又於此中	-11.8034
感別報	-11.8034
劫盜	-11.8034
初二靜慮	-11.8035
極苦	-11.8038
出纏	-11.8038
無間業	-11.8041
八地巳上菩薩	-11.8041
恒相應故	-11.8042
遮彼	-11.8043
開為二	-11.8043
及彼心所	-11.805
不斷絕	-11.8051
色究竟天	-11.8053
大臣	-11.8054
調伏方便	-11.8056
本宗	-11.8057
身受心法	-11.8059
何能	-11.806
功德相應	-11.8063
有何意	-11.8063
結文	-11.8066
正宗	-11.8069
不如實	-11.8069
又諸菩薩於	-11.8071
如是應知	-11.8073
論本云	-11.8074
瓶衣等	-11.8076
以識為	-11.8076
能學	-11.8081
尚有	-11.8083
變礙	-11.8085
佛地論說	-11.8086
戒定	-11.8089
欲界地中	-11.8091
何則	-11.8092
四無記	-11.8095
異熟色	-11.8097
對境	-11.8098
若無第八	-11.8102
相應作意	-11.8102
乃至涅槃	-11.8103
慧分	-11.8105
一一皆有	-11.8107
之空	-11.8107
新種	-11.8111
能依所依	-11.8115
第三能變	-11.8116
九品惑	-11.8118
無間道時	-11.812
鼻舌身	-11.8121
一切皆無	-11.8125
身口業	-11.8126
有心地	-11.813
同梵行者	-11.8132
何唯	-11.8133
轉異	-11.8133
四諦下	-11.8134
共相應	-11.8135
無實我	-11.8136
變他根	-11.8141
初舉	-11.8142
悉無	-11.8145
異熟生攝	-11.8145
窮生死	-11.8146
外更無	-11.8146
學果	-11.8147
入法空	-11.8148
有二十四	-11.815
由此二種	-11.815
相似相續	-11.8151
亦常	-11.8152
據其	-11.8152
能忍受	-11.8158
隨煩惱中	-11.8159
三十三天	-11.8162
母胎	-11.8163
愛染	-11.8164
常沒	-11.8165
於何處	-11.8168
前後際	-11.8168
不勞	-11.8173
文中分二初問後荅此初問	-11.8174
答准	-11.8176
瑜	-11.8178
不生果	-11.8179
奧	-11.8184
無自體	-11.8185
妙色	-11.8185
九十四	-11.8185
八地中	-11.8185
福德資糧	-11.8185
熏時	-11.8186
來生此間	-11.8186
名無尋無伺地	-11.8189
清凉	-11.819
離實德業	-11.8192
掉舉惡作	-11.8193
英	-11.8193
作何業	-11.8193
輔	-11.8194
某	-11.8195
闇鈍	-11.8195
第八現行	-11.8195
次轉釋	-11.8195
法無我性	-11.8195
慰喻	-11.8196
騰	-11.8196
白佛言	-11.8196
兵	-11.8197
自誓	-11.8197
醒	-11.8197
皮肉	-11.8197
如愚意	-11.8198
琉璃	-11.8198
作如是計	-11.8198
勸請	-11.8199
狼	-11.8199
不緣下	-11.82
分別我見	-11.82
校量	-11.8201
此復二種	-11.8201
屋	-11.8202
修禪	-11.8202
立稱	-11.8202
力無畏等	-11.8205
為證不成	-11.8205
空解脫門	-11.8207
隨縛	-11.8207
名士用果	-11.8207
捨念清淨	-11.8208
散意	-11.8208
於十地	-11.8208
演曰後彰	-11.821
勇猛精進	-11.821
有色諸根	-11.8213
徧行別境	-11.8213
聲界	-11.8215
體實有	-11.8216
略有五	-11.8218
勤修學	-11.822
弘誓	-11.8221
體無差別	-11.8221
不可依	-11.8222
所成立	-11.8224
快淨	-11.8225
闇昧	-11.8226
第四地	-11.8226
此等皆是	-11.8228
要具	-11.8228
資粮加行	-11.8229
以見分	-11.8229
及無為法	-11.8231
軟中上	-11.8232
喜樂受	-11.8232
厭生死	-11.8235
覺天	-11.8235
反覆	-11.8235
處生死	-11.8237
論主答云	-11.8237
由斯下	-11.8238
二廣釋	-11.8239
四天王	-11.824
約位	-11.8241
五十四說	-11.8242
無姓	-11.8244
內明	-11.8246
寂靜解脫	-11.8246
詰問	-11.8247
一切菩提分法	-11.8247
契經等法	-11.8249
斷法執	-11.825
修止觀	-11.8251
能資	-11.8253
真證	-11.8253
極難	-11.8253
真實智	-11.8257
初開	-11.826
前十五心	-11.826
之語	-11.8265
前所引	-11.8273
無想有情	-11.8273
今難	-11.8274
聲上	-11.8274
結歸	-11.8275
令不起	-11.8276
皆不應理	-11.8281
共知	-11.8281
相續生	-11.8281
後一是	-11.8281
天授	-11.8282
菩提道	-11.8288
異世	-11.8289
未得定	-11.829
如菩薩地	-11.8293
遠離作意	-11.8293
始得	-11.8295
量果	-11.8295
論文云	-11.8298
無外境	-11.83
水界	-11.8302
勝因	-11.8304
佛果位中	-11.8308
寧非	-11.8308
其義云何	-11.8308
未除	-11.8309
曾未	-11.8309
以為自性	-11.8309
莊嚴論說	-11.831
作所依	-11.831
非佛語	-11.831
解脫一切障	-11.8311
未究竟	-11.8312
為令眾生	-11.8315
永捨	-11.8315
隙	-11.8316
如是六種	-11.8318
作意修	-11.8319
不並	-11.832
誓受	-11.8321
易緣	-11.8323
亦同此	-11.8326
揀擇	-11.8326
離尋伺	-11.8326
等起善	-11.8327
進斷	-11.8327
先所受	-11.8328
義顯現	-11.8328
佛地經	-11.833
淨佛土	-11.8333
加行道中	-11.8336
何事	-11.8338
是故說為	-11.8339
果利	-11.8341
一切善根	-11.8341
定不成	-11.8342
人天中	-11.8345
賴耶識	-11.8346
離斷常	-11.8347
持對治	-11.8348
c	-11.8352
f	-11.8352
舊名	-11.8361
汝所執	-11.8361
聖諦現觀	-11.8362
意許	-11.8362
深義	-11.8363
故對法云	-11.8364
要依	-11.8365
文分有	-11.8366
二答其數	-11.8367
正感	-11.8368
黑黑	-11.8368
於此地中	-11.8372
盡智無生智	-11.8374
有兩義	-11.8374
初略釋	-11.8374
必當	-11.8375
損他	-11.8377
現行法	-11.8377
非有邊非無邊	-11.8378
堅牢	-11.8378
縱逸	-11.8379
帶彼相起	-11.838
順決擇	-11.838
於生死中	-11.8381
衰退	-11.8382
起如是見立如是論	-11.8382
離間語	-11.8383
受諸苦	-11.8383
娑	-11.8384
雷	-11.8384
金等	-11.8385
=	-11.8386
最極清淨	-11.8387
飄	-11.8389
為定量	-11.8389
未自在位	-11.839
債	-11.8392
因中有果	-11.8392
㲉	-11.8392
順後句	-11.8392
憎恚	-11.8392
化人	-11.8394
鑽	-11.8394
須彌	-11.8397
法處收	-11.8397
染污意識	-11.8399
部行	-11.8399
正念正知	-11.8401
最初發心	-11.8403
辨才	-11.8403
謗因	-11.8405
故名不共	-11.8406
方分	-11.8406
佛地經云	-11.8406
俱有所依	-11.8407
如實義者	-11.8408
殊妙	-11.8409
而為上首	-11.8411
第二師說	-11.8411
和尚	-11.8413
我及世間	-11.8413
周徧	-11.8414
所習	-11.8414
善來	-11.8416
假名為	-11.8422
由迷	-11.8422
迷闇	-11.8422
迷苦諦	-11.8423
止品	-11.8424
法性土	-11.8424
不識	-11.8425
鬼趣	-11.8425
審諦	-11.8429
非有無	-11.843
遍因	-11.843
諸大乘經	-11.8432
廣大轉	-11.8433
無雜染	-11.8434
通內外	-11.8434
順生受	-11.8436
多體	-11.844
五字	-11.8441
亦不定	-11.8445
於當來	-11.8446
無記業	-11.8447
說為空	-11.8448
謂此識	-11.8452
齊何	-11.8452
不定姓	-11.8454
對法第四	-11.8454
能緣所緣	-11.8454
不斷煩惱	-11.8456
緣俗	-11.8456
僻執	-11.8457
故不重	-11.8458
唯是善性	-11.8459
遠分	-11.846
善現	-11.8461
答不然	-11.8462
緣十八界	-11.8463
互無	-11.8465
俱生我見	-11.8468
支提	-11.8473
鏡面	-11.8478
是諸有情	-11.8479
皆是唯識	-11.8481
可意等	-11.8482
由諸菩薩	-11.8483
自下第五	-11.8483
出世間法	-11.8484
不損	-11.8485
中容	-11.849
即第七識	-11.8493
天子	-11.8495
擊發	-11.8498
夢心	-11.8505
如雲	-11.8508
順理	-11.8509
所變色	-11.851
親因	-11.851
涅槃經中	-11.851
造惡業	-11.8511
轉齊	-11.8512
樂具	-11.8525
義分四	-11.8528
兩宗	-11.853
世間清淨	-11.8531
二十劫	-11.8531
㝡	-11.8532
癡一分攝	-11.854
種種分別	-11.8542
念念滅	-11.8543
可愛境	-11.8544
釋名者	-11.8545
煩𢚰	-11.8545
智諦	-11.8546
於四諦	-11.8548
無所取	-11.8548
惡果	-11.8554
假我	-11.8554
演曰三彰	-11.8555
能增長	-11.8556
劫數	-11.8557
女身	-11.8557
無力能	-11.8561
生厭離	-11.8561
障治	-11.8561
業用者	-11.8562
此第一解	-11.8564
最勝義	-11.8565
春	-11.8567
亦非有	-11.8567
此明何義	-11.8568
陸	-11.8568
讚美	-11.857
摩訶衍	-11.857
第十八	-11.857
疫	-11.857
分八如論	-11.857
鍊	-11.8572
泉	-11.8572
傍論	-11.8572
怠	-11.8572
觀所緣緣論	-11.8572
梨	-11.8573
初中有二一	-11.8573
善惡趣	-11.8573
思慕	-11.8574
多劫	-11.8575
諸聖教中	-11.8575
非空非有	-11.8575
非即非離	-11.8576
分量	-11.8576
須臾	-11.8576
相熏	-11.8578
從此已後	-11.8578
專注一境	-11.8579
輭	-11.8579
匱	-11.858
作佛事	-11.858
梵眾天	-11.858
馬鳴	-11.858
大乘義章卷第	-11.8581
誤犯	-11.8581
兄	-11.8582
能造四大	-11.8582
末底	-11.8583
五位百法	-11.8583
能治所治	-11.8585
有色根身	-11.8586
瘡	-11.8586
任運而轉	-11.8588
警覺	-11.8588
獵	-11.8588
以一切法	-11.8588
相應思	-11.8589
叉	-11.8589
集滅道	-11.8589
不可為例	-11.859
具足成就	-11.8591
根塵等	-11.8596
為顯示	-11.8599
謂若有法	-11.86
不藉	-11.86
繫及不繫	-11.8602
魅	-11.8602
結破	-11.8604
尋之	-11.8605
生人中	-11.8607
一釋名	-11.8608
觸支	-11.8609
菩薩十地	-11.8609
然後方	-11.861
不殺	-11.861
總句	-11.8611
四智品	-11.8611
潤生愛	-11.8613
是持業釋	-11.8614
夢覺	-11.8617
受想行	-11.8618
第二廣解	-11.8618
究竟涅槃	-11.8621
本體	-11.8623
一切法無我	-11.8623
如眼等識	-11.8624
緣安立諦	-11.8626
結勸	-11.8629
有流	-11.8632
共變	-11.8634
各不同	-11.8634
與轉識	-11.8634
不乖	-11.8635
普為	-11.8636
大集	-11.8638
思願	-11.8638
貧苦	-11.8639
此三義	-11.864
無明地	-11.8644
假非實	-11.8644
即第六識	-11.8645
如樞要	-11.8645
了相勝解	-11.8645
出現於世	-11.8645
廣大甚深	-11.8645
疏文中	-11.8646
於中分別	-11.8646
以為體性	-11.8648
能生諸法	-11.8649
十二處中	-11.865
顯揚論云	-11.8651
熟變	-11.8656
厭下	-11.866
非實有故	-11.866
色究竟	-11.8661
八正道	-11.8665
下文說	-11.8668
唯欲界繫	-11.8669
演曰第三	-11.867
釋妨	-11.8671
水火風	-11.8673
光明相	-11.8676
四門分別	-11.8676
欣上	-11.8676
依第四禪	-11.8677
中有其	-11.8677
無放逸	-11.868
望餘	-11.8681
緣第八見分	-11.8684
五十三說	-11.8686
之所攝受	-11.8686
從此生	-11.8687
平等法性	-11.8688
苦諦攝	-11.8689
十方佛	-11.869
所照	-11.8696
六神通	-11.8698
不相似故	-11.8702
此牒	-11.8702
問詞	-11.8707
問准	-11.8708
隨世	-11.8709
不可取	-11.8712
憂捨	-11.8713
1	-11.8718
有病	-11.872
方得起	-11.8722
上分	-11.8722
分位假	-11.8723
有何相	-11.8723
戒淨	-11.8724
長行中	-11.8726
供養如來	-11.8727
不敢	-11.8728
厭壞	-11.8728
第三門	-11.8733
深生信解	-11.8735
為伴	-11.8737
此頌中	-11.874
恒續	-11.8742
治障	-11.8744
能緣慮	-11.8747
故別立	-11.8747
無變易	-11.8748
疎所緣	-11.8751
善心起時	-11.8752
不親緣	-11.8753
內空	-11.8754
香味觸三	-11.8755
題目	-11.8763
八諦	-11.8763
地滿心	-11.8763
問如是五事	-11.8764
審察	-11.8765
大罪	-11.8765
奢	-11.8766
十一識	-11.8767
如有頌言	-11.8767
定共戒	-11.877
各別依	-11.877
髮等	-11.877
良醫	-11.8771
工巧業處	-11.8772
膝	-11.8772
愛取二支	-11.8772
非異非不異	-11.8772
顛	-11.8773
既殊	-11.8773
上分結	-11.8773
其理極成	-11.8774
聞所成慧	-11.8775
意成身	-11.8775
的	-11.8775
醫方	-11.8776
合掌	-11.8776
肩	-11.8777
體無別故	-11.8777
略有十種	-11.8777
大有性	-11.8777
四答所以	-11.8778
第八不緣	-11.8779
懶惰	-11.878
如地經說	-11.878
第四真	-11.8781
憎嫉	-11.8782
生淨信	-11.8782
貪憂	-11.8782
不受後有	-11.8782
如兔角	-11.8782
基測	-11.8783
貪瞋慢	-11.8783
彼說非理	-11.8784
民	-11.8784
偏舉	-11.8787
學觀	-11.879
一字所成名	-11.8792
所變之	-11.8793
是故不說	-11.8796
開悟	-11.8796
工業	-11.8796
憂悔	-11.88
初品	-11.88
遍計所起	-11.88
鈔云	-11.8804
定根	-11.8805
盡無生	-11.8806
苦法忍	-11.8806
申難	-11.8807
預流等	-11.8809
法空智果	-11.881
離實等	-11.881
今依大乘	-11.8811
品所攝	-11.8811
勝緣	-11.8811
離二邊	-11.8813
憤恚	-11.8814
是故說彼	-11.8814
百由旬	-11.8814
我常	-11.8815
後之三	-11.8815
善慧地	-11.8816
五十八說	-11.8816
誠證	-11.8816
東方	-11.8817
種生現行	-11.882
導引	-11.882
唯異熟心	-11.8822
迴向菩提	-11.8822
是遍行	-11.8824
四惑相應	-11.8827
異解	-11.8829
依識所變	-11.8829
貪信等	-11.883
不現起	-11.8832
八勝處	-11.8832
八種識	-11.8832
五事中	-11.8833
如本地分	-11.8833
向下	-11.8835
初正釋頌文	-11.8835
佛說法	-11.8835
更須	-11.8839
解脫堅固	-11.884
不怖	-11.8842
十二分	-11.8842
假合	-11.8844
執有我	-11.8844
彼部	-11.8846
喻顯	-11.885
善不善等	-11.8855
王子	-11.8858
如牛	-11.8865
開許	-11.8865
觀行者	-11.8867
不放逸行	-11.8868
謂由此故	-11.8869
專精	-11.8876
二个	-11.8881
布施等	-11.8881
能引起	-11.8881
瑜伽論中	-11.8882
所獲	-11.8883
十界	-11.8892
修靜慮	-11.8894
隨別釋	-11.8895
六念	-11.8895
邪願	-11.8897
次簡	-11.8898
是名第四	-11.8898
又按	-11.8899
已度	-11.89
下地煩惱	-11.8903
唯是無漏	-11.8905
散意識	-11.8905
剎帝利等	-11.891
福利	-11.8913
諸雜染法	-11.8915
後頌	-11.8916
二千	-11.8917
慧數	-11.8918
四無量心	-11.8919
未來生	-11.892
通見修所斷	-11.8923
同依一	-11.8924
此中據	-11.8925
二釋分四	-11.8926
修諸善	-11.8927
一切煩惱皆	-11.8928
宿業	-11.8933
滅界	-11.8935
不悟	-11.8936
引教證	-11.894
則便	-11.894
揀異	-11.8941
義別說	-11.8942
但破	-11.8942
阿練若	-11.8943
超度	-11.8945
更復	-11.8946
十方諸佛	-11.8946
▁初徵	-11.8948
規矩	-11.8949
從他生	-11.895
貪痴	-11.8952
後還	-11.8957
如暴流	-11.8957
不能引	-11.896
轉正法輪	-11.8961
拔除	-11.8963
軸	-11.8963
度量	-11.8965
覩史多天	-11.8965
於實德能	-11.8965
裂	-11.8965
名上士	-11.8965
於一時間	-11.8966
於理為勝	-11.8967
囂動	-11.8968
次釋後結	-11.8968
必帶	-11.8968
籌度	-11.8969
簡餘	-11.8969
見苦所斷	-11.8969
侶	-11.897
後別解釋	-11.8971
亦不緣	-11.8972
日出	-11.8972
此十種	-11.8973
酬因	-11.8974
模	-11.8974
脇	-11.8974
捉	-11.8975
毘曇說	-11.8975
汎爾	-11.8977
第六卷	-11.8977
與一切法	-11.8978
落謝	-11.8978
等持等至	-11.8979
遙	-11.8979
所緣事	-11.898
槃	-11.898
十二句	-11.898
弓	-11.898
不招	-11.8981
如本母釋	-11.8981
潤業	-11.8982
心亂	-11.8983
散壞	-11.8983
隨學	-11.8983
贅	-11.8984
力勵	-11.8985
摩羅	-11.8986
徧計執	-11.8988
王宮	-11.899
所迷	-11.899
去來世	-11.899
嫉等	-11.8992
辨之麁爾	-11.8992
煩惱所知二障	-11.8993
段物	-11.8993
依禪	-11.8993
同在一處	-11.8996
訓釋	-11.8997
憙樂	-11.8998
大勢	-11.8998
演曰五釋	-11.8999
無間道中	-11.8999
具辨	-11.9
變作	-11.9
菩薩乘	-11.9001
三位無	-11.9001
豈不相違	-11.9005
不調	-11.9006
猶如虛空	-11.9008
難測	-11.9008
薰習	-11.901
列其名	-11.9012
稱理	-11.9012
故言一分	-11.9012
所宗	-11.9015
諸聲聞等	-11.9016
前據	-11.9016
化事	-11.9017
九次第定	-11.9018
合離	-11.9019
是無記故	-11.9019
詐現	-11.902
來世	-11.9022
故名無記	-11.9022
現般	-11.9023
語化	-11.9023
喜悅	-11.9028
證大菩提	-11.9034
說為假	-11.9035
會前	-11.9036
作如此	-11.9036
覺寤	-11.9037
欲界修惑	-11.9038
亂體	-11.904
復分為二	-11.904
如佛地論	-11.9041
不決定故	-11.9043
正住	-11.9047
七種作意	-11.9047
謗法	-11.9051
能害	-11.9053
出生死	-11.9056
除瞋	-11.9056
能超	-11.9057
對除	-11.9059
共相應故	-11.9059
邪思惟	-11.906
瑜伽第五	-11.9063
第四第五	-11.9064
通三種	-11.9065
不應作	-11.9065
未具	-11.9065
生般	-11.9066
中邊云	-11.9066
外門轉	-11.9067
所對治法	-11.9067
出胎	-11.9068
雙運	-11.9077
所施物	-11.9077
自思惟	-11.9083
復次明	-11.9083
近生	-11.9084
通二斷	-11.9085
得阿羅漢果	-11.9087
不能染	-11.9088
戒品	-11.9088
煩惱障中	-11.9088
准義	-11.9092
有為功德	-11.9093
資身	-11.9096
串	-11.9096
毛孔	-11.9096
初生時	-11.9096
為對治此	-11.9097
不見有	-11.9103
能治道	-11.9105
法花經	-11.9109
暫起	-11.911
謂此真如	-11.9111
有共不共	-11.9111
四真諦	-11.9111
煩惱所知	-11.9112
真實見	-11.9114
行惡行	-11.9117
但伏	-11.9121
唯有內識	-11.9122
所緣作意	-11.9124
現前供養	-11.9129
利樂事	-11.9133
同時起	-11.9134
六識界	-11.9136
不應執	-11.9141
祈	-11.9143
難意云	-11.9144
皆是無常	-11.9147
三乘通	-11.9148
十惡	-11.9149
更無異	-11.915
隨心轉	-11.9152
引聖教	-11.9155
串習力	-11.9156
所不攝故	-11.9157
行蘊中	-11.9158
甲	-11.916
第七地中	-11.9161
素呾纜	-11.9161
總辨	-11.9162
尤	-11.9164
宿住隨念	-11.9167
除惱	-11.9168
問若爾何故	-11.917
近分定	-11.917
醫	-11.9171
此中有頌	-11.9171
所聞法	-11.9172
何故但	-11.9172
為因生	-11.9172
百一十	-11.9172
頻	-11.9172
括	-11.9174
有分別影像	-11.9174
籌量	-11.9174
與本識	-11.9174
瓦	-11.9174
戰	-11.9175
群臣	-11.9175
迴向無上菩提	-11.9176
現神通	-11.9176
頑	-11.9176
裏	-11.9177
執色為我	-11.9178
尊貴	-11.9179
緣青	-11.9179
是名有犯有所違越	-11.9179
思惟諸法	-11.9179
無色界定	-11.9179
無常苦空無我	-11.918
諠	-11.918
如龜毛等	-11.918
六七八識	-11.9181
無餘依涅槃	-11.9183
作者受者	-11.9185
浮塵根	-11.9185
壽暖	-11.9185
屈申	-11.9185
毘鉢舍那品	-11.9186
二空理	-11.9187
麼	-11.9188
思量名意	-11.9189
住時決定	-11.919
二取習氣	-11.919
隨順世間	-11.9191
續善根	-11.9195
供養三寶	-11.9195
先業所引	-11.9195
而為體性	-11.9196
有十三	-11.9197
極略色	-11.9197
差別假立	-11.92
現起分位	-11.92
善了知	-11.9201
大丈夫	-11.9202
恐有	-11.9203
淨禪	-11.9204
入無心定	-11.9206
能領受	-11.9207
勝解行住	-11.9208
習行	-11.9209
審觀察	-11.9209
一千	-11.9209
俱舍頌云	-11.9209
諸習氣	-11.9209
無量想	-11.921
色心等法	-11.9212
屬我	-11.9212
兩舌	-11.9212
永拔	-11.9213
福不動行	-11.9215
深密等	-11.9216
馬勝	-11.9217
虗空無為	-11.9218
內等淨	-11.9218
五蘊論	-11.9218
與彼同	-11.9221
證量	-11.9221
此即顯示	-11.9223
心心數法	-11.9226
所顯真理	-11.9227
寬廣	-11.9235
三千世界	-11.9238
喜愛	-11.9238
前二師	-11.9238
總斥	-11.9238
出道	-11.9239
十地位中	-11.9241
喜樂俱	-11.9246
未圓	-11.9247
於餘處	-11.9249
根本無分別智	-11.9251
汝許	-11.9252
等無間意	-11.9255
威德定	-11.9256
變異受	-11.9256
外國	-11.9257
無間斷故	-11.9257
受者識	-11.9257
只是	-11.9258
亦不離	-11.926
識中種子	-11.9262
深見	-11.9263
云何無義	-11.9263
三个	-11.9263
思覺	-11.9263
招集	-11.9263
無見無對	-11.9269
明盛	-11.9271
之罪	-11.9271
▁初破	-11.9272
初之一	-11.9273
說偈	-11.9274
八部	-11.9277
真如為體	-11.9278
有五頌	-11.9278
摩尼	-11.9279
者意說此	-11.928
得等流果	-11.9283
答初問	-11.9285
之所依處	-11.9285
間隔	-11.9285
初中分三一	-11.9287
有勝劣	-11.9288
受想滅	-11.9288
非了義	-11.9289
起增上慢	-11.929
執受處	-11.9291
不損惱	-11.9291
通有無漏	-11.9298
勝分	-11.9298
能熏種	-11.9299
及諸心所	-11.9299
亦無過失	-11.9299
於諸境界	-11.93
證會	-11.9301
業所感者	-11.9302
無有愛	-11.9303
僻	-11.9303
宿因	-11.9304
齊此	-11.9304
上來第一	-11.9307
不染汙	-11.9307
法無礙解	-11.9307
於他所	-11.9309
第七識俱	-11.9313
三世法	-11.9316
為有法	-11.9319
世間淨	-11.9323
悟入唯識	-11.9325
第三門中	-11.9329
伹言	-11.933
數修習	-11.9334
分為五	-11.9336
必不俱	-11.9336
廣引	-11.9342
比量相違	-11.9342
不輕	-11.9348
更無別體	-11.9348
彼經云	-11.9351
二別釋分四	-11.9352
色是我	-11.9355
料揀	-11.9357
引自果	-11.9357
變易死	-11.9358
論云何名為至	-11.9359
體無別	-11.936
所生現行	-11.9361
雜染品	-11.9361
慈尊	-11.9363
下二界	-11.9363
二空所顯真如	-11.9367
由二種相	-11.9369
仍未	-11.937
廣說如	-11.9371
演曰後釋之中	-11.9371
瀑流	-11.9371
現量智	-11.9371
朗	-11.9375
安得	-11.9376
咎	-11.9376
嗢	-11.9377
聖財	-11.9377
讚勵	-11.9377
容俱起	-11.9378
餘處說	-11.9378
諸根互用	-11.9379
欲纏	-11.9379
五總結	-11.9379
如是行者	-11.938
皆是假有	-11.938
繼	-11.9381
遽	-11.9381
若因若果	-11.9382
起如是見	-11.9382
昏沉	-11.9383
見道修道	-11.9383
安受苦忍	-11.9383
無種性	-11.9383
養育	-11.9384
農	-11.9384
故無有失	-11.9384
髻	-11.9384
試	-11.9385
載	-11.9386
恐繁不	-11.9386
宿命智	-11.9386
能集	-11.9386
休	-11.9388
僕	-11.9389
有見無見	-11.9389
嬾	-11.939
左右	-11.9394
正念正定	-11.9395
分十中第	-11.9395
顯現似	-11.9395
𨳝	-11.9395
章中具廣分別	-11.9395
忌	-11.9397
釋其名	-11.9399
顯揚十六	-11.94
上品煩惱	-11.9401
▁初正明	-11.9401
十一支	-11.9404
名號	-11.9405
山等	-11.9408
逼害	-11.9408
能攝持	-11.9408
堅密	-11.9409
由四因緣	-11.941
謂五色根	-11.941
增上緣依	-11.9411
缺減	-11.9411
梵眾	-11.9414
能持種子	-11.9416
為諸有情	-11.9416
與定相應	-11.9419
慼行	-11.9419
觀察諸法	-11.942
觀一切法	-11.9421
未合	-11.9423
身形	-11.9424
前六地	-11.9425
本寂	-11.9427
計有我	-11.9431
十迴向	-11.9432
六處支	-11.9434
長因	-11.9434
極寂靜	-11.9435
他勝	-11.9436
大眾部等	-11.9436
滅受想	-11.9439
淨意樂	-11.944
邪智	-11.9441
前已說	-11.9446
眾寶	-11.9447
如是十種	-11.9448
四無記中	-11.9449
大天	-11.945
約三性	-11.9453
永寂	-11.9454
士夫用	-11.9454
不淨想	-11.9455
釋妨難	-11.9455
能所緣	-11.9457
名引因	-11.9457
法印	-11.946
作用道理	-11.9461
戲樂	-11.9461
鬼神	-11.9462
二空真如	-11.9466
障礙依處	-11.9469
法自相	-11.947
等無間依	-11.9471
邪勝解	-11.9472
簡略	-11.9477
對礙	-11.9477
邪慢	-11.9478
諍事	-11.9481
得不還果	-11.9482
隨義分別	-11.9486
般若經	-11.949
無勞	-11.949
決擇分說	-11.9492
於菩薩藏	-11.9497
所得轉依	-11.95
相返	-11.95
加行究竟	-11.9502
似根	-11.9503
此三法	-11.9503
卷下	-11.9503
二十隨煩惱	-11.9503
所犯罪	-11.9505
後之二	-11.9506
明得定	-11.9506
是無覆無記	-11.9507
俱空	-11.9507
因果相續	-11.9509
不捨離	-11.951
已趣入	-11.9512
無間解脫道	-11.9515
執著相	-11.9516
此之三	-11.9516
因果差別	-11.9516
資粮加行位	-11.9517
九地中	-11.9519
章句	-11.952
且就	-11.952
共立	-11.9521
但就	-11.9525
一切麁重	-11.9529
感生死	-11.953
緣此境	-11.953
難知故	-11.953
大願力	-11.9531
准此釋	-11.9532
地水	-11.9534
天眾	-11.9534
佛德	-11.9534
文分為二初惣	-11.9538
所斷煩惱	-11.954
第二辨	-11.9541
皆得自在	-11.9544
意可知	-11.9547
有尋有伺地	-11.9547
真解脫	-11.9547
現比	-11.955
初受生	-11.9552
唯善性	-11.9553
無堪能	-11.9553
一向記	-11.9555
汝何所欲	-11.9557
生怖畏	-11.9564
猶未盡	-11.9564
共有因	-11.9564
實等性	-11.9566
則違	-11.9567
萬億	-11.957
頓得	-11.9579
剎那生滅	-11.958
退起	-11.958
撰	-11.9581
紙	-11.9585
何以知者	-11.9586
故思造業	-11.9587
㝵	-11.9587
不執著	-11.9588
貞	-11.959
初果人	-11.959
扙	-11.959
間生	-11.959
雜彼煩惱	-11.9591
霜	-11.9591
供事	-11.9592
攝相歸性	-11.9592
死後斷滅	-11.9592
幢	-11.9594
聊簡	-11.9595
竹	-11.9596
俱生身邊二見	-11.9597
僮僕	-11.9598
憐	-11.9599
七地已前	-11.9599
說斷二愚	-11.96
開演	-11.9601
五十六云	-11.9601
未知欲知根	-11.9602
十善業道	-11.9603
必藉	-11.9604
永害隨眠	-11.9605
重辨	-11.9605
各別內證	-11.9605
輒	-11.9606
猪	-11.9606
赴	-11.9606
仁王經	-11.9608
非斷非常	-11.9608
能引義利	-11.9609
互為客	-11.9609
諸大種	-11.961
通而論之	-11.9612
以為涅槃	-11.9612
論主破云	-11.9613
二十三諦	-11.9613
猶存	-11.9614
後解為勝	-11.9614
苣勝	-11.9615
不越因量	-11.9616
緣一切境	-11.9616
難詞	-11.9617
政	-11.9617
天眼耳通	-11.9617
湛然	-11.9618
諸法無我	-11.9619
勝力	-11.962
三徵問	-11.9621
乖返	-11.9621
頌分二	-11.9622
現可得故	-11.9623
通見修斷	-11.9623
染淨因果	-11.9625
福非福不動	-11.9626
帶數釋	-11.9626
六識相應	-11.9628
法僧	-11.9628
修習對治	-11.9629
兩个	-11.963
有二句	-11.9631
從定起	-11.9634
能緣識	-11.9634
遍在	-11.9635
觸思	-11.9637
大梵王	-11.9638
▁次別釋	-11.9639
度生	-11.9639
凡愚	-11.9644
文分三叚一	-11.9644
無漏聖道	-11.9645
值佛	-11.9647
重顯	-11.9648
所有善根	-11.9649
用功	-11.9652
魔怨	-11.9652
不謬	-11.9652
未解脫	-11.9653
扶根	-11.9653
出家眾	-11.9656
改易	-11.9656
具足安住	-11.9658
堅持	-11.9659
欲等五	-11.966
經部等	-11.966
雜業	-11.966
和集相	-11.9665
積聚義	-11.9666
滅定位	-11.9669
久滅	-11.9672
對法等說	-11.9674
敢	-11.9674
三受俱	-11.9675
邪解脫	-11.9675
體非是	-11.9676
初句標	-11.9677
無我行	-11.9683
五段	-11.9683
塗染	-11.9683
隣近釋	-11.9685
三途	-11.9685
如所應	-11.9687
示其	-11.9691
南無	-11.9692
恃巳	-11.9692
我無我	-11.9693
汝大乘	-11.9696
種現俱	-11.97
發正願	-11.97
大那落迦	-11.9701
是佛所說	-11.9701
和會	-11.9703
調伏眾生	-11.9706
習修	-11.9707
一世界	-11.9709
之實性	-11.9709
徧知	-11.971
有為之法	-11.971
先摽後釋	-11.9711
明暗	-11.9712
由如是等	-11.9712
卷第一	-11.9713
依士釋也	-11.9714
先就	-11.9716
令諸眾生	-11.9716
緣上界	-11.9716
前六轉識	-11.9717
非別有體	-11.9718
縛所縛	-11.9724
辨其相	-11.9725
轉更	-11.9725
今此論中	-11.9726
二引經	-11.9728
通凡聖	-11.9729
別句	-11.973
前中先	-11.973
亦復不	-11.973
義門差別	-11.9732
內識所變	-11.9733
無心睡眠	-11.9739
配釋	-11.9742
淨無記	-11.9744
觀諸色	-11.9746
之所攝故	-11.9749
法爾種	-11.9749
一切波羅蜜多	-11.9751
在色界	-11.9752
所起煩惱	-11.9755
常寂	-11.9758
究竟地	-11.9762
金輪	-11.9762
此疏中	-11.9764
?」	-11.9768
四十四	-11.9769
得增上果	-11.9771
為能相	-11.9773
共中不共	-11.9777
第十云	-11.9778
法念住	-11.9783
短長	-11.9785
總執	-11.9786
卷上	-11.9787
遊履	-11.9791
空無相	-11.9792
逢緣	-11.9795
第八地中	-11.9797
假實門	-11.9797
一分無記	-11.98
無不皆	-11.98
不帶	-11.9801
助道	-11.9802
周圓	-11.9802
鎖	-11.9802
定相應故	-11.9803
有事無事	-11.9803
幾支	-11.9803
哲	-11.9804
執為實我	-11.9805
不造新業	-11.9806
躭	-11.9806
堅性	-11.9808
分七中	-11.9809
各為一	-11.9809
棄背	-11.981
不相捨離	-11.981
澄清	-11.9811
無行般	-11.9811
敬事	-11.9811
跋	-11.9811
竊	-11.9812
胤	-11.9812
舍利子	-11.9813
毘那耶	-11.9814
太狹	-11.9814
攝一切法	-11.9815
德失	-11.9815
根身器界	-11.9815
菓	-11.9815
所成之	-11.9816
擲	-11.9816
慧波羅蜜多	-11.9817
三十七菩提分法	-11.9818
行苦性	-11.982
有所堪能	-11.9821
下中上品	-11.9821
銀	-11.9821
燒惱	-11.9821
洞	-11.9822
船	-11.9822
令心高舉	-11.9822
府	-11.9822
到究竟地	-11.9822
阿修羅	-11.9822
醜	-11.9823
正實趣生	-11.9823
楚	-11.9824
與憂相應	-11.9824
掉動	-11.9825
類此應知	-11.9826
就初段中	-11.9826
受具足戒	-11.9827
心外有法	-11.9827
上來已	-11.9828
難可了知	-11.983
無緣義	-11.983
異熟愚	-11.9832
在初地	-11.9832
從彼沒	-11.9832
之所隨逐	-11.9835
師資	-11.9835
而為說法	-11.9835
念念生滅	-11.9835
獨行無明	-11.9836
攝論中	-11.9837
脩行	-11.9837
識為緣	-11.9841
五十九云	-11.9842
正思量	-11.9843
邪婬	-11.9843
歸命	-11.9845
眼等諸根	-11.9846
有實體用	-11.9846
無慙	-11.9847
等流色	-11.9847
幻等	-11.9848
水輪	-11.985
聖教我法	-11.9851
部執	-11.9852
體性業用	-11.9853
觸生受	-11.9854
順苦受	-11.9855
門有一問答	-11.9856
無功用行	-11.9856
是故偈言	-11.9858
一切悉	-11.9858
如是廣說	-11.9858
勝鬘經云	-11.986
菩薩地說	-11.986
五十五云	-11.9861
遍了知	-11.9861
生盲	-11.9862
小乘人	-11.9864
大乘所說	-11.9865
與此不同	-11.9865
雖有多	-11.9866
一切聲聞獨覺	-11.9868
氣分	-11.9868
名無覆	-11.9869
加功	-11.987
初剎那	-11.987
正現在前	-11.987
有其四	-11.9871
生住異滅	-11.9871
數為體	-11.9872
數數修習	-11.9873
得圓滿故	-11.9874
能證涅槃	-11.9874
或有一類	-11.9876
無損	-11.9876
蓋乃	-11.9877
無滯	-11.9883
唯分別起	-11.9884
▁次約	-11.9885
大義曰	-11.9888
各各不同	-11.9889
能有所	-11.9892
謂諸外道	-11.9893
發業潤生	-11.9896
於父母	-11.99
三種意生身	-11.99
在生死	-11.99
如幻等	-11.9902
世親菩薩	-11.9902
略示	-11.9905
地地中	-11.9906
發智	-11.9908
傾動	-11.9908
所資	-11.9908
八十七	-11.9912
餘句	-11.9913
心行滅	-11.9915
由四種相	-11.9915
色聲等	-11.9916
借識	-11.9918
所取相	-11.9918
中容境	-11.9918
本有初	-11.992
空不空	-11.9921
復何所	-11.9922
招異熟	-11.9923
不能了	-11.9924
相無自性性	-11.9925
法律	-11.993
久修	-11.993
離間	-11.9936
能辦	-11.9937
識等五果種子	-11.9937
古人	-11.9937
涅槃經說	-11.9943
多聞熏習	-11.9945
莖等	-11.9946
起善心	-11.9947
等也言	-11.9949
辯其相	-11.9949
堅著	-11.9949
▁初師	-11.9951
准瑜伽	-11.9951
差別分三	-11.9952
正潤	-11.9952
此即總	-11.9952
種上立	-11.9954
隨順依處	-11.9954
修多羅中	-11.9955
之旨	-11.9955
死巳	-11.9956
十二緣生	-11.9956
次正釋	-11.9956
一切法空	-11.9957
百歲	-11.9959
下三句	-11.9959
風大	-11.996
正學	-11.9961
釋經文	-11.9965
乃至無所有處	-11.9965
想倒	-11.9965
色受等	-11.9965
揔標	-11.9968
手足等	-11.9968
易入	-11.9968
分別我執	-11.9973
為無間緣	-11.9977
草木等	-11.9977
生覺受	-11.9978
自分因	-11.998
相對分別	-11.9983
望他	-11.9984
次別解	-11.9985
信戒	-11.9987
本來無	-11.9987
三別釋分三	-11.9993
此中有義	-11.9993
根本位	-11.9996
無文說	-11.9999
十八種	-12.0002
之主	-12.0003
自識所變	-12.0008
八十一品	-12.0009
第十七	-12.0011
敬重	-12.0012
花嚴	-12.0012
錯也	-12.0012
若二乘人	-12.0012
由不了	-12.0013
有智者	-12.0015
若夫	-12.002
躁	-12.0023
三摩呬多	-12.0023
寺沙門	-12.0026
演曰後荅之中	-12.0027
深密經	-12.0027
像似正法	-12.0027
初修業者	-12.0029
初問後答	-12.0029
是實物有	-12.0031
以立其名	-12.0031
舞	-12.0031
凶	-12.0033
於母胎中	-12.0035
谷響	-12.0036
儉	-12.0036
若諸菩薩安住菩薩淨戒	-12.0036
昧劣	-12.0036
逮	-12.0037
曇	-12.0037
眼等六根	-12.0038
朋友	-12.0038
道場	-12.0038
嗣	-12.0039
踰	-12.0039
惡口	-12.0039
淚	-12.0039
僧祗	-12.004
集起名心	-12.004
耻	-12.004
讚嘆	-12.004
他化自在天	-12.0041
徧諸染心	-12.0041
四無色定	-12.0041
獨影唯從見	-12.0042
拆	-12.0042
苾芻尼	-12.0042
彼既不爾	-12.0045
低	-12.0045
聚集顯現	-12.0046
自在依止義	-12.0046
壅	-12.0048
稱揚	-12.0048
曉了	-12.0048
屍骸	-12.0048
氏	-12.005
於中別分	-12.005
俱時而轉	-12.0051
三摩地門	-12.0051
諮	-12.0051
為四句	-12.0051
脩羅	-12.0052
須彌山	-12.0052
圓淨	-12.0052
諸有智者	-12.0052
若復說言	-12.0053
執為最勝	-12.0053
引後念	-12.0054
有實作用	-12.0054
次辯	-12.0054
心所與心	-12.0056
隨起言說	-12.0058
釋有兩義	-12.0059
餘文可解	-12.0059
崇重	-12.006
於所知境	-12.006
運轉作意	-12.0061
在因位	-12.0063
可愛事	-12.0064
為眾生故	-12.0065
半月	-12.0066
增上慧住	-12.0066
第十地中	-12.0067
車乘	-12.0067
不謗	-12.0068
福分	-12.0068
尋伺俱	-12.0068
大智度論	-12.0069
攝取眾生	-12.007
眾人	-12.0073
後三句	-12.0073
見諸眾生	-12.0073
名句字	-12.0074
初二位	-12.0074
不應正理	-12.0075
邊際定	-12.0076
名一切智	-12.0076
垢淨	-12.0077
重生	-12.0078
如此如此	-12.0079
也詳曰	-12.008
三乘聖道	-12.008
准此文	-12.0082
惑亂	-12.0085
處善巧	-12.0086
歸本	-12.0087
無漏定願	-12.0087
更互為緣	-12.0088
及彼相應	-12.0091
煞生	-12.0091
而有差別	-12.0092
謂佛世尊	-12.0093
應非是	-12.0096
為能生因	-12.01
等分行	-12.0101
自所變	-12.0102
報盡	-12.0105
已下明	-12.011
對治作意	-12.011
初能變識	-12.0111
有三門	-12.0116
無相修	-12.0118
三聚戒	-12.012
自心變	-12.012
具斯	-12.0124
苦受俱	-12.0126
諸凡夫	-12.0126
偏增	-12.0126
頂位	-12.0131
燈焰	-12.0132
招引	-12.0133
諦聽	-12.0134
種引種	-12.0137
三結二明	-12.0138
斷緣縛	-12.0138
十五心	-12.0139
第三辨	-12.0141
皆如實知	-12.0141
必先	-12.0142
至金剛心	-12.0143
照明	-12.0143
又難云	-12.0144
所發業	-12.0146
非福行	-12.0152
假合生	-12.0155
麁物	-12.0156
上來有二	-12.0159
即攝得	-12.0159
舉頌答	-12.016
智度	-12.0165
三結示	-12.0166
次申	-12.0172
因果同時	-12.0175
謂若略說	-12.0175
有一頌	-12.0176
能防	-12.0177
俗諦中	-12.018
攝決擇分	-12.0184
無明漏	-12.0187
思惠	-12.0188
而興	-12.0192
為不定過	-12.0194
警心	-12.0197
殖	-12.02
長行廣解	-12.0201
互作等無間緣	-12.0201
謂信等五	-12.0202
所惱	-12.0207
慙	-12.0211
火辨	-12.0214
分之為三	-12.0216
有三師	-12.0217
我執習氣	-12.0219
新熏種	-12.0226
為境界故	-12.0227
金剛定	-12.0228
自證緣	-12.0234
答前問	-12.0234
無礙解脫	-12.0234
柔	-12.0236
貪嗔等	-12.0238
四正勤	-12.024
第三頌	-12.0243
亦無過	-12.0243
演曰十一	-12.0243
覓	-12.0244
牒救	-12.0245
顯揚聖教論	-12.0248
所調伏界	-12.025
得上定	-12.0252
分九如論	-12.0253
佛僧	-12.0254
意解思惟	-12.0255
讚佛	-12.0256
說假部	-12.0256
院	-12.0257
得此定	-12.0258
秋	-12.0258
過去業	-12.0258
受持讀誦	-12.026
多識俱轉	-12.0262
萎	-12.0262
法忍法智	-12.0262
鄔波	-12.0262
根不壞	-12.0262
䨱	-12.0262
苦樂捨	-12.0263
新起	-12.0263
匪	-12.0263
如先所說	-12.0263
憍逸	-12.0264
迦旃延	-12.0264
身業語業	-12.0264
生住成得	-12.0265
親近善士	-12.0265
金剛道後	-12.0265
言總意別	-12.0266
旦	-12.0268
眼耳身三識	-12.0268
我頂禮	-12.0269
被甲	-12.027
剌	-12.0271
尊卑	-12.0271
羯羅藍	-12.0272
心善解脫	-12.0273
有學位	-12.0273
念為增上	-12.0274
莊	-12.0274
此云何然	-12.0274
不可樂	-12.0275
不生喜足	-12.0275
賣	-12.0275
石女兒	-12.0275
鼠	-12.0276
勝解行	-12.0277
對法第六	-12.0278
決定相違	-12.0279
調適	-12.0279
聲名句文	-12.028
明善知世間	-12.0282
佛滅後	-12.0283
有五義	-12.0284
置記	-12.0285
禪波羅蜜	-12.0286
別有自體	-12.0286
種望現	-12.0291
生空智果	-12.0292
不宜	-12.0292
脩所斷	-12.0293
無染著	-12.0294
云何菩薩於	-12.0294
不依於	-12.0294
菩薩地中	-12.0295
分段變易	-12.0295
休息	-12.0295
所造作	-12.0296
夫言	-12.0296
成熟佛法	-12.0297
仍有	-12.0299
入真觀	-12.0304
能成立	-12.0304
大地法故	-12.0305
色根所取	-12.0307
根鈍	-12.0309
遍行因	-12.0311
方得生	-12.0312
外諸色	-12.0312
果熟	-12.0312
希願	-12.0312
唯自利	-12.0314
六觸處	-12.0318
▁次師	-12.0319
法空理	-12.0319
有如是相	-12.0319
婆沙論	-12.0321
經律	-12.0321
第八現行識	-12.0323
後結成	-12.0323
徵也	-12.0324
入於涅槃	-12.0327
先辯	-12.0327
發無表	-12.0329
尋伺二法	-12.0331
不還果人	-12.0331
大雲	-12.0332
閒	-12.0332
第四門中	-12.0333
善無記心	-12.0336
彌勒菩薩	-12.0341
報土	-12.0342
兩處	-12.0345
寧說	-12.0347
如涅槃經	-12.0348
邪行障	-12.0348
求財	-12.0349
說彼為	-12.035
非實有體	-12.0351
堪受	-12.0355
知恩	-12.0356
下文言	-12.0358
極細	-12.0359
制戒	-12.0362
罪福	-12.0362
名自性受	-12.0363
名之差別	-12.0366
離名言	-12.0366
定不相應	-12.0368
靜慮無色	-12.037
異蘊	-12.0373
無餘斷	-12.0377
妙音	-12.0377
內二分	-12.0377
種子隨逐	-12.038
緣外境	-12.0381
見道位中	-12.0382
空界色	-12.0384
護戒	-12.0386
餘蘊	-12.0392
無雲	-12.0393
化有情	-12.0402
而為其	-12.0402
所恃	-12.0407
名色識	-12.041
所逼	-12.0412
念力	-12.0413
汝若言	-12.0414
門文分三段	-12.0414
此聞熏習	-12.042
名世俗有	-12.042
太寬	-12.0421
中初問	-12.0421
六句義	-12.0429
十八空	-12.043
至究竟位	-12.0431
並用	-12.0431
蓮花	-12.0432
戒現觀	-12.0432
住一境	-12.0432
麁惡	-12.0433
有心時	-12.0433
第六識俱	-12.0434
所治法	-12.0435
惠捨	-12.0439
現行第八識	-12.0444
各有異	-12.0446
真勝義	-12.0455
釋頌文	-12.0456
似帶質	-12.0456
前後次第	-12.0456
所有隨眠	-12.0459
別種生	-12.0462
染惱	-12.0467
此義不成	-12.0468
所證法	-12.0469
叚	-12.0472
徵列	-12.0478
文分為二一辯	-12.0478
唯修斷	-12.0479
何得有	-12.0479
二別釋分四十四中第	-12.0479
才	-12.0482
次結示	-12.0483
偷	-12.0485
普能	-12.0485
籌	-12.0486
焚燒	-12.0487
不能親緣	-12.0487
訪	-12.0488
燭	-12.0488
現觀智諦現觀	-12.0488
贍部洲	-12.0488
霧	-12.049
諷誦	-12.0491
名有所依	-12.0491
略而不論	-12.0491
宋	-12.0491
紹	-12.0493
幸	-12.0494
有轉易	-12.0494
無尋唯伺地	-12.0495
無異相	-12.0497
十八不共法	-12.0497
升	-12.0497
伐	-12.0499
貝	-12.0499
名中士	-12.0499
忿怒	-12.05
疲厭	-12.0501
有二復次	-12.0501
共中共	-12.0501
摩醯首羅	-12.0502
不解我意	-12.0502
封	-12.0502
無差別相	-12.0503
防守	-12.0503
曾聞	-12.0503
纖	-12.0503
尸羅律儀	-12.0504
於苦諦	-12.0504
苗	-12.0505
無為功德	-12.0507
不能明記	-12.0509
是名為犯眾多犯	-12.0509
開覺	-12.0509
如夢所見	-12.0509
為欲斷除	-12.051
何不名	-12.051
遠離二邊	-12.051
是實非假	-12.051
緣有事	-12.051
泛	-12.0511
所以然者	-12.0516
靜慮波羅蜜多	-12.0516
前後相望	-12.0519
會玄	-12.0519
都無所得	-12.052
故有別也	-12.0522
四十四智	-12.0522
變化土	-12.0526
法真見道	-12.0528
略辨如是	-12.0529
餘三緣	-12.0529
為欲證得	-12.0531
希奇法	-12.0532
不取餘	-12.0532
親附	-12.0537
初一頌半	-12.0537
緣他地	-12.0537
不定性人	-12.054
二十部	-12.054
獨覺地	-12.054
發潤	-12.0541
違聖教	-12.0541
勤策	-12.0543
見聞等	-12.0546
生慚愧	-12.0546
五淨居天	-12.0546
如來十力	-12.0549
擾惱	-12.0551
恒在	-12.0552
功德品	-12.0553
結使	-12.0553
略有四	-12.0554
勝義根	-12.0554
如法華	-12.0557
所熏種	-12.0559
十平等	-12.056
覆護	-12.0562
月藏	-12.0562
始業	-12.0566
獨勝	-12.0566
聖慧眼	-12.0568
金剛般若	-12.0569
身繫	-12.0569
道路	-12.0571
唯一剎那	-12.0574
不可轉	-12.0576
略義中	-12.0578
之功	-12.058
伏難云	-12.0583
修悲	-12.0584
如次配之	-12.0585
是佛語	-12.0585
不執著相	-12.0587
第四勝義	-12.0589
次第解釋	-12.059
現在未來	-12.059
生五淨居	-12.059
初略明	-12.0591
強思	-12.0592
離縛斷	-12.0594
一身中	-12.0596
畢竟斷	-12.0597
領觸	-12.0601
堅實	-12.0604
世親云	-12.0611
究竟清淨	-12.0616
於夢中	-12.0621
不熏成種	-12.0622
同前釋	-12.0623
遍三界	-12.0623
從果為名	-12.0625
非倒	-12.0626
有識身	-12.0626
得離繫果	-12.063
通上一	-12.0631
寶藏	-12.0632
一箇	-12.0636
光淨	-12.0637
癡為體	-12.0637
餘四蘊	-12.0641
因緣力	-12.065
二別釋分三	-12.0653
行相微細	-12.0654
牒執	-12.0657
正知住	-12.0661
未來世中	-12.0663
問何名	-12.0663
此不應理	-12.0664
師計	-12.0664
愛取有三	-12.0666
大般若經	-12.0667
為二緣	-12.0667
復說言	-12.067
八識心王	-12.0671
無間而生	-12.0672
數論師	-12.0674
第四地中	-12.0674
四受俱	-12.0675
出定時	-12.0675
五十三云	-12.0675
釋詞	-12.0676
無痴	-12.0678
見修所斷	-12.0678
識蘊攝	-12.0683
邪師	-12.0684
隨所樂	-12.0684
不推度	-12.0685
十个	-12.0687
令他知	-12.0695
對法第九	-12.0707
梁攝論	-12.0709
取為緣	-12.0712
皷	-12.0712
此翻名	-12.0716
悞犯	-12.0722
當生處	-12.0722
肉團	-12.0722
皆准此知	-12.0723
稼穡	-12.0724
何故此滅復名	-12.0725
義同前	-12.0725
父母妻子	-12.0726
火所燒	-12.0727
肘	-12.0728
相似相對法	-12.0728
遞	-12.0729
不相雜亂	-12.073
驅役	-12.073
太子	-12.073
存活	-12.0731
溺	-12.0733
矯詐	-12.0733
令法久住	-12.0733
染依他	-12.0734
論釋成	-12.0735
六十劫	-12.0735
和合似一	-12.0735
共相收攝	-12.0735
不執為外	-12.0736
不如正理	-12.0736
一切法皆無自性	-12.0736
偏注	-12.0737
隨緣何境	-12.0738
狂亂	-12.0738
欺誑	-12.0738
不堅住故	-12.0738
搆畫	-12.0738
不善有覆	-12.0738
燃	-12.0738
聲上屈曲	-12.0738
合響清涼	-12.0739
現纏	-12.074
悞	-12.074
淡	-12.074
性境不隨心	-12.074
奴婢	-12.074
正辯	-12.074
屍	-12.074
尾	-12.074
故不為例	-12.0741
無損害	-12.0741
前滅後生	-12.0742
二禪已上	-12.0742
由斯理趣	-12.0742
觸緣受	-12.0743
故雜心云	-12.0743
心淨為性	-12.0744
獲大	-12.0744
賓	-12.0744
憚	-12.0745
他勝處法	-12.0745
謂能引發	-12.0745
無色繫	-12.0746
纏及隨眠	-12.0746
汁	-12.0746
何爽	-12.0747
理教相違	-12.0747
等三句	-12.0747
漸減	-12.0747
焚	-12.0748
練磨心	-12.0748
剎利	-12.0748
審思	-12.075
若有成就	-12.0751
初地初心	-12.0752
靜息	-12.0753
實不可得	-12.0755
對辨	-12.0756
煗頂	-12.0758
貪瞋痴	-12.076
都盡	-12.076
彼作是思	-12.0761
譬如虛空	-12.0762
世閒	-12.0762
甚深廣大	-12.0763
總報主	-12.0763
便能證得	-12.0763
入初靜慮	-12.0764
相應不相應	-12.0767
今此頌中	-12.0767
得作佛	-12.0767
五十七云	-12.0767
為業用	-12.0768
次辨其相	-12.0768
是假法	-12.0769
短命	-12.077
如解深密	-12.0771
影像色	-12.0771
未見文	-12.0776
領受依處	-12.0776
諸煩惱纏	-12.0776
在家品	-12.0777
且如眼識	-12.0777
差別而轉	-12.0777
以此為依	-12.0777
生緣老死	-12.0778
受法樂	-12.078
大莊嚴論	-12.0781
見膿河	-12.0781
如師子	-12.0782
瑜伽第九	-12.0783
無間道斷	-12.0783
相應發心	-12.0789
緣餘境	-12.0789
無餘依地	-12.0789
色為我	-12.0791
緣真俗	-12.0791
根本真實	-12.0791
愛我故	-12.0793
薄塵	-12.0794
智光	-12.0794
而生起故	-12.0798
與無明俱	-12.0799
利樂他	-12.0799
更增	-12.0801
此下第二	-12.0802
一真法界	-12.0802
此句明	-12.0803
兼破	-12.0803
聲名等	-12.0806
有為空	-12.0808
八大隨	-12.081
福業事	-12.0811
善無記法	-12.0814
化益	-12.0814
本識所變	-12.0815
皆得相應	-12.0817
談論	-12.0819
極難勝	-12.082
漏盡力	-12.082
復有六種	-12.0825
沒已	-12.0833
善修治	-12.0834
見道惑	-12.0836
畢竟空	-12.0839
事不成	-12.0839
退弱	-12.0842
四因中	-12.0843
所執我法	-12.0849
一出體	-12.0849
諸婆羅門	-12.0853
作是思	-12.0854
初引經	-12.0859
有情眾	-12.0859
化用	-12.0859
寂滅樂	-12.0861
先徵後釋	-12.0861
觀照	-12.0861
得根本定	-12.0862
種性住	-12.0863
貪瞋癡慢	-12.0865
同毘曇	-12.0865
天眼見	-12.087
類亦同	-12.0871
幻師	-12.0876
極微和合	-12.0877
十自在	-12.0881
非擇滅無為	-12.0881
離戲論	-12.0882
互為因果	-12.0882
唯是無覆無記	-12.0883
卑下	-12.0884
第五第六	-12.0889
列名分四如論	-12.0891
長大	-12.0892
皆通三性	-12.0892
十二緣起	-12.0892
界善巧	-12.0896
應非實	-12.0898
十色處	-12.0902
一一極微	-12.0908
若諸異生	-12.091
恒行不共	-12.0912
見道所斷煩惱	-12.0914
勤行	-12.0917
能牽	-12.092
下別解	-12.0921
最大	-12.0925
思所成	-12.0925
能生長	-12.0928
法尒	-12.0931
二門分別	-12.0933
釋論師	-12.0934
金剛心時	-12.0934
入聖道	-12.0937
入法無我	-12.094
無爽	-12.0941
未能伏滅	-12.0941
增強	-12.0941
入唯識觀	-12.0941
色界無色界	-12.0946
0	-12.0948
𢝰	-12.0953
文分為二初辯	-12.0953
澄	-12.0954
名多名身	-12.0955
修施等	-12.0955
演秘	-12.0956
乱	-12.0956
表義名言	-12.0958
矯誑	-12.096
應不名	-12.096
音義初	-12.0962
乃至命終	-12.0962
窮生死際	-12.0963
維	-12.0964
極逈	-12.0964
攝法不盡	-12.0966
釋中有二一	-12.0966
佛剎	-12.0968
淨行所緣	-12.097
依多分說	-12.097
如有問言	-12.0971
如實遍智	-12.0971
正語業命	-12.0972
丈	-12.0974
故次說言	-12.0974
空一顯色	-12.0975
我生已盡	-12.0975
愁歎	-12.0975
咀	-12.0975
獎	-12.0975
藝	-12.0976
獨行不共	-12.0977
所作成辨	-12.0977
羣	-12.0977
銷	-12.0978
演曰六明	-12.0978
親近善友	-12.0979
貪欲瞋恚	-12.0979
慈悲喜捨	-12.0979
名下士	-12.0979
恭	-12.098
自餘一切	-12.098
我愛執藏	-12.0981
同分彼同分	-12.0981
喜貪俱行愛	-12.0982
寢	-12.0982
灌頂	-12.0982
一切言說	-12.0982
起諸煩惱	-12.0983
鹽	-12.0983
堅猛	-12.0984
心外無法	-12.0984
童子	-12.0985
攝為自體	-12.0985
按瑜伽論	-12.0985
觸等亦如是	-12.0986
膿	-12.0986
修觀行者	-12.0987
百一十二	-12.0988
雙印	-12.0988
殿	-12.0988
勒	-12.0989
頭數	-12.0989
染汙意	-12.099
苦樂二受	-12.0991
是識性故	-12.0991
假智詮	-12.0992
識變現	-12.0992
所證理	-12.0995
五無間業	-12.0996
王臣	-12.0998
無涅槃法	-12.1
心外實有	-12.1002
而證得故	-12.1003
根塵識	-12.1003
士用依處	-12.1004
內外空	-12.1005
譬如有人	-12.1005
皆無自性	-12.1005
四十心	-12.1005
大威德	-12.1006
稍難	-12.1006
種子之所隨逐	-12.1008
者得罪	-12.1009
文復有二	-12.1009
遲鈍	-12.1011
欣求	-12.1011
妙用	-12.1012
慧為上首	-12.1013
清淨佛土	-12.1013
故知別有	-12.1015
如餘處說	-12.1018
不共中共	-12.1018
成壞劫	-12.1019
初中復二先	-12.1019
無暇	-12.102
能執心	-12.102
由此毀犯	-12.102
止惡	-12.1026
由定力	-12.1027
變似我法	-12.1027
勞慮	-12.1028
雜染品法	-12.1029
為有為無	-12.103
清白	-12.103
求利	-12.1033
第三果人	-12.1038
雜藏	-12.1038
能詮教	-12.1039
夢見	-12.1044
品中說	-12.1044
亦同此說	-12.1045
而得生起	-12.1047
方成種子	-12.105
令他信	-12.1052
那含果	-12.1054
罪過	-12.1056
緣五境	-12.1058
顯揚第十	-12.1058
御眾	-12.1059
能詮表	-12.1062
須陀洹果	-12.1063
說一切有部	-12.1065
勸信	-12.1066
厭捨	-12.1068
頓捨	-12.1069
唯識相性	-12.1073
彼諸有情	-12.108
無數劫	-12.1081
五受俱	-12.1082
雜集論云	-12.1082
影略說	-12.1088
四沙門果	-12.1097
能引無義	-12.11
說此為	-12.1101
有五句	-12.1103
諸心法	-12.1105
初番	-12.1106
以有因	-12.1107
初標後釋	-12.1108
俱舍論云	-12.111
聲聞戒	-12.1113
就他宗	-12.1114
意樂清淨	-12.1114
爾所時	-12.1116
風災	-12.1117
不施與	-12.1117
諸天人	-12.1119
測師	-12.112
雜集云	-12.112
墮地獄	-12.1125
欲界九品	-12.1125
段文	-12.113
從彼生	-12.113
宿住通	-12.1131
思度	-12.1131
此即第二	-12.1132
一切皆空	-12.1133
一向無漏	-12.1135
上所說義	-12.114
靜住	-12.114
未發心	-12.1142
諸魔	-12.1144
行蘊攝	-12.1145
頓變	-12.1145
千佛	-12.1149
生滅門	-12.115
作此釋	-12.1151
於所知事	-12.1152
無不定過	-12.1163
無香味	-12.1171
上加	-12.1172
身語表	-12.1172
悔惱	-12.1172
諸有漏法	-12.1174
名色為緣	-12.1174
追憶	-12.1176
不得擇滅	-12.1176
開出	-12.1179
自高	-12.1182
佛果上	-12.1183
而為所緣	-12.1184
相各異	-12.1188
謂依止靜慮於	-12.1195
大乘百法明門論	-12.1196
為他宣說	-12.1198
正懃	-12.1198
昔時	-12.12
聲香味觸	-12.1202
不任	-12.1207
筭	-12.121
所拘	-12.1214
彩	-12.1216
浮塵	-12.1216
鬪	-12.1216
定判	-12.1218
五停心觀	-12.1218
阿羅漢位捨	-12.1219
成唯識論述記卷第	-12.1219
何物	-12.122
荷	-12.122
一切有部	-12.1221
有十五種	-12.1221
片	-12.1222
巳潤	-12.1222
應正道理	-12.1222
受持禁戒	-12.1222
誠證非一	-12.1222
瑜伽六十	-12.1223
順前句	-12.1224
善及無記	-12.1224
利益有情	-12.1224
筞	-12.1226
燸頂	-12.1228
妙行惡行	-12.1228
賞	-12.1229
禪戒	-12.1229
療	-12.123
自類相生	-12.123
蚊	-12.123
枝葉	-12.123
眼耳二識	-12.123
冀	-12.1231
誹撥	-12.1232
現法受	-12.1232
圓備	-12.1233
假有實無	-12.1233
卜	-12.1234
開蒙云	-12.1234
欻	-12.1235
所證真如	-12.1235
非有似有	-12.1235
染污清淨	-12.1236
無分別後智	-12.1236
牢固	-12.1238
生死輪迴	-12.1241
正使	-12.1243
防惡	-12.1244
初一句	-12.1244
聞所成地	-12.1244
伎樂	-12.1244
俱胝	-12.1244
而建立故	-12.1245
自類俱起	-12.1245
深推度	-12.1246
音義清涼	-12.1246
照理	-12.1246
此意說言	-12.1247
麁品	-12.1248
初中復二一	-12.1249
長養色	-12.1249
無餘永斷	-12.125
苾芻律儀	-12.125
身在下地	-12.1254
令其增長	-12.1256
未信	-12.1256
何殊	-12.1258
修念住	-12.1258
化導	-12.1259
當廣分別	-12.1259
能轉道	-12.126
㝡勝	-12.126
不知足	-12.126
變起相分	-12.1261
凝然	-12.1261
令他得	-12.1263
勤修加行	-12.1264
別境慧	-12.1264
質直	-12.127
不共中不共	-12.127
後陳	-12.127
靜地	-12.1271
第二番	-12.1272
度脫	-12.1272
淨色根	-12.1273
後總結之	-12.1275
機宜	-12.1278
利有情事	-12.1282
若作此解	-12.1286
釋第一句	-12.1286
未來中間	-12.1287
在何處	-12.1287
不應爾	-12.129
病人	-12.1292
離一切障	-12.1294
逆次第	-12.1296
而得生故	-12.1296
施度	-12.1297
文分為二先摽後	-12.1299
所知鄣	-12.1303
未知當知	-12.1305
得其名	-12.1305
計我我所	-12.1309
問何緣	-12.1312
深遠	-12.1314
立二分	-12.1316
如上所	-12.1322
此之四	-12.1324
應知亦然	-12.1325
破正量部	-12.1326
牒經	-12.1327
兩番	-12.1327
宗旨	-12.1329
自苦行	-12.1333
今此亦爾	-12.1334
勤修行	-12.1335
直就	-12.1338
辨中邊	-12.1341
畫師	-12.1342
文可解	-12.1344
護他心	-12.1346
資長	-12.135
中亦二	-12.1352
他物	-12.1354
謂於是處	-12.1355
解脫分善	-12.1358
法雨	-12.1366
妙覺	-12.1367
外色等	-12.1367
文分三叚	-12.1368
天龍	-12.1369
五果種子	-12.1372
僧眾	-12.1378
然對法	-12.1379
於無上正等菩提	-12.1379
名法無礙	-12.1386
染淨諸法	-12.1387
世間我法	-12.139
如因明	-12.1396
受俱門	-12.1397
於今時	-12.1401
次句釋	-12.1409
十二年	-12.1409
煩惱障淨	-12.141
重罪	-12.1411
如上釋	-12.1412
望二乘	-12.1415
無覆無記心	-12.1421
戒波羅蜜多	-12.1422
通達分	-12.1423
衰老	-12.1424
有間轉	-12.1426
轉識攝故	-12.1429
皆是實有	-12.143
餓	-12.1433
四洲	-12.1439
領順	-12.1448
前七現行	-12.145
決定非有	-12.145
難陀師	-12.1452
成唯識論疏義演卷第	-12.1454
所執實我	-12.1456
超中二果	-12.1465
繫不繫	-12.1465
有兩門	-12.1468
八地菩薩	-12.1469
予	-12.1469
初之三	-12.1469
獨處空閑	-12.1473
阿拏	-12.1473
亦非真愛著處	-12.1474
成等正覺	-12.1474
乖諍	-12.1475
慇重	-12.1475
閱	-12.1476
長短方圓	-12.1476
謂所知障中俱生一分	-12.1477
耐怨害忍	-12.1477
酥	-12.1477
十無學法	-12.1477
牆	-12.1477
重頌	-12.1478
刻	-12.1478
靡	-12.1479
上八地	-12.1479
立如是論	-12.148
略有八種	-12.1483
蘭	-12.1483
整	-12.1483
設爾何失	-12.1483
價	-12.1483
經爾所時	-12.1483
如何乃言	-12.1483
相變異分別	-12.1484
隨他相說	-12.1484
色等想事	-12.1484
津液	-12.1484
塊	-12.1484
非有色非無色	-12.1484
惓	-12.1485
增益損減	-12.1485
前中有二	-12.1486
孫	-12.1486
守根門	-12.1487
幼	-12.1487
定中聞聲	-12.1488
碎	-12.1488
譏毀	-12.1488
確	-12.1489
震	-12.1489
眉	-12.1489
真俗二諦	-12.1491
巖	-12.1491
臍	-12.1491
泥團	-12.1491
無間殷重	-12.1492
洛	-12.1492
反詰	-12.1492
素咀纜	-12.1492
毀呰	-12.1494
若干	-12.1494
離瞋無別	-12.1494
奇特	-12.1495
疊	-12.1495
二空觀	-12.1496
有餘依涅槃	-12.1497
具此四義	-12.1498
振	-12.1498
二釋分五如論	-12.1498
總而言之	-12.1498
正與此同	-12.1499
是犯染污起	-12.15
眼耳鼻舌身	-12.1506
在身中	-12.1506
本事分	-12.1507
此解為勝	-12.1507
形狀	-12.1508
汝當	-12.1508
初中又二一	-12.1509
於其中間	-12.151
如色心等	-12.151
生其中	-12.1511
比丘尼	-12.1513
有漏位中	-12.1514
有支習氣	-12.1514
故下論云	-12.1517
而得起故	-12.152
超入	-12.1521
信等十一	-12.1523
能熏所熏	-12.1524
勝定果色	-12.1524
四智菩提	-12.1525
種族	-12.1526
天神	-12.1528
入八地	-12.1528
易斷	-12.153
然諸聖教	-12.1531
是故經言	-12.1532
十七卷	-12.1533
憎惡	-12.1533
男女等	-12.1536
如病等	-12.1536
永斷習氣	-12.1538
諸等至	-12.1539
慳嫉	-12.1539
發悟	-12.1539
生淨居	-12.1543
三種佛身	-12.1544
簡擇諸法	-12.1544
必待	-12.1545
通三業	-12.1546
屬依他	-12.1547
天耳通	-12.1553
樂俱行	-12.1556
五位無心	-12.1557
依眼根	-12.1558
顯正義	-12.1558
五十七說	-12.1561
根本後得智	-12.1564
忽然	-12.1571
欲令眾生	-12.1571
今者大乘	-12.1572
方得生起	-12.1575
光照	-12.1581
又能引發	-12.1589
無此事	-12.1591
既非實有	-12.1591
假我法	-12.1595
權實	-12.16
方便道中	-12.1601
入般涅槃	-12.1603
無漏後得	-12.1605
不和合性	-12.1612
此文即說	-12.1615
客塵煩惱	-12.1618
通上二	-12.1619
是此中意	-12.1621
發智論	-12.1621
五門竟	-12.1623
如量智	-12.1628
世俗道	-12.1631
云何得言	-12.1631
以無體故	-12.1632
無功用住	-12.1633
下三天	-12.1634
唯新熏	-12.1636
體雖是	-12.1638
不繁	-12.1642
初別釋	-12.1644
勝鬘經說	-12.1645
諸菩薩摩訶薩	-12.1648
訓詞	-12.1649
不希	-12.1652
隨念分別	-12.1653
能生所生	-12.1654
此亦應然	-12.1655
亦不離識	-12.1656
為所相	-12.1673
色蘊攝	-12.1673
耽嗜	-12.1674
無有間斷	-12.1681
□□□□□	-12.1691
借下	-12.1693
從自種子	-12.1694
由熏習力	-12.1695
入見諦	-12.1695
自證分上	-12.1695
正說法	-12.1698
等活	-12.1699
一切諸法皆	-12.1702
回	-12.1704
有分識	-12.1705
三世諸佛	-12.1706
堅守	-12.1707
修習位中	-12.1709
種姓地	-12.1709
與五識相應	-12.1709
依慧學	-12.1711
除無想天	-12.1721
㧾	-12.1722
自在天等	-12.1724
方受變易	-12.1728
諫誨	-12.1734
崇重暴惡	-12.1738
呾	-12.1738
忠信	-12.1738
毛輪	-12.174
自內所證	-12.1741
膩	-12.1741
攝異門分	-12.1742
若內若外	-12.1743
極歡喜住	-12.1743
剛	-12.1744
冠	-12.1744
復次今當略	-12.1745
髮蠅等	-12.1745
而施設故	-12.1745
基撰	-12.1745
筏	-12.1745
搏	-12.1746
前後分位	-12.1746
若定若生	-12.1747
通前合為	-12.1747
旃	-12.1748
一切生處	-12.1749
如車	-12.1749
速得圓滿	-12.1749
分布	-12.1749
無垢稱經	-12.175
苦苦壞苦	-12.175
機務	-12.175
亦有邊亦無邊	-12.175
生苦為業	-12.175
臂	-12.175
求不得苦	-12.175
僕使	-12.1751
津	-12.1751
文中分三一釋	-12.1752
無有斷絕	-12.1752
於內身	-12.1753
便為無用	-12.1753
有尋等地	-12.1754
馳散	-12.1755
蓮	-12.1756
私	-12.1756
欝單越	-12.1756
弗	-12.1756
領以為境	-12.1756
於自所	-12.1757
詭	-12.1758
三阿僧祇劫	-12.1758
上下地	-12.1758
而得解脫	-12.176
次舉頌答	-12.176
瘂	-12.176
審思量	-12.1761
十善巧	-12.1761
此文為證	-12.1762
澄淨	-12.1762
獼猴	-12.1763
一略答	-12.1765
勞損	-12.1765
會遇	-12.1767
皆非實有	-12.1768
若言無者	-12.1768
前後相違	-12.1769
本有無漏種子	-12.177
作如是念	-12.1772
分十如論	-12.1773
退菩提心	-12.1773
識與名色	-12.1773
八斷行	-12.1774
賢劫	-12.1774
水土	-12.1776
有餘依地	-12.1778
初中復二	-12.1781
不復更	-12.1781
他界緣	-12.1782
無怯	-12.1783
現報業	-12.1783
▁次結	-12.1784
名無心定	-12.1786
專念	-12.1786
轉名為有	-12.1788
其義相似	-12.1789
未曾見	-12.179
所生眾苦	-12.1792
設問云	-12.1793
其事云何	-12.1794
所立宗	-12.1802
逆順	-12.1803
不離身識	-12.1803
入諦現觀	-12.1808
利益他	-12.1808
違教理	-12.1809
在因中	-12.1812
疑蓋	-12.1815
答有二解	-12.1817
薄塵行	-12.182
染污末那	-12.1822
而得自在	-12.1823
初地以上	-12.1824
五百劫	-12.1824
有色支	-12.1826
於此義中	-12.1828
示現種種	-12.1829
修六度	-12.1831
謬解	-12.1831
得緣上	-12.1832
最第一	-12.1833
留難	-12.1835
覆罪	-12.1837
又如經說	-12.1837
此難意云	-12.1842
永不復	-12.1842
徧行五	-12.1844
文分為四	-12.1847
盛事	-12.1847
總別報	-12.1849
依怙	-12.1851
能造所造	-12.1853
所緣境事	-12.1853
濕性	-12.1856
睡眠悶絕	-12.1856
住正念	-12.186
從因緣生	-12.186
由意引	-12.1862
於諸欲中	-12.1863
初後二	-12.1864
九十八	-12.1866
依未至定	-12.1866
新熏種子	-12.1867
執持識	-12.1869
生空無漏	-12.187
次釋妨	-12.1884
畢竟不起	-12.1885
開列	-12.1886
無覆無記性	-12.1888
入滅定時	-12.1889
所薰	-12.189
第十九	-12.189
數習力	-12.189
發語言	-12.1893
總有三種	-12.1895
緣青等	-12.1901
正遍知	-12.1905
互不相	-12.1907
所作事業	-12.1914
一時頓	-12.1915
未成佛	-12.1915
能所引	-12.1918
於一境	-12.1919
逆流	-12.1922
自然而	-12.1923
善不善無記法	-12.1926
入無想定	-12.1926
染濁	-12.1927
次通妨	-12.193
不復生	-12.1935
如眼識等	-12.1936
各有三種	-12.1937
二乘之人	-12.1937
清淨靜慮	-12.1938
假立命根	-12.1941
正法教	-12.1945
自類種	-12.1946
如文自	-12.1947
永離一切	-12.1951
與毘曇	-12.1952
略有十	-12.1954
餘之三	-12.1955
總有二種	-12.1957
定中意識	-12.1964
下廣釋	-12.1964
稻	-12.1964
名義無礙	-12.1966
勝論師	-12.1967
夭	-12.1971
奘師	-12.1972
▁初難	-12.1974
如對法抄	-12.1979
二乘異生	-12.198
小乘不許	-12.1993
一切染法	-12.1994
如文可悉	-12.1995
卷末	-12.1997
金光明	-12.1998
住異滅	-12.1999
已廣分別	-12.2004
此初二也	-12.2004
三藏解云	-12.2004
利益安樂增上意樂	-12.2005
次舉本頌答	-12.2006
一結前標問	-12.2009
名色六處觸受	-12.2009
於善說法毘奈耶中	-12.2009
死後無想	-12.2009
涅	-12.201
挾	-12.201
教理行果	-12.2011
非律儀非不律儀	-12.2011
涌	-12.2011
前解為正	-12.2012
瓶盆	-12.2013
有漏法種	-12.2014
通果心	-12.2014
曠野	-12.2015
約三世	-12.2015
生大歡喜	-12.2016
殞	-12.2017
從喻為名	-12.2017
如修多羅說	-12.2017
逕	-12.2017
演曰三惣結	-12.2017
有分限	-12.2019
從本已來	-12.2019
雜修靜慮	-12.2019
茶	-12.2019
謗果	-12.2019
排	-12.2019
非極微成	-12.202
惡所作業	-12.202
踊躍	-12.2021
塚間	-12.2021
▁次簡	-12.2021
迅速	-12.2022
豐	-12.2022
蘇迷盧	-12.2022
龍樹釋	-12.2022
心性本淨	-12.2025
惡知識	-12.2027
彼分涅槃	-12.2027
十千劫	-12.2027
如雜心說	-12.2027
提婆	-12.2028
縱奪	-12.2028
僧祇劫	-12.2031
麤猛	-12.2032
胡麻	-12.2034
亦攝得	-12.2038
問答以明	-12.2039
能生支	-12.2039
妄執習氣	-12.2039
淨居天	-12.204
衣服飲食	-12.2041
於諸諦理	-12.2041
能潤生	-12.2042
觀所緣論	-12.2043
毗婆沙	-12.2044
故無不定	-12.2045
所化眾生	-12.2045
印度	-12.2049
清淨增上意樂	-12.2049
是故定知	-12.2051
住學勝利	-12.2053
互不相違	-12.2054
種種相貌	-12.2054
奉施	-12.2055
一頌半	-12.2056
得第三果	-12.2057
要藉	-12.2058
心變似	-12.2059
為欲顯示	-12.206
異生有學	-12.2063
消變	-12.2066
何等為六	-12.2067
由此理故	-12.2069
七地巳前菩薩	-12.207
假想觀	-12.2073
此論據	-12.2079
文中分四一	-12.2079
佛地經說	-12.2079
生等苦	-12.2079
周盡	-12.2083
證有第七	-12.2084
抄解	-12.2085
不通無漏	-12.2085
無相應義	-12.2087
等流習氣	-12.2088
熏習力故	-12.2089
善惡二業	-12.2089
能令有情	-12.2092
最細	-12.2093
明昧	-12.2093
死支	-12.2098
純雜	-12.2099
受變易生死	-12.2103
了不了	-12.2111
既不許	-12.2113
五个	-12.2116
前後變異	-12.2118
共成一	-12.2119
有覆無覆	-12.212
即於是處	-12.2122
大小不同	-12.2122
憂喜捨	-12.213
墮決定	-12.2131
第八識現行	-12.2135
所依能依	-12.2137
四陰	-12.214
無著無礙	-12.2146
三念處	-12.2148
寶珠	-12.2149
不假他	-12.215
二十七種	-12.2151
發非福行	-12.2158
深密經云	-12.2159
欲色無色	-12.2159
識食體	-12.2163
如何得言	-12.2167
演曰後釋分二初	-12.217
十二卷	-12.217
總唯一	-12.2171
加行無分別智	-12.2175
本性淨	-12.2177
不能憶	-12.2186
無雜亂	-12.2189
諸不善業	-12.2191
所陵	-12.2192
皆無所有	-12.2193
識實性	-12.2199
取隨好	-12.2199
諸業煩惱	-12.2204
通達法界	-12.2205
無思慮	-12.2206
前七轉識	-12.2206
退減	-12.2213
三無數劫	-12.2225
所居處	-12.2225
緣現在境	-12.2236
助潤	-12.2238
心不得生	-12.2247
搖	-12.2248
隨類化	-12.2248
是總句	-12.225
同在一	-12.2251
憶知	-12.2257
取陰	-12.2259
攝論第二	-12.226
畧	-12.2262
方便善心	-12.2268
名未知當知根	-12.227
比類	-12.2272
策發	-12.2272
色無色界繫	-12.2272
下三禪中	-12.2273
密護根門	-12.2278
九品煩惱	-12.228
校	-12.2282
應隨決了	-12.2282
淨修其心	-12.2284
別報果	-12.2285
嗢柁南	-12.2286
所制	-12.2287
初結前問後	-12.2288
寔	-12.2288
二乘凡夫	-12.2289
綜	-12.2289
師子吼	-12.2289
次廣釋	-12.229
菩提之心	-12.229
大論第五	-12.229
聞思二慧	-12.229
自業智力	-12.229
不能亡相	-12.2291
作不作	-12.2292
逗	-12.2292
祠	-12.2294
於後法中	-12.2294
貧賤	-12.2294
便生喜足	-12.2295
嬈	-12.2295
奮	-12.2297
燋	-12.2297
此言意顯	-12.2297
曜	-12.2297
祀	-12.2297
得般	-12.2297
能為食事	-12.2298
如來應正等覺	-12.2298
初引文	-12.2298
史	-12.2298
廛	-12.2299
羼提波羅蜜	-12.2299
於諸學處	-12.23
攝釋分	-12.23
七十七智	-12.23
窟宅	-12.2301
五識身相應地	-12.2301
胸	-12.2301
良藥	-12.2301
定別因	-12.2302
十方無量世界	-12.2302
音韻	-12.2302
先釋後結	-12.2304
漸次悟入	-12.2305
依止住食	-12.2305
吠	-12.2307
故為此問	-12.2307
百二十	-12.2308
兄弟	-12.2308
荷負	-12.2309
如空華等	-12.2309
麁淺	-12.2309
熏於本識	-12.2311
任運轉故	-12.2311
依如成實	-12.2311
└	-12.2311
恒沙佛法	-12.2311
檢	-12.2311
身心輕安	-12.2311
慳垢	-12.2312
悉檀	-12.2313
表詮	-12.2316
儒童	-12.2316
根境識三	-12.2317
養命	-12.2318
上昇	-12.2318
善𢙣	-12.2318
破外執	-12.232
乖違	-12.232
連持	-12.2323
舊地持	-12.2325
勵力	-12.2329
有人宣說	-12.233
王賊	-12.233
初受生時	-12.233
增益邊	-12.2332
迦延	-12.2332
俱時而有	-12.2332
瞋恨	-12.2334
相續解脫經	-12.2335
得非數滅	-12.2337
其義可知	-12.2338
萬德	-12.2339
初文有三	-12.234
恒無間斷	-12.234
不深推度	-12.2341
定生喜樂	-12.2343
伴類	-12.2344
果與因	-12.2346
親能生	-12.2347
皆攝在	-12.2348
無始法爾	-12.2348
未達	-12.2348
二釋經文分	-12.2348
諸大菩薩	-12.2356
闇劣	-12.2359
文殊	-12.2361
而起勝解	-12.2361
長遠	-12.2367
瑜伽論記卷第十	-12.2369
多少不定	-12.2369
作疎所緣緣	-12.2373
體是實有	-12.2376
俱生法執	-12.2379
宿住智	-12.238
後一頌	-12.2384
無閒	-12.2392
中間相分	-12.2392
懃精進	-12.2393
相應共有	-12.2394
放捨	-12.2395
迦耶	-12.2396
三結三明	-12.2397
非苦樂受	-12.2397
前所明	-12.2398
不通餘	-12.2402
見戒取	-12.2403
勿令	-12.2405
譬如幻	-12.2408
修行施等	-12.241
五十九說	-12.2413
熱地獄	-12.2414
不可記別	-12.2415
益物	-12.2415
用此為	-12.2434
今論主	-12.2439
薩婆多部	-12.244
有三問答	-12.2442
見道十六心	-12.2444
名有尋有伺地	-12.2444
能除滅	-12.2446
出家品	-12.2449
未與果	-12.245
長行釋	-12.2451
聞者識	-12.2451
經卷	-12.2456
諸無為法	-12.2457
纔生	-12.2458
不逸	-12.2463
貪癡分	-12.2463
所證涅槃	-12.2465
今破云	-12.2465
應不能緣	-12.2473
何故但言	-12.2473
修菩薩行	-12.2475
不相稱	-12.2479
第二師云	-12.2481
殊異	-12.2482
能攝藏	-12.2497
義無礙解	-12.2502
墮惡道	-12.2503
何以然者以	-12.2507
違諍	-12.2507
前七苦	-12.2516
但言唯識	-12.2518
差別轉故	-12.2527
極微所成	-12.2527
究竟盡	-12.2528
快	-12.2528
瑜伽顯揚	-12.2529
與五俱	-12.2535
與憂俱	-12.2537
施戒等	-12.2544
如理所引	-12.2545
福盡	-12.2546
号	-12.2552
4	-12.2552
遍九地	-12.2552
徧善心	-12.2552
演曰後別釋中	-12.2554
為能量	-12.2556
空居	-12.2559
器世	-12.2564
彼宗計	-12.2564
迭	-12.2567
纏繞	-12.2568
是因緣性	-12.2569
領似	-12.2569
讚禮	-12.257
稽留	-12.2571
舉數列名	-12.2572
瓦礫	-12.2573
自他差別識	-12.2575
分十二中第	-12.2575
今應問彼	-12.2575
處非處智力	-12.2575
為答此問	-12.2576
液	-12.2576
技	-12.2577
迷杌	-12.2578
側	-12.2579
有種種相轉	-12.2579
現觀邊智諦現觀	-12.258
濤	-12.258
谷	-12.258
第二異門依	-12.258
律儀不律儀	-12.258
掃	-12.2581
齅	-12.2581
離有離無	-12.2581
不捨善軛	-12.2582
顯境名言	-12.2582
摸	-12.2583
絃管聲	-12.2583
世親釋云	-12.2584
別助當業	-12.2584
瞬	-12.2585
徑	-12.2585
刑	-12.2585
難了知故	-12.2586
揵	-12.2586
愛望於取	-12.2586
躭著	-12.2586
證十真如	-12.2587
歿	-12.2587
炬	-12.2588
四个	-12.2588
爭	-12.2588
溉	-12.2588
自受用土	-12.2589
雜受處	-12.2589
契中道	-12.2589
戍	-12.259
五蘊假者	-12.259
振動	-12.259
深見過患	-12.259
身壞命終	-12.2591
種現相生	-12.2591
鏡中像	-12.2592
無常無我	-12.2592
趨	-12.2592
遍計所起色	-12.2593
旁	-12.2593
什物	-12.2593
塵垢	-12.2595
修所成地	-12.2595
巳轉依位	-12.2596
徐	-12.2597
利益他事	-12.2597
啞	-12.2597
恭敬供養	-12.2598
瓨甌	-12.2598
越度	-12.2599
何受相應	-12.2601
法俱得	-12.2602
悲愍有情	-12.2603
二釋分四如論	-12.2604
入生空觀	-12.2605
違教失	-12.2611
各別有體	-12.2615
貪纏	-12.2616
死魔	-12.262
二文不同	-12.2621
為三段	-12.2622
隱藏	-12.2625
三輪清淨	-12.2626
十五卷	-12.2627
所詮之義	-12.2629
是迷苦	-12.263
力齊	-12.2631
分五一明	-12.2632
障礙有對	-12.2635
二十四頌	-12.2635
抄會	-12.2638
有對無對	-12.2639
不應施	-12.2639
諸無學	-12.264
感惡趣	-12.2641
大力菩薩	-12.2641
施設安立	-12.2643
若依此義	-12.2644
由是如來	-12.2647
諸論不同	-12.2653
如如智	-12.2655
前生後	-12.2655
容互	-12.2655
對經部	-12.2658
尊長	-12.2659
福非福	-12.2661
運動	-12.2662
普遍	-12.2663
道諦所攝	-12.2664
故此論云	-12.2664
經部宗	-12.2666
麁重所隨	-12.2669
利益一切眾生	-12.2674
不安穩	-12.2674
率爾尋求	-12.2679
心心法滅	-12.2683
金色	-12.2688
十八部	-12.2692
辭無礙	-12.2692
雙舉	-12.2693
未能斷	-12.2694
修四無量	-12.2697
非所斷攝	-12.2701
為盡理	-12.2705
皆悉成就	-12.2705
一略標	-12.2706
五十四云	-12.2707
不專	-12.2708
和合依處	-12.2711
初文分二	-12.2713
無覆性	-12.2713
數滅無為	-12.2716
大海水	-12.2719
名言熏習種子	-12.2721
又即如是	-12.2721
作饒益	-12.2727
身者識	-12.274
第五門中	-12.2743
二立能	-12.2752
業增上力	-12.2754
本性空	-12.2755
愛別離	-12.276
文亦分	-12.2762
文亦為	-12.2762
靜慮中間	-12.2764
十九卷	-12.2767
助道法	-12.2778
數多少	-12.2778
同地繫	-12.278
婆娑	-12.2781
俱生滅故	-12.2781
亦隨滅	-12.2783
眾緣和合	-12.2783
互不相應	-12.2788
生老死支	-12.2796
無俱有依	-12.28
五徧行	-12.2801
或二或	-12.2808
緣非安立	-12.2811
瑜伽第五十	-12.2814
第四段	-12.282
6	-12.2843
此三位	-12.2849
八識規矩	-12.2855
麄	-12.2856
頂禮	-12.2856
問何義幾種是	-12.2857
百法明門	-12.2857
廻	-12.2859
老病	-12.286
舟	-12.286
熾	-12.2863
恒依心起	-12.2864
持彼種	-12.2865
罔	-12.2865
音義初句	-12.2867
綴	-12.2869
懇	-12.2869
如契經言	-12.287
庫藏	-12.287
諸弟子眾	-12.2871
突吉羅	-12.2871
管	-12.2871
顯可知	-12.2871
複	-12.2872
諸勝善法	-12.2872
妻妾	-12.2872
在第四禪	-12.2873
蒲	-12.2873
諷頌	-12.2874
蟻	-12.2874
四大洲	-12.2875
親迷苦理	-12.2875
枯喪	-12.2875
結前起後	-12.2876
臨命終時	-12.2876
如下所明	-12.2876
丸	-12.2877
八聖道支	-12.2877
所作已辦	-12.2877
文相可知	-12.2877
若異此者	-12.2877
斂	-12.2877
恒共相應	-12.2878
躍	-12.2878
摩呾理迦	-12.2879
買	-12.2879
朋黨	-12.2879
往詣	-12.2881
首楞嚴	-12.2881
敗壞	-12.2881
於自盛事	-12.2881
煎	-12.2881
所被機	-12.2882
佛法僧寶	-12.2883
介	-12.2883
黨	-12.2883
摩怛理迦	-12.2883
瑠璃	-12.2884
貪恚癡	-12.2885
集量論	-12.2885
於有有具	-12.2885
輕拒暴惡	-12.2885
悉有佛性	-12.2886
最極寂靜	-12.2886
有大勢力	-12.2886
輕舉	-12.2886
為一為異	-12.2886
略之云爾	-12.2887
妄所執	-12.2887
演曰二釋之中	-12.2888
菊多	-12.2888
純苦趣中	-12.2889
多有所作	-12.289
𦟛	-12.289
稱譽	-12.289
多念相續	-12.289
達磨	-12.2892
氣息	-12.2893
所熏發	-12.2894
有法與有等性	-12.2894
此釋伏難	-12.2895
俱生威力	-12.2897
生物解	-12.2897
房	-12.2898
故地持中	-12.2898
叫	-12.2898
唯善性攝	-12.29
不怯	-12.29
由假說我法	-12.2901
二二合	-12.2901
真勝義性	-12.2902
沈重	-12.2902
此言顯示	-12.2903
正修行時	-12.2904
頓伏	-12.2904
六處殊勝	-12.2904
近善友	-12.2904
能警	-12.2905
理亦無失	-12.2906
字錯	-12.291
親里	-12.2911
思搆	-12.2911
之所以也	-12.2912
此中有偈	-12.2912
文易知	-12.2912
成實大乘	-12.2913
欲恚害	-12.2915
對論者	-12.2915
諸根成熟	-12.2917
不能了達	-12.2919
定道戒	-12.292
長行釋中	-12.2921
千年	-12.2922
攝善戒	-12.2923
黃門	-12.2924
二十五諦	-12.2925
舒光	-12.2935
唯識所現	-12.2938
一剎那聲	-12.2938
次第三門	-12.2938
有二頌	-12.2938
起悲心	-12.2939
應非實有	-12.2939
百萬	-12.2941
無見有對	-12.2943
喜受相應	-12.2946
行跡	-12.2947
方便因攝	-12.2949
戒律	-12.2949
云何知然	-12.295
聲聞種姓	-12.2951
餘五度	-12.2954
從義為名	-12.2955
隨念計度	-12.2956
所行施等	-12.2957
受生命終	-12.2958
麁爾	-12.2959
諸賢聖	-12.2967
得四果	-12.2968
鼻舌識	-12.297
聖賢	-12.2971
猶未能	-12.2977
前三無色	-12.2978
身見邊見	-12.2979
演曰二結	-12.299
積習	-12.2994
成一相	-12.2995
不消	-12.3
以此為因	-12.3002
緣下界	-12.3011
他受用佛	-12.3017
安靜	-12.302
軟根	-12.3024
若能如是	-12.3032
[...]
