<unk>	0
<s>	0
</s>	0
。	-1.79653
者	-4.77573
也	-4.86845
之	-4.93765
,	-5.15852
▁	-5.22861
故	-5.29256
為	-5.36125
以	-5.38968
而	-5.44038
有	-5.45287
(	-5.51495
)	-5.5229
不	-5.53346
一	-5.53717
即	-5.68036
是	-5.68283
佛	-5.68339
無	-5.69924
如	-5.7175
則	-5.73926
心	-5.7604
此	-5.78357
中	-5.82796
其	-5.83031
於	-5.83579
人	-5.84513
*	-5.96427
二	-5.99931
生	-6.02022
若	-6.0238
自	-6.0961
非	-6.09821
三	-6.15838
行	-6.18453
見	-6.18828
念佛	-6.19991
言	-6.21754
云	-6.22192
得	-6.22956
大	-6.25125
曰	-6.2708
又	-6.30265
相	-6.30559
法	-6.30749
名	-6.31293
時	-6.31613
皆	-6.32917
亦	-6.34016
念	-6.3412
說	-6.38199
身	-6.38845
眾生	-6.43695
淨土	-6.43875
等	-6.44193
我	-6.4688
謂	-6.46936
在	-6.48239
明	-6.49288
願	-6.49522
至	-6.49603
觀	-6.50419
或	-6.50896
下	-6.55762
今	-6.56244
與	-6.56927
事	-6.56968
作	-6.57521
所	-6.57541
乃	-6.58387
】	-6.58592
因	-6.59663
入	-6.61367
經	-6.61703
上	-6.61731
同	-6.63369
四	-6.63662
能	-6.64176
矣	-6.6563
成	-6.66498
當	-6.68261
諸	-6.68794
多	-6.69402
菩薩	-6.69813
及	-6.70349
巳	-6.71276
道	-6.71463
乎	-6.73438
出	-6.74118
然	-6.76061
空	-6.76527
後	-6.78929
修	-6.79175
一切	-6.8074
雖	-6.82108
欲	-6.82913
常	-6.84052
。【	-6.85506
可	-6.86744
正	-6.86983
知	-6.87056
盡	-6.87903
從	-6.88109
信	-6.8887
彼	-6.89175
、	-6.90405
義	-6.90902
處	-6.92271
難	-6.93372
本	-6.93941
教	-6.94198
五	-6.95236
問	-6.95808
真	-6.96055
前	-6.96466
起	-6.97839
理	-6.97998
淨	-6.98077
來	-6.98206
既	-6.98325
但	-6.98943
通	-6.99831
聞	-7.00692
何	-7.01766
彌陀	-7.01962
天	-7.02755
善	-7.0281
定	-7.03085
日	-7.03423
疏	-7.05176
門	-7.06808
未	-7.07621
文	-7.07661
意	-7.07742
必	-7.08082
初	-7.09155
師	-7.10094
子	-7.10268
分	-7.11325
地	-7.12667
深	-7.12723
復	-7.13017
往生	-7.13483
如是	-7.13682
應	-7.13863
。】「	-7.14151
西方	-7.14763
現	-7.15398
實	-7.1591
受	-7.16017
性	-7.16156
具	-7.16882
方	-7.17503
眾	-7.17863
令	-7.18107
苦	-7.18518
阿彌陀佛	-7.18671
業	-7.19868
求	-7.20151
用	-7.20467
諸佛	-7.2096
果	-7.21529
去	-7.22182
證	-7.22413
體	-7.23042
別	-7.23051
論	-7.24085
樂	-7.24162
如來	-7.24663
想	-7.25166
。」【	-7.25329
先	-7.26307
要	-7.27631
重	-7.27959
無量	-7.27968
唯	-7.28735
勝	-7.28767
發	-7.28768
隨	-7.28931
解	-7.29868
鈔	-7.30077
耶	-7.30564
釋	-7.31093
光	-7.31219
緣	-7.31793
不能	-7.31961
依	-7.32382
水	-7.32771
便	-7.32903
王	-7.33497
智	-7.33914
十	-7.34337
世	-7.34479
取	-7.36816
耳	-7.37021
六	-7.37456
稱	-7.37644
功德	-7.39238
汝	-7.39262
境	-7.40319
力	-7.40346
不可	-7.40384
次	-7.40778
妙	-7.41658
吾	-7.41741
顯	-7.42115
離	-7.42167
歸	-7.42322
將	-7.42384
住	-7.42515
化	-7.42747
色	-7.42752
即是	-7.43018
惡	-7.43125
須	-7.4409
七	-7.45403
語	-7.45472
外	-7.45596
且	-7.45668
聲	-7.46333
覺	-7.46607
開	-7.46802
圓	-7.47505
立	-7.48006
持	-7.48361
一念	-7.48532
由	-7.48732
過	-7.49841
華	-7.49953
山	-7.49963
;	-7.4997
戒	-7.50001
生死	-7.52048
異	-7.52511
疑	-7.52693
更	-7.52911
土	-7.53033
他	-7.53188
廣	-7.53294
攝	-7.53726
還	-7.53986
悟	-7.54203
凡	-7.551
不得	-7.55236
莫	-7.55259
報	-7.55367
清淨	-7.55387
合	-7.55436
乃至	-7.55748
會	-7.55827
小	-7.5617
答	-7.56762
夫	-7.56896
餘	-7.57519
死	-7.58229
居	-7.58264
斷	-7.58358
寶	-7.58454
識	-7.58737
遂	-7.59165
哉	-7.59205
照	-7.59298
指	-7.59345
家	-7.5946
長	-7.59645
宗	-7.59908
況	-7.60306
學	-7.60377
一心	-7.60412
八	-7.61312
是故	-7.61526
勸	-7.62027
不知	-7.62055
聖	-7.62163
遠	-7.62175
音	-7.62575
轉	-7.62715
示	-7.62959
數	-7.63019
▁南無	-7.6324
德	-7.633
往	-7.63558
對	-7.63622
滅	-7.63973
俱	-7.64298
猶	-7.64385
易	-7.64437
僧	-7.64645
物	-7.64833
使	-7.65066
破	-7.65143
了	-7.65454
焉	-7.66014
極	-7.66049
位	-7.66171
于	-7.66521
度	-7.66557
法界	-7.66684
舉	-7.67086
神	-7.67189
記	-7.67225
方便	-7.68195
坐	-7.6917
惟	-7.69617
金	-7.70428
全	-7.70976
向	-7.70989
光明	-7.71196
引	-7.71361
高	-7.71395
國	-7.71474
著	-7.71493
兩	-7.72148
香	-7.72469
內	-7.72593
」	-7.72744
病	-7.7327
少	-7.73301
修行	-7.73453
所謂	-7.73568
豈	-7.74346
所以	-7.74839
極樂	-7.75335
。「	-7.75358
約	-7.75446
已	-7.75658
食	-7.7602
萬	-7.76074
風	-7.76128
好	-7.76621
共	-7.77053
各	-7.77203
口	-7.77452
思	-7.78433
終	-7.78516
妄	-7.78582
經云	-7.79199
莊嚴	-7.79469
年	-7.80717
悉	-7.80912
斯	-7.81064
禪	-7.81193
海	-7.81274
凡夫	-7.8138
除	-7.81402
安	-7.82032
情	-7.82315
根	-7.82364
如此	-7.82416
迷	-7.82439
願往生	-7.82512
滿	-7.82571
.	-7.83092
到	-7.83177
總	-7.83457
公	-7.83466
十方	-7.83987
流	-7.8451
直	-7.84556
百	-7.8457
親	-7.85468
世界	-7.85677
千	-7.85805
利	-7.86284
感	-7.87351
傳	-7.8771
執	-7.87808
成就	-7.8805
益	-7.89059
捨	-7.89248
命	-7.89254
自然	-7.89276
止	-7.89558
集	-7.89616
月	-7.89825
尚	-7.89898
始	-7.90241
九	-7.90354
種	-7.91246
樹	-7.91755
娑婆	-7.92056
而不	-7.92147
久	-7.92523
書	-7.92712
讚	-7.92774
三昧	-7.92896
福	-7.9298
請	-7.93146
魔	-7.93304
臨終	-7.94435
法身	-7.95526
西	-7.95626
慧	-7.95914
世間	-7.96218
獨	-7.9626
失	-7.96741
字	-7.97027
頭	-7.97038
就	-7.9713
屬	-7.97229
愛	-7.973
。△	-7.97306
見佛	-7.97937
清	-7.98988
徧	-7.99507
禮	-7.99677
切	-7.99758
蓋	-7.99847
號	-8.00161
形	-8.00183
不同	-8.00324
略	-8.00342
動	-8.00348
種種	-8.00391
喻	-8.00439
造	-8.00893
罪	-8.01008
故云	-8.01943
機	-8.02018
普	-8.02305
邪	-8.02345
路	-8.02521
名為	-8.02549
○	-8.02709
蓮華	-8.03093
故曰	-8.03145
之人	-8.03959
法門	-8.04158
主	-8.04339
絕	-8.0435
目	-8.04603
:「	-8.04704
界	-8.04905
乘	-8.04914
無量樂	-8.04916
煩惱	-8.05167
障	-8.05349
功	-8.0555
爾	-8.05556
地獄	-8.05591
結	-8.05789
」「	-8.05886
手	-8.06719
以為	-8.07603
此經	-8.07668
大乘	-8.08043
因緣	-8.08111
火	-8.08301
足	-8.09155
菩提	-8.10026
持名	-8.10479
說法	-8.10644
念念	-8.10855
惑	-8.10973
舍利弗	-8.11701
間	-8.11786
兼	-8.11798
輕	-8.11966
花	-8.12463
假	-8.12554
藏	-8.128
劫	-8.13104
供養	-8.13213
具足	-8.13548
塵	-8.13548
一一	-8.13588
施	-8.13671
甚	-8.13988
專	-8.13992
此云	-8.14226
夢	-8.14232
卷	-8.15026
宜	-8.15277
釋迦	-8.15655
眼	-8.16199
壽	-8.16472
衣	-8.1659
?	-8.16595
遍	-8.16922
夜	-8.17038
反	-8.17195
首	-8.17305
之心	-8.17717
類	-8.18705
云何	-8.19248
古	-8.19421
寺	-8.19844
解脫	-8.19882
忽	-8.20072
近	-8.20445
頓	-8.20613
發願	-8.20771
老	-8.20786
習	-8.2079
究竟	-8.20874
序	-8.20879
白	-8.21227
現前	-8.21291
似	-8.21435
早	-8.21593
氣	-8.21724
智慧	-8.21835
超	-8.2221
又云	-8.22332
順	-8.22537
像	-8.22775
精進	-8.22958
量	-8.23024
佛法	-8.23114
達	-8.2336
散	-8.23516
淨業	-8.23638
遇	-8.2368
第一	-8.23701
殺	-8.2426
母	-8.24317
只	-8.24586
元	-8.24974
三界	-8.25261
並	-8.25579
一切眾生	-8.25764
致	-8.2601
敬	-8.26091
二者	-8.26307
面	-8.26498
答曰	-8.27068
獲	-8.27144
誠	-8.27263
落	-8.27344
縱	-8.27721
靈	-8.28403
父母	-8.28488
存	-8.28513
偏	-8.28809
十念	-8.29152
息	-8.2931
余	-8.29516
譬如	-8.29645
法師	-8.29794
計	-8.30058
無有	-8.30284
聽	-8.304
無生	-8.30633
竟	-8.30875
雲	-8.31073
自性	-8.31486
不離	-8.31546
世尊	-8.3193
述	-8.32118
最	-8.32137
珠	-8.32282
生淨土	-8.32648
涅槃	-8.32661
精	-8.32855
出家	-8.34131
問曰	-8.34135
志	-8.34144
望	-8.34471
期	-8.34566
加	-8.35311
行者	-8.35325
《	-8.35379
以此	-8.35411
脫	-8.35528
恐	-8.35598
成佛	-8.35638
弟子	-8.35846
尊	-8.36196
虗	-8.36442
參	-8.3649
石	-8.36533
》	-8.3654
永	-8.36759
不生	-8.36837
墮	-8.36891
自心	-8.36993
一日	-8.37142
看	-8.37527
和	-8.38065
禪師	-8.38121
觀經	-8.38354
忘	-8.38494
雜	-8.38549
登	-8.38692
一心不亂	-8.38907
因果	-8.38926
速	-8.39046
祖	-8.39066
無邊	-8.39318
之所	-8.39325
齊	-8.39921
是也	-8.3999
慈	-8.40112
微	-8.40198
:『	-8.40353
一者	-8.40472
辨	-8.41335
進	-8.41537
故知	-8.41624
東	-8.41633
諸法	-8.41743
不信	-8.42149
彼佛	-8.42384
被	-8.42426
居士	-8.42436
發心	-8.42537
不退	-8.42547
固	-8.42632
皆是	-8.42644
決定	-8.4267
平	-8.4271
第二	-8.42939
尋	-8.42949
句	-8.43124
勿	-8.43447
喜	-8.43819
誦	-8.44379
聲聞	-8.44545
當知	-8.44737
消	-8.45283
每	-8.45584
一生	-8.45727
奉	-8.45737
誰	-8.45942
品	-8.46221
比	-8.464
善根	-8.46493
無不	-8.46532
無明	-8.46542
染	-8.46543
是為	-8.46897
。○	-8.46984
表	-8.47186
却	-8.47402
華嚴	-8.47765
不見	-8.47882
三寶	-8.47889
亂	-8.47937
變	-8.4799
昔	-8.48201
寂	-8.48486
據	-8.4869
不可思議	-8.48764
蓮	-8.4901
告	-8.49077
予	-8.4944
若不	-8.49441
無盡	-8.49975
退	-8.50478
人天	-8.50486
國土	-8.50646
懺	-8.50706
如何	-8.5089
決	-8.5111
增	-8.51161
雙	-8.51388
周	-8.51453
靜	-8.5204
於此	-8.52082
恒	-8.52135
幾	-8.52286
備	-8.52504
亡	-8.52725
林	-8.52742
貪	-8.52977
收	-8.53035
宋	-8.53269
疾	-8.5342
影	-8.5356
九品	-8.53601
救	-8.53717
積	-8.53726
俗	-8.53745
漸	-8.53856
悲	-8.53926
勤	-8.54004
真如	-8.54172
之中	-8.54283
談	-8.54704
懷	-8.5488
不思議	-8.54901
棄	-8.55049
裏	-8.55108
君	-8.55125
女	-8.55201
垂	-8.55357
關	-8.55531
自在	-8.55794
交	-8.56299
實相	-8.56845
新	-8.56888
虗空	-8.56956
再	-8.57188
是名	-8.57296
之法	-8.57372
穢	-8.5744
那	-8.57623
急	-8.57634
念佛三昧	-8.57826
唯心	-8.58012
無礙	-8.58029
判	-8.58238
誓	-8.58419
設	-8.58421
恩	-8.58664
分別	-8.58796
城	-8.58949
第三	-8.5898
。」【【	-8.59012
葢	-8.59021
道場	-8.59118
故名	-8.59353
身心	-8.59412
平等	-8.5943
忍	-8.59474
氏	-8.59624
懺悔	-8.60185
遊	-8.60202
二乘	-8.60252
境界	-8.60362
鳥	-8.60546
佛言	-8.60547
否	-8.60596
得生	-8.60751
放	-8.61047
慈悲	-8.61092
無所	-8.61102
可以	-8.61307
太	-8.61404
堂	-8.6148
窮	-8.61516
三觀	-8.61576
待	-8.6159
七日	-8.61751
徹	-8.61977
翻	-8.62002
亦無	-8.62208
真實	-8.62349
阿難	-8.62571
大師	-8.62631
是以	-8.62683
般若	-8.62862
趣	-8.63012
都	-8.63028
池	-8.63045
章	-8.63055
護	-8.6323
迴向	-8.63653
一句彌陀	-8.63901
簡	-8.64084
陰	-8.64249
原	-8.64426
陳	-8.64653
宿	-8.64914
然後	-8.65006
詳	-8.65032
興	-8.65155
龍	-8.65368
列	-8.65373
助	-8.65408
特	-8.65411
休	-8.65593
權	-8.65882
譯	-8.65953
法性	-8.65996
偈	-8.66058
輪	-8.661
曾	-8.66107
咸	-8.6621
世人	-8.66312
厭	-8.66335
藥	-8.66471
歷	-8.66494
邊	-8.66543
痛	-8.6669
歡喜	-8.66758
讀	-8.66953
一時	-8.66961
七寶	-8.67082
燈	-8.67352
比丘	-8.67482
唐	-8.67546
依正	-8.68197
嚴	-8.68208
殊	-8.68211
壞	-8.6825
不取正覺	-8.68312
并	-8.68367
許	-8.68428
強	-8.68972
錄	-8.69358
承	-8.69392
發菩提心	-8.70025
亦不	-8.70055
玉	-8.70133
賢	-8.70267
橫	-8.70427
的	-8.70437
歲	-8.70531
載	-8.70684
此土	-8.708
今日	-8.7117
純	-8.71185
愚	-8.71213
朝	-8.71504
。』	-8.71774
端	-8.718
愈	-8.72304
資	-8.72434
推	-8.72592
寧	-8.73148
出世	-8.73173
妄想	-8.73174
覆	-8.73219
密	-8.73247
淺	-8.73251
天台	-8.73452
濟	-8.73637
細	-8.73646
何以故	-8.73712
無常	-8.74074
圓融	-8.74084
容	-8.74115
行人	-8.74188
相應	-8.74261
觀音	-8.74364
飛	-8.74773
例	-8.74839
三者	-8.74846
十二	-8.75078
守	-8.75112
官	-8.75198
畢	-8.752
南	-8.752
幸	-8.75682
標	-8.75816
臨	-8.7601
治	-8.76122
▁|	-8.76188
若人	-8.76198
現在	-8.76554
害	-8.7684
士	-8.76941
心性	-8.77187
大眾	-8.77885
美	-8.78103
謂之	-8.78313
逆	-8.78342
熟	-8.78383
阿彌陀	-8.78451
貴	-8.78565
接	-8.78647
印	-8.78663
末	-8.78664
融	-8.78784
含	-8.78912
視	-8.79068
彼國	-8.79287
極樂世界	-8.79375
回	-8.79635
器	-8.79644
豈不	-8.79688
沒	-8.79839
半	-8.80026
我今	-8.80089
座	-8.80255
無非	-8.80389
留	-8.80558
法華	-8.80603
仰	-8.80635
鬼	-8.80715
大小	-8.80879
一人	-8.80901
味	-8.80905
雨	-8.81216
運	-8.81389
旨	-8.81474
利益	-8.81584
徒	-8.81683
冥	-8.81814
投	-8.81864
憂	-8.81911
張	-8.81939
廣大	-8.81975
血	-8.82041
良	-8.82792
堅	-8.82878
求生淨土	-8.83017
經文	-8.83455
悔	-8.83657
至於	-8.83773
之時	-8.83778
圖	-8.83808
舍	-8.83808
正念	-8.83826
越	-8.83855
室	-8.84173
願力	-8.84246
茲	-8.84329
參禪	-8.84337
臨命終時	-8.84386
春	-8.8439
可謂	-8.8452
羅	-8.84577
覩	-8.84607
宣	-8.84729
省	-8.84775
無上	-8.8499
所說	-8.85384
剎	-8.85612
遺	-8.8648
提	-8.86545
觸	-8.86861
隱	-8.86915
。」	-8.86924
三身	-8.86953
鏡	-8.87
契	-8.87115
同居	-8.87142
免	-8.87171
單	-8.87634
此是	-8.88041
臺	-8.883
盛	-8.8837
五濁	-8.8841
聚	-8.88419
而巳	-8.88463
猶如	-8.88565
聖人	-8.8862
辯	-8.8892
回向	-8.88959
科	-8.88962
父	-8.89425
不如	-8.89736
儒	-8.89859
玄	-8.90081
諸經	-8.90347
求生	-8.90403
尤	-8.90525
彼土	-8.90804
途	-8.90977
劣	-8.91183
文殊	-8.91215
名字	-8.91349
小乘	-8.91584
諸天	-8.9171
客	-8.91722
生滅	-8.91777
仍	-8.91822
亦有	-8.92177
願共諸眾生往生安樂國	-8.92196
豈非	-8.92326
念阿彌陀佛	-8.92508
。】△	-8.9255
底	-8.92604
何以	-8.92629
仁	-8.92687
彰	-8.93128
佛土	-8.93172
南無	-8.93184
歎	-8.9322
隔	-8.93252
馬	-8.93285
刻	-8.93307
閒	-8.93417
何況	-8.93453
纔	-8.93531
仙	-8.93632
遣	-8.93705
幽	-8.93788
點	-8.93924
任	-8.93934
無量壽佛	-8.93949
安養	-8.93956
民	-8.94007
次第	-8.9433
題	-8.94524
上品	-8.94702
魚	-8.95048
命終	-8.95077
木	-8.95265
無相	-8.95405
蒙	-8.95405
何故	-8.95486
不出	-8.95546
露	-8.95562
葉	-8.96158
波	-8.96344
蓮花	-8.96363
亦名	-8.96805
互	-8.96831
不為	-8.97122
導	-8.97384
草	-8.9747
節	-8.97478
帝	-8.97573
癡	-8.97617
善惡	-8.9782
淨穢	-8.97853
言之	-8.98104
之說	-8.98209
神通	-8.98231
之理	-8.9843
江	-8.98604
伏	-8.9868
濁	-8.98686
信心	-8.9875
雖有	-8.98798
未來	-8.98994
預	-8.99013
三乘	-8.99022
智者	-8.99129
亦復如是	-8.99144
輪迴	-8.99317
名曰	-8.99344
不必	-8.99499
代	-8.99668
生彼	-8.99852
羣	-9.00082
我心	-9.00226
驗	-9.00353
若能	-9.00416
微妙	-9.00455
所有	-9.00884
背	-9.01096
第四	-9.01139
講	-9.01151
網	-9.01226
笑	-9.01308
亦可	-9.01383
服	-9.01429
晝夜	-9.01453
唱	-9.01841
一句	-9.01878
辭	-9.02082
傷	-9.02227
毀	-9.02271
分明	-9.02327
象	-9.02373
惡業	-9.0246
可知	-9.02493
持戒	-9.02541
其心	-9.02566
邪見	-9.02688
拜	-9.03005
無間	-9.0307
呼	-9.03121
稱名	-9.03124
幻	-9.03243
養	-9.03247
十六	-9.03299
舌	-9.03359
不動	-9.03403
究	-9.03425
不二	-9.03513
眷屬	-9.03563
阿	-9.03642
拔	-9.03886
初心	-9.03905
頂	-9.03933
黃	-9.03954
外道	-9.04052
過去	-9.04114
寂光	-9.04395
友	-9.0452
謗	-9.04537
金剛	-9.04571
降	-9.04605
所見	-9.04947
遙	-9.04986
有二	-9.05053
錢	-9.0508
其人	-9.05167
制	-9.0517
報身	-9.0523
附	-9.05308
齋	-9.05603
彌勒	-9.05631
名號	-9.05879
之事	-9.05919
即得往生	-9.06001
一切法	-9.06087
合掌	-9.06198
昏	-9.06463
累	-9.06573
務	-9.06597
慮	-9.06786
供	-9.06832
摩	-9.06902
徑	-9.06933
悉皆	-9.07421
礙	-9.07493
曉	-9.0761
寒	-9.07625
逢	-9.07677
得往生	-9.07699
▁二	-9.07847
伹	-9.07924
沈	-9.07996
大悲	-9.08009
此心	-9.08051
肉	-9.08123
此則	-9.08472
詩	-9.08585
正法	-9.08602
暫	-9.08778
於是	-9.08988
步	-9.09
天下	-9.09002
亦是	-9.09167
生彼國	-9.09169
部	-9.0923
暗	-9.09279
相好	-9.09298
牛	-9.09355
攝受	-9.09428
適	-9.0963
曲	-9.09736
車	-9.09737
授	-9.09822
常住	-9.09954
心中	-9.09997
穢土	-9.10026
質	-9.10067
迎	-9.10071
普賢	-9.10158
「	-9.10316
舟	-9.10355
迴	-9.10366
改	-9.10453
犯	-9.10489
憶	-9.10522
然則	-9.10533
毒	-9.10617
有緣	-9.10617
流通	-9.10651
聞法	-9.10803
接引	-9.11083
孝	-9.11219
四土	-9.11374
置	-9.11502
中道	-9.11617
塔	-9.11705
十方諸佛	-9.11709
億	-9.11713
二種	-9.11801
念彌陀	-9.11932
佛身	-9.12151
哀	-9.12233
佛說	-9.12337
源	-9.1234
夫人	-9.12572
州	-9.12585
本無	-9.12656
思惟	-9.12681
修習	-9.12772
有情	-9.12817
又如	-9.12908
觀佛	-9.12912
際	-9.12924
西方淨土	-9.1299
觀想	-9.13059
誤	-9.13173
舊	-9.13192
無量壽	-9.13249
事理	-9.13302
堪	-9.13419
違	-9.13436
顛倒	-9.13482
啟	-9.13565
三業	-9.13661
爾時	-9.13747
呪	-9.13758
執持名號	-9.13766
日月	-9.13818
弘	-9.13866
逐	-9.13867
祇	-9.13892
信願	-9.14443
之義	-9.14647
不覺	-9.14774
漢	-9.14939
大願	-9.1509
壽命	-9.15761
某	-9.15831
諦	-9.15833
患	-9.15861
此身	-9.15883
大本	-9.16281
法藏	-9.1633
揀	-9.16458
梵語	-9.1648
不斷	-9.16519
亦如是	-9.16567
安樂	-9.16587
佛國	-9.16785
富貴	-9.1683
北	-9.16874
燒	-9.17017
有一	-9.17035
之言	-9.1711
建	-9.17187
沉	-9.17211
冤	-9.17531
謝	-9.17619
玅	-9.17949
而為	-9.17966
財	-9.17971
三諦	-9.1802
百年	-9.18108
更無	-9.18119
青	-9.18121
音聲	-9.18122
學者	-9.1844
若無	-9.18738
婆	-9.1876
諸眾生	-9.18769
託	-9.18826
兒	-9.18883
沙門	-9.19047
肯	-9.19312
往生淨土	-9.19388
謹	-9.19396
者也	-9.19396
尊者	-9.19414
修淨土	-9.19565
自巳	-9.19872
至心	-9.19932
此等	-9.20001
刀	-9.20176
狂	-9.20193
差	-9.20202
苦海	-9.20389
此人	-9.20406
若有	-9.20502
沙	-9.20538
禮拜	-9.20597
他方	-9.20653
受持	-9.2093
揚	-9.20958
勞	-9.21011
倒	-9.21031
大士	-9.21081
骨	-9.21091
顧	-9.21109
差別	-9.21215
無量壽經	-9.21215
昧	-9.2122
律	-9.21295
支	-9.21422
打	-9.21756
萬法	-9.21765
經中	-9.21819
敢	-9.21856
脩	-9.21907
調	-9.22097
不妨	-9.22118
怨	-9.22202
一聲	-9.2235
無數	-9.22584
圓滿	-9.22708
敘	-9.22843
繫	-9.22964
深信	-9.23078
奇	-9.23229
淨土法門	-9.23388
終日	-9.23676
豈可	-9.23682
來迎	-9.237
女人	-9.23727
遭	-9.23758
諸菩薩	-9.23794
樓	-9.23908
本性	-9.24035
佛性	-9.24061
不淨	-9.24285
皆有	-9.24402
輩	-9.24446
稍	-9.24468
此方	-9.24528
秋	-9.24579
嘗	-9.24588
陽	-9.246
送	-9.24606
根本	-9.24614
苟	-9.2473
鐵	-9.24888
局	-9.25307
譬	-9.25319
廢	-9.25336
懸	-9.25345
錯	-9.25495
不可得	-9.25508
多少	-9.25684
不聞	-9.25692
之外	-9.25698
之後	-9.25879
浮	-9.25908
作佛	-9.25978
誓願	-9.26043
讚歎	-9.26166
度生	-9.26204
生者	-9.26463
相續	-9.26512
倍	-9.26513
驚	-9.26589
甞	-9.26642
受用	-9.26854
畜生	-9.26935
垢	-9.2699
禪定	-9.27008
佛號	-9.27009
梵	-9.27026
天人	-9.27193
一佛	-9.27238
有三	-9.27273
畢竟	-9.27314
六根	-9.27327
陀	-9.27449
彌	-9.27458
佛剎	-9.27479
布	-9.27738
一心念佛	-9.27993
遮	-9.28089
可見	-9.2812
該	-9.2848
觧	-9.28487
一法	-9.28592
己	-9.287
和尚	-9.28734
隨緣	-9.28802
而言	-9.28841
教人	-9.29055
化佛	-9.2909
十八	-9.29414
階	-9.29461
辦	-9.29501
皆悉	-9.29655
所作	-9.29802
損	-9.29857
繫念	-9.29894
爭	-9.30153
跡	-9.30287
箇	-9.30396
延	-9.30427
而生	-9.30436
無窮	-9.30571
臥	-9.30681
獄	-9.30895
本來	-9.30921
莫不	-9.31058
如上	-9.31107
遵	-9.31124
▁初	-9.31133
虛	-9.31281
未能	-9.31438
畫	-9.31518
中有	-9.31526
不成	-9.31571
何處	-9.31618
古今	-9.31674
便是	-9.31775
毛	-9.31924
百千	-9.32018
經論	-9.32132
博	-9.32181
或有	-9.32286
修道	-9.32303
程	-9.32468
胎	-9.32497
儀	-9.32826
六道	-9.32831
等者	-9.32905
宮	-9.33157
夏	-9.33309
謬	-9.33387
禮佛	-9.3339
筆	-9.33772
!	-9.33773
福德	-9.33795
故也	-9.33924
性具	-9.34027
船	-9.34054
麤	-9.34084
慕	-9.34119
圓頓	-9.34137
寶樹	-9.34153
果報	-9.34173
八萬四千	-9.34238
塵勞	-9.34525
工夫	-9.3457
不過	-9.34602
篇	-9.34629
恨	-9.34658
不肯	-9.34731
招	-9.34995
男女	-9.35038
舍利	-9.35077
三十	-9.35281
四句	-9.35281
憑	-9.35309
初明	-9.35318
我等	-9.35346
連	-9.35355
之道	-9.35384
盖	-9.35412
堅固	-9.35432
牽	-9.35456
色身	-9.35563
恒沙	-9.35566
相似	-9.35579
一切諸佛	-9.3575
不識	-9.35761
星	-9.35948
此乃	-9.3595
又曰	-9.36164
不應	-9.36217
把	-9.36526
歸依	-9.36565
巧	-9.36661
河	-9.36721
是佛	-9.36752
十界	-9.36788
繁	-9.36812
念佛者	-9.36913
?」	-9.37057
樂邦	-9.37295
頌	-9.374
十方世界	-9.3749
典	-9.37516
設我得佛	-9.37674
泥	-9.37729
則無	-9.37735
不住	-9.37736
慶	-9.37966
護念	-9.37984
憶念	-9.38021
迹	-9.38123
各有	-9.38454
隨意	-9.38573
減	-9.38599
遲	-9.38617
今生	-9.3874
金色	-9.38765
受苦	-9.38789
必須	-9.38817
苦樂	-9.38923
無漏	-9.38966
鼓	-9.39138
贊	-9.39172
增長	-9.39277
較	-9.39521
枝	-9.39587
游	-9.39623
不然	-9.39693
註	-9.39788
希	-9.3996
不及	-9.39962
群	-9.40017
帶	-9.40017
貫	-9.40025
四十八願	-9.40043
而無	-9.4016
稽首	-9.40168
孰	-9.40207
化身	-9.40316
觀音勢至	-9.40361
永明	-9.40378
是則	-9.40517
之相	-9.40555
西方極樂世界	-9.4064
見彌陀	-9.40642
亦然	-9.40753
統	-9.40954
追	-9.41038
無為	-9.41183
非是	-9.41327
云云	-9.41437
臣	-9.41515
欣	-9.41529
後世	-9.41546
其中	-9.41704
善知識	-9.41773
三世	-9.41789
二初	-9.41798
為人	-9.41975
宏	-9.4199
盜	-9.41995
東方	-9.42019
祖師	-9.4209
處處	-9.42162
響	-9.42222
阿彌	-9.42228
薄	-9.42297
纏	-9.42304
這	-9.42325
乖	-9.42367
三塗	-9.4239
走	-9.42492
右	-9.42637
繼	-9.42797
圓教	-9.42985
感應	-9.43037
淨土之	-9.43092
紅	-9.43161
釋曰	-9.43191
本願	-9.43196
悅	-9.43301
準	-9.43313
澄	-9.4332
富	-9.43332
孤	-9.43356
鉢	-9.43382
弗	-9.43383
素	-9.43456
審	-9.43665
六時	-9.43675
鳴	-9.43683
復有	-9.43693
不善	-9.43777
顏	-9.4381
無量無邊	-9.4394
極樂國土	-9.43942
正報	-9.44155
之間	-9.44182
生西方	-9.44249
十萬	-9.4425
條	-9.44265
殺生	-9.44376
下品	-9.44508
詮	-9.44527
楞嚴	-9.44533
念佛法門	-9.44583
注	-9.44585
十四	-9.44716
汝等	-9.44724
乞	-9.44774
蕩	-9.44833
屋	-9.44901
默	-9.4492
何不	-9.44984
依報	-9.45004
五陰	-9.45156
飲	-9.45194
吳	-9.45295
話	-9.45307
社	-9.45342
喪	-9.45346
光佛	-9.45397
飯	-9.4545
偈云	-9.45476
三德	-9.45589
寄	-9.45756
返	-9.4578
做	-9.45799
無念	-9.45825
不可以	-9.45834
晉	-9.4584
滯	-9.45847
一拜	-9.45981
一乘	-9.46081
亦非	-9.46164
活	-9.46346
內外	-9.46356
不起	-9.46542
大海	-9.46741
廬山	-9.46832
幢	-9.47119
生極樂	-9.47121
天樂	-9.47139
佛名	-9.47181
負	-9.47246
一卷	-9.47368
之意	-9.47609
珍	-9.47623
未得	-9.47735
佛告	-9.47798
蛇	-9.47858
三種	-9.47894
修持	-9.48001
而有	-9.48006
各各	-9.48165
直指	-9.48191
演	-9.48385
移	-9.48442
時時	-9.48477
最勝	-9.48499
虛空	-9.48696
應身	-9.48767
歟	-9.48811
避	-9.48843
才	-9.48872
真心	-9.4902
故言	-9.49056
不敢	-9.49087
空中	-9.49175
保	-9.49179
所居	-9.4923
訓	-9.49304
庶	-9.49305
可得	-9.49311
黑	-9.4932
本具	-9.49392
田	-9.49511
隨順	-9.4952
三千	-9.49525
值	-9.49683
之身	-9.49873
續	-9.49993
是知	-9.50129
平生	-9.50141
阿彌陀經	-9.50177
唯有	-9.5019
必有	-9.5019
映	-9.50265
按	-9.50295
未知	-9.50315
十五	-9.50329
三途	-9.5041
賢聖	-9.50553
豈有	-9.50719
布施	-9.50722
文字	-9.50876
岸	-9.50989
佛之	-9.51067
試	-9.51135
婬	-9.51227
無別	-9.51289
寂滅	-9.51313
賊	-9.51316
二十	-9.51325
忙	-9.51333
萬行	-9.51334
惡趣	-9.51378
稱讚	-9.51414
自他	-9.51512
知識	-9.51539
大地	-9.51587
勢	-9.51588
人人	-9.5164
彌陀佛	-9.51652
上品上生	-9.51749
天地	-9.51759
古人	-9.51792
閻浮	-9.51818
熱	-9.51918
酒	-9.52015
之士	-9.52019
李	-9.5205
殿	-9.52083
有何	-9.52248
不是	-9.523
惡道	-9.52305
考	-9.52315
二義	-9.52377
盈	-9.52381
取捨	-9.52387
信受	-9.52411
若有眾生	-9.52422
卒	-9.5244
領	-9.52465
枯	-9.52493
則知	-9.52525
旋	-9.52592
不足	-9.52663
有漏	-9.52686
念佛人	-9.52799
是人	-9.53072
四大	-9.53097
須彌	-9.53128
不捨	-9.53249
衰	-9.53327
其所	-9.53335
徵	-9.53362
聖教	-9.53363
縛	-9.53381
段	-9.53429
四教	-9.5343
佛力	-9.5355
同一	-9.53622
第	-9.53624
殊勝	-9.53625
二字	-9.53972
惡人	-9.5399
狀	-9.5401
雷	-9.54042
醒	-9.54124
論云	-9.54233
緣起	-9.54316
須知	-9.54416
申	-9.5442
聖眾	-9.54542
黃金	-9.54731
善友	-9.54739
人間	-9.54761
無始	-9.54794
蓮池	-9.54842
用心	-9.54847
涉	-9.54895
第十	-9.55006
四諦	-9.55035
前後	-9.55078
彼此	-9.55103
粗	-9.55115
四種	-9.55241
稱佛	-9.55267
華開	-9.55408
自力	-9.55427
實報	-9.55587
剎那	-9.55594
認	-9.55635
無二	-9.55844
餓鬼	-9.55949
第六	-9.56017
皆可	-9.56038
趨	-9.5605
無我	-9.56102
授記	-9.56107
乾	-9.56117
之力	-9.56197
管	-9.56216
編	-9.56221
今人	-9.56682
閑	-9.56688
弟	-9.56694
勢至	-9.56757
生佛	-9.56757
皇	-9.56768
殘	-9.56788
業障	-9.5679
即心	-9.56816
未嘗	-9.5691
:	-9.56938
甚深	-9.56987
欲界	-9.57062
正覺	-9.57166
補	-9.57194
藉	-9.57236
愧	-9.57263
五百	-9.57315
胡	-9.57344
念佛之人	-9.57369
然而	-9.57534
塗	-9.57615
而後	-9.57709
怖	-9.5771
凡聖	-9.57838
得見	-9.57922
之類	-9.58015
每日	-9.58114
如斯	-9.58123
脚	-9.58239
正因	-9.58362
快樂	-9.58388
竊	-9.58406
歌	-9.5845
今經	-9.58463
專心	-9.58522
四者	-9.586
從此	-9.5867
孔子	-9.58721
開示	-9.58767
淨土樂	-9.58867
限	-9.5899
未盡	-9.59057
姓	-9.59182
惜	-9.59253
不用	-9.59256
不受	-9.59336
人之	-9.5938
抑	-9.59535
雪	-9.59561
索	-9.59572
崇	-9.5958
寶池	-9.59592
至心歸命禮西方阿彌陀佛	-9.59774
遷	-9.59811
往生者	-9.59825
慢	-9.59862
第五	-9.59926
乃是	-9.59932
缺	-9.59954
不須	-9.59969
十種	-9.60018
察	-9.60135
寫	-9.60174
以上	-9.60188
度眾生	-9.60202
受生	-9.60268
之旨	-9.60283
本覺	-9.6041
之苦	-9.60486
人也	-9.60491
心不	-9.60534
往來	-9.60551
不求	-9.60562
若是	-9.60671
皮	-9.60678
萬德	-9.60923
須臾	-9.61123
術	-9.61152
包	-9.61164
正是	-9.61186
充	-9.61197
願我	-9.61201
髮	-9.61209
勸人	-9.61231
威	-9.61241
十一	-9.61277
微塵	-9.61326
得生淨土	-9.61354
末法	-9.61354
疏云	-9.6136
端坐	-9.61472
貧	-9.61599
愁	-9.61697
溺	-9.61775
何得	-9.61775
今初	-9.61818
借	-9.61835
唯心淨土	-9.61836
飲食	-9.61886
聖賢	-9.61942
亦爾	-9.61995
即此	-9.62025
滅罪	-9.62107
赴	-9.62154
短	-9.62252
此理	-9.62253
睡	-9.62259
六度	-9.62308
三藏	-9.62396
修淨業	-9.62404
神力	-9.62415
恭敬	-9.62458
性體	-9.62493
身土	-9.62581
擇	-9.62772
正法樂	-9.62806
願生彼國	-9.62851
漏	-9.62857
仗	-9.62908
瞋	-9.6293
磨	-9.62934
禁	-9.62951
法王	-9.62984
甘	-9.62994
臂	-9.63042
無上菩提	-9.63071
和合	-9.6308
聞者	-9.63267
塵沙	-9.63298
初地	-9.63324
則有	-9.63346
不異	-9.63366
化生	-9.63407
逃	-9.63486
之功	-9.63542
補處	-9.63552
閱	-9.63619
觀行	-9.63634
菴	-9.63646
四字	-9.63822
洞	-9.63872
又復	-9.64127
虎	-9.64144
迦葉	-9.6415
噫	-9.64165
無異	-9.64255
行願	-9.64341
遠離	-9.64345
由是	-9.64362
)。(	-9.64406
不忘	-9.64462
倫	-9.64542
鬼神	-9.64546
下至	-9.64625
以至	-9.64717
朗	-9.64781
又有	-9.64802
猛	-9.64824
其義	-9.64875
終身	-9.64916
惱	-9.64947
懼	-9.65205
潔	-9.65241
亦云	-9.65282
禪宗	-9.65337
▁一心頂禮	-9.65389
湯	-9.65456
執持	-9.65515
教主	-9.65627
何為	-9.65634
觀察	-9.65828
專念	-9.65879
愚癡	-9.65931
之境	-9.6597
囑	-9.65978
倘	-9.65983
如人	-9.66009
寬	-9.66031
放生	-9.66098
能所	-9.66108
自有	-9.66145
師曰	-9.66167
圓覺	-9.66193
有人	-9.66219
而得	-9.66331
有大	-9.66454
奪	-9.6653
付	-9.66561
酬	-9.66581
展轉	-9.66589
冬	-9.66593
難信	-9.66616
私	-9.66639
彌陀經	-9.66708
人生	-9.66752
大事	-9.66767
若言	-9.66822
閣	-9.66831
戀	-9.66864
不退轉	-9.66868
但能	-9.66895
在家	-9.67118
升	-9.67178
奚	-9.67202
於中	-9.67341
准	-9.67459
心淨	-9.67494
暮	-9.67562
佛前	-9.67784
梁	-9.67799
之行	-9.67801
二明	-9.67816
種子	-9.67869
五欲	-9.6788
心念	-9.67947
即得	-9.68033
鄉	-9.6821
當來	-9.68277
最為	-9.68297
乳	-9.68418
努力	-9.68427
里	-9.68711
觀法	-9.68719
之有	-9.68803
赤	-9.68859
侍	-9.68862
醫	-9.69021
嘉	-9.69038
透	-9.69078
不念	-9.6911
於佛	-9.69115
或曰	-9.69134
為宗	-9.6914
所修	-9.69189
實有	-9.69383
為一	-9.69554
佛道	-9.69561
而逝	-9.69642
皆得	-9.69647
課	-9.69658
真諦	-9.69662
至誠	-9.69694
毋	-9.69695
符	-9.69713
寸	-9.69715
翁	-9.69783
即佛	-9.69792
尼	-9.69818
融通	-9.69834
左	-9.69918
成正覺	-9.69954
本師	-9.69956
十三	-9.69986
現世	-9.70082
觀經云	-9.70166
願生	-9.70189
夢中	-9.70207
復次	-9.70262
任運	-9.70286
不定	-9.70338
墜	-9.70509
樓閣	-9.70545
見阿彌陀佛	-9.70587
如是等	-9.70595
熏	-9.70641
出離	-9.70665
不了	-9.70765
俾	-9.70871
飾	-9.7088
責	-9.70896
晚	-9.70967
法音	-9.71104
十六觀	-9.71186
頃	-9.71239
更有	-9.71382
孫	-9.71389
今此	-9.71437
不在	-9.71504
毗	-9.71556
外無	-9.71767
此法	-9.718
能令	-9.71871
詞	-9.71958
不壞	-9.72121
行道	-9.72124
莊	-9.72193
頗	-9.72243
棲	-9.72255
了知	-9.72276
之名	-9.72364
惟心	-9.72386
何者	-9.72448
正信	-9.72452
或云	-9.72468
清涼	-9.72532
萬劫	-9.72573
八萬	-9.72625
欺	-9.72642
男	-9.72674
終不	-9.72701
十信	-9.7274
煩	-9.72768
無餘	-9.72787
千里	-9.72866
不礙	-9.72876
淚	-9.72896
效	-9.7296
不修	-9.72987
釋迦如來	-9.73061
利根	-9.7307
妙法	-9.73105
苦惱	-9.73341
不著	-9.73353
排	-9.73375
所生	-9.73484
召	-9.73507
䇿	-9.73518
圓通	-9.73712
眾等	-9.73929
一經	-9.73985
不亂	-9.7399
毫	-9.74081
何須	-9.74132
楊	-9.74152
教化	-9.74296
聲聲	-9.74333
長者	-9.74349
之語	-9.74425
如前	-9.74478
是心	-9.74548
國王	-9.7465
之處	-9.7469
宛然	-9.7475
上下	-9.74797
泉	-9.74841
無可	-9.74944
經言	-9.75019
方能	-9.75082
菩提心	-9.7509
眾苦	-9.7509
盲	-9.75102
真性	-9.7521
韋提希	-9.75243
故名為	-9.75248
總持	-9.75268
韋提	-9.75285
撰	-9.75336
怕	-9.75406
校	-9.75425
獻	-9.75438
克	-9.75444
披	-9.75469
四明	-9.7549
心外	-9.75497
洗	-9.75563
之際	-9.75565
現身	-9.7567
止觀	-9.75695
無心	-9.75711
不論	-9.75763
三年	-9.75772
華嚴經	-9.75831
金臺	-9.75933
皆為	-9.75953
壇	-9.7601
冠	-9.76113
防	-9.76136
扶	-9.76144
所言	-9.76207
唯識	-9.76288
心境	-9.76456
鈍根	-9.7653
此即	-9.76569
闇	-9.76632
偽	-9.76672
院	-9.76721
嗔	-9.76725
勉	-9.76752
掌	-9.76784
房	-9.76865
佛祖	-9.76867
冷	-9.76871
初釋	-9.7689
多生	-9.76962
隨喜	-9.76975
如來藏	-9.77044
真空	-9.77047
喚	-9.7725
所得	-9.77271
全體	-9.77293
羅漢	-9.77412
僅	-9.77473
均	-9.7752
腹	-9.77555
太子	-9.7769
大本云	-9.77692
何必	-9.7772
營	-9.77746
迦	-9.77936
莫能	-9.7798
焚	-9.78036
渡	-9.78053
折	-9.78131
園	-9.78144
覓	-9.78151
善人	-9.78154
第八	-9.78157
祈	-9.78215
此中	-9.78236
危	-9.78279
佛心	-9.78303
畏	-9.78563
遠公	-9.78618
生於	-9.78624
所願	-9.78672
泯	-9.78709
闡	-9.78745
儞	-9.78768
嗚呼	-9.78807
閉	-9.78808
委	-9.78811
不滅	-9.78835
▁三	-9.78848
向西	-9.7885
履	-9.78854
鼻	-9.78904
諱	-9.78916
重罪	-9.79056
死生	-9.7908
場	-9.79176
五十	-9.79235
令其	-9.79258
假名	-9.79297
在此	-9.79299
䟦	-9.79456
所成	-9.79477
三十二相	-9.79533
擊	-9.79539
擬	-9.79593
武	-9.79596
你	-9.79609
庵	-9.79615
得道	-9.7962
觀之	-9.79637
普勸	-9.79655
隨其	-9.79668
其身	-9.79727
五者	-9.79752
未有	-9.79766
知其	-9.79877
之體	-9.79884
此事	-9.79902
中初	-9.80073
天竺	-9.80113
嗟	-9.80116
有所	-9.80153
三教	-9.80155
丈六	-9.80182
賴	-9.80203
歇	-9.80225
自身	-9.80311
冰	-9.80311
所證	-9.80316
不相	-9.80343
善導	-9.80344
妄心	-9.8048
釋迦牟尼佛	-9.80481
無量光	-9.8052
即生	-9.80555
停	-9.80601
眾生心	-9.80605
議	-9.80673
所能	-9.8073
有四	-9.80748
禍	-9.80835
十地	-9.80874
尺	-9.80885
第九	-9.80948
景	-9.80954
烏	-9.80979
瞻	-9.80998
非一	-9.8107
示現	-9.81096
觀世音菩薩	-9.81288
誑	-9.81441
念佛門	-9.81577
怒	-9.81589
是心是佛	-9.8159
緩	-9.81599
亦如	-9.81803
十聲	-9.81925
奈何	-9.81939
不絕	-9.82084
願行	-9.82099
與佛	-9.82106
是非	-9.82125
誦經	-9.82208
心心	-9.82211
戶	-9.82287
奏	-9.82304
陵	-9.82317
方等	-9.82346
怪	-9.82352
濫	-9.82357
善業	-9.82364
南無至心歸命禮西方阿彌陀佛	-9.82377
之因	-9.8238
秦	-9.8245
之極	-9.82452
國中	-9.82454
理事	-9.82495
虗妄	-9.82578
傾	-9.82636
難成	-9.82669
光照	-9.82689
諸佛菩薩	-9.82737
無益	-9.82771
龍樹	-9.82801
圓成	-9.82827
決定往生	-9.82851
憐	-9.82869
偶	-9.82942
何如	-9.82951
兜率	-9.83021
馳	-9.8303
混	-9.83031
則不	-9.83039
弊	-9.83057
瑠璃	-9.83071
建立	-9.83091
紙	-9.831
未必	-9.83137
換	-9.83185
選	-9.83196
阿羅漢	-9.83246
嘆	-9.83287
之內	-9.833
非但	-9.8333
不變	-9.83423
是我	-9.83429
第七	-9.83516
o	-9.83614
N	-9.83614
險	-9.83644
榮	-9.83681
斥	-9.83696
是真	-9.83711
有無	-9.8374
工	-9.8374
詣	-9.83744
測	-9.83816
輒	-9.83821
冀	-9.83833
蓮社	-9.83893
墮地獄	-9.83918
大聖	-9.83952
之曰	-9.84247
為善	-9.84298
未曾	-9.8432
忻	-9.84352
亦得	-9.84372
童子	-9.84389
或問	-9.84401
秪	-9.84448
師子	-9.84484
托	-9.84521
心者	-9.84573
一處	-9.84657
二門	-9.84721
方得	-9.84783
亦復	-9.84911
學道	-9.84913
有佛	-9.84917
不言	-9.85085
散亂	-9.85086
其有	-9.8511
第一義	-9.85144
拈	-9.85165
資糧	-9.85199
魂	-9.85274
願者	-9.85275
蘇	-9.8528
有此	-9.85302
絲	-9.85303
豈能	-9.85305
伴	-9.8531
史	-9.85349
疏鈔	-9.85379
能觀	-9.85405
四眾	-9.85481
若欲	-9.85525
十惡	-9.85603
有餘	-9.85693
稟	-9.8588
雲棲	-9.85933
闕	-9.85945
誘	-9.86001
夙	-9.86034
頻	-9.86089
夕	-9.86254
他力	-9.86365
應當	-9.86375
歷劫	-9.86398
大慈悲	-9.86446
所以者何	-9.86555
植	-9.86622
促	-9.86658
三日	-9.86697
雖然	-9.86711
燭	-9.86723
得聞	-9.86781
割	-9.86826
班	-9.86847
面西	-9.86947
五逆	-9.86987
重重	-9.87043
平日	-9.87125
童	-9.87205
娑婆世界	-9.87263
佛告阿難	-9.87272
正好念佛	-9.87287
佛所	-9.87353
不可說	-9.87369
令人	-9.87381
有二種	-9.87402
心無	-9.8741
洲	-9.87444
康	-9.87459
同歸	-9.87483
竹	-9.87509
此二	-9.87513
為之	-9.87565
彩	-9.87569
應知	-9.87575
頂禮	-9.87586
此三	-9.87669
此言	-9.87804
南無阿彌陀佛	-9.87947
之大	-9.87951
老人	-9.87958
中之	-9.87966
以其	-9.88002
不復	-9.88021
希有	-9.88054
快	-9.88063
二釋	-9.88083
是心作佛	-9.88127
繇	-9.88133
振	-9.88253
目連	-9.88266
蟲	-9.88284
兵	-9.88296
及諸	-9.88303
之樂	-9.88335
萬物	-9.88568
日日	-9.88576
千萬	-9.88634
隨機	-9.8865
拘	-9.88798
蔽	-9.88876
優	-9.88906
妻	-9.88907
撥	-9.88937
成道	-9.89084
之徒	-9.89297
旦	-9.8932
先生	-9.89354
妙覺	-9.89496
着	-9.89635
不思	-9.89653
殃	-9.89667
侶	-9.89673
氷	-9.89687
綱	-9.89699
正行	-9.89717
諸惡	-9.89723
配	-9.8973
塞	-9.8974
其餘	-9.89765
軌	-9.8983
親近	-9.89872
見之	-9.89975
而去	-9.89999
九界	-9.9004
去來	-9.9007
發起	-9.90172
多劫	-9.90173
消滅	-9.90314
之教	-9.90315
敷	-9.90333
勇猛	-9.90339
宅	-9.90409
火宅	-9.90423
妄語	-9.90484
以是	-9.90495
三品	-9.90536
嫌	-9.90577
兄	-9.90586
願生淨土	-9.90649
別教	-9.90824
稱性	-9.90827
一塵	-9.90828
思之	-9.90828
般舟三昧樂	-9.90871
日夜	-9.90955
洪	-9.91032
深心	-9.91114
色界	-9.91196
鄙	-9.91198
後學	-9.91298
訣	-9.91321
墮落	-9.91392
見思	-9.91429
目前	-9.91649
辛	-9.91795
修福	-9.91814
厚	-9.91822
何謂	-9.91823
浪	-9.92067
無畏	-9.92103
旁	-9.92155
六字	-9.92293
了義	-9.92357
理一心	-9.92365
則是	-9.92565
峯	-9.92581
正觀	-9.92595
行住坐臥	-9.92629
良以	-9.92686
之妙	-9.92756
下文	-9.92771
偈曰	-9.92776
懈怠	-9.92791
麗	-9.92832
不達	-9.92861
魏	-9.92922
經行	-9.92967
一切佛	-9.93195
法華經	-9.93202
高下	-9.9331
自利	-9.93402
伽	-9.935
放下	-9.93515
竪	-9.93533
谷	-9.93539
衣食	-9.93552
大慈	-9.93601
至今	-9.93632
一身	-9.93638
誡	-9.93676
唯願	-9.93713
何等	-9.93888
而化	-9.93893
佛教	-9.93898
若此	-9.94033
今以	-9.94086
大道	-9.94207
十九	-9.94215
此之	-9.94239
感應道交	-9.94292
以來	-9.94364
法中	-9.94368
枉	-9.94442
壁	-9.94483
侵	-9.94495
熾然	-9.94499
倚	-9.94526
琉璃	-9.94533
哭	-9.94562
軀	-9.94565
讀誦	-9.94588
二句	-9.94593
幼	-9.94594
安得	-9.94674
淨心	-9.94723
波羅蜜	-9.94842
不盡	-9.94895
而成	-9.94929
二菩薩	-9.94935
說誠實言	-9.94955
厭離	-9.95067
為此	-9.9511
牀	-9.95233
不明	-9.95261
答云	-9.95381
遠近	-9.95407
彌陀願力	-9.95412
十六觀經	-9.95591
作此	-9.95603
見聞	-9.95619
空寂	-9.95735
妙觀	-9.95736
不容	-9.95754
災	-9.95772
一字	-9.95921
參究	-9.95954
而說	-9.95963
捷徑	-9.95978
即空	-9.96012
爛	-9.96051
無作	-9.96272
善法	-9.96285
病苦	-9.96423
之文	-9.96489
欲得	-9.96546
別有	-9.96579
下明	-9.96615
鈍	-9.96628
四十	-9.96752
一體	-9.96762
菩薩摩訶薩	-9.96784
淫	-9.96799
念者	-9.9683
竭	-9.96837
淺深	-9.96848
性空	-9.96852
敵	-9.96856
飢	-9.96861
一切諸佛所護念經	-9.96891
變化	-9.96943
人中	-9.96955
又舍利弗	-9.96968
中下	-9.97016
渾	-9.97056
眾寶	-9.97224
妄念	-9.97238
善男子	-9.97409
發明	-9.97424
因此	-9.97458
他人	-9.97635
欲令	-9.97637
義也	-9.97653
勇	-9.97668
弱	-9.97675
彈指	-9.97686
臭	-9.97698
慈心	-9.97703
算	-9.97726
齒	-9.97728
灰	-9.9777
法界眾生	-9.978
角	-9.97805
思量	-9.9783
修證	-9.97847
何也	-9.9811
始終	-9.9816
不假	-9.98165
其意	-9.98205
而復	-9.98412
御	-9.98479
其事	-9.98492
同時	-9.98588
忠	-9.98614
知見	-9.98618
紀	-9.98632
地上	-9.98646
二邊	-9.98652
縣	-9.9866
盤	-9.98726
不免	-9.98745
左右	-9.98789
前世	-9.98792
皆由	-9.98818
只要	-9.98863
之地	-9.99148
一日一夜	-9.9918
得不退轉	-9.99216
胎生	-9.99248
出三界	-9.99267
訶	-9.99343
渠	-9.99362
屈	-9.99366
不失	-9.99375
司	-9.99383
之門	-9.9939
修觀	-9.9939
為我	-9.99416
導師	-9.99432
辰	-9.99433
如幻	-9.99459
基	-9.99464
吐	-9.99465
三聖	-9.99503
大千	-9.99539
無知	-9.99584
有異	-9.99621
天宮	-9.99809
佛事	-9.99883
作是	-9.9994
非真	-9.99945
今之	-9.99962
所現	-10.0001
不疑	-10.0001
故有	-10.0006
慚愧	-10.0014
三毒	-10.0019
競	-10.002
井	-10.0026
眉	-10.0026
八十	-10.0028
溪	-10.0029
罪業	-10.003
兮	-10.0043
念佛往生	-10.0044
般	-10.0053
定慧	-10.0054
不以	-10.0063
若非	-10.0065
本自	-10.0075
一生補處	-10.0088
福報	-10.0089
由旬	-10.01
甘露	-10.0105
仲	-10.0107
新疏	-10.0111
午	-10.0115
十萬億	-10.0116
是謂	-10.0119
於彼	-10.0123
愍	-10.0126
而自	-10.0127
十善	-10.0127
相即	-10.0127
何所	-10.0134
觀心	-10.0135
理性	-10.0137
忽然	-10.0139
解釋	-10.0146
薉	-10.0154
未免	-10.0158
但以	-10.0158
直至	-10.0164
壽命無量	-10.0168
如意	-10.0169
無所不	-10.0176
流轉	-10.0188
晨	-10.0192
費	-10.0193
諦觀	-10.0195
敗	-10.0196
無障礙	-10.0199
完	-10.0199
即有	-10.0199
呵	-10.0199
自見	-10.021
野	-10.0212
疑惑	-10.0212
只是	-10.0215
紫	-10.0216
造罪	-10.0221
個	-10.0222
難思	-10.0224
一切諸法	-10.0225
入道	-10.0225
之要	-10.0241
勸信	-10.0247
山居	-10.0251
如是等恒河沙數諸佛	-10.0255
道者	-10.0258
不來	-10.026
有五	-10.0262
軍	-10.0267
決疑	-10.027
泛	-10.0278
瓶	-10.0278
不許	-10.0282
誨	-10.0284
憫	-10.0293
寶華	-10.0293
鸞	-10.0293
皆從	-10.0297
不待	-10.0301
互相	-10.0302
問答	-10.0302
念力	-10.0305
一行	-10.031
修淨業者	-10.0314
實無	-10.0328
篤	-10.0329
二十五	-10.0332
畜	-10.0339
始覺	-10.0347
身後	-10.035
▁【	-10.0352
諸上善人	-10.0355
威儀	-10.0355
魔事	-10.0358
一念彌陀	-10.0359
所感	-10.0362
川	-10.0365
劉	-10.0367
往西方	-10.0368
天眼	-10.0372
潛	-10.0376
白毫	-10.0376
荒	-10.0378
淨宗	-10.0381
我佛	-10.0381
心生	-10.0383
自性彌陀	-10.0388
當念	-10.0392
性德	-10.0394
念佛時	-10.0412
光陰	-10.0417
攝心	-10.0418
放光	-10.0419
逼	-10.0428
佛者	-10.0439
饒	-10.0446
沈淪	-10.0448
慎	-10.0449
三明	-10.045
甚多	-10.0454
汝等眾生	-10.0456
匪	-10.0459
但有	-10.0464
雞	-10.0465
抱	-10.0465
尚不	-10.0466
蓮臺	-10.0471
碧	-10.0471
域	-10.0474
言訖	-10.0479
良由	-10.0481
五道	-10.0482
宮殿	-10.0484
功行	-10.0495
宗門	-10.05
若不爾者	-10.0506
又問	-10.0513
威神	-10.0516
音樂	-10.052
一門	-10.052
豎	-10.0533
花開	-10.0537
有無量	-10.0537
所觀	-10.0538
惠	-10.054
勵	-10.054
昇	-10.0541
覽	-10.0543
賓	-10.0548
巨	-10.0551
白佛言	-10.0553
族	-10.0557
不得往生	-10.0566
輪轉	-10.0566
如佛	-10.0567
考證	-10.0567
本是	-10.0567
起信	-10.0572
利他	-10.0573
百千萬億	-10.0574
作禮	-10.0581
得見佛	-10.0581
十七	-10.0581
之日	-10.0582
聖凡	-10.0583
其實	-10.0583
生處	-10.0588
生安養	-10.0593
二土	-10.0595
本有	-10.0599
方知	-10.0607
吾心	-10.0612
三輩	-10.0615
行樹	-10.0619
猶未	-10.0621
之念	-10.0625
箭	-10.0626
彼佛國土	-10.0628
道俗	-10.0632
四十八	-10.0632
震	-10.0632
天上	-10.0639
陀羅尼	-10.0639
逍遙	-10.0639
有二義	-10.0655
此一	-10.0657
未甞	-10.066
圓明	-10.0668
西向	-10.0678
王佛	-10.0686
二人	-10.069
頓悟	-10.0691
中間	-10.0714
刊	-10.0721
賜	-10.0723
求生西方	-10.0723
吞	-10.0725
嚴淨	-10.0728
而修	-10.0729
聞名	-10.0733
鐘	-10.0738
愆	-10.0739
蓮邦	-10.0741
諸人	-10.0742
人民	-10.0743
佛像	-10.0749
明了	-10.0757
東西	-10.0761
世之	-10.0763
能知	-10.0764
食肉	-10.0764
一向	-10.0771
六祖	-10.0776
此義	-10.078
若我成佛	-10.0782
最後	-10.0795
率	-10.0802
恣	-10.0807
床	-10.0809
諸師	-10.0809
不立	-10.081
香華	-10.0812
君子	-10.0813
吟	-10.082
微細	-10.082
齋戒	-10.0821
潤	-10.0823
因地	-10.0823
格	-10.0827
訪	-10.0827
至此	-10.0832
佛語	-10.0832
道品	-10.0841
然此	-10.0842
之本	-10.0848
蓮宗	-10.085
五戒	-10.0851
專修	-10.086
所攝	-10.0862
貌	-10.0864
因中	-10.0874
供佛	-10.0882
焚香	-10.0886
凝	-10.0892
通別	-10.0896
稱念	-10.0897
一曰	-10.0904
閻浮提	-10.0906
到此	-10.0908
政	-10.0908
雅	-10.0911
無復	-10.0914
謀	-10.0914
厥	-10.0916
享	-10.0917
鮮	-10.0918
出入	-10.0918
聞之	-10.093
而非	-10.0937
濁惡	-10.0943
六十	-10.0944
大勢至	-10.0956
中國	-10.0961
汝今	-10.0963
中說	-10.0981
困	-10.0984
破戒	-10.0986
蘊	-10.099
持齋	-10.0999
孔	-10.1001
恭	-10.1003
規	-10.1009
饑	-10.1009
膝	-10.1009
罔	-10.1011
身子	-10.1023
無性	-10.1024
戒殺	-10.1026
名利	-10.1027
遇善知識	-10.1034
愚人	-10.1038
一千	-10.1039
慈父	-10.1053
禮懺	-10.1058
進修	-10.1065
珍寶	-10.1067
要知	-10.1068
見佛聞法	-10.1069
性量	-10.1072
等覺	-10.1077
何人	-10.1083
尋常	-10.1085
淨土一門	-10.1086
檀	-10.1088
坐禪	-10.1094
穩	-10.1097
優劣	-10.11
由此	-10.1101
下二句	-10.1102
修善	-10.1102
逾	-10.1104
郡	-10.1106
逝	-10.1106
卻	-10.1108
祭	-10.111
一心三觀	-10.1112
證明	-10.1115
文中	-10.1131
可不	-10.1136
五種	-10.1138
造惡	-10.114
如水	-10.1148
修因	-10.1152
峰	-10.1155
妻子	-10.1159
昭	-10.1163
演說	-10.1165
法也	-10.1166
全是	-10.117
出廣長舌相	-10.1173
之佛	-10.1175
心佛	-10.1184
欣厭	-10.119
跪	-10.119
此為	-10.1193
勤修	-10.1194
析	-10.1194
滅度	-10.1195
對治	-10.1196
湛然	-10.1196
寂靜	-10.1202
丹	-10.1207
為體	-10.1212
了生死	-10.1221
修羅	-10.1223
眾善	-10.1225
登不退	-10.1229
十年	-10.1229
今世	-10.123
不久	-10.1231
緣生	-10.1247
歸命	-10.1261
萬里	-10.1269
二經	-10.1269
心地	-10.1282
十法界	-10.1282
佛果	-10.1287
皆以	-10.1292
其言	-10.1292
傍	-10.1293
戰	-10.1295
姑	-10.1295
伊	-10.1295
束	-10.1296
無定	-10.1299
事一心	-10.1301
尊特	-10.1306
吹	-10.1309
此法門	-10.1309
大法	-10.1315
我以	-10.1316
無一	-10.1324
佛智	-10.1328
古云	-10.1329
片	-10.1335
未聞	-10.1338
將來	-10.1346
權實	-10.1349
不但	-10.1354
唯此	-10.1356
佛光	-10.1376
戲	-10.1385
穀	-10.1385
放逸	-10.1386
陷	-10.1386
屠	-10.1387
淵	-10.1388
維	-10.1389
豐	-10.1389
華臺	-10.1391
叩	-10.1392
之為	-10.1393
湖	-10.1397
羊	-10.1399
我身	-10.1399
發願往生	-10.1411
而來	-10.1414
而能	-10.1416
隨心	-10.1417
大覺	-10.1439
正宗	-10.1452
丈	-10.1452
佛子	-10.1459
瑞	-10.1461
一如	-10.1474
聖道	-10.1476
佛說阿彌陀經	-10.1477
在心	-10.1479
第一義諦	-10.1489
浴	-10.1491
禱	-10.1492
g	-10.1507
:>	-10.1507
m	-10.1507
i	-10.1507
<	-10.1508
盡是	-10.1521
持誦	-10.1528
未悟	-10.1532
而不能	-10.1535
苦行	-10.1549
不易	-10.1551
不遠	-10.1554
中品	-10.1562
津	-10.1566
信解	-10.1566
風吹	-10.1567
法藏比丘	-10.157
諸行	-10.1575
方可	-10.158
暢	-10.1582
壯	-10.1584
名之為	-10.1585
掃	-10.1586
漫	-10.1587
飽	-10.1588
不可不	-10.1588
籠	-10.1591
眠	-10.1592
席	-10.1593
散心	-10.1596
總是	-10.1603
明矣	-10.1605
為眾生	-10.1609
對曰	-10.1611
前三	-10.1611
間斷	-10.1613
他佛	-10.1614
無能	-10.1615
慈雲	-10.1619
為本	-10.1623
無緣	-10.1625
俗諦	-10.1627
凡有	-10.1647
若論	-10.1649
俟	-10.1649
起行	-10.165
性相	-10.1651
雜念	-10.1653
猶有	-10.1659
盡未來際	-10.1666
藏教	-10.1672
辯才	-10.1676
大劫	-10.168
宿命	-10.1682
當生	-10.1684
隋	-10.1685
殷勤	-10.1687
長短	-10.1691
剖	-10.1695
大藏	-10.1699
繞	-10.1699
異香	-10.1706
罰	-10.1708
本性彌陀	-10.1711
金口	-10.1723
虧	-10.173
既無	-10.174
住處	-10.1743
警	-10.1745
造業	-10.1748
水火	-10.1751
護持	-10.1756
雖不	-10.1758
釋迦佛	-10.1761
干	-10.1766
難思議	-10.1768
五體投地	-10.1768
顯現	-10.1769
禽	-10.1774
於淨土	-10.1775
豈得	-10.1783
賤	-10.1784
不生不滅	-10.1785
案	-10.1785
怠	-10.1789
正定	-10.1789
拋	-10.1797
霜	-10.1799
彼岸	-10.1801
東林	-10.1806
生前	-10.1806
佛界	-10.1806
耳根	-10.1809
即今	-10.181
明日	-10.181
不具	-10.1812
經說	-10.1814
高聲	-10.1814
故以	-10.1815
所明	-10.1818
次釋	-10.184
度脫	-10.1841
諍	-10.1848
為說	-10.1863
度人	-10.1864
。」【△	-10.1869
是經	-10.1876
圍	-10.1878
蓮華化生	-10.1878
一劫	-10.1879
採	-10.1879
五濁惡世	-10.189
麼	-10.189
所云	-10.1891
卓	-10.1891
口業	-10.1891
學人	-10.1891
謹按	-10.1894
大智	-10.19
不曾	-10.19
松	-10.1901
須彌山	-10.1905
福慧	-10.1913
之謂也	-10.1915
長劫	-10.1917
今時	-10.1919
分證	-10.1923
婦	-10.1927
瓔珞	-10.193
百億	-10.1941
同體	-10.1944
恒河沙	-10.1949
邦	-10.1954
能生	-10.196
我作佛時	-10.1965
阿僧祇劫	-10.1968
寡	-10.1969
論曰	-10.197
為因	-10.1973
一切種智	-10.1979
若以	-10.198
庭	-10.1981
八識	-10.1985
陸	-10.1987
純熟	-10.1988
繩	-10.1988
不得生	-10.1988
朱	-10.1988
昔有	-10.1989
衣服	-10.199
羽	-10.199
刑	-10.1991
壽量	-10.1993
爐	-10.1996
曇	-10.1997
障礙	-10.2
而起	-10.2005
佛為	-10.201
其理	-10.2022
子孫	-10.205
自是	-10.2052
之罪	-10.2058
分身	-10.2062
在世	-10.2066
三心	-10.2066
六方	-10.2069
通達	-10.2071
三千大千世界	-10.2079
起信論	-10.2081
勝劣	-10.2083
瑩	-10.2093
暴	-10.2094
倡	-10.2096
逸	-10.2097
銷	-10.2099
無事	-10.2099
入定	-10.2099
巳上	-10.2104
夷	-10.2105
墨	-10.2105
況復	-10.211
妨	-10.2112
精勤	-10.2112
如今	-10.2112
十劫	-10.2125
六塵	-10.2131
不虗	-10.2133
為惡	-10.2139
言其	-10.2154
之果	-10.2158
故得	-10.217
所詮	-10.217
此翻	-10.2172
此皆	-10.2173
不忍	-10.2174
涅槃經	-10.2184
十住	-10.2188
故能	-10.2189
輔	-10.219
狹	-10.2192
晝	-10.2194
依此	-10.2196
係	-10.2196
銀	-10.2198
生疑	-10.2199
諸大菩薩	-10.2202
確	-10.2205
橋	-10.2206
候	-10.2207
杜	-10.2208
窺	-10.2213
南方	-10.2217
淨國	-10.2233
諸大	-10.225
人心	-10.2253
指歸	-10.2255
故須	-10.2255
迷悟	-10.2257
一旦	-10.2258
次明	-10.226
生信	-10.2262
語言	-10.2269
則為	-10.227
往生之	-10.227
舒	-10.2276
聞說	-10.2285
觀也	-10.2295
麁	-10.2296
日用	-10.2302
黨	-10.2306
得大	-10.2306
二曰	-10.2306
頃刻	-10.2307
孤山	-10.2308
鑒	-10.231
買	-10.2311
當信是稱讚不可思議功德	-10.2311
彼則	-10.2314
罪人	-10.2319
誦彌陀經	-10.2319
當體	-10.232
行業	-10.2329
但知	-10.2345
一句阿彌陀	-10.2345
洪名	-10.2345
趺坐	-10.2346
不隔	-10.235
名相	-10.235
即見	-10.2352
諸聖	-10.2354
證入	-10.2354
明佛	-10.2355
事相	-10.2357
搖	-10.2359
又言	-10.2365
故鄉	-10.237
行之	-10.2373
一切智	-10.2376
無人	-10.2382
輪王	-10.239
無論	-10.239
此文	-10.2391
水鳥樹林	-10.2391
敬禮	-10.2394
果也	-10.2394
竝	-10.2403
故經云	-10.2405
泣	-10.2412
達磨	-10.2413
捐	-10.2415
千聲	-10.2417
四生	-10.2418
卑	-10.2421
遽	-10.2423
產	-10.2423
巖	-10.2425
伯	-10.2433
信者	-10.2438
義者	-10.244
專心念佛	-10.2444
滿足	-10.2448
永劫	-10.2449
報恩	-10.2449
易生	-10.2449
開悟	-10.246
總結	-10.2462
慚	-10.2471
記數	-10.2481
斷滅	-10.2481
分段	-10.249
此說	-10.2494
緣覺	-10.2495
法寶	-10.2497
極樂國	-10.2503
既是	-10.2512
沉淪	-10.2514
炎	-10.2515
一云	-10.2519
併	-10.252
疎	-10.2523
拂	-10.2523
層	-10.2524
荷	-10.2524
分齊	-10.2527
誕	-10.2528
本空	-10.2529
飄	-10.2533
欽	-10.2537
環	-10.2538
大勢至菩薩	-10.2539
諸善	-10.2539
九十	-10.254
力用	-10.2542
所知	-10.2547
之物	-10.2549
番	-10.255
果能	-10.2558
住持	-10.256
精神	-10.2567
喻如	-10.2576
變易	-10.2576
諸根	-10.2581
色心	-10.2582
所聞	-10.2591
之業	-10.2607
之機	-10.2608
色相	-10.2616
始得	-10.2616
忍辱	-10.2617
即為	-10.2619
何用	-10.2621
回心	-10.2622
摩訶	-10.2622
祗	-10.2622
曠劫	-10.2625
裹	-10.2625
一真法界	-10.2629
巍巍	-10.263
捨此	-10.2631
債	-10.2631
若依	-10.2631
吉	-10.2634
淨土者	-10.2636
澤	-10.2638
操	-10.2639
心體	-10.2639
其國	-10.2642
茶	-10.2643
往往	-10.2643
威德	-10.2647
西方極樂	-10.2657
住世	-10.2663
歸淨土	-10.267
親見	-10.2686
為僧	-10.2687
觀世音	-10.2689
此語	-10.269
始知	-10.2693
輝	-10.2694
俄	-10.2695
而求	-10.2696
得名	-10.2697
摩尼	-10.2699
無由	-10.27
真佛	-10.2702
現生	-10.2704
心想	-10.2705
何則	-10.2711
法者	-10.2712
願王	-10.2714
四方	-10.2724
板	-10.2737
悠悠	-10.2739
奧	-10.2744
掩	-10.2746
納	-10.2746
薦	-10.2748
聰明	-10.275
十疑論	-10.275
商	-10.2751
皆空	-10.277
羣生	-10.2771
四天下	-10.2779
寶地	-10.2783
成佛道	-10.2786
或為	-10.2787
號曰	-10.2788
有三種	-10.2788
也哉	-10.279
修淨土者	-10.2794
五逆十惡	-10.2795
慈恩	-10.2803
正見	-10.2805
來生	-10.2807
不與	-10.2833
徃生	-10.2838
彼經	-10.2838
頑	-10.2839
聲聞緣覺	-10.2843
充滿	-10.2846
夭	-10.2849
諭	-10.2853
掛	-10.2854
但是	-10.2854
瘡	-10.2854
雄	-10.2854
煙	-10.2856
生天	-10.2864
六即	-10.2866
沙彌	-10.2868
小劫	-10.2877
使人	-10.2878
障重	-10.2883
縱使	-10.2889
相違	-10.2889
假使	-10.2891
皆得往生	-10.2893
要解	-10.2897
與人	-10.2899
上文	-10.2904
不從	-10.2917
道人	-10.292
十萬億剎	-10.2936
庸	-10.2937
入地獄	-10.2939
所造	-10.2941
句句	-10.2944
善心	-10.2946
為難	-10.2948
已來	-10.2958
京	-10.296
八功德水	-10.2961
勸修	-10.2962
陋	-10.2966
芽	-10.2966
銅	-10.2969
者乎	-10.2969
。】「【	-10.297
括	-10.2971
濁世	-10.2973
喫	-10.2974
若約	-10.2974
晦	-10.2978
當處	-10.2979
三十二	-10.298
斗	-10.2981
耕	-10.2983
所為	-10.2986
所行	-10.2987
而論	-10.2988
空有	-10.2988
最上	-10.2994
化眾生	-10.3
正受	-10.3001
今言	-10.3008
及以	-10.301
可也	-10.3017
謗法	-10.3023
帝釋	-10.3038
七重	-10.3043
此意	-10.3046
天王	-10.3047
助道	-10.3052
主人	-10.3054
指示	-10.3056
稱理	-10.306
諸天人民	-10.3061
初約	-10.3064
後心	-10.3069
無過	-10.3069
輕重	-10.3071
身相	-10.3074
污	-10.3075
出生	-10.3077
自覺	-10.3079
柱	-10.3082
跋	-10.3082
肩	-10.3083
阻	-10.3085
季	-10.3087
男子	-10.3089
永無	-10.3091
埋	-10.3095
而行	-10.3099
村	-10.31
淨域	-10.3102
甚難	-10.3102
一箇	-10.3102
嗟乎	-10.3103
即法身	-10.3112
以前	-10.3115
非無	-10.3121
之報	-10.3122
不取	-10.3126
觀門	-10.3127
正道	-10.3132
光中	-10.3138
所念	-10.3139
此時	-10.3139
說經	-10.3148
悟無生	-10.3149
為大	-10.3151
非謂	-10.3157
人身	-10.3164
五根	-10.3165
業力	-10.3169
業識	-10.3171
所欲	-10.3177
圍繞	-10.3177
不巳	-10.3178
文云	-10.3182
至極	-10.3182
證無生	-10.3182
常寂光	-10.3183
不昧	-10.3184
所念之佛	-10.3185
家人	-10.3186
念念相續	-10.3187
循	-10.3189
佛地	-10.319
鑑	-10.3191
兄弟	-10.3193
楚	-10.3197
丁	-10.3198
絕待	-10.32
溫	-10.32
戲論	-10.3204
騰	-10.3205
隨念	-10.3214
陶	-10.3219
了了	-10.3222
我願	-10.323
功成	-10.3231
讚嘆	-10.3231
是一	-10.3235
王子	-10.3238
斷惑	-10.3238
長老	-10.3243
二十四	-10.3251
華嚴經云	-10.3252
身中	-10.3254
何由	-10.326
流出	-10.3264
長安	-10.3268
既云	-10.3269
不令	-10.3275
作福	-10.3275
諸菩薩眾	-10.3281
惡世	-10.3284
之前	-10.3286
是凡夫	-10.3287
願求	-10.329
則能	-10.3291
通教	-10.3295
稱佛名	-10.3298
非不	-10.3298
無疑	-10.3299
自利利他	-10.3301
雖是	-10.3303
諸苦	-10.3309
得無生忍	-10.331
戒定慧	-10.3311
正明	-10.3313
式	-10.3317
祥	-10.3318
側	-10.332
清泰	-10.332
宇	-10.3321
輪回	-10.3324
屢	-10.3327
弄	-10.3328
大心	-10.3328
宗旨	-10.3332
歡	-10.3332
門者	-10.3333
深重	-10.3336
二大士	-10.3342
七寶池	-10.3345
必定	-10.3346
唐譯	-10.3347
不殺	-10.3353
廣說	-10.3359
自慶	-10.3363
不入	-10.3364
同名	-10.3366
一行三昧	-10.3369
自知	-10.3374
不勝	-10.3383
乃至十念	-10.3386
緣影	-10.34
久之	-10.3405
此書	-10.3407
千年	-10.3408
何能	-10.341
三福	-10.3414
即以	-10.3415
直下	-10.3416
大慈大悲	-10.3423
即真	-10.3426
河沙	-10.3428
苦空	-10.3428
其數	-10.3428
得生彼國	-10.343
證果	-10.3436
心不顛倒	-10.3437
聊	-10.3438
炬	-10.3438
阿耨多羅三藐三菩提	-10.3439
沾	-10.344
貴賤	-10.3441
甚麼	-10.3442
西域	-10.3446
天華	-10.3452
華藏	-10.3457
利鈍	-10.3457
長生	-10.3462
何妨	-10.3463
南無西方極樂世界	-10.3464
末世	-10.3465
者哉	-10.3468
而不知	-10.3475
一言	-10.3476
不分	-10.348
其間	-10.3483
勝妙	-10.3483
既有	-10.3487
難得	-10.349
現前一念	-10.3497
亦能	-10.3498
法忍	-10.3499
知之	-10.35
無他	-10.35
等也	-10.3513
三世諸佛	-10.3518
唯一	-10.3519
胸	-10.3521
各於其國	-10.3525
不自	-10.3528
慈尊	-10.3531
臨終十念	-10.3534
成就如是功德莊嚴	-10.3536
後人	-10.3541
人皆	-10.3542
同志	-10.3542
永離	-10.3543
下釋	-10.3546
𦦨	-10.3549
耀	-10.3549
稽	-10.355
咎	-10.3551
但得	-10.3552
哲	-10.3555
恃	-10.3556
概	-10.3556
訛	-10.3557
蓮池大師	-10.3557
胞胎	-10.3557
不顧	-10.3561
萬聲	-10.3563
杖	-10.3563
且如	-10.3565
鍾	-10.3568
令得	-10.357
今謂	-10.3571
天如	-10.3573
罷	-10.3577
百歲	-10.3588
往生安樂國	-10.3594
眾生生者	-10.3594
如實	-10.3602
得解脫	-10.3604
皆名	-10.3605
無差	-10.3606
梵行	-10.3609
無所有	-10.3611
思議	-10.3622
執著	-10.3625
修德	-10.3626
惡緣	-10.363
滴	-10.3633
不勞	-10.3633
並是	-10.3633
全身	-10.3638
破無明	-10.3642
不解	-10.3647
聞佛名	-10.3648
不一	-10.365
其子	-10.366
蘭	-10.3665
得入	-10.3669
劍	-10.3669
譬如有人	-10.3671
生也	-10.3672
策	-10.3674
得此	-10.3675
忌	-10.368
遶	-10.3681
摧	-10.3683
鹿	-10.3686
曹	-10.3687
殆	-10.3687
未明	-10.3688
駕	-10.3688
踏	-10.369
縱橫	-10.3691
不作	-10.3693
雖復	-10.3694
著相	-10.3695
唯佛	-10.3702
下品下生	-10.3704
稱為	-10.3707
從前	-10.371
安能	-10.3714
報應	-10.3718
上根	-10.3718
即念	-10.372
五會	-10.3721
之宗	-10.3725
佛也	-10.3729
耽	-10.3731
自行	-10.3731
諸法實相	-10.3734
無外	-10.3735
依經	-10.3736
兩土	-10.3743
常在	-10.3749
能念	-10.3752
一事	-10.3753
只此一念	-10.3766
萬億	-10.3767
說者	-10.3769
於諸	-10.377
不死	-10.3771
繫心	-10.3779
行門	-10.378
念頭	-10.3784
安住	-10.3784
來世	-10.3791
生我國	-10.3795
」【	-10.3796
逮	-10.3801
健	-10.3801
嗣	-10.3809
▁淨土	-10.3812
同前	-10.3813
百萬	-10.3814
躬	-10.3816
龜	-10.3818
勝緣	-10.3819
剎中	-10.3821
及其	-10.3823
消息	-10.3832
忍力	-10.3833
其說	-10.3835
一切世間	-10.3843
最初	-10.3848
尚有	-10.3853
相者	-10.3857
生時	-10.3861
福田	-10.3864
超過	-10.3868
雖云	-10.387
修西方	-10.3875
不空	-10.3875
惡口	-10.3879
即便	-10.3883
迴心	-10.3883
禮念	-10.3891
亦以	-10.3892
穿	-10.3896
舉一	-10.3901
群生	-10.3902
救苦眾生	-10.3907
欲生	-10.3908
八地	-10.3915
展	-10.3915
而作	-10.3917
牢	-10.3921
羅網	-10.3922
渴	-10.3923
晝夜六時	-10.3923
經典	-10.3923
紫金	-10.3928
稀	-10.393
真常	-10.3931
甯	-10.3932
能仁	-10.3934
成功	-10.3935
何有	-10.3936
如夢	-10.3936
烈	-10.3941
見性	-10.3949
等事	-10.3957
小本	-10.3958
縱有	-10.3959
一種	-10.3966
如彼	-10.3971
常念	-10.3973
有為	-10.3981
寶蓮	-10.3984
向上	-10.3991
即無	-10.3994
憶佛	-10.3996
國中天人	-10.4001
一點	-10.4001
三惑	-10.4003
死後	-10.4015
今日道場同	-10.4035
阿僧祇	-10.4035
本經	-10.4038
祝	-10.4038
罪障	-10.4039
無生忍	-10.4044
捷	-10.4049
道之	-10.4051
橫超	-10.4052
激	-10.4052
牢獄	-10.4053
為佛	-10.4054
此界	-10.4054
明月	-10.4056
豪	-10.4056
拙	-10.4057
龍舒淨土文	-10.4057
隆	-10.4058
償	-10.4058
生彼國土	-10.4059
聞巳	-10.4061
乍	-10.4061
醉	-10.4066
徑路	-10.4068
古德	-10.4073
四果	-10.4074
非有	-10.4075
久久	-10.4085
當時	-10.4087
即名	-10.4087
報盡	-10.4088
旅	-10.409
必先	-10.4093
世事	-10.4101
無著	-10.4104
勿念	-10.4109
大菩薩	-10.4112
是誰	-10.4117
他日	-10.4118
三句	-10.4119
命終時	-10.412
智度論	-10.4125
初住	-10.4127
在於	-10.4131
六者	-10.4145
妙宗	-10.4146
多有	-10.4154
命欲終時	-10.4155
未成	-10.4157
圓光	-10.4161
前文	-10.4162
三惡道	-10.4168
欲生我國	-10.4169
焰	-10.4173
輯	-10.4174
萬善	-10.4175
製	-10.4181
蟻	-10.4182
囊	-10.4183
廣度眾生	-10.4186
創	-10.4186
裂	-10.4187
昌	-10.4193
庶幾	-10.4194
奇特	-10.4196
又以	-10.4202
不拘	-10.4205
公案	-10.4207
生彼土	-10.4208
何名	-10.4211
分二	-10.4224
菩薩聲聞	-10.423
日課	-10.423
往生彼國	-10.4236
十方三世	-10.4241
信樂	-10.4243
以明	-10.4244
道理	-10.4247
無佛	-10.425
今既	-10.4251
其本	-10.4258
真妄	-10.4265
悲願	-10.4272
具有	-10.4272
截	-10.4275
大經	-10.4278
念佛功德	-10.428
皆當	-10.4287
觀此	-10.429
慳貪	-10.4291
痛苦	-10.4297
獸	-10.4301
無實	-10.4301
賣	-10.4303
讀誦大乘	-10.4307
念一佛	-10.4307
慰	-10.4308
先明	-10.4308
巡	-10.4309
顛	-10.4311
擎	-10.4313
懇	-10.4313
寓	-10.4317
填	-10.4319
全無	-10.4321
輙	-10.4325
見者	-10.4326
韻	-10.4326
但當	-10.4333
加被	-10.4333
雙照	-10.4334
封	-10.4334
亦必	-10.4339
之謂	-10.4341
不墮	-10.4343
現成	-10.4351
六凡	-10.4356
周徧	-10.4358
十方眾生	-10.4358
根器	-10.4361
楞伽	-10.4362
不說	-10.4363
而今	-10.4372
出生死	-10.4394
普度	-10.44
無情	-10.4401
則非	-10.441
出世間	-10.441
彼方	-10.4412
生生	-10.4419
真言	-10.4421
或謂	-10.4422
不違	-10.4428
般舟	-10.4429
修行人	-10.4429
誹謗	-10.4431
西方合論	-10.4434
罵	-10.4435
▁南無觀世音菩薩	-10.4438
逈	-10.4438
岐	-10.4441
坑	-10.4445
修此	-10.4445
研	-10.4447
增進	-10.4449
貪欲	-10.445
不去	-10.4451
流布	-10.4452
步步	-10.4452
不問	-10.4454
安隱	-10.4456
之上	-10.4458
無病	-10.4459
腸	-10.4462
屏	-10.4463
何因	-10.4465
淡	-10.4466
世世	-10.4469
得之	-10.4469
不染	-10.4472
春秋	-10.4473
虛妄	-10.4474
奉行	-10.4474
勸君	-10.4475
何異	-10.4477
邪正	-10.448
巳得	-10.449
深入	-10.4494
長時	-10.4516
久住	-10.4521
念到	-10.4522
少年	-10.4524
法法	-10.4525
此處	-10.4526
何哉	-10.453
一切皆	-10.453
皆具	-10.4531
心要	-10.4541
妙音	-10.4542
此道	-10.4545
為先	-10.4547
訖	-10.4548
為正	-10.4554
團	-10.4555
如法	-10.4561
湛	-10.4564
娑婆苦	-10.4565
十方佛	-10.4567
六種	-10.4571
流浪	-10.4572
勅	-10.4572
猛利	-10.4573
體用	-10.4573
聞佛	-10.4577
願生西方	-10.4583
古德云	-10.4586
卿	-10.4587
些	-10.4589
佛乘	-10.459
暇	-10.4594
棺	-10.4595
普賢菩薩	-10.4596
鄰	-10.4597
役	-10.4598
淨行	-10.4599
維摩	-10.46
之緣	-10.461
若干	-10.4613
三法	-10.4619
兼修	-10.4622
恩愛	-10.4626
難識	-10.4627
常見	-10.4627
聖號	-10.4632
以下	-10.4634
惟心淨土	-10.4642
不可盡	-10.465
得生彼	-10.4652
超生死	-10.4655
生極樂世界	-10.466
以念佛	-10.4661
某甲	-10.4662
既爾	-10.4662
或見	-10.4662
楞嚴云	-10.4669
得度	-10.4669
此三昧	-10.467
生極樂國	-10.4675
三曰	-10.4685
身口	-10.4687
若謂	-10.469
之流	-10.469
無有是處	-10.4691
襍	-10.4691
得不退	-10.4694
深信因果	-10.4695
▁南無大勢至菩薩	-10.4695
三月	-10.47
而入	-10.4705
塵緣	-10.4707
鍊	-10.4709
少時	-10.4709
紹	-10.471
一相	-10.471
虞	-10.4713
甫	-10.4713
覔	-10.4714
教中	-10.4714
坦	-10.4715
二諦	-10.4716
伸	-10.4718
捉	-10.4719
秉	-10.4719
覺悟	-10.472
乃能	-10.472
秀	-10.4721
援	-10.4721
劫濁	-10.4722
隣	-10.4722
決志	-10.4724
必得	-10.4725
悲智	-10.473
一分	-10.4732
龕	-10.4736
見其	-10.4737
化導	-10.4739
不行	-10.4747
八苦	-10.475
清淨心	-10.4752
常得	-10.4759
三人	-10.4763
易成	-10.4769
之性	-10.4769
散善	-10.4774
能破	-10.478
三際	-10.4789
人有	-10.4793
▁四	-10.4805
落日	-10.4806
能詮	-10.481
闢	-10.4812
阿彌陀如來	-10.4817
應化	-10.4818
南無阿彌陀佛南無阿彌陀佛	-10.4828
劇	-10.483
可憐	-10.483
信之	-10.483
觀者	-10.4834
丈夫	-10.4834
比邱	-10.484
纂	-10.4841
事也	-10.4841
盧	-10.4842
無有眾苦	-10.4844
剋	-10.4845
甲	-10.4845
鸚鵡	-10.4847
乃知	-10.4848
針	-10.4848
紛	-10.4854
祿	-10.4854
探	-10.4855
旬	-10.4857
英	-10.4858
邑	-10.4859
永斷	-10.486
藏經	-10.4861
給	-10.4861
獵	-10.4862
寶藏	-10.4876
難逃	-10.4877
得失	-10.4877
回頭	-10.4879
歸心	-10.488
受戒	-10.489
凡人	-10.4893
邊地	-10.4895
佛法僧	-10.4897
令我	-10.4898
我所	-10.4899
世俗	-10.4899
得其	-10.4899
不悟	-10.4904
時有	-10.4909
汝當	-10.4909
彌陀淨土	-10.4913
善財	-10.4913
顯示	-10.4914
證菩提	-10.4917
皈依	-10.4923
從今	-10.4926
末後	-10.4927
華池	-10.4938
西歸	-10.4943
本體	-10.4945
樂土	-10.4946
有相	-10.495
貪瞋	-10.4953
極苦	-10.4955
畢命為期	-10.4957
不共	-10.4959
助行	-10.496
無垢	-10.4961
引證	-10.4962
靈芝	-10.4963
所緣	-10.4963
方是	-10.4963
大悲心	-10.4967
何曾	-10.4968
釋之	-10.4969
妙心	-10.497
教法	-10.4971
聞說阿彌陀佛	-10.4978
初標	-10.498
聾	-10.4981
莖	-10.4982
睡眠	-10.4982
複	-10.4983
錫	-10.4985
純一	-10.4986
膿血	-10.4988
妄言	-10.4989
整	-10.4991
籍	-10.4994
府	-10.4994
超越	-10.4994
誣	-10.4995
未可	-10.4995
非實	-10.4995
撫	-10.4999
寶網	-10.5
上輩	-10.5002
驅	-10.5007
能說	-10.5009
正當	-10.5015
梵音	-10.5016
皆同	-10.5018
之數	-10.502
聞此	-10.5021
習氣	-10.5021
即能	-10.5025
帝王	-10.5026
時節	-10.5033
生身	-10.5041
牒	-10.5044
非常	-10.5047
此世界	-10.5048
池中	-10.5048
文義	-10.5051
化主	-10.5056
明白	-10.5058
了達	-10.5059
而至	-10.506
讚佛	-10.5063
一朝	-10.5063
作善	-10.5065
燒香	-10.5067
在其中	-10.5069
如大	-10.507
金沙	-10.5072
□	-10.5073
當人	-10.5075
一首	-10.5077
理觀	-10.5079
▁南無清淨大海眾菩薩	-10.5079
初中	-10.5083
及與	-10.5087
五塵	-10.509
佛菩薩	-10.5091
之願	-10.5092
偷	-10.5092
之談	-10.5095
觀成	-10.5095
白蓮	-10.5097
雖未	-10.5097
聞經	-10.5101
化去	-10.5104
皆因	-10.5109
現在說法	-10.5117
觀無量壽佛經	-10.5119
持呪	-10.5121
玩	-10.5122
此約	-10.5127
寶蓮華	-10.5127
應當發願	-10.5129
觀經疏	-10.513
不獨	-10.5133
豈知	-10.5134
自家	-10.5135
東坡	-10.5135
囚	-10.5137
明鏡	-10.5143
革	-10.5143
諸方	-10.5144
教門	-10.5147
常寂光土	-10.5148
何疑	-10.515
在目前	-10.5152
既不	-10.5156
成熟	-10.5157
種種莊嚴	-10.516
念心	-10.5163
則曰	-10.5172
父子	-10.5176
今則	-10.5181
龍舒	-10.5181
上人	-10.5181
修慧	-10.5187
故稱	-10.5192
者多	-10.52
法爾	-10.52
力故	-10.5203
維摩經	-10.5204
三十年	-10.5213
三土	-10.5221
人所	-10.5222
信力	-10.5226
定心	-10.5229
具三	-10.5234
菩薩眾	-10.5234
是法	-10.5235
能滅	-10.5238
人念佛	-10.524
低聲	-10.5242
悟道	-10.5246
相見	-10.5246
莫著人間樂	-10.5246
能念之心	-10.5255
抵	-10.5259
攝取	-10.526
眼見	-10.5264
智者大師	-10.5267
)」「	-10.5268
碎	-10.5269
淪	-10.527
靡	-10.5271
直捷	-10.5271
踰	-10.5272
炷	-10.5272
髻	-10.5274
退失	-10.5274
大意	-10.5274
寒暑	-10.5276
電	-10.5277
不止	-10.5279
浩	-10.5279
滌	-10.5279
米	-10.5279
倦	-10.528
緇素	-10.528
后	-10.5282
徐	-10.5283
一切人	-10.5286
一毫	-10.5287
四義	-10.5292
之智	-10.5293
十力	-10.5295
依正莊嚴	-10.5296
梅	-10.5296
之土	-10.5297
菩提道	-10.5303
難易	-10.5304
善巧	-10.5308
殊不知	-10.5314
相也	-10.5315
無想	-10.5321
華嚴云	-10.5322
往昔	-10.5332
初句	-10.5333
是何	-10.5337
暫時	-10.5349
無色界	-10.5362
至道	-10.5365
諸功德	-10.5366
法喜	-10.5373
三義	-10.5376
先佛	-10.5377
五年	-10.5377
有十	-10.5381
徧覆三千大千世界	-10.5386
惟願	-10.5387
妾	-10.54
善女人	-10.5405
叢林	-10.5407
儻	-10.5414
瑪瑙	-10.5414
葛	-10.5416
育	-10.5417
鄭	-10.5418
丘	-10.5418
料	-10.5419
扣	-10.5419
芳	-10.542
華座	-10.5428
歷歷	-10.543
淨土文	-10.5435
八者	-10.5441
因循	-10.5445
念佛一門	-10.545
令眾生	-10.5454
未斷	-10.5455
觀彼	-10.5456
圓修	-10.5461
精誠	-10.5473
二十八	-10.5473
▁「	-10.5479
意識	-10.5481
初牒	-10.5488
造作	-10.5488
善緣	-10.5491
凡愚	-10.5492
惟有	-10.5496
容易	-10.5498
數珠	-10.5506
隨分	-10.5507
二十一	-10.5512
決無	-10.5516
染淨	-10.5523
諦信	-10.5526
不名	-10.5526
真身	-10.5529
畢竟空	-10.5535
六年	-10.5538
禪淨	-10.554
略舉	-10.5549
遍滿	-10.5552
擾	-10.5556
義故	-10.5556
天子	-10.5557
薪	-10.5559
修之	-10.556
踐	-10.556
萌	-10.5561
恚	-10.5561
罕	-10.5562
料簡	-10.5562
牙	-10.5564
悞	-10.5564
守護	-10.5564
添	-10.5564
欠	-10.5565
揮	-10.5565
屍	-10.5566
慈氏	-10.5569
派	-10.557
憶佛念佛	-10.557
為淨土	-10.5573
狗	-10.5574
僧祇	-10.5575
萬緣	-10.5576
下生	-10.5577
善哉	-10.5577
默念	-10.5578
佳	-10.5579
眾聖	-10.5581
吏	-10.5587
如鏡	-10.5592
知此	-10.5592
僧俗	-10.5593
尊重	-10.5596
應念	-10.5599
無比	-10.5606
神足	-10.5606
如虗空	-10.5609
稱阿彌陀佛	-10.5612
四門	-10.5612
而出	-10.5613
外有	-10.5614
方寸	-10.5616
論其	-10.5618
淨因	-10.562
若聞	-10.562
之所以	-10.5623
形像	-10.5624
所引	-10.5625
則生	-10.5641
上聲	-10.5642
退墮	-10.5643
意在	-10.5652
三十六	-10.566
宿業	-10.5664
忽見	-10.5664
散華	-10.5666
一名	-10.567
塵劫	-10.5674
三初	-10.5676
入涅槃	-10.5679
楞嚴經	-10.5679
到處	-10.5683
亡者	-10.5692
著力	-10.5693
疾病	-10.5695
平時	-10.5696
介爾	-10.5698
一真	-10.5703
眾惡	-10.5707
欄	-10.5708
津梁	-10.5709
循環	-10.5709
金銀	-10.571
銘	-10.5712
汎	-10.5713
醜	-10.5714
爰	-10.5715
碑	-10.5715
賦	-10.5716
眼前	-10.5717
頓教	-10.5718
空過	-10.5721
忻厭	-10.5721
本國	-10.5721
呂	-10.5722
諸大乘經	-10.5722
射	-10.5725
惶	-10.5727
八難	-10.5728
故我	-10.5736
灑	-10.5739
食時	-10.5749
奉勸	-10.5756
別圓	-10.576
離念	-10.5763
善事	-10.5764
古人云	-10.5766
雖無	-10.5771
何時	-10.5774
涯	-10.5776
於人	-10.5784
應供	-10.5786
寂照	-10.5795
於一	-10.5799
實為	-10.5801
得人身	-10.5801
)。「	-10.5803
不通	-10.5805
佛在	-10.5807
化為	-10.5814
此間	-10.5814
妙行	-10.5816
直心	-10.5821
池水	-10.5822
彌陀世尊	-10.5823
接引導師	-10.5823
下接高讚云	-10.5832
旛	-10.5838
能見	-10.5843
口中	-10.5845
甚矣	-10.5845
悲心	-10.5846
增上緣	-10.5847
利人	-10.5851
是苦	-10.5852
依教	-10.5852
南無西方阿彌陀佛	-10.5854
但受諸樂	-10.5855
低	-10.5858
貪戀	-10.5859
譏	-10.5861
粟	-10.5861
皆能	-10.5861
警䇿	-10.5863
妙理	-10.5864
主伴	-10.5865
灌	-10.5866
信願持名	-10.5868
草木	-10.5869
轍	-10.5871
釋云	-10.5872
寢	-10.5874
或以	-10.5874
終時	-10.5874
疊	-10.5875
奔	-10.5876
或說	-10.5876
。】○	-10.5876
砂	-10.5877
廁	-10.5879
所在	-10.588
結成	-10.5883
出世之	-10.5887
合成	-10.5887
不可思議功德	-10.5887
二三	-10.589
及一切	-10.5891
於心	-10.5892
世緣	-10.5894
此論	-10.5895
神仙	-10.5907
力行	-10.5908
身光	-10.5911
長壽	-10.5917
世自在王佛	-10.5918
六方諸佛	-10.5925
皆令	-10.5925
中人	-10.5929
先須	-10.593
乃有	-10.5937
無染	-10.5939
玅觀	-10.5945
佛以	-10.5952
弘誓	-10.5956
實非	-10.5959
不現	-10.596
四德	-10.5965
無分	-10.597
真俗	-10.597
中陰	-10.5975
頂上	-10.5978
信根	-10.5979
一期	-10.598
百寶	-10.5981
心量	-10.5985
?』	-10.5992
慈心不殺	-10.5995
從心	-10.5995
必以	-10.5998
廓	-10.6
諸仁者	-10.601
不知其	-10.6014
貧窮	-10.6014
坐臥	-10.6015
決不	-10.6015
迥	-10.6016
優曇	-10.6017
濕	-10.6017
滋	-10.6017
視之	-10.6018
檢	-10.6022
擔	-10.6023
酸	-10.6027
五蘊	-10.603
廬	-10.6031
修者	-10.6035
安樂世界	-10.6039
良久	-10.6039
何法	-10.6039
栽	-10.6041
悉是	-10.6042
理也	-10.6046
法施	-10.6049
無形	-10.605
當以	-10.6051
善道	-10.606
臨終時	-10.6063
以成	-10.6063
一心持名	-10.6067
涼	-10.6068
天親	-10.607
理具	-10.6077
可知矣	-10.6084
彌勒菩薩	-10.6087
過於	-10.609
問云	-10.6091
子曰	-10.6094
罪惡	-10.6105
性本	-10.6107
人情	-10.611
智力	-10.6111
自度	-10.6119
種性	-10.612
」(	-10.6121
同居淨土	-10.6122
說偈	-10.6132
相對	-10.6132
報化	-10.6135
緊	-10.6135
何事	-10.6137
攝持	-10.6139
業報	-10.614
號阿彌陀	-10.6143
性體性量	-10.6146
無苦	-10.6147
那由他	-10.6147
華中	-10.6149
泥犁	-10.6153
而終	-10.6158
心念佛	-10.6163
肉髻	-10.6164
卷上	-10.6164
闡提	-10.6166
須達	-10.6167
震旦	-10.6168
其功	-10.6168
出於	-10.6171
紫金臺	-10.6172
轉輪王	-10.6172
闡揚	-10.6175
即非	-10.6175
攀緣	-10.6176
肆	-10.6179
之一	-10.618
菩薩曰	-10.6181
嗜	-10.6181
線	-10.6181
攻	-10.6182
樣	-10.6182
項	-10.6182
卜	-10.6186
如其	-10.6187
話頭	-10.6188
肅	-10.6189
夫婦	-10.619
繪	-10.6191
先後	-10.6193
枕	-10.6194
貪瞋癡	-10.6195
諸子	-10.6197
上生	-10.6206
蓮胎	-10.6207
法相	-10.6208
無差別	-10.6209
佛聲	-10.6216
難陀	-10.6217
求其	-10.622
若於	-10.6224
△	-10.6226
定中	-10.6228
鈔云	-10.6233
乃以	-10.6234
端正	-10.6237
一句阿彌陀佛	-10.6239
淨名	-10.6244
心也	-10.6244
一心頂禮	-10.6245
奈	-10.6248
歸於	-10.6249
漏盡	-10.6251
能發	-10.626
作業	-10.6263
安然	-10.6263
惡逆	-10.6275
不實	-10.6275
此下	-10.6279
一往	-10.6285
令生	-10.6285
拜下想	-10.6288
行持	-10.6289
寶所	-10.6289
常為	-10.6299
修念佛三昧	-10.6303
生死之	-10.6303
爾等	-10.631
名也	-10.6311
孝養父母	-10.6316
又復歸依如是	-10.6318
般若波羅蜜	-10.6321
不願	-10.6322
朕	-10.6326
至于	-10.6328
劒	-10.6329
轉法輪	-10.633
至矣	-10.6334
善行	-10.6335
得無生法忍	-10.6335
利生	-10.6337
迫	-10.6338
殺害	-10.634
勝境	-10.634
觀佛三昧	-10.6342
以自	-10.6343
羞	-10.6344
崖	-10.6345
衲	-10.6345
不散	-10.6345
綠	-10.6349
出現	-10.635
入於	-10.635
茅	-10.6352
只為	-10.6353
戒律	-10.6355
之方	-10.6355
當得	-10.6363
尚未	-10.6365
動靜	-10.6365
凡情	-10.6372
宗教	-10.6372
余曰	-10.6373
無記	-10.6374
教觀	-10.6375
普願	-10.6376
三智	-10.6379
六趣	-10.6384
大行	-10.6385
三卷	-10.639
直入	-10.639
無住	-10.6396
病人	-10.6408
言說	-10.6408
宰	-10.6414
大王	-10.6418
相與	-10.6418
二年	-10.6419
十餘	-10.6422
若爾	-10.6423
禮誦	-10.6427
一境	-10.643
淨剎	-10.643
楞嚴經云	-10.6431
知是	-10.6438
此亦	-10.644
行也	-10.6443
理即	-10.6445
又二	-10.645
後身	-10.6451
父王	-10.6452
之見	-10.6456
天魔	-10.6466
見如來	-10.6467
無極	-10.6472
初列	-10.6473
明心	-10.6476
華果	-10.6476
心淨土淨	-10.6477
欲求	-10.6478
經題	-10.6479
歸依世間大慈悲父	-10.6479
蓮宗寶鑑	-10.648
歸去	-10.648
此一念	-10.6481
已上	-10.6481
不息	-10.6481
捨離	-10.6482
聽法	-10.6482
黃金為地	-10.6482
上品中生	-10.6484
▁南無普賢菩薩	-10.6486
供養諸佛	-10.6488
毘	-10.6489
評	-10.6491
別無	-10.6496
如是我聞	-10.6498
其後	-10.65
僊	-10.6501
威力	-10.6502
沐	-10.6503
尾	-10.6504
叢	-10.6504
亦應	-10.6505
豁然	-10.6506
觀身	-10.6506
尸	-10.6506
乾坤	-10.6509
亭	-10.6515
萬年	-10.6517
修學	-10.6519
日光	-10.6519
無所得	-10.6522
同居土	-10.6524
綫	-10.6526
宣說	-10.6527
鏡中	-10.6529
能感	-10.6533
若據	-10.6538
即前	-10.6539
變現	-10.6539
體性	-10.654
雜亂	-10.6542
無始以來	-10.6545
念誦	-10.6546
唯心之	-10.6547
皆成	-10.6554
當機	-10.6554
可悲	-10.6556
其志	-10.6557
六通	-10.6564
百八	-10.6569
根缺	-10.6571
樹下	-10.6572
經教	-10.6574
所變	-10.6577
之至	-10.658
念佛求生淨土	-10.6586
。』」	-10.6589
念處	-10.659
南無文殊師利菩薩	-10.6593
一大	-10.6593
七十	-10.6599
病者	-10.6602
今觀	-10.6603
不至	-10.6609
以後	-10.6609
寶林	-10.6611
乃得	-10.6612
無間斷	-10.6613
則自性	-10.6614
無量劫	-10.6622
七者	-10.6623
其光	-10.6623
勸往生	-10.6623
常念佛	-10.6624
魔王	-10.6625
世出世間	-10.6625
境觀	-10.6626
大明	-10.6627
現在其前	-10.6627
皆然	-10.6631
心緣	-10.6631
鞭	-10.6631
若有善男子善女人	-10.6635
了也	-10.6636
二十二	-10.6637
饒益	-10.6637
至心信樂	-10.6638
二約	-10.6639
消除	-10.664
無量眾生	-10.6641
纏縛	-10.6647
為是	-10.6647
修多羅	-10.6648
晦菴	-10.6649
是時	-10.665
門中	-10.665
祐	-10.6651
瞋恚	-10.6652
足以	-10.6653
愛欲	-10.6653
我當	-10.6657
逼迫	-10.6657
醍醐	-10.6657
焦	-10.6659
五百歲	-10.666
累劫	-10.6667
今欲	-10.6668
得成佛	-10.6669
湧	-10.6669
十餘年	-10.6673
體空	-10.6677
十者	-10.6678
方名	-10.6679
三賢	-10.6679
貪愛	-10.6681
慘	-10.6682
海中	-10.6684
簡易	-10.6688
不肖	-10.669
其為	-10.6691
殺業	-10.6692
塵剎	-10.6696
人道	-10.6698
見一	-10.6703
之書	-10.6707
東土	-10.6707
唯是	-10.671
普照	-10.6719
退轉	-10.6727
一聲佛	-10.673
求往生	-10.673
稱揚	-10.6731
結示	-10.6732
四月	-10.6732
是實	-10.6735
一代	-10.6739
之恩	-10.674
法華經云	-10.6742
有六	-10.6746
華開見佛	-10.6746
生彼國者	-10.6749
梵網經	-10.6754
般若經	-10.6758
異類	-10.6758
即於	-10.6759
如華嚴	-10.6761
亦當	-10.6767
放光明	-10.6774
如如	-10.6774
得菩提	-10.6775
疑者	-10.6777
樂國	-10.6778
生淨土者	-10.678
不唯	-10.6781
為真	-10.6783
忉利天	-10.6784
無色	-10.6787
妙用	-10.6793
十月	-10.6803
其人臨命終時	-10.6804
天真	-10.6812
熾	-10.6813
梓	-10.6813
生平	-10.6813
泥洹	-10.6815
孟子	-10.6816
焉能	-10.6816
遊戲	-10.6817
早晚	-10.6817
貪嗔癡	-10.6817
經歷	-10.6818
吉祥	-10.6818
叮嚀	-10.682
譽	-10.6821
訂	-10.6826
每一	-10.6826
無量壽經云	-10.6828
意也	-10.6828
暑	-10.683
耆	-10.683
揭	-10.6831
報佛恩	-10.6831
迨	-10.6832
範	-10.6832
鳳	-10.6833
亦得往生	-10.6835
翠	-10.684
發大心	-10.684
西方樂	-10.6841
模	-10.6841
掉	-10.6843
一味	-10.6846
真切	-10.6849
不宜	-10.685
豈是	-10.6854
何足	-10.6855
不發	-10.686
大千世界	-10.6868
義理	-10.6869
功德莊嚴	-10.687
依舊	-10.6872
親屬	-10.6873
之與	-10.6874
得念佛三昧	-10.6875
與我	-10.6876
佛眼	-10.6877
漸漸	-10.6879
作是念	-10.6879
胸中	-10.688
又願	-10.6881
念佛心	-10.6882
之聲	-10.6886
王宮	-10.6889
我輩	-10.6896
雖知	-10.6896
無量功德	-10.6901
可惜	-10.6906
之首	-10.6907
必生	-10.6909
無量法門	-10.6929
之勝	-10.6929
十方如來	-10.6931
不被	-10.6936
作惡	-10.6936
大悟	-10.6937
行善	-10.6942
三時	-10.6942
見濁	-10.6945
為業	-10.6946
骨肉	-10.6947
皆說	-10.6949
想念	-10.6951
若得	-10.6962
吾人	-10.6965
此四	-10.6967
前生	-10.6968
從何	-10.697
云爾	-10.6973
業緣	-10.6978
卷下	-10.6983
大德	-10.6985
効	-10.6986
詎	-10.6988
念佛求生	-10.699
次名	-10.699
古崑	-10.6991
毫相	-10.6992
三祇	-10.6992
刺	-10.6993
呌	-10.6994
翼	-10.6994
飲酒	-10.6996
彈	-10.6996
泰	-10.6997
此生	-10.6998
攀	-10.6999
懇切	-10.7
茫茫	-10.7
佛經	-10.7001
鼎	-10.7001
鶴	-10.7002
袈裟	-10.7002
利養	-10.7003
挂	-10.7005
生善	-10.7006
奴	-10.7008
樓臺	-10.701
剌	-10.7016
眾鳥	-10.7016
不少	-10.7017
下二	-10.7018
長養	-10.7019
小兒	-10.7021
可信	-10.7023
故名極樂	-10.7026
同生	-10.703
若夫	-10.7032
極樂之	-10.7035
願文	-10.7036
儒家	-10.7038
禪者	-10.7039
救護	-10.704
還來	-10.7041
三釋	-10.7043
白雲	-10.7043
而欲	-10.7046
而下	-10.7047
深淺	-10.7052
五色	-10.7054
之異	-10.7055
為第一	-10.7059
性中	-10.7064
即時	-10.7069
北方	-10.707
所依	-10.7072
化作	-10.7074
貪著	-10.7075
斷除	-10.7078
顯然	-10.7083
勝於	-10.7085
得一	-10.7088
得阿耨多羅三藐三菩提	-10.7097
不合	-10.71
於斯	-10.7105
其文	-10.7113
我見	-10.7113
要須	-10.712
之德	-10.7123
故不退	-10.7128
諸弟子	-10.713
論之	-10.7131
得佛	-10.7136
徧照	-10.7137
而觀	-10.7138
而不信	-10.714
出廣長舌	-10.714
數百	-10.7141
愚夫愚婦	-10.7142
二乘種不生	-10.7144
相與志心	-10.7152
命終之時	-10.7156
懺法	-10.7158
心王	-10.7159
募	-10.7159
剎土	-10.7161
修諸功德	-10.7161
攬	-10.7163
薰	-10.7163
乃為	-10.7163
他心	-10.7163
崑	-10.7165
離相	-10.7165
無量劫來	-10.7167
窟	-10.7167
祕	-10.7169
所住	-10.7169
不生淨土	-10.717
求佛	-10.717
曠	-10.7171
腦	-10.7171
替	-10.7171
畔	-10.7173
軟	-10.7174
槩	-10.7175
廟	-10.7176
惺惺	-10.7178
歸去來	-10.7181
詠	-10.7182
一切處	-10.7184
罪福	-10.7187
行法	-10.7187
市	-10.7188
一心正念	-10.7195
初學	-10.7197
周遍	-10.7208
更不	-10.7213
一僧	-10.7213
西來	-10.7214
今乃	-10.722
極果	-10.7221
上來	-10.7221
一片	-10.7223
則心	-10.7228
念去	-10.7232
▁南無寶	-10.7233
了不可得	-10.7233
不亦	-10.7238
老子	-10.7247
侍者	-10.7251
師云	-10.7257
知有	-10.7258
常照	-10.7264
曾無	-10.7266
我之	-10.7267
樹林	-10.7268
大臣	-10.7271
不能盡	-10.7273
於我	-10.7281
奉佛	-10.7287
於後	-10.7289
又見	-10.7292
身業	-10.7294
修行者	-10.7298
往生極樂	-10.7299
勸進	-10.731
文殊師利	-10.7312
一家	-10.7315
告曰	-10.732
真正	-10.7321
如日	-10.7321
空觀	-10.7323
如何是	-10.7324
難信之法	-10.7325
波羅密	-10.7328
欄楯	-10.7329
上品下生	-10.7331
聰	-10.7331
什	-10.7332
化人	-10.7332
重重無盡	-10.7334
儒者	-10.7334
念佛名	-10.7338
徧十方	-10.7339
聖果	-10.7339
信向	-10.7339
說此	-10.734
一世	-10.734
皷	-10.7342
蜜	-10.7343
綺	-10.7344
肉眼	-10.7345
療	-10.7345
燕	-10.7346
肇	-10.7346
念三寶	-10.7346
慾	-10.7348
麻	-10.7349
詔	-10.7351
裝	-10.7351
蒼	-10.7352
兩舌	-10.7353
魯	-10.7354
羅剎	-10.7354
中諦	-10.7354
調達	-10.7355
舜	-10.7355
珊瑚	-10.7356
結社	-10.7359
澄清	-10.736
若知	-10.7361
便得	-10.7365
譬喻	-10.7367
於世	-10.7369
當下	-10.7369
功德智慧	-10.7373
千珠	-10.7373
請佛	-10.7375
未生	-10.7376
而又	-10.7379
以顯	-10.7379
為汝	-10.7384
尚爾	-10.7386
妙華	-10.7389
念佛眾生	-10.7391
淨緣	-10.7393
眾生聞者	-10.7393
心即	-10.7401
以佛	-10.7402
無際	-10.7403
而退	-10.7409
四寶	-10.7409
尤為	-10.7412
靈山	-10.7416
何日	-10.7423
佛是	-10.7424
萬事	-10.7426
三結	-10.7427
七月	-10.7428
自體	-10.7429
皆云	-10.7432
生法	-10.7438
梵網	-10.7438
隨時	-10.7439
化度	-10.7444
行行	-10.7447
光者	-10.7448
一切菩薩	-10.7451
諷	-10.7454
意業	-10.7455
如是說	-10.7465
佛世尊	-10.7474
巳成	-10.748
昔人	-10.7483
異端	-10.7484
隨處	-10.7485
斯言	-10.7489
但言	-10.7489
常寂	-10.7493
有七	-10.7494
作意	-10.7496
故今	-10.7496
指南	-10.7497
有生	-10.7501
下凡	-10.7503
決定得生	-10.7506
算數	-10.751
刀兵	-10.7518
幹	-10.7518
瓦礫	-10.7518
梨	-10.7518
臻	-10.7518
以是因緣	-10.7519
說之	-10.7523
律儀	-10.7524
根塵	-10.7524
便成	-10.7525
庚	-10.7526
下結	-10.7526
禪門	-10.7526
遐	-10.7526
纖塵	-10.7527
便謂	-10.7529
不欲	-10.753
挽	-10.7531
靠	-10.7533
賢首	-10.7535
無疾	-10.7536
心法	-10.7537
生老病死	-10.7537
十門	-10.7537
塵塵	-10.754
常行	-10.7552
相分	-10.7557
律師	-10.7564
罪滅	-10.7565
各隨	-10.7566
死心	-10.7567
故此	-10.7568
讀書	-10.7568
長夜	-10.7571
有念	-10.7573
亦同	-10.7576
十日	-10.7578
由心	-10.7587
釋迦牟尼	-10.7587
人多	-10.7591
如雲	-10.76
高僧	-10.76
隨力	-10.7601
由來	-10.7602
六識	-10.7603
一切功德	-10.7603
是果	-10.7604
得力	-10.7605
十方三世一切	-10.7606
此娑婆世界	-10.7607
次觀	-10.7609
安可	-10.761
雖多	-10.761
此明	-10.7614
時也	-10.7614
從來	-10.7615
佛世	-10.7618
法界身	-10.7621
今當	-10.7621
初二句	-10.7627
無諸	-10.7628
上方	-10.7629
性海	-10.763
三根	-10.7633
普攝	-10.764
初機	-10.7641
寶積	-10.7643
所具	-10.7644
神識	-10.7645
誰能	-10.7645
誰知	-10.7648
懈	-10.7652
見有	-10.7652
諸祖	-10.7653
諸佛如來	-10.766
不落	-10.7667
破惡	-10.7668
苦口	-10.7672
念佛一聲	-10.7675
手執香華常供養	-10.7676
有十種	-10.7677
受記	-10.7679
或現	-10.768
俱會一處	-10.7686
應現	-10.7686
毗盧遮那	-10.7686
佛陀	-10.7688
噉	-10.769
若不生者	-10.7693
永不	-10.7695
初生	-10.7697
淳	-10.7697
覧	-10.77
貧賤	-10.7703
趁	-10.7703
糧	-10.7703
煩惱濁	-10.7704
不破	-10.7704
刃	-10.7705
帆	-10.7705
緒	-10.7706
霑	-10.7707
瑜伽	-10.7707
迂	-10.7709
土淨	-10.7709
搜	-10.7711
蓮開	-10.7711
問之	-10.7712
漚	-10.7712
恥	-10.7712
分三	-10.7714
誇	-10.7714
垂手	-10.7714
說此經	-10.7715
隨所	-10.7715
丑	-10.7715
油	-10.7716
牧	-10.7717
書寫	-10.7718
其名	-10.7719
逆順	-10.7719
初後	-10.7722
培	-10.7722
織	-10.7724
死者	-10.7728
金蓮	-10.7732
後生	-10.7735
剎海	-10.7737
定力	-10.7738
未審	-10.7739
實報土	-10.774
元年	-10.7742
教化眾生	-10.7749
禮讚	-10.7751
為主	-10.7752
佛知見	-10.7754
住於	-10.7754
不暇	-10.7757
日觀	-10.7758
六度萬行	-10.7768
彌陀佛國	-10.7771
勤苦	-10.7771
一滴	-10.7773
而言之	-10.7773
謂此	-10.7773
山中	-10.7773
若云	-10.7775
欲見	-10.7781
眾生濁	-10.7781
久遠	-10.7786
空假	-10.779
超生	-10.779
如海	-10.7791
正示	-10.7794
結使	-10.7797
多聞	-10.7801
業也	-10.7806
下劣	-10.7806
業重	-10.7807
本願力	-10.7807
心源	-10.781
其母	-10.7814
金地	-10.7817
若見	-10.7821
疑城	-10.7837
滅盡	-10.7838
作觀	-10.7839
到彼	-10.7849
無生法忍	-10.7855
異見	-10.7857
坐化	-10.7866
具縛凡夫	-10.7867
隨類	-10.7867
修十善業	-10.7869
逕	-10.787
直至成佛	-10.787
之子	-10.7871
成等正覺	-10.7871
不妄	-10.7871
滅後	-10.7873
下品中生	-10.7873
淨念相繼	-10.7874
毛孔	-10.7876
閻羅	-10.7877
柔軟	-10.7878
臆	-10.7878
所致	-10.788
百餘	-10.7881
同居淨	-10.7883
豆	-10.7883
匠	-10.7884
愛憎	-10.7884
調伏	-10.7885
有三義	-10.7885
所示	-10.7885
曷	-10.7886
燃	-10.7887
綺語	-10.7889
我亦	-10.789
莫若	-10.789
今現在說法	-10.7891
催	-10.7891
八部	-10.7891
于此	-10.7892
昏沉	-10.7893
儼然	-10.7894
汗	-10.7894
疲	-10.7894
依然	-10.7898
我淨樂	-10.7899
汙	-10.79
煉	-10.7901
宿世	-10.7902
柳	-10.7903
謁	-10.7904
可比	-10.7904
慎勿	-10.7908
堪忍	-10.7908
老實	-10.7909
常自	-10.791
教典	-10.791
故令	-10.7911
乞食	-10.7913
七七日	-10.7922
之情	-10.7924
此觀	-10.7927
別求	-10.793
歲月	-10.793
心所	-10.7931
造逆	-10.7932
三疑	-10.7932
各具	-10.7933
果德	-10.7933
淨戒	-10.7934
遞相	-10.7938
寶幢	-10.7939
分段生死	-10.7939
初門	-10.7947
四禪	-10.7947
不休	-10.7954
境緣	-10.7955
又此	-10.7956
少分	-10.7963
苦趣	-10.7966
願願	-10.7967
此非	-10.7968
教令	-10.7968
法輪	-10.7973
慧遠	-10.7978
臘	-10.7989
亦不得	-10.7993
七種	-10.7995
萬歲	-10.7995
機緣	-10.7999
聽說	-10.8
無女人	-10.8002
之一字	-10.8004
一實	-10.8004
向西方	-10.8007
何耶	-10.8007
徒眾	-10.8007
只在	-10.8012
上善	-10.8013
即應	-10.8015
照見	-10.8015
法界也	-10.8024
為說法	-10.8026
如山	-10.8029
了悟	-10.8029
之水	-10.8032
水中	-10.8033
色像	-10.8035
西方阿彌陀佛	-10.8035
是權	-10.804
光色	-10.8044
至誠心	-10.8045
非我	-10.8046
▁南無善	-10.8052
發無上道心	-10.8054
願共諸眾生	-10.8055
闍	-10.8056
正為	-10.8058
幡	-10.8064
覲	-10.8067
其體	-10.8067
潭	-10.8069
勤念佛	-10.8072
豁	-10.8074
鋒	-10.8075
孟	-10.8075
不依	-10.8075
日輪	-10.8076
拯	-10.8079
飡	-10.8079
鎮	-10.808
大歡喜	-10.808
豈無	-10.808
茂	-10.808
讐	-10.8081
纖	-10.8081
即性具	-10.8081
怖畏	-10.8081
允	-10.8082
鉤	-10.8084
得阿羅漢	-10.8085
教相	-10.8086
作佛事	-10.8087
潤澤	-10.8087
唇	-10.8087
一剎那	-10.8088
不應食肉	-10.8088
邁	-10.8088
賢護	-10.809
佛即	-10.809
至彼	-10.8091
黎	-10.8091
維摩經云	-10.8093
精舍	-10.8097
善男子善女人	-10.8098
舌根	-10.8101
修成	-10.8101
怎	-10.8101
心內	-10.8105
專志	-10.8107
至理	-10.8108
便生	-10.8109
有量	-10.811
百千萬	-10.8114
如一	-10.8115
於一切	-10.8116
不專	-10.8116
三事	-10.813
道也	-10.8132
不退菩提	-10.8133
身量	-10.8133
下輩	-10.8136
不樂	-10.8136
各自	-10.8142
淨薉	-10.8143
五臺	-10.8144
又何	-10.8146
風樹	-10.8148
破壞	-10.8151
無量壽國	-10.8151
巳而	-10.8156
我聞	-10.8157
說妙法	-10.8158
頌云	-10.816
佛說法	-10.8166
言也	-10.8173
離苦	-10.8179
眾生之	-10.8181
無涯	-10.8194
上上	-10.8198
幾時	-10.8199
教以	-10.8201
即入	-10.8203
無量壽如來	-10.8204
答言	-10.8206
我說	-10.8208
不可言	-10.8215
在西方	-10.8216
所問	-10.8216
十願	-10.8217
地前	-10.8218
為究竟	-10.8219
中輩	-10.8224
一般	-10.8226
勸人念佛	-10.8229
莊嚴淨土	-10.8233
彌陀之	-10.8233
同聲	-10.8236
迷惑	-10.8237
歸家	-10.824
不廢	-10.8241
圓人	-10.8241
正等	-10.8242
台	-10.8243
信也	-10.8244
一年	-10.8245
淨方	-10.8246
車輪	-10.8247
遍覆三千大千世界	-10.8248
功能	-10.8249
報佛	-10.8251
如我今者	-10.8251
不存	-10.8251
於念念中	-10.8254
之輩	-10.8255
四智	-10.8257
解第一義	-10.8259
公曰	-10.826
徧一切處	-10.826
宛	-10.8261
住不退轉	-10.8261
狐疑	-10.8261
永明壽禪師	-10.8263
綿	-10.8264
魏居士	-10.8266
嬰兒	-10.8268
以心	-10.8268
自謂	-10.8268
未見	-10.8269
帛	-10.827
謙	-10.827
毒藥	-10.8271
蹈	-10.8272
初又二	-10.8273
身命	-10.8273
䖍	-10.8274
劉遺民	-10.8275
翳	-10.8277
心觀	-10.8277
叔	-10.828
人言	-10.828
而已	-10.8282
濃	-10.8282
恐怖	-10.8282
慈航	-10.8283
與其	-10.8283
觀世音大勢至	-10.8283
梵云	-10.8284
俊	-10.8287
泊	-10.8287
辛苦	-10.8287
漁	-10.8288
猶是	-10.8288
喧	-10.8288
昂	-10.8289
八十億劫	-10.8291
七寶莊嚴	-10.8291
護法	-10.8293
墮惡道	-10.8297
柰何	-10.8299
四色	-10.83
大慧	-10.8303
能持	-10.8303
何其	-10.8305
白衣	-10.8307
志心	-10.8307
四益	-10.8317
一下	-10.8319
邪魔	-10.832
離諸	-10.8321
面目	-10.8323
彌陀本願	-10.8324
無因	-10.8324
不求生	-10.8325
捨身	-10.8327
為義	-10.833
語錄	-10.8331
如之何	-10.8337
三災	-10.834
斯乃	-10.8343
彼淨土	-10.8347
寶王	-10.8349
來去	-10.835
之下	-10.8351
難免	-10.8351
利物	-10.8356
自己	-10.8356
經曰	-10.8357
易行	-10.8358
未證	-10.8358
字字	-10.8359
經法	-10.836
願門	-10.836
是諸佛	-10.8361
著述	-10.8364
法王子	-10.8366
者何	-10.8366
雖具	-10.8371
之善	-10.8375
佛恩	-10.8376
一夕	-10.8377
天衣	-10.838
二十年	-10.8382
。」【(	-10.8383
無遺	-10.8383
化他	-10.8385
有女人	-10.8386
經中說	-10.8386
楞伽經	-10.8387
超出	-10.8388
名之曰	-10.839
有省	-10.8391
諸佛護念	-10.8396
未了	-10.8397
蒙佛	-10.8402
成三昧	-10.8402
求淨土	-10.8402
三歸	-10.8403
願得	-10.8404
四年	-10.8408
三障	-10.8411
流水	-10.8413
令彼	-10.8413
非佛	-10.8413
苦逼	-10.8416
正定聚	-10.8418
無惡	-10.8419
天台云	-10.8421
十卷	-10.8421
此娑婆	-10.8424
彌陀佛彌陀佛	-10.8425
光壽	-10.8425
此名	-10.8427
吼	-10.8428
若離	-10.8433
旨趣	-10.8433
三拜	-10.8437
數十	-10.8437
臨終見佛	-10.8439
有志	-10.844
地獄餓鬼畜生	-10.844
無功	-10.8444
之用	-10.8446
本分	-10.8446
柰	-10.8446
除滅	-10.8447
為名	-10.8447
僧寶	-10.8448
下品上生	-10.845
專念阿彌陀佛	-10.8451
隨緣不變	-10.8453
百千萬倍	-10.8454
厄	-10.8455
怯	-10.8456
憎	-10.8457
尅	-10.8458
靡不	-10.8461
區	-10.8462
讓	-10.8465
輔正	-10.8465
裡	-10.8466
悖	-10.8466
三種淨業	-10.8466
憎愛	-10.8467
柔	-10.8468
捧	-10.8468
倉	-10.8469
職	-10.8469
拒	-10.8469
微塵數	-10.847
赫	-10.847
臭穢	-10.8471
勾	-10.8471
壓	-10.8473
俯	-10.8473
兆	-10.8473
皎	-10.8475
微笑	-10.8477
呼吸	-10.8477
道德	-10.8479
含靈	-10.848
跏趺	-10.8482
犬	-10.8482
不食	-10.8483
勘	-10.8483
農	-10.8484
堯	-10.8485
能得	-10.8485
相好光明	-10.8486
而何	-10.8486
四念處	-10.8487
天然	-10.8492
方為	-10.8495
廣度	-10.8496
忉利	-10.8496
門戶	-10.8497
如觀經	-10.8499
則成	-10.8501
影現	-10.8503
其教	-10.8506
法體	-10.8511
與眾生	-10.8512
將何	-10.8512
兩忘	-10.8515
同修	-10.8522
師長	-10.8523
識心	-10.8523
脫離	-10.8526
今為	-10.8528
甚易	-10.8529
切莫	-10.8529
去聲	-10.853
惟佛	-10.8533
一念不生	-10.8535
志誠	-10.8536
本心	-10.8537
依法	-10.8545
贊曰	-10.8546
隅	-10.8547
雖曰	-10.8553
俱生	-10.8555
多矣	-10.8556
眾多	-10.8559
佛所說	-10.8561
▁五	-10.8562
但見	-10.8564
疑曰	-10.8565
稱佛號	-10.8566
諸相	-10.8566
千佛	-10.8567
受報	-10.857
聞聲	-10.8576
壽終	-10.8579
有四種	-10.8587
直須	-10.8587
結勸	-10.8587
妙有	-10.8593
一部	-10.8594
有邊	-10.8594
所化	-10.8594
恩德	-10.8598
不貪	-10.8602
別相	-10.8617
能於	-10.8617
諸緣	-10.8621
五通	-10.8623
偏空	-10.8626
有僧	-10.8631
寂寂	-10.8631
相關	-10.8632
天耳	-10.8636
放大光明	-10.8638
郎	-10.8639
非他	-10.8639
道力	-10.8641
心不亂	-10.8642
若有信者	-10.8642
不惜身命	-10.8643
事事無礙	-10.8644
預知時至	-10.8649
寂然	-10.865
退緣	-10.8653
覺者	-10.8653
盡虗空界一切三寶	-10.8653
函	-10.8655
厲	-10.8655
專持名號	-10.8657
熾盛	-10.8658
萬德洪名	-10.8658
心起	-10.8658
髓	-10.866
舍衛	-10.866
以及	-10.8661
心口	-10.8662
措	-10.8662
乏	-10.8662
以大悲	-10.8665
仇	-10.8665
寤	-10.8666
爾時世尊	-10.8666
糞	-10.8667
奮	-10.8667
瞞	-10.8668
百千劫	-10.8668
痴	-10.8669
螺	-10.8669
矜	-10.867
舞	-10.867
較量	-10.8671
啼	-10.8672
婦女	-10.8673
腰	-10.8674
二月	-10.8674
凶	-10.8676
與之	-10.8676
出聲	-10.8676
綱宗	-10.8677
徹悟	-10.8677
烟	-10.8678
醫王	-10.8679
浙	-10.8679
如是則	-10.8679
未至	-10.868
界內	-10.8681
霞	-10.8682
財寶	-10.8683
相繼	-10.8688
上上品	-10.8689
一枝	-10.8691
昏迷	-10.8692
讀者	-10.8692
榜	-10.8693
梵天	-10.8696
師友	-10.8696
永絕	-10.8697
所發	-10.8699
銀臺	-10.8699
故無	-10.8703
那得	-10.8708
休息	-10.8711
脩行	-10.8714
九者	-10.8718
不孝	-10.8718
而死	-10.8722
聲聞菩薩	-10.8727
皆須	-10.8733
之源	-10.8733
必然	-10.8734
或作	-10.8734
發菩提	-10.8737
【	-10.8737
是菩薩	-10.8738
莫非	-10.8739
耶答	-10.8741
》,	-10.8742
食之	-10.8742
世諦	-10.8744
五百年	-10.8751
佛告彌勒	-10.8753
所著	-10.8755
夜夢	-10.8756
金剛經	-10.8759
無三惡道	-10.8759
分為	-10.877
同學	-10.8776
上智	-10.8777
推之	-10.878
愛樂	-10.8781
而未	-10.8786
名聞	-10.8792
慈悲心	-10.8793
得生西方	-10.8794
脫苦	-10.8796
流入	-10.8797
中觀	-10.8801
妙明	-10.8805
二別	-10.8807
益也	-10.8807
既然	-10.8812
故非	-10.8813
生疑惑	-10.8813
亦乃	-10.8813
中有二	-10.8815
法性身	-10.8816
根性	-10.882
心力	-10.8823
圓照	-10.8823
禪師曰	-10.8823
往生論	-10.8825
諸佛國	-10.8825
出輪迴	-10.8826
偏讚	-10.8827
後文	-10.8827
以此功德	-10.8827
諸比丘	-10.8829
普為	-10.8829
皆當往生	-10.883
現行	-10.8833
初正明	-10.8834
約理	-10.8836
藕	-10.8837
覺體	-10.8839
異也	-10.8841
觀於	-10.8843
吾今	-10.8845
南北	-10.8846
皈	-10.8847
皆得不退轉於阿耨多羅三藐三菩提	-10.8847
貪嗔	-10.8851
明明	-10.8852
如此愚人	-10.8854
經者	-10.8855
善導和尚	-10.8855
泡	-10.8856
得果	-10.8858
逗	-10.886
校量	-10.8861
既成	-10.8862
帳	-10.8863
詰	-10.8864
文殊普賢	-10.8865
薩	-10.8866
心之	-10.8867
嚴飾	-10.8867
迭	-10.8867
秖	-10.8868
撮	-10.8869
硨磲	-10.8869
鹽	-10.8871
雀	-10.8871
叉	-10.8871
膽	-10.8872
甘心	-10.8872
光緒	-10.8872
磬	-10.8872
之位	-10.8872
材	-10.8873
陣	-10.8874
酥	-10.8875
火坑	-10.8878
侍郎	-10.8879
衡	-10.8879
不念佛	-10.888
講經	-10.888
堆	-10.8881
禽獸	-10.8882
四海	-10.8883
惡念	-10.8884
鑿	-10.8884
無方	-10.8886
尊宿	-10.8886
反覆	-10.889
離此	-10.8891
具足十念	-10.8892
琴	-10.8894
觀中	-10.8899
徧法界	-10.8899
二觀	-10.8901
迴向發願	-10.8901
佛現	-10.8902
無得	-10.8902
一二	-10.8903
珍重	-10.8903
慈母	-10.8904
諸賢	-10.8906
老病	-10.8908
是故當知	-10.8908
龍華	-10.8909
悔過	-10.8909
彌陀名號	-10.8911
之期	-10.8917
將此	-10.892
徧滿	-10.892
有八	-10.8921
天堂	-10.8925
之甚	-10.8926
下下品	-10.8929
寶珠	-10.893
故說	-10.8931
在我	-10.8931
後有	-10.8932
中生	-10.8933
所歸	-10.8934
曜	-10.894
弘誓願	-10.8943
苦痛	-10.8943
疑謗	-10.8949
諸經論	-10.8951
意者	-10.8951
異方便	-10.8953
許多	-10.8956
深恩	-10.8957
世法	-10.8961
諸戒	-10.8966
生兜率	-10.8968
菩薩戒	-10.8971
惡友	-10.8971
發願云	-10.898
從心想生	-10.8981
總名	-10.8983
我者	-10.8987
海眾	-10.899
當於	-10.8994
釋氏	-10.8995
因也	-10.8998
而反	-10.8999
理者	-10.8999
一品	-10.9001
億劫	-10.9001
回向發願	-10.9006
焉得	-10.9008
念彌陀佛	-10.9009
識者	-10.9009
發大願	-10.9013
欲使	-10.9022
觀其	-10.9023
圓證	-10.9025
念佛之心	-10.9032
本源	-10.9033
神明	-10.9033
以無	-10.9038
法華云	-10.904
往生西方	-10.9041
照了	-10.9047
假觀	-10.9047
十號	-10.9048
也如是念	-10.9048
今云	-10.9049
始於	-10.905
方成	-10.9056
中品上生	-10.906
▁南無當來彌勒佛	-10.9063
第十三	-10.9063
十惡五逆	-10.9065
脫生死	-10.9065
虫	-10.9066
橫截	-10.9067
是菩薩淨土	-10.9069
荊棘	-10.9069
爽	-10.9072
曰吾	-10.9073
降伏	-10.9075
慈雲懺主	-10.9075
為要	-10.9076
衛	-10.9077
生我剎	-10.9077
額	-10.9077
二十三	-10.9077
難可	-10.9078
聲聞眾	-10.9078
不假方便	-10.9078
嶽	-10.9079
獅子	-10.9079
集眾	-10.9079
紛紛	-10.908
宣揚	-10.9082
異香滿室	-10.9082
形骸	-10.9082
釆	-10.9082
娑	-10.9083
仗佛力	-10.9083
膚	-10.9083
庫	-10.9083
邪婬	-10.9083
隙	-10.9083
星宿	-10.9084
乙	-10.9085
不可不知	-10.9085
暖	-10.9086
所牽	-10.9086
霧	-10.9088
沐浴	-10.9089
學佛	-10.909
身在	-10.909
洛	-10.9092
帶業往生	-10.9095
奇妙	-10.9097
更加	-10.9099
三七日	-10.9101
惑業	-10.9103
摸	-10.9103
變作	-10.9103
古佛	-10.9106
二千	-10.9106
斜	-10.9109
解義	-10.9111
在前	-10.9111
無退轉	-10.9111
一方	-10.9112
慧命	-10.9112
國師	-10.9112
定得往生	-10.9115
熏修	-10.9117
不得巳	-10.9117
純是	-10.9117
急急	-10.9121
行相	-10.9128
心是佛	-10.9133
巳知	-10.9133
二釋義	-10.9138
或有眾生	-10.914
內心	-10.914
圓妙	-10.9142
從佛	-10.9142
滅除	-10.9143
天下之	-10.915
受其	-10.9152
不雜	-10.9153
應須	-10.9155
彌陀經云	-10.9155
聲色	-10.9156
解行	-10.916
淨佛國土	-10.9164
妙樂	-10.9165
託彼	-10.9167
明師	-10.9168
諸如來	-10.9168
動念	-10.9173
哀哉	-10.9174
便為	-10.9177
功用	-10.9177
之矣	-10.9181
寶王論	-10.9188
日出	-10.9189
同治	-10.919
能除	-10.9192
無智	-10.9192
總攝	-10.9194
信佛	-10.9195
大用	-10.9197
一音	-10.9198
勸念佛	-10.9202
演法	-10.9202
耳目	-10.9203
無量諸佛	-10.9203
傾心	-10.9204
疑也	-10.9208
滅惡	-10.9209
誦云	-10.9216
延壽	-10.9218
三惡	-10.9221
是書	-10.9223
氏子	-10.9227
八年	-10.9229
要門	-10.923
無願	-10.923
同聞	-10.9232
見諸佛	-10.9233
初總	-10.9244
惡法	-10.9244
以示	-10.9246
念南無阿彌陀佛	-10.9249
傳法	-10.9252
廣長舌	-10.9258
所載	-10.9261
火燒	-10.9263
形相	-10.9263
僧曰	-10.9265
想成	-10.9268
攝化	-10.9268
耳聞	-10.9272
玻瓈	-10.9273
發四十八願	-10.9274
不輟	-10.9274
一見	-10.9275
乎哉	-10.9275
不足以	-10.9279
一性	-10.928
往生阿彌陀佛國	-10.9283
涌	-10.9284
清淨本然	-10.9284
辱	-10.9285
佛乃	-10.9287
嚮	-10.9288
能為	-10.9288
秘	-10.9289
鎖	-10.9289
親聞	-10.929
三摩地	-10.929
真金	-10.9291
慳	-10.9292
軒	-10.9292
僕	-10.9292
帀	-10.9293
酉	-10.9294
闊	-10.9295
擲	-10.9295
感佛	-10.9296
襟	-10.9298
涕	-10.9299
亟	-10.93
別明	-10.93
寐	-10.93
雕	-10.93
無緣慈	-10.9301
粥	-10.9303
姚	-10.9304
監	-10.9305
釋經	-10.9305
葬	-10.9307
一切三寶	-10.9307
相逢	-10.9309
未來世	-10.931
雖不能	-10.9311
九月	-10.9311
不改	-10.9317
上生經	-10.9317
濟度	-10.932
以致	-10.9322
第八識	-10.9325
巳生	-10.9326
普觀	-10.9326
開導	-10.9334
一聞	-10.9339
一偈	-10.934
覺知	-10.9342
龍舒居士	-10.9344
彼如來	-10.9345
久矣	-10.9347
又問曰	-10.9348
五住	-10.9352
而行之	-10.9353
凡聖同居	-10.9359
次句	-10.9359
光明無量	-10.9362
朽	-10.9363
孰能	-10.9364
未足	-10.9364
求生極樂	-10.9365
姓也	-10.9368
與佛同	-10.9372
而知	-10.9376
所求	-10.9376
不能自	-10.9377
太平	-10.9383
離垢	-10.9387
次日	-10.9388
四趣	-10.9393
未忘	-10.9397
豈不是	-10.9399
生天上	-10.9399
一切法門	-10.9405
藏通	-10.9408
更相	-10.9408
初觀	-10.941
論中	-10.9411
既得	-10.9415
此呪	-10.9415
一月	-10.9416
翻成	-10.9416
百千億	-10.9418
實法	-10.9419
不謬	-10.9419
異名	-10.9427
無量世界	-10.9428
深廣	-10.9429
此門	-10.9437
勉之	-10.9441
門人	-10.9442
初果	-10.9445
自此	-10.9447
人我	-10.9449
而可	-10.9453
即至	-10.9454
二合	-10.946
難行	-10.9462
此云大	-10.9466
疑情	-10.9471
佛家	-10.9472
出娑婆	-10.9474
水鳥	-10.9474
寶座	-10.9474
水月	-10.9476
一書	-10.9477
性命	-10.9481
祇是	-10.9482
徃	-10.9484
乃可	-10.9486
可為	-10.9486
離過絕非	-10.9487
博地凡夫	-10.9488
即般若	-10.9488
是諸眾鳥	-10.9489
二釋經二	-10.9489
去則實不去	-10.9493
灼	-10.9494
如入禪定	-10.9494
看經	-10.9499
金容	-10.9499
其相	-10.95
何益	-10.9501
事畢	-10.9503
躍	-10.9504
伽陀	-10.9504
斬	-10.9505
白鶴	-10.9506
證得	-10.9507
艱	-10.9507
擬議	-10.9507
通名	-10.9508
四十年	-10.9508
婢	-10.9508
百丈	-10.9509
牆	-10.951
念得	-10.951
一日七日	-10.9512
窗	-10.9513
授手	-10.9513
扇	-10.9513
予曰	-10.9514
播	-10.9515
虔	-10.9515
恬	-10.9515
煎	-10.9516
伐	-10.9517
酌	-10.9517
輭	-10.9519
知足	-10.9519
杭	-10.9519
駭	-10.952
聯	-10.9523
戴	-10.9524
香爐	-10.9525
言語	-10.9526
穴	-10.9526
堅持	-10.9527
鑄	-10.9528
超三界	-10.9528
蓮師	-10.953
十二因緣	-10.9531
淨邦	-10.9531
主張	-10.9531
蠅	-10.9531
一句佛	-10.9532
事造	-10.9533
專修淨業	-10.9534
菜	-10.9537
注想	-10.9537
大抵	-10.9542
神呪	-10.9546
主宰	-10.9548
俱時	-10.9554
只如	-10.9554
高大	-10.9557
一切惡	-10.9557
金光	-10.9561
舌相	-10.9561
任意	-10.9563
念阿彌陀	-10.9572
蓮華臺	-10.9577
皆生	-10.9579
不外	-10.9579
於此世界	-10.9581
要在	-10.9583
立行	-10.9584
未入	-10.9596
向外	-10.9598
二名	-10.9602
自能	-10.9607
佛來	-10.9615
故於	-10.9617
涅槃經云	-10.9619
別離	-10.9624
正顯	-10.9624
二十九	-10.9625
安樂國	-10.9634
俱非	-10.9634
與汝	-10.9637
生死苦	-10.9638
即知	-10.9643
頓超	-10.9643
香氣	-10.9647
方始	-10.9648
至期	-10.9648
女身	-10.9651
教者	-10.9653
同於	-10.9654
相資	-10.9657
三階	-10.9658
幻化	-10.9658
何獨	-10.966
邪師	-10.966
亦不能	-10.9667
向佛	-10.9669
不堪	-10.9677
了無	-10.9677
求出離	-10.9678
二行	-10.9678
安在	-10.9678
之家	-10.968
同登	-10.9681
尚不能	-10.9682
太虗	-10.9687
心眼	-10.9688
不深	-10.9689
成聖	-10.9689
或問曰	-10.9692
二首	-10.9693
劫數	-10.9695
謂佛	-10.9695
貞	-10.9695
定生	-10.9697
來者	-10.9699
虗空界	-10.97
常聞	-10.97
憐憫	-10.9704
初禪	-10.9706
諸障	-10.9707
若其	-10.9708
不可知數	-10.9711
生則決定生	-10.9712
有世界名曰極樂	-10.9713
非有非無	-10.9713
中品下生	-10.9713
不見佛	-10.9715
蕅益	-10.9716
數量	-10.9717
先德云	-10.9723
哆	-10.9724
萎	-10.9724
不信有	-10.9724
二子	-10.9725
安養國	-10.9726
匝	-10.9727
隨佛	-10.9727
無有出期	-10.9727
稱佛名號	-10.9728
冊	-10.9729
孩	-10.9731
斤	-10.9731
鴈	-10.9731
摩頂	-10.9732
竅	-10.9732
帙	-10.9732
叫	-10.9733
賞	-10.9734
抽	-10.9734
賢愚	-10.9735
皇帝	-10.9735
靈明	-10.9735
韓	-10.9737
煖	-10.9739
彪	-10.9742
錦	-10.9742
敏	-10.9742
歷代	-10.9743
慨	-10.9743
鴻	-10.9743
一念心	-10.9744
仁慈	-10.9745
輕微	-10.9747
除罪	-10.9748
頭陀	-10.9749
冤親	-10.975
京師	-10.975
)「	-10.9752
占	-10.9753
論議	-10.9753
有云	-10.9755
隻	-10.9755
為期	-10.9755
天帝	-10.9756
前二	-10.9757
勢力	-10.9757
釋義	-10.9758
為勝	-10.9758
起信論云	-10.9762
無限	-10.9764
每見	-10.9765
亦何	-10.9769
之學	-10.977
實行	-10.977
心垢	-10.9772
開合	-10.9773
諸家	-10.9774
實是	-10.9775
誠為	-10.9776
回首	-10.9777
十戒	-10.9777
龍樹菩薩	-10.9778
冤家	-10.9779
涅槃云	-10.9782
要緊	-10.9783
脫輪迴	-10.9785
二百五十	-10.9787
是同	-10.979
諸菩薩摩訶薩	-10.9791
是故舍利弗	-10.9795
朔	-10.9796
菩薩行	-10.9796
志願	-10.9796
當自	-10.9798
如下	-10.9804
此願	-10.9804
十念成就	-10.9806
十二年	-10.9807
傳記	-10.981
臨終念佛	-10.9815
接引眾生	-10.9819
開口	-10.9822
有所得	-10.9823
法空	-10.9824
真信	-10.9825
為眾	-10.9826
問佛	-10.9831
其聲	-10.9832
障道	-10.9832
今依	-10.9837
心常	-10.9838
誠言	-10.9838
報土	-10.9838
殺之	-10.9838
然燈	-10.9838
施主	-10.9839
序云	-10.984
亦皆	-10.9846
眼目	-10.9849
六月	-10.9849
歡喜地	-10.9849
淨土或問	-10.985
受樂	-10.9851
使其	-10.9852
不當	-10.9853
毫無	-10.9859
觀經言	-10.9863
雖在	-10.9863
不休息	-10.9864
能現	-10.9865
必得往生	-10.9867
世有	-10.9869
不遇	-10.9871
定散	-10.9874
感報	-10.9874
應時即	-10.9876
德佛	-10.9878
無生滅	-10.988
上中下	-10.988
時至	-10.9881
華香	-10.9884
青蓮	-10.9885
以喻	-10.9886
立名	-10.9888
真珠	-10.9889
是事	-10.9891
本末	-10.9895
取淨	-10.9895
不輕	-10.9897
即指	-10.9898
高明	-10.9898
今疏	-10.9899
終歸	-10.9907
約事	-10.9907
時分	-10.9909
惡報	-10.9909
地位	-10.9914
誦持	-10.9915
飛行	-10.9918
道心	-10.9918
誠實	-10.9919
聞我名字	-10.992
難量	-10.9921
妙悟	-10.9922
終不能	-10.9923
無央數	-10.9925
一步	-10.9925
立誓	-10.9926
自言	-10.9926
西天	-10.9929
即得往生阿彌陀佛極樂國土	-10.9929
古來	-10.9929
所及	-10.9929
除八十億劫生死之罪	-10.9933
略說	-10.9933
其數甚多	-10.9933
應時	-10.9935
覺他	-10.9935
正好	-10.9937
往生傳	-10.9937
悉檀	-10.9937
自得	-10.9938
癡人	-10.9938
便可	-10.9939
精修	-10.994
貢高	-10.9941
眉間白毫	-10.9941
無問自說	-10.9942
阿鼻地獄	-10.9942
憍慢	-10.9942
大如車輪	-10.9943
之志	-10.9944
丁寧	-10.9946
殞	-10.9949
更何	-10.9949
慈光	-10.9954
一代時教	-10.9954
修十善	-10.9954
天上人間	-10.9954
纖毫	-10.9955
僻	-10.9956
玲瓏	-10.9957
突	-10.9959
絡	-10.9961
麥	-10.9961
阿鼻	-10.9961
毗盧	-10.9961
怙	-10.9961
偷盜	-10.9962
卵	-10.9962
一稱南無佛	-10.9963
用之	-10.9964
增減	-10.9965
勤精進	-10.9971
自當	-10.9972
無量無數	-10.9973
命根	-10.9974
清冷	-10.9974
淨願	-10.9975
狐	-10.9977
洎	-10.9978
功夫	-10.9978
手執	-10.9978
牽纏	-10.9981
城中	-10.9987
忽爾	-10.9989
百聲	-10.9992
證無生忍	-10.9994
將終	-10.9996
高座	-10.9996
垂終	-10.9997
境也	-10.9997
大丈夫	-10.9999
法華三昧	-11.0001
障難	-11.0005
必能	-11.0007
道場樂	-11.001
佛意	-11.0011
顏色	-11.0011
天道	-11.0014
下約	-11.0015
所觀境	-11.0015
者少	-11.0017
無憂	-11.0018
為心	-11.0022
相隨	-11.0022
和會	-11.0023
千古	-11.0025
結集	-11.0034
其旨	-11.0035
藥師	-11.0036
高聲念佛	-11.0037
國土莊嚴	-11.0042
用此	-11.0042
無邊際	-11.0046
阿彌陀佛名號	-11.0046
九品往生	-11.0047
則巳	-11.005
無殊	-11.005
其次	-11.0051
當作佛	-11.0052
大力	-11.0053
設教	-11.0054
正由	-11.0055
生歡喜	-11.0055
十二部經	-11.0056
乘此	-11.0059
唯除	-11.0069
六道眾生	-11.007
隨宜	-11.0071
清風	-11.0072
華上	-11.0076
如一念頃	-11.0096
遷流	-11.0097
語云	-11.0097
法報	-11.0098
何止	-11.0099
信得	-11.0102
有限	-11.0103
聖境	-11.0113
什師	-11.0115
成時	-11.0115
禪師云	-11.0118
無自性	-11.012
同佛	-11.0121
不移	-11.0124
得成	-11.013
念佛之時	-11.0132
於西方	-11.0133
八月	-11.0136
六念	-11.0137
豈以	-11.014
無以	-11.0143
悟入	-11.0144
巳靈	-11.0144
三百	-11.0151
豈易	-11.0153
世間之	-11.0156
歸命禮	-11.0156
終無	-11.0157
夢見	-11.0158
高接下讚云	-11.0161
修諸	-11.0163
四十二	-11.0163
具足眾戒	-11.0164
位不退	-11.0167
是人終時	-11.0167
無上深妙禪	-11.0172
國中菩薩	-11.0173
之辭	-11.0174
不真	-11.0174
有世界	-11.0175
為證	-11.0176
七寶池中	-11.0177
說淨土	-11.0178
中品中生	-11.0179
天台智者大師	-11.0179
殷	-11.018
而取	-11.018
鈴	-11.018
教行理	-11.0181
別時意	-11.0182
狼	-11.0182
芥子	-11.0182
之難	-11.0183
及早	-11.0184
修菩薩行	-11.0184
苑	-11.0185
大圓鏡智	-11.0185
品位	-11.0185
脩羅	-11.0185
經意	-11.0186
勇猛精進	-11.0186
伎樂	-11.0189
亦須	-11.019
絃	-11.019
毀謗	-11.0193
諸魔	-11.0194
趙	-11.0194
膏	-11.0194
恰	-11.0196
少康	-11.0197
直截	-11.0197
得忍	-11.0197
零	-11.0199
慙愧	-11.0199
無二無別	-11.02
貝	-11.02
貽	-11.0202
正念現前	-11.0202
羨	-11.0203
無生而生	-11.0205
一條	-11.0205
藝	-11.0205
寶閣	-11.0205
而此	-11.0206
如月	-11.0206
諫	-11.0207
入道場	-11.0208
繫緣	-11.021
嶺	-11.0212
)。【	-11.0214
願為	-11.0215
介	-11.0219
不歷	-11.0219
撓	-11.022
趨向	-11.0225
善逝	-11.0228
惑亂	-11.0235
下根	-11.0235
自念	-11.0235
作如是	-11.0235
坐脫	-11.0237
而立	-11.0243
非唯	-11.0243
世所	-11.0243
□□□□	-11.0245
入聲	-11.025
其一	-11.0257
趣向	-11.0261
我慢	-11.0261
皆如	-11.0266
大乘經	-11.0268
施戒	-11.0269
可畏	-11.027
人能	-11.027
對待	-11.027
道果	-11.0271
隨業	-11.0272
能信	-11.0275
頭頭	-11.0277
香山	-11.0277
念我	-11.0278
根機	-11.0279
解脫門	-11.028
人死	-11.0281
具云	-11.0282
並無	-11.029
濁水	-11.029
眾生心中	-11.0292
、《	-11.0293
此性	-11.03
念起	-11.0301
清淨莊嚴	-11.0304
然有	-11.0308
安知	-11.0308
以彼	-11.0312
加以	-11.0313
專持	-11.0314
聞妙法	-11.0316
孔子曰	-11.0318
起一念	-11.0322
香雲	-11.0323
禪觀	-11.0323
篤信	-11.0328
顯理	-11.033
永滅	-11.0331
發意	-11.0331
標名	-11.0331
誓不	-11.0334
念佛三昧者	-11.0334
自信	-11.0338
無虗	-11.0341
必當	-11.0342
妙德	-11.0345
廣長	-11.0346
諦聽	-11.0346
猛火	-11.0347
相傳	-11.0348
為理	-11.0348
菩薩道	-11.035
先當	-11.0351
端嚴	-11.0353
別名	-11.0353
遞	-11.0353
兒女	-11.0358
為念	-11.0366
念彼佛	-11.0368
信知	-11.0374
與諸聖眾	-11.0374
本為	-11.0375
救度	-11.0375
于是	-11.0375
王氏	-11.0376
相同	-11.0378
臨時	-11.0379
自非	-11.0381
讚言	-11.0383
頌曰	-11.0384
定者	-11.0385
眾生界	-11.0386
人世	-11.0389
數千	-11.0393
疏主	-11.0393
能入	-11.04
同在	-11.04
奉事師長	-11.0402
但念	-11.0407
真是	-11.0409
常樂我淨	-11.0413
則可	-11.0413
禪教律	-11.0413
極樂依正	-11.0414
牟尼	-11.0414
又名	-11.0417
淨土晨鐘	-11.0417
鑊湯	-11.0418
蔭	-11.0419
念法	-11.042
若一日	-11.042
隨人	-11.0422
寂默	-11.0424
空華	-11.0424
肎	-11.0425
勳	-11.0425
凌	-11.0426
乞士	-11.0426
忿	-11.0428
必為	-11.0428
絲毫	-11.0429
有病	-11.0429
企	-11.0429
躭	-11.043
鬬	-11.0431
旋繞	-11.0431
自作	-11.0431
裁	-11.0431
一百	-11.0431
鬼畜	-11.0432
之別	-11.0433
則必	-11.0433
原無	-11.0434
拳	-11.0434
兔	-11.0435
高低	-11.0435
本非	-11.0435
吸	-11.0436
其佛國土	-11.0436
一一皆	-11.0436
瞽	-11.0437
廿	-11.0438
侯	-11.0438
昨	-11.0439
爪	-11.0441
范	-11.0444
中郎	-11.0448
其國眾生	-11.045
正說	-11.045
多善根	-11.0451
討	-11.0452
儀軌	-11.0453
苟能	-11.0453
則念念	-11.0456
常樂	-11.0457
進退	-11.0457
徒勞	-11.0458
親承	-11.0458
蕭	-11.046
白玉	-11.0461
外緣	-11.0463
舒舌	-11.0465
之患	-11.0466
四時	-11.0471
易行道	-11.0472
妙境	-11.0473
急須	-11.0474
無違	-11.0475
今復	-11.0475
如大海	-11.0479
之頃	-11.0487
神珠	-11.0488
亦猶	-11.049
恒沙諸佛	-11.0491
起念	-11.0495
此教	-11.0496
而後巳	-11.0497
一句彌陀佛	-11.0497
無此	-11.0509
以手	-11.051
還歸	-11.051
示以	-11.0517
為法	-11.0518
佛及	-11.0522
方便土	-11.0523
塵垢	-11.0526
中峯	-11.0528
有功	-11.0528
法樂	-11.0529
諸煩惱	-11.0532
復何	-11.0533
一珠	-11.0533
但念阿彌陀佛	-11.0536
外求	-11.0539
五力	-11.0544
劣應	-11.0547
白業	-11.0555
斷煩惱	-11.0561
親證	-11.0566
中流	-11.0569
念念彌陀	-11.0569
斷見思	-11.0569
戒行	-11.0575
一華	-11.0575
照耀	-11.0577
九蓮	-11.0579
詩云	-11.0581
苦果	-11.0583
業道	-11.0584
置之	-11.0588
明珠	-11.0589
初祖	-11.0598
尚無	-11.0599
今朝	-11.06
發現	-11.0603
我是	-11.0605
能具	-11.0606
覺分	-11.0606
一理	-11.0608
千百	-11.0608
能攝	-11.0609
而實	-11.061
毫端	-11.061
不安	-11.0611
證三昧	-11.0613
從其	-11.0615
讀之	-11.0617
靈知	-11.0619
大智慧	-11.0627
互為	-11.0628
結歸	-11.0629
而念	-11.0637
小果	-11.0639
今文	-11.064
𦦨肩	-11.0642
入一切眾生心想中	-11.0643
華言	-11.0643
不相妨	-11.0647
之福	-11.0647
專稱名字	-11.0648
佛境	-11.0648
佛德	-11.0649
妙宗鈔	-11.065
去佛不遠	-11.0651
為苦	-11.0652
則佛土淨	-11.0652
礫	-11.0653
瑕	-11.0654
然亦	-11.0655
宗賾	-11.0655
為首	-11.0657
本師釋迦牟尼佛	-11.0659
無所從來	-11.0659
全性起修	-11.0659
輪迴六道	-11.066
緯	-11.0661
翅	-11.0661
不退地	-11.0661
於前	-11.0663
正直	-11.0664
衣裓	-11.0665
聞佛所說	-11.0666
酪	-11.0668
去此不遠	-11.067
巳過	-11.0672
丙	-11.0672
良繇	-11.0672
卯	-11.0673
柴	-11.0674
凡聖同居土	-11.0675
羅睺羅	-11.0675
靈峯	-11.0675
田園	-11.0675
洞徹	-11.0678
仕	-11.0679
儔	-11.0679
啄	-11.068
信願行	-11.068
皆言	-11.068
互融	-11.068
亥	-11.068
定業	-11.0681
詐	-11.0681
達摩	-11.0682
詢	-11.0682
煑	-11.0683
發揮	-11.0684
忽有	-11.0684
不信因果	-11.0684
彭	-11.0685
呈	-11.0685
專念佛	-11.0685
短命	-11.0686
貨	-11.0687
葷	-11.0688
可乎	-11.0688
杭州	-11.069
宛轉	-11.0691
鑽	-11.0691
活計	-11.0697
彥	-11.0699
必不	-11.0699
千由旬	-11.07
千般	-11.0702
返照	-11.0702
見彼	-11.0707
田地	-11.0707
增上	-11.0708
可痛	-11.0709
其有眾生	-11.0713
不到	-11.0714
者矣	-11.0715
為緣	-11.0716
乃成	-11.0716
業繫	-11.072
比丘尼	-11.072
聞而	-11.0724
總為	-11.073
再三	-11.0731
家鄉	-11.0734
會中	-11.0735
登彼岸	-11.0735
前程	-11.0738
生因	-11.0738
真淨	-11.0741
漸次	-11.0743
體究	-11.0743
通明	-11.0745
據此	-11.0751
惟在	-11.0752
攷證	-11.0753
所當	-11.0756
妙喜	-11.0756
念佛不輟	-11.0762
上有	-11.0762
往彼	-11.0764
苦者	-11.0764
老僧	-11.0765
紫金身	-11.0765
十萬遍	-11.0768
用功	-11.0769
無分別	-11.0771
安心	-11.0771
歸元	-11.0773
四曰	-11.0774
帝網	-11.0776
解云	-11.0776
界外	-11.0785
而巳矣	-11.0788
階不退	-11.0788
異常	-11.0788
不惟	-11.0792
別示	-11.0797
勤行	-11.0802
拔苦	-11.0802
心空	-11.0804
同生淨土	-11.0804
也念	-11.0805
弘願	-11.0813
具說	-11.0814
生安樂	-11.0815
相貌	-11.0815
承事	-11.0817
深妙	-11.0817
立宗	-11.0819
迷情	-11.0823
必生淨土	-11.0823
求於	-11.0823
宋譯	-11.0823
則易	-11.0827
光明照	-11.0828
又能	-11.0828
傳云	-11.0828
者是也	-11.0833
極樂者	-11.0835
轉相	-11.0837
後二	-11.0837
為實	-11.084
生即無生	-11.0853
取之	-11.0859
未為	-11.0861
戒香	-11.0861
正教	-11.0865
不能知	-11.0866
而歸	-11.0869
外境	-11.0869
持念	-11.0871
神光	-11.0871
理持	-11.0874
謗佛	-11.0874
後來	-11.0875
不願往生	-11.0875
五苦	-11.0876
真修	-11.0876
多年	-11.0878
以求	-11.088
真境	-11.088
無足	-11.0883
意欲	-11.0884
不期	-11.0886
難忍	-11.0886
馬鳴	-11.0886
阿鞞䟦致	-11.0887
他身	-11.0888
為他	-11.0889
現其人前	-11.0891
染著	-11.0891
三昧者	-11.0891
釋疑	-11.0892
持五戒	-11.0896
大𦦨肩佛	-11.0896
應當發願生彼國土	-11.0899
其德	-11.0899
不謗大乘	-11.09
聞我名號	-11.09
謨	-11.0901
維摩詰	-11.0902
何以得知	-11.0902
經書	-11.0904
一道	-11.0904
變化所作	-11.0905
字字分明	-11.0905
亦不可得	-11.0905
法眼	-11.0906
當願眾生	-11.0906
栴檀	-11.0907
不畏	-11.0907
自得心開	-11.0908
即得往生極樂世界	-11.0909
別時	-11.091
機感	-11.0911
大寶積經	-11.0912
幢幡	-11.0912
必定見佛	-11.0913
幽溪	-11.0913
覺也	-11.0913
證信	-11.0915
鬪	-11.0916
正月	-11.0917
眾罪	-11.0918
遲速	-11.0918
頻婆	-11.0919
無常迅速	-11.0919
摘	-11.0921
輕慢	-11.0921
籌	-11.0922
囉	-11.0922
胎獄	-11.0924
正釋	-11.0924
讖	-11.0924
吝	-11.0925
暎	-11.0925
只因	-11.0925
輸	-11.0926
弦	-11.0926
劑	-11.0926
昆	-11.0928
血肉	-11.0928
仔細	-11.0928
影響	-11.0929
熱惱	-11.093
立化	-11.0931
園林	-11.0931
渺	-11.0933
剃	-11.0934
粉	-11.0934
鎻	-11.0935
炭	-11.0936
隨願往生	-11.0938
由他	-11.0938
簿	-11.0939
夕陽	-11.0944
出世間法	-11.0945
多種	-11.0946
二教	-11.0949
名極樂	-11.0949
極樂淨土	-11.0954
徹底	-11.0954
下三品	-11.0957
魔軍	-11.0957
雙亡	-11.096
正所謂	-11.0962
福業	-11.0975
會得	-11.0975
十勝	-11.0978
不懼	-11.0981
無一物	-11.0983
留心	-11.0984
獲益	-11.0985
無數劫	-11.0987
等法	-11.0988
解說	-11.0989
之路	-11.099
俱是	-11.0992
全在	-11.0993
淨土之說	-11.0998
生淨土故	-11.1
我弟子	-11.1001
何苦	-11.1001
一百八	-11.1007
當觀	-11.1012
跳	-11.1017
蓋以	-11.1021
萬世	-11.1021
藥王	-11.1022
同異	-11.1023
總觀	-11.1027
彼佛壽命	-11.1031
般舟三昧經	-11.1033
依於	-11.1034
恭敬供養	-11.1037
盡其	-11.1037
雖殊	-11.1039
佛寶	-11.1041
離欲	-11.1042
而住	-11.1047
大哉	-11.1049
一室	-11.1049
真體	-11.1049
亂心	-11.105
善因	-11.1051
盡力	-11.1053
行處	-11.1062
憐愍	-11.1064
近而	-11.1065
魔業	-11.1067
有智者	-11.1067
妙色	-11.1071
假令	-11.1072
婦人	-11.1074
七歲	-11.1079
結緣	-11.1083
初正釋	-11.1084
億萬	-11.1084
生厭離	-11.1088
不越	-11.1088
道業	-11.1089
難以	-11.1098
種善根	-11.1099
提起	-11.11
朝朝	-11.1102
頓入	-11.1114
能隨	-11.1118
不要	-11.1119
其家	-11.1127
寶樓	-11.1127
情想	-11.1132
萬人	-11.1132
識得	-11.1133
一則	-11.1134
必矣	-11.1136
色聲	-11.114
迎接	-11.1141
▁念佛	-11.1143
屬於	-11.1143
若心	-11.1143
大旨	-11.1143
四事	-11.1146
一類	-11.1147
皆是阿鞞䟦致	-11.1152
阿耨菩提	-11.1157
示眾	-11.1158
必至	-11.1158
魏譯	-11.1159
慈照宗主	-11.116
以念佛為	-11.1161
迦陵頻伽	-11.1162
地水火風	-11.1163
不可窮盡	-11.1165
盧舍那	-11.1165
袁	-11.1165
踊躍	-11.1166
父母妻子	-11.1166
演暢	-11.1168
三慧	-11.1169
豫	-11.1169
躡	-11.1169
室中	-11.1169
命終之後	-11.1169
柔輭	-11.117
拾	-11.1171
祀	-11.1171
不涉	-11.1172
涵	-11.1174
楚石	-11.1174
恢	-11.1175
剛	-11.1176
內有	-11.1176
程途	-11.1177
行菩薩道	-11.1177
矧	-11.1178
秘密	-11.1178
取相	-11.1179
賺	-11.1179
脈	-11.118
果然	-11.118
無一法	-11.1182
唯是一心	-11.1182
八戒	-11.1182
六字洪名	-11.1183
萬曆	-11.1183
往生樂	-11.1183
捕	-11.1183
所陳	-11.1184
甘美	-11.1186
寅	-11.1186
蹉跎	-11.1186
亮	-11.1186
壅	-11.1186
不由	-11.1187
筋	-11.1189
腐	-11.119
根鈍	-11.1192
陀羅	-11.1194
洋	-11.1194
虗偽	-11.1195
一切有情	-11.1197
眾中	-11.1199
下引	-11.1199
佛頂	-11.1201
一歲	-11.1201
八種	-11.1204
開明	-11.1204
以眾生	-11.1206
七年	-11.1207
救度眾生	-11.1214
四悉	-11.1215
橫生	-11.1215
寶像	-11.1216
清珠	-11.1219
取舍	-11.122
勝友	-11.122
專一	-11.1222
此即初	-11.1223
方廣	-11.1223
於佛前	-11.1225
數日	-11.1228
功德不可思議	-11.123
眾人	-11.1233
歲次	-11.1235
總別	-11.1235
足下	-11.1236
去也	-11.1238
其父	-11.1242
青山	-11.1245
先覺	-11.1248
請僧	-11.1249
救苦	-11.1249
取其	-11.1253
口誦	-11.1255
誤人	-11.1256
小彌陀經	-11.1257
罪報	-11.1259
大論	-11.1259
為最	-11.126
四法	-11.1262
限量	-11.1263
持齋戒	-11.1274
天神	-11.1282
滅諦	-11.1286
今巳	-11.1286
順水	-11.1287
入門	-11.1289
神變	-11.1295
般舟三昧	-11.1299
苦眾生	-11.1303
▁示	-11.1307
都不	-11.1309
歸來	-11.1311
飛空	-11.1312
雖異	-11.1315
號為	-11.1315
我執	-11.1318
間有	-11.1318
述偈	-11.1319
求救	-11.132
勸令	-11.1325
有罪	-11.1325
切要	-11.1326
二俱	-11.1327
讚曰	-11.1341
刻刻	-11.1342
平常	-11.1343
安得不	-11.1345
法照	-11.1346
苦諦	-11.1353
淨妙	-11.1354
教我	-11.1354
承當	-11.1355
不除	-11.1358
邊際	-11.1363
吾之	-11.1364
飯食	-11.1369
其類	-11.1372
法味	-11.1374
隨願	-11.1376
二卷	-11.1378
安有	-11.1378
眾妙	-11.1383
於諸眾生	-11.1383
過此	-11.1383
無聞	-11.1384
為五	-11.1385
自誤	-11.1391
十萬億土	-11.1392
則與	-11.1393
家緣	-11.1395
坐道場	-11.1397
未識	-11.1397
一切如來	-11.1398
金色身	-11.1398
下方	-11.1401
▁南無大	-11.1402
解者	-11.1403
彼處	-11.1404
不顛倒	-11.1405
二事	-11.1413
黑業	-11.1413
不犯威儀	-11.1414
佛相	-11.1415
』	-11.1418
勸發	-11.1419
眾所知識	-11.1421
生而無生	-11.1426
永無退轉	-11.1426
作禮而去	-11.1429
吁	-11.143
等是也	-11.1431
與眾	-11.1431
愽	-11.1431
飢渴	-11.1432
道家	-11.1432
枚	-11.1432
安慰	-11.1433
其土眾生	-11.1433
翻為	-11.1434
敝	-11.1435
真能念佛	-11.1436
拔濟	-11.1436
妖	-11.1437
方便有餘土	-11.1438
蝦	-11.1438
耑	-11.1439
攸	-11.1439
迄	-11.1439
嗔恨	-11.144
衍	-11.144
驢	-11.1441
命濁	-11.1442
池中蓮華	-11.1442
塘	-11.1442
南嶽	-11.1442
練	-11.1442
岳	-11.1442
刪	-11.1443
往詣	-11.1443
戊	-11.1443
懶	-11.1444
榻	-11.1444
亘	-11.1445
八德	-11.1446
卦	-11.1446
金剛般若	-11.1446
非小	-11.1448
安穩	-11.1448
衷	-11.1449
全真	-11.1449
奄	-11.145
魄	-11.145
殻	-11.1451
盆	-11.1452
妄計	-11.1452
頻伽	-11.1452
禍福	-11.1453
惱亂	-11.1455
常隨	-11.1457
於理	-11.1459
攝論	-11.146
本來無	-11.146
禹	-11.1461
調和	-11.1465
二十六	-11.1465
五句	-11.1467
點示	-11.1468
▁答	-11.1469
得生易	-11.1472
觀像	-11.1472
禪悅	-11.1474
從緣	-11.1475
寄語	-11.1475
喜曰	-11.1476
香光	-11.1476
四分	-11.1477
還源	-11.1478
在茲	-11.148
真宗	-11.1482
下手	-11.1483
智論云	-11.1485
在彼	-11.1487
歸極樂	-11.1492
嗏	-11.1493
一微塵	-11.1493
造論	-11.1495
首楞嚴	-11.1496
婬欲	-11.1498
法執	-11.1507
之過	-11.1507
實際	-11.1508
更無別	-11.151
一喝	-11.151
樂音	-11.1517
既曰	-11.1517
隨逐	-11.1518
南山	-11.1524
數息	-11.1524
讚揚	-11.1529
安身	-11.1529
回光	-11.1529
山林	-11.1529
標心	-11.153
一信	-11.1531
判為	-11.1531
種種方便	-11.1532
般涅槃	-11.1532
女子	-11.1534
受輪迴	-11.1535
為諸眾生	-11.1538
未到	-11.1538
是之謂	-11.1542
即成	-11.1542
紅蓮	-11.1549
於一切時	-11.1553
尚在	-11.1555
五品	-11.1556
論語	-11.1564
正念分明	-11.1564
欲知	-11.1566
不會	-11.1567
化成	-11.1569
仙人	-11.1569
到西方	-11.157
觀智	-11.1571
承上	-11.1577
所不能	-11.1577
梵王	-11.1579
苦報	-11.1581
平地	-11.1582
不切	-11.1585
見惑	-11.1587
宗風	-11.1587
若果	-11.1588
開發	-11.1588
此之謂也	-11.159
清水	-11.159
或聞	-11.1591
果上	-11.1593
專意	-11.1595
言教	-11.1604
有幾	-11.1606
以念佛心	-11.1609
浮生	-11.1617
妄謂	-11.1618
跳出	-11.1619
果位	-11.162
或復	-11.162
三字	-11.1623
相現	-11.1625
先觀	-11.1631
若未	-11.1631
此土眾生	-11.1632
如須彌山	-11.1635
無善	-11.1638
心安	-11.1643
極力	-11.1644
第十一	-11.1648
權教	-11.165
之殊	-11.1653
諸有	-11.1658
既以	-11.166
阿彌陀佛四字	-11.1662
無學	-11.1663
妙果	-11.1669
池上	-11.167
所出	-11.1672
想佛	-11.1674
滅八十億劫生死重罪	-11.1677
速得	-11.1677
如說修行	-11.1682
於一切法	-11.1685
母子	-11.1689
現前當來必定見佛	-11.1691
楊次公	-11.1692
如文	-11.1694
經律	-11.1694
發生	-11.1695
空谷	-11.1695
十疑論云	-11.1696
了了分明	-11.1697
頂戴	-11.1698
輾轉	-11.1698
聞此經	-11.1699
七重行樹	-11.1701
雙修	-11.1702
充滿其中	-11.1702
倖	-11.1703
阿僧祗劫	-11.1705
瑠璃地	-11.1705
炙	-11.1705
托質	-11.1707
見前	-11.1708
霄	-11.1708
神通自在	-11.1708
次想	-11.1709
三輩九品	-11.1709
削	-11.171
諸佛國土	-11.171
無根	-11.1711
趙州	-11.1711
區區	-11.1711
衢	-11.1711
即彌陀	-11.1712
皈命	-11.1713
清淨海眾	-11.1713
箇箇	-11.1713
此段	-11.1714
烹	-11.1714
婆羅門	-11.1715
揖	-11.1715
又當	-11.1716
樂邦文類	-11.1716
怖魔	-11.1717
靈峰	-11.1717
塊	-11.1719
偉	-11.172
閉目	-11.172
燦	-11.1721
若七日	-11.1721
丸	-11.1723
肝	-11.1723
驟	-11.1724
諒	-11.1724
樵	-11.1724
一朵	-11.1724
棒	-11.1726
柯	-11.1726
交徹	-11.1726
和南	-11.1728
九十日	-11.1729
妄認	-11.1729
緊要	-11.173
苗	-11.173
魁	-11.173
水上	-11.1732
害母	-11.1733
州人	-11.1733
集諦	-11.1734
哀愍	-11.1735
瑞應	-11.1735
謂曰	-11.1738
廉	-11.1739
不相應	-11.1741
三經	-11.1741
晚年	-11.1747
心開	-11.1747
盡心	-11.175
有淺深	-11.1752
變造	-11.1752
聖人之	-11.1754
令諸眾生	-11.1754
切勿	-11.1758
十念往生	-11.1759
六方佛	-11.1761
是菩提	-11.1761
圓極	-11.1763
得意	-11.1764
四面	-11.1766
不能害	-11.1766
圓淨	-11.1775
必欲	-11.1777
願往	-11.1779
即與	-11.178
兩句	-11.1784
孟子曰	-11.1784
但云	-11.1786
七趣	-11.1789
照明	-11.1791
▁二釋	-11.1791
從上	-11.1793
相宗	-11.1799
生彼國巳	-11.1803
紫金色	-11.1804
不差	-11.1805
在何處	-11.1809
此一心	-11.1809
一異	-11.1812
回向西方	-11.1816
老死	-11.1819
法滅	-11.182
一切善	-11.1822
白日	-11.1822
宗本	-11.1824
終成	-11.183
妙旨	-11.1834
二十七	-11.1834
智人	-11.1837
得三昧	-11.1839
昔日	-11.1842
勸讚	-11.1844
過失	-11.1846
見佛身	-11.1846
造五逆	-11.1848
觀照	-11.1853
遇知識	-11.1858
名義	-11.1859
教理	-11.186
中王	-11.186
乃曰	-11.1862
機宜	-11.1862
聞見	-11.1863
失正念	-11.1864
不停	-11.1866
先聖	-11.1866
口念	-11.1868
金輪	-11.1872
正語	-11.1876
極矣	-11.1877
俄而	-11.1883
來接引	-11.1884
光影	-11.1884
可思議	-11.1885
須是	-11.1895
告之	-11.1896
如是等法	-11.1897
有力	-11.1901
西去	-11.1915
死苦	-11.1915
忘失	-11.1916
智照	-11.1918
兩經	-11.1918
巳竟	-11.1919
事持	-11.192
有心	-11.1925
口稱	-11.1926
我有	-11.1927
即往生	-11.1933
未易	-11.1934
頓漸	-11.1936
復以	-11.1941
譯人	-11.1942
淨慈	-11.1942
皆稱	-11.1944
念佛不得了也	-11.1944
或在	-11.1946
此句	-11.1947
一晝夜	-11.1947
全體是	-11.1951
縱令	-11.1953
論說	-11.1955
中云	-11.1956
又經云	-11.1956
實難	-11.196
永嘉	-11.1964
釋名	-11.1965
何況有實	-11.1965
發露懺悔	-11.1966
誹謗正法	-11.1967
福壽	-11.1967
不遑念佛	-11.1967
於汝意云何	-11.1967
出定	-11.1969
勸進行者	-11.1971
定善	-11.1973
白銀	-11.1973
一篇	-11.1974
伴侶	-11.1975
未及	-11.1976
炳	-11.1978
是心作佛是心是佛	-11.198
彚	-11.198
加持	-11.1981
西方去此	-11.1982
馬鳴龍樹	-11.1983
旱	-11.1983
強名	-11.1983
撥無因果	-11.1985
辟	-11.1986
唾	-11.1986
貶	-11.1986
或念	-11.1987
奢	-11.1987
善能覺了	-11.1987
猪	-11.1988
朋友	-11.1988
鴿	-11.1988
心外無法	-11.1989
山河大地	-11.1989
孕	-11.1991
玉毫	-11.1992
㵎	-11.1992
猶豫	-11.1992
鷄	-11.1992
曩	-11.1993
雁	-11.1993
香花	-11.1993
孝養	-11.1994
瞻仰	-11.1995
荊	-11.1995
枝葉	-11.1996
大利	-11.1998
猛省	-11.1998
諸佛子	-11.1998
壽者	-11.1998
握	-11.1999
勝應	-11.1999
迷津	-11.2
鞋	-11.2
揑	-11.2003
最上乘	-11.2004
矢	-11.2004
即眾生	-11.2005
樞	-11.2005
佐	-11.2005
帶業	-11.2007
朝夕	-11.2007
尚得往生	-11.201
闍王	-11.2011
盥	-11.2011
桐	-11.2011
賈	-11.2011
端坐而化	-11.2012
廣明	-11.2013
雪山	-11.2013
歸安養	-11.2014
障深	-11.2015
得悟	-11.2015
聽者	-11.2017
墮三惡道	-11.2019
坐逝	-11.2019
不別	-11.202
一路	-11.202
影像	-11.2021
可到	-11.2021
全彰	-11.2022
堂堂	-11.2023
可解	-11.2024
能救	-11.2028
悟解	-11.2029
直待	-11.2036
字函	-11.2037
寒山	-11.2038
信有	-11.2039
樂事	-11.2045
長齋	-11.2045
淨信	-11.2046
千歲	-11.205
何勞	-11.2052
耶舍	-11.2055
流注	-11.2056
手足	-11.2056
共成	-11.2057
慈親	-11.2059
九年	-11.206
道路	-11.2062
非法	-11.2064
無生也	-11.2067
四重	-11.207
之失	-11.207
邪命	-11.2071
今略	-11.2078
行願品	-11.2079
如風	-11.2085
未出	-11.2086
仁者	-11.2086
但隨	-11.2087
法名	-11.2089
夫子	-11.209
設使	-11.2096
孝子	-11.21
無如念佛	-11.2102
歸向	-11.2102
無量也	-11.2104
姓名	-11.2104
流通分	-11.2105
利害	-11.2107
皆屬	-11.2107
所讚	-11.2108
種智	-11.2108
物命	-11.2108
花臺	-11.2109
品云	-11.2109
速成	-11.211
無等	-11.2115
一刻	-11.2115
不相違	-11.2115
即性	-11.2115
覺滿	-11.2117
具載	-11.2124
伏願	-11.2129
苟不	-11.2132
應機	-11.2133
事事	-11.2138
切不可	-11.2138
行世	-11.2139
德水	-11.214
入水	-11.2141
五百億	-11.2143
得福	-11.2144
未幾	-11.2144
成佛者	-11.2145
舉其	-11.2148
數數	-11.2148
十方一切	-11.2148
五門	-11.2151
登極樂	-11.2154
供養佛	-11.2154
緣深	-11.2156
未除	-11.2157
實可	-11.2158
未曾有	-11.2161
而得往生	-11.2163
要旨	-11.2165
見彼佛	-11.2168
痛切	-11.2177
最易	-11.218
下四句	-11.2182
巳悟	-11.2183
池者	-11.2188
必成	-11.2189
照十方國	-11.2191
現證	-11.2191
六日	-11.2191
到家	-11.2195
萬古	-11.2198
可厭	-11.2202
今古	-11.2202
偈頌	-11.2202
世上	-11.2205
分九品	-11.2206
今但	-11.221
次引	-11.221
說也	-11.221
斷盡	-11.2212
似有	-11.2215
題目	-11.2221
救眾生	-11.2226
不退者	-11.2227
智度論云	-11.2228
智論	-11.2232
件	-11.2233
求生者	-11.2235
五月	-11.2238
果佛	-11.224
心想佛時	-11.2241
便登	-11.2241
超然	-11.2243
喜樂	-11.2244
即是如來	-11.2246
淨念	-11.2249
是為甚難	-11.2251
於十方	-11.2252
到來	-11.2252
十方盡虗空界一切	-11.2254
生命	-11.2254
諸佛心內眾生	-11.2256
妙香	-11.2259
知音	-11.2259
莫尚乎	-11.226
紛飛	-11.2261
荊溪	-11.2261
瞬	-11.2261
七菩提分	-11.2262
五人	-11.2262
擯	-11.2265
群疑論	-11.2265
受想行識	-11.2265
不一不異	-11.2265
橫竪	-11.2265
能如是	-11.2266
冗	-11.2266
巳來	-11.2267
諄諄	-11.2267
鐵圍山	-11.2268
生死海	-11.2269
金剛臺	-11.2269
娘	-11.2269
優婆夷	-11.227
如意珠王	-11.227
好醜	-11.2271
艾	-11.2271
例此	-11.2271
所不能及	-11.2272
戾	-11.2274
沼	-11.2275
敕	-11.2276
成佛之	-11.2276
常精進菩薩	-11.2276
倣	-11.2276
窓	-11.2276
到彼岸	-11.2279
閻王	-11.2279
摩羅	-11.2281
悴	-11.2282
拱	-11.2283
蜀	-11.2283
次二句	-11.2284
禦	-11.2284
逞	-11.2285
尊貴	-11.2285
勉強	-11.2286
熙	-11.2286
佗	-11.2287
拽	-11.2287
儀式	-11.2288
戚	-11.2289
波旬	-11.2291
福智	-11.2292
埽	-11.2293
靈驗	-11.2294
但使	-11.2296
竭力	-11.2296
接引往生	-11.2297
桓	-11.2299
坐金蓮	-11.2299
難事	-11.2301
安排	-11.2301
得益	-11.2304
實則	-11.2306
年七十	-11.2308
馳求	-11.2308
奇哉	-11.2309
迴向發願心	-11.231
開敷	-11.231
四悉檀	-11.2311
唯除五逆	-11.2313
速證	-11.2313
覆障	-11.2318
別釋	-11.2318
聚會	-11.232
眾德	-11.2321
傳燈	-11.2322
今明	-11.2322
契合	-11.2322
違順	-11.2324
貞觀	-11.2324
即大	-11.2329
門外	-11.233
專念彌陀	-11.2332
一口	-11.2333
彼云	-11.2335
四王	-11.2338
八法	-11.2338
往生呪	-11.2339
無失	-11.2339
應佛	-11.234
一稱佛名	-11.2345
總示	-11.2347
深厚	-11.2347
行不退	-11.2351
易往	-11.2351
巳證	-11.2359
先世	-11.236
玄義	-11.2363
偏小	-11.2364
依他	-11.2364
以淨土為	-11.2364
理體	-11.2365
不持	-11.2366
修禪	-11.2369
同證	-11.2369
▁二明	-11.2371
善念	-11.2371
師資	-11.2371
兜率天	-11.2372
然香	-11.2373
遍法界	-11.2374
極大	-11.2374
所譯	-11.2376
得自在	-11.2377
棄捨	-11.2378
菩薩成佛時	-11.2381
積善	-11.2382
不可量	-11.2383
業海	-11.2385
身體	-11.2386
二師	-11.2386
淨其心	-11.2387
所惑	-11.2389
無邊光	-11.2398
空空	-11.2399
都是	-11.2402
好心	-11.2406
即起	-11.2408
極惡	-11.2409
第十二	-11.241
諸業	-11.2412
最大	-11.2414
常念阿彌陀佛	-11.2416
憫念	-11.2417
三分	-11.2419
持名念佛	-11.242
而現	-11.2421
出沒	-11.2423
苦難	-11.2433
惑盡	-11.2434
或名	-11.2437
安立	-11.2437
等經	-11.2439
慧日	-11.2439
可修	-11.2451
破惑	-11.2452
時刻	-11.2452
豈不聞	-11.2455
文章	-11.2459
心印	-11.246
十行	-11.246
吾師	-11.2463
結前	-11.2463
一萬	-11.2464
釋論	-11.2467
笑曰	-11.2467
海水	-11.2469
天台智者	-11.247
邪說	-11.2471
數年	-11.2476
少善	-11.2477
習之	-11.2477
不爾	-11.2479
形色	-11.2485
辨之	-11.2485
悟心	-11.2489
乃至一念	-11.2491
信施	-11.2495
道諦	-11.2501
人壽	-11.2505
現在前	-11.2505
近世	-11.251
為境	-11.251
此偈	-11.2511
苟非	-11.2517
變為	-11.2517
深思	-11.2522
婆心	-11.2525
願共眾生咸歸命	-11.2526
惰	-11.2528
教誡	-11.2529
聞我名	-11.2529
昭然	-11.2532
證法身	-11.2534
魔境	-11.2536
閻	-11.2539
他經	-11.2543
於空中	-11.2543
不可思議也	-11.2544
女人及根缺	-11.2545
佛境界	-11.2545
聞是說者	-11.2546
萬修萬人去	-11.2547
不唐捐	-11.2548
阿鞞跋致	-11.2548
寂光土	-11.2549
芥	-11.2549
懃	-11.255
竺	-11.2553
百法明門	-11.2553
慇懃	-11.2554
圍遶	-11.2554
佛告阿難及韋提希	-11.2555
階級	-11.2555
藐	-11.2556
各於其國出廣長舌相	-11.2557
舍衛國	-11.2557
苦心	-11.2557
觀佛相好	-11.2558
阿修羅	-11.2559
祕密	-11.256
豈不見	-11.2561
結跏趺坐	-11.2561
恕	-11.2561
遺教	-11.2561
目犍連	-11.2562
然臂香	-11.2562
永不退轉	-11.2563
劬勞	-11.2563
或時	-11.2564
橫出三界	-11.2564
贅	-11.2564
過十萬億佛土	-11.2565
華葉	-11.2567
谿	-11.2567
貲	-11.2568
楊傑	-11.2568
歡喜信受	-11.2569
脉	-11.257
喜悅	-11.257
溢	-11.257
睹	-11.257
阿彌陀佛南無阿彌陀佛	-11.2571
佛慧	-11.2572
師子覺	-11.2573
眷	-11.2573
鼠	-11.2574
骸	-11.2574
肥	-11.2574
儉	-11.2574
縈	-11.2574
踵	-11.2575
折伏	-11.2575
酒肉	-11.2576
杳	-11.2576
華藏世界	-11.2576
寶光	-11.2577
森	-11.2577
證小果	-11.2577
怛	-11.2577
洒	-11.2579
畵	-11.2579
身口意	-11.258
喚醒	-11.2581
厲聲	-11.2581
痛哉	-11.2581
几	-11.2581
贈	-11.2582
瓜	-11.2582
鋪	-11.2583
邀	-11.2583
幻質	-11.2583
供奉	-11.2583
受菩薩戒	-11.2583
阿難陀	-11.2584
墮於	-11.2584
為用	-11.2585
爍	-11.2586
血氣	-11.2587
良藥	-11.2587
蓬	-11.2587
娑婆國土	-11.2588
浮雲	-11.259
戈	-11.2591
剌血	-11.2591
敲	-11.2591
既知	-11.2592
夾	-11.2592
上二句	-11.2593
踪	-11.2594
雙融	-11.2595
幾許	-11.2596
不虛	-11.2597
大善	-11.2597
託生	-11.2598
天冠	-11.2599
相當	-11.2601
非凡	-11.2603
或因	-11.2603
施設	-11.2605
還復	-11.2606
中初科	-11.2608
觸目	-11.261
度一切	-11.2611
即心是佛	-11.2612
紅塵	-11.2612
不開	-11.2612
合論	-11.2613
法會	-11.2613
白佛	-11.2614
尤甚	-11.2617
一語	-11.2617
佛名號	-11.2617
觀經疏云	-11.2618
我頂禮生彼國	-11.2619
增益	-11.262
一切賢聖	-11.2623
念時	-11.2625
正修	-11.2625
一土	-11.263
略示	-11.2631
聞正法	-11.2632
久近	-11.2633
更生	-11.2642
十歲	-11.2644
頑空	-11.2647
孰為	-11.2649
意根	-11.2658
即所謂	-11.2659
先賢	-11.2662
妄見	-11.2663
今發願	-11.2663
大導師	-11.2666
四種淨土	-11.2673
常作	-11.2674
尚能	-11.2678
之多	-11.268
雜色	-11.2681
定性	-11.2684
將謂	-11.2686
觀境	-11.2687
共命	-11.2689
大樂	-11.2689
譬之	-11.2691
觀慧	-11.2695
寶界	-11.2695
甚大	-11.2695
思惑	-11.2696
勝相	-11.2697
多時	-11.2698
入理	-11.2701
淨覺	-11.2701
長年	-11.2705
音佛	-11.2709
宿因	-11.2711
不若	-11.2717
思慧	-11.2718
日沒	-11.2718
開眼	-11.2721
無妨	-11.2724
其所以	-11.2726
佛願力	-11.2727
台宗	-11.2728
學佛者	-11.2729
可哀	-11.2737
圓觀	-11.274
斷見	-11.2744
臨死	-11.2745
雨華	-11.2746
無奈	-11.2753
通序	-11.2757
專注	-11.2764
廣行	-11.2764
所受	-11.2779
獨覺	-11.2782
即如	-11.2787
無法不	-11.2791
非止	-11.2793
功德力	-11.2799
一個	-11.2806
與彼	-11.2808
徧覆	-11.2809
斷絕	-11.2811
死時	-11.2813
心光	-11.2815
發願求生	-11.2816
喝	-11.2817
大孝	-11.2818
不生滅	-11.2826
初分科	-11.2828
淨佛	-11.2831
眾行	-11.2832
始本	-11.2834
一切煩惱	-11.2835
斯文	-11.2839
一切世界	-11.284
寶臺	-11.2841
壽終之後	-11.2842
臨終在定之心	-11.2846
粒	-11.2846
不可稱計	-11.2846
眾生來生其國	-11.2848
猶在	-11.285
觀念	-11.2851
轉輪聖王	-11.2852
從是西方過十萬億佛土	-11.2853
何待	-11.2854
力量	-11.2854
是諸人等	-11.2857
凉	-11.286
願生其國	-11.286
總標	-11.2861
抄	-11.2862
韋	-11.2863
阿闍世	-11.2863
4	-11.2863
漂	-11.2863
歷歷分明	-11.2864
須臾間	-11.2866
戌	-11.2867
淪墜	-11.2868
提撕	-11.2868
徑路修行	-11.2869
受苦無窮	-11.287
趂	-11.287
水晶	-11.2871
歿	-11.2872
淆	-11.2874
灾	-11.2874
妙相	-11.2875
携	-11.2875
花開見佛	-11.2875
潮	-11.2875
沸	-11.2875
巢	-11.2877
出愛河	-11.2878
信得及	-11.2879
生於淨土	-11.2879
娑婆教主	-11.288
朋	-11.288
屑	-11.2881
竹林	-11.2882
周徧法界	-11.2882
茶毗	-11.2883
內院	-11.2883
難逢	-11.2884
痕	-11.2884
衝	-11.2884
當發願	-11.2885
奔波	-11.2885
遠行	-11.2886
鬧	-11.2887
無能勝	-11.2887
恁麼	-11.2888
宴	-11.2888
桑	-11.2889
蹟	-11.2891
一聲佛號	-11.2891
頹	-11.2893
宗師	-11.2893
昏散	-11.2893
堯舜	-11.2896
無始來	-11.2897
繡	-11.2897
於其中	-11.29
會歸	-11.2901
至死	-11.2901
翻譯	-11.2902
面像	-11.2904
誦佛	-11.2907
口出	-11.2908
春風	-11.2908
即心即佛	-11.291
謹識	-11.2911
千差	-11.2912
將去	-11.2913
憶持	-11.2914
俱舍	-11.2919
文句	-11.292
拈出	-11.292
無非法界	-11.292
歸佛	-11.2921
焚化	-11.2923
。」【「	-11.2925
起信云	-11.2926
六句	-11.2927
入無生忍	-11.2929
只消	-11.293
所持	-11.2933
菩提涅槃	-11.2935
諸境	-11.2935
榮華	-11.2935
不計	-11.2936
色光	-11.294
生死大事	-11.2951
出胎	-11.296
捨命	-11.2972
自古	-11.2972
識神	-11.2973
能造	-11.2973
諸善根	-11.2975
默然	-11.2982
肉團	-11.2983
百劫	-11.2986
轉變	-11.2986
皆是阿彌陀佛	-11.2993
天花	-11.2993
莫教	-11.2997
一句佛號	-11.2999
具造	-11.2999
欲生淨土	-11.3
記云	-11.3001
大彌陀經	-11.3001
佛及菩薩	-11.3002
彌陀像	-11.3004
千萬億	-11.3005
輕安	-11.3007
差殊	-11.3012
世自在王	-11.3018
一邊	-11.3024
貧人	-11.3024
大論云	-11.3027
決定成佛	-11.3028
五趣	-11.3032
為正行	-11.3032
來迎接	-11.3033
誠心	-11.3034
威光	-11.3035
寶積經	-11.3035
解脫德	-11.3035
辟支佛	-11.304
釋題	-11.304
存心	-11.3042
宗體	-11.3043
今約	-11.3044
斷無明	-11.3045
志在	-11.3049
一切善根	-11.3053
為喻	-11.3058
▁○	-11.3059
愚迷	-11.3061
稱讚不可思議功德一切諸佛所護念經	-11.3063
五時	-11.3063
國家	-11.3065
觀無量壽經	-11.3068
俱寂	-11.3068
單提	-11.3071
試問	-11.3072
窮極	-11.3074
四聖	-11.3074
與夫	-11.3078
天女	-11.3078
十疑	-11.3091
病中	-11.3097
安坐	-11.3099
像觀	-11.31
西方依正	-11.3101
數聲	-11.3102
專為	-11.3103
數語	-11.3106
虗名	-11.3108
百由旬	-11.3108
事業	-11.3112
施為	-11.3114
從空	-11.3116
嚴身	-11.3118
餘行	-11.312
三輩往生	-11.3123
決定信	-11.3124
的是	-11.3125
緣慮	-11.3126
令知	-11.3129
聖像	-11.3135
央	-11.3139
見佛菩薩	-11.3144
結上	-11.3148
宏誓	-11.3151
無減	-11.3151
亦隨	-11.3152
仗佛	-11.3153
十日十夜	-11.3155
攝取不捨	-11.3157
悟達之士	-11.3157
見性悟道	-11.3162
指上	-11.3162
聞是經受持者	-11.3163
於一切眾生	-11.3163
住其人前	-11.3164
嫉妬	-11.3165
飯食經行	-11.3165
聞佛法	-11.3166
於今十劫	-11.3169
身口意業	-11.3169
我見是利	-11.3169
八十種好	-11.3171
陰府	-11.3172
能念所念	-11.3172
誅	-11.3172
依正二報	-11.3173
放下身心	-11.3173
毒蛇	-11.3174
曼陀羅	-11.3177
邇	-11.3177
瓊樓	-11.3178
王舍城	-11.3179
普熏	-11.3181
閙	-11.3183
人命無常	-11.3183
欺誑	-11.3183
長蘆	-11.3183
挈	-11.3184
賾	-11.3185
羸	-11.3185
千劫	-11.3185
參知識	-11.3185
贖	-11.3186
六道輪迴	-11.3186
茹	-11.3187
峻	-11.3188
稿	-11.3188
生死根株	-11.3189
凋	-11.3189
囂	-11.319
至一心不亂	-11.3191
法界一相	-11.3193
速疾	-11.3193
波羅	-11.3194
得無生忍巳	-11.3194
駐	-11.3194
斧	-11.3195
篋	-11.3195
夾雜	-11.3196
不啻	-11.3197
哩	-11.3197
汪	-11.3199
無少	-11.32
搆	-11.32
所說法	-11.32
得免	-11.32
四十里	-11.3203
正助	-11.3203
所稱	-11.3203
西湖	-11.3203
傲	-11.3203
三禪	-11.3204
鷹	-11.3204
篤志	-11.3204
怨親	-11.3205
覺性	-11.3206
瞥	-11.3207
安置	-11.3208
歧	-11.3208
功課	-11.3209
聖位	-11.3209
白骨	-11.3213
失其	-11.3215
寶蓋	-11.3223
即菩提	-11.3224
四釋	-11.3224
心作佛	-11.3225
斯之謂	-11.3226
世親	-11.3229
第十六	-11.323
自本心	-11.3231
盛華	-11.3233
宰相	-11.3234
共讚	-11.3234
真偽	-11.3234
相間	-11.3237
專想	-11.3237
生安樂國	-11.3242
出塵	-11.3242
微疾	-11.3244
皆阿羅漢	-11.3246
心堅	-11.3248
心識	-11.3249
乃至成佛	-11.3249
一念相應	-11.3252
難保	-11.3255
五惡	-11.3255
之理也	-11.3259
經營	-11.3259
斷疑	-11.326
至心發願	-11.3263
詳見	-11.3265
中有三	-11.3266
大阿彌陀經	-11.3268
稱南無阿彌陀佛	-11.3269
愛戀	-11.3272
流俗	-11.3272
證成	-11.3272
適意	-11.3272
能消	-11.3274
念不退	-11.3281
簡要	-11.3281
七佛	-11.3283
要術	-11.3285
壇經	-11.3295
非徒	-11.3299
甚於	-11.33
自欺	-11.3305
讚西方	-11.3306
兩目	-11.3308
中三品	-11.3309
光耀	-11.3312
與君	-11.332
之光	-11.3322
一錢	-11.3324
見彌勒	-11.3325
像法	-11.3328
空談	-11.3328
舉念	-11.3329
否則	-11.3332
難聞	-11.3339
未始	-11.3342
不可得而	-11.3342
修淨業人	-11.3343
何可	-11.3346
大家	-11.3348
信願行三	-11.3356
前賢	-11.3359
功德無量	-11.336
若有人	-11.3361
小人	-11.3361
幸而	-11.3361
無虧	-11.3362
歎曰	-11.3362
說無生	-11.3363
金山	-11.3364
持佛名	-11.3366
何物	-11.3367
斯經	-11.3371
定課	-11.3371
供養阿彌陀佛	-11.3371
無福	-11.3384
次公	-11.3387
大願力	-11.3389
諸寶樹	-11.339
下品下生者	-11.339
愛見	-11.3391
何嘗	-11.3392
念他佛	-11.3393
微風	-11.3395
若達	-11.3395
視為	-11.3397
十二時	-11.3403
必不可	-11.3404
極樂世界阿彌陀佛	-11.3407
鼓音王經	-11.3414
見地	-11.3424
劫生死之罪	-11.343
重病	-11.3432
五會念佛	-11.3435
書云	-11.3438
頓圓	-11.3439
知覺	-11.344
五更	-11.344
極樂國中	-11.3443
流行	-11.3452
先德	-11.3453
不加	-11.3456
難矣	-11.3459
書於	-11.3461
不堅	-11.3461
至行者前	-11.3463
▁南無師子	-11.3463
一心敬禮	-11.3463
妙義	-11.3471
『	-11.3475
未終	-11.3475
清淨法身	-11.3477
大集	-11.3478
與前	-11.3479
以佛力故	-11.3482
付囑	-11.3482
千生	-11.3483
大義	-11.3483
青色青光	-11.3485
如母憶時	-11.3486
歡喜踊躍	-11.3486
恒河沙數諸佛	-11.3487
遊行	-11.3487
列名	-11.3489
全修在性	-11.349
歸命懺悔	-11.349
蔑	-11.3491
其土有佛	-11.3491
沮	-11.3491
筏	-11.3492
琉璃地	-11.3492
升沉	-11.3493
一聲阿彌陀佛	-11.3494
自知時至	-11.3495
七重欄楯	-11.3495
契經	-11.3496
三十七品	-11.3498
微妙香潔	-11.3498
現前當來	-11.3499
勸化	-11.3499
掖	-11.3499
出現於世	-11.35
孔雀	-11.35
無去無來	-11.35
清旦	-11.3502
百千萬劫	-11.3502
不離當念	-11.3502
撿	-11.3503
散華樂	-11.3504
滓	-11.3504
不變隨緣	-11.3504
降生	-11.3505
浩浩	-11.3505
年老	-11.3505
咏	-11.3507
甜	-11.3507
壤	-11.3508
深遠	-11.3508
智德	-11.3508
紺	-11.3509
蜂	-11.3509
躁	-11.3509
抗	-11.351
第三階	-11.351
悚	-11.3511
如意足	-11.3511
瓦	-11.3511
起滅	-11.3512
匡	-11.3513
遮那	-11.3513
緇	-11.3513
襲	-11.3513
級	-11.3513
湛寂	-11.3514
枷	-11.3514
偕	-11.3514
雲門	-11.3514
悉能	-11.3515
嫉	-11.3515
擾擾	-11.3516
與大眾	-11.3516
像前	-11.3517
在娑婆	-11.3518
寶瓶	-11.3518
剝	-11.3518
皮袋	-11.3518
今此經	-11.3519
元祐	-11.3519
問訊	-11.3522
丞	-11.3522
懸殊	-11.3523
權巧	-11.3523
凍	-11.3526
莽	-11.3526
其土	-11.3527
之誤	-11.3527
𦘕	-11.3527
殺父	-11.353
盂	-11.3531
切忌	-11.3532
東晉	-11.3533
挑	-11.3533
名常寂光	-11.3534
▁一心敬禮	-11.3534
底沙	-11.3535
光景	-11.3535
築	-11.3536
懷玉	-11.3538
慶喜	-11.3539
全憑	-11.354
畫像	-11.3541
哀憐	-11.3542
閉關	-11.3542
阿含	-11.3542
所逼	-11.3543
連聲	-11.3544
異光	-11.3544
諸眷屬	-11.3545
忻樂	-11.3547
稱讚淨土經	-11.3547
困苦	-11.3548
普被	-11.355
議論	-11.3551
投誠	-11.3552
希求	-11.3556
如須彌	-11.3557
三十七	-11.3559
百味	-11.3561
融會	-11.3561
之氣	-11.3563
無量諸天	-11.3565
道種智	-11.3565
稍有	-11.3567
了然	-11.3567
迴光	-11.3568
多病	-11.3571
不自知	-11.3572
他受用	-11.3575
萬種	-11.3581
洞然	-11.3582
惟其	-11.3588
塵世	-11.3591
諸教	-11.3591
晨昏	-11.3592
願求生	-11.3592
值佛	-11.3594
不懈	-11.3596
何愁	-11.3597
有退轉	-11.3602
難行道	-11.3605
含識	-11.3606
之詞	-11.3606
親見彌陀	-11.3607
且據	-11.3608
人人皆	-11.3612
次約	-11.3616
涉入	-11.3616
白蓮華	-11.3617
平居	-11.3618
流傳	-11.3619
略解	-11.362
持佛號	-11.3624
經義	-11.3625
智光	-11.363
可不信	-11.363
夢覺	-11.3635
淨名經	-11.3636
至七日	-11.364
人倫	-11.364
得見阿彌陀佛	-11.364
全體即	-11.3641
小大	-11.3642
發願文	-11.3645
火焚	-11.3646
殺戒	-11.3651
非獨	-11.3652
罪垢	-11.3654
八字	-11.3657
專精	-11.3658
欲明	-11.3663
立教	-11.3667
憂苦	-11.3675
大涅槃	-11.3678
剎塵	-11.3679
稽首禮	-11.3691
造像	-11.3695
不殊	-11.3697
大會	-11.3705
一寸	-11.3709
極重	-11.3712
觀佛身	-11.3715
因位	-11.3719
西行	-11.3721
愛著	-11.3722
與彌陀	-11.3723
儒書	-11.373
法喻	-11.3731
交參	-11.3738
二死	-11.374
禮敬	-11.3744
命盡	-11.3752
等罪	-11.3753
無力	-11.3753
下卷	-11.3754
不特	-11.3754
自取	-11.3756
宗趣	-11.3757
專求	-11.3759
自疑	-11.3763
須菩提	-11.3764
愚者	-11.3766
還同	-11.3769
精微	-11.3773
無為子	-11.3774
揣	-11.3774
最要	-11.3776
稱名號	-11.3779
十一年	-11.3779
光普照	-11.3788
觀佛三昧經	-11.3789
不測	-11.3789
即自性	-11.3789
舉體	-11.3791
彼國土	-11.3792
終日念佛	-11.3795
五日	-11.3805
壽禪師	-11.3807
解脫生死	-11.3808
誰為	-11.3809
航	-11.381
葢以	-11.3811
滅八十億劫生死之罪	-11.3812
五教	-11.3812
無所障礙	-11.3812
賢護經	-11.3813
六波羅蜜	-11.3818
娑羅	-11.3822
正好念佛若人	-11.3823
皆巳成佛道	-11.3824
若有善男子	-11.3824
十六妙觀	-11.3824
崛	-11.3825
念而無念	-11.3829
憍梵波提	-11.383
千二百五十人俱	-11.383
汝但	-11.3831
天龍八部	-11.3831
祇樹給孤獨園	-11.3831
普現	-11.3831
斂	-11.3832
參學	-11.3833
百千由旬	-11.3833
1	-11.3834
如法華	-11.3835
見聞覺知	-11.3835
正遍知	-11.3835
汩沒	-11.3835
嬰	-11.3835
瓊	-11.3837
奕	-11.3837
如意珠	-11.3837
勒	-11.3838
摩訶迦葉	-11.3838
大都	-11.3838
執空	-11.3838
覷破	-11.3839
挺	-11.3839
門門	-11.384
傑	-11.384
并敘	-11.3841
齡	-11.3842
世間法	-11.3842
熈	-11.3843
販	-11.3843
婬慾	-11.3843
依正色心	-11.3843
睛	-11.3843
誌公	-11.3844
改悔	-11.3845
恒河	-11.3845
塵埃	-11.3845
秘藏	-11.3845
猿	-11.3845
耆婆	-11.3846
祇陀	-11.3847
煥	-11.3847
閻羅王	-11.3848
檻	-11.3848
乩	-11.3848
暫停	-11.3848
充足	-11.3848
暉	-11.3849
梵志	-11.3849
鱗	-11.3852
寶相佛	-11.3852
疫	-11.3852
撒手	-11.3852
商量	-11.3854
矯	-11.3854
征	-11.3855
墳	-11.3855
珠網	-11.3855
檢點	-11.3855
士大夫	-11.3855
忙忙	-11.3856
十稱	-11.3857
宗鏡錄曰	-11.3858
不倦	-11.3859
山川	-11.386
受用身	-11.386
服藥	-11.3861
厭苦	-11.3863
焚燒	-11.3863
莊嚴佛土	-11.3863
靈芝云	-11.3864
蒲團	-11.3864
描	-11.3864
一念念佛	-11.3865
宵	-11.3866
簾	-11.3866
口腹	-11.3866
心即佛	-11.3867
陰陽	-11.3867
狂慧	-11.3867
誑語	-11.3868
愛河	-11.387
計較	-11.3871
島	-11.3872
臨終之時	-11.3876
雙忘	-11.3881
千葉	-11.3881
十二時中	-11.3882
冥冥	-11.3882
妙宗云	-11.3883
萬象	-11.3883
山河	-11.3884
初總標	-11.3885
念阿彌	-11.3885
金錢	-11.3885
萬法唯心	-11.3886
佛滅後	-11.3886
靈光	-11.3886
修三昧	-11.3889
知禮	-11.3891
聖胎	-11.3892
無量光佛	-11.3894
門庭	-11.3896
豈容	-11.3896
世出世	-11.3897
應物	-11.3898
謬解	-11.3902
隨行	-11.3904
寶雲	-11.3904
超生淨土	-11.3904
超勝	-11.3905
更無餘	-11.3907
土可生	-11.3912
十方虗空	-11.3912
得生者	-11.3913
入此門	-11.3914
金剛持	-11.3916
之義也	-11.3916
土木	-11.3918
悲傷	-11.3919
引導	-11.3922
偏執	-11.3922
氣絕	-11.3923
明眼	-11.3927
喚作	-11.3931
淨光佛	-11.3932
天童	-11.3932
其徒	-11.3934
路絕	-11.3937
至心念佛	-11.3938
見十方佛	-11.3938
一世界	-11.3948
釋尊	-11.3954
能證	-11.3954
三聚	-11.3956
吾家	-11.3956
親切	-11.3959
根源	-11.396
佛弟子	-11.3962
隨其所	-11.3963
諸趣	-11.3966
法師云	-11.397
大智度論	-11.3971
成片	-11.3973
得遇	-11.3991
一輪	-11.3994
上品十善	-11.4
娑婆眾生	-11.4006
猶言	-11.4016
不負	-11.4022
大眾俱	-11.4027
淨業正因	-11.4028
分外	-11.4029
文省	-11.403
固有	-11.4034
立願	-11.4035
寺僧	-11.4039
尚且	-11.4039
持經	-11.404
信士	-11.405
不犯	-11.4051
地藏	-11.4051
無障	-11.4053
佛制	-11.4056
最難	-11.406
而致	-11.4063
臨終正念	-11.4066
故我頂禮	-11.4067
只有	-11.4076
常精進	-11.4079
備矣	-11.4079
為助	-11.4082
外國	-11.4084
相冥	-11.4084
山僧	-11.4085
十分	-11.4086
本懷	-11.4086
立義	-11.4092
坐時	-11.4093
初科	-11.4097
十五日	-11.4103
見無量壽佛	-11.4105
求願往生	-11.4106
有多種	-11.4108
證涅槃	-11.411
見聞者	-11.4112
不淨觀	-11.4113
離四句	-11.4116
一段	-11.4118
生其國	-11.412
聞慧	-11.4129
生其中	-11.4132
示寂	-11.4139
妄執	-11.414
此一門	-11.4145
請問	-11.4149
有禪無淨土	-11.4157
宗要	-11.4158
一向專念無量壽佛	-11.4159
尚無惡道之名	-11.4162
不惜	-11.4162
輟	-11.4162
有禪有淨土	-11.4162
憚	-11.4163
絕待圓融	-11.4165
懸繒	-11.4165
周匝	-11.4167
然則一念間斷之心	-11.4167
特留此經	-11.4168
如母憶子	-11.4168
須用	-11.4168
念僧	-11.4169
自甘	-11.417
無有休息	-11.4172
隨其心淨	-11.4172
白鶴孔雀	-11.4172
奉勸世人	-11.4172
蛤	-11.4172
八聖道分	-11.4173
二六時中	-11.4173
無疑也	-11.4173
嗔恚	-11.4173
阿那含	-11.4173
棘	-11.4175
悟門	-11.4175
一相三昧	-11.4175
不垢不淨	-11.4176
復現	-11.4176
戀西大師	-11.4177
不虗棄	-11.4177
黃金地上	-11.4178
空界	-11.4178
蹉	-11.4178
淨境	-11.4179
由此觀之	-11.418
薄拘羅	-11.418
成佛以來	-11.4181
化城	-11.4181
託質	-11.4181
見聞隨喜	-11.4181
諸惡莫作	-11.4182
慈愍	-11.4182
馮	-11.4183
父母師長	-11.4184
生蓮華一朵	-11.4185
大阿彌陀經云	-11.4185
爵	-11.4186
縷	-11.4186
憤	-11.4186
佛滅度後	-11.4187
傅	-11.4187
經無量劫	-11.4187
弼	-11.4188
茫然	-11.4188
雙遮	-11.4188
戒殺放生	-11.4189
決擇	-11.4189
羮	-11.4189
超絕	-11.4189
綸	-11.419
譌	-11.4191
闉	-11.4192
鵒	-11.4193
敦	-11.4193
倐	-11.4193
訟	-11.4193
慎之	-11.4194
稚	-11.4194
裔	-11.4195
勑	-11.4195
嫁	-11.4195
瓠	-11.4196
溼	-11.4196
首楞嚴經	-11.4196
街	-11.4197
冲	-11.4197
雜染	-11.4198
副	-11.4198
艱難	-11.4198
叵得	-11.4199
是則名為	-11.4199
婚	-11.42
淹	-11.4201
視聽	-11.4201
拈香	-11.4202
淋	-11.4202
微玅	-11.4203
掩關	-11.4203
入三昧	-11.4204
雍	-11.4205
迅速	-11.4206
悽	-11.4207
瑤	-11.4207
頴	-11.4211
畢命	-11.4211
窮源	-11.4215
罪根	-11.4215
尖	-11.4216
正業	-11.4217
此二種	-11.4218
圈	-11.4221
供養三寶	-11.4221
往生正因	-11.4221
莫測	-11.4221
念自佛	-11.4225
數十年	-11.4226
丹青	-11.4226
變易生死	-11.4227
年八十	-11.4227
圓超	-11.4228
蓮池會	-11.4233
上首	-11.4234
齋僧	-11.4235
十地菩薩	-11.4237
歡喜信樂	-11.4239
錢塘人	-11.4239
憶想	-11.424
始自	-11.4241
乘船	-11.4242
釋論云	-11.4243
五六	-11.4246
朱子	-11.425
欲令眾生	-11.4251
彌陀聖眾	-11.4251
一生成佛	-11.4252
所障	-11.4255
安詳	-11.4256
王臣	-11.4256
全收	-11.4257
蘭若	-11.4262
於五濁	-11.4279
破見思	-11.4281
患難	-11.4282
遂成	-11.4283
求解脫	-11.4284
萬萬	-11.4285
六齋	-11.4288
邪心	-11.429
究其	-11.4294
香潔	-11.43
論文	-11.4302
稱佛名故	-11.4302
海內	-11.4303
改過	-11.4306
儒釋	-11.4307
處世	-11.431
生西	-11.4313
具足戒	-11.4314
經呪	-11.4316
舉足	-11.4317
龍舒曰	-11.432
能使	-11.432
諸佛法身	-11.4324
經年	-11.4332
寶塔	-11.4333
本朝	-11.4338
設有	-11.434
難遇	-11.434
一切時中	-11.4341
心即是佛	-11.4341
博通	-11.4348
萬境	-11.4348
來往	-11.4349
廣略	-11.4351
行念佛三昧	-11.4352
所須	-11.4354
事法界	-11.4358
智斷	-11.4358
各分	-11.4363
若今生	-11.4363
悟後	-11.4365
及餘	-11.4369
為日課	-11.4369
再來	-11.4372
值遇	-11.4372
寶藏佛	-11.4376
位在	-11.4377
歷然	-11.4378
所解	-11.4381
▁南無德	-11.4389
師僧	-11.439
結業	-11.4394
下至十念	-11.4395
十里	-11.4399
利益眾生	-11.44
墮三途	-11.44
百里	-11.4401
各異	-11.4403
水流	-11.4405
網羅	-11.4409
殺盜婬	-11.4411
并州	-11.4417
喻顯	-11.4419
生死輪迴	-11.4424
必具	-11.443
恐人	-11.4431
修諸善	-11.4432
蓮宮	-11.4439
可證	-11.4448
梵本	-11.445
乾隆	-11.4457
同生安養	-11.4463
顯益	-11.4464
故名阿彌陀	-11.4469
不逢	-11.4472
心懷	-11.448
受持讀誦	-11.448
一切境界	-11.4481
得天眼	-11.4486
寶國	-11.4487
須要	-11.4487
得無生	-11.4491
設我成佛	-11.4494
奉持	-11.4497
此頌	-11.4502
達本	-11.4511
。」』	-11.4512
妙藥	-11.4512
不遷	-11.4517
三昧現前	-11.4519
子若憶母	-11.4519
及聞諸佛名者	-11.4519
鶖鷺	-11.452
猶可	-11.4521
隨意即見	-11.4521
金銀琉璃	-11.4522
專稱名號	-11.4522
佑	-11.4522
它	-11.4523
七日七夜	-11.4523
宗鏡錄	-11.4524
宿王佛	-11.4525
波斯匿王	-11.4525
晨朝十念	-11.4527
臨欲命終	-11.4528
奉持齋戒	-11.4528
踴躍	-11.4529
何言可信	-11.4531
婆沙論	-11.4531
使更相勸化	-11.4532
轉以化人	-11.4532
迦留陀夷	-11.4533
一日乃至七日	-11.4534
五痛五燒	-11.4534
不可具說	-11.4534
逗機	-11.4535
栖	-11.4535
需	-11.4536
釋迦文佛	-11.4536
所宜	-11.4537
所執	-11.4537
世間之孝	-11.4538
聆	-11.4538
唵	-11.4539
骨髓	-11.454
譚	-11.454
鎔	-11.454
如虛空	-11.4541
蠶	-11.4541
籌量	-11.4541
羯磨	-11.4541
珂	-11.4541
恤	-11.4542
言佛便周	-11.4542
呻	-11.4542
螢	-11.4542
嬈	-11.4543
一息不來	-11.4543
黑暗	-11.4543
如是功德	-11.4543
瞿	-11.4544
咄	-11.4546
窠	-11.4546
善哉善哉	-11.4546
匿	-11.4546
圓中鈔	-11.4546
如上所說	-11.4547
錯認	-11.4548
鶯	-11.4549
心外無佛	-11.455
筌	-11.4551
盞	-11.4552
冥府	-11.4552
鼻孔	-11.4552
飭	-11.4553
韶	-11.4553
房宿	-11.4554
餐	-11.4554
有限量	-11.4555
獄卒	-11.4555
浸	-11.4556
優婆塞	-11.4556
岐路	-11.4556
伽藍	-11.4557
縮	-11.4557
菡萏	-11.4557
端坐而逝	-11.4558
君臣	-11.4558
袍	-11.4558
和雅	-11.4558
菓	-11.4559
敗壞	-11.4559
弓	-11.4559
恣意	-11.4559
穆	-11.4559
鏤	-11.456
理智	-11.456
所論	-11.456
儘	-11.4561
生死心切	-11.4562
隨方	-11.4562
脚跟	-11.4562
壑	-11.4562
隊	-11.4563
疴	-11.4564
崩	-11.4564
獲福	-11.4564
拖	-11.4565
盟	-11.4565
牲	-11.4566
教令念佛	-11.4567
分段身	-11.4568
洞達	-11.4568
今阿彌陀佛是	-11.4568
遜	-11.4569
不留	-11.4573
牛頭	-11.4574
戀公	-11.4574
欣樂	-11.4574
特為	-11.4574
廓然	-11.4577
亦有亦無	-11.4577
以何為	-11.4579
眾僧	-11.458
末世眾生	-11.4582
當自念	-11.4586
欲往	-11.4589
想像	-11.4601
之鄉	-11.4601
火聚	-11.4602
歸西	-11.4603
散花	-11.4605
凝然	-11.4606
禪那	-11.4607
宿習	-11.4607
高僧傳	-11.4607
懺罪	-11.4608
風雨	-11.4609
十方佛土	-11.461
如盲	-11.4611
邪惡	-11.4611
生無生	-11.4617
少善根	-11.4618
赤白	-11.4619
眾生迷	-11.462
已後	-11.4621
之意也	-11.4625
慈照	-11.4626
原夫	-11.4627
妙土	-11.4628
上品往生	-11.463
從今日	-11.4635
示疾	-11.4635
多福德	-11.4636
勝異	-11.4639
淨土十疑論	-11.4641
輕愛	-11.4645
普應	-11.4647
念佛而化	-11.4648
當坐道場	-11.4653
此之謂	-11.4658
半偈	-11.4664
生靈	-11.4664
情見	-11.4665
致使	-11.4665
若能如是	-11.4668
能忍	-11.4669
欲顯	-11.4671
無法可	-11.468
慧持	-11.4681
懺悔發願	-11.4682
雜想	-11.4682
著眼	-11.4683
天主	-11.4684
此等眾生	-11.4688
諸佛讚	-11.4689
豈止	-11.4691
在當人	-11.4697
凡欲	-11.4698
勿令	-11.4704
入道之	-11.4704
若何為	-11.4705
不可忽	-11.4706
不缺	-11.4713
三科	-11.4713
釋子	-11.4714
遇緣	-11.4715
未開	-11.4717
大集經	-11.4722
且道	-11.4726
化現	-11.4727
前來	-11.4732
長久	-11.4735
尊像	-11.4736
念佛之法	-11.474
入室	-11.4742
進道	-11.4742
彼阿彌陀佛	-11.4746
垢淨	-11.4759
文證	-11.476
諸三昧	-11.4762
始教	-11.4765
忽聞	-11.4765
堂中	-11.4769
化佛菩薩	-11.4773
斷德	-11.4775
清明	-11.4777
顯發	-11.478
殺人	-11.4782
先師	-11.4784
成辦	-11.4789
被機	-11.479
慧性	-11.479
覺了	-11.4791
誦佛名	-11.4793
未達	-11.4793
好惡	-11.4796
十使	-11.4802
至等覺	-11.4803
直往	-11.4804
幻身	-11.4805
五義	-11.4805
上句	-11.481
八歲	-11.4813
攷	-11.4813
遠祖	-11.4813
惡果	-11.4814
第十五	-11.4816
便知	-11.4818
情愛	-11.4822
傳授	-11.4825
五眼	-11.4828
珠光	-11.4837
開解	-11.4838
未有不	-11.4839
化儀	-11.4844
始從	-11.4852
下愚	-11.4862
詩曰	-11.487
甚至	-11.487
及第	-11.4872
空不空	-11.4877
八十隨形好	-11.4879
諸上善人俱會一處	-11.4881
五百侍女	-11.4881
十即十生	-11.4884
寂而常照	-11.4884
善趣	-11.4886
十萬億佛土	-11.4888
無禪有淨土	-11.4888
及其人民	-11.4888
若不然者	-11.4889
頓開佛慧	-11.4889
如彈指頃	-11.489
般舟經	-11.4891
知歸子	-11.4891
大限到來	-11.4892
徧計	-11.4892
親蒙授記	-11.4894
芝	-11.4894
因陀羅網	-11.4894
何罪	-11.4895
不了佛智	-11.4895
生蓮華中	-11.4896
斯道	-11.4896
同時俱作	-11.4897
怜	-11.4897
法智大師	-11.4898
餓	-11.4898
五十三佛	-11.4899
都攝六根	-11.49
淨土資糧全集	-11.4901
並非	-11.4902
開顯	-11.4902
吾儒	-11.4902
晨朝	-11.4903
砌	-11.4903
調御	-11.4904
無生無滅	-11.4904
淨土十要	-11.4904
勸修淨土	-11.4904
方便門	-11.4905
滑	-11.4906
南無阿彌陀	-11.4906
終不作佛	-11.4906
天性相關	-11.4906
萬善同歸集	-11.4907
令心不散	-11.4909
所以然者	-11.4909
芬	-11.4909
正命	-11.4909
跛	-11.4909
位次	-11.4909
妙吉祥	-11.4909
痊	-11.491
三昧難成	-11.491
初徵	-11.491
兒孫	-11.4911
抖擻	-11.4911
蹤	-11.4911
清凉	-11.4912
槃	-11.4912
徧法界諸佛	-11.4912
周利槃陀伽	-11.4912
我剎中人	-11.4912
離婆多	-11.4912
不受後有	-11.4913
若然者	-11.4914
百川	-11.4914
榜樣	-11.4915
蚤	-11.4915
粹	-11.4915
亨	-11.4916
渡河	-11.4916
惹	-11.4917
神遊淨土	-11.4919
灌頂	-11.492
茫	-11.492
價	-11.4921
侍女	-11.4922
消災	-11.4922
楹	-11.4923
法幢佛	-11.4923
愛惜	-11.4924
西方世界	-11.4924
饒益眾生	-11.4924
詆	-11.4925
釜	-11.4925
銜	-11.4926
𢆯	-11.4926
蠢	-11.4926
兀	-11.4926
靈禽	-11.4927
彥弼	-11.4927
紹興	-11.4927
永嘉云	-11.4928
眉間	-11.4929
胥	-11.493
董	-11.493
康熈	-11.493
大有功	-11.4931
遺民	-11.4931
修進	-11.4932
濵	-11.4933
以佛為	-11.4933
殺賊	-11.4933
咸豐	-11.4933
諧	-11.4933
縫	-11.4934
葱	-11.4937
低頭	-11.4938
染污	-11.4938
缾	-11.4938
出苦輪	-11.4939
撇	-11.4939
一向專念	-11.494
欲生彼國者	-11.494
恒河沙等	-11.4941
堅強	-11.4941
問津	-11.4942
娑婆之苦	-11.4942
草堂	-11.4943
龍女	-11.4944
可成	-11.4948
莫管	-11.4948
第三階人	-11.495
全賴	-11.495
貪求	-11.496
十二類	-11.496
台州	-11.4962
水陸	-11.4962
淨業弟子	-11.4964
亦復然	-11.4964
得疾	-11.4965
無不具足	-11.4968
權乘	-11.497
遣使	-11.4972
一串	-11.4973
香光佛	-11.4974
大乘經典	-11.4974
清淨佛土	-11.4975
五辛	-11.4976
只恐	-11.4976
金寶	-11.4978
生盲	-11.4979
指陳	-11.4983
錯過	-11.4985
般若德	-11.499
金仙	-11.499
智海	-11.4993
下示	-11.4993
若當生	-11.4994
道綽	-11.4995
妙音佛	-11.5001
盡虗空界	-11.5004
宰殺	-11.5005
大本三輩	-11.5009
不散亂	-11.501
月光	-11.5011
除却	-11.5014
迷昧	-11.5014
所述	-11.5016
有去來	-11.5021
險道	-11.5022
五衰	-11.5022
良方	-11.5026
誠哉	-11.5026
誦法華	-11.5029
生蓮	-11.5034
無諍	-11.5036
看他	-11.5041
餘方	-11.5043
業所感	-11.5046
為君子	-11.5046
字句	-11.5052
四弘	-11.5057
得須陀洹	-11.506
尚何	-11.5061
但念彌陀	-11.5062
兩頭	-11.5071
可傷	-11.5072
理趣	-11.5074
極樂莊嚴	-11.5076
佛國土	-11.5076
龍舒文	-11.5078
從容	-11.508
引文	-11.508
誠可	-11.5081
無間修	-11.5087
思歸	-11.5088
冥加	-11.5089
靜坐	-11.5094
塵沙劫	-11.5097
聞已	-11.5098
食巳	-11.5101
風流	-11.5102
周圓	-11.5106
動搖	-11.5106
之暇	-11.5109
夫妻	-11.5111
專切	-11.5114
普見	-11.5119
餘門	-11.5123
箇字	-11.5124
等閒	-11.5127
念一聲	-11.5132
漸修	-11.5134
救拔	-11.5153
穢惡	-11.5153
忽遇	-11.5158
諸部	-11.5169
利樂	-11.5175
分攝	-11.5175
蒙光	-11.5176
諸有情	-11.5177
家業	-11.5177
一番	-11.5182
理法界	-11.519
以修淨土	-11.5192
大事因緣	-11.5192
指歸淨土	-11.5197
未來諸佛	-11.5207
經劫	-11.5209
依此法	-11.5212
信佛語	-11.5213
志求	-11.5214
果滿	-11.5215
聞空中	-11.522
無厭	-11.5237
度一切眾生	-11.5242
專修淨土	-11.5249
陰魔	-11.525
盡無餘	-11.5251
歸依佛	-11.5251
至心懺悔	-11.5254
臨行	-11.5255
何幸	-11.5256
大光佛	-11.5261
可憑	-11.5261
諸佛如來是法界身	-11.5263
必不能度	-11.5268
叵	-11.5269
桃	-11.5269
無量諸天大眾俱	-11.5269
思之思之	-11.527
□□	-11.527
持法佛	-11.5271
那羅延	-11.5274
佛告韋提希	-11.5275
折攝二門	-11.5275
上有樓閣	-11.5276
猪羊	-11.5278
於苦海	-11.5278
誰人	-11.5279
稱我名號	-11.5279
以是義故	-11.5279
常作天樂	-11.5279
從是西方	-11.528
至簡至易	-11.528
彼佛有無量無邊聲聞弟子	-11.5281
所修善根	-11.5282
至心歸命阿彌陀佛	-11.5282
因緣所生法	-11.5282
輻	-11.5283
不緩不急	-11.5283
一元曰	-11.5283
來相報	-11.5284
汩	-11.5284
須彌光佛	-11.5285
當發無上菩提之心	-11.5285
屎尿	-11.5285
到頭	-11.5286
經道滅盡	-11.5286
無所畏	-11.5286
遍一切處	-11.5287
兜率天宮	-11.5287
邪三毒	-11.5287
回入娑婆	-11.5287
非淺	-11.5287
五分法身	-11.5288
久久純熟	-11.5289
無有間斷	-11.529
磁石	-11.5291
千經萬論	-11.5292
映蔽	-11.5293
絕百非	-11.5293
見者聞者	-11.5293
高宗	-11.5294
天衣懷禪師	-11.5294
導歸極樂	-11.5295
娛	-11.5295
如何得	-11.5295
蠡	-11.5296
拭	-11.5297
咬	-11.5297
者多矣	-11.5299
惕	-11.5299
鬱	-11.5299
無明未盡	-11.53
咨	-11.5301
豁達	-11.5301
膠	-11.5301
稷	-11.5301
西方公據	-11.5302
瀾	-11.5302
大矣哉	-11.5303
貯	-11.5303
鈎	-11.5304
抉	-11.5304
赤珠	-11.5304
仁王	-11.5305
撲	-11.5305
剩	-11.5305
名句文	-11.5306
顆	-11.5306
糊	-11.5306
塚	-11.5307
龐	-11.5307
躋	-11.5307
領納	-11.5307
檀越	-11.5308
聳	-11.5308
桂	-11.5309
邵	-11.5309
生生世世	-11.5309
虔誠	-11.5309
念念不忘	-11.531
楞	-11.531
瑟	-11.531
相吞	-11.531
佛來迎我	-11.5311
夢寐	-11.5311
謙下	-11.5311
溟	-11.5311
正法樂正法樂正法能超出世間	-11.5312
攝取眾生	-11.5312
郭	-11.5312
啖	-11.5313
姿	-11.5313
轟	-11.5313
遏	-11.5313
膺	-11.5313
涎	-11.5314
宛爾	-11.5314
六欲天	-11.5315
煞	-11.5315
壬	-11.5315
化緣	-11.5315
痛䇿	-11.5315
牛羊	-11.5316
殊特	-11.5316
掘	-11.5316
即空假中	-11.5317
有疾	-11.5317
厨	-11.5317
黃昏	-11.5319
滋味	-11.5319
赦	-11.5321
斃	-11.5322
受眾苦	-11.5322
清虗	-11.5322
叟	-11.5326
淵源	-11.5327
緣覺聲聞	-11.5328
首題	-11.5329
隱隱	-11.533
向前	-11.5331
儒教	-11.5332
眾生障重	-11.5334
樹網	-11.5335
佛與菩薩	-11.5336
入正定聚	-11.5337
池內	-11.5337
西齋	-11.5341
不覺不知	-11.5343
聲聞弟子	-11.5343
連持	-11.5344
大悲呪	-11.5345
道場樹	-11.5347
諸波羅蜜	-11.5347
思想	-11.5347
西方有佛	-11.5347
羣機	-11.5349
生佛國	-11.5349
還鄉	-11.5352
智慧第一	-11.5353
諸書	-11.5353
寶剎	-11.5355
修萬行	-11.536
上三品	-11.5361
結顯	-11.5364
親友	-11.5364
捨穢	-11.5373
必生彼國	-11.5376
七地	-11.5377
供具	-11.5378
▁南無華	-11.538
多寡	-11.5382
偶然	-11.5383
互具	-11.5385
慧永	-11.5385
心佛眾生	-11.539
一件	-11.539
過患	-11.5394
名聞佛	-11.5397
道珍	-11.5397
眼根	-11.5398
大乘菩薩	-11.5398
申明	-11.54
寶殿	-11.5402
不信淨土	-11.5406
葢由	-11.5407
十五年	-11.5408
悲夫	-11.5411
徧界	-11.5411
原非	-11.5412
妙智	-11.5412
花嚴	-11.5412
至尊	-11.5413
一大事因緣	-11.5419
三總結	-11.5427
同居穢	-11.5427
契理	-11.5429
於其間	-11.5432
何礙	-11.5435
名無量壽	-11.5443
擇法	-11.5445
地居	-11.5446
赴機	-11.5447
雜業	-11.5449
稱量	-11.5451
如經說	-11.5454
尚然	-11.5455
文殊菩薩	-11.5457
無數化佛	-11.5457
金池	-11.5459
勸請	-11.547
覺路	-11.5476
自警	-11.5476
為上首	-11.5478
本有之	-11.5482
寶池中	-11.5491
大明佛	-11.5491
因茲	-11.5494
小千	-11.5495
參差	-11.5495
念佛誦經	-11.5503
香風	-11.5504
經旨	-11.551
長者子	-11.5511
授與	-11.5512
神通力	-11.5517
年少	-11.5519
一節	-11.5522
妄情	-11.5537
略引	-11.5538
方等經	-11.5539
無去來	-11.5545
便得往生	-11.5547
時機	-11.5547
諦理	-11.5547
心意識	-11.5553
唱言	-11.5559
舍此	-11.5561
而死者	-11.5568
何慮	-11.5576
體達	-11.5596
惡知識	-11.5607
現前一念心性	-11.5607
初示	-11.5608
二別明	-11.5609
已去	-11.5611
綽禪師	-11.5612
要語	-11.5619
魔外	-11.5623
造化	-11.5628
此三種	-11.563
光明相好	-11.563
光光	-11.5636
讀經	-11.5641
於一念頃	-11.5642
信行願	-11.5642
讀佛	-11.5644
發無上菩提之心	-11.5658
二別釋	-11.5658
鼓音聲王	-11.5659
是故號為阿彌陀	-11.5659
任持	-11.5661
四料簡	-11.5665
其中多有一生補處	-11.5666
無量幢佛	-11.5669
阿逸多	-11.567
若二日	-11.5671
種諸善根	-11.5671
當修三福	-11.5671
無量精進佛	-11.5671
須彌燈佛	-11.5672
照而常寂	-11.5672
滿菩提願	-11.5672
香上佛	-11.5672
彼諸佛等	-11.5674
放不下	-11.5675
無量相佛	-11.5675
微風吹動	-11.5675
阿彌陀佛與諸聖眾現在其前	-11.5676
錢塘	-11.5676
離即離非	-11.5676
十二分教	-11.5677
還到本國	-11.5677
最勝音佛	-11.5677
四邊階道	-11.5677
大須彌佛	-11.5677
慞惶	-11.5677
心觀為宗	-11.5678
一日至七日	-11.5678
諂	-11.5679
而作是言	-11.5679
恐不得生	-11.568
彼土何故名為極樂	-11.568
清淨無染	-11.568
一剎那頃	-11.5681
名曰極樂	-11.5682
清淨大海眾菩薩	-11.5682
寔	-11.5682
四十八大願	-11.5683
不雜餘	-11.5683
四維上下	-11.5683
圓證三不退	-11.5684
敏仲	-11.5684
幔	-11.5684
南方世界	-11.5685
怡	-11.5687
預辦	-11.5687
早晨	-11.5688
鍼	-11.5688
而作沙門	-11.5689
不得是願	-11.5689
禳	-11.569
蛾	-11.5692
於蓮華中	-11.5692
媚	-11.5692
漂流	-11.5692
優游	-11.5693
出微妙音	-11.5694
即一而三	-11.5695
功勳	-11.5695
良醫	-11.5696
瞎	-11.5697
升沈	-11.5697
翔	-11.5697
擁護	-11.5698
脅	-11.5699
梗	-11.5699
南閻浮提	-11.5699
四正勤	-11.5699
當知此人	-11.5699
兔角	-11.5699
朴	-11.57
右手	-11.57
阿鼻獄	-11.5701
癸	-11.5701
稠	-11.5701
發隱曰	-11.5701
英雄	-11.5702
疏中分	-11.5703
繭	-11.5703
剛強	-11.5703
漸頓	-11.5703
耨	-11.5703
悠	-11.5704
六十萬億	-11.5705
孺	-11.5705
晴	-11.5706
滔滔	-11.5706
貧乏	-11.5707
侈	-11.5707
妻兒	-11.5707
至於今日	-11.5707
無量劫前	-11.5707
軸	-11.5708
鴛鴦	-11.5708
這箇	-11.5708
末代	-11.5709
發道心	-11.571
渾濁	-11.571
八正道	-11.571
堦	-11.571
虎溪	-11.571
青黃	-11.5711
騐	-11.5711
牛呞	-11.5712
戮	-11.5712
究竟成佛	-11.5713
咽	-11.5713
悲泣	-11.5714
財施	-11.5714
阬	-11.5715
衣食自然	-11.5715
窒	-11.5716
孝順	-11.5717
交羅	-11.5717
休歇	-11.5718
密密	-11.5719
孽	-11.5719
世界悉檀	-11.572
長跪	-11.572
袖	-11.5721
不得解脫	-11.5721
且約	-11.5722
淺薄	-11.5722
錐	-11.5723
於彼國土	-11.5725
態	-11.5727
三無差別	-11.5728
正值	-11.5728
如須彌山佛	-11.573
感通	-11.573
自性清淨	-11.573
搖動	-11.5732
天淵	-11.5733
十六觀門	-11.5733
一失人身	-11.5733
祖父	-11.5734
五字	-11.5735
決生淨土	-11.5735
四十九	-11.5735
少頃	-11.5735
無量行願	-11.5737
七珍	-11.5737
短長	-11.5739
天竺國	-11.5741
玅宗	-11.5742
國界	-11.5742
他鄉	-11.5742
度脫眾生	-11.5746
淨名云	-11.5748
證無生法忍	-11.5757
半月	-11.5757
義不成	-11.5758
苦辛	-11.5759
懺悔已	-11.5759
結果	-11.5759
七日持名	-11.5759
刀山	-11.576
一筆勾	-11.576
無恙	-11.5762
廣博	-11.5763
妾云	-11.5765
苦輪	-11.5765
〡	-11.5768
宿生	-11.5768
無疑矣	-11.5768
中央	-11.5772
放捨	-11.5776
勤求	-11.5781
無礙智	-11.5783
演出	-11.5785
覺海	-11.5785
惟心土	-11.5788
大小乘	-11.5796
新疏云	-11.5796
童真	-11.5797
嘆曰	-11.5799
告眾	-11.5799
觸境	-11.5801
法性土	-11.5802
知一切法	-11.5804
乾道	-11.5811
總論	-11.5826
可期	-11.5828
悟無生忍	-11.5835
真源	-11.5842
戒品	-11.5844
故稱為	-11.5846
從茲	-11.5862
發願回向	-11.5863
趣舉	-11.5869
空假中	-11.5872
蓮池禪師	-11.5877
懷疑	-11.5884
註云	-11.5888
宜各	-11.5894
畢世	-11.5894
不能救	-11.5901
須陀洹	-11.5904
羅什	-11.5906
千億	-11.5907
墜墮	-11.5908
祖師云	-11.5911
上士	-11.5913
華梵	-11.5917
龍王	-11.5923
西土	-11.5928
生死凡夫	-11.5929
文殊般若	-11.593
苦苦	-11.5937
安居	-11.5937
風動	-11.5939
自負	-11.5947
下罰	-11.5948
聲聞辟支	-11.5955
惡鬼	-11.5955
坐斷	-11.5958
天台十疑論	-11.5967
高山	-11.5977
此之三	-11.598
他受用身	-11.5984
出期	-11.5985
侍佛	-11.5994
所食	-11.5994
客曰	-11.5999
過去未來	-11.6
中之一	-11.6016
辟支	-11.602
畏死	-11.6029
陀羅尼經	-11.6043
方丈	-11.605
無滯	-11.6056
諸善男子	-11.6063
十方國土	-11.6065
處當遠	-11.6072
我來迎汝	-11.6074
源流	-11.6075
行於世	-11.6078
串	-11.608
法界圓融不思議體	-11.608
失其正念	-11.6081
滯於	-11.6083
若四日	-11.6086
皺	-11.6087
而常修淨土	-11.6088
生諸佛家	-11.6088
等無有異	-11.6089
白色白光	-11.6091
見金蓮華	-11.6091
佛說此經巳	-11.6092
行世仁慈	-11.6092
須彌相佛	-11.6092
名聞光佛	-11.6093
作是觀者	-11.6093
聞是音者	-11.6094
自古及今	-11.6095
善知識法界眾生	-11.6095
佛及聖眾	-11.6095
蠕動	-11.6097
欲令法音宣流	-11.6097
以惡業故	-11.6097
念佛念法念僧	-11.6098
何愁不開悟	-11.6098
挍	-11.6099
儼	-11.6099
霅川	-11.6099
現未互在	-11.6099
竿	-11.6101
供養他方十萬億佛	-11.6101
膩	-11.6102
犁	-11.6103
願佛慈悲	-11.6103
蘆	-11.6104
功不唐捐	-11.6105
羣疑論	-11.6105
菩	-11.6105
四大分離	-11.6105
摩訶劫賓那	-11.6105
所觀之境	-11.6106
叉手	-11.6106
饑寒	-11.6106
即空即假即中	-11.6106
何者為	-11.6106
飛錫	-11.6106
境觀相吞	-11.6107
打成一片	-11.6107
决	-11.6109
剏	-11.6109
橫豎	-11.6109
濂	-11.611
火車相現	-11.611
祛	-11.611
張善和	-11.611
有在地	-11.6111
生滅門	-11.6111
長生不死	-11.6111
至心迴向	-11.6111
豁然大悟	-11.6111
無來無去	-11.6112
第一義悉檀	-11.6112
彫	-11.6112
燃燈	-11.6113
揀擇	-11.6113
求不得苦	-11.6113
曹溪	-11.6113
二隨釋	-11.6113
咫尺	-11.6113
適悅	-11.6114
阿彌利哆	-11.6114
貧富	-11.6114
三心圓發	-11.6114
像季	-11.6114
食噉	-11.6114
漿	-11.6115
讎	-11.6115
慣	-11.6115
敬然臂香四十八炷	-11.6115
坊	-11.6116
若五日	-11.6116
挾	-11.6116
欣慕	-11.6117
蔬	-11.6117
煎熬	-11.6117
伺	-11.6118
自勉	-11.6118
心田	-11.6118
舉一即三	-11.6118
不可說不可說	-11.6118
方便有餘	-11.6119
夜叉	-11.6119
檀那	-11.612
竄	-11.612
瓣	-11.612
臟	-11.612
劍樹	-11.612
驕	-11.612
相續不斷	-11.6121
倐忽	-11.6122
三覩聖相	-11.6122
邱	-11.6122
箸	-11.6122
羈	-11.6122
墮無間獄	-11.6123
熱鐵	-11.6123
迅	-11.6123
諳	-11.6124
捺	-11.6124
閨	-11.6124
舅	-11.6124
暨	-11.6124
虛空界	-11.6124
大智律師	-11.6124
泰山	-11.6126
增上慢	-11.6126
造次	-11.6127
生佛不二	-11.6127
懲	-11.6128
摭	-11.6129
奸	-11.6129
澹	-11.6129
斛	-11.6129
漆	-11.6129
司士	-11.6129
寶鑑	-11.6129
魅	-11.613
柏	-11.6131
事事無礙法界	-11.6131
喫飯	-11.6131
鑊	-11.6132
蟻子	-11.6132
寶山	-11.6132
恐懼	-11.6132
侮	-11.6132
漱	-11.6134
黃龍	-11.6135
再拜	-11.6135
雲栖	-11.6135
涕淚	-11.6136
驀	-11.6136
龍宮	-11.6137
寰	-11.6137
𢹂	-11.6137
皆得不退	-11.6137
妙宗鈔云	-11.6138
騎	-11.614
同生極樂國	-11.614
暫忘	-11.614
幽冥	-11.6141
只緣	-11.6142
勸勉	-11.6142
臨濟	-11.6143
有明文	-11.6143
八尺	-11.6144
舍那	-11.6144
輔正曰	-11.6144
近代	-11.6149
琅	-11.6149
佛言不信	-11.6151
綜	-11.6152
遍十方	-11.6153
遲疑	-11.6154
錢唐	-11.6155
揚州	-11.6157
大品經	-11.616
度世	-11.616
墮三塗	-11.616
無益念佛好	-11.6162
四天王	-11.6162
不失人身	-11.6162
以此善根	-11.6163
淨侶	-11.6164
六賊	-11.6166
可憐憫	-11.6167
徹悟禪師	-11.6171
日生佛	-11.6174
惡習	-11.6174
上三土	-11.6174
千聖	-11.6178
吾輩	-11.6179
一切恭敬	-11.6182
十二部	-11.6184
西方七寶池中	-11.6185
長辭	-11.6189
截斷	-11.6191
夢裏	-11.6191
此土修行	-11.6193
到底	-11.6193
身相光明	-11.6196
助緣	-11.6197
所談	-11.6198
普度眾生	-11.62
飲光	-11.6202
海會	-11.6204
自揣	-11.6208
發露	-11.621
橫論	-11.6214
除五逆	-11.6218
外物	-11.622
睡時	-11.6231
亂想	-11.6232
偏真	-11.6235
彼佛名號	-11.6242
始末	-11.6243
以信為	-11.6247
千載	-11.6253
大願王	-11.6255
無上果	-11.6262
行脚	-11.6278
別顯	-11.6279
日誦	-11.6288
闢佛	-11.6291
幾多	-11.6292
全書	-11.6294
兩種	-11.6297
見思惑	-11.6304
次序	-11.6305
周子	-11.6306
可憫	-11.6307
宗鏡	-11.6324
皆願往	-11.6326
果海	-11.6331
東流	-11.6332
要期	-11.6334
十三年	-11.6335
捨報	-11.6338
臘月	-11.6343
現量	-11.6344
生彼剎	-11.6347
有七寶池	-11.6349
報滿	-11.6353
稱讚淨土	-11.6354
苦域	-11.6368
八風	-11.6376
彌陀接引	-11.6376
年間	-11.6377
獨坐	-11.6384
釋經文	-11.642
必待	-11.6432
心不動	-11.644
阿難白佛	-11.6443
愚夫	-11.645
失人身	-11.6453
廣談	-11.648
發誓願	-11.6484
覺察	-11.6491
一切菩薩摩訶薩	-11.6502
何等為三	-11.6513
厭惡女身	-11.6515
三發言勸信	-11.6515
二現相表真	-11.6516
軌則	-11.6517
彼佛光明無量	-11.6518
寄庫	-11.652
悲華經	-11.6522
受無量苦	-11.6522
即聞佛乘	-11.6522
娑羅樹王佛	-11.6524
多見世人	-11.6524
孝順父母	-11.6525
及諸佛所說	-11.6525
善財童子	-11.6525
池底純以金沙布地	-11.6526
無量無邊阿僧祇劫	-11.6526
見一切義佛	-11.6526
乘佛願力	-11.6527
出過三界	-11.6531
不定聚	-11.6531
上方世界	-11.6532
非是算數之所能知	-11.6532
自作教他	-11.6532
祭祀	-11.6532
發大菩提心	-11.6533
禽畜	-11.6533
豈復更有	-11.6533
塵點劫	-11.6534
妻妾	-11.6534
出和雅音	-11.6534
捨穢取淨	-11.6534
實報莊嚴土	-11.6534
劣弱	-11.6536
若人散亂心	-11.6536
豎窮橫徧	-11.6536
壹	-11.6536
故說此言	-11.6537
北方世界	-11.6538
無邊剎海	-11.654
過現未來	-11.654
杲日	-11.6541
在家出家	-11.6541
正徧知	-11.6542
毘盧遮那	-11.6542
漢吳二譯	-11.6542
粲	-11.6543
簪	-11.6544
生諸佛前	-11.6544
肌	-11.6544
阿㝹樓䭾	-11.6544
摩訶迦旃延	-11.6544
古聖	-11.6545
淨飯王	-11.6545
碩	-11.6547
蓮胞	-11.6547
岑	-11.6547
根有利鈍	-11.6547
棟	-11.6548
誚	-11.6548
鷲	-11.6548
旃	-11.6548
以名召德	-11.6549
畢竟得生	-11.6549
泥洹之道	-11.6549
皆有佛性	-11.655
實報無障礙土	-11.655
尸羅	-11.655
葦	-11.655
睡夢中	-11.6551
撻	-11.6552
在母胎	-11.6552
厚薄	-11.6552
旃檀	-11.6552
生死事大	-11.6552
藥師經	-11.6553
蒸	-11.6553
澍	-11.6553
爇	-11.6553
塑	-11.6553
嬉	-11.6554
泥沙	-11.6554
念念不絕	-11.6555
仞	-11.6555
四無所畏	-11.6555
伎	-11.6555
拶	-11.6555
屆	-11.6555
眾善奉行	-11.6555
真如佛性	-11.6555
冶	-11.6556
人身難得	-11.6556
諾	-11.6556
無與等	-11.6556
無窮無盡	-11.6556
齎	-11.6558
頸	-11.6558
娛樂	-11.6558
裴	-11.6559
淨土生無生論	-11.656
睦	-11.656
賀	-11.656
慧根	-11.656
遑	-11.656
毗尼	-11.656
俱泯	-11.6561
昏沈	-11.6561
凝神	-11.6562
延慶	-11.6563
自在無礙	-11.6563
滾	-11.6563
說偈曰	-11.6564
徙	-11.6564
大佑	-11.6564
!」	-11.6565
顗	-11.6565
堅密	-11.6565
野狐	-11.6565
皓	-11.6566
尉	-11.6566
快活	-11.6567
館	-11.6568
週	-11.6568
親戚	-11.6568
緩急	-11.657
鉅	-11.657
天親菩薩	-11.657
冉	-11.6571
闌	-11.6571
積累	-11.6572
武帝	-11.6572
十八賢	-11.6573
鬼趣	-11.6574
靜室	-11.6574
受諸苦	-11.6574
沿	-11.6576
玗	-11.6577
摩尼珠	-11.6577
為教體	-11.6579
憧	-11.6581
掃除	-11.6581
所得功德	-11.6582
香煙	-11.6582
晚歲	-11.6582
消磨	-11.6585
十二月	-11.6585
目擊	-11.6585
登座	-11.6585
生死海中	-11.6587
慈容	-11.6587
法身大士	-11.6588
表裏	-11.6588
見性成佛	-11.6589
若巳生	-11.6589
彼佛願力	-11.6591
安樂集	-11.6592
默持	-11.6594
具縛	-11.6595
歸去來兮	-11.6595
甚分明	-11.6596
得生天	-11.6596
登科	-11.6597
金陵	-11.6599
九百	-11.6604
師子吼	-11.6609
期生淨土	-11.6612
本願功德	-11.6613
發信心	-11.6613
准知	-11.6617
積劫	-11.6617
梵僧	-11.6618
曉了	-11.6618
普濟	-11.6619
借問	-11.6621
下正明	-11.6623
宿障	-11.6625
機關	-11.6632
萬慮	-11.6633
片時	-11.6633
欲得淨土	-11.6635
瑞相	-11.664
證驗	-11.6644
隱顯	-11.6645
海東	-11.6645
為我念佛	-11.6647
無慚	-11.6648
憂惱	-11.6651
行儀	-11.6653
大率	-11.6656
勿使	-11.666
列聖	-11.6661
欣然	-11.6664
放還	-11.6665
本旨	-11.667
若三日	-11.6672
右明	-11.6672
同一體	-11.6674
看破	-11.668
鏡像	-11.6683
老少	-11.6687
俱忘	-11.6693
慈覺	-11.6697
三千界	-11.67
信行願三	-11.67
丈室	-11.6702
感動	-11.6702
不離一念	-11.6706
愛物	-11.671
佛與眾生	-11.6712
淨土不成	-11.6715
天人師	-11.6716
所生之	-11.6717
不足信	-11.6719
不俟	-11.672
中峰	-11.6724
不斷絕	-11.6727
加護	-11.6728
不間斷	-11.6731
四部	-11.6732
光輝	-11.6734
朝暮	-11.6742
歸於淨土	-11.6755
剎剎	-11.6757
階道	-11.6767
大妄語	-11.6769
老實念佛	-11.6776
任他	-11.6778
匹	-11.678
江南	-11.6786
化佛來迎	-11.6788
慈力	-11.6793
妄動	-11.6798
十六境	-11.6801
僧尼	-11.6804
寶嚴	-11.6814
預知	-11.6818
照曜	-11.6824
不思議智	-11.6833
一隅	-11.6842
惟恐	-11.6844
三皈	-11.6847
速證無生	-11.6867
受快樂	-11.6871
他物	-11.6878
念不一	-11.6885
弟子某	-11.6887
君王	-11.6889
顯密	-11.6889
生樂國	-11.6898
勸令念佛	-11.69
名為極樂	-11.6907
天親論	-11.6915
。】【	-11.6926
藕花	-11.6929
【【	-11.6936
大善知識	-11.6937
文殊般若經	-11.6951
鏡光	-11.6951
眾等回心	-11.6964
法藏願云	-11.6965
來接	-11.6965
行此難事	-11.6969
是心即是三十二相	-11.697
順佛語故	-11.697
受諸快樂	-11.6971
滿虗空中	-11.6972
天鼓	-11.6974
脩淨土	-11.6976
抵暮昏黑	-11.6976
受諸苦惱	-11.6977
閻浮檀金色	-11.6977
二初標	-11.6978
壽命永劫	-11.6978
願我臨欲命終時	-11.6979
汝等皆當信受我語	-11.6979
而嚴飾之	-11.6979
演說苦空無常無我	-11.698
禮念彌陀道場懺法	-11.698
念佛眾生攝取不捨	-11.698
大聖悲憐	-11.6981
摩訶衍	-11.6982
汁	-11.6982
爾時佛告長老舍利弗	-11.6982
無佛無念	-11.6983
舉足下足	-11.6984
三界無安	-11.6984
心佛及眾生	-11.6984
憐念眾生	-11.6985
具諸不善	-11.6985
譬如百千種樂	-11.6986
七重羅網	-11.6987
念茲在茲	-11.6987
拔一切眾生苦	-11.6988
大光明中	-11.6988
網明佛	-11.6988
維那	-11.6989
3	-11.699
五鈍使	-11.699
無惡不造	-11.6991
0	-11.6991
八萬相好	-11.6991
不可以少善根福德因緣	-11.6991
及諸聖眾	-11.6992
如箭射	-11.6992
墻	-11.6993
真歇了禪師	-11.6993
六塵緣影	-11.6994
於一念中	-11.6994
覰	-11.6994
訥	-11.6995
荷擔	-11.6995
薩埵	-11.6995
靈鷲	-11.6995
他方國土	-11.6996
心行處滅	-11.6996
阿羅訶	-11.6996
嗔怒	-11.6996
延促	-11.6996
筭	-11.6997
賓頭盧頗羅墮	-11.6997
辨才	-11.6997
譏嫌	-11.6998
謗正法	-11.6998
磁	-11.6998
啞	-11.6998
二而不二	-11.6998
慈悲喜捨	-11.6998
耄	-11.6999
塵塵極樂	-11.7
夜摩天	-11.7
蛆	-11.7
糓	-11.7
棹	-11.7
小千世界	-11.7001
澡浴	-11.7001
缺一不可	-11.7001
不立文字	-11.7001
應墮惡道	-11.7001
嚼	-11.7001
諸菩薩聲聞	-11.7003
日月燈	-11.7003
悲華經云	-11.7003
佛說觀無量壽佛經	-11.7003
祇園	-11.7003
曠野	-11.7004
隘	-11.7004
厭離行	-11.7005
廬山蓮宗寶鑑	-11.7005
充塞	-11.7005
襄陽	-11.7006
葛藤	-11.7006
耐	-11.7006
來生我國	-11.7007
無罣礙	-11.7007
肘	-11.7007
斫	-11.7008
闐	-11.7008
翹勤	-11.7009
蹄	-11.7009
妙觀察智	-11.701
瀝	-11.701
投胎	-11.7011
淘汰	-11.7011
旌	-11.7011
妃	-11.7011
若六日	-11.7012
琢	-11.7012
拆	-11.7012
發此願	-11.7012
悋	-11.7013
恠	-11.7013
毫髮	-11.7014
周圍	-11.7016
炎炎	-11.7016
孔孟	-11.7017
愿	-11.7017
寂寞	-11.7018
豕	-11.7018
司南	-11.7018
謝靈運	-11.7019
清規	-11.7019
是故應當	-11.7019
晏	-11.7019
腥	-11.702
瞑目	-11.702
轉輪	-11.702
菽	-11.702
厄難	-11.702
杯	-11.702
姪	-11.7021
見佛色身	-11.7021
惺	-11.7022
靖	-11.7024
命濁中	-11.7024
提刑	-11.7025
是三無差別	-11.7025
禁止	-11.7025
宗匠	-11.7028
不離當處	-11.7028
千百億	-11.7028
釣	-11.7029
金繩	-11.7029
蔬食	-11.703
折攝	-11.703
奘師	-11.7031
直饒	-11.7031
世間人民	-11.7033
白蓮社	-11.7033
歸趣	-11.7033
牛馬	-11.7034
半劫	-11.7035
金像	-11.7035
笙	-11.7037
從今巳	-11.7038
般若經云	-11.7042
次第三觀	-11.7042
不可測	-11.7044
闇室	-11.7045
果能如是	-11.7046
口誦心	-11.7048
本無所有	-11.7049
成佛果	-11.7049
以此迴向	-11.7053
遂得往生	-11.7054
降魔	-11.7054
不憚	-11.7055
十方佛國	-11.7058
一粒	-11.7059
影現中	-11.706
廣舌	-11.7065
無上士	-11.7066
涼風	-11.7067
大悲願力	-11.7067
羣迷	-11.707
導引	-11.707
間錯	-11.7071
雲集	-11.7074
一百二十	-11.7076
夜半	-11.7076
蘇州	-11.7077
釋迦世尊	-11.7078
安閒	-11.7078
是法界身	-11.7079
神鬼	-11.708
憂喜	-11.7085
告眾曰	-11.709
往生論云	-11.7091
指點	-11.7096
錢財	-11.7098
濟物	-11.71
威神力	-11.7101
次科	-11.7101
散心念佛	-11.7102
乃至七日	-11.7106
成阿羅漢	-11.7106
金剛經云	-11.711
清白	-11.7112
成一片	-11.7114
任汝	-11.7115
寶葢	-11.7122
經多劫	-11.7123
又准	-11.7126
去此十萬億	-11.7132
洞明	-11.7132
通贊	-11.7134
種種法門	-11.7134
妙無窮	-11.7138
偷心	-11.7165
猶存	-11.7167
七期	-11.7171
營生	-11.7172
諸佛所證	-11.7175
垂慈	-11.7175
特地	-11.7176
誦法華經	-11.7179
中庸	-11.7183
脫苦輪	-11.7199
豈獨	-11.7201
尚書	-11.7202
名一行三昧	-11.7217
後漢	-11.7222
是菩薩淨土菩薩成佛時	-11.7224
土石	-11.7235
緣熟	-11.724
得徃生	-11.7255
列眾	-11.7262
專主	-11.7263
悲哀	-11.7268
法幢	-11.7272
二大菩薩	-11.7275
劫火	-11.7282
著衣	-11.7296
壞苦	-11.7303
小本彌陀	-11.7304
談玄	-11.7316
初中二	-11.7342
月朔	-11.7348
於五濁惡世	-11.735
大本經	-11.7352
一心歸命	-11.7362
獄火	-11.7375
過十萬億	-11.7381
法中王	-11.7386
可歎	-11.7387
除障	-11.7407
攝念佛人	-11.7414
日月光	-11.7421
西方安樂土	-11.7426
發十種心	-11.743
鏡照	-11.7437
常不離佛	-11.7444
四十九年	-11.7445
財物	-11.7447
諸佛現前三昧	-11.7448
有梵音佛	-11.7449
重悔	-11.7449
苦哉苦哉	-11.7453
下方世界	-11.7453
咸宣妙法	-11.7453
皆為一切諸佛之所護念	-11.7453
要須常不離佛	-11.7454
銅柱	-11.7454
希奇	-11.7454
面見彼佛阿彌陀	-11.7455
歷事諸佛	-11.7455
萬般將不去	-11.7456
􂅡	-11.7457
東方亦有阿閦鞞佛	-11.7457
即見十方諸佛	-11.7457
蒙佛授記	-11.7457
難沮佛	-11.7457
唯除五逆誹謗正法	-11.7458
善根福德因緣	-11.7458
引導其前	-11.7459
普賢行願	-11.746
與諸大眾	-11.746
十世古今	-11.746
欲生阿彌陀佛國者	-11.746
汝勿謂此鳥	-11.7461
遊戲神通	-11.7461
哭泣	-11.7461
忙裏偷閒	-11.7461
實是罪報所生	-11.7462
得與如是諸上善人	-11.7462
但得見彌陀	-11.7462
無上正等菩提	-11.7463
一毫之善	-11.7464
五利使	-11.7465
斷疑生信	-11.7465
嫡	-11.7465
十方世界諸天人民	-11.7466
皆是大阿羅漢	-11.7467
楫	-11.7467
丘陵坑坎	-11.7467
摩訶目犍連	-11.7467
」】「	-11.7468
演說妙法	-11.7468
百即百生	-11.7468
空腹高心	-11.7468
信受奉行	-11.7469
捨此報身	-11.7469
四生六道	-11.747
不如有人	-11.7471
披毛戴角	-11.7473
浴池	-11.7473
疲倦	-11.7473
獘	-11.7473
右旋宛轉	-11.7474
緜	-11.7474
辜	-11.7475
晃耀	-11.7475
盡此報身	-11.7475
繫縛	-11.7476
婉	-11.7476
酷	-11.7477
色心不二	-11.7477
一體三寶	-11.7477
天堂地獄	-11.7477
佛在世時	-11.7478
郁	-11.7478
忝	-11.7478
河沙淨土一切諸佛	-11.7479
青草堂	-11.7479
倩	-11.7479
阿逸多菩薩	-11.7479
現前授記	-11.748
毀犯	-11.748
追薦	-11.7481
株	-11.7481
閫	-11.7481
彊	-11.7481
放下萬緣	-11.7482
直下承當	-11.7482
宋元嘉	-11.7483
猝	-11.7483
喉	-11.7483
自然化生	-11.7483
馳散	-11.7483
層層	-11.7484
從無始來	-11.7484
歛	-11.7484
強弱	-11.7485
事理無礙	-11.7485
天上天下	-11.7485
蟬	-11.7486
徤	-11.7487
錯謬	-11.7487
以無漏慧	-11.7488
此方之人	-11.7488
鮑	-11.7488
憨山	-11.7488
輿	-11.7488
堅密大師	-11.7488
各十聲	-11.7489
雲棲大師	-11.7489
渴仰	-11.7489
閒忙	-11.749
噬	-11.7491
閉關專念	-11.7491
豎窮	-11.7491
熏習	-11.7491
驥	-11.7491
當淨其心	-11.7492
迢	-11.7492
兩脚直	-11.7492
帖	-11.7493
沖	-11.7493
六齋日	-11.7494
不見不聞	-11.7494
斬斷	-11.7494
弭	-11.7494
璣	-11.7495
頒	-11.7495
墮畜生	-11.7495
覲彌陀	-11.7496
憾	-11.7496
孤負	-11.7497
帚	-11.7498
快哉	-11.7498
節節	-11.7499
訴	-11.75
惑染	-11.75
四天王天	-11.75
擁	-11.7502
奔走	-11.7502
浦	-11.7505
行菩薩行	-11.7505
掣	-11.7505
有益於	-11.7507
菊	-11.7508
喬	-11.7508
炷香	-11.751
一心稱念	-11.751
粧	-11.751
謚	-11.7511
八萬四千法門	-11.7512
魘	-11.7512
費力	-11.7512
亡靈	-11.7513
薄福	-11.7514
伏惑	-11.7514
攘	-11.7515
甲子	-11.7516
圓該	-11.7518
數條	-11.752
講堂	-11.7524
獨推	-11.7528
覆藏	-11.753
記憶	-11.7534
爐香	-11.7534
貞元	-11.7535
山頂	-11.7535
天涯	-11.7537
下引證	-11.7537
克復	-11.7537
謂人曰	-11.7537
九品蓮	-11.7541
感歎	-11.7545
奉請	-11.7549
光明遍照	-11.755
暗室	-11.755
西方快樂	-11.7551
略陳	-11.7553
獨留	-11.7554
不出一心	-11.7559
普告	-11.7559
全提	-11.7559
因此把	-11.756
賜號	-11.7562
結印	-11.757
且置	-11.7572
四洲	-11.7573
實報寂光	-11.7574
內典	-11.7576
弟子某甲	-11.7577
全仗	-11.7581
勢至菩薩	-11.7581
豈特	-11.7582
一切善法	-11.7583
五十年	-11.7585
求生彼國	-11.7591
本迹	-11.7592
部類	-11.7597
往生之因	-11.7601
救濟	-11.7606
南無佛陀	-11.7607
摩尼水	-11.7612
依憑	-11.7623
何甞	-11.7633
名號功德	-11.7657
誦呪	-11.7676
生阿彌陀佛國	-11.7684
十念功成	-11.7684
究竟覺	-11.7693
何時得	-11.7713
劫波	-11.7732
初正示	-11.7734
修六度萬行	-11.7743
如夢幻	-11.775
賢劫	-11.7754
輕視	-11.7761
隨願往生經	-11.7772
解脫長者	-11.7775
窮劫	-11.7801
分限	-11.7805
徃生傳	-11.7813
東北	-11.7838
彌覆	-11.7839
億剎	-11.784
不朽	-11.7846
力微	-11.7869
宿緣	-11.7907
一日忽	-11.7918
│├─────────┤│	-11.792
億那由他諸佛國	-11.7929
癡愛	-11.7936
啻	-11.7936
以至蜎飛蝡動之類	-11.7942
終無有退	-11.7945
十方無央數世界	-11.7945
比丘僧	-11.7945
當知我於五濁惡世	-11.7945
發無上菩提心	-11.7945
即心是土	-11.7946
報四恩	-11.7948
臨壽終時	-11.7948
不須疑也	-11.7948
動念即是生淨土時	-11.7949
說是一切世間難信之法	-11.795
能為甚難希有之事	-11.7951
作我一念之心	-11.7951
十人九錯路	-11.7951
能於娑婆國土	-11.7952
億那由他百千	-11.7952
瞻禮	-11.7953
三世諸佛淨業正因	-11.7953
發三種心	-11.7954
及釋提桓因等	-11.7954
乘金剛臺	-11.7954
乘大願船	-11.7954
一人專忘	-11.7955
雜色寶華嚴身佛	-11.7955
黃色黃光	-11.7955
無量百千陀羅尼門	-11.7956
寶華德佛	-11.7956
一者孝養父母	-11.7956
諸罪消滅	-11.7957
懷感法師	-11.7957
作不善業	-11.7958
5	-11.7958
徒仰嘉名	-11.7958
心常歡喜	-11.7958
化現其身	-11.7959
願我命終時	-11.7959
眾罪消滅	-11.7959
端身正向	-11.7959
廬山遠法師	-11.796
有事有理	-11.7961
隨拈一法	-11.7961
舟航	-11.7962
直至菩提	-11.7962
斷除三障	-11.7962
雖憶何為	-11.7963
欄網行樹	-11.7963
苦無樂	-11.7963
妬	-11.7963
頭面禮	-11.7963
十二由旬	-11.7963
不去不來	-11.7963
心不驚動	-11.7964
六種震動	-11.7965
大地震動	-11.7965
機感相應	-11.7965
不相違遠	-11.7965
真如不變隨緣	-11.7965
遊歷十方	-11.7965
分淨穢	-11.7966
祈禱	-11.7967
臨命終	-11.7967
垣	-11.7967
如是等諸大弟子	-11.7967
坐蓮華上	-11.7967
琦	-11.7967
此三種業	-11.7967
三十三天	-11.7967
攝大乘論	-11.7968
貳	-11.7968
直指淨土決疑集	-11.7968
捨身受身	-11.7968
五戒十善	-11.7968
一彈指頃	-11.7968
不免輪迴	-11.7969
足指按地	-11.7969
不可以少善根福德因緣得生彼國	-11.7969
眾生心內諸佛	-11.7969
恒沙性德	-11.797
〕	-11.797
無有窮盡	-11.797
〔	-11.797
一日二日	-11.797
岩	-11.7971
母胎	-11.7971
舟船	-11.7971
文殊師利法王子	-11.7971
普賢行願品	-11.7971
歸元直指	-11.7972
鐙	-11.7972
宣妙法	-11.7972
一切時處	-11.7972
眾生無邊誓願度	-11.7972
戲笑	-11.7973
蓮華勝會	-11.7973
占察	-11.7973
宮宇	-11.7973
財產	-11.7973
忤	-11.7973
妙叶	-11.7974
雨淚	-11.7974
勝鬘	-11.7974
舍宅	-11.7975
來迎接我	-11.7975
瓊林	-11.7975
易往無人	-11.7975
僧伽	-11.7976
脹	-11.7976
百億日月	-11.7977
毗迦蘭	-11.7977
優鉢羅	-11.7977
幾心欲	-11.7978
荳	-11.7978
第二階	-11.7978
混濫	-11.7979
驚怖	-11.7979
馬鳴菩薩	-11.7979
我及眾生	-11.7979
蝡	-11.7979
甕	-11.798
壽夭	-11.798
不可勝數	-11.7981
剃髮	-11.7981
長老舍利弗	-11.7981
飲酒食肉	-11.7981
豎窮三際	-11.7981
殄	-11.7982
是為發菩提心第	-11.7982
窄	-11.7983
王日休	-11.7983
人天福報	-11.7983
銕	-11.7983
恍	-11.7983
沉溺	-11.7983
四恩三有	-11.7984
盻	-11.7984
掐	-11.7984
九十一劫	-11.7984
碯	-11.7984
寶筏	-11.7984
浮漚	-11.7984
官員	-11.7984
餘門學道	-11.7984
庇	-11.7985
背覺合塵	-11.7985
稱讚淨土佛攝受經	-11.7985
液	-11.7985
淨土諸書	-11.7986
忒	-11.7986
解脫知見	-11.7986
翰	-11.7986
膳	-11.7986
不云乎	-11.7987
命在呼吸	-11.7987
緘	-11.7987
瞥爾	-11.7987
筵	-11.7987
搭	-11.7989
甄	-11.7989
墓	-11.7989
髑髏	-11.799
鴉	-11.799
呵呵	-11.799
饌	-11.7991
麟	-11.7991
宰官	-11.7991
餌	-11.7992
纏綿	-11.7992
晃	-11.7992
釋迦本師	-11.7992
芒	-11.7993
殮	-11.7994
道安法師	-11.7995
他受用土	-11.7995
能滅八十億劫生死重罪	-11.7996
合掌而逝	-11.7996
現其前	-11.7996
窻	-11.7997
瞬息	-11.7997
康熙	-11.7997
發起序	-11.7998
典籍	-11.7998
不淨說法	-11.7998
姚秦	-11.7999
寧容	-11.7999
黑白	-11.8
從本以來	-11.8
未暇	-11.8
以此觀之	-11.8
今日大眾	-11.8
東西南北	-11.8
錯亂	-11.8001
潰	-11.8001
徧照十方	-11.8002
鱉	-11.8003
養育	-11.8004
絆	-11.8005
徊	-11.8005
孺子	-11.8006
綴	-11.8009
四如意足	-11.8009
甘受	-11.801
婁	-11.801
宮室	-11.801
二論文	-11.8011
一百二十三人	-11.8011
仍舊	-11.8011
鑪	-11.8012
廣長舌相	-11.8012
不必求生	-11.8013
天台大師	-11.8013
車馬	-11.8013
戀著	-11.8014
分破無明	-11.8015
昏昧	-11.8016
溷	-11.8017
堅牢	-11.8018
有何不可	-11.8026
列祖	-11.8028
幽微	-11.8032
有幾人	-11.8034
機熟	-11.8041
指授	-11.8042
舉揚	-11.8042
錯會	-11.8045
豈敢	-11.8045
章句	-11.8045
淨心即是西方	-11.8046
家珍	-11.8047
根本三昧	-11.8047
一心稱名	-11.8048
變化身	-11.805
造惡業	-11.8051
在其中矣	-11.8052
無休息	-11.8052
利濟	-11.8053
致敬	-11.8057
問其故	-11.8059
祝云	-11.8059
勸導	-11.8063
化度眾生	-11.8067
直趣	-11.8068
彌陀疏鈔	-11.8069
打破	-11.8074
閻老	-11.8085
欣求	-11.8089
異香天樂	-11.8106
違背	-11.8108
如五須彌	-11.8111
外院	-11.8111
鳥鳴	-11.812
初發心住	-11.8129
輪迴生死	-11.8133
夢幻	-11.815
無處不	-11.8156
文殊師利菩薩	-11.8161
修梵行	-11.8168
花池	-11.8182
無不可者	-11.8196
太虗空	-11.8204
聞異香	-11.8218
八萬四千相好	-11.8218
無時不	-11.8223
生於西方	-11.8233
瓔珞經	-11.8239
獨尊	-11.8276
有勝劣	-11.8289
耽著	-11.8307
千二百	-11.8353
得度脫	-11.836
加趺	-11.8363
到一心不亂	-11.8377
十方無量不可思議諸佛世界	-11.8435
大乘廣智	-11.8457
普為十方	-11.846
藍	-11.8469
為其勝友	-11.8471
解入相應	-11.8471
廣度含識	-11.8474
罪愆	-11.8475
親為勝友	-11.8477
初列名顯廣	-11.8477
現世為人師	-11.8478
所作吉利	-11.8478
盛眾妙華	-11.8478
即得往生安樂剎	-11.8479
不取相貌	-11.8479
彼佛何故號阿彌陀	-11.8479
發廣大心	-11.8479
有日月燈佛	-11.848
常見佛故	-11.848
衣服飲食	-11.8481
慈誓攝我	-11.8481
發阿耨多羅三藐三菩提心	-11.8481
淨因增長	-11.8483
悉皆不受	-11.8483
修行六念	-11.8484
楯	-11.8484
於諸佛前	-11.8484
皆悉念佛念法念僧	-11.8486
溯	-11.8486
雨天曼陀羅華	-11.8486
即以食時	-11.8486
寒暑不遷	-11.8487
壽命長遠	-11.8487
非是算數所能知之	-11.8487
直脫輪迴	-11.8488
罪障深重	-11.8488
大本法藏願云	-11.8488
豈不快哉	-11.8489
階梯	-11.8489
無有慚愧	-11.8489
與修多羅合	-11.8489
超脫	-11.8489
速超生死	-11.849
咨嗟	-11.849
共命之鳥	-11.849
功高易進	-11.8491
酖	-11.8491
自在王佛	-11.8491
龍舒增廣淨土文卷第	-11.8491
土石諸山	-11.8492
四威儀中	-11.8492
誌	-11.8493
規矩	-11.8493
不可思議功德之利	-11.8493
并諸菩薩摩訶薩	-11.8494
如經所說	-11.8494
挍量	-11.8494
離苦得樂	-11.8494
文字般若	-11.8494
何況憶念	-11.8495
巴	-11.8495
薩婆若	-11.8495
》、《	-11.8495
耆闍崛山	-11.8495
是非人我	-11.8496
來生其國	-11.8496
自然心開	-11.8496
自行化他	-11.8496
肺	-11.8497
寂照不二	-11.8497
斯旨	-11.8497
一念改悔	-11.8497
不常值佛	-11.8498
淨土法語	-11.8498
身無病苦	-11.8498
無央數劫	-11.8499
沽	-11.8499
闕公則	-11.8499
乾陀訶提菩薩	-11.8499
警策	-11.8499
蓄	-11.85
普與眾生	-11.85
曇鸞	-11.85
幽溪大師	-11.85
四無量心	-11.85
哺	-11.8501
僧叡	-11.8501
叨	-11.8501
言語道斷	-11.8501
忍耐	-11.8502
四十一位	-11.8502
具無量德	-11.8502
歷代祖師	-11.8502
名為邪觀	-11.8502
莫大於	-11.8502
鶖子	-11.8502
服膺	-11.8502
幽閉	-11.8503
偃	-11.8503
即三而一	-11.8504
其略曰	-11.8504
次依宗釋義二	-11.8505
棗	-11.8505
植善根	-11.8505
白馬寺	-11.8505
抑揚	-11.8506
無念而念	-11.8506
擅	-11.8506
呆	-11.8506
擴	-11.8507
繽紛	-11.8507
愆尤	-11.8508
癸酉	-11.8508
蓮花化生	-11.8508
一心奉請	-11.8508
酧	-11.8508
淤泥	-11.8509
西竺	-11.8509
拳拳	-11.851
情與無情	-11.851
庾	-11.851
朦朧	-11.8511
執理而	-11.8511
鹿苑	-11.8511
不增不減	-11.8511
胃	-11.8511
騁	-11.8511
受法性身	-11.8511
楊墨	-11.8512
強健	-11.8512
疇	-11.8513
痛鞭	-11.8513
布施持戒	-11.8513
毘盧	-11.8514
三身四土	-11.8514
寮	-11.8514
泆	-11.8514
鎮江	-11.8515
敷演	-11.8515
謗毀	-11.8515
閭	-11.8515
袪	-11.8516
另	-11.8516
迸	-11.8516
退屈	-11.8516
韁	-11.8517
留戀	-11.8517
技	-11.8517
三者發菩提心	-11.8517
徐徐	-11.8518
揆	-11.8518
蚊	-11.8518
裘	-11.8518
繒	-11.8519
講演	-11.8519
承上文	-11.8519
撞	-11.8519
謾	-11.852
感激	-11.852
萊	-11.8521
翛然	-11.8521
尹	-11.8521
姑蘇	-11.8522
脩多羅	-11.8522
寒熱	-11.8522
東海若	-11.8523
廣狹	-11.8524
俞	-11.8524
包含	-11.8524
青黃赤白	-11.8524
首尾	-11.8525
綿綿	-11.8525
游戲	-11.8525
呵責	-11.8525
翹	-11.8525
擺	-11.8525
發憤	-11.8526
跟	-11.8526
大集經云	-11.8526
勤修淨業	-11.8526
衣裳	-11.8528
涌出	-11.8528
桌	-11.8529
橫超三界	-11.853
鬆	-11.8531
尊崇	-11.8531
紋	-11.8532
一夕夢	-11.8532
巾	-11.8532
昨日	-11.8533
清潔	-11.8535
喘	-11.8535
耗	-11.8537
十萬八千	-11.8538
狀元	-11.8538
籬	-11.8538
行六波羅蜜	-11.8539
一句洪名	-11.854
初中後	-11.8545
祥光	-11.8548
第二階人	-11.8549
魂識	-11.8549
群機	-11.8551
麴多	-11.8551
百千三昧	-11.8552
細細	-11.8554
玉女	-11.8554
將軍	-11.8557
血畫	-11.856
精嚴	-11.8565
佛有三身	-11.8566
千秋	-11.8569
消亡	-11.8569
一門深入	-11.8577
仁和	-11.8578
▁南無梵	-11.858
譯無之	-11.8582
分毫	-11.8582
幢旛	-11.8582
家室	-11.8584
順治	-11.8585
禁語	-11.8597
千五百	-11.86
貧苦	-11.8624
十善業	-11.8624
往生其國	-11.8633
大千界	-11.8652
生死之根	-11.8667
改變	-11.8669
稱我名	-11.8682
十一月	-11.8686
失淨因	-11.8712
意生身	-11.8716
願我速	-11.8727
若人專念	-11.8728
幸遇	-11.8737
以持名為	-11.8744
爭奈	-11.8751
長時修	-11.8765
王龍舒	-11.8767
體本空	-11.8775
本來清淨	-11.8785
次釋二	-11.8807
敬三寶	-11.8825
十六字	-11.8862
著五欲	-11.8873
當信是	-11.8877
聞法歡喜	-11.8914
實報莊嚴	-11.8933
安樂國土	-11.898
一心專念	-11.8992
鞭䇿	-11.9011
蓮華乃敷	-11.9023
生決定心	-11.9024
欲入一行三昧	-11.9025
便念無常	-11.9026
異口同音	-11.9027
陰界入	-11.9029
作依作正	-11.903
諸小菩薩	-11.903
名空如來藏	-11.903
自性阿彌	-11.903
更無執對	-11.9031
山海慧菩薩	-11.9031
還入生死	-11.9031
佛與聖眾	-11.9032
諸佛晝夜護念	-11.9032
常為一切世間人民	-11.9034
閉目開目	-11.9035
若逢不逢	-11.9036
地獄猛火	-11.9036
如人飲水	-11.9036
佛昔本誓	-11.9036
得入如來大誓海中	-11.9037
彌勒未生	-11.9038
是人終時心不顛倒	-11.9038
自救不了	-11.9039
受用現成	-11.9039
應當發願願生彼國	-11.9039
伏滅煩惱	-11.9039
願以淨光照我	-11.9039
蜎飛蠕動	-11.9039
從初至	-11.9039
同得往生阿彌陀佛國	-11.904
永離惡道	-11.904
佛為法王	-11.904
發大誓願	-11.904
普為四恩三有	-11.904
及寶羅網	-11.9041
汲汲	-11.9041
但持名號	-11.9041
坑坎	-11.9041
他方佛土	-11.9042
燒香散華	-11.9042
若子逃逝	-11.9042
若有人巳發願	-11.9043
不壞假名	-11.9043
西方樂西方樂西方	-11.9044
應稱無量壽佛	-11.9044
▁一心頂禮西方安樂土	-11.9044
餘門修道	-11.9045
念佛三昧寶王論	-11.9046
超日月光佛	-11.9046
與如是等諸大菩薩	-11.9046
飯食沙門	-11.9047
綿綿密密	-11.9047
一剎那間	-11.9047
皆是四寶	-11.9048
恭敬禮拜	-11.9048
敬禮常住三寶	-11.9049
刀砧	-11.9049
全修即性	-11.9049
一稱嘉號	-11.9049
佛道無上誓願成	-11.9049
銖	-11.9049
出頭來	-11.9049
鳴磬	-11.9049
濁水不得不清	-11.905
亦無所去	-11.905
人天小果	-11.905
虎狼	-11.905
徇	-11.905
於諸佛所	-11.905
愛別離苦	-11.9051
兩足尊	-11.9051
盡此一生	-11.9051
瀉	-11.9051
徹底悲心	-11.9052
罄無不盡	-11.9052
在池水上	-11.9052
慈善根力	-11.9053
提婆達多	-11.9053
譜	-11.9053
中千世界	-11.9053
恒河沙劫	-11.9053
思專想寂	-11.9054
得道之後	-11.9054
十由旬	-11.9054
令聲不絕	-11.9054
萬善同歸	-11.9054
梯	-11.9055
入於塔廟中	-11.9055
發無上心	-11.9055
徑捷	-11.9055
住不退地	-11.9055
筒	-11.9055
因該果海	-11.9055
二者深心	-11.9057
鵝	-11.9057
決疑行願二門	-11.9057
心作心是	-11.9058
浣	-11.9058
滄海	-11.9059
阿彌唎哆	-11.9059
入聖流	-11.9059
南岳	-11.9059
兜	-11.9059
清閑	-11.9059
蕅益大師	-11.9059
押	-11.906
弁	-11.906
玷	-11.9061
阿那律	-11.9061
光明普照	-11.9061
憍	-11.9061
掦	-11.9061
喃	-11.9062
父母兄弟	-11.9063
實相為體	-11.9063
晤	-11.9063
瞿曇	-11.9063
跨	-11.9063
能所不二	-11.9063
八苦交煎	-11.9064
罄	-11.9064
不為二邊	-11.9064
馨	-11.9064
箱	-11.9065
須摩提	-11.9066
瘦	-11.9066
覿	-11.9066
署	-11.9066
不二而二	-11.9067
燈燭	-11.9067
僉	-11.9067
毛端	-11.9068
作麼生	-11.9068
腫	-11.9068
疾疫	-11.9068
即便往生	-11.9068
地藏菩薩	-11.9068
受無量名	-11.9068
自覺覺他	-11.9069
攢	-11.9069
肢	-11.907
奧旨	-11.907
舉要言之	-11.907
鵠	-11.907
飢寒	-11.907
肚	-11.9071
旻	-11.9071
濶	-11.9071
洛陽	-11.9072
恒沙劫	-11.9072
洽	-11.9072
疣	-11.9072
惱害	-11.9072
顒	-11.9073
忠孝	-11.9073
鬢	-11.9073
汾	-11.9073
翰林	-11.9073
感佛來迎	-11.9073
悶絕	-11.9074
翊	-11.9074
喫緊	-11.9074
貼	-11.9074
昏衢	-11.9074
吃	-11.9074
蛻	-11.9075
藤	-11.9075
拔舌	-11.9075
纓	-11.9075
因緣和合	-11.9076
水流光明	-11.9076
慈恩法師	-11.9076
廈	-11.9076
二正宗分	-11.9077
梢	-11.9077
悄	-11.9077
鎧	-11.9077
甲寅	-11.9077
寢疾	-11.9078
晁	-11.9078
誑惑	-11.9078
啼哭	-11.9078
吉凶	-11.9078
鋤	-11.9079
謂弟子曰	-11.9079
飄零	-11.9079
這裏	-11.9079
風帆	-11.9079
銳	-11.908
炳然	-11.908
曼	-11.908
身滿虗空	-11.908
該羅	-11.9081
埃	-11.9081
命工	-11.9081
五逆罪	-11.9082
忉利天王	-11.9082
皮肉	-11.9082
最為第一	-11.9083
符契	-11.9083
交煎	-11.9083
蔡	-11.9083
个	-11.9083
霍	-11.9084
皮囊	-11.9084
痛快	-11.9084
罔極	-11.9085
震動	-11.9086
德雲比丘	-11.9086
芳慧	-11.9086
斷狐疑	-11.9086
簷	-11.9086
稼	-11.9086
攪	-11.9087
誦阿彌陀經	-11.9087
阿彌陀佛與諸聖眾	-11.9088
栢	-11.9088
嬌	-11.9088
迪	-11.9089
黃泉	-11.9091
進步	-11.9092
政和	-11.9095
疑網	-11.9096
嘯	-11.9096
二十三日	-11.9096
俗姓	-11.9097
二初分科	-11.9099
變化土	-11.9099
怡然	-11.9099
復甦	-11.91
恍然	-11.9103
神通第一	-11.9105
愉	-11.9107
深慚	-11.911
詎可	-11.9112
到岸	-11.9113
以無漏智	-11.9118
進士	-11.912
十八界	-11.9123
太守	-11.9129
白藕	-11.913
年六十	-11.9133
率眾	-11.9143
受五戒	-11.9174
無所不徧	-11.9198
墮餓鬼	-11.92
十六句	-11.9225
覆大千	-11.9251
修福慧	-11.9261
左手	-11.9268
心專注	-11.9303
十六王子	-11.9318
萬八千	-11.933
體無二	-11.9344
懈慢國	-11.9363
十種功德	-11.9394
每晨	-11.94
初引經	-11.9413
普現一切	-11.9463
無生忍位	-11.9464
善根福德	-11.9505
永不退	-11.951
亦應無量	-11.9562
有八萬四千相	-11.9565
悲憫	-11.9582
無始已來	-11.9587
除其本願	-11.9604
捨諸亂意	-11.9609
願共眾生咸歸命故我頂禮生彼國	-11.9609
惑亂心神	-11.961
一心待死	-11.961
照行者身	-11.9611
具諸戒行	-11.9611
有師子佛	-11.9616
瞥爾隨他去	-11.9616
聞是經典	-11.9619
氣力充盛	-11.9619
風聲樂響	-11.9619
能有幾時	-11.9619
顏色光澤	-11.962
經一小劫	-11.9621
猶如戴角虎	-11.9622
盡除一切諸障礙	-11.9623
隨業受報	-11.9623
時不待人	-11.9623
業識茫茫	-11.9623
地獄鬼畜生	-11.9623
甦	-11.9623
經三小劫	-11.9624
爾時阿難	-11.9624
口雖念佛	-11.9624
眾相具足	-11.9624
三明六通	-11.9624
即理之事	-11.9625
四十八願度眾生九品咸令登彼岸	-11.9625
哀愍覆護我	-11.9625
隨從佛後	-11.9625
諸菩薩清淨大海眾	-11.9625
猶如敬佛	-11.9626
即是念中	-11.9626
自見其身	-11.9626
如子憶母	-11.9626
飜	-11.9628
超情離見	-11.9629
給孤獨	-11.9629
裓	-11.9629
見色聞香	-11.9629
神鬼魔	-11.963
赤色赤光	-11.963
升降	-11.963
千輻輪相	-11.9631
如水中月	-11.9631
劂	-11.9631
絕思絕議	-11.9632
經歷多劫	-11.9632
生必有死	-11.9632
歷劫受苦	-11.9632
釋提桓因	-11.9632
忖	-11.9632
初又三	-11.9632
不相捨離	-11.9633
萬德齊彰	-11.9634
架	-11.9634
約心觀佛	-11.9635
尠	-11.9635
調停得中	-11.9635
周帀圍繞	-11.9635
壽命短促	-11.9635
蘇軾	-11.9636
囿	-11.9636
達生體不可得	-11.9636
飼	-11.9637
稜	-11.9637
隨其心淨則佛土淨	-11.9637
三德祕藏	-11.9637
翮	-11.9637
聲聲不絕	-11.9638
徧至十方	-11.9638
廼	-11.9638
皆是阿鞞跋致	-11.9639
能究盡	-11.9639
法門無量誓願學	-11.9639
臨終遇善知識	-11.9639
死此生彼	-11.9639
可痛惜哉	-11.9639
此一報身	-11.964
無始無終	-11.9641
尅期	-11.9641
紛紜	-11.9641
聞思修	-11.9641
󳯟	-11.9641
投於亂心	-11.9641
佩	-11.9642
疲勞	-11.9642
百千種樂	-11.9642
鸚鵡舍利	-11.9642
塔廟	-11.9643
廬山遠公	-11.9643
雖知諸佛國及與眾生空	-11.9643
智慧勇猛	-11.9643
▁一心頂禮西方極樂世界	-11.9643
慣習	-11.9643
觀經義疏	-11.9644
功名富貴	-11.9644
全妄即真	-11.9645
受大苦惱	-11.9645
一時佛在舍衛國	-11.9645
萬象森羅	-11.9645
徧十方界	-11.9646
曆	-11.9646
騖	-11.9646
明心見性	-11.9646
蠢動含靈	-11.9646
擔荷	-11.9646
蛤蜊	-11.9647
莫不皆然	-11.9647
吉祥而逝	-11.9647
欝	-11.9647
錍	-11.9647
昭彰	-11.9647
始至終	-11.9647
刀山劍樹	-11.9647
毗婆尸佛	-11.9648
淋漓	-11.9648
不勞彈指	-11.9648
平等性智	-11.9648
煎服	-11.9648
兒童	-11.9649
空即假	-11.9649
熊	-11.9649
豪傑	-11.9649
蜎	-11.965
阜	-11.965
粉骨碎身	-11.965
迺	-11.965
翫	-11.965
歐	-11.9651
佛語阿難	-11.9651
遘	-11.9651
綵	-11.9651
杵	-11.9651
蛆蟲	-11.9651
澡	-11.9651
瞋怒	-11.9652
窩	-11.9652
拯濟	-11.9652
唯心所現	-11.9653
瞑	-11.9653
剗	-11.9653
官府	-11.9653
審察	-11.9653
陞	-11.9653
由是言之	-11.9653
開權顯實	-11.9653
光明滿室	-11.9654
壬申	-11.9654
贍部	-11.9654
哀憐攝受	-11.9655
端身正	-11.9655
愛不重不生娑婆	-11.9655
鎗	-11.9655
釧	-11.9655
榮辱	-11.9656
愚鈍	-11.9656
徑中徑	-11.9656
誥	-11.9657
實無女人	-11.9657
迦羅	-11.9657
柔和	-11.9658
埋沒	-11.9658
佛成道日	-11.9658
戎	-11.9658
擕	-11.9658
聞諸佛名	-11.9659
祥瑞	-11.9659
畏懼	-11.9659
信有西方	-11.9659
彌陀願海	-11.9659
無價寶	-11.9659
甲戌	-11.966
吠	-11.966
覊	-11.966
批	-11.9661
寶王三昧	-11.9661
關係	-11.9661
潯陽	-11.9661
諂曲	-11.9662
錦繡	-11.9662
白玉毫	-11.9662
天台教觀	-11.9662
陛	-11.9662
七寶所成	-11.9662
三界六道苦難停	-11.9663
五逆謗法	-11.9664
受具戒	-11.9665
惻	-11.9666
懽	-11.9666
和鳴	-11.9667
龜毛	-11.9667
奔馳	-11.9668
鐵壁	-11.9668
罹	-11.9668
畝	-11.9669
剪	-11.9669
徵驗	-11.9669
壽昌	-11.9669
蔣	-11.9669
拍	-11.9669
此愛根	-11.9669
郵	-11.9671
告誡	-11.9672
涓	-11.9672
一念回光	-11.9672
破見思惑	-11.9672
願我早	-11.9672
真珠網	-11.9673
做工夫	-11.9674
減劫	-11.9674
登初地	-11.9675
江河	-11.9675
竇	-11.9675
本來面目	-11.9676
癸巳	-11.9676
含容	-11.9676
苦不可言	-11.9676
幽暗	-11.9676
濂溪	-11.9676
息諍	-11.9677
心心相續	-11.9677
靄	-11.9677
多聞第一	-11.9678
坡	-11.9678
蹉過	-11.9679
眸	-11.968
老病死	-11.9681
時節因緣	-11.9681
大不調	-11.9681
提婆	-11.9682
無生即生	-11.9682
誠如所	-11.9682
祠	-11.9684
冕	-11.9684
查	-11.9686
鳴引磬	-11.9688
欒	-11.9691
佛法大海	-11.9694
殺盜	-11.9695
生無生論	-11.9695
巋	-11.9697
決定無疑	-11.9701
誦金剛經	-11.9723
無機不	-11.9727
持一句阿彌陀佛	-11.9753
劇苦	-11.9755
天眼第一	-11.9803
摩訶薩	-11.9806
隔陰	-11.9808
得自由	-11.9824
彼此互	-11.9829
逼惱	-11.9835
含三義	-11.9844
諷誦	-11.9888
佛菩薩像	-11.9909
某某	-11.9915
為之序	-11.9926
太虛	-11.9943
懈慢	-11.9948
補佛位	-11.9978
貧女	-11.9997
諸佛正徧知海	-12.0016
三藏十二部	-12.0092
讚佛偈	-12.0148
肖	-12.0167
恙	-12.0212
無逼惱心	-12.0232
淨土指歸集	-12.0233
得六神通	-12.0234
無損害心	-12.0237
孕質九蓮	-12.0238
剎那際內	-12.024
即是淨土受生之心	-12.0241
心想羸劣	-12.0241
陰境若現前	-12.0241
受無量快樂	-12.0243
豎窮橫遍	-12.0243
十住婆沙論	-12.0244
無生苦也	-12.0245
隨犯隨懺	-12.0245
受勝妙樂	-12.0245
南無一心奉請	-12.0245
心無怖畏	-12.0245
過去未來現在	-12.0245
石火電光	-12.0246
住正定故	-12.0246
苦集滅道	-12.0246
聞是音巳	-12.0247
善友告言	-12.0248
或見非見	-12.0249
隱形守護	-12.0249
拔苦與樂	-12.0249
母子歷生	-12.0249
即事之理	-12.0249
四大海水	-12.0249
若觀彼佛真如法身	-12.0249
百千億那由他劫	-12.025
全性成修	-12.0251
新發意菩薩	-12.0251
能破三惑	-12.0251
:「『	-12.0251
兼福兼慧	-12.0251
即悟無生法忍	-12.0251
觀佛三昧海經	-12.0251
及與淨願	-12.0252
常以清旦	-12.0252
三塗八難	-12.0252
若飛心中	-12.0252
捨此求彼	-12.0253
無解脫期	-12.0253
水陸虛空	-12.0253
絕待而照	-12.0254
自然皆生念佛念法念僧之心	-12.0254
所未聞經	-12.0254
非是凡夫心力所及	-12.0254
無上正等正覺	-12.0255
純想即飛	-12.0255
七寶宮殿	-12.0255
最後剎那	-12.0255
發十大願	-12.0256
廣其傳	-12.0256
自失善利	-12.0256
穢惡充滿	-12.0256
修淨土之謂也	-12.0257
邪定聚	-12.0257
相續即生	-12.0257
閡	-12.0257
無明所覆	-12.0257
阿閦鞞	-12.0257
憍尸迦	-12.0258
鳴尺	-12.0258
死門事大	-12.0259
起立塔像	-12.0259
乘戒俱急	-12.0259
▁和南聖眾	-12.0259
捨家棄欲	-12.026
與大比丘眾	-12.026
2	-12.026
有量之無量	-12.026
即見十方一切諸佛	-12.026
眼光落地	-12.026
豈不謬哉	-12.026
不退轉地菩薩	-12.0261
名無諍念	-12.0261
願我臨欲命終時盡除一切諸障礙	-12.0261
9	-12.0261
湮沒	-12.0262
其土有佛號阿彌陀	-12.0262
真實不虗	-12.0262
死盡偷心	-12.0262
隨氣長短	-12.0262
佛力難思	-12.0263
沫	-12.0263
蓮宗必讀	-12.0263
峨	-12.0263
資粮	-12.0263
教外別傳	-12.0263
大行和上	-12.0263
同圓種智	-12.0264
品位高下	-12.0264
褒	-12.0265
婆娑論	-12.0265
斯陀含	-12.0265
如影隨形	-12.0266
又復應知	-12.0266
即心觀佛	-12.0266
賢劫千佛	-12.0267
觀雖十六	-12.0267
弑	-12.0268
鵲	-12.0268
跋陀和	-12.0268
姻	-12.0268
龜鑑	-12.0268
縱饒	-12.0268
壺	-12.0269
省庵法師	-12.0269
餅	-12.0269
智旭	-12.027
叱	-12.027
佛外無心	-12.027
自然而然	-12.027
前後際斷	-12.027
壘	-12.027
心多散亂	-12.0271
眾生在迷	-12.0271
心識散亂	-12.0272
喆老	-12.0272
娶	-12.0272
觀世音菩薩摩訶薩	-12.0272
淨居天	-12.0272
梁武	-12.0272
栴檀香	-12.0272
械	-12.0273
苾	-12.0273
常在世間	-12.0273
六安和	-12.0273
發真無漏	-12.0273
詭	-12.0273
彼國人民	-12.0273
圓照本禪師	-12.0273
徑中之徑	-12.0274
瘥	-12.0274
殺戮	-12.0274
慈悲父	-12.0274
本來是佛	-12.0275
妄歸真	-12.0275
馥	-12.0275
非有非空	-12.0275
用魏譯	-12.0275
麵	-12.0275
無法不具	-12.0276
洗滌	-12.0276
湊	-12.0276
仲尼	-12.0276
煌	-12.0277
螫	-12.0277
去聖時遙	-12.0277
劵	-12.0277
雷次宗	-12.0277
白樂天	-12.0277
阿僧祗	-12.0277
謂家人曰	-12.0277
四明尊者	-12.0278
璧	-12.0278
募刻	-12.0278
飲食衣服	-12.0278
店	-12.0278
初發心時	-12.0278
提𢹂	-12.0279
無作四諦	-12.0279
丹陽	-12.0279
膜	-12.0279
汲	-12.028
輪迴不息	-12.028
綱領	-12.028
白佛言世尊	-12.0281
不如及早念	-12.0281
燄	-12.0281
仲春	-12.0281
翩	-12.0281
挹	-12.0281
華嚴合論	-12.0281
甲午	-12.0281
芬陀利	-12.0281
橫截生死	-12.0281
蒲	-12.0282
孚	-12.0282
行于世	-12.0282
疼	-12.0282
腑	-12.0282
瓔	-12.0282
矛	-12.0282
脂	-12.0282
摶	-12.0282
唯有徑路修行	-12.0283
籃	-12.0283
遮詮	-12.0283
鳩	-12.0283
臭腐	-12.0284
以是觀之	-12.0284
鐵圍	-12.0284
渴飲	-12.0284
薛	-12.0285
楷定	-12.0285
月六日	-12.0285
蟒	-12.0285
漠	-12.0286
羅什法師	-12.0286
之法門也	-12.0287
貫穿	-12.0287
阿蜜	-12.0287
擒	-12.0287
莫要於	-12.0288
皇后	-12.0288
扁	-12.0288
孃	-12.0288
閃	-12.0288
嘉禾	-12.0288
穢邦	-12.0289
人間天上	-12.029
刮	-12.0291
驀直	-12.0291
沈溺	-12.0291
擾亂	-12.0291
如救頭然	-12.0292
溈山	-12.0292
燼	-12.0292
伶	-12.0293
瓢	-12.0293
收拾	-12.0293
頤	-12.0294
寂寥	-12.0294
溝	-12.0294
滄	-12.0294
粒米	-12.0294
四十二章經	-12.0294
楊枝	-12.0295
掇	-12.0295
洵	-12.0296
玻璃	-12.0296
沃	-12.0296
䛡	-12.0297
硬	-12.0297
常住三寶	-12.0298
裨	-12.0299
寇	-12.03
大勢至菩薩摩訶薩	-12.03
闔	-12.03
超昇	-12.0301
戀慕	-12.0301
綽	-12.0302
阿育王	-12.0302
曇順	-12.0303
雲霞	-12.0304
刀割	-12.0304
蓮漏	-12.0305
因念佛故	-12.0305
艶	-12.0305
波浪	-12.0309
研末	-12.031
賅	-12.0313
誓不成佛	-12.0313
樸	-12.0313
垂手接引	-12.032
闍世	-12.032
年九十	-12.0322
王侯	-12.0324
周旋	-12.0329
這一句	-12.0347
光來照	-12.035
清涼池	-12.0356
文為二	-12.0361
退惰	-12.0371
仁王經	-12.0382
怨憎會苦	-12.0392
佛能度	-12.0394
此其同	-12.0394
□□□	-12.0396
心眼開	-12.0406
吾人現前一念	-12.0407
昭昭	-12.0416
有形之	-12.0434
鄉里	-12.0472
加鞭	-12.0494
毫末	-12.0511
無量之無量	-12.0554
穿衣	-12.0564
匹夫	-12.0614
遺教經	-12.0622
課程	-12.0671
阿含經	-12.0711
自從無始	-12.0717
堪任	-12.0756
稱南無佛	-12.0819
右旋	-12.084
成佛巳來	-12.0851
樂守護心	-12.0895
豈可得言	-12.0895
行者見巳	-12.0898
放金色光	-12.0903
即土是心	-12.0906
二者受持三歸	-12.0906
七萬釋種	-12.0906
具此功德	-12.0907
址	-12.0907
乃是稱意之事	-12.0907
無死苦也	-12.0908
勿令間斷	-12.0908
識颺神飛	-12.0909
境細心	-12.0909
不果遂者	-12.091
是心即是三十二相八十隨形好	-12.0911
理能包事	-12.0911
說此難信之法	-12.0911
常隨守護	-12.0912
觀難成就	-12.0912
淨土樂淨土樂西方淨土甚快樂	-12.0913
二憶念深	-12.0913
我說即是空	-12.0913
為一切世間說此難信之法	-12.0913
灋	-12.0913
無病苦也	-12.0913
常勤修習	-12.0914
具六神通	-12.0914
若一日若二日	-12.0915
接引於我	-12.0915
各以衣裓	-12.0915
長蘆賾禪師	-12.0916
以心緣歷	-12.0916
皆於中現	-12.0916
承佛慈力	-12.0916
天雨妙華	-12.0917
十方恒沙諸佛	-12.0917
無有疲厭	-12.0919
唯佛與佛	-12.0919
淨土樂淨土樂西方淨土甚快樂淨土樂	-12.0919
除滅罪法	-12.0919
長跪合掌	-12.0919
有漏之因	-12.0919
不限佛數	-12.092
多善多福	-12.092
二人相憶	-12.092
一者至誠心	-12.092
金口誠言	-12.092
姊妹	-12.0921
7	-12.0921
百味飲食	-12.0922
普為師僧父母	-12.0922
不假方便自得心開	-12.0922
三塗惡道	-12.0922
徧滿十方界	-12.0922
其音演暢五根	-12.0923
不從他得	-12.0923
受持三歸	-12.0923
廻	-12.0923
千二百五十人	-12.0924
8	-12.0924
香水海	-12.0924
力無畏亦然	-12.0924
願往生禮讚偈	-12.0924
但可以無量無邊阿僧祇	-12.0925
與大比丘僧	-12.0926
法華會上	-12.0926
旹	-12.0926
丈六八尺	-12.0926
蓮華中化生	-12.0926
嬉戲	-12.0926
封疆	-12.0927
若眾生心憶佛念佛	-12.0927
覷	-12.0927
乙亥	-12.0927
復何疑哉	-12.0928
繫心一佛	-12.0928
師僧父母六親眷屬善知識法界眾生	-12.0928
不高不低	-12.0928
放眉間光	-12.0928
三賢十聖住果報	-12.0928
木瓜	-12.0928
豺狼	-12.0929
說難信法	-12.0929
丈六金身	-12.0929
蠟印印泥	-12.0929
天樂盈空	-12.0929
我滅度後	-12.093
亂心不得不佛	-12.093
乃真性中所現之	-12.093
今正是時	-12.093
人生百歲	-12.093
果徹因源	-12.093
一稱其名	-12.0931
慇	-12.0931
入菩薩位	-12.0931
量周沙界	-12.0931
以苦為樂	-12.0931
蔔	-12.0931
即佛是心	-12.0932
萬劫難復	-12.0932
厥號為龍樹	-12.0933
萬中無一	-12.0933
苞	-12.0933
披閱	-12.0934
作得主	-12.0934
眩	-12.0934
左劵	-12.0934
周續之	-12.0934
壽經除者	-12.0934
宮商	-12.0935
歡悅	-12.0935
若他觀者	-12.0935
哥	-12.0935
以名接物	-12.0935
葉葉相	-12.0935
成住壞空	-12.0935
歸命禮三寶	-12.0935
侍立左右	-12.0936
離念相者	-12.0936
鐸	-12.0936
此見及緣	-12.0936
券	-12.0936
八德池中	-12.0937
翰林學士	-12.0937
得初歡喜地	-12.0937
協	-12.0937
生一切淨土	-12.0937
其為壽也	-12.0937
摧伏	-12.0937
橛	-12.0938
空中有聲	-12.0938
崇禎	-12.0938
餘如扶新	-12.0938
深信切願	-12.0939
各據一	-12.0939
提携	-12.0939
著衣喫飯	-12.0939
脣	-12.0939
無常終是到來	-12.0939
跢	-12.0939
從外來	-12.0939
銅狗	-12.094
懵	-12.094
屋宅	-12.094
即其義也	-12.094
蜎飛	-12.094
譔	-12.094
歡娛	-12.094
釋成此宗	-12.094
楔	-12.094
放光接引	-12.094
成所作智	-12.0941
倏	-12.0941
謟	-12.0942
離言說相	-12.0942
逃逝	-12.0942
皎潔	-12.0942
柔順忍	-12.0942
坐脫立亡	-12.0942
根力覺道	-12.0943
誼	-12.0943
京都	-12.0943
愚痴	-12.0943
泗	-12.0943
合掌向西	-12.0944
金光明經	-12.0944
紳	-12.0944
郤	-12.0944
牟	-12.0944
速證菩提	-12.0944
白居易	-12.0944
𥨊	-12.0945
鳧	-12.0945
心靜慮	-12.0945
必上品生	-12.0945
糞穢	-12.0945
嘿	-12.0945
合掌而化	-12.0946
相與巳得	-12.0946
粉碎	-12.0946
蘧	-12.0946
饍	-12.0946
念不一不生極樂	-12.0947
鵬	-12.0947
淮	-12.0947
長一丈五尺	-12.0947
甘露灌頂	-12.0947
奘	-12.0948
叡	-12.0948
語言文字	-12.0948
臼	-12.0948
寂然不動	-12.0948
濤	-12.0949
碍	-12.0949
颺	-12.095
研究	-12.095
終日不變	-12.095
豎出三界	-12.095
夥	-12.095
珉	-12.0951
鞞	-12.0951
嬾	-12.0951
排斥	-12.0951
慙	-12.0951
諸天童子	-12.0951
鬚	-12.0951
個個	-12.0952
勻	-12.0952
非一非異	-12.0952
矍	-12.0953
瓊樹	-12.0953
西歸直指	-12.0953
荊王夫人	-12.0953
鉄	-12.0953
森羅	-12.0953
椎	-12.0953
妍	-12.0953
覿面	-12.0954
慈受深禪師	-12.0954
凜	-12.0954
獎	-12.0954
沐浴更衣	-12.0955
暢悅	-12.0955
右脇	-12.0956
嬴	-12.0956
刳	-12.0956
糾	-12.0957
彎	-12.0957
閔	-12.0957
萬劫千生	-12.0958
督	-12.0958
炮	-12.0958
猫	-12.0959
闥	-12.0959
簫	-12.0959
喨	-12.096
泮	-12.096
兜率內院	-12.096
銓	-12.0961
挨	-12.0962
嵐	-12.0963
旌教寺	-12.0963
罩	-12.0963
的確	-12.0963
宴坐	-12.0965
怱	-12.0965
默默	-12.0965
拄杖	-12.0965
巷	-12.0966
槌	-12.0966
俸	-12.0966
萇	-12.0968
茆	-12.0968
遁	-12.0969
生於西方極樂世界	-12.0971
馴	-12.0971
貸	-12.0971
湘	-12.0972
脊	-12.0972
瘁	-12.0972
以法界心	-12.0973
詵	-12.0974
永嘉集	-12.0976
苻	-12.0979
宼	-12.0979
圩	-12.0979
心外無境	-12.0984
硯	-12.0988
炯	-12.0997
諸佛同讚	-12.1027
四字名號	-12.1045
鼓音王	-12.1097
晨夕	-12.1098
清淨大海眾菩薩摩訶薩	-12.1098
乾隆四十	-12.1125
可不勉	-12.1164
殺盜婬妄	-12.118
觀若成	-12.1241
見無見	-12.1272
片刻	-12.1292
聖眾來迎	-12.1303
一生補佛	-12.1367
從初發心	-12.1427
補佛處	-12.1504
熾然求生	-12.1585
無忘失心	-12.1603
誓不中止	-12.1607
無執著心	-12.1607
懇苦翹誠	-12.1611
百千種香	-12.1611
好死惡死	-12.1612
祝願安樂	-12.1614
無禪無淨土	-12.1617
乃至非老死	-12.1617
所殺冤命	-12.1617
〈	-12.1618
〉	-12.1618
如修多羅說	-12.162
先備雨具	-12.162
誰人相代	-12.1621
隨佛方所	-12.1622
胡思亂想	-12.1623
樓聳七珍	-12.1623
手持金臺	-12.1624
不可說不可說佛剎極微塵數	-12.1625
我若欲見	-12.1626
還至本國	-12.1627
求醫服藥	-12.1627
發大勇猛	-12.1627
如此纔是念佛的人	-12.1627
當云何念	-12.1628
曼殊室利	-12.1628
一向專意	-12.1628
蜎飛蝡動之類	-12.1629
不往而往	-12.1629
積功累德	-12.163
釋迦巳滅	-12.163
長生不老	-12.1631
假使不能作諸功德	-12.1631
影入眾珠	-12.1631
食其肉	-12.1631
宮殿樓閣	-12.1631
影沉寒水	-12.1631
良有以也	-12.1632
持沙彌戒	-12.1632
隨業受生	-12.1632
􂎈	-12.1632
持八戒齋	-12.1633
亦稱讚我不可思議功德	-12.1634
惛	-12.1634
寶樹參天	-12.1634
醜陋	-12.1634
普門品	-12.1634
是故念淨土者	-12.1635
光中化佛無數億化菩薩眾亦無邊	-12.1635
閉眼之後	-12.1636
般泥洹	-12.1636
皆已成佛道	-12.1636
是即非即	-12.1636
以至蜎飛蠕動	-12.1636
盲聾瘖瘂	-12.1637
6	-12.1637
別時之意	-12.1637
其上輩者	-12.1637
凡有三輩	-12.1637
生汝心內	-12.1638
去來現在一切	-12.1638
後悔難追	-12.1638
智者熾然求生淨土	-12.1638
我人眾生壽者	-12.1639
無足疑也	-12.1639
多少修善	-12.164
乘急戒緩	-12.164
說誠實言汝等眾生當信是	-12.1641
刼	-12.1641
大修功德	-12.1641
結加趺坐	-12.1641
俻	-12.1641
華嚴離世間品	-12.1641
無厭足	-12.1642
屈伸臂頃	-12.1642
阿耨多羅	-12.1642
鬪戰	-12.1642
隨語生解	-12.1642
仿	-12.1642
滯情融朗	-12.1643
轆轤	-12.1643
眉間毫相	-12.1643
㲉	-12.1643
𡩋	-12.1643
胷	-12.1643
須懺業	-12.1644
有始無終	-12.1644
九品觀章	-12.1644
四聖六凡	-12.1644
虗靈不昧	-12.1645
不可勝紀	-12.1645
可不哀哉	-12.1645
煩惱無盡誓願斷	-12.1645
法照大師	-12.1645
搏	-12.1645
頭出頭沒	-12.1645
稱讚不可思議功德	-12.1646
棒喝	-12.1646
大願大力	-12.1646
由此推之	-12.1646
寶王三昧念佛直指	-12.1646
全事即理	-12.1646
全體大用	-12.1647
皆共成佛道	-12.1647
文潞公	-12.1647
鋟	-12.1647
迴心向大	-12.1648
三德秘藏	-12.1648
黃檗	-12.1648
淨土聖賢錄	-12.1649
以要言之	-12.1649
非自非他	-12.1649
寶性論	-12.1649
掠	-12.1649
傳燈錄	-12.165
遍十方界	-12.165
念念證真	-12.165
濡	-12.165
懷淨土詩	-12.165
亦此意也	-12.165
假使有人	-12.1651
非空非有	-12.1651
摩訶俱絺羅	-12.1651
妓	-12.1651
信為道元功德母	-12.1651
光陰迅速	-12.1651
則三界無復生	-12.1651
橫遍十方	-12.1651
弛	-12.1651
禮想儀	-12.1651
故以為名	-12.1651
八種清風	-12.1651
五根五力	-12.1652
乙卯	-12.1652
尿	-12.1652
嫗	-12.1652
叮	-12.1652
扞	-12.1652
眼耳鼻舌	-12.1653
分別解說	-12.1653
爺	-12.1653
迢迢	-12.1653
百劫千生	-12.1653
實際理地	-12.1653
圓淨四土	-12.1653
緇白	-12.1653
然臂香三炷	-12.1654
枳	-12.1654
分不及一	-12.1654
采	-12.1654
杻	-12.1655
孝廉	-12.1655
折衷	-12.1655
攝無不盡	-12.1655
理事無礙法界	-12.1656
語默動靜	-12.1656
旗	-12.1656
玉池蓮	-12.1656
蕚	-12.1657
雄俊	-12.1657
稔	-12.1657
蕅	-12.1657
如如不動	-12.1657
斷惡修善	-12.1657
離心緣相	-12.1657
【△	-12.1657
孫十二郎	-12.1658
丹霞	-12.1658
妍醜	-12.1658
對治悉檀	-12.1658
渟	-12.1658
奈之何	-12.1658
裳	-12.1659
敬然臂香九炷	-12.1659
明行足	-12.1659
登高科	-12.1659
蘄	-12.1659
牆壁	-12.166
渧	-12.166
二邊叵得	-12.166
吾佛道也	-12.166
孜孜	-12.166
鹹	-12.166
芻	-12.166
眇	-12.166
儕	-12.1661
諉	-12.1661
秤	-12.1661
觀音勢至二菩薩	-12.1661
勗	-12.1662
塹	-12.1662
喊	-12.1662
柳子厚	-12.1662
聞是經者	-12.1662
蛣𧏙	-12.1663
拄	-12.1663
鄞	-12.1663
直指人心見性成佛	-12.1664
慟	-12.1664
冐	-12.1664
芳草	-12.1664
開示悟入	-12.1664
統括	-12.1665
𢌞	-12.1665
殺物命	-12.1665
藪	-12.1665
溥	-12.1665
庚午	-12.1666
蘖	-12.1666
迷悶	-12.1666
大圓鏡	-12.1666
儱侗	-12.1667
珍禽	-12.1667
蛙	-12.1667
臍	-12.1667
蒂	-12.1667
栗	-12.1668
陪	-12.1668
媼	-12.1668
貢	-12.1669
餒	-12.1669
輞	-12.1669
即名為佛	-12.1669
宦	-12.1669
庖	-12.1669
身口意三業	-12.167
奴婢	-12.167
▁一心敬禮極樂世界	-12.167
四月八日	-12.167
李長者	-12.167
潘	-12.167
成無上道	-12.1671
硃	-12.1671
掀	-12.1671
沸湯	-12.1673
離一切相	-12.1673
姊	-12.1673
泠	-12.1674
頰	-12.1675
恉	-12.1675
犍	-12.1675
梏	-12.1676
答問第一	-12.1676
嵩	-12.1676
潄	-12.1676
宛轉花臺裹	-12.1678
褐	-12.1679
從生至	-12.1679
曳	-12.168
龔	-12.168
隍	-12.1681
一聲滅八十億劫生死重罪	-12.1682
思益經	-12.1682
歌舞	-12.1683
撒	-12.1683
釐	-12.1684
真修實證	-12.1684
琳	-12.1684
惻隱	-12.1684
池沼	-12.1687
泄	-12.1688
衾	-12.1689
翕	-12.1692
鎚	-12.1701
斷佛種	-12.1716
大雲經	-12.1736
蓮萼	-12.1738
谷響	-12.176
桃花	-12.1783
引經證	-12.1982
千八百	-12.2114
智者十疑論	-12.2274
真為生死	-12.2353
而共合成	-12.2373
不可稱智	-12.2375
無諸異念	-12.238
西方去此十萬億佛剎	-12.238
紹隆三寶	-12.238
常作如是說	-12.2382
若病重將終	-12.2383
如今是因	-12.2384
無始巳來	-12.2388
常觀此身	-12.2388
於意云何	-12.2389
如染香人身有香氣	-12.2389
無老苦也	-12.2392
入此道場	-12.2393
若晝若夜	-12.2394
攝護信心	-12.2394
水無留影之心	-12.2394
有愛必離	-12.2395
無愛別離苦也	-12.2395
除無量劫生死之罪	-12.2396
雖念念滅	-12.2396
是人中芬陀利華	-12.2396
不來而來	-12.2396
無上正真	-12.2396
周沙界	-12.2397
皆明垂言教	-12.2398
修五念門	-12.2399
一切世間天人阿修羅等	-12.2399
行無瘡疣	-12.2399
七十者稀	-12.2399
專為自利	-12.24
能如馬鳴龍樹否	-12.24
生大怖畏	-12.24
不守自性	-12.24
不得一日暫廢	-12.24
願同念佛人	-12.24
其中輩者	-12.2401
於無上道	-12.2401
與諸大眾現其人前	-12.2401
亦名為假名	-12.2401
或行或坐	-12.2402
修習善本	-12.2402
若三日若四日若五日若六日若七日	-12.2402
分陀利	-12.2402
畺	-12.2403
發大精進	-12.2403
巳曾供養	-12.2403
臭薉	-12.2403
無冤憎會苦	-12.2403
拘律陀	-12.2403
淨除業障	-12.2404
十聲念我名號	-12.2404
一專為憶	-12.2404
食三淨肉	-12.2404
轅	-12.2405
姦	-12.2405
須臾兩分	-12.2405
若復有人	-12.2405
萬無一失	-12.2405
諸小行菩薩	-12.2405
乾陀訶提	-12.2405
金口所宣	-12.2405
阿彌陀佛身金色相好光明無等倫	-12.2405
其義一也	-12.2405
令法種增長此世及後生願佛常攝受	-12.2405
不亦可乎	-12.2405
常憶常念	-12.2406
出沒自由	-12.2406
棘林	-12.2406
不可以少善根	-12.2406
當來之世	-12.2406
回小向大	-12.2406
白毫宛轉五須彌紺目澄清四大海	-12.2407
亦信因果	-12.2407
試自忖量	-12.2407
偷僧祇物	-12.2407
愚者為生所縛	-12.2407
聞無生即作無生解	-12.2407
善解義趣	-12.2407
聞生即作生解	-12.2407
有一念之不	-12.2407
在虗空中	-12.2408
統理大眾	-12.2408
不雜結使念	-12.2408
悟與未悟	-12.2408
暫信暫不信	-12.2408
入法界品	-12.2408
眼耳鼻舌身意	-12.2408
鑊湯爐炭	-12.2408
帶惑往生	-12.2409
發大乘心	-12.2409
說是語時	-12.2409
胎卵濕化	-12.2409
同一覺源	-12.241
母子歷生不相違遠	-12.241
手執金臺	-12.241
彼國常有種種奇妙雜色之鳥	-12.241
生佛非殊致	-12.241
此想成時	-12.241
依正本融通	-12.241
風貌清美	-12.241
簡易直捷	-12.241
臨終惡相	-12.2411
盡一氣為一念	-12.2411
自證分	-12.2411
六祖壇經	-12.2412
六十萬億那由他恒河沙由旬	-12.2412
若人願作佛	-12.2412
為意三業	-12.2412
一生取辦	-12.2412
同佛所證	-12.2412
氣極為度	-12.2412
諸大祖師	-12.2413
庶不負	-12.2413
一切世間難信之法	-12.2413
妄想馳逐	-12.2413
不苦不樂受	-12.2413
嗚呼哀哉	-12.2413
文成印壞	-12.2413
胞	-12.2413
面見彼佛阿彌陀即得往生安樂剎	-12.2413
心外無土	-12.2413
烏巾白衣	-12.2414
槖	-12.2414
永無出期	-12.2414
況戒定熏修	-12.2414
專精為功	-12.2414
趙州茶	-12.2414
清涼國師	-12.2414
慈愍三藏	-12.2415
有進無退	-12.2415
西方確指	-12.2415
色聲香味觸法	-12.2415
教稱十念	-12.2415
今生受者是	-12.2415
兩眉中間	-12.2416
看看行步龍鍾	-12.2416
嚕	-12.2416
梵語須摩提	-12.2416
全由信願	-12.2416
志不決定	-12.2417
錠	-12.2417
西資鈔	-12.2417
其或不然	-12.2417
疆	-12.2417
桶	-12.2417
殑伽河	-12.2417
直入如來地	-12.2417
依他起性	-12.2418
蠏	-12.2418
太極圖	-12.2418
脛	-12.2418
豚	-12.2418
勇健	-12.2418
見思二惑	-12.2418
大名德比丘	-12.2419
往生淨土懺願儀	-12.2419
廕	-12.242
觀念佛心起	-12.242
鬘	-12.242
唐太宗	-12.242
元是菩提妙淨明體	-12.242
三業俱惡	-12.2421
𢬵	-12.2421
普皆迴向	-12.2421
六十二見	-12.2421
念佛是藥	-12.2421
假饒金玉滿堂	-12.2421
憍陳如	-12.2421
從一相好入	-12.2422
湊泊	-12.2422
一寶二寶	-12.2422
抒	-12.2422
憩	-12.2422
不相干	-12.2423
奮迅	-12.2424
兢	-12.2424
伽伽那	-12.2424
寵	-12.2424
妹	-12.2424
刊板	-12.2424
過去現在未來	-12.2425
南無阿彌多婆夜	-12.2425
糞壤	-12.2425
亘古亘今	-12.2425
嗅	-12.2426
以理奪事	-12.2426
三摩提	-12.2426
蠲	-12.2426
一切時一切處	-12.2426
以黃金繩	-12.2426
即此意也	-12.2427
一多相即	-12.2427
傲慢	-12.2427
蕉	-12.2427
傀	-12.2427
圭峯	-12.2428
籤	-12.2428
賒	-12.2428
前五識	-12.2428
殺盜淫	-12.2428
姚秦三藏法師鳩摩羅什	-12.2429
湎	-12.2429
八長養諸根	-12.2429
佛佛道同	-12.2429
於大眾中	-12.2429
悼	-12.243
黏	-12.243
▁一心奉請南無	-12.243
症	-12.243
槁	-12.243
蹶	-12.243
褥	-12.243
造諸惡業	-12.243
薙髮	-12.243
柁	-12.2431
回光返照	-12.2431
滲漏	-12.2431
荼	-12.2431
燧	-12.2431
禾	-12.2431
蝨	-12.2432
搬	-12.2432
曾魯公	-12.2433
分十四支	-12.2433
矚	-12.2433
舛	-12.2433
把握	-12.2433
濯	-12.2433
阿彌陀佛常住其頂	-12.2434
貝葉	-12.2434
縈纏	-12.2434
泥犂	-12.2434
侔	-12.2434
麝	-12.2435
拏	-12.2435
生死關頭	-12.2435
叶	-12.2435
繙	-12.2436
張抗	-12.2436
仆	-12.2436
鬚髮	-12.2437
蟄	-12.2437
閃爍	-12.2437
摹	-12.2437
疽	-12.2438
祚	-12.2438
涇	-12.2438
白飯王	-12.2438
何患不	-12.2438
猷	-12.2439
愕	-12.2439
忱	-12.2439
辜負	-12.244
迦維	-12.2441
吾行矣	-12.2443
戒疏發隱	-12.2443
戟	-12.2443
朝廷	-12.2443
謫	-12.2444
撤	-12.2444
柄	-12.2444
杜撰	-12.2444
裕	-12.2445
涸	-12.2446
藩	-12.2446
為作證明	-12.2446
顓	-12.2447
密行第一	-12.2447
屣	-12.2447
彷彿	-12.2447
七佛以來	-12.2447
醇	-12.2448
巫	-12.2448
萃	-12.2448
洩	-12.2448
噴	-12.2448
距	-12.2449
虐	-12.2449
事不辦	-12.245
狄	-12.2451
扇繩	-12.2452
峩	-12.2452
憲	-12.2452
巗	-12.2454
貿	-12.2454
有八萬四千光明	-12.2456
緬	-12.2456
剜	-12.2458
依何而	-12.2459
一合相	-12.2461
十往生經	-12.2463
哂	-12.2465
汾州	-12.2468
詬	-12.2469
梭	-12.2471
何言哉	-12.2471
郊	-12.2477
如汝所	-12.2528
潭州	-12.2531
南無本師阿彌陀	-12.2536
一心歸命極樂世界	-12.2621
紅藕	-12.2728
願求生極樂國	-12.2912
自下第	-12.2971
四重五逆	-12.2978
能作主	-12.3191
更受女身	-12.3206
其香普熏	-12.3206
起隨念心	-12.3209
當華敷時	-12.321
性具十界亦然	-12.3213
求佛種智	-12.3214
第十八願	-12.3214
佛身高六十萬億那由他恒河沙由旬	-12.3216
極為大幸	-12.3218
以疑惑心	-12.3221
𩬊	-12.3221
其有至心願生彼國	-12.3222
攝取念佛眾生	-12.3222
彼蒙解脫	-12.3223
皆演妙法	-12.3224
我不往彼	-12.3224
經於七日	-12.3224
其下輩者	-12.3225
授手迎接	-12.3225
玻	-12.3226
高超十地	-12.3226
是故得成此光明	-12.3226
常隨佛學	-12.3227
驟雨忽至	-12.3227
即隨彼佛	-12.3227
往生安樂剎	-12.3228
與佛齊等	-12.3228
即是不生不滅法	-12.3229
稱如來名	-12.3229
肩發𦦨	-12.3229
破塵沙惑	-12.3229
恐繁不	-12.3229
宗說皆通	-12.323
捨身他世	-12.323
團圓正等	-12.323
同於形影	-12.323
不相乖異	-12.323
了義中了義	-12.323
臨終不得念佛	-12.323
此諸大士	-12.323
修一時淨業	-12.3231
八方上下	-12.3232
橫具四土	-12.3232
色妖婬	-12.3232
蓮華方開	-12.3232
彌陀願重	-12.3233
開目閉目	-12.3233
四者狂亂失心	-12.3233
普聞眾聲	-12.3233
內外映徹	-12.3233
修行日淺	-12.3233
菩薩猶昏隔陰	-12.3234
鴈過長空	-12.3234
瑠	-12.3234
初學是法	-12.3234
南無觀世音菩薩南無大勢至菩薩南無	-12.3234
誠哉是言也	-12.3235
鑛	-12.3235
如是至心令聲不絕	-12.3235
亦生我剎中	-12.3235
修心玅觀	-12.3235
為其廣說諸法實相	-12.3235
名聲超十方	-12.3235
懊惱	-12.3236
得無礙辯才	-12.3236
自疾不能救	-12.3236
見此事時	-12.3236
我此道場如帝珠	-12.3236
業不能繫	-12.3237
我本因地	-12.3237
十氣連屬	-12.3237
求哀懺悔	-12.3238
以十大願王	-12.3238
名超日月光	-12.3238
智者知心是佛	-12.3238
身見邊見	-12.3238
慈恩通讚	-12.3238
面奉彌陀	-12.3239
不能度無緣	-12.3239
體性堅凝	-12.3239
臰	-12.3239
如雞抱卵	-12.3239
躐	-12.3239
名一佛土	-12.3239
以念念即佛故	-12.324
讚歎阿彌陀佛不可思議功德之利	-12.324
幽冥之處	-12.324
中初句標	-12.324
搖撼不動	-12.324
若其未也	-12.3241
憎嫉	-12.3241
深入經藏	-12.3241
大乘善根界	-12.3241
名稱普聞	-12.3241
虱	-12.3241
印壞文成	-12.3241
心佛眾生三無差別	-12.3242
偏有因緣	-12.3242
閻浮檀金	-12.3242
三十六萬億	-12.3242
便蒙鈔	-12.3242
夜叉羅剎	-12.3242
殊途同歸	-12.3242
度盡眾生	-12.3242
竪窮橫徧	-12.3242
代不乏人	-12.3243
造立宮室	-12.3243
如脫敝	-12.3243
是故彼國名為極樂	-12.3243
耳裏親聞	-12.3243
化為百寶色鳥	-12.3243
艸	-12.3243
在蓮華中	-12.3243
君子不器	-12.3243
護七師	-12.3244
得生與否	-12.3244
嗤	-12.3244
蕪	-12.3244
常見之所失也	-12.3245
所起之念	-12.3245
時至復現	-12.3245
膿	-12.3245
如爪上土	-12.3245
空生大覺中	-12.3246
天地懸隔	-12.3246
西歸行儀	-12.3247
即從座起	-12.3247
無分散意	-12.3247
偪	-12.3247
髮白面皺	-12.3247
淨土妙門	-12.3248
砥	-12.3248
不以人廢言	-12.3248
漸漸雞皮鶴髮	-12.3249
桴	-12.3249
諸天人等	-12.3249
我願不可盡	-12.3249
阿閦佛	-12.3249
佛壽無量	-12.325
不寒心	-12.325
妣	-12.325
和鳴哀雅	-12.325
珊	-12.3251
妄生分別	-12.3251
當證知我	-12.3251
黍	-12.3251
枷鎖	-12.3251
蚊蚋	-12.3252
治世語言	-12.3252
間斷夾雜	-12.3252
親近明師	-12.3252
五停心	-12.3252
顛沛	-12.3253
難中之難	-12.3253
抹	-12.3253
調御丈夫	-12.3253
轉大法輪	-12.3253
一一塵中	-12.3253
無量壽莊嚴經	-12.3253
畟	-12.3253
朵朵	-12.3254
冢	-12.3254
菴摩羅識	-12.3255
峙	-12.3255
作此想時	-12.3255
荀	-12.3256
八十八使	-12.3256
三藐三佛陀	-12.3256
廷	-12.3256
諸根悅豫	-12.3256
丁亥	-12.3256
丐	-12.3256
三根普被	-12.3257
如大火聚	-12.3257
洋銅	-12.3257
涕唾	-12.3257
鞠	-12.3257
毀呰	-12.3257
霆	-12.3257
撈	-12.3257
見與見緣	-12.3257
狎	-12.3257
牖	-12.3258
鍛	-12.3258
恍惚	-12.3258
從空入假	-12.3258
仙陀婆	-12.3258
䭾	-12.3258
系	-12.3258
伽彌膩	-12.3258
兇	-12.3259
澆漓	-12.3259
孰能加焉	-12.3259
腋	-12.3259
清珠下於濁水	-12.3259
澁	-12.3259
荊谿	-12.3259
周圍五寸	-12.326
湮	-12.326
富樓那	-12.326
一澄淨	-12.326
出佛身血	-12.326
儡	-12.326
六道無復往	-12.326
瓘	-12.326
翥	-12.3261
溈	-12.3261
五重玄義	-12.3261
𠃔	-12.3261
幟	-12.3261
萬牛莫挽	-12.3262
唎	-12.3262
舂	-12.3262
光一尋	-12.3263
未得謂得	-12.3263
髏	-12.3263
凑	-12.3263
氛	-12.3263
蹊	-12.3263
千生萬劫	-12.3263
剔	-12.3264
劄	-12.3264
翦	-12.3264
梁武帝	-12.3264
盼	-12.3265
摩訶拘絺羅	-12.3265
遼	-12.3265
虗無寂滅	-12.3265
餉	-12.3265
聲王經	-12.3265
渚	-12.3266
妒	-12.3267
扉	-12.3267
澈	-12.3267
蓮華國裏	-12.3268
非縱非橫	-12.3269
哉言乎	-12.3269
張鍾馗	-12.3269
蛉	-12.3269
信深願切	-12.3269
一二三四	-12.3269
􂌞	-12.3269
饕	-12.3269
阿賴耶識	-12.327
糟	-12.327
伍	-12.327
酣	-12.327
勉旃	-12.3271
菩薩處胎經	-12.3271
認賊為子	-12.3271
恊	-12.3271
霾	-12.3272
猜	-12.3272
庠	-12.3273
烏龍山	-12.3273
坎	-12.3273
椽	-12.3274
球	-12.3274
淡泊	-12.3275
不能相救	-12.3275
腮	-12.3275
燥	-12.3276
雁門人	-12.3276
捲	-12.3276
威音那畔	-12.3276
揩	-12.3277
旺	-12.3277
鑰	-12.3277
芬芳	-12.3277
擘	-12.3277
葵	-12.3277
薙染	-12.3277
若生人中	-12.3277
中上品生	-12.3277
釵	-12.3278
犯輕垢罪	-12.3278
屎	-12.3278
不特此也	-12.328
刷	-12.328
橘	-12.328
蔗	-12.328
八八兒	-12.328
怠惰	-12.3281
踞	-12.3281
灣	-12.3282
稅	-12.3282
誓取金臺	-12.3283
商賈	-12.3284
罥	-12.3284
韜	-12.3284
韋䭾	-12.3284
崔	-12.3286
齧	-12.3286
苔	-12.3286
賤態	-12.3287
齅	-12.3287
衫	-12.3287
圭峰	-12.3289
弔	-12.3292
徼	-12.3293
陶淵明	-12.3294
曰象形如	-12.3295
紊	-12.3296
歆	-12.3298
瘤	-12.3299
廊	-12.3301
梧	-12.3304
塟	-12.3316
出世間上上	-12.3513
餘剎菩薩聞我名巳	-12.4104
謂一悟之後	-12.4108
讀誦大乘方等經典	-12.4115
百二十三人	-12.4115
盡報精修	-12.4116
念佛發願之時	-12.4117
凡來我前	-12.4118
自地以上	-12.4119
及與眾生空	-12.4119
怨賊所追	-12.4119
常與名利相應故	-12.4121
池流華樹	-12.4121
十萬億剎之遐方	-12.4122
與佛本願不相應故	-12.4124
如或言行不稱	-12.4124
萬劫與千生	-12.4126
聞眾音聲	-12.4126
誠不易到也	-12.4126
即淨土受生之心	-12.4126
心具而造	-12.4126
須是不得怕死	-12.4127
佛告普廣	-12.4127
風火逼迫	-12.4127
可謂寒心	-12.4127
聞甚深法	-12.4128
或復夢見阿彌陀佛勝妙色	-12.4128
靈靈不昧	-12.4129
萬年闇室	-12.4129
箭深毒磣	-12.413
世念未休	-12.413
寶積十心	-12.4131
如得船者	-12.4131
撥棄世事	-12.4131
却又怕死	-12.4132
豈分能所	-12.4132
持金蓮華	-12.4132
見佛三昧增上緣	-12.4132
詆訶淨土	-12.4132
全佛是心	-12.4132
莫生戀著	-12.4133
聲色所縛	-12.4133
飽食過度	-12.4133
親屬不得垂淚哭泣	-12.4133
覺即續之	-12.4133
直入水救	-12.4134
興慈運悲	-12.4134
有冤必會	-12.4134
得隨順忍	-12.4134
我之盤纏	-12.4134
斷四住惑	-12.4134
雖修餘行	-12.4134
心不倒散	-12.4134
一切世閒	-12.4134
願弟子等	-12.4135
聲和則響順	-12.4135
造種種五陰	-12.4135
昏迷致死	-12.4136
常念此身多苦	-12.4136
悉願斷除三障	-12.4136
形直則影端	-12.4136
何用繫念彼佛	-12.4137
具如真佛	-12.4137
坐禪三昧經	-12.4137
根莖枝葉	-12.4137
能如忠國師否	-12.4138
為水所溺	-12.4138
應自審察	-12.4138
佛以大圓覺	-12.4138
方有後心是	-12.4138
一人情急	-12.4138
我見是利故說此言	-12.4138
則有投宿之地	-12.4138
各於其國出廣長舌相徧覆三千大	-12.4139
易往而無人	-12.4139
待老來方念佛	-12.4139
聲聞尚昧出胎	-12.4139
心是果佛	-12.4139
不違教故	-12.4139
如大山崩	-12.414
壞彼信心	-12.414
若人專念一方佛	-12.414
飄然輕舉	-12.414
身毛皆竪	-12.414
希心起想	-12.414
惡獸魑魅	-12.414
至心想像見佛時	-12.414
豈得相比	-12.4141
南無西方極樂世界大慈大悲阿彌陀佛	-12.4141
當知如來有勝方便	-12.4141
希從昔賢	-12.4141
宮殿樓觀	-12.4142
自障障他	-12.4142
經十念頃	-12.4142
如淨滿月	-12.4142
我以顛倒想	-12.4142
專注一境	-12.4142
出沒生死中	-12.4142
一心一智慧	-12.4142
空無所獲	-12.4142
來生作佛祖	-12.4142
紹祖師位	-12.4143
戒之戒之	-12.4143
生死去住	-12.4143
舍利鱗砌	-12.4143
又示尊像令瞻敬	-12.4143
高接下	-12.4143
善友未必相遇	-12.4144
微風徐動	-12.4144
何嗟及矣	-12.4144
自性天真之佛	-12.4144
處處皆淨土	-12.4144
如我今者稱讚諸佛不可思議功德	-12.4144
得一時工夫	-12.4144
既從一念生	-12.4144
何善如之	-12.4145
棗柏	-12.4145
有六十七億不退菩薩	-12.4145
今於此界	-12.4145
不以有心念	-12.4145
穽	-12.4145
專想不移	-12.4146
遇斯光者	-12.4146
九十八使	-12.4146
那先經云	-12.4146
頂禮佛足	-12.4146
阿毘跋致	-12.4147
恭稟佛	-12.4147
陰入界	-12.4147
三藐三菩	-12.4147
苦樂二報	-12.4147
▁196	-12.4147
其心怯弱	-12.4147
莫以一時貢高	-12.4147
諸法不自生	-12.4148
方顯初心是	-12.4148
融心解	-12.4148
汝等皆當信受我語及諸佛所說	-12.4148
三百餘會	-12.4148
日光暫至	-12.4148
太原曰	-12.4148
亦不從他生	-12.4149
藏通二教	-12.4149
圭	-12.4149
巔	-12.4149
實際理地不受一塵	-12.4149
我慢貢高	-12.4149
心猿意馬	-12.4149
日月星辰	-12.4149
等無譏嫌名	-12.4149
踈	-12.4149
死却多少	-12.415
誰之過歟	-12.415
但觀眉間白毫	-12.415
汨	-12.415
要其所歸	-12.415
南謨阿彌陀佛	-12.4151
獲得常色	-12.4151
贍	-12.4151
無能及者	-12.4151
本有佛性力	-12.4151
鱔	-12.4151
全由持名之深淺	-12.4151
初現相表彰	-12.4151
轂	-12.4151
有行無願	-12.4151
是誰之咎	-12.4151
當學此法	-12.4152
何故名為一切諸佛所護念經	-12.4152
九品咸令登彼岸	-12.4152
令心堅住	-12.4152
金銀瑠璃玻	-12.4152
往生呪三遍	-12.4152
唐宜之	-12.4152
肇法師云	-12.4152
有願無行	-12.4152
一日不過數里	-12.4153
鈞	-12.4153
至圓至頓	-12.4153
▁一心頂禮西方極樂世界在池水上	-12.4153
增一阿含經	-12.4153
蘇子瞻	-12.4153
紺目澄清四大海	-12.4153
痒	-12.4154
中初翻名	-12.4154
微風吹動諸寶行樹	-12.4154
容心哉	-12.4154
如海一漚發	-12.4154
芟	-12.4154
改頭換面	-12.4155
憒	-12.4155
未之有也	-12.4155
私淑	-12.4156
契理契機	-12.4156
至頓至圓	-12.4156
手忙脚亂	-12.4156
聦	-12.4156
萬牛不能挽矣	-12.4156
不寒不熱	-12.4156
植眾德本	-12.4156
故佛又號	-12.4156
則有十佛	-12.4157
欵	-12.4157
南西北方	-12.4157
凡所有相	-12.4158
一身一智慧	-12.4158
翹勤五體	-12.4158
無量清淨平等覺經	-12.4158
心包太虗	-12.4158
毫釐	-12.4158
無始劫來	-12.4158
水火盜賊	-12.4159
不有不無	-12.4159
六八大願	-12.416
百界千如	-12.416
迷本淨心	-12.416
影現百川	-12.416
佛國雖空	-12.416
信為能入	-12.416
盃	-12.416
匣	-12.4161
隨其心淨即佛土淨	-12.4161
同名同號	-12.4161
過去劫中	-12.4161
十住斷結	-12.4161
法爾如然	-12.4162
滅無量罪	-12.4162
王仲回	-12.4162
誠可畏也	-12.4162
繹	-12.4162
釋迦毗楞伽	-12.4162
若依若正	-12.4162
法界藏身	-12.4162
從其口出	-12.4162
多不善聚	-12.4163
勛	-12.4163
版	-12.4163
又要說幾句	-12.4163
駁	-12.4164
本質境	-12.4164
妙法蓮華經	-12.4164
恰恰	-12.4164
盡情放下	-12.4165
地獄畜生餓鬼	-12.4165
鄒	-12.4165
難免衰殘老病	-12.4166
六度齊修	-12.4166
并所想相	-12.4166
同會一處	-12.4167
不鼓自鳴	-12.4167
蠻	-12.4167
燋	-12.4167
能破有無宗	-12.4167
豈欺我哉	-12.4167
雜廁間錯	-12.4168
涂	-12.4168
此吾金仙氏之長生也	-12.4168
空合空	-12.4168
歸故里	-12.4169
薑	-12.4169
入道多門	-12.4169
癃	-12.4169
瓊林玉沼	-12.4169
心淨佛土淨	-12.4169
世宗憲皇帝	-12.417
不思議神力傳	-12.417
身壞時	-12.417
邈	-12.417
鬻	-12.417
脆	-12.417
集諸經禮懺儀	-12.4171
埵	-12.4171
從本巳來	-12.4171
咫	-12.4171
哆地夜他	-12.4171
兢兢	-12.4171
講堂精舍	-12.4171
一切苦厄	-12.4172
前路茫茫	-12.4172
因圓果滿	-12.4173
鼈	-12.4173
矛盾	-12.4173
誐	-12.4173
鴨	-12.4173
紹隆佛種	-12.4173
蚌	-12.4173
無見頂相	-12.4174
百尺竿頭	-12.4174
發決定心	-12.4174
何曾有一念	-12.4174
有了期	-12.4174
癩	-12.4174
妝	-12.4174
斷常二見	-12.4174
萍	-12.4175
這句佛	-12.4175
褻	-12.4175
正法眼藏	-12.4175
江公望	-12.4175
口四業	-12.4175
慈雲懺主遵式	-12.4176
來安慰汝	-12.4177
波羅奈城	-12.4177
淨土自信錄	-12.4177
白牛車	-12.4177
平等覺經	-12.4177
爼	-12.4178
譴	-12.4178
蜣	-12.4179
何幸如之	-12.4179
僖	-12.4179
𥧌	-12.4179
瀆	-12.418
入法正位	-12.418
知星宿第一	-12.418
熬	-12.4181
塵塵剎剎	-12.4181
壎	-12.4181
涅	-12.4181
裸	-12.4182
罏	-12.4182
糠	-12.4182
娩	-12.4182
札	-12.4182
躅	-12.4183
皡	-12.4183
盍	-12.4183
頇	-12.4183
徽	-12.4183
感此道身	-12.4183
蘿	-12.4184
豔	-12.4184
椀	-12.4184
鬮	-12.4185
碌碌	-12.4185
勺	-12.4185
住其頂	-12.4185
穫	-12.4185
樊籠	-12.4186
娠	-12.4187
大聖大賢	-12.4187
省一大師	-12.4188
棋	-12.4188
篆	-12.4188
稻	-12.4188
名秘密藏	-12.4189
駒	-12.4189
潦	-12.419
詁	-12.419
陌	-12.419
泊然而化	-12.419
犬豕	-12.419
櫓	-12.419
𡨥	-12.419
鋸	-12.419
徧緣法界	-12.4191
慝	-12.4191
桎	-12.4191
鳩摩羅什	-12.4191
箕	-12.4192
金翅鳥	-12.4193
海之慈航	-12.4193
靡所不	-12.4193
冤憎會	-12.4193
昊	-12.4194
𩯭	-12.4194
寥	-12.4194
毅	-12.4194
袋	-12.4195
囹圄	-12.4195
而得度者有	-12.4195
若其心念念	-12.4196
儲	-12.4197
絹	-12.4198
拚	-12.4201
月十一日	-12.4202
蒿	-12.4202
股	-12.4202
芙蓉	-12.4203
蓬萊	-12.4203
│├────┤│	-12.4206
賑	-12.4206
滔	-12.4208
憊	-12.4208
綻	-12.4209
黶	-12.4215
幅	-12.4222
東方人造	-12.4226
消歸自	-12.4237
南無至心歸命禮西方極樂世界	-12.4384
覆其上	-12.4523
千七百公案	-12.5018
更饒爾	-12.5106
心業畫師	-12.5111
不須愁遠	-12.5113
若在狴牢	-12.5119
果則不虗	-12.5119
故有捨家出家	-12.5119
無極之壽	-12.5119
慕蘭若之寂靜	-12.5119
而娑婆眾苦	-12.5119
更饒你	-12.5119
知出家為美	-12.512
起於大慈	-12.512
非緣起新成	-12.5121
待臨終方念佛	-12.5121
若一念差錯	-12.5122
其惑一也	-12.5122
晝必有夜	-12.5122
東攀西緣	-12.5123
遠求知識	-12.5123
世網中人	-12.5123
濟何事也	-12.5124
頻來䇿勵	-12.5124
樂近雜緣	-12.5125
其惑二也	-12.5125
有數數間斷之意	-12.5126
無念念相續之心	-12.5126
一演圓音	-12.5126
而不慕清淨海眾	-12.5126
與教相違故	-12.5126
無不明契	-12.5126
其惑三也	-12.5127
若得明曉淨土之人	-12.5127
一句彌陀最方便	-12.5127
彼諸如來不來至此	-12.5127
非內非外	-12.5127
見有臨終勸念佛	-12.5127
傷壞性命	-12.5128
上壽不過百歲	-12.5128
恐難值其善友	-12.5128
今世為惡死生天堂者	-12.5129
始終不離於當念	-12.513
身諸毛孔	-12.513
其惑四也	-12.5131
應須因實	-12.5131
是出三界之徑路	-12.5131
若乃位居不退	-12.5131
無勸念之理	-12.5131
和光五濁	-12.5131
是故汝等心想佛時	-12.5131
多生病患	-12.5131
於煩惱大苦海中	-12.5132
居塵不塵	-12.5132
在欲無欲	-12.5132
一一心塵復互周	-12.5132
心多濁亂	-12.5132
今始覺知	-12.5132
得換珍服	-12.5132
願求生彼世界	-12.5133
若人專念西方極樂世界阿彌陀佛	-12.5133
其惑五也	-12.5133
超佛越祖	-12.5134
薄淨土而不修	-12.5134
當起想念	-12.5134
魔外絕蹤	-12.5134
不嫉彼供	-12.5135
莫不咸然	-12.5135
其有淺聞單慧	-12.5135
能如天台智者否	-12.5136
威儀無缺	-12.5136
執手爐	-12.5136
行解兼修	-12.5136
墜高巖	-12.5136
一切諸根悉皆散壞	-12.5136
初無彼此異	-12.5136
彼佛教我念佛三昧	-12.5137
若得捨此穢身	-12.5137
若行若坐	-12.5137
遂即捨命	-12.5137
參而不雜	-12.5137
一切威勢悉皆退失	-12.5137
為我廣說無憂惱處	-12.5137
諸佛如來所遊居處	-12.5137
唯有業隨身	-12.5137
但聞佛名二菩薩名	-12.5137
耎	-12.5137
亦復舉體作生作佛	-12.5137
物來斯應	-12.5137
皆蒙解脫	-12.5137
千夫不制	-12.5138
如觀世音等	-12.5138
閩	-12.5138
十方三世佛阿彌陀第一	-12.5138
如執明鏡自見面像	-12.5139
日夜歡樂	-12.5139
說二百一十億諸佛剎土	-12.5139
教化諸群生	-12.514
極令明了	-12.514
聞者常起念佛念法念僧之心	-12.514
境為妙假觀為空	-12.514
如來有異方便	-12.514
定脫輪迴否	-12.5141
楷	-12.5141
我今自憶	-12.5141
如心佛亦爾	-12.5141
二者業苦纏身	-12.5141
又如千年積柴	-12.5141
我憶往昔恒河沙劫	-12.5141
色究竟天	-12.5141
阿鼻大地獄	-12.5141
生無欲國土	-12.5141
西方世界有無量壽佛	-12.5141
放淨光明	-12.5141
口離四過	-12.5141
四緣所生	-12.5141
非是他人障	-12.5141
運同體悲	-12.5141
應時即發菩提之心	-12.5141
受如來記	-12.5142
皆是自障心	-12.5142
面奉阿彌陀	-12.5142
非九界自力	-12.5142
皆三業所造	-12.5142
邪見障覆心	-12.5142
廣造十惡	-12.5142
俾於佛所深歸仰	-12.5142
定無苦惱否	-12.5142
十人九蹉路	-12.5142
煩惱畢竟不起	-12.5142
孰與諸聖	-12.5142
楞伽經有預記之文	-12.5142
說是語巳	-12.5143
無對光佛	-12.5143
罕一得道	-12.5143
念實無念	-12.5144
惡業厚重	-12.5144
謂不必生者	-12.5144
隔陰之昏	-12.5145
髮毛爪齒	-12.5145
人所共知	-12.5145
果佛圓明之體	-12.5145
焰肩佛	-12.5145
淨土不足生也	-12.5145
經於六劫	-12.5145
再甦而證妙因	-12.5145
莫速於雄俊	-12.5145
法界圓融體	-12.5145
猶如帶角虎	-12.5145
今下明今	-12.5145
冷煖自知	-12.5146
不必更見阿彌	-12.5146
入得此門	-12.5146
捨煖觸	-12.5146
諸佛菩薩以大悲為業	-12.5146
▁117	-12.5147
吾當超佛越祖	-12.5147
▁118	-12.5147
懺悔同前後	-12.5147
恍如一夢	-12.5147
弗沙佛	-12.5147
世間難信法	-12.5147
惟有業隨身	-12.5147
願此香煙雲	-12.5147
何遠之有	-12.5147
破他勝德	-12.5148
仍有良導	-12.5148
最上勝智	-12.5148
純一無雜	-12.5148
▁119	-12.5148
以音聲求我	-12.5148
劣夫從轉輪王	-12.5148
感應隨時現	-12.5148
是人行邪道	-12.5148
普利一切眾生界	-12.5149
觀音侍左	-12.5149
若以色見我	-12.5149
▁42	-12.5149
離土無身	-12.5149
畢此一生	-12.5149
或者疑之	-12.5149
土外無心	-12.515
難行能行	-12.515
願力弘深	-12.515
瞋癡從身語意之所生	-12.515
不契心源	-12.515
從因至果	-12.515
因中有果	-12.515
狀如懸鼓	-12.515
舉身投地	-12.515
助佛揚化	-12.515
吳子才	-12.515
是男是女總堪修	-12.5151
上求下化	-12.5151
舉正報以收依果	-12.5151
至簡易至直捷	-12.5151
因緣總戒清	-12.5151
願悉消滅	-12.5151
國學進士王日休譔	-12.5152
不可勝計	-12.5152
行行相值	-12.5152
理常平等	-12.5152
痾	-12.5152
唄	-12.5152
杲	-12.5153
作我一念心	-12.5153
自他兼利	-12.5153
此云妙高	-12.5153
其福勝彼	-12.5153
塵境麤強	-12.5154
得法眼淨	-12.5154
所結冤業	-12.5154
弩	-12.5154
▁197	-12.5154
是稱法行	-12.5154
數他寶	-12.5155
唯由發願	-12.5155
我昔所造諸惡業皆由無始貪	-12.5155
普賢在東	-12.5155
丁蓮侶	-12.5155
無所味著	-12.5155
隷	-12.5155
佛是所觀勝境	-12.5155
▁120	-12.5156
成最正覺	-12.5156
眾聖中尊	-12.5156
念佛的是誰	-12.5156
舍利弗極樂國土成就如是功德莊嚴	-12.5156
善中之善	-12.5157
三賢十聖	-12.5157
可不慎乎	-12.5157
不知禮義	-12.5157
心無一切貪戀迷惑	-12.5157
心不怯弱	-12.5157
一真法性中	-12.5157
千世界說誠實言汝等眾生當信是	-12.5157
奄然而逝	-12.5157
如蓮華開敷	-12.5157
甄叔迦	-12.5158
乘佛本願	-12.5158
阿彌哩打	-12.5158
㗚	-12.5158
蜎飛蝡動	-12.5158
還得淨心	-12.5158
障深慧淺	-12.5158
紆	-12.5158
執理廢事	-12.5158
起惑造業	-12.5159
我實不往	-12.5159
驪	-12.5159
滿一萬劫	-12.5159
蚕	-12.5159
兆載永劫	-12.5159
│	-12.5159
能禮所禮性空寂	-12.5159
人法二執	-12.5159
莖莖相望	-12.516
而三而一	-12.516
多陀阿伽度	-12.516
即以食時還到本國	-12.516
說要報重	-12.516
住立空中	-12.516
有劫石焉	-12.5161
奩	-12.5161
彈指即到	-12.5161
嘲	-12.5161
娑婆有一境	-12.5161
像法決疑經	-12.5161
弃	-12.5161
痰	-12.5162
是祖師西來意	-12.5162
自家屋裏	-12.5162
可不慎哉	-12.5162
吻	-12.5162
禎	-12.5162
照見五蘊皆空	-12.5162
度過此一種苦厄	-12.5162
出三界外有淨土	-12.5163
經律異相	-12.5163
音響忍	-12.5164
如是十氣	-12.5164
救生船	-12.5164
鑾	-12.5164
失却人身	-12.5164
感而遂通	-12.5164
後魏曇鸞	-12.5165
衒	-12.5165
號為神鸞	-12.5165
襄	-12.5165
願深思之	-12.5165
隴	-12.5165
四大部洲	-12.5165
䞋	-12.5165
菩薩藏攝	-12.5165
馭	-12.5166
成佛作祖	-12.5166
嚥	-12.5166
稗	-12.5166
豈不惑哉	-12.5166
王敏仲侍郎	-12.5166
晉慧遠法師	-12.5166
萬萬千千	-12.5167
躊	-12.5167
磵	-12.5167
闈	-12.5167
闕一不可	-12.5167
停心注想	-12.5167
馱	-12.5167
此身不向今生度	-12.5168
若合符節	-12.5169
不專在佛	-12.5169
阿伽陀藥	-12.5169
佛從心現	-12.5169
南天竺國中	-12.5169
芬馥	-12.517
四無礙辯	-12.517
參念佛是誰	-12.517
我法二執	-12.517
皂	-12.517
悉達太子	-12.517
兌	-12.5171
以佛道聲	-12.5171
紫磨金	-12.5171
隨他去	-12.5171
犀	-12.5171
豹	-12.5171
循業發現	-12.5171
窮未來際	-12.5172
毫芒之善	-12.5172
們	-12.5172
藜	-12.5173
炤	-12.5173
峭	-12.5173
聘	-12.5173
諮	-12.5173
遮照同時	-12.5173
無諸惡道及眾苦	-12.5173
莎	-12.5173
薄伽梵	-12.5174
浹	-12.5174
鳧鴈鴛鴦	-12.5174
沈空滯寂	-12.5174
瀛	-12.5174
刀山劒樹	-12.5174
極樂世界清淨土	-12.5174
义	-12.5174
螟	-12.5174
蟹	-12.5174
餚	-12.5174
萬別千差	-12.5175
光明徹照	-12.5175
志士仁人	-12.5175
冒	-12.5175
從冥入冥	-12.5175
跌	-12.5175
斑	-12.5175
盾	-12.5176
風吟寶葉	-12.5176
瞭	-12.5176
陟	-12.5176
誨人不倦	-12.5176
椒	-12.5176
大佛頂經	-12.5177
無有變異	-12.5177
互奪兩	-12.5177
及助道法	-12.5177
蒜	-12.5177
咦	-12.5178
瘳	-12.5178
雌	-12.5178
罣	-12.5178
西齋淨土詩	-12.5179
襖	-12.5179
沛	-12.5179
曦	-12.5179
畊	-12.518
癢	-12.518
璞	-12.518
清濁向背	-12.518
乾屎橛	-12.518
蠟	-12.518
法苑珠林	-12.5181
袒	-12.5181
悲喜交	-12.5182
睫	-12.5182
不高不下	-12.5182
緋	-12.5183
麈	-12.5183
蛟	-12.5183
屹然立化	-12.5183
彝	-12.5184
方從定起	-12.5184
籟	-12.5184
蹋	-12.5184
帥	-12.5184
婬怒癡	-12.5184
釘	-12.5184
四禪八定	-12.5185
鳩摩羅	-12.5185
坤	-12.5186
媿	-12.5186
潑	-12.5187
無不還歸此法界	-12.5187
雉	-12.5187
顢	-12.5188
擡	-12.5189
劃	-12.5189
蕖	-12.5189
寥寥	-12.519
痢	-12.519
乾闥婆	-12.519
釀	-12.519
含笑而逝	-12.5191
不縱不橫	-12.5191
少於念佛功德	-12.5191
鍋	-12.5191
缶	-12.5191
汶	-12.5193
撐	-12.5193
邸	-12.5193
父母未生前	-12.5194
蓮修起信錄卷第	-12.5194
於般若臺	-12.5194
嘴	-12.5195
臧	-12.5196
傴	-12.5196
吾高郵	-12.5196
媳	-12.5197
芙	-12.5198
糜	-12.5199
受天供養第一	-12.5199
金沙布地	-12.52
觴	-12.52
湻	-12.5202
幕	-12.5202
禿	-12.5202
脇	-12.5203
唧	-12.5205
糲	-12.5205
蝸	-12.5206
曰普慧	-12.5207
蒙我光	-12.5207
控	-12.5208
狥	-12.5208
趕	-12.5209
廚	-12.5209
鯉	-12.5211
月初一日	-12.5212
億那由他恒河沙	-12.5212
扯	-12.5213
爻	-12.5221
樽	-12.5226
月望日	-12.5259
萼	-12.6193
濁亂者多	-12.6221
第十九願	-12.6226
萬法從心滅	-12.6227
俗務相關	-12.6227
當行道禮敬之際	-12.6228
只是年紀老大	-12.6229
問藥求醫	-12.6229
家中長短之事	-12.6229
百種憂煎	-12.6229
妻啼子哭	-12.623
淺信之人	-12.6231
則殷勤讚歎	-12.6232
看經無慧眼	-12.6232
專修無間之說	-12.6232
叢林廣眾	-12.6232
常面西向	-12.6232
若是俗人	-12.6232
不識佛深意	-12.6233
此則親情愛戀	-12.6234
諸天善護持	-12.6234
既欲親近叢林	-12.6234
彼則上善聚會	-12.6234
一一心中一切心	-12.6234
貪生怖死	-12.6234
待氣盡了	-12.6234
第二十三願	-12.6235
又或世緣未了	-12.6235
則心散漫	-12.6236
此則時序代謝	-12.6236
識投冥界	-12.6236
無有雜染清淨之心	-12.6236
一時頓現非隱顯	-12.6236
所謂自性阿彌者	-12.6236
來實無來	-12.6236
再得生人中	-12.6236
而童癡老耄	-12.6236
家私未明	-12.6237
稱揚諸佛功德經	-12.6237
不久當成佛	-12.6237
直待氣消命盡	-12.6238
十喪其九	-12.6238
腹孕轉輪王	-12.6238
方能興無緣慈	-12.6238
諸天常愛護	-12.6239
貧女自不知	-12.6239
藏神常守護	-12.6239
貪迷放逸	-12.624
冷暖自知	-12.624
繫念不相續故	-12.624
任運常憶	-12.624
便獲阿惟越致	-12.624
及初發心凡夫	-12.624
如是乃至從生至生	-12.624
做得主	-12.6241
圓轉五濁	-12.6241
或與少善相應	-12.6241
苦海之大船	-12.6242
生蓮華中寶座之上	-12.6242
滅罪良難	-12.6242
對凡夫肉眼生死心量說耳	-12.6242
方可哀泣	-12.6242
此亦是現生	-12.6243
雖不誹謗方等經典	-12.6243
其城縱廣十千由旬	-12.6243
作國王大臣	-12.6243
約感應道交釋	-12.6243
未舉頭頃	-12.6244
陰隲方便	-12.6244
力用未充	-12.6244
唯將不廢	-12.6244
境觀雙忘即是中	-12.6245
能為大醫王	-12.6245
乘之救接	-12.6245
於五濁三塗中	-12.6245
五者或遭水火	-12.6245
一一好放八萬四千光明	-12.6245
且以目前言之	-12.6245
得一日光景	-12.6246
故應佛顯	-12.6246
念一日佛名	-12.6246
到彼國已	-12.6246
讚言法子	-12.6246
是脫生死之良方	-12.6246
是初生不淨	-12.6246
敻	-12.6247
熏乎心性	-12.6247
是舉體不淨	-12.6247
是食噉不淨	-12.6247
人非人等	-12.6247
百中希得一二	-12.6247
橫死枉死	-12.6247
是住處不淨	-12.6248
是受生不淨	-12.6248
非非想天	-12.6248
定得自在否	-12.6248
妄言綺語兩舌惡口為口四業	-12.6248
純說甚深第一義諦	-12.6248
夫善惡二輪	-12.6248
是種子不淨	-12.6249
或有心願未了	-12.6249
全障即德	-12.6249
譬如壯士屈伸臂頃	-12.6249
我生來作業極重	-12.6249
有來有去	-12.6249
如龍得水	-12.6249
彼此俱沒	-12.6249
兒孫自有兒孫福	-12.625
若也了了自信得及	-12.625
童子揮劒	-12.625
汝當往生極樂世界	-12.6251
却出幹事	-12.6251
心如工畫師	-12.6251
但增罪業	-12.6251
大命若盡	-12.6251
畢竟難出離	-12.6251
符到奉行	-12.6252
五果所攝	-12.6252
修餘行業	-12.6252
以境為事	-12.6252
莫問會與不會	-12.6253
一蹉是百蹉	-12.6253
與佛本願相應故	-12.6253
死心新禪師	-12.6253
親垂接引	-12.6253
無量壽佛身量無邊	-12.6253
地獄眾火一時俱至	-12.6253
不訟彼短	-12.6253
臠	-12.6253
不造逆罪	-12.6253
法源庵之報恩關	-12.6253
稱讚諸佛不可思議功德	-12.6253
天親教宗也	-12.6254
常依二諦	-12.6254
述化主以包徒眾	-12.6254
剖心瀝血	-12.6254
十方如來有廣舌之讚	-12.6254
津送亡僧	-12.6255
何其自欺哉	-12.6255
則全惑即智	-12.6255
天堂未就	-12.6255
尤可嗟惜	-12.6255
說法稱機	-12.6255
塵累每銷	-12.6255
心隨境轉	-12.6255
歸命禮阿彌陀佛及一切三寶	-12.6255
一以貫之	-12.6256
衰老日侵	-12.6256
多諸過咎	-12.6256
淨土甚易往	-12.6256
佛佛互讚	-12.6256
將復尤誰	-12.6256
一人專憶	-12.6256
盡以施之	-12.6256
不一而足	-12.6257
龐居士云	-12.6257
維摩常修淨土	-12.6257
從何所來	-12.6257
末法億億人	-12.6257
聽受經法	-12.6257
我至成佛時	-12.6257
一十一萬九千五百同名同號阿彌陀佛	-12.6257
明辨十疑	-12.6257
咜	-12.6257
擇善而從	-12.6258
但當自精勤	-12.6258
珠投於濁水	-12.6258
淚即出者	-12.6258
象馬車乘	-12.6258
軆	-12.6258
過未有邊	-12.6258
而不望報	-12.6259
禪三昧為食	-12.6259
歸元性無二	-12.6259
無惡緣境	-12.6259
給孤園	-12.6259
▁116	-12.626
雁過長空	-12.626
鰍	-12.626
託外義成	-12.626
一向出生菩薩經	-12.626
卍	-12.626
又放光明名見佛	-12.626
能見過去未來現在諸佛	-12.6261
歙	-12.6261
响	-12.6261
流入薩婆若海	-12.6261
戒解行向	-12.6261
無謀而應	-12.6261
一切諸佛共所護念	-12.6261
鏘	-12.6261
八稜中空	-12.6261
一切諸法無非佛法	-12.6261
茯	-12.6261
四大洲日月	-12.6262
我今發願願往生	-12.6262
春夏秋冬	-12.6262
菩薩成就八法	-12.6262
體解大道	-12.6262
能勝終身	-12.6262
固可哀憐	-12.6262
皆同一成壞	-12.6262
猴	-12.6263
巳今當願	-12.6263
生長壽天	-12.6263
有理有跡	-12.6263
耻	-12.6263
離身無土	-12.6263
淅	-12.6264
全他即自	-12.6264
證悟人空	-12.6264
聞即聞慧	-12.6264
知緣性離	-12.6264
褁	-12.6264
今生作者是	-12.6265
拔一切業障根本得生淨土陀羅尼	-12.6265
瀰	-12.6265
放下屠刀	-12.6265
却念念間斷	-12.6265
古杭雲棲寺	-12.6266
曠大劫來	-12.6266
顯映金顏	-12.6266
即七覺支	-12.6266
摩醯首羅天	-12.6266
父名月上	-12.6266
證生增上緣	-12.6266
南無蓮池海會	-12.6266
咸令離染	-12.6266
三有齊資	-12.6266
便屬後世	-12.6267
人天莫數	-12.6267
他化自在天	-12.6267
以少況多	-12.6267
未舉念時	-12.6267
天樂迎空	-12.6267
止住百歲	-12.6267
自損損他	-12.6268
婆沙云	-12.6268
位居不退	-12.6268
唯佛與佛乃能究盡	-12.6268
我以慈悲哀愍	-12.6268
革凡成聖	-12.6268
二乘三種菩薩	-12.6268
不知樂是苦因	-12.6268
與十二部經合	-12.6268
皆是等倫之果	-12.6269
不在下品生矣	-12.6269
為鼷鼠而發機	-12.6269
續佛慧命	-12.6269
釆菽氏	-12.6269
羣魔惱亂	-12.6269
洞下一宗	-12.6269
喆	-12.6269
非天下之至妙	-12.627
四恩總報	-12.627
能感增上之緣	-12.6271
當知皆是慈善根力	-12.6271
優樓頻螺	-12.6271
紅螺山	-12.6271
有淨有穢	-12.6271
寂室曰	-12.6271
曼殊沙	-12.6271
緣此心邪	-12.6271
非大徹不能全提	-12.6271
有漏微塵國	-12.6271
地水火風空見識	-12.6271
非因非果	-12.6271
全彰於自性	-12.6272
徉	-12.6272
睨	-12.6272
開示悟入佛之知見	-12.6272
五逆十重	-12.6272
誠由心分垢淨	-12.6272
而最愚亦無少欠	-12.6272
懿	-12.6273
而專修觀經	-12.6273
身無一切病苦厄難	-12.6273
猶勝天宮	-12.6273
向甚處去	-12.6273
髀	-12.6273
朝服而坐	-12.6274
此云覺有情	-12.6274
實智照理	-12.6274
瑙	-12.6274
檗	-12.6274
佉	-12.6274
三細六麤	-12.6274
度羣品	-12.6276
然臂香十二炷	-12.6276
全體在迷	-12.6276
此云黑光	-12.6276
旭	-12.6277
昔有二僧	-12.6277
購	-12.6277
大通智勝佛	-12.6277
嫂	-12.6277
此自分二初	-12.6277
瘂	-12.6277
廸	-12.6277
阿惟越致	-12.6278
戀西學人	-12.6278
瑩淨明徹	-12.6278
披瀝一心	-12.6278
不變能隨緣	-12.6278
猶如片雲點太清裏	-12.6278
瘖	-12.6278
羲	-12.6279
安身立命處	-12.6279
生後利益中	-12.6279
既聞命矣	-12.6279
直顯於心源	-12.6279
舫	-12.6279
一歷耳根	-12.6279
粘去縛	-12.6279
遇斯等人	-12.6279
無餘蘊矣	-12.6279
霹	-12.6279
分定夭折	-12.628
捍	-12.628
炊	-12.628
更向何生度此身	-12.628
明值緣	-12.628
普勸念彌陀修福	-12.628
槐	-12.628
飛禽走獸	-12.628
朝朝暮暮	-12.628
煜	-12.628
輥	-12.628
彼此恒一	-12.628
分定貧乏	-12.6281
駛	-12.6281
墀	-12.6281
落日懸鼓	-12.6281
懊	-12.6281
淑	-12.6281
真語實語	-12.6281
教我觀於清淨業處	-12.6281
性色真空	-12.6282
原始要終	-12.6282
我今少壯	-12.6282
此云善歡喜	-12.6282
粵	-12.6282
忉	-12.6282
且待富足	-12.6283
殺雞為業	-12.6283
沓	-12.6283
調和氣息	-12.6283
時至理彰	-12.6283
衣覆我體	-12.6283
因緣會遇時	-12.6283
果報還自受	-12.6283
高山平地總西方	-12.6283
鄧	-12.6283
手摩我頭	-12.6284
獅	-12.6284
㳂	-12.6284
渣	-12.6284
波動金渠	-12.6284
十八大賢	-12.6285
莾	-12.6285
撑	-12.6285
萠	-12.6285
阿彌利都	-12.6285
黃金為渠	-12.6285
同生無量壽佛所	-12.6285
蕊	-12.6285
求那䟦陀羅	-12.6285
襯	-12.6285
核	-12.6286
澌	-12.6286
未證謂證	-12.6286
軾	-12.6286
奠	-12.6286
蚓	-12.6287
碗	-12.6287
大同小異	-12.6287
奉詔譯	-12.6287
摩耶夫人	-12.6287
有在虛空中	-12.6287
猥	-12.6287
就路還家	-12.6288
蟯	-12.6288
佛祖統紀	-12.6288
蔓	-12.6288
淨土院記	-12.6288
我以本願力故	-12.6289
修證即不無	-12.629
氓	-12.629
隄	-12.629
佈	-12.6291
搗	-12.6291
將錯就錯	-12.6291
狠	-12.6291
裊	-12.6291
蹇	-12.6291
蜈	-12.6291
行之不休為度	-12.6291
跂	-12.6292
睟	-12.6292
叛	-12.6293
宙	-12.6293
鴆	-12.6294
五趣雜居	-12.6294
非非想處	-12.6294
龍宮海藏	-12.6294
噪	-12.6294
箎	-12.6294
陰隲文	-12.6295
清照律師	-12.6295
茨	-12.6296
│├───────────┤│	-12.6296
待淨慈本禪師	-12.6296
賽	-12.6297
掬	-12.6298
此云繼道	-12.6298
艮	-12.6298
勃	-12.6299
比比皆是	-12.6299
粕	-12.6299
瑯	-12.6299
贏	-12.6299
漉	-12.63
醋	-12.63
阮	-12.63
鰥寡孤獨	-12.63
紡	-12.6301
有是理乎	-12.6302
紂	-12.6303
墟	-12.6303
恪	-12.6304
售	-12.6304
萬行因華	-12.6305
椅	-12.6306
念世五欲	-12.6307
挫	-12.6309
躶	-12.6311
鋼	-12.6311
馗	-12.6312
耘	-12.6312
􂩍	-12.6314
血滴滴	-12.6316
優婆麴多	-12.6316
牌	-12.6319
三洲感應護法韋䭾尊天	-12.6323
大乘心是菩薩淨土	-12.6822
至心歸命禮西方極樂世界大勢至菩薩	-12.6924
徹窮後際	-12.7464
得成末品	-12.7466
受無為法樂	-12.7466
上下該攝	-12.7468
卷懷同在於剎那	-12.7468
未老以前	-12.7472
心垢土垢	-12.7473
萬法從心生	-12.7473
況待臨終時哉	-12.7475
稍於世相之中	-12.7476
在水則有清濁動靜	-12.7477
稍或狂心未歇	-12.7477
非本性之彌陀	-12.7478
只有些少病痛在身	-12.7478
又業力不可思議	-12.7478
第二十七願	-12.7478
但一時同聲念佛	-12.7479
八十億劫生死重罪	-12.7479
忍疼忍苦	-12.7479
自心本妙耳	-12.748
故能一一塵中一切剎	-12.7481
不知達磨之玄機	-12.7481
不究如來之了義	-12.7481
亦不須輭語安慰	-12.7481
彼則化體香潔	-12.7482
一茶之頃	-12.7482
恰如賊去關門	-12.7482
習為狂妄	-12.7483
便成罣礙	-12.7484
迎賓待客	-12.7484
於七寶華中自然化生	-12.7485
應時即得阿羅漢道	-12.7485
非直於陰	-12.7486
當處皆是心性	-12.7486
而由六根三業	-12.7486
淨意樂心	-12.7486
並天真本具	-12.7486
七者臨終惡友	-12.7487
如來不思議境界經云	-12.7487
靠得穩	-12.7487
若是痛念無常	-12.7487
彼則與二上人	-12.7487
彼則佛化一統	-12.7487
些子境界現前	-12.7487
其書山積	-12.7487
䫫	-12.7487
無一念變異心	-12.7487
六根內盲	-12.7488
傷肌破骨	-12.7488
掩目空歸	-12.7488
趁客作	-12.7488
是破地獄之猛將	-12.7488
未知作何行業	-12.7489
華嚴解脫長者云	-12.7489
廣造眾罪	-12.7489
譬如貧家女	-12.7489
復為女像	-12.7489
若指諸掌	-12.7489
俗舍之煩喧	-12.7489
不妨一切世務	-12.7489
咲	-12.749
隨願得生他方佛土	-12.749
是則於菩提中	-12.749
自然淨盡無餘	-12.749
則月現全體	-12.749
迴神億剎	-12.749
以聞如是諸經名故	-12.749
便謂永出四流	-12.749
從而不信淨土者	-12.749
皆樂棲遲	-12.749
因風吹於火	-12.749
智者復教合掌叉手	-12.749
謂以專意念佛因緣	-12.7491
此非淨土之指歸乎	-12.7491
奄忽而亡	-12.7491
歷涉緣務	-12.7491
又如春月遠行	-12.7491
能為大寶藏	-12.7491
乘無生忍船	-12.7491
如生龜脫	-12.7492
臨終有此僥倖	-12.7492
則尺璧寸陰	-12.7492
然猶信罪福	-12.7492
我願往生頭面禮	-12.7492
是故應當一心繫念	-12.7492
為欲救拔一切眾生苦	-12.7493
怛答阿羯	-12.7493
無一念退惰心	-12.7493
四者一切惡鬼	-12.7493
暗裏相催	-12.7494
必不自妄語以誑人	-12.7494
於惡世中救苦眾生	-12.7494
以雕刻	-12.7494
並肩牛馬	-12.7494
作生意知有	-12.7494
為度我故	-12.7495
照彼三諦之一境	-12.7495
不可說佛剎微塵數世界	-12.7495
一切圓成無勝劣	-12.7495
不落惡趣之謂也	-12.7495
盜現前僧物	-12.7496
即是圓融法界全分	-12.7496
皆悉住於正定	-12.7496
本從一念生	-12.7496
寬平眾寶	-12.7497
二結示淨宗	-12.7497
姉	-12.7497
不知自是何人	-12.7497
將謂多做好事	-12.7497
無貪無戀	-12.7497
交扇邪聲	-12.7497
他豈不要長生在世	-12.7498
晝夜常得諸天大力神	-12.7498
彼國純諸菩薩以為良友	-12.7498
見賢思齊	-12.7499
沒個人依怙	-12.7499
橫截五惡道	-12.7499
如就刑戮	-12.7499
心息相依	-12.7499
困而不學	-12.7499
千中希得三四	-12.75
護善遮惡莫如律	-12.75
普願如說行	-12.75
未免鑽故紙之病	-12.75
必先覓安下處	-12.75
勝百年願力	-12.75
瓈	-12.75
假令不與大眾圍繞	-12.75
一者禮敬諸佛	-12.75
邪見之所惑也	-12.75
鐵漢聞之	-12.75
大石置船上	-12.75
方知平生所作	-12.75
人無遠慮	-12.75
民斯為下	-12.75
琉	-12.75
如響應聲	-12.7501
研究三乘莫如教	-12.7501
未免墮頑空之失	-12.7501
無壞無雜	-12.7501
恐佛不來迎接	-12.7501
能救諸疾人	-12.7501
全作而是	-12.7501
切宜謹之	-12.7501
經宿則開	-12.7501
梵釋四王	-12.7501
母名殊勝妙顏	-12.7502
化為清涼風	-12.7502
乃至十念念無量壽佛	-12.7502
苦海之舟航	-12.7502
豈不乖理	-12.7502
龍舒王居士	-12.7502
佛事門中不捨一法	-12.7502
父母六親眷屬	-12.7502
水亡清潔	-12.7502
不是說了便休	-12.7502
愚癡暗蔽	-12.7502
吹諸天華	-12.7502
若欲至心生西方者	-12.7503
離邊顯中	-12.7503
牽連不斷	-12.7503
究竟圓頓莫如禪	-12.7503
但使眾生淨土業成者	-12.7503
於法不說斷滅相	-12.7503
全證眾生本性	-12.7503
淨土境觀要門	-12.7503
若善若惡	-12.7503
故心是應佛	-12.7503
見性不見性	-12.7503
一切毒蛇毒龍毒藥	-12.7503
若男若女	-12.7503
應觀法界性	-12.7504
高四百萬里	-12.7504
此光覺悟將	-12.7504
佛如眾生何	-12.7504
便從今日去	-12.7504
是捨目前之美玉	-12.7504
決定必成無上正覺	-12.7505
具足功德眾生來生其國	-12.7505
不思議之三觀也	-12.7505
千念萬念	-12.7505
今以此果覺	-12.7505
豈是虗誑言	-12.7505
不以無心念	-12.7506
汝若不能念彼佛者	-12.7506
佇	-12.7506
毀佛禁戒	-12.7506
死從變流	-12.7507
悉由心性之所變造	-12.7507
阿彌陀佛大悲願力攝持	-12.7507
此則名曰香光莊嚴	-12.7507
靈峰蕅益大師選定淨土十要卷第	-12.7507
剡	-12.7507
一切世間生死相續	-12.7507
生從順習	-12.7507
何假鬼神延之耶	-12.7507
如十圍之索	-12.7507
願以此功德普及於一切我等與眾生	-12.7507
恐傳之不廣	-12.7507
及諸菩薩聲聞之眾	-12.7507
假饒忙似箭	-12.7507
有四億眾	-12.7507
剎海法界不大	-12.7507
癈	-12.7508
我此土安隱	-12.7508
如單方治病	-12.7508
初後俱墮	-12.7508
色無盡智慧亦復然一切法常住是故	-12.7508
恰似守屍鬼	-12.7508
譬如跛人步行	-12.7508
五時八教	-12.7509
即邊而中	-12.7509
莫甚於張馗	-12.7509
使我宿障自除	-12.7509
悲智雙運	-12.7509
三心土相即門	-12.7509
尸迦羅越	-12.7509
彼佛壽命及其人民無量無邊阿僧祇劫	-12.751
反損壽矣	-12.751
忘情絕解	-12.751
眾生念念與之迷背	-12.751
何故不令作觀	-12.751
此千倍大千	-12.751
淩	-12.751
插	-12.751
如投水海中	-12.751
種瓜得瓜	-12.751
常欲不離諸佛	-12.751
世間中顯我無上大乘法	-12.751
一能排睡	-12.7511
二天魔驚怖	-12.7511
最初省求悟門	-12.7511
有八萬四千隨形好	-12.7511
縳	-12.7511
禍福成敗	-12.7511
不以非有非無心念	-12.7511
末後不待發慧	-12.7511
七科道品	-12.7511
聞說阿彌陀佛執持名號若一日若二日	-12.7511
隨意寄託	-12.7511
疑為信障	-12.7511
蝕	-12.7511
公平正直	-12.7511
雖有大聖智	-12.7512
不以亦有亦無心念	-12.7512
周行四天下	-12.7512
閤	-12.7512
能於一佛念念相續	-12.7512
􂨘	-12.7512
攝受證知懺悔及所願	-12.7512
因滅是色	-12.7512
橫曰欄	-12.7512
出金色微妙光明	-12.7512
矗	-12.7512
要知前世因	-12.7513
珮	-12.7513
五外聲不入	-12.7513
四三塗息苦	-12.7513
一空一切空	-12.7513
捄	-12.7513
見西河綽禪師	-12.7513
不為他岐所	-12.7513
彼佛光明無量照十方國無所障礙	-12.7513
晨服飾巳	-12.7513
不眴太子	-12.7513
奢摩他	-12.7513
專繫眉間白毫	-12.7513
可不戒哉	-12.7514
舉眼動步	-12.7514
云何於中有是非是	-12.7514
覻	-12.7514
朵	-12.7514
頗羅墮	-12.7514
燸	-12.7514
淨土樂淨土樂淨土不思議淨土樂	-12.7514
燹	-12.7514
不必受持讀誦方等經典	-12.7514
篙	-12.7514
聲聲喚醒自心	-12.7514
生大富貴處	-12.7514
深知其甚難	-12.7514
㝵	-12.7514
願東願西	-12.7515
不能吸銅	-12.7515
聲聞辟支佛出生其中	-12.7515
竦	-12.7515
促於呼吸	-12.7515
此日持齋念佛不墮	-12.7515
以不可思議自在神力	-12.7515
未捨暖觸	-12.7515
一一網間	-12.7516
情多想少	-12.7516
國太夫人	-12.7516
種解脫分善	-12.7516
同共一法身	-12.7516
自悞悞人	-12.7516
更不再疑	-12.7516
即應物而虗靈	-12.7516
莫使此生空過	-12.7516
白毫宛轉五須彌	-12.7516
迴小向大	-12.7516
纔舉心念	-12.7516
各請直下承當	-12.7517
發四十八種	-12.7517
然後不違安養	-12.7517
袁宏道	-12.7517
覺明妙行菩薩	-12.7517
起嗔惱心	-12.7517
疵	-12.7518
弗婆提	-12.7518
倨	-12.7518
魏唐二譯	-12.7518
一切我今皆懺悔	-12.7518
池閣蓮華	-12.7518
踊	-12.7518
巳是彼國生陰	-12.7518
朦	-12.7518
瞠	-12.7518
賷	-12.7519
比丘比丘尼優婆塞優婆夷	-12.7519
以無生為無生者	-12.7519
枵	-12.7519
字字是行人	-12.7519
二隨科解釋	-12.7519
𢍉	-12.7519
劫賓那	-12.7519
羹	-12.7519
捿	-12.7519
誰信身為苦本	-12.752
吾不喜聞	-12.752
定慧均平	-12.752
動念即乖	-12.752
醎	-12.752
小子累蒙開誨	-12.752
不亦宜乎	-12.752
𤨏	-12.752
以生為生者	-12.752
只貴一心受持	-12.752
權智照事	-12.7521
皆依空所生	-12.7521
利樂一切眾生界	-12.7521
邪法增熾	-12.7521
不免隨業緣去	-12.7521
任汝千般快樂	-12.7521
即見十方無量諸佛	-12.7521
殺生以資口腹	-12.7522
上報四重恩	-12.7522
從假入空	-12.7522
不耕而食	-12.7522
筍	-12.7522
皆與實相不相違背	-12.7523
如旋火輪	-12.7523
篪	-12.7523
不易之定論也	-12.7523
一切諸法皆是佛法	-12.7523
斥妄顯真	-12.7523
以佛之心為心	-12.7523
縉	-12.7524
汝可誦此	-12.7524
迷中倍人	-12.7524
不稱餘號	-12.7524
從古至今	-12.7524
一刀斬斷	-12.7525
捃	-12.7525
崙	-12.7525
眾生性德之佛	-12.7525
此云戰勝	-12.7525
惡趣自然閉	-12.7525
悉躭婆毗	-12.7525
燎	-12.7525
孥	-12.7525
意須專想阿彌陀佛	-12.7525
乞書一名	-12.7525
瀚	-12.7526
無餘無欠	-12.7526
是法非思量分別之所能	-12.7526
緊那羅	-12.7526
達人大觀	-12.7526
欲輕其愛	-12.7526
萬緣都寂	-12.7526
不辭勞倦	-12.7527
灘	-12.7527
難值難見	-12.7527
不其然乎	-12.7527
體析巧拙	-12.7527
捫	-12.7527
笞	-12.7527
儼然未散	-12.7527
華華相順	-12.7527
七除饑渴	-12.7527
潞	-12.7527
作異寶色	-12.7527
有通有別	-12.7528
相好光明無等倫	-12.7528
雖悔何及	-12.7528
唯佛一人居淨土	-12.7528
家兄普賢	-12.7528
疥	-12.7528
迃	-12.7528
宥	-12.7528
沙石之數有限	-12.7528
目為全潮	-12.7528
壽量之數無窮	-12.7529
錙	-12.7529
假實之色	-12.7529
妄言綺語兩舌惡口	-12.7529
四生佛不二門	-12.7529
檐	-12.7529
慼	-12.7529
飱	-12.7529
孟子詎楊墨	-12.7529
迦旃延	-12.753
哮	-12.753
垓	-12.753
昊天罔極	-12.753
螺髻梵王	-12.7531
㷀	-12.7531
頴川人	-12.7531
洄	-12.7531
愓	-12.7531
㭊	-12.7532
渭	-12.7532
眨	-12.7532
殺牛為業	-12.7532
相由性現	-12.7532
梵網合註	-12.7532
池流八德	-12.7532
憬	-12.7532
仰慕諸聖	-12.7532
然臂香四十八炷	-12.7532
忽爾喪亡	-12.7532
閶	-12.7533
拘勿頭	-12.7533
縻	-12.7533
簸	-12.7533
分定常忙	-12.7533
凄	-12.7533
諦理深明	-12.7534
切近精實	-12.7534
背塵合覺	-12.7534
從性起修	-12.7535
汝將謂一悟	-12.7535
玄奘法師	-12.7535
緝	-12.7535
秩	-12.7535
翌	-12.7535
皇太后	-12.7535
縵	-12.7535
省菴法師	-12.7536
從朝至暮	-12.7536
酢	-12.7536
先送心歸極樂	-12.7536
襪	-12.7537
軻	-12.7537
拓	-12.7537
粘	-12.7537
鑠	-12.7538
昝	-12.7538
普賢十大願王	-12.7538
四明石芝沙門宗曉	-12.7538
住心取境	-12.7538
瞖	-12.7538
佛之堂弟	-12.7538
磚	-12.7539
迷心逐境	-12.754
抖	-12.754
熄	-12.754
天寶元年	-12.754
顏貌端正	-12.754
犂	-12.7541
濛	-12.7541
至安撫使	-12.7541
則不泥於	-12.7541
皈依悟和	-12.7542
黃雀飛去	-12.7542
固不必憂散亂	-12.7542
纜	-12.7543
瑛	-12.7543
殫	-12.7543
清明澄潔	-12.7543
歉	-12.7544
沂	-12.7544
應病與藥	-12.7544
竣	-12.7544
擢	-12.7544
被業牽	-12.7544
仰之彌高	-12.7545
笈	-12.7545
邨	-12.7545
澆	-12.7545
戕	-12.7545
飫	-12.7545
憮	-12.7546
頷	-12.7546
嚩	-12.7546
遨	-12.7546
慊	-12.7546
窈	-12.7547
像一軸	-12.7547
笠	-12.7547
遡	-12.7548
杏	-12.7548
罽	-12.7548
盪	-12.7548
肓	-12.7549
賖	-12.7549
慤	-12.7549
攔	-12.7549
匍	-12.7549
扭	-12.755
蠕	-12.7551
慄	-12.7551
無倒亂第一	-12.7552
訝	-12.7552
晡	-12.7553
屯	-12.7553
姜	-12.7555
佚	-12.7555
昺	-12.7556
李知遙	-12.7556
又數日見其	-12.7557
磕	-12.7557
斟	-12.7558
皿	-12.7559
禴	-12.7559
窹	-12.756
陜	-12.7561
焜	-12.7561
員	-12.7561
搥	-12.7562
䑛	-12.7563
璿	-12.7563
轎	-12.7564
鳶	-12.7565
笛	-12.7566
躲	-12.7568
癰	-12.7568
隕	-12.7568
腔	-12.7569
三教同源	-12.7571
晷	-12.7574
丕	-12.7574
圜	-12.7575
饈	-12.7583
陂	-12.7585
至心歸命禮西方	-12.7592
呀	-12.7597
至心歸命禮西方極樂世界觀世音菩薩	-12.7779
方是極樂淨	-12.8227
便可上齊諸佛	-12.8762
仍須一生歸命	-12.8888
又復覺心微起惡念	-12.8894
無量清淨覺經	-12.8896
自障障他往生正行故	-12.8899
無等無倫最上勝智	-12.8901
方始十念鳴鐘	-12.8901
千中不失一	-12.8902
則月無定光	-12.8902
水濁而動	-12.8902
樂欲往生彼佛世界	-12.8904
滅除諸障礙	-12.8905
愁嘆憂惱	-12.8905
最為首冠	-12.8905
非特自迷正道	-12.8908
莫教失落	-12.8909
是宿善業強	-12.8909
是身常隨念	-12.891
巳在依正之中	-12.891
而因以不信淨土	-12.891
此人精進勇猛故	-12.891
此身眾苦所集	-12.891
不能治命盡之人	-12.8911
大醫王能治一切病	-12.8911
乃稱性實言	-12.8911
故先明應佛入我想心	-12.8911
身則隨住	-12.8911
汩然渾濁	-12.8911
若有得聞無量壽如來名者	-12.8912
一切聖眾身相光明	-12.8912
彼則端嚴相貌	-12.8912
十方悉有淨土	-12.8913
從無始世來	-12.8914
縱遇苦樂逆順境界現前	-12.8914
令易解故	-12.8914
八面應酬	-12.8914
萬緣交擾	-12.8914
更無方便接引之義	-12.8914
長謝百憂	-12.8915
千山松茂	-12.8915
我若欲見安樂世界阿彌陀如來	-12.8915
捨身速生妙喜世界	-12.8915
信此圓談	-12.8915
昧斯至理	-12.8915
如二人各有親眷	-12.8915
拔茅連茹	-12.8915
瀝而雨空	-12.8915
觸類皆迷	-12.8915
是開黑暗之明燈	-12.8916
皆聲致焉	-12.8916
生與無生兩冥之至道	-12.8916
即得諸佛一切智慧	-12.8916
身雖在床	-12.8916
得菩薩神通無生法忍	-12.8916
安令五逆凡夫	-12.8916
剖出心肝	-12.8916
六十萬億那由他由旬	-12.8917
儒家止於世間法	-12.8917
知一切佛猶如影像	-12.8917
釋氏又有出世間法	-12.8917
一草一木	-12.8917
或偏風失語	-12.8918
三種障菩提法	-12.8918
不害其幹事	-12.8918
秋收萬顆子	-12.8918
自畏不能常值諸佛	-12.8918
增延福壽	-12.8918
掃除緣累	-12.8919
又能過萬數	-12.8919
經營家計	-12.8919
如牽木石	-12.8919
雜緣亂動失正念故	-12.8919
諸天帝王人民	-12.8919
勸至十餘人	-12.8919
當令我與法界眾生	-12.892
如勸百與千	-12.892
乃至一念念於彼佛	-12.892
以定破於強敵	-12.892
故感他佛三身圓應	-12.892
用聲律於戎軒	-12.892
那一件有實效	-12.892
不容一日放過	-12.892
乃至非般剌若	-12.892
如影如響	-12.892
現世當獲十種勝利	-12.892
洪音發號	-12.8921
不必更涉觀想參究等行	-12.8921
為說大乘十二部經首題名字	-12.8921
那一件替得生死	-12.8921
身毛為竪	-12.8921
似虎靠山	-12.8921
除却千劫極重惡業	-12.8921
聲之不厲	-12.8921
六者遭遇豺狼	-12.8921
一生當得無上菩提	-12.8921
即不思議三觀也	-12.8921
與諸菩薩授手迎接	-12.8921
全性以起修	-12.8922
皆是死物上作活計也	-12.8922
七者夜夢正直	-12.8922
佛階決定可期	-12.8922
他日於其中託生	-12.8922
常來至此行人	-12.8922
大命將盡之謂也	-12.8922
如悉達母	-12.8922
反要生人中	-12.8922
巳在我觀之內	-12.8922
逢寶不取寶	-12.8922
決定要生西方極樂世界	-12.8922
舉此體作彌陀	-12.8923
勿信於他	-12.8923
忘照何嘗有先後	-12.8923
孰謂無益於生前乎	-12.8923
神則隨之而生	-12.8924
可同年而語	-12.8924
毛髮聳然	-12.8924
裁縫擣染浣濯	-12.8924
頭向產門	-12.8924
即隨化佛往生其國	-12.8924
則知淨土即是自心	-12.8924
釋種決定智	-12.8925
發三種不信心	-12.8925
亦未免風刀解體	-12.8925
人當得無量之福	-12.8925
即違菩提門	-12.8925
若人以四事極好之物	-12.8925
則不信諸佛誠言	-12.8925
豈不甚迷哉	-12.8925
默觀鼻端	-12.8926
急切做工夫	-12.8926
凡夫例登補處	-12.8926
豈可不以淨土為業乎	-12.8926
我無選擇	-12.8926
以破多惑	-12.8926
幻塵俱滅	-12.8927
非得魚忘筌因指見月者	-12.8927
如是十氣名為十念	-12.8927
數盡復入輪迴	-12.8927
厓	-12.8927
未免自纏縛之苦	-12.8927
盡是枷上添枷	-12.8927
見於日用之間	-12.8927
人能屏除萬慮	-12.8927
此修淨土之極致也	-12.8927
劫濁見濁煩惱濁眾生濁命濁中	-12.8927
如觀掌中	-12.8927
誓不成等覺	-12.8927
則三諦俱破	-12.8928
回光自看云	-12.8928
今世之善未熟	-12.8928
實慚懼故	-12.8928
諦心決斷	-12.8928
我今正念稱如來名	-12.8928
豈虗語哉	-12.8928
不知彼有純一之快樂	-12.8928
必於夢中得見彼佛	-12.8929
無現佛可依	-12.8929
収	-12.8929
從聞佛清淨真實功德名號	-12.8929
不知彼有自然之衣食	-12.8929
不貴轉輪聖王人天福樂	-12.8929
我輩凡夫不能生也	-12.8929
化菩薩眾亦無邊	-12.8929
一一池中有六十億七寶蓮華	-12.8929
觀此理而大誓普收	-12.8929
上根利器	-12.8929
為煩惱賊之所害者	-12.893
內無三毒等	-12.893
欲於今世見無量壽佛	-12.893
大菩薩眾圍繞住處	-12.893
光明赫奕	-12.893
壍	-12.893
火急進步	-12.893
切要諦信佛經明旨	-12.893
遠諸染故	-12.893
半進半退	-12.893
即空假之中名是	-12.893
亦無乳養	-12.893
善知識尚不可逢	-12.893
不論事持理持	-12.893
即中之空假名作	-12.8931
其數與心等	-12.8931
福祿可增	-12.8931
不知彼有河沙之壽數	-12.8931
佛心者大慈悲是	-12.8931
嚴顯可觀	-12.8931
似信似疑	-12.8931
接上上根器	-12.8931
我是未成之佛	-12.8931
[...]
