<unk>	0
<s>	0
</s>	0
。	-2.38007
,	-2.78836
、	-2.96234
!	-4.50331
者	-4.90179
故	-4.92564
若	-5.01433
?	-5.04256
;	-5.10575
也	-5.23317
是	-5.39701
。「	-5.43906
:「	-5.52429
何以故	-5.53374
以	-5.55763
為	-5.56287
有	-5.68041
世尊	-5.6926
行	-5.70762
善現	-5.74639
之	-5.76814
不	-5.78364
法	-5.8103
無	-5.81044
即	-5.81985
)	-5.87797
(	-5.90446
如	-5.92856
而	-5.93756
心	-5.93883
此	-5.94137
中	-5.94679
於	-5.97315
相	-6.01808
空	-6.02975
非	-6.03938
二	-6.04746
菩薩	-6.05972
說	-6.07055
如是	-6.08681
等	-6.0994
須菩提	-6.14
身	-6.14676
。」	-6.16155
言	-6.16426
一	-6.16571
得	-6.20491
▁	-6.20776
名	-6.23285
佛	-6.25537
時	-6.27268
無二	-6.28246
生	-6.29918
謂	-6.30088
無別	-6.34235
人	-6.35789
則	-6.3611
無二分	-6.38289
無斷故	-6.39708
三	-6.39942
受	-6.40729
亦	-6.42155
見	-6.4458
復次	-6.46925
想	-6.50659
經	-6.524
及	-6.53102
色	-6.53824
我	-6.54403
:	-6.55571
明	-6.5677
若一切智智清淨	-6.57781
?」	-6.59801
如來	-6.61952
觀	-6.62027
▁*	-6.62939
義	-6.63214
應	-6.6339
識	-6.63817
皆	-6.6515
。】「	-6.6714
其	-6.67495
眾生	-6.67756
。」【	-6.7
」	-6.70962
滅	-6.72081
一切	-6.72784
住	-6.7279
乃至	-6.74165
諸	-6.74935
自	-6.77948
離	-6.78231
?」「	-6.79462
至	-6.79567
下	-6.79805
彼	-6.80034
云	-6.80075
大	-6.83095
能	-6.83819
四	-6.85044
所	-6.8658
與	-6.86923
無相	-6.87079
入	-6.87539
:『	-6.87823
因	-6.88292
起	-6.90148
耳	-6.90443
已	-6.92971
後	-6.92988
上	-6.9378
性	-6.94043
初	-6.95016
智	-6.96226
當	-6.97405
處	-6.97613
又	-6.97736
舌	-6.98231
不也	-6.98347
「	-6.98644
作	-6.99301
真如	-6.9943
知	-6.99688
鼻	-7.00003
道	-7.00504
云何	-7.00795
舍利子	-7.02061
般若波羅蜜多	-7.02765
或	-7.02833
從	-7.02893
般若	-7.03407
欲	-7.04097
今	-7.04319
佛言	-7.04709
前	-7.05583
修	-7.06529
由	-7.10702
雖	-7.11574
多	-7.12286
然	-7.12498
意	-7.13373
在	-7.13596
憍尸迦	-7.14366
觸	-7.14378
解	-7.15065
取	-7.15255
曰	-7.16045
成	-7.16104
果	-7.16557
令	-7.17913
問	-7.18436
般若波羅蜜	-7.18908
常	-7.19887
耶	-7.20597
所以者何	-7.20771
菩薩摩訶薩	-7.20865
事	-7.22455
求	-7.22854
精進	-7.23081
依	-7.23324
】	-7.23334
即是	-7.24606
清淨	-7.26056
出	-7.26401
清淨故一切智智清淨	-7.26491
五	-7.26955
但	-7.27152
釋	-7.27369
!」「	-7.27865
念	-7.29526
盡	-7.29627
法界	-7.29826
香	-7.30746
分	-7.30954
爾時	-7.3112
聲	-7.31906
法性	-7.32805
定	-7.3284
苦	-7.32979
顯	-7.33737
疏	-7.34495
不見	-7.34738
教	-7.34763
集	-7.35625
味	-7.35627
。』	-7.3603
證	-7.37241
諸法	-7.3738
淨	-7.37849
既	-7.38721
是故	-7.39949
正	-7.40008
諸佛	-7.40158
本	-7.40667
論	-7.40684
來	-7.40979
水	-7.41856
同	-7.41873
答	-7.43032
可	-7.43052
功德	-7.43368
聞	-7.43681
無量	-7.43692
善	-7.44802
名為	-7.4496
實	-7.45035
地	-7.4643
天	-7.46841
乃	-7.46843
斷	-7.46952
復	-7.4715
眾	-7.47588
故云	-7.48651
學	-7.48966
布施	-7.49239
。」「	-7.49284
火	-7.49294
不可得	-7.50651
不得	-7.50718
通	-7.50782
真	-7.51276
勝	-7.51759
一切智	-7.5179
隨	-7.52228
施	-7.52315
不能	-7.53015
是菩薩摩訶薩	-7.53224
便	-7.53959
具	-7.54899
一切法	-7.55026
矣	-7.55587
慧	-7.55921
用	-7.56003
靜慮	-7.56595
著	-7.56603
語	-7.57405
一切相智	-7.58103
理	-7.58226
所謂	-7.58369
王	-7.58933
樂	-7.59102
緣	-7.59643
安忍	-7.59964
難	-7.60038
現	-7.60384
風	-7.605
無明	-7.60737
三昧	-7.61386
菩提	-7.61816
破	-7.62506
具足	-7.63203
文	-7.63567
六	-7.64138
分別	-7.64406
異	-7.64988
因緣	-7.6515
先	-7.65366
汝	-7.65528
攝	-7.6558
道相智	-7.65592
次	-7.66132
智慧	-7.66477
有情	-7.66751
巳	-7.67376
世間	-7.6836
體	-7.68533
是名	-7.68713
無有	-7.68893
修行	-7.68961
.	-7.69554
供養	-7.69619
四無色定	-7.69725
信	-7.70114
淨戒	-7.70342
持	-7.7058
涅槃	-7.71718
若菩薩摩訶薩	-7.7198
境	-7.72483
亦無	-7.73125
唯	-7.73364
於意云何	-7.73865
九次第定	-7.74284
。【	-7.74335
餘	-7.74734
別	-7.74988
門	-7.75435
五眼	-7.75498
忍	-7.758
受持	-7.7588
亦不	-7.76224
何	-7.76272
合	-7.76344
四無量	-7.76468
遠離	-7.77197
成就	-7.77226
未	-7.77288
所以	-7.77374
字	-7.77396
外	-7.77526
布施波羅蜜多	-7.77608
轉	-7.77658
化	-7.77956
捨	-7.7814
業	-7.78379
執	-7.78594
▁|	-7.79118
大悲	-7.79332
引	-7.79348
覺	-7.79695
自性	-7.80487
疑	-7.80607
可得	-7.8093
種種	-7.8122
煩惱	-7.8142
俱	-7.81756
方便	-7.82082
力	-7.82287
愛	-7.82552
過	-7.83009
無願解脫門	-7.83562
廣	-7.84103
不可	-7.84753
品	-7.85173
福	-7.85546
善女人等	-7.85594
甚深般若波羅蜜多	-7.85925
聲聞	-7.8634
除	-7.87006
六神通	-7.87558
戒	-7.87955
諸菩薩摩訶薩	-7.88649
位	-7.8865
舉	-7.89294
實際	-7.89299
道聖諦	-7.89491
八	-7.89609
當知	-7.8964
不生	-7.89998
第二	-7.90372
喻	-7.90525
不著	-7.91581
度	-7.91844
一切智智清淨故	-7.91959
深	-7.92398
七	-7.93138
願	-7.93553
》	-7.93608
四靜慮	-7.93783
法身	-7.93868
。△	-7.94188
界	-7.9427
增語是菩薩摩訶薩不	-7.95607
方	-7.96353
十	-7.96609
所有	-7.97562
舍利弗	-7.97604
此是	-7.97719
金剛	-7.97963
福德	-7.98521
佛十力	-7.9858
自性空	-7.98869
去	-7.99123
生死	-8.00025
數	-8.0006
大乘	-8.00518
是為	-8.0068
發	-8.00812
平等	-8.01305
內空	-8.02297
四念住	-8.02547
記	-8.02593
八勝處	-8.02705
答曰	-8.02906
大慈	-8.0306
故名	-8.03232
不住	-8.0327
實相	-8.03351
解脫	-8.0359
四無所畏	-8.03649
立	-8.03809
不還	-8.04018
世界	-8.04073
重	-8.04257
十遍處	-8.04279
會	-8.05413
譬如	-8.05431
此中	-8.05753
說法	-8.05821
恒住捨性	-8.05959
內	-8.06348
大喜	-8.06378
他	-8.06429
一切智智	-8.06521
不行	-8.06633
迴向一切智智	-8.06807
畢竟空	-8.07117
寶	-8.07127
思惟	-8.07184
乎	-8.07239
是菩薩	-8.07354
惡	-8.0767
妙	-8.07696
五根	-8.07764
示	-8.07824
大捨	-8.07909
!」	-8.08
第一	-8.08417
無所得為方便	-8.08954
總	-8.09039
師	-8.09134
四無礙解	-8.09273
八解脫	-8.09439
法處	-8.09578
眼	-8.10017
三摩地	-8.10667
此經	-8.10875
善女人	-8.10997
問曰	-8.11388
不應觀	-8.11569
必	-8.1175
結	-8.11894
小	-8.11908
意處	-8.12235
須菩提言	-8.12529
物	-8.1258
悉	-8.12753
了	-8.12879
無所	-8.12948
少	-8.13106
於此	-8.13484
德	-8.13867
不應	-8.14078
本性空	-8.1416
照	-8.14252
無生為方便	-8.14436
無二為方便	-8.15142
還	-8.15167
無生	-8.15298
正等覺	-8.15729
對	-8.15955
悟	-8.15962
識界	-8.15992
。○	-8.16047
所說	-8.16099
佛法	-8.16292
第三	-8.1668
善男子	-8.16824
無忘失法	-8.16869
兩	-8.16891
意界	-8.17172
十八佛不共法	-8.17242
宗	-8.17272
色界	-8.17462
無我	-8.17556
根	-8.18114
空解脫門	-8.1851
五力	-8.18546
約	-8.18839
等者	-8.19036
凡夫	-8.19817
眼界	-8.20071
略	-8.20213
障	-8.20358
共	-8.21282
善根	-8.21698
報	-8.21945
四神足	-8.21986
若善男子	-8.22043
日	-8.22063
無所有	-8.22244
要	-8.2227
亦如是	-8.22396
就	-8.22494
一切陀羅尼門	-8.22997
眼處	-8.23156
相應	-8.23272
苦聖諦	-8.23368
光	-8.23417
各	-8.23496
華	-8.23683
過去	-8.24158
世	-8.24276
利	-8.24581
究竟	-8.24871
是善男子	-8.25426
若常若無常	-8.25845
開	-8.26807
佛告善現	-8.27271
平等性	-8.27358
若我若無我	-8.27638
若樂若苦	-8.27664
一切法空	-8.28214
指	-8.28313
巳下	-8.28432
若淨若不淨	-8.28595
色處	-8.28653
七等覺支	-8.2868
一切眾生	-8.28715
讀誦	-8.28832
子	-8.29004
現在	-8.29085
無為	-8.29468
趣	-8.29624
自在	-8.29708
《	-8.29926
九	-8.29978
無常	-8.30106
極	-8.30303
將	-8.30711
莊嚴	-8.30861
自相空	-8.31417
更	-8.31427
塵	-8.31453
空空	-8.31669
聖	-8.31697
一切三摩地門	-8.31813
無邊	-8.32015
獨覺	-8.32103
不可得故	-8.32812
失	-8.33326
不為	-8.33683
三界	-8.34021
而不	-8.34108
向	-8.34744
種	-8.35068
使	-8.3508
終	-8.353
屬	-8.35358
阿羅漢	-8.35409
慶喜	-8.35612
阿羅漢果	-8.35672
二乘	-8.35864
滿	-8.36082
諸佛無上正等菩提	-8.36225
法住	-8.36263
四正斷	-8.36659
內外空	-8.36749
一來	-8.36816
圓滿	-8.36878
無漏	-8.37382
地界	-8.37694
習	-8.3801
不知	-8.38027
食	-8.38511
到	-8.3872
大空	-8.3887
八聖道支	-8.39034
乘	-8.39038
甚多	-8.39258
由此	-8.39644
未來	-8.40015
差別	-8.40294
歎	-8.40447
二者	-8.40474
不同	-8.40606
壞	-8.40834
動	-8.40841
是人	-8.40869
之法	-8.41053
無為空	-8.41074
須	-8.41965
不可得空	-8.42075
有為空	-8.42138
句	-8.42303
安住	-8.42629
若有	-8.42764
山	-8.43123
不離	-8.43427
豈	-8.43659
甚深	-8.44031
凡	-8.44334
勝義空	-8.44467
亦復如是	-8.44619
稱	-8.44677
順	-8.44798
外空	-8.45152
辨	-8.4548
斯	-8.45766
妄	-8.45831
性空	-8.4637
好	-8.46521
無性空	-8.46532
無際空	-8.46586
佛告須菩提	-8.4698
一者	-8.47128
病	-8.47188
散空	-8.47225
眼觸為緣所生諸受	-8.47968
之心	-8.4824
類	-8.48519
法定	-8.48751
顛倒	-8.49088
遍	-8.49418
不變異性	-8.49424
國	-8.49427
月	-8.49475
魔	-8.49611
散	-8.49656
安	-8.49852
不應住	-8.49967
虛空界	-8.50012
不虛妄性	-8.50537
獨覺菩提	-8.50563
。』「	-8.50691
藏	-8.50712
況	-8.50757
死	-8.50782
且	-8.50796
離生性	-8.50886
名色	-8.50994
?「	-8.5102
須菩提白佛言	-8.51204
邪	-8.51593
僧	-8.5187
共相空	-8.52017
假	-8.52286
修習	-8.52313
畢竟淨故	-8.52346
無變異空	-8.5245
猶	-8.52618
神	-8.52794
諸天	-8.52794
歸	-8.5313
設	-8.53398
皆不可得	-8.5382
讚	-8.53912
阿難	-8.54243
五蘊	-8.54337
發心	-8.54427
善現當知	-8.54588
諸天子	-8.55215
止	-8.55646
五陰	-8.56071
不可思議	-8.56614
皆是	-8.56736
家	-8.56745
故言	-8.56838
無所得	-8.56896
因果	-8.57018
持戒	-8.57263
一切菩薩摩訶薩行	-8.57694
直	-8.58616
印	-8.58832
夫	-8.58834
始	-8.58991
二合	-8.59202
無住	-8.59464
應求	-8.59561
意觸為緣所生諸受	-8.59581
以是故	-8.60343
無性自性空	-8.6038
善法	-8.60489
故曰	-8.60491
一切有情	-8.60518
真空	-8.60658
果報	-8.60788
坐	-8.61143
非離	-8.61153
蓋	-8.61692
達	-8.61743
諦	-8.61782
何故	-8.61862
辟支佛	-8.61929
主	-8.62272
無上	-8.62379
論云	-8.62465
遠	-8.62605
亦不可得	-8.62858
足	-8.63032
虛空	-8.63177
不思議界	-8.63237
喜	-8.63578
之人	-8.63837
圓	-8.63913
十方	-8.64087
劫	-8.64099
尚	-8.64394
故說	-8.64721
波羅蜜多	-8.65974
益	-8.6603
波羅蜜	-8.66092
獨	-8.66163
大般若波羅蜜多經	-8.66417
似	-8.66708
近	-8.66779
▁二	-8.66921
哉	-8.66922
生滅	-8.66925
請	-8.67243
有為	-8.67404
高	-8.67406
百	-8.67444
真實	-8.67541
千	-8.67716
況有	-8.67877
是法	-8.68095
善哉	-8.68163
偈	-8.68174
名字	-8.68586
阿耨多羅三藐三菩提	-8.68626
寂靜	-8.69003
罪	-8.69165
六處	-8.69179
何況	-8.69264
流	-8.69297
預流果	-8.69499
形	-8.69759
次第	-8.69867
之義	-8.70144
如是等	-8.70473
護	-8.70579
得阿耨多羅三藐三菩提	-8.70917
迷	-8.71288
迴向	-8.71405
寂	-8.71465
頭	-8.71581
土	-8.71613
諸菩薩	-8.72158
惑	-8.72192
一一	-8.72204
▁初	-8.72352
於中	-8.72516
幻	-8.72708
貪	-8.72737
邊	-8.73025
白	-8.7348
誰	-8.73654
歡喜	-8.73708
命	-8.73847
何等	-8.73937
莫	-8.73987
普	-8.74051
六波羅蜜	-8.74081
於一切法	-8.74424
復有	-8.74478
卷	-8.74527
長	-8.74809
有漏	-8.74873
亦非	-8.74885
自然	-8.75064
所作	-8.75535
如此	-8.75637
離故	-8.75731
無礙	-8.75811
波若	-8.75869
第四	-8.76301
我當	-8.76316
勸	-8.76408
佛說	-8.76523
無著	-8.76537
舍利子言	-8.77067
遣	-8.77352
不動	-8.77365
三世	-8.7743
目	-8.77754
往	-8.77794
超	-8.78114
執著	-8.78153
口	-8.78269
十地	-8.78794
墮	-8.78814
鼻界	-8.78819
此云	-8.78865
法門	-8.78978
思	-8.79096
花	-8.79101
舌界	-8.7913
受想行識	-8.79177
攝受	-8.79253
情	-8.79411
身界	-8.79576
耳界	-8.79938
尊	-8.80523
正法	-8.80723
以為	-8.80758
云何菩薩摩訶薩	-8.81399
神通	-8.81518
法相	-8.81682
表	-8.81904
三乘	-8.82263
經云	-8.82371
是時	-8.82393
恒	-8.8267
爾	-8.82692
恐	-8.8283
樹	-8.8314
造	-8.83199
禪	-8.83316
絕	-8.83364
空故	-8.83682
以此	-8.83822
法中	-8.83903
離相	-8.83914
有所	-8.84034
金	-8.84158
萬	-8.84312
和合	-8.84446
遂	-8.84708
利益	-8.84851
並	-8.84882
不起	-8.84955
不異	-8.85645
何以	-8.8567
頌	-8.85865
決定	-8.85931
無生無滅	-8.86683
不淨	-8.86692
弟子	-8.86796
標	-8.86844
本性	-8.87084
不取	-8.87207
本無	-8.87445
境界	-8.87494
兼	-8.87496
如幻	-8.87502
竟	-8.87748
亦名	-8.87856
禪定	-8.87886
外道	-8.879
比丘	-8.88093
非有	-8.88223
之中	-8.88239
是為菩薩摩訶薩	-8.88278
如是般若波羅蜜多	-8.88681
無得	-8.8869
之相	-8.89022
一切如來	-8.89078
供養恭敬	-8.89104
之所	-8.89251
若菩薩	-8.89368
虗空	-8.89381
微塵	-8.89499
細	-8.89577
有相	-8.89782
善現答言	-8.89785
慈	-8.89839
方便善巧	-8.89876
染	-8.90338
書寫	-8.90436
一念	-8.90447
女	-8.90485
聽	-8.90584
文字	-8.90587
反	-8.90747
小乘	-8.90782
蘊	-8.90792
惟	-8.9087
計	-8.90945
增	-8.9097
存	-8.91264
不受	-8.91272
意識界	-8.913
一切種智	-8.9158
四句	-8.91585
久	-8.91664
無作	-8.91674
音	-8.91724
阿	-8.92007
居	-8.92881
靜慮波羅蜜多	-8.93083
中道	-8.93089
海	-8.93397
俗	-8.93426
二種	-8.93506
欲界	-8.93509
易	-8.93778
廣大	-8.93849
光明	-8.93914
無所有故	-8.93958
遮	-8.94487
色身	-8.9466
瞋	-8.94755
注	-8.95282
年	-8.95286
誦	-8.95645
脫	-8.9578
部	-8.96276
有所得	-8.96418
忍辱	-8.96419
如實知	-8.96489
只	-8.96839
聚	-8.96863
四正斷乃至八聖道支	-8.96947
大王	-8.96976
不生不滅	-8.97063
加	-8.97069
作是念	-8.97193
顯示	-8.97302
寂滅	-8.975
無願	-8.97581
悲	-8.97804
量	-8.97898
應觀	-8.97909
無盡	-8.97917
三種	-8.98023
恭敬	-8.98581
眼識界	-8.98911
其心	-8.99052
夢	-8.99204
則為	-8.99247
釋曰	-8.99265
那	-8.99354
我等	-8.99372
最勝	-8.99448
尊重讚歎	-8.99574
希有	-8.99686
宣說	-8.99894
以無所得而為方便	-9.00038
降伏	-9.00201
一心	-9.00352
我今	-9.00465
出家	-9.00772
書	-9.01329
邪見	-9.01802
可知	-9.01893
虗	-9.02004
謂之	-9.02206
癡	-9.02513
三摩地門	-9.02664
不可說	-9.02794
母	-9.02839
云何以	-9.02872
外空乃至無性自性空	-9.03059
無性	-9.03257
手	-9.03564
義也	-9.03643
尚畢竟不可得	-9.03876
▁|(	-9.03929
經文	-9.03973
傳	-9.04122
雙	-9.04176
彼岸	-9.04375
預流	-9.04424
意觸	-9.04513
昔	-9.04681
薩婆若	-9.04719
全	-9.04801
?』	-9.05447
漸	-9.05543
安忍波羅蜜多	-9.05737
諸有情類	-9.05831
所得	-9.0588
伏	-9.06043
七寶	-9.06255
三十二相	-9.06337
嚴淨佛土	-9.06338
無色	-9.06363
不與	-9.06392
根本	-9.06504
親	-9.06572
終不	-9.06642
不說	-9.06695
亦不見	-9.06816
真性	-9.06828
被	-9.06997
眼觸	-9.07064
十二	-9.07084
相故	-9.07108
無法	-9.07165
聖人	-9.07212
龍	-9.07391
亦是	-9.07465
陀羅尼門	-9.07594
是學一切智智不	-9.07776
於彼	-9.07805
如何	-9.07827
無二無二分故	-9.0801
行般若波羅蜜	-9.08438
▁「	-9.08651
羅	-9.0883
經中	-9.08845
頌曰	-9.09038
感	-9.09091
信解	-9.0911
無分別	-9.09339
四相	-9.09387
永	-9.09503
城	-9.0953
堅	-9.09888
以是	-9.0989
微	-9.09915
息	-9.10132
都	-9.10138
亦有	-9.10159
成佛	-9.10288
▁後	-9.10319
如何可言	-9.10485
不退	-9.10627
中有	-9.10638
輪	-9.11018
淨戒波羅蜜多	-9.1131
害	-9.11376
觀察	-9.11684
無等等	-9.1174
大眾	-9.11836
三千大千世界	-9.11916
財	-9.12012
譯	-9.12141
行者	-9.12172
見者	-9.12185
所行	-9.12394
國土	-9.12443
敬	-9.12468
不以	-9.12525
對治	-9.12532
獲	-9.12568
一時	-9.12651
如汝所說	-9.12918
能生	-9.12972
無上正等菩提	-9.13029
空生	-9.13405
故知	-9.13894
具壽善現復白佛言	-9.13923
性非有故	-9.13998
無所有不可得	-9.14049
列	-9.14236
置	-9.14251
第五	-9.14252
內外	-9.14331
有人	-9.14381
支	-9.14448
于	-9.14504
是諸菩薩	-9.14793
菩薩摩訶薩行般若波羅蜜	-9.1503
而為	-9.15058
行乃至老死愁歎苦憂惱	-9.15081
所言	-9.15098
有三	-9.15136
有二種	-9.15223
發起	-9.15355
像	-9.15414
摩	-9.15466
有二	-9.15499
末	-9.1559
述	-9.15592
眼識界及眼觸	-9.1568
色相	-9.15716
善逝	-9.15836
耳識界及耳觸	-9.15985
修學	-9.16052
比	-9.16169
精進波羅蜜多	-9.16205
善知	-9.16206
雖有	-9.16207
身識界及身觸	-9.16251
汝等	-9.16507
舌識界及舌觸	-9.16514
意識界及意觸	-9.16646
鼻識界及鼻觸	-9.16662
住處	-9.16767
二諦	-9.16905
雲	-9.16993
彰	-9.16994
忘	-9.16997
翻	-9.17052
隨順	-9.17115
機	-9.17221
五眾	-9.17437
授	-9.17537
而無	-9.17594
周	-9.17702
而生	-9.17774
密	-9.1781
法故	-9.17931
解曰	-9.17967
不作	-9.17974
偏	-9.18054
法空	-9.18067
即非	-9.18291
是行般若波羅蜜多	-9.18377
路	-9.18507
最	-9.18526
無異	-9.1863
地獄	-9.1869
變	-9.18887
亡	-9.19027
法界乃至不思議界	-9.19056
退	-9.19121
未得	-9.19125
佛道	-9.19163
并	-9.19193
言說	-9.19221
非法	-9.19315
受者	-9.19427
成熟有情	-9.19496
得菩提	-9.19635
不二	-9.19646
焉	-9.19763
有無	-9.20004
檀波羅蜜	-9.20108
垢	-9.20253
不可以	-9.20715
告	-9.20821
甚	-9.21071
三者	-9.21346
而有	-9.21432
觸界	-9.21439
據	-9.21585
治	-9.21669
則無	-9.21692
香界	-9.21712
味界	-9.21984
聲界	-9.2201
是般若波羅蜜	-9.22016
云云	-9.22424
不空	-9.22505
無為法	-9.22615
讀	-9.2265
亦爾	-9.22756
廣說	-9.22785
衣	-9.2279
無不	-9.23113
輕	-9.2317
慶喜當知	-9.23728
波	-9.23975
我所	-9.24023
云何名為	-9.24071
示現	-9.2408
影	-9.24088
沒	-9.24204
倒	-9.24234
老死愁歎苦憂惱	-9.24616
不捨	-9.24633
第六	-9.2465
亦復	-9.24764
實有	-9.24795
應知	-9.24811
善勇猛	-9.24915
夜	-9.24943
現前	-9.24964
如來說	-9.25054
此增語既非有	-9.25059
又云	-9.25092
四念處	-9.25223
不信	-9.25376
四無所畏乃至十八佛不共法	-9.2538
遇	-9.25525
堅固	-9.25686
此法	-9.25739
科	-9.2585
進	-9.259
如如	-9.25924
第一義	-9.25958
故名為	-9.25974
摩訶衍	-9.26099
諸相	-9.26129
梵語	-9.2613
十八	-9.26132
取相	-9.262
當說	-9.2622
若無	-9.26293
無數	-9.26387
自性即非自性	-9.26455
葢	-9.26465
通達	-9.26577
何況有彼	-9.26611
却	-9.26634
白佛言	-9.26728
縛	-9.26771
曾	-9.26776
菩薩摩訶薩行般若波羅蜜多時	-9.26803
間	-9.26934
答言	-9.26998
如理思惟	-9.27162
讚歎	-9.27485
如虛空	-9.27501
佛土	-9.27515
畢竟	-9.27517
無色界	-9.27595
亂	-9.27623
汝善男子應修	-9.27644
若不	-9.27924
證得無上正等菩提	-9.28259
須陀洹	-9.28335
六度	-9.28562
吾	-9.28592
隨喜	-9.28683
天中天	-9.28753
速	-9.28822
父母	-9.28885
許	-9.28893
最上	-9.28942
疾	-9.28959
受持讀誦	-9.29034
愚	-9.29168
一句	-9.2917
而得	-9.29217
雜	-9.29316
微妙	-9.29467
出世	-9.29532
老	-9.29702
頂	-9.29703
有菩薩摩訶薩	-9.29792
佛告	-9.29852
無量無邊	-9.2995
例	-9.3004
四諦	-9.30163
羅漢	-9.30361
宜	-9.30564
法者	-9.30796
度眾生	-9.30799
復作是言	-9.3088
此二	-9.30901
礙	-9.30914
清	-9.31124
汝復觀何義言	-9.31261
章	-9.31502
若人	-9.31526
惡魔	-9.3196
於汝意云何	-9.3206
懈怠	-9.32083
興	-9.32219
精勤修學	-9.32229
不壞	-9.32259
亦不以	-9.32307
初明	-9.32502
何所	-9.32537
法師	-9.32594
出世間	-9.32654
玄	-9.32671
淨土	-9.32819
釋提桓因	-9.3282
因緣故	-9.32976
初地	-9.3302
各各	-9.33027
舍	-9.33206
證得	-9.33214
致	-9.333
一切相智清淨	-9.33463
是故名為	-9.33468
皆悉	-9.3352
四種	-9.33639
衣服	-9.33651
雨	-9.33711
天眼	-9.33747
不如	-9.33828
此中尚無	-9.33851
契	-9.33871
劣	-9.33919
珠	-9.33973
若行	-9.34239
)(	-9.34438
得道	-9.34744
六塵	-9.3477
由此因緣	-9.34817
詮	-9.34873
皆空	-9.35022
極喜地	-9.35097
一切諸法	-9.35159
演說	-9.35193
配	-9.35209
辯	-9.357
藥	-9.35757
三寶	-9.35905
序	-9.35921
功	-9.3603
而修	-9.36204
殊勝	-9.36223
如夢	-9.36252
是修般若波羅蜜多	-9.3641
元	-9.36456
所修	-9.36543
於諸	-9.36579
出生	-9.36695
四禪	-9.36837
故有	-9.37073
四大	-9.37139
常住	-9.37187
相續	-9.37248
有為法	-9.37348
講	-9.37694
本來	-9.37792
色空	-9.37801
勿	-9.37918
法施	-9.38242
八十隨好	-9.38287
不可稱量	-9.38309
自性亦非自性	-9.38434
聲聞乘	-9.38529
呪	-9.38545
欲得	-9.38638
色等	-9.38744
望	-9.38823
半	-9.38863
令其	-9.38927
其中	-9.38939
可以	-9.39151
為說	-9.39237
號	-9.39417
佛果	-9.39464
諸法實相	-9.39632
增長	-9.3968
陰	-9.39726
而言	-9.39799
滅度	-9.39992
有法	-9.40002
見佛	-9.40093
違	-9.40195
呼	-9.40393
註	-9.40415
」【	-9.40548
河	-9.40556
佛所	-9.40588
而說	-9.40715
窮	-9.40791
及諸	-9.40928
第八	-9.40978
若諸菩薩	-9.41395
法界乃至意觸為緣所生諸受	-9.41511
十六	-9.41517
奉	-9.4154
所依	-9.41597
齊	-9.41622
尋	-9.41739
眷屬	-9.41943
觸界乃至身觸為緣所生諸受	-9.41963
香界乃至鼻觸為緣所生諸受	-9.42247
座	-9.42287
原	-9.4237
徧	-9.42511
十遍處清淨	-9.42597
阿羅漢果清淨	-9.42607
道聖諦清淨	-9.42657
精	-9.42682
諸有情	-9.42742
真諦	-9.42782
覆	-9.42834
聲界乃至耳觸為緣所生諸受	-9.42908
於法	-9.42941
四無色定清淨	-9.4301
無願解脫門清淨	-9.4309
施設	-9.43091
嚴	-9.43244
棄	-9.43277
慢	-9.43329
我見	-9.43407
菩薩十地	-9.43533
依止	-9.43607
面	-9.43694
則是	-9.43725
燈	-9.43751
身觸為緣所生諸受	-9.43795
耳觸為緣所生諸受	-9.43815
毒	-9.43819
施設可得	-9.43856
化身	-9.43984
彌勒	-9.43991
首	-9.44054
石	-9.44074
猶如	-9.44077
梵	-9.44229
經言	-9.44371
此即	-9.44413
頓	-9.44445
尸羅波羅蜜	-9.44461
旨	-9.44546
汝若能修如是	-9.44735
知見	-9.4486
慧眼	-9.44904
人天	-9.45062
假名	-9.45143
舍利	-9.4515
若非自性即是	-9.45162
沙門	-9.45311
空中	-9.45371
問答	-9.45373
含	-9.45398
底	-9.45421
古	-9.45465
降	-9.45475
三十七品	-9.45667
即為	-9.45695
守	-9.45755
具壽善現白佛言	-9.4592
安立	-9.46088
不實	-9.46122
提	-9.46138
談	-9.46155
行相	-9.4634
然後	-9.46366
不爾	-9.46494
味界乃至舌觸為緣所生諸受	-9.46495
然此	-9.4656
視	-9.46715
轉法輪	-9.46793
佛性	-9.4691
色界乃至眼觸為緣所生諸受	-9.46913
沙	-9.46938
若欲	-9.47204
了知	-9.47398
厭	-9.47551
力故	-9.47583
歲	-9.47637
舌觸為緣所生諸受	-9.47851
所見	-9.47986
悉皆	-9.48155
是佛	-9.48244
云何菩薩	-9.48283
特	-9.4841
南	-9.48487
陀	-9.48598
囉	-9.48627
如佛	-9.48631
第七	-9.48639
勝義	-9.48682
各有	-9.48721
是也	-9.48866
所證	-9.49109
遊	-9.49347
脩	-9.49387
亦能	-9.49525
不出	-9.4958
毀	-9.49638
度生	-9.49868
譬	-9.49967
前後	-9.50021
到彼岸	-9.50043
謂若住此三摩地時	-9.50105
斷疑	-9.50144
飲食	-9.50165
而能	-9.50442
▁三	-9.50516
非是	-9.50554
隱	-9.50619
欲令	-9.50631
羼提波羅蜜	-9.50651
鼻觸為緣所生諸受	-9.50865
能得	-9.50923
所攝	-9.51158
此明	-9.51164
作意	-9.51308
和	-9.51319
辟支佛道	-9.51588
靜	-9.51697
□	-9.51714
十四	-9.51715
徵	-9.51767
五百	-9.51951
觀照	-9.51969
愚癡	-9.5197
瞋恚	-9.51998
一法	-9.52069
性空故	-9.52084
詳	-9.52111
解釋	-9.52114
無實	-9.52196
!「	-9.52574
三藏	-9.52584
識清淨	-9.52613
釋迦	-9.52663
強	-9.52754
校量	-9.52958
應當	-9.53003
相似	-9.53024
象	-9.53217
是事	-9.53249
自他	-9.53413
能所	-9.53605
亦無所有	-9.53617
如實	-9.53668
不作是念	-9.53852
如是乃至	-9.5396
我能	-9.54116
闇	-9.54173
平	-9.54291
言之	-9.54497
阿那含	-9.54621
意云	-9.54797
的	-9.5483
靈	-9.55177
落	-9.55197
尊者	-9.55239
正覺	-9.55354
為欲	-9.55382
器	-9.55466
廣說乃至	-9.55654
薄	-9.56019
親近	-9.5605
固	-9.56097
女人	-9.5612
不定	-9.56135
承	-9.56166
無畏	-9.56275
禪波羅蜜	-9.56381
佛眼	-9.56391
無記	-9.56424
身心	-9.56486
無上菩提	-9.56494
十一	-9.56575
歷	-9.56638
無邊故	-9.56642
敘	-9.56642
中說	-9.56661
三十二大士相	-9.56701
淨戒乃至般若波羅蜜多	-9.56707
當得	-9.5675
變化	-9.56861
惱	-9.57027
所緣	-9.57192
之福	-9.57203
於色	-9.57457
阿素洛等	-9.57475
段	-9.57476
鉢	-9.57557
諸如來	-9.57599
即耳	-9.57654
等持	-9.57757
徹	-9.57879
不失	-9.57955
調伏	-9.57958
推	-9.58036
此人	-9.58053
殊	-9.58111
誠	-9.5816
之理	-9.58176
日月	-9.58247
識界清淨	-9.5828
緣起	-9.58281
自性空故	-9.58376
世間便有	-9.58574
待	-9.58575
等可得	-9.58614
切	-9.58629
薩云若	-9.58824
節	-9.5889
今此	-9.58904
壽	-9.58982
燒	-9.58989
世諦	-9.59027
寧	-9.59075
虛妄	-9.5908
淺	-9.59244
拘翼	-9.59406
非行般若波羅蜜多	-9.59513
種子	-9.59592
減	-9.59785
實無	-9.59848
而住	-9.59852
為體	-9.59866
。」【【	-9.59901
檀	-9.59933
安樂	-9.59934
真如清淨	-9.60026
婆	-9.60036
其義	-9.60081
或有	-9.60096
守護	-9.60144
內空乃至無性自性空	-9.60192
行深般若波羅蜜多	-9.60266
不斷	-9.60331
尊重	-9.60333
有異	-9.60427
老死	-9.60543
正見	-9.60588
相好	-9.60667
得果	-9.60855
作佛	-9.60932
陳	-9.60941
於是	-9.60944
魔事	-9.60984
志	-9.61038
無自性	-9.61063
無染無淨	-9.61085
判	-9.61104
增上緣	-9.61148
氣	-9.6116
佛答	-9.61191
亦應	-9.61202
增語	-9.61331
迦	-9.61567
從此	-9.61576
冥	-9.61662
能證	-9.61864
斯陀含	-9.61918
不念	-9.6193
賊	-9.61944
所知	-9.6201
無所住	-9.62124
則不	-9.62128
大士	-9.62137
智者	-9.62246
授記	-9.62249
安隱	-9.62304
法處清淨	-9.6232
毘梨耶波羅蜜	-9.62475
修道	-9.62682
意處清淨	-9.62703
如人	-9.62737
心不	-9.6286
能斷	-9.62924
不滅	-9.62927
源	-9.62988
簡	-9.63073
善吉	-9.63116
妄想	-9.63121
不善	-9.63201
盖	-9.63224
皆得	-9.63225
慈悲	-9.63231
以一切法	-9.63259
再	-9.63331
放	-9.6336
此言	-9.63447
疾證無上正等菩提	-9.63502
云何名	-9.63515
容	-9.63598
佛身	-9.63607
相空	-9.63676
諸佛無上正等菩提清淨	-9.63749
新	-9.63789
菩薩行	-9.63796
之時	-9.6389
若遠離若不遠離	-9.63926
皆有	-9.63951
無數量	-9.63976
內空清淨	-9.6398
狀	-9.64043
恩	-9.64125
勤	-9.64184
義故	-9.64384
空相	-9.64493
依此	-9.64501
有人言	-9.64501
凡聖	-9.6451
看	-9.64607
殺	-9.64613
預流果清淨	-9.64643
不思議	-9.64658
五眼清淨	-9.6482
四念住清淨	-9.65003
之意	-9.65011
乃至一切種智	-9.65062
亦空	-9.65108
八解脫清淨	-9.65122
行施	-9.65153
菩薩十地清淨	-9.65206
萬法	-9.65268
滿慈子	-9.65274
都無	-9.65281
布施波羅蜜多清淨	-9.65284
教化	-9.6529
語言	-9.65296
譬喻	-9.65349
人法	-9.65389
名之為	-9.65484
建立	-9.65497
佛十力清淨	-9.65505
資	-9.65507
儀	-9.65542
當學般若波羅蜜	-9.65544
若寂靜若不寂靜	-9.65558
收	-9.65668
神力	-9.65712
為一	-9.65788
世俗	-9.658
聞說	-9.65821
十力	-9.65857
導	-9.65902
權	-9.65923
之處	-9.65944
恒住捨性清淨	-9.66036
苦聖諦清淨	-9.66047
是中	-9.66063
不復	-9.66088
獨覺菩提清淨	-9.66141
葉	-9.6623
無忘失法清淨	-9.66237
伽	-9.66387
怖	-9.66391
一切陀羅尼門清淨	-9.6648
端	-9.66508
之言	-9.66511
一相	-9.66538
於佛	-9.66712
由是	-9.66726
六神通清淨	-9.6675
何等為	-9.66752
大小	-9.66755
星	-9.66799
十二因緣	-9.66803
相者	-9.66884
一切菩薩摩訶薩行清淨	-9.66918
瓔珞	-9.66941
自相	-9.66966
一日	-9.66992
一切三摩地門清淨	-9.67045
無自性故	-9.67091
空解脫門清淨	-9.67182
可說	-9.67229
怖畏	-9.6724
四靜慮清淨	-9.67335
懷	-9.67426
漏	-9.67585
隨喜迴向	-9.67592
福田	-9.67598
無滅	-9.67659
所生	-9.67711
令得	-9.67819
備	-9.67982
人中	-9.67992
由此故說	-9.67997
非實	-9.68032
由此般若波羅蜜多祕密藏中所說法故	-9.68048
申	-9.6817
為有	-9.68274
若復有人	-9.68327
者謂	-9.68403
經曰	-9.68587
利樂	-9.68602
乞	-9.68622
又復	-9.68688
中間	-9.68912
不在	-9.68933
諸行	-9.6897
畢	-9.68984
若能	-9.69191
能令	-9.69417
菩提心	-9.69511
能行	-9.69573
助	-9.69652
際	-9.69705
獨覺乘	-9.69719
是空	-9.69751
善友	-9.69788
如經	-9.69808
發阿耨多羅三藐三菩提心	-9.69947
解說	-9.69951
即是空	-9.69997
畏	-9.70071
釋云	-9.70088
得聞	-9.70125
辭	-9.7018
鏡	-9.70208
貴	-9.70212
但以	-9.70243
既無	-9.70352
虛	-9.70438
句義	-9.70494
熱	-9.70512
婆羅門	-9.70565
法雲地	-9.70625
聞法	-9.70625
付囑	-9.70874
四念住乃至八聖道支	-9.70964
盛	-9.70976
牛	-9.71021
戲論	-9.71032
乃是	-9.71051
今明	-9.7107
三業	-9.71147
唯有	-9.71192
音聲	-9.71194
無所從來	-9.71309
不解	-9.71329
此心	-9.71338
有一	-9.71463
無能	-9.71616
皆從	-9.71645
及餘	-9.71663
法也	-9.71682
二明	-9.71697
馬	-9.71707
骨	-9.71816
如前	-9.71872
能知	-9.71954
互	-9.71963
禮	-9.71987
以其	-9.72122
不可戲論故不應戲論	-9.72181
名曰	-9.72199
善惡	-9.72268
修行般若波羅蜜多	-9.72294
為離	-9.72547
等無間緣	-9.72646
下文	-9.72719
帝	-9.72776
大德	-9.72863
諸有	-9.72896
一切世間	-9.72899
乞食	-9.73009
西	-9.73011
領	-9.7337
所緣緣	-9.73432
實無有法	-9.73495
無生忍	-9.73705
菩薩摩訶薩行深般若波羅蜜多時	-9.73712
發菩提心	-9.7388
珍寶	-9.74078
我於	-9.74094
法眼	-9.74199
阿修羅	-9.74257
准	-9.74559
此則	-9.74631
受用	-9.74678
專	-9.74734
可見	-9.74827
而行	-9.74867
身相	-9.74934
二字	-9.74972
布	-9.7499
補特伽羅	-9.74992
說般若	-9.75126
謗	-9.75192
信受	-9.75219
萬行	-9.75245
無相解脫門	-9.75277
無見	-9.75319
清淨故	-9.75381
自行	-9.7542
無說	-9.755
於諸法	-9.75531
審	-9.75541
代	-9.75664
祖	-9.75703
四者	-9.76229
若有善男子	-9.76252
亦如	-9.76376
心也	-9.76477
露	-9.76544
離垢地	-9.76558
增益	-9.76627
行六波羅蜜	-9.76755
化作	-9.7697
總結	-9.76984
見有	-9.76987
善知識	-9.77002
有此	-9.77125
般若波羅蜜多清淨	-9.77145
則有	-9.77184
付	-9.77405
運	-9.77544
是真	-9.77561
化眾生	-9.77591
摩訶	-9.77593
陀羅尼	-9.77597
亦然	-9.77649
。《	-9.77657
而巳	-9.77818
麁	-9.77867
亦不離	-9.77929
不名	-9.78022
善慧地	-9.78047
若離	-9.78121
名相	-9.78234
此文	-9.78251
異生	-9.78263
是則	-9.78264
作是言	-9.78312
消	-9.78332
十八界	-9.78346
又如	-9.7849
徒	-9.7853
六根	-9.78799
咸	-9.78823
但有	-9.78869
不應離	-9.79013
豈不	-9.79035
成熟	-9.79068
菩薩摩訶薩行	-9.79088
三藏法師玄奘奉詔譯	-9.79106
亦無有	-9.79163
饒益	-9.79169
犯	-9.79253
『	-9.79263
關	-9.79264
見如來	-9.7934
積	-9.79599
不過	-9.79624
自身	-9.79656
持經	-9.79661
逐	-9.79739
辟支佛地	-9.79747
發光地	-9.79791
大身	-9.79909
薩芸若	-9.79921
知一切法	-9.7994
十八不共法	-9.8001
現行	-9.80191
塔	-9.80266
非色	-9.80378
如是菩薩	-9.80499
染淨	-9.80524
諸煩惱	-9.80561
流轉	-9.80572
鬼	-9.80625
念念	-9.80631
若見	-9.80631
無餘	-9.80683
制	-9.80735
相也	-9.80749
菩薩摩訶薩行般若波羅蜜時	-9.80761
肉	-9.808
唯識	-9.80801
而起	-9.80825
寺	-9.80827
得名	-9.80929
有三種	-9.80976
常無常	-9.8102
現前地	-9.81173
天上	-9.81291
尚不可得	-9.81298
遠行地	-9.81336
由斯	-9.81352
天人	-9.81409
生者	-9.8141
患	-9.81455
當來	-9.81574
麤	-9.81627
當知是人	-9.81672
分明	-9.81846
二十	-9.81853
天子	-9.81856
不見有	-9.81901
作是	-9.82002
濁	-9.82055
肉眼	-9.82075
流通	-9.82081
大師	-9.82098
滿足	-9.8232
開示	-9.82416
誡	-9.82541
入涅槃	-9.82551
無想	-9.82596
宮	-9.82611
參	-9.82643
諍	-9.82654
金剛經	-9.82678
不動地	-9.828
如是如是	-9.82849
不可取	-9.82883
無量無數	-9.82914
無心	-9.83079
作如是言	-9.83095
十三	-9.83114
亦得	-9.83202
畢竟不生	-9.83367
更有	-9.83369
○	-9.83384
痛痒思想生死識	-9.8339
林	-9.83443
焰	-9.83554
諸佛世尊	-9.83557
如化	-9.83617
緣覺	-9.83627
諸菩薩摩訶薩修行般若波羅蜜多時	-9.83684
遠離故	-9.8378
相違	-9.83865
【	-9.83981
二法	-9.84038
弘	-9.8405
亦不能	-9.84065
不退轉	-9.8411
大海	-9.8414
心中	-9.84165
怛薩阿竭	-9.84354
不言	-9.84482
生故	-9.8451
四果	-9.84618
諸根	-9.84665
後世	-9.84694
」?	-9.84704
無染	-9.84865
於此般若波羅蜜多	-9.84921
護念	-9.85048
解云	-9.85049
後際	-9.8507
五欲	-9.85166
傍生	-9.85181
心生	-9.85183
字門	-9.8524
蓮華	-9.85285
舍利弗言	-9.85444
如實了知	-9.85471
便是	-9.85556
菩薩摩訶薩修行般若波羅蜜多時	-9.85604
臺	-9.85656
東方	-9.857
不應於	-9.85731
離諸	-9.85786
公	-9.85841
曉	-9.85928
六道	-9.85952
何等是	-9.86032
次明	-9.86054
哩	-9.86074
救	-9.86154
▁(	-9.86221
天王	-9.86227
越	-9.86248
持說	-9.86288
俗諦	-9.86291
鬼神	-9.86291
色蘊	-9.86319
不及	-9.86338
該	-9.86426
至心聽聞	-9.86434
不可見	-9.8647
法執	-9.8653
今世	-9.86555
之體	-9.86601
等法	-9.86685
損	-9.86763
亦云	-9.86843
信心	-9.86885
諸餘	-9.86895
此義	-9.86957
若有人	-9.86989
登	-9.86991
聽受	-9.87196
不聞	-9.87246
否	-9.8726
妄心	-9.87273
菩薩摩訶薩所行般若波羅蜜多	-9.87305
憂	-9.87337
無知	-9.87359
夢中	-9.8745
若空若不空	-9.87491
菩薩行般若波羅蜜	-9.87534
未曾	-9.87599
天親	-9.87671
濟	-9.87732
斷滅	-9.87732
東	-9.87764
演	-9.87822
微細	-9.87867
無所著	-9.87882
破壞	-9.87957
不久	-9.88013
性故	-9.88029
已得	-9.88079
美	-9.88098
深般若波羅蜜	-9.88195
略說	-9.88251
貪著	-9.88306
無諍	-9.88481
亦無所	-9.88509
十方諸佛	-9.88525
有何	-9.88537
上來	-9.88575
眾生相	-9.88594
下第二	-9.88725
諸眾生	-9.88821
不共	-9.8889
決	-9.88925
是以	-9.88993
之名	-9.89027
五種	-9.89064
三明	-9.89093
非真	-9.89106
壽命	-9.89124
何因緣故	-9.89135
非不	-9.89255
暗	-9.89256
展轉	-9.89365
自心	-9.89409
勤修	-9.89438
三解脫門	-9.89487
尼	-9.89626
縱	-9.89792
諸菩薩摩訶薩行深般若波羅蜜多時	-9.89987
無形	-9.90016
無間	-9.90097
善業	-9.90186
成就眾生	-9.90209
何法	-9.90291
舊	-9.9034
空有	-9.90377
說者	-9.90403
空也	-9.90433
前際	-9.90464
或說	-9.90528
諸三昧	-9.90564
色處清淨	-9.90623
報身	-9.90716
其身	-9.90721
能示諸佛	-9.90762
畜生	-9.90777
之行	-9.90803
泯	-9.90843
先世	-9.90852
單	-9.90871
散亂	-9.90874
所說法	-9.90924
雜染	-9.90948
姓	-9.90965
轉輪聖王	-9.90987
般若波羅蜜中	-9.91097
玅	-9.91115
十善	-9.91159
菩薩道	-9.91197
於離	-9.91292
奪	-9.91425
眼處清淨	-9.91441
為趣	-9.91477
能信	-9.91519
緣生	-9.91574
虗妄	-9.91593
地界清淨	-9.91625
行人	-9.91677
所化	-9.91689
短	-9.91751
熟	-9.91778
增上	-9.91885
士	-9.919
是心	-9.91947
意界清淨	-9.9196
說也	-9.91996
所起	-9.92001
此等	-9.92039
假使	-9.92109
空寂	-9.92167
能作	-9.92212
耳界清淨	-9.92218
仙人	-9.92306
之身	-9.9236
無智	-9.92409
知者	-9.92476
迴	-9.92489
若一切法	-9.9253
阿僧祇	-9.9255
眼界清淨	-9.92553
伎樂	-9.92609
身界清淨	-9.92625
自有	-9.92671
其所	-9.92741
一切諸佛	-9.92762
無明清淨	-9.92801
若言	-9.92883
鼻界清淨	-9.92885
舌界清淨	-9.92912
為因	-9.93041
住於	-9.93077
威儀	-9.93095
布施波羅蜜多乃至般若波羅蜜多	-9.93219
揀	-9.93234
非住非不住	-9.93408
巧	-9.93437
覩	-9.93437
不了	-9.93507
檀那波羅蜜	-9.93546
說法者	-9.9359
十五	-9.93592
其福	-9.9364
若爾	-9.93657
諸佛法	-9.93668
為大	-9.93682
泥	-9.93781
豈有	-9.93806
不墮	-9.93943
逆	-9.93992
色乃至識	-9.93992
鳥	-9.94048
碎	-9.94051
勢力	-9.94112
悔	-9.94129
恒沙	-9.94138
五波羅蜜	-9.94173
至於	-9.94217
差	-9.94243
一切法皆	-9.9425
之事	-9.94264
生疑	-9.94269
有四	-9.94326
太	-9.94394
預流向預流果	-9.9444
此三	-9.94468
焰慧地	-9.94516
引發	-9.94566
即此	-9.94573
如彼	-9.94614
非相應非不相應	-9.9466
二障	-9.9472
諸法空	-9.94727
正明	-9.94729
橫	-9.94733
所執	-9.94856
偈云	-9.94957
棄捨	-9.94981
心故	-9.95029
拔	-9.95052
天帝釋言	-9.95088
怨	-9.95115
所詮	-9.95123
響	-9.95129
何處	-9.95136
瑜伽	-9.95137
賢	-9.95221
園	-9.95248
倍	-9.95314
。」《	-9.95494
中無	-9.95571
如是甚深般若波羅蜜多	-9.95612
能說	-9.95656
逮	-9.95684
隨意	-9.95703
真如乃至不思議界	-9.95789
有我	-9.95849
帝釋	-9.95935
賢聖	-9.95991
唐	-9.96082
木	-9.96086
連	-9.96347
莫作是念	-9.96528
宣	-9.96532
己	-9.96549
何謂	-9.96679
深心	-9.96694
能破	-9.96697
十八佛不共法清淨	-9.9681
題	-9.9682
意識	-9.96831
是諸	-9.96834
野	-9.96907
不思議界清淨	-9.96913
若耳	-9.9694
仍	-9.96955
彌	-9.96964
此名	-9.96965
若以	-9.96966
不也世尊	-9.96981
妙法	-9.97021
明度	-9.9715
宿	-9.9715
利他	-9.97185
太子	-9.97284
佛地	-9.97309
八聖道支清淨	-9.97397
驚	-9.97471
淨佛國土	-9.97528
少分	-9.97582
愛樂	-9.97694
第一義諦	-9.9778
如來十力乃至十八佛不共法	-9.97854
教化眾生	-9.97879
須菩提於意云何	-9.97914
飛	-9.97925
何緣	-9.97941
留	-9.97973
聽聞	-9.98023
百千	-9.98101
無性自性空清淨	-9.98152
無差別	-9.98293
亦無所住	-9.9832
一人	-9.98345
初禪	-9.98715
極難勝地	-9.98721
今言	-9.98775
憶念	-9.98814
二句	-9.98828
車	-9.98838
不來	-9.98862
真心	-9.98954
真俗	-9.98957
施者	-9.99236
諸功德	-9.99347
供	-9.99368
長者	-9.99412
錯	-9.99419
漏盡	-9.99472
青	-9.99582
菩薩摩訶薩無所有不可得	-9.99593
淨故	-9.99596
惡業	-9.99652
索	-9.99706
前說	-9.99725
懸	-9.99755
亦無所去	-9.99766
六波羅蜜多	-9.99895
無漏法	-9.99903
所成	-9.99944
無非	-9.99956
一切皆	-10.0001
父	-10.0005
非但	-10.0006
一分	-10.0013
此為	-10.0014
此般若波羅蜜多	-10.002
種性	-10.0028
室	-10.0029
以是因緣故	-10.0034
仁	-10.0036
為眾生	-10.0037
復以	-10.0045
三事	-10.0048
不盡	-10.0051
災	-10.0052
色心	-10.0055
不求	-10.0067
迹	-10.007
箇	-10.0086
休	-10.0089
不執	-10.009
作者	-10.009
是為菩薩	-10.0097
如上	-10.0123
期	-10.0127
如是法	-10.013
離欲	-10.0133
西方	-10.0133
不染	-10.014
第十	-10.0143
之因	-10.0146
皆無	-10.0147
見道	-10.0155
我相	-10.0156
謬	-10.0161
彼常無常亦不可得	-10.0165
彼我無我亦不可得	-10.0165
惠	-10.0166
上品	-10.0167
應如是	-10.0175
但是	-10.018
不增不減	-10.0184
樂說	-10.0191
非相	-10.0194
彼淨不淨亦不可得	-10.0198
能見	-10.0202
施與	-10.0203
故得	-10.0207
融	-10.0211
二釋	-10.0215
修多羅	-10.0219
無學	-10.0222
二義	-10.0223
令彼	-10.0229
當釋	-10.0233
三世諸佛	-10.0249
皆為	-10.0262
無所生	-10.0268
心無	-10.0272
師子	-10.0273
威力	-10.0286
彼樂與苦亦不可得	-10.0291
是謂	-10.0309
則非	-10.0314
贊曰	-10.0315
幻化	-10.0316
誓	-10.0317
我法	-10.0324
諸法相	-10.0328
輪迴	-10.0329
華嚴	-10.0331
非無	-10.0367
二相	-10.037
善入	-10.0372
即有	-10.0376
質	-10.0381
迴向阿耨多羅三藐三菩提	-10.0399
般	-10.0399
任	-10.0405
返	-10.0407
受記	-10.0409
財施	-10.041
佛以	-10.0426
國王	-10.0429
不能得	-10.0447
三毒	-10.0447
法華	-10.0452
無人	-10.0454
幾	-10.046
今日	-10.046
池	-10.0474
佛之	-10.0489
若菩薩摩訶薩修行般若波羅蜜多時	-10.0505
是故說	-10.0509
草	-10.0514
一乘	-10.0516
隨所	-10.0518
當知是為菩薩魔事	-10.0539
初標	-10.0542
有得	-10.0558
護國	-10.0566
諸惡	-10.0568
毛	-10.057
說般若波羅蜜	-10.0578
往來	-10.0588
文義	-10.0593
今初	-10.0599
調	-10.0617
過失	-10.0621
漸次	-10.0622
繫	-10.0622
何者	-10.0633
準	-10.0637
是色	-10.0645
純	-10.0661
之性	-10.0662
可謂	-10.0663
五神通	-10.0664
善巧	-10.0667
稱量	-10.0668
形相	-10.0671
或時	-10.0671
訖	-10.0674
億	-10.0678
此菩薩	-10.0679
如我	-10.0681
如來者	-10.0692
能為	-10.0697
佛意	-10.0699
汝今	-10.0704
若相應若不相應	-10.0712
不隨	-10.0717
笑	-10.0719
天地	-10.0719
遍知	-10.072
波羅	-10.0724
善現對曰	-10.073
麼	-10.0732
若干	-10.0736
北	-10.0738
八萬四千	-10.0742
本空	-10.0745
畫	-10.0757
數量	-10.077
統	-10.0772
雖復	-10.0773
能於	-10.0778
所住	-10.0788
若依	-10.0792
以明	-10.0792
說名	-10.0796
菩薩摩訶薩眾	-10.0799
潤	-10.0809
十九	-10.0818
供養諸佛	-10.0823
眾中	-10.0827
出離	-10.0829
所求	-10.083
亦當	-10.0833
無戲論	-10.0833
加行	-10.0835
正憶念	-10.084
打	-10.0846
第九	-10.0846
色等法	-10.0847
威德	-10.0848
即空	-10.085
薩	-10.086
化生	-10.0873
福聚	-10.0873
纏	-10.0876
跡	-10.0876
憍慢	-10.0883
苦惱	-10.0889
希	-10.0893
如來所說	-10.0893
累	-10.0894
即無	-10.0894
臥具	-10.0894
是名菩薩摩訶薩	-10.0896
幡蓋	-10.0897
虛誑	-10.092
暫	-10.0922
妄念	-10.0925
慮	-10.0927
地前	-10.093
閻浮提	-10.0942
拘	-10.0951
我為	-10.0951
之旨	-10.0955
不依	-10.0957
是實	-10.0961
釋上	-10.0961
諸善男子	-10.0962
不分別	-10.0973
背	-10.0985
釋也	-10.0985
命者	-10.0992
深般若波羅蜜多	-10.1008
若一切智清淨	-10.1014
覺知	-10.1021
謂此是	-10.1023
一切法皆以	-10.1025
是故菩薩	-10.1031
載	-10.1044
大菩提	-10.105
箭	-10.1052
但說	-10.1059
痛	-10.1061
不樂	-10.1071
一切善法	-10.1072
他人	-10.1075
之道	-10.1086
又曰	-10.1089
造作	-10.109
之智	-10.1097
亦為	-10.1108
岸	-10.1109
剎那	-10.111
無有是處	-10.1124
若於	-10.1124
勢	-10.1139
一向	-10.1147
未盡	-10.115
無念	-10.1155
較量	-10.1156
不覺	-10.1162
不入	-10.1167
所聞	-10.1169
雖行	-10.1171
忽	-10.1174
三句	-10.1178
皆以	-10.1183
破戒	-10.1189
則知	-10.119
說為	-10.1199
為他人說	-10.1201
闓士	-10.1206
無著云	-10.1207
黃	-10.121
阿耨多羅三耶三菩	-10.1218
即得	-10.1218
船	-10.1219
灌頂	-10.1225
能除	-10.1228
文殊師利	-10.1236
性相	-10.1239
亦不得	-10.1239
障礙	-10.1249
或復	-10.125
世人	-10.1251
改	-10.1252
適	-10.1258
有五	-10.1263
般若波羅蜜者	-10.1265
等也	-10.1266
等覺	-10.1274
衰	-10.1282
寔	-10.1282
認	-10.1289
點	-10.1289
軍	-10.1297
非謂	-10.1302
事故	-10.1302
貪欲	-10.1304
於一切	-10.1306
不從	-10.1309
佛教	-10.131
嚩	-10.1318
多聞	-10.1322
田	-10.1338
諸善根	-10.134
總持	-10.1347
世間空	-10.1361
正說	-10.1363
苦行	-10.137
若修	-10.138
具壽善現	-10.1381
他方	-10.1388
八十	-10.1389
未能	-10.1395
諸佛菩薩	-10.1408
赤	-10.1411
多少	-10.1416
生信	-10.1428
極喜地乃至法雲地	-10.143
較	-10.1433
二地	-10.1449
空學	-10.1459
朝	-10.1462
三義	-10.1462
恭敬供養	-10.1464
佛為	-10.1465
茲	-10.1468
遺	-10.1476
恚	-10.1477
四無量心	-10.1485
究	-10.1489
種善根	-10.1494
知諸法	-10.1501
請問	-10.1505
得解脫	-10.1511
所斷	-10.1512
不遠離	-10.1526
。』」	-10.1529
一切處	-10.153
貫	-10.1531
具壽	-10.1536
招	-10.1537
必有	-10.1549
皆令	-10.1549
真如相	-10.1559
即是非相	-10.1562
清淨故般若波羅蜜多清淨	-10.1563
我執	-10.1564
不怖	-10.1564
或以	-10.1565
聞者	-10.1565
如理	-10.1566
自體	-10.1567
▁一	-10.1578
之果	-10.158
傷	-10.1582
是謂般若波羅蜜多	-10.1583
仰	-10.1583
諸善法	-10.1589
二邊	-10.159
至此	-10.1595
注此	-10.1598
皆應	-10.1603
之曰	-10.1606
勝解	-10.1624
十住	-10.1626
天下	-10.1636
妙慧	-10.1641
執有	-10.1648
闕	-10.1649
刀	-10.165
修除遣	-10.1655
長夜	-10.1655
投	-10.1656
諸菩薩眾	-10.1658
或生	-10.1666
胎	-10.1668
正觀	-10.167
當機	-10.1674
不合不散	-10.1676
不須	-10.1682
乖	-10.1686
真理	-10.169
牒	-10.169
四天王	-10.1692
十七	-10.1698
二空	-10.1701
苦樂	-10.1701
亦以	-10.1706
法王	-10.1707
財物	-10.1714
復問	-10.1715
其人	-10.1725
】【	-10.1725
無縛無解	-10.173
如如不動	-10.1734
於空	-10.1739
勇猛	-10.1745
初分	-10.1751
恒河	-10.1753
自利	-10.1756
仙	-10.1756
不和合	-10.176
所謂無相	-10.1764
但有名	-10.1766
作是思惟	-10.1771
之本	-10.1776
人相	-10.178
故也	-10.1783
學者	-10.1784
天帝釋	-10.1794
法寶	-10.18
如來真如	-10.1807
不有	-10.1812
所取	-10.1813
奉持	-10.1813
即以	-10.1824
隨其	-10.1827
佛所說	-10.1832
舍利弗白佛言	-10.1846
穢	-10.1851
寶施	-10.1853
身命	-10.1868
法無我	-10.1869
一來向一來果	-10.1874
云何言	-10.1878
無垢	-10.188
證無上正等菩提	-10.1882
有情類	-10.1887
得自在	-10.1888
餓鬼	-10.1888
應圓滿	-10.189
無緣	-10.189
身子	-10.1892
應以	-10.1897
實法	-10.19
無取無捨	-10.1903
大地	-10.1903
得無上正等菩提	-10.1905
纔	-10.1906
士夫	-10.1907
於我	-10.1908
禪那波羅蜜	-10.1915
答云	-10.1916
演曰	-10.1918
上文	-10.1921
說此	-10.1923
眾苦	-10.1934
復說	-10.1935
臨	-10.1936
文二	-10.1943
下明	-10.1943
諸佛如來	-10.196
師云	-10.1963
知是	-10.1969
一切佛法	-10.197
諸聲聞	-10.1973
佛國	-10.1974
有善男子	-10.1977
阿羅漢向阿羅漢果	-10.1987
如響	-10.1995
不證	-10.1996
文云	-10.2
無取	-10.2002
七地	-10.2007
每	-10.2017
無窮	-10.2021
無始	-10.2022
是非	-10.2023
惡趣	-10.2028
生起	-10.2034
無二分故	-10.2035
如是說	-10.2047
不成	-10.2048
所為	-10.2052
借	-10.2057
非一	-10.2057
意業	-10.2058
結使	-10.2061
正知	-10.2068
利益眾生	-10.207
便有	-10.2072
乃至意觸為緣所生諸受	-10.2072
人也	-10.2073
處處	-10.2075
慳貪	-10.2082
是經	-10.2084
菩薩地	-10.209
自修	-10.2092
廣釋	-10.2093
教人	-10.2095
著相	-10.2096
蓮花	-10.21
無生法忍	-10.2102
非心	-10.2105
須陀洹果	-10.2106
勸助	-10.2124
逢	-10.213
大智	-10.2131
為實	-10.2132
無來無去	-10.2138
取著	-10.2143
以顯	-10.2143
依他	-10.2147
金剛般若	-10.215
念佛	-10.2158
不是	-10.2158
為二	-10.2159
為人	-10.216
應住	-10.2163
若受	-10.2165
應身	-10.2172
幽	-10.2174
令住	-10.2176
誑	-10.2188
三十三天	-10.2192
出現世間	-10.2192
諸菩薩摩訶薩行深般若波羅蜜多	-10.2195
而非	-10.2196
然燈	-10.2204
於一切法如實了知略廣之相	-10.221
曲	-10.2216
法體	-10.2217
二事	-10.2217
寒	-10.2217
能修	-10.2218
是有	-10.2219
是眾生	-10.222
上下	-10.2222
不由	-10.2226
證菩提	-10.2229
無斷	-10.223
其實	-10.2232
度脫	-10.2232
發阿耨多羅三藐三菩提心者	-10.2235
無我相	-10.2243
接	-10.2243
餘人	-10.2244
六種	-10.2248
為宗	-10.2252
最後	-10.2253
不行色	-10.2258
中際不可得	-10.226
何有	-10.2268
步	-10.227
不但	-10.2274
輩	-10.2274
滯	-10.2275
▁【	-10.2277
常行	-10.2282
悉知	-10.2288
不然	-10.2291
如相	-10.2301
皆名	-10.2305
十信	-10.2321
無生滅	-10.2324
擇	-10.2334
侍	-10.2334
行般若	-10.2342
以無	-10.2347
一合相	-10.2348
實智	-10.2351
續	-10.2356
非身	-10.2361
。●	-10.2362
見聞	-10.2369
薄伽梵	-10.237
真如求	-10.238
過去未來現在	-10.238
攝取	-10.2383
諸經	-10.2384
蒙	-10.2393
觀諸法	-10.2394
得是	-10.2398
凡夫人	-10.2399
永斷	-10.2402
歡喜讚歎	-10.2405
色處乃至法處	-10.2407
而自	-10.2407
文中	-10.2408
第二明	-10.2411
慈氏	-10.2411
不還向不還果	-10.2412
廢	-10.2412
摩訶薩	-10.2443
眼觸乃至意觸	-10.2444
法界乃至意觸為緣所生諸受清淨	-10.2444
放光	-10.2452
三千	-10.2463
但為	-10.2467
相貌	-10.2476
聞說如是甚深般若波羅蜜多	-10.2488
晝夜	-10.2491
尾	-10.2491
須彌	-10.2494
亦勸他	-10.2494
甘露	-10.2498
不驚	-10.2502
瓶	-10.2502
受生	-10.2517
眼識界乃至意識界	-10.2524
有說	-10.253
空者	-10.2535
修證	-10.254
變易	-10.2555
觀一切法	-10.2555
即時	-10.2562
此說	-10.2562
若菩薩摩訶薩欲	-10.2571
一字	-10.258
四生	-10.2581
學般若波羅蜜	-10.2584
非人	-10.2585
色界乃至眼觸為緣所生諸受清淨	-10.2595
輪王	-10.2596
世間法	-10.2596
無眾生	-10.2603
中生	-10.2603
雖多	-10.2603
不相	-10.2604
眼處乃至意處	-10.2605
圓成	-10.2609
薩埵	-10.2609
訶	-10.261
格量	-10.2612
我說	-10.2617
應學	-10.2617
不令	-10.2618
六種波羅蜜多	-10.2618
應修	-10.2618
於耳	-10.2626
應學般若波羅蜜多	-10.263
無上乘	-10.2634
缺	-10.2635
正釋	-10.2636
君	-10.2637
聲界乃至耳觸為緣所生諸受清淨	-10.2637
嘆	-10.2642
心境	-10.2643
薩陀波崙	-10.2644
觸界乃至身觸為緣所生諸受清淨	-10.2644
攝受壞滅故學	-10.265
居士	-10.2654
用是	-10.2659
見性	-10.2662
不學	-10.2668
佛語	-10.2669
八地	-10.2675
寶幢	-10.2676
勤精進	-10.2676
味界乃至舌觸為緣所生諸受清淨	-10.2681
香界乃至鼻觸為緣所生諸受清淨	-10.2683
又以	-10.2685
寄	-10.2686
如來地	-10.269
行乃至老死愁歎苦憂惱清淨	-10.2694
以有所得為方便故	-10.2698
共相	-10.2702
恐怖	-10.2704
皆由	-10.2705
正是	-10.272
非縛非解	-10.2724
男女	-10.2728
真如可得	-10.2729
交	-10.2731
試	-10.2735
飲	-10.2735
外空乃至無性自性空清淨	-10.2738
十種	-10.2742
勝劣	-10.2747
然燈佛	-10.2749
未來世	-10.275
三十二	-10.2752
皆不	-10.2758
事業	-10.2759
爾時世尊	-10.2767
紙	-10.277
正行	-10.2774
觀空	-10.2775
此身	-10.2776
貧	-10.278
更無	-10.2782
正智	-10.2787
白言	-10.2788
能詮	-10.2788
能行般若波羅蜜多不	-10.2793
法性求	-10.2793
有其	-10.2797
色界乃至法界	-10.2809
林子曰	-10.2818
無為界	-10.2821
譬如有人	-10.2822
然則	-10.2829
不自	-10.2836
本有	-10.2842
不觀	-10.2845
春	-10.285
眼界乃至意界	-10.285
勞	-10.2852
法輪	-10.2854
三十	-10.2857
無可	-10.2859
而行布施	-10.2861
俱空	-10.2867
而成	-10.2871
分中	-10.2873
順忍	-10.2875
於前	-10.2886
皆能	-10.2887
顯現	-10.2889
四無所畏乃至十八佛不共法清淨	-10.2892
此地	-10.2893
頃	-10.2895
清涼	-10.2896
服	-10.2896
生心	-10.2901
壽者相	-10.2905
說有	-10.2905
地中	-10.2906
得成	-10.2906
入菩薩位	-10.2909
乃至四句偈等	-10.2909
祇	-10.291
念處	-10.291
別釋	-10.2916
淨戒乃至般若波羅蜜多清淨	-10.2919
若四無量	-10.2924
不可計	-10.2934
男	-10.2935
謂此	-10.2935
一異	-10.2935
一切煩惱	-10.2936
華言	-10.2938
法界乃至不思議界清淨	-10.2939
出世間法	-10.2942
四正斷乃至八聖道支清淨	-10.2949
能滅	-10.2951
稱讚	-10.2953
▁四	-10.2953
之文	-10.2953
迦葉	-10.2962
不用	-10.2962
No	-10.2963
互相	-10.2963
當於	-10.2963
書持	-10.2968
於無上正等菩提	-10.2968
雖無	-10.2969
偈言	-10.2972
若諸有情	-10.2974
常樂	-10.2974
八解脫乃至十遍處	-10.2976
免	-10.2979
以應一切智智心	-10.298
富	-10.2981
由此因緣得福多不	-10.2983
乃至十八不共法	-10.299
疏二	-10.2997
如前所說	-10.3
詞	-10.3001
有漏法	-10.3008
心者	-10.3017
之見	-10.3021
黑	-10.3026
大慈大悲	-10.3026
頗	-10.3029
髮	-10.3031
自知	-10.3032
得無生法忍	-10.3035
寂靜故	-10.3052
而來	-10.3055
證法	-10.3056
剎	-10.3058
無二無別	-10.3074
亦不能修	-10.3085
深入	-10.3089
若聲	-10.3093
兩不和合	-10.31
能與	-10.3103
』	-10.3107
六識	-10.3114
論主	-10.3129
菩薩法	-10.3132
經典	-10.3138
即色	-10.3139
發趣無上正等菩提	-10.3146
合掌	-10.3149
苾芻	-10.315
化佛	-10.3151
五忍	-10.3156
速得圓滿	-10.3172
經說	-10.3173
便能	-10.3174
如說	-10.3174
得佛	-10.3176
色起	-10.3178
若道相智	-10.3181
佛告舍利弗	-10.3181
前云	-10.3184
其意	-10.3188
是畢竟淨	-10.3196
初句	-10.32
下二	-10.3206
大乘亦爾	-10.3207
亦可	-10.321
生時	-10.3218
是菩薩耶	-10.3222
由此緣故我作是說	-10.3229
曼殊室利	-10.3232
垂	-10.3232
啟	-10.3233
降心	-10.3233
與佛	-10.3236
得入	-10.3239
以無所得為方便	-10.3244
一切聲聞	-10.3244
如是般若波羅蜜多是	-10.3244
者即	-10.3246
二智	-10.3249
豈非	-10.325
某	-10.3252
也問	-10.3253
恒河沙	-10.3265
頗有	-10.3268
心經	-10.3272
中際菩薩摩訶薩不可得	-10.3275
十善業道	-10.3276
責	-10.3279
一來果	-10.328
正念	-10.3284
百億	-10.3284
急	-10.3286
在家	-10.3297
中際	-10.3299
道中	-10.3306
持誦	-10.3306
阿僧祇劫	-10.3312
次釋	-10.3313
割	-10.3319
詣	-10.332
渡	-10.3322
捨身	-10.3328
文殊	-10.3333
人心	-10.3333
狂	-10.3333
以般若	-10.3336
菩薩亦如是	-10.3344
習氣	-10.3349
四句偈	-10.3349
聖道	-10.3349
道理	-10.3351
如來藏	-10.3353
當知是菩薩	-10.3355
】「	-10.3357
白佛	-10.3359
實性	-10.3361
若八勝處	-10.3365
驗	-10.3365
隨緣	-10.3371
故不	-10.3373
不現	-10.338
依法	-10.3384
當知是	-10.3385
燈明	-10.3388
但言	-10.3394
令速圓滿	-10.3399
折	-10.34
施福	-10.3402
無縛無脫	-10.3402
誐	-10.3407
初問	-10.3408
當學般若波羅蜜多	-10.3412
意謂	-10.3412
利根	-10.342
是無	-10.3425
頌云	-10.3425
何義	-10.3427
滅故	-10.3429
於般若波羅蜜多	-10.3432
能取	-10.3433
堪	-10.3433
本覺	-10.3435
無對	-10.3445
客	-10.3446
不畏	-10.3453
空不空	-10.3459
一偈	-10.346
鈔	-10.3467
此乃	-10.3475
論曰	-10.3482
金剛般若波羅蜜經	-10.3484
亦遣此修	-10.3484
贍部洲	-10.3488
不取相	-10.349
藉	-10.349
銷	-10.3497
論釋	-10.3497
大菩薩	-10.35
誹謗	-10.3502
後明	-10.3505
一義	-10.3508
能以	-10.3514
非我	-10.3523
有願	-10.3529
成道	-10.3529
臣	-10.3531
護持	-10.3533
獨覺地	-10.3534
顧	-10.3538
別有	-10.354
不合	-10.3542
天子當知	-10.3548
普照	-10.355
辯才	-10.3552
明了	-10.3555
後五百歲	-10.356
呵	-10.3561
譬如虛空	-10.3567
陽	-10.3571
今經	-10.3584
辦	-10.3591
二執	-10.3593
毘	-10.3594
萬物	-10.3596
所願	-10.3598
昧	-10.3599
如是我聞	-10.3605
酬	-10.3619
疏云	-10.362
有為無為	-10.362
資具	-10.3626
有大	-10.3643
別相	-10.3643
故以	-10.3649
便得	-10.3654
無疑	-10.3655
亦不生	-10.3663
孤	-10.3663
玉	-10.3665
符	-10.3666
之說	-10.3674
從初發心	-10.3676
貧窮	-10.3677
也又	-10.3681
比丘尼	-10.3683
限	-10.3684
波羅蜜是般若波羅蜜	-10.3684
得一切種智	-10.3684
口業	-10.3687
不修	-10.3689
方便力	-10.3695
眾生見	-10.3697
從此第二	-10.3698
如是諸法	-10.3698
淨心	-10.3699
果也	-10.3701
了達	-10.3703
是名為	-10.3704
禪師	-10.3705
增減	-10.3713
深法	-10.3715
前二	-10.3716
發明	-10.3716
廣令流布	-10.3717
以無相	-10.3718
知其	-10.3718
此岸	-10.3719
離一切相	-10.3719
總名	-10.3736
作禮	-10.3738
四天下	-10.3739
無體	-10.374
菩薩摩訶薩中有	-10.3752
謂於	-10.3752
四眾	-10.3753
曼拏羅	-10.3754
初發心	-10.3759
負	-10.3763
作如是念	-10.3766
得福	-10.3778
應供	-10.3787
善實	-10.3789
僧寶	-10.379
塗	-10.3795
人見	-10.3809
心念	-10.3817
於受	-10.3818
智力	-10.3821
淨信	-10.3825
無所有不可得故	-10.3827
洲	-10.383
慈心	-10.3832
有四種	-10.3835
這	-10.3835
此下	-10.385
翳	-10.3851
於諸有情	-10.3853
三藐三佛陀	-10.3854
五者	-10.3861
能學	-10.3865
能觀	-10.3866
我身	-10.3873
為本	-10.3874
身觸為緣所生諸受清淨	-10.3875
一味	-10.3876
觀行	-10.3885
空性亦空	-10.3892
能忍	-10.3893
一云	-10.3893
何用	-10.3893
怛	-10.3893
活	-10.3894
若一來	-10.3894
當以	-10.3894
歸依	-10.39
歡喜踊躍	-10.39
臥	-10.3902
眼觸為緣所生諸受清淨	-10.3905
鐵	-10.3907
耳觸為緣所生諸受清淨	-10.3915
有實	-10.3916
境智	-10.3916
乃能	-10.3918
是諸眾生	-10.3919
老死愁歎苦憂惱清淨	-10.3922
意觸為緣所生諸受清淨	-10.3922
此事	-10.3923
)「	-10.3928
是菩薩不能修	-10.3931
皆如	-10.3941
是我	-10.3945
所問	-10.3948
勝處	-10.3949
染著	-10.3952
體性	-10.3956
斯則	-10.3961
鼻觸為緣所生諸受清淨	-10.3962
一體	-10.3971
非法相	-10.3975
別明	-10.3981
種姓	-10.3994
曇無竭菩薩	-10.4008
濕	-10.4008
不取著	-10.4009
舌觸為緣所生諸受清淨	-10.4011
三空	-10.4012
無有法	-10.4013
乃至無上正等菩提	-10.4015
諸菩薩摩訶薩修行般若波羅蜜多	-10.4018
故能	-10.4023
血	-10.4025
誤	-10.4032
十方世界	-10.4035
。」【△	-10.4036
即聲	-10.4039
百分不及一	-10.404
聞是	-10.4042
經者	-10.4043
三性	-10.4047
大千	-10.4049
覺悟	-10.4051
能成	-10.4052
之後	-10.4052
貌	-10.4056
)。】「	-10.4059
斷惑	-10.4059
自說	-10.4063
得此	-10.4065
一切有為法	-10.4065
如來可得	-10.4066
無復	-10.4068
異熟	-10.407
防	-10.4081
既是	-10.409
三品	-10.4102
明菩薩	-10.4103
默	-10.4107
是知	-10.4109
慳	-10.4111
一切獨覺菩提	-10.4115
建	-10.412
愈	-10.4122
兵	-10.4126
身中	-10.4127
何得	-10.4134
因中	-10.4134
如文	-10.4135
因緣生	-10.414
性不可得故	-10.4153
般涅槃	-10.4158
八部	-10.4159
寧為多不	-10.4159
不還果	-10.416
群	-10.4161
不應以	-10.4164
省	-10.4166
是菩薩摩訶薩不	-10.4168
祕密	-10.4171
大品	-10.4171
得大	-10.4176
不執著	-10.418
文別有	-10.4181
此疑	-10.4183
以是義故	-10.4185
得福多不	-10.4198
報言	-10.4207
般若之	-10.4208
若水	-10.4209
州	-10.421
本自	-10.4217
吾我	-10.4219
洞	-10.4219
證得一切智智	-10.4224
一切種	-10.4225
為此	-10.4226
與彼	-10.4231
無動	-10.4237
他化自在天	-10.424
身業	-10.4242
云何為	-10.4243
作證	-10.4253
異本性空	-10.427
讚說	-10.4274
不識	-10.4275
經卷	-10.4277
之類	-10.4279
能具足	-10.4281
有餘	-10.4282
行布施	-10.4283
證真	-10.4291
聞此	-10.4295
妙智	-10.4305
初中	-10.4308
令人	-10.4309
前文	-10.4316
爾所	-10.432
流出	-10.432
人非人等	-10.4323
亦能圓滿	-10.4325
十二入	-10.4327
等諸	-10.4332
意生	-10.4337
為他	-10.4338
懼	-10.4338
人間	-10.4339
不可稱	-10.4345
離於	-10.4346
遍計	-10.4351
什	-10.4352
以下	-10.4355
錄	-10.4356
中有二	-10.4361
退失	-10.4365
是一	-10.4365
余	-10.4366
為三	-10.4379
不可思議故	-10.438
難得	-10.4381
有兩	-10.4383
憶	-10.4386
頌言	-10.4391
所得功德	-10.4395
繇	-10.44
非實有	-10.44
若住	-10.4402
前三	-10.4409
色即是空	-10.441
校	-10.4411
無量功德	-10.4411
竭	-10.4415
彼論	-10.4418
種諸善根	-10.442
菩薩摩訶薩住	-10.4421
無增無減	-10.4433
一切法性	-10.4434
故佛	-10.4435
釋成	-10.4435
非常非無常	-10.4439
尚不	-10.4446
聽法	-10.4449
悟入	-10.4455
故無	-10.4456
無相故	-10.4459
蔽	-10.4463
之義也	-10.4478
識蘊	-10.4479
顯了	-10.448
諸王	-10.4483
無受	-10.4486
如來十力	-10.4487
菩薩摩訶薩欲	-10.4487
佛十八法	-10.449
入定	-10.4492
色清淨	-10.4495
此初也	-10.4502
掃	-10.4503
舍利子問善現言	-10.4503
諸波羅蜜	-10.4508
疑惑	-10.4509
如來真如可得	-10.4511
常不遠離	-10.4517
可取	-10.4521
若無相	-10.4524
所現	-10.4529
實相般若	-10.4532
得見	-10.4532
而去	-10.4536
有二義	-10.4538
世世	-10.4539
不名為	-10.454
所護	-10.4541
如法	-10.4546
正道	-10.4549
網	-10.4554
善現言	-10.4556
地界乃至識界	-10.4556
非如來中	-10.4558
若集	-10.4559
故此	-10.4593
即能	-10.4597
帶	-10.4597
意也	-10.4601
過去諸佛	-10.4604
之也	-10.4606
總相	-10.4608
良	-10.4609
無明乃至老死	-10.4609
鬼界	-10.461
設有	-10.4613
截	-10.4616
其福勝彼	-10.4618
伏忍	-10.4619
說經	-10.4623
所應	-10.4631
菩提道	-10.4635
有菩薩	-10.464
應如是住	-10.4642
煩	-10.4651
妙行	-10.4652
疑云	-10.4658
不垢不淨	-10.4658
避	-10.4658
此約	-10.4661
垢淨	-10.4664
生於	-10.4666
以色	-10.4682
命終	-10.4682
已下	-10.4685
為喻	-10.4689
欲求	-10.4691
位中	-10.4695
無法可說	-10.4699
妙覺	-10.4699
遷	-10.47
色不異空	-10.4703
煩惱障	-10.4704
上言	-10.471
一劫	-10.4713
菩薩住	-10.4714
我無我	-10.4716
不可施設	-10.4716
如是名為	-10.4718
實無所有	-10.472
無分別故	-10.472
□□	-10.4721
今以	-10.4724
一切諸	-10.4729
故須	-10.4732
勤苦	-10.4735
清淨故一切智清淨	-10.4739
無量無數無邊	-10.4741
六十	-10.4741
攝持	-10.4742
一處	-10.4744
與諸有情平等共有迴向無上正等菩提	-10.4754
律	-10.4755
圓明	-10.4757
隔	-10.4757
所獲福聚	-10.4762
此理	-10.4763
優婆塞	-10.4764
菩	-10.4765
即真如	-10.4781
不生故	-10.479
無所有性	-10.4791
筏	-10.4798
之念	-10.48
繁	-10.4803
柔軟	-10.4819
之二	-10.4821
見眾生	-10.4837
今說	-10.4837
問佛	-10.4844
我是	-10.4848
九十	-10.4849
當學	-10.4853
唱	-10.4853
謝	-10.4857
無佛	-10.4862
世親	-10.4863
不礙	-10.4864
敢	-10.4877
而後	-10.4878
罪業	-10.4879
若色清淨	-10.4882
所念	-10.4887
則能	-10.4888
多有	-10.4893
裏	-10.4893
不具足	-10.4895
述曰	-10.4896
念言	-10.4897
擊	-10.4904
廣明	-10.4911
能照	-10.4914
一佛	-10.4917
為方便	-10.492
梵天	-10.4921
不可量	-10.4929
熏	-10.4933
擁護	-10.4938
只是	-10.4939
以是因緣	-10.4941
佛弟子	-10.4947
觀之	-10.4947
恨	-10.4952
離色	-10.4955
餘法	-10.4956
委	-10.4956
空即是色	-10.4961
性中	-10.4963
非有非無	-10.4969
之妙	-10.497
不立	-10.4971
是如來	-10.4971
下第三	-10.4971
乳	-10.4972
修慧	-10.4976
佛剎	-10.498
菩薩乘	-10.4981
右	-10.4981
乃至阿耨多羅三藐三菩提	-10.4991
亦令	-10.4991
因故	-10.4994
生處	-10.4998
如是等種種	-10.5
按	-10.5007
炎	-10.5008
一百	-10.5013
為人解說	-10.5016
忍辱波羅蜜	-10.5017
精勤	-10.502
為相	-10.5022
值	-10.5023
氏	-10.5032
是深般若波羅蜜	-10.5038
有法可得	-10.5048
既有	-10.505
三地	-10.5051
議	-10.5052
供養佛	-10.5052
功德善根	-10.5053
此釋	-10.5053
方能	-10.5055
或云	-10.5056
喪	-10.5059
狹	-10.5059
御	-10.506
中住	-10.5062
涉	-10.5062
聞已	-10.5062
應引發般若波羅蜜多	-10.5068
而觀	-10.5069
若生若滅	-10.5073
無等	-10.5075
不見色	-10.5088
之有	-10.509
悅	-10.5098
證果	-10.5101
故稱	-10.5102
實義	-10.5103
亦離	-10.5104
蕩	-10.5105
昇	-10.5108
皆依	-10.5115
都無自性	-10.5117
是有為	-10.512
菩提薩埵	-10.5125
無法可得	-10.5127
飾	-10.5128
佛菩提	-10.5132
定慧	-10.5136
人所	-10.5138
行菩薩道	-10.5141
勝義諦	-10.5148
盲	-10.5153
惜	-10.5155
贊	-10.5155
殿	-10.5156
張	-10.5159
如先說	-10.5159
後二	-10.516
如是一切	-10.516
行也	-10.5161
諸人	-10.5162
塵勞	-10.5164
無盡故	-10.5164
不足	-10.5165
所須	-10.5166
為我	-10.5169
人民	-10.5182
聽者	-10.5187
道場	-10.5192
梵志	-10.5197
有佛	-10.5198
若菩薩摩訶薩行般若波羅蜜多時	-10.5199
如上說	-10.52
為諸有情	-10.5204
尸	-10.5215
所引	-10.5216
生法	-10.5219
師子吼	-10.5222
無所畏	-10.5227
不達	-10.5229
能如是	-10.5235
之教	-10.5237
二禪	-10.5237
離垢地乃至法雲地	-10.5242
蜜	-10.5243
清淨故法界	-10.5243
章句	-10.5245
安住苦	-10.5245
屈	-10.5245
經意	-10.5246
照見	-10.5252
婬	-10.5258
第	-10.526
觀色	-10.5261
長行	-10.5261
四無礙智	-10.5265
惡友	-10.5269
一如	-10.5272
法忍	-10.5274
即便	-10.5274
等故	-10.5283
殊勝功德	-10.5286
空性	-10.529
能度	-10.5291
留難	-10.5292
時節	-10.5297
釋之	-10.5298
阿惟越致	-10.5307
不於	-10.5309
川	-10.5312
乾	-10.5317
官	-10.5318
天主	-10.5318
此之	-10.5321
履	-10.5322
空中空尚不	-10.5324
迴向無上正等菩提	-10.5326
如是一切皆無所有	-10.5329
無壞	-10.533
言無	-10.5333
彼人	-10.5334
為菩薩	-10.5337
皮	-10.5338
為破	-10.5339
斯陀含果	-10.5346
四法	-10.5348
磨	-10.5372
析	-10.5372
如意	-10.5373
遙	-10.5374
四事	-10.5377
戲	-10.5381
及以	-10.5383
是諸法	-10.5383
人身	-10.5385
心住	-10.5387
人空	-10.5388
持此	-10.5395
阿鞞跋致	-10.5399
有色	-10.5401
漚惒拘舍羅	-10.5401
應作是念	-10.5416
有智	-10.5418
俱胝	-10.5422
我清淨	-10.5424
有漏無漏	-10.5425
稍	-10.5427
利益安樂	-10.5427
業因緣	-10.5428
以上	-10.543
增上慢	-10.5434
色受想行識	-10.5438
以彼	-10.5441
願力	-10.5446
或見	-10.5453
汝當	-10.5456
故今	-10.5458
消滅	-10.5462
去來	-10.5463
明此	-10.5465
我聞	-10.5466
法界相	-10.5469
不顛倒	-10.5472
不沒	-10.5473
不變	-10.5474
信者	-10.5485
三耶三佛	-10.5488
厚	-10.5489
此意	-10.549
秦	-10.5493
受苦	-10.5493
亦無所得	-10.5495
之者	-10.55
不待	-10.5501
亦名甚深	-10.5506
分齊	-10.5509
亦同	-10.5512
無生故	-10.5512
揚	-10.5514
菩薩於	-10.5517
鈍根	-10.5527
為空	-10.5528
諸比丘	-10.5529
愚夫異生	-10.553
名為菩薩	-10.5533
勅	-10.5537
無所得故	-10.5542
思量	-10.5545
初心	-10.5546
菩薩摩訶薩如是學時	-10.5547
非常	-10.5549
復能	-10.5553
非佛	-10.5555
因此	-10.5556
佛智	-10.5561
甚深法	-10.5563
亦非相應非不相應	-10.5566
堂	-10.5572
都不可得	-10.5576
佛語須菩提	-10.558
大意	-10.5582
言教	-10.5585
若聞	-10.559
斷見	-10.5594
〔	-10.5595
文三	-10.5599
尚無	-10.56
深妙	-10.5612
須彌山	-10.5614
阿那含果	-10.5618
十八空	-10.5619
以有	-10.562
里	-10.5621
不見有法	-10.5624
漢	-10.5628
眾人	-10.5636
大心	-10.5636
奉行	-10.5637
梁	-10.5637
倚	-10.564
意樂	-10.564
住是三昧	-10.5641
非空	-10.5649
不住相	-10.5651
於其	-10.5655
超過	-10.5664
最初	-10.5665
報恩	-10.567
養	-10.5671
凡有	-10.5672
是般若	-10.5673
將欲	-10.5675
勝前	-10.5676
謂有	-10.5676
大法	-10.568
不欲	-10.5682
背捨	-10.5683
拈	-10.5683
即法界	-10.5686
遍滿	-10.569
乏	-10.5695
入於	-10.5696
相見	-10.5696
魚	-10.5696
方得	-10.5701
須菩	-10.5702
善現便白佛言	-10.5709
威神	-10.5713
壽者	-10.5714
五十	-10.5714
所學	-10.5715
說此經	-10.5724
令我	-10.5729
聖者	-10.5733
如是求	-10.5738
等義	-10.5744
當知是菩薩摩訶薩	-10.5748
未有	-10.5752
為性	-10.5752
十二處	-10.5754
昏	-10.5755
怒	-10.5756
不必	-10.5757
角	-10.5757
我亦	-10.5762
王舍城	-10.5763
若有願若無願	-10.5766
二人	-10.5767
三惡道	-10.5768
是名大身	-10.5769
娑	-10.577
愛著	-10.5772
修習甚深般若波羅蜜多	-10.5773
讚曰	-10.5774
。」【(	-10.5774
有十	-10.5779
住心	-10.5779
不攝受	-10.5779
同一	-10.5781
嚴淨	-10.579
行檀波羅蜜	-10.5793
如我解佛所說義	-10.5798
偽	-10.5799
菩薩以	-10.5801
究竟涅槃	-10.5801
不轉	-10.5803
毀謗	-10.5806
諸見	-10.5806
見者清淨	-10.5808
藥叉	-10.5809
鈍	-10.5811
枝	-10.5812
緒	-10.5812
三身	-10.5813
之德	-10.5814
謂如來	-10.5816
優婆夷	-10.5817
利養	-10.5817
」;	-10.5817
其有	-10.582
賢者	-10.5821
諸法性	-10.5821
其性	-10.5823
之多	-10.5824
唯是	-10.5836
唯一	-10.5843
行處	-10.5845
回	-10.5845
無法相	-10.5849
非異	-10.5854
以空	-10.5855
得涅槃	-10.5858
釋提桓因白佛言	-10.586
敷	-10.5861
賣	-10.5864
實際相	-10.5867
教令	-10.587
此般若	-10.5876
亦不可	-10.5877
下品	-10.5883
離我	-10.5887
三心	-10.5887
不緣	-10.5896
皆同	-10.5904
現身	-10.5906
悟一切法	-10.5913
於諸如來	-10.5914
有眾生	-10.5916
一來向乃至阿羅漢果	-10.5917
仁王	-10.5918
資糧	-10.5923
不明	-10.5927
勝故	-10.593
為彼	-10.593
故名示	-10.5931
異相	-10.5934
誓願	-10.5935
說是	-10.5936
於過去	-10.5937
所有眾生	-10.5937
妨	-10.5939
非非法	-10.594
於深般若波羅蜜多	-10.5944
途	-10.5946
之境	-10.5947
即真	-10.5947
充滿	-10.5948
了悟	-10.5954
等事	-10.5961
無方便	-10.5962
唯佛	-10.5965
有情清淨	-10.5966
妄語	-10.5971
大明	-10.5971
華香	-10.5972
速證無上正等菩提	-10.5972
過去未來現在諸佛	-10.5977
一剎那	-10.598
佛心	-10.5982
復作是說	-10.5983
而作	-10.5988
為緣	-10.5988
唵	-10.5992
論文	-10.5993
察	-10.6001
不忘	-10.6007
不可施設思議	-10.6011
無邊際	-10.6012
成正覺	-10.6017
同時	-10.6017
無餘涅槃	-10.602
無央數	-10.6023
俱生	-10.6025
浮	-10.6026
教誡教授	-10.6027
預	-10.6028
遭	-10.603
上明	-10.6031
為人演說	-10.6032
無行	-10.6039
是無為	-10.6042
盜	-10.6044
心數法	-10.6051
圓覺	-10.6053
薩陀波崙菩薩	-10.6054
淺深	-10.6057
十方佛	-10.6059
須知	-10.6062
心所	-10.6063
如虗空	-10.6064
得度	-10.6067
典	-10.6069
無縛	-10.6069
無定	-10.6072
四義	-10.6073
能圓滿	-10.6074
憐愍	-10.6079
恐人	-10.6085
住者	-10.6091
正解	-10.6094
於聲	-10.6094
安住真如	-10.6096
廣說乃至一切相智	-10.6101
有無量	-10.6104
以無所得故	-10.6113
義趣	-10.6117
即是本性空	-10.612
一經	-10.6123
污	-10.6123
佛世界	-10.6124
之大	-10.6128
得無生忍	-10.613
驚怖	-10.6132
先明	-10.6133
如說修行	-10.6135
儒	-10.6135
等正覺	-10.6137
引證	-10.6139
無故	-10.6145
宋	-10.6148
常與無常	-10.615
彼於是趣不可超越	-10.6152
天王當知	-10.6153
蛇	-10.6154
以畢竟空	-10.6154
若一切法真如	-10.6154
如實了知所有	-10.6154
三百	-10.6157
一身	-10.616
清淨故預流果清淨	-10.6164
清淨故佛十力清淨	-10.617
於諸法中	-10.617
謂佛	-10.6171
本性空即是	-10.6172
一部	-10.6195
經義	-10.6197
此四	-10.6197
此問	-10.6197
洗	-10.62
無所住亦非不住	-10.6205
清淨故六神通清淨	-10.6206
善女人等作此等說	-10.6208
草木	-10.6212
清淨故苦聖諦清淨	-10.6213
尸波羅蜜	-10.6213
妄見	-10.6214
泡	-10.6215
最上乘	-10.6216
若增若減	-10.6217
一明	-10.6218
清淨故布施波羅蜜多清淨	-10.6223
於一切智	-10.6226
清淨故一切陀羅尼門清淨	-10.6226
清淨故五眼清淨	-10.6229
欣	-10.623
清淨故菩薩十地清淨	-10.6233
即是一切智智	-10.6236
一切功德	-10.6236
民	-10.6237
嗔	-10.6238
清淨故四念住清淨	-10.6239
條	-10.6246
亦不可思議	-10.6248
聞佛	-10.6254
秦言	-10.6255
復能攝受	-10.6255
雖不	-10.6256
言語	-10.6256
當有	-10.6259
善女人等為發無上菩提心者	-10.6263
意生清淨	-10.6267
功用	-10.6269
穀	-10.6271
無所分別	-10.6274
甚大	-10.6275
我者	-10.6276
當得阿耨多羅三藐三菩提	-10.6278
清淨故空解脫門清淨	-10.628
始終	-10.6281
種種因緣	-10.6281
儒童	-10.6282
清淨故無忘失法清淨	-10.6287
等相	-10.629
法藏	-10.6291
清淨故真如清淨	-10.6293
清淨故四靜慮清淨	-10.6294
能持	-10.6299
鉢囉	-10.6304
清淨故恒住捨性清淨	-10.6308
非我非無我	-10.6309
恃	-10.6312
兒	-10.6313
淨觀地乃至如來地	-10.6315
任運	-10.6316
見之	-10.6318
佛事	-10.6318
離障	-10.632
無此	-10.6321
知識	-10.6326
遊戲	-10.633
清淨故一切菩薩摩訶薩行清淨	-10.6332
行道	-10.6334
不思惟分別	-10.6335
如有	-10.6336
豈可	-10.6336
猶未	-10.634
無倒	-10.6342
愚夫	-10.6343
別異	-10.6344
能起	-10.6344
清淨故一切三摩地門清淨	-10.6346
非菩薩摩訶薩	-10.6348
修行般若波羅蜜多時	-10.6349
七寶布施	-10.635
問也	-10.6352
儒童清淨	-10.6352
淨不淨	-10.6353
無法可	-10.6358
亦無分別	-10.6365
亦不著	-10.6365
何異	-10.6367
是名菩薩	-10.6368
生者清淨	-10.6369
川禪師云	-10.637
清淨故獨覺菩提清淨	-10.6371
補特伽羅清淨	-10.6372
渴	-10.6375
三假	-10.6375
術	-10.6376
總是	-10.6378
信解受持	-10.6381
竝	-10.6381
淨與不淨	-10.6383
此段	-10.6384
如來應正等覺	-10.6385
不當	-10.6385
而無所	-10.6387
則為欲令	-10.6387
清淨故內空清淨	-10.6391
清淨故諸佛無上正等菩提清淨	-10.6392
不退轉菩薩摩訶薩	-10.6392
寂靜不寂靜	-10.6393
所施	-10.6394
軟	-10.6395
發無上正等覺心	-10.6396
命者清淨	-10.6398
受者清淨	-10.6402
遠離不遠離	-10.6403
有生	-10.6403
而於	-10.6403
九地	-10.6405
?』「	-10.6414
一切菩薩	-10.6415
即非菩薩	-10.6422
寂然	-10.6423
福慧	-10.6423
沉	-10.6425
畢竟空故	-10.6426
是即	-10.6427
士夫清淨	-10.6429
清淨故八解脫清淨	-10.643
慧命	-10.6435
若有能求如是等法修行	-10.6438
當言與般若波羅蜜多相應	-10.6438
聖賢	-10.6439
無生智	-10.644
性不可得	-10.644
疎	-10.644
聖教	-10.6441
婆沙	-10.6441
殘	-10.6441
我與無我	-10.6441
是為宣說真正	-10.6442
攝心	-10.6445
亦無所有不可得	-10.6447
不貪	-10.6448
如來如實覺為無相	-10.6451
虛空界清淨	-10.6458
佛在	-10.6459
即名	-10.6459
報佛	-10.6459
云何應住	-10.646
有六	-10.6465
人我	-10.6466
金剛三昧	-10.6467
何等法	-10.6469
福德聚	-10.6469
之力	-10.6471
又問	-10.6473
修習布施	-10.6473
脩行	-10.6474
作者清淨	-10.6476
現觀	-10.6479
佛與	-10.6479
來者	-10.6482
善現白佛言	-10.6485
波斯匿王	-10.6485
之上	-10.6487
引發般若波羅蜜多	-10.6492
意者	-10.6493
有為界	-10.6496
予	-10.6496
當知皆是說有所得相似	-10.6497
我說名為行有所得相似	-10.6498
若有能依如是等法修行	-10.6498
我想	-10.6499
禮拜	-10.6499
樂之與苦	-10.65
此一	-10.65
契經	-10.6508
分段	-10.6511
福報	-10.6513
無分別智	-10.6517
無所見	-10.652
過去世	-10.6535
假立	-10.6539
之則	-10.6539
作大	-10.6545
云何得	-10.6545
財寶	-10.6546
心心數法	-10.6547
早	-10.6553
在於	-10.6553
弗	-10.6554
知者清淨	-10.6559
如金剛	-10.6559
薩云然	-10.6564
化他	-10.6566
以何	-10.6567
發意	-10.6571
都無所得	-10.6572
莊嚴佛土	-10.6575
刺	-10.6576
化人	-10.658
說言	-10.6586
大莊嚴	-10.6587
信忍	-10.6594
令眾生	-10.6595
有差別	-10.6598
著心	-10.6599
由彼	-10.6602
眼識	-10.6608
發願	-10.6608
此即初也	-10.6612
六祖	-10.6614
齋	-10.6615
若一切智智真如	-10.6615
猛	-10.6615
住相	-10.6615
都無所有	-10.6615
不可盡	-10.6619
快樂	-10.6626
諸世間	-10.6627
行般若波羅蜜多	-10.6628
為眾生故	-10.6631
為行	-10.6633
瞋心	-10.6633
所觀	-10.6635
雪	-10.6636
六情	-10.6647
出現	-10.6647
如水	-10.6649
無起	-10.6652
舍利子白佛言	-10.6652
初釋	-10.6655
摧	-10.6658
養育者清淨	-10.6658
故經云	-10.666
伹	-10.6664
勝於	-10.6665
梵行	-10.6674
冷	-10.6677
及彼	-10.6679
以有所得為方便	-10.6679
空不異色	-10.6689
三時	-10.6695
色法	-10.6698
乃至知者	-10.6702
見色	-10.6702
心行	-10.6703
金剛手	-10.6703
不敢	-10.6708
一生	-10.6709
無礙智	-10.6712
其相	-10.6713
成辦	-10.6713
我以	-10.6717
苦諦	-10.672
散華	-10.6723
當生	-10.6728
不繫	-10.6729
一卷	-10.6736
侵	-10.6737
作是說	-10.6743
無名	-10.6745
輕賤	-10.6748
男子	-10.675
於無相	-10.6755
富貴	-10.6759
出三界	-10.6761
以喻	-10.6762
若作是念	-10.677
此義云何	-10.6775
品中	-10.6777
性無知即是清淨	-10.678
耶答	-10.6787
如來法	-10.6789
覓	-10.6795
皆一真如無二無別	-10.6796
今云	-10.6797
初果	-10.6797
內空乃至無法有法空	-10.68
分別義趣令其易解	-10.6801
○)	-10.6805
神足	-10.6806
結成	-10.6811
沈	-10.6816
眾妙	-10.6821
有如是	-10.6821
手足	-10.6823
第八地	-10.6824
未嘗	-10.6827
附	-10.6829
遍照	-10.684
此論	-10.6842
一段	-10.6852
觀如來	-10.6854
衍	-10.6858
真智	-10.6858
得生	-10.6859
是故佛說	-10.6859
自性清淨	-10.6864
無染污故般若波羅蜜多清淨	-10.6866
泥洹	-10.6867
重說	-10.687
體用	-10.6873
苟	-10.6874
色聲	-10.6875
人人	-10.6876
如佛所說	-10.6876
若有菩薩	-10.6878
集聖諦	-10.688
記云	-10.688
雖然	-10.6883
二門	-10.6884
為真	-10.6886
能成就	-10.6893
若有人言	-10.6893
觀自在菩薩	-10.6895
大故	-10.6897
滅聖諦	-10.69
所知障	-10.6906
非樂非苦	-10.6908
作是念言	-10.6911
又諸菩薩如實了知所有	-10.6921
法智	-10.6922
左	-10.6923
如夢所見	-10.6927
七日	-10.6927
住菩薩乘諸善男子	-10.6927
徵釋	-10.6927
當作是	-10.6928
非菩薩	-10.6928
金銀	-10.6931
有是	-10.6933
地上	-10.6938
轉輪王	-10.6941
而以	-10.6943
所受	-10.6944
如大	-10.695
非眾生	-10.695
見其	-10.6955
能發	-10.6956
末世	-10.6957
見諸有情	-10.696
又言	-10.6962
下釋	-10.6971
見也	-10.6975
難解	-10.6977
之空	-10.6978
夜摩天	-10.698
枯	-10.6981
應化	-10.6982
遵	-10.6982
湛然	-10.6983
塗散等香	-10.6985
久住	-10.6985
二約	-10.6989
為學	-10.699
一切智智清淨故法界	-10.6993
五戒	-10.6994
十行	-10.6997
苦果	-10.6998
不起分別	-10.7002
。】「【	-10.7009
梵音	-10.7013
三相	-10.7015
趣向	-10.7016
以眾生	-10.7018
實語	-10.7018
無所有處	-10.7021
影像	-10.7023
持是	-10.7025
犯戒	-10.7027
一種	-10.7034
包	-10.7034
為難	-10.7035
後時	-10.7035
兩句	-10.7036
崇	-10.7037
泉	-10.704
醫藥	-10.7046
先說	-10.7049
不違	-10.7049
四聖諦	-10.7054
於此經中	-10.7055
日出	-10.7056
若在	-10.7057
預流果乃至獨覺菩提	-10.7057
初二	-10.7058
軌	-10.7059
俱舍	-10.7063
眼見	-10.7063
世界中	-10.7064
照明	-10.7067
三昧者	-10.7068
北方	-10.7068
他心智	-10.707
教授	-10.7074
善巧方便	-10.7079
思議	-10.7089
本末	-10.709
之所以	-10.7093
眾生心	-10.7099
訓	-10.7102
體也	-10.7103
猶豫	-10.7103
復作是念	-10.7104
空三昧	-10.7105
甚為希有	-10.7105
勉	-10.7106
妙生	-10.7107
鹿	-10.7114
體相	-10.7116
觀自在	-10.7116
諸弟子	-10.7118
聚落	-10.7119
總標	-10.712
是名世界	-10.7123
凡人	-10.7124
不可思量	-10.7125
三賢	-10.7127
菩薩得	-10.7133
無物	-10.7134
大道	-10.7134
是故須菩提	-10.7135
布施乃至般若波羅蜜多	-10.7138
一切賢聖	-10.7139
四蘊	-10.7146
是道	-10.7146
其名	-10.7149
護法	-10.7154
有見	-10.7163
輪轉	-10.7166
巳上	-10.717
修福	-10.7171
於心	-10.7172
菩薩心	-10.7177
琉璃	-10.7178
菩薩所	-10.718
如是諸	-10.7181
天耳	-10.7183
釋經中	-10.7183
六者	-10.7186
論議	-10.719
為實有	-10.7195
最大	-10.7196
心法	-10.7197
理事	-10.7197
又此	-10.7197
積集	-10.7198
諦聽	-10.7199
清淨心	-10.7201
第四靜慮	-10.7203
立名	-10.7208
想著	-10.7208
本體	-10.7208
得之	-10.7213
發菩提心者	-10.7215
難可	-10.7216
求佛道	-10.7221
毗	-10.7224
欲知	-10.7224
刻	-10.7233
生天	-10.7234
超越	-10.7236
學般若波羅蜜多	-10.7237
以來	-10.7239
佛告天帝釋言	-10.7239
走	-10.7239
流布	-10.7241
惡心	-10.7244
未知	-10.7246
如次	-10.7249
住持	-10.7258
我之	-10.7258
清淨故色清淨	-10.7262
一合	-10.7264
後釋	-10.7282
彌陀	-10.7284
後二句	-10.7285
所不能	-10.73
理趣	-10.7301
卷四百	-10.7309
聖法	-10.7311
諸菩薩摩訶薩眾	-10.7311
為是	-10.7313
色中	-10.7313
云何降伏其心	-10.7314
無文字	-10.7315
圓教	-10.7321
所顯	-10.7326
世尊告	-10.7327
法無所有不可得	-10.7327
由旬	-10.7329
佛也	-10.7337
逮得	-10.7341
現在諸佛	-10.7344
罪福	-10.7346
非淨非不淨	-10.7351
若合若散	-10.7351
二果	-10.7355
釋迦牟尼佛	-10.7359
生老病死	-10.7361
不住於相	-10.7363
當為	-10.7367
諷誦	-10.7367
觀門	-10.7368
般若波羅蜜經	-10.7369
無上正等正覺	-10.7371
但見	-10.7371
獨覺向獨覺果	-10.7375
所造	-10.7381
若大乘	-10.7382
修布施波羅蜜多	-10.7388
若有相若無相	-10.739
經論	-10.7391
應有	-10.7393
無生法	-10.7403
唯然	-10.7404
釋疑	-10.7406
斷障	-10.7409
婬欲	-10.7411
未曾有	-10.7416
愍	-10.7422
常見	-10.7423
爭	-10.7424
常修	-10.7429
割截	-10.7432
見已	-10.7438
已來	-10.7438
求佛	-10.7439
漸漸	-10.7439
令諸有情	-10.7443
分別開示	-10.7445
云何應於	-10.7448
眾會	-10.7449
令離	-10.7451
菩薩摩訶薩法	-10.7452
得失	-10.7452
薄地	-10.7457
法喻	-10.7457
於內	-10.7458
於阿耨多羅三藐三菩提	-10.7458
惡道	-10.7459
諸惡魔	-10.7459
盡智	-10.7461
珍	-10.7461
學人	-10.7467
真佛	-10.747
以佛	-10.7471
若能如是	-10.7477
不疑	-10.7478
何名	-10.7479
此法門	-10.7482
透	-10.7486
潛	-10.7486
而知	-10.7486
給	-10.7487
我所說	-10.7487
受樂	-10.7488
捨離	-10.749
闡	-10.7494
聞之	-10.7497
妻子	-10.75
閑	-10.7501
入菩薩正性離生	-10.7504
修行布施	-10.7504
由是因緣	-10.7507
有種種	-10.751
與前	-10.751
蓮	-10.7512
大悲心	-10.7518
理智	-10.7523
聽法者	-10.7525
其事	-10.7526
。】「○	-10.7529
以諸	-10.7531
是學	-10.7535
分別諸法	-10.7537
正答	-10.7539
喜樂	-10.7542
成就如是	-10.7543
能行深般若波羅蜜多	-10.7544
熏習	-10.7546
良以	-10.7547
真如平等	-10.7548
三德	-10.755
無去亦復不住	-10.755
測	-10.7551
秋	-10.7551
釋經	-10.7554
珍奇	-10.7561
會中	-10.7561
溺	-10.7563
聞佛所說	-10.7563
不生則非	-10.7565
信受奉行	-10.7565
為世間	-10.7568
正等正覺	-10.7569
於其中間	-10.7569
無諸	-10.7571
疑也	-10.7578
若約	-10.7582
無相法	-10.7582
以一切智智相應作意	-10.7584
十種力	-10.7585
終日	-10.7589
鎧	-10.759
總明	-10.7591
獲得	-10.7601
發生	-10.7605
勝定	-10.7607
則不能	-10.7609
成阿耨多羅三耶三菩	-10.761
下劣	-10.7612
果故	-10.7612
弟	-10.7619
若爾者	-10.7622
抑	-10.7622
獨覺等地	-10.7624
吉	-10.7626
所居	-10.763
畢竟不可得故	-10.7635
凡所有相	-10.7636
罵	-10.7639
何不	-10.7639
之功	-10.7646
文字般若	-10.7646
可解	-10.7648
教法	-10.765
無減	-10.7652
中之	-10.7653
其功德	-10.7659
無有異	-10.7664
傍	-10.7668
號釋迦牟尼	-10.7668
不去	-10.767
廣略	-10.7674
應云	-10.7674
色等諸法	-10.7684
以一	-10.7684
慶	-10.7685
紅	-10.7686
拳	-10.7686
自巳	-10.7689
能成辦	-10.769
本性空故	-10.7694
鼓	-10.7695
宣示開演顯了	-10.7696
何謂菩薩	-10.7697
迎	-10.7697
名號	-10.7697
積聚	-10.7699
舍利子復白佛言	-10.7709
第四禪	-10.771
俱不可得	-10.7716
本願	-10.7723
即知	-10.773
從此第二明	-10.773
不妨	-10.773
地位	-10.773
河沙	-10.773
之地	-10.7732
佛號	-10.7734
明其	-10.7735
我應	-10.7738
如是世尊	-10.7742
佛於	-10.7743
八聖道分	-10.7744
孝	-10.775
庶	-10.7754
起如是想	-10.7755
是為戲論	-10.7756
蘇	-10.7757
勝行	-10.7758
圓融	-10.776
添	-10.7761
說之	-10.7762
具說	-10.7765
非常非壞	-10.7766
無異分別	-10.777
叉	-10.777
上至	-10.7775
名聲	-10.7777
一切智清淨	-10.7783
我人	-10.7783
古今	-10.7787
於諸佛所	-10.7791
弊	-10.7792
此顯	-10.7792
當作	-10.7797
即同	-10.7801
得法	-10.7806
退轉	-10.7807
聚集	-10.7811
得預流果	-10.7814
你	-10.7814
無罪	-10.7814
植	-10.7822
不能圓滿	-10.7822
託	-10.7823
忿恚	-10.7824
得成佛	-10.7828
無覺知故	-10.7828
而復	-10.7831
其言	-10.7835
斷除	-10.7835
下至	-10.7838
不增	-10.7839
相對	-10.7842
趣無上正等菩提	-10.7844
欲以	-10.7844
聲聞人	-10.7847
欲使	-10.7848
為斷	-10.7849
集散	-10.785
為正	-10.7852
所明	-10.7859
信心清淨	-10.7859
起信	-10.7859
有想	-10.786
無失	-10.7862
所由	-10.7867
無量劫	-10.788
且道	-10.7883
所著	-10.7885
後三	-10.7889
善能	-10.7889
徑	-10.7891
飯	-10.7892
孰	-10.7893
本心	-10.7894
故問	-10.7895
今欲	-10.7896
非道	-10.7897
即生	-10.7907
王子	-10.7907
有性	-10.7909
今者	-10.7911
拔濟	-10.7913
為義	-10.7915
乃至正憶念	-10.7916
二分	-10.7922
將無	-10.7923
無性為性	-10.7926
一千	-10.7928
下句	-10.7928
般若波羅蜜多心經	-10.7933
空即是	-10.7933
何也	-10.794
嘗	-10.7948
從緣所生諸法	-10.7949
現世	-10.7949
三昧門	-10.7953
佛神力故	-10.7954
滅盡	-10.7957
妄執	-10.7961
二十四	-10.7961
觀者	-10.7962
相待	-10.7965
精舍	-10.7966
即前	-10.7972
以前	-10.7972
悲智	-10.7973
由前	-10.7973
故修行般若波羅蜜多	-10.7975
可度	-10.7981
即無相	-10.7981
必須	-10.7982
眾生故	-10.7983
修習八解脫	-10.7992
復次須菩提	-10.7996
皆當	-10.7997
得是三昧	-10.7997
前明	-10.7999
以智慧	-10.8002
有能	-10.8002
本淨	-10.8006
修一切善法	-10.8006
水中	-10.8008
應自	-10.8009
重言	-10.801
我不	-10.801
道也	-10.8016
常在	-10.8016
令生	-10.802
善女人等於此般若波羅蜜多	-10.8021
若善男子善女人	-10.8021
但有假名	-10.8024
論說	-10.8024
得聞是經	-10.8026
均	-10.8026
於真如	-10.8026
掌	-10.8028
氷	-10.803
江	-10.8041
)『	-10.8044
此方	-10.8044
小兒	-10.8045
修習四念住	-10.8046
飢渴	-10.8046
道人	-10.8046
修習佛十力	-10.8047
無有定法	-10.8051
大經	-10.8052
行於布施	-10.8054
身口意	-10.8056
功能	-10.8057
正宗	-10.8058
常隨	-10.8061
於餘	-10.8063
無量故	-10.8063
雖說	-10.8063
修習四靜慮	-10.8065
二別	-10.807
所獲功德甚多於前	-10.807
與此	-10.8072
等至	-10.8076
聞般若波羅蜜	-10.8076
問意	-10.8078
當作佛	-10.8086
以成	-10.8087
是名莊嚴	-10.8092
十善道	-10.8095
不滅則非	-10.8097
之與	-10.81
夏	-10.81
於人	-10.81
曠野	-10.8103
修行六種波羅蜜多	-10.8108
修習菩薩摩訶薩行	-10.8109
肩	-10.8112
自相空故	-10.8114
是苦	-10.8115
解脫知見	-10.8124
修習五眼	-10.8128
能入	-10.813
天竺	-10.8132
修習一切智	-10.8134
信樂	-10.8136
作此	-10.8137
為勝	-10.8138
真如甚深	-10.8139
羣	-10.8139
利樂有情	-10.814
安住內空	-10.8145
為希有	-10.8146
個	-10.8147
承事	-10.8149
勝也	-10.8153
於無	-10.8159
自證	-10.8161
名為佛	-10.8164
是淨	-10.8164
塞	-10.8166
行菩薩行	-10.8167
大願	-10.817
」。「	-10.8173
寬	-10.8174
依此等法	-10.8176
為用	-10.8176
奧	-10.8178
修習無忘失法	-10.8181
不見諸法	-10.8182
無記法	-10.8182
復言	-10.8184
問言	-10.8186
末後	-10.8186
未生	-10.8187
能化	-10.8189
前世	-10.8191
無際	-10.8193
作法	-10.8194
為令	-10.8195
當得作佛	-10.82
修習一切陀羅尼門	-10.8201
度者	-10.8201
前言	-10.8203
亦復不	-10.8204
第一義中	-10.8205
行布施波羅蜜多	-10.8205
香華	-10.8209
上妙	-10.8211
度人	-10.8211
無所執著	-10.8212
能護	-10.8218
不作廣不作狹	-10.822
得清淨	-10.822
法性可得	-10.8221
超勝一切世間天	-10.8226
佛知	-10.8228
對曰	-10.823
混	-10.8235
即法身	-10.8238
文也	-10.8239
追	-10.8241
卒	-10.8242
無際空故	-10.8243
此亦	-10.8247
劍	-10.8249
聞經	-10.825
欲為	-10.8252
為佛	-10.8252
無比	-10.8267
令入	-10.8267
畢竟不可得	-10.8268
三觀	-10.8268
如是學	-10.8269
愛敬	-10.827
第一波羅蜜	-10.8271
不相應	-10.8272
幻有	-10.8272
一切世間天	-10.8275
修安忍波羅蜜多	-10.8286
一切法中	-10.8288
知有	-10.8288
不作集不作散	-10.8289
由此般若波羅蜜多	-10.8291
於中有二	-10.8292
三諦	-10.8295
樂苦	-10.8299
不及一	-10.8301
即般若	-10.8303
中分二	-10.8305
因緣乃至增上緣	-10.8308
若得	-10.8308
亦不受	-10.8309
納	-10.8309
買	-10.8309
務	-10.8312
虎	-10.8313
希求	-10.8315
5	-10.8315
雖觀	-10.8316
遠離一切	-10.8316
隨眠	-10.8317
善住	-10.8318
義理	-10.832
若生	-10.832
樓	-10.8321
無自性不可得	-10.8321
闍	-10.8323
威	-10.8326
我不欲令生	-10.833
是其	-10.8335
諸天人	-10.8337
形像	-10.8341
全經	-10.8341
所可	-10.8342
最為	-10.8342
之外	-10.8344
勿取	-10.8351
所獲功德	-10.8353
人皆	-10.836
後心	-10.836
法及	-10.8361
不具	-10.8363
長老	-10.8364
於其中	-10.8368
脚	-10.837
斷諸	-10.8373
素	-10.8374
天眾	-10.8376
恒正稱揚	-10.8376
儞	-10.8379
佛菩薩	-10.8379
即是如來	-10.8384
銀	-10.8386
者何	-10.8387
為四	-10.8388
唯假說故般若波羅蜜多清淨	-10.8389
身見	-10.839
而為方便	-10.839
前際諸菩薩摩訶薩無所有不可得	-10.839
滅時	-10.8392
雖未	-10.8395
修淨戒波羅蜜多	-10.8397
第十一	-10.8397
妙理	-10.84
之用	-10.8403
起者	-10.8405
是處	-10.8406
道法	-10.8409
月光	-10.8411
真際	-10.8412
非善	-10.8415
是有漏	-10.8415
而見	-10.8422
餘經	-10.8425
此品	-10.8426
何以不	-10.8429
楞嚴	-10.8429
故隨如來生	-10.8432
菩薩句義亦復如是實無所有	-10.8435
修靜慮波羅蜜多	-10.8439
▁次	-10.8441
法無	-10.8444
須達	-10.8448
當知菩薩摩訶薩亦無邊	-10.8449
雖是	-10.8449
二十五	-10.8449
都無所	-10.8449
澤	-10.845
壁	-10.8451
自念	-10.8452
是相	-10.8453
右膝著地	-10.8454
床	-10.8455
念住	-10.8456
送	-10.8457
不當於中住	-10.8457
行乃至老死	-10.8458
彼何謂	-10.846
稽首	-10.8467
受持此經	-10.8469
無限	-10.847
安置	-10.8471
平等中	-10.8472
中來	-10.8473
菩薩為	-10.8477
非真實	-10.8479
生死苦	-10.8486
汝所	-10.8489
或依	-10.8491
大人	-10.8492
應於	-10.8492
為行般若波羅蜜	-10.8495
正使	-10.8496
勝彼	-10.8509
亦皆	-10.8509
苦厄	-10.8511
是菩薩摩訶薩於	-10.8512
不悔	-10.8513
真常	-10.8514
嚕	-10.8515
。「『	-10.8516
令知	-10.8517
之真	-10.8517
震	-10.8518
故非	-10.8519
若我	-10.852
囑	-10.8522
拏	-10.8522
我心	-10.8525
百萬	-10.8526
騰	-10.8526
能治	-10.8527
非如來法性中	-10.8528
禁	-10.853
圍繞	-10.8532
飢	-10.8532
一性	-10.8533
杖	-10.8536
尋思	-10.8536
真淨	-10.8538
▁五	-10.854
斷故	-10.854
修習無上正等菩提	-10.8541
諸佛所	-10.8542
三千大千國土	-10.8544
常勤修學	-10.8544
空理	-10.8547
宿命	-10.855
之物	-10.8552
不應觀耳	-10.8556
所在	-10.8556
作用	-10.8557
真如故隨如來生	-10.8562
即非莊嚴	-10.8566
修精進波羅蜜多	-10.857
不息	-10.8573
於是中	-10.8575
如影	-10.8579
不作有力不作無力	-10.8581
自性皆空	-10.8582
有信	-10.8583
空虛	-10.8584
如常	-10.8585
多羅	-10.8586
豐	-10.8588
!』	-10.8589
放逸	-10.859
而白佛言	-10.859
能如實知	-10.8592
更不	-10.8593
覺性	-10.8593
百萬億	-10.8595
心地	-10.8596
而彼	-10.8598
因緣和合	-10.8599
鑒	-10.86
不應執著	-10.8601
撥	-10.8601
貪等	-10.8604
無有一法	-10.8604
智故	-10.8608
所不	-10.8608
粗	-10.8608
為顯	-10.8609
本性爾故	-10.8609
何者是	-10.861
其福甚多	-10.8611
乘大乘者亦不	-10.8611
諸善	-10.8612
南方	-10.8613
無礙解	-10.8616
為第一	-10.8621
若有善男子善女人	-10.8623
忘失	-10.8628
真如非相應非不相應	-10.8629
有量	-10.8636
識相	-10.864
心相	-10.8649
為名	-10.8649
不作有量不作無量	-10.8649
既不	-10.8649
阿含	-10.865
自下	-10.8653
直至	-10.8654
不虛	-10.8654
指示	-10.8654
觀心	-10.8658
若有為若無為	-10.8659
▁○	-10.8661
無法有法空	-10.8663
即受	-10.8665
諸阿羅漢	-10.8667
擬	-10.8667
非如來真如中	-10.8675
六趣	-10.8675
六入	-10.8675
龍王	-10.8677
競	-10.8677
所度	-10.8678
令善通利	-10.8678
從初	-10.8679
宣說如是甚深般若波羅蜜多	-10.8683
以要言之	-10.8683
能捨	-10.8684
自此	-10.8686
則能圓滿	-10.8688
宮殿	-10.8691
塵界	-10.8697
下第二明	-10.8698
之異	-10.8699
佛自	-10.8704
修習空解脫門	-10.8706
番	-10.8708
法爾	-10.8708
引攝	-10.8709
無邊際故	-10.871
為證	-10.8712
及所	-10.8714
有八	-10.8715
窮盡	-10.8716
大般若	-10.8717
一行	-10.872
邊際	-10.872
俱無	-10.8727
為他說	-10.873
亦不住	-10.8731
即成	-10.8734
補	-10.8734
獸	-10.8735
潔	-10.8735
不行受	-10.8737
猶有	-10.8739
覺支	-10.8741
破之	-10.8742
不退轉地	-10.8742
宅	-10.8743
能住	-10.8748
優劣	-10.8748
煖	-10.8752
於未來世	-10.8752
壽者見	-10.8753
爾時須菩提白佛言	-10.8754
於此經	-10.8754
那由他	-10.8756
菩薩也	-10.8756
根塵	-10.8758
戒蘊	-10.8759
八萬	-10.8761
聖凡	-10.8762
如來常說	-10.8763
彌勒菩薩	-10.8763
為作	-10.8765
其文	-10.8766
三千界	-10.8768
瞋恨	-10.8771
隨順般若波羅蜜多	-10.8779
此菩薩摩訶薩	-10.8783
顯示涅槃	-10.8786
一切人	-10.8788
諸心	-10.8799
分三	-10.88
畜	-10.88
而為說法	-10.8801
若有漏若無漏	-10.8802
內心	-10.8802
苦海	-10.8804
四門	-10.8807
有所作	-10.8807
生死涅槃	-10.8808
於一	-10.881
亦不見有	-10.8816
非作非不作	-10.8817
食時	-10.8819
如來法身	-10.8819
行住坐臥	-10.882
非寂靜非不寂靜	-10.8821
寫	-10.8821
應生	-10.8822
是為住習	-10.8823
麻	-10.8827
三釋	-10.8831
無過	-10.8831
在內	-10.8833
應行	-10.8835
般若者	-10.8836
三結	-10.8836
之辭	-10.8836
長者女	-10.8837
所入	-10.8837
云何住	-10.8837
召	-10.8838
若菩薩摩訶薩於	-10.8849
我得	-10.8853
不曾	-10.8856
佛告阿難	-10.886
彼此	-10.886
梵王	-10.8863
故名如來	-10.8867
三千世界	-10.887
性空中	-10.8873
得阿羅漢果	-10.8877
得受記	-10.8878
百千萬億	-10.8883
有三昧名	-10.8885
行住	-10.8887
孔	-10.8888
勤修學	-10.8889
後一	-10.889
無量百千	-10.8891
此句	-10.8891
尸羅	-10.8892
三慧	-10.8892
旋	-10.8898
不恐	-10.8899
隨機	-10.8902
色如	-10.8902
既云	-10.8906
以用布施	-10.8907
若菩薩摩訶薩修行般若波羅蜜多	-10.8907
真如是菩薩摩訶薩不	-10.8908
無因	-10.8917
諸法皆	-10.8919
方便力故	-10.8922
中如來可得	-10.8924
勝德	-10.8925
能通達	-10.8932
住著	-10.8934
牽	-10.8935
妙用	-10.8935
宣說般若波羅蜜多	-10.8938
若色	-10.8938
為無	-10.894
尊者須菩提	-10.894
利眾生	-10.8946
無上覺	-10.8947
五通	-10.8949
便作是念	-10.8951
重罪	-10.8961
著我	-10.8963
成立	-10.8965
無聞	-10.8969
階	-10.8971
稟	-10.8972
非遠離非不遠離	-10.8972
般若也	-10.8973
良由	-10.8975
應如是學	-10.8978
麁重	-10.8978
勇	-10.8979
修諸	-10.8979
睡	-10.8981
隨其所應	-10.8981
三菩提	-10.8983
非彼	-10.8984
指疑起處	-10.8984
法性非相應非不相應	-10.8984
至一切智智中住	-10.8984
金色	-10.8985
果德	-10.8986
菩提分法	-10.8988
亦不行	-10.8989
天魔	-10.899
』(	-10.899
不假	-10.8992
此初	-10.8995
觀照般若	-10.8998
其體	-10.8998
即見如來	-10.9
真如亦非相應非不相應	-10.9
釋意云	-10.9003
頗有眾生	-10.9003
所有功德	-10.9015
癡心	-10.902
了了	-10.9025
囑累	-10.9026
異生地	-10.9031
堅實	-10.9032
道者	-10.9032
能引	-10.9037
應受	-10.9039
樹下	-10.9042
三禪	-10.9044
歌	-10.9044
四念處乃至八聖道分	-10.9048
是菩薩摩訶薩由起此想	-10.9049
旦	-10.905
作集散	-10.9053
怪	-10.9055
澄	-10.9057
不取於相	-10.9059
修菩薩行	-10.9064
三門	-10.9065
皆大歡喜	-10.9065
佛母	-10.9065
說名為	-10.9068
九種	-10.9069
中如來法性可得	-10.9069
佛乘	-10.907
名中無	-10.9073
而此	-10.9084
太虗	-10.9088
斷煩惱	-10.9088
取捨	-10.9089
如來之	-10.909
四見	-10.9092
充	-10.9092
相即	-10.9101
善男子善女人	-10.9101
大千世界	-10.9102
聲聞法	-10.9103
了義	-10.9103
賀	-10.9103
菩薩摩訶薩以	-10.9106
斷常	-10.9109
若作大小	-10.9113
不作大小	-10.9116
所種善根	-10.9116
不墮欲界	-10.9121
功德施	-10.9123
覩史多天	-10.9124
厭離	-10.9124
言如來	-10.9126
局	-10.9126
咸同一相	-10.9127
轉妙法輪	-10.9127
非有見非無見	-10.9127
非有對非無對	-10.9127
惡法	-10.9127
格	-10.9127
領納	-10.9129
法性亦非相應非不相應	-10.9129
敗	-10.913
教他	-10.913
臂	-10.9133
非餘	-10.9134
無上道	-10.9134
不為棄捨	-10.9134
饒益有情	-10.9138
長時	-10.9139
及一切法	-10.9144
隨喜心	-10.9145
作是願言	-10.9145
結前	-10.9146
汝若作是念	-10.9149
別教	-10.915
作是願	-10.9151
勝妙	-10.9154
彼法	-10.9159
因位	-10.9159
或執	-10.916
如言	-10.9166
除遣	-10.9171
是法平等	-10.9172
滅法	-10.9172
別說	-10.9174
具有	-10.9174
甚多世尊	-10.9175
無量阿僧祇	-10.9176
具足色身	-10.9176
明之	-10.9177
有情界	-10.9182
憑	-10.9187
不許	-10.919
是行	-10.9192
分之	-10.9196
伴	-10.9199
尤	-10.92
初約	-10.9202
不異法界	-10.9202
解脫智見蘊	-10.9203
非有色非無色	-10.9204
着	-10.9204
當知是為魔事	-10.9204
而取無上正等菩提	-10.9205
竹	-10.9205
相中	-10.9207
悟解	-10.9207
枝葉	-10.921
哀	-10.9211
乃名	-10.9211
是大	-10.9217
生長	-10.9221
不作廣狹	-10.9221
輕慢	-10.9222
不作集散	-10.9222
大智度論	-10.9227
能緣	-10.9228
修定	-10.9229
亦無邊	-10.9233
道故	-10.9234
四念處乃至十八不共法	-10.9238
來世	-10.9238
無苦	-10.9241
異故	-10.9244
厄	-10.9245
作廣狹	-10.9248
此以	-10.9253
內身	-10.9254
功德勝利	-10.9255
菩薩如是	-10.9258
瑞	-10.9261
曩	-10.9263
是真如	-10.9264
覺觀	-10.9273
火燒	-10.9275
謂我	-10.9276
修般若波羅蜜多	-10.9276
甚深故此法甚深	-10.9278
二俱	-10.9279
李文會	-10.9281
弱	-10.9282
嚩日囉	-10.9282
若不攝受	-10.9283
諸趣	-10.9283
聲色	-10.9285
竪	-10.9286
灰	-10.9288
2	-10.9288
癡清淨	-10.9289
坐道場	-10.9289
又解	-10.9291
觀菩薩句義無所有不可得亦	-10.9293
毫	-10.9293
若說	-10.9294
繩	-10.9294
第三明	-10.9294
勤求	-10.9294
離欲地	-10.9295
般泥洹	-10.9298
此處	-10.9299
之門	-10.93
謂以	-10.9301
中無名	-10.9301
於三界	-10.9302
以布施	-10.9304
業果	-10.9306
兄弟	-10.9309
常應	-10.9311
辱	-10.9312
果位	-10.9314
諸漏	-10.9324
離垢	-10.9342
或作	-10.9346
論中	-10.9352
朗	-10.9357
戀	-10.9357
伸	-10.9358
而證	-10.936
所住處	-10.936
如所	-10.9361
者即是	-10.9362
增減故學	-10.9366
何緣故說	-10.9371
即說	-10.9371
中品	-10.9372
通達無我	-10.9377
人得	-10.9377
受諸	-10.9378
以法	-10.9383
等心	-10.9387
者明	-10.9388
五度	-10.9391
今則	-10.9394
惡知識	-10.9395
無住處	-10.9396
能信解	-10.9396
觀耳	-10.9401
意明	-10.9403
名真	-10.9404
其理	-10.9409
不住色	-10.941
慧蘊	-10.941
也次	-10.9411
二百	-10.9411
無極	-10.9414
為眾生說法	-10.9415
一世界	-10.9417
五道	-10.9418
若有若無	-10.942
言其	-10.942
浪	-10.9425
何須	-10.9427
其餘	-10.943
業障	-10.9433
攝一切	-10.9433
把	-10.9434
分二	-10.9434
併	-10.9437
汝於	-10.9443
一切法真如	-10.9445
而不得	-10.9447
如來說法	-10.9447
文句	-10.9447
疊	-10.9453
心性	-10.9453
嚴土	-10.9455
讚佛	-10.9456
惡人	-10.9456
當知此處	-10.9457
以何義故	-10.9458
大乘者	-10.9459
傅大士	-10.946
破相	-10.946
發心者	-10.946
後有	-10.9462
所欲	-10.9462
生也	-10.9462
無虗	-10.9465
中有三	-10.9467
能證得	-10.9467
云何知	-10.9468
自覺	-10.9471
於外	-10.9471
無來	-10.9474
六地	-10.9475
勝天王	-10.9478
於佛十力	-10.9478
變異	-10.9478
應作如是觀	-10.9479
不見法	-10.9481
無有少法	-10.9482
寂滅忍	-10.9483
九品	-10.9483
非有為	-10.9484
端正	-10.9484
得益	-10.9485
諸外道	-10.9488
復何	-10.9491
大臣	-10.9496
瞻	-10.9497
有罪	-10.9498
山王	-10.9501
真如即	-10.9503
滿慈子言	-10.9507
得圓滿	-10.9511
若復	-10.9515
證道	-10.9516
滅故學	-10.9516
甲	-10.9518
舟	-10.9518
博	-10.9519
諸法無	-10.9519
上中下	-10.9522
是念	-10.9525
上句	-10.9526
須菩提問	-10.9526
相應之法	-10.9527
墮地獄	-10.9528
三問	-10.9528
正定	-10.953
淨佛世界	-10.9531
初舉	-10.9532
長短	-10.9534
作業	-10.9534
髓	-10.9535
敬禮	-10.9536
非非	-10.9537
解脫蘊	-10.9538
盡故學	-10.9539
懃	-10.954
不思惟	-10.9542
當云何	-10.9542
亂心	-10.9542
以般若波羅蜜	-10.9543
善學	-10.9543
人之	-10.9546
法非法	-10.9555
惡不善法	-10.9557
攝受一切	-10.9559
餘者	-10.9561
無差	-10.9561
道品	-10.9564
同前	-10.9565
尊貴	-10.957
皆因	-10.957
久遠	-10.9571
無增減	-10.9575
應無所住	-10.9578
不自在性	-10.9581
解者	-10.9584
無益	-10.9584
福業	-10.9584
諸定	-10.9586
非如	-10.9588
空不壞	-10.9589
丹	-10.9592
拂	-10.9597
度一切苦厄	-10.9597
作有力作無力	-10.9597
廣果天	-10.9599
謂彼	-10.9603
欲樂	-10.9604
獻	-10.9605
移	-10.9608
空義	-10.9609
射	-10.961
之間	-10.9612
空無	-10.9612
唯願	-10.9613
鬪諍	-10.9614
捉	-10.9615
不能攝受	-10.962
亦無性為性	-10.9622
四方	-10.9623
為諸	-10.9632
不壞空	-10.9633
於內空	-10.9633
各自	-10.9635
福多	-10.9635
內有	-10.9636
染心	-10.9636
與我	-10.9642
法華經	-10.9642
法性清淨	-10.9646
四緣	-10.965
一合相者	-10.965
福勝	-10.9656
慚愧	-10.9659
修遣	-10.9661
欲證無上正等菩提	-10.9662
二十九	-10.9667
無漏心	-10.9671
有盡	-10.9673
涌	-10.9676
咎	-10.9678
作有量作無量	-10.9679
百千俱胝那庾多	-10.9681
雖修	-10.9685
非當可得	-10.9686
有疑	-10.9687
是無漏	-10.9688
憶想分別	-10.9691
律儀	-10.9691
若作	-10.9693
以見	-10.9695
持經功德	-10.9697
皆是虗妄	-10.9697
諸所有	-10.9697
噉	-10.9702
□□□	-10.9702
今既	-10.9704
識亦	-10.9705
預流向	-10.9715
准此	-10.9715
不一	-10.9717
無邊功德	-10.9718
幻事	-10.9724
想空為不二	-10.9726
迷悟	-10.9727
善現復白佛言	-10.9736
入道	-10.9737
阿素洛	-10.974
正義	-10.974
是我是我所	-10.9743
不作有力無力	-10.975
若作有力無力	-10.9751
本性清淨	-10.9753
以方便力故	-10.9753
然而	-10.9754
亦不為	-10.9759
安住般若波羅蜜多	-10.9759
布施等	-10.9759
己身	-10.9763
寸	-10.9768
非現可得	-10.9768
不當住	-10.9769
般若乃至布施波羅蜜多	-10.9769
從何	-10.9769
擔	-10.977
不應住色生心	-10.9772
便白佛言	-10.9775
無執著	-10.9776
時也	-10.9777
般若中	-10.9779
即於	-10.9779
三法	-10.9782
是身	-10.9782
一切相	-10.9782
時分	-10.9783
此分	-10.9785
隨逐	-10.9793
於世	-10.9794
高下	-10.9802
欲令眾生	-10.9804
空無所有	-10.9804
虛妄分別	-10.9804
眾多	-10.9805
我若	-10.9806
於眾生	-10.981
自性故	-10.9812
即無明	-10.9821
少有	-10.9826
忿	-10.983
當一一釋	-10.9834
此土	-10.9835
安立第一義	-10.9837
二十八	-10.9838
如恒河沙等	-10.9838
自下第二	-10.9838
不還果清淨	-10.9841
入無餘涅槃	-10.9843
答之	-10.9845
本際	-10.9846
勸持	-10.9846
雷	-10.9847
雖得	-10.9847
吼	-10.9848
魔軍	-10.9848
想為二	-10.9848
緣故	-10.9851
極微	-10.9851
二利	-10.9852
斷絕	-10.9853
擐	-10.9854
為他廣說	-10.9854
須臾	-10.9855
馳	-10.9856
六通	-10.9858
普賢	-10.9859
即是佛	-10.986
滅聖諦清淨	-10.9862
虫	-10.9867
但云	-10.9867
清淨故眼界清淨	-10.9867
現在前	-10.9868
清淨故舌界清淨	-10.9869
故舉	-10.9869
阿鞞	-10.9872
處所	-10.9873
行深般若波羅蜜多時	-10.9874
難也	-10.9874
清淨故身界清淨	-10.9875
三十六	-10.9876
電	-10.9879
假說	-10.9883
離言	-10.9887
如是見	-10.9888
或可	-10.9892
皆共	-10.9892
清淨故耳界清淨	-10.9894
中流	-10.9894
離故學	-10.9896
自住	-10.9896
定蘊	-10.9898
趣入	-10.9899
救護	-10.9902
尋香城	-10.9905
云何能	-10.9907
清淨故意界清淨	-10.9908
二十一	-10.9909
大功德	-10.9913
若世間若出世間	-10.9914
甚深故	-10.9916
清淨故無明清淨	-10.9917
第二十	-10.9919
妙有	-10.9919
渾	-10.9922
嚴飾	-10.9923
千萬	-10.9923
四大王眾天	-10.9927
世間出世間	-10.9928
不示現	-10.9928
自作	-10.9928
幸	-10.9928
喚	-10.9928
若起	-10.9932
能聽法者	-10.9934
梵眾天	-10.9934
牢固	-10.9943
名義	-10.9945
無數劫	-10.9946
不作有量無量	-10.9947
能證得一切智智	-10.9949
聞慧	-10.995
智也	-10.9951
從是	-10.9959
甚難	-10.9961
在此	-10.9962
三分	-10.9965
萬德	-10.9967
作有量無量	-10.997
佛陀	-10.9971
能滿	-10.9974
如斯	-10.9976
著於	-10.9978
智相	-10.9979
迴向心	-10.998
異也	-10.9981
事理	-10.9981
計我	-10.9985
離一切	-10.9985
如是學者	-10.9988
第一希有	-10.9988
一來果清淨	-10.9989
大樂	-10.999
散心	-10.9991
求之	-10.9997
生身	-10.9997
集聖諦清淨	-11.0001
以真如	-11.0003
不善法	-11.0003
問之	-11.0003
體即	-11.0005
勝義諦中	-11.0006
平等不平等性	-11.0006
亦不應	-11.0009
清淨故色處清淨	-11.0011
二十二	-11.0012
疾能證得一切智智	-11.0014
阿耨	-11.0015
法界清淨	-11.0015
以無量門巧妙文義	-11.0015
烏	-11.0016
從一佛國至一佛國	-11.0017
撰	-11.0017
法義	-11.0018
慕	-11.0018
疲	-11.002
皆言	-11.0021
清淨故眼處清淨	-11.0022
於世間	-11.0022
發趣大乘	-11.0022
頓悟	-11.0023
損減	-11.0024
生空	-11.0025
種姓地	-11.0028
大雲	-11.0029
品竟	-11.003
大捨清淨	-11.0031
若般若波羅蜜多	-11.0033
非世界	-11.0036
逼	-11.0036
與人	-11.0037
十二部經	-11.0037
幢幡	-11.0037
譬如人	-11.004
識空	-11.004
諸菩薩摩訶薩亦復如是	-11.0042
無有二	-11.0044
如是知	-11.0048
問云	-11.0048
神變	-11.0051
如來悉知	-11.0053
實信	-11.0054
及法	-11.0056
五義	-11.0058
因行	-11.006
從一	-11.0064
智見	-11.0064
世出世	-11.0065
法身也	-11.0065
淨名	-11.0068
佛及	-11.0072
可名	-11.0073
陽焰	-11.0075
苦集	-11.0076
不作大不作小	-11.0082
大慈悲	-11.0082
為一切眾生	-11.0086
常為	-11.0087
幻色	-11.0088
顏	-11.0091
謗毀	-11.0093
受持般若波羅蜜	-11.0093
遍計所執	-11.0095
快	-11.0098
生歡喜	-11.0098
於四靜慮	-11.0098
若菩薩摩訶薩行深般若波羅蜜多時	-11.0099
危	-11.0101
若在內若在外若在兩間增語	-11.0101
如是觀	-11.0101
攀緣	-11.0101
若取	-11.0102
諸菩薩摩訶薩於如是	-11.0104
五千	-11.0105
之極	-11.0106
娛樂	-11.0109
應無所住而生其心	-11.011
於五眼	-11.011
若見諸相非相	-11.0111
今何以	-11.0112
諸欲	-11.0113
無相解脫門清淨	-11.0115
因也	-11.0117
體故	-11.0118
清淨故鼻界清淨	-11.012
同事	-11.012
前來	-11.0122
言有	-11.0122
清淨故地界清淨	-11.0123
得阿羅漢	-11.0124
如來所得	-11.0124
能說法者	-11.0126
初標章	-11.0126
便謂	-11.0126
我於爾時	-11.0134
如是住	-11.014
濡首	-11.0144
用心	-11.0145
不誑	-11.0149
無等等性	-11.0161
五百歲	-11.0162
末法	-11.0165
經初	-11.0166
慈悲心	-11.0167
無四相	-11.0167
道諦	-11.0169
諸菩薩摩訶薩應	-11.0171
靜慮波羅蜜多清淨	-11.0171
法生	-11.0172
佛因	-11.0172
則不信	-11.0173
自悟	-11.0179
眠	-11.0181
根性	-11.0182
換	-11.0183
真如是謂無上正等菩提	-11.0184
和尚	-11.0184
不可施設不可思議	-11.0186
於無明	-11.0187
穿	-11.0188
三果	-11.0188
層	-11.0188
七難	-11.019
各別	-11.019
若虛空	-11.0191
坑	-11.0191
現在世	-11.0191
餘處	-11.0193
於須菩提意云何	-11.0193
正顯	-11.0193
無住無不住	-11.0198
非已	-11.02
又說	-11.0202
白衣	-11.0204
名大	-11.0205
中行	-11.0208
非善法	-11.0209
學道	-11.021
如變化事	-11.021
文言	-11.021
一切行	-11.0212
作是念已	-11.0213
是因	-11.0214
難思	-11.0215
不貴	-11.0215
梵云	-11.0216
此智	-11.0216
於法界	-11.0217
四正斷清淨	-11.022
無方便善巧	-11.0222
三塗	-11.023
令諸	-11.0236
不免	-11.0238
得阿耨菩提	-11.0239
虛空無所有故	-11.0241
明矣	-11.0242
聖智	-11.0242
一切有情皆	-11.0243
既不可得	-11.0243
無量眾生	-11.0246
略明	-11.0247
盡故	-11.025
能受持	-11.0252
三千大千	-11.0252
第三句	-11.0253
何能	-11.0255
行時	-11.0257
萬劫	-11.026
淨佛土	-11.0261
下三	-11.0263
三藏法師玄奘奉詔譯初分	-11.0264
宗旨	-11.0264
甚深般若	-11.0264
戰	-11.0264
七等覺支清淨	-11.0266
緣所生法	-11.0266
非智	-11.0267
不觀一切智與	-11.0267
上說	-11.0268
為得	-11.0268
所趣	-11.0269
不離散	-11.027
頂禮佛足	-11.0272
莫不	-11.0275
放大光明	-11.0276
蟲	-11.0277
宗泐	-11.0278
稱譽	-11.0279
無實無虗	-11.028
從此第三	-11.0281
不惜身命	-11.0283
欲顯	-11.0283
須菩提至	-11.0284
鷲	-11.0289
阿惟越致菩薩	-11.0291
禮敬	-11.0292
即從座起	-11.0293
或為	-11.0295
王位	-11.0296
呼須菩提曰	-11.0296
神呪	-11.0297
所治	-11.0297
依正	-11.0298
花香	-11.03
百年	-11.0301
福德多	-11.0306
此間	-11.0308
生天上	-11.0311
應無	-11.0311
瞋清淨	-11.0312
不分	-11.0314
王言	-11.0315
當如是	-11.032
復白佛言	-11.0321
理實	-11.0322
到此	-11.0323
歸於	-11.0324
十八法	-11.0325
之一字	-11.0327
為多	-11.0328
般若故	-11.0328
之法也	-11.0329
上界	-11.0333
全體	-11.0334
牒前	-11.0338
則曰	-11.0341
養者	-11.0343
丈夫	-11.0344
隨應	-11.0344
般若是	-11.0344
總攝	-11.0345
能伏	-11.0346
是故如來	-11.0346
奇	-11.0347
幢	-11.0351
貪清淨	-11.0352
佛不	-11.0353
作加行	-11.0354
不異本性空	-11.0354
種種差別	-11.0354
五塵	-11.0356
亦名麁重	-11.0356
色究竟天	-11.0357
曠	-11.0357
淨戒波羅蜜多清淨	-11.0358
合掌恭敬	-11.0359
八十隨形好	-11.0359
遍淨天	-11.036
非有想非無想	-11.036
不生法相	-11.036
能攝	-11.0362
持此善根	-11.0365
是故言	-11.0367
四無所畏清淨	-11.0368
為求	-11.0369
後際不可得	-11.0374
報化	-11.0374
外空清淨	-11.0376
為異	-11.0377
如其	-11.0378
二見	-11.038
於此淨戒波羅蜜多	-11.0384
諸菩薩摩訶薩前	-11.0384
帝釋天主	-11.0385
為非	-11.0386
悉見是人	-11.0386
即滅	-11.0387
義者	-11.0388
為行相	-11.0388
而不能	-11.0388
諸大眾	-11.0391
皆非	-11.0392
便生	-11.0393
畢竟空清淨	-11.0394
無滅故	-11.0396
之內	-11.0397
普明	-11.0398
諸法如	-11.0398
自性空清淨	-11.0399
稱歎	-11.0401
第二句	-11.0405
能離	-11.0405
法身故	-11.0409
處故	-11.0415
寂滅相	-11.0416
即入	-11.0421
真法界	-11.0424
證智	-11.0434
當如	-11.0437
揭	-11.044
證入	-11.044
三際	-11.0441
剛	-11.0441
有二意	-11.0442
算	-11.0445
從前	-11.0448
九次第定清淨	-11.0448
所在之處	-11.0449
空法	-11.0451
吽	-11.0455
若菩薩摩訶薩以應一切智智心	-11.0456
如是人等	-11.046
貪瞋癡	-11.046
有限	-11.046
最尊	-11.0464
初正	-11.0465
繫縛	-11.0466
慈氏菩薩	-11.0467
時眾	-11.0475
忽然	-11.0476
能證無上正等菩提	-11.0477
若菩薩摩訶薩如是學時	-11.048
二答	-11.048
染污	-11.0481
無所不	-11.0482
四天王天	-11.0484
永無	-11.0487
大慈清淨	-11.049
辟支佛法	-11.0492
心所法	-11.0494
是菩提	-11.0494
舍衛	-11.0494
是諸佛	-11.0495
無所取	-11.0496
通教	-11.0497
無事	-11.0503
能如實	-11.0504
無不皆	-11.0504
佛者	-11.0505
二十三	-11.0508
菩薩字	-11.0508
於菩提	-11.051
趣菩提	-11.0512
求法	-11.0513
味著	-11.0513
色無色界	-11.0514
安忍波羅蜜多清淨	-11.0514
萬億	-11.052
樂聞	-11.0522
為主	-11.0525
不寂靜	-11.0526
第一義空	-11.0527
八背捨	-11.0527
已說	-11.0528
義非義	-11.0528
彼菩薩摩訶薩	-11.053
欲明	-11.0531
已辦地	-11.0532
一切法空清淨	-11.0534
歡喜讚歎修	-11.0534
隨念	-11.0535
分限	-11.0535
掉	-11.0536
畢竟淨法	-11.0537
為除	-11.0538
本性空不異	-11.054
乃至無法有法空	-11.054
悲心	-11.0541
無作三昧	-11.0542
自性涅槃故學	-11.0546
亦不應住	-11.0546
實無眾生得滅度者	-11.0547
八十種好	-11.0549
臭	-11.0554
無生故學	-11.0556
四無礙解清淨	-11.0557
往生	-11.0559
族	-11.0563
所獲	-11.0565
而出	-11.0565
佛告舍利子	-11.0568
第十二	-11.0568
名言	-11.0569
無變異空清淨	-11.0574
散空清淨	-11.058
沙數	-11.0583
言我	-11.0584
則以	-11.0584
阿耨菩提	-11.0586
不變異性清淨	-11.0587
欲願	-11.0587
見趣	-11.0588
凝	-11.0592
利生	-11.0592
執取	-11.0594
離此	-11.0595
為眾生說	-11.0596
無性空清淨	-11.0597
變現	-11.0598
不二法	-11.0601
內外空清淨	-11.0601
大空清淨	-11.0604
不虗	-11.0604
所解	-11.0606
法位	-11.0607
在世	-11.061
出生死	-11.0611
吉祥	-11.0612
大梵天	-11.0614
即一切智	-11.0617
淨觀地	-11.0617
得無障礙	-11.0618
吹	-11.0618
復持如是	-11.0621
陵	-11.0623
」「	-11.0624
在前	-11.0625
十八不共諸佛之法	-11.0626
五力清淨	-11.0628
羊	-11.063
諸法真如	-11.0631
相應作意	-11.0631
不可壞	-11.0632
有煩惱	-11.0633
化一切眾生	-11.0633
瘡	-11.0633
與之	-11.0633
本來寂靜故學	-11.0635
墮惡道	-11.0636
前五	-11.0637
為五	-11.0638
有緣	-11.0639
二行	-11.0639
非即	-11.064
復有三昧名曰	-11.0641
山中	-11.0641
能盡	-11.0641
五趣	-11.0643
無有高下	-11.0645
即水	-11.0645
十方殑伽沙等諸佛世界	-11.0646
莊嚴佛土者	-11.0647
有少	-11.0647
乃至十八佛不共法	-11.0647
大喜清淨	-11.0648
不共法	-11.065
薩芸若慧	-11.0652
非為	-11.0652
觀身	-11.0654
作如是說	-11.0654
菩薩言	-11.0655
門中	-11.0657
今現在	-11.0659
初文	-11.066
是實有	-11.0661
而又	-11.0667
法定清淨	-11.0669
之謂	-11.067
無際空清淨	-11.067
世諦故	-11.0671
汝若能修如是般若	-11.0671
精進波羅蜜多清淨	-11.0672
見故	-11.0674
無滅故學	-11.0674
皆無所有	-11.0675
勝義空清淨	-11.0676
見是	-11.0678
者此云	-11.0679
亦能學	-11.0681
嚴淨一切智	-11.0682
三千大千世界中	-11.0683
無眾生相	-11.0683
福智	-11.0683
如光影	-11.0683
不可得空清淨	-11.0684
▁初標	-11.0684
即彼	-11.0688
即非眾生	-11.0688
法住清淨	-11.0688
翻為	-11.0688
無為空清淨	-11.0689
述成	-11.0695
畢竟清淨	-11.0695
神通力	-11.0696
自相空清淨	-11.0697
實際清淨	-11.0697
童	-11.07
蘊空	-11.0702
荷擔	-11.0703
大悲清淨	-11.0708
保	-11.071
諸三昧門	-11.071
卷五百	-11.0711
翻譯	-11.0712
於生死	-11.0714
披	-11.0714
正信	-11.0715
平等性清淨	-11.0715
谷	-11.0717
清淨故味界	-11.0717
▁淨	-11.0718
北藏作	-11.0718
無空過者	-11.0719
佛十力乃至十八佛不共法	-11.0719
學不增不減	-11.0719
眾寶莊嚴	-11.0722
前六	-11.0724
清淨故香界	-11.0728
若非自性即是精進波羅蜜多	-11.0728
憂愁	-11.0729
本性空清淨	-11.0731
有心	-11.0733
而求	-11.0735
智度論	-11.0736
修因	-11.0737
諸字	-11.0745
諸法皆空	-11.0747
又何	-11.0748
智母	-11.075
若干種心	-11.0751
其猶	-11.0754
生人中	-11.0756
離生性清淨	-11.0756
共相空清淨	-11.0756
不虛妄性清淨	-11.0758
種種方便	-11.0759
知已	-11.0759
城中	-11.0764
以不	-11.0764
問何故	-11.0767
受身	-11.0768
以方便力	-11.0768
佛智慧	-11.077
無去來	-11.0773
有為空清淨	-11.0773
一切智智即是	-11.0774
天龍	-11.0778
無實故	-11.0779
眾德	-11.0782
惡世	-11.0783
難量	-11.0786
終不離	-11.0786
菩薩摩訶薩不為引發	-11.0787
空空清淨	-11.0792
同異	-11.0795
濫	-11.0796
炬	-11.0799
賢首	-11.08
降伏其心	-11.0801
者乎	-11.0801
況觀一切智與	-11.0802
才	-11.0802
反顯	-11.0803
作念	-11.0804
亦說	-11.0805
四神足清淨	-11.0806
大劫	-11.0807
求無上正等菩提	-11.0807
亦常	-11.0808
畢竟離	-11.0814
求趣無上正等菩提	-11.0816
由如是義	-11.0816
不可得故般若波羅蜜多清淨	-11.0816
所致	-11.0818
滅定	-11.0821
何因	-11.0821
於四念住	-11.0822
新注	-11.0822
如來不以具足相故	-11.0823
亦不思惟	-11.0823
墮於	-11.0824
答中	-11.0824
能攝受	-11.0824
非所	-11.0825
清淨故聲界	-11.0825
腹	-11.0826
悉檀	-11.0829
菩薩摩訶薩亦無所有不可得	-11.0829
知眾生	-11.0831
於道相智	-11.0834
樂受	-11.0834
事相	-11.0836
善心	-11.0841
舍衛國	-11.0844
不堪	-11.0845
清淨故觸界	-11.0847
真如中有菩薩摩訶薩	-11.0847
相好身	-11.0847
定相	-11.0849
方是	-11.0852
能壞	-11.0852
▁初釋	-11.0853
未免	-11.0854
寧有	-11.0856
佛知見	-11.0856
即指	-11.086
燃燈佛	-11.0864
普為	-11.0869
且初第一	-11.087
如來所	-11.0871
無罣礙	-11.0871
際自性故	-11.0873
苦受	-11.0873
以智	-11.0874
布施時	-11.0874
善於	-11.0875
是名眾生	-11.0876
亦不有	-11.0883
利物	-11.0885
非顛倒	-11.0886
真如亦不可得	-11.0886
倫	-11.0888
及餘無量無邊佛法	-11.0895
在大眾中	-11.0897
第十地	-11.0898
有所說	-11.0899
終無	-11.09
微笑	-11.0902
實語者	-11.0903
熱惱	-11.0905
欲學	-11.0908
佛說法	-11.0909
總別	-11.0911
微塵眾	-11.0914
三摩	-11.0914
不染不淨故般若波羅蜜多清淨	-11.0914
乃至一切相智	-11.0915
經也	-11.0916
身命布施	-11.0916
一名	-11.0916
量不可得	-11.0917
修善	-11.0917
修行般若波羅蜜多菩薩摩訶薩	-11.092
即佛	-11.0921
即菩提	-11.0921
雙照	-11.0924
之功德	-11.0924
能聞	-11.0924
安住內空乃至無性自性空	-11.093
前二句	-11.0933
卷第十	-11.0933
後人	-11.0933
直下	-11.0936
諸聖	-11.0937
仁者	-11.0938
淨天	-11.0938
無也	-11.0938
一家	-11.0938
從初發心乃至	-11.0938
序分	-11.0939
不相違	-11.0942
善付囑諸菩薩	-11.0944
此皆	-11.0947
求阿耨多羅三藐三菩提	-11.0948
即非一切法	-11.0948
以一切法皆	-11.0949
與空相應	-11.0953
一二	-11.0954
大城	-11.0955
業報	-11.0955
有時	-11.0958
正當	-11.0959
是諸有情	-11.0959
實事	-11.0959
甚深般若波羅蜜多方便善巧	-11.096
為首	-11.0962
忉利天	-11.0963
商	-11.0963
說彼	-11.0964
解了	-11.0965
獲福	-11.0966
能解	-11.0966
所修行	-11.0967
佛出世	-11.0971
入諸法	-11.0971
無煩惱	-11.0972
如是功德	-11.0974
七者	-11.0975
二問	-11.0976
彼善男子	-11.0977
是虛妄	-11.0977
生實相	-11.0979
易得	-11.0979
云何有	-11.0979
四十	-11.0981
摩賀	-11.0982
甚奇	-11.0983
是我清淨與	-11.0984
大品云	-11.099
是有情清淨與	-11.099
是知者清淨與	-11.099
是士夫清淨與	-11.0991
熾盛	-11.0992
菩薩摩訶薩應引般若波羅蜜多	-11.0992
地水火風	-11.0993
非有想非無想處	-11.0993
不可說故般若波羅蜜多清淨	-11.0993
莖	-11.0993
如像	-11.0994
於大眾中	-11.0994
不可稱計	-11.0995
是命者清淨與	-11.0995
狐疑	-11.0995
吒	-11.0996
亦無窮盡	-11.0996
之語	-11.0997
過於	-11.1002
導師	-11.1003
頻	-11.1003
自高	-11.1004
過去佛	-11.1009
邪行	-11.101
觀佛	-11.1012
色是	-11.1013
眾生可度	-11.1013
發問	-11.1016
香花	-11.1016
無依	-11.1019
魏	-11.1019
有生滅	-11.1019
不可見故	-11.102
一切相智道	-11.1021
心無罣礙	-11.1022
空處	-11.1023
真言	-11.1027
非菩薩摩訶薩中有	-11.1028
豈得	-11.1028
二處	-11.1035
師子座	-11.1036
此定	-11.1039
未斷	-11.1041
般若波羅蜜多方便善巧	-11.1043
相成就	-11.1043
所感	-11.1044
答也	-11.1044
科家	-11.1046
加持	-11.1046
非二	-11.1048
正理	-11.1049
謂諸菩薩	-11.1049
乃至無性自性空	-11.1056
深義	-11.1056
非不眾生	-11.106
傅大士頌	-11.1061
能依	-11.1063
卵	-11.1063
作如是	-11.1065
不減	-11.1068
道行	-11.1069
入流	-11.1069
破法	-11.1069
於四無量	-11.107
敷座而坐	-11.1072
不生不滅故學	-11.1073
午	-11.1077
妻	-11.1079
果者	-11.1079
是受者清淨與	-11.108
是作者清淨與	-11.1082
由此緣故	-11.1082
是生者清淨與	-11.1082
是養育者清淨與	-11.1082
能善	-11.1083
以如來	-11.1083
甘	-11.1084
出入	-11.1084
是補特伽羅清淨與	-11.1085
當依	-11.1085
憎	-11.1085
墜	-11.1086
何故不	-11.1087
若五根清淨	-11.1087
惟逮波羅蜜	-11.1087
滅諦	-11.1087
見者清淨即	-11.1088
彼諸菩薩	-11.109
算數	-11.1091
真如非菩薩摩訶薩	-11.1092
能正	-11.1093
親近供養	-11.1093
四攝	-11.1096
天人師	-11.1098
似有	-11.1098
色清淨故一切智智清淨	-11.1102
如是所說	-11.1102
未來現在	-11.1102
法假	-11.1104
現見	-11.1104
不能知	-11.1106
如陽焰	-11.1106
不唯	-11.111
▁二釋	-11.111
受報	-11.1115
因生	-11.1115
此正	-11.1116
性也	-11.1119
不能自	-11.1121
當為汝說	-11.1122
今佛	-11.1123
不受福德	-11.1124
其數	-11.1125
次答	-11.1125
大聖	-11.1126
▁初明	-11.1126
其法	-11.1129
發大心	-11.1134
二初	-11.114
空相應故	-11.1141
而言之	-11.1142
華嚴云	-11.1144
當觀	-11.1145
觀受	-11.1146
而取	-11.1147
無取無執	-11.1151
樣	-11.1156
諸色	-11.1158
解脫道	-11.1159
不住涅槃	-11.1161
大乘中	-11.1162
甞	-11.1162
於此甚深般若波羅蜜多	-11.1164
法亦	-11.1164
呈	-11.1165
而今	-11.1166
洗足	-11.1166
空觀	-11.1166
所言菩薩摩訶薩者	-11.1167
是名阿耨多羅三藐三菩提	-11.1167
具壽善現白言	-11.1168
衛	-11.1168
說聽	-11.117
是見者清淨與	-11.1174
五法	-11.1177
諸佛世界	-11.1178
斥	-11.1179
福業事	-11.118
諸苦	-11.118
是儒童清淨與	-11.1182
深般若	-11.1183
是修般若波羅蜜	-11.1186
皆從此經出	-11.1187
自性空中若	-11.1187
龍樹	-11.1187
得一切智智	-11.1188
鬪	-11.1191
於八解脫	-11.1193
於後末世	-11.1194
故下	-11.1196
畢定	-11.1196
初一	-11.1198
愚人	-11.1198
初後	-11.1198
」】「	-11.1199
住是三昧者	-11.1199
其本	-11.1201
不見耳	-11.1202
是誰	-11.1203
多也	-11.1204
大覺	-11.1206
與眾生	-11.1207
三有	-11.121
位也	-11.121
不淨觀	-11.121
可證	-11.1216
體空	-11.122
既得	-11.1222
復於	-11.1225
深生信解	-11.1227
所云	-11.1227
難知	-11.1228
佛有	-11.1228
修般若波羅蜜	-11.123
十地菩薩	-11.1231
心外	-11.1234
習種性	-11.1234
無道	-11.1236
假令	-11.1237
無障礙	-11.1238
初二句	-11.1241
不堅實性能行般若波羅蜜多	-11.1244
墮落	-11.1244
般若波羅蜜亦	-11.1245
世事	-11.1245
法不可得故	-11.1245
般若波羅蜜多亦	-11.1247
常有	-11.1247
云何如來	-11.1248
勝事	-11.1255
懈	-11.1255
國土中	-11.1257
無上法	-11.1257
十迴向	-11.1258
我不應行	-11.1259
於一切陀羅尼門	-11.1259
惡慧	-11.1261
若諸如來	-11.1262
在外	-11.1263
不墮聲聞及獨覺地	-11.1263
是行般若波羅蜜	-11.1264
為上為無上	-11.1267
三脫門	-11.1268
令修	-11.1268
採	-11.127
是意生清淨與	-11.1271
發弘誓願	-11.1273
愁	-11.1274
一切皆空	-11.1276
4	-11.1276
私	-11.1277
眼耳鼻舌身意	-11.1278
養育者清淨即	-11.128
儒童清淨即	-11.1281
亦不念	-11.1284
不住法	-11.1285
從佛	-11.1286
今當	-11.1287
變為	-11.129
但有名字	-11.1292
寒熱	-11.1294
有住	-11.1294
即名諸佛	-11.1295
以是故說	-11.1296
釋迦牟尼	-11.1297
無字	-11.1297
俱是	-11.13
意生清淨即	-11.13
覺心	-11.1303
不雜	-11.1303
自致	-11.1303
士夫清淨即	-11.1307
云何菩薩摩訶薩行深般若波羅蜜多時	-11.1308
從他	-11.1311
勸修	-11.1311
無有邊	-11.1311
常無	-11.1312
無處	-11.1312
一品	-11.1314
此三千大千世界	-11.1316
諸法實性	-11.1318
曇無竭	-11.1321
無無明	-11.1322
正以	-11.1322
命者清淨即	-11.1323
諸菩薩行	-11.1325
一切相智清淨故一切智智清淨	-11.1327
乃得	-11.1327
是果	-11.1329
內法	-11.1329
天等	-11.133
作者清淨即	-11.1331
大苦	-11.1334
但假名	-11.1336
知者清淨即	-11.134
斷三界	-11.1341
同體	-11.1341
皆具	-11.1345
昭	-11.1347
諸有情故	-11.1347
般涅槃後	-11.1351
即色界	-11.1351
唯心	-11.1351
顛倒故	-11.1354
峰	-11.1357
名也	-11.1359
結勸	-11.1359
獄	-11.1359
咄	-11.1363
豈不應於	-11.1364
為妙為微妙	-11.1364
照見五蘊皆空	-11.1365
無有實	-11.1365
灑	-11.1366
二名	-11.1366
斬	-11.1367
修行者	-11.1367
城邑	-11.1367
一也	-11.1368
於水	-11.1368
我當精勤	-11.1368
常得	-11.1369
暢	-11.137
醫	-11.137
蘊處界	-11.1372
汝當於此甚深般若波羅蜜多	-11.1372
故不說	-11.1373
祖師	-11.1373
第一明	-11.1373
偈曰	-11.1373
聲聞獨覺	-11.1376
說空	-11.1377
支節	-11.1378
殖	-11.1378
壽量	-11.1382
熾然精進	-11.1382
如說行	-11.1383
百歲	-11.1383
左右	-11.1383
佛又	-11.1387
師曰	-11.1391
身體	-11.1393
阿闍梨	-11.1393
大同	-11.1393
更說	-11.1394
前四	-11.1395
彼於	-11.1396
非有故	-11.1396
所不能及	-11.1397
初總標	-11.1398
劫數	-11.1399
貢高	-11.14
無染著	-11.1403
滅者	-11.1403
真身	-11.1405
四等	-11.1405
無來去	-11.1407
既言	-11.1407
沙彌	-11.1407
應薩婆若心	-11.1407
無退	-11.1408
受者清淨即	-11.1408
若菩薩摩訶薩能	-11.1409
群生	-11.1409
長老須菩提	-11.141
以種種	-11.141
如來於離	-11.1412
經旨	-11.1413
此上	-11.1419
受決	-11.1421
不被	-11.1422
希有世尊	-11.1423
種類	-11.1424
度一切眾生	-11.1427
明佛	-11.143
能現	-11.143
結集	-11.143
光影	-11.1432
復見	-11.1435
置是	-11.1435
於他	-11.1438
經中說	-11.1438
次句	-11.144
佛讚	-11.1443
阿惟越致菩薩摩訶薩	-11.1449
不見我	-11.1449
了因	-11.145
供養般若波羅蜜	-11.1454
則非過去未來現在	-11.1455
勸學	-11.1456
深信	-11.1459
依般若	-11.1459
案	-11.1462
敷座	-11.1463
於菩薩	-11.1465
應作	-11.1465
擾亂	-11.1465
佛寶	-11.1467
津	-11.1468
圍遶	-11.1468
四智	-11.1468
生者清淨即	-11.1469
伊	-11.147
與解脫等	-11.147
修行布施波羅蜜多	-11.1471
智慧力	-11.1473
語業	-11.1476
常無常相不可得	-11.1476
無菩薩	-11.1477
二十七	-11.1478
一事	-11.1479
或現	-11.1481
不貴重	-11.1481
作種種	-11.1484
寂靜不寂靜相	-11.1485
前之	-11.149
以證	-11.1491
貪心	-11.1493
是福德	-11.1493
問訊	-11.1494
菩薩所行	-11.1497
釋前	-11.1498
則生	-11.1499
佛告舍利子言	-11.15
始得	-11.1502
能自	-11.1502
即五眼	-11.1506
一切智人	-11.1507
下界	-11.151
天親論	-11.1512
又有	-11.1512
名非	-11.1516
尚不能	-11.1519
之慧	-11.1521
不堅實	-11.1521
一一皆	-11.1522
處也	-11.1523
三障	-11.1523
釋義	-11.1524
得阿耨多羅三耶三菩	-11.1524
佛說般若波羅蜜	-11.1525
如來無所說	-11.1526
此非	-11.1528
如是思惟	-11.1531
無情	-11.1532
得記	-11.1533
鬘	-11.1538
住是定意	-11.1539
比丘僧	-11.1539
為供養	-11.1543
止觀	-11.1545
補特伽羅清淨即	-11.1546
不別	-11.1549
然也	-11.1551
作諸	-11.1553
為有所得	-11.1556
諸大菩薩	-11.1557
不屬	-11.1558
無功用	-11.156
佛恐	-11.1561
生如是心	-11.1562
夷	-11.1562
菩薩摩訶薩摩訶衍	-11.1564
心淨	-11.1564
熾然	-11.1564
經名	-11.1566
嫌	-11.1566
湏菩提	-11.1567
不來不去	-11.157
蔭	-11.1571
完	-11.1573
憂惱	-11.1577
幻人	-11.1577
無處所	-11.1579
獵	-11.1581
婦	-11.1584
來也	-11.1585
令他	-11.1588
我清淨即	-11.1589
名唯客所攝	-11.1589
直指	-11.1593
求聲聞	-11.1594
退屈	-11.1597
百劫	-11.1597
化導	-11.1598
悉見	-11.1598
忍者	-11.1598
何意	-11.1598
智證	-11.1602
為說法	-11.1603
道智	-11.1605
常以	-11.1609
雖知	-11.161
於布施波羅蜜多	-11.1613
即非佛法	-11.1614
空色	-11.1617
盡是	-11.1619
薩陀波倫菩薩	-11.162
諸天眾	-11.1622
有情清淨即	-11.1624
一箇	-11.1624
最極	-11.163
修得	-11.1635
又恐	-11.1639
是名善法	-11.164
同於	-11.1644
般若波羅蜜相	-11.1648
心清淨	-11.1649
何以言	-11.165
辰	-11.1652
諸法自性	-11.1657
既思惟已	-11.1657
長大	-11.1658
不可盡故	-11.1658
千分不及一	-11.1658
不二則非	-11.1658
而未	-11.1659
普能	-11.166
為法	-11.1661
入不二無妄法數	-11.1662
定實	-11.1662
彩	-11.1662
錢	-11.1662
育	-11.1664
戶	-11.1665
諸禪	-11.1665
油	-11.1665
壇	-11.1666
具足故	-11.1666
遲	-11.1667
思念	-11.1667
刀杖	-11.1668
上上	-11.1669
聖諦	-11.1669
復為	-11.167
一切法相	-11.167
請佛	-11.1671
鈴	-11.1672
十千	-11.1673
牙	-11.1677
空見	-11.1678
名利	-11.1679
永離	-11.1682
通名	-11.1684
用之	-11.1684
決定不退	-11.1684
為斷此疑	-11.1686
誰當	-11.1686
既空	-11.1689
教導	-11.169
默然	-11.1691
不施設	-11.1693
得證	-11.1697
此第二	-11.1697
以內空	-11.17
誰能	-11.1702
人無我	-11.1705
不悟	-11.1707
謂菩薩摩訶薩	-11.1708
即眼處	-11.1709
依經	-11.1709
事也	-11.1711
身分	-11.1711
無方	-11.1712
自度	-11.1715
無變異	-11.1716
諸教	-11.1721
權實	-11.1721
不容	-11.1723
其處	-11.1723
般若波羅蜜亦如是	-11.1726
不能見如來	-11.1726
信根	-11.1727
三輪	-11.1728
明般若	-11.1731
清淨故色界	-11.1733
幻師	-11.1734
住此	-11.1734
菩薩乘善男子等	-11.1735
梵天王	-11.1736
所能	-11.1737
此偈	-11.1737
是名微塵	-11.1737
根熟	-11.1737
定有	-11.174
中起	-11.174
虛空中	-11.1741
百千萬	-11.1741
執持	-11.1743
空華	-11.1746
我得阿羅漢道	-11.1749
擾	-11.175
滅相	-11.1752
係	-11.1753
發趣	-11.1753
之別	-11.1754
正等覺依深般若波羅蜜多	-11.1758
非造非不造	-11.176
赴	-11.1761
無為性	-11.1762
漚	-11.1763
慇懃	-11.1763
非一非異	-11.1764
說色	-11.1765
閱	-11.1765
趣不可超越	-11.1766
若心有住	-11.1767
夜叉	-11.1769
諸佛土	-11.1771
佛告釋提桓因	-11.1771
以一切法自性空故	-11.1771
羅剎	-11.1772
有為相	-11.1772
無壽者相	-11.1772
來去	-11.1774
是我所	-11.1776
諸魔	-11.1776
義中	-11.1778
無脫	-11.1779
果報亦不可思議	-11.1779
銅	-11.1779
於眼界	-11.178
名假	-11.1785
無閡	-11.1786
修羅	-11.1787
中出	-11.1787
無一	-11.1793
以七寶	-11.1794
是諸法空相	-11.1794
是假法	-11.1798
大利益	-11.1798
樂小	-11.1803
說大乘	-11.1805
乃為	-11.1809
性者	-11.181
即色處	-11.181
耀	-11.181
品類	-11.1816
在佛	-11.1819
尚不得	-11.182
即眼界	-11.182
住相布施	-11.182
亦應於	-11.1822
巳得	-11.1823
至誠	-11.1829
而可	-11.1829
合成	-11.1834
說是經	-11.1835
比智	-11.1841
十號	-11.1842
國中	-11.1843
未必	-11.1845
謂由	-11.1845
聲聞道	-11.1847
羅什	-11.1848
托	-11.1851
深生	-11.1851
道相智清淨	-11.1853
起心	-11.1854
不獲教授	-11.1855
不應住此是	-11.1856
見此事已	-11.1856
佛可	-11.1858
壞故	-11.1859
圖	-11.186
其所以	-11.1861
丈	-11.1862
滋	-11.1862
營	-11.1863
日用	-11.1864
無智亦無得	-11.1864
扶	-11.1864
所作功德	-11.1866
善護念	-11.1866
王日休曰	-11.1866
三三昧	-11.1869
其心不驚不恐不怖	-11.1869
獲益	-11.187
於眼處	-11.1871
出現於世	-11.1872
故論云	-11.1872
承上	-11.1874
爾許	-11.1875
五逆	-11.1879
安住真如乃至不思議界	-11.1881
跋	-11.1881
反覆	-11.1882
依之	-11.1883
無所行	-11.1884
亦入於	-11.1885
過患	-11.1885
等名皆	-11.1886
意在	-11.1887
施諸有情	-11.1888
當知是為	-11.1888
十法	-11.1889
大經云	-11.1891
就此	-11.1894
利鈍	-11.1896
即眼識界	-11.1903
五蓋	-11.1905
自謂	-11.1905
人說	-11.1906
此善男子	-11.1906
不知不見	-11.1909
此位	-11.1909
龍首	-11.1909
四無色	-11.191
異處	-11.191
燃燈	-11.1911
觀也	-11.1913
道果	-11.1914
多不	-11.1916
於有	-11.192
無人相	-11.1921
謂為	-11.1923
即八勝處	-11.1924
能到	-11.1927
著有	-11.1929
實際為有異不	-11.1929
皆不可取	-11.193
一切時	-11.1932
樂具	-11.1933
從彼	-11.1934
是名說法	-11.1934
生佛	-11.1935
可施設	-11.1941
為其	-11.1942
則應	-11.1949
合說	-11.195
歸去來	-11.195
非空非不空	-11.1956
禍	-11.1956
佛法中	-11.1957
淨法	-11.1958
竊	-11.196
與如是法相應故	-11.1961
若畢竟不生則不名	-11.1962
怯弱	-11.1964
僧祇	-11.1966
五取蘊	-11.1967
巨	-11.1967
作佛事	-11.1968
四無所畏乃至一切相智	-11.1969
淚	-11.1971
若集若散	-11.1972
捨身命	-11.1975
自見	-11.1977
〉	-11.1977
〈	-11.1978
殊勝善根	-11.1978
▁初依	-11.198
後得	-11.1981
好醜	-11.1982
即集	-11.1982
堅利	-11.1985
令不	-11.1986
供具	-11.1986
菩薩摩訶薩不見	-11.1987
經意云	-11.1989
即著我人眾生壽者	-11.1992
乃至無	-11.1993
唯除	-11.1993
已滅	-11.1994
如幻士	-11.1996
於色處	-11.1997
未除	-11.1997
無倒稱揚	-11.1998
異名	-11.1999
徵意云	-11.2002
大乘無所有故	-11.2004
無彼	-11.2006
是名為心	-11.201
修行甚深般若波羅蜜多	-11.2012
剎土	-11.2012
色痛痒思想生死識	-11.2014
入位	-11.2016
巧便	-11.2017
答曰巳下	-11.2018
行位	-11.2022
此中說	-11.2024
無厭	-11.2027
滿中	-11.2027
明空	-11.2029
我已	-11.2032
有智慧	-11.2032
即無忘失法	-11.2034
雖在	-11.2037
法平等性	-11.2037
動轉	-11.2038
度無極	-11.2039
理也	-11.204
領解	-11.2041
解義	-11.2042
心常	-11.2043
二引	-11.2044
清淨故受	-11.2044
常自	-11.2044
即八解脫	-11.2045
可住	-11.2049
是大神呪	-11.2051
雖能	-11.2055
諸法鈍故	-11.2055
無量諸佛	-11.2056
無因緣	-11.2056
種智	-11.2058
無本	-11.2059
逼迫	-11.206
常不離	-11.206
一切佛	-11.2062
是輩	-11.2062
覽	-11.2062
本生	-11.2062
聞佛說	-11.2064
皈	-11.2066
不見受	-11.2066
延	-11.2066
於中分三	-11.2067
方成	-11.2068
即道相智	-11.207
阿素洛等供養恭敬	-11.2071
吐	-11.2072
法有	-11.2073
貪愛	-11.2073
已盡	-11.2075
清淨故水	-11.2075
於無上正等菩提有退屈不	-11.2076
羼波羅蜜	-11.2076
為發最上乘者說	-11.2077
以示	-11.2078
此就	-11.2078
有對	-11.2078
踰	-11.2078
惡行	-11.208
見種種色	-11.2081
巳來	-11.2084
印可	-11.2086
引導	-11.2087
不無	-11.2087
清淨故外空	-11.2088
於當來世	-11.2089
住是	-11.2089
妙樂	-11.209
之勝	-11.2095
轉依	-11.2095
法想	-11.2095
阿毘曇	-11.2096
聞聲	-11.2099
不如是善男子	-11.2099
所發	-11.2099
般若波羅蜜多甚深經典	-11.21
捨心	-11.2104
至于	-11.2107
作集作散	-11.2108
離染	-11.2108
照了	-11.2112
云何菩薩摩訶薩修行般若波羅蜜多時	-11.2113
無忘失法清淨故一切智智清淨	-11.2113
三十七	-11.2114
可得不	-11.2115
彼故	-11.2115
依報	-11.2115
今為	-11.2115
世俗諦	-11.2116
八者	-11.2116
塵沙	-11.2116
有形	-11.2118
故復	-11.2119
即四靜慮	-11.2119
即四念住	-11.212
隨眾生	-11.2123
下第四	-11.213
徧計	-11.2131
即地界	-11.2131
用也	-11.2135
次下	-11.2136
無常等	-11.2138
以神通力	-11.2139
施主	-11.214
限量	-11.2142
能受	-11.2143
利行	-11.2143
即六神通	-11.2145
於所	-11.2147
劫中	-11.215
莫念	-11.2152
於無忘失法	-11.2152
即顯	-11.2153
何等名為	-11.2156
心印	-11.2159
菩薩眾	-11.216
即四無所畏	-11.2161
使人	-11.2161
是何	-11.2164
賤	-11.2164
無所作	-11.2165
不可取說	-11.2166
說正法	-11.2167
鄉	-11.2168
紹	-11.2169
播	-11.2169
冤	-11.2169
嘉	-11.217
所攝受故	-11.217
天台	-11.217
資生	-11.2171
即眼觸	-11.2171
井	-11.2173
教中	-11.2173
無性故	-11.2174
荷	-11.2174
梵輔天	-11.2175
卑	-11.2175
懺悔	-11.2175
捐	-11.2179
當知大乘亦無所有	-11.2179
不應住聲香味觸法生心	-11.2182
故成	-11.2182
卿	-11.2183
得福甚多	-11.2184
常啼菩薩摩訶薩	-11.2185
閉	-11.2186
宛然	-11.2186
梨	-11.2187
世智	-11.2188
不攝	-11.2189
等皆	-11.219
動靜	-11.219
本源	-11.2191
即空解脫門	-11.2193
求菩提	-11.2194
道種智	-11.2194
捨去	-11.2194
清淨故四正斷	-11.2197
滅度者	-11.2199
必當	-11.2199
清淨故一來	-11.22
由此般若波羅蜜多清淨	-11.22
初總	-11.2201
作廣作狹	-11.2213
定性	-11.2215
畢竟淨	-11.2215
八勝處清淨	-11.2215
相應善根	-11.2218
智論	-11.2219
變化事	-11.2222
欲入	-11.2225
此翻	-11.2226
正報	-11.2229
一往	-11.223
生淨信	-11.2232
於般若	-11.2233
不應思惟	-11.2235
便為	-11.2245
得真	-11.2245
今得	-11.2248
無義	-11.225
出過	-11.2252
證成	-11.2253
汝若	-11.2254
彌勒云	-11.2254
推求	-11.2256
是菩薩摩訶薩行深般若波羅蜜多	-11.2259
於此中	-11.226
相應故	-11.2264
故不可說	-11.2266
無貪	-11.2266
罔	-11.2267
願我	-11.2268
光讚	-11.2268
達磨	-11.227
生因	-11.2272
低	-11.2272
乃至算數譬喻所不能及	-11.2273
謹	-11.2274
信般若波羅蜜多時	-11.2276
映	-11.2276
為最為勝	-11.2276
於一切時	-11.2277
今生	-11.2278
深經	-11.2278
合為一	-11.2279
如來善護念諸菩薩	-11.228
筆	-11.2283
當知虛空亦無所有	-11.2283
目連	-11.2284
有方便善巧故	-11.2285
復生	-11.2285
虗名	-11.2288
胸	-11.2291
所以然者	-11.2291
來生	-11.2291
敗壞	-11.2291
假施設	-11.2291
所讚	-11.2292
清淨故四無所畏	-11.2292
廣為人說	-11.2292
佛問	-11.2292
分為	-11.2293
不應取非法	-11.2293
周遍	-11.2294
即四無量	-11.2294
是二	-11.2296
取證	-11.2298
應捨	-11.23
此諸菩薩	-11.23
偈中	-11.2301
遠離般若波羅蜜	-11.2302
淨不淨相	-11.2303
卷下	-11.2309
居家	-11.2309
隱顯	-11.2312
學般若	-11.2313
若諸	-11.2315
不墮聲聞	-11.2316
即內空	-11.2318
修行般若波羅蜜多諸菩薩摩訶薩	-11.2319
佛設利羅	-11.2322
真空實相	-11.2324
若四靜慮	-11.2328
義利	-11.2333
最第一	-11.2334
若魔	-11.2335
不觀色	-11.2335
亦不壞	-11.234
罣礙	-11.234
諸大	-11.2347
眾生根	-11.2347
莊	-11.2351
片	-11.2351
何如	-11.2352
大菩提心	-11.2352
如是等無量	-11.2353
菩薩摩訶薩於	-11.2353
於六神通	-11.2359
況復	-11.236
取其	-11.2364
畢竟離故	-11.2364
無為法身	-11.2365
說一切法	-11.2367
即極喜地	-11.2368
善男子等	-11.237
大事	-11.2375
訛	-11.2376
惑業	-11.2378
大乘法	-11.2378
即一切菩薩摩訶薩行	-11.238
無所說	-11.238
勘	-11.2382
而不棄捨	-11.2383
入聖	-11.2383
諸蘊	-11.2384
紛	-11.2386
今但	-11.2386
無差別故	-11.2388
西天	-11.2388
不除	-11.2388
總說	-11.2388
炷	-11.2388
醜	-11.239
與名俱自性空故	-11.2393
即眼觸為緣所生諸受	-11.2394
當知一切法亦無所	-11.2395
空中過去	-11.2395
二護	-11.2396
法尚應捨	-11.2396
嫉妬	-11.2397
一切法趣	-11.2397
菩薩摩訶薩所行般若波羅蜜多亦無量	-11.2399
清淨故八勝處	-11.24
應如是知	-11.24
不可數	-11.24
圓寂	-11.2401
證實際	-11.2409
何由	-11.2409
凡夫二乘	-11.2411
各異	-11.2412
不可知	-11.2415
外法	-11.2415
云何有生	-11.2416
第四句	-11.2418
諸結使	-11.2418
攝取眾生	-11.2421
自空	-11.2421
菩提涅槃	-11.2422
是假名	-11.2423
清淨故淨戒	-11.2425
示世間	-11.2425
諸業	-11.2426
即恒住捨性	-11.2428
得須陀洹果	-11.2428
了不可得	-11.2429
善人	-11.2436
天華	-11.2436
一邊	-11.2437
」、「	-11.244
正遍知	-11.2441
四明	-11.2444
即布施波羅蜜多	-11.2447
不著耳	-11.2448
亦於	-11.2448
惡口	-11.2449
成佛道	-11.2452
既爾	-11.2454
我昔	-11.246
上義	-11.2461
普令	-11.2462
若雜染若清淨	-11.2463
卵生	-11.2466
即佛十力	-11.2469
不亂	-11.2471
時有	-11.2472
不存	-11.2478
過聲聞	-11.2478
即苦聖諦	-11.2479
府	-11.248
悉能	-11.2481
曳	-11.2481
皇	-11.2482
之謂也	-11.2485
𦦨	-11.2485
後說	-11.2486
色蘊乃至識蘊	-11.2487
俾	-11.2487
是所	-11.2488
樂變化天	-11.2489
率	-11.249
淨居天	-11.2491
十萬	-11.2492
〕	-11.2492
薩婆訶	-11.2495
四意止	-11.2499
聾	-11.2499
現起	-11.2501
六度萬行	-11.2504
若菩薩摩訶薩如實了知	-11.2504
栴檀	-11.2504
能轉	-11.2505
膝	-11.2505
金剛般若經	-11.2506
三無性	-11.2509
甚深理趣	-11.2511
由無所有不可得故	-11.2512
如空	-11.2513
西域	-11.2514
難及	-11.2515
供佛	-11.2515
豈能	-11.2515
用是故	-11.2515
邪道	-11.2516
還生	-11.252
六十二見	-11.252
依義	-11.2522
之詞	-11.2526
依彼	-11.2529
不問	-11.253
說偈	-11.253
稱性	-11.2534
是諸菩薩摩訶薩	-11.2536
離苦	-11.2536
度脫眾生	-11.2536
為度	-11.2536
巳竟	-11.2538
授與	-11.2542
最妙	-11.2544
方知	-11.2545
為諸菩薩說	-11.2546
般若經	-11.2548
皆屬	-11.2549
法界非	-11.2554
寶物	-11.2555
流通分	-11.2556
無由	-11.2558
但作是念	-11.2559
何可	-11.256
行願	-11.2561
勝法	-11.2562
如實智	-11.2563
非化	-11.2563
地獄中	-11.2564
和合故	-11.2565
圓通	-11.2566
當知般若波羅蜜多亦	-11.2567
今依	-11.2567
蘊等	-11.2568
無量心	-11.257
清淨故集	-11.2573
二依	-11.2573
應儀	-11.2576
始從	-11.2577
有所住	-11.2577
亦通	-11.2577
有七	-11.2581
甚深義	-11.2582
不破	-11.2584
皆名為	-11.2587
還至本處	-11.2588
一真	-11.2589
束	-11.2592
大智慧	-11.2593
四無量清淨	-11.2595
法於無上正等菩提有退屈不	-11.2595
回向	-11.2595
極光淨天	-11.2596
隨彼	-11.2596
之要	-11.26
與幻有異不	-11.26
奔	-11.2602
汝今諦聽	-11.2602
淵	-11.2603
於苦聖諦	-11.2604
斷想不	-11.2604
如來也	-11.2606
向下	-11.2607
歌利王	-11.2608
主宰	-11.2608
聰明	-11.261
應如是布施	-11.261
有何差別	-11.2611
怨賊	-11.2612
非法非非法	-11.2612
為能	-11.2615
〕-【	-11.2616
及諸天	-11.2617
而現	-11.2622
不忍	-11.2631
復置	-11.2635
即淨戒	-11.2641
阿耨多羅	-11.2643
眾生空	-11.2649
度之	-11.2652
可言	-11.2654
當知般若波羅蜜多亦無邊	-11.2658
若諸法	-11.2661
何曾	-11.2663
菩薩雖	-11.2664
如來所得法	-11.2668
晝	-11.2668
清淨故道相智	-11.2671
此科	-11.2671
聞是深般若波羅蜜	-11.2673
無常相	-11.2673
不喜	-11.2673
聖果	-11.2675
寶珠	-11.2676
說我	-11.2677
受假	-11.2679
未悟	-11.2684
斷之	-11.2686
諸法中	-11.2689
維	-11.2692
亦不見空與	-11.2693
依於	-11.2695
劒	-11.2695
大者	-11.2701
非想非非想處定	-11.2703
四字	-11.2703
為尊為高	-11.2706
克	-11.2708
若諸菩薩能如是行	-11.2709
八種	-11.2709
尺	-11.2709
云何行	-11.2712
絲	-11.2712
四分別辯	-11.2712
文意	-11.2712
常說	-11.2712
所作事	-11.2713
為住	-11.2713
不相捨離	-11.2715
汝於來世	-11.2716
四重	-11.2716
十方界	-11.2718
精進力	-11.2719
封	-11.2719
世間天	-11.272
芥子	-11.2722
聲聞地	-11.2724
成滿	-11.2725
清淨故四無量	-11.2727
行十善	-11.2728
即諸佛無上正等菩提	-11.2728
以此為實	-11.2729
有相無相	-11.2729
得勝	-11.2729
不了知	-11.2731
亦不可見	-11.2731
不可得故說不可得	-11.2732
應云何住	-11.2736
如來說非眾生	-11.2736
餘三	-11.2737
毛孔	-11.2737
異於	-11.2738
他心	-11.2738
疑者	-11.274
後得智	-11.2741
云何可	-11.2742
即一來	-11.2742
具此	-11.2744
其量	-11.2749
三字	-11.2753
妙義	-11.2754
即八十隨好	-11.2755
一切智智清淨故聲	-11.2756
散花	-11.2757
雖殊	-11.2757
現等覺	-11.2763
假合	-11.2764
皆入	-11.2765
識清淨故一切智智清淨	-11.277
十惡	-11.277
而曰	-11.2771
千年	-11.2774
受戒	-11.2776
著衣	-11.2777
一月	-11.2779
無始空	-11.278
敬重	-11.2781
陀羅	-11.2782
形色	-11.2786
依前	-11.2787
本云	-11.2793
無相無為	-11.2804
是學一切智智	-11.2808
不惟	-11.2808
心體	-11.2809
大涅槃	-11.2809
湛	-11.281
歡	-11.2811
舍利弗問須菩提	-11.2811
祗	-11.2812
循	-11.2812
根本智	-11.2813
即預流果	-11.2815
括	-11.2815
疾得	-11.2816
論師	-11.2816
為他演說	-11.2816
無底	-11.2818
萌	-11.282
尋伺	-11.282
當知是為不退轉菩薩摩訶薩	-11.282
敵	-11.282
況有趣非趣	-11.2823
四如意足	-11.2823
無覺	-11.2823
若人言	-11.2824
慎	-11.2824
知是不退轉菩薩摩訶薩	-11.2825
於空解脫門	-11.2825
未聞	-11.2826
於自	-11.2826
即三十二大士相	-11.2827
知根	-11.2827
憎愛	-11.2828
佛告文殊師利	-11.2831
即陀羅尼門	-11.2832
直說	-11.2832
隱沒	-11.2833
七十	-11.2833
不久當	-11.2835
昔日	-11.2836
呪術	-11.2837
於八勝處	-11.284
薩哩嚩	-11.2842
伽陀	-11.2844
非多	-11.2844
摶取	-11.2848
住地	-11.2849
於何	-11.285
之色	-11.2851
執故	-11.2853
是無常	-11.2855
坐禪	-11.2856
大歡喜	-11.2857
謂空	-11.2859
能成辦一切智智	-11.286
無願相	-11.2862
若我乃至見者	-11.2864
空慧	-11.2865
之一	-11.2865
若不得	-11.2867
真體	-11.2869
來至	-11.287
名句	-11.2871
既非	-11.2872
不住生死	-11.2872
而心	-11.2873
知之	-11.2874
俱時	-11.2875
覺了	-11.2877
勝餘	-11.2878
百由旬	-11.2879
新發意菩薩	-11.2879
則不可	-11.288
即大慈	-11.288
自性離故	-11.2882
▁薩	-11.2885
▁初總	-11.2886
彼所	-11.2889
欲證	-11.2891
此福	-11.2892
行深般若波羅蜜多方便善巧	-11.2895
而入	-11.2895
等無有異	-11.2897
不肯	-11.29
為眾	-11.2902
如是種種	-11.2904
修集	-11.2907
八識	-11.2907
)。【	-11.2908
千佛	-11.291
猶是	-11.2912
無壽者	-11.2915
因般若波羅蜜	-11.2919
一切皆非相應非不相應	-11.2919
若著	-11.2922
依教	-11.2923
唯客所攝	-11.2925
鄣	-11.2927
生相	-11.2927
住世	-11.2929
歎般若	-11.293
二段	-11.293
兔	-11.2932
霜	-11.2933
若菩薩摩訶薩成就如是諸行	-11.2933
此是諦實	-11.2934
假實	-11.2935
我慢	-11.2937
捺	-11.2938
端嚴	-11.2938
涕	-11.2938
鮮	-11.2938
具見地	-11.2939
不可言	-11.2939
在在處處	-11.2939
涕淚悲泣	-11.2942
證真如	-11.2942
詐	-11.2942
而於中學	-11.2944
若取法相	-11.2945
亦除	-11.2946
禽獸	-11.2949
以能	-11.2949
有五種	-11.2949
日光	-11.295
無住相	-11.2951
無自性中	-11.2953
魔王	-11.2954
之相也	-11.2955
如尋香城	-11.2956
慈氏菩薩摩訶薩	-11.2959
不行耳	-11.296
憂苦	-11.296
佛亦如是	-11.2964
清淨法身	-11.2964
之前	-11.2965
亦不作大不作小	-11.2966
得無上菩提	-11.297
即緣所生法	-11.297
命根	-11.2971
佛自說	-11.2977
不惱	-11.298
流轉生死	-11.2981
幡	-11.2984
辟支佛心	-11.2985
或言	-11.2989
清淨故無相	-11.2991
少許	-11.2991
無知者	-11.2995
有力	-11.2995
色不可得	-11.2997
無所有法	-11.2998
諸異生	-11.3001
若善若非善	-11.3003
合云	-11.3006
難信	-11.3006
日日	-11.3008
紫	-11.3012
頑	-11.3013
獨覺法	-11.3014
印三昧	-11.3016
無言	-11.3019
今問	-11.3019
我言	-11.3021
非無想	-11.3021
無漏智	-11.3026
句義無所有不可得	-11.3027
如病	-11.3027
心起	-11.3029
門也	-11.3031
多故	-11.3032
想念	-11.3032
三根	-11.3033
匿王	-11.3036
七種	-11.3036
識亦如是	-11.3037
非有相非無相	-11.3039
一地	-11.3041
無我法	-11.3041
杜	-11.3042
如實了知當於中學	-11.3042
都無和合自性	-11.3042
五百年	-11.3043
佉	-11.3044
六百卷	-11.3046
醒	-11.3047
開合	-11.3048
少光天	-11.3048
於一切三摩地門	-11.3049
維摩	-11.3049
秘密	-11.3049
阿羅訶	-11.305
整	-11.305
牟尼	-11.3051
不在兩間	-11.3051
猗	-11.3052
魏譯	-11.3053
如實觀察	-11.3054
何物	-11.3054
下二句	-11.3056
恒作是念	-11.3056
當來之世	-11.3056
繞	-11.3057
善慧	-11.3058
一大	-11.3065
於理	-11.3067
無咎	-11.3067
又二	-11.3068
即非具足色身	-11.3069
說諸法斷滅	-11.3069
迷真	-11.3069
五百世	-11.307
酒	-11.3071
是般若波羅蜜中	-11.3074
餘事	-11.3074
苦智	-11.3074
解脫門	-11.3075
即三摩地門	-11.3075
以三十二相觀如來	-11.3076
於諸法無所	-11.3077
何況非法	-11.3078
為二初	-11.3078
喻也	-11.3081
作是觀	-11.3082
從緣	-11.3083
得福多	-11.3093
非虛妄	-11.3097
對法	-11.3099
此顯示	-11.3104
無所依	-11.3106
無色定	-11.3108
離諸相	-11.3108
多分	-11.3109
釋此	-11.311
境故	-11.3114
或令	-11.3117
何人	-11.3117
我從	-11.312
非微塵	-11.3121
得薩婆若	-11.3121
之實	-11.3122
是名法相	-11.3125
即大悲	-11.3126
疏主	-11.3127
佛所說法	-11.3129
同歸	-11.313
無違	-11.3134
即非般若波羅蜜	-11.3135
降住	-11.3136
盡滅	-11.3137
灾	-11.3138
智照	-11.3138
初正釋	-11.3139
此經之	-11.314
平等故	-11.314
亦不取	-11.3142
諸神通	-11.3144
摩尼寶	-11.3144
是無記	-11.3144
如是等種種因緣	-11.3145
阿難陀	-11.3147
繼	-11.3148
如是迴向	-11.3148
晉	-11.315
百分	-11.3152
之意也	-11.3154
佛力	-11.3156
界中	-11.3157
詔	-11.3157
圍	-11.3158
汝觀何義言	-11.3158
摩訶般若波羅蜜經	-11.316
於地界	-11.3161
十億	-11.3162
逈	-11.3162
我作佛時	-11.3163
如前說	-11.3163
性都不可得	-11.3164
篇	-11.3164
震動	-11.3164
自利利他	-11.3164
極大	-11.3164
冀	-11.3166
苾芻當知	-11.3168
汎	-11.3169
我乃至見者無所有故	-11.3169
名聞	-11.3169
中不可得	-11.3169
上云	-11.317
眉	-11.3171
真如中	-11.3171
永盡	-11.3174
以自	-11.3174
諸菩薩摩訶薩如實了知	-11.3174
大乘與虛空等	-11.3176
大論	-11.3177
五蘊皆空	-11.3181
諸妙	-11.3183
即外空乃至無性自性空	-11.3185
所被	-11.3187
虛空處	-11.3191
方為	-11.3193
已上	-11.3193
無實體	-11.3194
光天	-11.3195
即因緣	-11.3196
初三	-11.3198
別解	-11.32
所照	-11.3202
於一來	-11.3203
歡喜讚歎行	-11.3205
經文也	-11.3206
及菩薩	-11.3206
佛隨念	-11.3207
具足六波羅蜜	-11.3211
常啼	-11.3211
愛語	-11.3213
何必	-11.3215
會要	-11.3215
諸賢聖	-11.3216
而不見	-11.3218
得佛道	-11.322
尚不見	-11.3221
即獨覺菩提	-11.3225
能施	-11.3225
住般若波羅蜜	-11.3226
即離垢地乃至法雲地	-11.3228
聞正法	-11.323
亦勸他修	-11.3235
於聲聞	-11.3236
除滅	-11.324
乃至如來	-11.325
以無所得為方便故	-11.3254
深奧	-11.3255
那庾多	-11.3259
五識	-11.326
之主	-11.3263
寶藏	-11.3265
隆	-11.3266
前後際斷	-11.3267
據此	-11.3269
是菩薩摩訶薩平等性	-11.3271
真空無相	-11.3271
因地	-11.3272
古德云	-11.3275
化度	-11.3276
川禪師曰	-11.3276
羯	-11.328
真實不虗	-11.328
慳悋	-11.328
裂	-11.3281
哀愍	-11.3281
登彼岸	-11.3282
於法實無所得	-11.3282
馱	-11.3284
聖位	-11.3284
大悲為上首	-11.3285
如佛塔廟	-11.3286
即離	-11.3287
親友	-11.3287
普能容受無量無數無邊有情	-11.3287
屋	-11.3288
災難	-11.3291
大智度論釋	-11.3291
遠離不遠離相不可得	-11.3292
頂上	-11.3293
不異語者	-11.3293
百八	-11.3294
即非身相	-11.3296
捨無量	-11.3299
餘皆	-11.3299
菩薩行六波羅蜜	-11.3299
法要	-11.33
前問	-11.33
鴿	-11.3301
無上正真道	-11.3301
生生	-11.3303
如今	-11.3304
持用布施	-11.3304
胎生	-11.3305
未來世中	-11.331
知苦	-11.3311
但能	-11.3312
二佛	-11.3317
九者	-11.3318
誰為	-11.3319
世間解	-11.332
多生	-11.3322
自念言	-11.3323
場	-11.3326
離一切諸相	-11.3328
此義故	-11.3329
所變	-11.3331
一問	-11.3331
諸法亦爾	-11.3333
常能	-11.3334
用此	-11.3335
所樂	-11.3336
停	-11.3338
如所說	-11.3343
分別執著	-11.3343
觀法	-11.3345
我人眾生壽者	-11.335
經宗	-11.3352
結上	-11.3352
此解	-11.3353
諦觀	-11.3353
如來真如平等	-11.3355
皆成就	-11.3356
不論	-11.3357
名為大	-11.336
亦不與	-11.336
求如是	-11.336
今此中	-11.3363
法本	-11.3364
大地獄中	-11.3365
攝一切法	-11.3365
既知	-11.3367
秤	-11.3371
上座	-11.3372
有三義	-11.3375
若論	-11.3379
俱有	-11.338
佛功德	-11.3382
饒	-11.3384
如來所說法	-11.3386
若據	-11.3386
收衣鉢	-11.3387
乞士	-11.3389
何況空中有過去	-11.339
欲為有情宣說開示	-11.3392
▁二明	-11.3395
最上最妙	-11.3395
識亦復如是	-11.3395
及諸菩薩	-11.3395
僕	-11.3396
秪	-11.3396
是世間	-11.3396
偏袒右肩	-11.3396
鑑	-11.3397
晚	-11.3398
非唯	-11.3398
賜	-11.3399
非趣非不趣	-11.34
不超一切世間天	-11.34
佛欲	-11.3402
擲	-11.3403
函	-11.3403
體者	-11.3404
定無	-11.3404
若念有	-11.3404
能如是行	-11.3406
有邊	-11.3406
是凡夫	-11.3407
二千	-11.3408
狗	-11.3408
二十六	-11.3409
風吹	-11.341
婬怒癡	-11.3412
周匝	-11.3413
平等性尚不可得	-11.3414
=	-11.3414
自已	-11.3422
習應	-11.3422
以是名字	-11.3423
欲界繫	-11.3423
作阿耨多羅三耶三菩	-11.3424
造業	-11.3427
正語	-11.3428
成阿惟三佛	-11.3428
菩薩學	-11.3428
妄識	-11.343
云何當有	-11.3432
尚有	-11.3438
干	-11.3438
其德	-11.344
色者	-11.344
即四正斷乃至八聖道支	-11.3443
眼根	-11.345
如實觀	-11.3454
色聲香味觸法	-11.3454
空門	-11.3455
註解	-11.3455
妄生	-11.3459
當體	-11.346
常無常相	-11.346
憐愍眾生	-11.3462
信敬	-11.3463
現相	-11.3464
證知	-11.3466
初住	-11.3467
於集	-11.3471
菩薩乘諸善男子	-11.3471
轉故名不退轉	-11.3472
涅槃經	-11.3473
正因	-11.3473
生彼	-11.3474
能生諸佛	-11.3474
不順	-11.3476
自得	-11.3481
塵垢	-11.3482
行布施者	-11.3483
)。」【	-11.3484
清淨法	-11.3485
未至	-11.3488
無瞋	-11.3488
佛得阿耨多羅三藐三菩提	-11.3489
起於	-11.349
汝應	-11.3491
先舉	-11.3494
施等	-11.3494
菩薩及	-11.3494
無障	-11.3495
唯說	-11.35
拜	-11.35
謂諸	-11.3501
隋	-11.3502
京	-11.3502
綱	-11.3506
如去	-11.3506
乾坤	-11.3507
不可得見	-11.3508
無熱天	-11.3509
武	-11.3509
針	-11.3509
吾今	-11.351
隙	-11.351
定當	-11.3511
諸法平等	-11.3511
化之	-11.3512
觀世音	-11.3514
苦相	-11.3514
少淨天	-11.3515
三教	-11.3515
之流	-11.3516
光照	-11.3516
尊重讚歎諸佛世尊	-11.3516
辛	-11.3517
亦無老死盡	-11.3518
胡	-11.3518
觀智	-11.3519
方名	-11.352
七覺分	-11.352
名身	-11.352
怨敵	-11.352
籌量	-11.3522
三疑	-11.3527
不離般若波羅蜜多	-11.3528
是名第一波羅蜜	-11.353
一物	-11.3534
無有邊際	-11.3537
現成	-11.3538
修般若	-11.3539
於恒住捨性	-11.354
小品	-11.3541
聞深般若波羅蜜	-11.3542
宿世	-11.3544
當生如是心	-11.3544
但明	-11.3545
今是	-11.3546
云何為人演說	-11.3549
實相也	-11.355
珍財	-11.3552
若知	-11.3553
眾生也	-11.3553
四地	-11.3557
現在法	-11.3559
如幻事	-11.3562
常樂我淨	-11.3564
四釋	-11.3565
是故菩薩摩訶薩	-11.3567
得安隱	-11.3567
住內空	-11.3568
是常	-11.357
不落	-11.3572
聞思修	-11.3577
如佛說	-11.3577
經書	-11.3578
往昔	-11.3581
必得	-11.3581
十智	-11.3583
起後	-11.3583
內外法	-11.3583
施設有	-11.3584
所用	-11.359
文有二	-11.3594
定心	-11.3595
卷上	-11.3595
是善	-11.3597
三十一	-11.3599
唐言	-11.3599
常啼菩薩	-11.3599
智斷	-11.3601
汝見	-11.3601
一切波羅蜜多	-11.3603
即法界乃至不思議界	-11.3605
是真實	-11.3607
俱行之心	-11.3612
是故名	-11.3614
初學	-11.3615
法合	-11.3616
得不退轉	-11.3617
非趣	-11.3618
值佛	-11.3619
隨其所	-11.3619
廓	-11.362
如是事	-11.362
彼云	-11.362
有苦	-11.3621
不可思議功德	-11.3621
賓	-11.3623
成就法	-11.3628
纂	-11.3629
不殺	-11.363
虧	-11.363
外護	-11.3631
祐	-11.3632
世出世間	-11.3633
若時若時	-11.3635
盤	-11.3637
隣	-11.3637
蘭	-11.3638
故云非	-11.3638
舍利弗語須菩提	-11.3639
無量淨天	-11.3639
婆伽婆	-11.364
無量光天	-11.364
皆是般若波羅蜜多所流出故	-11.364
心數	-11.364
初標章敘疑	-11.3642
非般若	-11.3642
三聚	-11.3642
聲聞緣覺	-11.3643
佛滅度後	-11.3644
無信	-11.3644
健	-11.3646
憍	-11.3647
其福德	-11.3647
易解	-11.3649
中求	-11.365
驅	-11.365
有多	-11.3653
則無有	-11.3654
行於	-11.3654
無所從生	-11.3658
一切不退轉菩薩摩訶薩	-11.3658
具念	-11.366
極樂	-11.366
融通	-11.366
障故	-11.3661
此喻	-11.3661
通別	-11.3662
善哉善哉	-11.3663
護念付囑	-11.3664
不著色	-11.3664
是菩薩摩訶薩安住	-11.3666
云何修行	-11.3666
牒經	-11.3667
可信	-11.3668
為可得不	-11.3668
證得所求無上正等菩提	-11.367
若一切智	-11.367
文有三	-11.3671
則墮	-11.3671
初發意	-11.3671
不應起	-11.3673
不及持經	-11.3673
得人身	-11.3675
而不知	-11.3676
舉喻	-11.3679
彼非眾生	-11.3681
即行乃至老死	-11.3683
如來得阿耨多羅三藐三菩提	-11.3687
三惡趣	-11.3688
巳盡	-11.3689
可斷	-11.3691
不得菩提	-11.3693
常當	-11.3696
佛無上正等菩提	-11.3696
修治	-11.3696
乃知	-11.3697
修行般若波羅蜜多速得圓滿	-11.3697
應墮惡道	-11.37
死生	-11.3701
修空	-11.3702
此五	-11.3704
為問	-11.3704
於佛無上正等菩提	-11.3706
一般	-11.3706
搖	-11.371
見我	-11.3711
行深般若	-11.3716
方可	-11.3716
清淨故行	-11.3722
不聽	-11.3723
以得	-11.3725
一切智智清淨故色界	-11.3725
無憂	-11.3726
但聞	-11.3728
上首	-11.3728
大利	-11.373
十方無量	-11.373
一切三昧	-11.3734
性地	-11.3734
▁第二百	-11.3735
不懈	-11.3735
故說為	-11.374
後方	-11.374
誦經	-11.3741
真妄	-11.3742
須菩提所說	-11.3743
性無故	-11.3747
遠近	-11.3748
無出	-11.3749
增彼對治	-11.3749
眼等	-11.3749
景	-11.3751
祕	-11.3751
墨	-11.3753
得無礙	-11.3754
但應	-11.3754
大論云	-11.3755
不能從三界中出	-11.3755
修諸菩薩摩訶薩行	-11.3755
亦不施設為	-11.3756
甚麼	-11.3758
派	-11.3758
峯	-11.3758
重釋	-11.3759
童子	-11.376
三十七菩提分法	-11.376
能除一切苦	-11.3761
珊瑚	-11.3761
隨所生處	-11.3762
困	-11.3762
慈悲喜捨	-11.3763
升	-11.3763
大悲為首	-11.3764
身住循身觀	-11.3765
稻	-11.3765
▁第	-11.3765
常念	-11.3766
佛雖	-11.3766
可比	-11.3768
我當圓滿	-11.377
如來說名真是菩薩	-11.3771
淨不淨相不可得	-11.3772
莫作是說	-11.3772
稱揚	-11.3772
苾芻尼	-11.3773
澤香	-11.3775
數數	-11.3775
無常增語是菩薩摩訶薩不	-11.3776
報應	-11.3778
以釋	-11.3779
雜染清淨	-11.3783
逮覺	-11.3787
非修般若波羅蜜多	-11.3788
二藏	-11.3788
開悟	-11.379
身口	-11.3791
慈愍	-11.3791
隨業	-11.3792
滅罪	-11.3793
佛國土	-11.3799
三科	-11.3803
真珠	-11.3806
化有情	-11.3806
速疾	-11.3807
是大明呪	-11.3809
廣大心	-11.3813
開士大士	-11.3813
難見	-11.3814
勸人	-11.3814
諸天子言	-11.3816
微塵世界	-11.3817
無我人	-11.3818
雜毒	-11.3819
獲大	-11.3824
氣力	-11.3825
善非善	-11.3826
之可	-11.3826
常增語是菩薩摩訶薩不	-11.3827
所染	-11.3827
手持	-11.3827
一切智智清淨故耳	-11.3828
諸家	-11.3832
此語	-11.3834
一切智智相應作意	-11.384
眾行	-11.3844
一切智智清淨故道相智	-11.3851
如大海	-11.3853
除其	-11.3853
一塵	-11.3854
有四相	-11.3854
若就	-11.3857
各得	-11.3857
不起作諸行若有若無故學	-11.3857
是菩薩摩訶薩修行般若波羅蜜多	-11.3858
勝進	-11.3859
果中	-11.3862
後四	-11.3862
不得言	-11.3863
須彌山王	-11.3866
不可攝受故	-11.3867
乃至老死	-11.3868
不能壞	-11.3868
平等心	-11.3869
不能見	-11.3869
溪	-11.387
論云下	-11.3871
祇陀	-11.3871
不住相布施	-11.3873
探	-11.3876
此有	-11.3877
廣如	-11.3878
多時	-11.3878
餘皆愚妄	-11.3879
無成無壞	-11.3879
知恩	-11.3879
睡眠	-11.3881
於十方三世無所從來	-11.3881
無所至去亦無所住	-11.3882
令勤修學	-11.3882
不驚不怖不畏	-11.3883
而不住	-11.3884
陳雄	-11.3885
際菩薩摩訶薩有異	-11.3885
一切聖人	-11.3886
汝當奉持	-11.3886
纂要	-11.3886
於諸等持	-11.3887
順逆	-11.3887
應生無所住心	-11.3887
誘	-11.3889
化樂天	-11.389
一切智智清淨故四無量	-11.3892
實無所得	-11.3892
遶	-11.3893
在其中	-11.3893
我無我相不可得	-11.3894
未明	-11.3894
得樂	-11.3894
加害	-11.3895
供給	-11.3897
寂靜不寂靜相不可得	-11.3897
頭陀	-11.3897
問須菩提	-11.3897
一切智智清淨故四正斷	-11.3897
般若波羅蜜清淨	-11.39
挍量	-11.39
及佛	-11.39
任持	-11.39
阿羅呵	-11.3901
起信云	-11.3901
故說大乘	-11.3901
古人	-11.3902
而論	-11.3902
觀音	-11.3903
能信受	-11.3903
▁初正	-11.3903
助道法	-11.3903
當念	-11.3903
如人有目	-11.3903
其地	-11.3904
絕待	-11.3905
如語者	-11.3907
有法可	-11.3907
且初第一明	-11.3909
之心也	-11.3912
亦知	-11.3913
所得福德	-11.3917
空行菩薩行	-11.3918
反問	-11.392
一切智智清淨故八勝處	-11.3924
當知此	-11.3926
便成	-11.3926
十四忍	-11.3926
一切智智清淨故四無所畏	-11.3927
諸相具足	-11.393
燒香	-11.3932
生死中	-11.3933
能仁	-11.3935
具德	-11.3938
邪正	-11.3939
福德性	-11.3943
眾事	-11.3944
而發	-11.3951
自受用	-11.3954
假有	-11.3955
厭捨	-11.3956
亦名為	-11.3959
集諦	-11.396
一切智智清淨故一來	-11.3961
無顛倒	-11.3962
行般若波羅蜜者	-11.3962
精勤修學甚深般若波羅蜜多	-11.3962
其上	-11.3963
就初	-11.3964
受持讀誦此經	-11.3967
原無	-11.3969
事者	-11.397
兄	-11.3971
不善業	-11.3977
修此	-11.3978
三段	-11.3978
等無異	-11.3979
以我	-11.3979
見諦	-11.3982
行淨戒波羅蜜多	-11.3984
斑足	-11.3984
離有無	-11.3989
說法時	-11.3989
正等	-11.3989
二依經斷疑	-11.3989
離文字	-11.3993
名句文	-11.3995
行漸次行	-11.3999
柱	-11.3999
製	-11.4
研	-11.4
不可取不可說	-11.4001
以偈	-11.4001
覔	-11.4002
無明滅	-11.4002
之福德	-11.4003
有菩薩摩訶薩不	-11.4004
最尊最勝	-11.4004
如來以	-11.4005
愛重	-11.4005
壯	-11.4005
如是信解	-11.4006
非合非離但假施	-11.4006
見一切法	-11.4007
逆順	-11.4008
忻	-11.4008
諸世界	-11.4009
東勝身洲	-11.401
天帝釋復白佛言	-11.401
波若波羅蜜	-11.401
曉了	-11.401
不到	-11.4011
非過去非未來非現在	-11.4014
休息	-11.4016
得作佛	-11.4017
一切智智清淨故外空	-11.4017
斷證	-11.4018
繒	-11.4018
一生補處	-11.4019
譬如人身長大	-11.4019
告言	-11.4021
不住於	-11.4022
若有眾生	-11.4023
執我	-11.4024
但約	-11.4024
這箇	-11.4024
外國	-11.4025
於法不說斷滅相	-11.4026
優	-11.4026
如是有情	-11.4027
喻如	-11.4028
然其	-11.4029
下賤	-11.4029
若菩薩作是言	-11.4031
一切智智清淨故淨戒	-11.4031
不妄	-11.4032
應依	-11.4032
卷第三	-11.4034
爾時爾時	-11.4035
明如來	-11.4036
此二句	-11.4039
以何為	-11.404
聞般若	-11.4044
皆應供養	-11.4044
如解脫	-11.4045
無能所	-11.4048
卷第二	-11.4052
修學般若波羅蜜多	-11.4053
像法	-11.4056
我我所	-11.4059
如是修行	-11.4062
分為二	-11.4064
別名	-11.4069
無福	-11.407
有去來	-11.4072
亦不取著	-11.4072
施設言說	-11.4073
眾惡	-11.4073
住中	-11.4073
而實無	-11.4077
如是乃至一切智	-11.4077
稱我	-11.4078
後之	-11.4079
速證	-11.4083
或令安住	-11.4085
是顛倒	-11.4086
非無相	-11.4087
了無	-11.4088
是菩薩摩訶薩雖	-11.409
能了	-11.4095
般若波羅蜜經卷	-11.4098
我無邊故	-11.4103
此般若波羅蜜多法門	-11.4104
深重	-11.4108
達一切法	-11.4109
至極	-11.411
雖現	-11.4111
無諍三昧	-11.4113
真如無生無滅	-11.4115
如來法性可得	-11.4117
恣	-11.4118
比邱	-11.4119
多百千	-11.4119
若婆羅門	-11.4122
實不可得	-11.4122
三乘法	-11.4123
善見天	-11.4126
即當	-11.4126
橋	-11.4126
域	-11.4127
心與語	-11.4129
今時	-11.4129
▁是	-11.4129
市	-11.413
殺生	-11.413
編	-11.4131
名俱無所有不可得故	-11.4133
並是	-11.4133
我欲	-11.4134
工	-11.4135
願樂欲聞	-11.4135
於後	-11.4135
古德	-11.4136
諸地	-11.4136
廣天	-11.4137
隨覺	-11.4138
亦不能證	-11.4138
名為於界善巧	-11.4141
聽許	-11.4142
翅	-11.4142
策	-11.4142
皆云	-11.4144
善趣	-11.4145
品明	-11.4146
是趣不過	-11.4146
眾寶	-11.4147
今謂	-11.4154
更求	-11.4156
後結	-11.4157
從來	-11.416
方盡殑伽沙等世界	-11.4161
破執	-11.4161
更相	-11.4164
猶如虛空	-11.4166
內證	-11.4167
本事	-11.4168
菩薩摩訶薩觀	-11.4168
無定相	-11.4177
讚言	-11.4178
答以	-11.4178
今文	-11.4181
起滅	-11.4182
得成就	-11.4184
及與	-11.4187
答前	-11.4189
異類	-11.419
發言	-11.419
明波若	-11.419
是名三十二相	-11.4192
復由	-11.4194
歸命	-11.4194
思慧	-11.4194
大迦葉	-11.4195
住修	-11.4195
是人以是因緣	-11.4196
實理	-11.4197
多者	-11.42
由有	-11.42
由於	-11.4201
更問	-11.4202
上有	-11.4203
如先	-11.4208
七賢	-11.4209
七重	-11.4215
第十四	-11.4216
名示	-11.4217
一切智智清淨故集	-11.4221
下半偈	-11.4222
此經中	-11.4223
聞是法	-11.4224
而學	-11.4225
▁初解	-11.4226
初門	-11.4226
相攝	-11.4227
不成就	-11.4231
皆與	-11.4242
友	-11.4243
為樂	-11.4244
恭	-11.4244
若無色	-11.4246
幻法	-11.4246
通利	-11.4247
法印	-11.4249
話	-11.425
五地	-11.425
若有色	-11.4251
空無邊處定	-11.4252
縱橫	-11.4252
之經	-11.4252
本來清淨	-11.4253
離般若波羅蜜	-11.4253
修漸次學	-11.4253
愛欲	-11.4254
難行	-11.4255
傾	-11.4256
婆羅門大族	-11.4258
真如有菩薩摩訶薩不	-11.426
離生喜樂	-11.4261
閻浮	-11.4262
纖毫	-11.4264
福相	-11.4264
修四靜慮	-11.4264
非法界	-11.4264
雖聞	-11.4265
斫	-11.4265
遷流	-11.4265
大力	-11.4267
若染若淨	-11.4267
亦如實知	-11.4268
阿難言	-11.4269
善道	-11.4269
檢	-11.4269
貪嗔	-11.4271
流支	-11.4272
應如是生清淨心	-11.4272
作惡	-11.4272
若異	-11.4274
非有非空	-11.4274
日光明照	-11.4275
以後	-11.4277
楞嚴云	-11.4277
齒	-11.4279
菩薩作是念	-11.4283
綱要	-11.4284
菩薩摩訶薩得阿耨多羅三藐三菩提時	-11.4284
前所說	-11.4284
第八識	-11.4285
可有	-11.4289
最為第一	-11.4291
無量福德	-11.4296
修習般若波羅蜜多	-11.4296
皆如幻化	-11.4296
出家人	-11.4297
無邊無所有故	-11.4302
能辦	-11.4305
乃至佛	-11.4305
色起至	-11.4308
忍位	-11.4309
墮聲聞	-11.431
一約	-11.4311
坐臥	-11.4312
捨命	-11.4312
終不能	-11.4315
而常	-11.4316
如幻化	-11.4317
具大	-11.4322
迷心	-11.4327
證信	-11.4329
不可破壞	-11.4333
慧根	-11.4334
所持	-11.4336
四邊	-11.4339
但名	-11.434
所求無上正等菩提	-11.4342
復次善現	-11.4344
常心	-11.4344
得般若波羅蜜	-11.4345
由此善根	-11.4346
欲聞	-11.4348
不相離	-11.4352
後學	-11.4352
如一	-11.4355
一切智智清淨故無相	-11.4356
善本	-11.4356
將來	-11.4357
深也	-11.4357
有所得為方便	-11.4358
於無量	-11.4359
題目	-11.4359
夫人	-11.4361
間斷	-11.4362
從座起	-11.4364
即應	-11.4364
之稱	-11.4365
釋所以	-11.4366
線	-11.437
性種性	-11.437
二身	-11.4371
理中	-11.4374
哆	-11.4374
應現	-11.4374
不可攝受則非	-11.4375
瑜伽論	-11.4375
出體	-11.4376
第四明	-11.4376
隨佛生	-11.4378
共住	-11.438
初靜慮	-11.4381
當一一說	-11.4381
貪嗔癡	-11.4382
軀	-11.4382
飯食訖	-11.4384
閒	-11.4384
若菩薩摩訶薩修遣	-11.4384
無高下	-11.4385
菩薩摩訶薩安住布施波羅蜜多	-11.4387
告之	-11.4389
右繞	-11.4389
奚	-11.439
曾無	-11.4391
新學大乘	-11.4394
毀呰	-11.4394
阿須倫	-11.4396
希望	-11.4398
過去當來今現在	-11.4399
未來心不可得	-11.44
盧	-11.4401
與法	-11.4401
不驚不怖	-11.4402
可於中學	-11.4402
及弟子	-11.4403
有遣此修	-11.4404
亦教他人	-11.4405
今所	-11.4406
補處	-11.4407
入初靜慮	-11.4407
是真空	-11.4408
頭頭	-11.4409
十八住	-11.4413
假設	-11.4417
般若理趣	-11.4418
智淨	-11.4418
甚深微妙	-11.4418
是名具足色身	-11.4419
生清淨心	-11.4419
講說	-11.442
與汝	-11.4422
不為引發	-11.4422
而為上首	-11.4425
普遍	-11.4427
合為	-11.4427
但取	-11.4427
能引發	-11.4427
本識	-11.4431
樂欲	-11.4432
有別	-11.4433
諸相非相	-11.4434
如是菩薩摩訶薩	-11.4434
但得	-11.4435
非住	-11.4435
菩薩位	-11.4437
五色	-11.4439
是一切法	-11.4439
阿耨多羅三耶三菩阿惟三佛	-11.4439
界等	-11.4441
諸菩薩摩訶薩為	-11.4442
大也	-11.4443
而立	-11.4448
如是念	-11.4449
放光明	-11.4449
▁後依	-11.4449
畢竟無	-11.445
為果	-11.4454
如疏	-11.4454
無著下	-11.4455
執相	-11.4456
證時	-11.4457
謂得	-11.4458
不惜	-11.446
天女	-11.446
轉增	-11.4461
二乘人	-11.4461
不應取法	-11.4463
何別	-11.4469
具三	-11.4471
供養者	-11.4471
天神	-11.4472
四無畏	-11.4474
善修	-11.4482
證涅槃	-11.4483
倦	-11.4483
亦教他修	-11.4487
此一段	-11.4488
之方	-11.4489
佛法僧	-11.4489
智度論云	-11.4491
不難	-11.4491
大段	-11.4496
善付囑	-11.4497
王等	-11.4498
學菩提道	-11.4498
黠	-11.4499
除障	-11.4502
印三摩地	-11.4505
與虛空等	-11.4505
諸佛國土	-11.4512
般若波羅蜜多甚深義趣	-11.4513
一道	-11.4514
饑	-11.4515
教授教誡	-11.4517
殃	-11.4517
奏	-11.4518
規	-11.4519
惹	-11.452
居士大族	-11.452
之下	-11.452
此甚深般若波羅蜜多	-11.4521
汝善男子	-11.4522
刊	-11.4522
楚	-11.4522
天帝	-11.4522
究竟通利	-11.4522
本性皆空	-11.4522
大小乘	-11.4523
調和	-11.4525
自生	-11.4525
等種種	-11.4526
一念淨信	-11.4527
業因緣故	-11.4528
木石	-11.4528
夢中見	-11.4529
用無所得而為方便	-11.4532
窟	-11.4532
眾生界	-11.4532
占	-11.4533
類智	-11.4533
修行一切智	-11.4533
如來是真語者	-11.4535
至今	-11.4536
罵詈	-11.4536
超出	-11.4537
七覺意	-11.4537
使作者	-11.4538
有分別	-11.4542
假想	-11.4545
所出	-11.4547
無自相	-11.4547
佛說非身	-11.4548
復有二	-11.4549
皆無自性	-11.455
畢竟無所有	-11.455
無量無邊阿僧祇	-11.4553
皆同一	-11.4555
斷一切	-11.4557
於汝	-11.4561
別故	-11.4564
如來滅後	-11.4564
還滅	-11.4564
魏本	-11.4567
自受	-11.4569
文四	-11.457
之數	-11.4572
如是降伏其心	-11.4574
入初地	-11.4574
不應觀聲	-11.4574
須菩提白佛	-11.4578
宿住	-11.458
從因緣生	-11.4584
勝出	-11.4584
凡夫之人	-11.459
如來於然燈佛所	-11.4593
住不退轉地	-11.4595
為菩提	-11.4597
別列	-11.4598
成上	-11.46
列名	-11.4602
若執	-11.4604
阿耨多羅三藐三菩提心	-11.4604
佛名	-11.4604
識性	-11.4605
我能修行	-11.4606
依般若波羅蜜多故	-11.4607
十者	-11.4611
無願故	-11.4611
乃至意	-11.4613
合釋	-11.4614
教眾生	-11.4616
佛境界	-11.4619
金剛般若波羅蜜	-11.4619
知彼	-11.462
四處	-11.4622
謨	-11.4627
亦無所見	-11.4628
我所執	-11.4629
高座	-11.4632
永不	-11.4633
一類	-11.4634
由畢竟空	-11.4638
英	-11.464
作是學	-11.4644
宰	-11.4644
教菩薩	-11.4644
啼	-11.4646
燭	-11.4646
苦故	-11.4651
泛	-11.4652
役	-11.4652
做	-11.4652
都無實事	-11.4653
榮	-11.4655
警	-11.4655
淳	-11.4656
迴向趣求一切智智	-11.4658
深解	-11.4659
飯食	-11.4662
阿毘跋致	-11.4662
嬈	-11.4662
口說	-11.4663
相應經典	-11.4664
本業	-11.4664
應淨	-11.4664
若取若捨	-11.4664
爛	-11.4666
乃至受持四句偈等	-11.4666
過去心不可得	-11.4667
欺	-11.4668
滿三千大千世界	-11.4668
損害	-11.4669
愧	-11.467
雙結	-11.4671
乃至非	-11.4673
根器	-11.4673
寤	-11.4675
名等	-11.4675
自取	-11.4676
與其	-11.4677
阿難白佛言	-11.4678
是名諸相具足	-11.4678
所說之法	-11.4678
是為菩薩摩訶薩修行般若波羅蜜多時	-11.468
曜	-11.4681
具如	-11.4683
獨覺作意	-11.4686
眾善	-11.4687
實相者	-11.4692
華嚴經云	-11.4693
閻浮提人	-11.4694
為真實	-11.4695
半偈	-11.4698
衣食	-11.4698
與法界	-11.4699
為大事	-11.4702
七歲	-11.4702
顯其	-11.4702
卷第四	-11.4707
從初發意	-11.4708
在心	-11.4708
近阿耨多羅三藐三菩提	-11.4709
放下	-11.4714
施物	-11.4716
以無我	-11.4718
實相故	-11.4719
如經云	-11.4721
問曰巳下	-11.4722
諸國王	-11.4723
何為	-11.4725
斷不	-11.4728
從上	-11.4729
是則名為	-11.4729
無我所	-11.4734
此四句	-11.4734
明鏡	-11.4734
亦依	-11.4734
電光	-11.4735
或令住	-11.4735
云何習	-11.474
必不	-11.4742
識得	-11.4743
菩薩藏	-11.4745
為初	-11.4745
第十三	-11.4747
菩提樹下	-11.4748
而有差別	-11.4748
果證	-11.4752
清淨故一切相智清淨	-11.4754
應觀耳	-11.4761
知一切	-11.4762
方便智	-11.4765
信行	-11.4766
依真	-11.477
謗佛	-11.477
以此經	-11.4771
金剛寶	-11.4772
斷集	-11.4778
灌	-11.4779
非有願非無願	-11.4779
弊魔	-11.4779
賴	-11.4779
八千	-11.4782
善達	-11.4782
助道	-11.4782
能為難事	-11.4784
以虛空為所趣	-11.4785
洪	-11.4785
廟	-11.4787
富樓那	-11.4788
祥	-11.4788
以有所得而為方便	-11.4788
不散	-11.4789
隨喜俱行諸福業事	-11.479
歟	-11.479
排	-11.4791
却住一面	-11.4791
巍巍	-11.4791
使我	-11.4791
而得生故	-11.4792
肅	-11.4792
調柔	-11.4793
房舍	-11.4795
充足	-11.4795
善事	-11.4796
䟽	-11.4796
施為	-11.4796
一切世間天人阿修羅	-11.4797
緩	-11.4797
讚嘆	-11.4798
置贍部洲	-11.4799
十方各如殑伽沙界	-11.4799
但於	-11.4799
摩尼珠	-11.4799
不滯	-11.48
堪受一切世間	-11.4801
分位	-11.4802
信心不逆	-11.4802
先已	-11.4803
皆成	-11.4803
利他行	-11.4803
欣樂	-11.4803
山河	-11.4804
亦從	-11.4806
若實有	-11.4806
人王	-11.4806
皆為非心	-11.4807
金剛杵	-11.4808
菩薩神通	-11.4808
上之	-11.4809
智度	-11.481
應如是降伏其心	-11.4811
不應貪著	-11.4817
至菩提	-11.4817
亦無非法相	-11.4817
有分	-11.4821
勇猛精進	-11.4823
是不生法	-11.4829
無示	-11.4829
能受持讀誦	-11.4829
如是義	-11.483
亦非有	-11.4831
云爾	-11.4833
量等	-11.4833
可為	-11.4842
得陀羅尼	-11.4845
更無別	-11.4847
轉變	-11.485
變動	-11.4852
不生執著	-11.4855
亦無增無減	-11.4858
已生	-11.4859
是實相者	-11.4859
自能	-11.486
是慧	-11.4866
此福德	-11.4866
詰	-11.4867
一相無相	-11.4867
甚深般若波羅蜜多亦復如是	-11.4869
般若波羅蜜甚深	-11.487
難事	-11.487
於眼	-11.4872
章門	-11.4873
三衣	-11.4878
識種	-11.4878
雪山	-11.4882
即是菩提	-11.4884
何事	-11.4886
不離空	-11.4887
諸受	-11.4887
應用	-11.4888
有頂	-11.4888
不依止	-11.4889
金剛手菩薩	-11.4891
凡夫法	-11.4895
道種性	-11.4896
此通	-11.4896
修一切智	-11.4898
不應住色	-11.4898
妙色	-11.4899
而於其中	-11.4899
增進	-11.49
次第緣	-11.4901
雖住	-11.4902
冠	-11.4904
乃至廣說	-11.4906
勿謂	-11.4909
不造	-11.4911
範	-11.4911
輔	-11.4914
爐	-11.4914
度也	-11.4915
深淺	-11.4916
嚮	-11.4918
如夢乃至如化	-11.4919
於此法門	-11.4919
瞋忿	-11.4919
為上首	-11.492
大圓	-11.492
非甚深非微細	-11.492
於其城中	-11.4921
學佛	-11.4922
盈	-11.4922
入無二法數	-11.4923
不為攝取	-11.4924
妙相	-11.4924
長者大族	-11.4925
䟦	-11.4926
無得無捨	-11.4926
速能圓滿	-11.4926
意根	-11.4927
俱非	-11.4927
若有罪若無罪	-11.4928
常生	-11.4928
品云	-11.4929
由是菩薩摩訶薩故	-11.493
不見有法可	-11.493
心緣	-11.493
性自爾	-11.4931
與一切有情同共迴向	-11.4931
粟	-11.4931
断	-11.4931
傾動	-11.4932
僅	-11.4932
縣	-11.4933
不二不別	-11.4934
環	-11.4934
1	-11.4934
痛想行識	-11.4935
勝福	-11.4936
常淨	-11.4936
深解義趣	-11.4936
共有	-11.4939
分別空不空	-11.4939
般若波羅蜜多祕密藏中	-11.4939
顯勝	-11.494
此人以是因緣	-11.4941
即為謗佛	-11.4942
強名	-11.4945
是故如來說名	-11.4947
此十	-11.4947
六祖曰	-11.4949
有益	-11.495
便得無上正等菩提	-11.4951
諸戲論	-11.4952
一標	-11.4952
說受	-11.4953
天樂	-11.4955
煩惱盡	-11.4957
之疑	-11.4962
之業	-11.4963
淨名云	-11.4963
老病死	-11.4963
如經中說	-11.4965
兩忘	-11.4966
三十心	-11.4966
諸所	-11.4969
勿於	-11.497
菩提樹	-11.497
皆由般若波羅蜜多	-11.497
我無所有故	-11.4971
略標	-11.4975
無價	-11.4976
四魔	-11.4977
無數無量無邊	-11.4978
及諸弟子	-11.4979
令無	-11.4981
通於	-11.4983
善思	-11.4985
般若波羅	-11.4985
無有分別	-11.4985
異色	-11.4985
結歎	-11.4987
聲聞及獨覺地	-11.4992
食之	-11.4993
出沒	-11.5002
住降	-11.5003
如燈	-11.5005
無有能	-11.5006
不厭	-11.5007
罪過	-11.5008
善利	-11.5009
不相應行	-11.501
佛地論	-11.501
有方便	-11.5012
黃金	-11.5014
解脫生死	-11.5014
經題	-11.5016
所說義	-11.5018
功德智慧	-11.502
梵本	-11.5021
五句	-11.5022
要由	-11.5024
亦勝	-11.5024
轉教	-11.5025
攝入	-11.5026
▁後別	-11.5027
滅色	-11.5027
如諸佛	-11.5027
正受	-11.5029
利益一切眾生	-11.5031
三災	-11.5032
成佛時	-11.5035
神我	-11.5036
尚畢竟無所有	-11.5036
二世	-11.5039
林中	-11.5041
如如來	-11.5042
示之	-11.5043
意說	-11.5043
翁	-11.5044
先有	-11.5045
此二種	-11.5047
修佛十力	-11.5052
無聞無見	-11.5052
娜	-11.5053
亦不從	-11.5054
著衣持鉢	-11.5056
如雲	-11.5057
是菩薩不能證	-11.5057
恁麼	-11.5058
創	-11.5058
萬里	-11.5059
無繁天	-11.506
法愛	-11.506
彌勒菩薩偈	-11.506
有菩薩摩訶薩具修六種波羅蜜	-11.506
為他人	-11.5061
是菩薩摩訶薩由此六種波羅蜜多	-11.5061
在內在外在兩間	-11.5062
四十二	-11.5062
青黃赤白	-11.5062
式	-11.5062
嫉	-11.5065
為父為母	-11.5065
南北	-11.5065
牢	-11.5065
成就如是方便善巧	-11.5066
行精進波羅蜜多	-11.5068
結跏趺坐	-11.5068
四正勤	-11.5068
利益安樂一切有情	-11.5069
決擇	-11.5069
菩薩摩訶薩所行般若波羅蜜多亦無邊	-11.507
菩薩前際不可得	-11.507
寡	-11.5071
我緣此意	-11.5071
悟道	-11.5073
沈沒	-11.5073
得成於忍	-11.5075
微塵數	-11.5075
貧賤	-11.5076
入城	-11.5076
印證	-11.5077
信力	-11.5077
髻	-11.5078
又前	-11.5079
如涅槃	-11.508
反釋	-11.508
賴耶	-11.5081
大火	-11.5083
後文	-11.5083
巳前	-11.5084
小乘人	-11.5084
會得	-11.5084
耆闍崛山	-11.5086
是故名一切法	-11.5088
色乃至法	-11.5088
依般若波羅蜜多	-11.5088
別顯	-11.5089
世法	-11.5091
般若波羅蜜多甚深	-11.5091
觀眾生	-11.5092
塗香	-11.5093
大仙	-11.5094
人趣	-11.5097
是菩薩摩訶薩由	-11.5099
悉得	-11.5102
餘本	-11.5102
則成	-11.5103
亦不起作諸行若有若無故學	-11.5103
無苦集滅道	-11.5104
無作者	-11.5104
以至	-11.5105
思之	-11.5107
何因緣	-11.5108
雖具	-11.5109
隨說	-11.5109
即非具足	-11.5112
慧光	-11.5118
不退轉記	-11.5121
上二句	-11.5125
所覆	-11.5129
無度	-11.513
六品	-11.513
一切法故	-11.5131
卷第六	-11.5132
識真如	-11.5136
佛世	-11.5137
此是空	-11.5138
常應圓滿	-11.514
未見	-11.5142
隨喜福德	-11.5142
幾時	-11.5147
記別	-11.515
以三乘法	-11.5153
科釋	-11.5153
耳識	-11.5154
假名為	-11.5154
相應法	-11.5154
此章	-11.5156
體非	-11.5159
諸緣	-11.5161
惟其	-11.5163
當從	-11.5163
密意	-11.5163
頂禮	-11.5166
無不趣	-11.5166
釋名	-11.5167
得解	-11.5168
尋常	-11.5172
無遺	-11.5173
已前	-11.5175
大光明	-11.5182
無間道	-11.5184
復云	-11.5186
作大作小	-11.5187
明淨	-11.5189
動搖	-11.5192
或曰	-11.5194
於身界	-11.5195
於鼻界	-11.5196
空寂清淨句義是菩薩句義	-11.5198
昌	-11.5198
菩薩摩訶薩行六波羅蜜時	-11.5199
何緣而說我清淨故	-11.5199
偶	-11.5201
涼	-11.5201
不以遠離不遠離分別	-11.5203
如所有性	-11.5203
不以有相無相分別	-11.5203
習行	-11.5203
於耳界	-11.5204
不以寂靜不寂靜分別	-11.5204
弓	-11.5205
不以生不生分別	-11.5205
不以滅不滅分別	-11.5205
分別生不生	-11.5205
分別滅不滅	-11.5205
無等無等等	-11.5207
沮	-11.5209
復還	-11.5209
法上菩薩摩訶薩	-11.5209
分別有相無相	-11.521
皎	-11.521
三摩提	-11.521
療	-11.5213
分別遠離不遠離	-11.5214
雖大	-11.5214
識處	-11.5214
鄙	-11.5215
先世罪業	-11.5216
聞其	-11.5216
遠離不遠離相	-11.5216
無厭足	-11.5216
若坐若臥	-11.5216
秦本	-11.5217
不可以身相得見如來	-11.5217
無去無來	-11.5218
長養	-11.5218
即為有佛	-11.5218
我相即是非相	-11.5218
如恒河中所有沙數	-11.5219
障道	-11.522
空不空相不可得	-11.5221
若彼	-11.5221
無相有相相不可得	-11.5221
樂苦相不可得	-11.5222
開士	-11.5224
秋露子	-11.5225
將此	-11.5226
乃至不見	-11.5227
恒河沙等	-11.5229
淨潔	-11.523
作者不可得故	-11.5232
何況有	-11.5233
無有恐怖	-11.5233
乃至云	-11.5234
修行精進波羅蜜多	-11.5234
劫盡	-11.5237
使受者	-11.5238
巳說	-11.524
攝諸有情	-11.5242
異耳	-11.5243
退轉故名不退轉	-11.5244
▁初總標	-11.5247
歸敬	-11.525
如來所說身相	-11.525
有學	-11.525
大義	-11.5253
五果	-11.5254
自性可得	-11.5255
無退轉	-11.5256
菩提終	-11.5256
疏文	-11.5256
因緣者	-11.5256
請問如來	-11.5256
觀聲	-11.5256
釋論	-11.5257
彼時	-11.5259
齊此	-11.526
表示	-11.526
一世	-11.5262
因義	-11.5263
來意	-11.5265
其間	-11.5266
淨穢	-11.5268
疾病	-11.5268
化為	-11.5272
起諸	-11.5275
引論	-11.5278
到處	-11.5278
行安忍波羅蜜多	-11.5279
音樂	-11.528
全無	-11.5284
不增減	-11.5285
雜香	-11.5286
不應生	-11.5286
如何是	-11.5286
於舌界	-11.5287
不生滅	-11.5288
卷第五	-11.5289
法身佛	-11.5296
在何處	-11.5296
退墮	-11.5298
護佛果	-11.5298
三界中	-11.5299
顯理	-11.5299
喻之	-11.5301
水月	-11.5301
無明盡	-11.5302
無耳	-11.5303
正思惟	-11.5305
以一切種	-11.5306
甚深般若波羅蜜	-11.5307
雜心	-11.531
入初禪	-11.531
如是隨喜迴向	-11.5313
於五陰	-11.5313
正等覺甚深般若波羅蜜多	-11.5315
第十六	-11.5317
業緣	-11.5317
如電	-11.5318
耳聞	-11.5318
世尊所說	-11.5322
不名菩薩	-11.5326
覺分	-11.5327
發此	-11.5327
無力	-11.5328
龍神	-11.533
海中	-11.5331
俱名	-11.5335
鎮	-11.5335
夢境	-11.5339
有樂	-11.5342
後後	-11.5343
實可得	-11.5344
梵會天	-11.5345
內護	-11.5345
蘆	-11.5345
怕	-11.5346
若動若住不可得故	-11.5347
不以有願無願分別	-11.5347
趨	-11.5347
四句偈等	-11.5348
心不動	-11.5348
無所顧戀	-11.5349
不離一切智智心	-11.5349
若屬生死若屬涅槃	-11.535
以漚惒拘舍羅	-11.5351
如來說非	-11.5351
此經文	-11.5351
如實知彼諸有情類	-11.5351
不以為	-11.5352
分別有願無願	-11.5352
空中無趣	-11.5352
子真說	-11.5353
所以為	-11.5353
考	-11.5354
四大洲	-11.5354
戒定慧	-11.5354
塔廟	-11.5356
星宿	-11.5356
殺害	-11.5357
分別寂靜不寂靜	-11.5358
童真	-11.5358
匝	-11.5359
是已生法	-11.536
亦不見有能攝受	-11.5361
得無所得	-11.5361
慚	-11.5361
以恒河沙等身命布施	-11.5362
及壞滅者	-11.5362
相隨	-11.5364
給侍	-11.5365
無願有願相不可得	-11.5365
尚不見有	-11.5365
申明	-11.5365
羸	-11.5366
以金剛	-11.5367
是名與般若波羅蜜相應	-11.5369
無得無說	-11.537
嗔恨	-11.537
令諸眾生	-11.5372
滅度眾生	-11.5376
無上正等覺	-11.5378
遙見	-11.5379
如幻如化	-11.5379
發光	-11.538
不放逸	-11.5387
八百	-11.5388
即諸法如義	-11.5392
下文云	-11.5395
善攝	-11.5396
忍苦	-11.5397
斯事	-11.5398
然雖	-11.5398
如師子	-11.5403
敬愛	-11.5403
歎德	-11.5406
▁初引	-11.5408
所行處	-11.5409
富樂	-11.541
修行安忍波羅蜜多	-11.5411
佛言須菩提	-11.5413
分文	-11.5414
要須	-11.5415
三約	-11.5415
亦教人	-11.5418
相望	-11.5421
之聲	-11.5421
依世俗	-11.5421
我無我相	-11.5422
若當來世	-11.5425
夢幻	-11.5431
問難	-11.5433
古云	-11.5436
無作解脫門	-11.5438
誦持	-11.544
未成佛	-11.5441
伺	-11.5444
若天	-11.5444
欲住	-11.5448
饒益一切有情	-11.545
四面	-11.5451
文二初	-11.5454
故今明	-11.5456
亦無所生	-11.5456
非非有	-11.546
結也	-11.546
同彼	-11.5461
不遠	-11.5461
五明	-11.5463
出息	-11.5464
而反	-11.5464
雖少	-11.5466
釋文	-11.5467
寶積	-11.5468
僧問	-11.5468
易知	-11.5468
無量有情	-11.5469
法華云	-11.547
耳鼻舌身意	-11.5472
知一切法無我	-11.5473
今復	-11.5473
若由此真如施設	-11.548
忠	-11.548
於斯	-11.548
秘	-11.548
第十八	-11.5482
勝果	-11.5483
踏	-11.5487
深廣	-11.5487
雖同	-11.5488
舍宅	-11.5488
筌	-11.5489
常不捨離	-11.5491
宗趣	-11.5491
亦無戲論	-11.5492
二論	-11.5492
泰	-11.5493
為師為導	-11.5494
秦譯	-11.5494
法身如來	-11.5494
輕蔑	-11.5495
有尋有伺	-11.5495
之矣	-11.5495
是無上呪	-11.5495
終歸	-11.5497
有願無願	-11.5498
若菩薩摩訶薩無方便善巧	-11.5499
疲乏	-11.5499
舒	-11.55
無相三昧	-11.5502
聞此法	-11.5502
小千世界	-11.5503
徐	-11.5504
不依勝義	-11.5504
欲往	-11.5505
取相故	-11.5505
生善	-11.5507
若以色見我	-11.5507
車乘	-11.5507
今且	-11.5508
所有一切眾生之類	-11.5508
踊	-11.5508
隨法行	-11.5509
是人行邪道	-11.551
故彼	-11.5511
妙果	-11.5512
如意珠	-11.5513
已斷	-11.5513
上乘	-11.5514
著處	-11.5514
不染不淨	-11.5514
不寂靜增語是菩薩摩訶薩	-11.5514
若有煩惱若無煩惱	-11.5515
麁惡	-11.5516
二無我	-11.5519
言詞	-11.5519
破其	-11.5519
破有	-11.5525
不苦不樂受	-11.5525
摩訶般若波羅蜜	-11.5526
中國	-11.5529
若行色	-11.5538
真我	-11.5541
五濁	-11.5543
皆是佛法	-11.5546
肯	-11.5547
以是行	-11.5547
不二故	-11.5553
非正	-11.5555
真如如來可得	-11.5557
名阿羅漢	-11.5558
真金	-11.5559
無量無所有故	-11.5561
不死	-11.5561
乞者	-11.5561
說波若	-11.5563
菩薩摩訶薩名亦復如是	-11.5566
瞻禮	-11.5568
教門	-11.5568
為習	-11.5568
今解	-11.557
分別說	-11.5575
當來世	-11.5582
同證	-11.5584
宣說正法	-11.5588
入禪定	-11.5594
告之曰	-11.5598
價	-11.5598
實無有	-11.5599
若梵	-11.56
性本空	-11.5602
肉眼見	-11.5602
一切惡魔	-11.5608
得不還果	-11.5614
世間不可思議相	-11.5616
摩訶般若	-11.5616
歡喜地	-11.5616
為我說	-11.5616
得一來果	-11.5621
我本	-11.5623
難處	-11.5624
若無想	-11.5624
於意界	-11.5625
世間寂靜相	-11.5625
散佛上	-11.5625
二別釋	-11.5625
慈無量	-11.5625
八苦	-11.5626
莫作	-11.5626
教者	-11.5628
又能	-11.563
是第一	-11.563
世間畢竟空相	-11.5631
世間遠離相	-11.5632
區	-11.5634
世間純空相	-11.5634
一切法無我	-11.5634
席	-11.5635
清淨即果清淨	-11.5638
少廣天	-11.5638
巳證	-11.5639
當時	-11.5639
無相相	-11.564
世間無性自性空相	-11.564
唐譯	-11.5641
有罪無罪	-11.5641
浩	-11.5642
無量廣天	-11.5642
有生有滅	-11.5642
諸事	-11.5643
生法二空	-11.5643
增語是菩薩摩訶薩	-11.5643
駕	-11.5644
房	-11.5645
聲香味觸法	-11.5645
不見少法	-11.5645
世間無性空相	-11.5646
飄	-11.5646
哥	-11.5646
四意斷	-11.5647
豪	-11.5647
異生法	-11.5647
臆	-11.5647
綿	-11.5648
人中最為第一	-11.5648
陷	-11.5648
大地獄	-11.5648
而不取	-11.5648
常共相應	-11.5649
甚可愛樂	-11.5649
冬	-11.5649
況能	-11.5649
天帝釋白佛言	-11.5651
如來說第一波羅蜜	-11.5651
可以身相見如來不	-11.5651
若取非法相	-11.5651
從坐起	-11.5652
聲聞法中	-11.5652
安慰	-11.5652
進退	-11.5653
聽聞正法	-11.5653
菩薩應離一切相	-11.5653
不在內不在外	-11.5654
調御	-11.5654
脈	-11.5656
本經	-11.5657
妙吉祥	-11.5658
體是	-11.5661
我當滅度無量眾生	-11.5662
多矣	-11.5664
十八種	-11.5664
筋	-11.5664
闓士大士	-11.5665
皆來	-11.5667
有所得故	-11.5667
無色相	-11.5668
八難	-11.5669
出世法	-11.567
無相之法	-11.5671
彼諸有情	-11.5672
亦不入	-11.5672
餘文	-11.5675
示導	-11.5676
真如中如來可得	-11.5679
後來	-11.5679
能了知	-11.5682
隨從	-11.5684
文分為	-11.5685
可愛	-11.5685
六十二	-11.5687
真性中	-11.5687
第二靜慮	-11.5689
不安	-11.569
審諦	-11.5692
諸道	-11.5693
不能動	-11.5698
從諸佛	-11.5699
能降伏	-11.5699
東西	-11.5704
除諸	-11.5705
如來悉知悉見	-11.5706
明法身	-11.5706
旨趣	-11.5707
皆爾	-11.5707
中有四	-11.571
增語非菩薩摩訶薩	-11.5712
第十七	-11.5714
行靜慮波羅蜜多	-11.5715
道種	-11.5716
何則	-11.5717
失念	-11.5717
已後	-11.5719
其國	-11.5719
如來有肉眼不	-11.5723
意顯	-11.5724
之所攝受	-11.5724
一切眾生皆	-11.5727
甫	-11.5729
修行四靜慮	-11.573
▁初約	-11.5735
無執	-11.5738
無去	-11.5741
莊嚴也	-11.5742
能具	-11.5744
而坐	-11.5745
濟拔	-11.5746
一切諸相	-11.5751
皆發無上正等覺心	-11.5758
初正明	-11.5762
諸法無所有	-11.5764
諸障	-11.5765
誨	-11.5769
躡	-11.5772
復作	-11.5773
不苦不樂	-11.5775
▁六	-11.5775
現法	-11.5775
為物	-11.5775
十卷	-11.5775
即由此真如施設	-11.5776
釋中	-11.5777
圓成實	-11.5779
異相為可得不	-11.5779
是故甚深	-11.578
求索	-11.5783
顛	-11.5785
捷	-11.5786
孫	-11.5786
金剛喻	-11.5788
見聞覺知	-11.579
重重	-11.579
何緣而說我無邊故	-11.579
難勝	-11.579
為歸為趣	-11.5791
非習非不習	-11.5791
法無生	-11.5791
無所取著	-11.5792
嗟	-11.5792
無垢無淨	-11.5795
入無餘依般涅槃界	-11.5795
健達縛	-11.5796
叵	-11.5796
變化身	-11.5796
難測	-11.5797
變成	-11.5797
聞是章句	-11.5798
政	-11.5799
貪著其事	-11.5799
如是展轉	-11.58
況有趣非趣可得	-11.5801
即是涅槃	-11.5801
之報	-11.5802
是可攝受	-11.5802
無我無人無眾生無壽者	-11.5804
未具足	-11.5805
即為著我人眾生壽者	-11.5805
聞此經典	-11.5808
為遣此疑	-11.5808
故說菩薩	-11.5808
菩薩為利益一切眾生	-11.5808
道支	-11.5808
或由	-11.5809
所言善法者	-11.5809
不應以三十二相觀如來	-11.5811
不應取	-11.5812
前中有二	-11.5812
巳悟	-11.5815
則失	-11.5817
實地	-11.5818
上根	-11.5818
亦隨	-11.5818
成其	-11.5819
摩尼	-11.5822
離分別	-11.5824
無轉	-11.5824
遮遣	-11.5825
異熟果	-11.5825
甚為	-11.5825
為此岸	-11.5827
我不作是念	-11.583
相學	-11.5831
感得	-11.5832
諸菩薩等	-11.5832
諸法空相	-11.5832
無淨	-11.5834
發阿耨多羅三耶三菩	-11.5837
可求	-11.5842
智藏	-11.5843
師長	-11.5843
是名一合相	-11.5846
一門	-11.5849
界等可得	-11.5849
相異	-11.5852
之位	-11.5853
乃真	-11.5853
唯取	-11.5854
凡夫者	-11.5854
如是語	-11.5854
無量阿僧祇劫	-11.5862
當知彼	-11.5862
無邊是畢竟淨	-11.5862
之苦	-11.5865
無聲	-11.587
千里	-11.5873
略舉	-11.5873
修行人	-11.5874
進修	-11.5874
▁界	-11.588
不示	-11.5881
諸法如義	-11.5881
周徧	-11.5882
隨處	-11.5883
如經說	-11.5885
佛祖	-11.5886
不為一切	-11.5889
悲願	-11.5889
其有眾生	-11.5889
不應作	-11.589
如來有所說法不	-11.589
滅智	-11.5892
諸佛功德	-11.5896
菩薩摩訶薩如是學	-11.5897
妄計	-11.5897
如是一切法	-11.5898
只在	-11.5899
加護	-11.59
言辭	-11.59
日夜	-11.5901
智論云	-11.5903
諸天等	-11.5903
正教	-11.5903
之際	-11.5906
於是處	-11.5906
種種莊嚴	-11.5907
將謂	-11.5908
求大菩提	-11.5911
於淨戒	-11.5915
邊見	-11.5916
般若波羅蜜多離	-11.5919
為人說	-11.592
是無等等呪	-11.5921
非實有性	-11.5922
乃至一切	-11.5922
雖常	-11.5922
不昧	-11.5922
肉身	-11.5925
死後	-11.5928
以此為	-11.5929
四倒	-11.5929
世間自性空相	-11.5929
薰	-11.5929
總為	-11.5931
仗	-11.5931
不欲令	-11.5932
於有情	-11.5932
是空性不	-11.5933
得大菩提	-11.5933
基	-11.5934
纓絡	-11.594
邑	-11.594
若菩薩摩訶薩起如是想	-11.594
怠	-11.5941
漂	-11.5941
為洲為渚	-11.5942
為明為炬	-11.5942
不住不習	-11.5944
翼	-11.5944
引經	-11.5944
作是行	-11.5944
金光明	-11.5944
菩薩摩訶薩所有	-11.5945
生欲界	-11.5945
苗	-11.5945
堅牢	-11.5946
譬若	-11.5947
科判	-11.5947
貴賤	-11.5948
窣堵波	-11.5949
纖	-11.595
折伏	-11.595
魅	-11.5951
東北方	-11.5952
以無所住為方便故	-11.5952
現在心不可得	-11.5952
能摧	-11.5953
行檀那波羅蜜	-11.5953
隨說是經	-11.5953
柔	-11.5953
一切智智離	-11.5957
長安	-11.5957
酥	-11.5957
剎利	-11.5958
疑悔	-11.5958
諸佛無上正等菩提離	-11.5959
如來說得福德多	-11.596
之首	-11.596
有忍	-11.5961
開演	-11.5963
憂悔	-11.5965
同學	-11.5966
歎人	-11.5967
我應滅度一切眾生	-11.5967
能顯	-11.5967
奉請	-11.5969
佛告慶喜	-11.597
欲得無上正等菩提	-11.597
迦羅	-11.597
能作是念	-11.5972
苦難	-11.5976
書般若波羅蜜	-11.5977
無雜	-11.5978
目前	-11.5979
則不得	-11.5981
勝慧	-11.5982
安得	-11.5983
巳斷	-11.5986
不離般若波羅蜜	-11.5988
善說	-11.5989
結歸	-11.5989
集智	-11.5989
方廣	-11.599
薄福	-11.5991
無取著	-11.5991
生福	-11.5994
形容	-11.5995
六法	-11.5997
一曰	-11.6
求其	-11.6
菩薩摩訶薩如是行	-11.6
於諸三昧	-11.6002
種種功德	-11.6005
設使	-11.6005
非凡夫	-11.6009
此與	-11.6011
總顯	-11.6015
我亦不	-11.6016
明度無極	-11.6016
不易	-11.6016
莫能	-11.6016
無所礙	-11.6018
三世佛	-11.6019
不得自在	-11.602
有體	-11.6023
作留難	-11.6024
舍利弗謂	-11.6026
故而現在前	-11.6028
一多	-11.6028
不瞋	-11.6029
常寂	-11.6032
別序	-11.6033
無作無為	-11.6037
間雜	-11.6038
未達	-11.6039
令眾生得	-11.6041
三苦	-11.6041
終始	-11.6043
無所得心	-11.6044
悉為	-11.6044
我亦不見	-11.6045
險	-11.6046
及弟子眾	-11.6046
下地	-11.6048
所有善根	-11.6048
都無所住	-11.6049
不止	-11.6049
是妄	-11.605
此云覺	-11.6051
不見法界	-11.6054
標名	-11.6055
:「『	-11.6058
起空想著	-11.6061
遍學	-11.6061
名稱	-11.6061
空不離	-11.6061
汝意云何	-11.6062
善現隨如來生	-11.6064
他性	-11.6066
亂意	-11.6066
本性空中	-11.6066
具明	-11.6071
忍波羅蜜	-11.6072
結云	-11.6072
真如理	-11.6075
是乘	-11.6075
乃成	-11.6075
各隨	-11.6075
奈	-11.6077
真如即如來真如	-11.6081
諸境	-11.6082
如來有佛眼	-11.6082
故言無	-11.6084
尚未	-11.6085
包含	-11.6085
則此大乘非尊非勝	-11.6087
此示	-11.6087
乍	-11.6089
今約	-11.609
精進波羅蜜	-11.609
且初第一標	-11.6091
管	-11.6092
轉正法輪	-11.6092
嶽	-11.6092
入三昧	-11.6092
不施	-11.6093
是菩薩摩訶薩修行般若波羅蜜多時	-11.6093
今時應學不應作證	-11.6093
疾疫	-11.6094
為救為護	-11.6095
為智為慧	-11.6095
為燈為照	-11.6096
能使	-11.6096
為解為覺	-11.6096
屬生死屬涅槃	-11.6096
轉妙法輪度無量眾	-11.6097
有佛無佛	-11.6098
發起序	-11.6098
黨	-11.6098
乃至無老死	-11.6098
餘二	-11.6099
若菩薩摩訶薩能如是行	-11.6101
布施起	-11.6102
貝	-11.6102
綸	-11.6102
內外空及有無空	-11.6103
奇特	-11.6104
為不退轉地菩薩摩訶薩遮遣	-11.6105
隨喜迴向無上正等菩提	-11.6105
屬生死	-11.6105
如汝所言	-11.6105
獨覺菩提離	-11.6106
雖云	-11.6106
當知般若波羅蜜多亦無生	-11.6106
卷第二十	-11.6107
應爾	-11.6108
憙	-11.6109
於真如如是學	-11.6109
毒蛇	-11.6111
所作事業	-11.6111
若樂小法者	-11.6112
實無有法名為菩薩	-11.6113
恒河沙數	-11.6113
到岸	-11.6113
如來有所說法耶	-11.6113
便能證得一切智智	-11.6114
領悟	-11.6114
餘妄語	-11.6117
具足檀波羅蜜	-11.6117
可忍	-11.6118
法性如來可得	-11.6118
愁憂	-11.6118
菩薩所作福德	-11.6119
能聽	-11.6119
生苦	-11.612
便證無上正等菩提	-11.6121
空中聲	-11.6124
忿怒	-11.6124
初解	-11.6124
能生信心	-11.6124
眾生眾生者	-11.6124
湛然清淨	-11.6125
▁後引	-11.6127
三世平等	-11.6131
酪	-11.6133
六衰	-11.6134
繫念	-11.6134
見思	-11.6136
殑伽沙	-11.6138
通序	-11.614
則非菩薩	-11.614
了別	-11.6141
色無常	-11.6141
乃至般若波羅蜜多	-11.6142
若尊重弟子	-11.6143
及聲聞	-11.6143
仁王經	-11.6144
空花	-11.6144
我行於	-11.6145
須菩提語舍利弗	-11.6146
如是觀察	-11.615
乃可	-11.6152
於事	-11.6152
於何法	-11.6152
并餘	-11.6156
高大	-11.6156
滿月	-11.6156
真如如來真如可得	-11.6158
不可思議性	-11.6158
常存	-11.6162
自歸	-11.6165
學無學	-11.6166
如來有所說法	-11.6169
以無所得	-11.6174
所得果	-11.6174
菩薩摩訶薩學般若波羅蜜	-11.6175
亦甚深	-11.6175
無受想行識	-11.6176
無所起	-11.6181
止遣	-11.6181
與他	-11.6182
此忍	-11.6183
不二相	-11.6185
著空	-11.6186
三千大千世界諸有情類	-11.6187
新發意	-11.6188
菩薩戒	-11.6189
於色界	-11.6189
種性地	-11.6189
不復更	-11.619
修四念住	-11.6191
生著	-11.6191
二慧	-11.6196
本性無縛無脫	-11.6198
▁後釋	-11.6198
不可分別	-11.6199
離散	-11.62
如來有肉眼	-11.62
清淨故道相智清淨	-11.62
比量	-11.6201
一切菩薩摩訶薩行離	-11.6205
汝言	-11.6207
善不善	-11.621
是名般若波羅蜜	-11.621
不殺生	-11.6215
若作是言	-11.6221
正業	-11.6222
勝利	-11.6223
知諸法實相	-11.6227
中不應住	-11.6227
壞法界耶	-11.6228
示以	-11.623
名摩訶薩	-11.6234
本來無	-11.6235
是阿耨多羅三藐三菩提	-11.6237
付屬	-11.6238
如諸如來	-11.624
別有法界	-11.6241
未出	-11.6244
及彼因果	-11.6246
不執受	-11.6247
無染無淨故清淨	-11.6247
所疑	-11.625
甚深般若波羅蜜多亦	-11.625
絲毫	-11.625
不起空	-11.6251
恍忽	-11.6251
為諸有情宣說開示	-11.6251
滅道	-11.6252
效	-11.6252
不見佛	-11.6252
四部弟子	-11.6253
無見無得	-11.6254
真遠離行	-11.6254
板	-11.6255
屢	-11.6255
殑伽沙數世界	-11.6255
骸	-11.6255
幼	-11.6256
逾	-11.6256
法性如來法性可得	-11.6258
人法俱空	-11.6258
從本已來	-11.6258
更無餘	-11.6259
俱泯	-11.6259
當知無數亦無所有	-11.6259
當知無邊亦無所有	-11.6259
乾闥婆	-11.6259
從佛聞	-11.626
恩德	-11.626
人壽	-11.626
堪任	-11.6261
不可取故無染污	-11.6261
及所壞滅	-11.6263
寂默	-11.6267
是人不解我所說義	-11.6268
我當有所說法	-11.6269
常無常增語	-11.627
無數無所有故	-11.6274
無有量	-11.6275
猶存	-11.6275
安住如是	-11.6276
修忍	-11.6276
勿動	-11.6276
聞說是法	-11.6276
緣一覺	-11.6277
未甞	-11.6279
我先	-11.628
求證無上正等菩提	-11.6281
解悟	-11.6283
從此以下	-11.6283
愍念	-11.6283
而說偈言	-11.6285
菩提心者	-11.6285
亦不可取	-11.6286
怨家	-11.6286
圓成實性	-11.6286
為二第一	-11.6286
佛子	-11.6295
得見如來	-11.6296
如是沙等恒河	-11.6296
答上	-11.6297
依論	-11.6297
羣生	-11.63
於此三千大千世界	-11.6301
未證	-11.6302
力用	-11.6303
無少	-11.6304
總釋	-11.6307
金剛薩埵	-11.6309
奉施	-11.631
界外	-11.6311
於一切處	-11.6311
身心精進	-11.6313
有如是分別	-11.6315
無染故	-11.6315
復告	-11.6316
唯在	-11.6317
於一切眾生中	-11.6318
無所依止	-11.6321
聲聞眾	-11.6324
於一切眾生	-11.6328
心之所	-11.6328
不絕	-11.633
與般若波羅蜜多清淨	-11.633
眼目	-11.6331
念般若波羅蜜	-11.6332
都無所見	-11.6334
次問	-11.6338
證理	-11.6338
問意云	-11.6344
如是行者	-11.6344
十六心	-11.6347
此據	-11.6348
若有想	-11.6354
實無眾生	-11.6354
菩薩亦爾	-11.6354
無所得法	-11.6356
外財	-11.6357
即非世界	-11.6359
不能解	-11.636
去處	-11.6361
見法身	-11.6364
成菩提	-11.6365
智德	-11.6366
邊地	-11.6369
然彼	-11.637
惱害	-11.6371
無定法	-11.6372
於境	-11.6373
大用	-11.6375
善法故	-11.6375
誰迴向	-11.6379
皆畢竟空	-11.6379
教體	-11.6379
▁初問	-11.6381
屬彼	-11.6381
信行地	-11.6384
慈恩	-11.6384
取相分別	-11.6385
涅槃樂	-11.6386
未入	-11.6387
譽	-11.6389
於中有三	-11.6392
一向無	-11.6395
一切相智真如	-11.6396
少欲	-11.6397
國人	-11.6398
不自在	-11.6398
破諸	-11.6399
於無上正等菩提得不退轉	-11.6399
失度	-11.64
此世界	-11.6401
康	-11.6401
苦因	-11.6401
茫	-11.6402
不證漏盡	-11.6403
狐	-11.6404
躍	-11.6405
不取不捨為方便故	-11.6405
鳴	-11.6407
偈釋	-11.6409
渠	-11.6409
產	-11.6411
祝	-11.6412
若時菩薩摩訶薩行深般若波羅蜜多	-11.6413
欲得阿耨多羅三藐三菩提	-11.6415
初分校量功德品第三十之	-11.6415
剎利大姓	-11.6416
摩訶薩般若波羅蜜多名大波羅蜜多	-11.6416
奢摩他	-11.6416
非聖	-11.6417
亦不分別	-11.6417
當知般若波羅蜜多亦無自性	-11.6417
方所	-11.6417
我是離欲阿羅漢	-11.6418
當知無量亦無所有	-11.6418
無性是	-11.6418
一貫	-11.6418
戍	-11.6419
趺	-11.6419
當知般若波羅蜜多亦不可思議	-11.6421
不恐不怖	-11.6421
清淨即一切智智清淨	-11.6423
象馬	-11.6423
流出何法	-11.6424
當何名此經	-11.6424
資財	-11.6425
複	-11.6425
當知般若波羅蜜多亦遠離	-11.6425
糞	-11.6426
此既不生則非	-11.6429
見佛性	-11.6429
師資	-11.6431
往詣	-11.6432
一切法平等性	-11.6432
浴	-11.6433
泥犁	-11.6434
并諸	-11.6434
無有差別	-11.6434
千分	-11.6434
醉	-11.6436
大千界	-11.6437
報得	-11.6438
顯揚	-11.644
如虛空無盡	-11.6441
不能盡	-11.6441
大海水	-11.6442
乃至無有少法可得	-11.6442
是菩薩摩訶薩住	-11.6444
未了	-11.6446
實想	-11.6448
夢想	-11.6452
非有相	-11.6453
淨命	-11.6455
不能令	-11.6456
如偈說	-11.6456
除去	-11.6457
平等法性	-11.6458
亦教他	-11.6459
是為不見	-11.646
一念中	-11.6461
是事實	-11.647
出現世間能成辦事	-11.6472
汝等不能	-11.6476
菩提法	-11.6479
佛述	-11.6483
加行位	-11.6484
後分	-11.6488
深遠	-11.6493
羅蜜	-11.6496
隨信行	-11.6499
閡	-11.6502
未說	-11.6504
不思	-11.6504
分為三	-11.6505
菩薩摩訶薩應如是	-11.6507
聖眾	-11.6509
初品中	-11.6511
之機	-11.6512
生滅增語	-11.6512
無上正等菩提不退轉記	-11.6513
受福	-11.6514
和合故有	-11.6516
求水	-11.6518
舍利弗問	-11.6518
修智慧	-11.6525
惑障	-11.6526
等諸煩惱	-11.6529
亦復然	-11.6529
心所念	-11.653
般若體	-11.6532
佛像	-11.6533
可取可著	-11.6536
為護	-11.6538
五位	-11.6538
悲愍	-11.6539
著想	-11.6541
若無數	-11.6542
第十五	-11.6543
即是法身	-11.6543
作饒益	-11.6543
本師	-11.6543
釋迦文佛	-11.6544
殷	-11.6545
水火	-11.6551
疾近	-11.6552
儀軌	-11.6556
靡不	-11.6556
而生於識	-11.6556
隨喜迴向亦應如是	-11.6557
亦令解脫無	-11.6558
以為依附	-11.6559
為彼岸	-11.6559
義句	-11.6559
工夫	-11.6562
莎訶	-11.6563
始是	-11.6563
諮	-11.6563
菩薩摩訶薩云何	-11.6563
院	-11.6564
大弟子	-11.6564
阿脩羅	-11.6564
□□□□	-11.6565
燋	-11.6566
抵	-11.6566
乃至安坐妙菩提座	-11.6568
菩薩聞是	-11.6569
說彼甲冑不屬	-11.6571
無相之理	-11.6571
泣	-11.6571
▁切	-11.6572
心不沈沒	-11.6572
廣為有情宣說流布	-11.6573
相即非相	-11.6575
受阿耨多羅三藐三菩提記	-11.6576
樂苦增語	-11.6577
無上丈夫	-11.6577
十方如恒河沙等世界	-11.6577
依內依外依兩中間不可得故	-11.6578
當知般若波羅蜜多亦無滅	-11.6578
有願無願增語	-11.6578
水陸	-11.6578
雜染清淨增語	-11.6579
波羅蜜多是般若波羅蜜多	-11.6579
前際不可得	-11.658
欠	-11.658
當知般若波羅蜜多亦無所有	-11.658
則不應	-11.658
者為作	-11.6581
金剛喻定	-11.6581
我無我增語	-11.6581
扇	-11.6582
住菩薩不退轉地	-11.6583
淨不淨增語	-11.6584
與一切智智清淨	-11.6586
悶	-11.6587
後際無所有性	-11.6587
丈六	-11.6587
空不空增語	-11.6588
施他讀誦	-11.6589
如來說有我者	-11.659
是名真	-11.659
以福德無故	-11.6591
狐疑不信	-11.6593
菩薩但應如所教住	-11.6593
豐樂	-11.6595
其母	-11.6597
住無所住	-11.6599
淨妙	-11.6599
幢相	-11.66
得須陀洹	-11.6601
令悟	-11.6603
不見性	-11.6604
我當莊嚴佛土	-11.6605
會通	-11.661
遠行	-11.6611
如是般若波羅蜜多甚深經典	-11.6615
乃至一切智	-11.6617
菩薩應如是布施	-11.6617
見地	-11.662
不能得一切智智	-11.6621
於虛空中	-11.6623
婆羅	-11.6624
清淨即般若波羅蜜多清淨	-11.6625
以不可得故	-11.6626
淨心地	-11.6626
而行施	-11.6626
卷第九	-11.6628
大旨	-11.6628
於此般若波羅蜜多甚深經典	-11.6629
堪受	-11.663
德行	-11.6631
閻浮提中	-11.6632
當作是知	-11.6632
非虗	-11.6632
持是功德	-11.6634
七寶塔	-11.6635
通明	-11.6635
教他修	-11.6635
非可貪	-11.6636
先釋	-11.6639
玄妙	-11.6643
下半	-11.6644
遠離不遠離增語	-11.6644
有為性	-11.6645
始覺	-11.6648
修善法	-11.665
於一切智智	-11.6652
汝能	-11.6654
次歎	-11.6655
四十四	-11.6656
極喜	-11.6657
離慢	-11.6657
之士	-11.6658
起惡	-11.666
妙身	-11.6661
頓教	-11.6664
觀禮	-11.6665
有所得心	-11.6666
心心所法	-11.6666
又如虛空	-11.6666
得授記	-11.6666
純淨	-11.6668
為根本	-11.6668
自稱	-11.6671
多種	-11.6673
現證	-11.6675
海水	-11.6677
在後	-11.6679
於預流	-11.6679
地地	-11.668
不沈	-11.6681
慧解脫	-11.6682
七空	-11.6684
般若心經	-11.6686
一音	-11.6687
一切物	-11.6688
▁初舉	-11.669
!」【	-11.6692
釋經文	-11.6694
遠離法	-11.6694
發心修行	-11.6695
千萬億	-11.6699
二百五十	-11.67
實慧	-11.6701
出其	-11.6701
結成疑	-11.6704
阿羅漢果離	-11.6705
行般若波羅蜜菩薩	-11.6708
疑曰	-11.671
菩薩摩訶薩大乘相	-11.671
一切智智清淨	-11.6713
勝空	-11.6715
在內若在外若在兩間	-11.6719
識性空	-11.6719
無願亦無散失	-11.672
離邪見	-11.672
思想	-11.672
次云	-11.6722
非我亦無散失	-11.6724
眾緣	-11.6725
不相屬	-11.6726
不以二故攝受	-11.6727
陰陽	-11.6727
能令眾生	-11.6727
芥	-11.6729
闊	-11.6729
乃爾	-11.6729
見由是法有取有著	-11.673
無眼耳鼻舌身意	-11.673
清淨與果清淨	-11.6731
證信序	-11.6732
史	-11.6732
七十二	-11.6733
涅	-11.6733
非菩薩非甲冑	-11.6734
麗	-11.6734
非樂亦無散失	-11.6735
不縛不解	-11.6735
調御士	-11.6735
顏丙	-11.6736
有增有減	-11.6736
三藐	-11.6736
非常亦無散失	-11.6736
亦非離	-11.6737
中際無所有性	-11.6737
若新學大乘菩薩摩訶薩不依般若	-11.6737
前已	-11.6737
明行圓滿	-11.6738
無為亦無散失	-11.6738
解脫智見	-11.6738
抱	-11.6738
菴	-11.6739
屬生死屬涅槃增語	-11.6739
有記法	-11.6741
當知般若波羅蜜多亦無覺知	-11.6742
諾	-11.6742
何況其沙	-11.6742
錯解	-11.6743
艱	-11.6743
疾得阿耨多羅三藐三菩提	-11.6743
有覺有觀	-11.6744
菩薩摩訶薩所行般若波羅蜜多亦大	-11.6744
由有菩薩摩訶薩故	-11.6744
是故如來說福德多	-11.6744
當知般若波羅蜜多亦無願	-11.6744
如焰	-11.6744
寂靜亦無散失	-11.6744
我今實言告汝	-11.6745
當知般若波羅蜜多亦寂靜	-11.6745
此一節	-11.6745
有相無相增語	-11.6746
如來昔在然燈佛所	-11.6747
使之	-11.6748
譏	-11.6749
於此中學	-11.6749
猛利	-11.6751
諸國	-11.6752
從緣生	-11.6753
苑	-11.6753
如來為發大乘者說	-11.6754
彼何所	-11.6754
十二緣起	-11.6756
其旨	-11.6756
有淺深	-11.6759
迴向薩婆若	-11.6759
地種	-11.676
舉其	-11.6763
▁蜜多	-11.6764
所應供養	-11.6767
離諸戲論	-11.6767
未離	-11.6767
有我相	-11.6768
無量阿僧祇眾生	-11.6768
幻作	-11.6768
果清淨即	-11.6771
道聖諦離	-11.6773
學六波羅蜜	-11.6777
得道者	-11.6777
當知般若波羅蜜多亦空	-11.6778
而無所入	-11.6778
十遍處離	-11.6782
總言	-11.6785
寂靜不寂靜增語	-11.6787
所傳	-11.6788
習氣相續	-11.6791
要見	-11.6792
正宗分	-11.6793
一毫	-11.6803
此即是	-11.6805
此三種	-11.6805
諸方	-11.6808
中際自性故	-11.6808
亦不執	-11.6811
菩薩摩訶薩大乘相者	-11.6812
深密	-11.6812
諸三摩地	-11.6814
是故汝等	-11.6814
不空想	-11.6815
法本無	-11.6816
蒙佛	-11.6816
邪法	-11.6818
天眼見	-11.6818
五重	-11.6818
慧命須菩提	-11.682
四王	-11.6822
寂光	-11.6824
斷滅相	-11.6824
六神通離	-11.6827
金剛輪	-11.6829
十二緣	-11.6836
菩薩於法	-11.6839
空即色	-11.6843
故偈云	-11.6844
惠施	-11.6844
難信解	-11.6845
轉身	-11.6847
過罪	-11.6847
之執	-11.6848
是鳥	-11.6849
此節	-11.685
▁二引	-11.6852
得無生	-11.6853
來至此	-11.6856
善士	-11.6857
至菩薩所	-11.6858
菩提資糧	-11.6861
行安忍者	-11.6861
空無我	-11.6861
捨法	-11.6863
所歸	-11.6866
度一切	-11.6872
有情離故	-11.6873
徵也	-11.6873
色像	-11.6874
諸經法	-11.6874
如須彌山	-11.6879
視之	-11.688
不獨	-11.6881
含受	-11.6884
皆不可行	-11.6884
凡情	-11.6888
堪忍	-11.6888
或有人	-11.6889
如來有天眼	-11.6891
裡	-11.6891
亦不知	-11.6891
但隨	-11.6892
本性可能迴向	-11.6893
所依止	-11.6894
諸師	-11.6894
住大乘善男子等	-11.6894
如實覺	-11.6894
耽	-11.6895
鋒	-11.6895
不謗	-11.6896
雖於先世得聞	-11.6897
在兩間增語是菩薩摩訶薩	-11.6897
之喻	-11.6897
姑	-11.6898
伐	-11.6898
穴	-11.6898
當於一切有情起	-11.6898
朱	-11.6899
遠離亦無散失	-11.6899
中亦有	-11.6899
非合非散	-11.6899
若可得若不可得增語是菩薩摩訶薩	-11.6901
槃	-11.6901
若可得若不可得增語非菩薩摩訶薩	-11.6902
若新學大乘菩薩摩訶薩依般若	-11.6902
若樂若苦增語是菩薩摩訶薩	-11.6903
可得不可得增語	-11.6903
若樂若苦增語非菩薩摩訶薩	-11.6903
冰	-11.6903
若我若無我增語非菩薩摩訶薩	-11.6903
菩薩摩訶薩於色法中	-11.6903
若常若無常增語是菩薩摩訶薩	-11.6904
若善若非善增語是菩薩摩訶薩	-11.6904
若屬生死若屬涅槃增語非菩薩摩訶薩	-11.6904
若屬生死若屬涅槃增語是菩薩摩訶薩	-11.6904
若善若非善增語非菩薩摩訶薩	-11.6905
若我若無我增語是菩薩摩訶薩	-11.6905
若有罪若無罪增語是菩薩摩訶薩	-11.6905
若有煩惱若無煩惱增語非菩薩摩訶薩	-11.6905
有罪無罪增語	-11.6905
若世間若出世間增語是菩薩摩訶薩	-11.6905
普明王	-11.6906
圓滿及不圓滿	-11.6906
若寂靜若不寂靜增語是菩薩摩訶薩	-11.6906
善非善增語	-11.6906
若雜染若清淨增語非菩薩摩訶薩	-11.6906
初唱經	-11.6906
若有為若無為增語是菩薩摩訶薩	-11.6906
若寂靜若不寂靜增語非菩薩摩訶薩	-11.6907
生信心不	-11.6907
若生若滅增語非菩薩摩訶薩	-11.6907
怯	-11.6907
若有漏若無漏增語非菩薩摩訶薩	-11.6907
若有相若無相增語是菩薩摩訶薩	-11.6907
湯	-11.6907
經一晝夜	-11.6907
若空若不空增語是菩薩摩訶薩	-11.6907
迷悶	-11.6907
若有相若無相增語非菩薩摩訶薩	-11.6908
當知般若波羅蜜多勢力亦不成就	-11.6908
有漏無漏增語	-11.6908
勢力不成就故	-11.6908
退坐一面	-11.6908
離故一切智智亦離	-11.6908
坐菩提座	-11.6909
有為無為增語	-11.6909
若淨若不淨增語是菩薩摩訶薩	-11.6909
生實信不	-11.691
若正信解	-11.691
空亦有出住	-11.691
非理	-11.691
菩薩摩訶薩所行般若波羅蜜多亦說	-11.691
周圓	-11.6912
所教	-11.6913
行精進者	-11.6913
白雲	-11.6914
發勤精進	-11.6915
以今世人輕賤故	-11.6915
本處	-11.6915
我等云何奉持	-11.6915
端緒	-11.6916
狼	-11.6916
善女人等書寫如是甚深般若波羅蜜多	-11.6916
十二年	-11.6917
以恒河沙等身布施	-11.6918
摩訶衍亦如是	-11.6918
債	-11.6918
當知般若波羅蜜多亦不可得	-11.6918
雖異	-11.6919
皆有佛性	-11.6919
不思惟一切相	-11.6919
若世界實有者	-11.6919
無暇	-11.692
劇	-11.6921
能感	-11.6923
欝	-11.6925
隨生	-11.6926
樹木	-11.6927
無量種	-11.6928
金花	-11.6929
獨覺等	-11.6933
皆如實知	-11.6936
自性無故	-11.6936
流注	-11.6936
涅槃經云	-11.6938
尊者善現	-11.6939
隨類	-11.694
少惱	-11.6941
為所依止	-11.6943
無依處	-11.6943
譬如大	-11.6944
暫捨	-11.6944
第二時	-11.6944
恒住捨性離	-11.6945
傳法	-11.6947
法利	-11.6949
菩薩摩訶薩遠離般若波羅蜜多	-11.6952
既悟	-11.6952
過去未來	-11.6953
我人等相	-11.6956
立於	-11.6956
無一法	-11.6957
大部	-11.6957
少聞	-11.6958
五品	-11.6965
六萬	-11.6969
諸如是等	-11.6969
可畏	-11.697
勿生	-11.6973
已復	-11.6975
十年	-11.6976
觀諸法空	-11.6977
俱遣	-11.6979
此一句	-11.698
況有念	-11.6981
四德	-11.6981
右手	-11.6987
照破	-11.6987
於然燈佛所	-11.6988
空中無	-11.6989
真如法身	-11.6989
承上文	-11.699
論意	-11.6992
一經之	-11.6993
護果	-11.6994
隨意所	-11.6995
罪人	-11.6997
非我所	-11.6997
釋迦如來	-11.6998
夢見	-11.6999
作是語	-11.7
波羅密	-11.7003
不憂	-11.7004
故名般若波羅蜜多	-11.7007
皆本性空故	-11.701
是有法	-11.7017
要知	-11.7017
理性	-11.7018
一切法不可得故	-11.7019
親見	-11.7019
諸禪定	-11.702
萬歲	-11.702
善巧智	-11.7026
有六種	-11.7026
破惡	-11.7026
大般若經	-11.7026
今略	-11.7026
令學	-11.7027
初引	-11.7028
寂照	-11.7029
十界	-11.7031
二別顯	-11.7031
蜜多	-11.7032
二乘地	-11.7033
必無	-11.7033
自性無所有不可得	-11.7035
多劫	-11.7038
有礙	-11.7041
金剛定	-11.7041
色界諸天子	-11.7041
許多	-11.7044
如華嚴	-11.7046
執著有性	-11.7047
全是	-11.7049
得菩提耶	-11.7052
所稱讚	-11.7052
不敬	-11.7056
甚多於彼無量無邊	-11.7056
三十五	-11.7057
練磨	-11.7058
後解	-11.7059
㸦	-11.7059
養育	-11.7062
可得若不可得	-11.7062
暴	-11.7062
焚	-11.7063
藐	-11.7064
而不請問甚深義趣	-11.7065
死時	-11.7066
皆以無性而為自性	-11.7067
膽	-11.7069
色即是空空即是色	-11.707
仲	-11.707
漸次圓滿	-11.7072
相非相	-11.7072
隨汝意	-11.7073
不可得故作者不可得	-11.7073
促	-11.7073
溫	-11.7074
有煩惱無煩惱	-11.7074
若常若無常增語非菩薩摩訶薩	-11.7074
三賢十聖	-11.7074
若有煩惱若無煩惱增語是菩薩摩訶薩	-11.7074
若遠離若不遠離增語非菩薩摩訶薩	-11.7074
若雜染若清淨增語是菩薩摩訶薩	-11.7074
有煩惱無煩惱增語	-11.7075
而於此事無所取著	-11.7075
不入色聲香味觸法	-11.7075
若世間若出世間增語非菩薩摩訶薩	-11.7075
若生若滅增語是菩薩摩訶薩	-11.7075
若有願若無願增語是菩薩摩訶薩	-11.7075
上忍	-11.7075
若有願若無願增語非菩薩摩訶薩	-11.7076
若淨若不淨增語非菩薩摩訶薩	-11.7076
阿閦佛	-11.7076
若有漏若無漏增語是菩薩摩訶薩	-11.7076
凌	-11.7076
甲冑	-11.7077
若空若不空增語非菩薩摩訶薩	-11.7077
奴	-11.7077
持淨戒	-11.7079
游	-11.7079
乃至意識界	-11.708
緊	-11.708
屬涅槃增語是菩薩摩訶薩	-11.708
逕	-11.708
矯	-11.7081
若是經典所在之處	-11.7082
若復有人得聞是經	-11.7083
乃至八聖道支	-11.7085
歷劫	-11.7086
羯磨	-11.7086
華嚴經	-11.7087
供養如來	-11.7088
平等智	-11.7088
十度	-11.7089
持說此經	-11.7089
亦作大作小	-11.709
入無餘	-11.709
不如有人	-11.7091
無法空	-11.7091
聞說是經	-11.7092
各持	-11.7093
而實無往來	-11.7093
前際無所有性	-11.7094
千萬億分	-11.7094
餘殘	-11.7094
釋氏	-11.7096
如來得阿耨多羅三藐三菩提耶	-11.7096
人法二空	-11.7098
執我及世間	-11.7098
四維	-11.7099
百千萬億分	-11.71
勒	-11.7101
修學此法	-11.7101
不應取著	-11.7101
多亦離	-11.7102
得阿羅漢道	-11.7103
當知即是	-11.7104
拔苦	-11.7105
得脫	-11.7106
還復	-11.7106
究竟即非	-11.7106
適悅	-11.7106
如來悉知是人	-11.7107
我當度眾生	-11.7108
是為魔事	-11.7109
沙等	-11.7111
一片	-11.7114
觸處	-11.7115
無妄	-11.7117
覺已	-11.7117
眾僧	-11.7119
迴向無上菩提	-11.712
無所執	-11.7121
我人等見	-11.7121
輕重	-11.7121
要人	-11.7122
習忍	-11.7124
化利	-11.7125
習種	-11.7127
至涅槃	-11.7127
可得不可得	-11.713
惡獸	-11.7135
教理	-11.7139
眾緣和合	-11.714
即生實相	-11.7141
勝因	-11.7141
佛乃	-11.7142
惡事	-11.7143
既聞	-11.7143
眼耳	-11.7146
是不名菩薩	-11.7148
阿鞞跋致菩薩	-11.7151
有德	-11.7153
性尚無所有	-11.7154
空不空相	-11.7156
離故六波羅蜜	-11.7159
眼乃至意	-11.7159
堪能	-11.7159
能如是學	-11.716
如金	-11.7161
所譯	-11.7163
終至	-11.7163
求道	-11.7164
所有諸	-11.7165
明暗	-11.7176
其心不驚	-11.718
不墮惡趣	-11.7181
清淨故無相解脫門清淨	-11.7183
常作是念	-11.7185
順釋	-11.7187
癡法	-11.7187
如來真如即	-11.7188
諸微塵	-11.7188
施寶	-11.7189
行六度	-11.7194
▁二約	-11.7194
有一法	-11.7195
以何因緣	-11.7197
日輪	-11.7197
諦理	-11.7198
水劫	-11.7201
法雲	-11.7204
一切諸法皆	-11.7204
謙	-11.7205
不食	-11.7205
所得法	-11.7206
此第三	-11.7206
親近諸佛	-11.7206
還去	-11.7206
轉識	-11.7207
際是名	-11.7208
阿惟三佛	-11.7209
空自性空故	-11.7209
業識	-11.7212
無二相故	-11.7216
上半	-11.7216
器界	-11.7218
思惑	-11.7218
功德藏	-11.7224
魏經	-11.7226
清淨故四無量清淨	-11.7227
修梵行	-11.7228
無常無恒	-11.7229
緣緣	-11.723
衰損	-11.723
若菩薩摩訶薩不思惟	-11.723
不念有	-11.7231
轉少分人	-11.7232
黎	-11.7233
如來有法眼	-11.7233
諸菩薩摩訶薩從初發心	-11.7234
畢竟都無所有	-11.7235
呪者	-11.7236
煉	-11.7236
若法本性空則	-11.7237
歇	-11.7237
練	-11.7238
暮	-11.7238
豁	-11.7239
槩	-11.7239
螺	-11.7239
亦不行於	-11.7239
於夢中	-11.724
為棄捨	-11.7241
掛	-11.7241
云何當學	-11.7243
費	-11.7243
說是清淨不轉不續	-11.7243
轉妙法輪度有情眾	-11.7244
6	-11.7244
踐	-11.7244
我人知見	-11.7245
閣	-11.7245
說是清淨本性光潔	-11.7245
若有罪若無罪增語非菩薩摩訶薩	-11.7245
令其易了	-11.7246
令獲究竟常樂涅槃	-11.7246
行於非處	-11.7246
說是清淨最為甚深	-11.7246
若有為若無為增語非菩薩摩訶薩	-11.7246
無作無止	-11.7247
豎	-11.7247
滴	-11.7247
阿蘭那	-11.7247
憂悲苦惱	-11.7247
世間出世間增語	-11.7249
悲泣	-11.7249
廣長舌	-11.7249
初文二	-11.7249
說是清淨本無雜染	-11.725
安住布施	-11.725
若能證得一切智法	-11.7251
則能證得一切智法	-11.7251
兜率陀天	-11.7251
無可說事	-11.7251
不一不異	-11.7251
襲	-11.7252
若心取相	-11.7252
乃能具足修諸菩薩摩訶薩行	-11.7252
曇	-11.7253
薪	-11.7253
其罪	-11.7254
不起不思議想	-11.7254
輒	-11.7254
如筏喻者	-11.7255
勸導	-11.7256
階級	-11.7257
嗅	-11.7257
非所作故	-11.7257
遍一切處	-11.7257
無可得事	-11.7258
不虛妄	-11.7259
脇	-11.7259
與我授記	-11.726
心之所念	-11.726
而無二想	-11.7261
等義也	-11.7261
汝勿謂如來作是念	-11.7262
繫屬	-11.7264
向佛	-11.7264
如來說是沙	-11.7264
王宮	-11.7264
佛可以具足色身見不	-11.7265
如夢幻泡影	-11.7265
舍利子便白佛言	-11.7265
是故般若波羅蜜多	-11.7266
某甲	-11.7266
鞭	-11.7266
菩薩摩訶薩般若波羅蜜多	-11.7266
千億	-11.7267
當知般若波羅蜜多亦無相	-11.7267
是故說不受福德	-11.7269
亦不退失	-11.727
墮聲聞或獨覺地	-11.727
斯經	-11.7273
若菩薩摩訶薩欲得	-11.7275
拔出	-11.7276
五情	-11.7278
相傳	-11.7278
過一切	-11.7278
衣鉢	-11.7278
是名微塵眾	-11.728
或一來果	-11.7281
鈔云	-11.7282
四段	-11.7285
文略	-11.7285
行淨戒者	-11.7286
住菩薩乘善男子等	-11.7287
未成	-11.7288
惡鬼	-11.7288
清淨故法界清淨	-11.7289
與他人	-11.7289
我作是說	-11.7289
持戒修福	-11.7291
樂苦相	-11.7292
轉還	-11.7295
真如平等故	-11.7298
四十二字	-11.7299
入禪	-11.7301
天宮	-11.7302
學一切法	-11.7304
所聞法	-11.7304
慢心	-11.7307
說譬喻	-11.7307
教誡	-11.7308
墮三惡道	-11.7311
比知	-11.7318
不迷	-11.7322
妄起	-11.7325
無容	-11.7326
十方無邊世界	-11.7329
不自在故	-11.7335
持鉢	-11.7335
指出	-11.7338
以諸菩薩	-11.7343
諸物	-11.7344
心源	-11.7346
明白	-11.7349
是菩薩摩訶薩能於	-11.735
為諸菩薩	-11.7356
覺滿	-11.7357
所縛	-11.7358
座上	-11.7359
集會	-11.7359
無所罣礙	-11.7359
江河	-11.7361
以是故言	-11.7363
至薩云若	-11.7365
若卵生	-11.7367
是故如來說	-11.7368
亦非無相	-11.7369
爾乃	-11.7374
行布施時	-11.7374
悟真空	-11.7375
平等不平等性故	-11.7377
有幾	-11.7381
欲斷	-11.7381
二十七疑	-11.7382
護十地行	-11.7385
佛慧	-11.7392
神通波羅蜜多	-11.7392
無性自性無動	-11.7393
本清淨	-11.7397
足下	-11.7398
倪	-11.7399
無願有願相	-11.7399
識無邊處	-11.74
肇	-11.7401
杵	-11.7401
能遍	-11.7403
須陀洹道	-11.7404
清淨故四無色定清淨	-11.7405
祈	-11.7407
既不墮三界	-11.7409
清淨故淨戒波羅蜜多清淨	-11.741
腦	-11.741
不行聲	-11.7411
聊	-11.7412
清淨故集聖諦清淨	-11.7413
以是故知	-11.7414
無不盡	-11.7414
清淨故一來果清淨	-11.7415
本寂	-11.7415
三藏法師玄奘奉詔譯第二分	-11.7415
掩	-11.7415
拾	-11.7417
答意	-11.7417
修菩薩道	-11.7418
離即一切智智離	-11.7419
皆本性空	-11.7419
難勝地	-11.7419
世間純無相	-11.742
異故性亦應異	-11.742
無文字是	-11.742
在內在外在兩間增語	-11.742
散無散空	-11.742
阿僧祗	-11.742
當知如是住及作意亦無	-11.7421
勝智	-11.7422
勇健	-11.7422
與諸有情作大饒益	-11.7422
亦無住異而可施設	-11.7423
若遠離若不遠離增語是菩薩摩訶薩	-11.7423
無邊不可思議清淨佛法	-11.7423
7	-11.7424
清淨故無願解脫門清淨	-11.7424
雖能示現	-11.7425
發生隨喜迴向無上正等菩提	-11.7425
囊	-11.7425
八由行	-11.7425
是菩薩摩訶薩能與六種波羅蜜多	-11.7426
如是般若波羅蜜多甚深理中	-11.7426
▁南無	-11.7427
上二界	-11.7428
逸	-11.7428
居輕利	-11.7429
斗	-11.7431
若是所遍知若非所遍知	-11.7432
如是菩薩摩訶薩修行般若波羅蜜多時	-11.7433
是人先世罪業	-11.7433
菩薩淨戒波羅蜜多	-11.7433
若轉書寫	-11.7433
驚疑	-11.7433
不誑語者	-11.7434
若諸菩薩摩訶薩眾	-11.7434
祀	-11.7435
聖胎	-11.7437
渧	-11.7437
清淨故八勝處清淨	-11.7439
清淨故外空清淨	-11.744
敬信	-11.744
若福德有實	-11.7441
清淨故四無所畏清淨	-11.7441
白淨	-11.7442
成實論	-11.7443
清淨故四正斷清淨	-11.7443
宣說法要	-11.7446
八正道	-11.7446
各一	-11.7446
求般若波羅蜜	-11.7449
新學	-11.745
先尼	-11.7452
檀越	-11.7453
兩字	-11.7455
自恃	-11.7455
下二明	-11.7456
異畢竟不生	-11.7457
具足相	-11.7457
花果	-11.7457
而生貪愛	-11.7462
是名凡夫	-11.7463
娑婆	-11.7465
無少法	-11.7466
名修般若波羅蜜多	-11.7467
勝功德	-11.7469
往彼	-11.747
得其便	-11.7471
三十二分	-11.7473
濕生	-11.7476
乃至如來地	-11.7478
虛實	-11.7479
一切法平等	-11.748
摧伏	-11.748
非佛法	-11.7482
所護念	-11.7484
有諸菩薩	-11.7485
於十方	-11.7486
結成疑也	-11.7489
萬象	-11.7489
正命	-11.749
如實知色	-11.7492
西來	-11.7492
色無縛無解	-11.7494
汝所問	-11.7498
令汝	-11.75
大丈夫	-11.7501
去聲	-11.7504
諍論	-11.7504
且如	-11.7504
益物	-11.7504
諸有為法	-11.7504
復有菩薩摩訶薩	-11.7506
老病	-11.7506
其功	-11.7507
作功德	-11.7508
進趣	-11.7508
佛說微塵眾	-11.751
有為之法	-11.751
次第行	-11.7513
無損	-11.7513
阿修羅等	-11.7518
離貪欲	-11.7519
彼國	-11.752
瓔珞經	-11.7521
皆得自在	-11.7524
舉體	-11.7525
領受	-11.7525
不見聲	-11.7526
三合	-11.7526
了然	-11.7529
能障	-11.7532
所證法	-11.7533
若無菩薩	-11.7536
而於其中不	-11.7537
賢劫	-11.7541
求福	-11.7541
無是處	-11.7542
如來真如平等故	-11.7544
感應	-11.7545
凡愚	-11.7549
一切智智清淨即	-11.7559
無所得而為方便	-11.7561
恭敬尊重讚歎	-11.7562
如是修學	-11.7566
是諸菩薩摩訶薩眾	-11.7569
無名相	-11.7572
七覺	-11.7573
無方便善巧故	-11.7574
未起	-11.7579
所起隨喜迴向	-11.7579
無相有相相	-11.758
根未熟	-11.758
名應知不應著	-11.758
智印	-11.758
之情	-11.7581
都無實性	-11.7585
亦不思惟一切所緣	-11.7586
永斷一切煩惱習氣相續	-11.7586
生信心	-11.7586
悞	-11.7586
有實性者	-11.7586
無量無數無邊有情	-11.7589
心無所著	-11.759
相相應之心	-11.759
未發	-11.759
籍	-11.7591
誦念	-11.7592
滌	-11.7594
瑕	-11.7594
性輪故	-11.7594
剎帝利大族	-11.7595
無諍行	-11.7595
智體	-11.7595
料簡	-11.7595
鬱	-11.7596
隣近	-11.7596
側	-11.7597
合掌恭敬而白佛言	-11.7601
修行般若波羅蜜多觀諸法時	-11.7601
悉知是人	-11.7601
不堅固	-11.7602
四十八	-11.7602
無嗔	-11.7602
中千世界	-11.7603
造作諸業	-11.7603
清淨故五根清淨	-11.7603
即為非住	-11.7604
云何可言此是	-11.7604
飽	-11.7604
受諸苦惱	-11.7605
疲倦	-11.7605
耆	-11.7605
長壽	-11.7605
腰	-11.7605
滅壞	-11.7606
起疑	-11.7607
菩薩無住相布施	-11.7607
豆	-11.7607
四無礙慧	-11.7607
洹	-11.7608
救度	-11.7609
如來說人身長大	-11.7609
南西北方四維上下	-11.761
廓然	-11.7611
毗曇	-11.7611
刊定記	-11.7611
而實無不來	-11.7612
只為	-11.7614
吞	-11.7614
以音聲求我	-11.7614
舍婆提	-11.7615
凡所	-11.7616
裸	-11.7617
定力	-11.7617
速圓滿	-11.7618
行靜慮者	-11.7621
所言法相者	-11.7621
或有人聞	-11.7622
菩薩摩訶薩亦復如是	-11.7624
下第三明	-11.7626
昭然	-11.7626
趣求	-11.7629
無量無邊有情	-11.7631
可取可著不	-11.7632
清淨故法定清淨	-11.7632
清淨故大慈清淨	-11.7633
度苦	-11.7633
如是等諸	-11.7634
清淨故無際空清淨	-11.7634
清淨故空空清淨	-11.7635
清淨故無性空清淨	-11.7636
清淨故精進波羅蜜多清淨	-11.7636
清淨故大悲清淨	-11.7636
清淨故大空清淨	-11.7636
清淨故不還果清淨	-11.7637
清淨故共相空清淨	-11.7637
清淨故九次第定清淨	-11.7637
清淨故離生性清淨	-11.7637
不離於法界	-11.7637
清淨故無變異空清淨	-11.7637
清淨故四神足清淨	-11.7637
清淨故畢竟空清淨	-11.7638
清淨故散空清淨	-11.7638
清淨故大捨清淨	-11.7638
清淨故四無礙解清淨	-11.7638
清淨故自性空清淨	-11.7639
清淨故七等覺支清淨	-11.7639
清淨故平等性清淨	-11.764
真如無盡	-11.764
清淨故自相空清淨	-11.764
清淨故不可得空清淨	-11.764
大會	-11.764
一切法皆是佛法	-11.7641
清淨故靜慮波羅蜜多清淨	-11.7642
清淨故無為空清淨	-11.7642
破無明	-11.7644
清淨故有為空清淨	-11.7644
清淨故法性清淨	-11.7645
未熟	-11.7652
三總結	-11.7654
愚癡人	-11.7655
此即第一	-11.7656
死苦	-11.7658
彼岸到	-11.7659
三十三	-11.766
威光	-11.766
何容	-11.7661
下忍	-11.7662
二乘之人	-11.7663
四洲	-11.7664
對待	-11.7664
邪命	-11.7667
展轉相	-11.7667
開發	-11.7667
捨施	-11.7668
布施波羅蜜多乃至般若波羅蜜多離	-11.7668
證無為	-11.7669
非離色	-11.767
非大身	-11.767
能受持讀誦此經	-11.7671
未發心	-11.7673
諸山	-11.7676
有菩薩摩訶薩耶	-11.7679
遣相	-11.7682
乃至涅槃	-11.7684
根本無明	-11.7684
耳根	-11.7685
墮在	-11.7689
文三初	-11.769
菩薩住是	-11.769
於六波羅蜜	-11.7692
一切世界	-11.7696
寂靜散亂	-11.7698
應勤修學	-11.7698
所習	-11.7698
不隨他	-11.7699
盡矣	-11.77
菩薩句義無所有	-11.7703
諸聖人	-11.7707
無礙解脫	-11.7708
化物	-11.7708
喻般若	-11.7711
色即空	-11.7712
清淨故無性自性空清淨	-11.7712
支體	-11.7714
若菩薩摩訶薩行深般若波羅蜜多	-11.7714
清淨故十八佛不共法清淨	-11.7715
九喻	-11.7715
清淨故不思議界清淨	-11.7715
清淨故八聖道支清淨	-11.7715
精進修行	-11.7716
為微塵	-11.7717
是為菩薩摩訶薩應遠離	-11.7726
何者為	-11.7726
餘五	-11.7728
如是菩薩摩訶薩眾	-11.7728
為遮	-11.7728
卷第一	-11.773
云何菩薩摩訶薩應遠離	-11.773
成阿耨多羅三藐三菩提	-11.7732
執情	-11.7733
入地	-11.7736
欲破	-11.7737
相狀	-11.7737
入地獄	-11.7739
所獲福	-11.7739
得悟	-11.7745
離故有情離	-11.775
不證實際	-11.7751
無生滅故	-11.7751
全身	-11.7753
容受	-11.7758
用無所得為方便	-11.7761
十二種	-11.7761
足迹不可得故	-11.7761
無智慧	-11.7763
有變有易	-11.7764
初地菩薩	-11.7765
非一異	-11.7766
無相亦無散失	-11.7767
空亦無散失	-11.7767
千二百五十人	-11.7768
展	-11.7771
無明緣行	-11.7774
潭	-11.7774
故名為大	-11.7774
憫	-11.7776
殑伽河	-11.7776
世第一法	-11.7777
噫	-11.7777
懺	-11.7778
村	-11.7778
難測量	-11.7778
倘	-11.7778
撿	-11.7778
無惑無疑	-11.7778
山河大地	-11.7778
說是清淨無生無顯	-11.7778
誠如所說	-11.7779
當知作意亦非有	-11.778
說是清淨無得無觀	-11.7781
布施等六波羅蜜多	-11.7782
我但廣稱讚般若波羅蜜多	-11.7782
正定聚	-11.7782
應觀諸法自相皆空故學	-11.7783
彈指頃	-11.7783
正等覺皆依般若波羅蜜多	-11.7785
富貴自在	-11.7785
人相眾生相壽者相	-11.7786
割截身體	-11.7786
無漏亦無散失	-11.7786
無染亦無散失	-11.7787
輝	-11.7787
來詣佛所	-11.7788
於然燈佛前	-11.7788
承佛威神	-11.7789
出世間亦無散失	-11.7789
豫	-11.779
以無量種上妙	-11.779
鄔波索迦	-11.7791
復有無量	-11.7792
靈山	-11.7793
項	-11.7793
歎未曾有	-11.7794
雅	-11.7795
滅盡定	-11.7795
可以三十二相見如來不	-11.7795
無現觀	-11.7796
廣分別	-11.7796
可度者	-11.7796
但舉	-11.7797
卷云	-11.7798
碎為微塵	-11.7798
幟	-11.7798
搏取	-11.7799
中有菩薩摩訶薩不	-11.7799
教誡教授諸菩薩摩訶薩	-11.7799
如來說為非	-11.78
想退轉故名不退轉	-11.78
萬二千	-11.7804
清淨故十遍處清淨	-11.7805
禁戒	-11.7805
如恒河中所有沙	-11.7806
死人	-11.7808
如是行是行般若波羅蜜多	-11.7809
彼論云	-11.7811
癡清淨即	-11.7812
同真際	-11.7812
真解脫	-11.7814
清淨故法住清淨	-11.7815
或不還果	-11.7816
清淨故阿羅漢果清淨	-11.7817
棄捨去	-11.7817
魔民	-11.7818
清淨故道聖諦清淨	-11.7818
清淨故大喜清淨	-11.7818
迴心	-11.7819
清淨故實際清淨	-11.782
清淨故不變異性清淨	-11.782
心顛倒	-11.7822
隨俗	-11.7822
疑網	-11.7822
說摩訶衍	-11.7823
清淨故勝義空清淨	-11.7823
清淨故內外空清淨	-11.7823
如來說一合相	-11.7824
清淨故一切法空清淨	-11.7824
清淨故本性空清淨	-11.7825
兜率天	-11.7826
清淨故安忍波羅蜜多清淨	-11.7827
全空	-11.7828
手執	-11.7831
福德因緣	-11.7832
未來諸佛	-11.7833
之表	-11.7836
受五欲	-11.7836
梵世	-11.7838
是名須陀洹	-11.7839
無見者	-11.784
力勢	-11.7845
更生	-11.7846
真如中有菩薩摩訶薩不	-11.7847
通釋	-11.7849
可捨	-11.7849
其形	-11.7849
於一切法皆	-11.7856
山林	-11.7857
從事	-11.7859
皆非實有	-11.7862
正辨	-11.7866
都不見有	-11.7869
善覺	-11.7869
復更	-11.7878
令我國土	-11.7883
道聖諦集	-11.7884
乃至十地	-11.7885
答三問	-11.7886
非波羅蜜	-11.7887
大梵天王	-11.7888
親承	-11.7889
照空	-11.7892
第十九	-11.7892
我都不見	-11.7893
實智慧	-11.7897
佛說如是	-11.7899
不著相	-11.7902
能示如來	-11.7906
為人輕賤	-11.7906
如來可說	-11.7908
是菩薩摩訶薩由此	-11.7908
令一切眾生	-11.791
平等相	-11.7916
或執有	-11.7917
有退轉	-11.7918
持戒等	-11.792
菩薩摩訶薩亦如是	-11.7921
應行布施	-11.7922
無量世界	-11.7924
猶尚	-11.7924
如泡	-11.7926
隨宜	-11.7926
性平等	-11.7926
無畏施	-11.7926
結經	-11.7927
護正法	-11.7927
以無性為自性	-11.793
虗空界	-11.7933
無與等	-11.7934
亦不執著	-11.7934
十里	-11.7935
退沒	-11.7937
性常空	-11.7938
如是學時	-11.7938
聲聞或獨覺地	-11.7947
毒藥	-11.7947
五陰空	-11.7947
無變無易	-11.795
無所倚	-11.7951
善亦無散失	-11.7952
修諸善法	-11.7952
寥	-11.7954
故名為佛	-11.7957
喝	-11.7958
李	-11.7959
禮佛	-11.7959
三界外	-11.796
五分法身	-11.796
是貪清淨與	-11.796
虔	-11.7961
清淨亦無散失	-11.7962
是癡清淨與	-11.7962
綺	-11.7962
之殊	-11.7963
乾慧地	-11.7963
色聲香味細滑法	-11.7963
修靜慮時	-11.7964
是菩薩摩訶薩所擐甲冑不屬	-11.7964
踊躍	-11.7964
呼須菩提而	-11.7965
無罪亦無散失	-11.7965
不相屬即	-11.7965
斷界	-11.7966
世樂	-11.7967
眾生易度	-11.7967
智慧第一	-11.7967
鑛	-11.7967
圓滿及不圓滿俱不名	-11.7968
窮未來際	-11.7968
若增若減不知不得	-11.7969
燈明而為供養	-11.7969
拙	-11.7969
是瞋清淨與	-11.7969
不起著不	-11.797
無量性是行般若波羅蜜多	-11.797
仁王護國	-11.797
無量性則非	-11.797
絡	-11.797
於獨覺菩提	-11.797
乘於大乘	-11.7971
祇園	-11.7971
若寂靜若不寂靜是為戲論	-11.7972
未曾得聞如是之經	-11.7973
若遠離若不遠離是為戲論	-11.7973
第三靜慮	-11.7973
須陀洹能作是念	-11.7974
無有作者	-11.7974
不墮三界	-11.7974
純熟	-11.7974
若樂若苦是為戲論	-11.7976
若常若無常是為戲論	-11.7976
大神呪王	-11.7976
煙	-11.7976
毀罵	-11.7976
著不著相是行般若波羅蜜多	-11.7976
若我若無我是為戲論	-11.7976
所言一切法者	-11.7976
須陀	-11.7977
詎	-11.7977
今生人中	-11.7977
觀三界	-11.7977
遠離顛倒夢想	-11.7978
善女人等所獲福聚甚多於前	-11.7979
米	-11.798
毋	-11.798
難測量性是行般若波羅蜜多	-11.798
難測量性則非	-11.7981
甚深性則非	-11.7981
或十	-11.7983
甚深性是行般若波羅蜜多	-11.7983
無量無邊功德	-11.7983
是故如來說名實相	-11.7985
為無所得耶	-11.7986
佛說是沙不	-11.7986
實無有眾生如來度者	-11.7986
如來所說三千大千世界	-11.7987
真如無量故般若波羅蜜多無量	-11.7987
而無有一眾生實滅度者	-11.7988
靡	-11.7989
》、《	-11.7989
如文可知	-11.7991
漿	-11.7991
我人眾生壽者四相	-11.7992
無願解脫門無相	-11.7996
五事	-11.7996
如上所說	-11.7997
若樂若苦是行般若波羅蜜多	-11.7998
若淨若不淨是行般若波羅蜜多	-11.7998
誰受	-11.7998
若我若無我是行般若波羅蜜多	-11.7998
內財	-11.7999
無一物	-11.8
證處	-11.8
變易生死	-11.8001
永斷一切	-11.8001
▁二依經斷疑	-11.8002
小王	-11.8002
真如甚深故般若波羅蜜多甚深	-11.8004
邪婬	-11.8004
未度	-11.8004
得神通	-11.8006
願智	-11.8007
施他	-11.8008
重問	-11.8008
清淨故五力清淨	-11.8009
清淨故滅聖諦清淨	-11.8011
諸法無有	-11.8013
是名斯陀含	-11.8015
究其	-11.8016
教主	-11.8016
未足	-11.8019
真實義	-11.8021
金剛藏	-11.8022
智慧愚癡	-11.8026
有情作大饒益	-11.8028
小千	-11.8028
諸菩薩摩訶薩住第	-11.8029
阿鞞跋致相	-11.8031
兜率	-11.8035
如來度者	-11.8037
亦不作集不作散	-11.8037
身如須彌山王	-11.8038
普度	-11.8041
假觀	-11.8042
菩薩摩訶薩如是行般若波羅蜜多	-11.8044
無著菩薩	-11.8045
婆羅門等	-11.8045
非莊嚴	-11.8047
無上菩提之	-11.8051
今就	-11.8054
少病	-11.8055
則無所見	-11.8056
波羅蜜多得圓滿故	-11.8057
不遠離增語是菩薩摩訶薩	-11.8058
佛問須菩提	-11.8062
有差	-11.8062
言說法身	-11.8063
故知般若波羅蜜多	-11.807
故出現世間能成辦事	-11.8071
佛滅後	-11.8071
佛位	-11.8072
能入一切	-11.8072
極果	-11.8072
一切如來應正等覺	-11.8072
外緣	-11.8075
無色聲香味觸法	-11.8076
序品	-11.8078
明月	-11.8079
推之	-11.808
佛與眾生	-11.808
恒河沙等世界	-11.808
自共相空	-11.8081
僧伽	-11.8081
頗見	-11.8081
如海	-11.8083
饒益眾生	-11.8084
未忘	-11.8084
若胎生	-11.8086
徵起	-11.809
本性空異	-11.8094
向說	-11.8095
無所有中	-11.8096
始教	-11.8097
罪重	-11.8099
若干種	-11.8106
縱廣	-11.8106
是法非	-11.8107
為世間作	-11.8107
何疑	-11.8107
言音	-11.8109
何以但說	-11.8113
▁後解	-11.8113
深著	-11.8118
未圓滿	-11.8124
第三十	-11.8125
不毀	-11.8126
思業	-11.8133
竟不可得	-11.8138
鄰	-11.8138
踪	-11.8139
內空真如	-11.8141
我亦應學	-11.8141
於何處	-11.8144
晦	-11.8145
一切法自性	-11.8147
讚勵	-11.8147
嶺	-11.8147
不測	-11.8148
桃	-11.8149
論釋云	-11.8149
所破	-11.815
菩薩摩訶薩於識法中	-11.815
巖	-11.8151
為對治	-11.8151
亦無所著	-11.8152
約教	-11.8152
當知作意亦遠離	-11.8153
當知作意亦空	-11.8153
楞伽經	-11.8153
言語道斷	-11.8153
當知作意亦寂靜	-11.8154
當知作意亦無實	-11.8154
相而不執著	-11.8154
當知作意亦無覺知	-11.8154
阿彌陀佛	-11.8154
四十九年	-11.8154
璃	-11.8155
洗足巳	-11.8155
焦	-11.8155
蠢	-11.8156
不有不無	-11.8156
扣	-11.8156
解深密	-11.8156
性無相故無縛無解	-11.8157
百千分不及一	-11.8157
無知無見	-11.8159
疾證得一切智智	-11.8159
者龍樹造後秦龜茲國三藏鳩摩羅什譯	-11.8159
工巧	-11.816
菩薩莊嚴佛土不	-11.816
二年	-11.816
不可思議故如來所說不可思議	-11.816
有持戒修福者	-11.816
烟	-11.816
珂	-11.8161
姊妹	-11.8162
值遇	-11.8162
威勢	-11.8163
鄔波斯迦	-11.8164
汝於來世當得作佛	-11.8165
承佛神力	-11.8165
若淨若不淨是為戲論	-11.8166
勤勇懈怠	-11.8166
輪寶	-11.8167
侶	-11.8167
隨此法門應	-11.8168
六十四	-11.8168
問後答	-11.8168
返照	-11.8168
諸宿住事	-11.8169
有法得阿耨多羅三藐三菩提不	-11.8169
大品經	-11.8169
修四念處	-11.8169
可著	-11.817
▁初隨章敘疑	-11.817
令諸菩薩	-11.8171
非有性故	-11.8171
是為多不	-11.8172
如來不說得福德多	-11.8173
有人持用布施	-11.8173
於預流向預流果	-11.8176
迷謬	-11.8177
求佛果	-11.8177
不受不取	-11.8178
六欲天	-11.818
法亦空	-11.8183
四十里	-11.8183
如來說具足色身	-11.8184
麁細	-11.8184
啼哭	-11.8185
欲度	-11.8185
法空也	-11.8185
智波羅蜜多	-11.8186
染法	-11.8189
躡前	-11.8189
聽說	-11.819
徧照	-11.8193
而有可得	-11.8194
繫心	-11.8194
顯經勝	-11.8195
求阿耨多羅三耶三菩	-11.8195
清淨故不虛妄性清淨	-11.8197
攝論	-11.8197
知見信解	-11.8198
如是不思惟	-11.8199
不計	-11.82
法身無相	-11.82
名譽	-11.8201
爾所劫	-11.8201
作此念	-11.8202
五乘	-11.8203
無數菩薩	-11.8204
轉復	-11.8205
夢覺	-11.8208
般若波羅蜜多清淨即	-11.8211
俱白佛言	-11.8214
六百	-11.8214
無忘失	-11.8217
為諸菩薩摩訶薩眾	-11.8218
我若作是念	-11.8218
不住六塵	-11.8218
成壞	-11.822
亦不作廣不作狹	-11.8221
三十四	-11.8221
修行無忘失法	-11.8222
之真性	-11.8224
不出三界	-11.8224
汝莫	-11.8225
有情施設	-11.8225
不應觀受	-11.8226
四無色定四無量	-11.8227
相似般若波羅蜜	-11.823
正斷	-11.8231
合離相	-11.8234
下第五	-11.8234
於如是甚深般若波羅蜜多	-11.8234
庸	-11.8235
止息	-11.8237
為阿耨多羅三耶三菩	-11.8237
戒定	-11.8239
四陰	-11.8242
出血	-11.8242
住本性空	-11.8245
一番	-11.8246
進入	-11.8246
受持淨戒	-11.8248
自思惟	-11.8248
業用	-11.825
示人	-11.8251
阿惟越致地	-11.8257
為利益眾生	-11.8258
使其	-11.8259
譬如大海	-11.8261
徵問	-11.8262
園中	-11.8263
記莂	-11.8267
寶華	-11.8271
具足諸相	-11.8274
眾聖	-11.8275
普施	-11.8275
安立有情於	-11.8276
六界	-11.8284
文有四	-11.8284
道路	-11.8286
愛法	-11.8286
【△	-11.8287
三摩地門離	-11.8289
隨世俗	-11.8289
滿閻浮提	-11.8289
天地之	-11.8294
長水	-11.8294
當知皆是	-11.8294
譯經	-11.8295
般若波羅蜜多乃至布施波羅蜜多	-11.8295
之辭也	-11.8295
成就阿耨多羅三藐三菩提	-11.8301
本文	-11.8301
為諸眾生	-11.8301
二類	-11.8302
第二偈	-11.8303
當知般若波羅蜜亦	-11.8304
華蓋	-11.8305
何況餘	-11.8306
無罣礙故	-11.831
不移	-11.831
修諸善	-11.8311
上方	-11.8312
心不清淨	-11.8313
之徒	-11.8319
百味	-11.8321
枳	-11.8322
注云	-11.8323
共成	-11.8324
班足	-11.8325
圓證	-11.8326
些	-11.8328
我當云何	-11.8329
清淨句義是菩薩句義	-11.8329
迷人	-11.833
如來有慧眼	-11.8332
此深妙法不為攝取	-11.8332
受苦樂	-11.8332
各各有	-11.8332
非想非非想處	-11.8332
第二第三	-11.8333
此性空中無生無	-11.8335
無斷無別而可施設	-11.8335
欽	-11.8335
陸	-11.8337
甚深故般若波羅蜜多甚深	-11.8338
證無上菩提	-11.8338
𠰥	-11.8339
得諸法實相	-11.834
本尊	-11.834
一切所有	-11.834
鳩摩羅什	-11.8342
宏	-11.8342
住想勝解	-11.8343
湖	-11.8344
修淨戒時	-11.8345
入般若波羅蜜中	-11.8345
乙	-11.8345
當知作意亦無自性	-11.8345
轍	-11.8346
正性離生	-11.8346
性寂靜故無縛無解	-11.8346
性無所有故無縛無解	-11.8346
性遠離故無縛無解	-11.8346
性無淨故無縛無解	-11.8347
振	-11.8347
由加行故	-11.8347
非前非後皆得人身	-11.8348
抄	-11.8348
性無生故無縛無解	-11.8348
性無願故無縛無解	-11.8348
以寄世尊而為	-11.8348
凌辱	-11.8348
9	-11.8348
比丘比丘尼	-11.8348
級	-11.8349
皆令安住十善業道	-11.8349
是身為大不	-11.835
四維上下	-11.835
科文	-11.8351
躬	-11.8351
若是所遍知若非所遍知是為戲論	-11.8352
六根六塵	-11.8352
刃	-11.8352
佛說我得無諍三昧	-11.8353
誼	-11.8354
能學無量	-11.8354
茶	-11.8355
不足為難	-11.8355
福寧多不	-11.8355
無所有處定	-11.8356
則為非住	-11.8356
不住聲香味觸法布施	-11.8357
全彰	-11.8358
真如難測量故般若波羅蜜多難可測量	-11.8359
薩婆多宗	-11.8359
彼內空乃至無性自性空無二無二分	-11.8359
合掌向佛	-11.836
慈悲忿恚	-11.8361
無所有處天	-11.8362
不執不著	-11.8363
雜色	-11.8364
狂亂	-11.8365
如是等七寶聚	-11.8365
丸	-11.8366
又說一切眾生	-11.8366
聞已受持	-11.8366
恥	-11.8366
救濟	-11.8366
藥草	-11.8367
若菩薩摩訶薩作如是念	-11.8367
重擔	-11.8369
從此第四	-11.8372
如來說三十二相	-11.8373
百非	-11.8374
則不然	-11.8374
宴坐	-11.8374
謂諸如來	-11.8375
乃至一切種智亦如是	-11.8375
平等真法界	-11.8377
▁三結	-11.838
至菩提終	-11.8381
若常若無常是行般若波羅蜜多	-11.8382
得三菩提	-11.8383
耳鼻舌身	-11.8384
則不名菩薩	-11.8385
無邊世界	-11.8389
覆心	-11.8389
無量殑伽沙等世界	-11.8391
若準	-11.8392
所有布施	-11.8393
終不取著	-11.8394
具戒	-11.8395
依舊	-11.8396
東行	-11.8398
覺意	-11.8398
虗假	-11.8398
從此第三明	-11.84
生貪愛	-11.8401
爾時釋提桓因	-11.8402
不證無上正等菩提	-11.8402
聞是語	-11.8405
如來有佛眼不	-11.8405
則生實相	-11.8406
不信受	-11.8413
養育者清淨故	-11.8415
大分有	-11.8416
決斷	-11.8418
必定	-11.8419
逮薩云若	-11.8421
相空故學	-11.8422
故護念是菩薩摩訶薩	-11.8422
四顛倒	-11.8425
若為人輕賤	-11.8426
隨分	-11.8426
性命	-11.8428
作此說	-11.8435
佛言如是如是	-11.8435
般若之法	-11.8437
生老死	-11.8438
次就	-11.844
奉事	-11.8442
苦忍	-11.8443
或阿羅漢果	-11.8444
中際非縛非	-11.8447
等流	-11.8449
不可執	-11.8449
欲界中	-11.8453
何益	-11.8453
安樂住不	-11.8457
如來若來若去	-11.8458
一步	-11.8461
無亂	-11.8462
之時也	-11.8464
善惡業	-11.8466
阿鞞跋致菩薩摩訶薩	-11.8469
葢以	-11.847
諸部	-11.8473
魔怨	-11.8474
今何故	-11.8475
謂作是念	-11.8476
熏修	-11.8484
心量	-11.8487
王城	-11.8488
菩薩摩訶薩安住靜慮波羅蜜多	-11.849
益眾生	-11.8491
皆是虛妄	-11.8492
五教	-11.8494
心得解脫	-11.8495
一切相智道相智	-11.8497
菩薩行般若波羅蜜時	-11.8497
一切法自性皆空	-11.8501
由此業故施設	-11.8504
若三千大千世界中	-11.8504
為諸有情說	-11.8505
遣此修	-11.8506
一點	-11.8508
非斷非常	-11.851
無常想	-11.8513
普光	-11.8515
聰	-11.8517
熱時	-11.852
非無法	-11.8521
穩	-11.8524
於諸定	-11.8526
司	-11.8526
季	-11.8527
略疏	-11.8528
無相為方便	-11.853
喧	-11.8531
甚深性	-11.8532
界虛空界是名	-11.8532
勵	-11.8534
痴	-11.8537
涅盤	-11.8537
愆	-11.8538
況餘	-11.8538
碧	-11.8538
有增減	-11.8539
龜	-11.8539
而於其中都無所住	-11.854
團	-11.854
本來面目	-11.854
為欲饒益諸有情故	-11.8541
驢	-11.8541
未滿	-11.8541
淪	-11.8543
瞋清淨即	-11.8543
令速	-11.8543
丁	-11.8543
性無染故無縛無解	-11.8544
性無滅故無縛無解	-11.8544
火宅	-11.8544
殆	-11.8544
莫呼洛伽	-11.8544
復以種種上妙花鬘	-11.8544
相應三昧	-11.8544
非想非非想處天	-11.8544
窺	-11.8545
修安忍時	-11.8545
一切法無生	-11.8545
柔和	-11.8546
刑	-11.8547
法涌菩薩	-11.8547
四空定	-11.8547
解我所說	-11.8547
彈	-11.8547
啟請	-11.8548
三世等	-11.8549
謀	-11.855
不妄語	-11.855
小千界	-11.855
上界呼	-11.8551
依他起性	-11.8551
菩提分	-11.8554
皆得成就無量無邊功德	-11.8554
是名菩薩摩訶薩摩訶衍	-11.8554
知我說法	-11.8555
甚深義趣	-11.8556
於爾所世	-11.8557
雙泯	-11.8557
可以三十二相觀如來不	-11.8558
篋	-11.8558
我若具說者	-11.856
若化生	-11.856
品第三十	-11.8561
滅度一切眾生巳	-11.8561
喚作	-11.8562
摩訶迦葉	-11.8563
好惡	-11.8564
不取不捨	-11.8564
以此法	-11.8564
供養承事	-11.8565
病苦	-11.8565
若菩薩摩訶薩作是思惟	-11.8566
持於此經	-11.8569
欲得色身	-11.8573
復有人言	-11.8573
十方三世諸佛	-11.8574
險難	-11.8577
佛於然燈佛所	-11.8577
不住於事	-11.8581
離不與取	-11.8582
念佛三昧	-11.8583
活命	-11.8585
先問	-11.8587
具足而住	-11.859
大神	-11.859
皆阿羅漢	-11.859
皆無所有不可得故	-11.8592
即是無生滅	-11.8593
四結	-11.8594
應機	-11.8594
禪師云	-11.8594
一毛	-11.8597
諸子	-11.8597
戒忍	-11.8599
為尊為導故	-11.8599
近無上正等菩提	-11.8599
名都	-11.8599
初牒	-11.8602
諸菩薩作是思惟	-11.8604
轉勝	-11.8606
兩足	-11.8608
?』」	-11.8608
十方虗空	-11.8608
如我解佛所說義者	-11.8612
自利行	-11.8612
有諍	-11.8614
一切有為	-11.862
分分	-11.8622
相句義無所有不可得	-11.8624
我乃至見者	-11.8626
有殊	-11.8627
滯礙	-11.8632
亦不減	-11.8632
菩薩義不	-11.8634
無與等者	-11.8637
愛念	-11.8637
修行五眼	-11.8638
示其	-11.8639
難了	-11.8639
佛因般若波羅蜜	-11.864
當作是念	-11.8641
願樂	-11.8642
久修	-11.8643
精進根	-11.8646
於般若波羅蜜多甚深經典	-11.8648
求教授	-11.8648
不停	-11.865
有四句	-11.8652
說呪	-11.8652
起信論	-11.8652
我淨故	-11.8653
或有菩薩	-11.8654
所遣	-11.8654
始行	-11.8658
無非般若	-11.8658
偈云下	-11.8658
而般涅槃	-11.8661
未離欲	-11.8666
如鏡	-11.8667
發菩提	-11.8682
著我人眾生壽者	-11.8683
如是降伏	-11.8686
不謬	-11.8689
謗法	-11.869
亦不作是念	-11.8691
不能迴向一切智智	-11.8691
頂禮雙足	-11.8693
世界微塵	-11.8694
六事	-11.8704
下根	-11.8706
語菩薩	-11.8707
著樂	-11.8709
護念是菩薩摩訶薩	-11.8719
之恩	-11.8721
應行般若波羅蜜多	-11.8722
致問	-11.8725
畔	-11.8728
置此	-11.873
無生法中	-11.8731
程	-11.8733
所依器故	-11.8734
書是深般若波羅蜜	-11.8734
訣	-11.8734
識無邊處定	-11.8736
書深般若波羅蜜乃至正憶念	-11.8736
䭾	-11.8736
眾疑	-11.8737
無為之法	-11.8738
亦勿以	-11.8738
兆	-11.8739
什麼	-11.8739
呌	-11.874
尊敬	-11.8741
貧乏	-11.8741
貪清淨即	-11.8742
剖	-11.8742
崖	-11.8742
為諸有情宣說正法	-11.8743
無造無作	-11.8743
真法身	-11.8744
由是因緣所獲功德	-11.8745
不異無生滅	-11.8745
婆羅門大姓	-11.8745
居士大家	-11.8746
不殊	-11.8747
性空故無縛無解	-11.8747
雲峯說	-11.8747
乃至薩云若	-11.8747
定根	-11.8748
c	-11.8748
亦勸他行	-11.875
掃除	-11.875
於法有所得不	-11.875
云何不思惟	-11.875
斷結	-11.8751
若菩薩不住相布施	-11.8751
毘奈耶	-11.8751
諸波羅蜜多	-11.8752
是經名為金剛般若波羅蜜	-11.8752
欲度眾生	-11.8753
如來說非忍辱波羅蜜	-11.8753
得聞如是言說章句	-11.8754
復名摩訶薩	-11.8755
聖王	-11.8755
欺誑	-11.8756
無變	-11.8756
佛說如是甚深經典	-11.8756
本來空寂	-11.8757
若菩薩有我相人相眾生相壽者相	-11.8758
黑闇	-11.8758
應須	-11.8759
於佛前	-11.876
當知是經義不可思議	-11.876
不能解我所說故	-11.8761
爾所國土中	-11.8762
一沙	-11.8763
為誰	-11.8763
頗梨	-11.8763
如來所得阿耨多羅三藐三菩提	-11.8765
汝等勿謂如來作是念	-11.8765
是故不應取法	-11.8768
殊不知	-11.8768
語默	-11.8768
六門	-11.877
是諸菩薩摩訶薩道	-11.877
虛妄不實	-11.8771
以是事故	-11.8771
疲極	-11.8772
佛不度眾生	-11.8772
稱理	-11.8773
無生滅即是	-11.8773
遍處	-11.8774
猶如虗空	-11.8777
汗	-11.8779
尋求	-11.8783
久久	-11.8783
大雲云	-11.8784
進止	-11.8785
百倍	-11.8785
廣說乃至一切智智	-11.8786
此呪	-11.8786
法身非相	-11.879
知一切眾生	-11.8792
去來今	-11.8792
如來有慧眼不	-11.8793
穢惡	-11.8793
覺他	-11.8794
如來有天眼不	-11.8796
修行淨戒波羅蜜多	-11.8797
如來有法眼不	-11.8797
而巳矣	-11.8799
識無縛無解	-11.8802
已圓滿	-11.8802
隨諸有情	-11.8803
彼間	-11.8803
大德善現	-11.8806
金華	-11.8806
知足	-11.8807
薩云若慧	-11.8809
當以何	-11.8809
三藐三菩提	-11.8809
恒河沙世界	-11.8809
亦不可說	-11.8813
器世間	-11.8819
我於此	-11.8821
所謂無上正等菩提	-11.8822
圓照	-11.8822
一往來	-11.8825
斷盡	-11.8825
依怙	-11.8829
更無異	-11.883
道慧	-11.8831
求解脫	-11.8832
供養恭敬尊重讚歎	-11.8833
憶想	-11.8835
正勤	-11.8837
形迹	-11.8838
無性自性	-11.8841
擁	-11.8842
現量	-11.8843
然燈如來	-11.8845
真化	-11.8847
十王	-11.8847
性宗	-11.8848
六句	-11.8852
具足般若波羅蜜	-11.8857
新學菩薩	-11.8858
變壞	-11.886
徵云	-11.8861
隨文	-11.8864
界塵	-11.8867
勸令	-11.8868
違順	-11.8869
而生其心	-11.8876
毀壞	-11.888
須陀洹等	-11.8886
得般涅槃	-11.8887
七年	-11.8888
開口	-11.8889
不能忍	-11.8889
顯德	-11.8894
自家	-11.8896
於諸菩薩	-11.8897
開導	-11.8897
入曼拏羅	-11.8899
仁王般若	-11.89
極圓滿	-11.8901
墮惡趣	-11.8903
無量無數有情	-11.8905
我及我所	-11.8909
幻士	-11.8916
非有無	-11.8919
帝釋天主白	-11.8921
覺慧	-11.8927
一真法界	-11.8928
詩	-11.8931
幻妄	-11.8931
如彼應學	-11.8932
航	-11.8932
實性而得遠到	-11.8932
夕	-11.8933
貫穿	-11.8936
此意云	-11.8936
不獲說聽	-11.8936
供養曇無竭菩薩	-11.8936
有染有淨	-11.8938
貞觀	-11.8939
擯	-11.8939
壤	-11.894
作漸次業	-11.894
難見難覺	-11.8941
乃至鄔波尼殺曇分亦	-11.8943
未始	-11.8943
如別章	-11.8944
無生滅不異	-11.8944
郡	-11.8944
芽	-11.8945
那含	-11.8945
如是一切皆無二	-11.8945
洛	-11.8946
荒	-11.8946
曷	-11.8946
▁薩摩訶薩	-11.8946
無能壞者	-11.8946
曼	-11.8947
陣	-11.8947
其心有驚有恐有怖	-11.8947
吠	-11.8947
緊捺洛	-11.8948
兮	-11.8948
顛倒夢想	-11.8949
▁羅蜜多	-11.8949
戴	-11.8949
三輪清淨	-11.8949
無自他相	-11.895
見顛倒	-11.895
施設建立分別	-11.895
晝夜精勤	-11.895
廬	-11.8951
菩薩摩訶薩欲行般若波羅蜜	-11.8952
即非第一波羅蜜	-11.8952
無眼界乃至無意識界	-11.8952
闡提	-11.8952
朽	-11.8952
f	-11.8953
科家意	-11.8953
0	-11.8953
▁訶薩	-11.8954
我得須陀洹果不	-11.8954
剃	-11.8955
兔角	-11.8955
如露亦如電	-11.8955
來至其所	-11.8956
佛說佛母出生三法藏般若波羅蜜多	-11.8956
其福德不可思量	-11.8956
此法無實無虗	-11.8958
乃至一念生淨信者	-11.8958
鹽	-11.8959
有法空	-11.896
悉皆供養承事	-11.8961
於欲界	-11.8961
有所恃	-11.8961
第六十	-11.8962
相續不斷	-11.8962
決了	-11.8962
此人無我相	-11.8963
如來說諸心	-11.8963
正位	-11.8964
則為有佛	-11.8964
何所迴向	-11.8966
是人所得福德	-11.8966
若是微塵眾實有者	-11.8967
如來可以具足諸相見不	-11.8968
爛壞	-11.8968
虛空無盡	-11.897
毘尼	-11.897
□□□□□□□	-11.8971
三種般若	-11.8971
散亂心	-11.8972
血肉	-11.8973
用無所得故	-11.8974
如來說即非法相	-11.8974
鉤	-11.8975
妄情	-11.8978
倍為勝	-11.8981
說四諦	-11.8982
前七	-11.8983
▁後辨	-11.8988
性空無生滅故	-11.899
花鬘	-11.899
即非一合相	-11.8994
此一段經	-11.8995
神通變化	-11.8996
依深般若波羅蜜多	-11.8996
惱亂	-11.8997
受想行識亦如是	-11.9002
大藏	-11.9003
風雨	-11.9004
五無間	-11.9004
別立	-11.9007
三途	-11.9008
無倦	-11.901
無量阿僧祇世界	-11.901
集諸功德	-11.9013
元來	-11.9014
疑情	-11.9018
化眾	-11.9022
盲人	-11.9022
不應觀法界	-11.9024
空中無色	-11.9025
誑惑	-11.9028
如實見	-11.9029
我於阿耨多羅三藐三菩提	-11.9029
極多	-11.903
倍復	-11.9033
妙善	-11.9033
不捨眾生	-11.9034
王舍	-11.9035
無滅即	-11.9036
無願三摩地	-11.9037
耳識界	-11.904
無我等相	-11.9041
不可動	-11.9041
徒眾	-11.9043
佛號釋迦牟尼	-11.9043
性體	-11.9043
歡喜讚歎住	-11.9044
據實	-11.9044
得無諍三昧	-11.9044
結示	-11.9044
未久	-11.9045
可厭	-11.9049
安處	-11.9057
諸法性空	-11.9058
遠離聲聞	-11.9059
四十五	-11.906
無想天	-11.906
設利羅	-11.9062
墮斷滅	-11.9065
直示	-11.9067
虛假	-11.9067
具壽善現言	-11.9069
總舉	-11.9071
西北	-11.9072
隨力	-11.9072
於佛法中	-11.9074
有毀	-11.9074
所對	-11.9076
不越	-11.9076
獨覺道	-11.9079
安立有情	-11.9079
教興	-11.9081
亦無縛無脫	-11.9085
即是不可說	-11.9093
若諸菩薩欲	-11.91
如是六種波羅蜜多	-11.9111
勿令	-11.9112
惑盡	-11.9113
如來之相	-11.9114
天道	-11.9116
亦應如是	-11.9118
會解	-11.9125
頓斷	-11.9129
發阿耨	-11.913
當得菩提	-11.9131
故淨名云	-11.9134
諸佛說法時	-11.9138
則此大乘非尊非妙	-11.9138
若聲聞法	-11.9139
盡其形壽	-11.914
此大乘是尊是妙	-11.914
菩薩如是行	-11.914
籠	-11.9141
一切相智性空	-11.9141
不隨他教而	-11.9141
善通達	-11.9144
埋	-11.9145
模	-11.9145
夙	-11.9145
次第乞巳	-11.9145
具壽善現即白佛言	-11.9146
方乃	-11.9146
師子遊戲	-11.9149
給孤獨園	-11.9149
與不滅無二無二分	-11.9149
起高心	-11.9149
眷	-11.915
準此	-11.915
肇公	-11.9151
坦	-11.9152
生憍逸	-11.9152
忌	-11.9152
前約	-11.9153
若智若斷	-11.9153
三乘道	-11.9153
三十七助道法	-11.9153
不樂觀察論說	-11.9153
雄	-11.9154
非一非二	-11.9154
佛說是經巳	-11.9154
修精進時	-11.9155
僻	-11.9155
善思念之	-11.9155
剌	-11.9155
此經典	-11.9155
此性空中無滅無	-11.9155
具念正知	-11.9155
非能住非所住	-11.9156
毀傷	-11.9156
三際平等中	-11.9157
與不生無二無二分	-11.9157
具壽舍利子言	-11.9158
大誓莊嚴	-11.9158
非常非滅故	-11.9158
一一世界無量菩薩	-11.9159
皆如化不	-11.9159
有來有去	-11.9159
葦	-11.916
信等五根	-11.9161
作忍辱仙人	-11.9161
說是般若波羅蜜	-11.9161
略答	-11.9162
則修般若波羅蜜多增益圓滿	-11.9162
是第一離欲阿羅漢	-11.9162
燃	-11.9162
我今得聞如是經典	-11.9163
節節支解	-11.9163
皆以無為法而有差別	-11.9163
所謂佛法者	-11.9164
寐	-11.9164
甚希有	-11.9164
諸法性相	-11.9165
梯	-11.9165
若阿羅漢作是念	-11.9166
燈燭	-11.9166
十二分教	-11.9166
難行苦行	-11.9166
有出有至	-11.9166
智緣滅	-11.9166
其有欲令無相之法有出有至者	-11.9167
慰	-11.9167
焚燒	-11.9168
若人欲使	-11.9168
若不出世	-11.9169
無有少法可得	-11.9169
面門	-11.9169
不一不二	-11.917
入滅受想定	-11.917
含容	-11.917
實際作證	-11.917
猴	-11.917
發無上菩提心	-11.9171
靈光	-11.9172
殊妙	-11.9174
佛十力不可得	-11.9175
移轉	-11.9175
惓	-11.9175
􂏕	-11.9175
如來不應以具足色身見	-11.9176
四眼	-11.9176
若有眾生如來度者	-11.9177
何迴向	-11.9178
揵	-11.9178
阿蘭若	-11.9179
殊勝善法	-11.9179
野馬	-11.918
雖似	-11.9181
十門	-11.9182
相好莊嚴	-11.9183
有四義	-11.9183
接引	-11.9183
麤重	-11.9186
修般若時	-11.9187
轉轉	-11.9191
妙花	-11.9193
聞思	-11.9193
阿羅漢向	-11.9199
地塵	-11.9201
何等為五	-11.9202
十六行	-11.9203
體同	-11.9208
王臣	-11.9209
所化有情	-11.9211
亦無變異	-11.9211
皆依般若波羅蜜多	-11.9214
五受眾	-11.9214
夢中所見	-11.9215
契合	-11.9217
鼻識界	-11.922
知是菩薩	-11.9222
亦不作有力不作無力	-11.9227
不偏	-11.923
若菩薩摩訶薩為色	-11.923
妙體	-11.9232
是菩薩句義	-11.9232
而不證	-11.924
假號	-11.924
性非住非不住	-11.9245
云何菩薩摩訶薩常	-11.9245
斷一切煩惱習	-11.9246
若濕生	-11.9248
若於是處	-11.9251
自稱我	-11.9251
六道眾生	-11.9252
字關	-11.9256
入胎	-11.9258
菩薩摩訶薩欲得	-11.9259
所惱	-11.9261
下經文	-11.9264
▁No	-11.9264
不與不捨	-11.9266
不和合即	-11.9267
若有我相	-11.927
無量大眾	-11.9271
末香	-11.9272
今更	-11.9275
廣辨	-11.9278
若有此經	-11.9279
當作是學	-11.9282
如鳥	-11.9286
修行布施乃至般若波羅蜜多	-11.9293
亦令他	-11.9293
誦讀	-11.9297
▁後總	-11.9298
實無所行	-11.9299
於中學	-11.9299
如須彌	-11.93
惡師	-11.9308
識界性空	-11.9308
若人欲	-11.9319
□□□□□	-11.9323
極重	-11.9324
其福多不	-11.9324
不逆	-11.9324
常照	-11.9325
如實知受	-11.9327
異道	-11.9329
不見諸法有	-11.933
亦有二	-11.9332
於一切法都無所	-11.9335
雖知諸法	-11.9336
習近	-11.9339
布施波羅蜜多不可得	-11.935
昭明太子	-11.9355
埵	-11.9355
作是問	-11.9357
無分別耶	-11.9357
恠	-11.9359
宿命智	-11.936
可爾	-11.936
菩薩摩訶薩於般若波羅蜜多	-11.936
一恒河	-11.9361
綖	-11.9361
或生異解	-11.9361
無取捨	-11.9362
攬	-11.9363
其心迷悶	-11.9363
調伏高心	-11.9364
如幻如夢	-11.9364
無數如來	-11.9364
鑽	-11.9365
非學非無學	-11.9365
若天魔梵	-11.9365
般若波羅蜜多能示世間諸法實相	-11.9365
消息	-11.9366
學是般若波羅蜜	-11.9367
革	-11.9367
梵網	-11.9368
持業釋	-11.9371
極難信解	-11.9371
剋	-11.9371
但有假名都無自性	-11.9371
纖塵	-11.9371
菓	-11.9373
裹	-11.9373
與般若波羅蜜相應	-11.9373
筏喻	-11.9373
制伏	-11.9374
無說無示	-11.9374
若修般若波羅蜜多增益圓滿	-11.9374
不習色	-11.9374
應生瞋恨	-11.9374
摩睺羅伽	-11.9375
諸說不同	-11.9375
!』「	-11.9375
天上天下	-11.9375
與一切有情同共迴向一切智智	-11.9376
我皆令入無餘涅槃而滅度之	-11.9377
擣	-11.9377
我於往昔節節支解時	-11.9378
有其三	-11.9378
遍十方	-11.9378
當習行般若波羅蜜	-11.9379
無益無損	-11.9379
不以具足相	-11.9379
心不相應諸行	-11.9379
鏡中像	-11.938
種種色光	-11.938
四大天王	-11.938
暴惡	-11.9381
現瑞	-11.9381
偏袒右肩右膝著地	-11.9381
供養多佛	-11.9381
三千大千剎土	-11.9382
我得阿那含果不	-11.9382
非空非有	-11.9382
漫	-11.9382
疏鈔	-11.9383
書持讀誦	-11.9383
傷害	-11.9384
色非色	-11.9384
面目	-11.9384
迦旃延	-11.9384
及諸眷屬	-11.9385
我佛土中得無如是	-11.9385
於燃燈佛所	-11.9385
心行差別	-11.9389
處非處	-11.9389
無缺	-11.9389
▁初敘	-11.9392
是人不解如來所說義	-11.9392
流傳	-11.9392
相應因	-11.9395
無住行施	-11.9395
展轉乃至	-11.9396
我人等	-11.9397
為度眾生故	-11.9402
法性生身	-11.9402
非器	-11.9405
能變	-11.9406
般若真空	-11.9407
可以相成就	-11.9409
無著無礙	-11.941
他受用	-11.9411
顯露	-11.9415
分量	-11.9416
起七寶塔	-11.9418
諸有所作	-11.9418
當證無上正等菩提	-11.9418
於般若波羅蜜中	-11.9419
無我我所	-11.9421
莊嚴淨土	-11.9421
五十七	-11.9423
佛語舍利弗	-11.9425
以有所得故	-11.9425
根源	-11.9426
親屬	-11.9429
信般若波羅蜜	-11.9431
影響	-11.9437
初標位	-11.9439
色處不可得	-11.9448
▁第二十	-11.9449
無煩惱增語是菩薩摩訶薩	-11.9449
四念住不可得	-11.945
一四句偈	-11.9451
舊云	-11.9452
說經之	-11.9454
尚能	-11.9455
亦不捨	-11.9455
無我無人	-11.9456
正路	-11.9458
苦集滅道	-11.9458
能作如是	-11.9459
假不生不滅	-11.9459
二空理	-11.946
永滅	-11.9461
外物	-11.9464
妙好	-11.947
持經之福	-11.9472
廣說三乘	-11.9472
離繫	-11.9477
為教體	-11.948
從何處	-11.9486
無作用	-11.9487
感果	-11.9489
羅國	-11.9492
字句	-11.9492
極惡	-11.9497
不能得其便	-11.9498
順理	-11.9498
傳授	-11.95
諸沙門	-11.9502
不取證	-11.9504
生死海	-11.9504
往往	-11.9504
方便善巧所攝受故	-11.9504
亦不失	-11.9515
法器	-11.9517
無惱	-11.9519
聞是事	-11.9524
不住色等	-11.9525
所逼	-11.9528
其所說	-11.953
恒住	-11.9536
當知是善男子	-11.9541
皆令安住	-11.9545
不能破壞	-11.9546
△	-11.9546
呂	-11.9547
終不能得	-11.9547
身念處	-11.9548
行般若波羅蜜多時	-11.9551
無上正等菩提無二為方便	-11.9552
菩薩乘補特伽羅	-11.9555
厭生死	-11.9556
初中後	-11.9557
平等理	-11.9559
弭	-11.9559
不離諸佛	-11.9562
親證	-11.9563
如應者言	-11.9563
如所說行	-11.9565
宛	-11.9566
次舉	-11.9567
朕	-11.9567
若如是者	-11.9568
若法自性無	-11.9574
疫	-11.9574
無所證	-11.9576
羼提	-11.9577
眾流	-11.9578
為菩薩乎	-11.9578
咦	-11.9579
熾	-11.9579
剎帝利	-11.9581
如是般若波羅蜜多最為甚深	-11.9582
沾	-11.9582
芳	-11.9582
摸	-11.9583
俯	-11.9583
爰	-11.9584
盛滿	-11.9584
彚	-11.9584
四攝法	-11.9585
大本經	-11.9585
空無邊處天	-11.9585
十二部	-11.9585
棒	-11.9585
耨多羅	-11.9585
如應說法	-11.9587
丘	-11.9587
炤	-11.9587
來生此間	-11.9588
為室為宅	-11.9588
憒閙	-11.9589
乃至意觸因緣生受	-11.9589
被大功德鎧	-11.959
瘂	-11.959
摩羅	-11.959
伎	-11.9591
圓頓	-11.9592
則能修學如是般若波羅蜜多	-11.9592
當得無上正等覺時	-11.9592
隅	-11.9593
鑁	-11.9593
娛	-11.9593
俱行心	-11.9593
心行處滅	-11.9594
我涅槃後	-11.9595
寢	-11.9595
審諦觀察	-11.9595
改變	-11.9595
渺	-11.9595
孔子	-11.9595
第四十	-11.9595
末尼	-11.9595
何況書寫受持讀誦	-11.9596
臭穢	-11.9596
轉施他	-11.9596
不可以三十二相得見如來	-11.9596
此諸假名	-11.9598
虛誑不實	-11.9598
葛	-11.9599
形貌	-11.9599
成就第一希有功德	-11.96
阿羅漢能作是念	-11.96
得如是無量福德	-11.96
是諸佛母	-11.9601
是故名阿那含	-11.9601
所謂不住色布施	-11.9601
修布施時	-11.9601
超諸	-11.9602
廣為他說	-11.9602
獨露	-11.9602
當得無上正等菩提	-11.9602
以身布施	-11.9602
沙界	-11.9603
是事不然	-11.9603
洛叉	-11.9606
本性空理	-11.9606
不斷絕	-11.9607
由斯故說	-11.9607
亦非說法者	-11.9608
有餘涅槃	-11.9609
如來不應以具足諸相見	-11.9611
祠	-11.9612
勸發	-11.9612
於此經中受持	-11.9613
又如虛空非	-11.9615
就前	-11.9616
有菩薩乘補特伽羅	-11.9616
垢穢	-11.9616
厭患	-11.962
乃至八聖道分	-11.9621
此翻為	-11.9621
汝等比丘	-11.9621
宮中	-11.9623
行非處	-11.9623
法座	-11.9624
咸共	-11.9624
)【	-11.9626
通達無礙	-11.963
法華經云	-11.963
令得圓滿	-11.963
鞞	-11.9634
如其所	-11.9637
亦復不為	-11.9638
塵剎	-11.9638
八十八	-11.9639
一切法皆無自性	-11.9639
別圓	-11.964
如來述成	-11.9642
皆以無性為自性	-11.9643
斷滅見	-11.9644
▁初辨	-11.9647
伽羅	-11.9648
斷諸煩惱	-11.9651
分為四	-11.9652
是為菩薩摩訶薩常	-11.9654
合會	-11.9657
兩頭	-11.9657
不異大乘	-11.9658
大乘不異	-11.9659
從他方	-11.9661
尊者舍利子	-11.9664
貪瞋	-11.9664
修萬行	-11.9666
天親云	-11.9666
第三果	-11.9667
修行靜慮波羅蜜多	-11.9668
制多	-11.9669
斷欲界	-11.967
非心性	-11.9673
經部	-11.9673
亦不作有量不作無量	-11.9674
流轉苦	-11.9674
一念不生	-11.9679
諸龍	-11.9681
契理	-11.9683
亦畢竟離故	-11.9685
毀犯	-11.9695
依世俗說	-11.9695
現在十方諸佛	-11.9696
乃至意觸	-11.9697
不應觀色界	-11.9701
外道梵志	-11.9703
至薩婆若	-11.9706
脫門	-11.9706
普緣	-11.971
無差別相	-11.9711
五祖	-11.9719
心意識	-11.9725
無所不知	-11.9726
地動	-11.973
初發意菩薩	-11.9732
千倍為勝	-11.9738
還來	-11.9739
摩訶衍中	-11.9743
無學道	-11.9743
』」	-11.9745
之異名	-11.9751
得阿惟三佛	-11.9754
正示	-11.9758
宣說開示	-11.9765
高廣	-11.9776
若菩薩摩訶薩於一切法	-11.9779
無來無去亦復不住	-11.9785
寧可	-11.9785
有此疑	-11.9793
旬	-11.9794
閻	-11.9794
訪	-11.9798
袒	-11.9799
刀箭	-11.9801
亦能具攝	-11.9803
色聲香味	-11.9803
深生憐愍	-11.9804
曼殊室利童子	-11.9804
不顧身命	-11.9804
作福田	-11.9804
后	-11.9805
溼	-11.9805
可以三十二相	-11.9805
捧	-11.9805
䇿	-11.9807
當覺知是為魔事	-11.9807
譬如幻士	-11.9808
道聖諦性空	-11.9808
亦無無明盡	-11.9808
荊	-11.9808
瓦	-11.9809
循環	-11.9809
識無邊處天	-11.981
都非實有	-11.981
耨	-11.9811
除世貪憂	-11.9811
持經卷	-11.9812
所薰	-11.9813
從座而起	-11.9813
偏覆左肩	-11.9813
若能修學如是般若波羅蜜多	-11.9814
三輪體空	-11.9814
如我昔為歌利王割截身體	-11.9814
瓦石	-11.9815
劬	-11.9815
使起者	-11.9815
盡諸所有供養恭敬	-11.9815
以須菩提實無所行	-11.9815
如來所說不可思議	-11.9816
四攝事	-11.9817
僧那僧涅	-11.9817
常無厭倦	-11.9817
我得斯陀含果不	-11.9818
說一切無漏之法	-11.9818
繒綵	-11.9818
如來在然燈佛所	-11.9819
天隨念	-11.9819
修遠離行	-11.982
長跪	-11.982
堅持	-11.982
搗香	-11.982
若有人能受持讀誦	-11.982
所觀之境	-11.9821
如人入闇	-11.9821
池水	-11.9821
咸作是念	-11.9821
我人等四相	-11.9823
寶蓋	-11.9823
妙吉祥曰	-11.9824
如一恒河中所有沙	-11.9825
若菩薩有我相	-11.9825
當知般若波羅蜜亦如是	-11.9827
細滑	-11.9827
若人以此般若波羅蜜經	-11.9827
稍稍	-11.9828
能出生	-11.9828
安穩	-11.983
所度之	-11.9831
秤歎	-11.9835
提婆達	-11.9836
揵闥婆	-11.9842
三十年	-11.9842
百姓	-11.9842
品中說	-11.9842
代歡喜	-11.9843
河中沙	-11.9845
對面	-11.9847
亦無所倚	-11.9853
譬如大地	-11.9853
智慧光明	-11.9854
無有法得阿耨多羅三藐三菩提	-11.9861
證所求無上正等菩提	-11.9862
所應住	-11.9863
檀度	-11.9865
妄取	-11.9866
徵詰	-11.9866
偈頌	-11.9868
經首	-11.9871
諸菩薩摩訶薩所學般若波羅蜜多	-11.9874
緣慮	-11.9877
能斷金剛	-11.988
釋梵	-11.988
無始來	-11.988
法隨念	-11.9883
得聞般若波羅蜜	-11.9884
土地	-11.9886
分段生死	-11.9887
一切國王	-11.9889
有受持讀誦此經	-11.989
於色等	-11.9891
眼處不可得	-11.9894
四威儀	-11.9897
所應學	-11.9902
毀辱	-11.9905
忉利天上	-11.9906
三昧王三昧	-11.9906
如是等事	-11.9907
四無色定性空	-11.9908
除却	-11.9911
未圓	-11.9912
即非凡夫	-11.9913
會中有	-11.9915
婆伽	-11.9915
讚般若	-11.9916
菩提之心	-11.9919
菩薩行般若	-11.992
心無所住	-11.9927
不能成辦	-11.9928
意處性空	-11.9934
青色	-11.9937
云何應修	-11.9938
善現復言	-11.9942
念僧	-11.9943
實相觀照	-11.9948
法處性空	-11.9948
受諸苦	-11.9949
色聲等	-11.9956
皆以無為法	-11.9956
義無所有故	-11.9958
不動搖	-11.9959
故下文云	-11.9961
為有情宣說	-11.9961
十地論	-11.9962
正迴向	-11.9975
四十一	-11.9981
千劫	-11.9983
設教	-11.9988
無疑惑	-11.9996
乃至夢中	-11.9996
威神力	-12
一問答	-12
首陀	-12.0001
甚深經典	-12.0008
心不沒	-12.0011
二十五有	-12.0014
貞	-12.0015
承當	-12.0015
怛囉	-12.0015
除疑	-12.0016
跛	-12.0018
勝空者言	-12.0018
若合若離	-12.0018
遊戲神通	-12.0018
諸法無生	-12.0018
趣涅槃	-12.002
効	-12.0021
諸苾芻	-12.0024
樞	-12.0024
秉	-12.0025
明法空	-12.0025
飜	-12.0025
少分有情	-12.0026
與諸有情平等共有	-12.0028
須菩提問佛	-12.0028
耐	-12.0029
殞	-12.0029
乃至火劫	-12.003
得法眼淨	-12.003
照曜	-12.003
端坐	-12.0031
叮嚀	-12.0032
能持法者	-12.0032
秀	-12.0032
東南	-12.0032
洲渚	-12.0032
憐	-12.0033
眼識乃至意識	-12.0033
所不及	-12.0033
與般若波羅蜜多相應	-12.0034
穌	-12.0034
水清	-12.0034
布施等五波羅蜜多	-12.0034
離欲惡不善法	-12.0035
眼界乃至眼觸為緣所生諸受	-12.0035
本性無來無去亦復不住	-12.0035
無盡法藏	-12.0035
斷德	-12.0036
無我相無人相無眾生相無壽者相	-12.0037
亦應是真無漏不墮三界	-12.0037
如實證知無量無數無邊有情	-12.0037
能與有情	-12.0038
自性無來無去亦復不住	-12.0038
色心二法	-12.0038
六種震動	-12.0038
喧雜	-12.0038
梓	-12.0039
愁惱	-12.0039
豁然	-12.004
以諸華香而散其處	-12.0041
從何所來	-12.0041
▁後方解	-12.0041
諂	-12.0041
湧	-12.0042
沫	-12.0042
須陀洹果乃至阿羅漢果	-12.0043
於無上正等菩提有退轉	-12.0043
如是滅度無量無數無邊眾生	-12.0045
造作增長	-12.0045
而度脫之	-12.0045
得值八百四千萬億那由他諸佛	-12.0045
唯佛一人	-12.0045
求佛道善男子	-12.0046
無能及者	-12.0046
蹤	-12.0046
無滯	-12.0047
來生是間	-12.0047
目揵連	-12.0047
若人言如來有所說法	-12.0048
展轉亦無所有	-12.0048
勤行精進	-12.0048
真如無來無去亦復不住	-12.005
結加趺坐	-12.005
如其次第	-12.005
寶山	-12.0051
逆流	-12.0052
應觀諸法	-12.0052
復有疑	-12.0053
沸	-12.0053
巳去	-12.0054
圓極	-12.0055
拳印	-12.0056
是人解我所說義不	-12.0057
總持門	-12.0057
無復我相	-12.0058
羞	-12.0059
嚴淨土	-12.0059
印定	-12.0059
清辨	-12.0059
不可說不可說	-12.0059
亦無所作	-12.006
為欲圓滿	-12.0061
應化非真佛	-12.0061
妙願	-12.0062
唯識論云	-12.0063
意界乃至意觸為緣所生諸受	-12.0064
前段	-12.0065
不滅法非一	-12.0065
聖旨	-12.0065
不退轉位	-12.0066
發大莊嚴	-12.0066
爪	-12.0068
腳	-12.0068
為諸有情宣說	-12.0068
以為有我	-12.0069
是名為有	-12.0071
宣示	-12.0072
安詳	-12.0073
不可以相見	-12.0073
麁業	-12.0074
得無上道	-12.0077
不能得便	-12.0079
姊	-12.0083
隨喜功德	-12.0083
離二邊	-12.0085
若見有情	-12.0086
二諦品	-12.0086
住內空乃至無性自性空	-12.0087
或令修行	-12.0088
是樂阿蘭那行	-12.0089
諸有所說	-12.0094
是故菩薩摩訶薩眾	-12.0094
罵辱	-12.0097
為菩薩說	-12.01
辟支佛乘	-12.01
福資糧	-12.0102
運用	-12.0102
出胎	-12.0104
行住淨	-12.0104
不黠	-12.011
界內	-12.011
平聲	-12.011
上下界	-12.0113
作此觀	-12.0117
為有情說	-12.0117
我得阿羅漢道不	-12.012
伺求	-12.0127
分別解說	-12.0131
起大悲心	-12.0131
六十八	-12.0133
兜率天上	-12.0133
段經文	-12.014
眼界不可得	-12.0143
法本性無縛無脫	-12.0146
摩訶波羅蜜	-12.0147
無邊三摩地	-12.0155
□□□□□□	-12.0155
▁摩訶薩	-12.0155
化城	-12.0156
諸陀羅尼門	-12.0157
甚清淨	-12.0158
皆非相應非不相應	-12.016
故法華云	-12.016
三十生	-12.0162
行菩薩道時	-12.0169
於何等法	-12.017
或百	-12.0172
能以無相	-12.0175
心不亂	-12.0177
唯識論	-12.0178
依此經	-12.0189
大神通	-12.0203
入菩薩正性離生位	-12.0206
外別有	-12.0206
福樂	-12.0207
無巧便	-12.0212
色界繫	-12.0214
魔波旬	-12.0215
是為行般若波羅蜜	-12.0216
生死大苦	-12.0216
行深般若波羅蜜	-12.0217
動亂	-12.022
云何降伏	-12.0221
未嘗不	-12.0221
所詮義	-12.0223
承事供養	-12.0223
無處不	-12.0227
知其心	-12.0227
隨心行	-12.0232
如癰	-12.0232
天衣	-12.0234
寶聚	-12.0234
▁初別	-12.0235
諸如來應正等覺	-12.0236
登地	-12.0239
佛說我見	-12.024
超一切世間天	-12.024
中而起	-12.0244
薦	-12.0244
離四相	-12.0245
不那中住	-12.0245
努	-12.0246
相而無所執	-12.0246
遠離此彼岸是	-12.0246
如心無變異	-12.025
生成辦不可得	-12.0253
語言文字	-12.0253
啟咨世尊	-12.0256
搜	-12.0256
或勸修學	-12.0256
必具	-12.0257
菩薩摩訶薩作如是行	-12.0258
退還	-12.0258
成就如是諸行	-12.0259
吳	-12.0259
聞是般若波羅蜜	-12.0262
玄奘	-12.0262
漏盡智	-12.0263
煞	-12.0263
勇猛正勤	-12.0263
瑩	-12.0264
依他性	-12.0264
諸菩薩地	-12.0264
勸勵	-12.0265
佗	-12.0266
勝善根	-12.0266
自相無來無去亦復不住	-12.0267
作此事已	-12.0267
刪	-12.0268
斷界乃至無為界	-12.0269
孟	-12.027
檀那	-12.027
綵	-12.027
治地業	-12.027
所變化者	-12.0271
晏	-12.0271
袈裟	-12.0271
皆來集會	-12.0271
毀訾	-12.0271
莎	-12.0271
而滅度之	-12.0271
軸	-12.0271
修所斷	-12.0272
緊那羅	-12.0273
捨隨念	-12.0273
竅	-12.0273
隨此般若波羅蜜多所說法門應正信	-12.0273
四種兵	-12.0274
趣入菩薩正性離生	-12.0274
假使充滿	-12.0274
不復退轉	-12.0274
3	-12.0274
蕉	-12.0274
淫	-12.0275
見是事已	-12.0275
斯陀含名一往來	-12.0276
洋	-12.0276
能於此經受持讀誦	-12.0276
東西南北	-12.0276
自行化他	-12.0277
無實無虛	-12.0277
如須彌山王	-12.0277
實無有法名阿羅漢	-12.0278
枉	-12.0278
掉舉	-12.0278
良醫	-12.0279
怨親	-12.028
王都	-12.028
後日分	-12.028
初日分	-12.0281
君子	-12.0281
所作已辦	-12.0283
歡欣	-12.0283
屠	-12.0283
有何等異	-12.0283
鎖	-12.0283
若菩薩摩訶薩欲證無上正等菩提	-12.0283
能修學甚深般若波羅蜜多	-12.0283
唯有假名	-12.0285
輻	-12.0287
非合非散但假施設	-12.0287
律儀戒	-12.0287
達摩	-12.0288
是諸恒河所有沙數	-12.0288
十歲	-12.0288
雙忘	-12.0289
超諸聲聞	-12.0289
久種善根	-12.029
拔出眾生	-12.0291
煩惱惡業	-12.0291
船筏	-12.0295
圓音	-12.0295
縷	-12.0296
貫通	-12.0298
權智	-12.0299
中央	-12.0299
入大海	-12.03
皆如幻故	-12.0301
不能出離	-12.0302
入證道	-12.0304
四威儀中	-12.0304
徵意	-12.0307
文三一	-12.031
去來坐臥	-12.031
往到	-12.0311
自恣	-12.0313
利刀	-12.0318
一切法無性	-12.032
離言說相	-12.032
我從佛聞	-12.0322
亦不相違	-12.0323
五逆罪	-12.0323
以生滅心	-12.0325
字某	-12.0326
善現告言	-12.0331
長劫	-12.0334
佛果菩提	-12.0334
能救	-12.0336
能悟入	-12.034
來往	-12.0342
本迹	-12.0343
兩手	-12.0346
頑空	-12.0347
若然者	-12.0348
一切菩薩摩訶薩眾	-12.0351
晝日	-12.0352
比丘眾	-12.0353
賢位	-12.0355
攝伏	-12.0358
尚不能得	-12.0362
迴向大菩提	-12.0362
言詮	-12.0368
依世俗故	-12.0373
然諸有情	-12.0375
十六會	-12.0377
當勤	-12.0377
有為無為法	-12.0389
先已說	-12.0396
揀非	-12.0397
妙寶	-12.04
諸菩薩摩訶薩於一切法	-12.04
十方恒沙	-12.0401
生住滅	-12.0403
是微塵眾	-12.0407
十二分	-12.0419
無量法門	-12.042
論頌云	-12.0421
雙修	-12.0421
今是初	-12.0422
諸佛及弟子	-12.0423
不驚怖	-12.0432
佛又呼須菩提	-12.0437
》《	-12.044
而現在前	-12.0442
不動轉	-12.0443
四十三	-12.0444
遇佛	-12.0446
一心念	-12.0446
得聖果	-12.0446
為菩薩時	-12.0447
得生長	-12.046
太虗空	-12.046
其所得	-12.0461
諸魔事	-12.0463
百千億	-12.0466
生死輪迴	-12.0466
最上成就	-12.0467
暇	-12.0468
我若無我	-12.0471
非有盡法	-12.0472
安住苦聖諦	-12.0472
入海	-12.0474
無罪增語是菩薩摩訶薩	-12.0475
解其義	-12.048
作轉輪聖王	-12.0482
久修令滿	-12.0487
聞是經	-12.0488
四十九	-12.0488
或勸修行	-12.0491
瞞	-12.0498
兵奴	-12.0498
測量	-12.05
激	-12.05
儉	-12.0501
鶴	-12.0501
名為懈怠菩薩	-12.0501
姚秦	-12.0502
無量佛所	-12.0502
菩薩殊勝神通	-12.0503
若法無自性	-12.0503
臻	-12.0503
由所造業或墮	-12.0504
金輪	-12.0504
大圓鏡智	-12.0505
此是科家	-12.0505
刀兵	-12.0505
僧隨念	-12.0505
能學如是三解脫門	-12.0505
啻	-12.0505
於四衢道	-12.0505
驚惶	-12.0506
箇箇	-12.0506
文勢	-12.0507
阻	-12.0507
享	-12.0507
我滅度後	-12.0508
跪	-12.0508
汝頗見	-12.0508
譬如幻師	-12.0509
身界乃至身觸為緣所生諸受	-12.0509
徹底	-12.0509
誕	-12.051
中千界	-12.051
牢獄	-12.0511
瞻仰	-12.0511
攻	-12.0511
坐妙菩提座	-12.0511
當知是人甚為希有	-12.0511
善女人等教贍部洲	-12.0512
盡未來際	-12.0512
三藏法師	-12.0512
逼切	-12.0512
鼻界乃至鼻觸為緣所生諸受	-12.0513
耳界乃至耳觸為緣所生諸受	-12.0513
每日	-12.0514
懶惰	-12.0514
華鬘	-12.0515
後秦龜茲國三藏鳩摩羅什譯	-12.0515
代其歡喜	-12.0516
能取所取	-12.0516
百千劫	-12.0516
而不作證	-12.0517
紺青	-12.0517
嶮	-12.0517
我從昔來所得慧眼	-12.0517
此中佛自說因緣	-12.0519
得大自在	-12.0519
牧	-12.0519
開覺	-12.0519
於我所供養諸佛功德	-12.0519
如來說一切諸相	-12.0521
以佛眼見	-12.0521
愛憎	-12.0523
鈎	-12.0524
作是施	-12.0524
眴	-12.0525
聲聞辟支佛	-12.0525
勸有情類	-12.0525
右旋	-12.0526
應化非真	-12.0526
豈可以	-12.0526
云何菩薩不受福德	-12.0527
凡小	-12.0527
如來說非微塵	-12.0527
一切障	-12.0528
好樂	-12.0528
剝	-12.0528
植善根	-12.0529
寶冠	-12.053
皆於無上正等菩提得不退轉	-12.053
答意云	-12.0531
無著無縛無脫	-12.0532
即非有我	-12.0533
業果報	-12.0534
慳心	-12.0535
麥	-12.0535
渴愛	-12.0537
徧滿	-12.0537
)』「	-12.0541
香味觸	-12.0542
憂喜	-12.0544
乃至於佛無上正等菩提	-12.0545
眾生壽者	-12.0547
修行六波羅蜜多	-12.0548
教誨	-12.055
地界不可得	-12.0552
七寶施福	-12.0553
千倍	-12.0554
喜足	-12.0555
所證無上正等菩提	-12.0555
依他起	-12.0556
檀波羅蜜乃至般若波羅蜜	-12.0557
初發心時	-12.0564
分衛	-12.0567
詰之	-12.057
神通波羅蜜	-12.0573
發起種種	-12.0577
不住非色	-12.0581
初總明	-12.0584
得善巧	-12.0584
地前菩薩	-12.0587
象王	-12.0591
覆護	-12.0593
方始	-12.0597
除我執	-12.0599
我等當	-12.06
初發心菩薩	-12.0602
離諸分別	-12.0603
造論	-12.0603
略示	-12.0605
說是語	-12.0609
何緣菩薩摩訶薩	-12.061
隨有所	-12.0614
得安樂	-12.0615
十遍處性空	-12.0616
影略	-12.0618
為求無上正等菩提	-12.0622
幾所	-12.0626
無恐怖	-12.0626
住真如乃至不思議界	-12.063
悉知悉見	-12.0631
聲聞藏	-12.0635
非善增語是菩薩摩訶薩	-12.0636
悉無所有	-12.0638
不能成辦一切智智	-12.064
不異幻	-12.0645
提婆	-12.0652
與諸有情	-12.0659
乃至十八不共法亦如是	-12.066
心無心	-12.0663
能隨順	-12.0664
弘經	-12.0664
熏心	-12.0665
云何可說	-12.0667
無涯	-12.0673
亦能修	-12.0675
復有二種	-12.0676
鏡像	-12.068
為尊為導	-12.0682
有限量	-12.069
池中	-12.069
違逆	-12.0691
入是三昧	-12.0692
苟能	-12.0694
骨髓	-12.07
輪迴生死	-12.0708
是故經言	-12.071
釋偈	-12.0713
有如是沙等恒河	-12.0713
略述	-12.0717
乃至法雲地	-12.0718
涉有	-12.0718
勝於前	-12.0719
無妨	-12.0719
諸無漏法	-12.072
第四果	-12.0724
降魔	-12.0728
僊	-12.0734
無限量故	-12.0734
允	-12.0736
娘	-12.0736
佛設利羅是極圓滿	-12.0737
崩	-12.0737
唎	-12.0741
厥	-12.0741
煥	-12.0742
鍊	-12.0742
不可說義無增無減	-12.0742
無厭倦	-12.0745
離斷生命	-12.0746
相續隨順趣向臨入一切智智	-12.0747
十六大國王	-12.0747
能學法者	-12.0748
須菩提語釋提桓因	-12.0748
▁若波羅蜜多	-12.0748
擬議	-12.0749
憍薩羅國	-12.075
阿素洛等最尊最勝	-12.075
泊	-12.0751
不顛倒心	-12.0751
料揀	-12.0751
呬	-12.0751
國師	-12.0752
戒隨念	-12.0752
檀那波羅蜜乃至般若波羅蜜	-12.0752
膏	-12.0753
即說呪曰	-12.0753
躭	-12.0753
南西北方	-12.0755
難信難解	-12.0756
現集善根	-12.0756
為欲利樂諸有情故	-12.0757
中千界諸有情類	-12.0757
慼	-12.0758
何況有人盡能受持讀誦	-12.0758
耽著	-12.0758
曠劫	-12.0758
僧若訥	-12.0758
黑白	-12.0758
揭諦	-12.0759
茂	-12.0759
不橫死	-12.0759
串	-12.0759
悅樂	-12.076
妙高山	-12.076
斯陀含能作是念	-12.076
畢竟淨相句義無所有不可得	-12.076
若復餘眾	-12.076
所緣無邊故	-12.076
亦勸他圓滿	-12.076
物類	-12.076
城邑聚落	-12.0761
徧一切處	-12.0762
非染非淨	-12.0762
瞖	-12.0762
不可計阿僧祇人	-12.0763
東土	-12.0763
唯有想等想	-12.0763
愁毒	-12.0763
天上人間	-12.0765
百千俱胝	-12.0765
無上正等覺心	-12.0766
良藥	-12.0766
頓漸	-12.0767
遍覆	-12.0767
不能聽受讀誦	-12.0768
發菩薩心者	-12.0768
佛初成道	-12.0769
如來說即非凡夫	-12.077
無量光明	-12.0771
損惱	-12.0774
心常清淨	-12.0774
唾	-12.0774
佛告大王	-12.0774
無上正覺	-12.0775
眼見色	-12.0775
十千劫	-12.0776
與空等	-12.0776
前中有三	-12.0776
所求一切智智	-12.0777
佛地論云	-12.0777
便知有	-12.0777
如實通達	-12.0777
佛語阿難	-12.0778
唯假施設	-12.0779
萬像	-12.0779
娑婆世界	-12.078
真語者	-12.0781
除愈	-12.0782
善男女	-12.0791
如殑伽沙	-12.0791
無生可度	-12.0792
無障無礙	-12.0793
而散佛上	-12.0794
愚癡顛倒	-12.0795
同一真如	-12.0796
隨諸眾生	-12.0799
是故我說	-12.0799
得須陀洹道	-12.08
迷情	-12.08
到菩薩所	-12.0801
不如善男子	-12.0802
護國土	-12.0802
我曹	-12.0802
住是三昧能	-12.0802
亦能成辦	-12.0804
長遠	-12.0805
漸悟	-12.0807
虗實	-12.0809
聞深般若波羅蜜多	-12.0812
與無量百千俱胝那庾多	-12.0813
不得其便	-12.0816
善女人書般若波羅蜜	-12.0816
輕易	-12.082
城外	-12.0821
十七分	-12.0822
決疑	-12.0824
無願解脫門性空	-12.0825
涯	-12.0826
若已圓滿	-12.0834
佛及僧	-12.0835
所有微塵	-12.0839
雜亂	-12.0839
諸怖畏	-12.084
善女人等書	-12.0841
我弟子	-12.0844
增勝	-12.0846
毫無	-12.085
可思議	-12.0851
巧方便	-12.0852
第二段	-12.0857
疏列	-12.0865
是菩薩摩訶薩從初發心	-12.0868
造化	-12.087
轉輪	-12.087
說法要	-12.0872
妙旨	-12.0873
次釋上	-12.0875
佛告憍尸迦	-12.0889
即是幻	-12.0897
莫不皆	-12.0902
尊重恭敬	-12.0906
受生死苦	-12.0907
千俱胝分不及一	-12.0912
脩道	-12.0914
離瞋恚	-12.0915
無斷盡	-12.0918
住修降伏	-12.0923
往來生死	-12.0925
頓滅	-12.0925
華臺	-12.0925
准前	-12.093
初又二	-12.0932
從此第三結	-12.0939
住無漏心而修	-12.0945
忍中行	-12.0954
所行般若波羅蜜多	-12.0957
聖無漏法	-12.0962
都盡	-12.0963
資粮	-12.0964
不為攝受	-12.0966
文復分	-12.0978
惺	-12.0979
錦	-12.098
法有所住故	-12.0982
空亦無自性不可得	-12.0982
趙州	-12.0983
給孤獨	-12.0986
若依本記	-12.0988
等流果故	-12.0989
受無量無邊阿僧祇眾生	-12.0989
廣狹	-12.099
邦	-12.099
善修般若波羅蜜多故	-12.0991
給孤	-12.0992
讓	-12.0992
璧	-12.0993
曼陀羅	-12.0993
尒	-12.0993
風劫未起已來	-12.0993
月八日	-12.0994
如夢乃至如尋香城	-12.0994
敏	-12.0994
而攝益之	-12.0994
盡壽	-12.0995
丑	-12.0995
名味句	-12.0995
帙	-12.0997
入城乞食	-12.0997
杲日	-12.0998
韻	-12.0998
諫	-12.0999
無尋無伺	-12.0999
從一地至一地	-12.0999
知恩報恩	-12.1
遐	-12.1
菩薩摩訶薩作如是學	-12.1
罣	-12.1001
十方無量無數無邊世界	-12.1001
有方便善巧修行般若波羅蜜多	-12.1001
具大勢力	-12.1001
及正安住一切智智相應作意	-12.1001
觸為緣所生	-12.1002
柰	-12.1002
為能建立	-12.1002
盜賊	-12.1002
為過去未來現在諸佛護念	-12.1003
塊	-12.1003
捶	-12.1004
凶	-12.1004
況能圓滿	-12.1004
棲	-12.1004
無一法可得	-12.1005
小千界諸有情類	-12.1006
普能含受無數無量無邊有情	-12.1006
若菩薩摩訶薩安住精進波羅蜜多	-12.1006
觀於如來	-12.1006
毀蔑	-12.1007
舌界乃至舌觸為緣所生諸受	-12.1007
阿那含名為不來	-12.1007
中趣非趣	-12.1008
非有邊非無邊	-12.1008
受諸劇苦	-12.1008
渡河	-12.1009
踊躍歡喜	-12.1009
歡喜讚歎圓滿	-12.101
花嚴	-12.101
虗靈	-12.1011
宣揚	-12.1011
廣博	-12.1013
禰	-12.1014
節節	-12.1015
此神珠	-12.1015
歌舞	-12.1016
以諸菩薩不受福德故	-12.1016
毛道凡夫	-12.1016
炙	-12.1017
若菩薩通達無我法者	-12.1018
鬼趣	-12.1018
得佛時	-12.1019
若以三十二相觀如來者	-12.1019
如來說諸相具足	-12.1019
貴重	-12.102
度量	-12.1021
膩	-12.1021
離欲阿羅漢	-12.1021
羅睺羅	-12.1023
親聞	-12.1023
肇云	-12.1024
最上祕密	-12.1024
山頂	-12.1025
會麼	-12.1026
四隅	-12.1027
何以知之	-12.1027
善女人等所獲福聚	-12.1029
空中未來	-12.1031
如法修行	-12.1031
四十七	-12.1032
此復云何	-12.1034
恐懼	-12.1035
玅覺	-12.1039
精勤修習	-12.1042
一行三昧	-12.1046
法上菩薩	-12.1047
非畢竟離	-12.105
簡異	-12.105
欲出生	-12.1055
佛十力乃至十八不共法	-12.1055
荷擔如來	-12.1055
諸鬼神	-12.1057
三世平等中	-12.106
不壞假名	-12.1061
經無量劫	-12.1061
六到彼岸	-12.1064
遠達	-12.1064
恒河沙劫	-12.1065
波旬	-12.1067
及諸菩薩摩訶薩眾	-12.1072
勸他	-12.1072
資緣	-12.1072
緣所生諸受自性空	-12.1073
所化眾生	-12.1076
何況有人	-12.1077
甚深法門	-12.1084
難陀	-12.109
如幻夢	-12.1093
聖主	-12.1094
未得道	-12.11
賢劫中	-12.1101
如實性	-12.1101
不可思	-12.1106
初正答	-12.1106
入正位	-12.1108
乎哉	-12.1109
讚德	-12.1111
輕安	-12.1112
祇樹	-12.1115
為魔所	-12.1116
無色界繫	-12.1117
所緣境	-12.1121
教他住	-12.1123
云到彼岸	-12.1123
不可戲論	-12.1125
佛世界如是	-12.1125
註曰	-12.1127
空無相無願	-12.1129
化度眾生	-12.1132
即非善法	-12.1138
菩薩如是學	-12.1139
竺	-12.1142
修四念住乃至八聖道支	-12.1143
捨財	-12.1152
廣如彼	-12.1152
於初地	-12.1153
要旨	-12.1155
能如是知	-12.1156
不作念	-12.1176
言我聞	-12.118
生隨喜	-12.1183
名一往來	-12.1183
二引證	-12.1187
望前	-12.1199
不能如實	-12.1202
薩陀波倫	-12.1205
金輪王	-12.1207
自貢高	-12.1208
異熟生	-12.1212
諸惡趣	-12.1213
自相皆空	-12.1221
化主	-12.1226
生死苦海	-12.123
依天親	-12.123
奘	-12.123
皆發阿耨多羅三藐三菩提心	-12.1232
應言與般若波羅蜜多相應	-12.1232
純一	-12.1232
離癡心	-12.1233
娑嚩	-12.1234
隻	-12.1236
勑	-12.1242
尊者善現所說法中	-12.1243
入滅想受定	-12.1245
如諸愚夫異生執不	-12.1246
非有想者能	-12.1247
喃	-12.1247
強弱	-12.1247
超諸聲聞及獨覺地	-12.1247
瞋惱	-12.1248
鳳	-12.1249
億劫	-12.125
倣	-12.125
劉	-12.125
鑿	-12.125
庭	-12.1251
是人為欲使無相法出	-12.1251
羽	-12.1251
阿鞞跋致地	-12.1251
云何菩薩摩訶薩修遣	-12.1252
受大菩提記	-12.1252
依主釋也	-12.1252
一體同觀	-12.1253
一粒	-12.1253
食噉	-12.1253
非深非妙	-12.1254
逗	-12.1254
須食與食	-12.1255
大事因緣	-12.1255
四念住廣說乃至十八佛不共法	-12.1256
與大比丘眾	-12.1256
相學耶	-12.1256
羼	-12.1256
作麼生	-12.1256
衢	-12.1257
螢	-12.1258
當知菩薩摩訶薩亦無邊際	-12.1258
箇甚麼	-12.1258
輕弄	-12.1258
令我土中諸有情類	-12.1258
剎那剎那	-12.1259
此二義	-12.1259
荊棘	-12.1259
參禪	-12.1259
不為俱害	-12.1259
依因菩薩摩訶薩	-12.1259
滿三千大千世界七寶	-12.126
旃陀羅	-12.126
真淨善友	-12.126
甘蔗	-12.1261
篤	-12.1262
初地已上	-12.1262
偃	-12.1262
心心寂滅	-12.1262
拒逆	-12.1262
悋	-12.1262
帳	-12.1263
西牛貨洲諸有情類	-12.1263
隨所在處	-12.1263
翔	-12.1263
8	-12.1263
匠	-12.1264
當勤修學甚深般若波羅蜜多	-12.1265
以實無有法得阿耨多羅三藐三菩提	-12.1265
若有法如來得阿耨多羅三藐三菩提者	-12.1266
東勝身洲諸有情類	-12.1266
持如是所集善根	-12.1266
可思量不	-12.1266
▁後結	-12.1266
吉凶	-12.1267
儻	-12.1267
聰慧	-12.1268
而名須菩提是樂阿蘭那行	-12.1268
陶	-12.1268
是故空中無色	-12.1268
乃至無染無淨句義無所有不可得	-12.1269
斷彼疑	-12.1269
得福雖多	-12.127
於是中無實無虗	-12.127
阿那含能作是念	-12.127
迦樓羅	-12.1271
得出離	-12.1271
答降伏	-12.1271
七十七	-12.1272
我於彼時	-12.1272
脊	-12.1272
神境智證通	-12.1273
漚和拘舍羅	-12.1273
輸	-12.1275
不起不滅	-12.1275
宛轉	-12.1275
雖住般若波羅蜜多	-12.1277
衍亦如是	-12.1277
皮肉	-12.1278
本行菩薩道時	-12.1278
第一義悉檀	-12.1278
當結金剛	-12.128
身心安樂	-12.128
虛空無量故	-12.128
科儀	-12.1281
通妨	-12.1283
願與一切眾生	-12.1289
十萬偈	-12.129
常見諸佛	-12.1291
綺語	-12.1291
應作如是	-12.1293
佛復告	-12.1296
成辦一切智智不	-12.1302
隱密	-12.1302
儒云	-12.1304
云何能圓滿	-12.1304
無淨故無縛無	-12.131
菩薩摩訶薩但有假名	-12.131
及餘種種	-12.1311
顏色	-12.1311
生實想	-12.1311
以無相為方便	-12.1314
住阿鞞跋致地	-12.1315
兩種	-12.1319
第三段	-12.132
迷惑	-12.1323
於識中	-12.1327
於眾生中	-12.1327
萬緣	-12.1327
得五神通	-12.1328
一切有情不可得故	-12.1329
從初發意乃至	-12.1331
菩薩摩訶薩從初發意	-12.1333
故說無邊	-12.1347
無實事	-12.1348
從初發意已來	-12.135
藍	-12.1351
當知此人	-12.1353
發大菩提心	-12.1353
知他心	-12.1355
一切語言	-12.1356
真源	-12.136
今不盡	-12.1363
諸陀羅尼	-12.1366
本無生滅	-12.1368
令得須陀洹果	-12.1373
釋迦文	-12.1385
故有此文	-12.1388
▁初正明	-12.1396
修聖道	-12.1398
中庸	-12.1402
問辭	-12.1408
境智俱	-12.1413
無想定	-12.1427
在舍衛國	-12.1427
生疑惑	-12.1427
三四五	-12.1429
殑伽沙等諸佛世界	-12.1443
百二十	-12.1447
盡無餘	-12.145
諸佛同說	-12.1457
幻不異	-12.1458
還歸	-12.1473
得阿耨多羅	-12.1486
踰繕那	-12.1488
無上正等菩提有退屈不	-12.1491
文殊師利白佛	-12.1491
百種	-12.1492
餓	-12.1504
怖魔	-12.1506
能示世間相	-12.1507
獅子	-12.1507
能示諸佛世間實相	-12.1507
俄	-12.1507
性等不可說故	-12.1508
我隨爾所時行	-12.1508
釋此文	-12.1508
評	-12.1509
戒禁取	-12.1509
僧伽梨	-12.151
空無邊處	-12.1511
時眾得益	-12.1511
菩薩隨般若波羅蜜教	-12.1511
初中復二	-12.1513
作轉輪王	-12.1514
離虛誑語	-12.1515
首楞嚴三昧	-12.1516
諸漏永盡	-12.1516
於此般若波羅蜜多甚深經中	-12.1518
佛說非身是名大身	-12.1519
便為惡魔之所擾亂	-12.152
如是一切合集稱量	-12.152
無示為無所得	-12.152
玩	-12.152
交涉	-12.1521
隨諸有情所須	-12.1521
品第七十	-12.1521
搆	-12.1521
不為自害	-12.1521
忿恨	-12.1522
上妙供具	-12.1522
穆	-12.1522
亦畢竟離	-12.1522
毘盧遮那	-12.1523
一心三觀	-12.1524
十方一切世界	-12.1524
辟	-12.1524
崙	-12.1524
鐘	-12.1525
嘿	-12.1525
與善知識相隨	-12.1525
揀擇	-12.1525
▁後如應	-12.1525
復以般若波羅蜜多無量法門	-12.1526
陀隣尼門	-12.1526
上求佛地	-12.1526
不離薩婆若心	-12.1526
十八住處	-12.1526
種種巧妙文義	-12.1527
是輩人	-12.1527
▁初勝空	-12.1528
竊作是念	-12.1528
照見五蘊	-12.1528
能詮教	-12.1528
騎	-12.1528
西天譯經三藏朝奉大夫試光祿卿	-12.1529
彈指	-12.153
齎	-12.153
一相所謂無相	-12.153
若能書寫	-12.153
朋黨	-12.153
平等中過去未來現在	-12.1532
牛羊	-12.1532
如瘡	-12.1533
中日分	-12.1533
當覺知魔為	-12.1533
爾時慧命須菩提白佛言	-12.1534
是福德即非福德性	-12.1534
寄位	-12.1534
都無所有皆不可得	-12.1534
坦然	-12.1535
所施物	-12.1535
此中佛自說	-12.1535
與真法界	-12.1536
十不善道	-12.1536
雙亡	-12.1537
菩薩所學	-12.1537
但凡夫之人貪著其事	-12.1538
神仙	-12.1539
能入菩薩正性離生	-12.1539
初地以上	-12.154
書寫經卷	-12.154
循身觀	-12.154
正等菩提	-12.1541
聽受正法	-12.1541
禪那	-12.1542
測度	-12.1542
蹈	-12.1542
輕微	-12.1543
菩薩摩訶薩為菩提故	-12.1544
如來說莊嚴佛土者	-12.1544
入滅盡定	-12.1545
無住生心	-12.1545
想空乃至	-12.1545
二十年	-12.1548
如是所起隨喜迴向	-12.1549
疏鈔云	-12.155
乃至非有想非無想處	-12.155
無堅實故	-12.1551
八聖道	-12.1553
修布施乃至般若波羅蜜多	-12.1554
甚深般若波羅蜜多出現世間	-12.1554
當得一切種智	-12.1559
能生信解	-12.1561
化諸眾生	-12.1564
殺罪	-12.1566
樹林	-12.1568
從初至	-12.1569
所至處	-12.1569
經多劫	-12.157
頭目	-12.157
蕩然	-12.157
近遠	-12.1574
護國品	-12.1577
教授眾生	-12.1578
須達多	-12.1579
其義者	-12.158
無住無著	-12.1587
十二支	-12.1592
甚少	-12.1592
樂若苦	-12.1593
看舉	-12.1593
華藏	-12.1594
加被	-12.1595
萬萬	-12.1598
皆應恭敬	-12.1598
應如是觀	-12.1599
無漏無為	-12.1599
皆得成就	-12.1601
與菩薩摩訶薩眾	-12.1602
若菩薩摩訶薩能於	-12.1604
即不名菩薩	-12.1607
斷三結	-12.1608
心大歡喜	-12.1612
力士	-12.1614
消除	-12.1615
當不盡	-12.1615
佛恐人	-12.1618
十六分	-12.1621
般若經卷	-12.1634
幻諦	-12.1635
大自在天	-12.1638
亦復不能	-12.1642
十三法師	-12.1646
大明呪	-12.1647
六十五	-12.1656
天人阿修羅	-12.1656
所受用	-12.1657
能具足六波羅蜜	-12.1662
化作種種	-12.167
當行般若波羅蜜多	-12.1671
作如是觀	-12.1674
性自空	-12.1675
最勝成就	-12.1676
四等心	-12.1678
入見道	-12.1679
常懷	-12.1686
我亦當	-12.1692
淨若不淨	-12.1701
而為供養	-12.1701
生毀謗	-12.1709
成斷滅	-12.1714
最難	-12.1716
不說斷滅	-12.1718
能了達	-12.172
深細性	-12.1723
護世	-12.1723
百千世界	-12.173
後世功德	-12.1732
不墮地獄	-12.174
盛釋	-12.1746
此即名為	-12.1747
皷	-12.1766
第三禪	-12.1767
有常有恒	-12.1771
受想行	-12.1772
一切菩提分法	-12.1776
優婆塞優婆夷	-12.1779
討	-12.178
公案	-12.178
握	-12.178
入舍衛大城乞食	-12.178
知一切眾生心	-12.1781
不取故不著	-12.1781
劈	-12.1781
蒼	-12.1781
逝	-12.1781
肉團	-12.1782
而攝益者	-12.1783
不久定當圓滿	-12.1783
遞	-12.1783
離麁惡語	-12.1783
弄	-12.1783
囚	-12.1784
青龍	-12.1784
零	-12.1785
隣近無上正等菩提	-12.1785
嬰兒	-12.1785
千二百五十人俱	-12.1785
離害生命	-12.1786
菩薩摩訶薩安住安忍波羅蜜多	-12.1786
何況空中有未來	-12.1786
㧗	-12.1786
種姓及諸功德	-12.1787
淡	-12.1788
安住大乘善男子等	-12.1788
步步	-12.1788
四大洲諸有情類	-12.1788
毘鉢舍那	-12.1788
何況空中有現在	-12.1788
確	-12.1789
龍猛	-12.1789
哭	-12.1789
現斯瑞	-12.179
從三昧起	-12.179
喫	-12.179
匪	-12.179
流浪	-12.1792
此中都無堅實	-12.1792
色見聲求	-12.1792
啞	-12.1792
須陀洹乃至佛	-12.1792
學此般若波羅蜜多大呪王時	-12.1792
遽	-12.1792
普為利樂諸有情故發趣大乘	-12.1793
覲	-12.1793
離苦得樂	-12.1793
梁武帝	-12.1793
圭峯	-12.1794
無相無狀無言無說	-12.1794
親近善友	-12.1794
波羅揭諦	-12.1794
諸有所為	-12.1794
裝	-12.1795
逃	-12.1795
無依無得	-12.1795
餅	-12.1795
復發願言	-12.1795
亢	-12.1795
從一佛國	-12.1796
西牛貨洲	-12.1796
遠離不遠離相可得	-12.1797
右遶	-12.1797
長壽天	-12.1798
癩	-12.1798
生長壽天	-12.1799
快哉	-12.1799
自賣身	-12.1799
七十八	-12.18
毛輪	-12.18
耗	-12.18
助成	-12.18
洞徹	-12.18
言說章句	-12.18
歌利	-12.1801
與眾生共	-12.1801
三摩鉢帝	-12.1802
鴈	-12.1802
徑路	-12.1802
邏	-12.1803
與佛無異	-12.1803
從本以來	-12.1803
依勝義	-12.1804
謙下	-12.1804
所歸趣	-12.1805
一切時求菩薩摩訶薩	-12.1805
偷	-12.1805
遠離二想	-12.1805
散華供養	-12.1806
罰	-12.1807
我於如是諸法	-12.1807
月十五日	-12.1808
以是之故	-12.1808
城郭	-12.1809
西國	-12.181
其有欲令無相之法有出住者	-12.1811
被服	-12.1811
巧妙文義為其廣說	-12.1811
解脫知見眾	-12.1812
如水中月	-12.1814
持經之人	-12.1815
屎	-12.1817
飢餓	-12.1817
乃至如尋香城	-12.1818
戰勝	-12.1819
由不緣	-12.1819
文分為三	-12.1819
園林	-12.182
金口	-12.1821
破戒之人	-12.1821
非假設	-12.1822
則是一合相	-12.1826
我法二執	-12.1827
從此經生	-12.1827
不生不滅亦非	-12.1828
皆不能從三界中出	-12.1829
眾生可化	-12.183
給施	-12.183
染汙	-12.1833
五十五	-12.1834
怛他	-12.1835
悔過	-12.1836
弘誓	-12.1837
▁初別解	-12.1839
論議師	-12.1841
家家	-12.1845
喜動	-12.1845
不捨一切眾生	-12.1846
空中現在	-12.1847
無量壽	-12.185
條然	-12.1851
一個	-12.1852
資生施	-12.1853
深契	-12.1853
受想行識亦復如是	-12.1854
手眼	-12.1857
極尊	-12.1858
離相發心	-12.1862
墮二乘地	-12.1865
謗正法	-12.1871
無著約	-12.1871
尚畢竟無所有不可得	-12.1872
修勝行	-12.1877
不及持說	-12.1891
已不盡	-12.1892
隨心所	-12.1893
有菩薩耶	-12.1896
佛般涅槃後	-12.1901
都不見	-12.1904
三空門	-12.1912
微塵喻	-12.1914
二義一者	-12.1915
若菩薩摩訶薩不於	-12.1929
無我人等相	-12.193
文可知	-12.193
所熏	-12.1932
雨華	-12.194
影現	-12.194
西域記	-12.1955
受勤苦	-12.1961
空無我我所	-12.1969
何時當	-12.1976
作大饒益	-12.1991
得出現	-12.2002
有菩薩摩訶薩修行般若波羅蜜多	-12.201
此文來	-12.201
起慈心	-12.2022
放捨	-12.2027
苦痛	-12.203
由如是法生	-12.2033
尊重弟子	-12.2035
本來無有	-12.2036
提綱	-12.2046
戈	-12.2047
令易解	-12.2047
拱	-12.2049
瞬	-12.2051
是極清淨	-12.2055
怛嚩	-12.2055
忙	-12.2056
呾	-12.2056
迅	-12.2058
職	-12.2058
受諸楚毒猛利大苦	-12.2059
嗣	-12.2061
恰	-12.2062
真寔	-12.2062
喫飯	-12.2063
厨	-12.2063
鹿苑	-12.2064
楊	-12.2064
生滅垢淨增減	-12.2064
有少法	-12.2064
訟	-12.2065
皇帝	-12.2065
超過一切聲聞	-12.2066
童男童女	-12.2066
不可得而能修習	-12.2066
唯佛與佛	-12.2066
終不以空不空分別	-12.2067
何況空中有過去未來現在	-12.2067
眾寶嚴飾	-12.2067
頭面禮	-12.2067
亦應無增無減	-12.2067
是則法性亦應各異	-12.2067
能示世間諸法實相	-12.2067
及於此中無所執著	-12.2068
厭怖	-12.2068
鳩	-12.2068
云何能得一切智智	-12.2069
仁王護國般若經	-12.2069
六種變動	-12.2069
斤	-12.207
業隨智慧行	-12.207
佛所化人	-12.207
世尊甚奇微妙方便	-12.207
鶖子	-12.207
尊者所問	-12.207
是菩薩摩訶薩真勝善友	-12.207
乃至鄔波尼殺曇倍亦復為勝	-12.207
奉勅	-12.2071
終不忘失	-12.2071
從此出	-12.2071
難可測量	-12.2072
見此大光	-12.2072
孽	-12.2072
故唯識云	-12.2072
無願有願相可得	-12.2072
六塵境界	-12.2072
無相有相相可得	-12.2072
令諸等持	-12.2073
闢	-12.2073
慶慰	-12.2073
若非有想	-12.2073
▁25	-12.2073
我念過去	-12.2074
無受無取	-12.2074
散動	-12.2074
妙高山王	-12.2074
校量顯勝	-12.2075
堪忍世界	-12.2075
樂苦相可得	-12.2075
佛涅槃後	-12.2075
來無所從	-12.2076
旁	-12.2076
塚間	-12.2076
我無我相可得	-12.2076
湛寂	-12.2076
諷誦讀	-12.2076
解空第一	-12.2077
千差	-12.2077
令佛種不斷	-12.2077
頂戴	-12.2077
況於其中有趣非趣	-12.2077
彼有菩薩名曰	-12.2078
菩薩摩訶薩修行靜慮波羅蜜多時	-12.2078
離應一切智智心觀	-12.2078
須陀洹名為入流	-12.2078
亦由此真如施設	-12.2078
攀	-12.2078
天眼所見	-12.2078
以七寶滿爾所恒河沙數三千大千世界	-12.2079
淨不淨相可得	-12.2079
常無常相可得	-12.2079
[...]
