<unk>	0
<s>	0
</s>	0
之	-4.09153
以	-4.60116
為	-4.65188
/	-4.99121
王	-5.12163
而	-5.22101
(	-5.2804
於	-5.34438
)	-5.35908
其	-5.38041
也	-5.38359
有	-5.40534
曰	-5.48882
人	-5.51873
不	-5.54733
者	-5.61486
與	-5.73507
于	-5.80719
及	-5.83962
自	-5.8526
至	-5.88788
大	-5.89259
時	-5.94114
等	-5.96337
子	-5.97961
使	-5.9924
乃	-6.01668
)(	-6.03134
無	-6.04683
一	-6.06096
事	-6.1261
中	-6.13522
將	-6.15877
皆	-6.16404
遂	-6.17935
爲	-6.18835
遣	-6.24548
所	-6.25448
兵	-6.26141
命	-6.29044
又	-6.30518
州	-6.3142
軍	-6.35992
在	-6.36048
城	-6.36084
國	-6.36219
言	-6.37845
公	-6.3805
復	-6.38364
行	-6.38457
上	-6.39726
出	-6.40982
後	-6.43655
見	-6.43719
道	-6.46878
得	-6.47469
三	-6.48158
故	-6.49156
文	-6.49351
令	-6.49405
亦	-6.49797
入	-6.49943
立	-6.50053
今	-6.51358
李	-6.51495
山	-6.52318
如	-6.52628
臣	-6.53421
安	-6.54468
則	-6.55179
▁	-6.55475
縣	-6.55881
天	-6.56003
歸	-6.56471
生	-6.56877
死	-6.56938
因	-6.57931
平	-6.61493
矣	-6.63819
常	-6.64194
書	-6.64209
從	-6.6438
當	-6.64647
欲	-6.65935
作	-6.66542
多	-6.67025
日	-6.67149
已	-6.68341
帝	-6.69168
此	-6.69705
初	-6.70249
二	-6.70275
相	-6.70364
知	-6.7116
官	-6.71732
封	-6.71748
聞	-6.72446
下	-6.72748
張	-6.73518
卒	-6.75534
南	-6.7554
馬	-6.75986
唐	-6.76673
名	-6.76961
興	-6.7759
水	-6.78491
元	-6.78588
非	-6.78692
方	-6.79292
可	-6.80136
然	-6.8114
舊	-6.8178
進	-6.82355
晉	-6.8245
成	-6.82768
吾	-6.84052
謂	-6.84124
何	-6.84346
民	-6.85061
光	-6.8524
我	-6.85595
殺	-6.85785
云	-6.86016
請	-6.86236
還	-6.8712
長	-6.87252
金	-6.87898
漢	-6.88109
陳	-6.88423
明	-6.88743
攻	-6.89294
門	-6.90577
來	-6.90583
東	-6.90897
乎	-6.91069
若	-6.91101
同	-6.91318
未	-6.91769
家	-6.91909
五	-6.92656
先	-6.92799
周	-6.93228
西	-6.93293
居	-6.94023
字	-6.94614
石	-6.96928
用	-6.96991
建	-6.9712
宗	-6.97777
焉	-6.98865
守	-6.99096
既	-7.00433
君	-7.00763
劉	-7.01118
宋	-7.01802
年	-7.02232
世	-7.02461
徳	-7.02726
去	-7.03838
是	-7.04194
北	-7.0452
義	-7.04529
四	-7.0534
後主	-7.0676
置	-7.07373
衆	-7.07553
必	-7.07892
地	-7.08324
陽	-7.08333
武	-7.09084
雖	-7.09322
拜	-7.10124
前	-7.11348
重	-7.11513
即	-7.11684
禮	-7.12039
内	-7.12089
鎮	-7.12365
稱	-7.12457
心	-7.12943
始	-7.13024
氏	-7.13409
主	-7.14284
吳	-7.14328
師	-7.14718
本	-7.14909
都	-7.15239
通	-7.15326
堅	-7.15402
江	-7.15916
郡	-7.16546
㑹	-7.16791
且	-7.172
加	-7.17476
數	-7.17675
髙	-7.18248
傳	-7.18846
賜	-7.19007
降	-7.20306
朝	-7.20368
盡	-7.20849
趙	-7.21159
正	-7.21965
諸	-7.22102
宜	-7.22281
能	-7.22558
取	-7.22678
太守	-7.23139
逺	-7.23302
龍	-7.23653
善	-7.23751
德	-7.23827
白	-7.24071
授	-7.24369
神	-7.25131
定	-7.25191
虎	-7.2603
改	-7.26033
仁	-7.26127
實	-7.26236
詔	-7.26379
梁	-7.27258
越	-7.27456
惟	-7.28974
奉	-7.29058
謀	-7.29309
秦	-7.29536
戰	-7.30487
親	-7.30522
志	-7.31001
勒	-7.31005
思	-7.31052
父	-7.31208
延	-7.31366
將軍	-7.31508
雄	-7.31537
分	-7.31741
召	-7.31923
楊	-7.32592
發	-7.32882
求	-7.3292
表	-7.331
遷	-7.33202
甚	-7.33257
率	-7.33336
問	-7.33834
起	-7.34067
外	-7.35256
士	-7.35379
法	-7.35588
侯	-7.35768
太祖	-7.35784
敗	-7.36041
女	-7.36191
以為	-7.36568
流	-7.36702
尚	-7.36763
或	-7.37299
任	-7.39787
魏	-7.39933
清	-7.40591
府	-7.40592
九	-7.40961
據	-7.41067
舉	-7.41165
垂	-7.41739
不能	-7.43077
将	-7.433
不可	-7.43566
會	-7.43794
崇	-7.44222
小	-7.4448
過	-7.44635
風	-7.44679
三年	-7.44722
治	-7.44932
奔	-7.45158
蜀	-7.45863
服	-7.46121
執	-7.46335
六	-7.47058
代	-7.4718
母	-7.47308
元年	-7.47326
耳	-7.47522
宣	-7.47711
信	-7.47764
卿	-7.48227
意	-7.48233
少	-7.49001
難	-7.49275
亡	-7.49895
廣	-7.50285
昌	-7.50377
望	-7.51699
政	-7.51743
經	-7.5204
領	-7.52813
懼	-7.52934
保	-7.5355
處	-7.53693
遣使	-7.53917
州刺史	-7.53934
元宗	-7.54257
失	-7.54359
楚	-7.54583
宫	-7.54589
益	-7.54985
温	-7.55092
身	-7.55104
受	-7.55104
易	-7.56033
八	-7.56115
異	-7.56192
獻	-7.56602
節	-7.56627
亂	-7.56823
盛	-7.56876
留	-7.56958
力	-7.56965
海	-7.57669
爾	-7.57701
號	-7.57797
深	-7.58217
𢎞	-7.58307
獨	-7.58824
應	-7.58825
土	-7.58861
討	-7.58957
議	-7.59351
觀	-7.59401
一作	-7.59566
食	-7.59593
承	-7.59596
登	-7.59637
烈祖	-7.60191
位	-7.60695
弟	-7.6095
終	-7.60985
賊	-7.61447
和	-7.61863
威	-7.61968
黄	-7.62306
伐	-7.62431
固	-7.62543
每	-7.62689
賢	-7.62929
高	-7.6312
斬	-7.63133
忠	-7.63204
節度使	-7.63442
/)	-7.6347
遇	-7.63777
破	-7.64128
齊	-7.64164
屬	-7.64427
殿	-7.64428
怒	-7.64504
臨	-7.64509
直	-7.64812
猶	-7.64825
聖	-7.65039
田	-7.6518
昭	-7.6541
好	-7.6549
業	-7.65665
擊	-7.65805
營	-7.65827
開	-7.6629
帥	-7.66445
告	-7.66678
永	-7.66753
十	-7.67026
萬	-7.67099
新	-7.67535
功	-7.67622
計	-7.67892
修	-7.68322
雲	-7.68648
嘗	-7.68776
闕	-7.68968
燕	-7.69044
制	-7.69151
夜	-7.6919
坐	-7.69197
襲	-7.6946
徐	-7.69515
凡	-7.69555
陵	-7.6975
繼	-7.69918
髙祖	-7.69953
氣	-7.70394
物	-7.70774
僧	-7.7096
於是	-7.71268
景	-7.71595
徙	-7.71667
誅	-7.71799
叛	-7.71821
學	-7.72165
往	-7.72238
古	-7.72642
老	-7.72653
果	-7.73105
太子	-7.73124
引	-7.73136
間	-7.73332
二年	-7.73338
疾	-7.74076
悉	-7.74376
濟	-7.74529
寧	-7.74708
合	-7.74884
七	-7.7493
圖	-7.74961
樂	-7.75024
孫	-7.75105
權	-7.75475
兩	-7.7552
口	-7.75961
夫	-7.76224
集	-7.76269
反	-7.77035
更	-7.77195
第	-7.77242
素	-7.77628
左右	-7.77932
絶	-7.77938
隨	-7.77947
天下	-7.78346
克	-7.78479
性	-7.78545
冬十月	-7.78647
送	-7.7875
百	-7.78932
奏	-7.79012
致	-7.79085
次	-7.79208
度	-7.7951
首	-7.80719
語	-7.81489
載	-7.81668
詩	-7.82407
羅	-7.8276
史	-7.82777
寶	-7.82925
特	-7.83064
遺	-7.83148
汝	-7.8316
華	-7.83252
章	-7.83838
陛下	-7.84697
餘	-7.84814
願	-7.85005
路	-7.85016
夏四月	-7.85024
頗	-7.85433
連	-7.85514
后	-7.85581
辭	-7.85818
俱	-7.85906
手	-7.85919
獲	-7.86209
寳	-7.8632
敵	-7.86436
寺	-7.87109
被	-7.87117
真	-7.87148
迎	-7.8715
不得	-7.87201
許	-7.87343
夷	-7.87405
祖	-7.88374
恩	-7.8862
人也	-7.88735
色	-7.88748
錢	-7.88762
尋	-7.89024
皇	-7.89055
衣	-7.89128
疑	-7.89275
各	-7.89338
圍	-7.8946
恐	-7.89544
頭	-7.89844
呉	-7.89856
御	-7.89881
吏	-7.89896
部	-7.89933
厚	-7.8994
夏	-7.90014
林	-7.90206
才	-7.90542
順	-7.9123
左	-7.91282
詣	-7.91345
右	-7.91538
川	-7.91702
共	-7.91876
理	-7.91898
聲	-7.91981
屯	-7.92094
仕	-7.92311
曰吾	-7.92351
兼	-7.9248
三月	-7.92499
由	-7.9362
哉	-7.93819
就	-7.93898
豈	-7.93936
論	-7.94051
存	-7.94125
靈	-7.94147
騎	-7.94435
幸	-7.94575
胡	-7.94867
並	-7.94904
罷	-7.95292
誠	-7.96051
孤	-7.96119
美	-7.9614
除	-7.9616
别	-7.96491
杜	-7.96621
貴	-7.96627
化	-7.96813
彦	-7.9695
著	-7.97003
納	-7.97039
河	-7.97482
洪	-7.97518
備	-7.9812
伯	-7.9812
嵗	-7.98207
顯	-7.98246
紀	-7.98289
嚴	-7.98334
福	-7.98387
𤣥	-7.98441
解	-7.98845
并	-7.98924
器	-7.98987
交	-7.9909
朱	-7.99121
容	-7.99147
利	-7.99203
止	-7.99268
走	-7.99346
但	-7.99447
秋七月	-7.99544
滅	-7.99913
喜	-7.99973
隆	-8.00551
妻	-8.00671
罪	-8.00763
救	-8.00973
動	-8.00993
全	-8.0107
懐	-8.0116
逆	-8.01183
敬	-8.01347
月	-8.01571
署	-8.01704
木	-8.01804
隂	-8.0209
殺之	-8.02317
春	-8.02489
勝	-8.02637
勢	-8.02645
兄	-8.02699
玉	-8.03101
臺	-8.03123
里	-8.03383
列	-8.03498
超	-8.03966
酒	-8.04019
司	-8.04244
收	-8.04624
孝	-8.04733
嘉	-8.05046
堂	-8.05158
棄	-8.05481
造	-8.0568
甲	-8.05876
四年	-8.06011
具	-8.06596
皇帝	-8.06813
儀	-8.06915
惡	-8.07075
至是	-8.0722
咸	-8.07377
統	-8.07401
推	-8.07448
曜	-8.07747
廢	-8.08027
閩	-8.08125
冦	-8.08447
附	-8.08501
謝	-8.08552
比	-8.08686
彼	-8.08784
追	-8.09032
仍	-8.09295
尚書	-8.09376
恭	-8.09425
十二月	-8.101
期	-8.10118
良	-8.10141
殷	-8.10285
精	-8.10413
勸	-8.10601
遊	-8.10618
雅	-8.10664
車	-8.10676
結	-8.10789
教	-8.10917
對	-8.11119
朕	-8.11212
撫	-8.11265
未幾	-8.11428
太	-8.11893
持	-8.12314
運	-8.1233
江南	-8.12472
尊	-8.12619
已而	-8.12722
飛	-8.12896
伏	-8.12964
薨	-8.13505
記	-8.14147
魯	-8.14315
客	-8.14461
目	-8.14465
蠻	-8.14855
是月	-8.15527
久	-8.15594
羣	-8.15862
向	-8.16005
九月	-8.1664
足	-8.16761
退	-8.16815
按	-8.17182
充	-8.17184
南唐	-8.17191
夢	-8.17206
夀	-8.17358
近	-8.1747
極	-8.17489
司馬	-8.17591
便	-8.17865
韓	-8.18143
務	-8.18221
宴	-8.1833
邑	-8.18415
鄉	-8.18433
强	-8.18498
紹	-8.18578
火	-8.18617
百姓	-8.18651
淮南	-8.19013
變	-8.19096
報	-8.19242
慶	-8.19297
鄭	-8.19345
典	-8.19373
儒	-8.19657
害	-8.19657
壽	-8.19791
象	-8.1991
六月	-8.19948
顧	-8.20173
貢	-8.20448
視	-8.20613
五年	-8.2095
累	-8.21018
郭	-8.21444
䘚	-8.21461
葬	-8.21563
衛	-8.21589
千	-8.21762
約	-8.21917
池	-8.22155
勇	-8.2241
嗣	-8.22462
要	-8.22503
輔	-8.22586
憂	-8.22635
天子	-8.22682
省	-8.22806
畧	-8.229
智	-8.22946
樓	-8.22988
輕	-8.23178
長安	-8.23223
院	-8.23336
急	-8.23626
秋	-8.23802
室	-8.24286
姓	-8.24466
病	-8.24858
刺史	-8.24883
先是	-8.24966
由是	-8.25142
莫	-8.25235
聞之	-8.25337
而不	-8.2578
榮	-8.25955
金陵	-8.26239
職	-8.26289
草	-8.26528
英	-8.26602
愛	-8.26643
孟	-8.2686
略	-8.26919
昔	-8.27003
五月	-8.27062
徴	-8.27116
即位	-8.27134
離	-8.27194
郎	-8.27347
散	-8.27416
馳	-8.27502
聰	-8.27636
贈	-8.27693
忽	-8.27719
是時	-8.27759
乘	-8.27933
二月	-8.27976
負	-8.27986
私	-8.28535
竒	-8.28847
先主	-8.28975
賦	-8.28989
乗	-8.29521
赴	-8.29554
耶	-8.29616
諫	-8.29807
危	-8.29832
八月	-8.29897
侍中	-8.30004
成都	-8.30042
彌	-8.30166
屢	-8.30463
姚	-8.3063
監	-8.30745
扵	-8.30932
布	-8.31028
青	-8.31059
感	-8.31085
萇	-8.31131
歲	-8.31302
卷	-8.31336
舟	-8.31491
待	-8.31589
賀	-8.31651
簡	-8.31721
刑	-8.31787
禁	-8.32044
選	-8.3208
謙	-8.32436
佛	-8.32599
邪	-8.32733
機	-8.33053
陷	-8.33224
面	-8.33551
征	-8.33723
市	-8.33928
虜	-8.33942
仲	-8.34165
達	-8.34394
夫人	-8.34594
設	-8.34758
寵	-8.3481
指	-8.34868
音	-8.34991
祚	-8.35139
朝廷	-8.3533
崔	-8.35337
免	-8.3545
怨	-8.35591
太后	-8.36056
說	-8.36108
徒	-8.36224
斷	-8.36248
魚	-8.3626
勞	-8.36454
宻	-8.36468
乞	-8.3682
資	-8.36898
曲	-8.3691
星	-8.36925
大將軍	-8.3701
斯	-8.37253
亮	-8.37285
兄弟	-8.374
不敢	-8.37417
歴	-8.37907
吳王	-8.37931
形	-8.37936
哀	-8.38214
高祖	-8.38386
養	-8.38388
境	-8.38791
微	-8.3892
富	-8.38926
如此	-8.38932
拒	-8.38959
不從	-8.39023
禍	-8.39059
廟	-8.39301
暴	-8.39425
一日	-8.39495
升	-8.39532
鄴	-8.39565
尹	-8.3979
援	-8.39798
聽	-8.39812
花	-8.39942
從之	-8.40355
飲	-8.40793
牛	-8.40819
符	-8.40883
録	-8.41239
樹	-8.41674
尤	-8.4179
掠	-8.418
依	-8.41929
原	-8.42148
投	-8.42152
猛	-8.42362
讓	-8.42461
雨	-8.42627
従	-8.42673
農	-8.42765
庭	-8.43175
曹	-8.43398
窮	-8.43428
桓	-8.43643
改元	-8.43769
戍	-8.43808
賞	-8.43879
末	-8.44308
世祖	-8.44374
世子	-8.44378
亭	-8.44419
斬之	-8.4447
休	-8.44675
勿	-8.44831
徃	-8.45028
康	-8.45045
惠	-8.45094
再	-8.45106
之後	-8.4513
釋	-8.45464
松	-8.45526
積	-8.45566
殊	-8.45775
施	-8.45842
勲	-8.45967
羣臣	-8.45974
侵	-8.46062
移	-8.46206
盧	-8.46222
慮	-8.4625
考	-8.46282
佐	-8.46311
述	-8.46393
情	-8.46501
辟	-8.46672
族	-8.47227
纂	-8.47321
野	-8.47366
落	-8.47529
揚	-8.47558
兒	-8.4757
澤	-8.47593
弱	-8.47654
聚	-8.4779
給	-8.47824
丁	-8.47885
無所	-8.479
轉	-8.48113
識	-8.48454
葢	-8.48488
助	-8.48547
而還	-8.48583
諸將	-8.48659
隱	-8.48747
爭	-8.4886
冠	-8.49104
十一月	-8.49178
竊	-8.49672
密	-8.49768
太尉	-8.49843
敢	-8.49903
橋	-8.49977
案	-8.50014
博	-8.50312
淵	-8.50687
工	-8.50858
裕	-8.50935
適	-8.51119
閣	-8.51125
洛	-8.51189
指揮使	-8.51314
築	-8.51422
邦	-8.5143
赤	-8.51437
戎	-8.51826
率衆	-8.51854
傷	-8.51955
覺	-8.5204
覆	-8.52192
喪	-8.52206
犯	-8.52218
俗	-8.52224
逼	-8.52294
烈	-8.52442
申	-8.52578
幽	-8.53215
武肅王	-8.53293
督	-8.53341
京師	-8.5339
偽	-8.53434
貞	-8.53958
子也	-8.53982
大夫	-8.54011
泉	-8.54064
勅	-8.54211
諭	-8.54385
暉	-8.54556
戸	-8.54581
妃	-8.54893
彭	-8.54917
䇿	-8.54983
程	-8.55009
潛	-8.55362
洞	-8.55371
璋	-8.55638
之地	-8.55675
戒	-8.55749
朗	-8.55761
禹	-8.55851
洛陽	-8.56035
畫	-8.56064
六年	-8.56198
謂之	-8.56199
决	-8.56209
邊	-8.56217
安南	-8.56509
襄	-8.56516
假	-8.56569
士卒	-8.56891
巖	-8.56975
壁	-8.57342
畏	-8.5737
縱	-8.57451
接	-8.57634
京	-8.57658
懷	-8.57754
竹	-8.5777
體	-8.57832
不知	-8.57965
曰此	-8.58068
户	-8.58164
種	-8.58251
步	-8.5832
所以	-8.58424
越王	-8.58485
霸	-8.58506
茍	-8.58589
秋八月	-8.58638
訓	-8.58715
廷	-8.59139
避	-8.59278
宿	-8.59375
患	-8.59677
泰	-8.59728
狀	-8.59996
知誥	-8.60118
公主	-8.60203
豐	-8.60274
䝉遜	-8.60629
劒	-8.60634
遵	-8.60651
谷	-8.60664
藏	-8.60693
説	-8.60791
呼	-8.60843
恒	-8.61006
委	-8.61455
憲	-8.61905
竟	-8.61991
不許	-8.61993
穆	-8.62015
皝	-8.62078
侍	-8.62094
輙	-8.62361
劍	-8.62461
冬	-8.62715
苦	-8.62722
季	-8.6274
錄	-8.62747
茂	-8.62862
冲	-8.63141
忌	-8.6329
振	-8.63426
遼	-8.63436
朔	-8.63464
對曰	-8.63897
責	-8.64025
空	-8.6406
傾	-8.64527
津	-8.64577
沙	-8.64708
翰	-8.64803
擢	-8.64806
陸	-8.64824
福州	-8.64892
而已	-8.64947
叔	-8.65061
支	-8.65248
懿	-8.65656
源	-8.6582
吴	-8.65899
闗	-8.66129
敏	-8.66132
奪	-8.66138
肅	-8.66146
屈	-8.66511
子胥	-8.6662
丘	-8.6667
溪	-8.66671
隠	-8.67024
射	-8.67318
鍾	-8.67338
傉檀	-8.67589
專	-8.67611
歌	-8.67644
太宗	-8.67775
他	-8.67853
術	-8.67901
預	-8.67968
其子	-8.68299
友	-8.68304
念	-8.68519
掌	-8.68562
將兵	-8.68669
巳	-8.68761
險	-8.68826
參	-8.68852
䘮	-8.68856
輒	-8.68985
索	-8.6899
背	-8.69041
可以	-8.69268
不足	-8.69545
毛	-8.69687
翼	-8.697
丹	-8.69742
舍	-8.69803
珠	-8.69833
七年	-8.69894
吳越	-8.69904
徵	-8.69919
沈	-8.69934
䝉	-8.7021
井	-8.70263
社稷	-8.70371
虚	-8.70641
丞相	-8.70647
蘇	-8.70648
薦	-8.70774
况	-8.70947
香	-8.71232
自稱	-8.71368
淮	-8.71381
討之	-8.71395
来	-8.7144
漸	-8.71775
赦	-8.7207
段	-8.72081
詞	-8.72096
須	-8.72119
司空	-8.72248
吉	-8.72315
然後	-8.7246
十年	-8.72487
副使	-8.72777
巴	-8.7297
澄	-8.72981
驚	-8.73081
拔	-8.7351
籍	-8.73543
恨	-8.73875
班	-8.73996
逃	-8.74
仙	-8.74059
諸侯	-8.74079
契丹	-8.74119
庶	-8.7446
銀	-8.74473
喬	-8.74517
秀	-8.74629
薄	-8.74641
嵩	-8.7465
軌	-8.74681
宏	-8.74864
國人	-8.75002
𩔖	-8.75071
端	-8.75085
夏五月	-8.75137
建州	-8.75185
春秋	-8.75196
詳	-8.75315
示	-8.75412
祀	-8.75482
勤	-8.75606
爵	-8.75852
藩	-8.75876
違	-8.759
補	-8.76046
泓	-8.76123
厯	-8.76128
擒	-8.76239
烏	-8.76356
既而	-8.76457
都督	-8.7646
館	-8.76522
知祥	-8.76592
以爲	-8.76747
副	-8.76889
輿	-8.76972
紫	-8.76973
習	-8.77045
蓋	-8.77072
蔡	-8.77074
干	-8.77126
招	-8.77151
放	-8.77186
文武	-8.7724
所殺	-8.77442
震	-8.77624
匡	-8.77915
是嵗	-8.7795
冊	-8.77969
試	-8.78079
許之	-8.78218
之事	-8.78256
謹	-8.78485
笑	-8.78525
擊之	-8.78803
牧	-8.78882
諸軍	-8.78956
校	-8.78966
察	-8.79031
引兵	-8.79086
關	-8.79097
豪	-8.79291
息	-8.79322
巨	-8.79544
潰	-8.79595
㫖	-8.79681
衡	-8.79828
船	-8.80019
軍節度使	-8.80023
荒	-8.8005
壘	-8.80078
愚	-8.80081
而去	-8.80097
諱	-8.8011
帶	-8.80202
司徒	-8.80262
閔	-8.80467
賈	-8.80506
嶺	-8.80529
候	-8.806
幼	-8.81
財	-8.81046
乾	-8.81071
融	-8.81094
熙	-8.81501
齊丘	-8.81501
健	-8.8155
品	-8.81631
冀	-8.81839
董	-8.81937
慕容	-8.81968
衍	-8.81992
弗	-8.82039
遽	-8.82099
瑞	-8.82141
廆	-8.82238
羊	-8.82645
辱	-8.82674
逐	-8.82676
總	-8.82949
序	-8.83099
忘	-8.83117
唯	-8.8313
頵	-8.83161
塞	-8.83165
内外	-8.83397
中原	-8.83473
久之	-8.83626
阮	-8.83663
錦	-8.83672
誤	-8.83678
質	-8.83814
虞	-8.83863
雍	-8.84049
寜	-8.84169
畢	-8.84231
衰	-8.84233
儁	-8.84538
優	-8.8454
寢	-8.8469
誰	-8.84744
到	-8.84754
角	-8.84786
允	-8.85074
寛	-8.85145
同平章事	-8.85212
知其	-8.85273
維	-8.85285
王命	-8.85295
切	-8.85329
阿	-8.85332
泣	-8.85418
湖	-8.8555
都指揮使	-8.85596
仰	-8.85672
基	-8.85684
自是	-8.85688
逰	-8.85808
祐	-8.85897
希	-8.86168
蘭	-8.86347
使人	-8.86366
滿	-8.86501
半	-8.86772
珍	-8.86835
不復	-8.86846
中山	-8.86882
鼓	-8.86918
愈	-8.86924
蕩	-8.86924
謁	-8.87083
眀	-8.87224
渡	-8.87265
寇	-8.87292
判	-8.87302
辰	-8.87401
藥	-8.87415
陣	-8.87423
醉	-8.87439
鼎	-8.87481
恪	-8.87482
冬十一月	-8.87498
幾	-8.87729
岳	-8.87825
費	-8.87983
屋	-8.88014
宣州	-8.88081
明年	-8.88134
俊	-8.88333
父子	-8.88347
𨽻	-8.88527
貶	-8.88538
誓	-8.88558
黨	-8.88837
子孫	-8.88936
量	-8.89033
規	-8.89043
趣	-8.89073
毅	-8.8911
困	-8.89128
將士	-8.89386
使者	-8.89397
陶	-8.89569
鑒	-8.89612
輩	-8.89637
薛	-8.8967
吕	-8.90051
之心	-8.90126
鳳	-8.90138
糧	-8.90215
刻	-8.90246
大王	-8.90388
節度	-8.90583
駕	-8.90598
辛	-8.90606
交州	-8.90674
熈	-8.90722
丕	-8.90728
暐	-8.90766
寒	-8.90798
至於	-8.91247
将軍	-8.91466
旦	-8.91673
雜	-8.9195
麟	-8.91961
歩	-8.921
不如	-8.92104
慎	-8.92239
俄	-8.92319
國家	-8.92354
焚	-8.92364
疆	-8.92396
慈	-8.92436
毁	-8.92541
調	-8.9258
己	-8.92603
留後	-8.92753
麗	-8.92829
不及	-8.92877
曰今	-8.92931
範	-8.92937
逸	-8.93062
句	-8.93074
折	-8.9315
大怒	-8.93238
長史	-8.93282
列傳	-8.93336
黎	-8.93342
皇后	-8.93614
奴	-8.93617
羽	-8.93641
八年	-8.93654
界	-8.93692
杖	-8.93712
配	-8.93722
勃勃	-8.93727
妾	-8.94077
擅	-8.94242
馮	-8.94252
入朝	-8.94304
㧞	-8.94377
十二	-8.94396
横	-8.94805
悲	-8.94847
趨	-8.94861
脩	-8.94864
荆	-8.95021
效	-8.95251
死者	-8.95273
没	-8.95415
銅	-8.95436
奮	-8.95689
荆南	-8.95733
撰	-8.95896
辨	-8.9603
𥘉	-8.96036
夕	-8.96281
一人	-8.9642
郡縣	-8.96506
躬	-8.96515
壯	-8.96563
中書令	-8.96629
貪	-8.96636
顔	-8.96671
役	-8.96772
宰相	-8.96779
舎	-8.96823
城中	-8.96843
晏	-8.96999
不克	-8.97026
拒之	-8.97547
世宗	-8.97607
墓	-8.97671
諸子	-8.97687
筆	-8.97839
婦	-8.9829
廣陵	-8.9853
而死	-8.98621
徽	-8.98727
倉	-8.98948
驛	-8.98985
印	-8.99028
欽	-8.99037
殂	-8.99038
予	-8.99045
操	-8.99056
姦	-8.99079
沉	-8.99081
太原	-8.99212
逹	-8.99222
岐	-8.99588
扶	-8.99619
乆	-8.99678
純	-8.99692
賔	-8.9973
𫝊	-8.99739
五千	-8.99925
哭	-8.99962
帛	-9.00035
晟	-9.001
獄	-9.00164
回	-9.0027
䖍	-9.00486
靖	-9.00969
冬十二月	-9.00996
數千	-9.01042
今從	-9.01156
丗	-9.0119
敦	-9.0151
米	-9.01568
鮮卑	-9.01582
所敗	-9.0208
環	-9.02148
姑	-9.02168
却	-9.02195
游	-9.02197
奈何	-9.02235
祭	-9.02237
嗣主	-9.02319
湖南	-9.02391
貧	-9.02516
審	-9.02557
蕭	-9.02645
來降	-9.02648
㓜	-9.02762
進攻	-9.02835
未㡬	-9.0286
鄧	-9.02869
誦	-9.02903
乾歸	-9.03038
桑	-9.03226
聘	-9.03249
割	-9.03287
何以	-9.03385
刺	-9.03387
遜	-9.03401
帥衆	-9.03595
不聽	-9.03641
之所	-9.03655
言於	-9.03672
龜	-9.03997
禄	-9.04024
妙	-9.04111
損	-9.04115
殘	-9.04135
囚	-9.04326
衞	-9.04417
祠	-9.0453
績	-9.04675
盖	-9.04753
産	-9.04768
大臣	-9.04771
側	-9.04775
四十	-9.04776
所在	-9.0478
潮	-9.04807
早	-9.04825
判官	-9.04845
王師	-9.04905
莫不	-9.05138
格	-9.05274
鏐	-9.05355
恃	-9.05377
普	-9.05378
柔	-9.0539
慕	-9.05402
男	-9.0553
其後	-9.05538
五十	-9.05629
託	-9.05742
踰	-9.0576
強	-9.06069
又有	-9.06461
雪	-9.06468
乃以	-9.06509
速	-9.06598
又遣	-9.06617
撃	-9.06647
弼	-9.06695
三千	-9.06711
大敗	-9.06869
今日	-9.06932
一時	-9.06999
曰臣	-9.07118
人皆	-9.07225
稍	-9.07225
戲	-9.0727
三日	-9.07358
争	-9.0738
仇	-9.07383
繁	-9.07419
瞻	-9.07425
宇	-9.07673
范	-9.07898
血	-9.07918
之間	-9.07957
石虎	-9.08011
岸	-9.08054
謨	-9.08058
凶	-9.08073
長沙	-9.08301
條	-9.0848
悟	-9.08496
瑾	-9.08638
鉉	-9.08748
憤	-9.08762
詐	-9.08767
之言	-9.08878
毎	-9.09384
波	-9.0942
栁	-9.09444
幹	-9.09455
一云	-9.09528
論曰	-9.09812
遂以	-9.09889
潤州	-9.1002
鎭	-9.10036
續	-9.10074
交阯	-9.10124
秋九月	-9.10159
百官	-9.10175
為人	-9.10367
苻	-9.10563
有功	-9.1062
啟	-9.10713
貨	-9.10793
盤	-9.10794
骨	-9.10812
園	-9.1083
夏六月	-9.10866
苐	-9.10965
仗	-9.11087
覽	-9.11206
二十	-9.11398
其言	-9.11414
贊	-9.11449
韋	-9.11477
誘	-9.11479
決	-9.11489
宋齊丘	-9.11542
九年	-9.11599
以來	-9.11651
三十	-9.11712
尚書令	-9.12122
提	-9.12144
削	-9.12154
散騎常侍	-9.12183
政事	-9.12278
上書	-9.12377
曰我	-9.12384
之衆	-9.1245
有司	-9.12554
大都督	-9.12609
阻	-9.12668
尺	-9.12753
逵	-9.12767
㱕	-9.12777
湯	-9.12823
盟	-9.12833
戰於	-9.12835
洎	-9.1291
無不	-9.1292
竭	-9.1292
卜	-9.12923
刀	-9.12964
建康	-9.13064
鐵	-9.13394
階	-9.13573
汴	-9.13601
肆	-9.13607
防	-9.13616
皮	-9.13622
題	-9.13627
庫	-9.13782
牙	-9.13821
其事	-9.13827
鎬	-9.14174
殿下	-9.1419
募	-9.14325
擇	-9.14327
輸	-9.1433
虛	-9.14338
懸	-9.14357
漢中	-9.14448
忠懿王	-9.14592
四海	-9.14753
袁	-9.14754
俟	-9.14779
熾磐	-9.14872
恵	-9.14906
殆	-9.14958
甘	-9.14977
雙	-9.14985
似	-9.14991
隣	-9.15018
柱	-9.15067
照	-9.15134
君子	-9.15175
故事	-9.15353
不為	-9.15424
雷	-9.15588
儼	-9.15599
中外	-9.15625
旁	-9.15765
不受	-9.15788
二人	-9.15874
錫	-9.15879
江陵	-9.1608
循	-9.16268
亟	-9.16484
飾	-9.16545
三萬	-9.16547
管	-9.16919
疏	-9.17002
彬	-9.17074
學士	-9.17088
裔	-9.1713
貫	-9.17201
諡	-9.17251
娶	-9.17269
亷	-9.17282
䟦	-9.17334
誅之	-9.17368
李氏	-9.17437
文穆王	-9.17443
四方	-9.17461
乃止	-9.17636
以其	-9.17715
歳	-9.17776
長子	-9.17786
者皆	-9.17871
新羅	-9.17895
兹	-9.17929
厥	-9.17947
妄	-9.17964
衝	-9.17989
知訓	-9.18086
徑	-9.18126
占	-9.18405
諌	-9.18429
軍中	-9.18433
庸	-9.18511
乙	-9.18637
姜	-9.18713
子弟	-9.18859
周師	-9.19141
數百	-9.19145
太師	-9.19188
曰昔	-9.1919
燒	-9.19247
賴	-9.19257
遐	-9.19261
瓊	-9.19261
崩	-9.19317
也今	-9.19329
鳯	-9.19338
編	-9.19387
材	-9.19425
褒	-9.19426
嗣位	-9.19431
像	-9.19476
鑄	-9.19476
倫	-9.19483
捕	-9.19484
之功	-9.19735
千里	-9.19979
諡曰	-9.20016
榖	-9.20082
洪州	-9.2011
潘	-9.2015
什	-9.20201
創	-9.20201
繫	-9.20226
竝	-9.20231
孰	-9.20248
鳥	-9.20264
王子	-9.20426
忍	-9.20621
太平	-9.20637
國主	-9.20739
河東	-9.20757
策	-9.20857
羗	-9.20903
其所	-9.20935
最	-9.20952
粲	-9.20991
曰汝	-9.2101
峻	-9.21032
是以	-9.21148
五百	-9.2117
其地	-9.21425
十一年	-9.21446
啓	-9.21574
恢	-9.21578
二百	-9.21652
裴	-9.21703
細	-9.21712
房	-9.21744
露	-9.21791
斤	-9.21817
翁	-9.21839
宮	-9.2192
妻子	-9.22031
于是	-9.22201
頃	-9.2221
君臣	-9.22263
於此	-9.2245
苑	-9.22472
俾	-9.22491
蒙	-9.22515
涼	-9.22518
紅	-9.22519
剛	-9.22535
舉兵	-9.22562
㣲	-9.22566
傅	-9.22568
怪	-9.22575
付	-9.22584
元帥	-9.22595
篇	-9.22607
數年	-9.22645
之禮	-9.22703
▁(	-9.22845
溫	-9.23121
在位	-9.23195
絳	-9.23208
鹿	-9.23253
弓	-9.23304
賓	-9.2331
匿	-9.23324
䜟	-9.23325
寨	-9.23325
評	-9.23327
席	-9.23337
式	-9.23359
葉	-9.23368
之罪	-9.23373
丈	-9.23407
安定	-9.23492
累遷	-9.23492
肉	-9.23493
保大	-9.23509
胥	-9.23638
供	-9.23666
不見	-9.23684
饑	-9.23731
齊邱	-9.23839
起兵	-9.23861
妖	-9.23867
中國	-9.24007
百餘	-9.24049
昶	-9.24065
惑	-9.24068
巡	-9.24073
属	-9.24087
午	-9.24104
履	-9.24154
托	-9.24156
尉	-9.2427
從事	-9.24313
綂	-9.24319
祥	-9.24328
厲	-9.24493
商	-9.24496
郊	-9.24526
寸	-9.24534
泉州	-9.24599
鹽	-9.24614
驅	-9.2466
匹	-9.24701
暠	-9.24808
浦	-9.2482
昏	-9.24863
根	-9.24866
穀	-9.24895
沒	-9.24931
王氏	-9.25027
其弟	-9.25149
大軍	-9.25321
禪	-9.25344
靡	-9.25368
莊	-9.25593
級	-9.25598
塵	-9.2565
翰林學士	-9.25651
談	-9.25658
武穆王	-9.25678
味	-9.25698
渠	-9.25699
圗	-9.257
韜	-9.25717
之士	-9.25773
明日	-9.25824
世家	-9.25842
前蜀	-9.25944
所謂	-9.2608
奕	-9.26131
䕶	-9.26149
十萬	-9.26278
而歸	-9.2633
聖人	-9.26444
悔	-9.26482
抗	-9.26505
南漢	-9.26684
四月	-9.26686
碑	-9.26708
童	-9.2672
功臣	-9.26972
戮	-9.27217
乂	-9.27235
髪	-9.27244
諫曰	-9.27255
諷	-9.27296
毒	-9.27335
歡	-9.27336
短	-9.27341
邉	-9.27343
主簿	-9.27357
太傅	-9.27636
饒	-9.27877
㡬	-9.27896
曽	-9.27904
益州	-9.27935
歎	-9.27979
進士	-9.27988
王以	-9.28062
騰	-9.2808
卧	-9.28116
蒲	-9.2812
驕	-9.28139
曉	-9.2815
□	-9.2817
萬人	-9.28391
遼東	-9.28749
秦州	-9.28867
羌	-9.28898
鄙	-9.28954
鳴	-9.28975
州人	-9.29143
誣	-9.29223
十月	-9.29277
行密	-9.29397
䧟	-9.29408
宋太祖	-9.29504
盗	-9.2965
馬氏	-9.29708
廵	-9.29717
矢	-9.29741
災	-9.29776
叟	-9.29805
覇	-9.29823
父母	-9.30092
諸軍事	-9.30152
攻之	-9.30193
部落	-9.30308
數日	-9.30396
否	-9.30477
楊氏	-9.30557
祗	-9.30574
歎曰	-9.30599
盈	-9.30604
惜	-9.30625
旗	-9.30626
誕	-9.30664
塔	-9.30686
七月	-9.30698
二萬	-9.30817
差	-9.30871
其衆	-9.3089
兆	-9.31106
革	-9.31196
宰	-9.31256
駿	-9.31316
氐	-9.31334
戴	-9.31377
豫	-9.31383
昇	-9.31398
者也	-9.31414
鬼	-9.31455
賛	-9.31463
之意	-9.31466
藝	-9.31466
緒	-9.31472
歛	-9.31493
之志	-9.31494
禽	-9.31499
墜	-9.3151
天錫	-9.31589
返	-9.32207
東南	-9.32245
伊	-9.32249
驤	-9.32304
尾	-9.32313
宅	-9.32327
均	-9.32402
掩	-9.32458
救之	-9.32592
弑	-9.32629
義祖	-9.32767
二子	-9.32841
西川	-9.32906
十三	-9.33039
尸	-9.33061
黃	-9.3307
攝	-9.33194
郡公	-9.33214
旣	-9.3322
舒	-9.33329
作亂	-9.33562
號曰	-9.33705
擁	-9.33759
傑	-9.33772
宋帝	-9.338
采	-9.33917
悦	-9.33992
晝	-9.34031
黒	-9.34035
排	-9.34039
介	-9.34053
迹	-9.34067
黜	-9.34072
陰	-9.34074
耕	-9.34079
校尉	-9.34103
淫	-9.3415
之亂	-9.34359
參軍	-9.34493
入貢	-9.34617
未嘗	-9.34633
二年春正月	-9.3488
檢	-9.34899
律	-9.34915
天地	-9.34927
斥	-9.34966
恥	-9.3498
壇	-9.34981
貳	-9.35011
隴西	-9.35041
廣漢	-9.3508
元年春正月	-9.35474
整	-9.35633
浮	-9.35643
膺	-9.35721
憚	-9.35725
答	-9.35782
姑臧	-9.35791
注	-9.35794
住	-9.35823
聴	-9.35826
某	-9.35835
麻	-9.35852
上表	-9.35973
俄而	-9.35982
凉	-9.36145
天祐	-9.36186
我兵	-9.36232
宫中	-9.36287
奉表	-9.36369
搆	-9.36676
増	-9.36695
筠	-9.36705
縁	-9.36712
舜	-9.36725
偉	-9.36742
植	-9.36774
朴	-9.36827
未有	-9.37059
曾	-9.37259
天福	-9.37279
碩	-9.37381
旋	-9.37505
一百	-9.37585
姬	-9.37612
練	-9.37613
鋭	-9.37629
國之	-9.37663
是日	-9.37706
好學	-9.37757
大破之	-9.3807
二千	-9.38099
慰	-9.38307
顥	-9.38369
囘	-9.38479
枝	-9.38486
雋	-9.3849
河南	-9.38525
製	-9.38551
寄	-9.38553
披	-9.38598
斗	-9.38599
陳覺	-9.38733
先生	-9.38743
見之	-9.38907
二州	-9.39054
時人	-9.3907
正月	-9.3909
數萬	-9.39211
旬	-9.39226
乃遣	-9.39271
蒙遜	-9.39338
暮	-9.3938
屠	-9.39426
獵	-9.39476
乾徳	-9.39527
金銀	-9.39544
揚州	-9.39591
可謂	-9.39936
俘	-9.39989
追之	-9.40121
内史	-9.40222
煩	-9.40243
黙	-9.40284
畜	-9.40309
荷	-9.4034
僕	-9.40353
墨	-9.40357
渥	-9.40358
矯	-9.40369
𦙍	-9.40374
頓	-9.40376
詠	-9.40377
儲	-9.40381
驗	-9.4039
尚書郎	-9.40471
閉	-9.40661
數十	-9.40723
曰卿	-9.40832
應之	-9.41113
又以	-9.4112
呉越	-9.41214
左僕射	-9.41258
競	-9.41263
叙	-9.41291
奸	-9.41304
賤	-9.41311
潤	-9.41334
遥	-9.41343
秩	-9.41358
遭	-9.41371
篤	-9.41373
緯	-9.41572
我師	-9.41984
導	-9.42008
復遣	-9.42036
知詢	-9.42179
册	-9.4219
擾	-9.422
秦王	-9.42206
蛇	-9.42209
瓘	-9.42215
郁	-9.4225
類	-9.42307
邀	-9.42371
與之	-9.42816
大将軍	-9.42831
公卿	-9.42833
湘	-9.42943
逢	-9.42983
弘	-9.43039
旅	-9.4308
寡	-9.43084
上下	-9.43086
犀	-9.43121
廬	-9.4315
彰	-9.4325
入城	-9.43252
科	-9.43332
太保	-9.43338
字子	-9.43385
何如	-9.43514
禦	-9.4352
遂與	-9.43596
弊	-9.43676
大赦	-9.43689
講	-9.44062
增	-9.44119
偃	-9.44186
侍郎	-9.44191
穴	-9.44197
矩	-9.44214
西平	-9.44271
國公	-9.44702
孔	-9.44745
千餘	-9.4481
如故	-9.45039
戚	-9.45048
軰	-9.451
汗	-9.45105
構	-9.45117
員外郎	-9.45119
痛	-9.45132
寫	-9.45163
釁	-9.45167
富貴	-9.45198
杭州	-9.45249
宋師	-9.45301
弟子	-9.45424
為太子	-9.45616
十八	-9.45771
劉氏	-9.45813
平陽	-9.45836
東西	-9.45927
而卒	-9.45986
不過	-9.46005
玄	-9.46089
絹	-9.46094
虐	-9.46121
佞	-9.46132
主上	-9.46135
等皆	-9.46145
恣	-9.46148
謚曰	-9.46194
涉	-9.46242
萬餘	-9.46248
龍城	-9.46288
太常	-9.46604
僭	-9.46605
單	-9.46632
破之	-9.46637
鋒	-9.46818
軍使	-9.46944
渭	-9.47
僚	-9.47025
來奔	-9.47046
含	-9.47064
溥	-9.47069
歷	-9.47074
待之	-9.47091
晋	-9.47105
喻	-9.47114
潜	-9.47118
嶽	-9.47131
爰	-9.47137
狂	-9.4715
凌	-9.47171
時有	-9.4718
州郡	-9.47231
王曰	-9.47511
又云	-9.47756
軍士	-9.47805
濬	-9.48038
演	-9.48108
訪	-9.48127
歆	-9.48141
以下	-9.48151
採	-9.48166
萬里	-9.48403
十二年	-9.48845
享	-9.48849
之命	-9.48925
惡之	-9.4894
彭城	-9.4895
球	-9.48993
夾	-9.48996
綱	-9.49076
綿	-9.49091
視之	-9.49094
専	-9.49124
卑	-9.49129
仁贍	-9.49165
大司馬	-9.49233
巴西	-9.49436
是歲	-9.49536
諸郡	-9.49549
出入	-9.49657
自殺	-9.49735
東川	-9.49742
前後	-9.50016
欵	-9.50031
兮	-9.50074
敕	-9.50082
平章事	-9.50094
摧	-9.50132
抱	-9.50134
犬	-9.50171
沖	-9.50182
舞	-9.50195
明公	-9.50345
常州	-9.50359
十一	-9.50581
不忍	-9.50663
寅	-9.50968
効	-9.50978
讀	-9.51089
江州	-9.51146
頼	-9.5115
㨗	-9.51172
鼔	-9.51175
兼中書令	-9.51229
堯	-9.5125
讒	-9.51256
城下	-9.51329
偏	-9.51481
從子	-9.51555
境内	-9.51601
宗廟	-9.51619
通鑑	-9.51971
十三年	-9.52045
綰	-9.52048
乏	-9.52158
甫	-9.52158
鴻	-9.52168
大懼	-9.52179
遠	-9.52194
姿	-9.52196
佑	-9.52198
愧	-9.52208
鐡	-9.52267
以此	-9.52319
寡人	-9.525
南詔	-9.52695
晉陽	-9.52708
之時	-9.5274
南安	-9.52822
秉	-9.52963
鄰	-9.52973
河西	-9.53023
不勝	-9.53024
抑	-9.5306
戦	-9.53209
契	-9.53237
請降	-9.53239
藉	-9.53244
擬	-9.53249
先帝	-9.53258
寢疾	-9.53277
彊	-9.53294
訴	-9.53337
相國	-9.5339
輔政	-9.53412
欲以	-9.53495
建元	-9.53567
永昌	-9.5365
一旦	-9.53743
重華	-9.53783
盜	-9.53861
唐主	-9.53895
邵	-9.53926
遁	-9.54076
貽	-9.54123
銘	-9.54234
當時	-9.54252
嗣慶	-9.54267
旌	-9.54274
皓	-9.54274
勾踐	-9.54279
浩	-9.54285
五代史	-9.54294
稚	-9.54302
舅	-9.54303
姚萇	-9.54334
覩	-9.54341
妹	-9.54382
三百	-9.54422
亦有	-9.54515
浚	-9.54788
酷	-9.5485
朗州	-9.54871
知之	-9.55059
齊王	-9.55066
道士	-9.55074
是年	-9.55142
曰君	-9.55254
至于	-9.55305
刼	-9.55323
堪	-9.55338
屏	-9.55346
不納	-9.55362
峯	-9.55402
脱	-9.5541
毋	-9.55446
齒	-9.55497
累官	-9.55598
固守	-9.55616
梓潼	-9.55812
頃之	-9.55854
州團練使	-9.56008
域	-9.56031
而無	-9.5612
聞而	-9.56192
廬州	-9.56231
而出	-9.56231
有所	-9.56239
文章	-9.56258
帳	-9.56291
其罪	-9.56329
僣	-9.5633
大事	-9.56365
叚	-9.56414
慙	-9.56441
裁	-9.56444
粟	-9.56451
脫	-9.56455
十七	-9.5647
必有	-9.56472
龕	-9.56532
永安	-9.56533
沮	-9.56547
育	-9.5662
名曰	-9.56682
周世宗	-9.56693
西北	-9.56897
潭	-9.56901
有一	-9.56998
之際	-9.57356
闗中	-9.57364
贇	-9.57382
貌	-9.57455
都虞候	-9.5753
戈	-9.57549
珪	-9.57563
賂	-9.57575
鶴	-9.57587
傍	-9.57591
行軍司馬	-9.57596
遲	-9.57602
染	-9.57613
奢	-9.57615
宋齊邱	-9.57645
巧	-9.57661
邃	-9.57723
之子	-9.57825
右僕射	-9.57973
先王	-9.58138
至元	-9.58224
静	-9.5827
景遂	-9.58317
乃命	-9.5835
既至	-9.5846
鍇	-9.58576
不同	-9.58599
茶	-9.58619
飬	-9.58641
及其	-9.58646
倚	-9.58703
臂	-9.58749
中有	-9.58769
率騎	-9.58772
如是	-9.58802
希萼	-9.58803
蘇州	-9.58956
監軍	-9.59077
復以	-9.59124
從弟	-9.59171
三年春正月	-9.59247
有差	-9.59307
伺	-9.59311
范蠡	-9.59375
見其	-9.59467
混	-9.59583
可求	-9.59664
檄	-9.59694
黑	-9.59753
銜	-9.598
攀	-9.59803
憑	-9.59839
捨	-9.59853
溺	-9.59856
瑶	-9.59858
鑿	-9.59878
汾	-9.59885
延魯	-9.60113
得其	-9.60133
謂之曰	-9.60275
江淮	-9.60349
天水	-9.60359
之計	-9.60439
其人	-9.60568
延政	-9.60571
之道	-9.60574
取之	-9.60675
之役	-9.60705
肇	-9.60738
捷	-9.60915
頴	-9.60941
頒	-9.60948
豹	-9.60957
甲子	-9.60979
阜	-9.6098
譚	-9.6099
靣	-9.60993
緩	-9.61012
齋	-9.61022
裂	-9.61027
王猛	-9.61127
金帛	-9.61158
不與	-9.61206
不至	-9.61339
建武	-9.61345
發兵	-9.61345
之日	-9.61389
王遣	-9.61417
代之	-9.61422
之義	-9.6171
僕射	-9.61758
王薨	-9.61824
王者	-9.61952
衙	-9.61966
凝	-9.62055
區	-9.62073
中書侍郎	-9.62076
雞	-9.621
座	-9.62102
激	-9.62115
忿	-9.62136
棺	-9.62153
碧	-9.62189
嶷	-9.62261
夫差	-9.62292
亦不	-9.62401
進封	-9.62535
之謀	-9.62624
疋	-9.62925
十六國春秋卷	-9.62989
吴越	-9.6299
燕王	-9.63067
艾	-9.63163
都尉	-9.63196
播	-9.63208
駭	-9.63221
嗚呼	-9.63223
進思	-9.63253
翔	-9.63256
鞭	-9.63287
慧	-9.63293
國亡	-9.63326
竄	-9.63345
七十	-9.63366
巫	-9.63401
行逢	-9.63511
郎中	-9.63824
六十	-9.63974
稽	-9.64292
熟	-9.643
十五年	-9.64311
開國	-9.64366
駢	-9.64387
爽	-9.6441
宐	-9.64436
併	-9.64447
臯	-9.64452
閻	-9.64454
贍	-9.64461
寓	-9.64489
祝	-9.64494
輪	-9.64505
都監	-9.64537
幽州	-9.64631
蜀郡	-9.64713
百餘人	-9.64771
足以	-9.64813
大悦	-9.64879
戰于	-9.6488
江西	-9.65017
叔父	-9.65211
文學	-9.65277
儉	-9.65475
昊	-9.65504
千餘人	-9.65531
而後	-9.65571
上疏	-9.6558
禱	-9.65582
隔	-9.65583
跡	-9.65621
值	-9.6563
琨	-9.65631
淳	-9.65632
流涕	-9.65648
例	-9.65652
僅	-9.65669
追封	-9.65673
兄子	-9.65675
宛	-9.65676
姓名	-9.65681
熊	-9.65699
疲	-9.65707
琴	-9.65739
其餘	-9.65852
忠臣	-9.66248
誨	-9.66301
不用	-9.66338
旱	-9.66397
十餘	-9.66506
賣	-9.66598
死之	-9.66599
護	-9.66695
琛	-9.66726
靜	-9.66755
眉	-9.6678
員	-9.66786
𦍑	-9.6679
行營	-9.66801
場	-9.66834
㫁	-9.66843
流民	-9.66851
墮	-9.66853
十六	-9.66864
矜	-9.66869
銳	-9.66873
中郎將	-9.66876
終不	-9.66908
淑	-9.66953
冡	-9.66958
稱藩	-9.67042
署為	-9.67119
送之	-9.67167
未可	-9.6721
天復	-9.67226
率兵	-9.67304
薊	-9.67362
曰公	-9.67508
其家	-9.67522
乆之	-9.6754
不絶	-9.67667
已又	-9.67733
百濟	-9.67764
永平	-9.67783
巢	-9.6796
其黨	-9.67965
莭度使	-9.67987
以待	-9.68012
鳳翔	-9.68036
弩	-9.68086
璠	-9.68087
烟	-9.68095
清河	-9.68121
○	-9.68123
苻堅	-9.68126
村	-9.68134
也乃	-9.68245
其妻	-9.68314
衆心	-9.68363
徐温	-9.68372
前鋒	-9.68383
諸将	-9.68435
持節	-9.68488
劉曜	-9.68533
用之	-9.68606
奔還	-9.68916
受命	-9.68945
以兵	-9.69071
鄂	-9.69089
浪	-9.69167
悅	-9.69217
女也	-9.69247
綏	-9.69255
頻	-9.69275
渉	-9.69287
𧺫	-9.69311
𦵏	-9.69319
冰	-9.69337
刃	-9.69364
伍	-9.69386
為左	-9.69392
兼侍中	-9.69403
文昭王	-9.69409
咎	-9.6941
髙麗	-9.69417
百里	-9.6947
男女	-9.69482
其國	-9.69506
笑曰	-9.69554
恤	-9.69586
大悅	-9.69602
巴郡	-9.69681
上邽	-9.69725
嘆曰	-9.69838
全忠	-9.699
鮮	-9.70063
一萬	-9.70139
相繼	-9.70178
國事	-9.70178
恱	-9.70255
秘	-9.70289
勁	-9.70442
斌	-9.70458
璽	-9.70465
敷	-9.70499
突	-9.70519
泥	-9.70524
西南	-9.70529
註	-9.7053
伎	-9.70549
燭	-9.70555
樞密使	-9.70561
嫁	-9.70562
獸	-9.70562
暢	-9.70573
楷	-9.70575
甞	-9.70586
敗績	-9.70645
出降	-9.70689
雲南	-9.70731
水陸	-9.70844
固辭	-9.70896
占城	-9.71052
之徒	-9.71053
隙	-9.71088
抵	-9.71733
庾	-9.71797
掘	-9.71813
詰	-9.71836
前王	-9.71842
渾	-9.71846
壯士	-9.72052
襄陽	-9.72157
是也	-9.72286
十五	-9.72435
開府儀同三司	-9.72603
天寳	-9.72655
幕	-9.72713
莊宗	-9.72787
丞	-9.72886
用事	-9.72944
勵	-9.73084
挾	-9.73102
洽	-9.73113
利鹿孤	-9.73121
官至	-9.73153
塘	-9.73172
食邑	-9.73232
致仕	-9.73337
出為	-9.73376
切諫	-9.73416
沙門	-9.73454
越人	-9.73519
天下之	-9.7352
楚王	-9.7353
長樂	-9.7365
將吏	-9.73652
何為	-9.73676
不出	-9.73801
下詔	-9.73902
勉	-9.7391
謚	-9.73952
不可以	-9.73974
繼勲	-9.74137
宗族	-9.74161
婦人	-9.74165
豈可	-9.74344
節度副使	-9.74364
庻	-9.74368
掌書記	-9.74378
眷	-9.74406
辯	-9.74413
況	-9.74434
車騎將軍	-9.74438
柴	-9.74459
囊	-9.74534
釗	-9.74552
曰臣聞	-9.74822
唐末	-9.75106
人心	-9.75135
日月	-9.75149
城西	-9.75187
其母	-9.75224
嘆	-9.75234
一夕	-9.75265
大將	-9.75322
怒曰	-9.75327
㑹稽	-9.75412
厭	-9.75443
唱	-9.75444
標	-9.75607
掃	-9.75634
克之	-9.7564
堡	-9.75654
収	-9.7567
葛	-9.75672
幣	-9.75704
途	-9.75738
徐鉉	-9.75762
興師	-9.75906
宫人	-9.75926
十卷	-9.75942
二十年	-9.75984
皆有	-9.75985
晉王	-9.76048
之業	-9.76059
䕶軍	-9.76132
國王	-9.7615
洪進	-9.76197
不欲	-9.76221
之才	-9.76301
納之	-9.76442
年七十	-9.76584
為刺史	-9.76618
檢校	-9.76621
郡王	-9.76623
萬餘人	-9.76676
睦	-9.76727
䏻	-9.76765
中宗	-9.76785
耀	-9.76791
蒼	-9.76917
峽	-9.77004
乙酉	-9.77018
晦	-9.77021
迨	-9.7704
展	-9.77048
曠	-9.77053
牢	-9.77055
柵	-9.7706
醫	-9.77062
嫡	-9.77064
尼	-9.77066
弔	-9.77084
攸	-9.77153
澧	-9.77179
一方	-9.77191
文進	-9.77194
兵攻	-9.77264
十四年	-9.77361
之勢	-9.7752
無功	-9.77591
州牧	-9.77624
遼西	-9.77761
弟也	-9.77813
昇元	-9.77881
不宜	-9.77937
蜀人	-9.77969
問曰	-9.7806
山川	-9.78142
固請	-9.78261
吏民	-9.78276
譙	-9.7829
庠	-9.78304
恕	-9.78329
太宰嚭	-9.78334
郢	-9.78339
慚	-9.7836
五萬	-9.78377
額	-9.7838
枕	-9.78387
邊鎬	-9.78388
武王	-9.78393
斂	-9.78409
譏	-9.78413
閲	-9.78465
讚	-9.78483
太和	-9.78601
文徽	-9.78685
涪	-9.7886
禦之	-9.78891
浙	-9.78892
退保	-9.78914
引還	-9.78944
遣子	-9.78947
招討使	-9.78994
十四	-9.78996
之故	-9.79062
本紀	-9.79173
諸王	-9.79193
本國	-9.79251
曰朕	-9.79296
南陽	-9.79396
故也	-9.79496
腹	-9.79545
廞	-9.79704
朔日有食之	-9.79712
隋	-9.79764
倣	-9.79767
譽	-9.79777
敝	-9.79787
檀	-9.79792
随	-9.79798
謬	-9.79804
入覲	-9.79816
牽	-9.79841
田頵	-9.79845
而殺之	-9.79854
飲酒	-9.79859
箭	-9.79865
詔書	-9.79889
涼州	-9.79898
其父	-9.79966
孫儒	-9.79984
宫室	-9.79987
天成	-9.79992
地震	-9.80028
伏誅	-9.80056
台	-9.80191
其先	-9.80224
宗室	-9.8025
言之	-9.80291
詩云	-9.80392
暇	-9.80398
武帝	-9.80429
門外	-9.80511
出戰	-9.80895
以自	-9.80944
詢	-9.80984
自古	-9.80986
承制	-9.81003
年號	-9.81031
自立	-9.81036
敞	-9.81116
欽定四庫全書	-9.81118
得免	-9.81119
樊	-9.81127
牀	-9.81147
稜	-9.81155
晨	-9.81163
侮	-9.81172
龍驤將軍	-9.81175
酒泉	-9.81183
完	-9.81186
哲	-9.81195
余	-9.81195
扇	-9.81208
證	-9.81219
掾	-9.81243
皆以	-9.81245
寃	-9.81251
不堪	-9.81258
卽	-9.81267
史臣曰	-9.81294
之禍	-9.81396
越絶	-9.81474
秦州刺史	-9.81867
斛	-9.81927
曰陛下	-9.82061
齎	-9.82079
縣令	-9.8212
有大	-9.82273
諸州	-9.82358
少子	-9.82418
何不	-9.82462
濛	-9.82466
艱	-9.82499
異之	-9.82529
跨	-9.82532
拘	-9.82533
凉州	-9.82538
挺	-9.82541
竇	-9.82546
東北	-9.82571
焦	-9.82583
閒	-9.82587
奬	-9.82599
讎	-9.82599
劾	-9.82619
瓦	-9.8262
邁	-9.82625
髮	-9.82652
奉使	-9.82666
翰林	-9.82691
夀春	-9.82719
以告	-9.82749
孔子	-9.83008
一千	-9.83012
神武	-9.83018
南唐書	-9.83041
失其	-9.83079
行至	-9.83084
渡江	-9.83093
不平	-9.83144
潭州	-9.83175
乃使	-9.83195
景宗	-9.83221
塗	-9.83458
第一	-9.83587
更名	-9.83604
十九	-9.8367
桂	-9.83792
社	-9.83869
曺	-9.83921
冝	-9.83925
翊	-9.83935
後世	-9.83947
廻	-9.83977
垣	-9.83978
勃	-9.83979
遏	-9.83991
昧	-9.83995
停	-9.84004
芳	-9.84015
淺	-9.8403
耻	-9.84035
頌	-9.84062
鸞	-9.84063
太弟	-9.84167
未至	-9.84178
十九年	-9.84178
鄂州	-9.84288
即以	-9.84461
金城	-9.84487
三軍	-9.84681
夀州	-9.84918
來伐	-9.84951
射之	-9.84991
不利	-9.85009
仁義	-9.85034
叅	-9.85041
征伐	-9.85192
兩浙	-9.85203
邕	-9.85207
於吳	-9.85218
不食	-9.85238
燉煌	-9.85244
龎	-9.85393
緡	-9.85399
翟	-9.85405
藻	-9.85406
窺	-9.8543
蔽	-9.85436
訟	-9.8544
婁	-9.85443
究	-9.85444
悼	-9.85454
其名	-9.85459
錢塘	-9.85473
遣人	-9.85474
氷	-9.85509
冠軍將軍	-9.85536
糓	-9.85581
城南	-9.85653
䝉古	-9.85668
相與	-9.8567
永嘉	-9.85726
博士	-9.85735
以備	-9.85736
大小	-9.85741
大喜	-9.85781
永和	-9.85808
其將	-9.85868
天命	-9.85877
擒之	-9.85978
力戰	-9.86014
古人	-9.86046
西域	-9.86142
府庫	-9.8622
有餘	-9.86235
高句麗	-9.86362
嘉之	-9.86399
官爵	-9.86434
衛將軍	-9.86583
建寧	-9.86647
十餘萬	-9.86828
眞	-9.86851
遣弟	-9.86854
燈	-9.86861
嫌	-9.86872
饗	-9.86873
八千	-9.86882
灌	-9.86907
迫	-9.86912
警	-9.86927
陟	-9.86947
巾	-9.86961
奇	-9.86971
棲	-9.86988
蓄	-9.87
之變	-9.87085
神福	-9.87158
審知	-9.87163
南北	-9.87226
遂為	-9.87251
不以	-9.87255
於外	-9.87278
石勒	-9.87371
益州刺史	-9.87569
相持	-9.87602
隴	-9.87627
徳明	-9.87637
為右	-9.8787
一卷	-9.87911
年六十	-9.87944
人多	-9.88026
大業	-9.88034
稱臣	-9.88137
訖	-9.88212
門下	-9.88224
晚	-9.88235
暮末	-9.88237
黔	-9.88338
騐	-9.88379
龔	-9.88384
迴	-9.88398
束	-9.88409
璉	-9.8841
玊	-9.88412
駐	-9.88429
輔國將軍	-9.88432
凖	-9.88435
熈載	-9.8844
給事中	-9.88459
買	-9.88464
吟	-9.88486
彦暉	-9.88502
斬首	-9.88542
稱疾	-9.88558
非常	-9.88583
以聞	-9.88698
恭孝王	-9.88886
次子	-9.89129
梁州刺史	-9.89219
倍	-9.89383
為主	-9.89591
起家	-9.89595
塲	-9.89706
東海	-9.89735
一名	-9.89738
濤	-9.89812
蕃	-9.89831
鈞	-9.8985
玩	-9.89859
拱	-9.89879
綵	-9.89892
乖	-9.89895
彈	-9.89899
姻	-9.89902
祿	-9.89919
乙亥	-9.89921
丁亥	-9.89922
滯	-9.89925
㓂	-9.89935
綽	-9.89953
尅	-9.89965
潔	-9.89997
怠	-9.90002
麥	-9.90016
穿	-9.90033
入見	-9.90035
宿衛	-9.90046
圖之	-9.90242
小人	-9.90333
景遷	-9.90378
之盛	-9.9039
賜王	-9.9043
復為	-9.9047
四年春正月	-9.90489
隅	-9.90533
忠義	-9.90664
中興	-9.90786
有隙	-9.90787
千人	-9.90878
觀之	-9.90886
數千人	-9.9092
因以	-9.90946
十有	-9.90969
南海	-9.91056
伐之	-9.91098
不然	-9.91265
招討	-9.9127
䧏	-9.91338
圭	-9.91345
墳	-9.91353
冀州	-9.91357
鏡	-9.91373
函	-9.91398
𣸪	-9.91404
嗟	-9.91438
開寳	-9.91456
酬	-9.91457
輦	-9.91468
漏	-9.9148
問之	-9.91483
稷	-9.91486
祈	-9.91499
郫	-9.91516
大單于	-9.91674
周主	-9.91691
廬山	-9.91697
而退	-9.91896
有異	-9.9196
居之	-9.92037
母弟	-9.92045
徳誠	-9.92095
出兵	-9.92117
三州	-9.92146
當有	-9.92314
檢校太尉	-9.92339
皆為	-9.9249
餘衆	-9.9259
不知其	-9.92622
為前鋒	-9.92741
道路	-9.92819
進據	-9.92827
世為	-9.92834
岑	-9.92875
大赦改元	-9.92914
丙戌	-9.92977
叱	-9.93001
徹	-9.93009
豫章	-9.93017
只	-9.93033
簒	-9.93035
滋	-9.93035
炎	-9.93046
梟	-9.93047
不若	-9.93053
此書	-9.93068
紙	-9.93068
島	-9.93074
徐知誥	-9.93095
驍勇	-9.93111
羡	-9.93186
安國	-9.93203
卷第	-9.93267
遣兵	-9.93365
賦詩	-9.93374
曰夫	-9.93428
所獲	-9.93429
即日	-9.93493
而行	-9.93493
萬户	-9.93498
不肯	-9.93542
上黨	-9.93584
來攻	-9.93649
韶	-9.93658
國中	-9.93775
遣將軍	-9.93796
伏兵	-9.93813
襄國	-9.93993
歸之	-9.94025
臣聞	-9.94084
渤海	-9.94104
必不	-9.94139
百萬	-9.94232
繕	-9.9429
郡太守	-9.9431
北面	-9.94315
陜	-9.94476
明宗	-9.94528
歐陽	-9.94534
剋	-9.94563
鍾謨	-9.94563
丙午	-9.94565
婚	-9.94567
寂	-9.94572
樞	-9.94576
繩	-9.94617
中朝	-9.94653
借	-9.94676
碩徳	-9.94704
逞	-9.94708
之上	-9.94726
不自安	-9.94782
為國	-9.94862
光禄大夫	-9.94908
全武	-9.94934
叅軍	-9.94952
禆將	-9.94996
大義	-9.95018
相見	-9.9504
建興	-9.95053
於長安	-9.95086
際	-9.95136
壽州	-9.95142
精兵	-9.95201
字伯	-9.95314
詩曰	-9.95345
常侍	-9.95382
州縣	-9.95548
多所	-9.95739
嶺南	-9.95805
尚書左僕射	-9.95902
殺其	-9.95956
群	-9.95968
昆	-9.96034
於我	-9.96053
人情	-9.96115
屍	-9.96117
輯	-9.96151
查文徽	-9.96154
兾	-9.96154
嬰	-9.96161
不下	-9.96203
㳺	-9.96209
枉	-9.96216
踐	-9.96221
太平興國	-9.96222
戊申	-9.96239
部郎中	-9.96245
斫	-9.96251
蔣	-9.96274
赫	-9.96276
溢	-9.9629
岱	-9.96313
鷹	-9.96319
澹	-9.9633
禑	-9.96333
所居	-9.96354
者必	-9.96438
王弟	-9.96447
周宗	-9.96471
兵馬	-9.96517
宦者	-9.96534
庚子	-9.96669
止之	-9.96737
人父	-9.96752
已下	-9.96787
被殺	-9.96911
徐氏	-9.96921
不忘	-9.96959
别將	-9.97054
建安	-9.9745
出鎮	-9.97505
不顧	-9.97543
於魏	-9.97619
之中	-9.97711
出師	-9.97764
自以	-9.97771
偶	-9.97782
鑑	-9.97787
隊	-9.9779
勍	-9.97815
緣	-9.97818
五人	-9.97831
崖	-9.97837
廖	-9.97839
網	-9.9784
即皇帝位	-9.97843
饋	-9.97844
伸	-9.97847
暑	-9.97855
㦸	-9.97856
沛	-9.97858
婢	-9.97859
両	-9.97869
街	-9.97882
貲	-9.97891
捐	-9.97917
缺	-9.97929
頂	-9.97936
朙	-9.97938
那	-9.97945
李建勲	-9.9796
麾下	-9.98014
倭	-9.98071
不應	-9.98092
博學	-9.98098
漢宏	-9.98221
自守	-9.98238
逆戰	-9.98267
曰若	-9.98297
大呼	-9.98318
并州刺史	-9.98323
康宗	-9.9833
荆州	-9.98377
謂曰	-9.98404
平原	-9.98574
湖州	-9.9859
屯於	-9.98641
新平	-9.98822
稱帝	-9.98872
用兵	-9.98955
未能	-9.98977
上有	-9.99008
人所	-9.9903
統軍	-9.99235
廣政	-9.99244
南奔	-9.99271
鐸	-9.99276
君之	-9.99282
張氏	-9.99356
京兆	-9.99372
堅曰	-9.99406
縛	-9.99449
料	-9.9947
輝	-9.99494
乙丑	-9.99498
眼	-9.99513
讐	-9.99519
閭	-9.99526
酋	-9.99531
奚	-9.99542
甲戌	-9.99547
甲午	-9.99548
耿	-9.99558
叡	-9.99563
芝	-9.99571
佩	-9.99576
漆	-9.99594
豆	-9.996
闔廬	-9.99633
甲申	-9.99686
戰艦	-9.99719
部曲	-9.99745
繼冲	-9.9978
慕容垂	-9.9979
言曰	-9.99833
略陽	-9.99901
建國	-9.99913
聞其	-9.99961
班師	-9.99977
枹罕	-10.0004
而至	-10.0004
繡	-10.0007
建隆	-10.0015
于唐	-10.0022
宥	-10.0027
舟師	-10.0033
武陵	-10.0038
歸附	-10.0044
子貢	-10.0046
豈不	-10.0057
存亡	-10.0064
迎之	-10.0071
之師	-10.01
前將軍	-10.011
狼	-10.0111
軍事	-10.0111
愍	-10.0113
乳	-10.0115
而止	-10.0116
戊寅	-10.0116
晃	-10.0118
南昌	-10.0118
咨	-10.0119
苟	-10.0119
溝	-10.0119
模	-10.012
霍	-10.0121
錯	-10.0122
禾	-10.0123
廉	-10.0124
坑	-10.0125
影	-10.0125
纔	-10.0127
膳	-10.0128
係	-10.013
仍賜	-10.013
賫	-10.0131
乘勝	-10.0137
飢	-10.014
睿宗	-10.0144
數人	-10.0144
御史	-10.0145
不行	-10.0151
乾和	-10.0155
彦貞	-10.0157
常山	-10.0161
正朔	-10.0166
以歸	-10.0168
䕫	-10.0171
不死	-10.0178
自言	-10.018
丁未	-10.0188
唐兵	-10.0199
遣中使	-10.0204
其志	-10.0219
逮	-10.0221
開門	-10.0223
測	-10.0228
而入	-10.0256
部將	-10.0257
協	-10.0259
赴之	-10.0265
䟽	-10.0271
謂左右曰	-10.0279
古今	-10.028
史記	-10.028
士民	-10.0282
㤙	-10.0287
箕	-10.029
兇	-10.0291
翌日	-10.0295
澗	-10.0295
慷慨	-10.0296
慢	-10.0298
醜	-10.0298
圓	-10.0298
妓	-10.0298
吞	-10.0299
梅	-10.0302
肥	-10.0302
鐘	-10.0302
欺	-10.0302
涕泣	-10.0304
邈	-10.0306
單于	-10.0317
賁	-10.0318
廣州	-10.0324
牙將	-10.0345
書曰	-10.0352
并州	-10.0353
布衣	-10.0358
其下	-10.0387
譲	-10.0391
民間	-10.0398
周公	-10.0414
五代	-10.0418
廢王	-10.042
而立	-10.0426
㕘	-10.0429
句踐	-10.0441
不戰	-10.0443
如何	-10.0444
十六年	-10.045
壤	-10.045
帝命	-10.0451
或云	-10.0454
狐	-10.0457
峰	-10.0459
諸道	-10.0459
武都	-10.0459
罕	-10.046
籠	-10.0463
繞	-10.0463
壮	-10.0465
飯	-10.0465
煥	-10.0465
猷	-10.0467
價	-10.0467
剪	-10.0467
闇	-10.0467
析	-10.0469
坊	-10.0469
版	-10.047
罰	-10.0472
狗	-10.0472
雄武	-10.0472
丸	-10.0473
弄	-10.0473
牋	-10.0473
状	-10.0473
傳瓘	-10.0476
輜重	-10.0478
訥	-10.048
别駕	-10.0485
晝夜	-10.0487
丙子	-10.0489
三人	-10.0502
之難	-10.0503
孫晟	-10.0507
八百	-10.0522
吏部尚書	-10.0524
平王	-10.0525
之術	-10.0526
辛未	-10.0532
東宫	-10.0542
進屯	-10.0549
是為	-10.0559
東都	-10.0566
都統	-10.057
大破	-10.0576
戰敗	-10.0583
七日	-10.0587
青州	-10.0593
上言	-10.0598
周本	-10.0598
庚	-10.0598
愛之	-10.0603
無復	-10.0604
小字	-10.0614
梁州	-10.0622
壬	-10.0624
匪	-10.0636
儔	-10.0637
為亂	-10.0638
閏	-10.0639
平生	-10.0639
大風	-10.064
殁	-10.0641
君王	-10.0641
沮渠	-10.0641
羙	-10.0645
征虜將軍	-10.0646
韓熈載	-10.0647
張掖	-10.0648
乙卯	-10.0648
斃	-10.0649
板	-10.065
雀	-10.065
全諷	-10.065
郷	-10.0654
辛巳	-10.0654
憐	-10.0656
未及	-10.0656
僻	-10.0657
曦	-10.0658
左長史	-10.0665
群臣	-10.067
范陽	-10.0673
侍衛	-10.068
帳下	-10.0683
之國	-10.0686
奔於	-10.0687
希崇	-10.0691
無以	-10.0702
乃與	-10.0702
十餘人	-10.0705
濠	-10.071
女子	-10.0718
人臣	-10.072
進退	-10.0727
出奔	-10.0738
號為	-10.0758
水軍	-10.0766
嗣立	-10.0779
舒州	-10.0791
大亂	-10.0793
不得已	-10.08
豈有	-10.0807
去縣	-10.081
特進	-10.0814
之法	-10.082
孫也	-10.0824
倡	-10.0825
塟	-10.0826
以獻	-10.0826
㸃	-10.0828
戊辰	-10.083
疎	-10.0831
馭	-10.0831
裝	-10.0832
乾祐	-10.0833
卓	-10.0834
殄	-10.0835
璜	-10.0835
乾寧	-10.0837
贖	-10.0837
摩	-10.0841
古之	-10.0841
綿竹	-10.0841
甲辰	-10.0844
董昌	-10.0849
興元	-10.0849
建勲	-10.0855
兩川	-10.0858
世之	-10.0866
時為	-10.0869
得之	-10.0873
後宫	-10.0875
知俊	-10.0879
國政	-10.088
其民	-10.0884
數月	-10.0886
經史	-10.089
觀察使	-10.0895
以上	-10.0902
勅遣	-10.0913
成都人也	-10.0918
泗	-10.0928
之恩	-10.0928
之任	-10.094
甚厚	-10.094
末年	-10.0949
所執	-10.0952
入宫	-10.0955
中書	-10.0957
數十人	-10.0959
衣冠	-10.0959
王諱	-10.0962
千户	-10.0963
無道	-10.0972
請以	-10.0978
麾	-10.0992
所得	-10.1
取其	-10.1003
搜	-10.1007
璧	-10.1008
桃	-10.1009
騫	-10.1009
押	-10.101
罹	-10.1011
沃	-10.1012
九國志	-10.1012
門下侍郎	-10.1013
夙	-10.1014
懦	-10.1014
彩	-10.1016
詵	-10.1016
石氏	-10.1017
疫	-10.1018
柳	-10.1018
詭	-10.1019
洲	-10.1019
茂䖍	-10.1021
憾	-10.1021
不聴	-10.1023
匠	-10.1029
臧	-10.103
何也	-10.1033
桂州	-10.1035
城外	-10.1037
又曰	-10.1038
皇帝廟號	-10.1039
敗之	-10.1041
城北	-10.105
再拜	-10.1058
而下	-10.1059
他日	-10.1059
内侍	-10.1061
往往	-10.1063
惠宗	-10.107
濟河	-10.1075
黄金	-10.1083
握	-10.109
隂陽	-10.1093
陳氏	-10.1097
昭宗	-10.1105
襲位	-10.1105
卒子	-10.1122
年少	-10.113
以示	-10.1139
顯徳	-10.1142
之外	-10.1144
入冦	-10.1165
征討	-10.117
之臣	-10.1177
其首	-10.1178
竒之	-10.1183
蔚	-10.1188
扆	-10.1192
繪	-10.1192
祁	-10.1195
中書舍人	-10.1196
天王	-10.1196
霧	-10.1197
佳	-10.1197
授王	-10.1197
彛	-10.1198
韻	-10.1198
戯	-10.12
今從通鑑	-10.12
嬖	-10.1201
倒	-10.1204
己酉	-10.1205
琳	-10.1208
隐	-10.1208
昱	-10.1209
闢	-10.121
壬午	-10.121
諸君	-10.1213
豕	-10.1215
十七年	-10.1217
租	-10.1217
劉仁贍	-10.1218
城内	-10.1218
讀書	-10.122
制置使	-10.1221
茂忠	-10.123
乃召	-10.124
為侍中	-10.1242
昇州	-10.1259
改封	-10.1261
之敗	-10.1263
中軍	-10.1264
泣曰	-10.1267
願陛下	-10.1273
季興	-10.1279
拒戰	-10.1282
徐州	-10.1283
來朝	-10.1288
敗走	-10.1288
足下	-10.13
五色	-10.13
不在	-10.1305
臣之	-10.1311
帝遣	-10.1313
北海	-10.1313
戰死	-10.132
五年春正月	-10.1324
赦之	-10.1335
有人	-10.1343
官屬	-10.1348
吹	-10.1348
帝以	-10.1361
戊	-10.1369
算	-10.1373
觀其	-10.1374
降于	-10.1379
逾	-10.138
侃	-10.1382
自號	-10.1387
壬戌	-10.1387
擲	-10.1391
聊	-10.1392
貸	-10.1392
炳	-10.1392
天文	-10.1393
酉	-10.1394
隕	-10.1395
庚寅	-10.1395
肩	-10.1395
縦	-10.1395
蒸	-10.1395
堤	-10.1396
三十年	-10.1396
婺州	-10.1397
叩	-10.1397
霜	-10.1398
邸	-10.1398
鏤	-10.1399
衮	-10.1399
措	-10.14
苛	-10.14
識者	-10.14
闔閭	-10.14
鬻	-10.1401
怯	-10.1401
鍠	-10.1401
徧	-10.1402
龍驤	-10.1402
腹心	-10.1404
譖	-10.1407
穢	-10.1408
車騎	-10.1416
歸宋	-10.1417
雍州刺史	-10.1417
長驅	-10.1422
帝王	-10.1423
黙然	-10.1423
城陷	-10.1424
英武	-10.1426
令贇	-10.1427
不足以	-10.1428
公孫	-10.1433
退屯	-10.1433
諸國	-10.1438
可乎	-10.1452
四面	-10.1455
登城	-10.147
江東	-10.1476
伐吳	-10.1482
江陽	-10.1483
不已	-10.1486
淮人	-10.1486
之初	-10.1489
相攻	-10.1501
交州刺史	-10.1501
至此	-10.1509
為使持節	-10.1527
十國春秋卷	-10.1527
守之	-10.1529
開元	-10.1532
其中	-10.155
召之	-10.1555
勒兵	-10.1558
腰	-10.1568
煜	-10.1571
丙	-10.1577
虗	-10.158
三年春二月	-10.158
湛	-10.1581
癸	-10.1581
嫩	-10.1587
校書郎	-10.1587
胄	-10.1588
賧	-10.1588
暗	-10.1589
洩	-10.159
覘	-10.159
邇	-10.159
了	-10.159
丑	-10.1592
丁酉	-10.1593
受禪	-10.1593
泛	-10.1594
剖	-10.1594
匈奴	-10.1595
苴	-10.1596
瑩	-10.1597
抜	-10.1597
舌	-10.1598
希範	-10.1599
限	-10.1599
景逹	-10.16
虧	-10.1603
徼	-10.1604
鎮海軍	-10.1608
進曰	-10.1608
祭酒	-10.1609
延壽	-10.1609
授以	-10.161
呼延	-10.162
僭號	-10.1625
未知	-10.1628
巴蜀	-10.1629
屯田	-10.1635
莫能	-10.1636
字元	-10.1636
進兵	-10.1638
水中	-10.1638
十里	-10.165
廟號	-10.1658
初為	-10.1665
委以	-10.1665
授之	-10.1668
驍	-10.167
嵗在	-10.1677
昨	-10.1683
帥師	-10.1692
䖍州	-10.1694
甚衆	-10.1698
行宻	-10.1702
出於	-10.171
之死	-10.1717
濠州	-10.1717
南郊	-10.1719
其上	-10.1731
召還	-10.1745
鄉里	-10.1747
河北	-10.1747
以安	-10.175
數百人	-10.1754
於秦	-10.1755
及長	-10.1756
之民	-10.1757
東府	-10.1759
左將軍	-10.1759
十八年	-10.1759
後蜀後蜀後蜀後蜀	-10.176
柄	-10.1761
土地	-10.1767
弋仲	-10.1768
入蜀	-10.1782
侔	-10.1782
曇	-10.1783
稅	-10.1783
札	-10.1785
雖有	-10.1785
毗	-10.1787
層	-10.1789
稟	-10.1789
冒	-10.179
白金	-10.179
荀	-10.179
丙申	-10.1792
觸	-10.1792
禮部尚書	-10.1793
字文	-10.1794
蟲	-10.1794
閱	-10.1795
汜	-10.1795
山南	-10.1796
翠	-10.1796
辛亥	-10.1797
賨	-10.1798
税	-10.1799
荅	-10.18
克宏	-10.1802
因而	-10.1802
匹磾	-10.1804
有才	-10.1812
廣平	-10.1815
仁肇	-10.1816
乙未	-10.1817
河中	-10.1818
其妻子	-10.1823
英雄	-10.1836
武信王	-10.185
其城	-10.1853
為太尉	-10.1854
備德	-10.1861
衡山	-10.1864
南山	-10.187
有二	-10.1872
王親	-10.1883
處士	-10.1885
稱尊號	-10.1887
殿中	-10.1893
段氏	-10.1897
文王	-10.1906
從容	-10.1907
大有	-10.1911
往來	-10.1912
武陽	-10.1921
廣武	-10.1936
二十四	-10.1936
行宫	-10.1939
王幸	-10.1951
諸弟	-10.1964
大師	-10.1968
敬瑄	-10.197
邱	-10.1976
䧺	-10.1986
軫	-10.1987
延禀	-10.1989
疇	-10.1991
襟	-10.1993
頗有	-10.1993
矛	-10.1993
嚮	-10.1993
亥	-10.1994
區區	-10.1995
襃	-10.1995
歟	-10.1995
滕	-10.1995
鬭	-10.1996
褐	-10.1996
鴆	-10.1996
壓	-10.1996
壊	-10.1996
遂入	-10.1996
活	-10.1996
灾	-10.1997
艘	-10.1997
表請	-10.1997
鮑	-10.1998
巷	-10.1998
絲	-10.1999
壬辰	-10.2
滔	-10.2
壻	-10.2001
征西將軍	-10.2002
太宰	-10.2003
左傳	-10.2004
消	-10.2005
銓	-10.2006
甲寅	-10.2006
膽	-10.2007
大衆	-10.2007
太妃	-10.2009
羯	-10.2013
癸未	-10.2019
禪師	-10.202
荆州刺史	-10.2028
吕光	-10.2028
犍為	-10.2028
與語	-10.2034
幽州刺史	-10.2037
召見	-10.2041
儒學	-10.2048
軍旅	-10.2051
北地	-10.2052
丹陽	-10.2054
姚興	-10.2065
為質	-10.208
遣將	-10.2082
所部	-10.2098
以報	-10.2113
宇文	-10.2114
西京	-10.2115
武昌	-10.2118
人少	-10.2121
人士	-10.2127
新城	-10.2129
奉詔	-10.2135
獲其	-10.2141
入宋	-10.2142
不言	-10.2146
改為	-10.2151
除之	-10.2153
遇之	-10.2154
謀反	-10.216
睿	-10.2165
公子	-10.2179
岌	-10.2189
長生	-10.2193
衆皆	-10.2194
􁇾	-10.2195
士大夫	-10.2196
璟	-10.2197
躍	-10.2198
庚午	-10.2198
𬒳	-10.2198
淮甸	-10.2198
董璋	-10.2199
戌	-10.2199
恂	-10.2199
萌	-10.22
障	-10.2202
瑀	-10.2202
諫議大夫	-10.2203
彂	-10.2204
兵部侍郎	-10.2205
烏孤	-10.2205
丙寅	-10.2205
辛丑	-10.2205
丁丑	-10.2205
俸	-10.2205
御史中丞	-10.2206
勛	-10.2206
客省使	-10.2207
偕	-10.2207
牒	-10.2208
鱗	-10.2208
諒	-10.221
看	-10.221
癸亥	-10.221
寔	-10.221
汴京	-10.2211
彦儔	-10.2212
陋	-10.2212
苻登	-10.2214
譯	-10.2214
討平之	-10.2215
砦	-10.2215
貎	-10.2216
廬陵	-10.2216
抽	-10.2217
不通	-10.2228
于我	-10.223
軻	-10.2232
遣使詣	-10.2232
之名	-10.224
來聘	-10.2255
于此	-10.2259
之號	-10.226
逺近	-10.2261
斬其	-10.2262
詔曰	-10.2266
一年	-10.2284
羣下	-10.2301
五日	-10.2306
上將軍	-10.2318
池州	-10.2319
梓州	-10.2329
順天	-10.233
將至	-10.2331
直言	-10.2331
二日	-10.2333
武平	-10.2343
蠡	-10.2343
建平	-10.2348
浙江	-10.2354
肯	-10.2355
咸通	-10.2362
寧州	-10.2363
之風	-10.2368
所生	-10.2375
竟不	-10.2382
艦	-10.2401
不自	-10.2401
使持節	-10.2405
掖	-10.2406
軒	-10.2407
南漢南漢南漢南漢南漢	-10.2407
暫	-10.2411
也又	-10.2411
馮延魯	-10.2413
卯	-10.2413
酒酣	-10.2413
媿	-10.2414
罵	-10.2415
暨	-10.2416
愁	-10.2416
項	-10.2418
坦	-10.2418
底	-10.242
中書舎人	-10.242
壬申	-10.242
蓬	-10.242
呈	-10.242
距	-10.2421
亦以	-10.2422
岡	-10.2423
隘	-10.2424
庚辰	-10.2424
沔	-10.2425
八十	-10.2426
壞	-10.2427
準	-10.2427
七千	-10.243
延已	-10.2432
稍稍	-10.2433
太史令	-10.2435
賔客	-10.2436
昌黎	-10.2439
責之	-10.2442
李昊	-10.2444
州防禦使	-10.2444
者多	-10.2448
牙門	-10.2449
壬子	-10.245
為大	-10.2456
見殺	-10.2461
義方	-10.2474
者乎	-10.2475
引見	-10.2475
三世	-10.2475
蜀主	-10.2484
難敵	-10.2487
西秦	-10.2487
牛馬	-10.2496
深入	-10.2497
自將	-10.25
不免	-10.2509
在此	-10.2522
元膺	-10.2525
言于	-10.2525
以應	-10.2532
監軍使	-10.2534
帥兵	-10.2537
進次	-10.2544
蜀王	-10.2576
曰子	-10.2582
互	-10.2588
王公	-10.2591
本姓	-10.2594
行人	-10.2601
我國	-10.2602
海内	-10.2602
獠	-10.2604
它	-10.2612
之患	-10.2613
禀	-10.2625
不止	-10.2626
奄	-10.2627
庚戌	-10.2627
拯	-10.2628
吐	-10.2629
截	-10.2631
將相	-10.2631
駱	-10.2631
璘	-10.2632
梯	-10.2632
誡	-10.2632
錄尚書事	-10.2632
賚	-10.2633
油	-10.2633
減	-10.2633
鬬	-10.2634
亞	-10.2634
鞠	-10.2634
忻	-10.2634
倘	-10.2635
恚	-10.2635
家人	-10.2635
羲	-10.2636
乙巳	-10.2636
緑	-10.2637
瓶	-10.2638
知制誥	-10.2639
㓕	-10.2639
圍之	-10.2642
十餘里	-10.2642
挫	-10.2645
干戈	-10.2647
敎	-10.2647
墟	-10.265
不相	-10.2651
征東將軍	-10.2651
睦州	-10.2656
而進	-10.2659
衣服	-10.266
檢校太保	-10.2661
王室	-10.2661
以金	-10.2667
宗弼	-10.2677
制度	-10.2679
㕘軍	-10.2685
武安	-10.2695
而來	-10.271
宋史	-10.271
追尊	-10.2716
欲殺	-10.2718
閬州	-10.2719
所著	-10.2719
南都	-10.2725
以功	-10.2727
萬五千	-10.2728
萬計	-10.2729
為皇太子	-10.273
來歸	-10.2736
無罪	-10.2737
被執	-10.2738
初名	-10.2739
是夜	-10.2745
江都	-10.2746
兵部尚書	-10.2746
之世	-10.2751
云云	-10.2755
家世	-10.2756
大雨	-10.2763
分兵	-10.2766
守將	-10.277
即今	-10.2775
以拒	-10.2781
應天	-10.2784
督䕶	-10.2785
伐楚	-10.2788
朱元	-10.2803
士女	-10.2821
屯兵	-10.2821
撓	-10.2825
仁宗	-10.2825
誥	-10.283
文帝	-10.2836
步騎	-10.2837
呂	-10.2843
亊	-10.2848
麴	-10.2848
顛	-10.2849
文獻王	-10.285
愷	-10.285
墻	-10.2853
莾	-10.2853
朽	-10.2854
慟	-10.2854
檢討呉任臣撰	-10.2854
渚	-10.2855
二年春二月	-10.2855
晩	-10.2856
㕔	-10.2856
節度判官	-10.2856
庚申	-10.2857
卿等	-10.2857
艱難	-10.2857
譴	-10.2858
迷	-10.2858
拓	-10.2858
逖	-10.2859
两	-10.2859
吐蕃	-10.286
諸葛亮	-10.286
婆	-10.286
嚴續	-10.2861
臥	-10.2861
俯	-10.2863
齡	-10.2864
惲	-10.2865
車駕	-10.2865
從事中郎	-10.2865
隗	-10.2866
知名	-10.2868
薪	-10.2869
丁巳	-10.2869
筵	-10.287
餐	-10.2871
魂	-10.2874
王建	-10.2875
大姓	-10.2881
舍人	-10.2889
不䏻	-10.2892
輕騎	-10.2893
劉裕	-10.2894
漢州	-10.2894
盹	-10.2898
開運	-10.2899
字叔	-10.2908
無遺	-10.2911
南面	-10.2915
俘斬	-10.2916
議者	-10.2918
收其	-10.2919
昭王	-10.2922
九華	-10.2926
也遂	-10.2929
改名	-10.2931
都城	-10.2936
山下	-10.2939
氏為皇后	-10.2943
錢氏	-10.2947
蠻夷	-10.295
閬	-10.2953
也且	-10.2959
帥騎	-10.2963
城門	-10.297
四人	-10.2976
近臣	-10.2978
安撫	-10.2992
右將軍	-10.2996
進取	-10.3001
無子	-10.3005
將校	-10.3005
致書	-10.301
後主時	-10.3019
攻城	-10.3022
趙王	-10.3027
及諸	-10.3028
正陽	-10.3036
視事	-10.3036
京城	-10.3036
漁	-10.3036
得罪	-10.304
終日	-10.3048
來拒	-10.3053
茅	-10.3068
至今	-10.3068
覲	-10.3069
書作	-10.3069
荘	-10.3073
文曰	-10.3076
勾	-10.3076
己亥	-10.3078
㤗	-10.3078
浴	-10.3079
頋	-10.3079
蹤	-10.308
簿	-10.308
廊	-10.308
粗	-10.3082
旻	-10.3082
車騎大將軍	-10.3082
侈	-10.3082
雕	-10.3083
桐	-10.3083
乹	-10.3083
陞	-10.3083
己丑	-10.3084
驃騎大將軍	-10.3084
㝠	-10.3085
廷隠	-10.3085
冨	-10.3085
釣	-10.3086
袍	-10.3086
翻	-10.3087
辦	-10.3087
遯	-10.3087
堅以	-10.3089
窘	-10.3089
踵	-10.309
泄	-10.309
訛	-10.3091
鬱	-10.3093
衣錦軍	-10.3094
雉	-10.3094
塢	-10.3094
皇甫	-10.3095
畋	-10.3102
朱提	-10.3102
崇韜	-10.3103
羅城	-10.3103
子胥曰	-10.3116
領兵	-10.3118
以為然	-10.3119
朝夕	-10.3123
大朝	-10.3124
季良	-10.3127
至長安	-10.313
昭儀	-10.3135
臣等	-10.314
三尺	-10.3144
信之	-10.3156
亡命	-10.3165
也其	-10.3166
丈夫	-10.3169
不合	-10.3175
上國	-10.3177
人物	-10.3187
南唐書卷之	-10.3188
金全	-10.3191
置酒	-10.3191
書云	-10.3194
以為不可	-10.3195
示之	-10.3199
二十一年	-10.3201
國號	-10.3206
利州	-10.3206
權知	-10.3211
七萬	-10.322
作詩	-10.3229
豈非	-10.3245
進位	-10.3249
服其	-10.325
何所	-10.3254
與王	-10.3255
于外	-10.3262
楚人	-10.3266
呉王	-10.3267
死於	-10.3268
清海	-10.3269
昭武	-10.3276
忠獻王	-10.3278
為我	-10.3287
將帥	-10.3292
之美	-10.3295
懼而	-10.3296
之下	-10.3297
豎	-10.3299
長子也	-10.33
不服	-10.33
棘	-10.3302
仁罕	-10.3302
徐玠	-10.3305
畱	-10.3306
黁	-10.3306
五十餘	-10.3306
劇	-10.3306
鏻	-10.3307
辛酉	-10.3307
䓁	-10.3307
欣	-10.3307
諾	-10.3308
泊	-10.331
綾	-10.3311
罔	-10.3312
威名	-10.3313
團	-10.3314
癸酉	-10.3314
峭	-10.3315
諧	-10.3315
癸巳	-10.3315
崧	-10.3316
億	-10.3317
懇	-10.3317
廩	-10.3317
癸丑	-10.3318
歐陽史	-10.3318
脅	-10.3319
犍爲	-10.3319
撫軍將軍	-10.3319
膏	-10.332
苞	-10.332
征東大將軍	-10.332
涇	-10.332
蹙	-10.3321
汭	-10.3321
䂓	-10.3321
熒惑	-10.3322
殯	-10.3322
戊戌	-10.3322
蒲坂	-10.3323
幷	-10.3325
與諸	-10.3326
忝	-10.3327
乃自	-10.3333
承休	-10.3337
進軍	-10.3338
百餘里	-10.3339
所害	-10.334
承㫖	-10.3341
私第	-10.3342
凉州刺史	-10.3343
不失	-10.3347
岳州	-10.336
事之	-10.3364
烈宗	-10.3364
避地	-10.3371
棄城	-10.3384
周氏	-10.3386
四萬	-10.34
軍於	-10.3407
和尚	-10.3408
常與	-10.341
勸進	-10.3411
武威	-10.3415
自若	-10.342
陽平	-10.3424
太初	-10.3425
假道	-10.3425
扵是	-10.3435
追諡	-10.3436
莫敢	-10.3438
周人	-10.3441
家明	-10.3455
雒	-10.3457
寤	-10.3461
遷都	-10.3462
嘉興	-10.3471
軍國	-10.3471
令公	-10.3485
無他	-10.3493
謀叛	-10.3493
不幸	-10.3494
號令	-10.3497
倦	-10.3513
宦	-10.3513
何足	-10.3514
魏王	-10.3516
久矣	-10.3521
兵至	-10.3522
各有	-10.3523
下令	-10.3526
冠軍	-10.3527
之内	-10.3532
制置	-10.3535
降於	-10.3543
逋	-10.3547
丙辰	-10.3547
研	-10.3549
中書侍郎同平章事	-10.355
翹	-10.355
洗	-10.355
織	-10.355
擊破之	-10.3552
狎	-10.3552
煙	-10.3553
驟	-10.3553
瘴	-10.3553
林仁肇	-10.3553
賑	-10.3555
鎮東將軍	-10.3556
觧	-10.3556
苗	-10.3557
右長史	-10.3558
飄	-10.3558
与	-10.3558
為相	-10.3559
中書監	-10.3559
璝	-10.3559
畿	-10.3559
靳	-10.3561
􁐐	-10.3561
徴古	-10.3562
誌	-10.3562
丁零	-10.3562
茂貞	-10.3562
刋	-10.3563
滎陽	-10.3565
讌	-10.3566
驍騎將軍	-10.3566
仇池	-10.3568
非所	-10.3571
同時	-10.3571
遁去	-10.3577
禍福	-10.3585
清源	-10.3586
汝南	-10.3586
和龍	-10.3586
以禮	-10.3589
桓温	-10.3591
遣使者	-10.3592
南越	-10.3592
風俗	-10.3597
十國	-10.3609
間道	-10.361
中州	-10.3614
臨安	-10.3614
保大中	-10.3624
成帝	-10.3639
宣王	-10.3656
無何	-10.3659
郡人	-10.3664
諸城	-10.3664
問其	-10.3665
下書	-10.3686
統軍使	-10.3689
偽諡	-10.37
生子	-10.3718
大理	-10.3718
志云	-10.3719
閩王	-10.3721
曰大	-10.3723
不報	-10.3727
生於	-10.3728
下書曰	-10.3729
杭	-10.3742
第二	-10.3745
留守	-10.3753
之利	-10.3759
復有	-10.3766
也故	-10.3766
執政	-10.3769
河間	-10.3769
後唐	-10.3772
狄	-10.3774
金器	-10.3779
十國紀年	-10.378
怡	-10.378
揆	-10.3781
多難	-10.3782
犢	-10.3788
佗	-10.3788
衷	-10.3792
僊	-10.3793
跪	-10.3794
枯	-10.3794
鑾	-10.3795
丁卯	-10.3796
以詩	-10.3797
𥙿	-10.3797
滌	-10.3798
嶮	-10.3798
莭	-10.38
建威將軍	-10.38
峴	-10.38
悍	-10.38
浮屠	-10.38
㬥	-10.3801
頸	-10.3801
汚	-10.3801
延鈞	-10.3801
朱瑾	-10.3802
厄	-10.3802
檢校太傅	-10.3802
鎮南將軍	-10.3803
懲	-10.3803
替	-10.3803
司隷校尉	-10.3804
躡	-10.3804
四年春二月	-10.3804
魏岑	-10.3804
牟	-10.3805
瀆	-10.3805
俞	-10.3805
謗	-10.3807
豁	-10.3807
也吾	-10.3807
鄒	-10.3808
舉進士	-10.3811
倪	-10.3811
各有差	-10.3813
鎧	-10.3813
侍御史	-10.3813
東陽	-10.3815
為大將軍	-10.3815
攜	-10.3816
穡	-10.3817
禪代	-10.3819
卭	-10.3819
諸葛	-10.382
四時	-10.3821
北平	-10.3822
希廣	-10.3827
功曹	-10.383
一曰	-10.383
憚之	-10.383
戊子	-10.3837
大夫種	-10.384
不就	-10.3841
夢孫	-10.3847
勇士	-10.3852
成功	-10.3853
不信	-10.3856
未必	-10.3857
監國	-10.386
有此	-10.3868
所向	-10.3886
諭之	-10.389
梓	-10.3896
其意	-10.3904
樂都	-10.3906
重之	-10.3906
告急	-10.3906
夫子	-10.3911
鄴城	-10.3912
親信	-10.3913
大舉	-10.3914
然則	-10.3914
新都	-10.3916
殿前	-10.3921
至成都	-10.3927
所知	-10.3928
安能	-10.3938
皇天	-10.3938
八人	-10.3938
越王曰	-10.3948
可不	-10.3949
為世子	-10.3957
兵入	-10.396
軍師	-10.3965
遣使來	-10.3966
河内	-10.3969
其次	-10.3974
者則	-10.3976
卒于	-10.3994
忌之	-10.3996
宣城	-10.3998
字仲	-10.3998
歸於	-10.4
西山	-10.4002
以叛	-10.4006
撫州	-10.4007
可得	-10.4009
一言	-10.401
枚	-10.402
明王	-10.4027
軍校	-10.403
晉師	-10.403
㨿	-10.4038
乾亨	-10.4042
該	-10.4042
馮翊	-10.4043
惶	-10.4043
牌	-10.4043
上柱國	-10.4043
冷	-10.4044
㢤	-10.4045
拙	-10.4045
電	-10.4045
寘	-10.4046
陂	-10.4046
快	-10.4048
譛	-10.4048
耆	-10.4048
帯	-10.4049
促	-10.405
碎	-10.405
忤	-10.4051
戊午	-10.4051
杯	-10.4051
淹	-10.4051
驃騎將軍	-10.4052
探	-10.4053
淚	-10.4054
捍	-10.4055
威武	-10.4055
滛	-10.4055
樞宻使	-10.4056
訣	-10.4056
幢	-10.4058
羸	-10.4059
穎	-10.4061
龍飛	-10.4063
不進	-10.4064
延翰	-10.4064
釋之	-10.4065
亢	-10.4065
山河	-10.4067
魏軍	-10.4069
浙西	-10.4069
安仁義	-10.4069
王宗弼	-10.407
殆盡	-10.4072
以待之	-10.4073
太夫人	-10.4073
彦章	-10.4076
何其	-10.4077
黄龍	-10.4078
置百官	-10.4079
睿帝	-10.4081
稱之	-10.4082
嶺北	-10.4089
二十八	-10.409
藩鎮	-10.4093
歙	-10.4094
河右	-10.4094
從兄	-10.4096
遇害	-10.4096
貞明	-10.4126
兵大敗	-10.4128
雖不	-10.4129
至自	-10.414
亦無	-10.415
從者	-10.4168
道襲	-10.418
辭曰	-10.418
其主	-10.4182
閩人	-10.4189
北漢	-10.4189
武肅	-10.4196
輟	-10.4197
等率	-10.4201
疾病	-10.4202
親征	-10.4204
所能	-10.421
請命	-10.4212
不祥	-10.4213
舊縣	-10.4216
過也	-10.4216
天長	-10.4227
己未	-10.4229
滅之	-10.4233
又作	-10.4234
詔以	-10.4234
越州	-10.4234
迭	-10.4235
山東	-10.4236
何必	-10.4243
死于	-10.4252
進圍	-10.4253
見於	-10.4254
食之	-10.4259
十餘年	-10.4263
三卷	-10.4265
拒守	-10.4266
髙平	-10.4267
生擒	-10.4273
遣還	-10.4273
大同	-10.4274
擊敗之	-10.4275
無為	-10.4275
公侯	-10.4278
筭	-10.4282
領縣五	-10.4291
竺	-10.4292
梁王全忠	-10.4293
延鲁	-10.4298
舘	-10.4299
踈	-10.4299
孚	-10.4301
熱	-10.4301
廼	-10.4301
媚	-10.4301
贄	-10.4301
着	-10.4302
韓熙載	-10.4304
課	-10.4304
寝	-10.4305
揮	-10.4306
嗜	-10.4306
炭	-10.4306
鎮西將軍	-10.4307
辛卯	-10.4307
廷尉	-10.4307
茫	-10.4307
爐	-10.4307
旦夕	-10.4307
餌	-10.4307
光祿大夫	-10.4308
宸	-10.4309
紿	-10.4309
諤	-10.4309
不識	-10.431
響	-10.4311
轂	-10.4312
灰	-10.4312
琅邪	-10.4313
九州	-10.4313
閑	-10.4314
同心	-10.4316
安漢	-10.4316
供奉官	-10.4316
文表	-10.4316
善屬文	-10.4317
開府	-10.4317
還長安	-10.4318
鬼神	-10.4318
常以	-10.4321
乞伏	-10.4323
頽	-10.4324
恵宗	-10.4327
之重	-10.4331
引軍	-10.4334
長興	-10.4335
有道	-10.4341
等攻	-10.4342
白鹿	-10.4343
所破	-10.4348
天會	-10.4348
太學	-10.4349
延嗣	-10.4358
幕府	-10.4361
甲士	-10.4361
後人	-10.4362
或有	-10.4373
入境	-10.4373
人主	-10.438
兵革	-10.4381
月餘	-10.4383
祖宗	-10.4384
饒州	-10.4386
十數	-10.4388
將佐	-10.4394
少卿	-10.4398
鎮惡	-10.4399
江夏	-10.4401
同光	-10.4404
萬物	-10.4404
石生	-10.4409
曰天	-10.4418
為丞相	-10.4421
賜號	-10.4426
山谷	-10.4427
東方	-10.4428
彦卿	-10.4431
不屈	-10.4431
禮樂	-10.4434
巴東	-10.4436
曰爾	-10.4437
于京師	-10.4437
患之	-10.4439
追擊	-10.4443
遣其將	-10.4445
父老	-10.4449
河西王	-10.4453
如其言	-10.4453
行軍	-10.4456
閉門	-10.4457
風雨	-10.4464
舎人	-10.4479
其文	-10.4481
遂絶	-10.4481
是夕	-10.4487
使君	-10.4489
單騎	-10.45
為詩	-10.45
不能自	-10.4504
罷兵	-10.4511
其實	-10.4518
有神	-10.4519
南征	-10.452
二女	-10.4524
首領	-10.4524
二卷	-10.4528
或曰	-10.453
孝武	-10.4532
茂章	-10.4534
于金陵	-10.4534
七百	-10.4535
又與	-10.4538
篆	-10.4541
長吏	-10.4547
之憂	-10.4548
副之	-10.4556
蠶	-10.4558
銖	-10.4562
綺	-10.4562
之子也	-10.4563
曷	-10.4564
征西大將軍	-10.4565
此則	-10.4565
洋	-10.4565
梵	-10.4565
籌	-10.4566
録尚書事	-10.4566
輅	-10.4567
亾	-10.4567
新唐書	-10.4567
賄	-10.4569
引兵還	-10.457
凉州牧	-10.457
隷	-10.457
夢錫	-10.457
旌旗	-10.457
沐	-10.4571
几	-10.4571
郝	-10.4571
猥	-10.4572
朱文進	-10.4572
較	-10.4572
己巳	-10.4573
濫	-10.4574
餉	-10.4574
濶	-10.4575
譜	-10.4575
裹	-10.4575
光武	-10.4575
栅	-10.4575
與弟	-10.4576
漂	-10.4576
壬寅	-10.4576
宕渠	-10.4576
漲	-10.4578
俠	-10.458
王怒	-10.458
猜忌	-10.4581
軀	-10.4583
傲	-10.4584
尚書右僕射	-10.4584
禧	-10.4584
扶風	-10.4587
楊行宻	-10.4589
髻	-10.4597
三十里	-10.4598
上䟽	-10.4601
冀州刺史	-10.4603
百僚	-10.4603
謝罪	-10.4605
劉琨	-10.4608
而巳	-10.4614
師暠	-10.4617
仁俊	-10.4617
赴難	-10.4618
勒勒	-10.4619
黎陽	-10.462
永隆	-10.4621
養子	-10.4621
曰今日	-10.4629
延夀	-10.4634
大恱	-10.4634
于周	-10.464
光憲	-10.4647
大将	-10.4649
宫殿	-10.465
城上	-10.4655
人民	-10.4659
也夫	-10.4661
不測	-10.4663
皇朝	-10.4669
不容	-10.4672
聖王	-10.4675
以死	-10.4679
奪其	-10.4679
唐帝	-10.4684
及至	-10.4686
先鋒	-10.4713
江北	-10.4714
之説	-10.4727
封為	-10.4728
王立	-10.473
攻陷	-10.4737
人也少	-10.4739
令人	-10.474
以致	-10.4742
敗死	-10.4749
之制	-10.4752
降之	-10.476
後為	-10.476
黨與	-10.4768
來附	-10.4769
臣請	-10.4773
大寶	-10.4783
等州	-10.4786
四千	-10.4789
祖父	-10.4791
府事	-10.4793
金吾	-10.4794
莭度	-10.4811
師事	-10.4815
蚝	-10.4817
鞍	-10.4821
堅守	-10.4821
是月王	-10.4822
與戰	-10.4826
隸	-10.4828
潁	-10.4829
禁中	-10.4829
仍以	-10.4832
粉	-10.4834
紛	-10.4834
都督中外諸軍事	-10.4834
餞	-10.4834
遙	-10.4834
謫	-10.4834
羆	-10.4834
帖	-10.4835
寮	-10.4835
閏月	-10.4835
者亦	-10.4835
恠	-10.4836
貯	-10.4836
扼	-10.4836
局	-10.4837
偓	-10.4839
猜	-10.484
㢘	-10.484
湧	-10.484
觴	-10.4841
劉主	-10.4842
奠	-10.4842
躭	-10.4843
涪陵	-10.4843
揖	-10.4844
諛	-10.4844
檢校司空	-10.4844
吉凶	-10.4846
潞州	-10.4847
姪	-10.4847
孺	-10.4848
濱	-10.4848
飽	-10.4849
朂	-10.4849
銅柱	-10.485
伽	-10.485
鹵	-10.4851
杲	-10.4852
猗	-10.4853
豫州刺史	-10.4854
冢	-10.4854
英武帝	-10.4855
陳誨	-10.4856
佛圖澄	-10.4856
無益	-10.4859
埋	-10.4861
景達	-10.4863
藍	-10.4863
黄龍見於	-10.4868
靜江	-10.4868
大兵	-10.4873
天道	-10.4873
開寶	-10.4873
仁規	-10.4874
旬日	-10.4875
汀	-10.4877
矢石	-10.4877
光禄	-10.488
石城	-10.4884
則無	-10.4886
仲宣	-10.4895
從善	-10.4896
王后	-10.4909
廣順	-10.4909
如初	-10.4915
又命	-10.4916
病卒	-10.4917
南中	-10.4919
列侯	-10.4921
羅尚	-10.4925
六合	-10.4927
所載	-10.4927
者非	-10.493
或作	-10.4934
衣錦	-10.4938
魏兵	-10.4941
大行	-10.4943
曰彼	-10.4961
一月	-10.4967
何罪	-10.4968
軍府事	-10.4968
梁王	-10.4972
攻破	-10.4977
不獲	-10.4979
通好	-10.4982
二千人	-10.4982
簡言	-10.499
建初	-10.4995
復命	-10.4996
自此	-10.5
不知所	-10.5003
不附	-10.5003
少主	-10.5005
悉以	-10.5006
之氣	-10.5009
關中	-10.5016
一舉	-10.5016
有罪	-10.5021
獲之	-10.5025
春三月	-10.5025
皇太后	-10.5032
小國	-10.5033
以是	-10.5035
不悦	-10.5041
見而	-10.5048
殺戮	-10.5049
人事	-10.5059
得一	-10.506
讓皇	-10.506
將有	-10.5075
率師	-10.5078
髙宗	-10.5091
未詳	-10.5094
鄉人	-10.5102
蜀檮杌	-10.5108
釐	-10.511
鴈	-10.5111
僖宗	-10.5111
瓌	-10.5112
藤	-10.5112
冶	-10.5113
琰	-10.5113
都虞侯	-10.5113
虹	-10.5113
冐	-10.5114
譬	-10.5114
狡	-10.5114
燔	-10.5115
冉閔	-10.5115
怖	-10.5115
曄	-10.5115
淂	-10.5115
珙	-10.5115
征南將軍	-10.5115
邠	-10.5116
之理	-10.5116
宼	-10.5116
攘	-10.5117
臭	-10.5118
冉	-10.5118
廹	-10.5119
豪傑	-10.5119
祕	-10.5119
勑	-10.5119
苻氏	-10.5119
爨	-10.5119
之望	-10.512
粤	-10.5121
桀	-10.5121
枋頭	-10.5121
𤣥靚	-10.5121
陶雅	-10.5123
耗	-10.5123
武成	-10.5123
鈎	-10.5124
霄	-10.5124
姊	-10.5124
千餘家	-10.5125
諮	-10.5126
爛	-10.5127
越嶲	-10.5129
於市	-10.5132
宦官	-10.5133
弱冠	-10.5134
千秋	-10.5135
繇	-10.5135
至金陵	-10.5136
柰何	-10.5139
彦超	-10.5143
崱	-10.5144
語曰	-10.5144
伍子胥	-10.5147
從誨	-10.515
不亦	-10.5152
盡忠	-10.5154
朝士	-10.5156
南蠻	-10.5165
婦女	-10.5165
蒼生	-10.5166
光州	-10.5167
也於是	-10.5168
征西	-10.5168
而復	-10.5168
亭侯	-10.5171
其才	-10.5176
自負	-10.5177
苦之	-10.5177
欲與	-10.518
所言	-10.518
太伯	-10.5185
答曰	-10.519
馬歩	-10.519
乃還	-10.5195
尚書左丞	-10.52
來援	-10.5201
而生	-10.5202
其謀	-10.5216
闗東	-10.5219
衛大將軍	-10.5232
謀殺	-10.5238
之兆	-10.5241
曰王	-10.5242
朝臣	-10.5249
迎降	-10.5249
乞師	-10.525
士馬	-10.5251
人謂	-10.5256
加王	-10.5259
朝政	-10.5261
㧞之	-10.5263
疑之	-10.5265
親臨	-10.527
不暇	-10.5272
山上	-10.5273
終始	-10.5277
也若	-10.5283
大梁	-10.5283
以俟	-10.5289
日南	-10.5297
李彦	-10.5303
少年	-10.5305
之資	-10.5307
因其	-10.5308
不可得	-10.531
南平王	-10.5317
八日	-10.5319
未易	-10.5323
歸國	-10.5325
王浚	-10.5329
曰是	-10.533
當世	-10.5331
不忠	-10.5331
歙州	-10.5332
有寵	-10.5333
名士	-10.5334
西河	-10.5339
郡守	-10.5341
大司徒	-10.5342
降宋	-10.5344
起居	-10.5347
平城	-10.5358
鴻臚	-10.5368
為一	-10.5368
為節度使	-10.537
劔	-10.5372
以謝	-10.5377
沿	-10.5378
吐谷渾	-10.5382
欲立	-10.5383
奔于	-10.5383
之機	-10.5384
領縣四	-10.5385
得志	-10.5387
士衆	-10.5387
初封	-10.5389
愼	-10.539
南平	-10.5393
江南野史	-10.5395
瘞	-10.5395
餘杭	-10.5397
忠遜王	-10.5398
譔	-10.5398
必為	-10.54
弓矢	-10.5403
趙季良	-10.5403
霞	-10.5403
𤓰	-10.5404
詡	-10.5404
其可	-10.5406
粥	-10.5406
潼闗	-10.5406
淪	-10.5406
忠獻	-10.5408
戾	-10.541
秘書監	-10.541
䜛	-10.541
菁	-10.5413
觀察	-10.5413
已死	-10.5415
後事	-10.5417
殃	-10.5417
猶在	-10.5418
羣僚	-10.542
致之	-10.542
長者	-10.5423
遣其子	-10.5426
四十里	-10.5426
諸部	-10.5433
壽春	-10.5434
楚州	-10.5437
大敗之	-10.5439
二千石	-10.5441
泉州刺史	-10.5441
出家	-10.5442
于宋	-10.5444
有聲	-10.5449
奔潰	-10.5454
善射	-10.5457
山中	-10.5459
林邑	-10.546
我軍	-10.546
築城	-10.5462
徳眀	-10.5464
陳喬	-10.5469
兵三千	-10.5471
王彌	-10.5475
銀器	-10.5477
之甚	-10.548
雍州	-10.548
諌曰	-10.5481
素服	-10.5486
曰孤	-10.5487
海陵	-10.5489
有言	-10.5491
少有	-10.5499
皆降	-10.5502
教授	-10.5504
所擒	-10.5504
勉之	-10.5509
奏授	-10.5512
先人	-10.5514
謂其	-10.5519
歸義	-10.5524
元年正月	-10.5526
追贈	-10.553
光化	-10.5534
縣有	-10.5538
次於	-10.5541
天資	-10.5549
也然	-10.5549
見一	-10.5552
化為	-10.5557
父兄	-10.5557
四州	-10.556
事後主	-10.5565
哀公	-10.5572
有疾	-10.5573
然而	-10.5579
之女	-10.558
復何	-10.5585
十人	-10.5587
讓之	-10.5588
元妃	-10.5592
其能	-10.5592
并其	-10.5601
之聲	-10.5608
陳留	-10.5609
之兵	-10.5611
李嚴	-10.5614
前軍	-10.5621
二國	-10.5626
制授	-10.5627
部下	-10.5633
人有	-10.5638
聚衆	-10.5643
舉國	-10.5647
平之	-10.5648
為交州刺史	-10.565
大笑	-10.5651
賜死	-10.5654
遣使拜	-10.5654
畧曰	-10.5665
天性	-10.5674
厨	-10.568
領縣三	-10.568
巒	-10.5681
漳	-10.5682
察孝㢘	-10.5684
崇文	-10.5684
琦	-10.5685
冕	-10.5685
宓	-10.5687
裒	-10.5688
稔	-10.5689
閤	-10.5689
轍	-10.5689
想	-10.5689
捧	-10.5691
歿	-10.5691
同中書門下平章事	-10.5691
裏	-10.5691
奕干	-10.5691
蹇	-10.5692
與李	-10.5692
秦雍	-10.5693
大赦境内殊死已下改元	-10.5693
貺	-10.5693
歸于	-10.5693
金紫光禄大夫	-10.5693
冥	-10.5694
與其	-10.5694
大赦境内	-10.5694
馮延巳	-10.5694
蠲	-10.5695
括	-10.5695
棟	-10.5695
裨將	-10.5696
㝷	-10.5696
虵	-10.5697
秃	-10.5697
重建	-10.5697
禮部侍郎	-10.5698
綴	-10.5698
西夷校尉	-10.5698
嬪	-10.5698
汎	-10.5699
偷	-10.5699
鼻	-10.57
江文蔚	-10.57
孽	-10.5701
沂	-10.5701
希蕚	-10.5701
舊為	-10.5702
潘佑	-10.5702
熾	-10.5703
春申君	-10.5703
黄門侍郎	-10.5703
司𨽻校尉	-10.5704
平北將軍	-10.5704
乾坤	-10.5706
報聘	-10.5706
徐綰	-10.5706
六軍	-10.5707
精鋭	-10.5707
衢州	-10.5707
中山王	-10.5707
凱	-10.5708
愆	-10.5711
祇	-10.5711
柏	-10.5711
善之	-10.5712
年八十	-10.5714
來貢	-10.5716
允章	-10.5717
納欵	-10.5718
守節	-10.5718
記室	-10.5723
濁	-10.5725
昆弟	-10.5733
管内	-10.5733
于市	-10.5734
殺人	-10.5736
軍敗	-10.5736
不樂	-10.5736
白馬	-10.5738
西門	-10.5738
追至	-10.5738
乾德	-10.574
草木	-10.5744
反覆	-10.5745
稱其	-10.5747
當作	-10.5752
江表志	-10.5754
以禦	-10.5759
撃之	-10.5762
萬全	-10.5762
無度	-10.5775
相率	-10.578
於宋	-10.5786
者三	-10.5787
議欲	-10.5794
功名	-10.5796
大國	-10.5804
大雅	-10.5807
之分	-10.5809
時官	-10.5812
太白	-10.582
百年	-10.582
成敗	-10.5821
不覺	-10.5827
矣乃	-10.5829
數里	-10.5834
聖朝	-10.5835
之情	-10.5842
其書	-10.5843
丈餘	-10.5843
重遇	-10.5844
敵國	-10.585
國用	-10.5856
其功	-10.5856
數十萬	-10.5861
吳越國王	-10.5862
宋太宗	-10.5863
不逺	-10.5865
三郡	-10.5874
魏武	-10.5875
年三十	-10.5878
遂奔	-10.5883
過人	-10.5884
衆咸	-10.5901
本朝	-10.5901
部衆	-10.5906
相傳	-10.5908
海州	-10.5912
故唐	-10.5916
城守	-10.5919
守宰	-10.5928
江左	-10.5939
逆擊	-10.594
歩騎	-10.594
其女	-10.5953
永興	-10.5953
第二子	-10.5955
右司馬	-10.5955
吳王曰	-10.596
凡三	-10.5963
樞宻	-10.597
屬縣	-10.5974
疾篤	-10.5974
逐之	-10.5975
燮	-10.5975
玕	-10.598
降者	-10.5983
鄊	-10.5984
萬年	-10.5985
閣羅鳯	-10.5985
猝	-10.5986
尊號	-10.5989
趙王麟	-10.599
安西將軍	-10.5991
僞	-10.5991
璿	-10.5991
跋	-10.5993
江表	-10.5994
炬	-10.5995
景逷	-10.5996
㳂	-10.5996
把	-10.5996
壺	-10.5997
諌議大夫	-10.5997
懽	-10.5997
寕	-10.5998
玝	-10.5998
臻	-10.5999
殱	-10.5999
䘏	-10.5999
嵐	-10.5999
魁	-10.5999
謂諸將曰	-10.6
者悉	-10.6
匱	-10.6
汪	-10.6
閹	-10.6001
遮	-10.6001
慕輿	-10.6001
承祐	-10.6002
縱横	-10.6002
漠	-10.6003
御史大夫	-10.6003
禆将	-10.6003
陪	-10.6004
出迎	-10.6004
窟	-10.6005
遍	-10.6005
諶	-10.6005
中和	-10.6006
賓客	-10.6007
公藴	-10.6007
自謂	-10.6009
幅	-10.601
道濟	-10.6013
肝	-10.6014
烹	-10.6014
上尊號	-10.6015
宴飲	-10.6016
大如	-10.6016
占城來貢	-10.6017
所為	-10.6018
兖	-10.6022
吳越國	-10.6023
合浦	-10.6025
延彬	-10.6025
全斌	-10.6026
太廟	-10.6026
二王	-10.6032
百人	-10.6032
永康	-10.6034
其族	-10.6036
割地	-10.6036
従善	-10.6037
利害	-10.6038
立祠	-10.6038
不問	-10.6039
賜爵	-10.6041
遁歸	-10.6044
三十六	-10.6044
聞其名	-10.6046
不當	-10.6047
興兵	-10.6049
傳云	-10.6049
張洎	-10.605
宫門	-10.6051
雅好	-10.6054
建徽	-10.6055
問其故	-10.6056
邕州	-10.6058
不法	-10.606
三千人	-10.6062
移鎮	-10.6062
聲援	-10.6064
本名	-10.6065
泣下	-10.6065
顧謂	-10.6065
攻鄴	-10.6078
愛其	-10.608
卒於	-10.6083
忠孝	-10.6085
受其	-10.6089
保寧	-10.6095
彭州	-10.6097
以成	-10.6097
方物	-10.6098
尋遷	-10.6104
擢為	-10.6105
兵甲	-10.6108
唐師	-10.611
廣固	-10.6113
所見	-10.6119
不成	-10.612
東海王	-10.6121
東門	-10.6122
左丞相	-10.6123
其兄	-10.6128
江水	-10.6139
鎮海	-10.614
無諱	-10.6142
其間	-10.6149
内附	-10.615
二十五	-10.615
鄴中	-10.6152
本州	-10.6158
猶未	-10.6159
非吾	-10.617
執事	-10.6177
未聞	-10.6178
白龍	-10.6179
晉室	-10.6179
以避	-10.6186
大順	-10.6188
於人	-10.6188
對曰臣	-10.6191
三年春三月	-10.6192
三司	-10.6193
渡河	-10.6194
請為	-10.6196
曰主上	-10.62
曰寡人	-10.6204
元達	-10.6206
之䇿	-10.621
蘄州	-10.6219
六萬	-10.622
千疋	-10.6222
呼曰	-10.6226
明矣	-10.6231
二郡	-10.6231
軍至	-10.6232
義士	-10.6234
之力	-10.6236
城東	-10.6237
至姑臧	-10.6239
當以	-10.624
帝曰	-10.6243
恐其	-10.6243
立功	-10.6245
日夜	-10.6256
稱王	-10.6256
歴官	-10.6264
故曰	-10.6272
三子	-10.6278
太山	-10.6281
時時	-10.6286
天地之	-10.6293
且請	-10.6298
零	-10.6298
蔓	-10.6299
讃	-10.6301
弘兾	-10.6302
九十	-10.6302
所稱	-10.6302
霽	-10.6303
裳	-10.6305
𢎞農	-10.6305
鎮軍將軍	-10.6306
征北將軍	-10.6306
綸	-10.6306
筌	-10.6307
殞	-10.6308
曹彬	-10.6309
蹈	-10.6311
甘露	-10.6311
囙	-10.6311
沸	-10.6312
菩薩	-10.6313
籙	-10.6313
素與	-10.6314
昉	-10.6314
兢	-10.6314
誚	-10.6315
著作郎	-10.6315
明徳	-10.6316
簾	-10.6316
甥	-10.6317
癸卯	-10.6319
填	-10.6319
剌史	-10.6319
絡	-10.6321
笞	-10.6322
蝗	-10.6322
乾化	-10.6323
朱全忠	-10.6323
黄眉	-10.6323
諸臣	-10.6325
不去	-10.6326
吾當	-10.6327
錢鏐	-10.6329
得失	-10.6332
玉衡	-10.6333
李仁罕	-10.6336
貴賤	-10.6337
牛酒	-10.634
李繼	-10.6341
湖州刺史	-10.6347
延巳	-10.6351
杜洪	-10.6351
李平	-10.6354
自固	-10.6357
從效	-10.6358
臣僚	-10.6358
單馬	-10.6359
葬之	-10.6363
千載	-10.6364
清泰	-10.6364
護軍	-10.6365
欲使	-10.6365
兵馬使	-10.6367
二十四年	-10.6369
始知	-10.6373
經畧	-10.6375
堅壁	-10.6383
皇太子	-10.6391
一副	-10.6393
許昌	-10.6396
朔方	-10.6403
章武	-10.6403
石室	-10.6412
東平	-10.6414
所署	-10.6415
賢者	-10.6415
終身	-10.6418
無錫	-10.6419
之主	-10.6423
不聞	-10.6428
之誠	-10.6432
於晉	-10.6434
六尺	-10.6442
望風	-10.6447
福建	-10.6448
千匹	-10.645
真宗	-10.6451
為都督	-10.6457
後蜀	-10.6458
將張	-10.6459
大震	-10.6464
信都	-10.6466
所逼	-10.6474
兵圍	-10.6474
國有	-10.6478
何憂	-10.6479
不返	-10.6483
一切	-10.6487
徳昭	-10.6491
南鄭	-10.6494
通文	-10.6495
諸公	-10.6495
曰吾聞	-10.6512
明州	-10.6512
率步騎	-10.6515
時政	-10.6515
年老	-10.6517
在位十	-10.6517
相公	-10.6519
遂陷	-10.652
伐齊	-10.6525
下有	-10.6525
太上	-10.6525
狥	-10.6526
禮遇	-10.6536
吏部	-10.654
宜授	-10.6552
勸王	-10.6555
比至	-10.6564
城郭	-10.6566
貴人	-10.6568
耳今	-10.6571
請救	-10.6576
其軍	-10.6586
嗣王	-10.659
孝子	-10.6594
大驚	-10.6596
縊	-10.6597
卒以	-10.6597
鎮南	-10.6599
立子	-10.6603
本無	-10.6603
宵	-10.6605
未敢	-10.6609
未定	-10.6609
遂成	-10.6611
之辭	-10.6613
顒	-10.6615
鳳州	-10.6619
迄	-10.662
己卯	-10.6621
闔	-10.6622
詮	-10.6623
鏞	-10.6623
全播	-10.6624
柴再用	-10.6624
蓮	-10.6626
户部侍郎	-10.6627
据	-10.6627
璞	-10.6629
添	-10.663
悖	-10.6631
州諸軍事	-10.6631
揣	-10.6632
褘	-10.6632
鄯善	-10.6633
倖	-10.6633
顧全武	-10.6633
擔	-10.6633
工部侍郎	-10.6635
蒲阪	-10.6635
控	-10.6636
谿	-10.6636
秃髪	-10.6636
昵	-10.6636
悌	-10.6637
晏駕	-10.6637
闡	-10.6638
礪	-10.6638
粹	-10.6639
紂	-10.6639
隆演	-10.664
纎	-10.664
𤼵	-10.6641
王擢	-10.6641
蔑	-10.6641
衡陽王	-10.6641
樸	-10.6641
延羲	-10.6642
栢	-10.6643
所至	-10.6643
膝	-10.6645
斧	-10.6646
建陽	-10.6646
鳩	-10.6646
潁川	-10.6646
朋	-10.6649
一戰	-10.6651
王逵	-10.6652
獨不	-10.6654
嘗與	-10.6655
匹夫	-10.6655
嚭	-10.6658
牙内	-10.6658
會稽	-10.666
千餘級	-10.666
公府	-10.6668
如其	-10.6669
重進	-10.6669
扶餘	-10.667
國史	-10.667
居數年	-10.6674
吳國	-10.6675
六年春正月	-10.6676
之象	-10.6677
能知	-10.6677
安之	-10.6679
援兵	-10.6683
必能	-10.6683
昭慶	-10.6684
敬真	-10.6684
遂取	-10.6686
實錄	-10.6691
待罪	-10.6692
濮	-10.67
故不	-10.6702
志在	-10.6705
一國	-10.6707
咸康	-10.6707
而反	-10.6711
尤甚	-10.6714
南郡	-10.6717
使王	-10.6718
為僧	-10.6723
東還	-10.6726
信州	-10.6729
越之	-10.6731
遁走	-10.6732
而自	-10.6733
彦能	-10.6733
焚之	-10.6738
於天	-10.6741
討賊	-10.6744
士庶	-10.6746
二十七	-10.675
所出	-10.6759
今年	-10.6761
夜夢	-10.6762
許以	-10.6773
疑其	-10.6776
少府	-10.6785
樂安	-10.6786
陽縣	-10.6791
兵法	-10.6792
安州	-10.6794
復與	-10.6797
給事	-10.6801
歸命	-10.6803
猶有	-10.6807
獲免	-10.6813
大定	-10.6815
尚父	-10.6816
而起	-10.682
金玉	-10.6827
足矣	-10.6829
不朝	-10.683
瀘	-10.6834
右丞相	-10.6836
有三	-10.6842
與此	-10.6845
山水	-10.6848
白虎	-10.685
天朝	-10.6853
人以為	-10.6855
亡國	-10.6856
史官	-10.6856
廓	-10.6861
臣竊	-10.6862
漢陽	-10.6862
天威	-10.6863
左司馬	-10.6863
王與	-10.6863
囚之	-10.6881
已上	-10.6881
王延政	-10.6882
徙居	-10.6888
上天	-10.6889
告之	-10.6889
先君	-10.6891
求救於	-10.6894
聼	-10.6902
之餘	-10.6903
汴兵	-10.6908
馳使	-10.691
石門	-10.691
蘓	-10.6918
兖州	-10.6922
知人	-10.6923
庶子	-10.6926
極言	-10.6927
邀擊	-10.6928
兵屯	-10.6939
㫤	-10.694
馬令南唐書	-10.6941
忠宣	-10.6943
鎰	-10.6943
百疋	-10.6946
唐書	-10.6949
若不	-10.6952
無事	-10.6954
申胥	-10.6954
椘	-10.6955
彼必	-10.6955
夲	-10.6956
濵	-10.6957
武信	-10.6958
䖏	-10.6959
片	-10.696
毫	-10.696
廪	-10.696
之末	-10.6961
恬	-10.6962
狹	-10.6962
安北將軍	-10.6962
牓	-10.6963
旨	-10.6964
聨	-10.6965
拾遺	-10.6965
鬚	-10.6965
乞伏乾歸	-10.6966
濳	-10.6966
駙馬都尉	-10.6966
塗炭	-10.6967
中使	-10.6968
弛	-10.6968
節制	-10.6969
善騎射	-10.6969
顗	-10.697
元璙	-10.697
吾將	-10.697
磨	-10.6971
躁	-10.6971
嘏	-10.6971
榆	-10.6972
堯舜	-10.6972
綜	-10.6972
嚴可求	-10.6972
伏波	-10.6972
馮延己	-10.6973
宙	-10.6973
徐溫	-10.6974
中軍將軍	-10.6975
拳	-10.6975
栗	-10.6976
珣	-10.6977
謐	-10.6978
鼠	-10.6978
麻秋	-10.698
閎	-10.6984
燉煌太守	-10.6986
周行逢	-10.6987
牛羊	-10.6989
沾	-10.6989
貢獻	-10.699
匡業	-10.6991
為晉	-10.6995
悔之	-10.6998
守忠	-10.7
以前	-10.7
親戚	-10.7001
招集	-10.7001
立為	-10.7004
博陵	-10.7011
昭符	-10.7015
虚實	-10.7016
委任	-10.7016
二十餘	-10.7017
吕氏	-10.702
一隅	-10.7021
於西	-10.7022
以䝉	-10.7022
嵗餘	-10.7023
記曰	-10.7025
天意	-10.7027
吾欲	-10.7031
後苑	-10.7034
至京師	-10.7037
尊母	-10.7038
自相	-10.7038
有僧	-10.7042
神仙	-10.7043
文傑	-10.7045
故名	-10.7046
楊安	-10.7046
忠順	-10.7048
至則	-10.7051
絶其	-10.7052
鄭氏	-10.7054
于遼	-10.7057
還國	-10.706
孫權	-10.7061
永寧	-10.7064
徙封	-10.707
保權	-10.7071
奉化	-10.7072
矣今	-10.7087
寧州刺史	-10.7088
建封	-10.709
薨于	-10.7091
貢方物	-10.7092
有子	-10.7094
泰山	-10.7094
急攻	-10.7096
奉迎	-10.7096
汲	-10.7097
伐蜀	-10.7098
劉聰	-10.7102
親兵	-10.7102
始祖	-10.7105
假節	-10.7106
率衆攻	-10.7109
更始	-10.7127
三千餘人	-10.7127
有云	-10.7128
呼為	-10.7129
傳位	-10.7134
不可不	-10.7143
家貧	-10.7143
所宜	-10.7151
無主	-10.7155
使臣	-10.7156
偏將	-10.7162
帥步騎	-10.7166
桓公	-10.7166
日本	-10.717
未常	-10.7179
哀之	-10.7179
歸罪	-10.718
委之	-10.718
之文	-10.7189
使至	-10.719
王僚	-10.7195
於内	-10.7198
可知	-10.7203
爲人	-10.7206
無禮	-10.7206
征東	-10.721
大水	-10.721
若有	-10.721
逝	-10.7214
字季	-10.7222
十五日	-10.7222
執之	-10.7235
家屬	-10.7239
下獄	-10.7244
固諫	-10.7265
人莫	-10.7268
與我	-10.727
二州刺史	-10.7274
南方	-10.7278
引師	-10.7281
一家	-10.7282
也後	-10.7282
文宗	-10.7285
指揮	-10.7288
無窮	-10.7289
明德	-10.7293
先朝	-10.7293
嘉平	-10.7295
汶	-10.7295
塹	-10.7296
朔日有蝕之	-10.7296
統萬	-10.7297
助之	-10.7299
後有	-10.7299
轅	-10.73
之句	-10.7301
包	-10.7305
湏	-10.7307
吏部侍郎	-10.7308
股肱	-10.731
打	-10.7311
㝎	-10.7311
璣	-10.7311
龑	-10.7311
之體	-10.7312
也宜	-10.7313
彪	-10.7313
龜兹	-10.7313
娥	-10.7313
蕭儼	-10.7313
衢州刺史	-10.7314
叠	-10.7314
亘	-10.7314
嗜酒	-10.7316
西都	-10.7317
媛	-10.7317
郤	-10.7318
俶	-10.7319
憶	-10.7319
安陽	-10.7319
何敬洙	-10.732
渴	-10.7321
奢侈	-10.7321
季札	-10.7322
城隍	-10.7322
茲	-10.7323
妻也	-10.7323
音律	-10.7324
縳	-10.7324
羞	-10.7325
榜	-10.7325
文才	-10.7328
季昌	-10.7331
頓首	-10.7332
償	-10.7334
白雀	-10.7335
徃徃	-10.7337
心腹	-10.7337
帥歩騎	-10.7338
競渡	-10.7339
竟以	-10.7339
二十餘年	-10.7339
慕容氏	-10.7339
知誨	-10.7339
元帥府	-10.734
偏師	-10.7343
事君	-10.7346
以圖	-10.7348
開寳中	-10.7348
高麗	-10.735
前驅	-10.735
金氏	-10.7354
孫忌	-10.7357
賜之	-10.7358
愛州	-10.7358
欲殺之	-10.7359
避亂	-10.7361
四百	-10.7363
二十卷	-10.7363
承嗣	-10.7364
一朝	-10.7365
臺諫	-10.7366
廵官	-10.7367
其徒	-10.737
御衣	-10.737
馬步	-10.7371
小兒	-10.7372
後主嗣位	-10.7373
遼主	-10.7376
乗勝	-10.7376
人也仕	-10.738
二十六	-10.7384
都監使	-10.7386
丁氏	-10.7388
仁達	-10.7391
千金	-10.7391
以求	-10.7392
郴	-10.7392
舊臣	-10.7394
陳璋	-10.7397
不加	-10.7401
生靈	-10.7403
屢敗	-10.7403
昭逺	-10.7405
自有	-10.7406
阻兵	-10.7407
河州刺史	-10.7407
翼日	-10.7407
王建封	-10.741
朝貢	-10.7411
甚盛	-10.7411
鎮南王	-10.7412
各一	-10.7415
夫婦	-10.7416
是歳	-10.742
率其	-10.742
金山	-10.7426
夏侯	-10.7427
元康	-10.7433
國家之	-10.7435
飲食	-10.7438
以供	-10.7441
咸陽	-10.7441
泰州	-10.7441
問罪	-10.7443
夜襲	-10.7444
乎遂	-10.7445
未見	-10.7452
從謙	-10.7454
景仁	-10.7457
君父	-10.746
於道	-10.7462
天祚	-10.747
仕至	-10.747
大夏	-10.7474
謂我	-10.7475
于王	-10.7478
馬殷	-10.748
内牙	-10.748
吳越兵	-10.7481
自餘	-10.7481
南陽王	-10.7483
則有	-10.7483
童子	-10.7486
淮南將	-10.7492
用為	-10.7494
韶州	-10.7494
多有	-10.7499
今欲	-10.7503
五百人	-10.7505
義真	-10.751
惡其	-10.751
言其	-10.7511
有國	-10.7514
彭城王	-10.7515
為尚書令	-10.7516
而亡	-10.7517
者斬	-10.7518
劉威	-10.7519
自焚	-10.7519
男子	-10.7521
吳人	-10.7524
六千	-10.7531
仁任	-10.7532
不守	-10.7532
我太祖	-10.7537
皆如	-10.7541
以次	-10.7557
由此	-10.7558
萬嵗	-10.756
漢祖	-10.7561
五經	-10.7568
領軍	-10.7569
䕫州	-10.7577
出自	-10.7583
十五里	-10.7586
東下	-10.7586
萬世	-10.7591
不動	-10.7592
三百餘	-10.7593
主之	-10.7605
諸生	-10.7615
復還	-10.7621
樂浪	-10.7624
忠烈	-10.7627
賜以	-10.7628
衢	-10.7631
文辭	-10.7631
益州牧	-10.7633
腦	-10.7634
於後	-10.764
給之	-10.7643
歌曰	-10.7644
凉王	-10.7647
稱善	-10.7654
禕	-10.7658
琬	-10.7658
平西將軍	-10.7659
驢	-10.766
武徳	-10.766
猪	-10.766
購	-10.7662
錦里耆舊傳	-10.7663
佶	-10.7663
都押牙	-10.7663
渙	-10.7663
槍	-10.7664
檻	-10.7664
鎮海鎮東	-10.7664
以給	-10.7664
國内	-10.7664
軸	-10.7665
岀	-10.7665
鬰	-10.7666
瑛	-10.7666
驥	-10.7666
紗	-10.7666
穹	-10.7668
菜	-10.7668
都部署	-10.7668
曙	-10.7668
征南大將軍	-10.7668
燼	-10.7669
鎮北將軍	-10.7669
冩	-10.767
繒	-10.767
燃	-10.767
鎔	-10.767
揺	-10.7672
監察御史	-10.7672
縣郡治	-10.7672
袴	-10.7672
脚	-10.7673
徇	-10.7674
浸	-10.7674
燎	-10.7674
秃髪傉檀	-10.7674
槩	-10.7674
一丈	-10.7675
鷄	-10.7675
古者	-10.7675
宗滌	-10.7676
樵	-10.7676
褥	-10.7677
黄巢	-10.7678
腐	-10.7678
曩	-10.7678
常夢錫	-10.7679
乎且	-10.768
百艘	-10.768
於前	-10.768
刁	-10.768
碣	-10.768
末杯	-10.768
奥	-10.768
雷電	-10.7681
敬洙	-10.7681
鹽井	-10.7682
沮渠䝉遜	-10.7682
覧	-10.7682
撲	-10.7682
浮橋	-10.7682
貝	-10.7683
駒	-10.7684
資謙	-10.7684
床	-10.7685
吁	-10.7686
鯀	-10.7688
總管	-10.7689
邑人	-10.7689
庾信	-10.769
桂陽	-10.7691
堆	-10.7692
涼州刺史	-10.7694
郊迎	-10.7694
苑川	-10.7695
兖州刺史	-10.7695
巴郡太守	-10.7695
羽林	-10.7698
供奉	-10.7702
數十里	-10.7703
是故	-10.7704
宵遁	-10.7706
京口	-10.7707
師次	-10.7707
西城	-10.7708
李神福	-10.7708
切諌	-10.7708
懷恩	-10.7709
自立為	-10.7712
優詔	-10.7714
部貟外郎	-10.7717
少孤	-10.7719
居中	-10.7722
無異	-10.7723
國夫人	-10.7725
未嘗不	-10.7726
張格	-10.7726
字君	-10.7726
元宗即位	-10.7727
時晉	-10.7728
延祐	-10.7729
張駿	-10.7731
可瓊	-10.7733
元龜	-10.7734
奄有	-10.7736
佛法	-10.7739
論者	-10.7739
顧命	-10.774
受之	-10.774
臨川	-10.7743
之威	-10.7744
不起	-10.7747
失利	-10.7751
上庸	-10.7751
踰城	-10.7756
咸和	-10.7757
避之	-10.7759
之族	-10.776
金石	-10.7762
入内	-10.7763
七里	-10.7763
封爵	-10.7765
徃來	-10.7768
略地	-10.7771
大旱	-10.7772
之弟也	-10.7774
殺我	-10.7774
妻之	-10.7775
議論	-10.7775
獻馬	-10.7776
後主即位	-10.7777
衣食	-10.778
入海	-10.7783
臨江	-10.7784
何可	-10.7786
不少	-10.7789
袁州	-10.7792
庶人	-10.78
王孫	-10.7804
大雪	-10.7812
者言	-10.7817
執送	-10.7825
聞於	-10.7827
而遁	-10.7837
至大	-10.784
為名	-10.7842
故能	-10.7843
復來	-10.7844
復入	-10.7844
平原公	-10.7846
高氏	-10.7847
興遣	-10.7848
昔者	-10.785
江山	-10.785
百户	-10.7855
不敢進	-10.7857
請行	-10.7858
猶不	-10.7863
文義	-10.7869
隂平	-10.7876
復使	-10.7879
三百人	-10.7881
為天子	-10.7883
和州	-10.7887
有女	-10.789
龍山	-10.7895
境上	-10.7902
而自立	-10.7905
苑中	-10.7906
武定	-10.7907
告曰	-10.7911
大明	-10.7917
忠懿	-10.7921
中夜	-10.7934
何用	-10.7934
獻之	-10.7935
至城下	-10.7941
安民	-10.7944
還至	-10.7949
欲誅	-10.7951
名也	-10.7952
之數	-10.7955
郴州	-10.7959
太原王	-10.7961
興國	-10.7962
乃出	-10.7962
劉言	-10.7963
景通	-10.7964
謡曰	-10.7965
於路	-10.7966
秦隴	-10.7968
以自固	-10.7968
謝曰	-10.7973
稱為	-10.7973
以通	-10.7976
為司徒	-10.7989
武勇	-10.799
石越	-10.7996
神人	-10.8002
擁衆	-10.801
所重	-10.801
張崇	-10.8011
於天下	-10.8013
涓	-10.8014
州城	-10.8016
五國故事	-10.8016
張賔	-10.802
匡凝	-10.8022
涕	-10.8023
械	-10.8025
内有	-10.8026
薨於	-10.8026
藴	-10.8026
裘	-10.8027
曹公	-10.8028
繋	-10.8029
煞	-10.8031
篡	-10.8032
文徳	-10.8032
都知兵馬使	-10.8032
神武統軍	-10.8033
晞	-10.8034
關内侯	-10.8034
其門	-10.8035
牲	-10.8036
范陽王徳	-10.8036
人也初	-10.8036
居無何	-10.8037
筮	-10.8037
擕	-10.8037
佯	-10.8038
旗幟	-10.8039
紳	-10.8039
禳	-10.8039
系	-10.8039
臣恐	-10.8039
不治	-10.804
叢	-10.804
寐	-10.804
盧絳	-10.8041
廂	-10.8041
猾	-10.8042
餅	-10.8042
搏	-10.8043
䑕	-10.8044
勇敢	-10.8044
郃	-10.8044
斜	-10.8045
漳州	-10.8045
稍遷	-10.8045
緝	-10.8045
招之	-10.8045
憫	-10.8046
啼	-10.8046
衛尉	-10.8046
即帝位	-10.8046
大赦境内殊死已下	-10.8047
鹽鐵	-10.8047
絃	-10.8047
讜	-10.8047
崑崙	-10.8048
袖	-10.8048
嘲	-10.8049
桂林	-10.8049
北方	-10.8049
立為皇后	-10.8049
為司空	-10.805
憎	-10.805
峙	-10.8051
卵	-10.8051
公孫述	-10.8052
惟濬	-10.8054
槖	-10.8055
銘曰	-10.8055
乾符	-10.8055
䕃	-10.8056
苻丕	-10.8057
昞	-10.8058
僉議	-10.8059
下邳	-10.8061
哈	-10.8061
縱火	-10.8063
𢎞冀	-10.8063
秦裴	-10.8066
煦	-10.8066
兎	-10.8067
乘輿	-10.8068
戒嚴	-10.8069
廬江	-10.8069
七十餘	-10.8069
僣號	-10.807
廣漢太守	-10.807
遣其	-10.8072
太康	-10.8073
都䕶	-10.8075
棘城	-10.8076
佛寺	-10.808
求之	-10.8083
大鴻臚	-10.8085
當為	-10.8086
師鐸	-10.8088
忠嗣	-10.8089
喪亂	-10.8091
遣使貢	-10.8091
去洛	-10.8093
契丹主	-10.8094
范子曰	-10.8094
重光	-10.8095
遺愛	-10.8097
千兩	-10.8099
仲雅	-10.8099
於時	-10.8111
魯口	-10.8113
夷夏	-10.8115
戲下	-10.8118
聲言	-10.8119
思謙	-10.8121
李筠	-10.8125
東井	-10.8132
大城	-10.8136
者甚衆	-10.8137
食盡	-10.8137
便宜	-10.8145
九真	-10.8152
者句踐	-10.8154
累官至	-10.8156
美女	-10.8158
碑文	-10.8158
戮之	-10.8159
王自	-10.8161
分為	-10.8162
匡國	-10.8167
女真	-10.8167
曾祖	-10.818
官吏	-10.8181
左右皆	-10.8185
第三	-10.8186
二年春三月	-10.8187
之君	-10.8187
順義	-10.8188
城池	-10.8194
宫女	-10.8197
覽之	-10.8198
今陛下	-10.8202
待以	-10.8203
始平	-10.8205
濟師	-10.8211
詣闕	-10.8213
不修	-10.8214
諭以	-10.8217
進至	-10.8219
服之	-10.8222
退而	-10.8223
惟治	-10.8225
能詩	-10.8226
逺來	-10.8229
謂人曰	-10.823
八都	-10.8235
字世	-10.8236
曰大王	-10.8239
或言	-10.8239
驚曰	-10.8244
少而	-10.825
驩州	-10.8253
牧守	-10.826
設伏	-10.8261
李簡	-10.8262
一見	-10.8263
廣都	-10.8267
七人	-10.8268
又言	-10.8273
宗壽	-10.8274
年二十	-10.8274
先登	-10.828
北山	-10.8283
元弼	-10.829
公輔	-10.8293
是非	-10.8297
為變	-10.831
加以	-10.8311
求援	-10.8313
成都人	-10.8317
梁主	-10.8319
山林	-10.8324
威武軍	-10.8327
齊已	-10.8332
行也	-10.8336
騎兵	-10.8345
君長	-10.8349
二字	-10.835
不意	-10.8351
不答	-10.8351
於斯	-10.8356
以罪	-10.8357
於越	-10.8358
五里	-10.8362
納土	-10.8362
二年正月	-10.8363
豈得	-10.8365
所滅	-10.8365
攻圍	-10.8369
始終	-10.8378
南侵	-10.8383
將行	-10.8383
辜	-10.8384
莫有	-10.8384
王侯	-10.8386
入自	-10.8387
陳安	-10.8393
上右	-10.8395
大興	-10.8404
陀	-10.8404
富沙王	-10.8408
萱	-10.8409
於蜀	-10.841
令孜	-10.8411
佚	-10.8414
事大	-10.8415
歐史	-10.8415
蘆	-10.8416
堰	-10.8416
齊王景達	-10.8416
來宣諭	-10.8416
塑	-10.8417
案此條	-10.8417
態	-10.8418
王爵	-10.8419
琮	-10.8419
馮延已	-10.8419
蟻	-10.8419
岩	-10.842
弁	-10.842
兗	-10.842
挹	-10.8421
淡	-10.8422
𤣥喆	-10.8422
多此𩔖	-10.8423
赫連勃勃	-10.8423
舶	-10.8423
頡	-10.8424
刑部尚書	-10.8424
酌	-10.8425
攷	-10.8425
矦	-10.8425
綬	-10.8425
得幸	-10.8426
饌	-10.8426
参	-10.8426
拂	-10.8426
頥	-10.8428
碁	-10.8428
緜	-10.8428
刅	-10.8428
誇	-10.8428
趙廷隱	-10.8428
戢	-10.8429
馴	-10.8429
零陵	-10.8429
此乃	-10.843
嬰城固守	-10.8431
槐	-10.8431
膂力	-10.8431
禎	-10.8432
連重遇	-10.8433
瞿	-10.8434
洮	-10.8435
牆	-10.8435
北門	-10.8435
濡	-10.8435
療	-10.8436
滑臺	-10.8438
南伐	-10.8438
鞫	-10.8438
聦	-10.8438
安南國王	-10.8439
應援使	-10.844
濯	-10.8441
胡進思	-10.8442
李重進	-10.8444
貴妃	-10.8444
張蚝	-10.8445
僚屬	-10.8446
樓船	-10.8447
有大志	-10.8449
首尾	-10.845
有大功	-10.845
寛厚	-10.8452
七尺	-10.8454
而能	-10.8454
公鐸	-10.8454
三公	-10.8455
秘書郎	-10.8455
建武將軍	-10.8456
仕垂	-10.8459
修好	-10.8461
安縣	-10.8461
輔國	-10.8462
安危	-10.8462
入洛	-10.8463
軍門	-10.8463
五千餘人	-10.8464
欣然	-10.8464
髙駢	-10.8465
不解	-10.8469
安撫使	-10.8472
軍府	-10.8474
良久	-10.8476
士人	-10.8476
盡心	-10.8478
不時	-10.8479
七年春正月	-10.8481
氐羌	-10.8482
年十三	-10.8485
倉卒	-10.8494
爲太子	-10.8495
益兵	-10.8496
友善	-10.8498
仁裕	-10.85
一條	-10.85
威儀	-10.8502
與俱	-10.8503
王欲	-10.8512
周兵	-10.8514
於姑臧	-10.8515
保全	-10.8515
虎曰	-10.8517
歎曰吾	-10.8521
為左僕射	-10.8522
博通	-10.8524
退走	-10.8525
焚其	-10.8526
恩信	-10.8529
來告	-10.853
為都䕶	-10.8531
其心	-10.8537
海口	-10.8541
左遷	-10.8542
唐明宗	-10.8544
戰功	-10.8544
降魏	-10.8545
農桑	-10.8546
光嗣	-10.8547
顯德	-10.8547
雲中	-10.8547
上将軍	-10.8551
先王之	-10.8554
歸晉	-10.8559
勲舊	-10.8561
唐莊宗	-10.8563
逃歸	-10.8567
得以	-10.8569
令支	-10.857
復召	-10.8572
兵五千	-10.8575
賊衆	-10.8579
信州刺史	-10.858
淮北	-10.8583
二十二年	-10.8586
也願	-10.8587
國語	-10.8591
鉞	-10.8593
遁還	-10.8593
不還	-10.8596
自取	-10.8597
不拜	-10.8598
以其子	-10.86
西陵	-10.8606
後漢	-10.8609
忠正	-10.861
為嗣	-10.8611
車馬	-10.8614
辭以	-10.8631
自然	-10.8633
已來	-10.8634
范蠡曰	-10.8641
襄州	-10.8642
遣大夫	-10.8643
為政	-10.8643
高句麗王	-10.8646
百口	-10.8656
安得	-10.8661
趙魏	-10.8663
雅有	-10.8664
至鄴	-10.8665
分遣	-10.8666
兵敗	-10.8671
東征	-10.8674
梁益	-10.8677
奉命	-10.8686
飛龍	-10.8687
劉信	-10.8688
而走	-10.8691
同日	-10.8692
入白	-10.8692
光業	-10.8693
事覺	-10.8693
盛稱	-10.8694
州觀察使	-10.8698
劍門	-10.8699
五十里	-10.8701
山有	-10.8706
庭中	-10.8725
受業	-10.8725
吉州	-10.8729
論功	-10.8732
嘗為	-10.8733
復遣使	-10.8735
越國	-10.8738
楚國	-10.8739
六郡	-10.8748
城邑	-10.8752
三國	-10.8756
髙陽	-10.8766
奄至	-10.8767
日新	-10.8773
殺傷	-10.8776
望見	-10.8789
前殿	-10.879
兵部	-10.8796
蜀中	-10.8796
玫	-10.8797
國師	-10.8802
以降	-10.8802
劵	-10.8803
乞師於	-10.8803
六州	-10.8804
處之	-10.8804
佃	-10.8809
今日之	-10.881
鞍轡	-10.8813
咫尺	-10.8815
神明	-10.8815
節度使兼中書令	-10.8817
必當	-10.8817
皇甫暉	-10.8818
夣	-10.8819
慘	-10.8819
従効	-10.8822
鄱陽	-10.8822
遂斬	-10.8822
劫	-10.8822
酣	-10.8822
罄	-10.8822
是役也	-10.8822
逄	-10.8823
彥	-10.8823
富軾	-10.8824
嘯	-10.8824
器械	-10.8824
鵲	-10.8825
朔日食	-10.8825
左賢王	-10.8825
喉	-10.8825
魏王繼岌	-10.8826
毬	-10.8826
㷊	-10.8826
弭	-10.8826
豺狼	-10.8827
隴右	-10.8827
乞伏熾磐	-10.8827
切齒	-10.8827
匡範	-10.8827
帷	-10.8828
覊	-10.8828
簫	-10.8828
瓉	-10.8829
建節將軍	-10.8829
冀州牧	-10.8829
懾	-10.8829
蠟	-10.883
腸	-10.883
恊	-10.883
潯陽	-10.883
郊祀	-10.883
蟠	-10.883
棄城走	-10.8831
棹	-10.8831
奨	-10.8831
郛	-10.8831
幄	-10.8832
䍧柯	-10.8832
嫉	-10.8832
羈	-10.8833
番	-10.8833
劣	-10.8833
張巒	-10.8834
蒞	-10.8834
僮	-10.8834
其形	-10.8834
岷	-10.8835
起復	-10.8835
貫休	-10.8836
葭萌	-10.8837
伶人	-10.8837
險阻	-10.8837
衫	-10.8837
慕容暐	-10.8838
殉	-10.8838
劉彦貞	-10.8839
糾	-10.8839
叩頭	-10.8841
地理志	-10.8842
唐道襲	-10.8842
甄	-10.8843
東平公	-10.8844
宗佶	-10.8845
廷藝	-10.885
天竺	-10.885
酒泉太守	-10.8853
輕舟	-10.8853
奏事	-10.8855
性剛	-10.8857
慕容永	-10.8859
遣使請	-10.8859
后妃	-10.8862
隴上	-10.8862
勝負	-10.8863
衛辰	-10.8864
鍾離	-10.8865
從行	-10.8865
勁卒	-10.8868
無辜	-10.8868
兵討之	-10.887
機務	-10.887
龍鳳	-10.8871
光裔	-10.8873
為樂	-10.8875
專諸	-10.8875
張顥	-10.8878
王即位	-10.8878
涪城	-10.8881
術士	-10.8881
好施	-10.8885
撫之	-10.8888
固讓	-10.8889
其勢	-10.8889
萬國	-10.8891
因名	-10.8892
師古	-10.8892
中常侍	-10.8893
官軍	-10.8894
曰天下	-10.8894
以資	-10.8895
州之地	-10.8896
中郎	-10.8898
乃去	-10.8899
諸道兵	-10.89
太史	-10.89
全州	-10.8907
大駕	-10.8911
依前	-10.8911
羣小	-10.8915
青州刺史	-10.8915
入侍	-10.8921
而遣之	-10.8922
敢言	-10.8926
遂有	-10.8927
有名	-10.8931
孟氏	-10.8935
幽冀	-10.8935
五子	-10.8936
之罪也	-10.8937
以鐵	-10.8938
以後事	-10.8939
繼業	-10.894
賞之	-10.8948
勅授王	-10.8949
四年春三月	-10.895
光庭	-10.895
入寇	-10.895
所致	-10.8955
天䇿	-10.8961
鄰國	-10.8961
有變	-10.8969
王召	-10.8969
大饑	-10.8971
賞賜	-10.8974
寳正	-10.8974
而得	-10.8975
楚之	-10.8976
西土	-10.8977
仁章	-10.8977
或謂	-10.898
氏為皇太后	-10.8986
生而	-10.899
朝鮮	-10.8992
所推	-10.8995
封奕	-10.8995
其職	-10.8999
餘黨	-10.9011
縣人	-10.9011
寧江	-10.9014
朝服	-10.9016
師敗績	-10.9019
之謂也	-10.9022
于梁	-10.9022
穆帝	-10.9022
三十萬	-10.9024
侍從	-10.9037
守素	-10.9041
託以	-10.9049
鄴都	-10.9057
再用	-10.9057
甚多	-10.9058
帝王之	-10.9062
乎乃	-10.9066
於朝	-10.907
來迎	-10.9082
年十四	-10.9084
正言	-10.9084
台州	-10.9086
因此	-10.9086
不殺	-10.9088
次于	-10.9091
又使	-10.9092
為副	-10.9097
事烈祖	-10.9098
克復	-10.91
又常	-10.9106
之要	-10.9106
投之	-10.9112
謁者	-10.9113
安樂	-10.9114
江中	-10.9114
餓	-10.9115
且言	-10.9117
西平公	-10.9118
進討	-10.9118
新興	-10.9119
必敗	-10.9122
而滅	-10.9123
怒殺之	-10.9123
聲色	-10.9124
存焉	-10.9129
不能制	-10.9139
封王為	-10.9149
忠信	-10.9158
少時	-10.9158
不雨	-10.9164
汀州	-10.9167
乃退	-10.9168
老臣	-10.9176
為右僕射	-10.9185
死子	-10.9189
聰明	-10.919
必欲	-10.919
西海	-10.9194
所親	-10.92
歸化	-10.9201
但以	-10.9202
通和	-10.9202
立妻	-10.9205
于上	-10.9208
勤王	-10.9212
為天下	-10.9214
都將	-10.9216
珦	-10.9216
無忌	-10.9218
民皆	-10.9222
來使	-10.9225
甲兵	-10.9227
諸縣	-10.9228
䖍釗	-10.9228
茂虔	-10.9228
凢	-10.923
貞懿王	-10.9231
株	-10.9231
苖	-10.9232
鎖	-10.9232
柰	-10.9232
印綬	-10.9232
瑤	-10.9233
瑗	-10.9233
瘳	-10.9233
行營招討使	-10.9233
禅	-10.9234
槃	-10.9235
工部尚書	-10.9235
廷珪	-10.9236
篋	-10.9236
逈	-10.9236
玠	-10.9237
携	-10.9237
苗裔	-10.9237
坤	-10.9237
秦兵	-10.9238
華陽國志卷	-10.9238
去年	-10.9238
鎮遏使	-10.9238
装	-10.9238
積功至	-10.9239
趙廷隠	-10.9239
彗星	-10.924
鳶	-10.924
泝	-10.9241
囬	-10.9241
摘	-10.9241
弦	-10.9241
爇	-10.9242
尓	-10.9242
掛	-10.9242
僭即皇帝位	-10.9242
抄	-10.9242
慕容冲	-10.9242
悵	-10.9242
不知何許人	-10.9242
尹緯	-10.9243
淝	-10.9243
遼西王農	-10.9243
䑓	-10.9243
稻	-10.9243
魄	-10.9243
涯	-10.9243
僰道	-10.9244
桂管	-10.9244
卦	-10.9245
安重誨	-10.9246
世子惟濬	-10.9246
矟	-10.9246
陽平公融	-10.9246
以取	-10.9246
槊	-10.9247
㳟	-10.9247
高句驪	-10.9247
疾陸眷	-10.9248
葺	-10.9248
引去	-10.9248
僅以身免	-10.9249
現	-10.925
滁州	-10.9251
嶠	-10.9251
鉅鹿	-10.9251
魏太祖	-10.9251
能屬文	-10.9252
狩	-10.9252
天䇿府	-10.9252
餽	-10.9252
耆老	-10.9252
襲殺	-10.9252
涼州牧	-10.9253
送欵	-10.9253
荘宗	-10.9254
黎桓	-10.9255
凍	-10.9256
畆	-10.9257
司農	-10.9257
珝	-10.9257
姜維	-10.9257
顔色	-10.9258
棗	-10.9258
逾年	-10.9258
表裏	-10.9259
盗賊	-10.9259
址	-10.9261
何故	-10.9262
尤工	-10.9262
紹琛	-10.9263
衙内	-10.9263
何能	-10.9263
曰諾	-10.9263
柘東	-10.9263
姑蘇	-10.9264
漳水	-10.9265
袁州刺史	-10.9265
領䕶	-10.9266
安可	-10.9266
聰以	-10.9267
杏城	-10.9267
中書省	-10.9269
昭恵	-10.9272
熙載	-10.9273
文圭	-10.9273
越王曰善	-10.9274
紀年	-10.9275
誅戮	-10.9276
二十萬	-10.9279
登岸	-10.9281
第三子也	-10.9281
大司農	-10.9283
彦恭	-10.9286
審思	-10.9288
繼岌	-10.9289
弗許	-10.929
陜城	-10.929
别室	-10.9293
二十里	-10.9295
從効	-10.9296
二州牧	-10.9297
虚白	-10.9299
遣别將	-10.93
踰年	-10.9304
獲罪	-10.9312
男成	-10.9313
鎮之	-10.9316
身死	-10.9317
宜速	-10.932
無厭	-10.9322
二公	-10.9325
追及	-10.9328
遇賢	-10.9333
思恭	-10.9336
宴羣臣	-10.9341
軍政	-10.9342
文集	-10.9345
堅遣	-10.9345
乃殺	-10.9346
立為太子	-10.9349
滅亡	-10.935
二縣	-10.9351
入府	-10.9355
不仕	-10.9355
若此	-10.9358
王妃	-10.9363
忠良	-10.9364
童謡	-10.9367
德誠	-10.9368
宜春	-10.9369
於平陽	-10.9371
秦川	-10.9372
于地	-10.9374
等謀	-10.9374
畧地	-10.938
詩賦	-10.9384
攻拔	-10.9386
勞之	-10.9387
其辭	-10.939
皆殺之	-10.9392
正色	-10.9392
嘉其	-10.9395
武興	-10.9396
退居	-10.9397
之亡	-10.9398
温州	-10.9407
是何	-10.941
二十九	-10.9412
家國	-10.9413
之戰	-10.9415
定逺	-10.9418
清風	-10.9419
字𤣥	-10.9423
青陽	-10.9426
水火	-10.9428
之力也	-10.9431
在外	-10.9438
大哭	-10.9439
衛軍	-10.9441
𢎞始	-10.9443
延昌	-10.9444
漢主	-10.945
名將	-10.9451
不逮	-10.9451
吾今	-10.9452
不載	-10.9453
唐國	-10.9454
止之曰	-10.9456
著述	-10.9457
親軍	-10.9458
于朝	-10.9458
民家	-10.9461
降唐	-10.9464
也昔	-10.9465
名號	-10.9465
棄官	-10.9466
将相	-10.9469
五千人	-10.9488
成公	-10.9489
改正	-10.9489
親吏	-10.9498
之物	-10.9503
不中	-10.9513
威徳	-10.9513
氏女	-10.9514
平章	-10.9515
錦繡	-10.9519
生民	-10.9527
縱兵	-10.9535
遂至	-10.9537
齊名	-10.9547
贈太師	-10.9548
張業	-10.9551
未足	-10.9553
乃引	-10.9557
而况	-10.9562
有如此	-10.9564
兵數萬	-10.9565
王綂	-10.9568
不従	-10.9569
梁太祖	-10.9573
必死	-10.9574
使來	-10.9577
南州	-10.958
天時	-10.9587
大掠	-10.9589
汝曹	-10.9589
不恤	-10.959
與人	-10.9592
遂據	-10.9595
晉髙祖	-10.9598
率衆三萬	-10.9602
人也父	-10.9606
三臺	-10.9607
拜為	-10.9608
與兄	-10.961
神宗	-10.963
然自	-10.9633
字公	-10.9635
奈	-10.9636
武衛將軍	-10.9639
明帝	-10.964
奏曰	-10.9641
四門	-10.9646
曇逹	-10.9646
孝皇帝	-10.9648
南越王	-10.9648
及弟	-10.9648
貞觀	-10.9653
鎮將	-10.9655
領縣二	-10.966
泮	-10.9661
猶存	-10.9662
慨	-10.9662
長水校尉	-10.9664
緘	-10.9664
屡	-10.9666
貞元十年	-10.9667
迅	-10.9668
帽	-10.9668
弃	-10.9669
敬瑭	-10.9669
砂	-10.967
辤	-10.9671
糞	-10.9671
灑	-10.9671
魴	-10.9671
跳	-10.9672
匣	-10.9672
孕	-10.9672
司隸校尉	-10.9672
閬中	-10.9672
𢎞臯	-10.9673
𥙷	-10.9673
斐	-10.9673
妣	-10.9674
挽	-10.9674
梗	-10.9674
舉秀才	-10.9674
闐	-10.9675
訊	-10.9675
撤	-10.9675
七嵗	-10.9675
詬	-10.9675
豚	-10.9675
浄	-10.9676
謔	-10.9676
愎	-10.9676
灘	-10.9676
漢書	-10.9677
傭	-10.9677
卞	-10.9677
㫄	-10.9677
矧	-10.9678
率騎二萬	-10.9678
洵美	-10.9678
庇	-10.9678
芒	-10.9679
萊	-10.9679
罵曰	-10.968
殤帝	-10.968
昪	-10.968
賞罰	-10.9681
蜂	-10.9681
盆	-10.9682
疽	-10.9682
衆寡不敵	-10.9682
啇	-10.9683
帥衆二萬	-10.9684
鄧羌	-10.9685
慰諭	-10.9686
紀綱	-10.9686
之境	-10.9687
餘如故	-10.9687
江南野史云	-10.9688
禋	-10.9688
芻	-10.969
玉璽	-10.9691
無嗣	-10.9692
陳敬瑄	-10.9692
驪	-10.9693
節儉	-10.9694
粒	-10.9694
玗	-10.9696
崔瑩	-10.9697
嫗	-10.9697
丞相亮	-10.9698
功曺	-10.9699
西戎	-10.97
諸樊	-10.97
它日	-10.97
羲範	-10.9701
李煜	-10.9702
猶豫	-10.9704
宋繇	-10.9704
衞將軍	-10.9705
秦姚興	-10.9707
後主命	-10.9708
熾盤	-10.9712
晉昌	-10.9712
銅錢	-10.9713
陳洪進	-10.9714
蜀郡太守	-10.9717
推戴	-10.9719
妻以	-10.9721
龍編	-10.9722
忠貞	-10.9724
天台	-10.9725
内衙	-10.9727
表求	-10.9728
欲取	-10.9731
今以	-10.9738
四尺	-10.9739
厚禮	-10.974
五尺	-10.974
青衣	-10.974
共推	-10.9741
光啟	-10.9741
二旬	-10.9741
舉族	-10.9742
長樂公	-10.9745
太寧	-10.9745
叛者	-10.9746
兵五萬	-10.9747
守貞	-10.9747
備史	-10.9748
犯法	-10.9751
登樓	-10.9753
數千里	-10.9755
率歩騎	-10.976
强盛	-10.9761
王永	-10.9762
死亡	-10.9768
其詞	-10.9769
皇子	-10.9771
益急	-10.9772
隠居	-10.9772
吳興	-10.9772
麗水	-10.9774
亦可	-10.9777
據有	-10.978
元徽	-10.9783
相謂曰	-10.9785
朝野	-10.9787
復取	-10.9787
蠻賊	-10.9788
白衣	-10.9792
年月	-10.9793
因謂	-10.9794
虎臺	-10.9796
南城	-10.9797
以攻	-10.98
鎮東	-10.9801
永陵	-10.9802
嚴兵	-10.9804
叛亂	-10.9806
卒諡曰	-10.9807
義存	-10.981
下吏	-10.9811
求救	-10.9812
留之	-10.9814
不知何	-10.9814
異姓	-10.9814
春正月	-10.9814
青山	-10.9818
臨終	-10.9821
河間王	-10.9822
之遺	-10.9823
謂羣臣曰	-10.9824
自今	-10.9834
必先	-10.9836
樂平	-10.9837
違命	-10.9843
遂平	-10.9844
退守	-10.9845
夜分	-10.9855
乘馬	-10.9856
去就	-10.9864
九人	-10.9864
上元	-10.9865
因命	-10.9865
治兵	-10.9867
成王	-10.987
列國	-10.9872
皆稱	-10.9881
泗州	-10.9883
養之	-10.9885
刺之	-10.9892
汝等	-10.9894
西方	-10.9894
文德	-10.9897
厲聲	-10.9901
累世	-10.9901
孫氏	-10.9907
上谷	-10.991
佐命	-10.9912
鎮東軍	-10.9913
將何以	-10.9915
乞師于	-10.9918
請和	-10.9918
髙昌	-10.993
宥之	-10.993
二十餘萬	-10.9939
師敗	-10.994
将吏	-10.9941
貞元	-10.9941
檢討吳任臣撰	-10.9949
下士	-10.995
閉城	-10.9957
可取	-10.9959
敢忘	-10.9962
者莫不	-10.9969
禆	-10.9978
萬七千	-10.9978
後庭	-10.9983
設備	-10.9984
既死	-10.9986
季子	-10.9998
致討	-11.0001
不滿	-11.0001
兵士	-11.0002
上疏曰	-11.0006
今則	-11.0007
光曰	-11.0009
初立	-11.0012
他國	-11.0012
封齊王	-11.0015
不虞	-11.0016
無故	-11.0021
字徳	-11.0033
復置	-11.0044
周太祖	-11.0045
利用	-11.0045
病死	-11.0058
骨肉	-11.0061
下令曰	-11.0069
吳主	-11.0071
相望	-11.0072
祭之	-11.0072
高平	-11.0073
威權	-11.0077
與子	-11.0091
定公	-11.01
曰非	-11.0103
雅善	-11.0104
數四	-11.0104
於河	-11.0108
磐	-11.011
不知所終	-11.0115
之黨	-11.0115
挈	-11.0116
㒺	-11.0116
鋹	-11.0118
光稠	-11.0118
勳	-11.0119
榻	-11.0119
歐	-11.012
媪	-11.012
散騎侍郎	-11.012
拉	-11.0121
縷	-11.0121
宗廟社稷	-11.0122
笏	-11.0122
撫軍大將軍	-11.0122
呵	-11.0122
貟	-11.0123
為内應	-11.0123
吕師造	-11.0124
鉛	-11.0124
交趾	-11.0124
笥	-11.0125
廐	-11.0126
剽	-11.0126
隻	-11.0127
鄧艾	-11.0127
姚弋仲	-11.0127
欷	-11.0127
侑	-11.0128
嬉	-11.0128
軄	-11.0129
也時	-11.0129
確	-11.0129
悛	-11.0129
旒	-11.0129
寖	-11.013
保朂	-11.013
鐔	-11.0131
鈴	-11.0131
咏	-11.0131
滄	-11.0132
追奔	-11.0132
寧朔將軍	-11.0132
慿	-11.0132
湖湘	-11.0132
剽掠	-11.0133
鶚	-11.0133
翳	-11.0134
悽	-11.0134
其議	-11.0134
蔵	-11.0134
釘	-11.0134
話	-11.0135
黷	-11.0135
曼	-11.0135
折衝將軍	-11.0136
左衞將軍	-11.0136
凋	-11.0136
墊江	-11.0136
鎮海軍節度使	-11.0137
瓜	-11.0137
堵	-11.0138
僚佐	-11.0138
悪	-11.0138
挑戰	-11.0138
售	-11.0138
牟尋	-11.0139
先世	-11.0139
漫	-11.0139
王騰	-11.014
彦瑫	-11.0141
頷	-11.0142
羣盗	-11.0142
宋光嗣	-11.0142
椒	-11.0142
金墉	-11.0146
六百	-11.0147
瑜	-11.0149
餘皆	-11.0149
箋	-11.0151
東萊	-11.0151
秦始皇	-11.0151
不相能	-11.0151
烈祖受禪	-11.0152
耶律	-11.0154
此言	-11.0155
鐵錢	-11.0156
從征	-11.0156
李齊賢	-11.0157
龍門	-11.0157
淮上	-11.0159
攬	-11.0161
禮葬	-11.0164
仁逹	-11.0166
章句	-11.0173
通鑑作	-11.0173
無筭	-11.0174
青城山	-11.0174
馬上	-11.0174
切責	-11.0176
為患	-11.0178
示以	-11.0179
賢妃	-11.0179
不降	-11.018
秦人	-11.0182
晉天福	-11.0187
言訖	-11.0195
侍臣	-11.0196
甚謹	-11.0197
于内	-11.02
渝	-11.02
董氏	-11.0201
聖徳	-11.0202
師周	-11.0203
臨刑	-11.0204
百司	-11.0206
鍾傳	-11.0207
渡淮	-11.0207
追騎	-11.0209
何敢	-11.021
來襲	-11.0211
舊都	-11.0211
知政事	-11.0212
多少	-11.0214
天漢	-11.0215
風吹	-11.0223
還成都	-11.0224
智髙	-11.0224
隴西公	-11.0225
非常之	-11.0229
後改	-11.023
不協	-11.023
漁者	-11.0241
遂圍	-11.0241
優禮	-11.0242
車服	-11.0243
將兵攻	-11.025
假子	-11.025
萬餘户	-11.025
錢唐	-11.0252
伏惟	-11.0254
奔走	-11.0255
以女妻之	-11.0256
入唐	-11.026
天師	-11.026
晉主	-11.026
漢末	-11.0267
糧道	-11.0268
為安南都䕶	-11.0274
傳首	-11.028
無賴	-11.0282
水道	-11.0282
學校	-11.0282
經營	-11.0285
殿直	-11.0285
老母	-11.0288
不能克	-11.0288
儒者	-11.0288
不允	-11.0292
交通	-11.0294
武義元年	-11.0294
求和	-11.0301
非是	-11.0313
團練使	-11.0313
不輟	-11.0334
太興	-11.0337
詰之	-11.0356
軍糧	-11.0357
方今	-11.0361
臨朝	-11.0364
稱制	-11.0365
此事	-11.0368
為先鋒	-11.0374
襲之	-11.0378
尚有	-11.0385
請罪	-11.0389
仲夫	-11.0394
平凉	-11.0395
太安	-11.0396
出城	-11.04
武義	-11.0401
亂兵	-11.0405
葬於	-11.0409
之路	-11.041
五百餘	-11.0411
下馬	-11.0412
無人	-11.0418
法正	-11.0423
是爲	-11.0424
和親	-11.0424
族子	-11.0426
汲郡	-11.0429
恨之	-11.0435
二十三年	-11.0445
皆在	-11.0449
太公	-11.0451
亡國之	-11.0452
百匹	-11.0453
將兵救	-11.0455
所掠	-11.0458
千萬	-11.046
四十餘	-11.0469
他人	-11.0469
不能守	-11.0479
東遷	-11.048
之化	-11.048
苐十	-11.0483
文寳	-11.0483
皆云	-11.0485
軍容	-11.0488
武皇帝	-11.0494
少長	-11.0497
小城	-11.0498
歸順	-11.0501
未至而	-11.0506
遺令	-11.0508
中國之	-11.0508
中尉	-11.0518
師旅	-11.052
少好學	-11.0521
府中	-11.0532
記云	-11.0534
和好	-11.0538
縣南	-11.0549
國仁	-11.0551
十二人	-11.0554
之議	-11.0554
聲聞	-11.0558
之位	-11.0563
滁	-11.0574
薰	-11.0583
琚	-11.0588
正直	-11.0588
弇	-11.0593
粮	-11.0594
釣磯立談	-11.0596
衾	-11.0598
陌	-11.0598
唐餘紀傳	-11.0598
仲㝢	-11.0598
脂	-11.0598
耽	-11.0599
王孫駱	-11.0599
相應	-11.0599
山南西道節度使	-11.0599
儂	-11.06
高陽王隆	-11.06
鼓譟	-11.06
徤	-11.06
旄	-11.0601
嶲	-11.0601
異牟尋	-11.0601
陸游南唐書	-11.0601
洵	-11.0601
若干卷	-11.0601
販	-11.0601
樞宻副使	-11.0602
龔慎儀	-11.0602
􁪽	-11.0603
纒	-11.0603
羈縻	-11.0603
轡	-11.0603
犂	-11.0603
揚武將軍	-11.0603
糜	-11.0604
一軍	-11.0604
酖	-11.0605
弹	-11.0605
瑚	-11.0605
賻	-11.0606
倉庫	-11.0607
煉	-11.0607
闘	-11.0607
京兆尹	-11.0607
墀	-11.0608
溺死	-11.0608
单	-11.0609
吴王	-11.0609
鈔	-11.0609
蹕	-11.0609
聳	-11.061
眇	-11.061
鼈	-11.0611
翕然	-11.0611
判六軍	-11.0611
曹嶷	-11.0611
煮	-11.0612
坂	-11.0613
須臾	-11.0613
忤㫖	-11.0613
鍊	-11.0613
控鶴	-11.0614
以孝聞	-11.0614
緇	-11.0614
犒軍	-11.0614
狠	-11.0615
髦	-11.0615
澄樞	-11.0615
伴	-11.0615
河南王	-11.0615
氛	-11.0615
宣徽使	-11.0616
有頃	-11.0617
鞍馬	-11.0617
架	-11.0618
悉降	-11.0618
瓠	-11.0618
𣢾	-11.0618
刄	-11.062
鎮東大將軍	-11.062
馘	-11.062
玳瑁	-11.062
羣盜	-11.0621
元黎崱撰	-11.0621
廟諱	-11.0622
沆	-11.0622
綱紀	-11.0623
秦州牧	-11.0623
治中從事	-11.0623
郄	-11.0623
中郎将	-11.0624
武威太守	-11.0624
十倍	-11.0625
鏢	-11.0625
申包胥	-11.0625
汶山	-11.0625
燾	-11.0625
率所部	-11.0625
駁	-11.0626
漬	-11.0627
戎狄	-11.0628
洸	-11.0628
眉州刺史	-11.0629
奴婢	-11.0629
漕	-11.0629
第宅	-11.0629
空虚	-11.0633
羅什	-11.0634
烘人	-11.0634
葬于	-11.0635
政丞	-11.0635
錢帛	-11.0635
公孫聖	-11.0637
浮梁	-11.0638
事具	-11.064
貪暴	-11.0641
幼而	-11.0643
進奏	-11.0645
詳具	-11.0645
權翼	-11.0645
珍寶	-11.0647
狄道	-11.0649
通鑑云	-11.0649
仁傑	-11.065
一本	-11.0651
萬泥	-11.0652
要害	-11.0652
二百餘人	-11.0653
莫知其	-11.0655
疾苦	-11.0658
録云	-11.0658
大度	-11.066
力屈	-11.0662
王宗侃	-11.0663
建徳	-11.0664
形勢	-11.0664
經籍	-11.0665
要離	-11.067
老弱	-11.0673
諸書	-11.0676
謝恩	-11.0676
承丕	-11.0676
東苑	-11.0677
李肇	-11.0678
仁慈	-11.0679
之職	-11.068
洛州刺史	-11.0681
不煩	-11.069
貽書	-11.0692
大江	-11.0693
百勝	-11.0693
元年春三月	-11.0694
糧盡	-11.0694
文士	-11.0695
本郡	-11.0695
便殿	-11.0697
胡子	-11.0699
尤善	-11.07
李儼	-11.07
少康	-11.0702
刑政	-11.0706
互相	-11.0707
郡國	-11.071
威福	-11.071
昭度	-11.0715
衛士	-11.0715
遐方	-11.0723
太子太傅	-11.0725
賢良	-11.0726
興復	-11.0726
居恒	-11.0728
王茂章	-11.0728
全軍	-11.0728
蘄	-11.0728
萬疋	-11.0731
釋氏	-11.0733
亦何	-11.0733
又賜	-11.0734
累加	-11.0736
彭年	-11.0738
塗山	-11.0741
五廟	-11.0742
将士	-11.0744
武功	-11.0745
劉淵	-11.0747
澄曰	-11.0748
繼文	-11.0749
安南志畧卷	-11.0751
無私	-11.0752
鎮南節度使	-11.0754
火燒	-11.0757
登第	-11.0763
馬援	-11.0771
必矣	-11.0775
前代	-11.0776
四十年	-11.0776
𢎞昌	-11.0779
備禮	-11.0783
燉煌人	-11.0785
𤣥始	-11.0785
徐州刺史	-11.0785
金州	-11.0785
累授	-11.0786
所撰	-11.0786
地理	-11.079
邵州	-11.0796
方畧	-11.08
相去	-11.0802
萬一	-11.0802
實録	-11.0802
輕重	-11.0802
齎詔	-11.0804
帝崩	-11.0804
厚加	-11.081
晏然	-11.0812
於南郊	-11.0813
譲皇	-11.082
刺史張	-11.0823
靡不	-11.083
軍前	-11.0832
終不能	-11.0834
立廟	-11.0836
再三	-11.0837
第七	-11.084
又請	-11.0842
白雲	-11.0845
平視	-11.0847
嘉其忠	-11.0848
刺殺	-11.085
遂留	-11.0858
等物	-11.086
歸朝	-11.0866
酷好	-11.0867
高陽	-11.0868
終於	-11.0869
所過	-11.0881
還宫	-11.0884
江口	-11.0887
崇仁	-11.0896
步軍都指揮使	-11.0897
百尺	-11.0899
其弊	-11.0904
楊定	-11.0907
既平	-11.0908
人君	-11.0908
三輔	-11.0917
宣宗	-11.0928
廣徳	-11.093
豈能	-11.0932
平郭	-11.0941
崇徳	-11.0942
命世	-11.0945
新羅王	-11.0946
進忠	-11.0947
萬乘	-11.0951
之道也	-11.0954
野人	-11.0957
四十八	-11.0964
來救	-11.0967
犍	-11.097
俟其	-11.0971
顯徳五年	-11.0971
百二十	-11.0973
華陽	-11.0977
楚楚	-11.0994
遣使告	-11.1001
已破	-11.1009
兵三萬	-11.101
隱帝	-11.1011
厯數	-11.1011
誅死	-11.1016
大驚曰	-11.1017
南宫	-11.1018
入閩	-11.1023
公私	-11.1025
可稱	-11.1037
攻福州	-11.1039
不悅	-11.1044
安帝	-11.1046
莽	-11.1047
奏請	-11.1047
共攻	-11.1057
故得	-11.1059
攻取	-11.1061
同謀	-11.1062
二十三	-11.1066
可觀	-11.1067
干將	-11.1069
是月唐	-11.1073
興元年	-11.1074
又敗	-11.1078
一身	-11.1078
羣臣皆	-11.1082
翰林待詔	-11.1084
南安人	-11.1085
為大司馬	-11.1087
曰朕以	-11.1087
犒	-11.1087
錮	-11.1091
邏	-11.1092
頊	-11.1095
沮渠蒙遜	-11.1097
傳璙	-11.1097
鯁	-11.1098
攘袂	-11.1098
鉤	-11.1099
牘	-11.11
竇衝	-11.11
寧國軍節度使	-11.1101
瑕	-11.1101
闊	-11.1101
揔	-11.1101
鳯翔	-11.1102
巻	-11.1102
蹄	-11.1102
璃	-11.1102
廣平公弼	-11.1103
廕	-11.1104
玢	-11.1104
皎	-11.1104
𬗋	-11.1105
唇齒	-11.1105
静海軍節度	-11.1106
剥	-11.1106
罽	-11.1106
仆	-11.1107
端拱	-11.1107
妬	-11.1107
盧文進	-11.1108
詆	-11.1108
爪牙	-11.1108
蕘	-11.1108
譎	-11.1109
竢	-11.1109
昻	-11.1109
拾	-11.1109
吝	-11.1109
受禅	-11.111
炙	-11.111
婿	-11.111
移檄	-11.111
銷	-11.1111
磾	-11.1111
馥	-11.1112
卒年五十	-11.1112
粟帛	-11.1112
鵬	-11.1113
弔祭	-11.1113
溉	-11.1113
愍帝	-11.1115
給事黄門侍郎	-11.1115
映	-11.1115
冨貴	-11.1115
溟	-11.1116
髙句驪	-11.1116
轘	-11.1116
囿	-11.1116
鴟	-11.1117
又改	-11.1117
中間	-11.1118
諳	-11.1118
慕輿根	-11.1118
黍	-11.1118
斾	-11.1119
繆	-11.1119
郭黁	-11.1119
保大末	-11.1119
曰大丈夫	-11.112
睡	-11.112
賜姓	-11.1121
東夷校尉	-11.1122
瓚	-11.1122
東川節度使	-11.1122
軟	-11.1122
動静	-11.1125
扣	-11.1125
柯	-11.1126
黎元	-11.1126
聶	-11.1127
稽首	-11.1127
容貌	-11.1128
寒暑	-11.1129
玉帛	-11.113
焚香	-11.1131
海島	-11.1133
慎勿	-11.1134
宗社	-11.1136
茅山	-11.1136
文鴦	-11.1136
諭㫖	-11.1136
昇州刺史	-11.1137
師道	-11.1138
絕	-11.114
白日	-11.1143
吾屬	-11.1143
制加	-11.1144
生死	-11.1145
報仇	-11.1145
五丈	-11.1147
吕隆	-11.1147
財物	-11.115
戰士	-11.1154
築室	-11.1154
俘獲	-11.1154
龍腦	-11.1156
珍寳	-11.1156
欲盡	-11.1159
水旱	-11.116
副元帥	-11.1165
七十里	-11.1168
岳州刺史	-11.1168
常山公	-11.117
守尚書令	-11.1171
拒命	-11.1172
為吏部尚書	-11.1174
光啓	-11.1176
又置	-11.118
事太祖	-11.118
明年春	-11.1181
張天錫	-11.1181
秘書	-11.1181
承勲	-11.1186
保貞	-11.1188
引退	-11.1188
聽政	-11.119
登極	-11.1191
建鋒	-11.1191
至洛陽	-11.1192
僭立	-11.1193
平壤	-11.1194
臣誠	-11.1196
寺僧	-11.1198
忠誠	-11.12
西奔	-11.1203
𢎞農王	-11.1204
字景	-11.1205
王崇文	-11.1209
李遇	-11.121
閬中人	-11.1212
莫府	-11.1213
敢不	-11.1215
封疆	-11.1216
龍舟	-11.1223
二十一	-11.1234
其説	-11.1235
為使持節都督	-11.1235
秉政	-11.1236
王昭逺	-11.1237
歩兵	-11.1241
武侯	-11.1244
奉貢	-11.1246
隱居	-11.1247
不預	-11.1252
享國	-11.1254
節鎮	-11.1257
避難	-11.1257
鎮長安	-11.1257
畧陽	-11.1258
進爵	-11.1259
為太傅	-11.1263
韓信	-11.1265
餓死	-11.1265
順流	-11.1268
相接	-11.1273
若斯	-11.1274
力學	-11.1274
神器	-11.1279
新昌	-11.1283
治中	-11.1285
十疋	-11.1294
毛當	-11.1295
請罷	-11.1299
貢賦	-11.1303
未成	-11.1308
求救于	-11.131
甚重	-11.1315
後將軍	-11.1315
山澤	-11.1323
洪武	-11.1325
無敢	-11.1329
都䕶府	-11.133
案此	-11.1331
桓帝	-11.1333
安南都䕶	-11.1334
國士	-11.1337
三十餘	-11.1338
樂工	-11.1344
被誅	-11.1346
之義也	-11.1348
處分	-11.1349
精卒	-11.1352
為皇后	-11.1354
遂克	-11.1354
契丹使	-11.1356
土豪	-11.1356
省事	-11.1361
為賊所	-11.1363
人之所	-11.137
上洛	-11.1371
北朝	-11.1372
廣德	-11.1378
著名	-11.1381
金華	-11.1383
李農	-11.1384
匡時	-11.1392
曰先帝	-11.1396
殿後	-11.1397
不才	-11.141
奮擊	-11.1427
百濟王	-11.1427
之後也	-11.1428
師還	-11.1434
而返	-11.1443
五郡	-11.1444
經義	-11.1445
高祖時	-11.1445
四卷	-11.1448
廢立	-11.1448
等帥	-11.1468
後繼	-11.1477
乞降	-11.1479
或問	-11.1486
於襄國	-11.1488
誣以	-11.1489
入成都	-11.1495
任用	-11.1504
不待	-11.1506
身長八尺	-11.1509
復叛	-11.1514
昌文	-11.1527
於鄴	-11.1528
悉平	-11.153
定天下	-11.1535
府君	-11.1536
骸	-11.1536
同列	-11.1538
南渡	-11.1543
貟外郎	-11.1544
號稱	-11.1574
母妻	-11.1587
字德	-11.1588
黄帝	-11.1591
諜	-11.1593
性嚴	-11.1595
邆	-11.1598
秉彛	-11.1602
清平官	-11.1604
毘	-11.1607
諒州	-11.1609
旵	-11.1611
徴兵	-11.1611
稱皇帝	-11.1612
嗚	-11.1616
鲁	-11.1616
都押衙	-11.1618
稠	-11.162
𢎞鐸	-11.162
帑	-11.162
東都留守	-11.162
有是命	-11.1621
鯨	-11.1622
豺	-11.1622
迥	-11.1623
轄	-11.1623
而取之	-11.1623
的	-11.1624
珂	-11.1624
賜王生辰禮物	-11.1624
悴	-11.1624
𢎞億	-11.1624
倬	-11.1625
兔	-11.1626
遺命	-11.1626
仁沼	-11.1626
檢校太師	-11.1626
遶	-11.1627
批	-11.1627
笛	-11.1627
驃騎	-11.1627
宣諭使	-11.1627
忽見	-11.1627
昀	-11.1628
僑	-11.1629
率騎五千	-11.1629
聿	-11.1629
盪	-11.1629
磬	-11.163
鉢	-11.163
觀察判官	-11.163
鄧𦍑	-11.163
柩	-11.1631
盃	-11.1631
赫連	-11.1631
韙	-11.1631
柴克宏	-11.1632
遑	-11.1632
萬餘級	-11.1632
漳泉	-11.1632
昬	-11.1632
奎	-11.1632
紓	-11.1632
撞	-11.1632
旰	-11.1633
馬步都指揮使	-11.1633
贊成事	-11.1633
鞍勒馬	-11.1633
鎮逺將軍	-11.1633
簷	-11.1633
訃	-11.1633
雌	-11.1633
噬	-11.1633
蚤	-11.1633
奉朝請	-11.1634
鐵橋	-11.1634
橘	-11.1634
翰林學士承㫖	-11.1634
浹	-11.1634
猿	-11.1635
逸豆歸	-11.1636
駞	-11.1636
第三子	-11.1636
長樂公丕	-11.1636
撻	-11.1637
玭	-11.1637
儀同三司	-11.1637
芙蓉	-11.1637
頋全武	-11.1637
留從效	-11.1638
騷	-11.1638
誼	-11.1638
覔	-11.1638
爪	-11.1638
叨	-11.1638
安逺將軍	-11.1638
盍	-11.1638
六年春二月	-11.1639
張豺	-11.1639
姧	-11.1639
臠	-11.1639
蘭汗	-11.1639
彭師暠	-11.164
踞	-11.164
榭	-11.1641
蓮花	-11.1641
堦	-11.1641
呌	-11.1641
陘	-11.1641
臾	-11.1642
匝	-11.1643
兠	-11.1643
嬰齊	-11.1643
衞尉	-11.1643
通謀	-11.1643
靳準	-11.1644
台符	-11.1644
孫光憲	-11.1644
聰慧	-11.1645
丐	-11.1645
彞	-11.1645
攻戰	-11.1646
鋪	-11.1646
元珦	-11.1646
艷	-11.1646
甌	-11.1647
謟	-11.1648
瞽	-11.1648
紐	-11.1648
存瓌	-11.1649
唯唯	-11.1649
闌	-11.165
驕恣	-11.165
屠各	-11.165
彧	-11.165
張掖太守	-11.165
毘陵	-11.1651
鳳凰	-11.1651
參知政事	-11.1653
漁父	-11.1654
荆湖	-11.1655
糴	-11.1657
談論	-11.1657
李廷珪	-11.1657
宋史云	-11.1659
魏郡太守	-11.1659
感悟	-11.166
耽羅	-11.166
隔絶	-11.166
踰月	-11.166
乘虚	-11.1661
文蔚	-11.1662
鄭夢周	-11.1663
十斤	-11.1665
辛禑	-11.1665
泰章	-11.1666
交泰	-11.1666
后稷	-11.1666
休息	-11.1668
宋史作	-11.1669
浮海	-11.1669
江漢	-11.167
戮力	-11.167
早亡	-11.1672
譙周	-11.1674
晚年	-11.1674
舍利	-11.1676
段遼	-11.1676
以城降	-11.1677
感化	-11.1678
北中郎將	-11.1679
鎮将	-11.1681
諸將皆	-11.1683
羣臣咸	-11.1685
李穡	-11.1687
進師	-11.1688
金鳯	-11.169
蘓州	-11.1692
素弗	-11.1692
爵位	-11.1695
民心	-11.1695
入闗	-11.1696
䘮亂	-11.1696
交阯太守	-11.1698
令狐	-11.17
交結	-11.1701
駿馬	-11.1703
寛仁	-11.1707
為道士	-11.1709
五寸	-11.171
丗宗	-11.1711
遂降	-11.1711
詔㫖	-11.1712
曰此兒	-11.1723
賜紫	-11.1723
率户	-11.1724
靈臺	-11.1725
彦真	-11.1727
不撓	-11.1727
郪人也	-11.1733
唱和	-11.1736
十篇	-11.174
劉澄	-11.174
土木	-11.174
為盜	-11.1742
毛詩	-11.1744
經略	-11.1744
雨血	-11.1744
義烈	-11.1745
厚恩	-11.1745
延休	-11.1748
書史	-11.1748
所弑	-11.1749
尹氏	-11.1753
將兵擊	-11.1756
安敢	-11.1757
忽有	-11.1757
引歸	-11.1759
六七	-11.1764
導江	-11.177
揚州刺史	-11.1773
攻䧟	-11.1779
視朝	-11.1781
攻㧞	-11.179
應援	-11.179
曽祖	-11.179
清化	-11.1791
郡邑	-11.1792
莫知	-11.1793
倍道	-11.1794
承宣	-11.1795
而逝	-11.1796
王衍	-11.1799
成宗	-11.1799
私謂	-11.1807
嗣君	-11.1811
未盡	-11.1811
管仲	-11.1812
五部	-11.1814
烏蠻	-11.1815
廣政十	-11.1821
英宗	-11.1823
難制	-11.1824
法度	-11.183
渤海王	-11.1835
息兵	-11.184
免官	-11.1842
檢討吳任臣撰吳	-11.1845
左氏	-11.1847
異常	-11.185
禮義	-11.1858
擁兵	-11.1859
作樂	-11.1863
太子寶	-11.1864
聞變	-11.1873
驩	-11.1874
遺詔	-11.1879
唐太宗	-11.1882
二十二	-11.1887
于襄國	-11.1887
朗兵	-11.1889
廣南	-11.1895
侍宴	-11.1903
盡力	-11.1904
襲擊	-11.1907
青城	-11.1907
商人	-11.1913
北江	-11.1924
義和	-11.1931
閩越	-11.1932
吳師	-11.1936
欲害	-11.1939
薊城	-11.1955
握兵	-11.1956
孟堅	-11.1961
張華	-11.1976
部都尉	-11.1983
録事	-11.1984
任氏	-11.1986
開道	-11.199
二年夏四月	-11.1991
樂府	-11.1994
大振	-11.2001
尺餘	-11.2001
北伐	-11.2002
宗信	-11.2003
極矣	-11.2036
夜遁	-11.204
建武軍	-11.2049
水深	-11.2052
不振	-11.2057
退還	-11.2064
俱死	-11.2075
不軌	-11.2078
入長安	-11.2078
臣節	-11.2083
山崩	-11.2089
孫子	-11.2094
諭安南	-11.2113
國號曰	-11.2117
叛臣	-11.212
咸以為	-11.2129
安寧	-11.2141
謡	-11.2143
擊破	-11.2143
豈敢	-11.2144
而問之	-11.2145
宗侃	-11.2149
右丞	-11.215
蹟	-11.2152
呉呉南唐南唐南唐	-11.2152
平州刺史	-11.2155
驚擾	-11.2167
二十五年	-11.2169
僧道	-11.2169
戶	-11.217
鉅	-11.217
莅	-11.2174
弋	-11.2174
陳覺李徴古	-11.2174
甄萱	-11.2174
熖	-11.2175
欄	-11.2176
魏崔鴻撰	-11.2176
荼	-11.2177
跋扈	-11.2177
肜	-11.2178
偡	-11.2178
煌	-11.2179
扞	-11.2179
孛	-11.2179
祟	-11.2179
廡	-11.2179
貂	-11.2179
庖	-11.218
卭州	-11.218
扈	-11.218
􁡦	-11.218
旭	-11.2181
鄭彦華	-11.2181
馨	-11.2181
淨	-11.2182
亨	-11.2182
㳤	-11.2183
無虚日	-11.2183
醮	-11.2184
黠	-11.2184
齊王景逹	-11.2184
縻	-11.2184
醒	-11.2184
蟾	-11.2184
太子洗馬	-11.2185
紊	-11.2185
譌	-11.2185
莒	-11.2185
耆舊	-11.2185
胷	-11.2185
沁	-11.2186
勸課農桑	-11.2186
龍興	-11.2186
唘	-11.2187
捉	-11.2187
舟楫	-11.2187
邢	-11.2187
竪	-11.2187
僖	-11.2188
捄	-11.2188
番禺	-11.2188
膚	-11.2188
偵	-11.2188
冊府元龜	-11.2188
兵馬元帥	-11.2188
行營都統	-11.2189
濕	-11.2189
胎	-11.2189
硯	-11.2189
麴允	-11.2189
鏁	-11.2189
押牙	-11.2189
閫	-11.2189
涸	-11.2189
慟哭	-11.2189
芮	-11.219
耄	-11.219
珉	-11.219
峨	-11.219
棠	-11.219
祺	-11.219
壅	-11.2191
漿	-11.2191
甃	-11.2191
舁	-11.2191
鎮南軍節度使	-11.2191
瀛	-11.2192
太常博士	-11.2192
謠	-11.2192
狼狽	-11.2192
踏	-11.2192
麤	-11.2192
犍爲太守	-11.2192
速骨	-11.2192
户部尚書	-11.2193
琀	-11.2193
􁫘	-11.2193
等謹案	-11.2193
籬	-11.2193
桑梓	-11.2193
殿中侍御史	-11.2193
杞	-11.2194
臘	-11.2194
十六國春秋卷五十	-11.2194
渦	-11.2194
世系	-11.2194
灼	-11.2195
衲	-11.2195
髯	-11.2195
中流矢	-11.2196
縉	-11.2196
􁠷	-11.2196
刪	-11.2197
許德勲	-11.2197
减	-11.2197
俛	-11.2198
許諾	-11.2198
醴	-11.2198
沐浴	-11.2199
迎鑾	-11.2199
樽	-11.2199
鎮西大將軍	-11.22
准	-11.2201
䝉舍	-11.2201
御史臺	-11.2201
敗我兵于	-11.2201
侍側	-11.2203
厚賂	-11.2204
迸	-11.2204
關羽	-11.2206
徐鍇	-11.2206
股	-11.2206
歌舞	-11.2207
皇甫真	-11.2208
夙夜	-11.2208
卒諡文	-11.2209
時人謂之	-11.2209
趙佗	-11.2209
鵝	-11.221
閼	-11.221
太傅評	-11.221
毖	-11.2211
漁陽	-11.2212
馳驛	-11.2212
疾革	-11.2212
臨卭	-11.2213
後不知所終	-11.2213
草創	-11.2214
壮士	-11.2216
自刎	-11.2216
洞潛	-11.2218
省躬	-11.2219
遇弑	-11.2219
佛嵩	-11.222
是月勅	-11.2221
秀才	-11.2221
太湖	-11.2221
慰勞	-11.2224
劉彦瑫	-11.2225
殊俗	-11.2225
漢武帝	-11.2227
受詔	-11.2229
十五萬	-11.223
衆數萬	-11.2234
一枚	-11.2237
仁璧	-11.2237
前朝	-11.2238
年十六	-11.2239
諸子皆	-11.224
當塗	-11.2241
彭祖	-11.2242
曰此非	-11.2243
淮海	-11.2243
流血	-11.2243
弘義	-11.2244
李濤	-11.2245
買德	-11.2245
智勇	-11.2247
桓𤣥	-11.2248
衡州	-11.2252
羅隱	-11.2253
羣臣議	-11.2257
無算	-11.2257
忠肅	-11.2259
耀兵	-11.226
躬親	-11.2261
秦鳳	-11.2261
郎中令	-11.2262
弼等	-11.2262
未可知	-11.2262
諸蠻	-11.2266
湯武	-11.2267
荅曰	-11.2267
十一年春正月	-11.2268
甘心	-11.2268
乘間	-11.2269
流沙	-11.2271
骸骨	-11.2274
抑亦	-11.2274
壽夢	-11.2275
重霸	-11.2277
梁震	-11.228
樂浪王	-11.228
昇元中	-11.228
南鄭人也	-11.2282
三百里	-11.2282
歴位	-11.2285
吳王垂	-11.2288
是冬	-11.2288
文錫	-11.229
天策	-11.229
五百餘人	-11.229
願大王	-11.2292
韓昭	-11.2294
離宫	-11.2295
二千餘人	-11.2297
五湖	-11.23
烈士	-11.2301
華夏	-11.2304
德勲	-11.2304
將水軍	-11.2306
關東	-11.2309
墓在	-11.2311
耳目	-11.2313
政教	-11.2314
還京	-11.2315
恢復	-11.2317
功業	-11.2319
元懿	-11.2327
書招	-11.2328
城䧟	-11.2329
蕭何	-11.2331
破賊	-11.2333
近侍	-11.2339
邦家	-11.2341
其為人	-11.2342
忠節	-11.2343
景威	-11.2347
仰天	-11.2352
服御	-11.2353
上總	-11.2365
以狥	-11.2366
唐加	-11.2368
撫問	-11.2372
魯陽	-11.2374
妖言	-11.2387
孫士	-11.2388
徙治	-11.2389
遺書	-11.2392
莫若	-11.2398
禮儀	-11.2399
國號大	-11.2399
謀作亂	-11.2399
風雲	-11.2403
北渡	-11.2404
尚書省	-11.2408
三泉	-11.2413
詰其	-11.2413
詐降	-11.2414
塩	-11.2418
不設備	-11.2419
守備	-11.2421
何異	-11.2421
族誅	-11.2423
丗子	-11.2427
四夷	-11.2432
賜名	-11.2432
流離	-11.2434
因說	-11.2436
張訓	-11.244
告之曰	-11.2442
襄城	-11.2443
兵二萬	-11.2444
南鄉	-11.2445
諫官	-11.2449
牙将	-11.2459
光天元年	-11.246
并殺	-11.2472
善惡	-11.2486
登髙	-11.2487
二千餘	-11.2495
儁遣	-11.2496
蠻書	-11.2497
軍資	-11.2499
節鉞	-11.25
聖主	-11.2522
宻謀	-11.2535
於枹罕	-11.2539
益陽	-11.2542
四郡	-11.2548
竒兵	-11.2552
兵勢	-11.2557
權勢	-11.2563
自潰	-11.2583
百篇	-11.2593
為招討使	-11.2602
放還	-11.2606
走馬	-11.2606
徑至	-11.2608
三十餘人	-11.2612
萬機	-11.2613
移書	-11.2626
四十六	-11.263
左丞	-11.2642
人也祖	-11.2643
仲達	-11.2649
在位二	-11.2657
軍勢	-11.2663
光圖	-11.2674
遣參軍	-11.2677
後仕	-11.2684
濮陽	-11.2693
部領	-11.2693
萬民	-11.2697
故吏	-11.2705
曲宴	-11.2739
北部	-11.2739
東宮	-11.2744
三寸	-11.275
肖	-11.275
覃	-11.2751
匡賛	-11.2758
校官	-11.2759
澆	-11.276
風疾	-11.2761
箸	-11.2762
水晶	-11.2764
南唐近事	-11.2764
贅	-11.2765
盒	-11.2766
坎	-11.2766
蜜	-11.2766
五代㑹要	-11.2767
詰旦	-11.2767
磯	-11.2768
晷	-11.2768
司隷	-11.2768
癸夘	-11.2769
哂	-11.277
言於興曰	-11.277
叶	-11.277
捶	-11.277
縑	-11.277
羮	-11.2771
欠	-11.2771
餒	-11.2772
偹史	-11.2772
檢校太師兼中書令	-11.2773
潦	-11.2773
寗	-11.2773
戀	-11.2773
國子祭酒	-11.2773
紏	-11.2774
商旅	-11.2774
淦	-11.2774
惋	-11.2774
俚	-11.2774
朱延壽	-11.2774
唐文扆	-11.2774
婉	-11.2775
怙	-11.2775
右千牛衛	-11.2775
㗖	-11.2776
黯	-11.2776
五年春二月	-11.2777
囂	-11.2777
种氏	-11.2777
闗西	-11.2777
儻	-11.2777
呪	-11.2777
秦宗權	-11.2777
畝	-11.2777
琵琶	-11.2777
晁	-11.2778
綝	-11.2778
諂	-11.2779
技	-11.2779
斵	-11.2779
臺濛	-11.2779
奉車都尉	-11.2779
彗	-11.278
即偽位	-11.278
娯	-11.278
鐫	-11.278
眸	-11.278
何面目	-11.278
第六子	-11.2781
拊	-11.2781
㸑	-11.2781
查	-11.2781
倐	-11.2781
登進士第	-11.2781
有勇力	-11.2782
器皿	-11.2782
越裳	-11.2782
愕	-11.2782
欽定四庫全書史部九	-11.2782
闞	-11.2782
炅	-11.2783
洙	-11.2784
載記𩔖	-11.2784
僉	-11.2785
工畫	-11.2785
徭	-11.2785
儋	-11.2785
從鎰	-11.2785
藁	-11.2786
繼鵬	-11.2786
廣運	-11.2786
烏丸	-11.2786
夔	-11.2786
栖	-11.2787
惶懼	-11.2787
戈甲	-11.2787
翟斌	-11.2787
雍熈	-11.2788
紛紛	-11.2788
焚燒	-11.2788
恭儉	-11.2788
經綸	-11.2789
櫬	-11.2789
擊毬	-11.2789
逾月	-11.2789
張遇賢	-11.279
䘚年七十	-11.279
帥精騎	-11.279
事髙祖為	-11.279
撫綏	-11.2791
面縛	-11.2791
即王位	-11.2792
𢎞俶	-11.2792
出其不意	-11.2792
咒	-11.2793
睢	-11.2793
咨爾	-11.2793
婚姻	-11.2793
曰不然	-11.2794
衞大將軍	-11.2794
貴嬪	-11.2795
吟咏	-11.2795
啖	-11.2796
尚書僕射	-11.2796
紞	-11.2796
左衛	-11.2796
螺	-11.2797
粧	-11.2797
規模	-11.2797
舂	-11.2797
潰散	-11.2797
為謀主	-11.2798
玉帶	-11.2798
虗白	-11.2798
公子光	-11.2798
僃	-11.2799
察球爾	-11.28
唐昭宗	-11.28
顧左右曰	-11.28
唐僖宗	-11.2801
識者以為	-11.2803
慨然	-11.2804
韓範	-11.2805
叔嗣	-11.2805
寛簡	-11.2805
萬餘口	-11.2806
乾貞	-11.2806
清儉	-11.2807
領軍將軍	-11.2807
傾覆	-11.2807
貽業	-11.2807
征虜	-11.2809
李金全	-11.2812
希杲	-11.2812
闓	-11.2814
〇	-11.2814
禪位	-11.2814
數百騎	-11.2815
驚駭	-11.2815
隴東	-11.2817
消息	-11.2819
希聲	-11.282
傳檄	-11.2821
京兆人	-11.2821
邊境	-11.2823
極諫	-11.2827
行伍	-11.2829
侵掠	-11.2829
不肖	-11.2829
有戰功	-11.2831
羲蕚	-11.2831
遜位	-11.2833
李徳誠	-11.2833
李資謙	-11.2834
號泣	-11.2836
墳墓	-11.2839
數百里	-11.284
衆寡	-11.2841
益州太守	-11.2841
龍騰	-11.2842
窮極	-11.2842
白狼	-11.2843
王命弟	-11.2843
其部衆	-11.2843
八年春正月	-11.2846
卑辭	-11.2846
至廣陵	-11.2847
将校	-11.2849
寡君	-11.2849
文穆	-11.285
圖畫	-11.2851
女弟	-11.2852
謝𤣥	-11.2854
庶政	-11.2855
淮将	-11.2855
推誠	-11.2858
景崇	-11.2859
禍亂	-11.2867
可圖也	-11.2869
山獠	-11.2871
五榖	-11.2875
不須	-11.2878
兵柄	-11.2881
寡言	-11.2881
宏實	-11.2881
遂大敗	-11.2884
建熙	-11.2896
待詔	-11.2898
忠臣也	-11.2901
李暠	-11.2901
怨望	-11.2902
其尸	-11.2902
鎮撫	-11.2902
貢舉	-11.2906
留臺	-11.2909
師友	-11.2914
混一	-11.2919
殊禮	-11.2919
朝賀	-11.292
繼恩	-11.2923
西接	-11.2924
連和	-11.2928
偽號	-11.2928
征南	-11.2931
移都	-11.2932
追謚	-11.2933
侍衞	-11.2933
於東宫	-11.2936
明敏	-11.2937
乞援	-11.2941
契丹兵	-11.2943
失色	-11.2944
運糧	-11.2944
十六國春秋卷三十	-11.2946
大冡	-11.2948
進逼	-11.2952
上書言	-11.2955
延福	-11.296
而食之	-11.2963
廣政時	-11.2966
宗夀	-11.2969
為庶人	-11.297
不悟	-11.2973
相屬	-11.2981
忠直	-11.2981
梁祖	-11.299
爲質	-11.2999
不知所為	-11.3007
留意	-11.3011
妻妾	-11.3014
老父	-11.3022
寤而	-11.3023
尋加	-11.3023
於㑹稽	-11.3025
起兵應	-11.3026
諸衛	-11.3032
宣㫖	-11.3032
致逺	-11.3034
攻常州	-11.3037
累封	-11.3037
名儒	-11.3038
夢周	-11.3039
君福	-11.3045
張飛	-11.3071
求賢	-11.3078
悉衆	-11.308
軍大敗	-11.3082
伺其	-11.3087
南唐書卷之十	-11.3088
入金陵	-11.3088
直前	-11.3097
羅漢	-11.31
茂州	-11.3103
大夫種曰	-11.3107
軍敗績	-11.3109
暴風	-11.311
交戰	-11.3116
基業	-11.312
徳化	-11.3125
兵仗	-11.3149
緯曰	-11.3149
百數	-11.3152
冠帶	-11.3156
威德	-11.3172
來侵	-11.3192
平涼	-11.3218
北路	-11.3233
刑部	-11.324
長史張	-11.3245
三十人	-11.3248
西湖	-11.3272
紹興	-11.3275
專征	-11.3302
防禦使	-11.3313
卷八	-11.3323
嵗貢	-11.3335
五卷	-11.3355
婺	-11.3366
哶	-11.3373
建嘉	-11.3373
倜儻	-11.3379
大赦改年	-11.3384
鞏	-11.3387
娘	-11.3388
潯	-11.3388
十六國春秋卷二十	-11.3388
蘋	-11.339
昂	-11.339
王崇質	-11.339
滑稽	-11.3393
拓跋	-11.3393
王子傳瓘	-11.3393
喧	-11.3394
敖	-11.3394
囑	-11.3394
𥿄	-11.3395
偁	-11.3395
殫	-11.3395
天下兵馬都元帥	-11.3395
巽	-11.3395
吿	-11.3395
稀	-11.3396
芟	-11.3396
渇	-11.3396
箴	-11.3396
航海	-11.3396
褚	-11.3397
冤	-11.3397
鎻	-11.3398
謀誅	-11.3398
彫	-11.3398
仔鈞	-11.3398
大赦境内改元	-11.3398
倓	-11.3398
錦綺	-11.3399
諭之曰	-11.3399
乙夘	-11.3399
越王句踐	-11.3399
商賈	-11.3399
圉	-11.3399
嘔	-11.3399
忱	-11.3399
暝	-11.3399
嗇	-11.34
沈彬	-11.34
惕	-11.34
畨禺	-11.34
改今名	-11.34
侍婢	-11.34
龔澄樞	-11.34
韋莊	-11.3401
黄門郎	-11.3402
牡丹	-11.3402
天安殿	-11.3403
駟	-11.3404
將若之何	-11.3404
飼	-11.3404
自稱留後	-11.3404
百揆	-11.3404
劭	-11.3405
叛降於	-11.3405
蟬	-11.3405
踐阼	-11.3406
企	-11.3406
奔長安	-11.3406
不可勝數	-11.3406
稼穡	-11.3406
永嘉之亂	-11.3407
鳴鼓	-11.3408
贓	-11.3408
軍諮祭酒	-11.3408
鑰	-11.3408
白虹	-11.3409
武信軍節度使	-11.3409
敘	-11.341
般若	-11.341
箠	-11.341
催	-11.341
倒懸	-11.341
竿	-11.3411
浣	-11.3411
不可勝紀	-11.3411
稻田	-11.3411
􁢱	-11.3411
盎	-11.3411
黥	-11.3412
霑	-11.3412
甕	-11.3412
五國故事云	-11.3413
噪	-11.3413
換	-11.3413
八十里	-11.3413
轉運使	-11.3413
闋	-11.3413
秣馬	-11.3413
無恙	-11.3414
肌	-11.3414
輓	-11.3414
未遑	-11.3414
儉約	-11.3414
牂柯	-11.3414
宿衞	-11.3414
縫	-11.3414
姿貌	-11.3414
吳越備史	-11.3415
中書門下	-11.3415
縊殺之	-11.3415
炤	-11.3415
廷琄	-11.3415
馬仁裕	-11.3415
扁	-11.3415
喇	-11.3416
遣使來聘	-11.3416
曵	-11.3416
朝鮮史畧卷	-11.3416
杜稜	-11.3416
祭祀	-11.3417
宣歙	-11.3417
朞	-11.3417
巨萬	-11.342
夷狄	-11.342
湯悦	-11.342
程遐	-11.3422
悠	-11.3422
謝艾	-11.3422
李守貞	-11.3423
行於世	-11.3423
束帛	-11.3423
閭丘	-11.3423
襦	-11.3424
此之謂也	-11.3424
金城太守	-11.3426
以郡降	-11.3426
孫皓	-11.3428
胸	-11.3429
二十三日	-11.3429
天資嘉瑞	-11.3429
率衆二萬	-11.3432
我師敗績	-11.3432
六十里	-11.3432
中領軍	-11.3432
羨	-11.3434
招撫	-11.3434
惜哉	-11.3435
文扆	-11.3435
浮圖	-11.3435
潘美	-11.3436
溪洞	-11.3437
高駢	-11.3437
右衛將軍	-11.3438
數千騎	-11.3439
麟嘉	-11.344
儒術	-11.3441
薛史	-11.3441
昭悦	-11.3441
肅宗	-11.3441
結盟	-11.3442
岐兵	-11.3445
廷紹	-11.3445
寳貨	-11.3446
潤州節度使	-11.3446
吳武王	-11.3446
卒諡	-11.3452
元璽	-11.3456
僭位	-11.3456
入于周	-11.3457
强弱	-11.3457
漢中太守	-11.3457
供給	-11.3458
隂宻	-11.3458
贊寧	-11.3459
守禦	-11.346
周旋	-11.346
俄遷	-11.3461
真珠	-11.3463
叚氏	-11.3463
年十五	-11.3465
參合	-11.3467
延熈	-11.3468
災異	-11.3468
諜者	-11.3468
救援	-11.3468
孔明	-11.3471
詣金陵	-11.3471
年九十	-11.3471
户口	-11.3473
府署	-11.3474
資給	-11.3475
年十八	-11.3478
擾亂	-11.3482
右手	-11.3485
表薦	-11.3485
幕下	-11.3485
政房	-11.3486
左衛將軍	-11.3487
江原	-11.3488
報恩	-11.3489
王莽	-11.3489
腰斬	-11.3489
徒河	-11.349
𢎞佐	-11.3495
保大初	-11.3496
鹽官	-11.3496
禁止	-11.3498
發䘮	-11.3498
莫知所	-11.35
淮南節度使	-11.3502
斷絶	-11.3504
夜郎	-11.3505
少尹	-11.3506
羣后	-11.3506
石閔	-11.3507
唐鎬	-11.3509
文翰	-11.351
手足	-11.3511
南唐書列傳卷苐	-11.3512
誰能	-11.3516
仲舉	-11.3517
天祐二年	-11.3519
廟號太祖	-11.3521
危懼	-11.353
結好	-11.353
聲教	-11.3531
僭稱	-11.3533
不聼	-11.3536
陽騖	-11.3545
三萬餘人	-11.3558
狀若	-11.3566
伏發	-11.3571
夜半	-11.358
九年春正月	-11.358
二十餘人	-11.3583
盛夏	-11.3591
師大敗	-11.3596
指授	-11.36
步卒	-11.3602
黎州	-11.3605
兵部郎中	-11.3608
廷望	-11.3609
庶幾	-11.3611
還鄉里	-11.3613
俱延	-11.3619
等十餘人	-11.362
盡殺之	-11.3623
鍾山	-11.3625
同姓	-11.3627
長興三年	-11.3629
畧云	-11.3636
両浙	-11.3668
樂陵	-11.3671
非常人	-11.3671
師徒	-11.3681
戰不利	-11.3693
衆十餘萬	-11.3696
湖廣	-11.3711
未詳其	-11.3745
太子元膺	-11.3752
不早	-11.3764
仲逹	-11.3778
乆矣	-11.3781
詔諭	-11.3833
燉煌人也	-11.387
卒伍	-11.3874
萬斛	-11.3877
原本作	-11.3881
諡武	-11.3887
昇元元年	-11.3916
卷九	-11.3934
廣政二十	-11.3949
十一日	-11.3957
宜早	-11.3964
養士	-11.3974
二十八年	-11.3975
北接	-11.3975
二丈	-11.4019
僣稱	-11.4023
炕	-11.4029
蒨	-11.404
諦	-11.4044
於東堂	-11.4047
樞密	-11.4048
摭	-11.4048
陛	-11.4051
滑	-11.4052
軹	-11.4052
閤門使	-11.4052
惮	-11.4053
楚楚楚南漢南漢	-11.4053
趋	-11.4054
酸	-11.4055
東平王全忠	-11.4055
殷崇義	-11.4055
閽	-11.4056
㩀	-11.4056
京都	-11.4057
荔	-11.4057
璽綬	-11.4058
夭	-11.4058
㐮陽	-11.4059
嗣偽位	-11.4059
懈	-11.4059
認	-11.4059
歐陽彬	-11.4059
宣華苑	-11.406
謏	-11.406
翫	-11.4061
廵檢使	-11.4062
筋	-11.4062
塜	-11.4062
煬帝	-11.4062
文獻通考	-11.4063
夘	-11.4063
勗	-11.4063
崑山	-11.4064
潘承祐	-11.4064
安東將軍	-11.4064
艶	-11.4064
田令孜	-11.4064
戅	-11.4064
鏗	-11.4064
烽	-11.4064
遐邇	-11.4064
鋌	-11.4064
旂	-11.4064
閨	-11.4065
惻	-11.4065
神道碑	-11.4065
騁	-11.4065
上庸王評	-11.4065
皆此𩔖也	-11.4065
拂衣	-11.4065
姚彦章	-11.4066
步騎四萬	-11.4066
御厨	-11.4066
㬰	-11.4066
百勝軍節度使	-11.4066
蕉	-11.4066
鮓	-11.4067
沱	-11.4067
遘	-11.4067
黄龍見	-11.4068
塊	-11.4068
司天監	-11.4068
聯	-11.4068
馬歩都指揮使	-11.4068
筒	-11.4068
皷	-11.4068
碓	-11.4068
凑	-11.4069
蔗	-11.4069
頰	-11.4069
泚	-11.4069
澄心堂	-11.4069
瘠	-11.4069
中壘將軍	-11.4069
右衞將軍	-11.4069
十有二月	-11.407
派	-11.407
厮	-11.407
杌	-11.407
虬	-11.4071
鈍	-11.4071
鉅萬	-11.4071
丈二尺	-11.4072
鼓吹	-11.4073
浩亹	-11.4073
產	-11.4073
瑁	-11.4073
楮	-11.4073
太武殿	-11.4074
焰	-11.4074
脇	-11.4074
咽	-11.4074
帑藏	-11.4074
行于世	-11.4074
森	-11.4074
鍳	-11.4074
不可勝計	-11.4075
㪚	-11.4075
釡	-11.4075
𠡠	-11.4075
掲	-11.4075
孫承祐	-11.4076
糟	-11.4076
霖	-11.4076
悲慟	-11.4076
壑	-11.4076
大事去矣	-11.4077
鄠	-11.4077
别駕從事	-11.4077
櫝	-11.4077
痛惜	-11.4077
犒師	-11.4077
租稅	-11.4077
畨	-11.4077
州司户	-11.4077
巣	-11.4078
竇融	-11.4078
桞	-11.4078
乙弗	-11.4078
旦暮	-11.4078
板楯	-11.4078
殮	-11.4078
郭崇韜	-11.4078
央	-11.4079
真臘	-11.4079
嗚呼哀哉	-11.4079
霖雨	-11.4079
可足渾氏	-11.4079
火焚	-11.4079
朱令贇	-11.4079
神色自若	-11.4079
狀貌	-11.4079
衂	-11.4079
捲	-11.4079
德韶	-11.4079
為鄉導	-11.408
蠕蠕	-11.408
摶	-11.408
國子博士	-11.408
建勳	-11.408
馬令南唐書云	-11.408
廖偃	-11.4081
太子少傅	-11.4081
寝疾	-11.4081
睨	-11.4082
吠	-11.4082
滄海	-11.4082
阿房	-11.4082
峒	-11.4083
為前鋒都督	-11.4083
有力焉	-11.4083
孟昶	-11.4083
李德誠	-11.4083
磨些	-11.4084
崔忠獻	-11.4084
門下侍郎平章事	-11.4084
仲尼	-11.4084
寅遜	-11.4085
兖豫	-11.4085
璩	-11.4085
追尊父	-11.4085
符印	-11.4086
東平公紹	-11.4086
三楚新録	-11.4086
僎	-11.4086
保寅	-11.4086
束手	-11.4086
郯	-11.4087
弑其君	-11.4087
逓	-11.4087
永興元年	-11.4087
斜谷	-11.4087
幼冲	-11.4088
大司馬桓温	-11.4088
裙	-11.4089
滁州刺史	-11.4089
輔弼	-11.4089
郭無為	-11.4089
武衞將軍	-11.4089
淳化	-11.409
李仁逹	-11.4091
韓保貞	-11.4091
郭黙	-11.4091
峽路	-11.4091
兗州刺史	-11.4092
龔壯	-11.4092
徐寅	-11.4092
舊唐書	-11.4092
撫慰	-11.4092
博覽	-11.4093
李𢎞臯	-11.4095
孔萇	-11.4097
愔	-11.4097
七千餘人	-11.4098
織成	-11.4098
張文表	-11.4098
掃地	-11.4099
崔浩	-11.41
負荷	-11.41
幽州牧	-11.4101
蒲洪	-11.4102
索隱	-11.4103
安思謙	-11.4104
曜曜	-11.4104
羽儀	-11.4104
以功拜	-11.4104
重誨	-11.4106
靈耀	-11.4106
牙兵	-11.4107
玉冊	-11.4107
廣武將軍	-11.4108
講論	-11.4108
迄今	-11.4108
石鏡	-11.411
甚惡之	-11.4111
碩德	-11.4112
父子兄弟	-11.4112
絶倫	-11.4114
睦州刺史	-11.4114
講武	-11.4116
成都尹	-11.4116
吳越春秋	-11.4117
涼土	-11.4117
智畧	-11.4118
被髪	-11.412
海鹽	-11.4121
萬歳	-11.4122
其屍	-11.4122
獻詩	-11.4124
二十一日	-11.4126
擊走之	-11.4126
禹貢	-11.4126
事蹟	-11.4128
土宇	-11.4131
根本	-11.4132
險固	-11.4138
段業	-11.4138
龍啓	-11.4138
劉璋	-11.4139
威振	-11.414
數丈	-11.4141
慕容皝	-11.4141
諸孫	-11.4142
黃氏	-11.4143
號哭	-11.4145
驍將	-11.4147
楊晟	-11.4147
加同平章事	-11.415
惑衆	-11.4151
李徴古	-11.4152
營丘	-11.4157
寳劒	-11.4159
向化	-11.416
縊死	-11.416
王宗綰	-11.4163
右職	-11.4163
昌松	-11.4164
未審	-11.4165
道塲	-11.4166
廣政中	-11.4168
入禁中	-11.4169
秦苻堅	-11.4176
年十二	-11.4178
修貢	-11.4181
招諭	-11.4181
眀年	-11.4186
羣議	-11.4188
不倦	-11.4191
無何卒	-11.4196
泰始	-11.4203
文采	-11.421
王景崇	-11.4222
權貴	-11.4232
北郊	-11.4233
走保	-11.4239
免禍	-11.424
據險	-11.4242
賣國	-11.4257
静江	-11.4273
廓清	-11.4273
臨淮	-11.4284
辭氣	-11.4285
循州	-11.4292
姓李氏	-11.4308
改葬	-11.4309
宰臣	-11.4318
百八十	-11.4322
五十年	-11.4329
弑君	-11.4344
兵十萬	-11.4355
已又改	-11.4356
言是也	-11.4357
入漢中	-11.4379
開平二年	-11.4381
廣漢人	-11.4423
閉門拒	-11.4438
元年春二月	-11.4442
遣使來告	-11.445
次第	-11.4457
但恐	-11.4487
長興元年	-11.4498
上疏請	-11.4503
開基	-11.4521
詐稱	-11.4528
六十餘	-11.4558
頗疑	-11.4565
荆南兵	-11.4591
衆大敗	-11.4596
議郎	-11.4621
興師伐	-11.4626
郪	-11.4658
弟希崇	-11.466
勸農	-11.4662
玉帯	-11.4682
不荅	-11.4698
與之同	-11.4708
神祠	-11.4726
柘	-11.4731
三十四	-11.4731
宗綰	-11.4738
武成元年	-11.4739
州别駕	-11.4748
呉呉南唐南唐中朝	-11.476
袂	-11.476
犁	-11.4761
仔	-11.4767
剡	-11.4767
葆	-11.4767
圎	-11.4768
薑	-11.4768
爕	-11.4768
錡	-11.4769
燦	-11.477
楞	-11.477
件	-11.477
許文稹	-11.4771
擯	-11.4771
衮冕	-11.4772
鼇	-11.4772
滇池	-11.4772
誹謗	-11.4773
顕	-11.4773
氐王楊	-11.4773
隄	-11.4773
鄆	-11.4773
秘書省正字	-11.4773
褊	-11.4773
概	-11.4773
烈祖輔吳	-11.4773
欽定四庫全書十國春秋卷一百	-11.4773
發兵攻	-11.4774
薬	-11.4774
涿	-11.4774
諠	-11.4775
譚全播	-11.4776
悰	-11.4776
港	-11.4776
諫諍	-11.4776
琅	-11.4776
亶	-11.4777
蒼梧	-11.4777
釋迦	-11.4777
曳	-11.4777
觀察處置等使	-11.4778
泌	-11.4778
繹	-11.4778
鑊	-11.4778
珥	-11.4778
坡	-11.4778
武忠王	-11.4778
南都留守	-11.4778
譚以䝉	-11.4778
殖	-11.4778
刹	-11.4778
雁	-11.4779
征北大將軍	-11.4779
嫚	-11.4779
淮南節度副使	-11.4779
疵	-11.4779
光葆	-11.4779
時年五十	-11.4779
鼔譟	-11.478
沼	-11.478
水丘氏	-11.478
航	-11.478
兼門下侍郎同平章事	-11.478
腕	-11.478
飭	-11.478
十國春秋卷一百	-11.478
豔	-11.4781
翟遼	-11.4781
蛙	-11.4781
帥衆五萬	-11.4781
衛将軍	-11.4781
兼御史大夫	-11.4781
為之後繼	-11.4781
㐫	-11.4782
天祐三年	-11.4782
死者甚衆	-11.4782
邯	-11.4782
顙	-11.4782
迺	-11.4782
身長七尺	-11.4782
灝	-11.4782
廽	-11.4782
徐知諤	-11.4782
弈	-11.4782
荒淫	-11.4783
闚	-11.4783
葵	-11.4783
縗	-11.4783
死者大半	-11.4783
賜金紫	-11.4783
涵	-11.4783
琥	-11.4783
瘡	-11.4783
葦	-11.4783
即尊位	-11.4784
鳬	-11.4784
瑋	-11.4784
庠序	-11.4785
禮賢宅	-11.4785
㸦	-11.4785
孔雀	-11.4785
衒	-11.4786
率衆來伐	-11.4786
無能為也	-11.4786
軺	-11.4786
賜緋	-11.4786
北地王鍾	-11.4786
圜丘	-11.4786
汶山太守	-11.4786
纓	-11.4787
耐	-11.4787
瑪	-11.4787
蠧	-11.4787
竈	-11.4787
愽	-11.4787
伍胥	-11.4787
嵬	-11.4787
厠	-11.4787
皋	-11.4787
指麾	-11.4787
歇	-11.4787
鄜	-11.4787
𣙜	-11.4788
巍	-11.4788
鼎峙	-11.4788
懃	-11.4788
王與太后	-11.4788
値	-11.4788
七年春二月	-11.4788
眩	-11.4788
櫓	-11.4788
杜建徽	-11.4789
弓裔	-11.4789
領州事	-11.4789
鷰	-11.4789
赱	-11.4789
謂所親曰	-11.4789
媵	-11.4789
優容之	-11.4789
猫	-11.479
組	-11.479
振威將軍	-11.479
廪君	-11.479
祧	-11.4791
入卧内	-11.4791
銜璧	-11.4791
汝隂王	-11.4791
謙光殿	-11.4791
抄掠	-11.4791
䛕	-11.4791
今從十國紀年	-11.4791
惇	-11.4792
撥亂	-11.4792
公卿已下	-11.4792
拓䟦	-11.4793
左廂	-11.4793
仇讐	-11.4793
詹	-11.4793
以疾辭	-11.4793
煒	-11.4793
雞犬	-11.4794
寰	-11.4794
别墅	-11.4795
刳	-11.4795
芥	-11.4795
羽翼	-11.4795
笮	-11.4796
宰嚭	-11.4796
璵	-11.4796
潞川	-11.4796
默	-11.4796
金方慶	-11.4796
固辭不受	-11.4796
錐	-11.4796
壺闗	-11.4797
厙傉官	-11.4797
宣州觀察使	-11.4797
妨	-11.4797
雁門	-11.4797
陶璜	-11.4798
淮南之敗	-11.4798
自此始	-11.4798
扶風太守	-11.4799
琢	-11.4799
椎	-11.48
政堂文學	-11.48
專掌	-11.4801
劉建鋒	-11.4802
迪	-11.4802
暴虐	-11.4803
旽	-11.4803
攻之不克	-11.4803
伊尹	-11.4804
地狹	-11.4804
振旅	-11.4804
臨軒	-11.4804
齊桓	-11.4805
希隱	-11.4805
滴	-11.4806
盲	-11.4806
抗衡	-11.4806
去縣五十里	-11.4806
以功遷	-11.4807
英傑	-11.4807
數十騎	-11.4807
禪院	-11.4808
卒年八十	-11.4808
嘉禾	-11.4809
猛獸	-11.481
檻車	-11.4811
十國紀年云	-11.4812
有異志	-11.4812
太僕	-11.4814
乗輿	-11.4814
斛律	-11.4814
忠武軍	-11.4815
允升	-11.4816
篤學	-11.4817
挈家	-11.4822
不敢逼	-11.4822
布帛	-11.4827
希振	-11.4827
聞之大怒	-11.4828
天下大亂	-11.4829
有娠	-11.4829
虜掠	-11.4831
委質	-11.4831
偏将	-11.4836
聰敏	-11.484
繼顒	-11.4841
隴城	-11.4841
機宻	-11.4841
知州事	-11.4842
畫工	-11.4842
蘓文	-11.4843
渭北	-11.4843
招納	-11.4844
帥其衆	-11.4844
部大人	-11.4844
豪右	-11.4846
開寶中	-11.4846
羣兒	-11.4846
卷七	-11.4854
圖籍	-11.4854
被擒	-11.4854
割據	-11.4855
忳	-11.4859
豎子	-11.4859
萬卷	-11.4861
河南太守	-11.4863
篆文	-11.4867
行愍	-11.4867
失其名	-11.4872
恩寵	-11.4874
教化	-11.4877
伊吾	-11.4877
嶺表	-11.4879
𢎞操	-11.4879
餘姚	-11.488
乗間	-11.4886
武庫	-11.4888
離間	-11.4888
梁冀	-11.4896
二寸	-11.4897
勢甚盛	-11.4898
郭威	-11.4911
太章	-11.4912
盜賊	-11.4913
解圍	-11.4915
中吳軍	-11.4918
繕甲	-11.492
寵遇	-11.4925
湘潭	-11.4934
可否	-11.4945
㡬何	-11.4953
迭相	-11.4974
兵敗績	-11.4976
變色	-11.4979
來乞師	-11.4999
單騎奔	-11.5028
瀘江	-11.5028
威武軍節度使	-11.5045
驍騎	-11.5051
慎修	-11.5087
寵愛	-11.5114
海隅	-11.5121
罪狀	-11.5173
馬步軍	-11.5176
五年春三月	-11.5202
建興元年	-11.5226
萬三千	-11.5254
来奔	-11.5274
諸將皆曰	-11.5297
臣子之	-11.5311
后段氏	-11.5316
十五卷	-11.5319
掩擊	-11.5387
景福元年	-11.5389
渝州	-11.5392
四年春	-11.5402
為魏所	-11.5405
兵救之	-11.5449
烘	-11.547
才畧	-11.5506
邳	-11.5513
墾	-11.5534
昭劵	-11.5536
國亡入宋	-11.5536
薙	-11.5537
屣	-11.5537
庾傳素	-11.5537
僣即皇帝位	-11.5538
張漢思	-11.5538
悚	-11.5539
領縣六	-11.554
大理評事	-11.554
大中祥符	-11.5541
黄紹頗	-11.5541
尊為皇太后	-11.5541
祔	-11.5541
擐甲	-11.5541
戩	-11.5541
王宗播	-11.5542
麓	-11.5542
潘在迎	-11.5542
卬	-11.5543
顆	-11.5543
鈐	-11.5543
雷弱兒	-11.5543
誑	-11.5544
暾	-11.5544
瘁	-11.5544
禇	-11.5544
譟	-11.5544
躓	-11.5545
尢	-11.5545
咼	-11.5545
駝	-11.5545
踴躍	-11.5545
甸	-11.5547
王令謀	-11.5547
羗校尉	-11.5547
綠	-11.5547
肄	-11.5547
姑胥之臺	-11.5547
遞	-11.5547
南唐近事云	-11.5547
䕶羌校尉	-11.5548
瑱	-11.5548
寥	-11.5548
去帝號	-11.5548
頎	-11.5548
幘	-11.5549
紇	-11.5549
彭彦章	-11.5549
圯	-11.5549
毆	-11.5549
愴	-11.555
許再思	-11.555
峩	-11.555
母昭裔	-11.555
巵	-11.555
幡	-11.555
䟦扈	-11.5551
隳	-11.5551
嗣皇帝位	-11.5551
荏	-11.5551
懋	-11.5551
泳	-11.5551
掇	-11.5551
搖	-11.5551
翮	-11.5551
圃	-11.5552
筍	-11.5552
九真日南	-11.5552
平南將軍	-11.5552
誄	-11.5552
簮	-11.5552
偹	-11.5552
觔	-11.5552
奐	-11.5552
􁏫	-11.5552
啗	-11.5553
㡌	-11.5553
騷動	-11.5553
右補闕	-11.5553
逕	-11.5553
嗤	-11.5553
聾	-11.5554
款	-11.5554
冠冕	-11.5554
牕	-11.5554
鄖	-11.5554
餙	-11.5554
太宰恪	-11.5554
頑	-11.5555
仇池公楊	-11.5555
佺	-11.5555
甯	-11.5555
陳守元	-11.5555
輯睦	-11.5555
觀察推官	-11.5555
蹲	-11.5556
紈	-11.5556
率精騎	-11.5556
謀反伏誅	-11.5556
闈	-11.5557
百寮	-11.5557
終其身	-11.5557
凉州牧西平公	-11.5557
舫	-11.5557
象牙潭	-11.5558
聞而惡之	-11.5558
朱肜	-11.5558
迢	-11.5558
彭奚念	-11.5558
歐陽五代史	-11.5558
才兼文武	-11.556
宇宙	-11.556
廬舎	-11.556
莫測	-11.556
麋	-11.5561
黄鉞	-11.5561
蓼	-11.5561
天福十二年	-11.5561
李苾	-11.5561
幻	-11.5561
皇城使	-11.5561
襁	-11.5561
長春殿	-11.5562
控弦	-11.5562
烝	-11.5562
人咸異之	-11.5562
膾	-11.5562
第五子也	-11.5562
驃	-11.5562
輿櫬	-11.5563
侣	-11.5563
慤	-11.5563
倨	-11.5564
壹	-11.5564
教坊	-11.5564
甬	-11.5564
雍州牧	-11.5564
太傅驤	-11.5564
稼	-11.5565
薫	-11.5565
隰	-11.5565
寰宇記	-11.5565
誾	-11.5565
奭	-11.5566
香藥	-11.5566
袤	-11.5566
雷震	-11.5566
剃	-11.5566
交阯郡王	-11.5566
扈從	-11.5566
筏	-11.5567
裸	-11.5567
虢	-11.5567
嘉其功	-11.5568
寜朔將軍	-11.5568
緋	-11.5568
眠	-11.5568
鵠	-11.5568
縮	-11.5568
侈靡	-11.5569
抵罪	-11.5569
樞密院	-11.5569
俘虜	-11.5569
通衢	-11.5569
蝕	-11.5569
九真太守	-11.5569
鄊侯	-11.5569
僻陋	-11.557
蝶	-11.557
桃豹	-11.557
董卓	-11.5571
帥所部	-11.5571
鬢	-11.5572
撥	-11.5572
清淮軍	-11.5572
旌節	-11.5572
沈崧	-11.5572
張延翰	-11.5573
乞活	-11.5573
劔門	-11.5573
耆舊傳	-11.5574
雨雹	-11.5575
好讀書	-11.5575
精銳	-11.5576
諺曰	-11.5578
瀘水	-11.5578
黎庶	-11.5578
遊獵	-11.5579
歸義侯	-11.5579
勾吳	-11.558
鄧羗	-11.5581
李孺贇	-11.5582
軍大潰	-11.5582
椿	-11.5583
知貢舉	-11.5583
判三司	-11.5585
黄滔	-11.5585
武泰軍	-11.5585
乏食	-11.5585
孟知祥	-11.5586
鐡錢	-11.5587
哀牢	-11.5587
陸賈	-11.5588
劔州	-11.559
犍為太守	-11.559
謂衆曰	-11.5591
刺客	-11.5591
宗瑤	-11.5591
怡然	-11.5591
昌黎太守	-11.5592
䖍裕	-11.5595
句容	-11.5597
孝友	-11.5597
城塹	-11.5598
貴戚	-11.5598
雞林	-11.56
氏為王后	-11.56
賦役	-11.56
范隆	-11.5601
度量	-11.5601
詰責	-11.5602
躍馬	-11.5602
封孚	-11.5602
有二心	-11.5603
士燮	-11.5603
汝輩	-11.5604
直抵	-11.5605
創業	-11.5608
直學士	-11.5609
慰撫	-11.561
震動	-11.561
饑甚	-11.561
二十六日	-11.5612
司𨽻	-11.5612
羲聲	-11.5615
丹青	-11.5615
郭慶	-11.5617
恃功	-11.562
闗右	-11.5624
升堂	-11.5624
十年春正月	-11.5624
離散	-11.5627
苻后	-11.5627
中山王曜	-11.5628
率衆數萬	-11.5631
草野	-11.5633
乳陳	-11.5633
辭㫖	-11.5635
十有六	-11.5652
龍昇	-11.5659
職貢	-11.5743
嚴整	-11.5775
祠祀	-11.5806
博雅	-11.5905
威武節度使	-11.5938
獄吏	-11.5947
戰不勝	-11.5968
涪人也	-11.5976
二十六年	-11.5978
昨夜	-11.6004
督諸軍	-11.6036
梓潼人也	-11.6053
奔上邽	-11.606
騎都尉	-11.6125
擊大破之	-11.6127
二十七年	-11.6137
節度推官	-11.6162
以女妻	-11.6164
使持節都督	-11.6182
咸康元年	-11.6253
血流	-11.6291
羌胡	-11.6326
大順二年	-11.6337
䂮	-11.6353
儇	-11.6354
丗子惟濬	-11.6355
太平御覽	-11.6361
綘	-11.6363
有殊色	-11.6363
胡空堡	-11.6366
㪷	-11.6367
東府安撫使	-11.6367
漣水	-11.637
湖湘故事	-11.637
昴	-11.6371
揷	-11.6371
蕳	-11.6371
申屠令堅	-11.6372
集賢殿	-11.6372
唾	-11.6372
劉衞辰	-11.6372
捋	-11.6372
耒	-11.6373
帚	-11.6373
霤	-11.6373
袋	-11.6374
鞞	-11.6375
順化軍	-11.6375
鳯凰	-11.6375
畔	-11.6376
埿	-11.6377
昭惠后	-11.6377
鄕	-11.6377
史館修撰	-11.6377
噉	-11.6377
趺	-11.6377
挐	-11.6377
淄	-11.6377
槨	-11.6378
勤儉	-11.6378
珏	-11.6378
諸軍皆潰	-11.6378
馬仁𥙿	-11.6378
董思安	-11.6379
悠悠	-11.6379
嗚咽	-11.638
舸	-11.638
瞋目	-11.638
衎	-11.638
水部員外郎	-11.638
皇甫繼勲	-11.638
趫	-11.638
暖	-11.6381
馮涓	-11.6381
絙	-11.6381
輔國大將軍	-11.6381
牡	-11.6382
漢嘉太守	-11.6382
栖霞	-11.6382
揚威將軍	-11.6382
鑼	-11.6382
梧	-11.6382
萍	-11.6382
腳	-11.6382
彤	-11.6382
典禁兵	-11.6382
閶	-11.6382
稽顙	-11.6383
瀾	-11.6383
撾	-11.6383
疊	-11.6383
陁	-11.6383
媒	-11.6383
平東將軍	-11.6383
徐知證	-11.6384
觚	-11.6384
平昌公	-11.6385
埀	-11.6385
見而竒之	-11.6385
有善政	-11.6385
太原公纂	-11.6385
豳	-11.6385
鯉	-11.6385
屢立戰功	-11.6385
乂安州	-11.6385
燧	-11.6385
泫	-11.6385
因家焉	-11.6386
承制封拜	-11.6386
閻彧	-11.6386
王處囬	-11.6386
昝	-11.6386
受遺詔輔政	-11.6387
㤀	-11.6387
有父風	-11.6388
功居多	-11.6388
犄角	-11.6388
酣飲	-11.6388
洒	-11.6388
營田副使	-11.6388
錦袍	-11.6388
譁	-11.6388
仕宦	-11.6388
檮	-11.6388
府院君	-11.6388
帥騎二萬	-11.6389
沒奕干	-11.6389
緡帛	-11.6389
扎	-11.6389
莖	-11.6389
盧多遜	-11.6389
猖	-11.639
六年春三月	-11.639
僭稱尊號	-11.639
埃	-11.639
辛冉	-11.639
睹	-11.6391
庵	-11.6391
番禾	-11.6391
鎮南大將軍	-11.6391
興王府	-11.6391
狄伯支	-11.6391
王宗賀	-11.6391
噐	-11.6391
青泥嶺	-11.6391
溲	-11.6391
署置百官	-11.6391
傅𢎞之	-11.6391
馬軍都指揮使	-11.6392
鞵	-11.6392
沈林子	-11.6392
藹	-11.6392
載記作	-11.6392
茗	-11.6392
箱	-11.6393
朋黨	-11.6393
費禕	-11.6393
藪	-11.6393
桂陽王鎮	-11.6393
雛	-11.6394
殘虐	-11.6394
更今名	-11.6394
掣	-11.6395
江原人也	-11.6395
伍奢	-11.6395
皮光業	-11.6395
顓頊	-11.6395
億兆	-11.6395
陴	-11.6395
蒯	-11.6395
偈	-11.6396
邯鄲	-11.6396
王親廵	-11.6396
臧否	-11.6396
鐵劵	-11.6396
猴	-11.6396
馮翊太守	-11.6397
靜海軍	-11.6397
瓌智	-11.6397
許可瓊	-11.6397
莆田人	-11.6397
莞	-11.6398
有姿色	-11.6398
低	-11.6398
栽	-11.6398
貿易	-11.6398
丁部領	-11.6398
拍	-11.6399
犀象	-11.6399
义	-11.6399
劉牢之	-11.6399
縠	-11.6399
宋龍衮撰	-11.6399
綦母	-11.6399
進士及第	-11.6399
巔	-11.64
汲桑	-11.64
魁偉	-11.64
卨	-11.64
專恣	-11.64
破之必矣	-11.6401
瑟	-11.6401
咄	-11.6401
薩	-11.6401
籥	-11.6401
軒轅	-11.6401
澠池	-11.6401
弓弩	-11.6402
罔極	-11.6402
租税	-11.6402
蔬	-11.6402
竦	-11.6402
氐羗	-11.6402
鏘	-11.6402
焦朗	-11.6402
宝	-11.6402
綈	-11.6403
鴦	-11.6403
張佖	-11.6403
爵禄	-11.6404
公卿以下	-11.6404
頔	-11.6404
高郵	-11.6404
雷霆	-11.6405
突圍	-11.6405
陸游	-11.6405
莫大焉	-11.6405
皇太弟	-11.6406
鴻基	-11.6406
耘	-11.6407
縈	-11.6407
鮮卑烏丸	-11.6407
鐘鼓	-11.6407
銓注	-11.6408
邵續	-11.6408
席卷	-11.6408
驕縱	-11.6408
盡俘其衆	-11.6408
右賢王	-11.6408
廑	-11.6408
故有是命	-11.6409
死者萬餘人	-11.6409
赫連定	-11.6409
華陽國志	-11.6409
忠恕	-11.641
自娛	-11.6411
種𩔖	-11.6411
茍晞	-11.6411
聚衆數千	-11.6413
奚斤	-11.6413
婆羅門	-11.6413
楊璧	-11.6413
戕	-11.6414
江南國主	-11.6414
茵	-11.6418
鍵	-11.6418
承鈞	-11.6418
寶雞	-11.6419
困窮	-11.6419
歎息	-11.642
河内太守	-11.6421
賂遺	-11.6421
湼槃	-11.6422
刑罰	-11.6422
賢哲	-11.6424
焚掠	-11.6424
呂光	-11.6424
雨露	-11.6425
曹翰	-11.6428
波斯	-11.6428
先鋒指揮使	-11.6428
嫌疑	-11.6431
沿江	-11.6431
幼弱	-11.6431
甘露降	-11.6432
陷没	-11.6438
圖緯	-11.6442
越嶲太守	-11.6445
安逺軍	-11.645
羲廣	-11.6454
辭以疾	-11.6465
熟視	-11.6501
語人曰	-11.6511
霸王之	-11.6537
早除之	-11.6716
雒人也	-11.6757
碑記	-11.6813
戰敗績	-11.7054
孝王諱	-11.7076
同光三年	-11.7131
於秦秦	-11.717
伶	-11.7233
乗勝追	-11.7235
貢至元	-11.7241
千餘里	-11.7247
潞	-11.7254
娠	-11.7255
天徳帝	-11.7262
剏	-11.7264
方永珍	-11.7267
詎	-11.7269
爍	-11.7269
政隆寳應	-11.7269
淘	-11.7272
枳	-11.7272
沓	-11.7273
瑰	-11.7274
天下兵馬大元帥	-11.7275
杉	-11.7275
垂涕	-11.7276
潘炕	-11.7276
針	-11.7276
氐傁	-11.7276
灣	-11.7277
杳	-11.7277
讌羣臣於	-11.7277
榛	-11.7279
宣徽北院使	-11.728
刁彦能	-11.7281
西明門	-11.7281
裨将	-11.7282
烈祖輔吴	-11.7282
陳道庠	-11.7282
衿	-11.7283
穗	-11.7283
元敬皇后	-11.7283
珠翠	-11.7283
率騎一萬	-11.7283
塋	-11.7284
啄	-11.7284
崙	-11.7284
卜筮	-11.7285
􁍆	-11.7285
鋤	-11.7286
錫賚	-11.7286
擿	-11.7286
加九錫	-11.7286
館一日至	-11.7287
順存録	-11.7288
楹	-11.7288
郵	-11.7288
從王請也	-11.7288
副大使	-11.7289
潘叔嗣	-11.7289
耿先生	-11.7289
旃	-11.7289
逿	-11.7289
椀	-11.7289
荒滛	-11.729
挂	-11.729
砌	-11.729
未審是非	-11.729
徘徊	-11.729
蛟龍	-11.7291
為長夜之飲	-11.7291
山南東道節度使	-11.7291
雷彦恭	-11.7291
店	-11.7291
虺	-11.7292
勤政殿學士	-11.7292
籍其家	-11.7292
宜都王	-11.7292
擒其將	-11.7292
竒其才	-11.7292
輻	-11.7292
公孫五樓	-11.7292
合肥人	-11.7292
歸田里	-11.7292
大慈寺	-11.7292
㳺簡言	-11.7292
詣軍門	-11.7293
処	-11.7293
冗	-11.7293
翕	-11.7293
摩訶	-11.7293
湎	-11.7294
梨	-11.7294
十餘丈	-11.7294
獄訟	-11.7294
哥	-11.7294
虔	-11.7294
司馬休之	-11.7295
中書侍郎平章事	-11.7295
庻幾	-11.7295
脛	-11.7295
聮	-11.7295
熹	-11.7295
姓名曰王宗	-11.7296
線	-11.7296
樞密副使	-11.7296
深然之	-11.7296
晴	-11.7296
曁	-11.7296
槽	-11.7297
米志誠	-11.7297
鳩摩羅什	-11.7297
呉越國王	-11.7297
肘	-11.7297
培	-11.7297
棧	-11.7297
蕪湖	-11.7297
澈	-11.7298
牙内都指揮使	-11.7298
鞾	-11.7298
宄	-11.7298
潘崇徹	-11.7298
蔭	-11.7298
安南經畧	-11.7298
幕僚	-11.7298
彀	-11.7298
丹砂	-11.7298
梯航	-11.7298
覈	-11.7298
桀紂	-11.7299
丁夘	-11.7299
腰帶	-11.7299
壕	-11.7299
倉廩	-11.73
動揺	-11.73
霧四塞	-11.73
岐王茂貞	-11.73
纍	-11.73
鬛	-11.73
妃嬪	-11.73
恍	-11.73
仞	-11.73
珍玩	-11.73
鹵簿	-11.73
陬	-11.73
肉袒	-11.73
臨淄	-11.7301
雪峯	-11.7301
全活	-11.7301
僵	-11.7301
郿	-11.7301
硬	-11.7301
膠	-11.7301
仰天歎曰	-11.7301
越王𢎞昌	-11.7302
絆	-11.7302
畀	-11.7302
怵	-11.7302
剝	-11.7303
褁	-11.7303
鄊里	-11.7303
邅	-11.7303
西北隅	-11.7303
陳留王紹	-11.7303
柩前	-11.7304
赦其境内	-11.7304
不恤政事	-11.7304
殛	-11.7304
鉦	-11.7304
勇悍	-11.7304
㐲	-11.7305
執其手	-11.7305
核	-11.7305
開寳四年	-11.7305
上䇿也	-11.7306
胙	-11.7306
抛	-11.7306
㶚	-11.7306
蠕	-11.7306
鄣	-11.7306
偏禆	-11.7306
蒜	-11.7306
帷幄	-11.7307
詣軍門降	-11.7307
驕矜	-11.7307
太中大夫	-11.7307
梁中庸	-11.7307
昭武軍節度使	-11.7307
制誥	-11.7308
太原王恪	-11.7308
節旄	-11.7308
總攝	-11.7308
罸	-11.7308
安堵如故	-11.7308
魁梧	-11.7309
時不可失	-11.7309
逗	-11.7309
䘚年六十	-11.7309
孺贇	-11.7309
殿前指揮使	-11.7309
玉杯	-11.7309
翷	-11.7309
中黄門	-11.7309
僉議中贊	-11.7309
竅	-11.7309
徒跣	-11.731
姫	-11.731
祉	-11.7311
湍	-11.7311
皂	-11.7311
朱鳶	-11.7311
菴	-11.7312
髠	-11.7312
肱	-11.7313
吴武王	-11.7313
未之信	-11.7314
伏惟陛下	-11.7314
鍾允章	-11.7314
率步騎二萬	-11.7315
率騎三萬	-11.7315
太平興國二年	-11.7315
炯	-11.7315
鑄鐵錢	-11.7315
酺	-11.7316
叚遼	-11.7316
中山公虎	-11.7317
䝉塵	-11.7317
計倪對曰	-11.7317
櫂	-11.7317
祖逖	-11.7317
萬餘落	-11.7317
交錯	-11.7317
里東接	-11.7318
汰	-11.7318
頭陀	-11.7318
占候	-11.7319
藩屏	-11.7319
丞郎	-11.7319
鬼哭	-11.7319
裴憲	-11.732
驍果	-11.732
魂魄	-11.732
僣偽	-11.7322
庶㡬	-11.7322
簒奪	-11.7323
吏部郎中	-11.7323
饑寒	-11.7324
旺	-11.7325
響應	-11.7325
桓文之	-11.7328
鴉	-11.7329
乾寧二年	-11.733
宰樞	-11.7331
族其家	-11.7338
娥清	-11.7339
作色曰	-11.7343
王曰何謂	-11.7351
十日程	-11.7355
龍紀元年	-11.7367
髙祖第十	-11.7392
氏為太后	-11.742
震雷	-11.7436
帯一條	-11.7437
一百五十	-11.7489
千有餘	-11.749
語之曰	-11.7579
絶卷第十	-11.76
武安軍節度	-11.7653
種蠡	-11.7729
萬六千	-11.7799
千六百	-11.7803
若其不	-11.796
南唐書列傳卷苐十	-11.8117
大破之斬首	-11.8209
欽定四庫全書安南志畧卷	-11.8215
杏	-11.8221
為一次上	-11.8234
十六國春秋	-11.8237
恙	-11.8243
刎	-11.8254
佖	-11.8264
惙	-11.8269
賛正安國功臣	-11.827
複	-11.8271
盂	-11.8272
挑	-11.8272
談諧	-11.8272
廳	-11.8273
小長老	-11.8275
魏岑查文徽	-11.8276
棊	-11.8276
帙	-11.8276
従鎰	-11.8276
黑雲都	-11.8276
葱	-11.8277
垢	-11.8277
武泰節度使	-11.8277
軾	-11.8279
起復雲麾	-11.8279
齧	-11.828
貢其方物	-11.8281
別	-11.8281
秣	-11.8281
釜	-11.8282
豫州牧	-11.8282
丁徳裕	-11.8282
戡	-11.8283
橦	-11.8283
苑玫	-11.8283
毛文錫	-11.8283
斧鉞	-11.8283
陽苴哶城	-11.8284
楽	-11.8284
後唐中朝中朝中朝北漢	-11.8284
穰	-11.8284
㦯	-11.8284
傳璛	-11.8285
圻	-11.8285
鍪	-11.8285
天時人事	-11.8285
潾	-11.8286
旁若無人	-11.8286
馬歩軍都指揮使	-11.8286
欽定四庫全書十國春秋卷二十	-11.8287
溷	-11.8287
叩頭流血	-11.8287
称	-11.8287
不旋踵	-11.8287
苾	-11.8287
盱眙	-11.8287
十六國春秋卷八十	-11.8288
太白晝見	-11.8288
弢	-11.8288
紀事本末	-11.8288
鋸	-11.8288
𢎞倧	-11.8288
鍾泰章	-11.8288
号	-11.8289
錢三百萬	-11.8289
吴越天寳	-11.8289
瑙	-11.8289
翦	-11.8289
紫極宫	-11.8289
衆至數萬	-11.8289
曆	-11.8289
賙	-11.829
拱宸	-11.829
蠱	-11.829
努	-11.829
杵	-11.829
䴡	-11.829
咸師朗	-11.829
縱兵大掠	-11.829
髀	-11.829
糗	-11.8291
脊	-11.8291
姒	-11.8291
欽定四庫全書十國春秋卷三十	-11.8291
憒	-11.8291
蛟	-11.8291
輿地廣記	-11.8291
藩邸	-11.8292
水經註	-11.8292
羲寂	-11.8292
頤	-11.8292
萃	-11.8292
欽定四庫全書十國春秋卷十	-11.8292
􁇦	-11.8292
殊死已下	-11.8292
振旅而還	-11.8292
怱	-11.8292
汙	-11.8292
戱	-11.8292
䕫忠萬	-11.8292
痕	-11.8292
十國春秋卷九十	-11.8293
笠	-11.8293
扺	-11.8293
欽定四庫全書十國春秋卷七十	-11.8293
韓璞	-11.8293
剔	-11.8293
楊守厚	-11.8293
王公已下	-11.8293
元宗南遷	-11.8294
凟	-11.8294
建忠將軍	-11.8294
留之不遣	-11.8294
欽定四庫全書十國春秋卷九十	-11.8294
開封公詳	-11.8294
飱	-11.8294
筑	-11.8294
監修國史	-11.8295
䋲	-11.8295
袒	-11.8295
蔡儔	-11.8295
己夘	-11.8295
受遺輔政	-11.8295
沅	-11.8296
喑	-11.8296
沗	-11.8296
鐺	-11.8296
祜	-11.8296
後秦録	-11.8296
梁平老	-11.8296
愠	-11.8296
訢	-11.8296
弧	-11.8296
纉	-11.8296
爵闗内侯	-11.8297
韞	-11.8297
無二心	-11.8297
暄	-11.8297
三千餘户	-11.8297
供億	-11.8298
有憂色	-11.8298
櫛	-11.8298
惰	-11.8298
吕婆樓	-11.8298
大赦殊死已下	-11.8299
蔣琬	-11.8299
邾	-11.8299
圜	-11.8299
燄	-11.8299
璥	-11.8299
貊	-11.8299
劬	-11.83
丈八尺	-11.83
禺	-11.83
軼	-11.83
嚢	-11.83
大長秋	-11.83
十國春秋卷七十	-11.8301
哭之慟	-11.8301
娱	-11.8301
迂	-11.8301
陲	-11.8301
埒	-11.8301
氊	-11.8301
㺯	-11.8301
鷲	-11.8302
州保大九年取十年失	-11.8302
鞬	-11.8302
冺	-11.8302
憸	-11.8302
文安郡公	-11.8302
十國春秋卷五十	-11.8303
輔漢將軍	-11.8303
贐	-11.8303
洿	-11.8303
瘴癘	-11.8303
豬	-11.8303
故地也	-11.8303
進爵為王	-11.8303
太府卿	-11.8303
瑣	-11.8303
陳益稷	-11.8303
般	-11.8304
振武將軍	-11.8304
宫闈	-11.8304
䭾	-11.8304
馮跋	-11.8304
為親校	-11.8304
蠶桑	-11.8304
秦國太夫人	-11.8304
十六國春秋卷九十	-11.8305
鴨緑	-11.8305
率歩騎二萬	-11.8305
奥區	-11.8305
棋	-11.8305
盥	-11.8305
項羽	-11.8305
鳥獸	-11.8305
吞噬	-11.8305
帥騎五千	-11.8305
屑	-11.8305
司馬相如	-11.8305
幣帛	-11.8305
敢死士	-11.8306
盾	-11.8306
九年春二月	-11.8306
䕶𦍑校尉	-11.8306
欽定四庫全書江南野史卷	-11.8306
欽定四庫全書十國春秋卷六十	-11.8306
英武昭勝	-11.8306
疆場	-11.8306
訝	-11.8306
辛夘	-11.8307
晡	-11.8307
琪	-11.8307
湟河太守	-11.8307
左袵	-11.8307
斑	-11.8307
㸔	-11.8307
牝	-11.8307
泣涕	-11.8307
渡鴨緑江	-11.8308
蹂	-11.8308
欽定四庫全書十國春秋	-11.8308
翺	-11.8308
十國春秋卷六十	-11.8309
性至孝	-11.8309
荀鶴	-11.8309
阨	-11.8309
奢靡	-11.8309
唐樊綽撰	-11.8309
烏瑪喇	-11.831
欽定四庫全書蠻書卷	-11.831
在行間	-11.831
鏵	-11.831
前趙錄	-11.831
欽定四庫全書十國春秋卷八十	-11.831
衆大潰	-11.8311
奚念	-11.8311
尚書右丞	-11.8312
武昌軍節度使	-11.8312
解思明	-11.8312
更其名曰	-11.8312
今從五代史	-11.8313
怕	-11.8314
舉茂才	-11.8314
僇	-11.8314
玦	-11.8314
獷	-11.8315
咨嗟	-11.8315
芍	-11.8315
言於堅曰	-11.8316
歛曼嵬	-11.8316
死者數千人	-11.8316
真臘來貢	-11.8316
十六國春秋卷六十	-11.8317
修職貢	-11.8317
王不豫	-11.8318
鄧芝	-11.8318
跣足	-11.8318
鞘	-11.8319
禽獸	-11.8319
燿	-11.832
崗	-11.832
樂安王臧	-11.832
沃沮	-11.832
躋	-11.8321
瞑目	-11.8321
崔沆	-11.8321
案此句	-11.8322
嚕	-11.8323
湜	-11.8324
盧諶	-11.8324
桶	-11.8325
咸和八年	-11.8327
陳太王	-11.8329
氈	-11.8329
遣大夫阮	-11.8335
叱之曰	-11.8339
南郊大赦改元	-11.8347
龍興寺	-11.8358
欽定四庫全書十六國春秋卷七十	-11.8388
欽定四庫全書十六國春秋卷八十	-11.8391
後唐同光	-11.8405
欽定四庫全書十六國春秋卷九十	-11.8406
欽定四庫全書十六國春秋卷六十	-11.8454
稱大號	-11.8483
陸費墀欽定四庫全書	-11.8556
十國春秋卷三十	-11.8558
一千五百	-11.8843
十萬斛	-11.9127
欽定四庫全書安南志畧卷十	-11.922
隍	-11.9364
出連䖍	-11.9377
膓	-11.9381
韋昭度	-11.9382
蒯鼇	-11.9382
養以為子	-11.9383
牖	-11.9383
礎	-11.9383
全琇	-11.9384
始安王曜	-11.9386
得賢門	-11.9386
詼	-11.9386
胖	-11.9387
乞得歸	-11.939
左傳昭公	-11.939
宕	-11.9391
堞	-11.9391
阬	-11.9392
徂	-11.9392
武寧軍節度使	-11.9392
行營都招討	-11.9393
幙	-11.9393
倪可福	-11.9393
梧桐	-11.9393
許文縝	-11.9393
芬	-11.9394
領縣七	-11.9394
督郵	-11.9394
愜	-11.9394
吻	-11.9394
有雋才	-11.9395
煎	-11.9395
楚楚楚楚周行逢	-11.9395
衘	-11.9395
成固人也	-11.9395
卲	-11.9396
好事者	-11.9396
冬十有二月	-11.9396
乍	-11.9396
羈旅	-11.9396
檢討吳任臣撰後蜀	-11.9396
槎	-11.9397
穫	-11.9397
籓	-11.9397
審邽	-11.9398
巫覡	-11.9398
燬	-11.9398
判六軍諸衛事	-11.9398
西涼李暠	-11.9398
鎮北大將軍	-11.9398
􁥃	-11.9398
倧	-11.9398
憩	-11.9398
天威軍都虞候	-11.9398
􁂍	-11.9398
㢠廻	-11.9399
馮𢎞鐸	-11.9399
蘿	-11.9399
驄	-11.9399
姑蘓	-11.9399
棣	-11.9399
㒒射	-11.9399
洊	-11.9399
蹔	-11.9399
欽定四庫全書十國春秋卷五十	-11.9399
清河王法	-11.9399
王宗翰	-11.94
擎	-11.94
索綝	-11.94
太極殿	-11.94
猩	-11.94
寰宇	-11.94
武寧節度使	-11.9401
慄	-11.9401
赭	-11.9401
戸部尚書	-11.9401
赴水死	-11.9401
彰聖嘉慶	-11.9401
逷	-11.9401
八分書	-11.9401
扞禦	-11.9402
宋將潘美	-11.9402
湮	-11.9402
跽	-11.9402
多才藝	-11.9402
扃	-11.9402
沽	-11.9402
佾	-11.9402
包茅	-11.9403
謇	-11.9403
襁負	-11.9403
仕後主為	-11.9403
髭	-11.9403
去縣二十里	-11.9403
舄	-11.9403
著作佐郎	-11.9403
殿中丞	-11.9404
欲改嫁	-11.9404
嬰城自守	-11.9404
廏	-11.9404
塡	-11.9404
詈	-11.9404
後燕録	-11.9404
仁夀節	-11.9404
笄	-11.9404
紋	-11.9404
恡	-11.9405
俳優	-11.9405
卉	-11.9405
涌	-11.9405
捧聖控鶴都指揮使	-11.9405
訕	-11.9405
仰仁詮	-11.9405
居中用事	-11.9405
李克用	-11.9405
二子長曰	-11.9406
眺	-11.9406
儗	-11.9406
大理司直	-11.9406
遣間使	-11.9406
年十嵗	-11.9406
豊	-11.9406
欽定四庫全書十六國春秋卷四十	-11.9406
佻	-11.9407
嘻	-11.9407
斁	-11.9407
觀軍容使	-11.9407
㴶	-11.9407
舉城降	-11.9407
西京留守	-11.9407
張少敵	-11.9408
以位讓	-11.9408
貓	-11.9408
瑭	-11.9408
悒	-11.9408
徐鉉徐鍇	-11.9408
疆埸	-11.9408
諴	-11.9408
燃燈	-11.9409
喘	-11.9409
前秦録	-11.9409
爼	-11.941
褰	-11.941
八年春二月	-11.941
襲偽位	-11.941
劼	-11.941
車騎大將軍開府儀同三司	-11.941
銶	-11.941
偪	-11.941
見而異之	-11.9411
禰	-11.9411
麝香	-11.9411
諍	-11.9411
姙	-11.9411
率所領	-11.9411
僭即天王位	-11.9411
包胥	-11.9412
龍武統軍	-11.9412
大僚班	-11.9412
姐	-11.9412
蓐	-11.9412
逍遥園	-11.9412
鞅	-11.9412
固始人	-11.9412
橫	-11.9412
得士心	-11.9413
舟檝	-11.9413
蹶	-11.9413
文克謙	-11.9414
偏裨	-11.9414
太子詹事	-11.9414
岏	-11.9414
中堅將軍	-11.9414
悸	-11.9414
同參相府事	-11.9415
于功臣堂	-11.9415
造刀一口	-11.9415
金紫光祿大夫	-11.9415
鳳陽門	-11.9415
句驪	-11.9416
言於垂曰	-11.9416
壙	-11.9416
莘	-11.9416
妺	-11.9416
射聲校尉	-11.9417
彎弓	-11.9417
斟	-11.9417
章武王宙	-11.9417
牁	-11.9417
腴	-11.9418
茹	-11.9418
街巷	-11.9418
鎚	-11.9418
彼衆我寡	-11.9418
國計使	-11.9418
犧	-11.9418
鱠	-11.9418
堙	-11.9419
謾	-11.9419
總百揆	-11.9419
崤	-11.9419
廣西轉運使	-11.9419
之甥也	-11.9419
幃	-11.9419
牂	-11.942
烏合之衆	-11.942
撿	-11.942
所恃者	-11.9421
捽	-11.9421
瀬	-11.9421
禾稼	-11.9421
恂恂	-11.9421
上品奉御	-11.9421
匐	-11.9422
璆	-11.9422
龍符元化	-11.9422
繒帛	-11.9422
䙝	-11.9422
羅浮山	-11.9422
立大功	-11.9422
茨	-11.9423
黛	-11.9423
醼	-11.9423
机	-11.9424
椁	-11.9424
廢王希廣	-11.9424
扄	-11.9425
宇文逸豆歸	-11.9425
權漢功	-11.9426
牛頭山	-11.9427
蹴	-11.9427
魅	-11.9427
檐	-11.9429
佯狂	-11.9429
倒戈	-11.943
武王伐紂	-11.943
胡翼度	-11.943
蕪	-11.9431
㔨	-11.9431
楛	-11.9433
江南别録	-11.9434
彿	-11.9434
脯	-11.9434
莋	-11.9435
佇	-11.9436
達嚕噶齊	-11.9436
跌	-11.9438
酗	-11.9439
以疾卒	-11.944
摹	-11.9442
色不變	-11.9443
璇	-11.9444
慶尚道	-11.9446
騭	-11.9446
竩	-11.9462
㑹祥大慶	-11.9465
𢎞始十	-11.95
為勒所	-11.9523
等軍莭度	-11.9536
為萇所	-12.005
五欽定四庫全書十六國春秋卷	-12.0351
薨年四十	-12.0587
硤	-12.0612
裨	-12.0613
日詔王宴于	-12.0614
凄	-12.0617
哶羅皮	-12.0619
曮	-12.0622
紬	-12.0626
槌	-12.0628
遊奕使	-12.0631
顧彦朗	-12.0632
點	-12.0634
僰	-12.0635
蒐	-12.0636
思復鞬	-12.0636
珖	-12.0636
塚	-12.0637
漒	-12.0637
充官告使	-12.0638
將作監	-12.0638
訶	-12.0638
為流矢所中	-12.0638
鍾謨李徳明	-12.0638
不拘小節	-12.0639
劉崇俊	-12.0639
太極前殿	-12.0639
呉越呉越呉越呉越呉越	-12.0639
墉	-12.064
觀察處置	-12.064
梁開平元年	-12.064
邽	-12.064
鴛鴦	-12.064
祼	-12.0641
絮	-12.0641
加王食邑一千户實封	-12.0641
阪	-12.0642
王食邑一萬户實封一千户	-12.0642
鍔	-12.0642
葩	-12.0642
孫漢韶	-12.0643
簀	-12.0643
傘	-12.0643
林西原	-12.0643
洶	-12.0643
行唐公洛	-12.0643
彝	-12.0644
陸孟俊	-12.0644
監門衛將軍	-12.0644
忉	-12.0645
永壽殿	-12.0645
浙將顧全武	-12.0645
頁	-12.0645
郾	-12.0645
液	-12.0645
時来屬	-12.0645
攄	-12.0645
楊守亮	-12.0645
步兵校尉	-12.0645
糧運不繼	-12.0645
長春宫	-12.0646
不知何地人	-12.0647
鉗	-12.0647
覬覦	-12.0647
孟賓于	-12.0647
胃	-12.0647
瀝	-12.0647
禿	-12.0647
善属文	-12.0647
千户實封五百户	-12.0647
湫	-12.0647
冬十有一月	-12.0647
李仁矩	-12.0647
宣徽南院使	-12.0648
噍	-12.0648
李奎報	-12.0648
屯騎校尉	-12.0648
歐陽炯	-12.0649
贊正安國功臣	-12.0649
猶豫未决	-12.0649
上清宫	-12.0649
匙	-12.065
蘭滄江	-12.065
咸熈元年	-12.0651
訐	-12.0651
鴿	-12.0651
妍	-12.0651
本使蔡襲	-12.0651
竟陵太守	-12.0651
盧瓊仙	-12.0652
謂使者曰	-12.0652
廣威將軍	-12.0652
睂	-12.0652
翟瑥	-12.0652
鰌	-12.0652
逭	-12.0652
鑑戒録	-12.0652
騶	-12.0652
鶻	-12.0653
舖	-12.0653
伉	-12.0653
洫	-12.0653
臧莫孩	-12.0653
孩	-12.0653
恭穆夫人	-12.0653
家給人足	-12.0654
徐延瓊	-12.0654
犇	-12.0654
匕	-12.0654
日有食之	-12.0654
躔	-12.0654
有美色	-12.0654
康延孝	-12.0654
酥	-12.0654
鎗	-12.0655
㓛	-12.0655
宗勲等	-12.0655
馬全節	-12.0656
璀	-12.0656
䄂	-12.0656
欽定四庫全書十國春秋卷四十	-12.0656
狃	-12.0656
文明殿	-12.0656
艸	-12.0656
内樞使	-12.0656
鑣	-12.0656
磚	-12.0656
狷	-12.0656
鈆	-12.0656
諮議堂	-12.0656
臨川王濛	-12.0656
後趙錄	-12.0657
讖	-12.0657
砥	-12.0657
璫	-12.0657
李義旼	-12.0658
祲	-12.0658
葵藿	-12.0658
净	-12.0658
有膽氣	-12.0658
將作大匠	-12.0658
鵞	-12.0658
暹	-12.0658
乘輿服御	-12.0658
計無所出	-12.0658
炫	-12.0658
僖宗幸蜀	-12.0659
乾隆四十六年	-12.0659
我之仇讐	-12.0659
囷	-12.0659
螭	-12.066
踊躍	-12.066
哺	-12.066
拷	-12.066
扉	-12.066
估	-12.066
痊	-12.066
箔	-12.066
馬一匹	-12.066
今姑從	-12.066
知福州彰武軍事	-12.066
清河東武城人	-12.066
崛	-12.066
巍巍	-12.0661
孜孜	-12.0661
罩	-12.0661
封王為南平王	-12.0661
郞	-12.0661
曇無䜟	-12.0661
鰲	-12.0661
欝	-12.0662
滹	-12.0662
卻	-12.0662
澠	-12.0662
龍武軍	-12.0662
坵	-12.0662
摯	-12.0662
迓	-12.0662
嚙	-12.0662
拜授各有差	-12.0662
碧波亭	-12.0662
鶉	-12.0662
冏	-12.0662
摠	-12.0662
苕	-12.0662
䌓	-12.0663
町	-12.0663
汁	-12.0664
旬月之間	-12.0664
徳昌宫	-12.0664
婭	-12.0664
鄭道𫝊	-12.0664
自相魚肉	-12.0664
衽	-12.0664
逯	-12.0664
畿甸	-12.0665
祕書郎	-12.0665
肺腑	-12.0665
刈	-12.0665
潄	-12.0665
梔	-12.0665
痍	-12.0665
邛	-12.0665
綦	-12.0665
有征無戰	-12.0665
華嚴經	-12.0665
甚器重之	-12.0666
積功為	-12.0666
頹	-12.0666
藿	-12.0666
大司成	-12.0666
卿以為何如	-12.0666
璨	-12.0666
狼子野心	-12.0667
團柏	-12.0667
蜑	-12.0667
漚	-12.0667
閶闔	-12.0667
䦧	-12.0667
樞宻院事	-12.0667
醇	-12.0667
貿	-12.0668
驂	-12.0668
獻白象	-12.0668
屛	-12.0668
捫	-12.0669
入其境	-12.0669
楯	-12.0669
不足憂也	-12.0669
絡繹	-12.0669
搥	-12.0669
旼	-12.067
以小事大	-12.067
十室而九	-12.067
吉州刺史彭玕	-12.067
慾	-12.067
忡	-12.067
彎	-12.067
䰟	-12.0671
瀕	-12.0671
其鋒不可當	-12.0671
肘腋	-12.0671
悔將何及	-12.0671
鷙	-12.0672
玷	-12.0672
陳霸先	-12.0672
遣督護	-12.0672
腆	-12.0673
越舊經	-12.0673
纘	-12.0674
壺漿	-12.0674
資中人也	-12.0675
貔	-12.0675
党	-12.0676
觝	-12.0676
蠙	-12.0676
䜿	-12.0677
劉敬宣	-12.0677
傕	-12.0677
當是之時	-12.0677
甍	-12.0678
索隠曰	-12.0678
芉	-12.0679
洪子藩	-12.0679
綧	-12.0679
癡	-12.068
仭	-12.068
唐書南詔傳	-12.0683
抃	-12.0684
哩	-12.0684
邰	-12.0685
彷	-12.0686
撮	-12.0686
礙	-12.0689
遣使如遼	-12.069
何患不	-12.069
擴	-12.0693
睛	-12.0699
昔者越王句踐	-12.0703
撝	-12.0704
貨之户曰	-12.0705
悉獨官	-12.0726
為劉裕所	-12.0754
州牧劉璋	-12.085
右武衛	-12.1016
年四十九	-12.1605
陸費墀	-12.1682
金𬗋光祿大夫	-12.1684
三欽定四庫全書十六國春秋卷	-12.177
騖	-12.1815
蝦	-12.2034
􁳖	-12.2041
雹	-12.2048
諺	-12.2054
詁	-12.2055
銑	-12.2055
崑	-12.2057
賜王湯薬	-12.2058
籖	-12.2058
盧水胡	-12.2061
北宫純	-12.2061
俳	-12.2061
開平四年	-12.2062
兕	-12.2063
殪	-12.2063
㝢	-12.2063
曜武將軍	-12.2064
掉	-12.2064
姬生宗	-12.2064
通鑑考異	-12.2064
歐冶子	-12.2065
南詔䝉異牟尋	-12.2065
潼	-12.2066
椅	-12.2066
歐史職方	-12.2066
訂	-12.2066
泰寧軍節度使	-12.2066
鯢	-12.2066
憊	-12.2067
杼	-12.2067
詹敦仁	-12.2067
窠	-12.2068
義陽王鑒	-12.2068
軋	-12.2068
國子司業	-12.2068
奉國軍節度使	-12.2068
亹亹	-12.2068
瀨	-12.2068
笋	-12.2068
踊	-12.2068
劒州刺史陳誨	-12.2068
肺	-12.2069
暈	-12.2069
趙仁澤	-12.2069
崇興大寳	-12.207
睠	-12.207
㟁	-12.207
蚌	-12.207
﨑	-12.207
𫀆	-12.207
鎮西将軍	-12.2071
順聖太后	-12.2071
潞王從珂	-12.2071
芋	-12.2071
缾	-12.2071
循王𢎞杲	-12.2071
憝	-12.2072
黼	-12.2072
樊若水	-12.2072
王乞基	-12.2072
蓺	-12.2072
托多爾	-12.2072
采石磯	-12.2073
娑	-12.2073
梏	-12.2073
廖匡圖	-12.2073
即天王位	-12.2074
啞	-12.2074
煖	-12.2074
兜	-12.2074
羕	-12.2074
忷	-12.2074
驛四十里至	-12.2074
敇	-12.2074
賜紫金魚袋	-12.2075
慱	-12.2075
靦	-12.2075
䲭	-12.2075
運厯圖	-12.2075
堕	-12.2075
麄	-12.2076
璹	-12.2076
福慶長公主	-12.2076
置秀州	-12.2076
兀	-12.2076
威勝軍	-12.2076
畚鍤	-12.2076
簪	-12.2076
綃	-12.2076
箇	-12.2076
事無大小	-12.2077
帆	-12.2077
槁	-12.2077
元宗遷南都	-12.2077
鼙	-12.2078
張全約	-12.2078
斸	-12.2078
李芳實	-12.2078
東都事畧	-12.2078
畤	-12.2078
蓍	-12.2078
踪	-12.2078
河内王粲	-12.2078
食邑五百户	-12.2078
宰相王鍇	-12.2079
秘不發䘮	-12.2079
沭	-12.2079
伊霍之	-12.2079
碕	-12.2079
踶	-12.208
白虹貫日	-12.208
其相吕嘉	-12.208
詗	-12.208
即位於柩前	-12.208
申漸髙	-12.2081
終于其職	-12.2081
醪	-12.2081
人無知者	-12.2081
璲	-12.2081
窋	-12.2081
瀧	-12.2081
民甚苦之	-12.2082
厦	-12.2082
彜	-12.2082
袵	-12.2082
劈	-12.2082
皁	-12.2082
勦	-12.2082
慕容延釗	-12.2082
隟	-12.2082
廣武公傉檀	-12.2082
胤	-12.2082
知勁草	-12.2083
遣通事舍人	-12.2083
官職都	-12.2083
岫	-12.2083
眭	-12.2083
締	-12.2083
怤	-12.2083
未之有也	-12.2083
前燕録	-12.2084
厓	-12.2084
水丘昭劵	-12.2084
鎭軍將軍	-12.2084
㲄	-12.2084
大赦境内殊死以下	-12.2084
鈹	-12.2084
思潮等	-12.2084
薇	-12.2084
太府主簿	-12.2084
㓙	-12.2085
秋毫不犯	-12.2085
袪	-12.2085
史守冲	-12.2085
藎	-12.2085
燋	-12.2085
收散卒	-12.2085
懌	-12.2085
莵	-12.2085
亂臣賊子	-12.2086
甎	-12.2086
丰	-12.2086
穽	-12.2086
其外郛	-12.2086
平昌王菁	-12.2086
翥	-12.2086
饟	-12.2086
穏	-12.2087
曹敏脩	-12.2087
􁎘	-12.2087
􁈯	-12.2087
丱	-12.2087
徐天祜	-12.2088
㰱	-12.2088
榼	-12.2088
醢	-12.2088
龍瑞太平	-12.2088
鴨	-12.2088
髙祖鎮西川	-12.2088
筐	-12.2088
闥	-12.2088
冗從僕射	-12.2088
献	-12.2088
巋	-12.2088
瘍	-12.2088
知證知諤	-12.2088
羑	-12.2089
霅	-12.2089
加食邑一千户實封一百户	-12.2089
前凉録	-12.2089
厝	-12.209
千牛備身	-12.209
愿	-12.209
倔	-12.209
縲	-12.209
釀	-12.209
龐	-12.2091
判度支	-12.2091
盼	-12.2091
兵不血刃	-12.2091
埭	-12.2091
崇文耀武宣徳守道	-12.2091
枕戈待旦	-12.2091
訹	-12.2091
訾	-12.2091
聖尊后	-12.2091
趾	-12.2091
當此之時	-12.2092
遨	-12.2092
北夢瑣言	-12.2092
手不釋卷	-12.2092
䨇	-12.2092
亡無日矣	-12.2093
颺	-12.2093
有條理	-12.2093
苧	-12.2093
擄	-12.2093
􁄭	-12.2093
笙	-12.2093
詿	-12.2093
稿	-12.2094
欹	-12.2094
螫	-12.2094
瑪哈穆特	-12.2094
蝟	-12.2094
仿	-12.2094
閠	-12.2095
拽	-12.2095
无	-12.2095
蛤	-12.2095
澶	-12.2095
椽	-12.2095
猶豫未決	-12.2095
拓俊京	-12.2095
驁	-12.2096
脣	-12.2096
膂	-12.2096
湄	-12.2096
慊	-12.2096
磊	-12.2096
鄨	-12.2096
夹	-12.2096
惟陛下圖之	-12.2096
玷蒼山	-12.2096
隧	-12.2097
負殊曰	-12.2097
遡	-12.2098
覬	-12.2098
長圍守之	-12.2098
鮮于亮	-12.2098
贏	-12.2099
蹋	-12.2099
絰	-12.2099
南海王法	-12.2099
侄	-12.2099
荐	-12.21
梢	-12.21
嶢	-12.21
抉	-12.21
鏃	-12.21
喝	-12.21
埸	-12.21
屩	-12.2101
秘不發喪	-12.2101
嫂	-12.2102
湔	-12.2102
立功立事	-12.2102
瞋目叱之	-12.2102
鎮肥如	-12.2104
倅	-12.2104
楊佺期	-12.2105
𤯝	-12.2105
金湯之固	-12.2105
圮	-12.2106
勇冠三軍	-12.2106
康延澤	-12.2106
姜邯贊	-12.2107
囉	-12.2107
寯	-12.2107
昕	-12.2108
佉	-12.2108
拆	-12.2108
透	-12.2108
諝	-12.2109
東瀛公騰	-12.2112
􁁓	-12.2113
厙	-12.2114
西洱河	-12.2115
京山府	-12.2116
椒丘訢	-12.2116
簽	-12.2118
畚	-12.2121
伏利度	-12.2121
一百一十	-12.2123
懶	-12.2123
彘	-12.2123
舩	-12.2129
鄩	-12.2135
諹	-12.2138
天符睿武	-12.2163
案原本	-12.2505
冡也去縣	-12.3328
龍徳二年	-12.3437
武平軍節度	-12.363
天感聖武	-12.3707
娛	-12.3713
楊廷式	-12.3713
簇	-12.3713
殤	-12.3715
价	-12.3719
謜	-12.372
剌	-12.3721
樹洛干	-12.3721
東海鯉魚飛上天	-12.3722
夸	-12.3722
猱	-12.3724
墊	-12.3724
滇	-12.3725
杪	-12.3725
潢	-12.3726
礟	-12.3727
啜	-12.3727
𦕈	-12.3728
珮	-12.3728
巂	-12.3729
秘書少監	-12.3729
盛邏皮	-12.3729
𨼆	-12.373
嘘	-12.373
屐	-12.373
騮	-12.3731
嵇	-12.3731
鵰	-12.3732
噀	-12.3732
金百鎰	-12.3733
躶	-12.3733
彌牟鎮	-12.3734
萼	-12.3734
户實封二百户	-12.3735
樂平王苞	-12.3735
覦	-12.3735
陳洪進執紹鎡	-12.3736
朶	-12.3736
晝夜兼行	-12.3736
疥	-12.3736
緫	-12.3736
染院使	-12.3737
霆	-12.3737
艛	-12.3737
鑛	-12.3737
大饗將士	-12.3737
臆	-12.3737
鄘	-12.3738
裾	-12.3738
綻	-12.3738
雩	-12.3738
薛氏舊五代史	-12.3738
宸衛都	-12.3738
左軍將軍竇衝	-12.3739
凛	-12.374
泪	-12.374
翎	-12.374
自求多福	-12.374
噫	-12.3741
引水灌城	-12.3741
暀	-12.3741
宷	-12.3741
上表稱賀	-12.3742
􁅳	-12.3742
康化軍節度使	-12.3742
隨才擢叙	-12.3742
葭	-12.3742
都督征討諸軍事	-12.3743
餔	-12.3743
樂平王丕	-12.3743
不事産業	-12.3743
甆	-12.3743
唁	-12.3743
紡	-12.3743
阡	-12.3743
事無巨細	-12.3743
弄棟城	-12.3744
都督隴右諸軍事	-12.3744
幟	-12.3744
堇	-12.3744
怛	-12.3744
為使持節侍中都督中外諸軍	-12.3744
譚紫霄	-12.3744
賕	-12.3744
金花銀器	-12.3744
嬌	-12.3744
錬	-12.3744
耑	-12.3744
薨年五十	-12.3744
踴	-12.3745
吭	-12.3745
皖	-12.3745
酪	-12.3746
骰	-12.3746
上皇帝尊號	-12.3746
氐符成隗	-12.3746
不著撰人名氏	-12.3746
州辟從事	-12.3746
鬪	-12.3746
固壘不戰	-12.3747
洹	-12.3747
脉	-12.3747
楸	-12.3747
華林園	-12.3747
顰	-12.3747
媧	-12.3747
臉	-12.3747
閻負梁殊	-12.3747
􁗁	-12.3747
駰	-12.3748
水陸並進	-12.3748
奮威將軍	-12.3748
曠日持久	-12.3748
使持節散騎常侍都督	-12.3748
忩	-12.3748
毀	-12.3748
沴	-12.3748
貰	-12.3748
四星聚斗	-12.3748
琠	-12.3749
下邳王厲	-12.3749
鸛	-12.3749
開國侯食邑	-12.3749
証	-12.3749
冠絶一時	-12.3749
趙匡贊	-12.3749
保大三年取	-12.3749
沈韜文	-12.3749
凜	-12.375
蛻	-12.375
花蕋夫人	-12.375
絶憐愛之	-12.375
鈇	-12.375
喚	-12.375
炊	-12.3751
吼	-12.3751
謳	-12.3751
紘	-12.3751
檢校太師守中書令	-12.3751
捭	-12.3751
个	-12.3751
􁒏	-12.3751
丏	-12.3751
迯	-12.3751
嗔	-12.3751
未之許也	-12.3752
墅	-12.3752
撑	-12.3752
瀚	-12.3752
𡨕	-12.3752
治平龍應	-12.3752
計將安出	-12.3752
濞	-12.3752
恇	-12.3753
賮	-12.3753
轟	-12.3753
吳越國王錢俶	-12.3753
務農訓兵	-12.3753
涎	-12.3753
金得培	-12.3753
天彰寳嗣	-12.3753
至元甲申冬	-12.3754
鄞	-12.3754
酧	-12.3754
嚼	-12.3754
劍南西川節度使	-12.3754
蠅	-12.3754
㷀	-12.3754
蠢	-12.3754
耕籍田	-12.3754
重三銖	-12.3754
虎賁中郎將	-12.3755
姹	-12.3755
緄	-12.3755
㮣	-12.3755
轉禍為福	-12.3755
遒	-12.3755
靑	-12.3755
􁩞	-12.3755
李金全為北面行營招討使	-12.3755
廨	-12.3756
瑫	-12.3756
倍道兼行	-12.3756
在㑹稽縣東	-12.3756
灃	-12.3756
鈕	-12.3756
隲	-12.3756
揭	-12.3756
濩	-12.3757
蜃	-12.3757
贑	-12.3757
幔	-12.3757
氓	-12.3757
痛心疾首	-12.3757
足食足兵	-12.3757
東北面兵馬使	-12.3758
椰	-12.3758
略陽氐人也	-12.3758
吸	-12.3758
攫	-12.3758
濊	-12.3758
泠	-12.3758
蜕	-12.3759
娼	-12.3759
薛崇譽	-12.3759
淐	-12.3759
孳	-12.3759
擠	-12.3759
瞬	-12.3759
遹	-12.376
鑪	-12.376
齠	-12.376
尖	-12.376
清異錄云	-12.376
鴞	-12.3761
無乃不可乎	-12.3761
卓儼明	-12.3761
懟	-12.3761
路不拾遺	-12.3761
春申君所造	-12.3761
勣	-12.3762
爝	-12.3762
窓	-12.3762
嶂	-12.3763
掬	-12.3763
丧	-12.3763
駑	-12.3763
宋師圍金陵	-12.3764
厈	-12.3764
盟國人於龍墀	-12.3764
顧在珣	-12.3764
瓮	-12.3764
長寧侯祚	-12.3764
誦法華經	-12.3764
高句驪王釗	-12.3764
李處耘	-12.3764
鉏	-12.3764
苒	-12.3765
縶	-12.3766
眄	-12.3766
手垂過膝	-12.3766
置守宰以撫之	-12.3766
菲	-12.3766
刮	-12.3766
秉國鈞	-12.3766
漱	-12.3766
樵採路絶	-12.3767
芳林園	-12.3767
簞	-12.3767
芹	-12.3767
彚	-12.3767
舛	-12.3767
禹𤣥寶	-12.3767
務銀提	-12.3767
喙	-12.3768
闍	-12.3768
吊	-12.3768
兼弱攻昧	-12.3768
廢朝七日	-12.3768
讟	-12.3769
悉羅騰	-12.3769
懣	-12.3771
李燾續	-12.3771
孝獻世子	-12.3771
晬	-12.3772
不勝其忿	-12.3772
臼	-12.3772
楫	-12.3773
皐	-12.3774
縋	-12.3774
哀毁過禮	-12.3774
鈿	-12.3775
君臨萬邦	-12.3776
賃	-12.3776
司天少監	-12.3776
車騎將軍王堪	-12.3776
近肖古	-12.3777
飡	-12.3777
武威姑臧人	-12.3778
刦	-12.3778
欽惟皇帝陛下	-12.3778
諏	-12.3779
秦餘杭山	-12.3779
太原王楷為	-12.3781
鰥寡孤獨	-12.3781
年春丞相亮	-12.3783
画	-12.3783
郝貴超	-12.3787
檜	-12.3788
𤣥莵太守	-12.379
北夢𤨏言	-12.3791
赧	-12.3792
碍	-12.3792
清平官大軍將	-12.3795
蜋	-12.3795
謖	-12.3798
橈	-12.3804
年王薨太子	-12.3813
杙	-12.3817
䘚年四十	-12.4484
氣在前將	-12.569
氣在後將	-12.569
醖	-12.5709
玘	-12.5711
㟭	-12.5712
姨	-12.5712
剉	-12.5712
鑠	-12.5713
樛	-12.5713
蒻	-12.5714
鋩	-12.5718
犀角象牙	-12.5719
抹	-12.5721
繭	-12.5723
煨	-12.5724
霾	-12.5724
籩	-12.5725
琲	-12.5726
淩	-12.5727
噱	-12.5727
亀	-12.5727
泫然流涕	-12.5727
廣成先生杜光庭	-12.5728
睚	-12.5728
眦	-12.5729
庚癸之亂	-12.5729
膜	-12.5729
蕋	-12.5729
霓裳羽衣	-12.573
嘿	-12.573
死傷大半	-12.573
南楚國公從善	-12.5731
遇賢據白雲洞	-12.5731
酒一百瓶	-12.5731
摽	-12.5731
醋	-12.5732
曰東海役臣	-12.5732
勰	-12.5732
增食邑二千户實封	-12.5733
瘦	-12.5733
竆	-12.5733
節度觀察留後	-12.5733
磽	-12.5733
壌	-12.5735
斬首數千級	-12.5735
薈	-12.5735
隴西狄道人也	-12.5735
甚見親重	-12.5735
領䕶匈奴中郎將	-12.5735
澌	-12.5735
苧蘿山	-12.5735
瞋	-12.5735
南唐升為縣	-12.5735
繚	-12.5736
戰艦五百艘	-12.5736
緱	-12.5736
聱	-12.5736
楀	-12.5736
碗	-12.5736
翃	-12.5736
金吾衛大将軍	-12.5736
坐細思量	-12.5736
蠏	-12.5736
踣	-12.5737
窑	-12.5737
兊	-12.5737
兌	-12.5737
檢討吳任臣撰南唐十	-12.5737
路振九國志	-12.5737
傉	-12.5737
渺	-12.5737
幌	-12.5738
旤	-12.5738
一匹金鍍	-12.5738
涙	-12.5739
察孝廉	-12.5739
喫	-12.5739
偘	-12.5739
洱	-12.574
僥	-12.574
孱	-12.574
保儀黄氏	-12.574
瓷	-12.574
蒭	-12.574
勺	-12.574
挟	-12.574
褻	-12.574
𥚹	-12.574
娟	-12.574
漾	-12.574
迦	-12.5741
浿	-12.5741
菊	-12.5741
聪	-12.5741
讋	-12.5741
天下兵馬都元帥尚父尚書令吳越國王	-12.5741
篾	-12.5741
降爵為公	-12.5741
脈	-12.5742
祛	-12.5742
通鑑綱目	-12.5742
宋勾延慶撰	-12.5742
瞰	-12.5742
𣏌	-12.5742
未詳孰是	-12.5743
蛑	-12.5743
蝤	-12.5743
徊	-12.5743
揜	-12.5743
遣司農卿盧蘋	-12.5743
絜	-12.5743
均王友貞	-12.5743
推為盟主	-12.5743
乃祖乃父	-12.5744
躪	-12.5744
矗	-12.5744
庾凝績	-12.5744
掊	-12.5744
萸	-12.5744
藂	-12.5744
詛	-12.5744
同惡相濟	-12.5744
荻	-12.5744
嶫	-12.5745
澍	-12.5745
媼	-12.5745
迍	-12.5745
叵	-12.5745
嵒	-12.5745
酆	-12.5745
齪	-12.5745
昃	-12.5745
梃	-12.5745
爲武清軍節度使	-12.5745
紀年通譜	-12.5745
屨	-12.5745
瘵	-12.5746
絀	-12.5746
甑	-12.5746
酤	-12.5746
􁃻	-12.5746
儆	-12.5746
縝	-12.5746
逹嚕噶齊	-12.5746
奉鑾肅衛都指揮	-12.5746
摧枯拉朽	-12.5746
輳	-12.5747
恩禮有加	-12.5748
拭	-12.5748
襯	-12.5748
不茹葷	-12.5748
竂	-12.5748
袗	-12.5748
櫳	-12.5748
荆南節度使成汭	-12.5749
見機而作	-12.5749
嬴	-12.5749
可一戰擒也	-12.5749
宋受周禪	-12.5749
爆	-12.5749
筴	-12.5749
觀察䖏置	-12.5749
慬	-12.5749
雄即成都王位	-12.5749
㓗	-12.5749
鹹	-12.575
東南面兵馬都元帥	-12.575
揀	-12.575
此何祥也	-12.575
嘷	-12.575
窮兵黷武	-12.575
潨	-12.575
潑	-12.5751
蒟	-12.5751
􁰽	-12.5751
三軍縞素	-12.5751
烱	-12.5751
羃	-12.5751
醬	-12.5751
貼	-12.5752
苔	-12.5752
兄弟四人三百口	-12.5752
篁	-12.5752
湯薬二金盒	-12.5752
隨駕五都	-12.5752
餼	-12.5753
将作大匠	-12.5753
瓢	-12.5753
熠	-12.5753
軛	-12.5753
鏹	-12.5754
班賚有差	-12.5754
畞	-12.5754
武勇都之變	-12.5754
璪	-12.5754
今大元帥吳越國王	-12.5755
罟	-12.5755
凭	-12.5755
搴	-12.5755
滂	-12.5755
閙	-12.5755
鍚	-12.5756
檝	-12.5756
倜	-12.5756
利在速戰	-12.5756
吮	-12.5756
奩	-12.5756
庿	-12.5756
𧦬	-12.5756
曀	-12.5757
跼	-12.5757
毌	-12.5757
紺	-12.5757
身長九尺	-12.5757
煑	-12.5757
澁	-12.5757
簦	-12.5758
主憂臣辱主辱臣死	-12.5758
骨肉相殘	-12.5758
夷其三族	-12.5758
食邑三千户實封一千户	-12.5758
除君側之惡	-12.5758
嵓	-12.5758
范禹偁	-12.5758
淬	-12.5759
萟	-12.5759
万	-12.5759
棚	-12.5759
眤	-12.5759
茄	-12.5759
騾	-12.5759
􁔷	-12.5759
聒	-12.5759
䑛	-12.5759
丁拱垣	-12.5759
軿	-12.5759
偃武修文	-12.5759
船數十艘	-12.576
磔	-12.576
惽	-12.5761
籜	-12.5761
涖	-12.5762
菱	-12.5762
襪	-12.5762
州團練副使	-12.5762
湻	-12.5762
糠	-12.5762
憨	-12.5762
政出多門	-12.5762
􁈍	-12.5762
辟閭渾	-12.5763
垂手過膝	-12.5763
暱	-12.5763
伷	-12.5763
車師前部王	-12.5763
都護李嚴	-12.5764
髽	-12.5764
賵	-12.5764
咤	-12.5764
悕	-12.5764
平狄將軍霸	-12.5764
檢討吴任臣撰前蜀	-12.5764
偰	-12.5764
孝弟力田	-12.5764
瞳	-12.5764
羔	-12.5764
唇	-12.5764
㐮	-12.5765
不事生業	-12.5765
太祖從子延彬	-12.5765
愀	-12.5765
南陽王司馬模	-12.5765
窖	-12.5765
厖	-12.5765
肎	-12.5765
眊	-12.5766
刷	-12.5766
塼	-12.5766
膊	-12.5766
陳留公洸	-12.5766
靄	-12.5767
武勝軍節度	-12.5767
賜襲衣金帶	-12.5767
宋史藝文志	-12.5767
圈	-12.5767
腰帶十圍	-12.5767
絞	-12.5767
刧	-12.5768
南夷校尉李毅	-12.5768
蘊	-12.5768
伇	-12.5768
糊	-12.5769
獺	-12.5769
緍	-12.5769
罌	-12.5769
糝	-12.5769
縞	-12.5769
㒒	-12.577
鷂	-12.577
瘖	-12.577
盱	-12.5771
耦	-12.5771
猨	-12.5771
囓	-12.5772
数	-12.5772
此危道也	-12.5772
何不速殺我	-12.5773
筰	-12.5773
児	-12.5773
嘶	-12.5773
蛾	-12.5773
有累卵之危	-12.5774
廢長立少	-12.5775
券	-12.5775
繖	-12.5775
脆	-12.5775
叜	-12.5775
摛	-12.5776
㽔	-12.5776
縹	-12.5777
江淮異人録	-12.5777
錠	-12.5777
瞎	-12.5777
嫄	-12.5777
獻六眸龜胷有	-12.5778
酈	-12.5778
殳	-12.5778
枹	-12.5778
欽定四庫全書朝鮮史略卷	-12.5779
債	-12.5779
享年不永	-12.5779
廬陵禾川	-12.578
紆	-12.5781
怜	-12.5781
曝	-12.5781
坌	-12.5781
咀	-12.5782
堠	-12.5783
咢	-12.5783
愉	-12.5784
新遭大喪	-12.5785
錙	-12.5786
等于廵軍	-12.5788
日月星辰	-12.5789
壼	-12.5789
喋	-12.579
胆	-12.5795
愞	-12.5796
閈	-12.5797
回賜禮物	-12.58
蹉	-12.5805
霏	-12.5812
翀	-12.5819
澦	-12.5826
於光極殿	-12.5854
夾擊大破	-12.6036
去縣三十五里	-12.6074
去縣二十五里	-12.6108
麥秀兩岐	-12.8197
民五千餘戸	-12.82
繢	-12.8201
嶼	-12.8204
𡵨	-12.8204
􁦚	-12.8205
郜	-12.8207
祤	-12.8207
推辰州刺史劉言	-12.8211
李聖王攻占城	-12.8211
嚻	-12.8211
而低者欲為	-12.8214
頏	-12.8215
櫻	-12.8215
縂	-12.8217
鼃	-12.8218
麫	-12.8218
㱆	-12.8221
晤	-12.8221
関	-12.8221
耴	-12.8222
景遂為諸道兵馬元帥	-12.8223
䆒	-12.8223
鄧王従益	-12.8223
畛	-12.8225
玻	-12.8225
様	-12.8225
罡	-12.8225
他物稱是	-12.8226
蓆	-12.8226
觥	-12.8226
殻	-12.8226
晶	-12.8227
洪遵泉志	-12.8227
表盡獻江北	-12.8227
餚	-12.8229
柔逺能邇	-12.8229
大赦改明年元曰	-12.8229
曰陛下有經營天下之志	-12.8229
絢	-12.8229
鐃	-12.823
野人閒話	-12.823
璚	-12.823
祻	-12.823
纊	-12.823
自稱大都督大將軍大單于	-12.823
襌	-12.823
都督中外諸軍事車騎大將軍司𨽻校尉	-12.823
晉國雍順長公主	-12.823
湞	-12.823
碭	-12.823
筧	-12.823
漣	-12.8231
峡	-12.8231
深溝高壘	-12.8232
瑞興侯琠	-12.8232
羿	-12.8232
大理寺親錄囚	-12.8233
簣	-12.8233
擗	-12.8233
甘棠港	-12.8233
攷異所引蠻書	-12.8233
貞元十年南詔異牟尋	-12.8233
煬	-12.8234
大加欣賞	-12.8234
少受學扵	-12.8234
嵯	-12.8234
夐	-12.8234
慶賞刑威	-12.8234
娉	-12.8234
榱	-12.8234
鏟	-12.8235
海録碎事	-12.8235
皦	-12.8236
悃	-12.8236
蠻王䝉異牟尋	-12.8236
殍	-12.8236
臣離班桃仁	-12.8236
両䥶炊而不蒸	-12.8236
褶	-12.8236
瘼	-12.8237
䆳	-12.8237
鶖	-12.8237
娩	-12.8237
前園横索生樹桐	-12.8237
宣和畫譜	-12.8237
曖	-12.8237
見流水湯湯越吾宫牆	-12.8237
甜	-12.8237
平北大將軍王桑	-12.8238
九錫増封十郡	-12.8239
食邑二千户實封一百户	-12.8239
懵	-12.8239
褫	-12.8239
馬先進葉仁安	-12.8239
髹	-12.8239
澡	-12.8239
両鏵倚吾宫堂	-12.8239
嬈	-12.8239
酢	-12.8239
窄	-12.824
勘	-12.824
案太平寰宇記載此條云	-12.824
琇	-12.8241
躅	-12.8241
國號大唐改元同光冬十月	-12.8241
河州牧毛興	-12.8241
俁	-12.8241
喏	-12.8241
濆	-12.8241
睫	-12.8241
青箱雜記	-12.8241
劃	-12.8241
西施鄭旦	-12.8241
増食邑二千户實封	-12.8242
瑥	-12.8242
笈	-12.8243
覓	-12.8243
晧	-12.8243
縣開國男食邑三百户	-12.8243
㛐	-12.8243
短兵接戰	-12.8243
莱	-12.8243
宋白續通典	-12.8243
瞑	-12.8244
翌	-12.8244
盟津鯉魚	-12.8244
纛	-12.8244
九合諸侯一匡天下	-12.8244
躬貫甲胄	-12.8244
矰	-12.8244
裓	-12.8244
前禁將軍李辨	-12.8244
畼	-12.8244
輾	-12.8244
不騫不崩	-12.8245
?	-12.8245
瘧	-12.8245
翅	-12.8245
葑	-12.8245
錢氏家乘云	-12.8245
夤	-12.8245
繄	-12.8245
尭	-12.8246
淊	-12.8246
雈	-12.8246
鷗	-12.8246
力舉三百斤	-12.8246
呻	-12.8246
嘱	-12.8246
所費不貲	-12.8246
抂	-12.8246
茀	-12.8246
濠梁鯉魚	-12.8247
宋鄭文寳撰	-12.8247
涔	-12.8247
可足渾譚	-12.8247
東井秦之分野	-12.8247
者百慮必有一	-12.8247
趙國太𤣥太夫人	-12.8248
翻然改圖	-12.8248
㲲	-12.8248
腥	-12.8248
鋼	-12.8248
武林梵志	-12.825
襠	-12.825
㛰	-12.825
右監門衛上將軍	-12.825
不營産業	-12.825
固安侯鑒	-12.825
癖	-12.825
三楚新錄	-12.825
皖公山色翠影斜不	-12.825
箖	-12.825
貟外郎范沖敏	-12.825
鷃	-12.825
文思殿大學士	-12.825
阯	-12.825
卋	-12.8251
昺	-12.8251
旛	-12.8251
橙	-12.8251
簟	-12.8251
萄	-12.8251
饜	-12.8251
甓	-12.8251
栱	-12.8251
岐前蜀中朝中朝後蜀中朝	-12.8251
届	-12.8252
􁐰	-12.8252
楩	-12.8252
慰藉良厚	-12.8252
鞍勒馬各一事金器二	-12.8252
䦨	-12.8252
妲	-12.8252
太后金氏元年宋	-12.8252
如唐賀仁夀節	-12.8252
𬗋金魚袋	-12.8252
箊	-12.8252
頬	-12.8252
蕚	-12.8253
􁅋	-12.8253
旌表門閭	-12.8253
葡	-12.8253
濃	-12.8254
俘馘萬計	-12.8254
悞	-12.8254
玆	-12.8254
擣	-12.8254
滸	-12.8254
翬	-12.8254
薦遺逸莫教千古弔靈均	-12.8254
㢮	-12.8254
憇	-12.8254
翰林學士周維岳	-12.8254
至落星灣	-12.8254
貮	-12.8254
靴	-12.8254
外置同正員	-12.8254
綢	-12.8254
緬	-12.8254
酇	-12.8254
今冷落廣陵臺	-12.8255
夢金甲神	-12.8255
冮	-12.8255
緦	-12.8255
左千牛衛上將軍	-12.8255
親耕藉田	-12.8255
祅	-12.8255
筞	-12.8256
艇	-12.8256
杭州越州大都督上柱國	-12.8257
氅	-12.8257
闠	-12.8257
姥	-12.8257
烜	-12.8257
韓建張造李師泰	-12.8257
中山尹苻謨	-12.8257
簁	-12.8257
宋文帝元嘉	-12.8257
矮	-12.8257
秤	-12.8257
羖	-12.8258
笴	-12.8258
螢	-12.8258
覉	-12.8258
揵	-12.8258
􁦍	-12.8258
儷	-12.8258
曜后羊氏	-12.8258
後主名煜字重光	-12.8258
坰	-12.8258
摻	-12.8258
藋	-12.8258
戎馬生郊	-12.8259
湼	-12.8259
鴛	-12.8259
鶩	-12.8259
泆	-12.8259
􁀁	-12.8259
珎	-12.8259
罍	-12.8259
𠫭	-12.8259
蠆	-12.8261
忭	-12.8261
儕	-12.8261
虓	-12.8261
媱	-12.8261
溆	-12.8261
綉	-12.8261
林邑王范陽邁	-12.8261
于萬勝岡	-12.8261
厩	-12.8261
鄀	-12.8261
飜	-12.8261
熒	-12.8261
劘	-12.8262
祋	-12.8262
抺	-12.8262
廿	-12.8262
軆	-12.8262
凊	-12.8262
匆	-12.8262
窰	-12.8262
故茲詔示念宜悉知	-12.8262
㴻	-12.8263
陪臣陶子竒	-12.8263
傽	-12.8264
叫	-12.8264
觜	-12.8264
鞋	-12.8264
舋	-12.8264
戻	-12.8264
𢃄	-12.8265
鐙	-12.8265
摇	-12.8265
蕙	-12.8265
晉太山太守諸葛攸	-12.8265
有知人之鍳	-12.8265
窆	-12.8265
綯	-12.8265
悶	-12.8265
故茲詔示念宜知悉	-12.8265
櫪	-12.8266
廸	-12.8266
桴	-12.8266
賾	-12.8266
羇	-12.8266
奉鑾肅衛都虞	-12.8266
榦	-12.8267
挍	-12.8267
鼐	-12.8268
閴	-12.8268
綍	-12.8268
袛	-12.8268
獽	-12.8268
臚	-12.8268
清平官尹輔酋	-12.8269
愬	-12.8269
省可尚書奏事	-12.8269
窶	-12.8269
𠂻	-12.8269
㮄	-12.8269
畵	-12.8269
荊	-12.8269
褏	-12.8269
墩	-12.827
櫟	-12.827
武宗皇帝即位	-12.827
南唐書本紀卷苐	-12.827
嵌	-12.8272
漉	-12.8272
虫	-12.8272
傴	-12.8272
蝮	-12.8272
釵	-12.8272
深溝髙壘	-12.8273
蟄	-12.8273
倎	-12.8273
柚	-12.8273
颷	-12.8273
㦲	-12.8273
慶尚全羅	-12.8273
有兼并之志	-12.8273
悷	-12.8273
亹	-12.8274
瑄	-12.8274
燥	-12.8275
砧	-12.8275
宋周羽翀撰	-12.8275
閥	-12.8275
葳	-12.8275
臍	-12.8275
使掌書記范坰武勝軍莭度廵官林禹撰	-12.8275
武勝軍莭度	-12.8275
年大明洪武十	-12.8275
求以報吳願以此戰包胥曰善	-12.8275
悻	-12.8276
熒惑犯積尸	-12.8276
㹠	-12.8276
瀟	-12.8277
士無賢不肖	-12.8277
玲	-12.8277
頫	-12.8277
魃	-12.8277
小樓吹徹玉笙寒	-12.8278
賽	-12.8279
僦	-12.8279
畊	-12.8279
■	-12.8279
坪	-12.8279
忘寢與食	-12.8279
𣺌	-12.828
橛	-12.8281
粢	-12.8281
頺	-12.8281
騂	-12.8282
杜濩朴胡袁約	-12.8282
鉄	-12.8283
鵄	-12.8284
頠	-12.8286
簸	-12.8286
絺	-12.8287
難與爭鋒	-12.8287
􁀾	-12.8288
蹬	-12.8294
巉	-12.8294
烏蘭哈達	-12.8295
鐐	-12.8295
耋	-12.8295
虀	-12.8295
掀	-12.8297
嚥	-12.8297
瑎	-12.8301
焕	-12.8302
金章紫綬	-12.8304
沚	-12.8304
縢	-12.8305
飴	-12.8312
此非大過者	-12.8315
制置發運營田等使	-12.8362
西等道管内觀察處置兼兩浙鹽	-12.8731
長八尺三寸	-12.8961
禄大夫檢校太保	-13.1016
頼大王之賜使得奉爼豆	-13.1508
艤	-13.1516
本廣末鋭而來者為逆兵氣衰去乃可攻	-13.1519
氣在軍上將謀未定其	-13.1519
慠	-13.1525
瀼	-13.1525
癬	-13.1525
崐	-13.1527
儺	-13.1537
蟆	-13.1537
休屠王石武	-13.1537
錕	-13.1537
俱非恃强逼禪皆以行道濟時	-13.1538
弆	-13.1539
七十州自可指揮八	-13.154
痩	-13.1542
憬	-13.1542
餞綺霞閣	-13.1542
遄	-13.1544
陳留公拓跋䖍	-13.1544
僨	-13.1544
夾道排立帶甲馬	-13.1544
灌州奏武部郎中張道古卒	-13.1546
騄	-13.1546
曌	-13.1546
珓	-13.1546
肫	-13.1546
公子蓋餘燭傭	-13.1548
餻	-13.1548
一千戸實封一百	-13.1548
玠所賣而不知也	-13.1548
少失前人内不自量	-13.155
父因入九華山	-13.155
㫜	-13.155
淋	-13.155
㢠	-13.1551
孤不幸少失先人内不自量	-13.1552
邦為空棘身為魚鼈餌	-13.1552
帕	-13.1552
兵馬都元帥加食邑一千户實封	-13.1552
厪	-13.1552
炒	-13.1552
秉燭夜出候者以	-13.1552
腮	-13.1552
高尚思𤣥𢎞古讓皇帝	-13.1552
百官叩門入者	-13.1552
种	-13.1554
引力士劉思潮	-13.1554
鉾	-13.1554
事斬絳以城降絳覺之	-13.1554
饍	-13.1554
饕	-13.1554
芽	-13.1554
􁀅	-13.1554
琯	-13.1554
唳	-13.1554
西道兵馬元帥洪州大都督太尉尚書令	-13.1555
以問崔浩浩曰	-13.1556
櫨	-13.1556
何敬真朱全琇	-13.1556
澣	-13.1556
諼	-13.1556
櫺	-13.1558
蒔	-13.1558
拖	-13.1558
崔𦙍之徒同謀簒弑遂乃神機	-13.1558
㧾	-13.1558
掄	-13.1558
漪	-13.1558
魋	-13.1558
界諸蠻兼西山八國雲南安撫制置等使	-13.1558
𨗳	-13.1559
徐東海出漸漸	-13.1559
匜	-13.156
銀青光禄大夫檢校	-13.156
嶓	-13.156
後主遣絳出援	-13.156
乞骸骨以司徒致仕賜號鍾山公	-13.156
晳	-13.156
偽命由是大唐中興皇帝念	-13.156
搯	-13.156
隤	-13.156
引喬入見后及諸子	-13.156
郍	-13.156
鷁	-13.156
渤	-13.156
熨	-13.1562
鯾	-13.1562
熄	-13.1562
菰	-13.1562
又南唐拾遺記載	-13.1562
弜	-13.1562
應聖節列山棚	-13.1562
敲	-13.1562
繙	-13.1562
頙	-13.1562
騎馬來騎馬去	-13.1562
天與不取反受其咎	-13.1563
輜	-13.1563
些	-13.1563
腫	-13.1564
子延彬延美延	-13.1564
栰	-13.1564
鏦	-13.1564
霈	-13.1564
䯻	-13.1564
唐臣無一處不從	-13.1564
減膳徹懸	-13.1564
琱	-13.1564
𪷟	-13.1564
增食邑一千户實封一百户	-13.1564
弥	-13.1564
上饒郡公景邈	-13.1565
荃	-13.1565
折衝禦侮	-13.1566
窗	-13.1566
搔	-13.1566
搗	-13.1566
狭	-13.1566
唐遣客省使李嚴來聘	-13.1566
彖	-13.1566
事堂召二親吏解所服金帶	-13.1566
冬十月皇太后宋氏殂	-13.1566
宗昱為三招討	-13.1566
建州之劒浦汀州之沙縣	-13.1566
張羅網未肯平原淺	-13.1566
柑	-13.1566
焚爇宫闈雖列藩悉是	-13.1566
韃	-13.1566
宣武句容尉張洎	-13.1566
樁	-13.1566
鎮京口入定朱瑾之	-13.1566
蜒	-13.1567
兖州節度使慕容彦超	-13.1567
憍	-13.1567
履上殿入朝不趨	-13.1567
𠖇	-13.1567
痒	-13.1567
庄	-13.1567
駮	-13.1567
瀦	-13.1567
讞	-13.1567
大食國進龍腦油	-13.1568
果能率官屬而	-13.1568
毅寡言罕與人交衆中凛然可畏	-13.1568
賦詩云江南江北舊家	-13.1568
蹰	-13.1568
崇仁昭徳宣忠保慶扶天翊亮	-13.1568
棒	-13.1568
猳	-13.1568
蛆	-13.1568
詘	-13.1568
邊鎬平馬氏例俘	-13.1568
大之節焉敢固違	-13.1568
尠	-13.1568
欓	-13.1568
吴越吴越吴越吴越吴越	-13.1568
欽定四庫全書越史畧卷	-13.1569
稲	-13.1569
請復井田法	-13.1569
埧	-13.1569
將軍上金吾衛大將軍員外置同正員	-13.1569
晉少主逆命背約	-13.1569
五千口出城萇圍而坑之男女無遺	-13.1569
室中彦能行酒以	-13.1569
秘色甆器	-13.1569
萇為土山地道輔亦	-13.1569
欒	-13.1569
雌雞化為雄	-13.1569
前園横生梧桐	-13.1569
唇亡齒寒	-13.1569
梳	-13.1569
檣	-13.1569
牙門武肇漢國郡丞宣定	-13.1569
粘	-13.1569
鄮	-13.157
璙	-13.1571
趂	-13.1571
㜑	-13.1571
􁯫	-13.1571
姉	-13.1571
扑	-13.1571
園苑使尹延範	-13.1571
菌	-13.1571
輕徭薄賦	-13.1571
非我族𩔖其心必異	-13.1571
地周兵見而知其怯一	-13.1571
瘖不對授館累日忽謁漢淮南王	-13.1571
皖公山也因獻詩曰皖公山	-13.1571
綰果召田頵于宣	-13.1571
纏	-13.1571
踧	-13.1571
陸門八以象天八風水門八以	-13.1571
雲籠逺岫愁千片雨打	-13.1571
㽞	-13.1571
傱	-13.1571
噁	-13.1571
奉國金地二尼寺	-13.1571
恐煜之不得事足下也	-13.1571
百工院使李可殷	-13.1571
綖	-13.1571
見後房鍛者扶挾鼓小震	-13.1571
門下侍郎張居詠中書侍郎李建勲皆	-13.1571
撿討呉任臣撰南唐	-13.1572
剗	-13.1573
覯	-13.1573
笳	-13.1573
不足以接貴人俟求少妙者進之知訓對	-13.1573
旬志不負國事勢如此須	-13.1573
鑄大錢以一當十文曰永通泉	-13.1573
假黄鉞大將軍雍凉秦梁四州牧凉王	-13.1573
驃信鄭仁旻	-13.1573
取之甚易觀諸	-13.1573
自稱大都督大將軍益州牧	-13.1573
鄽	-13.1573
錦里耆舊𫝊	-13.1573
侶	-13.1573
硃	-13.1573
艫	-13.1573
跖	-13.1573
􁂮	-13.1573
呷	-13.1573
嚅	-13.1573
囁	-13.1573
嬋	-13.1573
濉	-13.1573
虒	-13.1573
錦流蘇斗帳	-13.1573
冬十一月乙丑梁改元貞明	-13.1573
盻	-13.1574
泰州刺史禇仁規	-13.1574
荆南荆南荆南荆南荆南	-13.1575
甿	-13.1575
拜瑾以笏擊踣	-13.1575
戬	-13.1575
曰朝聞道夕死	-13.1575
八日救塗炭遂定	-13.1575
嫠	-13.1575
安宇宙便息干戈未	-13.1575
袞	-13.1575
朝廷有十臣在陛下何憂	-13.1575
簏	-13.1575
主方惶惑欲置其家	-13.1575
埏	-13.1575
涅	-13.1575
著十在文以進	-13.1575
週	-13.1575
中吳軍節度使王子傳璙	-13.1575
拏	-13.1575
敺	-13.1575
無用家明敢取	-13.1575
自春至夏不雨	-13.1575
諄	-13.1575
遷右僕射平章事烈祖出鎮金陵以元宗	-13.1575
垍	-13.1575
後有立大功者當以何官賞之	-13.1575
眡	-13.1575
輛	-13.1575
輶	-13.1575
𫐠	-13.1575
麝	-13.1575
誅遂使賊將寒心謀夫拱手取乾坤只勞	-13.1576
𦂳	-13.1576
與足下叨累世之	-13.1576
鍇頗怏怏簡言徐出妓佐酒	-13.1576
剙	-13.1577
獲一龍而寤	-13.1577
虖	-13.1577
適父怒而歸母子之常也	-13.1577
前後夾擊盡殱其衆	-13.1577
唎	-13.1577
寕國軍莭度使同	-13.1577
以貴臣應之生曰	-13.1577
延喜延武延望延宗	-13.1577
㯶	-13.1577
僕射張華給事中宗正元	-13.1577
兩黑犬嘷以南嘷以北	-13.1577
摸	-13.1577
暻	-13.1577
樂伎一百二十人	-13.1577
溶凡鱗不敢吞香餌知	-13.1577
茯	-13.1577
藐	-13.1577
酹	-13.1577
鈎興正濃碧池春暖水	-13.1577
光政殿召對	-13.1577
授國子助教知廬山國學	-13.1577
皮之不存毛將安	-13.1577
翊聖皇太妃徐氏	-13.1577
蕺	-13.1577
駛	-13.1577
劑	-13.1578
蔔	-13.1578
銛	-13.1579
巡遏軍城不使毁傷	-13.1579
眇昧之餘魂得保	-13.1579
蒿	-13.1579
藺	-13.1579
癰	-13.1579
著質論十餘篇後主	-13.1579
保紳保寅保緒保	-13.1579
建封上書歷詆	-13.1579
徯	-13.1579
攖	-13.1579
煼	-13.1579
自存者賜糓帛有差	-13.1579
之謂之中興中興之君廟	-13.1579
云婦人預政亂之本也安肯自	-13.1579
姦人也命斬之使者	-13.1579
悁	-13.1579
授左領軍衛大	-13.1579
瀉	-13.1579
熛	-13.1579
畦	-13.1579
疢	-13.1579
癩	-13.1579
黻	-13.1579
全蜀藝文志	-13.158
句中正孫逢吉	-13.158
清江萬載上	-13.158
磕	-13.1581
三十年來夢一塲吳苑宫	-13.1581
柙	-13.1581
先主名巖後名俊又	-13.1581
喜怒不形於色	-13.1581
熲	-13.1581
銀青光禄大夫上柱國	-13.1581
何辱但見衣冠成古丘不見江河變陵谷	-13.1581
梵王帝釋像	-13.1581
葷	-13.1581
都評議使司	-13.1581
工部侍郎文理院學士	-13.1581
東掖門亭長	-13.1581
痁	-13.1581
知足不辱知止不殆	-13.1581
匾	-13.1581
晝晦雨沙如霧	-13.1581
烙	-13.1581
絓	-13.1581
蒋	-13.1581
蓊	-13.1581
袐	-13.1581
都督中外諸軍事諸道都統鎮海寧國	-13.1581
酒數行喬始上卷主司	-13.1581
齩	-13.1581
昭懿夫人陳氏文穆王	-13.1582
蝸	-13.1583
罇	-13.1583
蔣幹懸縋而下奔	-13.1583
搦	-13.1583
耨	-13.1583
廛	-13.1583
明堂以配上帝	-13.1583
􁂭	-13.1583
以右僕射孫晟客省使姚鳳為	-13.1583
塍	-13.1583
屢變亂之招也且豪民富商不保其貲則	-13.1583
晉康帝建元元年	-13.1583
熏	-13.1583
益思亂累數百言不報	-13.1583
逌	-13.1583
侹	-13.1583
指揮使朱思勍范思從	-13.1583
尚書令梁楞左僕射梁安	-13.1583
匀	-13.1583
侯翮王保晦	-13.1584
籍但念臣中外	-13.1585
監蒜山渡首聞朱瑾之亂馳	-13.1585
州刺史盧約弟佶㓂永嘉	-13.1585
大江春夏暴漲謂之黄花水及	-13.1585
散騎常侍都督玉門已西諸軍事安西	-13.1585
過澗者斬及暮伏兵四	-13.1585
㠶	-13.1585
鞮	-13.1585
鰕	-13.1585
冬十月築楚州白水塘以	-13.1585
危事天方相楚尚未可	-13.1585
巇	-13.1585
投鄂帥張宣	-13.1585
搶	-13.1585
施州刺史田行臯	-13.1585
棃	-13.1585
疣	-13.1585
礫	-13.1585
祚固執不可本怒曰我家郎君也	-13.1585
誰向桑麻識卧龍	-13.1585
金吾衞上將軍員外置同正員	-13.1585
勢乃夜開東門	-13.1585
引丁零烏丸之衆二十餘萬為飛梯地道	-13.1585
金匣玉硯	-13.1585
茜	-13.1587
鋋	-13.1587
朝見于崇徳殿	-13.1587
佼	-13.1587
召驗之揮刃	-13.1587
枹罕䕶軍辛晏	-13.1587
㖃	-13.1587
乃殺監守者與親信	-13.1587
五月雨魚於統萬	-13.1587
冪	-13.1587
劍履上殿詔書不名	-13.1587
洼	-13.1587
以其言有益擢為右補闕	-13.1587
以問索紞紞曰	-13.1587
其二弟六十餘人殺之以其婦女渡江	-13.1587
挾天子而令諸侯	-13.1587
昳	-13.1587
舷	-13.1587
莊穆夫人呉氏	-13.1587
診	-13.1587
陥	-13.1587
攪	-13.1588
給事中中書舎人集賢勤政殿學士	-13.1588
南中郎將都督荆揚州諸軍事荆州刺史	-13.1589
低一格以别之	-13.1589
湊	-13.1589
磧	-13.1589
猨臂善射膂力過人	-13.1589
荳	-13.1589
見歎曰非此兒不敵此女	-13.1589
跕	-13.1589
飰	-13.1589
勢如此而殺忠臣吾不知	-13.1589
擖	-13.1589
漑	-13.1589
轎	-13.1589
䀢	-13.1589
杭越等州大都督府長史	-13.1589
篠	-13.1589
轔	-13.1589
辭出孔子止之子	-13.1589
迎置京口時道路已亂	-13.1589
項氏不興得吕望而周朝遂	-13.1589
鸇	-13.1589
黠來亦得時去亦得時元宗聞之不平	-13.159
岫愁千㸃雨滴	-13.1591
覿	-13.1591
􁇠	-13.1591
莎	-13.1591
韈	-13.1591
遣天水將軍祁𢎞	-13.1591
妊	-13.1591
暦	-13.1591
氤	-13.1591
潭州武昌節度使李簡	-13.1591
磻溪老叟無人	-13.1591
工部侍郎盧膺尚儀謝宜清尚衣髙素清	-13.1591
顚	-13.1591
禛	-13.1591
袝	-13.1592
趙元拱王中孚	-13.1592
刊	-13.1593
唇亾齒寒	-13.1593
仄	-13.1593
十一月戊子湖州刺史李師	-13.1593
巴延特穆爾	-13.1593
拚	-13.1593
提刑按察司劉廷直	-13.1593
破烏墩光福	-13.1593
軍無私掠百姓懐之	-13.1593
伴送使陳植	-13.1593
山頭一小營謂輿曰	-13.1593
鯤	-13.1593
▫	-13.1593
以吉州永新與	-13.1593
個	-13.1593
墖	-13.1593
帑庾空竭	-13.1593
玖	-13.1593
矝	-13.1593
謂太子宏曰天不欲	-13.1593
顓	-13.1594
先賢士女揔讚	-13.1594
莫肯用命故	-13.1594
乗間言景逷才過齊王	-13.1595
宁	-13.1595
爻	-13.1595
猻	-13.1595
分兵趣黔涪	-13.1595
為峽路行營招收討伐使	-13.1595
盞	-13.1595
中領將軍長孫肥	-13.1595
保大五年元日大雪	-13.1595
奏獄訟有司之事囹圄	-13.1595
安南王陳益稷表賀	-13.1595
洺	-13.1595
齷	-13.1595
􁗟	-13.1595
㢲	-13.1595
鮫	-13.1596
掎	-13.1596
茟	-13.1596
光庭為傳真天師崇真館大學士	-13.1596
垓	-13.1596
猢	-13.1596
㣧	-13.1596
州攻城南大寨	-13.1596
廋	-13.1596
起居注及著作所録而觀之見	-13.1596
云吟登蕭寺旃檀閣醉倚王家玳瑁	-13.1596
稹	-13.1596
瑨	-13.1596
皆食烏頭半夏	-13.1596
臣無境外之交	-13.1596
武穆王德妃袁氏	-13.1597
忖	-13.1598
碯	-13.1598
藕	-13.1598
荄	-13.1598
東南面安撫使鮑	-13.1598
篝	-13.1598
不伐有巢樹多移無主花	-13.1598
貞馳入濠州代之崇俊自悼失計	-13.1598
躊	-13.1598
􁀒	-13.1598
吳王不審名冡也去縣	-13.1598
嗾	-13.1598
城将䧟後主謂	-13.1598
澉	-13.1598
以小事大如子事父未有過失	-13.1598
刖	-13.1598
噏	-13.1598
子夜坐句云劃多灰	-13.1598
引屏風障之	-13.1598
莝	-13.1598
黃門侍郎梁琛	-13.1598
𣑽	-13.1598
􁀇	-13.16
騧	-13.16
辭命多出其手	-13.16
痼	-13.16
楓	-13.16
㫋	-13.16
歉	-13.16
通奏使伊審	-13.16
已慙先見之明因有後時之責今則皇威	-13.16
祍	-13.16
李仁任林堅味	-13.16
窪	-13.16
荇	-13.16
侏	-13.16
礼	-13.16
鯽	-13.16
煽	-13.16
詩話𩔖編	-13.16
顥欲背約自立	-13.16
鬴	-13.16
倩	-13.1602
罏	-13.1602
中書監胡文中書令王魚	-13.1602
刓	-13.1602
同心其利斷金	-13.1602
蹊	-13.1602
鐶	-13.1602
分遣使者巡行郡國	-13.1602
柟	-13.1602
瀑	-13.1602
詫	-13.1602
六月晉主知逺改國號曰漢	-13.1602
橇	-13.1602
世祖遣撫軍大將軍永昌王健	-13.1602
夥	-13.1602
摎	-13.1602
曰古者兵交使在其間	-13.1602
昜	-13.1604
家國隂隂如日将暮	-13.1604
仂	-13.1604
年王薨王性聦	-13.1604
對侍婢曰阿法兄弟亦不可信	-13.1604
蒱	-13.1604
健賞拒温之功以	-13.1604
噩	-13.1604
張氏曰朕若用朝臣之言豈見今日之事	-13.1604
是王之功也次則	-13.1604
盡忠所事抗節無虧前代名臣	-13.1604
都督幽平二州東夷諸軍事車騎	-13.1604
隃	-13.1604
使民入米請鹽	-13.1605
籹	-13.1605
蛭	-13.1606
桒	-13.1606
蘧	-13.1606
将軍上金吾衛大将軍員外置同正員	-13.1606
鑽	-13.1606
苪	-13.1606
暍	-13.1606
靚	-13.1607
鄱	-13.1607
跣	-13.1607
虱	-13.1608
坯	-13.1608
瑊	-13.1608
糚	-13.1608
則善矣未可以戰	-13.1608
撡	-13.1608
缶	-13.1608
輕車將軍慕輿埿	-13.1608
蓂	-13.161
凂	-13.161
鱓	-13.161
焜	-13.161
賭	-13.161
鶯	-13.161
黄門郎史淑侍御史王冲	-13.161
勞其良苦而已	-13.161
􁭘	-13.161
怒問允章馬公復能經畧南土乎	-13.161
軍武安武平靜江寧逺等軍節度使	-13.1611
吾家千里駒也	-13.1612
疚	-13.1612
腑	-13.1612
檢討吴任臣撰南唐十	-13.1612
賡	-13.1612
鍬	-13.1612
桔	-13.1612
護軍將軍傅末波	-13.1612
菅	-13.1612
𤨏	-13.1612
周本舒州宿松人漢南郡太守瑜之後	-13.1614
迤	-13.1614
䳌	-13.1614
封琅邪郡王王宗	-13.1614
尫	-13.1614
崢	-13.1614
鼾	-13.1614
媯	-13.1614
檛	-13.1614
王宗勉王宗鍔	-13.1614
窣	-13.1614
􁂥	-13.1614
欐	-13.1614
㻂	-13.1614
扶南侯元㺷淮隂侯元珦	-13.1614
瀹	-13.1614
䔥	-13.1615
京氏易馬氏尚書	-13.1616
鄢	-13.1616
飾其政外事諸侯必將有報我之心子待	-13.1616
貙	-13.1616
鑕	-13.1616
凾	-13.1618
腋	-13.1618
佔	-13.1618
瀣	-13.1618
帢	-13.1618
諷焉而後主不之譴	-13.1618
淆	-13.1618
刲	-13.1618
夫越君賢主	-13.1618
豸	-13.1618
負永陵一坏土	-13.1618
阼	-13.1619
郅	-13.1619
沇	-13.162
鍮	-13.162
拄	-13.162
范陽涿鹿人也	-13.162
樊愛能何徽	-13.162
澞	-13.162
恢武將軍姚難	-13.1621
佟	-13.1621
侁	-13.1621
飮	-13.1622
㕑	-13.1622
慝	-13.1622
拯溺救焚	-13.1622
瞟	-13.1622
知證亦以叔父自處	-13.1622
拐	-13.1623
玹	-13.1623
希旺希杲希瞻希	-13.1624
􁗩	-13.1625
立義將軍段勤	-13.1625
茰	-13.1625
皤	-13.1627
蟹	-13.1629
倒持太阿授人以柄	-13.1631
鈲	-13.1631
霓	-13.1631
袷	-13.1633
越王句踐稽首再拜曰	-13.1635
犄	-13.1635
肓	-13.1637
平章劉二巴圖	-13.1637
眙	-13.1639
菓	-13.1639
􁂚	-13.1639
螯	-13.1641
菽	-13.1643
珜	-13.1643
籟	-13.1647
獻三足六眸龜	-13.165
盛時霓裳羽	-13.1652
鎦	-13.1656
砮	-13.1662
䁺	-13.1666
誧	-13.1679
亢龍无悔	-13.1681
𬗋光祿大夫檢校	-13.2642
鐵制置發運等使開府儀同三司檢校太	-13.334
田一頃稅錢一貫	-13.6473
改元永樂署置百官皆衣絳衣遇賢	-13.6488
石𢎞石𢎞字大雅勒	-13.6491
州兵所窘復告于神神曰可過嶺取	-13.6495
膰	-13.6495
憧	-13.6495
當受禍金鼓之聲澌澌然殆有大喪	-13.6498
州當成大事遇賢遂襲南康	-13.6498
百勝軍節度使賈浩始輕之不	-13.6498
唐莊宗實錄同光二年七月戊午蜀	-13.6501
塾	-13.6501
天下孝文以𤣥黙守之聖人之後必	-13.6504
愛士好為文詠其所親	-13.6504
雅愔愔殊不似將家子光曰漢祖以馬上	-13.6504
今收合義旅衆餘五萬	-13.6504
冠軍大將軍領單于右輔	-13.6504
起曰子嵩事必中變政事僕射安若	-13.6507
庶上報皇帝酷怨下雪人民大耻	-13.6507
電邁直造賊庭	-13.6507
抵罪於縣軍敗身辱遯逃出走棲于	-13.6507
而修祭祀大王之賜死且不忘	-13.6507
甪	-13.651
有詩云淮船分螘㸃江市聚蠅	-13.651
神也執遇賢及其副黄伯雄謀主僧景全	-13.651
庚戌温州刺史朱褒卒兄敖代之	-13.651
攻曜征西將軍劉貢於南安	-13.6513
舎人邊鎬洪州屯營都虞候嚴思	-13.6513
復告于神神不復語	-13.6517
日詔王宴于長春殿至暮歸第	-13.6517
曰臣常謂光武之遇仲華非獨仲華	-13.652
軍之先仲華遇漢世祖於前	-13.652
人執遵于南臺如意觀遵	-13.652
刼司空李農及右衛	-13.652
方與婦人彈碁問	-13.652
是汝等立鑒復能㡬時遂殺之于琨華殿	-13.652
夢青衣人捧簿書	-13.652
术	-13.652
一眼傖夫望英風而膽	-13.652
至琨華横尸相枕	-13.652
軍復逢朕於後何鄧氏之多幸	-13.6523
以長興五年遂僭大號	-13.6523
嬰城固守遣使請和以子染干	-13.6523
于琨華殿不克禁中擾亂鑒	-13.6523
前告曰大王明年錢塘官滿及寤頗惡之	-13.6523
彭利和於漒川	-13.6523
爵邑有差秋七月王建天下元帥府于	-13.6523
神變令三惡衆生	-13.6523
颿	-13.6523
陛下一旦不諱臣恐社稷	-13.6526
曰彼能出降安能死乎	-13.6526
觀象説言曰希萼舊將	-13.6526
升臺挾鑒以攻之鑒見	-13.6526
孫伏都劉銖等結羯士三千人伏	-13.6526
鑒在中臺伏都帥三十餘人	-13.6526
不可元宗嘻笑而止周師益進	-13.6526
儀衛名稱多如天子之制	-13.6526
刑部員外郎夏侯昭冊封王為吳越國王	-13.6526
幪	-13.6526
頗信以為覇之死出于晉人	-13.6526
之人見之若面令公敢倨慢	-13.6526
也羣臣多不欲惟樞宻使唐鎬賛成之	-13.6526
洪州曰建康與敵境隔江而	-13.6526
經云若有衆生遇斯光者必得無上道	-13.6526
豫章據上流而制根本上	-13.6526
銍	-13.6526
巖許俊孫陟聞人凝張瑗劉甫蔣勛王畊	-13.6529
改元光化九月顧全武攻蘇州	-13.6529
知訓與僧修睦親狎	-13.6529
衆一萬據逆萬堡宻信	-13.6529
則同輿坐則同席	-13.6529
元宗遣覺奉表貢方物覺至迎鑾見周	-13.6529
司天言天文變異人主	-13.6529
定保獻南宫七竒賦以美之	-13.6529
祇候奉御陳馨	-13.6529
至炕第見之謂曰朕宫無	-13.6529
艦陳列江津且南渡	-13.6529
從本殺雅州刺史張承簡舉城來降	-13.6529
桺	-13.6529
武義元年高祖即吳國王位遷	-13.6532
楠	-13.6532
百兩銀器五千兩錦	-13.6532
姚元平張略等又與萇戰	-13.6532
州事擅興汀建撫信州兵及戍	-13.6532
庠草表請討敬瑄以贖罪因求卭州	-13.6532
必死元宗亦怒欲寘軍法齊	-13.6532
攻萇汧雍二城克之斬其將	-13.6532
民市井聚貨叨為郡守實負天恩瘡痍已	-13.6532
也因反顧一麾外兵爭進	-13.6532
懸門以禦之王次龍泉	-13.6532
瑾適自外來以一騎前視其	-13.6532
衣錦城治溝洫八月丙戌	-13.6532
不知孰可付耳覺	-13.6532
中有耕者得傳國璽以	-13.6532
乃勵風操尚信義一言之出必復而後	-13.6532
于王王謂非人臣家所宜	-13.6532
人士所容乃去入廬山國學亡賴尤甚	-13.6532
以為誠言輒曰天命如此	-13.6532
以陳留王歡樂為太	-13.6532
傳亡従信傳亡宣城公仲宣	-13.6532
子猶卿子也善相輔導	-13.6532
宗可之覺頓首謝退遣其	-13.6532
少來時及五十指揮皆在都下	-13.6532
延賔亭以待四方之士	-13.6532
明致君為桀紂之昏使上乏唐虞之化有	-13.6532
晛	-13.6532
臣在陛下任臣如此何憂社稷不安	-13.6532
遣宣諭使通事舍人吳韜	-13.6532
避位祈禳元宗曰此固吾意	-13.6532
事北朝問黒雲長劍多	-13.6532
使軍人殺之聲名可惜	-13.6532
壽濠泗楚光海六州	-13.6532
是月淮人轞送徐綰歸我王命剖心以祭	-13.6532
曜以安為大將軍擊瞻殺之	-13.6532
檢攝恭謹嚴重愛士	-13.6532
等同攻東陽王命弟鏢率師討之秋八月	-13.6532
陳喬字子喬廬陵玉笥人父濬	-13.6532
浛	-13.6533
籃	-13.6535
命官屬以下皆北面受業	-13.6535
棁	-13.6535
曰張遇賢是第十六羅漢當	-13.6535
氣咸歸河洛之殊祥畢至四門盡闢百度	-13.6535
逈感于蜀皇復禮逺酬于厚禮	-13.6535
屯大利破黄石大羗二戍	-13.6535
死者萬計亡失金帛戈甲之類	-13.6535
王雖受命而山川隔越	-13.6535
顧閎中梅行思曹仲元周文矩顧	-13.6535
馭卒以恩威接士大夫以禮	-13.6535
于門橋知訓與戰頻却	-13.6536
全武率兵衛屯東府全武上言	-13.6536
孫儒之難彼丈夫者豈不能報王	-13.6536
有知者北門直更卒憑鼓而寐王親斬之	-13.6536
綰遇斬首二百餘級綰退營	-13.6536
與三城都指揮使馬綽牙	-13.6536
鍾審以舟迎王王遂沿江至内城東北	-13.6536
夏六月丙午武勝清海等軍	-13.6536
州兄延羲有隙遂各稱帝	-13.6536
張飛為靈應王鄧艾為彰順王	-13.6536
方丘六月賜百官飛雪丸	-13.6536
不識於經綸素非忠勤實為忝竊有嚴凝	-13.6536
中心藏之何日忘之	-13.6536
在唱亡國之音衒趨時之侈	-13.6536
奈何把臂受托而	-13.6536
嶪	-13.6536
恤族黨均財給之親	-13.6536
我何用此以故温雖遥秉大政而吳人頗	-13.6536
球守檢校太尉兼侍中充静海軍	-13.6536
衛尉卿許渾來宣諭仍賜國信是月王子	-13.6536
識者曰膺者胸也胸者凶也	-13.6536
赳	-13.6536
千里半因開拓遂至萬民叶議八國	-13.6537
變通之説且東漢亂離之後三國齊興西	-13.6537
雍容於揖讓之前輕重於英雄之内	-13.6537
志遵憲度承百年之堂	-13.6539
佪	-13.6539
太子虎臺曰今不種多年内外俱窘事	-13.6539
撥土取花子三粒種之須	-13.6539
貶匡舜臨川親行之議亦寢	-13.6539
遜近去不能卒來旦夕所慮	-13.6539
遵字大祗虎第九子	-13.6539
冬十一月丁亥吳越國正徳夫人吳氏薨	-13.6539
所至處卓之呼曰不得燈燈便倒	-13.6539
登樓取庫兵以誅知訓	-13.6539
累從征伐備歴艱難由是	-13.6539
自號醋頭手携一燈	-13.6539
著功効老病乞骸骨以禮部尚書致仕	-13.6539
遣平逺將軍叱盧犍等	-13.6539
𢷬	-13.6539
飾至於盥潄之具	-13.6539
侵淮南拜北面行營都部署帥三萬人援	-13.6539
元宗第八子也警敏	-13.6539
多地不須懐抱重凄凄	-13.6539
指揮使許再思以兵迎綰同叛	-13.6539
次日王發自衣錦城	-13.6539
遣二百人持大劒斫	-13.6539
𬋩	-13.6539
中書令孟凖左衛將軍王鸞	-13.6539
之議遂决周亦班師遣覺還錫賚豐渥覺	-13.6539
使宋公攝政陛下深居禁中	-13.6539
承唐末文體纎麗之弊士率不	-13.6539
晉永興中與勒相失	-13.6539
朱㓜而子之故或謂之	-13.6539
永興公主余洪妻鄭氏	-13.6539
汀漳境上為閩人所	-13.6539
無籌略見周師退以為怯	-13.6539
而知詢暗懦待諸弟不厚徐玠知其終敗	-13.6539
自振鼇獨不事華藻以理趣	-13.6539
覧之大笑賜在珣綵五百叚加	-13.6539
鼇亦心許之未及予也一日友人不告而	-13.6539
㨂	-13.6539
在病請告烈祖授以論	-13.6539
宅訪之球覽畢	-13.6539
東陽㑹師討賊九月陳	-13.6539
淮南兵興元宗憂蹙不知所為陳覺李	-13.6539
國燒棧為謀稱雄雖處	-13.654
秋七月徙燕王景遂為齊王鄂王景	-13.654
有子如是非惡人也即以女妻建勲	-13.654
皴	-13.6542
杉鎮有神降于民家所言禍福輙驗遇賢	-13.6542
而臣躡其後國可覆也滅	-13.6542
存永言梁蜀之歡合認弟兄之國今䝉皇	-13.6542
帝欲親拒周師中書舎人喬匡舜極	-13.6542
李崇禮蕭孔冲亷若	-13.6542
稡	-13.6542
與其不義而生孰若抱義而死事勢如此	-13.6542
葬于國城龍山之南原	-13.6542
討有征無戰詎可抗威棄甲倒戈尋皆	-13.6542
逺尋舊好專降嘉音俱無間諜之嫌	-13.6542
仁旻服丹藥死	-13.6542
使至則去之使還復用	-13.6542
充斥建率勵勇士所至	-13.6542
夏四月漢宏自領兵屯諸暨古	-13.6542
寢處惟紫羅帳	-13.6542
布自言我素貧賤不可忘本也	-13.6542
常衣布素置公服	-13.6542
曰相公請大王東之越	-13.6542
獲百姓頼之累遷諸軍都虞	-13.6542
王復曰軍中叛亂何方無之	-13.6542
軍石彦辭刑部郎中薛昭序來宣諭	-13.6542
郡境曠逺旁接谿洞	-13.6542
久疑當受代輙妄造邊遽以固其位久之	-13.6542
以親子代之温即遣知詢入覲謀代	-13.6542
元宗遣謨行以手表引咎且言非續之罪	-13.6542
劉昞索敞陰興	-13.6542
勒南郊有白氣自壇屬天勒大悦	-13.6542
厚清靜自處無所侵撓郡中大治	-13.6542
及是覺身自為之使還以兵部尚書致仕	-13.6542
坐清風天子送隨車甘雨郡人迎	-13.6542
士未及朝食即督以進遇周	-13.6542
州次來逺鎮兵車旗幟亘數百里	-13.6542
已控强兵居重地烈祖雖管大政而無兵	-13.6542
殺續以謝我元宗知覺與續有宿怨疑之	-13.6542
浮橋腹背受敵燒營退保正陽彦貞雖名	-13.6542
為天下主其肯教人殺忠臣乎謨	-13.6542
艦銜尾蔽淮而上周	-13.6542
花安南雖小文章在未	-13.6542
視事則服之入則復衣	-13.6542
諷温曰居中輔政之重不宜假於他人	-13.6542
身長八尺五寸臂垂過膝	-13.6542
出馬軍一百隊歩軍	-13.6542
十隊引前歩槍五百人隨後去城	-13.6542
南羗彌姐康薄於赤水	-13.6542
召拜司空乃營亭榭	-13.6542
大敗師朗等皆被擒彦貞	-13.6542
意而不為講武教民在安邊而有作	-13.6542
攫拿狀飾以丹碧立	-13.6542
支陽鸇武允吾三	-13.6542
易文贇亦固守聞楚州陷	-13.6542
永圖不幸諸藩搆成深隙此際主兵將帥	-13.6542
詩不云乎無言不酬	-13.6542
譔曰二州人士自漢及魏	-13.6542
適意豈能愛死而自不足於心	-13.6542
鍾山適意泉石累表	-13.6542
馮𢎞馮𢎞字文通	-13.6542
廣南僧僧如敏僧文偃僧子祥	-13.6543
七月王以子睦州刺史傳懿為婺州刺史	-13.6545
如故三月王命元帥府判官皮光業使于	-13.6545
彌入自轘轅敗官軍於伊北	-13.6545
秪	-13.6545
以誇示之辭氣益悖承祐長跪	-13.6545
波都虞候㳂江都部署守秦淮水柵	-13.6545
袴敗乃取酒庫酢袋而補之	-13.6545
越則國威大振北兵不敢動矣後主不	-13.6545
判六軍創天武神機營開永和府	-13.6545
尋皆殺之世立凡三十三日	-13.6545
梯航願同臨照而以阻	-13.6545
臚卿委以南方之事升降人物制置郡縣	-13.6545
遣人馳報朝廷召公有異處分	-13.6545
上達冕旒所希者存濟活	-13.6545
云秋山滴翠暮壑澄空愛公	-13.6545
勝追撃所殺及降者又十萬餘人評單騎	-13.6545
增修城隍守備甚嚴或謂	-13.6545
媾	-13.6545
學兵於朱瑾瑾力教之後因	-13.6545
實千載一遇敢不奉詔	-13.6545
屬皆受譴獨建勲	-13.6545
庸菲之才嗣守宗廟陛下垂覆載之恩許	-13.6545
徴古為死黨相倡和	-13.6545
民十年而後舉兵震揺	-13.6545
澳	-13.6545
瑾瑾手刃數人瘞舍後知訓	-13.6545
畏懦也審思曰兵機多變不可不懼	-13.6545
等率步騎三萬攻西安不克又攻番禾	-13.6545
詔勸農桑曰昔劉先主入蜀武侯勸其閉	-13.6545
貯銅盎中皆漢張道陵符篆朱墨如新藏	-13.6545
門二曰道泰門嚴勝門	-13.6545
二千户實封三百户仍賜號	-13.6545
云非獨婦人有七出夫有罪亦可出	-13.6545
兼光政院使輔政喬風度淹雅小心守法	-13.6545
國號大秦改長安為常安	-13.6545
姓而王七月者七十有三國繼趙	-13.6545
曰盧公怒爾爾不生矣禆將泣涕請命澄	-13.6545
王署侍中衛大將軍都督二宫禁衛諸軍	-13.6545
管内刺史並授官爵仍賜母妻封邑八月	-13.6545
隂雲蔽月以濟我師	-13.6545
人子而不親臨反罪我	-13.6545
喗	-13.6545
坑斬士女鮮有遺𩔖勒	-13.6545
掬江沙吞而祝曰吾以義兵討賊	-13.6545
星月皎然兵不可渡	-13.6545
曰王者無戲言此將不祥之徴也	-13.6545
樊若水欲薦于朝鼇	-13.6545
歙婺衢睦觀察使璋為衢婺副招討使璋	-13.6545
温州是月城婺州秋七月睦州刺史陳	-13.6545
而出於頷是禍將作神	-13.6545
蟚	-13.6545
謌	-13.6545
賢二十人合二百六十八人以示來世之	-13.6545
躳	-13.6545
送之至是知詢以廷望之言質	-13.6545
逺取敗辱不殺此胡復何	-13.6545
遣使降晉後石鍳殺遵所在兵起	-13.6545
選三婢予之頗有容質李	-13.6545
醞	-13.6545
饗文武將士於謙光殿班賜金馬各有差	-13.6545
鼇悔恨徒歩數百里追及授	-13.6545
􁡡	-13.6545
中領軍封汲郡公太平元年	-13.6545
千羣至城側呌嘯悲鳴遺	-13.6545
召喬草詔如覺徴古	-13.6545
命宗正馮哲黄門盧	-13.6545
惡之宋齊丘陳覺等皆以割地無益	-13.6545
疾羣公不奔喪疑有逆謀圖危社稷吾備	-13.6545
臋	-13.6545
西將軍秦州刺史領䕶東羌校尉鎮上邽	-13.6545
以通事舎人邊鎬監其軍	-13.6546
儀吾故人何為見拒遣	-13.6547
武庫㦸十二枝列于私門非恒例也	-13.6548
咳	-13.6548
庚戌有星孛于東方嶺南妖賊張遇賢犯	-13.6548
乃謂絳曰都城危甚萬一不守守此何為	-13.6548
六月癸酉朔日有食之秋七月殺天威	-13.6548
埛	-13.6548
太祖使絳弟襲招絳絳初欲殺襲以	-13.6548
援縁海而進隨山刋道千	-13.6548
洎臨西蜀嗣守餘基自量小國之封疆	-13.6548
漢榮懼紿告曰邸吏劉	-13.6548
潤州乃授昭武軍節度留後帥八千人	-13.6548
稱流有賁育之勇舉為東羌	-13.6548
人相攻則江淮益安宻請厚其	-13.6548
何可留也斬于西市	-13.6548
勲業後主聞之益喜及	-13.6548
却之曰子嵩三十年故人豈負我者齊	-13.6548
契丹與晉人果成嫌隙	-13.6548
王仁繢楊廷式翁郜	-13.6548
聰頴好學和雅有度	-13.6548
頓首謝自是為求媚計	-13.6548
三鎮及山洞凡九十三所	-13.6548
以繼岌為西北面行營第四招討	-13.6548
僧休復僧無殷僧	-13.6548
僧文益僧深僧慧朗僧智明行因禪師僧	-13.6548
别部都督淮南之敗隨堅還長安既而	-13.6548
叩閤請見曰臣事先	-13.6548
吟相對終無語爭先各有心恃	-13.6548
子龍嗣李雄李雄字仲雋特第三子	-13.6548
宗弼宗弼等排闥入言文扆	-13.6548
枽	-13.6548
母羅氏夢雙虹自	-13.6548
為東北面都招討武信節度使劉知俊為	-13.6548
确	-13.6548
竒之常使綜領親兵	-13.6548
而不能用以授紫霄紫霄盡	-13.6548
而亡大王受之後必有殃	-13.6548
觀碁詩曰竹林二君子盡日竟沉	-13.6548
言吳越戍兵亂殺李仁逹而遁	-13.6548
通之遂自言得道陵天心正法	-13.6548
僧居遁僧洪道報慈長老僧虚中至	-13.6548
失為孫仲謀邪遂受之	-13.6548
子武曰我梁山巨武受詔縛賊何謂天子	-13.6548
富貴因諭以降事令先	-13.6548
平衆大潰懼而請降堅赦	-13.6548
曰吾有一言告爾非徒免死且	-13.6548
王以為浙江安撫副使命指揮使俞浩為	-13.6548
禪師彭幼謙伊用昌	-13.6548
積鏹比内藏三之二	-13.6548
舟江上而去後視其墳	-13.6548
覺忌之奪其兵元遂叛降周諸軍悉潰覺	-13.6548
言惟曰寡君震畏天威願獻	-13.6548
鬼魅治疾病多効	-13.6548
丁章逐刺史朱敖敖奔	-13.6548
二公移去未稱民情	-13.6548
亦謂當有貢獻其介潘慎修以為國被討	-13.6548
兵皆奔散𢎞遣使賜	-13.6548
四罪盡除方明國典	-13.6548
在後堂聞之宻遣中常侍私勅左右停刑	-13.6548
塔穴且度南北不差毫釐	-13.6548
夀濠泗楚光海六州以求罷兵	-13.6548
孰謂逝者荏苒彌	-13.6548
岌復位而與之謀宻遣	-13.6548
改賜資忠緯武恭懿翊戴功臣	-13.6548
斬小成奴迦及首級四千七百隴右	-13.6548
未衰時望方重或	-13.6548
汝曹決戰取功名不爾死於此遂破金牛	-13.6548
沈田子率衆逆戰璝擊敗之退屯	-13.6548
洪亦以䜟文有草付應王又	-13.6548
清泰年中隨先校書避地江表始營釣磯	-13.6548
烘人段尚段文雷	-13.6548
父臨天下乎翼性仁弱遂還東宫一日三	-13.6548
百人去城五里迎候南詔	-13.6548
百隊夾路排立引馬六十匹歩槍	-13.6548
皆當南移李氏子中惟仲	-13.6548
矯詔稱斌無忠孝之心免	-13.6548
置同正員檢校司空明州刺史王子傳	-13.6548
義祖稍知其罪惡将吏多	-13.6548
而起時論薄之建勲年	-13.6548
貴其相有四目如重雲鼻如	-13.6548
賞不足光隂先懐悵怏如何	-13.6548
超登天門朝羣臣於城上殺馬以	-13.6548
輙不忘及長美姿儀風度和雅尚	-13.6548
轊	-13.6548
進階二等太子翼率東宫兵出戰敗	-13.6548
錢二當開通錢之一	-13.6548
頭勁捷有勇力踰閣而入至於皇堂射殺	-13.6548
餞于郊延禀臨訣謂	-13.6548
忪	-13.655
將娶婦忽化為女	-13.655
定真賀曰我軍勝矣	-13.6551
之皆慟哭曰吾王不歸矣	-13.6551
又盡獻于天府舉宗效順前代所無書之	-13.6551
編永彰忠烈所請宜依	-13.6551
親日月之光遽忘江海之志甲兵	-13.6551
天裂廣一丈餘長五十丈	-13.6551
飫	-13.6551
扳	-13.6551
母鄭氏為皇太后立妃張氏為皇后	-13.6551
遂於㑹所斬庠及其兄子	-13.6551
慚稱疾求罷省事許之遂	-13.6551
於萬乘呈才皆過於千金載觀戀主之心	-13.6551
李流李流字𤣥通特第四	-13.6551
田頵守宣州安仁義守潤州	-13.6551
諸郡皆下絳獨不降謀南據閩中過歙州	-13.6551
下皆以胡羯鮮卑氐羌豪傑為之	-13.6551
也少好學便弓馬東羌校尉何攀	-13.6551
于朝詬絳曰是殺我	-13.6551
前後所賜今國家有難當散此以	-13.6551
十三為國置單于臺於渭城置左右賢王	-13.6551
啚	-13.6551
夷鄴曰疾風勁草	-13.6551
朔伏自皇帝登位宸極禮盛郊禋	-13.6551
父者執至殿陛訴	-13.6551
異方之貢名香加逺國之	-13.6551
長安令坐事黜為狄道長	-13.6551
不法温出鎮潤州留知訓輔政	-13.6551
不能竟尤喜劒士角觝之戲怙温權勢多	-13.6551
兼知尚書省事與張居詠李建勲更日入	-13.6551
命兵部尚書賈談入契丹報	-13.6551
孜孜詢察下情猶患壅隔	-13.6551
守分固無侵若筭機籌處滄滄海未深	-13.6551
封暐新興郡侯邑五千	-13.6551
怒已解謂左右曰宋公有才特不識大體	-13.6551
慎儀兄子贊善大夫	-13.6551
持手詔召見遂以丞相同平章事寖	-13.6551
敬洙遘疾召紫霄中夜被髪	-13.6551
王志量恢廓識度宏逺雖少嬰軍旅	-13.6551
生平無所覬望許男	-13.6551
百餘人有道術醮星宿事	-13.6551
石發中營門及鎧之半皆糜碎而輿不傷	-13.6551
紹為都督山東諸軍事豫州牧鎮洛陽	-13.6551
老母忠惟奉主孝則養親固	-13.6551
自陳為人所間烈祖大怒齊	-13.6551
譚紫霄泉州人也與陳守元相善	-13.6551
銅裝朱漆小輦而已	-13.6551
陛下始即位所委何人而頓與臣下	-13.6551
顔仁郁賈郁方仁岳陳洪濟林揆	-13.6551
伏泣謝宗弼子承班	-13.6551
卒赴詳詳用緯計	-13.6551
合禮度出見士大夫改容顧揖	-13.6551
嘆曰吾昔獻謀幽讓皇	-13.6551
墳土未乾而兇賊	-13.6551
宗弼謂樞密使宋光嗣景潤澄等曰宗儔	-13.6551
數年入洛舉進士不中以昇元二年南	-13.6551
曜軍大潰石堪執曜送之	-13.6551
曰太乙接天河金華寳貝多郡侯六十六	-13.6551
李歆李歆字士業暠第二子	-13.6551
澗長流水怨似秋枝欲	-13.6551
睦二州刺史清海武勝等軍	-13.6551
筠僧文遂僧匡逸僧守訥僧𤣥寂小長老	-13.6551
蟬可惜人間容易	-13.6551
覺為監軍使軍政皆出覺聚兵五萬無决	-13.6551
越春秋王僚使公子光傳第三	-13.6551
身遂有孕十四月而生雄常言	-13.6551
逆實保權不孝所致	-13.6551
靈居海上博學精識少許可易	-13.6551
韓王宗智宋王宗澤魯王宗鼎信王宗傑	-13.6551
首二人坐黜者二十餘人餘宥之三月	-13.6551
不識體含仙骨俗爭	-13.6551
丘以配昊天上帝祀太宗於	-13.6551
也美姿儀風度和雅烈祖	-13.6551
亡命至正陽未及渡追騎奄至	-13.6551
使持書至洛稱大蜀皇帝	-13.6551
修身崇善可以轉禍為福	-13.6551
八極濟活兆人李通首述其緯書鄧禹常	-13.6551
器耳如相望法為大貴位過三公不疑	-13.6551
圍金陵太祖又遣進奉使江國公	-13.6551
大旱有蝗蔽日而飛晝	-13.6551
太祖嘉其知禮為易供	-13.6551
奮豺牙而暴物爾則妙施成筭	-13.6551
安城中雞鳴音皆曰基慈安定㕔事前後	-13.6551
將巨武執暐將縛之暐曰汝何小人	-13.6551
岌勸茂親出拒之	-13.6551
差無别不足以鎮華夷共表請進廆官爵	-13.6551
師傅人倫之始汝其夙夜䖍䖍欽承明訓	-13.6551
庭户衣帳悉充塞	-13.6551
張𢎞等以恂在郡有惠	-13.6551
憤激衷罄言而誘諭彼既不	-13.6551
我道成時紫府清都自有期手握藥苗人	-13.6551
接羣臣如布衣交間御小殿	-13.6551
擲劍於石穴約能中者奉以為	-13.6551
改潤州牙城為丹楊宫	-13.6551
敢驅叛黨徑逼仁封吹虺毒以傷	-13.6551
曰易致也就取小麥	-13.6551
江文蔚李貽業歐陽廣喬匡舜張泌汪煥	-13.6551
渒	-13.6551
燕服見學士必先遣中使謝曰小疾不能	-13.6551
犯者指授攻討所向無前故勒寵信彌隆	-13.6551
示信遽得故茗	-13.6551
粳	-13.6551
紫金山築甬道以餉夀	-13.6551
纔鳴旋聞落爪窠巢自潰	-13.6551
而行意自若然御衆	-13.6551
致噬臍梓州之妖氣風驅涪	-13.6551
致犒師錢一百億以送之	-13.6551
興熒惑守心宋景責躬	-13.6551
請韋公還朝獨取成都	-13.6551
譚郊吐谷渾王慕璝遣其弟	-13.6551
譴責見彦能諫書	-13.6551
鄺	-13.6551
酒過量耶乳保不至耶	-13.6551
開寳中金陵内庫猶有耿先生糞	-13.6551
降人天水趙攀閻蘭等夜	-13.6551
霶	-13.6551
便可鼓行而西言終而	-13.6551
内寢謂之曰吾患當不濟卿等善相吾子	-13.6551
可指辰而殄姚襄父子克之在吾	-13.6551
可授依前檢校太尉兼中書令行成都尹	-13.6551
巘	-13.6551
改元天成秋七月庚寅王至自衣錦軍	-13.6551
文曰孤率衆十萬居形勝之地冉閔慕容	-13.6551
暑斯疚吾寧御諸嗚呼哀哉萬物無心風	-13.6551
望攀鱗附翼今不正大	-13.6551
王薨于咸寜院之西堂年二十在位七年	-13.6551
破岐長城等闗四寨	-13.6551
絶内外遣閽寺傳問而已翼及	-13.6551
蕙幄雪舞蘭堂珠籠暮捲金爐夕香麗爾	-13.6551
言惟簡託志妙門存心道典伴臣修	-13.6551
足矣季良曰將士大夫盡節效忠於殿下	-13.6551
陽君替臣僭之象卒有婦人專寵王莽簒	-13.6551
龍尾硯友人欲之而	-13.6551
􁂣	-13.6553
従鎰貢帛二十萬匹白金二十萬觔	-13.6553
答曰僕山東書生鴻筆	-13.6553
史况復備輸懇欵益驗傾䖍叙魯館之夤	-13.6553
如故仍令所司擇日備禮册命主者施行	-13.6553
歸馬之朝不伐不矜	-13.6553
渥丹婉爾清揚	-13.6553
作兆民之慶臣之老母	-13.6554
王食邑四千户食實封一百户	-13.6554
臣之遺孤仰荷聖恩夫復何憂	-13.6554
匭	-13.6554
大火曹局皆盡惟	-13.6554
旋汝謹守樂都無使失墜	-13.6554
西襲乙弗大破之獲牛馬羊四十餘萬熾	-13.6554
騃	-13.6554
筦	-13.6554
鍇銑世祖孫彭城郡王繼文繼欽	-13.6554
十月與慕容永戰于襄陵	-13.6554
慮則春氷共泮開通則東海可歸光榮遽	-13.6554
我之騎將首亂京	-13.6554
掦	-13.6554
汹	-13.6554
行險棧欹雲危	-13.6554
風以繼用天之道又䝉厚加賜貺别降珍	-13.6554
且有父母在都城寜不知忠孝乎但力不	-13.6554
何肅黄珪等率本道排門軍營	-13.6554
宜聲言受詔盡幽并之兵南出	-13.6554
括定民賦每正苗一斛别輸三斗於官	-13.6554
於雪霜雅器價齊	-13.6554
服玩上之累奏授特進檢校太尉宣徳軍	-13.6554
朝野今則盡焦勞而	-13.6554
落草莊宗怒曰衍豈免落草乎	-13.6554
釋之儀虞舜垂衣佇保安全之望丹誠備	-13.6554
銅龜飲穢水出後	-13.6554
閟	-13.6554
令務在惠綏無侵無擾使我赤子樂於南	-13.6554
兵馬使尋授安國衣錦軍防遏指揮使	-13.6554
劉彦貞以攻取自任元宗欲藉金全宿	-13.6554
噪懼退還營遷逼	-13.6554
大掠城中得金帛不可計	-13.6554
奕使阮結銜枚宵濟復大破之	-13.6554
姚萇為司馬討泓于華澤	-13.6554
徙王屋及嵩山苦學自勵食無鹽酪者五	-13.6554
族于泰州宜其及此	-13.6554
昔髙辛氏遊於海	-13.6554
春秋明義吾為天下元帥	-13.6554
時李守貞以河中叛來乞師魏岑查文徽	-13.6554
有妖巫登衙門大樹恣為鬼神語州人	-13.6554
注弩中其執旗者頵見王城中大	-13.6554
火如巫言巫為火也	-13.6554
為留後召誨還都後主親臨	-13.6554
爾曹今無患矣光嗣	-13.6554
矣勒曰右侯之計是也	-13.6554
等千餘人皆死之無一人生降者周兵	-13.6554
聞奏樂輙審音調宫中燕侍	-13.6554
興自平凉如朝那聞冲謀逆	-13.6554
色藥物等皆大梁皇帝降使賜貺雕鞍撼	-13.6554
辠	-13.6554
陳璋殺羅城使葉讓	-13.6554
三十餘人日至朝堂不得入	-13.6554
不如意杖而逐之及歸拜迎門	-13.6554
以廆立功一隅位卑任重	-13.6554
使追殺之及於中塗	-13.6554
公孫夫人方姙夢日入	-13.6554
其務宣流以稱朕意	-13.6554
去諸大臣遣人守宫門王宗弼	-13.6554
及君然上所以寘君于王邸者欲君以道	-13.6554
子知訓知詢知誨知諫	-13.6554
定有從者夜夢文表頷上	-13.6554
左之右之今乃中道而廢侮慢自賢	-13.6554
師南征下詔數後主殺忠臣	-13.6554
張易字簡能魏州元城人	-13.6554
從之即夕果星斗明	-13.6554
惟天所相雨雪必霽	-13.6554
才名乃獨落魄不偶亦不以介意烈祖受	-13.6554
授浙東營田副使常州刺史杜建徽為	-13.6554
斚	-13.6554
於馬前旋及夷門斬朱友	-13.6554
法令熈載年少放蕩不	-13.6554
烈祖烈祖因出所書茗	-13.6554
生辰禮物并御衣紅袍一副金	-13.6554
用孔目官周陟議令常	-13.6554
羗反入漢中殺太守董炳	-13.6554
臍中獨喜而不敢言	-13.6554
軍後徙萊州掖縣易性豪舉尚氣少讀書	-13.6554
進攻連州魯景仁自殺	-13.6554
雄武軍莭度使同平章事馬綽	-13.6554
不預公途葢為之聲價兾動朝	-13.6554
世不易之法也昔長孫無忌請祀髙祖於	-13.6554
之旌鉞册以輅車雖加等之寵光爾皆不	-13.6554
事唐晉事具五代史契丹入中原暉時為	-13.6554
今國家嗣興唐祚追尊孝	-13.6554
以禳之權曰桑榖生朝太戊修徳而殷道	-13.6554
佑佑自殺平縊死獄中皆徙其家外郡	-13.6554
使者旅賀非禮但奉方物	-13.6554
來歸我先王之賵又遣引進使楊彦珣授	-13.6554
全武曰獨行事必不濟	-13.6554
兵興元宗召見賜金紫使典戎府書檄	-13.6554
典賞立功立事之人必無患於不均庶有	-13.6554
冀州兵三萬為前鋒以陽平公融為	-13.6554
合水鎮令茂州刺史顧承郾伺	-13.6554
同王𢎞簡益王𢎞建辨王𢎞濟貴王𢎞道	-13.6554
君曰此地廣大魚鹽所出	-13.6554
在睦親之義分予亦無	-13.6554
堂禮也其服物制度古有常儀	-13.6554
州刺史李簡得之給事左右簡	-13.6554
巴東監軍冠軍將軍南陽韓松為	-13.6554
廣運同徳保定功臣	-13.6554
忘前征時言耶今為陛下立神像可歸休	-13.6554
性子嵩所知少相親老相怨可乎	-13.6554
恩於覆載欲嫁禍於勲賢叠以封章疏其	-13.6554
戲之曰沈道者何日道成	-13.6554
捫敝衣齧蝨追者	-13.6554
於允當布告遐邇咸使聞	-13.6554
族人守恩匡勝為殿使	-13.6554
曰孔子云郊祀后稷以配天宗祀文王於	-13.6554
曰朕以龍驤建業卿其勉之	-13.6554
有欲傾其家者越上書	-13.6554
有海鰌形如大堤長數十丈	-13.6554
死弟呼厨泉立以於扶羅子豹為左賢王	-13.6554
烈祖即日渡江定亂以功遷左領軍将軍	-13.6554
無禁濟隂人宗正謙善卜相西至長安賣	-13.6554
犍為白鵲集玉局	-13.6554
玉壘關謂所親曰吾唐室諫臣終不能拳	-13.6554
王惟紹宋邦英韓慎	-13.6554
王𢎞照通王𢎞政定王𢎞益	-13.6554
疾甚輦而臨軒命太子翼	-13.6554
節杜門力學不交人事烈祖受	-13.6554
簡可以談笑和解乃授給事中副徐鉉使	-13.6554
肇祀之祖宜以神堯配天於	-13.6554
背有草付字遂改姓苻氏自稱大	-13.6554
與之曰善藏吾骨遂自縊二吏	-13.6554
苻健苻健字建業洪第三子也初母	-13.6554
萑	-13.6554
葬後主為給葬費世	-13.6554
行古人所貴賜以錦袍親為	-13.6554
行墨制上自藩方之任下及州縣之官凡	-13.6554
衝為盟主所在擾亂興	-13.6554
親祀于都㑹堂是夕大風蝗墮浙江而死	-13.6554
請依春秋郊以四月上辛	-13.6554
豹為左部帥其餘部帥皆以劉氏為之	-13.6554
逺逺字攸逺父操袁州别駕逺少孤為人	-13.6554
道䖍劉我生聚離間我忠良爾外示叶同	-13.6554
邊元宗欲其子應之乃名之曰	-13.6554
都西上巴東雄衆攻	-13.6554
重建開元宫追福于先王也	-13.6554
鍾謨文理院學士李徳明奉表稱臣	-13.6554
食邑一千户實封一百户又	-13.6554
中孤取天下有易於漢祖	-13.6554
以承高祖之業若能迎駕潼	-13.6554
位非子者蓋以泰伯三讓周道以興故也	-13.6554
光看未足却驅金	-13.6554
匡聖歩軍都指揮使仍領	-13.6554
大都督督中外諸軍事帥精騎一萬	-13.6554
始終可延長於富貴勉承	-13.6554
幷汾忻代嵐憲隆	-13.6554
廟號太祖祖察為孝景皇帝廟號世祖考	-13.6554
弟也少機警有才畧	-13.6554
所畫眼色意思俱在	-13.6554
是將不濟内外多虞國機務廣其令車騎	-13.6554
月以隂以雨事則依然人乎何所悄悄房	-13.6554
為黄梅令時縣境獨木村有妖人諸佑	-13.6554
無不亡之國降亦無由得全徒取辱耳	-13.6554
猒	-13.6554
玉南嶽真君恐未如也	-13.6554
礨	-13.6554
終能克昌家業者其在車騎乎吾寢疾	-13.6554
者當位為上公爵歸本國堅	-13.6554
蠃	-13.6554
諸司奉職庶吏推誠咸著勲勞豈忘奬荅	-13.6554
道徳之本發才智之	-13.6554
遣使振貸黄州旱傷户口	-13.6554
還山金陵受圍間道召還入後苑講否卦	-13.6554
里人多善之與叔父庠	-13.6554
銚	-13.6554
非汝兄弟所能辦闗中	-13.6554
騎一萬自東萊出石逕	-13.6554
瘂	-13.6556
聲色狗馬之友也僕固無所解君之所解	-13.6556
適足以敗國家耳延已	-13.6556
不負國為叛臣作降表遂遇害元宗聞之	-13.6556
卿子光祐不殺也元宗	-13.6556
我心無憂物莫能亂絃爾清商艶爾醉	-13.6556
蟬響吟愁槐凋落怨四氣窮哀萃此秋晏	-13.6556
降必欲得表以兵脅之延鄒投筆	-13.6556
以仲冬有事圜丘思與卿同	-13.6556
内史事冬十月内史舎人潘佑上書切	-13.6556
大咤驚其坐人以故不為時所親附然既	-13.6556
户部侍郎李平交厚國主以為事皆由平	-13.6556
掠姑米里來聘獻	-13.6556
東都副留守周師南侵分兵下東都延	-13.6556
皆以正人許之雖其仇	-13.6556
蔣廷翊姚景陳起賈崇	-13.6556
論其多罪無才不足辱臨遣不	-13.6556
赦復少府監元宗擇廷臣為	-13.6556
高祖子雍王耀樞康王龜圖越王	-13.6556
不荒於政有賢臣輔之繼岌小子豈能遽	-13.6556
仍封蜀王加食邑一千五百	-13.6556
天鑒甚明為善者降之福祉君恩不黨立	-13.6556
屯集之衆其行師法令别載條章務	-13.6556
由是並築將壇顯陞王爵兼兩藩之奥壤	-13.6556
帝之號改稱趙王遣太尉張	-13.6557
易以討禦吾不過一月自	-13.6557
橐	-13.6557
如雉而大尾有火光如散星	-13.6557
州牧祗炳皆虎之庶子也	-13.6557
疹	-13.6557
腰鼓城也擊之終不可	-13.6557
乙弗之資取契汗以贖妻子者是所望也	-13.6558
軍名衣以羅襦銀	-13.6558
險三辰在上一言不欺	-13.6558
下如佛慈悲廣覃諸郡	-13.6558
以重簾環結珠香囊垂	-13.6558
帶飲食之器悉皆中金所給俸賜復數倍	-13.6558
慮花好失前機見此尤宜戒正當家國肥	-13.6558
春風何須思想千年事誰見楊花入	-13.6558
秋七月台州大水請軍儲三十萬斛八月	-13.6558
詞曰梁苑隋堤事已空萬條猶舞舊	-13.6558
㵼	-13.6558
之茍亦不還於是將士皆散	-13.6558
之響上藥非蜀都所紀名	-13.6558
九月唐莊宗遣李稠來通好市珍玩錦	-13.6558
先主夙聞其名覽之而喜遂授秘書郎	-13.6558
右至瑞石山命酒	-13.6558
周遂不支鹽而輸米如	-13.6558
四月八日九龍銜水浴太子之	-13.6558
奉周正朔六月戊寅前台州刺史王弟	-13.6558
廬山僧闢路有大石堅不可鑱紫霄	-13.6558
开	-13.6558
從官伐林木以絶其勢火遂	-13.6558
慕容廆慕容廆字奕落	-13.6558
授鹽二斤謂之鹽米至是淮甸鹽	-13.6558
晨昏烏反哺以知恩竊將比喻雀	-13.6558
會廬江民訟縣令受賕	-13.6558
柝	-13.6558
椀之光秘色抱青	-13.6558
浴時溝中先安銅	-13.6558
為昭武軍節度使戍利州以備唐	-13.6558
無目鼻每夜有聲十日而生柯條遂	-13.6558
祝之曰不糓不徳天降之灾	-13.6558
紿曰詩之㫖訣我有一葫蘆兒	-13.6558
而去由是自負反復南北終無挫衂焉	-13.6558
而有豳風七月之詠焉	-13.6558
艦四百艘水師二萬以	-13.6558
若盡焚之民命安仰	-13.6558
苻登自六陌趨廢橋	-13.6558
詰旦屏人以語敬洙乃	-13.6558
輔吾兒也熈載亦不謝在東宫談	-13.6558
遐願垂前席之言特加敷奏冀遂保家之	-13.6558
遣天下都軍頭周廣	-13.6558
雪涕難勝伏惟某官叶贊萬	-13.6558
餳	-13.6558
骰號子歸聞奏骰號子不知何等語也	-13.6558
不為具草廷謂愧其言然業	-13.6558
不甘詬辱度其勢亂在旦暮蒜山之津	-13.6558
之儀回紇備朝天之禮	-13.6558
之行丐為宣城而義祖不之許尚遲	-13.6558
八子也母陳氏起家内	-13.6558
其稱甚美今明使君中有大志而忽得京	-13.6558
効順拜表疏以祈恩託我慈親述乃寢	-13.6558
口其名殆不可失也且西朝拱	-13.6558
吾與李郎骨肉之情固無間也召見慰勉	-13.6558
和常滁三州従事	-13.6558
壟	-13.6558
外皆已下發州民濬老	-13.6558
孝子嚴永隱士黄錯	-13.6558
宗即位討亂光嗣坐死熈載	-13.6558
對曰家君不幸短命諸子	-13.6558
崇質使異其辭覺徴古因極言徳	-13.6558
師遂授將軍之鉞事非獲已須	-13.6558
年自正月不雨至於六月堅	-13.6558
延鄒草降表延鄒責以忠	-13.6558
彦卿猶列陣城内誓死奮擊謂之巷	-13.6558
徊若有所待客有宋齊	-13.6558
所敗執而殺之金全至拜天威統軍出為	-13.6558
既而徐氏諸子果以不奔赴	-13.6558
日暮轉至州廨長短兵皆盡彦卿取	-13.6558
槍劍麝臍琥珀玳瑁金稜	-13.6558
樓上劍霜未匣槍雪猶	-13.6558
此利而求入宣城山中卒卒度	-13.6558
洞賦詩弔之國中人人傳誦為泣下及	-13.6558
為駙馬都尉閏二月己亥王至自衣錦軍	-13.6558
烈祖欲以為嗣難于越次故不果	-13.6558
烈祖驚起執其手曰善哉子嵩非吾子	-13.6558
爾懸劒待我我亦不憚獨迫於君命不得	-13.6558
特以相授山南之事一以委卿	-13.6558
王沛公以漢中之地時皆	-13.6558
知訓童昏老臣宿將	-13.6558
私撻諸市朝任汝自西自東以遨以	-13.6558
稍長神觀爽邁異于他兒烈祖深器之受	-13.6558
者五萬餘家咸推萇為盟主	-13.6558
者私勸烈祖曰昔項羽	-13.6558
而今而後過而勿改予當循公	-13.6558
而决除虎兕十年對壘萬	-13.6558
而賈勇指井絡以長驅中宵火燃兆庶何	-13.6558
萬餘人斷北道次綿竹	-13.6558
薤	-13.6558
衝臨城鑿城為窟室實薪而焚之城皆摧	-13.6558
身謀我家百口亦不暇顧矣是夜禆將	-13.6558
軍中逐其帥符習推光嗣為留後	-13.6558
遜聞男成死泣告衆曰男成忠	-13.6558
馳驛騎嚴戒前鋒廣宣來者之懷徧諭弔	-13.6558
三千餘落獲牛馬羊百餘萬而	-13.6558
上言乞桐棺葬近地後當尸解	-13.6558
乃隂鑿穴及壘石為塔	-13.6558
亂冦掠太原河東屯	-13.6558
人險保無他慮當體優隆國有舊章不	-13.6558
以脅骨為橋脊骨為臼	-13.6558
伏聞終南山多靈藥	-13.6558
冲幼慮其未堪家國多難吾欲逺追宋宣	-13.6558
勻	-13.6558
厚其禮遣翰林學士王著送	-13.6558
召拜太保中書令與周宗並相	-13.6558
周師攻淮南為北面行營應援使	-13.6558
善與鍾謨相附結謨	-13.6558
器遂斬之鄴欲宥其婦女童稚起曰此皆	-13.6558
大旱烈祖方輔政極于焦勞七月既望雩	-13.6558
太子靚為平原公生為淮南公	-13.6558
女越竊喻其意因題	-13.6558
姓採野繭而衣野粟而食闗西家給人足	-13.6558
孤於帝室至親也主上不能以將相任孤	-13.6558
守太師秋七月甲辰西方慶雲見	-13.6558
寶等至雲中聞垂疾皆引歸	-13.6558
寶責讓之會命軍士向寶大譟	-13.6558
尹奉遣建寧太守霍彪大姓爨	-13.6558
巖乃以白虹為白龍見	-13.6558
已過許昌豫州安定孤逺卒難救衛	-13.6558
帋	-13.6558
師不還豈非朝廷將有事	-13.6558
年頗清淡平易見稱	-13.6558
彪等雖至齎糧不多	-13.6558
待罪保生聚以輸誠朕方示信懷來不逼	-13.6558
得制書匿之表留季良不	-13.6558
復遣知制誥李穆為國信使持詔來曰朕	-13.6558
恐不濟修短命也復何所恨但二	-13.6558
惔	-13.6558
拜司徒平章事知中外諸軍	-13.6558
援出之自言如履大石入朝	-13.6558
於扶羅以其衆留漢	-13.6558
於隆親事實重大承以輕眇	-13.6558
昌齊王𢎞弼韶王𢎞雅鎮王	-13.6558
檢使周鄴出兵捕佑等獲之	-13.6558
歙州刺史神衞軍都虞	-13.6558
永光陵諡曰光文皇帝廟號髙祖劉	-13.6558
汝恪曰太子雖幼天	-13.6558
江國公從鎰鄂國公從	-13.6558
江淚萬行兄弟四人三百口不堪端	-13.6558
深相附結内主齊	-13.6558
漢大赦改元己未漢主更名暠	-13.6558
營退據浮橋以俟我師	-13.6558
爾公爾侯各揚厥職不供	-13.6558
知尚書省事初齊丘累求預政	-13.6558
租役於嘻仁不異逺化無泄邇	-13.6558
縱好不落御觴中元宗太息	-13.6558
而用其事祗加畏焉於	-13.6558
育乃併斬之起由是知名官至監察御史	-13.6558
臣見淖齒李兊復作而讓皇幽囚于丹陽	-13.6558
色變左右股栗而徴古驁然自若	-13.6558
苻生遣苻飛龍拒戰	-13.6558
茱房氣烈菊蕋香豪左右進而言曰	-13.6558
萇憚而不應萇自立堅神像戰未有利軍	-13.6558
西裔復不聽過京師此必有伏計	-13.6558
觀象議之觀象曰夫請	-13.6558
許野鶴等犯我暨陽	-13.6558
詔曰禮莫重於享帝孝莫	-13.6558
諡天皇大帝廟號髙祖	-13.6558
諸軍元宗殂未御梓宫	-13.6558
賞忘勞悁心志	-13.6558
起乃按户籍取佑為里正不服嫚言曰吾	-13.6558
蹙自髠衣僧服而逃被執	-13.6558
辨之於早馴致堅	-13.6558
邁上饒公景遜桂陽公景邈平陽公景逸	-13.6558
郊以仲春卜上辛今之四月非郊	-13.6558
郊以冬至不卜日魯侯	-13.6558
鎬入潭州湖南悉平百官入賀逺獨曰我	-13.6558
關東不毛之地題曰唐左補闕張道古墓	-13.6558
陳用拙王定保周傑趙損	-13.6558
陵之在北境耳今江陵已束手不能自救	-13.6558
集城中矢石如雨賊墜溝洫者不可勝計	-13.6558
之初有徒數十人積數年	-13.6558
人淮南交兵書詔多出越手援筆立成	-13.6558
以驤為騎督特流	-13.6558
侍御史知雜元帥府掌書記起居郎中書	-13.6558
劉洞江爲汪台符	-13.6558
動吳越疑有伏兵解圍去	-13.6558
堪其處嗚呼哀哉佳名鎮在望月傷娥	-13.6558
大散自是子孫失守將相離心	-13.6558
太原公昌率騎一萬襲殺璝	-13.6558
帥步騎四萬討之右將軍都貴馳傳詣鄴	-13.6558
年六十二謚曰穆貧不	-13.6558
年後主立始遷御史中丞勤政殿學士左	-13.6558
建墓禁樵採三月宴府僚於王氏宣華苑	-13.6558
後主握喬手涕泣不能	-13.6558
得之矣其餘摘裂章句鉤校屬耦綺麗	-13.6558
御史中丞掌書記李昊觀察判官徐光溥	-13.6558
慕容寶慕容寶字道祐	-13.6558
慮不然大王當有疾王曰	-13.6558
或見一丈夫衣黄半臂舉手障面及	-13.6558
挾左道自言數世不食肉能使	-13.6558
斡	-13.6558
曰大王覇業方永但分野小災耳請	-13.6558
有烏逐簡而噪避之	-13.6558
死矣簡妻素竒敬洙匿之堂奥旬日簡謂	-13.6558
江文蔚俱以能賦擅名江表時人謂之江	-13.6558
沒了期沒了期	-13.6558
灂	-13.6558
瞿塘北則泥封	-13.6558
者至數百男女無别號曰	-13.6558
茂陵公孫述字子陽爲	-13.6558
裏恨又失掌中身玉笥猶殘藥香奩	-13.6558
見鏡無波皇皇望絶心如之何	-13.6558
趙季良曰亦天時也不有所廢君何以興	-13.6558
道走犍為太守魏紀殺江陽太守姚襲	-13.6558
鑒欲速戰光曰興	-13.6558
陳覺爲景遷教授以賈其聲	-13.6558
茍能守吾言汝為孝子百姓謂	-13.6558
瑕審音者仰止	-13.6559
文成王景遂齊昭孝王景達江昭順王景	-13.6559
艦數百自淮入江勢如震霆烈	-13.6559
女崇華公主後主女鳯儀公主鑾國公主	-13.6559
己丑以左丞相太保宋齊	-13.6559
桃薦實畏日流空林彫晚籜蓮舞	-13.6559
歸中原有主安輯稍定則未可	-13.6559
乃皇王叙酬之典其或兵屯萬旅地廣	-13.6559
之時兮亦如此維今之心兮不如斯嗚呼	-13.6559
寧必無侵虐况王氏開國久	-13.6559
曰取威定霸乃公侯權變之方	-13.6559
樹蒼蒼哀摧無際	-13.6559
然杜門不預世事所與交皆寒畯	-13.6559
第汴陽坊示欲	-13.6559
入天衢此夕一輪滿清光何處無先主	-13.656
慳	-13.6561
賖	-13.6561
淮鎮海崇文耀武宣徳守道功臣以王弟	-13.6561
之逼擁秦民十餘萬口自冶城濟河欲擊	-13.6561
顯原陵偽諡武皇帝廟號太祖	-13.6561
寬	-13.6561
將别聖朝即歸幽壤絶拜章	-13.6561
病躬五神已耗伏惟皇帝	-13.6561
雙闕一息雖存命易	-13.6561
丞相樂安王炳太保張舉	-13.6561
午朔前戎州刺史蕭懐武眉州刺史鮮于	-13.6561
建康市而戮之時年三十	-13.6561
讚率宗室子弟百餘人亦	-13.6561
乃去年號罷尚書丞郎官遣	-13.6561
官競執長鞭自馬至地	-13.6561
徐鉉笑答曰上于近臣豈惜一	-13.6561
推心宗事弗以為嫌	-13.6561
春正月詔曰春秋日食地震星孛木冰	-13.6561
武湖恨無知章爾延	-13.6561
三秋仰徳而跬步千里自此榮遵天路繼	-13.6561
乃慨然曰先帝知我而不	-13.6561
人等擅廢本主專殺内臣潛取資財將為	-13.6561
修邊幅尚名檢	-13.6561
南臺江軍聲大震由是朝廷委以南方	-13.6561
城邑又無犒賞三軍俱是元凶須加顯戮	-13.6561
奢窮幽極致莫得	-13.6561
思棲雲涯發揚掩抑纎	-13.6561
悉國之兵出荆襄以	-13.6561
慕容紹宗也始數言朝廷事所當施行者	-13.6561
於飛鳶裂帛豈勞於繫鴈	-13.6561
極自依依一㑹皆同是到頭誰論非酒濃	-13.6561
此時敬以專使盧卿等	-13.6561
祀之諡曰武悼天王其日大	-13.6561
綠醅不覺錢塘江上月一宵西送越兵來	-13.6561
至桂陽果為越兵所破	-13.6561
藹成新矩霓裳舊曲韜音淪世失味齊音	-13.6561
豪舉跌宕不能蹈䋲墨遂	-13.6561
逵素雄豪得志之後不	-13.6561
邀舞利撥迅手吟商逞羽制革常調法移	-13.6561
陳所志幸望開覽	-13.6561
之故利用曰忽思朱亥之椎猶倚陳平之	-13.6561
仰渥澤以難勝捧閲品名實慚祗受	-13.6561
俄不告而返詰旦復至	-13.6561
先是大星隕于西北月餘而	-13.6561
六轡絶塵之用槍森	-13.6561
切恐數鈞之重轉傷六尺之孤其言	-13.6561
列兵江干以須之文徽	-13.6561
勒部伍為堅壁死守計	-13.6561
千艘煜渡中江望石城泣下	-13.6561
命上直都指揮使邵可遷路彦銖	-13.6561
問其居處對曰生自廣陵長僑螺渚其僕	-13.6561
嚮邇自鑚燧而降未有若斯之盛其可撲	-13.6561
四海乃睠益部僻處一隅茍黎庶之獲安	-13.6561
已賜王羊馬槖駞每	-13.6561
帥餘兵扼雲夢橋	-13.6561
獐	-13.6561
而起皝曰此兒易生似鄭莊公長必有大	-13.6561
自是數遣使宣勞三日一賜食謹遣王朗	-13.6561
蒼鶻知訓因使酒罵	-13.6561
蜀主省上表率文武見任官等望闕瀝	-13.6561
蜀地舋自并門既興王者之	-13.6561
詣温謀先殺顥隂	-13.6561
蹄涔不容尺鯉	-13.6561
連邵郴衡道永六州	-13.6561
遐瞻徳宇但瀝	-13.6561
鍾酒先自啜乃以勸臣令飲釂自旦至日	-13.6561
陽謝曰公等見留不願去也由是不行顥	-13.6561
非經營之在意一昨災	-13.6561
一日夜漏四鼓清蹕	-13.6561
中見景晝瞑有二赤	-13.6561
乃奏多壘之秋義無就逸乞	-13.6561
五月雨雪降霜駿避正殿素服命羣	-13.6561
五百户改賜推誠保徳安邦致理	-13.6561
儉頗尚黄老學居常	-13.6561
元宗立延已喜形于色未	-13.6561
元帥之重衆心所恃一郤足則部下	-13.6561
入白事元宗方哀慕厭之	-13.6561
劉彦貞姚鳳兵以行彦貞舉動	-13.6561
勒將石他自雁門出上郡襲	-13.6561
十嵗比其二十吾已老矣	-13.6561
吏請家諱景大署	-13.6561
員外置同正員檢校司空改明州刺史	-13.6561
埒每謂為史館而不名	-13.6561
大業是社稷之臣也今若委以國事	-13.6561
尚少不習軍旅事遣使召還都部将趙	-13.6561
就綏納皆為特所殺	-13.6561
尾曰諱贓吏於是	-13.6561
恐其設伏不如養銳以俟	-13.6561
援師不至世宗親攻城	-13.6561
景面少頃入鼻竅而寤金由是竒之引	-13.6561
月王命弟鏢為婺州制置使	-13.6561
朝之暇多開延英殿召公卿議當世事	-13.6561
東宫永康初拜侍御郎	-13.6561
東都官寺民廬徙其民	-13.6561
為人沉厚寡言周師䧟廣陵	-13.6561
為海軍統帥王建所	-13.6561
為輔國將軍武威太守封武始侯	-13.6561
燕交音洋洋接色蝶亂落花雨晴寒食接	-13.6561
營而退十一月頵復具舟楫	-13.6561
王命取龍湫于天台山以祈雨九月始	-13.6561
璋而列兵不動本遂以璋還	-13.6561
疾革遺令曰時事如此吾得全	-13.6561
相元宗嗣立以開國勲勞又	-13.6561
矧上林之伺幸而秋光之待	-13.6561
累授鎮東軍親廵都指揮	-13.6561
與清海節度使劉隱十餘戰	-13.6561
芳時之令月可藉野以登	-13.6561
蛇豕成性專利無厭逋逃	-13.6561
見沖敏為厲請道士上章訴天數月竟死	-13.6561
討公孫淵有功拜率義王始建	-13.6561
許弇求為巴東監軍杜	-13.6561
請命于梁梁太祖為置百勝軍	-13.6561
謨時方病風眩在途賦詩十章語	-13.6561
輦窮歡是宴是息	-13.6561
遵鼎湖之躅亦千載一遇也	-13.6561
金全曰諸君以河中在何處而欲自此轉	-13.6561
陳振孫書録解題稱	-13.6561
食帳中候騎告北兵數百並澗皆羸弱諸	-13.6561
七贈給事中謚曰良後主欲修國史訪稿	-13.6561
不問喬憤切曰人臣受重寄	-13.6561
中書視事又以两省事多委給事舎人	-13.6561
乂青州人治尚書左氏	-13.6561
乃服金全善料敵逾月	-13.6561
之實難聞者愕然以為過及後如所料乃	-13.6561
其後領史職者多貴	-13.6561
内者有司計口給食願耕植	-13.6561
刺史李矩潁川太守郭黙軍數敗又乏食	-13.6561
博士淳于岐岐病	-13.6561
厲色拒之至金陵具以事聞後主素友	-13.6561
又自撰元宗實錄十卷	-13.6561
及生紫氣充庭數	-13.6561
唐北平王燧裔孫	-13.6561
善其遷南都也使主扈	-13.6561
噫嘻爾之告我	-13.6561
壬午奉葬先王于茅山	-13.6561
奔睦州陳晟晟頗疑之	-13.6561
子少長富貴惟貪惏聚歛為務莫知兵法	-13.6561
學兵法通解若素習遇亂南奔	-13.6561
客諸軍都指揮檢校太保兼鎮海軍	-13.6561
宫前約兄弟相傳而出	-13.6561
寂即日盡送酒家日夜劇飲醉	-13.6561
後方鎮阻兵道古上疏言五危二亂七事	-13.6561
從弟銶率兵討徐約	-13.6561
怒曰兄弟之間豈虚飾	-13.6561
慕朱雲梅福之節	-13.6561
招討副使張武舉鐵絙拒之	-13.6561
撓人測其必敗暉獨持重部分	-13.6561
攘袂大言謂周師必克元宗	-13.6561
斬之云夜來偶得月詩先主令白乃曰徐	-13.6561
日耗朕甚憫之其嚮風	-13.6561
景福中舉進士釋褐為著作郎遷右拾遺	-13.6561
曰郭氏姦雄雖有國日淺而	-13.6561
有大志常怏怏不樂於吏事	-13.6561
果不為時所容復貶茂州	-13.6561
母方娠夢傳呼北平王來	-13.6561
溯	-13.6561
灊	-13.6561
為勤政殿學士國初命兵部尚書陳濬修	-13.6561
等宰臣李昊已下三十二人	-13.6561
者干戈相接人無定主地易而弗	-13.6561
而孤遇亂伯父球	-13.6561
自保大中預史事始撰烈祖實錄二十卷	-13.6561
與徐鉉喬匡舜潘佑共成	-13.6561
舉非獨無成亦且有害乃命李金全耀兵	-13.6561
萇曰朕本以龍驤建業龍驤之號未嘗假	-13.6561
蒯鼇郭昭慶盧郢章僚	-13.6561
誰復别楚蜀者乎論者或不	-13.6561
起旗幟蔽日金鼓聲聞十餘里諸	-13.6561
軍於趙氏塢使䕶軍將軍楊璧等	-13.6561
邵平郡公從度文陽郡公從信	-13.6561
鄂帥李公待越以殊禮	-13.6561
鎮軍將軍揚州刺史宗之等並有拜授	-13.6561
領江州觀察使尋以江州為奉化軍	-13.6561
騷輕五陵之得侣陋三秦之選曹量珠聘	-13.6561
七千餘人入蜀特等聞尚來甚懼使弟驤	-13.6561
之前蹤常分疆宇所冀同清	-13.6561
于河東河東將李承嗣史儼	-13.6561
以弼文武兼才未忍致法免其尚書令以	-13.6561
佹	-13.6561
使者至獨樹浦大風斷渡比至已無噍	-13.6561
元宗欲傳位齊王景遂詔景遂總庶政	-13.6561
先帝布衣之舊雖不用不當棄之齊	-13.6561
兮無相見期情瞀亂兮誰	-13.6561
兼資文武明識兵略	-13.6561
冬十二月契丹執晉主重貴以	-13.6561
初烈祖左右小臣親信者惟周宗	-13.6561
割江之後先校書不	-13.6561
功成之後九錫自至	-13.6561
叱驋馬一匹金鍍五垂閙裝銀鞍轡一副	-13.6561
名昪字正倫小字彭奴徐州人	-13.6561
呼延氏魏嘉平中祈子於龍門有一白魚	-13.6561
國人歌曰誰謂九龍帳惟貯一歸郎	-13.6561
在巴西張羅守合水巴氐	-13.6561
夀闐卒孫樹機能立壯果	-13.6561
大羌楊阿觸楊酋盛	-13.6561
天地太師封西山侯復其部曲	-13.6561
太子𢎞中常侍嚴震等侍疾禁中	-13.6561
夫立功者患信義不著不患名位不	-13.6561
奏報皆進呈褒祥書題具悉事機良多	-13.6561
女環謂春申君曰妾聞王老無嗣	-13.6561
守長安召太子興詣行	-13.6561
宗廟相承福祉無窮君臣銘勲	-13.6561
宣城人姿容秀發以才思自命	-13.6561
家勢比同舟事資共濟今與東川㸃檢馬	-13.6561
寐至是若與人搏擊	-13.6561
射命中無所遺故思之語未畢敬洙挾朱	-13.6561
川周環列國之山河奄有全蜀之封部	-13.6561
弟置流子也以不陪列	-13.6561
所謂魚入沸鼎而更	-13.6561
指揮使彭彦暉屯龍峒	-13.6561
掉尾其可免乎惟公善	-13.6561
接笳鼙之響地里雖分於兩鎮人心何異	-13.6561
日雷震應聖堂摧兩柱	-13.6561
早入朝之意國主辭以疾且曰臣事大朝	-13.6561
星見而風雨八月甲子朔日有食之	-13.6561
是嵗大水嘉州漂蕩尤甚	-13.6561
曰桃花流水須相信不學劉郎去又来	-13.6561
書御札許自開國立臺	-13.6561
權位日隆中外皆知有禪代之勢而烈祖	-13.6561
歡多多遺致絲竹聲悄綺羅香杳想渙乎	-13.6561
此是日精服之生貴子寤以告豹豹曰吉	-13.6561
涂	-13.6561
深意旋已徑差精甲將擊妖巢	-13.6561
滎陽大破之斬犢首而還	-13.6561
為軍校積功至諸軍都虞	-13.6561
烏叱驋馬一匹金鍍銀閙裝鞍轡一副	-13.6561
爲不法輙歸過於元宗而盛稱景遷之美	-13.6561
父門生王成亡命徐州	-13.6561
特父慕為東羌獵將	-13.6561
犄角之謀尤得輔車之利近併覽同華	-13.6561
王之國朕所以法昊穹而光宅稽典禮以	-13.6561
琳腰帶一條頭尾順鉠十二事通	-13.6561
疏言百姓怨氣上徹于天故	-13.6561
相與倡言佑有神術能升	-13.6561
眼前珍花凋世外春未銷心	-13.6561
瞹	-13.6561
知祥字保𦙍邢州龍岡人	-13.6561
石虎御牀辟方三丈	-13.6561
簡惶恐反言曰臣本野人未嘗仕宦李煜	-13.6561
終以諒直多之及即位首召見慰勉欲用	-13.6561
縛出降雅釋其縛送之長安	-13.6561
翰率師先出江陵宣徽南院使	-13.6561
與傉檀通好請於苑内結盟傉檀	-13.6561
莓	-13.6561
號九華先生封青陽公食青陽一縣租稅	-13.6561
衆八萬五千歸於統萬勃	-13.6561
表謝且請師期冬十月王親	-13.6561
軍敗退歸府城王司徒據漢州	-13.6561
逾年不召徴古使其僚謝仲宣諷景	-13.6561
遣閤門通事舍人李韞授	-13.6561
遣鞍轡庫使王延縞來宣告仍賜國信	-13.6561
都下大水秦淮溢東都火焚數千家二月	-13.6561
都督河北諸軍事冀州刺史廣川郡公	-13.6561
銀閙裝鞍轡一副青叱驋馬一匹裏	-13.6561
開運元年秋七月辛未朔晉大赦改元	-13.6561
閙裝鞍轡一副烏叱驋馬一匹金鍍龍	-13.6561
附之惟續持正不為屈翰林學士常夢錫	-13.6561
階州降其刺史李彦安	-13.6561
隨光嗣為閹給事黄門	-13.6561
隨至大怒曰恨何敬洙不在此敬	-13.6561
雄鼓六師之威勢尋聞退遁殆至滅亡允	-13.6561
雪爪星眸衆鳥歸摩天專待振毛	-13.6561
青叱驋馬一匹陷金	-13.6561
馳卿列備達衷懐重論金石之交别卜	-13.6561
黌	-13.6561
黨與常曰人臣窺國理不可容	-13.6561
鄯	-13.6561
忽夜半寺僧撞鐘滿城皆驚	-13.6561
國遺聲忍乎湮墜我稽其美爾揚其祕程	-13.6562
度餘律重新雅製非子而誰誠吾有	-13.6562
所蹤追悼良時心存目憶景旭雕甍	-13.6562
曰書記自有常職餘各有司存何	-13.6562
風敗俗蠧政害人蝕日月之	-13.6562
上押衙充安國衣錦軍親從副指揮使兼	-13.6562
兼土客諸軍安撫副指揮使銀青	-13.6562
時誚之曰執節分符始作大軍之帥	-13.6562
欺人主孩視親王侍	-13.6562
海神當畏之竟遣行景遂在東宫十三年	-13.6562
疾君子交結小人善事延已遂當樞要	-13.6562
遣吏部尚書李燕中書舍人韋	-13.6562
不從權而狥衆則稽	-13.6562
世宗釋之賜衣冠授給事中	-13.6562
之分山河共永日月長懸瞻	-13.6562
全宗祀不意如是今有死而已時	-13.6562
及是又命山南東道節度使潘美侍	-13.6562
州刺史田欽祚率舟師繼發	-13.6562
張佖知禮部貢舉放進士楊遂等三人清	-13.6562
得專制而行賞但念承世家之餘慶受旌	-13.6562
徳既取我子兮又	-13.6562
月錦水行春繁華何讓	-13.6562
李殷衡倪曙何澤劉濬	-13.6562
殿學士張洎言佖多遺才國主命洎考覆	-13.6562
活生靈載籍具存恢張無爽去嵗密聞風	-13.6562
然後復茂苑未遲王從之乙未董昌猶	-13.6562
牽制用速掃除遂委永平軍節度使劉鄩	-13.6562
紅耳叱驋馬一匹金玉閙裝四	-13.6562
膞	-13.6562
表其墓以其蚤死無子故後主亡國詩	-13.6562
裝鞍轡一副白驄	-13.6562
謝無迕色及易出使契丹景遂	-13.6562
鞍轡一副紫叱驋馬一匹白	-13.6562
兩國之情重固千年之約愧非縟禮粗	-13.6563
僕少處山谷莫預世事不知	-13.6564
及頵婦弟郭從師	-13.6564
憺	-13.6564
曰今日不勝必殺錢郎	-13.6564
殺昭劵及進侍鹿光鉉光鉉	-13.6564
罷為鎮南軍節度使左僕射兼門下侍郎	-13.6564
咍	-13.6564
威將軍馮該自陜	-13.6564
臣種敢修下吏問於左右	-13.6564
至比冀稍聞瘳損何期漸見彌留	-13.6564
悔恨百端不能自弭	-13.6564
李萬敵仍獲漢宏偽淮海招討使印一	-13.6564
歾	-13.6564
為昭聖宫堂為金華殿摩訶池為龍躍池	-13.6564
辛約巴立李萬敵等㑹	-13.6564
鼓角樓為大定門北門為大安門中隔為	-13.6564
倚朝廷以制隣敵傳國三世有地數千里	-13.6564
大起自五月不雨至于十二月	-13.6564
定王繼顒劉繼業劉繼忠	-13.6564
方始供食家人以絮塞	-13.6564
營新宫廷尉續咸	-13.6564
獵于郊遇晝晦如夜星	-13.6564
纇	-13.6564
餘命投身嶺南庶得東	-13.6564
一死于桐廬一死于餘姚江三月	-13.6564
三月為蠶市至時貨易	-13.6564
俗謂之掉書袋因	-13.6564
兖州據廪丘挾南陽王恢為盟主宣太后	-13.6564
勇悍便弓馬臨陣不顧勒竒之曰此兒壯	-13.6564
十八人盡殪石氏鑒在位一百三日	-13.6564
厯唱之存亡健悴	-13.6564
同式瞻虚舘空	-13.6564
壁空餘仲堪之棺實可痛心疾首不寒而	-13.6564
夜暴雨自西北起連日至壬子有海魚二	-13.6564
安南將軍都督八郡諸軍事廣甯太守	-13.6564
數居柄任揣元宗不能察其	-13.6564
曰李相清談不待潤色自成文章	-13.6564
此芳風事傳遐禩人難與	-13.6564
皆大敗塗地誨在兵間	-13.6564
知制誥書命典雅有元和之風	-13.6564
而殺之衆推則為刺史號令肅然莫敢不	-13.6564
至中道宿夜半本陽驚棄輜重走而設伏	-13.6564
被執誨全軍還劒州獻	-13.6564
遐逝嗚呼哀哉該兹碩美	-13.6564
遣供奉官周彦環賜國信二月	-13.6564
魏軍未至擁衆南渡就魯陽王和據滑臺	-13.6564
鮑君福檢校太尉同平章事冬十	-13.6564
黄人其先漢黎陽騎都督累世牙門勒破	-13.6564
乃以龍天合成其字以其不典故不書之	-13.6564
也其視天下之事如奔車之	-13.6564
云佳城今已開雖開不葬埋漆燈猶未爇	-13.6564
召宗室近臣曲宴馮延	-13.6564
吏十一年加檢校司徒始城昇州十四年	-13.6564
固易爾索杯水噀之命工施鑱應手如粉	-13.6564
城成温來觀喜其制度	-13.6564
報曰軍國内外平安俄而不見	-13.6564
奏以聞興復詔恒標曰	-13.6564
性仁厚明敏好學治郡	-13.6564
慕容泓起兵叛堅堅遣子	-13.6564
既銜詔侍人放數百丈緋繩轆轤	-13.6564
昔皆委質於吾今而歸之不亦鄙	-13.6564
曰裴義不負楊公今力屈而降	-13.6564
為名年十二而皝薨哀毁過禮年十八	-13.6564
王保義司空薰倪可福鮑唐	-13.6564
異頃自當復良久果如其言日方午也又	-13.6564
當國深忌同列少所推遜	-13.6564
絶西陵王命副指揮使盛造朱郁大破之	-13.6564
行時風雨大作諸節鎮無一人至者	-13.6564
誣以酒狂貶和州司士	-13.6564
請止削官遷外郡熈載	-13.6564
請無赦又數言齊	-13.6564
軍徙宣州節度推官復入為虞部	-13.6564
都軍副使勤儉寛簡盡反知訓之政	-13.6564
閗	-13.6564
隂兵助爾及戰有黒牛二頭衝	-13.6564
骸骨尚在迄無異焉	-13.6564
黒雲長劒所與舉事者劉威陶雅之徒	-13.6564
㦸土疆漸海方輸豈限于魚	-13.6564
三尺餘當心有赤毫毛三根長三尺六寸	-13.6564
五百户夏四月王以查文徽等獻	-13.6564
今遣正議大夫守尚書吏部侍郎上柱國	-13.6564
以直言忤物常與元宗苦	-13.6564
偓為衢州刺史六月乙未王妣	-13.6564
兮睇予目原有鴒兮相	-13.6564
北羌王盆句除	-13.6564
叔元璝知福州威勝軍事	-13.6564
取容作淫巧以求寵視國用如私財奪君	-13.6564
可用元宗召見訪以國事對曰草野之人	-13.6564
右押衙充上直都知兵馬使銀青光	-13.6564
右殿直王蓍來宣諭仍賜國信	-13.6564
命阮結為制置使又命築嘉興縣城	-13.6564
喜虚譽能射帖子俗謂之劉一箭乃曰敵	-13.6564
國家大計賜宴便殿醉溺于殿陛元宗曰	-13.6564
圍句踐之封子弟量才序進多分于	-13.6564
天下之轅釋天下之駒浩浩乎復	-13.6564
太后妻董氏為皇后子智為皇太子	-13.6564
失問民疾苦夜央而罷	-13.6564
始終無以位期驕無以欲敗度欽承賜履	-13.6564
娶國戚喬曰臣家素貧	-13.6564
宇以耗帛論丘山而委糟	-13.6564
宿坂下僖宗枕建膝	-13.6564
屎	-13.6564
山絶意世事保大初熈載為史館修撰薦	-13.6564
建勲以詩寄延魯曰粟多未必為全計師	-13.6564
後主召講華嚴梵行一品賚金帛甚厚	-13.6564
後苑泛舟池中元宗舟覆景	-13.6564
徐成等跨馬運矛馳	-13.6564
援兵既而福州之軍果為越人所敗	-13.6564
據其橋數戰不利為周	-13.6564
是時上旬月當三更	-13.6564
曰吾平生笑宋公輕出處何至	-13.6564
有國日淺守境已固我兵妄動豈止無功	-13.6564
檢校尚書右僕射守巒州刺史傳琰	-13.6564
歌詩亦清麗然絶不喜傳于人剛褊少恕	-13.6564
歸信州王命方永珍為衢州制置使是月	-13.6564
津塗効珍則那	-13.6564
潤州樞宻副使李徴古白以神	-13.6564
王彦儔蔡州上蔡人	-13.6564
留守東都及景遂為太弟又徙	-13.6564
空蒼蒼兮風凄凄心躑躅兮淚漣洏無一	-13.6564
紉綵維艘被	-13.6564
紹基爲殿直軍都虞候	-13.6564
統軍領義成軍節度使兼侍中保大八年	-13.6564
而端右弼鍾懿號而異列藩可謂	-13.6564
臺三年聚材五年乃成	-13.6564
若以臣堪荷天下之任者寧不能輔少主	-13.6564
薦幣則常歸宰府振英	-13.6564
西平車普馳止王尚	-13.6564
詣後主號泣後主聞其至輙	-13.6564
試銷刑鼎賦儒術之本論有司以鄧及	-13.6564
遁之不追何待禆將臧師朗等恃勇寡謀	-13.6564
遣上殿直景徳倫授	-13.6564
遣御史中尉楊約數其殘酷之罪	-13.6564
遽躍入水中負元宗出人以為精誠所感	-13.6564
金魚袋李徳休使副朝議	-13.6564
隨計金陵凡九舉而曳白者六七	-13.6564
飛嗟予季兮不來	-13.6564
魏復姓冉氏追尊祖隆元皇帝考	-13.6564
􁇂	-13.6564
三月鎮南王以暑濕班師	-13.6564
不先求禮命以令諸侯	-13.6564
不已周人果以藉口兵	-13.6564
不得加一升一合致百姓積累逋懸如有	-13.6564
世孫遷郍率種人内附漢朝嘉之假冠軍	-13.6564
世封洛謂使者曰汝還白東海王幽州褊	-13.6564
並以明經講論左右至是通諸經祀孔子	-13.6564
之吏察邇言以廣視聽好下	-13.6564
之機濟寛猛之政進經學之士退掊	-13.6564
之美義垂拱南面歌詩興禮上與彭韋	-13.6564
之靈廟社之貺方隅底定民黎樂康二氣	-13.6564
乞伏國仁乞伏國仁隴西鮮卑人	-13.6564
事興曰朕過庭無訓使諸子不	-13.6564
二千户實封六百户仍改賜開吳鎮海	-13.6564
二月琦等送離母子於尚尚斬之分其室	-13.6564
亦不敢知曰墜命罔後天不爾諶祐于有	-13.6564
人心猶附宜遣使江東示有	-13.6564
以固舊好亦在審先代之治亂考前載之	-13.6564
以太牢二龍交首嬉翔解角而去皝大悦	-13.6564
以書諭江南君臣語多誚	-13.6564
仰太府寺准舊例	-13.6564
佞九曰節用以行克儉十曰克	-13.6564
使持節六夷大都督督江淮諸軍事	-13.6564
來請入覲從之五月我師凱旋	-13.6564
修國史悉罷他職而佑復上	-13.6564
偽遂使家國愔愔如日	-13.6564
元叛元宗議親征召匡業及統軍劉存中	-13.6564
凡數萬言詞窮理盡忠邪洞分陛下力蔽	-13.6564
利也保權不得已乃出郊迎	-13.6564
制託稱民貧許賣子女儼駁曰昔延魯	-13.6564
勃勃將廢太子璝為秦王	-13.6564
勘逐年給付所司	-13.6564
勿令掌兵以速其禍	-13.6564
十一月建洪州為南都南昌府	-13.6564
及漢征蜀殘民大半	-13.6564
受禪徐玠周宗等以本及李	-13.6564
君無世臣臣無定主	-13.6564
嗚呼哀哉日月有時兮龜蓍既許簫笳凄	-13.6564
嘉歎終無所施用佑七	-13.6564
塔寺拜先王銅容	-13.6564
如其不爾晉侵豫州	-13.6564
如臣兄弟禀承聖教實	-13.6564
妝	-13.6564
子曰雖皆善然無及公者獨指敬洙曰此	-13.6564
官以遂初志改虞部郎中致仕授其子繕	-13.6564
對曰運數之興天地皆助大事若去雖英	-13.6564
小過掌書記孫峴苦言規正	-13.6564
州刺史大彭郡侯食邑一千户傳璙	-13.6564
工部侍郎東都留守以侍衛諸軍都虞	-13.6564
帝王也貴州將令行河沙常所希冀進思	-13.6564
師者獲存則行陣	-13.6564
平為璝所敗倫死之	-13.6564
平甚得民心昇元六年	-13.6564
幽平二州諸軍事征北大將軍幽州牧	-13.6564
延賔院官號亦從改易以避中朝	-13.6564
張羅進據犍為之合水巴蜀為	-13.6564
彰悔過之名太倉及諸州縣受納斛斗並	-13.6564
念我窮子正迷家	-13.6564
惣	-13.6564
我皇家之先出自夏后居	-13.6564
或謂曰終南之言不酬且得罪惟簡不得	-13.6564
掌書記右拾遺累官禮部尚書程	-13.6564
掠蜀中斬雄從祖冉獲驤妻昝	-13.6564
撫之號慟超身長八尺腰	-13.6564
攻岐階州及固鎮	-13.6564
旅以開疆佇遣四民各安其業然後花林	-13.6564
日衰削用事者充位無所為佑憤切上	-13.6564
暮古有桀紂孫皓者破國亡家自	-13.6564
曕	-13.6564
曰君貴不可言至是謂其徒胡圭	-13.6564
曰尚父元老不當待以人臣	-13.6564
曰此嘉祥也其夜夢所見魚變為人左手	-13.6564
曰此忠臣也他日國家急難汝	-13.6564
曰霸王之資非義不濟今晉室雖	-13.6564
有神器兢兢業業懼不負荷幸	-13.6564
東征詔王以國兵分路進討是月南擊	-13.6564
榮性謹厚喜從浮屠	-13.6564
檢使嚴而無私犯令無所貸	-13.6564
次神烏王擢與艾前鋒戰敗退遁河南	-13.6564
正安國功臣鎮東軍親從都指揮	-13.6564
歩軍都虞候劉遇東上閤門使梁	-13.6564
殺其諸兄而不害健	-13.6564
泰始中殺秦州刺史胡烈於萬斛	-13.6564
洮罕之間當七世孫填虞	-13.6564
為追晉陽之事以匡社稷	-13.6564
犀一十株琥珀二十斤玳瑁二百斤金稜	-13.6564
率師水陸並進與國信使李穆同日行	-13.6564
率衆七萬北伐倫倫率騎三萬拒之戰於	-13.6564
玉帶錦帛羊馬及犒軍帛十	-13.6564
王敏等咸承檄起	-13.6564
留守東都請老以司徒致仕	-13.6564
皝每對諸宫人言婦人	-13.6564
益樹朋黨潜自封殖	-13.6564
盡言規正無所撓始雖不	-13.6564
相之星惟帝念功	-13.6564
矯制發建汀撫信之	-13.6564
破細砂等十一寨	-13.6564
示手書曰朕比遭亂離以干戈定秦蜀	-13.6564
祦	-13.6564
秃髪烏孤秃髪烏孤河西鮮卑人	-13.6564
程羽來歸王妃之賵諡	-13.6564
稱職或作螃蠏賦以譏	-13.6564
立然才短恐不能勝其黨卿	-13.6564
約法七章以叔父驤為太	-13.6564
而妙于騎擊馳突若神	-13.6564
腯	-13.6564
至是馮延巳延魯欲廣置	-13.6564
舉兵誅友珪遂即位于汴京更名瑱復稱	-13.6564
著大勲時推令器探	-13.6564
行至盟津起浮橋以濟	-13.6564
襆頭脚以表殊禮復	-13.6564
襟友之命子濟拜焉	-13.6564
詔即以其日造朝儼劾奏覺傾耳私室以	-13.6564
課績有聞或就轉官資或超加任用並舉	-13.6564
謀不可測元宗遂命殷崇義草詔曰惡莫	-13.6564
謂特曰故人相逢不吉當	-13.6564
議者謂扼險要擊可以有功且懲後齊	-13.6564
讚率隴西太守姚秦都	-13.6564
責光擅命還師遣子	-13.6564
貶光禄卿元宗素重之不以為罪累遷左	-13.6564
貶纎芥之惡必去毫	-13.6564
資豪家役使乎大行以臣言	-13.6564
賜予加厚留大梁累年遷刑部侍郎	-13.6564
質同芳樹浮危道	-13.6564
越水民就食境内遣使振	-13.6564
軍傅頴治中張淳	-13.6564
道路以目征討之柄在岑折	-13.6564
遺制已宣行不當追改遂	-13.6564
遺雄書勸去尊號稱藩	-13.6564
還朝授神衞統軍周侵淮南中外震駭	-13.6564
部侍郎盧詹刑部郎中楊薫賜王國信湯	-13.6564
酒泉公倫為太子璝聞將廢已	-13.6564
鋟	-13.6564
鎮勇士川甚有威惠	-13.6564
長女為豐城公主改辭	-13.6564
門王角李基詣洛	-13.6564
開寳五年更官名改内史	-13.6564
開江防送進奉使將兵七千趣瀘州	-13.6564
陛下寢疾數旬奈何忽有	-13.6564
陛下必以臣為罪則請賜誅戮以謝中外	-13.6564
雨周棄所得淮南地北	-13.6564
雲餅鐺糟炙瓏璁	-13.6564
鞦	-13.6564
顰蹙以仁恕為言	-13.6564
[...]
