<unk>	0
<s>	0
</s>	0
之	-3.83683
/	-4.3942
(	-4.73228
也	-4.73978
)	-4.80819
以	-4.84555
而	-4.85617
者	-4.90985
其	-5.07737
有	-5.08664
為	-5.15594
不	-5.1586
則	-5.21052
一	-5.31141
於	-5.42868
水	-5.42879
)(	-5.48816
中	-5.56147
大	-5.58222
種	-5.58763
曰	-5.59949
生	-5.60751
子	-5.64123
用	-5.66768
如	-5.71338
又	-5.76683
人	-5.77603
上	-5.77759
作	-5.83234
無	-5.85508
地	-5.88848
時	-5.89947
可	-5.92043
下	-5.92435
田	-5.95699
葉	-5.97399
土	-5.9855
此	-6.00738
多	-6.01188
三	-6.03976
長	-6.04489
白	-6.05091
亦	-6.09642
令	-6.11884
出	-6.15675
至	-6.16028
日	-6.16494
即	-6.17444
▁	-6.17641
或	-6.18533
食	-6.18536
宜	-6.19804
小	-6.20406
皆	-6.24126
得	-6.24934
與	-6.25414
法	-6.2629
所	-6.26944
于	-6.3131
實	-6.31674
二	-6.33973
成	-6.35248
自	-6.36106
若	-6.3611
草	-6.36726
方	-6.37212
今	-6.3731
故	-6.37471
黄	-6.37637
民	-6.3942
熟	-6.39589
一名	-6.4107
在	-6.43892
及	-6.44509
取	-6.45756
四	-6.46448
根	-6.4665
去	-6.47136
矣	-6.47371
花	-6.47737
後	-6.5105
木	-6.51534
收	-6.52865
行	-6.537
是	-6.54205
樹	-6.54763
五	-6.5633
米	-6.58305
入	-6.58442
凡	-6.58602
蠶	-6.59892
山	-6.64202
氣	-6.64264
欲	-6.65422
内	-6.68315
乃	-6.69964
麥	-6.70945
豆	-6.71935
名	-6.72336
分	-6.72593
必	-6.72903
髙	-6.73533
數	-6.74466
風	-6.75506
相	-6.75516
兩	-6.75552
細	-6.75998
本	-6.76001
云	-6.7617
天	-6.76404
州	-6.76841
耕	-6.76909
雨	-6.78849
稻	-6.80261
青	-6.80673
穀	-6.80684
當	-6.81083
事	-6.82252
同	-6.82636
未	-6.82697
先	-6.83443
平	-6.85363
然	-6.85437
各	-6.85516
謂	-6.85707
榖	-6.86665
治	-6.86857
糯	-6.86985
開	-6.87223
言	-6.87807
春	-6.88013
間	-6.88405
使	-6.88975
石	-6.89984
頭	-6.90459
處	-6.9149
色	-6.94179
桑	-6.95017
少	-6.95801
官	-6.95819
深	-6.96015
既	-6.96743
似	-6.96851
易	-6.96964
火	-6.98016
見	-6.9833
苗	-6.9871
早	-6.98872
農	-6.99195
乾	-6.99355
前	-6.99667
莖	-6.99957
嵗	-7.00147
河	-7.00455
南	-7.0072
赤	-7.00782
非	-7.00976
利	-7.01377
粟	-7.01528
等	-7.02289
禾	-7.02548
菜	-7.02799
年	-7.03155
復	-7.03764
常	-7.03833
秋	-7.04207
和	-7.04208
須	-7.04743
牛	-7.05449
過	-7.05541
縣	-7.05616
十	-7.05627
焉	-7.05881
便	-7.05911
已	-7.06434
爲	-7.07076
力	-7.0743
合	-7.07597
馬	-7.08224
紅	-7.09136
家	-7.09354
每	-7.09668
著	-7.10851
諸	-7.11482
切	-7.11494
將	-7.11574
置	-7.11856
能	-7.11901
味	-7.11922
重	-7.1206
惟	-7.12117
高	-7.1232
冬	-7.13132
初	-7.13189
物	-7.13662
/)	-7.14287
夫	-7.14688
甚	-7.14747
耳	-7.15449
從	-7.17125
夏	-7.17294
通	-7.17437
口	-7.17846
皮	-7.18271
麻	-7.19231
但	-7.19485
條	-7.19522
廣	-7.1969
香	-7.19861
正	-7.20491
陽	-7.21062
經	-7.2116
謂之	-7.22142
盡	-7.22647
雖	-7.2287
布	-7.23011
半	-7.23797
明	-7.23868
安	-7.24208
足	-7.24278
百	-7.24748
糞	-7.25202
知	-7.25502
熱	-7.25814
近	-7.26043
寒	-7.26229
起	-7.27514
來	-7.27708
竹	-7.27973
加	-7.28125
心	-7.28229
更	-7.28895
枝	-7.29196
何	-7.29285
餘	-7.29292
始	-7.29608
厚	-7.29697
外	-7.29866
書	-7.30258
節	-7.30344
九	-7.30384
流	-7.31186
六	-7.31441
盛	-7.31455
國	-7.31753
蓋	-7.32797
海	-7.34118
東	-7.34423
肥	-7.34862
音	-7.35488
定	-7.35659
車	-7.35738
新	-7.3627
主	-7.36831
次	-7.37257
月	-7.37377
立	-7.37706
鋤	-7.37864
畝	-7.3814
微	-7.38349
黍	-7.38426
性	-7.38669
七	-7.39471
積	-7.39562
接	-7.40988
直	-7.41067
金	-7.41281
千	-7.41309
薄	-7.42004
文	-7.42006
萬	-7.42319
稍	-7.42798
難	-7.4332
西	-7.43844
功	-7.43935
别	-7.44156
魚	-7.44349
歲	-7.45108
倉	-7.45159
隨	-7.45472
泥	-7.45711
因	-7.46328
不可	-7.46397
古	-7.46535
八	-7.46556
轉	-7.47074
王	-7.47387
酒	-7.47513
道	-7.48407
北	-7.4852
發	-7.49091
計	-7.4928
濕	-7.49525
鹽	-7.49832
澤	-7.4988
野	-7.50208
傳	-7.50229
葉似	-7.50343
止	-7.50777
果	-7.5098
俱	-7.51037
乎	-7.51502
黑	-7.51734
圓	-7.51796
好	-7.51954
旱	-7.52207
臣	-7.52474
附	-7.52929
居	-7.53229
留	-7.5332
齊	-7.54108
桃	-7.54117
美	-7.54232
棗	-7.54639
極	-7.54687
江	-7.5502
絲	-7.55038
黏	-7.55103
収	-7.55697
要	-7.56161
李	-7.56183
再	-7.56476
注	-7.56709
久	-7.56802
手	-7.56807
給	-7.56958
苦	-7.57092
候	-7.57899
度	-7.58253
比	-7.58592
角	-7.59457
𤓰	-7.61333
肉	-7.61385
門	-7.61831
黒	-7.61974
井	-7.62106
紫	-7.62606
甘	-7.62607
蒸	-7.63624
老	-7.63769
勞	-7.63873
不得	-7.64059
散	-7.64097
養	-7.64121
最	-7.64571
器	-7.64596
省	-7.64878
並	-7.64968
科	-7.65021
之法	-7.6519
應	-7.65292
異	-7.65585
可以	-7.6595
毛	-7.66174
且	-7.66579
周	-7.66859
畆	-7.67156
底	-7.67189
形	-7.6736
清	-7.67761
疏	-7.68248
末	-7.68468
以為	-7.68529
公	-7.68636
隂	-7.68823
湖	-7.68946
仍	-7.69026
堅	-7.69101
藏	-7.69233
興	-7.69432
修	-7.69463
結	-7.69866
工	-7.7022
受	-7.70359
類	-7.70438
連	-7.70534
死	-7.7065
聲	-7.71233
汁	-7.71498
勝	-7.7158
食之	-7.7178
泉	-7.72393
栽	-7.72953
命	-7.74301
量	-7.7456
蟲	-7.74703
就	-7.7488
瓜	-7.75123
損	-7.75439
雲	-7.75467
傷	-7.7547
備	-7.7564
除	-7.75777
制	-7.75804
晚	-7.75826
羊	-7.75842
病	-7.76372
世	-7.77036
尺	-7.77178
遂	-7.77239
落	-7.77566
急	-7.77858
㣲	-7.78218
灰	-7.78287
煑	-7.78588
具	-7.78717
良	-7.78733
亦可	-7.79067
原	-7.79166
雞	-7.80399
倍	-7.80546
身	-7.80575
衣	-7.80692
浸	-7.8077
務	-7.81154
許	-7.81357
化	-7.81455
種之	-7.81467
反	-7.81481
理	-7.81532
夜	-7.81549
油	-7.81576
盖	-7.81845
雜	-7.82375
勤	-7.82441
元	-7.82972
粒	-7.83131
不能	-7.83247
採	-7.83323
烏	-7.83569
太	-7.85112
漸	-7.85267
二月	-7.85587
五月	-7.85834
鄉	-7.8698
葢	-7.87267
屋	-7.87747
稱	-7.87874
斗	-7.87946
户	-7.88172
輪	-7.88223
致	-7.88257
而不	-7.88563
陳	-7.88852
解	-7.8886
業	-7.89201
漢	-7.89812
逺	-7.8985
里	-7.8994
所以	-7.89982
滿	-7.89989
任	-7.90022
輕	-7.90148
引	-7.9021
猶	-7.9053
獨	-7.90544
移	-7.90744
舊	-7.90932
城	-7.91465
覆	-7.91594
二十	-7.91665
待	-7.91702
築	-7.9185
邊	-7.91951
面	-7.92094
尖	-7.92153
聞	-7.92245
向	-7.92536
全	-7.92618
短	-7.9274
兒	-7.92769
軍	-7.92903
圖	-7.93396
龍	-7.93585
荒	-7.93594
糓	-7.93953
饑	-7.94083
水利	-7.94306
神	-7.9455
遇	-7.94636
善	-7.95062
益	-7.95159
載	-7.95214
沙	-7.9534
冷	-7.95434
尤	-7.95504
還	-7.95712
露	-7.95712
燥	-7.95715
祭	-7.96198
變	-7.96282
首	-7.96482
之地	-7.96563
舉	-7.97037
朕	-7.97178
差	-7.97179
齊民要術	-7.97189
池	-7.97265
八月	-7.98064
府	-7.98141
溝	-7.98257
然後	-7.98363
葵	-7.9864
梨	-7.98713
豐	-7.98796
志	-7.98942
按	-7.98992
悉	-7.99011
横	-7.99049
繭	-7.99071
動	-7.99379
他	-7.99439
歸	-7.99719
穂	-8.00285
骨	-8.0036
毎	-8.00532
天下	-8.0061
意	-8.01345
屬	-8.01413
錢	-8.01493
詩	-8.01551
核	-8.01597
放	-8.0163
樂	-8.01948
由	-8.02109
論	-8.02218
渠	-8.027
衆	-8.02795
磨	-8.02805
升	-8.02832
川	-8.03006
飯	-8.03236
淨	-8.03249
失	-8.03498
光	-8.03798
體	-8.03848
司	-8.04021
造	-8.04055
乆	-8.04359
視	-8.04449
冝	-8.04766
秫	-8.04786
終	-8.05106
求	-8.05121
均	-8.05163
味甘	-8.05378
藥	-8.05631
三年	-8.05829
簇	-8.05867
稼	-8.06174
梅	-8.06364
永	-8.06532
字	-8.06571
𤣥扈先生曰	-8.06732
卷	-8.06883
朝	-8.07096
報	-8.07161
脚	-8.07438
刈	-8.07509
哉	-8.07518
頗	-8.0771
尚	-8.08163
稷	-8.08221
社	-8.08259
空	-8.08264
六月	-8.08282
帶	-8.08559
旋	-8.08758
勿	-8.0954
貴	-8.09544
代	-8.0967
湯	-8.09866
畢	-8.09913
破	-8.103
可食	-8.10327
服	-8.11425
指	-8.11442
茶	-8.11486
蜜	-8.11536
照	-8.11544
穗	-8.11571
歳	-8.1159
議	-8.11696
嘗	-8.12021
調	-8.12165
氏	-8.12424
目	-8.12561
依	-8.12608
十月	-8.12613
三月	-8.12747
殺	-8.12805
兮	-8.12816
惡	-8.13233
都	-8.13248
固	-8.13282
煮	-8.13367
岸	-8.13666
七月	-8.13952
共	-8.14104
齒	-8.14529
􁀙	-8.14992
濶	-8.15397
速	-8.15432
正月	-8.15668
甲	-8.15784
設	-8.15826
也又	-8.16044
雪	-8.16113
所謂	-8.16131
麴	-8.16262
擇	-8.16278
我	-8.16278
丈	-8.16305
軸	-8.16343
縣物産	-8.16479
區	-8.16707
彼	-8.17106
納	-8.17111
圍	-8.1747
絶	-8.17475
畦	-8.17578
徧	-8.17594
恐	-8.17616
禮	-8.17734
爛	-8.17973
濟	-8.18022
減	-8.18029
望	-8.18075
如此	-8.18161
資	-8.18452
唐	-8.18833
飢	-8.18941
粉	-8.18943
胡	-8.18957
鐵	-8.19118
聚	-8.19354
華	-8.19392
賦	-8.19663
率	-8.19713
遲	-8.19765
宻	-8.19819
廢	-8.19823
容	-8.19881
密	-8.20078
湏	-8.20089
植	-8.20094
潤	-8.20138
詩云	-8.20139
芽	-8.20302
九月	-8.20486
辛	-8.20597
尾	-8.20626
糧	-8.20727
俗	-8.21467
杏	-8.21623
又有	-8.21961
寧	-8.22069
約	-8.22093
打	-8.22115
産	-8.22393
栗	-8.22539
之後	-8.22744
政	-8.2282
浮	-8.23521
房	-8.2356
殻	-8.23584
息	-8.23967
註	-8.24359
林	-8.24364
存	-8.24438
蒿	-8.24443
却	-8.24506
飲	-8.24634
刀	-8.24801
害	-8.24867
又似	-8.25254
建	-8.25339
畜	-8.25387
請	-8.25421
大小	-8.25422
虚	-8.25902
芋	-8.25908
郡	-8.26429
嘉	-8.2668
茂	-8.26772
精	-8.26825
并	-8.26851
義	-8.26902
犂	-8.26921
四月	-8.27028
寸	-8.27269
藍	-8.27274
斷	-8.27353
特	-8.27357
交	-8.27366
梁	-8.27854
災	-8.28275
女	-8.28293
役	-8.283
星	-8.28325
葱	-8.28385
帝	-8.28524
奏	-8.28701
仁	-8.28802
稀	-8.28876
粱	-8.28922
説	-8.29101
晴	-8.29217
盆	-8.29289
忌	-8.29298
箔	-8.29539
燒	-8.29699
灌	-8.29875
大如	-8.29907
親	-8.3014
保	-8.30299
遍	-8.30545
占	-8.30601
園	-8.31873
匀	-8.31962
不知	-8.32293
兼	-8.3234
張	-8.32369
費	-8.32376
曲	-8.32381
總	-8.32783
列	-8.32875
思	-8.32908
佳	-8.33332
期	-8.33475
管	-8.33572
順	-8.33581
餅	-8.33664
豈	-8.33885
洗	-8.33942
将	-8.33943
蜀	-8.34345
塗	-8.34626
南方	-8.34785
封	-8.34877
其葉	-8.35079
橘	-8.3515
苖	-8.35162
掘	-8.35277
塞	-8.35491
停	-8.35496
士	-8.35505
篇	-8.35536
供	-8.35608
丁	-8.35907
温	-8.35949
旁	-8.3613
芒	-8.36251
觀	-8.36489
者為	-8.365
降	-8.36586
職	-8.36605
飼	-8.36767
摘	-8.3685
耘	-8.3709
玉	-8.37098
限	-8.37139
吳	-8.37154
塘	-8.37602
甕	-8.37759
教	-8.37808
織	-8.37833
椒	-8.38115
壅	-8.38165
免	-8.38374
呼	-8.3866
綿	-8.3876
富	-8.38825
澆	-8.39046
韭	-8.39273
板	-8.39301
一種	-8.39337
補	-8.40363
嫩	-8.40398
葉而	-8.40511
充	-8.40818
仰	-8.40933
登	-8.40951
是也	-8.40963
守	-8.4126
凍	-8.41498
陵	-8.41515
爾	-8.41725
種者	-8.41748
孔	-8.41981
晩	-8.41998
京	-8.42068
秧	-8.42122
淺	-8.42455
貯	-8.42541
繁	-8.42635
盤	-8.42677
之間	-8.42836
眼	-8.43143
大者	-8.43271
闊	-8.43309
勿令	-8.43424
亦有	-8.43435
蒲	-8.43798
背	-8.43804
栁	-8.4385
刺	-8.44212
推	-8.44336
被	-8.44341
集	-8.44358
盈	-8.44374
寛	-8.44405
患	-8.44923
臨	-8.44963
薑	-8.45094
曬	-8.45465
碎	-8.45553
之屬	-8.45596
訖	-8.46074
運	-8.46094
諭	-8.46178
裏	-8.46756
遺	-8.46966
徑	-8.47044
以上	-8.47199
勸	-8.47387
北方	-8.4743
二年	-8.47511
穫	-8.4775
軟	-8.47931
路	-8.48449
强	-8.48504
消	-8.48537
架	-8.48564
墻	-8.48576
喜	-8.48578
陸	-8.48663
支	-8.49023
告	-8.491
詳	-8.49104
宋	-8.49105
看	-8.49165
本草	-8.49368
陰	-8.49736
考	-8.49767
牆	-8.49777
凉	-8.49796
對	-8.49801
籠	-8.49803
庶	-8.5003
炊	-8.50344
又名	-8.5051
莫	-8.50627
之利	-8.50761
品	-8.50944
滋	-8.50944
輸	-8.50965
枯	-8.50966
十二	-8.50998
編	-8.51502
離	-8.51545
暖	-8.51564
麵	-8.51673
活	-8.51815
截	-8.52077
武	-8.52102
壤	-8.52129
母	-8.52209
束	-8.52214
查	-8.52221
信	-8.52233
舂	-8.52238
折	-8.52245
霜	-8.5259
秈	-8.52591
圖說	-8.52983
部	-8.53032
爾雅曰	-8.53076
之田	-8.53366
賣	-8.53443
委	-8.53483
步	-8.53487
結實	-8.53554
昔	-8.53696
水旱	-8.53878
一日	-8.53905
硬	-8.54056
逐	-8.54062
壓	-8.54066
蘇	-8.54093
穿	-8.5412
吏	-8.54192
松	-8.54714
誠	-8.54724
申	-8.54752
插	-8.54786
荆	-8.55163
而已	-8.55301
說	-8.55334
農事	-8.55539
之所	-8.55678
亦不	-8.55743
宿	-8.55949
徒	-8.55993
腹	-8.55999
疾	-8.56001
章	-8.56003
垂	-8.56046
榆	-8.56086
菽	-8.56148
扵	-8.5617
斫	-8.5648
淡	-8.56501
繩	-8.56718
羅	-8.56737
大麥	-8.56794
江南	-8.56865
銀	-8.57271
唯	-8.57334
源	-8.57353
又曰	-8.57419
問	-8.57434
柿	-8.57917
煎	-8.57948
端	-8.57954
鑿	-8.57959
皆可	-8.58075
酢	-8.58297
蒜	-8.58322
婦	-8.5865
越	-8.58705
戸	-8.58711
詔	-8.58956
邑	-8.59137
疎	-8.59371
壠	-8.5941
一升	-8.59504
救	-8.59506
剪	-8.59892
宗	-8.59897
了	-8.60038
味苦	-8.60061
柱	-8.60114
三十	-8.60133
助	-8.60313
典	-8.60657
棄	-8.60694
瓠	-8.60696
蝗	-8.60698
情	-8.6073
績	-8.60775
東南	-8.60812
鄭	-8.60937
頻	-8.61046
濬	-8.61272
蛾	-8.61326
裹	-8.61363
承	-8.61386
紙	-8.61412
煖	-8.61416
記	-8.61587
勢	-8.61653
祈	-8.61778
施	-8.61943
諺云	-8.62018
糠	-8.62059
不宜	-8.62103
只	-8.62108
毋	-8.62147
酸	-8.62382
有司	-8.62428
楊	-8.62527
梢	-8.6262
采	-8.62648
黃	-8.62802
憂	-8.62845
州縣	-8.63126
貧	-8.63208
鹹	-8.63272
牧	-8.63366
膏	-8.63371
之處	-8.63395
號	-8.63434
願	-8.63445
禁	-8.63454
真	-8.63465
郊	-8.63515
一尺	-8.6402
脂	-8.64028
柴	-8.64222
一斗	-8.64526
墾	-8.64629
甜	-8.64845
畧	-8.64946
名曰	-8.65315
猪	-8.65478
之時	-8.65508
徳	-8.65603
耙	-8.65628
歩	-8.6563
暴	-8.65659
移栽	-8.65889
頃	-8.6597
室	-8.66178
糴	-8.66203
延	-8.6625
機	-8.66345
案	-8.66381
欲得	-8.66496
第	-8.66772
叉	-8.66954
預	-8.67002
义	-8.6711
草木	-8.67327
朱	-8.6777
秦	-8.67775
授	-8.68228
雷	-8.68539
材	-8.68558
史	-8.68665
防	-8.68931
大豆	-8.69091
弱	-8.69233
農政全書	-8.69256
午	-8.69275
犁	-8.69285
莢	-8.69291
蔓	-8.69499
牙	-8.69896
例	-8.69906
二種	-8.69913
緩	-8.69957
虛	-8.69994
繫	-8.70001
頓	-8.70007
遠	-8.70016
小豆	-8.70358
上下	-8.70516
又云	-8.70546
五十	-8.70597
君	-8.70738
鳥	-8.70742
五榖	-8.70903
者名	-8.70971
水浸	-8.70999
價	-8.71095
皇	-8.71448
籍	-8.71461
毒	-8.71463
染	-8.71477
兵	-8.7151
懸	-8.71511
斯	-8.71958
吾	-8.72035
狹	-8.72242
杜	-8.72265
邉	-8.72356
其利	-8.72501
屯	-8.72876
蘆	-8.7301
殊	-8.73024
耬	-8.73028
滑	-8.73039
茅	-8.73044
挿	-8.73053
察	-8.73061
歴	-8.73061
慮	-8.73073
財	-8.73079
潮	-8.73084
救飢採	-8.7318
淘	-8.73577
愈	-8.73599
綠	-8.73663
厥	-8.73799
増	-8.73834
三日	-8.73841
来	-8.73863
是以	-8.7392
麤	-8.74222
農家	-8.74476
粥	-8.74501
某	-8.74553
斑	-8.74593
象	-8.74635
十日	-8.7487
二尺	-8.75227
課	-8.75342
顆	-8.75367
試	-8.75428
晉	-8.76069
坐	-8.76095
村	-8.76123
謹	-8.76135
虎	-8.76142
督	-8.76151
柄	-8.76164
徐	-8.76178
租	-8.762
燕	-8.76213
畏	-8.76236
小麥	-8.76479
柔	-8.76752
三升	-8.76836
醋	-8.76881
獲	-8.76968
漬	-8.76987
獻	-8.77037
開花	-8.7733
用之	-8.77547
一人	-8.77635
雙	-8.77684
傍	-8.77719
百姓	-8.77806
者也	-8.77816
闗	-8.77856
浦	-8.77869
為之	-8.78084
麻子	-8.78292
緑	-8.78393
御	-8.78528
至於	-8.78551
不足	-8.78556
卵	-8.78607
不用	-8.7908
買	-8.79365
鳴	-8.79398
祀	-8.7944
掌	-8.79443
效	-8.79458
藤	-8.79513
虞	-8.79779
其根	-8.79908
下種	-8.7992
之水	-8.80101
秀	-8.80135
進	-8.80187
宣	-8.80222
到	-8.80292
該	-8.80296
窖	-8.8033
有餘	-8.80876
回	-8.81048
葛	-8.81055
隴	-8.81059
刻	-8.81061
序	-8.81077
壟	-8.81081
景	-8.81111
衡	-8.81179
專	-8.8118
亦得	-8.81194
夏至	-8.81273
取其	-8.81297
則不	-8.81446
也其	-8.81529
粳	-8.81536
蔬	-8.81729
税	-8.819
福	-8.81912
伏	-8.81924
李時珍曰	-8.81944
適	-8.81959
舍	-8.81977
撥	-8.81997
蓄	-8.82053
食法採	-8.82073
窮	-8.82184
聖	-8.82444
其實	-8.82587
不過	-8.82588
熟時	-8.82622
▁(	-8.82689
魏	-8.8269
狀	-8.82717
春秋	-8.82719
不同	-8.82758
粗	-8.82795
踏	-8.82826
線	-8.82856
芥	-8.83116
割	-8.8335
糶	-8.83394
沃	-8.83477
珠	-8.83559
學	-8.83603
捲	-8.83611
剝	-8.83654
導	-8.83655
爾雅	-8.83893
陂	-8.84197
之制	-8.84282
堪	-8.84327
揚	-8.84406
棉	-8.84425
浥	-8.84483
乳	-8.84487
瓦	-8.84523
胡麻	-8.84958
暑	-8.85113
西北	-8.85114
埋	-8.85159
畫	-8.85346
亂	-8.85355
砧	-8.85434
三四	-8.85932
之類	-8.85933
豬	-8.86142
其子	-8.86173
德	-8.86189
藉	-8.86223
柳	-8.86225
圩	-8.86229
送	-8.86304
不生	-8.86631
南北	-8.86661
界	-8.86984
耨	-8.86986
饒	-8.87086
索	-8.8712
辰	-8.87313
故名	-8.87554
生者	-8.87567
蓮	-8.87692
洩	-8.8795
借	-8.87955
單	-8.87965
假	-8.87967
慶	-8.88013
閉	-8.88035
槐	-8.88232
臘月	-8.88234
不及	-8.88348
俗名	-8.8848
炙	-8.88705
愛	-8.88708
幾	-8.888
三尺	-8.88824
執	-8.88841
浄	-8.88897
增	-8.88899
係	-8.88908
飛	-8.88929
環	-8.88974
瓣	-8.89693
營	-8.89773
市	-8.89782
羣	-8.89792
決	-8.89801
稼穡	-8.89806
歌	-8.89817
闕	-8.89834
場	-8.89844
驗	-8.89854
乘	-8.89863
眠	-8.89912
之中	-8.9049
雅	-8.90677
穰	-8.90689
據	-8.90693
壯	-8.90729
拔	-8.90789
堰	-8.90799
齊民要術曰	-8.90833
可種	-8.90976
之民	-8.91142
而後	-8.9163
俟	-8.91634
酘	-8.91644
含	-8.91651
􁁊	-8.91681
恒	-8.91687
枚	-8.91698
着	-8.91723
䟽	-8.91728
筐	-8.91773
曝	-8.92037
換	-8.92059
低	-8.92302
所在	-8.92344
語	-8.92464
賑	-8.92519
雄	-8.92537
鐡	-8.92544
倒	-8.92627
一年	-8.9267
扶	-8.92687
地方	-8.92929
白色	-8.92969
扁	-8.9345
卧	-8.93533
鎮	-8.93543
舌	-8.93655
人力	-8.9367
杷	-8.93948
明年	-8.94049
幹	-8.94125
治馬	-8.94165
初生	-8.94232
三寸	-8.94379
往	-8.94419
團	-8.94465
習	-8.94512
搗	-8.94513
蟻	-8.94579
注曰	-8.94794
坑	-8.95005
奠	-8.95175
紀	-8.95366
隔	-8.95378
絹	-8.95383
帛	-8.95406
師	-8.95426
焦	-8.95463
純	-8.95466
鼓	-8.95477
故曰	-8.96088
髙下	-8.96305
舒	-8.96415
達	-8.96489
刃	-8.96495
七日	-8.96603
山谷	-8.96663
故也	-8.96769
黄色	-8.96913
二升	-8.96958
左	-8.97205
鹿	-8.97305
醤	-8.97308
之事	-8.97313
血	-8.97382
蔥	-8.9739
咸	-8.97404
筋	-8.97434
脆	-8.97436
𦂳	-8.97445
己	-8.97469
芹	-8.97477
黍稷	-8.97561
孟	-8.97571
漿	-8.98067
可作	-8.98101
蠟	-8.98363
負	-8.98383
棠	-8.98395
閒	-8.98397
灌溉	-8.98403
商	-8.98414
避	-8.98418
釡	-8.98432
斜	-8.98464
辨	-8.98492
農夫	-8.98936
結子	-8.99056
漫	-8.99105
冷水	-8.99159
㑹	-8.99262
嚴	-8.99333
鼻	-8.99335
培	-8.99337
瘦	-8.99365
併	-8.9938
五六	-8.99388
芟	-8.99407
二三	-8.99418
大而	-8.99433
碾	-8.99441
救飢	-8.99442
脉	-8.9949
斛	-8.99492
周禮	-8.99516
不如	-8.99746
准	-9.00365
旦	-9.00377
楚	-9.00385
兹	-9.00406
予	-9.00409
削	-9.00591
一石	-9.0068
十餘	-9.00702
小而	-9.00837
瓮	-9.00923
狀如	-9.00958
筩	-9.01184
多少	-9.01257
谷	-9.01342
翻	-9.01422
走	-9.01429
劉	-9.01431
擊	-9.01497
中有	-9.01981
第一	-9.02245
糟	-9.02312
遷	-9.02427
包	-9.02448
茹	-9.0245
所宜	-9.02458
溝洫	-9.02495
忽	-9.02507
鮮	-9.0251
稈	-9.02539
槽	-9.02552
四年	-9.02674
淮	-9.02942
炒	-9.0298
之家	-9.03073
四五	-9.03189
蹄	-9.0322
水田	-9.03306
領	-9.0344
投	-9.03477
今人	-9.0348
縱	-9.03492
鋪	-9.03501
溪	-9.03503
片	-9.03509
縁	-9.03523
趨	-9.03551
麄	-9.03557
杵	-9.0356
累	-9.03566
十六	-9.03567
一莖	-9.03656
為上	-9.03783
者皆	-9.04129
右	-9.04516
昌	-9.04524
㸃	-9.04544
罪	-9.04551
靣	-9.04563
壁	-9.04565
巧	-9.04583
境	-9.04618
休	-9.04622
澁	-9.04622
之患	-9.04708
不復	-9.05089
耗	-9.05546
丹	-9.05583
杖	-9.05617
港	-9.05644
巳	-9.05655
竪	-9.05666
詩曰	-9.05668
令人	-9.05691
稗	-9.05706
俾	-9.05712
十五	-9.05958
擣	-9.06606
賤	-9.06628
持	-9.06655
而生	-9.06656
苧	-9.06664
貫	-9.06686
育	-9.06707
况	-9.06745
以備	-9.06765
元年	-9.06875
株	-9.06952
壞	-9.07025
覆之	-9.07026
十年	-9.07108
也今	-9.0713
國家	-9.07219
䑕	-9.07686
遣	-9.07691
掃	-9.07726
殷	-9.07733
拌	-9.07753
抑	-9.07779
塊	-9.07782
攤	-9.07792
圏	-9.07828
責	-9.07862
味甜	-9.08106
古人	-9.08127
冬月	-9.08214
自然	-9.08267
旬	-9.08504
農桑通訣	-9.08524
者不	-9.08543
有三	-9.08551
秔	-9.08596
鬚	-9.08648
觧	-9.08858
閘	-9.08858
戒	-9.08877
斂	-9.08887
姑	-9.08888
漏	-9.08894
退	-9.08918
辣	-9.08918
稠	-9.0892
㝷	-9.09522
用水	-9.09549
二百	-9.0967
風雨	-9.0972
伐	-9.09836
岐	-9.09904
監	-9.09941
疑	-9.09942
擘	-9.09958
奪	-9.0996
客	-9.09961
卒	-9.09963
夷	-9.09975
誤	-9.0998
賜	-9.09986
排	-9.0999
淤	-9.09993
剥	-9.1001
惠	-9.10014
質	-9.10025
位	-9.10027
随	-9.10043
改	-9.10047
貢	-9.10092
五升	-9.10455
撒	-9.10532
煩	-9.10782
若干	-9.10983
簡	-9.11068
崇	-9.11101
圃	-9.11102
臭	-9.11115
葦	-9.1113
念	-9.11136
穴	-9.11208
庚	-9.1121
不必	-9.11249
圖説	-9.11259
無毒	-9.11294
祖	-9.11915
臘	-9.11968
以此	-9.12021
四時	-9.12082
素	-9.12204
選	-9.12223
釋	-9.12245
夾	-9.12272
禹	-9.12276
羙	-9.12284
纒	-9.12287
諺曰	-9.12327
提	-9.12332
斤	-9.12705
皆有	-9.12914
一二	-9.13059
味辛	-9.13092
季	-9.13348
蓼	-9.1337
㧞	-9.13387
把	-9.13388
攪	-9.13415
較	-9.13421
式	-9.13447
薦	-9.13452
􁎈	-9.13467
扇	-9.13494
五寸	-9.14149
儲	-9.14161
歛	-9.14329
其中	-9.14333
豉	-9.1438
奉	-9.14404
暮	-9.14561
槩	-9.1457
㫁	-9.14586
榦	-9.14693
小民	-9.14908
十二月	-9.15033
油鹽調食	-9.15063
種植	-9.15067
者以	-9.1508
一曰	-9.15192
其上	-9.15398
次之	-9.15448
茄	-9.1546
録	-9.15614
沸	-9.1569
疆	-9.15693
廬	-9.15709
溢	-9.1572
敬	-9.15731
柰	-9.15732
𤣥	-9.15744
英	-9.15745
隄	-9.15754
十三	-9.15856
没	-9.15859
之功	-9.16059
十八	-9.16331
飽	-9.16356
來年	-9.16416
曝乾	-9.16611
衣食	-9.16746
釀	-9.16798
研	-9.16809
椹	-9.16839
薤	-9.16861
黎	-9.16882
笋	-9.16884
仙	-9.16892
博	-9.16936
稅	-9.16946
完	-9.16976
今處處有之	-9.16981
腐	-9.16983
側	-9.16984
曬乾	-9.17162
五年	-9.17384
以水	-9.17403
葉如	-9.17652
者亦	-9.17724
印	-9.18036
穢	-9.18066
鍾	-9.18081
柑	-9.18093
竿	-9.1814
竟	-9.18149
决	-9.18169
段	-9.18184
朔	-9.18245
甚多	-9.18247
耕種	-9.18289
而小	-9.18515
數十	-9.18697
叢	-9.18929
條下	-9.19205
壺	-9.1933
識	-9.1934
輒	-9.19349
堤	-9.19356
審	-9.19369
雀	-9.19397
尺許	-9.19476
五尺	-9.19654
耜	-9.2022
狗	-9.2029
腰	-9.20511
侵	-9.20557
參	-9.20563
耶	-9.20578
徴	-9.20585
幸	-9.20595
儀	-9.20611
碓	-9.20612
㫖	-9.20621
漆	-9.20635
之上	-9.20642
籬	-9.20648
藷	-9.20673
竇	-9.20717
多寡	-9.2078
天子	-9.21031
次年	-9.21189
三種	-9.21309
様	-9.2141
農桑	-9.21445
勸農	-9.21714
苗高	-9.21723
弊	-9.21756
添	-9.21765
趙	-9.21775
臺	-9.21787
擬	-9.2179
蘿蔔	-9.21793
料	-9.21797
腸	-9.21818
辟	-9.21843
汗	-9.21849
珍	-9.21854
䕶	-9.21862
格	-9.21869
涸	-9.21873
僅	-9.2188
壇	-9.21893
戊	-9.2195
之物	-9.21964
十一月	-9.21968
和之	-9.22009
黄白	-9.22072
井田	-9.22283
萬物	-9.22677
一本	-9.2272
五穀	-9.22907
處處有之	-9.22984
製	-9.23067
堆	-9.23072
蔵	-9.23102
庻	-9.23108
菉豆	-9.23119
聽	-9.23159
之人	-9.23192
成熟	-9.23555
播	-9.23648
乏	-9.23952
筒	-9.24211
舟	-9.24341
項	-9.24377
汲	-9.24379
溫	-9.24422
苗葉	-9.24685
至春	-9.24709
分野	-9.24977
瑞	-9.25465
鵝	-9.25544
桐	-9.25622
窗	-9.25637
會	-9.25657
也凡	-9.2566
薅	-9.25663
鬱	-9.25667
續	-9.25698
辭	-9.25707
示	-9.25713
股	-9.25721
稽	-9.25741
句	-9.25746
廣志曰	-9.25747
橋	-9.25757
掩	-9.25763
栽之	-9.25764
丘	-9.2577
百里	-9.26121
其所	-9.26158
於此	-9.26289
五日	-9.2633
流民	-9.26805
各有	-9.26832
鹵	-9.26859
游	-9.2691
父	-9.26916
窠	-9.26933
額	-9.26984
澀	-9.26985
臼	-9.26989
迎	-9.27012
棘	-9.27034
陶	-9.27043
豌豆	-9.27047
擾	-9.27051
儉	-9.27058
緣	-9.27075
箕	-9.27086
墳	-9.27107
羮	-9.27348
無所	-9.27471
状	-9.27954
則無	-9.28025
溉田	-9.28064
多則	-9.28158
冬至	-9.28191
竊	-9.2821
貨	-9.28263
瘠	-9.28281
驢	-9.28317
茭	-9.28329
十一	-9.28349
繼	-9.28366
鬼	-9.28368
氷	-9.28391
皇帝	-9.28409
篩	-9.28421
也若	-9.28466
豫	-9.2869
豐年	-9.28729
一云	-9.29264
術	-9.29391
上有	-9.29416
鴨	-9.29441
不成	-9.29472
值	-9.29526
私	-9.29558
浴	-9.29674
表	-9.29691
阜	-9.29694
妙	-9.29719
駕	-9.29728
余	-9.29751
煙	-9.29753
楸	-9.2978
圜	-9.29832
十里	-9.2984
木棉	-9.29992
一寸	-9.30071
月令	-9.30438
紫色	-9.3051
去其	-9.30534
務本新書	-9.30691
一畝	-9.30722
河南	-9.30731
員	-9.30872
津	-9.30944
蒼	-9.30982
徃	-9.30987
權	-9.30997
酪	-9.31001
蓬	-9.31015
菌	-9.31015
嘉禾	-9.31026
刄	-9.31038
楮	-9.31066
竒	-9.31087
后稷	-9.31098
衝	-9.3112
輭	-9.31134
不然	-9.31172
農政全書卷	-9.31207
莖葉	-9.31243
於是	-9.31311
必須	-9.31831
民田	-9.31871
清明	-9.31953
畦種	-9.32059
漉	-9.32083
感	-9.32386
侯	-9.32399
槌	-9.32416
土地	-9.32419
透	-9.32441
曾	-9.32453
席	-9.32464
遵	-9.32464
簸	-9.32465
塲	-9.32466
農桑輯要	-9.32468
缺	-9.32476
墾田	-9.3248
卑	-9.3248
晝	-9.32486
擡	-9.32503
耒耜	-9.32505
良田	-9.32509
鉤	-9.32543
佃	-9.32554
者謂之	-9.32584
礱	-9.32603
民間	-9.32738
赤色	-9.32821
之本	-9.32942
而無	-9.3328
歉	-9.33331
葅	-9.33669
魯	-9.33687
雍	-9.33721
三斗	-9.33789
涼	-9.33793
殖	-9.33825
醬	-9.33846
算	-9.33849
矮	-9.3385
寳	-9.33854
壊	-9.33862
吴	-9.33867
竈	-9.33883
可為	-9.33898
踈	-9.33898
頂	-9.33902
衍	-9.33909
靈	-9.33923
崔寔曰	-9.33931
注云	-9.3405
色白	-9.34619
藝	-9.3473
莧	-9.34852
以供	-9.34948
大率	-9.34969
有白	-9.35006
穄	-9.35074
莊	-9.35087
蔓菁	-9.35124
瘡	-9.3515
鵞	-9.35158
山東	-9.35176
祥	-9.35176
羣芳譜	-9.35218
泰	-9.35241
維	-9.3525
萌	-9.35262
略	-9.35267
驅	-9.35269
徹	-9.35269
讀	-9.35281
恤	-9.35286
昏	-9.35291
搭	-9.35294
貼	-9.35304
弦	-9.35304
小者	-9.35311
鉏	-9.35333
乗	-9.35357
前後	-9.35468
以其	-9.35487
蕎麥	-9.35618
四尺	-9.35879
相去	-9.35925
二日	-9.35926
之意	-9.3654
二寸	-9.36602
蕪菁	-9.36648
渾	-9.36663
彌	-9.36683
勘	-9.36685
烟	-9.3669
枲	-9.36697
爾雅云	-9.36734
箭	-9.36736
罷	-9.36748
規	-9.36769
坎	-9.36777
上旬	-9.37161
者曰	-9.37269
第三	-9.37538
形如	-9.37568
慎	-9.37869
躬	-9.38019
又方	-9.38047
薺	-9.38053
爪	-9.38057
康	-9.38113
十四	-9.38118
茍	-9.38139
巡	-9.38144
寄	-9.38178
惰	-9.38183
錫	-9.38196
困	-9.3821
薪	-9.38232
縷	-9.38261
磚	-9.38267
荏	-9.3828
樞	-9.38314
顧	-9.38314
凝	-9.38318
千里	-9.38393
必有	-9.38482
十九	-9.38532
土宜	-9.3861
欽定四庫全書欽定授時通考卷	-9.38688
之令	-9.38793
者即	-9.38837
蒔	-9.38907
地利	-9.38972
為佳	-9.39058
甕中	-9.39194
衛	-9.39526
葡萄	-9.39541
沿	-9.39561
相似	-9.39569
牽	-9.3964
宫	-9.39653
堂	-9.39684
揉	-9.39699
敗	-9.39712
西南	-9.39719
肅	-9.39723
闢	-9.39726
之際	-9.40288
灌之	-9.40369
江淮	-9.40481
播種	-9.40491
之名	-9.40632
譜	-9.40667
稜	-9.40674
不致	-9.40682
其餘	-9.4078
百日	-9.40937
之數	-9.40943
煮食	-9.40976
仲	-9.41
犬	-9.41101
循	-9.41158
竅	-9.41174
撫	-9.41185
殿	-9.41186
藕	-9.41187
苞	-9.41192
屑	-9.41199
専	-9.41201
裂	-9.41209
騐	-9.41232
苑	-9.41233
懐	-9.41246
徙	-9.41258
竭	-9.41273
聴	-9.41293
白花	-9.41307
脈	-9.41319
春夏	-9.41651
救飢採嫩	-9.41652
畒	-9.41676
淘浄油鹽調食	-9.42074
溉	-9.42166
中間	-9.42185
田家	-9.42241
者有	-9.42442
寡	-9.42473
艱	-9.42579
洪	-9.42667
關	-9.42681
違	-9.4272
勃	-9.42727
斸	-9.42728
净	-9.4273
汝	-9.4273
突	-9.42734
住	-9.42741
逆	-9.42742
百畝	-9.42747
晒	-9.42757
菱	-9.4276
揀	-9.4278
擲	-9.42781
履	-9.42785
乂	-9.42788
剛	-9.42823
惜	-9.42841
官員	-9.42912
繰	-9.43019
子如	-9.43058
八十	-9.43067
之月	-9.43118
入藥	-9.43201
其地	-9.43226
隂陽	-9.43231
生於	-9.43638
不敢	-9.43891
不須	-9.4392
二三尺	-9.43943
尺餘	-9.44099
洛	-9.44104
開墾	-9.44147
廪	-9.44215
稔	-9.44248
勸課	-9.44251
壩	-9.44261
痛	-9.44285
榮	-9.44286
耆	-9.44301
爭	-9.44306
曠	-9.44332
旣	-9.44336
恭	-9.44356
偏	-9.4436
蔽	-9.44362
亢	-9.44371
麪	-9.44393
障	-9.44395
昭	-9.444
不食	-9.44661
兩端	-9.44709
民之	-9.44841
以後	-9.44881
其味	-9.44985
孫	-9.4534
地氣	-9.45486
後世	-9.45652
七年	-9.45686
凶	-9.45747
脊	-9.45806
妨	-9.45827
孝	-9.45865
伯	-9.4588
挑	-9.45882
燈	-9.45891
統	-9.45899
屈	-9.45907
摩	-9.45909
踐	-9.45918
旺	-9.4592
左右	-9.45927
漕	-9.45947
激	-9.45951
畔	-9.4599
抽	-9.4601
日中	-9.4631
十七	-9.46676
寅	-9.46863
荷	-9.46886
細切	-9.47001
一宿	-9.47083
阡陌	-9.47421
另	-9.47464
貸	-9.47469
藁	-9.47475
鈎	-9.4748
蕩	-9.4748
創	-9.4749
痩	-9.47522
斧	-9.47536
萊	-9.47536
浚	-9.47567
椿	-9.47583
六年	-9.47743
雞子	-9.47919
大抵	-9.47982
早稻	-9.48025
取子	-9.48158
收子	-9.48269
澇	-9.48366
水中	-9.48402
七十	-9.48509
禦	-9.48597
之道	-9.48696
逸	-9.48873
凡種	-9.48937
熬	-9.48992
配	-9.49069
釜	-9.4909
鷄	-9.491
巨	-9.49101
勾	-9.49109
召	-9.49111
粘	-9.49121
勒	-9.49144
樁	-9.49149
夕	-9.49174
瓶	-9.49179
享	-9.49188
牕	-9.49203
填	-9.49205
飬	-9.49232
泥封	-9.49255
淘淨油鹽調食	-9.49419
種子	-9.49681
萬石	-9.49854
夏秋	-9.4994
下水	-9.50366
栽種	-9.50457
司農	-9.5067
一丈	-9.50709
律	-9.50712
灑	-9.50767
征	-9.50775
啖	-9.50789
瀉	-9.50792
賈	-9.50798
臥	-9.50811
蠧	-9.50813
䇿	-9.50826
菰	-9.50837
雩	-9.50935
三百	-9.5096
記曰	-9.51211
若不	-9.51259
今年	-9.51285
敢	-9.51334
田野	-9.51342
浙	-9.51401
下田	-9.51683
潦	-9.51704
秥	-9.51783
際	-9.5185
其種	-9.52352
弗	-9.52463
塵	-9.52468
愚	-9.52468
零	-9.52478
州禾	-9.52493
多種	-9.52495
苫	-9.52519
壽	-9.52522
梗	-9.52543
亭	-9.52546
融	-9.52549
恩	-9.5255
撻	-9.52556
穊	-9.52562
霧	-9.5258
拾	-9.52581
白露	-9.52654
如前法	-9.52701
田畝	-9.52719
而為	-9.52927
六十日	-9.53147
為末	-9.53181
不堪	-9.53196
多食	-9.53265
傳曰	-9.53484
塗之	-9.53527
九州	-9.53551
一兩	-9.53663
葉微	-9.53693
管子	-9.5373
人家	-9.53867
至秋	-9.53959
菘	-9.54043
欽定授時通考卷	-9.54072
柚	-9.54107
兩頭	-9.54128
腳	-9.54155
番	-9.54181
滯	-9.54183
募	-9.54206
漲	-9.54208
凖	-9.54211
麫	-9.54223
遊	-9.54225
晨	-9.54231
四時類要	-9.54251
佐	-9.54252
吐	-9.54253
𢎞	-9.54255
紋	-9.54262
宅	-9.54268
窄	-9.5427
中央	-9.54289
輙	-9.54293
本草云	-9.54426
澆之	-9.54704
第二	-9.54792
不許	-9.55122
菊	-9.55395
古者	-9.55555
四寸	-9.55767
班	-9.55788
澆灌	-9.55788
冀	-9.55874
味甜救飢採	-9.55878
錦	-9.55931
减	-9.55954
蔕	-9.55959
擁	-9.55988
液	-9.55998
潔	-9.55998
郎	-9.56003
庭	-9.56005
捐	-9.56007
慢	-9.56019
傾	-9.56032
烝	-9.56034
揺	-9.5606
揷	-9.56061
枝葉	-9.56069
凈油鹽調食	-9.56076
霜降	-9.56129
其法	-9.56144
此法	-9.56195
可用	-9.56426
收穫	-9.56503
常平	-9.56966
寸許	-9.57218
今之	-9.57298
一分	-9.57303
柘	-9.57332
秋冬	-9.57338
抵	-9.57371
覺	-9.57539
釐	-9.57645
毫	-9.57655
雌	-9.5768
沈	-9.57695
賴	-9.57716
橙	-9.57755
輔	-9.57761
衰	-9.57777
跡	-9.57785
曽	-9.57799
砂	-9.57801
芡	-9.57801
天時	-9.57804
芳	-9.57812
脱	-9.57821
逢	-9.57832
頒	-9.57832
艾	-9.57835
誰	-9.57847
膚	-9.57849
渴	-9.5785
棚	-9.57853
御史	-9.57856
挈	-9.57866
釘	-9.57882
已上	-9.58044
其下	-9.58151
天氣	-9.58249
黄花	-9.58363
古之	-9.58439
法用	-9.58632
農書	-9.58672
旱則	-9.58688
瀦	-9.58737
河東	-9.58834
厯	-9.59073
九年	-9.5914
阬	-9.59448
敷	-9.59471
百餘	-9.5951
校	-9.59515
糝	-9.59523
亡	-9.59523
淹	-9.59542
甑	-9.59548
第四	-9.5955
隆	-9.59552
男	-9.59553
刮	-9.59555
箋	-9.59556
桂	-9.59559
賞	-9.59575
蕃	-9.59579
億	-9.59591
壬	-9.59601
樹枝	-9.59611
斬	-9.59625
槃	-9.59665
紡	-9.59675
忘	-9.59688
是月也	-9.5971
梢間	-9.59938
下流	-9.60005
縣物産稻	-9.60005
者必	-9.60085
去皮	-9.6011
肥大	-9.60163
十石	-9.60382
肥地	-9.60421
雖有	-9.60435
耐	-9.60495
天下之	-9.60518
牛糞	-9.6052
取汁	-9.60566
水澆	-9.60951
亦無	-9.60994
為良	-9.61073
菹	-9.61126
之義	-9.61141
如前	-9.61208
也故	-9.61255
基	-9.61346
裁	-9.61349
其莖	-9.61369
澮	-9.61426
炎	-9.61433
噉	-9.6144
豎	-9.61456
石榴	-9.61467
啟	-9.61467
尋	-9.61491
騰	-9.61493
師古曰	-9.61504
泄	-9.61518
一時	-9.61579
皆以	-9.616
一切	-9.61928
否	-9.62119
為上時	-9.62182
之力	-9.62307
地中	-9.62652
種法	-9.62726
色黄	-9.62782
蓄積	-9.62874
一根	-9.63054
以爲	-9.63067
為民	-9.63088
立秋	-9.63128
簿	-9.63227
穎	-9.63249
蓴	-9.6328
秬	-9.63285
挾	-9.63289
鼎	-9.633
府古	-9.63308
纔	-9.63317
樓	-9.63322
圗	-9.63325
匹	-9.63334
括	-9.63337
繳	-9.63341
襄	-9.63357
練	-9.63361
屢	-9.63361
熟者	-9.63365
辦	-9.6337
鋒	-9.63375
酉	-9.63381
穡	-9.6339
普	-9.63395
波	-9.634
糊	-9.63403
快	-9.63409
牟	-9.63441
呉	-9.63474
取之	-9.63514
微苦	-9.63884
牛羊	-9.63987
不盡	-9.64041
大夫	-9.6407
熟則	-9.64204
六尺	-9.64307
令極	-9.64373
詔曰	-9.64422
閩	-9.64601
縣土産	-9.64952
山中	-9.65026
箱	-9.65134
高下	-9.65136
懷	-9.65174
争	-9.65192
郭	-9.652
酌	-9.65206
吉	-9.65218
夀	-9.6524
廵	-9.65255
芸	-9.65266
卯	-9.65268
忍	-9.65279
革	-9.65282
抱	-9.65284
蕪	-9.65288
䝉	-9.65319
戎	-9.65324
州物産	-9.65324
沒	-9.65335
催	-9.65374
説文曰	-9.65415
釀酒	-9.65535
勿使	-9.6579
田之	-9.65839
千石	-9.6588
等處	-9.65968
叢生	-9.65973
掛	-9.66527
俗呼	-9.66794
士農必用	-9.66842
苗髙	-9.66845
生田野中	-9.66895
常平倉	-9.67062
豇豆	-9.67101
北土	-9.67122
泊	-9.67124
濃	-9.67134
蝦	-9.67149
奸	-9.67149
智	-9.67163
盧	-9.67198
錄	-9.67199
奴	-9.67225
耦	-9.67228
赴	-9.67232
冠	-9.67249
作一	-9.67257
堯	-9.6726
椽	-9.67293
而出	-9.67318
中國	-9.6735
太湖	-9.67456
得所	-9.67489
一百	-9.67555
火燒	-9.67716
以致	-9.67722
無不	-9.67729
以下	-9.67742
六七	-9.67803
分為	-9.67872
為田	-9.67976
紫花	-9.68087
雨水	-9.68188
箔上	-9.68777
夏月	-9.68893
如是	-9.68931
人以	-9.69023
而成	-9.69041
北人	-9.69113
膩	-9.6914
榛	-9.69157
淳	-9.69167
招	-9.69168
邪	-9.692
甸	-9.69213
焚	-9.69222
戍	-9.69236
絡	-9.6925
禹貢	-9.69258
粮	-9.69277
啓	-9.69298
櫻桃	-9.69305
纎	-9.69316
鋸齒	-9.69332
至冬	-9.6934
膠	-9.69343
使之	-9.69411
樹藝	-9.69464
器也	-9.6959
或謂之	-9.6967
青白	-9.69786
太平	-9.69935
而長	-9.69952
晚稻	-9.69997
聖人	-9.70014
有所	-9.70235
則易	-9.70245
以手	-9.70417
地勢	-9.70483
合穂	-9.70785
東西	-9.70873
又可	-9.70949
菜生	-9.70982
古今	-9.70998
姓	-9.71062
寒無毒	-9.71117
鳬	-9.71146
治之	-9.71152
婆	-9.71155
寫	-9.71188
豕	-9.71191
䥥	-9.71235
頌	-9.7125
阻	-9.7125
禱	-9.71253
矢	-9.71257
樝	-9.71259
溺	-9.7126
疋	-9.71264
戌	-9.71267
虹	-9.71274
輾	-9.71274
𢷬	-9.71297
皇帝御製	-9.71307
碧	-9.71307
筍	-9.71312
牀	-9.71317
秕	-9.71334
㡬	-9.71351
孰	-9.71352
軖	-9.71388
蠶桑	-9.71668
橘皮	-9.71692
江河	-9.71737
行之	-9.71761
不厭	-9.71883
者則	-9.72037
農桑通訣曰	-9.72046
五六月	-9.72346
人謂之	-9.72706
層	-9.7275
所生	-9.72761
之害	-9.72823
尺五寸	-9.72945
也夫	-9.72964
有二種	-9.73046
二十四	-9.73108
色青	-9.73135
三分	-9.73141
蕈	-9.73141
畿	-9.73184
粟米	-9.73215
粢	-9.73216
嶺	-9.73244
淋	-9.73245
椎	-9.73288
藜	-9.73302
述	-9.73308
霑	-9.73326
灾	-9.73331
熏	-9.73333
髪	-9.73336
曉	-9.73337
栢	-9.73339
隠	-9.73349
浪	-9.73351
那	-9.73392
鴈	-9.73395
療	-9.73404
義倉	-9.73406
以來	-9.73417
聖祖仁皇帝御製	-9.73425
荒政	-9.73438
先生	-9.73451
則有	-9.73461
溲	-9.73489
尤佳	-9.73495
桑葉	-9.73509
不妨	-9.7361
社倉	-9.73629
王禎曰	-9.73686
所出	-9.73781
者宜	-9.73938
中心	-9.74008
每一	-9.741
黒色	-9.74202
先王	-9.74336
種稻	-9.74685
蔓生	-9.74687
木𤓰	-9.74692
力田	-9.74864
六百	-9.74985
糯稻	-9.75011
九穂	-9.75172
倣	-9.75314
疥	-9.75321
乞	-9.7533
童	-9.75356
下地	-9.75369
蕨	-9.7537
韻	-9.75393
纂	-9.75416
有黄	-9.75443
攻	-9.75444
魯桑	-9.75458
倚	-9.75477
涇	-9.75479
題	-9.75482
副	-9.75484
往往	-9.75499
祝	-9.75517
兆	-9.75527
強	-9.75548
也然	-9.75554
徵	-9.75564
糖	-9.75572
世宗憲皇帝御製	-9.75583
龍眼	-9.75634
晒乾	-9.75634
而上	-9.75718
一夫	-9.75767
民生	-9.75779
乙	-9.75784
數日	-9.76054
丈餘	-9.76138
出於	-9.76351
葱白	-9.76363
二曰	-9.76413
春分	-9.76457
則難	-9.76596
多者	-9.76622
令熟	-9.76674
平地	-9.76756
江東	-9.76872
有二	-9.76914
嵗嵗	-9.76928
以時	-9.77109
荔支	-9.77285
族	-9.77448
一二尺	-9.775
振	-9.77552
揚州	-9.77567
芒種	-9.77576
坊	-9.77604
符	-9.77608
勉	-9.7761
究	-9.77623
寜	-9.77625
燭	-9.77626
耰	-9.7763
翼	-9.77638
伊	-9.77651
控	-9.77666
芻	-9.77671
準	-9.7768
者其	-9.77682
囊	-9.77704
茱萸	-9.77747
級	-9.77753
八九	-9.77829
幾何	-9.77918
七八	-9.77953
四方	-9.7799
種麥	-9.78042
以土	-9.78097
有力	-9.78129
五分	-9.78193
味酸	-9.78271
比之	-9.78318
貧民	-9.7835
石灰	-9.784
不任	-9.78437
老農	-9.7875
山野	-9.78822
上用	-9.78855
莫不	-9.79074
救飢採苗葉煠熟水浸	-9.79089
藏之	-9.79134
使民	-9.79332
耕地	-9.79387
其事	-9.79483
生蟲	-9.79533
黍米	-9.79691
豚	-9.7979
卽	-9.79812
廣雅曰	-9.79812
座	-9.79813
胎	-9.7982
訓	-9.79836
岡	-9.7984
汚	-9.79844
不一	-9.79847
梓	-9.79849
挼	-9.79852
犯	-9.79859
謀	-9.79862
葚	-9.79867
檾	-9.79872
爵	-9.79889
健	-9.79895
鄰	-9.79901
疊	-9.79904
漚	-9.79906
陂塘	-9.79913
易生	-9.79937
囘	-9.79941
従	-9.79948
賢	-9.79949
緊	-9.79958
言之	-9.80013
或用	-9.80013
武帝	-9.80103
豉汁	-9.8022
有毛	-9.8026
實如	-9.80365
出入	-9.80383
平無毒	-9.80574
一月	-9.81262
庫	-9.81468
黑色	-9.81653
吹	-9.81734
匪	-9.81934
不齊	-9.8194
鱗	-9.81982
贍	-9.82068
響	-9.82077
巴	-9.82107
鬻	-9.82111
縫	-9.82112
隋	-9.82113
數年	-9.82128
藿	-9.82132
需	-9.82134
□	-9.82136
早熟	-9.82137
展	-9.82146
囷	-9.82158
裕	-9.82162
烈	-9.82163
蠲	-9.82167
靡	-9.82167
丙	-9.82171
做	-9.82185
轅	-9.82197
重農	-9.82197
京師	-9.82211
澱	-9.82216
餾	-9.82218
枸杞	-9.82236
高宗純皇帝御製恭和聖祖仁皇帝原韻	-9.82247
不爾	-9.82399
粒大	-9.82425
民力	-9.82532
春月	-9.82537
葉味甘	-9.82562
取出	-9.82639
即今	-9.82783
早晚	-9.82889
各省	-9.83048
葉頗	-9.83267
作餅	-9.83398
其木	-9.83825
可以為	-9.83851
東北	-9.83925
枝條	-9.84109
而大	-9.84137
十畝	-9.8414
去之	-9.84159
何以	-9.84184
宜用	-9.84226
種麻	-9.84266
陜	-9.84321
互	-9.84327
羸	-9.84336
牡	-9.84361
銅	-9.84361
偶	-9.84403
追	-9.84433
派	-9.84447
拳	-9.84459
虫	-9.8446
六十	-9.84483
蔡	-9.84485
拜	-9.84488
賑濟	-9.84497
臂	-9.84502
簷	-9.84507
酌量	-9.84509
紛	-9.84512
遮	-9.84515
宛	-9.84526
摻	-9.84526
距	-9.84542
皆得	-9.84561
頼	-9.84574
鐮	-9.84577
陜西	-9.84589
㡳	-9.84621
凍死	-9.8465
次第	-9.84768
沃之	-9.84944
其樹	-9.84966
皮薄	-9.84985
旱稻	-9.84997
早種	-9.85039
周官	-9.85343
耕耤	-9.85456
以防	-9.85489
東作	-9.85713
之日	-9.85842
苜蓿	-9.8586
民食	-9.85885
救飢採葉煠熟水浸	-9.8592
復生	-9.85929
生子	-9.86003
百穀	-9.86015
也詩云	-9.86017
二十五	-9.86019
十倍	-9.86132
幽	-9.86368
之異	-9.86392
人户	-9.86461
制度	-9.86513
卿	-9.8671
驚	-9.86712
廉	-9.86715
滅	-9.86717
脾	-9.86747
自生	-9.86753
宰	-9.86784
鎌	-9.86787
汙	-9.86791
皺	-9.86794
其本	-9.8681
椀	-9.86818
白者	-9.86822
督撫	-9.86828
丞	-9.86839
榴	-9.86849
䕃	-9.86851
飭	-9.86854
颺	-9.8689
爽	-9.86901
暇	-9.86904
又法	-9.86904
顔	-9.86912
叙	-9.86949
什	-9.86984
白米	-9.86993
尺寸	-9.87003
其田	-9.87033
性温	-9.87168
八尺	-9.87438
一畆	-9.87454
類也	-9.8746
矣又	-9.87531
於民	-9.87539
可愛	-9.8759
蠶豆	-9.87645
神農	-9.87707
立夏	-9.87816
未有	-9.87936
樹高	-9.8799
之氣	-9.88094
而止	-9.88107
牛馬	-9.88227
上流	-9.8826
二分	-9.88314
然則	-9.88373
南人	-9.8844
得其	-9.88447
之外	-9.88479
土中	-9.88484
二三月	-9.88495
有毒	-9.88505
入於	-9.88515
民事	-9.88581
江浙	-9.88702
有小	-9.88841
西方	-9.88865
天地	-9.88882
煠	-9.88997
草一名	-9.89092
滓	-9.89141
眉	-9.89144
蘭	-9.89155
杴	-9.89161
兎	-9.8917
匏	-9.89206
披	-9.89207
洞	-9.89212
刋	-9.89217
㸔	-9.89223
院	-9.89231
稭	-9.89238
隰	-9.8925
㵼	-9.89252
鞭	-9.89259
錯	-9.89274
匾	-9.89286
寶	-9.89289
禽	-9.89314
指揮	-9.89315
餌	-9.89317
敎	-9.8933
蒂	-9.8933
檢	-9.89334
繅	-9.89342
翠	-9.89354
治病文具本草草部條下	-9.89389
縱横	-9.89394
開黄花	-9.89447
旗	-9.89448
梔子	-9.89516
有益	-9.89517
錢糧	-9.89532
蒸食	-9.89564
葉煠熟水浸淘浄油鹽調食	-9.89729
農器	-9.89955
以待	-9.90112
屯田	-9.9014
性寒	-9.90318
黑豆	-9.90417
人所	-9.9042
三穂	-9.90475
摘取	-9.90552
以助	-9.90815
收藏	-9.90833
春種	-9.90894
白稻	-9.909
或作	-9.90949
六七月	-9.91065
生芽	-9.91096
教民	-9.91231
陽氣	-9.91305
故有	-9.91421
收之	-9.91478
淘洗	-9.915
山西	-9.91505
熟食	-9.91619
臛	-9.91647
匠	-9.91656
霖	-9.9167
覽	-9.91701
脯	-9.91711
懼	-9.91721
后	-9.91728
協	-9.91769
尊	-9.91771
豪	-9.91774
膝	-9.91774
趣	-9.9178
禮記月令	-9.91786
歟	-9.91796
杓	-9.91801
付	-9.91803
糜	-9.91803
餉	-9.9181
甫	-9.91812
擔	-9.9182
獸	-9.91822
挽	-9.9183
船	-9.91834
萵苣	-9.91835
嘴	-9.91847
餳	-9.91853
針	-9.91855
薰	-9.9186
千頃	-9.91875
直𨽻	-9.91945
晝夜	-9.91969
區種	-9.92012
而為之	-9.92034
荆州	-9.9219
三十六	-9.9224
器中	-9.92408
三月種	-9.92465
其間	-9.92604
此時	-9.92634
曝之	-9.92652
淨油鹽調食	-9.92716
開小	-9.92752
多用	-9.92762
瓮中	-9.92821
其力	-9.9291
亦如	-9.9315
矣今	-9.93246
有一	-9.9342
樹木	-9.93626
水勢	-9.93782
此皆	-9.9402
地上	-9.94046
三五	-9.94175
救飢採苗葉煠熟	-9.94203
去苦味	-9.94226
輩	-9.94244
貪	-9.94269
射	-9.94271
保甲	-9.94286
莽	-9.94287
閑	-9.94292
鮓	-9.94292
川谷	-9.94297
曵	-9.94303
墨	-9.94304
迴	-9.94314
静	-9.94315
斟酌	-9.9432
憲	-9.94326
塍	-9.94332
彊	-9.94339
亷	-9.94354
葶	-9.94372
鳳	-9.94373
戴	-9.94374
優	-9.94385
戽	-9.94388
蕭	-9.94406
冰	-9.9441
梯	-9.94419
洋	-9.94442
炭	-9.94446
簾	-9.9448
八寸	-9.94611
後五日	-9.94742
地桑	-9.94754
生田野中苗	-9.94922
輕重	-9.94929
先用	-9.94942
必先	-9.94962
無雨	-9.95014
内有	-9.95109
筩之	-9.95192
香美	-9.95207
甚美	-9.95222
孟子	-9.95317
八年	-9.95616
以木	-9.95764
流水	-9.95829
四五尺	-9.95858
五斗	-9.95902
一科	-9.95962
則生	-9.95997
復以	-9.96053
如法	-9.96315
覆土	-9.96337
者或	-9.96384
分栽	-9.96579
亦名	-9.96622
氏曰	-9.9665
東方	-9.96748
鑱	-9.96752
之言	-9.96776
豈不	-9.96796
籌	-9.96797
說文	-9.9683
人掌	-9.96852
洫	-9.96887
聼	-9.96888
逹	-9.96889
遥	-9.96891
冨	-9.96895
桶	-9.969
澄	-9.969
倘	-9.96916
林檎	-9.9692
羔	-9.96924
耩	-9.96928
脫	-9.96941
箇	-9.96947
蘿	-9.96953
韋	-9.9696
濱	-9.96983
吉貝	-9.9699
殆	-9.96991
䖍	-9.97016
鬆	-9.97018
橛	-9.97018
孤	-9.97018
城郭	-9.9702
効	-9.97031
沛	-9.97033
繞	-9.97057
拖	-9.97058
畨	-9.97126
泛	-9.97174
穬麥	-9.9728
主水	-9.97635
生食	-9.97664
齊民要術云	-9.97671
苗長	-9.97886
其皮	-9.97948
尚書	-9.97981
務本	-9.98038
在上	-9.98381
雨則	-9.98942
為利	-9.99107
䪥	-9.99269
無實	-9.99287
丑	-9.99287
翦	-9.9933
者非	-9.99356
向上	-9.99432
剉	-9.99459
捕	-9.99476
或云	-9.99521
丸	-9.99533
扈	-9.99545
寺	-9.99557
貞	-9.9958
的	-9.99591
碗	-9.99644
瀆	-9.99653
踰	-9.99658
熙	-9.99664
件	-9.99669
敦	-9.99677
脩	-9.99681
訪	-9.99683
濁	-9.99684
挂	-9.99699
癸	-9.99715
鉅	-9.99715
立春	-9.99715
荔枝	-9.99715
奔	-9.99716
妄	-9.99723
洲	-9.99733
牢	-9.99746
淀	-9.99748
冊	-9.99758
垣	-9.99776
曳	-9.99778
闔	-9.99794
占城	-9.99956
為一	-10.0005
茂盛	-10.0009
飼之	-10.0012
耐旱	-10.0024
逺近	-10.0027
稻田	-10.0029
江西	-10.0031
地形	-10.0036
不煩	-10.0052
蠶事	-10.0066
數尺	-10.0077
第五	-10.0084
無窮	-10.0084
旱澇	-10.0104
十五日	-10.011
不為	-10.0115
掘地	-10.0121
農人	-10.0132
每嵗	-10.0137
田疇	-10.0141
四曰	-10.0147
稻米	-10.015
之心	-10.0178
花葉	-10.0182
十分	-10.0206
以示	-10.0225
者良	-10.0226
豳	-10.0233
枳	-10.0234
紹興	-10.0237
蛇	-10.0238
嗟	-10.024
𫝊	-10.0241
隙	-10.0242
弓	-10.0242
絮	-10.0242
蔗	-10.0243
則死	-10.0243
勞之	-10.0243
可得	-10.0244
蜂	-10.0244
帚	-10.0246
縛	-10.0247
絞	-10.0248
蔓延	-10.0248
影	-10.0249
暢	-10.0249
抄	-10.0249
彈	-10.025
稌	-10.025
祠	-10.0251
亞	-10.0251
杉	-10.0252
綴	-10.0252
麗	-10.0252
用此	-10.0253
翁	-10.0253
埴	-10.0253
鼠	-10.0253
輻	-10.0255
怕	-10.0255
食者	-10.0257
掉	-10.0258
或曰	-10.0258
沐	-10.026
上帝	-10.0261
蜡	-10.0262
者佳	-10.0263
凶年	-10.0263
言其	-10.0264
稃	-10.0266
百榖	-10.0268
為下時	-10.0284
有六	-10.0289
太守	-10.0294
秋耕	-10.0296
黍有	-10.0297
開濬	-10.0303
㣲苦	-10.0304
開五瓣	-10.0305
不見	-10.0317
秉	-10.0323
少許	-10.0331
亦如之	-10.0336
得雨	-10.0355
性平	-10.0364
有刺	-10.0374
九十	-10.0394
養蠶	-10.0403
每年	-10.0422
耤田	-10.0428
少者	-10.0428
堅實	-10.0437
至于	-10.044
酒法	-10.0446
冬青	-10.0458
五種	-10.0471
則為	-10.048
考之	-10.0489
即成	-10.0498
薹	-10.0504
刷	-10.0507
猫	-10.0508
瓢	-10.0516
知其	-10.0517
熊	-10.0518
判	-10.0519
絳	-10.052
雁	-10.052
靖	-10.0522
祐	-10.0523
肩	-10.0523
范	-10.0524
震	-10.0525
帑	-10.0525
擺	-10.0525
講	-10.0526
禄	-10.0527
芝	-10.0527
沾	-10.0527
幼	-10.0527
柯	-10.0528
握	-10.0529
頸	-10.0529
欄	-10.0529
餓	-10.053
暫	-10.053
閣	-10.0531
逼	-10.0532
亥	-10.0532
烹	-10.0532
薉	-10.0533
峻	-10.0533
危	-10.0533
厫	-10.0533
緯	-10.0534
帯	-10.0534
瓤	-10.0534
耒	-10.0536
緒	-10.0539
庸	-10.0539
網	-10.0539
茴香	-10.054
朽	-10.054
陌	-10.0541
忙	-10.0541
葉可食	-10.0542
拐	-10.0546
荒田	-10.0548
預備	-10.0548
麰	-10.0551
化為	-10.0554
八九月	-10.056
紅色	-10.0573
倣此	-10.0574
其性	-10.0575
宜稻	-10.0577
於上	-10.0579
修築	-10.0583
皮厚	-10.0588
此言	-10.06
不蛀	-10.0606
種藝	-10.061
如此則	-10.0618
務本新書曰	-10.0619
菜一名	-10.0621
隂乾	-10.0623
生山野中	-10.063
黄帝	-10.0634
田制	-10.0639
民有	-10.0639
之政	-10.0641
芥子	-10.0643
二人	-10.0648
淨洗	-10.0648
雨雪	-10.0654
一步	-10.0668
一嵗	-10.0672
物之	-10.0676
郡縣	-10.0677
之使	-10.0688
長而	-10.0689
潤澤	-10.0696
淡黄	-10.0707
三代	-10.0707
此物	-10.0715
根下	-10.0723
未盡	-10.0724
水入	-10.0727
不勝	-10.0737
日出	-10.074
飲食	-10.0742
田間	-10.0761
樹葉	-10.0785
呼為	-10.0799
汜勝之書	-10.0804
不出	-10.0806
本縣	-10.0807
湖水	-10.081
駒	-10.0813
鋸	-10.0815
返	-10.0816
瘥	-10.0816
雛	-10.0817
秠	-10.082
衞	-10.082
產	-10.0821
犢	-10.0823
胃	-10.0823
逃	-10.0823
荼	-10.0823
枸	-10.0823
綽	-10.0824
一頃	-10.0825
生民	-10.0825
觸	-10.0825
咨	-10.0826
罰	-10.0827
冀州	-10.0827
有四	-10.0827
鏵	-10.0828
入海	-10.0829
葫蘆	-10.0829
凌	-10.0829
隅	-10.0831
忠	-10.0831
虧	-10.0831
畮	-10.0831
覈	-10.0831
測	-10.0832
壚	-10.0833
閭	-10.0833
趂	-10.0835
纑	-10.0836
倉廪	-10.0836
葑	-10.0837
說文云	-10.0838
户部	-10.084
杵臼	-10.084
次五日	-10.0841
人呼為	-10.0845
州郡	-10.0861
一赤	-10.0869
漉出	-10.0892
無芒	-10.0895
千餘	-10.0898
斫去	-10.0929
胡豆	-10.0932
白楊	-10.0937
坑中	-10.0951
每日	-10.0952
其時	-10.0954
當時	-10.0957
此亦	-10.0958
四角	-10.0964
下濕	-10.0985
不可得	-10.0986
祈榖	-10.0992
農民	-10.0995
其色	-10.1014
治田	-10.1015
八日	-10.1016
芒稻	-10.103
二尺許	-10.1043
亦多	-10.105
地黄	-10.1053
拘	-10.1055
之計	-10.1055
之内	-10.1068
盜	-10.1072
者謂	-10.1074
隂雨	-10.1075
用木	-10.1083
而細	-10.109
二斗	-10.1092
不收	-10.1103
蕡	-10.1109
鴻	-10.1118
肺	-10.112
二十日	-10.1121
迫	-10.1122
臙脂	-10.1125
崖	-10.1125
糞土	-10.1126
蓆	-10.1127
萁	-10.1127
滴	-10.1127
卜	-10.1128
膏腴	-10.1128
蓑	-10.1128
爰	-10.1129
驟	-10.1129
荻	-10.1129
整	-10.113
歡	-10.1131
崔	-10.1131
酥	-10.1131
慈	-10.1131
箬	-10.1132
銜	-10.1133
攸	-10.1133
阿	-10.1134
介	-10.1134
㟁	-10.1134
苣	-10.1135
桔橰	-10.1135
遭	-10.1136
醃	-10.1136
救飢採葉煠熟	-10.1137
因其	-10.1137
允	-10.1137
者是	-10.1139
皇后	-10.1139
芽出	-10.114
萎	-10.114
菑	-10.1142
諸侯	-10.1148
憫	-10.1149
玉衡	-10.1152
杮	-10.1159
味苦救飢採	-10.1162
最佳	-10.1165
說文曰	-10.1171
漢書	-10.1171
故謂之	-10.1178
諸州	-10.1181
之勢	-10.1183
本草名	-10.1186
受田	-10.1186
大水	-10.1187
川澤	-10.1189
耕耘	-10.1197
生薑	-10.1198
即愈	-10.1199
油麻	-10.1206
埋之	-10.1206
如指	-10.1215
野生	-10.1221
子孫	-10.1221
千畝	-10.1222
不佳	-10.1225
無力	-10.1229
務農	-10.123
農功	-10.1232
開荒	-10.1249
蓮子	-10.1253
斯民	-10.1264
為之使	-10.1268
常食	-10.1283
葉煠熟水浸	-10.1289
飼蠶	-10.1293
人多	-10.1301
之徑	-10.1301
微小	-10.1303
是故	-10.1307
三曰	-10.1308
物也	-10.1308
田者	-10.131
欲其	-10.1313
其名	-10.1349
二物	-10.1362
當年	-10.1377
早糯	-10.1383
竹木	-10.1385
四種	-10.1397
大都	-10.1409
先於	-10.141
今日	-10.1412
春耕	-10.1413
搯	-10.1413
深耕	-10.1414
淮南	-10.1417
民無	-10.1424
脹	-10.1425
君子	-10.1426
噐	-10.1426
緜	-10.1428
開細	-10.1432
燃	-10.1434
胥	-10.1436
挹	-10.1436
欽	-10.1437
才	-10.1437
氊	-10.1437
圎	-10.1437
之費	-10.1438
鑄	-10.1438
魁	-10.1439
償	-10.1439
策	-10.1441
韓氏直説	-10.1441
構	-10.1442
鳩	-10.1442
郭璞注曰	-10.1442
澗	-10.1444
以糞	-10.1445
西域	-10.1445
壘	-10.1445
祗	-10.1446
治病文具本草草部	-10.1448
托	-10.1448
窪	-10.1448
生青熟	-10.1449
樗	-10.1449
婦人	-10.145
劣	-10.1452
楝	-10.1452
遽	-10.1453
縮	-10.1453
鈞	-10.1455
秩	-10.1456
為中時	-10.1459
之官	-10.1462
苧麻	-10.1466
煠食	-10.147
任意	-10.1471
之間謂之	-10.1479
芥菜	-10.1496
或以	-10.1507
士農必用曰	-10.151
朕心	-10.1515
蘇州	-10.1523
六寸	-10.1524
山藥	-10.1547
之説	-10.1551
作小	-10.1552
開白花	-10.1552
平原	-10.1555
長大	-10.1562
種類	-10.1567
山川	-10.1572
芽生	-10.1573
方言	-10.1577
四升	-10.1579
穂者	-10.1581
青州	-10.1584
備荒	-10.1589
開白花結	-10.1595
若夫	-10.1599
其土	-10.1617
無遺	-10.1621
小兒	-10.1625
五百	-10.1629
他方	-10.1638
則不生	-10.1649
一名地	-10.1658
榖雨	-10.1661
率多	-10.1671
王禎	-10.168
食法採葉煠熟	-10.1687
熟糞	-10.169
所有	-10.1695
其制	-10.1697
各處	-10.1704
色赤	-10.1707
黄豆	-10.1712
水陸	-10.1714
郭璞	-10.1722
時雨	-10.1727
四五寸	-10.1728
雨後	-10.1729
坡	-10.173
褐	-10.1739
半月	-10.1743
撰	-10.1749
繪	-10.1749
宮	-10.1753
寓	-10.1754
書食貨志	-10.1754
其勢	-10.1755
漳	-10.1759
钁	-10.176
蓐	-10.176
簁	-10.176
詣	-10.1761
滌	-10.1761
腫	-10.1761
濵	-10.1761
萬五千	-10.1763
護	-10.1764
蟹	-10.1764
宇	-10.1764
暵	-10.1765
狼	-10.1766
筆	-10.1766
躡	-10.1766
爾雅翼	-10.1766
劑	-10.1767
几	-10.1767
邦	-10.1767
傅	-10.1767
圭	-10.1767
曹	-10.1767
也此	-10.1768
憑	-10.1769
搨地生	-10.177
枇杷	-10.1771
明徐光啓撰	-10.1771
两	-10.1771
蘓	-10.1771
三四月	-10.1772
轆轤	-10.1773
甃	-10.1773
俯	-10.1774
髮	-10.1774
叅	-10.1776
所以為	-10.1777
太祖	-10.1779
雹	-10.1781
惟在	-10.1781
足以	-10.1792
収貯	-10.1794
胡桃	-10.1794
翻車	-10.1794
其氣	-10.1795
秔稻	-10.1796
糯米	-10.1797
具也	-10.181
註云	-10.1812
風吹	-10.1813
一家	-10.1824
三江	-10.1833
也故曰	-10.1835
美者	-10.1842
日月	-10.1846
合和	-10.1862
日用	-10.1866
水灌	-10.1872
風土	-10.1882
之狀	-10.1885
兖	-10.1886
不實	-10.1893
舉行	-10.1903
從來	-10.1906
不論	-10.191
田有	-10.1917
亦佳	-10.1919
故以	-10.1921
嫩時	-10.1922
紅花	-10.1926
種蒔	-10.1935
有言	-10.1936
用子	-10.194
乃止	-10.1943
米一石	-10.1945
經年	-10.1948
味美	-10.1954
救荒	-10.1957
二三寸	-10.1959
所用	-10.1968
而耕	-10.1971
之理	-10.1974
否則	-10.198
不易	-10.199
長短	-10.1994
居民	-10.1998
十數	-10.2
地宜	-10.2008
一畒	-10.2016
為度	-10.2026
以成	-10.2027
域	-10.203
失其	-10.2037
發生	-10.2038
千百	-10.2053
又作	-10.206
先農	-10.2061
無異	-10.2065
白菜	-10.2069
蓋之	-10.2073
極細	-10.2073
用大	-10.2074
榨	-10.2086
犍	-10.2086
於内	-10.2086
雉	-10.2088
僧	-10.2088
其功	-10.209
呈	-10.209
顯	-10.2091
嗣	-10.2091
躍	-10.2091
缸	-10.2091
鐺	-10.2092
冩	-10.2092
勻	-10.2093
操	-10.2093
可也	-10.2093
膳	-10.2093
朴	-10.2093
舎	-10.2094
醴	-10.2095
鼔	-10.2095
刑	-10.2095
鶴	-10.2095
穉	-10.2096
荽	-10.2097
杭	-10.2097
樸	-10.2098
吕	-10.2099
張騫	-10.21
盪	-10.2101
䅖	-10.2101
明徐光啟撰	-10.2101
柞	-10.2102
柵	-10.2102
詢	-10.2103
朝廷	-10.2104
胡荽	-10.2104
碪	-10.2104
戾	-10.2105
壌	-10.2105
兠	-10.2105
偃	-10.2106
繰絲	-10.211
而厚	-10.2112
繀	-10.2113
之禮	-10.2113
栽培	-10.2114
不失	-10.2128
舜	-10.2132
脂麻	-10.214
種竹	-10.2141
不時	-10.2149
收歛	-10.2156
其後	-10.2158
亦然	-10.2167
禾稼	-10.2168
草部	-10.2191
術曰	-10.2198
北地	-10.2199
救飢採嫩苗葉煠熟	-10.2199
者如	-10.2227
水以	-10.2244
百五十	-10.2247
不至	-10.2259
又凡	-10.2263
不可不	-10.2265
日曝	-10.2275
疏云	-10.2282
相類	-10.2302
一遍	-10.2321
則可	-10.2331
果木	-10.2336
元日	-10.2341
味亦	-10.2341
為率	-10.2345
用力	-10.2346
議者	-10.2347
即死	-10.236
苗生	-10.2361
亦大	-10.2365
浄油鹽調食	-10.2367
今嵗	-10.2369
皆可食	-10.2374
清水	-10.2401
不言	-10.2411
牝	-10.2417
方可	-10.2424
北風	-10.2425
下子	-10.2425
欵	-10.2426
鍤	-10.2427
襲	-10.2429
岳	-10.2429
威	-10.2431
濡	-10.2431
然而	-10.2431
臠	-10.2431
輿	-10.2433
肆	-10.2434
撲	-10.2434
庾	-10.2435
蠻	-10.2436
韓	-10.2437
齋	-10.2437
欣	-10.2439
軒	-10.244
昆	-10.244
裛	-10.244
芍	-10.244
薊	-10.244
漁	-10.2441
羽	-10.2442
醫	-10.2443
確	-10.2444
騎	-10.2445
攢	-10.2445
牐	-10.2445
燠	-10.2448
紐	-10.2448
紵	-10.2449
淞	-10.245
穹	-10.245
遶	-10.2451
圖譜	-10.2451
僕	-10.2451
叚	-10.2452
冬春	-10.2453
杞	-10.2453
豳風	-10.2454
雍州	-10.2455
培壅	-10.2459
有功	-10.2464
不可食	-10.2469
用竹	-10.2497
幽州	-10.2499
淘洗浄油鹽調食	-10.2501
便可	-10.2507
常熟	-10.2512
兩旁	-10.2521
状如	-10.2528
糞壅	-10.2536
之勞	-10.2539
常以	-10.254
蒸之	-10.2566
必湏	-10.2567
屋内	-10.2571
以禦	-10.2575
此月	-10.2579
之性	-10.2585
一體	-10.2592
書云	-10.2599
不甚	-10.2602
木為	-10.2605
依法	-10.2607
▁又	-10.2608
炒食	-10.2609
淘去苦味油鹽調食	-10.2627
經冬	-10.2631
百石	-10.2635
者無	-10.2638
一行	-10.264
至意	-10.2645
苗出	-10.2658
變為	-10.2664
青皮	-10.2671
四百	-10.2693
有赤	-10.2706
而得	-10.2709
豫州	-10.2712
削去	-10.2728
千萬	-10.2728
蒸熟	-10.2733
而死	-10.2743
秋分	-10.2745
嫩苗	-10.2762
便熟	-10.2763
治水	-10.2766
販	-10.278
三等	-10.2782
辨其	-10.2783
餵	-10.2783
帥	-10.2789
㸑	-10.2789
冐	-10.279
鍬	-10.2791
腴	-10.2792
旅	-10.2794
匝	-10.2794
荒蕪	-10.2794
芰	-10.2794
饋	-10.2795
儋	-10.2795
逓	-10.2796
册	-10.2796
藻	-10.2796
懶	-10.2797
便民圖	-10.2798
抛	-10.2798
狐	-10.2798
膽	-10.2798
諭内閣	-10.2798
剗	-10.2798
醉	-10.2798
漑	-10.2798
玄	-10.2798
袋	-10.2799
認	-10.28
荘	-10.28
齧	-10.28
九卿	-10.2801
貽	-10.2801
坤	-10.2801
蓏	-10.2801
淫	-10.2801
邱	-10.2802
苖髙	-10.2802
叔	-10.2802
飾	-10.2803
皆有之	-10.2804
皂莢	-10.2804
陷	-10.2805
繋	-10.2805
凋	-10.2806
眀	-10.2806
搖	-10.2806
蘖	-10.2807
瑩	-10.2808
一法	-10.2808
劚	-10.2808
簟	-10.2808
爐	-10.2809
渡	-10.2809
侈	-10.2809
􁓰􁥯	-10.2809
淮南子	-10.281
隣	-10.281
愆	-10.281
甽	-10.2812
柏	-10.2813
浙西	-10.2814
籰	-10.2815
眠起	-10.2817
青色	-10.2818
農隙	-10.2818
以前	-10.2823
豐稔	-10.2825
巨勝	-10.2826
往來	-10.2827
又有一種	-10.283
周圍	-10.2834
亦有之	-10.2841
公田	-10.2841
六畜	-10.2844
丈尺	-10.2846
老則	-10.2848
根株	-10.2849
入土	-10.2851
總論	-10.2852
光澤	-10.2858
子弟	-10.2866
法取	-10.2872
先蠶	-10.2874
圍之	-10.2877
五六寸	-10.2885
用糞	-10.29
欲令	-10.2904
守令	-10.2905
皮肉	-10.2907
雲南	-10.2907
山林	-10.2909
茄子	-10.2913
來春	-10.2926
其外	-10.2927
高大	-10.2938
或有	-10.2941
疇	-10.2946
荒歉	-10.2952
事者	-10.2958
大麻	-10.2967
南畝	-10.2973
而用之	-10.2978
生苗	-10.2988
秋成	-10.2994
河水	-10.3012
河北	-10.3056
孔也	-10.3059
厭	-10.3062
煮熟	-10.3065
花結實	-10.3072
土壅	-10.3091
須用	-10.3093
謂其	-10.3096
灰糞	-10.3099
池中	-10.3099
擇其	-10.3101
不待	-10.3114
則根	-10.3117
根似	-10.3125
二候	-10.3133
經曰	-10.3137
十斤	-10.3147
肌	-10.315
淵	-10.3152
尹	-10.3154
欝	-10.3156
嵩	-10.3156
畛	-10.3158
鉸	-10.316
程	-10.316
洽	-10.3161
畬	-10.3161
巖	-10.3163
廟	-10.3163
欺	-10.3163
尿	-10.3164
汾	-10.3164
厨	-10.3164
屎	-10.3166
渭	-10.3166
一斤	-10.3166
篾	-10.3166
押	-10.3167
干	-10.3167
般	-10.3168
劈	-10.3168
壮	-10.3169
矩	-10.3169
滲	-10.3169
暈	-10.3169
勁	-10.3169
牲	-10.317
楂	-10.317
聊	-10.317
鬯	-10.317
粃	-10.317
梧桐	-10.3171
卻	-10.3171
藪	-10.3174
晦	-10.3174
概	-10.3175
茗	-10.3176
答	-10.3176
掐	-10.3176
輓	-10.3177
竹葉	-10.3177
諸般	-10.3178
頴	-10.3178
鋭	-10.3178
甘蔗	-10.3178
趁	-10.3179
始生	-10.3179
蒴	-10.3179
剶	-10.318
捋	-10.3181
春初	-10.3181
櫻	-10.3183
之初	-10.3185
經界	-10.3185
缶	-10.3186
沃壤	-10.3187
提柱	-10.319
人君	-10.319
牛耕	-10.3191
閩廣	-10.3197
池塘	-10.3197
二兩	-10.3198
必用	-10.3199
益人	-10.32
桑椹	-10.3204
移植	-10.3204
物産	-10.3206
積貯	-10.3206
二丈	-10.3211
塗泥	-10.3211
社稷	-10.3223
失所	-10.3225
荆桑	-10.3227
名為	-10.323
種桑	-10.3232
興工	-10.3233
狀似	-10.3236
又以	-10.3239
相對	-10.3242
麥秋	-10.3245
未成	-10.3246
矣然	-10.3246
之苦	-10.3246
而民	-10.3247
此其	-10.3251
向陽	-10.3257
花叉	-10.3258
七八月	-10.326
桑柘	-10.3266
亦可食	-10.3267
江北	-10.3267
者乃	-10.3269
有秋	-10.3279
而尖	-10.3292
不絶	-10.3293
和土	-10.3302
救飢採嫩葉煠熟	-10.3303
根如	-10.3306
即以	-10.3315
屬也	-10.333
不通	-10.3351
不均	-10.3352
故須	-10.3376
分别	-10.3381
二十七	-10.3383
一如	-10.3391
使人	-10.3397
菜也	-10.3398
色紅	-10.3412
秋後	-10.3413
積水	-10.3422
江水	-10.3437
寒氣	-10.3439
通用	-10.3446
煑之	-10.345
農器圖譜	-10.3453
成一	-10.3456
有水	-10.3458
鹽豉	-10.3459
四月種	-10.346
最為	-10.3469
者為上	-10.3469
開河	-10.3471
其類	-10.348
地方官	-10.3484
亦曰	-10.3485
殺人	-10.3503
觀之	-10.3506
異畝同穎	-10.3524
通行	-10.3529
大寒	-10.3534
鶉	-10.3535
遼	-10.3539
者何	-10.3539
厰	-10.354
龍爪	-10.3541
磑	-10.3541
冶	-10.3544
內	-10.3544
𨽻	-10.3549
迹	-10.3549
黨	-10.3549
泗	-10.355
捍	-10.3551
玩	-10.3551
莠	-10.3551
鼈	-10.3552
薙	-10.3554
蔴	-10.3554
茸	-10.3554
亟	-10.3554
朶	-10.3554
吕氏春秋	-10.3555
潰	-10.3555
蘇頌曰	-10.3556
批	-10.3557
呂	-10.3557
氾勝之	-10.3558
利害	-10.3558
玊	-10.3558
盗	-10.3559
溼	-10.356
筥	-10.356
談	-10.3561
臿	-10.3561
蘇松	-10.3561
簨	-10.3561
橄欖	-10.3562
墊	-10.3562
苦菜	-10.3562
董	-10.3562
暗	-10.3563
詞	-10.3563
䖏	-10.3564
隄防	-10.3564
轂	-10.3564
檜	-10.3566
倦	-10.3567
棃	-10.357
罅	-10.3572
映	-10.3572
山野間	-10.3575
白茆	-10.3577
及時	-10.3578
新添	-10.3581
江湖	-10.3581
得水	-10.3588
赤小豆	-10.3597
二麥	-10.3598
麥秀	-10.3598
耕耨	-10.3605
采之	-10.3619
矣其	-10.362
無逸	-10.3625
兩傍	-10.3626
太倉	-10.3631
因地	-10.3631
嘗見	-10.3637
糞壤	-10.364
開小白花	-10.3642
五曰	-10.3646
光頭	-10.3655
宿根	-10.3656
未嘗	-10.3657
兔	-10.3661
疏通	-10.3671
收取	-10.3673
調和	-10.3673
也疏	-10.3679
以灰	-10.369
乾者	-10.3697
春酒	-10.37
正二月	-10.3704
起土	-10.371
置之	-10.3713
三時	-10.3728
七尺	-10.3732
多收	-10.3734
不可以	-10.3735
一尺許	-10.3738
為下	-10.3739
自下	-10.3742
取根	-10.3751
撒種	-10.3769
之節	-10.3777
山澤	-10.3788
順天	-10.3795
一次	-10.3797
濕則	-10.3809
之别	-10.3811
甘草	-10.383
多而	-10.3844
濕潤	-10.3857
雨澤	-10.3873
從事	-10.3874
則必	-10.388
于海	-10.3888
諸郡	-10.3904
褐色	-10.3908
又何	-10.391
也又曰	-10.3911
天地之	-10.3914
米白	-10.3916
文獻通考	-10.3934
岀	-10.3934
疫	-10.3934
跳	-10.3938
葉而長	-10.394
翅	-10.3941
墜	-10.3941
孕	-10.3942
穋	-10.3942
肚	-10.3943
盡力	-10.3944
怒	-10.3945
奮	-10.3945
捉	-10.3945
搥	-10.3946
此理	-10.3946
冗	-10.3947
拭	-10.3947
羣芳譜種植	-10.3947
綺	-10.3948
訛	-10.3948
弭	-10.3948
痰	-10.3948
棲	-10.3949
疲	-10.3949
標	-10.3949
跨	-10.395
饗	-10.395
廩	-10.3951
男女	-10.3952
紗	-10.3953
靜	-10.3953
賔	-10.3954
䋲	-10.3955
險	-10.3955
床	-10.3955
緝	-10.3955
性温無毒	-10.3955
韌	-10.3956
虎皮糯	-10.3956
罨	-10.3956
喫	-10.3956
田地	-10.3957
氐	-10.3957
包裹	-10.3957
欽定四庫全書農書卷	-10.3957
敵	-10.3958
桞	-10.3958
娘	-10.3959
紫草	-10.3959
恃	-10.3959
肝	-10.3959
裳	-10.396
饙	-10.396
苦酒	-10.396
陣	-10.396
本草原有	-10.3962
㳺	-10.3963
蘭香	-10.3963
父母	-10.3963
本草綱目李時珍曰	-10.3964
螺	-10.3964
滋茂	-10.3967
匙	-10.3968
有芒	-10.3972
棠梨	-10.3973
不登	-10.3973
酸棗	-10.3973
霜露	-10.3975
勸諭	-10.3979
黍穄	-10.3979
祈報	-10.398
長至	-10.398
味甘酸	-10.3981
形勢	-10.3987
明日	-10.3988
百頃	-10.3993
仲秋	-10.3993
廣志	-10.3994
救荒本草	-10.4001
經宿	-10.4003
羊肉	-10.4013
不使	-10.4014
不等	-10.4017
隨宜	-10.4025
直省	-10.4028
以充	-10.4035
淺深	-10.4036
蠶室	-10.4047
水道	-10.405
不拘	-10.4051
最多	-10.4056
三兩	-10.4057
天晴	-10.4058
慎勿	-10.4058
骨欲	-10.407
江海	-10.4071
中原	-10.4075
主人	-10.4078
俗呼為	-10.4085
服之	-10.4103
疏曰	-10.4109
文帝	-10.4111
廣西	-10.4115
大眠	-10.4124
黏曰	-10.4132
以便	-10.4143
農書卷	-10.4146
山有	-10.4156
人民	-10.4164
庶人	-10.4174
可見	-10.4185
不能自	-10.4185
見日	-10.4196
縣官	-10.4203
不免	-10.421
數百	-10.4214
故云	-10.4215
欽定四庫全書	-10.4218
香稻	-10.4242
一處	-10.4242
煑食	-10.4242
不冝	-10.4247
難得	-10.4249
同時	-10.4261
不可用	-10.4265
黄衣	-10.4272
四斗	-10.4272
浙江	-10.4274
一頭	-10.4275
處處	-10.4291
紅芒	-10.4309
一半	-10.4311
嫩芽	-10.4317
地力	-10.433
贊	-10.4347
敕	-10.4354
巢	-10.4354
京東	-10.4355
椑	-10.4356
筭	-10.4356
幷	-10.4357
嵌	-10.4359
腎	-10.4359
沫	-10.436
鄧	-10.4361
肋	-10.4361
缹	-10.4361
麨	-10.4362
勅	-10.4362
賞罰	-10.4364
鑒	-10.4365
婁	-10.4365
偽	-10.4365
滇	-10.4365
遏	-10.4366
祇	-10.4367
鏺	-10.4367
鳯	-10.4367
芑	-10.4368
沉	-10.4368
隱	-10.4368
濫	-10.4368
􁲼	-10.4369
帖	-10.4369
渰	-10.4369
偹	-10.437
皂角	-10.4372
敇	-10.4372
剔	-10.4372
墢	-10.4372
郁	-10.4372
丼	-10.4373
麥䴷	-10.4373
蕎	-10.4373
饌	-10.4374
柤	-10.4374
彘	-10.4374
褁	-10.4374
原隰	-10.4374
場圃	-10.4374
誘	-10.4375
競	-10.4375
勵	-10.4376
生荒野中	-10.4376
細剉	-10.4377
豬肉	-10.4377
耖	-10.4377
怪	-10.4377
秤	-10.4378
治病文具本草木部	-10.4379
鄙	-10.4379
茇	-10.4379
橫	-10.438
公私	-10.4381
歇	-10.4381
零落	-10.4381
羊鬚糯	-10.4382
温無毒	-10.4383
邀	-10.4383
粢盛	-10.4384
汎	-10.4384
㬠	-10.4386
江東呼	-10.4396
沿河	-10.4398
緩急	-10.4398
松江	-10.4402
嶺南	-10.4404
輪軸	-10.4409
仲春	-10.4414
微酸	-10.4417
不堪食	-10.4421
經霜	-10.4422
嘉定	-10.4424
汜勝之書曰	-10.443
斗門	-10.4434
桑麻	-10.4436
數種	-10.4438
羊角	-10.4439
一二丈	-10.4441
早晩	-10.4443
以至	-10.4468
霜後	-10.4475
長一丈	-10.4487
乃佳	-10.4488
卷四十	-10.449
吾民	-10.4492
如初	-10.4493
雨諺云	-10.4493
來者	-10.4493
隂地	-10.4495
主旱	-10.4502
粳米	-10.4502
務使	-10.4517
官為	-10.4518
官吏	-10.4518
栽桑	-10.4523
百六十	-10.4524
形似	-10.453
立冬	-10.4551
為主	-10.4558
富民	-10.4558
飽食	-10.4591
春氣	-10.4598
爾等	-10.4602
水火	-10.4612
蘇子	-10.4622
有大小	-10.4633
小滿	-10.4636
饑民	-10.4646
堪作	-10.4648
桃花	-10.466
帝紀	-10.4665
百畆	-10.4679
太宗	-10.4685
大小麥	-10.4698
苴	-10.4704
尤宜	-10.4712
為害	-10.4728
西成	-10.4736
耤	-10.4759
區田	-10.4762
成王	-10.4765
救公饑	-10.4771
不止	-10.478
蠅	-10.4784
彚	-10.479
州府	-10.4791
鴟	-10.4793
鴉	-10.4794
個	-10.4794
析	-10.4796
嫌	-10.4797
揮	-10.4797
途	-10.4798
痕	-10.4798
貲	-10.4799
水盡	-10.4799
四民月令	-10.48
契	-10.48
羡	-10.48
蒙	-10.4801
榔	-10.4802
綏	-10.4802
成功	-10.4802
㓙	-10.4802
異物志曰	-10.4802
撓	-10.4803
戯	-10.4804
幅	-10.4804
榜	-10.4805
喬	-10.4805
陶𢎞景曰	-10.4805
䔧	-10.4805
拂	-10.4805
溥	-10.4805
廷	-10.4806
檀	-10.4806
逮	-10.4806
𥘉	-10.4808
縳	-10.4809
堇	-10.4809
鬚糯	-10.4809
𤣥扈先生曰嘗過	-10.481
潭	-10.481
􁋁	-10.481
促	-10.481
灼	-10.4811
槁	-10.4812
迷	-10.4812
複	-10.4812
揆	-10.4812
怨	-10.4813
揭	-10.4813
叠	-10.4813
嚼	-10.4814
沸湯	-10.4814
茨	-10.4815
廻	-10.4816
堈	-10.4816
栝	-10.4816
羊脂	-10.4817
飴	-10.4818
慰	-10.4819
克	-10.4819
援	-10.482
該督撫	-10.482
墾闢	-10.482
説文云	-10.482
廵撫	-10.482
麩	-10.4821
拯	-10.4821
園圃	-10.4821
無定度	-10.4821
稉	-10.4823
食經曰	-10.4824
五行	-10.4824
福建	-10.4825
祭祀	-10.4827
自是	-10.4829
軫	-10.4833
戸部	-10.4835
肥瘠	-10.4838
堅硬	-10.4839
布帛	-10.4841
膏澤	-10.4848
溝渠	-10.4849
採桑	-10.4862
語云	-10.4867
緑豆	-10.4867
深淺	-10.4881
務要	-10.4882
性冷	-10.4893
目前	-10.4898
者是也	-10.4899
流移	-10.4901
一帶	-10.4902
時宜	-10.4936
水庫	-10.4938
以溉	-10.4947
便止	-10.4966
大冬	-10.497
蠶沙	-10.4981
數倍	-10.4986
幹河	-10.5
大暑	-10.5015
近水	-10.5021
耕田	-10.5024
三月中	-10.5032
至十月	-10.5041
者又	-10.5048
所載	-10.5052
相接	-10.5058
熱則	-10.5061
莫如	-10.5063
八月白	-10.5066
早者	-10.5068
孔子	-10.5073
諸色	-10.5078
多種之	-10.5079
有數種	-10.5088
洗淨	-10.5099
米粒	-10.5099
齊民要術種	-10.511
昔人	-10.5129
香氣	-10.5159
故道	-10.516
不死	-10.516
九月熟	-10.5162
煠熟油鹽調食	-10.5186
下氣	-10.5188
梅雨	-10.5192
竹根	-10.5209
論曰	-10.5213
枝河	-10.5224
荔	-10.5224
齏	-10.5226
珍珠	-10.5227
喙	-10.5232
彭	-10.5237
閲	-10.5243
腥	-10.5246
抨	-10.5246
欒	-10.5247
後十五日斗柄指	-10.5247
昨	-10.5248
虱	-10.5248
蒲萄	-10.5249
塡	-10.5249
挺	-10.5249
彰	-10.5249
煉	-10.525
硫黄	-10.525
豁	-10.5251
冒	-10.5251
偷	-10.5251
也一候	-10.5252
署	-10.5252
怠	-10.5253
觔	-10.5254
薏苡	-10.5254
妻	-10.5254
腦	-10.5254
擅	-10.5254
佛	-10.5255
嫩葉煠熟	-10.5255
龜	-10.5255
霍	-10.5256
猛	-10.5256
畚	-10.5257
蕢	-10.5258
麝	-10.5258
垢	-10.5258
蔞	-10.5258
絺	-10.5258
撈	-10.5258
虀	-10.5258
掲	-10.5259
劐	-10.5259
巡撫	-10.5259
舞	-10.5259
亮	-10.526
侍	-10.526
籃	-10.526
刳	-10.526
鏡	-10.526
儻	-10.526
遞	-10.526
攅	-10.5261
顛	-10.5262
繇	-10.5262
卷二十	-10.5262
綱	-10.5263
沮	-10.5263
攀	-10.5264
篚	-10.5264
荅	-10.5264
春分前後	-10.5265
汪	-10.5265
禍	-10.5266
奈何	-10.5266
㕔	-10.5266
馳	-10.5266
便民圖纂曰	-10.5267
抪	-10.5268
愁	-10.5268
攷	-10.5268
詠	-10.5269
女貞	-10.5269
戰	-10.527
芬	-10.527
瀕海	-10.5271
蓧	-10.5271
迤	-10.5272
洪武	-10.5272
貴賤	-10.5273
獵	-10.5273
榆莢	-10.5276
不利人	-10.5278
齊魯	-10.5278
總督	-10.5279
父老	-10.5285
燎	-10.5285
成行	-10.5285
卧輪	-10.5287
楊梅	-10.5297
轉運	-10.53
支散	-10.5302
鑿井	-10.5303
而設之	-10.5305
具奏	-10.5307
龍尾	-10.531
萬民	-10.5313
無事	-10.5318
遇旱	-10.5324
雙筩	-10.5327
燥濕	-10.5333
豈非	-10.5341
視其	-10.5342
皆然	-10.5349
麻油	-10.5352
自古	-10.5356
菊花	-10.5361
子大如	-10.5362
官司	-10.5371
竹筒	-10.5373
肥美	-10.5377
他處	-10.5393
春雨	-10.5396
儲蓄	-10.54
夏熟	-10.5404
工力	-10.5411
雞頭	-10.5414
開元	-10.5418
宗紀	-10.542
多有之	-10.5432
記云	-10.544
甘美	-10.5444
三稜	-10.5459
均平	-10.5462
養生	-10.5473
黒豆	-10.549
四鄉	-10.5495
百合	-10.55
相視	-10.5501
治畦	-10.5502
諸物	-10.5513
三眠	-10.5532
卷五十	-10.5536
二年詔	-10.5543
香糯	-10.5546
足食	-10.5547
俗謂	-10.555
雖然	-10.5562
器用	-10.5567
内外	-10.5579
黄𤓰	-10.5587
織第	-10.5589
竹器	-10.5599
沙土	-10.5612
年來	-10.5641
瓜法	-10.5644
七十二	-10.5644
畦中	-10.5689
不耐	-10.5691
黄梅	-10.5699
二月種	-10.57
通風	-10.571
裨	-10.5713
子丑	-10.5714
背白	-10.5715
贏	-10.5718
贖	-10.5719
猴	-10.5722
腹脹	-10.5723
範	-10.5726
貝	-10.5726
仕	-10.5728
磁	-10.5728
郤	-10.5728
喘	-10.5729
臻	-10.5729
陞	-10.5729
罕	-10.573
攝	-10.5731
儒	-10.5731
彎	-10.5731
飱	-10.5731
閭閻	-10.5732
鄴	-10.5732
僉	-10.5732
模	-10.5733
集韻	-10.5733
塼	-10.5733
飄	-10.5733
葫	-10.5733
蘂	-10.5734
襯	-10.5735
賊	-10.5735
輦	-10.5735
敝	-10.5736
渇	-10.5736
㨗	-10.5737
○	-10.5737
週	-10.5737
殍	-10.5738
輥	-10.5738
潁	-10.5739
慿	-10.5739
昬	-10.5739
鱉	-10.5739
賽	-10.574
博物志	-10.574
工程	-10.5741
茈	-10.5741
蕓薹	-10.5742
礙	-10.5742
耕織圖	-10.5742
篅	-10.5742
傚	-10.5742
藩	-10.5743
苕	-10.5743
宋史	-10.5743
膜	-10.5743
􁗮	-10.5744
笠	-10.5744
輝縣太行山	-10.5744
酷	-10.5744
濯	-10.5744
薯蕷	-10.5745
曉諭	-10.5745
水浸去苦味淘浄油鹽調食	-10.5745
翹	-10.5746
銀杏	-10.5746
撫按	-10.5746
袴	-10.5746
徐光啓曰	-10.5747
崗	-10.5747
溪澗	-10.5748
􁋕	-10.5748
黲	-10.575
島	-10.575
尤妙	-10.5751
茘枝	-10.5752
碢	-10.5752
府州縣	-10.5755
蜀芥	-10.5756
説文	-10.5757
微寒無毒	-10.576
蘄	-10.5762
霖雨	-10.5765
不耐寒	-10.5768
味甘性平	-10.577
吾鄉	-10.5771
搯去	-10.5773
筒車	-10.5774
葉煠熟水浸淘去苦味油鹽調食	-10.5774
紫蘇	-10.5774
竹笋	-10.5774
牧養	-10.5775
湖廣	-10.5783
季春	-10.5783
無益	-10.5792
赤豆	-10.5792
事例	-10.581
奉行	-10.581
米榖	-10.5828
年豐	-10.5833
菹法	-10.5838
施行	-10.5838
畝用子	-10.5838
刀豆	-10.5846
桃李	-10.5852
風俗	-10.5854
薄荷	-10.5864
窮民	-10.5869
數目	-10.5872
良久	-10.5873
黑黍	-10.5874
閩中	-10.5879
官府	-10.5881
留心	-10.5882
一物	-10.5891
低田	-10.5893
田器	-10.5893
本草一名	-10.5901
小者如	-10.5901
授時	-10.5919
長吏	-10.592
以勸	-10.5928
必待	-10.5955
早紅	-10.5965
四面	-10.5966
相傳	-10.5996
月内	-10.6005
若欲	-10.6006
節間	-10.6023
一株	-10.6049
秫米	-10.6063
諸處	-10.6068
史記	-10.6068
萬世	-10.6082
刺史	-10.611
尤多	-10.6111
白殻	-10.6113
六斗	-10.6125
而下	-10.6125
等名	-10.6149
三十年	-10.6157
七月熟	-10.6169
米貴	-10.6178
緑色	-10.6189
卷三十	-10.6194
郷	-10.6196
肫	-10.6202
飜	-10.6207
藋	-10.621
現	-10.6211
箒	-10.6213
坍	-10.6215
𦵔	-10.6216
湧	-10.6216
劍	-10.6218
鵝鴨	-10.6218
硝	-10.6221
芝蔴	-10.6224
竝	-10.6227
枕	-10.6227
𣲖	-10.6227
倉廩	-10.6228
爬	-10.6228
自之得積	-10.6228
警	-10.6228
湮	-10.623
耬耩	-10.623
田畯	-10.623
卓	-10.623
臍	-10.6231
趾	-10.6231
埂	-10.6233
螟	-10.6234
撘	-10.6234
坼	-10.6234
洒	-10.6235
蘘荷	-10.6235
況	-10.6235
夘	-10.6235
寢	-10.6236
磽	-10.6236
殘	-10.6237
紡績	-10.6237
櫟	-10.6237
五七寸	-10.6238
驕	-10.6238
梭	-10.6238
戚	-10.6239
扦	-10.6239
山海經曰	-10.6239
稍間開	-10.6239
窊	-10.6239
眞	-10.624
悦	-10.624
笑	-10.624
嫁	-10.6241
釤	-10.6241
墮	-10.6241
作成黄色換水淘	-10.6241
搦	-10.6242
陳藏器	-10.6242
貌	-10.6242
宵	-10.6242
畎澮	-10.6242
桓	-10.6242
版	-10.6243
葍	-10.6243
鳥獸	-10.6244
晏	-10.6244
髙三四尺	-10.6244
滎	-10.6245
取其榦可作骨	-10.6246
字號	-10.6247
徃徃	-10.6247
卦	-10.6247
圩岸	-10.6247
奢	-10.6248
蓺	-10.6249
棟	-10.6249
柑橘	-10.6249
蟠	-10.625
東坡	-10.625
豐穰	-10.6251
綆	-10.6252
建閘	-10.6252
潛	-10.6253
茰	-10.6254
躬親	-10.6254
椰	-10.6257
集韻云	-10.6257
三月三日	-10.6261
兼并	-10.6263
相當	-10.6264
髙丈餘	-10.6269
疏濬	-10.627
如有	-10.6271
因循	-10.6272
别名	-10.6273
築岸	-10.628
萬頃	-10.6285
觀音	-10.6286
木瓜	-10.6286
烏梅	-10.6289
第六十	-10.6294
平糶	-10.6303
伐木	-10.631
主晴	-10.6312
梢頭	-10.6318
周公	-10.6318
微帶	-10.6323
秈稻	-10.6339
不中用	-10.634
加意	-10.6341
山隂	-10.6348
十頃	-10.6353
經理	-10.6357
截去	-10.6361
小暑	-10.6364
不能盡	-10.6366
兩穂	-10.6371
賦云	-10.6372
剪去	-10.6372
莫若	-10.6381
器譜	-10.6392
第七	-10.6406
親耕	-10.6412
不得過	-10.6426
耐久	-10.6443
年以來	-10.6453
色黑	-10.6456
耕墾	-10.6464
一斛	-10.65
蠶連	-10.6503
寒暑	-10.6522
蓄水	-10.653
取栽	-10.6532
本草曰	-10.6551
造酒	-10.6586
莖葉皆	-10.6592
河之水	-10.6594
由此	-10.6625
家家	-10.6635
相合	-10.6644
淨淘	-10.6652
作飯	-10.666
又一種	-10.6688
逺矣	-10.6697
諺	-10.6714
均田	-10.6718
麥秀兩岐	-10.6734
種樹書	-10.6738
續文獻通考	-10.6742
霞	-10.6742
萍	-10.6742
交阯	-10.6745
邵	-10.6745
餒	-10.6746
狸	-10.6746
湘	-10.6748
祁	-10.6748
絃	-10.675
杼	-10.6751
髓	-10.6752
下馬看	-10.6753
凈	-10.6753
蝗蝻	-10.6754
荀	-10.6754
徽	-10.6755
糕	-10.6756
皁	-10.6757
夢	-10.6758
樣	-10.6758
金釵	-10.6758
斥	-10.6758
伍	-10.6758
倶	-10.6758
泠	-10.6759
渝	-10.6759
械	-10.676
蹂	-10.6761
搜	-10.6762
纍纍	-10.6762
毁	-10.6763
阡	-10.6763
希	-10.6763
苐	-10.6763
鷹	-10.6763
弛	-10.6763
雌雄	-10.6763
都尉	-10.6763
杯	-10.6763
抒	-10.6763
輯	-10.6764
潘	-10.6764
夭	-10.6764
觜	-10.6765
織絍	-10.6765
本草綱目	-10.6765
儘	-10.6766
蔚	-10.6766
混	-10.6766
値	-10.6766
銍	-10.6767
軋	-10.6769
礪	-10.6769
喉	-10.6769
梂	-10.6769
啟閉	-10.6769
鬰	-10.6769
銍艾	-10.677
杬	-10.677
齋戒	-10.677
煑粥	-10.677
府古揚州牛女分野	-10.6771
聳	-10.6771
悞	-10.6772
謝	-10.6772
㕘	-10.6773
售	-10.6773
芝麻	-10.6774
佑	-10.6774
樊	-10.6775
台	-10.6776
皂	-10.6776
果蓏	-10.6776
胡蘿蔔	-10.6777
以副朕	-10.6778
御製	-10.678
膏油	-10.6786
互相	-10.6787
府古梁州井鬼分野	-10.679
延蔓	-10.6791
安石榴	-10.6791
養民	-10.6795
何也曰	-10.6796
牽牛	-10.6796
隔年	-10.6804
道路	-10.6808
禮義	-10.6809
録云	-10.6818
丈量	-10.6822
郭璞曰	-10.6823
遣官	-10.6823
躬耕	-10.6823
棗栗	-10.6824
修理	-10.6826
均調	-10.6827
衛所	-10.6829
十八年	-10.6831
莧菜	-10.6831
綠豆	-10.684
欲大而	-10.6851
得其宜	-10.6852
食法採嫩苗葉煠熟	-10.6859
西山	-10.6865
覆蓋	-10.6872
厯子	-10.6879
陂湖	-10.6894
田祖	-10.6905
色紫	-10.6906
割去	-10.691
柔桑	-10.6912
勸民	-10.6917
起科	-10.6925
乏食	-10.6932
以上皆	-10.6941
甚佳	-10.6946
厚薄	-10.6947
葉煠熟換水浸淘去苦味油鹽調食	-10.6958
煠熟水浸淘淨油鹽調食	-10.6963
最大	-10.697
無害	-10.6978
禾黍	-10.7011
孟春	-10.7014
將來	-10.702
淡紅	-10.7025
水潦	-10.7033
葉煠熟換水浸	-10.7067
本末	-10.709
上虞	-10.7095
易活	-10.7097
兖州	-10.7111
不壞	-10.7121
作羮	-10.717
蛀	-10.7179
多刺	-10.7248
長尺餘	-10.727
驪	-10.7289
櫐	-10.7292
實可食	-10.7293
膿	-10.7296
臟	-10.7301
宏	-10.7303
帳	-10.7304
挖	-10.7304
兗	-10.7305
鯉魚	-10.7306
埤	-10.7307
汜勝之	-10.7307
㓜	-10.7308
駁	-10.7308
􁐡	-10.7309
鄂	-10.7309
訟	-10.7309
窘	-10.731
鍋	-10.731
粤	-10.7311
漂	-10.7311
蔔	-10.7311
輝	-10.7312
厲	-10.7312
大小豆	-10.7312
盞	-10.7312
産嘉禾	-10.7313
瀝	-10.7314
沂	-10.7314
摶	-10.7315
奇	-10.7316
鎛	-10.7316
黂	-10.7316
楔	-10.7316
䜴	-10.7316
碩	-10.7317
晋	-10.7317
浩	-10.7318
稂莠	-10.7318
蓄洩	-10.7318
嗇	-10.7318
兜	-10.7319
朳	-10.7319
胼	-10.7319
夏小正	-10.7319
迅	-10.7319
戈	-10.732
莱	-10.732
拒	-10.732
􁥬	-10.7321
昴	-10.7321
呌	-10.7321
甞	-10.7321
渫	-10.7321
葖	-10.7321
菓	-10.7321
蚤	-10.7322
旨	-10.7322
齎	-10.7322
軠	-10.7322
軌	-10.7322
甌	-10.7323
誅	-10.7324
􁁜	-10.7324
葉對生	-10.7324
畎畝	-10.7324
脣	-10.7324
蟬	-10.7325
蘆葦	-10.7325
㾗	-10.7325
瞿	-10.7325
弇	-10.7325
浥鬱	-10.7326
潔淨	-10.7327
人家園圃中	-10.7327
甿	-10.7327
有赤白二種	-10.7327
天工開物	-10.7328
蟄蟲	-10.7328
淤塞	-10.7328
尸	-10.7329
霏	-10.7329
熈	-10.733
釋名曰	-10.733
匱	-10.733
衙門	-10.7331
収穫	-10.7331
翰	-10.7331
分野考	-10.7332
勸課農桑	-10.7332
㨊	-10.7332
逾	-10.7333
烏臼	-10.7333
所在有之	-10.7333
畿内	-10.7333
擊壤	-10.7334
七月七日	-10.7335
祈禱	-10.7339
世祖	-10.734
砘	-10.7341
堤岸	-10.7342
温暖	-10.7343
菠菜	-10.7346
霜雪	-10.7353
奏聞	-10.7355
二千石	-10.736
冷盆	-10.736
聖王	-10.7365
徃來	-10.7365
不肯	-10.7366
神麴	-10.7366
工部	-10.7369
天津	-10.7372
遣使	-10.7373
荷葉	-10.7376
淮南子曰	-10.7377
􁣮	-10.7384
粳稻	-10.7391
世業	-10.7393
甕口	-10.7404
興修	-10.7414
七斗	-10.7415
野池	-10.7425
州刺史	-10.7447
苴麻	-10.7451
木部	-10.7457
寒露	-10.7457
一層	-10.7484
漫種	-10.749
冬瓜	-10.7497
長二寸	-10.7501
永平	-10.7503
瀦水	-10.7512
小蒜	-10.752
性熱	-10.7522
益氣	-10.7528
米價	-10.7553
酢法	-10.7564
其葉味苦	-10.7591
用子三升	-10.76
頻澆	-10.7673
旁枝	-10.7676
辛苦	-10.7694
二斤	-10.7717
元元	-10.7723
白粱	-10.7727
卷六	-10.7779
可生食	-10.7797
洗去	-10.78
肯	-10.7864
茆	-10.787
薇	-10.7874
苗葉煠熟水浸淘	-10.7879
㒺	-10.7885
蠡	-10.7888
纊	-10.7888
揩	-10.7889
翔	-10.7889
農書云	-10.7891
鐴	-10.7891
薫	-10.7892
匡	-10.7894
治病文具本草果部	-10.7895
唇	-10.7895
奚	-10.7896
蟄	-10.7896
辱	-10.7897
葷	-10.7897
欠	-10.7898
繡	-10.7898
昧	-10.7899
驛	-10.7899
爆	-10.7899
菖蒲	-10.7899
西京雜記曰	-10.7899
禜	-10.79
想	-10.79
撮	-10.7901
錐	-10.7901
奬	-10.7902
府古荆州翼軫分野	-10.7902
姦	-10.7903
槿	-10.7903
萬八千	-10.7904
餧	-10.7904
瀕	-10.7904
苓	-10.7904
迄	-10.7904
靑	-10.7904
瘞	-10.7904
砥	-10.7905
館	-10.7905
替	-10.7905
腕	-10.7906
商賈	-10.7906
葈	-10.7906
風土記曰	-10.7906
煩擾	-10.7906
眷	-10.7906
啼	-10.7907
煆	-10.7907
電	-10.7907
韵	-10.7907
灣	-10.7907
冲	-10.7907
涂	-10.7909
滙	-10.7909
姜	-10.7909
機杼	-10.791
蛤	-10.791
博聞録	-10.791
銷	-10.791
莩	-10.7911
坻	-10.7911
孝經援神契	-10.7911
棣	-10.7911
愧	-10.7912
掣	-10.7912
啻	-10.7912
衢	-10.7912
倫	-10.7912
寇宗奭曰	-10.7912
澄清	-10.7912
宕	-10.7913
腸胃	-10.7913
覩	-10.7913
生密縣山野中	-10.7913
逋	-10.7914
拆	-10.7914
味苦性平無毒	-10.7914
藴	-10.7914
謬	-10.7914
譬	-10.7914
菁	-10.7915
籖	-10.7915
焙	-10.7915
龔	-10.7916
麋	-10.7917
脇	-10.7917
籌畫	-10.7917
櫧	-10.7917
崑	-10.7917
􁟓	-10.7918
牡丹	-10.7918
僻	-10.7919
陳旉農書	-10.7919
高三四尺	-10.7919
宵旰	-10.792
孫炎	-10.7921
砌	-10.7922
縣土産稻	-10.7922
雁來	-10.7922
檐	-10.7924
攜	-10.7924
順治十	-10.7925
奏請	-10.7925
斗斛	-10.7926
去滓	-10.7926
瞻	-10.7927
鄉村	-10.7927
木槿	-10.7929
絡絲	-10.7929
宻封	-10.793
萬斛	-10.7933
洛陽	-10.794
月下旬	-10.7941
茍且	-10.7942
甘藷	-10.7945
旱潦	-10.7945
蒼耳	-10.795
圍岸	-10.795
經營	-10.7951
蜀葵	-10.7958
約量	-10.796
最忌	-10.797
爾雅謂之	-10.7972
坑深	-10.7973
擇取	-10.798
唐書	-10.7992
工費	-10.7993
二七日	-10.7995
蹄方	-10.8003
若值	-10.8019
茶褐	-10.8035
二尺餘	-10.8037
養魚	-10.805
百斛	-10.8057
郡邑	-10.8112
勸相	-10.8137
髙二尺許	-10.8313
煠熟水浸	-10.8342
軫念	-10.8489
菠	-10.8489
蝻	-10.8501
懲	-10.8508
酵	-10.8508
陟	-10.8508
召募	-10.8513
苽	-10.8514
訣	-10.8518
隻	-10.8519
交趾	-10.8519
康熙	-10.8519
肕	-10.8519
煨	-10.852
𨗳	-10.8521
蘆菔	-10.8521
惑	-10.8521
痢	-10.8522
璣	-10.8523
估	-10.8523
亨	-10.8523
逕	-10.8523
溜	-10.8523
脾胃	-10.8523
踵	-10.8524
大司徒	-10.8524
笆	-10.8524
袁	-10.8525
胸	-10.8525
䥷	-10.8526
隸	-10.8526
呂氏春秋	-10.8527
薿	-10.8527
鑽	-10.8527
暘	-10.8527
㽟	-10.8528
靨	-10.8528
璧	-10.8528
雇	-10.8528
黔	-10.8529
罌	-10.8529
吞	-10.8529
篠	-10.8529
鍼	-10.8529
司馬法	-10.853
鏟	-10.853
萟	-10.853
哀	-10.853
扞	-10.853
燕趙	-10.853
荑	-10.853
暄	-10.853
曷	-10.853
荳	-10.8531
蜜蜂	-10.8531
嘉靖	-10.8531
佩	-10.8531
蕉	-10.8531
面青背	-10.8531
浹	-10.8532
喪	-10.8532
刅	-10.8532
雕	-10.8532
榧	-10.8533
劒	-10.8533
措	-10.8533
郭璞注云	-10.8533
肥磽	-10.8533
臯	-10.8534
見農器譜	-10.8534
瀰	-10.8534
穩	-10.8534
咎	-10.8534
輳	-10.8534
探	-10.8534
䝁	-10.8534
擗	-10.8535
厪	-10.8535
戲	-10.8536
詩豳風	-10.8536
檻	-10.8536
􁭼	-10.8536
夲	-10.8536
瓦屑	-10.8536
土之次曰五	-10.8537
蜃	-10.8537
季秋之月	-10.8537
二百四十	-10.8538
一嵗之中	-10.8538
喚	-10.8538
摧	-10.8539
疫癘	-10.8539
金裹銀	-10.8539
撤	-10.8539
萬厯	-10.8539
鵲	-10.8539
卉	-10.8539
毳	-10.854
乍	-10.8541
臬	-10.8541
歧	-10.8541
栅	-10.8542
墩	-10.8543
䋔	-10.8543
曝令乾	-10.8543
祖宗	-10.8543
舊不著所出州土	-10.8543
寃	-10.8543
采熟食	-10.8544
壬癸	-10.8544
禪	-10.8544
馨	-10.8544
閱	-10.8544
葉而窄	-10.8545
荇	-10.8545
拌匀	-10.8545
故墟	-10.8546
老弱	-10.8547
趕陳糯	-10.8548
於是乎	-10.8548
桐油	-10.8549
斛斗	-10.8549
肌肉	-10.855
現在	-10.8551
督率	-10.8554
庶幾	-10.8554
料理	-10.8554
􁣒	-10.8555
灌溉之利	-10.8555
青稞	-10.8555
夙夜	-10.8558
胡椒	-10.8559
貧富	-10.8559
砍	-10.856
遼東	-10.8561
先嗇	-10.8561
廣志云	-10.8563
有所歸	-10.8563
瑞麥	-10.8564
禮部	-10.8569
兩浙	-10.857
安泊	-10.857
三百五十	-10.8574
炊飯	-10.8578
種樹書曰	-10.8581
高一二尺莖	-10.8593
合為一	-10.8595
丁香	-10.8596
長鑱	-10.8598
㑹同	-10.86
蔬菜	-10.8602
占候	-10.861
南北皆有	-10.861
皇考	-10.8612
左傳	-10.8629
周制	-10.8635
淡緑	-10.8681
禮記	-10.8773
百步	-10.8883
苖葉煠熟	-10.9074
浸麴	-10.9094
乙丙	-10.9117
胡芹小蒜	-10.9146
崔寔	-10.9166
灤	-10.917
蔆	-10.9171
彚考	-10.9172
誦	-10.9173
徭	-10.9176
賈思勰	-10.9179
袤	-10.9182
潞	-10.9183
腊	-10.9183
羌	-10.9184
鐙	-10.9184
烙	-10.9184
籮	-10.9185
敞	-10.9185
哺	-10.9185
慕	-10.9186
綵	-10.9186
百餘頃	-10.9188
仔	-10.9188
軰	-10.9189
歎	-10.919
陡	-10.919
銳	-10.919
涉	-10.9191
汴	-10.9191
滁	-10.9191
幕	-10.9192
旉	-10.9192
稙	-10.9192
笐	-10.9192
喻	-10.9193
篤	-10.9193
所以然者	-10.9193
賓	-10.9194
萬餘頃	-10.9195
縹	-10.9195
老鴉	-10.9195
屨	-10.9196
癰	-10.9196
斥鹵	-10.9196
孚	-10.9196
紓	-10.9196
伸	-10.9197
皴	-10.9197
菅	-10.9197
蘇恭曰	-10.9197
霸	-10.9197
與地平	-10.9198
鍫	-10.9198
醎	-10.9198
考工記	-10.9198
沁	-10.9199
雞鴨	-10.9199
侍郎	-10.9199
剖	-10.9199
􁷕	-10.92
黑白二種	-10.92
豪强	-10.92
爼	-10.92
湮塞	-10.92
鑚	-10.9201
畎	-10.9201
衷	-10.9201
錢鎛	-10.9201
串	-10.9201
筠	-10.9201
噴	-10.9202
憚	-10.9202
僮	-10.9202
顛倒	-10.9202
㽞	-10.9202
梧	-10.9202
俞	-10.9202
扺	-10.9202
茜	-10.9202
畿輔	-10.9203
埽	-10.9203
縈	-10.9203
瘢	-10.9203
紉	-10.9203
櫃	-10.9203
换	-10.9203
雜隂陽書曰	-10.9204
枿	-10.9204
蕚	-10.9205
葉攅生一處	-10.9205
各有所宜	-10.9205
汜	-10.9206
薥秫	-10.9206
㯶	-10.9206
撩	-10.9207
藊豆	-10.9207
狭	-10.9207
鈴	-10.9208
艱難	-10.9208
帆	-10.9208
函	-10.9208
麻蕡	-10.9208
巾	-10.9209
醸	-10.9209
漠	-10.9209
酸漿	-10.9209
羃	-10.921
水晶	-10.921
田家五行	-10.921
薁	-10.9211
迨	-10.9211
抛荒	-10.9211
岱	-10.9211
篝	-10.9212
荆揚	-10.9212
震澤	-10.9212
兄	-10.9213
三分之一	-10.9214
筒索	-10.9214
淅	-10.9216
耞	-10.9216
賦税	-10.9216
恒蔬	-10.9216
蓬蒿	-10.9217
㑹稽	-10.9217
討	-10.9217
郊廟	-10.9218
愛惜	-10.9218
徭役	-10.9219
疆理	-10.922
昻	-10.9224
航	-10.9224
神農氏	-10.9227
狹鄉	-10.9229
元史	-10.923
菘菜	-10.9232
精誠	-10.9234
冷際	-10.9236
後漢書	-10.9236
狀類	-10.9239
命有司	-10.924
戎菽	-10.9244
著甕中	-10.9246
生山谷中	-10.9248
永樂	-10.9252
凍損	-10.9256
厚二寸	-10.9256
疾苦	-10.926
置閘	-10.9262
災傷	-10.9269
流離	-10.9269
者為勝	-10.9285
不黏者	-10.9295
瀦蓄	-10.9307
上中下	-10.9315
者多矣	-10.9399
薑橘	-10.9403
味甘救飢採	-10.944
府古揚州斗分野	-10.9523
葉煠熟	-10.9527
六十四	-10.9675
救飢採嫩苗葉煠熟換水	-10.9694
之謂也	-10.9749
弟	-10.978
寇	-10.9813
十畒	-10.9814
硫	-10.9864
梔	-10.9871
燼	-10.9872
膾	-10.9873
金包銀	-10.9877
嘉禾合穂	-10.9879
坵	-10.9881
墟	-10.9881
蹙	-10.9886
菉	-10.9887
箄	-10.989
擠	-10.9893
鮑	-10.9893
渥	-10.9894
盎	-10.9894
生熟皆可食	-10.9894
鴨脚	-10.9894
携	-10.9894
纍	-10.9895
濾	-10.9895
躋	-10.9898
寥	-10.9899
幣	-10.9899
局	-10.99
託	-10.9901
殫	-10.9902
忱	-10.9902
蘘	-10.9902
鞅	-10.9902
楱	-10.9902
唱	-10.9903
碌碡	-10.9904
箸	-10.9904
芼	-10.9904
狂	-10.9905
證	-10.9905
評	-10.9905
壑	-10.9906
蕃息	-10.9906
䨇	-10.9906
嗜	-10.9907
椏	-10.9907
匕	-10.9907
禀	-10.9907
閼	-10.9908
綿幕	-10.9908
宣歙	-10.9908
萬六千	-10.9909
芙蓉	-10.9909
憐	-10.9909
柹	-10.9909
諳	-10.991
棧	-10.9911
糾	-10.9911
貿	-10.9911
技	-10.9911
詩小雅	-10.9911
大學士	-10.9911
洞庭	-10.9911
稚	-10.9912
傭	-10.9912
之宜篇第	-10.9913
㽔	-10.9913
迥	-10.9913
正義曰	-10.9913
醜	-10.9913
如彈丸	-10.9914
拙	-10.9914
矜	-10.9914
蛾眉	-10.9914
蓄殖果木不如三土以十分之	-10.9914
𥿄	-10.9915
輟	-10.9915
毬	-10.9915
礋	-10.9916
暨	-10.9916
匱乏	-10.9916
中氣初五日	-10.9916
依前法	-10.9916
莙薘	-10.9916
詳見樹藝果部救飢	-10.9917
荒政救荒本草	-10.9917
后妃	-10.9917
顔師古曰	-10.9918
拽	-10.9918
淄	-10.9918
須臾	-10.9918
羲	-10.9918
牌	-10.9918
厎	-10.9918
師姑	-10.9919
詭	-10.9919
楫	-10.9919
櫨	-10.9919
駢	-10.992
孳	-10.992
邇	-10.992
抖	-10.992
繒	-10.9921
師曠占	-10.9921
葉味㣲苦	-10.9921
芭蕉	-10.9922
溉灌	-10.9922
芎	-10.9923
游惰	-10.9923
之總名	-10.9923
孝弟	-10.9924
穏	-10.9924
萬餘石	-10.9924
刪	-10.9925
淖	-10.9925
宫室	-10.9925
捧	-10.9925
婢	-10.9925
窩	-10.9927
枘	-10.9927
萱	-10.9928
䉛	-10.9929
潑	-10.9929
兢	-10.9929
廼	-10.9929
講求	-10.993
葭	-10.993
猪脂	-10.9932
倉庾	-10.9932
町	-10.9932
倉箱	-10.9935
盫	-10.9938
匪直	-10.9941
宣城	-10.9945
溫泉	-10.9952
州之域	-11
大麥小麥	-11.0012
山野中苗高	-11.0071
寅卯	-11.0076
耒耜經	-11.0133
元年詔	-11.0267
換水浸淘浄油鹽調食	-11.0356
換水浸去	-11.0386
鄭注	-11.0408
秉耒	-11.0434
卯辰	-11.0533
洗浄油鹽調食	-11.0571
擦	-11.0647
趕	-11.0652
貍	-11.0661
蘩	-11.0661
鹻	-11.0662
弁	-11.0665
糙	-11.0667
糲	-11.0667
邢	-11.0668
汶	-11.0668
桔	-11.0668
秃	-11.0668
􁓰	-11.0669
剌	-11.067
曝令燥	-11.067
陸璣詩疏	-11.0671
可作虀	-11.0672
蚯蚓	-11.0672
伊尹	-11.0672
臾	-11.0673
周禮地官	-11.0673
蒼术	-11.0673
芸薹	-11.0673
裴	-11.0674
搆	-11.0674
南方草物狀曰	-11.0674
紹	-11.0674
三千六百	-11.0674
㢘	-11.0674
庛	-11.0674
寔	-11.0675
孟康曰	-11.0675
籩	-11.0676
𢃄	-11.0676
庄	-11.0677
鑊	-11.0677
窑	-11.0677
籭	-11.0678
謙	-11.0678
莎	-11.0678
迮	-11.0678
痺	-11.0678
擕	-11.0678
隘	-11.0679
庇	-11.0679
泰西水法	-11.0679
悠	-11.068
鈐	-11.068
礰	-11.068
潼	-11.068
埸	-11.0681
櫌	-11.0681
屏	-11.0681
守敬	-11.0681
森	-11.0681
各等分	-11.0681
止留一	-11.0681
埀	-11.0681
群	-11.0682
稲	-11.0682
夙	-11.0682
家給人足	-11.0682
肇	-11.0682
枵	-11.0683
貓	-11.0683
挨	-11.0683
渚	-11.0683
俊	-11.0683
恥	-11.0684
菼	-11.0684
崑崙	-11.0684
攔	-11.0684
聖祖仁皇帝	-11.0684
樵	-11.0684
詩義䟽曰	-11.0685
峯	-11.0685
搓	-11.0685
巷	-11.0685
幡	-11.0686
牒	-11.0686
隐	-11.0686
渤海	-11.0686
徼	-11.0686
凶荒	-11.0686
朋	-11.0686
净淘	-11.0686
坯	-11.0686
㨂	-11.0686
賠	-11.0687
鏤	-11.0687
萬不失一	-11.0687
峙	-11.0687
彫	-11.0687
奄	-11.0687
蠲免	-11.0687
一統志	-11.0687
磊	-11.0688
淘汰	-11.0688
霽	-11.0688
朹	-11.0688
鈔	-11.0688
札	-11.0689
𤣥扈	-11.0689
款	-11.0689
俎	-11.0689
吳淞江	-11.0689
纖	-11.069
酉陽雜俎	-11.069
徐光啟曰	-11.069
楷	-11.069
有線楞	-11.069
濛	-11.069
徐廣曰	-11.0691
萑葦	-11.0691
公卿	-11.0692
𥫱	-11.0692
救飢摘取	-11.0692
蓑衣	-11.0692
毛羽	-11.0692
食法採葉煠熟水浸淘浄油鹽調食	-11.0692
芃	-11.0692
一尺二寸	-11.0693
綸	-11.0693
嘆	-11.0694
絲窩	-11.0694
荚	-11.0694
店	-11.0694
水轉翻車	-11.0694
吸	-11.0694
妥	-11.0695
松栢	-11.0695
松柏	-11.0696
彌望	-11.0696
農桑直説	-11.0696
不燒則	-11.0696
稂	-11.0697
𩥇	-11.0697
塌	-11.0698
螘	-11.0699
捨	-11.0699
䜿	-11.07
茫	-11.07
輞	-11.07
鞠	-11.0701
韶	-11.0701
益智	-11.0704
杷耬	-11.0705
穭	-11.0706
勤惰	-11.0708
瓦盆	-11.0712
佃戸	-11.0715
府古雍州井鬼分野	-11.0718
如黍粒	-11.0726
翰林院編修	-11.0761
王禎農書	-11.0777
苗葉煠熟換水	-11.0793
丙丁	-11.081
農器圖譜十	-11.0919
州府古揚州斗分野	-11.1103
舊不載所出州土	-11.1394
榖種門	-11.1441
糯柳條糯	-11.1466
跪	-11.1477
盜賊	-11.1481
蛆	-11.149
羨	-11.149
陛	-11.1492
瓊	-11.1493
耡	-11.1495
臧	-11.1496
抹	-11.1497
潢	-11.1498
懇	-11.1498
菔	-11.1499
盂	-11.1499
捕蝗	-11.1501
脃	-11.1501
知稼穡之艱難	-11.1502
祿	-11.1502
缾	-11.1502
廣州記曰	-11.1502
氓	-11.1502
滄	-11.1503
階	-11.1503
忻	-11.1503
瀹	-11.1503
誕	-11.1503
琴	-11.1504
悅	-11.1504
敏	-11.1505
撃	-11.1505
肘	-11.1506
肖	-11.1506
西王母	-11.1506
籥	-11.1506
董仲舒	-11.1506
蘋	-11.1506
爨	-11.1507
礬	-11.1507
朗	-11.1507
糗	-11.1508
様樁	-11.1508
鐘	-11.1508
虋	-11.1509
蒻	-11.1509
油鹽調食生醃食亦可	-11.151
舁	-11.151
鎡	-11.151
􁆵	-11.151
一莖三穂	-11.151
一稃二米	-11.151
劄	-11.151
潮汐	-11.1511
駟	-11.1511
􁣑	-11.1511
愼	-11.1511
鬃	-11.1512
悟	-11.1512
剰	-11.1512
盗賊	-11.1512
嬾	-11.1513
㕑	-11.1513
琥	-11.1513
妾	-11.1513
小司徒	-11.1513
劙	-11.1513
坂	-11.1513
雚	-11.1514
䃺	-11.1514
聰	-11.1514
妃	-11.1514
餻	-11.1514
見風日	-11.1514
徐子曰	-11.1515
恵	-11.1515
避暑	-11.1515
恨	-11.1515
葺	-11.1515
凢	-11.1516
賛	-11.1516
醢	-11.1516
薍	-11.1516
笨	-11.1517
啄	-11.1517
楓	-11.1517
酬	-11.1517
友	-11.1517
宗廟	-11.1518
槖	-11.1518
叫	-11.1518
賑貸	-11.1518
閏	-11.1518
敲	-11.1518
窟	-11.1519
泡	-11.1519
嫰	-11.1519
芬芳	-11.1519
諫	-11.1519
鉛	-11.1519
扼	-11.1519
餐	-11.152
陋	-11.152
曉示	-11.152
豊	-11.152
溶	-11.152
尅	-11.152
𤾉	-11.152
鉢	-11.152
治病今人	-11.1521
逐耆	-11.1521
孛	-11.1522
劖	-11.1522
郭璞註曰	-11.1522
巫	-11.1523
瑟	-11.1523
釣	-11.1523
祓	-11.1523
殃	-11.1523
氣上騰	-11.1523
葉及實皆可食	-11.1524
羞	-11.1524
騾	-11.1524
東廧	-11.1525
靛	-11.1525
斵	-11.1525
薔薇	-11.1526
眶	-11.1526
誇	-11.1526
詰	-11.1526
窺	-11.1526
八平分	-11.1526
耘盪	-11.1526
薥黍	-11.1527
弔	-11.1527
煙熏	-11.1527
靠	-11.1528
冉	-11.1528
糵	-11.1528
簞	-11.1528
世宗憲皇帝	-11.1528
届	-11.1529
陳澔曰此記	-11.1529
濤	-11.153
溝壑	-11.1531
而終無出也	-11.1532
确	-11.1532
壖	-11.1532
月之候	-11.1534
有大小二種	-11.1536
治病文具本草菜部條下	-11.1536
喧	-11.1537
蝕	-11.1538
餘姚	-11.1538
為直角	-11.1539
聨	-11.1539
會稽	-11.154
堪入藥	-11.1579
嫩葉煠熟換水浸去苦味	-11.175
葉間開	-11.1787
髙一二尺莖	-11.2049
升薄田	-11.2304
盔	-11.2369
于律為	-11.2371
欽定四庫全書子部四	-11.2385
猒	-11.2393
法第七十	-11.2394
𤣥扈先生	-11.2396
燋	-11.2396
悴	-11.2397
耀	-11.2399
滹沱	-11.2401
熾	-11.2401
牸	-11.2404
縑	-11.2406
耿	-11.2408
姚	-11.2409
螻	-11.241
鄭司農云	-11.241
崔寔曰正月可	-11.241
鄒	-11.241
悪	-11.2411
銘	-11.2411
馥	-11.2412
擒	-11.2412
数	-11.2413
嘉禾一莖九穂	-11.2413
饁	-11.2413
𠻳	-11.2414
弄	-11.2414
西陵氏	-11.2414
襍	-11.2415
斃	-11.2415
怠惰	-11.2415
撁	-11.2415
膈	-11.2416
仲夏之月	-11.2416
舄	-11.2417
彩	-11.2417
瀋	-11.2417
燉煌	-11.2418
仆	-11.2418
湛	-11.2418
箆	-11.2418
虐	-11.2419
綌	-11.2419
窳	-11.2419
薈	-11.2419
氣味甘平無毒	-11.242
鎖	-11.242
蕛	-11.242
菲	-11.242
地理志	-11.242
袍	-11.242
瘁	-11.242
黙	-11.2421
㕓	-11.2421
蠱	-11.2421
廿	-11.2421
腐婢	-11.2421
徤	-11.2421
鷰	-11.2422
䕸	-11.2422
芙	-11.2422
壍	-11.2422
覃	-11.2422
礧	-11.2422
恪	-11.2422
匿	-11.2422
詐	-11.2422
餔	-11.2422
矧	-11.2423
穜稑	-11.2423
券	-11.2424
龍魚河圖	-11.2424
丫	-11.2424
泛溢	-11.2425
滛	-11.2425
元王禎撰農器圖譜	-11.2425
巵	-11.2425
淳熙	-11.2426
旄	-11.2426
葉皆對生	-11.2426
妖	-11.2426
潔浄	-11.2426
獺	-11.2426
翎	-11.2427
桯	-11.2427
鬴	-11.2427
厦	-11.2427
抄劄	-11.2427
掠	-11.2427
寝	-11.2428
豪右	-11.2428
倡率	-11.2428
曩	-11.2428
傘	-11.2428
磟碡	-11.2428
陶朱公書	-11.2428
黜陟	-11.2428
正月二月中	-11.2428
烘	-11.2429
周而復始	-11.2429
梳	-11.2429
猗	-11.2429
迂	-11.243
墼	-11.243
囤	-11.243
採周憲王救荒本	-11.2431
恣	-11.2431
薯	-11.2431
恰	-11.2432
拱	-11.2433
博聞錄	-11.2433
柔韌	-11.2433
票	-11.2433
邉有鋸齒	-11.2434
藂	-11.2434
味苦性寒無毒	-11.2435
洮	-11.2435
銅鍋	-11.2435
套	-11.2435
葧臍	-11.2435
坏	-11.2435
懋	-11.2436
蹉	-11.2436
滅裂	-11.2436
揜	-11.2436
摜	-11.2436
笮	-11.2437
占驗禮記月令	-11.2438
鯶	-11.2438
鉄	-11.2438
楹	-11.2439
罹	-11.2439
甎	-11.2439
梅聖俞詩云	-11.244
惕	-11.2441
剡	-11.2441
醪	-11.2441
僂	-11.2443
籸	-11.2443
䈰	-11.2446
穬	-11.2446
騷	-11.2448
畒用子	-11.245
軛	-11.245
翰林院	-11.2463
百糓譜	-11.2483
丑寅	-11.2648
浸去苦味淘	-11.2705
欽定授時通考卷六十	-11.3095
哈	-11.3358
緡	-11.3388
宴	-11.3393
槧	-11.3394
浣	-11.3395
尉	-11.3397
一莖五穂	-11.3399
菭	-11.3401
貳	-11.3402
尻	-11.3403
琢	-11.3403
脅	-11.3404
謨	-11.3404
滔	-11.3404
狄	-11.3405
飰	-11.3406
保正副	-11.3406
􁆴	-11.3406
懈	-11.3407
佚	-11.3407
禎	-11.3408
裙	-11.3408
腔	-11.3409
蔫	-11.341
菥	-11.341
柺	-11.3411
寕	-11.3411
諧	-11.3412
總校官	-11.3412
斟	-11.3412
淪	-11.3412
掬	-11.3412
于辰在	-11.3413
薌	-11.3413
宋史食貨志	-11.3414
圈	-11.3414
鬭	-11.3414
汀	-11.3414
苹	-11.3415
峭	-11.3415
笛	-11.3415
旌	-11.3416
俸	-11.3416
䘮	-11.3417
鈍	-11.3417
徇	-11.3417
深水紅	-11.3417
黼	-11.3418
棒	-11.3418
晰	-11.3418
犧牲	-11.3418
歆	-11.3419
陸龜䝉	-11.3419
通志康熙	-11.3419
腋	-11.3419
芷	-11.3419
稊	-11.342
孝弟力田	-11.342
儼	-11.342
絟	-11.3421
肢	-11.3421
治畦下水	-11.3421
頽	-11.3421
譽	-11.3421
榠	-11.3421
以防止水	-11.3422
拈	-11.3422
寰	-11.3422
滂	-11.3422
攘	-11.3423
褒	-11.3423
痂	-11.3423
莓	-11.3423
孟夏之月	-11.3423
滚	-11.3424
㝡	-11.3424
顏	-11.3424
谿	-11.3424
参	-11.3425
捻	-11.3425
穟	-11.3425
不可闕也	-11.3425
賀	-11.3425
鞋	-11.3425
仞	-11.3425
术	-11.3425
大雨時行	-11.3426
辮	-11.3426
糞水澆之	-11.3426
嬰	-11.3426
農桑要㫖	-11.3426
物類相感志	-11.3426
㝠	-11.3426
膺	-11.3427
捃	-11.3427
昂	-11.3427
捜	-11.3427
猾	-11.3427
稿	-11.3427
吟	-11.3428
訴	-11.3428
湊	-11.3428
􁗿	-11.3428
汛	-11.3428
覧	-11.3428
日得壬	-11.3428
䤅	-11.3428
咬	-11.3429
食法採苗葉煠熟水浸淘浄油鹽調食	-11.3429
􁍩	-11.3429
上中央四齒	-11.3429
欽定四庫全書農政全書卷四十	-11.3429
毇	-11.3429
屝	-11.3429
欽定四庫全書農政全書卷二十	-11.3429
惻	-11.343
以草覆上	-11.343
新鄭縣山野中	-11.343
瓞	-11.343
齍	-11.343
𦙍	-11.343
薔	-11.343
又食貨志	-11.343
咽喉	-11.343
龕	-11.343
扣	-11.343
僑	-11.3431
睛	-11.3431
雍正二年	-11.3431
窓	-11.3431
蛹	-11.3431
欽定四庫全書農政全書卷五十	-11.3432
㮕	-11.3432
禹平水土	-11.3432
之遺意	-11.3432
撞	-11.3432
鰱	-11.3432
畊	-11.3432
撅	-11.3433
裝	-11.3433
涯	-11.3433
邊有鋸齒	-11.3433
縦	-11.3433
翩	-11.3433
跗	-11.3433
欽定授時通考卷四十	-11.3433
宦	-11.3433
王荆公詩云	-11.3433
授民時	-11.3433
欽定四庫全書農政全書卷三十	-11.3433
耕第十	-11.3433
剽	-11.3434
麯	-11.3434
驚蟄	-11.3434
裡	-11.3435
洳	-11.3435
吴淞江	-11.3435
坌	-11.3435
葉似獨掃葉	-11.3435
無毒食法採嫩葉煠熟油鹽調食	-11.3435
粲	-11.3436
葉煠熟水浸去苦味油鹽調食	-11.3436
𣙗	-11.3436
址	-11.3436
苗高一二尺葉似	-11.3437
欽定四庫全書欽定授時通考卷四十	-11.3437
諱	-11.3437
捷	-11.3438
大戴禮	-11.3438
結子如豌豆大	-11.3438
榎	-11.3439
軸之兩端	-11.3439
麓	-11.344
擐	-11.3441
以句股	-11.3441
檟	-11.3441
㯺	-11.3442
内務府	-11.3443
駞	-11.3443
睡	-11.3443
罄	-11.3443
齡	-11.3447
棺	-11.3447
蝶	-11.3448
昊	-11.3449
淑	-11.3451
据	-11.3452
裔	-11.3452
楙	-11.3455
竄	-11.3457
吝	-11.346
葉煠熟水淘去苦味油鹽調食	-11.3539
煠熟換水浸淘	-11.4141
之次于辰在	-11.4482
𤨏	-11.4488
鶩	-11.4492
叩	-11.4492
芮	-11.4493
枷	-11.4501
等謹案	-11.4503
王以下各官	-11.4504
鱧	-11.4506
諸葛菜	-11.4506
膂	-11.4507
夔	-11.4507
駝	-11.4507
蝨	-11.4509
授時通考	-11.451
禾一本九穂	-11.451
獄	-11.451
禆	-11.4512
頰	-11.4513
桿	-11.4513
昀	-11.4514
藄	-11.4514
羖	-11.4514
龡	-11.4517
聿	-11.4517
馬齒莧	-11.4518
孫士毅	-11.4519
陸費墀	-11.4519
葡	-11.4519
龠	-11.452
嵐	-11.452
簜	-11.452
瘟	-11.452
茘	-11.452
豹	-11.452
樽	-11.452
晳	-11.452
芭	-11.4521
鴿	-11.4521
煏	-11.4521
招徠	-11.4522
話	-11.4522
欎	-11.4522
犀	-11.4522
装	-11.4522
購	-11.4523
軀	-11.4523
迭	-11.4524
夥	-11.4524
澤藪曰	-11.4524
野菜譜	-11.4524
為末每服	-11.4525
勺	-11.4525
讓	-11.4525
倖	-11.4526
蚊	-11.4527
穆	-11.4527
蔣	-11.4527
盍	-11.4527
慣	-11.4527
湍	-11.4527
轍	-11.4527
醇	-11.4527
甖	-11.4528
糯紅殻糯	-11.4528
匣	-11.4528
胞	-11.4529
冥	-11.4529
穈	-11.4529
紆	-11.4529
埒	-11.453
韮	-11.453
媚	-11.453
圉	-11.453
悝	-11.4531
秣	-11.4531
葉攢生一處	-11.4531
扈先生曰	-11.4532
㹀	-11.4532
糯紅糯	-11.4532
艮	-11.4532
轆	-11.4532
妳	-11.4532
有紅白二種	-11.4532
丕	-11.4533
倡	-11.4533
噫	-11.4533
茵	-11.4533
雋	-11.4533
食貨志云	-11.4533
竦	-11.4534
冡	-11.4534
蔠	-11.4534
纁	-11.4534
誼	-11.4534
隈	-11.4535
逰	-11.4535
陶隠居	-11.4535
荄	-11.4535
瓷	-11.4535
舶	-11.4535
蚌	-11.4535
枌	-11.4535
凄	-11.4535
畱	-11.4536
淘去澁味油鹽調食	-11.4536
黻	-11.4536
生輝縣	-11.4536
靳	-11.4537
圖經云	-11.4537
甄	-11.4537
藶	-11.4537
豪傑	-11.4537
橐	-11.4537
蛟	-11.4537
味苦甘性	-11.4537
鞏	-11.4538
搏	-11.4538
湅	-11.4538
稀稠得所	-11.4538
剏	-11.4538
垎	-11.4538
頑	-11.4538
愽	-11.4538
有成效	-11.4538
麴末一斗	-11.4538
縞	-11.4538
從風飛去	-11.4538
稳	-11.4538
馭	-11.4539
禳	-11.4539
堘	-11.4539
葉似杏葉而	-11.4539
蓻	-11.4539
鷺	-11.4539
敖	-11.454
菖	-11.454
南陽太守	-11.4541
明周王朱橚撰	-11.4541
勲	-11.4541
徂	-11.4541
朔日値	-11.4541
天其星	-11.4541
渉	-11.4542
召信臣	-11.4542
迸	-11.4542
禋	-11.4542
昇	-11.4542
柂	-11.4543
淚	-11.4543
膓	-11.4543
鶵	-11.4543
泖	-11.4543
沮洳	-11.4543
救飢採葉煠熟換水浸去苦味	-11.4543
拊	-11.4544
就地拖秧而生	-11.4544
瑣	-11.4544
開碎瓣	-11.4544
涎	-11.4544
藙	-11.4545
超	-11.4545
彦	-11.4545
薕	-11.4545
鏃	-11.4545
倭	-11.4545
檉	-11.4545
􁉩	-11.4545
覔	-11.4546
掌印官	-11.4546
祲	-11.4547
徑三寸則	-11.4547
抬	-11.4547
蒿生荒野中苗	-11.4547
馮	-11.4548
斟酌焉而為之度	-11.4548
萑	-11.4548
毯	-11.4549
冽	-11.4549
人車之接輪齒	-11.4549
楊泉物理論	-11.455
泆	-11.455
太常寺	-11.455
喂	-11.455
古農法	-11.455
上樞之末	-11.4551
嘯	-11.4551
車則有卧軸也卧軸之	-11.4551
紬	-11.4552
多留宿土	-11.4553
人亦呼	-11.4553
臈	-11.4554
下樞之末	-11.4554
墐	-11.4555
豐澤園	-11.4555
白虎通	-11.4555
䟎	-11.4556
蒹	-11.4556
櫳	-11.4558
瀼	-11.4561
芊	-11.4562
柅	-11.4562
浜	-11.4573
似苜蓿葉	-11.5014
山谷中樹	-11.5724
駵	-11.573
烏節糯	-11.5736
茖	-11.5737
膁	-11.5743
拏	-11.5744
蔀	-11.5747
臆	-11.5747
硃砂糯	-11.5749
花色仍連著實	-11.5751
鍜	-11.5752
棍	-11.5753
便民圗曰	-11.5754
鯉	-11.5758
賄	-11.5758
炮	-11.5759
釅	-11.5759
聒	-11.5759
黧	-11.5759
奈	-11.576
簣	-11.5761
繕	-11.5761
哲	-11.5762
涿	-11.5762
埃	-11.5764
橇	-11.5766
肪	-11.5766
雨暘時若	-11.5767
骼	-11.5767
椵	-11.5768
㼐	-11.5768
鮐	-11.5769
熹	-11.577
麟	-11.577
潜	-11.5771
熨	-11.5771
茲	-11.5771
樲	-11.5773
鄘	-11.5774
捺	-11.5774
萃	-11.5774
漾	-11.5775
翳	-11.5775
尔	-11.5775
穇	-11.5775
澧	-11.5775
簪	-11.5775
廂	-11.5776
謁	-11.5776
娛	-11.5777
鑾	-11.5777
禮記内則	-11.5777
綾	-11.5777
鉗	-11.5777
菀	-11.5778
忩	-11.5778
􁗳	-11.5778
蓘	-11.5779
蹲	-11.5779
尚書考靈曜	-11.5779
崩	-11.5779
灘	-11.5779
諉	-11.578
莪	-11.578
􁆤	-11.578
元史食貨志	-11.578
枋	-11.578
𧖟	-11.578
乖	-11.578
圻	-11.578
鎔	-11.578
茒	-11.5781
花結小角	-11.5782
部左侍郎	-11.5782
簍	-11.5782
悍	-11.5782
襟	-11.5782
債	-11.5783
潟	-11.5783
譚	-11.5783
堙	-11.5784
籜	-11.5784
甦	-11.5784
諮	-11.5784
吁	-11.5784
捄	-11.5784
濇	-11.5784
􁣌	-11.5784
開淡粉紫花	-11.5784
擢	-11.5785
垡	-11.5785
晾	-11.5785
誌	-11.5785
筯	-11.5785
觴	-11.5785
康熈四十	-11.5785
懿	-11.5785
百七十六	-11.5785
㓂	-11.5785
緗	-11.5785
別	-11.5785
鱟	-11.5785
葉似槐葉而	-11.5786
虗	-11.5786
疙	-11.5786
二千五百	-11.5786
紈	-11.5786
榼	-11.5787
瓚	-11.5787
涕	-11.5787
窶	-11.5788
咽	-11.5788
嶼	-11.5788
鰕	-11.5788
橰	-11.5788
硃	-11.5788
彷	-11.5788
澡	-11.5788
兌	-11.5788
䥛	-11.5788
㙷	-11.5788
絍	-11.5788
窒	-11.5789
葉味甜救飢採嫩苗葉煠熟水浸淘	-11.5789
開粉紅花	-11.5789
赫	-11.579
堡	-11.579
槎	-11.579
藳	-11.579
分其凡而	-11.579
襫	-11.579
筵	-11.5791
日月星辰	-11.5791
節氣初五日	-11.5791
籧	-11.5791
欽定四庫全書救荒本草卷	-11.5791
邈	-11.5791
閨	-11.5791
一勞永逸	-11.5791
朱文公	-11.5791
蒡	-11.5792
蹤	-11.5792
謹改正	-11.5792
萹	-11.5792
馴	-11.5792
燒下頭二	-11.5793
髙數寸	-11.5793
欖	-11.5793
又似金銀花葉	-11.5794
糁	-11.5794
鄭康成	-11.5794
惟所為之	-11.5794
後年正月	-11.5794
阨	-11.5795
菟	-11.5795
禧	-11.5795
渗	-11.5795
滷	-11.5795
康熈三十	-11.5796
嘉定縣志	-11.5796
隊	-11.5796
牛蒡子	-11.5796
水清乃止	-11.5796
取其刺可却姦取其	-11.5796
演	-11.5797
埆	-11.5797
㓗	-11.5797
迓	-11.5797
荈	-11.5797
故字從	-11.5797
韜	-11.5797
莾	-11.5797
塔	-11.5798
釁	-11.5798
慙	-11.5798
本篇一圖之	-11.5798
南州異物志曰	-11.5798
蘧	-11.5798
緹	-11.5799
鐵梗糯	-11.5799
篣	-11.5799
敘	-11.5799
葉裏藏	-11.58
吃	-11.58
莭	-11.5801
萄	-11.5801
瀘	-11.5801
垜	-11.5802
絨	-11.5802
行春令則	-11.5802
爇	-11.5802
如釵股	-11.5802
秸	-11.5804
棬	-11.5804
糯馬鬃糯	-11.5804
俗又呼	-11.5804
划	-11.5805
藭	-11.5805
進瑞麥一莖	-11.5805
紅蓮稻	-11.5805
灋	-11.5805
壺漏之	-11.5805
睫	-11.5806
石焉或瓴甋焉	-11.5806
稞	-11.5807
㦸	-11.5808
搨	-11.5808
蚢	-11.5808
醅	-11.5808
皷	-11.5808
哨	-11.5812
荍	-11.5821
乎子能使	-11.5821
騂	-11.5823
閃西風	-11.5824
念民依	-11.586
救飢採嫩葉煠熟換水	-11.7052
古雍州井鬼分野	-11.7154
癩	-11.716
顱	-11.7165
翼軫分野	-11.7166
州獻嘉禾	-11.7167
豘	-11.7168
蹶	-11.7169
顙	-11.7171
禮部堂官	-11.7172
斁	-11.7174
曜	-11.7176
棕	-11.7176
扒	-11.7181
薥	-11.7182
剩	-11.7185
炳	-11.7185
鴽	-11.7187
蒯	-11.7188
念切民依	-11.7188
豆羊眼豆	-11.7188
銎	-11.719
怯	-11.7191
秪	-11.7191
撿	-11.7191
卭	-11.7191
邠	-11.7193
㩥	-11.7193
扛	-11.7194
街	-11.7194
棊	-11.7195
紳	-11.7195
羅裙帶	-11.7195
淶	-11.7195
箘	-11.7196
瘴	-11.7196
殄	-11.7196
潄	-11.7197
蹯	-11.7197
卹	-11.7198
䧟	-11.7199
舘	-11.7199
掊	-11.72
龎	-11.72
覓	-11.72
麞	-11.7201
岷	-11.7201
餽	-11.7201
蒳	-11.7202
鷃	-11.7202
萋	-11.7202
瀛	-11.7203
繹	-11.7203
䗣	-11.7203
日未出時	-11.7203
掾	-11.7203
涓	-11.7203
螣	-11.7203
自關而西	-11.7203
蔑	-11.7204
碑	-11.7204
醖	-11.7204
贓	-11.7204
褥	-11.7205
踊	-11.7205
咏	-11.7205
姙	-11.7205
澈	-11.7205
濩	-11.7205
縟	-11.7205
宼	-11.7206
駑	-11.7206
弧	-11.7206
婺	-11.7207
怡	-11.7207
涌	-11.7207
罩	-11.7207
𣙜	-11.7207
詎	-11.7207
倪	-11.7207
溽	-11.7207
陪	-11.7207
抝	-11.7207
佈	-11.7208
黯	-11.7208
莘	-11.7208
像	-11.7209
鑑	-11.7209
温有小毒	-11.7209
泣	-11.7209
直𨽻山東河南	-11.7209
醒	-11.7209
縻	-11.721
毅	-11.721
饔	-11.721
萬九千六百	-11.721
㙲	-11.721
栞	-11.721
蒭	-11.7211
毓	-11.7211
焰	-11.7211
地勢有良薄	-11.7211
蛛	-11.7211
孶	-11.7211
栖	-11.7211
圯	-11.7211
塾	-11.7211
炕	-11.7212
莞	-11.7212
鍊	-11.7212
鞍	-11.7212
以避水溢之患	-11.7212
㗖	-11.7212
撼	-11.7212
甸甸方八里	-11.7212
葉抪莖而生	-11.7212
燔	-11.7212
辯	-11.7213
通俗文曰	-11.7213
曼	-11.7213
弹	-11.7213
跛	-11.7213
元司農司撰	-11.7214
日未出前	-11.7214
紺	-11.7214
綜	-11.7214
欽定四庫全書農桑輯要卷	-11.7214
桁	-11.7214
四月末五月初	-11.7214
蘸	-11.7214
伺	-11.7215
柎	-11.7215
候棗葉始生	-11.7215
生水邊下濕地	-11.7215
雜五行書曰	-11.7215
它	-11.7215
糺	-11.7215
丘濬曰	-11.7216
種蒔直説	-11.7216
尼	-11.7216
磐	-11.7216
薙氏掌殺草	-11.7216
蕘	-11.7216
閃	-11.7216
篥	-11.7217
赦	-11.7217
弘	-11.7217
疸	-11.7217
耕必有一年之食九年耕必有三年之食	-11.7217
土潤溽暑	-11.7217
熇	-11.7217
蘥	-11.7217
饅	-11.7218
祛	-11.7218
峽	-11.7218
刁	-11.7218
廓	-11.7218
叟	-11.7218
祺	-11.7218
墝	-11.7218
不易一易再易之	-11.7219
凸	-11.7219
搬	-11.7219
許縣考童生	-11.7219
菂	-11.7219
蓫	-11.722
沴	-11.722
交州記曰	-11.722
寐	-11.722
瓴	-11.722
臨海異物志曰	-11.722
藐	-11.722
䖏䖏有之	-11.722
廽	-11.7221
苛	-11.7221
粹	-11.7221
蹋	-11.7221
詹	-11.7221
囿	-11.7221
思患預防	-11.7221
杈	-11.7221
螢	-11.7221
蘺	-11.7221
顚	-11.7221
霾	-11.7222
二月為中時三月為下時	-11.7222
葉間攛葶開	-11.7222
攬	-11.7222
􁍢	-11.7223
春秋說題辭	-11.7223
疐	-11.7223
焯	-11.7223
其人與千户侯等	-11.7223
寖	-11.7223
杆	-11.7223
青黄不接之時	-11.7224
勸課本朝重農	-11.7224
洵	-11.7224
具各圖説	-11.7224
黄省曽曰	-11.7224
行耕耤禮	-11.7224
拖蔓而生	-11.7224
食法採嫩葉煠熟水浸淘浄油鹽調食	-11.7224
西南風主	-11.7225
野菜博録	-11.7225
武英殿	-11.7226
啌	-11.7226
絆	-11.7227
葉而狹小	-11.7227
諭總理事務王大臣	-11.7227
食法採嫩苗葉煠熟水浸淘浄油鹽調食	-11.7227
嬴	-11.7227
咀	-11.7227
老婆布䩞	-11.7227
阪	-11.7227
水浸去苦味換水淘	-11.7227
貨殖傳	-11.7228
閤	-11.7228
空曳勞	-11.7229
日講官起居注	-11.7229
竣	-11.723
大學衍義補	-11.723
蘹	-11.723
霤	-11.7231
耕荒畢以鐡齒	-11.7231
一女不織	-11.7232
蓰	-11.7232
睹	-11.7233
縵	-11.7234
拍	-11.7235
㢤	-11.7235
食法採苗葉煠熟油鹽調食	-11.7235
康熈二十	-11.7236
范文正公	-11.7236
㳂	-11.7237
篆	-11.7237
箅	-11.724
食法採花煠熟	-11.7251
儗	-11.7255
山野中樹高	-11.8035
䳱	-11.8808
盌	-11.8825
䆘	-11.883
丳	-11.8831
奥	-11.8832
茀	-11.8837
府古百粤地	-11.8838
駱	-11.8841
牂	-11.8845
帙	-11.8845
鄒平縣物産	-11.8846
感召天和	-11.8846
驒	-11.8848
銚	-11.8848
捩	-11.8849
豌	-11.8849
絹袋盛	-11.885
欇	-11.8851
椇	-11.8852
盾	-11.8853
暫經沸湯	-11.8853
訾	-11.8854
裴淵廣州記曰	-11.8854
峪	-11.8855
髻	-11.8855
墉	-11.8855
州古揚州斗分野	-11.8855
偫	-11.8856
詩義䟽云	-11.8857
亳	-11.8857
廨	-11.8858
柸	-11.8858
鰻	-11.8858
櫛	-11.8859
咮	-11.886
乾隆四十六年	-11.886
苃	-11.886
褫	-11.886
粽	-11.8861
侔	-11.8861
周圍自成環池	-11.8861
嫗	-11.8861
頥	-11.8861
謡	-11.8861
大有裨益	-11.8861
將畦内種	-11.8862
連根掘出	-11.8862
覆土約厚三四指	-11.8862
治畦下水一同葵法	-11.8862
丢	-11.8862
刊	-11.8863
一莖雙穂	-11.8863
䆧	-11.8863
羝	-11.8864
該區公正	-11.8864
塢	-11.8864
拖犂歸	-11.8864
羹	-11.8864
明史食貨志	-11.8864
丁香藿香	-11.8864
欓	-11.8865
慵	-11.8865
縠	-11.8865
魅	-11.8865
脛	-11.8865
條葉豐腴	-11.8866
鸛	-11.8866
滸	-11.8867
濰	-11.8867
緻	-11.8867
隳	-11.8867
恬	-11.8867
鬛	-11.8868
勑	-11.8868
飪	-11.8868
嘔	-11.8868
蘟	-11.8868
櫈	-11.8868
痔	-11.8868
飡	-11.8868
罐	-11.8868
搘	-11.8869
檄	-11.8869
七日更酘用米	-11.8869
擷	-11.8869
秘	-11.8869
蹏	-11.8869
大糯小糯	-11.8869
宼宗奭曰	-11.8869
遙	-11.887
鍔	-11.8871
蕖	-11.8871
􁏱	-11.8872
恕	-11.8872
緬	-11.8872
萼	-11.8873
儆	-11.8873
摭	-11.8873
蘊	-11.8873
堵	-11.8873
天目諸山	-11.8873
䖟	-11.8873
殭	-11.8873
熟速刈乾速積	-11.8873
千夫有澮	-11.8873
汰	-11.8874
睢	-11.8874
都察院	-11.8874
深痛過鋤力三倍所辦之田日不啻二十	-11.8874
酣	-11.8874
􁊽	-11.8874
蓿	-11.8874
廣尺深尺	-11.8874
分八釐四毫	-11.8874
歴城縣方産	-11.8875
桀	-11.8875
䎪	-11.8875
用牛糞和泥	-11.8875
靴	-11.8876
倂	-11.8876
虌	-11.8876
旭	-11.8876
考工記匠人為溝洫耜廣五寸二耜為耦	-11.8876
稑	-11.8877
腿	-11.8877
出陳易新	-11.8877
磬	-11.8877
歙	-11.8877
白莖秋葵	-11.8877
鎻	-11.8877
勇	-11.8877
睦	-11.8877
茁	-11.8877
酤	-11.8877
佀	-11.8877
劬	-11.8877
楛	-11.8877
壏	-11.8877
洿	-11.8878
旃	-11.8878
桑皮繫了	-11.8878
不耕者出屋粟	-11.8878
栘	-11.8878
醍	-11.8878
萊蕪縣物産	-11.8879
農桑衣食撮要	-11.8879
驄	-11.8879
馗	-11.8879
淛	-11.8879
柟	-11.8879
檓	-11.888
搶	-11.888
燻	-11.888
貆	-11.888
味苦救飢採嫩芽葉煠熟換水浸去苦味	-11.888
先薦寢廟	-11.888
澍	-11.888
合累牛騰馬	-11.888
臓	-11.888
怸	-11.888
摟	-11.888
蹟	-11.888
鞮	-11.8881
踞	-11.8881
䔖	-11.8881
睂	-11.8881
漢食貨志	-11.8881
苗其弱也欲孤	-11.8881
愍	-11.8882
煌	-11.8882
盻	-11.8882
摯	-11.8882
緫	-11.8882
時器勸甿	-11.8882
隩	-11.8882
㤗	-11.8882
和泥渥漉深埋禾苗根下漚罨既	-11.8882
梜	-11.8882
蓍	-11.8882
青白花結小	-11.8882
彗	-11.8883
鎭	-11.8883
漊	-11.8883
戢	-11.8883
戧	-11.8883
櫄	-11.8883
萉	-11.8883
不足無六年之	-11.8883
國無九年之	-11.8883
篘	-11.8883
崔寔曰三月清明	-11.8883
夏官職方氏	-11.8884
禮記王制	-11.8884
貎	-11.8884
儔	-11.8884
剸	-11.8885
嗤	-11.8885
檖	-11.8885
兠水循槽	-11.8885
味微苦救飢採嫩苗葉煠熟水浸	-11.8885
用畜力輓行	-11.8885
蹇	-11.8885
菇	-11.8885
肄	-11.8885
螺旋之溝	-11.8885
哭	-11.8885
欹	-11.8885
顧微廣州記曰	-11.8885
潯	-11.8885
南北簇法俱未得中	-11.8885
易段也深	-11.8885
柫	-11.8885
湖田租課	-11.8885
根頭一寸半	-11.8886
今宻縣梁家衝山谷	-11.8886
芘	-11.8886
諤	-11.8886
根及實皆可食	-11.8886
人對持其	-11.8886
僞	-11.8886
晞	-11.8886
琅	-11.8886
籺	-11.8886
留旺者一條	-11.8886
救飢採嫩葉煠熟水浸淘淨油鹽調食	-11.8886
朂	-11.8886
塩	-11.8887
其美與蠶矢熟糞同	-11.8887
囚	-11.8887
䑔	-11.8887
繄	-11.8887
圍者外體也所以為固抱也	-11.8887
水浸去邪味油鹽調食	-11.8887
碁	-11.8887
而施之墨	-11.8887
苒	-11.8887
傾阪及	-11.8888
冕	-11.8888
黍心未生雨灌其心心傷無實	-11.8888
似龍鬚菜葉	-11.8888
篛	-11.8888
載芟載柞其耕澤澤	-11.8888
陶隱居	-11.8888
金史食貨志	-11.8888
癡	-11.8888
礦	-11.8888
篷	-11.8888
峰	-11.8888
璇	-11.8888
丘城上皆可為區田	-11.8888
錮	-11.8888
僵	-11.8888
菴	-11.8888
收刈欲晚	-11.8888
紝	-11.8888
晡	-11.8889
食法採苗葉煠熟水淘浄油鹽調食	-11.8889
龍首渠河内有史起十二渠	-11.8889
鞘	-11.8889
䓁	-11.8889
八繩附臬	-11.8889
再碾如此可一日一	-11.8889
燄	-11.8889
載芟之詩	-11.8889
南陽府馬鞍山	-11.8889
秋耕待白背勞	-11.8889
瀝青和蠟	-11.8889
皓	-11.889
􁝐	-11.889
鄞	-11.889
霹	-11.889
以滚水湯三五次	-11.889
不完責在	-11.889
不能折其出勢	-11.889
爻	-11.889
用一人一牛	-11.889
冦宗奭曰	-11.889
能無漏者	-11.889
戀	-11.8891
輪既轉則	-11.8891
杏葉沙參	-11.8891
生鈞州風谷頂山	-11.8891
之欲其固也	-11.8891
每幾何丈尺而下一尺	-11.8891
以兩手按之	-11.8891
元王禎撰農桑通訣	-11.8891
苟	-11.8891
髙五六尺葉似	-11.8891
飥	-11.8891
帷	-11.8891
霆	-11.8892
衮	-11.8892
寸以上不嫌長	-11.8892
軸者轉之主也水所由以下而為上也	-11.8892
去辣味油鹽調食	-11.8892
數條俱生留一根	-11.8892
㙡	-11.8892
駭	-11.8892
烽	-11.8893
禮記曲禮	-11.8893
瓝	-11.8893
戕	-11.8893
桑根白皮	-11.8893
楗	-11.8893
黄馬白喙不利人	-11.8893
癃	-11.8893
孱	-11.8893
其圜中規而上下等	-11.8893
天子諸侯必有公桑蠶室	-11.8893
明熊三拔撰	-11.8893
輪欲密附	-11.8893
提柱者水所由恒升也	-11.8893
柜	-11.8893
石灰瓦灰塗之	-11.8893
之舌為之掩	-11.8894
短界線	-11.8894
棹	-11.8894
本草圖經曰	-11.8894
㔯	-11.8894
其密切而無滯也展轉之上下之猶是也	-11.8894
莍	-11.8894
欽定四庫全書泰西水法卷	-11.8895
以上者以達於大	-11.8895
又各隨地勢	-11.8895
是一轉而得	-11.8895
耕耙欲受種之地非勞不可	-11.8895
議者曰吴淞江	-11.8895
鄭玄注曰	-11.8895
當砧之心而	-11.8895
旰	-11.8895
凛	-11.8896
瓏	-11.8896
神仙傳曰	-11.8896
樞者所以為利轉也	-11.8896
是拐木一轉而得	-11.8896
樞輪之齒八而	-11.8896
皆在其徑	-11.8896
憎	-11.8896
冦	-11.8896
一端有接輪卧軸之上有	-11.8896
佇	-11.8896
而轉之接輪與乙輪相發也若	-11.8897
馬牛驘車	-11.8897
騸	-11.8897
任置一輪焉如置在軸之	-11.8897
塹	-11.8897
處處有之苗髙二三尺	-11.8897
邕	-11.8898
蹴	-11.8898
卯午是也	-11.8898
刈束欲小	-11.8898
因隤其土以附苗根	-11.8898
腹廣而上下弇	-11.8898
焉而開闔之	-11.8898
盝	-11.8898
角亢氐房	-11.8898
尺開濶尺堆土離河丈尺月日起至日止	-11.8899
撥車頭竪輪	-11.8899
筩者水所由入也所以束水而上也	-11.8899
鏁	-11.89
宋臣范仲淹	-11.89
苔	-11.89
樹之齒焉	-11.89
繘	-11.89
衡衡也軸縱也鑿枘而合之欲其固也軸	-11.89
二曰雙提	-11.89
莒	-11.8901
墓	-11.8902
遐	-11.8902
欲其密而無漏也	-11.8902
為衡衡之長無	-11.8902
䐑	-11.8902
揔	-11.8902
􁉢	-11.8902
逗	-11.8903
中筩者壺水所由上也	-11.8903
覇	-11.8903
雨澤愆期	-11.8904
縉	-11.8904
壺者水之總也水所由續而不絶也	-11.8904
雙筩者水所由代入也	-11.8905
薜	-11.8906
亢房線	-11.8906
盤者中筩之水所由出也	-11.8906
倐	-11.8907
學圃餘疏	-11.8907
軺	-11.8907
逵	-11.8908
娜	-11.8909
罈	-11.891
糒	-11.8915
檽	-11.8916
必謹察之而加功焉	-11.8919
曰衡軸衡軸者所以挈	-11.8926
􁪾	-11.8927
嶽	-11.8928
哥	-11.8967
要術云採桑必須	-11.9038
駉	-12.0793
蚶	-12.0796
坰	-12.0802
洨	-12.0806
蕹	-12.0809
蓃	-12.0818
𫀆	-12.0821
骹	-12.0821
鮎	-12.0823
瀏	-12.0825
闋	-12.0825
蕺	-12.0832
邁	-12.0833
趨事赴功	-12.0836
抉	-12.0836
臚	-12.0837
澼	-12.0837
嶠	-12.0839
瑪	-12.0839
豇	-12.0839
恂	-12.0839
晶	-12.0839
邸	-12.0844
洴	-12.0844
蛋	-12.0845
蔭	-12.0845
煼	-12.0845
閹	-12.0846
十一月二月生者次之	-12.0846
証	-12.0847
子三月葉青便出之	-12.0847
䴸	-12.0848
碣	-12.0849
􁄾	-12.0849
牖	-12.085
屋之下作窠	-12.085
啚	-12.085
倩	-12.0851
蜆	-12.0851
順天時量地利則用力少而成功多任	-12.0851
贄	-12.0852
胏	-12.0852
棪	-12.0852
矯	-12.0853
鎪	-12.0853
泲	-12.0854
涵	-12.0854
皤	-12.0855
噎	-12.0855
甀	-12.0855
後魏高陽太守賈思勰撰	-12.0856
羝無角者更佳	-12.0856
笙	-12.0857
洶	-12.0857
肱	-12.0857
壷	-12.0857
亦須小厰以避雨雪春夏	-12.0857
仗	-12.0858
䈒	-12.0858
薢	-12.0858
啗	-12.0858
鮆	-12.0858
盲	-12.0858
蒐	-12.0858
良三徧細耕三月中浸子令芽生乃畦	-12.0858
瘃	-12.0859
逞	-12.0859
属	-12.0859
腤	-12.0859
鎬	-12.0859
州古冀州參井分野	-12.0859
莅	-12.0861
貤	-12.0861
賙	-12.0861
幪	-12.0861
府古青州危分野	-12.0861
紘	-12.0861
滹	-12.0862
韲	-12.0862
生時㝷即收取别	-12.0863
庤	-12.0863
一煖處以柔細草覆	-12.0863
寸以熟糞及土相和正月晦日種	-12.0863
數起者不任為種	-12.0863
饘	-12.0863
慱	-12.0863
碡	-12.0864
塉	-12.0864
伏不起者須五六日一與食起之令洗浴	-12.0864
手無令地燥也	-12.0864
供食豚乳下者佳簡取别飼之	-12.0864
落時可種藍五月可刈藍六月	-12.0864
馬耳相搭	-12.0865
牝者子母不同	-12.0865
龡豳雅擊土鼓以樂田畯	-12.0865
珣	-12.0865
䕩	-12.0865
閙	-12.0866
種無期因地為時	-12.0866
觚	-12.0866
正東曰青州	-12.0866
聘	-12.0866
濮	-12.0866
煥	-12.0866
二氣交通	-12.0866
直省志書宛平縣物産	-12.0866
銅鐺盛水	-12.0867
屐	-12.0867
嵇	-12.0867
繆	-12.0867
恍	-12.0868
絕	-12.0868
酳	-12.0868
區上為堆潤澤肥好乃勝春種	-12.0868
嬌	-12.0868
弱米味有美惡粒實有息耗	-12.0868
蘢	-12.0868
螂	-12.0869
實有多少質性有	-12.0869
食以清水與之濁則	-12.0869
胷	-12.0869
舛	-12.087
猷	-12.087
行内相去四步一樹	-12.087
種取桑落時生者良	-12.087
獠	-12.087
驎	-12.087
蘡	-12.087
苡	-12.0871
䑓	-12.0871
蛙	-12.0871
􁔁	-12.0871
俵	-12.0871
事烝而獻功	-12.0871
孫叔敖	-12.0871
使熟以水淘布袋絞去黄汁更	-12.0871
是故三以為族乃多粟	-12.0871
科大如穊者五六月中霖雨時	-12.0871
畦欲極深	-12.0872
釃	-12.0872
嚙	-12.0872
鸞	-12.0872
悌	-12.0872
卬	-12.0872
十五日後乃出	-12.0872
竺	-12.0872
治畦下水糞覆悉與葵同	-12.0872
嗉	-12.0872
崔亮在雍州讀杜	-12.0872
或能絶羣	-12.0872
杪	-12.0872
見其為八磨嘉其有濟時用	-12.0872
作籠籠之先以粳米為粥	-12.0873
二月半種稻為上時三月為中時四月	-12.0873
及半為下時漬種如法裛令開口耬耩	-12.0873
春夏生者則不佳	-12.0873
沱	-12.0873
每子一升可種二十畦	-12.0874
𥻘	-12.0874
舖	-12.0874
浭	-12.0874
拗	-12.0874
笞	-12.0875
橢	-12.0875
簽	-12.0875
葉落盡然後刈	-12.0875
觝	-12.0875
㤙	-12.0875
下訖勞之鋤如	-12.0875
一耦之伐廣尺深尺謂之	-12.0875
埏	-12.0875
刈穄欲早刈黍欲晚	-12.0875
良田一畆用子	-12.0875
末後出者名末蛾	-12.0876
告民出五種命農計耦耕事	-12.0876
埓	-12.0876
軼	-12.0876
醭	-12.0876
悠悠之論率以風土不宜為	-12.0876
燥載聚打	-12.0876
祉	-12.0876
篲	-12.0876
處薄攤蛾自遲出免使抽繰相逼	-12.0876
利以殺草可以糞田疇可以美土疆	-12.0876
大小麥皆須五月六月暵地	-12.0876
近必須與人居相連開	-12.0876
史記禹乘四載泥行	-12.0877
九月中子熟刈之候	-12.0877
宓	-12.0877
本草衍義曰	-12.0877
不暵地而種	-12.0877
夏若仰壟	-12.0877
皎	-12.0877
倕	-12.0877
㳟	-12.0877
田然大率欲早早田倍多於	-12.0877
麺	-12.0877
之三沸漉去滓以汁漬附子五枚	-12.0877
令洞洞如稠粥先種二十日	-12.0877
聚十莖一處以布纒之五寸許	-12.0877
七月中摘深色鮮	-12.0878
復一轉至春種稻萬不失一	-12.0878
鎗	-12.0878
維秬維秠	-12.0878
㱕	-12.0878
埧	-12.0878
踪	-12.0878
豔	-12.0878
單繳者雙繳	-12.0878
藨	-12.0878
導引太湖之水散入	-12.0878
五木者五榖之先欲知五榖但視五木	-12.0878
孫叔均始作牛耕	-12.0878
賫	-12.0878
凡種下田不問	-12.0878
去其兄而養其弟不收其粟而收其	-12.0878
宋氏雜部	-12.0878
後雖濕亦無嫌	-12.0878
濕至可種時以餘汁溲而種之則禾稼不	-12.0878
紇	-12.0879
蓲	-12.0879
熄	-12.0879
有精神而又堅韌	-12.0879
良之地青沙地亦善開荒黍穄下	-12.0879
人摘以一家手力十不充一但駕車地頭	-12.0879
日以外子鴨六七十日佳過此肉硬大率	-12.0879
蓄曰急無三年之蓄曰國非其國	-12.0879
芋可以救饑饉	-12.0879
纘	-12.0879
姿	-12.0879
葝	-12.0879
鄢陵縣土産	-12.0879
屆	-12.0879
魃	-12.0879
厥篚檿絲	-12.0879
宰以九職任萬民一曰三農生九	-12.0879
當有小兒僮女	-12.0879
菢	-12.0879
雌鴨無令雜雄足其粟豆常令肥飽一鴨	-12.0879
蓁	-12.0879
蜇	-12.088
區田以糞氣為美非必	-12.088
千枚作種所餘皆	-12.088
屠	-12.088
苗有行故速長	-12.088
妍	-12.088
彤	-12.088
夹	-12.088
令乍寒乍熱	-12.0881
蒨	-12.0881
所包土上條芽長出	-12.0881
羊一千口者三四月中種大豆一頃雜	-12.0881
間開紅白花	-12.0881
落乃伐薪為炭	-12.0881
纏	-12.0881
失錢無益也	-12.0881
漫散之即勞秋冬仍留麻勿刈為楮作	-12.0881
高宗純皇帝	-12.0882
纓	-12.0882
𥙷	-12.0882
抳	-12.0882
靄	-12.0882
駐	-12.0882
廹	-12.0882
非良地則不須種	-12.0882
欲開莩為下時先作麻紉	-12.0882
稬	-12.0882
候至明年不可勝計	-12.0882
翕	-12.0882
即攤一二車薄則易乾碾過一	-12.0882
聶	-12.0882
筌	-12.0883
肴	-12.0883
有膏盡治之則傷膏傷則不成而	-12.0883
洱	-12.0883
無度數但要第一日	-12.0883
用子四升三月上旬種者	-12.0883
栽一切樹木欲記其隂陽不令轉易	-12.0883
斲	-12.0883
桌	-12.0883
豆生布葉鋤之生五六葉又鋤之	-12.0883
黄帝堯舜氏作	-12.0883
新芽一發便長寸餘	-12.0883
上流高於下流	-12.0883
凡栽樹正月為上時	-12.0883
然後下土堅築	-12.0883
綉	-12.0883
裘	-12.0884
奕	-12.0884
過使教田太常三輔	-12.0884
雨徴也何故曰	-12.0884
緩驅行勿	-12.0884
鏹	-12.0884
安邑千樹棗	-12.0884
若寒熱不均後必眠起不齊	-12.0884
量其力能寒温飲飼適其天性如不肥充	-12.0884
侮	-12.0884
近山阜尤是所	-12.0884
陸龜蒙	-12.0884
梃	-12.0884
酈	-12.0884
俶	-12.0884
取根者用大小麥底六月中種十月	-12.0884
時不下連及縁上連背	-12.0884
十蠶九老方可	-12.0884
姬	-12.0884
陂潁川有鴻隙陂廣陵有雷陂	-12.0884
卸	-12.0885
站	-12.0885
晷	-12.0885
捎	-12.0885
梨既生杜旁有葉	-12.0885
瑰	-12.0885
全繳細絲中等繭可繰	-12.0885
地内苫積天晴乘夜載上	-12.0885
櫸	-12.0885
紐草稕如臂大	-12.0885
為上小豆胡麻次之悉皆五六月	-12.0885
弃	-12.0885
弋	-12.0885
十五年後中為車轂及蒲桃	-12.0885
審其時月又合地方之宜使之不失其中	-12.0885
榆性扇地其隂下五	-12.0885
外以葛纒絡	-12.0885
底為下地必欲熟	-12.0885
池中令水無聲魚必生至四月	-12.0885
洪十字大頭向	-12.0885
萆	-12.0885
引根并莖芟去葉於園内東北角種之令	-12.0885
無流水曝井水殺其寒氣以澆之	-12.0885
覆者得供生	-12.0885
率多人者田日三十	-12.0886
搧	-12.0886
惹	-12.0886
也十月號陽月又曰小春木	-12.0886
區田不耕旁地庶盡地力	-12.0886
曰牽馬令就	-12.0886
瀚	-12.0886
奶	-12.0886
有赤白二色	-12.0886
榻	-12.0886
聾	-12.0886
行視郡中	-12.0886
還叢之三日一打四五遍乃盡耳	-12.0886
七月耕之則死	-12.0886
須使老樹肌肉與接頭肌肉相對著	-12.0886
不畜者祭無牲不耕者祭無盛不	-12.0886
務本直言云	-12.0886
竹性愛向西	-12.0886
月好雨澤時種	-12.0887
堆食數口以馬踐過為種無虸	-12.0887
花地欲得良熟二	-12.0887
両	-12.0887
史記天官書	-12.0887
瀾	-12.0887
瓴甋磚也	-12.0887
蒟	-12.0887
骸	-12.0887
井牧其田野	-12.0887
有紅白二色	-12.0887
棧上其棚下勿使驢馬糞及人溺又忌	-12.0887
詰旦升香	-12.0887
鴛	-12.0887
壝	-12.0888
後魏髙陽太守賈思勰撰	-12.0888
桑十二月為上時正月次之二月為下	-12.0888
槀	-12.0888
枉	-12.0888
樛	-12.0888
皆令草失色其利勝藍若欲	-12.0888
者草根繁茂用功多而	-12.0888
與養春蠶同	-12.0888
葉味苦救飢採葉煠熟水浸去苦味淘洗	-12.0888
蓄亦以御冬	-12.0888
幢	-12.0888
袪	-12.0888
十年之後魁椀瓶榼器皿無所不任	-12.0888
中種者以陳屋草布壍	-12.0888
芨	-12.0888
民無職事者出夫家之征	-12.0888
陀	-12.0888
陳稈草作蓐	-12.0888
餘法悉與下田同	-12.0888
􁀋	-12.0888
大如臂許正月中移之	-12.0889
立秋前後皆十日内種之	-12.0889
小鋤者非直省功	-12.0889
燒頭二年即結子	-12.0889
下戊前為中時	-12.0889
下或漫散種或耬下一如種麻法亦有鋤	-12.0889
八月末九月初為下時	-12.0889
取春生少枝	-12.0889
穣	-12.0889
多亦得雨少則生不盡但根細科小不同	-12.0889
用子二升漫種者先以耬耩然後	-12.0889
而芟之冬日至而耜之	-12.0889
耬耩者炒沙令燥中	-12.0889
髦	-12.0889
􁵡	-12.0889
恢	-12.089
周書曰神農	-12.089
於草上以土覆	-12.089
薛	-12.089
候口開乘車詣田	-12.089
初生三年不用採葉尤忌	-12.089
善相丘陵阪險原隰土地所	-12.089
幹可作骨取	-12.089
憶	-12.089
欲速此良農之務也	-12.089
黄省曾曰	-12.089
月而種九月而熟	-12.089
蘗	-12.089
埋之經年至春	-12.0891
水至冬葉落附地刈	-12.0891
蔓及翻覆之	-12.0891
或曲生亦不佳也	-12.0891
瘤	-12.0891
磈	-12.0891
黛	-12.0891
田中不得有樹用妨五	-12.0891
凡耕桑田不用近樹	-12.0891
狃	-12.0891
者長而細又多瘢	-12.0891
雖曰愛之其實害之雖曰憂之其實	-12.0891
三月種者為上時四月上旬	-12.0891
子即勞令平	-12.0891
欲種時布子	-12.0891
熖	-12.0891
粉條兒菜	-12.0891
俞貞木種樹書曰	-12.0892
勞之榆生共草俱長	-12.0892
冢	-12.0892
婀	-12.0892
孔頴達曰	-12.0892
於旦暮潤時以耬耩作壟以手	-12.0892
服牛乘馬	-12.0892
規而上下等	-12.0892
睿	-12.0892
經筵講官	-12.0892
蜿	-12.0892
蠏	-12.0892
冬至後五旬七日	-12.0892
晁	-12.0892
蒚	-12.0892
似桔梗葉	-12.0893
珎	-12.0893
頤	-12.0893
誥	-12.0893
豺乃祭獸	-12.0893
易通卦驗	-12.0893
抜	-12.0894
䒩	-12.0894
又似山小菜葉	-12.0894
如本篇二圖之甲乙	-12.0894
紖	-12.0894
萸	-12.0894
榝	-12.0894
二糠各自堪	-12.0895
後魏裴延雋為幽州刺史	-12.0895
筲	-12.0895
提㸃刑獄	-12.0895
糞不令和雜	-12.0895
瘝	-12.0896
醮	-12.0896
幇	-12.0896
篋	-12.0896
漚欲清水生熟合	-12.0896
烖	-12.0896
冬時積日燥	-12.0896
一而當五名曰膏澤皆得時功	-12.0896
無毒孫思邈曰	-12.0897
幔	-12.0897
是故得時之稼	-12.0897
吻	-12.0897
昵	-12.0897
慘	-12.0897
斨	-12.0897
凑	-12.0897
慚	-12.0897
梜榆刺榆凡榆三種色	-12.0897
諺曰耕而不勞不如	-12.0897
杌	-12.0898
玲	-12.0898
一夜置霜露中即舂	-12.0898
苗引藤蔓	-12.0898
可長五七尺	-12.0898
止取實者種	-12.0898
之草生有雨澤耕重	-12.0898
鐸	-12.0898
無陳草者用糞糞之	-12.0898
工部右侍郎	-12.0899
土一和解夏至天氣始暑隂氣始盛土復	-12.0899
有小雨復耕和之勿令有塊以待時所謂	-12.0899
牛录額真	-12.0899
緋	-12.0899
縋	-12.0899
若未放勃去雄	-12.0899
蜚	-12.0899
鍊銅或錫	-12.0899
罔	-12.09
瘙	-12.09
賃	-12.09
蘇文忠公	-12.09
裊	-12.09
槨	-12.0901
不要蒸得過了過	-12.0901
諍	-12.0901
撥動如箔上繭滿打起更攤一箔候	-12.0901
不禁熱恰得合宜	-12.0902
之旁為之孔	-12.0902
續添一扇在上	-12.0903
冬民既入婦人同巷相	-12.0904
夜績女工一月得四十五日	-12.0904
諒	-12.0904
竑	-12.0904
霂	-12.0904
或以生漆和	-12.0904
娥	-12.0904
纜	-12.0905
誰謂爾無牛九十其犉	-12.0905
昩	-12.0906
揖	-12.0907
滾	-12.0908
慈母不能保其子君	-12.0908
仰事俯育	-12.0909
􁎐	-12.0909
本篇三圖之	-12.091
輅	-12.0911
蒢	-12.0911
僚	-12.0914
晹	-12.0915
鶻	-12.0918
鶯	-12.0919
躭	-12.092
爍	-12.092
鑠	-12.0923
不載所出州土今處處有之	-12.1178
力耕數耘收穫如	-12.2953
季終赴縣逓改行従善結	-12.3297
永樂大典所載	-12.3306
鱖	-12.3313
通志雍正五年	-12.3316
丹陛樂作	-12.3322
䔅	-12.3322
婚	-12.3324
常留臘月正月生羔	-12.333
濓	-12.3331
羔小未食常飲熱乳所以亦惡	-12.3334
戩	-12.3334
未青而出者肉	-12.3335
騧	-12.3335
洺	-12.3338
必薄布隂乾勿令浥	-12.3339
目録農家類卷一	-12.334
抃	-12.3341
小蒜六月七月可種小蒜八月可種大蒜	-12.3341
羝少則不孕羝多則亂羣不	-12.3341
撣	-12.3341
豝	-12.3341
􁋲	-12.3341
抗	-12.3342
燥曝挼去莩餘切	-12.3343
扎	-12.3344
璫	-12.3344
􁈱	-12.3344
􁣊	-12.3344
櫠	-12.3344
灃	-12.3345
簫	-12.3345
㹠	-12.3345
五月鋒八月初耩	-12.3346
蕙	-12.3346
尢	-12.3346
蹼	-12.3347
聯	-12.3347
豨	-12.3347
儈	-12.3347
抌	-12.3347
欲旦起避熱時良地三	-12.3347
寸之尺起度則	-12.3348
㵸	-12.3348
觸傷胎所由也	-12.3349
溯	-12.3349
銖	-12.3349
秒	-12.3349
有角者喜相觝	-12.335
䕫	-12.3351
燧	-12.3351
撇	-12.3351
莜	-12.3351
北朝鮮冽水之間謂之	-12.3351
蓊	-12.3352
弩	-12.3352
率七八支為一本	-12.3353
矇	-12.3353
麥禾不成則書之以此見聖人	-12.3353
櫾	-12.3353
再宿冬三宿	-12.3353
良地三轉乃佳二月三月種	-12.3354
遵㫖議定	-12.3355
寗	-12.3355
燖	-12.3355
糴秔稻粟豆麻子	-12.3355
飫	-12.3355
䅽	-12.3355
讐	-12.3356
犧	-12.3356
炷	-12.3356
鶤	-12.3356
杇	-12.3357
絮製新浣故及韋履賤好預買以備冬寒	-12.3358
呉下田家志種	-12.3358
邏	-12.3358
闓	-12.3358
梣	-12.3358
窠中令煖先刻白木為卵形窠别	-12.3358
㓕	-12.3358
簵	-12.3359
六月命女工織縑練	-12.3359
貉	-12.3359
耽	-12.3359
身冷雖伏無熱	-12.336
逡	-12.336
聖祖御製幾暇格物編	-12.336
䩕	-12.336
州古冀州觜參分野	-12.336
􁁟	-12.336
上曰伐伐之言發也	-12.3361
翟	-12.3362
廠	-12.3362
勛	-12.3362
媮	-12.3362
園中築作小屋覆雞得養子烏不得就	-12.3362
産伏留草則	-12.3362
蕦	-12.3362
隻雄一隻	-12.3362
霄	-12.3362
伏時大鵝一十子大鴨二十子小者	-12.3362
澤中千足彘	-12.3362
艘	-12.3362
既生不鋤九月末收葉	-12.3362
悮	-12.3363
澣	-12.3363
偉	-12.3363
沬	-12.3363
謐	-12.3363
沖	-12.3363
作田秫粥灑之刈生	-12.3363
攴	-12.3363
蒋	-12.3363
螳	-12.3363
如欲出種留食不盡者八月收子	-12.3363
此物長生種者一勞永逸都邑負郭所	-12.3364
良熟七月種之畦種水澆一如韭法	-12.3364
萬一千九百八十四尺	-12.3364
菠薐作畦下種如蘿蔔法春正月二月	-12.3364
綻	-12.3365
鴨皆一月雛出量雛欲出	-12.3365
得三輩常供好	-12.3365
恚	-12.3365
泮	-12.3365
淆	-12.3365
雞白頭食之病人	-12.3365
榱	-12.3365
讟	-12.3365
然後以粟飯切苦菜蕪菁英	-12.3365
厚而多津者魯桑也凡枝	-12.3365
巽	-12.3366
挫	-12.3366
驘	-12.3366
二寸以水澆之足踐令保澤取五芋子	-12.3366
煤	-12.3366
糞者以灰為糞令	-12.3366
組	-12.3366
䟦	-12.3366
州古冀州昴畢分野	-12.3366
府古幽州尾箕分野	-12.3366
薤實諸醯以柔之	-12.3366
鬲	-12.3366
鋤一萬餘株	-12.3367
内區中足踐之厚	-12.3367
取區上濕土與糞和之内區中萁上令厚	-12.3367
土壤氣脉其類不一肥沃磽	-12.3367
壤之地信美矣然肥沃之過	-12.3367
二月七月種種法以升盞合地為處布子	-12.3367
節後十日封生薑至四月立夏後蠶大食	-12.3367
旻	-12.3367
霰	-12.3367
大佳性不耐水必須	-12.3367
幄	-12.3367
撚	-12.3367
者皆魯之類也荆之類根固而心實能	-12.3367
蟊	-12.3367
又河内曰冀州其	-12.3367
脿	-12.3367
蓯	-12.3367
樑	-12.3368
剪薄地再剪	-12.3368
濶六百十二尺自之得積一百一十	-12.3368
䓈	-12.3369
嶲	-12.3369
擔負髙几遶樹	-12.3369
醯	-12.3369
收條中子種者一年為獨瓣	-12.3369
溧	-12.3369
羗	-12.3369
圏中作臺開竇無令停水二日一除	-12.3369
春疥發必死矣	-12.3369
耕地欲熟七月初種之一	-12.3369
莆	-12.3369
廐	-12.3369
星之中殷仲	-12.3369
漢和帝時任城	-12.3369
箠	-12.3369
脞	-12.3369
轡	-12.3369
蔨	-12.3369
賞罰不繼續	-12.3369
不以成繭不成繭翻	-12.3369
二月半鋤之令滿三	-12.3369
底為上麻黍胡麻次之蕪菁大豆為下	-12.3369
田種弱苗以求華實	-12.337
縓	-12.337
牘	-12.337
毗	-12.337
芴	-12.337
倮	-12.337
啞	-12.337
漫散而勞種不用	-12.337
煴	-12.337
皮木之際令深一寸許折取其	-12.337
閬	-12.337
龍魚河圗曰	-12.337
䉡	-12.337
公私之積猶可哀痛	-12.337
􁆜	-12.337
鋤不鋤則科小	-12.3371
駛	-12.3371
繭宜併手忙擇	-12.3371
其實亦滅裂而報予	-12.3371
為良遭雨則損草也	-12.3371
種榖必雜五種以備災害	-12.3371
䖝	-12.3371
之側必置糞屋低為簷楹以避風雨飄浸	-12.3371
六釐六毫六絲六忽零	-12.3371
一千七百二十八尺	-12.3371
傑	-12.3371
用線長綴通作一連	-12.3371
底列短釘	-12.3371
駒初生忌灰氣遇新	-12.3371
早出者皮赤科堅	-12.3371
剪開窗紙	-12.3371
接博其法有六一曰身接	-12.3371
簮	-12.3371
蠢	-12.3371
裒	-12.3371
䓤	-12.3371
大率十口一羝	-12.3371
沅	-12.3371
秀為禾三變而粲	-12.3371
䅞	-12.3371
汁塗之再上愈	-12.3371
里開方計之八八六十四	-12.3371
面方一十八萬	-12.3371
黍或三四實實二米得黍三斛八斗	-12.3371
癘	-12.3372
鼉	-12.3372
竹及名國萬家之城帶郭千	-12.3372
及其蟊賊無害我田穉田祖有神秉畀	-12.3372
三日後漸變白則向食	-12.3372
下皮即以刀刮	-12.3372
宋魏之間謂之鏵或謂之鍏	-12.3372
誣	-12.3372
匯	-12.3373
搐	-12.3373
皮對皮骨對骨	-12.3373
痿	-12.3373
霪	-12.3373
亦籮屬比籮稍匾而	-12.3373
慣熟不用人止一人輕扶	-12.3373
盛其精者精粗各適所受不可易也	-12.3373
雲决渠為雨	-12.3373
坦	-12.3373
少加厚變青則正食宜益加厚	-12.3373
悲	-12.3373
滿乾則色黄而皮皺	-12.3373
第一次曰撮苗第二次曰布第三次曰	-12.3373
鵠	-12.3373
一石受一石者得收十石先掘地作坑方	-12.3373
先生者美米後生者	-12.3373
嚮	-12.3373
梮	-12.3373
窻	-12.3373
鳴鳩拂其羽	-12.3374
痟	-12.3374
摙	-12.3374
四月五月種者為穉禾二月上旬及麻菩	-12.3374
蠶必寒便添熟火	-12.3374
類春秋正晝如夏	-12.3374
之仍即下水十日塊既散液持木斫平之	-12.3374
去葉端數寸	-12.3374
循行積聚無有不歛	-12.3374
用泥泥之不過數日纒處便合為一莖留	-12.3374
而直下者聚而不科	-12.3374
狡	-12.3374
決九川距四海	-12.3374
用力少而見功多	-12.3374
穅	-12.3374
庖	-12.3374
復變白則慢食宜少	-12.3374
春葵子熟不均	-12.3374
椋	-12.3374
羊有病輒相	-12.3374
腑	-12.3374
苵	-12.3374
蹷	-12.3374
鋸截杜令去地五六寸	-12.3374
即下瓠子十顆復以前糞覆之既生長二	-12.3374
府古兖豫二州角亢分野	-12.3374
時即出其不磨者皮	-12.3375
江尾茭蘆之地	-12.3375
或能合羣致死羊疥先著口者難治多死	-12.3375
麥麥時水澇不得納種者九月	-12.3375
􁟧	-12.3375
訝	-12.3376
摺	-12.3376
窐	-12.3376
繰為上如人手不及殺	-12.3376
南楚江沔之間	-12.3376
紀歴撮要	-12.3376
一農之事必有一	-12.3376
亦分四時朝暮	-12.3376
今輝縣山野中亦有	-12.3376
其十字破杜者十不	-12.3376
其日丙丁其帝炎帝其神祝融	-12.3376
務畜菜多積聚	-12.3376
區用種六升收二十八石一日作二百區	-12.3376
雒	-12.3376
二尺打去衝天心	-12.3376
勿傷其心也	-12.3376
打餅蒸食皆可	-12.3376
照田起夫量工給	-12.3376
畔周匝小渠子深四五寸以水停之令其	-12.3376
當年之中即與麻齊麻熟刈去獨留槐槐	-12.3376
稻既生猶欲令人踐	-12.3376
簌	-12.3376
羊有疥者間别之不别相染	-12.3376
羊膿鼻眼不淨者皆以	-12.3376
酇	-12.3376
麻上花勃勃者	-12.3376
取子者候實成速	-12.3376
弱不相害故	-12.3376
早種者必秋耕十月末地將凍散子勞之	-12.3376
為秋菜如欲出種春菜食不盡者可為子	-12.3376
子雖經嵗不浥	-12.3376
并草留之不須鋤治八九月	-12.3376
自有乾葉在地足得	-12.3376
鴨六年以上老不復生伏矣宜去之少者	-12.3376
六十五萬七千八百五十六尺	-12.3376
其實亦鹵莽而報予芸而滅裂之	-12.3376
百五十四萬五千三百四十四尺	-12.3376
禮記吕氏月令季冬出土牛示農耕早晚	-12.3376
鏊	-12.3376
葉煠熟水浸去苦味淘洗淨油鹽調食	-12.3377
帝命率育	-12.3377
亦可但不如冷盆所繰	-12.3377
苘	-12.3377
鏟柄長二尺刄廣二寸以剗地除草此	-12.3377
劾	-12.3377
醲	-12.3377
暍	-12.3377
湖又開吳淞江并大石趙屯等浦洩澱山	-12.3377
礲	-12.3377
二十度乃佳夜	-12.3377
倅	-12.3377
澤草所生種之芒種是也芒種有二義鄭	-12.3377
者五萬枚長四尺者四萬枚留長二尺者	-12.3377
葐	-12.3377
謂有芒之種若今黄	-12.3377
過者無病不能過者入瀆中行過便别之	-12.3377
鄜	-12.3377
騫	-12.3377
取墐土作熟泥封之如三指大長二寸使	-12.3378
疵	-12.3378
杠	-12.3378
蓀	-12.3378
和土覆其上令厚一寸	-12.3378
榖根未成不耐旱耬鋤	-12.3378
用時添水八九分	-12.3378
钃	-12.3378
世無窮比之農夫勞逸萬倍去山逺者實	-12.3378
五年任為屋椽十年堪為棟	-12.3378
四千三百二十株三年中為蠶	-12.3378
地釋即生鋤不	-12.3378
多種千根以上所求必備	-12.3378
小則不髠先為深	-12.3378
文右曰貨左曰	-12.3378
洑	-12.3378
與人膝等莖葉皆美科雖不	-12.3378
􁁙	-12.3378
之則禾不蟲又取馬骨剉一石以水三石	-12.3378
凡下田停水處燥則堅垎	-12.3378
水面以葑泥附木架上而種	-12.3378
鑵	-12.3378
可為常食秋社前	-12.3378
十夫有溝溝上有畛百夫有洫洫上有涂	-12.3378
酓	-12.3378
㰅	-12.3378
今三輔猶賴其利	-12.3378
以土壓上令兩頭出土向上直	-12.3378
揠	-12.3378
法製長生屋	-12.3378
深掘以熟糞對半和土覆其上令厚一寸	-12.3378
褊	-12.3378
謳	-12.3378
匪直盪汰不生兼與草薉俱出凡田欲早	-12.3378
夫區方九寸深六寸相去二尺一畝	-12.3378
月華色仍連著實	-12.3378
樹訖以水沃之著土令如薄泥東西南北	-12.3378
汧	-12.3378
笳	-12.3378
繁息者未之有也	-12.3378
袖	-12.3378
糞和土覆之生後數澆令	-12.3378
繁茂而甜脆勝野生者	-12.3379
節可種薄田秋分種中田後十日種美田	-12.3379
囬	-12.3379
恠	-12.3379
耕耬下以為良澤多者耬耩漫擲而勞之	-12.3379
觳	-12.3379
白露俱下酢漿令麥耐旱蠶矢令麥忍寒	-12.3379
共相蹙迫交柯錯葉特	-12.3379
去水曝根令堅	-12.3379
昉	-12.3379
漢桓帝詔曰横水為災五	-12.3379
籠内籠滿則	-12.3379
四十六萬七千九百零四尺	-12.3379
曺	-12.338
水三曰暮極飲之	-12.338
㯠	-12.338
尺該穵土方	-12.338
梜者鏇作	-12.338
三年正月移而植之亭亭條	-12.338
上打去衝天心	-12.338
不同之處差一尺者	-12.338
不若三土以十分之二是謂	-12.338
另為一段假如通河	-12.338
殽	-12.338
詘	-12.338
三月種菌子取爛	-12.338
不登令所傷郡國皆種	-12.338
四釐五毫七絲六忽	-12.338
廣二㝷深二仞	-12.338
治之取乾艾雜	-12.338
治畦下水一如葵法五寸下一子少與熟	-12.338
盅	-12.338
筤	-12.338
隂之地開坎圓三尺深一尺熟斸著糞	-12.338
二子生梨餘皆生杜	-12.338
以刺棘遮䕶	-12.338
堯命羲和厯象日月星辰	-12.338
生即去箔常令足水六月連雨	-12.338
秋必須燥濕得所為佳若水旱不調寧燥	-12.338
長也欲相與居其熟也欲相	-12.338
凡栽樹訖皆不用手捉及六畜	-12.338
此其人皆與千户侯等	-12.338
者種法悉與此同	-12.338
鍥	-12.338
一萬四千四百	-12.338
乾明日復溲天隂雨則勿溲六七溲而止	-12.338
以杉木解枋長六尺	-12.338
兩三宿竪頭著日中曝之令浥浥然	-12.338
天旱燥時溲之立乾薄布數撓令	-12.338
既長茂復事薅	-12.338
杙	-12.338
此田之本也三月榆莢	-12.338
碎如種菜法	-12.338
眩	-12.3381
兩行外相逺	-12.3381
大豆小豆不可盡治也古所	-12.3381
蕾	-12.3381
譏	-12.3381
分纒所接樹枝	-12.3381
器物其利十倍	-12.3381
曙	-12.3381
湯有旱災伊尹作為區田教民糞種	-12.3381
令起斫去浮根以蠶矢糞之	-12.3381
已成畦畛連澆三	-12.3381
救飢苗葉嫩時採取煠	-12.3381
燒馬蹄羊角成灰春散著濕地羅勒乃生	-12.3381
生田野下濕地中	-12.3381
羣鳥養羞	-12.3381
間令滿外復以草圍之以葛	-12.3381
五升土不和則益之	-12.3381
埋之欲深勿令撓動	-12.3381
尺半亦打去心葉葉不空開花結實直待	-12.3381
後五十日發取量之息最多者	-12.3381
明年正月初附地芟殺放火燒之一	-12.3381
時雨降可種大小豆美田欲稀薄田欲稠	-12.3381
種柘法耕地令熟耬耩作	-12.3381
茼	-12.3381
草未生時則須飼不宜出放	-12.3381
􁊼	-12.3381
一月而罷用米	-12.3381
冬之間必致癬疥七月	-12.3381
常收三日葉以備	-12.3381
荵	-12.3381
三兩日即生又法畦中下爛糞取	-12.3382
咼	-12.3382
桑下竹隂地種	-12.3382
炙曝天寒於火上熬過拌菜食之味頗辛	-12.3382
之月故宜栽培以養元氣	-12.3382
之漫散即勞勞訖引水停之至秋	-12.3382
荏油性淳塗	-12.3382
黍心初生畏天露令兩人對持長索	-12.3382
之至明年四月又耕熟勿令有塊即作	-12.3382
水盡燥濕得所時急耕則	-12.3382
水芟之草悉膿死稻苗漸長復須薅	-12.3382
矜矜兢兢	-12.3382
人等然後編之數年	-12.3382
其種勿使數亦無使	-12.3382
務令稻根之傍液液然而後已	-12.3382
即編其種榆莢者一同酸棗如其栽榆與	-12.3382
既至冬寒多饒風霜或春初雨落	-12.3382
易為宜古之所以備	-12.3382
春夏早起與雞俱興秋冬晏起必	-12.3382
春種欲深夏種欲淺	-12.3382
為農者可不趨時致力以成其終而自廢	-12.3382
田欲稀薄田欲稠	-12.3382
稻苗性弱不	-12.3382
蚕	-12.3382
記曰種而不耨耨而不穫譏其不能圖功	-12.3382
跌	-12.3382
凡稼澤夏以水殄草而芟夷之	-12.3382
黠	-12.3382
堕	-12.3383
枝枯子亦不細	-12.3383
歷	-12.3383
千樹則足柴十年以後髠一樹得一載	-12.3383
線具機杼敬經絡	-12.3383
踣	-12.3383
三四次出以糞苧因以肥桑愈	-12.3383
屋下隂凉處棚	-12.3383
春若遇旱秋耕之地得仰壟待	-12.3383
生苗訖至八月盡九月初根成中染若須	-12.3383
種他州子一年亦變	-12.3383
粱者黍稷之總名稻者	-12.3383
自餘雜香菜不列	-12.3383
鄭國在前白渠起後舉	-12.3383
如墉如櫛	-12.3383
斗栲栳大號山	-12.3383
硏	-12.3383
自能造紙其利又多種三十	-12.3383
時何謂也一曰惡芻二曰中芻三曰善芻	-12.3383
登非不利也然王者法禁之為其殘桑也	-12.3383
熯	-12.3383
賣柴之利己自	-12.3383
犉	-12.3383
藲	-12.3383
一根上必十數條俱生	-12.3383
八月初天晴時摘葉薄布曬令乾可以染	-12.3383
物莫能兩大	-12.3383
間者中三間兩傍各	-12.3383
二十日尚可種戴甲而生不用深耕大豆	-12.3383
八尺深八尺謂之洫	-12.3383
年三月取之為種計一	-12.3383
為種者即在地中勿掘之待	-12.3383
田旱稻自種至收不過五六月其間	-12.3383
簇背鋪以蘆箔而	-12.3383
而稀豆花憎見日見日則黄爛而根焦也	-12.3383
齊明與我犧羊以社以方我田既臧農夫	-12.3383
迦	-12.3384
就連上令覆養三五日	-12.3384
狥	-12.3384
比及月望數連一卷桑皮索繫定	-12.3384
嫁李法正月一日或十五日以	-12.3384
斫後復生不勞更種所	-12.3384
之處水盡乾時熟耕數	-12.3384
劉欣期交州記	-12.3384
歐	-12.3384
二月榆莢成及青	-12.3384
太稠稠者鋤而稀之	-12.3384
明年正月初附地芟殺	-12.3384
筴	-12.3384
耕地至春又轉耕之三月種之耬耩地逐	-12.3384
頭牡鯉魚長三尺者四頭以二月上庚日	-12.3384
鵙	-12.3384
以黍椹子各三升合種之	-12.3384
仲冬之月日短至則伐木取竹箭	-12.3384
季夏之月樹木方盛乃命虞人入山行木	-12.3384
宻縣山野中樹髙	-12.3384
寠	-12.3384
春夏畦種供食者與畦葵法同	-12.3384
浙西諸郡蘇松最居下流太湖綿亘數百	-12.3384
瞭	-12.3384
種五石其種還用三月中掘取者逐犁後	-12.3384
積腐藁敗葉剗	-12.3384
窈	-12.3384
簀	-12.3384
韌必待其朽腐易為牛力	-12.3384
麥如救火若少遲慢一值隂雨即為災傷	-12.3384
治病文具本草菜部	-12.3384
扳	-12.3385
麛	-12.3385
五千枚二尺者萬枚	-12.3385
四五次此可力致其常稔也	-12.3385
白地種二三月為上時四月上旬為中	-12.3385
黍若從十月至正月	-12.3385
且溉且糞長我禾黍衣食京師億萬之口	-12.3385
乃擇元辰天子親載耒耜	-12.3385
亦善樹一升天旱以流水澆之	-12.3385
嫩葉煠熟水浸去苦味淘洗浄油鹽調食	-12.3385
春種小小供食者自可畦種	-12.3385
治病文具本草米穀部	-12.3385
穄踐訖即蒸而裛	-12.3385
黶	-12.3385
􁖩	-12.3385
艽	-12.3385
菀窳婦人寓氏公主	-12.3385
魯桑種之俱可若地連山	-12.3385
擇其木盛者來年多種之萬不	-12.3385
杳	-12.3385
根三十石有草鋤不限徧數鋤時	-12.3385
燒之則依前茂矣	-12.3385
纂文曰養苗之道鋤不	-12.3385
鋤勿使細土覆心今秋	-12.3385
伏日用碌碡碾	-12.3385
倒以土壓之露其	-12.3385
初種水稗斥鹵	-12.3385
成好葦十月後刈之一法二月熟耕地作	-12.3385
掖	-12.3385
櫺	-12.3385
氣未寒將陽和之氣掩在地中其苗易榮	-12.3385
澮澮注入川	-12.3385
舂米則聚礱簸	-12.3385
蓄藏節用御欲則	-12.3385
蟆	-12.3385
頭頗團而不尖	-12.3385
摥	-12.3385
候實口開便速收之天	-12.3386
土上旱輒澆之常令潤澤生	-12.3386
若移大栽者二月三月中移之先作熟	-12.3386
寸一莢稀穊得中	-12.3386
䆊	-12.3386
之後根交當隔一尺許斸一钁即滋旺矣	-12.3386
寸一子篩土覆之令厚寸許復篩熟糞以	-12.3386
系	-12.3386
輛	-12.3386
一升收粟五十一石一日作三百區下	-12.3386
三年不斫者徒	-12.3386
内生不向外	-12.3386
參夕杏花盛桑椹赤可種大豆謂之上時	-12.3386
換水浸去酸味淘浄油鹽調食	-12.3386
水道相直夏至後大熱令水道錯	-12.3386
淮南子曰草木未落	-12.3386
菜生二三寸鋤去穊者供食	-12.3386
過良則苗折	-12.3386
霜下實成速斫之其樹大者以鋸鋸之	-12.3386
圓深三寸以刀子圓	-12.3386
數寸夏連雨時可移之移法先作小	-12.3386
椒栽合土移之於	-12.3386
鄭樵通志	-12.3386
偕	-12.3387
瀑	-12.3387
峒	-12.3387
人掌土化之法以物地相其宜而為之種	-12.3387
凱	-12.3387
犇	-12.3387
鬢	-12.3387
其葉味甜救飢採苗葉煠熟油鹽調食	-12.3387
地中令曲如橋十年之後便是渾成柘橋	-12.3387
寘	-12.3387
拖藤蔓而生	-12.3387
柞氏掌攻草木及林麓夏日至令	-12.3387
涖	-12.3387
獐	-12.3387
祭坊與水庸	-12.3387
莉	-12.3387
莵	-12.3387
銃	-12.3387
䴽	-12.3387
二十年好作犢車材	-12.3387
以百計而其大者	-12.3387
夏至後二十日漚枲枲和如絲	-12.3387
種桑法五月取椹著水中即以手漬之以	-12.3387
稰	-12.3387
者下根即燒三四寸	-12.3387
茂而實不堅磽确之土	-12.3387
葉似小桃紅葉	-12.3387
酲	-12.3387
閷	-12.3387
江陵千樹橘	-12.3387
厥土惟塗泥厥田惟下下	-12.3387
再轉乃佳若春夏耕	-12.3387
同時非夏者大率以椹赤為候	-12.3387
者下種後再勞為良	-12.3387
之家度視地形築土作	-12.3387
仭	-12.3387
刈甫畢無以餬口者其能給終嵗之用乎	-12.3387
眠後十五六頓即老得絲多少全在此數	-12.3387
矍	-12.3387
種蒔之事各有攸	-12.3387
農者見小近而不慮	-12.3387
逺一年豐稔沛然自足	-12.3387
時調其宜適卜式云牧民何異於是	-12.3387
柴栅令周匝	-12.3387
用臘雪水浸過	-12.3387
壓下枝令著地條葉生	-12.3388
農三輔太常民皆便代田用力少而得	-12.3388
之五年之後便堪作椽不梜者即可斫賣	-12.3388
伎	-12.3388
住宅上及園畔	-12.3388
畀	-12.3388
㑭	-12.3388
正月種春大麥二三月種山藥芋子三四	-12.3388
􁐍	-12.3388
三日太史謁之天子曰某日立	-12.3388
檁	-12.3388
沐十年成轂言	-12.3388
生則青熟則紅	-12.3388
禮記月令孟春之月禁止伐木	-12.3388
馬以石灰泥馬槽	-12.3388
三千七百區一日作千區區種粟二十粒	-12.3388
十五日草爛得轉并種耕三	-12.3388
寵	-12.3388
掌療獸病凡療獸病灌而行之以發其惡	-12.3388
生山谷中樹頗高大葉	-12.3388
生河内川谷及	-12.3388
用種二升秋收區别三升粟	-12.3388
种	-12.3388
稀豁之處鋤而補之凡五榖	-12.3388
穛	-12.3388
結小青子小如粟粒	-12.3388
裁截碎木中作錐刀靶	-12.3388
謹摩平以待種	-12.3388
理色白而生子者	-12.3388
志曰秫黏粟	-12.3388
楟	-12.3388
笥	-12.3388
鸎	-12.3388
栽松春社前帶土栽培百株百活	-12.3388
待白背者麻生肥	-12.3389
生少室山今	-12.3389
耕者除種粟地外其餘黍豆等地春耕亦	-12.3389
三老力田及里父老善田者受田器學耕	-12.3389
廕	-12.3389
日支飯米一斗約半	-12.3389
盃	-12.3389
等並須收貯一處每日布牛	-12.3389
胊	-12.3389
麻子地間散蕪菁子而鋤之擬收其根	-12.3389
十五年任為弓材	-12.3389
挟	-12.3389
救飢採嫩葉煠熟水浸去邪味淘	-12.3389
詳見樹藝蓏部救飢採	-12.3389
積算即知大	-12.3389
䔛	-12.3389
澤少者暫浸即出不得待	-12.3389
石為俸餘半納官	-12.3389
之前末曰槃言可轉也左右繫以樫乎軛	-12.3389
廊	-12.3389
劵	-12.339
區不欲大大則水深淺不	-12.339
夫區方深各六寸間相去九寸一	-12.339
山居千章之材	-12.339
竿稍大者截去近根三尺許通其節以糞	-12.339
至來春春分時甜水浸子十日治畦下水	-12.339
萪	-12.339
蓽	-12.339
􁇊	-12.339
􁲑	-12.339
二月種之可為常食秋社前一二日種者	-12.339
糅	-12.339
天之道也故君子貴	-12.339
種法與蕪菁同既生亦不鋤之	-12.339
勃如灰便刈	-12.339
去牢欄中積滯蓐糞	-12.339
死花結實如稗謂之竹米一竿如此	-12.339
秋天氣寒冷有霜時必待日	-12.339
趂多看乾濕隨時蓋磨	-12.339
近上則絲薄近	-12.339
不喘以發散藥投之熱結即鼻汗而喘以	-12.339
復板閘以防淤澱	-12.339
為中時中旬為下時先放水十日後曳	-12.339
田常以五月耕六月再耕七月勿耕	-12.339
笠所以禦暑	-12.339
若不留距侵皮	-12.339
虡	-12.339
隨節早晏勿失其適	-12.339
酎	-12.3391
稹	-12.3391
㨿	-12.3391
元王禎撰百榖譜	-12.3391
贅	-12.3391
根無不向南必用雨下遇	-12.3391
藁草細剉之和以麥麩	-12.3391
州古揚州牛女分野	-12.3391
春始生而萌之夏日至而夷之秋繩	-12.3391
苗長二尺餘葉似胡豆葉稍大	-12.3391
逈	-12.3391
遷延過時秋苗亦誤鋤治	-12.3391
鄭司農云陽木春夏	-12.3391
七尺葉似茶葉而	-12.3391
亦窄莖葉梢間	-12.3391
弱耕地多少其耕皆有定法	-12.3391
必用兩牛三牛或四牛以一人執之量牛	-12.3391
接頭可長五寸	-12.3391
某項應用若干該價若干	-12.3391
渣	-12.3391
疄	-12.3391
雜木唯有果實者及望而止	-12.3391
桴	-12.3392
广	-12.3392
滂沛十日亦不生	-12.3392
將種前二十許日開出水	-12.3392
今鈞州密縣山	-12.3392
卞	-12.3392
夢溪云種竹但林外取向陽者向北而栽	-12.3392
有西風則不可花木亦然諺云栽竹無時	-12.3392
耻	-12.3392
不和沙下不均	-12.3392
兵衆分工起土	-12.3392
前種者實多而成月	-12.3392
得入窖夏還出之但不濕亦得五六年停	-12.3392
性寒無毒一云味甘	-12.3392
正月二月中取弱栁枝大如臂長一	-12.3392
氣勞也噴而不溺者血勞也筋勞者兩絆	-12.3392
顓	-12.3392
鐵為管施之柱首迤而	-12.3392
菅茅之地宜縱牛羊踐之	-12.3392
凡伐木四月七月則不蟲而堅	-12.3392
合聚萬物而索饗之也	-12.3392
耑	-12.3392
上又以桐葉平鋪如此重重隔之以至滿	-12.3392
匆	-12.3392
記取南枝志林云竹有雌雄雌者多	-12.3392
蹊	-12.3392
隧	-12.3392
中間白色味甜性微寒本草有沙參苗葉	-12.3392
辟惡消百病	-12.3392
有胡秫早熟及麥	-12.3392
白麻子為雄麻顔色	-12.3393
桃性皮急四年以上	-12.3393
山栁赤而脆	-12.3393
傷苗如此令地熟軟易鋤省力	-12.3393
其用藥與人相似	-12.3393
孩	-12.3393
蠐	-12.3393
其日甲乙其帝太皥其神勾芒	-12.3393
内一神守六月内二	-12.3393
積穰於溝間相去亦一	-12.3393
耬種後惟用砘車碾之然執耬種者亦須	-12.3393
崙	-12.3393
滕	-12.3394
擯	-12.3394
清明無雨少黄梅	-12.3394
飲水然後與草則	-12.3394
仲冬斬陽木仲夏斬隂木	-12.3394
凡欲識雌雄當自根上第一枝觀之有	-12.3394
厚五寸竹忌手把及洗手面脂水澆	-12.3394
疃	-12.3394
癤	-12.3394
砲	-12.3394
萬物因時受氣因氣發生	-12.3394
餈	-12.3394
之水有所歸而不積矣	-12.3394
于土圭謂之日	-12.3394
以萬夫耕者授以萬夫之田為萬夫之長	-12.3394
可作骨取其實可食可作藥	-12.3394
埋大甕地上甕中先鋪竹	-12.3394
小枝樹形可喜五年方結子	-12.3394
巍	-12.3394
斯趙以薅荼蓼	-12.3394
新興等五鄉	-12.3394
格柯打出作蒿	-12.3394
種若荒得用鋒	-12.3394
者骨勞也起而不振者皮勞也振而不噴	-12.3394
虜	-12.3394
過十五日則果少實	-12.3394
面訪學栽植甚得濟用	-12.3394
蕣	-12.3394
璞	-12.3394
三分其底之徑以其一為	-12.3394
其有失時行罪無疑	-12.3394
數匝木楔之一夕自落	-12.3394
北地不見此種若於附近	-12.3394
無飲食之大溺而已	-12.3394
老詩云我有㫖	-12.3394
行驟則消水小	-12.3394
無子可於大樹四面掘	-12.3395
梵	-12.3395
豢	-12.3395
其日壬癸其帝顓頊其神𤣥㝠	-12.3395
墁	-12.3395
堦	-12.3395
濺	-12.3395
秫稻法一切同	-12.3395
剉草糠麩以飼之	-12.3395
梁州厥土青黎厥田惟下上	-12.3395
荆州厥土惟塗泥厥田惟下中	-12.3395
五町町間分為十四道以通人行道廣一	-12.3395
區種不先治地便荒地為之以	-12.3395
撻暑夏最為	-12.3395
翺	-12.3395
苗葉似豇豆葉肥大開淡粉紅花結角	-12.3395
荽子一日三度以水沃之二三	-12.3395
諺云一㸃雨一個	-12.3395
粔	-12.3395
豆豌豆留豆也胡豆䜶	-12.3395
篁	-12.3396
胠	-12.3396
三年内每到十月常須草裹至二月	-12.3396
此號内十丈河身中共該起土幾何方數	-12.3396
於山阜之曲三徧熟耕漫散橡子即	-12.3396
欬	-12.3396
䅘	-12.3396
之南方人畜耐暑其耕四時皆以中	-12.3396
之地長十八丈廣四丈八	-12.3396
生宻縣韶華山山野中	-12.3396
者令人牽之起從後笞之起而已皮勞者	-12.3396
蔎	-12.3396
蝗之所至凡草木葉	-12.3396
邊有大鋸齒又似	-12.3396
亦如此二年之後三月中帶土移	-12.3396
冬初梓角熟時摘取曝乾打取子耕地作	-12.3396
種梓法秋耕地令熟秋	-12.3396
故田多墾闢過試以離宫卒田其宫壖地	-12.3396
阞	-12.3396
呪	-12.3396
貽我來牟	-12.3396
古稱澤國其西南翕受太湖陽城諸水	-12.3396
散蠶訖又薄以薪覆之一槌得安十箔	-12.3396
檜種如松法	-12.3396
者非能耕而食之織而衣之	-12.3396
是地于日為近	-12.3396
樹不結鑿一大孔入生	-12.3396
躁	-12.3396
薥稭籬以禦北風畦内亂撒麥糠覆樹令	-12.3397
寸以上栽宜稠密常澆令潤澤上	-12.3397
春地氣通可耕堅硬强地	-12.3397
候實開便收之挂著屋裏壁上	-12.3397
此時二十日以後和氣去即土剛以	-12.3397
檆	-12.3397
掎角不用正相當	-12.3398
如小指檜枝長一尺五寸許下削成馬耳	-12.3398
爾牛來思其耳濕濕	-12.3398
生血勞血勞則發强行何以察五勞終日	-12.3398
簇之薄布薪	-12.3398
藺之土甚輕者以牛羊踐之如此則土	-12.3398
既生數年不用掌近	-12.3398
春秋曰果之美者	-12.3398
傳曰人生在勤勤則不匱	-12.3398
其地爽潤上有油土四指許春雖	-12.3399
一時辰約飼四頓一晝夜通飼四十	-12.3399
汗不乾則生皮勞皮勞者𩥇而不振汗未	-12.3399
郝	-12.3399
菵	-12.3399
叶	-12.3399
碎炊作飱甚滑細磨下絹簁作餅亦滑美	-12.3399
亶	-12.3399
塊以生草草生復	-12.3399
幃	-12.3399
廡	-12.3399
持刀劍者使賣劍買牛賣刀買犢	-12.3399
艷	-12.3399
奨	-12.3399
之時而我不農	-12.34
小竅使通出入另開一小門泥封時時開	-12.34
既栽移者燒亦如法	-12.34
石至數萬而豪傑金玉盡歸任氏任氏以	-12.34
㾑	-12.34
即生筋勞筋勞則	-12.34
天地之間悉無空際	-12.34
孔用木釘釘之泥封竅即結	-12.34
點	-12.34
霈	-12.34
周禮天官食醫凡㑹膳食之宜	-12.3401
曰宣曲任氏	-12.3401
細又實立根在細實土中又碾過根土相	-12.3401
賚	-12.3401
云移樹無時莫	-12.3401
為等差故養牧得宜	-12.3401
至焉時雨降焉始之耕田終之簠簋惰者	-12.3401
四日去附子以汁和蠶矢羊矢各等分撓	-12.3401
法宜旋切細葉微篩	-12.3401
簞盛種竹器也其量可容數斗形如	-12.3401
縐	-12.3401
之則生氣勞氣勞者	-12.3401
􁱦	-12.3401
區用糞土相合内區中水調成稀泥植栽	-12.3402
次日有裂縫處以	-12.3402
毋使露樹至春去土次年不	-12.3402
徊	-12.3402
譴	-12.3402
天子乃以犬嘗稻	-12.3402
分不及限者並責	-12.3402
悵	-12.3402
節其作息以養其血氣	-12.3402
觀宣王考牧之詩可	-12.3402
為中時五月初為下時大率二尺留一	-12.3402
盡力經營水利之事	-12.3402
籓	-12.3402
星應車動以過添梯	-12.3402
陕	-12.3403
彼牽牛不以服箱	-12.3403
羶	-12.3403
賂	-12.3403
秋花彫盡留冬月	-12.3403
啖以菽粟矣衣以	-12.3403
字一號盡十號	-12.3403
與牛羊相長者	-12.3403
菽粟古人豈重畜如此哉以此為衣食之	-12.3403
車者井泉挈水之器也	-12.3403
椈	-12.3403
結小角兒根	-12.3404
半夏為之使惡皁莢畏	-12.3404
衿	-12.3405
衲	-12.3405
各去土幾何尺	-12.3405
麧	-12.3405
撡	-12.3405
東門之池可以漚	-12.3405
樆	-12.3405
𬞞	-12.3405
耕須再遍一	-12.3405
煗	-12.3406
㐫	-12.3406
下剸去枝三二層樹記南北運至區	-12.3406
衙	-12.3407
春秋佐助期	-12.3407
趙過為捜粟都尉	-12.3407
巔	-12.3408
竿權繩取直	-12.3408
畵	-12.3408
餞	-12.3409
復杵之或碪之	-12.3409
豚狗彘毋失其時女	-12.341
慨	-12.341
觱	-12.341
䒒	-12.3411
米又可釀作酒	-12.3412
河身空處每丈已得幾何方數	-12.3413
軹	-12.3414
本篇五圖之	-12.3414
䬃	-12.3414
籔	-12.3414
宸	-12.3416
餱	-12.3417
孺	-12.3417
行耕耤禮親祭先農壇	-12.3419
之槩之次日以後皆如之候其乾十分之	-12.342
墊之而灌之如法作之	-12.3424
邍	-12.3425
湫	-12.343
㪚	-12.3439
瞞	-12.3448
皆可行也盍先之	-12.3477
古百粤地翼軫分野	-12.351
蝗蟲無馬骨亦可用雪汁雪汁者五	-12.6222
其春耕者殺種尤甚故宜五六月	-12.6261
雨後為佳遇小雨宜接濕種遇大雨待薉	-12.6515
為粃是故其耨也長其兄而去其弟	-12.6558
驈	-12.661
􁝿	-12.6612
麂	-12.6612
鱣	-12.6624
蠣	-12.6626
棗大而鋭上者為壺壺	-12.6629
駣	-12.6629
狀仍隨鄉約㑹聴講夫	-12.6633
州里有千頭木奴不責汝衣食嵗上一	-12.6635
媒	-12.6639
悶	-12.6639
昶	-12.6644
樂作皇帝陞座	-12.6644
梆	-12.6646
用耆老一人牽牛農夫二人扶犁	-12.665
掩殺之比至七月耕數	-12.6652
踦	-12.6654
之小筋馬也望之小就之大肉馬也皆可	-12.6654
㢮	-12.6654
頔	-12.6654
䴷	-12.6655
䏶	-12.6658
下齒欲鋸鋸則怒頷下欲深下	-12.6658
以胡麻油塗之即愈	-12.6658
口中欲得紅而有光此馬千里馬上齒欲	-12.6658
百里牙劒鋒則千里嗣骨欲廉如織杼而	-12.6658
皆善馬也馬生墮地無毛行千里溺舉一	-12.6658
相其餘大頭小頸一羸弱脊大腹二羸小	-12.6658
合薑橘皮各半合	-12.6658
得大目大則心大心大則猛利不驚目四	-12.666
藏法肝欲得小耳小則肝小肝小	-12.666
五駑騮馬驪肩鹿毛	-12.666
短脅四駑淺	-12.666
不炒榖則草穢生	-12.6662
一駑長頸不折二駑短上長下三駑大髂	-12.6662
遘	-12.6663
馬頭為王欲得方目為丞相欲得光脊為	-12.6664
含重膚軀充儲草	-12.6665
雖枯亦不羸瘦母乳適盡即得	-12.6665
肉好作乾腊及作肉	-12.6665
縭	-12.6665
四邊築下土至	-12.6666
和麻籸糟糠之類飼之半日後當大	-12.6666
待瘡口乾平復後取巴豆兩粒去殻爛	-12.6666
知之者寡矣况	-12.6666
擂	-12.6667
洚	-12.6667
凡占山皆用橡食	-12.6667
藥苗謂之山猪其肉為上江北陸地可種	-12.6667
鎧	-12.6667
絜	-12.6667
僖	-12.6667
則澆比及蠶生可澆三次其葉自然早生	-12.6667
􁥏	-12.6669
庣	-12.6669
玂	-12.6669
弓弩繕理檠鋤正	-12.6669
有死者皮好作裘	-12.6669
漓	-12.6669
頺	-12.6672
數種之易活耐旱割之比終一	-12.6672
鸝	-12.6673
雜飼之特為省力易得肥腯前後分别	-12.6673
雝	-12.6673
大將壓成栽子圍别園如前法栽	-12.6673
年後根相交根交則不旺春時	-12.6673
三豵二師一特	-12.6673
橧	-12.6673
豶	-12.6673
菣	-12.6673
恡	-12.6675
蟣	-12.6675
軰生子十餘鴨生數十後軰皆漸少矣	-12.6675
羊得四倍羊羔臘月正月生者留以作	-12.6675
椌	-12.6675
觤	-12.6675
絖	-12.6676
黴	-12.6677
攫	-12.6677
暑中向秋節浣故製新作	-12.6677
芧	-12.6677
离	-12.6677
乳乳母好堪為種産	-12.6677
出五泉合流入桃林河又三里橋湧泉流	-12.6677
者因留之以為種惡者還賣不	-12.6677
郢	-12.6677
瓨	-12.6677
㭉	-12.6677
李淑徳陳世倌	-12.6677
厠	-12.6679
薄以備始凉糶大小	-12.6679
風戒寒趣練縑帛染綵色	-12.6679
㮚	-12.668
清澄以杓徐徐	-12.668
蓄積之所古有定制	-12.668
脢	-12.6681
磨具七日遂作麴及曝經書與衣	-12.6681
燦	-12.6681
暉	-12.6681
覲	-12.6681
蘴	-12.6681
洙	-12.6681
崈	-12.6681
踆	-12.6681
俄	-12.6683
次之髻欲桎而厚且折季毛欲長多覆肝	-12.6683
遹	-12.6683
燕河營湧泉成河及營東五泉	-12.6683
中生隨時放牧糟糠之屬當日别與	-12.6683
蓖	-12.6683
赬	-12.6683
鐺中即以浸香酒和之煎數沸後便緩火	-12.6683
塸	-12.6684
無風塵好日時	-12.6684
陲	-12.6685
赭	-12.6685
蔟	-12.6685
不截尾則前大後小犍者骨細肉	-12.6685
懦	-12.6685
穩易肥又免狐狸之患若任之樹	-12.6685
傾著白練角袋子中懸之明日乾浥浥時	-12.6685
良田小豆底佳黍底次之刈訖即耕頻	-12.6686
凌冬不凋故名	-12.6686
民傷則離散農傷則國貧故甚	-12.6686
乾者易之灰不復濕乃止然後削去四畔	-12.6686
作香粉法唯多著丁香於粉合中自然	-12.6686
擬人客作餅及作香粉以供粧摩身體	-12.6686
不違農時榖不可勝食	-12.6687
㳫	-12.6687
跋	-12.6687
攟	-12.6687
磔	-12.6687
䵖	-12.6687
􁍍	-12.6687
汋	-12.6687
陶朱公曰子欲速富當畜五	-12.6687
䘏	-12.6687
桷	-12.6687
鮦	-12.6687
俗人以其似丁子	-12.6687
夏用冷酒春秋温	-12.6687
痛攪蓋冐至夜	-12.6687
酒令煖冬則小熱	-12.6687
種非連雨不生所以不同春月要求濕	-12.6687
攙	-12.6688
紏	-12.6688
觸忌者雛多厭殺	-12.6688
遼東耕犂轅長	-12.6688
英粉米心所成	-12.6688
省婦使以勸蠶事	-12.6688
餘致也不可不知務農之家當家置一本	-12.6688
而方尾欲減本欲大脅肋欲大而	-12.6689
䓗	-12.6689
既生以柴木倚牆令其緣上旱則澆之	-12.6689
乘橇孟康曰橇形如箕摘行泥	-12.6689
洎	-12.6689
挐	-12.6689
看東南暮看西北	-12.6689
或至連抱可作棟梁	-12.6689
劉景宣作磨竒巧	-12.6689
雀懊黄續命	-12.6689
上作屋方廣丈五於屋下懸簀令雞宿上	-12.6689
牡者同圏則無嫌	-12.6689
蝎	-12.6689
趍	-12.6689
不劈裂又令辟惡	-12.6689
和之青油裹之其冐霜雪	-12.6689
濾著瓷漆盞中令凝若作脣脂者以熟	-12.6689
煎法一同合澤亦著青蒿以發色	-12.6689
牛髓少者用牛脂和之	-12.6689
粱有黄白紅黑四種	-12.6689
若無髓空用脂亦得	-12.6689
行者常齧蒜令破以揩脣	-12.6689
􁋵	-12.669
醂	-12.669
處處有之莖蔓延附草木上葉似	-12.669
母猪取短喙無柔毛者良	-12.669
如指諸掌故亦名曰授時指掌活法之圖	-12.669
瑶	-12.669
胚	-12.669
存問九族孤寡老病不能自存者分厚	-12.669
窖繕五兵習戰射以備寒凍窮厄之	-12.669
蝇	-12.669
惟在不留中心之枝	-12.6691
使透風氣早夜或隂雨變寒	-12.6691
牛糞火比翻簇之法又為妙也又一法槌	-12.6691
騰遷移别簇封苫如前小雨則不須但可	-12.6691
欘	-12.6691
便枝梢小樹近上留三五條	-12.6691
口以上樹留十餘條長一尺以上餘者皆	-12.6691
遜	-12.6691
囂	-12.6691
栽如桃李法林檎樹以正月二月中	-12.6691
而窄小微尖開淡粉紫花結小角其豆似	-12.6691
半所有料全繳拌食盡即	-12.6691
帶一鈴草盡牛不食則鈴無聲即拌之飽	-12.6691
畆今燕趙多用之名曰劐子	-12.6691
癖	-12.6691
糭	-12.6691
覆上自生白蟲便買黄雌雞	-12.6691
趼	-12.6691
澤欲熟時下少許青蒿以發色	-12.6691
綿羃鐺觜瓶口㵼	-12.6691
夏月食水時此二餅得	-12.6692
十五日薄滋味勿多食肥醲距立秋無食	-12.6692
子法常嵗嵗先取本母子	-12.6692
剋	-12.6692
央足踐之旱數澆之萁爛芋生子皆長三	-12.6692
稙穉菽麥奄有下國俾民稼穡	-12.6692
開下水三四升布粟	-12.6692
其花有光彩故名	-12.6692
琦	-12.6692
隕	-12.6692
艶	-12.6692
走龍趐欲廣而長升肉欲大而	-12.6692
􁗰	-12.6692
遟	-12.6692
戛	-12.6692
憤	-12.6693
柱各髙五尺中穿横桄上架枋木其枋木	-12.6693
邑千樹棗燕秦千樹栗蜀漢江陵千樹橘	-12.6693
一遇風寒大者損瘦小者或死燃栁柴	-12.6693
别有素柰朱柰	-12.6693
水禽不得水則死臍	-12.6693
䑕肉味甘無毒令小兒消	-12.6693
半少加料第三草比第二又	-12.6693
忭	-12.6693
水牛飲飼與黄牛同夏須得水池冬須得	-12.6693
而有細鋸齒開五瓣淡紫花如蒺	-12.6693
除寒熱炙食之良也	-12.6693
下防冬深地凍難	-12.6693
剜	-12.6693
州府古徐兖二州奎婁分野	-12.6693
極酸者亦得空用之	-12.6693
無醋者清飯漿	-12.6693
遄	-12.6693
醋和飯漿亦得	-12.6693
面患皴者夜燒梨令	-12.6693
衡軸者所以挈雙提	-12.6693
二月三月四月五月時雨降可種之	-12.6693
本欲深深則根大	-12.6693
行欲寛寛則過風	-12.6693
入六七日許當大	-12.6693
多柰家以為脯數十百斛以為蓄積如	-12.6693
塞之羊則八月不鉸鉸	-12.6693
賅	-12.6694
頰欲開赤長膺下欲廣一	-12.6694
坨	-12.6694
加糞撥土為區如無牛	-12.6694
區亦可春分前後取臘月所埋桑條	-12.6694
有萌芽處各盤七八寸或一尺鏉區下水	-12.6694
人可敵數人之功條不可冗冗	-12.6694
則費芟科之功葉	-12.6694
水利之在天下猶人之	-12.6694
髭	-12.6694
葉黄鋒出則辮於屋下風	-12.6694
處慣煖冬月入田尤不耐寒	-12.6694
處敷細草令寢處	-12.6694
初肥時宜賣易之不爾後	-12.6694
烙之著乾勿令水	-12.6694
牋	-12.6694
不能自煖故須煖氣	-12.6694
回豆又名那合豆生田野中莖青葉似蒺	-12.6694
并作雞籠懸中夏月盛晝雞	-12.6694
指者亦殺人雞有五色者亦殺人養生論	-12.6694
文器後世言天之家如洛下閎鮮于妄人	-12.6694
此十四種早熟耐旱免蟲	-12.6694
牛糞其上次日又覆糠穰	-12.6694
述其遺制營之度之而作渾天儀厯家推	-12.6694
已降寒氣侵人洗即不	-12.6694
府古冀州昴畢分野	-12.6694
法預燒落藜藜	-12.6694
牛馬猪羊驢五畜	-12.6694
葉狹而長狀如益母草葉一枝七葉	-12.6695
崎	-12.6695
淒	-12.6695
深厚則難生以手按匀區東南西種	-12.6695
穜	-12.6695
如前如當日過熱上	-12.6695
駰	-12.6695
十粒將條盤曲以草索繫定	-12.6695
赤白紫烏堅鬆香否	-12.6696
詁	-12.6696
﨑	-12.6696
兒秋間埋頭深栽更疾得力	-12.6696
仲夏之月遊牝别羣則縶騰駒	-12.6696
豆胡麻糴穬大小麥收弊絮及布帛至後	-12.6696
儕	-12.6696
無味是故科斫為蠶事之先務	-12.6696
令没熱時一宿冷時再宿漉去荄内汁於	-12.6696
時被雨霑濕雨纔止纔晴即選一簇地盤	-12.6696
瀧	-12.6696
散粟豆於内小豚足食出入自由則肥速	-12.6696
煦	-12.6696
家政法曰養雞法二月先耕一	-12.6696
盆中研之生布絞取濃汁	-12.6696
穯	-12.6696
遁	-12.6696
髂	-12.6696
䄮	-12.6696
䬇	-12.6696
不茹則子凍春夏秋三時則不須直置	-12.6696
初汁純厚大釅即	-12.6696
府古冀州觜參分野	-12.6696
沸湯中浮出即掠	-12.6696
洌	-12.6696
罙	-12.6696
腩	-12.6696
舜在璿璣玉衡以齊七政	-12.6696
通連為一窠快斧斫下即將楂頭於火内	-12.6696
鉸了亦洗如初其八月半後鉸者	-12.6696
銅鐺中攪令黄白相雜細擘	-12.6696
喝	-12.6697
五七粒五月之後芽葉	-12.6697
者為絮因蠶家退繭造絮故有此車	-12.6697
河水退灘淤地農人欲就泥裂漫撒麥種	-12.6697
霜降捩其葉使收液以美其實	-12.6697
據地為籠籠内著棧雖鳴聲不朗而安	-12.6697
火災木又不蠧可為永法	-12.6697
日一覆十日除一次牛一具三隻	-12.6697
北土處處有之其木堅勁皮紋細	-12.6697
土另封條尖已後芽生	-12.6697
地宜隂濕時時澆之若全	-12.6697
埋頭栽桑斫下桑梢相連	-12.6697
壓條栽條之法三者擇而行之	-12.6697
多斫萌條若是少處又慮斫伐太過次年	-12.6697
室聞之老農云牛室内外必事塗塈以備	-12.6697
尖三二寸覆土宜厚尺餘俱當堅築仍以	-12.6697
栽者已後逐旋添土芽條長	-12.6697
紅色者亦有紫色者莖葉間結實比莧實	-12.6697
核初成時摘取夜以鹽汁漬之晝則日曝	-12.6698
之功使之滋長至其蠶大	-12.6698
眠之後或樹桑不能	-12.6698
五徧為良七月中作坑令受百許	-12.6698
絮車構木作架上控	-12.6698
劇	-12.6698
獬	-12.6698
著石灰一斗五升急	-12.6698
其制如此夫農家貯	-12.6698
大如梳掌於日中曝	-12.6698
房前有簷楹謂之明厦倉為總名	-12.6698
斆	-12.6698
稕	-12.6698
積所在内外材木露者悉宜灰泥塗飾以	-12.6698
農不如工工不如商刺繡	-12.6698
半赤而收者肉未充	-12.6698
壄	-12.6698
娱	-12.6698
擬種之地必須春種菉豆五月	-12.6698
癢	-12.6698
穧	-12.6698
繭之鼎湯如蟹眼	-12.6698
一窠栽如前法或於蘿蔔内穿過一枝假	-12.6698
以作燭致明一本三實一區十二實一	-12.6698
以實置孔中令底下向瓠一行覆上土厚	-12.6698
以杵築之令可居澤相去一	-12.6698
傍枝三年可以成樹或就作地桑栽桑梢	-12.6698
十日出黄色好破以為瓢其中白膚以養	-12.6698
山田種强苗以避風霜澤	-12.6698
得二千八百八十實十	-12.6698
慢易之意然何術	-12.6698
洗面拭乾以藥塗之令手軟滑冬不皴	-12.6698
為窠亦去地一尺惟冬天	-12.6698
牛室門朝陽者宜之	-12.6698
獸既氄毛率多穴處獨牛依人	-12.6698
粼	-12.6698
菕	-12.6698
類以養之亦作小槽以貯水荆藩為	-12.6698
葰	-12.6699
有赤黍米黄而黏可蒸食白黍釀酒亞於	-12.6699
以乾馬糞培之以	-12.6699
夬	-12.6699
成地桑可止而勿用	-12.6699
倍省有樹桑兼地桑之家樹	-12.6699
古者纊絮綿一也今以精者為綿	-12.6699
澹	-12.6699
濕横積蒸熱速乾雖	-12.6699
起如箕中綴毛繩前後	-12.6699
上雨下水用此甚宜北方或遇霖潦亦可	-12.6699
下令突起則潤澤易耕	-12.6699
置布於上以灰飲汁如作米粉法汁盡	-12.6699
一二百畦時新菜二三十種惟務多取糞	-12.6699
上外周以桑課之蠶利内皆種蔬先	-12.6699
任園地註曰圃樹果蓏之屬其田繚以垣	-12.6699
圃田種蔬果之田也周禮以	-12.6699
或限以籬塹負郭之間但得十	-12.6699
速大横行必得從行必術正其行通其風	-12.6699
餵養牛法農隙時入暖屋用	-12.6699
霜雪十月内以水沃之以備冬食	-12.67
憾	-12.67
土如搭是名鐵搭就	-12.67
尙	-12.67
銎以受直柄柄長四尺南方農家或	-12.67
鐵搭四齒或六齒其齒	-12.67
控於耬之下桄其金入地三寸許	-12.67
之測其深淺却以所	-12.67
鹽令消以灌口中必愈	-12.67
得其法使樹頭易得其條條上	-12.67
拿	-12.67
譲	-12.67
旃裘毛毳之物及箭羽以竿	-12.67
栽後難活縱活亦不榮旺	-12.67
氣始虧隂慝將萌煖氣始盛蠱蠧並興乃	-12.67
江南水地多湖泊取	-12.67
柢	-12.67
芁	-12.67
虎黄雀民溱馬洩韁劉	-12.67
豵	-12.67
長可三尺有餘廣可四五寸碪首置木簨	-12.67
今鹿豆也葉似大豆根黄而香蔓延生	-12.67
内浸一宿紡車紡訖用桑柴灰淋	-12.67
凡糞種騂剛用牛赤緹用羊墳壤用麋	-12.67
利數倍此園夫之業可以代耕至	-12.67
匡斬翅荆樓土窠一	-12.67
古雍梁二州井鬼翼軫分野	-12.67
或失時命司徒循行縣鄙命農勉作毋休	-12.67
抺	-12.67
文用蠶矢二百石牛耕功力直二萬六千	-12.67
與土糞合澆之水二升所乾處復澆之著	-12.67
蠶沙乾桑葉水三桶浸之牛下餉噍透刷	-12.67
豺	-12.67
於耬足背上兩竅以	-12.6701
彞	-12.6701
生真定平澤及田野交	-12.6701
行及刈過葦泊中皆用之	-12.6701
一切草木根科新栽之後皆惡	-12.6701
其上久雨之際比於積垜不致鬱	-12.6701
地法不宜此係拙謬今後應栽小樹若路	-12.6701
恐經雨黒漬故也	-12.6701
農器篇云钁鍤斧鋸	-12.6701
預於栽所掘區下糞樹到之時	-12.6701
中刈作青茭若不種豆	-12.6701
常以馬覆驢所生騾者形容	-12.6701
摇	-12.6701
不復長且厚八月微霜下收取掘地深一	-12.6701
九月掘出置屋中	-12.6701
井以備灌溉地若稍廣又可兼種麻苧果	-12.6701
可割大麻既割其小芽榮長	-12.6701
蠶欲老可簇地盤燒令極乾除	-12.6701
赶	-12.6701
壠種桑條秋耕熟地二月再擺匀東西起	-12.6701
大雨不待白背濕轆則令苗	-12.6701
生可種之九月藏茈薑蘘荷其	-12.6702
上辛命典饋漬	-12.6702
冬酒作脯腊	-12.6702
賣縑帛弊絮糴粟豆麻子	-12.6702
考工記匠人為溝洫	-12.6702
田器養耕牛選任田者以俟農事之起去	-12.6702
纚	-12.6702
枝上所長條至臘月科令稀匀得所至來	-12.6702
毛袋盛漬蹄	-12.6702
以其葉青梗赤花	-12.6702
助其氣却内之罅中皮肉相對	-12.6702
小罅深可寸半先用竹	-12.6702
接條約五寸長一頭削作小	-12.6702
糢	-12.6702
脂塗四五上即當愈	-12.6702
别作小坑貯藍澱著坑中候如强粥還出	-12.6702
擺故用土壁遮禦北風迎合日色	-12.6702
時移栽小桑微帶根鬚上無寸土但經路	-12.6702
種芋區方深皆三尺取豆	-12.6702
締	-12.6702
生者子最大彼土人呼	-12.6702
絁	-12.6702
周禮倉人掌粟入之藏此名著於公府者	-12.6702
喁	-12.6702
天象者禮月令曰孟冬	-12.6702
山色此必收之種也若頂平焦乾及蒼黄	-12.6702
星主倉史記天官書胃為天倉此名著	-12.6702
罐盛貯標記名號	-12.6702
誡	-12.6702
韞	-12.6702
㱿	-12.6702
作甔字從瓦瓦器也今江淮間農家造泥	-12.6702
唧	-12.6702
明年四五月出氊時更買新者此	-12.6702
杜頭封熟泥於上以土培覆	-12.6702
梨枝僅得出頭以土壅四畔當	-12.6702
氊第一凡作氊不	-12.6702
治稻者蓄陂塘以瀦之置隄閘以止之	-12.6702
糞疇疇麻田也	-12.6702
若旱無雨澆水令	-12.6702
莃	-12.6702
觀音秈銀條秈	-12.6702
厚者亦可以湯洗之去痂拭燥以藥	-12.6702
合蒿葉於好酒中痛挼使汁甚滑白桃	-12.6702
常令煖數日醋香便中用以	-12.6702
若多者日别漸漸塗之勿頓塗令徧羊	-12.6702
餹	-12.6702
之接去清水貯出淳汁著大盆中以	-12.6703
樹生宻縣梁家衝山谷中樹髙	-12.6703
三徧熟耕九月初種種法	-12.6703
之神則雪霜風雨之不時於是乎禜之	-12.6703
揣	-12.6703
熟時收取子和濕沙土拌筐籠盛之穰草	-12.6703
爾即凍不生至二月中出種之於樹下或	-12.6703
餘樹通為一束於根鬚上蘸沃稀泥泥上	-12.6703
枝葉間生果初則青小熟大	-12.6703
溉田數頃此一水輪可供數事其利甚博	-12.6703
花熟後取子則太晚矣	-12.6703
開紅白花作穗子結實青白色形如珠而	-12.6703
其葉厚大得繭重實絲	-12.6703
具也凡稻皆下地沮濕或遇雨潦不無渰	-12.6703
圃樵野間用之	-12.6703
子壓枝種之若有子可便種須用地隂處	-12.6703
宋魏之間謂之攝殳	-12.6703
斧伐木已乃制之也	-12.6703
治令淨五月中新雨後即接濕耬耩拔栽	-12.6703
甫始也凡將制器始	-12.6703
存不穿敗若不數換	-12.6703
欲令别病法當欄前作瀆深二	-12.6703
爛而泥土肥美嘉榖蕃茂矣	-12.6703
禾稼春生人必加功焉故五	-12.6703
謹條例如左一	-12.6703
趄	-12.6703
取豆煮食或磨麵	-12.6703
嬭	-12.6703
淡銀褐色有腐氣	-12.6703
熟耕如麻地不厭熟縱横七	-12.6704
又一種謂之天花桑樹上生者呼為桑莪	-12.6704
譙	-12.6704
以禾茇汁熱塗之一上即愈	-12.6704
駔	-12.6704
三時一曰朝飲少之二曰晝飲則胷	-12.6704
小刺葉似杏葉頗團小開白花結實如葡	-12.6704
挶	-12.6704
接口添水至甑中八分滿甑中用一板攔	-12.6704
物者隨地所宜偶假其形而取便於用也	-12.6704
秋天雲隂若無風則無雨	-12.6704
餲	-12.6704
人家園圃中亦栽葉形如葡萄葉頗長硬	-12.6704
包内另用淳泥固塞仍	-12.6704
可容二人對繰也	-12.6704
啜	-12.6704
所留者明年則為柯其眼中所	-12.6704
發青條可長三數	-12.6704
莖作盤砧髙可及肩以	-12.6704
頭自有三寸澤斧	-12.6704
所負擔也方言云罃陳魏宋楚之間曰㼶	-12.6704
田一頃能自染青者其利又倍矣	-12.6704
若遇大寒屢撥熟火不能勝其寒則外燒	-12.6704
水輪軸首易磨置礱既得糲米則去礱置	-12.6704
畸	-12.6704
雨新晴北風寒切是夜必霜此時放火作	-12.6704
假有一村兩家相合低築圍	-12.6704
初生伏又未能工惟數年之中	-12.6704
取乾馬糞置瓶	-12.6704
强春毛軟弱獨用	-12.6704
曰枌榆先生葉却著莢	-12.6704
民如此哉必也在上之人	-12.6704
水深一寸餘便止以盆合頭良久水盡	-12.6704
江南地下多雨上霖下潦劖刈之際則必	-12.6704
沭	-12.6704
用此匝地約之成	-12.6704
稈草匀鋪為蓐	-12.6704
者餘悉搯去引蔓結子子外之條亦	-12.6704
轂及器物山榆	-12.6704
邐	-12.6704
頭作三道急裹之骨小者一宿便盡大者	-12.6704
齒狀横條上約五寸留一芽其餘	-12.6704
成熟浸洗去穰取中子	-12.6704
景帝末年太倉之粟陳陳相因而民亦富	-12.6704
檠	-12.6704
淹一沸即漉出盆研之生布絞取濃汁	-12.6704
蘆根㕮咀令破以泔浸之以瓶盛塞口	-12.6704
鐶	-12.6704
三刈留子者一刈則止春初既中生噉為	-12.6705
飼馬馬尤嗜	-12.6705
蠶沙澆擁之又不可太多恐根嫩故也大	-12.6705
非耘耙耘爪所能去者故用此剗除特為	-12.6705
䳺	-12.6705
兩頭者其子差細種則成	-12.6705
撮苗後用一驢帶籠觜挽	-12.6705
第三頓如第一頓	-12.6705
一如常法復於磨之外周造	-12.6705
也初則置立水磨變麥作	-12.6705
相等量水淺深每以三莖為數近上用篾	-12.6705
耨以墾草莽然後五榖	-12.6705
謂水轉輪軸可兼三事磨礱	-12.6705
二義可並用也黄	-12.6705
任為簸箕五條一錢	-12.6705
樹下阬上糞惡流水之地	-12.6705
治簇之方惟在乾暖使内無寒濕	-12.6705
稀密則熱熱則繭難成絲亦難繰東北位	-12.6705
稑之種周知其名與其所宜地以為法而	-12.6705
則至八月九月詩云十月穫稻齊民要術	-12.6705
將臘月元埋桑條栽依前法或是單根	-12.6705
情返道勞而無獲	-12.6705
霜降穫之此皆言晚禾大稻也故稻有早	-12.6705
鋤成行壠舂穴下種	-12.6706
率一尺一本葉生即鋤鋤不厭數	-12.6706
癥	-12.6706
九卿詹事科道	-12.6706
䰞	-12.6706
夐	-12.6706
以惡為美以彼易此其利有不可勝言者	-12.6706
大小豆生既布葉皆得用	-12.6706
少者止可用一小甑水須熱宜旋旋下繭	-12.6706
州鎮戎軍禾合穂	-12.6706
平明時令兩人持長索相對各持一端以	-12.6706
拾取禾茇東倒西倒者若東西横地取南	-12.6706
熟則淡銀褐色味甜	-12.6706
禾中去霜露日出乃止如此禾稼五	-12.6706
細齒截鋸一連厚脊利	-12.6706
者一壟取七科三壟凡取二十一科淨洗	-12.6706
而西謂之注箕皆籮之别名也	-12.6706
一牛拽轉則八磨	-12.6706
從梢分批開用手	-12.6706
教民耕殖其法三犂共一牛一人	-12.6706
期然必待時暄可接	-12.6706
衂	-12.6706
輪輻俱轉用力少而見功多後魏	-12.6706
長故名薏珠子味甘微寒無毒今人	-12.6706
亦得然俱下者杜死則不生	-12.6706
以麻草用貯食米可以代儋細民甚便之	-12.6706
擡大眠分如折二錢大布滿二十五箔	-12.6706
杜如臂已上皆任	-12.6706
盼	-12.6706
磨木齒此磨既轉其齒復傍打帶齒二磨	-12.6706
縢	-12.6706
辟霧氣或用稭稈於樹上四散絟縛亦得	-12.6706
開七浦鹽鐵等塘洩陽	-12.6706
頭出牆者虎狼不敢踰	-12.6706
不知木棉之為用夫木棉産自海南諸種	-12.6706
了三五寸屈倒於	-12.6706
凡五果花盛時遭霜則無	-12.6706
匝地芟之柄頭仍用掠草杖以聚所芟之	-12.6706
十二月盡掃去枯葉枯	-12.6706
取餳如雞子大打碎	-12.6706
可及尺以供食用亦為便法	-12.6706
史記貨殖列傳	-12.6706
少則用喬扦雖大小有差然其用相類故	-12.6706
擊禾器國語曰權節其用耒耜耞	-12.6706
攪淘去醋氣多與徧數氣盡乃止稍	-12.6706
明耐久不黦勝春種者負郭良田種	-12.6706
春毛秋毛中半和用秋毛	-12.6706
梟	-12.6706
洗瘡上刮取車軸頭脂	-12.6706
活白藥甜𤓰子當歸没藥芍藥為末春	-12.6706
淮川蜀既獲其利至南北混一之後商販	-12.6706
無杬皮者虎杖根	-12.6706
穠	-12.6706
紅人家園圃多種之葉似人莧葉	-12.6706
舂或輾碾令爛上甑蒸過理草為衣貯之	-12.6706
逺宜為樹魯之類根不固心不實不能	-12.6706
長木柄内牢以逆楔	-12.6706
一石艾一把藏以瓦器竹器順時種之則	-12.6706
中則不須栽其春種不作畦直如種凡	-12.6706
塗盤上或盆中盛暑日曝	-12.6706
得洫涂溝畛遂逕共	-12.6706
有二種一種皮有斑花	-12.6706
桃如彈大青緑色後	-12.6706
至四五月内晴天	-12.6706
花生荒野中紫莖葉似初生桃葉光俊色	-12.6706
苗長三寸杷勞而鋤之鋤	-12.6706
薄窄又似花楸樹葉却少花	-12.6706
開花紫赤色結子如豌豆大生青熟	-12.6706
雜隂陽書曰禾生於棗或楊	-12.6706
柀	-12.6707
爾雅曰休無實李痤	-12.6707
桑花桑中間一截其子堅栗則枝榦堅	-12.6707
鯫	-12.6707
第二頓比前又薄	-12.6707
者春時將煮賣	-12.6707
鏤鏉器也方言云宋魏間謂之渠	-12.6707
一頃收子二百斛與麻子同價	-12.6707
人足踐踏之乃佳	-12.6707
尺之箔如箔小可減	-12.6707
之法傳轉無窮是亦可以	-12.6707
列仙傳云赤松子食栢子齒落更生採	-12.6707
勁者皆荆之類也葉	-12.6707
厓	-12.6707
或擲日以萬數速於手挈可謂智勝力也	-12.6707
生莖細弱葉像女人指甲又似初生棗葉	-12.6707
疫癘之救藥有冬鬻春租冀免芻豆之費	-12.6707
納種如前法既生七八寸	-12.6707
舁之積處往返不已一籠日可收麥數	-12.6707
逺也荆桑所飼蠶其絲堅韌中	-12.6707
逺宜為地桑然荆之條葉不如魯葉之	-12.6707
黍生荒野中科苗皆類家黍而莖葉細弱	-12.6707
不相借言及澤	-12.6707
人亦云芟曰鏺葢體用互名皆此器也	-12.6707
以三十年之通雖有凶旱水溢民無菜色	-12.6707
南方水地多種稻秫早禾則宜早	-12.6707
向木皮還近皮插訖以	-12.6707
夏漿水加蜜秋冬小便調療膈痛低頭	-12.6707
峴	-12.6707
農人兩手執之遇草萊或麥禾等稼折	-12.6707
又可湯泡以配茶茗實菜中之有異味者	-12.6707
此物性不耐寒陽中之樹冬須草裹	-12.6707
菡	-12.6707
燒飲治刺入肉中	-12.6708
但不自本土所産不能足用	-12.6708
裹蹄上瘡處以	-12.6708
之鏟也今鏟與古制不同柄長數尺首廣	-12.6708
兒樹生中牟土山間樹髙五尺餘枝條上	-12.6708
八磨之重竊謂此雖並載前史然世罕有	-12.6708
功因之廣織以供郊廟之服	-12.6708
繖	-12.6708
而漿多味差短	-12.6708
言籮所以注斛陳魏宋楚之間謂之䈪自	-12.6708
冬花瞿麥山梔子地仙草青黛硼砂	-12.6708
月晦日復打之亦足子也	-12.6708
朴硝油烟墨等分為細末	-12.6708
法備荒之要務也	-12.6708
溟	-12.6708
稠為後患也養蠶過三十箔者可更加下	-12.6708
種子人功之費不慮水旱風蟲之災比之	-12.6708
上則不生蟲若氊多無	-12.6708
中種桑柘者隨坑深淺或一丈	-12.6708
之患不俱生而俱死是	-12.6708
以溝蕩水以遂均水以列舍水	-12.6708
作槽其下用厚板嵌作底槃槃上圓鑿小	-12.6708
佟	-12.6708
出著一砂盆中熟	-12.6708
合生雖伏亦不成雛	-12.6708
四月蠶入簇時雨降可種黍禾	-12.6708
壠土覆種稍深也或耕過田畆土性虚浮	-12.6708
好未移之間妨廢耕	-12.6708
守之仍多方設法以防獺害凡所居近數	-12.6708
日滿更汲新水就	-12.6708
本云伯益作井堯民鑿井而飲湯旱伊尹	-12.6708
杏多實不蟲者來年秋禾	-12.6708
水利之中所不可闕者	-12.6708
法畜之可致速富	-12.6708
為井井方一里九夫	-12.6708
然白輭曬乾再用清水煮一度别用水擺	-12.6708
獸辟惡常安	-12.6708
生者此卵既非隂陽	-12.6708
皮肉之貲今勸農有官牛為農本而不加	-12.6708
窮汲而不竭此天然之井也皆可灌溉田	-12.6708
竈比圓壘低一半揜火透	-12.6708
賖	-12.6708
雖不科而米白且	-12.6708
三枚亦擣熟以	-12.6708
上多毛澁而有子者	-12.6708
之困苦羸瘠視牛之疫癘若	-12.6708
之費給無窮無怪乎有餘不足之不同也	-12.6708
二落簇三遊走四變赤蛹五變	-12.6708
亦輕薄此亦趨時不	-12.6708
今敺民而歸之農	-12.6708
佞	-12.6708
北土亦多有之苗髙一二尺葉似豇豆葉	-12.6708
即不幸有方二三千里之旱國胡以相恤	-12.6708
取水均而已藏稻必須用	-12.6708
地夫一㕓田百畮	-12.6708
塗田書云淮海	-12.6708
寂	-12.6708
得米較之碢輾疾過數倍故比	-12.6708
惴	-12.6708
擴	-12.6708
明史太祖紀洪武	-12.6708
晚而不成故曰雖有智者不能冬種而春	-12.6708
曝令乾若色淺者更蒸取汁重染如前法	-12.6708
欲深細第一徧鋤未可全深	-12.6708
欽定四庫全書野菜博錄卷	-12.6708
每經一雨輒欲杷勞苗	-12.6708
洛山谷今鈞州鄭州山野中亦有之	-12.6708
淵廣州記云蠻夷不蠶採木棉為絮又諸	-12.6708
渴視牛之困苦羸瘠猶	-12.6708
炙者然瘡未瘥不得	-12.6708
狩	-12.6708
生物不如古之多人之謀事不如古之智	-12.6708
篻	-12.6708
粿	-12.6708
紂	-12.6708
細小實亦稀疎味酸	-12.6708
耕土覆之肥茂早熟雖不及區種亦勝凡	-12.6708
若深水藪澤則有葑田以木縛為田坵浮	-12.6708
荁	-12.6708
鐵條子串筒兩	-12.6708
首如木椎柄長四尺可以平田疇擊塊	-12.6708
鷙鳥之尤者人皆便之	-12.6708
至正月掃去畦中陳葉凍	-12.6708
凡秋耕欲深春夏欲淺犂欲亷	-12.6708
狀類小桃兒極堅	-12.6709
草就覆其根特號敏	-12.6709
以北農家種溝田者皆用之	-12.6709
深開溝壠洩水水浸根必死三年後收茶	-12.6709
些	-12.6709
令萎手捻之令	-12.6709
列鑿方竅以齒為節夫畦畛之間鎪剔塊	-12.6709
晉書王猛少貧賤嘗鬻畚為事	-12.6709
樹還以月三日種黍他	-12.6709
泉食甃之以石則潔而不泥汲之以器則	-12.6709
相半舟車莫及之處如有所負非擔不可	-12.6709
笐今湖湘間收禾並用笐架懸之以竹木	-12.6709
起齊投食一復時可三頓第一頓宜薄	-12.6709
通水利之中最為永便	-12.6709
齊短兩兩對生開淡紫花結小角兒其豆	-12.6709
二磨隨輪俱轉此	-12.6709
今並載之使南北通知隨宜而用	-12.6709
以湯和鹽用杓	-12.6709
入水中不用停久㝷	-12.6709
占城闍婆諸國皆有之今已為中國珍貨	-12.6709
原本無陂澤隨逐隈曲而田者二月	-12.6709
只留兩苗稠則不結實苗長	-12.6709
如葉少去秋所收桑葉再	-12.6709
必候天晴時少摘葉	-12.6709
忌食濕葉忌食熱葉蠶初生	-12.6709
撥周圍木齒一磨既引水注槽激動水輪	-12.6709
木棉法擇兩和不下濕肥地	-12.6709
楤	-12.6709
機今創此制幸識者述焉	-12.6709
調熟然後作成畦畛每畦長八	-12.6709
錡	-12.6709
閣置蟲亦不生如其不爾無不生蟲	-12.6709
人樹之一人揺之則無生	-12.6709
其所包土亦休取去至秋條長成接	-12.6709
其枝莖生樵爇燭明而無煙	-12.6709
其餘以濟不足雖遇儉嵗而不憂	-12.6709
冬藏濕又分減栽時併忙區方深各二尺	-12.6709
十月納稼工夫次第不可失也	-12.6709
即日以水淘取子曬燥仍畦種	-12.6709
可六箔蠶十分中有九分老者宜少摻葉	-12.6709
常薅令淨明年正月移而栽之	-12.6709
有草鋤之不厭數多治芋如此其收常倍	-12.6709
木約二尺許兩端各穿小輪圓轉中嵌	-12.6709
杶	-12.6709
正月地釋即耕逐	-12.6709
盛者先鋤一遍然後納種	-12.6709
種訖拖瓶擺之或以輕鈍碾過秋深子熟	-12.6709
美惡不同治之各有宜也	-12.6709
至十二月正月之間即載糞糞地計小	-12.6709
色枝間開淡紫花味甘	-12.6709
葉莖細長其葉尖	-12.6709
豆今處處有之生田園中科苗	-12.6709
豐年納榖而藏之凶年出榖以賙貧乏官	-12.6709
費此不朽之功豈可同年而語也	-12.6709
遯	-12.6709
蓉	-12.6709
宜白沙地少與糞和	-12.6709
驥	-12.671
撑	-12.671
故布廣三四寸長七八寸以粥糊布上厚	-12.671
赤削驢蹄令出漏孔以蹄頓著磚孔中	-12.671
鑿厚磚石令容驢蹄深二寸許熱燒磚令	-12.671
今營州之東燕	-12.671
開淡紫花結子似梧桐子	-12.671
黄連知母桔梗	-12.671
􁏳	-12.671
一兩半酒一升葱白三握	-12.671
一同葵法及水散子訖水盡簁熟糞僅得	-12.671
制與陸轉連磨不同	-12.671
割雞設醴以禱	-12.671
十株比至嫁娶悉任車轂一樹三具一具	-12.671
客可糴麵及大麥弊絮	-12.671
或負土或盛物通用器也	-12.671
揚雄以為蒲器然南方以蒲竹北方用荆	-12.671
擁培其芽條出土可留一二芽至秋長如	-12.671
濊	-12.671
用之剗草故名鐙鋤柄長四尺比常	-12.671
相去一指布蠶一箇取臘月所藏菉豆水	-12.671
科條法凡可科	-12.671
種欲牛遲緩行種人令促步以足躡	-12.671
舂也凡所居之地間	-12.671
與禾釋名曰擔任也力所勝任也凡山路	-12.671
一丈亦無嫌任羊遶柵	-12.671
一二尺約量留三二條用依柱如前	-12.671
也左傳樂喜陳畚梮注云畚簣籠集韻作	-12.671
也然知資其力而不知養其力力既竭矣	-12.671
五日後必飲以眼鼻	-12.671
井為邑邑方二里三十六夫	-12.671
偏廢然後治田之法可得論其全功也	-12.671
出覆土覆厚一指再勿澆待六七	-12.671
廖	-12.671
於箔上日曝夜露待	-12.671
有酥酪之饒毛堪酒袋兼	-12.671
欲落時為熟旋熟旋摘隨即攤	-12.671
為大積積之視農功稍隙解束以旋旋鑱	-12.671
秋末成可收蓬於	-12.671
而不乏省而有要誠便民之活法造物之	-12.671
而不種坐致泯滅悲夫	-12.671
蹈	-12.671
量時水旱而溉之將熟又去水霜降穫之	-12.671
候黍粟苗未與壠齊即鋤一	-12.671
其屋乾透其壁皆	-12.671
其數九其味辛其臭腥其祀門祭先肝	-12.671
列仙傳曰酒客為梁	-12.671
北土髙原本無陂澤	-12.671
去之取第四五六區留三子即足旱時	-12.671
名牛膝一名百倍	-12.671
向上提之令皮離肉如此	-12.671
和草飼馬甚佳也	-12.671
四角或六角臂通長一尺五寸	-12.671
工得禦寒之益可謂不麻而布不繭而絮	-12.671
底架以木槌用與上同	-12.671
成砧盤接者但其縫罅上用紙封又用破	-12.671
或都蔗所在不同	-12.671
攘之剔之其檿其柘	-12.671
晼	-12.671
東西掘畦熟糞和	-12.671
架槽木架水槽也間有聚落去水既	-12.671
正月可種豍豆二月可種大豆又曰三月	-12.671
油鹽調食榴果熟時摘取食之	-12.671
泥難治而易荒墝埆而殺種	-12.671
生刺䕷花葉而小枝梗色紅有刺似棘針	-12.671
用則執柄就地推去禾莖既斷上以蛾眉	-12.671
畦蔬圃亦可供用杜詩所謂連筒灌小園	-12.671
知用耙亦有不知用撻者	-12.671
種瓠法收種子須大者若先受一斗者得	-12.671
而糶之不使之傷民唐之義倉計墾田頃	-12.671
耕蒔若遇水荒田制既小堅築	-12.671
苗出壟則深鋤鋤不	-12.671
若嵗寒早種慮時	-12.671
莖更不得留多每科相去一尺	-12.671
薄地徒勞種而必不	-12.671
鍪	-12.671
青子如梧桐子大葉味酸澁實味甘酸	-12.671
面俱置瀽穴如此形制順置田	-12.671
文杏實大而甜核無文采	-12.671
廧	-12.671
厥包橘柚錫貢	-12.671
厚地不見日故雖濕亦無害	-12.671
掄	-12.671
凡此諸芋皆可乾	-12.671
勰	-12.6711
帝制作衣裳因此始也	-12.6711
蠶經云黄帝元妃西陵氏始蠶	-12.6711
一筐可飼一箔	-12.6711
羅為末先口含鹽漿水洗淨用藥	-12.6711
至第七八頓食後	-12.6711
黎處即摻葉補合	-12.6711
兩手持之但用前進攛之剗去	-12.6711
圓銎以受直柄	-12.6711
辟去寒氣蠶自食葉	-12.6711
不能損耗用省而功倍田少而	-12.6711
令獼猴上居數日自然	-12.6711
取藏接頭側近有接頭者	-12.6711
宜中列三輪各打大磨一槃磨	-12.6711
尺五寸剡匾木為之者謂之輭	-12.6711
拌葉匀飼解蠶熱毒絲多易繰堅韌有色	-12.6711
掌撥掌撥則折	-12.6711
晉劉毅家無儋石之儲應劭曰齊人名甖	-12.6711
法沃灌以時人力既到則地利自饒雖遇	-12.6711
之利其潤益又過	-12.6711
任車脂亦堪為燭	-12.6711
兩斛日省二工以嵗月積之知非小利	-12.6711
其數七其味苦其臭焦其祀竈祭先肺	-12.6711
則後輕而前落即為一舂如此晝夜不止	-12.6711
十日半月一澆至十月後用牛驢馬生糞	-12.6711
又用苫將簇從下繳至上苫相接日出	-12.6711
可選低處置碓一區一如常碓之制但前	-12.6711
宙	-12.6711
栽培如地桑法芽出	-12.6711
澤蒜可以香食呉人調鼎率多用此根	-12.6711
耙耬之令熟足蹋使堅平	-12.6711
茶褐色對分莖叉葉亦對生葉似	-12.6711
一法熟地先耩黍一	-12.6711
一體之間裁作重磴即可種	-12.6711
三江既入震澤底定是	-12.6711
之後桑與黍稭同時刈倒順風燒之仍	-12.6711
之效得置田之活法水鄉無地者宜傚之	-12.6711
九月黄熟時摘取擘	-12.6711
亦細開小黄花結細短小角兒葉味	-12.6711
以相民宅而知其利害以阜人民以	-12.6711
以離舊地另作一行子既不損又速	-12.6711
凜	-12.6711
凶年也謹計家口數種大豆率人五	-12.6711
刈早則米青而不堅刈	-12.6711
大抵秋耕宜早春耕宜遲秋耕宜早者	-12.6711
待地白背耬耩漫擲子空	-12.6711
次包土成田又有山勢峻極不可展足播	-12.6711
泥然瀕海之地復有此等田法其潮水所	-12.6711
火所逼故得安詳也	-12.6711
礓	-12.6711
穀者初草實成時收刈	-12.6711
葉頗長又似初生豌豆葉開黄花結小	-12.6711
藁爛積晚則耗損連雨則生耳	-12.6711
調習器械務令快利秣飼牛畜	-12.6711
隂地種之陽中則少實足霜色殷然	-12.6711
雜草薄鋪使乾勿令鬱浥	-12.6711
零落而損收又恐為風雨損壊此九月築	-12.6711
鳩脚老枝三年即結子而樹醜	-12.6711
麻大豆並鋤兩徧止亦不厭早鋤	-12.6711
麻生數日中常驅	-12.6711
黍桑當俱生鋤之桑令稀疏調適黍熟	-12.6711
在市自然壓下物價境内百姓人人受賜	-12.6712
轤	-12.6712
葹	-12.6712
疼	-12.6712
一則束篠為之擁掃庭院制則叢長謂之	-12.6712
湯淨洗以布拭水令盡取黍米一升作	-12.6712
大而細理杜次之桑	-12.6712
榆皮去上皺澁乾枯者	-12.6712
禾之法熟過半斷之	-12.6712
見於書傳至今不替其用為不負紀錄矣	-12.6712
謫	-12.6712
之時四五日内不用聞打鼓紡車	-12.6712
九夫為井井間廣四尺深四尺謂之溝	-12.6712
云古者耜一金兩人併發之	-12.6712
以厦槽在厦	-12.6712
六萬四千八百根根直八錢合	-12.6712
其蟲羽其音徵律中	-12.6712
具也用堅大四木各圍可五尺長可丈餘	-12.6712
出賦税共治溝也	-12.6712
到夏五月則任啖故俗五六月則烹食之	-12.6712
周圍棘刺遮䕶接頭	-12.6712
如長成樹者當中有身及枝者亦可斫去	-12.6712
忽泥青衝天棒雉子青鴟脚	-12.6712
懽	-12.6712
松藍可以為澱者	-12.6712
株一家計分五千株若一家孤另一轉築	-12.6712
槽水滿則後重而前起水	-12.6712
比繰絲人身一半其	-12.6712
為槽可貯水斗餘上	-12.6712
牯	-12.6712
細碎乾牛糞阬底上鋪攤一層厚三四指	-12.6712
羊膿鼻口頰生瘡如乾癬者名曰可妬	-12.6712
腸菜葉頗大又似桔梗葉	-12.6712
蓼藍但可染碧不堪作澱藍一	-12.6712
雀入大水為蛤	-12.6712
鼻各一角非直水	-12.6712
三四尺莖五稜葉似大花苦苣菜葉莖葉	-12.6712
下引水而至如泉源頗	-12.6712
之美種江淮以南直徹海外皆宜此稼	-12.6712
人手當附骨上	-12.6712
傷屋又熟火不能	-12.6712
初生即移者喜曲故	-12.6712
則箭下入土也深退之則箭上入土也淺	-12.6712
半八九枝共為一	-12.6712
取清絲約量添加務要兩絲窩大小長均	-12.6712
同不毛其餘所在土山下自横麓上至危	-12.6712
四月上旬及棗葉生桑花落為下時嵗道	-12.6712
奚患田疇之荒蕪	-12.6712
如地桑法大葉魯桑條上青眼動時	-12.6712
小於衆桃有赤斑㸃	-12.6712
屋忌近臭穢	-12.6712
工欲善其事必先利其器	-12.6712
性不耐寒早鉸寒則凍死	-12.6712
恊	-12.6712
拓	-12.6712
捉鼻令馬眼中淚出乃止良也	-12.6712
推按或人或畜輓行以剗壅脚土凡修閘	-12.6712
撚織毛絲或	-12.6712
時以溲種如麥飯狀	-12.6712
曵重撻夏種欲淺直置自生	-12.6712
歌曰髙田種小麥稴穇不成	-12.6712
江鄉櫃田内平而廣農人	-12.6712
法三月初取枝大如手大指者斬令長一	-12.6712
注之池沼及庖湢之間如	-12.6712
甚則加山梔子赤	-12.6712
畼	-12.6712
疫病乃飢餓	-12.6712
痼	-12.6712
盤甑接口添水至甑中八分滿可容	-12.6712
眼此繰絲必用鼎也今農家象其深大以	-12.6712
秋夏候水盡地白背時速耕杷勞	-12.6712
竊謂架田附葑泥而種既無旱暵之	-12.6712
約蠶生前七八日糞	-12.6712
經兩社即倍收而堅好	-12.6712
緇	-12.6712
與揜火相對圓壘匝近上開	-12.6712
與盆齊軸長二尺中徑四寸兩頭三寸	-12.6712
色葉似牛耳朶形而小葉間分攛葶	-12.6712
荆魯桑小樹如轉盤時於臘月内可去不	-12.6712
譁	-12.6712
越加箭可弛張焉轅之上又有如槽形亦	-12.6712
載穫濟濟有實其積萬億及秭	-12.6712
逶	-12.6712
過以鈹刀子刺空中皮令突過以手當	-12.6712
阬滿上復用糞厚	-12.6712
露晞解然後放之不爾則逢毒氣令羊口	-12.6712
伴	-12.6712
其髙田種者不求極良惟須廢地	-12.6712
又犯時令非急	-12.6712
正月以終季夏不可伐木必生蠧蟲或曰	-12.6712
檎	-12.6712
右捲右捲者	-12.6713
所耘田數日復兼倍	-12.6713
秦廢井田開阡陌	-12.6713
間草泥使之溷溺則田可精熟既勝	-12.6713
之麻大約五月初一鎌六月半一鎌八月	-12.6713
而勝麻子脂膏麻子脂膏並有腥氣然荏	-12.6713
㠯聲徐鉉等曰今作耜	-12.6713
上帶圓銎穿之食指	-12.6713
中令人驅鳥稻苗長七八寸陳草復起以	-12.6713
勸以致生不滋盛價失	-12.6713
恐起爭端當於園心以籬界	-12.6713
牛糞土泥封泥了所	-12.6713
疎而直葉豐而厚春蠶食之其絲以冷水	-12.6713
苦蕒菜俗名老鸛菜	-12.6713
雨前後揀好天氣日下種先一日	-12.6713
養之用刀尖依濕痕四圍刻	-12.6713
一區收三石又種芋法	-12.6713
一索四面取齊成行	-12.6713
下一本芋生根欲深	-12.6713
下徹棧底就作卧輪以水激之磨隨輪轉	-12.6713
之平地或架越澗谷引水而至又能激而	-12.6713
以使人人忘其勞且	-12.6713
初年長約一尺便割一	-12.6713
則當車水上槽亦可	-12.6713
口微低又相去七八尺外安一臺髙五尺	-12.6713
地賣者省功而利少煮剝賣皮者雖勞而	-12.6713
如止陸種亦宜粟麥	-12.6713
小滿至芒種節則大水已過然後以黄穋	-12.6713
就箔上撥蠶入簇如是則無簇	-12.6713
尺七焉建惟稱轅	-12.6713
形如偃月用木柄長可七尺首	-12.6713
得此以免曝烈之苦亦一壺千金之比也	-12.6713
復繳三日外繭成不用	-12.6713
性甚勁直堪為屋材折則折	-12.6713
打水土成泥就碾草禾	-12.6713
損氣傷心令人多忘	-12.6713
料白豆粥飯皆可拌食	-12.6713
旱宜澆十月刈燒加糞如前冬春擁雪	-12.6713
栭	-12.6713
水性趨下則易引也或在窪	-12.6713
熱約量去火一眠之後但天氣晴明巳午	-12.6713
牛耳朶菜一名野芥菜生田野中苗	-12.6713
牛馬料食黄豆可作豆腐可作	-12.6713
盛蠶器也秦觀蠶書云種變方尺及乎	-12.6713
秋蠶初生時去三伏猶近暑氣仍存蠶	-12.6713
種不失足致豐盈此誠善政務本之意也	-12.6713
種之於湖田然則有芒之種與芒種	-12.6713
穫尤當及時江南上雨下水收稻必用喬	-12.6713
粟之為言續也粟五變一變而以陽生為	-12.6713
糞清明前後掃去霖雨	-12.6713
紋皺梢間開粉紅花結子如小粟粒	-12.6713
耘畢放水熇之欲秀復用水浸之	-12.6713
葉與豇豆同但結角色紫長尺許味微甜	-12.6713
蠶多者又用兩端有柄長	-12.6713
蠶蟻時用小刀蠶漸大時用大刀或用漫	-12.6713
裹縛次年結子椒不歇條一年繁勝一年	-12.6713
資欲善其事先利其器	-12.6713
躃	-12.6713
飯湯更妙索	-12.6713
亦遶大樹掘坑取栽移	-12.6713
俱若梯磴故總曰梯田上有水源則可種	-12.6713
兩葉並生一處開	-12.6713
其直如弦循此布秧了無欹斜猶梓匠之	-12.6713
具也以細枋四莖竪之	-12.6713
或墊溺盤曲其頃畝多少不等上有鹹草	-12.6713
莖葉間結青子極細小其葉味	-12.6713
口羊亦不得飽羣羊踐	-12.6713
栲	-12.6713
鰓	-12.6714
煻	-12.6714
陽以一立為法故粟積大一分	-12.6714
入若遇大熱盡捲苫	-12.6714
農家尤宜種之以備場圃間用也	-12.6714
柄長五尺餘耘田之際農人執之推盪禾	-12.6714
蹄取汁及熱洗之	-12.6714
次日可漸加葉	-12.6714
漸漸益火寒而驟熱則	-12.6714
者堅垎生遲也	-12.6714
享先蠶而躬桑以勸蠶事周禮天官内宰	-12.6714
大黄枳殻麻子仁黄連厚	-12.6714
循行國邑周視原野修利隄防道	-12.6714
是月盡夏至煖氣將盛日烈	-12.6714
煜	-12.6714
用漆油作諸日煎藥可糶黍買布四月繭	-12.6714
草茂可燒灰是月也可作棄蛹以禦	-12.6714
螺青川芎知母川鬱金牛蒡	-12.6714
蠶精元妃西陵氏	-12.6714
警設守備以禦春饑草竊之	-12.6714
二月順陽習射以備不虞春分中雷	-12.6714
削其骨成馬耳	-12.6714
十月内並為上時春分前後以及發生	-12.6714
又將馬耳尖頭薄骨	-12.6714
墾闢倍多境内豐給	-12.6714
夏即不汗冬即不寒汗而極乾	-12.6714
如耬鋤過苗間有小豁不到處用鋤理	-12.6714
嵗嵗自生矣荏子	-12.6714
平田野小民嵗多租賃以	-12.6714
庛柔地欲句庛直庛則利推句庛則利發	-12.6714
徑相盆之大小當中壘一小臺	-12.6714
春夏雛二十日内無令出窠飼以燥飯	-12.6714
柴空隙處築得極實	-12.6714
泥了其所貼之靨多少可量其樹之大小	-12.6714
為屋屋具也一井之中三	-12.6714
發聲先後各五日寢别内外	-12.6714
直錢一百文柴合	-12.6714
轅之後末曰梢中在手所以執耕者也	-12.6714
錢六萬四千八百文都合	-12.6714
阬周圍塼坯接壘	-12.6714
黄豆苗今處處有之人家田園中多種苗	-12.6714
㫄	-12.6714
之上也皆合之以塗	-12.6714
之中餓死過半假有在者疥瘦羸	-12.6714
之制但於下輪軸端别作	-12.6714
之本故也若為民牧者當先知愛重祈報	-12.6714
了先耕蕎麥地次耕餘地務遣深細不得	-12.6714
亦其時也然則凡木有子實者候其子實	-12.6714
以受雨露也圍其合也欲無罅圍之合	-12.6714
便採用則無事不成尤宜作	-12.6714
其碎者割訖即地中	-12.6714
冬雨雪止以物輒藺麥上掩其	-12.6714
冷接取清以小角受一雞子者	-12.6714
凡黍黏者收薄穄味美者亦收薄難舂	-12.6714
剪訖更種從春至秋	-12.6714
務令稀匀上復覆	-12.6714
半轅至梢中間掩四尺犂之終始丈有二	-12.6714
器也又謂之氣籠編竹作圍徑可一尺	-12.6714
大黄五靈脂木鼈子去油海桐皮甘草	-12.6714
如水過澤草自生	-12.6714
孔融論水碓之巧勝於聖人	-12.6714
孽	-12.6714
寧復有餓莩流	-12.6714
小其莖色紅開小紅花苗	-12.6714
布急裹之三四日	-12.6714
底過壓鑱二尺策頟	-12.6714
彛	-12.6714
從石榩從木即木碪也碪截木為碢圓形	-12.6714
木及葉於地埋之常	-12.6714
此救水荒之上法一名	-12.6714
殺之葉死不扇便任耕種三	-12.6714
每眠例如此候之以加	-12.6714
毛芒牛馬皆不食與粟同時熟	-12.6714
為良醫又曰亡羊治牢未為晚也	-12.6714
生種者為上時三月上旬及清明節桃始	-12.6714
磧	-12.6714
稭穗隨擁積之有一杷畢功得麥十餘斛	-12.6714
而上餘如前例又須水力相稱如打	-12.6714
而青自青復白自白而黄又一眠也	-12.6714
茶曰蠟茶凡茗煎者擇嫩芽先以湯泡去	-12.6714
葉間皆結小青蓇葖	-12.6714
藍非獨可染青絞其汁飲之	-12.6714
蠶蟻時先辟東間一間四角挫壘空龕	-12.6714
近水處和柔糞之二月注雨可種芋率二	-12.6714
鑱長一尺四寸廣六寸壁廣長皆尺微橢	-12.6714
間有他造者色香味俱不及蠟茶珍	-12.6714
食謂之正眠眠起自黄而白自白	-12.6714
候地毒熱衆手	-12.6714
千耦其耘徂隰徂畛	-12.6714
太宗文皇帝世祖章皇帝聖祖仁皇帝	-12.6714
寸旱則澆之若不雜黍種須旋	-12.6714
山野中細莖就地叢生葉似豇豆葉而	-12.6714
得洫涂溝畛遂徑共	-12.6714
日秀秀後七十日熟	-12.6714
生者至秋水涸芟之明年乃稼	-12.6714
種大小麥先㽟逐	-12.6714
而地地盡而山山鄉細民必求墾佃猶勝	-12.6714
能如此則牛必蕃盛	-12.6714
蓬一名鹽蓬生水傍下濕地莖似落	-12.6714
遙潤不得坑中下水	-12.6714
球	-12.6714
比至冬月青草復	-12.6714
掘地深埋春暖取出向陽掘畦種之	-12.6714
但五月種之園枯則食	-12.6714
帚今作箒又謂之篲集韻云少康作箕	-12.6715
左捲每日交換捲那捲罷依前	-12.6715
帚一科可作一帚謂之獨	-12.6715
苦病少繭成一室之功也然寒不可驟加	-12.6715
初向黄時宜微暖眠定宜温	-12.6715
既堅硬葉又枯燥	-12.6715
若待秋子成而落莖	-12.6715
郭槖駝種樹書	-12.6715
任令滋長休科去新	-12.6715
則變殭此又不可不知也	-12.6715
頁	-12.6715
始則蟹眼中則魚目纍然如珠終則泉湧	-12.6715
就畦内將已種出荆桑隔年芽條去地	-12.6715
數年不旺十二月内或	-12.6715
者皆於長木柄頭造為擐軸舉而轉之以	-12.6715
趙過為搜粟都尉過	-12.6715
饀	-12.6715
一耕之中地家二百畝間	-12.6715
不敢慢易絶其妄殺憫其羸瘠豐其	-12.6715
入泥内再宿之後禾乃復出草則不起又	-12.6715
兩股短叉架以	-12.6715
古者分田之制上地	-12.6715
圍故水入螺旋之孔而不絶無罅故水行	-12.6715
崇之絶其本根勿使能殖則善者信	-12.6715
平因以利鎌摩地刈之曝令燥後有風	-12.6715
擡飼之間皆可移之上下農桑直説云	-12.6715
營得小畝三頃	-12.6715
牧潔其欄牢則無不字育蕃息	-12.6715
穫之桑生正與黍	-12.6715
竹長七尺廣五尺以	-12.6715
篾竹編如龜殻	-12.6715
耕其半下地家三百畝	-12.6715
蔾	-12.6715
調放火燒之常逆風起火桑至春生一	-12.6715
遇有流水岸側欲用	-12.6715
鋪三箔上承塵埃下隔濕潤鋪砌碎	-12.6715
上端穿其碢榦水激則碢隨輪轉循槽轢	-12.6715
久之則舉林皆然其治之	-12.6715
五寸許葉似葛勒子秧葉	-12.6715
以水澤之地種榖也	-12.6715
六尺深可二尺載以木座座帶四碢用轉	-12.6715
冷故用火糞種麥種蔬尤佳	-12.6715
凡儲蓄之家不可闕	-12.6715
動軖即隨轉自下引絲上軖總名曰繅車	-12.6715
四五尺枝梗灰白色葉似皂莢葉	-12.6715
大蹄欲得厚而大踠欲得細而促	-12.6715
天子三推三公五推卿諸侯九推反執爵	-12.6715
撮之待其苗長又撒以壅之何	-12.6715
枝梗亦似枸杞有小刺開黄花狀類	-12.6715
架田架猶筏也亦名葑田集韻云葑	-12.6715
欲促而大其間纔容靽烏頭欲	-12.6715
欲曲而立臂欲大而短骸欲小而長	-12.6715
民之蓄積當粒米狼戾之年計一嵗一家	-12.6715
水澆常令潤澤既生又以骨石布其	-12.6715
江南地下易於得泥故用輥軸	-12.6715
泗及汴通河自河通渭則有漕渠郎州有	-12.6715
皆七月芟艾之草乾即放火至春而開墾	-12.6715
磑也世本曰公輸班作磑方言或謂之䃀	-12.6715
稻之為言藉也稻	-12.6715
者曰溝洫之於田野可	-12.6715
而行芟麥者腰繫	-12.6715
耕一當再若七月耕五不當一冬雨雪止	-12.6715
蠶網擡蠶具也結	-12.6715
近世利民之法如漢之常平倉榖賤則	-12.6715
隷	-12.6715
麃	-12.6715
渤	-12.6715
子厚郭槖駞	-12.6715
㯳	-12.6715
漬經三宿漉出内草篅	-12.6715
枯則食如欲出子留食不盡者地凍時出	-12.6715
蕋	-12.6715
辛味五月園枯此菜獨茂故又曰主園菜	-12.6715
凍稍甦乃用此器剗土而耕草根既斷土	-12.6716
之生者均熟不畏嚴霜從本至末全無秕	-12.6716
除草也耔附根也	-12.6716
雀䑕之耗又無	-12.6716
眺	-12.6716
者看好料理又易	-12.6716
先以酸泔清洗淨然後爛	-12.6716
同按圖視譜當自考索羅因水力互擊	-12.6716
羅隨水磨用之其機與水排	-12.6716
鋒而不耩鋤不過再	-12.6716
滋茂繁盛與本土無異種之則深荷其利	-12.6716
滿善走名曰下渠日三百里陽肉欲上而	-12.6716
用活水活火烹之故東坡云活水仍	-12.6716
諏	-12.6716
額枋前排置小	-12.6716
凡浣故帛用灰汁則色黄	-12.6716
動左邊大輪弦隨輪轉衆機皆動	-12.6716
庾或作㢏倉無屋者詩曰	-12.6716
故平都令光教過以人輓	-12.6716
文百樹得柴一載合柴六百四十八載	-12.6716
條當春不宜科科了	-12.6716
棋	-12.6716
治火倉屋當中掘一阬	-12.6716
滑石朴硝木通車前子	-12.6716
相對側劈開令深一寸每砧對接兩枝	-12.6716
磴	-12.6716
若今之善農者審方域田	-12.6716
葉味苦食法採芽葉煠熟	-12.6716
蒜瓣變小蕪菁根變	-12.6716
一尺許苗莖甚細其葉	-12.6716
之一區四根即足矣	-12.6716
之其製有大小龍團	-12.6716
今江南農家所種如種葵法俟成	-12.6716
似如有膚羊羔乳食其母比至正月母皆	-12.6716
作甃穴上覆元土亦是一法如灌	-12.6716
先注湯調極匀又添注入	-12.6716
冬則六十日唯多日	-12.6716
勿用麥稭一日一擡失擡多生白醭	-12.6716
區下種稠密如種茄法細土薄糝上	-12.6716
印作餅子製様任巧候乾仍以香膏油潤	-12.6716
厭數周而復始勿以無草而暫停	-12.6716
又取絲老翁上清絲如前	-12.6716
土肥美也江南三月草長則刈以踏稻田	-12.6716
多有父馬者别作一坊多置槽	-12.6716
引水而至若别無隔礙則當踏視地形用	-12.6716
强苗深則及澤	-12.6716
後視其成以地之高下定	-12.6716
數類而言之則囷之名舊矣	-12.6716
春秋則一月夏則二十	-12.6716
木掘地則翻車之類愈出	-12.6716
板長廣相稱上置兩耳	-12.6716
機碓水搗器也通俗文云水碓曰翻車碓	-12.6716
水調灌隔時再服結	-12.6716
液也欲用桑皮將臘月正	-12.6716
溝之水皆有所歸不至溢出而田禾無淹	-12.6716
環擊拂視其色鮮白	-12.6716
用木厚三寸濶三寸長	-12.6716
稼不蕃後世井田之法變强弱多寡不均	-12.6716
約四五尺兩端俱作轉簨挽索用牛拽之	-12.6716
者所以變薄田為良田化磽土為肥土也	-12.6716
而西謂之鉤江南謂之鍥	-12.6716
胯之異此品惟充貢獻民間罕見之	-12.6716
能獨食水草㝷亦俱死非直不滋息或	-12.6716
諡	-12.6716
金盞菜一名地冬𤓰菜生田野中	-12.6716
開黄花結子如豆粒大色青白葉味苦	-12.6716
預于四月上旬申	-12.6716
食宜薄一復時可四頓次日可漸加葉	-12.6716
𠂻	-12.6716
䴭	-12.6716
䴳	-12.6716
上皆用漏斗盛麥下之眼中則利齒旋轉	-12.6716
世間餅餌自此始矣	-12.6716
之制與遂人匠人異	-12.6716
之如魚網之制其長短廣狹視蠶	-12.6716
以右手執之復於釤旁以繩牽短軸	-12.6716
以耜側凍土剗之	-12.6716
作田非器不成周禮遂人凡治野以土宜	-12.6716
利累倍大凡陸地平田别無溪澗井泉以	-12.6716
則硬實而耐寒苦也	-12.6716
務撒種却於軸間交穿板木謂之	-12.6716
十月選成熟梔子取子淘淨曬乾至	-12.6716
升通米得堅燥免蹈前弊實濟物之良法	-12.6716
去邪味淘過油鹽調食	-12.6716
后親桑循晉禮也北齊置蠶宫皇后躬桑	-12.6716
地槐菜一名小蟲兒麥生荒野中苗	-12.6716
多糞力峻熱即燒殺物反為害矣	-12.6716
大小制之沃以漆油則光	-12.6716
夫人桑明帝時皇后	-12.6716
層兩邊側立上復平	-12.6716
山陵林麓川澤溝瀆城郭宫室	-12.6716
平旦收聚堆積之還依前布之	-12.6716
平板平摩種秧泥田器也用滑	-12.6716
張公不喜聲伎見之未嘗笑獨見佳麥良	-12.6716
後殺時犉牡有捄其角以為社稷之報若	-12.6716
後雪復如此則麥耐旱多實	-12.6716
愆則有辟是也凡紡絡經緯之有數梭	-12.6716
掩合勿透風日雖	-12.6716
既盡可為稼田所謂瀉斥鹵兮生稻	-12.6716
明年斸地令熟還於	-12.6716
材其味甘而不熱頗	-12.6716
欲作鞍橋者生枝長三	-12.6716
歴代后妃親蠶之事采之史編昭然可見	-12.6716
水輪轉碾也後魏書崔亮教民為	-12.6716
湗	-12.6716
獸毛羽親肌之物最為肥澤積之為糞勝	-12.6716
田者救旱之法非塘不可	-12.6716
瘧	-12.6716
糞力壯南方治田之家常於田頭置	-12.6716
約量頓火隨寒熱添	-12.6716
興化有蕭何堰西蜀有李氷文翁穿江之	-12.6716
著切見世人耕了仰著土塊並待孟春	-12.6716
輾世呼曰海青輾喻其速也但比常輾	-12.6716
辨十有二壤之物而知其種以	-12.6716
農家種之亦廣人俱作豆粥豆飯或作餌	-12.6716
鐻	-12.6716
長以兩環約之圍之版其相合也與其合	-12.6716
頭出穗開粉紫花結蒴	-12.6716
爚	-12.6716
秋昏虚星中可以種麥	-12.6716
以束水也水所由上也	-12.6716
其子作米可食餘及牛馬又可濟荒其	-12.6716
割則不長加火煮之以水淘浸或炒爁或	-12.6716
草即鋤之旱即灌之冬芥經春長心	-12.6716
剜土既多其鋒必秃還可鑄接貧農利之	-12.6717
李性耐久樹得三十年老雖	-12.6717
周生烈曰夫忠	-12.6717
蠶欲老飼之宜細薄宜頻	-12.6717
露日出乃止凡種黍覆土鋤治皆如禾法	-12.6717
以籜箬覆於人背繩繫肩下耘	-12.6717
傳曰農夫之務去草也芟夷	-12.6717
夏採葉秋採莖實冬採根	-12.6717
成稀泥然後下栽子掘取時連土封用草	-12.6717
或麻繩纒束則不致碎破土封	-12.6717
擱	-12.6717
效也其所用之器自撮苗後可用以代耰	-12.6717
毖	-12.6717
然木杵既輕動防狂迸須	-12.6717
生延津縣郊野中在處	-12.6717
連合於葉上蟻	-12.6717
􁢖	-12.6717
三月選沙白地斸畦區深一尺全去舊土	-12.6717
之木為四弧弧各加	-12.6717
之端或居外或居内為刻而受之如為溝	-12.6717
也迤南地分十月埋栽河朔地	-12.6717
以為利今人有能别度地形亦效此制足	-12.6717
任氏獨窖倉粟楚漢相拒滎陽民不得耕	-12.6717
似花苦苣葉甚大開淡棠褐花表	-12.6717
作田圍特省工費又可畜育魚	-12.6717
侈費妄用以快一時之適所	-12.6717
其廣一寸以上視圍徑之小大	-12.6717
凡北方種粟秋熟當速刈之	-12.6717
則笑耳有田荒	-12.6717
北方例皆外簇然南簇在屋以其蠶少易	-12.6717
區種荏令相去三	-12.6717
又有不觚稜混而圓者謂混軸俱用畜力	-12.6717
又淮東二廣皆有之東坡請開杭之西湖	-12.6717
命宫中食蠶親自臨視宋開寳通禮郊祀	-12.6717
堅垎四十餘日芽方出土薅治澆	-12.6717
大如杯盂溝上通尾本者蹹殺人馬有雙	-12.6717
夫禹别九州其田壤之法固多不同而稷	-12.6717
如本篇三圖之卯寅辰午等是也環以堅	-12.6717
小滿芒種之間分而蒔之旬日髙下皆遍	-12.6717
山宜菜又名山苦菜生	-12.6717
張全義為河南尹	-12.6717
形稍深且大旁有木柄長可三尺上置釤	-12.6717
後雪復藺之則立春保澤凍蟲死來年	-12.6717
恒潤澤而不堅硬乃至冬初	-12.6717
更用細糞糞過	-12.6717
望海之桑種之術與白桑同	-12.6717
榖粟耗竭無餘一遇小歉則舉貸出息	-12.6717
此車之制凡麻苧之鄉在在有之	-12.6717
治病今人傳說採苗搗傅	-12.6717
澤草所生種之芒種	-12.6717
物産婦蓐中及疾病未愈	-12.6717
理切物乃不拒	-12.6717
生如馬耳則鏃鋤	-12.6717
石恐本用石也然北方多以石南人用木	-12.6717
科條青色莖上多刺葉似椒葉	-12.6717
種子及栽皆得壓枝亦生栽種與桃李同	-12.6717
竹通水也凡所居相離	-12.6717
籃大如斗量又謂之笭	-12.6717
維持多便至蠶可替時先布網於上然後	-12.6717
至冬月厚用蒿草藏	-12.6717
舂米堅香氣經夏不歇	-12.6717
苗隂厚地不見日故雖濕亦無	-12.6717
菜子難生者皆水沃令芽生無不即生矣	-12.6717
葉間開五瓣小黄花味甜	-12.6717
蛇葡萄生荒野中拖蔓而生葉似菊葉	-12.6717
蠶火類也宜用火以養之	-12.6717
謂水涸草生漸成葑田	-12.6717
農勸民無或失時	-12.6717
醴烝畀祖妣以洽百禮	-12.6717
野蜀葵生荒野中就地叢生苗	-12.6717
雖强牛利器鮮不困敗故	-12.6717
青蓇葖如小椒粒大	-12.6717
食一年陜西多食此菜	-12.6717
駿發爾私終三十里亦服爾耕十千	-12.6717
駞所種樹或移徙無不活且碩茂	-12.6717
腄	-12.6718
跑	-12.6718
梜榆莢葉味苦凡榆莢味甘	-12.6718
用葱鹽油相和搓	-12.6718
之無法碾焙煎試之失宜則雖建芽浙茗	-12.6718
以鋸子割所患蹄頭前正當中斜割之	-12.6718
榖雨前者為佳過此不及然茶之	-12.6718
為上品如雀舌麥顆特次材耳採訖以甑	-12.6718
為常品故採之宜早率以清	-12.6718
作也義亦與庸賃同	-12.6718
庳	-12.6718
煙熏黄樂婢青平夀黄鹿橛白鹺折	-12.6718
齒形去之如剪箭括向深一寸許刀子摘	-12.6718
丙至庚也抒者斜削之如戊至丙	-12.6718
兒蠶同繭蠶或二蠶三蠶共為一繭凡三	-12.6718
分其軸之長以其二為之徑木之圜必中	-12.6718
初向黄時宜暖眠定宜微暖起齊宜温	-12.6718
周禮曰㮚氏為量改煎金錫則不耗	-12.6718
壬一寸五分也上迤者斜迤而上如戊至	-12.6718
大小隨人所欲將園内地耕	-12.6718
如藤蔓葉如山藥葉	-12.6718
朴為末清米泔調灌若	-12.6718
突加蔓荆子末	-12.6718
貯者天下之大命也茍粟多而財有餘何	-12.6718
髀欲廣厚汗溝欲深明直肉欲方能	-12.6718
个	-12.6718
信未風先雨謂之料信雨	-12.6718
六月六日種葵中伏以後可種冬葵	-12.6718
别是一等俗謂三	-12.6718
刺薊菜本草名小薊俗名	-12.6718
則雲脚散湯少茶多則粥面聚鈔茶一錢	-12.6718
去家千里勿食蘿摩枸杞言其補精氣也	-12.6718
及丈麥已熟時忽為風雨所倒不能芟取	-12.6718
孫之庾如坻如京又曰我庾維億	-12.6718
庾鄭詩箋云露積榖也集	-12.6718
彼此論之若南蠶大時用箔北蠶小時用	-12.6718
得錢一百二十五萬至明年	-12.6718
支河港蕩淤淺	-12.6718
春分前後移栽先掘深坑	-12.6718
曬簇上蠶後第三日辰	-12.6718
湯洗疥拭令乾	-12.6718
溝行水暗渠也凡水陸之地如遇	-12.6718
生就地叢生長則四散分垂葉似萱草葉	-12.6718
竹架易於擡飼梅聖俞前蠶箔詩云相與	-12.6718
糊熱塗之即愈也	-12.6718
背圓葉似團匙頭様有如杏葉大	-12.6718
葉中心出花頭如紅藍花	-12.6718
鍥䥛集韻通用又謂之彎刀以刈草	-12.6718
一女不織民有寒者古謂庶士以下各衣	-12.6718
一日一走令其肉熱	-12.6718
三七日亦有成者雜五行書	-12.6718
三條女尚書跪曰可止執筐者以桑授蠶	-12.6718
上旬為上時中旬為中時下旬為下時一	-12.6718
之一端以鐵為裊掉復用曲木擐作活軸	-12.6718
之儲莫不各節其用以濟凶乏此固知堯	-12.6718
今數千年遂人匠人所營之	-12.6718
作叢似蒿枝葉似	-12.6718
信惡矣然糞壤滋培則苗蕃秀而實堅栗	-12.6718
刮板剗土具也用木板一葉	-12.6718
北郊遵周典也晉武帝太康中立蠶	-12.6718
匱乏之足患凍餒之足憂哉正月種麻枲	-12.6718
即便載麥上場堆積用苫繳覆以防雨作	-12.6718
卿曰修隄防通溝洫之水潦安水藏以時	-12.6718
可一尺旱時一二日用水於棚上頻頻澆	-12.6718
后王氏乾元二年皇后張氏並見親蠶禮	-12.6718
塞則溝洫豈特通水而已哉	-12.6718
多則不任北方蠶多露簇率多損壓壅閼	-12.6718
夜深如冬寒暄不一雖有熟火各合斟	-12.6718
大而且甘為旱稻種甚佳北方水源頗少	-12.6718
太后幸繭館率皇后及列	-12.6718
小色青味極辛辣其葉味甜	-12.6718
嵗之後自當滿園諺云東家種竹西家治	-12.6718
左腋間右手料取而	-12.6718
常法伏内壓條特為滋茂一法截條長四	-12.6718
年之豐凶以制國用量入以為出	-12.6718
所轉上輪形如軭制易繳筒索用人則	-12.6718
擇美田耕治令熟泥沃而水清以既芽之	-12.6718
晴則暴暖浥以水日三數遇隂寒則浥以	-12.6718
有漫種耬種瓠種區種之别漫種者用斗	-12.6718
服景帝詔后親桑	-12.6718
東北朝鮮列水之間謂之	-12.6718
氈	-12.6718
為區田收粟三十六石然則一	-12.6718
生卵七日不復剖生至明年方生耳欲得	-12.6718
田甚美北方農家亦宜效此利可十倍又	-12.6718
皆得長八九寸長澤民家盡養黄苦竹永	-12.6718
破麥作麩然後收之篩羅乃得成	-12.6718
種之土敝氣衰生物不遂為農	-12.6718
篾透背面縛之	-12.6718
約四寸兩桯相離五寸許其桯上相間	-12.6718
美田緩土及河渚水	-12.6718
羣自來分摘正	-12.6718
而為歉嵗之憂是故國有國之蓄積民有	-12.6718
耙梃之間用條木編之以摩田也耕者	-12.6718
胖	-12.6718
臍注磨曰眼轉磨曰榦承磨曰槃載磨曰	-12.6718
色人多摘取串作數珠葉味淡甜	-12.6718
范陽有舊督亢渠漁陽	-12.6718
藑	-12.6718
蠒	-12.6718
解布蠶蠶生至老大忌	-12.6718
遂人匠人之治夫間有遂十	-12.6718
郄	-12.6718
閈	-12.6718
開花斟酌窠數削去枝葉再長晚茄	-12.6718
闗西有鄭國白公六輔之渠	-12.6718
隂地作區圓二尺深五	-12.6718
雖名秋種㑹在六月	-12.6718
香茶菜生田野中莖方窊	-12.6718
麥田野處處有之其苗似麥攛	-12.6718
􁔻	-12.6718
説文曰榛似梓實如小栗衛詩	-12.6718
紫藤之桑其種髙大	-12.6718
覆之時用泔澆灌越數時則以槌棒擊樹	-12.6718
決無生理也斫松木須五更初便削去皮	-12.6718
寒至是故明君貴五	-12.6718
啇	-12.6719
文曰耒手耕曲木從木	-12.6719
師古曰庸功也言換功	-12.6719
處令常近火為佳凡煎試	-12.6719
釋滯去垢破睡除煩功則著矣其或採造	-12.6719
布機釋名曰布列諸縷淮南子曰伯	-12.6719
有雌雄而雄者多不結實可鑿木作方寸	-12.6719
朝之杷朳正人國之埽篲秉杷執篲除	-12.6719
民或苦少牛亡以	-12.6719
用斫而劖之故曰釤用如鏺也亦曰鏺其	-12.6719
百果樹下則結實牢不實者亦宜用此法	-12.6719
細弱不堪留者即去却	-12.6719
而菜多一畦供一口	-12.6719
耕荒穢則蟲生	-12.6719
長圓也欲與戊丙之孔合也融錫合之小	-12.6719
雌木填之乃實以銀杏雄樹試之便	-12.6719
之如此得四年不要種之皆餘根自出矣	-12.6719
亦大開淡粉紫花結角似家豌豆角但秕	-12.6719
垤	-12.6719
幣帛竹器今用育蠶其名亦同	-12.6719
澗谷間種之地欲極良秋上楮子熟時多	-12.6719
絶又可蓄為魚塘蓮蕩其利亦博或貫穿	-12.6719
花結子小如菉豆粒	-12.6719
若澤多者先深耕訖逆	-12.6719
蟠車纒纑具也又謂之撥車南人謂撥	-12.6719
許柄盈二握江淮之間恒用之方言云自	-12.6719
邑巷陌及注之園囿池沼悉周於用雖	-12.6719
里為同同間廣二㝷深二仞謂之澮	-12.6719
上中央二齒白三十一	-12.6719
世以為起於三代愚謂不然牛若常在畎	-12.6719
之圓外面者圍既合而削之當	-12.6719
之為器豈不簡易而利用哉	-12.6719
之用餘多者倉箱之富餘少者儋	-12.6719
之盪字同音異所用亦各不類因辯及之	-12.6719
先王預備憂民之意	-12.6719
其長酌全體之重輕而制厚薄焉其長竟	-12.6719
凳	-12.6719
又名浙碓今多於津要	-12.6719
同孔出不可鋤治	-12.6719
因井田溝洫以去水也後井田之法大備	-12.6719
圍田築土作圍以繞田也	-12.6719
天下先元帝王皇后	-12.6719
夾之小者若蠶多之家乃用長椽二莖駢	-12.6719
如種菜法又三月中	-12.6719
如種麥治地畢豫浸一宿然後打潭下子	-12.6719
如魚笱篾竹編之又呼	-12.6719
廣陵復引雷陂廬江重修芍陂似此等處	-12.6719
後左右足白不利人白馬四足	-12.6719
患枯旱若牛力少者但九月十月一勞之	-12.6719
撥作土盆旱宜頻澆如無元樹止就桑下	-12.6719
擡如無茅草稈草次之	-12.6719
收百斛丁男長女治十	-12.6719
放之桃林之野乎故周禮祭牛之外以享	-12.6719
故區畦種葉作菜食子根入藥	-12.6719
敎民糞種負水澆稼	-12.6719
有不同有用耙而不知用勞有用勞而不	-12.6719
有餘則藏之以待凶而頒之	-12.6719
杉木作釘塞其穴	-12.6719
枝者出露土上其餘條樹以土全覆樹根	-12.6719
法秋冬間收子淨洗日乾春耕熟地作町	-12.6719
涉揚其芟作田	-12.6719
淡緑莖有線楞結實如蒼耳實	-12.6719
環之束在兩端者與木環相抵卯午也	-12.6719
相和於葫蘆内㸃種過處用箒掃	-12.6719
禾一斗有五萬一千餘粒	-12.6719
移上輪其餘措置當自忖度不能悉	-12.6719
窠依上掘渠埋壓六月不宜全壓	-12.6719
笨麴一斗殺米六斗	-12.6719
粟焉如屑塵厲	-12.6719
者常人之情偷惰茍	-12.6719
而至日夜精思不致差	-12.6719
脤	-12.6719
苗葉煠熟水浸淘去邪味油鹽調食	-12.6719
草厦内制蠶簇	-12.6719
薄開淡黄花結薄殻中有子大如豌豆烏	-12.6719
覆以防雨作如搬載不及即	-12.6719
透骨草一名天芝	-12.6719
鐏	-12.6719
鐵腥愈旺地桑是其	-12.6719
開花紫碧色頗似牽牛花秋後結子	-12.6719
間攛葶開紫花結三瓣蒴兒中有子如芥	-12.6719
閨閫之屬務之不惟防閑驕逸又使知其	-12.6719
陂野池也塘猶堰也陂必有塘故曰陂塘	-12.6719
雖似多其實倍少	-12.6719
馬蘭頭本草名馬蘭	-12.6719
麥底地亦得種止須急耕調熟	-12.6719
每天雨時即觸雨折取春生少枝長	-12.6719
伐倒用斧碎	-12.6719
摀	-12.6719
餡	-12.6719
於犂底所置鑱處	-12.6719
不一耕水田曰瓦繳曰髙脚耕陸田曰鏡	-12.6719
又教邊郡及居延城	-12.6719
似睡忽然眩倒	-12.6719
猝	-12.6719
之萬不失一其餘以熟糞糞之則益桃味	-12.6719
取鹹土兩石許以水淋取一石五斗	-12.6719
火氣茶性畏濕故宜篛	-12.6719
利中未有此制今特造立庶臨流之家以	-12.6719
春多風旱非畦不得且畦者	-12.6719
汨	-12.6719
良故墟彌善薄即糞之不	-12.6719
之以夏至前十日下子亦鋤兩	-12.672
之刈穫功過累倍	-12.672
之際以糠米貯之	-12.672
叨	-12.672
如簾即將機軸掉轉搧之糠粞既去乃得	-12.672
末漿水煎沸候冷調灌應	-12.672
檻底通作匾縫下	-12.672
郪	-12.672
閩浙蜀荆江湖淮南	-12.672
餾繰冷盆絲其繭薄紋理細者必繰不快	-12.672
騖	-12.672
墀	-12.672
子大茶褐色子葉俱味苦	-12.672
炤	-12.672
研芥子塗之差六畜疥悉愈然栢	-12.672
篘内堈既圓滑米自翻倒	-12.672
耨柄尺此其度也其耨六寸所以間稼也	-12.672
葉似山小菜葉頗長抪梗對生葉	-12.672
連翹一名異翹一名	-12.672
里十五肋千里也	-12.672
䋔縷既盈乃脱軖付之繩車或作别用	-12.672
下中二齒白二十八	-12.672
下中央六齒盡黄二十四	-12.672
之制雖不可行而溝洫之制則不可廢	-12.672
九十日秀秀後六十日成	-12.672
二三尺莖方窊面四楞對分莖叉葉	-12.672
五十石及百石薄田尚三十石	-12.672
五指許掩於濕土地中亦生	-12.672
亦生莖葉肥茂異	-12.672
今有善蠶者一説南北之間蠶少	-12.672
以木架平鋪蒿梢布蠶於上用蓆	-12.672
以溝蕩水以遂均水以列舍水以澮寫水	-12.672
其色有白有斑有赤	-12.672
其苗就地拖蔓節間生葉如指頂大葉	-12.672
几或用夾南方蠶無大小切桑俱用碪也	-12.672
剨	-12.672
務使田平而土潤與耙頗異耙有渠	-12.672
又以土一斗薄散糞上復以足微躡之冬	-12.672
又燉煌俗婦女作裙	-12.672
各自别安唯著䪊頭浪放	-12.672
周禮大司徒以土㑹之法辨五地之物生	-12.672
坑上為大堆至春草生	-12.672
多有大刺葉似楸葉	-12.672
子大布滿中二箔	-12.672
子貢曰有械於此一日浸百畦鑿木為機	-12.672
宜撻之打令土實也今當耕種用之故附	-12.672
宻泥勿使風入漏氣過立秋然後開	-12.672
對生開淡粉紅花	-12.672
小葉間開小白花結細黄子	-12.672
尺餘葉似苦苣葉莖葉俱有刺	-12.672
岸深或田在山上皆可及	-12.672
常者且常有潤澤旱亦	-12.672
平穿二桄就作登級	-12.672
廣而合之則角見也其内面稍刳之以就	-12.672
怡賢親王敬陳	-12.672
我疆我理南東其畝	-12.672
或慮天旱宜就黍	-12.672
所以養鯉者鯉不相食易長又貴也	-12.672
收起雖未淨直待所收麥都碾	-12.672
故堯禹有九年之水湯有七年之旱而國	-12.672
故獲利亦薄北簇雖大其弊頗多蒿薪積	-12.672
月大雪時速併力推雪	-12.672
杚	-12.672
枝上截了留一尺許	-12.672
桑適金室前漢文帝紀詔皇后親桑以奉	-12.672
江淮之間地多藪澤或瀕水不時渰没妨	-12.672
淤為沃壤用浙人之法築堤捍水為田	-12.672
溪見二花犬因逐之入	-12.672
為敗田秋無雨而耕絶土氣土堅垎名曰	-12.672
為環而約之長者中分圍之長以	-12.672
田者納種如前法既生七八寸㧞而栽之	-12.672
疥令赤及熱塗之即愈也	-12.672
盛冬耕泄隂氣土枯燥名曰脯田脯田與	-12.672
相繼以生成相資以利用種無虚日收無	-12.672
瞑	-12.672
窰	-12.672
緒一綜之交各有倫叙皆須積勤而得累	-12.672
繭館皇后親蠶之所古公桑蠶室也	-12.672
耕百人食之一婦桑百人衣之以一奉百	-12.672
苗生田野中苗搨地生葉似垂盆草葉而	-12.672
莖似艾蒿長二三尺	-12.672
豫州厥土惟壤下土墳壚厥田惟中上	-12.672
起一車計及二百餘尺如田	-12.672
起瀝乾次日如前候纑極白方可	-12.672
重頷欲折胸欲出臆欲廣頸項欲厚而强	-12.672
野生薑本草名劉寄奴生	-12.672
錠	-12.672
長開白花結青白子其葉味甜	-12.672
隴様梢出細葶開小黲白花結小青蓇葖	-12.672
黍經五日更報鋤第二	-12.672
􁢌	-12.672
而無毒供食之餘可為葅腊	-12.672
匀撒蠶上上再摻葉移時蠶因食葉沿上	-12.672
鑲	-12.672
及青摘取可以為菹乾而末之亦足充事	-12.672
爾雅曰戎菽謂之荏菽	-12.672
古農法云鋒地宜深鋒	-12.672
稂莠是除爬沙而指	-12.672
轉至難費力未	-12.672
曰神農氏作斵木為耜揉木為耒	-12.672
朞	-12.672
置輪軸以水激之一如水磨日夜所破	-12.672
須待白背濕撻令地堅硬故也	-12.672
其蒸餾之法用籠三扇用軟草札一圏加	-12.672
艋	-12.672
騂謂地色赤而土剛	-12.672
人參苦參可作沐藥不入湯	-12.672
叄	-12.672
哉伏乞勅下	-12.672
如槖籥之舌以樞合紐令丑卯之板恒加	-12.672
所以藏粢盛之穗説文曰倉黄	-12.672
拔去竹籖即插梨	-12.672
欲作器物先種梓漆時人嗤之	-12.672
皆古今通用芟器也	-12.672
艾草菅注艾讀曰刈古艾從草今刈從刀	-12.672
選好葦連根栽成土墩如椀口大於下	-12.672
部酌議覆請	-12.672
䐊	-12.672
一尺許葉似水棘針葉	-12.672
三尺以箭竹作馬眼	-12.672
下欲平有八字腹下毛欲前向腹欲大而	-12.672
下馬與僚佐共	-12.672
之召田主勞以酒食有蠶麥善	-12.672
二寸一溝容九株一	-12.672
二尺許莖似蒿稈	-12.672
二尺餘方莖四楞色淡緑	-12.672
以皮為袖套皆農家所必用者	-12.672
何哉夫南簇蠶少規制狹小殆若	-12.672
俯身控刈取其平	-12.672
其土地之廣不外乎是但所屬	-12.672
其土産名物各有證	-12.672
其柄此南俗蠶法北方箔簇頗大臂指間	-12.672
再耕曰轉生者欲深而猛熟者欲淺而	-12.672
冬至後一百一十日可種稻稻地美用種	-12.672
出草色不異若經夏在棚棧上草便變	-12.672
分如小錢大布滿三箔	-12.672
勤鋤旱則澆之若地	-12.672
吊	-12.672
唐韻云蓑草名可為雨衣又名襏	-12.672
四月種豆五月中旬種晚麻七夕以後種	-12.672
回回蒜一名水胡椒	-12.672
地不厭良薄即糞之鋤不厭	-12.672
嫩葉煠熟換水浸去辣氣作成黄色淘洗	-12.672
子打油燃燈甚明或熬油以油諸物	-12.672
布囊盛粟等諸物種平量之埋隂地冬至	-12.672
布地一行蒜一行	-12.672
後榆莢盛時納種以次種大豆油麻等田	-12.672
惟五月十三日謂之竹醉日又謂	-12.672
或刈禾穿臂於内以帣	-12.672
拄	-12.672
散垂結實作莢子極薄細味甘性平無毒	-12.672
春耤田而祈社稷也	-12.672
杓作勺量器也周禮勺容一升所以㪺	-12.672
根如手指大黄白色春生	-12.672
梢間開粉紅花結子如小米粒	-12.672
榖殻朽腐最宜秧田	-12.672
此天地覆載一定古今不可易者	-12.672
江淮河漢及所在川澤皆可引而及田以	-12.672
沃饒之資但人情拘於常見不能通變間	-12.672
法春月先於熟地内東西成行匀稀種	-12.672
溝以注雨潦旱則灌溉謂之甜水溝其稼	-12.672
瀆蓄陂澤以備水旱使斥鹵化而為膏腴	-12.672
為利十倍今其地京都所在尤宜疏通	-12.672
犝	-12.672
用為理絲之先具也	-12.672
畔近道者亦可另種蘇子以遮六畜傷踐	-12.672
百步平治路上車轍務要平坦不令車輪	-12.672
省力過倍南蠶多用此法北方蠶小時亦	-12.672
矍矍然此籰之義也然必竅貫以軸乃適	-12.672
積之栗栗其崇如墉其比如櫛以開百室	-12.672
者獨不見勞各自恥不能致丹其後無	-12.672
耕地之法未耕曰生已耕曰熟初耕曰塌	-12.672
臂籠江淮之間農夫耘	-12.672
荒野林下今處處有之苗似	-12.672
菔菘芥八月社前即可種麥	-12.672
葉煠熟水浸去邪味淘洗淨油鹽調食	-12.672
葉間開細瓣淡粉紫花黄心葉味	-12.672
過熟者苗茂而實少	-12.672
遺人掌邦之委積以待施惠鄉里之委積	-12.672
鏄	-12.672
開五瓣小紫花結青蓇葖	-12.672
額以次漸征之	-12.672
麥上土令厚二寸凡區種大豆令相去一	-12.672
􁕺	-12.672
雨風冷則不敢擡用茅草細切如	-12.6721
秖	-12.6721
之戾傴僂而腰	-12.6721
用以斸荒凡田園山野之間用之者又有	-12.6721
青鹽黄連馬牙硝㽔仁	-12.6721
曰甽長終畮一畮三甽一夫三百甽而播	-12.6721
粕	-12.6721
者必以篛籠剪篛雜貯之則	-12.6721
邪氣衝肝眼	-12.6721
飯湯入少許醋調灌療肺毒	-12.6721
俛	-12.6721
日老一箔可得絲二十五兩二十八日老	-12.6721
旱則畦種水澆五月熟而收子	-12.6721
晝夜飼若頓數多者蠶必疾老少者遲老	-12.6721
李悝為魏文侯作盡地力之教	-12.6721
浥之憂死蠶旋墜無汚繭之患沙	-12.6721
牙上下數重所在皆得懸訖薪下	-12.6721
扇集韻云颺風飛也揚	-12.6721
燮	-12.6721
砌脚三層上用地伏磚扁砌	-12.6721
薄板或糊竹為之復有立扇卧扇之别各	-12.6721
二百里十二者千里過十三者天馬萬乃	-12.6721
云晴乾無大汛	-12.6721
務在充飽調適而已	-12.6721
名鬭牛兒苗生田野中就地拖秧	-12.6721
吮	-12.6721
大者葉似槐葉瘦長而尖枝間多刺	-12.6721
季春之月具曲植植即槌也務本直言云	-12.6721
收取種繭必取居簇中者	-12.6721
淸	-12.6721
石五斗為俸餘半納官	-12.6721
結實有三種形小者為猪牙皂	-12.6721
花田中冬天不拔花	-12.6721
諦	-12.6721
陽木而火之冬日至令剥隂木而水之	-12.6721
一尺餘葉似野蜀葵葉稍大	-12.6721
下中央兩齒黄二十二	-12.6721
下中央四齒黄二十三	-12.6721
久愈茂而無荒廢枯	-12.6721
之而轉之水則自螺旋之孔入也水之入	-12.6721
也六寸所以入苗間廣雅又云定謂之耨	-12.6721
也麥禾既熟或收刈不時莖穗狼籍不能	-12.6721
二日不得揉搓再蘸濕了於乾灰内周徧	-12.6721
以祈福祥順豐年逆時雨寧風旱	-12.6721
假此以便其事幸毋忽諸	-12.6721
八谷谷上立水二	-12.6721
其汁纔令相淹不用過多泥頭七日便熟	-12.6721
其處至蠶老歸簇或稀宻不倫亦用均布	-12.6721
凡蠶生室内四壁挫壘	-12.6721
分為度以度八繩之墨皆平	-12.6721
南河濟之間千樹	-12.6721
厚必須擡之失分則不	-12.6721
去堪為渾心扶老杖	-12.6721
又可以易換諸物若能多廣栽種不惟無	-12.6721
又谷中立水六	-12.6721
取樹本大如斧柯及臂者皆堪接謂之	-12.6721
可也此督課之方也且天子親耕皇后親	-12.6721
在所祈報可知矣大田之詩言去其螟螣	-12.6721
域之多大有不同詳而言之雖一州之域	-12.6721
壟作訖又以鍬掘底一坑作小塹	-12.6721
天氣炎熱門口置	-12.6721
如耬鋤過苗間有小豁眼不到處及	-12.6721
婆婆枕頭生鈞州	-12.6721
孔疏云屝屨俱是在足之物善惡異名耳	-12.6721
富民欲得官者合其衆分	-12.6721
得平而廣能負重背欲得平而方鞍下有	-12.6721
或大或小皆頂隆而口圓可	-12.6721
或捲作𥫱誠為多便南方農種之家率皆	-12.6721
撒之隨撒隨行約行三	-12.6721
收以水淘汰令淨曝乾散訖勞之草生拔	-12.6721
易為破爛及碾捍	-12.6721
是也若兩中環者則在尾與箕也或不用	-12.6721
桂陽令俗不種桑無	-12.6721
梁家衝山谷中葉似楮葉	-12.6721
梯木階也夫桑之穉者用几採	-12.6721
樁樁上枕以伏牛擗	-12.6721
櫪	-12.6721
此樹條直異於常材十年之後無所不任	-12.6721
比及霖雨以來芽條	-12.6721
氍	-12.6721
水得一道焉或二之或三之四之以上同	-12.6721
渠川澤廢而不治不為不多倘能循按故	-12.6721
澆水盡即以燥土覆	-12.6721
瀕海數千里北極遼海南濱青齊萑葦之	-12.6721
為不其令率民養一	-12.6721
為土盆雨則可聚旱則可澆樹南春先種	-12.6721
然農家之事居多也	-12.6721
熱湯潑灰忌産婦孝子入家忌燒皮毛亂	-12.6721
燠成片濕潤白積	-12.6721
獨不見夫桔橰者乎引之則俯舍之則仰	-12.6721
獨行菜又名麥稭菜生田野中科苗	-12.6721
用列諸篇之右	-12.6721
異故皆以人力器用所成者書之各有科	-12.6721
相和匀撒子一合可種六七畦撒畢不用	-12.6721
秬黍中者千二百實其龠以井水凖其	-12.6721
突也須與竈口相背謂如竈口向南	-12.6721
等名目皆是葉生形容之所象似以此時	-12.6721
箭頭草生田野中苗初搨地生葉似鈹	-12.6721
細背頗白開紅白花亦有千葉者味甜淡	-12.6721
結子半黍大黄褐色味苦	-12.6721
織絲麻之利類皆以麻枲頭貯衣民惰窳	-12.6721
耐旱且便於撮鋤今燕趙間多用之	-12.6721
耙勞之末然南人未嘗識此	-12.6721
與人均也勿犯寒	-12.6721
良可憫也北方地經霜雪不甚懼旱惟水	-12.6721
若大者而欲無用輪則以兩掉枝同加	-12.6721
螺溝螺溝者水道也軸得一墨焉則得一	-12.6721
許即再料取務要布種均匀則	-12.6721
軸而得一螺旋之墨因螺旋之墨而立之	-12.6721
轂左手引麻牽軖既轉右手續接麻皮成	-12.6721
連頃另有刀工各具其器割刈根莖劖削	-12.6721
過熟則抛費每日至晚	-12.6721
酒後耳熱仰天	-12.6721
野艾蒿生田野中苗葉類艾而細又多花	-12.6721
野語云蠶燠乾	-12.6721
鋤者非止除草乃地	-12.6721
開白花結子如豆粒大青	-12.6721
開閉水門也間	-12.6721
間草薉未除者亦須用鋤理撥一	-12.6721
頭不時跂足閃去所擁草木根	-12.6721
頹	-12.6721
髙可三尺許廣可四尺上有横柄下有列	-12.6721
龕狀如三星務要玲瓏頓藏熟火以通	-12.6721
人以其皮青號曰青桐	-12.6722
花而莢者謂樗無花不實謂椿	-12.6722
鋒故名鋒取其銛利也地若堅垎	-12.6722
云速鋒之地恒潤澤而不硬注曰刈	-12.6722
鋒而後耕牛乃省力又不乏	-12.6722
功堅脆懸絶資生要理安可不知	-12.6722
此洛陽方左千里之所宜其他地方隨	-12.6722
為中時五月上旬為下時夏種黍穄與植	-12.6722
飼蠶者慎勿貪眠以懶為累	-12.6722
下唇篘下兩邊	-12.6722
以順天道調隂陽未	-12.6722
俗名椒目不用人手	-12.6722
其地常潤澤可保豐熟普為塍埂可種稻	-12.6722
寒濕之氣然後飼	-12.6722
山南山北之異鄭君之	-12.6722
掩種者子科大而易料理花出欲日日	-12.6722
春雨得所尤易活其實内子相類者林檎	-12.6722
曷知其中規而上下等也砧之大入	-12.6722
杷或謂透齒杷用攤曬	-12.6722
沙漲之東西而田焉是未可以為常也	-12.6722
病一眠候十分眠纔可住食至十分起	-12.6722
石壓之或兩竹竿刺定	-12.6722
者為勝今處處有之其木極有	-12.6722
耬重耩竅瓠下之以批契	-12.6722
陽氣不應急則力大夾煞全在細意酌度	-12.6722
一復時可六頓次日可漸漸加葉可開捲	-12.6722
不若劖刀之輕且順也若南人	-12.6722
之下即移羸速鋒之也	-12.6722
之圓者圓謂之囷方謂之京	-12.6722
九川距四海濬畎澮距川然後播奏	-12.6722
二三尺許葉似連翹葉	-12.6722
五年有積蓄命以官就所儲給以	-12.6722
亦秋耕杷勞令熟至春黄	-12.6722
以及田所其制當流列植	-12.6722
來生也其居東北角者老竹種不生	-12.6722
傍以細椽相搭	-12.6722
其功過鋤功數倍所	-12.6722
别竪一柱以為依	-12.6722
又多壅絶無以資灌	-12.6722
同孔出不可鋤治此耕者之失難責鋤也	-12.6722
吳志周瑜謁魯肅肅指其囷以與之西京	-12.6722
土産之物皆可推而知之矣大抵風土之	-12.6722
多者輒歴載酒肴從而勞之便	-12.6722
天氣濕潤時不透風處或地窨子中	-12.6722
如用小灰紙更妙連須以時浴之浴畢	-12.6722
岡隴支河湮塞不治者皆濬之深廣使復	-12.6722
布蠶簇訖復用箔圍及苫繳簇頂如圓亭	-12.6722
平一同春法但既是旱種不須耬潤此菜	-12.6722
惟在時之和融手之審	-12.6722
收韭子種韭第一番割棄	-12.6722
方蠶簇法也嘗見南方蠶簇止就屋内蠶	-12.6722
旋添新水以生凉氣如遇風雨夜凉	-12.6722
時令蠶子向外恐有風磨損冬至日及臘	-12.6722
月末三月初種也	-12.6722
杓以勺從木姑與今同此作蠶杓	-12.6722
東井井之水人所汲用缶楊惲	-12.6722
欲作快弓材者宜於山石之間北隂	-12.6722
民興利務在富之躬勸耕農出入阡陌止	-12.6722
濕曲折作二尺五寸長	-12.6722
燕秦千樹栗蜀漢江陵千樹橘淮北常山	-12.6722
犒勞名為鋤社甚可效也今採摭南北耘	-12.6722
環以繩約之而塗之齊與劑同合以塗	-12.6722
皆有所洩則下流之地治而澇無所憂矣	-12.6722
禁止嫁娶送終奢靡務	-12.6722
約量本家育蠶多少選於院内空	-12.6722
經織為佳若風日髙燥則纑縷乾脆難織	-12.6722
能變惡為美種少收多諺云糞田勝如買	-12.6722
舊則上流之地亦治而旱無所憂矣此三	-12.6722
莫不耕稼力田吏民親愛信臣號曰召父	-12.6722
蠶有多少故簇有大小難易之不同也然	-12.6722
衣袖猶北俗芟刈草	-12.6722
裔不無遼絶若能自内而	-12.6722
輪輪者所以受轉也六曰架架者所以制	-12.6722
鋤三遍乃止鋒而不耩	-12.6722
開小青黄花結小細角似葶藶角兒葉味	-12.6722
開粉紅花結子似胡麻子葉味苦	-12.6722
間小科就地拖蔓生葉似	-12.6722
除大寒時分不能移栽其餘月分皆可	-12.6722
隨掩過覆土既深雖暴雨不至	-12.6722
中伏以後則晚矣	-12.6722
之外削版而圍之版欲無厚	-12.6722
之孔之徑盤之下為鼎足而置之井	-12.6722
之掉枝而首為圓孔焉以掉枝之圓孔入	-12.6722
先王載之典禮著之令式	-12.6722
劈接法先附地平鋸去身榦於砧盤	-12.6722
勢量物力相大小而制徐疾焉今圖樞輪	-12.6722
去皮蔬食又可糟藏謂之萵笋	-12.6722
坭	-12.6722
委積以待賔客野鄙之委積以待羇旅縣	-12.6722
子入五月便種若待	-12.6722
尖向上左右斜批豁兩道至平面其下尖	-12.6722
平衍率多洿下一有數日之雨即便淹	-12.6722
搨地布葉葉似野天茄兒葉	-12.6722
擡停眠分如小錢微大布滿六箔	-12.6722
有蛾出者便就出種罨壓熏蒸因熱而生	-12.6722
栽枝記南北根深土逺寛掘	-12.6722
欺地則所種不失其時人欺苗則省力易	-12.6722
無用輪方其樞之末别為衡衡之一端入	-12.6722
率種數既多不可一一備舉凡不見者栽	-12.6722
笠詩所謂臺笠緇撮今之為笠編竹作殻	-12.6722
箝禾具也揉木為之通長五尺上作	-12.6722
聚於一葉其葉自大即是地桑栽地桑法	-12.6722
股長可二尺上一股微短皆形如彎角以	-12.6722
與軸之徑等三曰圍	-12.6722
葉中攛生莖叉梢結刺毬如	-12.6722
葉似白槿葉而澁	-12.6722
蓑薛簦笠今總謂之蓑雨具中最為輕便	-12.6722
蠶滋多必須分之沙燠	-12.6722
近上向陽或在苫草上者此乃强良好繭	-12.6722
郭璞云汲水索也易卦云汔	-12.6722
量力均辦所需工物乃深植樁木列置石	-12.6722
開白花結子如梧桐子大生青熟	-12.6722
麥令相去二寸一行一溝容五十二株一	-12.6722
地為上兩和地為次園圃内種之如無園	-12.6723
有二種水稗生水田邊旱稗生田野中今	-12.6723
皮為末同薑棗煎灌	-12.6723
黄張蟻白耿虎黄都	-12.6723
以刀刺馬踠叢	-12.6723
多種久居供食者	-12.6723
大黄山梔子𤓰蔞為末水	-12.6723
天門冬知母貝母紫	-12.6723
心肺壅熱口鼻流血跳躑煩燥	-12.6723
笑鼻中氣短宜	-12.6723
胃有傷不食水草褰唇	-12.6723
匈	-12.6723
去毛以泔清淨洗乾以鹹汁洗之三度即	-12.6723
古法也后稷始甽田以二耜為耦	-12.6723
截雨脚即種者地濕麻	-12.6723
拉	-12.6723
服一兩酒一大升同煎温灌隔	-12.6723
烏藥芍藥當歸𤣥參山茵蔯白芷山藥杏	-12.6723
翻過又不下者並連棄了此殘病	-12.6723
鋒耩各一鋤不過再	-12.6723
三宫之夫人世婦之吉者使入蠶	-12.6723
撐	-12.6723
於江海水少則泄湖	-12.6723
枝了别取本色樹皮一片長尺餘濶	-12.6723
毋治堰毋誅草毋沃	-12.6723
沙田南方江淮間沙淤之田也或	-12.6723
灰毋室入外人四者神實惡之	-12.6723
瘡口恐雨水入纒訖即以	-12.6723
種之時先以柴灰淹	-12.6723
而過若遇平地則引渠相接又左右可移	-12.6723
蠶房槌箔上從頭合籠内繭在上用手	-12.6723
之以肱畢來既升	-12.6723
云圓轉木也集	-12.6723
使液以手搦之絞去滓以	-12.6723
偶控於槌上以架蠶箔須直而輕者	-12.6723
具也造作簨虡	-12.6723
凡耘苗之法亦有可鋤不可鋤者旱耕塊	-12.6723
利官陂官塘處處有之民間所自為溪堨	-12.6723
刷過更用油水刷之	-12.6723
北方村落之間多結為鋤社	-12.6723
噉馬三度愈也	-12.6723
太湖諸水源多而勢盛二江不足以洩	-12.6723
好灰水中浸蘸	-12.6723
守開稻田八千餘頃勸民耕種以	-12.6723
就作地桑或削去細條存留	-12.6723
恐其子粒焦落乃用推	-12.6723
手茹葉右手按	-12.6723
收訖至來年更不須種自旅生也	-12.6723
故有薅鼓薅馬之	-12.6723
枝次年便可成樹或是就壓傍條一樹又	-12.6723
桑具也用木礩上仰置叉股髙可二三尺	-12.6723
次日水淘去輕	-12.6723
正月上甲風從東方	-12.6723
水澣濯天晴再三	-12.6723
濁水則麻黒水少則麻脆生	-12.6723
熟至正月二月中以犁作壟一壟之中以	-12.6723
用之當以肥厚者為佳味辛鹹性	-12.6723
田無荒穢嵗皆豐熟秋成之後豚蹄盂酒	-12.6723
田野中延蔓而生葉似小藍葉短小軟薄	-12.6723
築以土封瘢比及地凍於上約量添糞春	-12.6723
綃	-12.6723
總為一處穿過錢眼	-12.6723
織必先以油水潤苧及潤纑經織成生布	-12.6723
葉味苦花味辛甘性温無毒	-12.6723
處水不能及則於溪	-12.6723
蠶多不旺已後簇内懶老翁赤	-12.6723
覷要識灰性及火候𦂳慢次用	-12.6723
連匠者嘗别抄以鬻之務本新書云蠶連	-12.6723
過數倍宜普效之	-12.6723
鋤治自相率領樂事趨功無有偷惰間有	-12.6723
雖利終非本器	-12.6723
颯	-12.6723
馬鼻下熏之使	-12.6723
㐮	-12.6723
一法若欲為長軸則	-12.6723
上向以受下樞之末制管	-12.6723
下中央四齒平十四	-12.6723
下量水之勢令得入	-12.6723
不救之田地上有可興之雨其用水有法	-12.6723
之卧置池内水要寒煖得	-12.6723
之類引而達之此用水之巧者若	-12.6723
交立夏節為四月交立秋節為七月交立	-12.6723
令上有一寸土不可令過一寸亦不可令	-12.6723
令樹知區宜寛深以水攪土成泥	-12.6723
以數計大可灌田數百頃小可溉田數十	-12.6723
便是先將生苧麻折作二尺五寸長不斷	-12.6723
六約畧作之非定率也趣欲使兩輪之交	-12.6723
列遶八磨輪輻	-12.6723
初向黄時宜極暖眠定宜暖起齊宜微暖	-12.6723
則徒勞無益矣凡地除種麥外並宜秋耕	-12.6723
北方農俗所傳春宜早	-12.6723
南人用竹其制不同用則一也詩	-12.6723
圓倉也禮月令曰修囷倉説文	-12.6723
地車戽若積為池沼再	-12.6723
外有列齒獨用於水田破塊滓溷泥塗也	-12.6723
密相等焉長短相入焉相	-12.6723
寸旁行相去亦五寸一溝容四十四株一	-12.6723
小祝掌小祭祀	-12.6723
得日氣則盡解矣	-12.6723
所耕地内先並耕	-12.6723
斗桔橰之類挈而上之如地勢曲折而水	-12.6723
於正月地氣透時深耕三遍擺	-12.6723
曰女執懿筐	-12.6723
有知其利者又莫得其用之具今特多方	-12.6723
有遺利夫海内江淮河漢之外復有名水	-12.6723
未能遽革今聞善蠶者	-12.6723
本篇五圖之甲乙是也下柱者丙丁是也	-12.6723
柱之植欲堅以固也下柱居水中以	-12.6723
治之之法當自要害	-12.6723
漢志云十升為斗斗者聚升之量也	-12.6723
漢靈帝使畢嵐作翻車設機引水	-12.6723
營田須量己力寧可少好不可多惡	-12.6723
生葉莖端開金黄色盞子様花其葉味酸	-12.6723
田家作苦嵗時伏臘烹羊炰羔斗酒自勞	-12.6723
秋宜日髙耕中原地皆平曠旱田陸地一	-12.6723
種禾黍於溝間夾溝為兩行去溝兩	-12.6723
突口向北是也繰盆居中火衝盆	-12.6723
縣山坡中科條髙三四尺葉似櫻	-12.6723
至亦未繘井方言繘自	-12.6723
與各磨木齒相	-12.6723
若溝渠陂堨上置水閘以備	-12.6723
螺溝之下孔而止也上者居岸以	-12.6723
蠶中庭使日氣煦照擡一箔則復布一箔	-12.6723
謂之笯郭璞云亦呼籃蓋一器而異名也	-12.6723
間結小青子比灰菜子	-12.6723
隨手指大小截之長可逾寸削去一	-12.6723
鴨靡不食矣水稗實成時尤是所便	-12.6723
𢎞作二尺地以積穰	-12.6723
皆三四月種地不宜肥有草則削去種	-12.6724
近枝莖薄安黍穰彌佳無穰直安	-12.6724
耬凡用兩牛六人一日纔種二十五	-12.6724
耬長轅耕平地尚可	-12.6724
兩牛兩人牽之一人將耕一人下種二人	-12.6724
勃壤用狐埴壚用豕彊㯺用蕡輕	-12.6724
損米或人或畜轉之謂之礱磨復有畜力	-12.6724
九川滌源九澤既陂	-12.6724
此聖人所謂分地之利者也	-12.6724
氷雪連夏亢陽徒道秋耕不堪下種	-12.6724
留一根强者餘悉	-12.6724
細任意旋緝旋搓本俗	-12.6724
舊所謂坍江之田廢復不常故畝無常數	-12.6724
不實者曬令水脉才乾種乃易生	-12.6724
之制無異凡臨坎井或積水淵潭可	-12.6724
也恒升者一升一降而得水一也架法見	-12.6724
人既省力蠶亦無損又按南方蠶書云簇	-12.6724
以硬木貼樹身去地半指一斧截	-12.6724
其數八其味酸其臭羶其祀户祭先脾	-12.6724
其蟲鱗其音角律中	-12.6724
其間但有芽葉不旺者	-12.6724
則㸃種其餘粟豆麻小麥之類亦用漫種	-12.6724
勿熟漚只經生纑論帖穿苧如常法以發	-12.6724
十餘比之全樹栽者樹樹必活桑亦榮茂	-12.6724
女兒茶一名牛李子	-12.6724
如前不計次數惟以潔白為度灰	-12.6724
年中即髙一丈餘其旁生枝葉即搯去令	-12.6724
忽自枯死主有水	-12.6724
挍	-12.6724
揫	-12.6724
是以瀦洩有法而水旱皆不為患近	-12.6724
澆灌園圃勝於人力汲	-12.6724
相其土宜擇而用之以盡鋤治之功也	-12.6724
積少成多施之種藝稼穡倍收桑果愈茂	-12.6724
糝土封其樹瘢樹南種黍五七粒十餘日	-12.6724
紅熟果食之嫩葉亦可煠熟油鹽調食	-12.6724
荆揚厥土塗泥農家皆用此法又有足	-12.6724
蠶箔木也或用竹長一丈二尺皆以二莖	-12.6724
角狀而長其形似屠刀様故以名之味甜	-12.6724
門暗值賊風後多紅殭布蠶須要手輕不	-12.6724
鹿車東齊海岱之間謂之道	-12.6724
一二尺莖梗繁多葉似水芥菜葉頗大花	-12.6724
上各舉稻把摜之子粒隨落積於簟上非	-12.6724
之善也八分之一者如軸長八尺則	-12.6724
之間成螺旋之溝水從溝行而	-12.6724
之間謂之溝溝水道也水行溝中而	-12.6724
京兆乃令整阡陌樹桑果又課以	-12.6724
以土宜之法辨十有二土之名物	-12.6724
傅子曰陸田者命懸	-12.6724
其功大可下潤於千頃	-12.6724
制之使無下行也故曰	-12.6724
則禾稼不茂種苗者不可無鋤芸之功也	-12.6724
午時又出連舒卷須要變至十分	-12.6724
厦屋㝷常别用至蠶老時置簇於内隨其	-12.6724
及二尺用載農具及芻種等物以	-12.6724
取之法焉氣法也凡砧之入	-12.6724
大葉間生細絲蔓	-12.6724
好直枝如大母指長五	-12.6724
封繫之固擁包之厚使不	-12.6724
尺嘗悉以一尺地積穰不相受	-12.6724
常以洗魚水澆之則香而茂溝泥水米泔	-12.6724
必兩習熟者能用不然則有矛盾之差矣	-12.6724
撻打田篲也用科木縛如	-12.6724
日為中時然取其條眼襯青	-12.6724
早雖浸芽不生但燥種之不須	-12.6724
月取材使得轉相	-12.6724
木甑中蒸過趂濕剥下	-12.6724
桔梗一名利如一名房	-12.6724
椽五莖上撮一處繫定外以蘆箔繳合是	-12.6724
次用水淘過子粒堆於濕地上	-12.6724
正月自朔暨晦可移諸樹竹漆桐梓松	-12.6724
港并鮎魚口等處洩昆承之水以注	-12.6724
為始向外繳耕終此一	-12.6724
爾雅曰薃侯莎蓑衣以	-12.6724
物或設機械而就假其力或用挑浚而永	-12.6724
用江河之水為器一種龍尾車記	-12.6724
用驚蟄前後五日斬新枝	-12.6724
留精然要其終皆有所除是也	-12.6724
畢如前法塗之既畢而兩	-12.6724
皮如常法水潤緝搓如前麻	-12.6724
砧厚者稍剡其周之上下如鼓木當其剡	-12.6724
稍弱其砧之徑以氊罽之屬皮革之屬附	-12.6724
者約留四五條鋤治添糞條有定數葉不	-12.6724
耕所有就上覆草為	-12.6724
與衡在上樞之末者則中樞而設之頸以	-12.6724
花條其上多刺葉似牛尾菜葉	-12.6724
葉就地叢生葉長三四寸四散分垂	-12.6724
變三分第二日變七分却用	-12.6724
車起水者次之或再車三車之田又為次	-12.6724
開十五箔擡飽食二十箔大眠擡三十箔	-12.6724
隨之也提柱之降也實取者挹水而升	-12.6724
雨㸃兒菜生田野中就地叢生其莖脚紫	-12.6724
食經曰種名果法三月上旬斫	-12.6724
作葅及乾者九月收	-12.6725
黍稷稻粱禾麻菽麥	-12.6725
碌	-12.6725
用令汗瘡白痂時	-12.6725
綈	-12.6725
蒿艾簟盛之良	-12.6725
児	-12.6725
苓黄耆知母貝母	-12.6725
生之異灰兒蠶秋母蠶秋中蠶老秋兒蠶	-12.6725
篸	-12.6725
黄花結實似豆角狀味苦酸鹹性寒無毒	-12.6725
一邊皆同此法泥訖仍以紙裹頭麻	-12.6725
内其蜂自然食之又力倍常至	-12.6725
可以青徐論宜於荆揚者不可以雍豫擬	-12.6725
草雞或一隻或二隻退毛不用肚腸懸掛	-12.6725
隙穴具槌持箔籠	-12.6725
一升好酒一升夏著日中冬則温	-12.6725
一色白苧麻水潤分成縷	-12.6725
上之兩足後踏屋壁以胸前向壓住兩手	-12.6725
上箔防塵埃	-12.6725
不待車扇又勝箕簸田家便之	-12.6725
也其編之也欲密而平也其塗之也欲	-12.6725
令潰破即愈不治必死也	-12.6725
出芽條旱則頻澆立夏之後不宜此法	-12.6725
劐子第一遍即成溝子	-12.6725
在土中故不成溝子第二遍加擗土木	-12.6725
墢猶塊也起其墢者鑱也覆其墢者壁也	-12.6725
大類亦各從其便也	-12.6725
家園圃亦多栽種樹髙丈餘葉似櫻桃葉	-12.6725
故鑱引而居下壁偃而居上鑱	-12.6725
有志於勤民者宜倣宋主此意通行南北	-12.6725
柱依螺旋之線而立之每立一柱即與軸	-12.6725
為木杖如拐子兩手倚之以用力以趾塌	-12.6725
皆可便食是用接新代飯充飽	-12.6725
絲老翁上清絲約十五絲之上	-12.6725
纒刀子露鋒	-12.6725
良不能得肉肝只用屎耳	-12.6725
苗根之下則泥沃而苗興其功與芸	-12.6725
金凡十有一事耕之土曰墢	-12.6725
錛	-12.6725
雖膏潤根復細小七月初種根葉俱得	-12.6725
麥種别名異而世人以為一物	-12.6725
鼻下燒之使烟入馬鼻中須臾即	-12.6725
一年可為深惜古人云木奴千無	-12.6725
一枝弱者所接樹選其向陽細嫩枝如筯	-12.6725
下中央兩齒平十三	-12.6725
下六齒盡臼十二	-12.6725
之又束之者水力大而易渫也四曰中筩	-12.6725
之法而架之而升降之	-12.6725
也井上立架置軸貫以長轂其頂嵌以曲	-12.6725
交轉所懸之器	-12.6725
任為馬鞭胡牀	-12.6725
兩岐張君為政樂不可支	-12.6725
八分者平分度也軸之兩端卧其軸各作	-12.6725
其批豁了處如一	-12.6725
即去地七八寸截之若砧小而	-12.6725
堪緝為度水潤緝績紡作纑生	-12.6725
大難悉數内而京師外而列郡至於邊境	-12.6725
如軸長一丈則徑八寸如本篇第一軸立	-12.6725
寅盤足也若欲為雙升之車則雙筩焉如	-12.6725
尖紋皺却少	-12.6725
庸人之性率之則自力	-12.6725
强此謂弱土而强之也	-12.6725
後循隴碾過使根土相	-12.6725
性上跳故須深也	-12.6725
惟所為之既畢以瀝青和蠟或和熟桐油	-12.6725
或蓄為陂塘以資灌溉安有旱暵之憂哉	-12.6725
撏	-12.6725
春大豆次植榖之後二月中旬為上時	-12.6725
曰力一水二者一升一降各得水一焉無	-12.6725
架樞其上出其樞之末以受輪與衡也制	-12.6725
此制故官民異屬復有圩田謂疊為圩岸	-12.6725
此升則彼降用力一而得水二也是倍利	-12.6725
殷富百姓歌曰桑無附枝麥	-12.6725
氣折其出勢得三七日然後剖生養之謂	-12.6725
法有五水畜第一水畜所謂魚池也以六	-12.6725
為二此則合之又玉衡之水皆實取此有	-12.6725
焉氣盡而水繼之故曰衡者所以挈提柱	-12.6725
煅	-12.6725
熟山提小麥至粘弱以貢御有半夏小麥	-12.6725
牛者令畜豬投貴時賣以買牛始者民以	-12.6725
琪	-12.6725
甲過心線依法分之即上下合也次	-12.6725
相半桐油或漆和之取燥濕得宜而止累	-12.6725
稼穡不修桑果不茂畜産不肥鞭之可也	-12.6725
纒綆械也唐	-12.6725
者周禮樹八尺之臬縣八繩下垂皆附	-12.6725
者孔在環之内軸之外四柱之中	-12.6725
耕墾者於子熟時好子稍有零落者然後	-12.6725
茡	-12.6725
菜生田野中莖葉俱深萵苣色葉似大藍	-12.6725
葉揀擇浄煠熟油鹽調食	-12.6725
葉煠熟水浸去邪臭氣味油鹽調食	-12.6725
處令入五分其入須兩邊批所接枝皮處	-12.6725
酉亥之間為正方之空夾筩而	-12.6725
金剛刺又名老君鬚生	-12.6725
韭一剪一加糞又根	-12.6725
一一單排日數既足其蛾自生免熏罨	-12.6726
山人斫老松根取松	-12.6726
燃之以代油燭亦貧家之利	-12.6726
飣	-12.6726
至後七十日可種宿麥早種則蟲而有節	-12.6726
潢汙洄互壅積泥滓退皆成淤灘亦可種	-12.6726
至春凍釋於山陂河坎之旁刈取箕	-12.6726
九月中候近地葉有黄落者速刈之	-12.6726
失生熟之節所以特	-12.6726
晝合夜開者名守宫槐葉細	-12.6726
驚傷而稠疊	-12.6726
上下徐州厥土赤埴墳厥田	-12.6726
大小籠内匀鋪繭厚三四指許頻	-12.6726
用半竹篘長七寸	-12.6726
田惟中下青州厥土白墳厥田	-12.6726
軟了絲頭亦不要蒸得不及不及則蛾必	-12.6726
須内外泥飾材木以防火患復要間架寛	-12.6726
不可速也然則桔其植者而橰其俯仰者	-12.6726
之徑以其一為柱之徑	-12.6726
先於岸側掘成峻槽與車輻同	-12.6726
凡漆器不問真	-12.6726
向下裁切此桑夾之大者南方切	-12.6726
季春之月具曲植	-12.6726
寒第四年開花結實十月收摘甑内微蒸	-12.6726
柱之短長無定度以水之深也井之	-12.6726
然後立架安輪輪	-12.6726
糞朽以糞之則地力常新壯而收穫不減	-12.6726
紅色結小細子根如蒿根苗葉味苦性平	-12.6726
腐朽之物人視之而輕忽田得之為膏潤	-12.6726
隴底欲土實種易生也今人製造砘車	-12.6726
㨶	-12.6726
䕺	-12.6726
丑卯辰筩上端也午管也餘見	-12.6726
之弦弦五焉則句四焉股三焉過偃則不	-12.6726
之間縱有霖雨亦不能為害矣朝廷於此	-12.6726
也庚辛壬癸山口之木也寅提柱也綴之	-12.6726
亢之間是也雖下向必入者以迤故水趨	-12.6726
人乃用手掉轉	-12.6726
今汲用之家必有轆轤為綆設也	-12.6726
以樞之短長稱之八分其軸長以其一為	-12.6726
似艾香味微辣	-12.6726
似風花菜葉却比短小葉中攛葶分生莖	-12.6726
制中置巨輪輪軸上貫架木下承鐏臼復	-12.6726
則不匀非匀則偏食然葉	-12.6726
則用之是者暑日架之則以苫蓋之水入	-12.6726
匾開粉紅花結碗子蒴兒葉味甜	-12.6726
即前水轉筒車但於轉軸外端别造	-12.6726
即損其砧皮取快刀子於砧	-12.6726
去急耕十餘日又一轉	-12.6726
又似白芷葉亦細又如園荽葉	-12.6726
各庚心也以八平分之一為度者謂以甲	-12.6726
因不種不栽一年少	-12.6726
如麻地即於六月中旱時耬耩作壟	-12.6726
實棗兒樹本草名山茱	-12.6726
小肉紅花結蒴有子似小桃紅子苗葉味	-12.6726
截則地氣難應須以細齒鋸截鋸齒	-12.6726
承蠶具也禮具曲植曲即箔也周勃以織	-12.6726
拖脚車也以脚木二莖長可四尺前頭微	-12.6726
擺拖挽之患後中心枝既	-12.6726
方言曰趙魏之間謂之	-12.6726
既入之水而砧降焉則無復之也則上衝	-12.6726
易用南方萑葦甚多農家尤	-12.6726
暑日也為下而欲速成則用之欲解而時	-12.6726
梢間開淡紫花似刺薊花苗葉味辣	-12.6726
梢間開紫花結彎角兒中有子如黍米大	-12.6726
椽棧之懸於槌上至蠶分擡去蓐時取其	-12.6726
毛者老馬也四蹄欲厚且大四蹄顛倒若	-12.6726
添梯故車運以牽環繩繩簇	-12.6726
滿地省耕種之勞秋種者五月子熟	-12.6726
瀉一名芒芋一名鵠瀉	-12.6726
然後於壍中種蒔保澤	-12.6726
煠熟水浸作成黄色淘去涎沫油鹽調食	-12.6726
熒	-12.6726
王丹家累千金好施與周人之急每	-12.6726
用一牛挽之作止回旋惟人所便	-12.6726
秦雍之地所拒川水率用巨	-12.6726
種秔稻昔之秔稻惟秋一收今又有	-12.6726
第三日飼至二十餘頓	-12.6726
線附木皆平直是為八平分軸之周如立	-12.6726
纒綆於轂引取汲器或用雙綆而	-12.6726
芐	-12.6726
若溪岸稍深田在	-12.6726
莠數年之間可無荒	-12.6726
蓼作葅者長二寸則剪絹袋盛	-12.6726
蕎麥立秋前後漫撒種即以灰糞葢之	-12.6726
輪下輪半在水内各輪徑可四尺輪之一	-12.6726
農事有祈焉有報焉所以治其事也	-12.6726
連根取出就地鋪穧頗乾輕振其土以茅	-12.6726
量留一半將其外一半左右削兩刀子成	-12.6726
長一尺筒索之底托以木牌長亦如之通	-12.6726
院後或園圃間多種萑	-12.6726
隨長短掘壍停之經年	-12.6726
養蠶之法繭種為先今時摘繭一	-12.6726
取葉者皆七月半種地欲糞熟	-12.6727
不及時去草必為草所蠧耗	-12.6727
其旁田畮一斛以上令命家田三輔公田	-12.6727
彷彿稗子穗其子如黍粒大茶褐色味甘	-12.6727
多以為永業又中土大河之側及淮灣水	-12.6727
同為末毎服二兩	-12.6727
各因潮漲而成以地法觀之雖若不同其	-12.6727
賸	-12.6727
漿水調草後灌之	-12.6727
裹三度愈若不斷用	-12.6727
鏉	-12.6727
飲水後啖之不過三兩度即	-12.6727
灌下咽喉便效次以黄連末大	-12.6727
七置者因地勢也量物力也相大小而制	-12.6727
之八平分長線為直角如立柱	-12.6727
哆	-12.6727
如能依上法自然宜蠶不必泥	-12.6727
室必選置蠶宅負隂抱陽地位平爽正室	-12.6727
形坑底必令平正以足踏之令其保澤以	-12.6727
惡之事邪穢之氣辟除蠲潔夙夜齋敬不	-12.6727
於牆基之所方整	-12.6727
時注雨止候土白背復鋤如此則收必倍	-12.6727
柱之上端為之方枘而入	-12.6727
橇解者曰橇形如箕摘行泥	-12.6727
次東又次之若室舊則當	-12.6727
氣不入身無苛殃	-12.6727
洗者鹽醋浸潤氣徹則皺器便壞矣其朱	-12.6727
矣按世有落麥者秃芒是也又	-12.6727
等誘惑至使	-12.6727
繵	-12.6727
者甲與庚是也若車大而軸長出水之地	-12.6727
色生好粉黍米粥清亦用絹篩麥䴷末澆	-12.6727
苗生葉以上稍耨壠草	-12.6727
衡凡水之入也入	-12.6727
諾	-12.6727
開花白色結實黄白色作細筒子蒴兒	-12.6727
雊	-12.6727
首以縛秧日行千畦較之傴僂而作者勞	-12.6727
齒多則其出水也必疾矣故曰輪者所以	-12.6727
三嵗而一周也先王之制如此非獨以	-12.6727
三股通穿為一隨車長短如環無端索上	-12.6727
上下盡區如一受麥九	-12.6727
不實下種後雖見苗立根在	-12.6727
不知牛耕每致困乏	-12.6727
之開圍板之下端而水入之開上端之圓	-12.6727
九槽者先分軸為九平分欲作五槽十槽	-12.6727
于未申孔之上向丙而開闔之也辰午加	-12.6727
云此器出自海壖號曰耬鋤耬	-12.6727
以來盛資龍骨龍骨之制日灌水田二十	-12.6727
先分軸為十平分依法作之二曰	-12.6727
其枝須兩節兼須是二年枝方可接接時	-12.6727
凡五榖地畔近道者多為六畜所犯	-12.6727
凡瀝青加蠟與桐油取和澤而止石	-12.6727
出焉治水之法淺涸則挈水而入方舟焉	-12.6727
制頗同獨無耬斗但用	-12.6727
博碩肥腯不疾瘯蠡	-12.6727
卵卵七日又剖成蠶多養之此則愛蠶也	-12.6727
可生若諸色種子年年揀	-12.6727
圍也既其出則在卯寅辰午之間矣一法	-12.6727
地别作畦移栽臨移時隔宿先	-12.6727
如葵其根獨而直其樹不貴乎髙長其枝	-12.6727
委任以責成功	-12.6727
少皡氏之子曰	-12.6727
左右民之一事今世江南之民皆雜蒔諸	-12.6727
愛珍亦呼愛子績成繭出蛾	-12.6727
採嫩笋葉煠熟水浸去邪味淘	-12.6727
故以為名後於葉間攛生莖	-12.6727
新鄭山野中亦有之	-12.6727
是水恒入而不出也兩入而不出則溢	-12.6727
有小鋸齒開粉紫花黄心葉味甜	-12.6727
有田者共為之細溝則人各自為於其田	-12.6727
根經冬不死至春發苗味辛苦性温無毒	-12.6727
楥	-12.6727
水與此相類雖有水旱皆可救禦凡一熟	-12.6727
法作螺旋線也若作四槽者又平分庚午	-12.6727
瀝青和蠟依螺旋之線層層塗而積之累	-12.6727
用之則始終無慊矣	-12.6727
田千百餘頃利澤一方永無旱暵	-12.6727
男子兼作婦人童稚量力分工定為課業	-12.6727
町作溝溝一尺深	-12.6727
町皆廣一尺五寸長四丈八尺尺直横	-12.6727
皆平行皆相等也墨為之弦者從庚向癸	-12.6727
盡其變不盡方來或者無煩覼縷焉龍尾	-12.6727
細短深茶褐色故名拐棗味甜	-12.6727
縁新開地内草根既死無	-12.6727
縛定隨索列次絡於上下二輪復於二輪	-12.6727
者軸之長當一丈五尺也凡作軸皆度岸	-12.6727
自外繳耕至中心	-12.6727
花如菊結實頗似鶴蝨科苗味苦性寒有	-12.6727
花結角比蘿蔔角又大其葉味甘	-12.6727
莖方葉似荏子葉小頗細長	-12.6727
訖即編為巴籬隨宜夾	-12.6727
説文曰檟楸也然則楸梓二木相類者	-12.6727
費財用實無所益故表而出之以	-12.6727
軸之上因各螺旋之繩而立之	-12.6727
酉戌亦如之左右相	-12.6727
開三瓣小白花結	-12.6727
開挑而又時常巡視不使淤塞如此則旬	-12.6727
關西有鄭國白公六輔之渠	-12.6727
餘不惟本境足食又可	-12.6727
餺	-12.6727
齒兩邊黄各缺區平受米八	-12.6727
其生小隂中者少	-12.6728
樹千錢柴在外車板盤合樂器所在任用	-12.6728
五寸片竹也其上揉竹	-12.6728
魚半出鼓其出之中建柄半寸上承添梯	-12.6728
渇澤用鹿鹹瀉用貆	-12.6728
力不給而貪多務得未免茍簡	-12.6728
秋後泥乾地裂布掃麥種於上	-12.6728
短葉莖亦窄葉頭稍團形	-12.6728
六月雨後種菉豆八月中	-12.6728
與篅皆𥫱之别名但大小有差亦蓧	-12.6728
雨日將連取出通見風日那表為	-12.6728
髠二百樹五年一周	-12.6728
㺯	-12.6728
使之微濕槽盛而飽飼之	-12.6728
可以糞田疇可以美土疆	-12.6728
本輕而末重前緩而後急稼欲熟	-12.6728
漚之爛去青皮取其麻片潔白如雪耐水	-12.6728
爛可織為毯被及作汲綆牛索或	-12.6728
貯泥土狀如小磨仍以竹木排為密齒破	-12.6728
輪轉左手引絲上筒遂成絲繀以充織緯	-12.6728
壁濕潤非所利也夫締	-12.6728
挈水械也通俗文曰桔橰機汲水也	-12.6728
掃塵埃預期泥補若逼近臨時	-12.6728
桔結也所以固屬橰臯也所以利轉又曰	-12.6728
為開其資財之道也	-12.6728
者用秋耕地開春凍解地起有潤澤時急	-12.6728
一升一降是水恒入而不出也	-12.6728
上有短銎以受鋤鉤鉤如鵝項下	-12.6728
下上架横竹列環以引衆緒總	-12.6728
假令十日二十日未出者亦勿	-12.6728
入可以倍多財計可以倍足方	-12.6728
六十六石今人學種可減半計	-12.6728
則貪生費力細則貪熟少功	-12.6728
如斸是名钁鋤故陸田多不豐收今表此	-12.6728
嬰兒小時失乳後必羸弱病生	-12.6728
復時可至四十九頓第二日飼至三十頓	-12.6728
成樹之後歲收絹一	-12.6728
日夜不止絶勝踏車	-12.6728
本篇三圖之甲乙衡也丙丁兩石重也戊	-12.6728
柱之下端合之欲其固也砧之厚以其枝	-12.6728
濬則挈水而出畚鍤焉不有水之器不	-12.6728
煿	-12.6728
用之竊計人力可以半省天災可以半免	-12.6728
田舉皆用此江淮間雖有陸田習俗水種	-12.6728
神守八月内三神守神守者	-12.6728
科初生一莖莖端生	-12.6728
立輪立輪之外有受水之箑也今	-12.6728
箔遊走又風氣不通忽遇倉卒開	-12.6728
粒蕃息也諺云坐賈行商不如開荒言其	-12.6728
細淺則務盡草根深則不至塞墢	-12.6728
細績雖南北習尚不同然北方隨刈即漚	-12.6728
經架牽絲具也先排絲籰	-12.6728
者能捍大患者	-12.6728
舌之開闔而止以其聚合	-12.6728
葉間開花深黄色又有一種苗葉似芥葉	-12.6728
釋文云銍穫禾短	-12.6728
開黄花結實如橡斗而極小味澁	-12.6728
防風一名銅芸一名茴草一名	-12.6728
雨後又要調停犂道淺深	-12.6728
驟數百步亦佳十日一放令	-12.6728
􁇌	-12.6728
十月收蕪菁訖時收蜀芥	-12.6729
綫	-12.6729
桃熟時於牆南陽中	-12.6729
生田野間其苗初搨地生後分莖	-12.6729
圜𥫱泥塗其内草苫於上謂之露𥫱者	-12.6729
粞	-12.6729
饗農及郵表畷禽獸仁之至義之盡也	-12.6729
鮝	-12.6729
人屎令沸熱塗之即愈	-12.6729
墢也在園圃區田皆可代耕	-12.6729
柄長三尺餘後偃而曲上有横木如	-12.6729
火内燒棗一二枚先將蠶	-12.6729
瞿麥白芷牽牛子右件	-12.6729
仄	-12.6729
古雍州西羌地	-12.6729
形勢尤卑而東北際海岡隴之地	-12.6729
治野夫間有遂遂上有徑	-12.6729
稻收割畢將田鋤成行	-12.6729
苗葉煠熟水浸一宿做菜油鹽調食	-12.6729
九澮而川周其外焉	-12.6729
八月上戊社前為上時	-12.6729
即以鹽藏之蛾乃不出	-12.6729
夫稼為之者人也生之者	-12.6729
扉	-12.6729
比常韭易利數倍	-12.6729
稼之容足耨之容	-12.6729
者當在甲乙丙矣用水力當在戊	-12.6729
者軸與樞當受轂之處也辰入樞之空也	-12.6729
較之南方以鎌刈者其速十倍	-12.6729
上下著成齒四六	-12.6729
下三寸厚經宿牛以	-12.6729
之計莫若少倣遂人之制	-12.6729
五行書曰欲知蠶善惡常以三月三日天	-12.6729
以舞魚魚振添梯故絲不過偏	-12.6729
則可常熟惟近家瀕水為上其種不必牛	-12.6729
又有所謂撻者與勞相類齊民要術云春	-12.6729
及臘八日浴時無令水極凍浸二日取出	-12.6729
土而弱之也春候地氣始通	-12.6729
地乎宋太宗詔江南之民種諸	-12.6729
塍内開耕畢便撒稻種直至成熟不須薅	-12.6729
子者取其速肖之義也凡接枝條必擇其	-12.6729
宜麻亦生熟有節	-12.6729
就内簇之亦可如此則上有	-12.6729
年中四破為杖	-12.6729
廣三寸則甲丁長六寸也半徑為孔者	-12.6729
故不用勞其耕種陸地者	-12.6729
料南北之間去短就長制此良法	-12.6729
斡	-12.6729
春雨難期必須藉澤蹉跎失機則不得矣	-12.6729
柱也鍊銅或	-12.6729
桑果以接博為妙一年後便可獲利昔	-12.6729
此立輪之法也然亦當視其水勢隨	-12.6729
水棘針苗又名山油子生田野中苗	-12.6729
水為渠以資沃灌按史記秦鑿涇為渠又	-12.6729
涷	-12.6729
溠	-12.6729
甚速凡汲於井上取其俯仰則桔橰取其	-12.6729
甾	-12.6729
矣砧又下焉水將安之則由筩之管而升	-12.6729
稀布稠則强者得食弱者不得食必	-12.6729
窨	-12.6729
竇泄水器也又名函管以瓦筒兩端牙鍔	-12.6729
竟軸而止則得一螺旋線也單線則為單	-12.6729
箑而卧軸為之轉接輪與	-12.6729
箕内堆聚多時蠶身有汗後必病損漸漸	-12.6729
結實如葶藶子赤	-12.6729
者無鶴膝無斗板器居水中環轉而已湍	-12.6729
而耙之欲其土細再	-12.6729
至子外纒之至丑至寅至卯至辰斜纒軸	-12.6729
薟	-12.6729
踐便溺成糞平旦收聚除置院内堆積之	-12.6729
速眠不惟眠起得齊且無葉罨燠熱之病	-12.6729
量黄白分數抽減所飼之葉漸次細切薄	-12.6729
钁墾斸又便貧難大率一家五口可種一	-12.6729
長筩旁管之徑等中筩之下端為敞口以	-12.6729
閉其罅而噏之凡井淺者實取焉井深者	-12.6729
開黄花結子如菉豆大生則青熟紅色味	-12.6729
隂陽家拘忌巫覡	-12.6729
隅足也可無厚既合而入	-12.6729
青沙良地三徧熟耕	-12.6729
鹽水中洗菜即内甕中若先用淡水洗者	-12.6729
􁂶	-12.6729
三日則紅而裂遇雨薄攤當風處頻翻若	-12.673
劃	-12.673
向外側嵌坑内	-12.673
在室可用盛種皆農家	-12.673
宜頻冬月用土深擁根株其枝梢用草包	-12.673
稀連必頻移生盡之後再秤空連便知蠶	-12.673
引江潮流行於岡隴之外	-12.673
樹三升無蠶矢以溷中熟糞糞之	-12.673
江由東以入於海而又	-12.673
紅花菜本草名紅藍花一名黄藍	-12.673
䔩	-12.673
一二尺莖方四楞對分莖	-12.673
之孔融錫而合之其長無定度量水之出	-12.673
之異云耳江沔之間謂之籅	-12.673
云筍皆四月生唯	-12.673
五分其筩之徑以其一為柱之徑砧之合	-12.673
以油單覆之勿令見風風吹則堅筍味甘	-12.673
但用直項鋤頭	-12.673
兩端者丙與戊是也在軸之兩端者乙與	-12.673
八月燥耕而熯之以種二麥其法	-12.673
其本身無銖兩之重且交纒相發可以	-12.673
則麻皮潔白柔韌可績細布南方但連根	-12.673
土性所宜因隨氣化所以	-12.673
地生葉似山白菜葉	-12.673
大澤平曠而用風此不勞人力自轉矣枝	-12.673
孔等孔之上為之舌以掩之舌之制如筩	-12.673
年二月得鯉魚長一	-12.673
建於寅方日月㑹於營室東井昏見於	-12.673
建星辰正於南由此以	-12.673
徑等其上出之徑寧縮也無贏也水之入	-12.673
旋覆花一名戴椹一名金沸草一名盛椹	-12.673
架木立軸置二卧輪其上	-12.673
每耕一徧蓋兩徧最後	-12.673
淇衛之間謂之牛筐小者南楚謂之簍	-12.673
焉如本篇一圖甲	-12.673
然桔橰綆短而汲淺獨轆轤深淺俱適其	-12.673
眠之法謂抽減眠蠶之葉不致覆壓	-12.673
與薑能殺其毒	-12.673
薄澁枝葉間開黄花結子	-12.673
西川唐鄧多有栽種成就懷州亦有舊日	-12.673
諺曰穄青喉黍折頭	-12.673
車於内車之踏軸外端作一竪輪竪輪之	-12.673
輪即以卧輪之接輪交	-12.673
輪相發也疾徐之數與他輪相視者如乙	-12.673
遶九洲無窮自謂江湖也至	-12.673
金稜銀線素根紫稭莖	-12.673
長一用短用長者為實取之柱用短者為	-12.673
雙提者水所由代升也注曰砧形如截	-12.673
雙溝者則平分庚丑線得午從午外上向	-12.673
食品之中最為珍貴故禮云加豆之實筍	-12.673
餙	-12.673
壟漫散即再勞之明年春生有草	-12.6731
車之左端置環繩其前尺有五寸當	-12.6731
竹夾鼎耳縛樞於	-12.6731
集說陳氏仁錫曰	-12.6731
濠	-12.6731
岔	-12.6731
芓	-12.6731
負國恩而違親養	-12.6731
檗	-12.6731
房屋椽箔人力柴薪俱各不給因而兩失	-12.6731
生當匀鋪蓐草	-12.6731
眤	-12.6731
箔上已後節節病生多因此弊今後比及	-12.6731
青橘皮當歸桂心大黄芍藥木通郁李仁	-12.6731
令四畔溝洫通水	-12.6731
度復提起其囊頭下即是清絲摘去囊頭	-12.6731
採取軟棗成熟者食之	-12.6731
生既齊取新葉用快利刀切極細	-12.6731
至春治取别種以擬	-12.6731
足踏其鑱柄後跟其鋒入土乃捩柄以起	-12.6731
㮣	-12.6731
中置耬斗其所盛種粒各下通足竅仍旁	-12.6731
拴	-12.6731
王以下陪祀各官俱	-12.6731
用漆在燥熱及霜冷時則難乾得隂濕雖	-12.6731
菜茹有畦𤓰瓠果蓏殖於疆	-12.6731
難成造其制兩柄上彎髙可三尺兩足中	-12.6731
𬒳	-12.6731
三月既績出蛾取卵七八	-12.6731
下則易濁上端所至出井之上度及	-12.6731
中重頭沈下自然周正皮薄易生	-12.6731
之心在乙丙線之上也二孔㨊圓者如酉	-12.6731
九頓或三十六頓懶者頗疑煩冗予曰新	-12.6731
也斟酌焉而為之度或銅錫之中筩裁數	-12.6731
也欲密管之孔合	-12.6731
也管之容其圜中規管之下端抒之以合	-12.6731
云引竹法隔籬埋貍或猫於	-12.6731
便剖卵蠶生多養之是為	-12.6731
兩端皆有接輪今以其一交	-12.6731
其上以竹木焉續之竹木之筩之徑必與	-12.6731
則當掘地成池或甃以	-12.6731
南方水田泥耕其田髙下濶狹不等以一	-12.6731
即兹器所在不為無功已獨其人終	-12.6731
原再也天文辰為馬蠶書蠶為龍精	-12.6731
叉亦多又似漏蘆葉却	-12.6731
取之柱實取之柱其砧入	-12.6731
國以民為本民以食為天	-12.6731
如無日不見雨蠶大善	-12.6731
孔欲利而無罅樞紐之動也欲不滯凡水	-12.6731
孔無相背也紐居左則管居右舌其合	-12.6731
尤忌西南風起大傷蠶氣可外置	-12.6731
居庶物也四物者備斯成器矣更為之機	-12.6731
後多白殭每擡之後箔上蠶	-12.6731
截其疄洩利其水謂之腰	-12.6731
方言云炊䉛謂之縮	-12.6731
日出後掘深土取之半折取鞭根旋得投	-12.6731
李衡於武陵龍陽洲上種柑	-12.6731
架槽而灌之或迤而建之以當龍尾恒升	-12.6731
極多花叉又似風花菜葉	-12.6731
毨	-12.6731
水之淺深常令塊墢半	-12.6731
水而升降焉其長之度下及	-12.6731
滌膩最良角與刺俱堪入藥亦物之利益	-12.6731
漚浸漬也池猶泓也	-12.6731
熟木𤓰食之多食亦不益人	-12.6731
砧可無厚無厚則輕餘見玉衡篇三曰衡	-12.6731
竹笋八月生盡九月成都有之	-12.6731
筩之長無定度下端所至居水之中已上	-12.6731
箕而小前有木舌後有竹柄農夫收穫之	-12.6731
管管之上端亦抒之既樹之則與筩之	-12.6731
糞或豆餅壅之	-12.6731
者少養之愛蠶者故	-12.6731
者所以束水也水所由上	-12.6731
而南土水田支分櫛比國計民生于焉是	-12.6731
而掉之車輪隨轉則衆輻循槽刮水上岸	-12.6731
與平地無差不爾者土堅澤流長物	-12.6731
蓌	-12.6731
量水淺深者下文言句四股三弦五則岸	-12.6731
鏇	-12.6731
鐵三五斤以泥封之便開花結子	-12.6731
二實足供美燭之費也	-12.6731
相接置於塘堰之中時	-12.6731
近上則水竭故柱之短長宜量水深與井	-12.6731
関	-12.6731
陽物大惡水故蠶食而不飲	-12.6731
􁑞	-12.6731
山田利於水源在上間有流泉飛下多經	-12.6732
利後世加巧因借身重以踐碓而利十倍	-12.6732
移連入蠶房就地一箔上單鋪少間	-12.6732
一以此知古之採桑皆用	-12.6732
然北俗伐桑而少採南人採桑而少伐嵗	-12.6732
盱	-12.6732
三月上旬傍雨種之麻生布葉鋤之率九	-12.6732
之逼之也則上衝而壺之舌為之開以入	-12.6732
也欲其無罅也既成以	-12.6732
兩轅可容一牛用一人牽	-12.6732
如本篇二圖甲乙丙丁形是也	-12.6732
注曰趵突泉水上出也一曰雙筩	-12.6732
為雙環而交纒束之當其合而錮之	-12.6732
與人均也勿使太勞	-12.6732
三四尺莖方窊面四楞對節分生枝	-12.6732
之圜孔為之舌以	-12.6732
即下樹栽樹大者須以木扶架若根不動	-12.6732
器皆有便巧率十二夫為田一井一屋故	-12.6732
圖之乙丙是也二孔者未申也酉	-12.6732
實曝之蠶時農家兼用為	-12.6732
已三禮圖曰筥受五升盛饔餼之米致於	-12.6732
插枝者二三月檜芽蘖動時先熟	-12.6732
撒種而生所種之子初収者未實近霜者	-12.6732
時旋打旋揚與蠶沙相和辟蟲傷資地力	-12.6732
月之間即載糞糞地	-12.6732
水激立輪其輪輻之末復作小輪輻頭稍	-12.6732
油鹽調食老葉兒樹生	-12.6732
為筍旬外為竹也	-12.6732
然後可視梯檻長廣得所制雖不等道路	-12.6732
用戽斗控以雙綆兩人掣之抒水上岸以	-12.6732
結子如菉豆大熟則黄茶褐色其葉味甜	-12.6732
維南有箕載翕其舌故箕皆有舌易	-12.6732
車隨轉倒水上岸此是卧輪之制若作立	-12.6732
靭	-12.6732
館良耜詩曰載筐及筥左傳筐筥錡	-12.6732
之注曰專一也架法見恒升篇恒升車記	-12.6732
乙輪即以卧軸之接輪交	-12.6732
井田變古後世則引	-12.6732
凡川澤之水必開渠引用可	-12.6732
厚實者蛾出第一日者名	-12.6732
堅厚倉卒不能生也種藕法春初掘藕根	-12.6732
夾脊摩之熱而已氣勞者緩繫之櫪	-12.6732
常得數人之功又向所言風與水能敗龍	-12.6732
度視廣之度殺其十之二當其弇而設之	-12.6732
本篇一圖酉戌亥角是也其	-12.6732
灌畦治田致為利益矣若為之複井井之	-12.6732
箕是也三曰壺鍊銅以為壺壺之容半加	-12.6732
紴	-12.6732
苗多近水傍初生大如紅花葉	-12.6732
葉及嫩莖煠熟水浸淘浄油鹽調食	-12.6732
頭平重磨處尖鋭泥乾時擲於	-12.6732
頭著魚池泥中種之當年即有蓮花	-12.6732
中管之轉以車下直錢眼謂之鏁星	-12.6733
蘆管管長四寸樞以圓木建	-12.6733
土相其宜以為之種	-12.6733
不出為上若有先出者	-12.6733
五上以方木管之立柱各通一軸軸端俱	-12.6733
人掉軸一人喂上棉英二軸相軋則子落	-12.6733
以三十年之通制國用	-12.6733
八日浴時無令水極深浸浴	-12.6733
挈古樂府云羅敷善採桑	-12.6733
農書云無鐴而耕曰耩既鋒矣固不必耩	-12.6733
一手撮捻清絲一手用漏杓	-12.6733
作煎餅配蒜	-12.6733
半其筩之長以為之徑下有	-12.6733
去稍葉作稀泥於	-12.6733
咿	-12.6733
壺水勢盡而彼舌開則此闔矣是代入	-12.6733
尖開白花似李子花結實比櫻桃又小熟	-12.6733
形類桃様極小有子似蘿蔔子取之易迸	-12.6733
長於辰老於巳死於午惡於	-12.6733
食或作湯餅謂之河漏	-12.6733
䵄	-12.6733
上管以受上樞戊也下管以受下樞	-12.6733
之舌者方版方版之旁為之樞	-12.6733
光俊又似山格刺葉却小味甘	-12.6733
凡輪皆以他輪之齒發之其疾徐之數	-12.6733
大暑中伏後可收芥子七月八月可種芥	-12.6733
大車考工記曰大車牝服二柯鄭	-12.6733
所有蠶神室蠶神像宜	-12.6733
擇治淨洗沸湯煠即出於水中淨洗	-12.6733
狀先以杖刺泥成孔插檜枝於孔中深五	-12.6733
百本䪥五十本葱一畦韭家二母彘五雞	-12.6733
砢	-12.6733
窄小面有細紋脉	-12.6733
箕星好風謂主簸揚農家所以資其用也	-12.6733
老時值雨者則壞繭	-12.6733
蓐紙上務要匀薄	-12.6733
通俗文曰張絲曰柅	-12.6733
酸棗樹爾雅謂之樲棗	-12.6733
䆫	-12.6733
之則無用筩也若江河泉澗索水之處過	-12.6733
利澇則閉閘拒江水之害旱澇不及為農	-12.6733
功出水當五分之一今省十九焉是不憂	-12.6733
地既遍則用耙勞覆之又頗省力	-12.6733
恒升之法而架之而升降之其得水也當	-12.6733
採筍之法視其叢中斜	-12.6733
時住食起齊時投食此為抽飼	-12.6733
暎	-12.6733
此北方種麥之法南方惟用撮種故	-12.6733
煩用力少而得水多其大者一器所出若	-12.6733
甬	-12.6733
輒耕輕土弱土望杏花落復耕耕輒	-12.6733
銅以為砧圜者中規方者中矩砧之大入	-12.6733
陽木生山南者隂木生山北者冬	-12.6733
脚躡合常澆令濕至十月祛倒以土覆	-12.6733
即内牛糞中頭向上取好爛	-12.6734
易鏵耕熟地見功多然北方多用鏵南方	-12.6734
鋒與耩相類今耩多用	-12.6734
暖知時開掯得法使之莫有先後	-12.6734
而薄翻覆可使老農云開墾生地宜用鑱	-12.6734
割蜜天氣漸寒百花已盡宜開蜂	-12.6734
物者備斯成器矣更為之機	-12.6734
鏵與鑱頗異鑱狹而厚惟可正用鏵	-12.6734
半焉如雙筩共容四升則壺容六升也弇	-12.6734
百一十日秀秀後六十日成忌與大麥同	-12.6734
其亦因九州之别土性之異視其土宜而	-12.6734
凡耕作三壟中間相去各二	-12.6734
圖曰大筐以竹受五斛以盛米致饋於聘	-12.6734
家田所須種子多少	-12.6734
小筐以竹受五升以盛米又曰筐以盛熬	-12.6734
常變之或異又當推測晷度斟酌先後	-12.6734
是矣然按月農時特取天地南北之中氣	-12.6734
氐其亢氐線必長六尺氐房線	-12.6734
秋上酸棗熟時收於壟中	-12.6734
線自上樞之末亢作垂線而兩線相遇	-12.6734
而同於生物生物之性雖同而所生之物	-12.6734
膠柱鼓瑟之謂若夫逺近寒暖之漸殊正	-12.6734
舌之樞悉係焉而開闔之左右相禪也當	-12.6734
草一名蜀脂一名百本一名王孫	-12.6734
雖丈許之木可活仍須芟去繁枝	-12.6734
渠焉累接而上可使在山是不憂	-12.6734
焉如本篇一圖甲乙丙丁圓筩也丙丁其	-12.6734
然耙勞之功非但施於納種之前	-12.6734
田築為堤塍而出之計日可盡是不憂潦	-12.6734
筩短長斟酌焉而為之數筩之下端為之	-12.6734
簑	-12.6734
辛卯管也辰午未申之屬環也環之多寡	-12.6734
蔽日旱則頻澆常須濕潤至秋後去棚長	-12.6734
愷	-12.6735
庥	-12.6735
長二百四十步為畝百畝為頃	-12.6735
甓	-12.6735
而上溢其終無出也而有筩之容以俟其	-12.6735
亦薄花開白色結子紅紫色附枝莖而生	-12.6735
則無蟲以刀斧班駁敲打樹身則結實此	-12.6735
祕	-12.6735
之其根即死而易朽又有經暑雨後用牛	-12.6735
二尺餘就地叢生葉似酸漿子葉	-12.6735
以手按實令土種相	-12.6735
尺留一根必須稀穊均調行五條直相	-12.6735
村野之間水陸相間	-12.6735
此南方淹繭法用甕頗多	-12.6735
猥	-12.6735
礲糠亦得夏月稀冬月稠然後種竹	-12.6735
窖上栽樹大至合抱内若變	-12.6735
筍四月五月食苦竹筍	-12.6735
線俱為一直線也求正尚有軸端諸線可	-12.6735
縱遇根株不至擘缺妨誤工力或地	-12.6735
著即枯死月庵種竹法深	-12.6735
類棠梨葉但厚結果似木𤓰稍團味酸甜	-12.6735
不鮮明上盤不通明為惡材少氣不	-12.6735
中色欲得紅白如火光為善材多氣良且	-12.6735
之節不至差謬此又圖之體用	-12.6735
井量井淺深筩長短而置之近上	-12.6735
人與天合物乘氣至則	-12.6735
令食食常飽則無不肥	-12.6735
安能以有其民哉明主知其然也故務民	-12.6735
思患而預防之如嚮年壬辰戊戌	-12.6735
恒得水而止近下	-12.6735
斸黄土地成畦下水飲畦一	-12.6735
方孔也庚辛壬癸方筩也壬癸其	-12.6735
春詔后帥外内命婦始	-12.6735
椄	-12.6735
機骨欲舉上曲如懸匡馬頭	-12.6735
歉之際但依此法種之皆免	-12.6735
漏蘆一名野蘭	-12.6735
玉衡之雙筩與中筩為二此則合之筩入	-12.6735
用溜竹二莖兩端俱出一握許以便扛移	-12.6735
脣欲得緩上脣欲得方下脣欲得厚而多	-12.6735
臘八日新水浸菉豆	-12.6735
葉中攛葶上開紅白花根苗味苦	-12.6735
虇	-12.6735
論語一簞食之簞	-12.6735
諺曰旦起騎榖日中騎	-12.6735
駒齒死矣口吻欲得長口中色欲得	-12.6735
鮪	-12.6735
鴝	-12.6735
為米六斗大半斗曰粲又曰糲	-12.6736
米一石舂為九斗曰糳	-12.6736
米之精者斯古舂之制自杵臼始也	-12.6736
子生函谷川谷及巴西河東皆有今古崤	-12.6736
梭通俗文曰織具也所以行緯之莎	-12.6736
不勤思慮不用而	-12.6736
生衣厚潤徹膠便皺動處起發颯然破矣	-12.6736
絡車方言曰河濟之間絡謂之給	-12.6736
類五味子其核仁味甘性温	-12.6736
似甜𤓰瓣而色紅味甜酸	-12.6736
兩徧至來春地氣透時待日	-12.6736
平隔宿用水飲畦明旦細齒	-12.6736
斛先投柴棘燒令其土焦燥然後周以糠	-12.6736
每區深一尺用熟糞一升與區土相和布	-12.6736
焉今立一試法視一圖軸兩端諸分線以	-12.6736
無雨時至便可下種	-12.6736
牛轉翻車如無流水處	-12.6736
瓮内收藏至第三日	-12.6736
蔓故也若以理慎	-12.6736
蕊	-12.6736
行内隔一區種一區除隔空外可種六百	-12.6736
躡及摘時不慎翻動其	-12.6736
輪之制但去下輪置於車傍岸上用牛拽	-12.6736
之動而蹂之則眠	-12.6736
之勢也五曰盤鍊銅或錫以為盤中盤之	-12.6736
五葉排生一莖開白花結子大如豌豆熟	-12.6736
亦可遏止如遇隈岸盤曲尤宜周折以禦	-12.6736
其圜中規其方中矩而上下等筩之周以	-12.6736
地畢破其塊墢而後用勞平磨乃為得也	-12.6736
埂岸農家瀕溪	-12.6736
小竹開花如牽牛花青碧色似小鈴形様	-12.6736
山野中其苗葉初作地攤	-12.6736
必立此檻其竇乃成	-12.6736
晁錯曰聖王在上而	-12.6736
時與惡芻飽時與善芻	-12.6736
曰凡耕之本在於趣時	-12.6736
書謂湯有七年之旱伊尹作為區田	-12.6736
極大五花叉鋸齒尖其後葉中分生莖叉	-12.6736
樞之頂心為度次去乙	-12.6736
樞之頂心者即樞直也如將自轉者	-12.6736
浪併作洄流不致衝	-12.6736
田家小渡舟也或謂之舴艋	-12.6736
篇三圖之坎艮庚辛是也上出之徑必縮	-12.6736
置篩過細糞或拌蠶沙	-12.6736
頻飼以督其後者使之相及而各取其齊	-12.6736
附草木上葉似黒豆葉	-12.6736
亦安骨石其斸根栽者亦圓布之安骨石	-12.6737
其數六其味鹹其臭朽其祀行祭先腎	-12.6737
也凡桑者欲得逺揚枝葉引近就摘故用	-12.6737
五月盡七月九月中每經	-12.6737
内蠟盡為度要知其年	-12.6737
小光澤四五葉攅生一處結𤓰如肥	-12.6737
微薰其蜂自然飛向前去若怕蜂	-12.6737
渥漉精熟然後踏糞入泥盪平田面乃可	-12.6737
用薄荷葉嚼細塗在手	-12.6737
風蟲水旱十年之内儉居五六安可不預	-12.6737
不及茍有能反是者則又愛之太恩憂之	-12.6737
及至霜下葉乾子乃盡矣	-12.6737
名角蒿一名莪蒿一名蘿蒿	-12.6737
堀	-12.6737
子其置也若棄則其天者全而其性得矣	-12.6737
稗既堪水旱種無不熟之時又特滋茂	-12.6737
薄小色青莖方節節開小白花結子	-12.6737
謂之蹠鏵今謂之踏犂亦耒耜之遺制也	-12.6737
蹕	-12.6737
一曰相馬氣發口中欲見紅白色如穴中	-12.6737
上端為之管管外出而下迤也本廣而末	-12.6737
八月種二麥豌豆節次為之不可貪多夫	-12.6737
又謂之卧牛判竹或用藤蘿或木條編作	-12.6737
大也為蛹為蛾則變之尤大而至	-12.6737
宜風燥之種時就浸水内又其便也	-12.6737
封畛之别地勢遼絶其間物産所宜者	-12.6737
山野中小科苗就地叢生苗	-12.6737
得少食以接氣血也以後者方眠勒其食	-12.6737
欲正赤上理文欲使通直勿令	-12.6737
泳	-12.6737
為成人遂好耕農相地之宜宜榖者稼穡	-12.6737
結嘴不食而眠如人之大病周身之	-12.6737
齒左右蹉不相當難御齒不周	-12.6737
身者皆其所自出也	-12.6738
長梯梯不長則髙枝折正謂此也	-12.6738
頭及身上截或	-12.6738
人家多於山野古窯中收取	-12.6738
人見漆器暫在日中恐其	-12.6738
圓様南方判竹編草或用籧	-12.6738
多比之南布或有價髙數倍者真良法也	-12.6738
少子若無茇處豎乾柴亦得	-12.6738
掃除常淨不令他物所侵	-12.6738
槅	-12.6738
苗直引無多槃岐故	-12.6738
行占地一尺五寸該分五十行長一十六	-12.6738
一尺許莖梗細弱葉似牡丹葉	-12.6738
下澤車田間任載車也古	-12.6738
以餓又必待後者動起而飼之多病少絲	-12.6738
口農家用貯穀種庋之風處不致鬱	-12.6738
四五尺莖上有小刺葉似大葉胡枝子葉	-12.6738
孔以當中筩之上端融錫而合之盤	-12.6738
尖開黄白花結果如杏大	-12.6738
徑以其四為孔之徑若方筩而圜孔七分	-12.6738
惡者其一株上有七八根生者悉皆斫去	-12.6738
排如車輪様有六	-12.6738
旦視而暮撫已去而復顧甚者爪其膚以	-12.6738
生莖紫赤色葉似栁葉	-12.6738
種漸鋤取賣供生菜也外舍無市之處一	-12.6738
維以竹草之索各倍其長過者掣索	-12.6738
者分田之制必有萊牧之地稱田	-12.6738
也果之一生者質小而味惡既一接之	-12.6738
狎	-12.6739
蛻	-12.6739
其蟲介其音羽律中	-12.6739
州記曰秭歸縣有屈原宅女嬃廟𢷬衣石	-12.6739
一截稍短而勁控以繩絃用彈棉英如彈	-12.6739
一而當四和氣去耕四不當一杏始華榮	-12.6739
人下掘或旁穿出土轉	-12.6739
但依此法除蟲災外小	-12.6739
先用鏺刀徧地	-12.6739
場圃同地自物生之時耕治	-12.6739
抽筳每筒牽紡易為匀細皆捲筳之效也	-12.6739
朱本和油性潤耐日故盛夏連雨土氣蒸	-12.6739
為䈰箕南曰䉛北曰䈰南方用竹北方用	-12.6739
竇似窖月令曰穿竇窖	-12.6739
箜	-12.6739
而滑今他處多用無節竹條代之其法先	-12.6739
語曰力能勝貧謹能勝	-12.6739
遇流水狹處但壘石斂水凑之亦為便易	-12.6739
食之餘者揀大蜜脾用利刀割下却封其	-12.6739
中筩之徑等管之長無定度其下迤也及	-12.6739
今俗謂之板轂車其輪用厚	-12.6739
似茴香開細白花結實似胡荽子	-12.6739
作神而化之使民宜之故謂之神農典語	-12.6739
圬	-12.6739
孔孔之方圜反其筩若圜筩而方孔七分	-12.6739
小其頭頗團味甜	-12.6739
庚也六曰衡軸直	-12.6739
性其本欲舒其培欲平其土欲故其築欲	-12.6739
相嵌斵成圓様就留短轂無有輻也泥淖	-12.6739
種八月熟出西方赤小麥赤而肥出鄭縣	-12.6739
管管外出而下迤也	-12.6739
箱即此車也周禮車人行澤者反	-12.6739
酉為三角形也酉戌柄也立之柄者立柄	-12.6739
餦	-12.6739
餭	-12.6739
取精集韻作簛又作簁或作篩其制有	-12.6739
古揚州南境牛女分野	-12.6739
欲開能走膝欲方而	-12.6739
端為可惜故蠶經云眠起	-12.6739
緞	-12.6739
衡而無定度圜其尾去首二尺而圜其	-12.6739
距骨欲出前間骨欲出前後	-12.6739
不見火者為白沙蜜見火者為紫蜜入	-12.674
夫麰麥播種而耰之其地同樹之時又同	-12.674
東宫舊事曰太子納妃有石砧一枚又𢷬	-12.674
柤再熬預先安排錫鏇或	-12.674
蕤	-12.674
下上之也七曰架架者所以居庶物也七	-12.674
凡木畫服翫箱	-12.674
在不搓揉了麻之骨力好灰水蘸	-12.674
壞合著隂潤之地雖欲愛慎朽敗更速矣	-12.674
小口而大腹竇小孔穴也故名竇	-12.674
屬雖不經夏用六七月中各須一曝使乾	-12.674
布子潔白而已雖曰蘸	-12.674
雨以布纒指揩令	-12.674
似王不留行子味辛苦性	-12.674
别窖北地土厚皆宜作此江淮	-12.674
勿令六畜入園二月食淡竹	-12.674
又種榆法其於地畔種者致雀損	-12.674
家院掃除蛛網及	-12.674
澤漆本草一名漆莖大㦸	-12.674
為木也無味水不受之變梁在其下	-12.674
菺	-12.674
蓷	-12.674
謂葉必萎黄又	-12.674
逺近彼此之間風土各有别也	-12.674
展側焉衡低	-12.674
甲乙丙丁盤也丙丁為孔以合	-12.674
儂	-12.6741
各盛冷水次傾蠟	-12.6741
在内凝定自成黄蠟以	-12.6741
制比麻苧紡車頗小夫輪動弦轉莩繀	-12.6741
成葦又壓栽法其葦長時掘地成渠將莖	-12.6741
方寸許内鹽於其中一夕子皆自落	-12.6741
稼月大火而浴種夫人副	-12.6741
詔立大司農司不治他事	-12.6741
入也梁居水中其木必榆榆	-12.6741
卯亥也辰乾也柱也當辰卯為山口者	-12.6741
帽	-12.6741
譙子曰朝發而夕異宿勤則菜盈傾筐且	-12.6741
車所由孔安而利用也故曰架者所以居	-12.6741
轔	-12.6741
農家所先雖南北名制不同而其用則一	-12.6741
陳思王曰寒者不貪尺玉而思	-12.6741
寸硬如石下欲深而明其後開如鷂翼能	-12.6741
提之柱其相去也視雙筩雙提之上枘入	-12.6741
焉提上下焉左右相	-12.6741
闌	-12.6741
泔及鹹水澆之則死性易	-12.6741
乃易以十二躡今紅	-12.6742
下蜜柤入鍋内慢火煎熬候融化	-12.6742
梯若不長未免攀附	-12.6742
機五十綜者五十躡六十綜者六十躡馬	-12.6742
蜂窠前置水一器不致渴損	-12.6742
餘摘之其有蜂王分窠羣蜂飛去用碎土	-12.6742
餘者割取作蜜蠟至春三月掃除如前常	-12.6742
之民以此代耕殆天茁此品以遺其利也	-12.6742
僱	-12.6742
圌	-12.6743
朘	-12.6743
月盡無雨則來月初必有風雨	-12.6743
髙平曰陸大陸曰阜大阜曰陵大陵曰阿	-12.6743
五穀不熟不如荑稗	-12.6743
籟	-12.6743
勞之功不至而望禾稼之秀茂實栗難矣	-12.6743
去芟平土壤也	-12.6743
磨之功今人呼耙曰渠疏勞曰	-12.6743
之也注曰衡之長本篇四	-12.6743
后妃齋戒親東鄉躬桑禁婦女毋觀	-12.6743
米多沃而食之彊	-12.6743
騁	-12.6743
鼕	-12.6743
服䖍曰一月之中又得夜	-12.6744
筒車流水筒輪凡制此車先視岸之	-12.6744
水上之足救三丈已上	-12.6744
熟時少有人馬傷踐以此校之甚宜多種	-12.6744
細軸穿籰措	-12.6744
車但以竹為之方圓不等特更輕便按舊	-12.6744
尺餘至春桃始動時徐徐撥去糞土皆	-12.6744
梁横亘焉梁之上為二陷以居雙筩之	-12.6744
之壬辛是也枘入	-12.6744
撥車其制頗肖麻苧	-12.6744
塋	-12.6745
炫	-12.6745
和藥調停灌下牽行抛糞即愈	-12.6745
逭	-12.6745
有一倍葉以此知科	-12.6745
樹之五麻若髙若下不擇疇所	-12.6745
二尺用竹篾均列四彎内引下座四繀紡	-12.6745
車座兩柱之間	-12.6745
令大旱能救一夫之田數家共井亦可無	-12.6745
以小衡為弦句股之交立之柄持其柄而	-12.6745
揄	-12.6745
若水力稍緩亦有木石制為陂	-12.6745
謂之天池以灌田稻日夜不息絶勝人力	-12.6745
農司諸公又慮夫	-12.6745
文如王火字欲得明鼻上文如王公五十	-12.6745
雙提者水所由代升也	-12.6745
倍始出閩建今欲傳之他方同趨省便	-12.6745
列四繀座上鑿置獨柱髙可二尺餘柱	-12.6745
線架以木為之下作方座長濶尺餘	-12.6745
如平原草萊深者至春燒荒	-12.6746
籰上然後紡合今得此制甚為速妙	-12.6746
草茂時開謂之䅖青可當草糞	-12.6746
之功因之廣織以	-12.6746
可當數人若以灌畦約省夫力五分之四	-12.6746
掛時須蠶子向外恐有風磨損其子	-12.6746
一人足供百家之聚矣且不	-12.6746
又名曰種蒔曰耩子曰耬	-12.6746
有黒白二種桑之精英盡在	-12.6746
桑椹樹本草有桑根白皮	-12.6746
餓流亡之患若資飲食則童	-12.6746
榆錢後方生葉	-12.6746
籽	-12.6746
元魯明善撰	-12.6746
暹	-12.6746
却視有態畏物喜驚馬耳欲得相近而前	-12.6747
布菜一行以䴷末薄坌之即下熱粥清重	-12.6747
牽引漸長右手均撚俱成𦂳	-12.6747
縷就繞繀上欲作線織置車在左再	-12.6747
􁈸	-12.6747
市大兇馬也馬眼欲得	-12.6747
得端正骨欲得成三角睛欲得如懸鈴紫	-12.6747
目中縷貫瞳子者五百里下上徹者千里	-12.6747
二千斛斛得米	-12.6747
於輪之一週水激	-12.6747
織機織絲具也按黄帝元妃西陵氏曰	-12.6747
之累接之法亦以接輪交而相發也	-12.6747
合三四五之句股法也凡圍板長一丈水	-12.6747
文曰軛轅前木也	-12.6747
立視其槁饑成	-12.6747
鞅板用控牛項軛乃穏順了無軒側	-12.6747
作琴瑟等絃清鳴響徹勝於凡絲逺矣	-12.6748
相從者所以省費燎火同巧拙而合習俗	-12.6748
三日抒出之粉黍米作粥清	-12.6748
伐逺揚士農必用云轉身運斧條葉偃落	-12.6748
厚一寸三百里三寸千里耳欲得小而前	-12.6748
外即謂以伐逺揚也凡斧所	-12.6748
與樵斧不同詩謂蠶月條桑取彼斧	-12.6748
良植者駑小而長者亦駑耳欲得小而促	-12.6748
人目下而多白畏驚瞳子前後肉不滿皆	-12.6748
八口之力晝夜勤動數	-12.6748
必長八尺也若迤建	-12.6748
惡若旋毛眼眶上	-12.6748
或藉桔橰似為便矣乃俛仰盡日潤不終	-12.6748
水度地制器者以此計之若水過深岸過	-12.6748
白從額上入口名俞膺一名的顱奴	-12.6748
聞三晉最勤汲井灌田旱熯之	-12.6748
䡄	-12.6748
嚥	-12.6748
滿土實又有種人足躡	-12.6748
輪板名曰斗碓又曰	-12.6749
不乏尤為上也然用斧有法必須轉腕回	-12.6749
津脉不出則葉必復茂故農語云斧頭自	-12.6749
遇枯枝勁節不能拒遏又為上如剛而不	-12.6749
閣於樁柱山口之内輪	-12.6749
之法多從綆缶饔飱朝夕未覺其煩所見	-12.6749
制之以曲木竅其兩旁通貫耕索仍下	-12.6749
用有遲速也古農法云耬種後用撻則	-12.6749
以板為級上用木槽引水直下射轉	-12.675
上下徹者千里目中白縷者老馬子目赤	-12.675
名曰承泣不利人目中五采盡具五百里	-12.675
外又作木圏縛繞輪上就繫竹筒或木筒	-12.675
氣也材知多白骨氣也材多	-12.675
者善奔傷人目下有横毛不利人目	-12.675
亦鬯茂燕趙及遼以東多	-12.675
軏	-12.675
倉斜擗水勢急凑筒輪其輪就軸作轂軸	-12.6751
髙則開渠卑則築圍急則激取緩則疏引	-12.6752
根無宿土者深栽	-12.6752
之此舊制以今較之頗拙於用故	-12.6752
今法寡力之家比耕耙耬砘易為功也	-12.6752
力也鑿石為圓徑可尺許竅其中以受機	-12.6752
旱且便於撮鋤	-12.6752
生荒野中葉似蒼术葉亦有團葉者有三	-12.6753
試之如手不禁熱可取去底扇	-12.6753
岫	-12.6754
命大酋秫稻必齊	-12.6754
槮	-12.6754
妬	-12.6756
軛相為本末不與犂為一體故復表出之	-12.6756
兩頭以木箄貫之後用手執為柄前用作	-12.6757
制稍短駕一牛或二牛故與犂相連今各	-12.6758
或三牛四牛其槃以直木長可五尺中置	-12.6758
耕槃駕犂具也	-12.6758
得時之麻必芒以長疎節而色	-12.676
廣東廣西雲南貴州	-12.676
諭大學士伊桑阿	-12.6762
莛	-12.6762
圮	-12.6764
之灰簸揚之糠粃斷藁落葉	-12.6765
从	-12.6766
䵀	-12.6768
睷	-12.677
櫜	-12.6771
麳	-12.6774
蠶事既登分繭稱	-12.6776
噭	-12.6787
以泥塗草稕上然後種子以細土及牛糞	-12.6796
肉入者必持薪樵輕重相分班白不提挈	-12.6832
徧舉世所名者荆與魯也荆桑多椹魯	-12.6856
温無毒食法採嫩葉煠	-12.6887
下就附地列置風竇令可啓閉以除濕欝	-12.6964
收穫如寇盜之至	-12.7362
嵗月皆得其用向之笑者咸求假焉	-12.7759
也嘗見北地芟取蕎麥亦用此具但中加	-12.8847
以鐵杷耬起下水加熟糞韭	-12.9142
中羊喜鹽自數還啖之不勞人	-12.9477
如或不忌後多乾死不生本草	-12.9836
當種麥若天旱無雨澤則薄漬麥種以酢	-13.0021
雞口槐兔目桑蝦蟇眼榆負瘤	-13.0144
熟早如近城郭摘豆角賣先可變物舊時	-13.1032
菽者衆豆之總名三穀各二十種	-13.1093
薄地刈取布地曝之乾乃挼取末瓮中盛	-13.1223
明下就附地列置風竇令可啓閉以除濕	-13.1346
老軍頭之類晚則有雁頭青寒露粟之類	-13.1552
趕麥黄百日糧之類中則有	-13.1552
噙少時取出印濕痕於横枝上	-13.1552
稻早糯烏糯白糯黄糯紅菱糯	-13.1558
䓝	-13.1564
大桐葉覆之乃鋪繭一重以十斤為率摻	-13.1566
六日可種葵中伏後可種冬葵九月作葵	-13.1572
淥	-13.1586
二三月種不結角者南北二面去地一尺	-13.1588
猗氏縣出大棗子如雞卵	-13.1589
錘	-13.1596
騴	-13.1596
驤	-13.1596
錬	-13.1599
驠	-13.1599
蹢	-13.1605
驓	-13.1605
益家白犬黄頭吉背白者害人帶虎	-13.1605
者吉黄犬前二足白者吉胸白者吉口	-13.1605
駹	-13.1611
熝	-13.1611
然南棗堅燥不如北棗肥美生於青	-13.1614
老䑕聞之自避藏露	-13.1614
鍛	-13.1618
鱔	-13.1618
一季五坎者捉二季七坎捉三季九坎	-13.1618
花朝口咬頭牲耳薄不畏寒毛色純白純	-13.1618
鳥駭䑕竄竊弄鋤梃	-13.1621
三月别小葱六月别大葱	-13.1621
􁟪	-13.1627
有九寸體色豐麗鳴	-13.163
藫	-13.163
耳欲小而銳如削筒相去欲促總欲	-13.1633
羆	-13.1633
璨	-13.1633
竭春草未生是故不佳其三四	-13.1636
逄寒遇熱故也其八九十月生者雖值秋	-13.1636
此月數生者毛必焦卷骨髓細小所以然	-13.1636
今官園種之以供宗廟祭祀	-13.1636
仐	-13.1636
徠	-13.1639
縣均紐庶幾百里之内輕重齊同	-13.164
東與青州相接青州有稻麥西與	-13.164
肉醤法牛羊麞鹿兎肉	-13.164
騇	-13.164
􁮐	-13.164
收子者别留之葱中亦種胡荽	-13.1643
祫	-13.1643
莫不震動恪恭於農	-13.1643
順天河間保定永平四府	-13.1643
隲	-13.1643
琉	-13.1644
撾	-13.1645
毫狗長喙獫短喙猲獢絶有力狣尨狗也	-13.1646
伶	-13.1646
其初已茂用之漸切以泔	-13.1646
易長也肥猪法用管仲三觔蒼术四兩黄	-13.1646
㯆	-13.1646
勝可通漕運及見查洎兀郎海古渠甚多	-13.1646
埳	-13.1646
小豆紅白黑三種菉豆匾豆豌豆管豆	-13.1646
蒫	-13.1646
鉚	-13.1646
糞漫散子於畦内如種菜法或單排	-13.1648
亦得凡六畜虱脂塗悉愈	-13.1649
四月毒草與茭豆不殊	-13.1649
支多者科圓大故以七八為率	-13.1649
尾隨象立名動以百計	-13.1649
嶇	-13.1649
覿	-13.1649
守敬更立牐堰皆復其舊	-13.1649
㫰	-13.1652
釵	-13.1652
者便益純白者能為怪勿畜之凡	-13.1652
取榆白皮水煑極熱令甚	-13.1652
臊	-13.1652
率皆精好與世絶殊不可同	-13.1652
菽有大黄大青大紫大黑	-13.1652
衾	-13.1652
十八日雲貴廣西總督鄂爾泰	-13.1652
篦	-13.1652
髙熱喘便令休息勿竭其力以致困乏	-13.1653
十月培築垣墻塞向墐	-13.1655
宜少近古限民名田以贍不足塞	-13.1655
年年稍廣間區斸取隨手還合但種數	-13.1655
而語之何必羔犢之	-13.1655
隨以滋長三也棄去不惜四也	-13.1655
􁐓	-13.1655
晢	-13.1655
鄆	-13.1655
二百里支渠大小六十八灌田九萬餘頃	-13.1655
今虎豆纒蔓林樹而生莢有	-13.1655
加授銀符副河渠使	-13.1655
授提舉諸路河渠	-13.1655
用樹皮封繫寛𦂳得所	-13.1655
縣南復入大河其間亦可灌田二千餘頃	-13.1655
則易㝷而採之五也冬有根可	-13.1657
搽	-13.1658
黄者吉足黄招財尾白者大吉一足白者	-13.1658
冬刺史聽審邦教之優劣定殿最之科品	-13.1658
歲春月各依鄉土早晚課	-13.1658
麴室具箔槌取净艾六日饌治五	-13.1658
䯑	-13.1658
剷	-13.1658
坩	-13.1658
嵬	-13.1658
楪	-13.1658
青豌白豌白眼紫眼羊眼	-13.1658
韁	-13.1658
韌可斟酌栽荆桑樹於大眠	-13.1658
一叢脚不宜頻那舒手	-13.1659
舵	-13.1659
葼	-13.1659
鮠	-13.1659
鮿	-13.1659
乳易厭既不守窠則無	-13.1661
之儲畜常裕不惟民力可紓而國計永保	-13.1661
運酌量改折助其費而究其功東南之	-13.1661
迆	-13.1662
偁	-13.1662
一渠經由新舊孟州中間順河古岸下至	-13.1662
既多矣種藝之時不得不加	-13.1662
樀	-13.1662
眚	-13.1662
蒼术令牛鼻吸其香止	-13.1662
績次及山東河南陜西等處地方將江南	-13.1665
捆	-13.1665
粟之為言續也續於穀也	-13.1665
茹三月則老不可食開小黄花四瓣	-13.1665
按桑身頂與地平擁周圍熟土令	-13.1665
撫百姓如家耕桑樹藝屋宇阡陌莫不躬	-13.1665
宜五種注五種黍稷菽麥稻	-13.1665
者剰而賣之用二萬錢為羊本必嵗	-13.1665
鈹	-13.1665
鶬	-13.1665
一頭至兩頭是疫即牽出以鼻吸之立愈	-13.1665
周尺漢劉歆尺建武銅尺宋祖	-13.1665
孕任欲止為其牝氣	-13.1665
蠺	-13.1665
㲼	-13.1665
不養榖非農不入農非水利不	-13.1665
仲冬之月牛馬畜獸有放逸者取之不	-13.1665
唾	-13.1665
水利六事其一中都舊漕河東至通州引	-13.1665
滇南水利於天下猶之彈丸	-13.1665
犬呌猪犬及舂聲又不用器淋灰不用	-13.1665
習水利巧思絶人世祖召見	-13.1665
自軫十二度至氐四度	-13.1665
奓	-13.1665
屣	-13.1665
川當歸紅花為細末以酒二升半煎	-13.1665
手㧞出就水洗根去泥約八九十根作一	-13.1665
南人而許其占籍諸凡招徠勸相俱許便	-13.1666
可燒灰染青紺雜色	-13.1668
綂	-13.1668
百五十日羊羔六十日皆能自活不復藉	-13.1668
即堅强難消不幸便	-13.1668
萬物始盛待雨而大故祭天	-13.1668
陸農師曰項短大腹曰瓠	-13.1668
食傷寒病矣試以此二餅置水	-13.1668
龍見而雩註建巳之月	-13.1668
割過處每一根盤周圍數芽出每一科可	-13.1668
本母子者瓜生數葉便結子子復早熟用	-13.1668
異制隋書載尺十有五等以荀尺為本大	-13.1668
魏後尺銀錯銅龠尺後周玉尺宋氏尺萬	-13.1668
五月中新雨後即接濕耬	-13.1668
牛欄中燒如燒香法如初覺有	-13.1668
自胃七度至畢十一度	-13.1668
豱	-13.1668
闉	-13.1668
和他米炊之甚香曰香滋	-13.1668
時烈日火氣在内入倉	-13.1668
村跳梁務至楊村還河以避浮雞	-13.1668
稻中秋熟曰閃西風初秋可蒔曰六十日	-13.1668
萬緡通州以南於藺榆河口徑直開引由	-13.1668
達泉引入城中分為三渠灌城東地	-13.1668
駩	-13.1668
室而緩其科税或選健卒而分建屯	-13.1669
雞頭八月中收取擘破取子散著池中	-13.1671
碍	-13.1671
冷無毒利水道止消渴	-13.1671
子雖爛熟氣香其味猶苦也	-13.1671
條豐美明年之葉自然早發而	-13.1671
瞪	-13.1671
酒引餅入水即爛矣	-13.1671
鍰	-13.1671
埭	-13.1671
過淮他若蘭茉莉之類亦千百中之一二	-13.1671
剛强之地辛辣而痩小	-13.1671
成良潤勿拔之拔之則土	-13.1671
朦	-13.1671
栻	-13.1671
注川曰谿注谿曰谷	-13.1671
深思逺慮為公家長計	-13.1671
大都種椹長遲不如壓	-13.1671
躱	-13.1671
凡早稻種秋初收藏當午	-13.1671
嗷	-13.1671
性細研一錢貼膜	-13.1671
朅	-13.1671
河可灌田三千餘頃其五	-13.1671
滏	-13.1671
漳二水合流處引水由滏陽邯鄲洺州永	-13.1671
用炒鹽并竹節燒存	-13.1671
瞽	-13.1671
縣物産稻之屬為赤早為白早為	-13.1671
輋	-13.1671
闗閉太急則其榖黏	-13.1671
駂	-13.1671
駓	-13.1671
騢	-13.1671
止三七日無衣乃停要須衣徧乃止出日	-13.1673
人事則人與時通物隨氣化非直為	-13.1673
寓之於物以假聲韻所以感陽舒而蕩隂	-13.1673
野前人有村南村北梧桐角山後山前白	-13.1673
榰	-13.1673
黿	-13.1673
日以後出者可用每一日所出為一等輩	-13.1674
為一輩猶可次三日者則不可為將來成	-13.1674
連上寫記後來下蛾時各為一等輩二日	-13.1674
改當其有者半賈而賣亡者取倍稱之息	-13.1674
是有賣田宅鬻子孫以償債者矣	-13.1674
考尺度按古者度以絲起隋志曰	-13.1674
滿則朝暮徤腎欲得小	-13.1674
暑雨不通白露枉相逢	-13.1674
若干度令知寒暖之宜以辨土物以興樹	-13.1674
鄠	-13.1674
拾爛柰内瓮中盆合口勿令	-13.1674
曰柰有白青赤三種張掖有白柰酒泉有	-13.1674
有馬伸橋夾林河而下城南則有别山舖	-13.1674
栰	-13.1674
皆碩大堅好異於常	-13.1674
者骨麤肉少如犍牛	-13.1674
薊州城北則有黄厓營城西則有白馬	-13.1674
㿋	-13.1674
中研令熱用泔洗蹄以糞塗	-13.1674
二兩和水五升灌之又治牛	-13.1674
以皂角末吹鼻中更以	-13.1674
占田七十畝女子三十畝	-13.1674
崐	-13.1674
有星在二十八宿丑位其來著矣謂牛生	-13.1674
用黄栢雄黄木鼈子仁等分為	-13.1674
疫而動頭打脇急用巴豆七	-13.1674
痒	-13.1674
種時毎石以數碗激	-13.1674
者火畜也其性惡濕利居高燥	-13.1674
螕	-13.1674
角三觠羷羳羊黄腹未成羊羜絶有力奮	-13.1674
酴	-13.1674
雱	-13.1674
鞋底拍尾停骨下	-13.1674
摳	-13.1676
可多食令人腹痛生柿彌冷尤不可多食	-13.1676
壓鑱之兩旁鑱之次曰	-13.1676
御製恭和聖祖仁皇帝原韻	-13.1677
惟土物愛厥心臧	-13.1677
迎來弔死問疾養孤長	-13.1677
菱秋上子黑熟時收取散著池中自生矣	-13.1677
蓮子堅黑者於瓦上磨蓮子頭令皮	-13.1677
䔇	-13.1677
夫郊祀后稷以祈農事也	-13.1677
或九葉五六月開細黄花成穗隨即結	-13.1677
枝於孔中選築孔使堅屋子置	-13.1677
胔	-13.1677
㴙	-13.1677
而紫色者謂之浮菱食之尤美	-13.1677
云誕降嘉種維秬維秠維穈維芑	-13.1677
月花色仍連着實七八月熟其色黃	-13.1677
穂瀛定懷汝晉昌州平定永康軍禾合穂	-13.1677
鏦	-13.1677
韭菜溝上素河下素河百餘里夾河皆可	-13.1677
之時而徒費功力於蠶忙之日	-13.1677
後一兩日復以土培其根則	-13.1677
中生榖數粒結果而已	-13.1677
之水峪寺及龍家務莊三河	-13.1677
兩栽兩穫者其再栽秧俗名晩	-13.1677
十日秀秀後六十日成成後忌與大豆同	-13.1677
夾隂流河而下至於隂流	-13.1677
過期老而長節即栽於	-13.1677
䝐豶幺㓜奏者豱	-13.1677
亦向時所謂土地不宜者也凡地方所無	-13.1677
令得飛出常多收秕稗胡	-13.1677
别築牆匡開小門作小	-13.1677
則盡發炎火大壊苗穗	-13.1677
取羝脂和鹽煎使	-13.1677
是昔無此種或有之而偶絶果若盡力樹	-13.1677
然又各有巧要以從省便凡欲儲貯務儉	-13.1677
茂而實不堅當取生新之土以	-13.1677
重民食也次而囷京下而窖竇世所共	-13.1677
頳	-13.1677
􁌊	-13.1677
以罩籠之如鵪鶉大還	-13.1677
數寸其榖未即沉下驟發狂風堆積一隅	-13.1677
桵	-13.1677
棫	-13.1677
祭牛宿及令各加蔬豆	-13.1677
韡	-13.1677
𤣥謂九穀無秫大麥而有粱苽	-13.1677
零則升又必槩以平之貧富皆不可闕者	-13.1679
其核云長成以接柑橘甚良	-13.1679
大者如升如𤓰俗呼為朱欒有	-13.1679
香欒閩中嶺外江南皆有之南人種	-13.1679
鋤芋宜晨露未乾及雨後	-13.1679
即卸落人罕見之一枝	-13.1679
開花成簇青白色二更開	-13.1679
周禮薙氏掌殺草冬日至而耜之鄭	-13.1679
而實堅栗也雖土壤異宜	-13.1679
嗽	-13.168
鎚	-13.168
哽	-13.168
三䳄一雄鴨五雌一雄鵝初	-13.168
也惟晉大始中中書監荀朂尺	-13.168
兩兩相差如蝶翅狀	-13.168
剗土除草故名剗兼體用而言也	-13.168
古物七品多合一曰姑洗玉	-13.168
布地桑法牆圍成園將園内地或牛	-13.168
度量衡靡有孑遺度無自起儒先所謂子	-13.168
悔	-13.168
秬黍中者徒有空言了無實驗心	-13.168
箧	-13.168
者曰犂鑱起其墢者也負鑱者底底實	-13.168
肥沃不待深耕仍火其積草而種	-13.168
葉扁而有尖光面如鏡葉下之莖有股如	-13.168
尨	-13.168
洄	-13.168
測其淺深以所接枝條皮肉相向挿之封	-13.168
瑕	-13.168
自根上留身六七寸其餘截去截斷處火	-13.168
刼	-13.168
或長或團或如龍爪虎爪或如猪耳刀䥥	-13.168
擇子下種出甲後即耘出小者	-13.168
壅及時無不獲利以之度凶年濟饑饉助	-13.1681
駽	-13.1681
兩頭山口卧受捲纑長軖鐵軸次於前地	-13.1681
深其耕而熟耰之其禾繁以滋予終年	-13.1681
田中生出寸許其名曰秧秧生三十日即	-13.1681
銓	-13.1681
音加支糓焦金黄䳺	-13.1681
㔍	-13.1681
一和草多料少第二比前草	-13.1681
之上以待時也南方平原田多一	-13.1681
之條甚疎又於所存條根之上	-13.1681
也磽埆之土信瘠惡矣然糞壤滋培即其	-13.1681
倌	-13.1681
僅留四眼餘皆去之其	-13.1681
十畝丁女二十畝次丁男半之女則不課	-13.1681
實耳古来蔬果如頗稜安石榴海棠蒜之	-13.1681
早秧一日無水即死此秧歴四五	-13.1681
晤	-13.1681
江東呼櫐爲藤似葛而	-13.1681
祼	-13.1681
絛	-13.1681
膏田插再生秧其秧清明時已偕早秧撒	-13.1681
落滋黏山豬怕八月黏	-13.1681
逢旱乾水溢不可插秧	-13.1681
黏在腴田則有細黏青	-13.1681
􁇖	-13.1681
作小瓣如半麻子隂乾之則成矣	-13.1681
成瘡不能騎坐如未破	-13.1681
無令出窠飼以燥飯	-13.1681
立標飄揚鷹俑則雀可	-13.1681
胰	-13.1681
謹視風定而後撒則沉	-13.1681
醋者淘之又以布袋絞汁即收取染紅勿	-13.1681
除糞穢若食秋露水草則生瘡齊民要術	-13.1681
同種其樹相望乃結實或雌樹臨水照影	-13.1681
為果皆可代糧其莖亦可暴收和米作	-13.1681
如作麥麴法三七二十一日開	-13.1682
乏牛犂舉此斸地以代耕墾取其	-13.1682
惟宜土工剡木為首謂之木杴可㩍	-13.1682
犂一遍如古耦耕之法即一事而兩得也	-13.1682
澤之地皆可用之蓋地既淤	-13.1682
脉亦通宜春種麰麥凡草莽	-13.1682
以給水火之齊今農家乃用煑繭	-13.1682
悄	-13.1682
以三十六尺而一得積二百四十	-13.1682
以二十五尺而一得積二百四十	-13.1682
四寸五分九釐六毫自之得積六十丈為	-13.1682
寸五分九釐六毫零自之得積六千尺為	-13.1682
成移就區種故其利亦薄其可不知此法	-13.1682
釐六毫零自之得積八千六百四十尺為	-13.1682
十八尺自之得積二千三百零四尺以今	-13.1682
曰罽賔有苜蓿大宛馬武帝時得其馬漢	-13.1683
陸機與弟書曰張騫使外國十八年	-13.1683
懷風時人或謂光風	-13.1683
樂遊苑自生玫瑰樹下多苜蓿苜	-13.1683
泥乾時擲於池中重頭沉下自然周正	-13.1683
皆可種逐旋食用秋社後二十日種於畦	-13.1683
玆	-13.1684
石春耕夏耘秋穫冬藏伐薪樵治官府給	-13.1684
以深淺為候水深則莖肥	-13.1684
如鑱而小中有髙脊長四寸許闊三寸	-13.1684
㼔	-13.1684
交阯武平興古九真有之也	-13.1684
熟時全房折取於屋下作廕坑坑内近地	-13.1684
祀以之為上盛貴其色味之美也	-13.1684
則成大蒜科皆如拳又逾於凡蒜矣	-13.1684
取次耘出存其大者令	-13.1684
接之上下兩頭以桑皮封繫𦂳慢	-13.1684
旁鏉其土下水三四升將桑	-13.1684
日熟耕作畦或耬種或漫	-13.1684
朧	-13.1684
瀕江近海之區定例十年	-13.1684
粥黏滑而甘此黍之有補於艱食之地	-13.1684
其刄如鋤而闊上有深袴	-13.1684
割根秈扁砂禾栗子秔順水拖蛇牙黏	-13.1684
土中長出身出土名為脚髙	-13.1684
浸八九日如前微見白芽	-13.1684
三日則不畏風凡死者皆尾風所致	-13.1684
凡稻旬日失水即愁旱乾夏種	-13.1684
浸三四日微見白芽如鍼尖大	-13.1684
潦已過六月方栽者其秧立夏播種撒藏	-13.1684
濃燒穰以湯沃之取汁以	-13.1684
犂土在田冬春二時皆無雨	-13.1684
萁爛皆長三尺此亦良法今之農不然但	-13.1684
隂也何謂亢如既穫之後	-13.1684
䝌	-13.1684
不失地利田又調熟遶	-13.1684
不耕天下必有受其饑者	-13.1684
中與水俱長莖丈餘正月布穀九月乃登	-13.1684
也桑三年後正長旺五	-13.1684
似蒜葉而頗窄狹又似肥韭葉微	-13.1684
作藤蔓而極長大盛者一二本綿被山谷	-13.1684
僆	-13.1684
其隨地建造前後左右段落務要酌量停	-13.1684
南向以四畝為率或地不足四畝者	-13.1684
墅	-13.1684
宂	-13.1684
山東河朔則異於是必留萌	-13.1684
巳時間上槽一頓可分三和皆水拌	-13.1684
廪實而知禮節此名著於民家者	-13.1684
後新桑茂盛養蠶斫桑時將舊桑根上只	-13.1684
早晚旱三種又有尖鼻烏尻鷓鴣臀又有	-13.1684
曦	-13.1684
根分出栽為行桑如此傳轉無有盡期	-13.1684
毫九絲三忽二微零自之得積二百四十	-13.1684
稻子或小米大麥不計煮熟先用磚	-13.1684
與伐高深廣各尺一	-13.1684
虵	-13.1684
西山隠居全真子陳	-13.1684
雞大者蜀蜀子雓未成雞	-13.1684
非此月數生者毛必焦卷骨	-13.1684
齕有小珠滿五者生卵多滿三者為次棧	-13.1684
藊	-13.1684
云大長者為柰圓者為林檎夏熟小者味	-13.1684
吳藍長莖如蒿而花白	-13.1685
核桃漚去青皮取瓤食之令人肥健	-13.1685
紅色子亦如蓼嵗可三刈菘藍葉如白菘	-13.1685
入水中不用停乆㝷宜驅出	-13.1685
轉三百餘匝停置蓋甕勿令塵汚良	-13.1685
中通神安魂魄續筋力爾	-13.1685
曰小豆不保嵗難得椹黒時注雨種	-13.1685
絲嘗讀秦觀蠶書云凡繰絲	-13.1685
豐而白深本草云雖辛不葷五	-13.1685
三伐廣六尺長六百尺以此計	-13.1685
其白瓤其浮上皴皮自去縳作小栞	-13.1685
於房上夜露晝曝如此五七日	-13.1685
有溪港大水倣此輪磨或作碓	-13.1685
濟世之竒術也陸轉連磨下用水輪亦可	-13.1685
熟油鹽調食生亦可食治病與本草菜部	-13.1685
碓具用搗茶葉然後上磨若他處地分間	-13.1685
計得面方六十尺自之得積三千六百尺	-13.1685
凡水田渥漉精熟然後踏糞入泥盪平田	-13.1686
簡便不勞抄劄勘㑹給納煩費	-13.1687
而此聲一布飢民雲集盜賊疾疫客主俱	-13.1687
種頃畝明立簿目所種	-13.1687
氾	-13.1687
秋不得避隂雨冬不得避寒凍四時之間	-13.1687
荳麥如極低鄉或近	-13.1687
取接條樹上眼外方半寸刀尖刻斷皮肉	-13.1687
悾	-13.1687
三足兩耳烹飪器也周禮烹人掌共鼎鑊	-13.1687
截斷元樹身去地五	-13.1687
泥或用灰糞爛草壅培旱則澆之有草則	-13.1687
漢書張騫外國得胡麻今俗人呼	-13.1687
灤河又蠶姑廟湧泉成河	-13.1687
約五尺先造地柎木框四角	-13.1687
繰絲之訣惟在細圓匀緊使無褊慢節核	-13.1687
釋名曰鏟平削也廣雅	-13.1687
青鄭齊趙州禾合穂及有一本三穂峩	-13.1687
魚躍離水面謂之秤水主水漲	-13.1687
鮮食之經日則不美惟蒜雖久而味不變	-13.1687
之後掘區移栽區北直上下栽成土壁壁	-13.1687
取梅極大者剥皮隂乾勿令得風	-13.1687
噪	-13.1687
繭湯甕絮者掣繩上轉	-13.1687
捱	-13.1687
候八九日秧青放水浸之糯稻出芽較遲	-13.1687
其法桑葉已生自辰巳間	-13.1687
包含融結以成發生之功	-13.1687
惄	-13.1687
瞳	-13.1687
絰	-13.1687
齊雨浸傷根地桑不要放出身只	-13.1687
也近年瀕湖之地多為兵卒侵據累土增	-13.1687
先以鹽水洗瘡後用麻油加輕粉調	-13.1687
入臼舂落外白穰篩出之蒸熟作餅下	-13.1687
剝時向上鑱之不傷枝榦剝下枝仍充燎	-13.1687
史才言浙西民田最廣而平時無甚害	-13.1687
在鉤内以竹木竿為柄刀著柄端令	-13.1687
墝觀地宜明詔期前後農夫以時均	-13.1687
常法同若於冬月用温水潤濕易為分擘	-13.1687
愁其不肥共母同圏粟豆難足	-13.1687
掘去添上糞土或澆過或得雨即復長	-13.1687
有赤糯白糯黄糯油糯烏豚糯	-13.1687
桑麻皆安其處由田之事也	-13.1687
毋使偏邪甚有基地不足三畝者	-13.1687
灉	-13.1687
熟黄根味苦性寒無毒枸杞為之使惡乾	-13.1687
田旱則據之以溉而民田不沾其利澇則	-13.1687
白下鹽米渾豉麻油炒之甚香美	-13.1687
皮俾頂根直生向下則根深	-13.1687
看則有狼犬之害懶	-13.1687
禺	-13.1687
竹木弓弧糶種麥糴黍栽種大蒜罌粟寒	-13.1687
羜	-13.1687
膝乾漆反烏頭救飢採根削皮至白處寸	-13.1687
舒卷提掇舒時連背向日曬至温不可	-13.1687
莊子長梧封人曰昔予為禾耕而鹵莽之	-13.1687
蒔早者用種須少插蒔遲者用種宜稍多	-13.1687
蔓菁諸般菜葱子大麥牡丹芍藥分	-13.1687
轟	-13.1687
魯桑斫飼蠶其絲少堅	-13.1687
夜合花葉黄丹乾薑	-13.1687
官員士人有行義者與本縣官同其出納	-13.1687
淩	-13.1687
漢武内傳西王母曰上仙之藥有	-13.1687
蹄中燒鐵箆烙之愈	-13.1687
量為加減啖後不得飲水至渴	-13.1687
東盧江燉煌之種為美	-13.1687
分六釐六毫六絲六忽	-13.1687
酈善長云淞江自湖東北逕七十里至江	-13.1688
今所尚然制造之法南北互有所長故特	-13.1688
耘爪之類是其變也至	-13.1688
地少土潤多有此等人力猶北方山田钁	-13.1688
李悝為魏文侯作	-13.1688
南簷下掘坑以礱糠鋪底將種放下稻草	-13.1688
悉皆無遺世人全房折	-13.1688
得種糧勝於全廢今特載之冀南北通用	-13.1688
棄也絞訖著甕器中以布	-13.1688
馬齒菜石灰一處搗為團	-13.1688
人家園圃中多栽苗葉根莖俱似	-13.1688
尤不可闕故以嘉量繼之	-13.1688
條與稈草相間作一束卧於向陽	-13.1688
正二月至八月亦可種根要理直泥要挨	-13.1688
種不求多唯湏良地	-13.1688
著空甕中以釡内炊湯及熱沃之令	-13.1688
其肉生以蜜熬作煎嚼之	-13.1689
飢貧不惟所費浩大有出無	-13.169
似杏有黄扁李有夏李冬李	-13.169
口入五湖皆謂此也三江即禹貢所指者	-13.169
家其服役者不下二人其能耕者不過百	-13.169
用之則知水陸之耘事有大功利在矣錢	-13.169
臣工詩曰庤乃錢鎛注錢銚也	-13.169
定軍禾異畝同穂汀州禾生三十六穂	-13.169
小而用有等差揆而求之其鋤耨鏟盪等	-13.169
禔	-13.169
訌	-13.169
松江太湖之間岸東則江	-13.169
以梅子核初成時摘取籠盛於突上熏之	-13.169
成矣調鼎和虀所在多入也	-13.169
書五量之法用銅方尺而圓其外旁有庣	-13.169
滑車下徹甕内鉤繭出	-13.169
種不求多唯須良地故墟新糞壞	-13.169
菲草生下濕地似蕪菁華	-13.169
萄顆大熟則紅黄色味甘酸	-13.169
術宋災樂喜為政使伯氏司里火所未至	-13.169
陲則先之薊鎮而諸鎮	-13.169
乃勝刈者牛力若少得待春耕亦得	-13.169
戎順安等軍興堰六百里置斗門引淀水	-13.169
文思索允臻其極嘉量既成以觀四國永	-13.169
曰今江東呼稷為粢孫炎曰稷粟	-13.169
負山則泉深而土澤控海則潮淤而壤沃	-13.169
車箱兩頭不透風日中間順臥樹身上以	-13.169
麄者更磨𢷬以細盡為限以方寸	-13.169
凡穀成熟有早晚苗稈有	-13.169
嵗嵗可鬻足供家費	-13.169
律尺宋則太府寺有尺四等又高若訥嘗	-13.169
愁其不肥共母圏粟豆難足宜	-13.169
既難並駕動作之間終不若用索之便也	-13.169
督同委官人等將蘇州府吳江長橋一帶	-13.169
索綯郭注云綯繩之别名	-13.169
綬	-13.169
至於山隈水曲轉折費力如山東及淮漢	-13.169
行無肥充之理将息失所有羔死之患也	-13.169
使烝民益種芋三年當大飢卒如其言	-13.169
各布封境酒脯之薦以相祈請願垂神力	-13.169
夏扈竊𤣥趣民耘苗	-13.169
徑容牛馬畛容大車涂容乘車一軌道	-13.169
得者為上梨雖治十收得一二也	-13.169
手團二寸半厚九分祝麴文	-13.169
曝欲得使乾然後内之其	-13.169
某年月某日辰朔日敬	-13.169
疏春扈鳻鶞相五土之宜趣民耕種	-13.169
盛著甕中塗頭至四七日穿孔繩貫日	-13.169
造作麥麴數千百餅阡陌縱横以辨疆界	-13.169
邛	-13.169
露傷麥但有沙霧用	-13.169
人云耕鋤不以水旱息功必獲豐年之收	-13.169
以淨竹箸不膩者良	-13.169
候至桑樹條上青眼微動時開穴	-13.169
儵	-13.169
入兩岸老土深與岸平名曰信樁此樁四	-13.169
到息米十倍本米之數	-13.169
則就溝中起生泥壅田嵗種蠶豆至春翻	-13.169
勝作餅作餅者不得乾令花浥鬱也又	-13.169
及生酪然不炒生蟲不得過夏乾漉二	-13.169
取雌雞勿令與雄相雜其	-13.169
土中法在禾苗初旺之時斷	-13.169
大禹之功不立而后稷之智不用禹決江	-13.169
屍	-13.169
彧	-13.169
後籠乾糞視苗之瘠者	-13.169
徧六月六日種鋤不厭多稠即	-13.169
户有願依此置立社倉者州縣量支常平	-13.169
摹	-13.169
擲一團著湯中嘗有酪味	-13.169
於兆庶如阜如山可有積於比户矣又所	-13.169
星月亦不肥矣糞屋之中鑿為深池甃以	-13.169
春生薹苗亦菜中上品四月收子打油	-13.169
月中作取好淳酪生布袋盛懸之當有水	-13.169
柿漆斫竹移植早梅橙橘枇杷牡丹雜事	-13.169
此因土材而以人力輔相之衰者	-13.169
毎石只収耗米三升	-13.169
民不足而可治者自古及今未之嘗聞	-13.169
民絶望於覬覦守分之士永免於凌奪矣	-13.169
法笨麴一斗殺米六斗神麴彌勝用神麴	-13.169
無聞焉捨本逐末賢哲所非日	-13.169
爾雅山丘别釋則丘	-13.169
甓勿使滲漏凡掃除之土燒	-13.169
疝	-13.169
盡復太湖舊迹使軍民各安田疇均利	-13.169
種將桑樹柔條攀至於地以泥壓於其上	-13.169
積而焚之沃以糞汁積之既	-13.169
米斛責與本鄉出等人户主執	-13.169
繁盛其剝刀長三四寸廣半寸形如却月	-13.169
至冬暮母乳已竭春草未吐是故不佳其	-13.169
芋根木𤓰花椒收藏醋	-13.169
苗根作羮或生醃或煠熟油鹽調皆可食	-13.169
藻等令近岸豬則食之皆肥	-13.169
蘆菔根實麤大其角及根	-13.169
貆勃壤用狐埴壚用豕疆㯺	-13.169
軔	-13.169
農語云蠶欲三齊子齊	-13.169
酪久停皆暍氣不如	-13.169
鋤竹園地是月防霧傷棗棗熟	-13.169
餘姚海堧之人種棉極勤亦二三尺一科	-13.169
齁	-13.169
􁣎	-13.169
狫	-13.169
猺	-13.169
本草圖經曰木似柰實比柰差圓亦有甘	-13.169
酢二種甘者早熟而味脆美酢者差	-13.169
本出魯山平澤今處處有之葉似韭而	-13.1691
又法於樹旁數尺許掘坑洩其根頭則	-13.1691
西則湖江東則大海也自慶	-13.1691
為胎謂之牽縭者較之車煑工拙懸絶矣	-13.1691
便糧道遂築此隄横截江流五十里遂致	-13.1691
之經七日便極清澄接取清者然後押之	-13.1692
呉越江浙川廣間出營道者	-13.1692
時要得披殘明年其枝葉益茂	-13.1692
礶	-13.1692
至三月間取出埋肥地待	-13.1692
足便止合醅飲者不復封泥令清者以盆	-13.1692
𥚹	-13.1692
以為民先前漢溝洫志白渠歌曰舉	-13.1692
朝霞不出市暮霞	-13.1692
淮南子曰禹之時天下大水禹執畚	-13.1692
犂鑱小而加銳其柄如耒首如	-13.1692
諺云朝霞暮霞無水煎茶主旱此言	-13.1692
一日一次換水浸經四五日取出爛搗研	-13.1692
三尺下實豆萁尺有五寸以糞	-13.1692
在樹隂下二月種之一種永生亦不須鋤	-13.1692
乾硬難分其績既成纒作纓子	-13.1692
五千一百八十四萬尺得一萬四千四百	-13.1692
力農然而不能使禾冬生豈其人事不至	-13.1692
收水九斗浸麴九斗當日即炊米九斗為	-13.1692
滿為限假令六酘半前三酘皆用沃	-13.1692
著蓆上攤之令冷挹取麴汁於甕中搦	-13.1692
和粉者亦有水没香以汁溲粉	-13.1692
徹齊棗遵羊棗洗大棗煑填棗蹶泄苦棗	-13.1692
麄白無光潤者别收之以	-13.1692
傳置之速然腐爛之餘色香味之存者無	-13.1692
為荔煎北方無此種自漢南粤以備方物	-13.1692
馳貢洛陽取於嶺南長安來於巴蜀雖曰	-13.1692
曰岷山之下沃野有蹲鴟	-13.1693
諸臣銜名監理和碩	-13.1693
李青皮李馬肝李赤陵李有餻李肥黏似	-13.1693
柰李離核李似柰有劈李熟必劈	-13.1693
鯨	-13.1693
单	-13.1693
一月見三白田翁笑嚇嚇又主殺蝗子	-13.1693
中滑不得停也莖大如箸皆可生食又可	-13.1693
冬天近晚忽有老鯉斑雲起漸合成濃	-13.1693
則此雨非但今日不至必每日如之即是	-13.1693
土之次曰五桀五桀之狀甚鹹以苦其物	-13.1693
天雲大片如鱗故云老鯉往往試驗各有	-13.1693
[...]
