<unk>	0
<s>	0
</s>	0
之	-4.06815
也	-4.36912
(	-4.71912
)	-4.77568
/	-4.7803
者	-4.8011
而	-4.89255
爲	-5.00626
以	-5.04426
其	-5.2616
有	-5.26469
則	-5.26681
不	-5.38196
)(	-5.39014
於	-5.41357
一	-5.51241
中	-5.60505
無	-5.6567
人	-5.66914
生	-5.72313
上	-5.75111
故	-5.7643
心	-5.83899
氣	-5.84527
神	-5.8952
天	-5.91487
是	-5.92056
此	-5.94408
曰	-5.94724
大	-5.96066
三	-5.9655
在	-5.97874
自	-5.9902
如	-5.99532
道	-6.00615
下	-6.00625
得	-6.00838
行	-6.08131
至	-6.09579
水	-6.10123
與	-6.13787
即	-6.14348
子	-6.14633
矣	-6.16434
日	-6.1994
見	-6.21118
乃	-6.21857
言	-6.22686
時	-6.26316
陽	-6.26471
二	-6.28643
五	-6.30218
金	-6.30537
出	-6.30544
眞	-6.32725
入	-6.32892
用	-6.34846
火	-6.39226
明	-6.39347
四	-6.40982
六	-6.41478
非	-6.42524
成	-6.43005
又	-6.44316
乎	-6.44747
所	-6.44779
若	-6.45135
後	-6.45433
内	-6.46432
謂	-6.46926
皆	-6.4744
身	-6.47572
焉	-6.48166
合	-6.48211
名	-6.52858
陰	-6.54262
九	-6.5436
精	-6.54404
相	-6.5453
作	-6.56506
同	-6.57207
可	-6.57449
亦	-6.5849
地	-6.6023
法	-6.60674
王	-6.61037
經	-6.61152
來	-6.61299
去	-6.62521
山	-6.62853
▁	-6.62859
當	-6.62965
君	-6.63932
七	-6.65116
事	-6.65117
從	-6.65637
于	-6.6586
復	-6.67585
常	-6.68623
化	-6.68639
能	-6.68789
風	-6.69018
形	-6.6984
玄	-6.70196
正	-6.70425
然	-6.70507
物	-6.70794
或	-6.72346
靈	-6.73924
外	-6.74941
通	-6.75444
主	-6.7563
多	-6.76303
知	-6.77649
令	-6.77901
方	-6.78795
及	-6.7952
玉	-6.8359
月	-6.83777
云	-6.83988
長	-6.84123
欲	-6.85082
今	-6.85897
病	-6.87193
處	-6.88053
先	-6.88979
我	-6.90778
取	-6.92047
光	-6.93023
分	-6.93168
木	-6.93169
元	-6.93361
本	-6.93877
八	-6.94749
耳	-6.94974
數	-6.95009
使	-6.95374
未	-6.95705
前	-6.96199
脉	-6.96525
土	-6.97137
清	-6.97984
體	-6.99103
性	-6.9935
年	-6.99916
丹	-7.00126
十	-7.01106
應	-7.01848
白	-7.01959
已	-7.01983
宫	-7.02055
星	-7.0206
居	-7.02355
死	-7.02616
受	-7.02916
因	-7.03492
門	-7.03509
開	-7.04703
將	-7.0505
小	-7.05181
書	-7.05375
夫	-7.05583
立	-7.05749
必	-7.05965
理	-7.06152
文	-7.06893
空	-7.08233
命	-7.08563
善	-7.09157
者也	-7.09524
天地	-7.09814
難	-7.10029
過	-7.10042
聲	-7.1029
安	-7.10371
仙	-7.10677
師	-7.10874
何	-7.13023
盡	-7.1304
歸	-7.14993
起	-7.15518
治	-7.15839
龍	-7.15852
食	-7.16261
存	-7.16371
寒	-7.16551
和	-7.16894
動	-7.17179
德	-7.17351
不可	-7.17637
兩	-7.17776
高	-7.18225
平	-7.18754
始	-7.18781
實	-7.19179
傳	-7.1962
虚	-7.19983
諸	-7.21162
石	-7.21958
少	-7.21988
字	-7.22487
雲	-7.22924
服	-7.22974
觀	-7.2298
運	-7.23074
世	-7.23336
色	-7.23604
定	-7.24166
象	-7.24449
還	-7.24631
流	-7.24759
右	-7.24948
變	-7.25149
意	-7.25474
萬	-7.25675
○	-7.26259
離	-7.26711
熱	-7.26725
雖	-7.2705
帝	-7.27141
藏	-7.28442
初	-7.28791
口	-7.29146
凡	-7.29661
重	-7.29815
飛	-7.30715
目	-7.31472
易	-7.31632
音	-7.31837
華	-7.32317
不能	-7.32477
會	-7.32816
發	-7.32911
位	-7.32956
公	-7.33104
藥	-7.33104
邪	-7.33342
黄	-7.33463
足	-7.33818
○)	-7.33839
絶	-7.34664
陰陽	-7.35124
說	-7.35373
骨	-7.35705
○)(	-7.35795
乾	-7.36147
度	-7.36463
散	-7.36504
符	-7.36657
更	-7.36739
微	-7.36807
吾	-7.36896
失	-7.37204
炁	-7.37523
求	-7.3778
便	-7.37954
向	-7.39725
不得	-7.39989
反	-7.40259
北	-7.40426
息	-7.40642
隨	-7.4119
深	-7.41339
日月	-7.41443
青	-7.41617
隂	-7.42119
修	-7.42217
周	-7.42361
蓋	-7.42389
守	-7.42451
衆	-7.42757
家	-7.42887
各	-7.43001
極	-7.43004
國	-7.43122
甚	-7.43385
頭	-7.43648
西	-7.43686
東	-7.43707
自然	-7.44547
須	-7.44623
終	-7.45053
思	-7.45789
俱	-7.46279
聞	-7.47372
血	-7.48
滿	-7.48082
歲	-7.48151
問	-7.49334
无	-7.49496
眞人	-7.49841
間	-7.49887
南	-7.49918
伏	-7.51142
論	-7.51314
情	-7.51374
既	-7.51554
臣	-7.51763
好	-7.5178
次	-7.51896
别	-7.51916
引	-7.52136
靜	-7.52143
而不	-7.52176
妙	-7.52473
樂	-7.52823
結	-7.5312
章	-7.53448
解	-7.53591
勝	-7.53731
景	-7.54344
之中	-7.5448
可以	-7.55449
交	-7.55576
故曰	-7.55624
赤	-7.55745
隱	-7.55796
所以	-7.55969
惡	-7.56083
功	-7.56094
轉	-7.5613
養	-7.56159
止	-7.56265
虎	-7.5636
著	-7.56707
十二	-7.57158
降	-7.57227
之氣	-7.57361
遂	-7.57777
猶	-7.58319
志	-7.58453
教	-7.58761
莫	-7.58777
全	-7.5909
春	-7.59217
盛	-7.60484
滅	-7.60828
宜	-7.6122
萬物	-7.61629
百	-7.62471
且	-7.63528
但	-7.64063
女	-7.6428
半	-7.644
左	-7.64574
之道	-7.64802
等	-7.64936
似	-7.6504
固	-7.65191
亂	-7.65792
節	-7.6619
為	-7.66399
圖	-7.67432
齊	-7.6762
腎	-7.67786
要	-7.67859
老	-7.68182
疾	-7.6823
哉	-7.68388
關	-7.68549
真	-7.68688
鬼	-7.68978
手	-7.69773
汞	-7.69862
除	-7.70479
五行	-7.70644
指	-7.71445
異	-7.71472
義	-7.71929
州	-7.72159
刺	-7.72508
並	-7.72667
聖	-7.72678
利	-7.72948
力	-7.72951
苦	-7.7309
首	-7.73686
千	-7.73768
積	-7.74028
衣	-7.74119
謂之	-7.74127
識	-7.74148
坐	-7.74413
信	-7.74575
不知	-7.7464
朝	-7.74682
爾	-7.74926
鉛	-7.75567
學	-7.7573
舉	-7.75891
注	-7.7598
遇	-7.76342
太	-7.76384
花	-7.76464
旣	-7.76985
直	-7.77179
遊	-7.77231
兵	-7.77523
授	-7.77619
廣	-7.77637
洞	-7.77929
進	-7.78186
却	-7.78216
官	-7.78779
虛	-7.79623
紫	-7.79733
名曰	-7.79849
肺	-7.79872
傷	-7.79949
惟	-7.7995
寶	-7.80363
獨	-7.80793
鍊	-7.80978
唯	-7.81035
天下	-7.8107
乘	-7.81144
致	-7.814
念	-7.81538
痛	-7.81545
坤	-7.81816
肝	-7.82351
註	-7.82355
愛	-7.82496
順	-7.82569
夜	-7.83026
語	-7.83258
都	-7.83312
民	-7.8343
海	-7.83681
加	-7.84049
永	-7.84674
卦	-7.84697
亡	-7.84774
篇	-7.85005
卷	-7.85137
遠	-7.85211
魚	-7.85474
馬	-7.85911
巳	-7.86039
殺	-7.86305
張	-7.86412
餘	-7.86539
浮	-7.87542
由	-7.87712
衰	-7.88563
魂	-7.88681
屬	-7.88832
益	-7.89085
照	-7.89187
制	-7.8977
斯	-7.90087
并	-7.90305
酒	-7.90391
尋	-7.91089
輕	-7.91304
勿	-7.91442
吟	-7.91561
室	-7.92149
共	-7.92202
悟	-7.9266
堅	-7.92831
脾	-7.93038
凝	-7.93325
留	-7.93726
之所	-7.93977
夏	-7.93993
禁	-7.94015
近	-7.94109
於是	-7.94128
退	-7.94308
以爲	-7.94776
根	-7.94939
鼎	-7.95414
秋	-7.95905
漢	-7.9602
畢	-7.96336
候	-7.96474
黑	-7.96596
害	-7.96852
壽	-7.97227
味	-7.97249
面	-7.97751
臨	-7.97826
依	-7.98005
古	-7.9817
李	-7.98621
損	-7.98849
任	-7.99281
福	-7.9933
强	-7.99427
消	-7.99535
急	-7.99559
也故	-7.99613
感	-8.00921
士	-8.01062
母	-8.01067
己	-8.01097
視	-8.01345
/○○○○)	-8.0159
之時	-8.01623
所謂	-8.01703
雨	-8.01964
切	-8.02018
毛	-8.02048
幽	-8.02195
忘	-8.02203
貴	-8.02207
登	-8.02363
是也	-8.0282
豈	-8.02838
寳	-8.02935
上下	-8.02973
稱	-8.03088
奉	-8.03202
太上	-8.0371
宗	-8.04301
長生	-8.04427
久	-8.04527
了	-8.04622
乾坤	-8.0483
彼	-8.04833
具	-8.04895
塵	-8.0493
肉	-8.05026
機	-8.05292
(/	-8.05362
神仙	-8.05541
持	-8.05758
到	-8.05945
胎	-8.06413
香	-8.07261
達	-8.07354
水火	-8.07515
就	-8.07524
液	-8.07575
榮	-8.07749
裏	-8.08008
被	-8.08259
對	-8.08333
喜	-8.08507
執	-8.08665
保	-8.0879
如此	-8.09394
訣	-8.09485
閉	-8.0955
興	-8.09866
恐	-8.09914
代	-8.10082
逆	-8.1026
素	-8.10344
呼	-8.10871
望	-8.11316
覺	-8.11514
親	-8.1154
府	-8.11677
汝	-8.11969
陳	-8.12104
路	-8.12152
走	-8.123
許	-8.126
聖人	-8.13274
造	-8.13388
憂	-8.13562
智	-8.13574
隂陽	-8.13655
珠	-8.13679
變化	-8.13846
落	-8.14049
是謂	-8.14182
城	-8.14564
是以	-8.15049
然後	-8.15099
草	-8.15337
告	-8.15493
奇	-8.15523
冬	-8.1559
尚	-8.15895
坎	-8.16225
五藏	-8.16296
秦	-8.1637
禮	-8.16865
父	-8.16994
返	-8.17008
斗	-8.17532
休	-8.1766
收	-8.17757
中有	-8.18466
吉	-8.18537
迷	-8.18829
含	-8.18836
辰	-8.1914
報	-8.19312
宿	-8.19413
舌	-8.19419
十五	-8.19559
施	-8.19754
號	-8.19906
備	-8.20005
左右	-8.20021
漸	-8.2006
布	-8.20152
先生	-8.2032
圓	-8.20675
武	-8.20806
艮	-8.21134
閑	-8.21447
⬤	-8.21652
敗	-8.21948
太一	-8.22031
住	-8.22398
請	-8.22506
胃	-8.22523
賢	-8.22589
是爲	-8.22839
其氣	-8.22858
太陽	-8.22976
甲	-8.23108
夢	-8.23135
巽	-8.23479
金丹	-8.23781
温	-8.23821
每	-8.23936
鼻	-8.24008
朱	-8.24057
破	-8.24447
泄	-8.24564
他	-8.24656
術	-8.24676
之法	-8.25053
按	-8.25123
穴	-8.25158
妄	-8.25168
而爲	-8.25186
之後	-8.25291
眼	-8.25323
氏	-8.25865
業	-8.25873
沉	-8.25918
司	-8.26018
期	-8.26062
林	-8.26271
願	-8.26286
迴	-8.2642
河	-8.26543
聚	-8.26576
再	-8.26717
曲	-8.26772
顯	-8.26803
窮	-8.26941
飲	-8.26987
疑	-8.27193
爭	-8.2744
谷	-8.27975
容	-8.27979
濟	-8.27985
十一	-8.28471
大道	-8.28551
驗	-8.28719
器	-8.28802
鳥	-8.29075
羽	-8.29282
假	-8.29293
比	-8.29373
兼	-8.29542
看	-8.29582
客	-8.29803
元氣	-8.30033
勞	-8.30037
想	-8.30125
車	-8.30176
牛	-8.30224
調	-8.3069
果	-8.3119
宻	-8.31259
魏	-8.31399
昔	-8.316
孔	-8.31756
造化	-8.32066
衛	-8.32179
封	-8.32237
而成	-8.32256
尊	-8.32427
美	-8.32442
俗	-8.32732
愈	-8.3279
新	-8.32841
啓	-8.33043
補	-8.33195
辛	-8.33251
太極	-8.33262
混	-8.33409
移	-8.33447
皇	-8.33619
井	-8.33715
伐	-8.3394
魄	-8.34002
而生	-8.34188
建	-8.34374
經云	-8.34378
部	-8.34451
之上	-8.3447
列	-8.34498
臺	-8.34646
十六	-8.34692
震	-8.35014
剛	-8.35035
只	-8.35232
祖	-8.35366
源	-8.35423
甘	-8.3547
斷	-8.35573
升	-8.35797
還丹	-8.36218
午	-8.37014
凶	-8.3702
驚	-8.37248
採	-8.37569
步	-8.37843
仰	-8.37918
質	-8.38066
救	-8.38303
盈	-8.38339
十四	-8.38365
兆	-8.38869
四時	-8.38951
角	-8.39183
筋	-8.39286
毒	-8.39309
歌	-8.39541
江	-8.3955
夫人	-8.39568
聽	-8.3962
二十四	-8.39648
至于	-8.3977
/○○○	-8.39806
生於	-8.39848
砂	-8.40059
放	-8.40063
劉	-8.40185
細	-8.40212
耶	-8.40274
類	-8.40338
晋	-8.40787
境	-8.408
陵	-8.40924
乆	-8.41175
人之	-8.41244
陽氣	-8.41364
種	-8.41747
針	-8.41783
計	-8.41849
上清	-8.42161
刻	-8.42289
煉	-8.42427
二十	-8.42488
無所	-8.42508
烏	-8.42723
葉	-8.43104
一日	-8.43216
威	-8.43219
龍虎	-8.43317
兮	-8.43334
適	-8.43347
申	-8.43379
某	-8.43613
厥	-8.43888
不及	-8.44101
早	-8.44109
齋	-8.44163
鼓	-8.44299
十三	-8.4431
戒	-8.44336
載	-8.44441
記	-8.44543
十八	-8.44564
昇	-8.44573
之間	-8.44631
絡	-8.44929
而已	-8.44941
詩	-8.44957
誰	-8.4513
誠	-8.45208
仁	-8.45362
辭	-8.45553
羅	-8.45648
集	-8.45962
寧	-8.46022
之人	-8.46069
紅	-8.46237
録	-8.46807
忽	-8.46943
良	-8.4697
災	-8.46988
爐	-8.47019
充	-8.47053
卧	-8.47093
禍	-8.47241
姓	-8.47387
梁	-8.47682
三元	-8.47689
遺	-8.47913
縣	-8.47937
遍	-8.48377
/○○○○)(	-8.48386
房	-8.48393
參	-8.48585
楚	-8.48928
差	-8.49134
薄	-8.49186
脫	-8.49213
露	-8.49336
不足	-8.49398
御	-8.49612
田	-8.49662
縁	-8.49708
黄帝	-8.49975
患	-8.50291
少陽	-8.50353
連	-8.50776
澤	-8.50899
背	-8.50975
之下	-8.51013
笑	-8.51201
總	-8.51206
三十	-8.51376
證	-8.51434
謝	-8.5146
舍	-8.51551
濁	-8.51564
延	-8.51584
表	-8.51599
侯	-8.52073
棄	-8.52077
尸	-8.52121
干	-8.52252
愚	-8.52443
商	-8.52525
旦	-8.52663
抱	-8.52769
待	-8.52777
覆	-8.5279
承	-8.52975
懷	-8.53306
也夫	-8.53307
之内	-8.53308
鳳	-8.53356
眞氣	-8.53368
危	-8.53379
煙	-8.53506
末	-8.53509
闕	-8.5376
罪	-8.53881
刑	-8.54134
冥	-8.54151
軍	-8.54203
陽明	-8.54253
釋	-8.54383
回	-8.54447
腹	-8.5445
師曰	-8.546
攝	-8.54686
循	-8.54751
拜	-8.5479
紀	-8.54823
潜	-8.54853
伯	-8.5486
冠	-8.54999
累	-8.55034
兔	-8.55119
寫	-8.55236
津	-8.55695
徃	-8.55764
逺	-8.5583
樹	-8.56008
卒	-8.56063
不見	-8.56101
縱	-8.56148
塞	-8.56413
序	-8.56437
皮	-8.56481
敬	-8.56734
寂	-8.56979
雜	-8.56998
道士	-8.57013
犯	-8.57041
丘	-8.57099
丁	-8.57174
帶	-8.57287
令人	-8.5736
超	-8.57379
奔	-8.57519
徒	-8.57524
履	-8.57546
趙	-8.57702
泉	-8.57772
而後	-8.57792
鳴	-8.58051
宅	-8.58111
條	-8.58243
爻	-8.58333
宣	-8.5891
殊	-8.58982
太陰	-8.59116
慧	-8.59237
一聲	-8.59243
三日	-8.59366
霞	-8.59382
况	-8.59477
犬	-8.59947
垂	-8.59995
蛇	-8.60025
喻	-8.60052
也其	-8.60071
柔	-8.60307
行之	-8.60467
火候	-8.6051
雪	-8.60801
逢	-8.6092
原	-8.60958
之數	-8.61084
庚	-8.6121
不同	-8.61217
鬱	-8.61312
竹	-8.6137
出入	-8.61395
吴	-8.61506
三年	-8.61508
端	-8.61887
瑩	-8.6196
攻	-8.62061
弱	-8.62074
佛	-8.62139
金水	-8.62193
輪	-8.62597
推	-8.62655
甲子	-8.62736
無爲	-8.62775
人也	-8.62943
厚	-8.62969
舊	-8.62998
賊	-8.63052
納	-8.63238
化爲	-8.63321
淫	-8.63408
得道	-8.63584
爲之	-8.63614
投	-8.63985
濕	-8.64101
)(/	-8.64107
冷	-8.64208
十七	-8.64589
接	-8.64847
蟲	-8.64902
駕	-8.64909
童	-8.65119
辰戌	-8.65168
資	-8.65633
寅	-8.65654
男	-8.65701
審	-8.65767
生死	-8.65794
越	-8.66251
天地之	-8.66296
吐	-8.6636
宰	-8.6641
至於	-8.66495
察	-8.66633
堂	-8.66743
契	-8.66842
晨	-8.66946
遷	-8.66952
往	-8.67041
專	-8.67238
政	-8.67308
勤	-8.67374
暴	-8.67551
老君	-8.67816
野	-8.68096
孝	-8.68183
五聲	-8.68306
君子	-8.68335
謀	-8.68342
宋	-8.68645
三十六	-8.68932
奏	-8.69114
兄	-8.69176
兊	-8.69337
悉	-8.69367
置	-8.69368
弟子	-8.69387
少陰	-8.69453
昏	-8.6966
碧	-8.69704
折	-8.69851
改	-8.69911
辰巳	-8.69947
内外	-8.69952
錬	-8.69958
孫	-8.70037
昌	-8.70311
户	-8.70436
燥	-8.706
丸	-8.70658
悲	-8.70708
英	-8.70763
卯	-8.70996
慮	-8.71009
五音	-8.71369
品	-8.71749
十九	-8.71863
□	-8.72007
三聲	-8.72078
增	-8.72139
迎	-8.72205
司天	-8.72234
有所	-8.72243
服之	-8.72282
奪	-8.72355
横	-8.72379
才	-8.72392
跡	-8.72449
十聲	-8.72605
簡	-8.72634
八聲	-8.72644
懸	-8.72676
庭	-8.72715
神明	-8.72716
者是	-8.72765
五色	-8.72773
寄	-8.72858
泰	-8.72933
約	-8.72949
四聲	-8.73167
二聲	-8.73295
獸	-8.73316
否	-8.73447
鼠	-8.73664
黄芽	-8.73715
蒙	-8.7385
九聲	-8.73926
逐	-8.74007
尺	-8.74074
謹	-8.74115
徹	-8.7433
産	-8.74517
畏	-8.74523
辯	-8.7468
映	-8.7477
父母	-8.7484
一年	-8.74905
怒	-8.74938
答	-8.74999
神氣	-8.75015
改元	-8.75211
膽	-8.75342
仙人	-8.75393
汗	-8.75419
龜	-8.75482
貪	-8.7552
丹田	-8.7579
精神	-8.75957
淵	-8.76012
壯	-8.76065
穀	-8.76163
鬼神	-8.76263
示	-8.76266
酉	-8.7628
負	-8.76326
速	-8.76368
狀	-8.76491
第一	-8.76535
腦	-8.76571
世人	-8.76685
霜	-8.76725
禀	-8.76744
幾	-8.76926
辰申	-8.76966
泥丸	-8.77182
楊	-8.77207
辰辰	-8.77569
獲	-8.77579
辰午	-8.7762
穢	-8.7768
工	-8.77765
卿	-8.77917
訖	-8.77936
銀	-8.78037
營	-8.78061
乙	-8.78245
郡	-8.78274
辰寅	-8.78317
歷	-8.78354
辰未	-8.78462
九天	-8.78627
詳	-8.78723
腰	-8.78732
咽	-8.78786
召	-8.78874
恩	-8.78878
潤	-8.79019
畫	-8.79086
齒	-8.79103
曉	-8.79141
之精	-8.79222
辰子	-8.79246
育	-8.79271
一切	-8.7931
晝夜	-8.79402
辰亥	-8.79419
辰丑	-8.7942
辰卯	-8.7942
辰酉	-8.79424
白虎	-8.79528
鐵	-8.79644
輔	-8.79806
修行	-8.80153
妻	-8.80197
仍	-8.80259
故云	-8.80416
人間	-8.80451
最	-8.80984
權	-8.8102
綱	-8.81084
又曰	-8.81465
㫖	-8.81502
醉	-8.81627
唐	-8.81645
余	-8.81801
亥	-8.81852
經曰	-8.81947
學道	-8.82056
箇	-8.82405
里	-8.8267
習	-8.8318
配	-8.83197
波	-8.83223
務	-8.83271
隔	-8.83322
熟	-8.83332
胡	-8.83409
財	-8.83665
將軍	-8.83671
髮	-8.83751
貫	-8.83897
燒	-8.83948
於此	-8.83973
真人	-8.84099
雷	-8.84196
第三	-8.84342
瓊	-8.84428
雙	-8.84482
迹	-8.84527
坎離	-8.84806
領	-8.84853
孤	-8.84874
鉛汞	-8.84883
玉女	-8.84922
乍	-8.85056
青龍	-8.85088
徐	-8.85113
答曰	-8.8514
鎭	-8.8535
祕	-8.85448
竅	-8.85613
祝	-8.85683
帥	-8.86006
試	-8.8634
中央	-8.86418
丹砂	-8.86444
助	-8.86579
廢	-8.86596
愼	-8.86619
没	-8.86667
惑	-8.86763
之事	-8.86781
諱	-8.86877
二音	-8.86988
底	-8.87015
劫	-8.87094
偏	-8.87129
而無	-8.87465
水銀	-8.87607
惠	-8.87852
夷	-8.87855
純	-8.87884
傾	-8.88094
季	-8.88127
秀	-8.88128
鄭	-8.88203
友	-8.88319
岳	-8.88384
八音	-8.88515
曾	-8.8853
設	-8.88617
酸	-8.88673
二十五	-8.88687
澄	-8.88795
帝君	-8.88867
把	-8.89264
欠	-8.89626
也若	-8.89635
魯	-8.89757
環	-8.8984
其所	-8.90098
量	-8.90106
十一音	-8.90159
喪	-8.90173
九音	-8.90311
曜	-8.90433
儀	-8.90504
六音	-8.9051
暗	-8.90557
壇	-8.90566
一名	-8.90716
緩	-8.90784
界	-8.90958
顧	-8.91261
四音	-8.91293
戰	-8.91347
一音	-8.91445
管	-8.91488
五臟	-8.91496
遣	-8.91553
枯	-8.91672
嬰兒	-8.91696
十音	-8.91702
何以	-8.91752
妾	-8.91762
七音	-8.91793
繫	-8.91862
魔	-8.91895
邊	-8.92008
十二音	-8.92142
短	-8.92179
附	-8.92415
其神	-8.92422
招	-8.92464
擊	-8.92466
之山	-8.92515
又云	-8.92618
尾	-8.92678
三音	-8.92699
其道	-8.92723
有餘	-8.92735
忌	-8.92766
敢	-8.92781
用之	-8.93096
陰氣	-8.93108
昧	-8.93143
各有	-8.9333
髓	-8.93587
霍	-8.93656
禪	-8.93701
三千	-8.93926
呼吸	-8.93989
康	-8.94063
者皆	-8.94242
天之	-8.94307
六甲	-8.94308
衝	-8.94345
索	-8.94382
不敢	-8.94538
第二	-8.94615
蒼	-8.94709
包	-8.94726
狂	-8.95003
川	-8.95135
滯	-8.95173
默	-8.95244
允	-8.95299
潔	-8.95301
决	-8.95328
金液	-8.95462
三五	-8.95489
不用	-8.95541
群	-8.95548
之日	-8.95578
膝	-8.95581
丑	-8.95588
誦	-8.95621
支	-8.95636
徑	-8.9569
逸	-8.957
亦有	-8.95756
嘗	-8.95834
旋	-8.95853
即是	-8.95941
純陽	-8.95989
七日	-8.96048
停	-8.96086
違	-8.96312
如是	-8.96327
略	-8.96358
先天	-8.96364
據	-8.96613
幸	-8.96651
精氣	-8.9674
暮	-8.9692
述	-8.96985
掌	-8.97089
鏡	-8.97338
慈	-8.97344
八卦	-8.97364
竭	-8.97371
湯	-8.97594
是故	-8.97621
殿	-8.97647
沐浴	-8.98008
燕	-8.98048
俞	-8.98049
侍	-8.98107
道德	-8.98238
慶	-8.98362
五十	-8.98416
如何	-8.98528
嚥	-8.98587
考	-8.98656
之理	-8.98801
其數	-8.99023
送	-8.9925
拔	-8.99303
弦	-8.99496
捨	-8.99634
枝	-8.99638
治之	-8.99674
佐	-8.99718
乞	-8.99722
騰	-8.99787
魂魄	-8.99794
出於	-8.99846
煩	-8.99895
脚	-8.99962
膀胱	-8.99984
霄	-9.00009
借	-9.00013
岐伯曰	-9.00279
透	-9.00336
泥	-9.00503
溢	-9.00522
避	-9.00735
際	-9.00804
知其	-9.009
錯	-9.01036
二千二百	-9.01095
屈	-9.01426
況	-9.0165
十月	-9.01684
苟	-9.01763
繼	-9.01796
扶	-9.01854
句	-9.02031
者謂	-9.02045
新校正云詳	-9.02082
𣈆	-9.02272
咸	-9.02497
不死	-9.02632
則爲	-9.02669
予	-9.02741
寸	-9.02768
其中	-9.02857
池	-9.02951
歟	-9.02966
淨	-9.02988
不離	-9.03136
統	-9.03137
四十	-9.03137
韓	-9.03144
屋	-9.03145
貞	-9.034
免	-9.03469
特	-9.03525
揚	-9.03562
二十一	-9.03729
吞	-9.03764
北方	-9.03828
勢	-9.0388
刀	-9.0404
之外	-9.04079
何也	-9.04306
南方	-9.04359
翼	-9.04411
入于	-9.04546
偶	-9.04552
恒	-9.04571
厥陰	-9.04637
鶴	-9.04813
至道	-9.04866
貧	-9.04867
丙	-9.05031
北斗	-9.05051
克	-9.05082
一月	-9.05284
之妙	-9.05401
亘	-9.05442
市	-9.05538
占	-9.05587
崇	-9.05982
校	-9.06012
草木	-9.06208
無窮	-9.06434
賜	-9.06441
松	-9.06639
現	-9.06721
逰	-9.06773
託	-9.06843
朗	-9.06926
戊	-9.06933
問曰	-9.06994
舒	-9.07073
頂	-9.07118
昭	-9.07203
第五	-9.07286
律	-9.07343
顔	-9.07622
此是	-9.07804
太平	-9.07814
大丹	-9.07917
影	-9.0802
九轉	-9.0805
東方	-9.0807
儒	-9.08202
嚴	-9.0822
灌	-9.08233
誤	-9.08252
傍	-9.08422
一人	-9.0854
讀	-9.08625
不動	-9.088
哀	-9.08815
新校正云按	-9.08815
不復	-9.08876
兒	-9.08929
之士	-9.08958
彌	-9.08962
之脉	-9.08975
呪	-9.09147
亦不	-9.0919
詣	-9.09333
策	-9.09334
弟	-9.09415
西方	-9.09448
基	-9.09816
游	-9.10081
道之	-9.10128
辟	-9.10214
而有	-9.10345
減	-9.10369
虧	-9.10845
希	-9.10872
之用	-9.11127
夕	-9.11129
追	-9.113
其名曰	-9.11312
不生	-9.11324
眉	-9.11461
緑	-9.11546
司命	-9.116
一斤	-9.11602
郎	-9.11676
壞	-9.11777
委	-9.11931
黄庭	-9.12052
學者	-9.12306
漏	-9.12336
沈	-9.12337
四日	-9.124
無形	-9.12415
此法	-9.12459
冰	-9.12479
癸	-9.12485
上元	-9.12579
痹	-9.12665
一氣	-9.12813
蜀	-9.12855
鄉	-9.12877
性命	-9.12962
課	-9.13079
自有	-9.13397
者爲	-9.13662
之功	-9.13717
怪	-9.13828
滑	-9.13882
宇	-9.13935
病者	-9.13964
也此	-9.14016
動靜	-9.14205
二十八	-9.14243
竟	-9.14266
一寸	-9.14283
科	-9.14351
津液	-9.14494
沖	-9.14568
披	-9.14649
一身	-9.14717
妖	-9.14738
摩	-9.14892
滋	-9.14928
役	-9.15001
遲	-9.15032
彰	-9.15073
懼	-9.15082
翠	-9.15093
太清	-9.15216
印	-9.15272
標	-9.15456
護	-9.15504
叔	-9.15585
鹹	-9.15724
婦	-9.15917
吸	-9.16215
太過	-9.16264
頓	-9.16342
號曰	-9.16401
徵	-9.1646
晝	-9.16493
者何也	-9.16634
融	-9.16711
盜	-9.16744
蕩	-9.17398
入於	-9.17409
道者	-9.17465
尚書	-9.17522
衆生	-9.17581
一陽	-9.17686
不通	-9.17703
牙	-9.17809
肩	-9.17851
之位	-9.17876
項	-9.17898
兹	-9.17952
防	-9.17988
腸	-9.18097
凉	-9.18176
飲食	-9.18216
洛	-9.18284
灾	-9.18317
混沌	-9.18348
三才	-9.1836
炎	-9.18379
羊	-9.1844
二十二	-9.18644
付	-9.18685
僧	-9.18797
雄	-9.18998
富	-9.19035
無不	-9.19044
寒熱	-9.19116
之物	-9.19137
禄	-9.19248
之道也	-9.19269
耀	-9.19446
淺	-9.19463
躁	-9.1947
个	-9.19482
籙	-9.19522
萬里	-9.19589
巧	-9.19595
圍	-9.19641
吹	-9.19829
其病	-9.19979
壬	-9.20087
在於	-9.20188
也又	-9.20197
歩	-9.20329
盤	-9.20388
服氣	-9.20594
沙	-9.20601
暉	-9.2083
嘉	-9.20911
佳	-9.20965
多少	-9.2097
三陽	-9.20998
二十三	-9.21149
戌	-9.21474
身中	-9.21551
歡	-9.21617
暑	-9.21649
殃	-9.21708
尤	-9.21715
往來	-9.2174
緫	-9.21755
分明	-9.21871
於人	-9.21982
妻子	-9.21987
四方	-9.22055
馳	-9.22099
像	-9.22109
博	-9.22143
寒暑	-9.22253
三焦	-9.2231
堪	-9.22383
霧	-9.22436
天尊	-9.22473
不相	-9.22501
豐	-9.22527
其身	-9.22544
淳	-9.22565
誅	-9.22651
暢	-9.22673
錦	-9.22837
密	-9.22875
小腸	-9.22937
陸	-9.23047
嬰	-9.23089
血氣	-9.23117
故能	-9.23208
之象	-9.23278
棲	-9.23413
陶	-9.23422
常以	-9.23441
其形	-9.23577
腫	-9.23796
寢	-9.23821
秘	-9.23821
談	-9.23836
桑	-9.23845
研	-9.23856
籍	-9.23934
忠	-9.24221
振	-9.24253
奈何	-9.24298
巨	-9.24302
邪氣	-9.24324
帝曰	-9.24366
二十六	-9.24543
莫不	-9.24596
千里	-9.24668
黄帝曰	-9.2469
困	-9.24744
得其	-9.24792
童子	-9.24892
絳	-9.24916
太玄	-9.25002
吕	-9.25174
三月	-9.25391
二十七	-9.25458
典	-9.25472
導	-9.25562
逍遥	-9.25574
杜	-9.25641
六十	-9.2572
三界	-9.26011
乖	-9.26031
劒	-9.26115
拘	-9.26307
貌	-9.26345
夭	-9.26428
在泉	-9.26597
粉	-9.26665
仲	-9.26814
取之	-9.26829
響	-9.26863
氣也	-9.2694
怨	-9.26943
郭	-9.26954
長史	-9.27034
以成	-9.27105
射	-9.27242
四象	-9.27276
階	-9.27306
明堂	-9.27346
鮮	-9.27377
其心	-9.27535
流珠	-9.27649
世間	-9.27656
百日	-9.27843
錢	-9.27849
之初	-9.27872
洪	-9.27926
名爲	-9.28141
觸	-9.28225
二氣	-9.28302
晦	-9.28321
禹	-9.28447
爲陽	-9.28448
樓	-9.28503
覩	-9.28601
皆有	-9.28629
五帝	-9.2879
不過	-9.28794
日中	-9.28951
太素	-9.29063
第四	-9.29094
不爲	-9.29143
見之	-9.29161
蒸	-9.29181
水中	-9.29237
私	-9.2928
故爲	-9.29613
倒	-9.29661
人身	-9.30056
議	-9.30114
五味	-9.30198
虚無	-9.30255
者必	-9.30256
不出	-9.30303
不利	-9.30306
庶	-9.30314
添	-9.30415
使人	-9.30461
省	-9.30472
毁	-9.30575
三一	-9.30632
慾	-9.30847
大腸	-9.30891
樞	-9.30905
天師	-9.30912
者則	-9.30932
三十二	-9.31008
柳	-9.3104
光明	-9.31096
責	-9.31152
富貴	-9.31278
不可以	-9.31493
溺	-9.31503
洗	-9.31563
男女	-9.31606
染	-9.31652
佩	-9.31687
溪	-9.31921
賔	-9.31937
殘	-9.31977
合於	-9.32114
也然	-9.32132
着	-9.32348
捻	-9.3239
五星	-9.32409
生氣	-9.32514
大小	-9.32602
起於	-9.32647
女子	-9.32792
鐘	-9.3283
芝	-9.32912
汁	-9.32943
賞	-9.32961
人有	-9.32966
六氣	-9.33179
飽	-9.3329
而去	-9.33292
邑	-9.33304
限	-9.33394
銅	-9.33435
旬	-9.33475
善惡	-9.33522
以此	-9.33627
天氣	-9.33751
則有	-9.33801
枕	-9.33852
慕	-9.33855
稍	-9.33884
維	-9.33902
臂	-9.3413
第六	-9.34138
之術	-9.34212
一本	-9.34224
彭	-9.3424
祝曰	-9.34267
戲	-9.34354
鹽	-9.34355
醫	-9.34362
涉	-9.34363
羣	-9.34365
格	-9.34379
荒	-9.34513
進退	-9.34525
則氣	-9.34731
抑	-9.34777
穿	-9.3481
皮膚	-9.34833
悅	-9.34864
剋	-9.34996
祥	-9.35009
京	-9.35013
胎息	-9.35183
一時	-9.35258
在乎	-9.35305
題	-9.3532
舟	-9.35367
清淨	-9.35463
子曰	-9.35571
玉清	-9.35573
中宫	-9.35646
▁(	-9.35658
前後	-9.35745
均	-9.3575
鑒	-9.35806
一曰	-9.35978
口訣	-9.36012
驅	-9.36143
乳	-9.36185
灰	-9.36209
憑	-9.36221
鎮	-9.36236
之神	-9.363
無極	-9.36331
奚	-9.36355
天道	-9.36415
相合	-9.36472
冬至	-9.36642
勸	-9.36763
纔	-9.36772
侵	-9.36781
監	-9.36839
六府	-9.36978
桃	-9.37212
無常	-9.3724
二年	-9.37267
側	-9.37305
上昇	-9.37368
太白	-9.37429
孟	-9.37538
互	-9.37584
所生	-9.37609
點	-9.37683
蔽	-9.37751
眞一	-9.37794
惜	-9.37816
朱雀	-9.37828
焚	-9.38301
之類	-9.38307
阿	-9.38319
吏	-9.38394
五嶽	-9.38456
之本	-9.38459
太虚	-9.38522
黄金	-9.38643
亦可	-9.38728
筆	-9.38813
工夫	-9.38967
史	-9.38974
究	-9.38983
此之謂也	-9.39203
之際	-9.39243
恍惚	-9.3928
五氣	-9.39404
必有	-9.40046
是非	-9.4017
又有	-9.40475
所在	-9.40736
戊己	-9.40832
胷	-9.40837
瑞	-9.40854
亦無	-9.4093
食之	-9.40989
主之	-9.40991
得之	-9.41115
唱	-9.41316
蘇	-9.41371
爲相	-9.416
脅	-9.41753
卯酉	-9.41757
以其	-9.41759
訪	-9.4182
幻	-9.41821
厭	-9.4184
恭	-9.41867
辨	-9.41871
葬	-9.41877
效	-9.4188
輿	-9.41898
男坎	-9.41899
心審	-9.41945
元始	-9.42008
無有	-9.42186
知之	-9.42202
五日	-9.4225
禾火化八	-9.42321
刀早孝	-9.42338
牛斗奏	-9.42343
龍甬用	-9.4235
之說	-9.42376
軒	-9.42394
爽	-9.42422
老君曰	-9.42506
龜水貴	-9.42878
率	-9.4291
葛	-9.42955
九宫	-9.42977
爲陰	-9.43048
便是	-9.43142
消息	-9.43191
有一	-9.43242
天符	-9.43355
弘	-9.43417
千典	-9.43426
丁井	-9.4343
多可	-9.43441
桂	-9.43458
輒	-9.43483
見其	-9.43535
十日	-9.43642
老子	-9.43662
飢	-9.43712
七星	-9.43769
者即	-9.43897
伸	-9.43978
甲午	-9.44141
汗出	-9.44172
故也	-9.44209
而出	-9.4423
今日	-9.44267
下降	-9.44356
胞	-9.44402
脊	-9.44442
巖	-9.44497
頗	-9.44512
上有	-9.44518
陰陽之	-9.44548
豈不	-9.44633
良兩	-9.44641
一一	-9.44837
手足	-9.44909
涼	-9.44963
疏	-9.44987
終始	-9.44994
言之	-9.45028
弗	-9.45029
職	-9.45034
天眞	-9.4505
獻	-9.45052
不欲	-9.45302
宴	-9.45436
天上	-9.45499
牢	-9.45516
姹女	-9.45521
繞	-9.45522
燭	-9.45561
也言	-9.45565
杖	-9.45568
回每	-9.45579
未嘗	-9.45701
臭	-9.46015
太隂	-9.46074
抽	-9.46098
導引	-9.46148
道也	-9.46261
有三	-9.46286
僞	-9.46354
鍾	-9.4651
診	-9.46543
之前	-9.46583
不成	-9.46685
輝	-9.46736
孰	-9.47003
七十	-9.47016
尅	-9.47084
中元	-9.47102
浪	-9.47139
巾	-9.47194
舞	-9.472
壁	-9.47231
逃	-9.47232
斬	-9.47247
華池	-9.47367
八月	-9.4752
古人	-9.47629
愁	-9.47673
蕭	-9.477
晩	-9.47751
煎	-9.47761
踈	-9.47764
茂	-9.47786
活	-9.47802
河車	-9.47804
不在	-9.47865
之宫	-9.47951
風雨	-9.47995
途	-9.48006
畜	-9.48167
也帝曰	-9.48185
之要	-9.482
謁	-9.48239
祭	-9.48239
升降	-9.48281
再拜	-9.48349
三寸	-9.48583
莊	-9.48606
萬神	-9.48636
小人	-9.48777
掩	-9.48839
耗	-9.48882
之始	-9.48964
病在	-9.49055
不明	-9.49349
那	-9.49383
欺	-9.4945
不行	-9.49528
盟	-9.49534
生成	-9.4962
長安	-9.49664
西北	-9.49684
喘	-9.49819
經脉	-9.49832
左手	-9.49865
玄珠	-9.49905
可謂	-9.50035
也今	-9.50359
乗	-9.50406
臍	-9.50487
藥物	-9.50541
二者	-9.50541
繁	-9.5056
翻	-9.50566
詞	-9.50603
茅	-9.50608
庚申	-9.50618
猛	-9.507
之義	-9.50732
雞	-9.50818
者乃	-9.50832
二千一百	-9.50857
東南	-9.50859
徳	-9.51031
萌	-9.51074
席	-9.5108
岀	-9.51118
咎	-9.51509
一兩	-9.51514
二分	-9.51551
睡	-9.51648
墮	-9.51676
謙	-9.51731
須臾	-9.51732
六月	-9.51738
効	-9.51749
三十日	-9.51803
三尸	-9.51859
三百六十	-9.51985
不言	-9.52175
尹	-9.52242
罷	-9.52254
眠	-9.52257
焦	-9.52276
不必	-9.52347
廉	-9.52351
撰	-9.52599
由是	-9.52696
化生	-9.52719
肥	-9.52773
閉氣	-9.52783
泣	-9.52824
在上	-9.52934
烹	-9.53302
若有	-9.53355
競	-9.53404
囊	-9.53408
竊	-9.53409
趣	-9.53422
勑	-9.53497
天下之	-9.53544
而行	-9.53653
后	-9.53703
崑崙	-9.53728
若不	-9.53772
修鍊	-9.53852
卑	-9.53935
其脉	-9.54022
遁	-9.54057
者以	-9.5438
餌	-9.54422
一物	-9.54518
寡	-9.54613
道君	-9.54646
六合	-9.54855
二十九	-9.5495
園	-9.55151
式	-9.5523
騎	-9.55255
者其	-9.55369
歎	-9.55435
此道	-9.55513
十二月	-9.55531
蔵	-9.55586
東北	-9.55591
者有	-9.55615
頃	-9.55691
絲	-9.55733
岸	-9.55781
僕	-9.55787
敵	-9.55909
第七	-9.56069
之歲	-9.5616
廟	-9.56331
淡	-9.56339
渾	-9.56356
厄	-9.56387
謬	-9.56416
大夫	-9.56457
神丹	-9.56635
答云	-9.56663
太微	-9.56781
其間	-9.56827
上應	-9.56846
洞天	-9.56916
筭	-9.56933
戴	-9.56955
普	-9.56968
檢	-9.56979
不以	-9.5699
其人	-9.56999
脩	-9.57007
費	-9.57009
翁	-9.57124
絳宫	-9.57193
之謂也	-9.57231
鷄	-9.57271
東西	-9.57321
之炁	-9.57418
紙	-9.57442
漿	-9.57463
不失	-9.57485
凌	-9.57501
膏	-9.57528
之性	-9.57537
煥	-9.57559
暫	-9.576
正一	-9.57656
之處	-9.57676
賤	-9.57703
芒	-9.58032
天子	-9.58135
之門	-9.58176
元君	-9.58182
軀	-9.58188
爲人	-9.58219
烈	-9.58221
琴	-9.58221
大藥	-9.58225
寇	-9.5824
姑	-9.58252
曹	-9.58264
四肢	-9.5845
而死	-9.58549
子孫	-9.5859
魁	-9.5871
儉	-9.58971
金精	-9.58989
西南	-9.59002
孔子	-9.59082
常存	-9.59104
何謂	-9.59211
激	-9.59301
携	-9.59342
矣夫	-9.59349
换	-9.59372
漱	-9.59398
缺	-9.59408
不應	-9.59427
炭	-9.59448
吉凶	-9.59477
族	-9.5948
右手	-9.59485
妃	-9.59524
讓	-9.59535
萬物之	-9.59562
曰吾	-9.59594
上帝	-9.59726
於外	-9.59738
耳目	-9.59752
第	-9.59805
正月	-9.59878
者非	-9.59945
辱	-9.59951
氣之	-9.59969
拂	-9.59987
修道	-9.59991
泛	-9.60005
芳	-9.60012
矣故	-9.60056
冀	-9.60128
十里曰	-9.60347
其名	-9.60379
覽	-9.604
民病	-9.60423
太虛	-9.605
其事	-9.60526
崔	-9.60531
三清	-9.60569
鹿	-9.60582
自在匠	-9.60596
走哉足	-9.60597
老冷吕	-9.60604
内南年	-9.60605
同覃田	-9.60613
乃妳女	-9.60613
陷者中	-9.60613
义赤	-9.60614
坼丑	-9.60615
寺象	-9.60628
旁排平瓶	-9.60631
普朴品匹	-9.60633
父凡吠	-9.60635
近揆	-9.6064
黄華雄賢	-9.60644
吾牙月堯	-9.60647
五瓦仰	-9.60647
安亞乙一	-9.60651
山中	-9.60658
崇辰	-9.60661
燈	-9.60669
翳	-9.60688
埋	-9.60705
髪	-9.60709
詔	-9.60724
卓中	-9.6076
不已	-9.60812
之謂	-9.60843
延年	-9.60977
頌	-9.60996
塗	-9.60996
三百	-9.61076
夜半	-9.61091
赤氣	-9.61132
二物	-9.61197
曹才全	-9.61219
草采七	-9.6122
鹿犖离	-9.61231
瀉	-9.61234
古甲九癸	-9.61252
東丹帝	-9.61254
夫法飛	-9.6126
濡	-9.61267
卜百丙必	-9.61268
莊震	-9.6127
爻王寅	-9.61274
母馬美米	-9.61277
麗	-9.61296
革	-9.61334
宅直	-9.61365
山手	-9.61492
丈	-9.61513
之地	-9.61532
彩	-9.61548
山川	-9.61557
非是	-9.6167
思三星	-9.61855
鈆	-9.61855
頸	-9.61885
步白備鼻	-9.61898
握固	-9.61943
劔	-9.61951
周天	-9.62003
神室	-9.62027
百年	-9.62082
玄元	-9.62178
爲一	-9.62343
始生	-9.62442
一點	-9.62457
茶呈	-9.62513
乾虯	-9.62533
目貌眉民	-9.62537
黑花香血	-9.62538
文万未	-9.62539
綿綿	-9.62566
焕	-9.6258
至此	-9.62585
吾之	-9.62588
相應	-9.62599
隆	-9.6264
甲乙	-9.62709
四海	-9.62935
珍	-9.63098
天機	-9.63125
太和	-9.63134
單	-9.6314
電	-9.63157
打	-9.63158
减	-9.63175
演	-9.63197
疫	-9.63239
陷	-9.63307
甲寅	-9.63341
故言	-9.63409
三光	-9.63752
是知	-9.63786
苗	-9.63821
不勝	-9.63846
錫	-9.63885
三分	-9.6398
對化	-9.63996
崩	-9.64094
則無	-9.64335
倍	-9.64374
爛	-9.64447
墓	-9.64558
甲申	-9.64639
柱	-9.64651
九月	-9.64782
金運	-9.64887
始於	-9.64941
諸侯	-9.65083
濇	-9.6509
敷	-9.65096
遥	-9.65107
坤巧丘弃	-9.65112
金玉	-9.6516
地氣	-9.65362
下元	-9.65365
疾病	-9.65382
參同契	-9.65527
足陽明	-9.65632
而能	-9.65743
狐	-9.65784
粗	-9.65801
徴	-9.65815
未有	-9.65911
亭	-9.65911
其性	-9.66054
士石	-9.66122
元年	-9.66313
夫婦	-9.66319
天關	-9.66359
飯	-9.66416
擣	-9.66437
武晩尾	-9.66447
頻	-9.66452
墨	-9.66481
倚	-9.66485
肌肉	-9.66497
少隂	-9.66516
虞	-9.66517
清靜	-9.66527
洞房	-9.66606
天門	-9.66611
長存	-9.66736
偃	-9.6678
續	-9.66857
此二	-9.66938
者亦	-9.66947
人生	-9.66995
玉皇	-9.6718
飛仙	-9.67186
正氣	-9.67339
腹中	-9.67367
脹	-9.67444
腎氣	-9.67495
鈎	-9.67725
座	-9.67753
提	-9.67759
網	-9.67766
妙用	-9.67792
操	-9.67799
覓	-9.67818
乙丑	-9.67884
成丹	-9.68163
冲	-9.68295
位也	-9.68295
無事	-9.68297
故以	-9.68298
輩	-9.68302
本無	-9.68303
名山	-9.68381
可得	-9.68387
饑	-9.68419
煩惱	-9.68441
篤	-9.68456
兌	-9.68458
弊	-9.6851
釜	-9.68517
域	-9.68608
上眞	-9.68795
人心	-9.68859
死生	-9.68878
測	-9.68907
煑	-9.68987
七十二	-9.69091
捉	-9.69119
唾	-9.69145
九年	-9.69208
得一	-9.69216
規	-9.69221
皆是	-9.6924
上天	-9.69287
之主	-9.69312
朱砂	-9.6935
金花	-9.69366
閉目	-9.69558
十年	-9.69572
二寸	-9.69589
皇帝	-9.69686
渴	-9.69716
縮	-9.69761
八十	-9.6977
擇	-9.69824
併	-9.6986
自己	-9.69894
在下	-9.69901
誓	-9.69913
四十九	-9.69993
水穀	-9.70073
之狀	-9.7013
鼎器	-9.70139
這	-9.70155
赤子	-9.70184
刺之	-9.70212
新校正云按甲乙經	-9.70226
血脉	-9.70282
廬	-9.70317
剛柔	-9.70335
古今	-9.70428
取其	-9.70455
咳	-9.70463
弄	-9.70497
瘧	-9.70544
五神	-9.70594
於内	-9.7074
能知	-9.71068
鬲	-9.71158
不如	-9.7118
鴻	-9.71225
朴	-9.71249
何如	-9.71306
華蓋	-9.7132
戊申	-9.71368
東海	-9.71378
修眞	-9.71464
元神	-9.71518
金石	-9.71579
至人	-9.71763
之體	-9.71878
孕	-9.71931
麤	-9.71962
盧	-9.71981
循環	-9.72005
聞之	-9.72042
甚則	-9.72096
一歲	-9.721
時人	-9.72206
古之	-9.723
㑹	-9.72601
戀	-9.7261
十方	-9.72653
心中	-9.72703
三皇	-9.72705
摇	-9.72741
良久	-9.72764
神靈	-9.72967
四支	-9.73017
不入	-9.73168
戒不得	-9.73173
變爲	-9.73215
植	-9.73272
芽	-9.73276
若能	-9.73278
搏	-9.73297
冒	-9.73348
二人	-9.73359
窺	-9.73372
億	-9.73384
希夷	-9.73456
神光	-9.73471
於心	-9.73596
然而	-9.73609
一百	-9.73657
勿令	-9.7385
者不	-9.73872
有道	-9.73881
世之	-9.73881
雌	-9.73994
叅	-9.73996
祐	-9.74003
焰	-9.7402
暖	-9.74022
墜	-9.74029
唇	-9.7405
鑄	-9.74067
橋	-9.74082
排	-9.74097
丁卯	-9.74098
嶽	-9.74099
戊午	-9.74162
亦是	-9.74194
之形	-9.74196
三千六百	-9.74225
上古	-9.74238
萬象	-9.74259
身心	-9.74324
動而	-9.74397
人物	-9.74431
陰符	-9.74454
失其	-9.74582
預	-9.74715
醮	-9.74729
館	-9.74733
入室	-9.74754
迫	-9.74768
牽	-9.7477
慢	-9.74805
呵	-9.74812
厲	-9.74854
朔	-9.74887
榮衛	-9.74889
戊寅	-9.74904
修之	-9.74995
言其	-9.75055
之氣也	-9.75105
倫	-9.75118
靈寶	-9.75164
論曰	-9.75232
之方	-9.75245
君曰	-9.75252
男子	-9.75277
則神	-9.75297
正化	-9.75333
而止	-9.75354
於身	-9.75388
水之	-9.75394
兩手	-9.75408
功成	-9.75507
雖有	-9.75547
交合	-9.75614
眞鉛	-9.75726
神水	-9.75769
之源	-9.75784
認	-9.75815
刺可入同身寸之	-9.75834
八百	-9.75842
頌曰	-9.75874
何處	-9.75911
之大	-9.75935
以應	-9.76097
蘭	-9.76132
揺	-9.76161
鸞	-9.76228
不息	-9.76285
十里	-9.76305
燒香	-9.76326
之象也	-9.76383
中間	-9.76391
足太陽	-9.76489
乙未	-9.76526
三官	-9.7676
閣	-9.76822
肅	-9.76874
奥	-9.76926
罔	-9.76926
爍	-9.76941
嶺	-9.76951
口中	-9.76971
蓬萊	-9.76991
髙	-9.76994
叛	-9.77001
丙寅	-9.77033
逼	-9.77044
用事	-9.77119
而得	-9.77204
君臣	-9.77407
握	-9.77621
相交	-9.77661
棗	-9.77677
庚子	-9.77704
悶	-9.77722
戊辰	-9.77796
玄武	-9.77811
人能	-9.77877
衡	-9.77963
也即	-9.78007
之名	-9.78205
二月	-9.78287
後聖	-9.78295
判	-9.7833
主人	-9.78345
成數	-9.78364
劎	-9.78365
𩲸	-9.78385
磨	-9.78393
掾	-9.78402
五分	-9.78422
匿	-9.78451
纏	-9.78474
金木	-9.78494
淪	-9.78595
庚辰	-9.78598
丁亥	-9.78613
爲道	-9.78693
功德	-9.78704
或作	-9.78751
無名	-9.78952
眞仙	-9.7905
曠	-9.79061
於中	-9.7909
之言	-9.79155
米	-9.79169
詠	-9.79223
舜	-9.79231
癸亥	-9.79256
恨	-9.79294
人皆	-9.7937
盛則	-9.79511
或有	-9.79515
狀如	-9.79574
者乎	-9.79583
生于	-9.79654
太子	-9.79684
未得	-9.7978
卜	-9.79862
白金	-9.79886
水運	-9.79942
彈	-9.79942
飾	-9.79962
係	-9.79981
上行	-9.79995
乙酉	-9.80004
玄牝	-9.80091
未能	-9.80101
八景	-9.80223
徃來	-9.80274
丁巳	-9.80284
而復	-9.80308
存思	-9.8036
百病	-9.80372
肯	-9.80432
九十	-9.80439
言語	-9.80522
分别	-9.80558
雲母	-9.8065
晴	-9.80664
俠	-9.80665
肌	-9.80667
卵	-9.80669
其狀如	-9.80673
翔	-9.80714
耕	-9.80722
禦	-9.80723
丹成	-9.80731
悔	-9.80744
於天	-9.80744
梵	-9.80744
八十一	-9.80754
禽	-9.8076
運行	-9.80768
赴	-9.8077
三十一	-9.80783
之府	-9.80814
金闕	-9.80821
而不知	-9.80977
曰此	-9.81049
肘	-9.81054
魏公	-9.81079
獄	-9.81091
灸	-9.81117
三十三	-9.81214
材	-9.81332
勇	-9.81386
壬子	-9.81391
子午	-9.81405
後人	-9.8141
經辰之	-9.81433
屯	-9.81448
火運	-9.81471
鋒	-9.81471
給	-9.81486
刀圭	-9.81489
牀	-9.81523
趨	-9.81529
祈	-9.81531
夏至	-9.81532
白氣	-9.81543
眞君	-9.81545
二八	-9.81549
不然	-9.81661
已上	-9.81677
五行之	-9.81806
三者	-9.81815
千日	-9.81917
九竅	-9.8195
四季	-9.81964
寸口	-9.81986
十有二	-9.82075
其精	-9.82143
三十五	-9.82182
有人	-9.82205
有無	-9.82232
春秋	-9.82261
徧	-9.82266
盖	-9.82273
曆	-9.8229
叩齒	-9.82319
生化	-9.8236
訣曰	-9.82394
智慧	-9.82397
宋朝	-9.82444
遭	-9.82455
内觀	-9.82499
此乃	-9.82533
八日	-9.82537
壬午	-9.826
無心	-9.82622
凡人	-9.8274
三氣	-9.82817
足少陽	-9.82842
五穀	-9.82866
火之	-9.82882
之變	-9.82893
浩	-9.82896
輸	-9.82958
訓	-9.83017
峯	-9.83025
賦	-9.83039
準	-9.8304
沸	-9.83064
鑿	-9.83096
何謂也	-9.83098
喜怒	-9.8312
玉液	-9.83134
陽也	-9.83215
桓	-9.83339
心爲	-9.83391
農	-9.83448
通神	-9.83491
自生	-9.8353
焉其	-9.83568
之心	-9.8359
辰星	-9.83657
能生	-9.83668
弓	-9.8379
丙丁	-9.83825
按之	-9.83853
丙戌	-9.83858
庚午	-9.83879
險	-9.8389
一體	-9.83941
壬申	-9.83976
之月	-9.84087
此皆	-9.84106
與人	-9.8415
戊子	-9.84154
丁未	-9.84159
般	-9.84166
而下	-9.8419
癸酉	-9.84334
(/○○○	-9.84391
在人	-9.84497
脇	-9.84548
之根	-9.84599
乙卯	-9.84634
躡	-9.84691
集賢	-9.8476
己巳	-9.84872
有大	-9.84915
虚空	-9.85019
日月之	-9.85106
熒惑	-9.85166
殆	-9.85299
鍼	-9.85347
火氣	-9.8539
刃	-9.85411
門户	-9.85412
乃得	-9.85423
梅	-9.85428
也是以	-9.85457
通於	-9.85469
祠	-9.85507
祟	-9.85523
甲戌	-9.85589
三十四	-9.85606
度支	-9.85616
别有	-9.85669
三宫	-9.85835
鼎中	-9.85845
天人	-9.86078
蜜	-9.86124
皆以	-9.86159
寬	-9.86169
的	-9.86171
不覺	-9.86195
鱗	-9.86199
叙	-9.862
欲得	-9.86208
矜	-9.86231
雅	-9.86235
竒	-9.86237
萬事	-9.86246
賜緋魚袋	-9.86272
此書	-9.86272
張君房集	-9.86273
丁酉	-9.8631
筋骨	-9.86318
三天	-9.86338
己卯	-9.86369
仕	-9.86372
可見	-9.86474
和合	-9.86486
空中	-9.86487
仁義	-9.86601
服食	-9.86662
而至	-9.86756
靡	-9.86986
其一	-9.86989
土貪天	-9.87012
瑶	-9.87037
莫能	-9.87039
有形	-9.87059
司馬	-9.87066
員外郎	-9.87086
蔡	-9.87151
之意	-9.87155
牧	-9.87162
三十九	-9.87279
不聞	-9.87289
視之	-9.87351
歸於	-9.87378
不止	-9.87417
譬	-9.8742
之機	-9.87449
快	-9.8747
山在	-9.87524
十五日	-9.87574
物之	-9.87603
見於	-9.87642
王母	-9.87649
仙官	-9.87766
股	-9.8778
眩	-9.87834
瘡	-9.87854
垢	-9.87856
話	-9.87869
束	-9.87873
壬寅	-9.87922
有二	-9.8794
凝結	-9.88147
辛亥	-9.88317
然則	-9.88426
銖	-9.88442
表裏	-9.88485
鄰	-9.88541
案	-9.8857
泯	-9.8868
瞻	-9.887
丙午	-9.88734
己丑	-9.88741
人事	-9.88766
贈	-9.8879
無以	-9.88821
胸	-9.88912
己酉	-9.88915
辛巳	-9.88969
不食	-9.8897
飄	-9.88978
五年	-9.8899
因縁	-9.89
後聖君	-9.89031
堯夫	-9.89207
在于	-9.89213
例	-9.89263
稽	-9.89411
低	-9.8944
經絡	-9.89442
罰	-9.89492
癸丑	-9.89545
郷	-9.89553
嗟	-9.89554
其色	-9.89554
丙申	-9.89571
己亥	-9.89585
高下	-9.89604
俟	-9.89625
使者	-9.8963
嗣	-9.89653
太上老君	-9.89717
公子	-9.89782
我身	-9.89787
行人	-9.89804
以明	-9.89821
其德	-9.89902
本來	-9.89905
之首	-9.89915
虚實	-9.89941
金鼎	-9.8995
四月	-9.89963
相生	-9.90044
十一月	-9.90078
以養	-9.90088
數也	-9.90096
白日	-9.9022
守一	-9.90245
緊	-9.90249
或曰	-9.90275
緯	-9.90281
東向	-9.90296
觀之	-9.90321
割	-9.90351
朋	-9.90355
括	-9.90364
寓	-9.90374
銷	-9.90393
癸未	-9.90417
腸胃	-9.90433
闇	-9.90438
熙	-9.90462
相見	-9.90464
也凡	-9.90521
内丹	-9.90594
復有	-9.90643
其中有	-9.90774
昇天	-9.90821
三關	-9.90905
所居	-9.90905
丙辰	-9.90949
离	-9.91042
虛無	-9.91142
愆	-9.91162
掛	-9.91171
擒	-9.91203
肆	-9.91206
不散	-9.9121
擾	-9.91212
俯	-9.91221
擬	-9.91229
訟	-9.91259
禾	-9.9128
解曰	-9.91304
神通	-9.91327
賈	-9.91331
日夜	-9.91348
不信	-9.91351
己未	-9.91363
一分	-9.91414
壺	-9.9144
得仙	-9.91444
甲辰	-9.91494
時有	-9.91539
不安	-9.91542
安得	-9.91583
其二	-9.91596
八方	-9.9164
/○○○○)(/	-9.9165
注云	-9.91653
爲主	-9.91675
乙亥	-9.91783
生焉	-9.91786
不須	-9.91818
眀	-9.91843
五月	-9.91844
矣此	-9.91858
喉	-9.91963
闊	-9.92026
崖	-9.9203
痿	-9.92041
神也	-9.9205
介	-9.92083
庚寅	-9.92107
巡	-9.9212
乙巳	-9.92166
極則	-9.92297
壬癸	-9.92388
補之	-9.92436
不至	-9.92609
土運	-9.92746
堯	-9.92821
千年	-9.92866
此言	-9.92877
椎	-9.92896
噫	-9.92902
零	-9.92903
羲	-9.92906
衛氣	-9.92921
誘	-9.92922
殻	-9.92927
抽添	-9.92932
浴	-9.92947
九日	-9.92968
此經	-9.92972
範	-9.92976
挺	-9.92977
癸巳	-9.93028
東華	-9.93036
虚則	-9.93123
死者	-9.93142
七月	-9.93206
仙道	-9.93225
進火	-9.93238
辛丑	-9.93302
程	-9.93395
之徒	-9.93396
抵	-9.93414
云何	-9.93477
隂年	-9.93477
日用	-9.93496
陰也	-9.93579
靖	-9.93618
鎖	-9.93633
巢	-9.93649
嘔	-9.93694
五寸	-9.9374
滎	-9.93777
戊戌	-9.93815
遐	-9.93878
氣者	-9.93929
兩傍	-9.93957
忍	-9.93963
故知	-9.94049
以至	-9.9406
百神	-9.94105
此爲	-9.94116
皓	-9.94135
命門	-9.94136
勝則	-9.94404
筮	-9.94526
洛陽	-9.94573
顛倒	-9.94627
銜	-9.94654
辛未	-9.94708
庚戌	-9.94717
晏	-9.94732
征	-9.94736
經世之	-9.94746
成矣	-9.94759
咽液	-9.94771
有功	-9.94785
夫子	-9.94827
之令	-9.94903
紫微	-9.94965
云云	-9.94989
南北	-9.95027
賢者	-9.95315
名也	-9.95358
聖人之	-9.95457
瘦	-9.95513
伴	-9.95549
雀	-9.95553
有五	-9.95559
殷	-9.95577
成都	-9.95578
金華	-9.95581
荆	-9.95595
晚	-9.95606
辛酉	-9.95641
也此課	-9.95663
終日	-9.95697
六十四	-9.95733
中見	-9.95759
白雪	-9.95875
和氣	-9.95889
以道	-9.95999
萬法	-9.96216
採藥	-9.9635
展	-9.96366
拙	-9.96376
剥	-9.9638
寒氣	-9.96398
享	-9.96424
做	-9.96425
怠	-9.96473
其用	-9.96481
銘	-9.96518
探	-9.96518
練	-9.96526
范	-9.96568
辛卯	-9.9657
養生	-9.96577
蓮	-9.96604
周流	-9.96629
於地	-9.96675
不絶	-9.96737
一千二百	-9.96811
骨髓	-9.96814
如前	-9.9683
之㫖	-9.96913
三遍	-9.96943
數十	-9.96981
及其	-9.97013
人所	-9.97035
曰我	-9.97044
宫中	-9.97045
百二	-9.97148
之化	-9.97159
盛衰	-9.97177
牝	-9.97211
其功	-9.97227
居之	-9.9723
朽	-9.9725
踵	-9.97309
侣	-9.97312
栖	-9.97318
精思	-9.97344
促	-9.97347
不識	-9.97351
療	-9.97367
徙	-9.97373
癸卯	-9.97376
障	-9.97385
氣逆	-9.974
饒	-9.97402
道成	-9.97407
故有	-9.97414
秉	-9.97426
從此	-9.97513
丁丑	-9.97571
少商	-9.97593
百姓	-9.97616
四兩	-9.97714
河圖	-9.97725
斤	-9.97743
木運	-9.9777
混合	-9.97831
行氣	-9.9798
五百	-9.97981
使之	-9.98035
湖	-9.9806
伊	-9.98199
黍	-9.98212
道人	-9.98237
郞	-9.98241
峰	-9.98253
求之	-9.9831
日日	-9.98313
壬辰	-9.9838
白雲	-9.98445
厥隂	-9.98533
此卦	-9.98543
帝王	-9.98665
者蓋	-9.98791
自是	-9.9884
四十五	-9.98862
而反	-9.98864
在心	-9.98975
其實	-9.98987
情性	-9.9908
其位	-9.99098
亦然	-9.99101
谿	-9.99153
兌大弟	-9.99153
旁	-9.99172
涕	-9.99194
至藥	-9.99198
秋冬	-9.99237
二兩	-9.99243
仲尼	-9.99268
百里	-9.99314
動則	-9.9935
天心	-9.9955
庵	-9.9957
紫陽	-9.99804
故名	-10.0003
其上	-10.0003
麻	-10.0003
窗	-10.0005
非有	-10.0006
之至	-10.0011
值	-10.0011
何所	-10.0011
恬	-10.0012
郊	-10.0014
元精	-10.0014
譽	-10.0015
洞玄	-10.0015
摧	-10.0016
喫	-10.0016
冝	-10.0017
杳冥	-10.0017
不受	-10.0031
玉京	-10.0033
聖賢	-10.004
分爲	-10.0044
之用也	-10.0053
第八	-10.0054
上升	-10.0063
成形	-10.0065
丙子	-10.0069
月之	-10.0072
一千五百	-10.0082
金火	-10.0084
陽火	-10.0089
三十七	-10.0092
渠	-10.0095
當以	-10.0096
襲	-10.0099
眞火	-10.0102
人迎	-10.011
元炁	-10.0111
船	-10.0111
逾	-10.0112
賴	-10.0112
敦	-10.0114
馮	-10.0115
三田	-10.0128
章第十	-10.0133
此三	-10.0135
不肯	-10.0136
也金	-10.0157
洲	-10.0157
其時	-10.0158
埃	-10.0168
蓬	-10.0168
院	-10.0174
何爲	-10.0176
丈人	-10.0189
䧟	-10.0197
稽首	-10.0202
完	-10.0203
托	-10.0204
整	-10.0205
湘	-10.0208
無方	-10.021
齋戒	-10.0223
之分	-10.0224
衆人	-10.0226
一陰	-10.0228
礙	-10.023
流注	-10.024
者所以	-10.0245
之子	-10.0246
自此	-10.0258
故不	-10.027
帛	-10.0273
氣海	-10.0273
陽生	-10.0274
智者	-10.0275
而不能	-10.0275
則知	-10.0276
相去	-10.0281
雖然	-10.0283
手陽明	-10.0287
姤	-10.0292
碎	-10.0293
系	-10.0297
捕	-10.0298
戎	-10.0298
何者	-10.0301
者何	-10.0301
自在	-10.0305
鼎内	-10.0306
三魂	-10.0311
思慮	-10.0313
其法	-10.0326
旱	-10.0328
高上	-10.0329
易曰	-10.0332
發於	-10.0342
通靈	-10.035
亦得	-10.0356
凈	-10.0372
於道	-10.0376
闢	-10.0383
竈	-10.0385
漫	-10.0387
藴	-10.0391
鄙	-10.0392
恃	-10.0392
琅	-10.0393
六十卦	-10.0396
拒	-10.0398
生也	-10.0405
庚辛	-10.0408
氷	-10.0409
下有	-10.0417
四十八	-10.0429
以生	-10.0432
足以	-10.0436
中部	-10.0446
隅	-10.045
物外	-10.0454
非常	-10.0459
心者	-10.0465
歳	-10.0484
韻	-10.0484
奢	-10.0485
扇	-10.0486
玩	-10.0487
乃是	-10.0491
浸	-10.0492
寥	-10.0493
吐納	-10.0495
千萬	-10.0504
一息	-10.0506
由此	-10.051
尸解	-10.0512
吾身	-10.0514
湛	-10.052
大將軍	-10.0522
平旦	-10.0529
火也	-10.0535
之候	-10.0535
之數也	-10.0535
山林	-10.0539
法象	-10.054
者當	-10.0562
裴	-10.0564
三千五百	-10.0569
十餘	-10.057
北極	-10.057
健	-10.0573
豆	-10.0574
嘯	-10.0581
玄妙	-10.0582
膚	-10.0582
唤	-10.0582
賓	-10.0585
少腹	-10.0586
徐徐	-10.0589
築	-10.0589
恣	-10.0592
囚	-10.0593
討	-10.0594
生萬物	-10.0594
千九百	-10.0601
赫	-10.0613
而入	-10.0622
配合	-10.0625
四大	-10.0629
受之	-10.063
下見	-10.0641
衍	-10.0651
保命	-10.0661
當時	-10.0661
出于	-10.0668
闔	-10.0672
癡	-10.0677
曰夫	-10.0682
壅	-10.0686
二十八宿	-10.0691
熱病	-10.0695
運用	-10.0697
飛行	-10.0709
一本作	-10.0709
是一藥	-10.0725
去其	-10.0726
不悟	-10.0727
譬如	-10.0737
聖胎	-10.0745
三兩	-10.0747
以來	-10.0752
上士	-10.0755
禹歩	-10.0756
諸天	-10.0765
二百	-10.0765
上見	-10.0766
是一病	-10.0768
莖	-10.0773
腐	-10.0775
太徵	-10.0781
水水	-10.0781
璧	-10.0782
緒	-10.0783
編	-10.0783
運火	-10.0788
百脉	-10.0793
福地	-10.0797
守眞	-10.0797
閉塞	-10.0806
生數	-10.0809
或以	-10.082
與天	-10.0821
失守	-10.0824
日出	-10.0835
百八	-10.0838
神人	-10.0849
則生	-10.0851
者死	-10.0858
筌	-10.0872
之所以	-10.0878
相得	-10.0879
混元	-10.0881
銳	-10.0882
穆	-10.0883
餐	-10.0883
形體	-10.0885
五藏六府	-10.0887
毋	-10.0888
准	-10.089
太空	-10.0896
存之	-10.0913
之經	-10.0915
藏府	-10.0917
蟾	-10.0917
顔色	-10.0922
二千五百	-10.0927
木也	-10.0934
虛空	-10.0944
傳於	-10.0946
相傳	-10.0948
愼之	-10.0955
三人	-10.0957
方知	-10.0961
乃可	-10.0967
百五	-10.0974
觀其	-10.0985
躍	-10.0986
月中	-10.0986
所出	-10.0988
遵	-10.0989
詐	-10.099
也故曰	-10.099
勃	-10.0992
壬戌	-10.0994
頭上	-10.1005
三十八	-10.1008
無知	-10.1013
少角	-10.1013
以致	-10.1023
王氏	-10.1026
殺之	-10.1033
必先	-10.1036
一千八百	-10.1042
始終	-10.1044
口吐	-10.1053
或問	-10.1054
神名	-10.1066
焉故	-10.1066
小便	-10.1072
形神	-10.1083
雌雄	-10.1085
乏	-10.1089
元陽子曰	-10.1091
一千三百	-10.1092
授以	-10.1092
癰	-10.1093
祀	-10.1093
匪	-10.1095
誕	-10.1097
掃	-10.1097
即得	-10.1101
生而	-10.1105
清濁	-10.1107
流通	-10.1115
固濟	-10.1119
流行	-10.1121
離宫	-10.1128
百四	-10.1131
聲色	-10.1159
足少陰	-10.1171
以意	-10.1183
上仙	-10.119
,	-10.1192
亢	-10.1197
紛	-10.1197
鎮星	-10.1199
析	-10.1199
宇宙	-10.1199
亦非	-10.12
狗	-10.1201
二千四百	-10.1203
變而	-10.1204
邈	-10.1205
不可得	-10.1206
一千四百	-10.1209
至眞	-10.1212
太初	-10.1214
玄眞	-10.1216
三千七百	-10.1218
歌曰	-10.1225
黃	-10.123
百一	-10.1242
用也	-10.1248
其次	-10.125
老子曰	-10.1262
調和	-10.1281
其中多	-10.1284
欣	-10.1287
團	-10.129
心心	-10.1293
嘆	-10.1297
𤣥	-10.1299
粟	-10.1299
拳	-10.13
五金	-10.1301
徘徊	-10.1302
顛	-10.1304
一旦	-10.1305
綿	-10.1305
誡	-10.1306
焚香	-10.1309
之聲	-10.1314
未始	-10.1319
四十四	-10.1324
四十三	-10.1326
無復	-10.1329
九氣	-10.1337
方寸	-10.1338
明月	-10.1339
金銀	-10.1346
與天地	-10.1354
文王	-10.1356
爲水	-10.1358
若是	-10.1363
萬化	-10.1364
心神	-10.1365
百事	-10.1368
姓名	-10.1371
則不	-10.1371
襄	-10.1375
心不	-10.138
三陰	-10.1388
不是	-10.139
其餘	-10.1391
成功	-10.1391
叩	-10.1394
天帝	-10.1396
而不可	-10.1399
胷中	-10.1401
削	-10.1402
杯	-10.1403
豫	-10.1405
滓	-10.1405
呈	-10.1405
驕	-10.1408
後世	-10.141
姦	-10.141
旺	-10.141
棊	-10.1411
買	-10.1413
二日	-10.1414
逝	-10.1416
一千七百	-10.142
二千八百	-10.1421
存神	-10.1422
眞汞	-10.1426
變易	-10.1427
熱則	-10.1431
一者	-10.144
修丹	-10.1441
三千二百	-10.1442
又東	-10.1451
未知	-10.1451
化氣	-10.1471
不宜	-10.1492
氣爲	-10.1493
腠理	-10.1498
第三十	-10.1499
脛	-10.1502
滌	-10.1504
飮	-10.1506
勁	-10.1507
溲	-10.1508
頑	-10.151
貨	-10.1513
灼	-10.1515
撓	-10.1515
春夏	-10.1517
伏火	-10.1518
寅申	-10.1519
三千三百	-10.1526
一千六百	-10.1538
周易	-10.1545
之情	-10.1546
三千四百	-10.1548
者先	-10.1548
亨	-10.1571
不與	-10.1571
者歟	-10.1579
太守	-10.1588
忽然	-10.1589
下手	-10.1593
二千三百	-10.1601
心痛	-10.1602
二千七百	-10.1603
六日	-10.1611
命曰	-10.1618
村	-10.1621
鈴	-10.1621
瞑目	-10.1622
戾	-10.1626
駐	-10.1628
哭	-10.1631
國之	-10.1633
第九	-10.1637
會稽	-10.1639
眞誥	-10.1641
而行之	-10.1642
四千二百	-10.1644
至精	-10.1645
每日	-10.165
六十日	-10.1652
百三	-10.1653
其下	-10.1659
其化	-10.1664
坎中	-10.1672
四者	-10.1678
度世	-10.1679
所言	-10.1681
五方	-10.1687
其志	-10.1687
不定	-10.1694
陽精	-10.1695
歸于	-10.1707
人情	-10.172
人人	-10.1721
八兩	-10.1722
繩	-10.1725
左足	-10.1725
攀	-10.1728
蒲	-10.1731
窒	-10.1731
凋	-10.1731
污	-10.1732
巴	-10.1735
脂	-10.1737
峻	-10.1739
五運	-10.1739
不合	-10.174
黨	-10.1741
應之	-10.1742
四千一百	-10.1749
耽	-10.175
三千八百	-10.1751
函	-10.1752
之書	-10.1757
所爲	-10.1758
手太陰	-10.176
於肺	-10.1762
長短	-10.1764
君火	-10.1766
温養	-10.1772
治病	-10.1772
四十二	-10.1772
其意	-10.1773
相似	-10.1775
天有	-10.178
水也	-10.1787
上陽子曰	-10.1787
亦如	-10.1787
爪	-10.1795
之卦	-10.1798
其本	-10.1805
一卷	-10.182
膺	-10.1821
内有	-10.1823
病也	-10.1824
皆得	-10.1824
二千九百	-10.1832
問云何是道笑指	-10.1833
七祖	-10.1835
籠	-10.1838
陽年	-10.1839
縛	-10.1839
二千六百	-10.184
勾	-10.184
赤色	-10.1842
眄	-10.1844
歛	-10.1846
灑	-10.1847
擁	-10.185
講	-10.1851
替	-10.1851
一千一百	-10.1851
物物	-10.1864
守之	-10.1864
在天	-10.1867
愼勿	-10.1872
呪曰	-10.1875
氣候	-10.188
逆順	-10.1883
隂功	-10.1891
三千九百	-10.1894
嚥之	-10.1898
九星	-10.1911
也蓋	-10.1911
黑氣	-10.1912
之德	-10.1913
口舌	-10.1915
只是	-10.1916
此時	-10.1917
四十一	-10.1918
肝氣	-10.192
則傷	-10.1927
之義也	-10.193
他人	-10.1931
中黄	-10.1931
此即	-10.1934
之病	-10.1934
可知	-10.194
腎之	-10.1941
成道	-10.1941
揮	-10.1946
六爻	-10.1947
麥	-10.1951
三尺	-10.1952
歇	-10.1952
跨	-10.1953
暇	-10.1955
潭	-10.1956
藉	-10.1956
生滅	-10.1959
菜	-10.1959
釣	-10.1959
奕	-10.196
西王母	-10.1961
雍	-10.1963
終於	-10.1979
水出焉	-10.1993
也經云	-10.1998
其外	-10.2
本命	-10.2003
相通	-10.2005
寐	-10.2006
此人	-10.2008
自得	-10.2011
地獄	-10.2024
於上	-10.2025
一二	-10.2027
因而	-10.2028
湛然	-10.2032
華陽	-10.2042
其日	-10.2044
相隨	-10.2048
有四	-10.2052
從來	-10.2056
微妙	-10.2061
頰	-10.2062
軟	-10.2065
茶	-10.2065
匠	-10.2065
之時也	-10.2066
蘂	-10.207
以手	-10.2074
填	-10.2074
玄關	-10.2074
齡	-10.2075
傅	-10.2076
不祥	-10.2078
皇極經世	-10.2079
奸	-10.2081
無他	-10.2082
元陽	-10.2082
眞精	-10.2083
諭	-10.2086
眞空	-10.2086
千一百	-10.2089
神神	-10.2092
下部	-10.2093
素問	-10.2102
丹陽	-10.2113
眞人曰	-10.2116
明矣	-10.2126
片	-10.2127
堯夫非是愛吟詩堯夫非是愛吟詩詩是	-10.2128
爲火	-10.2132
夫妻	-10.2134
形容	-10.2137
勝復	-10.214
故聖人	-10.215
歲星	-10.2153
奈何岐伯曰	-10.2154
其理	-10.2158
清風	-10.2158
淮	-10.2166
故得	-10.2169
其情	-10.2172
出世	-10.2177
轡	-10.2178
今在	-10.2178
何如岐伯曰	-10.2179
有此	-10.218
賁	-10.218
選	-10.2182
欽	-10.2184
床	-10.2184
製	-10.2186
八節	-10.2186
翕	-10.2186
甫	-10.219
金剛	-10.2191
相須	-10.2195
阻	-10.2196
終不	-10.2199
百六	-10.2199
太陽之	-10.22
者也故	-10.2217
一炁	-10.223
有時	-10.223
者謂之	-10.2231
金金	-10.2233
其象	-10.2235
之紀	-10.224
一十二	-10.2244
王君	-10.2248
凡此	-10.2249
若無	-10.225
七返	-10.2254
天生	-10.2258
下弦	-10.2261
後天	-10.2274
臟	-10.2278
二曰	-10.228
也非	-10.2282
聦	-10.2288
假令	-10.2295
祖師	-10.2301
洩	-10.2301
倉	-10.2301
茯苓	-10.2305
醜	-10.2306
擲	-10.2306
稀	-10.2307
也岐伯曰	-10.2311
青童	-10.2314
冤	-10.2317
合于	-10.232
三四	-10.2323
又以	-10.2324
乾之	-10.2328
)(/○○○	-10.2329
不起	-10.233
皆爲	-10.2334
十分	-10.2345
氣不足	-10.2354
藏於	-10.2359
其眞	-10.2359
好道	-10.236
身體	-10.2364
二儀	-10.2373
兄弟	-10.2373
倦	-10.2375
養性	-10.2378
大指	-10.2379
平氣	-10.2379
其陽	-10.2383
爲本	-10.2393
南極	-10.2397
寫之	-10.2399
四寸	-10.24
廓	-10.2402
冢	-10.2415
胃氣	-10.2421
黄氣	-10.2426
枉	-10.2426
麟	-10.2426
七八	-10.2429
奴	-10.2435
日精	-10.2437
直符	-10.2439
少氣	-10.244
其體	-10.244
當是	-10.2444
養之	-10.2447
入山	-10.245
久久	-10.2452
五藏之	-10.2454
上弦	-10.2456
五彩	-10.246
日行	-10.246
毫	-10.246
北向	-10.2461
對曰	-10.2466
時時	-10.2474
爲用	-10.2497
不知其	-10.2498
咽之	-10.2498
穀氣	-10.25
一法	-10.2507
四面	-10.2509
歩綱	-10.2511
傳之	-10.2512
何云	-10.2514
願聞	-10.2514
窟	-10.2526
地户	-10.2527
枚	-10.2528
百九	-10.2531
肌膚	-10.2533
播	-10.2534
濛	-10.2537
竿	-10.2537
疲	-10.2538
逮	-10.2539
憎	-10.254
扣	-10.2541
常在	-10.2543
矯	-10.2544
踏	-10.2544
撫	-10.2545
翫	-10.2547
名字	-10.2547
存想	-10.255
之正	-10.2558
百歲	-10.2577
靜室	-10.2579
矣其	-10.2587
其三	-10.2591
得此	-10.2599
修身	-10.2605
或爲	-10.2607
萬靈	-10.2617
大如	-10.2619
赤龍	-10.2619
火火	-10.262
𩔖	-10.2628
神化	-10.2635
六年	-10.2636
互相	-10.2636
瓶	-10.2637
萬人	-10.2638
曰子	-10.264
斧	-10.2649
之與	-10.265
濯	-10.2654
玉帝	-10.2655
料	-10.2655
行於	-10.2657
旅	-10.2657
屑	-10.2658
盲	-10.2658
秋分	-10.2659
突	-10.2661
牒	-10.2661
閭	-10.2661
厨	-10.2662
功滿	-10.2663
與道	-10.2665
喘息	-10.2665
皮毛	-10.2665
漆	-10.2666
相連	-10.2666
圓明	-10.2671
内踝	-10.2676
縱横	-10.2679
口鼻	-10.2681
形骸	-10.2689
所得	-10.2691
結成	-10.27
則死	-10.2705
北帝	-10.2705
六丁	-10.2706
人面	-10.2708
中國	-10.2708
人知	-10.2734
陰精	-10.2736
此謂	-10.2741
器中	-10.2744
四十六	-10.2747
不修	-10.275
新校正云詳此	-10.2751
太宫	-10.2753
濫	-10.2755
觀物	-10.2756
方可	-10.2756
山上	-10.2759
之色	-10.2759
武帝	-10.2765
爲金	-10.2768
四年	-10.2772
挾	-10.2774
漠	-10.2777
勉	-10.2778
毎	-10.2779
鬢	-10.2779
所求	-10.2779
屈伸	-10.2781
俾	-10.2782
之會	-10.2783
憶	-10.2783
庸	-10.2786
七年	-10.279
帖	-10.279
之教	-10.2792
結於	-10.2795
人不	-10.2805
一粒	-10.2808
也且	-10.2816
反覆	-10.2825
上皇	-10.283
如人	-10.2831
頭痛	-10.2835
父子	-10.284
月華	-10.2845
浮沉	-10.2847
此則	-10.2855
依前	-10.2863
金砂	-10.2865
中出	-10.2875
文武	-10.2881
勝之	-10.2893
員	-10.2902
狼	-10.2902
燔	-10.2903
玄黄	-10.2904
䟽	-10.2904
蹤	-10.2905
思之	-10.2912
吿	-10.2917
言曰	-10.2918
交媾	-10.2922
玉童	-10.293
手少陽	-10.2935
絡脉	-10.294
之運	-10.2947
凡事	-10.2949
制之	-10.2949
書云	-10.296
而起	-10.2961
成眞	-10.2965
下丹田	-10.2969
金液還丹	-10.2972
太帝	-10.2976
手太陽	-10.2978
百七	-10.2978
入水	-10.2979
重陽	-10.299
心主	-10.2992
而言之	-10.2993
猿	-10.2994
爲大	-10.2995
疝	-10.2998
則病	-10.3006
氣血	-10.3007
聰	-10.3009
者何也答曰	-10.301
此章	-10.3014
亦猶	-10.3015
纖	-10.3026
蓍	-10.3027
匡	-10.3028
黄婆	-10.3029
沃	-10.303
㝠	-10.3031
構	-10.3031
一云	-10.3031
廣成子	-10.3034
漬	-10.3034
額	-10.3035
醒	-10.3036
金公	-10.3037
生者	-10.3044
良乆	-10.3044
其義	-10.3052
此所謂	-10.3067
傷於	-10.3069
雄黄	-10.3072
不自	-10.3075
不化	-10.3077
學仙	-10.3079
心氣	-10.308
玉晨	-10.3086
六分	-10.3092
不盡	-10.3093
一般	-10.3099
風化	-10.3106
大洞	-10.3114
配衣	-10.3122
只在	-10.3124
第一百	-10.3124
也所謂	-10.313
裂	-10.3135
合而	-10.3137
忙	-10.3143
五千	-10.3146
聾	-10.3147
宛	-10.3148
軒轅	-10.3148
寺	-10.3149
箕	-10.315
垣	-10.3152
不解	-10.3152
禱	-10.3156
之患	-10.3157
遽	-10.3158
捐	-10.3161
燦	-10.3162
渡	-10.3171
次第	-10.3179
若見	-10.32
傳授	-10.3205
遠近	-10.3209
其變	-10.3235
一周	-10.3242
子時	-10.3247
存亡	-10.3248
得長生	-10.3253
用心	-10.3253
有疾	-10.3255
嗜	-10.3258
三過	-10.3275
氣化	-10.3275
文字	-10.3275
長久	-10.3278
層	-10.3279
豪	-10.328
嘘	-10.328
遯	-10.328
溜	-10.3281
丹經	-10.3282
爵	-10.3285
盃	-10.3285
有獸焉其狀如	-10.3285
屍	-10.3285
捧	-10.3286
氣盛	-10.3286
屏	-10.3286
蓄	-10.3286
軌	-10.3289
鄕	-10.329
各一	-10.3293
當其	-10.3293
老人	-10.3294
晦朔	-10.3295
叟	-10.3298
嗜欲	-10.3298
與之	-10.3299
顏云	-10.3299
精華	-10.33
也吾	-10.3306
南嶽	-10.3307
丗	-10.3312
先須	-10.3317
世上	-10.3322
未至	-10.3323
陽神	-10.3332
無所不	-10.3334
豈有	-10.3345
功夫	-10.3346
至妙	-10.3347
神農	-10.335
於物	-10.3355
金氣	-10.336
此其	-10.3365
應乎	-10.3365
三曰	-10.3367
知此	-10.3373
楊君	-10.3374
天柱	-10.3375
之極	-10.3375
長生不死	-10.3388
歸一	-10.3391
氣交	-10.3396
腧	-10.3397
也於是	-10.3401
一作	-10.3405
采	-10.3411
迸	-10.3413
韋	-10.3414
熾	-10.3416
墟	-10.3417
漁	-10.342
其内	-10.342
繡	-10.342
眞水	-10.342
陣	-10.342
揖	-10.3422
道家	-10.3424
火燒	-10.3425
自然之	-10.3427
則不能	-10.3435
後來	-10.3451
於腎	-10.3451
玄門	-10.3453
五十一	-10.3454
化成	-10.3461
者也夫	-10.3463
人以	-10.3464
甲乙經	-10.3465
閉息	-10.3471
朝元	-10.3477
法師	-10.3478
仙問	-10.3479
黑鉛	-10.3482
堅固	-10.3482
其說	-10.3482
無生	-10.349
何人	-10.3495
五十五	-10.3498
飲酒	-10.35
之藥	-10.35
抱一	-10.35
此一	-10.3503
稱帝	-10.3504
制伏	-10.3512
柄	-10.3513
之訣	-10.3516
也復詢	-10.3519
在此	-10.3525
無益	-10.3526
安能	-10.3526
而言	-10.3531
亦名	-10.3532
溝	-10.3536
撥	-10.3539
蠻	-10.3539
妹	-10.3541
勿食	-10.3541
八石	-10.3542
也腎	-10.3542
夾	-10.3542
飈	-10.3542
較	-10.3543
鑑	-10.3543
黎	-10.3546
瓦	-10.3546
巫	-10.3548
不休	-10.3548
謾	-10.355
躬	-10.355
祚	-10.3552
不正	-10.3553
者多	-10.356
運轉	-10.3566
得失	-10.3567
入道	-10.3569
之文	-10.3572
心存	-10.3573
將欲	-10.3574
金汞	-10.3576
陰生	-10.3578
使我	-10.3579
庵曰	-10.3579
丞相	-10.3579
養氣	-10.3579
四分	-10.3583
既濟	-10.3594
若得	-10.361
臍下	-10.3617
天仙	-10.362
無異	-10.3628
訖即	-10.3628
故謂之	-10.3635
大衆	-10.3641
卒子	-10.3643
賢人	-10.3649
救人	-10.3652
實則	-10.3652
以自	-10.3653
跪	-10.3662
清虛	-10.3666
合德	-10.3666
而自	-10.3667
而知	-10.3668
無上	-10.3668
豈能	-10.3669
湧	-10.3671
陰陽相	-10.3674
踐	-10.3677
盆	-10.3678
墻	-10.3678
形質	-10.3679
廼	-10.3679
六十四卦	-10.3681
遏	-10.3682
周而復始	-10.3683
囂	-10.3683
班	-10.369
洞周迴	-10.3693
而上	-10.3694
共成	-10.3694
禍福	-10.3699
誰能	-10.37
之宗	-10.3703
大神	-10.3708
方諸	-10.3709
至今	-10.371
左右手	-10.371
純陰	-10.371
安靜	-10.3714
更相	-10.3715
傳曰	-10.3715
之官	-10.3715
道無	-10.3716
當作	-10.3716
皆在	-10.3719
木之	-10.3721
五十二	-10.3721
居中	-10.3721
石室	-10.3721
紫房	-10.3725
殺人	-10.3729
下臨	-10.3733
知道	-10.3735
於世	-10.374
星辰	-10.3741
之師	-10.3744
生則	-10.3753
七魄	-10.3758
隂陽之	-10.3767
也所以	-10.3771
街	-10.3773
無憂	-10.3779
茅山	-10.378
不妄	-10.378
五符	-10.3785
洞中	-10.3795
不傳	-10.3802
之母	-10.3804
爲丹	-10.3805
箭	-10.3806
滴	-10.3806
澗	-10.381
紐	-10.3811
造化之	-10.3812
伺	-10.3813
絃	-10.3814
瀆	-10.3815
薰	-10.3816
韜	-10.3816
幼	-10.3816
柯	-10.3817
栢	-10.3818
侮	-10.3818
酬	-10.3819
天皇	-10.3824
微祝曰	-10.3824
詭	-10.3828
至矣	-10.3832
全眞	-10.3833
綱紀	-10.3834
少羽	-10.3837
不去	-10.3838
之祖	-10.3843
人自	-10.3844
清虚	-10.3845
第四十	-10.3853
清氣	-10.3855
同身寸之	-10.3866
四十七	-10.3866
金爲	-10.3871
之光	-10.3871
骨肉	-10.3882
也謂	-10.3882
山下	-10.3883
清齋	-10.3883
婦人	-10.3886
胸中	-10.3896
乃生	-10.3902
誥	-10.3904
至理	-10.3905
穩	-10.391
此山	-10.391
運動	-10.3916
將來	-10.3919
漸漸	-10.3929
上品	-10.3932
法也	-10.3934
遷正	-10.3941
太始	-10.3943
紫雲	-10.3943
欲知	-10.3944
區	-10.3949
賣	-10.395
壤	-10.3951
术	-10.3952
尾閭	-10.3952
三教	-10.3952
罕	-10.3954
坑	-10.3958
名利	-10.3959
如何是	-10.3961
一家	-10.3962
上宫	-10.3965
神炁	-10.3968
其文	-10.3972
交會	-10.3977
神鬼	-10.3978
七元	-10.3982
混成	-10.3983
人民	-10.3985
足太陰	-10.3986
靈臺	-10.3988
靜而	-10.3994
運氣	-10.3995
敢問	-10.3999
藏之	-10.4001
可不	-10.4003
三洞	-10.4006
砂汞	-10.4013
今古	-10.4017
武火	-10.402
未見	-10.4033
非道	-10.4034
氣氣	-10.4041
玄冥	-10.4046
其運	-10.4048
更無	-10.4051
十二時	-10.4051
生人	-10.4052
玄都	-10.4054
黄老	-10.4056
行道	-10.4057
採取	-10.4065
乃至	-10.4067
相逢	-10.4069
發生	-10.407
何必	-10.4072
上聖	-10.4074
無人	-10.4078
篆	-10.4081
驟	-10.4083
天綱	-10.4085
默默	-10.4088
也參同契曰	-10.4088
貴人	-10.4088
淚	-10.4089
不免	-10.4089
而求	-10.4089
涸	-10.409
靈根	-10.4092
哲	-10.4093
之中有	-10.4093
之國	-10.4094
肇	-10.4094
仇	-10.4096
豈非	-10.4097
闡	-10.4097
面目	-10.4099
二陰	-10.4101
鑪	-10.4102
丹元	-10.4104
明珠	-10.4108
非眞	-10.411
不測	-10.411
未可	-10.4114
身熱	-10.4119
九九	-10.4132
一片	-10.4142
洞眞	-10.4145
有爲	-10.415
爲上	-10.4153
化也	-10.4158
後學	-10.4165
少宫	-10.4166
紫金	-10.4169
之境	-10.4169
爰	-10.4177
易之	-10.4186
得火	-10.4186
三部	-10.4194
而終	-10.4196
正陽	-10.4197
曰汝	-10.4203
與我	-10.4206
何物	-10.4213
眞經	-10.4214
腕	-10.4214
賛	-10.422
控	-10.4221
故病	-10.4223
烟	-10.4225
誇	-10.4225
養神	-10.4225
不著	-10.4226
斜	-10.4229
軫	-10.4229
昨	-10.423
搜	-10.423
謗	-10.423
璇璣	-10.4231
霸	-10.4233
寵	-10.4233
迅	-10.4235
聊	-10.4235
拯	-10.4238
金也	-10.4239
戚	-10.4239
啼	-10.4239
肅殺	-10.4241
也經曰	-10.4241
刀支	-10.4241
成就	-10.4241
嘿庵曰	-10.4242
是以聖人	-10.4249
矣然	-10.425
虚而	-10.4253
學道者	-10.4255
五六	-10.4263
大風	-10.4264
者言	-10.4265
而動	-10.4269
非人	-10.4272
方便	-10.4275
正坐	-10.4279
兆身	-10.428
定録	-10.4281
有異	-10.4285
然其	-10.4287
生神	-10.4303
焉夫	-10.4307
同歸	-10.4309
出焉	-10.4309
八風	-10.4312
死矣	-10.4314
光照	-10.4316
五十九	-10.4316
也是故	-10.4316
應是	-10.4319
貴賤	-10.4321
白玉	-10.4326
坐忘	-10.4328
腎爲	-10.4332
穴也	-10.4339
受氣	-10.4343
風從	-10.4346
曰道	-10.4351
空洞	-10.4354
豁	-10.4355
陽中	-10.4357
一爻	-10.436
寒温	-10.4362
關節	-10.4365
裳	-10.4368
剪	-10.4368
你	-10.4369
傲	-10.4369
腥	-10.437
裹	-10.4371
畔	-10.4371
旌	-10.4372
叉	-10.4373
塊	-10.4373
純粹	-10.4374
所行	-10.4375
猪	-10.4376
段	-10.4377
剖	-10.438
閉口	-10.4384
所勝	-10.4387
鄧	-10.4391
太原	-10.4396
穴也在	-10.4406
動也	-10.4408
丹書	-10.4413
根本	-10.4426
小大	-10.4426
百餘	-10.4436
九六	-10.4436
須知	-10.4437
不遇	-10.4438
忽有	-10.4439
此亦	-10.4444
不求	-10.4445
合道	-10.4449
求仙	-10.4451
道不	-10.4452
之疾	-10.4469
青氣	-10.4471
寒則	-10.4472
無礙	-10.4474
飛昇	-10.4483
書曰	-10.4485
奈	-10.4487
瘕	-10.4488
三三	-10.4494
局	-10.4503
又西	-10.4505
乃止	-10.4506
而長	-10.451
軿	-10.4511
裁	-10.4512
杏	-10.4512
或云	-10.4513
衆眞	-10.4513
荷	-10.4516
薪	-10.4516
潰	-10.4517
拈	-10.4517
嫌	-10.4517
几	-10.4518
之策	-10.4518
眞性	-10.4518
價	-10.452
樸	-10.452
沐	-10.4522
其夕	-10.4522
絹	-10.4523
愍	-10.4526
凶惡	-10.4526
丹法	-10.4529
莫測	-10.4529
少徵	-10.453
伏羲	-10.4532
署	-10.4535
正道	-10.4535
爲病	-10.4536
須是	-10.4537
飢渴	-10.4543
以求	-10.4548
在左	-10.4564
輪迴	-10.4569
於陽	-10.4569
九重	-10.4572
性也	-10.4576
藏氣	-10.4578
軸	-10.4584
淮南	-10.4589
十餘年	-10.459
太角	-10.4599
五十四	-10.4601
所有	-10.4602
不移	-10.4603
其子	-10.4606
孰能	-10.4614
知音	-10.4615
從容	-10.4618
之始也	-10.4622
相與	-10.4626
人多	-10.4633
心火	-10.4633
右足	-10.4634
此四	-10.4638
心肺	-10.4638
二字	-10.4644
志人	-10.4646
五十三	-10.4651
樵	-10.4652
自知	-10.4652
諧	-10.4656
掣	-10.4658
乎天	-10.4658
懃	-10.466
襟	-10.466
眥	-10.466
薦	-10.4661
社	-10.4662
截	-10.4662
嗜慾	-10.4665
遶	-10.4665
梯	-10.4666
婁	-10.4669
昴	-10.467
无極	-10.467
揣	-10.467
濤	-10.4671
袁	-10.4671
賀	-10.4671
隋	-10.4672
忤	-10.4673
人之所	-10.4675
潤澤	-10.4676
喬	-10.4677
彊	-10.4677
長生久視	-10.4678
腰痛	-10.4684
種種	-10.4685
三物	-10.4692
氣有餘	-10.4701
以知	-10.4702
之端	-10.4708
若以	-10.4718
不失其	-10.4719
之基	-10.4722
萬劫	-10.4726
受邪	-10.4731
身之	-10.4732
直指	-10.4732
不審	-10.4736
數日	-10.4744
九州	-10.4745
任意	-10.4752
方圓	-10.4758
山澤	-10.4758
之年	-10.476
及乎	-10.4765
下焦	-10.4765
爲我	-10.4768
五十七	-10.4769
入口	-10.4784
麽	-10.4785
常行	-10.4787
獨立	-10.4789
歸去	-10.479
身形	-10.4792
所主	-10.4797
缺盆	-10.4799
根源	-10.4803
抛	-10.4805
之號	-10.4805
徽	-10.4806
數之	-10.4808
疊	-10.481
讎	-10.4811
蟬	-10.4812
膈	-10.4813
淸	-10.4815
涎	-10.4815
也黄帝曰	-10.4815
魅	-10.4816
態	-10.4816
而作	-10.4817
寔	-10.4817
紛紛	-10.4818
泊	-10.482
天中	-10.4821
輦	-10.4822
急急如律令	-10.4823
錬形	-10.4824
去來	-10.4833
用火	-10.4835
地之	-10.4835
腎之氣	-10.4838
上部	-10.4847
仙翁	-10.4848
胎仙	-10.4851
右英	-10.4855
功曹	-10.4855
可用	-10.4861
風吹	-10.4865
無量	-10.4867
地紀	-10.4871
雲雨	-10.4872
經中	-10.4875
心脉	-10.4877
氣自	-10.4889
一刻	-10.4895
太眞	-10.4896
一句	-10.4898
四時之	-10.4905
不病	-10.4906
應時	-10.4907
所說	-10.4917
上焦	-10.492
此之謂	-10.492
無限	-10.4924
頥	-10.4925
肺之	-10.4931
之野	-10.4935
必得	-10.4937
有六	-10.494
未盡	-10.494
衝脉	-10.4946
不治	-10.4949
道生	-10.4952
隙	-10.4953
臓	-10.4953
髀	-10.4956
誨	-10.4958
勒	-10.4959
隱書	-10.4961
優	-10.4963
㸃	-10.4963
洋	-10.4963
副	-10.4964
爲首	-10.4964
慎	-10.4967
天地之間	-10.497
不下	-10.497
邁	-10.497
喧	-10.4972
仙家	-10.4972
精精	-10.4976
婚姻	-10.4978
隴	-10.4983
無情	-10.4987
太山	-10.4995
長春	-10.4999
四五	-10.5004
法度	-10.5007
何由	-10.5008
當得	-10.5014
皇后	-10.5015
陽而	-10.5017
入鼎	-10.5018
猶未	-10.5019
成也	-10.502
皆由	-10.5025
形氣	-10.5028
今人	-10.5033
先天地	-10.5037
下至	-10.5038
硫黄	-10.5039
之火	-10.504
身有	-10.5042
者腎	-10.505
同類	-10.5052
二陽	-10.5055
又按	-10.5057
之至也	-10.5061
合之	-10.5064
此文	-10.5066
有物	-10.5075
輕重	-10.5079
其根	-10.508
所見	-10.5086
歸根	-10.5103
舍於	-10.5104
元和	-10.5104
眞道	-10.5105
眞常	-10.511
炙	-10.511
陽脉	-10.511
我者	-10.5111
頽	-10.5112
屯蒙	-10.5113
以象	-10.5114
金丹大要	-10.5115
伍	-10.5116
供	-10.5116
正位	-10.5117
少陽相火	-10.512
匹	-10.512
日月星辰	-10.512
漂	-10.512
郄	-10.5122
髣髴	-10.5122
百二十	-10.5122
苑	-10.5123
羸	-10.5123
鬚	-10.5124
橫	-10.5125
鬭	-10.5128
其狀	-10.5131
不可得而	-10.5132
道性	-10.5133
之元	-10.5134
鳥獸	-10.5137
巳亥	-10.5138
是何	-10.5139
之屬	-10.5139
精微	-10.514
玉斧	-10.5142
其音如	-10.5152
天地間	-10.5153
太乙	-10.5155
豈可	-10.5155
事皆	-10.5156
并於	-10.5156
求道	-10.5156
督脉	-10.5162
世界	-10.5164
願聞其	-10.5168
過於	-10.5172
未詳	-10.5178
師云	-10.5178
不許	-10.5182
太極眞人	-10.5185
五十六	-10.5194
脾氣	-10.5195
有數	-10.5197
黄色	-10.5197
氣而	-10.5205
金母	-10.5205
水土	-10.5212
出其	-10.5213
天之道	-10.5214
有九	-10.5217
在中	-10.5217
有何	-10.5223
順行	-10.523
不可不	-10.5231
凝神	-10.5235
命也	-10.5237
氣至	-10.5238
煉丹	-10.5238
金鎖流珠	-10.5238
玄玄	-10.524
不思	-10.5241
誤也	-10.5243
玉華	-10.5246
卓	-10.525
動脉	-10.5258
在内	-10.5264
亦如之	-10.5264
汴	-10.527
岐伯對曰	-10.5271
袖	-10.5271
慄	-10.5273
葱	-10.5273
簫	-10.5274
胻	-10.5274
帳	-10.5274
冶	-10.5276
溟	-10.5276
屢	-10.5277
周易參同契	-10.5278
迭	-10.5278
霜雪	-10.5278
棺	-10.5279
必須	-10.5279
猜	-10.528
泠	-10.528
扶桑	-10.5281
姬	-10.5282
六腑	-10.5283
簇	-10.5283
核	-10.5284
姜	-10.5285
遮	-10.5286
一念	-10.5289
許長史	-10.529
有病	-10.5295
端坐	-10.5297
宫室	-10.5298
黄牙	-10.53
肝之	-10.5302
其下多	-10.5304
太元	-10.5307
若灸者可灸三壯	-10.5308
從心	-10.5308
豈知	-10.5308
岐	-10.5309
天宫	-10.5311
有象	-10.5313
躡地紀	-10.5313
九鼎	-10.5314
三蟲	-10.5314
之先	-10.5319
咽氣	-10.5323
治在	-10.5325
物也	-10.5325
右遷	-10.5326
紫府	-10.5326
不變	-10.5328
自家	-10.5329
其方	-10.5331
熱氣	-10.5336
一百二十	-10.5341
無聲	-10.5341
之類也	-10.5346
利害	-10.5352
無涯	-10.5352
相國	-10.5353
脾胃	-10.536
母也	-10.5361
明日	-10.5361
章第二十	-10.5362
不容	-10.5366
畢矣	-10.5379
上陽子	-10.5392
今之	-10.5395
而明	-10.5396
自古	-10.5402
骸	-10.5405
而知之	-10.541
木木	-10.5414
涯	-10.5415
歲月	-10.5417
自見	-10.542
之期	-10.5422
件	-10.5422
之位也	-10.5422
地仙	-10.5424
微微	-10.5426
邵	-10.5428
日爲	-10.5429
兑	-10.543
言也	-10.543
在地	-10.5433
膠	-10.5434
姿	-10.5435
有聲	-10.5436
佞	-10.5436
脱	-10.5437
戈	-10.5439
板	-10.5439
澹	-10.5439
琳	-10.544
墳	-10.5441
偉	-10.5444
半斤	-10.5444
掘	-10.5446
太商	-10.5448
而坐	-10.5454
間氣	-10.5455
文帝	-10.5459
此身	-10.546
竇	-10.546
開元	-10.5463
大壯	-10.5463
初九	-10.5464
飲之	-10.5465
上文	-10.5473
滋味	-10.5487
之符	-10.5488
又存	-10.5496
肺氣	-10.55
一味	-10.5503
州刺史	-10.5511
六十三	-10.5512
受病	-10.5512
場	-10.5513
帝一	-10.5517
眞元	-10.5522
九色	-10.5525
眼前	-10.5533
者可	-10.5534
靜坐	-10.5539
成敗	-10.5539
手執	-10.554
上至	-10.554
于丹田	-10.5545
任脉	-10.5549
海中	-10.555
不亦	-10.5552
災害	-10.5555
十六日	-10.5557
九眞	-10.5568
唯有	-10.557
發明	-10.5578
揆	-10.5584
挽	-10.5586
眇	-10.5588
叩齒九通	-10.5588
匝	-10.5592
蕃	-10.5593
僻	-10.5594
瓜	-10.5594
夬	-10.5595
戮	-10.5598
以水	-10.5598
俯仰	-10.5599
仗	-10.5599
而來	-10.5599
逆之	-10.5599
糞	-10.5601
外踝	-10.5602
出乎	-10.5607
於下	-10.5608
煙霞	-10.561
五常	-10.5611
赦	-10.5613
天文	-10.5622
盡矣	-10.5624
無由	-10.5624
之靈	-10.5624
脉氣	-10.5626
服餌	-10.5626
一篇	-10.5628
帝曰善	-10.5642
室中	-10.5648
如嬰兒	-10.5649
類也	-10.5653
陰脉	-10.5653
守其	-10.5656
三百里	-10.5657
之異	-10.5662
爲眞人	-10.5669
思存	-10.5677
兩儀	-10.568
之精也	-10.5681
猶如	-10.5681
虚者	-10.5682
妙道	-10.5685
十二經	-10.5687
但以	-10.5687
輕舉	-10.5688
在外	-10.5689
大有	-10.5692
錬之	-10.5692
歸來	-10.5703
九過	-10.5709
形如	-10.5713
誦之	-10.5714
未分	-10.5717
乃爲	-10.5718
何故	-10.5719
靈砂	-10.572
脉之	-10.572
一丸	-10.5724
天元	-10.5727
會於	-10.5729
地生	-10.573
通玄	-10.5731
無差	-10.5732
以左手	-10.5733
紫氣	-10.5733
有心	-10.5737
夫道	-10.5738
踰	-10.5744
全元起	-10.575
藍	-10.575
𫝊	-10.575
斂	-10.5751
瞑	-10.5751
眚	-10.5752
欻	-10.5753
娥	-10.5754
邦	-10.5755
誣	-10.5756
之本也	-10.5756
下入	-10.5758
氣滿	-10.5758
潛	-10.5759
膜	-10.576
巔	-10.576
鴻濛	-10.5761
措	-10.5763
尼	-10.5764
芥	-10.5764
下文	-10.5764
淘	-10.5765
倮蟲	-10.5765
腸中	-10.5765
鮑	-10.5765
催	-10.5766
矢	-10.5768
夾脊	-10.5768
肺藏	-10.577
供養	-10.5772
病人	-10.5775
頭戴	-10.5776
一十五	-10.5777
子母	-10.5779
在足	-10.5781
則身	-10.5782
春分	-10.5783
聦明	-10.5783
至誠	-10.5792
而變	-10.5793
不泄	-10.5801
生矣	-10.5802
周旋	-10.5804
壺中	-10.5805
鉛中	-10.5812
五老	-10.5813
五兩	-10.5815
神功	-10.5822
陰陽之氣	-10.5824
卦之	-10.5825
也陽	-10.5833
卷中	-10.5833
這箇	-10.5842
榮華	-10.5844
一度	-10.5853
甚多	-10.586
一章	-10.586
年月	-10.5862
則能	-10.5871
一言	-10.5873
山河	-10.5874
而得之	-10.5878
不遠	-10.588
心無	-10.5881
讚	-10.5887
與此	-10.5888
膿	-10.5895
靈光	-10.5896
所治	-10.5897
問之	-10.5898
谷神	-10.59
食氣	-10.5903
爲地	-10.5905
乃成	-10.5906
歲會	-10.5908
梨	-10.5913
怡	-10.5915
怎	-10.5917
渭	-10.5918
人不知	-10.5919
涂	-10.592
兎	-10.592
尻	-10.5921
叢	-10.5921
摶	-10.5921
弩	-10.5923
嗔	-10.5923
模	-10.5924
雹	-10.5926
愧	-10.5929
靈寳	-10.593
蹈	-10.593
常道	-10.593
志意	-10.5931
否泰	-10.5933
立春	-10.5933
隸	-10.5936
薛	-10.594
尊師	-10.594
今以	-10.5941
或問曰	-10.5945
樞機	-10.5949
脾之	-10.5951
腎脉	-10.5957
故人	-10.5957
聰明	-10.5957
變通	-10.5961
一輪	-10.5962
備矣	-10.5963
處也	-10.5964
飛龍	-10.5965
此理	-10.597
上中下	-10.5971
亦曰	-10.5971
盛而	-10.5973
所傳	-10.5979
時也	-10.5984
也聖人	-10.5985
眞形	-10.5989
冬夏	-10.5989
論云	-10.599
日光	-10.5991
相對	-10.5992
其後	-10.5993
不得其	-10.5996
而化	-10.5998
本性	-10.6
多則	-10.6001
生長	-10.6003
内視	-10.601
直入	-10.6011
有常	-10.6015
丹道	-10.6017
不令	-10.6019
相薄	-10.6019
者也其	-10.6023
皆可	-10.6026
天津	-10.6039
豹	-10.604
其聲	-10.6041
所作	-10.6042
無非	-10.6043
可也	-10.6064
以候	-10.6065
本在	-10.6066
若夫	-10.6069
正陽子曰	-10.6073
二七	-10.6074
濕氣	-10.6076
無物	-10.6077
如斯	-10.6078
不差	-10.6078
蠶	-10.608
閏	-10.6084
涌	-10.6086
凍	-10.6088
失之	-10.6092
匀	-10.6092
喝	-10.6092
挹	-10.6092
平等	-10.6093
尉	-10.6094
真鉛	-10.6094
番	-10.6095
逕	-10.6096
簾	-10.6097
熊	-10.6097
則謂之	-10.6098
氤氲	-10.6098
藝	-10.6099
醋	-10.6099
篇云	-10.61
鞭	-10.61
煞	-10.61
鳳凰	-10.6101
臻	-10.6101
子鍾離子曰	-10.6103
不能自	-10.6103
嫁	-10.6104
吕子曰	-10.6105
叫	-10.6106
安樂	-10.6108
龜蛇	-10.6109
詰	-10.6109
應于	-10.6113
元曰	-10.6124
長夏	-10.6124
亦爲	-10.6132
則成	-10.6133
胞胎	-10.6143
七十四	-10.6143
水出	-10.6145
虎豹	-10.6149
者水也	-10.6151
不堪	-10.6152
之音	-10.6152
常有	-10.6154
爲體	-10.6163
飛走	-10.6164
推之	-10.6165
莫知	-10.6166
交感	-10.6167
其母	-10.6168
到此	-10.6181
冥冥	-10.6183
高祖	-10.6187
赤帝	-10.6187
斯爲	-10.6188
之罪	-10.6189
也肺	-10.6191
皆須	-10.6191
眞靈	-10.6193
詩云	-10.6196
字道	-10.62
隂符	-10.6201
不虚	-10.6203
北海	-10.6204
色如	-10.6207
容易	-10.6209
所宜	-10.6213
月建	-10.6216
中指	-10.6218
清閑	-10.6218
丈夫	-10.6222
來入	-10.6223
其穀	-10.6225
而爲之	-10.623
不當	-10.6232
也陰陽	-10.6235
其要	-10.6236
之力	-10.6238
三十年	-10.6239
法則	-10.6239
道術	-10.6239
乾元	-10.6243
善則	-10.6246
爲仙	-10.6246
以傳	-10.6246
小指	-10.6247
復生	-10.6248
授之	-10.6248
學人	-10.6248
兩足	-10.6249
國曰	-10.625
者肺	-10.6258
忿	-10.6264
蟄	-10.6265
轂	-10.6265
牝牡	-10.6266
褐	-10.6267
當願一切	-10.6269
一日一夜	-10.6269
油	-10.627
也或	-10.627
不知所	-10.6272
檀	-10.6272
董	-10.6272
彦	-10.6273
腴	-10.6273
國有	-10.6274
氣和	-10.6275
位爲	-10.6276
𡖖	-10.6276
幹	-10.6277
之液	-10.6279
氣入	-10.6279
更有	-10.6281
諫	-10.6281
一周天	-10.6282
臍之下	-10.6282
一升	-10.6289
慕容	-10.6291
次之	-10.6297
忽見	-10.6299
水而	-10.6299
奉上	-10.63
其言	-10.6302
太無	-10.6303
七寶	-10.6311
修煉	-10.6313
坦	-10.6313
其政	-10.6317
徃徃	-10.6331
四句	-10.6331
道之人	-10.6331
洛書	-10.6332
以鼻	-10.6332
昇仙	-10.6333
誰知	-10.6335
九地	-10.6336
第十	-10.634
萬民	-10.6342
不從	-10.6356
在右	-10.6357
在手	-10.636
文章	-10.6361
攪	-10.6366
官事	-10.6368
少年	-10.6376
大還丹	-10.6377
先師	-10.6385
一呼	-10.6392
無功	-10.6394
畢又	-10.6396
土之	-10.6396
也人之	-10.6401
大寒	-10.6406
九還	-10.6409
風氣	-10.6419
腨	-10.6427
中和	-10.6429
者肝	-10.6431
筒	-10.6432
相感	-10.6434
六寸	-10.6434
未必	-10.6435
羽化	-10.6436
綺	-10.6439
扉	-10.6439
陋	-10.6439
暄	-10.6439
德也	-10.644
驪	-10.644
大吉	-10.6441
恍	-10.6442
鬥	-10.6442
山有	-10.6442
徤	-10.6442
遘	-10.6444
來迎	-10.6444
宂	-10.6445
一合	-10.6445
鵠	-10.6446
抄	-10.6446
禳	-10.6447
一心	-10.6448
其類	-10.6448
袋	-10.6449
盗	-10.6449
樊	-10.645
貯	-10.6451
所用	-10.6451
六十六	-10.6452
體用	-10.6454
存乎	-10.6455
氣上	-10.6455
宏	-10.6456
謫	-10.646
其主	-10.6464
考召	-10.6465
同身寸之一寸	-10.6473
金丹之道	-10.6478
之節	-10.6488
流水	-10.6489
若欲	-10.649
山其上多	-10.649
也亦	-10.6494
三等	-10.6495
一十八	-10.6495
殊不知	-10.6496
不和	-10.6503
通流	-10.6504
精光	-10.6508
隨時	-10.6509
不住	-10.6509
受命	-10.6511
羽蟲	-10.6512
天數	-10.652
金丹之	-10.6523
屬於	-10.6534
其國	-10.6538
難以	-10.6538
既得	-10.6543
木氣	-10.6543
矣於是	-10.6547
五十八	-10.6551
中生	-10.6555
天庭	-10.6556
楊書	-10.6558
晶	-10.6559
六天	-10.656
神全	-10.6561
要知	-10.6564
内氣	-10.6569
向上	-10.6571
粒	-10.6578
也木	-10.6586
島	-10.659
之絡	-10.6592
本是	-10.6598
肘後	-10.66
亦同	-10.6603
變動	-10.6607
嗚呼	-10.6611
脆	-10.6613
外物	-10.6614
裙	-10.6615
揲	-10.6616
欲求	-10.6617
巍巍	-10.6618
俊	-10.6618
熬	-10.6618
恰	-10.6618
失道	-10.6619
菴	-10.662
遼	-10.662
大聖	-10.662
天曹	-10.6621
熏	-10.6621
昩	-10.6622
鼻中	-10.6625
自相	-10.6625
區區	-10.6625
白日昇天	-10.6626
無能	-10.6628
叚	-10.6628
憫	-10.6629
虔	-10.6629
姚	-10.6629
禽獸	-10.6629
三素	-10.6629
醴	-10.663
侍衛	-10.6633
儔	-10.6635
壘	-10.6635
少時	-10.6637
籬	-10.6642
之應	-10.6643
與物	-10.6643
虚邪	-10.6645
甲蟲	-10.6648
矣若	-10.665
百關	-10.6651
十二分	-10.6652
七七	-10.6652
變成	-10.6654
異也	-10.6656
各有所	-10.6656
起火	-10.6657
使其	-10.6658
消滅	-10.6659
號爲	-10.6665
腹滿	-10.6665
在我	-10.6668
與道合	-10.667
於後	-10.6674
之辭	-10.6675
行則	-10.6676
四曰	-10.668
腹脹	-10.6681
玉池	-10.6683
度人	-10.6684
愚者	-10.6686
且道	-10.6688
秋氣	-10.669
十二辰	-10.6693
四人	-10.6697
八十七	-10.6703
心腎	-10.6704
異名	-10.6707
五靈	-10.6714
七十六	-10.6719
莫知其	-10.672
而歸	-10.6728
俄	-10.6729
之流	-10.6729
秋石	-10.6729
天令	-10.6743
此名	-10.6749
水爲	-10.675
玄女	-10.6753
當先	-10.6755
數百	-10.6757
天神	-10.6761
所欲	-10.6767
後有	-10.6771
一箇	-10.6773
並是	-10.6774
忘形	-10.6775
大象	-10.6776
二十四氣	-10.6777
於斯	-10.6784
圓光	-10.6788
注於	-10.6789
耦	-10.6797
頤	-10.6798
功行	-10.6798
臘	-10.6799
至神	-10.6799
翰	-10.68
籥	-10.6803
媒	-10.6803
三將軍	-10.6803
慘	-10.6803
旗	-10.6804
紫微夫人	-10.6804
顓頊	-10.6804
十八日	-10.6805
蛻	-10.6805
栗	-10.6806
彘	-10.6807
摽	-10.6807
潮	-10.6808
織	-10.6808
應於	-10.6809
之所在	-10.681
讒	-10.6811
奉天	-10.6811
叱	-10.6811
疇	-10.6813
地也	-10.6813
狄	-10.6816
先後	-10.6821
出血	-10.6821
句曲	-10.6822
神仙經曰	-10.6822
參差	-10.6823
一遍	-10.6823
用針	-10.6823
太羽	-10.6825
身中之	-10.6832
天命	-10.6834
之府也	-10.6839
復卦	-10.6843
二子	-10.6845
次存	-10.6847
華山	-10.6848
卷下	-10.685
者可以	-10.6853
同一	-10.6856
坎爲	-10.6857
爲度	-10.686
隂氣	-10.686
則是	-10.6864
不足以	-10.6865
周迴	-10.6868
故稱	-10.687
地中	-10.687
無定	-10.6874
相承	-10.6877
少女	-10.6877
飛步	-10.688
法界	-10.6886
訣云	-10.6887
兩目	-10.6887
無可	-10.6889
七曜	-10.689
者哉	-10.689
陽子	-10.6892
刺可入同身寸之三分	-10.6898
堯夫非是愛吟詩	-10.69
稱王	-10.6904
相剋	-10.6906
初生	-10.6907
未濟	-10.6908
不易	-10.6912
爐鼎	-10.6915
始得	-10.6918
以左右手	-10.6919
諸人	-10.6922
礬	-10.6924
百刻	-10.6925
二景	-10.6931
寂然	-10.6937
若人	-10.6939
太古	-10.694
吾道	-10.6941
不滅	-10.6942
平生	-10.6945
土也	-10.6947
風雲	-10.695
爐中	-10.6952
代立	-10.6952
十兩	-10.6958
而取之	-10.6963
諸法	-10.6967
玉堂	-10.697
土氣	-10.6972
拱	-10.6977
之餘	-10.6977
呬	-10.6978
一道	-10.6979
帀	-10.698
顏	-10.6981
世世	-10.6981
棠	-10.6983
峨	-10.6983
陰陽應象大論	-10.6985
寂然不動	-10.6985
无所	-10.6985
拍	-10.6986
狹	-10.6987
裘	-10.6988
鈞	-10.6988
情欲	-10.6989
於水	-10.6991
懇	-10.6991
眷	-10.6992
伊川	-10.6992
睹	-10.6993
別	-10.6993
奮	-10.6995
其應	-10.6995
庫	-10.6995
端的	-10.6997
足少隂	-10.6997
爲天下	-10.6998
無象	-10.6999
舌本	-10.6999
澆	-10.7
訴	-10.7002
之卦也	-10.7009
氣穴	-10.7009
乆乆	-10.7009
萬世	-10.701
其經	-10.701
謚	-10.7011
相和	-10.7016
重樓	-10.7018
行符	-10.7023
又何	-10.7029
不可見	-10.703
亦能	-10.7031
坐卧	-10.7032
仙公	-10.7034
胃中	-10.7034
世俗	-10.7037
土土	-10.7042
一事	-10.7045
是時	-10.7046
月一日	-10.705
以示	-10.7054
亦當	-10.7054
丑未	-10.7055
氣之所	-10.7055
可以爲	-10.7059
之政	-10.7061
明白	-10.7063
定位	-10.707
何須	-10.7074
台	-10.7075
而用之	-10.7076
愚人	-10.7077
以下	-10.708
子之時	-10.708
一百八十	-10.7083
黄白	-10.7094
大地	-10.7101
老氏	-10.7102
成子	-10.7103
不達	-10.7109
運入	-10.7115
用此	-10.7117
不老	-10.7117
自非	-10.7117
諸經	-10.7127
肺脉	-10.7127
孰爲	-10.7132
妙理	-10.7133
陰陰	-10.7134
形也	-10.7135
三品	-10.7136
腎腎	-10.7137
死也	-10.7145
相類	-10.715
也但	-10.7154
肝脉	-10.7157
起居	-10.7159
二十四分	-10.716
而用	-10.716
上經	-10.7161
胤	-10.7162
其動	-10.7166
一斗	-10.7166
新校正云按全元起本	-10.7168
澀	-10.7169
一尺	-10.7169
怫	-10.717
之交	-10.7172
稷	-10.7172
外丹	-10.7173
鵬	-10.7174
槁	-10.7174
詮	-10.7175
壑	-10.7175
故經云	-10.7176
癘	-10.7176
天光	-10.7177
蛟	-10.7177
耻	-10.7177
岑	-10.7178
臟腑	-10.7178
札	-10.7178
裝	-10.7179
蕪	-10.718
緘	-10.718
堯舜	-10.718
算	-10.7181
捷	-10.7182
睛	-10.7182
恥	-10.7182
江湖	-10.7182
盞	-10.7183
地上	-10.7184
蠱	-10.7185
不忘	-10.7187
戊巳	-10.719
詩曰	-10.719
中斗	-10.7192
已成	-10.7196
也刺	-10.7196
珪	-10.7197
不知何	-10.7201
甘露	-10.7202
爲寒	-10.7203
眞文	-10.7204
日魂	-10.7206
洞庭	-10.7207
焉於是	-10.7208
玄微	-10.7208
矣吾	-10.7209
星君	-10.7209
主於	-10.7209
色青	-10.7211
七十五	-10.7215
存念	-10.7216
傷人	-10.7217
義也	-10.7217
可使	-10.7218
坎宫	-10.722
吏兵	-10.7221
相火	-10.7224
蟠	-10.7225
頂門	-10.7225
當有	-10.7225
解脫	-10.7225
天地之氣	-10.7232
又如	-10.7232
水流	-10.7235
之勢	-10.7236
爲藥	-10.724
南山	-10.7241
坤之	-10.7245
如何然	-10.7249
不假	-10.725
爐火	-10.7261
定息	-10.7263
氣以	-10.7264
四四四	-10.7267
莫不由	-10.7269
視其	-10.727
黄雲	-10.7272
如玉	-10.7276
於脾	-10.7276
皇君	-10.7277
之學	-10.7278
三花	-10.7283
直下	-10.7283
二十日	-10.7284
肺主	-10.7284
鍊形	-10.7288
如此則	-10.729
于心	-10.7295
神仙之	-10.7296
十二年	-10.7298
一生	-10.7301
乃知	-10.7303
骨節	-10.7308
不論	-10.7321
遊行	-10.7325
之末	-10.7326
服藥	-10.7326
勝於	-10.7326
方平	-10.7329
和之	-10.734
居於	-10.7345
色黑	-10.7352
問道	-10.7355
至游子曰	-10.7357
之常也	-10.7358
圜	-10.736
誑	-10.7361
腰脊	-10.7362
喙	-10.7364
攸	-10.7365
閻	-10.7366
少隂君火	-10.7366
劣	-10.7366
縷	-10.7367
相因	-10.7368
瑶池	-10.7369
金烏	-10.737
汎	-10.737
斑	-10.7371
恢	-10.7371
吁	-10.7372
蘆	-10.7373
昆	-10.7374
橐籥	-10.7374
恠	-10.7375
行步	-10.7375
者人之	-10.7375
阜	-10.7376
嵗	-10.7376
寰	-10.7376
擘	-10.7377
西山	-10.7378
㜽	-10.7378
精血	-10.7379
瘥	-10.738
榆	-10.7383
中外	-10.7384
元始天尊	-10.7385
足太隂	-10.7385
長生之道	-10.7388
脫胎	-10.7388
鄴	-10.7393
六十一	-10.7396
乃能	-10.7397
光芒	-10.7397
文火	-10.7402
其大	-10.7404
若非	-10.7404
見人	-10.7408
毛蟲	-10.741
氣街	-10.7414
乎其	-10.7414
身長	-10.7416
同於	-10.7419
以定	-10.7421
故先	-10.7421
南海	-10.7422
四四	-10.7422
當知	-10.7423
斗柄	-10.7425
明其	-10.7425
東都	-10.743
來復	-10.7432
五曰	-10.7432
又北	-10.7433
二三	-10.7438
嚥氣	-10.7439
通天	-10.7439
諸神	-10.7442
形象	-10.7442
千餘	-10.7443
教人	-10.7447
不立	-10.7449
八極	-10.7451
却入	-10.7451
陽盛	-10.7454
妙有	-10.7456
七竅	-10.7459
還元	-10.7463
會得	-10.7464
隨之	-10.7465
至陰	-10.7469
虚皇	-10.7471
以制	-10.7473
百節	-10.7476
而立	-10.7478
其四	-10.748
何異	-10.7481
死而	-10.7486
傷則	-10.7487
請問	-10.7488
商王	-10.7493
卦二	-10.7499
是名	-10.7502
七十一	-10.7502
感應	-10.7508
玄機	-10.7512
水氣	-10.7514
形於	-10.7516
夢見	-10.7519
色赤	-10.7521
以和	-10.7521
腋	-10.7526
矣是以	-10.7527
修養	-10.7529
自謂	-10.753
而已矣	-10.7531
人家	-10.7531
之表	-10.7532
不昧	-10.7534
求其	-10.7536
時節	-10.7537
七分	-10.7538
衣服	-10.7554
醴泉	-10.7555
駭	-10.7556
嗌	-10.7557
千歲	-10.7557
六十二	-10.7557
而未	-10.7558
杳	-10.7559
撞	-10.7561
仆	-10.7562
醺	-10.7562
兊大弟	-10.7562
偷	-10.7563
敲	-10.7564
應物	-10.7564
蹻	-10.7565
森	-10.7565
三百日	-10.7566
柏	-10.7566
䕶	-10.7566
圭	-10.7566
如是者	-10.7566
豕	-10.7566
嘻	-10.7567
常當	-10.7567
所以爲	-10.7568
十十十	-10.7568
貽	-10.7569
怕	-10.757
菊	-10.757
靈樞經曰	-10.7571
自身	-10.7571
敏	-10.7572
袍	-10.7573
雄雌	-10.7574
驚駭	-10.7574
虹	-10.7574
敕	-10.7575
分野	-10.7577
雷電	-10.7579
六十五	-10.758
㓜	-10.7581
心心心	-10.7581
有兩	-10.7581
章第三十	-10.7581
歡喜	-10.7582
虎嘯	-10.7584
未生	-10.7586
筭數	-10.7589
心地	-10.759
吐氣	-10.7592
補其	-10.7595
死氣	-10.7595
土地	-10.7597
三台	-10.7599
手把	-10.7601
之冠	-10.7604
上登	-10.7607
氣虚	-10.761
穴在	-10.7612
役使	-10.7613
調氣	-10.7613
因此	-10.7621
尋常	-10.7624
不顯	-10.7625
不由	-10.7625
江南	-10.7627
明明	-10.7632
氣絶	-10.7632
數足	-10.7635
八八八	-10.7637
神符	-10.7637
隱居	-10.7637
者道之	-10.7639
星宿	-10.7641
必死	-10.7641
黄赤	-10.7644
純陽子曰	-10.7651
根基	-10.7653
命之	-10.7653
居上	-10.7654
大要	-10.7657
爲先	-10.7658
九寸	-10.766
萬年	-10.766
半夜	-10.7663
黄土	-10.7664
未來	-10.7667
幽微	-10.7668
無色	-10.7672
而易	-10.7674
月生	-10.7677
白石	-10.7679
無病	-10.7683
此事	-10.7689
呼爲	-10.769
不仁	-10.7698
客於	-10.7699
手少陰	-10.77
者陰陽	-10.7701
無令	-10.7702
龍吟	-10.7704
八素	-10.7705
其家	-10.7705
白色	-10.7705
熱而	-10.7705
不傷	-10.7717
其光	-10.7718
故令	-10.772
足厥陰	-10.772
憐	-10.7728
陰德	-10.7733
聞其	-10.7735
一身之	-10.7739
不曉	-10.774
黄精	-10.7741
甬	-10.7745
蚌	-10.7753
德德德	-10.7753
勿以	-10.7754
帔	-10.7757
在前	-10.7759
風雷	-10.776
禺	-10.776
生物	-10.7761
夙	-10.7762
浙	-10.7764
仞	-10.7767
大帝	-10.7767
亦以	-10.7767
蹄	-10.7768
柔弱	-10.7769
蚩尤	-10.7769
屠	-10.777
耳聾	-10.777
九天之	-10.7771
粲	-10.7772
祛	-10.7772
汲	-10.7772
胥	-10.7773
太上道君	-10.7774
太倉	-10.7774
一陰一陽	-10.7775
入地	-10.7776
尊卑	-10.7776
火化	-10.7777
峕	-10.7778
如是則	-10.7778
拔宅	-10.7779
糧	-10.778
鈆汞	-10.778
筋脉	-10.7782
肺肺	-10.7783
貧賤	-10.7785
叩頭	-10.7791
感而	-10.7791
昔有	-10.7792
汞爲	-10.7792
正性	-10.7794
九玄	-10.7798
曾青	-10.7799
并序	-10.7799
一顆	-10.7799
太后	-10.78
春氣	-10.7801
皆屬於	-10.7803
不肖	-10.7804
視聽	-10.7805
繼是謂	-10.7806
而痛	-10.7808
黄衣	-10.7809
形者	-10.7813
未成	-10.7815
二升	-10.7817
焉此	-10.7818
如火	-10.782
六六六	-10.7821
寂寂	-10.7824
呼之	-10.7824
雖不	-10.7828
終無	-10.7829
久而	-10.7829
聞道	-10.7829
也天地	-10.783
事須	-10.7832
和則	-10.7832
海底	-10.7833
金碧	-10.7834
德之	-10.7834
也土	-10.7836
志心	-10.7836
毒藥	-10.7841
肝藏	-10.7841
生乎	-10.7845
已後	-10.7847
二十三日	-10.7848
味甘	-10.7851
爪甲	-10.7852
也當	-10.7855
本命日	-10.7855
法身	-10.7857
之户	-10.7858
昭然	-10.7862
陰爲	-10.7862
此物	-10.7863
清水	-10.7863
無相	-10.7868
洒	-10.7868
復命	-10.787
不衰	-10.787
太易	-10.7873
直事	-10.7876
本經	-10.788
師道	-10.788
但能	-10.7883
行用	-10.7885
全其	-10.7896
陷中	-10.791
合成	-10.7912
第二十	-10.7913
此說	-10.7914
靜則	-10.7915
昊	-10.7919
四氣	-10.7924
以為	-10.7925
陽極	-10.7926
承之	-10.7928
陰中	-10.7928
當用	-10.7929
佛法	-10.793
性情	-10.7931
腑	-10.7936
帝時	-10.7939
都畢	-10.7948
平坐	-10.795
些	-10.7951
難得	-10.7953
刀刀刀	-10.7956
理也	-10.7958
曝	-10.7958
不顧	-10.7961
腠	-10.7962
縈	-10.7964
二至	-10.7964
耎	-10.7965
媚	-10.7965
斡	-10.7966
嚏	-10.7966
龍龍龍	-10.7967
何故也	-10.7967
可可可	-10.7967
光輝	-10.7967
邀	-10.7967
評	-10.7968
其五	-10.7969
膂	-10.7969
痏	-10.797
宋守尚書屯田郎孫兆重改誤	-10.7971
氐	-10.7971
哺	-10.7971
虎虎虎	-10.7972
碑	-10.7973
脉浮	-10.7973
籟	-10.7973
優游	-10.7974
婚	-10.7974
噴	-10.7975
創	-10.7977
而還	-10.7977
祭祀	-10.7978
金木水火土	-10.7978
亮	-10.7981
柴	-10.7981
調之	-10.7982
瘟	-10.7987
無欲	-10.7987
氣衰	-10.7987
而非	-10.7989
用力	-10.7989
營衛	-10.799
朔旦	-10.7991
六十八	-10.7995
淺深	-10.7995
太陰之	-10.7996
洞神	-10.7996
傷寒	-10.7999
羅列	-10.8001
飛騰	-10.801
氣足	-10.8012
强名	-10.8012
色也	-10.8017
其源	-10.8019
上法	-10.8023
昇降	-10.8031
水者	-10.8032
遊於	-10.8034
莫若	-10.8034
三百六十日	-10.8035
光耀	-10.8041
脾主	-10.8052
九霄	-10.8053
得見	-10.8053
大明	-10.8057
風月	-10.8062
五斗	-10.8064
江河	-10.8066
二穴	-10.8067
也肝	-10.8087
猶有	-10.8097
化形	-10.8106
有八	-10.811
常人	-10.8111
由人	-10.8113
兩兩兩	-10.812
在天爲	-10.8121
節度	-10.8122
爲眞	-10.8124
以授	-10.8128
之司	-10.8129
燒之	-10.8134
女人	-10.8136
尊神	-10.8138
回回回	-10.8138
瑩瑩瑩	-10.8138
三里	-10.814
丁丁丁	-10.814
屬陽	-10.8145
勿使	-10.8145
兄兄兄	-10.8145
个个个	-10.8146
北北北	-10.8147
龜龜龜	-10.8147
玉玉玉	-10.815
金書	-10.8151
典典典	-10.8151
井井井	-10.8152
寶寶寶	-10.8152
弼	-10.8154
况况况	-10.8156
其藏	-10.8156
甬甬甬	-10.8156
肝木	-10.8158
奏奏奏	-10.8158
報報報	-10.8159
也雖	-10.816
臣臣臣	-10.816
貴貴貴	-10.816
衆衆衆	-10.8161
鼠鼠鼠	-10.8162
孔子曰	-10.8162
永永永	-10.8162
光光光	-10.8162
允允允	-10.8162
審審審	-10.8163
妻妻妻	-10.8163
岳岳岳	-10.8163
霍霍霍	-10.8163
元元元	-10.8163
兔兔兔	-10.8164
斗斗斗	-10.8165
牖	-10.8165
瘖	-10.8165
噦	-10.8166
君君君	-10.8166
欬	-10.8167
退退退	-10.8167
濁氣	-10.8167
之化也	-10.8168
宫宫宫	-10.8168
巽巽巽	-10.8169
終身	-10.8169
旦旦旦	-10.8169
拄杖	-10.8169
牛牛牛	-10.817
禁禁禁	-10.817
皆從	-10.817
淹	-10.8171
千千千	-10.8171
無私	-10.8171
寤	-10.8172
婆	-10.8172
愛愛愛	-10.8173
犬犬犬	-10.8173
頷	-10.8174
帥帥帥	-10.8174
陟	-10.8174
宰宰宰	-10.8175
何時	-10.8175
早早早	-10.8175
拭	-10.8177
大者	-10.8177
稻	-10.8178
憚	-10.8178
懽	-10.8179
雉	-10.818
不到	-10.818
半半半	-10.818
孝孝孝	-10.818
向向向	-10.818
道要	-10.8181
蔚	-10.8181
亘亘亘	-10.8182
去去去	-10.8182
綴	-10.8182
酥	-10.8183
無言	-10.8183
骨骨骨	-10.8183
妾妾妾	-10.8184
簪	-10.8184
決	-10.8184
廣廣廣	-10.8184
舌舌舌	-10.8185
禾禾禾	-10.8185
引引引	-10.8185
黜	-10.8185
毛毛毛	-10.8187
妨	-10.8188
多多多	-10.8188
良良良	-10.8188
欠欠欠	-10.8188
魚魚魚	-10.8188
臧	-10.8189
潘	-10.8189
坎坎坎	-10.8189
三篇	-10.8191
艮艮艮	-10.8192
化化化	-10.8194
救之	-10.8194
開開開	-10.8195
男男男	-10.8197
衰衰衰	-10.8198
瞽	-10.8199
不朽	-10.82
中焦	-10.82
受其	-10.8201
孔孔孔	-10.8202
雲山	-10.8202
諸陽	-10.8202
我今	-10.8203
子子子	-10.8204
二十有四	-10.8204
用用用	-10.8205
死不治	-10.8206
侍女	-10.8209
黑色	-10.8211
明皇	-10.8214
天台	-10.8217
後聖君告	-10.8218
色黄	-10.8222
見性	-10.8223
玉樓	-10.8224
熱也	-10.8228
其處	-10.823
登仙	-10.8231
十有六	-10.8233
七十三	-10.8243
放下	-10.8246
洞府	-10.8248
衢	-10.825
遠矣	-10.8254
一竅	-10.8255
從官	-10.8256
玄靈	-10.8256
則可	-10.8257
是則	-10.8259
天地之道	-10.826
一條	-10.8262
腎主	-10.8266
長三寸	-10.8267
獨坐	-10.8268
坤卦	-10.8271
六根	-10.8271
六十九	-10.8271
其卦	-10.8273
二十年	-10.8275
玄母	-10.8276
無思	-10.8279
熱者	-10.828
焉能	-10.8283
之鄉	-10.8285
十有八	-10.8286
止於	-10.8286
妄想	-10.8288
海外	-10.8288
同異	-10.8291
還返	-10.8295
腎藏	-10.8298
道路	-10.8301
六陽	-10.8306
妄爲	-10.8308
有餘則	-10.8312
利名	-10.8312
心藏	-10.8313
而升	-10.8314
不待	-10.8315
何足	-10.8316
一十六	-10.8317
以補	-10.8321
三丹田	-10.8321
甲子日	-10.8323
亦云	-10.8325
過此	-10.8328
爲善	-10.8331
行此	-10.8333
八年	-10.8338
也地	-10.8343
安其	-10.8347
無間	-10.8349
久則	-10.8351
王注	-10.8352
道法	-10.8352
六六	-10.8353
圃	-10.8354
每每每	-10.8359
仙矣	-10.8363
嵩	-10.8363
神定	-10.8366
令其	-10.837
本乎	-10.8371
優劣	-10.8372
貶	-10.8374
跳	-10.8375
醇	-10.8375
潄	-10.8381
九十六	-10.8382
炎上	-10.8382
大還	-10.8383
衞	-10.8384
募	-10.8386
罇	-10.8386
叩齒三通	-10.8386
堆	-10.8386
能爲	-10.8387
雕	-10.8388
摘	-10.8389
拆	-10.8389
而无	-10.8389
寥廓	-10.839
經言	-10.839
餅	-10.839
怖	-10.8393
噓	-10.8393
真人曰	-10.8394
留七呼	-10.8394
群生	-10.8394
攺	-10.8395
仙經	-10.8395
雷霆	-10.8396
一處	-10.8396
見矣	-10.8396
譬喻	-10.8397
濱	-10.8397
贊	-10.8397
凡夫	-10.8397
宵	-10.8398
知有	-10.8399
亟	-10.8399
脯	-10.8403
甚麽	-10.8408
此日	-10.8409
風寒	-10.8411
火火火	-10.8414
四體	-10.8415
不干	-10.8417
而陽	-10.8417
火龍	-10.8418
某甲	-10.8418
豁然	-10.842
作丹	-10.8421
三二	-10.8423
要妙	-10.8426
皆當	-10.8428
單衣	-10.8431
九十一	-10.8433
南陽	-10.8434
脾土	-10.8436
雷公	-10.8437
以上	-10.8443
即此	-10.8444
魂神	-10.8447
正當	-10.8448
之例	-10.8453
八寸	-10.8455
崑崙山	-10.8459
如此者	-10.846
之正氣	-10.8464
清明	-10.8465
玄宫	-10.8466
六十七	-10.8466
隂德	-10.8468
平之	-10.8469
江海	-10.8469
又名	-10.8469
無英	-10.8471
畢引	-10.8472
所願	-10.8472
廬山	-10.8478
得道者	-10.8479
水水水	-10.8479
氣散	-10.8481
順天	-10.8482
而勿	-10.8484
須得	-10.8485
何事	-10.8492
身輕	-10.8494
當爲	-10.8495
者猶	-10.8497
玉兔	-10.8499
乃復	-10.85
昇玄	-10.8501
金光	-10.8503
一陽生	-10.8508
白帝	-10.851
同契	-10.8513
二卦	-10.8513
立冬	-10.8513
之理也	-10.8515
察其	-10.8516
三九	-10.8522
日日日	-10.8525
之甚	-10.8525
而異	-10.8526
二斤	-10.853
腎水	-10.8534
太尉	-10.8537
肺爲	-10.8539
上玄	-10.854
歸眞	-10.854
矣又	-10.8541
南向	-10.8541
青黄	-10.8542
則形	-10.8542
以前	-10.8543
章第四	-10.8543
各自	-10.8546
無過	-10.8546
無失	-10.8554
立秋	-10.8554
皆謂	-10.8556
二首	-10.8562
之由	-10.8563
不勞	-10.8564
立功	-10.857
如今	-10.8571
陽陽	-10.8574
彼此	-10.8574
功名	-10.8576
故號	-10.8579
因以	-10.8579
九分	-10.858
陽數	-10.858
及諸	-10.8581
林下	-10.8583
烏烏烏	-10.8588
如法	-10.8588
龍虎之	-10.8592
名之曰	-10.8594
髻	-10.8594
所由	-10.8595
七十七	-10.8595
顔云	-10.8597
其上多	-10.8597
人莫	-10.8599
收之	-10.8599
中嶽	-10.86
艱	-10.86
陽明金	-10.8602
滲	-10.8602
漑	-10.8603
明鏡	-10.8603
旨	-10.8604
蠲	-10.8605
斃	-10.8606
春夏秋冬	-10.8606
粮	-10.8607
九十八	-10.8607
未有不	-10.8609
嘿	-10.8609
鉢	-10.8609
列仙	-10.8609
。	-10.861
𨼆	-10.861
岫	-10.861
槐	-10.861
武王	-10.861
是道	-10.861
炳	-10.8611
馭	-10.8611
𨽻	-10.8613
憲	-10.8613
頃刻	-10.8613
諦	-10.8614
鳩	-10.8614
疵	-10.8615
萎	-10.8615
於己	-10.8615
梟	-10.8616
笑曰	-10.8617
肝肝	-10.8617
衷	-10.8618
桃李	-10.8618
朱衣	-10.8619
戌亥	-10.862
惶	-10.8621
是之謂	-10.8621
鱗蟲	-10.8622
人道	-10.8625
刻漏	-10.8626
已來	-10.8627
者常	-10.863
可知也	-10.863
抑之	-10.8632
戒者	-10.8638
而見	-10.8638
火五日用炭	-10.8639
入聖	-10.8639
明知	-10.8644
象也	-10.8646
既已	-10.865
言功	-10.8652
千載	-10.8652
合和	-10.8653
之使	-10.8653
難也	-10.8654
賢愚	-10.8654
勝也	-10.8656
第十二	-10.8658
水旱	-10.8664
明君	-10.8665
自然之道	-10.8667
標本	-10.8669
不平	-10.867
靈官	-10.8671
安寧	-10.8672
小兒	-10.8676
身家	-10.8679
其行	-10.8683
四維	-10.8684
無邊	-10.8685
不倦	-10.8689
即可	-10.8693
逆行	-10.8695
能成	-10.8695
死籍	-10.8698
陽者	-10.8699
交而	-10.87
之長	-10.8704
民之	-10.8705
无爲	-10.8705
水下	-10.8709
想其	-10.8709
人若	-10.8713
參同契曰	-10.8716
以時	-10.8717
合爲	-10.8717
天王	-10.8719
隱於	-10.872
留七呼若灸者可灸三壯	-10.872
歸之	-10.8721
方得	-10.8724
乎岐伯曰	-10.8724
何不	-10.8729
之耳	-10.8734
黑白	-10.8735
衣冠	-10.8736
土爲	-10.8737
小童	-10.8737
於目	-10.8738
念念	-10.8741
往往	-10.8742
依法	-10.8749
不克	-10.8749
所受	-10.875
欲以	-10.8752
之盛	-10.8753
色白	-10.8754
不拘	-10.8757
七十九	-10.8759
迎之	-10.876
玉房	-10.8765
所致	-10.8767
生門	-10.8768
已前	-10.8771
七十八	-10.8773
見聞	-10.8774
平地	-10.8775
妄言	-10.8776
宰相	-10.8777
和平	-10.8778
不足則	-10.8782
小腹	-10.8783
靈源	-10.8783
者或	-10.8787
可刺	-10.8788
房中	-10.8789
不收	-10.8792
夫欲	-10.8793
之所生	-10.8795
八十五	-10.8797
精誠	-10.88
能通	-10.8806
鍊丹	-10.8812
髎	-10.8817
分形	-10.8818
黒	-10.8819
眞金	-10.8819
九靈	-10.8821
岐伯答曰	-10.8821
掉	-10.8823
痺	-10.8824
轍	-10.8825
壓	-10.8825
青城	-10.8825
斟	-10.8826
者反	-10.8826
人姓	-10.8828
必成	-10.8828
在世	-10.8828
祝畢	-10.8828
茫	-10.8829
妍	-10.8829
人身中	-10.8829
中正	-10.8829
伎	-10.8829
悠悠	-10.883
觜	-10.8832
下治	-10.8833
三合	-10.8834
惱	-10.8834
肩背	-10.8835
秩	-10.8835
娶	-10.8836
褒	-10.8837
脾脉	-10.8837
獵	-10.8837
諷	-10.8837
剡	-10.8838
邇	-10.8839
麋	-10.884
螣蛇	-10.8841
修行人	-10.8843
睦	-10.8845
林泉	-10.885
勾陳	-10.8853
嚥液	-10.8853
無爲之	-10.8857
風生	-10.8863
其液	-10.8863
釋氏	-10.8866
語言	-10.8868
不樂	-10.8868
故當	-10.8868
流轉	-10.887
其味	-10.8872
砂中	-10.8873
八分	-10.8873
化而爲	-10.8874
以至於	-10.8875
斗建	-10.8876
二名	-10.8876
物我	-10.8876
南宫	-10.8876
即成	-10.8882
厥隂木	-10.8884
自成	-10.8889
有无	-10.8891
有情	-10.8892
茅君	-10.8896
雲霧	-10.8899
等閑	-10.89
聽之	-10.8901
飛天	-10.8902
何得	-10.8904
之津	-10.8906
天地萬物	-10.891
公曰	-10.8914
地有	-10.8914
何以知	-10.8917
爲表裏	-10.8918
者病	-10.8929
行乎	-10.8932
灸之	-10.8934
貴乎	-10.8934
精明	-10.8937
於胃	-10.8938
處處	-10.894
家風	-10.8942
神凝	-10.8944
爲太尉	-10.8946
燥化	-10.8948
脉沉	-10.895
復歸	-10.895
大海	-10.8951
光澤	-10.8958
兵士	-10.8962
開口	-10.8967
十斤	-10.8968
火數	-10.8971
躡紀	-10.8971
雲笈七籤卷之	-10.8974
八八	-10.8974
芝草	-10.8975
更生	-10.8977
逆也	-10.8978
活計	-10.8981
要訣	-10.8982
之主也	-10.8983
金虎	-10.8984
至聖	-10.8985
復還	-10.8985
生殺	-10.8998
戊癸	-10.8998
結爲	-10.9004
嚥津	-10.9005
施行	-10.9009
又問	-10.9015
通達	-10.9018
病之	-10.9019
其門	-10.9019
氣液	-10.9022
然也	-10.9023
南華	-10.9024
同志	-10.9026
風府	-10.9026
九十三	-10.9028
於是乎	-10.9029
三卷	-10.903
月十五日	-10.9038
至寳	-10.9038
之語	-10.9038
豈無	-10.9039
癉	-10.9039
一字	-10.904
升天	-10.9041
粹	-10.9044
韶	-10.9047
矩	-10.9047
蔓	-10.9051
煅	-10.9052
䰟	-10.9054
若灸者可灸五壯	-10.9055
儻	-10.9056
援	-10.9056
㐫	-10.9056
幡	-10.9057
翮	-10.9057
嚮	-10.9058
訛	-10.9059
葩	-10.906
行事	-10.9061
霧露	-10.9061
悸	-10.9061
冑	-10.9064
橘	-10.9064
瘞	-10.9064
甞	-10.9064
詎	-10.9065
眸	-10.9066
猛獸	-10.9069
苞	-10.907
人主	-10.9071
外有	-10.9072
關元	-10.9074
飮食	-10.9076
梓	-10.908
某乙	-10.9081
開明	-10.9081
陰盛	-10.9084
能行	-10.9085
紫煙	-10.9092
三百六十五	-10.9092
易象	-10.9094
定庵曰	-10.9096
食飲	-10.9097
度量	-10.9101
雖無	-10.9103
間隔	-10.9105
地理	-10.9106
著於	-10.9117
厥逆	-10.9118
不交	-10.9118
圓成	-10.9122
通乎	-10.9123
礬石	-10.9127
自悟	-10.9128
大抵	-10.9128
後五日	-10.913
善言	-10.913
相親	-10.913
道德經	-10.9136
也昔	-10.9139
道經	-10.9141
戒之	-10.9143
肺金	-10.9143
有名	-10.9144
所聞	-10.9144
乘雲	-10.9147
禮樂	-10.9147
之質	-10.915
沖和	-10.915
遞	-10.9152
河東	-10.9152
金生水	-10.9154
脉之會	-10.9155
火中	-10.916
壽命	-10.9165
非一	-10.917
何也岐伯曰	-10.9171
一夕	-10.9172
飛雲	-10.9175
真一	-10.9176
一十四	-10.9176
而入于	-10.9184
海内	-10.9185
有言	-10.9186
得成	-10.9191
月魄	-10.9193
所以能	-10.9193
伯陽	-10.9193
朱書	-10.9193
可與	-10.9196
不煩	-10.9197
道非	-10.9199
吾有	-10.9204
知覺	-10.9204
死於	-10.9207
識者	-10.9209
位而	-10.9209
直上	-10.921
其候	-10.921
學士	-10.921
事也	-10.9214
黄花	-10.9216
在目前	-10.9217
字子	-10.922
大敗	-10.9223
傳云	-10.923
飛入	-10.9231
空寂	-10.9238
十有四	-10.9241
血血	-10.9242
出没	-10.9243
不窮	-10.9245
俟其	-10.9246
俞在	-10.9246
之臺	-10.9248
眞神	-10.9248
侍中	-10.925
山高	-10.9253
夜行	-10.9254
塵世	-10.9255
五百里	-10.9255
未聞	-10.9257
也又曰	-10.9257
不常	-10.9264
汞鉛	-10.9267
玄中	-10.9276
參同	-10.9276
澄心	-10.9281
運交時面向	-10.9282
精進	-10.9282
距	-10.9282
篩	-10.9284
黍米	-10.9284
凑	-10.9284
九華	-10.9285
陽光	-10.9285
殞	-10.9286
青天	-10.9286
鋪	-10.9287
之民	-10.9287
五德	-10.9289
警	-10.929
張道陵	-10.929
饌	-10.929
臯	-10.929
梢	-10.9291
羞	-10.9292
慙	-10.9292
笙	-10.9292
纓	-10.9292
迥	-10.9292
悟眞篇云	-10.9293
縫	-10.9293
辦	-10.9293
懿	-10.9294
規矩	-10.9294
梗	-10.9297
拾	-10.9298
罏	-10.9298
魏伯陽	-10.9298
祇	-10.9299
懶	-10.9299
社廟	-10.9299
自來	-10.93
易也	-10.93
其地	-10.9301
叓	-10.9301
三度	-10.9302
纂	-10.9302
者陽也	-10.9304
瑛	-10.9304
厚薄	-10.9307
崑崙之	-10.9309
黄庭經云	-10.931
光元曰	-10.931
手太隂	-10.9312
手心主	-10.9313
此等	-10.9314
金門	-10.9315
大修行人	-10.9317
太淵	-10.9317
玉爐	-10.9319
璞	-10.9322
以火	-10.9323
調其	-10.9323
白鹿	-10.933
同法	-10.9332
爲木	-10.9335
河中	-10.9338
長子	-10.9339
然如	-10.934
故其	-10.934
洞徹	-10.9342
能使	-10.9344
輪轉	-10.9344
運太過	-10.9345
更不	-10.9345
何嘗	-10.9347
氣應	-10.9348
補寫	-10.9348
鼎爐	-10.9352
肺病	-10.9354
勤行	-10.9356
乘之	-10.9356
一丈	-10.9357
乃作	-10.9359
自稱	-10.936
居家	-10.9361
方始	-10.9363
三十有六	-10.9364
珠玉	-10.9365
易遷	-10.9366
生涯	-10.9366
氣口	-10.9369
俗人	-10.937
此藥	-10.9371
二百五	-10.9373
天蓬	-10.9373
不善	-10.9375
流霞	-10.9376
圓通	-10.9377
會合	-10.938
心上	-10.9382
退位	-10.9383
在後	-10.9384
事業	-10.939
志士	-10.9392
八十四	-10.9395
先生曰	-10.9408
尺五寸	-10.941
畢乃	-10.9411
喪其	-10.9412
多食	-10.9414
不死之道	-10.9414
經文	-10.9415
内守	-10.9415
四極	-10.9419
即有	-10.9425
實者	-10.9425
廣大	-10.9427
機關	-10.9428
其猶	-10.943
以辛	-10.9432
無别	-10.9433
以氣	-10.9435
乘龍	-10.9438
或見	-10.9438
具足	-10.9439
究其	-10.9441
本師	-10.9444
者雖	-10.9447
合乎	-10.9452
一百八	-10.9455
爲司徒	-10.9456
滿則	-10.9456
人倫	-10.946
立夏	-10.9471
正宫	-10.9472
神龍	-10.9474
從而	-10.9477
之事也	-10.9477
瑕	-10.9478
大哉	-10.9479
即知	-10.9479
邪在	-10.948
真君	-10.9481
休息	-10.9483
不可妄	-10.9485
未足	-10.9488
則水	-10.9488
法籙	-10.9491
大易	-10.9498
臨目	-10.9499
爲鬼	-10.9501
必以	-10.9503
方外	-10.9504
爲國	-10.9505
吾身之	-10.9505
也汞	-10.9506
繇	-10.9507
戸	-10.9509
右腎	-10.9509
蒂	-10.9512
地下	-10.9513
終則	-10.9513
閔	-10.9516
不爾	-10.9517
株	-10.9517
不亂	-10.9518
牡	-10.9519
混然	-10.9519
不見其	-10.9521
鎔	-10.9522
尺寸	-10.9523
千人	-10.9524
芬	-10.9526
居于	-10.9526
斥	-10.9527
虐	-10.9527
藹	-10.9528
讃	-10.9528
偕	-10.9528
也靈樞經曰	-10.9529
𩱿	-10.9529
斫	-10.9529
秤	-10.9529
太上大道君	-10.9531
浩浩	-10.9531
裕	-10.9532
璨	-10.9532
鑠	-10.9532
躭	-10.9532
祅	-10.9532
膕	-10.9533
輻	-10.9533
静	-10.9534
餌之	-10.9535
騁	-10.9535
百步	-10.9535
紹	-10.9535
滄海	-10.9537
留於	-10.9537
羡	-10.9538
靈符	-10.9539
亦復如是	-10.9539
悮	-10.954
翟	-10.954
之精氣	-10.9541
悖	-10.9542
嫉	-10.9544
弑其君	-10.9547
災厄	-10.955
九十九	-10.9557
匈奴	-10.9557
脾藏	-10.9558
罔象	-10.9559
鼻孔	-10.956
其陽多	-10.956
一符	-10.956
深淺	-10.9562
天官	-10.9563
不專	-10.9566
心病	-10.9568
金陵	-10.9573
者以其	-10.9574
因其	-10.9575
新校正云按甲乙經作	-10.9575
用九	-10.9577
其術	-10.9578
腎者	-10.9582
伐鄭	-10.9582
行年	-10.9584
陽爻	-10.9584
冥心	-10.9586
返照	-10.9587
一朝	-10.9588
夢中	-10.9593
肝主	-10.9595
爲司空	-10.9597
而陰	-10.9598
大雨	-10.9598
仙都	-10.9598
一星	-10.9598
冲和	-10.9598
心意	-10.9601
即爲	-10.9602
者脾	-10.9604
傳送	-10.9606
無疾	-10.9606
神守	-10.961
依舊	-10.9611
非我	-10.9611
復爲	-10.9611
一節	-10.9612
隨其	-10.9612
宗祖	-10.9618
占事	-10.9619
土釜	-10.962
得之以	-10.9627
度數	-10.9631
冠衣	-10.9634
景雲	-10.9643
人或	-10.9643
泰山	-10.9647
前聖	-10.9648
如意	-10.9651
鉛也	-10.9653
臍中	-10.9653
小車	-10.9654
正法	-10.9655
祕之	-10.9656
第十一	-10.9657
赤水	-10.9661
其腹	-10.9662
經營	-10.9663
氣力	-10.9666
則民	-10.9666
也帝曰善	-10.9667
行於上	-10.9669
司命君	-10.9673
左腎	-10.9679
昔者	-10.968
屬金	-10.9681
以金	-10.9689
岐伯	-10.969
雲氣	-10.9699
又見	-10.9699
之制	-10.9712
八十二	-10.9714
世有	-10.9723
亦自	-10.9725
九元	-10.9729
萬歲	-10.9729
安樂窩中	-10.9737
不愈	-10.9738
其㫖	-10.9738
天寶	-10.9739
五五	-10.974
直至	-10.9744
何哉	-10.9745
妄行	-10.9747
紫清	-10.975
二穴在	-10.9757
説	-10.9761
天王姓	-10.9762
什	-10.9763
貝	-10.9765
鶯	-10.9766
耐	-10.9766
蜂	-10.9766
稟	-10.9767
留之	-10.9768
當此之時	-10.9768
面有	-10.9768
葵	-10.977
摸	-10.977
窈冥	-10.977
䧺	-10.9771
寥寥	-10.9773
至游子曾慥集	-10.9774
濃	-10.9774
遜	-10.9774
槩	-10.9775
慰	-10.9775
該	-10.9775
悔吝	-10.9775
曷	-10.9775
三陰三陽	-10.9775
皇人	-10.9776
翠虚篇云	-10.9776
痾	-10.9777
竦	-10.9778
鳳翔	-10.9778
起于	-10.9779
撮	-10.9779
死生之	-10.978
蔣	-10.9782
古文	-10.9782
土德	-10.9783
世子	-10.9783
秦王	-10.9784
一吸	-10.9784
億萬	-10.9784
琅玕	-10.9785
而致	-10.9785
不守	-10.9787
册	-10.9788
事事	-10.9788
豫章	-10.9791
净	-10.9792
易者	-10.9792
一十三	-10.9793
高眞	-10.9794
甚者	-10.9795
分肉	-10.9796
者主	-10.9797
旁門	-10.9798
鬱鬱	-10.9799
夏王	-10.9804
音聲	-10.9806
曹操	-10.9816
不厭	-10.9816
玄白	-10.9821
一十	-10.9822
上朝	-10.9824
者陰也	-10.9829
攻之	-10.983
外側	-10.9832
之極也	-10.9835
帝晨	-10.984
積聚	-10.984
來下	-10.984
三眞	-10.9842
紀綱	-10.9842
何況	-10.9844
則陽氣	-10.9844
無妄	-10.9845
朗然	-10.9847
以正	-10.9847
而至于	-10.9849
既有	-10.985
其息	-10.9851
能制	-10.9851
花開	-10.9857
肝爲	-10.986
乎哉	-10.9863
五雲	-10.9863
也或問	-10.9867
斯言	-10.9874
相成	-10.9874
此三者	-10.9877
神官	-10.988
離合	-10.9886
狀若	-10.9888
承當	-10.9893
又言	-10.9894
不改	-10.9895
病生	-10.9895
水其中多	-10.9897
不降	-10.9902
日月之精	-10.9905
而赤	-10.9906
金籙	-10.9908
午時	-10.9908
大功	-10.9909
於乾	-10.991
惡者	-10.9911
無傷	-10.9913
聖師	-10.9914
孟子	-10.9914
存焉	-10.9917
幽玄	-10.992
小者	-10.9921
龍蛇	-10.9924
十四年	-10.9924
舌下	-10.9925
向日	-10.9925
王子	-10.9926
蓋以	-10.9928
九十七	-10.9929
而取	-10.9931
土木	-10.9932
甲己	-10.9933
動作	-10.9935
超然	-10.9935
變也	-10.9936
爲末	-10.9936
各得其	-10.9937
正心	-10.9941
能致	-10.9947
則可以	-10.9952
日辰	-10.9957
通暢	-10.9958
虚心	-10.9973
白馬	-10.9973
花花花花	-10.9974
眉眉眉眉	-10.9974
之器	-10.9976
學而	-10.9976
十卷	-10.9982
相守	-10.9983
吾吾吾吾	-10.9983
之域	-10.9984
身外	-10.9987
所知	-10.9988
三呼	-10.9989
同同同同	-10.9989
明眞	-10.9989
顆	-10.9991
公卒子	-10.9993
瓶瓶瓶瓶	-10.9993
亞亞亞亞	-10.9993
目目目目	-10.9994
帝帝帝帝	-10.9994
走走走走	-10.9995
五五五五	-10.9995
備備備備	-10.9998
白白白白	-10.9998
法法法法	-10.9998
凡凡凡凡	-10.9998
九九九九	-10.9999
萬遍	-11
母母母母	-11.0001
飛飛飛飛	-11.0001
賢賢賢賢	-11.0001
瓦瓦瓦瓦	-11.0001
生命	-11.0001
諸方	-11.0002
田田田田	-11.0002
而合	-11.0002
手手手手	-11.0002
南南南南	-11.0002
揆揆揆揆	-11.0002
月月月月	-11.0003
朴朴朴朴	-11.0003
石石石石	-11.0004
貢	-11.0004
品品品品	-11.0004
冷冷冷冷	-11.0005
鹿鹿鹿鹿	-11.0005
雄雄雄雄	-11.0005
武武武武	-11.0005
匹匹匹匹	-11.0006
玉芝	-11.0006
香香香香	-11.0006
釋迦	-11.0006
大大大大	-11.0006
父父父父	-11.0006
女女女女	-11.0006
堯堯堯堯	-11.0007
卜卜卜卜	-11.0007
自自自自	-11.0007
㒵㒵㒵㒵	-11.0007
离离离离	-11.0007
東東東東	-11.0008
未未未未	-11.0008
鼻鼻鼻鼻	-11.0008
朙	-11.0008
丑丑丑丑	-11.0008
簿	-11.0008
万万万万	-11.0009
象象象象	-11.0009
民民民民	-11.0009
哉哉哉哉	-11.001
丞	-11.001
宅宅宅宅	-11.001
米米米米	-11.0011
吠吠吠吠	-11.0011
旁旁旁旁	-11.0011
乾乾乾乾	-11.0011
丘丘丘丘	-11.0011
第十四	-11.0012
孽	-11.0012
牙牙牙牙	-11.0012
偈	-11.0013
云是	-11.0013
見于	-11.0013
匠匠匠匠	-11.0013
普普普普	-11.0013
黄黄黄黄	-11.0013
紅塵	-11.0014
足足足足	-11.0014
存心	-11.0014
乃乃乃乃	-11.0014
文文文文	-11.0015
笛	-11.0016
在在在在	-11.0016
夫夫夫夫	-11.0016
星星星星	-11.0016
斯須	-11.0017
尾尾尾尾	-11.0017
安安安安	-11.0017
弟弟弟弟	-11.0017
赤赤赤赤	-11.0018
内内内内	-11.0018
仰仰仰仰	-11.0018
搗	-11.0018
攣	-11.0018
咫尺	-11.0018
馬馬馬馬	-11.0019
究竟	-11.0019
上臨	-11.0019
天天天天	-11.0019
實而	-11.0019
甲甲甲甲	-11.002
血血血血	-11.002
唐太僕令啓玄子王氷次註宋光禄卿直	-11.0021
掇	-11.0021
全全全全	-11.0021
寺寺寺寺	-11.0021
巧巧巧巧	-11.0021
盼	-11.0021
曹曹曹曹	-11.0021
百百百百	-11.0021
莊莊莊莊	-11.0022
吕吕吕吕	-11.0022
震震震震	-11.0022
直直直直	-11.0022
抗	-11.0023
义义义义	-11.0023
寅寅寅寅	-11.0023
凛	-11.0023
犖犖犖犖	-11.0023
幾人	-11.0024
平平平平	-11.0024
至德	-11.0024
詢	-11.0024
毗	-11.0025
同身寸之三寸	-11.0025
戟	-11.0025
枝葉	-11.0025
杓	-11.0026
昂	-11.0026
才才才才	-11.0027
必必必必	-11.0027
卓卓卓卓	-11.0027
士士士士	-11.0027
采采采采	-11.0028
丙丙丙丙	-11.0028
坼坼坼坼	-11.0028
耳耳耳耳	-11.0028
癸癸癸癸	-11.0029
玉珮	-11.0029
釐	-11.0029
乙乙乙乙	-11.0029
中中中中	-11.0029
排排排排	-11.0029
酣	-11.0029
崇崇崇崇	-11.0029
爻爻爻爻	-11.0029
貪貪貪貪	-11.003
一一一一	-11.003
華華華華	-11.003
宦	-11.003
蹙	-11.0031
海蟾	-11.0032
南嶽夫人	-11.0032
朕	-11.0032
終而復始	-11.0032
古古古古	-11.0032
老老老老	-11.0033
山山山山	-11.0033
乍乍乍乍	-11.0034
黑黑黑黑	-11.0034
岡	-11.0034
閱	-11.0034
打破	-11.0034
七七七七	-11.0035
胤丹	-11.0037
思思思思	-11.0037
茶茶茶茶	-11.0037
大羅	-11.0037
步步步步	-11.0038
微呪曰	-11.0038
近近近近	-11.004
坤坤坤坤	-11.004
驢	-11.004
二二二二	-11.0041
毛髮	-11.0041
三三三三	-11.0041
草草草草	-11.0042
呈呈呈呈	-11.0043
漏泄	-11.0043
亦須	-11.0043
兌兌兌兌	-11.0044
煉氣	-11.0045
無數	-11.0046
丹丹丹丹	-11.0046
辰辰辰辰	-11.0048
妳妳妳妳	-11.0049
捻訣	-11.0049
坦然	-11.0049
美美美美	-11.0051
本末	-11.0051
便得	-11.0052
年年年年	-11.0052
以陽	-11.0052
夏禹	-11.0053
鍾離	-11.0054
相配	-11.0056
而内	-11.0058
青色	-11.0059
覃覃覃覃	-11.0064
丁壬	-11.0067
不飢	-11.0069
其汞	-11.007
乎天地	-11.0072
三萬六千	-11.0073
青衣	-11.0074
一小	-11.0074
目明	-11.0074
以通	-11.0075
至其	-11.0081
一百四	-11.0082
鬼賊	-11.0082
忘其	-11.0087
太陽水	-11.0088
驅使	-11.0089
外應	-11.0091
内經	-11.0093
細微	-11.0096
丹青	-11.0098
老君告	-11.0098
難可	-11.0098
不壞	-11.0099
所云	-11.0099
腹痛	-11.0102
山海經	-11.0102
須要	-11.0103
煉之	-11.0105
數年	-11.0106
將何	-11.0107
相反	-11.0109
潜龍	-11.0109
水府	-11.0111
行者	-11.0111
八十六	-11.0116
自當	-11.0117
而愈	-11.0118
八會	-11.0119
乃以	-11.012
認得	-11.0123
斷絶	-11.0125
各三	-11.0125
節候	-11.0125
虎龍	-11.0126
受生	-11.0126
爲逆	-11.013
玉泉	-11.0131
惡寒	-11.0131
一十九	-11.0136
至大	-11.0136
者火也	-11.0138
之法也	-11.0143
其藥	-11.0155
千金	-11.0165
不疑	-11.0166
之所生也	-11.0168
自無	-11.0169
氏之	-11.0171
何曾	-11.0174
府也	-11.0175
知人	-11.0175
熱化	-11.0175
爻象	-11.0178
多有	-11.0184
都不	-11.0185
軍于	-11.0187
下田	-11.0188
極於	-11.0189
太過故	-11.0189
之志	-11.0191
皆因	-11.0191
不使	-11.0193
各異	-11.0193
五升	-11.0194
向外	-11.0195
山水	-11.0196
猶是	-11.0199
司地	-11.0199
中自有	-11.0204
神機	-11.0211
立於	-11.0213
陽和	-11.0213
有十	-11.0217
公孫	-11.0218
去世	-11.0218
洞達	-11.0222
仙眞	-11.0222
⬤(	-11.0225
四卦	-11.0227
初起	-11.023
大事	-11.0231
九天之上	-11.0234
交接	-11.0236
登山	-11.0238
雲霞	-11.0238
何以故	-11.0244
已得	-11.0245
之室	-11.0251
道經當思	-11.0253
浮生	-11.0257
爲土	-11.0258
不畏	-11.0261
以類	-11.0263
靜定	-11.0264
滄	-11.0266
眞官	-11.0271
耆	-11.0271
寂寞	-11.0274
迨	-11.0274
若此	-11.0275
紂	-11.0275
孩	-11.0276
王王王王	-11.0276
結胎	-11.0277
祕閣林億等校正	-11.0277
自足	-11.0278
綜	-11.0278
渺	-11.0278
藻	-11.0279
洽	-11.0279
擺	-11.028
毫釐	-11.028
蹇	-11.028
霑	-11.0281
胕腫	-11.0281
勳	-11.0281
鷄鳴	-11.0282
孚	-11.0282
交結	-11.0282
劇	-11.0282
玉童玉女	-11.0283
謂之曰	-11.0283
从	-11.0283
恕	-11.0284
謂其	-11.0285
其目	-11.0286
杞	-11.0286
櫛	-11.0286
虯虯虯虯	-11.0286
聘	-11.0286
飄飄	-11.0287
爾雅	-11.029
虎狼	-11.029
桐	-11.029
無草木	-11.0291
此心	-11.0296
兇	-11.0297
絶粒	-11.0297
飛天綱	-11.0298
榮辱	-11.03
開闔	-11.0304
荀	-11.0305
而天下	-11.0307
乙庚	-11.0313
白蜜	-11.0313
眞訣	-11.0318
紫庭	-11.0318
新校正云按甲乙經云	-11.0318
三寶	-11.0319
濕化	-11.032
猶可	-11.0321
相望	-11.0321
十人	-11.0326
害人	-11.0326
交泰	-11.0331
門人	-11.0337
首尾	-11.0341
盛故	-11.0342
乎答云	-11.0344
明年	-11.0344
昭昭	-11.0345
爲皇太子	-11.0345
清凈	-11.0348
煑之	-11.0358
所不勝	-11.0358
實爲	-11.036
陰爻	-11.0366
點化	-11.0371
故無	-11.0371
從子	-11.0373
邪正	-11.0376
安身	-11.0378
發泄	-11.0391
光陰	-11.0391
三百五	-11.0401
眞炁	-11.0406
深處	-11.0408
神王	-11.041
二斗	-11.0412
在左手	-11.0424
永無	-11.0426
文公	-11.0427
收氣	-11.0428
凡欲	-11.043
于腎	-11.043
惡鬼	-11.0431
欲使	-11.0431
十萬	-11.0433
之丹	-11.0437
下士	-11.0441
及至	-11.0442
安有	-11.0444
體重	-11.0444
雲水	-11.0445
其口	-11.0446
文侯	-11.0446
督	-11.0446
七過	-11.045
爲君	-11.0455
向前	-11.0458
不全	-11.0462
右轉	-11.0467
不虧	-11.0475
依時	-11.0477
錬氣	-11.0486
以鹹	-11.0489
自可	-11.0499
成仙	-11.0503
吾嘗	-11.0504
天理	-11.0504
常住	-11.0505
師子	-11.0509
悉皆	-11.0512
章第七	-11.0518
玄子	-11.0518
已有	-11.0519
怯	-11.0521
童顔	-11.0522
洗心	-11.0523
氣象	-11.0523
待時	-11.0524
如雞子	-11.0525
瞳	-11.0525
畢微祝曰	-11.0526
甚矣	-11.0527
降於	-11.0528
經法	-11.053
六一泥	-11.0531
翊	-11.0532
其支者	-11.0533
眎	-11.0533
還家	-11.0533
霽	-11.0533
天樞	-11.0534
瓢	-11.0535
亢倉㜽	-11.0535
盪	-11.0536
盻	-11.0537
棒	-11.0537
燧	-11.0537
陂	-11.0537
擔	-11.0538
菽	-11.0538
汾	-11.0539
恁麽	-11.0539
憩	-11.054
汧	-11.0541
驂	-11.0541
章第六	-11.0542
骷髏	-11.0543
之體也	-11.0544
峙	-11.0545
卒然	-11.0545
躋	-11.0545
涌泉	-11.0546
郁	-11.0546
道流	-11.0546
山頭	-11.0547
沮	-11.0547
鍜	-11.0547
濁者	-11.0548
有鳥焉其狀如	-11.0548
塵埃	-11.0548
也是爲	-11.0549
妙哉	-11.0549
闔闢	-11.0549
霓	-11.0551
火記	-11.0551
熒	-11.0552
蟻	-11.0552
邾	-11.0552
扁鵲	-11.0552
蠢	-11.0552
嬉	-11.0553
擅	-11.0553
犢	-11.0553
薑	-11.0556
甑	-11.0556
勵	-11.0557
頴	-11.0557
豺	-11.0558
中篇	-11.0558
泓	-11.056
九十五	-11.0563
如來	-11.0563
中原	-11.0564
忠孝	-11.0565
八十九	-11.0565
屬于	-11.0566
魒	-11.0567
殊不	-11.0568
威儀	-11.0568
且如	-11.0573
脾爲	-11.0573
自覺	-11.0576
反爲	-11.0576
受符	-11.0578
朝夕	-11.0579
可治	-11.058
司録	-11.058
專政	-11.0582
必當	-11.0583
五藏之氣	-11.0585
平人	-11.0585
乎此	-11.0586
忠信	-11.0586
元首	-11.0589
一室	-11.0589
南面	-11.0595
勝負	-11.0597
人死	-11.0599
青童君	-11.0602
此非	-11.0604
皆然	-11.0604
炎炎	-11.0605
磁石	-11.0606
讀書	-11.0608
太白星	-11.0608
先聖	-11.061
青霞	-11.0613
罪福	-11.0616
五更	-11.0617
太隂土	-11.062
損益	-11.0624
忘機	-11.0626
昇入	-11.0627
五辛	-11.0629
上篇	-11.0629
求長生	-11.0633
鷄子	-11.0633
止于	-11.0634
赤白	-11.0635
者取之	-11.0636
木火	-11.0637
一千六	-11.0638
九皇	-11.064
八十八	-11.0644
皆同	-11.0645
方能	-11.0646
腎病	-11.0654
半日	-11.0654
何用	-11.0655
靈丹	-11.0657
萬類	-11.0658
相臨	-11.066
雲林	-11.0662
不異	-11.0664
盡是	-11.0666
三旬	-11.0667
相干	-11.0676
交通	-11.0677
一性	-11.0678
大司馬	-11.0679
寫其	-11.068
素靈	-11.0682
司徒	-11.069
而退	-11.069
縣屬	-11.069
北方水	-11.0693
高仙	-11.0695
盡而	-11.0696
百鬼	-11.0696
含眞	-11.0698
也何謂	-11.07
肝病	-11.07
所成	-11.0701
鍾山	-11.0703
二尺	-11.0703
訣在	-11.0705
蓮花	-11.071
也又云	-11.071
惡則	-11.0712
手指	-11.0712
日月星	-11.0713
不順	-11.0713
汞汞	-11.0721
神虎	-11.0723
天師曰	-11.0726
黑帝	-11.0731
八十三	-11.0733
大都	-11.0737
其六	-11.0737
無疑	-11.0737
不爭	-11.0743
眉間	-11.0755
斛	-11.0755
之路	-11.0756
衆妙	-11.0757
春風	-11.076
無念	-11.0763
右一條	-11.0764
明師	-11.077
九十二	-11.0771
寒水	-11.0771
養形	-11.0777
有德	-11.0778
乎夫	-11.078
之所由	-11.078
相接	-11.0781
二用	-11.0784
子欲	-11.0785
之候也	-11.0785
相求	-11.0785
九十四	-11.0787
丹田中	-11.0788
味酸	-11.079
去後	-11.0791
桓公	-11.0791
在其中	-11.0793
生成之	-11.0793
交於	-11.0798
其始	-11.0798
一千八	-11.0799
八門	-11.08
臑	-11.0802
爲始	-11.0803
綸	-11.0803
塑	-11.0805
一轉	-11.0805
嫩	-11.0805
赭	-11.0805
黄道	-11.0806
形神俱妙	-11.0807
蠹	-11.0808
婢	-11.0808
綵	-11.0809
慈悲	-11.0809
朵	-11.081
儘	-11.081
定則	-11.0811
秋毫	-11.0811
刊	-11.0812
癖	-11.0812
裔	-11.0812
嗌乾	-11.0813
閬苑	-11.0813
行住坐卧	-11.0813
杭	-11.0814
扃	-11.0814
徇	-11.0815
葢	-11.0816
夀	-11.0816
儲	-11.0816
下流	-11.0817
玄之又玄	-11.0817
長七寸	-11.0818
蕭蕭	-11.0819
靜處	-11.082
土土土土	-11.082
宮	-11.082
一門	-11.0821
片餉	-11.0821
鵲	-11.0822
者天地之	-11.0823
慨	-11.0823
燼	-11.0824
鉤	-11.0824
北斗七星	-11.0824
沛	-11.0825
卉	-11.0826
中極	-11.0827
覆載	-11.0828
長跪	-11.0829
屬陰	-11.0832
好生	-11.0835
官吏	-11.0841
一十七	-11.0843
其妙	-11.0844
盜賊	-11.0844
勞神	-11.0844
過去	-11.0844
萬邪	-11.0844
黄帝曰善	-11.0849
二篇	-11.0852
傷肝	-11.0852
身神	-11.0853
相吞	-11.0855
仙子	-11.0855
六兩	-11.0855
於天下	-11.0858
一百一	-11.0858
施化	-11.0858
金蓮	-11.0862
順也	-11.0862
六戊	-11.0864
未免	-11.0869
以救	-11.0869
亦不可	-11.0873
非世	-11.0875
左遷	-11.0876
之次	-11.0877
過度	-11.0882
十干	-11.0883
改元建	-11.0884
各以	-11.0888
内景	-11.0888
是書	-11.0888
温温	-11.0891
始治	-11.0892
星甲	-11.0895
玉籙	-11.0896
香火	-11.0901
水母	-11.0902
言言	-11.0904
三斤	-11.0905
靈飛	-11.0907
余聞	-11.0911
王者	-11.0913
可爲	-11.0914
赤城	-11.0914
行勝	-11.0917
熱熱	-11.0923
依此	-11.0923
養就	-11.0925
次即	-11.0926
無滯	-11.0927
但有	-11.0939
可得而	-11.094
稱兵	-11.0941
爲小	-11.0944
震爲	-11.0946
常令	-11.095
之分也	-11.0951
之脉起於	-11.0952
爲害	-11.0959
掌中	-11.0959
□(	-11.096
眞僞	-11.0961
陰極	-11.0969
頂上	-11.097
洞虚	-11.0978
性性	-11.098
地皇	-11.0981
經書	-11.0982
百萬	-11.0983
閑居	-11.0985
鍊氣	-11.0986
與夫	-11.0987
千古	-11.0987
正經	-11.0989
王侯	-11.0993
謂此	-11.0993
浮雲	-11.0993
所殺	-11.0994
家人	-11.0996
正中	-11.0996
正眞	-11.0997
豈得	-11.0999
踝	-11.1001
在肺	-11.1003
靈明	-11.1005
三斗	-11.1005
三君	-11.1005
者氣之	-11.1007
此語	-11.1008
神清	-11.1009
以待	-11.101
萬古	-11.1012
靈書	-11.1013
變則	-11.1019
合同	-11.1019
祕訣	-11.102
入火	-11.1024
青雲	-11.1029
按摩	-11.1029
常用	-11.103
十一日	-11.1031
靈芝	-11.1034
四明	-11.104
來生	-11.104
保其	-11.1045
之勝也	-11.1045
頭頭	-11.1052
以兩手	-11.1057
此意	-11.1057
仙君	-11.106
一時之	-11.1061
自明	-11.1062
一等	-11.1065
第十三	-11.1065
守神	-11.1078
數至	-11.1079
恬淡	-11.108
堤	-11.108
蘿	-11.1081
凄	-11.1081
狡	-11.1081
啖	-11.1083
行持	-11.1083
可得聞乎	-11.1084
敖	-11.1086
僚	-11.1087
忒	-11.1087
勘	-11.1088
糠	-11.1088
塡	-11.1088
鑚	-11.1089
幃	-11.1089
新校正云按别本	-11.1089
挈	-11.109
精液	-11.109
太上曰	-11.109
偃卧	-11.109
鉛爲	-11.109
澁	-11.1091
玄牝之門	-11.1091
不問	-11.1092
酆	-11.1092
噬	-11.1093
恬惔	-11.1093
骨空	-11.1094
奎	-11.1095
弃弃弃弃	-11.1095
玲瓏	-11.1096
黙	-11.1096
豚	-11.1096
蝕	-11.1096
二直之候也	-11.1097
弈	-11.1098
麵	-11.1098
協	-11.1098
匹配	-11.1098
蹊	-11.1098
芳草	-11.1099
忻	-11.1099
妬	-11.1099
一切衆生	-11.11
七月七日	-11.1101
根蒂	-11.1102
五金八石	-11.1103
達磨	-11.1103
賞罰	-11.1103
而不得	-11.1103
湛湛	-11.1104
盂	-11.1104
委曲	-11.1105
藩	-11.1105
三百八	-11.1105
鬱儀	-11.1107
能言	-11.1109
足厥隂	-11.111
一十一	-11.1111
遊宴	-11.1111
泄之	-11.1112
爲日	-11.1112
頓首	-11.1115
各隨	-11.1119
不惑	-11.1121
入海	-11.1124
四時之氣	-11.1126
二女	-11.1128
徒勞	-11.1129
夫人之	-11.1132
無害	-11.1134
震巽	-11.1135
百川	-11.1137
亦復	-11.114
玉漿	-11.1141
爲隂	-11.1146
寳珠	-11.1146
在地爲	-11.1148
塵勞	-11.1148
不堅	-11.1149
通眞	-11.1153
丙辛	-11.1154
可以長生	-11.1154
紫色	-11.1154
分付	-11.1155
其機	-11.1161
與天地同	-11.1163
京師	-11.1164
欲令	-11.1164
以次	-11.1165
記之	-11.1165
急急	-11.1167
不斷	-11.1169
久視	-11.1172
藥成	-11.1172
天涯	-11.1173
可知矣	-11.1174
不違	-11.1174
全無	-11.1181
目前	-11.1181
大人	-11.1182
之功也	-11.1185
乾卦	-11.1185
爰有	-11.1186
靈氣	-11.1187
萬丈	-11.1189
應用	-11.1189
未出	-11.119
萬縁	-11.119
以右手	-11.1193
青山	-11.1195
焉有	-11.1198
黄房	-11.1199
不妨	-11.1207
煉形	-11.1209
靜者	-11.1213
復以	-11.1215
玄德	-11.1226
丹臺	-11.1227
也吾之	-11.1234
南斗	-11.1235
來見	-11.1236
道場	-11.1238
有志	-11.1242
不能知	-11.1243
則止	-11.1244
二星	-11.1246
亦不得	-11.1247
六曰	-11.1248
妄傳	-11.1248
運化	-11.1255
近於	-11.1256
精氣神	-11.1259
正角	-11.1259
曰某	-11.1262
至靈	-11.1262
仙童	-11.1268
要道	-11.127
北辰	-11.1276
九五	-11.1277
青帝	-11.1283
八九	-11.1285
泥丸宫	-11.1286
本根	-11.1287
爲母	-11.1288
自心	-11.1288
而不行	-11.1288
靈驗	-11.1293
斤兩	-11.1295
玉蟾	-11.1297
通于	-11.1297
常思	-11.1299
真氣	-11.1299
人我	-11.1299
故爾	-11.1303
逆流	-11.1305
其令	-11.1306
告曰	-11.1308
神識	-11.131
是云	-11.1311
月滿	-11.1312
聖君	-11.1312
傷脾	-11.1312
都是	-11.1316
匱	-11.1317
聖人之道	-11.1318
皇太子	-11.1318
東山	-11.1319
媾	-11.132
行功	-11.1322
劉子	-11.1322
人君	-11.1323
逆則	-11.1329
同體	-11.1331
派	-11.1338
取象	-11.1341
十有五日	-11.1341
斯道	-11.1342
足矣	-11.1345
苦海	-11.1346
要在	-11.1347
天降	-11.1347
長養	-11.1347
不得妄	-11.1349
至亥	-11.1352
疼	-11.1355
顴	-11.1359
人之身	-11.136
脚跟	-11.1361
不曾	-11.1361
摹	-11.1362
傑	-11.1362
周公	-11.1363
磬	-11.1364
艾	-11.1365
無所見	-11.1366
鱉	-11.1367
彖	-11.1367
蟄蟲	-11.1367
隻	-11.1367
發爲	-11.1368
畧	-11.1369
饗	-11.1369
肋	-11.1369
南流注于	-11.137
犀	-11.1371
之歲上見	-11.1371
樣	-11.1372
冕	-11.1372
涇	-11.1372
謐	-11.1373
蔭	-11.1373
熨	-11.1373
橐	-11.1374
兕	-11.1374
稚	-11.1374
稽首再拜	-11.1374
塘	-11.1374
瞋	-11.1374
猴	-11.1375
瀝	-11.1375
推而	-11.1375
臆	-11.1376
竺	-11.1376
陌	-11.1376
顚	-11.1377
虖	-11.1377
重重	-11.1378
儼	-11.1378
欒	-11.1378
犧	-11.1378
其獸多	-11.1379
𢘆	-11.1379
隳	-11.1379
達觀	-11.138
栽	-11.138
恚	-11.138
無餘	-11.1381
無中	-11.1381
毫毛	-11.1381
椒	-11.1381
巿	-11.1381
笈	-11.1381
弃	-11.1382
餓	-11.1382
二腎	-11.1382
言之則	-11.1383
休歇	-11.1383
大數	-11.1383
孰知	-11.1384
狸	-11.1385
霹靂	-11.1385
黄河	-11.1385
㖟	-11.1387
城郭	-11.1388
謂應作	-11.1388
髮際	-11.1389
丹藥	-11.1389
畢竟	-11.1391
置於	-11.1392
庾	-11.1394
京兆	-11.1395
靡不	-11.1396
十歲	-11.1401
烏兔	-11.1402
來歸	-11.1404
五臓	-11.1406
脾脾	-11.1406
水官	-11.1409
師傳	-11.141
主簿	-11.1411
句容	-11.1412
流沙	-11.1418
但見	-11.1418
也或曰	-11.142
者金也	-11.142
元來	-11.1422
外廉	-11.1422
雨露	-11.1426
學道之人	-11.1426
陰中之陽	-11.1428
以表	-11.143
山嶽	-11.1431
吞之	-11.1434
初學	-11.1434
兩脚	-11.144
開目	-11.144
斯文	-11.144
熒惑星	-11.1442
百餘年	-11.1443
徙居	-11.1444
者也於是	-11.1446
在人爲	-11.1451
滿口	-11.1452
識破	-11.1452
離坎	-11.1454
不知其所	-11.1457
道體	-11.1457
其來	-11.1467
每至	-11.1467
十有五	-11.1474
隱顯	-11.1477
上循	-11.1478
天府	-11.148
有命	-11.1487
以手按	-11.1499
玄洲	-11.15
箇中	-11.15
于時	-11.1508
流於	-11.1508
無影	-11.1513
兩腎	-11.1513
彼人	-11.1515
有赤氣	-11.1516
長年	-11.152
始皇	-11.1525
内側	-11.1532
癸火運	-11.1539
隨意	-11.1539
合體	-11.1542
忘言	-11.1543
主治	-11.1544
如初	-11.1545
太常	-11.1555
以無爲	-11.1556
修真	-11.1556
揚州	-11.1556
只要	-11.1558
時候	-11.1559
幽冥	-11.156
如雲	-11.1562
真一之	-11.1563
二卷	-11.1564
亦應	-11.1565
法常以	-11.1571
大暑	-11.1573
河南	-11.1573
天地之中	-11.1574
六壬	-11.1575
始知	-11.1575
屬土	-11.1588
天地陰陽	-11.1589
人鬼	-11.1593
凡修	-11.1594
盛也	-11.1599
之祕	-11.1601
通明	-11.1603
兩耳	-11.1605
周行	-11.1611
成象	-11.1612
宫闕	-11.1621
不屬	-11.1622
玄丹	-11.1623
當令	-11.1625
以下至	-11.1625
天地造化	-11.1625
其木多	-11.1627
當年	-11.1628
心腹	-11.1634
盛陽	-11.1635
結氣	-11.1635
之尊	-11.1637
靈汞	-11.1639
西華	-11.164
爲虚	-11.1646
發也	-11.1652
中庭	-11.1653
皇天	-11.1654
感通	-11.1655
之山無草木多	-11.1659
用功	-11.166
五斤	-11.1661
洎	-11.1661
不聽	-11.1661
飡	-11.1662
倣	-11.1662
道之士	-11.1662
瘛	-11.1662
氣有	-11.1662
鴈	-11.1663
陀	-11.1663
權衡	-11.1664
羿	-11.1664
羈	-11.1666
沾	-11.1667
爾時	-11.1667
積氣	-11.1667
瞀	-11.1667
浦	-11.1668
惹	-11.1668
鞅	-11.1669
騫	-11.1669
仙佛	-11.167
晷	-11.167
龐	-11.1671
蒿	-11.1671
蓬壺	-11.1671
穰	-11.1672
籌	-11.1672
巷	-11.1672
滄浪	-11.1674
靄	-11.1674
緣	-11.1674
弛	-11.1674
鍋	-11.1674
績	-11.1674
逡巡	-11.1674
悼	-11.1676
罵	-11.1677
虬	-11.1678
一卦	-11.1678
甕	-11.1679
綬	-11.1679
些子	-11.1679
胡麻	-11.1679
仕宦	-11.168
黔	-11.1682
槌	-11.1682
受書爲	-11.1683
暈	-11.1684
未曾	-11.1687
不死之	-11.1687
靈山	-11.1687
轅	-11.1688
住世	-11.1688
洪範	-11.1691
境界	-11.1691
包含	-11.1691
离坎	-11.1692
乾坤坎離	-11.1694
月月	-11.1696
齎	-11.1697
快樂	-11.1699
蒸之	-11.1699
不存	-11.1699
天罡	-11.17
膿血	-11.1701
腋下	-11.1702
氣至而	-11.1702
裴君	-11.1703
仰卧	-11.1704
一百五	-11.1706
都無	-11.171
四十年	-11.171
欣然	-11.1712
三島	-11.1713
兩般	-11.1715
應天	-11.1716
十二經脉	-11.1717
按甲乙經	-11.1718
善男子	-11.1719
意思	-11.1723
仙籍	-11.1724
用鉛	-11.1724
經緯	-11.1726
朱子	-11.1731
新校正云按太素	-11.1732
金木相	-11.1736
先存	-11.1742
繼代	-11.1744
來時	-11.1752
五苦	-11.1753
山谷	-11.1754
修齋	-11.1765
來勝	-11.1768
消魔	-11.177
玉霄	-11.1777
血溢	-11.1778
大道君	-11.178
木生火	-11.178
靈樞	-11.1782
之夫	-11.1783
因循	-11.1787
之原	-11.1796
天堂	-11.1796
安知	-11.1797
雞子	-11.1799
相續	-11.1799
歌云	-11.1803
五牙	-11.1803
國人	-11.1806
符火	-11.1809
一步	-11.1809
以喻	-11.1812
本元	-11.1812
讀之	-11.1815
閉炁	-11.1819
養生之	-11.1822
大通	-11.1823
使然	-11.1823
佩之	-11.1824
九十日	-11.1826
註曰	-11.1829
一過	-11.183
庶人	-11.1831
飛空	-11.1843
了然	-11.1847
來徃	-11.1853
大行	-11.1857
陽升	-11.1857
到頭	-11.1861
斗中	-11.1865
性命之	-11.187
九晨	-11.1873
未發	-11.1875
其色白	-11.188
禀受	-11.1886
楚王	-11.189
也雲牙子曰	-11.1893
精炁	-11.1895
爲鼎	-11.1899
大乘	-11.19
散爲	-11.1902
劑	-11.1903
東行	-11.1906
金簡	-11.191
肖	-11.1912
眞陽	-11.1914
殺氣	-11.1921
二百七	-11.1923
相遇	-11.1924
七宿	-11.1932
其君	-11.1932
未悟	-11.1934
龍虎經	-11.194
變而爲	-11.1941
其辭	-11.1941
出家	-11.1944
衣食	-11.1946
小異	-11.1946
天地人	-11.1948
三乘	-11.1948
道言	-11.1949
領兵	-11.195
靜中	-11.1951
襄王	-11.1952
相從	-11.1954
隄防	-11.1954
山遇	-11.1957
達者	-11.196
癃	-11.1961
此符	-11.1961
收拾	-11.1963
駿	-11.1963
踞	-11.1964
矣故曰	-11.1965
三百八十四銖	-11.1965
鈍	-11.1965
蔕	-11.1965
蛤	-11.1966
線	-11.1966
珮	-11.1966
晃	-11.1967
又復	-11.1967
茹	-11.1967
吼	-11.1968
士貪天	-11.1968
杵	-11.1969
眞人云	-11.1969
五臟六腑	-11.1969
捲	-11.1969
筠	-11.197
大指次指	-11.1971
下火	-11.1971
鷹	-11.1972
憤	-11.1972
稼	-11.1973
閃	-11.1974
墉	-11.1974
七寳	-11.1974
擎	-11.1975
扈	-11.1975
甜	-11.1976
此術	-11.1976
譚	-11.1977
峭	-11.1978
雲母粉	-11.1978
翹	-11.1978
繒	-11.1978
不可名	-11.1979
誌	-11.1979
奄	-11.198
大洞眞經	-11.198
遲速	-11.198
疽	-11.1981
箝	-11.1982
蛟龍	-11.1982
男兒	-11.1982
殁	-11.1983
留三呼	-11.1984
譜	-11.1984
餘氣	-11.1984
幕	-11.1985
鋤	-11.1985
秪	-11.1985
雲笈七籖卷之	-11.1988
御史	-11.1989
内照	-11.1989
郢	-11.1991
計謀	-11.1992
防危	-11.1993
每一	-11.1995
武后	-11.1998
自然而然	-11.1998
龍虎交	-11.1998
死亡	-11.1999
君曰仙道有	-11.2002
禹步	-11.2002
眞實	-11.2002
不調	-11.2004
各一謂	-11.2004
爲萬物之	-11.2004
瓊林	-11.2005
治身	-11.2007
也純陽子曰	-11.2008
謂之神	-11.2009
迷惑	-11.2009
善人	-11.2012
升身	-11.2025
五石	-11.2027
光彩	-11.2027
有餘不足	-11.2027
雙關	-11.2028
今年	-11.203
爲宗	-11.2031
舉世	-11.2032
不備	-11.2038
神魂	-11.2041
東卿	-11.2042
小小	-11.2044
三奇	-11.2045
舍人	-11.2045
所起	-11.2046
通徹	-11.2048
獲其	-11.2048
内廉	-11.2049
與道同	-11.2051
士運	-11.2052
彭祖	-11.2052
車馬	-11.2053
金鎖流珠引卷之	-11.2056
其罪	-11.2056
所傷	-11.2057
難知	-11.2057
蓋謂	-11.2058
心念	-11.2058
有爲之	-11.2058
得位	-11.2059
萬慮	-11.2061
思念	-11.2063
大衍	-11.2067
千百	-11.2067
六尺	-11.2069
安穩	-11.2069
相繼	-11.2071
相尅	-11.2073
如環	-11.2073
萬端	-11.2074
無咎	-11.2075
味苦	-11.2076
震卦	-11.2084
流光	-11.2087
神水華池	-11.2088
調息	-11.209
萬物皆	-11.2091
妙訣	-11.2091
未審	-11.2094
泰和	-11.2095
即須	-11.2098
鼻引	-11.2098
以養其	-11.2099
自然之理	-11.211
經歷	-11.211
煩心	-11.211
大過	-11.2113
大臣	-11.2114
季主	-11.2115
位居	-11.2117
火符	-11.2122
弗能	-11.2125
頭面	-11.2126
行止	-11.2129
互用	-11.2132
常居	-11.2133
集云	-11.2136
漸加	-11.2142
或謂	-11.2143
不染	-11.215
相依	-11.2156
旣有	-11.2157
高士	-11.2157
仰觀	-11.216
各各	-11.2162
隨風	-11.2163
靈藥	-11.2168
傷氣	-11.2168
星己	-11.2168
異香	-11.2171
誠能	-11.2174
脾病	-11.2175
妄作	-11.2177
可致	-11.2183
洞明	-11.2183
刺史	-11.2185
藏精	-11.2186
六賊	-11.2192
三五一	-11.2194
洪水	-11.2196
眞藏	-11.2197
皓月	-11.2199
傷肺	-11.2199
相違	-11.22
處士	-11.2202
大法	-11.2213
崑	-11.2216
治天下	-11.2216
上衝	-11.2223
百邪	-11.2225
坎水	-11.2228
西向	-11.2233
陽道	-11.2239
如泥	-11.224
其爲人	-11.224
膕中	-11.2248
周身	-11.2248
以配	-11.2249
門外	-11.2249
玄府	-11.225
得其理	-11.2257
而服之	-11.2258
感於	-11.2263
之神也	-11.2265
柔順	-11.2268
不可言	-11.2268
三歲	-11.2269
應感	-11.227
皎	-11.2272
毛羽	-11.2272
倮	-11.2276
棘	-11.2277
洞門	-11.2278
渚	-11.2278
硬	-11.2279
趙昇王	-11.228
愚癡	-11.228
毅	-11.2281
艷	-11.2281
目視	-11.2281
六位	-11.2281
儛	-11.2282
趾	-11.2282
聯	-11.2282
名書	-11.2283
肓	-11.2283
皎潔	-11.2283
馨	-11.2284
債	-11.2284
汨	-11.2284
煆	-11.2284
顙	-11.2284
不相應	-11.2285
咦	-11.2285
太一天符	-11.2285
何以言之	-11.2285
悴	-11.2285
趁	-11.2285
巍	-11.2286
酌	-11.2286
沫	-11.2286
彫	-11.2286
其支别者	-11.2287
淖	-11.2288
級	-11.2288
撰述	-11.2288
葷	-11.2288
顚倒	-11.2288
虫	-11.2288
訝	-11.2288
嗇	-11.2289
彤	-11.2289
丘山	-11.229
叩齒三十六通	-11.229
旄	-11.229
黄華	-11.229
攝生	-11.2291
蟾蜍	-11.2291
枝條	-11.2292
伏藏	-11.2293
朝廷	-11.2293
送之	-11.2294
攘	-11.2294
艱難	-11.2294
睿	-11.2295
婬	-11.2295
酆都	-11.2295
久之	-11.2296
百骸	-11.2297
赤松子	-11.2297
蝶	-11.2298
茫茫	-11.2298
南方火	-11.2299
松栢	-11.23
奪其	-11.2301
粥	-11.2302
英雄	-11.2302
腭	-11.2302
公案	-11.2303
堂堂	-11.2306
石勒	-11.2308
緩急	-11.2309
登眞	-11.2311
珍重	-11.2312
靈文	-11.2312
作麽	-11.2314
推移	-11.2314
人皇	-11.2314
坎男	-11.2315
不相得	-11.2317
七兩	-11.2319
四千三	-11.2321
利貞	-11.2323
兩忘	-11.2324
一枚	-11.2325
愚謂	-11.2325
夏氣	-11.2328
水晶	-11.2331
莊周	-11.2334
更始	-11.2337
玄圃	-11.2341
若知	-11.2343
瓶子	-11.2344
今世	-11.2347
帝尊	-11.2348
筋急	-11.2349
未達	-11.2351
一劑	-11.2353
血絡	-11.2353
覩其	-11.2355
專制	-11.2358
自安	-11.236
不實	-11.2361
相扶	-11.2365
天真	-11.2366
胎中	-11.2366
用兵	-11.2367
純乾	-11.237
隨縁	-11.2372
四時五行	-11.2374
西嶽	-11.2376
戊土	-11.2377
屬乎	-11.2377
蕩蕩	-11.2378
開通	-11.2382
是年	-11.2383
勝至	-11.2384
靈府	-11.2388
自消	-11.2389
於市	-11.239
大羅天	-11.2391
守道	-11.2392
錦衣	-11.2394
燥濕	-11.2395
二千	-11.2395
又遇	-11.2401
心包	-11.2406
乃登	-11.241
無漏	-11.2413
眞土	-11.2414
玄覽	-11.2415
空虚	-11.2419
兩弦	-11.242
越人	-11.2421
順時	-11.2427
復勝	-11.2429
這些	-11.2431
九變	-11.2438
立是謂	-11.2443
身重	-11.2445
萬變	-11.2447
曲直	-11.2451
多端	-11.2452
爲泥	-11.2461
物情	-11.2464
注于	-11.2465
流精	-11.247
重玄	-11.2472
於其中	-11.2474
時刻	-11.2477
太衝	-11.2479
氣聚	-11.2479
神藥	-11.248
山東	-11.248
次序	-11.2482
宫中有	-11.2484
篇曰	-11.2484
列於	-11.2493
内藏	-11.2497
潜通	-11.2498
今夫	-11.2499
神安	-11.2502
赤書	-11.2502
者心也	-11.2505
真師	-11.2507
木星	-11.2508
授書	-11.2522
安國	-11.2523
言訖	-11.2524
丗人	-11.2526
日夕	-11.2529
内明	-11.2529
了無	-11.2536
謂之道	-11.2537
味辛	-11.254
之恩	-11.2542
天運	-11.2547
先王	-11.2548
意馬	-11.255
坤宫	-11.2564
也以其	-11.2567
即死	-11.2568
耳聞	-11.2573
七斗	-11.2576
九跡	-11.258
積善	-11.2581
喉嚨	-11.2584
鵝	-11.2584
山南	-11.2585
輕泄	-11.2586
大忌	-11.2589
惚	-11.2589
李克用	-11.259
鴟	-11.2594
有一人	-11.2594
鬧	-11.2596
涵	-11.2597
達於	-11.2597
示人	-11.2598
鞋	-11.2602
䏶	-11.2602
十二時中	-11.2603
須有	-11.2604
足陽明脉氣所發	-11.2604
繕	-11.2605
贍	-11.2606
蹉	-11.2606
鯨	-11.2607
懲	-11.2607
闌	-11.2607
綉	-11.2608
揭	-11.2609
馳騁	-11.2609
其草多	-11.261
淩	-11.261
結璘	-11.261
邠	-11.2611
捏	-11.2611
否答云	-11.2611
攢簇	-11.2612
鼈	-11.2612
安坐	-11.2613
東方甲乙	-11.2614
兢	-11.2614
恱	-11.2614
榻	-11.2616
蒜	-11.2616
絲毫	-11.2618
鯉	-11.2618
感而遂通	-11.2618
嗽	-11.2618
任其	-11.2618
颺	-11.2619
亞	-11.2619
薰蒸	-11.2619
囑	-11.262
塵垢	-11.2621
考召法師	-11.2621
七十二候	-11.2623
都督	-11.2624
辟穀	-11.2625
敎	-11.2625
甯	-11.2626
隨方	-11.2627
韞	-11.2627
恐懼	-11.2627
太過不及	-11.263
遼東	-11.2631
無質	-11.2632
檄	-11.2635
發揮	-11.2637
久矣	-11.2637
尹喜	-11.2638
左右同	-11.2639
不犯	-11.2641
要識	-11.2641
魏改元	-11.2643
繆刺	-11.2645
其卦得	-11.2646
養命	-11.2647
飽食	-11.2648
須憑	-11.2653
與天同	-11.2662
古仙	-11.2666
五湖	-11.2667
國家	-11.2667
浩然	-11.267
飛揚	-11.267
此道也	-11.2671
不寧	-11.2672
高明	-11.2672
發火	-11.2672
曲江	-11.2672
是誰	-11.2674
先取	-11.2674
佛性	-11.2677
莊子	-11.2677
崔公	-11.2679
萬般	-11.2679
得之者	-11.268
數千	-11.2681
子母相	-11.2683
深淵	-11.2684
真仙	-11.269
群仙	-11.2692
常行之	-11.2693
幽明	-11.2697
抱朴子	-11.2705
之甚也	-11.2705
取諸	-11.2706
記云	-11.2707
朝禮	-11.2707
紫微宫	-11.2709
能變化	-11.2711
夫何故	-11.2713
假合	-11.2717
左味	-11.272
其上有	-11.2722
有限	-11.2724
積陰	-11.2724
寒濕	-11.2727
應手	-11.2728
黄帝曰願聞	-11.2735
猶能	-11.2736
苦酒	-11.2736
所撰	-11.2736
黄丹	-11.2742
刑德	-11.2743
終身不	-11.2745
黑水	-11.2749
來往	-11.2751
損人	-11.2753
左有	-11.2754
玉字	-11.2757
修仙	-11.2758
之别名	-11.2767
恐是	-11.277
未易	-11.2773
便可	-11.2774
二百一	-11.2775
世事	-11.278
地軸	-11.2782
有質	-11.2789
寶經	-11.279
登高	-11.2791
不寐	-11.2794
脉起於	-11.2796
是鉛	-11.2798
卦爻	-11.2802
虛心	-11.2804
而刺之	-11.281
必能	-11.2812
陽明星	-11.2821
刺法	-11.2821
人參	-11.2821
未及	-11.2822
旣畢	-11.2822
玉符	-11.2823
若使	-11.2824
巨陽	-11.2824
相制	-11.2824
修習	-11.2824
三千里	-11.2825
之災	-11.2827
千息	-11.283
可傳	-11.283
遞相	-11.2831
所貴	-11.2835
形狀	-11.2837
七情	-11.2841
月晦	-11.2848
榮氣	-11.285
作聲	-11.2853
三十過	-11.2857
火炎	-11.2857
月照	-11.2858
皆禀	-11.2866
眞源	-11.2867
求官	-11.2871
至極	-11.2871
此所以	-11.2872
胠	-11.2877
中丹田	-11.2882
兩卦	-11.2884
不加	-11.2887
有箇	-11.2887
但當	-11.2889
半兩	-11.2889
但知	-11.289
先知	-11.2891
雲牙子曰	-11.2897
入腹	-11.2905
二千九	-11.2911
咒	-11.2912
百丈	-11.292
滿目	-11.2921
肢	-11.2923
牌	-11.2924
倏忽	-11.2927
黅	-11.2928
蒼生	-11.2928
衫	-11.2928
土石	-11.2929
芙蓉	-11.2929
正音	-11.293
惰	-11.293
叅同契	-11.2931
汩	-11.2932
紗	-11.2932
捫	-11.2933
宫殿	-11.2935
聳	-11.2935
易道	-11.2936
蛾	-11.2937
遨	-11.2937
刺可入同身寸之四分	-11.2937
蕤	-11.2938
恊	-11.2938
萊	-11.2938
酷	-11.2939
撲	-11.294
龔	-11.2941
閼	-11.2941
靚	-11.2942
父母未生	-11.2943
漚	-11.2943
參伍	-11.2943
巓	-11.2944
菌	-11.2945
鐶	-11.2945
執法	-11.2945
節度使	-11.2945
神遊	-11.2946
胚	-11.2946
懈	-11.2946
暝	-11.2946
長生乆視	-11.2946
驛	-11.2947
奧	-11.2947
稔	-11.2947
胃脘	-11.2947
衒	-11.2947
庶幾	-11.2948
莫大乎	-11.2948
踐位是謂	-11.2948
素問六氣玄珠宻語卷之	-11.2949
亦不能	-11.2949
強	-11.295
膻中	-11.295
四斗	-11.2951
相推	-11.2951
辜	-11.2951
櫃	-11.2952
碍	-11.2952
奴婢	-11.2953
璽	-11.2953
翛然	-11.2955
浩劫	-11.2956
羌	-11.2957
交姤	-11.2958
温凉	-11.2958
體道	-11.2961
化源	-11.2961
弑	-11.2962
寛	-11.2963
道眼	-11.2963
行雨	-11.2966
者心之	-11.2967
熱化二	-11.2968
旦夕	-11.2968
華胥	-11.2968
宣王	-11.2969
互爲	-11.297
陰魄	-11.2972
哉夫	-11.2973
歷歷	-11.2974
孫權	-11.2975
金關	-11.2977
十洲	-11.2981
分兩	-11.2983
指示	-11.2983
皮肉	-11.2986
是所謂	-11.2987
太霄	-11.2989
然後知	-11.2991
瓊花	-11.2992
清涼	-11.2997
徹視	-11.2999
片時	-11.3001
長壽	-11.3003
紫霞	-11.3003
純隂	-11.3005
上廉	-11.3007
畢即	-11.301
積功	-11.3011
第二十一	-11.3014
又法	-11.3014
神呪	-11.3015
火裏	-11.3017
保養	-11.3019
辛苦	-11.3026
一斛	-11.3026
凡服氣	-11.3026
濟物	-11.3027
張天師	-11.3029
旣濟	-11.3029
白鶴	-11.3031
二七過	-11.3032
覺悟	-11.3039
兩箇	-11.3041
異人	-11.3041
玄虛	-11.3042
正徵	-11.3045
左目	-11.3045
補益	-11.305
得志	-11.3054
非獨	-11.3056
文昌	-11.3057
汝等	-11.3066
陽維	-11.307
諸藥	-11.3071
迴頭	-11.3074
延壽	-11.3086
釜中	-11.3091
混一	-11.3091
己土運	-11.3093
年少	-11.3097
邪魔	-11.3098
常念	-11.3099
而弗	-11.3105
者神之	-11.3106
三遍訖	-11.3108
異常	-11.3111
心靜	-11.3116
東方青	-11.3123
雷震	-11.3128
便有	-11.3132
二君	-11.3134
之根本	-11.3139
與天地相	-11.3141
也易曰	-11.315
明目	-11.315
陰陽升降	-11.3151
月圓	-11.3151
照見	-11.3157
分布	-11.316
勿妄	-11.3164
一嚥	-11.3169
非凡	-11.317
一百七	-11.3175
每月	-11.3178
谷子	-11.318
不一	-11.3187
弱水	-11.3196
爲夫婦	-11.3196
三寳	-11.3196
降伏	-11.3197
荆州	-11.3199
丹訣	-11.32
不忍	-11.321
留止	-11.3211
其色青	-11.3213
丹服之	-11.3214
九丹	-11.3215
逺行	-11.322
光隂	-11.3225
章第八	-11.3228
肝肺	-11.323
立已	-11.3232
陽蹻	-11.3235
卦象	-11.3236
忘情	-11.3236
奉行	-11.3236
天癸	-11.3237
制魄	-11.3241
後漢	-11.3243
飛伏	-11.3244
莫知所	-11.3248
真實	-11.325
白埃	-11.325
陽魂	-11.3251
九尺	-11.3251
可觀	-11.3253
間斷	-11.3264
太丹	-11.3264
漉	-11.3264
伐木	-11.3266
丸如梧桐子大	-11.3269
臊	-11.3272
漳	-11.3272
款	-11.3273
有黄氣	-11.3274
瀾	-11.3275
黄帝問於岐伯曰	-11.3275
跟	-11.3276
菟	-11.3276
掖	-11.3276
綽	-11.3276
霖	-11.3277
逞	-11.3277
挼	-11.3278
脘	-11.3279
駡	-11.3279
非但	-11.328
忙忙	-11.328
笠	-11.3281
溉	-11.3281
椿	-11.3281
刳	-11.3282
自由	-11.3282
燠	-11.3282
荆棘	-11.3282
棟	-11.3283
厠	-11.3283
絞	-11.3284
溽	-11.3284
瞞	-11.3285
羹	-11.3285
譏	-11.3286
苛	-11.3286
宿下管	-11.3286
老陰	-11.3286
鼽	-11.3287
布化	-11.3288
挂	-11.3288
擢	-11.3289
燋	-11.3289
閩	-11.3289
儵	-11.329
三百有六十	-11.329
澡	-11.329
欄	-11.3291
嬪	-11.3291
寒泉	-11.3291
穎	-11.3291
瓦礫	-11.3292
歧	-11.3292
罩	-11.3292
三百八十四爻	-11.3293
:	-11.3293
鷺	-11.3293
其隂多	-11.3293
袂	-11.3294
庖	-11.3294
汙	-11.3294
山海	-11.3294
週	-11.3294
補瀉	-11.3295
竄	-11.3295
驀	-11.3297
亹	-11.3299
師授	-11.3301
腠理開	-11.3301
故經曰	-11.3301
祝融	-11.3302
星君上應	-11.3302
形影	-11.3302
視之不見	-11.3303
他日	-11.3304
坎离	-11.3305
雷公曰	-11.3306
校尉	-11.3312
下文云	-11.3312
脉循	-11.3313
保護	-11.3315
屬木	-11.3317
聚而	-11.3318
紫河車	-11.3318
壽夭	-11.3319
卷舒	-11.3322
受胎	-11.3323
之子也	-11.3325
季夏	-11.3327
换骨	-11.3327
巨勝	-11.333
左旋	-11.3331
星斗	-11.3336
必待	-11.3337
坎位	-11.3337
咒曰	-11.3339
上詣	-11.334
金童	-11.3342
百穀	-11.3345
具載	-11.3345
朝于	-11.3348
離中之	-11.3349
此章言	-11.3352
天河	-11.3355
紅鉛	-11.3356
一貫	-11.3357
散髮	-11.3357
潤下	-11.3357
消散	-11.3358
是吾	-11.3358
一陽爻	-11.3358
鍊成	-11.3359
所禀	-11.336
美酒	-11.336
道之要	-11.3368
情慾	-11.337
老君曰夫	-11.3373
清凉	-11.3374
雜類	-11.3375
取捨	-11.3376
心猿	-11.3378
丈餘	-11.338
凡道士	-11.3382
化爲水	-11.3386
安居	-11.3386
回頭	-11.3386
不能傷	-11.3389
焉吾	-11.3391
獨居	-11.3393
方丈	-11.3394
逆從	-11.3395
魏武	-11.3396
白髮	-11.3401
可使之	-11.3401
白銀	-11.3402
入於胃	-11.3402
斷穀	-11.3404
羽蓋	-11.3407
者也純陽子曰	-11.3408
明了	-11.3409
次思	-11.3409
修錬	-11.341
地地	-11.341
不務	-11.3413
美玉	-11.3415
上丹田	-11.343
水火之氣	-11.344
一毫	-11.3441
義理	-11.3447
玉光	-11.3451
二十九日	-11.3452
亘古	-11.3452
未通	-11.3455
玉壺	-11.3456
龍門	-11.3459
此道者	-11.3462
但得	-11.3464
眞樂	-11.3464
只爲	-11.3466
根元	-11.347
人不識	-11.3476
行此道	-11.3477
少許	-11.3481
坎卦	-11.3482
剛柔相	-11.3492
大荒	-11.3495
蒼天	-11.3495
東方木	-11.3497
猛火	-11.3501
始可	-11.3505
三聖	-11.3507
制御	-11.3508
酒色	-11.3513
福德	-11.3515
相近	-11.3516
趙王	-11.3519
無端	-11.3522
爾乃	-11.3524
聞聲	-11.3525
文書	-11.3525
養育	-11.3533
陰中之	-11.3534
五轉	-11.3535
坤元	-11.3535
人之心	-11.3536
之源也	-11.3545
龜山	-11.3547
終于	-11.3549
積石	-11.3558
一百六	-11.3558
面前	-11.3564
離女	-11.3566
亦不知	-11.357
無味	-11.3576
莫教	-11.3578
多汗	-11.3583
二百六	-11.3586
是夕	-11.3594
於丹田	-11.3599
好惡	-11.3601
逆氣	-11.3601
吉何云	-11.3604
幾何	-11.3609
三百一	-11.361
光景	-11.3611
玉虚	-11.3614
鐺	-11.3618
新校正云按五常政大論云	-11.3621
菩薩	-11.3624
平調	-11.3625
渴飲	-11.3629
薤	-11.363
三十六天	-11.3633
蠕	-11.3634
楊上善云	-11.3634
癸生	-11.3635
炅	-11.3636
仿	-11.3637
僅	-11.3637
髯	-11.3637
衾	-11.3638
新校正云按楊上善云	-11.3638
矣次六旬而	-11.3639
千變萬化	-11.3639
瞿	-11.364
悟真篇	-11.364
氛	-11.364
不侵	-11.3641
稠	-11.3641
之炁此天炁	-11.3641
中書令	-11.3641
榖	-11.3642
宿上治	-11.3642
筵	-11.3642
者土也	-11.3643
日魂月魄	-11.3644
糜	-11.3644
擊壤集	-11.3644
元始天王	-11.3645
晡	-11.3645
琰	-11.3645
寒化一	-11.3645
幢	-11.3645
臼	-11.3646
萃	-11.3646
包裹	-11.3646
內	-11.3647
拖	-11.3647
換	-11.3647
賒	-11.3648
拄	-11.3648
膩	-11.3648
故病如是	-11.3648
壼	-11.3649
惕	-11.365
嗅	-11.3651
黯	-11.3651
霏	-11.3651
驥	-11.3652
塚	-11.3653
烹煎	-11.3653
堊	-11.3653
癢	-11.3655
王屋山	-11.3656
赫赫	-11.3656
眞一之水	-11.3657
鏁	-11.3658
紊	-11.3659
氣衝	-11.3659
陪	-11.366
含弘	-11.3662
佛祖	-11.3663
鑊	-11.3664
亦由	-11.3664
洪波	-11.3664
成熟	-11.3664
頑空	-11.3666
金鐺	-11.3666
衮	-11.3667
百靈	-11.367
石藥	-11.3672
魚際	-11.3673
碗	-11.3673
小豆	-11.3678
步綱	-11.3678
東嶽	-11.3678
二百八	-11.3678
怡然	-11.368
開闢	-11.3682
玄象	-11.3683
無縁	-11.3687
七遍	-11.3691
安和	-11.3693
陽縣	-11.3694
十二支	-11.3697
可憐	-11.3699
紫户	-11.37
禮拜	-11.37
兒女	-11.3701
箇箇	-11.3701
曠然	-11.3707
比類	-11.3708
足躡	-11.3708
腹内	-11.3709
房室	-11.3709
長一寸	-11.3712
金匱	-11.3714
輔骨	-11.3715
名號	-11.3717
助國	-11.3718
讚曰	-11.3727
徒自	-11.373
石膽	-11.3731
同𩔖	-11.3734
虛皇	-11.374
長沙	-11.3742
大旱	-11.3749
吾將	-11.3752
勿失	-11.3753
第二節	-11.3755
上界	-11.3756
九還七返	-11.3763
世祖	-11.3767
遇至人	-11.3767
數里	-11.3771
金翁	-11.3772
師友	-11.3774
喜樂	-11.3775
明公	-11.3778
辟非	-11.3787
鎭星	-11.3787
宗于	-11.379
紫華	-11.3795
分而爲	-11.3798
不逺	-11.3799
攪之	-11.3806
偃月	-11.3809
五里	-11.3809
長男	-11.3811
往復	-11.3811
六律	-11.3812
天帝君	-11.3817
黄鍾	-11.3832
而不知其	-11.3834
鼻息	-11.3835
勤修	-11.3836
十五兩	-11.3842
所授	-11.3844
了了	-11.3844
深遠	-11.3847
臨時	-11.3852
所指	-11.3855
襄子	-11.3856
數數	-11.3867
秦伐	-11.3869
吴王	-11.3873
疑是	-11.388
絶念	-11.3884
通利	-11.3885
咸陽	-11.3888
始覺	-11.3891
雲散	-11.3894
輟	-11.3895
冥目	-11.3905
太明	-11.3907
教授	-11.3908
千二百	-11.3917
尸鬼	-11.3919
其勢	-11.3922
證道	-11.3924
之爲物	-11.3927
動摇	-11.393
論篇黄帝問曰	-11.3939
呪畢	-11.3949
眞妃	-11.396
不貪	-11.3965
下界	-11.3975
祖宗	-11.3976
太公	-11.3976
各不同	-11.3983
隱形	-11.3988
陽氣盛	-11.3988
靈液	-11.3991
歩躡	-11.3991
冠帶	-11.3994
鳧	-11.3996
衂	-11.3997
小指次指	-11.3999
縣令	-11.4
紙上	-11.4002
飴	-11.4003
窘	-11.4003
碌	-11.4003
諂	-11.4004
嬌	-11.4004
韭	-11.4004
吝	-11.4005
衣裳	-11.4006
徊	-11.4006
扣齒	-11.4006
纏綿	-11.4006
難曰經言	-11.4007
狎	-11.4007
匡郭	-11.4007
匣	-11.4008
丹基	-11.4009
虜	-11.401
皂	-11.401
鑽	-11.401
髭	-11.401
宿管天下	-11.401
癰腫	-11.4011
疹	-11.4011
三部九候	-11.4012
慵	-11.4012
俠脊	-11.4012
長司命李仲甫茅盈許玉斧等係代	-11.4012
鏗	-11.4012
麾	-11.4012
糟粕	-11.4013
命人禄壽禍	-11.4013
新校正云按氣交變大論云	-11.4013
鄕里	-11.4013
紛紜	-11.4014
拌	-11.4014
佚	-11.4014
剌	-11.4014
行火候	-11.4015
覔	-11.4015
譫	-11.4016
痕	-11.4016
恡	-11.4016
絮	-11.4016
榦	-11.4016
皺	-11.4016
蚓	-11.4017
名之爲	-11.4017
泝	-11.4017
返本還元	-11.4017
浄	-11.4018
噉	-11.4019
楮	-11.4019
淋	-11.402
轟	-11.4021
衹	-11.4021
社稷	-11.4021
諒	-11.4022
譴	-11.4023
北方壬癸	-11.4024
哭泣	-11.4024
戍	-11.4025
諾	-11.4026
流血	-11.4026
瑶臺	-11.4026
熱化七	-11.4026
蹔	-11.4027
雞犬	-11.4028
岱	-11.4028
學道之士	-11.4028
日月之光	-11.4032
銅鐵	-11.4032
矣經曰	-11.4035
低頭	-11.4038
祭酒	-11.4038
洛城	-11.4038
妙本	-11.4043
百二十里曰	-11.4045
心印	-11.4045
日三服	-11.4046
心之火	-11.4047
矣次而	-11.4049
唐將軍	-11.405
清庵	-11.4053
老翁	-11.4053
此五者	-11.4054
傷腎	-11.4056
行軍	-11.4056
邪客於	-11.4056
錬神	-11.406
萬萬	-11.406
雷雨	-11.4061
坎户	-11.4061
朝暮	-11.4062
陰在上	-11.4063
影響	-11.4068
諸公	-11.407
閑閑	-11.4073
夜光	-11.4074
一銖	-11.4077
大丈夫	-11.4077
煉就	-11.4079
如前法	-11.4082
而調之	-11.4082
爲鄰	-11.4083
夢覺	-11.4088
入靖	-11.4091
食之已	-11.4091
之性也	-11.4093
回首	-11.4093
紀篇	-11.4094
夜卧	-11.4095
專心	-11.4098
縣西	-11.41
右邊	-11.41
同天符	-11.4106
金帛	-11.4107
于肝	-11.4107
轉筋	-11.4109
元陽子	-11.4111
十三日	-11.4115
羽衣	-11.4119
傍門	-11.4119
失政	-11.4121
帝曰何謂	-11.4124
六畜	-11.4129
添汞	-11.4131
晝日	-11.4131
智識	-11.4133
充滿	-11.4138
長一尺	-11.4142
元君曰	-11.4149
建安	-11.415
妙化	-11.4152
繼事	-11.4152
元皇	-11.4153
然後可以	-11.4161
六十時	-11.4163
後代	-11.4164
誦經	-11.4164
白黑	-11.4166
去三尸	-11.4168
風波	-11.417
司空	-11.417
高卧	-11.4171
不獲	-11.4171
三塗	-11.4172
救度	-11.4176
而生者也	-11.4179
三升	-11.4181
玉英	-11.4183
白露	-11.4184
清旦	-11.4186
三般	-11.4187
旬日	-11.4201
者何謂也	-11.4202
六十年	-11.4207
百尺	-11.4216
莫能知	-11.4218
治世	-11.4224
衝陽	-11.4225
西東	-11.4241
西海	-11.4245
爲佳	-11.4255
賢聖	-11.4258
弼星	-11.4259
含光	-11.426
黃帝	-11.4263
雪霜	-11.4266
邪干	-11.4269
戒勿	-11.4275
江山	-11.4276
伏龍	-11.4283
胞中	-11.4291
五十日	-11.4294
仙伯	-11.43
則邪氣	-11.43
永和	-11.4302
九針	-11.4303
消除	-11.4304
樹木	-11.4311
不竭	-11.432
本草	-11.4326
二寸半	-11.4333
安定	-11.4338
則不然	-11.434
不停	-11.4345
治國	-11.4346
雲房	-11.4348
眞人治之	-11.435
伐齊	-11.4352
胎光	-11.4361
蟾宫	-11.4364
䐃	-11.4368
真空	-11.4369
玄臺	-11.4371
專精	-11.4371
拊	-11.4374
冽	-11.4379
懦	-11.4381
喘咳	-11.4384
擣篩	-11.4388
安閑	-11.4388
版	-11.4388
瘡瘍	-11.439
癲	-11.439
雁	-11.4391
檻	-11.4391
叶	-11.4392
翅	-11.4392
喜怒哀樂	-11.4393
蔬	-11.4393
叩齒二十四通	-11.4394
炎暑	-11.4394
肚	-11.4394
苔	-11.4395
軻	-11.4395
這般	-11.4396
湊	-11.4396
貳	-11.4396
纖毫	-11.4396
地府	-11.4397
綻	-11.4397
阮	-11.4398
僑	-11.4398
動脉應手	-11.4398
太微天帝君	-11.4398
鶉	-11.4399
螢	-11.4399
隕	-11.4399
梳	-11.44
水出焉而東流注于	-11.44
壟	-11.4401
邢	-11.4401
架	-11.4402
弋	-11.4404
杳杳冥冥	-11.4404
錦帔	-11.4404
䘮	-11.4404
蹶	-11.4404
攅	-11.4405
群陰	-11.4405
卜筮	-11.4405
細研	-11.4405
輙	-11.4405
辰戌丑未	-11.4406
曹溪	-11.4406
咽喉	-11.4406
衆仙	-11.4406
逹	-11.4407
谷神不死	-11.4407
敘	-11.4407
繫辭曰	-11.4407
章第五十	-11.4407
一寸半	-11.4408
遨遊	-11.4408
諠	-11.4409
金璫	-11.441
關鍵	-11.441
疋	-11.4411
諮	-11.4411
寂寥	-11.4411
它	-11.4412
拽	-11.4412
淑	-11.4412
所以然者	-11.4413
與天地齊	-11.4413
訥	-11.4414
市賈	-11.4416
莫大於	-11.4418
展轉	-11.4418
陛下	-11.4419
鄂	-11.442
太素作	-11.4421
跳出	-11.4425
吟詠	-11.4425
黄裳	-11.4426
澄澄	-11.4427
支干	-11.4428
正陽之氣	-11.4431
留形	-11.4432
巡狩	-11.4432
未判	-11.4438
雌黄	-11.444
甲庚	-11.4441
幽州	-11.4443
金晶	-11.4444
莊子曰	-11.4446
曰吾聞	-11.4447
代謝	-11.4449
江陵	-11.4452
乗龍	-11.4453
疑此	-11.4454
守靜	-11.4455
在其中矣	-11.4458
九候	-11.4459
兩乳	-11.4461
西方金	-11.4463
廓然	-11.4463
補腦	-11.4465
伐吴	-11.4467
勤苦	-11.4467
者汞也	-11.4467
不殆	-11.4468
胃管	-11.4476
涓子	-11.4477
兵攻	-11.4478
公卿	-11.4486
直待	-11.4487
駕龍	-11.4488
四刻	-11.4499
方士	-11.4499
雲笈七籤卷之一百	-11.4509
合爲一	-11.4511
潔白	-11.4511
而不散	-11.4512
心之液	-11.4516
我輩	-11.4519
之天即	-11.4524
功力	-11.4524
皇極	-11.4528
萬國	-11.4529
傷筋	-11.4529
修行之人	-11.4534
修德	-11.4534
咸通	-11.4536
徃還	-11.4546
埃昏	-11.4552
夫惟	-11.4552
安危	-11.4554
結就	-11.4556
江東	-11.4558
行於地	-11.4566
俄而	-11.4575
禁止	-11.4576
盈虚	-11.4577
皆吉	-11.4582
虛无	-11.4588
炎火	-11.459
異類	-11.4591
可長生	-11.4593
洒洒	-11.46
左右足	-11.4601
瀟	-11.4604
因果	-11.4609
石硫黄	-11.4619
應四時	-11.462
浮華	-11.4633
保身	-11.4634
只今	-11.4635
罪過	-11.4636
傷肉	-11.4639
吉解曰	-11.4652
亦如此	-11.4654
篇目	-11.4658
非世間	-11.467
有白氣	-11.4674
無際	-11.4683
若干	-11.4693
二百里	-11.4696
也然則	-11.4696
也若夫	-11.4696
恁	-11.4697
天池	-11.4702
日之精	-11.4705
十二節	-11.4708
第十五	-11.4717
三爻	-11.4718
舊本	-11.4725
靈樞經	-11.4727
天地之精	-11.473
辛水運	-11.4734
黄素	-11.4746
二百日	-11.4746
故易曰	-11.4748
昭王	-11.4754
繆	-11.4761
不可不知	-11.4761
拓	-11.4768
轉輪	-11.4768
消長	-11.477
巇	-11.4771
罡	-11.4777
棋	-11.4779
為主	-11.4781
沓	-11.4786
閡	-11.4786
觴	-11.4787
黄帝内經靈樞集註卷之	-11.4788
樗	-11.4788
悠	-11.4789
娱	-11.4791
愉	-11.4791
飧泄	-11.4791
受氣於	-11.4793
宸	-11.4793
䆫	-11.4794
超凡入聖	-11.4794
榛	-11.4794
衆妙之門	-11.4794
戊火運	-11.4795
范蠡	-11.4795
徼	-11.4795
剔	-11.4795
只得	-11.4796
脣	-11.4796
嚼	-11.4796
憊	-11.4797
馥	-11.4797
桀	-11.4798
牲	-11.4798
葺	-11.4799
趍	-11.4799
謨	-11.48
獅子	-11.48
晩晩晩晩	-11.4801
汪	-11.4801
東西南北	-11.4802
曳	-11.4802
一呼一吸	-11.4802
翦	-11.4802
晦朔之間	-11.4803
髀樞	-11.4803
子午卯酉	-11.4803
賾	-11.4803
雨化五	-11.4804
窈窕	-11.4804
悚	-11.4804
震動	-11.4804
夢寐	-11.4805
廊	-11.4805
崗	-11.4805
吐蕃	-11.4805
礜石	-11.4805
正化盛而實勝而不復	-11.4805
皎皎	-11.4807
吠	-11.4807
火生土	-11.4808
脈	-11.4808
一百九	-11.4808
勤而行之	-11.4809
縳	-11.4809
沉淪	-11.4809
瀛洲	-11.4809
鉞	-11.481
悦	-11.481
頡	-11.481
搓	-11.4811
咨	-11.4813
梧	-11.4814
東流水	-11.4815
猶豫	-11.4817
天帝位	-11.4817
旦暮	-11.4818
偃月爐	-11.4818
邯	-11.4818
青龍白虎	-11.4823
早晩	-11.4825
木火土	-11.4826
隗	-11.4828
八節日	-11.4831
大杼	-11.4831
背俞	-11.4832
穆王	-11.4833
□□	-11.4833
光明砂	-11.4835
如麻	-11.4836
省悟	-11.4837
全忠	-11.4837
依前法	-11.4838
韓信	-11.4839
精粹	-11.4844
羲白	-11.4847
符牒	-11.4847
山頂	-11.4848
永嘉	-11.4852
奔走	-11.4853
紫芝	-11.4855
無疆	-11.4857
玉衡	-11.4857
歷代	-11.4861
命籍	-11.4864
甘草	-11.4867
哀樂	-11.4868
兩眉	-11.487
咽止	-11.4873
交戰	-11.4874
周將軍	-11.488
山崩	-11.4881
骨之端	-11.4881
獨步	-11.4881
一紙	-11.4882
落落	-11.4883
同身寸之二寸	-11.4883
五行之氣	-11.4883
獨露	-11.4886
日起子	-11.4888
七尺	-11.4888
無拘	-11.489
牛馬	-11.4891
契虛	-11.4894
騰空	-11.4895
疑惑	-11.4896
下同身寸之一寸	-11.4897
真佛	-11.4899
不可妄行	-11.49
虛妄	-11.4905
靜默	-11.4906
傳非人	-11.4911
頥神	-11.4916
而論之	-11.492
興亡	-11.4925
崩子	-11.4928
天地之數	-11.4929
太素眞人	-11.494
於鼎中	-11.4943
千秋	-11.4943
黑雲	-11.4944
寄位	-11.4946
樓臺	-11.4951
五蔵	-11.4954
至十五日	-11.4954
有神人	-11.4955
北斗君	-11.4957
腸鳴	-11.4963
執著	-11.4964
十五里	-11.4976
契丹	-11.4977
傳寫	-11.4981
一千九	-11.4988
延命	-11.4992
安期	-11.5008
矣若夫	-11.501
屬火	-11.5019
調理	-11.5033
配衣轉天關	-11.5034
無所不至	-11.5039
侯王	-11.5045
衆聖	-11.5048
内境	-11.5053
壬木運	-11.5063
獨存	-11.5065
節符	-11.5068
手摩	-11.5068
第十九	-11.5069
於器中	-11.507
到了	-11.507
是道也	-11.5072
干木	-11.5075
青州	-11.5077
尋求	-11.5092
之根本也	-11.5093
軍亂	-11.5094
宣帝	-11.513
一千二	-11.5132
口訣是	-11.5134
太宗	-11.5143
太華	-11.5146
一千三	-11.5146
衰老	-11.5148
第二十三	-11.5152
雌一	-11.5159
沉細	-11.5165
穆公	-11.5166
得免	-11.5191
䝿	-11.5196
𠕋	-11.5197
杼	-11.5198
衲	-11.52
國亡	-11.5203
西昇經云	-11.5203
三百八十四	-11.5205
啄齒	-11.5205
帷	-11.5206
歐	-11.5206
解結	-11.5208
氣所生	-11.5208
老聃	-11.5209
佑	-11.521
無中生有	-11.521
瘍	-11.5211
笻	-11.5211
肱	-11.5211
濮	-11.5211
藜	-11.5211
何謂歟正陽子曰	-11.5212
千乘萬騎	-11.5212
螻蟻	-11.5212
掀	-11.5212
娘	-11.5212
搬	-11.5213
企	-11.5213
専	-11.5214
莽	-11.5215
蓑	-11.5215
粧	-11.5215
章第二	-11.5215
縹	-11.5215
蓼	-11.5215
贅	-11.5216
故下文曰	-11.5216
一二三四	-11.5217
啄	-11.5217
臍下三寸	-11.5218
煖	-11.5218
覲	-11.5218
有草焉	-11.5219
拉	-11.5219
夔	-11.522
痼	-11.522
瞬	-11.522
懈怠	-11.522
大腸小腸	-11.522
帝嚳	-11.5221
正化令實	-11.5221
碧潭	-11.5221
謡	-11.5221
貪嗔	-11.5222
癰疽	-11.5222
速於水火	-11.5222
竹筒	-11.5222
華陽隱居	-11.5223
坊	-11.5224
譎	-11.5224
償	-11.5225
紋	-11.5225
洞房中	-11.5225
所載	-11.5226
杪	-11.5226
廵	-11.5226
誰肯	-11.5228
月朔	-11.5228
滕	-11.5229
户牖	-11.523
陽氣内	-11.5231
駟	-11.5231
朗朗	-11.5232
經綸	-11.5233
柰	-11.5233
兒孫	-11.5233
彝	-11.5234
翥	-11.5235
流鈴	-11.5236
踐位	-11.5237
瓊漿	-11.5238
孛	-11.5238
門戸	-11.5238
徹底	-11.5242
氣上騰	-11.5245
雲收	-11.5245
蜀郡	-11.5245
腦户	-11.5245
吉祥	-11.5247
足脛	-11.5247
銖兩	-11.5248
虢	-11.5249
制汞	-11.5251
愛慾	-11.5251
狀似	-11.5252
瞳子	-11.5252
淮南王	-11.5253
次五日	-11.5255
萬二千	-11.5256
槃	-11.5256
帝堯	-11.5256
頓悟	-11.5257
假借	-11.5258
依科	-11.5263
姚興	-11.5265
仙階	-11.5265
玄膺	-11.527
如之何	-11.527
白元君	-11.527
少好道	-11.5276
一派	-11.5278
黄籙	-11.5287
魏夫人	-11.5289
未敢	-11.5295
感動	-11.5298
差别	-11.5308
太帝君	-11.5309
第十六	-11.5323
黄昏	-11.5327
了達	-11.533
十翼	-11.5331
炎帝	-11.5337
枯木	-11.534
上清眞人	-11.5347
天關星	-11.5347
雨濕	-11.5347
郡縣	-11.5351
不輟	-11.5352
散而爲	-11.5354
荆山	-11.5355
非其人	-11.5367
短長	-11.537
術士	-11.5375
靈龜	-11.5377
逺近	-11.5384
一百五十	-11.5385
守城	-11.5388
神芝	-11.5392
通塞	-11.5393
保守	-11.5398
飛鳥	-11.54
戰于	-11.5405
前程	-11.5407
不知所在	-11.5412
二十三十	-11.5415
聖功	-11.5423
幽深	-11.5424
者此也	-11.5428
三百四	-11.5435
端正	-11.5436
爻辭	-11.5437
成粉	-11.5441
金鎖	-11.5441
帝庭	-11.5447
何患	-11.5466
接引	-11.5466
肢體	-11.5478
流布	-11.5482
其故何也	-11.5498
蓋由	-11.5501
告命	-11.5502
禮智	-11.5505
仲秋	-11.5506
澄清	-11.5508
紫陽眞人	-11.5516
閉藏	-11.552
靜慮	-11.5541
陰之精	-11.5542
元吉	-11.5544
常侍	-11.5555
龍蟠	-11.5559
幻化	-11.556
之門户也	-11.5563
育萬物	-11.5581
尺脉	-11.5595
季脇	-11.5624
夷狄	-11.5628
崐	-11.5629
本來面目	-11.563
悗	-11.5635
蓬島	-11.5635
冉冉	-11.5638
劈	-11.5639
睫	-11.5639
留而不去	-11.5639
垓	-11.5641
馴	-11.5644
砥	-11.5645
蝎	-11.5645
游于	-11.5645
轆	-11.5645
六百篇	-11.5647
僣	-11.5647
攢	-11.5647
交錯	-11.5647
鋭	-11.5647
瘁	-11.5648
般般	-11.5648
魔王	-11.5648
殖	-11.5649
繩墨	-11.5649
曄	-11.5649
柘	-11.5649
礪	-11.5649
嶮	-11.565
瑜	-11.565
輳	-11.5651
瀛	-11.5651
涅槃	-11.5651
閒	-11.5652
胂	-11.5652
挑	-11.5652
四千三百二十	-11.5652
查	-11.5652
巒	-11.5653
砭石	-11.5653
心不動	-11.5653
鄞鄂	-11.5654
无能子	-11.5654
収	-11.5654
檐	-11.5655
恤	-11.5655
圖子欲	-11.5655
蹤跡	-11.5655
玄關一竅	-11.5655
暘	-11.5656
蠅	-11.5656
中央黄老君	-11.5656
陽中有陰	-11.5656
箴	-11.5657
閉目内視	-11.5657
彙	-11.5658
對化有間與運	-11.5658
伊尹	-11.5658
璣	-11.5658
干戈	-11.5659
蟠桃	-11.5659
丕	-11.5659
天地水三官	-11.566
白日上昇	-11.5661
桐栢	-11.5661
彌綸	-11.5661
二穴在足	-11.5662
古歌曰	-11.5662
燎	-11.5662
陽中之陰	-11.5663
騰騰	-11.5663
尺部	-11.5663
兜	-11.5664
朋友	-11.5664
嗣位是謂	-11.5665
惺	-11.5665
帙	-11.5665
箋	-11.5665
幘	-11.5667
二千八	-11.5668
第十八	-11.5669
水火既濟	-11.567
五行相生	-11.5671
瑩淨	-11.5671
金丹大藥	-11.5672
園林	-11.5674
盈縮	-11.5674
灼灼	-11.5674
混融	-11.5675
嵩高	-11.5676
王莽	-11.5676
指揮	-11.5678
宗廟	-11.5679
神仙之道	-11.5681
貪財	-11.5682
月窟	-11.5683
横骨	-11.5683
梧桐	-11.5684
晟	-11.5684
風化八	-11.5684
腰帶	-11.5685
針經曰	-11.5687
畫八卦	-11.5688
鐵牛	-11.5689
二百三	-11.5694
河魁	-11.5694
晨昏	-11.5695
難測	-11.5699
夫人諱	-11.57
碧落	-11.5707
水數一	-11.5707
但依	-11.5709
凝滯	-11.571
貪愛	-11.5712
百八十	-11.5714
布衣	-11.5716
未嘗不	-11.5716
之奈何岐伯曰	-11.5717
虧盈	-11.5717
于泥丸	-11.5719
宻宻	-11.5719
洞淵	-11.5721
藥材	-11.5725
山其木多	-11.5732
畫圖	-11.5733
群臣	-11.5734
會諸侯	-11.5736
昊天	-11.5738
發生之	-11.5738
州縣	-11.574
無瑕	-11.5748
審察	-11.5755
還丹之道	-11.576
廣陵	-11.5761
蒼龍	-11.5765
三歩九跡	-11.577
不和則	-11.5771
洞觀	-11.5773
循臂	-11.5774
從魁	-11.5775
黄泉	-11.5792
尸蟲	-11.5792
一百三	-11.5798
惡夢	-11.5801
風刀	-11.5811
心包絡	-11.5814
虚危	-11.5814
十餘人	-11.5817
后土	-11.5823
苦辛	-11.5829
州軍亂	-11.5829
一千五	-11.5836
縣南	-11.5855
衡山	-11.5866
黄帝曰人之	-11.5872
第二十四	-11.5882
行於世	-11.5889
虎牙	-11.5895
悲哉	-11.591
王卒子	-11.5925
五百年	-11.5941
求救	-11.5949
第二十二	-11.5953
水火土	-11.5953
漸覺	-11.5964
十二樓	-11.5973
渾淪	-11.5992
其色赤	-11.6007
三萬六千神	-11.6009
要言	-11.6009
一千七	-11.6015
涓	-11.6024
是以君子	-11.6033
跗上	-11.6035
疆	-11.6049
脅痛	-11.6053
一千一	-11.6059
二千二	-11.6065
人之情	-11.6067
二千七	-11.6072
巅	-11.6078
之原出於	-11.6081
鴨	-11.6084
匙	-11.6087
舂	-11.6091
遑	-11.6097
叠	-11.6098
日再服	-11.6098
錐	-11.6099
楗	-11.6099
炊	-11.6099
後聖君告天師曰	-11.6099
鍛	-11.61
悍	-11.61
庇	-11.61
晉	-11.6101
寒化六	-11.6101
呻	-11.6101
太羽終	-11.6102
瓮	-11.6102
羨	-11.6102
嗷	-11.6102
雰	-11.6102
琢	-11.6102
烝	-11.6103
悳	-11.6104
少俞曰	-11.6104
收斂	-11.6104
則太上云	-11.6104
自下而上	-11.6104
羶	-11.6105
新校正云按六元正紀大論云	-11.6105
荼	-11.6105
兀然	-11.6105
女媧	-11.6105
旂	-11.6105
鯀	-11.6105
之爲言	-11.6106
俛仰	-11.6106
挫	-11.6106
五月五日	-11.6107
坐在立亡	-11.6107
悄	-11.6107
疥	-11.6108
𢘆守我	-11.6108
眹	-11.6108
鄒	-11.6108
昱	-11.6108
努	-11.6109
廕	-11.6109
煅煉	-11.6109
咀	-11.6109
溥	-11.6109
經隧	-11.611
耳目聦明	-11.611
陰中有陽	-11.611
艶	-11.6111
對化盛而不實勝而有復	-11.6111
陶弘景	-11.6111
咄	-11.6111
峽	-11.6111
鳯	-11.6112
凱	-11.6112
弭	-11.6112
地下主者	-11.6112
飛裙	-11.6114
三魂七魄	-11.6115
西城王君	-11.6115
篋	-11.6116
夙夜	-11.6116
芸芸	-11.6118
五嶽眞形	-11.6118
泮	-11.6119
太一眞君	-11.6119
疎	-11.6119
大矣哉	-11.6119
銚	-11.612
無草木多	-11.612
休糧	-11.612
天地之始	-11.6122
佗	-11.6123
偏枯	-11.6123
歷劫	-11.6124
征伐	-11.6124
羲皇	-11.6126
徐州	-11.6127
結喉	-11.6127
冬至之後	-11.6127
容貌	-11.6128
之所致也	-11.6129
孺子	-11.6129
包羅	-11.6132
玉局	-11.6134
修黄籙道場	-11.6136
後聖君授	-11.6137
彭城	-11.6138
二千一	-11.6139
孫絡	-11.6139
羽翼	-11.614
營營	-11.614
二千六	-11.6142
細細	-11.6142
二百四	-11.6142
雲篆	-11.6143
湯武	-11.6144
揆度	-11.6145
辟兵	-11.6148
北嶽	-11.6149
子貢	-11.615
甲乙經作	-11.6164
月二十七日	-11.6165
嵩山	-11.6165
煩滿	-11.6168
削去	-11.6168
智慮	-11.617
氣流行	-11.6174
千丈	-11.6174
掾書	-11.6178
懷胎	-11.6178
武陵	-11.6179
朱陵	-11.6182
左邊	-11.6183
朱鳥	-11.6183
盤古	-11.6184
布施	-11.6187
青松	-11.6188
兼忘	-11.619
塵俗	-11.6195
不可測	-11.62
圓滿	-11.62
關閉	-11.6202
寂滅	-11.6206
死灰	-11.6209
泄利	-11.621
劉備	-11.6211
師貞	-11.6211
民災	-11.6212
恁時	-11.6218
光射	-11.6219
二千四	-11.6219
二十餘	-11.622
十餘里	-11.6221
最難	-11.6239
左右各	-11.624
忽聞	-11.6241
陳留	-11.6248
雲笈七籤卷之一百一十	-11.6253
梁國	-11.6256
謹白	-11.6271
吉利	-11.6275
兩眉間	-11.6287
在其東	-11.6291
食穀	-11.6304
簡易	-11.6304
無妨	-11.631
氣不足則	-11.6314
第十七	-11.6316
天地之根	-11.6327
青城山	-11.633
訖便	-11.6372
二十有五	-11.6393
左肘	-11.6397
冰雪	-11.6398
歎曰	-11.6404
太陽之精	-11.6409
人之生也	-11.6409
其色黄	-11.6416
卒弟	-11.6433
/○○○○)(/○○○	-11.6437
沌	-11.644
於心心	-11.6445
問其故	-11.6446
然而然	-11.645
三千四	-11.6458
過爲一	-11.6463
磁	-11.647
一千四	-11.6472
亦如是	-11.6473
二千五	-11.6496
第二十五	-11.6509
與天地合	-11.6513
元嘉	-11.6516
將吏	-11.6522
百斤	-11.6531
四千二	-11.655
孺	-11.6554
陬	-11.6559
白馬牙	-11.656
慳	-11.6563
悽	-11.6566
癲疾	-11.6568
佇	-11.6568
倉廪	-11.657
煮	-11.657
筋攣	-11.657
毬	-11.657
跋	-11.6571
舛	-11.6571
新枝正云按	-11.6572
五運行大論	-11.6573
渝	-11.6573
冰雹	-11.6573
榆莢	-11.6573
淄	-11.6574
陜	-11.6574
確	-11.6574
穹	-11.6574
律吕	-11.6575
掠	-11.6575
嚴固守之使	-11.6575
戢	-11.6576
白日升天	-11.6577
焦枯	-11.6577
渤海	-11.6577
啞	-11.6578
硃砂	-11.6578
覈	-11.6578
錯綜	-11.6578
隊	-11.6579
猫	-11.658
郗	-11.658
依韻和	-11.658
痔	-11.658
嫗	-11.658
溏	-11.6581
龍吟虎嘯	-11.6581
滲泄	-11.6581
麻姑	-11.6582
礦	-11.6582
鼽衂	-11.6582
個	-11.6582
復命篇云	-11.6582
祗	-11.6583
葆	-11.6583
侈	-11.6583
眞鉛眞汞	-11.6583
滔	-11.6583
鍾吕	-11.6584
畒	-11.6584
窈	-11.6585
㣲	-11.6585
綿綿若存	-11.6585
古歌云	-11.6586
嫁娶	-11.6586
倘	-11.6586
咽液九過	-11.6587
蟬蛻	-11.6587
岩	-11.6587
撼	-11.6587
㠯	-11.6587
歸根復命	-11.6588
是也䟽曰	-11.6588
璇	-11.6589
貨財	-11.6589
一隂一陽	-11.6589
捩	-11.6589
釘	-11.659
讖	-11.6591
牟	-11.6591
曽	-11.6591
定庵	-11.6592
炫	-11.6593
四千一	-11.6593
冉	-11.6593
痢	-11.6594
巫咸	-11.6594
祭醮	-11.6595
莢	-11.6596
痿厥	-11.6596
芻	-11.6598
憂愁	-11.6598
金木水火	-11.6598
循喉嚨	-11.6598
蜚	-11.6599
皇甫	-11.6599
坼	-11.6599
勇猛	-11.6599
五日一候	-11.6602
𩲃	-11.6602
牙齒	-11.6603
侍郎	-11.6604
天數有餘	-11.6604
少陰司天	-11.6606
尺澤	-11.6606
叢林	-11.6609
左足躡	-11.6609
同歲會	-11.6609
三百七	-11.661
長史寫	-11.661
鬼魅	-11.661
陳臭	-11.6613
忽忽	-11.6616
太傅	-11.6616
感激	-11.6619
從何而	-11.6621
二百二	-11.6622
紫粉	-11.6627
禁忌	-11.6629
納甲	-11.6633
吴越	-11.6635
賢良	-11.6635
土生金	-11.6635
返覆	-11.6636
二千三	-11.6637
峨嵋山	-11.6639
乎其中矣	-11.6642
何妨	-11.6645
九百六	-11.6647
共工	-11.6648
認取	-11.6649
調適	-11.6653
頭項	-11.6656
七百七	-11.666
神與氣	-11.666
霍亂	-11.6661
對境	-11.6662
碧海	-11.6663
披雲	-11.6665
慧照	-11.6665
夫如是	-11.6669
足跗	-11.6673
禍害	-11.6678
仙鄉	-11.6682
虛寂	-11.6683
設位	-11.6687
解穢	-11.6687
老子云	-11.669
火之候	-11.6697
三百六	-11.6698
渾沌	-11.6704
西伯	-11.6711
驚異	-11.6714
照破	-11.6715
哀哉	-11.6719
陽眀	-11.6721
三千八	-11.6723
壬寅癸卯甲辰	-11.6738
第二十七	-11.6742
内院	-11.6749
千斤	-11.6751
泄漏	-11.6769
數百人	-11.6792
陰陽二氣	-11.6793
央	-11.6799
味鹹	-11.6812
足太陽脉	-11.6819
過止	-11.6828
只這	-11.6836
入鼎中	-11.6891
天衢	-11.6893
祥雲	-11.6902
漢末	-11.6904
仲春	-11.6916
赫然	-11.6919
風飄	-11.6935
所託	-11.6955
氷雪	-11.6981
陰蹻	-11.6989
運北正司天天面向南左東直右西直	-11.7022
跗	-11.7033
嘿庵	-11.7049
從兆泥丸中入下布兆	-11.7056
冗	-11.706
痎	-11.7062
黄帝素問靈樞集註卷之	-11.7063
惺惺	-11.7067
縞	-11.7067
目内眥	-11.707
嗔怒	-11.7071
蝦	-11.7071
沿	-11.7071
木運角木音也	-11.7071
轝	-11.7073
燿	-11.7073
璈	-11.7074
藕	-11.7075
尖	-11.7075
嬴	-11.7076
流金火鈴	-11.7076
䖍	-11.7076
閉氣三息	-11.7076
駢	-11.7076
渺渺	-11.7077
留六呼若灸者可灸三壯	-11.7077
痞	-11.7078
僵	-11.7078
甌	-11.7078
𦙄中	-11.7078
邃	-11.7078
鬛	-11.7078
琮	-11.7079
慣	-11.7079
蟹	-11.708
覆藉	-11.708
魍	-11.708
澡雪	-11.708
嬌女	-11.708
譆	-11.7081
躄	-11.7082
猷	-11.7082
訾	-11.7083
哂	-11.7083
佯	-11.7083
延齡	-11.7083
暨	-11.7083
其要在乎	-11.7084
幅	-11.7084
呌	-11.7084
揀	-11.7084
穗	-11.7085
伊川擊壤集卷之十	-11.7085
鬼臾區	-11.7085
清靈眞人	-11.7085
眞誥卷之十	-11.7085
城隍	-11.7086
衿	-11.7087
田𧖟	-11.7087
金闕右卿司命蓬萊都水	-11.7087
非有非無	-11.7087
太角初	-11.7087
遟	-11.7088
酪	-11.7088
絆	-11.7089
抱元守一	-11.709
金闕帝君	-11.709
知白守黑	-11.7092
莒	-11.7092
湧泉	-11.7092
側卧	-11.7092
乂	-11.7092
舐	-11.7092
螺	-11.7093
漓	-11.7093
萇	-11.7094
宛轉	-11.7094
稚川	-11.7096
睢	-11.7096
硝石	-11.7096
裊	-11.7096
野戰	-11.7097
叡	-11.7097
田蠶	-11.7097
斡運	-11.71
撩	-11.7101
寵辱	-11.7102
誼	-11.7102
金液神丹	-11.7102
蘭臺	-11.7103
謀慮	-11.7104
三日三夜	-11.7104
周帀	-11.7105
屋宇	-11.7105
急出之	-11.7105
莊子云	-11.7108
五行顛倒	-11.7108
觸類	-11.7109
飛金晶	-11.711
贖	-11.7111
昺	-11.7114
珍寳	-11.7115
入于中宫	-11.7116
黄帝問曰	-11.7117
仲夏	-11.7118
合而爲一	-11.7119
謹按	-11.712
拔晋	-11.7121
太陽司天	-11.7126
祖師云	-11.713
昇騰	-11.713
何也答云	-11.713
地裂	-11.7131
與之俱	-11.7133
胃脉也	-11.7136
禍患	-11.7137
流浪	-11.7141
手少隂	-11.7142
三百六十五日	-11.7148
暴雨	-11.7149
食頃	-11.7152
翠微	-11.7152
肝膽	-11.7156
紫瓊	-11.7161
密室	-11.7164
玄丹宫	-11.7166
狀貌	-11.7174
朝拜	-11.7181
昔黄帝	-11.7192
鼎器歌	-11.7197
崑山	-11.7198
巨虚	-11.7207
數十年	-11.7253
天台山	-11.7253
童蒙	-11.7256
傷於寒	-11.7264
方隅	-11.7279
二百九	-11.7279
神之舍	-11.7283
泉源	-11.7302
拘制	-11.7314
雲笈七籤卷之八十	-11.7349
氣三咽止便讀玉經畢又祝曰	-11.7359
符籙	-11.7367
之驗也	-11.7369
學之士	-11.7376
雲笈七籤卷之六十	-11.7377
兖	-11.7384
一百五十二	-11.741
雲笈七籤卷之七十	-11.7431
云修行之人	-11.7462
遭遇	-11.7506
淮南子	-11.755
道樞卷之十	-11.7583
字伯	-11.7584
捍	-11.7584
堵	-11.7591
黄帝曰余聞	-11.7591
憔悴	-11.7593
拔宅上昇	-11.7593
窩	-11.7594
輻輳	-11.7595
翱翔	-11.7597
明月清風	-11.7597
慼	-11.7598
菀	-11.7598
嶠	-11.7599
忖	-11.7599
矧	-11.7599
綿綿若存用之不勤	-11.7599
褥	-11.76
炬	-11.7602
膊	-11.7602
黄帝内經素問補註釋文卷之十	-11.7602
帝曰治之奈何岐伯曰	-11.7603
覷	-11.7603
杳杳	-11.7603
咳嗽	-11.7603
倩	-11.7604
汲汲	-11.7604
需	-11.7605
紆	-11.7605
桐柏	-11.7605
年乙未丙申丁酉戊戌己亥庚子辛丑	-11.7606
緇	-11.7606
臭腐	-11.7606
跂	-11.7607
燕雀	-11.7607
松脂	-11.7607
河上公	-11.7607
猛烈	-11.7607
臉	-11.7607
稻米	-11.7608
留三呼若灸者可灸三壯	-11.7608
薄蝕	-11.7608
鸇	-11.7608
伊川邵雍堯夫	-11.7609
隘	-11.7609
晁	-11.7609
從本生數	-11.7609
瘳	-11.7609
牡丹	-11.7609
狙	-11.761
嚙	-11.761
我命在我	-11.761
軒冕	-11.7611
狩	-11.7611
旬有五日	-11.7611
象帝之先	-11.7612
决死生	-11.7612
無爲而無不爲	-11.7612
次右間從偶即先右間次左間也	-11.7612
罹	-11.7613
螻	-11.7613
髦	-11.7614
躔	-11.7614
桃源	-11.7615
勗	-11.7615
勘破	-11.7615
靈飛六甲	-11.7616
繳	-11.7616
頁	-11.7617
渡江	-11.7618
睽	-11.7618
温暖	-11.7618
東方朔	-11.7618
忌諱	-11.7619
孰能與於此	-11.7619
黵	-11.7619
裸	-11.762
畝	-11.7621
和諧	-11.7622
迄	-11.7622
銅器中	-11.7623
馬丹陽	-11.7623
殊途	-11.7623
周穆王	-11.7624
雞鳴	-11.7624
悲哀	-11.7626
無色界	-11.7626
豁落	-11.763
糾	-11.763
滌除	-11.7631
昰	-11.7632
蒼蒼	-11.7632
傳非其人	-11.7633
鸞鳳	-11.7633
桃康	-11.7633
周匝	-11.7635
般運	-11.7635
掃除	-11.7635
天門冬	-11.7636
桓温	-11.7637
先天一氣	-11.764
漢武帝	-11.7641
純熟	-11.7642
百般	-11.7642
王方平	-11.7646
項羽	-11.7649
滋榮	-11.765
掖下	-11.7651
若然者	-11.7651
妻妾	-11.7654
分毫	-11.7654
變化無窮	-11.7655
百千萬	-11.7656
甘泉	-11.7659
劉裕	-11.7659
九百九	-11.7659
在掌後	-11.7662
賣藥	-11.7664
不得已而	-11.7666
丁木運	-11.7666
黄巢	-11.7667
五行四象	-11.7667
湯液	-11.7668
四象五行	-11.7669
日夜半時	-11.7672
摇動	-11.7673
紫霄	-11.7678
毒蛇	-11.768
將軍吏兵	-11.7684
鼻内氣	-11.7684
無所不通	-11.7692
漏刻	-11.7695
道樞卷之三十	-11.773
黄帝内經素問補註釋文卷之三十	-11.774
吾昔	-11.7756
矣雲牙子曰	-11.778
史記	-11.7828
朱顔	-11.7832
雲笈七籤卷之九十	-11.7842
張紫陽	-11.787
河伯	-11.7872
三分留七呼若灸者可灸三壯	-11.7875
元亨	-11.7908
些兒	-11.7936
符吏	-11.7953
江淮	-11.7973
右二條	-11.8012
者治其	-11.8057
道樞卷之二十	-11.8077
八十有一	-11.8102
太陽脉氣所發	-11.8122
聶	-11.813
硇砂	-11.8137
西方庚辛	-11.8138
陛	-11.8138
塔	-11.8139
章第九	-11.814
水出焉而北流注于	-11.814
此資生第三元	-11.8143
唏	-11.8143
漯	-11.8146
瑰	-11.8146
赤石脂	-11.8148
至簡至易	-11.8149
鏤	-11.8151
劬	-11.8151
雎	-11.8151
毓	-11.8152
兀	-11.8153
一生二二生三三生萬物	-11.8154
杲	-11.8154
硯	-11.8155
六元正紀大論	-11.8155
煴	-11.8155
藏氣法時論	-11.8155
瞎	-11.8155
爇	-11.8155
淡泊	-11.8156
嵓	-11.8156
八萬四千	-11.8156
中華仙人李淳風注	-11.8156
痰	-11.8157
分肉之間	-11.8158
薺	-11.8158
泡	-11.8158
涅	-11.8158
搐	-11.8159
一陽初動	-11.8159
戎鹽	-11.816
覿	-11.816
旛	-11.816
三元將軍	-11.816
沅	-11.8161
妓	-11.8162
陶隱居	-11.8162
瑋	-11.8162
役使鬼神	-11.8162
蓽	-11.8162
姑射	-11.8163
械	-11.8163
押	-11.8163
嘔吐	-11.8163
歴	-11.8163
以胃氣爲本	-11.8163
王子喬	-11.8163
殫	-11.8165
圈	-11.8165
釀	-11.8165
四百里曰	-11.8165
髃	-11.8165
笋	-11.8165
机	-11.8165
南華老仙	-11.8165
一月三十日	-11.8166
髁	-11.8166
亶	-11.8166
竹帛	-11.8167
麒麟	-11.8167
椀	-11.8167
刑罰	-11.8168
厚三分	-11.8168
厮	-11.8168
一切常人	-11.8168
哩	-11.8168
壷	-11.8168
西江月	-11.8168
坯	-11.8169
毫髮	-11.8169
白日昇仙	-11.8169
鴆	-11.817
畎	-11.817
盤桓	-11.817
青木香	-11.817
貺	-11.8171
餉	-11.8171
昨夜	-11.8171
愕	-11.8171
晞	-11.8171
岷山	-11.8172
醮祭	-11.8172
何以明之	-11.8173
勛	-11.8173
自古及今	-11.8173
后妃	-11.8174
瓷	-11.8174
其鳥多	-11.8174
爵禄	-11.8174
異於常	-11.8174
爐竈	-11.8175
眞君降言曰	-11.8175
未央	-11.8175
自上而下	-11.8176
昏衢	-11.8177
鈔	-11.8177
葛洪	-11.8177
痤	-11.8178
彷彿	-11.8178
奇耦	-11.8179
澤瀉	-11.8179
愠	-11.818
潁川	-11.8181
醪	-11.8183
腦髓	-11.8184
跌	-11.8184
杻	-11.8185
䑕	-11.8186
曝乾	-11.8186
介蟲	-11.8187
縉雲	-11.8187
屋宅	-11.819
陽明在泉	-11.8191
絳闕	-11.8192
楊柳	-11.8192
皎然	-11.8193
千般	-11.8194
彬	-11.8194
香臭	-11.8198
終南山	-11.8199
群魔	-11.8201
烹鍊	-11.8202
出其血	-11.8203
貧窮	-11.8204
陽明司天	-11.8204
徙都	-11.8212
瑩徹	-11.8212
所以者何	-11.8213
戰爭	-11.8216
委羽	-11.8216
秘訣	-11.8216
丈二尺	-11.8218
篇第十	-11.822
護持	-11.822
施惠	-11.8221
徵火音也	-11.8224
獲罪	-11.8227
五十五數	-11.8242
正月一日	-11.8248
輕健	-11.8257
太沖	-11.826
入于泥丸	-11.8282
散爲禹歩	-11.8298
隂年不及故少	-11.8317
乙巳丙午丁未戊申己酉庚戌辛亥	-11.8341
遇明師	-11.8394
扶持	-11.8395
子午陽年	-11.8442
一日十二時	-11.8456
朔望	-11.8474
右三條	-11.8574
頓覺	-11.8598
嬰童	-11.8606
雲笈七籖卷之四十	-11.8625
黄帝内經素問補註釋文卷之四十	-11.867
厥陰之脉	-11.8673
扺	-11.8692
脉至如	-11.8707
渾渾	-11.871
潦	-11.8718
腸澼	-11.8722
此資生第二元	-11.8723
流水不冰	-11.8731
頄	-11.8732
組	-11.8733
揵	-11.8734
古先至人	-11.8735
沽	-11.8736
洿	-11.8736
罅	-11.8737
騰躍	-11.8737
葛藤	-11.8737
迦葉	-11.8738
樽	-11.8738
炒	-11.8739
庚辰辛巳壬午癸未甲申乙酉丙戌丁亥	-11.8741
藿	-11.8741
珊	-11.8741
不可勝數	-11.8741
噪	-11.8741
寒氣客於	-11.8741
蛙	-11.8741
離騷	-11.8741
壠	-11.8742
癇	-11.8742
駮	-11.8742
恍恍惚惚	-11.8742
塵寰	-11.8743
▲	-11.8743
緻	-11.8743
棹	-11.8743
還源篇	-11.8744
紳	-11.8744
之籍係色界	-11.8744
婉	-11.8745
淫泆	-11.8745
蒨	-11.8745
堝	-11.8745
宛宛中	-11.8745
匏	-11.8745
仲甫	-11.8746
代書寄	-11.8746
不生不滅	-11.8746
陶冶	-11.8746
鵰	-11.8746
咀嚼	-11.8746
餚	-11.8746
上下釜	-11.8747
筋骸	-11.8747
諍	-11.8747
拗	-11.8747
鈹	-11.8748
龢	-11.8748
衆卦之父母	-11.8748
葦	-11.8748
巵	-11.8748
又南三百里曰	-11.8748
坡	-11.8748
四十有九	-11.8748
闈	-11.8748
缾	-11.8749
塩	-11.8749
巻	-11.8749
迺	-11.8749
蹋	-11.875
犍	-11.875
僖	-11.875
窠	-11.8751
淅	-11.8751
兩筋間	-11.8751
眺	-11.8751
蚊	-11.8751
凖	-11.8751
其或未然	-11.8751
㯶	-11.8752
丘長春	-11.8752
纒	-11.8752
詹	-11.8753
諳	-11.8753
縁督子	-11.8753
如韭葉	-11.8754
箱	-11.8754
母隱子胎	-11.8754
天眞皇人	-11.8754
疣	-11.8754
鑰	-11.8754
迦	-11.8755
翩翩	-11.8755
一點靈光	-11.8755
敝	-11.8755
延年益壽	-11.8755
如彈丸	-11.8755
踪	-11.8756
渥	-11.8756
渟	-11.8756
倡	-11.8756
甄	-11.8756
乾坤二卦	-11.8756
咬	-11.8757
瘴	-11.8757
泳	-11.8757
叩齒七通	-11.8757
頏	-11.8757
淹留	-11.8758
嬰孩	-11.8758
脉之所入也刺可入同身寸之	-11.8758
寮	-11.8758
繚	-11.8758
五常政大論	-11.8758
圉	-11.8758
悌	-11.8758
柔軟	-11.8758
葛仙公	-11.8759
七祖父母	-11.8759
鴉	-11.8759
相得即小間小間即一間也地從奇即	-11.8759
鄆	-11.8759
周天火候	-11.8759
先左間不右間從偶即先右間不左間也	-11.876
渌	-11.8761
燮	-11.8761
枷	-11.8761
簮	-11.8761
釁	-11.8761
羅浮山	-11.8761
複	-11.8762
娠	-11.8762
萬杵	-11.8763
琢齒	-11.8764
黛	-11.8764
毫針	-11.8764
膳	-11.8764
瑯	-11.8764
括蒼	-11.8764
蓋謂此也	-11.8765
嫉妬	-11.8766
滓穢	-11.8766
嘔逆	-11.8767
不亦難乎	-11.8767
翌	-11.8767
鴈門	-11.8767
波濤	-11.8768
億劫	-11.8768
肘後飛金晶	-11.8768
土數五	-11.8768
嘶	-11.8769
種植	-11.8769
又東五百里曰	-11.8769
宥	-11.8769
玉版	-11.877
鷗	-11.877
遁甲	-11.877
虞舜	-11.877
遊奕	-11.8771
佐以苦	-11.8771
浣	-11.8772
穴名也	-11.8772
閬風	-11.8773
逈	-11.8774
唐堯	-11.8774
芝蘭	-11.8774
少昊	-11.8776
冬至之日	-11.8776
太上老君告	-11.8779
五百六	-11.878
于元宫	-11.8781
管仲	-11.8782
日月之精華	-11.8782
三尸九蟲	-11.8783
四旬有五日	-11.8783
萬里之外	-11.8787
秦始皇	-11.8787
而後可也	-11.8789
晨夕	-11.879
伯高曰	-11.8795
西方庚辛金	-11.8795
午之前	-11.8796
更無别	-11.8804
母胞	-11.8813
樓閣	-11.8838
胠脅	-11.8874
一萬事畢	-11.8875
蹻脉	-11.8922
月十四日	-11.894
芝英	-11.8948
金運商金音	-11.898
快活	-11.8987
寸口脉	-11.9046
十丈	-11.9057
華池神水	-11.9169
邊際	-11.9175
隂在泉	-11.9197
抱朴	-11.9217
慚愧	-11.9322
鈐	-11.9349
此資生第五元	-11.9354
鳩尾	-11.9355
年老逢春	-11.9356
如如不動	-11.9356
黄帝内經素問補註釋文卷之二	-11.9357
郭璞傳	-11.9357
罵詈	-11.9357
茵	-11.9357
炅煌	-11.9358
廷	-11.9359
泗	-11.9359
簷	-11.936
蘧	-11.936
陞	-11.9361
嶂	-11.9362
瞥	-11.9363
向水中生	-11.9363
𠫤	-11.9363
蠟	-11.9364
䭀飯	-11.9364
盥	-11.9364
賫	-11.9365
芮	-11.9365
朱全忠	-11.9366
姥	-11.9366
懐	-11.9366
螫	-11.9366
凭欄	-11.9366
蕙	-11.9367
鑱	-11.9367
殄	-11.9367
潞	-11.9367
諄	-11.9367
鶯花	-11.9368
斯之謂歟	-11.9368
孑	-11.9368
其隂多鐵	-11.9368
㝠㝠	-11.9368
煙嵐	-11.9369
陽陵泉	-11.9369
后稷	-11.9369
三五七九	-11.9369
悟眞篇	-11.937
颯	-11.937
森羅	-11.937
杳㝠	-11.9371
楷	-11.9371
鴛鴦	-11.9371
常能行之	-11.9371
揩	-11.9371
同身寸之五分	-11.9372
多㻬琈之玉	-11.9373
黎庶	-11.9373
妊	-11.9373
新校正云按四時刺逆從論云	-11.9373
搆	-11.9373
囉	-11.9373
蠧	-11.9373
紫微王夫人	-11.9373
疫癘	-11.9374
眼睛	-11.9374
藪	-11.9374
兀兀	-11.9374
捺	-11.9374
俄頃	-11.9374
滚	-11.9374
蝸	-11.9375
啗	-11.9375
疲倦	-11.9375
餒	-11.9375
技	-11.9375
兩手相叉	-11.9376
縻	-11.9376
愔	-11.9376
晃耀	-11.9376
麴	-11.9376
鹵	-11.9376
疼痛	-11.9377
緱	-11.9377
紈	-11.9377
狐狸	-11.9377
僂	-11.9378
蠡	-11.9378
榭	-11.9378
搶	-11.9378
非天下之至	-11.9378
水出焉而南流注于	-11.9378
販骨	-11.9378
蓬瀛	-11.9378
迂	-11.9378
臀	-11.9379
糈	-11.9379
赤氣在上熱行於天	-11.9379
褚	-11.938
三天正法	-11.938
一升一降	-11.938
金石草木	-11.938
掌握	-11.938
帆	-11.938
榴	-11.938
逍遥自在	-11.938
夜半子時	-11.9381
渺邈	-11.9382
紺	-11.9382
耘	-11.9382
身外有身	-11.9382
五分留七呼若灸者可灸三壯	-11.9382
帝崩皇太子	-11.9383
煥爛	-11.9383
藤	-11.9383
日月合璧	-11.9383
殷勤	-11.9384
卭	-11.9384
嗚	-11.9384
闓	-11.9385
醯	-11.9385
秃	-11.9386
䢉	-11.9386
啓玄子述	-11.9386
訶	-11.9387
萼	-11.9387
詬	-11.9387
笥	-11.9387
璋	-11.9388
障礙	-11.9388
虺	-11.9389
皷	-11.9389
乘雲駕龍	-11.9389
往往如此	-11.9389
慝	-11.939
叩齒十二通	-11.939
鍾乳	-11.9391
咤	-11.9391
歆	-11.9392
人亦有之	-11.9392
收歛	-11.9392
𧷤	-11.9393
占者得之	-11.9393
者不知何許人也	-11.9393
者何氣使然岐伯曰	-11.9393
氏爲皇后	-11.9394
廉貞	-11.9395
太上隱書	-11.9396
插	-11.9397
荔	-11.9397
泝流	-11.9398
殯	-11.94
魓	-11.94
鍮	-11.94
鷄犬	-11.9402
蛩	-11.9403
猖狂	-11.9404
鬱勃	-11.9405
下獄死	-11.9405
蕭條	-11.9407
左手把	-11.9407
病亡年	-11.9414
袁紹	-11.9437
輝輝	-11.9661
兖州	-11.9679
轉天關指	-11.9689
此資生	-11.9728
皇道君	-11.9769
二百四十	-11.9795
捭闔	-12.0001
峨嵋	-12.0008
之謂也修夫	-12.001
讙	-12.0012
同正商	-12.0017
慤	-12.0019
拇指	-12.0021
熇	-12.0023
不可以俯仰	-12.0024
跛	-12.0025
稅	-12.0025
鍵	-12.0025
入藥鏡	-12.0026
皇元年	-12.0027
到這裏	-12.0027
澆灌	-12.0027
弓矢	-12.0028
傚	-12.0029
喉痹	-12.0029
彷	-12.0029
刮	-12.0029
廨	-12.003
詆	-12.003
簞瓢	-12.003
陽中之隂	-12.0031
矇	-12.0031
倮倮洒洒	-12.0031
厥炁客於	-12.0031
六七八九	-12.0032
生氣通天論	-12.0033
臥	-12.0033
龍從火裏	-12.0034
故能成其	-12.0034
緬	-12.0034
磻	-12.0035
撒	-12.0035
醖	-12.0036
煌煌	-12.0036
憺	-12.0036
熊羆	-12.0037
兩筋之間	-12.0037
黄庭内景	-12.0037
李茂貞	-12.0037
蒼梧	-12.0038
鷙	-12.0038
何氣使然	-12.0038
捶	-12.0038
畋	-12.0038
歸去來兮	-12.0038
奕奕	-12.0038
麥門冬	-12.0039
璿	-12.0039
瘠	-12.0039
上善若水	-12.0039
沴	-12.004
觀物篇之二十	-12.004
迅速	-12.004
𥋋	-12.004
燦爛	-12.0041
竪	-12.0041
鮑靚	-12.0041
覬	-12.0042
乾坤者易之門户	-12.0042
酢	-12.0042
柟	-12.0042
誚	-12.0042
平人氣象論	-12.0043
粉碎	-12.0044
陽明所至爲	-12.0044
嶸	-12.0044
詘	-12.0044
濬	-12.0045
惋	-12.0045
訊	-12.0045
炷香	-12.0046
功成行滿	-12.0046
歃血	-12.0046
姧	-12.0046
天虚運不佐天即大間大間即左右俱間	-12.0047
新校正云詳王注	-12.0047
中華總眞大仙宰	-12.0047
嗤	-12.0047
太陽所至爲	-12.0048
鉗	-12.0048
脉之所行也刺可入同身寸之	-12.0048
徐從事	-12.0048
低昂	-12.0049
水出焉而西流注于	-12.0049
忿怒	-12.0049
旡	-12.0049
奬	-12.005
販	-12.005
航	-12.005
踊	-12.005
廛	-12.005
樞宻使	-12.005
天一生水	-12.0051
慚	-12.0051
殗	-12.0051
懺悔	-12.0051
貸	-12.0052
噏	-12.0052
琪	-12.0052
一動一靜	-12.0052
五嶽四瀆	-12.0052
斟酌	-12.0053
出入無間	-12.0053
麻婆	-12.0054
黃庭	-12.0054
絪緼	-12.0054
熹	-12.0055
詫	-12.0055
紫霄絳宫上陽子觀吾陳致虚撰	-12.0055
魁罡	-12.0055
司馬季主	-12.0056
譔	-12.0056
苖	-12.0056
恙	-12.0056
㕘	-12.0057
爲下鬼	-12.0057
萋	-12.0057
國並九小國下管人間	-12.0058
培	-12.0059
忝	-12.0059
君曰道有	-12.006
黄疸	-12.006
擾擾	-12.006
其祠之	-12.0061
剉	-12.0061
勺	-12.0061
聆	-12.0061
噲	-12.0062
人發之治王	-12.0062
舄	-12.0063
鸞鶴	-12.0063
壅滯	-12.0063
黄籙道場	-12.0063
𩳐	-12.0064
錢塘	-12.0064
孝悌	-12.0065
𩵄	-12.0065
何處覓	-12.0065
颼	-12.0067
三大兩	-12.007
紅霞子	-12.0074
侍郞	-12.0075
根株	-12.0078
立之是謂	-12.0081
王崩太子	-12.0083
四千五	-12.0084
之所出也	-12.0115
一百九十	-12.0115
滿三千	-12.0116
塵不染	-12.015
刺禁論	-12.0182
壬子癸丑甲寅乙卯丙辰丁巳戊午己未	-12.0256
順倒反	-12.032
此資生第	-12.0327
何云凡事	-12.0338
輔弼	-12.0376
呵呵笑	-12.0384
笑呵呵	-12.0385
禹歩三歩九跡	-12.0583
五呼若灸者可灸三壯	-12.0686
夸父	-12.0723
内氣自極七息	-12.0727
山海經卷之十	-12.0732
騖	-12.0733
閬	-12.0734
趺	-12.0734
飋	-12.0736
所以爾者	-12.0738
榼	-12.0739
愴	-12.074
軌轍	-12.0741
搭	-12.0742
緜	-12.0742
珉	-12.0742
六節藏象	-12.0742
骶	-12.0742
彗	-12.0743
損之又損	-12.0743
嵒	-12.0743
匈	-12.0744
徨	-12.0744
氈	-12.0744
璃	-12.0744
舐唇	-12.0744
黄帝八十一難經纂圖句解卷之	-12.0744
何以别之	-12.0744
隱符太上大道君次乘	-12.0744
瑾	-12.0745
刺可入同身寸之三分若灸者可灸三壯	-12.0745
砌	-12.0745
㤅	-12.0746
蝗蟲	-12.0746
眇眇	-12.0746
雛	-12.0746
吕洞賔	-12.0746
千經萬論	-12.0748
垠	-12.0748
痴	-12.0749
懾	-12.0749
顱	-12.0749
鶩	-12.075
䐜脹	-12.075
拶	-12.075
店	-12.075
婪	-12.075
煌	-12.075
䝉	-12.075
象彼仲冬節	-12.0751
潼	-12.0751
藥食宜也新校正云按玄珠云	-12.0751
旬有六日	-12.0751
樞轄	-12.0751
浹	-12.0751
癥	-12.0751
見則天下大	-12.0751
恚怒	-12.0752
專氣致柔	-12.0752
又按至眞要大論云	-12.0752
五位相得而各有合	-12.0753
黽	-12.0753
亢倉子	-12.0753
涓涓	-12.0753
痠	-12.0753
玄光玉女	-12.0753
則文始眞經云	-12.0753
使之然也	-12.0753
以是當知	-12.0754
滿庭芳	-12.0754
迢	-12.0754
剩	-12.0754
滄溟	-12.0755
萬象森羅	-12.0755
炮	-12.0755
喚	-12.0756
百骸九竅	-12.0756
西南得朋	-12.0756
之山其上多金玉其下多	-12.0756
澈	-12.0756
神光不聚	-12.0756
多血少氣	-12.0756
涕唾	-12.0757
罄	-12.0757
璚	-12.0757
騏	-12.0757
糵	-12.0757
礫	-12.0757
烱	-12.0757
迴光返照	-12.0758
誦之三遍	-12.0758
天綱地紀	-12.0758
彖辭	-12.0758
粱	-12.0758
馮尊師	-12.0758
脉動應手	-12.0759
隂中之陽	-12.0759
一陽來復	-12.0759
少陽所至爲	-12.0759
有名萬物之母	-12.0759
瑯琊王	-12.0759
玉機眞藏論	-12.076
懵	-12.076
一陰一陽之謂道	-12.076
御政之首	-12.076
端倪	-12.076
雄黄雌黄	-12.0761
畿	-12.0761
含光默默	-12.0761
鮫	-12.0761
A	-12.0761
殽	-12.0761
潜龍勿用	-12.0761
麝	-12.0762
J	-12.0762
紫極宫	-12.0762
N	-12.0762
U	-12.0762
吐故納新	-12.0763
萌芽	-12.0763
團團	-12.0763
新校正云按金匱眞言論	-12.0763
肅肅	-12.0763
僭	-12.0763
屐	-12.0763
罟	-12.0764
瑣	-12.0764
悒	-12.0764
椎之傍	-12.0765
芷	-12.0765
覃	-12.0765
學仙之士	-12.0765
功曹使者	-12.0765
立春之日	-12.0765
迤邐	-12.0765
蚤	-12.0765
產	-12.0765
湣	-12.0766
法天象地	-12.0766
囿	-12.0766
欒巴	-12.0766
郝	-12.0767
俸	-12.0767
枯槁	-12.0767
翡	-12.0767
縑	-12.0767
頞	-12.0767
攫	-12.0768
皋	-12.0768
倨	-12.0768
樞紐	-12.0768
螟	-12.0769
火以焚	-12.077
剖判	-12.0771
噀	-12.0771
百姓日用而不知	-12.0771
九眞中經	-12.0771
謌	-12.0771
駝	-12.0772
殗穢	-12.0772
蔑	-12.0772
亥子丑	-12.0772
返老還童	-12.0772
参	-12.0773
猥	-12.0773
欲升而	-12.0774
邪化日	-12.0774
甲寅乙卯	-12.0776
郷里	-12.0776
筯	-12.0776
金命人	-12.0776
廳	-12.0776
簁	-12.0777
物理窺開後人情照破	-12.0777
紫度炎光	-12.0778
坂	-12.0779
之異名也	-12.0782
粃	-12.0783
涿	-12.0785
中元三將軍	-12.0786
素履子曰	-12.0788
幽邃	-12.0796
顗	-12.0798
北正司天天面向南左東直右西直上正	-12.0798
公卒世子	-12.0801
耨	-12.0805
北正司天天面向南左東直右西直上太	-12.082
留五呼	-12.0824
篇黄帝問曰	-12.0908
堯夫非是愛吟詩詩是堯夫自	-12.0962
三咽止便讀玉經畢又祝曰	-12.1055
瀟洒	-12.1143
雲笈七籤卷之二十	-12.1271
七返九還	-12.128
坦蕩	-12.1317
三五與一	-12.1389
奈何伯高曰	-12.1475
羽水音也	-12.1487
譙	-12.1496
凭	-12.1496
太素三元君	-12.1496
頒	-12.1498
少俞答曰	-12.1498
鸚	-12.1499
此資生第四元	-12.1503
䏚	-12.1503
繭	-12.1504
打成一片	-12.1504
䐜	-12.1507
癭	-12.1507
繹	-12.1508
》,	-12.1508
常無欲以觀其妙	-12.1512
新校正云按全元起云	-12.1512
鳶	-12.1512
天地之數五十有五	-12.1512
沼	-12.1512
偽	-12.1512
稼穡	-12.1513
巘	-12.1513
踴躍	-12.1513
鴣	-12.1514
鎚	-12.1514
無英公子	-12.1514
胗	-12.1514
干德符	-12.1515
晃朗	-12.1515
眞人子丹	-12.1515
脉令人腰痛	-12.1515
曼	-12.1515
挫銳	-12.1516
倏欻	-12.1516
拏	-12.1516
肴	-12.1516
墀	-12.1516
帝曰願卒聞之岐伯曰	-12.1517
楓	-12.1517
貫臀	-12.1517
刹那	-12.1517
茗	-12.1518
芙	-12.1518
鐸	-12.1518
諛	-12.1518
暎	-12.1518
岐伯曰悉乎哉問也	-12.1518
右手撫心左手指	-12.1518
炷	-12.1519
欵	-12.1519
櫟	-12.1519
瓠	-12.1519
三洞經教部經	-12.1519
虻	-12.1519
登眞隱訣	-12.152
㸘	-12.152
瘉	-12.152
焫	-12.152
七八九六	-12.1521
酉爲兊其數七	-12.1521
歙	-12.1521
湍	-12.1521
貂	-12.1521
戊子己丑庚寅辛卯壬辰癸巳經世之	-12.1522
冢墓	-12.1522
鼔	-12.1522
賑	-12.1522
鞠	-12.1522
枳	-12.1522
琉璃	-12.1522
銓	-12.1522
菅	-12.1523
哥	-12.1523
蓊	-12.1523
簫韶	-12.1523
奠	-12.1523
牋	-12.1523
耄	-12.1523
殢	-12.1524
小指次指之端	-12.1524
僮	-12.1524
汶	-12.1525
藜杖	-12.1525
丙申丁酉戊戌己亥庚子辛丑	-12.1525
鏘	-12.1525
灌溉	-12.1525
孳	-12.1526
瘻	-12.1526
邵康節	-12.1526
娶婦	-12.1526
如環無端	-12.1526
扁舟	-12.1526
朦	-12.1526
孟嘗君	-12.1527
球	-12.1527
皇甫士安	-12.1527
駑	-12.1527
戕	-12.1527
前聖後聖	-12.1527
灘	-12.1527
一晝一夜	-12.1527
水出焉東流注于	-12.1527
嘲	-12.1528
茍	-12.1528
姹	-12.1528
藁	-12.1528
麋鹿	-12.1528
太陰所至爲	-12.1528
又北二百里曰	-12.1528
浚	-12.1528
坎男離女	-12.1529
九九八十一	-12.1529
䂓	-12.1529
邳	-12.1529
陔	-12.1529
不嗜食	-12.1529
古文龍虎經	-12.153
顥	-12.153
媿	-12.153
丐	-12.153
綃	-12.153
服二十丸	-12.153
金眞玉光	-12.153
留六呼	-12.1531
蘸	-12.1531
浥	-12.1531
小間小間即一間也天從奇即先左間不	-12.1531
陰極陽生	-12.1531
也天從奇即先左間	-12.1531
秖	-12.1532
當斯之時	-12.1532
灧	-12.1532
少陰所至爲	-12.1532
韓趙魏	-12.1532
火始治地也熱行於地苦物乃生	-12.1532
脉之所注也刺可入同身寸之	-12.1532
汰	-12.1532
里其神狀皆	-12.1532
劍	-12.1532
糊	-12.1533
日月爲易	-12.1534
本性共宗祖	-12.1534
知白守黑神明自	-12.1534
勒陽關	-12.1534
盈虚消息	-12.1534
娉	-12.1535
琨	-12.1536
霆	-12.1536
天一地二	-12.1536
欹	-12.1536
槍	-12.1536
録尚書事	-12.1537
包褁	-12.1537
姓李名	-12.1537
殳	-12.1537
纍	-12.1537
逵	-12.1538
昆吾之	-12.1538
鴞	-12.1538
羲頓首頓首	-12.1539
淒	-12.1539
十有一月	-12.1539
僊	-12.1539
經星之甲二百	-12.1539
嵐	-12.1539
桑榆子曰	-12.1539
煒	-12.154
鯢	-12.154
月受日	-12.154
潁	-12.1541
涣	-12.1541
空不空	-12.1542
薨	-12.1542
雲臺治	-12.1542
修黄籙齋	-12.1543
婺	-12.1544
阯	-12.1544
河上姹女	-12.1544
璜	-12.1545
毫髮差殊	-12.1545
廪	-12.1545
訂	-12.1547
䰢	-12.1547
苴	-12.1549
憾	-12.1551
洮	-12.1551
三部八景	-12.1553
怱	-12.1556
長一尺二寸	-12.1557
沮渠蒙遜	-12.156
燔焫	-12.1562
其葉如	-12.1569
董卓	-12.1582
治之第十	-12.1582
雲笈七籖卷之三十	-12.1672
月二十二日	-12.1906
壬申癸酉甲戌乙亥丙子丁丑戊寅己卯	-12.1936
庚戌辛亥壬子癸丑甲寅乙卯丙辰	-12.2079
丁巳戊午己未庚申辛酉壬戌癸亥	-12.208
壬寅癸卯甲辰乙巳丙午丁未戊申己酉	-12.208
金鎖流珠引卷之二十	-12.2119
刺者刺	-12.2303
捭	-12.2325
脉洪大	-12.2331
攄	-12.2335
怵惕	-12.2336
珂	-12.2337
𩩲	-12.2338
懈惰	-12.2339
九還七返八歸六居	-12.2339
騩	-12.2339
遡	-12.234
麓	-12.2341
以一日言之爲	-12.2341
圓陀陀	-12.2341
以一月言之爲	-12.2341
瘈	-12.2342
粤	-12.2342
咏	-12.2343
瀨	-12.2344
踴	-12.2344
其形如左	-12.2344
幄	-12.2345
桎梏	-12.2345
廖	-12.2345
基址	-12.2346
許旌陽	-12.2346
撈	-12.2346
舅	-12.2346
屣	-12.2346
粘	-12.2347
璫	-12.2347
撑	-12.2347
顒顒	-12.2347
泑	-12.2347
僥	-12.2347
錘	-12.2347
猗	-12.2348
盩	-12.2348
景之輿駕	-12.2348
開音濁和律四之	-12.2348
一萬三千五百息	-12.2348
發音清和律一之	-12.2348
薈	-12.2348
三百八十有四銖	-12.2348
呆	-12.2348
四千七	-12.2348
蠢動含靈	-12.2348
發音濁和律四之	-12.2349
中華總真大仙宰王方平	-12.2349
侔	-12.2349
百有二十	-12.2349
珏	-12.2349
崔嵬	-12.2349
閉音濁和律四之	-12.235
埅	-12.235
臰	-12.235
俛	-12.235
蜼	-12.2351
午爲離其數九	-12.2351
在足大指本節後	-12.2351
寒暑燥濕風火	-12.2351
陽極陰生	-12.2351
鷰	-12.2351
肉分間	-12.2352
蜃	-12.2352
鉅	-12.2352
窅	-12.2352
蘖	-12.2352
鶚	-12.2352
隂故爲第	-12.2352
桶	-12.2353
儲華谷	-12.2353
不可勝紀	-12.2353
循腹裏	-12.2353
陁	-12.2353
發音清和律三之	-12.2353
北邙山	-12.2354
月律也管長	-12.2354
時人氣亦在	-12.2354
扐	-12.2354
卯爲震其數三	-12.2354
之節初五日	-12.2354
闚	-12.2354
烊	-12.2354
轄	-12.2355
收音濁和律二之	-12.2355
其可得乎	-12.2355
開音清和律一之	-12.2355
迍	-12.2356
眦	-12.2356
賺	-12.2356
山澤通氣	-12.2356
窈窈冥冥	-12.2356
朦朧	-12.2356
開音濁和律二之	-12.2356
其上多金玉其下多	-12.2356
碣	-12.2356
閟	-12.2356
飱	-12.2356
懊	-12.2356
汚	-12.2356
叩齒五通	-12.2356
騷	-12.2357
子之後午之前	-12.2357
嵇	-12.2357
震來受符	-12.2357
閉音清和律三之	-12.2357
發音濁和律二之	-12.2357
生天生地	-12.2357
帽	-12.2357
泚	-12.2357
鷦	-12.2357
吊	-12.2358
生長收藏	-12.2358
樂天知命	-12.2358
閉音濁和律二之	-12.2358
倏	-12.2358
右僕射	-12.2359
水出焉南流注于	-12.2359
閉音清和律一之	-12.2359
郛	-12.2359
唳	-12.2359
宫在下爲	-12.2359
錙銖	-12.2359
臏	-12.2359
薊	-12.2359
葛稚川	-12.2359
禎	-12.236
奢侈	-12.236
是動則病	-12.236
易統天心	-12.236
廻	-12.236
概	-12.2361
曈	-12.2361
痊	-12.2361
簟	-12.2361
敞	-12.2361
肛	-12.2361
閲	-12.2361
鋸	-12.2361
上相青童君	-12.2361
墊	-12.2362
爲此諸病盛則寫之	-12.2362
櫝	-12.2362
分牛膝	-12.2362
槨	-12.2363
諸人作麽會	-12.2363
赫曦	-12.2363
萍	-12.2364
鉅鹿	-12.2364
還元返本	-12.2364
右間從偶即先右間不左間也	-12.2364
端去爪甲如韭葉	-12.2364
靳	-12.2364
碩	-12.2364
来	-12.2364
厶	-12.2364
肝心脾肺腎	-12.2364
蜕	-12.2364
日火始治天始行天令	-12.2364
黄石公	-12.2365
衄	-12.2365
嗄	-12.2365
黼	-12.2365
小指之端	-12.2366
堦	-12.2366
泪	-12.2366
顯諸仁	-12.2366
芸	-12.2366
眼耳鼻舌	-12.2367
溪上眞廟在	-12.2367
柞	-12.2367
昃	-12.2367
緋	-12.2367
左取右右取左	-12.2367
蝗	-12.2368
俎	-12.2368
𤙲	-12.2368
聴	-12.2368
市賈有利	-12.2369
姊	-12.2369
昴畢之上	-12.2369
祁	-12.2369
溟涬	-12.2369
琴瑟	-12.237
颻	-12.237
霐	-12.237
笄	-12.237
勦	-12.237
吃	-12.2371
國并九小國下管人間	-12.2371
在甚處	-12.2371
娟	-12.2371
涿鹿	-12.2371
霖霪	-12.2372
鰲	-12.2372
裾	-12.2372
曩	-12.2372
冩	-12.2373
斲	-12.2373
岌	-12.2373
粳米	-12.2374
怡怡	-12.2374
熛	-12.2375
桀紂	-12.2375
勅	-12.2375
赧	-12.2375
俺	-12.2375
駒	-12.2375
妒	-12.2375
猶尚治天	-12.2376
是死炁之門	-12.2376
澧	-12.2377
删	-12.2378
緝	-12.2378
廷尉	-12.2381
陽平治	-12.2381
賄	-12.2381
哮	-12.2383
瑟	-12.2385
四千九	-12.2386
邕	-12.2386
㕘同契	-12.2387
以元經會之	-12.2387
椹	-12.2388
將兵百萬衆	-12.2388
彪	-12.24
諸葛亮	-12.2406
顒	-12.2417
留十呼	-12.2445
庚申辛酉壬戌癸亥經世之	-12.2639
陽年當太	-12.2756
月二十五日	-12.2765
條有楊書	-12.3186
脉氣所發也	-12.3212
乙丑丙寅丁卯戊辰己巳庚午辛未壬申	-12.322
湮	-12.3233
水内屬于	-12.3233
拘畜禁門	-12.3237
問曰旣言	-12.3237
飲食勞倦	-12.324
癩	-12.3241
迫促時陰	-12.3242
顓	-12.3242
隼	-12.3242
上商與正商同	-12.3244
六元還周	-12.3244
幈	-12.3244
宣明五氣篇	-12.3245
痙	-12.3247
眯	-12.3248
宫土音也	-12.3248
闗	-12.3249
蒯	-12.3249
奭	-12.325
深根固蒂	-12.325
所入爲合	-12.325
遄	-12.3251
六微㫖大論	-12.3251
刻火入地也	-12.3251
濠	-12.3251
磷	-12.3252
朝屯暮蒙	-12.3252
刋	-12.3252
泌	-12.3253
非有非无	-12.3253
鋌	-12.3254
臁	-12.3254
罣礙	-12.3254
執文泥象	-12.3255
水出焉西流注于	-12.3255
收音濁和律四之	-12.3255
叨	-12.3256
八石正綱紀	-12.3256
磚	-12.3256
墬	-12.3256
新校正按	-12.3256
荄	-12.3256
四千八	-12.3256
爲伴侣	-12.3257
霔	-12.3257
諤	-12.3257
雲之色從兆泥丸中入下布兆	-12.3257
申酉戌	-12.3258
竚	-12.3258
一以貫之	-12.3258
井滎俞經合	-12.3258
窄	-12.3258
瞿曇	-12.3258
氣初五日	-12.3258
吻	-12.3258
安爐立鼎	-12.3258
直指人心見性成佛	-12.3259
則瘉矣	-12.3259
收音清和律一之	-12.3259
入于精海	-12.3259
經星之甲一百	-12.3259
筏	-12.326
申爲坤其數二	-12.326
穫	-12.326
叵	-12.326
溷	-12.326
寅爲艮其數八	-12.3261
魑魅	-12.3261
桴	-12.3261
俶	-12.3261
注頗異	-12.3261
葫蘆	-12.3261
圓利針	-12.3261
寃	-12.3262
叩齒三通咽液三過	-12.3262
瘀	-12.3263
子丑寅	-12.3263
帝曰夫子言	-12.3263
閎	-12.3263
上宫與正宫同	-12.3263
啟	-12.3263
東北喪朋	-12.3263
吳	-12.3263
朱晦菴	-12.3263
吒	-12.3264
芳菲	-12.3264
視之不見聽之不聞	-12.3264
參天兩地而倚數	-12.3264
運交時面向未望	-12.3264
陰陽不測之謂神	-12.3264
天元玉册	-12.3264
瑚	-12.3264
檜	-12.3264
鳴天鼓	-12.3265
愚應之曰	-12.3265
開音清和律三之	-12.3265
溶	-12.3265
昏昏默默	-12.3265
微妙玄通	-12.3265
逭	-12.3266
多入少出	-12.3267
論篇黄帝問曰余聞	-12.3267
時人氣所在	-12.3267
月節有五六	-12.3267
燃	-12.3267
篁	-12.3267
諺	-12.3267
飫	-12.3267
撻	-12.3267
偎	-12.3267
晦朔弦望	-12.3268
殂	-12.3268
腊	-12.3268
收音清和律三之	-12.3268
用九用六	-12.3268
窫窳	-12.3268
仐	-12.3268
疴	-12.3268
有物混成先天地生	-12.3268
股内後廉貫脊屬腎	-12.3269
海空智藏	-12.3269
煒燁	-12.3269
幞	-12.3269
新校正云按全元起本及甲乙經	-12.327
逋	-12.327
見龍在田	-12.327
山其上多玉其下	-12.327
診要經終論	-12.3271
攜	-12.3271
鄽	-12.3271
土運南正司天天面向北左西直右東直	-12.3271
磐	-12.3271
惻	-12.3271
椎節下間俯而取之	-12.3271
中華仙人李淳風註	-12.3272
噎	-12.3272
金來歸性初乃得稱還丹	-12.3272
天元紀大論	-12.3272
閉眼思	-12.3272
今魏公謂	-12.3272
躅	-12.3272
叮	-12.3272
隍	-12.3272
脉之所過也刺可入同身寸之	-12.3272
嶷	-12.3273
驁	-12.3273
五篇眞文	-12.3273
壽同天地	-12.3273
璘	-12.3273
矛	-12.3273
刼	-12.3273
曰昭乎哉問	-12.3273
昶	-12.3273
詩一首	-12.3273
儳	-12.3274
躑	-12.3274
叩齒三七通	-12.3274
三分留十呼若灸者可灸三壯	-12.3274
屎	-12.3274
扞	-12.3274
瀰	-12.3274
苒	-12.3275
稜	-12.3275
齦	-12.3275
賽	-12.3275
莎	-12.3275
沐浴除過	-12.3275
摯	-12.3275
凛冽	-12.3275
届	-12.3276
湄	-12.3276
沍	-12.3276
研如粉	-12.3276
耿耿	-12.3276
小人由是知	-12.3277
𣲖	-12.3277
孝武皇帝	-12.3277
𡜍	-12.3277
鬻	-12.3277
父精母血	-12.3278
紱	-12.3278
左元放	-12.3278
糅	-12.3278
硝	-12.3279
暐	-12.3279
眞陰眞陽	-12.3279
懸胎鼎	-12.328
熔	-12.328
正一盟威	-12.3281
玫	-12.3281
新校正云按六微㫖大論云	-12.3281
劈碎	-12.3281
彎	-12.3281
淫所勝則	-12.3281
徐來勒	-12.3281
芎	-12.3281
旃	-12.3282
滔滔	-12.3282
陽禀陰受	-12.3282
從凡入聖	-12.3284
寅午戌	-12.3286
九天眞王	-12.3286
搔	-12.3286
築固靈株	-12.3286
積氣生液	-12.3287
扳	-12.3287
廡	-12.3287
㪷	-12.3288
檝	-12.3288
虹霓	-12.3288
儋	-12.3288
尺之皮膚亦	-12.3288
煦	-12.3289
琬	-12.3291
啜	-12.3291
蹠	-12.3293
闥	-12.3294
閹	-12.3294
盾	-12.3295
嫂	-12.3295
飬	-12.3295
一萬八千	-12.3298
魴	-12.3299
鞏	-12.33
汜	-12.33
之卦也月至乎	-12.3301
皈	-12.3301
在母腹	-12.3303
之君盟于	-12.3304
之時其氣在于	-12.3311
立其弟	-12.3356
老君曰或見一人	-12.3604
辛巳壬午癸未	-12.3656
年乙丑丙寅丁卯戊辰己巳庚午辛未	-12.3688
十呼若灸者可灸三壯	-12.4172
右四條	-12.4188
奇經八脉	-12.4229
方無極太上道德天	-12.4232
戒曰勸助	-12.4234
墠	-12.424
溶溶	-12.424
水出于其隂	-12.424
鷩	-12.4241
平聲翕唱吕四之	-12.4241
道可道非常道	-12.4242
胕	-12.4244
淆	-12.4247
澠	-12.4247
筭數依隂年運交時面向	-12.4247
不死持於	-12.4247
縉	-12.4248
濩	-12.4248
大荒之中有山名曰	-12.4248
氣盛則夢	-12.4248
血氣皆少則	-12.4248
熺	-12.4249
去聲翕唱吕四之	-12.4249
不盛不虚以經取之	-12.425
幙	-12.425
;《	-12.425
參師問	-12.425
新校正云按藏氣法時論云	-12.425
字疑誤	-12.4251
南岳夫人	-12.4251
所在刺灸分壯與氣穴同法	-12.4251
脉要精微論	-12.4251
象著明莫大乎日月	-12.4252
攖	-12.4252
回陽子曰	-12.4252
慓悍	-12.4252
憒	-12.4252
自子至巳	-12.4252
去聲闢唱吕一之	-12.4253
扁	-12.4253
願盡聞	-12.4254
無質生質	-12.4255
又西二百里曰	-12.4255
正月朔日	-12.4255
上聲翕唱吕二之	-12.4256
碾	-12.4257
韵	-12.4257
叩齒二七通	-12.4257
其直行者	-12.4257
取之所别也	-12.4257
願某飛仙	-12.4258
誃	-12.4258
溼	-12.4258
篇第五十	-12.4258
榜	-12.4258
入聲翕唱吕二之	-12.4258
九二見龍在田	-12.4259
様	-12.4259
還金篇云	-12.4259
痱	-12.426
槖	-12.426
天地設位而易行乎其中矣	-12.426
晩晚晩	-12.426
改形免世厄號之	-12.4261
甸	-12.4261
振拉摧拔	-12.4261
伶	-12.4261
八百一十丈	-12.4261
礜	-12.4261
熠	-12.4261
三十輻共一轂	-12.4262
口恒吐	-12.4262
絕	-12.4262
陰陽各半	-12.4262
姻	-12.4263
椽	-12.4263
漭	-12.4263
夸	-12.4263
先天祖炁	-12.4263
爺	-12.4263
旭	-12.4263
扭	-12.4264
滂	-12.4264
跣	-12.4264
翛	-12.4265
上聲闢唱吕三之	-12.4265
之形儀衣	-12.4265
卹	-12.4265
二六時中	-12.4265
翶	-12.4266
旍	-12.4266
窮理盡性以至於命	-12.4266
平聲闢唱吕三之	-12.4266
投一枚於釜中祝曰	-12.4266
十月胎圓	-12.4266
秋冬當外用自午訖戌亥	-12.4266
錬氣成神	-12.4266
聊陳兩象未能究悉	-12.4267
經日之甲一經月之午七經星之	-12.4267
天下無二道	-12.4267
旻	-12.4267
正化司天火歸本從生其數二通運其數	-12.4267
綫	-12.4267
倶	-12.4267
毳	-12.4267
春夏據内體從子到辰巳	-12.4267
橡	-12.4267
返本還源	-12.4267
秦昭襄王	-12.4268
貼	-12.4268
抬	-12.4268
平聲闢唱吕一之	-12.4268
濼	-12.4268
酒色財氣	-12.4268
小腸者受盛之	-12.4268
上聲翕唱吕四之	-12.4269
諕	-12.4269
白日登晨	-12.4269
曖	-12.4269
齲	-12.4269
昳	-12.4269
從無入有	-12.427
老翁復丁壯耆嫗成姹女	-12.427
虚則補之熱則疾之寒則留之陷下則	-12.427
入聲闢唱吕三之	-12.427
張平叔	-12.4271
氣與神合	-12.4271
永元眞人曰	-12.4271
闋	-12.4271
雇	-12.4271
詵	-12.4271
水熱穴論	-12.4271
躊	-12.4271
篦	-12.4271
砒	-12.4271
後同身寸之一寸五分	-12.4272
精神魂魄意	-12.4272
四時刺逆從論	-12.4272
去聲翕唱吕二之	-12.4272
囷	-12.4273
㝷	-12.4273
狠	-12.4273
錄	-12.4273
上正徵少隂君火司天熱行於上	-12.4273
摭	-12.4274
子南午北	-12.4274
餳	-12.4274
串	-12.4274
入聲翕唱吕四之	-12.4274
正坐取之刺可入同身寸之五分	-12.4274
元上部唐將軍	-12.4274
沁園春	-12.4275
播州録事參軍袁孝政註	-12.4275
饕	-12.4275
爻辭有仁義隨時發喜怒	-12.4275
寂寞山居好	-12.4275
罣	-12.4275
去聲闢唱吕三之	-12.4275
出有入無	-12.4275
睪	-12.4275
存三守一	-12.4275
蝴蝶	-12.4275
刻人氣在太陽水下	-12.4275
厦	-12.4275
爨	-12.4276
傭	-12.4276
明心見性	-12.4276
橛	-12.4276
紫虚元君	-12.4276
褰	-12.4276
黄氣在上濕行於天	-12.4276
上正商陽明金司天燥行於上	-12.4276
翽	-12.4277
可不愼乎	-12.4277
具前注	-12.4277
上聲闢唱吕一之	-12.4277
阡	-12.4277
痍	-12.4277
韮	-12.4277
又東三百里曰	-12.4277
秊	-12.4277
儕	-12.4278
人神龍鬼	-12.4278
南極上元君	-12.4278
入聲闢唱吕一之	-12.4278
不飢不渴	-12.4278
貿	-12.4278
鞍	-12.4279
姪	-12.4279
躡地紀三遍散爲禹歩	-12.4279
柤	-12.4279
姑射侯善淵述	-12.4279
御史中丞	-12.4279
茆	-12.4279
蘋	-12.4279
蝮	-12.4279
問云何是道笑指慧光	-12.4279
虚心實腹	-12.428
魘	-12.428
舁	-12.4281
婥	-12.4281
不能乆立	-12.4281
白者金精黑者水基	-12.4281
經星之癸二百	-12.4281
天得一以清	-12.4281
孕者生男	-12.4282
萬劫不原	-12.4282
䕫	-12.4282
敢負上聖	-12.4282
火衝對位化標從成其數七通運其數十	-12.4282
谷希子	-12.4283
千善則爲聖眞仙	-12.4283
九嶷山	-12.4283
邸	-12.4283
齧	-12.4284
宕	-12.4284
斐	-12.4285
鶴鳴山	-12.4286
刺腰痛篇	-12.4286
黥	-12.4288
俣	-12.4288
篇第六十	-12.4289
尚書僕射	-12.429
撤	-12.429
猾	-12.4291
呴	-12.4291
懺	-12.4291
虹蜺	-12.4292
師曰第五十	-12.4293
上元上部將軍	-12.4294
服雲母方	-12.4294
曇	-12.4294
跖	-12.4296
午未申	-12.4296
隄	-12.4296
門火五日退炭至	-12.4298
飼	-12.43
捻都監訣	-12.4302
驃騎將軍	-12.4302
掬	-12.4302
緛	-12.4305
綏	-12.4305
易圖通變卷之	-12.4307
竽	-12.4322
師曰第七十	-12.4324
東海王越	-12.4326
六庚加	-12.4329
虓	-12.4338
流珠上卷	-12.4537
音也卯酉隂年	-12.4627
倒反三遍	-12.4924
年乙丑丙寅丁卯	-12.4929
黑齒落	-12.5035
也丑未隂年	-12.5253
分陰分陽	-12.5326
栁	-12.5339
秬	-12.5341
騶	-12.5343
壇凡星位	-12.5345
瘤	-12.5348
簳	-12.5348
内經十四篇	-12.5349
等以持罪	-12.535
時起火以煉	-12.5351
瑗	-12.5351
胦	-12.5352
脖	-12.5354
動應於手	-12.5354
盛而躁在手	-12.5354
腎上貫肝鬲入肺中循喉嚨俠舌本	-12.5355
男白女赤金火相拘	-12.5357
負陰而抱陽	-12.5359
磕	-12.5359
各從其類	-12.536
似有似無	-12.536
鵜	-12.5361
鍉	-12.5361
性主處内立置鄞鄂	-12.5361
鼉	-12.5362
鷃	-12.5362
閤	-12.5362
隧	-12.5362
刺可入同身寸之五分若灸者可灸三壯	-12.5362
耿	-12.5362
厯	-12.5362
目内眦	-12.5362
三道由一俱出徑路	-12.5362
今故賚爾	-12.5362
奈何伯高答曰	-12.5363
心肺在鬲上	-12.5363
賃	-12.5363
犇	-12.5363
七旬有二日	-12.5363
反是者病	-12.5364
簣	-12.5364
上角與正角同	-12.5364
須急採	-12.5365
硃	-12.5365
人面蛇身	-12.5365
暦	-12.5365
晤	-12.5366
埏埴	-12.5366
瑩蟾子	-12.5366
踡	-12.5366
獰	-12.5366
三物一家都歸戊	-12.5366
脗	-12.5367
指玄三十九章云	-12.5367
迪	-12.5367
清庵瑩蟾子語録卷之	-12.5367
金丹大成集云	-12.5367
簑	-12.5367
賂	-12.5367
豔	-12.5368
木入地也自	-12.5368
九經星之癸一百	-12.5368
色聲香味	-12.5368
嶓	-12.5368
新校正云按至眞要大論云	-12.5368
羔	-12.5369
壖	-12.5369
譯	-12.5369
釵	-12.5369
瀹	-12.5369
某州縣郷里	-12.537
袴	-12.537
𤸷	-12.537
恒順地理承天布宣	-12.5371
滷	-12.5371
矚	-12.5371
水出焉北流注于	-12.5371
石亭脂	-12.5371
上入髮際同身寸之	-12.5371
丹砂木精得金乃并	-12.5371
也正理論曰	-12.5371
㓂	-12.5371
塼	-12.5371
一大事因縁	-12.5372
武晚尾	-12.5372
拴	-12.5373
胤丹八十一分	-12.5373
流金之鈴	-12.5373
八應一斤易道正不傾	-12.5373
汋	-12.5373
攴	-12.5373
巍巍尊高	-12.5373
鵷	-12.5374
鋩	-12.5374
撚	-12.5374
新校正云按甲乙經及太素	-12.5374
以無制有器用者空	-12.5374
匆匆	-12.5374
門之内也修飛步之道	-12.5374
之民子可歸之	-12.5374
晝夜各一卦	-12.5375
愜	-12.5375
觸類而長之	-12.5375
延壽六星君	-12.5375
風伯雨師	-12.5375
鉚	-12.5375
多杻橿	-12.5375
平聲翕唱吕二之	-12.5375
珙	-12.5375
大洞眞經三十九章	-12.5376
三花聚頂	-12.5376
若合符節	-12.5376
堙	-12.5376
無中養就兒	-12.5376
含精養神	-12.5376
皇夫人姓	-12.5377
諸天内音	-12.5377
腸化爲筋	-12.5377
道教靈驗記	-12.5377
不可須臾離	-12.5377
菑	-12.5377
天長地久	-12.5377
釅	-12.5377
星奇乗之	-12.5377
李希烈	-12.5377
枝莖華葉	-12.5377
湲	-12.5378
春生夏長	-12.5378
觀變於陰陽而立卦	-12.5378
宫宫中有帝君	-12.5378
無思無慮	-12.5378
攬	-12.5378
倖	-12.5378
月奇乗之	-12.5378
君戴星冠躡朱履衣	-12.5378
果實垂布	-12.5378
活潑潑	-12.5378
玄教大公案	-12.5378
子爲坎其數一	-12.5379
莧	-12.5379
劾	-12.5379
其孰能大乎吾之大乎	-12.5379
抹	-12.5379
行人未回	-12.5379
治天始行天令後	-12.538
誹	-12.538
頊	-12.538
沔	-12.538
畦	-12.538
乾剛坤柔配合相包	-12.538
日奇乗之	-12.538
白虎爲熬樞	-12.538
首尾武中間文	-12.538
褊	-12.538
詛	-12.5381
租	-12.5381
瞤	-12.5381
願聞其故岐伯曰	-12.5381
支别者復從胃别上鬲注心中	-12.5381
對化天虚運佐天	-12.5381
剗	-12.5381
槎	-12.5381
自午至亥	-12.5381
左刺右右刺左	-12.5381
督脉氣所發	-12.5381
交接權輿樹根基	-12.5381
於交地時前十	-12.5381
刹	-12.5382
佻	-12.5382
諫議大夫	-12.5382
又東三十里曰	-12.5382
匕	-12.5382
者未之有也	-12.5382
司天中見火運	-12.5383
日黑氣奉上少羽	-12.5383
左手第四指	-12.5383
穽	-12.5383
又北三百里曰	-12.5383
玊	-12.5383
形長九寸	-12.5383
未爲土其數五	-12.5384
復卦建始萌	-12.5384
泫	-12.5384
霈	-12.5384
熈熈	-12.5384
上正羽太陽寒水司天寒行於上	-12.5384
治之以鹹寒	-12.5384
翩	-12.5384
歉	-12.5385
瘵	-12.5385
桔	-12.5385
䐈	-12.5385
隟	-12.5385
長子繼父體因母立兆基	-12.5385
灸三壯	-12.5385
恪	-12.5386
輾	-12.5386
黑氣在上寒行於天	-12.5386
坐垂温	-12.5386
十五乾體就盛滿甲東方	-12.5387
可不愼哉	-12.5387
牎	-12.5387
訢	-12.5387
九老仙都	-12.5388
撿	-12.5388
惆	-12.5388
裨	-12.5388
寜	-12.5388
青龍白虎朱雀玄武	-12.5389
芘	-12.5389
同心併力	-12.5389
上正徵少陽相火司天熱行於上	-12.5389
苣	-12.5389
以舌攪	-12.5389
臒	-12.5389
烘	-12.5389
玃	-12.5389
茄	-12.5389
假黄鉞	-12.5389
贏	-12.539
㳂	-12.539
椎下兩傍上直	-12.539
擣三萬杵	-12.539
明素蟾	-12.539
其陽多金其隂多	-12.5391
日黄氣奉上少宫	-12.5391
篡	-12.5391
謳	-12.5391
唐太僕令啓玄子王氷次注	-12.5391
牕	-12.5391
瓓	-12.5392
莅	-12.5392
十七經星之辛二百	-12.5392
經元之甲一經會之午七經運之	-12.5392
十一經星之乙二百	-12.5392
十二經星之丙二百	-12.5392
十八經星之壬二百	-12.5392
閽	-12.5393
辛卯壬辰癸巳經世之	-12.5393
綰	-12.5393
憧	-12.5393
趓	-12.5393
鎰	-12.5393
十三經星之丁二百	-12.5393
十五經星之己二百	-12.5393
十六經星之庚二百	-12.5393
十四經星之戊二百	-12.5393
㧞	-12.5393
散騎常侍	-12.5393
而況於人乎	-12.5393
綂	-12.5393
負陰抱陽	-12.5393
鵾	-12.5393
鼙	-12.5394
屛	-12.5394
剛柔斷矣不相涉入	-12.5394
輅	-12.5394
緼	-12.5394
視之不見近而易求	-12.5394
觀物篇之四十	-12.5395
晰	-12.5395
漲	-12.5395
薫	-12.5395
羅公遠	-12.5395
臨川道士雷思齊	-12.5396
駱	-12.5396
疰	-12.5397
甦	-12.5397
仰觀俯察	-12.5397
瓌	-12.5397
芑	-12.5397
牝之門是謂天地根	-12.5398
柩	-12.5398
尿	-12.5398
囟	-12.5399
酡	-12.5399
臨朝稱制	-12.5399
擦	-12.5399
窪	-12.5399
聿	-12.5399
漾	-12.54
絓	-12.5401
甆	-12.5401
矣道樞卷之	-12.5401
人唯二人系代	-12.5401
姒	-12.5402
㦸	-12.5402
十二萬九千六百	-12.5402
帝加元服	-12.5403
囀	-12.5405
峩	-12.5405
其畜鷄	-12.5405
者其日出入晝夜與	-12.5408
梵音土皇姓	-12.5408
璟	-12.5409
行音土皇姓	-12.541
楝	-12.5412
咆	-12.5425
告請天之	-12.5429
爻生律	-12.5434
赫連勃勃	-12.5451
氣下浹身中	-12.5472
齒落更生	-12.5763
帝曰善黄帝内經素問補註釋文卷之	-12.5865
戊辰己巳庚午辛未壬申癸酉甲戌	-12.6122
君也老君曰或見	-12.6183
運徵火音	-12.6371
色洞神下元	-12.6541
風從坤來	-12.656
苽	-12.6566
陳霸先	-12.6579
黄帝問於伯高曰	-12.6581
也爲榮注	-12.6581
伽	-12.6581
擿	-12.6582
清熱勝復同	-12.6586
寒雨勝復同	-12.659
和君實端明	-12.6592
氾	-12.6593
柎	-12.6596
襌	-12.6597
治在燔針劫刺以知爲數以痛爲輸	-12.6598
傴	-12.6601
舫	-12.6601
痓	-12.6601
楹	-12.6601
時按手如法存	-12.6601
獺	-12.6603
五息止第	-12.6604
鼷	-12.6604
三男三女	-12.6605
九九制會	-12.6605
腎間動氣	-12.6606
屨	-12.6607
欽定四庫全書	-12.6607
青黄赤白黑	-12.6607
缶	-12.6607
雨風勝復同	-12.6607
抜	-12.6607
金復其故性威光鼎乃	-12.6607
俠脊抵腰中入循膂絡腎	-12.6608
譛	-12.6608
蝣	-12.6609
之時剛柔相結而不可解得其	-12.6609
和王安之少卿	-12.661
降臨醮席	-12.661
痝	-12.661
趕	-12.6611
亢龍有悔	-12.6612
衃	-12.6612
嫦	-12.6612
馳入赤色門	-12.6613
紬	-12.6613
薯	-12.6613
《	-12.6614
蜣	-12.6614
氣見而復没不來至	-12.6614
情主營外築垣城郭城郭完全人	-12.6615
出别下項	-12.6615
晦朔之間合符行中	-12.6615
鏐	-12.6616
仙遊山道士彭致中集	-12.6616
回光返照	-12.6616
倐	-12.6616
之時老君下爲師號曰	-12.6616
臨爐定銖兩五分水有餘	-12.6617
么	-12.6617
白日昇晨	-12.6617
收視返聽	-12.6618
蹴	-12.6618
閫	-12.6618
傘	-12.6618
鎁	-12.6618
蹷	-12.6618
骬	-12.6618
蹲	-12.6619
怳	-12.6619
鎸	-12.6619
气	-12.6619
其鳴自叫	-12.6619
掊	-12.6619
拷	-12.662
爪甲上與肉交者	-12.662
硫	-12.662
齟	-12.662
齬	-12.662
起於腎下出於氣街	-12.662
各居一方	-12.662
或臣邪佞行不順軌	-12.662
㢲	-12.662
惒	-12.662
十三經星之丁一百	-12.662
十二經星之丙一百	-12.662
十四經星之戊一百	-12.662
十七經星之辛一百	-12.6621
十五經星之己一百	-12.6621
十六經星之庚一百	-12.6621
塌	-12.6621
潑	-12.6621
炎火張於下	-12.6621
立壇宇朝暮敬祭	-12.6621
況近存身切在於心	-12.6621
李林甫	-12.6621
一百九十有二銖	-12.6622
出大迎循頰車上耳前	-12.6622
囘	-12.6622
覡	-12.6622
祉	-12.6622
鲁	-12.6622
也金匱眞言論曰	-12.6622
仝	-12.6622
曛	-12.6622
二用無爻位周流行六虚	-12.6622
兩弦合其精乾坤體乃成二	-12.6622
㾬	-12.6622
禧	-12.6623
後聖君告張天師曰	-12.6623
擣治并合之	-12.6623
睨	-12.6623
鎻	-12.6623
木火爲侣	-12.6623
既未至晦爽	-12.6623
玷	-12.6623
仄	-12.6623
俳	-12.6623
觀天之道執天之行	-12.6624
神清氣爽	-12.6625
冪	-12.6625
易謂坎離坎離者乾坤二用	-12.6625
如上科兮日數亦取甫	-12.6625
故推消息坎離没亡	-12.6625
阨	-12.6625
黏	-12.6625
獐	-12.6625
籃	-12.6625
裙頽雲髻第	-12.6625
飭	-12.6626
胴	-12.6626
天五地十	-12.6626
釗	-12.6626
龕	-12.6627
越王勾踐	-12.6627
侃	-12.6627
芊	-12.6627
或上或下	-12.6627
辰爲土其數五	-12.6627
上弦兊數八下弦	-12.6627
嚚	-12.6627
娛	-12.6627
積功累行	-12.6627
出日入月呼吸存	-12.6627
卞	-12.6627
襖	-12.6627
櫾	-12.6627
驩	-12.6627
景玉符上元洞天炁部	-12.6627
勣	-12.6628
糺	-12.6628
金丹四百字	-12.6628
貲	-12.6628
湫	-12.6628
人唯一人系	-12.6628
其上多黄金其下多	-12.6628
終坤始復如循連環	-12.6628
金以砂爲主禀和於水銀	-12.6628
慓	-12.6629
慜	-12.6629
懌	-12.6629
搧	-12.6629
氣交變大論	-12.6629
繪	-12.6629
菡	-12.6629
陡	-12.6629
俓	-12.6629
玄壽先生曰	-12.6629
硇	-12.663
嚇	-12.663
痒	-12.663
戌爲土其數五	-12.663
至言緫卷之	-12.663
緗	-12.6631
金鎻流珠	-12.6631
丑爲土其數五	-12.6631
濳	-12.6631
𥙷	-12.6631
多氣少血	-12.6631
昭靈李夫人	-12.6631
發揮於剛柔而生爻	-12.6631
澮	-12.6631
啾	-12.6631
棣	-12.6631
神形俱妙	-12.6631
蕖	-12.6631
鋼	-12.6631
所過爲源	-12.6631
陰盡陽純	-12.6631
明者省厥㫖曠然知所由	-12.6632
飛歩天綱	-12.6632
璺	-12.6632
鯤	-12.6632
濁者清之路昏久則昭明	-12.6632
朔旦屯直事	-12.6632
紫清白真人	-12.6632
艮直於丙南下弦二十三	-12.6632
雲行雨施	-12.6632
篠	-12.6632
殤	-12.6632
㨿	-12.6633
火記不虚作演易以明之	-12.6633
閨	-12.6633
因叩齒三十六通而微祝曰	-12.6633
至天時於天數後	-12.6633
發號順時令勿失爻動時	-12.6633
嗑	-12.6633
性命雙修	-12.6633
專心致志	-12.6633
無視無聽	-12.6633
芰	-12.6633
風門熱府	-12.6633
水者道樞其數名一	-12.6633
爻象内動吉凶外起	-12.6634
聖人無兩心	-12.6634
躇	-12.6634
若夫至聖不過伏羲	-12.6634
癎	-12.6634
菱	-12.6634
六通國師曰	-12.6634
瀘	-12.6634
邙	-12.6635
㫁	-12.6635
寸關尺	-12.6635
帬	-12.6635
盛火消滅俱死歸厚	-12.6635
螭	-12.6635
麄	-12.6635
渤	-12.6636
甲申乙酉丙戌丁亥戊子己丑庚寅	-12.6636
以甘緩之	-12.6636
其木多穀柞	-12.6636
裒	-12.6636
婿	-12.6636
沖妙先生李思聦集	-12.6636
納氣自極七息而止	-12.6636
上三爻納	-12.6636
下三爻納	-12.6636
址	-12.6636
庚申辛酉壬戌	-12.6636
廩	-12.6636
賞善罰惡	-12.6636
四季羅絡始終	-12.6636
賞罰應春秋昏明順寒暑	-12.6636
癬	-12.6637
珥	-12.6637
将	-12.6637
阪	-12.6637
犂	-12.6637
上正宫太隂土司天天氣右遷	-12.6637
盛而不實勝而有復熱化七從標成數也	-12.6637
縶	-12.6638
蠖	-12.6638
滛	-12.6638
蚑	-12.6638
分西方第	-12.6638
屈折低下降	-12.6638
締	-12.6638
磅	-12.6638
爆	-12.6638
成仙作佛	-12.6638
宫中乃微祝曰	-12.6638
茱	-12.6638
晻	-12.6638
其鳴自詨	-12.6638
迷迷相指	-12.6639
至天後八日下臨	-12.6639
弔	-12.6639
關關雎鳩在河之洲	-12.6639
懣	-12.664
引而伸之	-12.664
景之道行之八年	-12.664
又東北二百里曰	-12.664
諲	-12.664
水出于其上潜于其下	-12.664
進右足并通氣	-12.664
江水帝廟在	-12.664
宋光禄卿直祕閣林億等校正	-12.6641
分章通眞義	-12.6641
磎	-12.6641
上陽子曰道有三	-12.6641
五日爲一候	-12.6642
升之不前	-12.6642
含元虚危播精於子	-12.6642
詈	-12.6642
水出焉而東南流注于	-12.6642
邅	-12.6642
上德不德	-12.6643
同出而異名	-12.6644
分南方第	-12.6644
柈	-12.6644
可以心授而不可以立談也	-12.6645
鬲咽不通	-12.6645
怜	-12.6645
苓	-12.6645
青赤白黑	-12.6645
飜	-12.6645
黄帝内經素問遺篇卷之	-12.6646
熖	-12.6646
分北方第	-12.6646
劓	-12.6646
四極明科	-12.6646
景眞符部	-12.6646
譁	-12.6647
君相二火	-12.6647
塜	-12.6647
蛄	-12.6647
内生竹筒中	-12.6648
給玉童玉女各	-12.6649
輯	-12.665
椐	-12.665
贇	-12.665
煬	-12.6652
弧	-12.6652
紀洞玄本行經云	-12.6652
擡	-12.6653
井也刺可入同身寸之一分留	-12.6653
僉	-12.6655
饋	-12.6655
蛆	-12.6655
生神章第	-12.6655
解形遯變	-12.6655
百善則後代	-12.6655
盱	-12.6656
紘	-12.6656
呿	-12.6657
五息止引	-12.6659
鑾	-12.666
絙	-12.666
分東方第	-12.6661
滿口含津	-12.6663
遊音土皇姓	-12.6664
寨	-12.6664
汭	-12.6664
倪	-12.6665
正音土皇姓	-12.6666
綦	-12.6666
玉皇君兆若	-12.6678
栢人亭	-12.6682
霰	-12.6683
敺	-12.6698
急如律令	-12.67
辛水運羽水音	-12.6765
脉氣所發者	-12.6765
癸酉甲戌乙亥丙子丁丑戊寅己卯	-12.7866
與巳爲友留爲巳使	-12.8003
德化政令	-12.8007
席上腐談	-12.8008
道人之心亦當如此又如	-12.8011
觚	-12.8016
澒	-12.8017
恇	-12.8018
紵	-12.8018
錦幈山下	-12.8024
沆	-12.8026
徐徐出針以手捫其穴	-12.8026
楯	-12.8026
蝟	-12.8027
此遠於仙者	-12.8027
桎	-12.8028
陰陽爲度魂魄所居	-12.8028
觀其權量察仲秋情	-12.8029
玉清隱文又祝曰	-12.8029
先人後己	-12.803
顑	-12.8032
𢎞	-12.8032
此近於仙者	-12.8032
涔	-12.8033
渇	-12.8034
罍	-12.8034
非心非佛	-12.8034
無刺已刺無	-12.8035
靈源大道歌云	-12.8035
顰	-12.8036
咳之狀咳	-12.8036
仰山道院牧常晁撰門人一山黄本仁編	-12.8037
旋斗歷箕	-12.8037
難圖變而分布各自獨居	-12.8037
以金爲隄防水入乃優游	-12.8037
鷂	-12.8037
膻	-12.8038
變易更盛消息相因	-12.8038
一寒一暑	-12.8038
氓	-12.8038
驤	-12.8038
悛	-12.8039
如雞抱卵	-12.8039
剛施而退柔化以滋	-12.804
寖	-12.804
洺	-12.8041
雲從龍風從虎	-12.8041
鄶	-12.8042
喑	-12.8043
降龍伏虎	-12.8043
錞	-12.8043
蛭	-12.8043
懲忿窒慾	-12.8043
之月是也此時陽氣	-12.8043
聵	-12.8043
爝	-12.8043
在台州黄巖縣	-12.8043
角今太角者	-12.8043
朱墨塗	-12.8044
國秦越人撰臨川晞范子李駉子埜句解	-12.8044
鍊銀於鉛神物自生	-12.8044
絫	-12.8044
歲月將欲訖毁性傷壽年	-12.8045
遞相去同身寸之一寸	-12.8045
抃	-12.8045
鱣	-12.8045
詰過貽主	-12.8045
睾	-12.8045
噤	-12.8046
鵡	-12.8046
繿	-12.8046
名曰第一鼎兮食如大黍米	-12.8046
戊子己丑庚寅辛卯壬辰癸巳	-12.8046
心有所憶謂之意	-12.8046
俚	-12.8046
凢	-12.8046
道窮則反歸乎坤元	-12.8046
邽	-12.8046
十八經星之壬一百	-12.8047
懟	-12.8047
𠋣	-12.8047
蒙用寅戌	-12.8047
新校正云按天元紀大論云	-12.8047
㽷	-12.8047
過客主人循髮際至額顱	-12.8047
素問入式運氣論奥	-12.8047
歃	-12.8048
水不溺入火不	-12.8048
紿	-12.8048
磯	-12.8048
蜎	-12.8048
督脉足太陽之會	-12.8048
光禄勳	-12.8049
自然之所爲兮非有邪僞道	-12.8049
㿉	-12.8049
覽其端辭寡意大後嗣宜遵	-12.8049
非徒生時著而見之及其死也亦復效之	-12.8049
乙庚之間中生金運也	-12.805
霿	-12.805
應度育種陰陽之	-12.805
林屋山人全陽子俞琰	-12.805
亳	-12.805
也其星則號	-12.8051
遊魂爲變	-12.8051
十六轉受統巽辛見平明	-12.8051
硌	-12.8051
食交感道自然	-12.8051
變化由其眞終始自相因	-12.8051
殊制作有所踵推度審分銖	-12.8051
羆	-12.8051
麈	-12.8052
皇王帝伯	-12.8052
又西三百五十里曰	-12.8052
垤	-12.8052
劄	-12.8052
骭	-12.8052
窑	-12.8052
經辰之丑二千二百	-12.8052
青龍處房六兮春華震東卯	-12.8052
鄢	-12.8052
堰	-12.8052
貉	-12.8052
胳	-12.8052
芟	-12.8052
楫	-12.8052
毀	-12.8052
左顧牡蠣	-12.8052
粢	-12.8052
候視加謹愼審察調寒温	-12.8053
脉起於鼻交頞中下循鼻外入上齒中還	-12.8053
經營養鄞鄂凝神以成軀	-12.8053
庶聖雄十翼以輔之三君天所挺迭興更	-12.8053
言不苟造論不虚生	-12.8053
罐	-12.8053
内指通玄祕訣云	-12.8053
正在根株不失其素誠心所言審而不誤	-12.8053
輥	-12.8053
月日所没也	-12.8053
返也服之一兩	-12.8053
别序斯四象以曉後生盲	-12.8054
易者象也懸象著明莫大乎日月	-12.8054
朐	-12.8054
茸	-12.8054
隱龍匿莫知所存將欲制之黄芽爲根	-12.8054
日合五行精月受六律紀	-12.8054
金爲水母母隱子胎水者金子子藏母胞	-12.8054
寅望先有青	-12.8055
窳	-12.8055
寘	-12.8055
膲	-12.8055
玉池清水灌靈根	-12.8055
趎	-12.8055
逓	-12.8055
麂	-12.8055
失事緒言還自敗傷	-12.8055
羬	-12.8055
秋收冬藏	-12.8055
其化鳴紊啓拆	-12.8055
鱓	-12.8055
伯夷叔齊	-12.8055
出俠口環唇下交承漿却循頤後下廉	-12.8055
懋	-12.8055
鴽	-12.8055
其變炎烈沸騰	-12.8056
火太過從成其數七	-12.8056
交地時後十	-12.8056
鴝	-12.8056
一闔一闢	-12.8056
圀	-12.8056
笏	-12.8056
梭	-12.8056
誠惶誠恐	-12.8056
蚩	-12.8057
儷	-12.8057
人唯三人系代	-12.8057
姙	-12.8057
賚	-12.8057
䤵	-12.8057
古文龍虎經註䟽	-12.8057
褭	-12.8057
傖	-12.8057
五緯錯順應時感動	-12.8057
余已知之矣	-12.8058
貍	-12.8058
十日餘八十七刻半	-12.8058
菰	-12.8058
瞭	-12.8058
荑	-12.8058
被褐懷玉外爲狂夫	-12.8058
土遊於四季守界定規矩	-12.8058
窮理盡性	-12.8058
天數五地數五	-12.8058
藷	-12.8058
齗	-12.8058
少陽二脉之會刺可入同身寸之三分	-12.8058
窮神知化	-12.8058
豉	-12.8059
葫	-12.8059
崎	-12.8059
皆琉璃水精中有	-12.8059
務在順理宣耀精神神化流通四海和平	-12.8059
八日兊受丁上弦平如繩	-12.806
巋	-12.806
扎	-12.806
肉之堅脆	-12.8061
九萬九千九百九十	-12.8061
好道願得長生	-12.8061
魯孫小兆	-12.8061
𣈆興寧三年乙丑	-12.8061
也右第八十	-12.8061
冠婚氣相紐元年乃芽滋	-12.8061
九至天後九日下臨	-12.8061
軼	-12.8061
栩	-12.8061
流水不腐户樞	-12.8061
蘄	-12.8061
紏	-12.8061
胝	-12.8061
氣之虚也則宜補之	-12.8061
淨倮倮赤洒洒	-12.8061
腪	-12.8061
此其爲陰息者也	-12.8062
衙	-12.8062
鞴	-12.8062
蚖	-12.8062
上察河圖文	-12.8062
諸家氣法	-12.8063
乾坤其易之門	-12.8063
地得一以寧	-12.8063
帝曰補寫奈何岐伯曰	-12.8063
暍	-12.8063
粳	-12.8063
爲範占候定吉凶	-12.8063
眈	-12.8064
斸	-12.8064
先天而天弗違後天而奉天時	-12.8064
僦	-12.8064
搖	-12.8064
莠	-12.8064
絛	-12.8064
在天成象在地成形	-12.8065
紫陽張真人云	-12.8065
舍人氣行於身	-12.8065
吕氏春秋曰	-12.8066
皦	-12.8066
衘	-12.8066
無母砂子	-12.8066
曦	-12.8066
動靜有常奉其繩墨	-12.8066
脉之所出也刺可入同身寸之一分留	-12.8066
腿	-12.8066
劌	-12.8067
扆	-12.8067
曁	-12.8067
汀	-12.8067
鶹	-12.8067
胡粉投火中色壞還	-12.8067
髖	-12.8067
糈用稌	-12.8067
牘	-12.8067
窮神以知化陽往則陰來	-12.8067
澣	-12.8068
蹟	-12.8068
貧自古及今好者億人訖不諧	-12.8068
關雎建始初	-12.8069
水出焉而東北流注于	-12.8069
惟精惟一	-12.8069
董仲舒	-12.8069
䀆	-12.8069
富國安民	-12.8069
分野管天下	-12.8069
无情戀修行志意	-12.8069
嵎	-12.807
丸如小豆大	-12.807
冐	-12.807
鐍	-12.807
針以手捫之	-12.807
魑	-12.807
蜒	-12.807
郵	-12.807
縢	-12.807
簧	-12.8071
烽	-12.8071
殺氣所臨何有不傾	-12.8071
聒	-12.8072
燻	-12.8072
素奏丹符	-12.8073
也故爲之治針必	-12.8073
黠	-12.8073
天對化天間至運	-12.8073
墾	-12.8073
世人好小術不審道淺深	-12.8074
呀	-12.8074
月日所出也	-12.8074
二至改度乖錯委曲隆冬大暑盛夏	-12.8075
三分留三呼若灸者可灸五壯	-12.8075
鵒	-12.8075
迯	-12.8075
蜿	-12.8075
蠆	-12.8075
睒	-12.8075
崧	-12.8075
不驕樂天	-12.8076
㡬	-12.8076
笞	-12.8076
烖	-12.8076
蒭	-12.8076
駁	-12.8076
嬖	-12.8076
甿	-12.8076
劂	-12.8076
渉	-12.8076
月者斗建于	-12.8076
殛	-12.8076
磊	-12.8076
薇	-12.8077
㑺	-12.8078
星尊神君謹請	-12.8078
懂	-12.8079
三五與一天地至精	-12.8079
凹	-12.8079
昕	-12.8079
儂	-12.8079
繟	-12.808
温養子珠	-12.808
瑆	-12.8081
掐	-12.8081
橿	-12.8081
𢖍	-12.8082
㞢	-12.8082
寂兮寥兮	-12.8082
瓘	-12.8082
胎精中記	-12.8084
眐	-12.8085
用鉛不用鉛	-12.8086
湥	-12.8091
百惡則後代	-12.8091
單衣帶劔	-12.8098
㓨	-12.8101
願聞其道岐伯	-12.8103
蕕	-12.8107
化應聲天	-12.8113
浮滑而長	-12.8114
晋李存勗	-12.8117
禹餘粮	-12.8119
今身所行與先不異	-12.8124
道樞卷之四	-12.9655
注見三十四難	-12.9678
騄	-12.968
其運熱寒雨	-12.9681
鼻徐徐長取其清氣	-12.9681
騮	-12.9683
櫻	-12.9686
瀁	-12.9686
幸華清宫	-12.9686
靈蘭秘典論	-12.9687
夤	-12.9687
瀣	-12.9687
剜	-12.9688
徭	-12.9688
贛	-12.9688
岷	-12.9688
絀	-12.9688
皝	-12.9689
今故報盈以	-12.969
三之氣天政布	-12.9691
蠵	-12.9691
盌	-12.9691
詧	-12.9691
蟲少陰居之爲	-12.9691
陰之卦也律應	-12.9691
䯏	-12.9692
不寒不暑進退合時各得其和俱吐證符	-12.9694
盛則寫之虚則補之	-12.9694
揄	-12.9695
捜	-12.9695
蝡	-12.9695
風清勝復同	-12.9695
獅	-12.9695
西魏宇文泰	-12.9696
瀍	-12.9697
嶼	-12.9698
寳命全形論	-12.9698
㾓	-12.9698
柢	-12.9698
瀵	-12.9699
武后祀明堂	-12.9699
烜	-12.9699
三家相見結嬰兒	-12.9699
洧	-12.9699
蒞	-12.9699
嚳	-12.9699
韛	-12.97
八十一萬億八十一萬歲	-12.97
無平不陂道之自然	-12.9701
砭	-12.9701
煢	-12.9701
撝	-12.9701
連山歸蔵	-12.9701
𡨋	-12.9701
大骨枯槁大肉陷下	-12.9701
樁	-12.9701
霹	-12.9701
則水定火五行之初上善若水清而	-12.9702
至眞要大論	-12.9702
吤	-12.9702
荘	-12.9702
隈	-12.9704
淇	-12.9704
椎下間主	-12.9704
發火初温微	-12.9704
贱	-12.9705
幀	-12.9705
翊聖保德眞君	-12.9705
脾磨食消	-12.9705
半以一歲言之則斗杓建	-12.9705
眞君忽降言	-12.9705
左右者陰陽之道路	-12.9706
於猛火色不奪精光自開闢以來日月不	-12.9706
進日以益長丑之大吕結正低昂	-12.9706
崦	-12.9706
筐	-12.9706
貊	-12.9706
用鉛不用鉛須向鉛中作	-12.9706
淳于叔通	-12.9707
故男動外施女靜内藏	-12.9708
平旦至日中天之陽陽中之陽也	-12.9708
不知年之所加氣之	-12.9708
飲食自倍腸胃乃傷	-12.9708
爓	-12.9708
循喉嚨入缺盆下鬲屬胃	-12.9709
胛	-12.9709
佪	-12.9709
鏃	-12.971
砂篇本經曰	-12.971
脉氣所發仰而取之	-12.971
騭	-12.971
醅	-12.9711
之道旣畢乃又兩足俱上	-12.9711
其鳴自訆	-12.9711
生之徒十有三死之徒十有三	-12.9711
骼	-12.9711
𡻕	-12.9711
𨭊	-12.9711
郟	-12.9712
玘	-12.9712
爕	-12.9712
憨	-12.9712
搢	-12.9712
燧以取火非日不生光方諸非星月安能	-12.9712
于斯之時情合乾坤	-12.9712
牝牡相從滋液潤澤施化流通天地神	-12.9713
履霜最先	-12.9713
肝者將軍之官謀慮出焉	-12.9714
火不焦入水不濡能存能亡長樂	-12.9714
氄	-12.9714
顳	-12.9714
八卦列布曜運移不失中	-12.9714
星使也亦存	-12.9714
衆夫蹈以出蝡動莫不由	-12.9714
天甲子也下見丁	-12.9714
莘	-12.9714
猶郊境也骨節之分猶百官也神猶君也	-12.9714
沉短以敦	-12.9714
壬地丁也於丁壬之間中生	-12.9714
生人屬之也第	-12.9714
青龍與之俱舉東以合西魂魄自相拘	-12.9715
雒	-12.9715
天甲子也下見乙	-12.9715
養性延命却期審思後末當慮其先人所	-12.9715
笳	-12.9715
𢬵	-12.9715
靴	-12.9715
顬	-12.9715
專炁致柔	-12.9715
地甲子也故天乙地庚	-12.9715
雄陽翠玄水雌陰	-12.9715
天甲子也下見庚	-12.9716
絜	-12.9716
惛	-12.9716
知之修鍊謂之聖人	-12.9716
睠	-12.9716
衽	-12.9716
弦望盈縮乖變凶咎執法	-12.9717
倆	-12.9717
坐玉樓之中若有玄名	-12.9717
九五飛龍在天	-12.9717
呉	-12.9717
畢叩齒九下咽液九過祝曰	-12.9717
結體演爻辭	-12.9718
和下鹹寒藥食宜也	-12.9718
猶火動而炎上水流而潤下非有師	-12.9718
天甲子也下見癸	-12.9718
梏	-12.9718
宫商角徵羽	-12.9718
赩	-12.9718
胖	-12.9718
星上便微呪曰	-12.9718
所在刺灸分壯	-12.9718
𦬸	-12.9718
逍	-12.9718
一火二木三金四土五	-12.9719
彿	-12.9719
綾	-12.9719
鎗	-12.9719
䉋	-12.9719
陽之卦也律應	-12.9719
琚	-12.972
上姹女靈而最神得火則飛不見埃塵鬼	-12.972
盎	-12.972
焠	-12.972
坎雄金精離雌火光	-12.972
水太過從成其數六	-12.972
鶡	-12.9721
厩	-12.9721
念深思惟至要言甚露昭昭不我欺	-12.9721
三百六十五度四分度之一	-12.9721
合體居千舉必萬敗欲黠反成癡	-12.9721
弁	-12.9721
在足内側核骨下	-12.9722
都督中外軍事	-12.9722
凝慘凛冽	-12.9722
剏	-12.9722
子火居上父木在下子臨父位	-12.9722
推演五行數較約而不	-12.9722
檗	-12.9722
出正入邪蹊管窺不廣見難以揆方來	-12.9722
糖	-12.9722
槁木心若死灰	-12.9722
狐疑背道守迷路	-12.9722
玉醴金漿	-12.9722
甖	-12.9722
蟪	-12.9722
七八數十五九六亦相應	-12.9722
埏	-12.9722
洹	-12.9722
天甲子也下見辛	-12.9722
甃	-12.9722
陽之中其陰半	-12.9722
爲酒同類易施功兮非種難爲巧	-12.9723
倦恍惚狀若癡百脉鼎沸馳不得清澄居	-12.9723
雲錦之囊	-12.9723
左社右稷	-12.9723
壻	-12.9723
子土居上父火在下子臨父位	-12.9723
怍	-12.9723
靠	-12.9723
天甲子也下見壬	-12.9724
丁地壬也於丁壬之間中生木運也	-12.9724
各如其度黄老用究較而可御爐火之事	-12.9724
溫	-12.9724
節符非有工巧以制御之	-12.9724
踹	-12.9724
塢	-12.9724
天命之謂性率性之謂道	-12.9724
坤巧丘拜	-12.9724
生長化成收藏	-12.9724
雲氣之車驂駕	-12.9724
欲作服食仙宜以同類者	-12.9725
循股陰入髦中環陰器	-12.9725
曰復其見天地之心乎	-12.9725
摙	-12.9725
迤	-12.9725
倕	-12.9725
喟	-12.9725
焉夫能錬之可以	-12.9725
燾	-12.9725
和則隨從路平不邪邪道險阻傾危國家	-12.9726
侖	-12.9726
虵	-12.9726
被褐懷玉	-12.9726
運移不失中	-12.9726
左手撫心右手指	-12.9726
慊	-12.9726
袒	-12.9726
誷	-12.9726
韁	-12.9726
三川邵堯夫撰以會經運之	-12.9726
惟昔聖賢懷玄抱眞	-12.9726
澇	-12.9727
批	-12.9727
原本隱明内照形軀	-12.9727
風花雪月	-12.9727
又北百八十里曰	-12.9727
耍	-12.9727
竭殫家産妻	-12.9727
纜	-12.9728
䵟	-12.9728
天甲子也下見甲	-12.9728
幽玄若達此會乾坤	-12.9728
正化度也其化上鹹寒中	-12.9728
踣	-12.9728
可灸五壯	-12.9728
襯	-12.9728
雄陽播玄施雌陰化黄包	-12.9728
义	-12.9728
縟	-12.9729
彧	-12.9729
火記六百篇所趣等不殊	-12.9729
郴	-12.9729
來迎兆身上昇太清	-12.9729
兩臂内痛	-12.9729
名者以定情字者縁性言	-12.9729
商人棄貨志士家貧吾甚傷之定録	-12.9729
毘	-12.9729
耶律德光	-12.9729
雲之氣帀滿齋堂	-12.9729
成八也至天時於天數後八刻至也	-12.9729
水流不炎上火動不潤下	-12.9729
火不及從生其數二二	-12.9729
黷	-12.9729
隣	-12.9729
圮	-12.9729
克己復禮	-12.973
太上黄素四十四方	-12.973
崿	-12.973
瓣	-12.973
瘢	-12.973
膾	-12.973
見聞遂使宦者不	-12.973
十至天後十日下臨	-12.973
熱化二從本生數也長氣	-12.973
金太過從成其數九	-12.973
俘	-12.973
天甲子也下見丙	-12.973
輔自然物成易陶冶魚目豈	-12.973
纖芥不正悔吝爲賊	-12.973
幌	-12.973
一生二二生三	-12.973
丙水運其數六	-12.973
曰同歲會也筭數	-12.973
近取諸身遠取諸物	-12.973
三日出爲爽震受庚西方	-12.973
天天令不正故小虚	-12.973
邗	-12.973
辛地丙也於丙辛之間中生水運也	-12.9731
貰	-12.9731
鄜	-12.9731
金魚玉龍各一枚	-12.9731
丘劉譚馬	-12.9731
幣	-12.9731
方圓徑寸混而相拘	-12.9731
朔旦爲復陽氣始通	-12.9731
也地從奇即先左間	-12.9731
脉之所流也刺可入同身寸之三分留	-12.9731
龍陽以三立陰以八通故三日震動八日	-12.9732
二見龍和平有明三五德就乾體乃成	-12.9732
逆之者凶順之者吉按	-12.9732
天甲子也下見戊	-12.9732
即大間大間即左右俱間	-12.9732
味歸形形歸氣氣歸精	-12.9732
尫	-12.9732
窮理盡性以至于命	-12.9732
遇希有能成廣求名藥與道乖殊	-12.9732
氣之實也則宜瀉之	-12.9732
七至天後七日下臨	-12.9732
刻人氣在隂分水下	-12.9732
蚪	-12.9733
治之以甘温	-12.9733
即小間小間即一間也地從奇即	-12.9733
鷇	-12.9733
殉	-12.9733
筍	-12.9733
箒	-12.9733
反而求之吾身	-12.9733
属	-12.9733
一撞三關直	-12.9733
柸	-12.9733
九三夕惕虧折神符盛衰漸革終還其初	-12.9733
訕	-12.9734
夐	-12.9734
龍呼於虎虎吸龍精兩相飲食俱相貪	-12.9734
允執厥中	-12.9734
楛	-12.9734
倭	-12.9734
三素雲也其時	-12.9735
剛柔迭興更歷分	-12.9735
三里在膝下同身寸之三寸	-12.9735
㚟	-12.9735
孤陰寡陽	-12.9735
景行道受仙之日也至其日如上法清旦	-12.9735
膝股内前廉入腹	-12.9735
魁𩲃𩵄䰢魓𩳐魒	-12.9735
四十六日明日居	-12.9735
或以招禍或以致福或興太平或造兵革	-12.9735
鋟	-12.9736
䱱	-12.9736
節盡相禪與繼體復生龍	-12.9736
令蘇秦通言張儀結媒發辯利	-12.9736
八正神明論	-12.9736
脫空王老	-12.9736
黄土金之父流珠水之母水以土爲鬼土	-12.9737
之籍係欲界	-12.9737
對化之地其勝	-12.9737
𥹋	-12.9737
修潔有積則	-12.9737
终	-12.9737
觧	-12.9737
唯變所適	-12.9738
恂	-12.9738
隲	-12.9738
不知常妄作凶	-12.9738
刁	-12.9738
售	-12.9738
離爲日坎爲月	-12.9738
善叓父母之	-12.9738
䳜	-12.9739
駘	-12.9739
楪	-12.9739
管括微密	-12.9739
絶聖棄智	-12.9739
假使二女共室顔色甚姝	-12.9739
窈窕淑女君子好逑雄不獨處雌不孤居	-12.9739
舋	-12.974
鈿	-12.974
眞人譚景昇譔	-12.974
蹌	-12.974
用湯飛龜舞蛇愈見乖張	-12.9741
兩浙錢鏐	-12.9741
钮	-12.9741
磋	-12.9741
男女媾精萬物化生	-12.9741
餞	-12.9741
奮舒美辭推心調諧	-12.9741
太陽流珠常欲去人卒得金華轉而相因	-12.9742
上下同法視其部中有浮絡者皆	-12.9742
畤	-12.9743
消息應鍾律升降據斗樞	-12.9743
淤	-12.9743
橈	-12.9743
絡盛則入客於經	-12.9743
左間不右間從偶即右間不左間也	-12.9743
庠	-12.9744
間也地從奇即	-12.9745
扼	-12.9747
𩀱	-12.9747
萬舉萬全	-12.9747
玗	-12.9747
塞兌垂簾	-12.9748
又東南二百里曰	-12.9748
鬬	-12.975
勿刺已刺勿	-12.975
謔	-12.9751
脉搏堅而長	-12.9751
覯	-12.9752
舎	-12.9752
玄元玉皇上道君	-12.9753
疸	-12.9753
侄	-12.9753
蕉	-12.9753
日拜䟽玉斧言	-12.9754
蕨	-12.9755
降地主窒地	-12.9755
忸	-12.9757
䑞	-12.9758
犁	-12.9759
桉	-12.976
乞伏乾歸	-12.976
𦔳	-12.9762
碭	-12.9763
蹕	-12.9764
暠	-12.9764
寗	-12.9766
亣	-12.9767
妘	-12.9769
鬨	-12.9769
肁	-12.9774
墝	-12.9774
侗	-12.9775
伋	-12.9784
以乾卦言則應乾之	-12.9784
戊地癸也於戊癸之間中生火運也	-13.0054
丙子丁丑戊寅己卯庚辰辛巳壬午癸未	-13.0899
懁	-13.1637
澼	-13.1639
家不伏欲來平	-13.1649
之端也爲井金溜於	-13.166
也爲井木溜於	-13.1661
憹	-13.1665
端正則和利難傷	-13.1665
從兆泥丸中入下布	-13.1665
命人人知之以求	-13.1669
爲禍星常欲禍	-13.1669
舌卷卵縮	-13.167
水運太過從成其數六	-13.1674
瀑	-13.1675
𩩻	-13.1675
君子居其室出其言善則千里之外應之	-13.1676
吸入腎與肝	-13.1676
用凉遠凉用	-13.168
蓇	-13.1684
蠃	-13.1685
戴繡冠幘	-13.1685
丹術著明莫大乎金火	-13.1686
蚿	-13.1687
涬	-13.1688
縊	-13.1688
壊	-13.1688
陘	-13.1689
綯	-13.1693
太過申陽年筭數加	-13.1693
薄蝕掩冒相傾	-13.1694
狢	-13.1695
灣	-13.1695
獜	-13.1695
酋	-13.1695
𪇱	-13.1696
丹砂木精得金乃并金水合處木火	-13.1696
萯	-13.1697
譌	-13.1697
又一拜起曰上煩	-13.1697
葅	-13.1698
楸	-13.1698
挨	-13.1698
蜋	-13.1698
母二眞之神父諱	-13.1698
秘符母諱	-13.1698
三素雲也存禮密呪皆如上法	-13.1698
之臟其臟精上形爲	-13.1698
逄	-13.1699
沂	-13.1699
索而得男故謂之	-13.1699
帝王承御千載常存	-13.17
繋	-13.17
异	-13.17
徂	-13.17
号	-13.17
犳	-13.17
黿	-13.1701
乾健盛明廣被四鄰	-13.1701
沁	-13.1701
先有紫氣見見畢次有黄氣自己横流至	-13.1702
旣竭亡失至神	-13.1702
蘼	-13.1702
六十卦用張布爲輿	-13.1702
喃	-13.1702
堇	-13.1702
至日閉關商旅不行后不省方	-13.1702
忺	-13.1702
以棗肉和爲丸	-13.1702
微小爲消癉滑甚爲	-13.1702
爰清子至命篇	-13.1702
一呼之間脉凡	-13.1702
始文使可修	-13.1702
偊	-13.1703
乾動而直氣布精流坤靜而翕爲道舍廬	-13.1703
此乙巳生丙午乙亥生丙子丙	-13.1703
臨爐施條開路正光光耀	-13.1703
襞	-13.1703
返砂服之一兩即	-13.1703
亥厥隂正化在泉也故亥爲乾其數六	-13.1704
霪	-13.1704
徯	-13.1704
男生而伏女偃其軀	-13.1704
獪	-13.1704
閶	-13.1704
趂	-13.1704
内踝之後入足下	-13.1704
渙	-13.1704
至一吸之間脉亦	-13.1704
太過寅陽年筭數加十	-13.1705
設位者列陰陽配合之位	-13.1705
下士聞道大笑之	-13.1706
綴斯愚陶冶有法度未	-13.1706
》	-13.1706
攷	-13.1707
杌	-13.1707
珞	-13.1707
穠	-13.1707
糝	-13.1707
其獸多㸲牛羬羊	-13.1707
聖功生焉神明出焉	-13.1707
九重乃叩齒九通咽液九過祝曰	-13.1707
神也於是存入星中共坐	-13.1707
身中三宫三一三𡖖及我合七人我	-13.1707
陽神日魂陰神月魄魂之與魄互爲室宅	-13.1707
怵	-13.1707
箠	-13.1708
褚氏遺書	-13.1708
厢	-13.1708
紇	-13.1708
搦	-13.1708
上厥陰木中少	-13.1708
甘温下酸平	-13.1708
簞	-13.1709
饜	-13.1709
御者執銜轡	-13.1709
則衰子母然也	-13.1709
接手於兩膝上閉炁瞑目内視存	-13.1709
寒淫所勝平以辛熱濕淫於内治以苦熱	-13.1709
媱	-13.171
膨	-13.171
見則其邑大旱	-13.171
常有欲以觀其徼	-13.171
袵	-13.171
謎	-13.171
開傷門應塞門	-13.171
之訣福德助祐我	-13.171
右二篇有楊書	-13.171
飊	-13.171
午陽年筭數加十	-13.171
乃終其色深其行疾	-13.171
九日赤氣下生地氣奉運	-13.171
壬戌二癸亥三經辰之	-13.171
屹	-13.1711
經氣已至愼守勿失	-13.1711
之制伏而役用於	-13.1711
斗亦自有圖存想成	-13.1711
委志歸虚无	-13.1711
蹻之郄刺可入同身寸之	-13.1712
下手速修猶太遲	-13.1712
睟	-13.1712
玲	-13.1712
裀	-13.1712
年可十三四許	-13.1712
思之務令熟兮反覆視上下千周	-13.1712
葭	-13.1712
荐	-13.1713
形容虚寂不可覩匡郭以消亡謬誤	-13.1713
乙金運其數四四	-13.1713
鰥	-13.1713
棧	-13.1713
者從缺盆循頸上頰至目	-13.1713
鏑	-13.1713
肄	-13.1713
在建州建陽縣	-13.1713
髏	-13.1713
捻去災訣歩五星九遍誦五行	-13.1713
陽數已訖訖則復起推情合性轉而相與	-13.1713
俞宂在第	-13.1713
適王王者不受邪	-13.1713
正法眼藏涅槃妙心	-13.1714
坤初變成震三日月出庚	-13.1714
木始治地也風行於地酸物乃生後	-13.1714
㹠	-13.1714
肝在志爲怒	-13.1714
闠	-13.1714
苧	-13.1714
埭	-13.1714
河車不敢暫留停	-13.1714
洞曉陰陽深達造化	-13.1714
窈窈㝠㝠	-13.1714
升熬於甑山兮炎火張設下白虎	-13.1714
嵬	-13.1715
胙	-13.1715
昻	-13.1715
燥淫於内治以苦温	-13.1715
之仙何謂也致之有道乎子鍾離子曰	-13.1715
砂入五内霧散若風雨薰蒸達四肢顔色	-13.1715
鰂	-13.1715
爲蕤賔賔服於陰陰爲主人	-13.1716
地甲子也故天庚地乙也	-13.1716
得水漿二氣玄且遠感化尚相通何	-13.1716
陰陽得其配兮淡泊	-13.1716
摳	-13.1716
鋋	-13.1716
嶢	-13.1716
浡	-13.1716
葌	-13.1716
玄幽遠眇隔閡相連	-13.1716
襦	-13.1716
膞	-13.1716
鉛爲芽母芽爲鉛	-13.1716
齕	-13.1716
坎男爲月離女爲日日以施德月以舒光	-13.1716
引内養性黄老自然含德之厚歸根	-13.1716
二位也至地後二日	-13.1716
始治地也燥行於地辛物	-13.1716
生後三日運氣同下間物同生也	-13.1716
祝十八篇一遍	-13.1716
胃脘當心而痛上支兩脅	-13.1716
太過子陽年筭數加	-13.1717
三十度度竟復更始原始要終存亡之緒	-13.1717
萬世可循序以御政行之不	-13.1717
亥望先有黑氣見見畢次有青氣自壬至	-13.1717
黄氣下生地氣奉運二十	-13.1717
聃	-13.1717
入腹屬脾絡胃	-13.1717
慈母育養孝子報恩	-13.1717
瑁	-13.1717
雲行雨施品物流形	-13.1717
恍兮惚兮	-13.1717
此其爲陽息者也	-13.1717
蝨	-13.1717
赤丹金精石景水母	-13.1717
歲之驗也次六旬	-13.1717
藘	-13.1717
義設刑當仁施德	-13.1718
榆莢墮落還歸本根刑德相負晝夜始分	-13.1718
駃	-13.1718
軋	-13.1718
太始天元册文	-13.1718
起於中焦下絡大腸還循胃口上鬲屬肺	-13.1718
山其陽多玉其隂多	-13.1718
溱	-13.1718
物無陰陽違天背	-13.1718
修飛步之道當思夫人姓諱形像并足上	-13.1719
茈	-13.1719
穆惶恐言	-13.1719
闤	-13.1719
審用成物世俗所珍羅列三條枝莖相連	-13.1719
篷	-13.1719
膽胃大腸小腸膀胱	-13.1719
薙	-13.1719
鄣	-13.1719
地之濕氣感則害皮肉筋脉	-13.1719
炎之不盛不虚以經取之盛者	-13.1719
臷	-13.1719
暝目陰呪曰	-13.1719
姝	-13.1719
後五日黑氣下生地氣奉運	-13.1719
致虛極守靜篤萬物並作吾以觀其復	-13.172
元牝雞自卵其雛不全夫何故乎配合未	-13.172
朔旦屯直事至暮蒙當受	-13.172
環陰器抵少腹	-13.172
子欲不死修崑崙	-13.172
晨君内諱知者則	-13.172
會稽禹穴道士范翛然撰	-13.172
磴	-13.172
𡨚	-13.172
六穴也左右言之則十二俞也	-13.172
化爲血血化爲精精化爲	-13.172
乃凶逆化也正化之地	-13.172
刉	-13.172
煽	-13.172
地甲子也故天丙地辛也於丙辛之間中	-13.172
酉三庚戌四辛亥五壬子六癸丑七甲寅	-13.172
八日赤氣下生地氣奉運	-13.172
辰太陽對化在泉也故辰爲土其數五	-13.172
霶	-13.1721
稀稠得所	-13.1721
神室者丹之樞紐	-13.1721
寥廓恍惚莫知其端先迷失軌後爲主君	-13.1721
滃	-13.1721
佐以甘辛以	-13.1721
同出異名皆由一門	-13.1721
乃凶逆化也對化之地	-13.1721
狻	-13.1721
運交時面向戌望先有温白色見	-13.1721
四時順宜與氣相得	-13.1721
漸歷大壯俠列卯門	-13.1721
胞食氣鳴腸胃吐正吸	-13.1722
繰	-13.1722
猳	-13.1722
天性人也人心機也	-13.1722
蠐	-13.1722
三五不交剛柔離分施化之精天地自然	-13.1722
廿	-13.1722
瞰	-13.1722
士農工商	-13.1722
愀	-13.1722
軄	-13.1722
一年易氣二年易血三年易	-13.1722
上太徵少陽相火司天天	-13.1722
佘	-13.1722
冠足躡九色之履手執	-13.1722
就湯鑊兮摧折傷毛羽漏刻未過半兮	-13.1722
肉五年易髓六年易筋七年易骨八年易	-13.1722
乃生後五日運氣同下間物同生也	-13.1722
水始治地也寒行於地鹹物	-13.1722
文字鄭重說世人不熟思尋度其	-13.1722
熄	-13.1723
驍	-13.1723
知其白守其黑	-13.1723
利用安身隱形而藏	-13.1723
鑣	-13.1723
鬒	-13.1723
辰極受正優游任下	-13.1723
欲散急食辛以散之	-13.1723
溟溟涬涬	-13.1723
胄	-13.1723
隩	-13.1723
夕惕若厲	-13.1723
彰播施柔暖黎烝得常	-13.1723
玉女十二人從天	-13.1723
巳厥隂對化在泉也故巳爲巽其數四	-13.1723
廑	-13.1723
耑	-13.1723
臾	-13.1723
法象莫大乎天地兮玄溝數萬里	-13.1723
四者混沌列爲龍虎龍陽數奇虎陰數偶	-13.1723
小間小間即一間也	-13.1723
腎神玄冥字育嬰	-13.1724
煜	-13.1724
九三君子終日乾乾	-13.1724
譊	-13.1724
隨波逐浪	-13.1724
其變震驚飄驟	-13.1724
姓諱形像留立	-13.1724
舍可以長存配以服食	-13.1724
之日有變占在	-13.1724
天甲子也下見己	-13.1724
太隂正化司天土歸本其數五通運其數	-13.1724
輻輳而輪轉出入更卷舒	-13.1724
屬脾絡胃上鬲俠咽連舌本散舌下	-13.1724
戊月精離己日光日月爲易剛柔相當土	-13.1724
青赤白黑各居一方皆禀中宫戊己之功	-13.1724
四日運氣同下間物同生也十	-13.1724
己也於甲己之間中生土運也即地見己	-13.1724
稽神樞第	-13.1725
褻	-13.1725
九層之臺起於累土千里之行始於足下	-13.1725
心苦緩急食酸以收之	-13.1725
甓	-13.1725
坎離匡郭運轂正軸	-13.1725
天地者乾坤之象也設位者列	-13.1725
晦至朔旦震來受符當斯之	-13.1725
註訣在左手第	-13.1725
曰開通天庭使我長生	-13.1725
鞲	-13.1725
之時以待小運生乎元氣傳送	-13.1725
補養我身便三味口三咽止仰呪曰	-13.1725
部龍西虎東建緯卯酉刑德並會相見	-13.1725
雲冠覆我身思	-13.1725
𡨥	-13.1725
河鼓臨星紀兮人民皆驚駭晷	-13.1726
甄命授第	-13.1726
穡	-13.1726
圊	-13.1726
主柔剛爲太過柔爲不及太過即	-13.1726
内氣不出外氣不入	-13.1726
乞迴神駕下降	-13.1726
故鉛外黑内懷金華	-13.1726
犖	-13.1726
腮	-13.1726
曙	-13.1726
胇	-13.1726
參同契者敷陳梗槩不能純一	-13.1726
畆	-13.1726
寞	-13.1726
髕	-13.1727
三光陸沈温養子珠	-13.1727
妄前却兮九年被凶咎皇上覽	-13.1727
證居則觀其象準擬其形容立表以	-13.1727
拿	-13.1727
戹	-13.1727
御白鶴兮駕龍鱗	-13.1727
左間不右間也從偶即先右間不左間也	-13.1727
巨勝尚延年還丹可入口金性不敗朽故	-13.1728
氣索命將絶休死亡魄魂色轉更	-13.1728
天土衝對位化標從成其數五通運其數	-13.1728
三百八十四爻據爻摘符符謂六十四卦	-13.1728
履霜堅冰	-13.1728
滉	-13.1728
並由中宫土德黄帝之功	-13.1728
五巳五亥歲也	-13.1728
嘴	-13.1728
恐如人將捕之	-13.1728
爽靈胎光幽精	-13.1728
血氣未并五臓安定	-13.1728
鯁	-13.1728
亦病不當其位亦病位不能	-13.1728
勿食苦熱物佐火之	-13.1728
天地之雌雄兮徘徊子與午寅申	-13.1728
斯之妙術兮審諦不誑語傳於億	-13.1728
歷其麤細或可以	-13.1728
胼	-13.1728
釱	-13.1728
爲萬物寳術士服食之壽命得長久	-13.1728
乙亥丙子丁丑戊寅己卯	-13.1729
癤	-13.1729
要道魁柄統化綱紐	-13.1729
位也亥爲乾其數六	-13.1729
對化地虚運勝乃甚	-13.1729
崙	-13.1729
其直行者從腎上貫肝鬲入肺中	-13.1729
國有六音之銘是高	-13.1729
朢	-13.1729
終身子繼父業孫踵祖先傳世迷惑竟	-13.1729
先左間不右間	-13.1729
衊	-13.1729
寒化六從標成數也下臨心	-13.173
鴿	-13.173
丱	-13.173
物生謂之化物極謂之變	-13.173
迴便心念微言	-13.173
酹	-13.173
駈	-13.173
毛悴色夭死於	-13.173
爲珠蓬蒿不成檟類同者相從事乖不成	-13.173
蚕	-13.173
第一椎下兩傍	-13.1731
常存累積長久變形而仙	-13.1731
丑太隂對化在泉也故丑爲土其數五	-13.1731
鉏	-13.1731
闞	-13.1731
鮪	-13.1731
脾苦濕急食苦以燥之	-13.1731
澶	-13.1731
無勞爾形無揺爾精	-13.1731
詁	-13.1731
鮎	-13.1731
麪	-13.1731
刻人氣在少陽水下	-13.1732
刻人氣在陽明水下	-13.1732
本也故生數對司於	-13.1732
文字約易思事省不	-13.1732
後九日白氣奉上	-13.1732
鄗	-13.1732
蠁	-13.1733
氣見見畢次有黄氣自甲横流至	-13.1733
内輔骨之後大筋之下	-13.1733
復卦建始初	-13.1733
辤	-13.1733
三光合度以致太平	-13.1733
氂	-13.1733
雲之車驂駕	-13.1733
乾坤毁則無以見易	-13.1733
少隂君火對化在泉也故子爲坎其數一	-13.1733
𦛗	-13.1733
盍	-13.1734
嶒	-13.1734
蹬	-13.1734
留穀二斗水一斗五升	-13.1734
成七也至天時於天數後七刻至也至後	-13.1734
灋	-13.1734
至天時於天數後九刻至也至後	-13.1734
骹	-13.1734
九四或躍進退道危艮主進止不得	-13.1734
地甲子也故天癸地戊	-13.1734
水不及從生其數一一	-13.1734
聲香味觸法	-13.1735
君夫人共乘八景	-13.1735
𥉛	-13.1735
先治其標後治其本	-13.1735
䕃	-13.1735
經緯奉日使兼并爲六十剛柔有表裏	-13.1735
若以野葛一寸巴豆一兩入喉輙僵不得	-13.1735
趄	-13.1735
》、《	-13.1735
㳺	-13.1735
參伍以變錯綜其數	-13.1735
氣來虚微是謂不及病在内	-13.1735
爲九十章以應陽九之數	-13.1735
紡	-13.1735
五行錯王相據以生火性銷金金伐木榮	-13.1735
棄正從邪徑欲速閼不通猶盲	-13.1735
指之端去爪甲角如韭葉	-13.1735
五丑五未歲也	-13.1736
綝	-13.1736
鋒芒鋒芒光垂	-13.1736
丰	-13.1736
貎	-13.1736
煨	-13.1736
立竿見影呼谷傳響豈不靈哉天地至象	-13.1736
即禹歩一遍躡地紀三遍配衣轉天關指	-13.1736
黄中漸通理潤澤達肌膚初正則終	-13.1736
畛	-13.1736
棼	-13.1737
眙	-13.1737
内聽得三傳	-13.1737
手三陰三陽足三陰三陽	-13.1737
哉周易參同契發揮卷之	-13.1737
褶	-13.1737
碁	-13.1737
下臨肺氣上從白氣奉天	-13.1737
有動氣按之牢若痛	-13.1737
前却違黄老曲折戾九都	-13.1737
一至天後十一日下臨	-13.1737
歸根曰靜靜曰復命	-13.1738
鑛	-13.1738
其雄守其雌	-13.1738
猒	-13.1738
轍處中以制外數在律	-13.1738
上正宫太隂土司天濕行於上	-13.1738
其修潔攝息有定則	-13.1738
躓	-13.1738
酖	-13.1738
𧖟	-13.1738
訐	-13.1739
飆	-13.1739
肺苦氣上逆急食苦以泄之	-13.1739
離形去智同於大通	-13.1739
先有碧氣見見畢次有赤氣自癸横流至	-13.1739
奉告承尊體安和以慰	-13.1739
璀	-13.1739
與不及其病皆何如岐伯曰太過則令人	-13.1739
苕	-13.1739
愎	-13.1739
水不起朱雀爲火精執平調勝負水	-13.174
水衝對位化標從成其數六通運其數十	-13.174
推情合性轉而相與	-13.174
符在三部雜符	-13.174
墯	-13.174
丹景道精隱地八術	-13.174
怛	-13.174
欲長生三一當明	-13.174
皛	-13.174
琶	-13.174
邡	-13.174
於鉢中熟研	-13.174
晝夜各一卦用之依次序	-13.174
湖水神廟在	-13.174
李審言龍圖	-13.1741
得上昇仙日及	-13.1741
正化司天水歸本從生其數一通運其數	-13.1741
五行守界不妄盈縮易行周流屈伸	-13.1742
不歸正角盛而還衰勝而不實	-13.1742
麑	-13.1742
芋	-13.1742
命之星及生日所管之宿	-13.1742
喜怒悲憂恐	-13.1742
洌	-13.1742
正化司天金歸本從生其數四通運其數	-13.1742
騃	-13.1743
纎	-13.1743
爲寫吸爲補夫	-13.1743
爲輿龍馬就駕明君御	-13.1743
腎苦燥急食辛以潤之	-13.1743
靈之公或號	-13.1743
及吾無身吾有何患	-13.1743
瞍	-13.1743
凡二神共守我	-13.1743
可入三分留三呼進	-13.1744
司頓首稽首三百數然後靖跪	-13.1744
府則神弟視	-13.1744
禮祈無上正眞大道太眞太寶内内及	-13.1744
雄陽播玄施	-13.1744
冨	-13.1744
是死炁之門二神固密守之使	-13.1744
鬯	-13.1744
巽繼其統固濟操持	-13.1745
對化司天木衝對位化標從成其數八	-13.1745
孀	-13.1745
峴	-13.1745
閙	-13.1745
捧心至誠定息靜念	-13.1746
沐浴蘭湯使身意清	-13.1746
此兩孔穴法金氣亦相胥	-13.1746
嵋	-13.1746
壙	-13.1747
劭	-13.1747
憮	-13.1747
搥	-13.1747
天三地四天五地六天七地八天九地十	-13.1747
輭	-13.1747
佖	-13.1747
昌利化飛鶴山眞一子彭曉	-13.1747
戛	-13.1748
㝢	-13.1748
三光陸沉温養子	-13.1748
楢	-13.1748
逯	-13.1748
醑	-13.1749
捽	-13.1749
河出圖洛出書	-13.1749
二五之精妙合而凝	-13.1749
茨	-13.1749
金衝對位化標從成其數九通運其數十	-13.1749
卯五酉歲也	-13.175
鸛	-13.175
忮	-13.175
華之芝見賜出	-13.175
𧵥	-13.1751
南極老人元光	-13.1751
不及侮而乘之者	-13.1751
乾道成男坤道成女	-13.1752
其陽多赤金其隂多	-13.1752
用長針於口中温針先以左手按穴刺	-13.1752
翎	-13.1753
繢	-13.1753
塋	-13.1753
稌	-13.1754
滿室莫之能留守之者	-13.1754
醬	-13.1754
國第一品銘	-13.1754
殅	-13.1754
栝	-13.1755
一百六十七億九千六百一十六萬	-13.1756
菲	-13.1757
物之化之變而有	-13.1757
迓	-13.1757
左青龍右白虎前朱雀後玄武	-13.1758
貆	-13.1758
鼇	-13.176
冥寂玄通元	-13.1761
殮	-13.1762
砧	-13.1762
刷	-13.1763
磨磚作鏡	-13.1763
上九亢龍戰德于野	-13.1763
厚之以利則民競	-13.1763
因母立兆基	-13.1766
之氣失矣失積則	-13.1766
慟	-13.177
入地也自甲至	-13.1772
釡	-13.1773
道之尊德之貴	-13.1774
欲發鬱亦須待時	-13.1774
湜	-13.1778
不澤毛折乃死	-13.1781
氣經於四宿下合	-13.1784
胆	-13.1786
尪	-13.1807
銑	-13.1808
坎離冠首光耀垂敷玄冥難測不可畫圖	-13.1815
秃髮傉檀	-13.1816
踰時二十三日典守弦期	-13.1846
人常失道非道失人人常去生非生去	-13.349
於戊癸之間中生火運也即地見戊	-13.3732
少陰太柔少柔之用數	-13.4122
脉起於胸中出屬心包	-13.4141
人要同天意惠	-13.416
卮	-13.4168
福星常救止伏其禍禍不敢行人得長生	-13.4168
先有赤氣見見畢次有黑氣自丙至	-13.417
鵕	-13.4172
抓	-13.4175
䳋	-13.4178
䃌	-13.4178
入口中咽之三七而止	-13.4179
十一藏取决於膽	-13.4179
閴	-13.4179
太陽少陽太剛少剛之用數	-13.418
灊	-13.418
金不失其重日月形如常	-13.4181
𤣎	-13.4182
慴	-13.4182
治在蟠針劫刺以知爲數以痛爲輸	-13.4182
帝之精詠眞文三通	-13.4182
时	-13.4183
金本從日生朔旦受日符	-13.4183
莫作傷心事傷心	-13.4183
左手第三指第三節	-13.4183
畜微稚老枯復榮薺麥	-13.4185
羅列三條枝莖相連同出異名皆由一門	-13.4187
楂	-13.4187
𦿜	-13.4187
鐔	-13.4187
是山也廣員百里	-13.4189
靣	-13.4189
之氣是時不可下功也	-13.4189
鬣	-13.4189
朶	-13.419
清陽爲天濁陰爲地	-13.419
𣗳	-13.419
夢寐感慨之心歡意	-13.419
䍧	-13.419
帝夫人從月光中來在我	-13.419
髂	-13.4192
乾初缺成巽平明月見辛	-13.4192
自見徐升其身以入泥丸自	-13.4192
朞	-13.4193
荻	-13.4193
潢	-13.4193
迕	-13.4193
栻	-13.4193
艮二十三下弦下弦水半斤月出於丙南	-13.4193
轢	-13.4194
因看崔公入藥鏡令人心地轉分明	-13.4194
伉	-13.4194
精則神明神明則長	-13.4194
窶	-13.4194
所部不但所部乃太上之所主吾知六天	-13.4194
晦土木金將化繼坤生震龍	-13.4194
氣乘矣宣明五氣篇曰精氣并於	-13.4194
仰以成泰剛柔並	-13.4195
依文說妄以意爲之端緒	-13.4195
天地與我並生萬物與我	-13.4196
鞫	-13.4196
自謂必延期遽以夭命死	-13.4196
牷	-13.4196
凊	-13.4196
三物相含受變化狀若神	-13.4196
不滿五十動而一止	-13.4196
五苦八難九厄百病	-13.4196
㰦	-13.4196
此丙午生丁未丙子生丁	-13.4197
鍊氣成神名曰神人	-13.4197
有餘而往不足隨之不足而往有餘從之	-13.4197
𡼏	-13.4197
祙	-13.4197
湓	-13.4198
蠪	-13.4199
支别者從心系上俠咽喉	-13.4199
渦	-13.4199
瑤	-13.4199
兩伏火鼓得至寶	-13.4199
膹	-13.4199
洗濯羽翮振索宿塵	-13.4199
譖	-13.42
極之下以上毛際循腹裏上關元至咽喉	-13.42
紫雲飛精羽蓋從十二鳳凰三十六玉女	-13.42
光鄕上清里中	-13.42
歸焉所以聖人有言曰	-13.42
髴	-13.42
獋	-13.42
天符道漸剥難以應玄圖	-13.42
躰	-13.42
捘	-13.42
䖝	-13.4201
霛	-13.4201
其要者一言而終不知其要流散無窮	-13.4201
獳	-13.4201
褫	-13.4201
魃	-13.4201
懔	-13.4203
礀	-13.4203
膽神龍曜字威明	-13.4203
坤三變成乾十五三陽備圓照東方甲	-13.4203
心欲耎急食鹹以耎之	-13.4203
玉寶函之中印以	-13.4203
少語少笑少愁少樂少喜少怒少好少惡	-13.4204
棃	-13.4204
𥋾	-13.4204
鬐	-13.4204
𥫽	-13.4204
或君驕溢亢滿違道	-13.4204
申望只有白氣自庚	-13.4204
出入無疾立表微剛黄	-13.4205
菓	-13.4205
太徵少宫太商少羽	-13.4205
男生而伏女偃其軀禀乎胞胎受氣元初	-13.4205
絢	-13.4205
伫	-13.4205
此己卯生庚辰己酉生庚戌庚金	-13.4205
玆	-13.4205
歘	-13.4205
在肩上横骨陷者中	-13.4206
相去及刺灸分壯法如胃倉	-13.4206
大言微而㫖深	-13.4207
闒	-13.4207
糲	-13.4208
鋏	-13.4208
畢閉氣三息次進左足躡	-13.4208
若遂結舌瘖絶道獲罪誅寫情著竹帛	-13.4208
運太過辰陽年筭數加十	-13.4208
遥聞聲而相思	-13.4208
六爻之義易以貢	-13.4208
膊内俠脊抵腰中	-13.4208
身長生往往行之三年便獲不死之道	-13.4208
息行于榮之白道焉	-13.4208
滏	-13.4208
輴	-13.4208
金始治地辛物乃生	-13.4208
金鎖流珠引巻之十	-13.4208
紜	-13.4209
摛	-13.421
北方黑色入通於腎開竅於	-13.421
溯	-13.421
身長六寸六分著青寶神光錦	-13.421
證難以推移心專不縱横寢寐神相抱覺	-13.421
木皆摧傷佐陽詰商旅人君深自	-13.421
𤤠	-13.421
又不受故因此留結爲	-13.421
新校正云按全元起注本云	-13.421
絶群獨宴靜氣遺形	-13.421
肉之大會爲谷肉之小會爲谿	-13.421
𠑽	-13.421
帝君從日光中來在我之	-13.421
少隂君火正化在泉也故午爲離其數九	-13.421
籛	-13.4211
霜羅九色之綬頭戴紫元玄黄寶冠居九	-13.4211
南方赤色入通於心開竅於	-13.4211
畸	-13.4211
始畫八卦效法天地文王帝之宗	-13.4211
、	-13.4211
天道無適莫兮常傳與賢者	-13.4211
綆	-13.4211
故演作丹意乾坤不復言	-13.4211
酎	-13.4211
陰陽内感神氣交結	-13.4211
剸	-13.4211
火始治地熱行於地苦物乃生後	-13.4211
王而不受邪復欲還與	-13.4211
黄氣陽精三道順行	-13.4211
鱅	-13.4211
淵兮似萬物之宗	-13.4212
金化爲水水性周章火化爲土水不得行	-13.4212
惔	-13.4212
扶流起字道圭	-13.4212
巉	-13.4212
仙籍語論要記	-13.4212
恐泄天之符猶豫增歎息俛仰	-13.4212
運太過戌陽年筭數加十	-13.4212
繄	-13.4212
官有司各典所部	-13.4212
潏潏鼎沸馳兮暴湧不休止	-13.4212
焰照九億萬里中上有	-13.4212
色轉更爲紫赫然成還丹	-13.4212
濂	-13.4212
炱	-13.4212
甲戌乙亥丙子丁丑	-13.4213
四乙丑五丙寅六丁卯	-13.4213
木運也即地見丁	-13.4213
深淵浮游守規中旋曲以視	-13.4213
訣在左手第四指第一節	-13.4214
却入二寸爲洞房却入三寸爲丹田	-13.4214
襍	-13.4214
刺陽明出血氣刺太	-13.4214
逶	-13.4214
在温州永嘉縣	-13.4214
歩五星五遍以受長生訣也常以	-13.4214
謇	-13.4214
起於目内眦上額交巅上	-13.4214
宄	-13.4214
於乙庚之間中生金運也即地見乙	-13.4214
潏	-13.4214
退本卦三數以餘	-13.4214
丘山循遊寥廓與鬼爲鄰化形而仙淪寂	-13.4214
從頭流達足究竟復上昇	-13.4214
見畢次有黑氣自辛横流至	-13.4214
太平金闕帝晨後聖玄元上道君	-13.4215
閾	-13.4215
僥倖訖不遇聖人獨知之	-13.4215
瞼	-13.4215
罽	-13.4215
午未申爲秋酉戌亥爲冬	-13.4215
娼	-13.4215
時順節令閉口不用談天道甚浩廣太玄	-13.4215
钁	-13.4215
鉉	-13.4215
不肯受故留結爲積	-13.4215
九四或躍在淵	-13.4215
甲子甲戌甲申甲午甲	-13.4215
綮	-13.4215
要終存亡之緒	-13.4215
雲門下一寸乳上三肋間	-13.4215
司天天伏之運不勝	-13.4215
乃終其色深其行疾應時不移位吉二十	-13.4216
分然是五者并足	-13.4216
去内踝一寸上踝八寸交出	-13.4216
成七也於交地時後七刻	-13.4216
木生火父木下臨子火父臨子位順也	-13.4216
盛者寫之虚者補之	-13.4217
抔	-13.4217
皓若褰帷帳瞋目登高臺	-13.4217
蒐	-13.4217
不用尋冬至身中自有一陽生	-13.4217
俏	-13.4217
極怫怫被容中反者道之驗弱者德之柄	-13.4217
焙	-13.4217
玄白生金公巍巍建始初	-13.4217
資始統政不可復改觀夫雌雄交	-13.4217
俐	-13.4217
動靜休息常與人俱	-13.4217
詰責台輔	-13.4217
奂	-13.4217
澎	-13.4217
香官使者左右龍虎君	-13.4217
先天地生巍巍尊高旁有垣闕狀	-13.4217
出其胞骨弱可卷肉滑若鉛	-13.4217
夬陰以退陽升而前洗濯羽翮振索宿塵	-13.4217
薾	-13.4218
窌	-13.4218
吾言甚易知甚易行天下莫能知莫能行	-13.4218
旎	-13.4218
梃	-13.4218
乾爲父坤爲母	-13.4218
若褰帷帳	-13.4218
關節透自然精滿谷神存	-13.4218
熈	-13.4218
月受日化體不虧傷陽失其契陰侵其明	-13.4218
至九月甲戌月己得甲	-13.4218
孱	-13.4218
終於八十七刻半子正之中	-13.4218
𨇠	-13.4218
㫖曰祝畢叩齒九通畢	-13.4218
也君一臣三佐	-13.4218
先以左手按其源穴得動氣乃下針	-13.4218
啐	-13.4218
引驗見效校度神明推類結字原理爲	-13.4218
房六昴七張二	-13.4218
輶	-13.4218
開開門應生門斗建	-13.4218
入氣街中其支别者起胃下口循腹裏	-13.4219
庚寅二辛卯三壬辰四癸巳五	-13.4219
今中誥孔穴圖經	-13.4219
八月麥生天罡據酉子南午北互爲綱紀	-13.4219
未太隂正化在泉也故未爲土其數五	-13.4219
蒸兮興雲而爲雨泥竭	-13.4219
邪晝夜不卧寐	-13.4219
愿	-13.4219
天有五賊見之者昌	-13.4219
唾涕精津氣血液	-13.4219
葪	-13.4219
步斗宿六甲以日辰陰道厭九一濁亂弄	-13.4219
琦	-13.4219
神室設位變化在乎其中矣	-13.4219
一呼再至一吸再至	-13.4219
吸相貪欲佇思爲夫婦	-13.4219
桁	-13.4219
包囊衆石爲丹祖宗	-13.4219
辛酉十四壬戌十五癸亥十六	-13.4219
黮	-13.4219
三十輻共一轂當其無有車之用	-13.4219
周旋十二節節盡更親觀	-13.4219
水運也即地見辛	-13.4219
簦	-13.4219
一日死其動爲噫	-13.4219
以天五錯伍於中並列而求之其首尾各	-13.4219
便九嚥氣止開目服符修之	-13.4219
動則循卦節靜則	-13.4219
取之必切而驗之疏取之上氣和乃止	-13.4219
少陽相火正化在泉也故寅爲艮其數八	-13.4219
第一壘色潤地	-13.4219
流幽明本共居竊爲賢者談曷敢輕爲書	-13.422
六乙未七丙申八丁酉九	-13.422
壬寅十四癸卯十五甲辰十六乙巳十七	-13.422
太陽流珠常欲去人卒得金	-13.422
戊戌十己亥十一庚子十二辛丑十三	-13.422
在足外踝後跟骨上陷	-13.422
戌太陽正化在泉也故戌爲土其數五	-13.422
採二儀未判之氣奪龍虎始媾之精	-13.422
紫赫然成還丹粉提以一丸刀圭最爲神	-13.422
膠兮麴蘖化	-13.422
嚴父施令教敕子孫	-13.4221
亷	-13.4221
凡此六氣一十八候皆	-13.4221
擷	-13.4221
昉	-13.4221
有大患者爲吾有身	-13.4221
以酒爲漿以妄爲常醉以入房以	-13.4221
湯遭厄際水旱隔并柯葉萎黄失其華榮	-13.4221
二寸半徑八分分之少半	-13.4221
吮	-13.4221
洄	-13.4221
陰陽之始玄含黄芽五金之主北方河車	-13.4221
三五三五并與一兮都集歸	-13.4221
勤而行之夙夜不休服食三載輕舉遠	-13.4221
南午三者俱來朝兮家屬	-13.4221
坤乙三十日東北䘮其朋	-13.4221
子木居上父水在下子臨父位	-13.4221
憫後生好道之倫隨傍風采指畫古文著	-13.4221
日辰爲期度動靜有早晚	-13.4221
骨間動脉上去陷谷	-13.4221
聖人不虚生上觀顯天符天符有進退	-13.4221
得神不能自生神不得形不能自成形神	-13.4221
濕淫所勝平以苦熱寒淫於内治以甘熱	-13.4221
肝青爲父肺白爲母腎黑爲子脾黄爲祖	-13.4221
雄雌設陳挺除武都八石棄捐	-13.4222
貟	-13.4222
䪼	-13.4222
縠	-13.4222
出陽入陰流曜二方	-13.4222
纊	-13.4222
夫人駕十飛龍乘我流鈴西	-13.4222
寸田尺宅可治生	-13.4222
遒	-13.4222
鬃	-13.4222
不知持滿不時御神	-13.4222
贜	-13.4222
向扣齒九通而祝曰	-13.4222
周旋十二節節盡更須親	-13.4222
嬀	-13.4222
眴	-13.4222
返元近在我心不離己身抱一母	-13.4222
中肝五日死其動爲語	-13.4222
元精眇難覩推度效符	-13.4222
兩眉間却入一寸爲明堂	-13.4222
分著玄黄素靈之綬頭戴七稱珠玉之幘	-13.4222
土始治地也濕行於地甘物乃生後五日	-13.4222
用十五卦以象乎	-13.4222
肺三日死其動爲咳	-13.4222
霜羅九色之綬頭戴	-13.4222
其智絶思慮也夫無思無慮則專道無嗜	-13.4223
天始行天令也後十五日少徵來和	-13.4223
意等齊所趣不悖故復作此命五相類則	-13.4223
楨	-13.4223
肪	-13.4223
息於心中數至二百	-13.4223
實金翅之所棲自生	-13.4223
也修飛步之道當思夫人姓諱形像	-13.4223
上上禪善無量壽天	-13.4223
上部法天主胸以上至頭	-13.4223
窿	-13.4223
乾納甲壬坤納乙癸	-13.4223
以避焉以日言之則	-13.4223
撆	-13.4223
死魁臨於卯	-13.4223
炁此天炁赤化生	-13.4223
肉而充皮膚肥腠理而司開闔	-13.4223
肺者氣之本魄之處	-13.4223
膻中者臣使之官喜樂出焉	-13.4223
𣌜	-13.4223
𥿄	-13.4223
可知之矣以星經	-13.4223
晦朔間水盛坎侵陽火衰離晝昏陰陽相	-13.4223
第三壘石脂色澤地	-13.4223
第二壘剛色地	-13.4223
六三川邵堯夫撰	-13.4224
布脅肋循喉嚨之後	-13.4224
上見水運運勝地火也黑氣之下苦物	-13.4224
金逢望遠不堪嘗	-13.4225
裡	-13.4225
抉	-13.4225
鱖	-13.4225
一口吸盡西江水	-13.4225
至大至剛以直養而無害	-13.4225
循喉嚨之後上入頏顙	-13.4225
神是性兮氣是命神不外馳	-13.4225
終於六十二刻半酉正之中	-13.4225
肝神龍煙字含明	-13.4225
螽	-13.4225
蟜	-13.4225
〇	-13.4225
中焦下絡大腸還循胃口	-13.4225
列其條核實可觀分兩有數因而相循故	-13.4225
敓	-13.4225
日水始治天始行天令	-13.4225
洞虚稽古當元皇關雎建始初	-13.4225
若星經漢兮昺如水宗海	-13.4225
䳐	-13.4225
上正角厥隂木司天風行於上	-13.4225
可知之矣以月經	-13.4225
子金居上父土在下子臨父位	-13.4225
而覺歟或因其	-13.4225
逆火氣之下木不奉天	-13.4225
一呼若灸者可灸一壯	-13.4226
睚	-13.4226
一對談吐所謀學者加勉力留	-13.4226
精食氣形食味	-13.4226
在心内運天經晝夜存之自長生	-13.4226
惴	-13.4226
學者加勉力留	-13.4226
罌	-13.4226
蓆	-13.4226
方寸之中謹蓋藏	-13.4226
太平金闕後聖玉皇上道君	-13.4226
爲己之軸轄動靜不竭窮	-13.4226
畗	-13.4226
霤	-13.4226
乘雲氣入我身中安鎭	-13.4226
始於六十二刻六分	-13.4226
終於三十七刻半午正之中	-13.4226
者吐生光七八道已訖	-13.4226
虧明金不失其重日月形如常金本從	-13.4226
加黄芽賢者能持行不肖母與俱古今道	-13.4226
可知之矣以辰經	-13.4226
地見少陽在泉少陽相火也	-13.4226
坰	-13.4226
正化之資還資其二	-13.4226
箔	-13.4226
四七乖戾侈離俯仰	-13.4227
有形易忖量無兆難慮謀作事令可法	-13.4227
腎藏受病乆及膀胱鱗蟲	-13.4227
凓	-13.4227
揜	-13.4228
蘚	-13.4228
佺	-13.4228
坤乙三十日東北喪其朋	-13.4228
無胃氣曰逆逆者死	-13.4228
弇	-13.4228
蝯	-13.4228
水流濕火就燥	-13.4228
一闔一闢謂之變往來不窮謂之通	-13.4228
禰	-13.4228
碓	-13.4228
有無互相制上有青龍居	-13.4228
角亢氐房心尾箕	-13.4228
臨泣目窗正營承靈腦空	-13.4228
胎於洪氏之胞	-13.4228
腹脹涇溲不利	-13.4228
跟後街中動脉	-13.4228
卬	-13.4229
人能常清靜天地悉皆歸	-13.4229
苾	-13.4229
墅	-13.4229
贄	-13.4229
兩無宗一有靈化妙難窺	-13.4229
奔走江淮之枯竭兮水流注于海	-13.4229
山治在犍爲郡南安縣去成都一百	-13.4229
戯	-13.4229
所生三分减一管率長	-13.4229
殍	-13.4229
類如雞子黑白相扶	-13.423
位也巳爲巽其數四	-13.423
正化地實運勝减半	-13.423
黶	-13.423
赤童戲朱雀變化爲青龍	-13.423
銛	-13.423
丙戌三丁亥四戊子五己丑六	-13.423
悃	-13.423
箬	-13.423
虱	-13.423
豨	-13.423
精義入神以致用	-13.423
風疝濇則病積	-13.423
審五行定銖分	-13.423
詡	-13.423
上太極瓊宫玉寶之府丹靈鄕洞元里中	-13.423
之籍係種民天	-13.423
委志歸虚無無念以爲常	-13.423
運即火生土父臨子位順也	-13.423
運氣下同間物同生也二十	-13.4231
丁巳十一戊午十二己未十三庚申十四	-13.4231
金華先倡有頃之間	-13.4231
刲	-13.4232
取標而得者有取	-13.4232
髽	-13.4232
下至氣街中而合以下髀	-13.4232
稗	-13.4232
入五内霧散若風雨	-13.4232
聖人奪得造化意手摶日月安爐	-13.4232
褐懷玉外似狂夫	-13.4232
視萬里魂魄返嬰滅鬼却魔來致千靈上	-13.4232
多桃枝鈎端	-13.4232
懻	-13.4232
日魂月魄若箇識識者便是	-13.4232
星九過九度捻	-13.4232
諦思之不須論深藏守莫傳文	-13.4232
踆	-13.4232
機諸術甚衆多千條有萬	-13.4232
木太過從成其數八八	-13.4233
矍	-13.4233
相與混融化爲一氣	-13.4233
不任杖聾者聽宫商没水捕雉兔登山索	-13.4233
離種種邊名爲妙道	-13.4233
肝苦急急食甘以緩之	-13.4233
本而得者有逆取而得者有從取而得者	-13.4233
苫	-13.4233
其支别者從大迎前下人迎	-13.4233
三焦者决瀆之官水道出焉	-13.4233
氣索命將絶休死亡魄魂	-13.4233
石精金光藏景録形	-13.4233
不睦之眚不能得侵其實	-13.4233
乙丁己辛癸	-13.4233
曰不見可欲使心不亂	-13.4233
氣曰死三分并是	-13.4233
眡	-13.4233
蕊	-13.4233
謟	-13.4233
鍊爲表衛白裏貞居	-13.4233
顋	-13.4233
二刻人氣在少陽水下三刻人氣在陽明	-13.4233
天始行天令也後十四日少羽來	-13.4233
宅外界入地十丈和土拔	-13.4233
支干五神將領吏兵	-13.4233
沇	-13.4233
餽	-13.4233
口遠流殊域	-13.4234
鬰	-13.4234
黝	-13.4235
䁘	-13.4235
咍	-13.4235
券	-13.4235
波梨答惒天	-13.4235
稽首再拜次對謹請上聞七元眞君	-13.4235
顇	-13.4235
也此可以立談而非心授也所言心授者	-13.4235
外多知爲敗我	-13.4235
愳	-13.4235
景八道秘言勿傳非仙之人	-13.4235
上令得上隨身及家口	-13.4235
血氣始精衛氣始行月郭滿則血氣	-13.4235
達四肢顔色恱澤好髮白	-13.4235
靉	-13.4235
腓	-13.4235
植禾當以黍覆雞用其	-13.4235
不歸太羽盛而還衰勝而不實	-13.4235
至天時於天數後十一刻至也至後	-13.4235
是非歷藏法内視有所思履	-13.4236
羭	-13.4236
猨	-13.4236
曚	-13.4236
日赤色有紫光九芒	-13.4236
晝存日夜存月	-13.4236
先有紅氣見見畢次有青氣自丁横流至	-13.4236
忪	-13.4236
化盛而實勝而不復燥化四從本生數也	-13.4236
棚	-13.4236
氷雪得温湯解釋成太玄	-13.4236
漢州什邡縣	-13.4236
雘	-13.4236
太商不歸正徵盛而還衰勝而不實	-13.4236
相對而十中虚天五之用而十五	-13.4236
物芸芸各歸其根歸根曰靜靜曰復命	-13.4237
受孟先生法暮卧先讀黄庭内景經一	-13.4237
縱横不應漏刻風雨不節水旱相伐蝗蟲	-13.4237
虛化神神化氣氣化	-13.4237
墮薜荔獄	-13.4237
髠	-13.4237
朝散郎守尚書祠部員外	-13.4237
䮝	-13.4237
柿	-13.4237
里光照萬國北斗第	-13.4237
復命曰常知常曰明	-13.4238
戊子二己丑三庚寅四	-13.4238
㘅	-13.4238
民病風病行於上治之以辛凉	-13.4238
火入地也自丙至	-13.4238
頂中央旋毛中陷容指督脉足太陽	-13.4238
㗖	-13.4239
爲水馬齒闌干陽乃往和情性自然	-13.4239
東西表仁義五行變四時	-13.4239
者從目系下頰裏	-13.4239
如審遭逢覩其端緒以	-13.4239
琵	-13.4239
環匝關閉四通踟蹰	-13.4239
内觀其心心無其心外觀其形形無其形	-13.4239
之帔戴七寶星冠	-13.4239
源公所理廟在	-13.4239
爲階陛麟脯鳳腊把籍長跪	-13.4239
豢	-13.424
使人無病是不死之道也	-13.424
字三過畢曰願得與	-13.424
祻	-13.424
上清秘道九精回曜合神上眞玉	-13.424
冡	-13.424
賙	-13.424
密固閼絶姦邪曲閣相通以戒不虞	-13.424
恵	-13.424
繫辭焉以斷其吉凶	-13.424
去卦一之數則四	-13.424
啣	-13.424
感暑而變者性之	-13.424
泔	-13.424
蹐	-13.424
𩇥	-13.424
太谿在足内踝後跟骨上動脉	-13.4241
屯以子申蒙用寅戌餘六十卦各自有日	-13.4241
六至天後六日下臨	-13.4241
下之一候前二日半使火二兩	-13.4241
也感晝而變者形之	-13.4241
霂	-13.4241
襁	-13.4241
酤	-13.4241
嬛	-13.4241
椆	-13.4241
神樞靈轄曰	-13.4241
諸疾可以和形長服	-13.4241
䓘	-13.4242
同昇天庭急急如律令又	-13.4242
應雨而化者走之	-13.4242
状	-13.4242
三至天後十三日下臨	-13.4242
也感夜而變者體之	-13.4242
也感寒而變者情之	-13.4242
仙人雞犬同得上昇天庭急急如律令次	-13.4242
火伏羽蟲災心藏病後	-13.4242
釧	-13.4242
憂憫後生好道之倫隨傍風采指	-13.4242
在泉地正化本無間故	-13.4242
上之五日中之五日下之五日各爲一候	-13.4242
中之一候前二日半使火二兩	-13.4242
芒盡來入喉中都畢又	-13.4243
星之神往剋滅	-13.4243
聖人之於聲色滋味也利於性	-13.4243
一三川邵堯夫撰	-13.4243
薛杞小邾	-13.4243
趑	-13.4243
鬟	-13.4243
時上之一候前二日半是爲三十時使火	-13.4243
宙	-13.4244
帝備門奉衛於	-13.4244
昌失之者亡動靜休息常與人俱	-13.4244
筦	-13.4244
帝其一帝輒備一門以奉屬於中央	-13.4244
金德尚白鍊鉛以求黄色焉	-13.4244
帝君命簡金書不傾五老奉符天地	-13.4244
林屋山人全陽子俞琰述上篇第	-13.4244
皴	-13.4244
遊太虚兮謁仙君録天圖兮號眞人	-13.4244
三三川邵堯夫撰	-13.4245
昴畢之上震出爲徵陽氣造端初九	-13.4245
璪	-13.4245
絪	-13.4246
嚬	-13.4246
阼	-13.4246
朂	-13.4246
從缺盆下乳内廉下俠齊	-13.4246
若當决海百瀆傾葉去樹枯失青青	-13.4246
罪莫大於淫禍莫大於貪咎莫大於	-13.4246
謹及啓䟽玉斧再拜玉斧言	-13.4246
[...]
