<unk>	0
<s>	0
</s>	0
/	-3.71758
也	-3.72787
之	-3.81489
而	-4.36627
(	-4.37894
)(	-4.42252
)	-4.45236
以	-4.53397
者	-4.78064
為	-4.79775
其	-4.85613
則	-4.87741
有	-5.04207
曰	-5.09295
言	-5.18423
不	-5.33561
於	-5.44225
故	-5.47465
反	-5.49336
○	-5.59843
是	-5.60312
此	-5.6265
云	-5.65756
矣	-5.66635
謂	-5.7012
無	-5.73285
與	-5.74215
音	-5.76116
人	-5.76458
如	-5.87184
于	-5.87675
皆	-5.95309
大	-5.95804
亦	-5.98876
然	-6.03216
在	-6.03528
一	-6.04335
自	-6.06233
王	-6.14133
非	-6.15326
作	-6.15359
又	-6.1663
所	-6.20626
子	-6.24371
我	-6.24638
▁	-6.25426
乎	-6.27484
見	-6.29182
詩	-6.30866
至	-6.3087
乃	-6.35794
今	-6.38345
時	-6.43539
上	-6.43735
爲	-6.46265
即	-6.48399
既	-6.48464
中	-6.49646
同	-6.49789
下	-6.50124
行	-6.54745
正	-6.55047
猶	-6.55411
生	-6.55838
用	-6.57172
得	-6.6049
以為	-6.60741
耳	-6.61987
及	-6.62045
事	-6.62701
相	-6.63706
當	-6.63906
已	-6.66731
天	-6.67439
能	-6.68208
禮	-6.71141
民	-6.71961
從	-6.72417
國	-6.72778
樂	-6.73701
焉	-6.73745
可	-6.74277
君	-6.75234
三	-6.7544
必	-6.76127
本	-6.763
所以	-6.76956
字	-6.80377
周	-6.80487
多	-6.808
成	-6.80901
文	-6.81093
使	-6.82342
出	-6.82359
雖	-6.82949
若	-6.82999
居	-6.83341
後	-6.83859
公	-6.85121
明	-6.85328
傳	-6.86561
或	-6.87875
將	-6.88449
文王	-6.90169
何	-6.90251
意	-6.90651
始	-6.91124
名	-6.93071
女	-6.9324
叶	-6.93286
爾	-6.93842
方	-6.93944
水	-6.94768
所謂	-6.95758
日	-6.9595
知	-6.962
取	-6.96278
彼	-6.96508
來	-6.98673
諸侯	-6.987
小	-6.99539
命	-6.99655
實	-6.99881
謂之	-7.00695
五	-7.01234
思	-7.02197
美	-7.02716
欲	-7.02899
長	-7.03783
哉	-7.03839
道	-7.05031
且	-7.05311
二	-7.05819
止	-7.06123
夫	-7.06434
心	-7.06843
説	-7.0743
古	-7.07833
善	-7.08205
君子	-7.08557
之意	-7.08759
序	-7.09694
祭	-7.10014
未	-7.10869
興	-7.11843
食	-7.12259
篇	-7.12262
義	-7.12558
稱	-7.12747
服	-7.12768
先	-7.12855
蓋	-7.13316
聲	-7.13592
因	-7.15789
物	-7.16603
似	-7.1917
如此	-7.19855
惟	-7.20801
立	-7.20864
去	-7.21179
地	-7.22145
鄭	-7.22707
安	-7.23095
處	-7.2325
山	-7.2353
切	-7.24356
齊	-7.24367
歸	-7.24468
四	-7.24823
此詩	-7.25574
入	-7.25917
/)	-7.2597
車	-7.26223
合	-7.26784
馬	-7.27292
韻	-7.27861
不能	-7.28552
而不	-7.29268
之事	-7.29656
復	-7.30138
世	-7.30286
好	-7.32138
不可	-7.32179
但	-7.32491
)○	-7.32837
是也	-7.33194
兮	-7.34241
亂	-7.345
徳	-7.3461
風	-7.34641
陳	-7.34815
士	-7.35298
主	-7.36249
遂	-7.36435
通	-7.36884
田	-7.36885
天子	-7.37709
氏	-7.3809
魚	-7.38269
木	-7.38514
宜	-7.38756
常	-7.39154
易	-7.39282
南	-7.39358
周公	-7.39464
終	-7.39543
指	-7.39579
白	-7.39611
維	-7.41
重	-7.41844
六	-7.41903
朝	-7.41953
載	-7.43582
賦也	-7.43788
平	-7.44052
舉	-7.44436
注	-7.44475
臣	-7.44554
刺	-7.4469
師	-7.45152
凡	-7.45927
夏	-7.47719
求	-7.47762
家	-7.47863
異	-7.48103
衆	-7.48161
東	-7.48181
經	-7.48268
逺	-7.49156
深	-7.49364
盛	-7.49454
甚	-7.49937
定	-7.51584
陽	-7.51655
治	-7.52159
大夫	-7.52517
賦	-7.52575
而已	-7.52871
直	-7.53219
解	-7.53234
和	-7.53284
武王	-7.53589
前	-7.53713
力	-7.53849
燕	-7.53911
親	-7.54104
侯	-7.54108
說	-7.54502
比	-7.5582
書	-7.56178
之時	-7.56336
毛	-7.56714
外	-7.57151
言其	-7.57206
章	-7.57456
草	-7.57727
固	-7.57789
葢	-7.57987
可以	-7.57992
土	-7.58292
疏	-7.58775
黄	-7.58958
諸	-7.59226
成王	-7.59256
德	-7.60897
貌	-7.61045
盡	-7.61543
武	-7.61854
之詩	-7.6228
神	-7.62534
受	-7.63328
憂	-7.63468
惡	-7.6422
内	-7.64581
語	-7.6462
盖	-7.64768
歌	-7.64957
豈	-7.65075
者也	-7.65658
▁(	-7.65682
分	-7.65969
天下	-7.66214
獨	-7.66264
九	-7.66958
身	-7.67383
屬	-7.67839
伐	-7.67892
,	-7.68054
衣	-7.69083
兩	-7.69685
法	-7.70077
由	-7.70122
莫	-7.70829
釋	-7.71228
信	-7.71242
衛	-7.71648
酒	-7.72009
尚	-7.72154
伯	-7.72273
西	-7.72447
故曰	-7.72692
賢	-7.72819
告	-7.73439
按	-7.73654
别	-7.73871
不得	-7.74062
色	-7.74891
政	-7.7518
數	-7.75359
足	-7.75451
敬	-7.75814
觀	-7.75892
引	-7.7616
訓	-7.7641
難	-7.76792
七	-7.77058
晉	-7.77444
斯	-7.77747
廣	-7.77789
近	-7.78086
令	-7.78712
喻	-7.79215
旣	-7.79319
節	-7.79409
父	-7.79461
發	-7.79562
死	-7.79638
疑	-7.79892
據	-7.80573
氣	-7.81029
射	-7.81434
尊	-7.81516
類	-7.82039
理	-7.82403
城	-7.8261
極	-7.82741
起	-7.83083
問	-7.83546
爾雅	-7.83784
初	-7.83805
室	-7.83831
怨	-7.83849
辭	-7.83904
魯	-7.8403
共	-7.84261
兄弟	-7.84597
往	-7.84976
母	-7.85293
次	-7.85924
過	-7.86059
謀	-7.8621
體	-7.86288
至於	-7.86295
商	-7.86507
戒	-7.86588
徒	-7.86722
不知	-7.86848
之所	-7.86878
首	-7.86898
變	-7.87184
祀	-7.87691
年	-7.87943
月	-7.88141
亡	-7.88404
河	-7.88474
流	-7.88811
葉	-7.88884
志	-7.89169
鳥	-7.89236
容	-7.89382
勞	-7.89546
髙	-7.89742
俱	-7.90091
縣	-7.90153
詩人	-7.90214
制	-7.90222
官	-7.90448
殷	-7.90712
予	-7.90992
備	-7.91509
一名	-7.91814
之人	-7.9249
之後	-7.92527
少	-7.92678
百	-7.9284
致	-7.93025
。	-7.93066
封	-7.93095
華	-7.93143
都	-7.93695
州	-7.93877
注云	-7.94074
聞	-7.94181
孔	-7.94483
望	-7.94514
漢	-7.94585
頌	-7.94651
殺	-7.94865
適	-7.9491
著	-7.9546
汝	-7.95755
論	-7.95785
考	-7.96212
北	-7.9635
采	-7.96774
各	-7.96801
箋云	-7.97057
苦	-7.97064
赤	-7.9712
之辭	-7.97398
視	-7.98084
祖	-7.9812
應	-7.98238
象	-7.98348
帝	-7.98618
孔氏曰	-7.98626
三章	-7.98652
周禮	-7.98856
箋	-7.98913
讀	-7.99142
特	-7.99175
順	-7.99236
獻	-7.99279
春	-7.99915
執	-7.99921
而後	-8.0011
益	-8.00274
進	-8.00299
就	-8.00628
卒	-8.00744
人之	-8.00973
疾	-8.01311
厚	-8.01458
種	-8.01511
養	-8.01557
功	-8.01734
動	-8.01858
兵	-8.02296
門	-8.02324
述	-8.02479
失	-8.02881
玉	-8.03193
夫人	-8.03503
邑	-8.03664
澤	-8.03761
情	-8.04239
愛	-8.04783
度	-8.05272
秦	-8.05373
桑	-8.05454
左	-8.05604
鳴	-8.05796
教	-8.05977
雅	-8.06233
加	-8.06487
尸	-8.06607
之言	-8.06987
宫	-8.07011
位	-8.0743
舊	-8.07541
楚	-8.07569
宗	-8.07785
婦	-8.07791
父母	-8.07822
興也	-8.0783
雨	-8.07846
微	-8.07902
十	-8.08317
設	-8.08432
之義	-8.08439
新	-8.08485
句	-8.08532
春秋	-8.08579
許	-8.08661
更	-8.08988
唐	-8.09101
左傳	-8.09471
間	-8.09508
右	-8.10097
夷	-8.10254
他	-8.10824
降	-8.10828
傳曰	-8.11284
張	-8.11568
小人	-8.11701
繼	-8.11736
申	-8.11875
化	-8.12374
鼓	-8.12572
任	-8.12857
宣王	-8.13326
将	-8.13409
俗	-8.13415
廟	-8.13461
傷	-8.13738
薄	-8.13862
二章	-8.13974
餘	-8.14118
宋	-8.14688
之心	-8.14758
衞	-8.14759
火	-8.1518
尤	-8.15436
飛	-8.15771
學	-8.15875
孝	-8.16353
不敢	-8.16459
原	-8.16507
御	-8.16723
曲	-8.16751
羊	-8.16898
婦人	-8.17125
秋	-8.17133
㑹	-8.17241
元	-8.17279
是以	-8.17593
遷	-8.17791
升	-8.17897
口	-8.17959
克	-8.18026
誠	-8.18201
報	-8.18214
承	-8.18439
感	-8.1848
星	-8.18808
依	-8.18974
牛	-8.19005
徐	-8.19132
胡	-8.20495
一章	-8.20593
戎	-8.20996
老	-8.21257
舞	-8.2132
廢	-8.214
朱	-8.21571
此章	-8.21831
其所	-8.21992
之間	-8.22624
保	-8.23314
四方	-8.23429
之地	-8.23575
吾	-8.23738
病	-8.23827
飾	-8.2398
説文云	-8.24525
隂	-8.2459
喜	-8.24603
交	-8.24844
被	-8.24939
己	-8.25139
無所	-8.25167
青	-8.253
賢者	-8.25321
害	-8.25478
並	-8.25481
性	-8.25521
者以	-8.25574
目	-8.25787
然後	-8.26078
以爲	-8.26316
飲	-8.26778
於是	-8.27121
唯	-8.27183
弓	-8.27425
淫	-8.27648
職	-8.27881
念	-8.27957
修	-8.2839
翻	-8.28622
嘗	-8.288
末	-8.28859
息	-8.29098
皮	-8.29127
角	-8.29491
對	-8.29502
絶	-8.29803
詳	-8.29929
而無	-8.30017
集傳	-8.30121
也箋云	-8.3028
具	-8.303
里	-8.30323
八	-8.30504
助	-8.30748
昭	-8.31038
石	-8.31461
言之	-8.31549
不同	-8.31766
恐	-8.31814
太	-8.31831
聖人	-8.31919
畢	-8.32218
光	-8.32257
改	-8.32501
遺	-8.32509
叔	-8.32543
集	-8.32549
顧	-8.32634
利	-8.32776
之道	-8.33335
朱子	-8.33537
爵	-8.33692
存	-8.34
衰	-8.34048
要	-8.34064
離	-8.34323
高	-8.3463
冬	-8.3499
配	-8.3517
守	-8.35186
等	-8.35543
儀	-8.35619
羣	-8.35751
野	-8.3586
畏	-8.35936
也言	-8.36131
友	-8.36333
福	-8.36483
兼	-8.36571
久	-8.37049
賔	-8.37272
建	-8.37649
誤	-8.37903
后稷	-8.38
軍	-8.38198
器	-8.38292
顯	-8.38371
郊	-8.38417
聖	-8.38423
小雅	-8.38609
清	-8.38625
皇	-8.38693
而言	-8.38728
純	-8.38776
龍	-8.38901
揚	-8.3896
歟	-8.38971
私	-8.39023
待	-8.39027
棄	-8.39061
萬	-8.39366
之説	-8.39454
丘	-8.39564
質	-8.39846
孫	-8.40137
説文	-8.40143
况	-8.40216
四章	-8.40306
附	-8.40456
記	-8.4062
享	-8.40655
威	-8.40776
𫝊	-8.40823
然則	-8.40867
樹	-8.40943
率	-8.41187
羽	-8.41318
仁	-8.41392
卷	-8.41437
至于	-8.41498
錫	-8.41577
有所	-8.41594
敗	-8.41847
積	-8.4193
形	-8.42235
鄭氏曰	-8.42401
專	-8.4254
呼	-8.42664
留	-8.42783
柔	-8.43575
嵗	-8.43766
又曰	-8.439
也此	-8.44133
式	-8.44187
幽王	-8.44288
良	-8.44355
愚按	-8.44414
見其	-8.44593
全	-8.44766
期	-8.44832
民之	-8.44929
於此	-8.44982
懐	-8.45177
金	-8.454
先王	-8.4546
辨	-8.45611
貴	-8.45823
號	-8.45947
棘	-8.462
此言	-8.4627
以下	-8.46285
豐	-8.46344
也故	-8.46354
開	-8.46367
庶	-8.46546
代	-8.46629
勝	-8.46654
寒	-8.46664
之中	-8.46664
周之	-8.4668
湯	-8.46874
果	-8.46904
戰	-8.46909
嘉	-8.47145
夜	-8.47875
□	-8.47886
毛傳	-8.47959
總	-8.47987
豳	-8.48183
永	-8.4847
忽	-8.48481
首章	-8.48552
故以	-8.48665
之禮	-8.48711
覆	-8.48766
除	-8.48886
王之	-8.48903
矢	-8.49071
獸	-8.4948
弗	-8.49767
寧	-8.49814
手	-8.49948
烏	-8.50104
仲	-8.50138
便	-8.50183
邪	-8.50421
强	-8.50594
孔子	-8.50895
嫁	-8.50904
武公	-8.50957
布	-8.51259
竹	-8.5149
乗	-8.51601
哀	-8.51737
陸	-8.51778
梁	-8.51833
左右	-8.51972
列	-8.52111
賜	-8.52134
熟	-8.52347
役	-8.52716
責	-8.53079
還	-8.53366
急	-8.53485
喪	-8.53579
祝	-8.53935
苟	-8.53971
辟	-8.54024
奏	-8.54097
禍	-8.54327
掌	-8.54368
后	-8.54501
連	-8.54566
虎	-8.54575
必有	-8.54605
滅	-8.54627
何以	-8.54784
匪	-8.55014
為之	-8.55068
稷	-8.5507
輕	-8.55149
轉	-8.55367
怒	-8.55562
推	-8.55589
耕	-8.55597
業	-8.55709
威儀	-8.55752
施	-8.55878
翼	-8.55896
毛氏曰	-8.55988
堂	-8.56176
昏	-8.56337
鄭氏	-8.56425
國人	-8.56862
史	-8.56886
假	-8.56997
奉	-8.5708
遇	-8.57195
向	-8.57274
舍	-8.57399
臨	-8.57618
穀	-8.57815
故知	-8.57862
窮	-8.57906
子孫	-8.57932
耶	-8.57993
紀	-8.58015
結	-8.58287
之子	-8.58384
榖	-8.58522
祭祀	-8.58628
朱氏曰	-8.5903
之名	-8.59076
林	-8.59127
烝	-8.59265
故云	-8.59352
後世	-8.59388
上帝	-8.594
路	-8.59672
聽	-8.5977
陵	-8.59798
暴	-8.59952
勤	-8.59998
文王之	-8.60004
妻	-8.60088
聚	-8.60492
昔	-8.60969
隨	-8.61421
素	-8.6166
斷	-8.618
魏	-8.61831
只	-8.62236
計	-8.6225
宣	-8.62738
来	-8.6279
散	-8.62924
不必	-8.63194
亦有	-8.63274
甲	-8.6328
其心	-8.63307
嚴	-8.63446
危	-8.6347
持	-8.63523
習	-8.63574
又云	-8.63678
召公	-8.63718
韓	-8.6448
罪	-8.64584
曹	-8.64953
惠	-8.65079
追	-8.65164
蒲	-8.65199
僖公	-8.65246
乘	-8.65386
文武	-8.65386
不言	-8.65513
管	-8.65616
之徳	-8.6568
古者	-8.65944
姓	-8.66029
才	-8.66178
然而	-8.66283
救	-8.66494
上下	-8.66576
歴	-8.66892
旅	-8.67149
靡	-8.67233
者皆	-8.67237
納	-8.6752
邦	-8.67565
置	-8.67717
須	-8.67818
菜	-8.67828
案	-8.67862
匹	-8.68136
落	-8.68184
庭	-8.68334
革	-8.68583
甫	-8.68682
細	-8.68766
古人	-8.68837
蟲	-8.68972
公子	-8.69056
尾	-8.69103
大雅	-8.69154
受命	-8.6942
無不	-8.69429
酌	-8.69567
干	-8.69639
厥	-8.69683
饗	-8.69711
后妃	-8.69935
根	-8.70201
露	-8.70497
皆有	-8.7067
洛	-8.70724
牲	-8.70833
吉	-8.70966
工	-8.70966
登	-8.71033
願	-8.71208
爾雅云	-8.71229
弟	-8.71332
遠	-8.7143
荒	-8.71453
厲	-8.7155
禾	-8.71594
宗廟	-8.71642
裳	-8.71648
宿	-8.72076
豆	-8.72227
其事	-8.72269
謹	-8.72299
圖	-8.72373
味	-8.72395
農	-8.72413
不足	-8.72769
花	-8.7301
吕	-8.73431
千	-8.73467
之故	-8.73524
厲王	-8.74075
襄公	-8.74091
莊公	-8.74159
懷	-8.74208
人君	-8.74273
未有	-8.74283
𤣥	-8.74286
薦	-8.74391
垂	-8.74449
鮮	-8.74562
不如	-8.74678
屋	-8.74706
輔	-8.74719
懼	-8.74848
卜	-8.74932
虞	-8.75197
鳩	-8.75277
岐	-8.75405
最	-8.75428
肆	-8.75468
黒	-8.75491
衡	-8.75552
典	-8.75575
之說	-8.75783
表	-8.75867
徃	-8.76148
飲酒	-8.76192
國之	-8.76306
則是	-8.76431
註	-8.76484
頭	-8.76621
達	-8.76698
脩	-8.76746
黍	-8.76812
刑	-8.76887
公劉	-8.76921
羣臣	-8.76957
條	-8.77048
堅	-8.77095
患	-8.77199
之類	-8.77362
休	-8.77381
造	-8.77434
愈	-8.77464
漸	-8.7764
知其	-8.77859
李	-8.77956
天之	-8.77982
以此	-8.78014
退	-8.78064
富	-8.7807
七月	-8.78211
禘	-8.78528
户	-8.78552
之詞	-8.78568
征	-8.78783
之功	-8.78929
背	-8.79037
召	-8.79067
旦	-8.79082
之貌	-8.79394
以見	-8.79415
牧	-8.79487
卿	-8.8001
六章	-8.80294
冠	-8.80393
用之	-8.80428
駕	-8.80514
麻	-8.80565
并	-8.80577
真	-8.80614
閔	-8.80622
當時	-8.80828
取其	-8.80833
肉	-8.80833
紂	-8.80987
介	-8.81054
闕	-8.81095
則有	-8.81149
茂	-8.81321
五章	-8.81329
景	-8.81414
司	-8.81453
其君	-8.81558
雉	-8.81677
慎	-8.81769
君臣	-8.81908
獲	-8.81926
崇	-8.81956
奔	-8.81969
可謂	-8.82193
忠	-8.82195
幽	-8.82319
足以	-8.8233
讒	-8.82358
不以	-8.82376
其實	-8.82453
史記	-8.825
諸侯之	-8.82506
忘	-8.82519
側	-8.82607
詞	-8.83103
抑	-8.83229
楊	-8.83244
輯録	-8.83262
愚	-8.8329
禄	-8.83321
杜	-8.83333
慮	-8.83587
禹	-8.8364
濟	-8.83747
申伯	-8.84032
姑	-8.8407
精	-8.84181
男	-8.84255
否	-8.84272
舟	-8.84276
賓	-8.84403
京	-8.84638
㣲	-8.84766
房	-8.84823
天命	-8.84914
族	-8.84933
詩曰	-8.84943
薪	-8.85086
文公	-8.85214
黃	-8.85254
絲	-8.85469
不然	-8.85501
社	-8.85866
勿	-8.85867
羙	-8.8594
朱傳	-8.85973
誰	-8.86309
畫	-8.86702
桓	-8.86707
侵	-8.86804
之盛	-8.86854
氏曰	-8.86906
王者	-8.87393
扵	-8.87451
察	-8.87467
簡	-8.87527
之情	-8.8761
祈	-8.877
故言	-8.87825
卑	-8.88008
麥	-8.8803
嗣	-8.88104
之上	-8.88417
可知	-8.88572
束	-8.88804
旁	-8.88875
契	-8.889
牡	-8.89011
靈	-8.89017
補	-8.89156
枝	-8.89199
淮夷	-8.89354
劉	-8.89377
江	-8.89544
恭	-8.89932
約	-8.89944
雜	-8.89996
平王	-8.9005
龜	-8.90066
者謂	-8.90127
每	-8.90131
說文云	-8.90229
均	-8.90229
淺	-8.90296
擇	-8.90308
以其	-8.90405
而有	-8.90426
未嘗	-8.90457
出於	-8.90751
其後	-8.9076
越	-8.90813
滿	-8.90925
逆	-8.91066
栗	-8.91092
收	-8.9113
歎	-8.91265
通作	-8.91359
也今	-8.91648
使之	-8.91683
皆以	-8.91714
端	-8.91736
其徳	-8.918
苗	-8.91933
營	-8.92105
主人	-8.92242
姜	-8.92305
蠶	-8.92313
孟子	-8.92317
蔽	-8.92465
省	-8.92521
敎	-8.9258
面	-8.92598
舜	-8.92668
者亦	-8.92687
再	-8.92719
佩	-8.92744
比也	-8.92918
請	-8.9294
驕	-8.93033
如是	-8.9308
敢	-8.93176
又有	-8.93277
恩	-8.93353
示	-8.93661
則其	-8.9375
本作	-8.93857
康	-8.93936
韓詩	-8.93945
移	-8.93985
君之	-8.94001
裘	-8.94101
不過	-8.94107
可見	-8.94209
天下之	-8.94214
蘇	-8.9436
早	-8.94367
海	-8.94368
舒	-8.94478
鹿	-8.94581
三年	-8.9463
勸	-8.94649
送	-8.94784
當作	-8.94843
殊	-8.95016
府	-8.9502
詩之	-8.95031
履	-8.95048
伊	-8.95318
箋曰	-8.95572
差	-8.95832
鄭箋	-8.96109
材	-8.96192
迎	-8.96241
而又	-8.96339
之法	-8.9636
歲	-8.96521
傳云	-8.96525
欲其	-8.96588
毛云	-8.96731
識	-8.97032
逐	-8.97053
谷	-8.97093
巳	-8.9718
虚	-8.97487
密	-8.97535
天子之	-8.97553
黑	-8.97564
之樂	-8.97612
其意	-8.97633
弱	-8.97712
託	-8.97845
冝	-8.97855
貫	-8.98003
不見	-8.9808
川	-8.98331
兄	-8.98433
旱	-8.98539
釋文	-8.98547
避	-8.98568
鄉	-8.98805
蕭	-8.99037
男女	-8.99113
乆	-8.99433
大王	-8.99684
逸	-8.9984
豈不	-8.99879
半	-8.99942
朋友	-9.00016
防	-9.00071
也又	-9.0018
禮記	-9.00254
悲	-9.0036
接	-9.0038
蒙	-9.00495
繫	-9.00608
辰	-9.00894
从	-9.01015
所云	-9.01257
是詩	-9.01272
草木	-9.0128
昌	-9.01385
速	-9.01574
授	-9.01637
之美	-9.01686
席	-9.01699
乾	-9.01783
鄭云	-9.02047
擊	-9.02111
録	-9.02131
毛氏	-9.02197
答	-9.02263
本草	-9.02358
盈	-9.02443
英	-9.02497
臺	-9.02665
日月	-9.02683
寢	-9.02775
音義	-9.02782
帶	-9.02837
六月	-9.02846
亦不	-9.02921
徂	-9.03059
王命	-9.03201
謝	-9.03214
坐	-9.03214
孔曰	-9.03285
格	-9.0331
蘇氏曰	-9.03492
故謂之	-9.04012
略	-9.04082
之辭也	-9.0424
不用	-9.04538
雲	-9.04543
艾	-9.04555
丁	-9.04618
困	-9.04776
季	-9.04811
或曰	-9.0496
以興	-9.04975
月令	-9.05095
之所以	-9.05117
莫不	-9.0513
烈	-9.05191
莖	-9.05394
縱	-9.05476
慶	-9.0549
例	-9.05659
如字	-9.05727
不可以	-9.05786
王氏曰	-9.06033
之世	-9.0605
旋	-9.06129
秉	-9.0614
王季	-9.06142
違	-9.06168
鼔	-9.06305
悔	-9.06382
而作	-9.06507
悦	-9.06543
堯	-9.06568
桓公	-9.06569
彊	-9.06666
室家	-9.06678
孔疏	-9.06682
漢書	-9.06825
孔氏	-9.06869
勢	-9.06886
勉	-9.06962
仍	-9.07074
㫖	-9.07091
之臣	-9.07154
同姓	-9.07284
基	-9.07752
者為	-9.0783
王室	-9.08029
遊	-9.08056
其説	-9.08078
昭公	-9.08181
見於	-9.08183
不復	-9.08375
寵	-9.08537
太子	-9.08635
賤	-9.08724
未必	-9.08919
葵	-9.08973
粟	-9.09053
殆	-9.09197
妄	-9.09227
斥	-9.0927
黍稷	-9.09345
攻	-9.09363
疆	-9.09514
舎	-9.09532
上章	-9.09558
負	-9.09599
昊天	-9.09615
徹	-9.09653
趨	-9.09654
調	-9.09666
秀	-9.09701
南山	-9.09728
穆	-9.0975
充	-9.09766
萬物	-9.09983
人心	-9.10019
毛曰	-9.10022
四牡	-9.10037
游	-9.10293
況	-9.10313
循	-9.1035
壽	-9.10425
下章	-9.10585
祥	-9.10598
莊	-9.10648
二十	-9.10672
也鄭箋	-9.10738
二字	-9.10766
子之	-9.10813
荼	-9.10891
茅	-9.10893
米	-9.10954
諫	-9.11158
弁	-9.11224
池	-9.11324
繹	-9.11461
之日	-9.11489
横	-9.11632
咸	-9.11808
及其	-9.11854
歳	-9.11866
允	-9.11897
四國	-9.11984
續	-9.12352
井	-9.12391
朝廷	-9.12683
也夫	-9.1269
之外	-9.12857
香	-9.12943
說文	-9.12963
客	-9.12975
之國	-9.13004
襄	-9.13025
泉	-9.13179
使我	-9.13187
肅	-9.13199
育	-9.13241
之德	-9.13279
尺	-9.13322
大也	-9.1338
狐	-9.13486
徧	-9.13497
下文	-9.13572
勇	-9.13703
之文	-9.13809
第	-9.13978
壯	-9.14065
監	-9.14205
其地	-9.14315
子曰	-9.14329
毛鄭	-9.14397
先生	-9.14474
甘	-9.14481
觧	-9.14502
二句	-9.14769
蒿	-9.14841
不及	-9.14845
覺	-9.15005
寛	-9.15222
醉	-9.15276
宣公	-9.15339
折	-9.15398
圭	-9.15475
之屬	-9.15475
隱	-9.1553
猶言	-9.15609
専	-9.15732
𤼵	-9.15744
仕	-9.15817
江漢	-9.15901
之下	-9.15949
雞	-9.15988
穴	-9.16071
隠	-9.16248
卿大夫	-9.16284
曷	-9.16561
相與	-9.16638
犬	-9.16669
解見	-9.16702
放	-9.16734
先祖	-9.1685
禦	-9.16958
叛	-9.16994
序曰	-9.1703
朱曰	-9.17073
一人	-9.17184
三十	-9.17276
朱註	-9.17308
伏	-9.17336
朱子曰	-9.17377
遭	-9.1739
塗	-9.17618
借	-9.17628
集說	-9.17629
君子之	-9.17739
卿士	-9.17779
梅	-9.17847
三章章四句	-9.17884
莊姜	-9.17924
剛	-9.18029
王氏	-9.1805
温	-9.18091
天地	-9.18246
審	-9.18273
四月	-9.18322
夀	-9.18369
國語	-9.18373
不相	-9.18589
召南	-9.18627
其子	-9.18638
黎	-9.18701
曽	-9.18706
夕	-9.1871
忌	-9.18817
狄	-9.18828
潔	-9.18867
醜	-9.18959
葛	-9.18995
貝	-9.19209
塞	-9.19226
也毛傳	-9.19334
卒章	-9.19374
豕	-9.19426
藏	-9.19442
下同	-9.19538
其義	-9.19629
亦以	-9.19811
孝子	-9.1984
耦	-9.1991
參	-9.19989
博	-9.20059
末章	-9.20166
貪	-9.20214
統	-9.20234
築	-9.20248
東方	-9.20251
短	-9.20278
錯	-9.20291
䑕	-9.20377
百里	-9.20383
厭	-9.20389
泥	-9.2039
畧	-9.20425
其人	-9.20459
在位	-9.20647
荆	-9.20822
空	-9.20829
律	-9.2086
笙	-9.20967
我之	-9.21067
玁狁	-9.21092
!	-9.2116
浮	-9.21168
沈	-9.2121
從之	-9.2124
茹	-9.21307
求之	-9.21419
敖	-9.21422
之處	-9.21595
編	-9.21751
幾	-9.21794
戾	-9.21869
綏	-9.21898
禽	-9.21996
十月	-9.22031
恤	-9.22253
較	-9.22305
佐	-9.22335
植	-9.22481
桃	-9.22744
嘆	-9.22754
翟	-9.22793
則又	-9.22795
矣然	-9.22804
繁	-9.23018
雷	-9.23165
八章	-9.23179
所以為	-9.23195
蕩	-9.23222
女子	-9.23229
至此	-9.2352
震	-9.23715
毁	-9.23808
黨	-9.23922
強	-9.2404
巢	-9.24096
此篇	-9.24104
織	-9.24129
人所	-9.24209
逹	-9.24276
鎬	-9.24605
福禄	-9.24716
市	-9.24722
召伯	-9.24772
阿	-9.24788
規	-9.24812
孟	-9.24923
矣故	-9.24987
禮樂	-9.25002
無有	-9.25126
不忘	-9.25147
沃	-9.25182
古之	-9.25436
夫婦	-9.25724
倫	-9.2582
也然	-9.25986
疏曰	-9.26255
他人	-9.26274
儉	-9.26365
又言	-9.26452
儀禮	-9.26488
其身	-9.26495
也若	-9.26591
譽	-9.26681
也蓋	-9.26686
也按	-9.26881
矜	-9.26902
仰	-9.2691
以自	-9.26984
肥	-9.27051
務	-9.27054
宻	-9.27098
奠	-9.27122
境	-9.27171
中國	-9.27233
敦	-9.27282
使人	-9.27302
以上	-9.27411
證	-9.27476
寡	-9.27515
畜	-9.27518
禁	-9.27731
妾	-9.27883
當是	-9.28098
思之	-9.28117
不應	-9.28208
以禮	-9.28305
誦	-9.28322
為一	-9.28355
支	-9.28503
今之	-9.2851
周南	-9.28559
周人	-9.28575
輔氏曰	-9.2864
如何	-9.28727
胥	-9.29156
夫子	-9.29236
會	-9.29302
庸	-9.29321
雪	-9.29402
敵	-9.29403
得之	-9.29433
明矣	-9.29527
虐	-9.29568
國家	-9.29584
其辭	-9.29623
底	-9.29653
雖有	-9.29815
爭	-9.29995
災	-9.30045
穫	-9.3022
者言	-9.30245
陶	-9.30246
雀	-9.303
李氏曰	-9.30344
之際	-9.305
我心	-9.30772
讀如	-9.30774
誅	-9.30813
尹氏	-9.3088
正義曰	-9.30883
鹿鳴	-9.30916
爰	-9.30916
詩云	-9.31093
髪	-9.31093
甚矣	-9.31118
蓼	-9.31127
䟽	-9.31141
十二	-9.31339
貢	-9.3142
皆是	-9.31619
竭	-9.31622
竊	-9.31632
笑	-9.31666
美之	-9.3168
緩	-9.31703
之意也	-9.31796
供	-9.31812
豫	-9.31947
車馬	-9.3218
三月	-9.322
缺	-9.32203
事也	-9.32249
琴瑟	-9.32437
而下	-9.32479
太王	-9.32482
之語	-9.32489
源	-9.32507
符	-9.3259
亦云	-9.32659
皇父	-9.32671
陰	-9.32772
宅	-9.32783
榮	-9.32785
檜	-9.32807
曾	-9.33025
磬	-9.33052
得其	-9.33111
不當	-9.33148
之事也	-9.3327
之服	-9.33272
閒	-9.33308
惑	-9.33379
詩中	-9.33578
貎	-9.33616
其言	-9.33646
命之	-9.33683
斗	-9.33731
娶	-9.33819
田獵	-9.33825
扶	-9.33869
之物	-9.33878
不為	-9.33892
童	-9.33953
作詩	-9.33996
索	-9.3407
亦曰	-9.34076
所作	-9.34268
界	-9.34321
趙	-9.34457
以比	-9.3454
候	-9.34569
篤	-9.34615
染	-9.34697
辛	-9.34817
不善	-9.34969
關雎	-9.35032
委	-9.35073
正月	-9.35076
旂	-9.35077
則知	-9.35079
叙	-9.35096
毛公	-9.35253
所言	-9.35275
又以	-9.35317
雍	-9.35351
可知矣	-9.35417
詠	-9.3542
傅	-9.35512
羔裘	-9.35581
一句	-9.356
各有	-9.35606
禮義	-9.3568
後人	-9.35699
毛詩	-9.36207
七章	-9.36324
疏云	-9.36353
智	-9.36375
圓	-9.36411
其情	-9.36575
麟	-9.36638
桐	-9.36657
以喻	-9.36742
躬	-9.36804
不已	-9.36831
吳	-9.36852
苞	-9.36857
欽定四庫全書	-9.3686
康公	-9.36861
夢	-9.36872
熊	-9.36891
奄	-9.36946
故其	-9.36982
如此則	-9.36982
讓	-9.37212
先儒	-9.37231
郭	-9.37316
羅	-9.37344
朔	-9.37393
詩者	-9.37444
山川	-9.37471
閑	-9.37634
聴	-9.3768
丹	-9.37762
孤	-9.38057
變風	-9.38218
而成	-9.38348
兔	-9.38386
闗雎	-9.38393
優	-9.38426
僖	-9.38542
貧	-9.38571
其聲	-9.38645
其民	-9.38726
毒	-9.3883
刀	-9.38862
騶虞	-9.38906
賊	-9.38937
譖	-9.38947
奪	-9.38982
盟	-9.38999
今人	-9.39044
征伐	-9.39183
寜	-9.39226
蒼	-9.39231
吉甫	-9.39273
鄭曰	-9.39307
竟	-9.39374
反覆	-9.39477
畆	-9.39511
取之	-9.39545
姜嫄	-9.39547
偶	-9.3962
泰	-9.39721
敷	-9.39727
之使	-9.39734
則不	-9.39909
者非	-9.39981
戴	-9.39995
偏	-9.40031
賢人	-9.40083
振	-9.40116
崩	-9.40133
可為	-9.40142
兆	-9.40161
却	-9.40191
之前	-9.40207
四句	-9.40277
二年	-9.40312
時也	-9.40392
稼	-9.40543
兹	-9.40573
不我	-9.40579
此亦	-9.40747
鑿	-9.40796
三百	-9.40887
渭	-9.40932
之行	-9.41095
齒	-9.41103
武王之	-9.41185
灌	-9.41238
回	-9.41241
勞苦	-9.41246
先王之	-9.41331
其德	-9.41356
自然	-9.41479
人情	-9.41518
孚	-9.41525
百姓	-9.41601
牽	-9.4164
在於	-9.41705
副	-9.41761
洽	-9.4179
晚	-9.41914
燕禮	-9.4202
宴	-9.42034
病也	-9.42052
延	-9.42169
飢	-9.42239
玩	-9.4234
褒姒	-9.42347
詩序	-9.42347
倉	-9.42427
之志	-9.42437
衍	-9.42456
臧	-9.42461
集傳賦也	-9.42602
板	-9.42642
淵	-9.42678
刻	-9.42729
風俗	-9.42829
討	-9.42901
舊説	-9.42995
矣而	-9.43142
遽	-9.43297
踐	-9.43306
安得	-9.43332
稍	-9.43421
伐木	-9.43427
庶幾	-9.43478
于天	-9.43493
其國	-9.43549
所用	-9.43561
誘	-9.43582
單	-9.4369
資	-9.43748
此則	-9.43798
拜	-9.43839
悉	-9.4385
暮	-9.43985
破	-9.43994
畝	-9.44023
太平	-9.44089
穆公	-9.44179
暇	-9.44183
小子	-9.44309
有此	-9.44316
渉	-9.44406
學者	-9.44566
國風	-9.44579
助祭	-9.44587
文姜	-9.44654
藻	-9.44672
反叶	-9.4469
鄙	-9.44708
整	-9.44736
豹	-9.4478
慕	-9.44814
忍	-9.44865
明堂	-9.45111
導	-9.45132
幸	-9.45157
其上	-9.45169
隰	-9.45261
樂也	-9.45302
恃	-9.45399
究	-9.45535
可食	-9.45608
豐年	-9.45632
關	-9.45929
失其	-9.45974
鼎	-9.46051
飲食	-9.46055
東都	-9.46126
瑟	-9.46224
生於	-9.46233
廬	-9.46371
仲山甫	-9.46403
孔氏穎達曰	-9.46434
痛	-9.46684
招	-9.46688
碩人	-9.46781
鐘	-9.468
猗	-9.46819
程	-9.46819
迫	-9.46821
蕃	-9.47091
即位	-9.47143
鍾	-9.47149
聲也	-9.47253
誓	-9.47357
食之	-9.47448
亦可	-9.47518
環	-9.47542
䘮	-9.47621
稻	-9.47743
辟廱	-9.47801
漆	-9.47814
那	-9.47841
矛	-9.47945
隆	-9.47955
大國	-9.47985
啓	-9.48036
相應	-9.48071
未詳	-9.48121
此章言	-9.48175
蘭	-9.48273
闗	-9.48288
妃	-9.4834
攷	-9.48361
夲	-9.48379
静	-9.48419
仇	-9.48481
消	-9.48542
樊	-9.48547
法也	-9.48597
正義	-9.48877
𤓰	-9.48929
贈	-9.48982
鴟鴞	-9.49091
煩	-9.49125
訟	-9.49134
弦	-9.4929
俾	-9.49332
諷	-9.49352
狼	-9.49538
罔	-9.4965
遲	-9.49656
藉	-9.49684
猶有	-9.49704
鬱	-9.50097
泮	-9.50113
渠	-9.50124
驚	-9.50151
免	-9.50347
行役	-9.50399
黄鳥	-9.50499
蔓	-9.50516
遏	-9.50598
梓	-9.50607
而歸	-9.50649
筵	-9.50725
者蓋	-9.50737
逝	-9.50751
其說	-9.50762
媵	-9.50774
之福	-9.50853
議	-9.50858
親迎	-9.50902
韓侯	-9.50943
領	-9.51164
孔云	-9.51182
決	-9.51194
於天	-9.5144
俎	-9.51459
驅	-9.51537
賔客	-9.51555
杞	-9.5159
徳之	-9.51595
之甚	-9.51641
鵲巢	-9.51649
繩	-9.5169
孰	-9.51756
形容	-9.51881
京師	-9.5192
祫	-9.5195
序云	-9.52031
所見	-9.52035
粲	-9.52052
榆	-9.52052
遣	-9.52102
暑	-9.52249
僕	-9.52295
權	-9.52401
攸	-9.52427
是為	-9.52442
先公	-9.52459
葦	-9.52517
牆	-9.52553
未知	-9.52598
戸	-9.52611
曲沃	-9.52623
咨	-9.52649
狩	-9.52697
步	-9.52699
在上	-9.52743
漆沮	-9.52763
斧	-9.52787
道也	-9.52836
傍	-9.52874
司馬	-9.52888
鎬京	-9.529
男子	-9.52948
紫	-9.52953
凶	-9.52954
弋	-9.53008
者必	-9.53014
哲	-9.53196
政事	-9.53216
吹	-9.53424
不忍	-9.53426
傾	-9.5347
顔	-9.53526
而生	-9.53543
二南	-9.53578
寓	-9.53616
西戎	-9.53919
詩言	-9.53924
小序	-9.53955
鼠	-9.54002
恒	-9.5406
之聲	-9.54355
籥	-9.54406
靈臺	-9.54414
李曰	-9.54533
隅	-9.54536
段	-9.54637
歩	-9.5466
援	-9.54667
懲	-9.5467
舅	-9.54674
弑	-9.54694
之大	-9.54845
陟	-9.54982
翰	-9.55001
稼穡	-9.55004
獵	-9.55041
譬	-9.55085
韋	-9.55097
鴈	-9.55148
衆也	-9.55175
昬	-9.55279
慢	-9.55304
涉	-9.5531
采薇	-9.55316
以成	-9.55416
桀	-9.55468
壊	-9.55474
畿内	-9.5556
險	-9.5562
繇	-9.55644
而能	-9.55645
賞	-9.55657
之制	-9.55683
醻	-9.55769
協	-9.55914
厯	-9.55925
羞	-9.55937
係	-9.5607
譏	-9.56089
可以為	-9.56273
藥	-9.56323
屈	-9.56369
懸	-9.56578
怠	-9.5658
王事	-9.56644
邁	-9.56769
芳	-9.56869
周道	-9.56915
善也	-9.56935
咎	-9.57011
犯	-9.57148
預	-9.5718
鶉	-9.57307
俟	-9.57446
者乃	-9.57501
一曰	-9.57586
毛傳曰	-9.57621
相似	-9.57651
周頌	-9.57666
曉	-9.57902
旗	-9.5796
題	-9.58127
蘇氏	-9.58264
刈	-9.58306
狂	-9.5835
戍	-9.58405
走	-9.58472
馮	-9.58475
大射	-9.58581
帥	-9.58596
農夫	-9.5869
水中	-9.58801
冰	-9.58829
亦非	-9.58841
甸	-9.58854
冕	-9.58887
播	-9.58913
樂之	-9.58935
毋	-9.5896
之理	-9.58982
舌	-9.58986
何為	-9.59015
鶴	-9.59027
柄	-9.59095
皆言	-9.59111
矣此	-9.59135
鬼神	-9.59197
氷	-9.59272
域	-9.59484
眀	-9.59523
古音	-9.59703
徙	-9.59732
之女	-9.5976
其餘	-9.59805
骨	-9.59854
只是	-9.59872
其中	-9.5995
肅肅	-9.59962
程子曰	-9.60025
倚	-9.60099
屏	-9.60114
有功	-9.60181
不在	-9.60196
綱	-9.60208
非也	-9.6036
而行	-9.60429
故詩人	-9.60473
斂	-9.60488
牙	-9.60553
也朱註	-9.60638
旟	-9.60749
荷	-9.60758
谷風	-9.60768
丗	-9.60834
尋	-9.60841
盛也	-9.60944
殽	-9.60994
有餘	-9.61075
軌	-9.61098
瓜	-9.61109
南國	-9.61111
貞	-9.6117
亦是	-9.61193
偕	-9.61232
瑞	-9.61233
箋正義曰	-9.61405
突	-9.61431
豈有	-9.61488
脱	-9.61572
之狀	-9.61639
累	-9.61721
照	-9.61723
財	-9.61741
以待	-9.61755
即此	-9.61765
宫室	-9.61781
駁	-9.61852
削	-9.61891
宰	-9.62133
吐	-9.62263
論語	-9.62275
衣服	-9.62301
周家	-9.6232
嫡	-9.62399
彌	-9.62399
章八句	-9.62404
之至也	-9.62465
包	-9.62534
南仲	-9.62562
生民	-9.62685
不足以	-9.6269
國君	-9.62741
雄	-9.62774
巧	-9.62791
寸	-9.62893
衆多	-9.6299
二人	-9.63124
淮	-9.63157
几	-9.63207
驗	-9.63247
膏	-9.63257
之君	-9.63313
亦作	-9.63395
拘	-9.63416
咏	-9.63423
到	-9.63428
章六句	-9.63451
巨	-9.63576
不宜	-9.63591
酢	-9.63592
亦無	-9.63621
蔡	-9.63636
法度	-9.63918
績	-9.64024
余	-9.641
肯	-9.64125
陸璣	-9.64144
蛇	-9.64235
清廟	-9.64382
併	-9.64389
寐	-9.64403
何也	-9.64407
孔子曰	-9.64421
髮	-9.64435
朋	-9.64522
告之	-9.64539
栁	-9.64671
鵲	-9.64694
而得	-9.64743
甫田	-9.64765
决	-9.64766
看	-9.64821
八月	-9.64861
鬯	-9.64889
迹	-9.64919
靜	-9.6501
之什	-9.6504
不知其	-9.65112
效	-9.65119
行之	-9.65168
鸞	-9.65208
嶽	-9.65274
嫌	-9.65283
曽孫	-9.65488
柳	-9.65603
了	-9.65672
宇	-9.65721
若此	-9.6573
謂其	-9.65748
曹氏曰	-9.65766
倒	-9.65955
濡	-9.65974
今曰	-9.65976
物之	-9.65978
憂之	-9.65984
以告	-9.66061
紅	-9.66069
濁	-9.66121
之月	-9.66157
眉	-9.66158
濯	-9.66185
禹貢	-9.66193
敏	-9.66238
寄	-9.66315
輔氏廣曰	-9.66376
腹	-9.66377
韓詩作	-9.6661
姬	-9.66616
此時	-9.66617
賚	-9.66639
而不能	-9.6665
先後	-9.66668
矣又	-9.66694
慶源輔氏曰	-9.66701
此意	-9.66744
于此	-9.66752
狀	-9.66776
媚	-9.66804
服之	-9.66829
王肅	-9.66928
大抵	-9.66936
憂心	-9.66955
東南	-9.66986
儒	-9.66991
邶	-9.671
詩緝	-9.67128
伋	-9.67164
美也	-9.67174
以致	-9.67294
風雨	-9.67299
辭也	-9.67358
侈	-9.67394
之初	-9.67406
曹曰	-9.67489
婉	-9.67571
其下	-9.67614
但言	-9.6763
王曰	-9.67641
十五	-9.67664
燕飲	-9.67693
投	-9.67721
瞻	-9.67738
踰	-9.67742
而自	-9.67771
瓠	-9.67772
不自	-9.67862
則非	-9.67966
椒	-9.68007
故為	-9.68051
者有	-9.68147
郡	-9.68175
之稱	-9.68354
惜	-9.68363
於人	-9.68369
燔	-9.68427
集説	-9.68434
某	-9.68459
望之	-9.68462
牝	-9.6847
思其	-9.68578
旐	-9.686
一物	-9.6868
棲	-9.68748
司徒	-9.68824
之内	-9.68871
安也	-9.68881
講	-9.68882
寺人	-9.68991
亟	-9.69004
滑	-9.69093
父子	-9.69103
羮	-9.69429
蠻	-9.69447
駟	-9.69489
自有	-9.69497
謬	-9.69517
而非	-9.69567
美其	-9.69618
其文	-9.69852
恨	-9.69897
而不知	-9.69952
子夏	-9.69966
牛羊	-9.69985
鵠	-9.69994
庚	-9.69997
有天下	-9.70037
嗟	-9.70174
圍	-9.70175
知之	-9.70202
輪	-9.70206
其夫	-9.70208
武功	-9.70209
寘	-9.70288
牢	-9.70367
觀之	-9.70403
社稷	-9.7042
宣姜	-9.70432
不至	-9.70495
之實	-9.70536
也然則	-9.70558
五年	-9.7057
詩意	-9.70584
松	-9.70603
大車	-9.70687
錄	-9.7073
當為	-9.70732
竒	-9.70734
驪	-9.70736
周室	-9.70747
僅	-9.70753
靖	-9.70777
白華	-9.70783
恥	-9.70806
霜	-9.70867
亳	-9.70921
使臣	-9.70936
之士	-9.70957
緯	-9.71036
燎	-9.71131
僭	-9.71147
考之	-9.71156
商頌	-9.71222
也孔疏	-9.71232
埤雅	-9.71244
不與	-9.71254
潛	-9.71296
蓄	-9.7132
琴	-9.7136
曾孫	-9.71368
不信	-9.71376
血	-9.71593
言文王	-9.7163
相類	-9.7163
鐘鼓	-9.7164
勤勞	-9.71746
晦	-9.71824
禱	-9.7184
則無	-9.71873
岸	-9.71877
於外	-9.72012
騏	-9.72062
盧	-9.72158
幼	-9.72177
屢	-9.72197
常棣	-9.72241
泉水	-9.72484
畿	-9.72493
縫	-9.72571
不欲	-9.72587
人皆	-9.7267
園	-9.72735
四時	-9.72758
賈	-9.72777
出車	-9.72884
侯伯	-9.72936
行也	-9.72959
歐陽	-9.73104
尚書	-9.73118
長也	-9.73294
樗	-9.73298
次章	-9.73344
非一	-9.73374
寫	-9.73442
楚茨	-9.73448
丈	-9.7345
受之	-9.73483
互	-9.73508
網	-9.7351
于是	-9.73532
騂	-9.73597
戈	-9.73634
無窮	-9.73696
其道	-9.73706
冇	-9.73779
選	-9.73815
鴻	-9.73837
飽	-9.73842
譜	-9.73844
謙	-9.73937
邦國	-9.73988
之本	-9.73997
叶音	-9.74063
?	-9.74125
下民	-9.74171
南方	-9.74197
愛之	-9.74225
匏	-9.74255
而復	-9.74283
壺	-9.74371
五月	-9.74394
不從	-9.74411
競	-9.74426
者以其	-9.74626
岐山	-9.74648
偽	-9.74671
無禮	-9.7475
以後	-9.74766
淫亂	-9.75
析	-9.75003
其時	-9.75156
之變	-9.75227
孔氏穎逹曰	-9.75282
奚	-9.75376
旨	-9.75418
之象	-9.7542
幣	-9.75428
武庚	-9.75433
化之	-9.75482
太師	-9.75525
言我	-9.75556
麗	-9.75566
地名	-9.75774
疎	-9.75791
歡	-9.75879
旌	-9.75962
蒸	-9.75973
菹	-9.75996
事而	-9.76019
潤	-9.76124
錦	-9.7613
其所以	-9.76134
攘	-9.76154
渚	-9.76173
有常	-9.76202
今按	-9.76333
州吁	-9.76371
棗	-9.76392
為大	-9.76404
則必	-9.76405
四年	-9.76406
嚴氏曰	-9.7644
臯	-9.76479
喬	-9.76487
朱子云	-9.76576
戚	-9.76581
鬼	-9.76586
文王之徳	-9.76599
之風	-9.76618
一篇	-9.7663
旄	-9.76732
従	-9.76751
不明	-9.76785
誨	-9.76921
輯	-9.76942
侮	-9.76965
轡	-9.76982
奮	-9.77145
述其	-9.77245
弓矢	-9.77245
草也	-9.7734
邊	-9.77347
億	-9.77502
喙	-9.77504
徴	-9.77507
通用	-9.77546
賴	-9.77699
不出	-9.77813
則亦	-9.77832
光明	-9.77834
而出	-9.7784
巾	-9.77887
在天	-9.77931
倡	-9.77941
祖考	-9.77984
箕	-9.78067
隂陽	-9.78203
之職	-9.78262
括	-9.78328
緝	-9.78337
澗	-9.7834
鷺	-9.78428
宮	-9.78485
亨	-9.785
其葉	-9.78508
中心	-9.78595
鄘	-9.78612
敝	-9.78686
不安	-9.78725
涇	-9.78741
大臣	-9.7883
量	-9.78836
裏	-9.78874
其功	-9.78896
軒	-9.78933
宛	-9.78935
不顯	-9.78943
前後	-9.78964
穗	-9.79042
因以	-9.79064
管蔡	-9.79069
鑒	-9.79111
不待	-9.79255
潰	-9.79285
何所	-9.79395
想	-9.79452
之多	-9.79469
貳	-9.79506
大小	-9.79512
其詩	-9.79606
故能	-9.79614
所當	-9.79636
輿	-9.79706
周公之	-9.79831
方叔	-9.79903
濟濟	-9.79975
苕	-9.80049
西北	-9.80079
周官	-9.80278
縁	-9.80281
今日	-9.80314
増	-9.80429
脂	-9.80462
螽斯	-9.80477
左氏	-9.80496
憚	-9.80507
而不敢	-9.80537
鞠	-9.80573
鄰	-9.80673
湑	-9.80675
阻	-9.8071
之祭	-9.80791
限	-9.80915
而來	-9.80959
宗周	-9.80996
釐	-9.80999
含	-9.81067
赫赫	-9.81104
恵	-9.81113
其始	-9.81245
一時	-9.81307
有徳	-9.81333
草蟲	-9.81347
雌	-9.81431
歆	-9.81497
九月	-9.81558
千里	-9.81558
鳲鳩	-9.81565
必先	-9.81591
悟	-9.816
萊	-9.81636
四海	-9.81681
之官	-9.81687
當以	-9.8172
占	-9.81737
春秋傳	-9.81749
一日	-9.81811
遵	-9.81882
櫟	-9.81884
聊	-9.81885
機	-9.81899
盛貌	-9.81906
啟	-9.81999
邰	-9.82069
臭	-9.82104
戲	-9.8211
逃	-9.8212
書曰	-9.82183
當從	-9.82268
徳音	-9.82272
浸	-9.82282
得以	-9.82361
不可不	-9.82434
部	-9.82474
怪	-9.8248
祗	-9.8249
往來	-9.82493
璧	-9.82517
始生	-9.82566
屨	-9.82587
艸	-9.82734
亦名	-9.82744
詳見	-9.82764
以見其	-9.82843
成功	-9.82876
阜	-9.82915
場	-9.82918
的	-9.82937
道路	-9.82961
桓叔	-9.82989
去聲	-9.83178
蜀	-9.83254
徑	-9.83303
醢	-9.83352
及於	-9.83369
其名	-9.83382
誕	-9.8352
獄	-9.83534
上文	-9.83539
隔	-9.8354
訊	-9.83549
用兵	-9.83694
甘棠	-9.83719
之禍	-9.83749
土地	-9.83823
未可	-9.8385
歛	-9.83933
般	-9.83963
何哉	-9.84079
舄	-9.84126
一種	-9.8413
亂也	-9.84169
此説	-9.84226
其志	-9.84264
警	-9.84352
讒人	-9.84405
水之	-9.84446
刺幽王也	-9.84482
見之	-9.84485
如之何	-9.84514
股	-9.84519
孫炎曰	-9.84677
其禮	-9.84756
懿	-9.84883
之車	-9.84964
之時也	-9.84968
中有	-9.84974
垣	-9.84985
以來	-9.84997
菑	-9.85009
殖	-9.85027
掩	-9.85055
魯頌	-9.85085
之謂也	-9.85094
雅頌	-9.85099
者謂之	-9.8514
休息	-9.85182
饑	-9.85224
𤣥鳥	-9.85262
什	-9.85294
圃	-9.85315
齊侯	-9.85326
大師	-9.85347
貽	-9.85383
鯉	-9.85438
逢	-9.85456
即今	-9.85547
耆	-9.85555
之賢	-9.85587
或謂之	-9.85675
歐陽氏曰	-9.85692
運	-9.85707
所居	-9.85709
岳	-9.85762
戎狄	-9.85767
鵻	-9.85782
炙	-9.85804
襲	-9.85817
聿	-9.85853
祿	-9.85907
嘏	-9.85909
三章章六句	-9.85926
東西	-9.85981
蟬	-9.86003
聖人之	-9.86021
揚之水	-9.86026
之廟	-9.86029
七年	-9.8604
言天	-9.8607
為主	-9.86159
攝	-9.86202
挾	-9.86229
章句	-9.86248
毎	-9.8625
雒	-9.86266
二月	-9.86282
訛	-9.86399
流言	-9.86406
卷耳	-9.86415
上有	-9.86483
溢	-9.86493
董氏曰	-9.86497
苖	-9.86582
郭璞曰	-9.86699
山甫	-9.86727
觸	-9.86736
其職	-9.86742
行者	-9.86767
争	-9.86865
畔	-9.86903
陳氏曰	-9.86907
貉	-9.87014
駿	-9.87058
贊	-9.87127
夙夜	-9.87128
愼	-9.87154
虛	-9.87318
采蘩	-9.87368
翼翼	-9.87371
吕記	-9.87431
既成	-9.87473
之氣	-9.87499
為諸侯	-9.87565
祼	-9.87607
不肯	-9.87661
駒	-9.87663
之神	-9.87767
山之	-9.87773
元年	-9.87776
受福	-9.87784
鄭氏康成曰	-9.87809
不若	-9.87818
尹	-9.87872
有二	-9.8788
内外	-9.87894
徵	-9.87988
作樂	-9.8804
而去	-9.88074
階	-9.88341
昧	-9.88357
茂盛	-9.88368
嚴緝	-9.88381
今乃	-9.88407
郭璞	-9.88414
没	-9.88444
茨	-9.88451
在下	-9.8852
觀其	-9.8855
者是	-9.88568
先言	-9.88588
作於	-9.88609
膺	-9.88611
萬年	-9.88632
頗	-9.88799
提	-9.8883
䟽曰	-9.88879
神明	-9.88897
引詩	-9.88929
之命	-9.88979
有三	-9.89019
把	-9.89066
蹙	-9.89073
鉤	-9.89084
烈祖	-9.89137
榛	-9.89197
雝	-9.89255
成湯	-9.89286
菅	-9.89288
撫	-9.8929
竝	-9.89301
嚴氏粲曰	-9.89326
鴞	-9.89409
卦	-9.89451
彭	-9.89462
至矣	-9.8952
或作	-9.89543
之難	-9.89591
幹	-9.89697
王姬	-9.89714
菽	-9.8976
呉	-9.89899
古今	-9.89917
錢	-9.89941
蟋蟀	-9.9005
鳥獸	-9.90123
亦猶	-9.90132
殘	-9.90134
茍	-9.90167
大如	-9.90188
上言	-9.90195
中庸	-9.90197
敬也	-9.90203
魚麗	-9.90271
一事	-9.90318
為正	-9.90343
無以	-9.90363
渡	-9.90371
溝	-9.90377
無疆	-9.90385
採	-9.90524
舊說	-9.90537
稽	-9.90541
止於	-9.90542
詩傳	-9.90645
皆云	-9.90684
正也	-9.90697
卵	-9.9077
昏姻	-9.90793
北方	-9.90821
熱	-9.90831
沙	-9.90835
出入	-9.90849
誤矣	-9.9089
不止	-9.90937
灼	-9.91055
無所不	-9.91064
安成劉氏曰	-9.9108
於王	-9.91123
范	-9.91173
為天子	-9.91175
聘	-9.91252
璋	-9.91257
庻	-9.91267
箴	-9.91277
敬之	-9.9128
二反	-9.91296
薇	-9.91402
紹	-9.91474
斬	-9.91482
閟宫	-9.91488
豈弟	-9.91502
而不得	-9.91505
釋文曰	-9.91556
與此	-9.91557
戒之	-9.9162
筐	-9.91636
禽獸	-9.91666
摇	-9.91679
註云	-9.91683
之序	-9.91769
祭之	-9.91827
項	-9.91896
必以	-9.91908
人而	-9.92078
虞惇按	-9.92142
莊子	-9.92194
其間	-9.92215
其性	-9.92248
所在	-9.92256
枚	-9.92269
柞	-9.92348
邇	-9.92382
不一	-9.92531
以明	-9.92539
愚謂	-9.92579
吏	-9.92607
鄭以	-9.92631
為君	-9.92693
䜛	-9.92702
緇衣	-9.92777
商之	-9.92778
之末	-9.9278
之始	-9.9278
之長	-9.92878
鮪	-9.92894
和也	-9.92923
戎車	-9.92927
粱	-9.92947
四馬	-9.93028
之業	-9.93034
匡	-9.93064
罍	-9.93093
不易	-9.93098
東山	-9.93128
廣大	-9.93183
孫子	-9.93208
濕	-9.93274
既見君子	-9.93322
之深	-9.93431
誣	-9.93476
之極	-9.93507
淇	-9.93508
也音義	-9.93546
是時	-9.93554
而小	-9.93594
大學	-9.93654
程氏曰	-9.93712
燕樂	-9.93762
大者	-9.9382
始於	-9.93828
藍	-9.93853
則曰	-9.93877
此皆	-9.93915
止也	-9.93942
之正	-9.93974
皆以為	-9.93974
萬民	-9.93981
飬	-9.9399
行道	-9.9399
其羽	-9.94032
釋詁文	-9.94155
爾雅曰	-9.94159
輩	-9.94174
試	-9.94174
若是	-9.94237
武丁	-9.94253
西方	-9.94302
齋	-9.94355
展	-9.94361
者不	-9.94375
其色	-9.94414
覯	-9.94463
混	-9.94569
物也	-9.9463
瘁	-9.94662
抱	-9.9467
兵車	-9.9473
驂	-9.94742
乙	-9.94799
勺	-9.94832
洗	-9.94843
皆為	-9.94861
閉	-9.94889
齊人	-9.95006
當在	-9.95008
生子	-9.9508
魴	-9.95081
馬之	-9.95102
欺	-9.95124
茀	-9.95136
産	-9.95285
波	-9.95342
伐崇	-9.95352
歸之	-9.95357
辱	-9.95359
王者之	-9.95427
盤	-9.95535
自謂	-9.95575
望其	-9.95612
簧	-9.95628
服也	-9.95647
沮	-9.95687
馳	-9.95778
眷	-9.95793
然其	-9.9581
萌	-9.95843
康成	-9.95876
征夫	-9.95885
采蘋	-9.95909
佗	-9.96003
囿	-9.96004
莪	-9.96093
翳	-9.962
巷	-9.962
采之	-9.96218
和平	-9.96227
炎	-9.96247
皆可	-9.96253
庶人	-9.96275
反又	-9.96297
東遷	-9.9633
岐周	-9.9637
譛	-9.96379
此所謂	-9.96412
皆謂	-9.96504
而未	-9.96507
慰	-9.96509
藝	-9.96511
于周	-9.96525
籍	-9.96543
聞之	-9.96546
萬邦	-9.96653
未見	-9.96712
鳥之	-9.96771
王后	-9.96802
而不可	-9.9684
筆	-9.96859
無常	-9.96881
三星	-9.96905
非謂	-9.96917
蝗	-9.96936
摯	-9.96974
拔	-9.96976
邱	-9.96993
柏舟	-9.97003
以正	-9.97024
之數	-9.97045
之化	-9.97122
傳正義曰	-9.97153
小國	-9.9716
帛	-9.97162
亦通	-9.97164
三句	-9.97218
校	-9.97226
拾	-9.97229
之政	-9.97231
版	-9.97258
衣裳	-9.97366
亦如	-9.97367
組	-9.97375
弔	-9.97376
禮也	-9.97442
亦當	-9.9745
陸璣云	-9.97457
乎此	-9.97516
又謂	-9.97569
酒食	-9.97602
無良	-9.97608
道之	-9.97614
盾	-9.97641
蘩	-9.97881
晝	-9.97913
即是	-9.97935
也箋正義曰	-9.98011
范氏曰	-9.98021
荅	-9.98055
來朝	-9.98119
則可以	-9.98152
壞	-9.98176
朱氏公遷曰	-9.98241
昭明	-9.98424
綴	-9.98425
猛	-9.98438
誤作	-9.98584
緜	-9.98676
阪	-9.98677
毛傳云	-9.98678
則民	-9.98688
次第	-9.98826
伐之	-9.98851
大姒	-9.98862
隕	-9.98868
人以	-9.98901
相親	-9.98918
之耳	-9.98935
汝墳	-9.98939
養老	-9.98962
諸儒	-9.98964
但以	-9.98985
不合	-9.98987
是其	-9.99207
轂	-9.99253
在此	-9.99304
遐	-9.99377
於周	-9.99381
之常	-9.99387
二詩	-9.99405
可知也	-9.99421
所為	-9.99482
無罪	-9.99531
本亦作	-9.99538
雖無	-9.9963
牖	-9.99703
叢生	-9.99741
文義	-9.99741
本又作	-9.99755
班	-9.9978
樂記	-9.99808
膚	-9.99853
固有	-9.99857
奥	-9.99875
於民	-9.99961
進退	-10
赫	-10.0001
漕	-10.0006
惟其	-10.0007
殺之	-10.0008
六年	-10.0008
溥	-10.0014
名也	-10.0015
刺之	-10.0016
言王	-10.0016
仲春	-10.0019
二章言	-10.0026
風化	-10.003
損	-10.0032
而知	-10.0032
也凡	-10.0036
弛	-10.0036
祭天	-10.004
人者	-10.0044
北山	-10.005
枝葉	-10.0051
有道	-10.0052
滋	-10.0057
恣	-10.0057
深矣	-10.0058
自是	-10.0059
慈	-10.0059
汙	-10.0061
繫之	-10.0065
求其	-10.0067
不行	-10.0073
皮弁	-10.0076
虹	-10.0079
讀詩	-10.008
興起	-10.0083
完	-10.0083
成之	-10.0084
俊	-10.0084
之詩也	-10.0086
兕	-10.0087
内則	-10.0093
鋪	-10.0096
其有	-10.01
品	-10.0107
之善	-10.0108
孽	-10.0108
賜之	-10.0111
為此	-10.0115
薄言	-10.0126
活	-10.0133
諱	-10.0134
輯錄	-10.0136
四章章四句	-10.0136
不獨	-10.0139
之道也	-10.0141
非是	-10.0143
四十	-10.0153
忠厚	-10.0153
王道	-10.0154
豈可	-10.0155
郎	-10.0159
經文	-10.0159
僣	-10.0162
悠悠	-10.0164
盡其	-10.0166
豈弟君子	-10.0172
奢	-10.0185
公侯	-10.0186
懌	-10.0186
公之	-10.0191
伯禽	-10.0196
惠公	-10.0217
夷狄	-10.0218
王業	-10.0223
訓為	-10.0229
諡	-10.0229
文章	-10.0232
以求	-10.0232
稱王	-10.0238
十三	-10.0239
雞鳴	-10.0243
晏	-10.0248
王制	-10.0248
思念	-10.0249
天理	-10.025
鷹	-10.0251
雙	-10.0256
所生	-10.0257
十年	-10.0258
緑	-10.0261
為王	-10.0264
醴	-10.0266
易曰	-10.0272
憂思	-10.0273
於天下	-10.0273
繡	-10.0274
小者	-10.0274
詔	-10.0282
謂此	-10.0292
教之	-10.0296
諸臣	-10.0299
西伯	-10.0302
躍	-10.0309
𢎞	-10.0311
陸疏	-10.0312
諌	-10.0314
趣	-10.0323
辯	-10.0325
多矣	-10.0334
所載	-10.0335
籩豆	-10.0335
終南	-10.0337
致其	-10.0337
憂也	-10.0349
注曰	-10.0352
不能自	-10.0355
夙	-10.0356
寳	-10.0357
椓	-10.0357
其臣	-10.0359
異於	-10.0362
朝服	-10.0364
意也	-10.0367
者故	-10.0371
髦	-10.0378
五十	-10.0378
豳風	-10.0379
夾	-10.0384
圉	-10.0387
善人	-10.0387
初生	-10.0387
太公	-10.0389
農事	-10.039
葉似	-10.0399
斁	-10.04
芑	-10.0406
也盖	-10.0408
藩	-10.041
操	-10.0411
逺矣	-10.0418
此又	-10.0422
苑	-10.0422
不盡	-10.0426
肇	-10.0426
蹶	-10.0426
闢	-10.0431
創	-10.0432
拒	-10.0436
夀考	-10.0444
不顧	-10.0445
笄	-10.045
者如	-10.0453
始也	-10.0454
堪	-10.0455
迨	-10.0457
褒	-10.0459
劉向	-10.0464
淑	-10.0466
視之	-10.0481
推之	-10.0482
輻	-10.0486
兎	-10.0488
宣王之	-10.0494
何人	-10.0499
祭仲	-10.0499
信也	-10.0506
羔羊	-10.051
久矣	-10.0526
也且	-10.0529
狹	-10.0531
撰	-10.0534
無疑	-10.0535
者何	-10.0537
普	-10.0538
上天	-10.0541
之野	-10.0545
魯詩	-10.0554
駱	-10.0564
髙宗	-10.0573
鄭伯	-10.0577
黼	-10.0583
芣苢	-10.0588
亭	-10.0588
配天	-10.0588
鴛鴦	-10.0588
》	-10.0589
晉侯	-10.0589
皇考	-10.0594
在東	-10.0597
時事	-10.0598
序言	-10.0602
衛之	-10.0604
之人也	-10.0606
寤	-10.0611
脫	-10.0613
憎	-10.0617
於上	-10.0625
治之	-10.0628
天降	-10.0628
柏	-10.064
笱	-10.0643
三章言	-10.0644
有事	-10.065
耜	-10.066
樂只君子	-10.066
偃	-10.0662
康叔	-10.0668
一字	-10.0674
或謂	-10.0679
之民	-10.068
芹	-10.0689
於君	-10.0692
瞽	-10.0704
而思	-10.0706
迷	-10.0708
其母	-10.0709
之體	-10.0713
畀	-10.0715
總論	-10.0715
以相	-10.0716
止于	-10.0716
卬	-10.0718
虢	-10.0728
之主	-10.0729
葛藟	-10.0735
之歌	-10.0736
助之	-10.0739
摧	-10.0743
因其	-10.0745
恱	-10.0746
以前	-10.0747
庶民	-10.0747
狡童	-10.0748
不逺	-10.0756
簋	-10.0762
悖	-10.0769
自得	-10.0769
影	-10.0769
皆作	-10.0771
異姓	-10.0778
棣	-10.0786
祠	-10.079
氓	-10.0795
不容	-10.0795
者又	-10.0795
艱難	-10.0802
之詞也	-10.0804
心之憂矣	-10.0809
岡	-10.0811
《	-10.0817
腓	-10.0817
佳	-10.0819
也既	-10.0819
穢	-10.082
費	-10.0823
田祖	-10.0824
浚	-10.0826
反音	-10.0845
榦	-10.0846
術	-10.0847
賁	-10.0847
戢	-10.0847
本於	-10.0849
明堂位	-10.0852
召穆公	-10.0853
桑扈	-10.0854
作者	-10.0855
無事	-10.0862
之亂	-10.0868
失之	-10.0868
公羊傳	-10.0868
三軍	-10.0872
亂世	-10.0877
泮宫	-10.0879
一語	-10.0883
言語	-10.0884
莘	-10.0884
又名	-10.0893
車之	-10.0894
字義	-10.0896
朝夕	-10.0898
不暇	-10.0898
零	-10.0898
郎反	-10.0899
者惟	-10.0902
或以	-10.0903
午	-10.0904
一詩	-10.0907
言此	-10.0909
荆楚	-10.091
正直	-10.0912
肩	-10.093
先君	-10.0937
以此為	-10.0942
引此詩	-10.0942
為惡	-10.0943
家室	-10.0945
行而	-10.0949
僻	-10.0953
杕杜	-10.0959
責之	-10.0961
黍離	-10.0968
刪	-10.0971
蘆	-10.0971
我獨	-10.0973
隼	-10.0974
隰有	-10.0974
而欲	-10.0978
跡	-10.0979
緫	-10.0982
婚姻	-10.0984
鳳	-10.1001
晨	-10.1002
居之	-10.1006
暴虐	-10.1015
鴟	-10.1028
九十	-10.1029
羔	-10.1033
縮	-10.1038
為善	-10.104
四方之	-10.1044
截	-10.1046
陸農師	-10.1051
碩	-10.1051
時邁	-10.1053
白色	-10.1053
苓	-10.1055
左傳云	-10.1059
之衆	-10.1061
悼	-10.1062
擬	-10.1062
三公	-10.1076
下國	-10.1079
十六	-10.1079
小大	-10.108
頸	-10.1086
諸家	-10.1087
健	-10.1089
之至	-10.1092
太姒	-10.1093
子男	-10.1095
檀	-10.1097
采芑	-10.1098
婦人之	-10.1103
也孔云	-10.1104
甚明	-10.111
親親	-10.1112
行禮	-10.1117
嚮	-10.1119
距	-10.1121
陷	-10.1121
語辭	-10.1122
而立	-10.1126
逮	-10.1131
翔	-10.114
用事	-10.1144
瑕	-10.1147
三家	-10.1149
舉其	-10.1152
或有	-10.1153
鐵	-10.1161
大武	-10.1163
烹	-10.1163
及時	-10.1168
旒	-10.1169
方言	-10.1169
翕	-10.1169
陋	-10.117
詢	-10.1171
相承	-10.1174
大明	-10.1176
謂我	-10.1177
兄弟之	-10.1179
非有	-10.1189
一節	-10.1191
風之	-10.1195
可見矣	-10.1197
李氏	-10.1198
笠	-10.1204
庭燎	-10.1208
蘇曰	-10.1214
於其	-10.1217
充耳	-10.1218
壁	-10.1222
朱氏	-10.1224
彭彭	-10.1228
不入	-10.1236
顔色	-10.1241
故有	-10.1241
周召	-10.1251
彤弓	-10.1259
説文作	-10.1261
而言也	-10.1263
其本	-10.1269
未得	-10.127
起興	-10.1271
使民	-10.1273
酬	-10.1275
其可	-10.1275
遂以	-10.1276
壹	-10.128
小而	-10.1284
氣象	-10.1289
雁	-10.13
曠	-10.1304
䝉	-10.1308
旬	-10.1311
辨之	-10.1311
事之	-10.1316
而食	-10.1318
左傳曰	-10.1319
冀	-10.1322
巫	-10.1332
給	-10.1337
衮	-10.1345
得失	-10.1352
睦	-10.1352
祊	-10.1355
滛	-10.1361
墻	-10.1363
弊	-10.1363
無道	-10.1363
亦然	-10.1364
墜	-10.1364
敘	-10.1366
祭服	-10.1366
明王	-10.1367
崔	-10.1367
承上	-10.1369
王肅云	-10.1374
成周	-10.1375
無可	-10.1376
所宜	-10.1376
邶鄘	-10.1378
二者	-10.1383
程子	-10.1391
談	-10.1394
也或曰	-10.1395
澣	-10.1395
伐鄭	-10.1395
鱣	-10.1397
於我	-10.1401
夭	-10.1401
和樂	-10.1406
禮儀	-10.1407
明明	-10.1407
相近	-10.141
皆在	-10.1414
之甚也	-10.1416
成康	-10.1418
之失	-10.1418
西南	-10.142
九州	-10.142
戊	-10.1421
鳧	-10.1421
湏	-10.1424
有大	-10.1425
在外	-10.1436
之詩曰	-10.1436
邢	-10.1445
罟	-10.1447
軷	-10.145
東萊	-10.1451
虧	-10.1451
二章章四句	-10.1452
予之	-10.1453
福也	-10.1454
鰥	-10.1454
墨	-10.1461
里反	-10.1465
考工記	-10.1466
其能	-10.1466
饑饉	-10.1479
增	-10.1479
之異	-10.1484
或云	-10.1484
呂	-10.1491
又作	-10.1493
荀子	-10.1495
俱作	-10.1497
頒	-10.1503
維其	-10.1504
萑	-10.1505
其詞	-10.1507
懈	-10.1507
秩秩	-10.1507
不成	-10.1508
父母之	-10.1509
此序	-10.1509
山有	-10.1527
邠	-10.1528
侍	-10.1529
亦謂	-10.1531
餞	-10.1531
神之	-10.1532
在今	-10.1532
又能	-10.1538
十四	-10.1538
無復	-10.154
卽	-10.1541
汁	-10.1557
絃	-10.1561
罰	-10.1563
去之	-10.1564
塵	-10.1564
妙	-10.1564
以時	-10.1568
罔極	-10.1575
何其	-10.1577
不免	-10.1579
太祖	-10.1582
小弁	-10.1592
鈴	-10.1593
樸	-10.1594
者乎	-10.1595
路車	-10.1601
胡不	-10.1603
容貌	-10.1617
是非	-10.162
行葦	-10.1626
曰此	-10.1629
后稷之	-10.163
曰我	-10.1637
不絶	-10.1637
七十	-10.1639
求賢	-10.1643
艱	-10.1643
芼	-10.1644
迂	-10.1646
下有	-10.1647
濫	-10.1648
軸	-10.165
饒	-10.165
天地之	-10.1655
注同	-10.1656
猶未	-10.1657
鼓鐘	-10.1659
尊卑	-10.1662
極其	-10.1668
親之	-10.1669
裼	-10.1671
愆	-10.1672
頑	-10.1672
十六年	-10.1676
耘	-10.1677
赤芾	-10.168
鳯	-10.1682
葛屨	-10.1684
如此而	-10.169
燕燕	-10.1693
德音	-10.1694
王朝	-10.1695
莫我	-10.1698
莠	-10.1704
非獨	-10.1705
蓋以	-10.1719
測	-10.1726
詩人之意	-10.1728
高宗	-10.173
燭	-10.1731
毫	-10.1733
以示	-10.1733
纓	-10.1734
詒	-10.1734
愁	-10.1735
昆夷	-10.1736
員	-10.1737
言之也	-10.1737
兒	-10.1748
三十里	-10.1749
之色	-10.176
鎮	-10.176
凱風	-10.1769
靈公	-10.1769
二物	-10.1774
媒	-10.1775
衆妾	-10.1779
之可	-10.1781
天子諸侯	-10.1781
不平	-10.1781
郭云	-10.1781
蘋	-10.1784
瓊	-10.1786
明徳	-10.1789
可用	-10.1789
剥	-10.179
自古	-10.1791
葛覃	-10.1794
伐檀	-10.1796
常武	-10.1797
緒	-10.18
俗呼	-10.1801
曰吾	-10.1803
成王之	-10.1821
之罪	-10.1829
螽	-10.1833
之為言	-10.1834
湯孫	-10.1837
於廟	-10.1837
桑中	-10.184
漢廣	-10.184
説者	-10.1843
既有	-10.1847
銜	-10.1848
袪	-10.185
政教	-10.1852
世子	-10.1852
劉氏瑾曰	-10.1859
記曰	-10.1861
周書	-10.1864
濮	-10.1876
戴公	-10.1879
㡬	-10.1879
力反	-10.1881
二國	-10.1882
助也	-10.1883
其來	-10.1886
雲漢	-10.1887
蜉蝣	-10.19
也葢	-10.1907
瓦	-10.191
沼	-10.1912
賦也毛傳	-10.1919
三章皆	-10.1933
烝民	-10.1933
佩玉	-10.1946
者盖	-10.1946
中央	-10.1954
特牲	-10.1958
飾也	-10.1958
對曰	-10.1964
翦	-10.1966
王師	-10.1969
恪	-10.1971
而已矣	-10.1987
前章	-10.1988
疾也	-10.1989
鳬	-10.1997
揭	-10.1998
綢繆	-10.1999
収	-10.2
激	-10.2
惡之	-10.2003
犬戎	-10.2004
奔走	-10.2006
不息	-10.2008
竹書	-10.2008
明也	-10.2015
不失	-10.2018
小人之	-10.2021
臣之	-10.2024
始終	-10.2026
此詩言	-10.2027
覩	-10.2027
於詩	-10.2033
劬勞	-10.2035
獻公	-10.2035
明其	-10.2036
與子	-10.2036
之義也	-10.2037
臣子	-10.2038
九章	-10.2039
外傳	-10.2044
亦未	-10.205
汾	-10.2054
庾	-10.2056
梟	-10.2057
楚辭	-10.2058
何時	-10.2062
三分	-10.2064
恐其	-10.2064
未聞	-10.2067
宜其	-10.2067
民心	-10.2068
由此	-10.2074
大任	-10.2076
鄂	-10.2079
乃是	-10.208
公田	-10.2082
此與	-10.2085
見棄	-10.2087
譚	-10.2092
之徒	-10.2093
原隰	-10.2095
反下同	-10.2096
饋	-10.21
送之	-10.2105
洛邑	-10.2109
絳	-10.211
吁	-10.2112
而見	-10.2115
斾	-10.2116
罹	-10.2118
練	-10.2118
稱其	-10.2125
之勞	-10.2125
之性	-10.2126
叢	-10.213
文王之德	-10.2134
爲之	-10.2139
弭	-10.2142
嬖	-10.2146
爼	-10.2147
有罪	-10.2147
振振	-10.2148
善惡	-10.2152
人臣	-10.2153
之思	-10.2153
也此詩	-10.2157
狐裘	-10.2158
苴	-10.2168
文武之	-10.2168
萬舞	-10.217
之節	-10.2174
酉	-10.2177
出于	-10.2183
吕氏曰	-10.219
歸于	-10.2193
于王	-10.2193
其室家	-10.22
紙	-10.2205
降福	-10.2206
釋名云	-10.2209
秣	-10.2209
疚	-10.2211
義同	-10.2215
之學	-10.2216
大田	-10.2217
之候	-10.222
梁山	-10.2228
何不	-10.2229
詛	-10.2237
貨	-10.224
雎鳩	-10.2248
其樂	-10.2252
陳氏	-10.2254
秋冬	-10.2258
之木	-10.2266
稅	-10.2267
涼	-10.227
皆得	-10.227
貊	-10.2272
公卿	-10.2273
泛	-10.2278
思文	-10.2281
從容	-10.2281
之患	-10.2282
取義	-10.2285
豈非	-10.2297
穆穆	-10.2303
黄曰	-10.2305
公尸	-10.2308
鄭注	-10.2319
忠臣	-10.2324
擾	-10.2328
凌	-10.2333
雨雪	-10.2334
章四句	-10.2334
郭璞云	-10.2336
殷之	-10.234
鸛	-10.2343
中興	-10.2343
治也	-10.2349
宏	-10.2351
珠	-10.2354
箱	-10.2359
堂下	-10.2361
慘	-10.2362
婚	-10.2364
宗族	-10.2365
廼	-10.2365
而終	-10.2366
故稱	-10.237
中之	-10.2376
之首	-10.2379
非特	-10.2381
則當	-10.2384
彼其之子	-10.2388
倉庚	-10.2388
乖	-10.239
溺	-10.239
雖不	-10.239
顛	-10.2391
遜	-10.2393
軫	-10.2395
聼	-10.2396
讎	-10.2397
者葢	-10.2399
心之	-10.24
天道	-10.2401
不聞	-10.2402
候人	-10.2402
九年	-10.2406
皆非	-10.241
東征	-10.2412
盛徳	-10.2421
八尺	-10.2426
一韻	-10.2428
篇中	-10.2433
獻之	-10.2441
也但	-10.2442
長大	-10.2442
康王	-10.2444
以封	-10.2444
謨	-10.2444
芮	-10.2451
俯	-10.2452
以事	-10.246
勑	-10.246
我以	-10.2468
不敬	-10.247
類也	-10.2472
峻	-10.2482
德之	-10.2483
凉	-10.2486
路寢	-10.2486
既醉	-10.2487
桓王	-10.2492
巷伯	-10.2492
徐方	-10.2498
棠	-10.2502
人倫	-10.2502
多士	-10.2503
士之	-10.2504
又音	-10.2506
吉日	-10.2506
微子	-10.2506
三百篇	-10.2509
鳶	-10.2513
未至	-10.2519
于外	-10.2522
而至於	-10.2526
入于	-10.2531
碩大	-10.2532
字從	-10.2533
皆不	-10.2535
南北	-10.2542
次序	-10.2545
瑱	-10.255
㓜	-10.2551
於下	-10.2559
或以為	-10.2562
而言之	-10.2562
壽考	-10.2565
此說	-10.2566
音同	-10.2567
者此	-10.2571
治其	-10.2574
名為	-10.2579
跋	-10.2579
黜	-10.2582
鱗	-10.2582
靷	-10.2582
執競	-10.2583
奕奕	-10.2584
飯	-10.2584
既言	-10.2585
少牢	-10.2586
禍亂	-10.2589
所及	-10.259
故次之以	-10.2594
明是	-10.2597
皇祖	-10.2598
孟子曰	-10.2602
獨言	-10.2606
太原	-10.2606
釣	-10.2611
將以	-10.2614
曲禮	-10.2614
息也	-10.2614
人道	-10.2617
刺王	-10.2618
》、	-10.2621
之憂	-10.263
而不見	-10.263
也蘇氏曰	-10.2635
脚	-10.2637
不通	-10.2638
可通	-10.264
輦	-10.2648
清明	-10.2651
者所以	-10.2653
東人	-10.2654
故以為	-10.2654
動也	-10.266
矣今	-10.2667
萍	-10.2668
兩章	-10.2668
纍	-10.2671
者是也	-10.2674
滯	-10.2674
文王之化	-10.2678
君也	-10.2682
是用	-10.2683
國名	-10.2684
皆同	-10.2684
猶云	-10.2685
楸	-10.2691
毛以	-10.2691
至是	-10.2696
有司	-10.2698
此二	-10.2698
其類	-10.2698
諧	-10.2705
過也	-10.2706
阮	-10.2707
囚	-10.2708
思古	-10.2709
猷	-10.2709
而長	-10.2715
將帥	-10.2716
之妻	-10.2717
列國	-10.2718
揖	-10.2723
薛	-10.2726
不遑	-10.273
之謀	-10.2735
汚	-10.2738
葭	-10.2738
沒	-10.274
青蠅	-10.274
焚	-10.2741
前篇	-10.2744
章七句	-10.2744
也古者	-10.2745
無衣	-10.2758
其初	-10.276
穿	-10.2765
狗	-10.2765
云爾	-10.2766
之勢	-10.2767
亶	-10.277
之盛也	-10.2776
十二年	-10.2788
猶可	-10.2793
喜樂	-10.2796
敕	-10.2804
之飾	-10.2808
吉士	-10.2809
天命之	-10.2812
非禮	-10.2813
此云	-10.2816
梧桐	-10.283
刃	-10.2832
韋昭	-10.2833
纒	-10.2834
鴻鴈	-10.2836
良人	-10.2839
河南	-10.2843
赤色	-10.2844
而實	-10.2846
楚丘	-10.2849
淇水	-10.2855
申之	-10.2859
菀	-10.2864
洲	-10.2868
拂	-10.2869
秩	-10.2869
暗	-10.2871
樂章	-10.2872
鮮明	-10.2875
東萊曰	-10.2876
東北	-10.2884
不來	-10.2886
將將	-10.2896
溱洧	-10.2897
己之	-10.2898
十月之交	-10.29
首章言	-10.291
壻	-10.2911
首尾	-10.2913
之惡	-10.2923
柯	-10.2926
芾	-10.2926
分别	-10.2926
叚	-10.2933
飭	-10.2933
沚	-10.2934
竦	-10.2934
是謂	-10.2937
說文作	-10.2937
言之則	-10.2942
以供	-10.2953
綠	-10.2953
頃	-10.2955
衛人	-10.2958
確	-10.2959
駮	-10.2963
采菽	-10.2966
饁	-10.2966
以歸	-10.2967
在彼	-10.2973
十一年	-10.2974
家父	-10.2974
肄	-10.2974
魯人	-10.2978
可也	-10.298
亮	-10.2985
去其	-10.2989
不窋	-10.2992
之役	-10.2996
頻	-10.2998
矦	-10.2998
而且	-10.2999
雝雝	-10.3
二公	-10.3
蜩	-10.3001
五帝	-10.3001
焉則	-10.3006
成而	-10.3011
倍	-10.3015
陸佃云	-10.3021
蜂	-10.3022
囊	-10.3024
羹	-10.3024
豐本	-10.3028
出而	-10.3028
奭	-10.303
彛	-10.3032
婁	-10.3032
饌	-10.3034
家人	-10.3035
簫	-10.3035
素絲	-10.304
》《	-10.3043
牟	-10.3048
葉如	-10.3049
在野	-10.305
申后	-10.3051
泣	-10.3057
公族	-10.3062
泮水	-10.3063
乂	-10.3063
行則	-10.3064
豵	-10.3064
眞	-10.3065
人謂之	-10.3067
𫝊正義曰	-10.3073
也愚按	-10.3074
荘	-10.3075
六尺	-10.3082
堇	-10.3085
斯干	-10.3089
東門	-10.3089
黄帝	-10.3089
西周	-10.309
其馬	-10.3093
則不可	-10.3094
杜預	-10.3095
漏	-10.3096
廹	-10.3096
幅	-10.3096
亞	-10.3097
正義曰毛以為	-10.3097
穉	-10.31
如彼	-10.3104
不食	-10.3105
入於	-10.3121
多福	-10.3123
僚	-10.3125
燕射	-10.3127
淪	-10.3129
朕	-10.3129
伊尹	-10.313
大事	-10.3131
未能	-10.3132
薺	-10.3132
賛	-10.3133
囘	-10.3134
小戎	-10.3135
之位	-10.3137
人之所	-10.3138
熾	-10.3147
樂易	-10.3158
伍	-10.3164
褎	-10.3164
韓詩云	-10.3165
而為之	-10.3167
詩以	-10.3168
大東	-10.3169
施於	-10.317
其在	-10.3171
藏之	-10.3171
女之	-10.3173
春官	-10.3175
愧	-10.3179
字从	-10.3183
列於	-10.3186
處也	-10.3186
厚也	-10.3191
韠	-10.3192
視朝	-10.3196
付	-10.3196
駵	-10.3196
董	-10.3197
也鄭曰	-10.3199
華谷嚴氏曰	-10.3211
有德	-10.3213
下土	-10.3214
枸	-10.3222
章五句	-10.3223
之誤	-10.3231
冢	-10.3232
以安	-10.3234
推本	-10.3241
讒言	-10.3242
鼈	-10.325
非徒	-10.3251
天保	-10.3259
多也	-10.3263
祁祁	-10.3264
樛木	-10.3265
此乃	-10.3266
伐柯	-10.3266
愬	-10.3268
季女	-10.3272
者多	-10.3276
暴公	-10.3276
之厚	-10.3276
淑女	-10.3278
聖賢	-10.3291
上公	-10.3291
記云	-10.3293
鴇	-10.3293
衝	-10.3295
洧	-10.3296
鄧	-10.33
殿	-10.33
悅	-10.3302
序説	-10.3305
絲衣	-10.3308
去也	-10.3311
臣下	-10.3312
集于	-10.332
氏云	-10.3324
故不	-10.3326
轅	-10.3328
重言	-10.3336
簟	-10.3336
割	-10.3337
甥	-10.3338
無一	-10.3347
如雲	-10.3356
融	-10.3358
蓬	-10.3361
秬	-10.3362
柱	-10.3365
其家	-10.3366
疊	-10.3367
汎	-10.3367
歌之	-10.3369
詩所謂	-10.3376
所由	-10.3389
王國	-10.3395
燕饗	-10.3395
其惡	-10.3396
國中	-10.3396
乳	-10.3397
彫	-10.3397
倬	-10.3399
捋	-10.34
侑	-10.34
祜	-10.3401
韓奕	-10.3401
幽王之	-10.3404
哀公	-10.3408
不可得	-10.3409
見于	-10.3414
也箋	-10.3416
廣雅	-10.3429
木也	-10.343
寝	-10.343
駉	-10.3433
所出	-10.3434
列女傳	-10.3439
范氏處義曰	-10.344
大而	-10.3441
滌	-10.3457
之君子	-10.3467
希	-10.3469
慝	-10.3471
者當	-10.3477
同時	-10.3481
之大者	-10.3481
不畏	-10.3481
已有	-10.3482
風雅	-10.3493
理之	-10.3496
三篇	-10.3498
臣工	-10.3501
搏	-10.3502
卭	-10.3503
妖	-10.3504
頼	-10.3504
射之	-10.3505
作此	-10.3507
輸	-10.351
賤者	-10.3511
鄭箋云	-10.3515
序以為	-10.3517
亦謂之	-10.3527
之由	-10.3529
征役	-10.3532
而致	-10.3534
揆	-10.3534
河上	-10.3536
箇	-10.354
槩	-10.3541
恭敬	-10.3541
闊	-10.3541
相見	-10.3541
卉	-10.3543
之餘	-10.3544
卷阿	-10.3544
鄭康成	-10.3548
職云	-10.3551
欲以	-10.3552
今從	-10.3557
便是	-10.356
共伯	-10.3565
脊	-10.3567
巡守	-10.357
用此	-10.3571
輒	-10.3576
何反	-10.3579
有聲	-10.3582
耳非	-10.3589
刺厲王	-10.359
莫之	-10.3593
魯侯	-10.3597
百官	-10.3597
詩人之	-10.3605
齊桓	-10.3605
株林	-10.3605
是故	-10.3606
擊鼓	-10.3607
謗	-10.3607
狡	-10.3607
也鄭	-10.3608
往往	-10.3623
蒹葭	-10.363
舂	-10.3633
蕨	-10.3636
返	-10.364
糾	-10.364
濶	-10.3641
周語	-10.3641
以祀	-10.3642
脯	-10.3644
判	-10.3645
之舊	-10.3649
者矣	-10.365
釋草	-10.3654
晨風	-10.3654
十八	-10.3663
之樂歌	-10.367
歸而	-10.3671
車攻	-10.3674
鋭	-10.3675
藴	-10.3676
杖	-10.3677
珍	-10.3678
其憂	-10.3678
文也	-10.3679
蔚	-10.3679
載馳	-10.3685
叶居	-10.3689
故名	-10.3692
語意	-10.3699
藿	-10.3702
繼之	-10.3707
態	-10.3711
豪	-10.3712
乞	-10.3715
鼻	-10.3717
其終	-10.3719
而民	-10.3721
嘉賔	-10.3724
之北	-10.3731
下泉	-10.374
於是乎	-10.374
相土	-10.3741
則能	-10.3742
衆人	-10.3744
郭注	-10.3745
為樂	-10.3746
轍	-10.3748
田畯	-10.3749
未盡	-10.3749
唐棣	-10.3749
憲	-10.375
不知何	-10.3751
又何	-10.3752
爵弁	-10.3753
誤也	-10.376
昏禮	-10.3762
也爾雅	-10.3763
五色	-10.3767
不思	-10.3775
安定	-10.3778
蜡	-10.3782
扈	-10.3784
之用	-10.3784
館	-10.3786
此所以	-10.3786
錫之	-10.3791
子貢傳	-10.3797
大功	-10.3805
而止	-10.3813
隋	-10.3813
猗嗟	-10.3816
鄉射	-10.3816
即所謂	-10.3817
喈喈	-10.3819
跂	-10.3819
踈	-10.382
沱	-10.382
得見	-10.3824
墳	-10.3825
公羊	-10.3825
不特	-10.3825
芻	-10.3828
放此	-10.3835
吕氏	-10.3835
如玉	-10.3836
水經注	-10.3837
此類	-10.384
經傳	-10.3843
何必	-10.3856
定本	-10.3857
以養	-10.3857
而求	-10.386
酷	-10.386
觥	-10.3861
遥	-10.3862
四章言	-10.3868
惟恐	-10.3871
九族	-10.3874
福祿	-10.3876
小星	-10.3876
兔罝	-10.3888
栩	-10.3888
引之	-10.3889
成其	-10.3892
襃姒	-10.3894
賓客	-10.3898
還歸	-10.39
六轡	-10.39
而使	-10.3903
此人	-10.3903
其位	-10.3906
世之	-10.3913
覲	-10.3919
不幸	-10.392
為人	-10.392
置之	-10.392
沐	-10.392
粒	-10.3921
而王	-10.3924
謔	-10.3924
脊令	-10.3928
諸篇	-10.3931
附庸	-10.3931
行列	-10.3939
焉故	-10.3945
也詩曰	-10.3952
〇	-10.3953
其生	-10.3955
穡	-10.3958
享之	-10.3961
溫	-10.3964
者由	-10.3965
挹	-10.3966
攜	-10.3966
六十	-10.3974
于飛	-10.3975
其常	-10.3982
者名	-10.3984
秦仲	-10.3984
郊祀	-10.3988
在朝	-10.399
之來	-10.3992
韻亦叶	-10.3993
值	-10.3994
集傳興也	-10.3997
旃	-10.3998
氐	-10.3999
謀之	-10.4008
為政	-10.4009
以備	-10.4011
所止	-10.4015
河水	-10.402
國史	-10.4022
定其	-10.4023
也周禮	-10.4025
毖	-10.4025
之所為	-10.403
九罭	-10.403
墉	-10.4032
冒	-10.4035
襍	-10.4035
閲	-10.4035
若曰	-10.4036
膴	-10.4038
水鳥	-10.4039
而巳	-10.4039
飄風	-10.4043
承上章	-10.4048
八年	-10.4048
御者	-10.4049
地也	-10.405
之心也	-10.4052
不均	-10.4052
心也	-10.4053
巧言	-10.4063
貶	-10.4072
姦	-10.4073
郊特牲	-10.4073
儆	-10.4074
旄丘	-10.4083
成也	-10.4086
陽縣	-10.4086
上章言	-10.4088
所得	-10.4094
際	-10.4095
棄其	-10.4097
据	-10.4102
然矣	-10.4103
芒	-10.4104
不取	-10.4107
局	-10.4107
不順	-10.4107
本義	-10.4108
日食	-10.4112
苦菜	-10.4112
麌	-10.4113
終也	-10.4114
嘉賓	-10.4116
得其所	-10.4124
之精	-10.4125
狀如	-10.4128
莞	-10.4134
父之	-10.4136
禰	-10.414
補音	-10.414
盜	-10.4141
捷	-10.4142
填	-10.4142
之形	-10.4144
贅	-10.4145
北風	-10.4146
自言	-10.4148
人君之	-10.4151
徳也	-10.4154
皇矣	-10.4161
張氏曰	-10.4168
緇	-10.4173
騶	-10.4174
吞	-10.4176
令人	-10.4177
之方	-10.4177
昔者	-10.4179
之事而	-10.418
後漢	-10.4181
㸔	-10.4183
熏	-10.4183
逺也	-10.4193
夏正	-10.4193
殷武	-10.4194
六師	-10.4196
願其	-10.4199
所能	-10.42
新昏	-10.4202
以起興	-10.4203
鄭以為	-10.4204
念之	-10.4204
淫奔	-10.4205
作于	-10.4206
錢氏曰	-10.4212
其子孫	-10.4214
藪	-10.4217
籩	-10.4219
劉氏	-10.4223
明年	-10.4225
撥	-10.4238
景山	-10.4242
者自	-10.4243
訖	-10.4245
穿鑿	-10.4248
風也	-10.4249
枯	-10.4251
抽	-10.4251
筍	-10.4253
霸	-10.4253
祇	-10.4253
漬	-10.4253
蝃蝀	-10.4254
壬	-10.4254
杼	-10.4255
蟊賊	-10.4256
盗	-10.4257
姻	-10.4257
四尺	-10.4259
也彼	-10.4262
凢	-10.4263
陸氏	-10.4272
如一	-10.4274
以及	-10.4277
以樂	-10.428
筮	-10.4285
何如	-10.4286
翅	-10.4288
雩	-10.4292
相對	-10.4293
佑	-10.4294
優游	-10.4294
大夫妻	-10.4295
明言	-10.4297
麟趾	-10.4298
一朝	-10.4301
匪風	-10.4302
而大	-10.4303
鼉	-10.4306
文徳	-10.4306
三千	-10.4307
甚多	-10.4313
也毛曰	-10.4322
賢妃	-10.4323
訴	-10.4326
然有	-10.4326
托	-10.4328
書傳	-10.4332
漚	-10.4333
主於	-10.4339
間有	-10.4352
者即	-10.4357
盡也	-10.4359
凡伯	-10.4361
庇	-10.4364
之㫖	-10.4365
不勝	-10.4365
宛丘	-10.4368
之東	-10.4368
作人	-10.4369
我將	-10.4369
南有嘉魚	-10.4372
策	-10.4372
者正	-10.4372
十二月	-10.4373
鄭氏謂	-10.4374
烈烈	-10.4377
正是	-10.4378
則此	-10.4381
水出	-10.4382
不可得而	-10.4384
王政	-10.4385
變而	-10.4389
其形	-10.4394
朔方	-10.4397
妹	-10.4399
覽	-10.4401
當有	-10.4401
涕	-10.4402
泲	-10.4402
王風	-10.4403
迭	-10.4404
亹	-10.4404
暢	-10.4405
㨗	-10.4405
濵	-10.4407
伸	-10.4407
禋祀	-10.4409
士卒	-10.4413
所思	-10.4413
後儒	-10.4418
新臺	-10.4422
也案	-10.4425
文王受命	-10.4428
人主	-10.4429
土田	-10.443
下篇	-10.4431
未成	-10.4432
不可以不	-10.4437
序者	-10.4439
屑	-10.4444
褰裳	-10.4445
劉氏曰	-10.4447
陟彼	-10.4463
莫如	-10.4466
詩有	-10.4468
犧	-10.4469
五反	-10.4469
㦸	-10.4471
刺幽王	-10.4473
髙大	-10.4475
歸也	-10.4476
仁義	-10.4478
義理	-10.4479
在廟	-10.448
以至	-10.4481
噫嘻	-10.4483
控	-10.4484
所指	-10.4485
毗	-10.4486
周南召南	-10.449
使其	-10.449
也故曰	-10.4495
故詩	-10.4502
隂雨	-10.451
成文	-10.4512
而可	-10.4513
清人	-10.4513
終風	-10.4514
由是	-10.4515
祈父	-10.4517
荑	-10.4518
遄	-10.4521
絜	-10.4521
羡	-10.4524
萋萋	-10.4527
復有	-10.4527
十篇	-10.4529
公孫	-10.4539
室家之	-10.4545
邢疏	-10.4547
歸寧	-10.4549
申公	-10.4551
尊之	-10.4554
軾	-10.4554
其舊	-10.4555
其行	-10.4557
税	-10.456
潤澤	-10.4565
不正	-10.4567
上之人	-10.4568
大邦	-10.458
滅之	-10.4582
其罪	-10.4584
而上	-10.4584
生于	-10.4586
男女相	-10.4588
蘀	-10.4594
童子	-10.4595
芟	-10.4596
矯	-10.4596
名曰	-10.4598
麕	-10.4599
墮	-10.4599
乏	-10.46
不恤	-10.4601
言外	-10.4602
毛氏萇曰	-10.4602
誰謂	-10.4602
它	-10.4604
帝嚳	-10.4605
六句	-10.4605
所陳	-10.4607
章十二句	-10.4607
三嵗	-10.4615
維清	-10.4621
椅	-10.4623
惡也	-10.4624
韔	-10.4631
寅	-10.4633
子云	-10.4633
俶	-10.4635
忠信	-10.4635
引此	-10.4641
逼	-10.4645
潔白	-10.4646
張子曰	-10.4653
牧人	-10.4659
方伯	-10.4663
患難	-10.4663
如今	-10.4666
而往	-10.4666
門内	-10.467
無人	-10.467
䕶	-10.4672
其妻	-10.4675
荇菜	-10.4675
誇	-10.4675
崧髙	-10.4676
鶬	-10.4678
彰	-10.4678
其政	-10.468
佞	-10.4694
數也	-10.4694
之田	-10.4695
之所由	-10.4697
桃夭	-10.4697
無怨	-10.4704
之俗	-10.4708
蹈	-10.4709
蹻蹻	-10.4711
握	-10.4714
相合	-10.4714
鞫	-10.4717
麋	-10.4718
門外	-10.4719
大夫士	-10.4728
莫敢	-10.4729
也傳正義曰	-10.4734
夏之	-10.4735
七子	-10.4737
晉人	-10.4738
無他	-10.474
祉	-10.4748
拊	-10.475
莎	-10.4752
物而	-10.4753
成就	-10.4756
遡	-10.4758
堂上	-10.4758
郷	-10.4758
之久	-10.4759
為異	-10.4762
也二章	-10.4766
安樂	-10.4767
得賢	-10.4774
鉦	-10.4776
未有不	-10.4777
與其	-10.4785
無子	-10.4788
翬	-10.4788
相戒	-10.4789
涖	-10.479
姜氏	-10.4791
干旄	-10.4795
可畏	-10.4799
訛言	-10.4808
久也	-10.4809
馳驅	-10.4813
令徳	-10.4815
者或	-10.4817
為長	-10.4817
經云	-10.4817
尚有	-10.4819
薁	-10.4821
証	-10.4828
棫樸	-10.4829
蓼蕭	-10.4832
也詩人	-10.4833
今考	-10.4833
憯	-10.4833
魯公	-10.4835
孕	-10.4838
廷	-10.486
八十	-10.486
話	-10.4862
左𫝊	-10.4862
訪	-10.4863
勾	-10.4864
諸詩	-10.4867
言無	-10.4869
促	-10.487
齊侯之子	-10.4875
安能	-10.4875
自傷	-10.4884
要之	-10.4886
嚴氏	-10.4888
保其	-10.4889
行人	-10.4889
三詩	-10.4889
大序	-10.4893
顔師古	-10.4905
之事故	-10.4906
盤庚	-10.4906
聲音	-10.4906
弼	-10.4906
冦	-10.4907
湛	-10.4908
三監	-10.4912
芄蘭	-10.4913
捨	-10.4913
綦	-10.4914
饗之	-10.4915
家語	-10.4919
十五年	-10.4923
豈能	-10.4929
譌	-10.4935
仁人	-10.4936
黒色	-10.4936
詩記	-10.4936
功也	-10.4936
祚	-10.4942
柴	-10.4942
逺而	-10.4943
箭	-10.4944
蓺	-10.4945
㸃	-10.4948
竹竿	-10.4948
古之人	-10.4949
陂	-10.495
蟄	-10.4951
斤	-10.4951
十三年	-10.4952
備也	-10.4953
㬥	-10.4953
廉	-10.4954
有節	-10.4955
之類是也	-10.4956
定也	-10.4957
昴	-10.496
爽	-10.4972
作此詩	-10.4973
殳	-10.4976
二百	-10.4976
誥	-10.4978
葑	-10.4978
天官	-10.4981
世世	-10.4982
虡	-10.4987
王事靡盬	-10.4989
鞞	-10.499
釋文云	-10.499
豐水	-10.4993
所引	-10.4993
鴇羽	-10.4993
其一	-10.4995
尹吉甫	-10.4995
罷	-10.4996
石經	-10.5
有力	-10.5001
能盡	-10.5003
泰山	-10.5006
矣夫	-10.5007
明白	-10.5009
㑹同	-10.5009
無非	-10.501
也此言	-10.5013
宵	-10.5016
志云	-10.502
之誠	-10.5022
在内	-10.5022
皆無	-10.5025
飄	-10.5025
噐	-10.5027
綿	-10.5027
栲	-10.5028
吴	-10.5028
唐風	-10.5031
人民	-10.5032
良耜	-10.5033
賢女	-10.5035
未嘗不	-10.5036
王城	-10.504
於文王	-10.5041
諸矦	-10.5042
二章章六句	-10.5042
不親	-10.5047
三代	-10.505
不歸	-10.5051
五采	-10.5053
載之	-10.5059
先人	-10.506
無異	-10.5061
四篇	-10.5061
之恩	-10.5062
簡兮	-10.5065
小宛	-10.5065
其事也	-10.5065
直言	-10.5066
鞉	-10.5068
熙	-10.5069
缶	-10.5069
小旻	-10.5078
諸侯也	-10.5078
釋之	-10.5079
木𤓰	-10.5082
管叔	-10.5083
鄒	-10.5088
驂馬	-10.5096
大率	-10.5096
昆	-10.5096
聚也	-10.5101
柘	-10.5102
鵰	-10.5102
而入	-10.5102
來歸	-10.5105
阜螽	-10.5105
觶	-10.5107
溉	-10.5111
緡	-10.5112
而天下	-10.5113
讐	-10.5114
嚴云	-10.5114
潜	-10.5116
之效	-10.5117
獨行	-10.5118
之先	-10.5124
從事	-10.5128
長而	-10.5129
於義	-10.5135
祭也	-10.5137
捕	-10.5144
堅固	-10.5144
雕	-10.5145
夏小正	-10.5145
字林	-10.5146
雍州	-10.5147
水草	-10.515
不失其	-10.5153
傲	-10.5154
嗜	-10.5156
㝠	-10.5157
為天	-10.5157
輈	-10.5157
二篇	-10.5158
之别	-10.5158
而告之	-10.5163
其命	-10.5163
篇云	-10.517
恐懼	-10.5178
魯之	-10.5179
黻	-10.5189
后妃之	-10.519
古文	-10.5192
狎	-10.5192
及爾	-10.5193
顛倒	-10.5193
卧	-10.5194
淮南	-10.5196
士大夫	-10.5196
乎其	-10.5196
春秋書	-10.5197
合而	-10.5198
皮為	-10.5198
檢	-10.52
齊桓公	-10.5203
意思	-10.5204
正與	-10.5207
草名	-10.5208
不知所	-10.5216
存之	-10.5217
然亦	-10.5218
聞其	-10.522
刺其	-10.5223
齊詩	-10.5224
膳	-10.5225
亥	-10.5227
迺	-10.5228
絡	-10.5229
犀	-10.5229
蓍	-10.523
從而	-10.5231
耽	-10.5232
熈	-10.5232
構	-10.5234
而遂	-10.5234
鄭𤣥	-10.5248
書云	-10.5254
長發	-10.5257
餐	-10.5266
纁	-10.5271
上篇	-10.5275
該	-10.5275
勞之	-10.5276
屬也	-10.5278
匕	-10.5287
君子有酒	-10.5287
之基	-10.5288
者如此	-10.5289
二三	-10.5289
進也	-10.5292
師氏	-10.5295
遑	-10.5297
合於	-10.5301
下言	-10.5302
乃以	-10.5305
雌雄	-10.5313
死亡	-10.5314
爨	-10.5315
觀之則	-10.5316
漁	-10.5316
臻	-10.5317
忿	-10.5317
𦙍	-10.5319
偕老	-10.532
鳥也	-10.5321
以下皆	-10.5323
在西	-10.5325
貴者	-10.5329
平易	-10.5331
荀	-10.5336
亦為	-10.5338
宜為	-10.5339
既已	-10.5344
亦同	-10.5353
婦子	-10.5354
鷮	-10.5355
饎	-10.5355
沉	-10.5356
粗	-10.5356
旱麓	-10.5357
暫	-10.5357
而用之	-10.5358
搖	-10.536
遍	-10.5361
額	-10.5362
憐	-10.5367
男女之	-10.5373
周行	-10.5373
此之謂	-10.5377
信南山	-10.5378
同心	-10.5394
煑	-10.5395
修徳	-10.5399
虺	-10.5399
程曰	-10.5422
也朱曰	-10.5424
詩說	-10.5425
知此	-10.5433
瑩	-10.5435
矩	-10.5437
𩔖	-10.5438
遲遲	-10.544
燥	-10.5441
挈	-10.5441
孌	-10.5446
孫毓	-10.5446
種之	-10.5447
娣	-10.5448
徳而	-10.5455
荘公	-10.5456
耳若	-10.5458
徐鍇云	-10.5458
作詩者	-10.5461
受其	-10.5463
以禦	-10.5473
蹄	-10.5477
思無邪	-10.5478
同意	-10.5479
洵	-10.5481
壇	-10.5482
菼	-10.5485
振鷺	-10.5487
君子偕老	-10.5494
一國	-10.5495
愚按此	-10.55
刺時也	-10.55
玉藻	-10.5502
為興	-10.5508
無期	-10.5511
自相	-10.5514
所致	-10.5519
自此	-10.5519
之别名	-10.552
纘	-10.5522
埤雅云	-10.5522
灰	-10.5523
緜緜	-10.5523
北門	-10.5525
亦可以	-10.5526
彩	-10.5526
蚤	-10.5526
之宜	-10.5526
洋洋	-10.5528
今王	-10.5531
應之	-10.5531
李氏樗曰	-10.5531
執事	-10.5532
庖	-10.5533
鱧	-10.5535
大夫刺幽王也	-10.5537
離散	-10.5537
行露	-10.5541
此其所以	-10.5542
别有	-10.5546
二尺	-10.555
涇水	-10.5556
碩鼠	-10.5558
山海經	-10.5559
首句	-10.5559
覃	-10.5561
蓴	-10.5566
肺	-10.5566
忘其	-10.5569
寢廟	-10.557
召旻	-10.5571
賂	-10.5572
以象	-10.5572
宗子	-10.5572
能使	-10.5573
其勢	-10.5574
人掌	-10.5576
悠	-10.5585
説文曰	-10.5586
當依	-10.5587
豈無	-10.5595
都邑	-10.5598
孫炎	-10.5603
陳其	-10.5604
迄	-10.5608
絺	-10.5608
祐	-10.5609
歸於	-10.5611
坎	-10.5612
核	-10.5614
脅	-10.5616
骨肉	-10.5618
綱紀	-10.5623
樂歌	-10.5629
孝孫	-10.5634
乘馬	-10.5635
角弓	-10.5635
之過	-10.5635
而無所	-10.5638
糧	-10.5641
既見	-10.5643
肆夏	-10.5643
褐	-10.5643
從王	-10.5646
信之	-10.5646
定之方中	-10.5649
馘	-10.5652
夸	-10.5652
維何	-10.5653
居處	-10.5654
途	-10.5655
一説	-10.5656
橋	-10.5656
之遺	-10.5657
稱之	-10.5659
傳以	-10.5665
不克	-10.567
也又曰	-10.5676
變雅	-10.5676
於天子	-10.568
盛而	-10.5682
一體	-10.5682
故作此詩	-10.5684
鄭氏以	-10.5684
其儀	-10.5688
萬世	-10.5689
本無	-10.5689
不義	-10.5691
車服	-10.5691
祭而	-10.5692
頂	-10.5693
鬻	-10.5694
埽	-10.5696
南陔	-10.5699
磨	-10.5701
不服	-10.5703
烈文	-10.5707
木名	-10.5708
白駒	-10.5709
必不	-10.5714
何氏	-10.572
善道	-10.5722
䖍	-10.5724
貍	-10.573
一身	-10.5732
也惟	-10.5735
姞	-10.5737
春夏	-10.5738
人謂	-10.5739
南山有臺	-10.574
傚	-10.5741
郭註	-10.5746
中宗	-10.5747
栘	-10.5747
次之	-10.5748
義也	-10.5749
後漢書	-10.5752
菜也	-10.5754
水名	-10.5757
又不	-10.5758
尊者	-10.5767
興師	-10.5771
老者	-10.5773
鄭風	-10.5773
其兄	-10.5774
墓	-10.5779
垢	-10.578
脆	-10.5783
煮	-10.5783
從其	-10.5784
卯	-10.5785
眉壽	-10.5786
云云	-10.5788
用賢	-10.5789
抗	-10.5789
天意	-10.5794
貴賤	-10.5795
王使	-10.5798
子貢	-10.5798
思歸	-10.58
色之	-10.58
鑣	-10.5802
其力	-10.5812
嚴華谷	-10.5816
爛	-10.5819
鵙	-10.5822
至誠	-10.5824
韭	-10.5826
嘉魚	-10.5826
彘	-10.5827
十里	-10.5827
闇	-10.5827
溱	-10.5827
鳳凰	-10.583
做	-10.583
終身	-10.5832
正其	-10.5835
亦孔之	-10.5836
以報	-10.5836
不惟	-10.5836
班固	-10.5838
久而	-10.5839
下句	-10.5839
事君	-10.5842
此心	-10.5848
黎侯	-10.5851
陽氣	-10.5861
泄泄	-10.5864
之教	-10.5867
燒	-10.5871
雨無正	-10.5872
豚	-10.5873
佼	-10.5874
而行之	-10.5875
菲	-10.5879
師旅	-10.5881
羣小	-10.5884
良反	-10.5884
頌之	-10.5885
士女	-10.5891
語助	-10.5891
後章	-10.5895
族人	-10.5896
並同	-10.5896
當如	-10.5902
在前	-10.5903
苹	-10.5907
日之	-10.5909
朗	-10.591
寶	-10.5912
汎汎	-10.5913
捄	-10.5914
无	-10.5916
有五	-10.5917
萋	-10.5917
無知	-10.5926
發發	-10.593
親戚	-10.5936
故君子	-10.5938
也三章	-10.5944
戴媯	-10.5946
之勤	-10.5947
特以	-10.5948
竄	-10.5953
情性	-10.5955
鹽	-10.5955
葍	-10.5956
賀	-10.5957
馭	-10.5958
釡	-10.5958
而相	-10.596
韓詩外傳	-10.5961
紞	-10.5962
箋以	-10.5964
百年	-10.5965
素冠	-10.5967
夏后氏	-10.5972
樂而	-10.5973
微弱	-10.598
無斁	-10.5982
與我	-10.5986
也君子	-10.599
追述	-10.5992
云凡	-10.5992
鉞	-10.5997
百神	-10.5998
憤	-10.5998
翺翔	-10.5999
寤寐	-10.6
遁	-10.6001
於齊	-10.6004
未定	-10.6008
女蘿	-10.601
實維	-10.6011
河東	-10.6017
兩句	-10.6021
孝經	-10.6024
人事	-10.6025
三后	-10.6029
樂官	-10.603
于野	-10.6031
竊意	-10.6031
耳然	-10.6039
松柏	-10.6041
津	-10.6046
芸	-10.6046
武夫	-10.6046
徽	-10.6047
詐	-10.6047
相從	-10.6051
鏤	-10.6052
之閒	-10.6052
當然	-10.6055
也鄭云	-10.6059
豈得	-10.6063
𫝊曰	-10.6067
蘇公	-10.6071
謀也	-10.6074
庶士	-10.6075
湛露	-10.6075
於乎	-10.6082
為美	-10.6083
為義	-10.6087
如此故	-10.6088
合樂	-10.6091
沸	-10.6091
胄	-10.6092
丑	-10.6092
宗室	-10.6093
說文曰	-10.6094
大夫之	-10.6095
十一	-10.6095
羆	-10.6095
碩䑕	-10.6096
為周	-10.6098
明德	-10.6099
亦如之	-10.6105
以配	-10.6107
一章言	-10.6107
不祥	-10.6108
湯湯	-10.6108
者豈	-10.6116
委曲	-10.6117
孔甚	-10.6119
木之	-10.6124
祖廟	-10.6126
詩義	-10.6129
樞	-10.613
㳺	-10.6131
周王	-10.6134
赴	-10.6135
寇	-10.6136
葬	-10.6138
許慎	-10.6147
流離	-10.6149
司空	-10.6151
發明	-10.6151
養也	-10.6159
始有	-10.6159
奈何	-10.6163
篤厚	-10.6165
貞女	-10.6168
以風	-10.6172
牀	-10.6172
尚可	-10.6174
汜	-10.6178
騰	-10.618
掲	-10.6181
鬛	-10.6181
戮	-10.6181
金縢	-10.6182
薨	-10.6182
快	-10.6184
狄人	-10.6184
十有二	-10.6186
豳雅	-10.6189
留之	-10.6189
四夷	-10.619
大司馬	-10.6193
不改	-10.6196
賢才	-10.6199
治兵	-10.6208
附㑹	-10.6211
而作此詩	-10.6214
不類	-10.6215
枲	-10.6215
指其	-10.6218
綬	-10.6221
度其	-10.6224
荆州	-10.6224
愛其	-10.6225
芃芃	-10.6226
十九	-10.6227
稚	-10.6228
國事	-10.6229
睠	-10.6231
告於	-10.6233
宫中	-10.6237
乗馬	-10.6241
於諸侯	-10.6253
甞	-10.6256
之所謂	-10.6257
熠燿	-10.6258
而猶	-10.6259
甚於	-10.626
祭統	-10.6261
用力	-10.6261
我者	-10.6261
鈎	-10.6263
江南	-10.6264
楫	-10.6269
嘯	-10.627
訏	-10.627
靣	-10.6271
嗚呼	-10.6272
潁	-10.6273
風雅頌	-10.6275
頽	-10.6276
其勞	-10.6278
然如	-10.6279
豐鎬	-10.6281
制禮	-10.6282
瓠葉	-10.6284
保介	-10.6287
將亡	-10.629
古公	-10.6291
故得	-10.6291
有文	-10.6292
禽經	-10.6294
䇿	-10.6302
所行	-10.6302
皆用	-10.6304
不以為	-10.6307
實有	-10.6308
至今	-10.6309
算	-10.631
危亡	-10.631
首言	-10.6311
無定	-10.6312
酤	-10.6314
蒐	-10.6315
株	-10.6315
其居	-10.6316
縢	-10.6318
噫	-10.632
漢儒	-10.632
黄耉	-10.6321
庶㡬	-10.6324
皆指	-10.6328
百畝	-10.6329
姒	-10.6332
義曰	-10.6332
救之	-10.6334
孟春	-10.6336
總聞曰	-10.6354
曹氏	-10.6361
玄	-10.6362
下云	-10.6364
飱	-10.6364
昆吾	-10.6369
升歌	-10.6371
之器	-10.6373
教化	-10.6375
又按	-10.6375
日出	-10.6378
不寧	-10.6381
衡門	-10.6387
亂而	-10.6389
聲聞	-10.6393
可不	-10.6393
此非	-10.6394
自以為	-10.6394
未敢	-10.6396
坤	-10.6403
唁	-10.6404
逰	-10.6405
三日	-10.6407
𨽻	-10.6407
摘	-10.6408
長短	-10.6409
相去	-10.641
大禘	-10.6412
六軍	-10.6412
祁	-10.6414
邑也	-10.6416
無間	-10.6423
色也	-10.643
節南山	-10.6434
亦何	-10.6441
譬如	-10.6446
所自	-10.6448
暵	-10.6449
緣	-10.6449
故作是詩也	-10.645
廣雅云	-10.6451
稂	-10.6452
耀	-10.6452
螫	-10.6453
夏官	-10.6455
絺綌	-10.6458
鶖	-10.6458
地而	-10.6458
泳	-10.6458
睆	-10.6459
牽牛	-10.6468
嗣王	-10.647
日月之	-10.6473
美宣王	-10.6474
在公	-10.6474
精神	-10.6475
淮南子	-10.6478
五日	-10.6479
其他	-10.648
疆理	-10.648
之母	-10.6486
其親	-10.649
一方	-10.6491
天作	-10.6492
釀	-10.6497
地官	-10.6497
舝	-10.6497
大義	-10.6498
秬鬯	-10.6499
閔予小子	-10.6502
荇	-10.6502
閭	-10.6503
禡	-10.6503
此之謂也	-10.6508
叶蒲	-10.6515
之西	-10.6516
亦與	-10.6518
有駜	-10.6524
田事	-10.6525
之交	-10.6525
俾爾	-10.6528
本或作	-10.6533
錫命	-10.6533
民勞	-10.6538
終日	-10.6539
令聞	-10.6541
髙山	-10.6541
掘	-10.6541
騷	-10.6542
孔叢子	-10.6543
太廟	-10.6544
善言	-10.6544
纔	-10.6548
樹之	-10.6548
鳧鷖	-10.6549
溪	-10.6549
竈	-10.6549
車前	-10.655
菁菁者莪	-10.6552
黙	-10.6552
勸之	-10.6554
不堪	-10.6556
生契	-10.6557
三者	-10.6561
可以見	-10.6565
怨曠	-10.6565
於彼	-10.6567
為比	-10.6568
傷之	-10.6575
受天	-10.6575
二十五	-10.6583
腐	-10.659
涯	-10.6592
鄭𤣥云	-10.6592
蟊	-10.6592
極言	-10.6593
裕	-10.6594
凝	-10.6594
冥	-10.6595
紛	-10.6595
綸	-10.6595
泄	-10.6597
湯之	-10.6597
諒	-10.6597
君子指	-10.6599
無文	-10.66
饔	-10.6601
宣王時	-10.6602
江東	-10.6603
杜預云	-10.6603
賢臣	-10.6608
冬至	-10.6608
皇皇	-10.6609
夫人之	-10.661
亦必	-10.6616
未見君子	-10.6617
度也	-10.6629
弟子	-10.6629
之所在	-10.663
事者	-10.6631
二音	-10.6633
既得	-10.6634
長安	-10.6634
霍	-10.6635
急難	-10.6636
繒	-10.6637
得罪	-10.6637
建國	-10.6638
遯	-10.6641
郿	-10.6642
載芟	-10.6642
反注同	-10.6643
無敢	-10.6644
着	-10.6644
蔑	-10.6644
鋈	-10.6644
未及	-10.6645
旅酬	-10.6646
犉	-10.6647
耄	-10.6647
其體	-10.6647
氣之	-10.6649
姜姓	-10.6655
易之	-10.6662
釋木	-10.6662
之助	-10.6671
臆	-10.6671
趾	-10.6683
號令	-10.6683
考槃	-10.6684
!《	-10.6684
則可	-10.6684
低	-10.6686
姊	-10.6686
替	-10.6687
我則	-10.6691
鞗革	-10.6691
田野	-10.6697
斯民	-10.6703
展衣	-10.6705
世本	-10.6708
遷岐	-10.6709
食我	-10.6715
胡氏	-10.6722
潘	-10.6725
出征	-10.6726
如齊	-10.6732
之子于歸	-10.6733
戒其	-10.6733
頓	-10.6735
謂文王	-10.6738
壅	-10.674
學校	-10.6741
注謂	-10.6743
諸國	-10.6745
然後可以	-10.6747
鄭人	-10.6748
申培説	-10.6748
施之	-10.6749
二雅	-10.6754
化為	-10.6762
山在	-10.6765
肅雝	-10.6765
興也毛傳	-10.6766
施于	-10.6767
大伯	-10.6771
詩文	-10.6781
措	-10.6785
摽	-10.6785
之詩言	-10.6786
説見	-10.6786
淳	-10.6786
眉夀	-10.6787
莒	-10.6788
於後	-10.6788
秦人	-10.6789
西都	-10.6794
山林	-10.6798
後乃	-10.68
制度	-10.6804
其根	-10.6808
二種	-10.681
金路	-10.6813
鳴鳩	-10.6815
叶韻	-10.6816
二子	-10.6821
賢者之	-10.6822
其氣	-10.6827
琢	-10.6828
納之	-10.6828
武成	-10.6829
浪	-10.6832
皆從	-10.6832
卓	-10.6834
怛	-10.6836
不臧	-10.6837
昊	-10.6839
自為	-10.6839
宜有	-10.6842
不和	-10.6843
之時則	-10.6843
美而	-10.6845
郊禖	-10.6846
世家	-10.6848
何也曰	-10.6849
有成	-10.685
季秋	-10.6851
文云	-10.6858
蠅	-10.6861
三事	-10.6862
耳故	-10.6863
可信	-10.6866
葛生	-10.6866
隴	-10.6866
之實也	-10.687
緌	-10.6874
亹亹	-10.6877
所以能	-10.6877
宥	-10.6877
㑹諸侯	-10.6878
賢而	-10.6878
奸	-10.6879
而至	-10.688
墓門	-10.688
百辟	-10.688
皇皇者華	-10.688
鳬鷖	-10.6881
於中	-10.6881
拱	-10.6882
洪範	-10.6883
之南	-10.6883
衎	-10.6883
好賢	-10.6888
根本	-10.6895
讀為	-10.6895
封於	-10.6896
首陽	-10.6897
寡人	-10.6898
各以其	-10.69
以徳	-10.6909
桑柔	-10.6909
六義	-10.6912
成人	-10.6912
為喻	-10.6913
曰昔	-10.6917
别名	-10.6918
朝歌	-10.6919
葽	-10.6921
隘	-10.6925
佚	-10.6927
稌	-10.6927
躁	-10.6928
昊天有成命	-10.693
躋	-10.693
分明	-10.6931
障	-10.6932
勲	-10.6932
蘇氏轍曰	-10.6934
篪	-10.6935
之計	-10.6938
形似	-10.6944
昭假	-10.6946
地理志	-10.6949
舞者	-10.695
四寸	-10.6951
既平	-10.6952
得而	-10.6959
在後	-10.6968
青青	-10.6969
鄉飲酒	-10.6971
本草云	-10.6972
麤	-10.6975
噬	-10.6977
百兩	-10.6978
畨	-10.6979
洛水	-10.6979
權輿	-10.698
䧟	-10.6981
樂器	-10.6982
故序	-10.6984
洫	-10.6989
深逺	-10.699
出自	-10.6998
雄雉	-10.6999
牧野	-10.7
厓	-10.7
而不及	-10.7004
袂	-10.7022
諏	-10.7022
草木之	-10.7023
哲人	-10.7023
古義	-10.7023
謡	-10.7027
於地	-10.7028
朋友之	-10.7028
區	-10.7028
止乎禮義	-10.703
閒暇	-10.7031
這	-10.7033
民事	-10.7033
抑抑	-10.7036
諸夏	-10.7037
周制	-10.7038
請命	-10.7039
辜	-10.7041
管子	-10.7044
其事而	-10.7052
勉之	-10.7054
守之	-10.7055
祭法	-10.7056
若以	-10.7056
之國也	-10.7057
呂氏	-10.7062
之義故	-10.7064
蠋	-10.7068
銘	-10.7069
皆然	-10.7069
肝	-10.7074
所歸	-10.7075
振旅	-10.7076
楹	-10.7077
寔	-10.7077
繆	-10.7077
嚳	-10.7078
黽勉	-10.7079
左氏傳	-10.7079
汲	-10.7079
其外	-10.708
惄	-10.7084
爾雅釋	-10.7084
者多矣	-10.7089
今以	-10.7089
下武	-10.709
養之	-10.7097
之服也	-10.7099
抵	-10.71
山東	-10.7102
良馬	-10.7102
猶曰	-10.7103
無厭	-10.711
故舊	-10.711
如是則	-10.7113
自立	-10.7115
斑	-10.7116
感動	-10.7118
不樂	-10.712
杜氏	-10.712
受天命	-10.7121
言武王	-10.7122
何得	-10.7123
戒成王	-10.7124
惕	-10.7125
卜筮	-10.7128
朱氏善曰	-10.7131
之樂也	-10.7133
所稱	-10.7134
緑衣	-10.7135
慘慘	-10.7135
可見其	-10.7138
異義	-10.7141
應門	-10.7147
奏之	-10.7149
衿	-10.7152
之次	-10.7153
化行	-10.7153
君子萬年	-10.7153
農人	-10.7154
用其	-10.7161
器也	-10.7163
而不言	-10.7165
其君子	-10.7166
棄之	-10.7169
容止	-10.7169
清酒	-10.7169
靡所	-10.7172
而意	-10.7173
憫	-10.7175
無愧	-10.7175
洒	-10.7175
朱子謂	-10.7176
丕	-10.7176
慨	-10.7177
我心則	-10.7178
黍苗	-10.7182
有定	-10.7183
陰陽	-10.7185
一作	-10.7187
邪僻	-10.7187
假樂	-10.7189
維此	-10.719
羅氏	-10.7191
召虎	-10.7194
我所	-10.7196
衣食	-10.72
黑色	-10.7203
説詩	-10.7214
人之情	-10.7223
鄭氏以為	-10.7224
序詩者	-10.7226
凋	-10.7226
膠	-10.7226
玷	-10.7227
迅	-10.7227
湎	-10.7227
不得不	-10.7227
逕	-10.7228
之利	-10.7228
其制	-10.7229
枕	-10.723
摶	-10.723
其父	-10.723
我馬	-10.7231
詩書	-10.7231
召康公	-10.7231
秦風	-10.7232
東萊吕氏曰	-10.7232
百福	-10.7232
所以致	-10.7232
前二章	-10.7233
醉而	-10.7236
矣若	-10.7241
冕服	-10.7241
語曰	-10.7248
其車	-10.725
胡為	-10.7251
也於是	-10.7254
如字又	-10.7255
或疑	-10.7257
墟	-10.7258
于齊	-10.7259
易傳	-10.726
賢也	-10.7262
莫肯	-10.7264
蘿	-10.7268
淇奥	-10.727
學詩	-10.7272
妥	-10.7272
裒	-10.7272
扞	-10.7272
渥	-10.7273
廩	-10.7274
是一	-10.7275
膝	-10.7275
㧞	-10.7276
琫	-10.7276
袁	-10.7276
謹案	-10.7277
終於	-10.7277
郝	-10.7278
澤中	-10.7279
采苓	-10.7279
憑	-10.7279
畎	-10.7281
即政	-10.7281
蟻	-10.7281
以刺之	-10.7281
念其	-10.7281
老而	-10.7281
衞之	-10.7283
之美者	-10.7284
既以	-10.7285
彤管	-10.7286
於衛	-10.7289
謀猶	-10.729
者雖	-10.7295
其大	-10.7297
母之	-10.7302
詩本	-10.7302
相棄	-10.7302
出奔	-10.7303
之分	-10.7307
於國	-10.7312
洪	-10.7314
葢以	-10.7317
而忘	-10.7318
月出	-10.7321
亦自	-10.7321
無邪	-10.7322
築室	-10.7324
叙其	-10.7325
黃鳥	-10.7326
時有	-10.7329
長樂劉氏曰	-10.733
蔓生	-10.7332
姪娣	-10.7332
於内	-10.7336
治國	-10.734
民人	-10.7343
厲公	-10.735
終始	-10.7351
以酒	-10.7356
東周	-10.7358
而安	-10.7359
八鸞	-10.736
因反	-10.7361
近於	-10.7363
祭時	-10.7366
孔疏云	-10.7367
上聲	-10.7368
不得歸	-10.7369
筋	-10.7369
之鳥	-10.7371
故謂	-10.7374
君子不	-10.7376
五十里	-10.7376
丰	-10.7377
涵	-10.7378
改為	-10.7379
擅	-10.738
奴	-10.7382
畱	-10.7383
鉤膺	-10.7384
黄色	-10.7386
在我	-10.7388
澮	-10.7389
之不可	-10.7391
好貌	-10.7392
三曰	-10.7397
徳行	-10.7397
三良	-10.7399
必待	-10.7404
靜女	-10.7409
二矛	-10.7409
神農	-10.7416
輕重	-10.7416
其華	-10.7417
封之	-10.7417
故又	-10.7418
筥	-10.7419
以定	-10.742
即今之	-10.7421
匱	-10.7424
鬭	-10.7425
日以	-10.7426
詭隨	-10.7428
祛	-10.743
吕氏春秋	-10.7432
春秋傳曰	-10.7433
有客	-10.7433
縣南	-10.7434
干禄	-10.7439
大王王季	-10.7442
又如字	-10.7443
論曰	-10.7444
之逺	-10.7447
河北	-10.7447
為二	-10.7449
則自	-10.7449
所滅	-10.7451
之家	-10.7453
不得已	-10.7454
鬼方	-10.7458
侯國	-10.7458
呼天	-10.746
互相	-10.7463
近之	-10.7464
欲使	-10.7466
其祖	-10.7472
時詩	-10.7473
鶯	-10.7476
弃	-10.7476
錡	-10.7477
以刺	-10.7477
枌	-10.748
凖	-10.748
已成	-10.7481
俴	-10.7482
傷悲	-10.7483
宜臼	-10.7483
惰	-10.7483
訓詁	-10.7486
芮伯	-10.7487
無羊	-10.7491
而不用	-10.7491
夷王	-10.7498
叔于田	-10.7498
笑語	-10.7499
言采其	-10.75
人有	-10.7502
喪亂	-10.7503
不求	-10.7504
歌舞	-10.7505
遷于	-10.7509
盡力	-10.7512
蠻荆	-10.7515
失道	-10.752
辟公	-10.7524
豺	-10.7527
穹	-10.753
巻	-10.7531
父兄	-10.7532
重也	-10.7534
凍	-10.7534
怙	-10.7534
劣	-10.7534
集註	-10.7539
未安	-10.7542
故特	-10.7547
服事	-10.7547
字書	-10.755
惟有	-10.7552
烝嘗	-10.7553
之墟	-10.7553
之子孫	-10.7559
猱	-10.7559
不聽	-10.7564
莽	-10.7582
疇	-10.7583
兕觥	-10.7583
正謂	-10.7583
止言	-10.7583
逍遥	-10.7587
踵	-10.7588
可乎	-10.7588
渭水	-10.7592
無害	-10.7593
思齊	-10.7595
始封	-10.7596
所有	-10.7598
不識	-10.7601
巾車	-10.7605
分為	-10.7606
蒿也	-10.7609
王心	-10.7617
縣北	-10.7618
警戒	-10.7621
兖州	-10.7622
宣子	-10.7624
降此	-10.7625
以金	-10.7626
尚未	-10.7627
荻	-10.7628
椒聊	-10.7629
檻	-10.763
昭王	-10.7631
銳	-10.7632
晳	-10.7633
隙	-10.7634
飛而	-10.7634
竿	-10.7634
壤	-10.7635
届	-10.7635
郡縣志	-10.7636
異也	-10.7641
冀其	-10.7642
不然則	-10.7642
始見	-10.7643
北伐	-10.7644
於事	-10.7646
而好	-10.7648
之害	-10.7649
歐陽氏	-10.7653
之旁	-10.7661
之草	-10.7662
譖人	-10.7666
徳者	-10.7669
又引	-10.767
紂之	-10.7671
說者	-10.7678
揄	-10.7681
瞻卬	-10.7686
涇陽	-10.7687
瓞	-10.7687
製	-10.7688
豈不爾思	-10.7689
翹翹	-10.769
冡	-10.7692
之師	-10.7692
以行	-10.7693
仲子	-10.7695
爾雅翼	-10.7696
周京	-10.7696
膳夫	-10.7697
采采	-10.7699
能為	-10.7702
一夫	-10.7705
皆曰	-10.771
輔氏	-10.7717
祭於	-10.7725
淮水	-10.7731
歐	-10.7733
束之	-10.7733
鷄	-10.7735
眼	-10.7736
與鄭	-10.7737
大戴禮	-10.7738
栒	-10.7738
桃蟲	-10.774
以介景福	-10.7741
皎	-10.7742
裂	-10.7742
而况	-10.7749
亡也	-10.7758
不備	-10.776
内有	-10.776
急也	-10.7762
射者	-10.7762
魯桓	-10.7769
有子	-10.7772
式微	-10.7776
祖宗	-10.7782
圜	-10.7789
扁	-10.7789
不至於	-10.7789
炰	-10.779
薍	-10.7793
三字	-10.7795
諸父	-10.7796
褊	-10.7796
馴	-10.7796
二南之	-10.7797
小明	-10.78
雖欲	-10.78
為小	-10.7804
鳯凰	-10.7804
于公	-10.7806
用以	-10.7811
為韻	-10.7812
河廣	-10.7814
之禮也	-10.7814
也集傳	-10.7819
爾雅注	-10.7821
得所	-10.7829
之言也	-10.7829
扶風	-10.7829
軍士	-10.7832
漣	-10.7836
鄶	-10.7839
毛以為	-10.784
芍藥	-10.784
凱	-10.7843
獻尸	-10.7844
故先	-10.7845
騐	-10.7845
又自	-10.7847
徐州	-10.7848
帨	-10.7848
兩驂	-10.7849
緎	-10.7849
偪	-10.7851
泗	-10.7852
岀	-10.7852
其理	-10.7854
民皆	-10.7854
哀我	-10.7859
故舉	-10.7859
也又云	-10.7859
將有	-10.786
蹶父	-10.7865
矣但	-10.7869
諸侯以	-10.7871
可疑	-10.7871
女功	-10.7874
懿公	-10.7875
而起	-10.7875
明星	-10.7875
當用	-10.7876
按此	-10.7881
薦之	-10.7888
之詩則	-10.7891
凡人	-10.7899
減	-10.7901
愾	-10.7901
嬰	-10.7901
粲曰	-10.7902
所欲	-10.7902
臯陶	-10.7904
重耳	-10.7906
不與我	-10.7911
鶴鳴	-10.7911
莖葉	-10.7912
盛大	-10.7914
下二句	-10.7916
怒也	-10.7916
若夫	-10.7916
則雖	-10.7921
功業	-10.7921
功徳	-10.7924
于京	-10.7924
相傳	-10.7925
㫖酒	-10.7928
歸期	-10.7936
十七	-10.7936
其尾	-10.7937
后土	-10.7943
與人	-10.7945
於心	-10.7951
閱	-10.7951
所據	-10.7951
妨	-10.7952
剔	-10.7953
摽有梅	-10.7956
讀詩記	-10.7956
幡幡	-10.7957
昬姻	-10.7957
叶羽	-10.7959
寒暑	-10.796
五行	-10.7962
所至	-10.7963
履霜	-10.7963
義亦	-10.7965
有四	-10.7972
山名	-10.7981
也朱子	-10.7983
入渭	-10.7984
非常	-10.7985
百榖	-10.7989
能自	-10.7991
後同	-10.7991
豝	-10.7997
而易	-10.8003
笙磬	-10.8004
戌	-10.8006
信乎	-10.8007
冩	-10.8007
師尹	-10.8007
翁	-10.801
姝	-10.801
勞心	-10.8014
此即	-10.8014
也左傳	-10.8015
詩之意	-10.8019
衛侯	-10.8028
祭畢	-10.8031
專言	-10.8032
經㫖曰	-10.8033
非無	-10.8035
五穀	-10.8041
廟中	-10.8042
所建	-10.8046
群	-10.8049
莫能	-10.8051
梧	-10.8052
瓉	-10.8055
沛	-10.8061
詭	-10.8063
随	-10.8065
嘽嘽	-10.8066
濩	-10.8067
羖	-10.807
十七年	-10.8077
道其	-10.8084
章三句	-10.8088
寡婦	-10.8088
張氏	-10.8091
不厭	-10.8091
衛風	-10.8092
之貎	-10.8101
不盈	-10.8101
不得其所	-10.8102
下濕	-10.8109
都人士	-10.8109
不得為	-10.811
陣	-10.8113
輙	-10.8114
沓	-10.8115
皁	-10.8116
盬	-10.8117
祀文王	-10.8119
溝洫	-10.812
於禮	-10.8124
夫家	-10.8127
其用	-10.8128
非必	-10.8131
自我	-10.8134
於經	-10.814
柷	-10.8142
三章章八句	-10.8145
氣也	-10.8149
伯兮	-10.815
而作是詩也	-10.8154
樵	-10.816
我思	-10.8162
皇王	-10.8162
内史	-10.8164
六卿	-10.8165
欽	-10.8166
有女同車	-10.8168
此理	-10.8168
皆所以	-10.8168
容刀	-10.8168
周大夫	-10.8169
繭	-10.8169
遹	-10.8169
萃	-10.817
属	-10.8171
然非	-10.8171
常服	-10.8172
韎韐	-10.8172
王所	-10.8173
論之	-10.8173
禋	-10.8174
失時	-10.8176
若有	-10.8177
與子同	-10.8182
初無	-10.8183
霰	-10.8184
往也	-10.8187
白者	-10.819
者言其	-10.819
九夏	-10.8193
每章	-10.8193
得人	-10.8195
後二章	-10.8196
烈考	-10.8197
楚楚	-10.8198
平地	-10.8199
漢志	-10.8203
國有	-10.8205
生而	-10.8207
其皮	-10.8208
變也	-10.8208
之水	-10.8209
羣飛	-10.821
縣西	-10.821
二曰	-10.8212
不察	-10.8212
福之	-10.8213
為文王	-10.8213
主婦	-10.8216
粉	-10.8217
以盡	-10.8222
二之日	-10.8223
耳此	-10.8224
焦	-10.8229
熊羆	-10.823
出宿	-10.823
蜮	-10.823
帝命	-10.8232
干戈	-10.8232
𥘉	-10.8233
止息	-10.8233
丁丁	-10.8233
蕩蕩	-10.8234
於前	-10.8235
瑾	-10.8237
播種	-10.8238
伐西戎	-10.8242
周公作	-10.8245
既畢	-10.8252
繫於	-10.8255
我乎	-10.8258
白茅	-10.8259
不去	-10.826
堯舜	-10.8261
瘞	-10.8271
恐非	-10.8272
三國	-10.8272
蘖	-10.8279
涘	-10.828
蕳	-10.8281
奕	-10.8282
者固	-10.8282
嬪	-10.8283
杭	-10.8283
大宗伯	-10.8283
后妃之徳	-10.8283
壎	-10.8283
南征	-10.8284
歌詠	-10.8285
季札	-10.8286
致之	-10.8286
仲尼	-10.8286
多言	-10.8287
葅	-10.8288
一言	-10.8288
憂傷	-10.8289
成王時	-10.8289
而歸之	-10.8292
朱芾	-10.8293
百夫	-10.8293
令德	-10.8296
矣蓋	-10.8298
叶滿	-10.8301
備矣	-10.8305
二説	-10.8305
幽王之時	-10.8306
天子之命	-10.8306
央	-10.8311
其失	-10.8312
陸璣曰	-10.8315
因之	-10.832
在焉	-10.8322
之意而	-10.8322
以御	-10.8325
刺時	-10.833
茲	-10.8332
出師	-10.8332
複	-10.8334
渾	-10.8334
韜	-10.8335
巡	-10.8335
敝笱	-10.8335
而稱	-10.8336
斯螽	-10.8337
耨	-10.8337
籧篨	-10.8338
名篇	-10.8338
褧	-10.8339
唱	-10.8341
南陽	-10.8341
蟲也	-10.8341
有瞽	-10.8341
責其	-10.8341
郵	-10.8341
匏有苦葉	-10.8342
服馬	-10.8343
青色	-10.8345
為可	-10.8348
以奉	-10.8349
篤公劉	-10.8349
無度	-10.8352
迎之	-10.8354
之地也	-10.8359
故因	-10.8359
服飾	-10.8363
安於	-10.8367
威武	-10.8368
上二句	-10.8373
絶之	-10.8375
素衣	-10.8376
後王	-10.8381
下垂	-10.8381
視其	-10.8385
而謂之	-10.8386
墐	-10.8388
之流	-10.839
芘	-10.8391
剝	-10.8391
纉	-10.8392
冶	-10.8392
一月	-10.8393
簒	-10.8393
丙	-10.8394
愠	-10.8394
裹	-10.8394
晞	-10.8395
宼	-10.8396
繋	-10.8397
爾雅作	-10.8397
蘇傳	-10.8399
佽	-10.84
綏綏	-10.8402
七羊	-10.8405
亦在	-10.8405
被文王之化	-10.8405
未嘗有	-10.8416
祈穀	-10.8416
射禮	-10.8426
呼為	-10.8429
勞而	-10.843
同列	-10.8432
於時	-10.8432
孫炎云	-10.8439
鶚	-10.844
法則	-10.8441
親愛	-10.8444
所封	-10.8445
自后稷	-10.8445
玉篇	-10.8446
意者	-10.845
房中	-10.845
歎其	-10.8453
二語	-10.8454
頍弁	-10.8455
韍	-10.8455
武王伐紂	-10.8456
顚	-10.8457
陳古	-10.8457
讀者	-10.846
不爲	-10.8461
僚友	-10.8464
行潦	-10.8465
同音	-10.8469
軍旅	-10.8472
僕夫	-10.848
無射	-10.8481
作頌	-10.8481
刪詩	-10.8482
文侯	-10.8482
晏子	-10.849
而進	-10.8492
憂其	-10.8493
者猶	-10.8493
之期	-10.8497
有兩	-10.8497
禖	-10.8497
蓷	-10.8502
前日	-10.8503
尖	-10.8503
柞棫	-10.8504
之苦	-10.8505
仁厚	-10.8506
紕	-10.851
卒子	-10.8515
成王之時	-10.8515
靁	-10.8516
申言	-10.8518
參差	-10.8519
大國之	-10.8521
亦得	-10.8526
安得不	-10.8527
范氏	-10.8528
之域	-10.8529
水上	-10.853
妻子	-10.8537
反側	-10.8541
為節	-10.8542
同歸	-10.8543
傳言	-10.8545
河内	-10.8549
天性	-10.855
之類也	-10.8552
殷商	-10.8553
難也	-10.8555
琇	-10.8556
渡河	-10.8556
序說	-10.8559
臂	-10.8562
天心	-10.8563
鷂	-10.8564
尺二寸	-10.8564
腰	-10.8564
䙝	-10.8566
韶	-10.8566
毛詩序曰	-10.8568
織女	-10.8568
新田	-10.8569
戍役	-10.8569
枉	-10.857
平聲	-10.857
以義	-10.8573
吉凶	-10.8574
舒緩	-10.8578
以證	-10.8581
為卿士	-10.8583
為説	-10.8585
蒹	-10.8586
如此也	-10.8588
也王氏曰	-10.8588
執其	-10.8592
報之	-10.8594
戒也	-10.8596
許氏	-10.8596
鳥名	-10.8596
天子以	-10.8597
共姜	-10.8598
閔公	-10.8599
之私	-10.8601
則此詩	-10.8602
之本也	-10.8604
之親	-10.8604
於樂	-10.8606
於朝	-10.8608
可考	-10.861
大道	-10.8612
玉藻云	-10.8613
將至	-10.8615
后夫人	-10.8615
縣東	-10.8616
釁	-10.8618
遵大路	-10.862
東門之墠	-10.8621
何彼穠矣	-10.8621
状	-10.8622
黄白	-10.8623
貓	-10.8623
浴	-10.8624
翩	-10.8624
紽	-10.8625
墾	-10.8626
免於	-10.8629
將率	-10.8639
字又作	-10.8645
此章則	-10.8647
隂氣	-10.8648
文王有聲	-10.8649
在堂	-10.865
稷之	-10.8651
淫風	-10.8661
不中	-10.8662
文選注	-10.8664
十畝	-10.8664
遐不	-10.8665
性情	-10.8668
璜	-10.8673
之迹	-10.8673
正風	-10.8673
括地志	-10.8678
燮	-10.8678
羌	-10.8679
鏞	-10.868
閨門	-10.8682
南有	-10.8683
驟	-10.8686
旣見君子	-10.8687
戚施	-10.8689
閑習	-10.869
缾	-10.8693
時已	-10.8693
之興	-10.8698
而不可得	-10.8698
季冬	-10.8701
婦道	-10.8702
其威儀	-10.8703
十四年	-10.8705
百泉	-10.8706
李迂仲曰	-10.8715
治亂	-10.8716
郭氏	-10.8716
從役	-10.8721
于彼	-10.8723
厭厭	-10.8727
方百里	-10.8735
哭	-10.8735
載見	-10.8736
屯	-10.8737
冢宰	-10.8737
有文章	-10.8738
洩	-10.8741
崔嵬	-10.8743
君臣之	-10.8744
訪落	-10.8744
緜蠻	-10.8744
為國	-10.8745
莫非	-10.8745
禾稼	-10.8745
顛覆	-10.8747
何足	-10.8747
陟降	-10.8751
莫大於	-10.8754
城在	-10.8755
民之所	-10.8755
十八年	-10.8761
總名	-10.8762
定天下	-10.8762
莫知	-10.8765
釋言文	-10.877
為證	-10.8771
整齊	-10.8771
匠人	-10.8772
此章又	-10.8773
何能	-10.8774
傷今	-10.8775
可與	-10.8778
不作	-10.878
于下	-10.8781
蔞	-10.8781
千乗	-10.8782
異名	-10.8788
翿	-10.879
從毛	-10.8791
罕	-10.8793
為天下	-10.8796
耗	-10.8797
叟	-10.8798
珩	-10.8798
録之	-10.88
無明文	-10.8802
而先	-10.8804
加以	-10.8806
二章三章	-10.8807
礼	-10.8808
廬陵	-10.8809
且多	-10.8818
中間	-10.8819
乗車	-10.8819
先世	-10.882
則以為	-10.8822
大命	-10.8824
不動	-10.8825
詩譜	-10.8827
焉此	-10.8829
亦以為	-10.883
之樂歌也	-10.883
詁	-10.8832
殄	-10.8832
愛君	-10.8834
結之	-10.8836
嫁娶	-10.8838
意在	-10.884
萬夫	-10.8846
二水	-10.8849
滸	-10.8849
秠	-10.885
自責	-10.885
蔡邕	-10.8853
陸徳明	-10.8855
鬰	-10.8856
串	-10.8856
牆有茨	-10.8857
協韻	-10.886
上二章	-10.8864
隐	-10.8865
析薪	-10.8867
鱨	-10.8868
必然	-10.8868
得之矣	-10.8869
故於	-10.8869
交錯	-10.887
則不能	-10.8871
其室	-10.8871
秦之	-10.8872
陸佃	-10.8872
告成	-10.8872
由庚	-10.8873
廢則	-10.8875
申侯	-10.8876
之大夫	-10.8879
齊魯	-10.888
而使之	-10.8881
嚴粲云	-10.8886
相助	-10.8892
難通	-10.8894
俾我	-10.8895
宛然	-10.8895
也以其	-10.8896
信讒	-10.8897
禮記云	-10.8898
齊子	-10.89
㸑	-10.89
方言云	-10.8901
過於	-10.8903
在其中	-10.8904
鄭唯	-10.8904
斿	-10.8904
五章言	-10.8905
之言則	-10.8905
采其	-10.8906
醫	-10.8906
所執	-10.8906
又與	-10.8906
死喪	-10.8908
祝其	-10.8908
賄	-10.8909
埋	-10.8909
祧	-10.891
梗	-10.891
之備	-10.8911
檿	-10.8912
𦂳	-10.8912
圗	-10.8913
新宫	-10.8913
下二章	-10.8914
沬	-10.8914
梨	-10.8915
嘒嘒	-10.8915
堵	-10.8916
天子之禮	-10.8922
纚	-10.8922
是已	-10.8923
王氏安石曰	-10.8924
為亂	-10.8925
不能用	-10.8929
不止於	-10.8931
衣之	-10.8932
祭義	-10.8936
攝政	-10.8936
歸士	-10.8937
大宗	-10.8937
夫婦之	-10.8947
按左傳	-10.8947
縣有	-10.8947
興者	-10.8955
繳	-10.8966
溼	-10.8966
韌	-10.8968
伐紂	-10.8969
勁	-10.897
順也	-10.8972
淑人君子	-10.8973
禴	-10.8973
夏商	-10.8974
縞	-10.8974
漂	-10.8975
諭	-10.8975
坰	-10.8975
㫁	-10.8975
詆	-10.8976
娛	-10.8976
料	-10.8977
療	-10.8978
齊女	-10.8978
婆娑	-10.8979
頎	-10.8979
頴	-10.8979
經營	-10.8981
為風	-10.8982
不能忘	-10.8985
民之父母	-10.8989
于天子	-10.899
毳衣	-10.8995
又以為	-10.8996
有光	-10.8996
之意故	-10.9002
知有	-10.9003
告于	-10.9005
惡木	-10.9005
殷勤	-10.9011
豳頌	-10.9012
公劉之	-10.9016
見矣	-10.9017
黏	-10.9018
貆	-10.9025
變化	-10.9028
修身	-10.9029
虜	-10.9031
綽	-10.9031
靈星	-10.9033
炮	-10.9034
不妬忌	-10.9034
塈	-10.9035
蔽芾	-10.9035
何獨	-10.9035
有周	-10.9035
稺	-10.9036
于廟	-10.9038
何氏楷曰	-10.9038
昭考	-10.9039
虞芮	-10.904
戀	-10.904
天生	-10.9042
羝	-10.9043
無日	-10.9043
亦多	-10.9044
以我為	-10.9049
能敬	-10.9052
政令	-10.9053
必有所	-10.9054
五人	-10.9061
窮極	-10.9062
文德	-10.9062
子衿	-10.9064
叶胡	-10.9064
相視	-10.9066
聽之	-10.9071
得其時	-10.9071
二義	-10.9075
相通	-10.9075
南行	-10.9076
可哀	-10.908
五尺	-10.9083
幽公	-10.9085
曰王	-10.9085
六篇	-10.9087
鉶	-10.9088
六寸	-10.9089
妬	-10.9091
白馬	-10.9092
正祭	-10.9092
糓	-10.9092
莫莫	-10.9095
豐本作	-10.9095
緻	-10.9095
粹	-10.9096
鸇	-10.9098
共公	-10.9099
旌旗	-10.91
韋弁	-10.91
所依	-10.9113
以祭	-10.9116
四岳	-10.912
豈可以	-10.9121
又案	-10.9127
敬止	-10.9131
有異	-10.9133
詁訓	-10.9134
以至於	-10.9135
平日	-10.914
而心	-10.9144
鬷	-10.915
諸侯有	-10.9151
閟	-10.9151
孔頴達	-10.9152
揥	-10.9155
百世	-10.9155
盱	-10.9155
瞻彼洛矣	-10.9155
駟驖	-10.9158
隣	-10.9159
疐	-10.916
而歌	-10.9163
字作	-10.9164
食者	-10.9165
游女	-10.9165
陳曰	-10.9165
晉國	-10.9166
不敢不	-10.9169
舉之	-10.917
女子之	-10.9173
附録	-10.9174
未足	-10.918
言已	-10.918
作是詩	-10.9184
此事	-10.9185
總角	-10.9189
故次	-10.9189
一旦	-10.9191
者今	-10.9191
以起	-10.9192
而發	-10.9197
毛氏以為	-10.9199
疑其	-10.9201
亦甚	-10.9202
何元子	-10.9203
胎	-10.9206
大矣	-10.9207
皆由	-10.9207
子弟	-10.9208
蒺藜	-10.9208
鷊	-10.9211
啖	-10.9212
何故	-10.9212
春秋時	-10.9214
跪	-10.9215
拙	-10.9216
彝	-10.9216
襃	-10.9217
湖	-10.9219
軓	-10.922
安寧	-10.9227
之總名	-10.9229
有别	-10.9231
不變	-10.9237
一尺	-10.9238
時人	-10.9239
渭陽	-10.924
在位者	-10.9247
今俗	-10.9248
昔日	-10.9249
宴樂	-10.9249
為上	-10.925
李廵曰	-10.9252
安知	-10.9253
而細	-10.9254
推其	-10.9257
之時而	-10.9258
告以	-10.9258
則已	-10.9263
破斧	-10.9264
町	-10.9269
廪	-10.927
縶	-10.9273
髙下	-10.9274
者衆	-10.9276
孔穎達	-10.9278
渴	-10.9278
緝熙	-10.9279
是之謂	-10.9279
檀弓	-10.928
伶官	-10.928
而不忘	-10.928
之馬	-10.9281
皇天	-10.9284
舅姑	-10.9291
征之	-10.9293
反又音	-10.9293
觀此	-10.9294
篇名	-10.9295
鄭謂	-10.9296
其首	-10.9298
皆稱	-10.9298
誅之	-10.9299
兩服	-10.9299
未必然	-10.9301
來者	-10.9302
四種	-10.9304
不稱	-10.9305
北流	-10.9307
民俗	-10.9307
自守	-10.9308
大魚	-10.9311
柔嘉	-10.9312
禮文	-10.9312
尤為	-10.9313
安之	-10.9313
祈年	-10.9314
孝友	-10.9316
長三尺	-10.9317
他國	-10.9318
八音	-10.9319
好善	-10.9319
由於	-10.932
所以爲	-10.9321
曽不	-10.9325
天子所	-10.9328
則天下	-10.9328
非不	-10.933
周原	-10.933
之最	-10.9335
玖	-10.9336
衛武公	-10.9337
大祖	-10.9338
泂酌	-10.9339
蓮	-10.9339
倦	-10.934
訿訿	-10.934
停	-10.9341
鎛	-10.9342
簡狄	-10.9343
不加	-10.9345
可據	-10.9346
百堵	-10.9347
1	-10.9347
蔵	-10.9348
2	-10.9348
朝㑹	-10.935
言之耳	-10.9351
仁也	-10.9353
文王武王	-10.9362
喬木	-10.9364
乃能	-10.9369
射義	-10.937
上句	-10.9371
成公	-10.9373
莊王	-10.9377
豈以	-10.9381
亦不可	-10.9382
公曰	-10.9383
盛德	-10.9384
在梁	-10.9389
䜛人	-10.9389
博士	-10.9393
伐商	-10.9394
臼	-10.9394
方且	-10.9394
而詩人	-10.9395
粺	-10.9396
罩	-10.94
皓	-10.94
江有汜	-10.9401
俄	-10.9401
不足信	-10.9402
鬱鬯	-10.9402
歎美	-10.9403
賔之初筵	-10.9404
廵守	-10.9406
所乗	-10.9412
教誨	-10.9414
安民	-10.9414
太甲	-10.9428
通名	-10.9428
以此詩為	-10.9429
大原	-10.943
我王	-10.943
用心	-10.943
西人	-10.9433
愛民	-10.9435
民無	-10.9436
之容	-10.9438
近世	-10.944
之羙	-10.9441
十千	-10.9441
淺深	-10.9445
功成	-10.9449
璣	-10.945
與夫	-10.9451
又當	-10.9451
岱	-10.9455
粢	-10.9455
秫	-10.9455
嗇	-10.9455
陜	-10.9456
邦之	-10.9457
不得已而	-10.9458
彤	-10.9459
不僭	-10.946
礙	-10.946
骭	-10.9464
汲汲	-10.9464
搆	-10.9465
演	-10.9466
忒	-10.9466
姊妹	-10.9466
焦穫	-10.9467
已而	-10.9467
瀆	-10.9467
懽	-10.9468
恕	-10.9468
鍭	-10.9468
孟子所謂	-10.9471
小毖	-10.9476
叶陽韻	-10.9476
介圭	-10.9477
鰋	-10.9479
多辟	-10.948
小心	-10.9486
霜降	-10.9487
木瓜	-10.9491
而卒	-10.9491
釋詁云	-10.9496
四矢	-10.9499
教民	-10.9502
人力	-10.9502
之祥	-10.9504
飛則	-10.9508
男子之	-10.9509
之類皆	-10.9511
逺人	-10.9516
世而	-10.9516
蠆	-10.952
髙克	-10.9522
之詩而	-10.9522
縷	-10.9523
科	-10.9523
穎	-10.9523
芬	-10.9524
經言	-10.9525
樅	-10.9526
亷	-10.9526
野有蔓草	-10.9527
鈞	-10.9527
罝	-10.9528
亢	-10.9529
乆而	-10.953
掇	-10.953
以往	-10.9532
並言	-10.9532
二王之後	-10.9532
積累	-10.9534
亦可謂	-10.9534
祝融	-10.9535
禮器	-10.9537
人心之	-10.9537
營謝	-10.954
以玉	-10.9543
猶在	-10.9544
無已	-10.9546
異耳	-10.9547
車上	-10.9548
載驅	-10.9548
之側	-10.955
不爽	-10.9551
或者	-10.9558
魚藻	-10.9559
而益	-10.9561
以順	-10.9569
師衆	-10.9575
以享	-10.958
屺	-10.9582
袒	-10.9582
蔬	-10.9586
諸書	-10.9586
尼	-10.9587
渙	-10.9587
新廟	-10.9589
鼛	-10.9589
輶	-10.959
西安府	-10.959
庶乎	-10.9591
詩經	-10.9591
功臣	-10.9591
所以自	-10.9591
周禮注	-10.9592
鼓瑟	-10.9592
弩	-10.9592
彊禦	-10.9592
太伯	-10.9592
槃	-10.9594
侍御	-10.9599
占夢	-10.9599
在家	-10.9599
辨其	-10.96
交相	-10.96
比而賦	-10.9601
旻天	-10.9605
美刺	-10.9609
徐音	-10.9609
周旋	-10.9611
夷姜	-10.9612
其左右	-10.9613
徃來	-10.9617
汶	-10.9622
與女	-10.963
誰能	-10.9632
能致	-10.9633
頌禱	-10.9637
亡國	-10.9639
祭禮	-10.9642
武事	-10.9642
拳	-10.9648
鶻	-10.9649
螟	-10.965
哉此	-10.9651
虞人	-10.9652
小異	-10.9652
暱	-10.9652
䕃	-10.9652
言歸	-10.9654
帥師	-10.9654
揜	-10.9655
銍	-10.9655
毛訓	-10.9658
早晚	-10.9659
作詩以	-10.9659
鄭樵	-10.9662
桃李	-10.9663
今日之	-10.9666
始作	-10.9672
方社	-10.9672
之情也	-10.9673
此句	-10.9673
因以為	-10.9677
語詞	-10.9679
作此詩以	-10.9683
震動	-10.9686
多少	-10.9686
人材	-10.9694
孺	-10.97
疾威	-10.9703
所都	-10.9704
厚而	-10.9704
彞	-10.971
及于	-10.9712
好惡	-10.9713
一統志	-10.9714
螟蛉	-10.9715
羨	-10.9716
橘	-10.9716
盛時	-10.9717
疑之	-10.9718
滔滔	-10.9718
太史	-10.9718
櫜	-10.9719
埸	-10.9719
宗廟之祭	-10.972
詹	-10.972
偷	-10.972
任用	-10.9721
淫奔之	-10.9721
意同	-10.9722
怡	-10.9722
我行其野	-10.9722
下四句	-10.9727
白虎	-10.9727
逺近	-10.9729
小木	-10.9729
不受	-10.9731
者也故	-10.9733
同義	-10.9737
飲食之	-10.9738
其福	-10.9738
不由	-10.9738
起於	-10.9744
反復	-10.9745
之書	-10.9747
其禍	-10.9749
相接	-10.9751
百穀	-10.9751
不敢斥	-10.9758
四章皆	-10.9758
長庚	-10.9764
大火	-10.9767
不可知	-10.9771
邉	-10.9779
得名	-10.978
無遺	-10.9781
董氏	-10.9781
坎坎	-10.9781
贄	-10.9782
無使	-10.9783
城縣	-10.9784
野有死麕	-10.9784
脣	-10.9785
勅	-10.9785
函	-10.9786
叔兮伯兮	-10.9786
者言之	-10.9787
文王既	-10.9788
猶能	-10.9788
始祖	-10.9789
而始	-10.9792
不獲	-10.9794
以朱	-10.9796
自稱	-10.9796
於魯	-10.9796
采葛	-10.9798
有二種	-10.9798
民居	-10.9798
圖經云	-10.9802
反沈	-10.9804
信厚	-10.9804
君子有	-10.9804
文王之典	-10.9804
字異	-10.9806
刺忽	-10.9806
天下無	-10.9813
名之曰	-10.9815
曾不	-10.9817
好色	-10.9818
公行	-10.9819
耳今	-10.982
私人	-10.9821
所感	-10.9822
不肖	-10.9822
度之	-10.9825
菉	-10.9835
父母兄弟	-10.9836
得天下	-10.9838
酒醴	-10.9838
色白	-10.9838
必無	-10.9838
也〇	-10.9839
吾君	-10.984
江淮	-10.984
民所	-10.9841
大亂	-10.9844
壮	-10.9845
猗猗	-10.9846
謠	-10.9848
齎	-10.9849
儼	-10.985
渝	-10.985
聽訟	-10.985
山有樞	-10.9851
君子至止	-10.9851
胙	-10.9851
飫	-10.9851
悌	-10.9851
圭璧	-10.9852
皷	-10.9853
叶奬	-10.9859
何休	-10.9861
一年	-10.9863
伐淮夷	-10.9868
以生	-10.9868
而死	-10.9876
户郎	-10.9876
立國	-10.9876
可觀	-10.9879
廣韻	-10.9882
及此	-10.9883
庫	-10.9884
羅瑞良	-10.989
心焉	-10.9891
文舞	-10.9894
辟雍	-10.9894
屬之	-10.9896
徧也	-10.9897
鐃	-10.9898
以承	-10.99
天實	-10.9903
所以然者	-10.9903
遼	-10.9907
愚人	-10.9907
響	-10.9907
一嵗	-10.9909
藚	-10.991
尤甚	-10.9911
已見	-10.9912
各有所	-10.9913
聨	-10.9914
著於	-10.9915
當是時	-10.9917
第一	-10.9917
豐城朱氏曰	-10.9917
其才	-10.9917
有娀	-10.9918
揉	-10.9918
垤	-10.9919
噦噦	-10.9919
懲創	-10.9919
茅蒐	-10.9921
叔段	-10.993
美惡	-10.9932
諸侯助祭	-10.9933
中衣	-10.9934
之間謂之	-10.9934
商人	-10.9934
白虎通	-10.9937
之所以為	-10.9946
其弟	-10.9953
歐陽曰	-10.9954
爾殽	-10.9957
叶上	-10.9957
遷於	-10.996
金玉	-10.9962
益之	-10.9963
在衛	-10.9963
蕪	-10.9965
仙	-10.9967
前三章	-10.997
鄉遂	-10.997
而與之	-10.9973
虞惇曰	-10.9974
緝熈	-10.9976
鄭衛	-10.9978
鴆	-10.998
兼言	-10.998
煌煌	-10.9981
狼跋	-10.9981
澤陂	-10.9984
聞音曰	-10.9985
崇牙	-10.9987
樂音洛	-10.9987
子嗟	-10.999
而加	-10.9994
聰	-10.9998
司馬法	-10.9998
襄王	-10.9999
處之	-11.0006
不解	-11.001
戎事	-11.0013
者若	-11.0013
于上	-11.0019
役車	-11.002
此四	-11.0024
無辜	-11.0026
檉	-11.0026
不甚	-11.003
通典	-11.0036
鵜	-11.0036
鶉之奔奔	-11.0039
茆	-11.004
輝	-11.004
共和	-11.0042
韘	-11.0042
比興	-11.0045
自悔	-11.0048
蝱	-11.0048
閑閑	-11.0048
蠱	-11.0049
殷其靁	-11.0049
揚雄	-11.005
君子陽陽	-11.0052
詩記曰	-11.0055
獻酬	-11.0055
餼	-11.0055
邶鄘衛	-11.0056
使我心	-11.0056
虵	-11.0057
所取	-11.0058
受封	-11.006
無私	-11.0061
孔氏穎	-11.0069
最為	-11.007
而還	-11.007
作歌	-11.0072
來牟	-11.0075
相怨	-11.0076
其先祖	-11.0079
在郊	-11.0081
穆王	-11.0083
所不及	-11.0083
緩也	-11.0087
蘋藻	-11.0088
既設	-11.0088
朝諸侯	-11.009
知其為	-11.0092
莢	-11.0093
之可也	-11.0096
叔向	-11.0097
賜也	-11.0098
矣豈	-11.0098
田也	-11.0098
油	-11.0102
民間	-11.0104
舜之	-11.0104
聰明	-11.0106
治民	-11.0106
鄭音	-11.0106
棫	-11.0108
何楷曰	-11.0108
之處也	-11.0109
奇	-11.011
橐	-11.0111
瑳	-11.0111
無競	-11.0111
衛國	-11.0112
濯濯	-11.0112
爪	-11.0114
勒	-11.0114
朱傳云	-11.0115
常在	-11.0115
旱既大甚	-11.0115
固已	-11.0117
設為	-11.0121
一丈	-11.0122
鄭聲	-11.0124
混夷	-11.0124
罪罟	-11.0125
屋漏	-11.0126
矣乃	-11.0131
業業	-11.0132
人之言	-11.0139
同類	-11.0141
善於	-11.0142
而去之	-11.0142
瞻彼	-11.0145
以祈	-11.0148
三物	-11.015
相呼	-11.0151
而知其	-11.0153
陸璣疏云	-11.0155
與之同	-11.0157
已反	-11.0157
授之	-11.0158
莎雞	-11.0162
美好	-11.0167
者宜	-11.0167
音義同	-11.0168
趙孟	-11.0176
孔安國	-11.0176
治田	-11.0177
袖	-11.0177
懟	-11.0178
桷	-11.0179
墠	-11.0179
忮	-11.0179
許穆夫人	-11.018
求福	-11.018
蓼莪	-11.0185
古注	-11.0189
興而	-11.019
勤於	-11.0191
此物	-11.0192
龍旂	-11.0193
不可求	-11.0196
▁賦也	-11.0197
召之	-11.02
不恭	-11.0206
歎之	-11.0206
之郊	-11.0208
此蓋	-11.0209
比之	-11.0211
苕之華	-11.0214
懿王	-11.0215
四字	-11.0215
南畝	-11.0216
書之	-11.0216
不弔	-11.022
一時之	-11.0222
取妻	-11.0223
衆多也	-11.0223
辯說	-11.0225
以兵	-11.0228
未艾	-11.023
五句	-11.023
賢君	-11.0232
命不易	-11.0235
求助	-11.0235
小臣	-11.0236
蠲	-11.0236
袍	-11.0237
者以此	-11.024
諸侯皆	-11.024
末句	-11.0241
冽	-11.0241
水流	-11.0243
杻	-11.0244
仲夏	-11.0246
霏	-11.0246
卣	-11.0246
白金	-11.0248
得志	-11.0248
觩	-11.0248
冨	-11.0249
取彼	-11.0251
相配	-11.026
豐氏本	-11.026
文意	-11.0264
如雨	-11.0266
古詩	-11.0268
叔父	-11.0268
何等	-11.027
畏天	-11.0271
我我	-11.0271
美人	-11.0273
未甞	-11.0274
人之心	-11.0275
而祭之	-11.0276
而飲	-11.0281
中興之	-11.0287
困於	-11.0288
德行	-11.0289
不可食	-11.029
同車	-11.0292
以授	-11.0293
歌者	-11.0293
太任	-11.0294
集注	-11.0295
附之	-11.0296
諼	-11.0298
俱是	-11.0298
證之	-11.0302
遣戍役	-11.0307
駰	-11.0307
令儀	-11.0308
唐虞	-11.031
郊特牲云	-11.0312
疑於	-11.0312
鐸	-11.0314
奉璋	-11.0314
隸	-11.0315
喤喤	-11.0315
銚	-11.0315
䜴	-11.0315
曀	-11.0315
荏	-11.0315
悄	-11.0316
閣	-11.0317
日用	-11.0318
魯國	-11.0319
耻	-11.0323
不齊	-11.0324
山西	-11.0324
耆老	-11.033
宣王中興	-11.033
長尺	-11.0331
近而	-11.0331
昭穆	-11.0332
乆矣	-11.0334
首二句	-11.0336
日中	-11.0343
昏亂	-11.0343
來助祭	-11.0344
交交	-11.0344
相連	-11.0345
諸侯來朝	-11.0345
學問	-11.0346
表裏	-11.0346
白虎通云	-11.0349
子孫衆多	-11.035
六詩	-11.0351
之皮	-11.0356
其㫖	-11.0357
乘車	-11.0358
羣廟	-11.0359
論云	-11.0363
郇	-11.0363
横木	-11.0366
蓋亦	-11.0367
此義	-11.0368
遣之	-11.0369
殷王	-11.037
什一	-11.0373
歐陽公	-11.0374
瓚	-11.0375
番	-11.0376
陸璣疏	-11.0377
坻	-11.0379
晢	-11.038
文王之時	-11.0381
迴	-11.0382
回遹	-11.0383
挑	-11.0383
渇	-11.0384
鼗	-11.0384
鞅	-11.0384
文選	-11.0384
麓	-11.0384
泯	-11.0385
何人斯	-11.0386
麟之趾	-11.0386
􁂶	-11.0386
朱註賦也毛傳缺	-11.0386
泌	-11.0387
所刺	-11.0388
餉	-11.0388
視爾	-11.0389
汭	-11.039
曹氏粹中曰	-11.039
貍首	-11.0391
束薪	-11.0394
暴虎	-11.0397
昊天上帝	-11.0398
寒泉	-11.0399
各自	-11.04
天下之人	-11.0409
㣲子	-11.0411
説苑	-11.0412
既曰	-11.0413
張子	-11.0413
之多也	-11.0416
之小者	-11.0416
子指	-11.0418
所以得	-11.0424
八句	-11.0426
坊	-11.0427
序曰刺	-11.0427
失國	-11.0428
詩序曰	-11.043
正言	-11.0432
以慰	-11.0434
鳦	-11.0439
喜其	-11.0439
形如	-11.044
飼	-11.0441
銎	-11.0443
之始也	-11.0444
思得	-11.0445
簸	-11.0447
廵	-11.0448
腫	-11.0449
繞	-11.045
馨	-11.0451
纎	-11.0452
䲭鴞	-11.0452
嘒	-11.0453
銀	-11.0456
瘠	-11.0458
弄	-11.0458
徙居	-11.0458
不死	-11.046
蘀兮	-11.0463
夲又作	-11.0463
南箕	-11.0467
老成	-11.0467
頷	-11.0469
諸姬	-11.047
道理	-11.0472
荆舒	-11.0473
釋鳥	-11.0474
蔡氏	-11.0474
酒漿	-11.0481
豳地	-11.0485
失所	-11.0486
再言	-11.0493
先代	-11.0494
民莫不	-11.0498
琚	-11.0501
不侮	-11.0502
千乘	-11.0502
序所謂	-11.0503
納采	-11.0505
之端	-11.0506
縣西南	-11.0507
沔水	-11.0508
今觀	-11.0509
桂	-11.0515
亦言	-11.0516
葚	-11.0516
酸	-11.0517
嚏	-11.0518
此二句	-11.0519
第二	-11.0519
㒺	-11.052
厖	-11.0521
先君之	-11.0521
蜾蠃	-11.0521
武王克商	-11.0522
頃筐	-11.0523
出其東門	-11.0523
寺	-11.0524
不遲	-11.0525
頰	-11.0525
三人	-11.0525
茹藘	-11.0525
馨香	-11.0526
夘	-11.0526
託言	-11.0527
矧	-11.0528
無已也	-11.0529
可使	-11.053
􁂎	-11.053
亾	-11.053
君命	-11.0531
神靈	-11.0533
矣且	-11.0541
奚斯	-11.0542
東流	-11.0545
髙祖	-11.0548
嘏辭	-11.0552
鄭譜	-11.0554
何嘗	-11.0556
注疏	-11.0558
戒懼	-11.0565
政治	-11.057
乆也	-11.0576
甚美	-11.0577
金奏	-11.0584
茇	-11.0587
幽州人謂之	-11.0588
煇	-11.0589
耒耜	-11.0589
嚴氏云	-11.0591
腸	-11.0591
濱	-11.0591
東門之枌	-11.0592
寕	-11.0592
衾	-11.0592
技	-11.0593
黄氏佐曰	-11.0593
伺	-11.0594
味甘	-11.0595
何草不黄	-11.0597
事見	-11.0599
師傅	-11.06
固非	-11.0602
雖多	-11.0607
為文	-11.0608
勞使臣	-11.0609
叶户	-11.0614
叶謨	-11.0618
信矣	-11.062
為人所	-11.0628
二十八	-11.0633
猴	-11.0634
潦	-11.0646
鱒	-11.0646
一意	-11.0647
自作	-11.0651
而不知其	-11.0654
陸氏曰	-11.0654
禪	-11.0655
率循	-11.0658
晋	-11.0659
王安石	-11.0659
治天下	-11.0659
忝	-11.0661
豬	-11.0662
巔	-11.0663
漸漸之石	-11.0663
達於	-11.0663
無過	-11.0664
嬴	-11.0664
塤	-11.0665
喈	-11.0666
實事	-11.0666
遙	-11.0667
三歲	-11.0671
朝覲	-11.0675
於理	-11.0678
趣馬	-11.0679
念彼	-11.068
和鸞	-11.068
也此章言	-11.0682
子産	-11.0682
鳥鳴	-11.0688
柔木	-11.069
汶水	-11.0693
心憂	-11.0699
也嚴氏曰	-11.0702
黄氏曰	-11.0703
山中	-11.0704
惑於	-11.0706
我友	-11.0706
之美也	-11.0708
營室	-11.072
此詩人	-11.0721
齊一	-11.0722
異乎	-11.0722
紵	-11.0723
緑竹	-11.0724
瑶	-11.0725
過時	-11.0726
繪	-11.0728
六反	-11.0728
亦不能	-11.0728
俗謂之	-11.0731
窈窕	-11.0731
摩	-11.0731
燕安	-11.0731
荀卿	-11.0731
鐡	-11.0732
士冠禮	-11.0732
圭瓚	-11.0733
菣	-11.0733
厚矣	-11.0734
程氏	-11.0734
蠶事	-11.0735
許氏謙曰	-11.0737
本紀	-11.0738
鰥寡	-11.0739
胡公	-11.0739
中冓	-11.074
不醉	-11.0741
從軍	-11.0744
十一篇	-11.0745
安處	-11.0748
不仁	-11.0748
隰桑	-11.0748
沔	-11.0749
夏姬	-11.0751
王都	-11.0751
譏之	-11.0753
不可信	-11.0757
帝王	-11.076
正義曰言	-11.0761
敬天	-11.0772
擇其	-11.0774
不回	-11.0774
一二	-11.0776
腹心	-11.0776
解之	-11.0778
好音	-11.0781
水經	-11.0786
有車馬	-11.0788
蜻	-11.0789
箋疏	-11.0793
淮浦	-11.0793
傑	-11.0798
動而	-11.0799
庶子	-11.08
衆民	-11.0801
珌	-11.0802
耐	-11.0802
租	-11.0803
陪	-11.0805
純嘏	-11.0812
以成其	-11.0813
信其	-11.0818
忠愛	-11.0823
竊脂	-11.0824
羅願云	-11.0828
母家	-11.083
問之	-11.0831
存者	-11.0834
君子謂	-11.0835
叔孫	-11.0837
無聲	-11.084
有害	-11.0843
無所依	-11.0844
盡其心	-11.085
楚子	-11.0854
三歳	-11.0855
房中之樂	-11.0858
也吕氏曰	-11.0858
泛言	-11.0859
嗟歎	-11.086
不難	-11.0862
孑	-11.0863
隮	-11.0865
遑暇	-11.0866
一端	-11.0867
不可考	-11.0869
勃	-11.0869
裔	-11.0872
二十二	-11.0873
甚大	-11.0873
吝	-11.0874
蓫	-11.0874
戕	-11.0875
屠	-11.0875
鴻雁	-11.0875
窺	-11.0877
各反	-11.0877
裳裳者華	-11.0877
贈之	-11.0877
璞	-11.0878
有狐	-11.0882
各得其所	-11.0883
樊纓	-11.0885
集於	-11.089
昏姻之	-11.089
退而	-11.0892
簡簡	-11.0894
于人	-11.0894
矣於是	-11.0898
車鄰	-11.0901
而亡	-11.0901
邶風	-11.0904
截然	-11.0905
妣	-11.0905
可得而	-11.091
兩端	-11.0912
作豐	-11.0916
正雅	-11.0916
君子如	-11.0917
好徳	-11.092
其鳴	-11.0923
齊家	-11.0924
今我	-11.0926
白牡	-11.0929
蘓	-11.0929
七廟	-11.0929
衞人	-11.0931
前漢	-11.0934
不淫	-11.0935
遂人	-11.0938
自當	-11.094
王制云	-11.094
於己	-11.094
大司樂	-11.0941
樓	-11.0942
衷	-11.0942
中谷有蓷	-11.0943
馮翊	-11.0943
剪	-11.0945
披	-11.0946
祔	-11.0947
周室之	-11.0947
觼	-11.0948
藎	-11.0949
邾	-11.095
背上	-11.095
訂	-11.0951
豈無他人	-11.0953
魄	-11.0955
勉强	-11.0962
縣東北	-11.0962
補傳曰	-11.0964
赤舄	-11.0964
罶	-11.0965
歸美	-11.0965
荷華	-11.097
專指	-11.0974
存亡	-11.0984
夜飲	-11.0985
也惟其	-11.0987
民力	-11.099
湛樂	-11.099
宰夫	-11.0996
一說	-11.0999
之緒	-11.1003
自安	-11.1004
告神	-11.1004
事畢	-11.1006
可畏也	-11.1007
糞	-11.1008
人才	-11.1009
死者	-11.101
釜	-11.1012
無所不至	-11.1013
斛	-11.1014
不能制	-11.1014
培	-11.1015
掃	-11.1017
書所謂	-11.1017
北面	-11.1018
朝隮	-11.1019
圻	-11.102
志在	-11.1021
探	-11.1021
諛	-11.1022
蛾	-11.1022
松栢	-11.1022
饗禮	-11.1023
姚	-11.1024
遂以為	-11.1024
獸名	-11.1024
吹笙	-11.1026
豉	-11.1027
誦之	-11.1027
教以	-11.103
洒埽	-11.103
安在	-11.103
陶陶	-11.1031
因此	-11.1032
申生	-11.1034
事神	-11.1036
永歎	-11.1039
有時而	-11.1042
臣僕	-11.105
夭夭	-11.1053
居東	-11.1054
之初生	-11.1054
不可解	-11.1064
十一月	-11.1065
節儉	-11.1065
呼報	-11.1069
後凡	-11.107
並無	-11.1076
相依	-11.1077
戰國	-11.108
不修	-11.1081
逼反	-11.1082
伶	-11.1082
詩人述	-11.1083
蔓延	-11.1084
而作是詩	-11.1086
蹂	-11.1089
湘	-11.1089
沿	-11.109
戲謔	-11.1091
有美一人	-11.1092
總言	-11.1096
厄	-11.1096
陟岵	-11.1096
一人之	-11.1097
麀鹿	-11.1097
此等	-11.1098
挽	-11.1098
七十里	-11.11
隧	-11.11
逺行	-11.11
名物	-11.11
惔	-11.1102
孰能	-11.1102
以俟	-11.111
附錄	-11.1112
可作	-11.1115
籥章	-11.1119
百禄	-11.1123
不遇	-11.1126
文王之詩	-11.113
圃田	-11.1131
殘賊	-11.1132
所治	-11.1133
車徒	-11.1134
犯禮	-11.1142
井田	-11.1145
何爲	-11.1151
以致其	-11.1155
有角	-11.1157
即指	-11.116
雖然	-11.1164
蔌	-11.1169
序刺	-11.117
始言	-11.117
維天之命	-11.117
吟	-11.1171
鬵	-11.1172
懇	-11.1172
心之所	-11.1172
萇楚	-11.1173
蠢	-11.1175
裁	-11.1175
標	-11.1175
俟我於	-11.1177
籥舞	-11.1189
老人	-11.1192
不念	-11.1193
賦也鄭箋	-11.1195
上四句	-11.1198
相好	-11.12
之不如也	-11.1202
周公所作	-11.1203
不得志	-11.1204
有大小	-11.1204
燕羣臣	-11.1209
饋食	-11.1212
於郊	-11.1214
東海	-11.1216
和順	-11.122
亮反	-11.1222
禮法	-11.1223
豳詩	-11.1223
之深也	-11.1225
而從之	-11.1228
衰世	-11.1231
吠	-11.1234
工歌	-11.1234
咮	-11.1235
栵	-11.1237
概	-11.1238
稱其服	-11.1241
百畆	-11.1241
室人	-11.1242
欵	-11.1243
明君	-11.1243
礪	-11.1243
婢	-11.1243
哺	-11.1244
胷	-11.1245
濳	-11.1245
罄	-11.1246
文王時	-11.1246
潮	-11.1247
隈	-11.1247
翩翩	-11.1247
匿	-11.1249
闋	-11.1249
儇	-11.1254
不廢	-11.1259
車右	-11.1259
自外	-11.1261
憂國	-11.1273
為害	-11.1274
相和	-11.1275
武舞	-11.1281
殷人	-11.1283
清揚	-11.1283
孝思	-11.1287
不見答	-11.1292
田車	-11.1293
不能已	-11.1296
大路	-11.1301
三寸	-11.1312
甜	-11.1313
周地	-11.1313
盡矣	-11.1313
年豐	-11.1315
不專	-11.1317
騫	-11.1317
汕	-11.132
山有扶蘇	-11.132
邵	-11.132
貔	-11.1321
偈	-11.1322
柴望	-11.1323
出遊	-11.1324
彦	-11.1324
失職	-11.1326
甥舅	-11.1326
宛丘之	-11.1327
景公	-11.1329
柔順	-11.1332
失禮	-11.1333
三尺	-11.1338
崇丘	-11.134
注引	-11.1343
朝事	-11.1349
承上章言	-11.1349
頌僖公	-11.1353
前王	-11.1354
既備	-11.1355
卷十	-11.1355
嗟嗟	-11.1358
深衣	-11.136
發端	-11.136
説得	-11.1362
張仲	-11.1363
豫州	-11.1364
釋畜	-11.1365
追王	-11.137
享其	-11.1373
蜥蜴	-11.1375
勤苦	-11.1378
王化	-11.1381
服䖍	-11.1386
札	-11.1387
正經	-11.139
可愛	-11.1392
又加	-11.1392
船	-11.1393
疆埸	-11.1393
磋	-11.1395
歎辭	-11.1395
槱	-11.1396
觀此詩	-11.1397
蕪菁	-11.1397
囂囂	-11.1398
舍人曰	-11.1398
噂	-11.1398
離騷	-11.1399
姬姓	-11.14
已甚	-11.1401
皇甫謐	-11.1402
夲亦作	-11.1402
餙	-11.1402
長養	-11.1405
陳風	-11.1408
大風	-11.1409
發語辭	-11.1411
又使	-11.1412
無俾	-11.1414
富貴	-11.1422
君婦	-11.1423
莫知其	-11.1423
傷已	-11.1428
漿	-11.1429
古今注	-11.1431
四詩	-11.1433
君王	-11.1436
許氏曰	-11.1438
〇鄭氏曰	-11.144
在道	-11.1441
欲求	-11.1443
繹祭	-11.1445
斨	-11.1447
三終	-11.1449
始至	-11.1459
所以安	-11.1459
跳	-11.1466
可以爲	-11.1466
廓	-11.1467
逞	-11.1468
埤	-11.1469
坼	-11.147
勞矣	-11.147
賈誼	-11.147
別	-11.1473
將歸	-11.1474
韓姞	-11.1474
駭	-11.1475
勵	-11.1475
防閑	-11.1476
王介甫曰	-11.1476
砥	-11.1476
麀	-11.1478
東方之日	-11.1478
絶無	-11.1479
釋草云	-11.1481
伐鼓	-11.1481
燕兄弟	-11.1482
天子親	-11.1484
何由	-11.1485
太康	-11.1486
亡矣	-11.149
列子	-11.1498
興者喻	-11.1499
圖經	-11.1501
二十七	-11.1503
享祀	-11.1503
伯服	-11.1504
委蛇	-11.1506
復興	-11.1507
諸侯之國	-11.1509
祀天	-11.1512
孟夏	-11.1515
存焉	-11.1516
猶存	-11.1523
與羣臣	-11.1529
中節	-11.153
非一人	-11.1531
鄭漁仲	-11.1533
秀葽	-11.1537
箎	-11.1541
甑	-11.1542
漫	-11.1545
規模	-11.1545
合之	-11.1547
隊	-11.1547
韎	-11.1547
巡狩	-11.1548
護	-11.1548
園有桃	-11.1549
睢	-11.1549
讙	-11.1549
所乘	-11.1549
霑	-11.155
險阻	-11.1552
補傳	-11.1552
恊	-11.1553
指文王	-11.1553
晉陽	-11.1554
照臨	-11.1554
祭事	-11.1554
叔伯	-11.1555
按周禮	-11.1557
無角	-11.1557
䏻	-11.1558
經營四方	-11.156
摻	-11.1561
馬融	-11.1562
以避	-11.1567
一國之	-11.1567
白露	-11.1569
嘉客	-11.1571
髙岡	-11.1573
〇毛氏曰	-11.1582
何物	-11.1587
不但	-11.1588
陸本	-11.1593
不可以為	-11.1593
賔尸	-11.1594
此詩之作	-11.1594
相繼	-11.1596
中林	-11.1601
李巡曰	-11.1606
時世	-11.1608
鷦鷯	-11.1613
南土	-11.1615
人物	-11.1616
所存	-11.1616
公歸	-11.1617
戎馬	-11.1617
萑葦	-11.1617
準	-11.1618
縿	-11.162
瓊琚	-11.162
邢昺	-11.162
勺藥	-11.162
褘	-11.1621
戯	-11.1621
撮	-11.1622
鋒	-11.1622
受天之祜	-11.1623
苐	-11.1624
鄭氏云	-11.1624
東方未明	-11.1625
䖏	-11.1626
修德	-11.1626
軜	-11.1626
家邦	-11.1628
邂逅	-11.1628
揺	-11.1628
瑣	-11.1629
淹	-11.1629
夫人姜氏	-11.163
台	-11.163
賦比興	-11.1632
檖	-11.1632
吕東萊曰	-11.1634
酒誥	-11.1635
七尺	-11.1638
伐玁狁	-11.1641
馬祖	-11.1642
盡瘁	-11.1646
可憂	-11.1648
所歌	-11.1649
自天子	-11.1649
豈必	-11.1653
而得之	-11.1659
無信	-11.1661
固當	-11.1668
貪人	-11.1669
季夏	-11.1672
幽厲	-11.1676
不愆	-11.1677
之證	-11.1678
射御	-11.1685
相樂	-11.1686
又謂之	-11.1687
蝎	-11.1687
下流	-11.1688
穎達	-11.1688
境内	-11.1688
箕子	-11.1694
保安	-11.1694
不瑕	-11.1696
杏	-11.1697
防有鵲巢	-11.1699
藟	-11.1699
三里	-11.1699
銅	-11.17
窒	-11.1702
欣	-11.1702
畛	-11.1702
排	-11.1703
頓丘	-11.1704
慆	-11.1704
鞏	-11.1704
恫	-11.1705
屆	-11.1705
大叔	-11.1705
淑善	-11.1706
刺莊公	-11.1707
通篇	-11.1707
皋	-11.1708
虎豹	-11.1709
牂	-11.1709
黄氏	-11.1711
勞苦而	-11.1711
勞來	-11.1711
將仲子	-11.1712
焞	-11.1713
助祭者	-11.1716
輯録輔氏曰	-11.1717
臧善也	-11.1718
洪水	-11.1721
鄭説	-11.1723
宮室	-11.1724
告語	-11.1725
□□	-11.1725
仕於	-11.1727
繹思	-11.1728
三爵	-11.1733
而言則	-11.1735
邦家	-11.1737
諷誦	-11.1737
城郭	-11.1739
不可易	-11.174
集韻	-11.1741
乃命	-11.1741
互見	-11.1742
詠歌	-11.1744
恩澤	-11.1745
晉文公	-11.1749
所自出	-11.1749
受禄	-11.1756
萱	-11.1757
征行	-11.1758
鷦	-11.1764
平陽	-11.1764
公路	-11.1768
可以觀	-11.177
而思之	-11.1771
廛	-11.1772
之妃	-11.1775
擣	-11.1776
蔓菁	-11.1778
扇	-11.1779
㓂	-11.178
斃	-11.1781
塾	-11.1781
繢	-11.1781
逵	-11.1783
饟	-11.1786
君子于役	-11.1786
瘉	-11.1786
濆	-11.1786
仕者	-11.1787
蓑	-11.1788
畬	-11.1788
賣	-11.1789
淵淵	-11.1789
伊何	-11.179
雄狐	-11.179
躐	-11.1792
毛義	-11.1793
誼	-11.1793
大全	-11.1796
帝乙	-11.1797
鮎	-11.1798
蒼蒼	-11.1798
王畿	-11.18
凶年	-11.1803
瞻望	-11.1804
不可復	-11.1806
柔弱	-11.1807
季春	-11.1808
自我也	-11.1811
賦而興也	-11.1815
所施	-11.182
季氏	-11.1822
兩旁	-11.1825
服䖍云	-11.1829
便見	-11.1836
䟽云	-11.184
疏引	-11.1844
鄰國	-11.1849
䜛言	-11.185
范曰	-11.185
未免	-11.1852
球	-11.1855
媾	-11.1857
惸	-11.1859
淡	-11.1859
脾	-11.1861
入河	-11.1861
禀	-11.1862
憮	-11.1863
苛	-11.1863
豜	-11.1863
鱣鮪	-11.1864
𬒳	-11.1865
鯇	-11.1866
頌聲	-11.1867
自誓	-11.1873
匡衡	-11.1875
而訴之	-11.1876
良士	-11.1876
獨處	-11.1887
萬國	-11.1897
王芻	-11.1904
豳公	-11.1909
州今	-11.191
詩詞	-11.1916
章首	-11.1917
武王既	-11.1918
集傳以為	-11.1919
雜佩	-11.1921
喻王	-11.1926
無兄弟	-11.1928
改正	-11.1928
匊	-11.1929
漆水	-11.1929
流行	-11.1931
高大	-11.1933
至於此	-11.1938
蔦	-11.1939
儲	-11.1939
有杕之杜	-11.194
毅	-11.194
儉嗇	-11.1941
譴	-11.1941
脛	-11.1942
儦儦	-11.1942
奏肆夏	-11.1942
憂懼	-11.1943
五章章四句	-11.1943
綢	-11.1944
睂	-11.1947
僞	-11.1948
幷	-11.1948
太王王季	-11.195
五祀	-11.1951
之所能	-11.1953
釋訓云	-11.1954
北狄	-11.1961
汾水	-11.1962
在其中矣	-11.1966
禮書云	-11.1967
餘皆	-11.1971
祫祭	-11.1974
從鄭	-11.198
殊不知	-11.1982
逮下	-11.1982
徳盛	-11.1987
表記	-11.1993
娶妻	-11.1996
羽翼	-11.1999
無益	-11.2005
鐲	-11.2007
故先言	-11.2008
静女	-11.2008
博物志	-11.201
文理	-11.2013
麰	-11.2013
丘中有麻	-11.2017
箾	-11.2018
饗燕	-11.2019
璊	-11.202
縣西北	-11.202
祭宗廟	-11.2021
煖	-11.2023
簠	-11.2023
十九年	-11.2024
三山李氏曰	-11.2025
郝氏云	-11.2026
縭	-11.2026
太牢	-11.2026
立卒子	-11.203
孟姜	-11.2031
于貉	-11.2035
而安之	-11.2036
明日	-11.2036
重在	-11.2037
危殆	-11.2038
勤儉	-11.2041
在户	-11.2041
其衣服	-11.2044
相隨	-11.2044
中軍	-11.2046
安危	-11.2046
刺幽	-11.2062
因名	-11.2062
欲得	-11.2069
三卿	-11.2073
二家	-11.2077
齊襄	-11.208
不殄	-11.2082
魯莊公	-11.2083
叶徒	-11.2087
得其宜	-11.2087
奄有	-11.2088
香草	-11.2089
忘憂	-11.2091
删	-11.2093
將雨	-11.2093
也聞音曰	-11.2095
後嗣	-11.2096
袞	-11.2097
之状	-11.2101
邈	-11.2102
肱	-11.2102
閨	-11.2102
央央	-11.2102
日月星辰	-11.2103
淫泆	-11.2103
訩	-11.2103
庠	-11.2103
孔氏云	-11.2103
𧖟	-11.2103
撻	-11.2103
柞櫟	-11.2104
天之所	-11.2106
戚戚	-11.2107
魂	-11.2107
弧	-11.2108
諂	-11.2109
黄耇	-11.2109
陌	-11.2109
詰	-11.2109
誠心	-11.2127
生后稷	-11.213
離離	-11.2132
仲秋	-11.2139
毳	-11.2141
大鼓	-11.2146
說見	-11.2147
騁	-11.2152
失之矣	-11.2152
禮記曰	-11.2154
未見其	-11.2154
田犬	-11.2155
同州	-11.2162
二寸	-11.2163
我躬	-11.2163
亦惟	-11.2165
順天	-11.2165
恐是	-11.2168
陽陽	-11.2169
也孟子曰	-11.217
挺	-11.2174
鱮	-11.2175
頡	-11.2176
董曰	-11.2177
荘姜	-11.2178
鞉鼓	-11.2179
全篇	-11.2179
為一物	-11.218
阼階	-11.2184
謫	-11.2184
慄	-11.2184
白蒿	-11.2185
忉忉	-11.2186
窶	-11.2186
髢	-11.2187
嚶嚶	-11.2188
寮	-11.2189
赦	-11.2189
暖	-11.2189
滕	-11.2189
萎	-11.2189
良心	-11.219
晤	-11.2191
來聘	-11.2192
宋公	-11.2194
不我知	-11.2195
重複	-11.2195
聘禮	-11.22
田中	-11.2201
車舝	-11.2202
謝氏曰	-11.2204
維持	-11.2204
仍叔	-11.2204
即此詩	-11.2207
害人	-11.2208
隴西	-11.2212
情狀	-11.2217
釋獸	-11.2219
逸詩	-11.222
虞夏	-11.222
見前	-11.2221
管仲	-11.2221
七世	-11.2225
虎皮	-11.2235
耳目	-11.2236
悔過	-11.2236
陵苕	-11.2238
以後之詩	-11.224
臣民	-11.225
傳訓	-11.2252
獲福	-11.2252
枳	-11.2253
女桑	-11.2255
自知	-11.2255
蘞	-11.2259
二說	-11.2259
隹	-11.2261
劉曰	-11.2261
蕡	-11.2261
久而不	-11.2262
癸	-11.2263
百禮	-11.2263
既戒	-11.2263
觱	-11.2263
壼	-11.2264
穈	-11.2264
槖	-11.2265
噣	-11.2266
帑	-11.2267
烕	-11.2268
洞	-11.2268
瞿瞿	-11.2268
郤	-11.2269
羈	-11.2269
紓	-11.227
平王東遷	-11.2272
貺	-11.2273
尉	-11.2274
髀	-11.2275
礿	-11.2277
大社	-11.2277
夜如何其	-11.2277
尚存	-11.2278
病矣	-11.228
叶麌韻	-11.228
尊賢	-11.2282
八寸	-11.2282
地理	-11.2285
助我	-11.229
數十	-11.2291
漸漸	-11.2291
長貌	-11.2291
武貌	-11.2294
西階	-11.2296
生物	-11.2298
天下之民	-11.2299
夙夜在公	-11.2299
大司徒	-11.2302
不可勝	-11.2307
發矢	-11.2312
光大	-11.2313
師掌	-11.2315
之為物	-11.2322
改作	-11.2324
取諸	-11.2333
蜴	-11.2337
㑹于	-11.2337
雊	-11.2338
嚴粲	-11.2338
嶷	-11.2339
嵩	-11.234
武王時	-11.2342
侮慢	-11.2345
都賦	-11.2346
鷖	-11.2348
獫狁	-11.2348
叠	-11.2349
韡韡	-11.2351
鴨	-11.2351
政衰	-11.2351
金飾	-11.2352
酋	-11.2352
耒	-11.2352
徇	-11.2352
買	-11.2353
姆	-11.2354
公尸燕飲	-11.2354
通釋	-11.2354
其所為	-11.2355
紡	-11.2356
掎	-11.2356
不利	-11.2357
横渠	-11.2357
此經	-11.2358
民之訛言	-11.236
侵削	-11.2361
承上文	-11.2362
我心傷悲	-11.2362
彭氏曰	-11.2362
予小子	-11.2363
太史公	-11.2372
髦士	-11.2373
而不自知	-11.2373
縫裳	-11.2373
漢水	-11.2374
幽王時	-11.2377
美石	-11.2378
出話	-11.2378
城隅	-11.2378
丘氏曰	-11.2383
燕私	-11.2386
主祭	-11.2386
匠	-11.2387
七日	-11.2391
流水	-11.2394
以繩	-11.2396
自警	-11.24
非但	-11.24
書序	-11.241
在河南	-11.241
樂府	-11.2426
丸	-11.2428
喧	-11.2429
㓗	-11.2429
眡	-11.2429
侜	-11.243
榛栗	-11.243
豔	-11.2431
大㫖	-11.2431
器械	-11.2432
潨	-11.2432
夔	-11.2433
寖	-11.2434
百辟卿士	-11.2434
軹	-11.2434
曼	-11.2434
帝謂文王	-11.2435
霽	-11.2436
廐	-11.2438
私田	-11.2439
浮浮	-11.244
綠衣	-11.2441
與民同	-11.2442
繩繩	-11.2444
慶源	-11.2444
畒	-11.2444
幽閒	-11.2446
魏風	-11.2446
廏	-11.2447
世亂	-11.2448
軾前	-11.2453
穆叔	-11.2455
與此同	-11.2457
鯊	-11.2457
居室	-11.2459
和氣	-11.2459
宣布	-11.246
兩字	-11.246
商周	-11.2462
無由	-11.2462
南方之	-11.2465
幽州	-11.2466
十句	-11.2466
五篇	-11.2472
集傳比也	-11.2476
燕享	-11.2476
語録	-11.2477
孔氏謂	-11.2483
衛文公	-11.2487
戎服	-11.2492
奏樂	-11.2501
以善道	-11.2503
所處	-11.2506
自强	-11.2506
鷙	-11.2507
汧	-11.2508
安得有	-11.2508
而不已	-11.2511
故刺之	-11.2511
天神	-11.2512
二事	-11.2512
擇士	-11.2513
綃	-11.2514
紼	-11.2515
沾	-11.2516
之遺風	-11.2516
誑	-11.2518
逑	-11.2519
兢	-11.2521
㤗	-11.2521
兔絲	-11.2521
稔	-11.2522
崧高	-11.2522
黝	-11.2524
庶人之	-11.2525
刋	-11.2527
清濁	-11.2527
叶莫	-11.2527
多難	-11.2528
京兆	-11.2528
逸樂	-11.2529
晝夜	-11.2529
篇首	-11.253
正變	-11.2531
衰亂之	-11.2537
瓊華	-11.2543
下章言	-11.2543
懐思	-11.2546
可證	-11.2551
虢公	-11.2553
誰與	-11.2554
鄠縣	-11.2559
方盛	-11.256
豆實	-11.2562
繼續	-11.2563
從征役	-11.2564
華黍	-11.2565
豈敢	-11.2566
繼世	-11.2571
驪山	-11.2573
史克	-11.258
青州	-11.2582
西京	-11.2582
脂膏	-11.2586
主祭者	-11.2589
跗	-11.259
務農	-11.2595
又從而	-11.2595
不忒	-11.2595
蜃	-11.2598
重較	-11.2599
荓	-11.2601
纂	-11.2602
糲	-11.2603
淠淠	-11.2603
囷	-11.2604
冔	-11.2604
濬	-11.2604
臨川王氏曰	-11.2606
碎	-11.2606
尨	-11.2606
螣	-11.2607
等語	-11.2608
一日不見	-11.2608
文母	-11.2609
廻	-11.261
縣東南	-11.2612
曳	-11.2614
五寸	-11.2617
周公攝政	-11.2617
哆	-11.2618
萬夀	-11.2619
七月之詩	-11.2623
鄉飲酒禮	-11.2625
聲譽	-11.2625
道徳	-11.2625
美色	-11.2628
二十八年	-11.2628
虞書	-11.2641
王業之	-11.2644
文王之所以	-11.2654
晉語	-11.2654
覲禮	-11.2654
韻㑹	-11.2664
第三章	-11.2668
百二十	-11.2674
君子行役	-11.2675
之所致	-11.2675
淫奔之詩	-11.2679
楊氏曰	-11.268
豐邑	-11.2681
葱	-11.2682
所以成	-11.2683
陶隠居	-11.2685
萇	-11.2686
薰	-11.2687
浹	-11.2689
内則云	-11.2689
佛	-11.269
巖	-11.2691
繕	-11.2691
魯道有蕩齊子	-11.2691
不覺	-11.2691
藐藐	-11.2691
不勝其	-11.2692
脉	-11.2693
譙	-11.2693
念爾祖	-11.2694
勉勉	-11.2696
謁	-11.2697
綺	-11.2697
鍼	-11.2697
桴	-11.2698
飲餞	-11.27
九嬪	-11.2701
按爾雅	-11.2704
獨居	-11.271
革路	-11.2717
竊謂	-11.2718
秦伯	-11.2719
朱子以為	-11.2722
結實	-11.2729
經㫖曰此	-11.2729
傅㑹	-11.273
棄我	-11.2734
𤣥王	-11.2736
魏國	-11.2737
不愧	-11.2743
魯桓公	-11.2751
善射	-11.276
恤我	-11.2763
戎兵	-11.2763
不踰	-11.2765
迎周公	-11.2766
仄	-11.2769
匍匐	-11.2771
枸杞	-11.2772
著明	-11.2773
變文	-11.2773
瘵	-11.2774
洛陽	-11.2774
珈	-11.2774
吪	-11.2777
腥	-11.2778
檻泉	-11.2779
六服	-11.2779
橫	-11.2779
綜	-11.278
犧尊	-11.2784
假寐	-11.2784
言天命	-11.2784
盍	-11.2784
褖衣	-11.2786
歐陽氏修曰	-11.2786
曲禮云	-11.2788
鞹	-11.279
築城	-11.2792
私恩	-11.2794
今河南	-11.2798
受釐	-11.2801
相求	-11.2805
笙詩	-11.2805
卒爵	-11.2806
李巡	-11.2807
亦宜	-11.281
楚詞	-11.2813
大叔于田	-11.2817
興體	-11.2827
采邑	-11.2828
子都	-11.2829
象舞	-11.2829
則無以	-11.283
燕居	-11.2838
。《	-11.2838
傷己	-11.2839
益甚	-11.2839
淮南子云	-11.2842
甫侯	-11.2845
南郊	-11.2847
大徳	-11.2847
頷下	-11.2849
想見	-11.2854
氏掌	-11.2855
徐戎	-11.2859
嗟乎	-11.286
胸	-11.2861
襢	-11.2864
鋤	-11.2864
鴥	-11.2865
穹窒	-11.2865
媯	-11.2865
朅	-11.2865
汾沮洳	-11.2867
翹	-11.2867
麃	-11.2868
倨	-11.2868
爇	-11.2868
幣帛	-11.2869
薨薨	-11.2869
恬	-11.2869
雜記	-11.2869
跨	-11.2871
嫉	-11.2871
摰	-11.2872
䘏	-11.2873
可生食	-11.2873
壘	-11.2874
鮦	-11.2876
夢夢	-11.2876
貽我	-11.2877
䟦	-11.2879
婦寺	-11.2879
菁菁	-11.2879
禦侮	-11.2881
欲令	-11.2885
駿大	-11.2887
丁寧	-11.2891
黄金	-11.2893
百室	-11.2893
郊外	-11.2894
據此則	-11.2896
淵深	-11.2897
强暴	-11.2899
常道	-11.2899
二星	-11.2902
衛宣公	-11.2902
啟明	-11.2907
宗國	-11.2908
成章	-11.2909
五榖	-11.2911
功德	-11.2912
此語	-11.2921
言后妃	-11.2922
尾長	-11.2923
非一日	-11.2926
長尾	-11.2934
降神	-11.2936
哀侯	-11.2939
足以見	-11.2946
陜西	-11.2946
報之以	-11.295
龡	-11.2952
坦	-11.2953
遒	-11.2953
轄	-11.2954
晛	-11.2954
惻	-11.2955
無可奈何	-11.2956
忱	-11.2956
悴	-11.2957
悸	-11.2957
三百五篇	-11.2958
欣欣	-11.2958
斐	-11.296
駓	-11.296
自修	-11.2961
售	-11.2963
顙	-11.2964
二十四	-11.2968
嗟嘆	-11.2969
祝頌	-11.2969
官之長	-11.2969
臯門	-11.2971
先嗇	-11.2972
錯衡	-11.2972
祭祀之禮	-11.2976
迎牲	-11.2976
親近	-11.2977
禍福	-11.2984
見本篇	-11.2985
申毛	-11.299
諸公	-11.2992
如醉	-11.2996
太宗	-11.2997
天下之事	-11.3002
芬香	-11.3004
殄絶	-11.3004
罪人	-11.3005
爾雅所謂	-11.3007
本末	-11.3012
刺宣王也	-11.3014
功烈	-11.3017
盡善	-11.3017
聖王	-11.302
桓桓	-11.3021
二叔	-11.3023
本根	-11.3024
名物疏	-11.3026
滅亡	-11.3032
行事	-11.3032
本俱作	-11.3038
麾	-11.3038
狃	-11.3038
麄	-11.3038
岵	-11.3039
狐狸	-11.304
蠭	-11.304
錞	-11.304
啄	-11.3041
州牧	-11.3041
搜	-11.3041
系	-11.3042
柚	-11.3044
鷙鳥	-11.3044
不妒忌	-11.3044
昵	-11.3046
交交桑扈	-11.3046
紲	-11.3046
蝕	-11.3046
撃	-11.3047
襌	-11.3047
脅驅	-11.3047
巴	-11.3047
荏染	-11.3049
鄒氏泉曰	-11.305
泚	-11.3051
淪胥	-11.3051
庶羞	-11.3052
宁	-11.3054
申培說	-11.3054
矜寡	-11.3055
鮐	-11.3055
蒼天	-11.3057
赤棠	-11.3059
太宰	-11.3061
錢氏	-11.3069
迷亂	-11.3072
右手	-11.3072
土功	-11.3074
勸勉	-11.3077
淮上	-11.3082
遷都	-11.3083
失其常	-11.3085
講武	-11.3093
無逸	-11.3098
爵命	-11.3098
家事	-11.31
誦詩	-11.3103
蔡人	-11.3105
美貌	-11.3109
瑀	-11.3113
直指	-11.3115
疑即	-11.3118
佐食	-11.3118
螢	-11.3118
郭璞曰今	-11.3119
鉏	-11.3125
馵	-11.3126
甘瓠	-11.3126
釋詁	-11.3126
認	-11.3127
肇祀	-11.3128
唐棣之華	-11.3129
瞿	-11.3129
東門之池	-11.3129
蕃衍	-11.313
采地	-11.3131
追琢	-11.3131
菁	-11.3131
掊克	-11.3134
櫛	-11.3134
超	-11.3135
豐草	-11.3136
獫	-11.3137
騋	-11.3137
架	-11.3137
䋲	-11.3138
靈沼	-11.3139
興而比也	-11.314
痒	-11.314
鞶	-11.3142
亡國之	-11.3143
扶蘇	-11.3147
棄爾輔	-11.3147
群臣	-11.3148
思慮	-11.3149
丞	-11.315
困窮	-11.3152
一宿	-11.3152
之妹	-11.3162
災害	-11.3167
難知	-11.3167
和鳴	-11.3177
〇朱氏曰	-11.3177
守成	-11.3179
求神	-11.318
教令	-11.3184
知其必	-11.3184
遭亂	-11.3184
夫婦之道	-11.3185
祭四方	-11.3189
憂勤	-11.319
南海	-11.32
相須	-11.3203
龜山	-11.3204
蜜	-11.3206
福禄來	-11.3212
遣使	-11.3216
鑠	-11.3217
徐鉉	-11.3218
絆	-11.3218
女曰雞鳴	-11.3218
出兵	-11.3221
峙	-11.3225
繼之以	-11.3225
緄	-11.3225
搔	-11.3228
淒淒	-11.3228
欽欽	-11.3228
跲	-11.3229
狂惑	-11.323
恁地	-11.323
殪	-11.323
腹下	-11.323
鞗	-11.3232
憂勞	-11.3232
蔡叔	-11.3233
餴	-11.3234
雉鳴	-11.3234
嘉殽	-11.3235
悔悟	-11.3236
恩意	-11.3246
陳佗	-11.3247
順流	-11.3249
土宇	-11.3255
揚州	-11.3257
而棄之	-11.3258
文王世子	-11.3258
舊章	-11.3262
莊伯	-11.3263
曲盡	-11.3265
史伯	-11.3267
味苦	-11.3269
二者皆	-11.3269
漢書注	-11.327
營營	-11.3273
深入	-11.3276
大姜	-11.3277
飛揚	-11.3281
雅翼云	-11.3289
甚逺	-11.3294
鄭桓公	-11.3296
先儒謂	-11.3296
全體	-11.3298
述職	-11.3299
特舉	-11.33
昌盛	-11.3302
幾何	-11.3302
初年	-11.3302
封禪	-11.3302
淫奔者	-11.3303
平林	-11.3307
羊牛	-11.3307
四牡騤騤	-11.3313
紒	-11.3316
詈	-11.3316
榛楛	-11.3316
四牡騑騑	-11.3317
嬖妾	-11.3317
炊	-11.3317
女子有行	-11.3317
正義曰作	-11.3317
賓之初筵	-11.3319
綂	-11.332
㦧	-11.3321
無所歸咎	-11.3323
呂氏祖謙曰	-11.3325
泰誓	-11.3325
吕祖謙	-11.3326
羑里	-11.3326
我心憂傷	-11.3329
堯典	-11.333
國之君	-11.3332
麻麥	-11.3336
旨酒	-11.3338
厥徳	-11.334
歸唁	-11.3344
陽韻	-11.3345
士昏禮	-11.3345
四嶽	-11.3352
遺我	-11.3353
沮水	-11.3357
毛意	-11.3358
視彼	-11.3362
懿徳	-11.3365
君臣相	-11.3369
非真	-11.3381
衣冠	-11.3388
昭侯	-11.3395
惡惡	-11.3395
深淺	-11.3397
舛	-11.34
剖	-11.34
均平	-11.3401
歗	-11.3404
毳冕	-11.3406
我覯之子	-11.3408
寰宇記	-11.3409
當通作	-11.341
驔	-11.341
菁莪	-11.341
而歌之	-11.3411
形勢	-11.3412
殉	-11.3412
灑	-11.3412
督	-11.3412
戴勝	-11.3412
塡	-11.3413
易林	-11.3413
粢盛	-11.3413
外事	-11.3413
疲	-11.3414
暨	-11.3414
不可廢	-11.3415
故作是詩	-11.3418
僾	-11.3418
然後可	-11.3418
慤	-11.3419
月食	-11.3422
樊光	-11.3423
翟羽	-11.3429
大帶	-11.343
明哲	-11.3431
草木疏	-11.3434
叶訖	-11.3438
正朔	-11.3439
夣	-11.344
鄭司農云	-11.3451
失位	-11.3454
顯明	-11.3454
推原	-11.3457
意味	-11.3458
天之命	-11.3466
某氏	-11.3468
通志	-11.347
荆蠻	-11.3478
續序	-11.3484
息亮	-11.3488
文勢	-11.3489
伯勞	-11.3491
萹	-11.3493
美武公	-11.3494
胡能有定	-11.3496
芽	-11.3498
𤨏	-11.3498
液	-11.3499
燧	-11.3499
皤	-11.35
象服	-11.3501
六家詩名物疏卷	-11.3501
繾綣	-11.3501
訣	-11.3502
悠悠我思	-11.3502
顯相	-11.3504
無縱詭隨以謹	-11.3505
軰	-11.3505
線	-11.3506
武丁孫子	-11.3506
繅	-11.3507
囯	-11.3508
此所以為	-11.351
解頥	-11.351
玊	-11.3512
不違	-11.3513
白雜毛	-11.3513
象骨	-11.3514
漕邑	-11.3515
字亦作	-11.3518
▁鄭云	-11.3522
鄭說	-11.3523
情意	-11.3524
新昬	-11.3524
篇内	-11.3529
休休	-11.353
鄘風	-11.3534
凡祭祀	-11.3536
工夫	-11.3537
再三	-11.3541
顧命	-11.3541
武王崩	-11.3547
不敢必	-11.3552
顧念	-11.3554
感發	-11.3556
等篇	-11.3557
黄流	-11.3557
何疑	-11.3562
分陜	-11.3564
牖下	-11.3567
故城在	-11.358
飛鳴	-11.3581
第四章	-11.3584
紛紛	-11.3592
僴	-11.3592
鸞聲	-11.3592
拜稽首	-11.3593
冐	-11.3593
刺襄公	-11.3594
壑	-11.3594
哿	-11.3595
菘	-11.3597
區區	-11.3597
痗	-11.3597
農夫之慶	-11.3598
諶	-11.3598
杵	-11.3598
淒	-11.3599
寛大	-11.3599
稜	-11.36
衽	-11.3602
槁	-11.3603
罰爵	-11.3604
芃	-11.3604
鸞刀	-11.3607
牧馬	-11.3607
繚	-11.3608
予美	-11.3609
孟冬	-11.3611
輔佐	-11.3611
衛宏	-11.3611
鳥隼	-11.3611
召伯所	-11.3612
周衰	-11.3613
舒遲	-11.3614
子路	-11.3619
敔	-11.3621
綱領	-11.3621
韓國	-11.3622
兩髦	-11.3622
蝤蠐	-11.3625
魯語	-11.3625
可想	-11.3627
徒御	-11.3627
宣王命	-11.3628
奉祭祀	-11.3628
小鳥	-11.3631
牲體	-11.3633
牲用	-11.3634
一家之	-11.3638
久役	-11.3647
鐘磬	-11.3648
祈榖	-11.3649
不倦	-11.3651
國勢	-11.3652
凡此皆	-11.3653
長幼	-11.3653
叶紙韻	-11.3657
喪服	-11.366
旻	-11.3661
交㑹	-11.3666
鐘鼔	-11.3669
楮	-11.367
駕車	-11.3672
夏屋	-11.3674
連屬	-11.3675
亦不必	-11.3683
七月流火	-11.3685
兢兢	-11.3687
者則以	-11.3688
恂	-11.3688
憾	-11.3688
場圃	-11.3689
需	-11.3689
㓕	-11.369
鹵	-11.369
捍	-11.3691
農桑	-11.3691
素韠	-11.3691
鳴蜩	-11.3691
赫然	-11.3692
諾	-11.3692
頤	-11.3693
首飾	-11.3693
孔頴逹	-11.3694
按史記	-11.3694
沃若	-11.3695
近小人	-11.3695
有捄	-11.3696
釋器云	-11.3698
第三	-11.3699
夷矛	-11.3704
臘	-11.3704
徙都	-11.3705
黒黍	-11.371
侵伐	-11.3712
敦弓	-11.3714
歌此詩	-11.3722
徐氏	-11.3725
君子小人	-11.3725
薄姑	-11.3731
其大者	-11.3735
江東呼為	-11.3736
孺子	-11.3737
鄭司農	-11.3742
野處	-11.3742
不能自已	-11.3745
篇次	-11.3749
叶支韻	-11.3754
簡書	-11.3758
白雲	-11.3759
春分	-11.3763
讀書	-11.3777
衡笄	-11.3778
丈夫	-11.3781
萬億及秭	-11.3783
祓除	-11.3784
滔	-11.3785
緼	-11.3786
貿	-11.3787
陳啟源曰	-11.3788
濛	-11.3788
職方氏	-11.379
縛	-11.3791
發乎情	-11.3791
瘨	-11.3793
爻	-11.3793
鷄鳴	-11.3795
寂	-11.3797
倣此	-11.3799
愉	-11.3799
忮害	-11.3799
祉福	-11.38
保身	-11.3801
升堂	-11.3802
侵陵	-11.3804
斥王	-11.3804
毛色	-11.381
楚語	-11.3813
鄭衞	-11.3814
萬壽	-11.3814
辭意	-11.3815
感格	-11.3819
不淑	-11.3828
叶鐵	-11.3832
于嗟	-11.3833
號呼	-11.3833
太白	-11.3838
好仇	-11.3838
災異	-11.3847
鄉樂	-11.3853
顯顯	-11.3856
猨	-11.3856
周禮司	-11.3868
殷殷	-11.3869
而後可以	-11.3872
棧	-11.3875
白楊	-11.3875
尊敬	-11.3876
樛	-11.3877
漘	-11.3878
采桑	-11.3878
偹	-11.388
蜘蛛	-11.388
董仲舒	-11.3881
淇澳	-11.3881
諦	-11.3882
農官	-11.3882
棟	-11.3883
肴	-11.3884
旭	-11.3884
稀	-11.3885
侯氏	-11.3885
合為一	-11.3886
鍛	-11.3886
愴	-11.3886
映	-11.3887
楷	-11.3888
慾	-11.3888
驪姬	-11.3889
穂	-11.389
熹	-11.389
滂	-11.389
嫁於諸侯	-11.3891
雖不同	-11.3895
輅	-11.3895
叶虚	-11.3896
聚斂	-11.3898
炤	-11.3899
斧斨	-11.3901
魚梁	-11.3901
魚鼈	-11.3903
終朝采	-11.3903
秉心	-11.3903
周公東征	-11.3904
不啻	-11.3904
彼都人士	-11.3907
山谷	-11.3909
上下之情	-11.3913
白石	-11.3919
淮南子曰	-11.392
考室	-11.392
▁孔云	-11.3921
送尸	-11.3923
次章言	-11.3926
滎陽	-11.393
未嫁	-11.3932
監視	-11.3933
敬慎	-11.3949
入覲	-11.3955
韓城	-11.3957
旣醉	-11.3965
木槿	-11.3967
求友	-11.397
封建	-11.397
母弟	-11.3971
囂	-11.3971
陔	-11.3972
皂	-11.3974
藤	-11.3974
朽	-11.3974
霧	-11.3975
三十六	-11.3976
椐	-11.3976
雰	-11.3977
祋	-11.3977
東門之楊	-11.3979
餓	-11.3979
諺	-11.398
媛	-11.398
怳	-11.3981
矇	-11.3982
栢	-11.3982
鞭	-11.3983
喓喓	-11.3983
桋	-11.3984
圎	-11.3984
夙興夜寐	-11.3985
耿	-11.3985
譎	-11.3986
毚	-11.3986
斾斾	-11.3986
玉瓚	-11.3987
悍	-11.3988
蔽膝	-11.3988
覬	-11.3988
宦	-11.3989
邸	-11.3991
荼毒	-11.3992
靑	-11.3992
莫敢不	-11.3992
内治	-11.3996
晉獻公	-11.4
西面	-11.4001
騂剛	-11.4002
捕魚	-11.4004
禾黍	-11.4004
戍申	-11.4006
封域	-11.4009
郊天	-11.401
仁心	-11.401
四方之國	-11.4012
坊記	-11.4018
林木	-11.4018
改嵗	-11.4021
相救	-11.4023
撥亂	-11.4024
四驪	-11.4025
憂患	-11.4025
以為飾	-11.4027
盡心	-11.4031
毛詩序	-11.4033
歎息	-11.4033
即上章	-11.4046
賔射	-11.4048
騂牡	-11.4053
互文	-11.4056
齊魯韓	-11.4056
經界	-11.4064
果臝	-11.407
噉	-11.4076
鬈	-11.4077
盼	-11.4077
齊民要術	-11.4078
觽	-11.4078
器物	-11.408
和柔	-11.408
黷	-11.408
漾	-11.4082
憲憲	-11.4082
疷	-11.4083
以洽百禮	-11.4083
誚	-11.4084
譁	-11.4085
穧	-11.4085
梯	-11.4086
餱	-11.4087
千五百	-11.4087
鑑	-11.4087
濮氏曰	-11.4089
小心翼翼	-11.4091
袵	-11.4091
𤣥端	-11.4094
昕	-11.4095
不可忘	-11.4105
説詩者	-11.4107
叔虞	-11.411
錦衣	-11.411
相䑕	-11.411
宵行	-11.4111
楊氏	-11.4118
告祭	-11.4121
司服	-11.4128
叶筆	-11.4128
逸豫	-11.4133
用騂	-11.4152
古之君子	-11.4154
致亂	-11.4156
調和	-11.4159
乾餱	-11.4161
詩詁	-11.4169
賔主	-11.4172
䑓	-11.4172
酋矛	-11.4173
肌	-11.4175
陶隱居	-11.4175
螢火	-11.4175
黔	-11.4176
紆	-11.4178
雛	-11.4179
人所作	-11.418
秦漢	-11.418
憔悴	-11.418
應劭	-11.4181
倘	-11.4182
惓惓	-11.4182
陛	-11.4182
醒	-11.4182
在河北	-11.4183
菅茅	-11.4184
蹟	-11.4184
筐筥	-11.4186
三年之喪	-11.4186
台背	-11.4187
我有嘉賔	-11.4187
紐	-11.4187
究究	-11.4188
閽	-11.4188
幝	-11.4191
膽	-11.4196
陸氏云	-11.4197
緑色	-11.4199
鍾鼓	-11.4204
荆揚	-11.4205
白桐	-11.4206
舟人	-11.4208
思周道	-11.4211
以供祭祀	-11.4217
華谷	-11.4218
武帝	-11.4219
小兒	-11.4221
潰潰	-11.4221
之通稱	-11.4222
職事	-11.4234
青黒	-11.4238
郭璞云今	-11.4241
聘問	-11.4243
二后	-11.4245
禮運	-11.4246
貪殘	-11.4246
盈滿	-11.4249
鼓舞	-11.4251
農功	-11.4252
蘇轍	-11.4252
三代之	-11.4254
笙入	-11.4257
夏后	-11.4258
疾病	-11.4266
相鼠	-11.4271
文王在上	-11.4272
念母	-11.4272
殻	-11.4273
立廟	-11.4274
盆	-11.4276
彈	-11.4278
江漢之滸	-11.4278
丙穴	-11.4279
憶	-11.4279
沈湎	-11.428
勸戒	-11.4281
罦	-11.4281
蹌	-11.4283
圭瓉	-11.4284
天子燕諸侯	-11.4284
窈	-11.4285
趯趯	-11.4285
二子乘舟	-11.4285
制禮作樂	-11.4285
煽	-11.4285
歷	-11.4285
邦家之基	-11.4286
瘏	-11.4286
稙	-11.4286
南陔白華華黍	-11.4286
昆蟲	-11.4287
鳸	-11.4287
振羽	-11.4287
牽合	-11.4288
燬	-11.4288
楘	-11.4288
岨	-11.4291
淫女	-11.4292
媵妾	-11.4293
益母	-11.4296
致太平	-11.4296
郇伯	-11.4298
五豝	-11.4299
潘父	-11.4302
漢世	-11.4302
大燭	-11.4308
誠敬	-11.431
嘉樂	-11.432
以此知	-11.4327
長丈	-11.4331
:	-11.4341
大姬	-11.4343
朱𫝊	-11.4344
墨子	-11.4345
青蒿	-11.4348
取譬	-11.4353
謬矣	-11.4353
啓明	-11.4357
爵位	-11.4358
田器	-11.4371
槐	-11.4377
伴奐	-11.4377
小人在位	-11.4378
心星	-11.4379
朴	-11.4382
膍	-11.4382
囬	-11.4383
澄	-11.4384
佃	-11.4384
楛	-11.4385
郊廟	-11.4385
純亦不已	-11.4385
冡宰	-11.4386
戶	-11.4387
受爵	-11.4388
膋	-11.4388
枋	-11.4389
赳赳	-11.4389
飢渴	-11.4389
涌	-11.4389
洛誥	-11.4391
翽翽	-11.4394
綏安也	-11.4398
畔援	-11.4399
邠州	-11.4401
鳯皇	-11.4405
十章	-11.4407
天之所以	-11.4407
私情	-11.4408
親迎之禮	-11.441
稷契	-11.4413
歸咎	-11.4415
百蠻	-11.4419
玉磬	-11.442
伯夷	-11.442
周之所以	-11.4421
思語辭	-11.4421
二十五年	-11.443
敦厚	-11.4431
伐密	-11.4439
勇力	-11.4442
夫婦相	-11.4443
郊禘	-11.4448
光顯	-11.4448
分為二	-11.4449
漢地理志	-11.4452
不聰	-11.4459
耉	-11.4479
抒	-11.448
嚴坦叔	-11.4483
匪解	-11.4484
瀼	-11.4484
餌	-11.4485
菊	-11.4485
雅翼	-11.4485
髻	-11.4486
兊	-11.4488
田畯至喜	-11.4488
帷	-11.4488
以自警	-11.4489
六轡在手	-11.4489
烖	-11.449
騎	-11.449
鬬	-11.449
蕨薇	-11.4491
杕	-11.4491
顚倒	-11.4492
霆	-11.4493
鏃	-11.4493
塒	-11.4494
穰穰	-11.4495
菫	-11.4497
遣使臣	-11.45
世婦	-11.4501
臆説	-11.4502
扶持	-11.4511
政敎	-11.4512
烏頭	-11.4515
露積	-11.4518
北斗	-11.4521
請期	-11.4523
思慕	-11.4525
虐政	-11.4525
豐氏	-11.4528
孔碩	-11.453
伐宻	-11.4532
歌鹿鳴	-11.4534
王迹	-11.4537
后妃之德	-11.4549
忠告	-11.4559
女史	-11.4571
各異	-11.4575
蠧	-11.458
容儀	-11.4582
憩	-11.4586
羣神	-11.4588
彼君子兮	-11.4589
蠜	-11.4589
瞭	-11.4589
電	-11.459
細腰	-11.459
瘼	-11.4592
曲折	-11.4592
采卷耳	-11.4593
茁	-11.4593
丱	-11.4595
靳	-11.4596
對越	-11.4596
贖	-11.4596
擁	-11.4597
能官人	-11.4597
住	-11.4597
傭	-11.4597
盎	-11.4597
其車三千	-11.4598
芋	-11.4598
故其詩	-11.4598
瑲	-11.4599
采采芣苢	-11.46
字或作	-11.4601
髙飛	-11.4601
襭	-11.4601
營宫室	-11.4601
梁輈	-11.4601
藜	-11.4602
放逐	-11.461
考工記云	-11.4611
不知其何	-11.4611
廣狹	-11.4612
自恣	-11.4615
引韓	-11.4618
末二句	-11.4623
衮衣	-11.4625
和羮	-11.4628
奈	-11.4632
仲冬	-11.464
喜怒	-11.4642
仲春之月	-11.4643
渡水	-11.4646
配君子	-11.4648
水旁	-11.4652
象形	-11.4661
刺其君	-11.4667
荒淫	-11.4668
朔日	-11.4669
利害	-11.4675
瞽矇	-11.4678
義未詳	-11.4682
大槩	-11.4685
安舒	-11.4687
芥	-11.4688
叶先韻	-11.469
以文王為	-11.4691
竅	-11.4692
凄凄	-11.4693
頥	-11.4693
拚	-11.4694
於昭于天	-11.4695
由儀	-11.4697
曵	-11.4697
閼	-11.4698
豈不懷歸	-11.4698
鬩	-11.4699
樽	-11.4701
何以知	-11.4701
松蘿	-11.4701
兔爰	-11.4702
瘥	-11.4702
教國子	-11.4702
東門之池可以漚	-11.4702
窘	-11.4702
臄	-11.4703
輾	-11.4703
窈窕淑女	-11.4704
葱珩	-11.4704
行下孟反	-11.4705
無將大車	-11.4706
踐履	-11.4709
舉趾	-11.471
麞	-11.4712
傳寫	-11.4714
鄂侯	-11.4715
肅敬	-11.4721
憂恤	-11.4722
典刑	-11.4722
鄭武公	-11.4723
君臣上下	-11.4725
泉源	-11.4726
皮弁服	-11.4741
土鼓	-11.4743
無所考	-11.4745
肖	-11.4747
宣王之時	-11.4752
寡君	-11.4755
祼將	-11.4756
爵禄	-11.4759
㽔	-11.4759
二十九	-11.4759
說者以	-11.478
〇孔氏曰	-11.4787
隂陽和	-11.4787
遥反	-11.4789
近郊	-11.4789
趙氏	-11.4792
簀	-11.4792
麐	-11.4794
謂他人父	-11.4796
慿	-11.4801
萬夀無疆	-11.4802
齊子歸止其從	-11.4803
啼	-11.4804
騵	-11.4804
性情之正	-11.4804
浦	-11.4805
愒	-11.4805
荍	-11.4806
京兆府	-11.4806
逄	-11.4806
甓	-11.4807
豋	-11.4807
廱	-11.4808
謚	-11.4808
讀詩質疑卷	-11.4809
胡庭芳曰	-11.4809
芭	-11.481
不替	-11.4811
胥相也	-11.4811
呶	-11.4813
縳	-11.4814
禚	-11.4814
舊説以為	-11.4814
束帛	-11.4817
說者謂	-11.4817
光華	-11.4818
嚴敬	-11.4819
虎賁	-11.4819
鸒斯	-11.4821
四十里	-11.4823
荆棘	-11.4825
潰亂	-11.4839
陳蔡	-11.4845
二詩皆	-11.4851
夕陽	-11.4853
干城	-11.487
遷徙	-11.4882
景福	-11.4893
嶧	-11.4898
幟	-11.4906
昔我往矣	-11.4907
駾	-11.4907
鸋鴂	-11.4907
點	-11.4907
柟	-11.4909
閏	-11.4909
粉米	-11.491
巖巖	-11.491
蹌蹌	-11.4911
霄	-11.4912
雚	-11.4912
陳少南	-11.4913
沂	-11.4913
鬒	-11.4913
文王曰咨咨女殷商	-11.4913
貯	-11.4913
所謂伊人	-11.4914
楨	-11.4914
加之以	-11.4914
疵	-11.4914
騢	-11.4914
輓	-11.4914
俔	-11.4915
叅	-11.4916
泥泥	-11.4917
毛詩注疏卷	-11.4918
媒妁	-11.4918
龎	-11.492
稻粱	-11.4921
衞宏	-11.4923
兎罝	-11.4924
城楚丘	-11.4926
周本紀	-11.4935
陳祥道云	-11.4937
廟門	-11.4941
涇渭	-11.4944
太姜	-11.4945
陰雨	-11.4945
孝侯	-11.4946
亦可見矣	-11.4952
泉流	-11.4954
進御	-11.4955
指王也	-11.4962
千畝	-11.4967
守宫	-11.4969
讒佞	-11.4971
悲傷	-11.4971
祖妣	-11.4983
不能救	-11.499
徹法	-11.499
急疾	-11.4992
目前	-11.4996
商丘	-11.4996
愈深	-11.4998
荏菽	-11.5005
椹	-11.5009
蜼	-11.501
狐白	-11.5012
司常	-11.5013
執政	-11.5014
螗	-11.5016
常棣之華	-11.5016
我有嘉賓	-11.5016
俚	-11.5017
揣	-11.5018
聖徳	-11.5018
鵝	-11.5019
平王之孫	-11.5019
纊	-11.502
獮	-11.5021
沓沓	-11.5021
愔	-11.5021
隰有萇楚	-11.5021
賞罰	-11.5021
忡忡	-11.5022
稂莠	-11.5022
棃	-11.5023
僮僮	-11.5023
愷	-11.5023
刑罰	-11.5025
騑	-11.5026
掖	-11.5026
嬛	-11.5027
瞻仰	-11.5027
赬	-11.5027
諄諄	-11.5027
吕氏祖謙曰	-11.5028
寗	-11.5028
佶	-11.5032
内小臣	-11.5035
褊急	-11.5036
金舄	-11.5038
魴魚	-11.5039
祀成湯	-11.5043
延蔓	-11.5044
習射	-11.5049
血氣	-11.5049
東郡	-11.5054
不悟	-11.5055
述其事	-11.506
人亦有言	-11.5062
追稱	-11.5064
祭之日	-11.5064
貞信	-11.5067
雎	-11.5073
朝廟	-11.5077
三倍	-11.5082
水厓	-11.5084
太學	-11.5087
朱註賦也	-11.5101
未幾	-11.5102
象路	-11.5103
水泉	-11.5115
芩	-11.5121
猜	-11.5122
皇大也	-11.5123
闥	-11.5124
嶺	-11.5124
豔妻	-11.5125
南面	-11.5127
賈公彦	-11.5129
四方之綱	-11.5129
戰戰兢兢	-11.513
頍	-11.513
偉	-11.513
自求多福	-11.513
冲	-11.5131
碑	-11.5132
喘息	-11.5132
噎	-11.5133
憂心孔疚	-11.5133
踽踽	-11.5134
震驚	-11.5135
辭氣	-11.5136
正考甫	-11.5136
綌	-11.5136
有功於	-11.5136
姚氏舜牧曰	-11.5136
鼔鐘	-11.5136
冊	-11.5137
楅衡	-11.5137
浩	-11.5137
紏	-11.5138
一箇	-11.5138
壙	-11.514
桑蟲	-11.5147
司馬遷	-11.5149
鄗	-11.515
郭注云	-11.515
禘祫	-11.5151
剛柔	-11.5152
如飴	-11.5153
終南山	-11.5154
二十九年	-11.516
布榖	-11.5161
所從來	-11.5169
宋襄公	-11.5171
薛君	-11.5171
爰於也	-11.5174
熾盛	-11.5191
致敬	-11.5207
定星	-11.5208
楰	-11.5223
瓣	-11.5225
詩人美之	-11.5227
戩	-11.5228
配上帝	-11.5232
營丘	-11.5232
狐貍	-11.5234
于太廟	-11.5236
劉瑾	-11.5236
枤杜	-11.5237
邦家之光	-11.5237
玼	-11.5238
銷	-11.5239
郁李	-11.5239
𫉬	-11.524
嘲	-11.524
罿	-11.524
瘳	-11.524
奰	-11.5241
駽	-11.5241
王于興師	-11.5241
踖踖	-11.5241
篆	-11.5241
褘衣	-11.5243
昄	-11.5243
猪	-11.5243
鰷	-11.5243
人而無儀	-11.5244
臨衝	-11.5245
騅	-11.5246
凛	-11.5246
姪	-11.5247
豆籩	-11.5248
蔞蒿	-11.5248
奄有四方	-11.5249
反徐又	-11.525
糾糾	-11.525
賦也朱註	-11.5252
凡百君子	-11.5253
阿衡	-11.5256
賤妾	-11.5256
游龍	-11.5267
沮漆	-11.527
方十里	-11.5271
先王之澤	-11.5272
十三國	-11.5274
兖	-11.5275
施施	-11.5285
北郊	-11.5287
月光	-11.5287
厭翟	-11.5292
蘇轍云	-11.5293
䘮亂	-11.5308
武王之功	-11.5316
間歌	-11.5319
紀綱	-11.5328
祝願	-11.533
荼苦菜	-11.5339
鵩	-11.5343
支韻	-11.5344
秭	-11.5346
笛	-11.5347
旆	-11.5349
裝	-11.535
踧踧	-11.535
橡	-11.535
鸒	-11.5351
耔	-11.5354
帝堯	-11.5354
蹐	-11.5354
稟	-11.5354
祲	-11.5354
拮据	-11.5355
栖	-11.5355
針	-11.5356
黍稷稻粱	-11.5356
飶	-11.5356
鸝	-11.5357
軛	-11.5358
潝潝	-11.5359
狠	-11.5359
濈	-11.536
復扶又反	-11.536
鮑	-11.5361
訪問	-11.5362
康誥	-11.5364
峯	-11.5365
十五里	-11.537
收斂	-11.5371
蠻夷	-11.5373
與之燕	-11.5386
食肉	-11.5391
有常度	-11.5391
所自作	-11.5395
李迂仲	-11.5404
者異矣	-11.5406
紂都	-11.541
本艸	-11.5421
今陜西	-11.5422
莘國	-11.5432
勸農	-11.5433
俗語	-11.5438
羅願	-11.5439
殷紂	-11.544
各不同	-11.544
感傷	-11.544
世家云	-11.5442
學記	-11.5448
錐	-11.5457
祭之明日	-11.5461
佌佌	-11.5461
萬壽無疆	-11.5464
桑間	-11.5466
閔周也	-11.5467
筭	-11.5467
燠	-11.5467
綴旒	-11.5467
玦	-11.5467
地理志云	-11.5467
藹	-11.5467
蠃	-11.5468
霍叔	-11.5469
筦	-11.5469
悠悠蒼天此何人哉	-11.5469
子孫保之	-11.5469
冷	-11.5469
郡國志	-11.5469
觚	-11.547
現	-11.5471
以享以祀	-11.5472
瞻彼洛矣維水泱泱	-11.5473
維予與女	-11.5476
圭璋	-11.5476
繩證	-11.5476
軧	-11.5478
創業	-11.5479
百歩	-11.548
冠弁	-11.5481
舒徐	-11.5482
歐陽修	-11.5485
疾驅	-11.5491
威虐	-11.5492
造舟	-11.5499
朝聘	-11.55
書大傳	-11.5502
七寸	-11.5502
檀車	-11.5508
鞠衣	-11.5526
毛氏曰興也	-11.5536
周徧	-11.5556
發夕	-11.556
穜	-11.5563
不可犯	-11.5576
啟行	-11.5576
翩翩者鵻	-11.5577
觜	-11.5578
芮良夫	-11.5578
澀	-11.5578
載馳載驅	-11.5579
惡聲之鳥	-11.558
縠	-11.5581
剡	-11.5581
以禮自防	-11.5582
芒芒	-11.5582
赭	-11.5583
燔炙	-11.5584
秃	-11.5585
誰適與謀	-11.5586
紳	-11.5587
饉	-11.5588
範	-11.5588
苽	-11.559
劉歆	-11.5591
惇	-11.5591
羜	-11.5593
朋友相	-11.5596
韓嬰	-11.5597
先妣	-11.56
凶荒	-11.56
哀傷	-11.5603
韓氏	-11.5607
刺亂也	-11.5612
紫色	-11.5614
北堂	-11.5617
檜君	-11.5618
釐侯	-11.5624
歡樂	-11.5629
鋪陳	-11.5637
親睦	-11.5644
飲酒之禮	-11.5645
譏刺	-11.5647
𤣥孫	-11.566
千嵗	-11.5664
皇華	-11.5667
多寡	-11.5669
箸	-11.5684
如菼	-11.5689
陳藏器	-11.5692
襮	-11.5692
㕓	-11.5693
一代之	-11.5694
軟	-11.5694
攀	-11.5694
濃	-11.5696
薁李	-11.5697
祺	-11.5698
匈奴	-11.5698
漠	-11.5699
媟	-11.5699
觴	-11.5702
寒氣	-11.5702
仆	-11.5703
印	-11.5704
鞏固	-11.5704
􁈍	-11.5705
徵舒	-11.5706
篡	-11.5706
崒	-11.5707
淫佚	-11.5709
成王業	-11.5709
昭昭	-11.5709
按説文	-11.571
牝牡	-11.5714
韵	-11.5716
流泉	-11.5717
川澤	-11.5718
緩急	-11.5724
侯維也	-11.5726
衮冕	-11.573
佐助	-11.573
思古人	-11.5733
岡陵	-11.5739
夷厲	-11.574
張衡	-11.5748
庫門	-11.5751
改元	-11.5751
李廵	-11.5758
孔䟽	-11.5761
六鄉	-11.5784
百一十	-11.5792
保守	-11.58
促織	-11.5804
車下李	-11.5806
枝條	-11.5807
瘦	-11.5809
瞻彼淇奥	-11.581
州府	-11.5814
邀	-11.5815
塲	-11.5815
秘	-11.5815
瀌瀌	-11.5816
燼	-11.5817
斜	-11.5817
騋牝三千	-11.5817
觱沸	-11.5818
季氏本曰	-11.5818
岷	-11.5819
痡	-11.5819
鉶羮	-11.582
閔其君子	-11.5821
王應麟	-11.5822
謝疊山曰	-11.5823
悁	-11.5823
鷺羽	-11.5824
𡵨	-11.5824
恚	-11.5824
郭璞注	-11.5824
甘心	-11.5826
睍睆	-11.5827
擊鼔	-11.5833
委積	-11.5835
貧賤	-11.5835
彼何人斯	-11.5839
開花	-11.5839
濮陽	-11.5841
盧令	-11.5843
金罍	-11.5844
早夜	-11.5847
轡首	-11.5849
棠棣	-11.5851
葭蘆	-11.5853
條枚	-11.5857
濟隂	-11.5858
宗祀	-11.5862
頌禱之辭	-11.5862
節度	-11.5862
形體	-11.5865
長轂	-11.5873
雜色	-11.5892
徐鍇	-11.5899
華蟲	-11.5906
冬官	-11.5912
君臣之義	-11.5917
蒲北	-11.5919
為大武之	-11.5923
搢	-11.5924
擯	-11.5928
鷕	-11.5928
摯而有别	-11.5928
添	-11.593
程伯休父	-11.593
于嗟乎騶虞	-11.593
纒綿	-11.5932
嗚	-11.5932
憬	-11.5934
郊祀天地	-11.5935
睿	-11.5935
杙	-11.5935
甡	-11.5936
狩獵	-11.5936
豈不懐歸	-11.5937
監謗	-11.5937
黜陟	-11.5937
灾	-11.5937
拇	-11.5938
振振君子歸哉歸哉	-11.5938
聦	-11.5938
絞	-11.5938
嫉妬	-11.5938
蓬蒿	-11.5938
帳	-11.5939
知我者謂我心憂不知我者謂我何求	-11.5939
嗸	-11.594
武人東征	-11.594
劒	-11.5941
賙	-11.5941
鍜	-11.5942
變風始作	-11.5942
蒲盧	-11.5942
穀梁傳	-11.5942
郝敬云	-11.5943
拳拳	-11.5945
禘嚳	-11.5946
歆羡	-11.5949
祀髙宗	-11.5949
蜡祭	-11.5953
寡妻	-11.5955
曲阜	-11.5956
敢問	-11.5956
王雎	-11.596
良朋	-11.596
門之外	-11.5962
秦穆公	-11.5964
采葑	-11.5966
后妃之化	-11.5968
附著	-11.597
安成劉	-11.5975
大夫以上	-11.6001
尊嚴	-11.6017
休父	-11.6021
醜惡	-11.6024
田畝	-11.6027
不可曉	-11.6028
鼖	-11.6037
犢	-11.6044
輢	-11.6045
齡	-11.6046
顒	-11.6046
賈逵	-11.6048
廟門外	-11.6048
两	-11.605
耇	-11.6053
隷	-11.6053
不瑕有害	-11.6054
悞	-11.6054
商之孫子	-11.6054
膾	-11.6054
組綬	-11.6055
衢	-11.6055
陸德明	-11.6055
蚩蚩	-11.6057
悠逺	-11.6057
黜申后	-11.6057
今夕何夕	-11.6057
癙	-11.6058
駟鐵	-11.6058
欠	-11.6058
儺	-11.6058
虗	-11.6059
逈	-11.6059
魁	-11.606
儕	-11.6062
士與女	-11.6062
提提	-11.6062
淺毛	-11.6063
諷詠	-11.6063
綯	-11.6063
鴉	-11.6063
文茵	-11.6065
暘	-11.6065
管蔡流言	-11.6066
終之以	-11.6068
噳	-11.6069
襋	-11.6069
魚麗于罶	-11.607
游環	-11.607
育材	-11.6071
鬱金	-11.6071
成王康王	-11.6072
勉強	-11.6073
鮀	-11.6074
咨嗟	-11.6075
空谷	-11.608
吉禘	-11.6088
頃公	-11.609
箋正義曰箋以	-11.6092
豐氏本作	-11.6101
重斂	-11.6105
慰勞	-11.6105
碩女	-11.6107
路史	-11.6118
燕寢	-11.6124
天禄	-11.6128
族類	-11.614
舞大武	-11.6146
瞍	-11.6147
下皆同	-11.6158
棣棣	-11.6162
秔	-11.617
鼫	-11.6171
蘝	-11.6171
効	-11.6176
埆	-11.6177
逾	-11.6178
蹇	-11.6179
𥙷	-11.6179
陸氏佃曰	-11.618
旟旐	-11.618
魴鱮	-11.6181
整飭	-11.6182
醓醢	-11.6183
惴惴	-11.6184
薛君章句	-11.6185
蝮	-11.6187
紃	-11.6187
東萊呂氏曰	-11.6188
楊園	-11.6189
肻	-11.6191
息浪	-11.6191
昆弟	-11.6192
布帛	-11.6192
鼓鍾	-11.6192
富辰	-11.6195
頌禱之詞	-11.6202
示我以	-11.6205
禹之功	-11.6207
度量	-11.6209
受其福	-11.6215
禍患	-11.6216
賜姓	-11.6217
議論	-11.6218
雍容	-11.6219
甘草	-11.6226
大夫行役	-11.6231
相表裏	-11.6249
肥泉	-11.6254
十畆	-11.6269
繁霜	-11.6284
焫	-11.6288
負蠜	-11.6288
好攻戰	-11.6292
咺	-11.6293
廵狩	-11.6293
倣	-11.6294
我生之初	-11.6294
柎	-11.6296
淢	-11.6299
退食自公	-11.63
爕	-11.63
諼草	-11.63
殁	-11.6301
鼙	-11.6301
晦翁	-11.6301
螓	-11.6302
汗	-11.6302
𤓰瓞	-11.6303
新畬	-11.6303
蒯	-11.6303
老成人	-11.6303
皥	-11.6304
嫄	-11.6304
靦	-11.6304
裯	-11.6306
漢之廣矣不可泳思江之永矣不可方思	-11.6306
汔	-11.6307
朝直遥反	-11.6308
江沱	-11.6309
貟	-11.631
闗闗	-11.631
辟雝	-11.6311
棧車	-11.6311
八蜡	-11.6318
周之盛時	-11.6319
送迎	-11.6324
疾痛	-11.633
緝緝	-11.6331
四章五章	-11.6331
祝鳩	-11.6331
偃師	-11.6333
威靈	-11.6336
式用也	-11.6337
面目	-11.6344
不可測	-11.6347
貞潔	-11.6347
周公居東	-11.6371
白粱	-11.6388
雲雨	-11.6397
崧	-11.6403
哀痛	-11.6404
郯	-11.6417
粼	-11.6418
鹹	-11.642
袢	-11.642
入此室處	-11.6421
璲	-11.6422
零露	-11.6422
昨	-11.6423
蟋蟀在堂	-11.6423
逋	-11.6423
層	-11.6424
大典缺卷	-11.6424
勞心忉忉	-11.6424
岐豐之地	-11.6425
茶	-11.6425
兢兢業業	-11.6425
綠竹	-11.6426
太子宜臼	-11.6426
敬慎威儀	-11.6426
佻	-11.6426
曺	-11.6427
婉孌	-11.6427
咢	-11.6427
籩豆有踐	-11.6428
適異國	-11.6429
唇	-11.643
斤斤	-11.6431
偲	-11.6432
薪蒸	-11.6432
毛如字鄭	-11.6434
漸漬	-11.6435
奔奔	-11.6437
雝雝喈喈	-11.6439
弈	-11.644
陵遲	-11.6441
侵侮	-11.6443
嗣續	-11.6447
栗栗	-11.6448
鄒忠𦙍云	-11.6452
𤣥冕	-11.6457
受命作周	-11.6458
免禍	-11.6465
滌濯	-11.6496
江東呼	-11.6497
前驅	-11.6504
回邪	-11.6505
避狄	-11.6505
敏疾	-11.6508
極至也	-11.6509
可憐	-11.6522
酸棗	-11.654
蓆	-11.6541
凄	-11.6545
糯	-11.6546
令聞不已	-11.6546
掤	-11.6547
鵂鶹	-11.6547
悶	-11.6549
終逺兄弟	-11.6549
罛	-11.6549
臨淄	-11.655
告利成	-11.6551
闐闐	-11.6551
中心是悼	-11.6552
穰	-11.6553
畟畟	-11.6553
鹿鳴四牡皇皇者華	-11.6554
播厥百榖	-11.6554
驩	-11.6554
帷裳	-11.6555
二丈	-11.6555
咽咽	-11.6556
宼虐	-11.6556
崖	-11.6558
羣公先正	-11.6558
幕	-11.6558
輔廣云	-11.6559
朱子不詳其世	-11.656
疊山謝氏曰	-11.6562
棘急也	-11.6564
切總聞曰	-11.6568
晚寒	-11.6571
背叛	-11.6573
髙峻	-11.6577
陟角	-11.6578
王命召伯	-11.6581
韻未詳	-11.6581
薦熟	-11.6587
〇蘇氏曰	-11.6593
四簋	-11.6594
嘉穀	-11.6595
嘉榖	-11.6599
無以異	-11.6611
雲氣	-11.6612
戎路	-11.6612
不可掩	-11.663
滎	-11.663
以别之	-11.6648
逸逸	-11.6655
蝘蜓	-11.666
王命召虎	-11.6664
纛	-11.6669
啜	-11.6672
䔩	-11.6674
秉心塞淵	-11.6675
六尺六寸	-11.6675
漼	-11.6676
祕	-11.6677
菡萏	-11.6677
鵓鳩	-11.6677
執轡如組	-11.6677
隔句韻	-11.668
蕘	-11.6681
灼灼	-11.6681
重穋	-11.6682
主臣謹奉教	-11.6682
錦衣狐裘	-11.6682
四牡孔阜	-11.6685
儐	-11.6685
蒨	-11.6685
迪	-11.6686
魃	-11.6686
㢘	-11.6689
公子頑	-11.6689
當此之時	-11.669
里巷	-11.6691
麋鹿	-11.6692
下章放此	-11.6693
日有食之	-11.671
疆界	-11.6719
醉飽	-11.6727
嗣位	-11.6731
我徂東山慆慆不歸我來自東零雨其濛	-11.6736
冀州	-11.6737
温恭	-11.6777
濟盈	-11.678
釋言云	-11.6788
天子之卿	-11.6792
逍遙	-11.6799
溷	-11.6801
巘	-11.6803
彚	-11.6805
齧	-11.6805
㐮	-11.6805
銶	-11.6806
鴥彼飛隼	-11.6807
盩	-11.6807
圜丘	-11.6807
霤	-11.6808
兾	-11.6808
酆	-11.6808
驄	-11.6809
鄢	-11.681
聯	-11.681
釃酒	-11.6811
穋	-11.6811
開封府	-11.6812
蛟	-11.6813
穫稻	-11.6813
輟	-11.6814
鏘	-11.6814
奨	-11.6815
不一而足	-11.6816
徴舒	-11.6818
呌	-11.6819
三百六十	-11.6819
勩	-11.6819
怲	-11.6821
幭	-11.6822
不顯其光	-11.6822
巧婦	-11.6826
圻父	-11.6826
流涕	-11.6828
萬福	-11.6839
蟲蟲	-11.6851
尋常	-11.686
雍雍	-11.6883
我心之憂	-11.6884
驅禽	-11.6889
紙韻	-11.6892
辯說此	-11.6902
椇	-11.6932
蠨蛸	-11.6933
樕	-11.6934
茺蔚	-11.6935
筩	-11.6935
癉	-11.6939
絮	-11.6939
晴	-11.694
衝牙	-11.6941
能循法度	-11.6942
王志長曰	-11.6942
緵	-11.6943
已焉哉天實為之謂之何哉	-11.6943
鳯翔府	-11.6943
乃如之人	-11.6944
陀	-11.6944
范逸齋	-11.6944
扤	-11.6944
黍苖	-11.6945
閫	-11.6945
渠渠	-11.6946
淄	-11.6946
鹿鳴之什	-11.6947
永言配命	-11.6947
方伯連帥	-11.6947
嘅	-11.6948
泭	-11.6948
臥	-11.6948
湜湜	-11.6948
諗	-11.6949
靈囿	-11.695
蹢	-11.695
与	-11.695
考證	-11.6951
􁈹	-11.6952
譴怒	-11.6952
椎	-11.6955
澤蘭	-11.6956
峱	-11.6959
邁行也	-11.6961
驕驕	-11.6964
屢舞	-11.6968
増釋	-11.6975
靡靡	-11.698
葉圓	-11.6983
未有室家	-11.6985
交際	-11.6998
内轡	-11.7001
卑賤	-11.7012
猿	-11.7044
狂狡	-11.7051
薸	-11.7062
櫻	-11.7067
茫	-11.7068
駘	-11.7068
按原本	-11.7071
褕翟	-11.7071
鬚	-11.7073
遮	-11.7073
胃	-11.7073
縈	-11.7074
伎	-11.7075
泱泱	-11.7076
王事多難	-11.7076
瞻卬昊天	-11.7077
薈	-11.7077
浸潤	-11.7077
龐	-11.7077
今我不樂	-11.7078
劍	-11.7079
冠緌	-11.7079
斟	-11.7079
賡	-11.708
毛萇	-11.708
晁	-11.708
矢如破	-11.708
妒	-11.708
臾	-11.7081
砠	-11.7081
螗蜩	-11.7081
顓頊	-11.7081
矛㦸	-11.7081
啇	-11.7082
今江東呼	-11.7082
藹藹	-11.7085
金厄	-11.7086
㡳	-11.7086
放恣	-11.7086
誅管蔡	-11.7087
徂往也	-11.7087
二十五里	-11.7087
杞棘	-11.7088
闍	-11.7089
魴鱧	-11.7091
􁂋	-11.7092
永嘆	-11.7097
樂與賢	-11.7107
省耕	-11.7108
䇿命	-11.7109
辟君也	-11.7113
習習	-11.7118
沃沃	-11.7156
不失其馳	-11.7162
禦寒	-11.7172
鼒	-11.72
穄	-11.72
戁	-11.7202
注旄	-11.7203
奬	-11.7204
栽	-11.7205
茸	-11.7208
筏	-11.7208
祀事孔明	-11.7208
稠	-11.7209
差池	-11.7209
糝	-11.7209
訌	-11.7209
楨榦	-11.7209
豈曰無衣	-11.7209
蒻	-11.7209
按此篇永樂	-11.7209
逝將去女適彼樂	-11.7209
居岐之陽	-11.721
采緑	-11.721
吕覽	-11.721
長數寸	-11.7211
祓	-11.7211
二子乗舟	-11.7211
譲	-11.7212
髦俊	-11.7212
第十	-11.7213
熯	-11.7213
讁	-11.7213
咽	-11.7214
崇侯虎	-11.7214
彼君子女	-11.7214
敦琢	-11.7214
瀰	-11.7214
厹	-11.7214
大邦有子	-11.7215
愿	-11.7215
絢	-11.7215
執訊獲醜	-11.7216
于嗟麟兮	-11.7216
捐	-11.7218
蠡	-11.7218
聲之和	-11.722
邪幅	-11.722
瑣瑣	-11.722
貧富	-11.7221
簟茀	-11.7221
鼛鼓	-11.7222
送舅	-11.7222
煙	-11.7222
墍	-11.7223
鯿	-11.7224
景亳	-11.7224
菽麥	-11.7226
玩味	-11.7226
祀中宗	-11.7228
貝錦	-11.7229
檜曹	-11.723
亶父	-11.723
西雝	-11.7237
紫赤	-11.7243
二十四年	-11.7245
鄒氏	-11.7293
后稷配天	-11.7322
百五十	-11.7334
地里志	-11.7337
斝	-11.7337
詎	-11.7338
藾蕭	-11.7339
斚	-11.734
嶞	-11.7341
闞	-11.7342
先祖是皇	-11.7344
糗	-11.7345
紊	-11.7345
繻	-11.7345
犴	-11.7345
紘	-11.7346
炳	-11.7346
襜	-11.7346
郁	-11.7346
彪	-11.7346
霾	-11.7346
芙蕖	-11.7347
涓	-11.7347
窟	-11.7347
奏象舞	-11.7348
彼美淑姬可與晤	-11.7348
腊	-11.7348
憂心悄悄	-11.7348
各奏爾能	-11.7348
㫄	-11.7349
襟	-11.7349
胾	-11.7349
倩	-11.735
夸毗	-11.7351
龠	-11.7351
喩	-11.7352
髙辛氏	-11.7352
糠	-11.7352
懦	-11.7352
愍	-11.7353
輯録通釋曰	-11.7353
渰	-11.7353
貼	-11.7354
茜	-11.7354
隳	-11.7355
右扶風	-11.7355
與天合	-11.7355
言觀其旂	-11.7355
將安將樂	-11.7355
増釋許氏曰	-11.7356
荐	-11.7356
歸功於	-11.7356
自北而南	-11.7358
泣血	-11.7359
肆筵	-11.7359
情性之正	-11.7359
遵循	-11.736
茅秀	-11.7361
板板	-11.7361
清静	-11.7367
天子六軍	-11.7369
修泮宫	-11.7369
屈原	-11.7371
𤣥冠	-11.7373
淮北	-11.7373
車馬之盛	-11.738
箕斗	-11.7384
愆過	-11.7422
媒氏	-11.743
高岡	-11.7441
鶻鳩	-11.7451
飴	-11.7453
與之俱	-11.7462
悠悠蒼天	-11.7478
籬	-11.7478
紑	-11.7479
蚩尤	-11.748
蓛	-11.748
紺	-11.748
歐氏	-11.7481
斑鳩	-11.7483
鷩	-11.7483
題肩	-11.7483
季札觀樂	-11.7484
騧	-11.7484
換	-11.7485
牂牂	-11.7485
沖沖	-11.7486
氐羌	-11.7486
鏡	-11.7487
莝	-11.7488
伴	-11.7488
天文志	-11.749
黄氏櫄曰	-11.749
念彼共人	-11.7491
皃	-11.7491
戒農官	-11.7491
芬芳	-11.7492
之子于征	-11.7492
懆	-11.7492
卞	-11.7492
兌	-11.7492
睹	-11.7493
嫡妾	-11.7494
豐本俱作	-11.7496
鰋鯉	-11.7497
媿	-11.7499
飮	-11.75
豕韋	-11.7501
休戚	-11.7503
四章章八句	-11.7505
縞衣	-11.7506
死麕	-11.7508
誰敢	-11.7511
韋昭注	-11.7515
榖善也	-11.7533
稑	-11.7608
申培	-11.7608
虺蜴	-11.7612
栭	-11.7613
髳	-11.762
訧	-11.7621
郃陽	-11.7622
魗	-11.7623
㪚	-11.7623
縐絺	-11.7624
氿泉	-11.7625
正考父	-11.7625
窠	-11.7625
璋瓚	-11.7625
莧	-11.7626
不敢以告人	-11.7627
辦	-11.7627
沫	-11.7629
自土沮漆	-11.763
抜	-11.763
白茅包	-11.763
季本云	-11.7632
山隂陸氏曰	-11.7632
禎祥	-11.7632
晰	-11.7632
騤騤	-11.7633
旻天疾威	-11.7633
黍稷方華	-11.7633
狂童之狂	-11.7633
無一毫	-11.7633
見賢遍反	-11.7634
朱氏道行曰	-11.7635
数	-11.7635
授几	-11.7635
踊躍	-11.7637
負荷	-11.7637
檠	-11.7637
為于偽反	-11.7639
不得終養	-11.764
怠慢	-11.7642
薕	-11.7642
追貊	-11.7643
裒聚	-11.7644
鄉黨	-11.7648
蘓氏	-11.7676
愛惜	-11.7677
為異餘同	-11.772
櫬	-11.775
鞙鞙	-11.776
韎韋	-11.776
閻	-11.7761
鷩冕	-11.7763
粘	-11.7763
團	-11.7764
柲	-11.7764
薈蔚	-11.7764
十畝之間	-11.7765
慆慆	-11.7765
沮洳	-11.7765
蕮	-11.7766
􁉁	-11.7766
虆	-11.7767
兑	-11.7768
謐	-11.7768
孝孫有慶	-11.7768
腯	-11.7768
趍	-11.7768
公尸來燕	-11.7768
南有樛木	-11.7768
衣錦褧衣	-11.7768
肥羜	-11.7769
雷霆	-11.777
攬	-11.7772
郢	-11.7772
脈	-11.7772
毀	-11.7773
櫄	-11.7774
黽	-11.7774
倖	-11.7774
参	-11.7776
擔	-11.7777
服之無斁	-11.7778
臨其穴惴惴其慄彼蒼者天	-11.7778
嘌	-11.7779
幦	-11.7779
尹吉	-11.778
玈	-11.778
鼔瑟	-11.778
薄伐玁狁	-11.7781
遣戍	-11.7782
粟米	-11.7782
遟	-11.7783
螽斯羽	-11.7783
男女以正	-11.7784
嚻	-11.7787
詒遺	-11.7789
繹繹	-11.779
畝丘	-11.7793
叶職韻	-11.7795
稽首	-11.7803
媚愛	-11.7811
文中子	-11.7873
鵞	-11.7897
李時珍	-11.79
萼	-11.7905
蜎蜎	-11.7907
簿	-11.7907
艶	-11.7909
菟絲	-11.7909
顧炎武	-11.7909
燕燕于飛	-11.791
滮	-11.791
小宗伯	-11.791
孥	-11.7911
詵詵	-11.7911
衛女思歸	-11.7912
羸	-11.7913
梟鴟	-11.7913
蒲栁	-11.7914
無縱詭隨	-11.7914
個	-11.7914
䳺	-11.7915
覇	-11.7915
少皥	-11.7916
東坡	-11.7917
揮	-11.7918
歉	-11.7918
黄佐云	-11.7918
綏我思成	-11.7918
好呼報反	-11.7919
觿	-11.7919
咥	-11.7919
蓬蓬	-11.7921
時物之變	-11.7921
以意逆志	-11.7921
蘄	-11.7922
習習谷風	-11.7922
有虞氏	-11.7923
悔仕	-11.7923
闉	-11.7926
鱨鯊	-11.7926
俟俟	-11.7926
有娀氏	-11.7926
庻幾	-11.7927
啄粟	-11.7928
駑馬	-11.7929
淺陋	-11.793
乖戾	-11.793
媚于天子	-11.7931
鷹揚	-11.7931
眷顧	-11.7932
几几	-11.7932
藏冰	-11.7935
牆屋	-11.7936
蒼蠅之聲	-11.7936
文武之業	-11.7937
柰何	-11.7967
蠐螬	-11.7983
考成也	-11.7983
形狀	-11.804
蝘	-11.8044
羲	-11.805
肜	-11.8052
鼐	-11.8053
衣繡裳	-11.8054
洌	-11.8054
懆懆	-11.8057
櫂	-11.8057
狹而長	-11.8058
醬	-11.8059
燐	-11.8059
虢石父	-11.806
苻	-11.8061
薅	-11.8061
芣	-11.8062
尹吉甫美宣王也	-11.8062
籠	-11.8062
酳	-11.8063
苣	-11.8063
每懐靡及	-11.8063
閟宮	-11.8063
有司徹	-11.8064
子仲之子	-11.8064
嘵嘵	-11.8064
民之攸塈	-11.8065
捷捷	-11.8065
浼	-11.8065
師尚父	-11.8065
洋	-11.8065
妯	-11.8065
悛	-11.8065
㑹齊侯于	-11.8066
顒顒	-11.8066
妘	-11.8067
醇	-11.8067
瘡	-11.8067
璂	-11.8067
燋	-11.8067
騋牝	-11.8068
勻	-11.8068
敢不拜	-11.8068
攪	-11.8068
􁀆	-11.8068
展誠也	-11.8069
鑿鑿	-11.8069
月令孟春	-11.8069
絛	-11.807
積柴	-11.807
謝氏枋得曰	-11.8072
桑扈竊脂	-11.8073
維予小子	-11.8073
路寝	-11.8073
輊	-11.8074
翯	-11.8075
惠順也	-11.8078
周之王業	-11.808
臆說	-11.808
以其婦子	-11.8083
趙岐	-11.8085
筓	-11.8094
莪蒿	-11.8096
餘同傳正義曰	-11.8127
自此以下	-11.815
3	-11.8159
蓐	-11.8196
仞	-11.8198
吁嗟	-11.8199
以雅以南	-11.8203
翠	-11.8203
荓蜂	-11.8204
彧彧	-11.8207
驁	-11.8207
岐山之陽	-11.8208
式序在位	-11.8209
迥	-11.8209
蕑	-11.8209
古公亶父	-11.8209
兕觥其觩	-11.8209
織組	-11.821
鏄	-11.821
拓	-11.821
驅逆之車	-11.8211
湄	-11.8211
桃之夭夭	-11.8211
萬福攸同	-11.8211
無算爵	-11.8212
州吁弑	-11.8212
弨	-11.8212
有赤白	-11.8212
無可疑者	-11.8213
不自我先不自我後	-11.8213
菀栁	-11.8214
逝我梁	-11.8214
新安胡氏曰	-11.8215
報以介福萬壽無疆	-11.8215
光輝	-11.8215
楅	-11.8215
伉	-11.8216
赤舄几几	-11.8217
勸以義	-11.8217
袺	-11.8218
屢盟	-11.8219
堤	-11.822
嶓	-11.8221
服飾之盛	-11.8221
東方朔	-11.8222
好逑	-11.8226
西南隅	-11.8227
鱒魴	-11.8227
之歡心	-11.8229
餱糧	-11.8251
不見荅	-11.826
温温	-11.8294
蛇蛇	-11.8306
詩卷第	-11.8306
􁀙	-11.8331
仲氏任	-11.8351
蜤	-11.8353
鞞琫	-11.8354
飧	-11.8356
適子之館兮還予授子之粲兮	-11.8356
貸	-11.8356
杯	-11.8357
為狄所滅	-11.8357
詘	-11.8358
歇	-11.8358
俞	-11.8358
壓	-11.8359
饁彼南畝	-11.836
斵	-11.836
切磋琢磨	-11.836
委蛇委蛇	-11.8361
憒	-11.8361
以作六師	-11.8361
鐏	-11.8362
曀曀	-11.8362
頖	-11.8362
幠	-11.8363
畦	-11.8363
刑于寡妻	-11.8363
糜	-11.8363
斫	-11.8363
阮徂共	-11.8364
孟津	-11.8364
佩觿	-11.8364
緇布	-11.8365
仳	-11.8365
毛詩集解卷	-11.8365
澶	-11.8365
价	-11.8366
交龍為旂	-11.8366
孳	-11.8367
椽	-11.8367
教民稼穡	-11.8367
挈壺氏	-11.8368
夾漈	-11.8368
封於邰	-11.8368
惠此中國	-11.8368
樂而不淫	-11.8368
網罟	-11.8369
懸瑱	-11.8369
耿耿	-11.8369
想像	-11.8369
鶩	-11.837
滎澤	-11.837
投壺	-11.837
雱	-11.837
冦虐	-11.8371
犂	-11.8372
柔嘉維則	-11.8373
張揖	-11.8374
邶鄘衞	-11.8375
雞棲	-11.8378
迫逐	-11.8379
貞靜	-11.838
荼蓼	-11.8381
八簋	-11.8386
蒼蠅	-11.8412
郭璞註	-11.8498
蜋蜩	-11.8499
肈	-11.8505
抱朴子	-11.8505
恢	-11.8506
少牢饋食	-11.8507
栝樓	-11.8508
俶載南畝	-11.851
濟濟蹌蹌	-11.8512
秸	-11.8513
梂	-11.8513
匪報也永以為好也	-11.8514
斷章取義	-11.8514
翛	-11.8514
猥	-11.8515
亞祼	-11.8516
喚	-11.8516
蓁蓁	-11.8516
自古有年	-11.8516
暢轂	-11.8517
饇	-11.8517
鷗	-11.8517
彼姝者子	-11.8517
企	-11.8517
洵信也	-11.8517
用之鄉人	-11.8517
婦人謂嫁曰歸	-11.8518
召康公戒成王	-11.8518
欒	-11.852
受禄于天	-11.852
差忒	-11.8521
民亦勞止汔	-11.8521
干祿	-11.8522
生不如死	-11.8523
嘏主人	-11.8524
穠	-11.8524
王事靡盬憂我父母	-11.8526
瓝	-11.8527
閎夭	-11.8527
鰋鮎	-11.8528
枹	-11.8529
惨	-11.8529
流彘	-11.853
鎧	-11.853
司嗇	-11.8531
悠久	-11.854
居東二年	-11.8608
驅馳	-11.8616
彼澤之陂有蒲	-11.8617
揖讓	-11.8631
鶪	-11.865
鴂	-11.8655
碧	-11.8659
恰	-11.8666
瀾	-11.8667
澤及四海	-11.8667
慍	-11.8667
壠	-11.8668
實函斯活	-11.8668
彌爾性	-11.8668
芙蓉	-11.8668
㳫	-11.8668
鑊	-11.8668
集于苞栩	-11.8669
倌	-11.8669
遞	-11.867
每懷靡及	-11.8671
小球大球	-11.8672
爪牙	-11.8672
遨遊	-11.8672
飛戾天	-11.8672
隤	-11.8672
侐	-11.8673
每有良朋	-11.8673
尰	-11.8673
和樂且湛	-11.8673
滮池	-11.8673
屎	-11.8674
隕墜	-11.8674
皇王烝哉	-11.8674
濰	-11.8674
熒	-11.8674
宛其死矣	-11.8674
煢	-11.8675
何𤣥子曰	-11.8675
時周之命	-11.8676
旒縿	-11.8676
甿	-11.8676
不遑啓處	-11.8677
沖	-11.8678
兒齒	-11.8678
擲	-11.8678
平上通韻	-11.8678
威儀反反	-11.8679
吟咏	-11.868
歡欣	-11.868
逷	-11.868
讙譁	-11.868
竽	-11.868
豈伊異人	-11.8681
涂	-11.8681
鞅掌	-11.8681
簪	-11.8682
無非無儀	-11.8682
扱	-11.8683
武王烝哉	-11.8683
漢武帝	-11.8685
不自為政	-11.8685
選擇	-11.8685
泥塗	-11.8691
王之爪牙	-11.8695
吹沙	-11.8695
奏大武	-11.8703
叶真韻	-11.8753
;	-11.8774
濟渡	-11.8804
鰱	-11.8813
蔕	-11.8823
掊	-11.8824
唪唪	-11.8825
何彼襛矣	-11.8825
王后烝哉	-11.8826
浥	-11.8827
峨	-11.8828
森	-11.8828
仔	-11.8829
槲	-11.8829
嗿	-11.883
寁	-11.8831
烘	-11.8831
湝湝	-11.8832
虺虺	-11.8832
鯋	-11.8832
下上其音	-11.8833
平去通韻	-11.8834
宜民宜人	-11.8834
我聞有命	-11.8835
猗儺	-11.8835
訝	-11.8835
級	-11.8835
饔餼	-11.8835
唈	-11.8835
艽野	-11.8836
貛	-11.8836
三分天下有其二	-11.8836
吕氏家塾讀詩記卷第	-11.8836
絰	-11.8836
蹻	-11.8836
𤾉	-11.8837
敬爾威儀	-11.8837
趙盾	-11.8837
臠	-11.8838
芴	-11.8838
男女失時	-11.8838
烟	-11.8839
瀰瀰	-11.8839
饛	-11.8839
杲	-11.884
倅	-11.884
令儀令色	-11.8841
甘如薺	-11.8841
南方之原	-11.8843
菶菶萋萋	-11.8843
杜子春	-11.8844
熲	-11.8844
棲棲	-11.8846
犧牲	-11.8847
滌滌	-11.8903
4	-11.8936
楡	-11.8947
頏	-11.8974
蜚	-11.8978
勗	-11.8984
蛣	-11.8985
如蜩如螗	-11.8985
藕	-11.8986
絅	-11.8986
鵜鶘	-11.8987
蘡薁	-11.8987
贏	-11.8988
四尺四寸	-11.8988
未堪家多難	-11.8989
罪人斯得	-11.899
如釵股	-11.899
礱	-11.8991
淚	-11.8991
我心寫兮	-11.8991
洸洸	-11.8991
竹書紀年	-11.8991
肆于時夏	-11.8992
東西南北	-11.8992
欒欒	-11.8992
采蘩祁祁	-11.8992
㤙	-11.8992
兵革不息	-11.8993
驒	-11.8993
枸檵	-11.8993
緊	-11.8994
如臨深淵	-11.8994
月令仲夏	-11.8994
杝	-11.8994
琛	-11.8994
春日遲遲	-11.8995
匝	-11.8996
虫	-11.8996
崔靈恩集注	-11.8996
恌	-11.8996
谿	-11.8996
儉不中禮	-11.8996
牣	-11.8997
幻	-11.8997
詩經世本古義卷	-11.8998
敞	-11.8998
縞衣綦巾	-11.8998
倉廩	-11.8999
州人謂之	-11.8999
吿	-11.8999
槮	-11.8999
畇畇	-11.8999
甯	-11.9
愷悌	-11.9
鸎	-11.9
邅	-11.9
狥	-11.9001
訕	-11.9003
煒	-11.9003
變風變雅	-11.9003
漙	-11.9003
疧	-11.9003
熄	-11.9004
蟲飛薨薨	-11.9005
蹶蹶	-11.9005
無思不服	-11.9005
大武之樂	-11.9006
琅	-11.9006
十有一	-11.9044
后稷肇祀	-11.9044
降下也	-11.9051
緝續	-11.9056
文武成康之	-11.9059
鹿鳴之三	-11.907
5	-11.9101
鵃	-11.9139
援神契	-11.9143
蠙	-11.9144
㦲	-11.9146
螟螣	-11.9147
斲	-11.9148
鑄	-11.9148
甗	-11.9149
樂只君子遐不	-11.9149
垝	-11.915
怖	-11.915
百世不遷	-11.915
樂得淑女	-11.9151
濟濟辟王	-11.9151
虓	-11.9151
洵美且	-11.9151
躡	-11.9151
蕚	-11.9151
隄	-11.9153
韐	-11.9153
薊	-11.9153
桑中要我乎上宫送我乎淇之上矣	-11.9154
運斗樞	-11.9154
羗	-11.9154
値	-11.9154
駿厖	-11.9155
朄	-11.9156
既醉既飽	-11.9156
何斯違斯	-11.9157
煁	-11.9157
幡	-11.9157
是用大諫	-11.9157
呦呦	-11.9157
繡黼	-11.9157
上去通韻	-11.9157
維彼碩人實勞我心	-11.9158
䲭	-11.9158
䪐	-11.9158
蠐	-11.9158
不績其麻	-11.9159
懮	-11.9159
荒蕪	-11.9159
軝	-11.916
麴	-11.916
夙早也	-11.916
㴱	-11.9161
槄	-11.9161
驈	-11.9162
栝	-11.9162
婆	-11.9162
糟	-11.9162
楀	-11.9162
隻	-11.9162
緇衣羔裘	-11.9163
雷電	-11.9163
還定安集	-11.9163
伏羲	-11.9163
雉鳴求其牡	-11.9164
呈	-11.9164
皦	-11.9164
誡	-11.9164
壽考不忘	-11.9165
娠	-11.9165
膂	-11.9165
葅醢	-11.9165
東莱	-11.9166
逝往也	-11.9166
先薦寢廟	-11.9166
百爾君子	-11.9167
栢舟	-11.9167
隩	-11.9167
吟詠	-11.9167
踟蹰	-11.9168
侵阮	-11.9169
褓	-11.9171
具俱也	-11.9172
二王後	-11.9175
漢書地理志	-11.9175
萋斐	-11.9177
鉏里	-11.9182
7	-11.9264
8	-11.927
9	-11.927
6	-11.9273
戸郎	-11.9288
蕙	-11.9303
洿	-11.9308
恐未然	-11.9314
畽	-11.9315
為龍為光	-11.9316
葭菼	-11.9317
蓏	-11.9317
衍義云	-11.9317
率由舊章	-11.9317
佩璲	-11.9317
祝祭于祊	-11.9318
蘈	-11.9318
鞠訩	-11.9318
床	-11.9319
鼓瑟鼓琴	-11.932
慱慱	-11.932
劇	-11.932
闡	-11.9321
褰	-11.9321
中原有菽	-11.9322
不食生物	-11.9322
克昌厥後	-11.9322
逓	-11.9322
軀	-11.9323
鄫	-11.9323
恠	-11.9324
崔靈恩	-11.9324
冥冥	-11.9324
肇禋	-11.9324
齍	-11.9324
幩	-11.9324
郝敬曰	-11.9325
欽定四庫全書經部三	-11.9325
鵯	-11.9325
誕降嘉種	-11.9325
子惠思我	-11.9325
藇	-11.9325
有頍者弁	-11.9325
王姬之車	-11.9325
弗躬弗親	-11.9325
旄牛尾	-11.9326
大風有隧	-11.9326
吼	-11.9326
八鸞鏘鏘	-11.9326
毓	-11.9326
曜	-11.9326
鬲	-11.9327
禓	-11.9327
泊	-11.9327
不敢怠遑	-11.9327
欽定四庫全書毛詩集解卷	-11.9328
芘芣	-11.9328
遐逺也	-11.9328
十五國風	-11.9328
羅泌	-11.9328
毁廟之主	-11.9328
謳	-11.9329
大名府	-11.9329
烜	-11.9329
像	-11.9329
淑姬	-11.933
雨雪霏霏	-11.933
蘆菔	-11.933
睘睘	-11.933
躍躍	-11.933
子太叔	-11.9331
不崇朝	-11.9331
弼鄘	-11.9332
已焉哉	-11.9332
鉅	-11.9332
忖度	-11.9332
亦集爰止	-11.9332
羅網	-11.9332
毅總	-11.9333
噲	-11.9333
顓	-11.9334
傲慢	-11.9335
月令季冬	-11.9335
婣	-11.9336
其義一也	-11.9352
河南府	-11.9462
呱	-11.9474
震電	-11.9483
無冬無夏	-11.9484
梴	-11.9484
絹	-11.9487
䰞	-11.9488
遨	-11.9489
上帝甚蹈	-11.9489
儔	-11.949
虞芮質成	-11.949
鯶	-11.9492
型	-11.9493
慇慇	-11.9493
皎皎白駒	-11.9493
辛卯	-11.9493
懠	-11.9493
驛驛	-11.9494
將翺將翔	-11.9494
薖	-11.9494
以其祖配	-11.9494
耿介	-11.9494
驛	-11.9494
仡仡	-11.9495
樔	-11.9495
透	-11.9495
杞桋	-11.9495
灃	-11.9495
翟茀	-11.9496
漳	-11.9496
郝仲輿	-11.9496
成王之孚	-11.9496
酬酢	-11.9497
職思其居	-11.9497
聳	-11.9498
惻怛	-11.9499
神降之福	-11.95
漑	-11.95
江湖	-11.95
嶭	-11.95
憖	-11.95
難乃旦反	-11.9501
㚄	-11.9501
受福無疆	-11.9503
將恐將懼	-11.9503
徒御不驚	-11.9504
橛	-11.9505
鞃	-11.9506
椘	-11.9506
紫赤色	-11.9507
捫	-11.9509
車一乗	-11.9538
以騶虞為	-11.9593
椿	-11.9643
夫子刪	-11.9649
有匪君子	-11.9653
渙渙	-11.9656
揆之以日	-11.9656
閩	-11.9657
鷃	-11.9657
嫩	-11.9658
泣涕	-11.9658
帖	-11.9659
朂	-11.9659
濬哲	-11.9659
揷	-11.9659
温柔敦厚	-11.9661
講武類禡	-11.9662
倭遲	-11.9662
俾也可忘	-11.9662
奄有下國	-11.9663
淠	-11.9663
禆	-11.9663
餳	-11.9664
矣期我乎	-11.9664
腔	-11.9664
挫	-11.9664
名山大川	-11.9665
雋	-11.9666
侣	-11.9666
匹夫匹婦	-11.9666
奐	-11.9666
宋桓夫人	-11.9666
文王陟降在帝左右	-11.9666
㭬	-11.9667
詩補傳卷	-11.9667
黼黻	-11.9667
爰居爰處	-11.9667
苟亦無然	-11.9667
刺晉昭公也	-11.9668
武宿夜	-11.9668
洒掃	-11.9668
服其命服	-11.9668
射夫既同	-11.9669
歧	-11.9669
褻	-11.9669
陳啓源曰	-11.9669
有一毫	-11.967
琢磨	-11.967
蓱	-11.967
駉駉	-11.967
中心貺之	-11.967
麒麟	-11.967
召誥	-11.967
狐白裘	-11.967
桑黮	-11.967
似續妣祖	-11.967
髲	-11.9671
􁈞	-11.9671
阼	-11.9671
翶翔	-11.9672
浩浩	-11.9672
朱綅	-11.9674
報賽	-11.9675
喉舌	-11.9675
輯録解頥曰	-11.9676
費誓	-11.9676
勿替	-11.9676
乾坤	-11.968
鸞鑣	-11.9758
蠑螈	-11.9811
烽	-11.9828
何福不除	-11.9828
澆	-11.9831
燔柴	-11.9832
腦	-11.9832
毛詩稽古編卷	-11.9834
州吁之暴	-11.9834
播厥百穀	-11.9834
厭厭夜飲	-11.9834
自西徂東	-11.9834
今我來思	-11.9836
寃	-11.9836
濟濟多士	-11.9836
喉	-11.9838
烝畀祖妣	-11.9838
維子之故	-11.9838
禕	-11.9838
罩罩	-11.9839
鍚	-11.9839
鑣鑣	-11.9839
介爾景福	-11.9839
蟄蟄	-11.9839
有女如玉	-11.984
其帶伊絲	-11.984
禹貢冀州	-11.984
紲袢	-11.9841
涵泳	-11.9841
遡洄	-11.9842
嗟乎不承權輿	-11.9842
依其在京	-11.9842
日月告凶	-11.9842
茷茷	-11.9842
嶇	-11.9842
狁	-11.9843
胡逝我梁	-11.9843
月恭校上總纂	-11.9843
役使不均	-11.9843
羔羊之皮	-11.9843
终	-11.9844
闈	-11.9844
昀	-11.9844
盪	-11.9844
戡	-11.9844
呻吟	-11.9844
正大夫離居	-11.9844
高辛氏	-11.9845
課	-11.9845
畞	-11.9845
瑲瑲	-11.9845
我疆我理	-11.9845
毛傳興也朱註同	-11.9845
夙夜匪解	-11.9846
斧斤	-11.9846
子有衣裳	-11.9847
䔰	-11.9847
㪺	-11.9847
大庖不盈	-11.9847
郊祀后稷以配天	-11.9848
慅	-11.9848
定本集注	-11.9848
怨而不怒	-11.985
潞	-11.985
祀文王於明堂	-11.985
徼	-11.985
痻	-11.9851
眩	-11.9851
狭	-11.9852
選鋒	-11.9854
蔀	-11.9855
故連言之	-11.986
宗尊也	-11.9862
戾至也	-11.9875
兗州	-11.9896
女子有行逺父母兄弟	-11.9924
蜩螗	-11.9937
比而興也	-11.9939
駜	-11.9953
0	-11.9971
陳祥道	-11.9984
㮚	-12.0004
蚓	-12.0005
淇園之竹	-12.0005
弢	-12.0006
瘣	-12.0011
胖	-12.0011
輾轉反側	-12.0012
不醉無歸	-12.0012
丸丸	-12.0013
縝	-12.0014
薫	-12.0014
公曰左之	-12.0015
教成之祭	-12.0015
鴒	-12.0016
酌之用匏	-12.0017
司馬相如	-12.0017
杼柚	-12.0018
嫉妒	-12.0018
曰歸曰歸	-12.0018
韎韐有奭	-12.0019
工祝致告	-12.0019
妍	-12.0019
靡室靡家	-12.0019
稹	-12.002
闔	-12.002
鎭	-12.002
歇驕	-12.002
薿	-12.002
亘	-12.0021
罬	-12.0021
涕泣	-12.0022
允王保之	-12.0022
寇虐	-12.0022
糦	-12.0023
臺笠緇撮	-12.0023
鸞聲噦噦	-12.0024
庶無罪悔	-12.0024
耋	-12.0024
洳	-12.0025
晦菴	-12.0025
文侯之命	-12.0025
諄	-12.0025
薄言采芑	-12.0026
帝王世紀	-12.0027
酬幣	-12.0027
駕彼四牡	-12.0027
縂	-12.0027
笰	-12.0027
獺	-12.0028
匪降自天	-12.0028
徤	-12.0028
訾	-12.0029
蔣	-12.003
虺蛇	-12.003
克勝也	-12.0031
釋天云	-12.0049
矇瞍	-12.0069
苾芬	-12.0113
莫肯夙夜	-12.0159
蜺	-12.0181
鷽	-12.0182
國無政	-12.0184
鱅	-12.0184
荁	-12.0187
髙丈餘	-12.019
姥	-12.0192
檾	-12.0192
璫	-12.0192
虢鄶	-12.0192
如琢如磨	-12.0193
理或然也	-12.0194
模	-12.0195
粻	-12.0195
威儀技藝	-12.0195
俅俅	-12.0195
醓	-12.0196
炰烋	-12.0196
未知孰是	-12.0197
揵	-12.0197
不長夏以革	-12.0197
溱與洧	-12.0198
湛湛露斯	-12.0198
梀	-12.0199
造舟為梁	-12.0199
爓	-12.0199
慙	-12.02
蹤	-12.02
明馮復京撰	-12.02
罽	-12.02
衘	-12.02
燕朋友故舊	-12.02
在河之洲	-12.0201
鴽	-12.0201
餤	-12.0201
郕	-12.0201
求賢審官	-12.0201
妻子好合	-12.0202
伐大商	-12.0202
睡	-12.0203
瓊瑰	-12.0203
瑤	-12.0203
娓	-12.0204
雨我公田遂及我私	-12.0204
先祖匪人	-12.0204
菴	-12.0205
鷯	-12.0205
弓矢斯張	-12.0205
纏	-12.0205
禹貢徐州	-12.0205
菼薍	-12.0205
春秋所書	-12.0205
蒐狩	-12.0205
儀式刑	-12.0206
繄	-12.0206
陸氏璣曰	-12.0206
魚在在藻	-12.0206
六月徂暑	-12.0206
明明在下	-12.0206
戴嬀	-12.0206
綫	-12.0207
迓	-12.0207
王室如燬	-12.0207
搤	-12.0208
拯	-12.0208
穽	-12.021
螘	-12.021
畷	-12.0211
桑間濮上	-12.0211
伾伾	-12.0212
陷溺	-12.0213
鮥	-12.0214
謟	-12.0215
鱓	-12.0231
誰謂荼苦	-12.0246
緇布冠	-12.0374
為公子裘	-12.0374
􁀾	-12.0374
盲	-12.0375
秬秠	-12.0379
莤	-12.038
不大聲以色	-12.038
東徙渡河	-12.038
鄂不韡韡	-12.038
佻佻	-12.0381
八月萑葦	-12.0381
楊用修	-12.0381
掘閲	-12.0382
祀先王先公	-12.0382
云誰之思	-12.0382
穟穟	-12.0382
在南山之陽	-12.0383
騑騑	-12.0383
霡霂	-12.0384
臬	-12.0385
涔	-12.0386
右序有周	-12.0386
塜	-12.0386
釵	-12.0387
絇	-12.0387
三尺三寸	-12.0387
赫赫業業	-12.0387
様	-12.0387
昏以為期	-12.0388
恍	-12.0388
禘其祖之所自出	-12.0388
菶	-12.0388
祭畢而燕	-12.0388
不入我門	-12.0389
侗	-12.0389
孑孑	-12.0389
僊僊	-12.0389
䳕	-12.0389
王氏應麟曰	-12.0389
楨幹	-12.039
氛	-12.0391
豻	-12.0391
之心為心	-12.0391
喟	-12.0392
址	-12.0392
大音泰	-12.0392
宗子維城	-12.0392
悒	-12.0392
有兔斯首	-12.0393
禫	-12.0393
子子孫孫	-12.0393
周道如砥	-12.0393
洮	-12.0393
各隨其	-12.0394
此邦之人	-12.0394
陸氏徳明曰	-12.0394
貧窶	-12.0394
洸	-12.0395
萯	-12.0396
黎之臣子	-12.0396
㳟	-12.0396
靖共爾位	-12.0397
樂且有儀	-12.0397
䦧	-12.0398
黯	-12.0398
蒲坂	-12.0399
乍	-12.0401
求諸隂	-12.0409
揖揖	-12.0448
厭倦	-12.0497
蠍	-12.0558
鵂	-12.0559
銑	-12.0563
顔如舜華	-12.0563
腴	-12.0565
榎	-12.0565
蜣	-12.0565
踦	-12.0566
為王前驅	-12.0568
嗟我婦子	-12.0568
撓	-12.0568
掠	-12.0569
螻蛄	-12.057
彼美孟姜	-12.057
翰飛戾天	-12.0571
子金子	-12.0571
堆	-12.0572
菟	-12.0572
淮北之夷	-12.0572
惽怓	-12.0572
蟠	-12.0572
嬉	-12.0572
熠	-12.0572
無有後艱	-12.0573
縶其馬	-12.0573
其樂只且	-12.0573
禾麻菽麥	-12.0573
奄有下土	-12.0573
古字通用	-12.0573
昆吾夏桀	-12.0574
季文子	-12.0574
莫往莫來	-12.0574
在父母家	-12.0574
萬二千五百	-12.0575
潢	-12.0575
暄	-12.0575
素衣朱襮	-12.0575
祚𦙍	-12.0575
硬	-12.0575
日就月將	-12.0576
𣏌	-12.0576
榭	-12.0576
無聲無臭	-12.0576
成王不敢康	-12.0577
勇力之士	-12.0577
執豕于牢	-12.0577
隕蘀	-12.0577
酣	-12.0578
桑中溱洧	-12.0578
怓	-12.0579
藩籬	-12.0579
月令孟冬	-12.0579
蒠	-12.0579
匐	-12.0579
藐	-12.058
貃	-12.058
湥	-12.058
邛	-12.0581
郝氏敬曰	-12.0581
閨門之内	-12.0582
詣	-12.0582
心乎愛	-12.0583
舉成數	-12.0583
求諸陽	-12.0584
殃	-12.0584
聮	-12.0585
訃	-12.0585
犆	-12.0589
兩君相見之樂	-12.0598
馳騁	-12.0661
蚱蜢	-12.0748
爪牙之士	-12.0752
蒤	-12.0754
膟膋	-12.0757
如切如磋	-12.0758
或燔或炙	-12.0759
鷢	-12.0759
􁊈	-12.076
蹶厥生	-12.076
詵	-12.076
械	-12.0761
潧	-12.0761
聞跡曰	-12.0762
虺隤	-12.0762
榮夷公	-12.0762
芝	-12.0762
戈與祋	-12.0763
衮衣繡裳	-12.0763
泂	-12.0764
車一乘	-12.0764
俁俁	-12.0765
羔裘豹袪	-12.0765
無已大康	-12.0765
楙	-12.0765
率場啄粟	-12.0766
汪	-12.0766
可與言詩	-12.0766
以那為首	-12.0766
式燕以敖	-12.0766
程大昌	-12.0766
朝夕從事	-12.0766
進御於君	-12.0766
軼	-12.0766
矰	-12.0766
覡	-12.0766
穆穆皇皇	-12.0767
韣	-12.0767
滓	-12.0767
芻蕘	-12.0767
峰	-12.0767
鴝鵒	-12.0767
不識不知順帝之則	-12.0767
賈誼新書	-12.0767
子孫千億	-12.0768
母也天只不諒人只	-12.0768
賚我思成	-12.0768
莫之敢指	-12.0769
戰國䇿	-12.0769
覊	-12.0769
采蕭穫菽	-12.0769
囘遹	-12.0769
壟	-12.0769
式遏寇虐	-12.0769
職思其外	-12.0769
片	-12.077
帝省其山	-12.077
憂深思逺	-12.077
一戎衣	-12.077
積行累功	-12.077
散宜生	-12.077
宐	-12.0771
瑜	-12.0771
篤其慶	-12.0772
躋升也	-12.0772
不期而㑹	-12.0772
佸	-12.0773
墝	-12.0773
訏謨	-12.0773
叔孫穆子	-12.0774
公遷曰	-12.0774
慇	-12.0774
綵	-12.0774
我躬不閲遑恤我後	-12.0774
諏謀度詢	-12.0775
温温恭人	-12.0775
蠮螉	-12.0776
喜怒哀樂	-12.0777
胡氏一桂曰	-12.0777
揔	-12.0777
長張丈反	-12.0778
飲之食之教之誨之命彼後車謂之載之	-12.0779
弘	-12.0779
不解于位	-12.0779
䜟	-12.078
狸	-12.0781
媚于庶人	-12.0784
享獻也	-12.0784
百餘里	-12.0871
茵	-12.0947
葳	-12.0953
螻	-12.0954
自羊徂牛	-12.0954
粥	-12.0955
澁	-12.0955
補正云	-12.0956
耑	-12.0956
伎伎	-12.0957
不濡其翼	-12.0957
耆定爾功	-12.0958
膠膠	-12.0958
蛬	-12.0958
俘	-12.0958
駢	-12.0959
熇熇	-12.096
瓢	-12.096
公尸嘉告	-12.096
實勞我心	-12.096
中唐有甓	-12.096
擘	-12.096
謖	-12.0961
篚	-12.0961
宜爾子孫	-12.0961
殞	-12.0962
濊濊	-12.0962
甕	-12.0962
刀鞘	-12.0963
韗	-12.0963
襺	-12.0963
冺	-12.0963
夫也不良	-12.0963
九域志	-12.0963
翮	-12.0963
忻	-12.0963
暉	-12.0964
莭	-12.0964
好賢如緇衣	-12.0964
如蠻如髦	-12.0964
室人入又	-12.0964
范氏祖禹曰	-12.0965
惙惙	-12.0965
擢	-12.0965
轢	-12.0965
其封域在	-12.0966
復周公之宇	-12.0966
拆	-12.0967
𦵏	-12.0967
慧	-12.0967
番番	-12.0967
鏘鏘	-12.0968
政煩賦重	-12.0968
汨	-12.0969
視爾如荍	-12.0969
殱	-12.0969
怭怭	-12.0969
無然畔援	-12.097
菡蓞	-12.097
王錫韓侯	-12.097
陟降庭止	-12.0971
冉	-12.0971
皐	-12.0971
胡寧忍予	-12.0972
敺	-12.0972
共音恭	-12.0977
叶藥韻	-12.0993
敢取是	-12.1139
葑菲	-12.1139
陳氏祥道	-12.1146
春秋繁露	-12.1154
敝予又	-12.1155
河間獻王	-12.1155
鳥隼曰旟	-12.1155
載芟良耜	-12.1155
食桑葚	-12.1157
蚣蝑	-12.1158
釃	-12.1159
艮	-12.1159
詩序補義卷	-12.116
王肅述毛	-12.116
餕	-12.1161
笑語卒獲	-12.1161
淫風大行	-12.1161
禎	-12.1162
是詩三章皆賦也	-12.1162
蔈	-12.1163
碏	-12.1163
配以后稷	-12.1164
悽	-12.1164
滴	-12.1164
刺晉獻公也	-12.1164
瀉	-12.1164
素絲五紽	-12.1164
摹	-12.1164
眸	-12.1165
愽	-12.1165
永言孝思	-12.1165
玁	-12.1165
餾	-12.1165
懰	-12.1165
莫非王臣	-12.1166
以永今朝	-12.1166
詩三百一言以蔽之曰思無邪	-12.1168
藁	-12.1168
享于祖考	-12.1168
满	-12.1168
窈糾	-12.1169
不畏彊禦	-12.1169
鬄	-12.1169
懿厥哲婦	-12.1169
髧	-12.1172
璆	-12.1172
轊	-12.1172
嘽	-12.1173
竇	-12.1175
擕	-12.1175
父母生我	-12.1177
蹲蹲	-12.1177
恝	-12.1179
儒林傳	-12.1248
叶歌韻	-12.1316
、	-12.1324
方叔率止	-12.1355
淘	-12.1356
日居月諸	-12.1356
踴躍	-12.1357
羣黎百姓	-12.1359
綏萬邦屢豐年	-12.136
絿	-12.1362
稗	-12.1363
艷	-12.1364
人之云亡	-12.1364
貽我來牟	-12.1364
幢	-12.1364
季武子	-12.1364
禮儀卒度	-12.1365
旆旆	-12.1365
南土是保	-12.1365
尗	-12.1365
來方禋祀	-12.1366
杜元凱	-12.1366
言私其豵	-12.1366
个	-12.1366
持盈守成	-12.1366
顧瞻周道	-12.1366
武王克殷	-12.1367
蟘	-12.1367
明星煌煌	-12.1367
畏此簡書	-12.1367
詮	-12.1367
又東過	-12.1367
靡神不舉	-12.1368
我行不來	-12.1368
降觀于桑	-12.1368
不能奮飛	-12.1368
子兮子兮	-12.1368
酲	-12.1368
鍳	-12.1369
彷彿	-12.1369
菽大豆也	-12.1369
郭景純	-12.1369
殤	-12.1369
攫	-12.1369
助我舉柴	-12.1369
侏	-12.1369
不遑啓居	-12.1369
髙渠彌	-12.1369
萬民是若	-12.1369
疢	-12.137
燦	-12.1371
翺	-12.1371
獻羔祭韭	-12.1371
彷	-12.1371
寺少卿嚴虞惇撰	-12.1371
蔦與女蘿	-12.1371
殲	-12.1371
為鬼為蜮	-12.1371
椓杙	-12.1372
中田有廬	-12.1372
緝熙敬止	-12.1372
大侯既抗	-12.1372
昊天不傭	-12.1373
帯	-12.1373
覧	-12.1374
如履薄冰	-12.1374
鄒肇敏曰	-12.1374
啍啍	-12.1374
駑	-12.1375
娱	-12.1375
陿隘	-12.1376
縦	-12.1377
雖無好友	-12.138
瓶	-12.1393
當依元本改正	-12.1533
我徂東山	-12.1565
戱	-12.1566
有其義而亡其辭	-12.1567
脰	-12.157
有力如虎	-12.157
枯槁	-12.1571
林有樸	-12.1572
㛰	-12.1572
獻于公所	-12.1572
鴶鵴	-12.1573
厎	-12.1573
既取我子	-12.1573
其虚其邪既亟只且	-12.1573
旂旐央央	-12.1573
顧我則笑	-12.1573
銖	-12.1574
麑	-12.1574
惠然肯來	-12.1575
皇輿表	-12.1575
以文害辭	-12.1576
樂而不淫哀而不傷	-12.1576
譽髦斯士	-12.1577
可不戒哉	-12.1577
煩撋	-12.1578
南東其畝	-12.1578
另	-12.1578
洵直且侯	-12.1578
亦聿既耄	-12.1578
率由羣匹	-12.1578
漦	-12.1579
我是用憂	-12.1579
孔仲達	-12.1579
無易由言	-12.158
杻檍	-12.158
以引以翼	-12.158
不盈一匊	-12.1582
期逝不至	-12.1583
杳	-12.1583
遭家不造	-12.1583
芄	-12.1583
莵	-12.1583
柝	-12.1583
柔逺能邇	-12.1584
于胥樂兮	-12.1584
錫我百朋	-12.1585
􁈡	-12.1586
闓	-12.1588
塚	-12.1588
詩以貽王	-12.1592
叶寘韻	-12.1687
華谷嚴氏	-12.1721
壝	-12.1774
盻	-12.1774
貈	-12.1778
劬	-12.1779
平上通	-12.1779
一稃二米	-12.1779
涎	-12.1779
髲髢	-12.1779
駹	-12.178
蕰	-12.1781
𤣥衣纁裳	-12.1781
昂	-12.1782
饙	-12.1782
褥	-12.1782
天命𤣥鳥降而生商	-12.1783
弇	-12.1784
侔	-12.1784
兮不狩不獵胡瞻爾庭有縣	-12.1784
自堂徂基	-12.1784
示慈惠	-12.1784
筐篚	-12.1785
湆	-12.1785
維憂用老	-12.1786
涸	-12.1786
籊籊	-12.1786
宄	-12.1786
卻	-12.1787
明昭有周	-12.1787
㫖酒思柔	-12.1787
盥	-12.1787
曄	-12.1787
尺有二寸	-12.1788
十萬曰億	-12.1788
渒	-12.1788
峩峩	-12.1788
駝	-12.1789
鑰	-12.1789
公孫碩膚	-12.179
公徒三萬	-12.179
蒂	-12.1791
踞	-12.1791
我客戾止	-12.1791
王配于京	-12.1791
日月方奥	-12.1791
曾孫來止	-12.1791
劑	-12.1792
棸	-12.1792
幄	-12.1792
榱	-12.1792
二王之後來助祭	-12.1792
哀今之人	-12.1792
狄入衛	-12.1792
廬陵羅氏曰	-12.1793
陳氏鵬飛曰	-12.1793
帝作邦作對	-12.1793
樂具入奏	-12.1793
鋂	-12.1794
時靡有爭	-12.1794
迤	-12.1794
欝	-12.1794
薌	-12.1795
藝文志	-12.1795
辰彼碩女	-12.1796
匍	-12.1796
心如結	-12.1796
闗雎之應	-12.1797
寧莫之懲	-12.1797
鴛	-12.1798
翣	-12.1798
經始勿亟	-12.1799
魚在于沼	-12.18
嗟行之人胡不比焉人無兄弟胡不佽焉	-12.18
王躬是保	-12.18
㷀	-12.1801
臡	-12.1803
以后稷配	-12.1855
保艾爾後	-12.1991
升自西階	-12.1995
十月蟋蟀入我牀下	-12.1996
三昭三穆	-12.1997
樲	-12.1997
縐	-12.1998
珮	-12.1998
坡	-12.1998
煎	-12.1999
湧	-12.2
汋	-12.2
忡	-12.2
黮	-12.2001
王在在鎬	-12.2001
挾四鍭	-12.2002
扣	-12.2002
涕泗滂沱	-12.2002
周公相成王	-12.2002
以象骨為之	-12.2003
惠此南國	-12.2004
剏	-12.2004
悝	-12.2004
逖	-12.2004
姤	-12.2004
曰予未有室家	-12.2004
閎	-12.2004
彼茁者葭	-12.2004
王伯厚	-12.2005
王在靈囿	-12.2005
閔馬父	-12.2005
文王烝哉	-12.2005
山有苞櫟	-12.2005
淮夷攸服	-12.2005
鱉	-12.2006
迋	-12.2006
諍	-12.2006
麃麃	-12.2006
鎒	-12.2006
湯孫奏假	-12.2006
肚	-12.2006
减	-12.2006
以社以方	-12.2007
三嵗貫女	-12.2007
沈氏守正曰	-12.2007
虔	-12.2007
載飛載止	-12.2007
率彼曠野	-12.2007
秋報社稷	-12.2007
誹	-12.2008
娣姪	-12.2008
軞	-12.2008
僤	-12.2008
金履祥	-12.2008
所美非美	-12.2008
溯	-12.2008
姿	-12.2009
聾	-12.2009
日監在兹	-12.2009
庤	-12.2009
攸介攸止	-12.2009
教猱升木	-12.2009
躭	-12.201
駸駸	-12.2011
其葉湑湑	-12.2012
岌	-12.2012
蝀	-12.2012
兩驂不猗	-12.2012
扆	-12.2012
君子攸躋	-12.2013
陟降厥士	-12.2013
珕	-12.2013
哀哀父母生我劬勞	-12.2014
甽	-12.2014
靡不有初鮮克有終	-12.2016
濔	-12.2016
夜未央	-12.2017
鬌	-12.202
院	-12.2038
湛湛	-12.209
柰	-12.2156
苧	-12.2179
蟪蛄	-12.2193
平去通	-12.2215
遵養時晦	-12.2215
右手秉翟	-12.2216
送歸妾	-12.2218
維日不足	-12.2218
適子之館	-12.2219
碩大無朋	-12.2219
淅	-12.222
容兮遂兮垂帶悸兮	-12.222
泠	-12.222
不稼不穡胡取禾三百	-12.2221
駪駪	-12.2221
亦流于淇	-12.2222
息老物	-12.2223
凡今之人莫如兄弟	-12.2223
大命近止	-12.2223
茄	-12.2223
宂	-12.2223
瀏	-12.2224
徨	-12.2224
蟦	-12.2224
迮	-12.2224
九月授衣	-12.2224
約軧錯衡	-12.2224
獻豜于公	-12.2225
平陳與宋	-12.2225
婉兮孌	-12.2226
淸	-12.2226
陳饋八簋	-12.2226
謝曼卿	-12.2226
不亦宜乎	-12.2226
聖敬日躋	-12.2226
小渚曰沚	-12.2226
嫗	-12.2227
終風且霾	-12.2227
作邑于豐	-12.2227
以假以享	-12.2227
彖	-12.2228
噰	-12.2228
季孫行父	-12.2228
冲冲	-12.2228
塊	-12.2229
山脊曰岡	-12.2229
景命有僕	-12.2229
遘	-12.2229
郟	-12.2229
朝生暮死	-12.2229
册	-12.2229
姻婭	-12.2229
神嗜飲食	-12.2229
臨事而懼	-12.223
四鍭如樹	-12.223
籌	-12.223
白圭之玷	-12.223
奮伐荆楚	-12.223
栲山樗	-12.2231
酢主人主人	-12.2231
莫懲嗟	-12.2231
蘇子由	-12.2231
燕婉之求	-12.2231
亂離瘼	-12.2231
蔭	-12.2231
元戎十乗	-12.2231
諮	-12.2232
汎彼柏舟	-12.2232
不夙則莫	-12.2232
僛僛	-12.2232
遊于北園	-12.2232
既見君子云何不樂	-12.2232
炫	-12.2232
俛	-12.2233
鈔	-12.2233
篧	-12.2233
劉執中曰	-12.2233
抄	-12.2233
無封靡于爾邦	-12.2234
鶴鳴于九臯	-12.2234
邦人諸友	-12.2234
秕	-12.2234
阡	-12.2234
成是貝錦	-12.2235
匪其止共	-12.2235
有空大谷	-12.2236
滺	-12.2236
宜爾室家	-12.2236
惺	-12.2236
佩其象揥	-12.2236
鯤	-12.2236
蝦	-12.2236
慎爾出話	-12.2236
無遏爾躬	-12.2236
堰	-12.2239
靶	-12.2239
衣以裼之	-12.224
研	-12.2243
張三侯	-12.2243
羀	-12.2243
暬	-12.2243
蜉蝣之羽	-12.2248
月出之光	-12.2253
悪	-12.2257
有蒲與荷	-12.2305
禜	-12.2436
在宗載考	-12.2441
冓	-12.2447
蜩蟬也	-12.2447
及公子同歸	-12.2447
崑崙	-12.2447
汰	-12.2448
倬彼雲漢	-12.2449
稲	-12.2449
神保是饗	-12.2449
碩大且卷	-12.245
內	-12.245
幪幪	-12.2451
麒	-12.2452
紛紜	-12.2452
誌	-12.2452
帝立子生商	-12.2452
淆	-12.2452
烝衎烈祖	-12.2452
有洸有潰	-12.2453
勞還率	-12.2453
壹發五豝	-12.2453
炭	-12.2453
豊	-12.2454
疢如疾首	-12.2454
腆	-12.2454
鸛鳴于垤	-12.2454
祈榖于上帝	-12.2455
好是懿徳	-12.2455
既多受祉	-12.2455
縊	-12.2455
宜兄宜弟	-12.2455
我征聿至	-12.2455
蘦	-12.2455
念我獨兮	-12.2456
畮	-12.2457
篇臣聞	-12.2457
其桐其椅	-12.2457
屈此羣醜	-12.2457
珪	-12.2457
貽我握椒	-12.2457
評	-12.2457
思須與漕	-12.2458
羔裘如膏	-12.2458
攜手同行	-12.2458
瘍	-12.2458
嫚	-12.2458
百卉具腓	-12.2458
去入通韻	-12.2459
嚶	-12.2459
伯氏吹壎	-12.2459
邂逅相遇	-12.2459
羶	-12.2459
處昌慮反	-12.2459
任賢使能	-12.2459
狂夫瞿瞿	-12.246
載飛載揚	-12.246
自今以始	-12.246
襛	-12.246
入其阻	-12.2461
陟彼北山言采其杞	-12.2462
贍	-12.2462
篤生武王	-12.2462
煌	-12.2463
駜彼乘	-12.2463
嵬	-12.2465
殱我良人如可贖兮人百其身	-12.2465
屛	-12.2466
匪居匪康	-12.2467
彜	-12.2468
藋	-12.247
纖	-12.2471
窔	-12.2478
至此為第	-12.2483
鵒	-12.2678
絜爾牛羊	-12.2678
有卷者阿	-12.2678
永錫爾類	-12.268
胞	-12.268
鏑	-12.268
周雖舊邦其命維新	-12.2681
肘	-12.2681
蛆	-12.2682
維天有漢	-12.2682
煥	-12.2682
桵	-12.2683
不得養其父母	-12.2684
實始翦商	-12.2684
禳	-12.2685
無毁我室	-12.2685
眇	-12.2686
訿	-12.2687
在宫肅肅在廟	-12.2687
肇基王迹	-12.2687
珧	-12.2687
文武維后	-12.2687
繂	-12.2687
姣	-12.2687
正陽之月	-12.2688
受爵不讓	-12.2688
瀹	-12.2688
手如柔荑	-12.2688
如鼓瑟琴	-12.2689
西有長庚	-12.2689
抉	-12.2689
晣晣	-12.2689
黽勉畏去	-12.2689
序賔以賢	-12.2689
陘	-12.2689
巽	-12.2689
豈不顯乎	-12.2689
慚	-12.2689
釋蟲云	-12.269
二畝半	-12.269
木桃木李	-12.269
統承先王	-12.269
豐水東注	-12.269
欹	-12.269
國小而迫	-12.2691
緍	-12.2691
有條有梅	-12.2691
伯邑考	-12.2691
陾陾	-12.2691
我其收之	-12.2691
簨	-12.2691
建旐設旄	-12.2691
譸	-12.2691
邕	-12.2692
子貢傳闕文	-12.2692
人之為言胡得焉	-12.2692
四方攸同	-12.2692
檍	-12.2693
周之列位	-12.2693
撩	-12.2693
柔惠且直	-12.2693
携	-12.2693
朱康流曰	-12.2694
載起載行	-12.2694
降福孔皆	-12.2694
烝在栗薪	-12.2694
鞬	-12.2694
永世克孝	-12.2694
瓴	-12.2694
四夷交侵	-12.2694
閔管蔡之失道	-12.2695
好樂無荒	-12.2695
烓	-12.2696
年九十有五	-12.2697
董氏逌曰	-12.2698
荊	-12.2698
諠譁	-12.2698
漢天河也	-12.2698
叡	-12.2699
葺	-12.2699
長育人材	-12.27
慉	-12.2702
嶩	-12.2702
娯	-12.2702
讟	-12.2703
惠于朋友	-12.2706
叶遇韻	-12.2768
壻之父	-12.286
胤	-12.2903
鼐鼎及鼒	-12.2911
臝	-12.2912
萄	-12.2913
椒聊且逺條且	-12.2914
鶹鷅	-12.2915
飪	-12.2917
陳師鞠旅	-12.2917
朝食于株	-12.292
彼茁者蓬	-12.2921
倐	-12.2922
鳺	-12.2922
蚍	-12.2923
于胥斯原	-12.2923
以辭害志	-12.2923
神保是格	-12.2924
驖	-12.2924
敷時繹思	-12.2924
日出有曜	-12.2924
大田多稼	-12.2924
偕偕士子	-12.2925
掣	-12.2925
上帝臨女無貳爾心	-12.2925
疽	-12.2926
自彼成康奄有四方	-12.2926
麻衣如雪	-12.2926
朋酒斯饗	-12.2926
朞	-12.2927
南山崔崔	-12.2927
犁	-12.2927
狐裘黄黄	-12.2927
福禄如茨	-12.2927
元命包云	-12.2927
靡哲不愚	-12.2927
既庶既繁	-12.2927
謷謷	-12.2927
莫我肯顧	-12.2928
順彼長道	-12.2928
以迄于今	-12.2928
栻	-12.2928
逶	-12.2929
蟹	-12.2929
張元岵曰	-12.2929
閤	-12.2929
十千維耦	-12.2929
洄	-12.293
緘	-12.293
眉山蘇氏曰	-12.293
宗祀文王於明堂以配上帝	-12.293
式歌且舞	-12.293
相竊妻妾	-12.2931
萬物盛多	-12.2931
履帝武	-12.2932
舍命不渝	-12.2932
庵	-12.2932
兮不寁	-12.2932
麛	-12.2933
成王者之信	-12.2933
棄予如遺	-12.2934
嚌	-12.2934
彼之園爰有樹檀	-12.2934
款	-12.2935
不陳其詩	-12.2935
尊君親上	-12.2936
灋	-12.2937
相息亮反	-12.2937
弰	-12.2937
惴	-12.2937
弁皮弁也	-12.2938
枏	-12.295
兩君相見	-12.3145
蜙蝑	-12.3154
苨	-12.3157
圈	-12.3157
郃	-12.3159
虋	-12.316
􁈏	-12.3161
如履薄氷	-12.3162
躔	-12.3163
帝度其心	-12.3164
無衣無褐	-12.3165
詩類提要	-12.3165
報以介福萬夀無疆	-12.3165
在前上處	-12.3165
苞有三蘖	-12.3166
宙	-12.3166
儗	-12.3168
荂	-12.3168
畢之羅之	-12.3168
孔寧儀行父	-12.3168
為酒為醴烝畀祖妣以洽百禮	-12.3168
如霆如雷	-12.3169
具曰予聖誰知烏之雌雄	-12.3169
貂	-12.3169
㝷	-12.3169
鞠為茂草	-12.3169
卜云其吉	-12.317
些	-12.317
范處義	-12.317
以永終譽	-12.317
散無友紀	-12.3171
壹者之來	-12.3171
禹平水土	-12.3171
昭明有融	-12.3171
魚勞則尾赤	-12.3172
簷	-12.3172
棺	-12.3172
弗問弗仕	-12.3173
皇猶煌煌也	-12.3173
藾	-12.3173
𢷬	-12.3173
天錫公純嘏	-12.3173
詩總聞卷	-12.3174
萬福來求	-12.3174
日居月諸胡迭	-12.3174
北山有萊	-12.3174
擥	-12.3174
鮫	-12.3174
依我磬聲	-12.3175
子之不淑云如之何	-12.3175
茭	-12.3175
纉戎祖考	-12.3175
兮匪車偈	-12.3176
儻	-12.3176
遫	-12.3176
自我不見于今三年	-12.3177
並坐鼓瑟	-12.3177
全身逺害	-12.3177
懷哉懷哉曷月予還歸哉	-12.3177
封建厥福	-12.3177
世族在位	-12.3178
劉熙云	-12.3178
髲鬄	-12.3178
鹿麌麌	-12.3178
慣	-12.3179
女轉棄予	-12.318
之子是子也	-12.318
戎成不退	-12.3181
滅我立王	-12.3181
琮	-12.3182
惡烏路反	-12.3185
梏	-12.3186
祖之所自出	-12.3188
彼澤之陂	-12.3255
鄒忠𦙍	-12.3393
蚻	-12.3404
椅桐梓漆	-12.3405
我龍受之	-12.3408
嬀	-12.3412
醪	-12.3412
酈道元	-12.3413
今官園種之	-12.3413
彼人是哉子曰何其	-12.3414
陕	-12.3414
如岡如陵	-12.3414
彀	-12.3415
埜	-12.3415
無競維人	-12.3415
塋	-12.3416
為梟為鴟	-12.3416
石次玉	-12.3416
締	-12.3416
姡	-12.3417
是致是附	-12.3417
則異室死則同穴	-12.3417
悠哉悠哉	-12.3417
脗	-12.3417
四黄既駕	-12.3417
啗	-12.3417
未能用周禮	-12.3417
蘺	-12.3417
御纂詩義折中卷	-12.3418
民不堪命	-12.3418
懣	-12.3418
爍	-12.3418
麇	-12.3418
芮鞫之即	-12.3418
七月鳴鵙	-12.3419
瓀	-12.3419
鄱	-12.3419
江東人呼	-12.3419
我行既集	-12.3419
既載清酤	-12.3419
蔏	-12.3419
酏	-12.3419
羔裘豹褎	-12.3419
𨼆	-12.3419
𤣥衮及黼	-12.342
崎	-12.342
穟	-12.342
豎	-12.342
師干之試	-12.342
元命苞	-12.342
翰幹也	-12.342
㵼	-12.3421
餒	-12.3421
設都于禹之績	-12.3421
帙	-12.3422
怯	-12.3422
陟南岡	-12.3422
舘	-12.3422
鹽鐵論	-12.3422
小共大共	-12.3422
誨爾諄諄	-12.3423
以祈爾爵	-12.3423
大人占之	-12.3423
思樂泮水薄采其	-12.3423
蘢	-12.3423
祈年于田祖	-12.3423
裳錦褧裳	-12.3423
顧予烝嘗湯孫之將	-12.3423
弗慮弗圖	-12.3423
無食我黍	-12.3423
朱子語類	-12.3424
三十維物	-12.3424
鞘	-12.3424
交亂四國	-12.3424
適我願	-12.3424
三星在罶	-12.3424
園有桃其實之殽	-12.3424
亂庶遄	-12.3424
戎醜攸行	-12.3424
徐氏常吉曰	-12.3424
終焉允臧	-12.3425
佾	-12.3425
逡	-12.3425
載色載笑	-12.3425
何日不行	-12.3425
諼忘也	-12.3425
䊷	-12.3425
賦其事以起興	-12.3426
選徒囂囂	-12.3426
龔	-12.3427
樂爾妻帑	-12.3427
逝者其耋	-12.3427
出其東門有女如雲	-12.3427
邃	-12.3427
民莫不榖我獨何害	-12.3428
顆	-12.3428
爲于僞反	-12.3428
􁉂	-12.3428
忤	-12.3429
㧘	-12.3429
定宇陳氏曰	-12.343
蚳	-12.343
約之閣閣	-12.343
在彼中河	-12.3431
腢	-12.3431
式燕且喜	-12.3431
出入風議	-12.3431
周人尚臭	-12.3432
揖我謂我儇	-12.3434
精意以享	-12.3434
赫赫南仲薄伐西戎	-12.3435
乱	-12.3438
鮧	-12.345
孔穎逹	-12.3517
穎逹曰	-12.3587
蜥	-12.3659
天保定爾	-12.3661
鳩氏司	-12.3663
鄼	-12.3663
厥聲載路	-12.3664
實覃實訏	-12.3665
仁如騶虞	-12.3666
瀟瀟	-12.3668
許叔重	-12.3668
鍊	-12.3668
烝也無戎	-12.3669
彼公堂稱彼兕觥	-12.3669
刄	-12.3669
扼	-12.367
是詩三章皆比而賦之也	-12.367
笏	-12.367
勰	-12.3671
茱萸	-12.3671
豈樂飲酒	-12.3671
凡周之士	-12.3671
蛹	-12.3671
葡	-12.3671
歸飛提提	-12.3672
戻	-12.3673
投畀豺虎	-12.3673
以介眉夀	-12.3673
豐年多黍多稌	-12.3673
窈窕淑女君子好逑	-12.3674
叔于田乗乗	-12.3674
隒	-12.3674
楊栁依依	-12.3674
嘻	-12.3675
夙夜匪懈	-12.3675
風土記	-12.3675
滄	-12.3675
㨿	-12.3675
王旅嘽嘽	-12.3675
其湛曰樂	-12.3675
煦	-12.3676
誶	-12.3677
莱	-12.3677
郊外曰野	-12.3677
鐓	-12.3677
于牧之野	-12.3677
揚之水不流束薪	-12.3678
姨	-12.3678
蜾	-12.3678
炕	-12.3678
胡然而天也胡然而帝也	-12.3678
不能辰夜	-12.3678
廂	-12.3678
湊	-12.3678
疫	-12.3679
眠	-12.3679
既敬既戒	-12.3679
鰥寡孤獨	-12.368
保王躬	-12.368
威儀棣棣不可選也	-12.368
其車既載	-12.368
男女之無夫家	-12.368
歐陽永叔	-12.368
既伯既禱	-12.368
彼飛隼	-12.3681
戛	-12.3681
韓詩薛君曰	-12.3681
我良人如可贖兮人百其身	-12.3681
方伯連率	-12.3681
荎	-12.3681
遵伯禽之法	-12.3681
佩玉之儺	-12.3681
居常與許復周公之宇	-12.3682
彼交匪紓	-12.3682
發彼有的	-12.3682
終善且有	-12.3682
彼交匪敖	-12.3682
下濕曰隰	-12.3683
傞傞	-12.3683
睍	-12.3683
芙	-12.3684
好人提提	-12.3684
掦	-12.3685
縻	-12.3685
𥚹	-12.3685
姫	-12.3686
叔于田乘乘	-12.3688
言笑晏晏	-12.369
無自立辟	-12.369
声	-12.3692
㵎	-12.3697
𤱔	-12.3699
叶宥韻	-12.3711
狨	-12.3899
梢	-12.3913
蛤	-12.3922
臛	-12.3928
崔豹古今注	-12.3929
𣗳	-12.3929
豸	-12.3929
黿	-12.393
立我烝民	-12.3931
耊	-12.3932
淑慎其身	-12.3932
哀我人斯	-12.3933
毖彼泉水	-12.3933
武王載斾	-12.3933
耤	-12.3933
拭	-12.3935
义	-12.3935
鄜	-12.3936
稊	-12.3936
徹田為糧	-12.3937
酌以大斗	-12.3937
汴	-12.3937
霞	-12.3937
詩經疏義㑹通	-12.3938
吸	-12.3938
寥	-12.3938
不競不絿	-12.3938
鍪	-12.3938
武王靡不勝	-12.3938
牷	-12.3938
豈敢愛之畏我父母	-12.3938
城彼朔方	-12.3938
女興是力	-12.3938
副笄六珈	-12.3938
許人尤之	-12.3939
琳	-12.3939
裸	-12.394
宜岸宜獄	-12.394
載任器	-12.394
嘽嘽焞焞	-12.394
奎	-12.394
商之先后	-12.3941
我思古人實獲我心	-12.3941
以速諸舅	-12.3941
蹊	-12.3941
琥	-12.3941
錢氏天錫曰	-12.3941
紝	-12.3943
徘徊	-12.3943
燕及皇天	-12.3943
闗雎之化行	-12.3944
詩傳大全卷	-12.3944
蔥	-12.3944
俾民心闋	-12.3944
吉日維戊	-12.3944
如何如何忘我實多	-12.3944
􁆵	-12.3945
者未之有也	-12.3945
廣漢張氏曰	-12.3945
魅	-12.3945
繫左下綱	-12.3945
掬	-12.3945
纘戎祖考	-12.3945
俾臧俾嘉	-12.3945
謂予不信有如皦	-12.3945
有豕白蹢	-12.3945
四國無政不用其良	-12.3946
水上浮萍	-12.3946
陲	-12.3946
聊可與娛	-12.3946
善頌善禱	-12.3946
饎酒食也	-12.3946
殫	-12.3946
詀	-12.3947
不忮不求何用不臧	-12.3948
三英粲兮	-12.3948
緅	-12.3948
猋	-12.3948
鏜	-12.3949
脇	-12.395
殯	-12.395
詒厥孫謀以燕翼子	-12.395
痯痯	-12.3951
有駜駜彼乗	-12.3951
躓	-12.3952
􁂍	-12.3953
瞻彼日月悠悠我思	-12.3954
篠	-12.4195
紂子武庚	-12.4195
北山有楰	-12.4196
村	-12.4197
霓	-12.4198
如月之恒	-12.4199
瞻望弗及	-12.42
罙	-12.4201
俾予靖之	-12.4202
心之憂矣曷維其	-12.4202
蕒	-12.4202
虞芮質厥成	-12.4202
駐	-12.4202
紗	-12.4203
磐	-12.4203
讖	-12.4203
櫓	-12.4203
峽	-12.4203
僩	-12.4203
巷無服馬	-12.4203
維嶽降神生甫及申	-12.4203
視我邁邁	-12.4203
予又集于蓼	-12.4204
零雨其濛	-12.4204
蔡邕獨斷	-12.4204
逐禽左	-12.4205
去古未逺	-12.4205
既庭且碩	-12.4206
恙	-12.4206
青青子佩	-12.4206
蚊	-12.4207
陟則在巘	-12.4207
挃	-12.4207
不遑啟居	-12.4207
或來瞻女	-12.4207
維南有箕不可以簸	-12.4207
字不入韻	-12.4207
絀	-12.4207
象箾南籥	-12.4208
何用不監	-12.4208
不坼不副	-12.4208
樻	-12.4208
中心好之曷飲食之	-12.4208
以對于天下	-12.4208
貽我佩玖	-12.4209
舟人之子熊羆是裘	-12.4209
藩垣屏翰	-12.4209
娑	-12.4209
敵王所愾	-12.4209
昉	-12.4209
駿發爾私	-12.4209
粃	-12.4209
倭	-12.4209
如臨于谷	-12.421
夏之日冬之夜	-12.421
婿	-12.421
懐哉懐哉曷月予還歸哉	-12.421
澧	-12.421
履帝武敏歆	-12.421
采葑采菲	-12.421
阨	-12.4211
尚寐無吪	-12.4211
之子于垣	-12.4211
管蔡商奄	-12.4211
彬	-12.4211
矢既均	-12.4211
控于大邦	-12.4211
簇	-12.4211
芉	-12.4211
沇	-12.4211
無貳無虞上帝臨女	-12.4211
祀四嶽河海	-12.4212
嘗其㫖否	-12.4212
莫怨具慶	-12.4212
歌魚麗笙由庚歌南有嘉魚笙崇丘	-12.4212
豐水有芑	-12.4212
截彼淮浦王師之所	-12.4212
肓	-12.4213
宋嚴粲撰	-12.4213
眊	-12.4213
半圭曰璋	-12.4213
歌南山有臺笙由儀	-12.4213
如沸如羮	-12.4213
念我無禄	-12.4213
二月初吉	-12.4214
商人尚聲	-12.4214
明何楷撰	-12.4214
歸哉歸哉	-12.4214
鄭棄其師	-12.4215
曷云其還	-12.4215
人渉卬否	-12.4216
靚	-12.4216
君教使臣	-12.4216
龍旂承祀	-12.4216
于彼新田于此菑	-12.4216
刼	-12.4216
永嘉陳氏曰	-12.4216
闘	-12.4217
文王未嘗稱王	-12.4217
雖則如燬父母孔邇	-12.4217
大陵曰阿	-12.4217
羞惡之心	-12.4217
閹	-12.4217
有子七人	-12.4217
明明上天照臨下土	-12.4217
度待洛反	-12.4218
近附近之近	-12.4218
饜	-12.4218
浙	-12.4218
亦匪克樂	-12.4218
君子攸寧	-12.4218
解頥新語	-12.422
噦	-12.4221
鏐	-12.4221
􁈛	-12.4221
蜀本石經	-12.4222
凰	-12.4223
秩秩有序也	-12.4225
焭	-12.4227
黄衣狐裘	-12.4238
潭	-12.4466
搴	-12.4473
刲	-12.4473
袴	-12.4474
撞	-12.4475
宛彼鳴鳩	-12.4476
菌	-12.4477
鯀	-12.4477
左手執籥	-12.4478
殛	-12.4478
我來自東	-12.4478
匪安匪	-12.4478
怵	-12.4478
鳻	-12.4479
燿	-12.448
旜	-12.448
在位貪鄙	-12.448
鳳翔府	-12.448
珉	-12.448
徠	-12.4481
憗	-12.4481
褁	-12.4481
潘時舉	-12.4481
駕我騏馵	-12.4482
寤言不寐	-12.4482
維桑與梓	-12.4482
冗	-12.4482
不狩不獵	-12.4482
爾公爾侯	-12.4483
俠	-12.4483
薏	-12.4483
壷	-12.4483
鶉鵲之不若	-12.4483
作都于向	-12.4483
髙平曰陸	-12.4484
終風且曀	-12.4484
賑	-12.4484
其儀不忒正是四國	-12.4484
瑰	-12.4485
蘊	-12.4485
㾖	-12.4485
竆	-12.4485
予維音嘵嘵	-12.4485
明季本撰	-12.4485
民靡有黎	-12.4486
食野之苹	-12.4486
誕先登于岸	-12.4486
大夫夙退無使君勞	-12.4486
竣	-12.4486
斄	-12.4487
綏我眉壽	-12.4487
輿地廣記	-12.4487
簟茀朱鞹	-12.4487
俾民大棘	-12.4487
逆流而上	-12.4487
于豳斯館	-12.4487
圯	-12.4487
彄	-12.4488
彼留子嗟	-12.4488
宣哲維人	-12.4488
棫白桵	-12.4488
拖	-12.4488
王欲玉女	-12.4488
𥻘	-12.4489
軍旅數起	-12.4489
以先啓行	-12.4489
因心則友	-12.4489
憂心惸惸	-12.4489
雝雝鳴鴈	-12.4489
蜉	-12.4489
朋友攸攝攝以威儀	-12.4489
有女如荼	-12.4489
酌彼康爵以奏爾時	-12.4489
載號載呶	-12.449
廸	-12.449
福履綏之	-12.4491
苾苾芬芬	-12.4491
婦人無外事	-12.4491
幃	-12.4491
匪兕匪虎	-12.4491
衞女思歸	-12.4491
維天之命於穆不已	-12.4491
皇皇后帝	-12.4491
詩亡然後春秋作	-12.4491
淨	-12.4491
勿予禍適	-12.4492
妺	-12.4492
憇	-12.4493
謀臧不從不臧覆用	-12.4493
抱衾與裯	-12.4493
泆	-12.4494
土國城漕我獨南行	-12.4494
上下通用之樂	-12.4494
誰從穆公	-12.4495
自牧歸荑	-12.4495
維以不永傷	-12.4495
窕	-12.4496
䝨	-12.4496
朝宗于海	-12.4497
時萬時億	-12.4497
自左膘	-12.4497
巉	-12.4497
匪載匪來	-12.4497
涕零如雨	-12.4497
令力呈反	-12.4498
有馮有翼	-12.4498
縓	-12.4499
豈無他人不如我同父	-12.4499
文武吉甫萬邦為憲	-12.4499
風雨攸除	-12.4499
劫	-12.45
𤣥衮赤舄	-12.45
沽	-12.4501
諉	-12.4501
圛	-12.4502
知我如此不如無生	-12.4503
娀	-12.4698
庳	-12.4752
翥	-12.4756
楯	-12.4756
檟	-12.4757
攴	-12.476
胡考之休	-12.476
君曰卜爾	-12.4762
春秋説題辭	-12.4762
莍	-12.4762
珽	-12.4762
為俎孔碩	-12.4762
各敬爾儀天命不又	-12.4764
桼	-12.4764
襗	-12.4764
蚌	-12.4765
憊	-12.4765
有嘒其星	-12.4765
王國庶定	-12.4766
坎其擊缶	-12.4766
美周公也周大夫刺朝廷之不知也	-12.4766
土國城漕	-12.4766
觵	-12.4767
傴	-12.4768
李迃仲	-12.4768
自求辛螫	-12.4768
維北有斗	-12.4768
比物四驪	-12.4768
褖	-12.4768
葛生蒙楚	-12.4769
轉予于恤	-12.4769
彊暴之男	-12.4769
交韔二弓	-12.4769
汀	-12.4769
顯父餞之	-12.4769
維虺維蛇	-12.4769
月離于畢	-12.477
化天下以婦道	-12.477
爰采麥	-12.477
伐木許許	-12.477
扺	-12.477
臺夫須	-12.477
彼下泉浸彼苞稂	-12.4771
從事獨賢	-12.4771
疹	-12.4771
酈	-12.4771
克定厥家	-12.4772
櫝	-12.4772
籥舞笙鼓	-12.4772
不流束楚	-12.4773
絺兮綌兮	-12.4773
嘉我未老鮮	-12.4773
我心匪鑒不可以茹	-12.4773
誰秉國成	-12.4773
尚寐無覺	-12.4773
豢	-12.4774
新臺有洒	-12.4774
茗	-12.4774
紉	-12.4774
無俾作慝	-12.4774
始作樂而合乎祖	-12.4774
鸞在鑣	-12.4775
實靖夷我邦	-12.4775
孩	-12.4775
犍	-12.4775
人之好我示我周行	-12.4775
吹彼棘心	-12.4775
有士君子之行	-12.4775
尸出入奏肆夏	-12.4775
哥	-12.4775
允文允武	-12.4776
不庭方以佐戎辟	-12.4776
鮮我覯爾	-12.4776
顧予烝嘗	-12.4777
下王后一等	-12.4777
鋸	-12.4777
駿惠我文王	-12.4777
殿天子之邦	-12.4777
休有烈光	-12.4777
肅敬雝和	-12.4777
維鵲有巢	-12.4777
惛	-12.4778
穯	-12.4778
徧音遍	-12.4778
周宗既滅	-12.4778
价人維藩	-12.4778
蔤	-12.4778
爰及矜人哀此鰥寡	-12.4778
永錫爾極	-12.4779
畯	-12.4779
陿	-12.4779
瀕	-12.478
昔先王受命有如召公日辟	-12.478
宋李樗黄櫄撰	-12.478
鬢	-12.478
諸姑伯姊	-12.478
籧	-12.478
燈	-12.4781
叫	-12.4781
署	-12.4781
濟濟多士文王以寧	-12.4781
爾不我畜	-12.4781
旰	-12.4781
中牟縣	-12.4782
無曰不顯莫予云覯	-12.4782
仗	-12.4782
稷曰明粢	-12.4782
赫赫南仲玁狁于夷	-12.4782
雹	-12.4783
曰嬪于京	-12.4783
無思百憂	-12.4784
搏獸于敖	-12.4784
很	-12.4784
矢詩不多維以遂歌	-12.4785
賦政于外	-12.4785
劉氏彝曰	-12.4786
慰母心	-12.4786
黄氏一正曰	-12.4793
孜	-12.4793
詡	-12.4796
麎	-12.481
終温且惠	-12.5051
旞	-12.5052
告濯具	-12.5052
罄無不宜	-12.5053
篋	-12.5056
喤	-12.5056
示我周行	-12.5057
朻	-12.5057
左旋右抽	-12.5058
緇衣之蓆	-12.5059
似蝗而小	-12.506
㤀	-12.506
報以介福	-12.506
帝謂文王詢爾仇方	-12.506
挼	-12.506
聶	-12.5061
實大如李	-12.5061
𤣥王桓撥	-12.5061
取蕭祭脂	-12.5061
穿我屋	-12.5061
聒	-12.5061
五畝之宅	-12.5062
盧重鋂	-12.5062
聫	-12.5062
昭哉嗣服	-12.5062
蔟	-12.5062
季彭山	-12.5062
箠	-12.5063
昻	-12.5063
禒	-12.5063
詩瀋卷	-12.5064
佇	-12.5064
求之不得寤寐思服	-12.5064
董澤之蒲	-12.5064
豭	-12.5064
愾我寤歎	-12.5065
莆田鄭氏	-12.5065
酺	-12.5065
母氏劬勞	-12.5065
魯侯戾止	-12.5065
心之憂矣其誰知之其誰知之蓋亦勿思	-12.5066
或肅或艾	-12.5066
頳	-12.5066
將仲子兮無踰我	-12.5066
西人之子粲粲衣服	-12.5066
臚	-12.5066
靡神不宗	-12.5066
嚼	-12.5067
槷	-12.5067
百川沸騰	-12.5067
逅	-12.5067
陳常于時夏	-12.5068
桑之未落其葉沃若	-12.5068
河水浼浼	-12.5068
昇	-12.5068
購	-12.5068
押	-12.5068
昩	-12.5068
菏	-12.5068
凡伯刺幽王大壞也	-12.5069
厠	-12.5069
既備乃奏	-12.5069
明發不寐	-12.5069
敬慎威儀維民之則	-12.5069
彤弓一彤矢百	-12.5069
妊	-12.5069
委委佗佗	-12.5069
爾牧來思	-12.507
巍	-12.507
騘	-12.507
偃武修文	-12.507
聽我藐藐	-12.507
墓門有棘斧以斯	-12.507
黄騂曰黄	-12.507
肆夏繁遏渠	-12.507
勿罔君子	-12.507
欽定四庫全書詩緝卷	-12.507
樂無荒良士瞿瞿	-12.5071
我心匪石不可轉也我心匪席不可卷	-12.5071
儷	-12.5071
周公之孫莊公之子	-12.5071
癡	-12.5071
匀	-12.5071
為謀為毖	-12.5071
父母生我胡俾我瘉	-12.5071
嗟爾君子無恒安處	-12.5071
珥	-12.5071
上以風化下	-12.5071
怍	-12.5071
載錫之光	-12.5071
𦵔	-12.5072
或靡事不為	-12.5072
羽軌切	-12.5072
雖則如雲匪我思存	-12.5073
邦之司直	-12.5073
構我二人	-12.5073
虞賔在位	-12.5073
鄭語史伯	-12.5074
上時掌反	-12.5074
言之者無罪聞之者足以戒	-12.5074
歙	-12.5074
公子頑通乎君母	-12.5075
式燕且譽好	-12.5075
誰能亨魚	-12.5076
𫐠	-12.5076
蕭蕭馬鳴悠悠斾旌	-12.5076
悉率左右以燕天子	-12.5077
相招為禄仕	-12.5077
檜楫松舟	-12.5078
山南曰陽	-12.5078
哲夫成城哲婦傾城	-12.5078
葉松身	-12.508
橬	-12.5081
岫	-12.5081
禂	-12.5084
唐氏汝諤曰	-12.5085
梁氏益曰	-12.5085
鑢	-12.5091
蓯	-12.5344
值其鷺羽	-12.5356
舍旃舍旃	-12.5357
島	-12.5358
涿	-12.5359
鈍	-12.5361
無折我樹杞	-12.5362
赧	-12.5362
豁	-12.5362
問我諸姑遂及伯姊	-12.5363
徔	-12.5363
穫之挃挃	-12.5363
式訛爾心	-12.5363
燄	-12.5363
豌	-12.5363
鳶飛戾天魚躍于淵	-12.5364
堇荼如飴	-12.5364
民之質矣日用飲食	-12.5365
凥	-12.5365
鴛鴦在梁戢其左翼	-12.5365
君子萬年永錫祚	-12.5365
骹	-12.5365
其帶伊絲其弁伊騏	-12.5365
監觀四方求民之莫	-12.5365
薑	-12.5366
八月載績	-12.5367
朝宿之邑	-12.5367
翩彼飛鴞	-12.5367
一言以蔽之	-12.5367
彭氏執中曰	-12.5367
挶	-12.5368
闌	-12.5368
籀	-12.5368
公言錫爵	-12.5368
戎雖小子而式𢎞大	-12.5369
皇矣上帝臨下有赫	-12.5369
坂	-12.5369
女心傷悲殆及公子同歸	-12.5369
抱布貿絲	-12.5369
豳居允荒	-12.5369
濟盈不濡軌	-12.5369
俾晝作夜	-12.5369
三千餘篇	-12.5369
擊鼓其鏜	-12.537
鞙	-12.537
大夫不均我從事獨賢	-12.537
眂	-12.537
趯	-12.537
乾鑿度	-12.537
從子于沃	-12.537
正始之道王化之基	-12.5371
杓	-12.5371
定申伯之宅	-12.5371
履之卑兮	-12.5371
大風有隧貪人敗類	-12.5371
黠	-12.5371
鴀	-12.5371
灘	-12.5371
舎旃舎旃	-12.5371
弁彼鸒斯	-12.5371
居鵲之成巢	-12.5371
他人有心予忖	-12.5371
楊園之道猗	-12.5371
籟	-12.5372
煞	-12.5372
悚	-12.5372
百夫有洫	-12.5372
倬彼甫田	-12.5372
炰鼈膾鯉	-12.5372
以辭害意	-12.5373
王事適我政事一埤	-12.5373
囟	-12.5373
我不敢傚我友自逸	-12.5373
答張逸云	-12.5373
覃及鬼方	-12.5373
孶	-12.5373
莫知我哀	-12.5373
聃	-12.5374
營營青蠅止于樊	-12.5374
我生之後逢此百罹	-12.5374
揚之水不流束蒲	-12.5374
無小無大從公于邁	-12.5374
醹	-12.5374
洹	-12.5375
婺	-12.5375
謀夫孔多是用不集	-12.5375
巧言如簧	-12.5375
鬣	-12.5376
髙山仰止景行行止	-12.5376
熂	-12.5376
湍	-12.5376
牧于坰野	-12.5376
山有嘉卉侯栗侯梅	-12.5376
串夷載路	-12.5376
沔彼流水其流湯湯	-12.5377
他山之石	-12.5377
何日斯沮	-12.5377
摭	-12.5377
茹藘在阪	-12.5378
捧	-12.5378
嚇	-12.5378
扡	-12.5378
瀦	-12.5378
無逝我梁無發我笱	-12.5378
顧氏起元曰	-12.5378
廣平曰原	-12.5378
慊	-12.5379
三萬七千五百	-12.5379
陳夀翁曰	-12.5379
借曰未知亦既抱子	-12.5379
未知臧否	-12.5379
深則厲淺則揭	-12.538
駕言徂東	-12.538
輜	-12.5381
噪	-12.5382
坫	-12.5382
比予于毒	-12.5382
酇	-12.5382
王流于彘	-12.5382
繶	-12.5383
寞	-12.5385
哀哉不能言匪舌是出	-12.5385
狐青裘	-12.5389
以兕角為	-12.539
椌	-12.5397
下莞上簟	-12.5464
鄠	-12.5526
苾	-12.5531
㕦	-12.5665
樝	-12.5668
鳲鳩在桑其子七兮	-12.5672
粳	-12.5672
小不忍以致大亂	-12.5673
逺送于野	-12.5673
凟	-12.5673
帚	-12.5673
戢其左翼	-12.5674
降爾遐福	-12.5674
或肆或將	-12.5674
有略其耜	-12.5675
鸜	-12.5676
兀	-12.5676
以妥以侑	-12.5676
假以溢我	-12.5676
千耦其耘	-12.5676
率履不越	-12.5676
妻煽方處	-12.5677
析薪如之何匪斧不克	-12.5677
式遄其歸	-12.5677
念昔先人	-12.5678
揚維北有斗不可以挹	-12.5679
以薅荼蓼	-12.5679
犖	-12.5679
式居婁驕	-12.5679
是類是禡	-12.5679
躅	-12.5679
招招舟子	-12.5679
不告于訩	-12.5679
篴	-12.568
頁	-12.568
𨗳	-12.568
燕笑語兮是以有譽處兮	-12.568
山有苞棣隰有樹檖	-12.568
元龜象齒大賂南金	-12.568
莫匪爾極	-12.568
嗟我懐人	-12.5681
吻	-12.5681
其雨其雨杲杲	-12.5681
風雷之變	-12.5681
贈之以勺藥	-12.5681
以我御窮	-12.5681
柞棫拔矣	-12.5682
王心載寧	-12.5682
式是南邦	-12.5682
徹申伯土田	-12.5682
祴	-12.5682
是饗是宜	-12.5682
式固爾猶淮夷卒獲	-12.5682
幂	-12.5682
嗟鳩兮無食桑葚	-12.5683
雖速我訟亦不女從	-12.5683
賔載手仇	-12.5683
肅肅宵征	-12.5683
鴥彼晨風	-12.5683
在原兄弟急難	-12.5683
胡臭亶時	-12.5683
龜蛇曰旐	-12.5684
乃合樂周南	-12.5684
清揚婉兮	-12.5684
英英白雲露彼菅茅	-12.5684
鍇	-12.5684
知臣下之勤勞	-12.5684
東人之子職勞不來	-12.5684
瞻彼中林侯薪侯蒸	-12.5684
曷不肅雝王姬之車	-12.5684
柞棫斯拔	-12.5684
式禮莫愆	-12.5684
或寢或訛	-12.5684
磔	-12.5685
緜緜其麃	-12.5685
未見君子憂心靡樂	-12.5685
佐禹治水	-12.5685
亂臣賊子	-12.5685
砌	-12.5685
厨	-12.5685
牂羊墳首	-12.5685
天監在下有命既集	-12.5686
冞	-12.5686
今此下民亦孔之哀	-12.5686
裴	-12.5686
饁彼南畆	-12.5687
彼譛人者	-12.5687
王奮厥武如震如怒	-12.5687
撲	-12.5687
邂	-12.5687
賃	-12.5687
京髙丘也	-12.5687
人知其一莫知其他	-12.5687
姻亞則無膴	-12.5687
昊天上帝則不我虞	-12.5687
季春薦鮪	-12.5688
子有車馬弗馳弗驅	-12.5688
解頤新語	-12.5688
士貳其行	-12.5688
東有甫草	-12.5688
匪怒伊教	-12.5688
子不我思豈無他士	-12.5689
仲氏吹篪	-12.5689
其死矣他人是愉	-12.569
父母孔邇	-12.569
栜	-12.569
獺祭魚	-12.569
澘	-12.5691
習習谷風維風及雨	-12.5691
牴	-12.5691
宋段昌武撰	-12.5691
不愧于人不畏于天	-12.5691
以寫我憂	-12.5692
鑾	-12.5692
廖	-12.5692
勦	-12.5692
葒	-12.5692
楠	-12.5692
哀哀父母生我勞瘁	-12.5692
穆穆厥聲	-12.5692
鴦	-12.5693
奄受北國	-12.5693
州厥貢	-12.5694
物其多矣維其嘉	-12.5694
有枤之杜	-12.5694
有饛簋飱	-12.5694
我征徂西至于艽	-12.5695
戒謹恐懼	-12.5696
魾	-12.5699
瞎	-12.5701
万	-12.5701
塼	-12.5713
蜓	-12.5968
网	-12.5974
玭	-12.5979
虌	-12.5983
鶌	-12.5985
鞍	-12.5985
遭州吁之難	-12.5989
睛	-12.5989
啐	-12.599
楓	-12.5993
矜矜兢兢	-12.5993
簴	-12.5993
鷲	-12.5994
叩	-12.5995
鱘	-12.5996
綢繆牖户	-12.5996
努	-12.5997
暴虎馮河	-12.5997
鶡	-12.5998
巧笑倩兮	-12.5998
彼雲漢為章于天	-12.5998
醮	-12.5999
其類維何室家之壼	-12.5999
以究王訩	-12.5999
瑁	-12.6
舍旃舍旃苟亦無然人之為言胡得焉	-12.6
瀍	-12.6
疃	-12.6
踶	-12.6001
豈曰無衣與子同袍	-12.6001
漢食貨志	-12.6001
嬛嬛在疚	-12.6002
迃	-12.6002
式夷式已無小人殆	-12.6002
且往觀乎洧之外洵訏	-12.6002
惴惴其慄	-12.6003
蘧	-12.6003
其軍三單	-12.6003
不忮不求	-12.6003
孔棘我圉	-12.6003
灸	-12.6003
羿	-12.6003
哀我人斯亦孔之嘉	-12.6003
靡愛斯牲	-12.6003
願言思伯甘心首疾	-12.6004
天立厥配	-12.6004
倪	-12.6004
鍵	-12.6004
兠	-12.6004
或耘或耔	-12.6004
發政施仁	-12.6004
野有死鹿白茅純	-12.6004
之死矢靡慝	-12.6004
國無鰥民	-12.6004
樂土樂土爰得我所	-12.6005
五版為堵	-12.6005
不遑啟處	-12.6005
豈敢愛之畏	-12.6005
居河之麋	-12.6005
如鋸齒	-12.6005
南有樛木葛藟縈	-12.6006
晜	-12.6006
蓼彼蕭斯零露濃濃	-12.6006
有䖍秉鉞	-12.6006
肢	-12.6006
遺一老俾守我王	-12.6007
耳屬于垣	-12.6007
璗	-12.6007
訐	-12.6007
升歌清廟下管象	-12.6007
懾	-12.6007
介以繁祉	-12.6007
擇有車馬以居徂向	-12.6007
豕犬雞	-12.6008
不顯亦臨無射亦保	-12.6008
桞	-12.6008
蒔	-12.6008
于以奠之宗室牖下	-12.6008
山夾水曰澗	-12.6008
心之憂矣不遑假寐	-12.6008
展我甥兮	-12.6008
肅肅鴇行	-12.6008
甋	-12.6008
無信人之言人實不信	-12.6008
雖則劬勞其究安宅	-12.6008
自我人居居	-12.6009
諸父兄弟備言燕私	-12.6009
我田既臧農夫之慶	-12.6009
呪	-12.6009
髧彼兩髦	-12.6009
有皇上帝伊誰云憎	-12.6009
之綱之紀燕及朋友	-12.6009
浄	-12.6009
埀	-12.6009
埴	-12.6009
㳂	-12.6009
焦氏易林	-12.6009
鬱彼北林	-12.601
撿	-12.601
批	-12.601
今者不樂逝者其亡	-12.601
平凉府	-12.601
如圭如璋	-12.6011
永觀厥成	-12.6011
觝	-12.6011
之子于歸言秣其駒	-12.6011
為絺為綌	-12.6011
謂爾遷于王都曰予未有室家	-12.6011
錢天錫云	-12.6011
一國之事繫一人之本謂之風	-12.6011
氾	-12.6011
彼月而食則維其常此日而食于何不臧	-12.6012
文定厥祥	-12.6012
爱	-12.6012
鵹	-12.6012
婦無公事休其蠶織	-12.6013
彼有罪予之佗	-12.6013
彤管有煒	-12.6013
鳲鳩在桑其子在梅	-12.6013
我出我車于彼牧	-12.6013
無獨斯畏	-12.6013
信誓旦旦	-12.6013
文王大明緜	-12.6013
伊誰云從維暴之云	-12.6014
欽定詩經傳說彚纂	-12.6014
冬日烈烈飄風發發	-12.6014
無以告我先王	-12.6014
既明且哲以保其身	-12.6014
既亟只且	-12.6014
胡安國云	-12.6015
不剛不柔	-12.6015
依彼平林有集維鷮	-12.6015
鴥彼飛隼率彼中陵	-12.6015
鐐	-12.6015
周邦咸喜戎有良翰	-12.6016
蓼蓼者莪匪莪伊蔚	-12.6017
爰有寒泉在浚之下	-12.6017
萬物盛多能備禮	-12.6018
不思舊姻	-12.602
楽	-12.6022
萬民靡不承	-12.6022
彎	-12.6022
楬	-12.6029
蜋	-12.6291
螇	-12.6306
􁉝	-12.631
於萬斯年	-12.6318
詩識名解卷	-12.6321
蚯	-12.6322
有女仳離	-12.6323
籜	-12.6325
綠兮衣兮	-12.6326
不騫不崩	-12.6326
繣	-12.6326
插	-12.6326
美目盼兮	-12.6326
崇朝其雨	-12.6327
終首章前段	-12.6327
繩其祖武	-12.6327
甄	-12.6328
九月叔苴	-12.6329
毛詩名物解卷	-12.6329
窰	-12.633
其人美且偲	-12.633
為酒為醴	-12.6331
芨	-12.6331
來游來歌	-12.6331
綰	-12.6331
窳	-12.6332
王舒保作	-12.6332
終窶且貧	-12.6332
俾爾多益以莫不庶	-12.6333
維鵜在梁不濡其咮	-12.6333
椒聊之實蕃衍盈匊	-12.6333
冬獵曰狩	-12.6333
陟彼阿丘言采其蝱	-12.6333
彼路斯何君子之車	-12.6333
元戎十乘	-12.6333
蛉	-12.6334
懵	-12.6334
南有嘉魚烝然汕汕	-12.6334
樂既和奏	-12.6334
何辜今之人	-12.6334
蠒	-12.6334
樂國樂國爰得我直	-12.6334
鳲鳩在桑其子在榛	-12.6335
麾之以肱畢來既升	-12.6335
哀我人斯亦孔之休	-12.6335
籩豆靜嘉	-12.6335
賫	-12.6336
蓼彼蕭斯零露瀼瀼	-12.6336
爆	-12.6336
赳赳武夫公侯干城	-12.6336
周公東征四國是吪	-12.6336
醋	-12.6337
侯誰在矣張仲孝友	-12.6337
奉時辰牡辰牡孔碩	-12.6337
邲	-12.6337
曙	-12.6337
楊柳依依	-12.6337
慼	-12.6337
闐	-12.6337
敝笱在梁其魚魴鱮	-12.6337
緜緜葛藟在河之涘	-12.6338
潏	-12.6338
蓼彼蕭斯零露泥泥	-12.6338
磚	-12.6338
殺時犉牡	-12.6338
龍見而雩	-12.6338
神保聿歸	-12.6338
四鍭既鈞	-12.6338
茷	-12.6338
節彼南山有實其猗	-12.6338
古者於旅也語	-12.6338
我送舅氏曰至渭陽	-12.6339
海外有截	-12.6339
侯氏燕胥	-12.6339
宋范處義撰	-12.634
后稷之孫實維大	-12.634
君子有徽猷小人與屬	-12.634
踧	-12.634
既詒我肄	-12.634
五日為期六日不詹	-12.6341
桺	-12.6341
王曰叔父建爾元子	-12.6341
徐氏光啓曰	-12.6341
無廢朕命	-12.6341
誰其尸之有齊	-12.6341
念國之為虐	-12.6341
在泮獻功	-12.6341
載弄之瓦	-12.6341
勉爾遁思	-12.6341
墓門有梅有鴞萃止	-12.6341
畵	-12.6341
騮	-12.6341
遇犬獲之	-12.6341
僉	-12.6342
參差荇菜左右芼	-12.6342
頺	-12.6342
魴魚赬尾	-12.6342
有捄天畢載施之行	-12.6342
筯	-12.6342
視彼驕人矜此勞人	-12.6342
醯	-12.6342
建亥之月	-12.6342
鯽	-12.6342
知稼穡之艱難	-12.6342
東門之楊其葉牂牂	-12.6342
信彼南山維禹甸	-12.6342
鉉	-12.6342
未見君子寺人之令	-12.6343
以綏後禄	-12.6343
彼汾一曲言采其藚	-12.6343
勝殷遏劉	-12.6343
公叔祖類	-12.6343
我如不我克	-12.6343
豕牝曰豝	-12.6343
雖則七襄不成報章	-12.6343
九夫為井	-12.6344
殷其靁在南山之下	-12.6344
衆維魚矣	-12.6344
齟	-12.6344
懃	-12.6344
縵	-12.6344
投桃報李	-12.6345
靡聖管管	-12.6345
無言不讎	-12.6345
裳裳者華其葉湑	-12.6345
豈弟君子民之攸歸	-12.6345
涇以渭濁	-12.6346
我友敬矣讒言其興	-12.6346
爗	-12.6346
於乎前王不忘	-12.6346
無競維人四方其訓之	-12.6346
甲子昧爽	-12.6346
牘	-12.6347
莕	-12.6347
是究是圖亶其然乎	-12.6347
朱英緑縢	-12.6347
我行其野言采其葍	-12.6347
可以染絳	-12.6347
陶復陶穴	-12.6347
蘀兮蘀兮風其漂	-12.6348
雖則如荼匪我思且	-12.6348
廕	-12.6348
治直吏反	-12.6349
諤	-12.6349
昃	-12.6349
無此疆爾界	-12.6349
民之靡盈誰夙知而莫	-12.6349
婦有長舌維厲之階	-12.6349
匪車不東	-12.635
不我遐棄	-12.635
習習谷風維風及頽	-12.6351
道之云逺曷云能來	-12.6351
装	-12.6351
畋	-12.6352
菙	-12.6354
痺	-12.6355
蒍	-12.6355
求爾新特	-12.6358
緹	-12.6358
雄雉于飛泄泄	-12.6358
鯷	-12.6362
輖	-12.6363
鎗	-12.6366
入焉又東	-12.6372
槿	-12.6654
嘑	-12.6654
䄠	-12.6662
罅	-12.6662
稬	-12.6663
詩傳旁通卷	-12.6666
門塾之基	-12.6666
芧	-12.6668
螈	-12.667
蓼彼蕭斯	-12.6671
㢮	-12.6673
酌先祖之道以養天下	-12.6673
維鵜在梁	-12.6673
罭	-12.6674
犅	-12.6674
瞻望弗及泣涕如雨	-12.6675
世有哲王	-12.6675
雉之朝雊	-12.6676
王國克生維周之楨	-12.6676
載用有嗣	-12.6676
淑人君子其儀一兮其儀一兮心如結	-12.6676
􁈸	-12.6677
我戍未定靡使歸聘	-12.6677
搶	-12.6677
豈敢愛之畏我諸兄	-12.6677
彼爾維何維常之華	-12.6677
打	-12.6677
旐維旟矣室家溱溱	-12.6678
胡不自替職兄	-12.6678
刳	-12.6678
如火烈烈則莫我敢曷	-12.6678
掛	-12.6678
六月食鬱及薁	-12.6678
築城伊淢	-12.6679
闑	-12.6679
橈	-12.6679
毿	-12.6679
哆兮侈兮	-12.6679
周公東征四國是遒	-12.668
為豆孔庶	-12.668
踖	-12.668
鰷鱨鰋鯉	-12.668
既破我斧又缺我斨	-12.6681
承筐是將	-12.6681
湣	-12.6681
鞸	-12.6681
樂郊樂郊誰之永號	-12.6681
揚之水白石皓皓	-12.6681
鸍	-12.6681
產	-12.6681
蓻	-12.6681
維鵲有巢維鳩居之	-12.6681
見君子云胡不瘳	-12.6681
嘽嘽駱馬	-12.6682
秋而載嘗	-12.6682
六日不詹	-12.6683
握粟出卜	-12.6683
旺	-12.6683
獢	-12.6683
永矢弗諼	-12.6683
膟	-12.6683
擇三有事亶侯多藏	-12.6683
五齊三酒	-12.6683
下民或敢侮予	-12.6683
車服不繫其夫	-12.6683
蒞	-12.6683
彼蒼者天	-12.6683
鮒	-12.6684
澹	-12.6684
羣臣進戒嗣王	-12.6684
輞	-12.6684
猫	-12.6684
緜緜葛藟在河之漘	-12.6684
麽	-12.6684
妻如何匪媒不得	-12.6684
東門之楊其葉肺肺	-12.6684
杉	-12.6684
學有緝熈于光明	-12.6684
簑	-12.6684
匪上帝不時	-12.6684
交交黄鳥止于	-12.6684
神具醉止	-12.6685
鯈	-12.6685
我育我顧我復我出入腹我	-12.6685
無田甫田維莠桀桀	-12.6685
悠悠我里亦孔之痗	-12.6685
識者更詳	-12.6686
周公皇祖亦其福女	-12.6686
彼都人士充耳琇	-12.6686
喓喓草蟲趯趯阜螽未見君子憂心忡忡	-12.6686
敬之敬之天維顯思	-12.6686
有周不顯帝命不時	-12.6686
方命厥后奄有九有	-12.6686
在彼無惡在此無斁	-12.6686
爰及姜女聿來胥宇	-12.6686
猲	-12.6686
爾還而入我心易	-12.6686
蟆	-12.6686
曷云其還政事愈蹙	-12.6686
用有成維周之禎	-12.6687
野有蔓草零露瀼瀼	-12.6687
肅肅宵征夙夜在公寔命不同	-12.6687
嫠	-12.6687
弗曳弗婁	-12.6688
嘒彼小星維參	-12.6688
王命仲山甫城彼東方	-12.6688
振振鷺鷺于下	-12.6688
好樂無荒良士蹶蹶	-12.6688
矣以望楚矣望楚與堂景山與京	-12.6688
桑之落矣其黄而隕	-12.6688
赤豹黄羆	-12.6688
嶭君章句	-12.6688
君子于役如之何勿思	-12.6688
畚	-12.6689
有瞽有瞽在周之庭	-12.6689
國百里今也日蹙	-12.6689
侵自阮疆	-12.6689
勘	-12.6689
無棄爾勞	-12.6689
翹翹錯薪言刈其蔞	-12.6689
美如英殊異乎公行	-12.6689
或燕燕居息或盡瘁事國	-12.669
所可讀也言之辱也	-12.669
君子作歌維以告哀	-12.669
輾轉伏枕	-12.669
我不見兮言從之邁	-12.669
君子于役不日不月曷其有佸	-12.669
言旋言歸復我諸父	-12.669
天下蕩蕩無綱紀文章	-12.669
政散民流而不可止	-12.6691
有頍者弁實維何期	-12.6691
桎	-12.6691
君子于役不知其期曷至哉	-12.6691
不我能慉	-12.6691
隰桑有阿其葉有沃	-12.6692
羒	-12.6692
哀我征夫朝夕不暇	-12.6692
哀我征夫獨為匪民	-12.6692
季冬薦魚春獻鮪	-12.6692
菡	-12.6692
彤弓弨兮受言載	-12.6692
瞻彼中林甡甡	-12.6693
蹲	-12.6693
彼泉水載清載濁	-12.6693
王于出征以佐天子	-12.6693
杌	-12.6694
時邁其邦昊天其子之	-12.6694
乃求千斯倉乃求萬斯箱	-12.6694
彼求我則如不我得執我仇仇亦不我力	-12.6694
菁菁者莪在彼中沚	-12.6695
仝	-12.6695
徳音孔膠	-12.6695
蒺	-12.6695
票	-12.6695
增釋許氏曰	-12.6695
莫髙匪山	-12.6696
采采芣苢薄言掇	-12.6696
有子七人母氏勞苦	-12.6697
愀	-12.6699
苃	-12.67
雄雉于飛下上	-12.6701
卉木萋止女心悲止征夫歸止	-12.6702
魯道有蕩	-12.7014
熬	-12.7023
褕	-12.7027
譯	-12.7028
窄	-12.7028
鶺	-12.7028
謔浪笑敖	-12.7029
蘴	-12.7031
貘	-12.7031
誰謂河廣一葦	-12.7032
靡有孑遺	-12.7032
騜	-12.7032
䆒	-12.7033
梭	-12.7033
鑮	-12.7033
轘	-12.7033
敝笱在梁其魚魴鰥	-12.7033
薙	-12.7033
簮	-12.7034
匪我言耄	-12.7034
刺朝廷之不知	-12.7034
淑人君子正是國人正是國人胡不萬年	-12.7034
首如飛蓬	-12.7034
共武之服以定王國	-12.7035
周王于邁六師及之	-12.7035
大人占之衆維魚矣實維豐年	-12.7035
祝鳩氏司徒	-12.7035
星言夙駕	-12.7035
職競用力	-12.7036
岊	-12.7036
因壘而降	-12.7036
嶃	-12.7036
澡	-12.7036
予曰有疏附	-12.7037
酗	-12.7037
于嗟女兮無與士耽	-12.7037
采薇采薇薇亦柔止	-12.7037
百室盈止婦子寧止	-12.7038
誰侜予美心焉惕惕	-12.7038
蔽芾甘棠勿翦勿拜	-12.7038
踏	-12.7038
老夫灌灌	-12.7038
陟彼岡兮瞻望兄	-12.7038
私人之子百僚是試	-12.7038
䳭	-12.7038
敝笱在梁其魚唯唯	-12.7038
蘋蘩蕰藻之菜	-12.7039
咀	-12.7039
渚小洲也	-12.7039
大曰鴻小曰鴈	-12.7039
南山有桑北山有楊	-12.7039
淇水在右泉源在左巧笑之瑳	-12.7039
東方之月兮彼姝者子在我闥	-12.7039
罵	-12.704
熖	-12.704
頋	-12.704
莩	-12.704
刑于寡妻至于兄弟以御于家邦	-12.704
畤	-12.704
破斧缺斨	-12.704
罃	-12.704
若載馳載驅周爰咨度	-12.704
也展如之人兮邦之媛	-12.704
槍	-12.704
裳錦褧裳衣錦褧衣叔兮伯兮駕予與歸	-12.7041
航	-12.7041
惽	-12.7041
杪	-12.7041
自西徂東周爰執事	-12.7041
取譬不逺昊天不忒	-12.7041
維羊維牛	-12.7041
伐柯伐柯其則不逺	-12.7041
秉國之均四方是維天子是毗	-12.7041
咈	-12.7042
爾牲則具	-12.7042
藂	-12.7042
鹿鳴四牡皇華	-12.7042
無貳爾心	-12.7042
子兮子兮如此邂逅何	-12.7042
靡國不到	-12.7042
是生后稷降之百福	-12.7042
白鳥翯翯	-12.7042
狐貉之厚以居	-12.7043
箙	-12.7043
鉛	-12.7043
之子歸不我以不我以其後也悔	-12.7043
召彼故老訊之占夢	-12.7043
㮣	-12.7043
淮有三洲憂心且妯	-12.7043
虞人翼五豝以待	-12.7043
鬷假無言	-12.7043
獨寐寤歌永矢弗過	-12.7043
之行有死人尚或墐	-12.7043
舩	-12.7043
有萇楚猗儺其實夭之沃沃樂子之無室	-12.7043
繼猶判渙	-12.7043
嗟爾朋友予豈不知而作	-12.7043
屇	-12.7043
能左右之曰以	-12.7044
五百人為旅	-12.7044
兩手曰匊	-12.7044
辣	-12.7044
采苦采苦首陽之下	-12.7044
淑慎爾止不愆于儀	-12.7044
皎皎白駒食我場藿	-12.7044
甎	-12.7044
鴻鴈于飛集于中澤	-12.7045
以釣于淇	-12.7045
山有樞隰有榆	-12.7045
矣維其有章矣是以有慶	-12.7045
錫兹祉福	-12.7045
慷	-12.7045
匪言不能胡斯畏忌	-12.7045
民今方殆視天夢夢	-12.7045
子兮子兮如此粲者何	-12.7045
行邁靡靡中心如醉	-12.7045
豈其食魚必河之鯉豈其取妻必宋之子	-12.7046
有命自天命此文王于周于京	-12.7046
脃	-12.7046
發言盈庭誰敢執其咎	-12.7046
悠悠昊天曰父母且	-12.7046
施于中逵	-12.7046
公路公行公族	-12.7046
所以風天下而正夫婦也	-12.7046
渤	-12.7046
君子信讒如或醻	-12.7046
牆有茨不可襄也	-12.7046
遵彼汝墳伐其條枚	-12.7046
王事靡盬不遑將母	-12.7046
告爾舊止	-12.7047
升彼大阜從其羣醜	-12.7047
焱	-12.7047
我行其野言采其蓫	-12.7047
紬	-12.7047
座	-12.7047
彼其之子不與我戍許	-12.7047
其臧則具是違謀之不臧則具是依	-12.7048
潸	-12.7048
惠而好我攜手同車	-12.7048
爾不我畜復我邦家	-12.7048
齬	-12.7048
側弁之俄屢舞傞傞	-12.7048
劉熙釋名	-12.7048
􁃿	-12.7049
楣	-12.7049
駉駉牡馬在坰之野薄言駉者有騅	-12.7049
凡此飲酒或醉或否	-12.7049
在爾室尚不愧于屋漏	-12.705
駉駉牡馬在坰之野薄言駉者有駰	-12.705
言天下之事形四方之風謂之雅	-12.705
苡	-12.705
彤弓弨兮受言櫜	-12.705
䱷	-12.705
上帝板板下民卒癉	-12.705
並驅從兩肩兮	-12.7051
之君子有酒酌言酢	-12.7051
維此仲行百夫之防	-12.7051
則不可得有靦	-12.7052
厥初生民時維姜嫄	-12.7052
其直如矢君子所履小人所視	-12.7053
不顯申伯王之元舅文武是憲	-12.7053
秪	-12.7053
自古在昔先民有作温恭朝夕執事有恪	-12.7053
煬	-12.7053
􁈰	-12.7054
夙夜在公在公明明	-12.7055
我其夙夜畏天之威于時保之	-12.7055
子之昌兮遭我乎峱之陽兮	-12.7056
禇	-12.7069
螰	-12.7375
杠	-12.7379
翱	-12.7385
玃	-12.7385
予授子之粲兮	-12.7393
葹	-12.7394
爾卜爾筮	-12.7397
伹	-12.7399
巒	-12.74
無浸穫薪	-12.7401
狽	-12.7401
􁁊	-12.7404
顏	-12.7404
靜言思之不能奮飛	-12.7404
田萊多荒	-12.7404
天保定爾俾爾戩	-12.7404
懋	-12.7405
烝在桑野	-12.7405
獯	-12.7405
佛時仔肩	-12.7405
訏謨定命逺猶辰告	-12.7406
陵我陵我阿無飲我泉我泉我池	-12.7406
㦯	-12.7406
焰	-12.7406
懕	-12.7406
曰歸曰歸心亦憂止憂心烈烈	-12.7406
鋪敦淮濆	-12.7407
鳲鳩在桑其子在棘淑人君子其儀不忒	-12.7407
日居月諸東方自出父兮母兮畜我不卒	-12.7407
鷞	-12.7407
彼蕭斯零露湑	-12.7407
十夫有溝	-12.7407
有厭其傑	-12.7407
蔽芾甘棠勿翦勿敗	-12.7407
微子來見祖廟	-12.7407
田祖有神秉畀炎火	-12.7408
擠	-12.7408
伊其相謔	-12.7408
如茨如梁	-12.7408
駛	-12.7408
周爰咨諏	-12.7408
火烈具舉	-12.7408
燃	-12.7408
不稂不莠	-12.7408
予美亡此誰與獨處	-12.7408
彼諸姬聊與之謀	-12.7408
駈	-12.7408
枵	-12.7409
萋兮斐兮	-12.7409
豐水東注維禹之績四方攸同皇王維辟	-12.7409
孑孑干旌在浚之城	-12.7409
雖則佩韘能不我甲	-12.7409
顔氏家訓	-12.7409
自召祖命	-12.7409
帝命式于九圍	-12.7409
爾用憂謔	-12.7409
疋	-12.741
覿	-12.741
景員維河	-12.741
蟾	-12.741
陳錫哉周侯文王孫子	-12.741
竢	-12.741
稂童粱	-12.741
􁊌	-12.741
公之媚子從公于狩	-12.741
侁	-12.7411
置鸞於鑣	-12.7411
黧	-12.7411
其泣矣啜其泣矣何嗟及矣	-12.7411
縹	-12.7411
雉離于羅	-12.7411
修車馬備器械	-12.7412
爾羊來思其角濈濈	-12.7412
蓼蓼者莪匪莪伊蒿	-12.7412
皇父孔聖作都于向	-12.7412
僮	-12.7412
游蕩無度	-12.7412
躬儉節用	-12.7412
琰	-12.7412
彼淮夷來獻其琛	-12.7412
奉持而進之	-12.7412
兮在我闥兮履我	-12.7412
執競武王無競維烈不顯成康上帝是皇	-12.7413
我躬不閱遑恤我後	-12.7413
其室則邇其人甚逺	-12.7413
醵	-12.7413
裳裳者華或黄或白	-12.7414
兮玼兮其之翟	-12.7414
天子命我城彼朔方赫赫南仲玁狁于襄	-12.7414
螮	-12.7414
㩀	-12.7414
宣昭義問有虞殷自天	-12.7414
隋經籍志	-12.7414
浣	-12.7414
乃命魯公俾侯于東錫之山川土田附庸	-12.7414
揚之水白石鑿鑿	-12.7414
未見君子憂心如醉如何如何忘我實多	-12.7414
蕢	-12.7414
嵇	-12.7414
有狐綏綏在彼淇側心之憂矣之子無服	-12.7415
有美一人婉如清揚邂逅相遇與子偕臧	-12.7415
爾牛來思其耳濕濕	-12.7415
未見君子憂心欽欽如何如何忘我實多	-12.7415
怨耦曰仇	-12.7415
蜉蝣之翼采采衣服	-12.7415
既克有定靡人弗勝	-12.7415
疈	-12.7415
無信人之言人實迋	-12.7415
三夀作朋	-12.7415
斯征夙興夜寐無忝爾所生	-12.7415
隂白雜毛曰駰	-12.7415
敬恭明神宜無悔怒	-12.7415
親結其縭	-12.7415
復降在原何以舟	-12.7415
珩璜琚瑀	-12.7415
毛傳興也朱註比也	-12.7416
如彼築室于道謀是用不潰于成	-12.7416
纉禹之緒	-12.7416
載飛載鳴我日斯邁而月	-12.7416
保彼東方魯邦是常不虧不崩不震不騰	-12.7416
彼其之子美如玉美如玉殊異乎公族	-12.7416
戎狄是膺荆舒是懲則莫我敢承	-12.7416
祭以清酒從以騂	-12.7417
梱	-12.7417
嵗聿云莫	-12.7417
儘	-12.7417
如彼雨雪先集維霰	-12.7418
應應對之應	-12.7418
尻	-12.7418
無啄我黍此邦之人不可與處	-12.7418
之什詁訓傳第二十	-12.7419
燕婉之求籧篨不殄	-12.7419
宵雅肄三	-12.7419
黍稷薿薿	-12.7419
野有蔓草零露漙	-12.7419
豈弟君子俾爾彌爾性純嘏爾常矣	-12.7419
虎維此鍼虎百夫之禦	-12.7419
率見昭考以孝以享	-12.7419
我有嘉客亦不夷懌	-12.742
橜	-12.742
駉駉牡馬在坰之野薄言駉者有驒	-12.7421
狂童恣行	-12.7421
綘	-12.7421
醉言舞于胥樂	-12.7421
樂人宿縣	-12.7421
敶	-12.7422
濼	-12.7424
隰桑有阿其葉有幽	-12.7424
天之牖民如壎	-12.7425
髠	-12.7425
娩	-12.7425
亂我籩豆屢舞僛僛	-12.7426
南山律律飄風弗弗	-12.7426
牾	-12.7427
哿矣能言巧言如流俾躬處休	-12.7427
佯	-12.7427
兮遭我乎峱	-12.7428
藹藹王多吉人維君子命	-12.7428
凡百君子莫肯用訊	-12.7431
誠之不可揜	-12.7433
𦍑	-12.7435
噩	-12.7437
泉源在左淇水在右	-12.7597
赫兮咺兮	-12.7779
餈	-12.778
莅	-12.7781
𣙗	-12.7781
檴	-12.7781
佇立以泣	-12.7782
兮行與子逝兮	-12.7782
彼南山維石巖巖赫赫師尹民具爾瞻	-12.7783
吳江陳啟源撰	-12.7784
我朱孔陽	-12.7784
􁉄	-12.7785
江漢浮浮武夫滔滔	-12.7785
枓	-12.7787
朹	-12.7787
醆	-12.7788
鵶	-12.7788
匪陽不晞	-12.7789
矢其文徳洽此四國	-12.7789
瑟兮僴兮	-12.7789
嶡	-12.7789
廡	-12.7789
兮季女斯飢	-12.7789
裙	-12.7789
天保定爾以莫不興如山如阜如岡如陵	-12.779
荒湛于酒	-12.779
葆	-12.779
臟	-12.779
何辜于天我罪伊何心之憂矣云如之何	-12.7791
興居無節號令不時	-12.7791
翶	-12.7791
投我以木李報之以瓊玖	-12.7791
邘	-12.7792
楚茨信南山甫田大田	-12.7792
䧏	-12.7792
赫赫師尹不平謂何天方薦	-12.7792
無冬無夏值其鷺翿	-12.7793
豈無服馬不如叔也洵美且武	-12.7793
今也每食不飽	-12.7793
好奢而任小人	-12.7793
送我乎淇之上	-12.7793
有杕之杜生于道周	-12.7793
猾	-12.7793
謾	-12.7793
睪	-12.7793
晷	-12.7794
溥彼韓城燕師所完	-12.7794
謂地蓋厚不敢不蹐	-12.7794
投我以木瓜	-12.7794
則百斯男	-12.7794
庶見素衣兮我心傷悲兮聊與子同歸兮	-12.7794
老馬反為駒	-12.7794
樂只君子天子葵之	-12.7794
至誠樂與賢者共之	-12.7794
南有樛木葛藟荒之樂只君子福履將之	-12.7794
公尸來止熏熏	-12.7794
酒醴維醹	-12.7794
跟	-12.7795
爐	-12.7795
既克淮夷孔淑不逆	-12.7795
左執簧右招我由房	-12.7795
將仲子兮無踰我園無折我樹檀	-12.7795
日居月諸出自東方乃如之人兮	-12.7795
曰予不戕	-12.7795
天降罪罟蟊賊内訌	-12.7796
東方之日兮彼姝	-12.7796
劵	-12.7796
匪來貿絲來即我謀	-12.7796
觖	-12.7796
皇尸命工祝	-12.7796
王與族人燕	-12.7796
無害我田穉	-12.7796
契契憂苦	-12.7796
維熊維羆男子之祥維虺維蛇女子之祥	-12.7796
願言思子中心養養	-12.7796
俾民稼穡有稷有黍有稻有秬	-12.7796
湮	-12.7796
嬌	-12.7796
嗟嗟臣工敬爾在公王釐	-12.7796
田間詩學卷	-12.7796
民亦勞止汔可小安惠此中國國無有殘	-12.7796
葛之覃兮	-12.7796
食之飲之君之宗之	-12.7796
魚在在藻依于其蒲王在在鎬有那	-12.7797
吉夢維何維熊維羆	-12.7797
藨	-12.7797
下以風刺上	-12.7797
維柞之枝	-12.7797
之良馬五之彼姝者子何以予	-12.7797
征以中垢	-12.7797
汎彼柏舟在彼河側髧彼兩髦實維我特	-12.7797
伐柯如何匪斧不克取	-12.7797
獨居憂民莫不逸我獨不敢休天命不徹	-12.7797
姒嗣徽音則百斯男	-12.7797
我龜既厭不我告猶	-12.7797
赫赫炎炎云我無所大命近止靡瞻靡顧	-12.7797
兮不與我食兮維子之故使我不能息兮	-12.7798
彼行葦牛羊勿踐履方苞方體維葉泥泥	-12.7798
既醉而出並受其福	-12.7798
呦呦鹿鳴食野之芩	-12.7798
罪罟不收靡有夷瘳	-12.7798
莫遂莫達	-12.7798
豈弟君子俾爾彌爾性似先公酋	-12.7798
序賔以不侮	-12.7798
錘	-12.7798
昊天上帝則不我遺胡不相畏先祖于摧	-12.7798
無罪無辜亂如此憮	-12.7799
諸侯一娶九女	-12.7799
于牆外禦其務	-12.7799
荼蓼朽止黍稷茂	-12.7799
往近王舅	-12.7799
此大邦克順克比	-12.7799
誰因誰極	-12.7799
殷鑒不逺在夏后之世	-12.78
無忝皇祖式救爾後	-12.78
如匪行邁謀是用不得于道	-12.78
施衿結帨	-12.78
詩者其知道乎	-12.78
誕我祀如何或舂	-12.78
呦呦鹿鳴食野之苹	-12.78
宀	-12.78
毋逝我梁毋發我笱	-12.78
念我獨兮我事孔庶心之憂矣憚	-12.7801
矣有女仳離條其歗	-12.7801
爾游矣優游爾休矣	-12.7801
質爾人民謹爾侯度用戒不虞	-12.7801
政事外攘夷狄復文武之	-12.7801
鄴	-12.7801
琊	-12.7801
無思百憂不出于熲	-12.7801
颺	-12.7801
扄	-12.7801
䖍共爾位	-12.7801
泂酌彼行潦挹彼注兹可以濯罍	-12.7801
甲士三人歩卒七十二人	-12.7801
憂心悄悄愠于羣小	-12.7802
俳	-12.7802
福善禍淫	-12.7802
如彼飛蟲時亦弋獲	-12.7802
有熊有羆	-12.7802
我始者不如今云不我可	-12.7802
申伯信邁王餞	-12.7802
斯翼如矢斯棘如鳥斯革	-12.7803
震驚徐方如雷如霆徐方震驚	-12.7803
不遐有愆	-12.7803
詹與瞻同	-12.7803
潛雖伏矣亦孔之炤	-12.7803
皎皎白駒在彼空谷生芻	-12.7803
吉甫作誦其詩孔碩其風肆好以贈申伯	-12.7803
是正直神之聽之介爾景福	-12.7803
蓲	-12.7804
維此哲人謂我劬勞維彼愚人謂我宣驕	-12.7804
厝	-12.7804
道之云逺我勞如何	-12.7804
瞻彼中原其祁孔有	-12.7804
矣遐不謂矣中心藏之何日忘之	-12.7804
嗟爾君子無恒安息靖共爾位好	-12.7804
申伯還南謝于誠歸	-12.7804
惠而好我攜手同歸	-12.7804
㬰	-12.7805
言念君子載寢載興厭厭	-12.7805
艽	-12.7805
陳際泰云	-12.7805
諠	-12.7806
我不見兮云何盱	-12.7806
營營青蠅止于榛	-12.7806
公子皆信厚如麟趾之時	-12.7807
生芻一束	-12.7807
民之無良相怨一方	-12.7807
蒭	-12.7807
王氏志長曰	-12.7808
陌韻亦叶藥	-12.7808
晃	-12.7808
無聲允矣君子展也大成	-12.7808
苕之華其葉青青	-12.7808
昜	-12.7808
韁	-12.7808
㐫	-12.7809
茒	-12.7809
豐水有芑武王豈不仕	-12.7809
祈父予王之爪士	-12.7809
裨	-12.7809
鎋	-12.781
漪	-12.781
日月陽止女心傷止征夫遑止	-12.7813
扊	-12.7813
眚	-12.7814
扅	-12.7814
膋以升臭	-12.7816
鳲	-12.7896
乃安斯寢	-12.7921
啻	-12.814
琄	-12.8179
餅	-12.818
烰	-12.818
菩	-12.8181
粤	-12.8182
陳古義以刺今	-12.8184
洶	-12.8185
巛	-12.8186
蘂	-12.8186
冪	-12.8186
誰謂雀無角	-12.8186
載獫歇驕	-12.8188
梡	-12.8188
誾	-12.8188
萩	-12.8188
漉	-12.8188
嘔	-12.8188
件	-12.8188
胡瞻爾庭	-12.8189
迨我暇矣飲此湑矣	-12.8189
于彼原隰駪駪	-12.8189
周人以諱事神	-12.8189
黍稷我黍與與	-12.8189
緇衣之好兮敝予又改造	-12.8189
䄖	-12.819
麝	-12.819
檕	-12.819
籓	-12.819
石泉縣知縣姜炳璋撰	-12.819
伐戎至岐	-12.819
爾羊來思矜矜兢兢不騫不崩	-12.8191
磊	-12.8191
逌	-12.8191
何以速我獄雖速我獄室家不足	-12.8191
肆戎疾不殄	-12.8191
遡游從之宛在水中沚	-12.8191
言仁而不遇也	-12.8191
不稼不穡胡取禾三百億兮不狩不獵胡	-12.8192
實堅實好	-12.8192
雖曰匪予既作爾歌	-12.8192
天子錫有功諸侯也	-12.8192
人之無良我以為兄	-12.8192
實方實苞	-12.8192
蹼	-12.8192
優哉游哉亦是戾矣	-12.8192
晡	-12.8193
誕彌厥月先生如達	-12.8193
射王中肩	-12.8193
邪似嗟反	-12.8193
爰采唐矣	-12.8193
蟀	-12.8193
蠶月條桑	-12.8193
菜左右流之窈窕淑女寤寐求之	-12.8193
舎命不渝	-12.8194
庶見素冠兮棘人欒欒	-12.8194
既破我斧又缺我錡	-12.8194
閔既多受侮	-12.8194
者子在我室兮在我室兮履我即兮	-12.8195
上天之載無聲無臭儀刑文王萬邦作孚	-12.8195
戟	-12.8195
素絲祝之良馬六之彼姝者子何以告	-12.8195
王命南仲往城于方出車彭彭	-12.8195
􁈱	-12.8195
如彼泉流無淪胥以敗	-12.8195
兮瞻望父兮父曰嗟	-12.8195
呦呦鹿鳴食野之蒿	-12.8195
手舞足蹈	-12.8195
瑯	-12.8196
周公東征四國是皇哀我人斯亦孔之將	-12.8196
集于苞桑王事靡盬不能	-12.8196
既破我斧又缺我銶	-12.8196
葘	-12.8196
池之竭矣不云自頻泉之竭矣不云自中	-12.8196
誰之思西方美人彼美人兮西方之人兮	-12.8196
矣條其歗矣遇人之不淑矣	-12.8196
凑	-12.8197
縞冠素紕	-12.8197
心之憂矣於我歸息	-12.8197
王赫斯怒	-12.8197
兮在城闕兮一日不見如三月兮	-12.8197
維鵲有巢維鳩方之之子于歸百兩將之	-12.8197
􁉊	-12.8197
五曰雅六曰頌	-12.8197
侵鎬及方	-12.8197
有扁斯石	-12.8197
民亦勞止汔可小息惠此京師以綏四國	-12.8198
寴	-12.8198
天之降罔維其優矣人之云亡心之憂矣	-12.8198
震電不寧不令	-12.8198
禯	-12.8198
自塵兮無思百憂	-12.8198
兮顧瞻周道中心怛	-12.8198
窬	-12.8198
鶋	-12.8198
揚之水不流束薪終鮮兄弟維予二人	-12.8198
不祥威儀不類人之云亡邦國殄瘁	-12.8198
彼狡童兮不與我	-12.8199
靡明靡晦	-12.8199
子有廷内弗洒弗埽	-12.8199
卭有㫖鷊	-12.8199
挈壺氏不能掌其職	-12.8199
劔	-12.8199
薹	-12.8199
昔我往矣日月方除	-12.8199
男行而女不隨	-12.8199
反予來赫	-12.8199
實右序有周薄言震之莫不震疊	-12.8199
嘅其嘆矣遇人之艱難矣	-12.8199
肅肅謝功召伯營之烈烈征師召伯成之	-12.8199
葛之覃兮施于中谷	-12.8199
胡能有定寧不我報	-12.8199
時處處于時廬旅于時言言于時語語	-12.8199
彼黍離離彼稷之穗	-12.8199
啞	-12.8199
羔裘豹飾孔武有力彼其之子邦之司直	-12.8199
子不我思豈無他人狂童之狂也且	-12.8199
覈	-12.8199
有梅其實七兮求我庶士迨其吉兮	-12.8199
髓	-12.82
肅肅鴇翼集于苞棘王事靡盬不能	-12.82
竺	-12.82
中冓之言不可詳也所可詳也言之長也	-12.82
振振公姓于嗟麟兮	-12.82
而長兮抑若揚兮	-12.82
柔逺能邇以定我王	-12.8201
暌	-12.8201
惙	-12.8201
湛湛露斯在彼豐草厭厭夜飲在宗載考	-12.8201
以禘禮祀周公	-12.8201
旴	-12.8201
天生烝民其命匪諶	-12.8201
卹	-12.8202
設業設虡	-12.8202
豈曰無衣六兮不如子之衣安且燠	-12.8202
鼔瑟鼔琴	-12.8202
蛗	-12.8202
有杕之杜生于道左	-12.8202
商邑翼翼四方之極赫赫厥聲濯濯厥靈	-12.8202
交龍之旂	-12.8202
餫	-12.8202
蟋蟀在堂役車其休今我不樂日月其慆	-12.8202
祍	-12.8202
維彼不順自獨俾臧自有肺腸俾民卒狂	-12.8202
皇尸載起	-12.8202
簾	-12.8202
昊天曰明及爾出王昊天曰旦及爾游衍	-12.8203
將叔無狃戒其傷女	-12.8203
􁉲	-12.8203
古訓是式威儀是力天子是若明命使賦	-12.8203
發彼小豝	-12.8203
幪	-12.8203
從孫子仲平陳與宋不我以歸憂心有忡	-12.8203
葛之覃兮施于中谷維葉莫莫是刈	-12.8203
及彼南夷莫不率從莫敢不諾魯侯是若	-12.8203
念兹皇祖陟降庭	-12.8203
東風謂之谷風	-12.8203
七萬五千人	-12.8203
䂓	-12.8204
澳	-12.8204
如飛如翰如江如漢如山之苞	-12.8204
隰桑有阿其葉有難	-12.8204
雅者正也言王政之所由廢興也	-12.8204
何斯違斯莫或遑處	-12.8204
文武以天保以上治内	-12.8204
彼何人斯胡逝我陳我聞其聲不見其身	-12.8205
物其有矣維其時矣	-12.8205
齹	-12.8205
暈	-12.8205
騤	-12.8205
垂涕泣而道	-12.8206
考證欽定四庫全書毛詩注疏卷	-12.8206
及爾偕老老使我怨淇則有岸	-12.8206
萏	-12.8206
彼何人斯其為飄風	-12.8206
比毗志反	-12.8207
柔亦不茹剛亦不吐	-12.8207
奪黎氏地	-12.8207
辝	-12.8207
有杕之杜其葉菁菁	-12.8207
炬	-12.8208
裦	-12.8208
睫	-12.8208
匪雞則鳴	-12.8209
兄及弟矣式相好矣無相猶矣	-12.821
出此三物以詛	-12.821
捉	-12.8211
褚	-12.8211
其音展矣君子實勞我心	-12.8212
継	-12.8213
凡百君子各敬爾身胡不相畏不畏于天	-12.8214
䯚	-12.8214
菰	-12.8219
蝯	-12.8576
簜	-12.8579
芍	-12.8589
瞳	-12.859
藬	-12.8593
國子監祭酒顧棟髙撰釋	-12.8597
虞東學詩卷	-12.8599
以明有國善善之功	-12.8599
澇	-12.8599
穆如清風	-12.86
稃	-12.86
執籥秉翟	-12.86
閾	-12.8601
骸	-12.8601
騧驪是驂	-12.8602
笞	-12.8602
叨	-12.8603
騏駵是中	-12.8604
䨇	-12.8604
環其人美且鬈	-12.8604
去其螟螣及其蟊賊	-12.8604
蓽	-12.8605
蝶	-12.8605
彼君子兮不素餐兮	-12.8605
君衣狐白裘錦衣以裼之	-12.8605
重訂詩經疑問卷	-12.8606
我東曰歸我心西悲制彼裳衣勿士行	-12.8606
暀	-12.8606
棚	-12.8606
獐	-12.8606
世之不顯厥猶翼翼思皇多士生此王國	-12.8606
皪	-12.8606
遹追來孝	-12.8606
蓁	-12.8606
矣富人哀此惸獨	-12.8607
有鴞萃止	-12.8607
緑兮衣兮	-12.8607
僴兮赫兮咺兮有匪君子終不可諼兮	-12.8607
曰既醉止威儀怭怭	-12.8607
示我顯徳行	-12.8607
朿	-12.8607
榝	-12.8607
夕何夕見此良人子兮子兮如此良人何	-12.8607
雖則佩觿能不我知	-12.8607
是曰既醉不知其秩	-12.8607
蹷	-12.8607
自伯之東首如飛蓬豈無膏沐誰適	-12.8608
梩	-12.8608
自召祖命虎拜稽首天子萬年	-12.8609
之奔奔鵲之彊彊	-12.8609
園有棘其實之食心之憂矣聊以行國	-12.8609
亂𢎞多民言無嘉	-12.8609
廿	-12.8609
采薇采薇薇亦剛止曰歸曰歸	-12.8609
方叔涖止其車三千旂旐央央	-12.8609
巷無飲酒豈無飲酒不如叔也洵美且好	-12.861
薄言采芑于彼新田于此中鄉	-12.861
膚如凝脂領如蝤	-12.861
居月諸照臨下土乃如之人兮逝不古處	-12.861
考槃在阿碩人之薖	-12.861
綢直如髪	-12.8611
孑孑干旟在浚之都素絲組	-12.8611
具禍以燼	-12.8611
鷟	-12.8611
㓙	-12.8611
哀我人斯于何從禄瞻烏爰止于誰之屋	-12.8611
元朱公遷撰	-12.8611
四方以無侮臨衝茀茀	-12.8611
簞	-12.8611
豈曰無衣七兮不如子之衣安且吉兮	-12.8611
予美亡此誰與獨息	-12.8611
鳲鳩秸鞠	-12.8611
君子如夷惡怒是違	-12.8612
是謂四始詩之至也	-12.8612
䁥	-12.8612
外禦其侮	-12.8612
實實枚枚赫赫姜嫄	-12.8612
藘	-12.8613
誄	-12.8613
其容不改出言有章行歸于周萬民所望	-12.8613
躇	-12.8613
岑	-12.8613
既右烈考亦右文母	-12.8613
江有渚之子歸不我與不我與其後也處	-12.8613
必恭敬止靡瞻匪父靡依匪母	-12.8613
痱	-12.8613
兩服齊首兩驂如手叔在藪火烈具阜	-12.8614
維此聖人瞻言百里維彼愚人覆狂以喜	-12.8614
冋	-12.8614
彼人之心于何其臻曷予靖之居以凶矜	-12.8614
于沼于沚	-12.8614
所謂伊人在水之湄遡洄從之道阻且躋	-12.8614
中谷有蓷暵其脩	-12.8614
人尚乎由行	-12.8614
諸侯始見乎武王廟也	-12.8614
寤寐無為中心悁悁	-12.8614
是曰既醉不知其郵	-12.8614
􁉛	-12.8615
成王之孚下土之式永言孝思孝思維則	-12.8615
三之日于耜	-12.8615
維鵲有巢維鳩盈之之子于歸百兩成之	-12.8615
國人將叛而歸沃	-12.8615
彼汾一方言采其桑彼其之子美如英	-12.8615
食根曰蟊食節曰賊	-12.8615
碍	-12.8615
文王曰咨咨女殷商而秉義類彊禦多懟	-12.8615
彼采葛兮一日不見如三月兮	-12.8615
阪有漆隰有栗	-12.8615
偝	-12.8615
詩本義卷第	-12.8615
東門之栗有踐家室豈不爾思子不我即	-12.8615
鴻飛遵陸公歸不復於女信宿	-12.8615
彼月而微此日而微	-12.8616
九罭之魚鱒魴	-12.8616
竞	-12.8616
既見止亦既覯止我心則夷	-12.8616
驕人好好勞人草草蒼天蒼天	-12.8616
皇皇后帝皇祖后稷享以騂犧	-12.8616
恒之穈芑是任	-12.8616
奄受北國因以其伯	-12.8617
並行而不相悖	-12.8617
益我我入自外室人交徧讁	-12.8617
子之昌兮俟我乎堂兮悔予不將兮	-12.8617
既微且尰	-12.8617
斂怨以為徳	-12.8617
一方彼一方也	-12.8617
其庭有覺其楹噲噲	-12.8617
豈弟君子無信讒言	-12.8617
繼序思不忘	-12.8617
顇	-12.8617
揚之水不流束楚終鮮	-12.8618
迸	-12.8618
錯薪言刈其楚之子于歸言秣其馬	-12.8618
兮我覯之子我心寫	-12.8618
嚚	-12.8618
牆有茨不可束也中冓之言不可讀也	-12.8618
獻爾發功	-12.8618
棘誰從穆公子車奄息維此奄息百夫	-12.8618
振鷺于飛于彼西雝我客戾止亦有斯容	-12.8618
虯	-12.8618
咠	-12.8618
兮我心寫兮是以有譽處兮	-12.8619
頌僖公君臣之有道也	-12.8619
樂正曰正歌備	-12.8619
簦	-12.8619
飛曰雌雄走曰牝牡	-12.8619
振古如兹	-12.862
職競由人	-12.862
何人不將經營四方	-12.862
莫赤匪狐莫黒匪烏	-12.862
倉庚于飛熠燿其羽之子于歸皇駁	-12.862
掉	-12.862
之死矢靡他	-12.862
前軫至後軫	-12.862
彼黍離離彼稷之實行邁靡靡中心如噎	-12.862
殷受命咸宜	-12.8621
數億至億曰秭	-12.8621
膘	-12.8621
鉹	-12.8621
奕奕寢廟君子作之秩秩大猷聖人莫之	-12.8621
牧於坰野	-12.8621
彼有罪既伏其辜若此無罪淪	-12.8621
聸	-12.8622
䙅	-12.8622
鵴	-12.8623
就其深矣方之舟之就其淺矣泳之游之	-12.8624
凱風自南吹彼棘薪母氏聖善我無令人	-12.8624
踵狹而舌廣	-12.8625
爰笑爰語	-12.8625
夜未央庭燎之光君子至止鸞聲將將	-12.8625
胡轉予于恤靡所底	-12.8626
匪莪伊蒿	-12.8626
蕐	-12.8627
篨	-12.8628
並驅從兩狼兮揖我謂我臧兮	-12.8629
龢	-12.8631
負罪引慝	-12.8631
笥	-12.8632
終其永懷又窘	-12.8634
昔育恐育鞠	-12.8637
彇	-12.8641
緇衣見好賢之至	-12.9027
檓	-12.903
腎	-12.9032
愼旃哉猶來無	-12.9032
蠟	-12.9032
筒	-12.9033
鴻飛遵渚	-12.9034
仍執醜虜	-12.9035
睨	-12.9035
三輔黄圖	-12.9035
眾	-12.9037
篳	-12.9037
哂	-12.9037
妻如之何匪媒不得既曰得止曷又極止	-12.9038
維昔之富不如時維今之疚不如兹	-12.9038
藑	-12.9038
率西水滸	-12.9039
出宿于干飲餞于言	-12.9039
析羽為旌	-12.9039
冽彼下泉浸彼苞蕭	-12.9039
渺	-12.9039
文王既勤止我應受之	-12.9039
秬秠穈芑	-12.904
莫莫葛藟施于條枚	-12.904
曰既醉止威儀幡幡	-12.904
笴	-12.904
霡	-12.904
轔	-12.904
君子有酒嘉賔式燕以樂	-12.904
王命召虎來旬來宣文武受命召公維翰	-12.9041
扃	-12.9041
襪	-12.9041
坎其擊鼓宛丘之下	-12.9042
撠	-12.9042
蘡	-12.9042
交於萬物有道	-12.9042
昊天不平我王不寧不懲其心覆	-12.9042
勿士行枚	-12.9042
霖	-12.9042
撼	-12.9042
湯有景亳之命	-12.9043
魯道有蕩齊子庸止既曰庸止曷又從止	-12.9043
澔	-12.9043
􁈭	-12.9043
夬	-12.9043
我思肥泉兹之永歎	-12.9043
衫	-12.9043
﨣	-12.9043
示我顯德行	-12.9044
捲	-12.9044
瘖	-12.9044
永錫難老	-12.9044
七月流火九月授衣春日載陽有鳴倉庚	-12.9044
風雨瀟瀟雞鳴膠膠	-12.9045
坎坎伐輪兮寘之河之漘	-12.9045
詩經通義卷	-12.9045
匪安匪遊淮夷來求	-12.9045
呴	-12.9045
有鳥髙飛亦傅	-12.9046
鯉質鱒鱗	-12.9046
陟彼崔嵬我馬虺隤	-12.9046
為谷深谷為陵哀今之人胡	-12.9046
克成厥勲	-12.9046
隗	-12.9046
翫	-12.9046
有情兮而無望	-12.9046
洎	-12.9046
螟蛉有子蜾蠃負之	-12.9046
温温恭人如集于木惴惴	-12.9046
民之無辜并其臣僕	-12.9047
保有鳬繹	-12.9047
皙	-12.9047
鷖在渚公尸來燕來處	-12.9047
鎬京辟廱自西自東自南自北無思不服	-12.9047
駕彼四駱載驟駸駸	-12.9047
有鶖在梁有鶴在林	-12.9047
夫也不良國人知之知而不已誰昔然矣	-12.9047
昊天曷惠其寧	-12.9047
予就之繼猶判渙維予小子未堪家多難	-12.9047
汎汎楊舟紼纚維之	-12.9047
氿	-12.9047
芃芃棫樸薪之槱之	-12.9048
三之日納于凌	-12.9048
宋王質撰	-12.9048
荒徐宅至于海邦	-12.9048
徉	-12.9048
上帝耆之憎其式廓乃眷西顧此維與宅	-12.9048
蚪	-12.9048
詬	-12.9048
九年大統未集	-12.9048
無自暱焉俾予靖之後予極焉	-12.9048
胡能有定寧不我顧	-12.9048
恆	-12.9048
頌僖公能復周公之宇也	-12.9049
赤雀丹書	-12.9049
叔在藪火烈具揚	-12.9049
鼂	-12.9049
躊	-12.9049
民具爾瞻	-12.905
誰生厲階	-12.905
㗖	-12.905
篤公劉逝彼百泉瞻彼溥	-12.905
陟彼南山言采其蕨未見君子憂心惙惙	-12.905
𠂻	-12.905
有萇楚猗儺其華夭之沃沃樂子之無家	-12.905
有六義焉一曰風二曰賦三曰比四曰興	-12.905
袡	-12.905
弗鼓弗考	-12.905
馬路車籩豆有且	-12.905
庭上下陟降厥家休矣皇考以保明其身	-12.905
惚	-12.905
慱	-12.905
昊天不惠降此大戾	-12.9051
詩傳名物集覽	-12.9051
莔	-12.9051
兢兢業業如霆如雷周餘黎民靡有孑遺	-12.9051
其實離離豈弟君子莫不令儀	-12.9051
我居圉卒荒	-12.9051
侯服于周天命靡常殷士膚敏祼	-12.9051
爾無羊三百維羣誰謂爾無牛九十其犉	-12.9051
霂	-12.9051
式號式呼	-12.9051
蟋	-12.9051
雨無其極傷我稼穡	-12.9051
社稷之牛角尺	-12.9051
巵	-12.9051
交交黄鳥止于桑誰從穆公子車仲行	-12.9051
失伍離次	-12.9052
無不自盡以奉其上	-12.9052
不日有曀寤言不寐願言則嚏	-12.9052
數萬至萬曰億	-12.9052
大夫袒而毛牛尚耳	-12.9052
山甫徂齊式遄其歸吉甫作誦穆如清風	-12.9053
尚可磨也斯言之玷不可為	-12.9053
魚網之設鴻則離之燕婉之求得此戚施	-12.9053
伯王季維此王季因心則友	-12.9053
猝	-12.9053
唶	-12.9053
魚潛在淵或在于渚	-12.9053
翩翩者鵻載飛載止集于苞杞	-12.9053
羔裘逍遥狐裘以朝	-12.9053
金玉爾音而有遐心	-12.9054
維其有之是以似之	-12.9054
聽言則對誦言如醉匪用其良覆俾我悖	-12.9054
祫嘗祫烝	-12.9054
刷	-12.9054
師維垣大邦維屏大宗維翰	-12.9054
南言化自北而南也鵲巢騶虞之	-12.9054
綽綽有裕	-12.9054
或息偃在牀或不已于行	-12.9054
么	-12.9054
邦畿千里維民所止肇域彼四海	-12.9054
薾	-12.9054
罸	-12.9054
籩豆有楚殽核維旅	-12.9055
女叔兮伯兮倡予要	-12.9055
醉酒飽德	-12.9055
王猶允塞徐方既來	-12.9055
尢	-12.9055
心之憂矣如或結之今兹之正胡然厲	-12.9055
交交桑扈有鶯其領君子樂胥萬邦之屏	-12.9055
曰止曰時築室于兹	-12.9055
徦	-12.9056
所謂伊人於焉逍遥	-12.9056
不念昔者伊余來塈	-12.9057
維是褊心是以為刺	-12.9057
愜	-12.9057
爰始爰謀	-12.9057
之子美無度美無度殊異乎公路	-12.9057
他山之石可以攻玉	-12.9057
維此惠君民人所瞻	-12.9057
䓿	-12.9057
窴	-12.9057
彼汾沮洳言采其莫	-12.9059
蓞	-12.9059
淇水滺滺	-12.9059
以御賔客且以酌醴	-12.906
詫	-12.906
鄧氏元錫曰	-12.906
無庶予子憎	-12.906
屢顧爾僕不輸爾載	-12.9061
挏	-12.9061
昺	-12.9062
彥	-12.9062
濘	-12.9062
儀式刑文王之典日靖四方伊嘏	-12.9066
其實王事靡盬繼嗣我日	-12.9066
我將我享維羊維牛維天其右	-12.9067
挟	-12.9068
欽定詩經傳説彚纂	-12.9069
啾	-12.9442
娘	-12.9463
蛩	-12.9472
椵	-12.9474
鷻	-12.9482
侃	-12.9486
緱	-12.9486
我姑酌彼金罍	-12.9487
睇	-12.9488
藼	-12.9489
飛戾天亦集爰止方叔涖止其車三千師	-12.9489
洍	-12.949
僂	-12.949
干之試方叔率止鉦	-12.949
蝟	-12.9491
拈	-12.9491
尔	-12.9491
民雖靡膴	-12.9491
濊	-12.9492
爰究爰度	-12.9492
擿	-12.9492
鼘	-12.9492
凡兵事韋弁服	-12.9492
周王壽考遐不作人	-12.9492
紋	-12.9493
捼	-12.9493
郇文之昭也	-12.9493
宅殷土芒芒古帝命武湯正域彼四方	-12.9493
㰱	-12.9494
率彼淮浦省此徐土	-12.9494
瞗	-12.9494
緇衣之宜兮敝予又改為兮	-12.9495
甘棠勿翦勿伐召伯所茇	-12.9495
保右命之自天申之	-12.9495
采荼薪樗	-12.9496
彧	-12.9496
通鑑外紀	-12.9496
芷	-12.9496
我相此邦無不潰止	-12.9496
謂天蓋髙不敢不局	-12.9496
蛸	-12.9496
鏗	-12.9496
山喬嶽允猶翕	-12.9496
夥	-12.9497
茦	-12.9497
撤	-12.9497
􁆒	-12.9497
弗念厥紹	-12.9497
昔在中葉有震且業允也天子	-12.9497
瞻爾庭有縣特兮彼君子兮不素食兮	-12.9497
鸞在衡和在軾	-12.9497
壹醉日富	-12.9497
女猶有不至者也	-12.9498
餁	-12.9498
不知我者謂我士也罔極	-12.9498
考槃在陸碩人之軸獨寐寤宿永矢弗告	-12.9498
于毛不離于裏天之生我我辰安在	-12.9498
爾牧來思以薪以蒸以雌以雄	-12.9498
虖	-12.9498
顔如渥丹其君也哉	-12.9498
天保定爾亦孔之固俾爾單	-12.9498
謔浪笑傲	-12.9498
郜	-12.9498
夙夜基命宥密	-12.9499
旭日始旦	-12.9499
予羽譙譙	-12.9499
拮	-12.9499
釀秬為酒	-12.9499
弋鳧與鴈	-12.9499
􁈶	-12.9499
文王之時江沱之間有嫡不以	-12.9499
藳	-12.9499
驥	-12.9499
罔敷求先王克共明刑	-12.95
芄蘭之葉童子佩韘	-12.95
自彼殷商來嫁于周曰嬪	-12.95
駟介旁旁	-12.95
皆可以承事王者	-12.95
天子所以享元侯	-12.95
文鳥章白斾央央	-12.95
先民有言詢于芻	-12.9501
迨天之未隂雨徹彼桑土	-12.9501
公之時仁人不遇小人在側	-12.9501
鄆	-12.9501
鉗	-12.9501
其坐遷屢舞僊僊其未醉止威儀抑抑	-12.9501
似杏實酢	-12.9501
幬	-12.9501
藐藐昊天無不克鞏	-12.9502
中谷有蓷暵其濕矣有女仳離啜	-12.9502
敬天之怒無敢戲豫敬天之渝	-12.9502
有車鄰鄰有馬白顛	-12.9502
商之孫子其麗不億上帝既命侯于周服	-12.9502
于以采蘩于沼于沚于以用之公侯之事	-12.9503
剽	-12.9503
以爾車來以我賄遷	-12.9503
覔	-12.9503
其釣維何維絲伊緡齊侯之子平王之孫	-12.9503
騯	-12.9503
治世之音安以樂其政和	-12.9503
我方將旅力方剛經營四方	-12.9503
我生之初尚無造我生之後逢此百憂	-12.9503
緜緜葛藟在河之滸	-12.9504
殺而獻其左耳	-12.9504
䕩	-12.9504
無思逺人勞心怛怛	-12.9504
牒	-12.9504
師克配上帝宜鑒于殷駿	-12.9504
彼南山言采其薇未見君子我心傷悲亦	-12.9504
憂心慇慇念我土宇我生不辰逢天僤	-12.9504
亂世之音怨以怒其政乖	-12.9504
惄焉如𢷬	-12.9504
載沉載浮	-12.9505
鬪	-12.9505
美目揚兮巧趨蹌兮射則臧兮	-12.9505
隂祀用黝牲	-12.9505
神之聽之終和且平	-12.9505
噲噲其正	-12.9505
榛似栗而小	-12.9505
周公制作時所定	-12.9505
實墉實壑	-12.9505
恩斯勤斯鬻子之閔斯	-12.9505
天位殷適使不挾四方	-12.9505
笠所以禦暑	-12.9505
螺	-12.9505
率彼淮浦省此徐土不留不處三事就緒	-12.9506
葷	-12.9506
二章章八句二章章十句	-12.9506
螽斯羽薨薨兮宜爾子孫繩繩兮	-12.9506
擊土鼓以樂田畯	-12.9506
天命降監下民有嚴	-12.9506
藶	-12.9506
甲士三人步卒七十二人	-12.9506
投我以桃報之以李	-12.9507
險詖私謁	-12.9507
上以風化下下以風刺上主文而譎	-12.9507
豈弟君子四方為綱	-12.9507
彼有㫖酒又有嘉殽	-12.9507
瞷	-12.9507
餞之清酒百壺其殽維何炰	-12.9508
出話不然為猶不逺	-12.9508
東西門以南通水	-12.9508
上入執宫功	-12.9508
溲	-12.9508
維魴及鱮	-12.9508
躬耕帝籍	-12.9508
腳	-12.9509
[...]
