<unk>	0
<s>	0
</s>	0
之	-3.93965
以	-4.51522
為	-4.71048
也	-4.89682
而	-5.04523
曰	-5.16219
者	-5.21161
其	-5.30721
不	-5.32166
於	-5.35285
有	-5.41276
人	-5.63609
與	-5.65531
自	-5.69868
(	-5.73246
/)	-5.75425
皆	-5.77425
使	-5.78507
王	-5.80177
上	-5.82256
及	-5.86206
言	-5.90948
無	-5.97902
則	-5.98063
至	-5.99981
事	-6.02799
所	-6.04275
欲	-6.09037
大	-6.10023
謂	-6.10822
乃	-6.10936
今	-6.11843
故	-6.18304
臣	-6.23045
一	-6.24535
令	-6.26344
行	-6.26387
此	-6.26459
得	-6.27124
出	-6.27336
時	-6.2738
等	-6.29481
在	-6.33025
復	-6.34425
矣	-6.35561
當	-6.41004
見	-6.41185
又	-6.4122
下	-6.41252
亦	-6.4133
公	-6.41963
將	-6.43668
非	-6.44008
多	-6.45935
請	-6.46444
如	-6.49647
中	-6.50382
▁	-6.50384
兵	-6.50639
已	-6.55703
命	-6.56148
子	-6.57219
可	-6.58208
入	-6.59146
從	-6.61226
相	-6.61245
乎	-6.62476
用	-6.62624
必	-6.63625
若	-6.64211
耳	-6.64502
因	-6.66708
三	-6.68042
遂	-6.68135
知	-6.68199
官	-6.69012
雖	-6.69259
師古曰	-6.71846
陛下	-6.72642
天下	-6.72888
立	-6.74378
道	-6.74731
宜	-6.75633
然	-6.75678
死	-6.76024
奏	-6.76167
何	-6.77859
軍	-6.78887
以為	-6.78924
民	-6.79909
吾	-6.80206
注云	-6.80667
國	-6.82337
或	-6.82557
常	-6.82801
安	-6.84205
馬	-6.84749
聞	-6.84857
平	-6.84869
問	-6.85774
初	-6.86115
後	-6.86681
數	-6.87378
既	-6.87617
生	-6.87742
李	-6.87966
二	-6.88551
日	-6.88842
漢	-6.8903
遣	-6.89061
未	-6.89161
反	-6.89353
我	-6.89537
方	-6.90549
張	-6.90972
居	-6.91025
帝	-6.91158
州	-6.91886
天	-6.92378
求	-6.9387
重	-6.94497
門	-6.94574
詔	-6.95053
取	-6.95092
且	-6.95422
歸	-6.96682
先	-6.97905
書	-6.98113
法	-6.9838
不可	-6.99089
作	-6.99772
衆	-7.00791
陳	-7.00856
成	-7.01221
能	-7.01574
前	-7.02113
始	-7.02538
君	-7.0265
意	-7.02856
不能	-7.0392
城	-7.04069
殺	-7.04485
太子	-7.05092
服	-7.05203
長	-7.06065
是	-7.06189
還	-7.06514
文	-7.07204
去	-7.07282
稱	-7.07298
家	-7.07686
明	-7.07789
即	-7.07803
唐	-7.07911
猶	-7.07996
朕	-7.08317
名	-7.09105
髙	-7.09946
主	-7.10101
地	-7.10881
進	-7.11119
太后	-7.11881
正	-7.12324
邪	-7.12397
置	-7.13123
卿	-7.13399
禮	-7.14582
周	-7.14671
元	-7.14894
徳	-7.15954
四	-7.16086
心	-7.16506
受	-7.16544
同	-7.17099
舉	-7.17804
分	-7.18983
守	-7.19272
善	-7.19492
實	-7.19656
召	-7.19978
朝	-7.2206
親	-7.22273
獨	-7.22353
外	-7.22572
内	-7.22737
諸	-7.23694
深	-7.24088
盡	-7.24383
議	-7.24417
五	-7.25052
魏	-7.25292
士	-7.25501
信	-7.25505
朝廷	-7.25574
發	-7.25855
賜	-7.2611
云	-7.26234
食	-7.2679
小	-7.27006
失	-7.27226
來	-7.27342
于	-7.27582
武帝	-7.27629
坐	-7.28076
卒	-7.28369
由是	-7.28998
起	-7.29163
封	-7.29403
秦	-7.29589
嘗	-7.29667
劉	-7.29712
更	-7.29876
過	-7.29982
制	-7.3021
左右	-7.30229
天子	-7.30414
好	-7.30559
齊	-7.30935
水	-7.31059
計	-7.31314
引	-7.31358
吏	-7.31542
逺	-7.32702
錢	-7.33584
白	-7.33993
東	-7.34627
難	-7.34706
興	-7.3493
本	-7.35206
北	-7.35442
太宗	-7.35561
恐	-7.36415
世	-7.36911
南	-7.3785
直	-7.382
降	-7.38377
但	-7.38727
晉	-7.39019
山	-7.39409
少	-7.39435
通	-7.39654
宰相	-7.40227
武	-7.40406
傳	-7.40628
甚	-7.4163
論	-7.42249
亂	-7.42977
罪	-7.43472
易	-7.43523
任	-7.44289
加	-7.4452
度	-7.44683
賊	-7.44793
諫	-7.44995
明皇	-7.45796
陽	-7.45885
西	-7.45929
權	-7.45946
奉	-7.46033
於是	-7.46084
思	-7.46904
賢	-7.47272
身	-7.48179
趙	-7.48434
將軍	-7.49407
定	-7.49437
尚	-7.49983
留	-7.5019
車	-7.50321
物	-7.50494
拜	-7.51191
應	-7.51235
二年	-7.51651
義	-7.51672
謀	-7.51921
夫	-7.52628
益	-7.52882
音	-7.52969
焉	-7.53025
汝	-7.53187
各	-7.53473
每	-7.54123
宫	-7.54393
石	-7.5442
樂	-7.5469
望	-7.55229
悉	-7.55891
光	-7.56244
共	-7.56466
羣臣	-7.56582
亡	-7.56995
六	-7.57454
不得	-7.57671
怒	-7.58597
私	-7.58929
爲	-7.58976
幸	-7.59064
誠	-7.59135
輕	-7.59731
惡	-7.6011
處	-7.60298
政	-7.60866
勸	-7.60967
惟	-7.61432
戰	-7.61565
對曰	-7.6192
建	-7.62665
表	-7.62773
治	-7.62929
陵	-7.6294
三年	-7.62947
彼	-7.63185
固	-7.63333
近	-7.637
告	-7.63737
髙祖	-7.6386
豈	-7.64013
威	-7.64402
功	-7.64449
廣	-7.64459
梁	-7.64633
誅	-7.64989
疾	-7.65098
文帝	-7.65157
終	-7.65405
辭	-7.65813
年	-7.65896
性	-7.66063
語	-7.66306
清	-7.66421
致	-7.66625
流	-7.669
收	-7.67856
位	-7.68505
凡	-7.68954
利	-7.69047
經	-7.69381
對	-7.69759
力	-7.69789
府	-7.69838
執	-7.70638
詣	-7.70717
理	-7.70879
哉	-7.71164
素	-7.71421
敗	-7.71794
異	-7.71971
百姓	-7.72031
懼	-7.72151
除	-7.72158
景	-7.72513
選	-7.7281
才	-7.72978
間	-7.73343
廢	-7.73525
絶	-7.74325
並	-7.74611
九	-7.74612
德	-7.74693
新	-7.74728
擊	-7.74864
備	-7.75217
攻	-7.75321
和	-7.75542
口	-7.75608
開	-7.75915
比	-7.76014
宣	-7.76336
師	-7.76411
楊	-7.7717
氏	-7.77439
願	-7.77651
母	-7.77739
侯	-7.77778
金	-7.77789
衣	-7.77951
州刺史	-7.78146
楚	-7.78318
如此	-7.78366
代	-7.78418
兩	-7.78422
首	-7.78644
契丹	-7.78773
不敢	-7.78878
后	-7.80162
節	-7.80203
往	-7.80497
解	-7.80821
責	-7.80842
怨	-7.80891
志	-7.81009
禁	-7.81328
徳宗	-7.81477
説	-7.82007
所以	-7.82123
女	-7.8215
元年	-7.8218
曰吾	-7.822
退	-7.82201
遺	-7.82898
盛	-7.82993
止	-7.83021
㑹	-7.8325
足	-7.83585
鎮	-7.84018
帥	-7.84181
獻	-7.84212
屬	-7.84479
承	-7.84643
臨	-7.84737
十	-7.84836
光武	-7.85043
土	-7.85112
四年	-7.85152
七	-7.85207
忠	-7.85349
憲宗	-7.85384
從之	-7.8547
唯	-7.85584
貴	-7.85816
合	-7.86059
章	-7.86116
務	-7.8618
夜	-7.86403
觀	-7.8644
氣	-7.86443
恩	-7.86477
顧	-7.86676
謝	-7.86686
破	-7.86954
八	-7.87178
免	-7.87471
勝	-7.88379
刑	-7.88472
百	-7.88716
貶	-7.88735
而已	-7.89143
就	-7.89172
蜀	-7.89462
改	-7.89523
許	-7.89987
延	-7.90237
薦	-7.90382
田	-7.90619
遇	-7.90672
謂之	-7.90703
容	-7.90807
郡	-7.90824
疑	-7.90854
營	-7.91405
頗	-7.91452
修	-7.91637
給	-7.91751
會	-7.91951
諸將	-7.91989
聞之	-7.92323
敕	-7.92334
輒	-7.92348
遷	-7.92397
華	-7.92427
嚴	-7.92656
勿	-7.93228
萬	-7.93532
崇	-7.93697
御	-7.94018
布	-7.94046
聽	-7.94131
爭	-7.94183
神	-7.94231
父	-7.94518
宋	-7.94576
毎	-7.94689
賞	-7.94818
舊	-7.94944
設	-7.95132
動	-7.95245
厚	-7.95536
老	-7.95982
省	-7.96039
教	-7.96096
虜	-7.96682
據	-7.96786
燕	-7.96893
隂	-7.97154
斬	-7.97277
風	-7.97565
殿	-7.97593
聲	-7.97787
職	-7.98353
不知	-7.98439
由	-7.98689
迎	-7.99017
縣	-7.99094
古	-7.99153
者皆	-7.99367
指	-7.99472
𢎞	-7.99663
業	-7.99897
變	-7.99935
久	-8.00032
太	-8.00332
國家	-8.00347
附	-8.00384
酒	-8.00781
委	-8.0085
急	-8.00899
送	-8.01494
授	-8.01667
為之	-8.01887
集	-8.02032
全	-8.02211
昔	-8.02362
獄	-8.02461
棄	-8.02525
堅	-8.028
罷	-8.03083
尚書	-8.03327
吳	-8.03456
操	-8.03635
然後	-8.03935
說	-8.04083
無所	-8.04313
𫝊	-8.04723
黄	-8.04807
徴	-8.04872
愛	-8.05183
邊	-8.05254
載	-8.05277
手	-8.05443
宗	-8.05653
美	-8.05782
都	-8.05858
尊	-8.06004
存	-8.06157
傷	-8.0621
伏	-8.06251
憂	-8.06301
胡	-8.06329
榮	-8.0633
皇后	-8.0671
屢	-8.06849
喜	-8.07203
徐	-8.0732
左	-8.07406
著	-8.07632
害	-8.07663
登	-8.07859
兼	-8.08053
勢	-8.08097
并	-8.08098
養	-8.08485
俱	-8.08676
滅	-8.08681
良	-8.08685
河	-8.09415
嵗	-8.098
追	-8.10069
交	-8.10202
視	-8.10269
聖	-8.10498
諌	-8.10585
討	-8.10987
被	-8.10987
百官	-8.11043
號	-8.11131
順	-8.11728
世宗	-8.11799
圖	-8.1188
仁	-8.12076
宦官	-8.12266
茍	-8.12636
薄	-8.12648
己	-8.12724
竟	-8.12788
騎	-8.12836
也師古曰	-8.1285
髙宗	-8.12856
乞	-8.12945
縱	-8.12977
徙	-8.13498
宻	-8.13535
便	-8.13592
彊	-8.13592
勞	-8.13931
江	-8.14027
果	-8.1444
以來	-8.14546
決	-8.1455
極	-8.14552
顯	-8.14559
族	-8.14561
負	-8.14637
公主	-8.1484
參	-8.14895
木	-8.14912
保	-8.15488
密	-8.15499
司	-8.15899
徒	-8.16176
明帝	-8.16245
匈奴	-8.16519
畏	-8.1689
𤣥	-8.17132
待	-8.17177
化	-8.1718
大臣	-8.1722
咸	-8.1723
温	-8.17326
遣使	-8.17553
不從	-8.17616
敵	-8.17772
寧	-8.17802
面	-8.18002
專	-8.18381
五年	-8.18696
走	-8.1909
充	-8.19095
持	-8.19183
救	-8.19189
納	-8.19257
文宗	-8.19279
别	-8.19339
須	-8.19685
禍	-8.19742
頭	-8.1987
敬	-8.20141
第	-8.20351
器	-8.20438
聚	-8.20596
連	-8.21159
讓	-8.21175
侍中	-8.21295
永	-8.21374
戒	-8.21506
積	-8.21568
要	-8.22012
推	-8.22148
造	-8.22498
太祖	-8.22569
考	-8.22837
患	-8.22872
具	-8.23002
移	-8.23288
曲	-8.23314
孫	-8.23446
不如	-8.23453
遽	-8.23462
不許	-8.23568
隨	-8.23602
俗	-8.23786
仍	-8.2396
欲以	-8.24042
慮	-8.24216
昭	-8.24349
殺之	-8.24634
長安	-8.25
客	-8.25125
赦	-8.25168
情	-8.25222
學	-8.25526
歡	-8.2593
聴	-8.25959
龍	-8.26418
右	-8.26528
懐	-8.26582
韓	-8.26662
部	-8.2685
䇿	-8.26898
斷	-8.26947
真	-8.27142
嘉	-8.27199
諸侯	-8.27479
入朝	-8.27758
尤	-8.27827
使者	-8.27855
報	-8.28156
曹	-8.28292
逆	-8.2871
室	-8.28784
乗	-8.29507
寵	-8.30024
次	-8.30073
體	-8.30127
約	-8.30143
乆	-8.30168
為相	-8.3043
結	-8.30455
月	-8.30605
昭宗	-8.3087
克	-8.31148
四方	-8.31229
列	-8.31273
遊	-8.31287
强	-8.31413
獲	-8.31438
察	-8.3157
太守	-8.31912
契丹主	-8.31926
餘	-8.3194
節度使	-8.32174
甞	-8.32402
徵	-8.32448
運	-8.3262
今日	-8.32778
六年	-8.32872
市	-8.3299
伐	-8.33012
孝	-8.33331
散	-8.34293
儀	-8.34817
肅宗	-8.34895
危	-8.35063
率	-8.35231
京師	-8.35433
而不	-8.35729
不肯	-8.35865
亮	-8.35989
塞	-8.36139
超	-8.36199
違	-8.36458
向	-8.36506
字	-8.36602
領	-8.36632
羣	-8.36683
郭	-8.37143
簡	-8.37179
杜	-8.37201
達	-8.37232
上言	-8.37327
火	-8.37446
路	-8.37453
虎	-8.37472
唐主	-8.37571
兄弟	-8.37845
𩔖	-8.37867
曰此	-8.37872
不足	-8.3795
殷	-8.38109
奈何	-8.3813
雲	-8.38167
毁	-8.38295
有司	-8.38323
夷	-8.3869
/)(	-8.38861
言於	-8.38887
宴	-8.38889
色	-8.39002
傅	-8.39247
苦	-8.39463
注	-8.39658
衛	-8.39918
乘	-8.39945
笑	-8.40345
暴	-8.40422
資	-8.40511
擇	-8.41061
典	-8.41068
濟	-8.41395
崔	-8.41477
施	-8.41693
姦	-8.41784
海	-8.42076
富	-8.42505
投	-8.4263
何以	-8.42836
期	-8.42955
息	-8.4307
裕	-8.43435
草	-8.43579
俟	-8.43603
叛	-8.43639
史	-8.43777
中國	-8.438
子孫	-8.44044
成帝	-8.44419
不復	-8.4459
導	-8.4464
政事	-8.44744
爾	-8.44753
夏	-8.44794
謹	-8.44951
莊宗	-8.45273
病	-8.45459
曰陛下	-8.45571
至於	-8.45573
誰	-8.45605
愈	-8.4578
士卒	-8.45864
自是	-8.45887
豐	-8.45894
費	-8.46002
明宗	-8.46082
犯	-8.46206
財	-8.46326
者也	-8.46563
儉	-8.466
目	-8.46677
朱	-8.46713
専	-8.46763
使人	-8.468
也今	-8.46924
策	-8.46962
皇帝	-8.4714
曰朕	-8.47334
是以	-8.47828
懷	-8.47987
掌	-8.48056
門漢	-8.48092
宣宗	-8.48099
援	-8.48189
輔	-8.4822
識	-8.48565
冠	-8.48872
質	-8.48919
沈	-8.49043
竊	-8.49073
微	-8.49291
即位	-8.49701
役	-8.4973
司馬	-8.49743
妄	-8.49943
弱	-8.50217
輸	-8.50251
奔	-8.50297
應劭曰	-8.50336
丞相	-8.50344
飲	-8.50416
曰今	-8.50689
循	-8.50779
莫	-8.50798
弟	-8.51322
精	-8.51452
寺	-8.5152
代宗	-8.51626
賀	-8.51665
圍	-8.51668
大怒	-8.51713
堂	-8.51724
滿	-8.5178
福	-8.51813
許之	-8.52067
人主	-8.52261
隋	-8.52382
牛	-8.52449
休	-8.52569
曰臣	-8.52639
雜	-8.52652
二人	-8.52667
尋	-8.52703
甲	-8.52827
愚	-8.52843
險	-8.52929
之後	-8.52949
臺	-8.53087
屯	-8.53269
未嘗	-8.53335
樓	-8.53509
泰	-8.53594
宿	-8.5361
屈	-8.53636
傾	-8.53645
况	-8.53811
恭	-8.54417
户	-8.54498
郎	-8.54606
大將軍	-8.54635
襲	-8.54689
雅	-8.54705
孤	-8.54722
疏	-8.54786
祖	-8.54928
辟	-8.54963
侍	-8.55286
天后	-8.55305
依	-8.5573
皇	-8.55956
故事	-8.55982
刻	-8.56029
船	-8.5612
關	-8.56177
況	-8.56194
洛陽	-8.56684
恨	-8.56695
昌	-8.57062
林甫	-8.57417
籍	-8.57432
細	-8.57447
蕭	-8.575
敢	-8.57639
為人	-8.57712
監	-8.57838
中外	-8.58015
齊王	-8.58046
斬之	-8.58049
是時	-8.5807
博	-8.58155
有所	-8.58279
鄭	-8.58312
呉	-8.58377
單于	-8.58458
空	-8.585
避	-8.58505
妻	-8.58633
中宗	-8.58685
元帝	-8.58937
乃止	-8.59249
峻	-8.59591
假	-8.59601
奴	-8.59741
之士	-8.59776
歴	-8.59879
辨	-8.60007
繫	-8.6005
公卿	-8.60205
將士	-8.60467
内外	-8.60763
嗣	-8.60768
機	-8.60799
按	-8.60884
其子	-8.61008
伯	-8.61055
總	-8.61072
千	-8.61098
敬宗	-8.6116
撫	-8.61173
刺史	-8.61262
漢王	-8.61357
囚	-8.61475
接	-8.62045
越	-8.62048
鄉	-8.62051
不聽	-8.62142
覆	-8.62241
林	-8.62395
藏	-8.62398
恱	-8.62494
溫	-8.62547
既而	-8.62654
驚	-8.62663
寳	-8.63342
之心	-8.63387
舍	-8.63471
漸	-8.635
律	-8.63575
冦	-8.63626
忌	-8.63743
馳	-8.64145
横	-8.64642
决	-8.64683
虚	-8.64819
材	-8.64834
賦	-8.6484
殊	-8.64887
畫	-8.64927
候	-8.64976
拔	-8.65006
累	-8.65063
煬帝	-8.65161
與之	-8.65276
青	-8.65568
釋	-8.65598
黨	-8.65683
窮	-8.65703
之間	-8.65973
優	-8.65973
繼	-8.66039
記	-8.66199
隆	-8.66204
貪	-8.66269
紹	-8.66316
灋	-8.66398
賣	-8.66425
一人	-8.6649
不過	-8.66657
宣帝	-8.66737
不為	-8.66943
兄	-8.66978
以此	-8.67013
習	-8.67051
略	-8.67284
減	-8.67346
射	-8.67421
竒	-8.67424
損	-8.67453
象	-8.67456
豈可	-8.67467
淵	-8.6751
畢	-8.67562
速	-8.676
盜	-8.6762
勇	-8.67654
案	-8.67665
之言	-8.67714
寃	-8.67764
社稷	-8.67788
督	-8.67929
奪	-8.68146
呼	-8.68234
悦	-8.6825
闗	-8.6832
全忠	-8.68572
杖	-8.68821
諸軍	-8.68909
似	-8.68913
狀	-8.68923
如淳曰	-8.68924
示	-8.69178
突厥	-8.69243
大王	-8.69522
誣	-8.69574
之所	-8.69608
上書	-8.6975
商	-8.69867
兒	-8.6992
不以	-8.70129
不及	-8.70209
何如	-8.70273
廟	-8.70285
祭	-8.70301
将	-8.70399
符	-8.70438
玉	-8.70444
戲	-8.7053
恥	-8.70541
䝉	-8.70543
父子	-8.70805
之地	-8.71361
有功	-8.7149
原	-8.71495
廷	-8.71552
泣	-8.71642
㫖	-8.71717
妾	-8.71741
魯	-8.71761
勤	-8.7182
衰	-8.71821
虛	-8.71826
付	-8.7191
稍	-8.71954
冀	-8.72001
哀	-8.72141
用之	-8.72251
夫人	-8.72364
可以	-8.72418
忘	-8.72439
特	-8.72648
申	-8.72847
御史	-8.72875
裴	-8.73195
放	-8.73302
知之	-8.73342
智	-8.73394
不宜	-8.7344
同平章事	-8.73511
世祖	-8.73634
蜀主	-8.73658
魏主	-8.73728
明日	-8.74009
寛	-8.74029
之事	-8.74469
願陛下	-8.74512
康	-8.7454
試	-8.74603
刀	-8.74689
吉	-8.74706
樹	-8.74764
垂	-8.74794
盗	-8.75229
拒	-8.75231
爵	-8.75447
叔	-8.76113
災	-8.76181
所言	-8.76247
曰卿	-8.7629
補	-8.76315
形	-8.76361
太尉	-8.76686
角	-8.76687
勲	-8.76809
浩	-8.77267
八年	-8.77524
榖	-8.77583
衞	-8.77638
升	-8.77687
歌	-8.77731
僧	-8.77755
采	-8.77763
宦者	-8.77917
君子	-8.78077
先帝	-8.781
寇	-8.78175
知其	-8.78196
歎曰	-8.78315
用事	-8.78561
離	-8.78595
再	-8.78606
邑	-8.78892
所在	-8.78971
副	-8.78999
莫不	-8.79011
衡	-8.7908
雄	-8.79109
覽	-8.7918
増	-8.79266
最	-8.79281
斯	-8.79286
不應	-8.79515
歲	-8.7966
争	-8.79877
慶	-8.79903
至是	-8.7996
河南	-8.80262
引兵	-8.8034
校	-8.80443
星	-8.805
隱	-8.80627
曰我	-8.80694
趣	-8.80716
雨	-8.80724
述	-8.80731
血	-8.80757
祠	-8.80761
豪	-8.80814
量	-8.80828
調	-8.80854
恃	-8.80855
幽	-8.80938
佐	-8.80999
十年	-8.81184
署	-8.81304
逼	-8.81869
適	-8.81934
逐	-8.82061
高	-8.82072
步	-8.82073
赤	-8.82087
孔	-8.82098
秀	-8.82119
髙帝紀	-8.82187
落	-8.82261
融	-8.82353
蓋	-8.82354
之功	-8.82472
飾	-8.83027
又曰	-8.83085
貞	-8.83188
庭	-8.83334
賈	-8.83374
紀	-8.83424
小人	-8.83546
靈	-8.83675
震	-8.83678
上表	-8.83813
寢	-8.83972
僕	-8.84042
謁	-8.84269
州縣	-8.84516
短	-8.84673
班	-8.84676
詔曰	-8.84769
佛	-8.8491
術	-8.85128
捕	-8.85301
統	-8.8551
希	-8.85518
辱	-8.85579
審	-8.85644
先是	-8.86223
所為	-8.86289
赴	-8.86399
不欲	-8.86633
藩	-8.86662
晏	-8.86845
敏	-8.86934
韋	-8.87056
丁	-8.87057
七年	-8.87064
一旦	-8.87078
曰昔	-8.87114
前後	-8.87129
英	-8.87141
大夫	-8.87153
貨	-8.87166
效	-8.8717
工	-8.87171
澤	-8.87224
必有	-8.8723
後漢	-8.87294
掠	-8.87349
詐	-8.87517
無不	-8.87952
供	-8.88143
惜	-8.88156
敦	-8.88248
之子	-8.88346
助	-8.88465
踰	-8.88716
浮	-8.88791
差	-8.88906
捨	-8.88932
禹	-8.8895
境	-8.89417
弼	-8.89477
軍士	-8.89498
諫曰	-8.89597
招	-8.89818
切	-8.89843
卑	-8.89869
謙	-8.90289
惡之	-8.90307
馮	-8.90333
振	-8.90422
尉	-8.9046
霸	-8.90462
肉	-8.90514
顔	-8.90574
稅	-8.9061
荒	-8.90695
海内	-8.90726
里	-8.91213
庶	-8.91414
未有	-8.9142
所謂	-8.91467
喪	-8.91795
戍	-8.91812
逃	-8.91895
允	-8.91913
武宗	-8.91971
驅	-8.92056
寶	-8.92058
姓	-8.92122
死者	-8.92198
感	-8.92204
澄	-8.92226
藥	-8.92237
巧	-8.92284
人皆	-8.92293
相與	-8.92495
煩	-8.93136
其言	-8.93389
頃	-8.93461
末	-8.93548
晉王	-8.93869
侵	-8.93948
寒	-8.93992
㣲	-8.94065
索	-8.94067
野	-8.94344
而去	-8.944
秋	-8.94695
書曰	-8.94743
軍中	-8.94801
三公	-8.95088
輩	-8.95128
故曰	-8.9537
均	-8.95488
訓	-8.95528
趨	-8.95597
印	-8.95658
季	-8.95673
轉	-8.95719
黜	-8.95719
宅	-8.95763
春	-8.95763
鼓	-8.95792
偽	-8.95794
米	-8.95797
館	-8.95836
忽	-8.95845
誤	-8.95888
不已	-8.96125
不受	-8.96537
君臣	-8.96576
征	-8.9663
詩	-8.96817
等皆	-8.9688
農	-8.97328
幾	-8.97348
擾	-8.97594
魚	-8.97595
阿	-8.97611
烈	-8.97617
干	-8.97625
逸	-8.97658
祚	-8.97695
穆宗	-8.97798
之意	-8.9781
之人	-8.98169
歎	-8.98193
揚	-8.98236
諸道	-8.98568
官爵	-8.98745
背	-8.98808
之時	-8.9903
駕	-8.99079
壽	-8.99092
糧	-8.9914
奏事	-8.99204
天下之	-8.99209
肅	-8.99239
禄	-8.99242
判	-8.99261
惑	-8.99405
薛	-8.99419
雍	-8.99428
輿	-8.99429
驗	-8.99516
潞王	-8.99529
倫	-8.99562
藩鎮	-8.99607
諭	-8.99608
二十	-8.99829
故也	-8.99859
曰公	-9.00131
託	-9.00198
不用	-9.00565
到	-9.0125
閉	-9.01266
𦙍	-9.01343
宫中	-9.01353
丘	-9.01365
困	-9.01368
卧	-9.01401
劒	-9.01424
北魏	-9.01826
築	-9.01918
監軍	-9.02161
言之	-9.02576
其家	-9.02722
後唐	-9.02815
淮	-9.02865
賂	-9.02869
翰林學士	-9.02944
何為	-9.02999
佞	-9.03002
朔	-9.03038
念	-9.03047
旁	-9.03053
蘇	-9.03078
莫敢	-9.0309
豫	-9.03111
廷尉	-9.03123
慎	-9.03139
鑄	-9.032
陸	-9.03255
帶	-9.03276
席	-9.03293
凶	-9.03296
雪	-9.03328
種	-9.0333
橋	-9.03346
遣中使	-9.0344
諸王	-9.03496
如是	-9.03872
競	-9.04275
雖有	-9.04322
階	-9.04449
銅	-9.04478
子弟	-9.04502
夀	-9.0485
惠	-9.05041
抑	-9.05063
飛	-9.05153
上下	-9.05184
羽	-9.05206
折	-9.05209
㧞	-9.05217
羊	-9.05225
聰	-9.05245
啓	-9.05258
毛	-9.05268
羅	-9.0527
吐蕃	-9.0542
德宗	-9.05443
裴度	-9.05457
執政	-9.0547
之罪	-9.06302
主上	-9.06381
虞	-9.06445
京	-9.06745
諸州	-9.0683
誅之	-9.06848
功臣	-9.06916
以示	-9.07048
貢	-9.07091
祀	-9.07183
崩	-9.07203
足以	-9.07206
四海	-9.07226
疎	-9.0725
鄙	-9.07281
匿	-9.07287
高祖	-9.07313
戴	-9.07315
驛	-9.07349
割	-9.07349
從容	-9.07432
宮	-9.07612
其事	-9.07946
儒	-9.08121
焚	-9.08707
舟	-9.0878
桓	-9.08857
擒	-9.08911
仲	-9.08942
品	-9.09011
魏徴	-9.09132
嬰	-9.09219
十二年	-9.09229
屋	-9.09281
骨	-9.09299
裁	-9.09339
租	-9.09354
削	-9.09385
停	-9.09414
李林甫	-9.09634
下詔	-9.09899
堪	-9.09913
中書	-9.09953
不至	-9.09983
是日	-9.1007
山東	-9.10195
得失	-9.10462
徃	-9.10542
十二	-9.10554
其後	-9.10647
丹	-9.10747
人情	-9.1075
端	-9.10825
牙	-9.10951
乏	-9.10987
戎	-9.11103
妃	-9.11168
刺	-9.11202
卷	-9.11388
增	-9.11403
譽	-9.11435
蔡	-9.11452
流涕	-9.11457
昏	-9.1147
迹	-9.1147
之禮	-9.11774
弊	-9.11858
傳二十	-9.11862
倍	-9.11868
王者	-9.11886
順帝	-9.11905
晉陽	-9.12071
髙帝	-9.12122
太宗曰	-9.12232
文武	-9.12376
豈得	-9.1249
半	-9.12516
晟	-9.1284
舎	-9.12953
憲	-9.12965
側	-9.13012
擢	-9.13025
趙王	-9.131
將兵	-9.13108
詔書	-9.13259
早	-9.13269
時人	-9.13289
讒	-9.13289
河北	-9.13345
儲	-9.13354
擊之	-9.13388
見之	-9.13399
驕	-9.13413
園	-9.13456
翼	-9.13456
鳯	-9.13466
殘	-9.13468
壁	-9.1347
塗	-9.13542
薨	-9.13558
醉	-9.13559
構	-9.13569
彌	-9.13571
曹操	-9.13608
用兵	-9.13754
蕭何	-9.1392
大司馬	-9.14106
不得已	-9.14345
自今	-9.14874
穆	-9.15077
募	-9.15077
縁	-9.15086
尺	-9.1521
矯	-9.15417
它	-9.15576
盧	-9.15605
顥	-9.15641
曰君	-9.15641
贊	-9.15646
䕶	-9.15684
錯	-9.15686
抗	-9.15687
辯	-9.15691
隠	-9.15716
丞	-9.15717
濬	-9.1573
檢	-9.15753
遭	-9.15769
痛	-9.15777
詳	-9.15827
革	-9.15889
東宫	-9.15891
友	-9.15977
殆	-9.16146
民間	-9.16366
竹	-9.16634
哭	-9.16653
取之	-9.16655
自古	-9.16775
國之	-9.16788
無復	-9.17152
婦	-9.17158
以其	-9.17199
傳六十	-9.17501
竭	-9.17508
其所	-9.17545
冬	-9.1756
侯景	-9.17627
粟	-9.17768
/	-9.17808
斗	-9.17815
雞	-9.17823
序	-9.17824
孟	-9.17838
貌	-9.17843
古者	-9.17876
狂	-9.17888
屠	-9.17947
緩	-9.17951
講	-9.17965
蔽	-9.17972
譖	-9.18009
恒	-9.18015
愧	-9.18052
之臣	-9.18066
河東	-9.18138
何不	-9.18184
此乃	-9.18546
城中	-9.18556
天地	-9.18668
江淮	-9.1884
出入	-9.1884
貧	-9.19133
萬人	-9.19222
猛	-9.19298
預	-9.1943
吏民	-9.19601
傳四十	-9.19643
為太子	-9.19969
規	-9.19987
徽	-9.20016
倉	-9.20062
勒	-9.20105
盖	-9.2017
格	-9.20205
談	-9.20206
弓	-9.20216
畧	-9.20217
収	-9.20253
妖	-9.20253
金帛	-9.20257
譏	-9.2026
富貴	-9.20299
賔客	-9.20299
内史	-9.20391
謀反	-9.20413
匹	-9.2046
闕	-9.20819
發兵	-9.20824
牧	-9.20858
不然	-9.20895
覺	-9.20916
厲	-9.20984
朝臣	-9.21364
曰汝	-9.2145
其罪	-9.2152
淮南	-9.21638
貴人	-9.21647
憚	-9.21913
借	-9.22127
彭	-9.22234
笑曰	-9.2227
饑	-9.22326
悔	-9.22389
乾	-9.2241
哀帝	-9.22434
賤	-9.22434
柔	-9.22455
祐	-9.22457
阻	-9.22476
盈	-9.22484
茂	-9.22484
浸	-9.22505
䧟	-9.22507
董	-9.22514
限	-9.22539
有罪	-9.22546
訪	-9.22548
潛	-9.22594
劉裕	-9.22623
不當	-9.22752
他	-9.23004
防	-9.23211
太平	-9.23221
入見	-9.23376
上疏以為	-9.23391
御史大夫	-9.23394
泌	-9.23492
渾	-9.23803
郡縣	-9.23994
畜	-9.24145
長史	-9.24157
夕	-9.24382
九年	-9.24538
竇	-9.24679
池	-9.24711
二千石	-9.24771
皮	-9.24771
巢	-9.24787
泉	-9.248
上疏	-9.2484
奮	-9.24846
蕩	-9.24847
舅	-9.24851
慕	-9.24863
倚	-9.24903
春秋	-9.24911
之志	-9.24947
鹽	-9.24957
卜	-9.24975
明堂	-9.24985
給事中	-9.24991
没	-9.24998
諸子	-9.25141
數百	-9.25448
荆	-9.25552
之衆	-9.25641
望之	-9.25685
不出	-9.25788
千里	-9.25848
州郡	-9.25979
讀	-9.26062
一日	-9.26249
讎	-9.26271
數十	-9.2632
之法	-9.26554
洛	-9.26591
十一年	-9.2661
其意	-9.26627
庸	-9.26977
有餘	-9.27019
晦	-9.27067
劾	-9.27068
苑	-9.27096
建康	-9.27137
仰	-9.27218
房	-9.27256
頓	-9.27259
綱	-9.27277
以聞	-9.27292
毅	-9.27301
式	-9.27304
税	-9.27307
􁰎	-9.27326
濫	-9.27388
怪	-9.27406
諷	-9.27489
無罪	-9.27503
王莽	-9.27515
學士	-9.27545
侍御史	-9.27562
東都	-9.2759
府庫	-9.27682
禦	-9.27786
宗廟	-9.27928
關中	-9.28016
不若	-9.2826
朋黨	-9.28281
代之	-9.28289
以下	-9.28633
録	-9.28812
支	-9.29201
彦	-9.2939
旦	-9.29413
其餘	-9.29446
吕	-9.29682
匡	-9.29703
而無	-9.29728
尸	-9.29747
以為然	-9.2977
排	-9.29775
獵	-9.29807
扶	-9.29808
整	-9.29817
重誨	-9.29817
其人	-9.29818
柱	-9.29825
葬	-9.29844
璽	-9.29867
陷	-9.29904
是也	-9.29904
齎	-9.29906
掩	-9.29926
朱全忠	-9.29926
將帥	-9.3005
固辭	-9.30327
郡國	-9.30442
孟康曰	-9.30486
戮	-9.31015
中書令	-9.31101
人心	-9.3134
至此	-9.31683
谷	-9.3178
數千	-9.31835
協	-9.31942
𨽻	-9.32153
彪	-9.32244
鍾	-9.32263
繁	-9.32325
遵	-9.32328
貫	-9.32329
羌	-9.32335
擁	-9.32338
逢吉	-9.32344
朗	-9.32345
㓜	-9.32363
却	-9.32368
游	-9.32369
勉	-9.32372
埶	-9.32375
歳	-9.32387
十萬	-9.32391
贈	-9.32433
校尉	-9.32447
懸	-9.32455
車駕	-9.32455
以問	-9.32472
中郎將	-9.32483
度支	-9.32499
墮	-9.32518
李徳裕	-9.32537
悲	-9.32538
宋璟	-9.32567
彭城	-9.3263
四夷	-9.32768
大事	-9.32883
條	-9.32922
皆為	-9.32923
邀	-9.33098
伺	-9.33203
入宫	-9.33208
之命	-9.33281
衍	-9.33335
足下	-9.33447
忍	-9.33473
臣竊	-9.33666
不與	-9.34094
藉	-9.34206
皆以	-9.34335
俊	-9.34348
聖人	-9.34394
人臣	-9.34426
怒曰	-9.34563
豈有	-9.34702
屏	-9.34837
曰夫	-9.34839
駢	-9.34857
篇	-9.34878
湯	-9.34891
皆有	-9.34913
甘	-9.34915
露	-9.34919
歩	-9.34926
旬	-9.34939
壯	-9.34945
斥	-9.34946
幼	-9.3497
莊	-9.35017
姚	-9.35021
配	-9.35034
潰	-9.35035
程	-9.35045
回	-9.35052
侍郎	-9.35105
涉	-9.35106
謬	-9.35107
玊	-9.3511
彰	-9.35112
懿	-9.35123
晝夜	-9.35124
沮	-9.35124
通鑑總𩔖卷	-9.35131
御史中丞	-9.35203
江南	-9.35287
終不	-9.35303
不悦	-9.35424
盗賊	-9.35561
元載	-9.35658
問之	-9.35682
傳三十	-9.35819
數人	-9.35988
其父	-9.36083
不可以	-9.36141
之際	-9.3621
何所	-9.36475
怨望	-9.36533
僕射	-9.36547
庫	-9.36565
精兵	-9.36591
司徒	-9.36638
吴	-9.36673
之徒	-9.36679
来	-9.36746
數日	-9.3682
後世	-9.36878
寡	-9.36919
不勝	-9.3693
而後	-9.3699
馮道	-9.37081
環	-9.37275
舒	-9.37327
不忍	-9.37372
鹿	-9.37599
廬	-9.37621
十三年	-9.37656
鳥	-9.37659
巡	-9.37676
沖	-9.37683
尚書令	-9.37689
閩	-9.37691
懲	-9.37697
絳	-9.377
絹	-9.37702
亟	-9.37719
警	-9.3772
級	-9.37726
謗	-9.37728
判官	-9.37742
挾	-9.37747
縛	-9.37753
贄	-9.37769
壞	-9.37779
耕	-9.37782
履	-9.37786
彈	-9.37801
臂	-9.37831
効	-9.37836
禄山	-9.37842
宏	-9.37858
外戚	-9.37868
卓	-9.37874
王公	-9.3811
言其	-9.38255
之中	-9.38273
博士	-9.3828
者多	-9.38449
自謂	-9.38499
而死	-9.3852
視之	-9.38646
大喜	-9.38652
殺人	-9.387
門唐	-9.38716
忠臣	-9.38729
待之	-9.39094
士民	-9.39228
鐵	-9.39308
未可	-9.39419
官軍	-9.39535
上曰	-9.39723
不堪	-9.3975
之日	-9.39879
宗室	-9.40021
中尉	-9.40198
魏王	-9.40282
弗	-9.40352
罰	-9.40396
巴	-9.40396
郊	-9.40429
院	-9.40433
朝士	-9.40451
躬	-9.40471
悟	-9.40474
叔文	-9.40477
久之	-9.40485
賔	-9.40498
擅	-9.40503
奢	-9.40505
其衆	-9.40515
减	-9.40524
粲	-9.40563
柳	-9.40566
穿	-9.40572
牒	-9.40584
熟	-9.40586
襃	-9.40597
項羽	-9.40603
侃	-9.40604
占	-9.40617
它日	-9.40666
太原	-9.40687
顯祖	-9.40932
綽	-9.41174
婦人	-9.41246
黙然	-9.41414
大驚	-9.41705
東晉	-9.41815
源	-9.42165
道路	-9.42289
服䖍曰	-9.42456
三日	-9.42593
數萬	-9.42719
訴	-9.4273
不行	-9.42738
何必	-9.43033
牢	-9.43127
盟	-9.43131
莽	-9.43147
舞	-9.43189
上皇	-9.43226
靖	-9.43237
掾	-9.43247
憤	-9.43261
葢	-9.43263
植	-9.43297
臣恐	-9.43304
剛	-9.43347
完	-9.43355
纔	-9.43364
范	-9.43382
寄	-9.43395
睿	-9.43413
中原	-9.43427
逹	-9.43429
珠	-9.43431
擬	-9.43432
社	-9.43432
十五	-9.43435
崇韜	-9.43462
乖	-9.43478
叱	-9.43502
臣等	-9.43579
三人	-9.43633
闗中	-9.43796
項王	-9.43814
耳目	-9.43829
宫人	-9.43926
自言	-9.44165
張晏曰	-9.44483
答	-9.44569
無功	-9.44772
後宫	-9.44826
除之	-9.4492
士大夫	-9.45292
京兆尹	-9.45453
對曰臣	-9.45465
諡	-9.45762
之勢	-9.45914
於此	-9.46154
毋	-9.46157
旗	-9.46171
科	-9.4618
陶	-9.46197
舜	-9.46206
沙	-9.46207
銀	-9.46217
宿衛	-9.46251
貞觀	-9.46292
斂	-9.46303
歛	-9.46306
恣	-9.46308
名也	-9.46309
十五年	-9.46335
穀	-9.4635
徑	-9.46353
仁傑	-9.46354
忿	-9.46369
咎	-9.46371
鑿	-9.4638
監察御史	-9.46417
蠻	-9.46442
二千	-9.46486
不免	-9.46515
之世	-9.46526
羣下	-9.46778
逺近	-9.46812
之義	-9.46884
賞賜	-9.46923
從榮	-9.46939
殿下	-9.46943
日夜	-9.47047
元忠	-9.47063
後晉	-9.47094
韓信	-9.47159
鳴	-9.4716
祥	-9.47171
可謂	-9.47248
上疏曰	-9.47254
衆心	-9.47293
三思	-9.47557
以上	-9.47562
豈不	-9.477
厭	-9.47874
千餘人	-9.48073
亦不	-9.4811
號曰	-9.48206
三千	-9.48564
無以	-9.48655
渡	-9.48712
戚	-9.48976
行之	-9.49031
禪	-9.49037
甫	-9.49052
厯	-9.49053
𦵏	-9.49102
不見	-9.49123
自以	-9.49189
尹	-9.49213
曉	-9.49288
亊	-9.493
㓂	-9.49311
勅	-9.49311
亷	-9.49372
淺	-9.49379
抱	-9.49388
郭崇韜	-9.49392
牀	-9.4943
荅	-9.49431
欺	-9.49434
李絳	-9.4944
幹	-9.49453
紙	-9.49502
恪	-9.49541
誘	-9.49621
李泌	-9.49664
呉主	-9.49698
三百	-9.49775
也言	-9.49795
也夫	-9.4991
詰	-9.49942
戸	-9.50154
視事	-9.50276
即日	-9.50597
傳十	-9.50661
不服	-9.50714
如故	-9.50856
乃以	-9.50877
皇太子	-9.50992
置酒	-9.51033
開元	-9.51092
鄧	-9.51153
燒	-9.512
司空	-9.51384
南唐	-9.51427
以求	-9.51466
臣下	-9.51644
瑞	-9.51686
矜	-9.51953
隙	-9.52013
不聴	-9.52117
安能	-9.52143
男	-9.52158
湖	-9.52189
竟不	-9.5224
之官	-9.52302
安得	-9.52332
蕃	-9.5238
筆	-9.52384
五十	-9.52386
劍	-9.52399
鳯翔	-9.52409
料	-9.52412
括	-9.5242
嫌	-9.52432
冒	-9.52434
弔	-9.52462
秩	-9.52473
徇	-9.52541
啟	-9.52542
侈	-9.52548
捷	-9.52567
又以	-9.5257
價	-9.52625
含	-9.52627
懿宗	-9.52645
腹心	-9.52649
宫室	-9.52684
三十六	-9.52773
太常	-9.5294
一切	-9.52979
攻之	-9.53154
慰	-9.53179
奏請	-9.53217
三十	-9.53395
人君	-9.53452
無益	-9.53788
陳平	-9.53976
得之	-9.54061
大梁	-9.54217
荆州	-9.54698
帳	-9.55225
軌	-9.55248
範	-9.55266
如此則	-9.55279
慙	-9.55318
根	-9.55339
篤	-9.55427
仗	-9.55454
衝	-9.55596
瓊	-9.55642
自殺	-9.55643
偏	-9.55655
攝	-9.55666
十餘	-9.55669
婢	-9.55669
麗	-9.55698
毒	-9.5571
崔𦙍	-9.55711
莫能	-9.55731
娶	-9.55732
贍	-9.55734
介	-9.55736
翰	-9.55741
恕	-9.55744
暮	-9.55757
徧	-9.55762
壊	-9.55783
詭	-9.55793
齊丘	-9.55835
郭威	-9.5595
往往	-9.55973
之名	-9.56133
知誥	-9.56171
都督	-9.56203
後周	-9.56259
數年	-9.56493
汴	-9.5653
至于	-9.56543
之家	-9.56618
悉以	-9.56643
何也	-9.56771
自稱	-9.56804
斛	-9.56844
譛	-9.56872
當時	-9.56968
必不	-9.56992
百萬	-9.57073
十四年	-9.57117
不言	-9.57198
不疑	-9.57251
和親	-9.57271
明公	-9.57504
釋之	-9.57574
飲酒	-9.57601
先生	-9.57679
之外	-9.57729
吏部尚書	-9.57867
不恱	-9.57873
國忠	-9.58067
大將	-9.58103
段	-9.58153
取其	-9.58209
)	-9.58635
人也	-9.58656
突	-9.58699
對曰陛下	-9.58765
於外	-9.58827
鈞	-9.58828
仕	-9.58856
直言	-9.58873
西域	-9.58918
李竒曰	-9.58924
簿	-9.58936
琛	-9.58944
古之	-9.5895
隔	-9.58961
漏	-9.58985
樊	-9.59007
喻	-9.5901
賛	-9.59033
缺	-9.59063
敬瑭	-9.59067
誓	-9.59067
肆	-9.59075
頴	-9.5908
貴戚	-9.59092
夢	-9.59096
賞罰	-9.591
黄巢	-9.5912
虧	-9.5914
泄	-9.5914
詣闕	-9.59158
臣光曰	-9.59171
即皇帝位	-9.59176
姚崇	-9.59181
貴妃	-9.59298
召見	-9.5932
曰若	-9.59411
百餘人	-9.59448
相繼	-9.59476
成都	-9.59536
東魏	-9.59816
請以	-9.59861
義府	-9.59867
魏人	-9.60074
無事	-9.60431
輔國	-9.60433
稱臣	-9.60527
漢主	-9.60568
亦有	-9.60623
臣聞	-9.6064
日月	-9.60859
也若	-9.60944
一朝	-9.61164
不同	-9.61212
將吏	-9.61232
大功	-9.61465
遂以	-9.61497
江東	-9.61638
所居	-9.61686
寨	-9.61903
參軍	-9.61954
為宰相	-9.61966
宰	-9.61984
烏	-9.62052
之道	-9.62207
蒲	-9.62237
韜	-9.62273
妻子	-9.62317
蘇林曰	-9.62321
璋	-9.62327
愷	-9.62328
紫	-9.62394
𤣥齡	-9.62407
枉	-9.62409
旱	-9.6241
諸葛亮	-9.62429
訟	-9.62449
瞻	-9.62463
誕	-9.62465
京兆	-9.62479
葉	-9.62483
桓帝	-9.62483
耗	-9.62491
鑒	-9.62543
凖	-9.62545
踐	-9.62546
旣	-9.62567
璟	-9.62581
佳	-9.62662
旬日	-9.62664
璘	-9.62681
風俗	-9.62701
京城	-9.62722
不在	-9.62726
未能	-9.62897
張良	-9.62926
如何	-9.62927
王導	-9.62939
劉氏	-9.62972
奏之	-9.63107
南北	-9.63167
常侍	-9.63175
馬援	-9.63257
於前	-9.63336
非所以	-9.63552
鑄錢	-9.63727
之術	-9.63736
千人	-9.63895
十四	-9.64013
洪	-9.6408
使之	-9.64145
歸之	-9.64264
以備	-9.64444
之初	-9.64511
不平	-9.64532
也故	-9.64534
告之	-9.64591
有三	-9.64853
未至	-9.64901
燕王	-9.65138
者以	-9.65175
以是	-9.65199
都尉	-9.65224
為嗣	-9.65232
而還	-9.65273
出於	-9.65384
為天子	-9.65401
什	-9.65433
遣人	-9.65757
數千人	-9.65767
暉	-9.65771
敞	-9.6582
卿等	-9.65871
亭	-9.65885
叙	-9.65888
閣	-9.65913
遁	-9.65917
尾	-9.65946
兆	-9.65962
矢	-9.65973
其母	-9.65985
諌曰	-9.66013
藝	-9.66015
祿	-9.66018
厥	-9.66026
於上	-9.66028
麻	-9.66046
予	-9.66057
凝	-9.6607
邸	-9.66075
裂	-9.66077
珍	-9.6608
津	-9.66096
蘭	-9.66096
耶	-9.66097
饗	-9.66098
促	-9.66111
寤	-9.66115
故人	-9.6612
誦	-9.66129
僖宗	-9.66143
窺	-9.6615
肥	-9.66154
檄	-9.66169
武帝曰	-9.6617
膳	-9.66178
鞭	-9.66187
秦王堅	-9.66213
朝野	-9.66224
不可不	-9.66296
朝夕	-9.66359
不能用	-9.6637
可汗	-9.66405
大敗	-9.66456
以為不可	-9.66514
少府	-9.66517
南陽	-9.66628
所欲	-9.66644
數百人	-9.66697
其黨	-9.66894
萬一	-9.66928
立功	-9.67068
舊制	-9.67199
更名	-9.67228
疑之	-9.6733
得罪	-9.67371
是嵗	-9.67388
為政	-9.67403
所宜	-9.67432
獨不	-9.67531
抵	-9.67906
中使	-9.68089
州司馬	-9.68164
中山	-9.68176
事之	-9.68248
乃更	-9.68437
常以	-9.68467
之民	-9.6854
之禍	-9.6856
珪	-9.68575
拘	-9.68645
帝王	-9.68732
十餘人	-9.68812
員	-9.6903
之計	-9.69057
堯	-9.69135
腹	-9.6918
姦臣	-9.69207
袁	-9.69433
黃	-9.69531
川	-9.69537
桑	-9.69586
弩	-9.69593
管	-9.69594
為陛下	-9.6962
傑	-9.69672
䘮	-9.69673
課	-9.69719
巾	-9.69725
圗	-9.69729
械	-9.69734
寸	-9.69748
脅	-9.6975
昶	-9.69752
廵	-9.69754
諫議大夫	-9.6976
算	-9.69762
激	-9.69768
渉	-9.69771
創	-9.69777
墜	-9.6978
輦	-9.69782
涕泣	-9.69804
仁厚	-9.69804
午	-9.69843
鼎	-9.6985
粗	-9.6986
冰	-9.6986
㑹稽	-9.6988
贓	-9.69882
堯舜	-9.69911
罵	-9.69935
安重誨	-9.70037
勁	-9.70105
萬餘人	-9.70216
元嘉	-9.70237
皇子	-9.70263
返	-9.70341
災異	-9.70399
不絶	-9.70474
贖	-9.70484
節度	-9.70642
愛之	-9.70796
縣令	-9.7081
至尊	-9.71088
乆之	-9.71116
賜之	-9.71202
置之	-9.71329
十八	-9.71364
不克	-9.71442
而退	-9.71467
宥	-9.71608
無敢	-9.71746
荀	-9.72057
門下	-9.72171
二子	-9.72177
何足	-9.72356
者謂之	-9.72475
今陛下	-9.72526
兹	-9.72547
不顧	-9.72665
欲與	-9.7275
鮮	-9.73081
勃	-9.73281
圜	-9.73285
幽州	-9.7329
産	-9.73381
晚	-9.73405
區	-9.73419
井	-9.73425
賴	-9.73451
多所	-9.73497
恢	-9.73513
倒	-9.73522
袁紹	-9.73524
㦸	-9.73526
單	-9.73557
謂侍臣曰	-9.73565
童	-9.73565
沛公	-9.73568
禽	-9.73572
九齡	-9.73583
穢	-9.73592
謟	-9.73593
顗	-9.73609
髮	-9.73612
艾	-9.73633
距	-9.73642
艱難	-9.73644
沒	-9.73647
界	-9.73647
例	-9.73647
騰	-9.7365
樞	-9.73651
䖍	-9.73679
征伐	-9.73683
伍	-9.73689
詞	-9.73693
儻	-9.73701
滎陽	-9.73724
蒙	-9.73737
禍福	-9.73746
中書舎人	-9.73768
蝗	-9.73799
淑妃	-9.73811
沙門	-9.73869
楊國忠	-9.7389
徳裕	-9.73907
閩主	-9.7392
史官	-9.73997
元和	-9.74069
衣冠	-9.74096
有疾	-9.74107
師傅	-9.74141
鄴	-9.74207
諸司	-9.7426
數十人	-9.74288
不利	-9.74311
何得	-9.74318
甚厚	-9.74506
人所	-9.74581
制度	-9.74699
賢才	-9.74744
愬	-9.74805
齊主	-9.74951
法度	-9.74975
陜	-9.74984
遣之	-9.752
謝安	-9.75287
宗族	-9.75326
在位	-9.75388
靡	-9.75502
諸君	-9.75506
百餘	-9.76072
欲使	-9.7617
所得	-9.76205
患之	-9.76226
受命	-9.76306
功名	-9.76453
襄	-9.76773
豈非	-9.76807
房𤣥齡	-9.76817
而出	-9.7682
遜	-9.76829
下獄	-9.76857
文學	-9.76999
陸贄	-9.77057
衆皆	-9.77066
駭	-9.77067
出兵	-9.77201
汗	-9.77295
疲	-9.77339
稽	-9.7742
紳	-9.77431
否	-9.7744
静	-9.77476
桑維翰	-9.77488
譙	-9.77488
囊	-9.77505
淫	-9.77514
曠	-9.77515
坊	-9.77525
活	-9.77533
其中	-9.77548
翔	-9.77554
譴	-9.77556
疆	-9.77557
脩	-9.77583
練	-9.77603
釁	-9.77611
邦	-9.77615
雉	-9.77623
蓄	-9.77635
辦	-9.77639
憑	-9.77647
棺	-9.77664
舊臣	-9.77668
吏部侍郎	-9.77681
歎息	-9.77683
餉	-9.77691
浚	-9.77691
滯	-9.77701
慕容	-9.77703
有此	-9.77716
時人謂之	-9.77725
護	-9.7773
郭子儀	-9.77741
親戚	-9.77751
議之	-9.77771
俸	-9.77789
禁中	-9.77872
隂陽	-9.77878
鄭注	-9.77888
臨朝	-9.77937
河陽	-9.77992
往來	-9.78089
於道	-9.78121
一年	-9.78154
真卿	-9.78206
隱帝	-9.78245
三司	-9.78251
留守	-9.7827
所殺	-9.78278
自然	-9.78376
家人	-9.7841
官屬	-9.78447
克用	-9.78455
六軍	-9.785
大軍	-9.78511
不自安	-9.7858
河中	-9.78607
以事	-9.78612
子儀	-9.78645
斤	-9.78741
悰	-9.79089
慶之	-9.79198
臣請	-9.79318
將佐	-9.79335
不盡	-9.79372
秦王	-9.79389
不死	-9.79441
深入	-9.79522
二百	-9.79561
之黨	-9.7959
之患	-9.79644
唐太宗	-9.7971
古今	-9.79715
列侯	-9.79741
後梁	-9.79925
王氏	-9.79959
之内	-9.80072
仙	-9.8018
留之	-9.8025
於天下	-9.80374
不食	-9.80709
守之	-9.80733
十三	-9.80737
帛	-9.81056
信之	-9.81069
忌之	-9.81085
慢	-9.81163
父母	-9.81283
崔浩	-9.81396
不取	-9.81479
五月	-9.81546
欽	-9.81587
媚	-9.81668
臧	-9.81672
仁軌	-9.81678
不息	-9.81689
編	-9.81693
鬼	-9.81695
㡬	-9.81695
夾	-9.81706
吉凶	-9.81718
弛	-9.8172
栁	-9.81723
續	-9.8173
齒	-9.81732
犇	-9.81739
強	-9.81739
㢘	-9.8176
脱	-9.81772
晩	-9.81784
貢獻	-9.81787
荷	-9.81789
譚	-9.81791
銓	-9.81793
渠	-9.81793
準	-9.81799
梟	-9.81801
巖	-9.81803
其才	-9.81813
祗	-9.81818
寜	-9.81832
貯	-9.81837
嶺南	-9.81843
光禄大夫	-9.81845
座	-9.81869
李德裕	-9.8187
罕	-9.81874
消	-9.81882
恂	-9.81886
衛士	-9.81892
乘輿	-9.81896
中書舍人	-9.81897
男女	-9.81903
屯田	-9.81914
糾	-9.81924
琮	-9.81937
快	-9.81955
太師	-9.81964
睿宗	-9.81992
繇	-9.81995
隋文帝	-9.82017
三月	-9.82054
户口	-9.82055
秀實	-9.82055
布衣	-9.82063
魏徵	-9.82161
江陵	-9.82175
十七	-9.82185
無忌	-9.82266
彦卿	-9.82371
進退	-9.82383
年少	-9.82465
詡	-9.82533
之美	-9.82619
然則	-9.82622
得免	-9.82714
也且	-9.8279
耳今	-9.82819
既至	-9.8287
世民	-9.83154
諫官	-9.83177
大業	-9.83209
見其	-9.83232
不報	-9.83371
頃之	-9.83382
不能自	-9.83395
是非	-9.83533
五百	-9.83663
曰天下	-9.83727
孔子	-9.83821
議者	-9.8392
其實	-9.83945
討賊	-9.84045
降者	-9.84101
可求	-9.84144
王猛	-9.84181
處之	-9.84277
為國	-9.84471
建武	-9.84485
孝武帝	-9.84511
乃命	-9.84569
將相	-9.84594
不願	-9.84619
六十	-9.84729
多不	-9.8473
天命	-9.84749
皆以為	-9.85133
其上	-9.85209
傳五十	-9.85357
閤	-9.85491
以爲	-9.85495
邠	-9.85496
叩頭	-9.8553
大小	-9.85545
嵩	-9.85563
獸	-9.85602
問以	-9.85629
逮	-9.85684
五千	-9.85704
蒼	-9.85803
茂貞	-9.85917
之上	-9.85978
閒	-9.85994
巨	-9.86031
咨	-9.86039
晝	-9.86042
泣曰	-9.86042
湛	-9.86045
桀	-9.86049
純	-9.86058
救之	-9.86059
枝	-9.86064
聘	-9.86071
狗	-9.86071
撰	-9.86073
暑	-9.86078
雀	-9.86102
髪	-9.86103
靜	-9.86108
織	-9.86115
披	-9.86124
鴻	-9.86124
壹	-9.86125
普	-9.86128
冊	-9.86129
鬬	-9.86135
泚	-9.86135
敇	-9.86164
撓	-9.86164
板	-9.86166
不聞	-9.86168
唱	-9.86183
奚	-9.86191
二十四	-9.86193
麥	-9.86197
偶	-9.86229
辰	-9.86246
軍國	-9.86266
郁	-9.86333
書奏	-9.8639
百司	-9.86392
黄門	-9.86528
禍亂	-9.86574
黄帝	-9.86603
不必	-9.86697
之弊	-9.86733
處分	-9.8679
俊臣	-9.8683
出為	-9.86884
不安	-9.87145
君集	-9.87297
為我	-9.87299
已下	-9.87352
十七年	-9.87415
舍人	-9.87432
建安	-9.87442
可乎	-9.87475
何故	-9.87481
景帝	-9.87587
不拜	-9.87606
為一	-9.8769
之屬	-9.87781
封禪	-9.87803
公私	-9.87937
三萬	-9.8794
門外	-9.87954
者必	-9.8804
吳王	-9.88044
者為	-9.88098
坦	-9.88324
楚王	-9.88418
或以	-9.8849
恐其	-9.88611
弟子	-9.88625
賜死	-9.88831
軍府	-9.89044
入城	-9.89122
也又	-9.89207
古人	-9.8921
恤	-9.89242
極言	-9.89363
不問	-9.89384
察其	-9.89463
更相	-9.89515
在外	-9.89518
各有	-9.8955
弑	-9.89722
之制	-9.89762
丈	-9.89776
納之	-9.89801
乃得	-9.90001
舉兵	-9.90187
十六	-9.90202
頼	-9.90232
二月	-9.90302
郎中	-9.90316
黒	-9.90386
食貨志	-9.90395
育	-9.90432
詢	-9.90448
逢	-9.90489
提	-9.90499
秉	-9.90511
皆出	-9.90524
朋	-9.90549
邉	-9.90581
壘	-9.90582
鉤	-9.90584
乎對曰	-9.90607
龜	-9.90625
享	-9.90629
麟	-9.90636
昆	-9.90637
欵	-9.90637
河西	-9.90643
弄	-9.90645
幕	-9.90645
酬	-9.90649
𨼆	-9.9065
邕	-9.90656
潜	-9.9066
以待	-9.90664
綺	-9.90668
器械	-9.90678
妙	-9.9068
術士	-9.90684
觀察使	-9.90695
盤	-9.90707
墓	-9.90715
溺	-9.90719
台	-9.90721
飢	-9.90726
酷	-9.90727
晞	-9.9073
訊	-9.90734
之國	-9.90735
齋	-9.90735
蛇	-9.90737
鮮卑	-9.90737
貸	-9.90745
跪	-9.90753
慟哭	-9.90758
逰	-9.90758
狎	-9.90759
嬖	-9.90775
倦	-9.90778
𢎞肇	-9.90785
泓	-9.9081
鼔	-9.90816
是夕	-9.90826
凢	-9.90842
囘	-9.90848
枕	-9.90848
丕	-9.90875
榜	-9.90919
飲食	-9.90944
可否	-9.90954
境内	-9.90959
頡利	-9.90961
八月	-9.9098
交通	-9.91082
廣陵	-9.91102
不暇	-9.91105
不失	-9.91107
帥衆	-9.91125
悔之	-9.9126
有隙	-9.9133
山陵	-9.91332
恵帝	-9.9134
衆人	-9.9139
之故	-9.9141
均王	-9.91427
詔以	-9.91447
輕重	-9.91643
李固	-9.91674
第一	-9.91695
百人	-9.91724
更始	-9.91783
進士	-9.91794
東西	-9.91806
前世	-9.91958
未及	-9.91967
而止	-9.92084
於下	-9.92201
已定	-9.92213
欲令	-9.92369
所親	-9.92435
賜以	-9.92501
長者	-9.92529
其功	-9.92553
髙祖曰	-9.92657
而立	-9.92776
不足以	-9.92805
所用	-9.92951
善之	-9.92985
皆不	-9.93105
汝曹	-9.93129
銜	-9.93248
一時	-9.93313
為亂	-9.93316
買	-9.93356
前漢	-9.9349
十二月	-9.9377
十一	-9.93786
得人	-9.9379
晉灼曰	-9.93883
相見	-9.94075
方今	-9.94095
繩	-9.94199
十九	-9.9424
何敢	-9.9428
拜謝	-9.94385
至徳	-9.94604
乃出	-9.94623
𤣥宗	-9.94633
朝政	-9.94855
外人	-9.94892
道士	-9.94946
國人	-9.94997
散騎常侍	-9.95034
琅邪	-9.95118
繡	-9.95155
宇	-9.95197
鄰	-9.9521
鎛	-9.9524
宗閔	-9.9525
軍事	-9.95284
豎	-9.95291
不信	-9.95291
翁	-9.95292
譬	-9.95293
岳	-9.95302
友珪	-9.95322
姑	-9.95333
遼	-9.95333
瓦	-9.9535
證	-9.95356
汙	-9.9536
垣	-9.95361
延壽	-9.95364
姪	-9.9537
羽林	-9.95382
表請	-9.95384
吞	-9.95389
障	-9.95391
搏	-9.95393
奬	-9.95394
縣官	-9.95394
扇	-9.95401
秘	-9.95405
泥	-9.95414
吐	-9.95415
跡	-9.95422
之𩔖	-9.95425
希烈	-9.95443
㪚	-9.95444
文帝紀	-9.95451
匱	-9.95451
㨗	-9.95472
商賈	-9.95472
敎	-9.95472
綱紀	-9.95472
乗輿	-9.95482
岐	-9.95484
骨肉	-9.9549
祜	-9.95496
潁川	-9.95498
曦	-9.95506
百官公卿表	-9.95509
滉	-9.9552
萌	-9.95531
戎狄	-9.95532
飬	-9.95565
踈	-9.95571
於人	-9.95579
麾下	-9.95584
值	-9.95591
顔真卿	-9.95615
桓𤣥	-9.95622
嶠	-9.9566
守貞	-9.95664
右僕射	-9.95686
未幾	-9.95711
李晟	-9.95769
遣使者	-9.9578
風雨	-9.95783
黄金	-9.958
吏部	-9.95842
綬	-9.95845
襄陽	-9.95889
萬物	-9.95891
待罪	-9.95908
萬餘	-9.95948
李榖	-9.9597
數月	-9.95987
之情	-9.96078
甲兵	-9.96151
威權	-9.96169
東南	-9.9622
數十萬	-9.96316
禮義	-9.96443
四十	-9.96472
謂之曰	-9.9658
作亂	-9.96589
觀其	-9.96597
攻城	-9.96662
除官	-9.96668
欲立	-9.96688
守光	-9.96715
善惡	-9.96721
思之	-9.96725
進奉	-9.96857
從者	-9.96904
道子	-9.97035
自陳	-9.97054
域	-9.97079
不相	-9.97111
或曰	-9.97165
魏世祖	-9.97186
再拜	-9.97287
多矣	-9.97348
但以	-9.97387
之謀	-9.97389
稱帝	-9.97391
以致	-9.9753
捐	-9.97549
或謂	-9.97621
書生	-9.97742
棄之	-9.97754
十人	-9.97981
曾	-9.98011
城下	-9.98151
漢中	-9.98337
及其	-9.98337
議以為	-9.98466
建武元年	-9.98526
既得	-9.98539
有變	-9.98554
問其故	-9.98615
泌曰	-9.98666
言事	-9.98732
委之	-9.9878
之業	-9.98888
殿中	-9.98952
若不	-9.99063
暉等	-9.99081
起兵	-9.99189
徐州	-9.99249
曰天子	-9.99313
神仙	-9.99346
某	-9.99366
武王	-9.99467
也遂	-9.99602
為天下	-9.99645
涼	-9.99669
中丞	-9.99824
迫	-9.99841
有寵於	-9.99905
而更	-9.99908
至長安	-9.99982
項	-9.99993
播	-10.001
駿	-10.001
皓	-10.0013
未聞	-10.0015
旌	-10.0016
幣	-10.0016
墨	-10.0023
苛	-10.0023
題	-10.0024
句	-10.0029
矣今	-10.0029
契	-10.0031
熊	-10.0031
秦始皇	-10.0032
祝	-10.0033
惲	-10.0035
辛	-10.0037
街	-10.0037
賓客	-10.0037
雋	-10.0038
綜	-10.0038
揺	-10.0038
遥	-10.0039
碑	-10.0041
劇	-10.0041
潘	-10.0041
餌	-10.0042
庻	-10.0043
承業	-10.0043
豫章	-10.0044
李吉甫	-10.0045
庾	-10.0046
嫁	-10.0046
祈	-10.0047
都指揮使	-10.0047
懦	-10.0047
冢	-10.0047
羞	-10.0047
絲	-10.0048
其地	-10.0049
倖	-10.0049
熱	-10.005
染	-10.005
狡	-10.005
諮	-10.0051
状	-10.0052
掖庭	-10.0053
躁	-10.0055
摧	-10.0055
萬機	-10.0058
殂	-10.006
款	-10.006
叔父	-10.006
朔方	-10.0065
靈帝	-10.0067
永和	-10.0068
聰明	-10.0068
張九齡	-10.007
元振	-10.007
李克用	-10.0071
縱横	-10.0074
重之	-10.0075
像	-10.0079
獲罪	-10.0082
是為	-10.0083
專權	-10.0093
甚盛	-10.0093
委任	-10.0096
神明	-10.0097
何謂	-10.0103
三輔	-10.0103
平生	-10.0104
泰山	-10.0106
永平	-10.0111
克寧	-10.0115
武氏	-10.0125
人有	-10.0134
河内	-10.0141
和帝	-10.0141
則有	-10.0146
五人	-10.0151
成功	-10.0158
上書言	-10.0161
也陛下	-10.0164
母子	-10.017
北齊	-10.018
及即位	-10.0182
其心	-10.0188
入相	-10.0194
若有	-10.0228
八十	-10.0242
萬里	-10.0243
文書	-10.0243
中書侍郎	-10.0266
其志	-10.027
於後	-10.0289
者甚衆	-10.0292
中興	-10.0295
引見	-10.0306
受其	-10.0314
有寵	-10.0321
之才	-10.0333
在於	-10.0337
未知	-10.0364
擢為	-10.0364
四時	-10.0367
曰臣聞	-10.0369
李逢吉	-10.0377
迎之	-10.0383
乃復	-10.0396
人以	-10.0413
上書曰	-10.0414
從官	-10.0421
不下	-10.0429
授之	-10.0432
為治	-10.0445
旅	-10.0456
以書	-10.0457
憚之	-10.046
死於	-10.048
臣之	-10.0483
樞宻使	-10.0492
不識	-10.0504
謂人曰	-10.0506
悅	-10.0519
瑜	-10.0519
之路	-10.0521
武帝紀	-10.0532
犬	-10.0544
渭	-10.0546
汲黯	-10.0551
狄	-10.0551
忤	-10.0553
嘗與	-10.0553
俠	-10.0554
慈	-10.0554
延齡	-10.0556
銖	-10.0557
標	-10.0557
壇	-10.0559
姬	-10.0559
犀	-10.0559
塵	-10.0561
茅	-10.0561
裘	-10.0562
典籖	-10.0562
究	-10.0564
璨	-10.0564
赤眉	-10.0564
仙芝	-10.0564
謨	-10.0565
鏐	-10.0565
愍	-10.0565
香	-10.0565
貂	-10.0565
李茂貞	-10.0566
攜	-10.0566
隴	-10.0567
基	-10.0569
詬	-10.0569
不肖	-10.0569
揆	-10.057
蔣	-10.0572
蠲	-10.0572
曜	-10.0572
擲	-10.0572
庾亮	-10.0573
籌	-10.0573
謫	-10.0573
濤	-10.0574
指揮使	-10.0574
閲	-10.0574
陰	-10.0574
淹	-10.0574
朱泚	-10.0575
彦澤	-10.0575
鄧禹	-10.0575
斃	-10.0576
祿山	-10.0576
李宗閔	-10.0579
翰林	-10.058
腰	-10.0581
西域傳	-10.0581
韶	-10.0584
瓘	-10.0584
把	-10.0585
䞇	-10.0586
甘露	-10.0586
淮西	-10.0586
遮	-10.0586
治之	-10.0587
百僚	-10.0589
都統	-10.0593
馮異	-10.0596
用人	-10.0597
他日	-10.0599
以給	-10.0608
湖南	-10.0608
天意	-10.0614
北伐	-10.0615
戍卒	-10.0617
二十年	-10.0621
楊素	-10.0622
安都	-10.0623
五百人	-10.0625
咸通	-10.0628
未甞	-10.0631
史記	-10.0634
使君	-10.0634
不可復	-10.0646
先王之	-10.0649
者謂	-10.0653
尊號	-10.0654
其略曰	-10.066
酒酣	-10.066
軍旅	-10.0664
柄	-10.0675
中人	-10.0682
追之	-10.0686
女子	-10.0701
卿言	-10.0701
公孫	-10.0708
所部	-10.0716
三年初	-10.072
以安	-10.0726
四人	-10.0735
也謂	-10.0735
猶未	-10.0744
亦無	-10.0751
大舉	-10.0751
若以	-10.0755
為將	-10.076
不容	-10.076
大赦	-10.0768
輕騎	-10.077
乃遣	-10.0775
無可	-10.0777
改元	-10.078
聲色	-10.0792
出之	-10.0793
漢興	-10.0794
銜之	-10.0802
足矣	-10.0809
號令	-10.0809
有言	-10.082
競為	-10.0823
北面	-10.084
所知	-10.0863
孰	-10.0864
不知其	-10.0864
之誅	-10.0868
胡人	-10.087
而行	-10.0883
禁軍	-10.0897
自餘	-10.09
勝之	-10.0913
無度	-10.0933
則天	-10.0949
之役	-10.0952
黙	-10.0956
其弊	-10.0957
其首	-10.0983
燕人	-10.0993
武三思	-10.0998
得進	-10.1008
不納	-10.1026
自知	-10.1036
得志	-10.1046
知人	-10.1054
伏兵	-10.1063
頸	-10.107
於内	-10.1073
膺	-10.1077
鋭	-10.1079
謐	-10.1089
時有	-10.1092
大行	-10.1093
相公	-10.1095
之物	-10.1104
乃至	-10.1107
餐	-10.1107
東昏侯	-10.1108
為誰	-10.1108
滋	-10.1109
刃	-10.1109
之過	-10.1112
瑊	-10.1112
臘	-10.1112
仇	-10.1112
伎	-10.1114
印綬	-10.1114
文頴曰	-10.1114
札	-10.1114
隐	-10.1116
遲	-10.1117
霍光	-10.1118
為丞相	-10.1118
鼂錯	-10.1119
鳳	-10.1119
郊祀	-10.1119
狐	-10.112
董卓	-10.112
姊	-10.1121
廉	-10.1121
掃	-10.1121
狼	-10.1122
洽	-10.1122
奄	-10.1123
汾	-10.1123
驢	-10.1124
叚	-10.1124
醜	-10.1125
雕	-10.1127
醫	-10.1127
脫	-10.1127
糓	-10.1128
繕	-10.1128
章帝	-10.1128
曰王	-10.1128
析	-10.1129
桓温	-10.1129
略曰	-10.1129
巳	-10.113
混	-10.113
太妃	-10.1131
九錫	-10.1131
劔	-10.1131
亢	-10.1132
衛尉	-10.1133
帖	-10.1133
駮	-10.1134
㫁	-10.1135
之於是	-10.1137
頻	-10.1137
祕	-10.1137
天成元年	-10.1137
偃	-10.1138
殷浩	-10.1139
水軍	-10.114
御史臺	-10.114
致仕	-10.1142
彧	-10.1142
飽	-10.1143
杞	-10.1143
刑罰	-10.1145
義康	-10.1146
張說	-10.1147
上宋沈樞撰	-10.1148
愔	-10.115
甚多	-10.1153
石顯	-10.1155
䕶軍	-10.1157
離間	-10.1157
疑其	-10.1158
樂工	-10.1159
左右皆	-10.1162
勲舊	-10.1169
望風	-10.1172
不測	-10.1174
左遷	-10.1176
方略	-10.1179
副使	-10.1184
時事	-10.1185
曽	-10.1185
無能	-10.1193
至公	-10.1202
未得	-10.1203
奏言	-10.1204
止之	-10.121
封侯	-10.121
讀書	-10.1211
方士	-10.1211
此言	-10.1214
梁武帝	-10.1216
為盗	-10.1217
得以	-10.122
而用之	-10.1226
千餘	-10.1231
謂左右曰	-10.1231
江北	-10.1234
大恱	-10.1236
借使	-10.1239
卿輩	-10.1243
三老	-10.1248
近臣	-10.1259
施行	-10.1262
處士	-10.1264
顧謂	-10.127
一嵗	-10.1272
屬國	-10.1273
或勸	-10.1274
之盛	-10.1276
金吾	-10.1291
失其	-10.1294
主簿	-10.1311
它人	-10.1311
皇太后	-10.1315
將行	-10.1316
天文	-10.1327
謁者	-10.1341
三十年	-10.1344
起於	-10.1351
聞而	-10.1356
起居	-10.1364
猶有	-10.1367
安帝	-10.1381
何憂	-10.1382
勿以	-10.1384
晉兵	-10.1394
三分	-10.1407
此皆	-10.1408
以避	-10.1425
因言	-10.1429
有才	-10.1433
之憂	-10.1437
曰然則	-10.1449
注曰	-10.1451
所能	-10.1453
當今	-10.1463
流言	-10.1463
無私	-10.1466
罪人	-10.147
諸公	-10.1471
際	-10.1478
也音	-10.148
乃使	-10.1487
良久	-10.1494
曏	-10.1509
皆如	-10.1513
拜之	-10.1513
等曰	-10.1517
黎	-10.1522
人人	-10.1523
盡忠	-10.156
何用	-10.158
曰善	-10.1589
而殺之	-10.1589
門晉	-10.1591
西北	-10.1612
狄仁傑	-10.1621
恵	-10.1629
矣乃	-10.1629
褚遂良	-10.1631
之君	-10.1641
忠直	-10.1644
避之	-10.1648
濳	-10.1662
互	-10.1664
其狀	-10.1665
䟽	-10.1677
壯士	-10.1677
畤	-10.1677
彦章	-10.1678
太和	-10.1687
錫	-10.1688
宜加	-10.1692
斌	-10.1696
崧	-10.1697
饒	-10.1699
褒	-10.1701
輪	-10.1701
郊祀志五	-10.1702
乂	-10.1703
伊	-10.1703
闢	-10.1704
涯	-10.1704
兩漢博聞	-10.1704
剖	-10.1705
霍	-10.1705
鋒	-10.1705
饋	-10.1705
岑	-10.1705
刼	-10.1706
照	-10.1706
綰	-10.1707
豪傑	-10.1707
洞	-10.1708
德裕	-10.1708
膠	-10.1708
束	-10.1708
行瑜	-10.1708
平章事	-10.1709
弁	-10.1709
輜重	-10.1709
鐡	-10.1709
灌	-10.171
牆	-10.1711
余	-10.1711
緯	-10.1712
踵	-10.1713
頊	-10.1713
諱	-10.1713
奴婢	-10.1713
䧏	-10.1713
牽	-10.1713
光武紀	-10.1713
豆	-10.1715
壻	-10.1715
禀	-10.1715
僻	-10.1716
梁冀	-10.1717
寘	-10.1717
劫	-10.1718
劣	-10.1718
偓	-10.1718
暫	-10.1718
伸	-10.1718
隅	-10.1719
閻	-10.172
水陸	-10.172
邢	-10.172
觸	-10.172
狥	-10.1721
厠	-10.1722
宋齊丘	-10.1722
豫州刺史	-10.1722
怯	-10.1722
悍	-10.1722
昱	-10.1723
下宋沈樞撰	-10.1724
大赦改元	-10.1724
晨	-10.1724
従	-10.1724
桓溫	-10.1725
貽	-10.1725
拯	-10.1725
鄭覃	-10.1726
傲	-10.1726
壺	-10.1726
烹	-10.1726
罔	-10.1727
鼠	-10.1728
奇	-10.1728
匠	-10.1729
漕	-10.1729
黄門侍郎	-10.173
雷	-10.173
韓滉	-10.1731
北漢主	-10.1731
舌	-10.1732
匹夫	-10.1732
英雄	-10.1732
有異志	-10.1734
月餘	-10.1735
鞠	-10.1736
百匹	-10.174
交結	-10.1741
魏元忠	-10.1748
輔政	-10.175
議郎	-10.175
甲士	-10.1753
九江	-10.1759
反覆	-10.1763
之風	-10.1763
静帝	-10.1765
髙歡	-10.1768
羣小	-10.1773
亦以	-10.178
之政	-10.1793
戰士	-10.1794
國寶	-10.1811
禮樂	-10.1819
梁主	-10.182
不遜	-10.1821
因此	-10.1829
建州	-10.1836
告身	-10.1838
後患	-10.1843
少卿	-10.1844
終日	-10.1844
廢立	-10.1847
名曰	-10.1851
卿大夫	-10.1852
復為	-10.1856
拒之	-10.1861
曰吾聞	-10.1863
自有	-10.1863
於禁中	-10.1876
朝服	-10.1877
何益	-10.188
而入	-10.1882
分兵	-10.1882
主者	-10.1889
北門	-10.1891
我我	-10.1895
之望	-10.1914
者言	-10.1922
親近	-10.1931
士良	-10.1932
謂曰	-10.1936
益州	-10.1942
緡	-10.1948
聖朝	-10.1973
於庭	-10.1976
未敢	-10.1981
坦之	-10.1981
之恩	-10.1989
在此	-10.2003
職事	-10.2004
其書	-10.2005
聞者	-10.2006
宫女	-10.2006
無道	-10.2008
其主	-10.2012
於朝	-10.202
得無	-10.2036
至京師	-10.2038
魏兵	-10.204
非常之	-10.2046
問曰	-10.205
吾屬	-10.2051
奪其	-10.2051
吾輩	-10.2053
獻之	-10.2057
為帝	-10.207
府兵	-10.208
往者	-10.2085
碎	-10.2087
無它	-10.2097
從事	-10.2102
中有	-10.2102
欲為	-10.2111
死不	-10.2111
中常侍	-10.2112
在上	-10.2115
乃與	-10.2132
言曰	-10.2135
罷兵	-10.2137
黨人	-10.2139
國事	-10.2139
奏稱	-10.2144
過失	-10.2154
畏之	-10.2158
傳七十	-10.2158
之主	-10.2178
自此	-10.2188
甚衆	-10.2192
所舉	-10.2205
盡誅	-10.2214
疾之	-10.2224
其文	-10.2225
多事	-10.2228
安在	-10.2231
杖殺	-10.2244
誥	-10.2253
嗟	-10.228
六月	-10.228
記曰	-10.2286
語曰	-10.2292
偉	-10.2293
貲	-10.2294
有過	-10.2296
上意	-10.2297
篆	-10.2302
滂	-10.2302
以告	-10.2302
淳	-10.2305
太傅	-10.2308
未嘗不	-10.2312
李膺	-10.2312
錡	-10.2316
僚	-10.2316
嘗謂	-10.2318
太僕	-10.2319
岸	-10.232
閔	-10.2321
併	-10.2322
逖	-10.2323
曰主上	-10.2323
揖	-10.2324
刋	-10.2325
鄆	-10.2325
勃勃	-10.2325
翦	-10.2326
臯	-10.2326
不加	-10.2326
菜	-10.2327
皇甫鎛	-10.2327
熈	-10.2328
鏡	-10.2328
炎	-10.2328
眼	-10.2329
繒	-10.2329
兵部尚書	-10.233
梓	-10.233
五萬	-10.2332
猶言	-10.2332
敝	-10.2332
羸	-10.2332
勵	-10.2333
璧	-10.2334
氷	-10.2335
笞	-10.2335
市人	-10.2335
寂	-10.2336
隣	-10.2336
司𨽻校尉	-10.2336
奸	-10.2336
稷	-10.2336
耿	-10.2336
陋	-10.2337
闔	-10.2337
鬻	-10.2338
繆	-10.2338
耀	-10.2338
皇甫	-10.2338
洎	-10.2339
叩	-10.2339
巫	-10.234
鄉里	-10.234
石敬瑭	-10.234
網	-10.234
甄	-10.2342
維翰	-10.2343
穴	-10.2343
飯	-10.2344
撤	-10.2344
义	-10.2344
徼	-10.2344
范陽	-10.2345
李崧	-10.2345
桀紂	-10.2346
糴	-10.2347
叡	-10.2347
其辭	-10.2347
閑	-10.2348
宇文融	-10.2349
包	-10.2349
楷	-10.2349
恭顯	-10.235
行逢	-10.235
乞骸骨	-10.2351
剽掠	-10.2351
尚書左丞	-10.2353
老弱	-10.2354
貴賤	-10.2354
許敬宗	-10.2355
諧	-10.2355
已死	-10.2355
擊毬	-10.2358
檢校	-10.2358
劉仁軌	-10.236
有急	-10.2362
盧杞	-10.2362
數百里	-10.2363
李義府	-10.2365
蒼生	-10.2365
髙麗	-10.2366
十八年	-10.2366
張濬	-10.2367
壽陽	-10.2367
水旱	-10.2368
將至	-10.237
父老	-10.2372
姓名	-10.2373
亡也	-10.2374
喜曰	-10.2375
男子	-10.2375
詩云	-10.2375
勝負	-10.2377
固爭	-10.2378
好學	-10.2381
尤甚	-10.2384
石頭	-10.2384
勒兵	-10.2384
武昌	-10.2385
皆在	-10.2387
将軍	-10.239
毋得	-10.2391
在東宫	-10.2392
安危	-10.2393
再三	-10.2395
苞	-10.2397
者乎	-10.2398
之處	-10.24
天寳	-10.2403
事覺	-10.2406
臣子	-10.2411
不能制	-10.2416
吳主	-10.2416
劾奏	-10.2417
忠義	-10.2418
輔之	-10.242
入侍	-10.2422
隋主	-10.2424
侍讀	-10.2425
還鎮	-10.2439
比來	-10.244
姦邪	-10.2442
魏髙祖	-10.2449
信任	-10.245
之福	-10.245
北漢	-10.2451
且曰	-10.2452
李氏	-10.2457
部員外郎	-10.2457
免官	-10.2461
方鎮	-10.2467
不知所	-10.2476
曰彼	-10.2476
無狀	-10.2479
或有	-10.2495
太公	-10.2498
王峻	-10.2503
逐之	-10.2503
車馬	-10.2508
舎人	-10.2508
之䇿	-10.2508
而遣之	-10.2511
長吏	-10.2513
之號	-10.2518
南方	-10.2519
其妻	-10.2522
東方	-10.2522
以取	-10.2522
稱善	-10.2528
行至	-10.2533
尚未	-10.2535
先朝	-10.2537
謂羣臣曰	-10.2544
齊人	-10.2548
化為	-10.2549
鞫之	-10.2559
來者	-10.256
於市	-10.2564
五日	-10.2567
為司徒	-10.257
當以	-10.257
專以	-10.2584
之變	-10.2587
長子	-10.2588
為王	-10.26
陽侯	-10.2601
以白	-10.2603
無異	-10.2608
以来	-10.261
者衆	-10.2614
之資	-10.2614
利害	-10.2615
皆言	-10.2618
元元年	-10.2624
漢兵	-10.2627
太宗謂	-10.2631
呉越	-10.264
以俟	-10.2645
為大	-10.2652
性剛	-10.2652
不改	-10.2653
未平	-10.2659
憐	-10.2686
復有	-10.2691
即命	-10.2692
肯	-10.2699
自安	-10.27
不避	-10.2704
為吏	-10.2707
欲殺之	-10.2711
退而	-10.2714
必無	-10.2725
諸侯王	-10.2733
又嘗	-10.2735
以待之	-10.2739
王衍	-10.2743
謀議	-10.2743
不豫	-10.2747
詐為	-10.2748
而歸	-10.275
大呼	-10.2759
恐非	-10.2761
有詔	-10.2764
聖徳	-10.2768
雖不	-10.2787
失之	-10.2789
漢書	-10.2797
授以	-10.2798
吹	-10.2804
汝南	-10.2812
無故	-10.2813
大笑	-10.2829
夏侯	-10.2833
以成	-10.284
有異	-10.2841
畋	-10.2848
其本	-10.2852
王嘉	-10.2857
時政	-10.2861
是故	-10.2877
罷之	-10.2878
暇	-10.2883
易之	-10.2884
車騎	-10.289
示之	-10.2895
長孫	-10.2902
發言	-10.2902
南向	-10.2902
而不能	-10.2912
吏卒	-10.2918
又言	-10.2922
辭以	-10.2924
於魏	-10.2925
止於	-10.2927
不意	-10.2928
人物	-10.2935
亦當	-10.2937
宦	-10.2938
僚屬	-10.2949
言事者	-10.2954
樞宻	-10.2954
以法	-10.2955
其勢	-10.2959
下至	-10.2961
陛	-10.2968
嘗為	-10.2968
僅	-10.2971
之下	-10.2972
溪	-10.2978
朴	-10.298
版	-10.2983
矩	-10.2984
蟲	-10.2985
禕	-10.2986
薪	-10.2988
瑀	-10.2988
喬	-10.2989
日磾	-10.2989
誡	-10.2989
十餘年	-10.2991
岑彭	-10.2991
燧	-10.2991
球	-10.2992
竣	-10.2993
藝文志	-10.2993
太史	-10.2993
裝	-10.2994
攘	-10.2995
嗜	-10.2995
焚之	-10.2997
令孜	-10.2998
柴	-10.2999
戈	-10.2999
樊噲	-10.3
茶	-10.3
鮪	-10.3
揮	-10.3
松	-10.3
娯	-10.3001
琳	-10.3001
太中大夫	-10.3001
扆	-10.3001
僧孺	-10.3001
斧	-10.3001
畿	-10.3001
狹	-10.3002
採	-10.3003
堰	-10.3003
厨	-10.3003
懼而	-10.3003
征討	-10.3004
榻	-10.3004
敬翔	-10.3005
芝	-10.3005
遏	-10.3006
蠧	-10.3006
濁	-10.3007
僧尼	-10.3008
承嗣	-10.3009
額	-10.301
猜忌	-10.301
花	-10.301
俯	-10.301
虐	-10.301
尊卑	-10.301
李勣	-10.301
訖	-10.3011
埋	-10.3011
黜陟	-10.3011
公孫𢎞	-10.3013
逵	-10.3013
六州	-10.3013
償	-10.3013
承璀	-10.3014
霑	-10.3014
村	-10.3014
頓首	-10.3015
妓	-10.3015
熒惑	-10.3017
僚佐	-10.3017
都虞候	-10.3017
十一月	-10.3018
栢	-10.3018
韓偓	-10.3018
西南夷傳	-10.3019
廹	-10.302
蒸	-10.302
惠帝	-10.3022
衮	-10.3023
李守貞	-10.3027
俄而	-10.3027
函	-10.3027
力爭	-10.3029
傳五十四	-10.3029
何可	-10.303
琬	-10.3031
供奉	-10.3032
小兒	-10.3036
寢疾	-10.3036
大怒曰	-10.3045
以名	-10.3045
固請	-10.3047
)(	-10.3048
持節	-10.3048
山谷	-10.3049
闗東	-10.3049
憤怒	-10.3049
之末	-10.305
孫權	-10.3051
薦之	-10.3053
天寶	-10.3054
北海	-10.3055
讓能	-10.3058
又謂	-10.3059
賢良	-10.306
孝武	-10.3061
皆稱	-10.3061
謀於	-10.3068
正月	-10.3069
延光	-10.3071
數十年	-10.3071
而卒	-10.3075
傅太后	-10.3078
公綽	-10.3078
呼曰	-10.3081
太過	-10.3081
欲殺	-10.3081
也太宗	-10.3082
堅守	-10.3082
赦之	-10.3098
聖明	-10.3098
力戰	-10.3103
五經	-10.3106
羣臣皆	-10.3113
赦天下	-10.3119
沈等	-10.3121
誣奏	-10.3127
成敗	-10.3128
便宜	-10.3132
居之	-10.3133
豈能	-10.3137
一月	-10.3138
為樂	-10.3144
論議	-10.3145
楊邠	-10.3146
毁之	-10.3148
六國	-10.3155
為侍中	-10.3163
召還	-10.3168
入謝	-10.3169
李石	-10.317
之利	-10.3173
二十一年	-10.3176
不自	-10.3182
少年	-10.3183
大體	-10.3188
前事	-10.3196
修徳	-10.3203
行營	-10.3215
賞之	-10.3218
稱疾	-10.3229
侍宴	-10.3234
亡命	-10.3246
之徳	-10.3249
復以	-10.3254
功業	-10.3256
可得	-10.3276
非常	-10.3279
受之	-10.3284
此輩	-10.3291
聖王	-10.3291
其弟	-10.3292
悉召	-10.3292
謝之	-10.3298
以報	-10.3302
有天下	-10.3302
敢言	-10.3306
為名	-10.3308
之餘	-10.3316
歎曰吾	-10.3319
又欲	-10.3322
不起	-10.3325
若其	-10.3334
大位	-10.3334
人多	-10.3341
蜀王	-10.3344
周主	-10.3352
有道	-10.3371
不易	-10.3378
而罷	-10.338
青州	-10.3383
行事	-10.3385
二日	-10.3403
微行	-10.3403
朝堂	-10.3406
一舉	-10.3409
衆議	-10.3409
正色曰	-10.341
女為	-10.3423
萬匹	-10.3427
可知	-10.343
則為	-10.3431
是其	-10.3432
髙下	-10.3438
兄子	-10.3445
其間	-10.3447
蜀人	-10.3456
陳蕃	-10.3465
命左右	-10.3469
國用	-10.347
以後	-10.3483
失色	-10.3483
自負	-10.349
素與	-10.3494
先王	-10.3497
與諸	-10.3503
乃下	-10.3505
未定	-10.3514
安王	-10.3527
百里	-10.3528
隨之	-10.3533
生於	-10.3537
之難	-10.3542
不敢言	-10.3544
清河	-10.355
北方	-10.3554
選舉	-10.3559
上黨	-10.3565
秦兵	-10.3571
其過	-10.3579
加以	-10.3583
太皇太后	-10.3594
不止	-10.3611
金銀	-10.3613
責之	-10.3616
所過	-10.362
奉使	-10.362
臣願	-10.3625
上有	-10.3628
二年以	-10.3631
不早	-10.3649
九月	-10.3649
獄吏	-10.3652
測	-10.366
罵曰	-10.366
以利	-10.3666
第五倫	-10.3671
孔光	-10.3674
麾	-10.3677
展	-10.3678
閭	-10.3679
其名	-10.3685
筭	-10.3689
所致	-10.3693
終不能	-10.3694
兮	-10.3698
西方	-10.3699
兢	-10.37
昨	-10.3701
谿	-10.3705
賄	-10.3707
販	-10.3707
釐	-10.3707
䜟	-10.3708
嶺	-10.371
拾遺	-10.371
謡	-10.3711
闇	-10.3711
旋	-10.3712
爰	-10.3712
爽	-10.3712
食之	-10.3713
郢	-10.3713
巷	-10.3714
諾	-10.3714
場	-10.3715
熲	-10.3715
填	-10.3716
鞍	-10.3716
几	-10.3717
徹	-10.3717
蠻夷	-10.3717
艘	-10.3717
亞	-10.3719
萬嵗	-10.3719
裴延齡	-10.3719
暗	-10.3719
嚮	-10.3719
想	-10.3719
暢	-10.3719
田令孜	-10.3719
紅	-10.3719
遠	-10.3719
猜	-10.372
綿	-10.372
棘	-10.372
佩	-10.372
稼	-10.372
馬氏	-10.372
酋長	-10.372
覃	-10.3721
財賦	-10.3722
暐	-10.3722
鷹	-10.3722
阬	-10.3722
沂	-10.3722
嫡	-10.3723
翹	-10.3723
吝	-10.3723
謂我	-10.3724
下欽定四庫全書通鑑總𩔖卷	-10.3724
无忌	-10.3724
賦役	-10.3724
明徹	-10.3725
妹	-10.3725
慘	-10.3725
廓	-10.3726
兖州	-10.3726
租賦	-10.3727
鑑	-10.3727
侍衛	-10.3728
沐	-10.3729
蘇逢吉	-10.3729
牓	-10.373
竝	-10.373
執誼	-10.373
黄鍾	-10.3731
𢎞農	-10.3731
以兵	-10.3732
榆	-10.3732
稽首	-10.3732
山川	-10.3732
貨財	-10.3733
寝	-10.3733
褚	-10.3733
檻車	-10.3733
文靜	-10.3734
窘	-10.3734
悼	-10.3734
揚雄	-10.3734
蘇峻	-10.3734
田宅	-10.3734
譬如	-10.3735
玠	-10.3735
苗	-10.3735
穎	-10.3735
蓄積	-10.3735
嫉	-10.3735
太廟	-10.3735
苻堅	-10.3736
於上前	-10.3738
請令	-10.3738
萇	-10.3739
宿衞	-10.374
任圜	-10.374
韓愈	-10.374
佞邪	-10.3741
謂宰相曰	-10.3742
崔光	-10.3742
異於	-10.3742
繫獄	-10.3742
左拾遺	-10.3743
朱博	-10.3743
貞觀元年	-10.3744
内侍	-10.3744
噬	-10.3745
潭	-10.3746
斫	-10.3748
知祥	-10.3748
儒生	-10.3749
近習	-10.375
期年	-10.3751
東海	-10.3751
汲	-10.3751
昭儀	-10.3752
西京	-10.3753
祥瑞	-10.3753
太常卿	-10.3753
戰於	-10.3756
衞將軍	-10.3758
輕薄	-10.3758
李靖	-10.376
高帝	-10.376
江都	-10.376
善其言	-10.3762
無辜	-10.3763
董賢	-10.3765
安禄山	-10.3765
韓建	-10.3766
則無	-10.3768
過於	-10.3773
久矣	-10.3774
喜怒	-10.3777
到官	-10.3778
厚恩	-10.3778
簡文帝	-10.3778
不幸	-10.3779
寵任	-10.3779
牙將	-10.3779
京官	-10.378
之狀	-10.3781
咸陽	-10.3782
獨孤	-10.3783
厚賞	-10.3789
上䟽	-10.379
上聞	-10.3795
權貴	-10.3805
之吏	-10.3808
軍將	-10.3809
收其	-10.381
憂懼	-10.381
可用	-10.3815
莫如	-10.3815
師徳	-10.3818
無他	-10.3819
力士	-10.3826
不合	-10.3828
百年	-10.3829
光逺	-10.3833
初即位	-10.3833
之力也	-10.3833
惡其	-10.3835
衣服	-10.3836
三族	-10.3844
此人	-10.3845
𤣥暉	-10.3846
思禮	-10.3852
奉詔	-10.3857
文章	-10.3858
明年	-10.3867
公卿以下	-10.3868
克之	-10.3869
而成	-10.387
使其	-10.3871
異日	-10.3875
白衣	-10.3879
者乃	-10.3883
太后曰	-10.3891
皆自	-10.3891
省中	-10.3898
先帝之	-10.39
進思	-10.3901
建平	-10.3903
趙張	-10.3911
呉王	-10.3912
此所謂	-10.3915
民皆	-10.3915
奉天	-10.3916
其下	-10.3917
除名	-10.3918
無窮	-10.3918
自請	-10.3918
也晉灼曰	-10.392
未易	-10.3927
惟陛下	-10.3929
皆無	-10.393
死罪	-10.3932
不修	-10.3933
於路	-10.3941
稱疾不	-10.3944
曰不然	-10.3944
為右	-10.3944
不通	-10.3959
之辭	-10.3968
率皆	-10.3971
廢之	-10.3973
妄言	-10.3977
或云	-10.3981
人望	-10.3981
坐貶	-10.3982
受詔	-10.3989
官吏	-10.3998
義方	-10.4004
然之	-10.4004
景遂	-10.4014
平城	-10.4027
自隨	-10.4028
白馬	-10.4031
多少	-10.4036
孔融	-10.4039
其門	-10.4039
以謝	-10.4042
討之	-10.4044
之兵	-10.4049
晉齊王	-10.4056
又與	-10.4056
大中	-10.4063
慰諭	-10.4063
不正	-10.4066
且言	-10.4071
無遺	-10.4073
為左	-10.4073
無常	-10.408
於漢	-10.4084
何如對曰	-10.4087
軍法	-10.4089
相如	-10.4098
道成	-10.4104
少時	-10.4109
恨之	-10.4115
衣食	-10.4116
何則	-10.4118
制書	-10.4121
無得	-10.4129
一言	-10.4131
求和	-10.4132
户部侍郎	-10.4136
唐兵	-10.4144
上封事	-10.4149
乎且	-10.415
一名	-10.4156
武帝時	-10.4162
一曰	-10.4165
事者	-10.4168
長官	-10.4174
文帝曰	-10.4176
道濟	-10.4195
進兵	-10.4199
學者	-10.4201
不忘	-10.4202
三王	-10.4204
至重	-10.4211
大都督	-10.4213
遂為	-10.4226
國有	-10.4234
不入	-10.4235
請依	-10.4247
非其人	-10.4259
不能禁	-10.4261
危亡之	-10.4261
遂使	-10.4282
使天下	-10.4289
大明	-10.4289
為所	-10.429
以防	-10.4295
纂	-10.43
故謂之	-10.43
有五	-10.4301
師古曰言	-10.4307
無有	-10.4308
白居易	-10.4311
之理	-10.4317
其道	-10.4317
必敗	-10.4319
乃能	-10.4333
觀之	-10.4333
其財	-10.4334
無一人	-10.4337
越王	-10.4339
漢髙祖	-10.4351
北軍	-10.4352
其身	-10.4358
外官	-10.437
非有	-10.4375
十九年	-10.4376
周公	-10.4376
議論	-10.4381
元和元年	-10.4384
領軍	-10.4389
必先	-10.4396
州都督	-10.44
公等	-10.4404
以實	-10.4406
後晉天福	-10.4411
曰是	-10.4416
責其	-10.4419
始得	-10.4425
大破之	-10.4427
劭	-10.4428
户部	-10.443
詹事	-10.4436
臣今	-10.4447
之節	-10.4448
所及	-10.445
訾	-10.445
歆	-10.4451
聞其	-10.4451
為御史大夫	-10.4452
不仁	-10.4452
無禮	-10.4453
不任	-10.4453
珽	-10.4458
七十	-10.4461
龔	-10.4461
賈誼傳	-10.4461
惶	-10.4464
兖	-10.4465
刺客	-10.4465
與漢	-10.4467
欣	-10.4468
腸	-10.4469
別	-10.4471
龎	-10.4471
枚	-10.4471
隗囂	-10.4472
橫	-10.4473
炭	-10.4473
倩	-10.4474
乙	-10.4474
椎	-10.4475
箕	-10.4475
馭	-10.4475
萬緡	-10.4476
東方朔	-10.4476
箭	-10.4476
冒頓	-10.4477
垍	-10.4477
膏	-10.4478
睦	-10.4479
訣	-10.4479
賓	-10.4479
擔	-10.448
谷永	-10.448
廖	-10.4481
敘	-10.4482
翟	-10.4482
僭	-10.4482
眩	-10.4482
趙延壽	-10.4483
成帝紀	-10.4483
禮部尚書	-10.4484
諜	-10.4484
掘	-10.4484
潔	-10.4484
氐	-10.4485
輯	-10.4485
煩擾	-10.4485
喧	-10.4486
垂拱	-10.4486
攸	-10.4486
健	-10.4486
佗	-10.4486
簒	-10.4487
裹	-10.4488
羨	-10.4488
曹參	-10.4488
之明	-10.4488
禽獸	-10.4488
掌書記	-10.4488
袴	-10.4489
戀	-10.4489
倨	-10.4489
蕭瑀	-10.4489
探	-10.4489
陸䞇	-10.4489
剪	-10.4489
戊	-10.4489
洗	-10.449
波	-10.449
澣	-10.4491
裒	-10.4491
上表以為	-10.4491
妨	-10.4491
諌議大夫	-10.4491
西川	-10.4491
蔡邕	-10.4491
錄	-10.4491
膝	-10.4491
琯	-10.4491
扼	-10.4491
彫	-10.4491
儼	-10.4492
邇	-10.4492
蹈	-10.4492
鸞	-10.4493
陪	-10.4493
久不	-10.4493
千秋	-10.4493
稻	-10.4493
補闕	-10.4493
知逺	-10.4493
銳	-10.4494
冶	-10.4494
觧	-10.4494
琦	-10.4494
酈生	-10.4495
亾	-10.4495
不可勝紀	-10.4495
沙鉢略	-10.4495
節度副使	-10.4496
一家	-10.4496
漆	-10.4496
酷吏	-10.4496
禳	-10.4496
帷	-10.4497
閎	-10.4497
徃徃	-10.4497
朽	-10.4497
判度支	-10.4497
欺罔	-10.4498
蠶	-10.4498
號哭	-10.4498
㗖	-10.4499
估	-10.4499
長孫无忌	-10.4499
綏	-10.4499
稍稍	-10.4499
錦	-10.45
澤潞	-10.4501
閱	-10.4501
切齒	-10.4502
鬼神	-10.4502
朱异	-10.4502
諂	-10.4502
顯宗紀	-10.4504
奢侈	-10.4505
兵權	-10.4505
饌	-10.4505
窮極	-10.4506
髙熲	-10.4506
即帝位	-10.4507
之師	-10.4507
即今之	-10.4507
長也	-10.4508
臺閣	-10.4508
妬	-10.4508
成臯	-10.4511
苻秦	-10.4512
尚書僕射	-10.4513
馬援傳	-10.4513
惶恐	-10.4513
蘇威	-10.4513
犯法	-10.4514
開元二年	-10.4515
鶡	-10.4515
鬱林王	-10.4515
興元元年	-10.4515
感悟	-10.4515
此誠	-10.4516
顯宗	-10.4517
流血	-10.4517
知詢	-10.4519
京口	-10.4521
經略	-10.4523
節儉	-10.4523
李愬	-10.4523
食邑	-10.4524
仰視	-10.4527
族滅	-10.4529
二千餘人	-10.4529
順宗	-10.453
當死	-10.453
伶人	-10.4531
罷相	-10.4532
三品	-10.4532
王守澄	-10.4533
承訓	-10.4533
特進	-10.4539
杜威	-10.4539
景達	-10.454
又有	-10.454
財物	-10.454
心腹	-10.4543
晉室	-10.4545
李振	-10.4545
鎮之	-10.4546
升平	-10.4548
虚實	-10.4548
元濟	-10.4549
第五	-10.4553
不治	-10.4555
已而	-10.4557
訓注	-10.4558
仁義	-10.4561
不可得	-10.4562
敕使	-10.4563
安敢	-10.4564
元帥	-10.4564
湘	-10.4568
欲反	-10.4571
不忠	-10.4572
横行	-10.4573
擢用	-10.4574
萬世	-10.4578
歸第	-10.4584
乗馬	-10.4584
臣愚	-10.4586
郡守	-10.4586
上言以為	-10.459
自若	-10.459
聖主	-10.4591
吳漢	-10.4595
近世	-10.4599
武徳	-10.4599
累日	-10.4599
元帝曰	-10.4606
之所以	-10.4606
備徳	-10.4607
漢室	-10.4608
劉備	-10.4612
必克	-10.4615
威名	-10.4616
十里	-10.4618
盛稱	-10.462
乃罷	-10.4622
請罷	-10.4623
諫者	-10.4623
大悦	-10.4623
失望	-10.4624
固守	-10.4628
遂良	-10.4629
之比	-10.4634
但恐	-10.4637
九州	-10.4638
人以為	-10.4645
獻帝	-10.4648
一國	-10.4648
誅殺	-10.465
奏罷	-10.4655
南山	-10.4656
而能	-10.4657
乎今	-10.4658
乃爾	-10.4659
之甚	-10.4685
降於	-10.469
欲用	-10.4693
謝曰	-10.4696
或告	-10.4698
有一	-10.4698
孫晟	-10.4699
乃知	-10.4703
留後	-10.4703
丹陽	-10.4704
治天下	-10.4706
禁兵	-10.4711
逺方	-10.4716
魏州	-10.4717
寡人	-10.4719
東北	-10.4724
權重	-10.4724
王珪	-10.4724
不成	-10.4725
不親	-10.4726
明主	-10.4735
選用	-10.4735
子良	-10.4736
以次	-10.4745
為京兆尹	-10.4749
魏謩	-10.4754
社稷之	-10.4755
得幸	-10.4757
杖殺之	-10.4759
義兵	-10.4761
建議	-10.4761
其義	-10.4762
安樂	-10.4771
為節度使	-10.4774
出師	-10.4778
未盡	-10.4779
上表請	-10.4797
三秦	-10.4797
從而	-10.4798
其謀	-10.4799
與我	-10.4804
吾兒	-10.4804
為僕射	-10.4806
而有	-10.4822
承平	-10.4823
以奉	-10.4824
顔色	-10.4828
自立	-10.4831
召之	-10.4838
已來	-10.4847
晉州	-10.4848
州長史	-10.485
左軍	-10.4852
王師	-10.4857
大懼	-10.4859
天地之	-10.486
大理	-10.486
者亦	-10.4861
取士	-10.4864
以拒	-10.4874
將何以	-10.4879
仁孝	-10.488
髙昌	-10.4881
賂遺	-10.4882
望見	-10.4888
進曰	-10.4888
不戰	-10.4891
謂其	-10.4893
至洛陽	-10.4908
用法	-10.493
一也	-10.4933
所奏	-10.4934
同心	-10.4934
則彼	-10.4937
守令	-10.4941
諸生	-10.4946
封之	-10.4948
欲以為	-10.4949
乃令	-10.4956
罷朝	-10.496
之約	-10.4961
因其	-10.4965
元素	-10.4979
勿復	-10.4981
大義	-10.4984
常有	-10.4993
諭以	-10.5
所敗	-10.5001
各以	-10.5005
不便	-10.5006
之亂	-10.501
歸國	-10.5014
乃召	-10.5022
梁王	-10.5024
是後	-10.5028
此非	-10.5033
朝恩	-10.5052
非其	-10.5061
五十五	-10.5063
蜀漢	-10.5065
事宜	-10.5071
以西	-10.5082
求官	-10.5087
即時	-10.5092
内有	-10.5101
民有	-10.5102
不附	-10.5103
以官	-10.5106
汴州	-10.511
論事	-10.5112
之語	-10.5113
所生	-10.5116
自固	-10.5116
諭之曰	-10.5118
二十萬	-10.5119
王彦章	-10.512
永嘉	-10.5129
不樂	-10.515
不解	-10.5157
一門	-10.5161
八九	-10.5163
三十萬	-10.5166
圖之	-10.5169
以充	-10.5171
延廣	-10.5176
今年	-10.5177
為人臣	-10.5184
日中	-10.5188
者先	-10.5189
然而	-10.52
矣然	-10.5205
曰願	-10.5207
握	-10.5214
問其	-10.5215
安可	-10.5218
之形	-10.5227
詰之	-10.523
賢者	-10.5247
為便	-10.525
作大	-10.5253
塹	-10.5257
辭位	-10.527
右丞相	-10.5271
死生	-10.5275
魚朝恩	-10.528
九卿	-10.5283
失所	-10.5285
傍	-10.5285
昔在	-10.5286
豹	-10.5295
雞鳴	-10.5295
傳曰	-10.5295
倣	-10.5296
親故	-10.5296
兵馬	-10.5296
申錫	-10.5296
忝	-10.5297
瑾	-10.5297
北邊	-10.5298
愁	-10.5301
潁	-10.5303
戾	-10.5304
彞	-10.5304
丈夫	-10.5305
味	-10.5305
選人	-10.5305
三子	-10.5308
欽定四庫全書兩漢博聞卷	-10.5308
故云	-10.5308
毁譽	-10.5309
孝寛	-10.5309
宋楊侃輯	-10.5309
胄	-10.5309
迭	-10.531
寓	-10.5311
王莽傳六十九	-10.5311
招討使	-10.5312
班固傳三十	-10.5312
吐突承璀	-10.5313
壽春	-10.5314
鎻	-10.5314
訥	-10.5315
鼻	-10.5315
□	-10.5315
尼	-10.5315
儁	-10.5315
肘	-10.5315
長沙	-10.5316
愆	-10.5316
宋申錫	-10.5316
燭	-10.5316
暨	-10.5316
殖	-10.5317
拙	-10.5317
阡能	-10.5317
後周世宗	-10.5317
曳	-10.5317
免冠謝	-10.5318
迺	-10.5318
驍勇	-10.5318
鮑宣	-10.5318
貞元三年	-10.5318
稹	-10.5319
繼岌	-10.5319
昧	-10.5319
淪	-10.532
同列	-10.532
股肱	-10.5321
恚	-10.5321
袒	-10.5321
諸葛	-10.5321
墀	-10.5321
嗇夫	-10.5321
輟	-10.5321
拳	-10.5321
渥	-10.5322
軒	-10.5322
太極殿	-10.5322
公孫述	-10.5323
翻	-10.5323
敷	-10.5324
撞	-10.5324
胷	-10.5324
校獵	-10.5324
永貞元年	-10.5324
瓌	-10.5324
錮	-10.5324
清泰元年	-10.5325
勞軍	-10.5325
義熈	-10.5326
沈慶之	-10.5326
縑	-10.5326
羲	-10.5326
捶	-10.5327
互相	-10.5327
覩	-10.5327
銘	-10.5327
昌邑	-10.5327
庇	-10.5327
河南尹	-10.5327
銷	-10.5327
詣行在	-10.5329
昵	-10.5329
頒	-10.5329
賑	-10.5329
延夀	-10.5329
注云前書	-10.5329
蹙	-10.533
疆場	-10.533
傳三十四	-10.5331
春正月	-10.5331
慕容垂	-10.5331
干戈	-10.5331
禆將	-10.5331
賀若弼	-10.5331
勗	-10.5331
袁盎	-10.5331
太平公主	-10.5331
昬	-10.5331
兵部侍郎	-10.5332
囂	-10.5332
韋昭曰	-10.5332
瑶	-10.5332
稽顙	-10.5332
大厯十四年	-10.5332
珍玩	-10.5332
廩	-10.5333
謀作亂	-10.5333
傾覆	-10.5333
羯	-10.5333
祀南郊	-10.5333
烏孫	-10.5333
渙	-10.5334
塟	-10.5335
右補闕	-10.5335
憾	-10.5335
司農卿	-10.5335
毆	-10.5335
𤓰	-10.5335
溝	-10.5336
姿	-10.5336
陛下之	-10.5336
州司户	-10.5336
聚歛	-10.5337
隕	-10.5338
車騎將軍	-10.5338
祭祀	-10.5338
攀	-10.5338
即以	-10.5338
所至	-10.5339
建寧	-10.5339
宇文	-10.534
鬭	-10.534
移檄	-10.5341
李錡	-10.5341
轉相	-10.5343
守澄	-10.5343
庶政	-10.5346
贇	-10.5347
給之	-10.5347
謝晦	-10.5347
怪之	-10.5347
錢帛	-10.5348
來俊臣	-10.5349
髙駢	-10.5349
曰吾欲	-10.535
禱	-10.5351
琰	-10.5351
姦佞	-10.5351
明旦	-10.5351
嵗餘	-10.5352
也如淳曰	-10.5353
教化	-10.5353
守宰	-10.5353
二十餘年	-10.5353
經術	-10.5353
擅權	-10.5353
髙力士	-10.5354
欣然	-10.5355
巴蜀	-10.5355
謂宜	-10.5356
張柬之	-10.5357
詣京師	-10.536
受禪	-10.536
遷都	-10.536
故稱	-10.5361
十月	-10.5361
遊宴	-10.5362
延徽	-10.5363
為憂	-10.5363
郭璞	-10.5363
璽書	-10.5365
懷光	-10.5366
李輔國	-10.5367
農夫	-10.5368
而起	-10.5369
伏誅	-10.5371
至者	-10.5371
諸儒	-10.5371
尊寵	-10.5372
臨江	-10.5377
辭色	-10.5379
士開	-10.5381
若今	-10.5381
河南北	-10.5382
延賞	-10.5382
乗間	-10.5383
大厯	-10.5384
手足	-10.5384
宣示	-10.5384
萬年	-10.5385
未可知	-10.5385
忠良	-10.5387
逃亡	-10.5389
前朝	-10.5391
金玉	-10.5392
平原	-10.5392
楊氏	-10.5393
闕下	-10.5394
草制	-10.5397
監國	-10.5399
殆盡	-10.5403
明皇曰	-10.5403
江西	-10.5405
金陵	-10.5407
雖復	-10.5409
視朝	-10.541
為人所	-10.5411
道襲	-10.5414
主人	-10.5416
太白	-10.5416
其徒	-10.542
發之	-10.5428
相賀	-10.5429
騎兵	-10.543
入冦	-10.543
山陽	-10.5431
行則	-10.5433
治亂	-10.5434
多言	-10.5439
握兵	-10.544
親屬	-10.5442
莫敢言	-10.5443
曰爾	-10.5453
又注	-10.5454
人或	-10.5454
不由	-10.5457
將校	-10.5458
盛徳	-10.5459
擊破	-10.546
文侯	-10.5464
竊見	-10.5465
今天下	-10.5468
察之	-10.5476
義士	-10.5479
功徳	-10.5481
行儉	-10.5482
三千人	-10.5485
素服	-10.5486
姦人	-10.5487
及此	-10.5488
憲宗曰	-10.5491
無厭	-10.5497
陛下不	-10.5498
適足	-10.5506
為國家	-10.5506
本朝	-10.5512
郎官	-10.5512
讀曰	-10.5514
二也	-10.5515
小吏	-10.552
王晏	-10.5523
小臣	-10.5527
家事	-10.5529
歸漢	-10.5532
者常	-10.5534
共為	-10.5534
汝輩	-10.5535
何有	-10.5535
敵國	-10.5536
於今	-10.5545
太山	-10.5549
又聞	-10.5554
何力	-10.5558
安定	-10.556
端門	-10.5564
辭曰	-10.5567
不果	-10.5569
治民	-10.5575
胡廣	-10.5577
渡江	-10.5592
中朝	-10.5606
一無所	-10.5609
宴飲	-10.561
登城	-10.5611
詔命	-10.5616
貴寵	-10.5618
志在	-10.5626
之累	-10.5627
自非	-10.5628
名為	-10.5629
為尚書令	-10.5629
其能	-10.5629
五更	-10.5634
等並	-10.5645
君長	-10.5646
所司	-10.5647
門地	-10.5648
愛民	-10.5648
然猶	-10.5652
宫闕	-10.5652
為御史	-10.5654
論之	-10.5657
二州	-10.5666
諸國	-10.5671
民心	-10.5672
邊軍	-10.5672
貧者	-10.5673
擇人	-10.5673
王室	-10.5679
手詔	-10.5683
於中	-10.5684
今若	-10.5692
也後	-10.5693
郡太守	-10.5693
令人	-10.5702
驚曰	-10.5709
為首	-10.5715
而輕	-10.5718
不爾	-10.5733
武臣	-10.5742
以授	-10.5744
無比	-10.5744
罪惡	-10.5758
已成	-10.5768
五帝	-10.5769
朕今	-10.577
若此	-10.5772
以下皆	-10.578
代王	-10.5782
終身不	-10.5791
右軍	-10.58
有徳	-10.5802
欲自	-10.5807
與人	-10.5807
常居	-10.581
下吏	-10.5818
王侯	-10.5823
也對曰	-10.5826
士庶	-10.5829
大亂	-10.5832
為朋黨	-10.5833
送之	-10.584
而下	-10.5842
元年初	-10.5847
於别	-10.5851
揚州	-10.5852
皆非	-10.5853
朕所	-10.5855
不獲	-10.5859
何乃	-10.5864
所以為	-10.5867
等使	-10.588
破之	-10.588
三軍	-10.5891
不覺	-10.5893
也昔	-10.5895
非也	-10.5897
也孟康曰	-10.59
請誅	-10.5901
以厭	-10.5902
之任	-10.5905
今欲	-10.592
周勃	-10.5925
表稱	-10.5927
牋	-10.5928
卒以	-10.5928
而言	-10.5935
載以	-10.5935
賜爵	-10.5937
宻謀	-10.5938
中宫	-10.5943
兵討	-10.5946
築城	-10.5952
權勢	-10.5961
之㑹	-10.5962
餘皆	-10.5978
用其言	-10.5981
顧命	-10.5984
居中	-10.5985
又問	-10.601
日知	-10.601
興兵	-10.6011
後代	-10.6012
而生	-10.6019
示以	-10.6028
兵敗	-10.6031
帝王之	-10.6036
陽城	-10.6037
從弟	-10.6037
求之	-10.6044
曰朝廷	-10.6046
城邑	-10.6048
等謀	-10.6051
中書門下	-10.6055
呼為	-10.6056
及聞	-10.6056
立於	-10.6062
士馬	-10.6069
有如	-10.6073
更生	-10.6082
每有	-10.6082
尚在	-10.6086
又奏	-10.6091
乃為	-10.6095
自矜	-10.6098
上疏言	-10.6101
怠	-10.6105
首者	-10.6107
禮部侍郎	-10.6113
十日	-10.6116
也吾	-10.6118
四月	-10.612
曽不	-10.6126
劉毅	-10.6133
盡矣	-10.6133
江州	-10.6135
飲之	-10.6137
嘗問	-10.6143
江左	-10.615
但當	-10.6153
精騎	-10.6155
耳非	-10.6159
二萬	-10.6159
宣徽使	-10.6159
皆殺之	-10.6161
未必	-10.6166
今日之	-10.6171
璽綬	-10.6172
桂	-10.6174
諭之	-10.618
不習	-10.6181
之女	-10.6184
溥	-10.6186
大興	-10.6189
逞	-10.619
訛	-10.6195
癡	-10.6197
如今	-10.6199
底	-10.62
誨	-10.6201
擠	-10.6203
郊祀志	-10.6205
以千數	-10.6205
滔	-10.6206
嶷	-10.6207
知卿	-10.6207
戯	-10.6207
蕭望之	-10.6208
中大夫	-10.6211
延英	-10.6212
低	-10.6212
冏	-10.6213
轍	-10.6214
轡	-10.6214
毛仲	-10.6214
跨	-10.6214
郝	-10.6216
控	-10.6216
足為	-10.6216
茹	-10.6217
羡	-10.6217
葛	-10.6217
檻	-10.6218
幡	-10.6218
項籍	-10.6219
姑息	-10.6219
腐	-10.6219
陌	-10.6219
甘泉	-10.6219
旄	-10.622
雋不疑	-10.622
碣	-10.622
觴	-10.6221
藁	-10.6221
諤	-10.6222
諫太宗	-10.6223
食貨志四	-10.6223
億	-10.6223
寔	-10.6223
宼	-10.6224
荀彧	-10.6224
旌旗	-10.6225
愎	-10.6225
遐	-10.6225
箱	-10.6225
束手	-10.6226
貳	-10.6226
嗣源	-10.6226
蹋	-10.6227
又遣	-10.6227
黯	-10.6228
赫	-10.6228
𨗳	-10.6228
驕奢	-10.6228
楊光逺	-10.6228
柵	-10.6228
搜	-10.6229
廣漢	-10.6229
係	-10.6229
朱滔	-10.6229
虢	-10.6229
績	-10.6229
開運二年	-10.623
茲	-10.623
𣙜	-10.623
魁	-10.6231
懇	-10.6231
杜黄裳	-10.6231
諳	-10.6231
汚	-10.6231
愕然	-10.6231
猝	-10.6231
疲弊	-10.6232
讐	-10.6232
旰	-10.6232
孚	-10.6232
河東節度使	-10.6232
開府儀同三司	-10.6232
俛	-10.6232
綵	-10.6232
關内侯	-10.6233
歸田里	-10.6233
䘏	-10.6233
卞	-10.6234
建元元年	-10.6234
旦夕	-10.6234
之重	-10.6234
降人	-10.6234
了	-10.6234
歙	-10.6235
迷	-10.6235
維	-10.6236
必死	-10.6236
油	-10.6236
霜	-10.6236
伉	-10.6236
市井	-10.6236
梁孝王	-10.6237
陽平公融	-10.6237
人無	-10.6237
暠	-10.6237
丙	-10.6237
幘	-10.6238
姜	-10.6238
袍	-10.6238
湊	-10.6238
畔	-10.6238
嗜酒	-10.6238
陶侃	-10.6238
卭	-10.6239
景雲元年	-10.6239
膽	-10.6239
張湯	-10.6239
芻	-10.6239
臣愚以為	-10.6239
覘	-10.6239
竝同平章事	-10.6239
誇	-10.624
褊	-10.6241
為戒	-10.6241
頌	-10.6241
墾	-10.6242
奕	-10.6242
朂	-10.6242
洋	-10.6242
范雲	-10.6242
顯徳元年	-10.6242
隴西	-10.6242
逾	-10.6243
汶	-10.6244
錦繡	-10.6244
恣横	-10.6245
矢石	-10.6245
荘宗	-10.6245
嬖倖	-10.6245
杜悰	-10.6245
疾篤	-10.6246
恬	-10.6246
癸	-10.6246
不敢復言	-10.6246
組	-10.6246
蚡	-10.6247
蕭曹	-10.6248
師友	-10.6248
渤海	-10.6248
羽翼	-10.6249
昇	-10.6249
𫝊瓘	-10.625
嘉貞	-10.625
或問其故	-10.625
鐘	-10.625
奉朝請	-10.6251
五品以上	-10.6251
智光	-10.6251
及諸	-10.6251
黄巾	-10.6251
景讓	-10.6251
執金吾	-10.6251
魂	-10.6251
也於是	-10.6252
同僚	-10.6252
者悉	-10.6253
勇力	-10.6253
忤㫖	-10.6253
草木	-10.6254
言於上曰	-10.6254
鴈門	-10.6254
昌宗	-10.6254
雖為	-10.6255
肇	-10.6256
左藏	-10.6257
熈先	-10.6257
𢎞倧	-10.6257
能否	-10.6258
為庶人	-10.6258
應募	-10.6259
部曲	-10.626
師丹	-10.6261
宴集	-10.6261
為主	-10.6261
會昌	-10.6262
弄權	-10.6263
崔祐甫	-10.6263
内庫	-10.6263
髀	-10.6264
租庸使	-10.6265
温嶠	-10.6265
翂	-10.6266
承㫖	-10.6267
東京	-10.6268
髙允	-10.6268
塢	-10.627
閔帝	-10.6272
盡殺	-10.6274
師厚	-10.6274
唐虞	-10.6276
數千里	-10.6276
名儒	-10.6276
棄市	-10.6276
十餘日	-10.6279
五品	-10.6279
劉晏	-10.6279
胡騎	-10.6279
兵馬使	-10.6282
喪亂	-10.6283
魏博	-10.6283
貧民	-10.6284
文傑	-10.6285
解體	-10.6285
嚴急	-10.6285
伐之	-10.6286
獨曰	-10.6288
至今	-10.6288
使臣	-10.6288
儉素	-10.629
斬首	-10.6292
虚名	-10.6293
閉門	-10.6296
經營	-10.6297
不省	-10.6298
或言	-10.6298
年號	-10.63
直指	-10.6301
求進	-10.6307
猶在	-10.6309
軍糧	-10.631
門户	-10.6311
為患	-10.6315
諸道兵	-10.6318
不負	-10.6318
申公	-10.6318
待詔	-10.6332
文曰	-10.6333
長江	-10.6336
求見	-10.6338
嗣復	-10.634
音樂	-10.6342
之具	-10.6342
應對	-10.6347
昭帝	-10.6347
入關	-10.6348
常謂	-10.6349
禍敗	-10.6349
且請	-10.635
諸郡	-10.635
更衣	-10.6358
盡節	-10.6358
宋州	-10.6367
律令	-10.6371
請與	-10.6372
守備	-10.6372
同年	-10.6373
盡力	-10.6373
今已	-10.6374
悉罷之	-10.6374
張華	-10.6376
李宻	-10.638
之右	-10.6384
令史	-10.6385
此則	-10.6388
亦可	-10.639
復恭	-10.6392
謁見	-10.6395
之威	-10.6395
非陛下	-10.6403
可也	-10.6403
萬民	-10.6405
開門	-10.6406
師道	-10.641
相聚	-10.6419
遷官	-10.6421
之族	-10.6423
勸進	-10.6428
神武	-10.6428
景延廣	-10.6432
還宫	-10.6439
者或	-10.6444
何事	-10.6448
乃許之	-10.645
唯陛下	-10.645
正直	-10.6454
所費	-10.6455
國政	-10.6459
鎮戍	-10.6467
君之	-10.6472
樓下	-10.6476
之南	-10.6478
拜為	-10.648
相接	-10.6481
天下之士	-10.6484
諸鎮	-10.6484
曰凡	-10.6487
乃還	-10.649
百日	-10.6499
大敵	-10.6504
為司空	-10.6505
太一	-10.6506
上帝	-10.6508
正朔	-10.651
西南	-10.6514
之賢	-10.6514
至有	-10.6516
安世	-10.6521
即拜	-10.6521
臣不敢	-10.6523
二十二年	-10.6525
讓之曰	-10.6535
閤門	-10.6542
為姦	-10.6543
何武	-10.6544
疾病	-10.6548
更為	-10.6548
不厭	-10.6553
朕意	-10.6555
不思	-10.6555
三也	-10.6561
猶恐	-10.6563
帥百官	-10.6566
私謂	-10.6568
天道	-10.6568
軍食	-10.657
不滿	-10.658
不減	-10.6585
親厚	-10.6586
二王	-10.6587
名士	-10.659
者則	-10.6593
不殺	-10.6593
直入	-10.6602
形如	-10.6603
省之	-10.6608
以文學	-10.661
皆由	-10.6611
問其故對曰	-10.6613
過惡	-10.6615
亂兵	-10.662
以鐵	-10.6624
又令	-10.6625
位在	-10.6626
日食	-10.6627
既成	-10.6628
莫有	-10.6628
言而	-10.663
命有司	-10.6638
何異	-10.6643
以歸	-10.6643
與契丹	-10.6651
其時	-10.6653
歸心	-10.6656
奏以為	-10.6662
當世	-10.6666
素所	-10.6672
許以	-10.6677
雖貴	-10.6677
已盡	-10.6679
不亦	-10.6685
其第	-10.6689
二者	-10.6689
陛下何	-10.669
之位	-10.6691
不可失	-10.6697
黨與	-10.6699
者三	-10.6701
善人	-10.6702
乎於是	-10.6725
益甚	-10.6728
州牧	-10.6731
所見	-10.6736
不畏	-10.675
遂與	-10.6754
亦自	-10.6759
之權	-10.6761
起復	-10.6762
復與	-10.6766
有四	-10.6766
為皇太子	-10.6769
延之	-10.677
誅宦官	-10.6779
託以	-10.6781
直以	-10.6793
者正	-10.6794
近者	-10.6803
由此	-10.6804
畏死	-10.6809
而來	-10.6817
弭	-10.6829
遇之	-10.6829
長樂	-10.6831
之議	-10.6843
方與	-10.6846
賢人	-10.6846
千金	-10.6849
何人	-10.6852
難得	-10.6855
不稱	-10.6856
又何	-10.6864
自處	-10.6865
有常	-10.6867
鞫	-10.6868
一等	-10.6872
天福十二年	-10.6877
死也	-10.6878
之期	-10.6883
左右曰	-10.6887
兵於	-10.6889
執事	-10.6899
不離	-10.6908
出降	-10.6912
私鑄	-10.6915
稱之	-10.6929
為社稷	-10.6932
藏之	-10.6941
祖父	-10.6945
可成	-10.6946
沛	-10.6948
乎遂	-10.6951
以資	-10.6962
山中	-10.6966
兵少	-10.6971
出家	-10.6975
丞相御史	-10.6978
陛下宜	-10.6978
不能得	-10.6986
因謂	-10.6986
不預	-10.6986
不去	-10.6987
彗星	-10.6987
肅宗曰	-10.6987
為本	-10.6997
大同	-10.7002
前殿	-10.7014
撫之	-10.7016
聞有	-10.7017
取天下	-10.7018
此屬	-10.7019
周兵	-10.703
吏士	-10.7039
國士	-10.7048
者輒	-10.7051
神䇿	-10.7053
盡心	-10.7056
員外郎	-10.7058
太祖皇帝	-10.7061
臣於	-10.7069
繼之	-10.7069
都押牙	-10.7071
之會	-10.7077
酣	-10.7085
亦猶	-10.7088
致死	-10.7089
兵革	-10.709
太宗以	-10.7091
也乃	-10.7099
寵之	-10.7101
城門	-10.7104
以助	-10.711
屬吏	-10.7112
牛僧孺	-10.7126
小有	-10.7126
不能盡	-10.7131
理之	-10.7131
之道也	-10.7132
之象	-10.7136
以救	-10.7137
髙祖以	-10.7137
居上	-10.7142
或時	-10.7146
諫曰陛下	-10.7161
圍之	-10.7162
盡言	-10.7163
吏皆	-10.7163
肩輿	-10.7168
論者	-10.7169
年老	-10.7171
無主	-10.7174
言陛下	-10.7176
必將	-10.7181
朕欲	-10.7186
叔孫通	-10.7194
辜	-10.7194
者當	-10.7196
騫	-10.7197
意欲	-10.7201
翊	-10.7202
車載	-10.7202
髙陽	-10.7203
桃	-10.7204
眀	-10.7204
睚眦	-10.7204
家世	-10.7205
斵	-10.7209
沔	-10.7209
顓	-10.721
彗	-10.721
局	-10.7211
懌	-10.7211
貎	-10.7211
駟	-10.7212
侮	-10.7212
壓	-10.7213
在朝	-10.7213
酎	-10.7213
驟	-10.7214
琴	-10.7214
定陶	-10.7215
冬十月	-10.7215
若是	-10.7215
租庸	-10.7216
揚雄傳五十七	-10.7216
旻	-10.7216
䕫	-10.7216
叟	-10.7218
虎賁	-10.7218
仇士良	-10.7219
較	-10.722
玩	-10.7221
褐	-10.7222
樵	-10.7222
捉	-10.7222
輅	-10.7222
敺	-10.7223
夏四月	-10.7223
李綘	-10.7223
苖	-10.7224
頠	-10.7224
羊祜	-10.7224
屑	-10.7225
酈食其	-10.7225
光禄勲	-10.7225
陳天嘉	-10.7225
甥	-10.7226
奢靡	-10.7226
鉉	-10.7226
庚	-10.7226
詗	-10.7227
檀道濟	-10.7227
慟	-10.7228
鈔	-10.7228
畝	-10.7228
手搏	-10.7228
貟	-10.7228
盱眙	-10.7228
親信	-10.7228
開運元年	-10.7229
瓜	-10.7229
詠	-10.7229
闥	-10.723
孟知祥	-10.723
窟	-10.723
宫殿	-10.723
顛	-10.723
賊中	-10.723
倉猝	-10.7231
灌嬰	-10.7231
暴室	-10.7231
須臾	-10.7231
洲	-10.7231
巒	-10.7231
滑	-10.7232
崖	-10.7232
管仲	-10.7232
鶴	-10.7233
唾	-10.7233
廣順元年	-10.7233
睹	-10.7233
吳越	-10.7233
以文	-10.7233
悖	-10.7233
建中四年	-10.7233
智伯	-10.7233
婁	-10.7234
窮困	-10.7234
夷狄	-10.7234
端明殿學士	-10.7234
王𤣥謨	-10.7234
曵	-10.7234
裴寂	-10.7234
須㬰	-10.7234
頥	-10.7235
珉	-10.7235
怖	-10.7235
李世勣	-10.7235
潼	-10.7236
蓬	-10.7236
家貧	-10.7236
購	-10.7236
偷安	-10.7236
侵暴	-10.7236
巨萬	-10.7236
都䕶	-10.7236
陛下誠能	-10.7237
孔謙	-10.7237
𢎞俶	-10.7237
也前書	-10.7237
張掖	-10.7237
旬月	-10.7237
所損	-10.7238
隴右	-10.7238
釣	-10.7238
梯	-10.7238
檀	-10.7239
貧賤	-10.7239
軰	-10.7239
摶	-10.724
秦王從榮	-10.724
棊	-10.724
賈充	-10.724
折衝	-10.724
倉庫	-10.7241
墳	-10.7241
漢主聰	-10.7241
李珏	-10.7241
良將	-10.7241
濕	-10.7242
桐	-10.7242
緒	-10.7242
家給人足	-10.7242
張衡傳	-10.7242
臨軒	-10.7243
侔	-10.7243
宣城王	-10.7243
酉	-10.7244
扈從	-10.7244
絳侯	-10.7244
圖䜟	-10.7244
大宛	-10.7244
册	-10.7244
吐谷渾	-10.7245
殃	-10.7245
浦	-10.7245
悖慢	-10.7245
行臺	-10.7246
渾瑊	-10.7246
微弱	-10.7246
步騎	-10.7246
苟	-10.7247
作威福	-10.7247
太夫人	-10.7247
騎射	-10.7247
鄂	-10.7247
酒泉	-10.7247
漏泄	-10.7247
高宗	-10.7247
冕	-10.7248
幕府	-10.7248
後唐明宗	-10.7248
坤	-10.7249
祭酒	-10.7249
史𢎞肇	-10.7249
仆	-10.7249
婦女	-10.725
第舍	-10.725
拂衣	-10.725
邊境	-10.725
杜預	-10.7251
隋煬帝	-10.7251
蕭道成	-10.7251
孟容	-10.7251
元稹	-10.7251
漕運	-10.7251
呈	-10.7252
鄭𤣥	-10.7252
瑑	-10.7252
元禮	-10.7252
徐氏	-10.7253
記室	-10.7253
閭閻	-10.7254
揚州刺史	-10.7254
入禁中	-10.7254
領軍將軍	-10.7254
茂陵	-10.7255
轉輸	-10.7255
五銖	-10.7256
王偉	-10.7256
味道	-10.7257
盈珍	-10.7258
繫囚	-10.7258
王溥	-10.7258
祐甫	-10.7259
金紫	-10.7259
浮華	-10.7259
甚重之	-10.726
江充	-10.7261
功曹	-10.7261
逆順	-10.7261
所由	-10.7262
猶豫	-10.7262
宣慰	-10.7263
承偕	-10.7264
德鈞	-10.7264
罪狀	-10.7264
鄆州	-10.7265
貞觀二年	-10.7266
稜	-10.7266
朱氏	-10.7266
太弟	-10.7267
吕后	-10.7268
累遷	-10.7269
錢榖	-10.7269
爵位	-10.727
季布	-10.727
冀州刺史	-10.7271
樞密使	-10.7273
石勒	-10.7274
令坤	-10.7274
談論	-10.7274
兼侍中	-10.7277
太史令	-10.7277
南漢	-10.7278
黄龍	-10.7279
石虎	-10.728
宴樂	-10.728
尚書郎	-10.728
勞苦	-10.7281
累世	-10.7281
繼嗣	-10.7282
簡易	-10.7282
其職	-10.7284
復何	-10.7285
戎服	-10.7286
謀之	-10.7287
肩	-10.7289
終無	-10.729
先驅	-10.729
韋后	-10.7291
楊震	-10.7291
營田	-10.7292
幸東都	-10.7292
遣兵	-10.7293
諸弟	-10.7294
尺一	-10.7295
太微	-10.7295
斷絶	-10.7296
復興	-10.7299
江州刺史	-10.7299
窮治	-10.73
歴代	-10.7301
鄴都	-10.7304
延年	-10.7306
昭徳	-10.7307
嚴刑	-10.7307
試守	-10.7311
上下相	-10.7312
文昌	-10.7313
連年	-10.7314
六合	-10.7315
私第	-10.7315
一方	-10.7318
大旱	-10.7318
謝𤣥	-10.7319
福州	-10.7326
四面	-10.7327
何能為	-10.7328
泰始	-10.7328
請託	-10.7331
北歸	-10.7333
冬至	-10.7334
素無	-10.7334
懐文	-10.7335
炳之	-10.7335
二年初	-10.7338
元達	-10.7339
中國之	-10.734
幾何	-10.7341
於朝堂	-10.7343
不知所為	-10.7343
泣下	-10.7344
顧望	-10.7346
武后	-10.7346
假子	-10.7348
流亡	-10.7351
欲去	-10.7352
師範	-10.7356
下民	-10.7357
聚衆	-10.7358
失職	-10.7361
右將軍	-10.7362
不逮	-10.7363
武功	-10.7363
陳於	-10.7364
請罪	-10.7365
請誅之	-10.7368
至建康	-10.7368
急攻	-10.7371
大駕	-10.7373
𤣥成	-10.7374
淮南王	-10.7375
怒甚	-10.7376
莫若	-10.7377
涼州	-10.7378
丈人	-10.7378
當是時	-10.7378
不軌	-10.7379
外間	-10.7381
恐有	-10.7383
廢太子	-10.7388
失利	-10.7391
忠於	-10.7393
還京師	-10.7396
遇賢	-10.7399
仲言	-10.7401
尚書省	-10.7402
髙后	-10.7402
或問	-10.7403
晉國	-10.7407
曰國家	-10.7407
之徒皆	-10.7407
城西	-10.7408
長城公	-10.7409
景進	-10.7411
乃奏	-10.7413
相持	-10.7414
不憂	-10.7414
者獨	-10.7415
一時之	-10.7415
反者	-10.7425
為刺史	-10.7425
執法	-10.7425
七上	-10.7425
天皇	-10.7427
二十一	-10.743
大破	-10.7435
諡曰	-10.7438
宜速	-10.7445
挺之	-10.7446
老子	-10.7447
李廣	-10.7447
自古帝王	-10.7451
敏中	-10.7453
景文	-10.7455
復召	-10.7459
神䇿軍	-10.7459
千匹	-10.7464
則可	-10.7466
擒之	-10.7472
推之	-10.7474
小過	-10.7476
損益	-10.7476
責之曰	-10.748
邊將	-10.7482
切諫	-10.7482
力不能	-10.7483
食盡	-10.7486
平日	-10.7487
為唐	-10.7489
伏見	-10.749
民不	-10.7492
不對	-10.7493
相承	-10.7495
日益	-10.7497
東門	-10.7502
宻令	-10.7502
所長	-10.7504
邪對曰	-10.7504
無名	-10.7506
以金	-10.751
曏者	-10.7512
不立	-10.7515
外有	-10.7515
萬國	-10.7517
安國	-10.7518
後來	-10.7524
仍以	-10.7534
禦之	-10.7536
之功也	-10.7538
重任	-10.7542
以寛	-10.7546
復書	-10.7552
以供	-10.7553
使我	-10.7561
相望	-10.7564
何由	-10.7564
下令	-10.7567
武庫	-10.7567
等奏	-10.7577
若使	-10.7579
前代	-10.7582
二十九	-10.7582
天人	-10.759
其半	-10.7591
猶能	-10.7591
不善	-10.7591
忠貞	-10.7592
吳人	-10.7594
宿將	-10.7595
徳宗曰	-10.7597
將何	-10.7599
在前	-10.7602
深思	-10.7609
三世	-10.7611
也因	-10.7612
何罪	-10.7614
數四	-10.7617
不足為	-10.7618
於河	-10.7622
禍及	-10.7625
兵力	-10.7626
若今之	-10.7636
不少	-10.7641
稱職	-10.7641
生日	-10.7646
相國	-10.7647
長生	-10.7649
部郎中	-10.7656
入闗	-10.7661
趙人	-10.7662
助之	-10.7662
諸所	-10.767
之惡	-10.7673
人之所	-10.7677
軍門	-10.7684
家之	-10.7691
固當	-10.7691
無疑	-10.7692
請加	-10.7694
下制	-10.7695
南面	-10.7697
道徳	-10.7698
亦以為	-10.7704
今以	-10.7707
時望	-10.771
者非	-10.7711
復言	-10.7712
禮官	-10.7712
盡殺之	-10.7716
立太子	-10.772
憐之	-10.7723
語之曰	-10.7726
别駕	-10.7735
世子	-10.7736
文帝問	-10.7738
敵也	-10.774
也凡	-10.7741
求賢	-10.7742
曰先帝	-10.7749
識之	-10.7751
璞	-10.7752
之首	-10.7758
秦人	-10.7762
既平	-10.7768
為變	-10.7771
遺詔	-10.7772
陽太守	-10.7777
既失	-10.7778
每見	-10.7786
大政	-10.7789
令公	-10.7791
共事	-10.7805
事耳	-10.7807
正色	-10.7815
致書	-10.7815
以濟	-10.7816
號為	-10.7816
所求	-10.7817
左丞	-10.7823
不濟	-10.7824
之子也	-10.7839
於獄	-10.7851
乎乃	-10.7855
所聞	-10.7856
而反	-10.7862
持之	-10.7862
人事	-10.7863
以代	-10.7867
故名	-10.7868
鎮撫	-10.7871
論功	-10.7877
所有	-10.788
爭權	-10.7882
復生	-10.7887
不可使	-10.789
猶以	-10.789
不得見	-10.7893
變更	-10.7899
孔子曰	-10.7902
為太尉	-10.7903
使與	-10.7904
下詔曰	-10.7905
罪當死	-10.7907
大錢	-10.7918
所以不	-10.7918
五年初	-10.793
在陛下	-10.7934
文帝以	-10.7936
欲加	-10.7944
此心	-10.7945
兩人	-10.7947
常恐	-10.795
可立	-10.7956
也徳宗	-10.7958
其議	-10.7959
厚賂	-10.7967
二萬人	-10.7968
而進	-10.797
所須	-10.7971
還言	-10.7973
亡國	-10.7977
是則	-10.7978
命也	-10.7982
多疾	-10.7983
三十七	-10.7993
離宫	-10.7994
不次	-10.8
君侯	-10.8
兄也	-10.8001
以獻	-10.8004
不進	-10.8012
傳四	-10.8013
而求	-10.8017
與語	-10.802
以遺	-10.8022
中郎	-10.8024
國號	-10.8027
對䇿	-10.8037
之深	-10.8038
所對	-10.8051
中官	-10.8055
八百	-10.8057
其一	-10.8061
書云	-10.8062
事必	-10.8071
語及	-10.8073
▁注云	-10.8073
稱制	-10.8077
不降	-10.8081
外祖	-10.8082
之門	-10.8086
明矣	-10.8089
四年初	-10.8093
出門	-10.8094
至於此	-10.8097
兵柄	-10.8098
今主上	-10.8106
死亡	-10.8113
自相	-10.8116
因請	-10.8117
先自	-10.812
又多	-10.8122
無用	-10.8127
議事	-10.813
所陳	-10.8136
省事	-10.8142
也應劭曰	-10.8144
任之	-10.8149
長孫無忌	-10.8149
公子	-10.8154
故能	-10.8157
是謂	-10.8164
豈宜	-10.8164
武備	-10.8167
車服	-10.8169
則吾	-10.8172
若能	-10.8177
保全	-10.8178
為害	-10.8179
何從	-10.818
更命	-10.8181
大用	-10.8185
讓之	-10.8187
教之	-10.8189
十六年	-10.819
元光	-10.8191
其形	-10.8195
是使	-10.8201
明君	-10.8206
譜	-10.821
樞密	-10.8222
何者	-10.8227
騎士	-10.8245
為郎	-10.8247
制之	-10.8254
歸命	-10.826
建武二年	-10.8263
曰大王	-10.8267
五十八	-10.8269
出遊	-10.8273
也漢	-10.8279
人間	-10.8283
四十六	-10.8283
過之	-10.8287
職在	-10.8288
任使	-10.8291
報之	-10.83
出城	-10.8302
柏	-10.8302
所取	-10.8304
為長	-10.8307
濯	-10.8308
皆當	-10.831
譟	-10.831
隸	-10.8311
襦	-10.8313
𤣥曰	-10.8317
從諫	-10.8319
鑰	-10.8319
曰此非	-10.8319
未央宫	-10.832
鄭氏曰	-10.832
幅巾	-10.832
猾	-10.8321
前書音義曰	-10.8322
旨	-10.8322
仁浦	-10.8323
地震	-10.8323
司馬懿	-10.8323
扞	-10.8324
挽	-10.8324
綘	-10.8324
將有	-10.8325
鍾離	-10.8325
柩	-10.8326
眉	-10.8326
王彪之	-10.8328
謝罪	-10.8329
饋遺	-10.8329
霞	-10.8329
幢	-10.8329
拾	-10.833
臣瓚曰	-10.833
朱穆	-10.833
杜喬	-10.8331
覬	-10.8331
敦煌	-10.8331
繞	-10.8331
緣	-10.8331
异	-10.8331
矛	-10.8332
賦歛	-10.8332
有憂色	-10.8332
壼	-10.8333
晃	-10.8333
天雄節度使	-10.8333
貝	-10.8333
馴	-10.8334
憎	-10.8335
䝉遜	-10.8335
剽	-10.8335
蹤	-10.8335
無子	-10.8336
愿	-10.8336
讜	-10.8336
縉	-10.8336
鉞	-10.8336
甑生	-10.8336
國子祭酒	-10.8336
慧	-10.8337
三品以上	-10.8337
廣順二年	-10.8337
甚於	-10.8337
甲乙	-10.8337
䑕	-10.8337
孽	-10.8338
粉	-10.8338
興慶宫	-10.8338
衷	-10.8338
徭	-10.8338
節度判官	-10.8339
漁	-10.8339
汎	-10.8339
住	-10.8339
開成元年	-10.8339
邏	-10.8339
聞之曰	-10.834
裴垍	-10.834
欒	-10.834
皁	-10.834
回紇	-10.834
邵	-10.8341
桓靈	-10.8341
紛紜	-10.8341
毗	-10.8341
熾	-10.8341
莫肯	-10.8342
甘茂	-10.8342
魯仲連	-10.8342
殽	-10.8342
驚駭	-10.8342
許諾	-10.8342
㤀	-10.8342
蘓	-10.8342
總管	-10.8343
范延光	-10.8343
圓	-10.8343
㸃	-10.8343
李昭徳	-10.8343
芥	-10.8343
馮延巳	-10.8344
婁敬	-10.8344
祕書監	-10.8344
家者流出於	-10.8344
殿中侍御史	-10.8344
槩	-10.8344
幟	-10.8344
帷幄	-10.8344
愛憎	-10.8344
劉鄩	-10.8344
遜位	-10.8344
挑戰	-10.8344
纎	-10.8345
覇	-10.8345
紿	-10.8345
團	-10.8346
焚香	-10.8346
蔚	-10.8346
瘞	-10.8347
冩	-10.8347
勢傾朝野	-10.8347
當是之時	-10.8347
欽義	-10.8347
糶	-10.8347
傳七十二	-10.8347
交阯	-10.8347
演	-10.8347
藴	-10.8347
僣	-10.8347
慤	-10.8347
泰始七年	-10.8347
裏	-10.8348
厄	-10.8348
愠	-10.8348
盗鑄	-10.8348
霧	-10.8348
遂安	-10.8348
動揺	-10.8348
十六宅	-10.8348
淚	-10.8349
揔	-10.8349
遍	-10.8349
詆	-10.8349
薊	-10.835
狼狽	-10.835
奭	-10.835
祖仁	-10.835
栗	-10.835
貪殘	-10.835
截	-10.835
逄	-10.835
草創	-10.835
寅	-10.835
雒	-10.835
裔	-10.835
禾	-10.8351
以萬數	-10.8351
令狐楚	-10.8351
倡	-10.8351
峭	-10.8351
椒房	-10.8351
杵	-10.8351
坊市	-10.8351
紂	-10.8351
閭里	-10.8352
筮	-10.8352
廣明元年	-10.8352
董仲舒	-10.8352
杯	-10.8352
豕	-10.8352
鎧仗	-10.8352
㩁	-10.8353
弋	-10.8353
驃騎大將軍	-10.8353
華山	-10.8353
大秦國	-10.8354
殄	-10.8354
夀春	-10.8354
遊獵	-10.8354
園陵	-10.8354
岡	-10.8354
嬪	-10.8354
長興四年	-10.8354
兾	-10.8354
宵	-10.8355
面折	-10.8355
太學	-10.8355
褚淵	-10.8355
駙馬都尉	-10.8355
紛紛	-10.8356
姬妾	-10.8356
淮隂	-10.8356
跌	-10.8356
張延賞	-10.8357
羡餘	-10.8357
京畿	-10.8357
珍寳	-10.8357
事無大小	-10.8357
搢紳	-10.8357
希範	-10.8358
俘	-10.8358
注云漢官儀曰	-10.8358
餅	-10.8358
数	-10.8358
范質	-10.8358
貞元十	-10.8358
下邳	-10.8359
田承嗣	-10.8359
賜自盡	-10.8359
孝文	-10.8359
雍州刺史	-10.8359
驪山	-10.836
黙啜	-10.836
犢	-10.836
元和三年	-10.836
麤	-10.8361
後周太祖	-10.8362
譬猶	-10.8362
皎	-10.8362
大理卿	-10.8363
楊炎	-10.8363
數十騎	-10.8363
又使	-10.8363
季述	-10.8363
適之	-10.8364
倉廪	-10.8364
側目	-10.8364
桓譚	-10.8365
右拾遺	-10.8365
澳	-10.8366
以木	-10.8366
祭遵	-10.8366
奔走	-10.8367
小黄門	-10.8367
妃嬪	-10.8367
厯數	-10.8367
高力士	-10.8367
乳母	-10.8368
皇孫	-10.8368
依違	-10.8368
登樓	-10.8369
中傷之	-10.837
陛下必欲	-10.837
沈約	-10.837
李紳	-10.837
西羌	-10.837
跋扈	-10.837
文宗曰	-10.8371
盧把	-10.8371
博學	-10.8371
李琪	-10.8371
霍光傳	-10.8371
慙懼	-10.8371
裴耀卿	-10.8371
李廣傳	-10.8372
險固	-10.8372
羅告	-10.8372
疾疫	-10.8372
遁去	-10.8373
楊綰	-10.8373
湯武	-10.8374
遙	-10.8374
實録	-10.8374
兩京	-10.8374
空虛	-10.8375
為前鋒	-10.8375
屈突通	-10.8375
侯君集	-10.8375
河朔	-10.8376
酒色	-10.8376
祖宗	-10.8377
蘇武	-10.8378
郭解	-10.8378
元衡	-10.8379
安肯	-10.8379
四十九	-10.8379
荆州刺史	-10.838
乗勝	-10.8381
桓彦範	-10.8382
李希烈	-10.8383
力役	-10.8383
陳倉	-10.8383
士良等	-10.8386
神色	-10.8387
訛言	-10.8387
徐温	-10.8389
門東晉	-10.8389
入閤	-10.839
師伯	-10.839
疑似	-10.8391
正統	-10.8392
寵遇	-10.8392
嗣位	-10.8392
劉聰	-10.8393
受賂	-10.8393
而泣	-10.8393
文王	-10.8393
怒命	-10.8394
聞之大怒	-10.8395
江夏	-10.8395
法令	-10.8395
靈運	-10.8395
老病	-10.8396
廷望	-10.8397
李彪	-10.8398
謂所親曰	-10.8398
徴之	-10.8399
後悔	-10.8399
東海王	-10.84
避位	-10.84
陳覺	-10.84
福建	-10.8402
盜賊	-10.8402
勃然	-10.8402
農桑	-10.8403
吳越王	-10.8404
吏部郎	-10.8404
乘間	-10.8404
而行之	-10.8404
永建	-10.8405
山林	-10.8405
興元	-10.8405
勞費	-10.8406
張釋之	-10.8406
根本	-10.8408
就第	-10.8408
精神	-10.8409
封爵	-10.841
進賢	-10.841
阿母	-10.841
詩書	-10.8414
肅然	-10.8414
行者	-10.8415
開府	-10.8416
鄭光	-10.8416
禮儀	-10.8416
不懌	-10.8418
咸和	-10.842
劉秀	-10.8422
寵幸	-10.8422
宋王	-10.8422
琅邪王	-10.8423
方術	-10.8424
戒之曰	-10.8425
甚喜	-10.8428
切責	-10.8429
夫婦	-10.843
也宜	-10.843
厲聲曰	-10.8432
牙兵	-10.8433
宰臣	-10.8435
全義	-10.8436
耳乃	-10.8436
凡所	-10.8438
司𨽻	-10.844
大司徒	-10.844
形勢	-10.844
嗣君	-10.8441
亦以為然	-10.8443
一夕	-10.8445
被誅	-10.8445
兩省	-10.8446
張昭	-10.8447
矯詔	-10.8449
鹽鐵轉運使	-10.8449
和解	-10.845
革命	-10.8452
此其所以	-10.8452
怨怒	-10.8454
甚謹	-10.8457
漢祖	-10.8458
李愚	-10.8459
分司	-10.8461
明皇命	-10.8466
千餘里	-10.8467
與之同	-10.8469
名器	-10.8474
從容謂	-10.8474
諸胡	-10.8475
聖心	-10.8477
多詐	-10.8477
議者以	-10.8478
朝會	-10.848
卿何	-10.8481
禁止	-10.8483
何患	-10.8485
今日之事	-10.8487
改易	-10.8492
受賞	-10.8496
持重	-10.8496
道也	-10.8497
𢎞正	-10.8498
並起	-10.85
王友	-10.8502
冠軍	-10.8503
百餘里	-10.8504
奉養	-10.8505
走馬	-10.8506
而天下	-10.8508
元賞	-10.8508
方面	-10.8515
而食之	-10.8515
士人	-10.8516
見者	-10.8518
為念	-10.852
四十二	-10.852
劉表	-10.8522
髙氏	-10.8525
士衆	-10.8527
因而	-10.8527
雲中	-10.8528
忠正	-10.8528
曰今日	-10.8529
使使	-10.8529
所引	-10.853
語云	-10.8531
近親	-10.8532
破家	-10.8533
江漢	-10.8534
連兵	-10.8538
不明	-10.8538
東山	-10.8539
故謂	-10.8541
事不	-10.8546
丁公	-10.8546
張説	-10.855
舊恩	-10.856
不祥	-10.8561
王敦	-10.8562
二十四年	-10.8562
猶可	-10.8563
太宗曰朕	-10.8566
境上	-10.8567
文辭	-10.8567
於地	-10.8567
霸上	-10.8567
先除	-10.8569
恃其	-10.8571
殿庭	-10.8571
興廢	-10.8574
將以	-10.858
惜之	-10.8581
思歸	-10.8581
素有	-10.8583
周禮	-10.8584
獨留	-10.8587
反間	-10.859
逺來	-10.8593
一見	-10.8596
宜早	-10.8596
前將軍	-10.8601
故言	-10.8602
為卿	-10.8604
今又	-10.8604
既誅	-10.8608
三鎮	-10.8609
北周	-10.8612
相對	-10.8614
南平	-10.8615
隨時	-10.8615
尚不能	-10.8618
愁怨	-10.862
義帝	-10.8622
用為	-10.8622
出征	-10.8623
與羣臣	-10.863
晉主	-10.863
而東	-10.8632
大官	-10.8632
治國	-10.8634
給賜	-10.8635
對曰臣聞	-10.8638
其國	-10.8643
引去	-10.8643
器物	-10.8645
勝也	-10.8647
疑懼	-10.8648
明白	-10.8649
止可	-10.865
失守	-10.8658
西門	-10.8659
當斬	-10.8662
由是有寵	-10.8663
何能	-10.8666
商人	-10.8671
及弟	-10.8672
二世	-10.8676
豈敢	-10.8678
秦州	-10.8683
等議	-10.8685
政令	-10.8688
曰卿言	-10.8691
戰國	-10.8691
攻取	-10.8692
邪正	-10.8696
豈得以	-10.8698
之象也	-10.8699
張永	-10.871
晉軍	-10.8711
王章	-10.8719
笑之	-10.8721
師古曰謂	-10.8721
諸武	-10.8742
雖多	-10.8746
失節	-10.8747
秦漢	-10.8747
吾家	-10.8748
齊國	-10.8749
民望	-10.8749
光武令	-10.8751
至則	-10.8752
有司奏	-10.8756
征西	-10.8756
儒者	-10.8758
用度	-10.876
陳留	-10.8763
上欽定四庫全書通鑑總𩔖卷	-10.8764
危亡	-10.877
有子	-10.8771
拜官	-10.8773
魏武	-10.8776
尚可	-10.8776
請降	-10.8778
漢家	-10.878
天心	-10.8781
安知	-10.8784
入宮	-10.8791
决於	-10.8798
關東	-10.8798
元平	-10.8803
少子	-10.8804
已有	-10.8805
宜陽	-10.8809
皆失色	-10.881
他人	-10.8811
矣夫	-10.8811
相攻	-10.8811
敬則	-10.8812
官有	-10.8813
言是也	-10.8816
行道	-10.8819
吾與	-10.8819
招權	-10.882
分道	-10.8822
餘衆	-10.8823
碎之	-10.8824
給事	-10.8828
也一曰	-10.8829
抵罪	-10.8839
愚謂	-10.8842
奈何以	-10.8847
字也	-10.8857
如其	-10.8876
文徳	-10.888
夫以	-10.8887
上流	-10.8897
請討	-10.8897
自歸	-10.8898
必待	-10.8899
者也今	-10.8902
射之	-10.8906
異者	-10.8908
千騎	-10.8911
其數	-10.8912
殿上	-10.8914
今臣	-10.8918
終當	-10.8918
羣臣議	-10.8921
將卒	-10.8925
呼之	-10.8927
后曰	-10.8928
今始	-10.8937
所執	-10.8939
常與	-10.8941
作色	-10.8942
初平	-10.8949
遂成	-10.8951
唯有	-10.8958
不令	-10.8961
相應	-10.8967
逺矣	-10.8968
西宫	-10.8972
以竹	-10.8972
自誣	-10.8979
詔令	-10.8981
能如是	-10.8988
止之曰	-10.8989
於事	-10.8989
得幸於	-10.8995
自訴	-10.9006
餘人	-10.9008
常置	-10.901
洪州	-10.902
各自	-10.9028
事君	-10.904
皆令	-10.9042
當盡	-10.9047
百緡	-10.9055
終身	-10.9055
少者	-10.9057
名臣	-10.9057
而前	-10.9061
犯顔	-10.9063
自新	-10.9065
一錢	-10.9066
州城	-10.9068
山下	-10.9069
為中書侍郎	-10.9071
之妻	-10.9071
七月	-10.9076
為臣	-10.9079
所願	-10.9082
難以	-10.9082
決之	-10.9082
以進	-10.9091
王后	-10.9115
公卿議	-10.9124
縱火	-10.9128
之費	-10.9129
其法	-10.9134
元后	-10.9135
見殺	-10.9135
報仇	-10.9141
先後	-10.9147
庶人	-10.9151
弼曰	-10.9153
以身	-10.9156
詔使	-10.9156
冊命	-10.9157
契丹主曰	-10.916
得其人	-10.9163
太平之	-10.9171
大過	-10.9183
梁天監	-10.9193
愬曰	-10.9196
兵法	-10.9196
上欽定四庫全書通鑑總𩔖卷十	-10.9198
殆非	-10.9199
自詣	-10.9203
自恃	-10.921
若陛下	-10.921
始有	-10.9221
憂之	-10.9225
初立	-10.9226
一子	-10.9232
馳入	-10.9235
天福三年	-10.9242
因問	-10.9242
而君	-10.9242
不異	-10.9244
來朝	-10.9249
各言	-10.9251
不使	-10.9259
簿書	-10.926
曰方今	-10.9263
一二	-10.9271
囚之	-10.9271
朝貴	-10.9277
不決	-10.9278
後漢書	-10.9278
納其	-10.9279
議以	-10.9279
之數	-10.9288
則天下	-10.9289
乎因	-10.929
者尚	-10.9294
其將	-10.9298
盛陳	-10.93
將出	-10.9304
城南	-10.9308
之失	-10.9309
兵圍	-10.931
挺	-10.9316
自可	-10.9317
徐曰	-10.9321
多引	-10.9323
曰茍	-10.9324
光武曰	-10.933
所制	-10.933
為先	-10.9331
宫門	-10.9334
以通	-10.934
出閤	-10.9347
更始二年	-10.9349
御之	-10.935
而走	-10.9354
本無	-10.9355
山人	-10.9356
詡曰	-10.9359
二十七	-10.9362
一一	-10.9364
勞之曰	-10.9365
言其狀	-10.937
反逆	-10.9378
宴於	-10.9379
請改	-10.9384
輕兵	-10.9385
衆多	-10.9395
殺我	-10.9398
具陳	-10.9401
僧達	-10.9401
司馬昭	-10.9401
劉知逺	-10.9405
使者至	-10.9408
何其	-10.9412
諸相	-10.9419
用也	-10.9421
一州	-10.9421
計事	-10.9423
為災	-10.9423
有事	-10.9428
楊州	-10.943
之親	-10.9432
不過三	-10.9435
皇嗣	-10.9436
不能守	-10.9438
免死	-10.9442
與同	-10.9442
奉迎	-10.9444
朝議	-10.9456
益驕	-10.9462
三千餘	-10.9469
之基	-10.9473
問於	-10.9478
父為	-10.9485
賈誼	-10.949
對曰昔	-10.9491
令天下	-10.9504
𤣥謨	-10.951
左僕射	-10.9512
雍州	-10.9515
太上皇	-10.9521
友人	-10.9523
勝也紹	-10.9526
聞陛下	-10.9528
崔羣	-10.9532
其口	-10.9535
宣帝紀	-10.954
於理	-10.9543
曰明公	-10.9545
庭湊	-10.9546
叅	-10.9546
鉗	-10.9547
廼	-10.9548
部落	-10.9549
黥	-10.9549
蟬	-10.955
晙	-10.9551
粤	-10.9552
貶官	-10.9552
頗有	-10.9554
亥	-10.9555
罘罳	-10.9555
不備	-10.9556
㳙	-10.9557
珠玉	-10.9559
雒陽	-10.9561
去之	-10.9561
艦	-10.9562
是知	-10.9562
鹽鐵	-10.9563
慎夫人	-10.9564
范滂	-10.9564
蒼頭	-10.9564
梧	-10.9565
除其	-10.9567
邯鄲	-10.9569
闌	-10.9569
攘袂	-10.957
善為	-10.957
師古曰凡言	-10.9571
段凝	-10.9571
腕	-10.9571
竇憲	-10.9571
郤	-10.9572
霄	-10.9572
魯肅	-10.9572
宗實	-10.9572
漸臺	-10.9573
訐	-10.9573
賣官	-10.9574
弇	-10.9574
庭中	-10.9574
棟	-10.9575
禆	-10.9576
驍	-10.9576
駱	-10.9576
顯宗紀永平	-10.9577
燔	-10.9577
涕	-10.9577
穉	-10.9578
揷	-10.9578
棲	-10.9578
夭	-10.9578
熹	-10.9578
塲	-10.9579
脂	-10.9579
宛	-10.9579
胥	-10.9579
絙	-10.9579
昭帝紀	-10.9579
盪	-10.958
哲	-10.958
毓	-10.958
耆	-10.9581
引咎	-10.9582
吉甫	-10.9582
拂	-10.9582
張敞	-10.9582
彬	-10.9583
釀	-10.9583
丙吉	-10.9583
酖	-10.9583
鎖	-10.9584
態	-10.9584
誣罔	-10.9584
敖	-10.9584
渴	-10.9584
羨餘	-10.9585
周赧王	-10.9585
寫	-10.9585
地理志八	-10.9585
鄒	-10.9585
竿	-10.9585
杭	-10.9585
層	-10.9585
躍馬	-10.9585
抱真	-10.9586
潮	-10.9586
挈	-10.9586
驩	-10.9586
綯	-10.9586
大理少卿	-10.9586
涓	-10.9587
浴	-10.9587
三十一	-10.9588
徼幸	-10.9588
袁粲	-10.9588
佚	-10.9588
芳	-10.9588
左馮翊	-10.9588
抄掠	-10.9588
猥	-10.9589
灰	-10.9589
沙汰	-10.9589
髙貴鄉公	-10.9589
歐陽	-10.9589
葺	-10.959
咫尺	-10.959
誼	-10.959
夏侯勝	-10.959
虎牢	-10.959
慨然	-10.959
梓宫	-10.959
輻湊	-10.959
隘	-10.959
鴟	-10.959
溢	-10.9591
浙	-10.9591
懾	-10.9591
臧否	-10.9591
傳瓘	-10.9591
神龍元年	-10.9591
挂	-10.9592
長興三年	-10.9592
利於	-10.9592
軀	-10.9592
稚	-10.9592
隷	-10.9593
彘	-10.9593
沃	-10.9593
為青州刺史	-10.9593
冗	-10.9593
劉向	-10.9593
揣	-10.9594
昕	-10.9594
劉仁贍	-10.9594
飲藥	-10.9594
布帛	-10.9594
何面目	-10.9594
羈	-10.9594
笏	-10.9594
猷	-10.9594
申屠嘉	-10.9594
符瑞	-10.9595
晡	-10.9595
韻	-10.9595
拊	-10.9595
鮑	-10.9595
枯	-10.9596
平盧節度使	-10.9596
杜佑	-10.9596
厮	-10.9596
衢	-10.9596
勣	-10.9596
約束	-10.9596
著作郎	-10.9596
亷恥	-10.9596
元琰	-10.9596
爾朱榮	-10.9596
塗炭	-10.9597
呂	-10.9597
鳳翔	-10.9597
潼闗	-10.9597
蕭衍	-10.9597
韋執誼	-10.9597
響	-10.9597
鎰	-10.9597
盎	-10.9597
覈	-10.9597
至徳元載	-10.9597
資糧	-10.9597
栁公權	-10.9598
騶	-10.9598
眠	-10.9598
疇	-10.9598
西域傳六十六	-10.9598
孫伏伽	-10.9598
李巽	-10.9598
西京留守	-10.9598
賦斂	-10.9598
羅夫子	-10.9598
歩騎	-10.9599
白敏中	-10.9599
凌	-10.9599
晏駕	-10.9599
縉紳	-10.9599
王武俊	-10.9599
和士開	-10.9599
奨	-10.9599
工部尚書	-10.9599
聿	-10.9599
藻	-10.9599
琪	-10.9599
酣飲	-10.9599
案驗	-10.9599
屍	-10.9599
秋冬	-10.9599
箴	-10.9599
豫讓	-10.9599
闈	-10.96
榖帛	-10.96
誑	-10.96
酌	-10.96
黷	-10.96
廡下	-10.96
即召	-10.96
注云説文曰	-10.9601
竄	-10.9601
弑逆	-10.9601
富饒	-10.9601
開延英	-10.9601
征虜	-10.9601
何言	-10.9601
藺	-10.9601
知制誥	-10.9601
艱	-10.9601
長揖	-10.9601
夙夜	-10.9601
鴆	-10.9601
鏖	-10.9602
脉	-10.9602
牟	-10.9602
單騎	-10.9602
比肩	-10.9603
杜詩	-10.9603
何尚之	-10.9603
桞	-10.9603
辟雍	-10.9603
劉洎	-10.9603
徐知誥	-10.9603
駒	-10.9604
磧	-10.9604
楊復恭	-10.9604
精銳	-10.9604
灾	-10.9604
日有食之	-10.9605
大司農	-10.9605
羅織	-10.9605
訟寃	-10.9605
祁	-10.9605
浮屠	-10.9605
宰輔	-10.9605
邊鎬	-10.9605
裸	-10.9605
貞觀之初	-10.9605
巫蠱	-10.9606
武承嗣	-10.9606
竇融	-10.9606
天下幸甚	-10.9606
乾祐元年	-10.9606
幄	-10.9607
元和四年	-10.9607
事遂寢	-10.9607
裴行儉	-10.9607
綾	-10.9607
鎧	-10.9608
惋	-10.9608
批	-10.9608
氏為皇后	-10.9608
髫	-10.9608
昆侖	-10.9608
昆弟	-10.9609
輔導	-10.9609
龕	-10.9609
荒淫	-10.9609
兖豫	-10.9609
筩	-10.9609
路巖	-10.9609
夜半	-10.9609
寐	-10.961
樞機	-10.961
穰	-10.961
赦其罪	-10.9611
丹陽尹	-10.9611
王莽傳	-10.9611
河洛	-10.9611
冦恂	-10.9611
閹	-10.9611
長慶二年	-10.9611
栖	-10.9612
季良	-10.9612
以贍軍	-10.9612
大厯元年	-10.9612
張嘉貞	-10.9612
卵	-10.9612
好讀書	-10.9612
稀	-10.9612
脚	-10.9613
崔駰傳	-10.9613
黄霸	-10.9614
貿	-10.9614
絢	-10.9614
張承業	-10.9615
采訪使	-10.9615
禹錫	-10.9615
萬歳	-10.9615
因與	-10.9616
譴責	-10.9616
營繕	-10.9616
棨	-10.9617
袁術	-10.9617
永徽	-10.9618
趙巖	-10.9618
修宫室	-10.9618
耆老	-10.9618
倉卒	-10.9618
鍾會	-10.9618
諛	-10.9619
倓	-10.9619
年八十	-10.962
春夏	-10.962
晨夜	-10.962
邠寧	-10.962
官司	-10.962
欽明	-10.9621
述律后	-10.9621
郡丞	-10.9622
梁冀傳	-10.9622
闔門	-10.9623
勤勞	-10.9623
薛延陁	-10.9623
播遷	-10.9623
彦超	-10.9624
於地下	-10.9624
刺史縣令	-10.9624
稱尊號	-10.9624
入汴	-10.9624
竇參	-10.9624
大丈夫	-10.9625
容貌	-10.9625
被甲	-10.9626
太宰	-10.9627
機務	-10.9627
真偽	-10.9627
慰撫	-10.9627
未㡬	-10.9627
匡範	-10.9627
恭謹	-10.9628
凶逆	-10.9628
馬燧	-10.9629
后妃	-10.9629
羣盜	-10.9629
集百官	-10.9629
陳希烈	-10.9629
終不為	-10.963
不自勝	-10.963
對仗	-10.9632
追尊	-10.9633
掾史	-10.9633
忠嗣	-10.9634
少傅	-10.9634
定襄	-10.9634
嫌疑	-10.9634
威福	-10.9634
曹節	-10.9635
貨賂	-10.9637
廣平王	-10.9638
不敢違	-10.9638
王鉷	-10.9638
乘勝	-10.9639
李沖	-10.964
都市	-10.964
謝病	-10.964
異同	-10.9642
薛文傑	-10.9642
牛酒	-10.9644
並同平章事	-10.9644
紫宫	-10.9645
桓公	-10.9645
𢎞㣲	-10.9646
太和四年	-10.9647
威儀	-10.9647
太保	-10.9647
還建康	-10.9647
甘心	-10.9649
曹參軍	-10.9649
爾曹	-10.9651
雄武	-10.9653
柔然	-10.9653
王涯	-10.9654
𢎞佐	-10.9655
常衮	-10.9656
舊典	-10.9657
休仁	-10.9659
民力	-10.9659
禪代	-10.966
莫府	-10.966
伏願	-10.9661
正人	-10.9662
極刑	-10.9663
中二千石	-10.9663
下詔稱	-10.9663
知古	-10.9664
文宣	-10.9664
孰與	-10.9664
將發	-10.9665
累年	-10.9665
穆帝	-10.9665
至城下	-10.9665
九品	-10.9666
馬植	-10.9667
逃歸	-10.9668
三尺	-10.9668
又命	-10.9668
改容	-10.9669
行幸	-10.9669
惑衆	-10.967
職業	-10.9671
太盛	-10.9671
曏使	-10.9672
宫市	-10.9673
承勲	-10.9675
佛法	-10.9675
風流	-10.9676
山南	-10.9676
衆庶	-10.9677
馮唐	-10.9677
前驅	-10.9678
老母	-10.9679
糧道	-10.9679
大駭	-10.968
不稱㫖	-10.968
劉向傳	-10.9681
苑中	-10.9682
流俗	-10.9682
司刑	-10.9682
曰汝曹	-10.9684
府藏	-10.9684
既行	-10.9684
親黨	-10.9685
李訓	-10.9685
承嘉	-10.9685
太子詹事	-10.9686
可使	-10.9686
積石	-10.9687
韓全誨	-10.9689
長驅	-10.969
禮畢	-10.9691
懐義	-10.9692
王播	-10.9693
殊禮	-10.9693
震駭	-10.9693
君父	-10.9694
必能	-10.9695
曰嗟乎	-10.9695
張遇賢	-10.9695
孝徳	-10.9695
大慙	-10.9695
周師	-10.9696
士皆	-10.9696
四出	-10.9696
山積	-10.9698
後庭	-10.9699
比年	-10.97
燕趙	-10.9701
建業	-10.9702
西河	-10.9705
募民	-10.9706
積年	-10.9707
逺慮	-10.9708
以罪	-10.9708
隂謀	-10.971
誰能	-10.9711
後數日	-10.9712
宗正	-10.9712
國夫人	-10.9712
目前	-10.9713
得歸	-10.9714
解甲	-10.9717
從容問	-10.9718
論曰	-10.9719
何暇	-10.9723
殿前	-10.9723
赤子	-10.9724
專制	-10.9725
公輩	-10.9726
北魏主	-10.9727
私恩	-10.9727
引之	-10.9728
千緡	-10.9728
以塞	-10.973
亦宜	-10.9731
不就	-10.9734
武陵	-10.9734
五色	-10.9734
信讒	-10.9734
知其意	-10.9737
惟新	-10.9739
豈惟	-10.9741
無賴	-10.9747
金錢	-10.9747
王叔文	-10.9748
致治	-10.975
立廟	-10.9751
下廷尉	-10.9751
此賊	-10.9751
乘馬	-10.9752
重榮	-10.9754
軍吏	-10.9755
不能決	-10.9756
遣將	-10.9756
嗣子	-10.976
懐帝	-10.9764
相州	-10.9765
燕主	-10.9765
大魚	-10.9767
百萬斛	-10.9767
永安	-10.9769
十餘里	-10.9769
親舊	-10.9772
五代	-10.9773
入援	-10.9774
意甚	-10.9778
為逆	-10.9782
當自	-10.9782
女主	-10.9784
皆喜	-10.9786
内府	-10.9787
酒食	-10.9789
惡人	-10.9789
相結	-10.9792
三十人	-10.9793
唐室	-10.9795
坐誅	-10.9795
從一	-10.9797
服御	-10.98
以病	-10.98
以新	-10.9804
曹公	-10.9809
遂殺之	-10.9812
進止	-10.9813
諌官	-10.9814
聞其過	-10.9815
土地	-10.9815
直諫	-10.9816
召對	-10.9816
私謁	-10.9817
不奉詔	-10.9819
名位	-10.9821
仍命	-10.9822
臣以為	-10.9825
相連	-10.9826
獲其	-10.9828
者以其	-10.9833
中華	-10.9835
明帝曰	-10.9837
侍臣	-10.9838
得預	-10.9839
明府	-10.9839
聲名	-10.9839
王允	-10.984
而返	-10.9841
私藏	-10.9842
不能對	-10.9845
後嗣	-10.9848
賜與	-10.9851
遂定	-10.9854
李陵	-10.9854
同異	-10.9859
徐公	-10.9861
養子	-10.9868
太官	-10.9871
難制	-10.9871
光武紀更始	-10.9873
正義	-10.9879
各置	-10.988
兩軍	-10.9881
即遣	-10.9885
為樞宻使	-10.9886
在側	-10.9886
敬武	-10.9887
潤	-10.9893
廣平	-10.9898
小學	-10.9898
而釋之	-10.9901
部將	-10.9914
百口	-10.9917
還山	-10.992
我家	-10.992
任城	-10.9923
所獲	-10.9928
少長	-10.9931
上命	-10.9933
既定	-10.9934
民財	-10.9937
下殿	-10.9937
於宫中	-10.9937
浩曰	-10.9938
諸子皆	-10.9939
治道	-10.994
漢之	-10.9941
不歸	-10.9947
為尚書	-10.9948
國亡	-10.9949
治軍	-10.995
用刑	-10.9952
何也對曰	-10.9952
元元	-10.9952
唐人	-10.9953
詩曰	-10.9954
王郎	-10.9956
平定	-10.9956
官賞	-10.996
三府	-10.9961
一說	-10.9966
頗多	-10.9968
乎夫	-10.9969
内殿	-10.9969
徳也	-10.997
以為憂	-10.9972
小城	-10.9977
今兹	-10.9979
既罷	-10.9984
竊議	-10.9988
修復	-10.9992
為賊	-10.9995
中間	-10.9996
大亮	-10.9998
景從	-10.9999
一體	-10.9999
遣軍	-11.001
來歸	-11.0011
乘之	-11.0012
關西	-11.0017
見疑	-11.0019
所歸	-11.002
宜令	-11.0034
於鄴	-11.0036
行刑	-11.0039
如流	-11.0044
求福	-11.0047
於山	-11.0059
小民	-11.0062
遂克	-11.0063
先主	-11.0065
曰此乃	-11.0066
昭王	-11.0067
内附	-11.007
仙人	-11.0073
乃拜	-11.0075
所賜	-11.0076
大會	-11.0085
對曰此	-11.0088
同謀	-11.0095
哉今	-11.0102
寧可	-11.0102
知名	-11.0103
失道	-11.0109
曰子	-11.0113
則亂	-11.0118
馬周	-11.0118
臣敢	-11.0121
潞州	-11.0126
者可	-11.0127
等共	-11.0134
使不得	-11.0136
受冊	-11.0136
典選	-11.0142
往見	-11.0142
髙平	-11.0144
大鎮	-11.0152
實不	-11.0155
三州	-11.0155
名馬	-11.0156
勿令	-11.016
吏職	-11.0161
一千	-11.0164
星也	-11.0173
之力	-11.0177
計其	-11.0178
與汝	-11.0185
輩皆	-11.0185
精於	-11.0185
魏相	-11.0186
不愛	-11.0186
貴盛	-11.0187
所望	-11.0189
定矣	-11.02
兵甲	-11.0202
為第一	-11.0206
心動	-11.0206
習戰	-11.0212
王業	-11.0214
水中	-11.0218
欲斬	-11.0229
不可勝數	-11.023
多難	-11.0233
之忠	-11.0233
大人	-11.0234
所短	-11.0237
屬官	-11.0243
家國	-11.0252
赴之	-11.0252
應死	-11.0253
必至	-11.0255
者並	-11.0255
謀臣	-11.0255
光武以	-11.0268
一身	-11.0268
大兵	-11.0271
外國	-11.0271
合兵	-11.0272
朝臣皆	-11.0277
失於	-11.0278
無才	-11.0283
為列侯	-11.0288
欲盡	-11.0288
若果	-11.0288
武事	-11.029
澶州	-11.029
以災異	-11.0292
役者	-11.0297
皆賀	-11.03
權臣	-11.0301
法官	-11.0303
門人	-11.0305
自疑	-11.0316
濟南	-11.0319
五星	-11.0323
以禦	-11.0323
宥之	-11.0332
若復	-11.0335
者千餘人	-11.0342
罷遣	-11.0343
安居	-11.0349
在坐	-11.0352
以前	-11.0353
四萬	-11.0359
也願陛下	-11.036
怒曰汝	-11.0363
軍國事	-11.0374
其美	-11.038
一事	-11.0384
外事	-11.0389
二曰	-11.0395
北宫	-11.0395
及還	-11.0397
其舊	-11.04
今朝廷	-11.04
信重	-11.0401
有一人	-11.0401
乎又	-11.0413
四也	-11.0413
皆曰	-11.0417
捐之	-11.0421
自取	-11.0425
舊人	-11.0425
且夫	-11.043
萬騎	-11.0433
不答	-11.044
形於	-11.0442
無為	-11.0443
門入	-11.0446
者所以	-11.0446
公事	-11.0456
不須	-11.0458
必取	-11.0459
二相	-11.0464
亦不可	-11.0475
之由	-11.0476
載初	-11.0479
以從	-11.048
悰曰	-11.0485
千四百	-11.0486
其術	-11.0493
無過	-11.0495
又詔	-11.0499
昭義	-11.0509
奉表	-11.0511
屢有	-11.0511
數以	-11.0518
所知也	-11.0521
引出	-11.0522
楚人	-11.0527
之險	-11.0527
取民	-11.0534
大計	-11.0557
大起	-11.0562
施之	-11.0563
民多	-11.0565
行人	-11.0565
於世	-11.0569
之彊	-11.0571
其子孫	-11.0574
其友	-11.0577
請和	-11.059
曰自今	-11.0593
無失	-11.0601
可保	-11.0621
為中書令	-11.0621
而人不	-11.063
有九	-11.0637
守相	-11.0643
非真	-11.0657
宫禁	-11.0659
七日	-11.066
優劣	-11.0667
有舊	-11.0668
七千	-11.0682
將安	-11.0695
用耳	-11.0701
興師	-11.0718
鏤	-11.0728
數百萬	-11.0751
滅之	-11.0752
曰自古	-11.0753
然終	-11.0754
徒以	-11.0758
盡死	-11.0767
以贖	-11.077
先斬	-11.078
出戰	-11.0797
之敗	-11.08
皇天	-11.0804
從子	-11.0805
所論	-11.0808
十萬緡	-11.0814
軍于	-11.0815
注云言	-11.0828
名家	-11.0835
二十五年	-11.0836
竭力	-11.084
不得入	-11.0849
覺之	-11.085
之勞	-11.0862
曰足下	-11.0864
在道	-11.0871
間行	-11.0873
所惡	-11.0878
大者	-11.0883
出塞	-11.0886
山也	-11.0892
致亂	-11.0895
六十五	-11.0896
謀誅	-11.0906
人不能	-11.0919
死無	-11.0923
見太后	-11.0926
宜自	-11.093
曰吾今	-11.0931
所坐	-11.0937
奏聞	-11.0941
鍔	-11.0948
司馬遷傳	-11.0952
門北魏	-11.0955
上䟽曰	-11.0959
肱	-11.0964
者唯	-11.097
何待	-11.0972
五王	-11.0976
亦欲	-11.098
匈奴傳六十四	-11.0981
璫	-11.0981
萬石君	-11.0981
疫	-11.0982
袖	-11.0983
光武紀建武	-11.0984
緜	-11.0986
峴	-11.0989
天文志	-11.099
晏球	-11.099
知天下	-11.0992
舛	-11.0992
椒	-11.0993
籠	-11.0994
并州	-11.0996
叙傳七十	-11.0996
杜欽	-11.0997
而陛下	-11.0997
模	-11.0998
者百餘人	-11.0998
僮	-11.0998
技	-11.0998
嘆	-11.0999
泗	-11.0999
吳明徹	-11.0999
築長城	-11.0999
麴	-11.0999
鴟夷	-11.0999
班超	-11.1001
姻	-11.1001
恒州	-11.1002
俾	-11.1002
孛	-11.1002
戰艦	-11.1002
牲	-11.1002
戢	-11.1002
股	-11.1003
慄	-11.1003
東方朔傳三十五	-11.1003
拭	-11.1003
捽	-11.1003
托	-11.1003
楚歌	-11.1003
慷慨	-11.1004
隗	-11.1004
譯	-11.1005
李陵傳	-11.1005
顯逹	-11.1005
畜養	-11.1005
遑	-11.1005
嚴延年	-11.1005
轢	-11.1005
元帝紀	-11.1006
諸吕	-11.1006
戇	-11.1006
諍	-11.1006
巽	-11.1006
田蚡	-11.1007
以古	-11.1007
惰	-11.1007
貉	-11.1007
隊	-11.1007
張騫	-11.1008
嶽	-11.1008
從事中郎	-11.1008
突騎	-11.1008
侣	-11.1008
劉盆子	-11.1008
茸	-11.1008
長慶四年	-11.1008
鵠	-11.1009
奐	-11.1009
邳	-11.1009
孺	-11.1009
掖門	-11.1009
穫	-11.1009
張湯傳	-11.1009
壅	-11.1009
磨	-11.101
㳺	-11.101
悛	-11.101
紛	-11.101
租税	-11.1011
佃	-11.1011
訕	-11.1011
李訓鄭注	-11.1011
罽	-11.1011
韋處厚	-11.1011
殷仲文	-11.1011
曖昧	-11.1011
番	-11.1011
有大功於	-11.1011
匡衡	-11.1011
鬱	-11.1012
羽檄	-11.1012
繒帛	-11.1012
聚斂	-11.1012
極諫	-11.1013
洒	-11.1013
譎	-11.1013
陣	-11.1013
裴炎	-11.1014
項籍傳	-11.1014
樸	-11.1014
用度不足	-11.1014
確	-11.1014
祖珽	-11.1014
皇城使	-11.1014
酤	-11.1014
耏	-11.1014
噲	-11.1014
珏	-11.1014
賈捐之	-11.1014
朱雲	-11.1014
徐邈	-11.1015
永淳元年	-11.1015
煙	-11.1015
覺寤	-11.1015
姦宄	-11.1015
太常博士	-11.1016
鄗	-11.1016
令狐綯	-11.1016
武元衡	-11.1016
莫知所	-11.1016
炙	-11.1016
漳	-11.1016
薛仁貴	-11.1016
糟	-11.1016
永泰元年	-11.1017
瘴	-11.1017
脽	-11.1017
駐	-11.1017
㳂	-11.1017
朝覲	-11.1017
安樂公主	-11.1017
虖	-11.1017
廐	-11.1018
天授元年	-11.1018
悴	-11.1018
東平王	-11.1018
孔緯	-11.1018
剥	-11.1018
顒	-11.1019
鴈	-11.1019
盆	-11.102
兩端	-11.102
稼穡	-11.102
佩刀	-11.102
壮	-11.102
蔣𤣥暉	-11.102
岑文本	-11.102
聨	-11.102
瑩	-11.102
從誨	-11.102
饑寒	-11.102
相當	-11.102
鵲	-11.102
乾祐二年	-11.102
瓦器	-11.102
祔	-11.102
諒	-11.1021
同光三年	-11.1021
阜	-11.1021
仄	-11.1021
凍	-11.1021
元和十四年	-11.1021
僃	-11.1021
悖逆	-11.1021
邊幅	-11.1021
鄜坊	-11.1021
渠犂	-11.1021
撻	-11.1022
渚	-11.1022
銀器	-11.1022
嫗	-11.1022
糒	-11.1022
搜捕	-11.1022
黃金	-11.1022
鎬	-11.1022
朱敬則	-11.1023
郃	-11.1023
司馬相如傳二十七	-11.1023
阪	-11.1023
敬達	-11.1023
刓	-11.1023
同光元年	-11.1023
複	-11.1023
耽	-11.1023
永光元年	-11.1023
酺	-11.1024
五十七	-11.1024
陸機	-11.1024
伍被	-11.1024
豹尾	-11.1024
郵	-11.1024
之柄	-11.1024
亞夫	-11.1025
人人自	-11.1025
畨	-11.1025
谷永傳	-11.1025
鉅萬	-11.1025
製	-11.1025
漿	-11.1026
啗	-11.1026
弈	-11.1026
長壽元年	-11.1026
運糧	-11.1026
品藻	-11.1026
巵	-11.1026
殫	-11.1026
澗	-11.1026
淮泗	-11.1026
合𦵏	-11.1026
荆揚	-11.1026
勍敵	-11.1026
詐偽	-11.1026
如有	-11.1027
毫	-11.1027
苛細	-11.1027
翫	-11.1027
僮僕	-11.1027
徐湛之	-11.1027
韓熈載	-11.1028
淄青	-11.1028
釋名曰	-11.1028
同光二年	-11.1028
㝠	-11.1028
拓	-11.1028
殯	-11.1028
帯	-11.1028
鯨魚	-11.1028
孩	-11.1028
爾雅	-11.1029
嶺南節度使	-11.1029
舟艦	-11.1029
普思	-11.1029
泝	-11.1029
成安君	-11.1029
惕	-11.1029
稠	-11.1029
鱣	-11.1029
拱	-11.103
翠	-11.103
捧	-11.103
姦猾	-11.103
韓安國	-11.103
將若之何	-11.103
謩	-11.103
廊	-11.1031
悚	-11.1031
西川節度使	-11.1031
以天下為己任	-11.1031
淳于	-11.1031
建興元年	-11.1031
頂	-11.1031
槃	-11.1031
長慶元年	-11.1031
之文	-11.1031
娱	-11.1032
佯	-11.1032
鼓譟	-11.1032
庶幾	-11.1032
膚	-11.1032
峽	-11.1032
北闕	-11.1032
徭役	-11.1032
劉更生	-11.1032
廣順三年	-11.1032
腹心之疾	-11.1032
灑	-11.1032
渭水	-11.1032
貪縱	-11.1032
鄭絪	-11.1032
定陶王	-11.1032
為三公	-11.1033
社稷之福	-11.1033
丸	-11.1033
以本官	-11.1033
深可畏	-11.1033
衫	-11.1034
王世充	-11.1034
葦	-11.1034
靈臺	-11.1034
己亥	-11.1034
相如傳二十七	-11.1034
皝	-11.1034
畆	-11.1034
岱	-11.1034
問計於	-11.1034
鷂	-11.1034
州安置	-11.1035
閩主曦	-11.1035
姦詐	-11.1035
葭莩	-11.1035
惶懼	-11.1035
叩頭流血	-11.1035
楚王殷	-11.1035
狐疑	-11.1035
仙客	-11.1036
萊	-11.1036
滌	-11.1036
兖州刺史	-11.1036
参	-11.1036
張揖曰	-11.1036
慈愛	-11.1036
廷英	-11.1036
汜水	-11.1036
百萬之衆	-11.1037
玫	-11.1037
僕𨽻	-11.1037
虎狼	-11.1038
仁逹	-11.1038
綸	-11.1038
建武五年	-11.1038
蹴	-11.1038
琇	-11.1038
租稅	-11.1038
季札	-11.1038
供奉官	-11.1038
嶺外	-11.1038
誚	-11.1038
隂狡	-11.1038
山陽王	-11.1039
逐捕	-11.1039
宇宙	-11.1039
廬陵王	-11.1039
區區	-11.1039
教坊	-11.1039
票	-11.1039
響應	-11.1039
與宰相論	-11.1039
虎魄	-11.1039
儒學	-11.1039
天時	-11.104
輔佐	-11.104
六品以下	-11.104
樂毅	-11.104
河間王	-11.1041
垂涕	-11.1041
延岑	-11.1041
房琯	-11.1041
持滿	-11.1041
賑給	-11.1041
懐古	-11.1041
金日磾	-11.1041
榮辱	-11.1041
璹	-11.1042
播越	-11.1042
離散	-11.1042
昆明池	-11.1042
犍為	-11.1042
衛青	-11.1042
旼	-11.1042
黑	-11.1042
長安城	-11.1043
相如傳	-11.1043
吳祐	-11.1043
幸姬	-11.1043
周瑜	-11.1044
大鴻臚	-11.1044
震驚	-11.1044
違忤	-11.1044
鄧艾	-11.1044
財貨	-11.1044
涇原	-11.1044
遊畋	-11.1045
諭㫖	-11.1045
醫藥	-11.1045
七廟	-11.1045
瘠	-11.1045
凱	-11.1046
宫掖	-11.1046
形似	-11.1047
為衆所	-11.1047
繼勲	-11.1047
嚴整	-11.1047
斥逐	-11.1047
滋甚	-11.1047
肅清	-11.1047
竇武	-11.1048
出入宫掖	-11.1048
陵侮	-11.1048
枝葉	-11.1048
鄧通	-11.105
冡	-11.105
庶㡬	-11.105
恵妃	-11.105
宗廟社稷	-11.105
侍講	-11.105
周顗	-11.105
首唱	-11.105
後唐莊宗	-11.1051
賜帛	-11.1051
大臣皆	-11.1051
專横	-11.1051
弓矢	-11.1051
蕭嵩	-11.1051
上疏諫曰	-11.1051
堡	-11.1051
不可用	-11.1051
賞賚	-11.1052
萬紀	-11.1052
嗚咽	-11.1053
為謀主	-11.1053
扇動	-11.1053
蘭陵	-11.1053
斜封	-11.1053
優厚	-11.1053
遼東	-11.1053
都城	-11.1055
忻	-11.1055
縠	-11.1055
寒微	-11.1056
廬江	-11.1056
屏左右	-11.1056
文場	-11.1056
非吾	-11.1056
楊彪	-11.1056
秉政	-11.1056
紫微	-11.1056
柬之	-11.1057
三百里	-11.1057
王徳妃	-11.1058
動静	-11.1059
寛厚	-11.1059
秦王興	-11.1059
百官表	-11.1059
流嶺南	-11.1059
宗楚客	-11.106
收捕	-11.106
顧託	-11.106
天譴	-11.106
傳五十三	-11.106
夜郎	-11.1062
大譟	-11.1062
梁震	-11.1062
克敵	-11.1062
都監	-11.1062
班固	-11.1062
世基	-11.1063
楊再思	-11.1063
𢎞冀	-11.1064
門魏	-11.1064
仕宦	-11.1065
儀衛	-11.1065
𨼆居	-11.1065
坐贓	-11.1065
伐木	-11.1065
辛未	-11.1065
長沙王	-11.1065
采擇	-11.1065
欽陵	-11.1065
會稽	-11.1066
中元元年	-11.1066
豎子	-11.1067
李大亮	-11.1067
恐非所	-11.1068
城旦	-11.1068
淫亂	-11.1068
叛逆	-11.1068
居禁中	-11.1068
暴横	-11.1068
弗能	-11.1068
循憲	-11.1068
南燕	-11.1068
異姓	-11.1068
直學士	-11.1068
詰責	-11.1069
牙門	-11.107
千載	-11.107
富室	-11.107
忠孝	-11.1071
深以為然	-11.1071
萬頃	-11.1071
號泣	-11.1071
餒死	-11.1072
項氏	-11.1072
衰老	-11.1072
守珪	-11.1072
接對	-11.1073
恃恩	-11.1073
五十六	-11.1074
榮寵	-11.1074
單車	-11.1074
㓜主	-11.1075
中央	-11.1075
東井	-11.1076
兆民	-11.1076
白刃	-11.1077
二百餘人	-11.1077
流離	-11.1077
潁川太守	-11.1078
太和九年	-11.1078
智力	-11.1079
韋堅	-11.1079
南康	-11.108
帝意	-11.1081
財力	-11.1081
嚴峻	-11.1081
臺省	-11.1083
曹氏	-11.1083
徳妃	-11.1083
宣室	-11.1083
法駕	-11.1084
天下大亂	-11.1084
馬歩	-11.1084
李嶠	-11.1085
郎中令	-11.1085
泉明	-11.1085
北魏髙祖	-11.1086
震恐	-11.1086
李勉	-11.1087
流汗	-11.1087
擁衆	-11.1089
刻石	-11.1089
南仲	-11.1089
徃來	-11.1089
希聲	-11.1089
痛心	-11.109
公卿大夫	-11.109
税錢	-11.109
紀信	-11.1091
陵夷	-11.1092
飛書	-11.1092
賦詩	-11.1093
十二年初	-11.1094
統軍	-11.1094
以為相	-11.1094
平盧	-11.1095
獲免	-11.1095
一斤	-11.1095
李祐	-11.1095
威靈	-11.1097
遣其將	-11.1097
靈武	-11.1097
逆戰	-11.1097
慎勿	-11.1097
覆之	-11.1098
之人也	-11.1098
結怨	-11.1098
左氏	-11.11
存孝	-11.11
諫不聽	-11.11
邊郡	-11.11
詔自今	-11.1101
再思	-11.1101
茍無	-11.1102
當為天子	-11.1103
存亡	-11.1106
鄭興	-11.1107
不若且	-11.1107
悉輸	-11.1108
髙澄	-11.1108
土著	-11.1109
牧馬	-11.1109
上尊號	-11.111
戎馬	-11.1111
特加	-11.1112
屈身	-11.1113
伐齊	-11.1113
舞文	-11.1113
大抵	-11.1113
病篤	-11.1114
王命	-11.1114
宣布	-11.1115
尚公主	-11.1115
推誠	-11.1116
今見	-11.1116
吳蜀	-11.112
竊發	-11.1122
數里	-11.1123
陵母	-11.1123
入粟	-11.1124
志氣	-11.1125
是歲	-11.1125
徐州刺史	-11.1127
恐懼	-11.1128
晏然	-11.1128
置吏	-11.113
署名	-11.1131
賢愚	-11.1133
合戰	-11.1133
上疏請	-11.1134
懷義	-11.1135
皇家	-11.1135
隂氏	-11.1135
年二十	-11.1135
入奏事	-11.1137
尚存	-11.1137
三千餘人	-11.1137
家財	-11.1137
使民	-11.1138
以陛下為	-11.1138
詔敕	-11.1141
委政	-11.1145
為左僕射	-11.1146
質帝	-11.1147
諸道監軍	-11.1147
山河	-11.1151
帳下	-11.1151
散騎	-11.1152
互有	-11.1152
我子	-11.1153
連坐	-11.1153
空名	-11.1154
百戰	-11.1156
物貴	-11.1156
之弟也	-11.1157
監軍使	-11.1157
入境	-11.1158
武都	-11.1158
天下莫不	-11.1159
復讎	-11.1159
戮之	-11.116
牛馬	-11.1161
方伯	-11.1161
所向	-11.1162
不肯受	-11.1163
可惜	-11.1164
處也	-11.1165
未畢	-11.1165
聲樂	-11.1166
賜書	-11.1169
推心	-11.1174
請謁	-11.1174
中夜	-11.1176
趙忠	-11.1176
步兵	-11.1176
車師	-11.1177
將來	-11.1186
疏奏	-11.1187
及長	-11.1189
胡服	-11.1191
保其	-11.1192
無頼	-11.1193
王傳三十	-11.1193
著名	-11.1196
晉氏	-11.12
面陳	-11.12
擊賊	-11.1203
從效	-11.1203
上疏以為陛下	-11.121
謙之	-11.1214
親臨	-11.1215
留侯	-11.1216
大夏	-11.1217
牧守	-11.1217
道秀	-11.1219
趨出	-11.1223
才徳	-11.1223
使其黨	-11.1224
堅城	-11.1225
未服	-11.1226
佞臣	-11.1227
正殿	-11.1227
神主	-11.1227
軍情	-11.1229
鮮有	-11.123
益怒	-11.123
為元帥	-11.123
疾甚	-11.1231
藩臣	-11.1232
勞問	-11.1232
武帝從之	-11.1233
崇文	-11.1236
舉動	-11.124
叩頭謝	-11.1241
大掠	-11.1242
何須	-11.1243
恩禮	-11.1245
乃引	-11.1245
本末	-11.1246
四十八	-11.1252
美女	-11.1255
文獻	-11.1257
養馬	-11.1259
皆斬之	-11.1261
所立	-11.1261
長公主	-11.1261
而棄之	-11.1264
敕書	-11.1266
長孫無忌等	-11.1267
六萬	-11.1269
太初	-11.1271
孝子	-11.1271
河間	-11.1272
致太平	-11.1272
相隨	-11.1275
也明皇	-11.1278
在洛陽	-11.1279
庸人	-11.128
美官	-11.1282
三十里	-11.1289
責成	-11.1295
相待	-11.1297
政治	-11.1297
也或曰	-11.1297
亂世	-11.13
李崇	-11.1303
久之乃	-11.1309
毎嵗	-11.1312
不可得也	-11.1313
年長	-11.1313
往日	-11.1314
長城	-11.1316
𫝊二十	-11.1319
主將	-11.1319
軍容	-11.1321
帝位	-11.1321
神道	-11.1323
文雅	-11.1325
老臣	-11.1325
廢帝	-11.1327
之過也	-11.1328
但云	-11.133
流人	-11.133
兵器	-11.1334
雖少	-11.1339
機事	-11.134
曰某	-11.1343
太子宫	-11.1343
通好	-11.1346
就死	-11.1351
夀陽	-11.1354
房𤣥齡等	-11.1359
髙尚	-11.1359
兵勢	-11.136
聽命	-11.1362
不支	-11.1363
與左右	-11.1365
赦令	-11.1369
等上言	-11.1369
度河	-11.1382
效之	-11.1383
何哉	-11.1388
召太子	-11.1404
始終	-11.1408
之樂	-11.1409
著令	-11.1414
蜀兵	-11.1417
必不敢	-11.142
為將相	-11.142
七十八	-11.1424
乞令	-11.1427
加於	-11.1427
無所復	-11.143
小心	-11.143
不虞	-11.1435
厚賜	-11.1437
承天	-11.1437
以討	-11.1438
郡中	-11.1442
繼至	-11.1447
親善	-11.1448
為參軍	-11.1448
智淵	-11.1449
髙士	-11.1449
族誅	-11.1452
非徒	-11.146
建立	-11.1463
蕭王	-11.1463
樂府	-11.1465
常思	-11.1466
衛將軍	-11.1468
預聞	-11.1469
為都督	-11.1471
所以能	-11.1475
諸大臣	-11.1476
武安	-11.148
常山	-11.1486
優人	-11.1487
定天下	-11.1492
東漢	-11.1492
守城	-11.1493
大風	-11.1494
不拘	-11.1499
役使	-11.1503
州諸軍事	-11.1508
請間	-11.1517
舉家	-11.1519
竊恐	-11.152
之勲	-11.1532
不恤	-11.1535
本軍	-11.1535
物故	-11.1536
一代	-11.1539
遊幸	-11.1541
為業	-11.1541
兵守之	-11.1549
居外	-11.1551
焚其	-11.1553
故舊	-11.1553
相保	-11.1561
出鎮	-11.1563
文進	-11.1569
百五十	-11.1578
天下之事	-11.1579
自徃	-11.1579
其背	-11.1585
曰此皆	-11.1593
帝即位	-11.1593
其兄	-11.1594
為吏部尚書	-11.1598
以誅	-11.16
顯等	-11.1603
豫州	-11.1605
二十八	-11.1606
方進	-11.1612
云何	-11.1612
此意	-11.162
邪且	-11.1621
存者	-11.1625
及為相	-11.163
百餘年	-11.163
塞外	-11.1645
二載	-11.1652
忠言	-11.166
大恩	-11.1661
内官	-11.1662
西至	-11.1667
非一	-11.1674
王渾	-11.1677
以臨	-11.1677
無由	-11.1678
買之	-11.1681
敬事	-11.1682
不憚	-11.1683
一縣	-11.1685
其源	-11.1686
大㑹	-11.1688
大節	-11.1693
有盗	-11.1693
悉罷	-11.1697
者言其	-11.1707
事佛	-11.1708
王霸	-11.171
良久乃	-11.1723
亡矣	-11.1729
老矣	-11.173
𢎞昭	-11.1742
慰勞	-11.1745
上殿	-11.1777
告宻	-11.178
殺傷	-11.1782
朝中	-11.1783
明經	-11.1794
正坐	-11.1794
行思	-11.1804
隂事	-11.1806
設使	-11.1807
進用	-11.1808
尚多	-11.181
通也	-11.181
所任	-11.1816
為賊所	-11.1822
龍門	-11.1834
卿可	-11.1835
納其言	-11.1841
之戒	-11.1844
要在	-11.1853
雖欲	-11.1858
者不可勝數	-11.1868
送死	-11.1869
之時也	-11.187
州别駕	-11.1876
可致	-11.1878
治行	-11.1889
不敬	-11.1901
乃擢	-11.1902
不煩	-11.1903
敗亡	-11.1911
剛直	-11.1913
千斛	-11.1914
神策軍	-11.1915
宮中	-11.1921
豈無	-11.1926
既死	-11.1929
作相	-11.1939
乃定	-11.1939
秦時	-11.1944
其族	-11.1944
也張晏曰	-11.1959
非卿	-11.1964
無寵	-11.1967
署為	-11.1967
南郡	-11.1971
争之	-11.1971
息民	-11.1974
加禮	-11.1984
初唐	-11.1987
諸人	-11.1987
南唐主	-11.1987
亡國之	-11.1993
變色	-11.2005
名數	-11.2006
之秋	-11.2017
甚大	-11.2024
隂令	-11.2028
大言	-11.2029
爭論	-11.203
名實	-11.2044
務在	-11.2048
大權	-11.2049
復置	-11.2053
多疑	-11.2055
迎佛骨	-11.2059
自責	-11.2062
急則	-11.2065
三省	-11.2065
奉公	-11.207
武皇	-11.2081
公卿皆	-11.2089
十五萬	-11.2091
宻奏	-11.2095
素惡	-11.2095
伺其	-11.2103
校其	-11.2115
訴於	-11.2117
不返	-11.2124
世事	-11.2129
其智	-11.2129
在家	-11.2134
從軍	-11.2136
天位	-11.2138
立子	-11.2148
動則	-11.2154
之於外	-11.2166
人才	-11.2168
今歲	-11.2187
千錢	-11.2199
自代	-11.2208
吏事	-11.2212
師古曰間	-11.2217
未見	-11.2222
有金	-11.2224
小事	-11.2254
縣有	-11.2255
賢聖	-11.2263
為大將	-11.2267
為帝王	-11.2272
舊將	-11.2278
上天	-11.229
行陳	-11.2291
以討之	-11.2292
嘉納	-11.23
志欲	-11.2301
才行	-11.2315
卿勿	-11.2327
貴重	-11.2327
得書	-11.2327
不精	-11.2327
乃歎曰	-11.2347
先行	-11.2347
所掠	-11.2352
以拒之	-11.2352
朔望	-11.2354
永德	-11.2358
肅宗紀	-11.2371
十萬斛	-11.2375
其營	-11.2377
繫於	-11.2384
五十餘	-11.2391
而至	-11.2394
至親	-11.2394
𫝊十	-11.2412
左衛	-11.2415
以慰	-11.2419
四五	-11.243
欲誅	-11.2432
猛將	-11.2434
可得而	-11.2439
稱詔	-11.2439
督戰	-11.2441
初太宗	-11.2442
從兄	-11.2444
以救之	-11.2447
家屬	-11.2449
重臣	-11.2453
城郭	-11.2453
為累	-11.2453
濟河	-11.2454
帝命	-11.2455
糧食	-11.2456
山名	-11.2461
鎮將	-11.2461
才智	-11.2463
先言	-11.2464
未決	-11.2464
桂州	-11.2469
一字	-11.247
縱酒	-11.2472
諸軍事	-11.2492
固非	-11.2496
緑	-11.2498
辭謝	-11.2501
有司請	-11.2504
重兵	-11.2506
朕雖	-11.2509
誘之	-11.2525
優容之	-11.2534
轉運使	-11.2534
齊顯祖	-11.2541
四十五	-11.2557
不惜	-11.2581
一百	-11.2585
三家	-11.2589
羣盗	-11.2597
九年初	-11.2604
者無不	-11.2607
相府	-11.2609
一心	-11.2615
訢	-11.2619
趾	-11.2622
襄楷	-11.2624
掖	-11.2627
益厚	-11.2629
梅福傳	-11.263
魏王豹	-11.264
獿	-11.2641
鹽鐵使	-11.2641
肺	-11.2644
粱	-11.2644
牖	-11.2644
曷	-11.2644
可畏	-11.2645
竦	-11.2645
賁	-11.2647
禖	-11.2647
零陵	-11.2648
彼若	-11.2648
漢儀注	-11.2649
函谷闗	-11.2649
蹻	-11.2649
黔	-11.2651
繹	-11.2652
櫂	-11.2652
䖍朗	-11.2652
那	-11.2653
大中元年	-11.2653
換	-11.2654
臣瓉曰	-11.2654
零	-11.2654
鮑永	-11.2655
楊虞卿	-11.2655
太湖	-11.2656
乳	-11.2656
路温舒	-11.2656
晷	-11.2657
埒	-11.2657
滑臺	-11.2657
漢官儀曰	-11.2658
懈	-11.2659
劉穆之	-11.2659
珣	-11.2659
婚	-11.266
刪	-11.2661
到彦之	-11.2661
喙	-11.2661
堵	-11.2661
訃	-11.2663
錢塘	-11.2663
鳥獸	-11.2663
騁	-11.2663
鉷	-11.2663
踊	-11.2663
邠等	-11.2664
井幹	-11.2664
鄒陽傳	-11.2664
南粤	-11.2665
苞苴	-11.2665
㟁	-11.2665
摩	-11.2666
鐵劵	-11.2666
墉	-11.2667
摹	-11.2667
躧	-11.2667
怡	-11.2668
鋸	-11.2668
蒯通傳	-11.2668
鷤	-11.2668
躡	-11.2668
羣公	-11.2669
平帝紀元始	-11.2669
佐命功	-11.2669
縻	-11.267
影	-11.267
安帝紀	-11.267
阨	-11.267
仁基	-11.267
迪	-11.267
杲卿	-11.267
蹔	-11.2671
匪	-11.2671
蓬萊	-11.2671
詈	-11.2671
史丹	-11.2671
威震天下	-11.2671
彝	-11.2671
太子洗馬	-11.2671
銛	-11.2671
虓	-11.2671
廣雅曰	-11.2672
壬	-11.2672
邈	-11.2673
絮	-11.2673
支庶	-11.2673
撟	-11.2673
黠	-11.2673
冠冕	-11.2673
𠫭	-11.2673
杜宇	-11.2673
牡	-11.2674
獠	-11.2674
呵	-11.2674
聦	-11.2674
冲	-11.2674
廊廟	-11.2674
沉	-11.2674
樹機能	-11.2675
耿弇	-11.2675
瑁	-11.2675
瘁	-11.2675
單弱	-11.2676
胙	-11.2676
儒術	-11.2676
揚雄傳	-11.2676
搤	-11.2677
權知	-11.2677
綈	-11.2678
億兆	-11.2678
彛	-11.2678
如舊	-11.2678
聊	-11.2678
哂	-11.2679
䟦扈	-11.2679
帽	-11.2679
繭	-11.2679
顯徳四年	-11.2679
葵	-11.2679
幽厲	-11.2679
𨼆甫	-11.2679
也至於	-11.2679
牘	-11.268
工部侍郎	-11.268
挫	-11.268
衣緋	-11.268
死獄中	-11.268
司馬相如傳	-11.2681
宸	-11.2681
𢎞熈	-11.2681
爾朱兆	-11.2681
舁	-11.2681
不亦可乎	-11.2681
葱嶺	-11.2681
大王誠能	-11.2682
戚夫人	-11.2682
諠	-11.2682
頽	-11.2682
刳	-11.2682
耒	-11.2682
蟠	-11.2682
逮捕	-11.2682
牛仙客	-11.2682
杜如晦	-11.2682
雙	-11.2683
怙	-11.2683
無恩	-11.2683
粥	-11.2683
嫚	-11.2683
輔𨗳	-11.2683
餓	-11.2684
蕪	-11.2684
馬全節	-11.2684
丘隴	-11.2684
古人有言	-11.2684
深宫	-11.2684
謔	-11.2685
擿	-11.2685
靳	-11.2685
戊巳	-11.2685
筑	-11.2685
釗	-11.2685
求救於	-11.2686
讒慝	-11.2686
光禄卿	-11.2686
筯	-11.2686
𤣥武門	-11.2686
叨	-11.2686
曩	-11.2686
邁	-11.2686
伾	-11.2686
禎	-11.2686
江湖	-11.2686
隲	-11.2686
幕僚	-11.2687
撾	-11.2687
翟璜	-11.2687
架	-11.2687
校書郎	-11.2687
裴均	-11.2687
蠱	-11.2687
迫脅	-11.2687
迂	-11.2687
稟	-11.2687
開封尹	-11.2687
壤	-11.2687
婁師徳	-11.2687
鹿盧	-11.2687
趙廣漢	-11.2687
稗	-11.2687
任城王澄	-11.2688
䙝	-11.2688
郗超	-11.2688
闇弱	-11.2688
偏禆	-11.2688
觀察判官	-11.2688
荆南節度使	-11.2688
随	-11.2688
喉	-11.2689
班偼伃	-11.2689
旗幟	-11.2689
築壇	-11.2689
臧質	-11.2689
伏辜	-11.2689
蒿	-11.2689
仁矩	-11.2689
蘇綽	-11.2689
班固傳	-11.2689
牝	-11.269
僵	-11.269
珍竒	-11.269
憕	-11.269
夸	-11.269
絃	-11.269
罪不至死	-11.269
魏𤣥同	-11.269
筏	-11.269
通事舍人	-11.269
亘	-11.2691
斜	-11.2691
贏	-11.2691
輿服志	-11.2691
斟酌	-11.2691
濠	-11.2691
罹	-11.2691
清泰二年	-11.2691
蠟	-11.2691
王叔文之黨	-11.2691
竇儼上疏	-11.2691
箠	-11.2691
舋	-11.2691
蔑	-11.2691
間道	-11.2691
文學之士	-11.2691
尸於市	-11.2692
稺	-11.2692
秋七月	-11.2692
十餘萬人	-11.2692
太子少保	-11.2692
氊	-11.2692
漂	-11.2692
王鐸	-11.2692
黔首	-11.2692
府藏空竭	-11.2692
張𤣥素	-11.2692
豺狼	-11.2692
周燮	-11.2692
廻	-11.2692
門下侍郎同平章事	-11.2692
渤	-11.2692
餓死	-11.2692
蔣琬	-11.2692
燾	-11.2693
驕侈	-11.2693
計將安出	-11.2693
忿恚	-11.2693
賢良方正	-11.2693
軍國大事	-11.2693
以萬計	-11.2693
武徳九年	-11.2693
顯徳二年	-11.2693
騖	-11.2693
杜正倫	-11.2693
齊映	-11.2693
躋	-11.2693
栅	-11.2693
袂	-11.2693
髠	-11.2694
渝	-11.2694
骨鯁	-11.2694
紊	-11.2694
建中元年	-11.2694
旁午	-11.2694
謟諛	-11.2694
髙后紀	-11.2694
彦通	-11.2694
箸	-11.2694
欄	-11.2694
為諫大夫	-11.2694
李師道	-11.2694
曰卿言是也	-11.2694
控鶴	-11.2694
神䇿六軍	-11.2694
𫉬	-11.2694
祖逖	-11.2694
修洛陽宫	-11.2695
太史公	-11.2695
銜枚	-11.2695
錢千萬	-11.2695
龎萌	-11.2695
瘡	-11.2695
綮	-11.2695
儒林傳	-11.2695
縊	-11.2695
䛕	-11.2695
紿之曰	-11.2695
爪	-11.2695
虚譽	-11.2695
姚元之	-11.2695
婆	-11.2695
覆按	-11.2695
膺等	-11.2696
勔	-11.2696
知訓	-11.2696
襟	-11.2696
所向無前	-11.2696
儲貳	-11.2696
行軍司馬	-11.2696
副元帥	-11.2696
慿	-11.2696
晩年	-11.2696
歌之曰	-11.2696
睢	-11.2696
左庶子	-11.2697
仁恕	-11.2697
簾	-11.2697
京房	-11.2697
華州	-11.2697
河陽節度使	-11.2697
蔡謨	-11.2697
韋貽範	-11.2697
珙	-11.2697
謠	-11.2697
偷	-11.2697
欽緒	-11.2698
轅	-11.2698
帑	-11.2698
蘇頲	-11.2698
仲舒	-11.2698
械繫	-11.2698
五湖	-11.2698
戾太子	-11.2698
詔報曰	-11.2698
渠帥	-11.2698
几杖	-11.2698
成徳節度使	-11.2698
抽	-11.2698
長廣王	-11.2698
乾曜	-11.2699
丘墟	-11.2699
尚書左僕射	-11.2699
永徽元年	-11.2699
虞世南	-11.2699
祕器	-11.2699
以憂死	-11.27
淄	-11.27
長慶三年	-11.27
流竄	-11.27
劉昫	-11.27
踣	-11.27
閏月	-11.27
籍没其家	-11.27
軾	-11.27
鯁	-11.27
絡	-11.27
壯麗	-11.2701
拓䟦	-11.2701
朋友	-11.2701
李抱真	-11.2701
醒	-11.2701
道不拾遺	-11.2701
户部尚書	-11.2701
江湛	-11.2701
張奐	-11.2701
滛	-11.2702
聼	-11.2702
尺寸	-11.2702
坎	-11.2702
孝亷	-11.2702
彀	-11.2702
滄	-11.2702
入賀	-11.2702
粟麥	-11.2702
劉闢	-11.2702
灌夫	-11.2702
李昊	-11.2702
渭橋	-11.2702
甯	-11.2702
裴矩	-11.2702
預朝政	-11.2703
怡然	-11.2703
紇	-11.2703
形迹	-11.2703
陵遲	-11.2703
鄂岳	-11.2703
助祭	-11.2703
咽	-11.2704
舉措	-11.2704
嬪御	-11.2704
資産	-11.2704
療	-11.2704
宿衛之士	-11.2705
翁主	-11.2705
有力焉	-11.2705
供億	-11.2705
御座	-11.2705
裴光庭	-11.2705
甸	-11.2706
康延孝	-11.2706
耻	-11.2706
渭南	-11.2706
黔中	-11.2706
於便殿	-11.2706
妙選	-11.2706
犒	-11.2706
缿	-11.2706
科第	-11.2706
驕恣	-11.2707
窮覈	-11.2707
尸解	-11.2707
不可不慎	-11.2707
岱宗	-11.2707
楊秉	-11.2708
曰何謂也	-11.2708
詿誤	-11.2708
鄣	-11.2708
吳元濟	-11.2708
敖倉	-11.2708
注云風俗通曰	-11.2708
旌節	-11.2709
僅能	-11.2709
安重榮	-11.2709
趙季良	-11.2709
數年之後	-11.2709
諠譁	-11.271
四方貢獻	-11.271
李嗣源	-11.271
面縛	-11.271
畋獵	-11.271
刀筆	-11.271
齊桓	-11.271
付廷尉	-11.271
回鶻	-11.271
糲	-11.271
蘇味道	-11.271
枌	-11.271
馮玉	-11.2711
灼	-11.2711
司徒王導	-11.2711
寳皇	-11.2711
五千匹	-11.2711
卞壼	-11.2711
恃勇	-11.2711
赴鎮	-11.2711
鍾離意	-11.2711
劉文靜	-11.2711
庻政	-11.2711
新津	-11.2711
便面	-11.2711
陂	-11.2712
烏桓	-11.2712
楊嗣復	-11.2712
俶	-11.2712
典禁兵	-11.2712
摘	-11.2712
孝文時	-11.2712
璆	-11.2712
慎矜	-11.2713
盧龍	-11.2713
言無不從	-11.2713
孫皓	-11.2713
知其詐	-11.2713
楊愔	-11.2713
驕縱	-11.2714
謚	-11.2714
貢賦	-11.2714
門東漢	-11.2714
承露	-11.2714
劉頌	-11.2714
涇州	-11.2714
離叛	-11.2714
紈	-11.2715
素餐	-11.2715
什方	-11.2715
聞之不恱	-11.2715
言於明皇曰	-11.2715
流矢	-11.2715
鄧氏	-11.2715
珍貨	-11.2716
陸賈	-11.2716
君臣之分	-11.2716
困窮	-11.2716
左雄	-11.2716
相表裏	-11.2716
緡錢	-11.2716
歸鄉里	-11.2716
紹宗	-11.2716
幸華清宫	-11.2716
評	-11.2717
梁松	-11.2717
清濁	-11.2717
韋澳	-11.2717
滑州	-11.2717
在相位	-11.2717
焚掠	-11.2718
霍去病	-11.2718
米斗	-11.2718
侍衞	-11.2718
鷹犬	-11.2718
注云前書音義曰	-11.2719
迎謁	-11.2719
道行軍總管	-11.2719
侍側	-11.272
中書郎	-11.272
寳貨	-11.272
為東川節度使	-11.272
移病	-11.272
三十餘年	-11.2721
深然之	-11.2721
彦博	-11.2721
卓茂	-11.2722
少壯	-11.2722
醫工	-11.2722
搒	-11.2722
坏	-11.2723
紗	-11.2723
幽閉	-11.2723
無以對	-11.2723
由是有隙	-11.2723
垂泣	-11.2723
承鈞	-11.2724
彦饒	-11.2724
因泣下	-11.2725
開元元年	-11.2725
青徐	-11.2725
廟堂	-11.2725
張喬	-11.2725
此兩人	-11.2725
途	-11.2725
䘮亂	-11.2725
覆視	-11.2726
殺義帝	-11.2726
封徳彛	-11.2726
張彦澤	-11.2726
百端	-11.2726
不稔	-11.2726
平陽	-11.2726
恭儉	-11.2727
杜弼	-11.2727
百越	-11.2727
石頭城	-11.2727
貶黜	-11.2728
王晏球	-11.2728
浮圖	-11.2728
彦範	-11.2729
辯士	-11.2729
張蒼	-11.2729
克讓	-11.273
殘忍	-11.273
承禎	-11.273
緩急	-11.273
即墨	-11.273
議者咸	-11.273
龍舟	-11.2731
司馬遷	-11.2731
左散騎常侍	-11.2732
安祿山	-11.2732
天祿	-11.2732
父兄	-11.2732
修飾	-11.2733
王求禮	-11.2733
王庭湊	-11.2733
郭泰	-11.2733
可圖也	-11.2734
公車	-11.2734
太僕卿	-11.2734
濟江	-11.2735
崇質	-11.2735
韋温	-11.2735
田園	-11.2735
區處	-11.2736
維州	-11.2737
以供軍	-11.2738
坐免官	-11.2738
小却	-11.2738
蘇秦	-11.2738
賈詡	-11.2738
元規	-11.2739
七十九	-11.2739
延嗣	-11.274
鄉侯	-11.274
機宻	-11.274
七里	-11.274
招撫	-11.274
吉温	-11.2741
志趣	-11.2741
文明	-11.2741
廢黜	-11.2741
漢瓊	-11.2742
僅得	-11.2742
出入禁中	-11.2742
妃主	-11.2743
淮陽	-11.2743
豹子	-11.2743
承宗廟	-11.2744
監奴	-11.2744
被黜	-11.2744
險要	-11.2745
姦逆	-11.2745
高氏	-11.2745
太府	-11.2745
魏文帝	-11.2745
僧䖍	-11.2746
數百家	-11.2746
戰船	-11.2746
襄子	-11.2746
曰安有	-11.2747
威震	-11.2747
二十餘人	-11.2748
宮室	-11.2748
謙退	-11.2748
本根	-11.2748
臣忝	-11.2748
敬𤣥	-11.2748
殷裕	-11.2748
盛飾	-11.2748
矯制	-11.2749
止盗	-11.2749
射聲	-11.275
徐有功	-11.2751
未晚	-11.2751
竒才	-11.2751
光庭	-11.2751
然後可以	-11.2752
比隆	-11.2752
機密	-11.2752
半年	-11.2753
至中書	-11.2753
亞父	-11.2754
朕當	-11.2754
刺殺	-11.2755
踰年	-11.2755
淮水	-11.2756
三川	-11.2756
丈餘	-11.2757
造次	-11.2757
逺征	-11.2758
攻圍	-11.2759
何忍	-11.2761
南征	-11.2761
南郊	-11.2761
王毛仲	-11.2763
諸戎	-11.2763
南海	-11.2764
有過則	-11.2764
乏絶	-11.2764
王忠嗣	-11.2765
爵土	-11.2766
滕公	-11.2767
杜絶	-11.2767
幼主	-11.277
四境	-11.2772
退保	-11.2772
國貞	-11.2772
城塹	-11.2773
未發	-11.2773
兵仗	-11.2773
廷議	-11.2774
庶子	-11.2774
進爵	-11.2774
咸稱	-11.2775
報怨	-11.2775
帳中	-11.2775
李牧	-11.2776
襄公	-11.2776
灋興	-11.2777
赤心	-11.2778
姦謀	-11.2778
重望	-11.2779
為中書侍郎同平章事	-11.278
王龔	-11.278
為仇讎	-11.278
王坦之	-11.278
度曲	-11.2781
供給	-11.2782
詐稱	-11.2782
乘傳	-11.2782
擾亂	-11.2782
爲盜	-11.2783
貴顯	-11.2784
犯罪	-11.2786
數倍	-11.2786
永光	-11.2787
位次	-11.2787
不足懼	-11.2789
以後事	-11.2789
但恨	-11.2789
歎服	-11.2789
小校	-11.279
䇿免	-11.279
何晏	-11.2792
西突厥	-11.2792
求媚	-11.2793
居喪	-11.2795
明習	-11.2795
宋𢎞	-11.2796
竒士	-11.2796
於延英	-11.2796
于謹	-11.2797
便利	-11.2797
城内	-11.2798
刑獄	-11.2798
長短	-11.2798
引兵還	-11.2799
物色	-11.2799
文紀	-11.28
丞相府	-11.2801
踰城	-11.2802
流散	-11.2803
宴羣臣	-11.2803
少帝	-11.2803
重慎	-11.2804
固讓	-11.2804
諸将	-11.2805
輸錢	-11.2805
解職	-11.2806
水草	-11.2807
刑賞	-11.2809
山路	-11.2809
楚使者	-11.2809
兩河	-11.281
隂后	-11.281
處讓	-11.2811
商君	-11.2811
文武官	-11.2811
豈徒	-11.2811
甚恱	-11.2812
入貢	-11.2813
五百餘	-11.2813
𤣥齡等	-11.2813
獨不見	-11.2813
供張	-11.2814
累朝	-11.2815
太后弟	-11.2815
功勞	-11.2816
鄭衆	-11.2816
愛幸	-11.2817
使之然	-11.2817
乎對曰臣	-11.2817
因縁	-11.2817
每嵗	-11.2818
家奴	-11.2818
長圍	-11.2819
末年	-11.282
樂器	-11.2821
延政	-11.2823
謂同列曰	-11.2825
曲直	-11.2826
二十三年	-11.2826
為太上皇	-11.2826
美惡	-11.2826
司馬門	-11.2827
太子太傅	-11.2828
魏知古	-11.283
屈意	-11.283
徵發	-11.2831
憲宗從之	-11.2832
上書告	-11.2832
兩鎮	-11.2832
其部落	-11.2832
新野	-11.2834
匈奴傳	-11.2834
承恩	-11.2834
更擇	-11.2836
至大梁	-11.2837
直諌	-11.2837
家貲	-11.2837
章奏	-11.2839
非敢	-11.2839
永興	-11.284
趙郡	-11.284
歸其國	-11.284
吳楚	-11.2841
道育	-11.2841
明達	-11.2841
𢎞讓	-11.2842
試官	-11.2842
辭氣	-11.2846
宋文帝	-11.2846
遣騎	-11.2847
日隆	-11.2847
拜伏	-11.2848
滅亡	-11.2848
殊死	-11.2849
盡歡	-11.2849
山之陽	-11.2849
安撫	-11.2849
九經	-11.285
聖賢	-11.285
問狀	-11.2851
迎降	-11.2851
無虞	-11.2852
經年	-11.2852
積善	-11.2854
臺城	-11.2855
上書以為	-11.2855
重質	-11.2855
聞之怒	-11.2857
而後行	-11.2857
吴王	-11.2858
相拒	-11.2858
以十數	-11.286
山頭	-11.2865
獸名	-11.2867
致位	-11.2867
入寇	-11.287
其頸	-11.2871
貴幸	-11.2871
恐傷	-11.2873
周室	-11.2873
建節	-11.2873
一舉而	-11.2874
大饑	-11.2875
廣固	-11.2876
忠賢	-11.2876
分别	-11.2877
所不及	-11.288
帥羣臣	-11.2881
拒命	-11.2881
降附	-11.2882
東觀	-11.2882
並列	-11.2883
而觀之	-11.2884
髙祖髙祖	-11.2886
破賊	-11.2889
二人皆	-11.2889
張儀	-11.2889
俱盡	-11.2889
詔有司	-11.2889
信都	-11.289
及朝士	-11.2891
討論	-11.2893
徴發	-11.2894
申子	-11.2894
清流	-11.2895
太宗恱	-11.2895
安石	-11.2897
博聞	-11.2897
舉手	-11.29
竒兵	-11.2901
移書	-11.2904
驕慢	-11.2904
北土	-11.2906
於城南	-11.2906
嵗時	-11.2906
尚父	-11.2907
相識	-11.2909
儲副	-11.291
有功者	-11.2911
方簡	-11.2912
建義	-11.2915
行喪	-11.2915
宣武	-11.2918
迫於	-11.2919
以精騎	-11.292
嵩山	-11.2922
遺制	-11.2926
舒王	-11.2926
法司	-11.2928
變服	-11.2932
捕得	-11.2932
大司空	-11.2932
使中常侍	-11.2934
廣武	-11.2935
不能容	-11.2937
尊重	-11.294
退朝	-11.294
肅宗紀元和	-11.294
粟帛	-11.2943
宣帝時	-11.2944
何得不	-11.2945
内屬	-11.2947
北地	-11.2947
世俗	-11.295
而獻之	-11.2953
梁公	-11.2956
追至	-11.2959
後進	-11.2961
郎將	-11.2961
去就	-11.2964
異議	-11.2964
桂陽	-11.2965
勲臣	-11.2966
三萬人	-11.297
徴求	-11.297
固請曰	-11.297
一襲	-11.2971
罷歸	-11.2973
遂不復	-11.2974
所統	-11.2975
寳臣	-11.2975
軍勢	-11.2975
因説	-11.2976
誰當	-11.2978
寨中	-11.2979
數嵗	-11.2979
相次	-11.2982
不可止	-11.2991
强兵	-11.2993
推官	-11.2993
入長安	-11.2995
建武四年	-11.2997
不能止	-11.2999
已乆	-11.2999
望敵	-11.2999
避禍	-11.3001
上谷	-11.3002
上壽	-11.3004
臣妾	-11.3006
其妻子	-11.301
誠信	-11.3011
各賜	-11.3014
三河	-11.3017
相救	-11.3018
帝室	-11.3019
王僧達	-11.3025
五陵	-11.3025
易制	-11.3025
大漸	-11.3026
郭公	-11.3028
慶則	-11.3028
窮其	-11.3028
重貴	-11.303
詔從之	-11.3035
懐中	-11.3037
四十四	-11.3039
又甞	-11.3042
宜改	-11.3042
徳音	-11.3043
不以實	-11.3043
有獻	-11.3043
文景	-11.3044
就國	-11.3044
世宗命	-11.3049
武士	-11.3055
敦復	-11.3056
不從命	-11.3058
今一旦	-11.3058
不自保	-11.3067
甚易	-11.3067
常州刺史	-11.3069
因薦	-11.307
遂用	-11.307
魏晉	-11.3071
有闕	-11.3083
相謂曰	-11.3084
秦制	-11.309
汝州	-11.3091
州府	-11.3097
天威	-11.3099
草詔	-11.3106
曰人言	-11.3106
尚能	-11.3109
遂貶	-11.311
重威	-11.3111
器用	-11.3113
員外	-11.3114
不宜復	-11.3116
豈不知	-11.3119
殺身	-11.3125
羣生	-11.3129
田子	-11.3133
危懼	-11.3137
専事	-11.3138
以繩	-11.3139
不知陛下	-11.3141
其優劣	-11.3143
執奏	-11.3145
守門	-11.3147
吾所以	-11.3153
吴人	-11.3154
遂絶	-11.3157
何惜	-11.3157
親附	-11.3159
騎都尉	-11.316
十數	-11.3161
軍政	-11.3174
相位	-11.3175
任重	-11.3177
仲長統傳	-11.3177
還報	-11.3179
矜伐	-11.3182
南門	-11.319
固求	-11.3193
御下	-11.3195
諸將請	-11.3196
他事	-11.3196
同郡	-11.3198
謂公卿曰	-11.3201
為中尉	-11.3202
可乎對曰	-11.3216
成俗	-11.3217
也服䖍曰	-11.3222
南詔	-11.3228
也藉	-11.3229
於野	-11.3234
人畜	-11.3237
隨事	-11.3239
舉事	-11.324
次子	-11.3242
鄉人	-11.3245
欲除	-11.3246
召募	-11.325
謂曰卿	-11.3252
出境	-11.3256
決獄	-11.3256
周舉	-11.3258
茍能	-11.3261
陳平曰	-11.3263
仇讎	-11.3264
深意	-11.3277
性命	-11.3278
微時	-11.328
欲誅之	-11.3292
逼於	-11.3297
乃聴	-11.3302
無敵	-11.3311
宜少	-11.3315
三十八	-11.3317
非才	-11.3317
獨居	-11.3318
秦民	-11.3324
梁兵	-11.3327
還家	-11.3328
未厭	-11.3329
無極	-11.3333
納言	-11.3334
求禮	-11.3335
野王	-11.334
内省	-11.3342
臨時	-11.3343
故也今	-11.3349
去病	-11.335
后后	-11.3353
左將軍	-11.3357
七國	-11.3358
自衛	-11.3365
貴臣	-11.3367
位重	-11.3368
未忍	-11.3371
魏明帝	-11.3375
卑辭	-11.3381
元日	-11.3391
病死	-11.3393
兵千人	-11.3397
不之罪	-11.3399
以銅	-11.3399
孰不	-11.3403
名重	-11.3404
專殺	-11.3404
士大夫皆	-11.3407
亂階	-11.3409
日進	-11.3413
中書省	-11.3414
説之曰	-11.3416
西歸	-11.342
計相	-11.3429
從益	-11.3435
萬斛	-11.3437
小國	-11.3459
軍屯	-11.346
鍾謨	-11.3469
蕭然	-11.348
將來之	-11.3489
戮力	-11.3513
至鄴	-11.3539
於是始	-11.3539
乃敢	-11.3542
變色曰	-11.3566
長樂公	-11.3569
密表	-11.3601
呉人	-11.3612
撫循	-11.3626
士卒皆	-11.3641
皆依	-11.3641
負陛下	-11.3643
先帝所	-11.3644
具言	-11.3645
百八十	-11.3646
二十五	-11.3668
失徳	-11.3697
喜曰吾	-11.3718
皆哭	-11.373
與之謀	-11.3736
守節	-11.3737
王祥	-11.3739
何懼	-11.3741
比周	-11.3748
靡不	-11.3754
求去	-11.3754
路人	-11.3755
契丹契丹	-11.3765
厲聲	-11.3765
援軍	-11.3767
萬斤	-11.3773
重鎮	-11.3778
孝元	-11.3786
其名而	-11.3811
解衣	-11.3829
以為戒	-11.3832
臣謹	-11.3834
於道路	-11.3835
待我	-11.3838
故用之	-11.3846
無害	-11.3859
皆此𩔖也	-11.3864
作色曰	-11.3865
陜州	-11.3866
先發	-11.3889
知之矣	-11.3892
大笑曰	-11.3897
北庭	-11.3905
軍士皆	-11.3918
大呼曰	-11.3927
之域	-11.3932
唐主怒	-11.3951
古文	-11.3961
寇謙之	-11.3979
射殺	-11.398
問之對曰	-11.3991
若遇	-11.4017
上疏曰昔	-11.4022
東征	-11.4024
百餘萬	-11.403
言笑	-11.4054
仲長統	-11.4065
俟命	-11.4068
來降	-11.4079
後趙	-11.4085
戸部	-11.4117
吾曹	-11.4118
傳六	-11.4125
祖考	-11.4128
曾無	-11.4131
邀擊	-11.4134
十倍	-11.4163
曾不	-11.4164
諸卿	-11.417
募兵	-11.4174
永州	-11.418
百斛	-11.4181
告宻者	-11.4197
二十三	-11.4198
劉后	-11.4198
爵賞	-11.4205
賊黨	-11.4215
潤州	-11.4233
騎追	-11.425
親愛	-11.4256
乃釋之	-11.4278
為之用	-11.4311
濮	-11.4314
冀州	-11.4353
凡人	-11.4369
録其	-11.4372
所資	-11.4376
素聞	-11.4381
亦悔	-11.4389
南渡	-11.439
無憂	-11.4406
右丞	-11.4412
永等	-11.4424
極陳	-11.4426
詰之曰	-11.4461
天福二年	-11.4463
建武三年	-11.4487
全誨等	-11.4494
中行說	-11.4496
孝成	-11.4502
度江	-11.4525
建武十三年	-11.4532
戍兵	-11.4548
廣志曰	-11.4554
源乾曜	-11.4562
惡聞	-11.4565
瑟	-11.4568
書記	-11.4568
張騫傳	-11.4572
襄州	-11.4581
中書侍郎同平章事	-11.4586
旱蝗	-11.4589
哀帝紀	-11.4597
央	-11.4609
軺傳	-11.4618
輼輬車	-11.4619
􁚫	-11.4622
祫	-11.4622
釂	-11.4623
禘	-11.4624
沈攸之	-11.4626
稔	-11.4627
膠葛	-11.463
偕	-11.463
鄭畋	-11.4632
餒	-11.4633
塘	-11.4636
伶	-11.4638
舂	-11.464
李尋傳	-11.464
延熹	-11.4642
夏州	-11.4644
籞	-11.4645
速進	-11.4645
錄尚書事	-11.4647
雛	-11.4647
昊	-11.4647
炅	-11.4648
奈	-11.4648
何曾	-11.4649
音張戀反	-11.465
厪	-11.4652
程异	-11.4652
鋋	-11.4653
櫓	-11.4653
畦	-11.4653
防禦	-11.4654
螟	-11.4654
曼	-11.4654
擯	-11.4655
蔡興宗	-11.4656
佽飛	-11.4656
棹	-11.4657
思潮等	-11.4658
袝	-11.4658
赤仄	-11.4658
弦	-11.4658
橐	-11.4659
推轂	-11.4659
薛安都	-11.4659
鉤黨	-11.4659
驕傲	-11.4659
州團練使	-11.4659
維岳	-11.4659
貢禹	-11.4659
韋厪	-11.4659
韋昭	-11.4659
角抵	-11.466
此數者	-11.466
勍	-11.466
鳴鏑	-11.466
躍	-11.466
燎	-11.4661
刷	-11.4661
郭太傳	-11.4661
齧	-11.4661
燈	-11.4661
苑囿	-11.4661
費禕	-11.4661
荀朂	-11.4662
刑法志	-11.4662
湔	-11.4662
註	-11.4662
鱗	-11.4662
衮冕	-11.4663
坑	-11.4663
旦暮	-11.4663
渇	-11.4663
皇泰主	-11.4663
䳏	-11.4663
説文曰	-11.4664
吁	-11.4664
縞素	-11.4664
蜺	-11.4664
賣官鬻獄	-11.4664
地理志	-11.4664
嶼	-11.4665
雌	-11.4666
永康元年	-11.4666
儋	-11.4666
廐馬	-11.4666
楚王希範	-11.4666
鎔	-11.4667
檝	-11.4667
鄧展曰	-11.4667
三年之喪	-11.4667
景帝紀	-11.4667
悌	-11.4668
元狩	-11.4668
録事參軍	-11.4668
犁	-11.4668
靴	-11.4668
鹵簿	-11.4668
蘇安恒	-11.4668
磐	-11.4669
嗇	-11.4669
司馬相如	-11.4669
濵	-11.4669
仲尼	-11.4669
猗	-11.4669
諸道貢獻	-11.4669
鼓琴	-11.4669
于定國	-11.4669
鴻臚	-11.467
李克	-11.467
鞅	-11.467
叢	-11.467
荀朂馮紞	-11.467
梨	-11.467
掣	-11.4671
冊禮使	-11.4671
綴	-11.4671
鳬	-11.4671
説文云	-11.4671
娛	-11.4672
浙西	-11.4672
䕃	-11.4672
平帝紀	-11.4672
恃寵驕恣	-11.4672
祇	-11.4672
竄匿	-11.4672
脈	-11.4673
會稽王昱	-11.4673
規摹	-11.4673
辠	-11.4673
樓櫓	-11.4673
為謡言	-11.4673
棧	-11.4673
都官尚書	-11.4673
爰盎	-11.4673
鑊	-11.4673
糜	-11.4673
惻	-11.4674
赭	-11.4674
沈醉	-11.4674
蹊	-11.4674
今俗呼	-11.4674
永明二年	-11.4674
猪	-11.4674
荀顗	-11.4674
輝	-11.4674
玭	-11.4674
存朂	-11.4674
孟漢瓊	-11.4674
飛鳥	-11.4675
瓦石	-11.4675
祕書郎	-11.4675
疽	-11.4675
范延光趙延壽	-11.4675
董璋	-11.4675
段秀實	-11.4675
䟆	-11.4675
蠋	-11.4675
摩訶	-11.4675
轂	-11.4676
上林苑	-11.4676
絞	-11.4676
帷帳	-11.4676
李斐曰	-11.4676
炬	-11.4676
爛	-11.4676
商旅	-11.4676
矟	-11.4676
長興二年	-11.4676
婁妃	-11.4676
秣	-11.4676
軷	-11.4676
楊思恭	-11.4677
羮	-11.4677
儆	-11.4677
欠負	-11.4677
鑄五銖錢	-11.4677
莖	-11.4677
研	-11.4678
聞而惡之	-11.4678
孔目官	-11.4678
匕首	-11.4678
紬	-11.4678
門外又立	-11.4678
劵	-11.4679
華陽國志	-11.4679
手筆	-11.4679
姜維	-11.4679
甬	-11.4679
吟	-11.4679
衽	-11.4679
不亦善乎	-11.4679
以臣觀之	-11.4679
墳墓	-11.4679
壙	-11.4679
縑帛	-11.4679
讙	-11.4679
顛覆	-11.4679
貪汚	-11.4679
鵝	-11.4679
清狂	-11.4679
盧坦	-11.468
崤	-11.468
薛廣徳	-11.468
肄	-11.468
積薪	-11.468
竟陵王子良	-11.468
嘏	-11.468
檢括	-11.468
腦	-11.468
愛能等	-11.468
䍐	-11.4681
月丙	-11.4681
不可勝計	-11.4681
垢	-11.4681
仞	-11.4681
碩	-11.4681
郭伋	-11.4681
金墉	-11.4681
朞年	-11.4681
巡狩	-11.4681
斧鉞	-11.4681
宫又自此而從於	-11.4681
斆	-11.4681
蔕芥	-11.4681
襁	-11.4681
瑗	-11.4682
椽	-11.4682
各得其所	-11.4682
領尚書事	-11.4682
中外失望	-11.4682
中庶子	-11.4682
釋其罪	-11.4682
北狄	-11.4682
悸	-11.4682
宣徽北院使	-11.4682
悔之何及	-11.4682
泛	-11.4683
壑	-11.4683
蘄	-11.4683
噉	-11.4683
拉	-11.4683
迴	-11.4683
什七八	-11.4684
弓弩	-11.4684
鏁	-11.4684
莫之能	-11.4684
鬢	-11.4684
屣	-11.4684
萬乘之	-11.4684
毬	-11.4684
仁贍	-11.4684
粹	-11.4684
啖	-11.4685
苗裔	-11.4685
并吞	-11.4685
指麾	-11.4685
乾祐三年	-11.4685
錐	-11.4685
知無不言	-11.4685
纊	-11.4685
譔	-11.4685
勾	-11.4685
以女妻	-11.4685
豈肯	-11.4686
結髪	-11.4686
南匈奴傳	-11.4686
篋	-11.4686
徐防	-11.4686
𤣥伯	-11.4686
堤	-11.4686
夘	-11.4686
羣臣莫及	-11.4686
倡優	-11.4686
様	-11.4686
輙	-11.4686
咄	-11.4686
撲	-11.4686
朱守殷	-11.4686
朱𢎞昭	-11.4686
漲	-11.4686
闊達	-11.4686
天福元年	-11.4686
寖	-11.4686
頲	-11.4687
揖讓	-11.4687
齊威王	-11.4687
耕桑	-11.4687
豁	-11.4687
彫弊	-11.4687
紛然	-11.4687
班超傳	-11.4687
秃	-11.4687
賈山傳	-11.4687
鬱鬱不得志	-11.4687
喉舌	-11.4687
轝	-11.4687
永昌元年	-11.4687
淡	-11.4687
為鄂岳觀察使	-11.4687
筐	-11.4687
鉦鼓	-11.4687
馮翊	-11.4687
燮	-11.4688
忠武節度使	-11.4688
李紹宏	-11.4688
裴子野論曰	-11.4688
賛普	-11.4688
鬚	-11.4688
以百數	-11.4688
得其情	-11.4688
聳	-11.4688
臧宫傳	-11.4688
僥	-11.4688
蹕	-11.4688
太元十	-11.4689
元康九年	-11.4689
澠	-11.4689
精鋭	-11.4689
鳯翔節度使	-11.4689
姓武氏	-11.4689
崔郾	-11.4689
今陛下能乎其不可	-11.4689
偃蹇	-11.4689
韓瑗	-11.4689
之故吏也	-11.4689
周威烈王二十三年	-11.4689
専恣	-11.4689
銀臺	-11.4689
暱	-11.4689
匕	-11.469
虡	-11.469
黄裳	-11.469
濶	-11.469
繁劇	-11.469
顔竣	-11.469
首尾	-11.469
鬱鬱	-11.469
億萬	-11.469
嘲	-11.469
廣武君	-11.469
箕踞	-11.469
芻糧	-11.469
狼戾	-11.469
神龍二年	-11.469
丁鴻	-11.469
僥倖	-11.469
斛律光	-11.469
紏	-11.469
噐	-11.469
掩襲	-11.469
糗	-11.469
韋帶	-11.469
苛政	-11.469
歸附者	-11.4691
諒闇	-11.4691
累葉	-11.4691
朱虚侯	-11.4691
束帛	-11.4691
權傾人主	-11.4691
為左丞相	-11.4691
樞密院	-11.4691
歧	-11.4691
草萊	-11.4691
蚩	-11.4691
徭賦	-11.4691
槽	-11.4691
翕然	-11.4691
被髪	-11.4691
史萬歳	-11.4691
周亞夫	-11.4691
𢎞恭石顯	-11.4691
藩屏	-11.4692
陸遜	-11.4692
充位而已	-11.4692
卜筮	-11.4692
二百九十	-11.4692
慙而退	-11.4692
抜	-11.4692
縫	-11.4692
杼	-11.4692
鄩	-11.4693
上疏曰臣聞	-11.4693
頰	-11.4693
黒水	-11.4693
蟻	-11.4693
江智淵	-11.4693
無疆之	-11.4693
公孫賀	-11.4693
替	-11.4693
颺	-11.4693
刎	-11.4693
寓居	-11.4693
蠅	-11.4693
琅邪王睿	-11.4693
俸禄	-11.4693
玖	-11.4693
黄仁諷	-11.4693
紞	-11.4694
兖鄆	-11.4694
鑾	-11.4694
趙充國	-11.4694
守孤城	-11.4694
兎	-11.4694
永嘉元年	-11.4694
竇嬰	-11.4694
虞詡	-11.4694
長興元年	-11.4694
鉅鹿	-11.4694
五畤	-11.4694
塔廟	-11.4694
藺相如	-11.4694
迭為之	-11.4694
餞	-11.4694
歟	-11.4694
無敢言者	-11.4694
耐	-11.4694
澧	-11.4695
輦轂	-11.4695
兀	-11.4695
李晟馬燧	-11.4695
橛	-11.4695
鉏	-11.4695
啼	-11.4695
嬴	-11.4695
厭苦	-11.4695
忽忽不樂	-11.4695
雌雄	-11.4695
少陽院	-11.4695
摛	-11.4695
江文蔚	-11.4695
蹂	-11.4696
鈴	-11.4696
戴胄	-11.4696
言於徳宗曰	-11.4696
魏文侯	-11.4696
順流而下	-11.4696
互市	-11.4696
太和五年	-11.4696
會昌五年	-11.4696
核	-11.4696
由此觀之	-11.4696
盧懐慎	-11.4696
縊殺之	-11.4697
為己任	-11.4697
智略	-11.4697
醴泉	-11.4697
後晉天福元年	-11.4698
太子少師	-11.4698
陳夷行	-11.4698
吠	-11.4698
幼弱	-11.4698
得風疾	-11.4698
招諭	-11.4698
絪	-11.4698
吕䝉	-11.4698
泳	-11.4698
皇甫規	-11.4698
琨	-11.4698
此三人者	-11.4699
冎	-11.4699
猴	-11.4699
句踐	-11.4699
晝夜不息	-11.4699
深相結	-11.4699
泣訴於	-11.4699
設壇	-11.4699
逓	-11.4699
檉	-11.4699
飢饉	-11.4699
升階	-11.4699
廣徳元年	-11.4699
為邊患	-11.4699
覲	-11.4699
開皇十	-11.47
吾丘壽王	-11.47
持兩端	-11.47
潼關	-11.47
曽孫	-11.47
緘	-11.47
門西漢	-11.47
以一人之	-11.47
勮	-11.47
嘿然	-11.47
太師馮道	-11.47
杜重威	-11.47
較然	-11.4701
郗	-11.4701
席卷	-11.4701
毛玠	-11.4701
蓋勲	-11.4701
僧綽	-11.4701
南陽太守	-11.4701
絲竹	-11.4701
羈縻	-11.4701
廨	-11.4701
陳敬瑄	-11.4701
傖	-11.4701
公孫氏	-11.4701
七十餘人	-11.4701
蒲牢	-11.4701
謂興曰	-11.4701
大中十年	-11.4702
隔絶	-11.4702
毒藥	-11.4702
英俊	-11.4702
店	-11.4702
催	-11.4702
光祿大夫	-11.4702
斗米	-11.4702
游雅	-11.4702
李寳臣	-11.4702
武徳元年	-11.4702
詎	-11.4702
慈父	-11.4702
踐阼	-11.4702
刑戮	-11.4702
稱㫖	-11.4703
惶怖	-11.4703
情不通	-11.4703
有異圖	-11.4703
甘露元年	-11.4703
開運三年	-11.4703
挹	-11.4703
復其位	-11.4703
王鍔	-11.4703
倉廩	-11.4703
籖帥	-11.4703
赴國難	-11.4703
德倫	-11.4703
韋保衡	-11.4703
賣買	-11.4704
浪	-11.4704
浹	-11.4704
空虚	-11.4704
纚	-11.4704
党項	-11.4704
厲色	-11.4704
麋鹿	-11.4704
堪猛	-11.4704
彭城王義康	-11.4704
自兵興以來	-11.4704
越騎校尉	-11.4704
昭烈	-11.4705
山南東道節度	-11.4705
道路以目	-11.4705
儒衡	-11.4705
撫膺	-11.4705
善騎射	-11.4705
礙	-11.4705
舅姑	-11.4705
元載王縉	-11.4705
嚴挺之	-11.4705
貞觀十七年	-11.4705
盧懷慎	-11.4705
范增	-11.4705
酒饌	-11.4705
開元二十四年	-11.4705
陌錢	-11.4705
慝	-11.4706
孝友	-11.4706
杜篤	-11.4706
江嶺	-11.4706
萃	-11.4706
伺察	-11.4706
昭穆	-11.4706
馬糞	-11.4706
獻替	-11.4706
黎元	-11.4706
黥布	-11.4706
刄	-11.4706
廪	-11.4706
由兹	-11.4706
存乂	-11.4706
程元振	-11.4706
酖殺之	-11.4706
僧智	-11.4707
暹	-11.4707
景龍元年	-11.4707
寛宥	-11.4707
槍	-11.4707
夔	-11.4707
烏合之衆	-11.4707
甲百萬	-11.4707
郭黙	-11.4707
鄉閭	-11.4707
嫡庶	-11.4707
思勗	-11.4707
惠達	-11.4707
東闕	-11.4707
問曰卿	-11.4708
在河上	-11.4708
圍逼	-11.4708
成都侯	-11.4708
君子小人	-11.4708
舒元輿	-11.4708
殘虐	-11.4708
太和三年	-11.4708
有難色	-11.4708
武帝紀元狩	-11.4708
雨雪	-11.4708
討澤潞	-11.4708
隴右節度使	-11.4708
舉劾	-11.4709
不過二三	-11.4709
詛	-11.4709
瓉	-11.4709
崔𤣥暐	-11.4709
慧範	-11.4709
晚節	-11.4709
為天下笑	-11.4709
淖	-11.471
五品已上	-11.471
南唐宋齊丘	-11.471
楚元王	-11.471
祕不發喪	-11.4711
楊釗	-11.4711
瀹	-11.4711
王夷甫	-11.4711
齊桓公	-11.4711
劉稹	-11.4711
婚姻	-11.4711
洛邑	-11.4711
温彦博	-11.4711
都亭	-11.4711
魏博節度使	-11.4711
部伍	-11.4711
困弊	-11.4712
景仙	-11.4712
名位素	-11.4712
堅壁	-11.4712
杖一百	-11.4712
淳風	-11.4712
累表請	-11.4712
駱谷	-11.4712
髙郢	-11.4712
農隙	-11.4712
遲明	-11.4712
趙鳯	-11.4712
表賀	-11.4712
聖躬	-11.4713
蛟龍	-11.4713
袁氏	-11.4713
武德元年	-11.4713
盟約	-11.4713
舊京	-11.4713
辟疑赦其罰	-11.4713
管籥	-11.4714
革其弊	-11.4714
貪汙	-11.4714
多權數	-11.4714
殱	-11.4714
貪鄙	-11.4714
露臺	-11.4714
餽	-11.4714
蒱	-11.4714
言於太宗曰	-11.4714
荆棘	-11.4715
衞青	-11.4715
錢幣	-11.4715
虞世基	-11.4715
起居郎	-11.4715
恃功驕	-11.4715
儲偫	-11.4715
才兼文武	-11.4715
蓄異志	-11.4715
蘇循	-11.4716
糞	-11.4716
上陽宫	-11.4716
事皆先白	-11.4716
致理之	-11.4716
伐吴	-11.4716
饋運	-11.4716
工匠	-11.4716
館陶公主	-11.4717
左金吾大將軍	-11.4717
洪範	-11.4717
僦	-11.4717
姑臧	-11.4717
呪	-11.4718
臻	-11.4718
充斥	-11.4718
屢以為言	-11.4718
瘦	-11.4718
知上指	-11.4719
預政	-11.4719
昭陽殿	-11.4719
周行逢	-11.4719
宻啓	-11.4719
蠭起	-11.472
驚擾	-11.472
貞觀四年	-11.472
通西域	-11.472
河源	-11.472
劉湛	-11.472
頭痛	-11.472
傅燮	-11.472
收葬	-11.472
異式	-11.472
隄	-11.4721
娣	-11.4721
危殆	-11.4721
九寸	-11.4721
上柱國	-11.4721
旋師	-11.4721
激怒	-11.4721
夢錫	-11.4721
屩	-11.4721
説是也	-11.4722
感恩	-11.4722
蕭望之傳	-11.4722
翟方進	-11.4722
亦如之	-11.4722
豚	-11.4722
卑賤	-11.4722
村民	-11.4722
韓延徽	-11.4722
納貨賂	-11.4722
嘉瑞	-11.4722
執筆	-11.4722
盖由	-11.4722
臣不敢奉詔	-11.4723
而悦之	-11.4723
開元四年	-11.4723
感泣	-11.4723
圖籍	-11.4723
徐勉	-11.4724
垂拱四年	-11.4725
謝朏	-11.4725
車騎大將軍	-11.4725
犯灋	-11.4725
右衛將軍	-11.4725
崔訓	-11.4725
罰金	-11.4726
鍾離昧	-11.4726
阿附	-11.4726
尚結賛	-11.4726
旬月之間	-11.4726
併力	-11.4726
吕布	-11.4726
藏英	-11.4726
陳元達	-11.4727
諫而止	-11.4727
都邑	-11.4727
昨日	-11.4727
叔寳	-11.4727
如反掌耳	-11.4727
寛猛	-11.4727
珍膳	-11.4727
惠妃	-11.4727
敗績	-11.4728
自是不復	-11.4728
自即位以來	-11.4728
匈奴單于	-11.4728
曏日	-11.4728
柴紹	-11.4728
建緒	-11.4728
魏王操	-11.4728
鬼物	-11.4729
趨走	-11.4729
拔擢	-11.4729
周墀	-11.4729
合符	-11.4729
未足為	-11.4729
玉牒	-11.4729
怨讎	-11.473
飛龍	-11.473
開元三年	-11.473
屏風	-11.473
今日之舉	-11.4731
渡河	-11.4731
厚禄	-11.4731
防禦使	-11.4731
農器	-11.4731
宗佶	-11.4731
謂使者曰	-11.4732
顧左右曰	-11.4732
屈原	-11.4732
高澄	-11.4732
楚王英	-11.4732
賀循	-11.4732
工商	-11.4733
為善者	-11.4733
武陵王	-11.4733
三丈	-11.4733
延篤	-11.4733
交侵	-11.4733
其一以為	-11.4733
宫苑	-11.4733
甲第	-11.4733
部刺史	-11.4734
儀衞	-11.4734
勇略	-11.4734
崇飾	-11.4734
微賤	-11.4734
朝廷肅然	-11.4734
親任之	-11.4734
勇冠	-11.4735
楊賜傳	-11.4735
感槩	-11.4735
五十里	-11.4735
仇士良等	-11.4735
趙括	-11.4735
紹榮	-11.4736
二十六年	-11.4736
䜟文	-11.4736
蘇章	-11.4736
殷勤	-11.4736
荆南	-11.4737
州大水	-11.4738
永元十	-11.4738
狙	-11.4738
遣中使諭	-11.4738
無以應	-11.4739
驍將	-11.4739
坊門	-11.4739
濟南王	-11.4739
草澤	-11.4739
越騎	-11.4739
太宗謂侍臣曰	-11.4739
慢罵	-11.474
康宗	-11.4741
深疾之	-11.4741
李林甫為相	-11.4741
稽古	-11.4742
霸陵	-11.4742
賢俊	-11.4742
順㫖	-11.4742
宋昌	-11.4742
織成	-11.4743
災害	-11.4744
怨謗	-11.4744
田恱	-11.4744
誅戮	-11.4744
何無忌	-11.4744
起視事	-11.4744
大不敬	-11.4745
杖節	-11.4745
曰要當	-11.4745
欲廢太子	-11.4745
高后	-11.4745
分陜	-11.4745
母喪	-11.4745
前進士	-11.4746
李膺等	-11.4746
舉大事	-11.4746
甚慙	-11.4746
宴遊	-11.4746
頓首謝	-11.4747
何患無	-11.4747
延訪	-11.4747
兼領	-11.4747
魏勃	-11.4747
韓彭	-11.4748
曏時	-11.4748
敬兒	-11.4748
周苛	-11.4748
次第	-11.4749
申理	-11.4749
便橋	-11.4749
枉法	-11.475
襄城	-11.475
貢物	-11.4751
廷爭	-11.4751
柏人	-11.4751
處回	-11.4751
龎氏	-11.4751
竭誠	-11.4751
四鄰	-11.4752
崔湜	-11.4752
稱病	-11.4752
宋均	-11.4753
既得志	-11.4753
宰相以下	-11.4753
求姑息	-11.4754
有事則	-11.4754
滻水	-11.4754
劉瞻	-11.4754
陳遵	-11.4754
九九	-11.4754
爵闗内侯	-11.4755
皇甫規傳	-11.4755
亡匿	-11.4755
石渠	-11.4755
起舞	-11.4756
陳寔	-11.4757
統軍使	-11.4757
亭長	-11.4758
銜命	-11.4758
形神	-11.4758
預焉	-11.4758
鄰國	-11.4759
羣司	-11.4759
推按	-11.4759
北京	-11.476
貫髙	-11.476
競起	-11.4761
賜絹	-11.4762
二十七年	-11.4762
聞之歎曰	-11.4762
袁安	-11.4762
東巡	-11.4762
孝孫	-11.4762
嘗薦	-11.4763
盛衰	-11.4765
鹿車	-11.4765
南牙	-11.4765
揚武	-11.4765
袁髙	-11.4765
發喪	-11.4766
流落	-11.4766
友文	-11.4766
規諫	-11.4766
負海	-11.4766
視其所	-11.4767
附著	-11.4767
石郎	-11.4767
生男	-11.4767
張渉	-11.4767
愁苦	-11.4767
計帳	-11.4768
富彊	-11.4768
既𦵏	-11.4768
歲餘	-11.4768
雲集	-11.4769
河南府	-11.4769
重俊	-11.477
治其罪	-11.477
老奴	-11.477
江海	-11.477
抑而不	-11.4771
竒愛	-11.4771
誣告	-11.4772
幽鎮	-11.4772
悉誅之	-11.4773
謁告	-11.4773
許史	-11.4773
四品	-11.4774
讒邪	-11.4774
夫復何	-11.4774
腹非	-11.4776
蕭氏	-11.4776
四支	-11.4776
樞宻院	-11.4777
具存	-11.4778
承休	-11.4778
悔過	-11.4779
露布	-11.478
匡正	-11.4781
是歳	-11.4781
郭氏	-11.4782
要害	-11.4783
國家之事	-11.4784
不敢犯	-11.4785
彊盛	-11.4785
谷名	-11.4785
敕有司	-11.4786
於殿前	-11.4786
景超	-11.4786
北征	-11.4787
皆倣	-11.4787
季興	-11.4787
道根	-11.4789
封邑	-11.4789
經史	-11.4789
詣長安	-11.4789
衣被	-11.4791
財利	-11.4791
之書也	-11.4792
列位	-11.4792
敵騎	-11.4792
入大梁	-11.4793
叅軍	-11.4793
退走	-11.4795
經典	-11.4795
燕飲	-11.4795
力屈	-11.4796
衆十萬	-11.4797
王朴	-11.4797
營造	-11.4798
元佐	-11.4798
門漢光武	-11.4799
展轉	-11.48
長星	-11.4801
原陵	-11.4801
孝宣	-11.4802
選擇	-11.4802
門唐太宗	-11.4803
辭疾不	-11.4804
八嵗	-11.4805
神器	-11.4805
徐堅	-11.4806
部署	-11.4807
義恭	-11.4808
賈誼曰	-11.4808
遇赦	-11.4808
不逞	-11.4809
五十餘人	-11.4809
叙傳	-11.4809
突入	-11.481
臨海	-11.481
逃去	-11.481
誅夷	-11.481
癡人	-11.4811
不稱職	-11.4812
傾身	-11.4812
送迎	-11.4813
髙里	-11.4813
遣使獻	-11.4814
數尺	-11.4814
胡建	-11.4815
表疏	-11.4815
地牢	-11.4815
穆生	-11.4815
全節	-11.4816
杜口	-11.4816
承風	-11.4818
獲利	-11.4818
土木	-11.4818
髙勲	-11.4819
水災	-11.4819
虛實	-11.4819
河隂	-11.482
西奔	-11.4821
而徐公	-11.4821
不為備	-11.4822
攻具	-11.4822
𤣥素	-11.4823
昭侯	-11.4824
無事矣	-11.4826
山海	-11.4826
謂亮曰	-11.4827
職務	-11.4827
貪吏	-11.4829
畫地	-11.4829
謝恩	-11.4829
朝賀	-11.4831
俱詣	-11.4831
天災	-11.4832
如斗	-11.4832
交私	-11.4834
謀叛	-11.4835
爭獻	-11.4836
除授	-11.4836
引領	-11.4837
子嬰	-11.4839
於華林園	-11.4839
危亂	-11.484
姦黨	-11.4841
也周禮	-11.4841
王謐	-11.4842
適所以	-11.4843
池中	-11.4843
結好	-11.4843
天下未定	-11.4844
并力	-11.4844
藩方	-11.4844
小愈	-11.4844
世充	-11.4845
農民	-11.4846
成康	-11.4847
善射	-11.4847
門庭	-11.4847
傾心	-11.4848
歸藩	-11.4848
大怒召	-11.4848
楚客	-11.4849
母后	-11.4849
發長安	-11.4849
告急	-11.4851
許氏	-11.4852
吳氏	-11.4852
家廟	-11.4853
略地	-11.4853
逃死	-11.4853
和氣	-11.4854
少遊	-11.4854
令尹	-11.4856
未見其	-11.4857
材能	-11.4858
文案	-11.4858
太子劭	-11.4859
部吏	-11.4859
謹守	-11.486
屢敗	-11.4861
東面	-11.4862
趙崇	-11.4865
曰先王	-11.4865
東第	-11.4866
威刑	-11.4869
數術	-11.4869
史書	-11.487
謂仁傑曰	-11.487
乞留	-11.4871
豈容	-11.4872
庶民	-11.4872
百里之	-11.4872
與人言	-11.4872
賊勢	-11.4873
十餘萬緡	-11.4874
凡百	-11.4874
縣度	-11.4874
預謀	-11.4875
襄王	-11.4877
日夕	-11.4878
申生	-11.4878
五部	-11.4881
奏記	-11.4881
怨恨	-11.4882
及其黨	-11.4882
不之知	-11.4882
崔羣為	-11.4882
悉集	-11.4882
反狀	-11.4884
韓魏	-11.4884
諸曹	-11.4885
特立	-11.4885
通𤣥	-11.4885
抑亦	-11.4886
魯國	-11.4886
與之共	-11.4886
輔太子	-11.4887
於城西	-11.4888
過半	-11.4889
列置	-11.4889
功過	-11.4889
二弟	-11.489
刑政	-11.489
從其言	-11.4892
歎曰我	-11.4893
長恭	-11.4893
至東都	-11.4896
在中書	-11.4897
憂患	-11.4897
悉委	-11.4899
太甚	-11.49
王烏	-11.4901
第五倫傳	-11.4903
請除	-11.4903
張儉	-11.4903
百代	-11.4904
若其不	-11.4907
自河中	-11.4907
牛僧孺等	-11.4909
不悅	-11.491
進言曰	-11.4911
攻戰	-11.4912
北虜	-11.4912
上疏以為今	-11.4912
按問	-11.4916
愚以為	-11.4916
器服	-11.4917
後梁貞明	-11.4918
河水	-11.4918
大言曰	-11.4919
近代	-11.4919
武帝紀元光	-11.4919
為之備	-11.492
清素	-11.4921
王甫	-11.4924
江外	-11.4924
卿曹	-11.4924
四十七	-11.4924
别置	-11.4925
特將	-11.4925
九宫	-11.4925
位望	-11.4926
在旁	-11.4926
景山	-11.4927
甚嚴	-11.4928
詔許之	-11.4928
相似	-11.4929
從横	-11.493
侍立	-11.493
僚屬皆	-11.493
它事	-11.4934
凡六	-11.4937
吳起	-11.4937
孤立	-11.4939
張亮	-11.494
不可乆	-11.494
學問	-11.4942
連城	-11.4942
為洛州	-11.4942
赦書	-11.4944
劉崇	-11.4945
薛公	-11.4945
楊賜	-11.4948
還長安	-11.4949
市里	-11.4952
李雲	-11.4954
名號	-11.4954
求入朝	-11.4956
賊帥	-11.4957
因循	-11.4957
私怨	-11.4958
胡太后	-11.4958
戰功	-11.4959
追還	-11.496
周宗	-11.4962
遣使迎	-11.4962
鎮西	-11.4962
不能保	-11.4964
思止	-11.4965
威望	-11.4969
戰勝	-11.497
諸縣	-11.4971
在軍中	-11.4972
弟晦	-11.4972
以示天下	-11.4973
圖書	-11.4973
名聲	-11.4975
武侯	-11.4975
下詔書	-11.4979
兵精	-11.4983
天下無事	-11.4985
不怠	-11.4987
不足平	-11.4988
得休息	-11.4989
六宫	-11.499
印章	-11.499
開元五年	-11.4993
終不言	-11.4993
陛下不以臣	-11.4993
就食	-11.4997
徳勝	-11.5002
官曹	-11.5006
寛仁	-11.5006
陸贄請	-11.5016
什一	-11.5017
穆公	-11.5018
五侯	-11.5025
負恩	-11.503
秦滅	-11.5039
六鎮	-11.5047
盡滅	-11.5057
改過	-11.5065
洛中	-11.5077
財用	-11.5083
遣判官	-11.5083
濮州	-11.5086
進諌	-11.509
乏糧	-11.5092
非特	-11.5094
事不理	-11.51
賊衆	-11.5108
不協	-11.5135
委信	-11.5135
狄仁傑奏	-11.5148
何罪而	-11.5163
迎上皇	-11.5175
縁邊	-11.5176
賈復	-11.5176
禁軍皆	-11.5176
不能奪	-11.5193
弑君	-11.5196
有神仙	-11.5197
畋於	-11.52
姦吏	-11.5202
百官議	-11.5218
者數千人	-11.5241
侍從	-11.5244
依附	-11.525
軍校	-11.5257
八千	-11.5266
竭忠	-11.527
舟中	-11.5304
曰昔周	-11.5329
以為瑞	-11.5336
擊大破之	-11.5349
曰何物	-11.5351
辭華	-11.5353
五千人	-11.5365
鼓吹	-11.5367
遣其子	-11.54
軍大敗	-11.5411
髙士廉	-11.5429
望拜	-11.545
周勃傳	-11.5451
牋曰	-11.5461
五十一	-11.5463
條奏	-11.5466
馮道等	-11.547
其所由	-11.5471
所不忍	-11.5477
爵邑	-11.5551
將佐皆	-11.5553
七百	-11.5567
侯霸	-11.5579
等十餘人	-11.5606
臺郎	-11.5611
乞更	-11.5616
拜表	-11.562
服飾	-11.5672
條對	-11.5673
入廟	-11.5678
逢吉之黨	-11.5682
𫝊三十	-11.5688
上封事曰	-11.5697
也文帝曰	-11.5732
知政事	-11.577
於全忠曰	-11.5775
郴州	-11.579
累聖	-11.5809
璞曰	-11.5838
録囚	-11.5867
禄位	-11.5885
才器	-11.5902
二十六	-11.5912
制敕	-11.592
與之爭	-11.5925
文字	-11.594
其後又	-11.599
朱家	-11.5991
囚徒	-11.6016
刑名	-11.6021
南夷	-11.6024
以成其	-11.6039
辭禄	-11.6045
莊宗怒	-11.6048
長安三年	-11.6075
為三等	-11.6079
孔融傳	-11.6129
引薦	-11.6152
皇后傳十	-11.6187
角力	-11.6205
昌侯	-11.6238
詣中書	-11.6245
草表	-11.625
嶲州	-11.6272
北魏世祖	-11.6311
奉表稱臣	-11.6334
請封禪	-11.6346
開元二十	-11.6369
後唐同光元年	-11.6413
鳴鼓	-11.6428
勿效	-11.6446
曰人生	-11.646
梁大同	-11.6528
酒為樂	-11.6546
韓信傳	-11.6566
萬户	-11.6649
十七萬	-11.6656
臣竊以為	-11.6681
中領軍	-11.6728
百斤	-11.673
顯德三年	-11.676
年十二	-11.6823
起居注	-11.6842
休息	-11.6893
貞明元年	-11.6901
積粟	-11.6911
湘州	-11.6914
炳	-11.6927
建武六年	-11.6967
元光五年	-11.6998
其所以失	-11.7003
謂人曰吾	-11.7011
庫物	-11.7042
貊	-11.7062
欽定四庫全書通鑑總𩔖卷	-11.7068
依倚	-11.7082
慧龍	-11.7087
宋沈樞撰	-11.709
知樞宻	-11.7109
并閭	-11.7111
建初元年	-11.7113
駔	-11.7116
縣土炭	-11.7122
丹青之信	-11.7126
裋	-11.7129
鷇飲	-11.713
俄	-11.7131
度遼將軍	-11.7132
喉咽	-11.7132
葆	-11.7132
肺附	-11.7132
二十餘萬	-11.7132
無賴子弟	-11.7132
籙	-11.7133
觚	-11.7133
昆蟲	-11.7133
前鋒	-11.7134
瞽	-11.7136
稾	-11.7136
亹	-11.7136
青瑣	-11.7137
棱	-11.7137
崔昭緯	-11.7139
趙充國傳	-11.7141
㰱	-11.7143
鋤	-11.7144
三覆奏	-11.7144
秭歸	-11.7144
劓	-11.7146
問所從來	-11.7146
馬服君	-11.7146
贅壻	-11.7146
枸醬	-11.7147
也一説	-11.7147
裴行立	-11.7147
淑	-11.7147
汝南太守	-11.7148
勸農	-11.7149
媯	-11.715
五行志	-11.715
躅	-11.715
自旦至	-11.7151
䣛	-11.7151
劘	-11.7151
縞	-11.7152
兜	-11.7152
髙行周符彦卿	-11.7152
蜮	-11.7154
城旦舂	-11.7154
陴	-11.7154
鍉	-11.7154
𢎞肈	-11.7154
葱	-11.7155
莋	-11.7155
嘉平元年	-11.7155
媒	-11.7155
㕘	-11.7155
霓	-11.7155
爰盎傳	-11.7155
聶政	-11.7155
軹	-11.7155
韋孝寛	-11.7155
廣陵思王	-11.7157
狸	-11.7157
胥靡	-11.7157
寥	-11.7157
瓴	-11.7157
禧	-11.7157
醮	-11.7157
閏	-11.7157
諦	-11.7158
彩	-11.7158
半兩錢	-11.7158
畔換	-11.7158
軒轅集	-11.7158
焦	-11.7159
管寧	-11.7159
虫	-11.7159
鐫	-11.7159
朓	-11.7159
煌	-11.7161
拆	-11.7161
刀鋸	-11.7161
必核其真然後授其	-11.7161
鋊	-11.7161
始皇	-11.7162
二千石以下	-11.7162
太興三年	-11.7162
衒	-11.7162
虯	-11.7162
雩	-11.7162
仲瑀	-11.7162
裴伷先	-11.7164
亨	-11.7164
郗鑒	-11.7164
卬	-11.7164
菜色	-11.7164
韓歆	-11.7164
俠累	-11.7164
蕞爾	-11.7164
賜緋	-11.7164
贅	-11.7164
慕容紹宗	-11.7165
僊	-11.7165
文穎曰	-11.7165
因以為名	-11.7165
還軍霸上	-11.7165
悔無及矣	-11.7165
武帝紀元封	-11.7165
琅當	-11.7165
圭	-11.7165
戊午	-11.7166
王温舒	-11.7166
陳守元	-11.7166
曇	-11.7166
章邯	-11.7166
薛文遇	-11.7166
伊吕	-11.7166
倪若水	-11.7166
地節三年	-11.7166
苛刻	-11.7166
杜鴻漸	-11.7166
刻木為	-11.7166
鼐	-11.7166
朞	-11.7167
碁	-11.7167
西都賦云	-11.7168
羸弱	-11.7168
元康元年	-11.7168
為仇敵	-11.7168
鬼薪白粲	-11.7168
墻	-11.7168
履謙	-11.7168
旃	-11.7168
混壹	-11.7168
侲	-11.7168
捃	-11.7168
瀆	-11.7168
紓	-11.7168
黄魯曽	-11.7168
髙行周	-11.7169
俎	-11.7169
媟	-11.7169
郎顗傳二十	-11.7169
以狀聞	-11.7169
攪	-11.7169
後周王峻	-11.7169
摭	-11.7169
耗蠧	-11.7169
龍紀元年	-11.7169
右賢王	-11.7169
讞	-11.7169
診	-11.717
續漢書	-11.717
申公白生	-11.717
必核其真然後	-11.717
日昃	-11.717
霍諝	-11.717
悽	-11.717
纒	-11.717
史館修撰	-11.717
棄城走	-11.717
原廟	-11.717
天成二年	-11.717
烏秅國	-11.717
為淮南監軍	-11.717
范蠡	-11.717
魁岸	-11.717
之邵州	-11.717
皮幣	-11.717
鼒	-11.717
識時務	-11.7172
臠	-11.7172
歷	-11.7172
奥	-11.7172
綆	-11.7172
崔慎由	-11.7172
戸部侍郎	-11.7172
獻瓜果者	-11.7172
以輕舟	-11.7172
於階下	-11.7172
繯	-11.7172
鉅	-11.7173
時人為之語曰	-11.7173
歸咎於	-11.7173
鄠	-11.7173
邵陵	-11.7173
簪	-11.7173
豈可復留	-11.7173
顔師古	-11.7173
沸	-11.7173
俞	-11.7173
賈豎	-11.7173
齊王縯	-11.7173
呼韓邪	-11.7173
月氐	-11.7173
湯沐邑	-11.7173
牛元翼	-11.7173
磬	-11.7173
涇	-11.7173
蓺	-11.7175
珠璣	-11.7175
孝明皇帝	-11.7175
無所忌憚	-11.7175
城陽王	-11.7175
灑掃	-11.7175
傳國寳	-11.7175
奉辭伐	-11.7175
姜肱	-11.7175
憬藏	-11.7175
蹈藉	-11.7175
邊陲	-11.7175
鞫獄	-11.7175
圍碁	-11.7175
貨賄	-11.7175
奪民田	-11.7175
時和年豐	-11.7175
深怨之	-11.7175
總章二年	-11.7175
𨕖	-11.7175
巫覡	-11.7175
衛鞅	-11.7175
荘	-11.7175
映	-11.7176
拱手	-11.7176
哥	-11.7176
宋元嘉八年魏	-11.7176
扵	-11.7176
珍寶	-11.7176
都督中外諸軍事	-11.7176
㑹昌三年	-11.7176
安審琦	-11.7176
寳應元年	-11.7176
馮奉世傳	-11.7176
璿	-11.7176
秩中二千石	-11.7176
開門納	-11.7176
裾	-11.7176
武帝紀元鼎	-11.7176
舘	-11.7176
芸	-11.7176
豆盧革	-11.7176
迕	-11.7176
韍	-11.7176
䊪	-11.7176
戈船	-11.7176
枉矢	-11.7176
曖	-11.7177
蛟	-11.7177
蔬果	-11.7177
星辰	-11.7177
舟楫	-11.7177
畜牧	-11.7177
虹	-11.7177
封諸舅	-11.7177
劉巨容	-11.7177
太傅越	-11.7177
輕侮	-11.7177
清淨	-11.7177
起居舎人	-11.7177
竄謫	-11.7177
羇旅	-11.7177
𧖟	-11.7177
鄭普思	-11.7179
涪	-11.7179
沔水	-11.7179
有懼色	-11.7179
有盛名	-11.7179
販鬻	-11.7179
卑辭厚禮	-11.7179
無益聖徳	-11.7179
舍匿	-11.7179
卒於家	-11.7179
開元九年	-11.7179
庖	-11.7179
驪姬	-11.7179
丁酉	-11.7179
敦睦	-11.7179
跖	-11.7179
巖廊	-11.7179
慙而止	-11.7179
曰事急矣	-11.7179
王必欲	-11.7179
跅	-11.7179
飭	-11.7179
囿	-11.7179
蹶張	-11.718
島	-11.718
拱黙	-11.718
其字從	-11.718
劉屈氂傳	-11.718
有令名	-11.718
貞觀十四年	-11.718
逡廵	-11.718
馳騁	-11.718
泰始元年	-11.718
王曰寡人	-11.718
面詰之	-11.718
中和二年	-11.718
埃	-11.718
崔安潛	-11.718
紱	-11.718
綃	-11.718
元興二年	-11.718
蘇瓌	-11.718
可其奏	-11.7181
欠	-11.7181
昫	-11.7181
鈎	-11.7181
黎庶	-11.7182
劉隗	-11.7182
定陶共皇	-11.7182
求援於	-11.7182
以為信然	-11.7182
孝成皇帝	-11.7182
庾冰	-11.7182
言於太后曰	-11.7182
闚	-11.7182
柹	-11.7182
瞻仰	-11.7182
諫議大夫褚遂良曰	-11.7182
善屬文	-11.7182
恟恟	-11.7182
慕容暐	-11.7182
漬	-11.7182
約為兄弟	-11.7182
臨終遺	-11.7182
髯	-11.7182
以是觀之	-11.7182
尫	-11.7182
惟眀	-11.7182
暄	-11.7182
纎介	-11.7182
措	-11.7182
嘿	-11.7183
邯	-11.7183
以私財	-11.7183
筠	-11.7183
山南西道節度使	-11.7183
姦吏因縁	-11.7183
髻	-11.7183
庾翼	-11.7183
以日易月	-11.7183
慈悲	-11.7183
雙流	-11.7183
旒	-11.7183
此上䇿也	-11.7183
眷	-11.7183
秘書監	-11.7183
節鉞	-11.7183
𤨏	-11.7183
更思其次	-11.7184
咸安元年	-11.7184
相顧失色	-11.7184
鄭餘慶	-11.7184
不可忘也	-11.7184
龎勛	-11.7184
于志寧	-11.7184
張宗奭	-11.7184
死無所恨	-11.7184
永元二年	-11.7184
縝	-11.7184
袁象先	-11.7184
靈帝紀	-11.7184
三老五更	-11.7184
尚帝女	-11.7184
朱友謙	-11.7184
段熲	-11.7184
臼	-11.7184
薛謙光	-11.7184
鄱	-11.7184
雊	-11.7184
馮道根	-11.7184
鋒刃	-11.7184
三千户	-11.7185
璜	-11.7185
敬瑄	-11.7185
杜門不出	-11.7186
不足憂也	-11.7186
狎暱	-11.7186
富沙王	-11.7186
城門校尉	-11.7186
避暑	-11.7186
右庶子	-11.7186
賖	-11.7186
寳厯二年	-11.7186
左軍中尉	-11.7186
棣	-11.7186
砂	-11.7186
莒	-11.7186
醢	-11.7186
鬌	-11.7186
黙然良久曰	-11.7186
平原君	-11.7186
建國門	-11.7186
愈熾	-11.7186
戍邉	-11.7186
昏姻	-11.7186
李重進	-11.7186
段文昌	-11.7186
狷	-11.7186
臧獲	-11.7186
埆	-11.7186
墅	-11.7186
栁泌	-11.7186
淖齒	-11.7186
軸	-11.7186
黄鵠	-11.7186
東昬侯	-11.7186
巨容	-11.7186
裳	-11.7186
皥	-11.7187
苴	-11.7187
寢廟	-11.7187
天下既定	-11.7187
言於憲宗曰	-11.7187
昉	-11.7187
濡	-11.7187
詆毁	-11.7187
釡	-11.7187
洛口倉	-11.7187
邰	-11.7187
皆曰臣等	-11.7187
龍驤將軍	-11.7187
太和元年	-11.7187
詰旦	-11.7187
汲汲	-11.7187
濮陽	-11.7187
無𩔖矣	-11.7187
鑣	-11.7187
隗囂傳三	-11.7187
𫝊六十	-11.7187
伊邪莫演	-11.7187
咫尺之書	-11.7187
州司戸	-11.7187
昬姻	-11.7187
蚌	-11.7187
褎	-11.7187
陳處堯	-11.7187
夙	-11.7187
匄	-11.7188
紆	-11.7188
珠玉錦繡	-11.7188
願陛下勿以	-11.7188
駭愕	-11.7188
立七廟	-11.7188
孝建三年	-11.7188
貞元八年	-11.7188
李懐光	-11.7188
歸怨於	-11.7188
者浸多	-11.7188
去病傳	-11.7188
俘斬	-11.7188
太寧二年	-11.7188
瀛洲	-11.7188
禮而歸之	-11.7188
驕矜	-11.7188
大通元年	-11.7188
衣錦	-11.7188
謂宰相曰朕毎	-11.7188
非急務	-11.7188
庫以掌之	-11.7189
改容謝之	-11.7189
盧攜	-11.7189
蘄州	-11.7189
掔	-11.7189
望舒	-11.7189
贈諡	-11.7189
籯	-11.719
毛羽	-11.719
烽燧	-11.719
交趾	-11.719
富商大賈	-11.719
白虎通	-11.719
有才識	-11.719
召見與語	-11.719
誠如卿言	-11.719
孰大焉	-11.719
建元二年	-11.719
勸課農桑	-11.719
怪而問之	-11.719
景龍二年	-11.719
洄	-11.719
詣金陵	-11.719
誹謗朝政	-11.719
遞	-11.719
中大同元年	-11.719
以軍功	-11.719
娘	-11.719
害忠良	-11.719
庚辰	-11.719
惠帝紀	-11.719
皇甫徳參	-11.719
盧從愿	-11.719
田畆	-11.719
宇文泰	-11.719
戣	-11.7191
隗囂傳	-11.7191
浸潤	-11.7191
耕稼	-11.7191
逍遥	-11.7191
晉公䕶	-11.7191
涌	-11.7191
豫章太守	-11.7191
周旋	-11.7191
獪	-11.7191
言於堅曰	-11.7191
亂臣賊子	-11.7191
掌握	-11.7191
溷	-11.7191
神功元年	-11.7191
秪	-11.7191
麟趾	-11.7191
龍徳元年	-11.7191
居中用事	-11.7191
後梁開平二年	-11.7191
戱	-11.7191
昻	-11.7191
穽	-11.7191
大厯十二年	-11.7191
張廷範	-11.7191
查文徽	-11.7191
玢	-11.7191
眀皇	-11.7191
諸名士	-11.7191
醪	-11.7191
元康二年	-11.7191
卦	-11.7191
我之能	-11.7191
睨	-11.7191
諳練	-11.7191
陳子昻	-11.7191
墟	-11.7191
蠡	-11.7192
夷傳七十	-11.7192
元嘉二十八年	-11.7193
歌舞	-11.7193
凑	-11.7193
槊	-11.7193
茅焦	-11.7193
繋	-11.7193
人曰伯蔚	-11.7193
兒女子	-11.7193
太宰義恭	-11.7193
溝壑	-11.7193
僉	-11.7193
剔	-11.7193
民不堪命	-11.7193
耿純	-11.7193
勰	-11.7193
尾箕	-11.7193
年耆	-11.7193
櫜鞬	-11.7193
潢	-11.7193
玦	-11.7193
蔡景厯	-11.7193
讇	-11.7193
躪	-11.7193
錯愕	-11.7193
野雞	-11.7193
卯	-11.7194
軫	-11.7194
光宅元年	-11.7194
少好學	-11.7194
湛傳十	-11.7194
挺身	-11.7194
說文曰	-11.7194
之壻也	-11.7194
踊躍	-11.7194
姊妹	-11.7194
武德九年	-11.7194
莩	-11.7194
觀軍容使	-11.7194
輕躁	-11.7194
糧餉	-11.7194
言於莊宗曰	-11.7194
㑹稽王昱	-11.7194
五百騎	-11.7194
市肆	-11.7194
二失也	-11.7194
入蔡州	-11.7194
問誰可	-11.7194
禮部尚書蘇循	-11.7194
吮	-11.7194
墯	-11.7194
楹	-11.7194
鹿臺	-11.7194
鼲	-11.7194
壕	-11.7195
公私困竭	-11.7195
天官侍郎	-11.7195
槐	-11.7195
顯徳六年	-11.7195
孔戣	-11.7195
有離心	-11.7195
罄	-11.7195
者三十餘人	-11.7195
填咽	-11.7195
彈劾	-11.7195
武寧節度使	-11.7195
照鄰	-11.7195
蒱博	-11.7195
魏仁浦	-11.7195
不亦難乎	-11.7195
倚仗	-11.7195
努力	-11.7195
四州之地	-11.7195
宫闈	-11.7195
殍	-11.7195
盧文紀	-11.7195
知貢舉	-11.7195
繼麟	-11.7195
警蹕	-11.7195
其二以為	-11.7195
劉祥道	-11.7195
大甕	-11.7195
大𣗳將軍	-11.7195
慕容彦超	-11.7195
桑榆	-11.7195
燼	-11.7197
衰絰	-11.7197
嗤	-11.7197
戌	-11.7197
朕復何憂	-11.7197
此始矣	-11.7197
罽賔國	-11.7197
以為己功	-11.7197
奠	-11.7197
諂䛕	-11.7197
風塵	-11.7197
㳟	-11.7197
徐穉	-11.7197
黄門郎	-11.7197
不世之功	-11.7197
銀青光禄大夫	-11.7197
國子監	-11.7197
扞禦	-11.7197
竹帛	-11.7197
緍	-11.7197
藍田	-11.7197
赧	-11.7197
之甥也	-11.7197
侵擾	-11.7197
傭	-11.7197
售	-11.7197
紀綱	-11.7197
胎	-11.7197
都官員外郎	-11.7197
閹豎	-11.7197
雇	-11.7197
𣗳	-11.7197
南兖州刺史	-11.7197
悔之無及	-11.7197
昭帝紀元鳳	-11.7197
泛海	-11.7197
狠	-11.7197
珍羞	-11.7197
秦王世民	-11.7197
蕭摩訶	-11.7197
蹂踐	-11.7197
鉗口	-11.7197
閫外	-11.7197
鼎沸	-11.7197
沈行思	-11.7197
湎	-11.7197
澹	-11.7197
猫	-11.7197
程行湛	-11.7197
十五人	-11.7197
屨	-11.7198
義熙	-11.7198
鉦	-11.7198
取薪	-11.7198
曰近日	-11.7198
有喜色	-11.7198
為民父母	-11.7198
臣之罪也	-11.7198
之驚喜	-11.7198
數月之間	-11.7198
長楊五柞	-11.7198
古字通	-11.7198
於衆中	-11.7198
牢盆	-11.7198
直閤將軍	-11.7198
觖望	-11.7198
乾坤	-11.7198
大明二年魏	-11.7198
崔元藻	-11.7198
風角	-11.7198
詘	-11.7198
碧	-11.7198
戹	-11.7199
沾	-11.7199
不聊生	-11.7199
神靈之	-11.72
崔潭峻	-11.72
蕭至忠	-11.72
後梁貞明三年	-11.72
驕溢	-11.72
𦕈	-11.72
咨訪	-11.72
强弩	-11.72
李谿	-11.72
甲寅	-11.72
長孫嵩	-11.72
天復元年	-11.72
姚萇	-11.72
私謂所親曰	-11.72
赴井	-11.72
韓範	-11.72
乾符元年	-11.72
冬月	-11.72
受賕	-11.72
司天監	-11.72
有儲積	-11.72
永始元年	-11.72
炊	-11.72
烽火	-11.72
議者多言	-11.72
貞元中	-11.72
縌	-11.72
長信少府	-11.72
麪	-11.72
佑	-11.72
淮南子曰	-11.7201
龍鱗	-11.7201
和洽	-11.7201
陘	-11.7201
字或作	-11.7201
推步	-11.7201
謹慎	-11.7201
劉勔	-11.7201
五行志七下之	-11.7201
固辭不受	-11.7201
征西將軍	-11.7201
扼腕	-11.7201
踰垣	-11.7201
駑	-11.7201
按轡	-11.7201
涕泗	-11.7201
無虚日	-11.7201
趙元楷	-11.7201
鄉村	-11.7201
陳後主	-11.7201
佛像	-11.7201
侑	-11.7201
圯	-11.7201
姚南仲	-11.7201
孔奐	-11.7201
昂	-11.7201
煮	-11.7201
狗馬之	-11.7201
目不知書	-11.7201
糶鹽	-11.7201
謗毁	-11.7201
鑄鐵錢	-11.7201
閒暇	-11.7201
韝	-11.7201
饑饉	-11.7201
擇其人	-11.7201
武俊	-11.7202
撝	-11.7202
通事舎人	-11.7202
縶	-11.7202
飢寒	-11.7202
上官桀	-11.7202
典樞機	-11.7202
天復二年	-11.7202
淮南節度使	-11.7202
疑貳	-11.7202
七百里	-11.7202
干預朝政	-11.7202
忠於所事	-11.7202
有慙色	-11.7202
三失也	-11.7202
將作大匠	-11.7202
廷珪	-11.7202
忿懟	-11.7202
朱勃	-11.7202
牛皮	-11.7202
秦主生	-11.7202
籬	-11.7202
糧儲	-11.7202
莢錢	-11.7202
衞尉	-11.7202
豆盧革韋説	-11.7202
鍾離城	-11.7202
隻	-11.7202
焚燒	-11.7203
髙少逸	-11.7203
軼	-11.7204
朕之不明	-11.7204
道行臺	-11.7204
來歙	-11.7204
作亂殺	-11.7204
孝惠	-11.7204
汁	-11.7204
然後奏聞	-11.7204
出入卧内	-11.7204
壬午	-11.7204
屛	-11.7204
湏	-11.7204
羌胡	-11.7204
誰可者	-11.7204
伶官	-11.7204
千金公主	-11.7204
一失也	-11.7204
免為庶人	-11.7204
其四以為	-11.7204
應對如流	-11.7204
瘢	-11.7204
皂	-11.7204
羣臣莫敢言	-11.7204
請昭宗遷都洛陽	-11.7204
馮玊	-11.7204
劉般	-11.7204
執失思力	-11.7204
嶢	-11.7204
蕭翰	-11.7204
見怪則修	-11.7204
趙咨	-11.7204
湜	-11.7204
涿	-11.7205
儀仗	-11.7205
朱文進	-11.7205
解機務	-11.7205
愆違	-11.7205
劉寔	-11.7205
建安二年	-11.7205
淫刑	-11.7205
然比之	-11.7205
芟	-11.7205
逗	-11.7205
公孫述傳	-11.7205
干朝政	-11.7205
無怨言	-11.7205
紫陌	-11.7205
衘	-11.7205
太醫	-11.7205
數年之間	-11.7205
稱愜	-11.7205
郾	-11.7205
勛	-11.7206
軍乏食	-11.7206
千里馬者	-11.7206
巨細	-11.7206
肌	-11.7206
永明元年	-11.7206
崔季舒	-11.7206
相望於道	-11.7206
薫	-11.7206
周興來俊臣	-11.7206
孫拯	-11.7206
李紹榮	-11.7206
笠	-11.7206
長樂宫	-11.7206
魏主珪	-11.7207
升平元年	-11.7207
斾	-11.7207
李彦韜	-11.7207
權徳輿	-11.7207
毐	-11.7207
犬戎	-11.7207
繦	-11.7207
韋丹	-11.7207
麥飯	-11.7207
所恃者	-11.7207
儀同三司	-11.7208
遷都洛陽	-11.7208
崔琰	-11.7208
曰妾聞	-11.7208
軍旅之事	-11.7208
貞觀十八年	-11.7208
以防壅蔽	-11.7208
同中書門下三品	-11.7208
撲殺之	-11.7208
鍛	-11.7208
劉幽求	-11.7208
帑藏	-11.7208
應天順人	-11.7208
盧質	-11.7208
索元禮	-11.7208
辛雄	-11.7208
周玘	-11.7208
咸和四年	-11.7208
悛改	-11.7208
腹背	-11.7208
郭元振	-11.7208
錢十萬緡	-11.7208
何時當	-11.7208
君羨	-11.7208
章句	-11.7209
為刑部尚書	-11.7209
函谷	-11.7209
攬	-11.7209
權侔人主	-11.7209
丞相髙歡	-11.7209
羸疾	-11.7209
簡閱	-11.7209
惴	-11.7209
紫袍	-11.7209
不叶	-11.7209
鄄	-11.7209
呼萬嵗	-11.7209
太康三年	-11.7209
眇	-11.7209
禳災	-11.7209
簺	-11.7209
致位宰相	-11.7209
􁰎􁰎	-11.7209
伯玉	-11.721
孝本女	-11.721
蔡邕傳五十下	-11.721
王慧龍	-11.7211
没弈于	-11.7211
裁損	-11.7211
倒縣	-11.7211
裂土	-11.7211
姑孰	-11.7211
籠中	-11.7211
裴諝	-11.7211
餗	-11.7211
奏封事	-11.7211
孺子	-11.7211
暴揚	-11.7211
員外散騎侍郎	-11.7211
崔暹	-11.7211
房杜	-11.7211
有國家者	-11.7211
的	-11.7211
虞舜	-11.7211
朱輪	-11.7211
楊慎矜	-11.7211
語熲	-11.7211
鍰	-11.7211
秒	-11.7211
不敢奉詔	-11.7211
求婚	-11.7211
廬陵	-11.7212
恚恨	-11.7212
阿房	-11.7212
劉從諫	-11.7212
扶風	-11.7212
矜功	-11.7212
不加罪	-11.7212
暴虐	-11.7212
弩手	-11.7212
荆南髙季興	-11.7212
專制朝政	-11.7212
張全義	-11.7212
憤憤	-11.7212
理亂之	-11.7212
太學生	-11.7212
明哲	-11.7212
言於文帝曰	-11.7212
開元十三年	-11.7212
開成三年	-11.7212
仲堪	-11.7212
等八人	-11.7212
蠲免	-11.7212
肈	-11.7212
俯仰	-11.7213
内外之任	-11.7213
襲爵	-11.7213
獺	-11.7213
百姓愁怨	-11.7213
遐邇	-11.7213
歳輸	-11.7213
趙王鎔	-11.7213
以笏擊	-11.7213
俄頃	-11.7213
後唐郭崇韜	-11.7213
後漢郭威	-11.7213
甓	-11.7213
義寧元年	-11.7213
元和六年	-11.7213
徴科	-11.7213
李光弼	-11.7213
突圍	-11.7213
兔	-11.7213
匱乏	-11.7213
繼珣	-11.7213
詣闕上書	-11.7213
咸康元年	-11.7213
四鎮十姓	-11.7213
四隣	-11.7213
契苾何力	-11.7213
承平日久	-11.7213
萬乘之主	-11.7213
領樞宻使	-11.7213
魏無知	-11.7213
引以為相	-11.7214
阿黨	-11.7214
紈素	-11.7214
閥	-11.7214
捕盗	-11.7215
左神䇿軍	-11.7215
芒	-11.7215
遣使入貢	-11.7215
資裝	-11.7215
迭興	-11.7215
以備契丹	-11.7215
祠祭	-11.7215
柯	-11.7215
假借	-11.7215
十餘騎	-11.7215
太子仁孝	-11.7215
太子監國	-11.7215
性怯	-11.7215
萬億	-11.7215
諫官御史	-11.7215
車輪	-11.7215
胡盧河	-11.7215
跳	-11.7215
數十里	-11.7216
翼戴	-11.7216
旬餘	-11.7216
時人譏	-11.7216
衆十餘萬	-11.7216
曷若	-11.7216
玉帶	-11.7216
髙閭	-11.7216
為惡者	-11.7216
伃	-11.7216
沖幼	-11.7216
盈路	-11.7216
鼂錯傳	-11.7216
學校	-11.7216
伊洛	-11.7216
武始侯	-11.7216
自古以來	-11.7216
陪侍	-11.7216
齊王璟	-11.7216
營陽王	-11.7216
不相容	-11.7217
裁量	-11.7218
元嘉二十九年	-11.7218
栁璨	-11.7218
劉景升	-11.7218
桃李	-11.7218
大理丞	-11.7218
漢王漢王	-11.7218
吳越王鏐	-11.7218
大司馬温	-11.7218
承乾	-11.7218
疲勞	-11.7218
繼體	-11.7218
以社稷大計	-11.7218
定律令	-11.7218
侵叛	-11.7218
十二律	-11.7218
徹侯	-11.7218
曠土	-11.7218
總朝政	-11.7218
器玩	-11.7218
忿爭	-11.7218
此曹皆	-11.7218
聴訟	-11.7218
載縉	-11.7218
轅門	-11.7218
縯	-11.7218
齓	-11.7218
季布傳	-11.7219
後梁貞明五年	-11.7219
别貯	-11.7219
隋末	-11.7219
兆庶	-11.7219
六十里	-11.7219
朱祜	-11.7219
不之省	-11.7219
令四人擊毬賭三川	-11.7219
戴至徳	-11.7219
盧昶	-11.7219
驕横	-11.7219
周朗	-11.722
符彦卿	-11.722
劉琨	-11.722
戰栗	-11.722
肉刑	-11.722
寵姬	-11.722
屯戍	-11.722
淫暴	-11.722
䜟記	-11.722
慕容皝	-11.722
於天津橋	-11.722
伏惟陛下	-11.722
建中三年	-11.722
狎侮	-11.722
闗播	-11.722
鄭朗	-11.7221
抑損	-11.7221
之貌也	-11.7221
笥	-11.7222
抵掌	-11.7222
人面獸心	-11.7222
李景讓	-11.7222
侯印綬	-11.7222
儒雅	-11.7222
撫諭	-11.7222
牛羊	-11.7222
陳以待之	-11.7222
悉怛謀	-11.7222
惡少年	-11.7222
温飽	-11.7222
王涯等	-11.7222
畜積	-11.7222
嚬	-11.7222
巵酒	-11.7222
段氏	-11.7222
象古	-11.7222
近之矣	-11.7223
情偽	-11.7223
漕渠	-11.7223
中軍將軍	-11.7223
大峴	-11.7223
從間道	-11.7223
李峴	-11.7223
民不聊生	-11.7223
以應天心	-11.7223
張公謹	-11.7223
郎孤	-11.7223
鍛鍊	-11.7223
徳彛	-11.7224
黒色	-11.7224
季昶	-11.7224
弗聽	-11.7224
謙讓	-11.7224
劉從一	-11.7225
劉璋	-11.7225
於馬上	-11.7225
帥禁兵	-11.7225
建安元年	-11.7225
性剛急	-11.7225
産業	-11.7225
蕃息	-11.7225
廷構	-11.7225
東鄉君	-11.7225
繻	-11.7225
負荷	-11.7226
國之大事	-11.7226
孝悌	-11.7226
太和七年	-11.7226
蕭條	-11.7226
内侮	-11.7226
張滂	-11.7226
充賦	-11.7226
光洽	-11.7226
希㫖	-11.7226
昔秦始皇	-11.7226
蕡	-11.7226
蒲州刺史	-11.7227
左金吾	-11.7227
玩好	-11.7227
封泰山	-11.7227
趙王虎	-11.7227
告訐	-11.7227
隧	-11.7227
為我語	-11.7227
賦稅	-11.7227
何承天	-11.7227
竇儀	-11.7227
馬日磾	-11.7227
誠惠	-11.7227
為之語曰	-11.7227
烏合	-11.7227
浙東	-11.7228
天復三年	-11.7228
興寧二年	-11.7229
納其女	-11.7229
中常侍侯覽	-11.7229
㓜弱	-11.7229
貞觀十年	-11.7229
獄訟	-11.7229
耗竭	-11.7229
鷹隼	-11.7229
信術士	-11.7229
四皓	-11.7229
晩節	-11.7229
財竭	-11.7229
齊澣	-11.7229
延巳	-11.723
掠奪	-11.723
鼎足	-11.723
度支尚書	-11.723
憤怨	-11.723
隂陽書	-11.723
建武七年	-11.7231
東方朔傳	-11.7231
王珣	-11.7231
沈敏	-11.7231
含章殿	-11.7231
乘虚	-11.7231
登科	-11.7231
雒陽令	-11.7231
五嶺	-11.7231
魯連	-11.7231
爵禄	-11.7232
臣愚以為宜	-11.7232
五十餘年	-11.7233
和戎	-11.7233
表示之	-11.7233
銓選	-11.7233
􁂥	-11.7233
抑揚	-11.7233
踰月	-11.7233
殿柱	-11.7233
趙德鈞	-11.7233
輔弼	-11.7233
髦	-11.7233
執轡	-11.7233
專恣	-11.7233
掃除	-11.7233
臨淮	-11.7234
珽因	-11.7234
避嫌疑	-11.7234
汴渠	-11.7234
縱未能	-11.7234
太后太妃	-11.7234
寛假	-11.7234
虚美	-11.7234
内外之臣	-11.7234
女嫁	-11.7234
宗戚	-11.7234
寛簡	-11.7234
莫知其	-11.7234
維周	-11.7234
犬馬	-11.7236
惻然	-11.7236
機衡	-11.7236
諸皇子	-11.7236
清静	-11.7236
考課	-11.7236
薛萬徹	-11.7236
門蜀漢	-11.7236
願殿下	-11.7236
督趣	-11.7236
諸將皆曰	-11.7236
瞀	-11.7237
鄭均	-11.7237
衝車	-11.7237
園宅	-11.7237
何也對曰臣	-11.7237
侯昌業	-11.7238
罷獵	-11.7238
褒賞	-11.7238
破産	-11.7238
濫刑	-11.7238
卿軰	-11.7238
崔沂	-11.7238
駿馬	-11.7238
萬餘家	-11.724
元帥府	-11.724
駕鶴	-11.724
洩	-11.7241
姚興	-11.7241
弗許	-11.7241
竇固	-11.7241
納賂	-11.7241
請付法	-11.7241
不敢詰	-11.7241
管内	-11.7241
征蜀	-11.7241
滿盈	-11.7241
諌大夫	-11.7242
鼓聲	-11.7242
與為比	-11.7243
逃散	-11.7243
受顧命	-11.7243
文錫	-11.7243
視膳	-11.7243
侯思止	-11.7243
兼御史大夫	-11.7243
輔國將軍	-11.7244
尺土	-11.7244
蔡邕傳	-11.7244
袁恕已	-11.7244
思遠	-11.7244
攝政	-11.7244
舟師	-11.7244
孟俊	-11.7244
白麻	-11.7244
謝述	-11.7244
曰竊聞	-11.7245
廵幸	-11.7245
後晉髙祖	-11.7245
暴露	-11.7245
田廬	-11.7245
謂左右曰我	-11.7245
仕進	-11.7245
張永等	-11.7246
蘧	-11.7247
天監十	-11.7247
京兆府	-11.7247
糧運	-11.7247
既而歎曰	-11.7247
進孰	-11.7247
士卒不進	-11.7247
學術	-11.7247
愚智	-11.7247
貪暴	-11.7248
變凶逆之族為忠義之門	-11.7248
第宅	-11.7248
嗣恭	-11.7248
廉吏	-11.7248
强弱	-11.7248
枷	-11.7248
警備	-11.7248
傳三十五	-11.7249
野戰	-11.7249
孝敬	-11.7249
宣索	-11.7249
都洛陽	-11.725
不敢逼	-11.7251
客館	-11.7251
𢎞逸	-11.7251
七十六	-11.7251
拒絶	-11.7251
費財	-11.7252
預政事	-11.7252
王嘉傳	-11.7252
白黒	-11.7252
直抵	-11.7252
負米	-11.7252
躢	-11.7252
黜退	-11.7252
圖畫	-11.7253
邊戍	-11.7254
驢馬	-11.7254
識量	-11.7254
裴休	-11.7254
年九十	-11.7254
李仲言	-11.7254
劉賛	-11.7255
伊吾	-11.7255
請立太子	-11.7255
劉禪	-11.7255
劉秩	-11.7255
黃帝	-11.7256
陛下富於春秋	-11.7256
之罪人也	-11.7256
兵戍之	-11.7256
高歡	-11.7256
子午道	-11.7256
李懷光	-11.7256
震懼	-11.7258
山濤	-11.7258
辟彊	-11.7258
昆明	-11.7258
謂諸子曰	-11.7259
神農	-11.7259
屯聚	-11.726
孤危	-11.7261
疾亟	-11.7261
戒子孫	-11.7261
寛容	-11.7261
𫝊呼	-11.7261
𢎞規	-11.7261
候騎	-11.7261
椒風	-11.7261
羽衣	-11.7261
說是也	-11.7262
吐蕃使者	-11.7262
勝詭	-11.7262
季父	-11.7262
徃年	-11.7262
憺	-11.7262
米鹽	-11.7262
太子少傅	-11.7263
契丹主契丹主	-11.7263
六十九	-11.7263
窮奢極欲	-11.7263
張敞傳	-11.7263
當坐之	-11.7263
父子兄弟	-11.7263
阹	-11.7263
災變	-11.7264
與其黨謀	-11.7264
曰此兒	-11.7265
孤貧	-11.7265
我死汝	-11.7266
殷殷	-11.7266
雍容	-11.7266
放縱	-11.7266
東都留守	-11.7266
日滋	-11.7267
慶和	-11.7268
藩府	-11.7268
青海	-11.7268
鷁	-11.7268
突門	-11.7269
二十二年初	-11.7269
庻子	-11.7269
聞之笑曰	-11.7269
保衡	-11.727
星變	-11.727
義旗	-11.727
伏念	-11.727
萬歲	-11.7271
土崩	-11.7271
四萬餘人	-11.7272
雨師	-11.7272
閒居	-11.7273
殿屋	-11.7273
變詐	-11.7273
活邪	-11.7273
草具	-11.7274
君臣俱	-11.7274
樂羊	-11.7274
考試	-11.7276
為之流涕	-11.7276
夷夏	-11.7276
六畜	-11.7276
位卑	-11.7276
秀才	-11.7276
田野	-11.7277
到郡	-11.7277
者由妾	-11.7277
時不可失	-11.7278
羣情	-11.7279
充宿衛	-11.7279
何由得	-11.728
坦然	-11.728
賈后	-11.728
趙贊	-11.728
辭不受	-11.728
任將帥	-11.7284
崇訓	-11.7284
㫖諭	-11.7285
子産	-11.7286
希崇	-11.7286
司徒掾	-11.7287
曰果如	-11.7289
有大罪	-11.7289
豪貴	-11.729
伏願陛下	-11.729
周漢之	-11.7291
傳舎	-11.7291
千百	-11.7291
無以易	-11.7291
五溪	-11.7292
刻薄	-11.7292
太府卿	-11.7293
誅諸吕	-11.7295
人臣之義	-11.7296
感動	-11.7297
者咸以為	-11.7297
張純	-11.7298
綱吏	-11.7298
魏主嗣	-11.7301
董晉	-11.7301
十有二	-11.7302
非錢不	-11.7304
優崇	-11.7308
與我共	-11.731
大中九年	-11.7311
太元十四年	-11.7311
之職也	-11.7312
倉吏	-11.7315
道傍	-11.7322
則誰不	-11.7324
從璨	-11.733
哭之曰	-11.7338
人為邪	-11.734
天下安危	-11.7349
稱萬嵗	-11.735
左内史	-11.7355
鋭意	-11.7358
素知其	-11.7358
錢二千	-11.7359
覺悟	-11.7361
倚瑟	-11.7367
謂太子曰	-11.7368
肅宗紀建初	-11.738
武徳四年	-11.7381
憂勤	-11.7396
舉義兵	-11.7399
疲民	-11.7404
輿入殿	-11.7405
聞此言	-11.7409
都督府	-11.741
建寧二年	-11.7411
每優容	-11.7423
以自明	-11.7436
大明二年	-11.7437
基業	-11.7437
緑車	-11.7449
嵗星	-11.7456
尚書以下	-11.7467
濳遣	-11.7474
以假人	-11.748
北魏崔浩	-11.7491
告諭	-11.7512
嘗謂人曰	-11.7516
按視	-11.7529
敬憚	-11.7536
孔光傳	-11.7537
之本也	-11.7543
猶今之	-11.7605
昔堯	-11.7607
為子孫之	-11.7614
敢爾	-11.7615
察視	-11.7631
定中原	-11.764
表辭位	-11.7643
於太后太后	-11.7644
以自免	-11.7664
將兵擊	-11.77
以儀刑	-11.7716
戰太祖皇帝	-11.7717
七十二	-11.7764
自以為得	-11.7773
中書門下奏	-11.7795
曰大家	-11.7816
魏徴諫曰	-11.7836
千七百	-11.7859
上書諌	-11.786
餘黨	-11.7908
彗星出	-11.7916
沛國	-11.7925
示子孫	-11.7944
永嘉三年	-11.7961
兵而攻	-11.801
黎陽	-11.8092
三十二	-11.814
嶲	-11.8216
年不遷	-11.8291
滿嵗	-11.8302
也荀悦	-11.8339
火燒	-11.8356
鄧皇后傳	-11.8365
後周顯德	-11.8493
汝曹勿	-11.8534
此吾所	-11.8596
澶	-11.8688
朱克融	-11.879
光武紀建武十	-11.8914
百官班	-11.8947
上書極	-11.9259
晉獻公	-11.9277
陳利害	-11.9297
譛之於	-11.9317
張易之兄弟	-11.9448
顯德元年	-11.9473
民愁	-11.9602
天監二年	-11.9655
臣宿將	-11.976
帝納其言	-12.0098
知古負	-12.0229
呼聲	-12.0266
𫝊四十	-12.03
懣	-12.0311
神爵元年	-12.0343
天福四年	-12.0348
浣	-12.0372
東川節度使	-12.0414
度支鹽鐵	-12.0416
間隙而	-12.042
甘泉賦云	-12.0421
魁柄	-12.0423
邴原	-12.0431
嗛	-12.0436
崔駰	-12.0444
建初二年	-12.0444
鍖	-12.0446
五丈原	-12.0446
贓賄	-12.0449
懽	-12.045
風俗通曰	-12.045
五時衣	-12.0452
黃頭郎	-12.0452
芮	-12.0454
周昌傳	-12.0454
李建及	-12.0454
縢	-12.0455
癉	-12.0458
鰒魚	-12.0458
絫息	-12.0458
轔	-12.0458
鬵	-12.0458
契刀錯刀	-12.0459
薇	-12.0459
五覆奏	-12.0461
醖藉	-12.0461
李必駱甲	-12.0463
曳中人	-12.0463
泰液	-12.0463
髙五十丈	-12.0463
孩提	-12.0465
東鄉坐	-12.0465
蕞	-12.0467
作鄜畤	-12.0467
幅裂	-12.0467
鳳闕	-12.0467
綠	-12.0469
窮奢極	-12.0469
儒林傳序	-12.0469
李專美	-12.0469
友壻	-12.0469
衿帶	-12.0469
襃成君	-12.0469
阿那肱	-12.0469
眦	-12.0471
五羖大夫	-12.0471
夏馥	-12.0471
幐	-12.0471
淮南厲王傳	-12.0471
田遊巖	-12.0471
者為正邪則	-12.0471
枝梧	-12.0471
笋	-12.0471
訾筭	-12.0471
黌	-12.0471
吕霍上官	-12.0473
鄧景山	-12.0473
肝	-12.0473
窋	-12.0473
肖	-12.0474
烽	-12.0474
纛	-12.0475
行船也	-12.0475
穹廬	-12.0475
菁	-12.0475
輜軿	-12.0475
鍾嶸	-12.0475
瓚	-12.0477
耦	-12.0477
下䇿也	-12.0477
刖	-12.0477
絭	-12.0477
階上星為	-12.0477
露橈	-12.0477
醇	-12.0478
騃	-12.0479
姜公輔	-12.0479
娑婆寐	-12.0479
子孰與起文曰不如子起曰	-12.0479
殁	-12.0479
管崇嗣	-12.0479
管穴	-12.0479
斐	-12.048
聃	-12.0481
閽寺	-12.0481
埽	-12.0481
徹樂減膳	-12.0481
游俠	-12.0481
月螖	-12.0481
祫祭	-12.0481
竹使符	-12.0481
晻	-12.0482
成帝紀建始	-12.0483
朱㝢	-12.0483
雞鳴歌	-12.0483
六百石	-12.0483
驂乗	-12.0483
野雞族	-12.0483
伋	-12.0484
褘	-12.0484
撙	-12.0484
針	-12.0484
以距楚	-12.0484
多祚等	-12.0484
綈厚繒	-12.0484
熏	-12.0484
佐命之功	-12.0484
判戸部	-12.0484
翶	-12.0484
泰階六符	-12.0484
善事上官	-12.0484
善游者	-12.0484
媒糵	-12.0484
房伯玉	-12.0484
玉匣	-12.0484
自督諸將	-12.0484
舒嚕后	-12.0484
讟	-12.0485
萬乗之	-12.0485
禇	-12.0486
歐	-12.0486
隰	-12.0486
糵	-12.0486
司冦作	-12.0486
㛰	-12.0486
老荘	-12.0486
桎	-12.0486
駱驛	-12.0486
符節臺	-12.0486
閩王延鈞	-12.0486
受國厚恩	-12.0486
曲阜	-12.0486
柘漿	-12.0486
櫑	-12.0486
焫	-12.0486
王仲德	-12.0486
皷	-12.0486
肓	-12.0486
膋	-12.0486
馬家口	-12.0486
騅	-12.0486
楫	-12.0487
驪	-12.0487
通鑑總𩔖	-12.0487
婆羅門	-12.0488
鄜	-12.0488
陛㦸	-12.0488
鼔譟	-12.0488
戰必勝	-12.0488
注云漢武内傳曰	-12.0488
在長安城中	-12.0488
言於曹操曰	-12.0488
安思閻	-12.0488
申屠剛	-12.0488
盱衡	-12.0488
羅渾擎	-12.0488
苐	-12.0488
挑	-12.0489
鹽鐡	-12.049
鼙	-12.049
凰	-12.049
募勇士	-12.049
將安用之	-12.049
玊帛	-12.049
蟊	-12.049
司徒左長史	-12.049
如反掌	-12.049
丁零	-12.049
不急之務	-12.049
推心任之	-12.049
蠻酋	-12.049
時人服其明而譏其細	-12.049
荼	-12.049
同甘苦	-12.049
臧洪	-12.049
何負於汝而反	-12.049
滋蔓	-12.049
能以功名終	-12.049
襃衣博帶	-12.049
丘陵之	-12.0492
窮蹙	-12.0492
朝野推服	-12.0492
之皆不至	-12.0492
珥	-12.0492
盲	-12.0492
良家子	-12.0492
元帝初元	-12.0492
填塹	-12.0492
殷景仁	-12.0492
為浙西觀察使	-12.0492
宿昔之	-12.0492
江子四	-12.0492
葛從周	-12.0492
醇謹	-12.0492
愜	-12.0492
絫	-12.0493
堞	-12.0494
丑	-12.0494
翳	-12.0494
劉項之	-12.0494
曰古者天子	-12.0494
為黨友	-12.0494
擘	-12.0494
氂	-12.0494
盧賁	-12.0494
何憂不治	-12.0494
勦	-12.0494
延熹六年	-12.0494
道病卒	-12.0494
修國史	-12.0494
簋	-12.0494
凋	-12.0494
溲	-12.0494
蝡	-12.0494
賜爵關内侯	-12.0494
輒斥去	-12.0494
顯慶二年	-12.0494
嚴畯	-12.0494
李栖筠	-12.0494
為鏡可以	-12.0494
秦文公	-12.0494
衎	-12.0494
鼉	-12.0494
鐸	-12.0495
滕	-12.0496
稍抑損	-12.0496
悔無及也	-12.0496
得其利	-12.0496
瓶	-12.0496
主父偃傳三十四	-12.0496
債	-12.0496
伊霍	-12.0496
司馬温公論	-12.0496
片	-12.0496
發連弩射	-12.0496
糜費	-12.0496
建章宫	-12.0496
愕	-12.0496
於昭宗昭宗	-12.0496
矧	-12.0496
絶而復蘇	-12.0496
五臺僧	-12.0496
伏劍而死	-12.0496
孝宣皇帝	-12.0496
棗	-12.0496
牡飛	-12.0496
短長術	-12.0496
米一斗得酒一斗為	-12.0496
鈐	-12.0496
飡	-12.0496
魄	-12.0497
梁武帝天監十	-12.0498
敡	-12.0498
元始五年	-12.0498
張仲方	-12.0498
陛下即位以來	-12.0498
王褒傳三十四	-12.0498
以褊察	-12.0498
寧康元年	-12.0498
李夷簡	-12.0498
無私故能	-12.0498
郵亭	-12.0498
孝王傳四	-12.0498
擎	-12.0498
濛	-12.0498
熒惑聖聽	-12.0498
羹	-12.0498
驂乘	-12.0498
鴻都門	-12.0498
仲雅曰	-12.0498
帥衆拒戰	-12.0498
永元三年	-12.0498
澡	-12.0498
行馳道中	-12.0498
靚	-12.0498
骨髓	-12.0498
賚	-12.0498
槨	-12.0499
馥	-12.0499
耄	-12.05
麈	-12.05
刑部尚書張	-12.05
後五十年	-12.05
百里奚	-12.05
珠翠	-12.05
不由科第	-12.05
大中八年	-12.05
㡌	-12.05
侮慢	-12.05
為布衣交	-12.05
社稷危矣	-12.05
鄭元弼	-12.05
鈇鑕	-12.05
姧	-12.05
自求多福	-12.05
訊鞫	-12.05
黃門侍郎	-12.05
安北將軍	-12.05
復舊業	-12.05
陸象先	-12.05
作兩稅法	-12.05
孫光憲	-12.05
左監門	-12.05
橢	-12.05
深宫之中	-12.05
瀝	-12.05
與侍臣論	-12.05
薳	-12.05
琅	-12.05
續漢志曰	-12.0501
與宰相議	-12.0502
艫	-12.0502
玉門關	-12.0502
長江之險	-12.0502
具以語	-12.0502
天平節度使	-12.0502
帷幕	-12.0502
深溝髙壘	-12.0502
嗟嘆	-12.0502
尺五寸	-12.0502
河東節度使劉知逺	-12.0502
倒戈	-12.0502
光和元年	-12.0502
攸暨	-12.0502
浙東觀察使	-12.0502
疏奏不省	-12.0502
取之如拾芥耳	-12.0502
扑	-12.0502
揣知上意	-12.0502
樓堞	-12.0502
紲	-12.0502
羸瘠	-12.0502
臣願先賜死	-12.0502
出庫錢	-12.0502
土崩瓦解	-12.0502
塤	-12.0502
徐仲雅	-12.0502
毬場	-12.0502
穿鼻	-12.0502
著作佐郎	-12.0502
諸葛武侯	-12.0502
閼氏	-12.0502
鴂	-12.0502
雷霆	-12.0502
蒯通	-12.0502
滻	-12.0502
太康元年	-12.0504
元康七年	-12.0504
注云爾雅曰	-12.0504
瑨	-12.0504
行養老禮	-12.0504
讒夫昌	-12.0504
慰勉之	-12.0504
武王伐紂	-12.0504
激揚	-12.0504
螭	-12.0504
申屠蟠	-12.0504
稷契	-12.0504
封德彝	-12.0504
者此之謂也	-12.0504
入牙城	-12.0504
彊弱之	-12.0504
王吉傳	-12.0504
福建觀察使	-12.0504
年十嵗	-12.0504
往復數四	-12.0504
會天大	-12.0504
漫	-12.0504
自今已後	-12.0504
葛延遇	-12.0504
蚤	-12.0504
六玉虯	-12.0504
陟	-12.0504
深戒之	-12.0506
位極人臣	-12.0506
泥塗	-12.0506
璵	-12.0506
辛毗	-12.0506
鋒鏑	-12.0506
以戒不虞	-12.0506
溺死者甚衆	-12.0506
韓昭𦙍	-12.0506
副都統朱瑾	-12.0506
勑	-12.0506
歇	-12.0506
湛僧智	-12.0506
王珪魏徴	-12.0506
砥礪	-12.0506
竟卒於	-12.0506
隂為之備	-12.0506
馮野王	-12.0506
驕奢擅權	-12.0506
以至於亡	-12.0506
固守不下	-12.0506
宫中用度	-12.0506
廣明元年黄巢	-12.0506
張元徽	-12.0506
洼	-12.0506
猜忌不委任臣下	-12.0506
甚善然	-12.0506
絀	-12.0506
開言路	-12.0506
魏主南伐	-12.0506
鼎鑊	-12.0506
史在徳	-12.0506
弧	-12.0506
立仗馬	-12.0506
鴩	-12.0506
昃	-12.0506
傅讀曰附	-12.0507
避亂者多	-12.0507
已困不	-12.0507
光祿勲	-12.0508
髙敖曹	-12.0508
多忌諱	-12.0508
太白晝見	-12.0508
素有重名	-12.0508
蕭思話	-12.0508
巫蠱之禍	-12.0508
李渤上言	-12.0508
偪	-12.0508
厚賜金帛	-12.0508
各有等差	-12.0508
吕琦	-12.0508
太康元年杜預	-12.0508
意稍解	-12.0508
秦始皇漢武帝	-12.0508
自誇大	-12.0508
謾	-12.0508
僅以身免	-12.0508
刮	-12.0508
是不擇	-12.0508
以法度裁制藩鎮	-12.0508
嘔	-12.0508
如淳曰漢儀注	-12.0508
橐駝	-12.0508
滁	-12.0508
窖	-12.0508
覊	-12.0508
讌	-12.0508
備位宰相	-12.0508
匡國節度使	-12.0508
天授非人力也	-12.0508
如是則下之	-12.0508
常平倉	-12.0508
得免於禍	-12.0508
有足疾	-12.0508
知内侍省事	-12.0508
裙	-12.0508
諸王典兵	-12.0508
諸莫弗	-12.0508
郷	-12.0508
駐蹕	-12.0508
蹶	-12.0508
船艦	-12.0509
太清元年東魏	-12.0509
看	-12.0509
創大業	-12.0509
無敢違者	-12.0509
身毒國	-12.0509
驥	-12.0509
永平三年明帝	-12.0509
駢即以	-12.0509
按堵	-12.051
收散卒	-12.051
馮衍傳十八	-12.051
宗瞿然曰	-12.051
巢尚之	-12.051
欣然納之	-12.051
為徳宗所親	-12.051
倐	-12.051
自垂拱以來	-12.051
上尊酒	-12.051
乙卯	-12.051
博王友文	-12.051
卻	-12.051
墊	-12.051
大事去矣	-12.051
張又新	-12.051
河間王琛	-12.051
跣足	-12.051
金縢	-12.051
鏡自照	-12.051
不受饋遺	-12.051
司刑丞	-12.051
岐靈岳	-12.051
御史中丞袁淑	-12.051
戬	-12.051
捲握	-12.051
敢干之	-12.051
未有不亡者	-12.051
水衡錢	-12.051
洋王從璋	-12.051
皐	-12.051
罏	-12.051
蛾	-12.051
辛亶	-12.051
鄧琬	-12.051
錚錚	-12.051
駍	-12.051
龍䫇	-12.051
曬	-12.0511
曰死生有命	-12.0511
煑	-12.0511
梃	-12.0511
衆大潰	-12.0511
去權反	-12.0511
安其業	-12.0511
百姓嗟怨	-12.0511
診候	-12.0511
顯陽殿	-12.0511
婿	-12.0511
陳永定元年	-12.0511
亳	-12.0511
伏儼曰	-12.0511
張居翰	-12.0511
泣下霑衿	-12.0511
筋	-12.0511
冥	-12.0511
劉惔	-12.0511
彭城王勰	-12.0511
深自結納	-12.0511
爵一級	-12.0511
莫敢復言	-12.0511
藩垣	-12.0511
閡	-12.0511
順國節度使杜威	-12.0511
黍	-12.0511
圍棊	-12.0511
宴侍臣	-12.0511
彰義節度使	-12.0511
得以為辭	-12.0511
惀	-12.0511
數與近習謀誅大臣	-12.0511
景福二年	-12.0511
不奉法	-12.0511
儂	-12.0511
公孫禄	-12.0511
十為百名曰	-12.0511
卉	-12.0511
孝建二年	-12.0511
於寢殿	-12.0511
杜晏球	-12.0511
班見百僚	-12.0511
言於帝曰	-12.0511
陿	-12.0511
馬彦珪	-12.0511
鳻	-12.0511
抄	-12.0512
秩比二千石	-12.0512
伏伽	-12.0512
怒命斬之	-12.0513
徒費財	-12.0513
比干之	-12.0513
荻	-12.0513
無患矣	-12.0513
郡國守相	-12.0513
天子而令諸侯	-12.0513
峙	-12.0513
堕	-12.0513
大司空丹	-12.0513
陳寵傳	-12.0513
天下有識	-12.0513
為有司所糾	-12.0513
五月五日	-12.0513
元文遥	-12.0513
廉范	-12.0513
房𤣥齡杜如晦	-12.0513
殪	-12.0513
要害之地	-12.0513
進奏院	-12.0513
𫝊國寳	-12.0513
三品已上	-12.0513
孑	-12.0513
拓跋恒	-12.0513
朕則不然	-12.0513
為政之本	-12.0513
秋官侍郎	-12.0513
顯徳二年世宗	-12.0513
其不可一也	-12.0513
尺牘	-12.0513
恼	-12.0513
數千艘	-12.0513
染練	-12.0513
磑	-12.0513
鍼	-12.0513
不朝謁	-12.0513
事無巨細	-12.0513
以一幅	-12.0513
時年十六	-12.0513
机	-12.0513
相憎疾	-12.0513
禍亂之興皆由	-12.0513
鏗	-12.0513
不勝其忿	-12.0513
不如早除之	-12.0513
乞匄	-12.0513
什二三	-12.0513
全忠復書曰	-12.0513
八十四調	-12.0513
北寺獄	-12.0513
叢臺	-12.0513
宦官勸帝	-12.0513
并殺其子	-12.0513
延皓等	-12.0513
栩	-12.0513
汎舟	-12.0513
纎微	-12.0513
臨朝稱制	-12.0513
邢文偉	-12.0513
随例	-12.0513
非人力所及	-12.0513
韓稜	-12.0513
自淮入	-12.0514
三輔故事云	-12.0514
臾	-12.0514
喘	-12.0515
震慄	-12.0515
宋元嘉十	-12.0515
斧斤	-12.0515
健兒	-12.0515
正刑書	-12.0515
死者大半	-12.0515
涿郡太守	-12.0515
共譖之	-12.0515
持矛	-12.0515
氾	-12.0515
門晉杜預	-12.0515
事各有司存	-12.0515
兜離	-12.0515
鍤	-12.0515
出其右	-12.0515
呂琦	-12.0515
扣	-12.0515
新垣平	-12.0515
而好賄	-12.0515
聞而嘉之	-12.0515
里巷	-12.0515
世子澄	-12.0515
中和元年	-12.0515
中官典兵	-12.0515
公孫五樓	-12.0515
可不戒哉	-12.0515
司馬子如	-12.0515
咸得其	-12.0515
嚴善思	-12.0515
属	-12.0515
張弓注矢	-12.0515
樊愛能何徽	-12.0515
河間獻王	-12.0515
獵苑中	-12.0515
甃	-12.0515
禮葬之	-12.0515
肝腦塗地	-12.0515
託疾不	-12.0515
賊諜者	-12.0515
増白帝之守	-12.0515
屏人問	-12.0515
幍	-12.0515
憂形於色	-12.0515
據采石	-12.0515
於秦川	-12.0515
潘峭毛文錫	-12.0515
潾	-12.0515
火耕水耨	-12.0515
行臺郎中	-12.0515
謏	-12.0515
貞元九年	-12.0515
道士趙歸真	-12.0515
郡大守	-12.0515
驕蹇	-12.0515
龍驤軍	-12.0515
𢎞杲	-12.0515
與民爭利	-12.0517
榱	-12.0517
涇陽	-12.0517
亡略盡	-12.0517
訶	-12.0517
安西將軍	-12.0517
姜皎	-12.0517
為鎮海節度使	-12.0517
交臂事賊	-12.0517
亷潔	-12.0517
其罪一也	-12.0517
陂池	-12.0517
屣履	-12.0517
諫官要在舉職	-12.0517
殺傷萬計	-12.0517
燕主垂	-12.0517
讃	-12.0517
鞮	-12.0517
令行禁止	-12.0517
何患不富貴	-12.0517
倪	-12.0517
如草芥	-12.0517
封域之内	-12.0517
李徳明	-12.0517
桄	-12.0517
瞑目	-12.0517
荔	-12.0517
郢王友珪	-12.0517
錢五百萬	-12.0517
除舊布新	-12.0517
三嵗犢	-12.0517
下詔徵之	-12.0517
以牛車	-12.0517
其罪大矣	-12.0517
崔民幹為第	-12.0517
師古云	-12.0517
彎	-12.0517
恃權而貪	-12.0517
昭帝紀始元	-12.0517
望府廨即拜	-12.0517
枯骨	-12.0517
根柢	-12.0517
為上瑞	-12.0517
為臣不忠	-12.0517
牛昭容	-12.0517
王者以四海為家	-12.0517
相汲引	-12.0517
确	-12.0517
競為侈靡	-12.0517
綠林	-12.0517
與王伾相依附	-12.0517
覽而善之	-12.0517
逝	-12.0517
郅	-12.0517
鉤弋夫人	-12.0517
鉤距	-12.0517
廢昏立明	-12.0517
皇甫嵩	-12.0517
蘇世長	-12.0517
蔬	-12.0518
姨舅	-12.0519
咸寧五年	-12.0519
扁	-12.0519
沙漠	-12.0519
擾攘	-12.0519
鄯	-12.0519
偃武修文	-12.0519
諸子皆㓜	-12.0519
奢麗	-12.0519
酸	-12.0519
延載元年	-12.0519
建安十七年	-12.0519
踧	-12.0519
何樂如之	-12.0519
怒稍解	-12.0519
日不暇給	-12.0519
許徳勲	-12.0519
骸	-12.0519
友諒以	-12.0519
同列陳瓌	-12.0519
尚書右丞	-12.0519
次對官	-12.0519
歴五朝	-12.0519
為叛臣	-12.0519
皇甫惟明	-12.0519
耿崇美	-12.0519
與知樞宻劉	-12.0519
褚裒	-12.0519
該	-12.0519
貟外郎	-12.0519
全身逺害	-12.0519
唐明宗之世	-12.0519
孫叔敖	-12.0519
宦官典兵	-12.0519
張武等	-12.0519
戍南邊	-12.0519
毁經像	-12.0519
温依周公居攝	-12.0519
溉	-12.0519
百官稱賀	-12.0519
稱疾辭位	-12.0519
等十一人	-12.0519
踈骨肉	-12.0519
逼令自殺	-12.0519
錦袍	-12.0519
鍠	-12.0519
黄霧四塞	-12.0519
以厚利	-12.0519
堪更生	-12.0519
彦珣	-12.0519
從内出	-12.0519
槀街	-12.0519
王孫賈	-12.0519
砭	-12.0519
蕭炅	-12.0519
諸方鎮刺史	-12.0519
貽範	-12.052
㒺	-12.052
柘	-12.0521
燃	-12.0521
赫連	-12.0521
享爵禄	-12.0521
嬉戯	-12.0521
相約結	-12.0521
神祇	-12.0521
船數十艘	-12.0521
功髙不	-12.0521
征西大將軍	-12.0521
范陽盧	-12.0521
吾丘夀王	-12.0521
在此一舉	-12.0521
姓髙氏	-12.0521
位兼將相	-12.0521
入朝于鄴	-12.0521
壕柵	-12.0521
翰林學士裴垍	-12.0521
被害者	-12.0521
震慴	-12.0521
呼萬歲	-12.0521
彤	-12.0521
待之如初	-12.0521
後漢天福十二年初	-12.0521
捶撻	-12.0521
撃	-12.0521
歸徳節度使	-12.0521
置酒作樂	-12.0521
臆	-12.0521
臨平湖	-12.0521
自外入	-12.0521
餙	-12.0521
骨肉相殘	-12.0521
令如汗	-12.0521
以死報國	-12.0521
何以處我	-12.0521
倅	-12.0521
傳序四十	-12.0521
劉思立	-12.0521
去符傳	-12.0521
堂姨舅	-12.0521
斿	-12.0521
武帝紀元朔	-12.0521
為將軍次	-12.0521
率民財以	-12.0521
王子喬	-12.0521
盧擕	-12.0521
緩頰	-12.0521
蔣乂	-12.0521
軨獵車	-12.0521
陗	-12.0521
雎陽曲	-12.0521
餌方士	-12.0521
淨	-12.0522
蔓	-12.0522
今將奈何	-12.0523
大明八年	-12.0523
經略中原	-12.0523
禇裒	-12.0523
門北魏源	-12.0523
山澤之	-12.0523
至寢殿	-12.0523
長而多	-12.0523
人多怨之	-12.0523
鄼	-12.0523
大通二年爾朱榮	-12.0523
淮陽憲王	-12.0523
盧奕	-12.0523
緫	-12.0523
二百四十	-12.0523
勤勵	-12.0523
慓	-12.0523
牣	-12.0523
赴水死	-12.0523
趙武靈王	-12.0523
闔境	-12.0523
顧羣臣曰	-12.0523
季稜	-12.0523
朕即位以來	-12.0523
李嗣真	-12.0523
築壘	-12.0523
萬世之利也	-12.0523
豢	-12.0523
除一官	-12.0523
侵軼	-12.0523
大長秋	-12.0523
抉	-12.0523
揮涕	-12.0523
望氣者言	-12.0523
李金全	-12.0523
牙隊	-12.0523
甚敬憚之	-12.0523
自息矣	-12.0523
遲緩	-12.0523
韋安石	-12.0523
頑悖	-12.0523
鬬雞	-12.0523
上牋勸進	-12.0523
今則不然	-12.0523
僧孺宗閔	-12.0523
欽頤	-12.0523
殞	-12.0523
盧祖尚	-12.0523
義熈十二年	-12.0523
舳艫	-12.0523
鄘	-12.0523
陛下新即位	-12.0523
􁐼	-12.0523
殃咎	-12.0524
因而授之	-12.0524
果可克	-12.0524
用兵如神	-12.0525
鐐	-12.0525
督郵	-12.0525
曰李尚書	-12.0525
濊	-12.0525
豐稔	-12.0525
鈇	-12.0525
恭謹自守	-12.0525
有土崩之	-12.0525
無所控訴	-12.0525
埸	-12.0525
秦府功臣	-12.0525
與唐戰	-12.0525
侵漁	-12.0525
吏部尚書李琪	-12.0525
呌	-12.0525
天䇿府學士	-12.0525
安所歸乎	-12.0525
括惡錢	-12.0525
有功則賞有罪則刑	-12.0525
瀛莫	-12.0525
為人多欲	-12.0525
異物志曰	-12.0525
繫國安危	-12.0525
述律太后	-12.0525
也臣謂宜	-12.0525
元帝器重	-12.0525
受詩於浮丘伯	-12.0525
右驍衛將軍	-12.0525
安用此為	-12.0525
得其宜	-12.0525
有疑議	-12.0525
珍禽竒獸	-12.0525
硤石	-12.0525
豆盧革盧程	-12.0525
豐穰	-12.0525
韲	-12.0525
乾封元年	-12.0525
佛圖澄	-12.0525
儒學之士	-12.0525
减戍卒	-12.0525
劉善明	-12.0525
南燕主備徳	-12.0525
各言得失	-12.0525
吕元膺	-12.0525
吾臣有	-12.0525
命將出師	-12.0525
唐世稱	-12.0525
喜任俠	-12.0525
搔頭	-12.0525
旋軫	-12.0525
昭平君	-12.0525
有父母妻子	-12.0525
柷	-12.0525
梁天監五年魏	-12.0525
榛	-12.0525
死傷者	-12.0525
王及善	-12.0525
皇太弟	-12.0525
盤盂	-12.0525
竇参	-12.0525
締	-12.0525
纆	-12.0525
貨賂公行	-12.0525
青葢入洛	-12.0525
音義云	-12.0525
項籍傳賛	-12.0525
髙武子孫	-12.0525
玘	-12.0526
大盈庫	-12.0526
河朔三鎮	-12.0526
踞	-12.0527
翰林學士韋澳	-12.0527
穆然無間	-12.0527
宗社耳	-12.0527
州防禦使張彦	-12.0527
竟不能屈	-12.0527
以憂卒	-12.0527
封徳彞	-12.0527
澁	-12.0527
背水陣	-12.0527
偵	-12.0527
泊	-12.0527
干預政事	-12.0527
縋而出	-12.0527
臨菑	-12.0527
謗讟	-12.0527
顔杲卿	-12.0527
㥯	-12.0527
窒	-12.0527
笑而從之	-12.0527
陛下所親見也今	-12.0527
乾符五年	-12.0527
嚴可求曰	-12.0527
困窘	-12.0527
垂簾	-12.0527
太常博士韋	-12.0527
扞蔽	-12.0527
曰非所及也	-12.0527
此曹所為	-12.0527
永初二年	-12.0527
猶豫未决	-12.0527
綂	-12.0527
義不負二陸	-12.0527
驕縱不法	-12.0527
不閑軍旅	-12.0527
之問元和	-12.0527
卿何為爾	-12.0527
向延嗣	-12.0527
太和八年	-12.0527
巡邏	-12.0527
猜阻	-12.0527
貞元二年	-12.0527
不宜輕動	-12.0527
仁夀宫	-12.0527
可與為善可與為	-12.0527
咀	-12.0527
國子司業	-12.0527
容哥	-12.0527
晝邑	-12.0527
有失則	-12.0527
死所矣	-12.0527
灘	-12.0527
為政之要	-12.0527
競為暴刻	-12.0527
竹箭	-12.0527
綏和二年	-12.0527
言於武宗曰	-12.0527
豽	-12.0527
邙	-12.0527
金帛賜諸軍	-12.0527
鐘虡	-12.0527
長十餘丈	-12.0527
雲䍐	-12.0527
馬𦙍孫	-12.0527
昭義節度使劉從諫	-12.0528
隼	-12.0528
馮紞	-12.0529
加元服	-12.0529
盥	-12.0529
京兆尹黎幹	-12.0529
其伯父	-12.0529
礪	-12.0529
逃竄	-12.0529
君不可以不	-12.0529
拊膺	-12.0529
相國粲	-12.0529
諂諛	-12.0529
以茅土	-12.0529
日食之變	-12.0529
沸騰	-12.0529
堂後主書滑渙	-12.0529
岷	-12.0529
怨嗟盈路	-12.0529
桓帝不納	-12.0529
深歎美	-12.0529
畮	-12.0529
籍其數	-12.0529
衣冠禮樂	-12.0529
何以處之對曰	-12.0529
弓箭庫使	-12.0529
殺人者死	-12.0529
穗	-12.0529
都軍使	-12.0529
閉闗絶約於齊	-12.0529
閒居私第	-12.0529
閥閱	-12.0529
三太猛	-12.0529
上下之分	-12.0529
以其事訪之	-12.0529
何足介意	-12.0529
傳詩是為	-12.0529
凍餒	-12.0529
及武帝即位	-12.0529
司徒導以	-12.0529
廵狩	-12.0529
張從賔	-12.0529
性傾巧	-12.0529
恐禍及已	-12.0529
惶愧	-12.0529
憑几	-12.0529
敬鎔	-12.0529
治書侍御史	-12.0529
淆	-12.0529
渴烏	-12.0529
甿	-12.0529
眄	-12.0529
知其故而	-12.0529
碓	-12.0529
纖	-12.0529
與盛師友	-12.0529
賭	-12.0529
趙徳鈞	-12.0529
躬擐甲胄	-12.0529
鄭覃李石	-12.0529
開皇二十年	-12.0529
徴逺年逋欠	-12.0529
票騎將軍	-12.0529
汜	-12.0529
歸故郡	-12.053
菑	-12.053
特原之	-12.0531
擁强兵	-12.0531
朱買臣	-12.0531
楊於陵	-12.0531
疊	-12.0531
今春以來	-12.0531
何敢自安	-12.0531
言於朝曰	-12.0531
宋璟蘇頲	-12.0531
義武節度使	-12.0531
吞噬	-12.0531
西陲	-12.0531
賜衣一襲	-12.0531
魯國孔	-12.0531
謂僚佐曰	-12.0531
同光三年莊宗	-12.0531
夏官侍郎姚元崇	-12.0531
擊刁斗	-12.0531
曰留此	-12.0531
痩	-12.0531
之北伐也	-12.0531
判官髙郁	-12.0531
可不慎哉	-12.0531
宋文帝元嘉	-12.0531
扺	-12.0531
法門寺	-12.0531
洮河	-12.0531
漢安元年	-12.0531
脆	-12.0531
馬希廣	-12.0531
休沐	-12.0531
割剥	-12.0531
朝集使	-12.0531
田歸道	-12.0531
盭	-12.0531
竒章公	-12.0531
考功員外郎	-12.0531
股栗	-12.0531
舉酒屬	-12.0531
菽粟	-12.0531
讒之者	-12.0531
鄖	-12.0531
閻知微	-12.0531
靈芝	-12.0531
𢷬	-12.0531
丞相宇文泰	-12.0531
其三以為陛下	-12.0531
千六百	-12.0531
妄訴不已	-12.0531
宣徽副使	-12.0531
後周廣順二年唐主	-12.0531
楊綰常衮	-12.0531
泚泚	-12.0531
洛澗	-12.0531
用毛錐	-12.0531
由是益有寵	-12.0531
白從暉	-12.0531
眤	-12.0531
禁私度僧尼	-12.0531
絳紗袍	-12.0531
虺	-12.0531
規畫皆稱上意	-12.0531
起居舍人	-12.0531
迎拜於路	-12.0531
鄭珏	-12.0531
鐘鼓	-12.0531
非不勤	-12.0531
頹	-12.0531
駮之以為	-12.0531
㢘頗李牧	-12.0531
之曰汝輩皆	-12.0531
劉黒闥	-12.0531
張耳陳餘	-12.0531
張藴古	-12.0531
攬轡	-12.0531
自知名位已極	-12.0531
醴	-12.0532
使五官中郎將	-12.0532
張説欲取立后	-12.0532
盧坦揖	-12.0532
閫	-12.0532
嬉	-12.0532
達曙	-12.0532
頑	-12.0532
墨子曰	-12.0533
珧	-12.0533
蒯徹	-12.0533
謂諸將曰	-12.0533
者衘寃	-12.0533
後梁開平元年	-12.0533
保據江	-12.0533
乾元元年	-12.0533
城拒守	-12.0533
李正巳	-12.0533
訴於憲宗憲宗	-12.0533
元始三年	-12.0533
必為後患	-12.0533
李靖節度	-12.0533
謚曰文	-12.0533
饋糧	-12.0533
俚	-12.0533
恂恂	-12.0533
所施設	-12.0533
承平之時	-12.0533
李元紘杜暹	-12.0533
泣涕	-12.0533
相連結	-12.0533
聞而銜之	-12.0533
薄其為人	-12.0533
諱更名	-12.0533
大厯八年	-12.0533
天寶以後	-12.0533
意乃解	-12.0533
旋踵	-12.0533
未之許	-12.0533
清暑殿	-12.0533
蹏	-12.0533
韓王信	-12.0533
勤政樓	-12.0533
受吳降	-12.0533
同年進士	-12.0533
咸寧四年	-12.0533
宋璟疾負罪	-12.0533
建中二年	-12.0533
戎為三公與時浮沈	-12.0533
所乏者	-12.0533
昔漢光武	-12.0533
曰何故對曰	-12.0533
未審陛下欲何所	-12.0533
民甚苦之	-12.0533
為日乆矣	-12.0533
竇貞固	-12.0533
脯	-12.0533
虗	-12.0533
賈逵	-12.0533
主勞於求	-12.0533
廷式曰	-12.0533
張權輿	-12.0533
數之曰公	-12.0533
氣不和而	-12.0533
沽	-12.0533
犢鼻	-12.0533
規模	-12.0533
調兵食	-12.0533
郭威鎮鄴都	-12.0533
非不愛也	-12.0533
非人主所宜親也	-12.0533
阮籍	-12.0534
吾無憂矣	-12.0534
株	-12.0535
倢伃	-12.0535
蘆	-12.0535
給其直	-12.0535
失天下之望	-12.0535
庻幾	-12.0535
贏縮	-12.0535
開耀元年	-12.0535
㪚騎常侍	-12.0535
劉牢之	-12.0535
方宴客	-12.0535
汾陽王	-12.0535
沙陀	-12.0535
盧藏用	-12.0535
磔	-12.0535
薛季昶	-12.0535
𢃄	-12.0535
亦猶是矣	-12.0535
在定州	-12.0535
眺	-12.0535
開元十四年明皇	-12.0535
闓	-12.0535
募戍卒耕荒田	-12.0535
投地曰	-12.0535
賞賜無度	-12.0535
轉死溝壑	-12.0535
辨羣臣之邪正	-12.0535
逰獵	-12.0535
居無何	-12.0535
數面折之	-12.0535
文武兼資	-12.0535
時羣臣多	-12.0535
有何不可	-12.0535
有兼并	-12.0535
李鷃上慶雲圖	-12.0535
樊豐等	-12.0535
死者相枕	-12.0535
髙陽王雍	-12.0535
充庭車	-12.0535
劉齊賢	-12.0535
同罪異	-12.0535
奏請多踰分	-12.0535
奮擊大破之	-12.0535
循名責實	-12.0535
柳仲郢為	-12.0535
登進士第	-12.0535
知而不言	-12.0535
見幾而作不俟終日	-12.0535
赦天下改元	-12.0535
躡其後	-12.0535
鄭州防禦使	-12.0535
鎮南將軍	-12.0535
非反而何	-12.0535
餓虎	-12.0535
有重名	-12.0535
扈	-12.0535
鑾輿	-12.0536
壟	-12.0536
孤軍深入	-12.0536
無賴少年	-12.0536
廏	-12.0536
謂澳曰	-12.0536
遣信臣	-12.0536
二尺餘	-12.0537
居安思危	-12.0537
捫	-12.0537
於墓側	-12.0537
會稽太守	-12.0537
牛渚	-12.0537
田承嗣為安史父子立祠堂	-12.0537
瞶	-12.0537
聾	-12.0537
丙戌	-12.0537
之甚難臣	-12.0537
其家人於	-12.0537
其門如市	-12.0537
嘉禾	-12.0537
知與不知	-12.0537
訊牒	-12.0537
驍騎將軍	-12.0537
子子孫孫	-12.0537
有謀能斷	-12.0537
正色抗	-12.0537
漁獵	-12.0537
為内應	-12.0537
白敏中謂同列	-12.0537
缾	-12.0537
裴延齡輩	-12.0537
侍御史周矩	-12.0537
國子博士	-12.0537
大中四年以	-12.0537
廙	-12.0537
木屑	-12.0537
秦失其鹿	-12.0537
釘	-12.0537
鷰	-12.0537
蹇	-12.0537
佶	-12.0537
寳厯元年	-12.0537
滿籯	-12.0538
諝	-12.0538
拍	-12.0538
步驟	-12.0538
澆訛	-12.0538
轉禍為福	-12.0538
建興三年	-12.0538
卞範之	-12.0538
時人醜	-12.0538
沅	-12.0538
誰敢不	-12.0538
明臣直	-12.0538
楯	-12.0538
陳宣帝大建	-12.0538
市㕓	-12.0538
必此人也	-12.0538
擇禍莫若輕	-12.0538
求之不獲	-12.0538
盈川	-12.0538
陛下龍飛	-12.0538
什不三四	-12.0538
大厯十年	-12.0538
年憲宗問宰相	-12.0538
盾	-12.0538
蘇良嗣	-12.0538
謔浪	-12.0538
貞觀二十一年	-12.0538
土瘠民	-12.0538
多凝滯	-12.0538
子思言	-12.0538
尉遲敬徳	-12.0538
平蜀之功	-12.0538
張少敵	-12.0538
有功於國	-12.0538
東晉陶侃	-12.0538
欺㒺	-12.0538
盧從史	-12.0538
社稷為墟	-12.0538
臣之所憂	-12.0538
自校簿書	-12.0538
自負才地	-12.0538
蘇佐明	-12.0538
蠶麥	-12.0538
袁譚	-12.0538
裴度自興元入朝李逢吉之黨百計毁之	-12.0538
讙譁	-12.0538
賜東園	-12.0538
逸於任	-12.0538
開皇十五年	-12.0538
附下罔上	-12.0538
餘燼	-12.0538
鳥雀	-12.0538
叱之曰	-12.0539
累朝以來	-12.0539
貞元元年	-12.054
騐	-12.054
房遺愛	-12.054
内外戒嚴	-12.054
喑嗚	-12.054
漢明帝欲	-12.054
後周顯德五年	-12.054
瓦觧	-12.054
荆襄	-12.054
中山靖王	-12.054
入寢室	-12.054
有廢興	-12.054
楊洞潜	-12.054
脫巾	-12.054
儔	-12.054
右扶風	-12.054
天成三年	-12.054
太原周黨	-12.054
安豐王延明	-12.054
帥百餘騎	-12.054
野葛	-12.054
崔沔	-12.054
於馬前	-12.054
槖	-12.054
殺諸元	-12.054
爇	-12.054
竄匿山谷	-12.054
上疏極諌	-12.054
乃就職	-12.054
乞歸九華舊𨼆	-12.054
其末流	-12.054
水衡都尉	-12.054
江夏王義恭	-12.054
清江表	-12.054
為之謀主	-12.054
發其姦	-12.054
至㶚上	-12.054
見前世帝王	-12.054
遲回	-12.054
嗚呼	-12.054
圜牆	-12.054
括民穀	-12.054
擿觖	-12.054
涸	-12.054
獻可替否	-12.054
趙憙	-12.054
酺宴	-12.054
富有四海	-12.0541
開成二年	-12.0541
幸涇陽	-12.0541
淮堰	-12.0542
明徳馬皇后傳十	-12.0542
聖厯元年	-12.0542
蕩滌	-12.0542
時年十四	-12.0542
史思明	-12.0542
何愛一	-12.0542
於厠中	-12.0542
擐甲	-12.0542
檛	-12.0542
也陛下儻不	-12.0542
勢傾内外	-12.0542
因縱兵	-12.0542
以至今日	-12.0542
後唐同光元年莊宗	-12.0542
瘳	-12.0542
之恐見欺	-12.0542
刀筆之吏	-12.0542
大中十二年	-12.0542
掦	-12.0542
有恩者	-12.0542
河平二年	-12.0542
鉤弋	-12.0542
以吾觀	-12.0542
伶宦	-12.0542
公誠能	-12.0542
墨勅	-12.0542
幻	-12.0542
惡者則為	-12.0542
李仁罕	-12.0542
無為而治	-12.0542
盈溢	-12.0542
緭	-12.0542
自稱秦王	-12.0542
蒲禹卿	-12.0542
讀貞觀政要	-12.0542
辯士蒯徹	-12.0542
何嫌何疑	-12.0542
婦翁	-12.0542
彦瑫等	-12.0542
有諍臣風采	-12.0542
甌脫	-12.0542
矜恕	-12.0542
窈	-12.0542
紂為無道	-12.0542
緝	-12.0542
臍	-12.0542
釃	-12.0542
黨錮傳序	-12.0544
傚	-12.0544
迅	-12.0544
抶	-12.0544
餤	-12.0544
僂	-12.0544
櫝	-12.0544
社稷之靈	-12.0544
藩維	-12.0544
後元二年	-12.0544
故以名云	-12.0544
為社稷之臣	-12.0544
人情危懼	-12.0544
刑部尚書顔真卿	-12.0544
孔鄉侯	-12.0544
宂	-12.0544
洺	-12.0544
翅	-12.0544
事勢如此	-12.0544
元嘉二十三年	-12.0544
可以萬全	-12.0544
巧慧	-12.0544
庚午	-12.0544
自相魚肉	-12.0544
舉大觴屬	-12.0544
貪暴不法	-12.0544
贄上奏其略曰	-12.0544
不急之費	-12.0544
姚璹曰	-12.0544
有大志	-12.0544
横亘	-12.0544
淺露	-12.0544
童謠	-12.0544
翰林學士承㫖韓偓	-12.0544
非義也	-12.0544
非良計	-12.0544
麀	-12.0544
叡册	-12.0544
周廣謝惲	-12.0544
扛	-12.0544
救時之相	-12.0544
於閤中	-12.0544
昇明元年	-12.0544
棺槨	-12.0544
犴	-12.0544
瑨瓆	-12.0544
竇建徳	-12.0544
詢訪	-12.0544
趙憬	-12.0544
農區田法方	-12.0544
塔	-12.0544
曹參傳九	-12.0545
伍子胥	-12.0546
即皇帝位于南郊	-12.0546
先聖之	-12.0546
天祐二年	-12.0546
豬	-12.0546
輸布帛	-12.0546
哺	-12.0546
擯棄	-12.0546
決疑獄	-12.0546
願王勿	-12.0546
使于吐蕃	-12.0546
孝諶	-12.0546
息夫躬	-12.0546
息肩	-12.0546
豎儒	-12.0546
傕	-12.0546
為國計使	-12.0546
兇	-12.0546
梵	-12.0546
端拱無為	-12.0546
鴨	-12.0546
以至誠治天下	-12.0546
何力何力	-12.0546
冉	-12.0546
員外同正	-12.0546
囘鶻	-12.0546
栁公綽	-12.0546
歌吹	-12.0546
為之一空	-12.0546
白志貞	-12.0546
翡	-12.0546
與物無競	-12.0546
袁敞	-12.0546
謂子弟曰	-12.0546
閑駒	-12.0546
魂魄	-12.0547
惡衣菲食	-12.0547
猶豫未決	-12.0547
打	-12.0547
汰	-12.0547
縱反間於	-12.0548
故智者	-12.0548
仲郢	-12.0548
禹稷	-12.0548
覦	-12.0548
中和四年	-12.0548
撼	-12.0548
縹	-12.0548
蘇竟傳	-12.0548
太元二年	-12.0548
如其不然	-12.0548
為亂兵所害	-12.0548
怠於政事	-12.0548
芋	-12.0548
讀漢書	-12.0548
在徳不在險	-12.0548
引兵東出	-12.0548
徐孝嗣	-12.0548
潘在迎	-12.0548
縱擊大破之	-12.0548
豔	-12.0548
中山公護	-12.0548
宇文士及	-12.0548
真其人也	-12.0548
知無不為	-12.0548
上官婕妤	-12.0548
井陘口	-12.0548
彖	-12.0548
曲臺記	-12.0548
騶騎	-12.0548
有可采	-12.055
分為二	-12.055
百戰百勝	-12.055
長興四年閩主	-12.055
之獨不降意於	-12.055
韋嗣立	-12.055
曽祖	-12.055
狼子野心	-12.055
不合衆心	-12.055
安成王頊	-12.055
後晉天福八年唐	-12.055
戊辰	-12.055
據敖倉之粟塞成臯之	-12.055
易制故引	-12.055
滄景	-12.055
百餘員	-12.055
遭母憂	-12.055
鎮海鎮東節度	-12.055
一子不事	-12.055
大寳元年	-12.055
孫寳傳	-12.055
彈棊	-12.055
楊惠元	-12.055
此千載一時	-12.055
渠牟	-12.055
鐙	-12.055
黠戛斯	-12.055
羆	-12.0552
膽略	-12.0552
曾参	-12.0552
刈	-12.0552
人相食	-12.0552
謂其衆曰	-12.0552
防遏	-12.0552
乗輿服御	-12.0552
可坐而	-12.0552
周利用	-12.0552
拷	-12.0552
魏晉以來	-12.0552
亦無及矣	-12.0552
僧懐義	-12.0552
焉得不	-12.0552
紫貝	-12.0552
翃	-12.0552
謂熲曰	-12.0552
遣督䕶	-12.0552
嗔	-12.0552
婞直	-12.0552
後周顯徳三年	-12.0552
真英主也	-12.0552
綝	-12.0552
阮咸	-12.0552
昭義節度使	-12.0554
封十郡	-12.0554
畿甸	-12.0554
動摇	-12.0554
武惠妃為皇后	-12.0554
貰	-12.0554
拱宸	-12.0554
以侯就第	-12.0554
以夀終	-12.0554
天祐二年栁璨	-12.0554
弄威福	-12.0554
有内應	-12.0554
上官昭容	-12.0554
不免饑寒	-12.0554
仰天歎曰	-12.0554
嗟歎	-12.0554
戡	-12.0554
殺之投尸	-12.0554
阿䛕	-12.0554
旟	-12.0556
致此今	-12.0556
肥饒	-12.0556
三十匹	-12.0556
禪位於	-12.0556
上元二年	-12.0556
邃	-12.0556
預其謀	-12.0556
即皇帝位國號大	-12.0556
人人自危	-12.0556
淫虐	-12.0556
痕	-12.0556
頡利可汗	-12.0556
休守正不阿	-12.0556
所獻錢賜	-12.0556
梗槩	-12.0556
棨㦸	-12.0556
辭氣不屈	-12.0556
鏽	-12.0556
五經同異	-12.0557
洶洶	-12.0558
貸其死	-12.0558
王尊傳	-12.0558
鳳閣	-12.0558
准	-12.0558
不離側	-12.0558
俸以贍軍	-12.0558
安帝義熈	-12.0558
有死而已	-12.0558
民間疾苦	-12.0558
皆飾以	-12.0558
藪	-12.0558
被衮冕	-12.0558
不忍之恩	-12.0558
倘	-12.0558
備法駕迎	-12.0558
含嘉倉	-12.0558
鮑昱	-12.0558
叚秀實	-12.0558
宜為車轂	-12.0558
無異平日	-12.0558
赤伏符	-12.0558
立武昭儀為后	-12.0559
翜	-12.0559
僭侈	-12.056
專有其功	-12.056
徒跣	-12.056
不過一二	-12.056
裂地而封	-12.056
建元四年	-12.056
易月之	-12.056
褚翜	-12.056
諌諍	-12.056
朔方河東	-12.056
李百藥	-12.056
為奇士	-12.056
軍州事	-12.056
雞狗	-12.056
靡麗	-12.056
罷其政事	-12.0562
煩碎	-12.0562
𨼆忍	-12.0562
匝	-12.0562
斜封官皆	-12.0562
有怨望語	-12.0562
龜鼎	-12.0562
得而有之	-12.0563
軍不動	-12.0563
鷙鳥	-12.0563
至昭應	-12.0563
自託於	-12.0564
言失一	-12.0564
曰太子國之	-12.0564
李正已	-12.0564
獬	-12.0564
砥節	-12.0564
奏彈之	-12.0565
越王𢎞昌	-12.0565
峭覈	-12.0565
跬步	-12.0565
自先帝時	-12.0565
蒼梧王	-12.0565
殺之并其	-12.0565
洛陽人李	-12.0567
嵇	-12.0567
陛下仁恩	-12.0567
關某張飛	-12.0567
誘脅	-12.0567
無復君臣之禮	-12.0567
神龍元年中宗	-12.0567
可擒也	-12.0567
包藏禍心	-12.0567
姚襄	-12.0567
彦曽	-12.0567
戍桂州	-12.0567
諴	-12.0567
阿保機	-12.0567
銅像	-12.0569
呉興太守	-12.0569
則善矣	-12.0569
中宗大怒命	-12.0569
左司郎中	-12.0569
注云東觀記曰	-12.0569
鄭羆	-12.0569
謂重誨曰	-12.0571
腐儒	-12.0571
延巳與其黨	-12.0571
畎	-12.0571
慕容鎮軍	-12.0571
盧度世	-12.0571
粃	-12.0571
尤無狀者	-12.0573
刻石紀功	-12.0573
楊昭儉諫	-12.0573
敬暉桓彦範	-12.0573
以謀告	-12.0573
鄭元璹	-12.0573
月乙亥	-12.0575
社稷事重	-12.0575
帥衆五萬	-12.0577
實奪之權	-12.0577
槥櫝	-12.0577
今公又	-12.0579
周穆王	-12.0579
救其死	-12.0579
回冗	-12.0579
軍假吏	-12.0579
袖示	-12.058
權盡歸	-12.0581
望春樓	-12.0581
侵牟	-12.0581
陛下豈可不	-12.0583
意以為何如	-12.0585
戯之曰	-12.0586
㓗	-12.0587
方目紗	-12.0587
祁連山	-12.0589
白馬羌	-12.0592
自古有之	-12.0594
髫髪	-12.0594
碧雞	-12.0596
閒劇	-12.0596
有是言	-12.0598
此五者	-12.06
史𢎞肈	-12.0604
延熹九年	-12.0611
所厚也	-12.0615
臣之事君	-12.0619
為文帝所	-12.0619
養死士	-12.0623
謂温曰	-12.0627
鄭畋草	-12.0627
王述為	-12.0629
鵰	-12.0629
遽自引	-12.063
死然臣	-12.0631
者數矣	-12.0632
飾以珠	-12.0634
嵇紹	-12.0635
劭濬	-12.0639
晉宋以	-12.0642
故不得不	-12.0647
誡之曰	-12.0656
司馬遷傳三十	-12.0671
與朝士相	-12.0673
相願曰	-12.0677
守法而	-12.0686
宣帝紀神爵	-12.0688
咸以為寃	-12.0688
張騫傳三十	-12.0689
下星為	-12.0691
久長之	-12.0693
謂天下無	-12.0723
故不敢入	-12.0736
非敢負	-12.0737
王商傳	-12.0748
能識其	-12.0749
時天旱	-12.0759
君素曰	-12.0768
陳大建十三年隋	-12.0794
法不至死	-12.0823
盗州縣不能	-12.0844
之張說曰	-12.0909
位至太	-12.092
募壯士	-12.0925
帥百官上表	-12.0967
百官入賀	-12.1017
年初劉毅	-12.1038
公常欲	-12.1044
四海軍國	-12.106
褚遂良上疏以	-12.1113
力為善	-12.1142
可擊也	-12.116
使王環	-12.1186
曰恭皇	-12.1224
趙彦深	-12.124
銀鏤	-12.1241
乎超曰	-12.1376
翰林學士白居易上	-12.1394
光武紀建武二十	-12.1462
段暉	-12.1512
千一百	-12.1562
罷其兵	-12.157
大同十一年	-12.1574
同光元年王彦章	-12.1686
五十斤	-12.177
陳蕃上疏	-12.1845
弭災	-12.2183
分為三	-12.2429
左神策	-12.2443
克融輩	-12.2622
郴	-12.284
天監元年	-12.2905
怨望誹謗	-12.3022
潞	-12.3283
㑹昌四年	-12.3513
士廉等	-12.3609
謩綽有祖風	-12.3716
承大統	-12.4235
彦深等	-12.4391
敢近者	-12.4563
乾化元年	-12.4696
天福八年	-12.4721
不血食矣	-12.4859
立宗衍	-12.4939
建武八年光武	-12.5015
陳大建十三年	-12.5071
華林園	-12.5093
者未之有也	-12.5096
為黄門侍郎同平章事	-12.513
布單衣	-12.5198
其種落	-12.5243
政事一委	-12.5271
闗内侯	-12.5345
以鐡鎻	-12.537
大簡諸軍	-12.5373
大逆無道	-12.5375
予寧三年	-12.5378
犍	-12.5393
北海敬王	-12.541
卞射武戲	-12.541
名田國中	-12.541
得過三十頃	-12.541
好老荘之書	-12.5413
名田縣道	-12.5413
智慮畏慎	-12.5413
苃䒷	-12.5413
賀良等	-12.5416
以天下與韋𤣥貞何	-12.5425
慙以其衆幸富貴	-12.5425
張是連提	-12.5428
乎皆對曰不	-12.5432
作静輪宮	-12.5432
季江俱	-12.5432
栁元景	-12.5432
琬社稷之器	-12.5432
西虜不足平	-12.5432
道士潘師正	-12.5432
進言曰陛下富	-12.5432
一門二后	-12.5435
栁宗元	-12.5435
尚方斬馬	-12.5438
以仁義為扞蔽	-12.5438
以死送使者	-12.5438
作梓人傳	-12.5438
急就篇	-12.5438
捍	-12.5438
有市籍者	-12.5438
楊範臣	-12.5438
牂柯江江廣	-12.5438
王鳳用事	-12.5438
粟紅腐	-12.5438
衣絲絮	-12.5438
輬	-12.5438
輼	-12.5438
除日祀之法	-12.5438
龍䘮角	-12.5438
曙	-12.544
兩義並通	-12.5441
裴頠著崇有論	-12.5441
割虎牢以	-12.5441
將誰也曰	-12.5441
所不見慮	-12.5441
殻	-12.5441
比落䝉	-12.5441
王孫大卿	-12.5441
開廣諌道	-12.5441
保身全家	-12.5444
反形未具	-12.5444
夏侯令女	-12.5444
嫁之令女	-12.5444
寘之宫掖	-12.5444
庾翼以滅戎取蜀為己任	-12.5444
愴	-12.5444
慊	-12.5444
李道裕議	-12.5444
樊少翁	-12.5444
母數戒其	-12.5444
沈懐文數以直諫忤㫖	-12.5444
琱	-12.5444
甄表門閭	-12.5444
豉	-12.5444
輦車驪駕	-12.5444
道家蓬萊山	-12.5444
皸	-12.5447
委棄軍資器械	-12.5447
衆號百萬	-12.5447
户牖之	-12.5447
捕禽鳥以供園池之翫	-12.5447
殆不能勝也	-12.5447
爾雅曰原	-12.5447
瓦合之卒	-12.5447
生寜馨兒	-12.5447
皸瘃	-12.5447
而無其實者	-12.5447
輿應機辨畫	-12.5447
髠鉗城旦舂	-12.5447
瘃	-12.545
不用田豐言	-12.545
北方夜半氣也	-12.545
南北司如水火	-12.545
裞	-12.545
鍾離意獨敢諫	-12.545
䝉衝鬬艦	-12.545
一半氷	-12.545
二祖四宗	-12.545
僰	-12.545
其君禹後	-12.545
吳芮傳	-12.545
堊墍	-12.545
官以補郡吏	-12.545
挶	-12.545
撠	-12.545
曰諸葛孔明	-12.545
李漸榮	-12.545
桓温有英雄之才	-12.545
楊雄傳	-12.545
泰半之賦	-12.545
白龍堆	-12.545
百金裞	-12.545
盧叔虎	-12.545
相繼如秦	-12.545
立武承嗣為皇太子	-12.545
耽之曰蔡	-12.545
至石梵	-12.545
莋馬僰僮	-12.545
語及太子恂	-12.545
鶉	-12.545
鰒	-12.5452
臚	-12.5453
􁋙	-12.5453
宣太后令廢	-12.5453
安蠻司馬劉康祖	-12.5453
三輔黄圖	-12.5454
乘板輿	-12.5454
再殷祭	-12.5454
將如之何	-12.5454
河以取敖倉粟	-12.5454
築甬道屬	-12.5454
乃薦愷	-12.5454
以固權寵之術	-12.5454
以進奉市恩	-12.5454
使匈奴中郎將擁節	-12.5454
古文謂孔子壁中書	-12.5454
名雪山	-12.5454
封吳芮	-12.5454
新垣衍	-12.5454
晦日設祭	-12.5454
李乾祐諫	-12.5454
注云郭璞注	-12.5454
激詭之行	-12.5454
程邈所作也	-12.5454
蕝	-12.5454
見天下之人乎	-12.5454
角者或為	-12.5454
解姊子	-12.5454
魯班門	-12.5454
𨼆士韋祖思	-12.5454
醖	-12.5456
珍臺閒	-12.5457
兠	-12.5457
坐不垂堂	-12.5457
冏謂曹攄曰或勸	-12.5457
宣帝所用多文法吏以刑	-12.5457
戰國合從連衡	-12.5457
梁韋叡	-12.5457
王偉説侯景弑太宗	-12.5457
王與馬共天下後敦自恃有功且宗族	-12.5457
盛稍益驕恣元帝	-12.5457
見踈外中書郎孔愉陳導忠賢有佐命之	-12.5457
言極切至廷見如不能言者	-12.5457
䜿	-12.5457
乗白鹿	-12.5457
仇士良請以開府廕	-12.5457
其指事也	-12.5457
其處心也	-12.5457
去朝中朋黨難	-12.5457
各有所附	-12.5457
執朝廷之權	-12.5457
宗閔百方沮	-12.5457
投石㧞距	-12.5457
政寛弛	-12.5457
止輦受	-12.5457
氣至炭	-12.5457
清正之士	-12.5457
璽符節	-12.5457
秦宣公作密畤	-12.5457
踞牀洗足	-12.5457
通土炭	-12.5457
青牛道士	-12.5457
餌胡麻	-12.5457
髙二十餘丈	-12.5457
龍舒君	-12.5457
人建武以後乃悉用宦者自延平以來浸	-12.546
操還軍官渡	-12.546
漢故事中常侍	-12.546
璫之飾處常伯之任天朝政事一更其手	-12.546
秦法十里一亭亭	-12.546
非國之利	-12.546
麽	-12.546
不平遂構嫌隙	-12.546
匡業誦羅	-12.546
千春節	-12.546
吳陽上下畤	-12.546
有可言屏人	-12.546
長二寸	-12.546
不訾之軀	-12.546
以金代火金畏於火故	-12.546
共掌朝政	-12.546
天下咸望治平	-12.546
庚日必伏	-12.546
撓楚權	-12.546
故秦騎士	-12.546
教授於河汾之間	-12.546
誹	-12.546
誹謗訞言之罪	-12.546
何辭以對	-12.5463
發青冀	-12.5463
柳元怙	-12.5463
百二十人	-12.5463
陸費墀	-12.5463
傳論六十	-12.5463
尊君卑臣崇上抑下	-12.5463
牘及印封皆令	-12.5463
寶厯元年	-12.5463
强音其兩反	-12.5463
昀	-12.5463
說不欲行漢强使之說	-12.5463
黥首繫趾	-12.5463
一封軺傳	-12.5463
么䯢	-12.5463
仗忠信	-12.5463
以忠義感激將	-12.5463
伶宦求租庸使	-12.5463
元尼須	-12.5463
分澹如也有識皆稱其善處興廢而敦益	-12.5463
匙	-12.5463
坱圠	-12.5463
太后委政宰輔	-12.5463
居髙慮危褰裳去之斯善之善者也冏不	-12.5463
愉	-12.5463
所犯在赦	-12.5463
是吾必死之	-12.5463
棲金雀	-12.5463
楊剥皮	-12.5463
楊相如上疏言時政	-12.5463
檀公三十六策走為上	-12.5463
每上封事輒削其草	-12.5463
民患幣	-12.5463
游雲夢	-12.5463
燥	-12.5463
璠	-12.5463
竹筠也今	-12.5463
笏於紳	-12.5463
紳大帶也	-12.5463
而公曰必	-12.5463
薦五處士	-12.5463
衣敝履空	-12.5463
詣陸贄求遷	-12.5463
鄙夫不可與事君	-12.5463
鄭顥營求作相甚切	-12.5463
餉遺洛中貴要	-12.5463
龎士元	-12.5463
龎相壽	-12.5463
鉞斧也	-12.5466
遂兩釋焉	-12.5466
郡夜於道	-12.5466
出錢三百	-12.5466
初髙祖不修文學而性	-12.5466
左將軍辛慶忌	-12.5466
瑣文而	-12.5466
盩厔以東宜春以西提封頃	-12.5466
符融傳	-12.5466
達好謀能	-12.5466
乾隆四十	-12.5466
正閏之論	-12.5466
西南夷𫝊	-12.5466
㠶	-12.5466
䖍朗一言勝數萬兵	-12.5466
不宜專用南陽人	-12.5466
不阿親戚	-12.5466
也揚㩁	-12.5466
以問侍中崔光光	-12.5466
以贖罪乃許之諸將怒曰我輩	-12.5466
制命已行不	-12.5466
卑身厚幣以招賢	-12.5466
定陶共皇太后共皇后	-12.5466
崔元略以諸父事内	-12.5466
會諸侯於陳	-12.5466
李茂貞王行瑜	-12.5466
束身歸朝	-12.5466
枳	-12.5466
欲斷諸北語	-12.5466
竇太后而以馮貴人配	-12.5466
而行之亦不廢	-12.5466
蒜	-12.5466
融速求富貴	-12.5466
請之不許其弟請代兄死亦不許請入一	-12.5466
諫議大夫褚遂良上疏以為	-12.5466
避位受籙	-12.5466
重則多作輕	-12.5466
隂為自全之計	-12.5466
隤	-12.5466
饉	-12.5467
陛下騁六飛馳	-12.5469
為二百七十一門	-12.5469
鋟	-12.5469
弟季江	-12.5469
師古曰此説非也	-12.5469
師古曰祖始也	-12.5469
敵人畏之	-12.5469
五行志七中之	-12.5469
元帝建昭	-12.5469
刑名刑名者	-12.5469
及其賈直	-12.5469
師古曰劉向别録云申子學號	-12.5469
常伯侍中也	-12.5469
許宜反又	-12.5469
魏武奏事云	-12.5469
之宗廟雖日不暇給規摹𢎞逺矣	-12.5469
冬夏有雪	-12.5469
又與功臣剖符作誓丹書鐵契金匱石室	-12.5469
愚於虞而智於秦	-12.5469
軿	-12.5469
韓信申軍法張蒼定章程叔孫通制禮儀	-12.5469
呼衍王	-12.5469
將廢昌邑	-12.5469
游談者	-12.5469
為古文篆𨽻三體書	-12.5469
詔博求幽隐	-12.5469
三七二百一十嵗	-12.5469
也至平帝	-12.5469
二千石者一嵗得	-12.5469
代行祭事	-12.5469
以北山石為槨	-12.5469
以致亂不復推究亂者遣使慰諭以安之	-12.5469
以荀羨王羲之	-12.5469
以貢獻固主恩	-12.5469
修孔子舊廟	-12.5469
僧誠惠以妖妄惑人	-12.5469
十徵不屈	-12.5469
博望苑	-12.5469
厄三七之間	-12.5469
合長年藥	-12.5469
周𤣥豹	-12.5469
容管奏	-12.5469
寧為天子死不	-12.5469
左右莫邪軍	-12.5469
師古曰應説是也	-12.5469
師子封牛	-12.5469
年四十餘	-12.5469
援立聖明	-12.5469
敕使墓戸	-12.5469
日新髙祖曰	-12.5469
梁承聖三年	-12.5469
武五子傳	-12.5469
燒藥為	-12.5469
營園田	-12.5469
甲觀畫堂	-12.5469
窗	-12.5469
管經略使	-12.5469
胡太后數幸宗戚勲貴之家	-12.5469
與人奴並生	-12.5469
處士韋夐	-12.5469
蜀中文學復盛	-12.5469
言此婆羅門	-12.5469
豬其宫室	-12.5469
郭隗曰	-12.5469
金波亭	-12.5469
閩使鄭元弼	-12.5469
陶𢎞景	-12.5469
鞭二百配甲坊	-12.5469
鴻都門學生	-12.5469
解衣伏質	-12.5472
安漢公奏立	-12.5472
烝	-12.5472
欲西馳下峻阪	-12.5472
資治通鑑	-12.5472
以供其費	-12.5472
伏劒而死	-12.5472
大父母父母	-12.5472
車騎將軍音藉	-12.5472
仰給度支	-12.5472
尺二寸	-12.5472
吕后側耳於東	-12.5472
啻	-12.5472
大將軍冀河南尹不疑	-12.5472
六者政之根本	-12.5472
冬至陽氣	-12.5472
嚴更之署	-12.5472
夏至隂氣	-12.5472
忠言至諫希得	-12.5472
梁丘賀	-12.5472
沓	-12.5472
漢宮閣疏云	-12.5472
能將兵而善將將	-12.5472
西河舊事	-12.5472
詔曰古之治天下朝有進善之旌	-12.5472
詔有司立原廟	-12.5472
賔客盈門	-12.5472
青龍四年	-12.5472
一制指揮節度	-12.5472
剴	-12.5472
劉蕡對䇿	-12.5472
勲散爵號	-12.5472
厯遺公卿	-12.5472
大駕法駕小駕	-12.5472
差次叙用	-12.5472
常與宻議天下事	-12.5472
建元三年武帝	-12.5472
承嗣權太重	-12.5472
死於獄中	-12.5472
決意東還	-12.5472
漳王湊	-12.5472
盲老公	-12.5472
自主婚	-12.5472
莞	-12.5472
行婦禮自	-12.5472
謂叚氏曰	-12.5472
跂	-12.5472
遮虜障	-12.5472
那羅邇娑婆寐	-12.5472
郭彦欽	-12.5472
鈍如椎	-12.5472
開府置官屬	-12.5472
霸明習故事	-12.5472
槀	-12.5475
諸軍進攻	-12.5475
光烈皇后	-12.5475
大將誰也	-12.5475
不敢指斥	-12.5475
再舉之憂	-12.5475
待之彌厚	-12.5475
得良吏以	-12.5475
東平憲王蒼	-12.5475
清徽堂	-12.5475
秋多雨	-12.5475
綰請立明堂以朝諸侯	-12.5475
舸	-12.5475
𤣥纁備禮徵	-12.5475
光熙元年	-12.5476
兩漢博聞原序	-12.5476
河東上黨太原郡	-12.5476
大喜過望	-12.5476
奉盤錯	-12.5476
寛而内忌	-12.5476
賢不肖渾殽	-12.5476
㕑	-12.5476
一飯之恩	-12.5476
不敢徇私	-12.5476
乞地真	-12.5476
以妖妄惑衆	-12.5476
以孝謹聞乎郡國	-12.5476
内頓首伏青蒲上	-12.5476
卒教北人水戰	-12.5476
可毁之行則彼言	-12.5476
后家犯惡逆	-12.5476
土功不時蝗蟲為災	-12.5476
天生李晟	-12.5476
安帝紀永初	-12.5476
安彦威	-12.5476
宦官益横	-12.5476
宰相薦人勿問親疎	-12.5476
密告契丹	-12.5476
崔叔瓉	-12.5476
廆	-12.5476
徐傅言論不復以學問為長	-12.5476
得其善言不足喜惡言不足怒	-12.5476
徙居武徳殿	-12.5476
據所有均給	-12.5476
攻懸瓠	-12.5476
故有此處	-12.5476
於玉壁	-12.5476
更號曰皇帝	-12.5476
月給踰	-12.5476
有天發之言	-12.5476
有恢復河南之志	-12.5476
朋角勝	-12.5476
李宣城可	-12.5476
李希烈自稱天下都元帥	-12.5476
段后生子	-12.5476
浟	-12.5476
無所規益	-12.5476
眭邃	-12.5476
縱兵擊之	-12.5476
老奴矣即歸晉陽邑邑成疾不復起後唐	-12.5476
背闕而坐	-12.5476
艦數百艘	-12.5476
荆罕儒募刺客	-12.5476
薛真度	-12.5476
襃崇梁冀	-12.5476
遲鈍質朴	-12.5476
酒家保	-12.5476
陳憲守懸瓠	-12.5476
隂末赴	-12.5476
非百里才	-12.5476
饒舌老母	-12.5476
魏収撰魏書	-12.5476
鼓鼙之	-12.5476
廡	-12.5477
㯶	-12.5479
建和三年	-12.5479
鍪	-12.5479
尚乳臭	-12.5479
聖主不乗危	-12.5479
加罪戮	-12.5479
儈	-12.5479
專制河南中大同元年東魏	-12.5479
景常輕之曰此屬皆如豕突勢何所至景	-12.5479
沙土曰幕	-12.5479
䭾	-12.5479
互相譏揣	-12.5479
受學於甘陵周福及即	-12.5479
天下規矩房伯武因師獲印周仲進二家	-12.5479
時同郡河南尹房植有名當朝鄉人為之	-12.5479
由是甘陵有南北部黨人之議自此始矣	-12.5479
魏黄初二年	-12.5479
使使束帛加璧安車	-12.5479
未遑外	-12.5479
沐猴而冠	-12.5479
王臧為郎中令	-12.5479
者櫟陽尉徐晦獨至藍田與别太常卿權	-12.5479
者賈彪	-12.5479
芬	-12.5479
虜夜暮築長城	-12.5479
誠為厚矣無乃為累乎對曰晦自布衣	-12.5479
趙綰為御史大夫	-12.5479
合長生藥	-12.5479
如王莽然卒潤鑊伏	-12.5479
掌留務	-12.5479
歸操操曰	-12.5479
壬辰詔	-12.5479
母以子貴宜	-12.5479
齊建武二年魏髙祖	-12.5479
世反諸正	-12.5479
也匪徒	-12.5479
以四者為名	-12.5479
元朔二年主父偃	-12.5479
全忠之黨布列	-12.5479
六年唐主遣	-12.5479
前有趙張後有三王	-12.5479
卭竹杖	-12.5479
史籀所作	-12.5479
周子諒彈牛仙客非才	-12.5479
子無廢母之義	-12.5479
復事鎮使	-12.5479
悶	-12.5479
撰氏族志	-12.5479
文帝不明而喜察	-12.5479
有傳禪之志	-12.5479
李璨與安都	-12.5479
淳曰寡君	-12.5479
湘宫寺	-12.5479
為守禦之備	-12.5479
用人不掩其惡	-12.5479
立符伍以	-12.5479
義武節度使王處	-12.5479
與羣帥争先告捷	-12.5479
行五銖錢	-12.5479
衷甲以	-12.5479
訝	-12.5479
誰敢違	-12.5479
跂行喙息	-12.5479
郭伋為并州牧	-12.5479
金行之氣	-12.5479
長休告	-12.5479
陳永定三年周	-12.5479
霍王元軌	-12.5479
韋處厚諌敬宗	-12.5479
食鹽錢	-12.5479
養兵息民	-12.5479
髐	-12.5479
麒麟閣	-12.5479
絰	-12.548
畯	-12.5481
鼔之聲震	-12.5482
太建五年	-12.5482
乘王車黄屋左纛	-12.5482
伊傅周	-12.5482
天監五年	-12.5482
祧	-12.5482
菌	-12.5482
國置丞相以下官	-12.5482
柱下史	-12.5482
洛州刺史鄧羌帥	-12.5482
興兵誅討	-12.5482
以為沮衆	-12.5482
以興復為辭	-12.5482
兒戲耳	-12.5482
父在為母	-12.5482
莫知為計	-12.5482
之以此沛公得具知天下阨塞户口多少	-12.5482
今日逺謫豈得不與之别借如明公	-12.5482
元年沛公西入咸陽諸	-12.5482
内謁者監	-12.5482
勇如信布彊如梁籍	-12.5482
揚雄校獵賦云	-12.5482
紵	-12.5482
蚡俱好儒	-12.5482
見漢官威儀	-12.5482
上且上甘泉	-12.5482
上奏其畧曰	-12.5482
不摧折者	-12.5482
也韋昭曰大行	-12.5482
亨醢分裂又	-12.5482
多權畧	-12.5482
承範等至潼關	-12.5482
揚揚自得	-12.5482
晉安王子勛	-12.5482
曰臣請借前箸	-12.5482
父子死獄中家族	-12.5482
當馳道埋偶人	-12.5482
石公主私通	-12.5482
自天祐以來	-12.5482
至死罵不絶聲	-12.5482
親何如子之	-12.5482
詮	-12.5482
謂之山中宰相	-12.5482
不得月支要領	-12.5482
不犯顔忤㫖	-12.5482
人事未備	-12.5482
令我祭天	-12.5482
以自解免	-12.5482
以雄傑許	-12.5482
公羊墨守	-12.5482
其文為半兩	-12.5482
千秋金鏡錄	-12.5482
南山可移此判無動	-12.5482
司兖既平	-12.5482
天人致誅	-12.5482
契丹舒嚕后愛中子徳光	-12.5482
子壯則出	-12.5482
孟昭圖	-12.5482
岐守志	-12.5482
嵑	-12.5482
復上疏曰臣伏惟	-12.5482
復議伐高麗	-12.5482
恢復祖業	-12.5482
惎	-12.5482
戒其子勿以富貴陵人	-12.5482
救懸瓠	-12.5482
文宗好聴外議	-12.5482
旰厚斂以賂權貴	-12.5482
曰五日京兆	-12.5482
未聞姪為天子而	-12.5482
李彛殷	-12.5482
李絳必諫	-12.5482
楚王殷始建國	-12.5482
櫑具劍	-12.5482
歎太樂不備	-12.5482
泰寧節度使	-12.5482
為一世之雄	-12.5482
無不一當百	-12.5482
王延翰	-12.5482
盡鼓鳴則起晝	-12.5482
立宫殿置百官	-12.5482
羣下稱之曰殿下	-12.5482
聽民私鑄	-12.5482
自稱大閩國王	-12.5482
自稱富平侯家人	-12.5482
茂材異等	-12.5482
觀釁而動	-12.5482
觀隋煬帝集	-12.5482
訓諸子務存靜退	-12.5482
詔諸儒正五經文字	-12.5482
諓	-12.5482
通表建康	-12.5482
酲	-12.5482
重法以禁	-12.5482
金百鎰	-12.5482
銅虎符	-12.5482
錢百萬緡	-12.5482
鑄二銖	-12.5482
高祖集羣臣	-12.5482
㝢	-12.5482
賕	-12.5483
佽	-12.5484
軺	-12.5485
權在羣下政出多門	-12.5485
盻	-12.5485
帝嘗出射雉	-12.5485
色曰卿欲效	-12.5485
季夏黄	-12.5485
約非劉氏不王	-12.5485
和帝紀永元	-12.5485
惬	-12.5485
撫其背曰	-12.5485
據有江東	-12.5485
政以賄成	-12.5485
曰栢直	-12.5485
為平原太守	-12.5485
碭	-12.5485
舂者婦人	-12.5485
誎	-12.5485
語移日	-12.5485
陛下威㫁	-12.5485
音方目反	-12.5485
食以粱肉	-12.5485
侈貶憑臨賀尉	-12.5485
周行逢為武平節度使行逢多計數善發	-12.5485
應劭曰列仙𫝊	-12.5485
曰陛下父子之間臣	-12.5485
誹謗之木	-12.5485
不反之辭也	-12.5485
么麽	-12.5485
先鑿阬於	-12.5485
劉祐魏朗	-12.5485
可傳檄而定	-12.5485
熬	-12.5485
請讞時上常幸宣室齋居而決事	-12.5485
論語孝經	-12.5485
以金帛雇病坊貧人代行往往不能操兵	-12.5485
内侯三老五更皆以二千石禄養終厥身	-12.5485
勢使氣未嘗更戰陳聞當出征	-12.5485
季秋後	-12.5485
張衡西京賦	-12.5485
賈元友	-12.5485
賜榮爵	-12.5485
躓	-12.5485
下白旗滿野不見其際	-12.5485
不言帝王家	-12.5485
亦可况於御樓時宣宗餌方士藥已覺躁	-12.5485
付京兆杖殺之	-12.5485
以修職業	-12.5485
以右丞相讓	-12.5485
以誅宦官為己任	-12.5485
何以取信於後	-12.5485
來責讓	-12.5485
侵契丹之境	-12.5485
元嘉二十七年魏	-12.5485
元延元年	-12.5485
兵食有餘	-12.5485
典兵豫政	-12.5485
切諌以為天	-12.5485
加籩豆	-12.5485
大秦穆護祅僧	-12.5485
姦狀自	-12.5485
威襲父土地	-12.5485
居重馭輕之	-12.5485
左證左也	-12.5485
帛五百匹	-12.5485
幕僚嚴可求	-12.5485
張元素諌太子	-12.5485
待詔鄭朋	-12.5485
得寳皇㫖	-12.5485
徳宗謂李泌曰	-12.5485
有名且赦不可數宣宗不	-12.5485
朱友倫	-12.5485
李嶼僕夫	-12.5485
材輕非師傅之器	-12.5485
樐	-12.5485
機要司	-12.5485
欲御樓肆赦令狐綯曰御樓所費甚廣事	-12.5485
火生石中	-12.5485
盡鍾鳴則息	-12.5485
知詢代知誥	-12.5485
禀命然後	-12.5485
第五可範	-12.5485
絶糧士卒莫有鬬志是日黄巢前鋒軍抵	-12.5485
置之度外	-12.5485
羅浮山	-12.5485
羣臣上尊號曰	-12.5485
謂宫之外門為司馬門	-12.5485
造戰車	-12.5485
逢吉恐李紳量移	-12.5485
金百斤馬五十匹	-12.5485
願汝曹效	-12.5485
顥氣色	-12.5485
颯	-12.5485
駰	-12.5486
橈	-12.5487
由是衆心失望	-12.5488
張䖍朂	-12.5488
程務挺	-12.5488
豫州刺史韋叡	-12.5488
鑕	-12.5488
何徳以堪之	-12.5488
使將兵十萬專制河南杖任若已之半體	-12.5488
官師小吏	-12.5488
指畫形勢	-12.5488
郿	-12.5488
庾亮鎮武昌	-12.5488
徐兖二州刺史	-12.5488
竇章傳十	-12.5488
來無不摧	-12.5488
厭勝之術	-12.5488
宋審䖍等	-12.5488
我彊彼弱	-12.5488
斟酌時宜	-12.5488
朝夕且為相	-12.5488
王偉勸侯景	-12.5488
米入石頭	-12.5488
給軍賞	-12.5488
其後幸酒樂燕樂	-12.5488
外户不閉	-12.5488
天祐元年初	-12.5488
穿長安城引内灃水注第中大陂以行船	-12.5488
臭	-12.5488
迹其所以然	-12.5488
免官禁錮	-12.5488
徐晦不負楊	-12.5488
得無悔乎	-12.5488
御史中丞盧坦奏彈前山南西道節度使	-12.5488
日為讒人所逐晦敢自同路人乎	-12.5488
死無日矣	-12.5488
浙東觀察使閻濟美違赦進奉憲宗召坦	-12.5488
濞	-12.5488
簡彈京兆尹楊憑前為江西觀察使貪汚	-12.5488
越絶書	-12.5488
路不拾遺	-12.5488
陳光大元年齊	-12.5488
依山傍	-12.5488
兄終弟及	-12.5488
入洛陽止于	-12.5488
前三年張釋之	-12.5488
尚不及數子	-12.5488
春秋演孔圖曰	-12.5488
繫滿獄	-12.5488
號曰都䕶都䕶之	-12.5488
顧身嫌	-12.5488
也鈎陳	-12.5488
乳臭子	-12.5488
元嘉元年桓帝	-12.5488
公祐授首之徴	-12.5488
成德節度使安重榮	-12.5488
撰宋書	-12.5488
曰節愍	-12.5488
燒土為之	-12.5488
登城謂從	-12.5488
置墓中	-12.5488
詐冒事覺	-12.5488
誠非所宜	-12.5488
謂之穢史	-12.5488
賜但華衣怒馬	-12.5488
鈍	-12.5488
陳伐魏取陳蔡之	-12.5488
靁	-12.5488
上便宜三事	-12.5488
不敢絶馳道	-12.5488
二十年廣平忠侯	-12.5488
五城十二樓	-12.5488
休請早建太子	-12.5488
作定昆池	-12.5488
劉滋諫	-12.5488
助賊攻城	-12.5488
南北二庭	-12.5488
司馬門者宫	-12.5488
各如其帝色	-12.5488
吾愛之重之	-12.5488
嗣源功髙位重	-12.5488
嚴仲子	-12.5488
坐樹大鯁永言前	-12.5488
士馬精彊	-12.5488
多避讓	-12.5488
奉威王弟隆演稱淮南留後	-12.5488
姦或盜摩錢質而取鋊	-12.5488
宿衛之士曰彍騎	-12.5488
寶乎威王曰	-12.5488
左官外附	-12.5488
左雄有王臣蹇蹇之節	-12.5488
帝者諦也	-12.5488
從期門郎	-12.5488
忌方深聞之俛首不復言旬日慎由罷相	-12.5488
憂國奉公	-12.5488
挾巫蠱道	-12.5488
據全蜀	-12.5488
故也陛下踐阼	-12.5488
斬之送首	-12.5488
星光芒	-12.5488
暝	-12.5488
曰遣朕於何得名慎由曰陛下未建儲	-12.5488
月出逰	-12.5488
有謙讓之美	-12.5488
木寓龍	-12.5488
木柵以	-12.5488
李師悅	-12.5488
李徳裕請置備邊庫	-12.5488
椎冰以備周兵之逼	-12.5488
極言政治得失	-12.5488
歲入錢帛十	-12.5488
沈深有局度	-12.5488
注云間關猶	-12.5488
為標目	-12.5488
獄中上書告	-12.5488
王仁達有	-12.5488
王子弟地犬牙相制	-12.5488
田𢎞正送殺武元衡賊	-12.5488
百草為不芳	-12.5488
石敬瑭不欲與	-12.5488
神策軍士人賜	-12.5488
禪位東宫	-12.5488
竇憲請立	-12.5488
築複道	-12.5488
糞土之中	-12.5488
納東昏余妃	-12.5488
縰	-12.5488
胝	-12.5488
荀恱作申鑒五篇	-12.5488
萬乗器者	-12.5488
裴昭明	-12.5488
誣叛族誅	-12.5488
身没讓存	-12.5488
邠州王行瑜	-12.5488
郭廷謂	-12.5488
郭璞復上䟽請	-12.5488
鄧世隆	-12.5488
隱若一敵國	-12.5488
馬革裹尸還葬	-12.5488
叶	-12.5491
鞞	-12.5491
孝成趙皇后傳	-12.5491
官師一官之長	-12.5491
東西齊舉	-12.5491
南陽太守成瑨	-12.5491
藿	-12.5491
其差品	-12.5491
廕	-12.5491
用武之國	-12.5491
都官尚書孔範	-12.5491
髠鉗為	-12.5491
大長秋曹節因此諷有司奏	-12.5491
嬉戲無度	-12.5491
斮	-12.5491
榦	-12.5491
相署號共為部黨圖危社稷而儉為之魁	-12.5491
紫叢既謝前言曰臣所服緋刺史所借也	-12.5491
許慎説文	-12.5491
謀盡誅宦官	-12.5491
辛武賢	-12.5491
疾若飛	-12.5491
以飼馬	-12.5491
先文後武	-12.5491
外無救援	-12.5491
朕何敢違	-12.5491
楊思權	-12.5491
蜀郡太守成都	-12.5491
裔宜知禮義	-12.5491
誅趙王倫	-12.5491
閉門不出入猶用漢家祖臘	-12.5491
以義割恩	-12.5491
入諸臣之家	-12.5491
堅完可	-12.5491
榭	-12.5491
注李奇曰	-12.5491
甲乙丙丁	-12.5491
置酒沛宫	-12.5491
者行逢必先覺擒殺之所部凛然然性猜	-12.5491
趣讀曰促謂	-12.5491
過沛留	-12.5491
㓕	-12.5491
人君言動	-12.5491
圍高帝於	-12.5491
夏官侍郎	-12.5491
始建國三年王莽遣	-12.5491
孰敢哉	-12.5491
宋元嘉六年魏	-12.5491
張承範等將神	-12.5491
心以祭死者	-12.5491
惜銅愛工	-12.5491
或謂齊王曰	-12.5491
故能得其死力	-12.5491
書歎息以示	-12.5491
梓宫未返	-12.5491
正牙奏事	-12.5491
浄	-12.5491
為呉國内史	-12.5491
猨	-12.5491
甚可畏也	-12.5491
白水塘	-12.5491
皆用天子禮	-12.5491
直學士陳觀	-12.5491
矢外鄉	-12.5491
社稷之至計也	-12.5491
綖	-12.5491
纍纍	-12.5491
華克讓力戰自午至酉始觧士卒饑甚遂	-12.5491
處置得宜	-12.5491
行墨制	-12.5491
言和親之利	-12.5491
譟燒營而潰	-12.5491
趙綰王臧	-12.5491
蹄	-12.5491
逢曰光委數聚飲欲謀我邪即召還殺之	-12.5491
魅	-12.5491
䇿試制舉之士	-12.5491
上封事者多訐人細事	-12.5491
不敢詣西内	-12.5491
不欲數赦	-12.5491
之喜乃為親屈	-12.5491
也左傳曰	-12.5491
事契丹甚謹	-12.5491
以重差小	-12.5491
元康九年裴頠	-12.5491
入寢殿	-12.5491
六院兵馬	-12.5491
内諸司使	-12.5491
出何典禮	-12.5491
司馬主武	-12.5491
呉主問漢政得失	-12.5491
和熹鄧皇后紀	-12.5491
唐休璟	-12.5491
地方千里	-12.5491
多出其門	-12.5491
大俠朱安世	-12.5491
學短長	-12.5491
宦官共讒	-12.5491
庶子張元素	-12.5491
張綱獨埋	-12.5491
彎弓三百斤	-12.5491
徵辟皆不	-12.5491
明嘉靖	-12.5491
柴嶽明	-12.5491
注云山海經曰	-12.5491
涼州張駿	-12.5491
深怨李訓等	-12.5491
百官志二十	-12.5491
盗發漢霸杜二陵	-12.5491
相謂曰吾輩豈可不自愧乎遂相與輯睦	-12.5491
石之宗也	-12.5491
繢	-12.5491
習射於顯徳殿	-12.5491
舉繩牀以鬬而死所部千餘人至死無一	-12.5491
著崇讓論	-12.5491
蔡侯紙	-12.5491
蔵	-12.5491
贜	-12.5491
趙蓋韓楊之	-12.5491
身長八尺	-12.5491
軍旅數興	-12.5491
遷換去來	-12.5491
重四銖	-12.5491
銀錫白金	-12.5491
關隴之	-12.5491
音山爾反	-12.5491
京氏京房也	-12.5493
之叢自司勲	-12.5493
外郎出為睦州刺史入謝	-12.5493
輩宜用此為戒事有	-12.5494
引滿舉白	-12.5494
州刺史宗元	-12.5494
不亦鄙乎	-12.5494
以輜車	-12.5494
元興三年劉裕	-12.5494
刑不上大夫	-12.5494
天所以資	-12.5494
寸二分	-12.5494
排擯李德裕之黨	-12.5494
願熟思之	-12.5494
上書告儉與同鄉二十四人	-12.5494
不用其一故當時以緋紫為榮	-12.5494
主厚禮之	-12.5494
之務習先聖之術者縣次續食令與計偕	-12.5494
司空虞放	-12.5494
吸	-12.5494
沃野千里	-12.5494
牛叢趙璘輩數人使朕日聞所不聞足矣	-12.5494
與陳留阮	-12.5494
鄉人朱並	-12.5494
長江天塹	-12.5494
一至於此若	-12.5494
塾	-12.5494
掘地為阬	-12.5494
既據上流	-12.5494
朕甚愍之	-12.5494
相乾寧	-12.5494
大起府第壞公私廬舍以百數制與西	-12.5494
幸商第見穿城引水意恨内銜之	-12.5494
無為山陵陂池裁令流水而已	-12.5494
而取之夷簡曰君不負楊臨賀肯負國乎	-12.5494
臥	-12.5494
自貞元以	-12.5494
莽居攝	-12.5494
不願知譛者名天	-12.5494
季良等五留後	-12.5494
就席坐	-12.5494
常散遣人	-12.5494
李仁福	-12.5494
歸語汝主	-12.5494
碾	-12.5494
重征鹽商	-12.5494
䦨	-12.5494
下三十餘人肉袒降	-12.5494
以旰為西川節度使	-12.5494
伺國隙	-12.5494
僑	-12.5494
六月四日	-12.5494
分典大州	-12.5494
制軍政𢎞農威王	-12.5494
南唐張彦卿	-12.5494
南燕主超	-12.5494
卿所謂鐵中錚錚傭中佼佼者也	-12.5494
受先王大恩	-12.5494
句胡僧	-12.5494
啄	-12.5494
堪寄任代宗亦務姑息乃留鴻漸復知政	-12.5494
士皆長安富家子賂宦官竄名軍籍厚得	-12.5494
屐	-12.5494
嶬	-12.5494
帝由是竒釋之拜為中大夫	-12.5494
建和元年	-12.5494
弦露刃	-12.5494
彭城太守王𤣥謨	-12.5494
後漢天福十二年唐主	-12.5494
從理入口	-12.5494
所任者何人	-12.5494
掠取服	-12.5494
故太子重俊	-12.5494
教兒子不謹薄太后乃使使承詔赦太	-12.5494
晁公武讀書志	-12.5494
曰廢興命也	-12.5494
月食修刑	-12.5494
朝㑹議開陳其端使人主自擇不肯面折	-12.5494
李繼誨	-12.5494
梁王然後得入	-12.5494
棃	-12.5494
機失於遙制	-12.5494
泛駕之馬	-12.5494
然有聲又	-12.5494
留僧二十人	-12.5494
章懐太子	-12.5494
縱火焚吴船	-12.5494
羅希奭	-12.5494
臧宫馬武	-12.5494
褰裳	-12.5494
諸家注	-12.5494
賂劉夫人及權貴伶	-12.5494
趙髙指鹿為馬	-12.5494
跅弛之士	-12.5494
遣使乞降	-12.5494
酪	-12.5494
釋之追止太子梁王無得入殿門遂劾不	-12.5494
鍜鍊	-12.5494
隨手破	-12.5494
非從來征伐之意天下其誰不解體乎王	-12.5494
髙祖東擊	-12.5494
不見喜慍之色	-12.5494
令史設齋自慶	-12.5494
以山水文籍自娯	-12.5494
以盛滿為憂	-12.5494
入直決事號為四貴	-12.5494
兼聽則明偏信則暗	-12.5494
參謀帷幄	-12.5494
參謀議於禁中	-12.5494
各分道而去	-12.5494
后淫亂干預國政	-12.5494
君子不死之國	-12.5494
威名益盛	-12.5494
崇政院	-12.5494
巾一角	-12.5494
廢司馬尚	-12.5494
張允上駮赦論	-12.5494
所包容	-12.5494
挾才以為善	-12.5494
挾才以為惡	-12.5494
插	-12.5494
文帝欲經略中原	-12.5494
曳之而行言	-12.5494
有不拜之詔	-12.5494
杜預身不跨馬	-12.5494
歡攻玉壁	-12.5494
治獄之吏	-12.5494
獻三十字	-12.5494
知樞密德裕	-12.5494
知秦兵已敗	-12.5494
翥	-12.5494
自稱荆臺𨼆士	-12.5494
草表自訴言辭不遜	-12.5494
謂納履	-12.5494
賀六渾	-12.5494
賜姓名曰李	-12.5494
起䳨儀殿	-12.5494
距盟所	-12.5494
跼	-12.5494
造萬金堂於西園	-12.5494
鄭從讜	-12.5494
頗受藩鎮饋遺	-12.5494
鳯閣舍人	-12.5494
闊	-12.5495
京氏易	-12.5496
攢	-12.5497
外寛内	-12.5497
也大戴禮曰	-12.5497
必破之狀	-12.5497
請益兵詔	-12.5497
乃曰君除吏	-12.5497
卭莋之	-12.5497
王建楊行宻	-12.5497
皇閣徙倚歎息曰客星入翼軫今必敗矣	-12.5497
盡未吾亦欲除吏	-12.5497
笛	-12.5497
薦人或起家至二千石權移主上	-12.5497
重十二銖	-12.5497
魏兵且至元帝	-12.5497
齊明帝建武四年魏	-12.5497
以别於良人也	-12.5497
耘	-12.5497
蛤	-12.5497
内阬中	-12.5498
妹妻之	-12.5498
小信棄大信乎憲宗乃命歸所進於有司	-12.5498
扶疾入	-12.5498
熹平元年	-12.5498
爨	-12.5498
賞賜或半	-12.5498
重惜服章有司常具緋紫衣數襲從行以	-12.5498
頓兵堅城之下	-12.5498
頗采用	-12.5498
顯德二年	-12.5498
鬛	-12.5498
上令下從	-12.5498
事無大小悉以委之	-12.5498
全軍而返	-12.5498
刻板印	-12.5498
多藝能	-12.5498
故致爾耳此事安可久行恐後又嫌疎漏	-12.5498
春秋䜟曰	-12.5498
皆明珠文犀	-12.5498
益怒援妻孥惶懼不敢以䘮還舊塋	-12.5498
磐結不	-12.5498
礫	-12.5498
纓	-12.5498
非臣所及	-12.5498
之一舉可取	-12.5498
寧為國家死	-12.5498
以逸待勞	-12.5498
何如主也對曰	-12.5498
兵則家國兩危不留則家國兩安𦙍不從	-12.5498
外補以避之	-12.5498
[...]
