<unk>	0
<s>	0
</s>	0
之	-4.07045
而	-4.49025
以	-4.82661
也	-5.07504
其	-5.08689
為	-5.11909
者	-5.14548
有	-5.18962
於	-5.37848
不	-5.49657
一	-5.58521
公	-5.58915
人	-5.61297
則	-5.7662
無	-5.81606
自	-5.85069
與	-5.93045
行	-6.02196
如	-6.02809
子	-6.07642
大	-6.07801
君	-6.08153
時	-6.08563
中	-6.09171
得	-6.12185
事	-6.12479
曰	-6.14882
矣	-6.14901
生	-6.16396
在	-6.18525
上	-6.19409
是	-6.24482
此	-6.26593
所	-6.26748
然	-6.28005
文	-6.2887
山	-6.29011
至	-6.29361
天	-6.29482
見	-6.30719
亦	-6.30728
乎	-6.31988
書	-6.32477
又	-6.32526
心	-6.34296
言	-6.37822
出	-6.38781
日	-6.40312
道	-6.40877
故	-6.42127
若	-6.42853
焉	-6.43184
于	-6.46
已	-6.47247
可	-6.50058
皆	-6.50219
非	-6.50262
我	-6.50512
知	-6.50961
長	-6.5174
王	-6.52324
相	-6.5244
來	-6.52728
歸	-6.53287
名	-6.53737
下	-6.55003
三	-6.55456
今	-6.55747
當	-6.56556
多	-6.57949
作	-6.58063
乃	-6.58581
復	-6.59986
明	-6.62774
欲	-6.63703
家	-6.64038
且	-6.64925
及	-6.65524
吾	-6.65777
同	-6.65778
兮	-6.6592
成	-6.6597
先生	-6.67256
重	-6.67784
官	-6.68436
後	-6.68909
▁	-6.69144
方	-6.69383
水	-6.70004
用	-6.70835
去	-6.72243
世	-6.73803
將	-6.74225
入	-6.75141
從	-6.7575
風	-6.75839
未	-6.76138
清	-6.76465
學	-6.7708
何	-6.77097
二	-6.78455
能	-6.80427
臣	-6.8054
(	-6.80768
使	-6.81845
夫	-6.82769
即	-6.83268
惟	-6.83546
過	-6.84085
正	-6.84792
雖	-6.85288
聞	-6.85296
民	-6.85582
思	-6.86324
雲	-6.86349
逺	-6.87806
前	-6.88428
意	-6.88525
居	-6.88615
予	-6.88742
爲	-6.89509
深	-6.90035
必	-6.90052
或	-6.92424
諸	-6.93244
春	-6.94005
哉	-6.95025
既	-6.95078
詩	-6.95809
石	-6.95947
髙	-6.9666
獨	-6.97978
先	-6.98151
盡	-6.99187
地	-7.00544
遂	-7.00569
傳	-7.01195
分	-7.01425
老	-7.0158
處	-7.03415
因	-7.03776
令	-7.03945
實	-7.03945
起	-7.05128
間	-7.05311
士	-7.05493
安	-7.05769
應	-7.06284
徳	-7.06521
命	-7.06594
望	-7.06846
余	-7.07432
新	-7.07483
南	-7.08142
善	-7.08328
還	-7.08356
月	-7.08874
外	-7.09759
年	-7.09993
古	-7.10126
始	-7.10151
猶	-7.10581
數	-7.10964
志	-7.11686
難	-7.11982
本	-7.12484
兵	-7.13276
稱	-7.13713
金	-7.13891
小	-7.15318
身	-7.15453
初	-7.16095
耳	-7.16137
東	-7.16391
聲	-7.16572
氣	-7.16766
少	-7.17053
玉	-7.18093
問	-7.18133
門	-7.18399
好	-7.19408
舉	-7.19499
元	-7.19689
真	-7.1969
花	-7.1994
開	-7.19941
立	-7.20109
國	-7.20706
四	-7.20836
流	-7.21235
守	-7.21271
發	-7.21528
樂	-7.21643
易	-7.2166
兩	-7.21708
師	-7.21856
西	-7.21916
平	-7.22112
益	-7.22388
興	-7.22649
死	-7.22922
空	-7.23143
治	-7.23352
法	-7.2344
禮	-7.23685
不能	-7.23866
謂	-7.24119
尚	-7.24327
爾	-7.24698
經	-7.24932
張	-7.25045
論	-7.25093
情	-7.25325
甚	-7.25355
朝	-7.25407
觀	-7.25839
云	-7.26073
客	-7.2613
賢	-7.26183
神	-7.26422
親	-7.26443
更	-7.2698
送	-7.27071
五	-7.27385
常	-7.28115
馬	-7.28411
秋	-7.28533
陳	-7.28977
以為	-7.2906
城	-7.29222
近	-7.29242
通	-7.29648
白	-7.29752
周	-7.30744
字	-7.30997
取	-7.31534
題	-7.31821
固	-7.31879
州	-7.32077
義	-7.32408
夜	-7.32515
物	-7.3263
不可	-7.3322
語	-7.33257
光	-7.3405
舊	-7.34082
母	-7.34155
坐	-7.34411
合	-7.34528
和	-7.3476
江	-7.34889
定	-7.35266
求	-7.35385
寒	-7.36566
力	-7.37083
華	-7.37481
雨	-7.37677
别	-7.3871
林	-7.39239
請	-7.39622
龍	-7.39799
病	-7.40493
㑹	-7.40576
理	-7.41241
氏	-7.4158
莫	-7.41739
信	-7.42175
集	-7.42181
序	-7.42381
贈	-7.42861
宗	-7.43022
凡	-7.43164
卒	-7.43601
進	-7.4364
飛	-7.43985
辭	-7.44171
海	-7.44322
宜	-7.45104
節	-7.4518
致	-7.45901
直	-7.46169
黄	-7.4651
等	-7.46596
教	-7.46967
顧	-7.47088
圖	-7.47297
奉	-7.47377
動	-7.47439
翁	-7.47827
内	-7.48002
樹	-7.48522
各	-7.48671
/)	-7.48935
誠	-7.49343
共	-7.49515
向	-7.49851
扵	-7.50029
陽	-7.50153
李	-7.50333
才	-7.50788
色	-7.51055
)	-7.51245
視	-7.51584
歌	-7.51751
喜	-7.51978
侯	-7.52158
天下	-7.52367
九	-7.52776
終	-7.5353
/	-7.5406
賦	-7.54409
次	-7.54599
父	-7.55285
酒	-7.55292
某	-7.55829
漢	-7.55982
寄	-7.56008
弗	-7.56139
田	-7.5661
百	-7.56831
任	-7.57061
絶	-7.57334
似	-7.57689
豈	-7.57834
留	-7.58353
敬	-7.58509
縣	-7.58594
伯	-7.58846
萬	-7.58904
念	-7.59318
報	-7.59392
食	-7.59455
嘗	-7.59474
餘	-7.59527
政	-7.59654
仁	-7.59708
素	-7.60046
所以	-7.6015
路	-7.60284
記	-7.60719
期	-7.61584
足	-7.61784
堂	-7.61833
計	-7.62232
良	-7.62456
六	-7.62465
異	-7.63016
汝	-7.63748
嵗	-7.63932
功	-7.63996
斯	-7.64018
登	-7.64304
感	-7.65103
衣	-7.65128
衆	-7.65924
承	-7.66176
臺	-7.6654
修	-7.66542
度	-7.66577
彼	-7.6661
盖	-7.66676
高	-7.67005
女	-7.6701
德	-7.67443
草	-7.67518
青	-7.67561
封	-7.67651
著	-7.67757
不知	-7.67917
寧	-7.6844
謝	-7.6861
遊	-7.68714
受	-7.68903
幸	-7.69211
解	-7.69222
主	-7.69614
滿	-7.69668
誰	-7.69969
愛	-7.70211
貴	-7.70378
失	-7.70388
章	-7.7054
久	-7.70763
交	-7.7105
竹	-7.71711
君子	-7.72213
宋	-7.72216
首	-7.72443
服	-7.72483
北	-7.72887
俱	-7.73252
来	-7.733
性	-7.73433
嚴	-7.73616
耶	-7.73669
化	-7.73828
手	-7.7392
懐	-7.73924
識	-7.74011
勝	-7.74049
畫	-7.74342
孤	-7.74401
府	-7.74526
孫	-7.74625
再	-7.74958
存	-7.75312
極	-7.75461
落	-7.75493
溪	-7.75538
所謂	-7.75746
靈	-7.75997
鄉	-7.76424
仲	-7.77018
而不	-7.77147
具	-7.77168
臨	-7.77421
比	-7.77676
聖	-7.78198
便	-7.78341
遺	-7.78394
適	-7.78449
精	-7.785
容	-7.78513
到	-7.7854
養	-7.79091
止	-7.79113
都	-7.79441
祖	-7.79463
原	-7.80048
利	-7.80285
議	-7.80332
廣	-7.8057
隨	-7.80657
勞	-7.8077
景	-7.8093
由	-7.81048
夢	-7.81165
亂	-7.81735
武	-7.81769
尊	-7.81861
雪	-7.82075
尤	-7.82104
之所	-7.82156
看	-7.82215
目	-7.82636
就	-7.82636
要	-7.82952
持	-7.83081
對	-7.83119
屬	-7.83226
憂	-7.83693
忠	-7.83773
口	-7.83898
劉	-7.84017
載	-7.8418
加	-7.84682
連	-7.84737
遇	-7.84864
厚	-7.85396
美	-7.85645
幽	-7.86102
職	-7.86244
業	-7.86347
河	-7.86372
幾	-7.86389
兼	-7.86565
葢	-7.86779
省	-7.87017
賊	-7.87028
試	-7.87429
忽	-7.87441
香	-7.87487
繼	-7.87713
永	-7.87775
司	-7.87918
鳴	-7.87985
竒	-7.88019
隂	-7.88187
邊	-7.88221
齋	-7.8832
苦	-7.88357
将	-7.8853
制	-7.88588
野	-7.88628
輕	-7.88802
頭	-7.8883
兹	-7.88865
巻	-7.89094
吏	-7.89096
體	-7.89331
告	-7.89496
土	-7.89746
許	-7.89914
疑	-7.89916
郡	-7.89989
可以	-7.90158
亭	-7.90827
泉	-7.91215
散	-7.91606
唐	-7.91858
越	-7.92032
軍	-7.92199
羣	-7.922
者也	-7.92259
賜	-7.92306
惡	-7.92563
孝	-7.92655
榮	-7.93588
往	-7.93613
宫	-7.93648
帝	-7.94035
夀	-7.9412
如此	-7.94215
變	-7.94252
每	-7.94404
窮	-7.94609
半	-7.94758
疾	-7.94874
松	-7.95036
不得	-7.95264
待	-7.95412
史	-7.9546
木	-7.95691
盛	-7.95691
推	-7.9572
轉	-7.95762
遷	-7.95765
亡	-7.96138
顯	-7.96241
考	-7.96261
願	-7.96334
拜	-7.9639
樓	-7.96468
恩	-7.96532
里	-7.96654
於是	-7.96806
八	-7.96837
端	-7.97093
齊	-7.97538
卿	-7.97783
邑	-7.97842
積	-7.97916
工	-7.97936
舟	-7.98267
説	-7.98348
簡	-7.98511
務	-7.98699
愁	-7.98765
吳	-7.99068
右	-7.99137
備	-7.99234
千	-7.99336
照	-7.99391
驚	-7.99514
仙	-7.99633
全	-7.99694
楊	-7.99861
星	-7.99893
夏	-7.99927
蓋	-8.00008
指	-8.00073
克	-8.00193
曲	-8.00763
垂	-8.01224
𤣥	-8.0138
游	-8.01729
號	-8.01743
授	-8.01903
弟	-8.02038
悲	-8.02143
奏	-8.0271
負	-8.03151
謹	-8.03461
醉	-8.03786
徒	-8.03935
七	-8.03948
但	-8.04653
楚	-8.04664
引	-8.04718
聽	-8.04785
秦	-8.04982
友	-8.05472
尋	-8.05605
左	-8.05708
列	-8.0576
移	-8.06046
閒	-8.063
被	-8.06354
微	-8.06372
虚	-8.06533
塵	-8.06581
十	-8.06695
胡	-8.06968
讀	-8.07386
恐	-8.07552
謀	-8.07666
改	-8.07795
建	-8.08199
哀	-8.08307
崇	-8.08513
雙	-8.08561
達	-8.08567
表	-8.08629
率	-8.09013
筆	-8.09264
燕	-8.09449
俗	-8.09478
而已	-8.10066
特	-8.1041
薄	-8.10546
廢	-8.10747
軒	-8.10853
魚	-8.10876
朱	-8.10991
他	-8.11012
代	-8.11816
結	-8.12139
私	-8.12167
約	-8.12581
調	-8.12864
銘	-8.12901
果	-8.1291
乆	-8.13054
說	-8.13356
巳	-8.13509
室	-8.1358
仍	-8.13639
車	-8.13722
昔	-8.13783
勢	-8.14174
急	-8.14274
壽	-8.14309
最	-8.14323
其所	-8.14377
徐	-8.1438
川	-8.14494
飲	-8.14593
葉	-8.14909
庭	-8.15021
悉	-8.15351
兄	-8.15388
回	-8.15406
早	-8.15453
休	-8.15507
澤	-8.15517
選	-8.1554
施	-8.15583
英	-8.15634
羅	-8.16098
皇	-8.16567
咸	-8.16633
芳	-8.16857
仰	-8.16987
寺	-8.17237
慶	-8.17553
梁	-8.1783
荒	-8.1794
位	-8.18123
却	-8.18324
宿	-8.18785
不敢	-8.18895
嘉	-8.18909
郎	-8.18978
浮	-8.19092
笑	-8.19115
獲	-8.19149
維	-8.19267
習	-8.19351
順	-8.19505
兒	-8.19537
接	-8.19648
紀	-8.2007
須	-8.20186
並	-8.2024
藏	-8.20286
離	-8.20444
露	-8.20486
甫	-8.20593
殊	-8.20657
撫	-8.20736
累	-8.20761
斷	-8.21546
竟	-8.21848
隠	-8.21962
叔	-8.21968
有所	-8.22062
公之	-8.22147
紅	-8.22251
勤	-8.22483
脩	-8.22697
置	-8.22789
收	-8.22821
忘	-8.22903
儀	-8.22919
仕	-8.23011
曽	-8.23208
雅	-8.2334
火	-8.23693
厥	-8.23706
湖	-8.23894
况	-8.23904
疏	-8.24018
舍	-8.24037
孺人	-8.2405
歲	-8.24087
陵	-8.2414
薦	-8.24498
追	-8.24602
類	-8.24714
孟	-8.24829
息	-8.24992
詞	-8.25276
傷	-8.25382
除	-8.25397
保	-8.25842
切	-8.26169
刻	-8.2652
霜	-8.26819
覺	-8.27059
質	-8.27175
廟	-8.27308
錢	-8.27749
惠	-8.27781
附	-8.27901
貞	-8.27956
執	-8.27965
濟	-8.28002
闕	-8.28051
運	-8.28226
僕	-8.28396
形	-8.28763
賞	-8.28767
鶴	-8.2878
懷	-8.28838
太	-8.28846
祭	-8.28949
折	-8.29104
儒	-8.29275
漸	-8.29309
程	-8.29407
邪	-8.29428
閣	-8.29537
婦	-8.302
遣	-8.30318
敢	-8.30416
波	-8.30469
訓	-8.30644
沙	-8.30667
破	-8.30965
宣	-8.31066
福	-8.31105
曹	-8.31132
詔	-8.31166
第	-8.31367
反	-8.31417
冠	-8.31447
罪	-8.31717
銀	-8.31874
慕	-8.31945
池	-8.3213
倚	-8.32254
祠	-8.32483
音	-8.32542
昭	-8.32693
烟	-8.32698
擬	-8.32718
振	-8.32768
寳	-8.32968
之間	-8.33031
橋	-8.33194
伏	-8.33252
影	-8.33315
戒	-8.33327
依	-8.33343
威	-8.33449
趙	-8.33501
愈	-8.33835
為之	-8.33959
萬里	-8.34015
裏	-8.34071
走	-8.34337
只	-8.34342
族	-8.34407
鳥	-8.34424
闗	-8.34558
談	-8.34663
罷	-8.34793
退	-8.34849
雄	-8.35046
夷	-8.35181
恒	-8.35205
强	-8.35359
造	-8.35406
俾	-8.35429
夫人	-8.35494
補	-8.35511
揚	-8.35628
部	-8.35648
勿	-8.35681
呼	-8.3611
愚	-8.36185
梅	-8.36202
静	-8.36498
韻	-8.36504
録	-8.36514
召	-8.36572
晉	-8.36584
曾	-8.36913
隔	-8.37
慎	-8.37243
延	-8.37284
殘	-8.37373
戰	-8.37446
歴	-8.37706
沈	-8.37775
獻	-8.37797
資	-8.37803
機	-8.37812
曉	-8.3796
面	-8.38094
嗚呼	-8.38361
典	-8.38362
訪	-8.38546
徴	-8.38704
憶	-8.39171
堪	-8.39266
器	-8.3927
役	-8.39443
人之	-8.39548
象	-8.39606
充	-8.40248
篇	-8.40576
吟	-8.40596
佐	-8.40663
材	-8.40779
營	-8.41044
暮	-8.41074
竊	-8.41092
并	-8.41169
御	-8.41192
徃	-8.41207
陸	-8.41445
偏	-8.41545
衰	-8.41638
横	-8.41653
屋	-8.41698
降	-8.42479
示	-8.42502
園	-8.42523
委	-8.4259
操	-8.42725
市	-8.42787
商	-8.42808
鎮	-8.42917
逢	-8.42922
關	-8.42948
侍	-8.43073
千里	-8.43252
布	-8.43391
稍	-8.43395
虎	-8.4349
放	-8.4354
隱	-8.43562
一日	-8.43574
姑	-8.43606
秀	-8.43846
晚	-8.43856
恭	-8.43856
博	-8.43902
慮	-8.43967
履	-8.44116
抱	-8.44317
孰	-8.44381
設	-8.44561
殿	-8.44732
蘭	-8.44758
曰吾	-8.44812
顔	-8.44984
衛	-8.45362
不足	-8.45443
毋	-8.45446
逐	-8.45675
總	-8.46206
無所	-8.46309
呉	-8.46366
廷	-8.46446
恨	-8.46511
天地	-8.46516
敵	-8.4652
給	-8.46653
逸	-8.46866
足以	-8.46883
天子	-8.46914
丹	-8.46984
隆	-8.4702
逰	-8.47168
據	-8.47366
棄	-8.47538
翠	-8.4771
聖人	-8.4778
危	-8.47792
征	-8.47798
昌	-8.47919
候	-8.48056
懸	-8.4808
喪	-8.48196
屢	-8.48199
頗	-8.48208
丘	-8.48256
紫	-8.48327
迎	-8.48367
庶	-8.48463
偶	-8.48516
碧	-8.48566
殺	-8.486
烏	-8.4868
墓	-8.49196
靜	-8.49355
貧	-8.49412
效	-8.49499
鄭	-8.49735
細	-8.49781
魯	-8.49883
㣲	-8.50029
輒	-8.50122
兄弟	-8.50243
朝廷	-8.5051
僧	-8.50555
述	-8.50609
晩	-8.5061
源	-8.50659
避	-8.51047
富	-8.51051
至於	-8.51119
晴	-8.51126
聚	-8.51173
乗	-8.51269
投	-8.51291
領	-8.5132
而後	-8.51335
塞	-8.51663
帶	-8.51707
赴	-8.52305
子孫	-8.52324
讀書	-8.52468
村	-8.52474
惜	-8.52591
趨	-8.52593
處士	-8.52663
乞	-8.52687
采	-8.52924
之意	-8.52991
按	-8.53031
洞	-8.53301
違	-8.53329
京	-8.53347
葬	-8.53583
跡	-8.53889
差	-8.5397
春秋	-8.54057
不為	-8.54068
辱	-8.54088
憐	-8.54257
智	-8.54473
傾	-8.54626
之心	-8.54637
禁	-8.54716
之士	-8.55046
御史	-8.55258
古人	-8.55264
雜	-8.55279
寛	-8.55775
抑	-8.56169
妙	-8.56295
詳	-8.563
姓	-8.56426
答	-8.56681
谷	-8.56916
患	-8.56966
枝	-8.57053
勸	-8.57282
壯	-8.57393
藥	-8.57516
畏	-8.57542
夕	-8.5758
根	-8.57741
季	-8.57813
譜	-8.58159
虞	-8.58334
大夫	-8.58432
邦	-8.58533
種	-8.58611
吉	-8.58722
支	-8.58895
不及	-8.58904
祀	-8.58929
籍	-8.59009
堅	-8.59162
蘇	-8.59206
誦	-8.59397
狀	-8.59492
彦	-8.59602
峰	-8.59663
温	-8.59739
察	-8.60147
鼎	-8.60435
科	-8.60491
擢	-8.60546
縱	-8.60636
慰	-8.60648
覆	-8.607
醫	-8.60736
免	-8.60821
格	-8.61012
希	-8.61048
孔	-8.61085
懼	-8.61101
費	-8.61109
馳	-8.61344
牛	-8.6141
愧	-8.61593
今日	-8.61602
康	-8.61722
嗣	-8.61796
督	-8.61853
憲	-8.61896
豐	-8.62105
申	-8.62144
祥	-8.62151
一時	-8.6225
峯	-8.62278
權	-8.62974
府君	-8.6318
緑	-8.63321
三年	-8.634
也夫	-8.63401
末	-8.63428
船	-8.63486
甘	-8.63755
之後	-8.63797
匪	-8.63801
冬	-8.63854
靡	-8.63868
平生	-8.63906
輔	-8.64131
進士	-8.64336
肅	-8.64581
允	-8.64793
量	-8.64807
二首	-8.64935
淵	-8.65103
遲	-8.65127
佛	-8.65187
諸生	-8.65278
管	-8.65322
莊	-8.65369
歡	-8.65572
未嘗	-8.65608
畢	-8.6566
爭	-8.65867
專	-8.65938
納	-8.65946
錦	-8.66167
辨	-8.66245
責	-8.66276
父母	-8.66393
勉	-8.66397
韓	-8.66582
傍	-8.66615
郭	-8.66682
聴	-8.66708
甲	-8.66739
己	-8.66811
卧	-8.66967
招	-8.66976
菴	-8.67149
麗	-8.67157
乘	-8.67173
駕	-8.67262
栁	-8.67278
慈	-8.67281
盤	-8.67306
之道	-8.67413
當時	-8.67558
骨	-8.67683
庸	-8.6773
佳	-8.67734
擇	-8.67815
遥	-8.6804
短	-8.68058
含	-8.68226
不以	-8.68309
娶	-8.68413
躬	-8.68551
缺	-8.68589
的	-8.68644
耕	-8.68694
十年	-8.68718
於此	-8.68721
珠	-8.6883
丁	-8.68838
講	-8.68853
升	-8.69103
孔子	-8.69138
境	-8.69268
假	-8.69269
豪	-8.69286
疎	-8.69367
句	-8.69398
完	-8.69441
禄	-8.69634
謁	-8.69715
有司	-8.6976
例	-8.69766
學者	-8.69878
舞	-8.70009
怨	-8.70046
怒	-8.70214
絲	-8.7024
想	-8.70284
介	-8.70369
南京	-8.70429
席	-8.70475
蒼	-8.70667
洪	-8.70703
䇿	-8.70716
歎	-8.70781
其人	-8.70792
騎	-8.70837
白雲	-8.71005
攻	-8.7101
干	-8.71144
配	-8.71187
茂	-8.71338
徑	-8.71629
律	-8.71653
碑	-8.71684
㡬	-8.71724
蕭	-8.71791
鳳	-8.71894
瑞	-8.72107
何以	-8.72113
陶	-8.7228
鴻	-8.72368
足下	-8.72526
錫	-8.72562
繁	-8.72566
不見	-8.72802
陞	-8.72807
徵	-8.72892
文章	-8.73022
衡	-8.73174
險	-8.73226
館	-8.73309
繫	-8.73329
否	-8.73335
左右	-8.73381
監	-8.7342
殆	-8.73544
淚	-8.73556
徙	-8.73636
諭	-8.73639
墨	-8.74089
䝉	-8.74495
寡	-8.74605
巖	-8.74643
鳯	-8.74677
祝	-8.74775
可謂	-8.74833
宅	-8.7502
虛	-8.7529
索	-8.75292
痛	-8.75358
唯	-8.75381
歳	-8.75408
天下之	-8.75565
敗	-8.75597
畧	-8.7562
其子	-8.75997
歟	-8.76007
蜀	-8.76037
賔	-8.76051
覽	-8.76096
京師	-8.76151
借	-8.76328
釋	-8.76418
條	-8.7647
諱	-8.76615
寓	-8.76678
撰	-8.76713
篤	-8.76749
鼓	-8.77096
了	-8.7743
困	-8.7746
刑	-8.77494
縁	-8.77706
步	-8.78103
瞻	-8.7812
茍	-8.78222
羽	-8.78491
房	-8.78516
井	-8.78815
㳺	-8.7885
煩	-8.78907
僅	-8.79052
煙	-8.79053
相與	-8.7909
之言	-8.79172
㫖	-8.79239
嶺	-8.79274
環	-8.79278
荷	-8.79293
藉	-8.79334
院	-8.79509
者皆	-8.79566
鮮	-8.79574
亦有	-8.79619
鍾	-8.79653
嗟	-8.79679
編	-8.80213
署	-8.80278
其事	-8.80544
牧	-8.80596
厯	-8.80617
啓	-8.80765
奚	-8.81071
魏	-8.81124
賀	-8.81452
聊	-8.81506
寫	-8.81835
沒	-8.81896
毎	-8.82234
害	-8.82446
參	-8.825
貢	-8.82521
底	-8.82569
寵	-8.82632
爵	-8.82715
盈	-8.82886
户	-8.82899
翻	-8.82994
會	-8.83065
符	-8.83179
故人	-8.83341
逹	-8.83452
享	-8.83516
悟	-8.83531
託	-8.83587
頻	-8.83669
射	-8.83742
廬	-8.83777
旣	-8.83794
尚書	-8.83805
杜	-8.83843
狂	-8.83892
毛	-8.83922
哭	-8.83968
詠	-8.84001
何處	-8.84207
頌	-8.84466
赤	-8.84546
漫	-8.84559
一人	-8.84599
扶	-8.84639
桂	-8.84654
肆	-8.84698
藩	-8.84854
謙	-8.84909
琴	-8.84939
吹	-8.85049
忍	-8.85137
閩	-8.85187
裁	-8.85331
續	-8.85356
寜	-8.856
必有	-8.85667
齒	-8.85723
君之	-8.85773
獄	-8.85854
者乎	-8.85899
増	-8.85914
米	-8.85923
百年	-8.85977
誤	-8.86001
優	-8.86013
農	-8.86044
言之	-8.86158
掌	-8.86182
剛	-8.86376
迷	-8.86414
侵	-8.86441
消	-8.86522
統	-8.86675
純	-8.86677
途	-8.86688
鴈	-8.86703
邉	-8.86756
掩	-8.86893
階	-8.86911
以爲	-8.87091
禍	-8.87125
翼	-8.87237
烈	-8.87476
逆	-8.87539
奪	-8.87704
輩	-8.87834
供	-8.87878
眼	-8.87942
熟	-8.88014
至今	-8.88092
也而	-8.88321
奔	-8.88433
舎	-8.8877
助	-8.88962
倫	-8.8898
争	-8.8957
擊	-8.89649
也其	-8.89792
敏	-8.89814
壁	-8.8994
植	-8.89944
旁	-8.90115
阿	-8.90146
味	-8.90265
糧	-8.90412
均	-8.90458
産	-8.90557
嘆	-8.90717
浪	-8.91009
背	-8.91261
卜	-8.91308
童	-8.91541
社	-8.91563
趣	-8.91661
犯	-8.9177
卑	-8.91774
山中	-8.91921
式	-8.91929
厲	-8.91957
風雨	-8.91966
戴	-8.92032
凝	-8.92066
校	-8.92131
注	-8.92183
俊	-8.92311
乾	-8.92362
是以	-8.92497
角	-8.92564
曠	-8.92641
震	-8.92758
讓	-8.92796
青山	-8.92797
者亦	-8.92799
其後	-8.9281
豈不	-8.93009
之學	-8.93081
霞	-8.93102
譽	-8.93167
襲	-8.93792
未有	-8.93834
奮	-8.93866
審	-8.93975
之事	-8.94052
吏部	-8.94085
世之	-8.94209
宻	-8.9426
古今	-8.94392
也故	-8.9445
卷	-8.94486
循	-8.9452
執事	-8.94532
輙	-8.94979
屈	-8.94994
謂之	-8.9501
屏	-8.95242
嘉靖	-8.95377
十二	-8.95405
宴	-8.95469
弱	-8.95525
住	-8.95557
冷	-8.95627
賈	-8.95728
勇	-8.95856
激	-8.96017
其心	-8.96357
何如	-8.96372
也今	-8.9638
戚	-8.96387
超	-8.96409
春風	-8.9644
燈	-8.9667
丈	-8.96713
預	-8.97094
妄	-8.97107
旋	-8.97156
叙	-8.97553
厭	-8.97707
遽	-8.97805
窺	-8.97852
國家	-8.98034
伐	-8.98041
偉	-8.9815
禪	-8.98186
弊	-8.98284
托	-8.98399
泣	-8.98437
後世	-8.98455
靖	-8.98482
明年	-8.98499
以來	-8.9852
學士	-8.98573
之地	-8.9872
彌	-8.98759
凌	-8.9876
欽	-8.98846
規	-8.98853
蕩	-8.98882
秉	-8.98933
如何	-8.99357
無不	-8.99382
呈	-8.99417
返	-8.99482
該	-8.9949
决	-8.99539
斗	-8.99562
淺	-8.99582
江南	-8.9975
劍	-8.99784
滅	-8.99805
皇上	-8.9988
江西	-9.00003
之功	-9.00052
拂	-9.00085
雷	-9.00099
妻	-9.00128
財	-9.00148
沉	-9.00199
擁	-9.00229
宇	-9.00361
上下	-9.00435
岡	-9.00469
凉	-9.00481
䘮	-9.00573
人也	-9.00635
旅	-9.0086
旌	-9.00892
巢	-9.01096
有餘	-9.01197
日月	-9.01294
四方	-9.01304
契	-9.01503
泥	-9.01562
副	-9.0158
防	-9.01604
潤	-9.01898
巧	-9.02062
酬	-9.02146
尹	-9.02264
人心	-9.02288
究	-9.0241
荆	-9.02429
瓊	-9.02479
遠	-9.02642
班	-9.02666
不復	-9.02691
將軍	-9.02823
暫	-9.02972
渡	-9.03121
映	-9.03136
黙	-9.03294
覩	-9.033
泰	-9.034
輝	-9.0343
三月	-9.03437
潮	-9.03503
苟	-9.0355
没	-9.03551
藝	-9.03625
殷	-9.03699
棲	-9.03717
迹	-9.03791
巨	-9.04151
岸	-9.04376
漁	-9.04694
吐	-9.04828
潔	-9.04846
肯	-9.0498
㸔	-9.05159
績	-9.05275
然而	-9.05445
啟	-9.05508
洪武	-9.05579
塘	-9.05648
晨	-9.05732
掃	-9.05877
旦	-9.05958
然後	-9.05996
印	-9.05999
曷	-9.06093
陛下	-9.06107
玩	-9.06194
紛	-9.06571
其二	-9.06583
昏	-9.06594
革	-9.06711
術	-9.06874
淮	-9.06888
買	-9.07122
展	-9.07298
付	-9.07546
際	-9.07638
速	-9.07874
尺	-9.07939
眠	-9.08138
艱	-9.08146
亟	-9.08293
阻	-9.08323
七十	-9.08581
宦	-9.08638
菊	-9.08719
明月	-9.0878
知其	-9.08804
逮	-9.08891
快	-9.08974
而無	-9.09087
競	-9.09154
之人	-9.09183
陰	-9.09298
秩	-9.09501
董	-9.09642
柔	-9.09654
浦	-9.09696
觴	-9.09742
不忍	-9.09757
大臣	-9.09873
岳	-9.10035
迴	-9.10067
淳	-9.10319
係	-9.10369
之為	-9.10442
蒙	-9.10517
暴	-9.10571
洲	-9.10635
賴	-9.10779
其言	-9.10798
血	-9.1082
氷	-9.10824
品	-9.11017
鄰	-9.11064
他日	-9.11211
踰	-9.11534
警	-9.11624
停	-9.11656
敦	-9.11714
太守	-9.11928
偕	-9.11934
山水	-9.12178
自是	-9.12295
蔡	-9.12352
貪	-9.12428
抵	-9.12454
飾	-9.1246
誅	-9.12475
饒	-9.12543
鬼	-9.12567
遵	-9.12574
不勝	-9.12722
人間	-9.12886
怪	-9.13018
歩	-9.13073
蔽	-9.13126
其志	-9.13126
披	-9.13128
以是	-9.13128
損	-9.13314
貫	-9.13452
盜	-9.13465
辰	-9.13558
盧	-9.13606
粟	-9.13649
也然	-9.13761
帖	-9.13851
遭	-9.14015
暗	-9.14094
儲	-9.14099
俯	-9.14157
幼	-9.14187
驅	-9.14206
敷	-9.14294
珍	-9.14305
丞	-9.144
築	-9.14565
其家	-9.14587
佩	-9.14648
育	-9.14719
贊	-9.14844
渠	-9.15016
矣而	-9.15016
奸	-9.15319
燭	-9.15344
緩	-9.15472
渾	-9.15536
占	-9.1579
舒	-9.1579
敎	-9.1588
地方	-9.16003
不肖	-9.16007
驛	-9.16018
澄	-9.1602
鸞	-9.16284
崖	-9.16285
千載	-9.16372
晝	-9.16386
把	-9.16387
不必	-9.16477
稀	-9.16503
其間	-9.16513
爰	-9.1654
東南	-9.16557
枯	-9.16578
探	-9.16701
垣	-9.16858
宰	-9.17016
之曰	-9.17092
拙	-9.17274
羊	-9.17285
父子	-9.17318
夫子	-9.17568
亦不	-9.1758
莫不	-9.17656
宏	-9.17715
戎	-9.17719
津	-9.17978
淑	-9.1806
午	-9.1819
出於	-9.18221
傅	-9.18262
悔	-9.18301
往往	-9.18357
澗	-9.18462
辟	-9.18601
錯	-9.18613
漏	-9.18711
鹽	-9.18726
值	-9.1875
酌	-9.18897
逃	-9.18959
之盛	-9.18977
錄	-9.19004
之際	-9.19023
輿	-9.19028
麟	-9.19062
𢎞	-9.1912
不如	-9.19142
者其	-9.19409
稽	-9.19434
囘	-9.19592
先生之	-9.19611
倦	-9.19754
催	-9.20066
成化	-9.20146
貌	-9.20322
長安	-9.20332
響	-9.20348
側	-9.20383
不同	-9.20399
郊	-9.20406
得其	-9.20635
賛	-9.20815
之外	-9.20976
奠	-9.21019
眀	-9.2111
練	-9.21197
脱	-9.21216
鄙	-9.21499
倍	-9.21599
馮	-9.21619
士大夫	-9.21739
強	-9.21745
救	-9.21746
黨	-9.21765
俟	-9.21947
奇	-9.22048
舜	-9.22063
饑	-9.22063
那	-9.22069
其中	-9.22295
吕	-9.22389
司馬	-9.22401
不可以	-9.22431
晦	-9.22441
輸	-9.22493
亷	-9.22545
洗	-9.22574
略	-9.22575
之義	-9.22876
圍	-9.22887
啼	-9.22966
閑	-9.22987
陋	-9.23067
之時	-9.23085
密	-9.23086
范	-9.23099
欺	-9.23134
山川	-9.23309
禹	-9.23454
不佞	-9.23487
繞	-9.23573
圗	-9.23667
驗	-9.23732
罔	-9.23748
課	-9.23777
圓	-9.23827
不足以	-9.23938
挾	-9.24001
稿	-9.24061
雞	-9.24139
屯	-9.24239
援	-9.24293
杖	-9.24316
策	-9.24341
勲	-9.24371
斥	-9.24447
忌	-9.24514
低	-9.24527
者必	-9.24564
苑	-9.2468
奈何	-9.24962
爽	-9.2501
其身	-9.25033
竭	-9.25051
湯	-9.25059
古之	-9.25233
查	-9.25243
滋	-9.25255
鏡	-9.25255
伊	-9.25322
隣	-9.25335
以自	-9.25351
鬱	-9.25423
遐	-9.25492
鐘	-9.25513
庶幾	-9.25587
魂	-9.25601
諸公	-9.25636
朕	-9.25858
吴	-9.25893
銘曰	-9.25895
不然	-9.25919
柳	-9.26014
秋風	-9.26102
孟子	-9.26476
霧	-9.26541
䟽	-9.26836
諫	-9.26872
束	-9.26921
桑	-9.26933
太平	-9.27324
騰	-9.27352
釣	-9.27443
賤	-9.27552
像	-9.27563
濕	-9.27573
誣	-9.27897
塟	-9.27971
中丞	-9.28024
朱子	-9.28058
裕	-9.28085
彭	-9.28185
見其	-9.28259
踈	-9.28263
寸	-9.2832
白日	-9.28333
璧	-9.28363
茶	-9.28449
茅	-9.28505
弟子	-9.28569
額	-9.28678
河南	-9.2874
訟	-9.2883
耀	-9.28861
乎其	-9.2899
併	-9.2906
案	-9.29064
翔	-9.29093
寢	-9.29202
倉	-9.29287
逝	-9.29292
千古	-9.29329
六十	-9.2937
藻	-9.2937
貽	-9.29565
帥	-9.29595
乾坤	-9.29694
區區	-9.29856
聖賢	-9.29889
斜	-9.30006
毁	-9.3016
蓬	-9.30199
恃	-9.30261
之所以	-9.3028
決	-9.30409
亨	-9.30428
蚤	-9.30475
矜	-9.30498
二子	-9.30501
得之	-9.30554
𦵏	-9.30642
内外	-9.30753
不過	-9.30755
輪	-9.30836
惑	-9.30903
不盡	-9.31005
翰	-9.31071
頓	-9.31174
枕	-9.31175
不忘	-9.31193
嶽	-9.31204
以此	-9.31224
叢	-9.31244
叅	-9.31254
潛	-9.31367
尾	-9.31382
勵	-9.31435
緒	-9.31655
富貴	-9.31713
墮	-9.31816
㸃	-9.31863
朔	-9.31867
者非	-9.31877
炎	-9.31925
倒	-9.32123
胥	-9.32208
安得	-9.3232
者矣	-9.32331
䕶	-9.32332
座	-9.32368
餉	-9.32371
卓	-9.32372
憑	-9.32534
刀	-9.32728
知之	-9.32771
人皆	-9.32788
一二	-9.32815
朝夕	-9.32836
妾	-9.3288
如是	-9.3293
劇	-9.32935
四海	-9.32963
寂	-9.33
子弟	-9.33068
較	-9.33089
冀	-9.3309
況	-9.33097
冦	-9.33167
未能	-9.33259
聞之	-9.33268
紹	-9.33402
羞	-9.33438
杯	-9.33704
提	-9.33801
悠悠	-9.33831
筵	-9.33854
基	-9.33904
出入	-9.34317
穆	-9.34347
澹	-9.34359
堯	-9.34362
今年	-9.34526
之餘	-9.34689
倡	-9.34724
鄉人	-9.34737
弄	-9.34825
太史	-9.34872
恤	-9.34961
禽	-9.3507
二十	-9.35089
衝	-9.3517
聘	-9.35185
六月	-9.35249
二年	-9.3528
之志	-9.35351
而又	-9.35485
有以	-9.35539
三十	-9.35561
刺	-9.3565
喻	-9.35748
潭	-9.35788
祗	-9.35846
峻	-9.35896
傑	-9.35953
褒	-9.36061
矢	-9.36215
姿	-9.36464
衍	-9.36585
寶	-9.36599
旗	-9.368
綺	-9.36828
詩書	-9.36864
五十	-9.37049
而為	-9.37122
肉	-9.37173
泛	-9.37245
徹	-9.37352
誇	-9.37417
鑒	-9.37488
焚	-9.37546
衣冠	-9.37592
襟	-9.37593
伸	-9.3774
湘	-9.37754
辦	-9.37784
伍	-9.37848
於人	-9.379
飯	-9.38089
膺	-9.38132
郎中	-9.38207
悦	-9.3826
黃	-9.38389
江湖	-9.38433
暇	-9.38518
滯	-9.38554
汪	-9.38631
不在	-9.38858
長者	-9.38952
蒲	-9.39099
腹	-9.39115
潜	-9.39124
融	-9.39232
五月	-9.39242
一旦	-9.39253
價	-9.39373
海内	-9.39453
宵	-9.3946
豫	-9.39567
少年	-9.39665
亮	-9.39679
𢎞治	-9.39867
二月	-9.39928
涉	-9.39955
頃	-9.4002
人生	-9.40184
一言	-9.40207
然則	-9.40251
範	-9.40297
整	-9.4039
局	-9.40433
牽	-9.40435
曰此	-9.40446
芙蓉	-9.40491
㢤	-9.40634
增	-9.4065
紙	-9.40664
壇	-9.40776
樵	-9.40811
梅花	-9.40844
話	-9.40872
檄	-9.40883
山人	-9.40972
浩	-9.41039
臣等	-9.41049
不自	-9.41081
態	-9.41097
健	-9.41111
山東	-9.41164
眞	-9.41176
昧	-9.41241
矧	-9.41247
由是	-9.41304
乏	-9.41349
其先	-9.41505
盗	-9.41539
敝	-9.41607
逾	-9.41613
浙	-9.41649
割	-9.41721
戀	-9.41778
辯	-9.41787
綱	-9.418
夙	-9.4191
囊	-9.42008
脫	-9.42192
孚	-9.42193
諸子	-9.4231
勅	-9.42367
咨	-9.42488
洛	-9.42495
袁	-9.42539
民之	-9.4256
壺	-9.42643
遍	-9.42653
潘	-9.42653
髪	-9.42662
戍	-9.42703
為人	-9.42837
穿	-9.42964
之子	-9.43013
蓮	-9.43178
禮部	-9.43228
其地	-9.4327
恵	-9.43318
繇	-9.43355
昨	-9.4349
八月	-9.43529
無窮	-9.43558
歸來	-9.43667
謬	-9.43689
之法	-9.43712
八十	-9.43823
涼	-9.43829
擅	-9.43905
飄	-9.43911
飭	-9.44063
鐵	-9.44157
后	-9.4424
其意	-9.44283
矣然	-9.44302
顛	-9.4433
第一	-9.44335
削	-9.4441
摧	-9.44468
採	-9.44476
盟	-9.44535
之日	-9.44547
淡	-9.4458
而有	-9.44598
墜	-9.44644
䖏	-9.44657
禮樂	-9.44675
草木	-9.44763
今之	-9.44791
鑿	-9.44872
壑	-9.44902
殁	-9.44956
觸	-9.4497
致仕	-9.44996
者則	-9.44997
是非	-9.45085
導	-9.4516
誥	-9.45345
㓜	-9.45355
界	-9.45377
揮	-9.45405
皆有	-9.45645
標	-9.4566
是故	-9.4572
抗	-9.45731
之上	-9.45839
暨	-9.45902
迫	-9.45934
使人	-9.4594
侍御	-9.45949
)(	-9.4596
創	-9.46065
斬	-9.46189
豈非	-9.46214
攝	-9.46285
纔	-9.46321
閲	-9.46362
翰林	-9.46374
慚	-9.46375
醒	-9.46531
従	-9.46661
其父	-9.46733
皇帝	-9.46794
塗	-9.46795
弓	-9.46853
於世	-9.46935
戸	-9.46951
齡	-9.46974
添	-9.47022
四十	-9.47144
又曰	-9.4722
溢	-9.47273
歛	-9.47326
勒	-9.47471
賓	-9.47495
眷	-9.47528
誼	-9.47531
之不	-9.47573
磨	-9.47597
閱	-9.47711
一切	-9.47716
又有	-9.47723
揺	-9.47765
明日	-9.47788
也吾	-9.47833
簾	-9.47888
攀	-9.48111
詣	-9.48162
儉	-9.48192
江上	-9.48289
偽	-9.48358
宜人	-9.48408
羡	-9.4844
襄	-9.48454
駐	-9.48493
挽	-9.48531
庵	-9.48603
不朽	-9.48737
之文	-9.48741
圃	-9.4886
使者	-9.48873
捐	-9.48874
播	-9.49063
喬	-9.49165
眉	-9.49194
永樂	-9.49208
子曰	-9.49288
着	-9.49351
次韻	-9.49358
懽	-9.49386
金陵	-9.49456
擾	-9.49606
塲	-9.49611
之民	-9.49646
怠	-9.49676
郷	-9.49722
榖	-9.49739
君子之	-9.49844
鉅	-9.4987
髮	-9.49946
遙	-9.49949
驕	-9.49982
監察御史	-9.50081
謫	-9.50195
見之	-9.50195
邀	-9.50201
太夫人	-9.50215
未嘗不	-9.50477
攜	-9.50644
迂	-9.50645
邁	-9.50684
姦	-9.50696
嫌	-9.50739
捕	-9.50749
則有	-9.50822
南北	-9.50865
不幸	-9.50904
從容	-9.51149
鹿	-9.51261
劒	-9.5128
冊	-9.51301
鄒	-9.51432
蹈	-9.51539
之中	-9.51629
茲	-9.51642
蓄	-9.51657
諸侯	-9.51664
枉	-9.51832
曰是	-9.51851
之故	-9.5193
可也	-9.52078
飽	-9.52092
兆	-9.52225
銜	-9.52225
甞	-9.52283
彰	-9.52411
属	-9.52421
王氏	-9.52438
戲	-9.52444
姚	-9.5256
貲	-9.52689
災	-9.52764
溺	-9.5281
何人	-9.52831
嫁	-9.52874
暑	-9.52878
之則	-9.53036
懿	-9.53175
子之	-9.5329
時時	-9.53297
所為	-9.53337
黄金	-9.53342
蕃	-9.53459
以示	-9.53487
徧	-9.53499
萬物	-9.53523
百里	-9.53594
迺	-9.53598
肥	-9.53612
憤	-9.53645
已而	-9.53674
製	-9.53678
嵩	-9.53764
不肯	-9.53785
太學	-9.53792
碩	-9.53924
十月	-9.5393
懋	-9.54112
固有	-9.54148
之賢	-9.54215
韶	-9.54255
周公	-9.54267
桃	-9.54297
小人	-9.54314
鑑	-9.54353
諒	-9.54433
巡	-9.54481
攸	-9.54534
群	-9.54612
黎	-9.54645
文學	-9.54679
喧	-9.54708
熊	-9.54722
用之	-9.54737
銅	-9.55004
㫁	-9.55026
其名	-9.55061
繡	-9.55134
而下	-9.55138
魁	-9.55141
渚	-9.55265
冒	-9.55617
故曰	-9.5566
毫	-9.55699
恥	-9.55736
門下	-9.55763
衞	-9.55817
詢	-9.55825
十五	-9.55828
弔	-9.55897
濤	-9.55903
穴	-9.56216
若此	-9.56218
𥘉	-9.56226
洽	-9.56253
随	-9.56254
専	-9.56258
不至	-9.5632
若是	-9.56463
祈	-9.56507
層	-9.56515
其為	-9.56558
功名	-9.56598
是也	-9.5665
王公	-9.56734
倘	-9.57034
摩	-9.57131
行之	-9.57158
侈	-9.5716
芝	-9.57204
之說	-9.57215
咎	-9.57279
者有	-9.5734
闢	-9.57556
臯	-9.57735
流水	-9.57784
相逢	-9.57874
矯	-9.57987
協	-9.58126
觧	-9.58148
道之	-9.58153
誓	-9.58291
俞	-9.58348
者不	-9.58352
以其	-9.58457
終身	-9.58661
無事	-9.5876
朋	-9.58961
之至	-9.59004
欵	-9.59009
斂	-9.5901
仗	-9.59027
三日	-9.59068
者又	-9.59177
其親	-9.59342
頼	-9.59405
毒	-9.59415
清風	-9.59596
至是	-9.59678
促	-9.59759
男	-9.59795
秘	-9.59809
蔵	-9.59826
悼	-9.59929
中有	-9.59942
彈	-9.5998
荅	-9.59984
浮雲	-9.60097
哲	-9.60143
乍	-9.60144
搆	-9.60171
雖然	-9.6038
孝友	-9.60526
効	-9.6061
墳	-9.60804
猷	-9.60808
之徒	-9.60853
紛紛	-9.60883
暢	-9.6089
蠻	-9.60898
毅	-9.60922
詎	-9.60946
海上	-9.61026
後人	-9.61068
文武	-9.61228
久之	-9.6127
銷	-9.6139
暖	-9.61394
叩	-9.61493
無以	-9.61519
羨	-9.61562
落日	-9.61632
檢	-9.61687
台	-9.61793
榜	-9.61939
賦詩	-9.61979
風流	-9.61988
若干	-9.61999
又何	-9.62061
南山	-9.62098
則又	-9.62104
禦	-9.62169
沾	-9.62198
九月	-9.62291
使君	-9.62415
葛	-9.62502
東風	-9.62507
僚	-9.62557
不欲	-9.62628
状	-9.62664
棹	-9.62694
者以	-9.6273
之才	-9.62745
桃花	-9.62748
之説	-9.62781
活	-9.62829
彩	-9.62965
欽定四庫全書	-9.63047
𨽻	-9.63141
東西	-9.63242
姪	-9.6325
文字	-9.63467
媚	-9.63526
虹	-9.63532
未幾	-9.63552
軰	-9.63556
證	-9.63615
扇	-9.63656
岩	-9.63685
自有	-9.6383
拘	-9.63893
伴	-9.63933
減	-9.6395
欣	-9.63993
鞭	-9.64009
廉	-9.6406
及其	-9.64076
風塵	-9.641
絃	-9.6411
前後	-9.64218
邵	-9.64358
淪	-9.64403
矣夫	-9.64412
徽	-9.64421
晏	-9.64712
鱗	-9.64732
障	-9.64751
二人	-9.64765
梓	-9.64972
渉	-9.65087
陪	-9.65267
同年	-9.6528
坡	-9.65426
邇	-9.655
祿	-9.65528
公以	-9.65536
鬢	-9.65541
涵	-9.65551
山林	-9.65566
父老	-9.65593
畔	-9.65619
數年	-9.65652
膏	-9.658
以求	-9.6582
與之	-9.65874
雕	-9.65908
榻	-9.6591
誌	-9.65939
黒	-9.65992
丞相	-9.66065
不易	-9.66179
聖明	-9.66187
淫	-9.66239
限	-9.66263
不待	-9.66275
拔	-9.66352
陟	-9.66374
千年	-9.66474
安人	-9.66501
叟	-9.66571
料	-9.66686
谿	-9.66785
朗	-9.66814
四月	-9.66847
慨	-9.66933
腸	-9.66945
析	-9.66955
篆	-9.66971
纎	-9.66972
衷	-9.67023
鄧	-9.67031
不相	-9.67094
正徳	-9.67106
遜	-9.67113
湏	-9.67125
繩	-9.6718
唱	-9.67236
奴	-9.67307
染	-9.67353
簿	-9.67462
閭	-9.67528
麥	-9.6756
討	-9.67629
牙	-9.67947
僻	-9.67999
柱	-9.68009
苔	-9.68012
雖有	-9.68036
亦何	-9.68063
織	-9.68087
六年	-9.68117
上人	-9.68161
主事	-9.68164
栢	-9.68201
帆	-9.68222
終日	-9.68443
五年	-9.68469
人情	-9.68498
而能	-9.68561
不堪	-9.6879
綠	-9.68918
薛	-9.6893
正統	-9.68965
不獲	-9.68998
噫	-9.69077
單	-9.69113
蕭蕭	-9.6912
有子	-9.69288
爛	-9.69297
夾	-9.69299
需	-9.69322
挺	-9.69347
樞	-9.69399
既而	-9.69418
當年	-9.69432
何時	-9.69545
埀	-9.69633
徘徊	-9.69675
疇	-9.6971
不聞	-9.69724
猿	-9.69774
二十年	-9.69791
令人	-9.69812
飢	-9.69852
豈無	-9.69897
簷	-9.69908
逼	-9.70001
翳	-9.70048
蘿	-9.70062
貳	-9.70143
所至	-9.70229
風吹	-9.70237
日夜	-9.70242
剪	-9.70291
槩	-9.70364
知縣	-9.7043
幕	-9.70479
旱	-9.70523
區	-9.7054
㝠	-9.70573
行人	-9.70576
主人	-9.70608
無人	-9.70638
則其	-9.70647
賢者	-9.70682
往來	-9.70727
裂	-9.70792
廣東	-9.70867
嚮	-9.71
握	-9.71006
夭	-9.71039
嗜	-9.71053
孝子	-9.71067
項	-9.71069
侍郎	-9.71092
壤	-9.711
七月	-9.71113
熱	-9.71144
疆	-9.7116
不用	-9.71192
教之	-9.71208
寃	-9.71213
庫	-9.71268
謨	-9.713
霽	-9.7133
士之	-9.71423
此心	-9.71469
何所	-9.71516
携	-9.71518
宮	-9.71581
教授	-9.71626
措	-9.71674
草堂	-9.71744
仁義	-9.71757
龜	-9.71783
隅	-9.71784
也予	-9.7206
久矣	-9.72535
跋	-9.72671
湖廣	-9.72705
精神	-9.72735
壊	-9.72759
驟	-9.72851
䟦	-9.72943
三千	-9.72966
韋	-9.73011
羙	-9.73039
而不知	-9.7311
桐	-9.73141
懇	-9.73161
陣	-9.73174
緣	-9.73252
匡	-9.73259
之行	-9.73314
幹	-9.73355
几	-9.73371
評	-9.73451
踏	-9.73519
疊	-9.7361
廻	-9.73648
慧	-9.73757
嘯	-9.73778
是時	-9.73787
窓	-9.73946
金華	-9.74153
未及	-9.74166
誨	-9.74302
岐	-9.74327
也哉	-9.74403
准	-9.74437
千秋	-9.74474
詩序	-9.74495
踐	-9.74511
俸	-9.74526
而弗	-9.74579
牀	-9.74617
巾	-9.74627
姬	-9.74642
聨	-9.74793
排	-9.74815
耳目	-9.74825
壓	-9.75028
天上	-9.75078
閉	-9.7513
裘	-9.75167
於斯	-9.75206
槐	-9.7546
而不能	-9.75526
先後	-9.75597
互	-9.75621
穀	-9.75733
先君	-9.75745
不容	-9.75886
中書	-9.75921
涕	-9.76072
拱	-9.76141
濂	-9.76448
未必	-9.7662
判	-9.76727
貨	-9.76883
不少	-9.76958
蟲	-9.77032
乖	-9.77081
翩翩	-9.77104
駭	-9.77146
學校	-9.77176
袖	-9.77178
霄	-9.77185
稅	-9.77191
不出	-9.7723
朴	-9.77272
混	-9.77278
網	-9.77351
中外	-9.77405
廵	-9.77416
之名	-9.77423
之命	-9.77424
進退	-9.77433
恣	-9.7746
鋒	-9.77471
做	-9.77514
馭	-9.77602
白頭	-9.77618
西山	-9.7771
千金	-9.77723
其所以	-9.77785
中原	-9.77813
至于	-9.77873
圭	-9.77912
也又	-9.77967
不是	-9.78012
輯	-9.78101
沮	-9.78114
各有	-9.78123
寂寞	-9.78142
隴	-9.78145
所得	-9.78292
獵	-9.78337
肇	-9.78372
亦可	-9.78477
青雲	-9.78581
焉而	-9.78589
不免	-9.78589
畜	-9.7871
書院	-9.78785
得以	-9.78837
勁	-9.78894
鄉里	-9.78933
墓誌銘	-9.78985
叛	-9.79075
包	-9.79131
四年	-9.79273
之類	-9.79348
㢘	-9.79365
淹	-9.79461
俄	-9.79469
泊	-9.79494
帳	-9.79556
丈夫	-9.79571
岑	-9.79587
良知	-9.79626
公曰	-9.79642
也則	-9.79648
恕	-9.79679
戈	-9.79687
濫	-9.79688
咏	-9.79703
忝	-9.79774
不識	-9.79791
㕘	-9.79793
也公	-9.79828
躍	-9.7985
禱	-9.79934
慨然	-9.79982
域	-9.80045
一朝	-9.80046
憫	-9.80075
騷	-9.80236
弼	-9.80266
誕	-9.8028
天涯	-9.80499
堯舜	-9.80551
裔	-9.80587
十三	-9.80629
之下	-9.8075
其文	-9.80769
距	-9.80801
堤	-9.80835
賣	-9.80846
天理	-9.80974
扁舟	-9.80997
人人	-9.81006
雁	-9.81017
自古	-9.81026
柄	-9.8112
正月	-9.81124
戾	-9.81172
暉	-9.81235
貸	-9.81297
槎	-9.81298
自然	-9.81415
籠	-9.8146
頂	-9.81484
構	-9.81485
墻	-9.81499
兵部	-9.8157
嗟乎	-9.81589
幣	-9.8165
鬼神	-9.81782
刼	-9.81803
沿	-9.8181
柯	-9.81877
楹	-9.81896
庻	-9.8199
嵗月	-9.82063
回首	-9.82176
相見	-9.82177
匿	-9.82241
數十	-9.82278
之情	-9.82311
恱	-9.82318
之氣	-9.82367
徼	-9.82385
罰	-9.82395
塔	-9.82411
飬	-9.82426
也若	-9.82443
溝	-9.82557
傲	-9.82651
萬古	-9.82753
二三	-9.82812
屠	-9.82887
掛	-9.82937
諧	-9.8299
隂陽	-9.83057
㧞	-9.8307
儼	-9.83074
者曰	-9.83118
浙江	-9.83119
宛	-9.83141
大小	-9.83154
沐	-9.83196
求之	-9.83208
茫茫	-9.83292
床	-9.83301
風俗	-9.83331
崔	-9.83356
三十年	-9.83402
亦無	-9.83641
員	-9.83704
蹇	-9.83846
雍	-9.83866
邈	-9.83948
樽	-9.8395
山西	-9.83999
君臣	-9.84019
大父	-9.84022
籌	-9.84025
遁	-9.84077
旬	-9.84117
蛇	-9.84188
次第	-9.84194
熈	-9.84261
鼔	-9.84341
相望	-9.84348
躋	-9.84351
白髪	-9.84383
捧	-9.84402
萃	-9.84534
綿	-9.84541
裳	-9.84546
奥	-9.84586
萬世	-9.84639
別	-9.8467
懶	-9.84695
餞	-9.84838
國之	-9.85048
詭	-9.85108
拒	-9.8515
太孺人	-9.85199
此日	-9.85254
其道	-9.85286
逕	-9.85333
而歸	-9.85416
相思	-9.85423
不覺	-9.85436
洞庭	-9.85523
西風	-9.85552
一身	-9.85565
而卒	-9.85593
故事	-9.85616
栖	-9.85666
未盡	-9.85761
粹	-9.85857
瑶	-9.85865
家人	-9.85919
言者	-9.85974
媿	-9.85986
聖人之	-9.86016
麻	-9.86055
軌	-9.86062
凢	-9.86069
妖	-9.86094
綴	-9.861
冲	-9.86133
元年	-9.86213
䏻	-9.86319
掠	-9.86405
槖	-9.86418
張公	-9.86511
蒸	-9.86519
都御史	-9.8652
轍	-9.8654
燒	-9.86562
安能	-9.86661
六經	-9.86684
以告	-9.86708
其才	-9.86755
償	-9.86756
疲	-9.86761
其能	-9.86857
壘	-9.86873
者哉	-9.869
鈎	-9.86933
誰能	-9.87091
頑	-9.87133
蹤	-9.87359
只是	-9.87359
軀	-9.87453
不與	-9.87473
汗	-9.87479
級	-9.87485
杭	-9.87498
得失	-9.87511
突	-9.87533
譏	-9.87641
夕陽	-9.87679
瓦	-9.87734
先世	-9.87756
以下	-9.87759
囬	-9.87864
視之	-9.87901
醇	-9.8791
逺近	-9.87931
見於	-9.87949
有言	-9.87965
灑	-9.87985
其行	-9.88001
陳氏	-9.88033
黜	-9.88036
税	-9.88038
之謂	-9.88105
棘	-9.88112
湛	-9.88191
打	-9.88204
者為	-9.88291
漕	-9.88292
而已矣	-9.88301
䑓	-9.88402
郡縣	-9.88419
三代	-9.88456
九日	-9.88458
慷慨	-9.8847
壮	-9.88563
者固	-9.88577
猶未	-9.88595
弛	-9.8862
裝	-9.88734
雀	-9.88765
寔	-9.88807
卽	-9.88812
張氏	-9.88906
劾	-9.88921
熙	-9.89058
闌	-9.89079
舉進士	-9.89154
其餘	-9.89188
以致	-9.8919
截	-9.89258
艾	-9.8943
粗	-9.89446
懲	-9.89474
幻	-9.89482
公諱	-9.89542
勘	-9.89597
匹	-9.8961
箇	-9.89613
徃徃	-9.89634
之政	-9.89655
百姓	-9.89717
十六	-9.89736
樸	-9.89741
猶有	-9.89833
粤	-9.89937
飲食	-9.89964
學問	-9.8999
僉	-9.90007
濬	-9.90018
或有	-9.90019
十四	-9.90075
頽	-9.90077
不已	-9.9011
未可	-9.9015
道路	-9.90153
摘	-9.90295
衢	-9.90409
之美	-9.90467
慙	-9.90507
出處	-9.90623
博士	-9.90673
教諭	-9.90753
册	-9.90783
蟬	-9.90795
巡撫	-9.90807
不當	-9.90911
坊	-9.90931
十八	-9.9106
濶	-9.91093
美人	-9.91098
虜	-9.91106
鵬	-9.91124
竿	-9.91249
墟	-9.91261
之樂	-9.91331
何必	-9.9141
七年	-9.91556
萬一	-9.91572
叨	-9.91628
侣	-9.9163
技	-9.9168
書之	-9.91687
苗	-9.91731
二公	-9.91774
與其	-9.91799
諸君	-9.91863
森	-9.91896
蹟	-9.91903
也乃	-9.91967
於是乎	-9.91973
公子	-9.92019
薪	-9.92191
不失	-9.92205
粉	-9.92212
怡	-9.92252
片	-9.92257
不受	-9.92287
什	-9.92302
為文	-9.9238
矣今	-9.92445
酣	-9.92466
天地之	-9.92528
腰	-9.9263
以成	-9.92645
蓬萊	-9.92705
陂	-9.92782
始終	-9.928
勉之	-9.92813
牘	-9.92831
所見	-9.9285
先是	-9.92893
捷	-9.92901
􁀙	-9.92913
零	-9.92935
十一	-9.92941
節婦	-9.93042
眺	-9.93156
為我	-9.93173
芳草	-9.93243
不暇	-9.9327
莫能	-9.93345
凋	-9.93352
勑	-9.93413
五色	-9.93511
不死	-9.93555
李公	-9.93591
舘	-9.93609
金石	-9.93658
棺	-9.93663
慘	-9.93667
迨	-9.93671
冩	-9.93881
寅	-9.93894
臥	-9.93908
沃	-9.93928
意氣	-9.93937
扉	-9.93942
副使	-9.93977
壻	-9.94063
又以	-9.94079
藴	-9.94085
埋	-9.94117
竄	-9.94297
先人	-9.94312
十日	-9.94323
舌	-9.94333
隘	-9.94368
之臣	-9.94467
福建	-9.94518
咫尺	-9.94554
便是	-9.94569
愆	-9.94604
濃	-9.94637
豈有	-9.94792
可憐	-9.94854
釐	-9.94869
浸	-9.94892
函	-9.9495
故鄉	-9.94993
狐	-9.95115
廬陵	-9.95156
指揮	-9.95191
乳	-9.95285
天道	-9.95298
牌	-9.95436
不知其	-9.95454
嬰	-9.95559
縮	-9.95619
至此	-9.95626
李氏	-9.95631
灰	-9.95809
凍	-9.95875
氏之	-9.95875
相繼	-9.9588
不負	-9.95896
之教	-9.95916
畆	-9.95947
鷗	-9.95955
至正	-9.95958
挂	-9.9596
太常	-9.95992
濁	-9.95998
從之	-9.96009
遂以	-9.96015
公為	-9.9603
淑人	-9.96058
畝	-9.96122
頒	-9.96179
繪	-9.96253
馴	-9.96306
從事	-9.96404
文獻	-9.96437
自得	-9.96457
儒者	-9.96507
軸	-9.96509
仇	-9.96552
冝	-9.96573
郡守	-9.96611
掲	-9.96639
仙人	-9.96653
詰	-9.96662
算	-9.96698
笛	-9.96706
造化	-9.96717
三百	-9.96747
之大	-9.96767
蠧	-9.96796
神仙	-9.96843
此其	-9.96844
皆以	-9.96868
一笑	-9.96894
一年	-9.96936
蔣	-9.96964
姜	-9.96995
有不	-9.97
所居	-9.97017
覈	-9.97026
其母	-9.97061
乎哉	-9.9709
歿	-9.97162
有感	-9.97218
踵	-9.97223
忤	-9.97249
青天	-9.97342
派	-9.97373
焦	-9.97416
租	-9.97422
其實	-9.97442
使之	-9.97522
所當	-9.97587
其職	-9.97651
天之	-9.97654
大抵	-9.97722
灌	-9.97786
詩曰	-9.97918
故其	-9.97966
於時	-9.97986
觀其	-9.98015
皮	-9.98022
袍	-9.98048
當是時	-9.98135
蕪	-9.98148
耆	-9.9817
之初	-9.98186
逋	-9.98188
門人	-9.98188
註	-9.98188
讀之	-9.98239
之詩	-9.98359
之矣	-9.98379
劉氏	-9.98611
坤	-9.98619
確	-9.9862
無一	-9.98661
生平	-9.98672
泰和	-9.98791
猛	-9.98795
収	-9.98809
纓	-9.98844
揆	-9.98858
月明	-9.98944
它	-9.98949
其可	-9.98971
巷	-9.9899
奔走	-9.99084
偃	-9.99101
珮	-9.99113
尚有	-9.99141
忩	-9.99232
縉紳	-9.99275
於天	-9.99301
婉	-9.99331
也余	-9.99355
不善	-9.99446
荘	-9.99532
凶	-9.9958
祖宗	-9.99609
死者	-9.99767
廼	-9.99853
者多	-10.0007
這	-10.0013
十一月	-10.0023
玄	-10.0027
訴	-10.0028
十七	-10.0032
睦	-10.0032
遼	-10.0033
周旋	-10.0042
一首	-10.0046
尉	-10.0049
四時	-10.005
之徳	-10.0051
冥	-10.0053
百世	-10.0069
古者	-10.0072
友人	-10.0074
於其	-10.0078
亦以	-10.008
為善	-10.0084
臂	-10.0085
洒	-10.0088
諡	-10.0089
盍	-10.0091
有志	-10.0092
芒	-10.0092
坦	-10.0097
中國	-10.0102
給事	-10.0107
以至	-10.0109
昔人	-10.0114
有聲	-10.0115
僉事	-10.0116
東海	-10.0118
愛之	-10.0118
求其	-10.0118
人物	-10.0119
誘	-10.0122
撥	-10.0124
老人	-10.0125
四首	-10.0129
闈	-10.0129
冰	-10.013
君不見	-10.0145
阜	-10.0149
以待	-10.0155
之風	-10.016
江山	-10.0161
何日	-10.0169
於天下	-10.0173
峙	-10.018
桓	-10.0183
吞	-10.0184
死生	-10.0185
政事	-10.0188
濯	-10.0189
獸	-10.0192
之變	-10.0201
狎	-10.0204
何事	-10.0213
之先	-10.0215
耗	-10.0228
淨	-10.0232
道徳	-10.0234
無復	-10.0235
而去	-10.0241
囚	-10.0245
雖不	-10.0247
白首	-10.0249
杳	-10.0249
東山	-10.025
顔色	-10.0253
車馬	-10.0254
淸	-10.0271
鶯	-10.028
之難	-10.0283
治之	-10.029
灘	-10.029
鈞	-10.029
觀之	-10.0295
王子	-10.0302
斯文	-10.0302
未得	-10.0304
無恙	-10.0308
邸	-10.0321
社稷	-10.0323
批	-10.0324
不言	-10.0332
爲之	-10.0333
同知	-10.0344
滄海	-10.0345
聰	-10.0345
齎	-10.035
汚	-10.0356
雨露	-10.0357
株	-10.0359
汎	-10.0361
脚	-10.0367
隙	-10.0369
虧	-10.0369
慟	-10.037
菜	-10.037
忠孝	-10.0374
聖天子	-10.0376
惓惓	-10.038
牆	-10.0382
㦸	-10.0386
斧	-10.0393
布衣	-10.0393
祐	-10.0393
神明	-10.0402
普	-10.0411
憲副	-10.0413
其學	-10.0416
膚	-10.0422
鷄	-10.0423
島	-10.0424
罕	-10.0429
攘	-10.043
絳	-10.0432
諸君子	-10.0434
之原	-10.0453
臻	-10.0455
知府	-10.0466
郡邑	-10.047
雲南	-10.0472
其三	-10.0474
箴	-10.0476
其有	-10.0476
詐	-10.0483
妃	-10.0485
祚	-10.0488
與人	-10.0489
帷	-10.0493
䕃	-10.0498
千萬	-10.0505
謂其	-10.0506
靣	-10.0507
也雖然	-10.0511
相對	-10.0512
風雲	-10.0515
僊	-10.0519
未知	-10.0519
奬	-10.0522
西湖	-10.0522
夣	-10.054
之理	-10.0552
九年	-10.0552
穹	-10.0553
以俟	-10.0555
麓	-10.0558
九重	-10.0565
去年	-10.0571
等處	-10.0578
窻	-10.058
爐	-10.0586
然也	-10.0589
當世	-10.0589
炳	-10.0593
煥	-10.0593
組	-10.06
遏	-10.0601
苐	-10.0602
乎此	-10.0609
畵	-10.0616
頴	-10.0623
卦	-10.063
以故	-10.0634
國朝	-10.0636
莽	-10.0637
而復	-10.0637
肩	-10.0642
拾	-10.0646
訊	-10.0647
甲子	-10.0648
魄	-10.0656
而公	-10.0657
人事	-10.0659
十二月	-10.066
倭	-10.0662
繼之	-10.0666
㓂	-10.0669
恬	-10.0675
之制	-10.0677
之作	-10.0679
梧	-10.0682
汙	-10.0682
生於	-10.0684
搜	-10.0693
户部	-10.0699
天順	-10.0702
腐	-10.0704
望之	-10.0704
天台	-10.0709
於今	-10.071
沛	-10.0715
電	-10.0716
不成	-10.0722
不一	-10.0723
學之	-10.0732
妍	-10.0735
窟	-10.074
悵	-10.0745
姓名	-10.0748
弦	-10.0751
汀	-10.0751
斯人	-10.0763
閨	-10.0771
工部	-10.0773
他人	-10.078
募	-10.0782
有一	-10.0784
十載	-10.0788
為政	-10.0795
涯	-10.0801
綸	-10.0802
哨	-10.0803
寨	-10.0806
濡	-10.0813
𤓰	-10.0816
團	-10.0829
三載	-10.0838
歇	-10.0839
西北	-10.0843
之罪	-10.0852
日暮	-10.0853
邑之	-10.0854
起居	-10.086
方伯	-10.0864
場	-10.0866
惰	-10.0867
何其	-10.0869
講學	-10.0878
冶	-10.0878
十九	-10.0879
姻	-10.0879
倪	-10.0888
吾兄	-10.089
驥	-10.0891
陜西	-10.0896
王君	-10.0902
晝夜	-10.0907
員外郎	-10.0912
罹	-10.0918
睡	-10.092
此時	-10.0922
藤	-10.0923
辛	-10.0928
題詩	-10.0928
老成	-10.0932
紳	-10.0935
旦夕	-10.0937
佑	-10.0941
板	-10.0941
輟	-10.0943
諌	-10.0947
倐	-10.0947
時有	-10.0949
久而	-10.0949
憚	-10.0953
一念	-10.0953
何為	-10.0956
變化	-10.0957
禾	-10.0958
所在	-10.0962
之論	-10.0965
矩	-10.0965
消息	-10.097
萌	-10.0973
綵	-10.0978
工夫	-10.0979
家居	-10.0981
訝	-10.0986
也嗚呼	-10.0992
於家	-10.0992
灣	-10.0993
桃李	-10.0995
譚	-10.0997
揭	-10.0998
八年	-10.1
公卿	-10.1006
䖍	-10.1006
認	-10.1007
詩文	-10.101
居士	-10.1014
閔	-10.1015
不許	-10.1019
人有	-10.1019
春日	-10.1023
無他	-10.1023
逺矣	-10.1025
諾	-10.1026
緘	-10.1033
為君	-10.1034
犬	-10.1036
里中	-10.1038
之書	-10.1051
俯仰	-10.1054
凄	-10.1055
夫婦	-10.1056
不啻	-10.1057
减	-10.106
嬉	-10.106
測	-10.1062
鄕	-10.1065
錢塘	-10.1074
豁	-10.1074
道也	-10.1075
矣其	-10.1081
擒	-10.1081
西南	-10.1084
先生曰	-10.1085
不止	-10.1089
所稱	-10.1093
山之	-10.1095
恠	-10.1097
其民	-10.1109
銓	-10.1109
之役	-10.1115
而巳	-10.1115
予言	-10.1118
妻子	-10.1122
之治	-10.1144
崑山	-10.1151
年年	-10.1155
鴉	-10.1156
賁	-10.1159
賑	-10.1165
盃	-10.1166
道中	-10.1168
無可	-10.1169
歐陽	-10.1179
秋色	-10.1183
護	-10.1187
奎	-10.1188
訖	-10.1194
縈	-10.1194
陷	-10.1197
者何	-10.1199
峽	-10.1199
謾	-10.12
滌	-10.1206
一方	-10.1214
數百	-10.1214
讐	-10.1216
檻	-10.1221
矣故	-10.1224
尋常	-10.1225
天性	-10.1231
漳	-10.1232
不獨	-10.124
滴	-10.1241
數日	-10.1241
䕫	-10.1249
北京	-10.1255
椒	-10.1258
之用	-10.1259
刑部	-10.126
厓	-10.1267
聰明	-10.1279
廿	-10.1281
札	-10.1289
不可不	-10.129
童子	-10.1297
碎	-10.1306
州縣	-10.1308
蔚	-10.1311
以上	-10.1321
不起	-10.1324
婚	-10.1324
昇	-10.1326
涇	-10.1328
先公	-10.1332
城南	-10.1335
將以	-10.1342
者乃	-10.1343
汲	-10.1343
纂	-10.1343
之禮	-10.1352
括	-10.1362
大江	-10.1363
覔	-10.1369
壞	-10.1373
徳之	-10.1376
揖	-10.1386
禀	-10.139
惟有	-10.1401
庇	-10.1401
十里	-10.1404
牒	-10.1406
焉則	-10.1409
茹	-10.142
不宜	-10.1423
貯	-10.1424
何足	-10.143
同心	-10.1432
于是	-10.1434
縱横	-10.1438
赫	-10.1439
脉	-10.1441
文辭	-10.1441
豪傑	-10.1441
控	-10.1442
以禮	-10.1442
者或	-10.1445
晤	-10.1447
贅	-10.1449
廣西	-10.1452
事業	-10.1455
故園	-10.1455
婁	-10.1462
未易	-10.1466
嗟夫	-10.1469
巫	-10.1469
三首	-10.1477
三人	-10.1482
餐	-10.1488
有序	-10.1498
有道	-10.1514
不厭	-10.1519
非有	-10.152
杏	-10.152
籬	-10.1525
未至	-10.1528
利害	-10.1532
崩	-10.1532
徇	-10.1532
瘦	-10.1537
漿	-10.1538
行事	-10.1541
汴	-10.1541
祇	-10.1548
尚未	-10.1556
抽	-10.1556
江水	-10.1558
或曰	-10.1559
世家	-10.1559
朋友	-10.1569
填	-10.1569
豫章	-10.157
一見	-10.1571
玉堂	-10.1572
髯	-10.1577
慢	-10.1582
綏	-10.1586
䘏	-10.159
膠	-10.1592
大學	-10.1596
鳩	-10.1598
妣	-10.1598
挹	-10.1598
道士	-10.16
歸省	-10.1602
之内	-10.1604
可知	-10.1604
一家	-10.1621
天命	-10.1635
巴	-10.1638
其功	-10.1638
無愧	-10.1645
先王	-10.1646
不合	-10.1652
不作	-10.1652
䑕	-10.1657
栽	-10.1661
遶	-10.1664
大義	-10.1682
而非	-10.169
昔者	-10.1692
太學生	-10.1693
嵐	-10.1704
所以為	-10.1705
潰	-10.1705
可見	-10.1708
羈	-10.171
匠	-10.1712
寇	-10.1713
牕	-10.1718
致其	-10.172
而得	-10.1721
出門	-10.1722
虐	-10.1723
些	-10.1726
瑟	-10.1728
夙夜	-10.1728
敕	-10.1731
輓	-10.1732
睿	-10.174
烹	-10.1742
樊	-10.1742
一事	-10.1747
因以	-10.1753
記之	-10.1758
也非	-10.1759
之私	-10.1763
之職	-10.1769
登臨	-10.1772
其情	-10.1772
躡	-10.178
布政司	-10.178
奕	-10.1784
之任	-10.1791
宸	-10.1791
作者	-10.1797
謗	-10.1801
門外	-10.1804
若夫	-10.1805
其在	-10.1809
欲以	-10.1811
凖	-10.1811
庶㡬	-10.1818
太子	-10.1822
吾子	-10.1835
人所	-10.1843
訓導	-10.1843
在此	-10.1846
出而	-10.1856
以文	-10.1859
閫	-10.1867
聳	-10.1868
從此	-10.1878
彛	-10.1879
物之	-10.1881
亦自	-10.1883
廩	-10.1888
敘	-10.189
也是	-10.1892
渭	-10.1894
換	-10.1894
醜	-10.19
錦衣	-10.1903
攬	-10.1906
黄河	-10.1912
萬事	-10.1912
僉憲	-10.1928
瀆	-10.1929
鈔	-10.1931
之使	-10.1932
儔	-10.1939
暝	-10.1939
成功	-10.1939
有二	-10.1941
以慰	-10.1947
人以	-10.1951
儒學	-10.1952
十餘年	-10.197
榆	-10.1976
莆	-10.1984
楊氏	-10.1993
胄	-10.1994
弱冠	-10.1997
雲中	-10.2003
跨	-10.2003
陳公	-10.2004
人之所	-10.2009
闊	-10.2014
不亦	-10.2018
人才	-10.2021
雛	-10.2025
若有	-10.2026
葵	-10.2026
自謂	-10.2029
冗	-10.2029
張君	-10.2037
春色	-10.2042
綬	-10.2045
其本	-10.2046
其鄉	-10.2052
曩	-10.2053
粲	-10.2079
系	-10.2082
骨肉	-10.2082
藍	-10.2084
縷	-10.2087
者歟	-10.209
與君	-10.2091
年七十	-10.2097
萬厯	-10.2098
侯之	-10.2099
耻	-10.2102
至矣	-10.2102
元氣	-10.2103
諷	-10.2108
則曰	-10.2114
尸	-10.2117
捲	-10.2117
戯	-10.2118
有大	-10.2121
昆	-10.2124
以歸	-10.2134
於外	-10.2134
舟中	-10.2143
奈	-10.2148
言也	-10.2149
渺	-10.215
國公	-10.2152
也自	-10.2164
其一	-10.2167
一百	-10.2169
問學	-10.2177
於朝	-10.2184
失其	-10.2185
之業	-10.2189
宇宙	-10.219
也此	-10.219
為此	-10.2192
湧	-10.2195
有此	-10.2197
相知	-10.2203
不須	-10.2204
者盖	-10.2207
吁	-10.2211
柴	-10.2211
曙	-10.2212
山下	-10.2214
蒼蒼	-10.2214
不若	-10.2217
逈	-10.2225
知君	-10.2229
寒暑	-10.2237
考績	-10.224
鬻	-10.2241
勦	-10.2242
妨	-10.2247
甥	-10.2248
官軍	-10.2251
必以	-10.2254
萬年	-10.2258
之資	-10.2259
也然則	-10.2262
簮	-10.2264
慿	-10.2267
蟠	-10.2273
庾	-10.2274
喚	-10.2274
然其	-10.2275
不能無	-10.2277
生死	-10.2277
歉	-10.2281
将軍	-10.2281
隕	-10.2289
輕重	-10.229
穢	-10.2291
迪	-10.2299
蘆	-10.2299
冐	-10.2302
忠義	-10.2303
瑾	-10.2303
羣臣	-10.2305
鑄	-10.2305
牖	-10.2307
中間	-10.2311
守令	-10.2319
戮	-10.2319
是為	-10.232
狼	-10.2326
饋	-10.2329
邱	-10.2331
數月	-10.2332
歆	-10.2333
二百	-10.2335
等官	-10.2335
帛	-10.2341
九十	-10.2344
廓	-10.2347
舅	-10.2347
賔客	-10.2356
殫	-10.2362
得一	-10.2364
彊	-10.2364
提學	-10.2368
肖	-10.237
一體	-10.2371
乆矣	-10.2372
江東	-10.2373
屐	-10.238
一字	-10.2381
龎	-10.2382
朽	-10.2387
研	-10.2389
棟	-10.2395
不逮	-10.242
俠	-10.2426
復有	-10.2432
贖	-10.2433
其下	-10.2434
不樂	-10.2439
聼	-10.244
帙	-10.2446
五日	-10.245
芬	-10.245
無異	-10.2451
劣	-10.2453
斑	-10.2461
自號	-10.2469
而不可	-10.2474
相傳	-10.2477
何也	-10.2478
再拜	-10.248
其他	-10.2482
一片	-10.2487
腴	-10.2487
㝷	-10.2488
武王	-10.2489
文王	-10.2496
分明	-10.2499
有成	-10.2502
識之	-10.2503
鳬	-10.2509
大人	-10.2511
扵是	-10.2511
嵗時	-10.2514
三尺	-10.2517
孺	-10.2524
有功	-10.2526
楓	-10.2526
培	-10.2528
都憲	-10.2529
白雪	-10.2535
男子	-10.2541
鮑	-10.2546
而成	-10.2553
鐡	-10.2555
異日	-10.256
城中	-10.2562
仲子	-10.2564
丹青	-10.257
名曰	-10.2579
禎	-10.2581
鄉試	-10.2582
藁	-10.259
取其	-10.259
演	-10.2591
撓	-10.2594
勾	-10.2598
浴	-10.2599
雉	-10.26
稱其	-10.2604
悠然	-10.2604
婺	-10.2608
以及	-10.2611
不行	-10.262
之數	-10.2622
人者	-10.2628
麾	-10.2633
後先	-10.2639
次適	-10.2646
不絶	-10.265
給事中	-10.2665
年來	-10.2671
一一	-10.2679
使其	-10.268
遮	-10.2685
忻	-10.2686
以詩	-10.2693
栗	-10.2694
酋	-10.2696
憾	-10.2699
公所	-10.2701
昻	-10.2702
中庸	-10.2703
鐸	-10.2705
予嘗	-10.2712
寕	-10.2717
滑	-10.2718
葺	-10.2729
瑕	-10.2731
識者	-10.2732
以後	-10.2739
焉其	-10.274
霖	-10.274
楊公	-10.2744
袂	-10.2746
日以	-10.2747
蕭條	-10.275
㑹稽	-10.2757
瑩	-10.276
豹	-10.2766
扣	-10.2767
存者	-10.2769
衮	-10.2769
而止	-10.2772
退而	-10.2776
南昌	-10.2783
其徳	-10.2791
牲	-10.2792
隋	-10.28
于鱗	-10.2803
泯	-10.2807
而行	-10.2808
娥	-10.281
娛	-10.2812
曾祖	-10.2815
於心	-10.2817
悍	-10.2818
祔	-10.2826
而自	-10.2827
于今	-10.2827
瑤	-10.2829
鵲	-10.2829
萍	-10.2833
輦	-10.2833
四川	-10.2833
𬒳	-10.2836
搖	-10.2836
寮	-10.2836
售	-10.2841
掖	-10.2843
亢	-10.2844
四明	-10.2845
隄	-10.2846
劉公	-10.2847
曰我	-10.2848
貺	-10.2848
司徒	-10.2849
秋水	-10.2851
之遺	-10.2851
韜	-10.2854
湖上	-10.2854
乃以	-10.2856
繹	-10.2857
平日	-10.2859
吾道	-10.286
所著	-10.2861
禮義	-10.2861
都督	-10.2863
模	-10.2868
柬	-10.2874
父兄	-10.2877
同志	-10.2878
於民	-10.2878
也且	-10.2879
蔬	-10.2887
刋	-10.2899
起家	-10.29
畱	-10.2901
裾	-10.2908
忙	-10.2909
感激	-10.2915
古之人	-10.2929
何由	-10.294
絡	-10.2941
駒	-10.2942
牢	-10.2944
未敢	-10.2949
其子孫	-10.2949
鋭	-10.2956
知公	-10.2957
曽祖	-10.2958
不廢	-10.2961
黑	-10.2966
者豈	-10.2967
洋	-10.2971
十五年	-10.2974
龔	-10.2978
文集	-10.2992
老矣	-10.2994
而况	-10.2995
之力	-10.2998
宣徳	-10.3003
梵	-10.3008
日日	-10.3014
文公	-10.3015
無有	-10.3024
氛	-10.3027
衣食	-10.3027
於後	-10.3028
迄	-10.3033
吾聞	-10.3034
于朝	-10.3035
靄	-10.3038
恊	-10.304
於公	-10.3041
太祖	-10.3041
瘠	-10.3048
世間	-10.3048
予曰	-10.3048
堂記	-10.305
秪	-10.3051
狗	-10.3052
伏惟	-10.3053
寘	-10.3055
霑	-10.3063
長沙	-10.3063
弭	-10.3066
戢	-10.3075
白石	-10.3077
於上	-10.3081
架	-10.3084
徂	-10.3087
受命	-10.3088
人家	-10.3089
訂	-10.309
粮	-10.3092
恭人	-10.3094
相率	-10.3096
羮	-10.3097
箭	-10.3104
黔	-10.3107
廪	-10.3109
璞	-10.3109
皷	-10.311
名家	-10.3115
等因	-10.3117
哉夫	-10.3121
奉命	-10.3124
失之	-10.3125
漲	-10.313
其上	-10.3131
侮	-10.3133
濓	-10.3145
不明	-10.3147
逍遥	-10.3153
痕	-10.316
知有	-10.3163
多矣	-10.3164
歙	-10.3167
頥	-10.3172
烟霞	-10.3173
怯	-10.3175
段	-10.3176
君家	-10.3177
幾何	-10.3181
衆人	-10.3183
鼻	-10.3189
而獨	-10.3189
多少	-10.3192
抄	-10.3195
睹	-10.3197
寐	-10.3202
而上	-10.3206
有三	-10.3209
邃	-10.3212
縣令	-10.3225
刃	-10.3234
此地	-10.3236
其時	-10.3237
堆	-10.3239
丕	-10.3241
之官	-10.3242
乃知	-10.3247
訣	-10.325
馨	-10.3262
靳	-10.3268
冕	-10.3272
忠信	-10.3275
上書	-10.3278
埃	-10.3278
多病	-10.3286
㨗	-10.3287
不動	-10.3287
絮	-10.3289
偷	-10.3289
靡不	-10.3291
畨	-10.3294
彷彿	-10.3297
世貞	-10.3307
挈	-10.331
剖	-10.3311
亦非	-10.332
可為	-10.3321
之恩	-10.3326
請予	-10.3331
歐	-10.3332
膽	-10.3332
忿	-10.3336
惆悵	-10.3342
也惟	-10.3342
議論	-10.3344
酷	-10.3345
茗	-10.3357
膝	-10.336
翊	-10.3366
髙祖	-10.3367
蠲	-10.3368
無能	-10.3368
有時	-10.3369
鞍	-10.3369
棠	-10.337
經術	-10.337
所能	-10.3371
知者	-10.3377
鞠	-10.3379
司空	-10.3384
猶在	-10.3385
竇	-10.3386
千百	-10.3387
年六十	-10.3394
旨	-10.3401
唐虞	-10.3406
廵撫	-10.3406
紆	-10.3408
闡	-10.3414
不問	-10.3424
知己	-10.3432
坎	-10.3437
知所	-10.3443
而知	-10.3444
阮	-10.3446
自愛	-10.3447
為民	-10.3471
本院	-10.3471
街	-10.3476
大理	-10.3477
廟堂	-10.3477
耿	-10.3479
祁	-10.3479
而為之	-10.3481
庠	-10.3483
上有	-10.3484
太宰	-10.3484
一代	-10.349
之典	-10.3491
太僕	-10.3492
妬	-10.3492
景泰	-10.3492
白沙	-10.3493
世事	-10.3494
佚	-10.3497
花開	-10.3515
緩急	-10.3517
吾母	-10.3523
髙堂	-10.3527
祖母	-10.3528
惟恐	-10.3531
歸去	-10.3531
終始	-10.3534
之節	-10.3534
溥	-10.3539
異時	-10.3543
苖	-10.3543
閉門	-10.3547
粧	-10.3555
蛟	-10.3558
禆	-10.3565
太極	-10.3565
其四	-10.3565
野人	-10.357
簪	-10.3571
之勝	-10.3574
其説	-10.3575
歎曰	-10.3585
雲山	-10.3587
闔	-10.3588
一巻	-10.3595
北上	-10.3596
不信	-10.3596
丸	-10.3597
孝弟	-10.3597
予與	-10.3597
為國	-10.3599
之勢	-10.3601
焚香	-10.3606
篋	-10.3609
國初	-10.3614
依依	-10.3614
濠	-10.3618
稻	-10.3619
惇	-10.362
不顧	-10.362
剥	-10.3622
於道	-10.3625
之實	-10.363
鉞	-10.3631
恪	-10.3632
蒼生	-10.3635
通判	-10.3637
所藏	-10.3639
裡	-10.364
江海	-10.3646
甚矣	-10.3648
取之	-10.3654
門前	-10.3655
叶	-10.3656
遂為	-10.3657
吾友	-10.3659
日益	-10.3663
之妙	-10.3663
春雨	-10.3664
伺	-10.3671
知已	-10.3674
婦人	-10.3676
膳	-10.3676
事親	-10.3677
堦	-10.3677
糾	-10.3678
三子	-10.368
吾父	-10.3686
稚	-10.3688
隊	-10.3688
企	-10.3692
小子	-10.3694
别號	-10.3696
太師	-10.3704
得人	-10.3707
㠶	-10.3711
詩人	-10.3716
羲	-10.3717
狹	-10.3717
空山	-10.3735
而欲	-10.3736
琳	-10.3738
好學	-10.3738
豆	-10.3739
其詩	-10.374
無益	-10.374
大同	-10.3746
琢	-10.375
世有	-10.3753
與子	-10.3756
賚	-10.3758
擲	-10.3759
作詩	-10.3759
也於是	-10.3762
吾家	-10.3763
宗伯	-10.3765
鬬	-10.3765
太宗	-10.3766
匱	-10.3769
徃來	-10.3772
遘	-10.3778
者雖	-10.3784
此意	-10.3787
件	-10.3788
無間	-10.3792
新安	-10.3794
人言	-10.3794
施行	-10.3795
贍	-10.3799
浚	-10.3799
君王	-10.3805
霸	-10.3808
可乎	-10.382
鵠	-10.3823
千户	-10.3824
置之	-10.3826
少卿	-10.3829
迥	-10.3832
蔓	-10.3837
筠	-10.3838
世人	-10.3846
宗族	-10.3849
瀾	-10.385
少保	-10.3854
之㫖	-10.3856
林下	-10.3863
巵	-10.3863
未見	-10.3872
贏	-10.3874
豈能	-10.3874
臣之	-10.3877
瘴	-10.3879
貶	-10.3884
飲酒	-10.3886
不得已	-10.3886
人主	-10.3886
其義	-10.3887
其故	-10.3893
得此	-10.3898
無限	-10.3901
乎夫	-10.3903
所知	-10.3905
亘	-10.3906
幸甚	-10.3906
嬌	-10.3911
姊	-10.3915
李君	-10.3917
參差	-10.3922
跪	-10.3926
人亦	-10.3926
今人	-10.3927
閟	-10.3928
孰不	-10.3933
老子	-10.3942
者耶	-10.3944
濵	-10.3945
可知矣	-10.3946
不辭	-10.3946
鬚	-10.3947
逞	-10.3953
七日	-10.3953
數千	-10.3956
即位	-10.3957
之善	-10.3957
陽春	-10.3958
云云	-10.396
番	-10.3962
鯨	-10.3964
癡	-10.3966
無所不	-10.3966
坑	-10.3971
漠	-10.3975
十餘	-10.3978
垢	-10.398
落花	-10.3981
之患	-10.3983
悖	-10.3995
終不	-10.3996
南宫	-10.3998
蹙	-10.4001
叅政	-10.4004
五百	-10.4004
長洲	-10.4009
十萬	-10.4011
蝶	-10.4011
其於	-10.4012
蒞	-10.4016
郵	-10.4016
之責	-10.4024
倣	-10.4025
硯	-10.4032
兵備	-10.4032
嘆曰	-10.4036
楫	-10.4041
之流	-10.4049
功業	-10.4049
笙	-10.4057
于家	-10.4057
聞其	-10.4058
功成	-10.4059
於前	-10.406
拓	-10.4064
淮南	-10.4068
與夫	-10.4071
洛陽	-10.4072
蠶	-10.4082
或以	-10.4085
汲汲	-10.4092
不求	-10.4094
鳯凰	-10.4097
族人	-10.4098
以相	-10.4099
譬之	-10.41
經史	-10.4102
塢	-10.4102
眩	-10.4102
欣然	-10.4109
而今	-10.4109
諸孫	-10.4119
衾	-10.412
正德	-10.4121
豈惟	-10.4121
蕭然	-10.4122
黍	-10.4122
卓然	-10.4125
胡為	-10.4126
祭酒	-10.4127
簫	-10.4129
為詩	-10.413
而民	-10.4134
安知	-10.4146
之弊	-10.4148
先王之	-10.4148
有竒	-10.4158
子也	-10.4161
平原	-10.4163
苛	-10.4164
替	-10.4167
龍門	-10.417
欄	-10.417
佞	-10.4171
楊栁	-10.4177
之計	-10.4181
之術	-10.4189
卒於	-10.419
已矣	-10.4191
岀	-10.4191
楷	-10.4192
對曰	-10.4195
三世	-10.4204
斯道	-10.4204
畿	-10.4212
乆之	-10.4212
鋪	-10.4217
其勢	-10.4221
雲間	-10.4223
陌	-10.4225
新詩	-10.4228
箕	-10.423
著書	-10.4232
縛	-10.4234
軍民	-10.4235
其兄	-10.4241
不可得	-10.4243
脂	-10.4246
陜	-10.4252
矣予	-10.4253
思之	-10.4256
蟻	-10.4259
欠	-10.4268
者謂	-10.4269
官員	-10.4274
雋	-10.4275
夢中	-10.4275
䦨	-10.429
盡心	-10.4294
霍	-10.4296
官府	-10.4296
梗	-10.4298
塊	-10.4298
劵	-10.4299
耄	-10.4299
未㡬	-10.4302
鷹	-10.4302
以備	-10.4304
一曲	-10.4305
王孫	-10.4313
流俗	-10.4318
英雄	-10.4318
明公	-10.4324
然亦	-10.4328
上疏	-10.433
宥	-10.4334
脈	-10.4335
郢	-10.4336
各官	-10.4339
所欲	-10.434
師友	-10.4345
所作	-10.4348
吾之	-10.435
山色	-10.4351
黄花	-10.4352
薫	-10.4354
泗	-10.4356
一世	-10.4358
聮	-10.4361
南歸	-10.4362
我心	-10.4366
珪	-10.4367
一室	-10.4374
噐	-10.438
虬	-10.4381
聞道	-10.4382
于時	-10.4386
吾心	-10.4391
所載	-10.4396
柏	-10.4402
命之	-10.4403
所宜	-10.4404
用是	-10.4405
雨中	-10.4422
透	-10.4422
豈獨	-10.4424
處之	-10.4425
予之	-10.4425
廊	-10.4438
㓕	-10.444
扁	-10.4444
恢	-10.4447
之思	-10.4448
繆	-10.4451
則亦	-10.4454
蛟龍	-10.4458
至則	-10.4468
罄	-10.4473
豈可	-10.4475
間有	-10.4481
始知	-10.4484
稱之	-10.4484
惶	-10.4485
東陽	-10.4492
劄	-10.4494
而求	-10.4494
亞	-10.4496
聖主	-10.4498
畀	-10.4498
矣此	-10.4502
於乎	-10.4505
墓表	-10.4511
劑	-10.4513
右軍	-10.4514
本於	-10.4515
太安人	-10.4515
稔	-10.4515
莫敢	-10.4519
鋤	-10.4521
也因	-10.4524
筭	-10.4527
渡江	-10.4531
孺子	-10.4532
畦	-10.4535
乙	-10.4536
小民	-10.4539
不下	-10.4543
公與	-10.4544
此身	-10.4548
摹	-10.4548
耿耿	-10.4548
𦙍	-10.455
銳	-10.455
陳君	-10.4552
飈	-10.456
詹	-10.4562
明朝	-10.4565
之末	-10.4572
其生	-10.4573
臧	-10.4576
其始	-10.4579
嫡	-10.4579
所聞	-10.458
幅	-10.4584
同官	-10.4589
白髮	-10.4594
饌	-10.4599
于此	-10.46
沼	-10.46
興起	-10.4615
熾	-10.4616
某某	-10.4616
泄	-10.4617
僣	-10.4618
不利	-10.4629
無遺	-10.4637
之可	-10.4641
芻	-10.4643
咲	-10.4644
周氏	-10.465
盆	-10.4652
之屬	-10.4653
如也	-10.4658
之世	-10.466
羌	-10.466
三山	-10.4661
穎	-10.4665
彬	-10.4667
姑蘇	-10.4667
者惟	-10.4668
驂	-10.4674
四十年	-10.4678
不改	-10.4688
握手	-10.4689
尼	-10.4689
不得不	-10.469
楮	-10.469
胸中	-10.4695
以事	-10.4695
仕者	-10.4698
多士	-10.47
貴州	-10.4703
其說	-10.4707
以行	-10.4707
洩	-10.4709
考功	-10.4713
其力	-10.4715
囂	-10.472
貝	-10.4726
也是故	-10.4732
永嘉	-10.4732
顔子	-10.4732
磯	-10.4734
崑崙	-10.4741
嘗以	-10.4743
赦	-10.4746
足矣	-10.4746
之深	-10.4746
世道	-10.4747
生民	-10.4748
敢不	-10.4756
溫	-10.4757
勃	-10.4759
今古	-10.4762
科第	-10.4762
大明	-10.4765
季子	-10.4766
滄浪	-10.4768
緝	-10.4768
橘	-10.4769
則為	-10.477
菲	-10.4776
甲申	-10.4779
恍	-10.478
瓢	-10.4782
無疑	-10.4786
奉聖㫖	-10.4792
矣又	-10.4793
而未	-10.4795
五湖	-10.4796
釀	-10.4797
為之記	-10.4798
明白	-10.4802
鎖	-10.4805
奄	-10.4806
勛	-10.4809
挫	-10.4815
當其	-10.4833
衙門	-10.4833
二日	-10.4835
何敢	-10.4835
山谷	-10.4836
陛	-10.4837
吾邑	-10.4839
狥	-10.484
也盖	-10.4847
江漢	-10.4848
劉君	-10.4853
咽	-10.4853
杞	-10.4862
其門	-10.4863
惟公	-10.4864
上帝	-10.4864
迭	-10.4865
一枝	-10.4865
則必	-10.4867
女子	-10.4868
以死	-10.4869
卉	-10.4869
能以	-10.487
少師	-10.4871
松栢	-10.4873
渴	-10.4874
其賢	-10.4875
惟是	-10.4877
之重	-10.488
循吏	-10.488
詆	-10.4882
隻	-10.489
誰知	-10.4892
道人	-10.4901
驩	-10.4902
朂	-10.4909
别有	-10.4921
武昌	-10.4929
種種	-10.4932
彚	-10.4932
余曰	-10.494
渥	-10.494
任之	-10.4942
言語	-10.4942
殺人	-10.4948
或謂	-10.495
萊	-10.495
不遇	-10.4956
仁者	-10.4957
南陽	-10.4964
者故	-10.4965
堂上	-10.497
君以	-10.497
歸而	-10.4973
名山	-10.4974
山隂	-10.4976
皓	-10.4981
事君	-10.4985
讒	-10.4985
處處	-10.4986
縣官	-10.4987
雲霄	-10.4988
䧟	-10.4997
相去	-10.4999
覲	-10.5001
檜	-10.5002
則無	-10.5006
如故	-10.5007
炊	-10.5007
甌	-10.5008
奢	-10.5009
非所	-10.5012
犀	-10.5016
花落	-10.5018
有如	-10.5018
蜂	-10.502
剿	-10.502
酸	-10.5021
不能盡	-10.5025
由來	-10.5028
聞者	-10.5037
貴人	-10.504
鬭	-10.5046
遣使	-10.5047
之賜	-10.5057
譬	-10.5057
青青	-10.5059
購	-10.5063
浄	-10.5064
吳中	-10.5067
死而	-10.507
饗	-10.507
不逺	-10.5074
粥	-10.508
孔子曰	-10.508
優游	-10.5084
何哉	-10.5084
何能	-10.5084
肝	-10.5086
窘	-10.5092
近世	-10.5092
歷	-10.5093
茅屋	-10.5093
十四年	-10.5096
非其	-10.5099
諳	-10.5103
而致	-10.5104
幾人	-10.5108
賄	-10.5108
百餘	-10.5111
始得	-10.5112
笑曰	-10.5114
題畫	-10.5116
罵	-10.5117
别離	-10.5117
航	-10.5123
掇	-10.5128
檀	-10.5128
年五十	-10.5128
稍稍	-10.5131
隳	-10.5132
憶昔	-10.5135
太白	-10.5135
刪	-10.5136
而不得	-10.5136
參政	-10.5139
茫	-10.5142
其不	-10.5147
聞而	-10.5148
反覆	-10.5148
騁	-10.5156
華亭	-10.5158
之仁	-10.516
平居	-10.5161
揚州	-10.5167
誰與	-10.517
所自	-10.5171
之憂	-10.5171
跳	-10.5172
可得	-10.5177
大節	-10.5182
亦可以	-10.5184
上官	-10.5195
士竒	-10.5197
為學	-10.5198
厄	-10.52
載酒	-10.5205
寥寥	-10.5206
堡	-10.5206
之利	-10.5208
生而	-10.5208
虗	-10.5215
視其	-10.5216
忘其	-10.5226
程子	-10.5229
有是	-10.5231
乎曰	-10.5234
滄洲	-10.5235
聖賢之	-10.5235
不果	-10.5236
之本	-10.5241
城西	-10.5242
孽	-10.5246
登髙	-10.5246
趾	-10.5249
桞	-10.5253
葩	-10.5253
以身	-10.526
哉然	-10.526
斯民	-10.526
髙明	-10.5265
觀者	-10.5265
遡	-10.5267
两	-10.5267
因其	-10.5268
亦未	-10.527
也君	-10.5271
居官	-10.5281
復以	-10.5283
焉耳	-10.5283
惟其	-10.5284
駿	-10.5287
吉水	-10.5287
甕	-10.5289
曳	-10.5291
縣丞	-10.5296
萱	-10.5297
其弟	-10.5297
始於	-10.5299
一夜	-10.5303
必欲	-10.5304
在天	-10.5304
煖	-10.5308
太宜人	-10.5311
自信	-10.5313
詩云	-10.5313
怕	-10.5317
州府	-10.5319
一何	-10.5323
南都	-10.5327
艱難	-10.5328
柰何	-10.533
駢	-10.5336
北斗	-10.534
相從	-10.5344
麒麟	-10.5345
以義	-10.5345
悽	-10.5347
長史	-10.5347
兔	-10.5349
壬辰	-10.5363
日用	-10.5365
祉	-10.5365
蹄	-10.5365
巽	-10.5367
臨川	-10.5372
夜深	-10.5373
椿	-10.5374
清明	-10.5374
之誠	-10.5374
廖	-10.5375
愴	-10.5378
潦	-10.5378
真人	-10.538
云爾	-10.5384
東坡	-10.5384
藹	-10.5389
現	-10.5393
玉樹	-10.5394
之語	-10.5396
廡	-10.5399
太史公	-10.5401
沸	-10.5403
從子	-10.5403
靑	-10.5405
天人	-10.5406
不惟	-10.5409
璋	-10.5418
君諱	-10.5419
其氣	-10.5425
之望	-10.5426
之謂也	-10.5427
舄	-10.5429
朱氏	-10.5429
殯	-10.5431
亦知	-10.5433
氓	-10.5436
億	-10.5436
以傳	-10.5444
以来	-10.5445
中人	-10.5446
哺	-10.5447
謡	-10.5447
二十四	-10.545
經筵	-10.5452
長子	-10.5453
事也	-10.5459
皎	-10.546
東方	-10.5461
自今	-10.5461
也先生	-10.5463
未足	-10.5464
今日之	-10.5464
不克	-10.5466
地下	-10.5472
庚	-10.5472
内閣	-10.5478
禮部尚書	-10.548
羸	-10.5483
翹	-10.5486
曜	-10.5489
惕	-10.5491
感慨	-10.5492
拯	-10.5492
湮	-10.5492
南海	-10.5494
都門	-10.5496
幽人	-10.5497
復何	-10.55
鳳凰	-10.55
敞	-10.5502
後之人	-10.5503
欝	-10.5504
餽	-10.5504
長歌	-10.5504
日夕	-10.5506
瘁	-10.551
名臣	-10.5511
國史	-10.5511
㑹試	-10.5515
閏	-10.5515
所云	-10.5517
庖	-10.5518
之道也	-10.552
之體	-10.5523
訃	-10.5527
為大	-10.5527
帝王	-10.553
太原	-10.553
未免	-10.5534
壅	-10.5536
嗇	-10.5536
大事	-10.5543
滇	-10.5546
湍	-10.5546
未有不	-10.5558
琅玕	-10.5559
六合	-10.556
而不敢	-10.5568
翮	-10.557
城郭	-10.557
昨夜	-10.5571
詫	-10.5574
磬	-10.5575
有光	-10.5578
鯉	-10.5579
京兆	-10.5582
一夕	-10.5584
彼此	-10.5588
鄭氏	-10.5588
湖山	-10.5591
霄漢	-10.5593
之墓	-10.56
核	-10.5606
數人	-10.5609
矣公	-10.5611
諸臣	-10.5611
惻	-10.5612
焉者	-10.5614
之訓	-10.5615
兎	-10.5615
序之	-10.5616
自昔	-10.5624
嗚呼哀哉	-10.5627
零落	-10.5631
宰相	-10.5636
曰汝	-10.5636
仲尼	-10.5641
故有	-10.5642
白馬	-10.5654
昌黎	-10.5655
中流	-10.5656
以見	-10.5657
矣乎	-10.5657
年少	-10.5657
於鄉	-10.5658
譁	-10.5659
兇	-10.5659
行而	-10.5659
何可	-10.5661
無言	-10.5664
聖學	-10.5664
𣲖	-10.5671
鈍	-10.5673
陀	-10.5677
固已	-10.5678
二者	-10.5683
守之	-10.5686
渙	-10.5688
守備	-10.5689
秋日	-10.569
以明	-10.5691
猥	-10.5692
天地間	-10.5693
豈其	-10.5693
之年	-10.5695
以報	-10.5697
教化	-10.5697
諸人	-10.5701
翰墨	-10.5704
炙	-10.5704
阡	-10.5706
其族	-10.5708
太行	-10.5713
不妨	-10.5713
閒居	-10.5714
所及	-10.5715
以濟	-10.5715
儻	-10.5719
前代	-10.5722
厨	-10.5731
白玉	-10.5732
不到	-10.5736
是日	-10.574
凱	-10.5741
在焉	-10.5742
啄	-10.5743
五雲	-10.5743
泉石	-10.5747
公既	-10.575
十六年	-10.5753
不平	-10.5755
數千里	-10.5758
玊	-10.5758
臆	-10.5762
之東	-10.5763
江右	-10.5764
翟	-10.5773
撲	-10.5774
緯	-10.5776
矣乃	-10.5779
第二	-10.5781
此則	-10.5781
殷勤	-10.5783
繕	-10.5784
貧賤	-10.5785
箋	-10.5788
之家	-10.5793
銘銘曰	-10.5797
山河	-10.5799
官兵	-10.58
聯	-10.5803
撤	-10.5805
乂	-10.5805
数	-10.5808
承恩	-10.581
其為人	-10.5822
無子	-10.5822
斛	-10.5823
之門	-10.5823
柩	-10.5827
學宫	-10.5828
别後	-10.583
遯	-10.5836
不倦	-10.5837
必先	-10.5838
訾	-10.584
士君子	-10.584
漆	-10.5841
桃源	-10.5849
鴻臚	-10.585
幸而	-10.5855
羅浮	-10.586
旭	-10.5872
徐公	-10.5872
譲	-10.5879
攷	-10.588
之精	-10.5882
手書	-10.5883
長江	-10.5884
明道	-10.5885
掾	-10.589
裴	-10.589
臘	-10.5891
孫女	-10.5892
吝	-10.5895
有事	-10.5897
敢以	-10.5898
之習	-10.5902
昂	-10.5904
暎	-10.5906
想見	-10.5909
不敢以	-10.5911
自知	-10.5913
秀才	-10.5915
丁未	-10.5915
落落	-10.5918
明府	-10.5923
超然	-10.5923
武帝	-10.5924
無由	-10.5924
彬彬	-10.5927
進而	-10.5927
於學	-10.5928
事理	-10.5929
曰子	-10.5931
小兒	-10.5936
老而	-10.5937
娯	-10.5937
近日	-10.5945
稼	-10.5947
礪	-10.5948
狄	-10.595
有聞	-10.5954
妹	-10.5956
教子	-10.5956
推官	-10.5958
在人	-10.5961
擕	-10.5962
長生	-10.5963
轡	-10.5965
旌旗	-10.5966
豈徒	-10.5969
何年	-10.5973
迢迢	-10.5974
無聞	-10.5974
溪上	-10.5976
刹	-10.5981
闇	-10.5985
可與	-10.5986
悚	-10.599
岫	-10.5991
皆可	-10.5992
所言	-10.5993
雲氣	-10.5998
孫子	-10.5999
最後	-10.6002
十二年	-10.6004
夫豈	-10.6005
艶	-10.6008
謚	-10.601
二親	-10.6012
事事	-10.6013
瞿	-10.6013
賢才	-10.6017
璽書	-10.6021
知也	-10.6022
格物	-10.6022
大學士	-10.6026
哉雖然	-10.6027
曰某	-10.603
禍福	-10.6032
璫	-10.6038
經營	-10.6043
善人	-10.6047
帽	-10.605
哉予	-10.605
名之曰	-10.605
斾	-10.6051
迅	-10.6053
縦	-10.6058
藪	-10.6058
忠臣	-10.606
弗能	-10.6061
陽明	-10.6063
在我	-10.6066
余言	-10.6066
其辭	-10.6068
臬	-10.607
二字	-10.6077
縹緲	-10.6078
而益	-10.6078
絶句	-10.6085
人臣	-10.6087
匆匆	-10.6098
之傳	-10.6099
天下之事	-10.6102
甸	-10.611
安之	-10.6112
夜月	-10.6114
不謂	-10.6116
侑	-10.6117
四人	-10.6119
某等	-10.612
星辰	-10.6125
赤子	-10.6125
目前	-10.6126
不通	-10.613
譴	-10.6132
以疾	-10.6133
浹	-10.6136
其居	-10.6137
巒	-10.6141
不愧	-10.6141
大道	-10.6142
繄	-10.6143
蒿	-10.6144
庚戌	-10.6144
公公	-10.6153
徤	-10.6156
郁	-10.616
本無	-10.6162
行者	-10.6163
老去	-10.6164
而忘	-10.6164
紗	-10.6168
者咸	-10.617
泰山	-10.6172
豔	-10.6173
呌	-10.6173
之所謂	-10.6173
蒼茫	-10.6183
芸	-10.6187
葦	-10.6187
士夫	-10.6189
覧	-10.6194
里人	-10.6196
樓臺	-10.6196
有異	-10.62
不解	-10.62
豕	-10.6203
者即	-10.6213
太倉	-10.6213
蕙	-10.6214
也已	-10.6215
以道	-10.6217
學術	-10.6219
物也	-10.6219
還家	-10.622
為天下	-10.622
能知	-10.6221
胡公	-10.6227
之㑹	-10.6228
礙	-10.623
渇	-10.6232
訛	-10.6232
轄	-10.6233
按察使	-10.6234
生子	-10.6235
出其	-10.6236
有過	-10.6239
股	-10.624
公亦	-10.6243
液	-10.6245
其大	-10.6248
邢	-10.625
大司馬	-10.625
駁	-10.6251
可不	-10.6254
前人	-10.6254
不入	-10.6256
懈	-10.6258
從而	-10.6258
天子之	-10.626
逓	-10.6262
言曰	-10.6263
灼	-10.6267
浩蕩	-10.6268
塋	-10.6271
用兵	-10.6271
而終	-10.6274
醴	-10.6277
義理	-10.6277
北山	-10.6279
叱	-10.6279
其徒	-10.6281
也豈	-10.6286
之能	-10.6287
太監	-10.629
未聞	-10.6291
不䏻	-10.6291
從來	-10.6295
夜半	-10.6296
蹶	-10.6299
數十年	-10.6303
丙子	-10.6304
竈	-10.631
其業	-10.6314
之要	-10.6314
先卒	-10.6317
上林	-10.6323
經綸	-10.6324
名士	-10.6329
而行之	-10.633
洋洋	-10.633
等項	-10.6331
提督	-10.6335
是則	-10.6337
螺	-10.634
百萬	-10.6341
胸	-10.635
之南	-10.6351
則以	-10.6351
霏	-10.6353
三四	-10.6353
人多	-10.6354
轅	-10.6355
聖朝	-10.6358
性命	-10.6361
有待	-10.6369
也耶	-10.6372
者今	-10.6372
獨坐	-10.6375
然自	-10.6376
何須	-10.6377
科目	-10.6378
篷	-10.6383
縉	-10.6384
净	-10.6387
卒以	-10.6389
媒	-10.6389
與余	-10.6394
翕	-10.6397
也昔	-10.6398
百尺	-10.6398
鉛	-10.6399
千餘	-10.6399
矣吾	-10.6399
迓	-10.6401
為之序	-10.6401
瑛	-10.6402
斃	-10.6405
諸賢	-10.6406
覃	-10.6407
幾時	-10.6408
有名	-10.6412
軫	-10.6413
紹興	-10.6415
弁	-10.6418
瀕	-10.6418
四百	-10.6419
鷺	-10.642
祖父	-10.6421
豐城	-10.6421
孜孜	-10.6423
中興	-10.6425
盛時	-10.6426
不仕	-10.6427
慣	-10.6431
九州	-10.6432
人曰	-10.6434
虎豹	-10.6435
先儒	-10.6436
薰	-10.6437
斤	-10.6442
且以	-10.6443
綜	-10.6445
太息	-10.6446
笳	-10.6446
究其	-10.6453
侍講	-10.6459
冉冉	-10.6461
纒	-10.6461
嶠	-10.6462
者多矣	-10.6463
獨立	-10.6464
○	-10.6466
知道	-10.6467
倖	-10.6469
城東	-10.647
我欲	-10.647
監司	-10.6476
燬	-10.648
詩以	-10.6484
家世	-10.6484
孰能	-10.6484
於中	-10.6484
中夜	-10.6486
立言	-10.649
葱	-10.6491
三公	-10.6495
杜門	-10.6496
綰	-10.6497
拳拳	-10.6497
以言	-10.6502
請於	-10.6507
有能	-10.6509
扶桑	-10.6509
瑄	-10.6511
事者	-10.6512
巻十	-10.6522
像贊	-10.6525
翫	-10.6527
之交	-10.6535
之榮	-10.6538
之性	-10.6542
干戈	-10.6543
天下後世	-10.6549
寰	-10.6552
道者	-10.6553
故舊	-10.6554
在於	-10.6556
猗	-10.6556
瀟湘	-10.6556
鑰	-10.6556
忠厚	-10.656
夜雨	-10.6563
春水	-10.6563
平陽	-10.6566
看花	-10.6569
忱	-10.657
塾	-10.6572
裹	-10.6573
止於	-10.6574
書曰	-10.6578
桑梓	-10.6578
也葢	-10.6583
如此則	-10.6586
魏公	-10.6587
人君	-10.6591
異之	-10.6591
能為	-10.6594
嶺南	-10.6595
燈火	-10.6603
之言曰	-10.6603
天風	-10.6606
哉故	-10.6608
山房	-10.6608
氣象	-10.6615
此非	-10.6618
和氣	-10.6619
不意	-10.6619
猜	-10.662
今朝	-10.6621
草草	-10.6621
一語	-10.6622
薊	-10.6623
博學	-10.6623
後來	-10.6626
改元	-10.6633
吏民	-10.6634
癸丑	-10.6635
橫	-10.6635
沂	-10.6637
蘓	-10.6637
養之	-10.6638
自足	-10.664
祖考	-10.6643
其性	-10.6659
濱	-10.6666
必得	-10.6676
在位	-10.668
俘	-10.668
屑	-10.6682
異於	-10.6682
愜	-10.6683
枚	-10.6683
棗	-10.6684
軼	-10.6684
入覲	-10.6686
不息	-10.6686
兒女	-10.6687
固不	-10.6688
梯	-10.6694
煌煌	-10.6698
臨風	-10.6698
性情	-10.6699
呵	-10.6699
黯	-10.6701
泝	-10.6703
之費	-10.6704
依然	-10.6705
舅姑	-10.6708
沽	-10.6708
甲辰	-10.6709
在上	-10.6712
元季	-10.6715
明時	-10.6716
稍長	-10.6719
先朝	-10.6723
五人	-10.6725
也何	-10.6727
貴賤	-10.6734
居之	-10.6736
故家	-10.6744
又云	-10.6746
國子	-10.6746
不爲	-10.6748
剔	-10.6749
盡其	-10.675
春草	-10.6754
未嘗有	-10.6754
無負	-10.6756
乎是	-10.6757
夫人之	-10.6759
辜	-10.6761
考其	-10.6762
舂	-10.6766
不甚	-10.6767
焉夫	-10.6767
林泉	-10.6767
藩臬	-10.6769
察其	-10.6769
亡何	-10.6772
梢	-10.6774
北風	-10.6776
壙	-10.6777
丁丑	-10.6777
雖欲	-10.6778
不食	-10.678
愼	-10.6783
而出	-10.6785
孔明	-10.6791
亭亭	-10.6794
封君	-10.6809
竝	-10.6813
只今	-10.6819
古文	-10.6823
墀	-10.6823
之孫	-10.6824
戊辰	-10.6824
篁	-10.6825
癖	-10.6826
有意	-10.6826
相看	-10.6827
装	-10.6827
光禄	-10.6828
河東	-10.6835
鍊	-10.6836
武夷	-10.6841
太公	-10.6841
何當	-10.6844
傷心	-10.6848
無疆	-10.685
夢寐	-10.6852
成之	-10.6853
甘泉	-10.6853
拊	-10.6857
中秋	-10.6859
撼	-10.686
糜	-10.6862
雲霞	-10.6862
其官	-10.6862
傳之	-10.6862
古來	-10.6866
侍從	-10.6867
之厚	-10.6869
至其	-10.6871
愉	-10.6881
為誰	-10.6881
吾鄉	-10.6882
人知	-10.6883
禪師	-10.6884
不能自	-10.6885
以安	-10.6887
者無	-10.6891
殖	-10.6894
編修	-10.6895
中天	-10.6896
職方	-10.6898
授之	-10.6899
鄉黨	-10.6902
有加	-10.6903
送王	-10.6907
乃今	-10.6907
艇	-10.6908
人倫	-10.6908
著述	-10.6914
鰲	-10.692
非獨	-10.6923
理之	-10.6929
唐人	-10.6941
或者	-10.6945
相如	-10.6946
發之	-10.6946
主簿	-10.6947
亦不能	-10.6951
未發	-10.6951
酉	-10.6952
拍	-10.6953
訥	-10.6956
耽	-10.6957
有無	-10.6967
一章	-10.6971
有遺	-10.6973
衙	-10.6977
十數	-10.6979
而起	-10.6983
焉故	-10.6984
及此	-10.6986
世俗	-10.6989
叅議	-10.6991
莫如	-10.6991
仆	-10.6991
洎	-10.6994
嗟嗟	-10.6994
之表	-10.6995
㑹同	-10.6999
名其	-10.6999
之靈	-10.7
杯酒	-10.7004
為序	-10.7005
上天	-10.7007
松江	-10.7009
安可	-10.7009
家事	-10.7015
愽	-10.7017
無非	-10.7017
聲色	-10.7018
不衰	-10.7018
抛	-10.7018
則是	-10.7018
學官	-10.7019
之請	-10.702
以正	-10.7022
為一	-10.7023
既成	-10.7024
有可	-10.7028
瞽	-10.7029
皆得	-10.7029
贓	-10.7032
貂	-10.7035
螢	-10.7037
宗社	-10.7038
庚辰	-10.704
蒼梧	-10.7042
江陵	-10.7042
春來	-10.7045
以前	-10.7051
江左	-10.7053
甲戌	-10.7054
該部	-10.7054
即事	-10.7054
此事	-10.7056
大用	-10.7056
公論	-10.706
恰	-10.7069
見寄	-10.707
心事	-10.7071
施於	-10.7072
能盡	-10.7076
天官	-10.7078
手足	-10.7079
以聞	-10.7082
版	-10.7085
偃蹇	-10.7092
總督	-10.7092
不應	-10.7096
他年	-10.7096
吏部尚書	-10.7096
有五	-10.7097
為樂	-10.7098
寂寥	-10.7101
太淑人	-10.7103
於君	-10.7104
豎	-10.7104
九江	-10.7107
月色	-10.7111
奉使	-10.7111
浮屠	-10.7114
也必	-10.7118
善惡	-10.7118
南國	-10.7122
樂也	-10.7129
胡不	-10.713
翕然	-10.7133
將來	-10.7139
為主	-10.714
以奉	-10.7141
事功	-10.7142
世祖	-10.7142
匣	-10.7147
一心	-10.7148
峭	-10.715
潁	-10.7153
當道	-10.7153
無極	-10.7153
様	-10.7154
小大	-10.7155
不有	-10.7155
門户	-10.7157
其友	-10.7165
稷	-10.7167
之澤	-10.7169
庚子	-10.717
騐	-10.7173
緬	-10.7177
孰與	-10.718
嵗寒	-10.718
時事	-10.7182
邂逅	-10.7185
自立	-10.719
吾儒	-10.7192
與世	-10.7194
歌舞	-10.7195
為世	-10.7196
本部	-10.7198
簿書	-10.7198
猶可	-10.7198
擔	-10.7203
辛丑	-10.7203
命也	-10.7204
翛然	-10.7204
漂	-10.7205
縣知縣	-10.7205
釁	-10.7207
徒以	-10.7208
親戚	-10.7208
昨日	-10.7209
談笑	-10.721
公生	-10.7212
也况	-10.7212
斜陽	-10.7214
薇	-10.7214
予聞	-10.7215
又能	-10.722
療	-10.7224
誚	-10.7226
古道	-10.7234
窈窕	-10.7234
衣裳	-10.7234
何異	-10.7238
𣣔	-10.7241
追封	-10.7246
之福	-10.7247
今為	-10.7248
然者	-10.725
子姓	-10.7251
騫	-10.7253
滕	-10.7255
戊戌	-10.7255
圖書	-10.7255
於物	-10.7256
一物	-10.7259
不加	-10.726
同時	-10.7261
不離	-10.7262
來者	-10.7264
與公	-10.7264
賞罰	-10.7266
不違	-10.7269
此書	-10.7271
别駕	-10.7272
柴門	-10.7273
表裏	-10.7275
之聲	-10.7275
下有	-10.7279
蘭亭	-10.728
落葉	-10.7282
者莫不	-10.7283
異端	-10.7285
悵望	-10.7286
瓜	-10.7289
亦多	-10.729
一生	-10.73
一月	-10.7303
年八十	-10.7304
之暇	-10.7305
無足	-10.7307
須臾	-10.7307
捨	-10.7309
不以為	-10.7313
之辭	-10.7316
周禮	-10.7317
後有	-10.7319
殞	-10.732
之師	-10.732
丁酉	-10.732
沖	-10.7322
之禍	-10.7323
閭里	-10.7323
丙午	-10.7325
囿	-10.7325
豈知	-10.7329
然哉	-10.7329
孔孟	-10.7331
八日	-10.7332
加以	-10.7333
好古	-10.7334
夸	-10.7341
堵	-10.7341
先師	-10.7342
頃刻	-10.7342
誠有	-10.7342
槁	-10.7343
㤗	-10.7343
㤀	-10.7344
之所為	-10.7347
珊瑚	-10.7348
安於	-10.7348
萬餘	-10.7352
波濤	-10.7353
有作	-10.7354
暘	-10.736
晋	-10.7361
疫	-10.7362
邑人	-10.7363
是謂	-10.7363
無乃	-10.7364
非不	-10.7369
聖人之道	-10.737
吾民	-10.7371
古之君子	-10.7371
付之	-10.7372
歲月	-10.7372
扼	-10.7375
無論	-10.7375
未成	-10.7376
郤	-10.7377
尚可	-10.7379
後進	-10.7382
竟以	-10.7382
大夫士	-10.7382
佇	-10.7384
掣	-10.7386
者吾	-10.7386
之前	-10.7387
臣子	-10.7388
秦漢	-10.7389
後學	-10.7389
不去	-10.739
壠	-10.739
閭閻	-10.7392
官吏	-10.7393
椎	-10.7395
而言	-10.7397
應天	-10.7398
黄氏	-10.7403
之良	-10.7403
武功	-10.7404
大矣	-10.7405
帑	-10.7405
蟾	-10.7407
二君	-10.7407
愕	-10.741
賦此	-10.741
明徳	-10.7412
化為	-10.7419
河間	-10.7419
爲人	-10.7422
颯	-10.7423
矣雖然	-10.7426
冺	-10.7426
者葢	-10.7427
嘗聞	-10.743
百官	-10.7431
存心	-10.7432
甲午	-10.7435
蓮花	-10.7436
聿	-10.744
庚午	-10.7441
壬午	-10.7442
之好	-10.7445
得意	-10.7445
誰為	-10.7445
其次	-10.7449
不知所	-10.7449
無心	-10.7451
冢	-10.7456
砌	-10.7456
艷	-10.7456
亦皆	-10.7459
何如也	-10.7461
少時	-10.7461
有常	-10.7463
有四	-10.7463
張子	-10.7463
男女	-10.7464
飄飄	-10.7464
有文	-10.7468
督學	-10.7468
然有	-10.7468
歸田	-10.7473
太湖	-10.7474
涸	-10.7474
竅	-10.7477
搏	-10.7477
聲名	-10.7478
徐氏	-10.7482
墓在	-10.7483
文明	-10.7486
生意	-10.7487
造物	-10.7488
民間	-10.7488
概	-10.7494
無敢	-10.7496
亦惟	-10.7496
伯子	-10.7498
以養	-10.75
所由	-10.7501
閣下	-10.7503
猶存	-10.7504
吾黨	-10.7505
窗	-10.7506
□	-10.7508
儗	-10.7509
盪	-10.7512
不可無	-10.7516
十一年	-10.7516
孔子之	-10.7517
盛徳	-10.7523
乆而	-10.7525
史氏	-10.7527
余嘗	-10.7528
戕	-10.7528
一時之	-10.7534
一鄉	-10.7541
瞑	-10.7542
婣	-10.7544
錢糧	-10.7553
以居	-10.7554
簇	-10.7558
公車	-10.7559
乎吾	-10.7559
一官	-10.7562
得罪	-10.7562
相期	-10.7563
學而	-10.7563
國家之	-10.7569
祖諱	-10.757
駟	-10.7573
竹林	-10.7573
而吾	-10.7574
殄	-10.7578
以資	-10.7579
縻	-10.7581
極其	-10.7581
登樓	-10.7582
龍虎	-10.7584
餓	-10.759
何用	-10.759
至扵	-10.759
笏	-10.7598
誰家	-10.7599
蘄	-10.76
施之	-10.7601
憊	-10.7601
家有	-10.7604
此豈	-10.7606
也彼	-10.7607
畫圖	-10.7607
酒酣	-10.7613
壬子	-10.7613
昆弟	-10.7614
我亦	-10.7614
倅	-10.7615
之始	-10.7616
此言	-10.7616
贄	-10.7616
則不	-10.7617
信之	-10.7621
愛民	-10.7624
也臣	-10.7625
司訓	-10.7626
為記	-10.7627
為御史	-10.7627
以教	-10.7627
按察司	-10.7628
吁嗟	-10.7629
巔	-10.763
雨過	-10.7634
周之	-10.7635
其私	-10.7636
癸未	-10.7638
子與	-10.7639
暇日	-10.7643
聆	-10.7646
努力	-10.765
蟄	-10.765
塵埃	-10.7651
所生	-10.7651
風霜	-10.7654
又得	-10.7655
蘋	-10.7658
只在	-10.766
古人之	-10.7662
存乎	-10.7665
煉	-10.7665
不任	-10.7666
如今	-10.7667
窩	-10.7667
稟	-10.7667
乙未	-10.7669
能不	-10.7673
何有	-10.7676
不妄	-10.7678
匡廬	-10.7678
癸酉	-10.7681
即是	-10.7681
非吾	-10.7682
煦	-10.7684
亦必	-10.7689
蔑	-10.7689
此皆	-10.7692
南康	-10.7693
遣人	-10.7694
明珠	-10.7694
雖未	-10.77
而天下	-10.77
璽	-10.77
貢士	-10.7703
傳曰	-10.7704
屬予	-10.7705
非徒	-10.7706
者此	-10.7706
世居	-10.7708
拳	-10.7714
乃為	-10.7715
然以	-10.7721
濳	-10.7723
丙辰	-10.7723
書生	-10.7724
之弗	-10.7725
人世	-10.7729
不置	-10.7732
寸心	-10.7732
明主	-10.7733
根本	-10.7733
重來	-10.7734
九原	-10.7736
牛羊	-10.7737
屈指	-10.7737
能無	-10.7741
紅塵	-10.7746
對酒	-10.7747
道理	-10.775
六七	-10.7753
一郡	-10.7754
公私	-10.7759
自為	-10.776
黄公	-10.7763
且曰	-10.7764
數萬	-10.7765
自以為	-10.7765
科舉	-10.7771
無用	-10.7771
藏之	-10.7772
不遺	-10.7775
不孝	-10.7775
與予	-10.7776
一篇	-10.7779
無錫	-10.778
君為	-10.778
岱	-10.7785
滄溟	-10.7786
開元	-10.7787
行省	-10.7788
蹊	-10.7789
其罪	-10.7789
笠	-10.779
港	-10.7791
於無窮	-10.7795
偶然	-10.7797
今上	-10.7802
昔年	-10.7803
芽	-10.7804
廬山	-10.7806
憩	-10.7806
鵝	-10.7807
謂公	-10.7808
實録	-10.7811
大雅	-10.7811
兩廣	-10.7813
使我	-10.7813
者蓋	-10.7815
髙下	-10.7816
巡按	-10.782
乎天	-10.7822
於我	-10.7823
胎	-10.7823
自少	-10.7823
吳興	-10.7825
世所	-10.7826
一毫	-10.7827
㝠㝠	-10.7829
詘	-10.7829
三十六	-10.783
所學	-10.7832
宜其	-10.7838
支離	-10.7838
紀綱	-10.7839
雨後	-10.784
於其間	-10.784
所致	-10.7842
飡	-10.7843
翺翔	-10.7844
寂寂	-10.7846
吾弟	-10.7847
不宣	-10.7848
不異	-10.7851
先祖	-10.7851
戊子	-10.7852
臣聞	-10.7853
宋之	-10.7853
所不能	-10.7856
人謂	-10.786
不可得而	-10.7863
曵	-10.7864
裒	-10.7864
善者	-10.7866
漢唐	-10.7872
於兹	-10.7875
先君子	-10.7877
芹	-10.7878
惜其	-10.7881
風波	-10.7882
治天下	-10.7883
汰	-10.7884
大都	-10.7884
兩京	-10.7885
你	-10.7886
東北	-10.7887
瓶	-10.7896
荀	-10.7897
者如	-10.7898
矣余	-10.7898
少傅	-10.7901
其用	-10.7905
冠帶	-10.7906
議者	-10.7907
細雨	-10.7909
凡三	-10.7909
蹉跎	-10.7911
易之	-10.7913
霜露	-10.7914
必能	-10.7916
自持	-10.7924
紫氣	-10.7925
祠堂	-10.7926
自此	-10.7928
交游	-10.7931
相親	-10.7931
髓	-10.7933
求諸	-10.7933
兒童	-10.7933
以進	-10.7934
巍	-10.7939
浩然	-10.795
受其	-10.7953
隐	-10.7953
賂	-10.7956
經歴	-10.7959
軍門	-10.7962
終其身	-10.7962
未甞	-10.7964
纍纍	-10.7969
妥	-10.7969
孤城	-10.797
蠅	-10.7972
何似	-10.7973
灾	-10.7973
窮理	-10.7981
昔之	-10.7981
廹	-10.7987
悅	-10.7988
紫陽	-10.7988
撫按	-10.799
綂	-10.7994
蘇州	-10.7999
行狀	-10.8
如玉	-10.8005
蝕	-10.8005
恂恂	-10.8006
者當	-10.8007
覿	-10.8007
𥙷	-10.8007
東園	-10.8008
識其	-10.801
有懐	-10.8012
風月	-10.8015
乞歸	-10.8015
多所	-10.8016
臨江	-10.8016
驪	-10.8017
萬國	-10.802
朶	-10.802
齊魯	-10.8022
前輩	-10.8022
拈	-10.8023
疾病	-10.8029
行道	-10.8032
諸儒	-10.8033
于世	-10.8034
為治	-10.8036
所存	-10.8038
瑜	-10.8038
少陵	-10.8041
徜徉	-10.8042
明堂	-10.8043
鹵	-10.8045
萬石	-10.8045
光輝	-10.8048
之德	-10.8049
翰林院	-10.8049
何物	-10.8051
難為	-10.8051
六日	-10.8053
江淮	-10.8057
𠂻	-10.8058
其亦	-10.8058
太和	-10.8059
乃有	-10.806
不能以	-10.8062
池上	-10.8062
無幾	-10.8062
本末	-10.8064
禮之	-10.8067
無意	-10.8067
士民	-10.8069
趂	-10.8073
劔	-10.8074
嫉	-10.8077
成王	-10.8078
粒	-10.8079
不測	-10.8101
太傅	-10.8106
不屑	-10.8108
致之	-10.8109
泮	-10.811
為言	-10.8111
月下	-10.8111
謝曰	-10.8111
薨	-10.8111
取諸	-10.8111
莖	-10.8116
而不為	-10.8116
懦	-10.8117
是年	-10.8126
南還	-10.8129
中書舍人	-10.813
便宜	-10.8131
憎	-10.8133
赫赫	-10.8136
球	-10.8137
嘉興	-10.8141
喬木	-10.8146
日新	-10.8147
身後	-10.8149
言其	-10.815
點	-10.8151
愿	-10.8152
捍	-10.8153
圮	-10.8155
而猶	-10.8156
丙	-10.8159
吾將	-10.816
不得而	-10.8163
如雲	-10.8165
辛未	-10.8165
幃	-10.8168
之具	-10.8168
胡氏	-10.8169
紓	-10.817
聖恩	-10.8172
其大者	-10.8173
萬人	-10.8181
過於	-10.8181
不從	-10.8183
都察院	-10.8186
和之	-10.8186
嘅	-10.8188
杪	-10.8188
離離	-10.8189
公墓誌銘	-10.8189
有知	-10.8192
孔氏	-10.8194
剽	-10.8194
武陵	-10.8195
之機	-10.8195
天門	-10.8198
之詳	-10.8199
教官	-10.8199
諸弟	-10.82
儘	-10.8202
餌	-10.8203
乙酉	-10.8204
圜	-10.8207
未暇	-10.8211
之衆	-10.8211
通家	-10.8213
羽翼	-10.8214
惱	-10.8219
方寸	-10.8219
之甚	-10.8221
伯玉	-10.8222
國士	-10.8223
戊午	-10.8224
秋夜	-10.8226
兾	-10.8227
顆	-10.823
而退	-10.8233
詞林	-10.8233
皇明	-10.8235
屯田	-10.8235
報國	-10.8237
罔不	-10.8238
十三年	-10.8239
鸚鵡	-10.8239
官至	-10.8239
腥	-10.8242
雨雪	-10.8244
龍泉	-10.825
孰為	-10.8253
年四十	-10.8253
祖妣	-10.8253
出也	-10.8256
公在	-10.8259
幾度	-10.8263
歸於	-10.8263
攄	-10.8264
黠	-10.8266
五經	-10.8266
既已	-10.8267
又謂	-10.8272
正學	-10.8273
者三	-10.8273
夫以	-10.8273
推恩	-10.8275
其成	-10.8275
漾	-10.8275
萬壑	-10.8278
吾所	-10.8279
其樂	-10.8279
㕔	-10.8279
砥	-10.8281
五六	-10.8281
今天下	-10.8282
在兹	-10.8282
艮	-10.8285
欲其	-10.8286
惜哉	-10.8286
故也	-10.8288
天下事	-10.829
誦之	-10.8291
墅	-10.8292
漠漠	-10.8292
孰謂	-10.8294
秋霜	-10.83
風景	-10.8303
闕下	-10.8305
翩	-10.8305
踪	-10.8314
嘉定	-10.8317
璉	-10.8319
不茍	-10.8323
送陳	-10.8326
之女	-10.8327
犢	-10.8332
稽首	-10.8332
不難	-10.8333
嘗為	-10.8334
眇	-10.8334
醪	-10.8335
瞰	-10.8336
趍	-10.8337
天下之人	-10.8338
吾輩	-10.834
燦	-10.8341
長嘯	-10.8341
者猶	-10.8341
送張	-10.8343
乞休	-10.8346
以文學	-10.8346
毅然	-10.835
部使者	-10.8353
欹	-10.8354
皆為	-10.8354
敲	-10.8355
驄	-10.8358
流涕	-10.8361
行矣	-10.8366
知我	-10.8369
㒺	-10.8374
雲林	-10.8376
斯言	-10.8378
空谷	-10.8382
日與	-10.8383
經濟	-10.8384
今觀	-10.8386
無已	-10.8392
廸	-10.8393
瘳	-10.8393
之極	-10.8395
茫然	-10.8396
盜賊	-10.8397
本體	-10.84
願言	-10.8402
光明	-10.8402
其長	-10.8403
如水	-10.8405
不變	-10.8405
吾郡	-10.8407
逺而	-10.8407
天意	-10.8407
瀉	-10.8407
許之	-10.8408
憔悴	-10.8408
一書	-10.8408
不思	-10.8409
誠意	-10.8409
𣺌	-10.841
而思	-10.841
丙戌	-10.8411
丘壑	-10.8418
一門	-10.842
鄉先生	-10.842
再三	-10.8421
鵞	-10.8425
鴻鴈	-10.8427
所願	-10.8428
闥	-10.8429
夜夜	-10.8431
叔父	-10.8431
方今	-10.8432
坂	-10.8433
還鄉	-10.8434
有定	-10.8434
伊尹	-10.8438
哉今	-10.8438
鑾	-10.8439
燕山	-10.8444
患難	-10.8444
問之	-10.8447
悶	-10.8449
毓	-10.8449
北海	-10.8453
謳	-10.8454
如之何	-10.8455
倉卒	-10.8456
詩成	-10.8458
以贈	-10.8458
旦暮	-10.8461
師道	-10.8462
其位	-10.8462
起而	-10.8463
之父	-10.8465
者是	-10.8465
滿地	-10.8468
之爲	-10.8469
金門	-10.8469
也蓋	-10.8472
七言	-10.8472
甲寅	-10.8473
能使	-10.8474
中州	-10.8475
大家	-10.8478
城市	-10.848
瑣	-10.8481
嶂	-10.8482
迄今	-10.8484
煮	-10.8486
流光	-10.8486
汶	-10.8488
穉	-10.8489
以次	-10.849
頰	-10.8491
襄陽	-10.8493
世世	-10.8494
又明年	-10.8502
鐫	-10.8502
黛	-10.8503
伯仲	-10.8504
溟	-10.8504
未央	-10.8506
有若	-10.8506
悵然	-10.8507
魚龍	-10.8508
穫	-10.8508
文詞	-10.8515
湖南	-10.8522
相過	-10.8523
祭祀	-10.8524
鄉之	-10.8524
江河	-10.8524
書法	-10.8524
田園	-10.8524
曼	-10.8524
二十日	-10.853
殺之	-10.853
天下之大	-10.8533
所屬	-10.8537
春光	-10.854
蕭氏	-10.8542
提舉	-10.8545
之分	-10.8546
奉㫖	-10.8547
笞	-10.8549
無聲	-10.8557
思所以	-10.8557
青春	-10.8558
戊寅	-10.8558
佳人	-10.8558
不稱	-10.8559
也曰	-10.856
褐	-10.856
鳶	-10.856
旻	-10.8562
菱	-10.8565
篤於	-10.8565
前項	-10.857
是宜	-10.8572
溪山	-10.8572
卒于	-10.8572
之狀	-10.8573
於古	-10.8573
石上	-10.8577
王母	-10.8578
弩	-10.8579
秋月	-10.8582
更有	-10.8584
可考	-10.8584
主之	-10.8584
而爲	-10.8586
愛其	-10.8587
天際	-10.8588
卒業	-10.8591
可知也	-10.8592
得無	-10.8594
旄	-10.8597
之西	-10.8601
者如此	-10.8602
慕之	-10.8604
賢而	-10.8608
無定	-10.8609
正是	-10.8611
故能	-10.8615
公獨	-10.8615
難矣	-10.8615
發其	-10.8617
以病	-10.8618
榦	-10.8618
酹	-10.8621
之勞	-10.8621
老夫	-10.8623
必不	-10.8625
前日	-10.8626
布政	-10.8629
白鶴	-10.8631
繳	-10.8635
竟不	-10.8635
鵷	-10.8637
百家	-10.8639
𤨏	-10.864
不惜	-10.864
棄之	-10.8641
員外	-10.8642
閎	-10.8643
暮雲	-10.8648
送君	-10.8654
之不可	-10.8663
墓銘	-10.8665
固宜	-10.8665
安危	-10.8666
著於	-10.8666
舟楫	-10.8667
一節	-10.8667
萬方	-10.8671
轂	-10.8674
百嵗	-10.8675
杏花	-10.8677
丁亥	-10.8678
何幸	-10.8678
予以	-10.868
梧桐	-10.8681
刻之	-10.8682
贈言	-10.8683
即今	-10.8683
之宜	-10.8683
又嘗	-10.8684
相應	-10.8688
十三日	-10.8689
清江	-10.8691
金馬	-10.8694
教人	-10.8695
紛紜	-10.87
堕	-10.87
家庭	-10.8701
滛	-10.8703
剡	-10.8705
樓船	-10.8705
存焉	-10.8706
秋聲	-10.8708
藜	-10.871
在官	-10.8712
無為	-10.8714
十有二	-10.8718
宣德	-10.8718
以疾卒	-10.8719
皋	-10.8719
矣嗚呼	-10.8722
按察副使	-10.8723
者若	-10.8724
天心	-10.8729
來京師	-10.8731
在乎	-10.8733
行義	-10.8734
澆	-10.8736
推之	-10.8736
稠	-10.8738
鉢	-10.8738
山之原	-10.8738
覊	-10.8738
儼然	-10.8739
覬	-10.874
建安	-10.8741
道德	-10.8741
列聖	-10.8741
溷	-10.8743
銀河	-10.8744
徐君	-10.8747
宛轉	-10.8748
循良	-10.8753
千人	-10.8754
聫	-10.8755
踰年	-10.8756
父諱	-10.8757
慊	-10.8757
令子	-10.8764
東林	-10.8767
濟南	-10.8768
發於	-10.8773
物理	-10.8775
題曰	-10.8776
五馬	-10.8777
考之	-10.878
清溪	-10.8785
至京師	-10.8786
後生	-10.8788
有客	-10.8789
乎今	-10.8791
也既	-10.8792
戊申	-10.8795
舍人	-10.8795
自適	-10.8796
固非	-10.8797
氷雪	-10.8798
歎息	-10.8798
揣	-10.8798
鬰	-10.8802
力學	-10.8802
盼	-10.8807
弗克	-10.8808
不得其	-10.8808
事宜	-10.8809
十六日	-10.881
不便	-10.881
風起	-10.8812
樗	-10.8812
余與	-10.8814
鎭	-10.8818
渝	-10.8819
有不可	-10.882
山澤	-10.8821
之失	-10.8822
風氣	-10.8824
往事	-10.8826
孤舟	-10.8831
儕	-10.8832
甚至	-10.8833
相承	-10.8833
可勝	-10.8834
之域	-10.8837
人以為	-10.8842
雖無	-10.8843
吾儕	-10.8845
承平	-10.885
冡	-10.8853
遞	-10.8854
吳公	-10.8856
疵	-10.8859
屹	-10.886
直道	-10.8864
固無	-10.8864
顯者	-10.8867
中心	-10.8871
鉉	-10.8871
婢	-10.8874
變而	-10.8875
亦嘗	-10.8879
千山	-10.8879
不願	-10.8879
二十五	-10.8879
具奏	-10.888
與天	-10.8881
告之	-10.8881
柟	-10.8881
馬上	-10.8884
總兵	-10.8884
其爲	-10.8884
去後	-10.8884
不滿	-10.8886
浩浩	-10.8886
宜有	-10.8887
學也	-10.8889
按察	-10.8891
到處	-10.8893
又為	-10.8893
睇	-10.8894
十二日	-10.8897
本官	-10.8899
左氏	-10.8903
一面	-10.8906
逵	-10.8909
雞鳴	-10.8909
四日	-10.891
好惡	-10.891
先生以	-10.8913
駸駸	-10.8914
幾年	-10.8914
卻	-10.8914
扈	-10.8915
故里	-10.8917
又聞	-10.892
其字	-10.8925
不遑	-10.8926
刺史	-10.893
楊君	-10.8932
而進	-10.8932
也及	-10.8933
顒	-10.8934
廷臣	-10.8935
顓	-10.8935
若干巻	-10.8938
厠	-10.8938
可觀	-10.8938
無情	-10.8939
莫非	-10.8939
五行	-10.894
龍山	-10.8946
儂	-10.8946
京華	-10.8947
授以	-10.8948
水流	-10.8948
士卒	-10.8949
欲為	-10.895
獨有	-10.8952
何如哉	-10.8955
并序	-10.8955
丙申	-10.8957
十一日	-10.8964
者可	-10.8964
盛衰	-10.8965
鬂	-10.8967
召公	-10.8971
鄴	-10.8972
不寐	-10.8974
野老	-10.8974
可以為	-10.8978
若不	-10.8979
亦然	-10.8982
二十八	-10.8985
司冦	-10.8986
命下	-10.8986
淛	-10.8988
服闋	-10.8991
亦可謂	-10.8992
閽	-10.8993
食之	-10.8995
曇	-10.8997
戸部	-10.9001
今天子	-10.9002
也故曰	-10.9002
翁之	-10.9002
十八日	-10.9008
焉是	-10.9009
尤為	-10.9009
店	-10.9011
人欲	-10.9013
鉤	-10.9014
先塋	-10.9014
唐宋	-10.9015
來請	-10.9016
孰知	-10.9016
西江	-10.9016
程氏	-10.9018
悠	-10.9018
驅馳	-10.9022
睢	-10.9024
君墓誌銘	-10.9025
國子生	-10.9025
綃	-10.9026
入朝	-10.9027
其教	-10.9029
江北	-10.9037
宗廟	-10.9039
則雖	-10.9039
勤儉	-10.9048
昊	-10.9048
不但	-10.905
茸	-10.905
唾	-10.9055
有志於	-10.9059
無私	-10.9063
旬日	-10.9064
論之	-10.9069
嗔	-10.9071
公卒	-10.9072
瑰	-10.9074
躭	-10.9074
詠歌	-10.9075
汨	-10.9075
杲	-10.9076
也雖	-10.9076
諸友	-10.9078
不乏	-10.9078
待之	-10.9081
文嗚呼	-10.9083
居民	-10.9088
睠	-10.9093
之感	-10.9094
壬寅	-10.9094
而死	-10.9096
學道	-10.9096
江流	-10.9102
不似	-10.9102
而反	-10.9105
濟濟	-10.9107
筍	-10.911
墩	-10.9111
鴛鴦	-10.9111
予亦	-10.9113
桀	-10.9113
禽獸	-10.9113
狡	-10.9116
欲求	-10.9117
偈	-10.9119
者以為	-10.9121
成均	-10.9121
不能不	-10.9122
用事	-10.9123
稱為	-10.9124
浣	-10.9127
矣是	-10.9129
德之	-10.913
亦已	-10.913
怙	-10.9131
謔	-10.9135
祕	-10.9135
甄	-10.9136
鳥獸	-10.9136
道義	-10.9137
荆棘	-10.9138
子男	-10.9138
曽孫	-10.9139
也然而	-10.9141
成立	-10.9142
多寡	-10.9144
文以	-10.9147
惜之	-10.9147
而用之	-10.9148
歌詩	-10.9148
其外	-10.9149
三品	-10.9156
筴	-10.916
萬萬	-10.916
都司	-10.9163
周子	-10.9163
以書	-10.9166
百餘年	-10.9169
其書	-10.9169
出于	-10.9169
留意	-10.9171
易曰	-10.9174
而易	-10.9174
乙丑	-10.9174
嘲	-10.9174
即日	-10.9175
天寒	-10.9175
中道	-10.9177
躁	-10.9178
聖徳	-10.9179
之效	-10.918
遺書	-10.918
言哉	-10.918
大將軍	-10.9184
於下	-10.9186
然非	-10.9188
片言	-10.9189
舉而	-10.9191
樂府	-10.9191
髦	-10.9193
齋居	-10.9193
肌	-10.9194
一曰	-10.9195
其祖	-10.9196
成都	-10.9196
憇	-10.9197
芥	-10.9198
緡	-10.9199
正直	-10.92
漁樵	-10.92
學行	-10.9202
而樂	-10.9206
能自	-10.921
霰	-10.9213
臭	-10.9214
騖	-10.9217
功夫	-10.9218
以副	-10.9218
炫	-10.9219
僭	-10.9221
舊遊	-10.9222
公事	-10.9224
竊惟	-10.9228
喜曰	-10.9232
帯	-10.9234
倩	-10.9235
躅	-10.9235
莅	-10.9236
榛	-10.9236
兵馬	-10.9237
之子孫	-10.9239
湖海	-10.9239
皇皇	-10.924
一本	-10.924
嗤	-10.924
者自	-10.9242
如在	-10.9246
拏	-10.9251
躬行	-10.9251
蜚	-10.9253
亦是	-10.9255
摶	-10.9257
西園	-10.9257
殉	-10.9259
不敏	-10.9261
竟日	-10.9262
號令	-10.9265
雌	-10.9273
孟子曰	-10.9273
眼前	-10.9274
庻幾	-10.9274
瘞	-10.9275
白金	-10.9276
畊	-10.9276
鄊	-10.9277
世之人	-10.9282
九天	-10.9289
是皆	-10.929
可無	-10.9291
吾師	-10.9291
君曰	-10.9293
鎻	-10.9293
清秋	-10.9294
矣若	-10.9294
但見	-10.9295
驢	-10.9295
而遽	-10.9298
查得	-10.9304
讞	-10.9304
亦豈	-10.9306
經過	-10.9312
養生	-10.9313
線	-10.9313
子雲	-10.9313
長松	-10.9314
海宇	-10.9315
亦既	-10.9316
固當	-10.9317
娱	-10.9318
黄帝	-10.9319
百五十	-10.9319
龍蛇	-10.9319
五首	-10.9319
刑部主事	-10.9319
也亦	-10.932
有年	-10.9321
淵源	-10.9321
重修	-10.9322
丈人	-10.9325
諸司	-10.9335
故國	-10.9336
相國	-10.9336
向來	-10.9337
於戲	-10.9337
皂	-10.9337
摭	-10.9338
於予	-10.9339
慝	-10.9339
圉	-10.934
非一	-10.934
和平	-10.9341
不立	-10.9345
荆州	-10.9346
其理	-10.9349
絶頂	-10.9351
于天	-10.9352
在外	-10.9352
無端	-10.9356
松風	-10.9356
挑	-10.9357
奏請	-10.9359
油	-10.9359
頓首	-10.9359
焉以	-10.9364
上方	-10.9365
開府	-10.9368
二三子	-10.9368
繼母	-10.9371
三代之	-10.9373
非禮	-10.9377
疇昔	-10.9379
成進士	-10.9379
重於	-10.9382
其體	-10.9387
尺寸	-10.9387
深入	-10.939
成而	-10.9392
此去	-10.9392
皆在	-10.9394
請曰	-10.9395
蛾眉	-10.9397
淹留	-10.9402
所有	-10.9402
鬱鬱	-10.9403
無忝	-10.9403
之族	-10.9407
知名	-10.9408
者得	-10.9413
親之	-10.9415
盗賊	-10.9416
烝	-10.9416
而實	-10.9417
以時	-10.9418
可得而	-10.9418
閻	-10.9418
潞	-10.9419
王事	-10.9419
文物	-10.942
求予	-10.9421
要之	-10.9423
當有	-10.9426
不傳	-10.9426
以昭	-10.943
大體	-10.9431
弟子員	-10.9434
乙亥	-10.9437
何限	-10.9439
二十餘年	-10.9439
者然	-10.9442
史官	-10.9443
竦	-10.9443
經年	-10.9449
子若孫	-10.9455
屍	-10.946
大儒	-10.9461
牡丹	-10.9461
梨	-10.9462
水旱	-10.9463
竟何	-10.9464
用其	-10.9464
呂	-10.9464
猾	-10.9465
不疑	-10.9465
清白	-10.9466
霜雪	-10.9469
秩滿	-10.947
皆能	-10.9471
周君	-10.9471
此亦	-10.9476
二千石	-10.9478
寤	-10.9485
見聞	-10.9488
拂衣	-10.9492
語曰	-10.9493
章句	-10.9494
其德	-10.9498
民者	-10.9498
戰國	-10.9499
豈敢	-10.9501
執筆	-10.9504
則已	-10.9504
棋	-10.9505
厪	-10.9507
不齊	-10.9509
莭	-10.9509
夏日	-10.9512
以善	-10.952
奉詔	-10.9521
公乃	-10.9522
囘首	-10.9525
至誠	-10.9525
髙宗	-10.9526
壬申	-10.9527
之異	-10.9527
詡	-10.9528
合而	-10.9528
不輕	-10.9528
不可及	-10.9531
父也	-10.9531
因循	-10.9531
子女	-10.9532
㒒	-10.9535
塵土	-10.9535
六人	-10.9535
徭	-10.9544
薜蘿	-10.9547
嫂	-10.9549
其法	-10.9549
翰林學士	-10.9551
用心	-10.9551
眼中	-10.9551
之以為	-10.9553
文帝	-10.9555
極目	-10.9556
珍重	-10.9559
氊	-10.9559
裙	-10.9562
江頭	-10.9564
悲夫	-10.9566
衆皆	-10.9566
挿	-10.9566
滄	-10.9569
日出	-10.957
頤	-10.9571
壬戌	-10.9571
母夫人	-10.9571
叚	-10.9575
深山	-10.9576
薦紳	-10.9577
不假	-10.9578
無涯	-10.9579
依舊	-10.9581
尚在	-10.9584
豈以	-10.9586
嘘	-10.9587
趙氏	-10.9587
辛酉	-10.9588
岷	-10.9589
一箇	-10.959
颺	-10.959
不治	-10.9593
齋先生	-10.96
錢唐	-10.96
珂	-10.9603
重陽	-10.9607
諸郡	-10.9608
月照	-10.9608
蒼苔	-10.961
殃	-10.9611
不使	-10.9612
中貴人	-10.9614
瀛	-10.9619
夫子之	-10.962
還朝	-10.9621
太恭人	-10.9621
來歸	-10.9621
一觴	-10.9624
觀察	-10.9624
知人	-10.9626
與諸	-10.9627
械	-10.9627
檣	-10.9628
一舉	-10.9628
女二	-10.9629
立身	-10.963
乎故	-10.963
同一	-10.9631
人等	-10.964
為名	-10.9642
不可勝	-10.9643
以治	-10.9646
僑	-10.9654
伏乞	-10.9655
遼東	-10.9656
之正	-10.9658
事有	-10.966
至元	-10.9662
此生	-10.9664
金玉	-10.9665
進士第	-10.9665
十七年	-10.9665
治平	-10.9668
蕋	-10.967
側室	-10.9673
㤙	-10.9675
聞人	-10.9675
以供	-10.9675
己丑	-10.9676
所施	-10.9676
人自	-10.9678
自天	-10.968
典刑	-10.9683
致知	-10.9683
通政	-10.9686
髙風	-10.9687
元美	-10.9691
可否	-10.9692
此巻	-10.9692
盖有	-10.9693
斯世	-10.9694
瀛洲	-10.9694
雍容	-10.9695
無餘	-10.9695
遄	-10.9697
治道	-10.9698
已成	-10.9701
都事	-10.9701
兵部尚書	-10.9703
服除	-10.9704
取士	-10.9705
知音	-10.9706
八九	-10.9706
乃復	-10.971
軟	-10.9715
王父	-10.9717
此圖	-10.9717
居然	-10.9718
將歸	-10.9718
萬象	-10.972
滸	-10.972
讎	-10.972
爻	-10.9721
可愛	-10.9722
同邑	-10.9724
五世	-10.9734
梟	-10.9734
廣陵	-10.9736
師之	-10.9736
其初	-10.9737
枝葉	-10.9738
服其	-10.9738
縞	-10.9738
鄉閭	-10.974
逺遊	-10.9741
流行	-10.9742
締	-10.9742
矦	-10.9747
節義	-10.9747
言行	-10.9748
不避	-10.9748
贈公	-10.9748
見者	-10.9748
上命	-10.9752
族之	-10.9753
耐	-10.9755
諸書	-10.9756
鬛	-10.9758
隠居	-10.976
深處	-10.9761
方外	-10.9763
寝	-10.9765
諸山	-10.9765
窶	-10.9765
餒	-10.9766
告成	-10.9768
老先生	-10.9769
通行	-10.9769
凛	-10.977
軒記	-10.9773
之所在	-10.9773
委曲	-10.9776
名世	-10.978
髩	-10.978
之常	-10.9781
禮也	-10.9782
雷霆	-10.9785
忽忽	-10.9787
明卿	-10.9788
月滿	-10.9789
孝思	-10.979
月十五日	-10.9791
一聲	-10.9793
我朝	-10.9796
自幼	-10.9796
舫	-10.9798
緇	-10.9798
孝敬	-10.98
崔嵬	-10.98
一千	-10.9801
蠟	-10.9801
翅	-10.9803
把酒	-10.9805
阨	-10.9806
淞	-10.9806
之化	-10.9808
庚申	-10.9809
者誰	-10.9809
不可謂	-10.981
死矣	-10.9812
碧雲	-10.9812
猶自	-10.9816
行李	-10.9817
倐忽	-10.9817
以貽	-10.9821
宣府	-10.9822
備矣	-10.9827
嬴	-10.9829
服之	-10.9839
身心	-10.9842
兩月	-10.9843
樂之	-10.9843
閶闔	-10.9843
數百年	-10.9844
所司	-10.9844
孫男	-10.9845
稽古	-10.9845
斵	-10.9847
文敏	-10.9848
楨	-10.9849
敖	-10.985
復見	-10.985
漫漫	-10.9852
歸来	-10.9857
志於	-10.986
理也	-10.9863
銀兩	-10.9867
複	-10.9868
僮	-10.9868
掉	-10.9869
論語	-10.9869
匏	-10.9869
也使	-10.9871
物而	-10.9871
新建	-10.9873
磊落	-10.9873
萎	-10.9873
崑	-10.9874
汾	-10.9874
天機	-10.9875
失所	-10.9876
薦之	-10.9878
籟	-10.988
小學	-10.9884
有徳	-10.9886
及時	-10.9888
别去	-10.9888
夀考	-10.9889
宛然	-10.9889
懾	-10.9892
書來	-10.9893
父母之	-10.9893
軋	-10.9894
之裔	-10.9894
圖畫	-10.9896
今世	-10.9898
之操	-10.9899
薊門	-10.99
代之	-10.99
莫道	-10.9902
鄙人	-10.9902
都城	-10.9903
幽居	-10.9903
法度	-10.9908
次曰	-10.9909
為難	-10.991
質之	-10.9911
至於今	-10.9913
巍巍	-10.9913
仁宗	-10.9914
然若	-10.9916
也凡	-10.9916
實有	-10.9919
也子	-10.992
於身	-10.9922
有賢	-10.9922
城下	-10.9923
化之	-10.9926
夜宿	-10.9927
望於	-10.993
世為	-10.9931
笋	-10.9933
可惜	-10.9933
具題	-10.9934
曾孫	-10.9936
三軍	-10.9936
䂓	-10.9937
絕	-10.994
可用	-10.9941
而已哉	-10.9944
乃得	-10.9946
固知	-10.9948
相接	-10.9949
繁華	-10.9949
過從	-10.9951
既得	-10.9951
囑	-10.9953
鼇	-10.9953
咸陽	-10.9954
慈母	-10.9956
緋	-10.9958
長適	-10.9959
非特	-10.9959
樹立	-10.9961
應之	-10.9962
臨清	-10.9962
亦曰	-10.9965
彤	-10.9966
白鷗	-10.9971
大計	-10.9974
四世	-10.998
庚寅	-10.9981
曲江	-10.9981
朝廷之	-10.9982
傭	-10.9983
鄉薦	-10.9984
皇太子	-10.9984
責之	-10.9985
七尺	-10.9985
林壑	-10.999
論文	-10.9992
所取	-10.9992
之兵	-10.9995
損益	-10.9996
莫之	-10.9999
可喜	-11.0002
寖	-11.0004
睨	-11.0005
盛矣	-11.0006
乎予	-11.0009
豈必	-11.0009
有詩	-11.0011
舊時	-11.0016
而來	-11.0018
士也	-11.0018
若何	-11.0019
昉	-11.0022
諸家	-11.0027
入門	-11.0028
己巳	-11.0031
圎	-11.0031
則知	-11.0032
不安	-11.0032
欲得	-11.0034
直指	-11.0034
七人	-11.0034
然猶	-11.0036
南渡	-11.0039
相顧	-11.0039
児	-11.0041
穏	-11.0044
燎	-11.0045
成就	-11.0046
事例	-11.0047
一介	-11.0047
吊	-11.0047
思親	-11.0048
念之	-11.0048
友愛	-11.0051
甲第	-11.0051
大賢	-11.0057
亦足	-11.0058
個	-11.006
免於	-11.006
哀毁	-11.0061
址	-11.0063
飄然	-11.0063
憂患	-11.0065
甘心	-11.0066
有神	-11.0067
鄂	-11.0067
峩峩	-11.0068
勺	-11.0068
不學	-11.0068
捫	-11.0068
儆	-11.0069
石門	-11.0069
而南	-11.007
明經	-11.007
悴	-11.007
飛來	-11.007
蒐	-11.0071
一再	-11.0071
盎	-11.0072
滄江	-11.0076
力行	-11.0078
炭	-11.0079
衫	-11.0081
扈從	-11.0081
其舊	-11.0083
榭	-11.0084
字子	-11.0088
馥	-11.0089
東宫	-11.009
看得	-11.009
十九日	-11.009
無何	-11.0091
石室	-11.0092
十有六	-11.0093
甓	-11.0095
太平之	-11.0095
氣質	-11.0096
天地萬物	-11.0096
吾親	-11.0097
人或	-11.0103
今已	-11.0106
惟我	-11.0108
琦	-11.0109
十八年	-11.011
搗	-11.0111
子思	-11.0112
牟	-11.0114
噬	-11.0115
寥	-11.0116
甘露	-11.0119
諸葛	-11.0121
先帝	-11.0121
乃能	-11.0121
誰復	-11.0125
車駕	-11.0129
待罪	-11.0129
樓閣	-11.0131
殤	-11.0133
按狀	-11.0139
送别	-11.0141
浮生	-11.0143
於理	-11.0149
重輕	-11.015
東門	-11.0152
有諱	-11.0153
四五	-11.0154
嘗謂	-11.0154
賻	-11.0155
不取	-11.0159
予謂	-11.0159
誄	-11.0163
不踰	-11.0165
號為	-11.0166
而愈	-11.017
髙樓	-11.017
悲風	-11.0171
揚雄	-11.0172
君亦	-11.0172
一編	-11.0174
吸	-11.0175
功徳	-11.0175
逢人	-11.0177
在堂	-11.0177
宗室	-11.0178
由此	-11.0181
贊曰	-11.0185
舉業	-11.0186
明故	-11.019
故為	-11.0193
隆慶	-11.0195
兩人	-11.0197
賓客	-11.0199
經世	-11.0199
閩中	-11.0201
約束	-11.0201
十七日	-11.0205
彞	-11.0205
南安	-11.0205
别墅	-11.0207
朝陽	-11.0208
也遂	-11.0209
那得	-11.0209
孤雲	-11.021
其視	-11.0211
以全	-11.0212
之隆	-11.0212
弑	-11.0212
閤	-11.0213
衣服	-11.0214
淵明	-11.0216
濟之	-11.0216
生者	-11.0217
山海	-11.0217
猶能	-11.0218
吳越	-11.0219
有才	-11.0219
䨇	-11.022
君父	-11.0221
紱	-11.0222
古詩	-11.0223
彭蠡	-11.0225
奨	-11.0226
以遺	-11.0227
媵	-11.0227
諸將	-11.0232
堂堂	-11.0235
者尚	-11.0238
吾兒	-11.0239
於文	-11.024
二千	-11.0242
東歸	-11.0242
敬之	-11.0243
之懿	-11.0244
稜	-11.0244
成敗	-11.0246
可畏	-11.0247
物色	-11.0247
之大者	-11.0248
今又	-11.0249
此固	-11.0249
鬯	-11.0249
諄諄	-11.025
不煩	-11.0251
辛苦	-11.0253
徙居	-11.0254
其首	-11.0254
厰	-11.0256
不喜	-11.0257
於後世	-11.0259
吾身	-11.0259
六百	-11.026
非惟	-11.026
曰天	-11.0261
人材	-11.0265
哉此	-11.0267
到家	-11.0268
笻	-11.0269
翦	-11.0269
悃	-11.0269
伯父	-11.027
受知	-11.0271
中山	-11.0272
禮法	-11.0272
碣	-11.0275
不愛	-11.0275
有得	-11.0277
築室	-11.0278
如斯	-11.0282
公孫	-11.0282
男兒	-11.0284
彭澤	-11.0284
九載	-11.0285
形容	-11.0286
過之	-11.0291
自處	-11.0292
不禁	-11.0292
婿	-11.0292
千戸	-11.0293
屨	-11.0294
月某日	-11.0305
一出	-11.0311
自家	-11.0313
此中	-11.0313
髫	-11.0313
一錢	-11.0313
逄	-11.0314
孺人之	-11.0315
威儀	-11.0315
亥	-11.0316
離别	-11.0317
藹然	-11.0319
鍾山	-11.032
老病	-11.0323
浙東	-11.0323
悲歌	-11.0325
犬馬	-11.0326
别來	-11.0328
伏望	-11.0329
萬頃	-11.0333
逶迤	-11.0336
風紀	-11.0338
草色	-11.0339
夜坐	-11.0342
宼	-11.0342
有八	-11.0343
風日	-11.0347
也歟	-11.035
正色	-11.0353
之報	-11.0355
南風	-11.0358
故山	-11.0358
衡門	-11.0358
太子太保	-11.0359
斜日	-11.0361
諉	-11.0364
相憶	-11.0364
足為	-11.0366
延平	-11.0367
譜牒	-11.037
若無	-11.037
椽	-11.0372
非其人	-11.0374
進之	-11.0375
孟氏	-11.0379
噴	-11.0379
有期	-11.038
予友	-11.038
幄	-11.038
所與	-11.0381
髻	-11.0381
邯鄲	-11.0381
以便	-11.0381
頋	-11.0382
者衆	-11.0383
丹砂	-11.0384
之權	-11.0385
諸老	-11.0385
其孫	-11.0388
縣人	-11.0388
為子	-11.0389
年二十	-11.0389
惟謹	-11.039
諗	-11.039
大海	-11.0391
有六	-11.0392
文成	-11.0394
吏治	-11.0396
民生	-11.0397
歸路	-11.0399
殱	-11.041
太保	-11.0411
販	-11.0412
風雅	-11.0412
三徑	-11.0414
白露	-11.0415
龍飛	-11.0417
風生	-11.0419
老母	-11.0424
俎	-11.0427
病中	-11.0427
公至	-11.0427
性之	-11.0428
里之	-11.0429
漢之	-11.0429
怳	-11.043
業已	-11.0432
雲霧	-11.0432
自言	-11.0433
贈之	-11.0437
欽此	-11.0439
之勤	-11.0439
刻石	-11.0441
李子	-11.0443
賊首	-11.0446
史記	-11.0446
不知何	-11.0447
順天	-11.0448
過人	-11.0448
送李	-11.0452
醫藥	-11.0453
儷	-11.0454
其年	-11.0458
多情	-11.0463
為文章	-11.0464
第三	-11.0468
玉山	-11.047
尚存	-11.0471
旂	-11.0472
謂曰	-11.0473
蠱	-11.0474
燼	-11.0478
公嘗	-11.048
萬户	-11.0481
自守	-11.0488
乎人	-11.0488
三江	-11.0489
明王	-11.0489
公名	-11.049
不畏	-11.0491
朝來	-11.0492
偹	-11.0496
於詩	-11.0497
勲業	-11.0497
榮名	-11.0499
侔	-11.0501
撃	-11.0502
否則	-11.0502
才名	-11.0507
與否	-11.0507
已有	-11.0508
與我	-11.0509
平安	-11.0511
都指揮	-11.0513
分守	-11.0515
送客	-11.0515
而莫	-11.0516
敢忘	-11.0518
紋	-11.0518
昬	-11.0519
弇	-11.052
時方	-11.0523
逺道	-11.0523
八百	-11.0524
五更	-11.0527
自成	-11.0527
試之	-11.0527
以盡	-11.0528
既以	-11.0529
尊酒	-11.0532
長風	-11.0534
其所為	-11.0534
賖	-11.054
用功	-11.054
即以	-11.054
年正月	-11.0542
劫	-11.0542
淋漓	-11.0543
山寺	-11.0545
慄	-11.0545
於官	-11.0548
滓	-11.0549
者宜	-11.0549
涖	-11.055
風采	-11.0551
啖	-11.0551
皇天	-11.0557
意也	-11.0558
鎮守	-11.0558
必有所	-11.0562
南望	-11.0566
夢裏	-11.0567
鏞	-11.0569
肺	-11.0571
辛亥	-11.0571
王府	-11.0573
入於	-11.0574
其術	-11.0574
為諸生	-11.0576
亦云	-11.0576
曰惟	-11.0585
賢否	-11.0587
泠泠	-11.059
者既	-11.059
月出	-11.0591
南畿	-11.0591
河水	-11.0593
縫	-11.0593
喙	-11.0595
安在	-11.0599
昔日	-11.0602
甲科	-11.0602
其材	-11.0602
無知	-11.0603
不至於	-11.0605
四書	-11.0606
茆	-11.0613
者獨	-11.0614
沓	-11.0616
者不能	-11.0617
無地	-11.0618
婆	-11.062
家法	-11.0625
為郡	-11.0628
幕府	-11.0628
果有	-11.063
死於	-11.0637
頸	-11.0637
也顧	-11.0637
鼓舞	-11.0637
凄凉	-11.0638
不論	-11.064
斟酌	-11.064
看山	-11.0641
大梁	-11.0643
千尺	-11.0644
又皆	-11.0645
始有	-11.0645
桂樹	-11.0645
慤	-11.0649
其先世	-11.0649
名者	-11.065
道傍	-11.0652
非常	-11.0652
不可以不	-11.0654
將有	-11.0654
女一	-11.0657
廣文	-11.0657
凡有	-11.066
行藏	-11.066
𡨕	-11.066
菊花	-11.0661
夲	-11.0663
文林郎	-11.0664
宋人	-11.0665
喉	-11.0665
論議	-11.0665
日落	-11.0666
受之	-11.0669
民力	-11.0669
考滿	-11.0669
留别	-11.067
之材	-11.0672
門生	-11.0674
田里	-11.0674
不特	-11.0674
南浦	-11.0675
赤城	-11.0675
早卒	-11.0677
便道	-11.0678
也即	-11.068
題名	-11.0682
梁園	-11.0682
蹔	-11.0685
慵	-11.0686
蘖	-11.0688
贑	-11.0689
之期	-11.069
儒生	-11.0692
朱公	-11.0693
婦道	-11.0693
用力	-11.0694
矯矯	-11.0694
之堂	-11.0696
庠序	-11.0696
為令	-11.0699
加焉	-11.07
清光	-11.0703
苦心	-11.0704
韓公	-11.0706
卞	-11.0708
出守	-11.0709
封侯	-11.071
當為	-11.0711
遂成	-11.0711
致政	-11.0712
詩歌	-11.0713
榮辱	-11.0715
伯兄	-11.0715
賢之	-11.0716
公家	-11.0716
集序	-11.0718
之微	-11.072
馬蹄	-11.0722
人無	-11.0723
皆是	-11.0724
建昌	-11.0724
辛巳	-11.0724
其端	-11.0726
之君子	-11.0726
長老	-11.0727
立志	-11.0728
君恩	-11.0729
煎	-11.0731
太古	-11.0733
文選	-11.0733
慾	-11.0735
守仁	-11.0736
甘棠	-11.0738
相尋	-11.0738
水部	-11.075
戚戚	-11.075
古木	-11.075
令名	-11.0751
非所以	-11.0752
不可知	-11.0755
先聖	-11.0756
櫛	-11.0756
而先生	-11.0757
矣哉	-11.0758
貼	-11.0759
齋記	-11.0759
何妨	-11.0763
曽子	-11.0763
詞賦	-11.0764
吾知	-11.0767
異同	-11.0767
來往	-11.0767
而逝	-11.0767
杭州	-11.0769
今夜	-11.0771
林氏	-11.0771
復為	-11.0774
廷尉	-11.0775
與天地	-11.0776
執政	-11.0778
楊柳	-11.078
久不	-11.0782
立朝	-11.0783
疚	-11.0783
者悉	-11.0784
常熟	-11.0784
攅	-11.0785
柰	-11.0788
孝宗	-11.0791
水火	-11.0792
而入	-11.0795
而興	-11.0801
㕘政	-11.0803
不具	-11.0804
大業	-11.0804
窆	-11.0805
學生	-11.0808
恨不	-11.0808
北望	-11.0809
四壁	-11.0811
所述	-11.0812
光景	-11.0813
具本	-11.0815
難得	-11.0817
十有四	-11.0821
李白	-11.0822
五千	-11.0824
郡城	-11.0828
麋鹿	-11.0829
其國	-11.0831
經義	-11.0831
同郡	-11.0833
桑麻	-11.0833
膴	-11.0834
不仁	-11.0834
相忘	-11.0834
湖水	-11.0835
西來	-11.0837
合葬	-11.0837
文采	-11.0838
知州	-11.0838
能言	-11.084
偶成	-11.0844
河流	-11.0845
月中	-11.0846
哈	-11.0847
疋	-11.0847
之積	-11.0847
異乎	-11.0848
遒	-11.0849
而始	-11.085
晞	-11.085
未始	-11.085
歴歴	-11.0851
螭	-11.0851
白晝	-11.0852
鼠	-11.0852
絢	-11.0853
其善	-11.0855
吻	-11.0855
不然則	-11.0855
十人	-11.0857
抉	-11.0858
石田	-11.0859
擾擾	-11.0859
扵此	-11.0863
去其	-11.0864
不休	-11.087
不懈	-11.0871
潢	-11.0872
勳	-11.0873
有疾	-11.0874
之音	-11.0876
衲	-11.0876
自喜	-11.0879
聊以	-11.0881
是嵗	-11.0887
及於	-11.0891
兢兢	-11.0893
二氏	-11.0894
深矣	-11.0896
竭力	-11.0897
舸	-11.0897
海門	-11.0897
孔門	-11.0899
存亡	-11.0899
泓	-11.0902
風雪	-11.0902
其政	-11.0903
閘	-11.0903
風光	-11.0903
訐	-11.0904
猝	-11.0904
河漢	-11.0906
借問	-11.0909
多事	-11.0913
玉壺	-11.0915
一言以	-11.0918
望其	-11.0921
大理寺	-11.0922
曰夫	-11.0924
世業	-11.0924
庭前	-11.0925
丰	-11.0925
雪中	-11.0926
顏	-11.0928
髙皇帝	-11.0929
祀之	-11.093
膝下	-11.0933
生長	-11.0936
一嵗	-11.0937
不足為	-11.0939
以佐	-11.0943
赤壁	-11.0944
𦂳	-11.0947
所書	-11.095
升堂	-11.0954
修身	-11.0956
長公	-11.0959
事體	-11.0959
昔在	-11.0962
益以	-11.0963
朝天	-11.0967
不窮	-11.0967
民有	-11.0967
之辨	-11.0967
孕	-11.097
又將	-11.0972
文正公	-11.0972
名位	-11.0973
繭	-11.0975
吳氏	-11.0977
古昔	-11.0977
糴	-11.0977
享年六十	-11.0978
道心	-11.0983
毫髪	-11.0986
一道	-11.0986
極矣	-11.0995
莆田	-11.0995
讌	-11.0997
戱	-11.0997
此又	-11.0997
以私	-11.0998
修撰	-11.0998
蛩	-11.0999
留都	-11.1
各該	-11.1001
玷	-11.1002
晷	-11.1003
生員	-11.1005
爾等	-11.1007
别業	-11.1008
隱居	-11.1009
只有	-11.1012
奪之	-11.1012
不可復	-11.1012
不可見	-11.1014
嘶	-11.1014
縣治	-11.1016
豈特	-11.1016
肅肅	-11.102
南來	-11.1021
衿	-11.1022
蓑	-11.1023
譯	-11.1025
述其	-11.1028
韙	-11.1028
匍匐	-11.1028
其父母	-11.103
更無	-11.1036
成人	-11.1037
詩禮	-11.1038
宸濠	-11.1041
四子	-11.1043
塚	-11.1044
澁	-11.1048
杖屨	-11.105
聚散	-11.105
出納	-11.1052
盡日	-11.1052
焉今	-11.1053
請銘	-11.1053
形勝	-11.1053
嶼	-11.1053
始以	-11.1054
正大	-11.1056
登進士第	-11.1058
行樂	-11.1058
賡	-11.1059
下車	-11.1062
難於	-11.1062
臣愚	-11.1063
近體	-11.1063
邑庠生	-11.1065
潯	-11.1065
髙士	-11.1065
之詞	-11.1067
今兹	-11.1068
人士	-11.1068
豸	-11.1068
弗及	-11.1069
安南	-11.1069
以充	-11.1071
主上	-11.1074
與王	-11.1076
桑榆	-11.1077
翠微	-11.1077
京口	-11.1078
凌雲	-11.108
使民	-11.1081
伯氏	-11.1082
於禮	-11.1083
積善	-11.1084
人哉	-11.1085
發明	-11.1087
之誼	-11.1087
家政	-11.1092
比部	-11.1092
溜	-11.1093
舶	-11.1095
蛙	-11.1095
乎然	-11.1096
蓬蒿	-11.1096
爼	-11.1098
間以	-11.1098
執法	-11.11
華陽	-11.1102
屬之	-11.1102
智者	-11.1103
四夷	-11.1111
請以	-11.1111
五代	-11.1112
卧病	-11.1113
者尤	-11.1115
濮	-11.1116
又見	-11.1118
中朝	-11.1118
不偶	-11.1119
柱國	-11.112
廕	-11.1121
飱	-11.1121
其妻	-11.1121
扄	-11.1121
各處	-11.1123
而無所	-11.1124
刑部尚書	-11.1125
田野	-11.1127
子之言	-11.1129
先大夫	-11.1134
湄	-11.1141
始祖	-11.1142
行部	-11.1144
之死	-11.1146
鴨	-11.1148
必曰	-11.115
亹亹	-11.1151
宋元	-11.1151
腹心	-11.1151
黄鵠	-11.1153
其利	-11.1153
之境	-11.1158
百金	-11.116
至公	-11.1162
入翰林	-11.1166
而遂	-11.1169
釵	-11.1169
是亦	-11.117
莎	-11.117
吉安	-11.1171
諛	-11.1173
至京	-11.1175
制作	-11.1175
陬	-11.1176
墉	-11.1176
長卿	-11.1181
達於	-11.1182
三十餘年	-11.1183
文昌	-11.1186
隨處	-11.1187
黄昏	-11.1189
髙帝	-11.1189
十四日	-11.1189
歴官	-11.1189
石刻	-11.119
莫若	-11.1193
山僧	-11.1196
自憐	-11.1198
擴	-11.1199
司理	-11.12
繋	-11.12
賜之	-11.12
碧山	-11.1201
平地	-11.1203
不憚	-11.1203
之神	-11.1204
篤行	-11.1207
問曰	-11.1207
互相	-11.1208
嘗有	-11.1211
贈别	-11.1211
於内	-11.1212
筮	-11.1212
髙第	-11.1213
或可	-11.1213
旃	-11.1214
郎官	-11.1216
衰病	-11.1216
之句	-11.1216
又非	-11.1219
大有	-11.1222
滔滔	-11.1222
痰	-11.1223
乎若	-11.1223
事臣	-11.1225
庶人	-11.1225
同里	-11.1226
宜興	-11.1226
之戒	-11.1226
霆	-11.1231
治亂	-11.1233
脅	-11.1233
儒臣	-11.1234
大行	-11.1235
軍務	-11.1237
勞苦	-11.1241
拆	-11.1243
其要	-11.1243
之亂	-11.1243
不聽	-11.1245
嘆息	-11.1245
無任	-11.1245
松楸	-11.1245
貧者	-11.1246
蕚	-11.1248
南州	-11.1251
無違	-11.1251
年十二月	-11.1251
逺邇	-11.1254
欲盡	-11.1254
入官	-11.1258
亦復	-11.1258
亦將	-11.1261
送劉	-11.1262
客有	-11.1262
遺文	-11.1262
泣曰	-11.1265
登山	-11.1266
比之	-11.1267
其弊	-11.1268
僵	-11.1272
琛	-11.1272
屣	-11.1272
辭曰	-11.1272
盛事	-11.1276
今夕	-11.1276
舊業	-11.128
壯士	-11.1283
起復	-11.1284
不類	-11.1285
照得	-11.1288
君子之所	-11.1288
習之	-11.1293
與民	-11.1293
其責	-11.1294
暈	-11.1295
席上	-11.1297
擘	-11.1297
導之	-11.1297
鏤	-11.1298
頷	-11.1298
春坊	-11.1299
鄱陽	-11.1299
幸有	-11.13
伯夷	-11.13
赴京	-11.1301
得請	-11.1302
尤難	-11.1302
吿	-11.1302
近代	-11.1303
趙公	-11.1304
踞	-11.1306
所恃	-11.1308
見諸	-11.1311
十九年	-11.1312
風動	-11.1313
既歸	-11.1313
斗酒	-11.1314
水利	-11.1315
不來	-11.1316
東望	-11.1317
鶚	-11.1319
碌碌	-11.1321
急於	-11.1323
鄞	-11.1324
誥命	-11.1324
天開	-11.1325
闗中	-11.1326
所親	-11.1326
是已	-11.1328
山居	-11.1329
不察	-11.133
三朝	-11.1332
用人	-11.1334
王侯	-11.1337
其難	-11.1338
余聞	-11.1341
六朝	-11.1341
春官	-11.1343
與人交	-11.1344
天下士	-11.1347
未已	-11.1347
憲使	-11.1348
昭昭	-11.1348
鄭公	-11.135
平章	-11.1352
股肱	-11.1352
親親	-11.1355
易也	-11.1356
奉母	-11.1356
有詔	-11.1357
將無	-11.1358
王道	-11.136
不知有	-11.1362
者何也	-11.1362
相似	-11.1363
苕	-11.1363
此是	-11.1363
誌銘	-11.1364
燈前	-11.1369
此理	-11.1373
塜	-11.1373
軍中	-11.1373
夔	-11.1374
元日	-11.1376
笑語	-11.1378
外物	-11.138
號曰	-11.1381
客至	-11.1382
毀	-11.1383
長城	-11.1383
亦當	-11.1384
竊謂	-11.1385
師儒	-11.1386
佛氏	-11.1386
翼翼	-11.1389
居家	-11.139
治家	-11.1391
胷	-11.1391
安民	-11.1391
婆娑	-11.1396
㪚	-11.1396
無際	-11.1397
之績	-11.1398
驅車	-11.1398
山靈	-11.1399
數語	-11.1399
菑	-11.1399
襍	-11.1399
土官	-11.1399
殽	-11.1399
凟	-11.1401
一氣	-11.1403
劬	-11.1404
志士	-11.1409
西域	-11.1409
事上	-11.1411
即此	-11.1413
歸于	-11.1416
夫何	-11.1418
搶	-11.142
皆出	-11.1421
行役	-11.1426
氣節	-11.1428
厚矣	-11.1428
萬山	-11.1431
不幸而	-11.1432
安得不	-11.1435
至于今	-11.1436
鞅	-11.1439
行誼	-11.1441
以請	-11.1444
理學	-11.1444
法司	-11.1446
㩀	-11.1446
爪	-11.1446
癸亥	-11.1449
不失其	-11.145
哉吾	-11.1451
而至於	-11.1453
非人	-11.1453
長吏	-11.1454
而余	-11.146
絃歌	-11.1463
至善	-11.1463
則可	-11.1463
伊川	-11.1466
世情	-11.1467
所重	-11.1467
也僕	-11.1468
曰若	-11.1468
為本	-11.147
薄暮	-11.147
覓	-11.1472
豚	-11.1472
煑	-11.1472
琮	-11.1473
揷	-11.1473
脯	-11.1475
燕子	-11.1475
君君	-11.1478
景物	-11.1479
有天下	-11.1482
所著有	-11.1483
之主	-11.1485
者至	-11.1486
手自	-11.1487
漢家	-11.1495
罍	-11.15
龕	-11.15
顰	-11.15
當路	-11.1501
酧	-11.1503
大母	-11.1504
不能為	-11.1506
為師	-11.1507
規矩	-11.1508
燠	-11.1508
之為人	-11.151
其五	-11.151
逺人	-11.151
舉人	-11.151
未見其	-11.1511
成周	-11.1513
寥廓	-11.1514
之位	-11.1516
先考	-11.1516
樂天	-11.1517
而居	-11.1518
笥	-11.1518
僖	-11.1518
所自出	-11.1519
西京	-11.1519
我國家	-11.1521
弘	-11.1523
聶	-11.1523
琵琶	-11.1523
閃	-11.1524
有得於	-11.1525
館閣	-11.1527
尤甚	-11.1528
淒	-11.1528
而加	-11.1528
侃侃	-11.1528
掬	-11.1528
怍	-11.1529
謐	-11.153
與焉	-11.153
世系	-11.1531
立功	-11.1531
則非	-11.1533
獨行	-11.1533
其任	-11.1535
溪水	-11.1536
秋官	-11.1538
動静	-11.1538
遭逢	-11.1542
于兹	-11.1542
山頭	-11.1545
其聲	-11.1546
是何	-11.1546
押	-11.1547
三分	-11.1547
殮	-11.155
伎	-11.155
制度	-11.1551
葆	-11.1552
林間	-11.1553
棣	-11.1553
相公	-11.1553
風雷	-11.1553
不歸	-11.1554
諍	-11.1554
舉子業	-11.1559
聞君	-11.1559
皆然	-11.1564
竺	-11.1565
城頭	-11.1569
甚多	-11.1569
剰	-11.1571
有七	-11.1572
哭之	-11.1575
腦	-11.1576
暁	-11.1578
以往	-11.1581
氏諱	-11.1585
一尊	-11.1585
及今	-11.1586
於吾	-11.1589
公卿大夫	-11.1589
其師	-11.1594
不給	-11.1595
園林	-11.1595
我來	-11.1596
善政	-11.1596
不多	-11.1597
是豈	-11.1598
盈盈	-11.1599
不徒	-11.1599
都察院右副都御史	-11.1601
序送	-11.1601
扃	-11.1604
頺	-11.1604
享年七十	-11.1605
豐年	-11.1606
待詔	-11.1608
穰	-11.1608
江城	-11.1608
遲遲	-11.1611
鄉邦	-11.1612
糓	-11.1613
不備	-11.1615
白璧	-11.162
志也	-11.1622
比於	-11.1624
法而	-11.1626
詞章	-11.1627
烽火	-11.1628
鄭君	-11.1629
仁人	-11.163
以取	-11.1631
準	-11.1632
圯	-11.1632
邦家	-11.1633
矣然則	-11.1634
之區	-11.1636
一日之	-11.1637
之意也	-11.1638
軄	-11.1639
毁譽	-11.1641
郡國	-11.1642
一葉	-11.1642
之謀	-11.1643
如天	-11.1644
所遇	-11.1651
春深	-11.1653
冥冥	-11.1653
歌曰	-11.1655
丐	-11.1657
耶抑	-11.1657
騎馬	-11.1658
痾	-11.1658
東平	-11.1658
譬如	-11.1659
貎	-11.166
為義	-11.166
行行	-11.1661
巻一	-11.1661
若干人	-11.1662
今官	-11.1662
邑庠	-11.1663
置酒	-11.1664
同遊	-11.1666
仕宦	-11.1667
光祿	-11.1667
初度	-11.1675
卜居	-11.1676
公實	-11.1677
吳江	-11.1677
人稱	-11.1678
乎雖然	-11.1679
瀚	-11.168
一名	-11.168
磵	-11.1681
蕉	-11.1682
䆳	-11.1682
舛	-11.1683
以觀	-11.1685
各自	-11.1686
道學	-11.1686
一通	-11.1686
媪	-11.1687
本心	-11.1687
家君	-11.1687
二女	-11.1689
君子也	-11.1689
端居	-11.169
嘉禾	-11.169
信乎	-11.169
曰不然	-11.169
紫芝	-11.1693
民心	-11.1697
登第	-11.1699
歌詠	-11.1699
大書	-11.1703
亦足以	-11.1704
親友	-11.1704
耳而	-11.1704
蹴	-11.1707
捉	-11.1707
以終	-11.1707
尊前	-11.1707
暮雨	-11.1708
神靈	-11.1709
湫	-11.1709
稚子	-11.171
飫	-11.1711
藐	-11.1711
却憶	-11.1712
飛鳥	-11.1715
目之	-11.1715
窒	-11.1715
望雲	-11.1716
木蘭	-11.1716
相聞	-11.1716
之趣	-11.1717
秋雨	-11.1718
徳業	-11.172
歌聲	-11.1721
千仞	-11.1721
家聲	-11.1723
鎮撫	-11.1726
以明經	-11.1727
乙巳	-11.1729
况復	-11.1729
紈	-11.173
程朱	-11.1731
蠢	-11.1736
天威	-11.1736
河山	-11.1737
精舍	-11.1738
摇	-11.1738
中官	-11.1738
廊廟	-11.174
兢	-11.175
州守	-11.1756
櫂	-11.1756
盂	-11.1758
筐	-11.1758
豈易	-11.1758
上曰	-11.1759
果然	-11.176
太子少保	-11.176
泳	-11.1761
受業	-11.1761
宣慰	-11.1765
思君	-11.1768
鏗	-11.1769
不患	-11.1769
志在	-11.177
斬獲	-11.1771
逆旅	-11.1773
春酒	-11.1774
書成	-11.1774
不虞	-11.1774
又豈	-11.1776
治民	-11.1777
之孝	-11.1777
入太學	-11.1777
冨	-11.1779
察之	-11.178
斟	-11.1781
賢良	-11.1782
狩	-11.1783
十有一	-11.1784
如一日	-11.1785
軺	-11.1786
歘	-11.1787
毗	-11.1787
水陸	-11.1789
己酉	-11.179
安敢	-11.1792
自負	-11.1792
元帥	-11.1793
欣欣	-11.1798
邑中	-11.1798
不減	-11.1799
流傳	-11.18
不才	-11.1801
此二	-11.1806
公言	-11.1807
合無	-11.1807
果何	-11.1808
有曰	-11.1811
翥	-11.1813
賈生	-11.1813
葬于	-11.1816
焉有	-11.1816
所好	-11.1817
何在	-11.1817
疑其	-11.1818
象山	-11.1819
而尤	-11.182
奕奕	-11.182
滿眼	-11.1821
服食	-11.1821
推轂	-11.1822
數行	-11.1823
四面	-11.1824
人力	-11.1826
可使	-11.1827
先人之	-11.1828
人意	-11.1828
告之曰	-11.183
峩	-11.1832
般	-11.1832
北極	-11.1834
因之	-11.1834
太宗皇帝	-11.1835
匝	-11.1838
貴乎	-11.1839
一㸃	-11.184
不移	-11.184
者率	-11.184
得志	-11.1843
者凡	-11.1845
月夜	-11.1847
家學	-11.1848
瀝	-11.185
彼其	-11.1851
謝恩	-11.1852
瀑	-11.1852
而予	-11.1852
郡人	-11.1852
香山	-11.1855
餘姚	-11.1858
亦不可	-11.186
柝	-11.1866
嫗	-11.1867
廵按	-11.1868
物外	-11.1869
清夜	-11.1869
分别	-11.1871
揚子	-11.1875
平時	-11.1876
之光	-11.1876
左侍郎	-11.1876
林木	-11.1877
之寄	-11.188
於先生	-11.1882
生涯	-11.1882
老氏	-11.1883
一水	-11.1884
己未	-11.1885
蘚	-11.1886
蜃	-11.1886
大將	-11.1888
另	-11.1891
傳至	-11.1894
亾	-11.1895
孱	-11.1896
氏族譜序	-11.1898
䖏士	-11.1898
皇甫	-11.19
綱常	-11.1907
科道	-11.1907
軾	-11.1911
之助	-11.1912
多故	-11.1913
之象	-11.1916
不墜	-11.1916
氷霜	-11.1916
巘	-11.1917
匈奴	-11.1918
幢	-11.1918
有美	-11.1919
纍	-11.1919
潺湲	-11.1919
凈	-11.192
焉然	-11.1921
十分	-11.1922
聞見	-11.1923
按察僉事	-11.1923
揮毫	-11.1924
當以	-11.1926
不可為	-11.1926
㓗	-11.1928
耳今	-11.1929
遺跡	-11.1929
公自	-11.193
即有	-11.193
擒斬	-11.1932
留連	-11.1933
其盛	-11.1935
於義	-11.1935
吳門	-11.1936
莫可	-11.1936
不就	-11.194
鴟	-11.1941
數十人	-11.1942
其精	-11.1942
不允	-11.1942
星斗	-11.1943
夐	-11.1945
釋之	-11.1945
同歸	-11.1946
苞	-11.1947
繡衣	-11.1947
溉	-11.1947
醖	-11.1948
㕓	-11.195
朞	-11.1951
果能	-11.1952
以進士	-11.1953
應有	-11.1953
廟學	-11.1956
碩人	-11.1958
于公	-11.1958
不報	-11.1958
驄馬	-11.1958
學政	-11.196
朱顔	-11.1961
二先生	-11.1961
三五	-11.1961
以圖	-11.1962
昭穆	-11.1963
民物	-11.1966
神人	-11.1966
遨	-11.1969
炬	-11.197
華山	-11.1971
淮安	-11.1972
有情	-11.1973
百户	-11.1975
抹	-11.1977
金銀	-11.1978
冉	-11.1978
書此	-11.1979
所貴	-11.198
十首	-11.1987
小臣	-11.1989
中和	-11.1989
供奉	-11.1992
以應	-11.1993
者莫	-11.1993
壹	-11.1996
無弗	-11.1997
文正	-11.1998
杜陵	-11.1999
何不	-11.2001
五十年	-11.2002
往年	-11.2003
相視	-11.2003
擯	-11.2004
何心	-11.2009
王師	-11.201
僇	-11.2011
二十二	-11.2012
飛花	-11.2013
寒食	-11.2014
流離	-11.2017
琅	-11.2018
所傳	-11.2019
暄	-11.2019
自任	-11.202
休致	-11.2022
我師	-11.2025
禾黍	-11.2025
持節	-11.2026
圖報	-11.2026
金山	-11.2027
雲漢	-11.2027
一邑	-11.2027
功臣	-11.2028
予既	-11.2035
一般	-11.2036
之念	-11.2036
撫之	-11.204
知此	-11.2042
可見矣	-11.2042
優㳺	-11.2043
煙霞	-11.2043
當然	-11.2045
轟	-11.2052
蒹葭	-11.2052
何許	-11.2052
臨流	-11.2053
今年春	-11.2053
春雲	-11.2054
人莫	-11.2055
愷	-11.2055
針	-11.2056
精力	-11.2057
嵗暮	-11.2057
方其	-11.2058
且夫	-11.2058
一息	-11.2058
七十二	-11.2059
歲時	-11.2059
見素	-11.206
黜陟	-11.2061
之興	-11.2061
所論	-11.2063
逺大	-11.2064
非無	-11.2067
庶乎	-11.2069
黄葉	-11.2069
屬余	-11.207
亦難	-11.207
黄門	-11.207
者予	-11.2071
不驚	-11.2073
諱某	-11.2074
其終	-11.2074
一經	-11.2075
隨風	-11.2075
騶	-11.2081
世路	-11.2081
暌	-11.2083
鍳	-11.2084
承乏	-11.2085
也至於	-11.2089
而取	-11.2094
近者	-11.2095
其孤	-11.2095
陰陽	-11.2098
綢繆	-11.2106
公侯	-11.2107
不辱	-11.2109
荼	-11.2109
二十五日	-11.211
書云	-11.211
燥	-11.2112
總管	-11.2112
通州	-11.2115
平江	-11.2115
覇	-11.2115
鄉貢進士	-11.2116
祀典	-11.2116
哉余	-11.2117
弟兄	-11.2117
與物	-11.2118
以卒	-11.2119
何謂	-11.2122
以去	-11.2124
余亦	-11.2124
近年	-11.2125
錦繡	-11.2126
如前	-11.2126
保障	-11.2128
從今	-11.213
從兄	-11.2131
所遺	-11.2132
古稱	-11.2133
氤氲	-11.2134
髣髴	-11.2135
者因	-11.2135
則皆	-11.2135
庄	-11.2135
厥後	-11.2136
因得	-11.2136
無奈	-11.2137
蜿蜒	-11.2137
無虞	-11.2137
嘗讀	-11.2138
怡然	-11.2138
主於	-11.2142
相依	-11.2144
長即	-11.2145
者能	-11.2147
之心也	-11.2147
木葉	-11.2148
沈氏	-11.2148
兒子	-11.2148
一杯	-11.215
光華	-11.2152
磴	-11.2154
骸	-11.2154
之物	-11.2154
几席	-11.2155
依稀	-11.2155
􁁊	-11.2157
亦不敢	-11.2157
聞訃	-11.2158
妓	-11.2161
者往往	-11.2163
伶	-11.2164
宋儒	-11.2164
之間而	-11.2167
前年	-11.2168
不返	-11.2169
訃聞	-11.2169
至大	-11.217
吾志	-11.2172
賈誼	-11.2174
知其為	-11.2175
土木	-11.218
于後	-11.218
王先生	-11.218
往還	-11.2182
五嶽	-11.2183
用世	-11.2185
斯堂	-11.2187
二十餘	-11.2188
在昔	-11.2189
萬安	-11.2189
貟	-11.219
之尊	-11.2191
陸氏	-11.2192
天外	-11.2193
工部尚書	-11.2193
尚饗祭	-11.2195
者十	-11.2195
嘿	-11.2199
公始	-11.2203
然後知	-11.2204
湖州	-11.2205
如是而	-11.2208
蒼翠	-11.221
飄零	-11.221
與時	-11.221
同列	-11.2211
塹	-11.2215
不誣	-11.2215
陲	-11.2217
府縣	-11.2217
以利	-11.2218
搢紳	-11.2221
閼	-11.2221
雪滿	-11.2223
青松	-11.2226
其去	-11.2227
者所以	-11.2229
聖心	-11.2229
特以	-11.223
官司	-11.2231
而立	-11.2232
而歸之	-11.2232
南征	-11.2232
平湖	-11.2233
春陽	-11.2234
御史大夫	-11.2234
隂隂	-11.2239
尚友	-11.2241
茂才	-11.2244
唇	-11.2244
永豐	-11.2245
所望	-11.2245
臨岐	-11.2245
債	-11.2246
夥	-11.2248
不事	-11.2249
惜乎	-11.2253
不分	-11.2254
典史	-11.2258
咨嗟	-11.226
始至	-11.226
乎抑	-11.226
客路	-11.2261
巋然	-11.2261
長年	-11.2263
簟	-11.227
唯唯	-11.227
無數	-11.2273
如彼	-11.2274
婦女	-11.2275
耦	-11.2276
我思	-11.2277
其墓	-11.2277
焉若	-11.2277
閨門	-11.2278
由是而	-11.2278
大名	-11.2281
馳騁	-11.2281
六藝	-11.2281
蹤跡	-11.2281
四方之	-11.2284
不惑	-11.2289
仰天	-11.229
則吾	-11.2291
十巻	-11.2292
裊	-11.2296
隈	-11.2299
諜	-11.2299
予觀	-11.2299
眸	-11.2299
家貧	-11.2301
舊有	-11.2301
迤	-11.2301
祀事	-11.2303
乃爾	-11.2303
形於	-11.2306
容易	-11.2307
之心而	-11.2309
具在	-11.2309
世儒	-11.2309
彭城	-11.231
有足	-11.231
西東	-11.2311
芳菲	-11.2311
吉凶	-11.2311
年間	-11.2315
命公	-11.2316
鏡中	-11.2316
郭氏	-11.2317
堂曰	-11.2317
曰爾	-11.2325
鮫	-11.2326
譙	-11.2329
復來	-11.233
皎皎	-11.233
斐	-11.233
仁厚	-11.2331
噪	-11.2332
太尉	-11.2333
恚	-11.2333
皇極	-11.2333
仕而	-11.2334
法也	-11.2335
那能	-11.2336
㡬何	-11.2337
沽酒	-11.2338
時已	-11.2344
是之謂	-11.2345
北平	-11.2345
好義	-11.2347
烽	-11.2347
其配	-11.2347
老翁	-11.2353
東湖	-11.2353
天生	-11.2353
又復	-11.2354
代有	-11.2356
吾祖	-11.2356
之議	-11.2356
嫓	-11.236
𥿄	-11.2362
何意	-11.2362
語及	-11.2363
宣公	-11.2364
西安	-11.2365
我皇上	-11.2366
丁巳	-11.2368
僞	-11.2368
其所謂	-11.2369
青燈	-11.2369
承之	-11.237
二十四日	-11.2373
展轉	-11.2373
意者	-11.2375
有善	-11.2376
之益	-11.2376
秋來	-11.2377
檢討	-11.2379
然皆	-11.2379
悞	-11.2383
安慶	-11.2383
已久	-11.2384
去而	-11.2386
母子	-11.2387
某月日	-11.2388
詩巻	-11.239
七八	-11.239
其黨	-11.2391
某月某日	-11.2391
廣大	-11.2392
赤松	-11.2393
實為	-11.2394
最為	-11.2399
在朝	-11.2399
舟行	-11.24
世故	-11.2402
時人	-11.2402
吾何	-11.2405
霖雨	-11.2405
之愛	-11.2405
以誠	-11.2407
為賢	-11.2407
卯	-11.241
於國	-11.241
倡和	-11.2413
樂善	-11.2413
闘	-11.2414
盻	-11.2414
黄鶴	-11.2415
赫然	-11.2415
䙝	-11.2415
愍	-11.2415
魔	-11.2416
祖宗之	-11.242
既有	-11.2421
彥	-11.2422
在宋	-11.2423
以是為	-11.2424
鄉飲	-11.2427
為最	-11.2431
女二人	-11.2432
亦欲	-11.2432
懌	-11.2433
有云	-11.2433
及諸	-11.2434
輅	-11.2436
弧	-11.2437
白鹿	-11.2437
致身	-11.2437
唐之	-11.2437
涕淚	-11.2437
就養	-11.2438
經學	-11.2438
颷	-11.2439
縣學	-11.244
玲瓏	-11.244
累官	-11.244
紅顔	-11.244
安成	-11.2445
日月之	-11.2445
二十一	-11.2445
其平生	-11.2449
直言	-11.245
非敢	-11.2453
下至	-11.2455
年華	-11.2455
近來	-11.2455
於衆	-11.2456
考亭	-11.2456
空言	-11.2459
冬至	-11.2461
孫氏	-11.2463
世無	-11.2464
有酒	-11.2465
鈴	-11.2469
誡	-11.2469
賫	-11.2469
有法	-11.2469
癯	-11.2469
寧不	-11.2471
埒	-11.2474
怡怡	-11.2474
艘	-11.2474
松柏	-11.2475
之病	-11.2476
惴惴	-11.2476
殿下	-11.2476
州人	-11.2477
守臣	-11.2478
能詩	-11.2478
遺愛	-11.2478
本年	-11.248
若曰	-11.248
汗漫	-11.2481
無憾	-11.2485
不能已	-11.2491
釋氏	-11.2492
此語	-11.2492
謝公	-11.2493
詩句	-11.2495
郎署	-11.2496
生事	-11.2496
風前	-11.2497
頫	-11.2497
㟁	-11.2497
荐	-11.2497
煌	-11.2498
青陽	-11.2498
婚嫁	-11.2499
傳聞	-11.2499
杵	-11.2499
三省	-11.2499
啜	-11.25
嚢	-11.25
士人	-11.2501
綽	-11.2502
縶	-11.2504
天下無	-11.2505
無處	-11.2507
其形	-11.2511
南方	-11.2512
曰善	-11.2514
仰止	-11.2521
㡌	-11.2522
田家	-11.2525
安所	-11.2528
水中	-11.2529
宫中	-11.2529
丹陽	-11.2529
黽勉	-11.2531
脾	-11.2532
如是則	-11.2532
賴以	-11.2532
拮据	-11.2534
之所以為	-11.2541
不存	-11.2541
鄒魯	-11.2543
清泉	-11.2543
乎且	-11.2544
戎馬	-11.2545
絹	-11.2546
龍溪	-11.2549
而後已	-11.255
好事	-11.2551
晟	-11.2553
知是	-11.2553
幙	-11.2554
休戚	-11.2558
哉是	-11.2559
燁	-11.256
壁間	-11.256
名教	-11.2561
用韻	-11.2561
以表	-11.2564
良可	-11.2564
花間	-11.2564
日長	-11.2565
物情	-11.2565
魚鳥	-11.2567
侍讀	-11.2568
將何	-11.257
而必	-11.2573
耳然	-11.2574
雨晴	-11.2576
至老	-11.2579
緜	-11.2582
丙寅	-11.2583
穠	-11.2583
甚厚	-11.2584
斌	-11.2585
之墟	-11.2587
裨	-11.2587
謂非	-11.2588
同鄉	-11.259
未歸	-11.259
任使	-11.2591
好施	-11.2593
入城	-11.2593
一代之	-11.2595
之室	-11.2596
邇來	-11.2597
積雪	-11.2602
而不知其	-11.2603
已無	-11.261
執事之	-11.2611
其室	-11.2611
遣官	-11.2612
痊	-11.2612
蝗	-11.2613
渺渺	-11.2614
領鄉薦	-11.2615
興化	-11.2616
必至	-11.2617
誠以	-11.2618
鄉邑	-11.2619
罔極	-11.2621
水上	-11.2622
見公	-11.2622
林公	-11.2625
士習	-11.2625
錢氏	-11.2628
九霄	-11.2634
堰	-11.2638
其俗	-11.264
雞犬	-11.2641
淇	-11.2642
前有	-11.2642
言路	-11.2642
三司	-11.2643
涕泣	-11.2643
司主事	-11.2644
一分	-11.2644
出則	-11.2645
北方	-11.2648
孝亷	-11.2649
秀色	-11.265
之害	-11.265
大率	-11.265
者誠	-11.2651
推其	-11.2651
城外	-11.2652
猶是	-11.2652
風露	-11.2653
進取	-11.2656
圖之	-11.2656
未定	-11.2663
飛雲	-11.2665
縣學生	-11.2666
毋得	-11.2668
此道	-11.2671
溘	-11.2672
任事	-11.2672
有㫖	-11.2673
淤	-11.2674
二十七	-11.2675
郡之	-11.2677
上海	-11.2677
恐其	-11.2678
兩岸	-11.2678
之頃	-11.2679
在京師	-11.2683
野水	-11.2683
無過	-11.2683
喟然	-11.2686
年三十	-11.2686
委任	-11.2688
開門	-11.269
之舊	-11.2692
為贈	-11.2692
尚寳	-11.2692
幸得	-11.2693
二十一日	-11.2693
凡所	-11.2694
傷哉	-11.2694
出自	-11.2694
肘	-11.2699
鶩	-11.2699
乙卯	-11.27
賢士大夫	-11.27
則民	-11.27
載籍	-11.2701
四顧	-11.2702
羔	-11.2702
去國	-11.2706
當代	-11.2706
那知	-11.2706
可行	-11.2708
三嵗	-11.271
矣且	-11.2712
劉子	-11.2716
僚友	-11.2716
古有	-11.2718
一統	-11.2719
白下	-11.2719
安石	-11.2721
泪	-11.2723
孝經	-11.2723
五老	-11.2724
罏	-11.2724
梳	-11.2724
翡翠	-11.2727
那堪	-11.2729
睥睨	-11.2729
猺	-11.2732
無不可	-11.2733
而不可得	-11.2733
侃	-11.2733
考諱	-11.2735
山陽	-11.2737
起於	-11.2737
言動	-11.2738
無害	-11.2738
時嘗	-11.2739
中郎	-11.274
嘉其	-11.2745
出乎	-11.2746
天恩	-11.2747
五陵	-11.275
先天	-11.2751
碣石	-11.2753
莫大於	-11.2753
儒術	-11.2753
黼	-11.2755
甃	-11.2756
淙	-11.2756
禕	-11.2757
澌	-11.2757
名節	-11.2759
五言	-11.2759
曺	-11.2762
㝎	-11.2763
䋲	-11.2764
猿鶴	-11.2765
伐木	-11.2766
孰非	-11.2767
哀哉	-11.2771
山髙	-11.2771
今乃	-11.2771
韓子	-11.2774
此詩	-11.2775
有所不	-11.2775
文維	-11.2775
以保	-11.2775
夜來	-11.2776
以仁	-11.2776
形骸	-11.2779
揺落	-11.2779
予惟	-11.2782
蜜	-11.2784
無補	-11.2786
空同	-11.2786
掄	-11.2786
櫬	-11.2787
本司	-11.2788
兵燹	-11.2789
無愧於	-11.2789
國學	-11.279
之所存	-11.2791
數百里	-11.2794
而求之	-11.2796
寧知	-11.2802
也後	-11.2805
十有五	-11.2807
固將	-11.2807
其遺	-11.2807
計其	-11.2807
笄	-11.2812
他鄉	-11.2813
突兀	-11.2813
凭	-11.2814
徬徨	-11.2815
窅	-11.2815
宗法	-11.2818
聖皇	-11.2819
之跡	-11.282
憂國	-11.2821
北闕	-11.2821
不勝其	-11.2821
宣城	-11.2823
賢能	-11.2823
聞有	-11.2824
何言	-11.2824
北堂	-11.2824
風聲	-11.2824
海天	-11.2825
行路	-11.2827
非我	-11.283
不斷	-11.2831
業儒	-11.2832
不能忘	-11.2834
谷口	-11.2835
對月	-11.2835
烏乎	-11.2835
璣	-11.2838
不常	-11.2838
復命	-11.2839
鞋	-11.284
懼其	-11.2842
直𨽻	-11.2843
譔	-11.2843
皆非	-11.2844
袒	-11.2848
紊	-11.2848
洵	-11.2848
家傳	-11.285
苴	-11.285
奉天	-11.2851
大官	-11.2852
殆盡	-11.2854
庠生	-11.286
發而	-11.2863
未識	-11.2865
短長	-11.2866
蛾	-11.2867
人咸	-11.2868
都督府	-11.2868
鞏	-11.287
以成其	-11.2873
䆒	-11.2875
耒	-11.2875
癸卯	-11.2875
離羣	-11.2876
氏墓誌銘	-11.2876
見示	-11.2877
右布政使	-11.2877
冢宰	-11.2877
人道	-11.2879
之選	-11.2881
不腆	-11.2882
必盡	-11.2882
其美	-11.2882
士林	-11.2883
秦淮	-11.2883
里閈	-11.2883
北來	-11.2883
不振	-11.2885
一新	-11.2886
交情	-11.2886
瞳	-11.2888
吾意	-11.2889
木石	-11.2889
離合	-11.289
曽大父	-11.289
分司	-11.2892
歳月	-11.2895
一段	-11.2895
人民	-11.2896
翺	-11.2899
璚	-11.2899
迸	-11.2899
甍	-11.29
相送	-11.29
丁卯	-11.29
峴	-11.2902
考察	-11.2902
肄	-11.2902
告歸	-11.2904
瘡	-11.2904
紂	-11.2906
駑	-11.2907
釡	-11.291
抑亦	-11.2911
明明	-11.2911
其源	-11.2912
承明	-11.2913
吾生	-11.2913
太后	-11.2917
傾倒	-11.2917
大畧	-11.2917
家住	-11.2918
書屋	-11.292
總是	-11.2922
官舍	-11.2923
臺下	-11.2923
于斯	-11.2923
雪後	-11.2926
要害	-11.2927
次公	-11.2928
國有	-11.293
軍士	-11.2931
霏霏	-11.2931
東流	-11.2933
千峰	-11.2935
始克	-11.2936
紫宸	-11.2936
與先生	-11.2936
除夕	-11.2939
之久	-11.2941
星河	-11.2942
矣惟	-11.2943
銓曹	-11.2944
孫男二	-11.2945
者也故	-11.2946
無少	-11.2947
天錫	-11.295
自許	-11.2951
為客	-11.2954
肅然	-11.2956
聖賢之學	-11.2957
餅	-11.2958
天下之士	-11.2959
自勵	-11.296
少而	-11.2961
恍惚	-11.2961
躑躅	-11.2962
位而	-11.2963
亦宜	-11.2965
疑之	-11.2965
先哲	-11.2966
生生	-11.2966
壬	-11.2968
戒之	-11.2968
虎丘	-11.2968
此君	-11.2969
奪其	-11.297
庶子	-11.297
長樂	-11.2973
血氣	-11.2978
也銘曰	-11.2979
職業	-11.2979
十有八	-11.2981
大宗	-11.2982
峨	-11.2982
駝	-11.2984
進階	-11.2984
一應	-11.2987
前來	-11.2988
搴	-11.2989
鬟	-11.2989
自㓜	-11.299
太乙	-11.2991
涓	-11.2991
查照	-11.2992
春山	-11.2993
甦	-11.2993
覘	-11.2994
武林	-11.2995
之所由	-11.2996
徙倚	-11.2998
忽見	-11.3001
花滿	-11.3004
為心	-11.3005
而使	-11.3006
不見其	-11.3007
其詳	-11.3009
計者	-11.3009
請記	-11.3011
上聞	-11.3013
定山	-11.3014
巳而	-11.3016
廣平	-11.3016
還自	-11.3016
九卿	-11.3018
石城	-11.3019
月落	-11.302
以儒	-11.3021
山之陽	-11.3021
爲善	-11.3021
丘園	-11.3021
筒	-11.3023
可傳	-11.3023
黄君	-11.3023
捄	-11.3024
二十三	-11.3025
少宰	-11.3026
諸士	-11.3028
經傳	-11.3029
願得	-11.3029
秉燭	-11.3031
臨池	-11.3031
辭以	-11.3032
求賢	-11.3037
筆硯	-11.3038
君行	-11.3039
武臣	-11.3039
其流	-11.304
鳴琴	-11.3041
得疾	-11.3042
照舊	-11.3043
以立	-11.3044
名實	-11.3044
萬巻	-11.3046
其詞	-11.3046
聖門	-11.3047
琴書	-11.3047
珉	-11.305
又自	-11.3051
連城	-11.3053
躓	-11.3054
吾宗	-11.3055
臨水	-11.3055
漓	-11.3056
賦得	-11.3058
銖	-11.306
移文	-11.306
此等	-11.306
與李	-11.306
珠玉	-11.306
國子監	-11.3061
勤勞	-11.3063
湯藥	-11.3067
嘗與	-11.3067
致力	-11.3067
棄去	-11.3068
性也	-11.3069
以承	-11.3071
異也	-11.3074
一别	-11.3074
一命	-11.3075
八人	-11.3075
典禮	-11.3075
參議	-11.3076
墨竹	-11.3077
朱絃	-11.3078
墳墓	-11.3081
盡矣	-11.3082
州刺史	-11.3084
跂	-11.3084
肺腑	-11.3085
梨花	-11.3086
此之謂	-11.3087
近時	-11.309
文忠公	-11.3092
聽之	-11.3094
自相	-11.3095
菴先生	-11.3097
避地	-11.3098
脩竹	-11.31
府州縣	-11.31
去去	-11.3101
者恒	-11.3101
甘㫖	-11.3102
攀龍	-11.3103
為吏	-11.3103
聲聞	-11.3104
西昌	-11.3105
西方	-11.3105
維時	-11.3106
軻	-11.3109
百戰	-11.311
逗	-11.3111
泚	-11.3112
肻	-11.3113
相為	-11.3113
學正	-11.3113
義士	-11.3113
祛	-11.3115
遇事	-11.3117
軍旅	-11.3117
居常	-11.3117
之累	-11.3119
王生	-11.3121
君獨	-11.3121
當日	-11.3125
累世	-11.3125
顛倒	-11.3125
聲譽	-11.3126
不好	-11.3126
仰視	-11.3126
乃至	-11.313
報稱	-11.3132
億萬	-11.3134
治行	-11.3134
者以其	-11.3135
京國	-11.3135
未許	-11.3136
撑	-11.3136
累贈	-11.3139
踟蹰	-11.3139
籙	-11.314
燄	-11.3141
豢	-11.3142
元至正	-11.3143
以為何如	-11.3144
必須	-11.3144
哉且	-11.3145
户部尚書	-11.3147
之母	-11.3148
莫知其	-11.3148
圖為	-11.3151
毋論	-11.3154
天下國家	-11.3154
不屈	-11.3154
不云乎	-11.3155
嘗從	-11.3156
所受	-11.3156
母氏	-11.3157
廣信	-11.3158
芝蘭	-11.3158
楊子	-11.3162
宫闕	-11.3163
娘	-11.3168
欲去	-11.3169
瑶池	-11.317
駱	-11.3171
臼	-11.3172
禋	-11.3172
收拾	-11.3172
譎	-11.3176
者二	-11.3176
漕運	-11.3178
或問	-11.3178
於彼	-11.3183
江隂	-11.3185
考妣	-11.3186
進於	-11.3188
一家之	-11.3191
紫霞	-11.3191
臨事	-11.3192
沉沉	-11.3192
聖賢之道	-11.3194
人語	-11.3195
先賢	-11.3195
而竟	-11.3196
詩集	-11.3197
輝光	-11.32
宫室	-11.32
箱	-11.3201
鷓鴣	-11.3202
滂	-11.3202
紉	-11.3203
宣和	-11.3204
訶	-11.3205
攫	-11.3205
方氏	-11.3205
封公	-11.3206
漢魏	-11.3206
明王世貞撰	-11.3207
洞天	-11.3207
嫠	-11.3207
遺像	-11.3213
知先生	-11.3215
之所能	-11.3215
萬物之	-11.3218
佳氣	-11.3218
不得已而	-11.322
而志	-11.3223
于人	-11.3228
如山	-11.3229
山城	-11.323
豺狼	-11.3231
㺯	-11.3231
尖	-11.3233
雨聲	-11.3233
沔	-11.3233
窈	-11.3233
過訪	-11.3234
萬夀	-11.3235
稼穡	-11.3235
蘧	-11.3236
公之子	-11.3236
㵼	-11.3236
焯	-11.3236
友也	-11.3238
不可也	-11.3238
芟	-11.3238
石橋	-11.3241
瓠	-11.3242
知事	-11.3243
詩酒	-11.3243
與客	-11.3244
從公	-11.3247
以至於	-11.3247
二十七日	-11.325
曰彼	-11.3251
之鄉	-11.3251
刷	-11.3254
冬十月	-11.3254
示之	-11.3254
供職	-11.3256
入海	-11.3256
之器	-11.3256
之務	-11.3257
清流	-11.3257
元老	-11.3261
燕趙	-11.3261
七百	-11.3261
封疆	-11.3263
自致	-11.3263
獠	-11.3264
原任	-11.3265
相屬	-11.3267
以通	-11.3267
一路	-11.3267
錮	-11.3268
娶於	-11.3275
軒冕	-11.3277
孤山	-11.3279
常州	-11.328
矣况	-11.3281
兄之	-11.3283
次即	-11.3285
菽	-11.3285
從弟	-11.3286
國計	-11.3287
霓	-11.3287
舉於鄉	-11.3289
吼	-11.3292
枯槁	-11.3297
奏議	-11.3297
古文辭	-11.3301
至宋	-11.3303
我有	-11.3307
所撰	-11.3307
臣下	-11.3307
西望	-11.3308
堂前	-11.331
夫君	-11.3311
風烟	-11.3313
作賦	-11.3315
不著	-11.3315
六卿	-11.3317
愛人	-11.3317
文忠	-11.3318
而還	-11.3318
蠻夷	-11.332
自笑	-11.332
上章	-11.3323
有命	-11.3324
當自	-11.3325
砧	-11.3325
棧	-11.3326
溪流	-11.3326
今嵗	-11.3328
盡力	-11.3329
踊	-11.3329
閹	-11.333
餼	-11.3331
無間言	-11.3331
青州	-11.3331
倉皇	-11.3332
軍餉	-11.3332
塵世	-11.3332
督府	-11.3333
朝暮	-11.3335
天池	-11.3335
毫釐	-11.3336
宗人	-11.3339
許氏	-11.3339
先正	-11.334
為夀	-11.3342
如初	-11.3342
祭文	-11.3342
何益	-11.3343
建立	-11.3343
幽明	-11.3344
可笑	-11.3345
小山	-11.3351
姥	-11.3351
不怠	-11.3354
也若夫	-11.3356
中年	-11.3356
未之有	-11.3356
金吾	-11.3357
禧	-11.3357
議處	-11.3357
承天	-11.3359
脆	-11.3359
不爽	-11.336
是固	-11.336
紏	-11.336
規模	-11.3361
恐懼	-11.3362
莫向	-11.3362
安期	-11.3363
矣於是	-11.3364
塩	-11.3364
晩節	-11.3364
以贈之	-11.3365
也茍	-11.3365
國事	-11.3365
視事	-11.3365
去住	-11.3367
先輩	-11.3367
先生諱	-11.3368
聞公	-11.337
雲深	-11.337
方面	-11.337
本色	-11.3371
以為常	-11.3371
吾人	-11.3372
坐對	-11.3376
師生	-11.3377
左丞	-11.3378
次子	-11.3379
楚人	-11.3381
煜	-11.3386
閬	-11.3387
倜儻	-11.3387
者鮮矣	-11.3388
像賛	-11.3389
漬	-11.3389
觀於	-11.339
滁	-11.3391
身世	-11.3391
汩	-11.3392
未了	-11.3393
風物	-11.3398
不再	-11.3399
到臣	-11.3403
之北	-11.3403
弘治	-11.3405
府同知	-11.3405
風化	-11.3406
昇平	-11.3407
禄養	-11.3408
得其人	-11.3409
有弗	-11.341
垂楊	-11.3411
玉帛	-11.3413
估	-11.3413
犒	-11.3416
問訊	-11.3417
因而	-11.3418
女婦	-11.3419
潦倒	-11.3419
周官	-11.3423
詈	-11.3425
喜而	-11.3425
二十六日	-11.3426
務要	-11.3427
民情	-11.3427
鎮江	-11.3427
相遇	-11.3428
酒杯	-11.3432
相違	-11.3432
飛鴻	-11.3434
者殆	-11.3434
筮仕	-11.3435
與弟	-11.3437
一致	-11.344
鳳陽	-11.344
亦甚	-11.3441
不自知	-11.3445
飛揚	-11.3446
天香	-11.3447
時雨	-11.3449
職事	-11.3449
莘	-11.3449
南贛	-11.345
夜泊	-11.345
言事	-11.3453
昊天	-11.3453
都下	-11.3454
他時	-11.3454
其所自	-11.3454
三復	-11.3455
之迹	-11.3457
遂令	-11.3458
勉焉	-11.3459
以徳	-11.3459
夷狄	-11.346
黄鳥	-11.3461
歸心	-11.3461
鄉進士	-11.3464
詹事	-11.3465
于鄉	-11.3466
為先	-11.3469
告曰	-11.3469
豈得	-11.347
衛所	-11.3471
觀風	-11.3473
林君	-11.3473
遺孤	-11.3476
皤	-11.3477
涵養	-11.3477
守禦	-11.3477
出沒	-11.3478
膓	-11.3479
忽聞	-11.3479
云何	-11.3481
彪	-11.3481
滙	-11.3482
在彼	-11.3483
闗山	-11.3483
已出	-11.3489
岐路	-11.3489
東籬	-11.349
及門	-11.3492
巢穴	-11.3492
不載	-11.3492
月上	-11.3495
能致	-11.3496
羅氏	-11.3497
豈直	-11.3498
前事	-11.3499
所不及	-11.35
江浙	-11.35
亦未嘗	-11.3502
不赴	-11.3503
神武	-11.3506
忽然	-11.3507
商賈	-11.3507
治生	-11.3509
感恩	-11.3509
中都	-11.351
棊	-11.3512
苓	-11.3513
癸巳	-11.3515
曾孫男	-11.3515
懐古	-11.3518
望中	-11.3519
清河	-11.352
造物者	-11.352
必有以	-11.3521
休寧	-11.3523
眉山	-11.3524
左布政使	-11.3524
蓋有	-11.3528
生二子	-11.3531
向人	-11.3531
天資	-11.3531
有懷	-11.3532
竹枝	-11.3533
之苦	-11.3534
謫仙	-11.3537
以永	-11.3538
邑令	-11.3539
吾言	-11.3542
洄	-11.3543
險阻	-11.3543
茁	-11.3544
蕭瑟	-11.3544
嚼	-11.3544
絲綸	-11.3547
玉女	-11.3554
空中	-11.3555
僅一	-11.3556
想像	-11.3557
必將	-11.3559
領兵	-11.356
相隨	-11.356
入山	-11.356
金臺	-11.3562
一榻	-11.3565
明德	-11.3565
不務	-11.3566
時節	-11.3566
之設	-11.3567
與兄	-11.3567
從軍	-11.3568
固然	-11.3569
娟娟	-11.3571
蠡	-11.3571
淩	-11.3572
恂	-11.3574
秋草	-11.3574
行至	-11.3575
操觚	-11.3578
數百人	-11.3578
逖	-11.3579
滿目	-11.358
竊聞	-11.3581
十有三	-11.3581
今昔	-11.3582
伏願	-11.3582
地理	-11.3583
始遷	-11.3585
政教	-11.3586
可能	-11.3587
盛世	-11.3587
頗有	-11.3588
願為	-11.3589
未嘗一日	-11.359
錦衣衛	-11.3593
客來	-11.3595
浮沉	-11.3595
也抑	-11.3598
財賦	-11.3605
風濤	-11.3605
祺	-11.3605
漪	-11.3606
容與	-11.3607
動靜	-11.3607
熖	-11.3607
其夫	-11.3607
相識	-11.3607
郡庠	-11.3609
哲人	-11.3611
東家	-11.3611
錐	-11.3612
世徳	-11.3614
照耀	-11.3615
閭巷	-11.3615
二十八日	-11.3618
隨時	-11.3618
疾苦	-11.3619
是用	-11.3621
差人	-11.3622
黄庭	-11.3626
與俱	-11.3626
當何如	-11.3627
黙黙	-11.3628
類此	-11.3628
以達	-11.3629
所爲	-11.3629
風清	-11.3629
名賢	-11.3631
如見	-11.3632
仙家	-11.3632
在家	-11.3632
以才	-11.3633
集中	-11.3633
境内	-11.3634
加於	-11.3634
瀘	-11.3635
何足以	-11.3636
有罪	-11.3637
嶷	-11.3638
櫓	-11.364
丹心	-11.3641
秋氣	-11.3641
遊子	-11.3642
逡巡	-11.3642
竢	-11.3643
試問	-11.3644
太虚	-11.3644
筋力	-11.3645
承家	-11.3646
以重	-11.3646
遺風	-11.3651
又次	-11.3652
豪傑之士	-11.3652
毋以	-11.3654
為國家	-11.3654
都尉	-11.3655
應天府	-11.3655
之竒	-11.366
自宋	-11.366
逝者	-11.3662
八荒	-11.3664
曛	-11.3665
西涯	-11.3665
之兆	-11.3665
前此	-11.3666
水雲	-11.3666
之秀	-11.3669
濺	-11.3671
一員	-11.3672
以獻	-11.3674
莾	-11.3675
女三	-11.3675
學士大夫	-11.3676
將行	-11.3676
桂林	-11.3677
貿	-11.3678
而况於	-11.3681
朱君	-11.3682
無時	-11.3682
子男四	-11.3683
南園	-11.3683
經理	-11.3687
非是	-11.3691
最是	-11.3692
書史	-11.3692
相好	-11.3692
豈復	-11.3694
以勵	-11.3695
青蓮	-11.3695
海棠	-11.3696
弗獲	-11.3697
滿庭	-11.3697
壚	-11.3699
燿	-11.37
雖在	-11.3702
逭	-11.3703
余讀	-11.3704
啇	-11.3704
賙	-11.3705
閉户	-11.3709
無常	-11.3713
事勢	-11.3714
以復	-11.3715
下獄	-11.3716
髙山	-11.3716
鳥鳴	-11.3716
在下	-11.3718
又不能	-11.3719
余以	-11.3719
判官	-11.3724
千樹	-11.3726
聲華	-11.3727
荔	-11.3729
䝉恩	-11.373
芷	-11.373
之基	-11.373
世教	-11.3731
不恤	-11.3734
鎬	-11.3735
珎	-11.3737
肴	-11.3737
巻五	-11.3738
耘	-11.3738
誰憐	-11.3738
鑠	-11.3738
之賢者	-11.3739
夙昔	-11.3739
采石	-11.3742
其語	-11.3742
具疏	-11.3743
八極	-11.3745
止此	-11.3745
賦詩以	-11.3746
困於	-11.3746
未艾	-11.3747
無所用	-11.3747
明光	-11.3748
舅氏	-11.3749
也是以	-11.375
草書	-11.375
夢魂	-11.3757
氏之先	-11.3757
百司	-11.3757
東閣	-11.3759
金紫	-11.376
也又曰	-11.3761
之運	-11.3762
謠	-11.3763
赭	-11.3763
觚	-11.3764
先妣	-11.3764
人之心	-11.3765
言官	-11.3765
曰予	-11.3766
自念	-11.3766
叠	-11.3766
爍	-11.3766
珩	-11.3767
佃	-11.3767
大成	-11.3767
諦	-11.3768
熏	-11.3768
越人	-11.3768
尚能	-11.3768
惻然	-11.3769
而徒	-11.3769
以防	-11.377
詬	-11.3772
不計	-11.3772
入京	-11.3772
如君	-11.3774
才識	-11.3774
必求	-11.3775
不及見	-11.3776
營營	-11.3778
尚何	-11.3779
兒孫	-11.3782
之列	-11.3782
瞻望	-11.3783
已又	-11.3784
示予	-11.3787
雲飛	-11.3788
淺深	-11.3788
表章	-11.3789
有限	-11.379
不第	-11.379
襄事	-11.379
既久	-11.3792
襪	-11.3793
豈足	-11.3793
冠裳	-11.3793
老僧	-11.3795
一區	-11.3796
有田	-11.3796
五子	-11.3797
葭	-11.3799
到此	-11.3799
啼鳥	-11.38
墾	-11.38
隧	-11.38
萬邦	-11.3802
我何	-11.3802
玘	-11.3804
百花	-11.3804
縣尹	-11.3806
南城	-11.3807
凉風	-11.3807
真定	-11.3808
身在	-11.3809
之側	-11.381
萬家	-11.3812
漁父	-11.3812
大喜	-11.3814
無以為	-11.3814
莫知	-11.3816
者也夫	-11.3816
緑樹	-11.3817
序予	-11.3828
曦	-11.383
琴瑟	-11.3831
兊	-11.3831
形勢	-11.3832
廨	-11.3833
己亥	-11.3833
山川之	-11.3833
矣昔	-11.3834
自見	-11.3838
名堂	-11.3843
下馬	-11.3843
吾嘗	-11.3843
城北	-11.3844
先期	-11.3844
必自	-11.3845
不我	-11.3846
乞恩	-11.3848
男婦	-11.3848
節制	-11.3849
今夫	-11.385
以給	-11.3852
不由	-11.3853
燕市	-11.3856
璇	-11.3858
高明	-11.3862
嘻	-11.3863
妻孥	-11.3863
開封	-11.3864
錬	-11.3864
䰟	-11.3865
洪武初	-11.3866
崧	-11.3866
長夜	-11.3867
顯揚	-11.3871
溝壑	-11.3875
金帛	-11.3875
自非	-11.3876
女一適	-11.3877
人口	-11.3878
慎勿	-11.388
誰言	-11.388
能文	-11.3883
者果	-11.3885
九成	-11.3886
謂此	-11.3889
爵禄	-11.3889
花下	-11.3891
高祖	-11.3893
忘機	-11.3894
翎	-11.3894
跽	-11.3895
卵	-11.3896
紛華	-11.3898
重臣	-11.3899
要在	-11.3899
維持	-11.3899
上元	-11.39
萬金	-11.39
秋八月	-11.3909
國用	-11.3913
臯陶	-11.3914
固辭	-11.3915
不鄙	-11.3916
鄉之人	-11.3916
伏枕	-11.3916
秘書	-11.3919
予因	-11.392
聖王	-11.3923
使節	-11.3923
茵	-11.3924
醉後	-11.3925
焉爾	-11.3925
觀音	-11.3926
家家	-11.3927
花枝	-11.3927
而歎曰	-11.3928
閴	-11.393
抵家	-11.3932
圻	-11.3932
召還	-11.3933
鰥	-11.3934
槃	-11.3934
復起	-11.3934
賊巢	-11.3937
尤多	-11.3938
吉甫	-11.3939
鳯陽	-11.394
瞑目	-11.3941
刑罰	-11.3942
欲使	-11.3943
臣民	-11.3944
畀之	-11.3945
器之	-11.3946
生靈	-11.3949
葢自	-11.3955
我家	-11.3956
列傳	-11.3956
逍遙	-11.3958
子姪	-11.3958
荻	-11.3958
穩	-11.3958
弗敢	-11.3959
秋江	-11.3961
特賜	-11.3962
絶無	-11.3963
駛	-11.3963
捐館	-11.3963
璜	-11.3965
正當	-11.3965
禰	-11.3965
修竹	-11.3967
千門	-11.3968
晳	-11.3968
半夜	-11.3969
無慮	-11.3971
城隍	-11.3977
文皇	-11.3979
古意	-11.3979
不辨	-11.3979
莫逆	-11.3981
簡書	-11.3981
法師	-11.3983
司業	-11.3984
居人	-11.3985
莫遣	-11.3985
已經	-11.3987
以文章	-11.3988
文華	-11.3989
舉世	-11.3989
好事者	-11.3992
待制	-11.3992
該道	-11.3992
曄	-11.3994
涙	-11.3995
漚	-11.3995
疴	-11.3996
關山	-11.3997
終無	-11.3997
大要	-11.3997
念我	-11.3997
年已	-11.3998
者甚衆	-11.4
萬斛	-11.4001
胡君	-11.4001
於人者	-11.4001
翹首	-11.4003
洪武中	-11.4004
一畨	-11.4004
隷	-11.4006
烟雨	-11.4007
謂之曰	-11.4008
大宗伯	-11.401
布政使	-11.401
飛去	-11.401
孫男三	-11.4012
謂何	-11.4012
馳驅	-11.4014
矣是故	-11.4017
使得	-11.4019
粲然	-11.4021
但恐	-11.4021
不得以	-11.4022
圖治	-11.4023
烈婦	-11.4026
丑	-11.4026
鑱	-11.4028
誑	-11.4028
及見	-11.4029
沴	-11.4029
碁	-11.4029
滄波	-11.4029
二弟	-11.403
愠	-11.4032
洶洶	-11.4033
呼吸	-11.4036
記得	-11.4037
入室	-11.4041
髙閣	-11.4041
流泉	-11.4043
二章	-11.4043
以彰	-11.4043
君既	-11.4043
處州	-11.4044
以寛	-11.4047
謁予	-11.4047
淮隂	-11.4048
哉昔	-11.4048
萬世之	-11.4049
綱紀	-11.405
上之人	-11.4055
精誠	-11.4055
天顔	-11.4056
仁宗皇帝	-11.4057
灝	-11.4058
畹	-11.4059
淄	-11.406
前去	-11.406
復作	-11.4061
年九月	-11.4062
脊	-11.4062
茨	-11.4063
軒轅	-11.4065
僨	-11.4066
洙泗	-11.4067
南極	-11.4069
數數	-11.4071
憐君	-11.4072
女三人	-11.4073
龍江	-11.4073
鷄鳴	-11.4075
一端	-11.4077
斬首	-11.4077
癸	-11.4078
萬民	-11.408
乃在	-11.408
有恒	-11.4082
洪範	-11.4082
君子謂	-11.4085
昔時	-11.4085
小心	-11.4087
特進	-11.4088
往来	-11.4089
叅將	-11.409
否也	-11.4092
斫	-11.4093
糞	-11.4093
淮海	-11.4093
少谷	-11.4094
鷙	-11.4094
善士	-11.4095
嬾	-11.4097
竹樹	-11.4097
留之	-11.4098
晉人	-11.4098
雷雨	-11.4099
神龍	-11.4103
仲蔚	-11.4106
大笑	-11.4107
未備	-11.4107
周公之	-11.4107
緑水	-11.4108
嗣位	-11.4108
知止	-11.411
許多	-11.411
災異	-11.4112
金莖	-11.4113
甲兵	-11.4114
之富	-11.4116
俱有	-11.4116
郡學	-11.4121
鷁	-11.4123
恭惟	-11.4125
澄清	-11.4125
不淺	-11.4126
掘	-11.4128
之俗	-11.4128
蓼	-11.4128
黼黻	-11.4128
孫男四	-11.413
呻吟	-11.4133
爽氣	-11.4133
青田	-11.4138
隠君	-11.4142
而讀之	-11.4144
士風	-11.4145
鹿門	-11.4146
其尤	-11.4146
嘗觀	-11.4146
曾子	-11.415
在室	-11.4151
畢竟	-11.4152
帝王之	-11.4152
在前	-11.4152
諮	-11.4158
縳	-11.416
朝野	-11.416
無成	-11.416
瓌	-11.4161
邏	-11.4161
壽考	-11.4162
彫	-11.4163
莫不有	-11.4163
慟哭	-11.4164
孑	-11.4165
羣公	-11.4166
鄉貢	-11.4168
著作	-11.4168
大哉	-11.417
清時	-11.4172
皇后	-11.4174
不遂	-11.4174
賢不肖	-11.4175
落魄	-11.4176
扶持	-11.4179
無難	-11.4181
瀟洒	-11.4181
藏書	-11.4182
青鳥	-11.4182
仕為	-11.4183
之儀	-11.4183
可信	-11.4184
著之	-11.4186
陳子	-11.4187
盛哉	-11.4187
自我	-11.4188
邇者	-11.4192
少壯	-11.4192
綉	-11.4194
仄	-11.4194
臣惟	-11.4195
浥	-11.4197
閣老	-11.4198
政務	-11.4202
五里	-11.4204
得名	-11.4206
江門	-11.4208
稱觴	-11.4209
陽和	-11.4209
單于	-11.4209
發憤	-11.4212
則可以	-11.4214
友諒	-11.4216
寒雲	-11.4217
懇懇	-11.4217
生擒	-11.4217
匹夫	-11.4218
西蜀	-11.4219
可稱	-11.4221
其最	-11.4222
餘生	-11.4223
耆舊	-11.4225
只恐	-11.4226
日已	-11.4226
故居	-11.4226
臺省	-11.4227
數里	-11.4228
合乎	-11.4229
冠服	-11.4229
分教	-11.4231
桴	-11.4233
出塞	-11.4233
醮	-11.4233
終於	-11.4234
混沌	-11.4234
蒼龍	-11.4234
年月日	-11.4235
歴代	-11.4235
髙歌	-11.4236
以祀	-11.4236
肩輿	-11.4237
以授	-11.4237
恍然	-11.4238
族譜	-11.4238
雨餘	-11.424
故老	-11.424
將士	-11.4249
兩地	-11.4249
設施	-11.425
亦能	-11.4251
假令	-11.4252
懐抱	-11.4252
吕氏	-11.4253
近臣	-11.4255
海水	-11.4256
磚	-11.4256
北征	-11.4257
荏苒	-11.4259
振衣	-11.426
馘	-11.426
艤	-11.4261
隠隠	-11.4262
諼	-11.4264
旭日	-11.4266
父曰	-11.4267
兩浙	-11.4267
衰老	-11.4267
史傳	-11.4269
宜乎	-11.427
儁	-11.427
莫測	-11.4272
明發	-11.4272
高堂	-11.4274
縱有	-11.4274
敵人	-11.4275
一女	-11.4275
秦人	-11.4281
徐州	-11.4282
指揮同知	-11.4283
益甚	-11.4285
居庸	-11.4286
濁酒	-11.4287
天宇	-11.4287
膾	-11.4292
莱	-11.4292
惋	-11.4294
潄	-11.4295
缶	-11.4295
乃命	-11.4296
數十萬	-11.4297
聾	-11.4297
今復	-11.4298
故雖	-11.4299
竪	-11.4299
十有九	-11.43
玉立	-11.43
儒林	-11.43
狀元	-11.4301
緑隂	-11.4301
孳孳	-11.4302
盤桓	-11.4303
又三年	-11.4304
取進士	-11.4304
僃	-11.4305
同姓	-11.4306
朝宗	-11.4308
未竟	-11.431
余謂	-11.4311
異鄉	-11.4311
烟霧	-11.4312
助之	-11.4313
民皆	-11.4314
二百年	-11.4314
生理	-11.4315
蘇氏	-11.4316
今之人	-11.4317
矯首	-11.4318
安定	-11.432
不渝	-11.432
請告	-11.4321
督撫	-11.4323
水西	-11.4325
泣下	-11.4325
羇	-11.4327
尅	-11.4327
有益於	-11.4328
閥	-11.4328
肝膽	-11.4328
豈弟	-11.4329
至治	-11.4329
河上	-11.433
我獨	-11.4332
而後可	-11.4332
暮春	-11.4332
諸軍	-11.4332
長日	-11.4333
千五百	-11.4333
無媿	-11.4333
臣不勝	-11.4333
升降	-11.4334
眎	-11.4334
焉能	-11.4334
不羣	-11.4334
君子所	-11.4338
毘陵	-11.4341
自愧	-11.4344
不敢不	-11.4345
三百篇	-11.4346
清廟	-11.4349
兀	-11.435
凛然	-11.435
有容	-11.4353
未遑	-11.4357
虚名	-11.4357
在目	-11.4358
君今	-11.4359
孜	-11.436
髙卧	-11.4361
匯	-11.4361
瑯琊	-11.4362
二曰	-11.4363
凜	-11.4364
本是	-11.4365
縠	-11.4366
箠	-11.4368
新城	-11.4369
耋	-11.4369
可以觀	-11.4369
尚多	-11.437
長驅	-11.4372
丈夫子	-11.4374
余既	-11.4377
於法	-11.4379
懇切	-11.438
月華	-11.4381
嗟哉	-11.4385
處置	-11.4386
沅	-11.4387
司農	-11.4387
走馬	-11.4389
嶙峋	-11.4391
也不然	-11.4392
一去	-11.4392
金錢	-11.4392
欲問	-11.4393
惕然	-11.4393
昜	-11.4393
桓公	-11.4395
藕	-11.4395
而言曰	-11.4395
者僅	-11.4396
無斁	-11.4396
森森	-11.4398
之至也	-11.4401
于天下	-11.4401
踣	-11.4401
訓詁	-11.4402
奉養	-11.4403
先達	-11.4403
辛卯	-11.4403
山前	-11.4405
箸	-11.4405
撫臣	-11.4409
富而	-11.4409
本乎	-11.4411
長短	-11.4411
笙歌	-11.4412
春暉	-11.4413
手持	-11.4413
曾大父	-11.4415
南溪	-11.442
瀑布	-11.442
移家	-11.4422
性命之	-11.4424
雙龍	-11.4427
加意	-11.4428
留滯	-11.4428
登臺	-11.4428
幘	-11.443
漣	-11.443
九華	-11.4432
矚	-11.4433
鏊	-11.4433
產	-11.4434
陳情	-11.4435
號稱	-11.4435
教育	-11.4435
禦之	-11.4438
沾沾	-11.444
天氣	-11.4442
天王	-11.4445
熒	-11.4449
矣因	-11.4451
瑶草	-11.4452
浩歌	-11.4453
河圖	-11.4454
既至	-11.4456
正氣	-11.4456
往時	-11.4457
里許	-11.4459
釣魚	-11.446
而況	-11.4462
無功	-11.4463
多方	-11.4463
砥柱	-11.4464
前朝	-11.4465
光照	-11.4465
燃	-11.4465
園亭	-11.4466
距其生	-11.4467
聒	-11.4468
異哉	-11.4468
𦕈	-11.447
晚節	-11.447
條理	-11.4471
棲遲	-11.4471
都是	-11.4472
花前	-11.4473
不輟	-11.4474
送人	-11.4475
溺於	-11.4476
甚難	-11.448
重重	-11.4481
再見	-11.4482
萬全	-11.4485
詩後	-11.4488
不專	-11.4488
百川	-11.4489
予於	-11.4489
大廷	-11.4491
治化	-11.4492
允明	-11.4495
今幸	-11.4495
吾夫子	-11.4496
臨海	-11.4496
珥	-11.4499
復古	-11.45
觥	-11.4501
鄖	-11.4501
喘	-11.4501
嬪	-11.4502
冽	-11.4503
庶吉士	-11.4503
擣	-11.4503
愛敬	-11.4504
愬	-11.4504
光彩	-11.4505
之季	-11.4509
渡河	-11.4511
耆老	-11.4512
出師	-11.4514
徐子	-11.4514
悲哉	-11.4516
參軍	-11.4517
權貴	-11.4519
紫薇	-11.4519
連日	-11.452
坐視	-11.4521
終古	-11.4525
卿大夫	-11.4526
仕進	-11.4526
平反	-11.4527
素心	-11.4527
引領	-11.4528
拭	-11.4529
光武	-11.453
擎	-11.4531
二十二日	-11.4531
指揮使	-11.4531
上國	-11.4531
妝	-11.4532
居恒	-11.4532
涎	-11.4533
幔	-11.4535
在京	-11.4535
而後能	-11.4535
看雲	-11.4536
扳	-11.4537
寤寐	-11.4537
成章	-11.4537
擷	-11.4538
熹	-11.4538
舉子	-11.4539
三秋	-11.454
獨憐	-11.454
案牘	-11.4542
見過	-11.4543
勤於	-11.4544
翩然	-11.4545
中正	-11.4545
大觀	-11.4545
光大	-11.4547
小人之	-11.4548
于外	-11.4549
三十二	-11.455
草樹	-11.455
吳山	-11.4552
幾日	-11.4554
終不能	-11.4558
眼底	-11.4559
金谷	-11.4559
為道	-11.456
憲臣	-11.4562
舉行	-11.4564
春江	-11.4566
面目	-11.4568
不經	-11.4568
腕	-11.4569
非若	-11.4569
空林	-11.457
御史中丞	-11.4571
俎豆	-11.4573
百代	-11.4573
辨之	-11.4575
對客	-11.4575
章章	-11.4578
千丈	-11.4578
不自知其	-11.4579
蕩蕩	-11.458
不憂	-11.4581
為務	-11.4584
六首	-11.4585
臨淮	-11.4587
不時	-11.4588
同朝	-11.4588
交遊	-11.4589
維新	-11.4589
者不過	-11.459
先生先生	-11.459
草莽	-11.459
萬樹	-11.4591
世上	-11.4593
曽孫男	-11.4594
非常之	-11.4598
堯舜之	-11.4599
花發	-11.4601
沁	-11.4602
松下	-11.4604
驤	-11.4604
燧	-11.4606
炯	-11.4608
麋	-11.461
二十九日	-11.4612
含情	-11.4612
咈	-11.4612
耶夫	-11.4612
物故	-11.4613
臧獲	-11.4615
㡬時	-11.462
賢人	-11.4623
王氣	-11.4624
嗚呼痛哉	-11.4626
漢武	-11.4626
城府	-11.4627
此本	-11.4627
卜以	-11.4627
石湖	-11.4629
女也	-11.463
東郭	-11.4631
風度	-11.4631
田廬	-11.4632
垂老	-11.4632
為縣	-11.4636
鸛	-11.4638
哦	-11.4638
窺其	-11.4639
於今日	-11.4639
成名	-11.4639
秫	-11.4639
暇則	-11.464
礦	-11.4641
寄語	-11.4641
詔書	-11.4641
僦	-11.4642
中書舎人	-11.4642
恫	-11.4642
砥礪	-11.4642
後世之	-11.4643
太液	-11.4644
齟齬	-11.4645
天髙	-11.4645
俚	-11.4646
楣	-11.4647
無忘	-11.4648
二十九	-11.4648
豈為	-11.4651
家弟	-11.4653
梁公	-11.4654
人心之	-11.4654
鮮有	-11.4654
無憂	-11.4654
流落	-11.4655
一紙	-11.4657
狂歌	-11.4657
發揮	-11.4659
土地	-11.4659
九曲	-11.466
文士	-11.4661
百千	-11.4663
大徳	-11.4664
臨安	-11.4665
奉公	-11.4667
終焉	-11.4668
未老	-11.467
文藝	-11.4672
芾	-11.4672
欽此欽遵	-11.4672
嶺海	-11.4673
其末	-11.4675
脩身	-11.4676
爾雅	-11.4676
烟波	-11.4677
則夫	-11.4679
皇太后	-11.4681
幽棲	-11.4682
佛老	-11.4682
將相	-11.4682
保定	-11.4684
子貢	-11.4686
蒼然	-11.4686
歌行	-11.4686
才子	-11.4687
蜀道	-11.4694
關中	-11.4694
瑶臺	-11.4696
附於	-11.4697
恙	-11.4698
此類	-11.4699
後右	-11.4701
可樂	-11.4701
自奮	-11.4701
指㸃	-11.4704
者為之	-11.4704
委官	-11.4706
轅門	-11.4708
神交	-11.4708
拖	-11.4709
海外	-11.4709
盛年	-11.4711
賢哉	-11.4712
飛龍	-11.4713
詮	-11.4713
年未	-11.4713
陸子	-11.4714
右丞	-11.4714
縑	-11.4714
怖	-11.4716
使臣	-11.4716
何地	-11.4717
蛻	-11.4717
乃已	-11.4718
貞節	-11.4718
益深	-11.4719
家藏	-11.4719
循循	-11.4722
壯而	-11.4722
石梁	-11.4722
樂道	-11.4722
太上	-11.4725
衆所	-11.4727
甚衆	-11.4727
里有	-11.4727
雲水	-11.473
河陽	-11.4731
同事	-11.4734
此所以	-11.4734
諸侯之	-11.4735
我兵	-11.4735
者輒	-11.4736
尊卑	-11.4736
所思	-11.4736
諸孤	-11.4737
堂下	-11.4738
七欽定四庫全書	-11.4738
璘	-11.4744
益大	-11.4745
出為	-11.4745
輞川	-11.4746
琚	-11.4746
為銘	-11.4747
壼	-11.4747
䄂	-11.4747
疑是	-11.4748
服膺	-11.4748
靚	-11.4749
兩家	-11.4749
餘力	-11.4752
柴桑	-11.4753
𣙜	-11.4753
㱕	-11.4754
從事於	-11.4754
縁係	-11.4757
所部	-11.4758
又當	-11.4759
載道	-11.476
先徳	-11.4761
僅得	-11.4762
秋七月	-11.4766
一句	-11.4768
也或曰	-11.4771
中宵	-11.4773
武庫	-11.4775
日星	-11.4776
蚊	-11.4779
昔賢	-11.478
鵰	-11.478
思慮	-11.478
里居	-11.4781
開國	-11.4781
昱	-11.4782
桓桓	-11.4783
扆	-11.4783
黌	-11.4783
欒	-11.4784
潑	-11.4784
㐮	-11.4785
誠心	-11.4785
之義也	-11.4785
羲皇	-11.4785
掌印	-11.4786
天光	-11.4786
往者	-11.4787
三十里	-11.4787
大約	-11.4789
戀戀	-11.4791
樂事	-11.4791
遺墨	-11.4794
異人	-11.4798
思歸	-11.4799
兵戈	-11.48
震澤	-11.4802
斗牛	-11.4802
三輔	-11.4807
下第	-11.4807
講求	-11.4807
諸父	-11.4808
磧	-11.4813
莓苔	-11.4815
砂	-11.4816
匹馬	-11.4817
秖	-11.4817
豺虎	-11.4817
拉	-11.4818
謁選	-11.4819
摛	-11.4819
㴱	-11.4821
盥	-11.4822
花香	-11.4822
尤篤	-11.4824
非所謂	-11.4825
耳目之	-11.4825
夷齊	-11.4829
天津	-11.483
而東	-11.4831
婺源	-11.4831
聖祖	-11.4832
尺牘	-11.4834
名姓	-11.4838
救之	-11.4841
歸老	-11.4843
井田	-11.4844
夜夢	-11.4844
遣之	-11.4846
勝國	-11.4846
著姓	-11.4846
萬夫	-11.4848
維揚	-11.4848
亦卒	-11.4849
誰謂	-11.4852
崢嶸	-11.4853
攬轡	-11.4853
杖藜	-11.4853
杜甫	-11.4856
藎	-11.4859
奉勅	-11.486
元夕	-11.4861
篤實	-11.4862
敏政	-11.4862
多賢	-11.4862
亦如之	-11.4867
禹貢	-11.4867
雲烟	-11.4868
臨御	-11.4868
轉運	-11.487
則所謂	-11.4872
講習	-11.4873
喜怒	-11.4874
守節	-11.4882
弋	-11.4884
藍田	-11.4884
中央	-11.4885
進學	-11.4886
蘭溪	-11.4886
相通	-11.4887
方丈	-11.4887
父子兄弟	-11.4887
過此	-11.4887
沛然	-11.4888
南去	-11.4888
㡬人	-11.4889
峒	-11.4889
孀	-11.4891
覯	-11.4894
狷	-11.4896
繚	-11.4896
壺觴	-11.4897
邦人	-11.4897
同寅	-11.4898
噫嘻	-11.4898
英英	-11.4899
郭公	-11.49
雲開	-11.4902
漢宫	-11.4903
至理	-11.4904
受封	-11.4905
嘗曰	-11.4906
神功	-11.4906
海濵	-11.4908
廷試	-11.4908
餘年	-11.4908
極力	-11.4915
勉旃	-11.4915
誰云	-11.4915
嵗嵗	-11.4916
筋	-11.4916
民俗	-11.4919
萬嵗	-11.492
不終	-11.4921
是編	-11.4921
習俗	-11.4922
夏四月	-11.4923
典籍	-11.4923
萼	-11.4924
之本也	-11.4924
可望	-11.4924
伏望皇上	-11.4924
興學	-11.4925
堞	-11.4925
諏	-11.4928
嘔	-11.4928
漢書	-11.4929
悰	-11.4929
刈	-11.493
同門	-11.4931
責其	-11.4931
祠下	-11.4932
吾徒	-11.4932
遂使	-11.4932
先生之學	-11.4933
顚	-11.4933
感動	-11.4935
無罪	-11.4936
君子之道	-11.4937
太初	-11.4939
孝義	-11.494
也嗟乎	-11.4941
兹山	-11.4944
得免	-11.4945
以勸	-11.4949
若是者	-11.4953
李杜	-11.4957
遥遥	-11.4957
汝父	-11.4957
於一時	-11.4957
特立	-11.4958
秃	-11.4958
参	-11.4959
切切	-11.496
第五	-11.496
思欲	-11.4962
萬言	-11.4963
女四	-11.4964
衒	-11.4965
刮	-11.4965
抒	-11.4966
長空	-11.4966
字仲	-11.4967
遥望	-11.4968
忽驚	-11.4968
試禮部	-11.497
既長	-11.497
謝事	-11.4972
數十百	-11.4973
登高	-11.4973
我銘	-11.4973
持此	-11.4976
手教	-11.4976
不習	-11.4977
深林	-11.4982
伏羲	-11.4982
下土	-11.4983
二十六	-11.4985
兵革	-11.4986
臣某	-11.4988
利病	-11.4991
其害	-11.4992
從吾	-11.4992
賸	-11.4992
覩其	-11.4993
斡	-11.4995
榮禄大夫	-11.4995
沫	-11.4995
過客	-11.4996
磔	-11.4996
楚江	-11.4999
傳家	-11.5001
冡宰	-11.5002
何䖏	-11.5003
去就	-11.5003
凛凛	-11.5004
嘉樹	-11.5004
擿	-11.5005
渤海	-11.5008
逝矣	-11.5008
如是者	-11.5009
室廬	-11.5009
濛	-11.5011
滿林	-11.5014
奕世	-11.5014
石壁	-11.5014
牛馬	-11.5015
論學	-11.5015
千嵗	-11.5016
太清	-11.5017
朔風	-11.5022
三十餘	-11.5026
遐思	-11.5027
墓碑	-11.503
終養	-11.5031
出没	-11.5032
設官	-11.5033
封孺人	-11.5034
喫	-11.5034
水竹	-11.5034
好善	-11.5035
酌酒	-11.5035
黷	-11.5036
聖神	-11.5038
爼豆	-11.5039
畿内	-11.5039
牝	-11.5041
葬於	-11.5041
照例	-11.5042
狃	-11.5043
交㳺	-11.5044
地僻	-11.5045
髙臺	-11.5046
醫者	-11.5047
致祭	-11.5048
科名	-11.5051
望族	-11.5051
過予	-11.5052
激烈	-11.5053
長揖	-11.5053
泠	-11.5055
韻二首	-11.5057
差官	-11.5057
曰昔	-11.5057
㕘議	-11.5057
土兵	-11.5058
歐陽公	-11.5059
凡四	-11.5059
逺方	-11.5061
少長	-11.5063
日斜	-11.5064
宣王	-11.5065
名儒	-11.5065
獨能	-11.5065
主客	-11.5066
事狀	-11.5067
俛	-11.5068
濯纓	-11.5068
岧嶤	-11.5068
幽谷	-11.5069
大河	-11.5069
登堂	-11.5071
樓上	-11.5071
邵子	-11.5071
㸑	-11.5071
纜	-11.5072
撞	-11.5073
闌干	-11.5076
客中	-11.5077
筌	-11.5077
棼	-11.5078
官守	-11.5081
唐虞三代	-11.5082
逢君	-11.5083
司馬公	-11.5089
遑	-11.5089
哉盖	-11.509
清源	-11.5091
雲雨	-11.5092
白鷺	-11.5094
相仍	-11.5096
堪輿	-11.5096
上意	-11.5099
達人	-11.5099
討論	-11.5101
保全	-11.5101
汝南	-11.5101
其季	-11.5103
嵇	-11.5104
知之矣	-11.5105
緊	-11.5106
所居之	-11.5106
命有司	-11.5106
元元	-11.5108
瘡痍	-11.5109
漁舟	-11.5109
壟	-11.511
嘖嘖	-11.5111
繒	-11.5111
咀	-11.5113
緫	-11.5114
鍼	-11.5114
對此	-11.5116
䛕	-11.5116
萬木	-11.5117
周易	-11.5118
塲屋	-11.5125
誰識	-11.5125
愛日	-11.5126
安用	-11.5127
晚年	-11.5127
私心	-11.513
自己	-11.513
國恩	-11.5132
世傳	-11.5136
退食	-11.5138
仰惟	-11.514
京城	-11.514
迢逓	-11.5142
終南	-11.5142
幷	-11.5143
拚	-11.5144
全活	-11.5144
國子祭酒	-11.5144
兠	-11.5146
雖云	-11.5147
賜金	-11.5149
虺	-11.5149
講明	-11.5149
異常	-11.5151
序余	-11.5153
放歌	-11.5153
居室	-11.5153
雲門	-11.5154
而知其	-11.5156
一峯	-11.5156
三更	-11.5157
夾攻	-11.5158
三吳	-11.5159
謝客	-11.5159
橈	-11.5162
世其家	-11.5163
宇内	-11.5164
首尾	-11.5164
永新	-11.5165
行止	-11.5168
餘慶	-11.5168
塞上	-11.5169
良工	-11.5169
羣從	-11.5169
或以為	-11.5173
難忘	-11.5177
稍有	-11.5179
良民	-11.5179
調理	-11.5179
甚盛	-11.5179
纛	-11.5179
斯文之	-11.518
郡志	-11.5181
麈	-11.5182
盱	-11.5183
躔	-11.5183
罅	-11.5185
景明	-11.5186
塤	-11.5186
封事	-11.5187
扞	-11.519
講論	-11.5191
落成	-11.5193
天之所	-11.5193
五品	-11.5194
内翰	-11.5195
省城	-11.5195
寢食	-11.5195
而觀之	-11.5196
白鳥	-11.5196
武選	-11.5196
者也今	-11.5198
青眼	-11.5198
駟馬	-11.5198
不審	-11.52
孝養	-11.52
謂我	-11.5201
令徳	-11.5203
停雲	-11.5203
痛哭	-11.5205
先民	-11.5206
落木	-11.5206
秋雲	-11.5207
令尹	-11.5209
碧玉	-11.5209
江浦	-11.521
大藩	-11.5211
古所謂	-11.5214
入夢	-11.5214
親民	-11.5218
鶻	-11.5219
筦	-11.522
去留	-11.522
日就	-11.522
副都御史	-11.522
絀	-11.5223
懵	-11.5224
罪人	-11.5224
盲	-11.5224
貞婦	-11.5224
証	-11.5225
敢望	-11.5225
行路難	-11.5229
如雪	-11.5229
登進士	-11.5229
生徒	-11.5229
何啻	-11.5232
埭	-11.5234
其所得	-11.5235
以助	-11.5236
莊子	-11.5238
府事	-11.5243
某年某月某日	-11.5244
衆人之	-11.5245
昭明	-11.5246
早朝	-11.525
之中而	-11.525
立教	-11.525
信宿	-11.5251
同行	-11.5254
珊	-11.5255
教養	-11.5255
先業	-11.5255
尤重	-11.5256
州郡	-11.5257
鈐	-11.5257
大化	-11.5258
濆	-11.5258
汛	-11.5259
然後能	-11.526
何嘗	-11.526
怵	-11.526
應知	-11.526
鴻鵠	-11.5261
何如耳	-11.5263
池塘	-11.5263
主恩	-11.5264
癘	-11.5264
享其	-11.5266
蔚然	-11.5266
賑濟	-11.5266
繽紛	-11.5267
者莫如	-11.5271
朝鮮	-11.5273
委蛇	-11.5273
蕭散	-11.5276
湘水	-11.5276
頭目	-11.5277
濟時	-11.528
請余	-11.528
發兵	-11.5282
者無不	-11.5282
趙君	-11.5282
安福	-11.5285
夕照	-11.5285
仲淹	-11.5287
磊	-11.5288
篤志	-11.5289
積雨	-11.5291
雙飛	-11.5292
澹然	-11.5293
病起	-11.5294
有功於	-11.5294
文義	-11.5295
無一人	-11.5297
而後知	-11.5299
一第	-11.53
何曽	-11.5303
名流	-11.5303
胃	-11.5303
休息	-11.5304
建業	-11.5304
世守	-11.5304
寵命	-11.5305
嗟我	-11.5306
帝鄉	-11.5306
尺素	-11.5309
手澤	-11.5309
仕也	-11.531
計偕	-11.5311
此物	-11.5315
舊日	-11.5315
口占	-11.5317
驊騮	-11.5323
傳後	-11.5325
系出	-11.5325
鄉心	-11.5326
九泉	-11.5327
天柱	-11.5327
貴顯	-11.5329
而後有	-11.5329
煒	-11.5332
人莫不	-11.5332
永永	-11.5333
綿綿	-11.5334
敭	-11.5336
名字	-11.5338
諭以	-11.5338
當宁	-11.5339
食飲	-11.5339
且謂	-11.5339
海東	-11.5341
晏然	-11.5341
起舞	-11.5342
錦袍	-11.5342
秋毫	-11.5343
草萊	-11.5344
不可測	-11.5345
泫然	-11.5347
某年月日	-11.535
甲乙	-11.5351
皆由	-11.5353
庭闈	-11.5355
幾於	-11.5355
子男三	-11.5357
有今日	-11.5359
釋然	-11.5361
爲學	-11.5364
乎外	-11.5364
重建	-11.5364
闐	-11.5369
州知州	-11.5371
學成	-11.5373
僥倖	-11.5373
鏜	-11.5374
諸篇	-11.5374
其身而	-11.5374
將帥	-11.5374
故云	-11.5374
者必有	-11.5375
祧	-11.5375
鄉賢	-11.5376
白水	-11.5377
豈是	-11.5379
無聊	-11.5381
之濵	-11.5383
興國	-11.5384
體用	-11.5384
有取於	-11.5387
立法	-11.539
芳樹	-11.539
稱之曰	-11.5391
受教	-11.5391
知本	-11.5393
此夜	-11.5393
贛州	-11.5395
風節	-11.5395
我聞	-11.5396
寒泉	-11.5396
皆稱	-11.5396
春三月	-11.5396
聊復	-11.5396
大士	-11.5398
貴富	-11.5398
堂中	-11.5401
康寧	-11.5401
應制	-11.5403
榴	-11.5406
㳟	-11.5407
蹲	-11.5408
焰	-11.5409
蝟	-11.541
剏	-11.541
薜荔	-11.541
爛漫	-11.5411
自棄	-11.5414
本朝	-11.5415
長吟	-11.5415
莫問	-11.5415
累日	-11.5418
武侯	-11.5419
黄雲	-11.542
以寓	-11.542
八首	-11.5429
石泉	-11.543
仲昭	-11.5432
往復	-11.5432
清朝	-11.5432
以為榮	-11.5433
若干年	-11.5433
闕里	-11.5434
有警	-11.5435
論功	-11.5436
次日	-11.5436
翠華	-11.5437
躍馬	-11.5438
崕	-11.5439
我輩	-11.5439
按察司僉事	-11.5439
擇其	-11.544
上虞	-11.5441
流風	-11.5443
鼉	-11.5443
飴	-11.5444
實用	-11.5444
漉	-11.5445
墓志銘	-11.5445
吾心之	-11.5446
貞觀	-11.5447
羽毛	-11.5449
舁	-11.5449
漁陽	-11.5451
雷電	-11.5452
盛德	-11.5454
七言律	-11.5455
若干首	-11.5456
新民	-11.546
弔古	-11.5461
流芳	-11.5462
入國朝	-11.5462
安仁	-11.5463
所敢	-11.5464
行實	-11.5465
其何以	-11.5465
言笑	-11.5467
後昆	-11.5468
繼室	-11.5468
所繫	-11.547
寛厚	-11.5471
陽城	-11.5472
矣然而	-11.5474
非偶然	-11.5474
賦役	-11.5475
黯然	-11.5476
都指揮僉事	-11.5477
山青	-11.5478
風土	-11.5478
呉氏	-11.548
今宵	-11.548
崆峒	-11.548
花竹	-11.5481
媛	-11.5482
凡百	-11.5483
屛	-11.5484
撻	-11.5486
曲折	-11.5486
侶	-11.5487
丹丘	-11.5487
悒	-11.5487
鳥啼	-11.5487
賢母	-11.5488
歸養	-11.5488
可不謂	-11.5489
疾作	-11.549
秉彛	-11.5491
瀦	-11.5492
澄江	-11.5495
我昔	-11.5497
嚴氏	-11.5497
仙翁	-11.5498
沈沈	-11.5498
但願	-11.55
誰是	-11.5501
本原	-11.5501
豈但	-11.5501
太華	-11.5503
豈謂	-11.5505
力田	-11.5507
防守	-11.5512
其所以為	-11.5514
宫殿	-11.5514
古寺	-11.5517
浦陽	-11.5518
相聚	-11.5518
禄位	-11.552
璿	-11.5521
有味	-11.5522
嵯峨	-11.5522
其辭曰	-11.5523
天下之至	-11.5523
禇	-11.5524
翰林編修	-11.5525
出身	-11.5528
揜	-11.5528
仁義之	-11.5528
即死	-11.5531
澹泊	-11.5532
浦江	-11.5533
鐘聲	-11.5534
廟廊	-11.5535
的人	-11.5538
同氣	-11.5538
寺僧	-11.5538
與公同	-11.5542
民安	-11.5543
討之	-11.5543
盡其道	-11.5544
輔導	-11.5546
言論	-11.5547
世澤	-11.555
功利	-11.555
七言律詩	-11.5555
隼	-11.5556
里閭	-11.5557
蝦	-11.5557
蕨	-11.5558
詔獄	-11.5559
蹌	-11.556
瀟灑	-11.556
交相	-11.5561
熄	-11.5561
折節	-11.5562
旒	-11.5562
切磋	-11.5563
總制	-11.5563
関	-11.5564
伽	-11.5565
陌上	-11.5566
聲利	-11.5566
伉	-11.5566
較之	-11.5567
㽞	-11.5567
出扵	-11.5567
稗	-11.5568
途中	-11.5573
拜命	-11.5578
嗜學	-11.5578
乞身	-11.5579
自取	-11.558
蟠桃	-11.5582
儒者之	-11.5584
其所居	-11.5586
歸休	-11.5587
五嶺	-11.5588
過半	-11.5591
僅存	-11.5591
松竹	-11.5593
造詣	-11.5593
才力	-11.5596
刑獄	-11.5597
宦情	-11.5597
空餘	-11.5598
綾	-11.5598
腔	-11.5599
掀	-11.5599
儒家	-11.56
壌	-11.5601
犂	-11.5602
家大人	-11.5603
民瘼	-11.5608
屹然	-11.561
酒食	-11.561
清霜	-11.5612
拾遺	-11.5613
長林	-11.5615
卜築	-11.5616
而後可以	-11.5616
一無所	-11.5616
風憲	-11.5617
一變	-11.5618
萬死	-11.5618
者謂之	-11.5618
宣力	-11.5623
而不以	-11.5623
請書	-11.5623
佳節	-11.5624
未可以	-11.5624
一醉	-11.5627
字伯	-11.5629
吏事	-11.5631
王室	-11.5632
未獲	-11.5635
蓬瀛	-11.5636
華夷	-11.5637
届	-11.5637
剝	-11.5637
腆	-11.5638
僕射	-11.5638
璟	-11.5638
遴	-11.5639
世次	-11.5639
公署	-11.564
顧瞻	-11.564
鳥雀	-11.564
邳	-11.5641
䧏	-11.5642
語云	-11.5642
執手	-11.5643
日進	-11.5645
澂	-11.5645
孝廉	-11.5645
古城	-11.5645
竊以為	-11.5648
扁其	-11.565
殘雪	-11.565
詞翰	-11.5652
永寧	-11.5653
使天下	-11.5653
之過也	-11.5653
題竹	-11.5655
顯榮	-11.5656
端坐	-11.5658
侍臣	-11.5664
髙情	-11.5667
春正月	-11.5668
先子	-11.5668
風煙	-11.5668
弱水	-11.567
從父	-11.567
扁曰	-11.5671
亟稱	-11.5673
求余	-11.5673
燔	-11.5674
賢豪	-11.5675
崦	-11.5675
鎔	-11.5676
早世	-11.5676
巗	-11.5677
沾衣	-11.5677
賢士	-11.5678
籜	-11.5681
精微	-11.5682
校尉	-11.5683
輔臣	-11.5687
勝地	-11.5687
不得與	-11.5689
郡中	-11.5695
者輙	-11.5697
民困	-11.57
什一	-11.5702
氏世居	-11.5704
終老	-11.5705
臺諫	-11.5705
切於	-11.5705
各賊	-11.5707
未休	-11.5707
轉移	-11.5708
潼	-11.5712
霓裳	-11.5713
所推	-11.5713
用前韻	-11.5714
裊裊	-11.5715
安居	-11.5715
韞	-11.5715
大尹	-11.5716
結交	-11.5716
擠	-11.5717
綦	-11.5717
却笑	-11.5717
淆	-11.5718
矛	-11.5719
封安人	-11.5719
艸	-11.572
百氏	-11.5721
紫翠	-11.5722
何忍	-11.5726
吾知其	-11.5728
翰苑	-11.5728
油然	-11.5728
知識	-11.5732
北地	-11.5733
之妻	-11.5734
執鞭	-11.5734
益盛	-11.5734
闗河	-11.5734
憲宗	-11.5735
曲直	-11.5736
有所得	-11.5737
府知府	-11.5738
論交	-11.5741
征伐	-11.5744
日久	-11.5745
禁中	-11.5745
從祀	-11.5746
首級	-11.575
嫩	-11.5751
嵗華	-11.5752
讜	-11.5754
値	-11.5754
鎰	-11.5754
善夫	-11.5755
跣	-11.5755
鎗	-11.5756
荃	-11.5756
凡若干	-11.5756
大槩	-11.5756
讙	-11.5757
器械	-11.5758
鞫	-11.5758
騶虞	-11.5758
踴躍	-11.5759
簒	-11.5762
彈琴	-11.5762
一洗	-11.5762
花木	-11.5766
雖老	-11.5769
家食	-11.5771
姑息	-11.5771
茍有	-11.5772
釣臺	-11.5773
海隅	-11.5773
敢言	-11.5776
朝朝	-11.5777
不得辭	-11.5777
春寒	-11.5778
實錄	-11.5778
百丈	-11.578
追隨	-11.5781
蔡氏	-11.5785
逸民	-11.5785
延陵	-11.5786
贈君	-11.5787
又從而	-11.5788
名園	-11.579
趨朝	-11.579
兕	-11.579
瀨	-11.5791
陸離	-11.5791
颸	-11.5791
請命	-11.5792
所建	-11.5793
事變	-11.5793
卓犖	-11.5795
剗	-11.5795
名族	-11.5798
白苧	-11.5798
豊	-11.5798
買田	-11.5799
不曾	-11.5802
江都	-11.5805
寰宇	-11.5808
文定公	-11.5808
請益	-11.5809
屬邑	-11.5809
春夏	-11.5809
雲影	-11.581
擊節	-11.5812
而未能	-11.5812
雲樹	-11.5813
俄而	-11.5814
鈞天	-11.5814
百世之	-11.5816
王國	-11.5817
而傳之	-11.5817
詞客	-11.5818
舟車	-11.5818
瞻仰	-11.582
杉	-11.5822
鼓吹	-11.5823
邦國	-11.5823
六龍	-11.5824
田州	-11.5824
嫋嫋	-11.5828
神氣	-11.5829
篠	-11.5831
索居	-11.5832
其狀	-11.5832
迤邐	-11.5833
福州	-11.5834
飇	-11.5834
雲夢	-11.5835
匕	-11.5835
太醫院	-11.5835
鏹	-11.5836
睡起	-11.5839
至仁	-11.5839
呉興	-11.5839
希文	-11.5843
校官	-11.5843
某氏	-11.5844
臣竊	-11.5846
河朔	-11.5846
揖讓	-11.5848
紀載	-11.5849
自勉	-11.5849
竣	-11.5851
混一	-11.5851
無怨	-11.5851
勢利	-11.5852
入夜	-11.5853
髙年	-11.5853
非耶	-11.5855
四字	-11.5855
其子弟	-11.5857
浙西	-11.5863
虞廷	-11.5865
龜山	-11.5866
人之情	-11.5869
搔	-11.5871
凄凄	-11.5873
亶	-11.5873
票	-11.5875
嵬	-11.5875
文襄	-11.5875
春意	-11.5876
大功	-11.5876
絶壁	-11.5876
城池	-11.5876
吹簫	-11.5877
宕	-11.5878
留客	-11.5879
遲暮	-11.5879
吳人	-11.588
擊壤	-11.5884
非義	-11.5884
而與之	-11.5885
那可	-11.5886
之志也	-11.5887
而莫之	-11.5887
鐘鼓	-11.5887
豁然	-11.589
任重	-11.5894
小景	-11.5897
顧問	-11.5897
道經	-11.59
者豈非	-11.59
翠竹	-11.5901
八座	-11.5904
心術	-11.5907
固不可	-11.5908
榔	-11.5909
纂修	-11.5909
通議大夫	-11.5909
性善	-11.591
上䟽	-11.591
大叅	-11.5911
乞致仕	-11.5913
奉行	-11.5913
陳先生	-11.5915
睫	-11.5916
茂陵	-11.5917
茍不	-11.5918
相向	-11.592
所以致	-11.5923
棟梁	-11.5923
湯武	-11.5924
楚楚	-11.5927
感時	-11.5927
足跡	-11.593
獄中	-11.5933
亭記	-11.5934
有賢行	-11.5936
北門	-11.5936
循環	-11.5937
君親	-11.5939
取法	-11.5939
安樂	-11.594
府通判	-11.594
致治	-11.5941
宦遊	-11.5942
千峯	-11.5944
忘情	-11.5947
休休	-11.5948
湘江	-11.5948
孩	-11.5949
語之曰	-11.5949
搨	-11.595
分手	-11.595
紅日	-11.595
其殆	-11.595
未應	-11.5951
坼	-11.5952
篙	-11.5952
睂	-11.5953
明良	-11.5954
銘其墓	-11.5956
劉向	-11.5956
纖	-11.5957
新淦	-11.5957
勗	-11.5957
罷歸	-11.5957
片片	-11.5958
如許	-11.5959
凡事	-11.5961
台州	-11.5961
何獨	-11.5961
管仲	-11.5964
室家	-11.5966
非但	-11.5968
莫言	-11.5969
雙闕	-11.5972
所寓	-11.5972
烟雲	-11.5973
至尊	-11.5974
分兵	-11.5975
詩篇	-11.5975
住持	-11.5976
邸報	-11.5977
陸公	-11.5979
髙枕	-11.5981
特命	-11.5986
鶯花	-11.5988
荷花	-11.5989
缸	-11.5989
子三人	-11.599
壩	-11.599
綘	-11.5993
四體	-11.5993
偉然	-11.5994
涔	-11.5995
瓚	-11.5995
按察司副使	-11.5995
發身	-11.5996
愈益	-11.5996
棟宇	-11.5998
忘言	-11.5999
僮僕	-11.5999
相待	-11.6
獨往	-11.6
遭遇	-11.6001
抑何	-11.6001
溧陽	-11.6002
一寸	-11.6008
旬月	-11.601
小宗	-11.6011
烏啼	-11.6012
獨存	-11.6015
紛然	-11.6017
某年	-11.6017
孝子之	-11.6019
迎養	-11.6024
先覺	-11.6025
辭章	-11.6025
贛	-11.6027
黄塵	-11.603
雩	-11.603
授受	-11.6031
瀼	-11.6033
頡頏	-11.6035
有不同	-11.6035
霅	-11.6035
申明	-11.6036
傳記	-11.6038
水邊	-11.6039
砭	-11.6039
園中	-11.6043
無形	-11.6045
故特	-11.6046
道途	-11.6047
身任	-11.6048
五季	-11.6048
恩澤	-11.6051
本縣	-11.6053
獻吉	-11.6054
宋氏	-11.6056
始見	-11.6056
家譜	-11.6057
下筆	-11.606
叅軍	-11.6062
秋光	-11.6062
先年	-11.6064
又奚	-11.6066
月餘	-11.6067
深思	-11.6067
徃事	-11.6068
此所謂	-11.607
太廟	-11.607
廣寒	-11.607
翬	-11.6071
簡易	-11.6072
兹土	-11.6073
躊躇	-11.6073
檝	-11.6073
青霄	-11.6074
戡	-11.6076
南軒	-11.6077
忒	-11.6077
百僚	-11.6077
義利	-11.6077
分宜	-11.6078
麤	-11.6078
謭	-11.6079
力辭	-11.6079
畸	-11.608
紅葉	-11.608
隲	-11.6082
潯陽	-11.6082
未終	-11.6082
長淮	-11.6082
畫船	-11.6083
空庭	-11.6084
鳥道	-11.6084
南樓	-11.6087
無窮之	-11.6089
力疾	-11.6089
嚮者	-11.609
元戎	-11.6091
法令	-11.6092
不祥	-11.6092
二巻	-11.6093
吾丈	-11.6094
中賀	-11.6096
叩頭	-11.6097
八欽定四庫全書	-11.6097
傳世	-11.6098
令終	-11.6101
相類	-11.6102
赤日	-11.6102
焉於是	-11.6105
照磨	-11.6106
政成	-11.6106
而不顧	-11.6107
霾	-11.6109
不與焉	-11.6111
不易得	-11.6111
邕	-11.6112
晶	-11.6112
吠	-11.6113
花鳥	-11.6113
姒	-11.6114
巨室	-11.6116
慘淡	-11.6116
士氣	-11.6119
尚幼	-11.6119
肱	-11.6124
元祐	-11.6124
陋巷	-11.6125
機務	-11.6125
呉越	-11.6129
也昔者	-11.6132
四十餘年	-11.6132
元馭	-11.6135
一隅	-11.6141
春二月	-11.6141
變故	-11.6142
思有以	-11.6143
河北	-11.6143
始末	-11.6143
勤苦	-11.6146
安足	-11.6147
厚薄	-11.6148
何患	-11.6149
謝氏	-11.6149
否乎	-11.6149
少室山房集	-11.615
神京	-11.615
光榮	-11.6153
承事郎	-11.6155
分韻得	-11.6155
慳	-11.6155
却是	-11.6156
芍藥	-11.6157
人品	-11.6157
憸	-11.6158
惻怛	-11.6158
廐	-11.6159
如其官	-11.6159
府推官	-11.616
諺	-11.6161
■	-11.6161
斁	-11.6163
鄢	-11.6164
䜛	-11.6164
寥落	-11.6165
有時而	-11.6166
潁川	-11.6167
咸謂	-11.6171
封建	-11.6173
河梁	-11.6173
勲名	-11.6174
列國	-11.6175
進賢	-11.6175
巫山	-11.6176
倫理	-11.6177
而巳矣	-11.6177
猶記	-11.6179
歸舟	-11.6179
天竺	-11.618
最深	-11.6181
侍中	-11.6182
三欽定四庫全書	-11.6185
蒼頭	-11.6186
僚屬	-11.6186
孫男一	-11.6186
所係	-11.6188
五載	-11.6188
彎	-11.6189
馬氏	-11.6189
緱	-11.619
大丈夫	-11.6191
詒	-11.6192
於予予	-11.6194
茅茨	-11.6195
以致其	-11.6197
之生也	-11.6197
婚姻	-11.6202
改過	-11.6203
崇禎	-11.6203
忠節	-11.6203
鹿鳴	-11.6203
謂予曰	-11.6204
草廬	-11.6206
祖塋	-11.6207
事舅姑	-11.6207
興廢	-11.621
能忘	-11.6211
愛此	-11.6214
鮮不	-11.6215
積累	-11.6215
弗可	-11.6217
自保	-11.6219
斷腸	-11.622
規制	-11.6226
江州	-11.6228
永年	-11.6229
其一也	-11.6229
十餘里	-11.6229
元亮	-11.6229
忘歸	-11.6229
早晚	-11.6232
颯颯	-11.6233
雎	-11.6233
正寢	-11.6235
則不然	-11.6235
文衡	-11.6237
㨿	-11.6237
忭	-11.6238
坪	-11.6238
跌	-11.6238
怛	-11.624
終天	-11.6241
瀧	-11.6241
餙	-11.6242
丱	-11.6242
套	-11.6243
樽酒	-11.6243
㓙	-11.6244
君子曰	-11.6245
濠梁	-11.6246
棄官	-11.6248
通鑑	-11.6251
義官	-11.6251
當世之	-11.6251
叔子	-11.6253
欲往	-11.6256
一徑	-11.6261
指授	-11.6262
忘憂	-11.6263
冬日	-11.6263
華髪	-11.6264
遺事	-11.6264
第四	-11.6264
字畫	-11.6266
神物	-11.6267
語言	-11.6268
奉親	-11.6268
不泯	-11.6268
史臣	-11.6268
而去之	-11.627
遵照	-11.6273
吉士	-11.6274
寄書	-11.6275
巡按御史	-11.6276
衘	-11.6277
種竹	-11.6278
霈	-11.6278
多才	-11.6279
廬墓	-11.628
鶉	-11.6281
享年五十	-11.6282
蓴	-11.6283
艦	-11.6284
禮部侍郎	-11.6285
紀事	-11.6285
攖	-11.6285
好禮	-11.6285
建寧	-11.6286
秦王	-11.6288
闤闠	-11.6288
暮年	-11.6289
不敢當	-11.6289
謂予	-11.6289
南郊	-11.6289
伊洛	-11.6291
萬丈	-11.6294
沙漠	-11.6295
雲錦	-11.6296
不免於	-11.6296
所據	-11.6296
起坐	-11.6298
詔下	-11.6298
千百年	-11.6302
政治	-11.6305
必由	-11.6307
吳君	-11.631
開口	-11.6311
而得之	-11.6312
孟兼	-11.6315
鼐	-11.6316
焉盖	-11.6318
史館	-11.6319
窄	-11.6321
莞	-11.6323
型	-11.6323
碧海	-11.6324
輓詩	-11.6325
永久	-11.6326
宋玉	-11.6326
闖	-11.6327
尠	-11.6328
繩繩	-11.6331
心之所	-11.6332
隨意	-11.6333
帝子	-11.6334
天之生	-11.6336
胷中	-11.6337
世界	-11.634
足稱	-11.634
假借	-11.6342
山麓	-11.6343
河西	-11.6344
延年	-11.6346
平易	-11.6347
顧氏	-11.6349
入仕	-11.6351
汪公	-11.6353
呼酒	-11.6353
苜蓿	-11.6359
緗	-11.6359
忠誠	-11.6362
厝	-11.6362
醑	-11.6363
定省	-11.6363
鷲	-11.6364
綫	-11.6365
廂	-11.6365
庭中	-11.6365
篁墩	-11.6366
釋褐	-11.6367
滇南	-11.6369
㓛	-11.637
時雍	-11.6371
料理	-11.6372
造就	-11.6374
呉中	-11.6374
馬首	-11.6375
世俗之	-11.6376
何氏	-11.6376
七夕	-11.6376
人之道	-11.6377
二品	-11.638
横行	-11.6384
莫知所	-11.6386
頻年	-11.6387
貧不能	-11.6387
一種	-11.6388
百世之下	-11.6389
吾之所	-11.639
五侯	-11.6394
楊花	-11.6397
致意	-11.6397
銀漢	-11.6398
建學	-11.6398
舖	-11.6399
九百	-11.6399
存問	-11.64
甚重	-11.6401
奩	-11.6403
杳杳	-11.6403
鑣	-11.6403
脇	-11.6405
㫤	-11.6406
閧	-11.6406
諄	-11.6408
長途	-11.6409
畿甸	-11.6409
戶	-11.6411
適意	-11.6412
氣和	-11.6412
門戸	-11.6415
不替	-11.6415
詞臣	-11.6417
蔓草	-11.6418
青草	-11.6422
不俟	-11.6423
就道	-11.6424
田間	-11.6425
早晩	-11.6426
系之	-11.6428
諡文	-11.6428
不昧	-11.6428
燕臺	-11.6431
遭時	-11.6431
世襲	-11.6432
黄石	-11.6434
吾廬	-11.6435
宋史	-11.6438
太僕寺	-11.644
飜	-11.6441
廣州	-11.6441
青絲	-11.6442
蟹	-11.6443
幽蘭	-11.6446
仍舊	-11.6446
銕	-11.6447
﨑嶇	-11.6447
天壤	-11.6449
神道碑	-11.6449
名進士	-11.645
縟	-11.645
憮然	-11.6451
中庭	-11.6451
祜	-11.6452
萬兩	-11.6453
十有七	-11.6453
引年	-11.6453
文貞	-11.6453
和尚	-11.6453
義烏	-11.6453
八景	-11.6454
異代	-11.6458
踰月	-11.646
晨昏	-11.6462
相戒	-11.6462
萬姓	-11.6466
本源	-11.6467
津津	-11.6468
總戎	-11.647
鏘	-11.647
况是	-11.6471
知愛	-11.6471
古聖賢	-11.6471
東風吹	-11.6472
英宗	-11.6473
呉公	-11.6475
舎人	-11.6476
未巳	-11.6476
㸔得	-11.6478
江邊	-11.6478
文貞公	-11.6481
价	-11.6482
乙夘	-11.6486
政令	-11.6488
焉者也	-11.6489
藹藹	-11.6491
僉都御史	-11.6491
五福	-11.6491
痼	-11.6491
敬愛	-11.6492
毳	-11.6494
邑諸生	-11.6494
能言之	-11.6496
東城	-11.6497
良醫	-11.6499
驛路	-11.6501
在翰林	-11.6501
於京師	-11.6504
庶民	-11.6505
碧樹	-11.6505
曲盡	-11.6506
墓誌	-11.6507
帝城	-11.6507
綱目	-11.6509
庭下	-11.651
嗚	-11.6512
無賴	-11.6512
穆穆	-11.6513
無所容	-11.6514
仕途	-11.6515
方岳	-11.6517
俯視	-11.6517
羽林	-11.6518
羲和	-11.6519
事父母	-11.6519
元瑞	-11.652
凡十	-11.652
亦有所	-11.6522
第進士	-11.6523
臚	-11.6525
盞	-11.6527
莊周	-11.6529
芭蕉	-11.6529
夏五月	-11.6531
種樹	-11.6531
㷀㷀	-11.6533
閒情	-11.6534
本職	-11.6535
扼腕	-11.6536
孰若	-11.6536
深厚	-11.6537
某山之原	-11.654
昆季	-11.6544
未報	-11.6545
里甲	-11.6547
白簡	-11.6547
野鶴	-11.6549
千家	-11.6549
東昌	-11.655
碧草	-11.655
何况	-11.6551
暝色	-11.6557
執經	-11.6557
便欲	-11.6562
蘆花	-11.6563
陶令	-11.6565
江村	-11.6566
内臣	-11.6567
久逺	-11.6569
顥	-11.6571
醺	-11.6571
笑談	-11.6572
筯	-11.6573
泐	-11.6574
不忝	-11.6574
飄風	-11.6574
俶	-11.6575
歳時	-11.6576
酒醒	-11.6576
户部主事	-11.6576
在廷	-11.6577
燾	-11.6577
嚚	-11.6577
中國之	-11.6577
默	-11.6577
名其堂	-11.6578
莒	-11.6578
紿	-11.658
靈臺	-11.6588
苑洛	-11.6588
考終	-11.659
麗澤	-11.6591
雪夜	-11.6592
經紀	-11.6592
顧謂	-11.6592
副總兵	-11.6594
永樂初	-11.6594
端重	-11.6594
重慶	-11.6595
唯恐	-11.6597
彩筆	-11.6598
歲寒	-11.66
近侍	-11.66
不拘	-11.6602
遺言	-11.6602
難治	-11.6605
南豐	-11.6608
有所感	-11.6608
不苟	-11.6608
自給	-11.6609
爇	-11.6616
歸葬	-11.6616
繙	-11.6616
絺	-11.6617
勻	-11.6618
阡陌	-11.6622
大典	-11.6622
門巷	-11.6625
也噫	-11.6626
武備	-11.6627
駕言	-11.6627
二絶	-11.663
卒之日	-11.663
剛毅	-11.6637
崇徳	-11.6637
當事者	-11.6637
而使之	-11.6637
子陵	-11.6639
道術	-11.6642
漢儒	-11.6643
雨霽	-11.6643
年踰	-11.6645
月二十三日	-11.6645
樓前	-11.6646
靖難	-11.6648
築城	-11.6648
風裁	-11.6652
真蹟	-11.6653
嵗久	-11.6653
囬首	-11.6654
黄鸝	-11.6654
猛虎	-11.6655
興亡	-11.6656
持身	-11.6657
蝸	-11.6658
常情	-11.6658
堊	-11.6659
撫字	-11.6659
恩榮	-11.666
豳	-11.6661
𥙿	-11.6664
綵衣	-11.6664
菩薩	-11.6665
等閒	-11.6666
酒家	-11.6667
憑誰	-11.6668
善繼	-11.6669
未就	-11.6671
冠冕	-11.6672
遺經	-11.6674
義方	-11.6674
呈稱	-11.6676
金匱	-11.6676
都給事中	-11.6677
竹間	-11.6678
司寇	-11.6678
僖公	-11.6679
抵掌	-11.6679
世卿	-11.6681
縣主簿	-11.6682
班師	-11.6682
順徳	-11.6683
前人之	-11.6683
雅頌	-11.6684
離騷	-11.6684
仞	-11.6684
應詔	-11.6684
博雅	-11.6685
嗚咽	-11.6686
巖穴	-11.6687
討賊	-11.6689
明哲	-11.669
養民	-11.6691
蘭若	-11.6692
到任	-11.6692
當其時	-11.6695
莫教	-11.6696
闋	-11.6698
刁	-11.6699
礱	-11.6701
六十年	-11.6702
勉强	-11.6702
冤	-11.6702
犧	-11.6703
所鍾	-11.6704
不敢辭	-11.6705
良臣	-11.6706
徃来	-11.6706
偵	-11.6706
媺	-11.6707
氷壺	-11.6707
瓦礫	-11.6708
苫	-11.6708
三百年	-11.6711
泌	-11.6711
亦不過	-11.6712
麻姑	-11.6712
忘年	-11.6712
醫學	-11.6713
木落	-11.6715
乘興	-11.6717
靈光	-11.6717
弓矢	-11.6717
父某	-11.6718
向誰	-11.6718
不懌	-11.672
推擇	-11.672
禮儀	-11.6723
謁余	-11.6724
邪正	-11.6726
年甫	-11.6726
的意思	-11.6729
可疑	-11.6729
甘肅	-11.6735
永平	-11.6735
短歌	-11.6736
龍光	-11.6736
出郭	-11.6736
晨起	-11.6737
涘	-11.6738
鯨鯢	-11.6738
墓道	-11.674
騏驥	-11.6742
恤民	-11.6743
師表	-11.6744
纏	-11.6746
之罪也	-11.6746
屑屑	-11.6746
顙	-11.6746
曝	-11.6747
籍籍	-11.6747
燈下	-11.6748
佯	-11.6748
虀	-11.6748
葑	-11.6749
東萊	-11.675
社學	-11.675
酬酢	-11.6754
潘氏	-11.676
失怙	-11.676
不棄	-11.676
楚客	-11.676
咏歌	-11.6761
壁立	-11.6762
絲竹	-11.6763
者未必	-11.6764
述作	-11.6766
余觀	-11.6772
數嵗	-11.6775
頭白	-11.6775
烏得	-11.6775
恩義	-11.6775
調度	-11.6776
晦翁	-11.6777
總兵官	-11.6778
二欽定四庫全書	-11.6779
温州	-11.678
第一人	-11.6783
亂離	-11.6785
哀辭	-11.6786
古之道	-11.6786
八寨	-11.6786
竒絶	-11.6787
巉	-11.6787
秣	-11.6788
棨	-11.6788
蓍	-11.679
雒	-11.6791
帝京	-11.6791
洊	-11.6792
究心	-11.6795
敦厚	-11.6798
右副都御史	-11.68
皆不仕	-11.6803
元末	-11.6803
貞白	-11.6805
綜理	-11.6809
兖	-11.6815
懸知	-11.6816
所當為	-11.6816
責成	-11.6818
不貳	-11.6821
飛騰	-11.6821
其迹	-11.6822
王守仁	-11.6822
首簡	-11.6823
地勢	-11.6823
皆足以	-11.6824
以自見	-11.6825
今之世	-11.6826
蘇公	-11.6827
同舟	-11.6827
潞河	-11.6827
帝命	-11.6827
夷猶	-11.6828
結廬	-11.6828
撮	-11.6828
濂溪	-11.6829
空翠	-11.6829
埜	-11.683
乃止	-11.683
有感焉	-11.6831
琰	-11.6831
芰荷	-11.6832
七十餘	-11.6835
亦奚	-11.6836
踪跡	-11.6836
澈	-11.6836
須㬰	-11.6837
繼娶	-11.6838
解衣	-11.6838
偉哉	-11.6843
不擾	-11.6844
才能	-11.6844
十餘人	-11.6844
文墨	-11.6845
汾陽	-11.6846
千頃	-11.6847
經厯	-11.6847
御製	-11.6848
玉汝	-11.6848
吟咏	-11.685
惘然	-11.6851
嗚呼此	-11.6851
大禹	-11.6862
殺身	-11.6862
影響	-11.6864
箕子	-11.6866
富人	-11.6868
克明	-11.6869
全盛	-11.6869
而思之	-11.687
山之麓	-11.6871
蟋蟀	-11.6871
而嘆曰	-11.6872
經緯	-11.6874
旺	-11.6875
彷徨	-11.6877
䧺	-11.6878
還京	-11.6881
天降	-11.6881
貤	-11.6882
召入	-11.6882
乎其間	-11.6883
順天府	-11.6883
熈熈	-11.6885
兩漢	-11.6886
韓愈	-11.6887
遨遊	-11.6887
内顧	-11.6888
猶恐	-11.6888
文苑	-11.6889
字字	-11.6891
奄忽	-11.6893
龍潭	-11.6893
竹帛	-11.6895
浮名	-11.6899
獅子	-11.6899
微風	-11.69
自然之	-11.6901
飛雪	-11.6902
艱危	-11.6902
僅僅	-11.6903
愛惜	-11.6904
分巡	-11.6905
漠然	-11.691
愧我	-11.6911
先生嘗	-11.6912
人子之	-11.6913
澤民	-11.6916
文廟	-11.6916
方畧	-11.6917
嶄	-11.6919
光隂	-11.692
淮水	-11.692
七言絶句	-11.692
殘月	-11.6921
徳音	-11.6921
崗	-11.6923
戌	-11.6925
遘疾	-11.6926
歐陽氏	-11.6926
曰朕	-11.6928
騾	-11.6929
左遷	-11.6931
好音	-11.6932
八分	-11.6932
常存	-11.6932
讀易	-11.6935
辛勤	-11.6935
幡	-11.6937
洛書	-11.6938
一貫	-11.6942
必待	-11.6942
風急	-11.6943
吏胥	-11.6944
浮丘	-11.6946
壯心	-11.6948
影落	-11.6948
新阡	-11.6949
消長	-11.6949
撫州	-11.6951
邵武	-11.6959
春雪	-11.696
愁絶	-11.6961
葡萄	-11.6962
不敢言	-11.6962
精明	-11.6963
𨗳	-11.6964
煽	-11.6965
瞬	-11.6967
穗	-11.6967
翰林庶吉士	-11.6968
清芬	-11.697
士類	-11.6971
十世	-11.6972
靡靡	-11.6972
夜光	-11.6973
朅來	-11.6974
三台	-11.6977
女紅	-11.6978
底事	-11.698
舉目	-11.6981
但知	-11.6983
朝覲	-11.6984
客愁	-11.6985
四欽定四庫全書	-11.6987
隙地	-11.6988
予奪	-11.6989
水晶	-11.6991
誰敢	-11.6993
晨夕	-11.6993
篇章	-11.6993
絃誦	-11.6994
信義	-11.6999
孫男五	-11.7004
奉答	-11.7005
宵旰	-11.7006
嚴霜	-11.7006
暾	-11.7007
安國	-11.7008
迯	-11.7009
蒋	-11.701
烏能	-11.7012
鄉國	-11.7012
嵗年	-11.7013
憒	-11.7014
惟恐其	-11.7014
環珮	-11.7014
庀	-11.7015
珠璣	-11.7017
亡弟	-11.7018
媮	-11.7019
再遷	-11.702
忠愍	-11.702
取友	-11.7021
奉柩	-11.7022
籲	-11.7022
邑大夫	-11.7024
鄉校	-11.7024
雜著	-11.7025
所未有	-11.7027
全體	-11.7028
具慶	-11.7031
蕭索	-11.7035
丹霞	-11.7036
雪花	-11.7037
晩年	-11.7038
賜祭	-11.7038
細故	-11.7039
二兄	-11.7039
前修	-11.7039
如昨	-11.704
烈烈	-11.704
經畧	-11.704
神聖	-11.704
夀七十	-11.7044
郊祀	-11.7048
杼	-11.7048
卭	-11.7051
驍	-11.7051
周孔	-11.7052
挟	-11.7054
其㫖	-11.7054
齧	-11.7054
節鉞	-11.7055
紘	-11.7055
𠞰	-11.7056
柵	-11.7057
蘇子	-11.7057
詩韻	-11.7057
秋九月	-11.7058
幾回	-11.7059
鯤	-11.706
彀	-11.706
仁愛	-11.7061
宿草	-11.7061
敢辭	-11.7062
刑部郎中	-11.7064
不敢忘	-11.7065
早春	-11.7066
司郎中	-11.7068
會稽	-11.7072
黄菊	-11.7073
忠貞	-11.7075
瓊瑶	-11.7078
聊自	-11.7079
所造	-11.7081
談經	-11.7084
白衣	-11.7085
謹按	-11.7087
樹杪	-11.7088
這等	-11.7088
楊先生	-11.7089
來謁	-11.709
廷議	-11.7091
諸暨	-11.7091
嗣子	-11.7092
渟	-11.7095
今而後	-11.7095
鐙	-11.7095
荼毒	-11.7098
饕	-11.71
濁醪	-11.7102
櫝	-11.7102
蕭君	-11.7103
文莊公	-11.7107
遂書以	-11.7109
其後人	-11.7109
益堅	-11.711
伏臘	-11.7112
青衿	-11.7114
大司空	-11.7114
百餘人	-11.7115
未全	-11.7116
衛指揮使	-11.7116
用薦	-11.7118
庻㡬	-11.7118
披圖	-11.7122
黄州	-11.7123
進士授	-11.7125
不得志	-11.7127
躍然	-11.7127
政府	-11.7127
歐陽子	-11.7128
洗心	-11.7129
道里	-11.7129
而新之	-11.713
以為贈	-11.7132
克勤	-11.7136
新婦	-11.7136
益信	-11.7137
又恐	-11.7142
傳誦	-11.7143
之所宜	-11.7144
頎	-11.7146
繾綣	-11.7148
良友	-11.7151
六代	-11.7151
文王之	-11.7152
藥餌	-11.7153
卓卓	-11.7153
將何以	-11.7154
仲舒	-11.7155
何耶	-11.7156
乞骸	-11.7158
一飯	-11.7159
吳郡	-11.7159
北郭	-11.7159
筆札	-11.716
朋友之	-11.7161
藝文	-11.7163
烟樹	-11.7164
政績	-11.7165
雍雍	-11.7167
南湖	-11.7167
雙鬢	-11.7168
未有能	-11.7168
泛舟	-11.7169
御極	-11.7169
南服	-11.7169
湯湯	-11.7171
賢人君子	-11.7173
玉帶	-11.7174
此夕	-11.7174
伊誰	-11.7177
女一人	-11.7177
朂之	-11.718
予讀	-11.7181
憶昨	-11.7184
恭敬	-11.7185
長幼	-11.7185
萋	-11.7186
良勝	-11.7187
洞口	-11.7187
千官	-11.7188
吳縣	-11.719
蕡	-11.719
鯁	-11.7192
沍	-11.7192
拂拭	-11.7193
韵	-11.7193
衡山	-11.7193
猗歟	-11.7193
淬	-11.7193
陡	-11.7194
自放	-11.7195
俛仰	-11.7195
逆瑾	-11.7196
頡	-11.7197
好竒	-11.7197
田宅	-11.7197
誠意伯	-11.7202
難易	-11.7202
列郡	-11.7203
農夫	-11.7203
不欺	-11.7207
百神	-11.7207
諸大夫	-11.7215
臨别	-11.7217
巍然	-11.7218
不覩	-11.7218
百辟	-11.722
獄訟	-11.722
福禄	-11.7221
金碧	-11.7221
江夏	-11.7225
為人所	-11.7225
守巡	-11.7226
隸	-11.7228
客裏	-11.7228
文雅	-11.7229
韋布	-11.7229
竣事	-11.723
美哉	-11.723
名宦	-11.723
該本部	-11.7231
登科	-11.7232
姢	-11.7235
菁	-11.7235
矗	-11.7235
紺	-11.7235
筝	-11.7235
區畫	-11.7235
登壇	-11.7237
諸兄	-11.7237
左傳	-11.7238
煇	-11.7238
㷀	-11.7238
汪氏	-11.724
徭役	-11.7241
犁	-11.7241
噉	-11.7242
玉泉	-11.7247
逢迎	-11.7248
香爐	-11.7248
不可一日	-11.7248
白骨	-11.7248
明詔	-11.7248
刻諸	-11.7251
私意	-11.7251
章奏	-11.7252
戊	-11.7252
枕上	-11.7253
詎能	-11.7253
不殺	-11.7253
累朝	-11.7254
無厭	-11.7254
南唐	-11.7254
龍鱗	-11.7255
秋冬	-11.7261
慎獨	-11.7262
豈止	-11.7263
所望於	-11.7264
再世	-11.7265
乾隆	-11.7267
恭儉	-11.7268
驃騎	-11.7271
乞銘	-11.7272
鴻濛	-11.7274
凌風	-11.7275
杓	-11.7275
唶	-11.7275
劃	-11.7277
祲	-11.7277
云胡	-11.7277
軍國	-11.7277
資善大夫	-11.7279
纉	-11.728
晃	-11.728
幟	-11.7281
金剛	-11.7281
薙	-11.7282
玉京	-11.7284
恩命	-11.7285
不可得也	-11.7286
財用	-11.7287
太𤣥	-11.7289
定奪	-11.729
幽獨	-11.7291
爵位	-11.7292
全集	-11.7297
饒州	-11.7297
宋季	-11.7299
未果	-11.7302
所欲言	-11.7303
職掌	-11.7304
饑寒	-11.7305
折衷	-11.7307
目擊	-11.7308
數千言	-11.7309
濯足	-11.731
濓溪	-11.7313
國體	-11.7313
紀述	-11.7314
其言曰	-11.7315
法律	-11.7318
不染	-11.7318
予之所	-11.732
凰	-11.7321
龍章	-11.7323
悄	-11.7324
折衝	-11.7325
歸田里	-11.7325
週	-11.7326
大姓	-11.7326
已覺	-11.7328
行中書省	-11.7328
懟	-11.7331
嗟予	-11.7333
陳迹	-11.7334
低昻	-11.7335
金粟	-11.7335
閒暇	-11.7336
少府	-11.7339
外史	-11.734
奕葉	-11.7342
墓上	-11.7342
厚徳	-11.7345
留守	-11.7346
防禦	-11.7348
湛然	-11.7348
穆公	-11.7349
野色	-11.7349
氣運	-11.7351
催科	-11.7351
封章	-11.7352
之所及	-11.7353
挽詩	-11.7353
房屋	-11.7357
吕梁	-11.7359
佳句	-11.7359
後嗣	-11.7361
召見	-11.7364
奮然	-11.7364
紬	-11.7365
千里外	-11.7368
臞	-11.7368
石洞	-11.7368
鴛	-11.737
伏波	-11.7372
槳	-11.7372
剸	-11.7374
賊徒	-11.7374
獻納	-11.7377
三人者	-11.7377
枵	-11.7377
君子之學	-11.7378
該府	-11.7378
雕蟲	-11.7381
激切	-11.7381
泉州	-11.7382
四野	-11.7383
祝融	-11.7384
隱隱	-11.7385
示余	-11.7386
居京師	-11.7386
年九十	-11.7386
延祐	-11.7387
緒餘	-11.7388
藥石	-11.7389
禁林	-11.7391
烟火	-11.7391
欽定四庫全書集部六	-11.7393
永訣	-11.7394
頭角	-11.7399
才華	-11.7399
尤精	-11.7399
袁氏	-11.7401
奏疏	-11.7401
造次	-11.7403
曰此吾	-11.7404
魏晉	-11.7405
振振	-11.7406
提調	-11.7406
長干	-11.7406
顯融	-11.7407
武宗	-11.741
八卦	-11.741
承命	-11.7411
漢庭	-11.7411
伊何	-11.7412
予聞之	-11.7412
汪洋	-11.7414
迢遞	-11.7414
養親	-11.7416
送楊	-11.7417
萬騎	-11.7419
狼狽	-11.742
范氏	-11.7421
竚	-11.7421
嚙	-11.7421
矻矻	-11.7423
丁寧	-11.7425
生三子	-11.7429
侍讀學士	-11.7429
蒼松	-11.743
避世	-11.743
車騎	-11.7431
又據	-11.7431
濟川	-11.7433
有之矣	-11.7433
京邸	-11.7435
海岱	-11.7435
阿母	-11.7435
省親	-11.7436
嗜好	-11.7439
吟詩	-11.7439
孔孟之	-11.7445
仲氏	-11.7445
銀燭	-11.7447
不可留	-11.7448
溪頭	-11.7449
招撫	-11.7451
方壺	-11.7458
不翅	-11.7458
飄颻	-11.746
西風吹	-11.7461
䜟	-11.7462
煥然	-11.7463
吾曹	-11.7463
露華	-11.7464
亰	-11.7464
聖人之心	-11.7465
泖	-11.7465
簸	-11.7466
轉輸	-11.7467
暹	-11.7469
娶王氏	-11.747
貧民	-11.747
四十餘	-11.7472
醴泉	-11.7474
涼風	-11.7476
天末	-11.7479
吹笙	-11.748
其所學	-11.7481
焉嗚呼	-11.7482
窮達	-11.7483
飛泉	-11.7484
善教	-11.7485
東臯	-11.7488
之難也	-11.7488
裔孫	-11.749
嘯歌	-11.749
天地之間	-11.7495
片雲	-11.7499
二十里	-11.7501
視彼	-11.7501
碧落	-11.7502
湖湘	-11.7504
竟誰	-11.7506
何曾	-11.7507
叫	-11.7508
嘉議大夫	-11.7508
郴	-11.7508
進止	-11.7509
益加	-11.751
大旱	-11.751
麒	-11.7513
窀穸	-11.7513
謇	-11.7513
工部主事	-11.7513
晡	-11.7514
何有於	-11.7514
緝熈	-11.7514
斧鉞	-11.7514
毖	-11.7515
齷齪	-11.7515
哉嗚呼	-11.7516
喝	-11.7516
貽書	-11.7517
鳴珂	-11.7518
世變	-11.7519
愀然	-11.7521
温厚	-11.7521
慰我	-11.7521
思齊	-11.7521
曹氏	-11.7522
鶯啼	-11.7532
少司馬	-11.7536
同僚	-11.7537
授簡	-11.7538
微茫	-11.7538
尚饗	-11.7538
首惡	-11.7539
昔我	-11.7539
北面	-11.754
若是其	-11.7541
明鏡	-11.7544
舉觴	-11.7544
森然	-11.7544
虞山	-11.7546
朱衣	-11.7547
字廷	-11.7549
留侯	-11.7552
不講	-11.7552
拄	-11.7553
無以自	-11.7557
膩	-11.7558
㝢	-11.7558
飛動	-11.7558
皦	-11.7559
樛	-11.7559
數十里	-11.756
儀刑	-11.756
赧	-11.7561
侍養	-11.7561
蒔	-11.7562
奉政大夫	-11.7562
无	-11.7562
㐫	-11.7564
忽憶	-11.7566
戅	-11.7566
或勸	-11.7568
可不慎	-11.7569
虎狼	-11.7573
迦	-11.7574
旬宣	-11.7579
舊制	-11.758
廿年	-11.758
冬十一月	-11.7585
班固	-11.7585
八十餘	-11.7586
慈親	-11.7593
觴詠	-11.7594
鳥聲	-11.7594
寺丞	-11.7594
門墻	-11.7596
華表	-11.7599
佳麗	-11.7599
神農	-11.76
斚	-11.7601
鼙	-11.7602
帷幄	-11.7604
鴟夷	-11.7606
褁	-11.7607
有事於	-11.7608
諤	-11.7608
無所得	-11.7609
機杼	-11.761
錙銖	-11.761
忮	-11.761
柱史	-11.7611
輿論	-11.7612
毉	-11.7614
武進	-11.7615
豈容	-11.7616
踐履	-11.7616
轉徙	-11.7619
招提	-11.7622
首陽	-11.7623
昔聞	-11.7625
旁午	-11.7629
成績	-11.7632
賢愚	-11.7633
又不見	-11.7633
貧富	-11.7636
離思	-11.7641
原野	-11.7642
汪君	-11.7643
梭	-11.7643
卒之明年	-11.7646
市井	-11.7646
㳙	-11.7649
涂	-11.7652
正位	-11.7652
設法	-11.7653
交阯	-11.7653
辛夘	-11.7653
闗西	-11.7654
純甫	-11.7656
遼陽	-11.7657
奉職	-11.7657
職務	-11.7658
若是則	-11.7661
壷	-11.7661
九疑	-11.7661
郊原	-11.7662
謫戍	-11.7663
佳期	-11.7663
白蓮	-11.7664
恩禮	-11.7667
喜怒哀樂	-11.7667
録序	-11.7669
平昔	-11.767
皓首	-11.7672
河洛	-11.7672
吾妻	-11.7672
子産	-11.7673
大司徒	-11.7674
儀禮	-11.7674
瀛海	-11.7675
七首	-11.7675
半空	-11.7676
紫雲	-11.7677
晉陽	-11.7685
鑑湖	-11.7686
掃除	-11.769
未足以	-11.769
援筆	-11.7691
結屋	-11.7691
儀部	-11.7693
老兄	-11.7695
於人也	-11.7696
涌	-11.7696
羣仙	-11.7698
㩦	-11.7698
監生	-11.7699
燮	-11.7701
兩宫	-11.7703
松菊	-11.7705
侍御史	-11.7707
罟	-11.7708
致良知	-11.771
天下之物	-11.771
毫髮	-11.7713
有所思	-11.7716
羊腸	-11.7718
遭際	-11.7719
弇州	-11.772
彈冠	-11.7723
行旅	-11.7725
逢春	-11.7729
危坐	-11.7729
半月	-11.7735
可恃	-11.7737
海波	-11.7737
荒村	-11.7737
宋南渡	-11.7738
萬仞	-11.7739
聞説	-11.7743
四境	-11.7743
猫	-11.7744
評事	-11.7746
鈿	-11.7747
己卯	-11.7749
絶倫	-11.775
典教	-11.775
蕭森	-11.7751
不知其所	-11.7752
猖獗	-11.7752
有涯	-11.7753
供億	-11.7753
諂	-11.7754
表表	-11.7755
鳥飛	-11.7756
耨	-11.7758
總裁	-11.776
船頭	-11.776
瀟瀟	-11.7761
形迹	-11.7762
考最	-11.7762
檢校	-11.7763
徃還	-11.7765
氏其先	-11.7765
碑銘	-11.7765
括蒼	-11.7768
生民之	-11.7771
勸懲	-11.7772
徽州	-11.7773
石渠	-11.7776
晨興	-11.7777
丹崖	-11.7779
致仕歸	-11.7782
崛	-11.7785
姓氏	-11.7788
於地下	-11.7788
此輩	-11.7788
良吏	-11.7788
倚樓	-11.7788
化育	-11.7791
輈	-11.7792
閩人	-11.7794
槀	-11.7794
矣故曰	-11.7794
永樂中	-11.7795
惹	-11.7795
紀昀	-11.7795
檐	-11.7796
竊意	-11.7796
樾	-11.7797
悸	-11.7798
瀹	-11.7798
鷃	-11.7799
主司	-11.7801
戦	-11.7802
內	-11.7803
曷不	-11.7803
徃年	-11.7804
鹺	-11.7805
晴雲	-11.7806
几杖	-11.7807
小試	-11.7808
狙	-11.781
既沒	-11.7812
諭徳	-11.7813
偕老	-11.7814
寵榮	-11.7816
青宫	-11.782
友朋	-11.7823
南雄	-11.7826
棄置	-11.7826
陽明先生	-11.7828
摩詰	-11.7828
被召	-11.7829
天衢	-11.783
積徳	-11.7832
仭	-11.7832
蘭臺	-11.7833
泠然	-11.7834
兩鬢	-11.7836
沆瀣	-11.7838
褥	-11.7839
蹕	-11.784
府庫	-11.7841
忠勤	-11.7842
鷗鷺	-11.7843
陸錫熊	-11.7844
跛	-11.7847
麄	-11.7847
淮陽	-11.7848
空虚	-11.7849
棐	-11.7849
刳	-11.7853
寵光	-11.7856
六載	-11.7859
獲罪	-11.7859
千餘人	-11.7862
苦辛	-11.7862
前驅	-11.7863
倚門	-11.7865
簡編	-11.7865
佩服	-11.7873
他郡	-11.7875
禮義之	-11.7877
醫士	-11.7881
貧乏	-11.7885
論著	-11.7886
照依	-11.7888
粘	-11.7892
賊勢	-11.7892
藂	-11.7895
鴈門	-11.7896
女弟	-11.7897
蔭	-11.7898
丁夘	-11.7898
箕裘	-11.7898
五岳	-11.7899
不撓	-11.79
崇卑	-11.7902
英才	-11.7907
諫議	-11.7908
深谷	-11.7908
此際	-11.7908
所以爲	-11.791
有意於	-11.7913
白蘋	-11.7913
内史	-11.7914
報恩	-11.7917
龍川	-11.792
嬰兒	-11.7922
懿行	-11.7924
司㓂	-11.7926
叢桂	-11.7932
講道	-11.7932
助教	-11.7932
為之銘曰	-11.7932
駿馬	-11.7934
竊念	-11.7934
困窮	-11.7934
鱸	-11.7934
囀	-11.7936
白羽	-11.7938
恬然	-11.7939
未始不	-11.7939
禩	-11.7939
蓬莱	-11.794
涕泗	-11.794
孫士毅總校	-11.7941
柑	-11.7942
五十餘	-11.7943
太常少卿	-11.7943
揉	-11.7943
蜕	-11.7944
烏鵲	-11.7945
濓洛	-11.7946
富民	-11.7947
聖人之學	-11.7947
貟外郎	-11.7947
表其墓	-11.7948
雙溪	-11.7949
斯須	-11.795
十倍	-11.7951
盛美	-11.7953
尤善	-11.7953
無辜	-11.7954
主宰	-11.7955
希顔	-11.7956
鴻雁	-11.7956
唐太宗	-11.7958
各以其	-11.7961
鳩工	-11.7965
避暑	-11.7966
遺編	-11.7968
婁江	-11.7969
朱門	-11.7969
清濁	-11.7969
晉江	-11.7969
十嵗	-11.797
痛哉	-11.797
是役也	-11.797
雪霜	-11.7972
茍且	-11.7973
追思	-11.7976
等衙門	-11.7978
葉氏	-11.7978
快哉	-11.7982
余友	-11.7983
其有不	-11.7984
調停	-11.7985
疏題為	-11.7985
人之善	-11.799
牀頭	-11.7991
成湯	-11.7992
㝡	-11.7994
襁褓	-11.7994
憲府	-11.7995
無一事	-11.7995
靦	-11.7995
合塟	-11.7996
二十三年	-11.7996
蓊	-11.7996
跖	-11.7997
該臣	-11.7997
砦	-11.7997
送徐	-11.7998
豈可以	-11.7999
具存	-11.8001
䘏典	-11.8002
舍弟	-11.8002
也今夫	-11.8005
由是觀之	-11.8006
嵗次	-11.8009
具載	-11.8011
皇華	-11.8012
臺閣	-11.8014
何以異	-11.8015
剛柔	-11.8019
曰然則	-11.802
亦多矣	-11.8021
性理	-11.8026
聖諭	-11.8026
巖巖	-11.8026
肆力	-11.8027
后土	-11.8028
遺稿	-11.8028
蒼天	-11.8029
節度	-11.8032
哥	-11.8032
懇乞	-11.8033
辭免	-11.8035
黝	-11.8039
瓉	-11.8039
月恭校上總纂官	-11.8039
究竟	-11.804
爨	-11.804
顧影	-11.804
嚴陵	-11.8041
糲	-11.8042
髠	-11.8043
㸔花	-11.8045
人間世	-11.8046
各衙門	-11.8052
唳	-11.8055
宗譜	-11.8056
元勲	-11.8059
菽水	-11.806
授徒	-11.8076
視昔	-11.8078
逾年	-11.8081
門庭	-11.8083
聖德	-11.8088
紐	-11.8089
兌	-11.8089
提要	-11.809
丼	-11.8092
這箇	-11.8092
振起	-11.8092
腑	-11.8094
善類	-11.8095
栝	-11.8096
成帙	-11.8099
欽遵	-11.8099
優劣	-11.8101
七嵗	-11.8103
撫綏	-11.8106
貳守	-11.8106
招隠	-11.8107
弇州續稿巻	-11.8107
郡侯	-11.8109
陟降	-11.8111
循理	-11.8111
園池	-11.8111
沙頭	-11.8114
鮮矣	-11.8115
抗疏	-11.8117
桐江	-11.8119
韓氏	-11.8119
閤下	-11.812
變幻	-11.8121
升斗	-11.8121
呼童	-11.8123
騎射	-11.8124
季父	-11.8124
盛唐	-11.8125
長孺	-11.8125
之用心	-11.8127
統領	-11.8127
京畿	-11.8137
滔	-11.8138
彭氏	-11.8138
牋	-11.8139
嶧	-11.8139
等謹案	-11.8139
瘵	-11.814
太祖髙皇帝	-11.814
栁色	-11.8141
内府	-11.8142
饘粥	-11.8146
昵	-11.8146
交友	-11.8146
白眼	-11.8148
闓	-11.8148
禹穴	-11.815
飮	-11.8151
鑿鑿	-11.8152
古帝王	-11.8152
濂洛	-11.8153
朔望	-11.8155
卧龍	-11.8157
講讀	-11.8158
片語	-11.8159
野服	-11.816
秩秩	-11.816
永康	-11.8167
三十五	-11.8168
此帖	-11.817
東郊	-11.817
詣闕	-11.8171
占籍	-11.8171
塵俗	-11.8171
未艾也	-11.8172
老眼	-11.8173
昭代	-11.8175
督兵	-11.8178
肖甫	-11.8179
不責	-11.818
浮沈	-11.8181
未必能	-11.8181
感歎	-11.8182
賽	-11.8183
昕	-11.8184
鄉曲	-11.8184
刀筆	-11.8185
醅	-11.8187
褰	-11.8187
竽	-11.8187
篤信	-11.8187
備員	-11.8189
謹奏為	-11.8189
釜	-11.819
髭	-11.8191
蹂	-11.8191
柁	-11.8191
蔗	-11.8192
語人曰	-11.8192
蘂	-11.8193
咄咄	-11.8195
聲音	-11.8197
沐浴	-11.8197
鄙夫	-11.8199
歌頌	-11.82
藜杖	-11.82
彛倫	-11.8201
榮華	-11.8202
無所不至	-11.8202
族屬	-11.8202
閶	-11.8205
機宜	-11.8205
典章	-11.8205
藝苑	-11.8205
台臺	-11.8208
稱述	-11.8208
九齡	-11.8208
内帑	-11.8209
憂勤	-11.821
曽氏	-11.8211
舟次	-11.8212
成誦	-11.8213
汀州	-11.8213
金幣	-11.8217
諭祭	-11.8221
渾無	-11.8221
惡惡	-11.8223
誦習	-11.8224
交際	-11.8224
精舎	-11.8226
創業	-11.8229
法制	-11.8231
臘月	-11.8233
嬋娟	-11.8233
所繇	-11.8235
女適	-11.8236
䦨干	-11.8236
指示	-11.8236
良朋	-11.8236
灞	-11.8238
原籍	-11.8239
款	-11.8239
寗	-11.824
司馬遷	-11.8241
髀	-11.8242
嗷嗷	-11.8242
絅	-11.8242
初九日	-11.8243
當塗	-11.8244
騏	-11.8244
儋	-11.8245
與其弟	-11.8246
渠魁	-11.8247
杰	-11.8247
俛首	-11.8248
巡檢	-11.8252
村落	-11.8252
西郊	-11.8252
驛丞	-11.8255
拜稽首	-11.8256
燕雀	-11.8257
馨香	-11.8257
碧桃	-11.8258
萬化	-11.8263
督責	-11.8264
渾然	-11.8264
是為記	-11.8268
𤣥圃	-11.827
與予同	-11.827
所藴	-11.8274
籲天	-11.8276
病骨	-11.8277
莫怪	-11.8281
琪	-11.8284
曖	-11.8285
二百餘	-11.8287
珣	-11.8287
襦	-11.8288
夏六月	-11.8289
鍔	-11.829
奉直大夫	-11.829
走筆	-11.829
疏奏為	-11.8292
蓼莪	-11.8293
叵測	-11.8293
緻	-11.8294
濟寧	-11.8294
波浪	-11.8294
雨暘	-11.8296
報政	-11.8296
㡬度	-11.8296
家塾	-11.8297
奭	-11.8298
窳	-11.83
往返	-11.8302
千二百	-11.8303
皇仁	-11.8304
距生	-11.8305
記憶	-11.8307
季弟	-11.8308
門牆	-11.8309
權衡	-11.831
臨軒	-11.8313
復何言	-11.8313
巖壑	-11.8315
者有矣	-11.8317
率爾	-11.8318
廢興	-11.8324
由進士	-11.8325
九鼎	-11.8326
河源	-11.8326
薦舉	-11.8328
閲月	-11.8329
屬吏	-11.8329
六欽定四庫全書	-11.8333
孫男十	-11.8335
抱負	-11.8336
不吝	-11.8336
登極	-11.8338
祠宇	-11.8338
文彩	-11.8338
初十日	-11.8341
渭水	-11.8341
修省	-11.8341
旌表	-11.8342
券	-11.8342
籥	-11.8342
籖	-11.8342
坰	-11.8343
子房	-11.8343
瓊林	-11.8344
形似	-11.8344
襟期	-11.8345
磐石	-11.8346
昭示	-11.8348
渢渢	-11.8348
躐	-11.8348
文皇帝	-11.8349
頴敏	-11.8351
訃至	-11.8353
團團	-11.8355
會同	-11.8356
三百六十	-11.8358
横渠	-11.8359
元配	-11.8359
四十八	-11.8361
進講	-11.8363
府君諱	-11.8364
威武	-11.8366
屈原	-11.8366
傷神	-11.8372
書此以	-11.8373
南雍	-11.8374
土田	-11.8379
經旬	-11.8384
何憾	-11.8385
監軍	-11.8387
擄	-11.8388
五尺	-11.8389
青史	-11.839
蜩	-11.839
埽	-11.8391
琉璃	-11.8391
袴	-11.8392
翰林修撰	-11.8394
芋	-11.8394
與之同	-11.8395
困苦	-11.8396
郁離子曰	-11.8396
脛	-11.8397
烏紗	-11.8397
關河	-11.8398
斯言也	-11.8404
波瀾	-11.8404
才智	-11.8404
洪濤	-11.8406
四品	-11.8406
其槩	-11.8406
上春官	-11.841
司務	-11.8414
次韻答	-11.8414
里巷	-11.8418
茅堂	-11.8419
南斗	-11.8421
不肖孤	-11.8423
其親者	-11.8431
江口	-11.8434
腸斷	-11.8437
敢謂	-11.8437
入貢	-11.844
一幅	-11.8442
殛	-11.8442
穽	-11.8443
朂哉	-11.8444
延師	-11.8444
撾	-11.8444
醢	-11.8445
魑魅	-11.8445
𨳩	-11.8446
邨	-11.8447
楊愛	-11.8447
蓀	-11.8449
竁	-11.8449
有日矣	-11.8451
筆墨	-11.8451
不出於	-11.8454
青瑣	-11.8454
何也曰	-11.8458
之力也	-11.8459
歸去來	-11.8463
有道者	-11.8463
明敏	-11.8463
竊發	-11.8464
千萬年	-11.8464
黄冠	-11.8467
泊然	-11.8468
萬鍾	-11.847
新晴	-11.8472
先府君	-11.8472
不相及	-11.8474
恩波	-11.8477
翰林侍讀	-11.8477
音容	-11.8478
通籍	-11.848
然後可以	-11.8481
樓記	-11.8481
南面	-11.8483
廽	-11.8488
芳洲	-11.849
青鸞	-11.849
建祠	-11.849
生男	-11.8492
何暇	-11.8493
讋	-11.8493
建章	-11.8494
絡繹	-11.8494
勝負	-11.8495
殻	-11.8495
褫	-11.8496
撝	-11.8496
殿卿	-11.8496
逸興	-11.8497
颶	-11.8497
义	-11.8497
荔枝	-11.8498
瓣香	-11.8498
益勤	-11.8498
濛濛	-11.8499
環堵	-11.8499
忠愛	-11.85
庭樹	-11.85
毋使	-11.8501
求予文	-11.8502
永昌	-11.8503
几筵	-11.8504
羣雄	-11.8506
藏于家	-11.8506
筏	-11.8507
軫念	-11.8508
藩籬	-11.8512
美酒	-11.8516
即席	-11.8519
胄監	-11.8521
緑野	-11.8523
古之所謂	-11.8524
臣無任	-11.8526
黄巖	-11.8526
錢榖	-11.8527
蘇松	-11.853
隴西	-11.8532
康節	-11.8537
五斗	-11.8538
堪憐	-11.8541
祠記	-11.8542
鶺鴒	-11.8543
芬芳	-11.8545
承㫖	-11.8545
纊	-11.8545
盛典	-11.8545
郝	-11.8545
旐	-11.8546
州判官	-11.8547
繼述	-11.8547
縹	-11.8547
菩提	-11.8548
飽食	-11.8548
屡	-11.8548
怪石	-11.8548
幸免	-11.8549
摸	-11.8549
禅	-11.855
磅礴	-11.855
纘	-11.8551
考槃	-11.8551
延佇	-11.8552
唁	-11.8552
鏡裏	-11.8554
夾道	-11.8558
灑然	-11.856
記誦	-11.8563
上苑	-11.8565
懸車	-11.8565
昭烈	-11.8566
無礙	-11.8571
不售	-11.8571
福履	-11.8572
遐邇	-11.8573
樽前	-11.8574
今已矣	-11.8576
同年友	-11.8576
楓林	-11.8577
初七日	-11.8577
歸途	-11.8582
不容已	-11.8586
百餘里	-11.8587
謹題請㫖	-11.8589
清凉	-11.8592
恍若	-11.8594
剩	-11.8594
娃	-11.8595
接武	-11.8595
蒨	-11.8596
奮發	-11.8596
汲汲於	-11.8596
桂花	-11.8596
攜手	-11.8596
䬃	-11.8597
沗	-11.8598
堯舜禹湯文武	-11.8599
撒	-11.8599
赴任	-11.86
享年八十	-11.8602
銅柱	-11.8602
昶	-11.8602
郡丞	-11.8602
孩提	-11.8603
淇澳	-11.8603
粱	-11.8605
希夷	-11.8608
十丈	-11.8609
景星	-11.8611
悚然	-11.862
有志之士	-11.8621
熒熒	-11.8623
百歲	-11.8624
南枝	-11.8626
謳歌	-11.8629
之遺意	-11.8629
麾下	-11.8629
川原	-11.863
以某年月日	-11.8632
十有五年	-11.8636
撫育	-11.8636
類如此	-11.8639
禍亂	-11.8641
統兵	-11.8648
讃	-11.8648
拜手稽首	-11.8648
糶	-11.8648
姻戚	-11.8649
希賢	-11.8649
蚌	-11.865
愾	-11.8651
噤	-11.8652
仔	-11.8652
殺氣	-11.8652
光禄大夫	-11.8653
腫	-11.8655
帚	-11.8655
訕	-11.8658
培植	-11.8659
輕舟	-11.8659
膏肓	-11.866
江干	-11.8661
卜筮	-11.8661
萬壽	-11.8664
問津	-11.8667
與君同	-11.8669
初三日	-11.867
開闢	-11.8674
農桑	-11.8674
廓然	-11.8675
千萬世	-11.8676
其行事	-11.8681
蔣氏	-11.8683
膏澤	-11.8683
接踵	-11.869
相值	-11.8691
良弼	-11.8692
禮讓	-11.8693
聖代	-11.8693
孤鶴	-11.8693
冨貴	-11.8694
孺人墓誌銘	-11.8695
萬變	-11.8698
薤	-11.8698
無一言	-11.8699
名譽	-11.8702
品題	-11.8705
姝	-11.8705
攢	-11.8705
贐	-11.8705
仝	-11.8706
雜詩	-11.8706
刲股	-11.8706
國子助教	-11.8707
九疇	-11.8708
青衫	-11.8708
榕	-11.8708
昃	-11.8709
中憲大夫	-11.8709
山嶽	-11.8709
踔	-11.871
甚詳	-11.8711
九峯	-11.8714
承顔	-11.8717
凌空	-11.8719
故為序	-11.8719
此無他	-11.8721
不相見	-11.8721
五世祖	-11.8722
浣花	-11.8724
應酬	-11.8724
乎然則	-11.8726
各有所	-11.8727
揚揚	-11.8729
遺恨	-11.873
龍吟	-11.8731
提兵	-11.8731
清泠	-11.8733
窮愁	-11.8735
巡視	-11.8735
祠部	-11.8743
尚寶	-11.8743
敬慎	-11.8744
俊秀	-11.8744
蹋	-11.8748
今年夏	-11.8749
軿	-11.8752
内助	-11.8753
未可知也	-11.8753
海潮	-11.8754
悛	-11.8755
漫興	-11.8755
偪	-11.8755
爭先	-11.8755
羃	-11.8756
槊	-11.8756
昩	-11.8757
閙	-11.8758
躋攀	-11.8758
女四人	-11.8758
弃	-11.8759
秣陵	-11.8759
玦	-11.876
飼	-11.876
太陽	-11.8761
頭顱	-11.8761
韓退之	-11.8763
羊裘	-11.8763
糊	-11.8764
百倍	-11.8766
為之銘	-11.8767
編脩	-11.8767
巴蜀	-11.8768
以書來	-11.8769
御醫	-11.8769
當筵	-11.8771
勒銘	-11.8772
提刑	-11.8772
爛然	-11.8775
糧餉	-11.8776
羊酒	-11.8777
姓字	-11.8778
下榻	-11.8778
形神	-11.8781
五言古詩	-11.8781
賜宴	-11.8781
源流	-11.8782
黄鍾	-11.8784
三峽	-11.8788
躬耕	-11.8789
過眼	-11.8794
仲冬	-11.8795
魯國	-11.8795
百戸	-11.8797
水濵	-11.8799
記其事	-11.8803
蛛	-11.8805
芙蕖	-11.881
寓目	-11.881
尤切	-11.881
嶔	-11.881
楼	-11.881
詔許	-11.8811
弇州續稿巻一百	-11.8812
珙	-11.8812
瀚海	-11.8812
胙	-11.8813
嬖	-11.8814
畛	-11.8814
雹	-11.8815
莩	-11.8815
剡溪	-11.8818
濯濯	-11.8818
雙眼	-11.8819
征西	-11.882
云乎哉	-11.8821
巻舒	-11.8822
清晨	-11.8822
金鑾	-11.8828
千餘里	-11.8831
簮纓	-11.8832
抱病	-11.8833
夀六十	-11.8833
一邑之	-11.8833
老弱	-11.8833
腐儒	-11.8834
賢哲	-11.8837
孤忠	-11.8838
是為序	-11.8839
仲兄	-11.8839
餘黨	-11.8842
燈花	-11.8843
漳州	-11.8844
勇退	-11.8845
黎民	-11.8846
井井	-11.8848
一帙	-11.8851
簧	-11.8852
幌	-11.8856
頌聲	-11.8856
棄捐	-11.8857
放浪	-11.8857
悼惜	-11.8861
以下皆	-11.8861
擺	-11.8861
涿	-11.8863
摳	-11.8863
瞭	-11.8865
毆	-11.8867
汁	-11.8867
冀北	-11.8867
胸臆	-11.8868
博士弟子	-11.8868
老成人	-11.8868
十餘萬	-11.8869
删	-11.8869
敓	-11.887
管絃	-11.887
才猷	-11.8872
睦族	-11.8873
謖	-11.8873
吹笛	-11.8877
延綏	-11.8877
贈淑人	-11.8877
曰嘻	-11.8878
羽翰	-11.8879
記室	-11.8879
交誼	-11.8883
未必不	-11.8883
四十五	-11.8885
良辰	-11.8887
青霞	-11.889
懷抱	-11.889
肉食	-11.8892
練兵	-11.8894
野寺	-11.8894
祥符	-11.8896
幡然	-11.8898
不得巳	-11.8899
否耶	-11.8901
所以教	-11.8902
遺澤	-11.8904
曷嘗	-11.8908
伯衡	-11.8909
海鹽	-11.8911
蒙恩	-11.8912
先大父	-11.8912
毬	-11.8914
百粤	-11.8914
讀其書	-11.8914
謄	-11.8916
儼山集巻	-11.8917
所忌	-11.8921
聦	-11.8922
維摩	-11.8922
柴扉	-11.8922
萋萋	-11.8924
長庚	-11.8924
遺憾	-11.8924
桑田	-11.8925
天下之治	-11.8926
埸	-11.8929
董仲舒	-11.893
子四人	-11.8934
泥塗	-11.8934
融融	-11.8935
藏於家	-11.8937
淺陋	-11.8937
孤村	-11.8938
胸次	-11.894
睢陽	-11.8941
薄俗	-11.8944
宦途	-11.8946
輝映	-11.8954
杜詩	-11.8958
香火	-11.8959
海虞	-11.896
離筵	-11.8963
六籍	-11.8965
峥嶸	-11.8965
劉郎	-11.8967
顯晦	-11.8969
嵌	-11.8969
曆	-11.897
璠	-11.8972
子男二長	-11.8972
鑚	-11.8972
墨池	-11.8973
君墓表	-11.8973
千尋	-11.8973
覆載	-11.8975
朔方	-11.8976
縝	-11.8977
教其子	-11.8978
碍	-11.8981
千仭	-11.8988
族黨	-11.8996
慰藉	-11.9002
綺羅	-11.9003
若干篇	-11.9016
苧	-11.9018
琬琰	-11.9019
乗興	-11.902
褚	-11.9024
缾	-11.9024
邅	-11.9026
辟易	-11.9027
數百言	-11.9027
不悖	-11.9027
賒	-11.9028
質直	-11.9028
稷契	-11.903
高皇帝	-11.903
恡	-11.9031
黍稷	-11.9031
畎畝	-11.9033
范文正公	-11.9033
獷	-11.9034
饔	-11.9035
局促	-11.9035
登庸	-11.9038
迨今	-11.9039
河橋	-11.9042
荆榛	-11.9043
林丘	-11.9046
初六日	-11.9048
秘閣	-11.9048
外舅	-11.9049
龍池	-11.905
杖履	-11.9056
廟碑	-11.9058
三百餘	-11.9058
返照	-11.906
衛指揮	-11.9066
皇祖	-11.9068
句曲	-11.907
夢覺	-11.907
者衆矣	-11.9072
洸	-11.9073
元標	-11.9073
鋏	-11.9075
二十一年	-11.9076
晁	-11.9078
酒熟	-11.9079
弹	-11.9079
炤	-11.908
妯娌	-11.908
駐馬	-11.9081
攬衣	-11.9081
舠	-11.9081
退休	-11.9082
徠	-11.9083
引疾	-11.9085
袵	-11.9086
誾	-11.9086
腎	-11.9086
禘	-11.9087
昆明	-11.9087
賾	-11.9089
竆	-11.9089
勤慎	-11.9089
瞶	-11.909
按部	-11.909
金盤	-11.9092
下帷	-11.9092
浮梁	-11.9093
放舟	-11.9094
峨眉	-11.9096
莫先於	-11.9099
初八日	-11.91
月旦	-11.9103
為士者	-11.9104
儀曹	-11.9105
異姓	-11.9108
憲章	-11.9114
古樂府	-11.9119
恩典	-11.912
淮揚	-11.912
五言律詩	-11.9123
恭謹	-11.9125
純孝	-11.9129
三楹	-11.9132
天之所以	-11.9132
窪	-11.9134
嵗晚	-11.9134
紡績	-11.9134
揀	-11.9135
通衢	-11.9135
孫男六	-11.9136
勒石	-11.9138
淘	-11.9138
輦轂	-11.9139
甘雨	-11.9141
蒯	-11.9141
松雪	-11.9142
栖栖	-11.9145
昔人謂	-11.9146
最愛	-11.9147
鄖陽	-11.9147
康强	-11.9147
冠盖	-11.9151
口授	-11.9155
清晝	-11.9155
尊兄	-11.9158
孝婦	-11.9158
擒獲	-11.916
齊梁	-11.9162
北風吹	-11.9166
京闈	-11.9169
捲簾	-11.9169
比屋	-11.9169
聞之曰	-11.9171
處士諱	-11.9173
遠近	-11.9173
題其後	-11.9173
安排	-11.9181
冰雪	-11.9181
獨酌	-11.9184
皁	-11.9186
大司農	-11.9187
瘴癘	-11.9189
髙誼	-11.9189
灤	-11.9189
楊友	-11.919
咸淳	-11.919
熊羆	-11.919
晝錦	-11.9191
斧斤	-11.9191
巇	-11.9191
御史臺	-11.9192
耉	-11.9194
帶雨	-11.9195
恧	-11.9195
二十二年	-11.9195
滁陽	-11.9197
山水圖	-11.9199
執紼	-11.92
㦯	-11.9201
崛起	-11.9202
折腰	-11.9205
珠簾	-11.9205
簫鼓	-11.9205
舉于鄉	-11.9208
荒蕪	-11.921
鍾愛	-11.9211
翠羽	-11.9216
網羅	-11.9217
曙色	-11.9217
君子小人	-11.9219
講堂	-11.9223
最久	-11.9223
仲宣	-11.9224
嗟爾	-11.9228
冬十二月	-11.923
萱草	-11.9236
綽有	-11.9236
書札	-11.9237
藉手	-11.924
蓐	-11.9243
惻惻	-11.9246
癢	-11.925
蒲團	-11.925
祟	-11.9251
弇州四部稿巻	-11.9252
孝弟忠信	-11.9252
疽	-11.9254
瓛	-11.9254
自娛	-11.9254
金閨	-11.9258
醯	-11.9258
諸士子	-11.9259
布列	-11.926
詩書禮樂	-11.9263
有力者	-11.9266
列宿	-11.9267
墨蹟	-11.9267
蔬食	-11.927
侍左右	-11.9275
彩雲	-11.9275
寂無	-11.9276
兩廡	-11.9278
徐徐	-11.9278
六部	-11.9292
桶岡	-11.9293
肢	-11.9293
諭之曰	-11.9294
鸞鳳	-11.9294
碧梧	-11.9297
韭	-11.9298
吉祥	-11.9298
鶯聲	-11.9298
蕤	-11.9299
具官某	-11.9299
螟	-11.93
璵	-11.9301
胞	-11.9301
溶溶	-11.9301
𣺌𣺌	-11.9302
囷	-11.9302
儵	-11.9302
寀	-11.9303
安在哉	-11.9304
倨	-11.9304
疊嶂	-11.9304
榼	-11.9305
吳楚	-11.9306
問之曰	-11.931
囓	-11.9311
弗逮	-11.9311
賦詠	-11.9311
掇拾	-11.9314
孝謹	-11.9315
夷險	-11.9317
隂晴	-11.9319
顔淵	-11.932
顔氏	-11.932
綵雲	-11.9322
壯遊	-11.9323
澗水	-11.9324
三昧	-11.9326
矣而又	-11.9329
女二長適	-11.933
窮途	-11.9333
喟	-11.9337
離憂	-11.9338
孫女一	-11.934
四皓	-11.934
峯頭	-11.9344
桂枝	-11.9346
龍蟠	-11.9348
漸覺	-11.9349
錯落	-11.9351
閩海	-11.9352
激揚	-11.9352
楠	-11.9353
蓽	-11.9356
天籟	-11.9356
劉基	-11.9359
診	-11.9362
紫陌	-11.9362
兑	-11.9363
故址	-11.9364
鶱	-11.9364
瘧	-11.9366
奚必	-11.9369
兆民	-11.9369
吏部侍郎	-11.937
玆	-11.9373
晦菴	-11.9374
操履	-11.9375
百鍊	-11.9375
褎然	-11.9375
快意	-11.9376
國朝洪武	-11.9378
雪湖	-11.9379
轉覺	-11.938
桂陽	-11.9383
百畝	-11.9386
泰伯	-11.9388
萬六千	-11.9389
諶	-11.941
隰	-11.9411
箔	-11.9411
瑗	-11.9412
摠	-11.9413
舡	-11.9414
槿	-11.9415
瑭	-11.9416
蒂	-11.9417
袪	-11.9418
瑀	-11.9419
椷	-11.9421
謟	-11.9423
暱	-11.9425
鸎	-11.9468
浰	-11.947
袠	-11.9471
枋	-11.9472
盭	-11.9477
悪	-11.9488
膂	-11.9496
漙	-11.9525
柘	-11.9525
刦	-11.9527
諠	-11.9528
瑋	-11.9529
囙	-11.953
墊	-11.953
獞	-11.9533
隃	-11.9535
檠	-11.9582
攪	-11.9583
烱	-11.9584
狠	-11.9585
痴	-11.9585
湜	-11.9586
堠	-11.9587
穡	-11.9587
描	-11.9589
戛	-11.9589
盌	-11.959
凑	-11.9643
鉏	-11.9647
斆	-11.9647
羶	-11.9648
晰	-11.9649
㮣	-11.9649
隤	-11.9651
窠	-11.9699
酡	-11.9699
瞞	-11.97
敇	-11.9701
櫺	-11.9702
甑	-11.9705
汜	-11.9707
惬	-11.9707
藿	-11.9708
頳	-11.9758
秔	-11.9759
喆	-11.9762
誹	-11.9763
澣	-11.9764
譟	-11.9764
瘝	-11.9765
躪	-11.9766
牐	-11.9808
綆	-11.9817
嘏	-11.9817
迢	-11.982
踉	-11.982
刄	-11.9826
鎧	-11.9875
曈	-11.9876
噭	-11.9876
樷	-11.9876
傚	-11.9877
翀	-11.9879
潏	-11.9879
綻	-11.9879
畬	-11.9881
砲	-11.9881
銃	-11.9888
荇	-11.993
櫟	-11.9934
澠	-11.9934
嶢	-11.9937
夘	-11.9938
尔	-11.9941
珤	-11.9942
堙	-11.9942
苻	-11.9943
絆	-11.9944
蠖	-11.9944
漱	-11.9997
鑪	-11.9997
騑	-11.9998
麽	-12
抃	-12.0002
箧	-12.0003
沚	-12.0005
笈	-12.0052
菌	-12.0056
鍤	-12.0057
扺	-12.0058
戞	-12.0059
阼	-12.0059
哂	-12.0059
閾	-12.006
佀	-12.0062
璲	-12.0062
吭	-12.0063
猱	-12.0063
糗	-12.0063
絜	-12.0066
插	-12.0112
撩	-12.0119
薌	-12.0123
惘	-12.0156
瀬	-12.0179
斸	-12.0179
鉦	-12.0179
螘	-12.018
菰	-12.0181
縂	-12.0181
糟	-12.0182
凂	-12.0183
塑	-12.0184
媾	-12.0184
謌	-12.0185
隗	-12.0237
簣	-12.0239
禔	-12.0242
欎	-12.0242
庋	-12.0246
殳	-12.0247
𬗋	-12.0248
褊	-12.0249
氐	-12.0249
獅	-12.027
屺	-12.03
菅	-12.03
劭	-12.0301
啞	-12.0304
勣	-12.0304
廛	-12.0305
怱	-12.0305
煬	-12.0309
彖	-12.0311
蚓	-12.036
崐	-12.0361
涪	-12.0366
禊	-12.0366
圩	-12.0368
祓	-12.0368
刓	-12.0369
枰	-12.0369
緼	-12.0371
咄	-12.0408
奐	-12.0423
蘅	-12.0424
魴	-12.0425
麝	-12.0427
㾗	-12.0431
淖	-12.0434
单	-12.0436
琱	-12.0488
琯	-12.0488
磷	-12.049
鏃	-12.049
喈	-12.0491
禳	-12.0492
酤	-12.0496
䔍	-12.0498
瓿	-12.0501
咿	-12.0548
寍	-12.0548
鵾	-12.0549
淼	-12.0552
璐	-12.0556
壖	-12.0556
偲	-12.0561
屧	-12.0616
澧	-12.0616
塍	-12.0617
嵓	-12.0617
瀫	-12.0618
倏	-12.0619
娠	-12.0622
羯	-12.0623
猴	-12.0624
䖝	-12.0627
站	-12.067
鱠	-12.0674
淋	-12.0676
檟	-12.0681
貰	-12.0681
噓	-12.0682
姆	-12.0682
唫	-12.0684
澇	-12.0684
摉	-12.0685
蔀	-12.069
窽	-12.069
亳	-12.0741
旛	-12.0743
櫪	-12.0746
庳	-12.0748
臠	-12.0749
磽	-12.0749
丗	-12.0751
懣	-12.0751
㽔	-12.0805
訢	-12.0805
蹻	-12.0808
舩	-12.081
术	-12.0815
榱	-12.0817
朘	-12.0818
錠	-12.0869
畯	-12.0875
籀	-12.0879
痺	-12.0882
郞	-12.0883
簋	-12.0883
斕	-12.0935
爕	-12.0935
賭	-12.0938
嚇	-12.0942
硬	-12.0942
桒	-12.0943
芰	-12.0943
灔	-12.0944
帔	-12.0947
鍵	-12.0948
皈	-12.095
洮	-12.0999
焜	-12.1009
硎	-12.1012
冏	-12.1014
禫	-12.1016
疢	-12.104
磁	-12.1072
炁	-12.1075
逥	-12.1076
睽	-12.1078
餔	-12.1078
秧	-12.1078
籩	-12.108
譌	-12.1081
荄	-12.1081
眚	-12.1086
尓	-12.1091
瞥	-12.1131
喔	-12.1135
嶮	-12.114
洙	-12.1143
罾	-12.1143
祫	-12.1147
驁	-12.1147
蘩	-12.1149
旴	-12.1179
酥	-12.1205
贋	-12.1206
抆	-12.1207
珵	-12.1209
宓	-12.1211
阪	-12.1211
壎	-12.1212
掊	-12.1213
輳	-12.122
姱	-12.1274
肋	-12.1275
倬	-12.1276
悮	-12.1277
尫	-12.1281
猪	-12.1339
皚	-12.134
楸	-12.1341
喇	-12.1341
猩	-12.1342
徊	-12.1344
蘊	-12.1344
饜	-12.1346
畮	-12.1346
个	-12.1347
厮	-12.1348
禠	-12.135
阽	-12.1351
螽	-12.1351
遅	-12.1352
毘	-12.1409
郟	-12.1409
郄	-12.1411
篚	-12.1412
舵	-12.1413
䜿	-12.1414
黻	-12.1415
獰	-12.1416
輾	-12.1417
罌	-12.1417
讚	-12.1417
潸	-12.1418
譛	-12.1421
揑	-12.1476
跟	-12.1481
沆	-12.1485
湔	-12.1485
槽	-12.1487
悌	-12.1487
澮	-12.1488
症	-12.1489
隍	-12.1524
豺	-12.1548
塌	-12.1554
惸	-12.1555
瀏	-12.1555
恝	-12.1556
俻	-12.1561
啚	-12.1565
紡	-12.1621
𠖇	-12.1621
懊	-12.1622
睛	-12.1622
唧	-12.1622
苾	-12.1622
屩	-12.1624
慱	-12.1625
𧺫	-12.1626
枲	-12.1626
娟	-12.1627
礎	-12.1628
瓘	-12.163
梏	-12.163
惴	-12.1633
瘍	-12.1638
牡	-12.1691
箐	-12.1692
酪	-12.1693
茀	-12.1694
涴	-12.1697
臈	-12.1697
刲	-12.1697
攣	-12.1699
衂	-12.17
迕	-12.17
汊	-12.1702
埴	-12.1764
漭	-12.1766
銑	-12.1766
汞	-12.1766
崒	-12.1767
蘗	-12.1768
桷	-12.1769
醲	-12.1771
㢲	-12.1771
啣	-12.1772
腋	-12.1772
輀	-12.1775
帨	-12.1775
爬	-12.1782
溧	-12.1833
蓂	-12.1837
蕊	-12.1839
韡	-12.1839
熠	-12.184
嫣	-12.1841
臍	-12.1841
抜	-12.1841
甬	-12.1841
樟	-12.1841
愒	-12.1843
襯	-12.1843
昺	-12.1845
瞀	-12.1845
薈	-12.1846
嗾	-12.1849
蜺	-12.1907
佻	-12.1909
魅	-12.191
輶	-12.191
彝	-12.191
掎	-12.1912
滉	-12.1912
甜	-12.1913
臾	-12.1913
罨	-12.1913
琨	-12.1914
劘	-12.1914
絞	-12.1915
祼	-12.1915
誶	-12.1916
礲	-12.1916
礫	-12.1918
秇	-12.1923
緦	-12.1927
蘢	-12.1981
芊	-12.1981
鎩	-12.1982
殂	-12.1984
遹	-12.1985
箎	-12.1986
芮	-12.1986
滃	-12.1987
澡	-12.1987
娑	-12.1987
畚	-12.1988
鱣	-12.1988
簞	-12.1991
𬞞	-12.1998
枘	-12.2056
縊	-12.2057
蠏	-12.206
喑	-12.2061
㦲	-12.2062
沱	-12.2128
帕	-12.2129
菉	-12.2129
雇	-12.213
蔥	-12.213
晻	-12.2131
罇	-12.2131
惨	-12.2132
藺	-12.2134
溯	-12.2136
蹠	-12.2137
㩁	-12.214
甯	-12.214
𬈑	-12.2141
茱	-12.2199
珏	-12.2202
佗	-12.2203
瓴	-12.2204
凊	-12.2204
渦	-12.2206
螯	-12.2207
彧	-12.2207
瀋	-12.2211
矍	-12.2213
殍	-12.2216
𣏌	-12.2223
央	-12.2262
皥	-12.2278
簑	-12.228
歧	-12.2281
槍	-12.2281
椀	-12.2282
牎	-12.2282
罥	-12.2283
抔	-12.2283
瑯	-12.2284
闚	-12.2284
麯	-12.2285
慥	-12.2296
盾	-12.2342
攙	-12.2348
瞢	-12.2354
觜	-12.2354
鱉	-12.2356
攤	-12.2357
蠭	-12.2357
彘	-12.2359
玠	-12.2359
鍚	-12.2359
佘	-12.2359
簉	-12.2361
瞠	-12.2361
坌	-12.2362
儌	-12.2362
蹷	-12.2362
賕	-12.2365
繻	-12.2365
坏	-12.2367
􁁜	-12.2424
貔	-12.2425
箏	-12.2425
菟	-12.2429
佺	-12.2429
禺	-12.243
啾	-12.2432
崎	-12.2432
黟	-12.2433
輜	-12.2434
葷	-12.2435
眄	-12.2435
摯	-12.2436
矇	-12.2438
袤	-12.2438
琬	-12.2438
畞	-12.2439
艫	-12.2506
錡	-12.2509
孳	-12.2511
峪	-12.2514
銛	-12.2514
㬰	-12.2517
塏	-12.2518
刖	-12.252
蔕	-12.2584
鴞	-12.2585
骯	-12.2589
嚬	-12.2589
卬	-12.2589
噩	-12.2589
皺	-12.2589
襁	-12.259
蓁	-12.259
厖	-12.2591
鈇	-12.2594
闍	-12.2594
継	-12.2605
酈	-12.2662
瀰	-12.2663
痩	-12.2667
噱	-12.2672
俳	-12.2673
湊	-12.2741
撿	-12.2743
坻	-12.2746
臉	-12.2746
䭾	-12.2749
殪	-12.2753
慼	-12.2753
暦	-12.2757
粢	-12.2759
劈	-12.2824
媧	-12.2825
鑽	-12.2826
鍰	-12.2826
蓉	-12.2826
捩	-12.2827
陘	-12.2827
薩	-12.2827
凾	-12.2827
眈	-12.2827
呀	-12.2829
陕	-12.2829
鋸	-12.283
滲	-12.2831
瓣	-12.2894
挨	-12.2898
瑪	-12.2901
犴	-12.2905
魃	-12.2905
枳	-12.2905
嗃	-12.2906
捜	-12.2906
鱷	-12.2906
輻	-12.2906
頹	-12.2906
鐺	-12.2907
町	-12.2909
莢	-12.291
郛	-12.2911
咻	-12.2918
巋	-12.2957
爺	-12.2982
筑	-12.2983
氅	-12.2984
蟒	-12.2985
齔	-12.2988
囏	-12.2988
悁	-12.2992
烜	-12.3045
沕	-12.3061
拿	-12.3063
骼	-12.3063
﨑	-12.3064
犖	-12.3065
頊	-12.3065
羹	-12.3067
濩	-12.3068
驀	-12.3069
孶	-12.3071
嗒	-12.3071
襜	-12.3071
狺	-12.3071
鞶	-12.3073
侏	-12.3076
骫	-12.3076
呦	-12.3142
砢	-12.3144
蟊	-12.3145
貍	-12.3146
㘭	-12.3151
䣊	-12.3153
蚩	-12.3156
槥	-12.3157
矮	-12.3226
玖	-12.323
蕳	-12.323
貉	-12.3231
颿	-12.3231
雝	-12.3236
脗	-12.324
涅	-12.3241
癰	-12.3242
鏖	-12.3312
菀	-12.3312
鴿	-12.3313
稌	-12.3314
啁	-12.3316
漶	-12.3319
摽	-12.3319
噎	-12.3323
碗	-12.3323
醵	-12.3329
茒	-12.3395
碭	-12.3396
憺	-12.3396
旰	-12.3396
櫃	-12.3399
挐	-12.3399
脣	-12.34
腊	-12.3401
緹	-12.3401
鍜	-12.3402
荑	-12.3404
虫	-12.3405
瘥	-12.3405
濊	-12.3405
趋	-12.341
勩	-12.346
趺	-12.3469
嚥	-12.3479
羿	-12.3482
皐	-12.3482
㶚	-12.3483
泡	-12.3483
庥	-12.3483
伻	-12.3484
罝	-12.3484
柿	-12.3484
断	-12.3485
桮	-12.3486
窣	-12.3487
猨	-12.3489
忉	-12.3491
淂	-12.3502
侗	-12.3566
蜿	-12.3567
薺	-12.3567
弢	-12.3567
繐	-12.3567
轢	-12.3569
煤	-12.3569
戇	-12.3571
玅	-12.3572
莠	-12.3579
螫	-12.3579
泫	-12.3623
叵	-12.3651
歊	-12.3653
寞	-12.3654
篪	-12.3654
醸	-12.3654
搦	-12.3659
鄠	-12.3659
鯀	-12.366
鉗	-12.366
廏	-12.3662
尙	-12.3663
橐	-12.3664
郃	-12.367
鬒	-12.3737
吃	-12.374
灧	-12.374
彗	-12.3744
鈺	-12.3744
衊	-12.3746
渰	-12.3746
酲	-12.3746
佹	-12.3747
䌓	-12.3748
疣	-12.3754
萸	-12.382
卹	-12.3825
呪	-12.3827
摵	-12.3828
筞	-12.3829
膈	-12.383
煢	-12.3831
燐	-12.3832
菓	-12.3833
薾	-12.3835
盬	-12.3836
讁	-12.3836
訌	-12.3838
媍	-12.3842
渤	-12.3913
鋩	-12.3916
豗	-12.3916
鉄	-12.3917
繢	-12.3918
茘	-12.3919
㪺	-12.392
跬	-12.3921
嶻	-12.3923
𫀆	-12.3923
暍	-12.3924
蘺	-12.3924
妒	-12.3926
憝	-12.393
匆	-12.3999
甎	-12.4004
榘	-12.401
咳	-12.401
􁎍	-12.401
咤	-12.4012
蜮	-12.4014
犇	-12.4014
鏌	-12.4015
糺	-12.402
磐	-12.4084
顱	-12.4085
鄱	-12.4091
鮒	-12.4091
乕	-12.4093
訏	-12.4096
纁	-12.4097
嬈	-12.4097
畎	-12.4098
詗	-12.4099
阯	-12.4099
胚	-12.4101
甿	-12.4103
噦	-12.4103
茭	-12.4104
掞	-12.4106
賠	-12.4184
畋	-12.4185
剋	-12.4186
靠	-12.4188
釗	-12.4188
縢	-12.4188
腮	-12.4188
薑	-12.4189
爝	-12.419
楯	-12.419
劌	-12.4191
眙	-12.4192
䀌	-12.4192
澍	-12.4194
鼯	-12.4196
垠	-12.4238
櫳	-12.4243
㶁	-12.4269
淦	-12.427
昴	-12.4274
咫	-12.4277
卸	-12.4278
䦧	-12.4279
吮	-12.4281
絓	-12.4281
駞	-12.4284
虱	-12.4285
豋	-12.4286
殀	-12.4287
沌	-12.4353
烘	-12.4364
犍	-12.4367
磻	-12.4369
换	-12.4369
峡	-12.4371
黏	-12.4372
棍	-12.4372
釂	-12.4373
湎	-12.4373
据	-12.4377
哇	-12.438
枌	-12.4381
尭	-12.4396
埏	-12.4454
蚪	-12.4465
嚕	-12.4466
圈	-12.4468
岌	-12.4558
鐃	-12.4558
澨	-12.4558
猖	-12.4558
蕕	-12.456
鏐	-12.4562
㶑	-12.4564
刅	-12.4565
狸	-12.4566
僂	-12.4567
𣑽	-12.457
愎	-12.4571
剜	-12.4573
瀟	-12.4625
騘	-12.4654
晬	-12.4655
蛤	-12.4655
渌	-12.4655
崤	-12.4657
羗	-12.4657
宷	-12.4657
牣	-12.4661
詖	-12.4663
慴	-12.4665
憗	-12.4666
痒	-12.4671
朅	-12.4733
垓	-12.4742
搬	-12.4747
嘹	-12.4747
秤	-12.4748
嫵	-12.4751
磈	-12.4751
猊	-12.4751
餗	-12.4752
鑛	-12.4753
蝨	-12.4753
饟	-12.4754
辤	-12.4754
橙	-12.4754
曁	-12.4758
㞐	-12.476
牂	-12.4849
撚	-12.4849
疹	-12.485
茝	-12.485
嚶	-12.4851
䲭	-12.4852
痢	-12.4853
牗	-12.4855
楞	-12.4855
陿	-12.4856
螿	-12.4938
狖	-12.494
炷	-12.4943
㳫	-12.4946
鼈	-12.4948
鍛	-12.4949
溆	-12.4949
塡	-12.4949
湼	-12.4951
眯	-12.4952
騄	-12.4952
縲	-12.4955
萑	-12.4955
抶	-12.496
櫻	-12.5027
孥	-12.5039
嵒	-12.5039
裵	-12.5042
鵩	-12.5043
嘷	-12.5044
噍	-12.5045
痿	-12.5045
箑	-12.5046
鶬	-12.5046
剌	-12.5047
襮	-12.5047
茰	-12.5048
邠	-12.5048
蒭	-12.5048
楩	-12.5052
獺	-12.5054
擐	-12.5054
靴	-12.5139
勍	-12.5141
鴂	-12.5142
両	-12.5144
擥	-12.5145
鎡	-12.5146
詛	-12.5147
澶	-12.5147
嗅	-12.5147
彂	-12.5148
眥	-12.5148
儇	-12.5149
鵒	-12.5154
皭	-12.5155
仡	-12.5158
䳌	-12.5237
桁	-12.524
棚	-12.5241
呻	-12.5243
嘴	-12.5245
幬	-12.5246
酢	-12.5247
絍	-12.5249
鄆	-12.525
䌫	-12.525
跼	-12.5251
嵂	-12.5251
戔	-12.5251
紲	-12.5251
㳂	-12.5252
焞	-12.5254
沬	-12.5254
衺	-12.5255
棫	-12.5255
䑛	-12.5256
釘	-12.5338
觔	-12.5343
鬐	-12.5347
扛	-12.5348
惝	-12.5349
擗	-12.5353
壕	-12.5353
郕	-12.5354
辠	-12.5355
偁	-12.5356
跑	-12.5445
聃	-12.5446
飣	-12.5448
孛	-12.5448
衽	-12.5449
顇	-12.5451
倔	-12.5452
皴	-12.5453
蠁	-12.5455
垤	-12.5455
愫	-12.5456
熨	-12.5459
跗	-12.5459
㫄	-12.5461
暵	-12.5461
鋟	-12.5514
琉	-12.555
哩	-12.5551
嶇	-12.5552
鐔	-12.5553
颭	-12.5553
琤	-12.5553
轔	-12.5556
嫺	-12.5557
䍦	-12.5559
藳	-12.5559
饁	-12.5559
画	-12.5562
絫	-12.5564
唘	-12.5575
厦	-12.5636
硃	-12.5651
猋	-12.5656
撐	-12.5658
崟	-12.566
趁	-12.566
暠	-12.566
陔	-12.5661
瓞	-12.5662
漑	-12.5663
癭	-12.5667
諐	-12.5667
襃	-12.5668
跧	-12.5669
盔	-12.5673
郿	-12.5673
愳	-12.5674
糠	-12.5675
紇	-12.5757
搭	-12.5759
籞	-12.5763
徯	-12.5766
僰	-12.5767
矰	-12.5768
棃	-12.5768
卣	-12.5769
噲	-12.5769
鹹	-12.5771
糈	-12.5772
䞇	-12.5775
囉	-12.5776
灋	-12.5776
礧	-12.5866
姨	-12.5872
鞮	-12.5872
忖	-12.5872
絙	-12.5875
畤	-12.5876
臟	-12.5877
洧	-12.5877
駘	-12.5878
媯	-12.5879
芘	-12.5879
怫	-12.5881
譖	-12.5882
鰓	-12.5885
䘚	-12.5891
囤	-12.5972
葳	-12.5973
偘	-12.5977
么	-12.598
溱	-12.5981
陴	-12.5982
幀	-12.5983
汭	-12.5983
璆	-12.5984
鴆	-12.5986
敉	-12.5986
杠	-12.5986
耰	-12.5987
坳	-12.5988
杌	-12.5991
竑	-12.5993
眊	-12.5994
朢	-12.5996
罸	-12.6
淅	-12.6057
裸	-12.6091
滚	-12.6092
确	-12.6093
蜻	-12.6094
瞋	-12.6095
捶	-12.6096
闞	-12.6097
卄	-12.6098
贗	-12.6099
澷	-12.6099
踧	-12.61
篡	-12.6107
彜	-12.62
邾	-12.62
饞	-12.6202
狴	-12.6202
鴒	-12.6202
鄺	-12.6203
璁	-12.6204
蝉	-12.6206
惓	-12.6206
稳	-12.6208
齕	-12.6209
箬	-12.6209
鋼	-12.6209
霪	-12.621
脞	-12.6211
勌	-12.6213
燉	-12.6213
芡	-12.6215
冪	-12.6222
輛	-12.6302
韁	-12.631
騧	-12.6313
樣	-12.6314
芭	-12.6315
齓	-12.6315
蹀	-12.6315
罩	-12.6317
埓	-12.6318
萇	-12.632
黿	-12.632
娼	-12.632
烺	-12.6322
蹬	-12.6323
邜	-12.6323
愞	-12.6324
纈	-12.6327
虖	-12.6332
懴	-12.6333
璃	-12.6421
厫	-12.6425
裯	-12.6427
幪	-12.6428
忞	-12.6431
廌	-12.6432
沭	-12.6432
鬖	-12.6433
牓	-12.6433
泒	-12.6434
从	-12.6435
鑊	-12.6435
渫	-12.6437
詼	-12.6438
娣	-12.6439
瀁	-12.6533
莵	-12.6539
凃	-12.6541
澐	-12.6543
鞚	-12.6544
羝	-12.6544
曨	-12.6546
蹏	-12.6546
翽	-12.6549
帘	-12.6549
酗	-12.6553
郯	-12.6554
窹	-12.6554
鏟	-12.6556
熇	-12.6556
嗈	-12.6557
姤	-12.6565
皿	-12.6654
恁	-12.6654
濙	-12.6656
炮	-12.6658
羆	-12.6659
蜓	-12.666
琇	-12.666
澱	-12.666
溼	-12.6661
隩	-12.6661
綌	-12.6663
呐	-12.6663
嬋	-12.6663
匀	-12.6663
洑	-12.6664
丒	-12.6664
隮	-12.6664
串	-12.6664
籃	-12.6664
歈	-12.6665
纇	-12.6667
汧	-12.6669
敡	-12.6669
諝	-12.6672
絰	-12.6672
鬲	-12.6676
闉	-12.6749
璨	-12.677
淝	-12.6773
獮	-12.6774
毶	-12.6776
枻	-12.6777
螳	-12.6779
醬	-12.6779
韈	-12.6779
砍	-12.6779
爱	-12.678
蕐	-12.678
祊	-12.678
箝	-12.6781
鬪	-12.6784
罣	-12.6784
絏	-12.679
鍥	-12.6792
躱	-12.6888
郅	-12.689
戩	-12.6891
暐	-12.6893
喃	-12.6894
浯	-12.6895
夹	-12.6896
醁	-12.6896
虵	-12.6897
鋐	-12.6898
朓	-12.6899
鄜	-12.6901
曀	-12.6902
疥	-12.6904
鷂	-12.6905
讟	-12.6906
呫	-12.6907
捭	-12.6907
䓁	-12.6908
憯	-12.6908
筩	-12.6908
煞	-12.6911
揲	-12.6921
閈	-12.7
菘	-12.7006
蕖	-12.7012
虯	-12.7013
窖	-12.7015
瓮	-12.7015
凹	-12.7015
閠	-12.7015
跅	-12.7017
耜	-12.7019
􁃻	-12.7019
雯	-12.702
怏	-12.702
軏	-12.7021
洶	-12.7021
郜	-12.7022
㴠	-12.7022
鞵	-12.7022
堇	-12.7023
蹉	-12.7023
頖	-12.7024
惄	-12.7024
夤	-12.7026
鮓	-12.7026
繽	-12.7099
鏑	-12.7131
櫽	-12.7135
釭	-12.7136
劎	-12.7139
㡳	-12.714
嶪	-12.714
湟	-12.7141
稡	-12.7142
惚	-12.7142
爆	-12.7143
鐍	-12.7143
繅	-12.7144
稊	-12.7144
嗽	-12.7146
黽	-12.7147
蝎	-12.7148
嘱	-12.715
嵎	-12.715
喣	-12.7152
閡	-12.7154
㕑	-12.7256
旟	-12.7257
鐶	-12.7259
垕	-12.7261
浡	-12.7261
埤	-12.7262
佪	-12.7264
殢	-12.7264
癉	-12.7266
肸	-12.7267
嫚	-12.7267
澀	-12.7267
蟣	-12.7268
骳	-12.7268
霣	-12.7269
觖	-12.727
畣	-12.727
戺	-12.7271
阱	-12.7273
扢	-12.7275
曬	-12.7382
溶	-12.7385
椰	-12.7386
菼	-12.7386
埠	-12.7386
伾	-12.7389
坷	-12.7389
殲	-12.7392
綈	-12.7392
虢	-12.7392
忸	-12.7392
訇	-12.7392
騃	-12.7393
赬	-12.7394
麴	-12.7394
傖	-12.7395
呑	-12.7396
瘉	-12.7396
窑	-12.7509
枷	-12.7512
靨	-12.7512
唄	-12.7513
怜	-12.7513
蟇	-12.7514
瑁	-12.7514
嶰	-12.7516
厎	-12.7516
饍	-12.7517
撙	-12.7518
胔	-12.7518
膜	-12.7519
譸	-12.752
覉	-12.752
酎	-12.752
皛	-12.7521
蜡	-12.7521
忡	-12.7522
囅	-12.7523
碓	-12.7524
邯	-12.7639
雘	-12.7642
璈	-12.7643
睊	-12.7643
㗖	-12.7644
颼	-12.7645
堧	-12.7645
嘒	-12.7645
焱	-12.7646
畒	-12.7647
迍	-12.7647
惺	-12.7647
汍	-12.7648
灕	-12.7649
憖	-12.7649
䆠	-12.7651
匄	-12.7653
擡	-12.7766
寬	-12.7769
髄	-12.7769
琥	-12.7771
槨	-12.7772
种	-12.7776
篴	-12.7777
犄	-12.7777
枿	-12.7778
饘	-12.7783
㛰	-12.7784
呶	-12.7785
惲	-12.7785
称	-12.7786
瘢	-12.7787
垜	-12.7896
咬	-12.7899
谺	-12.79
蜷	-12.79
伋	-12.7903
舷	-12.7904
滎	-12.7904
輗	-12.7904
刎	-12.7904
瘖	-12.7905
蚋	-12.7906
樁	-12.7908
欷	-12.7908
咋	-12.7908
坱	-12.7909
肚	-12.7909
餱	-12.791
溲	-12.7911
侠	-12.7911
霤	-12.7913
軆	-12.7913
覼	-12.7913
穣	-12.7914
聵	-12.7926
騙	-12.803
蠕	-12.8032
蓞	-12.8034
枸	-12.8035
斿	-12.8037
胭	-12.8037
踆	-12.8038
丢	-12.8038
皖	-12.8041
洌	-12.8041
􁅋	-12.8041
龐	-12.8042
舴	-12.8043
憨	-12.8044
鄼	-12.8044
鰕	-12.8044
葅	-12.8045
脰	-12.8047
䡖	-12.8048
塈	-12.805
嵊	-12.805
怔	-12.8054
鷇	-12.8057
澘	-12.815
薜	-12.8164
皪	-12.8167
粳	-12.8168
婪	-12.817
蘸	-12.8171
賃	-12.8171
襆	-12.8171
簽	-12.8172
湓	-12.8172
㬥	-12.8173
啗	-12.8175
媢	-12.8176
秬	-12.8177
袋	-12.8178
蹐	-12.8179
壒	-12.8179
嗛	-12.8179
湃	-12.818
肎	-12.8181
𦦨	-12.8182
秕	-12.8183
􁂗	-12.8184
飊	-12.8185
紞	-12.8303
睞	-12.8304
濞	-12.8305
螣	-12.8307
獒	-12.8308
帡	-12.8311
跫	-12.8311
抺	-12.8311
梃	-12.8311
鄔	-12.8313
櫜	-12.8313
蠒	-12.8314
唼	-12.8314
緍	-12.8314
傺	-12.8316
痡	-12.8316
耔	-12.8317
碾	-12.8317
𠻳	-12.8318
觱	-12.8318
誖	-12.832
儈	-12.832
荳	-12.8322
朒	-12.8322
紵	-12.8437
萏	-12.8446
嵫	-12.8446
㴻	-12.8449
裀	-12.8449
鷴	-12.8449
跕	-12.8449
釴	-12.845
椘	-12.845
鼂	-12.8451
蚕	-12.8451
蹩	-12.8451
龢	-12.8452
蕘	-12.8452
熬	-12.8452
訒	-12.8452
逡	-12.8452
篘	-12.8453
詵	-12.8453
炰	-12.8453
輭	-12.8453
鍪	-12.8454
瞪	-12.8454
觶	-12.8457
譊	-12.8457
呴	-12.846
溍	-12.8461
惮	-12.8462
埧	-12.8462
嶁	-12.8581
傘	-12.8583
韉	-12.8583
玻	-12.8585
苒	-12.8585
哆	-12.8586
仳	-12.8587
偓	-12.8587
叮	-12.8588
鄣	-12.8589
酖	-12.859
獬	-12.859
翾	-12.8591
煨	-12.8594
嫜	-12.8596
轝	-12.8596
跚	-12.8598
㣧	-12.86
撕	-12.86
岢	-12.8603
𤯝	-12.8604
諟	-12.8606
鵜	-12.8729
総	-12.873
幰	-12.873
姣	-12.8731
蹰	-12.8732
蠆	-12.8733
盩	-12.8734
潨	-12.8735
佾	-12.8736
晜	-12.8736
顫	-12.8737
奫	-12.8737
瞍	-12.8737
髹	-12.8738
釧	-12.874
篲	-12.874
砰	-12.8741
覡	-12.8741
俑	-12.8743
僎	-12.8744
葫	-12.887
蹡	-12.8873
紼	-12.8875
楙	-12.8876
袞	-12.8877
煆	-12.8882
稹	-12.8882
殚	-12.8882
鞾	-12.8882
虓	-12.8882
楔	-12.8883
踖	-12.8883
餬	-12.8884
茇	-12.8884
嵋	-12.8884
逑	-12.8885
稲	-12.8885
扑	-12.8886
簏	-12.8889
愓	-12.8889
鶡	-12.9012
濰	-12.9015
鰐	-12.9017
鍧	-12.9022
崙	-12.9022
糝	-12.9023
緌	-12.9025
鳧	-12.9025
泱	-12.9026
鼕	-12.9026
惙	-12.9028
壝	-12.9029
䕷	-12.9029
顗	-12.9029
褘	-12.9029
哽	-12.903
䘖	-12.9031
詧	-12.9032
棬	-12.9032
赱	-12.9034
楗	-12.9036
窬	-12.9036
藋	-12.9038
貙	-12.9038
駰	-12.9039
楝	-12.9039
剷	-12.904
唆	-12.9165
幇	-12.9165
窿	-12.9167
栅	-12.9172
籓	-12.9173
腯	-12.9175
鵑	-12.9175
趄	-12.9178
怩	-12.9179
簔	-12.9179
亹	-12.918
臙	-12.918
劖	-12.9181
饉	-12.9182
悱	-12.9186
洿	-12.9187
伈	-12.9188
捴	-12.9189
釃	-12.9313
薿	-12.9316
嶓	-12.9317
撇	-12.9317
抝	-12.9322
邴	-12.9324
淥	-12.9326
摺	-12.9326
麕	-12.9327
躊	-12.9327
罽	-12.9327
扎	-12.9327
禜	-12.9327
覷	-12.9328
揔	-12.9329
臲	-12.9329
晒	-12.933
駮	-12.933
肪	-12.933
赳	-12.9331
瓏	-12.9331
獍	-12.9331
嫻	-12.9337
𬒮	-12.9337
湾	-12.9365
瀍	-12.9472
簀	-12.9472
桄	-12.9473
顴	-12.9476
蕞	-12.9479
䘵	-12.9479
拽	-12.948
媸	-12.9481
柞	-12.9481
慫	-12.9484
睱	-12.9485
搤	-12.9486
妺	-12.9487
黥	-12.9487
裋	-12.9489
椅	-12.9491
艴	-12.9495
亊	-12.9498
郗	-12.9634
轎	-12.9634
陁	-12.9635
騮	-12.9635
魋	-12.9637
蛆	-12.9638
葯	-12.9638
冣	-12.9639
澳	-12.9639
籛	-12.9639
撡	-12.964
禴	-12.9641
靉	-12.9642
鳲	-12.9643
菶	-12.9644
蔦	-12.9646
玳	-12.9787
谽	-12.9792
瑱	-12.9794
匭	-12.9794
嚌	-12.9796
懔	-12.9796
怎	-12.9796
敺	-12.9797
傀	-12.9797
噏	-12.9797
餮	-12.9797
蕢	-12.9797
𦍑	-12.9797
渣	-12.9798
疃	-12.9799
篳	-12.98
瞷	-12.98
捽	-12.9801
痔	-12.9802
猘	-12.9802
𫐠	-12.9812
爚	-12.9944
匙	-12.9947
罡	-12.9948
菹	-12.9951
拷	-12.9953
卲	-12.9953
茜	-12.9954
鞬	-12.9954
茟	-12.9954
党	-12.9955
萹	-12.9955
澎	-12.9956
韝	-12.9956
鶵	-12.9958
稾	-12.9958
濘	-12.9959
侖	-12.9959
糅	-12.9959
儺	-12.9959
鑕	-12.996
嘈	-12.9963
侘	-12.9963
蛸	-12.9964
駔	-12.9965
鸜	-12.9965
鎪	-12.9965
睟	-12.9966
褻	-12.9966
翶	-12.9969
錘	-12.9969
鷟	-12.997
豬	-13.0111
茄	-13.0114
轓	-13.0115
珞	-13.0116
蓺	-13.0117
献	-13.0118
屇	-13.0121
衎	-13.0121
籕	-13.0123
縗	-13.0125
侂	-13.0125
袝	-13.0126
嫕	-13.0126
胤	-13.0128
雊	-13.0131
鯖	-13.0131
闒	-13.0132
鵓	-13.0132
劓	-13.0133
辞	-13.0135
篝	-13.0259
瑑	-13.0264
蝀	-13.0275
侁	-13.0278
仿	-13.0283
頟	-13.0283
姐	-13.0283
頀	-13.0283
崿	-13.0286
珈	-13.0286
汸	-13.0286
聱	-13.0287
溽	-13.0288
􁛰	-13.0288
籯	-13.0288
岵	-13.0289
嵲	-13.029
纚	-13.0291
漈	-13.0291
䴡	-13.0291
倂	-13.0291
帢	-13.0291
薅	-13.0292
芑	-13.0294
谼	-13.0295
檉	-13.0295
􁲍	-13.0298
􁡾	-13.0299
啻	-13.0373
馗	-13.0443
轗	-13.0446
捎	-13.0446
砉	-13.0447
顦	-13.045
繰	-13.0452
怊	-13.0454
营	-13.0457
狭	-13.0458
圽	-13.0459
剉	-13.046
糚	-13.0461
氲	-13.0461
觝	-13.0461
徕	-13.0463
焕	-13.0464
棖	-13.0465
耼	-13.0467
㰱	-13.0471
体	-13.0473
瘼	-13.0607
醋	-13.0624
欤	-13.0625
攔	-13.0625
鞲	-13.0625
哮	-13.0625
佽	-13.0626
姙	-13.0627
瀠	-13.0627
瓔	-13.0627
帋	-13.0627
涑	-13.0628
匾	-13.0628
薋	-13.0628
槌	-13.0629
鮭	-13.0629
搃	-13.063
俜	-13.063
焄	-13.0631
痌	-13.0633
晢	-13.0634
藟	-13.0635
蹭	-13.0636
芲	-13.0638
疉	-13.0638
胾	-13.0639
酺	-13.064
螻	-13.0793
逌	-13.0795
岏	-13.0799
拗	-13.0801
鍋	-13.0802
曕	-13.0802
牁	-13.0802
邐	-13.0803
綮	-13.0803
岧	-13.0804
縵	-13.0804
蛉	-13.0805
觕	-13.0806
霂	-13.0806
餖	-13.0806
歕	-13.0807
俺	-13.0809
捃	-13.0809
蒺	-13.0809
溔	-13.0811
㮄	-13.0815
橡	-13.0815
砆	-13.0816
媼	-13.0828
褎	-13.0956
慌	-13.0969
㯽	-13.0973
駃	-13.0976
絨	-13.0977
醻	-13.0978
鴇	-13.0978
泬	-13.0978
枹	-13.0979
斲	-13.0979
趯	-13.098
裭	-13.0981
厔	-13.0982
𢷬	-13.0982
睍	-13.0982
痞	-13.0983
涣	-13.0984
瑚	-13.0984
柙	-13.0984
鸚	-13.0985
媕	-13.0985
忼	-13.0987
𡵨	-13.0988
矱	-13.0989
礬	-13.0991
搥	-13.0991
躳	-13.0991
牿	-13.0991
􁈍	-13.0993
飀	-13.1156
妤	-13.1159
嵯	-13.116
匵	-13.116
圞	-13.1162
趦	-13.1162
賺	-13.1163
窱	-13.1163
齠	-13.1163
宁	-13.1164
屼	-13.1164
屆	-13.1164
棒	-13.1165
鎛	-13.1166
彷	-13.1166
飪	-13.1167
徨	-13.1168
箒	-13.1168
迁	-13.1169
剚	-13.1171
慆	-13.1171
瀡	-13.1171
蹣	-13.1172
驌	-13.1172
玭	-13.1174
嘑	-13.1175
戬	-13.118
嚄	-13.1182
遝	-13.1339
喀	-13.134
苹	-13.134
鰣	-13.1341
貊	-13.1343
桶	-13.1343
蝌	-13.1344
欸	-13.1347
姫	-13.1348
嬿	-13.1349
軛	-13.1349
綣	-13.1349
灊	-13.135
鬆	-13.1351
縋	-13.1352
禡	-13.1354
趫	-13.1354
鼾	-13.1356
灸	-13.1356
檮	-13.1357
硏	-13.1358
搒	-13.1358
觳	-13.1359
碔	-13.1361
憬	-13.1363
􁂰	-13.1365
摋	-13.1369
絛	-13.1528
姍	-13.1529
蓆	-13.1532
騂	-13.1535
穂	-13.1535
蔌	-13.1536
嚭	-13.1537
黧	-13.1537
芼	-13.1537
蝮	-13.1537
𣪚	-13.1538
睆	-13.1538
眡	-13.1539
聪	-13.154
蠣	-13.154
梔	-13.154
澦	-13.1541
倕	-13.1542
纆	-13.1543
蕆	-13.1543
胝	-13.1543
鼃	-13.1545
佔	-13.1545
葹	-13.1546
鮐	-13.1547
滫	-13.1547
淶	-13.1548
僝	-13.1549
姁	-13.1549
辝	-13.155
峝	-13.1551
酆	-13.1556
豨	-13.1557
槱	-13.156
渼	-13.156
赩	-13.172
郇	-13.1722
岣	-13.1723
樅	-13.1723
麵	-13.1724
尢	-13.1725
􁉤	-13.1726
㗸	-13.1726
珫	-13.1727
霡	-13.1728
薶	-13.173
騋	-13.173
槧	-13.173
纑	-13.173
兜	-13.1732
瘏	-13.1734
欬	-13.1734
㙮	-13.1735
痏	-13.1735
飰	-13.1735
褪	-13.1735
肹	-13.1736
眤	-13.1736
僥	-13.1736
恇	-13.1737
㫋	-13.1737
虩	-13.1739
旤	-13.1742
𧖟	-13.1742
坍	-13.1912
簴	-13.192
炅	-13.1922
齦	-13.1925
躚	-13.1926
咍	-13.1926
鎦	-13.1927
糒	-13.1928
郫	-13.1929
踘	-13.193
檏	-13.193
斮	-13.193
檗	-13.193
洚	-13.1931
餳	-13.1932
喋	-13.1933
悢	-13.1933
蠨	-13.1934
蜑	-13.1935
昪	-13.1935
胠	-13.1938
鱖	-13.2117
傞	-13.212
珦	-13.2121
矞	-13.2122
鷖	-13.2125
醽	-13.2125
囯	-13.2125
杙	-13.2126
栱	-13.2127
碪	-13.2127
莪	-13.2128
腠	-13.2129
甆	-13.213
妁	-13.213
岊	-13.213
囦	-13.2132
觫	-13.2132
訑	-13.2132
瘃	-13.2133
唏	-13.2133
鵶	-13.2134
痘	-13.2136
濈	-13.2136
餕	-13.2136
蒜	-13.2136
㳤	-13.2139
贒	-13.2143
穪	-13.2143
夬	-13.2144
澚	-13.2146
糵	-13.2148
輋	-13.2314
􁇢	-13.2319
盒	-13.2319
紃	-13.2321
捋	-13.2325
鮪	-13.2326
攴	-13.2326
佶	-13.2328
熺	-13.2329
玫	-13.2329
璡	-13.2329
螗	-13.2329
騅	-13.233
踴	-13.233
泂	-13.2331
艎	-13.2331
舲	-13.2331
腓	-13.2332
醆	-13.2332
鯈	-13.2333
抨	-13.2333
适	-13.2333
徉	-13.2333
傒	-13.2334
敔	-13.2335
榾	-13.2336
鞦	-13.2336
痍	-13.2336
祻	-13.2336
睎	-13.2337
侄	-13.2337
劳	-13.2338
蓏	-13.2339
鯢	-13.2342
粃	-13.2346
滹	-13.2529
鞘	-13.2529
嚳	-13.2531
朙	-13.2532
雰	-13.2532
鞿	-13.2535
笮	-13.2536
㐲	-13.2536
鶖	-13.2537
嚅	-13.2538
筥	-13.2538
闃	-13.2539
餧	-13.2539
醎	-13.254
鼪	-13.254
礼	-13.2541
凸	-13.2541
瘐	-13.2542
礟	-13.2542
屫	-13.2543
駬	-13.2544
栩	-13.2545
琖	-13.2548
蕾	-13.2551
梦	-13.2551
梲	-13.2552
仐	-13.2553
鈕	-13.2737
巑	-13.2744
汳	-13.2745
栻	-13.2747
儤	-13.2748
頮	-13.2749
甡	-13.2751
䓗	-13.2751
譾	-13.2752
鞞	-13.2753
洏	-13.2753
朏	-13.2754
歜	-13.2755
醨	-13.2755
蜉	-13.2756
牾	-13.2757
惛	-13.276
鉶	-13.276
笫	-13.2761
趐	-13.2761
唉	-13.2762
恆	-13.2764
蝝	-13.2779
叄	-13.2951
澼	-13.2957
洱	-13.296
珷	-13.2962
玁	-13.2962
驃	-13.2963
𢋫	-13.2965
亍	-13.2966
瀲	-13.2967
駪	-13.2968
膊	-13.2969
憙	-13.297
筤	-13.297
騊	-13.297
甖	-13.2972
搰	-13.2972
駼	-13.2972
眵	-13.2972
灺	-13.2973
𫾣	-13.2974
彯	-13.2974
暏	-13.2975
圠	-13.2976
宂	-13.2976
禬	-13.2976
蓧	-13.2977
朐	-13.2978
鎌	-13.2981
螙	-13.2981
榷	-13.2982
墁	-13.2983
􁒍	-13.2988
珌	-13.318
蠋	-13.3185
熛	-13.3185
燹	-13.3185
摐	-13.3186
俵	-13.3186
搪	-13.3186
揄	-13.319
莧	-13.3191
筲	-13.3191
縧	-13.3192
洢	-13.3192
坫	-13.3192
紕	-13.3193
攟	-13.3193
𪠘	-13.3194
胖	-13.3195
􁒽	-13.3195
洹	-13.3196
􁆒	-13.3197
氤	-13.3198
羑	-13.32
瑢	-13.32
畇	-13.3203
抖	-13.3207
懃	-13.3208
訿	-13.3216
<	-13.3409
t	-13.3409
鷸	-13.3409
賍	-13.3411
贇	-13.3411
蜾	-13.3414
杇	-13.3415
煅	-13.3415
燀	-13.3415
烙	-13.3416
慓	-13.3416
齁	-13.3417
蜒	-13.3417
鰌	-13.3417
祏	-13.3417
䢴	-13.3418
嬙	-13.3418
鋌	-13.342
圏	-13.342
蒱	-13.3421
趕	-13.3421
唤	-13.3422
珝	-13.3423
􁃽	-13.3424
籹	-13.3424
殣	-13.3425
粻	-13.3426
裼	-13.343
顕	-13.343
𢥠	-13.343
𥅆	-13.3435
酇	-13.3438
幗	-13.364
噶	-13.3641
䁀	-13.3643
蹮	-13.3644
窰	-13.3645
臏	-13.3646
嚦	-13.3646
芙	-13.3647
膻	-13.3647
踟	-13.3647
􁃔	-13.3647
彳	-13.3647
甽	-13.3648
燖	-13.3648
幛	-13.3648
􁈼	-13.3648
櫨	-13.3649
璹	-13.3649
喤	-13.365
桅	-13.3652
佖	-13.3653
份	-13.3653
嘽	-13.3653
襞	-13.3654
窔	-13.3654
廚	-13.3654
薖	-13.3654
哢	-13.3654
駸	-13.3655
驎	-13.3656
凴	-13.3656
牷	-13.3656
錞	-13.3657
双	-13.3658
疼	-13.3658
囈	-13.3658
蚍	-13.3658
咮	-13.3659
楘	-13.3659
咆	-13.3659
匜	-13.3659
圬	-13.3661
臓	-13.3662
㫪	-13.3663
籧	-13.3665
惧	-13.3667
嘬	-13.3668
孌	-13.3671
硿	-13.3674
褷	-13.3878
韀	-13.3884
懆	-13.3886
洴	-13.3886
崘	-13.3886
豭	-13.3888
頬	-13.3888
漻	-13.3889
漷	-13.389
皸	-13.389
皡	-13.389
邛	-13.3891
鸑	-13.3892
斨	-13.3892
浜	-13.3893
詁	-13.3894
㢮	-13.3895
吚	-13.3895
黮	-13.3896
慍	-13.3896
畈	-13.3897
戻	-13.3897
歗	-13.3897
隟	-13.3898
箆	-13.3898
阬	-13.3899
馹	-13.3904
僾	-13.3905
尻	-13.3908
玕	-13.4113
鼒	-13.4117
們	-13.412
婕	-13.4122
槭	-13.4127
灂	-13.4127
褵	-13.4128
氈	-13.413
湩	-13.4132
䔩	-13.4133
獧	-13.4133
朦	-13.4134
礴	-13.4134
窞	-13.4134
艨	-13.4134
甪	-13.4134
倮	-13.4135
[...]
