<unk>	0
<s>	0
</s>	0
之	-4.27302
而	-4.82569
/	-4.83444
(	-4.951
以	-5.05374
也	-5.19846
)	-5.22716
有	-5.34261
為	-5.35766
其	-5.39578
於	-5.40665
不	-5.48907
者	-5.5651
人	-5.58847
一	-5.71875
無	-5.76056
自	-5.97026
則	-5.99209
與	-6.01327
)(	-6.01425
行	-6.03968
上	-6.0654
中	-6.08724
曰	-6.08943
如	-6.10289
天	-6.13168
時	-6.15903
山	-6.16038
大	-6.17726
子	-6.18361
在	-6.18709
公	-6.1927
生	-6.20373
作	-6.20945
見	-6.29993
得	-6.30231
此	-6.31749
/)	-6.32072
王	-6.32946
言	-6.33793
兮	-6.33935
心	-6.3431
事	-6.34723
書	-6.35095
日	-6.35727
下	-6.35928
水	-6.37143
文	-6.3811
君	-6.38672
出	-6.39071
長	-6.39189
道	-6.41402
風	-6.41692
所	-6.43646
明	-6.44066
是	-6.44464
故	-6.46551
來	-6.47629
詩	-6.47672
歸	-6.48087
雲	-6.51183
至	-6.52461
多	-6.54153
我	-6.54916
春	-6.55238
同	-6.55422
相	-6.5591
三	-6.56087
已	-6.56797
欲	-6.56905
知	-6.56997
非	-6.57311
入	-6.58234
乎	-6.59204
成	-6.594
亦	-6.60414
可	-6.62307
若	-6.63248
去	-6.6419
又	-6.65195
然	-6.6634
將	-6.66803
未	-6.67051
清	-6.6758
▁	-6.67822
名	-6.6872
矣	-6.68962
皆	-6.69719
今	-6.70369
逺	-6.70882
復	-6.71439
花	-6.71475
何	-6.71745
方	-6.72084
臣	-6.72718
重	-6.73257
于	-6.73805
使	-6.75361
當	-6.75465
思	-6.78516
月	-6.78874
聞	-6.78912
乃	-6.79118
石	-6.79148
從	-6.80059
髙	-6.80779
過	-6.81971
一作	-6.8201
空	-6.82042
深	-6.82272
盡	-6.82541
前	-6.83398
後	-6.83521
地	-6.83785
正	-6.85081
新	-6.85308
官	-6.85863
家	-6.86198
用	-6.86556
金	-6.87284
聲	-6.87897
玉	-6.8816
秋	-6.90254
初	-6.90649
開	-6.90923
飛	-6.91076
能	-6.9226
流	-6.92502
焉	-6.92605
老	-6.93233
望	-6.9372
寒	-6.93927
南	-6.94336
傳	-6.9475
分	-6.95677
居	-6.96479
還	-6.96876
意	-6.96895
州	-6.97355
元	-6.97388
樂	-6.9769
二	-6.97805
世	-6.9797
雖	-6.98123
及	-6.9837
獨	-6.98637
應	-6.99306
西	-7.00142
客	-7.0025
平	-7.00931
安	-7.01107
既	-7.01184
且	-7.01577
國	-7.01997
猶	-7.02285
惟	-7.02289
字	-7.02434
和	-7.02607
起	-7.027
或	-7.03536
朝	-7.03621
門	-7.03808
因	-7.04095
光	-7.0426
小	-7.05279
處	-7.05366
更	-7.05381
難	-7.05555
白	-7.0561
夜	-7.05817
氣	-7.05995
古	-7.0633
命	-7.06675
歌	-7.06738
東	-7.06971
立	-7.07491
賦	-7.07533
神	-7.07548
五	-7.07611
雨	-7.07791
夫	-7.08416
吾	-7.08623
身	-7.09449
四	-7.11079
必	-7.1131
學	-7.1198
令	-7.1215
先	-7.12247
好	-7.12331
馬	-7.12505
通	-7.12941
年	-7.13015
謂	-7.13127
民	-7.13232
兵	-7.13381
爲	-7.15027
觀	-7.15292
情	-7.15635
發	-7.1631
林	-7.17054
外	-7.17197
常	-7.17388
酒	-7.17822
城	-7.17877
經	-7.18063
路	-7.18252
陳	-7.18319
漢	-7.18607
周	-7.19428
龍	-7.19607
興	-7.19618
江	-7.1985
張	-7.20085
士	-7.20534
法	-7.2148
遊	-7.22562
徳	-7.23268
論	-7.24148
樹	-7.25356
遂	-7.2558
題	-7.25597
始	-7.26293
華	-7.26333
舊	-7.26476
禮	-7.26782
香	-7.27124
實	-7.27301
善	-7.2742
死	-7.27715
數	-7.27819
本	-7.28304
莫	-7.28382
云	-7.28567
寄	-7.28889
海	-7.29322
合	-7.29505
送	-7.2965
問	-7.29709
坐	-7.30607
師	-7.30962
間	-7.31007
圖	-7.31256
少	-7.31453
絶	-7.31684
集	-7.31974
近	-7.32285
青	-7.32582
向	-7.32591
别	-7.32625
易	-7.32826
信	-7.32941
似	-7.33005
兩	-7.33256
物	-7.33278
尚	-7.33362
李	-7.33363
動	-7.33694
九	-7.34143
帝	-7.34168
舉	-7.34285
衣	-7.35619
陽	-7.35794
北	-7.36111
義	-7.36679
守	-7.36982
曲	-7.37104
取	-7.3751
靈	-7.37563
色	-7.38439
哉	-7.38539
即	-7.38694
理	-7.38892
稱	-7.39059
宫	-7.39072
諸	-7.39148
定	-7.39152
志	-7.39186
草	-7.39199
唐	-7.39282
黄	-7.39808
竹	-7.40592
天下	-7.40787
不可	-7.40905
亂	-7.41392
語	-7.4169
節	-7.41839
落	-7.41879
共	-7.42201
求	-7.42588
滿	-7.43187
景	-7.43229
輕	-7.43241
齊	-7.43353
雪	-7.44392
幽	-7.44612
宜	-7.4498
臨	-7.44987
親	-7.45026
度	-7.45698
終	-7.45841
真	-7.46113
爾	-7.46311
登	-7.46631
秦	-7.47587
辭	-7.47826
以為	-7.48005
田	-7.48256
百	-7.48413
異	-7.48492
豈	-7.48786
萬	-7.49567
直	-7.50033
餘	-7.50094
野	-7.50178
,	-7.51313
六	-7.51324
愁	-7.52191
賢	-7.52816
衆	-7.5283
高	-7.52908
閒	-7.53644
對	-7.53731
武	-7.5395
不能	-7.54077
㑹	-7.54104
彼	-7.54579
食	-7.54619
隨	-7.54946
宋	-7.55336
力	-7.55998
進	-7.5645
孤	-7.56551
内	-7.56739
聖	-7.56962
看	-7.57137
留	-7.57457
功	-7.57669
氏	-7.58183
葉	-7.58192
足	-7.58377
予	-7.58504
垂	-7.58559
誰	-7.59188
懐	-7.59544
到	-7.59909
耳	-7.60091
失	-7.60148
畫	-7.61094
隂	-7.61187
任	-7.61252
載	-7.61276
連	-7.61336
半	-7.61847
驚	-7.6192
女	-7.62046
治	-7.62205
封	-7.6231
紅	-7.6256
奉	-7.6265
服	-7.62762
固	-7.62953
化	-7.6339
致	-7.63509
塵	-7.63992
散	-7.64234
而不	-7.64384
請	-7.64489
政	-7.64703
鳴	-7.64918
頭	-7.65004
等	-7.65017
才	-7.65136
車	-7.65387
制	-7.65387
臺	-7.6552
變	-7.65977
斯	-7.6604
主	-7.66132
宗	-7.66137
楚	-7.66227
喜	-7.66265
容	-7.66629
勝	-7.67214
素	-7.67225
德	-7.67455
魚	-7.67465
疑	-7.67933
軍	-7.6853
仙	-7.68548
窮	-7.6856
夢	-7.68625
都	-7.68683
謝	-7.68886
章	-7.68949
梁	-7.69016
交	-7.69031
寺	-7.69101
劉	-7.69273
顧	-7.69313
良	-7.69584
余	-7.70142
先生	-7.70192
溪	-7.70318
轉	-7.7036
贈	-7.70821
星	-7.71034
縣	-7.71418
甚	-7.7148
表	-7.71537
微	-7.7155
河	-7.7177
記	-7.71904
廣	-7.7201
木	-7.72032
泉	-7.72093
羣	-7.72254
誠	-7.72274
感	-7.72308
久	-7.72316
邊	-7.72345
期	-7.72487
遺	-7.72881
愛	-7.72938
土	-7.73085
受	-7.73611
醉	-7.73684
仁	-7.74005
夏	-7.74097
永	-7.74192
著	-7.7431
悲	-7.74345
亭	-7.74415
鳥	-7.75526
影	-7.75663
聽	-7.75923
極	-7.75932
美	-7.76027
侯	-7.76351
浮	-7.76523
首	-7.77191
照	-7.77455
利	-7.77573
忽	-7.77576
千	-7.777
解	-7.78181
教	-7.78363
巳	-7.78671
修	-7.78747
音	-7.78761
苦	-7.79103
卒	-7.79116
奏	-7.79257
不知	-7.79343
結	-7.7949
病	-7.79823
宿	-7.79867
徒	-7.7991
𤣥	-7.7998
尋	-7.80161
引	-7.80163
手	-7.8033
吏	-7.80459
煙	-7.80481
堂	-7.80683
松	-7.80785
益	-7.81921
比	-7.81968
府	-7.82032
燕	-7.8222
承	-7.82237
目	-7.82367
吟	-7.82385
霜	-7.82504
識	-7.82912
露	-7.83035
次	-7.83285
樓	-7.8334
皇	-7.83353
斷	-7.83356
所以	-7.83467
晉	-7.83567
嵗	-7.83832
十	-7.84053
休	-7.84138
亡	-7.84273
寧	-7.84405
兼	-7.84538
薄	-7.84627
移	-7.84653
伯	-7.84698
願	-7.84777
體	-7.85162
貴	-7.85324
庭	-7.85379
賜	-7.85617
精	-7.85652
波	-7.86217
憂	-7.86317
八	-7.86385
舞	-7.86399
恩	-7.86565
曉	-7.86751
越	-7.86874
列	-7.86916
議	-7.86953
朱	-7.86971
巻	-7.87026
俗	-7.87121
凡	-7.87459
離	-7.87558
詔	-7.87562
之所	-7.87852
史	-7.87991
芳	-7.88093
遷	-7.88123
父	-7.8885
雙	-7.88867
盛	-7.89413
七	-7.89484
鄉	-7.89936
陵	-7.9002
郡	-7.90105
念	-7.90278
反	-7.90558
昔	-7.90732
不得	-7.90855
止	-7.91011
来	-7.91054
便	-7.91913
存	-7.91934
並	-7.92127
吳	-7.92224
視	-7.9237
火	-7.9297
口	-7.93241
崇	-7.93384
許	-7.93743
翠	-7.94066
懷	-7.94113
屬	-7.94192
笑	-7.94266
計	-7.94609
惡	-7.95042
虚	-7.95048
傷	-7.9521
池	-7.95372
游	-7.95539
待	-7.95588
裏	-7.95597
幸	-7.95728
却	-7.95964
趙	-7.95982
殿	-7.96024
竒	-7.96124
加	-7.96183
被	-7.96257
象	-7.9635
建	-7.9645
勞	-7.96576
破	-7.96592
。	-7.96809
降	-7.96904
御	-7.96991
尊	-7.97198
忠	-7.97602
拜	-7.97838
代	-7.98077
哀	-7.98133
碧	-7.98302
説	-7.98335
閣	-7.98337
飲	-7.98441
謀	-7.98546
序	-7.98823
獻	-7.98857
敬	-7.99081
宣	-7.99121
枝	-7.99148
榮	-7.99152
位	-7.99742
戰	-7.9976
室	-8.00377
鶴	-8.00377
横	-8.00471
僧	-8.00639
積	-8.008
舟	-8.01056
闕	-8.01288
往	-8.01515
幾	-8.01561
暮	-8.01607
嘗	-8.01771
持	-8.02502
由	-8.02514
嚴	-8.02636
魏	-8.0271
號	-8.02861
形	-8.03157
要	-8.03392
指	-8.03641
嘉	-8.03681
俱	-8.03766
集作	-8.03944
類	-8.04007
報	-8.0427
全	-8.04365
遇	-8.04379
祖	-8.04436
荒	-8.04474
孫	-8.04754
疾	-8.04763
性	-8.04887
晚	-8.05005
胡	-8.05068
殘	-8.05212
就	-8.05326
楊	-8.05444
除	-8.05444
依	-8.0559
澤	-8.05754
適	-8.05927
業	-8.05948
改	-8.05989
君子	-8.06113
授	-8.06281
殊	-8.06494
右	-8.06858
沙	-8.06981
各	-8.0702
帶	-8.07071
昭	-8.07327
蘭	-8.07463
但	-8.07676
紀	-8.07909
天子	-8.0794
備	-8.08002
危	-8.0815
藏	-8.08235
兹	-8.08326
川	-8.08327
急	-8.08391
韻	-8.08415
緑	-8.08532
孝	-8.08538
司	-8.08559
威	-8.09841
罷	-8.09847
郎	-8.101
徐	-8.10124
廟	-8.10125
卿	-8.1016
具	-8.10339
負	-8.10655
接	-8.10674
賞	-8.1079
篇	-8.1097
羅	-8.11119
咸	-8.11964
太	-8.11994
左	-8.12013
回	-8.12101
含	-8.12126
逐	-8.12181
沈	-8.12204
原	-8.12458
揚	-8.1251
汝	-8.12572
養	-8.12696
萬里	-8.12864
逢	-8.12888
早	-8.12909
千里	-8.13013
省	-8.13039
試	-8.1311
可以	-8.13234
栁	-8.13241
錢	-8.13275
置	-8.13478
蓋	-8.13489
丹	-8.13607
厚	-8.13761
闗	-8.13932
英	-8.13991
息	-8.14016
怨	-8.14541
詞	-8.14555
放	-8.14647
恨	-8.14867
折	-8.14938
廢	-8.15054
塞	-8.1525
工	-8.15371
須	-8.15873
烟	-8.16131
仲	-8.16263
寳	-8.16283
簡	-8.16619
隔	-8.16741
勢	-8.16856
里	-8.17218
梅	-8.17267
追	-8.17376
每	-8.17826
吹	-8.17933
收	-8.18006
夕	-8.18212
切	-8.18294
伏	-8.18349
母	-8.18418
再	-8.18485
順	-8.18598
筆	-8.1869
紫	-8.18747
倚	-8.19273
推	-8.19438
告	-8.19479
恐	-8.1953
雜	-8.19952
殺	-8.20047
於是	-8.20114
忘	-8.20272
典	-8.20355
端	-8.20605
谷	-8.21216
憶	-8.21453
面	-8.21548
濟	-8.21645
屋	-8.21711
珠	-8.22035
隠	-8.22169
巖	-8.22177
軒	-8.22209
調	-8.2225
晩	-8.2237
歡	-8.23337
如此	-8.23575
曽	-8.23599
果	-8.23632
船	-8.23887
施	-8.24073
乗	-8.24324
職	-8.24339
運	-8.24467
橋	-8.24835
衰	-8.24944
園	-8.25292
關	-8.25824
詠	-8.26158
雄	-8.26372
懸	-8.26517
仰	-8.26524
漸	-8.2686
陛下	-8.26874
達	-8.27065
烏	-8.27091
曹	-8.27134
布	-8.27348
延	-8.27607
遣	-8.27681
傾	-8.27714
者也	-8.27728
務	-8.28014
慶	-8.28037
考	-8.28241
繼	-8.28325
兒	-8.28403
友	-8.28617
執	-8.28629
翁	-8.28668
權	-8.28858
累	-8.28902
滅	-8.2928
虎	-8.29478
将	-8.29581
棄	-8.29652
妙	-8.2993
爭	-8.30457
顔	-8.30504
鄭	-8.30817
仍	-8.3095
福	-8.30956
顯	-8.30997
市	-8.312
冠	-8.31295
邑	-8.31583
細	-8.31821
晴	-8.31859
邪	-8.31936
禁	-8.31976
暗	-8.32213
魯	-8.32219
峰	-8.32354
騎	-8.32477
静	-8.32641
機	-8.32643
丘	-8.32691
私	-8.3271
薦	-8.32894
種	-8.32913
質	-8.32936
投	-8.33077
唯	-8.33162
齋	-8.33213
迎	-8.33581
尤	-8.3385
克	-8.33934
覺	-8.34115
湖	-8.34157
走	-8.34176
呉	-8.34304
駕	-8.34406
惠	-8.34409
絲	-8.34418
蜀	-8.3451
選	-8.34513
說	-8.34595
夷	-8.34761
句	-8.3479
智	-8.34872
二首	-8.34948
秀	-8.35139
歴	-8.35251
宴	-8.35348
羽	-8.3544
麗	-8.35496
振	-8.35561
儀	-8.35936
最	-8.36014
拂	-8.36015
疎	-8.36022
映	-8.36026
呼	-8.36076
愚	-8.36185
率	-8.36321
讀	-8.36358
逸	-8.36422
牛	-8.36702
維	-8.36876
注	-8.36941
步	-8.37158
琴	-8.3725
錦	-8.3773
約	-8.37812
遲	-8.37846
根	-8.38202
叔	-8.38367
凝	-8.38432
特	-8.38436
歎	-8.38475
遥	-8.38709
天地	-8.3875
靜	-8.38844
堪	-8.38921
短	-8.3904
敢	-8.39134
岸	-8.39163
商	-8.39603
盤	-8.39651
征	-8.39658
韓	-8.39735
律	-8.39899
雅	-8.40086
所謂	-8.40252
保	-8.40344
賊	-8.40353
設	-8.40395
善曰	-8.40502
罪	-8.40536
不敢	-8.40574
陸	-8.40672
造	-8.40735
淚	-8.40751
營	-8.40764
葢	-8.40796
偏	-8.41204
習	-8.41532
冷	-8.41538
召	-8.4165
㣲	-8.41675
刑	-8.41807
强	-8.41816
迷	-8.42342
資	-8.4242
嶺	-8.4249
訪	-8.42526
隱	-8.42535
藥	-8.42673
慮	-8.42789
井	-8.42929
乆	-8.4297
翻	-8.43377
祠	-8.43443
器	-8.43474
招	-8.43486
耶	-8.43556
敗	-8.43682
春秋	-8.43686
逰	-8.44084
壁	-8.44345
昌	-8.44525
春風	-8.44558
况	-8.44652
角	-8.44773
某	-8.44802
退	-8.44931
聚	-8.44957
盖	-8.45024
館	-8.4505
想	-8.45158
貞	-8.45243
戒	-8.45261
條	-8.45394
浪	-8.4544
是以	-8.45532
響	-8.45576
歲	-8.45638
徑	-8.45756
迴	-8.45808
獲	-8.4591
撫	-8.46134
骨	-8.46284
抱	-8.46311
蒼	-8.46328
斜	-8.4638
舍	-8.46534
只	-8.46691
白雲	-8.4682
曾	-8.46861
貧	-8.47431
鼓	-8.47462
跡	-8.47627
委	-8.47651
卧	-8.47866
將軍	-8.47895
村	-8.47942
程	-8.48045
鏡	-8.48065
宅	-8.48461
隆	-8.48531
至於	-8.48543
季	-8.486
覆	-8.48651
示	-8.48867
博	-8.48919
祭	-8.49079
不見	-8.49144
赤	-8.49212
馳	-8.49233
升	-8.49483
佛	-8.49614
洞	-8.49731
勤	-8.49738
户	-8.49805
符	-8.49976
郭	-8.50102
聖人	-8.50723
赴	-8.50893
儒	-8.51196
納	-8.51198
射	-8.51265
惜	-8.51289
采	-8.5138
怒	-8.51591
管	-8.51846
勿	-8.51882
鴻	-8.51895
衛	-8.52027
畏	-8.52049
冬	-8.52165
房	-8.52269
附	-8.52286
繁	-8.52438
乘	-8.52753
弟	-8.52824
偶	-8.52917
甘	-8.53112
鼎	-8.53198
虞	-8.53218
辨	-8.53326
翼	-8.53536
末	-8.53575
不足	-8.54026
院	-8.54073
懼	-8.54084
厥	-8.5409
刻	-8.54113
棲	-8.54271
大夫	-8.54296
侵	-8.54315
縱	-8.54358
避	-8.54735
婦	-8.54805
富	-8.54857
䇿	-8.55012
其所	-8.55093
肅	-8.55139
掩	-8.55152
背	-8.55251
答	-8.55302
鎮	-8.55313
庶	-8.55344
霞	-8.55432
弗	-8.55629
禪	-8.5568
申	-8.55809
今日	-8.55817
孟	-8.56008
擊	-8.56046
鳳	-8.56123
郊	-8.56272
銘	-8.56461
峯	-8.56553
眼	-8.5657
違	-8.56633
擬	-8.56699
總	-8.5672
何處	-8.56741
材	-8.5684
謹	-8.5742
趨	-8.57542
充	-8.57547
并	-8.57668
荷	-8.57786
盈	-8.57837
憐	-8.57989
康	-8.58049
席	-8.5814
衡	-8.58164
祀	-8.58279
履	-8.58374
免	-8.58474
碑	-8.58592
戎	-8.58749
温	-8.58755
甲	-8.58782
源	-8.58795
淵	-8.58993
夀	-8.59095
慕	-8.59165
卷	-8.59282
迹	-8.59383
桂	-8.59389
三年	-8.59474
䝉	-8.59506
境	-8.59903
役	-8.59962
伐	-8.6006
陰	-8.60073
奔	-8.60217
補	-8.60239
蘇	-8.60257
京	-8.60278
啓	-8.60342
霧	-8.60687
弱	-8.60819
述	-8.60937
尚書	-8.6099
杜	-8.61039
諸侯	-8.61062
堅	-8.61089
誅	-8.6112
寵	-8.61334
靡	-8.61342
孔	-8.61383
雁	-8.61413
敵	-8.61719
鴈	-8.61762
寛	-8.61774
禽	-8.61914
傍	-8.62094
竟	-8.62369
悉	-8.62457
假	-8.62617
按	-8.6263
鳯	-8.62924
豐	-8.63427
險	-8.63584
候	-8.63816
竊	-8.63956
江南	-8.64041
恭	-8.64223
釋	-8.6432
無所	-8.64416
參	-8.64717
託	-8.64763
日月	-8.64772
疏	-8.64824
耕	-8.64903
人之	-8.65076
凉	-8.65083
狀	-8.65103
墨	-8.65226
茂	-8.65322
聊	-8.65443
蕭	-8.6546
階	-8.65784
狂	-8.6615
錫	-8.66202
阿	-8.66347
殷	-8.664
渡	-8.66487
愈	-8.66547
縁	-8.66637
泥	-8.66751
住	-8.66764
爵	-8.66796
察	-8.66864
談	-8.66965
族	-8.66978
瑞	-8.67025
毛	-8.67153
患	-8.67262
旅	-8.67308
之間	-8.67396
𢎞	-8.675
覽	-8.67628
邦	-8.67658
籍	-8.67805
雷	-8.6789
歩	-8.6792
屢	-8.67945
環	-8.68163
部	-8.68238
而後	-8.68361
彌	-8.68401
陶	-8.68459
蕩	-8.68618
希	-8.68671
天下之	-8.687
潮	-8.68773
歳	-8.68834
朝廷	-8.68859
旋	-8.68939
逆	-8.69095
録	-8.69108
害	-8.69117
銀	-8.69561
勸	-8.69564
畢	-8.69912
吉	-8.70133
鐘	-8.70213
寫	-8.70504
舒	-8.70687
訓	-8.70762
明月	-8.70799
乞	-8.70871
頗	-8.70917
壯	-8.70961
綠	-8.71265
雞	-8.71291
怪	-8.71372
晨	-8.7141
繫	-8.71478
燈	-8.71889
消	-8.7195
故人	-8.72349
低	-8.72357
邉	-8.72616
聴	-8.7262
領	-8.7276
農	-8.72775
平生	-8.73074
味	-8.73179
烈	-8.73203
侍	-8.73228
眠	-8.73288
叢	-8.73355
長安	-8.73414
操	-8.73435
攻	-8.73531
頻	-8.73793
索	-8.73944
禍	-8.73971
兄	-8.74002
嗟	-8.74017
僕	-8.74024
淺	-8.74105
他	-8.74177
漏	-8.74729
佳	-8.74935
據	-8.75062
洪	-8.75091
然後	-8.75124
弄	-8.75222
澗	-8.75272
祥	-8.75455
劒	-8.7548
講	-8.7551
而已	-8.75696
圍	-8.75816
巧	-8.75908
編	-8.76066
之以	-8.76145
頌	-8.76164
繞	-8.76197
乾	-8.76225
班	-8.76248
徃	-8.76436
泣	-8.76467
茍	-8.76498
專	-8.76504
輔	-8.76534
第	-8.76558
佐	-8.76586
苑	-8.7661
宇	-8.76613
鮮	-8.76672
廬	-8.76681
一首	-8.76897
披	-8.77092
屈	-8.77175
之士	-8.77212
風雨	-8.77229
巢	-8.77309
珍	-8.77355
扶	-8.77388
熟	-8.7748
脩	-8.77612
莊	-8.77709
輪	-8.77719
鍾	-8.77752
激	-8.7779
側	-8.77947
遠	-8.78047
牧	-8.78119
后	-8.78154
厯	-8.78162
底	-8.78357
擁	-8.7836
丁	-8.78434
人間	-8.78504
青山	-8.7853
啼	-8.78531
均	-8.78577
洗	-8.78865
詳	-8.7894
十二	-8.78961
掌	-8.78966
崔	-8.79031
讓	-8.79047
文章	-8.79102
勇	-8.79285
争	-8.79323
一日	-8.7946
屏	-8.79478
匪	-8.7955
燭	-8.79919
震	-8.7992
紛	-8.80037
超	-8.80067
戲	-8.80168
窺	-8.80195
監	-8.80217
有所	-8.80336
柳	-8.80338
仕	-8.80464
寶	-8.8062
旁	-8.80711
煩	-8.80712
瞻	-8.80737
窗	-8.80914
虛	-8.80987
喪	-8.81021
魂	-8.81032
穿	-8.81065
量	-8.81146
謂之	-8.81336
之心	-8.81452
統	-8.81497
潤	-8.81512
堯	-8.81535
豪	-8.81678
盧	-8.81736
驅	-8.82071
吐	-8.82143
格	-8.82509
奪	-8.82611
徴	-8.82799
晝	-8.82817
助	-8.82854
酬	-8.82876
嗣	-8.82884
允	-8.82917
左右	-8.82953
借	-8.83136
秋風	-8.83252
氷	-8.83258
稍	-8.83651
責	-8.83698
效	-8.83814
枕	-8.83891
恒	-8.83904
甫	-8.83938
庸	-8.84047
賀	-8.8405
浦	-8.84081
鸞	-8.841
輿	-8.84535
趣	-8.84556
圓	-8.84568
泰	-8.84635
之道	-8.8466
枯	-8.84802
孰	-8.84865
山中	-8.84995
當時	-8.85002
湯	-8.85031
十年	-8.85257
干	-8.853
禹	-8.85315
曠	-8.85643
増	-8.85753
皇帝	-8.8594
為之	-8.86256
昏	-8.87058
旗	-8.87171
競	-8.87176
貫	-8.87203
奮	-8.87241
誦	-8.87264
困	-8.87388
不為	-8.87409
㡬	-8.87429
齒	-8.87753
策	-8.87934
擇	-8.87994
壽	-8.88075
術	-8.88254
品	-8.88278
不如	-8.88356
己	-8.88359
襲	-8.88418
途	-8.8845
裁	-8.8846
俾	-8.88476
稀	-8.88514
沒	-8.88516
淮	-8.88592
式	-8.88655
催	-8.88715
澄	-8.88751
植	-8.88779
津	-8.88833
社	-8.89135
荆	-8.89146
哭	-8.89233
騰	-8.89271
夫人	-8.89329
支	-8.89349
差	-8.8956
啟	-8.89737
暫	-8.89907
囘	-8.90021
漫	-8.90036
愧	-8.9028
貌	-8.90358
戴	-8.90487
潛	-8.90496
供	-8.90502
賈	-8.90522
飾	-8.906
閑	-8.90705
暖	-8.90709
太子	-8.90921
朕	-8.90934
潭	-8.91078
規	-8.91159
何以	-8.91168
買	-8.91326
肆	-8.914
渠	-8.91446
翔	-8.91496
慎	-8.91622
泛	-8.9185
嗚呼	-8.91857
鄰	-8.91932
不及	-8.92002
厭	-8.92143
塗	-8.92196
貢	-8.92243
賤	-8.92256
貪	-8.92301
濕	-8.92306
㫖	-8.92394
龜	-8.92431
財	-8.92457
羞	-8.92537
凌	-8.92687
劍	-8.927
童	-8.92719
崖	-8.92726
旣	-8.92782
悠悠	-8.92784
鬼	-8.92916
伊	-8.92943
略	-8.9313
慈	-8.93234
費	-8.93257
湘	-8.93291
爰	-8.93329
禄	-8.93453
桑	-8.93468
綺	-8.93499
墓	-8.93527
鬱	-8.93615
宻	-8.93798
㸃	-8.93828
密	-8.9395
抑	-8.94086
寡	-8.94112
唱	-8.94555
俯	-8.94598
介	-8.94676
賔	-8.95072
憲	-8.95211
妾	-8.95222
簾	-8.9528
厲	-8.95435
韋	-8.95445
徙	-8.95482
卑	-8.95595
而無	-8.956
沉	-8.95617
妻	-8.95673
吕	-8.9573
徵	-8.95948
孔子	-8.96035
無人	-8.96075
四海	-8.96278
辟	-8.96291
羊	-8.96367
涼	-8.96579
驛	-8.96585
足以	-8.96634
岳	-8.96641
悟	-8.96663
暴	-8.96739
犯	-8.96844
筵	-8.96955
蔡	-8.97339
藻	-8.97506
洛	-8.97514
防	-8.97804
姓	-8.97844
旌	-8.97862
畧	-8.97878
刀	-8.97941
旦	-8.9809
諫	-8.98173
蒲	-8.98261
牀	-8.98412
辰	-8.98684
柔	-8.98689
之事	-8.98928
覩	-8.99051
誤	-8.99162
洲	-8.9925
飄	-8.99305
二年	-8.99459
百年	-8.99505
丞相	-8.99648
循	-8.99678
銜	-8.99833
辱	-8.99883
輝	-8.99893
苔	-8.99918
渾	-9.00076
尾	-9.00088
廻	-9.0013
進士	-9.00144
范	-9.00441
阻	-9.00472
遭	-9.00481
渚	-9.00531
茶	-9.00655
杯	-9.00821
斗	-9.00885
之後	-9.00896
掃	-9.00967
如何	-9.01084
奚	-9.01291
炎	-9.01348
謁	-9.0139
壇	-9.01445
没	-9.01511
山川	-9.01654
舜	-9.01681
彩	-9.01698
把	-9.017
缺	-9.01728
勲	-9.01771
京師	-9.01798
彈	-9.02148
享	-9.02284
際	-9.0246
墮	-9.02508
否	-9.02528
基	-9.02545
救	-9.02601
之人	-9.02713
刺	-9.02982
古人	-9.03068
閉	-9.03073
弓	-9.03111
揺	-9.03162
伴	-9.0317
寢	-9.03203
於此	-9.03297
給	-9.03316
血	-9.03358
繡	-9.0342
絃	-9.0354
佩	-9.03555
宰	-9.03582
停	-9.0365
忍	-9.03814
有餘	-9.04027
黃	-9.04231
倒	-9.04233
葬	-9.0431
採	-9.04513
遐	-9.04553
展	-9.04689
科	-9.04741
革	-9.04763
帳	-9.04793
獄	-9.04944
卜	-9.05123
茅	-9.05234
歸來	-9.05239
之言	-9.05557
校	-9.05856
酌	-9.05873
不復	-9.05918
白日	-9.05932
朔	-9.0596
牽	-9.06152
釣	-9.06182
慙	-9.06211
惑	-9.06248
谿	-9.06331
瓊	-9.06331
桃	-9.06586
璧	-9.06626
晦	-9.06636
痛	-9.06817
銅	-9.06871
蔽	-9.0708
優	-9.07418
遵	-9.07525
觴	-9.07576
廷	-9.07585
占	-9.07872
姿	-9.08063
彦	-9.08432
菊	-9.08452
界	-9.08455
宵	-9.08496
芙蓉	-9.08608
乍	-9.0874
逹	-9.08874
前人	-9.08915
風吹	-9.09058
躬	-9.09159
墜	-9.09351
眉	-9.09456
莫不	-9.09569
呈	-9.09717
宮	-9.09777
觸	-9.09838
太守	-9.09954
錯	-9.10369
蓮	-9.10463
次韻	-9.10524
淡	-9.10591
扇	-9.10611
粟	-9.10643
陪	-9.10708
慰	-9.10762
攀	-9.10784
銷	-9.10815
古今	-9.10819
藩	-9.11028
藉	-9.1113
敷	-9.1128
巨	-9.11281
草木	-9.11315
挂	-9.11336
耀	-9.11398
滋	-9.11538
融	-9.11562
有司	-9.11631
一人	-9.11673
梅花	-9.11695
歟	-9.11705
剛	-9.11981
也夫	-9.12213
鐵	-9.12273
未有	-9.12415
網	-9.12507
了	-9.1261
冰	-9.12749
姑	-9.12769
鱗	-9.12808
寜	-9.1291
寂	-9.12936
翰	-9.12963
塘	-9.12992
髪	-9.13139
四方	-9.13207
籠	-9.13212
扵	-9.13325
柱	-9.13337
人也	-9.13464
之意	-9.13513
付	-9.1352
倦	-9.1354
漁	-9.13696
摧	-9.13732
杖	-9.1374
純	-9.13916
憑	-9.13933
未嘗	-9.13935
百姓	-9.14107
壑	-9.14146
毁	-9.14169
公之	-9.14314
落日	-9.14442
穆	-9.1455
逝	-9.14649
鞭	-9.14762
續	-9.14927
損	-9.14949
蟲	-9.14965
尺	-9.15067
紙	-9.15071
返	-9.15348
鬢	-9.15365
少年	-9.15373
鹿	-9.15454
也今	-9.15507
喧	-9.15585
審	-9.15616
主人	-9.15663
肯	-9.15712
肥	-9.15905
東風	-9.15915
可謂	-9.16102
襟	-9.16155
妄	-9.16181
祗	-9.16256
決	-9.16329
姬	-9.16396
雕	-9.16531
圗	-9.16535
粉	-9.16588
染	-9.16612
踰	-9.16617
速	-9.16652
黨	-9.16808
㸔	-9.16842
也故	-9.16913
傅	-9.16992
欺	-9.17167
江上	-9.17172
帥	-9.172
同前	-9.17286
冀	-9.17344
配	-9.17397
潔	-9.17399
契	-9.17434
輸	-9.17453
眀	-9.17478
䕶	-9.17628
帆	-9.17645
腹	-9.17661
陋	-9.17735
流水	-9.17931
州刺史	-9.18134
祝	-9.18223
上下	-9.18255
幕	-9.1831
以來	-9.18415
千載	-9.18513
桃花	-9.18554
子孫	-9.186
添	-9.18665
萬物	-9.18678
虜	-9.18795
知其	-9.19004
輒	-9.19108
不同	-9.19269
何如	-9.19316
寓	-9.19316
壓	-9.19403
簷	-9.19544
築	-9.19623
藝	-9.19797
讀書	-9.19881
三月	-9.19882
座	-9.19966
纔	-9.2009
灑	-9.20126
諱	-9.20236
者皆	-9.20336
欣	-9.20345
之地	-9.20363
燒	-9.20464
亦有	-9.20592
至今	-9.20642
牙	-9.20707
擢	-9.20957
頃	-9.21193
米	-9.21362
司馬	-9.21387
育	-9.21433
徹	-9.21577
舎	-9.21612
徘徊	-9.21675
牆	-9.21752
恥	-9.2177
穴	-9.21783
尹	-9.21798
眞	-9.21925
一時	-9.22143
鑿	-9.22253
逃	-9.22393
鑒	-9.22591
鄙	-9.22886
排	-9.2291
蓬	-9.22936
姦	-9.23052
夕陽	-9.23107
戍	-9.23135
猿	-9.23137
軌	-9.23213
會	-9.23221
標	-9.23297
嶽	-9.23301
秉	-9.2331
織	-9.23338
討	-9.23421
黄金	-9.23457
樵	-9.2346
然而	-9.23508
揮	-9.23574
況	-9.23612
勉	-9.23615
束	-9.2363
臣聞	-9.23733
袖	-9.23868
蕃	-9.23873
濃	-9.24128
倫	-9.24139
豈不	-9.24163
探	-9.24235
喻	-9.24288
暑	-9.24338
竭	-9.24383
子曰	-9.24518
叙	-9.24572
殆	-9.24683
兄弟	-9.24721
不以	-9.24774
國家	-9.24839
山水	-9.2492
弊	-9.25312
戀	-9.25321
午	-9.25384
值	-9.25409
奇	-9.25476
飽	-9.25505
南山	-9.25618
削	-9.25629
御史	-9.25654
隋	-9.25692
促	-9.2571
屯	-9.25821
緩	-9.2585
昧	-9.25874
黙	-9.25897
衍	-9.25927
蟬	-9.26009
之功	-9.26062
裂	-9.26077
衝	-9.26256
脱	-9.26293
贊	-9.26401
印	-9.26416
豫	-9.26594
嫌	-9.26732
晏	-9.26774
麥	-9.27193
髮	-9.27234
勒	-9.27234
元年	-9.27471
爽	-9.27535
峻	-9.27554
也言	-9.2756
大臣	-9.27587
之不	-9.27722
其事	-9.27751
篤	-9.27785
澹	-9.27807
提	-9.2782
東南	-9.27837
又曰	-9.2802
緒	-9.28086
安得	-9.28164
江湖	-9.28416
薛	-9.28429
黒	-9.28481
悔	-9.28484
人生	-9.28583
肉	-9.28624
亮	-9.28666
而為	-9.28926
濤	-9.28934
公子	-9.29333
彰	-9.29387
其後	-9.29392
欽	-9.29593
蠻	-9.29604
隴	-9.29634
層	-9.29782
蒙	-9.29836
睡	-9.29855
决	-9.2987
不可以	-9.29928
洽	-9.29963
曰吾	-9.30007
巴	-9.30089
學士	-9.302
▁(	-9.30351
畔	-9.30451
何時	-9.30463
馮	-9.30589
斬	-9.30713
岡	-9.30735
遽	-9.30796
磨	-9.30843
禮樂	-9.31014
遙	-9.31115
吴	-9.31503
腸	-9.31564
䘮	-9.31682
太平	-9.31779
頓	-9.3188
矜	-9.31907
踏	-9.31953
陣	-9.32078
鼔	-9.3208
二十	-9.32154
徧	-9.32207
暉	-9.32375
巾	-9.3242
俊	-9.32501
董	-9.32557
鹽	-9.32599
行人	-9.32717
區	-9.32793
焚	-9.32795
敦	-9.32943
十五	-9.32992
倍	-9.33099
秩	-9.33164
清風	-9.33173
美人	-9.33178
何人	-9.33247
古之	-9.33303
乖	-9.33469
必有	-9.33566
獸	-9.33574
洛陽	-9.33808
不勝	-9.33955
署	-9.34037
明年	-9.34038
袁	-9.34085
後世	-9.34173
洞庭	-9.34313
誓	-9.34399
崩	-9.34562
戸	-9.34622
無事	-9.34646
案	-9.34692
謙	-9.34723
練	-9.3477
態	-9.34785
像	-9.34902
隣	-9.34961
輩	-9.34985
之時	-9.35057
桐	-9.35084
遶	-9.35155
膺	-9.35176
獵	-9.35215
毎	-9.35279
苟	-9.35307
無窮	-9.35328
尉	-9.355
寂寞	-9.35582
儲	-9.35635
可憐	-9.35644
泊	-9.35763
饒	-9.35982
副	-9.36198
相思	-9.36234
敎	-9.36313
弔	-9.36344
曜	-9.36354
話	-9.36359
饑	-9.36425
淫	-9.36436
預	-9.36461
稽	-9.36507
驕	-9.36612
學者	-9.36623
爛	-9.36637
彊	-9.3668
援	-9.36689
風流	-9.36761
之中	-9.36836
溢	-9.36848
導	-9.36865
中有	-9.36974
上人	-9.36988
飯	-9.37061
抗	-9.37165
整	-9.37182
偃	-9.37187
芝	-9.3741
判	-9.37512
浮雲	-9.37516
叟	-9.37557
滯	-9.37641
邀	-9.37737
寸	-9.37905
○	-9.37931
桓	-9.37932
弦	-9.3799
然則	-9.38027
罔	-9.38083
雍	-9.38157
績	-9.38371
乏	-9.38406
攜	-9.38412
增	-9.38638
飢	-9.38648
玩	-9.38658
不用	-9.38682
踈	-9.38777
春日	-9.38941
塔	-9.39269
邁	-9.39277
裘	-9.393
逾	-9.39319
武帝	-9.39357
遍	-9.39418
三十	-9.39422
災	-9.39515
以爲	-9.39542
電	-9.39547
凶	-9.39563
醫	-9.39573
圃	-9.39609
踐	-9.39708
駐	-9.39786
朗	-9.39842
諭	-9.39864
以自	-9.3992
譽	-9.39945
歇	-9.39968
醒	-9.40084
之則	-9.40091
出於	-9.40155
相與	-9.40304
産	-9.40327
相逢	-9.40387
那	-9.4048
富貴	-9.40627
綱	-9.40654
繩	-9.40827
奴	-9.40833
艱	-9.40972
胥	-9.41226
毒	-9.41365
使君	-9.41373
紛紛	-9.41487
言之	-9.41542
拔	-9.41564
包	-9.41611
紹	-9.41635
叛	-9.41782
賓	-9.41786
強	-9.41836
宏	-9.42006
夫子	-9.42076
涉	-9.42188
綵	-9.42213
雀	-9.42225
暢	-9.42461
菴	-9.42547
淨	-9.4261
徽	-9.42764
鶯	-9.42787
乾坤	-9.42956
之際	-9.43096
快	-9.43125
膏	-9.43155
辯	-9.43192
之為	-9.43216
墳	-9.43269
三首	-9.43367
小人	-9.4337
疊	-9.43453
碎	-9.43462
垣	-9.43473
足下	-9.43494
拙	-9.43511
盟	-9.43591
腰	-9.43598
播	-9.43602
日暮	-9.4362
攸	-9.43668
偽	-9.43687
輙	-9.43722
敏	-9.43797
逮	-9.43811
恃	-9.43866
祚	-9.4389
芳草	-9.44058
□	-9.44124
貽	-9.44128
警	-9.44271
割	-9.44325
帷	-9.44392
霽	-9.44413
駭	-9.44439
謬	-9.44442
盜	-9.44536
之義	-9.44551
蕭蕭	-9.44555
媚	-9.44564
周公	-9.44578
年年	-9.44644
誰能	-9.44749
千年	-9.44776
丈	-9.44859
脫	-9.44899
妃	-9.45141
漢書	-9.45145
縈	-9.45298
誇	-9.45307
襄	-9.45523
七十	-9.45532
西風	-9.45638
賴	-9.45683
其言	-9.45967
淳	-9.45967
蛇	-9.46137
幼	-9.46289
捨	-9.46507
棹	-9.46714
丞	-9.46781
參差	-9.46882
蹈	-9.47018
其心	-9.47362
賣	-9.47383
兆	-9.47413
東西	-9.4756
之法	-9.47592
憤	-9.47598
挾	-9.4767
隅	-9.47678
諒	-9.47753
故曰	-9.47761
淪	-9.47768
五十	-9.47786
混	-9.47798
熱	-9.47836
三百	-9.47898
囊	-9.47981
妖	-9.47987
矢	-9.48278
箭	-9.48295
擅	-9.48345
邈	-9.48541
完	-9.48623
夾	-9.48643
藤	-9.48668
雖有	-9.48691
凍	-9.48715
不忍	-9.48994
僅	-9.49014
其人	-9.49073
岑	-9.49121
四時	-9.49125
人心	-9.49166
蠶	-9.49353
堤	-9.49357
剪	-9.49391
鈎	-9.49425
闢	-9.49488
儉	-9.49499
嵩	-9.49592
蒸	-9.49602
則有	-9.49696
㳺	-9.49782
鋒	-9.49848
惆悵	-9.49875
世之	-9.49921
偉	-9.49945
郎中	-9.50001
枉	-9.50102
毋	-9.50124
霸	-9.50152
衞	-9.50226
淑	-9.50335
壺	-9.50382
仗	-9.50415
健	-9.50545
綴	-9.50557
嘯	-9.5059
冥	-9.50614
檻	-9.50744
懿	-9.50758
落花	-9.50797
雉	-9.50824
戈	-9.50898
赦	-9.50964
嬌	-9.51161
五年	-9.5119
葛	-9.51214
壤	-9.51238
倉	-9.51249
第一	-9.51258
緣	-9.51306
靖	-9.51404
滴	-9.51509
例	-9.51534
浸	-9.51648
是非	-9.51676
忌	-9.51676
姚	-9.51892
冦	-9.51962
究	-9.52032
嘆	-9.52092
而有	-9.52135
韶	-9.52214
單	-9.52223
逼	-9.52353
朋	-9.52407
障	-9.52475
父母	-9.52908
價	-9.52963
躍	-9.52983
麟	-9.53057
浩	-9.53172
斥	-9.53317
西山	-9.53342
斂	-9.53365
協	-9.53377
月明	-9.53414
灰	-9.53453
賛	-9.53455
榖	-9.5346
不足以	-9.53508
宰相	-9.5363
幹	-9.53843
扁舟	-9.53865
千古	-9.53883
錄	-9.54048
詩曰	-9.54075
柯	-9.54126
禦	-9.54219
疲	-9.54315
竇	-9.54322
栖	-9.54357
竿	-9.54389
處士	-9.544
濯	-9.54405
皮	-9.54473
臯	-9.54591
羡	-9.54612
瓦	-9.54819
悦	-9.54907
叶	-9.54958
之徒	-9.55042
涵	-9.55074
出入	-9.55083
得其	-9.55098
未能	-9.5531
爐	-9.55424
髙祖	-9.55451
裳	-9.55468
之外	-9.55714
太祖	-9.55725
摩	-9.55759
溝	-9.55774
無不	-9.55838
辛	-9.55856
減	-9.55887
恵	-9.55887
裴	-9.5597
弟子	-9.55974
督	-9.56095
自古	-9.5628
詎	-9.56608
逕	-9.56906
翳	-9.56976
吞	-9.56999
俟	-9.57031
明日	-9.57148
顛	-9.57176
纎	-9.57197
扉	-9.57257
汗	-9.57263
三千	-9.57463
勁	-9.57615
傑	-9.57848
鄧	-9.57875
恣	-9.58022
樽	-9.58025
也其	-9.58082
彭	-9.58171
妍	-9.58289
匡	-9.58343
攝	-9.58417
閩	-9.58497
埋	-9.58694
蝶	-9.58897
撰	-9.59004
以此	-9.59038
天涯	-9.591
嬰	-9.59109
自然	-9.5918
涕	-9.59189
不然	-9.59253
拘	-9.59427
陂	-9.59435
終日	-9.59487
詣	-9.59518
渉	-9.5955
無以	-9.59616
神仙	-9.59723
峽	-9.59819
矯	-9.59833
喚	-9.59851
千金	-9.59881
不過	-9.59944
驗	-9.59974
域	-9.60005
糧	-9.60011
舌	-9.60138
侍郎	-9.60168
曙	-9.60212
虹	-9.60249
絳	-9.60253
笛	-9.60361
由是	-9.60454
河南	-9.6054
抵	-9.60605
換	-9.6082
不相	-9.61343
二月	-9.61405
誕	-9.61428
百里	-9.61486
頂	-9.61565
匹	-9.61588
悼	-9.61681
纓	-9.617
効	-9.61888
構	-9.61917
羣臣	-9.61955
不成	-9.62014
穀	-9.62083
嫁	-9.62085
戚	-9.62173
/)(	-9.62201
製	-9.6237
奠	-9.62406
道士	-9.62459
天上	-9.62504
濶	-9.6251
仙人	-9.62525
丗	-9.62661
卓	-9.62682
擾	-9.62715
瑶	-9.6274
熊	-9.62808
槐	-9.62835
限	-9.6299
壘	-9.63
四年	-9.63071
隙	-9.63114
蹤	-9.63202
帖	-9.63247
肇	-9.63301
迫	-9.63329
之所以	-9.63432
局	-9.63438
眷	-9.6347
之上	-9.635
一朝	-9.63579
宛	-9.63622
鷗	-9.63714
陟	-9.63724
祈	-9.63746
捐	-9.63869
咎	-9.6396
者亦	-9.63989
別	-9.63995
霑	-9.64104
迥	-9.64183
歛	-9.64207
随	-9.64261
功名	-9.64312
何必	-9.64387
湛	-9.6443
之於	-9.64645
鴉	-9.64648
茫茫	-9.64788
羈	-9.6483
書曰	-9.64844
是故	-9.64875
南北	-9.64885
較	-9.64904
潜	-9.64948
君之	-9.64975
伍	-9.6498
範	-9.65002
今年	-9.65017
哲	-9.65073
㫁	-9.65096
劇	-9.6511
之臣	-9.65116
海内	-9.6522
使人	-9.65239
不肯	-9.65301
眺	-9.65337
黎	-9.654
亷	-9.65405
君臣	-9.65422
何事	-9.65513
十八	-9.65515
屠	-9.65628
几	-9.65641
蓬萊	-9.66027
濁	-9.66051
公卿	-9.66289
不盡	-9.66327
猛	-9.66416
不在	-9.66442
何所	-9.6655
創	-9.66574
草堂	-9.6665
荅	-9.66672
譏	-9.6673
捧	-9.66791
堆	-9.66802
仁義	-9.66805
恤	-9.66836
篆	-9.66853
貨	-9.66921
挺	-9.66954
漲	-9.66975
阜	-9.67065
暇	-9.67074
檢	-9.67141
其間	-9.67156
人家	-9.67171
是也	-9.67174
侣	-9.67193
者必	-9.67281
匈奴	-9.67334
岐	-9.67356
壊	-9.67511
汪	-9.67756
聞之	-9.67853
亦不	-9.67952
往往	-9.67962
夙	-9.6801
痕	-9.68029
料	-9.68065
疇	-9.68077
蕪	-9.68202
栽	-9.68313
蘿	-9.68314
握	-9.6836
脚	-9.68412
諧	-9.68442
故鄉	-9.68498
桃李	-9.68501
此時	-9.68503
之曰	-9.68555
片	-9.68618
江山	-9.68661
邨	-9.68662
蓄	-9.68697
鵲	-9.68778
四十	-9.68791
當年	-9.68854
冒	-9.68879
巡	-9.68887
誣	-9.68891
潘	-9.68986
翰林	-9.68996
㝠	-9.69019
弼	-9.69029
謨	-9.69038
互	-9.69076
挽	-9.69097
慚	-9.69296
墟	-9.69322
中國	-9.69336
黜	-9.69352
奸	-9.69353
綿	-9.69436
褒	-9.69443
十三	-9.69578
灘	-9.6961
孟子	-9.69631
靄	-9.69728
毫	-9.69735
聖人之	-9.69741
文武	-9.69751
場	-9.69814
曷	-9.69838
六月	-9.69964
不堪	-9.70007
乳	-9.70052
魄	-9.70095
也而	-9.70123
活	-9.70179
忝	-9.70187
國之	-9.70253
一百	-9.70265
春色	-9.70416
白頭	-9.70458
馭	-9.70462
太宗	-9.70477
沾	-9.70575
戮	-9.70604
之文	-9.70619
衢	-9.70621
自是	-9.70639
旬	-9.70687
溺	-9.7078
灌	-9.70812
五月	-9.70855
花落	-9.70857
十里	-9.70907
翰曰	-9.70934
薪	-9.7094
隂陽	-9.71287
滑	-9.71324
裔	-9.71383
課	-9.71401
旱	-9.71446
聳	-9.71461
山人	-9.7149
向曰	-9.7155
祿	-9.71576
勅	-9.71692
西湖	-9.71777
六十	-9.71829
宦	-9.71914
敝	-9.71959
十一	-9.72033
狐	-9.72047
二百	-9.7205
樂府	-9.72052
遮	-9.72101
之禮	-9.7212
跨	-9.72178
籬	-9.72206
文帝	-9.7224
不自	-9.7232
君王	-9.72333
之名	-9.7255
㦸	-9.72557
金石	-9.72621
回首	-9.72701
虧	-9.72734
醜	-9.72871
臂	-9.72933
沃	-9.72949
不聞	-9.73015
霄	-9.7303
豈無	-9.73192
用之	-9.73211
道中	-9.73434
貶	-9.73439
與之	-9.73531
未必	-9.73715
衣冠	-9.73762
相望	-9.73836
疆	-9.73863
輦	-9.73864
島	-9.73983
袂	-9.74011
亟	-9.74079
墻	-9.74089
自有	-9.74278
鬬	-9.74282
至于	-9.74313
者其	-9.74375
為君	-9.74414
八月	-9.7443
睿	-9.74464
從事	-9.74543
蒼蒼	-9.74583
巷	-9.74678
楊栁	-9.74726
娥	-9.74879
庾	-9.7488
冊	-9.74941
是時	-9.7497
慘	-9.75041
九日	-9.75069
人皆	-9.75179
使者	-9.75267
諌	-9.75364
傲	-9.75381
廉	-9.75425
三日	-9.75481
者不	-9.75562
十六	-9.75568
八十	-9.75624
羨	-9.75635
轡	-9.75662
閲	-9.75705
圭	-9.75764
鑄	-9.75848
煥	-9.75859
欵	-9.75891
俄	-9.75896
之志	-9.75919
鴛鴦	-9.75934
苗	-9.76028
瘦	-9.7617
台	-9.76178
㓜	-9.76181
拾	-9.76198
罰	-9.76346
宸	-9.76401
赫	-9.76446
男	-9.76484
轍	-9.765
謫	-9.76562
抽	-9.76679
媿	-9.76715
何為	-9.76718
奈何	-9.76738
慧	-9.76758
車馬	-9.76797
零	-9.76916
榻	-9.76984
中書	-9.77018
楹	-9.77033
秘	-9.77047
偕	-9.77128
叅	-9.77196
受命	-9.77218
磬	-9.77296
偷	-9.77317
其身	-9.77363
五色	-9.77462
昨	-9.7753
其中	-9.77546
即事	-9.77547
風俗	-9.77555
閨	-9.77595
之子	-9.77674
賦曰	-9.77677
餐	-9.77783
奥	-9.77796
觧	-9.77798
蘆	-9.77821
寒食	-9.77824
仇	-9.77827
白髪	-9.77841
相見	-9.77937
簪	-9.78072
文王	-9.78209
蕭條	-9.78309
鳬	-9.78383
杳	-9.78474
祐	-9.78495
樞	-9.78534
銑曰	-9.78599
從此	-9.78793
暝	-9.7885
摘	-9.78938
盗	-9.78946
尸	-9.78966
搖	-9.79063
怯	-9.79069
伸	-9.79197
僚	-9.79258
繇	-9.79352
黑	-9.79366
别離	-9.79578
海上	-9.79651
函	-9.79692
畜	-9.79809
焦	-9.7992
父子	-9.79941
皆有	-9.79959
儻	-9.79965
玄	-9.79975
青雲	-9.7999
良曰	-9.79992
羌	-9.8002
樊	-9.80028
無復	-9.80051
社稷	-9.80084
凋	-9.80195
賦詩	-9.80215
耳目	-9.80218
史記	-9.80251
犬	-9.80356
者乎	-9.80408
従	-9.80534
坡	-9.80665
昬	-9.80679
登臨	-9.80704
文字	-9.80733
滄海	-9.80781
項	-9.80807
匠	-9.80906
民之	-9.80917
不識	-9.80928
歸去	-9.80966
詭	-9.81029
訟	-9.81101
柄	-9.81137
䟽	-9.81177
汲	-9.81202
秋水	-9.81285
牕	-9.81314
牢	-9.81323
不必	-9.81342
詐	-9.81368
窓	-9.81381
窟	-9.8143
臧	-9.81475
浴	-9.81485
額	-9.81596
四首	-9.81598
罕	-9.81599
天地之	-9.816
巫	-9.81658
一笑	-9.81767
酣	-9.81802
山林	-9.81864
各有	-9.82005
博士	-9.82007
詩書	-9.82044
以其	-9.82073
見其	-9.82164
淮南	-9.82191
熙	-9.82209
遼	-9.82266
臥	-9.82349
沐	-9.82352
為人	-9.82358
未知	-9.82359
僻	-9.82368
江水	-9.82438
析	-9.82501
山下	-9.82571
不至	-9.82614
以下	-9.82632
朽	-9.82634
縷	-9.82765
森	-9.82794
麻	-9.82851
有時	-9.82928
梵	-9.83006
堯舜	-9.83097
荀	-9.83143
一旦	-9.83146
鬼神	-9.83171
㧞	-9.83172
如是	-9.83183
十四	-9.83207
菜	-9.83225
稻	-9.8328
謡	-9.8331
饗	-9.83329
去年	-9.83357
肩	-9.83535
諸公	-9.83554
金陵	-9.83625
君不見	-9.83644
突	-9.83701
人情	-9.83763
出門	-9.83794
中原	-9.83816
頽	-9.83875
之下	-9.83963
専	-9.84012
萬古	-9.84063
冶	-9.84107
門前	-9.8411
犀	-9.84142
忩	-9.84163
囚	-9.8419
執事	-9.84193
邵	-9.84237
之説	-9.84245
侈	-9.84273
花開	-9.84436
萬國	-9.84518
猶有	-9.84537
廵	-9.84539
咽	-9.84581
渭	-9.84648
袍	-9.84649
祇	-9.84664
遁	-9.84771
云云	-9.84816
沛	-9.8484
風塵	-9.84926
也然	-9.8493
妝	-9.84958
普	-9.84971
坤	-9.85023
勵	-9.85024
昇	-9.85104
寃	-9.85107
塲	-9.85111
諸生	-9.85334
鳩	-9.85342
𤓰	-9.85389
造化	-9.85544
蟠	-9.8559
収	-9.85652
拒	-9.85735
誘	-9.85749
仲尼	-9.85789
組	-9.85824
又有	-9.85931
太尉	-9.85958
柏	-9.85969
人事	-9.86004
齡	-9.86031
沼	-9.86044
闌	-9.86049
䖍	-9.86096
郢	-9.86097
沿	-9.86199
道路	-9.86285
蔬	-9.86368
濫	-9.86446
者非	-9.86474
西南	-9.8653
不覺	-9.86876
佳人	-9.87016
三代	-9.87037
斑	-9.87066
裕	-9.87078
子之	-9.87095
珪	-9.87107
萍	-9.87148
臻	-9.87641
夭	-9.87737
西北	-9.87768
㑹稽	-9.87774
闈	-9.87784
槎	-9.87834
戾	-9.87867
千萬	-9.87892
註	-9.87897
冝	-9.87906
紆	-9.8791
窻	-9.87913
毅	-9.87914
喬	-9.88029
六年	-9.88062
綏	-9.88068
得之	-9.88082
者以	-9.88084
而自	-9.88089
梢	-9.88112
二人	-9.88166
汀	-9.88217
距	-9.88287
瑟	-9.88318
棘	-9.88363
及其	-9.88407
詩云	-9.88476
之盛	-9.88524
珮	-9.88558
臘	-9.88651
托	-9.88741
𨽻	-9.88838
今朝	-9.88868
一片	-9.88923
濟曰	-9.88941
員	-9.89018
烹	-9.8902
灣	-9.89023
蜂	-9.89055
東海	-9.89115
讒	-9.89158
滌	-9.89159
士大夫	-9.89259
揚州	-9.89283
莽	-9.893
之至	-9.89355
道人	-9.89371
刺史	-9.89411
顔色	-9.89449
嵗月	-9.89495
者則	-9.89504
先王	-9.89575
文學	-9.89612
軸	-9.89683
怠	-9.89709
而不能	-9.89729
蔓	-9.89768
鎖	-9.8981
謗	-9.89859
淹	-9.89895
縱横	-9.899
靣	-9.89903
懶	-9.89948
倡	-9.90127
子弟	-9.90153
於人	-9.9016
傳曰	-9.90193
他日	-9.90216
上書	-9.90223
之日	-9.90246
麾	-9.90362
岀	-9.90379
不忘	-9.90407
矧	-9.90503
噫	-9.90504
曰此	-9.9053
軫	-9.90542
前後	-9.90615
䕃	-9.90725
湏	-9.90781
往來	-9.90808
砌	-9.90838
之餘	-9.90859
秋色	-9.90972
不言	-9.9099
不與	-9.90994
橘	-9.91056
涯	-9.91086
藴	-9.91181
團	-9.91204
冲	-9.91224
不待	-9.91275
譜	-9.91285
陷	-9.91301
豔	-9.91339
聨	-9.91452
一聲	-9.91456
萬事	-9.91513
闊	-9.91553
截	-9.91616
銘曰	-9.91627
門外	-9.91642
區區	-9.91687
乎其	-9.91709
帛	-9.91767
其意	-9.9178
猷	-9.91797
者有	-9.91861
王孫	-9.91886
開元	-9.91903
芒	-9.91925
諷	-9.91984
一枝	-9.92026
從容	-9.92062
秋日	-9.9207
孚	-9.92073
蹇	-9.92111
聼	-9.92196
之故	-9.92204
豆	-9.92218
忙	-9.92236
娶	-9.92253
萌	-9.92284
壞	-9.92351
闇	-9.92397
朝夕	-9.92401
敞	-9.92439
閭	-9.92439
岫	-9.9248
丹青	-9.92556
坊	-9.92592
拱	-9.92599
恬	-9.92645
誰家	-9.92682
之美	-9.92723
二子	-9.92727
廓	-9.92727
其道	-9.92806
梧	-9.92833
叩	-9.92867
惟有	-9.92917
斧	-9.92988
中丞	-9.92992
翩翩	-9.92997
歌舞	-9.93101
捕	-9.93125
氏之	-9.93142
鈞	-9.93153
題詩	-9.93365
打	-9.93385
司徒	-9.93491
纂	-9.93542
艾	-9.93587
兔	-9.9359
鬚	-9.93641
之民	-9.93675
日日	-9.93704
蔚	-9.93712
湖上	-9.93772
街	-9.93843
廊	-9.93892
羙	-9.93913
炳	-9.93973
濡	-9.93974
軀	-9.94022
賢者	-9.94059
數十	-9.9414
鋪	-9.94169
日夜	-9.94256
誥	-9.94336
此地	-9.94418
頼	-9.94427
茲	-9.94501
侍御	-9.94514
為我	-9.94697
空山	-9.94708
躡	-9.94734
不是	-9.94766
五百	-9.94844
汙	-9.94936
今之	-9.95075
猶未	-9.95094
箴	-9.9517
亦何	-9.95204
欽定四庫全書	-9.95295
其為	-9.95485
儼	-9.95521
訴	-9.95532
鑑	-9.95604
風雲	-9.95631
青青	-9.95632
對曰	-9.95697
不易	-9.95724
内外	-9.95871
太史	-9.95887
搜	-9.95899
而下	-9.95942
矣而	-9.95961
武王	-9.95961
聘	-9.95972
莖	-9.95985
春草	-9.95992
豹	-9.96016
詢	-9.96058
冩	-9.96077
天台	-9.96106
技	-9.96107
不須	-9.96117
司空	-9.96119
之可	-9.96218
古者	-9.96221
控	-9.96285
清明	-9.96426
氛	-9.9646
翦	-9.96523
變化	-9.96547
徂	-9.96598
得失	-9.96636
栗	-9.96695
故事	-9.96747
租	-9.96761
籌	-9.96796
嗜	-9.96831
公曰	-9.96869
粤	-9.96881
明堂	-9.96962
上有	-9.97124
何足	-9.97177
不出	-9.97188
蘇軾	-9.97244
架	-9.97284
亞	-9.97331
證	-9.97351
税	-9.97608
其名	-9.97707
其子	-9.97718
緯	-9.97801
婉	-9.97809
騷	-9.97852
君子之	-9.97889
九州	-9.97979
秀才	-9.98007
揖	-9.98133
有以	-9.98142
儔	-9.98158
進退	-9.98188
相公	-9.98259
誰知	-9.98284
之學	-9.98289
相如	-9.9834
咨	-9.98378
其文	-9.98432
無限	-9.98473
測	-9.98488
絡	-9.9851
即位	-9.9851
山河	-9.98566
渥	-9.9858
咏	-9.98618
若此	-9.98645
陌	-9.98655
豈非	-9.98783
其志	-9.98784
單于	-9.98805
汎	-9.98825
青天	-9.98845
門下	-9.98865
替	-9.98876
邇	-9.98881
判官	-9.98929
處處	-9.99048
輟	-9.99107
知之	-9.99109
咫尺	-9.99131
神明	-9.99275
竝	-9.99289
十七	-9.99332
併	-9.99334
江海	-9.99402
長沙	-9.99409
甞	-9.99419
侍中	-9.99436
皓	-9.99519
一夜	-9.9952
耆	-9.99532
恱	-9.99631
芬	-9.99636
一言	-9.99834
與君	-9.99917
騁	-9.99938
措	-9.99955
穹	-9.99966
山東	-10.0001
薨	-10.0014
株	-10.0016
匿	-10.0018
掾	-10.002
馴	-10.0022
太白	-10.0033
慷慨	-10.0038
相對	-10.0042
令人	-10.0048
檄	-10.0049
太學	-10.006
故園	-10.0061
漿	-10.0064
湧	-10.0077
勑	-10.0078
零落	-10.0078
明朝	-10.0081
畝	-10.009
聖賢	-10.0092
天之	-10.0103
佞	-10.0105
頒	-10.0107
觀其	-10.0121
其家	-10.0127
頑	-10.013
叨	-10.0133
萃	-10.0134
椒	-10.0138
詩人	-10.0147
太后	-10.0148
逺近	-10.015
正月	-10.0155
杏	-10.016
先帝	-10.0161
寔	-10.0168
讐	-10.017
七年	-10.017
癡	-10.0171
懲	-10.0171
慢	-10.0173
百官	-10.0179
之大	-10.0187
揆	-10.0194
阮	-10.0194
沮	-10.0196
之勢	-10.0202
不容	-10.0209
河東	-10.021
韜	-10.0211
也若	-10.0213
矣然	-10.0213
之制	-10.0214
山色	-10.0214
蟻	-10.0217
龍門	-10.0218
九月	-10.0219
隕	-10.0231
隄	-10.0243
幣	-10.0245
萬年	-10.0256
依依	-10.0259
熈	-10.0264
瓶	-10.0268
奈	-10.0271
括	-10.0276
漠漠	-10.0281
逍遥	-10.0283
宇宙	-10.0284
硯	-10.0287
太常	-10.0291
踵	-10.0293
瀾	-10.0296
并序	-10.0307
大將軍	-10.0315
而成	-10.032
渺	-10.0324
迂	-10.0325
膠	-10.0327
上林	-10.0331
鷹	-10.0332
妓	-10.0334
於天下	-10.0336
酸	-10.0338
刋	-10.0345
宗廟	-10.0357
誼	-10.0359
挹	-10.0359
東山	-10.0362
妻子	-10.0362
郷	-10.0364
之情	-10.0364
液	-10.0378
衷	-10.038
埃	-10.0385
着	-10.039
雛	-10.0395
世間	-10.0402
落葉	-10.0406
貳	-10.0409
徼	-10.0412
畦	-10.0414
膚	-10.0415
閱	-10.0418
峙	-10.0419
滄浪	-10.0424
牖	-10.0426
豁	-10.0432
狼	-10.044
若夫	-10.044
注曰	-10.044
何日	-10.0443
弛	-10.0443
蹄	-10.0448
白首	-10.0451
勃	-10.0451
江西	-10.0452
榆	-10.0457
友人	-10.0459
殷勤	-10.046
十月	-10.0463
之術	-10.0475
裝	-10.0485
湍	-10.0485
斾	-10.0487
者為	-10.0504
庻	-10.0509
而能	-10.0513
竄	-10.0517
時有	-10.0531
驟	-10.0532
瑤	-10.0532
一年	-10.0536
塵埃	-10.0537
梓	-10.0552
分明	-10.0553
昨夜	-10.0554
幽人	-10.0565
春水	-10.0567
庶幾	-10.0568
榜	-10.0578
亨	-10.0579
十日	-10.0583
中興	-10.0591
欄	-10.0592
綬	-10.0595
其餘	-10.0599
狹	-10.0602
蛟	-10.0606
未及	-10.0607
卦	-10.0608
其二	-10.061
遜	-10.0611
此詩	-10.0612
城南	-10.0614
汴	-10.0614
下有	-10.0623
淸	-10.0624
鵠	-10.0627
粲	-10.0637
一曲	-10.0641
秋夜	-10.0645
雲中	-10.0646
之才	-10.065
飲酒	-10.0658
九重	-10.0671
一二	-10.0673
有序	-10.0683
鮑	-10.0685
拍	-10.0689
筠	-10.0696
故其	-10.0697
嵐	-10.0701
􁀙	-10.0704
樓臺	-10.0705
有感	-10.0714
萬世	-10.0715
若是	-10.0717
板	-10.0724
玊	-10.0724
恢	-10.0726
䑓	-10.0729
棟	-10.0734
駿	-10.0734
瑩	-10.0741
擲	-10.0745
狎	-10.0749
瀟湘	-10.0751
掠	-10.0764
之初	-10.0766
以求	-10.0769
纒	-10.0769
慿	-10.0776
之氣	-10.0785
俞	-10.0785
翫	-10.0791
認	-10.0804
䦨	-10.0812
啄	-10.0839
鷺	-10.0846
從之	-10.0847
醇	-10.0849
也又	-10.0851
鼻	-10.0853
寂寥	-10.0854
刃	-10.0855
白馬	-10.0864
千秋	-10.0869
慨	-10.0872
驂	-10.0875
嬉	-10.0877
算	-10.0877
裾	-10.088
餞	-10.0881
乙	-10.0883
上帝	-10.0883
人有	-10.0884
未得	-10.0886
不受	-10.0892
英雄	-10.0898
億	-10.0902
幻	-10.0904
鵬	-10.0904
漾	-10.0906
填	-10.0918
牲	-10.0921
粹	-10.0921
碩	-10.0926
歎息	-10.0928
南陽	-10.0937
布衣	-10.0938
鄴	-10.0938
虐	-10.0939
堦	-10.0941
埽	-10.0942
丈夫	-10.0944
嚮	-10.0945
䑕	-10.0946
而去	-10.0948
蚤	-10.095
係	-10.0968
莫能	-10.0972
吏部	-10.0973
衮	-10.0974
朴	-10.0982
閔	-10.0982
笙	-10.0984
餌	-10.0994
漂	-10.0995
白髮	-10.0999
衣裳	-10.1005
員外	-10.1025
未可	-10.1026
之難	-10.1037
暨	-10.1038
甕	-10.1042
驥	-10.1052
六經	-10.1059
畆	-10.1066
再拜	-10.1067
䕫	-10.107
之内	-10.1074
黄河	-10.1096
稅	-10.1096
公主	-10.1099
陛	-10.1101
詰	-10.1101
於世	-10.1103
簫	-10.1105
城中	-10.1108
寂寂	-10.1108
掛	-10.1109
乂	-10.1111
迺	-10.1112
蠧	-10.1114
狄	-10.1114
元和	-10.112
多少	-10.1128
豈有	-10.1139
炊	-10.114
干戈	-10.1144
百萬	-10.1148
昆	-10.1151
茅屋	-10.1153
江東	-10.1154
不幸	-10.1156
捲	-10.1159
穢	-10.1161
丕	-10.1164
廬山	-10.1167
沸	-10.1172
誰與	-10.1197
檀	-10.1197
庫	-10.1205
佇	-10.121
縮	-10.121
之樂	-10.1212
禱	-10.1217
襄陽	-10.1226
段	-10.1226
辦	-10.1231
之理	-10.1236
所居	-10.1239
東坡	-10.1243
什	-10.1248
羲	-10.1248
以示	-10.1251
鉤	-10.1268
耿	-10.1275
鞍	-10.129
潰	-10.1297
韓愈	-10.1303
太原	-10.1319
廼	-10.132
牒	-10.1322
奉和	-10.1337
懽	-10.1338
夜深	-10.1341
毛詩曰	-10.1344
夢中	-10.1345
眇	-10.1347
以成	-10.1349
軾	-10.135
葵	-10.135
一切	-10.135
有功	-10.135
姜	-10.1369
筍	-10.1379
者矣	-10.138
研	-10.1388
溜	-10.1392
主簿	-10.1397
新詩	-10.1401
憚	-10.1401
鬭	-10.1403
戢	-10.1411
道之	-10.1412
成功	-10.1413
諡	-10.1419
撥	-10.1422
李白	-10.1427
冕	-10.1435
評	-10.1435
寅	-10.1436
父老	-10.1436
釵	-10.146
髯	-10.1462
若乃	-10.1462
迭	-10.1464
涇	-10.1464
霍	-10.1465
紗	-10.1467
絮	-10.1468
獨立	-10.1471
作詩	-10.1474
翅	-10.1475
魁	-10.1476
雨露	-10.1479
螢	-10.148
成都	-10.1498
潁	-10.1512
俯仰	-10.1518
崑崙	-10.1524
粗	-10.1524
不到	-10.1525
王者	-10.1529
奢	-10.1532
蕙	-10.155
剖	-10.1558
衾	-10.1559
桞	-10.1564
聰	-10.1566
寒暑	-10.1572
奔走	-10.1574
怕	-10.1592
厓	-10.1592
抛	-10.1593
寇	-10.1597
羮	-10.1603
之患	-10.1603
透	-10.1608
姓名	-10.1609
誨	-10.1609
此日	-10.1609
栢	-10.1618
黛	-10.1622
汚	-10.1623
晉書	-10.1632
酷	-10.1642
漢書曰	-10.1644
之變	-10.1646
謾	-10.1648
隘	-10.1648
貯	-10.1654
窈窕	-10.1656
不動	-10.1658
轂	-10.1679
羸	-10.1692
不死	-10.1692
人主	-10.1693
周禮	-10.1693
狗	-10.1697
不朽	-10.17
鄒	-10.1712
之用	-10.1713
欲以	-10.1716
城郭	-10.1716
鯨	-10.1718
既而	-10.1719
攘	-10.175
膽	-10.1751
粧	-10.1763
浄	-10.1767
邸	-10.1771
何由	-10.1773
如今	-10.1781
不歸	-10.1786
致仕	-10.1786
孤舟	-10.1786
膳	-10.1787
悵	-10.1788
所為	-10.1788
天道	-10.1794
蛟龍	-10.1798
光武	-10.18
膝	-10.1801
欹	-10.1806
愆	-10.1811
鏤	-10.1811
刼	-10.1812
一身	-10.1814
俠	-10.1817
濬	-10.1817
𦵏	-10.182
不行	-10.1823
黍	-10.1827
篷	-10.1832
凱	-10.1834
雲山	-10.1836
捷	-10.1837
枚	-10.184
頴	-10.1842
帝王	-10.1847
橫	-10.1851
賔客	-10.1852
蹙	-10.1854
搆	-10.1856
擒	-10.1857
旌旗	-10.1865
葦	-10.1866
而不知	-10.1867
笳	-10.1872
居士	-10.1881
坦	-10.1882
玉堂	-10.1894
綸	-10.1907
四百	-10.1908
十九	-10.1908
庚	-10.1914
無聲	-10.1914
有道	-10.1917
政事	-10.1922
生於	-10.1923
繪	-10.1923
之說	-10.1928
終身	-10.1931
駢	-10.1938
無心	-10.1948
覓	-10.1948
泰山	-10.1954
而巳	-10.1961
衫	-10.1961
跳	-10.1964
雖然	-10.1964
東方	-10.1967
楓	-10.1969
失其	-10.1972
瑕	-10.1974
無為	-10.1976
瘴	-10.1978
鷄	-10.1984
六合	-10.1996
敲	-10.1998
漠	-10.2001
天命	-10.2002
丸	-10.2002
不知其	-10.2003
於時	-10.2009
不暇	-10.2012
終不	-10.2016
曳	-10.202
之徳	-10.2021
士之	-10.2037
囂	-10.2041
奕	-10.2045
斜陽	-10.2045
劔	-10.2049
三人	-10.2053
攬	-10.2054
其上	-10.206
煖	-10.2061
同心	-10.2065
逄	-10.2072
年七	-10.2072
九十	-10.2074
煙霞	-10.2077
精神	-10.2079
輯	-10.2081
郡縣	-10.2081
先王之	-10.2081
愍	-10.2088
薰	-10.2088
皇上	-10.2095
屐	-10.2096
樸	-10.2117
舂	-10.2118
甸	-10.2121
閉門	-10.2132
其所以	-10.2136
恕	-10.2138
胄	-10.2139
十萬	-10.214
坎	-10.2144
副使	-10.2149
秋月	-10.2153
禀	-10.2162
大小	-10.2162
荆州	-10.2171
嗟乎	-10.2181
禾	-10.2181
字子	-10.2181
夜雨	-10.2181
死者	-10.2184
未盡	-10.2188
舟中	-10.2189
中外	-10.219
之利	-10.2191
皇后	-10.2193
蔣	-10.2204
艷	-10.2206
在於	-10.2206
猶在	-10.2212
童子	-10.2213
譬	-10.2218
腥	-10.2229
萬人	-10.2238
武陵	-10.2241
利害	-10.2252
之書	-10.2252
野人	-10.2253
級	-10.2265
使之	-10.2269
王公	-10.2275
醴	-10.228
平原	-10.2286
苖	-10.2288
皆以	-10.2291
其實	-10.2294
所見	-10.2302
彫	-10.2304
出處	-10.231
吁	-10.2311
之矣	-10.2312
撲	-10.2312
幾時	-10.2316
王子	-10.2323
山寺	-10.233
二字	-10.2336
未足	-10.2338
柴	-10.2351
演	-10.2353
祕	-10.2354
曩	-10.2354
白雪	-10.2367
行之	-10.2372
脂	-10.2375
輕重	-10.238
箇	-10.2381
呂	-10.2391
旨	-10.2397
所得	-10.2398
春雨	-10.24
死生	-10.2405
老人	-10.2415
見之	-10.2417
迢迢	-10.2424
五湖	-10.2434
妨	-10.2437
以待	-10.2443
逋	-10.2444
八年	-10.2447
凄	-10.2447
不當	-10.2449
錢塘	-10.2455
矣夫	-10.2455
五臣	-10.2456
箕	-10.2456
長史	-10.2457
世事	-10.2475
臣等	-10.2479
帯	-10.2481
中流	-10.2486
畵	-10.2489
而未	-10.2489
斯文	-10.2492
杏花	-10.2497
戯	-10.2499
梯	-10.2502
髻	-10.2509
而不可	-10.252
五言	-10.252
臣之	-10.2521
大道	-10.2524
携	-10.2524
飈	-10.2527
三尺	-10.2528
躋	-10.2529
長江	-10.253
渴	-10.2541
怡	-10.2546
自得	-10.2553
将軍	-10.2557
篁	-10.2563
白石	-10.2567
釁	-10.2567
甘泉	-10.2569
蘋	-10.2574
二十年	-10.2576
懋	-10.2578
意氣	-10.2581
孔子曰	-10.2583
天子之	-10.259
遏	-10.2593
腐	-10.2602
苞	-10.2605
年少	-10.2606
訖	-10.2617
豫章	-10.2618
懇	-10.2619
嘶	-10.262
雲氣	-10.2623
風起	-10.2628
簮	-10.2635
濵	-10.2636
縣令	-10.2637
安能	-10.2642
群	-10.2643
藍	-10.2645
之類	-10.2647
檜	-10.265
於今	-10.2653
礙	-10.2657
本無	-10.2662
而又	-10.2666
餉	-10.2667
白居易	-10.267
老子	-10.2673
陞	-10.2675
無情	-10.2676
澆	-10.2677
属	-10.2678
人所	-10.2678
旄	-10.2686
扶桑	-10.2687
茗	-10.2692
侔	-10.2692
則其	-10.2696
軰	-10.2703
塟	-10.2704
翮	-10.2708
釀	-10.2715
盡日	-10.2724
於天	-10.2728
盆	-10.2731
昔者	-10.2739
州縣	-10.2749
人物	-10.2751
簟	-10.276
櫂	-10.276
厨	-10.276
綃	-10.2767
貸	-10.2768
賁	-10.2768
瀉	-10.277
時時	-10.2771
不肖	-10.2773
謚	-10.2783
侮	-10.2787
他人	-10.2792
扣	-10.2793
後人	-10.2794
沖	-10.2797
蠲	-10.28
昨日	-10.2802
蹊	-10.2803
版	-10.2809
玉山	-10.2821
江漢	-10.2822
人以	-10.2825
鉅	-10.2826
軟	-10.2831
蘚	-10.2834
峭	-10.2835
遣使	-10.2836
緘	-10.2837
塢	-10.2838
之論	-10.284
藹	-10.2842
隐	-10.2844
舍人	-10.2844
之力	-10.285
百尺	-10.2855
不遇	-10.2858
聖主	-10.2866
琵琶	-10.2873
鸚鵡	-10.2886
棗	-10.2888
者曰	-10.2888
之禍	-10.2888
艶	-10.2894
安知	-10.2897
聞道	-10.29
耗	-10.2905
道徳	-10.2906
三十六	-10.2907
林下	-10.2916
雨中	-10.2919
髣髴	-10.2922
誡	-10.2922
物之	-10.2923
忠臣	-10.293
五日	-10.2945
知音	-10.2946
颺	-10.2948
時人	-10.2952
終始	-10.2955
凖	-10.2957
闡	-10.2959
何當	-10.296
不信	-10.2969
滄洲	-10.2972
磯	-10.2976
掖	-10.298
見寄	-10.2983
得以	-10.2988
挈	-10.3002
不欲	-10.3006
揚雄	-10.3011
細雨	-10.3014
不顧	-10.3017
白露	-10.3025
如故	-10.3032
牡丹	-10.3036
從來	-10.3044
國公	-10.3044
離别	-10.3053
於斯	-10.3055
之命	-10.3056
濱	-10.3056
為韻	-10.3062
芽	-10.3067
名曰	-10.3069
取其	-10.3073
豈知	-10.3074
幅	-10.3075
石上	-10.3076
一字	-10.308
鴨	-10.3081
劾	-10.3083
祉	-10.3085
歷	-10.3091
一家	-10.3094
之衆	-10.3095
艱難	-10.3095
些	-10.3096
溪上	-10.3097
夜半	-10.3097
池上	-10.3104
不作	-10.3106
可也	-10.3109
非有	-10.3109
未央	-10.3112
而復	-10.3116
忿	-10.3119
殫	-10.312
逈	-10.312
畿	-10.312
迅	-10.3127
當世	-10.3128
久矣	-10.3135
褐	-10.314
晞	-10.314
之業	-10.3146
靑	-10.3146
兎	-10.3148
鞏	-10.3149
飲食	-10.3151
睦	-10.3159
珊瑚	-10.3162
今古	-10.3162
與人	-10.3162
祖宗	-10.3167
十餘	-10.3167
題畫	-10.3173
而歸	-10.3182
雨後	-10.3188
盃	-10.3191
漕	-10.3192
亦無	-10.3192
飛鳥	-10.3192
之政	-10.3193
於上	-10.3194
河北	-10.3194
竦	-10.3194
豈可	-10.3198
五首	-10.3199
勾	-10.3206
穎	-10.3207
非所	-10.3214
功成	-10.3218
卉	-10.3222
禮記	-10.3226
送客	-10.3228
用兵	-10.3229
床	-10.3235
禮部	-10.3236
何年	-10.3238
鋭	-10.3241
黄帝	-10.3242
世人	-10.3243
庵	-10.3246
亘	-10.3247
敕	-10.3247
嗚呼哀哉	-10.325
辜	-10.325
灼	-10.3251
詩話	-10.3253
之末	-10.3258
紅塵	-10.3258
裙	-10.326
無由	-10.326
拾遺	-10.3261
殺之	-10.3261
登髙	-10.3265
畱	-10.3267
而天下	-10.3267
譚	-10.3268
故能	-10.3273
山之	-10.3274
相國	-10.3275
閒居	-10.3275
馬上	-10.3276
文粹	-10.328
麓	-10.328
瀑	-10.3288
奄	-10.3292
糾	-10.3294
儂	-10.3295
之風	-10.3296
山居	-10.3303
翹	-10.3304
貞元	-10.3305
雲間	-10.331
巵	-10.3317
消息	-10.3318
莎	-10.3322
其下	-10.3324
蔵	-10.3327
猜	-10.3328
訝	-10.3329
北風	-10.333
而已矣	-10.3337
歸路	-10.334
應制	-10.3343
虬	-10.3346
七月	-10.3347
我心	-10.3348
蒼茫	-10.3349
賦得	-10.3354
㝷	-10.3357
迨	-10.3361
亦可	-10.3362
猨	-10.3363
鬟	-10.3364
桀	-10.3367
離離	-10.3368
自知	-10.3375
槩	-10.3376
生死	-10.3379
禮義	-10.3379
未嘗不	-10.3393
節度	-10.3394
道也	-10.3397
白玉	-10.34
覔	-10.3405
之世	-10.3405
傷心	-10.3407
翠微	-10.3409
檐	-10.3411
漳	-10.3421
何用	-10.3421
翡翠	-10.3422
此心	-10.3422
將以	-10.3426
稼	-10.3427
蘂	-10.344
冐	-10.3444
歐陽	-10.346
春光	-10.3475
輅	-10.3475
瀆	-10.3481
江頭	-10.3482
數年	-10.3485
於是乎	-10.3488
言者	-10.3491
又何	-10.3491
盪	-10.3492
葩	-10.3493
洎	-10.3493
日出	-10.3497
古詩	-10.3498
此其	-10.3502
秪	-10.3504
翟	-10.3512
不絶	-10.3521
鋤	-10.3533
娛	-10.3534
咸陽	-10.3549
之罪	-10.3549
矩	-10.3557
悠然	-10.3573
上天	-10.3576
文公	-10.3576
四月	-10.3577
轅	-10.3587
稷	-10.3589
睂	-10.3595
裹	-10.3595
耻	-10.3596
眩	-10.3596
成王	-10.36
以上	-10.3604
縹緲	-10.3609
奬	-10.361
為誰	-10.3612
之任	-10.3614
倘	-10.3618
之節	-10.3626
朱子	-10.3634
骨肉	-10.3638
緬	-10.3639
為國	-10.364
府君	-10.364
亭亭	-10.3644
元氣	-10.3656
桃源	-10.3663
薫	-10.3667
鑾	-10.3668
漢家	-10.3674
觀之	-10.3676
坂	-10.3681
或曰	-10.3681
九年	-10.3683
之計	-10.3687
殁	-10.3688
數百	-10.3695
皎	-10.3695
世祖	-10.3701
模	-10.3702
拯	-10.3704
舅	-10.3704
不通	-10.3708
其功	-10.3714
呌	-10.3715
婦人	-10.3724
公孫	-10.3727
陽春	-10.3731
誌	-10.3731
斤	-10.3731
聿	-10.3737
不應	-10.3738
知君	-10.3739
而可	-10.374
為文	-10.3754
聰明	-10.3754
乃知	-10.3754
深處	-10.3756
胡為	-10.3758
徇	-10.3758
以是	-10.3758
帽	-10.3758
百世	-10.3763
隊	-10.3764
紋	-10.3765
護	-10.3766
黄花	-10.3768
此身	-10.3777
風月	-10.378
議論	-10.3781
日落	-10.3781
京兆	-10.3783
雨過	-10.3784
高祖	-10.3786
愴	-10.3787
豕	-10.379
揭	-10.3795
為政	-10.3803
之謂	-10.3803
慵	-10.3807
一何	-10.3808
議者	-10.3811
稽首	-10.3814
縛	-10.3819
有此	-10.382
無一	-10.383
倐	-10.3838
荘	-10.3844
若有	-10.3844
之辭	-10.3862
不厭	-10.3865
天人	-10.3872
古木	-10.3873
柴門	-10.3873
而莫	-10.3873
宥	-10.3873
東都	-10.3883
者又	-10.3885
所在	-10.3886
故國	-10.3886
㟁	-10.3888
還家	-10.3888
不失	-10.389
次第	-10.389
何其	-10.3894
嬾	-10.3894
公以	-10.3899
我欲	-10.3902
三公	-10.3902
若干	-10.3903
覲	-10.3903
慣	-10.3905
衆人	-10.3908
釐	-10.3912
至此	-10.3914
生民	-10.3919
霏	-10.392
水流	-10.3922
禪師	-10.3923
俸	-10.3926
燎	-10.3929
梳	-10.3932
由來	-10.3934
淹留	-10.3935
見於	-10.3935
飭	-10.3938
貺	-10.3943
鳯凰	-10.395
媒	-10.3952
粒	-10.3957
諸子	-10.3962
漢之	-10.3964
其地	-10.3969
謳	-10.397
嶠	-10.3976
悖	-10.3979
庖	-10.3981
北山	-10.3983
蟾	-10.3983
牋	-10.3984
尚有	-10.3988
祁	-10.3988
月色	-10.399
求之	-10.3991
芻	-10.3992
泯	-10.3994
少府	-10.4011
琢	-10.4018
斯人	-10.402
漆	-10.4021
溟	-10.4023
功臣	-10.4024
復何	-10.4026
棺	-10.4027
罹	-10.4033
一篇	-10.4034
駟	-10.4036
浹	-10.4036
龎	-10.4036
不合	-10.4044
絶句	-10.4045
募	-10.4047
南國	-10.4049
欠	-10.4051
緇	-10.4052
有一	-10.4055
梧桐	-10.4055
借問	-10.4056
霖	-10.4058
視之	-10.4059
别有	-10.406
閶闔	-10.4065
昔人	-10.4066
名山	-10.4068
閟	-10.4068
有大	-10.4073
溥	-10.4077
紳	-10.408
㠶	-10.4083
以致	-10.4086
弭	-10.4093
忠信	-10.4104
須臾	-10.4108
簇	-10.4111
浩蕩	-10.4115
或有	-10.4117
相從	-10.4118
依舊	-10.4119
汾	-10.4123
夜夜	-10.4125
田家	-10.414
言曰	-10.4145
明主	-10.4145
也且	-10.4146
三山	-10.4147
無處	-10.4157
榛	-10.416
於外	-10.416
其勢	-10.4164
搏	-10.4165
壮	-10.4166
忤	-10.4177
者哉	-10.4181
王氏	-10.4182
取之	-10.4192
姪	-10.4202
宫中	-10.4207
不若	-10.4207
春來	-10.4209
讎	-10.421
也則	-10.4211
不解	-10.4212
月下	-10.4216
貝	-10.4216
冉冉	-10.4222
逶迤	-10.4233
吾子	-10.4244
當其	-10.4246
莊子	-10.4246
漫漫	-10.4248
夏日	-10.4265
言其	-10.4268
不獲	-10.427
年六	-10.4274
札	-10.4278
方今	-10.4278
鼠	-10.4278
先後	-10.4283
三軍	-10.4287
無遺	-10.4288
寮	-10.4288
不免	-10.4295
潦	-10.4296
駒	-10.4298
鬻	-10.4303
僕射	-10.4304
之師	-10.4305
王道	-10.4305
秋聲	-10.4307
人者	-10.431
噴	-10.4312
菱	-10.4315
兇	-10.4318
之使	-10.4318
縫	-10.4323
塵土	-10.4327
之本	-10.4334
讌	-10.4338
帙	-10.4341
蛾	-10.4343
殺人	-10.4344
唯有	-10.4344
先生之	-10.4344
軼	-10.4347
拊	-10.4347
馨	-10.4354
諸將	-10.4354
雞鳴	-10.4356
可為	-10.436
伏惟	-10.4362
庇	-10.4369
登樓	-10.4372
周旋	-10.4374
綜	-10.4378
航	-10.4379
之數	-10.438
也吾	-10.4384
貂	-10.4385
簿	-10.4386
安可	-10.4386
周之	-10.4392
葱	-10.4394
系	-10.4395
不許	-10.4397
江陵	-10.4398
巫山	-10.4398
幄	-10.4399
惶	-10.4404
月照	-10.4412
甌	-10.4415
潺湲	-10.4417
稠	-10.4422
諾	-10.4422
長者	-10.4424
十載	-10.4424
廣陵	-10.4425
蒼生	-10.4425
衣食	-10.4425
㓂	-10.4436
楊柳	-10.4437
于是	-10.4437
馬蹄	-10.444
歙	-10.4444
孽	-10.4448
伎	-10.4455
三十年	-10.4457
摇	-10.4457
尼	-10.4461
之屬	-10.4471
茹	-10.448
棊	-10.4482
其有	-10.4482
繆	-10.4486
擕	-10.4494
人不	-10.4498
其本	-10.4498
一巻	-10.4499
螭	-10.4499
妬	-10.4499
天寒	-10.4499
詔書	-10.4502
我亦	-10.4504
北斗	-10.4504
髙樓	-10.4505
闥	-10.4506
暄	-10.4508
置酒	-10.4508
孝子	-10.451
無疆	-10.4514
稚	-10.4516
油	-10.4518
藁	-10.4518
但見	-10.452
看花	-10.4521
宣帝	-10.4521
檣	-10.4525
寘	-10.4526
五行	-10.4532
紈	-10.4532
化為	-10.4537
醪	-10.4538
夸	-10.4538
梗	-10.4539
的	-10.4539
牛羊	-10.4541
浙	-10.4543
淵明	-10.4544
未聞	-10.4544
貴賤	-10.4545
炙	-10.4546
鼇	-10.4547
甲子	-10.4549
其可	-10.4551
陜	-10.4552
訣	-10.4556
憶昔	-10.4557
馥	-10.4558
𦙍	-10.4559
上方	-10.4566
豪傑	-10.4568
悵望	-10.4569
昊	-10.4577
甘露	-10.4581
夜月	-10.4581
頸	-10.4582
青春	-10.4588
盍	-10.459
則是	-10.4594
不改	-10.4599
行行	-10.46
獨有	-10.4604
賚	-10.4606
鄉里	-10.4612
風光	-10.4615
何須	-10.4619
葺	-10.4619
古來	-10.4623
蒼苔	-10.4625
趂	-10.4626
猥	-10.4635
孤城	-10.4638
竈	-10.4638
自此	-10.4639
為大	-10.4642
辛苦	-10.4645
未見	-10.4649
之弊	-10.4652
鳳凰	-10.4652
砧	-10.4654
御定全唐詩巻	-10.4657
何也	-10.4658
弩	-10.4659
蠟	-10.4661
璞	-10.4669
萬壑	-10.4669
太和	-10.4671
剥	-10.4672
洒	-10.4673
固有	-10.4673
自謂	-10.4675
渙	-10.4679
在天	-10.4679
蒿	-10.4682
逞	-10.4684
插	-10.4685
墀	-10.4685
海棠	-10.4693
論語	-10.4696
儒者	-10.4699
一生	-10.4699
覃	-10.4705
黯	-10.4711
纖	-10.4714
五帝	-10.4717
曰我	-10.472
伺	-10.4733
有客	-10.4734
償	-10.4736
噐	-10.4739
寐	-10.4745
朙	-10.4746
挿	-10.4749
衙	-10.4754
闔	-10.4755
雲雨	-10.4757
左傳	-10.4758
依然	-10.4762
悍	-10.4762
在位	-10.4767
不宜	-10.4774
而得	-10.4775
日夕	-10.4778
松風	-10.4779
之作	-10.4786
公為	-10.4789
邯鄲	-10.4791
而死	-10.4794
迄	-10.4796
風波	-10.4805
臨水	-10.4805
其才	-10.4805
趾	-10.4806
二三	-10.4815
貧賤	-10.4816
之遺	-10.4819
垢	-10.482
煎	-10.4825
蓮花	-10.4829
山谷	-10.483
廹	-10.4832
著書	-10.4835
而言	-10.4841
三四	-10.4846
豈能	-10.4847
無極	-10.4856
之始	-10.4861
鉞	-10.4869
對酒	-10.4869
獨坐	-10.4872
知已	-10.4876
邃	-10.4879
剡	-10.4881
始知	-10.4881
自憐	-10.4882
肌	-10.4885
不起	-10.4888
墓誌銘	-10.4888
然也	-10.4888
賈誼	-10.489
煮	-10.4891
五雲	-10.4892
寤	-10.4893
廡	-10.4899
胸	-10.49
皋	-10.4901
邱	-10.4902
贍	-10.4903
而弗	-10.4909
崔嵬	-10.491
兒女	-10.491
之官	-10.4913
君家	-10.4913
人之所	-10.4917
敘	-10.4923
㕘	-10.4923
僉	-10.4923
臣竊	-10.4928
憎	-10.493
飄飄	-10.493
彤	-10.4937
其一	-10.4941
皷	-10.4942
死而	-10.4944
貞觀	-10.4945
倩	-10.495
庾信	-10.4951
慨然	-10.4953
燈火	-10.4953
多士	-10.4962
犢	-10.4964
臨川	-10.4965
聖明	-10.4966
不來	-10.4967
琳	-10.4968
掇	-10.497
憔悴	-10.4971
皇太子	-10.4972
梟	-10.4985
蟄	-10.4986
載酒	-10.4989
紂	-10.4991
大江	-10.4992
蝕	-10.4994
瞰	-10.4997
憩	-10.4999
僊	-10.4999
重陽	-10.5006
生涯	-10.501
氊	-10.501
岩	-10.5013
貎	-10.5015
鈴	-10.5015
彪	-10.5018
之恩	-10.5019
䧟	-10.5028
六百	-10.5028
般	-10.5032
第二	-10.5033
暎	-10.5033
教授	-10.5034
所欲	-10.5034
拳	-10.5036
二十四	-10.5042
萬户	-10.5042
於前	-10.5045
刹	-10.5046
以相	-10.5047
善惡	-10.505
無言	-10.5056
何者	-10.5059
罄	-10.5066
該	-10.5067
之國	-10.5068
法度	-10.5068
嶂	-10.5072
愜	-10.5074
憫	-10.5075
壯士	-10.5078
山頭	-10.5078
苛	-10.5084
與其	-10.509
太師	-10.5093
是為	-10.5095
晝夜	-10.5095
番	-10.5095
郵	-10.5101
奎	-10.5103
何有	-10.5105
匝	-10.5109
則不	-10.5122
焚香	-10.5122
從軍	-10.5132
太傅	-10.5141
熾	-10.5146
唐書	-10.5154
飇	-10.5157
弑	-10.5158
笋	-10.5159
邕	-10.5159
繭	-10.5166
之位	-10.5169
一見	-10.5173
滕	-10.5175
臨風	-10.518
唐虞	-10.518
舘	-10.5189
石門	-10.5196
燕子	-10.5197
曲江	-10.5204
宛轉	-10.5218
浚	-10.5222
三代之	-10.5225
饋	-10.523
鐸	-10.523
悽	-10.5234
貴人	-10.5237
别後	-10.5237
萬方	-10.5239
無有	-10.524
我來	-10.5248
緜	-10.5249
之重	-10.5251
鐡	-10.5254
未歸	-10.5254
白鷗	-10.5257
筭	-10.5258
嘲	-10.5269
狡	-10.527
騫	-10.5275
相看	-10.5275
風景	-10.5276
又云	-10.5278
其先	-10.5284
冗	-10.5287
山隂	-10.5292
也哉	-10.5292
銳	-10.5295
畫圖	-10.5298
册	-10.5298
朶	-10.53
王之	-10.53
銀河	-10.5312
綰	-10.5317
歌曰	-10.5322
得意	-10.5325
已而	-10.5327
蹟	-10.533
都尉	-10.5331
爾雅曰	-10.5333
遞	-10.5336
朋友	-10.5341
大抵	-10.5343
老去	-10.5343
焉而	-10.5345
經營	-10.535
巒	-10.5351
渡江	-10.5351
其義	-10.5352
派	-10.5356
胎	-10.5359
大明	-10.5362
未成	-10.5363
於朝	-10.5363
以禮	-10.5368
於其	-10.5369
汨	-10.5378
亦以	-10.5385
巔	-10.5389
寥	-10.539
萬頃	-10.5391
女子	-10.5391
送君	-10.5395
不求	-10.5396
閤	-10.5399
月中	-10.5406
刪	-10.5409
年來	-10.541
長松	-10.5416
賖	-10.5417
笻	-10.5417
治之	-10.5419
波濤	-10.5419
無異	-10.5421
線	-10.5425
喬木	-10.5426
南海	-10.5426
訛	-10.543
矣今	-10.543
秋草	-10.5431
貲	-10.5434
殞	-10.5435
鎭	-10.5438
未易	-10.544
樂天	-10.5441
河漢	-10.5441
四夷	-10.5441
誰為	-10.5444
南京	-10.5444
翕	-10.545
囿	-10.5454
江流	-10.5454
無可	-10.5454
楚辭曰	-10.5455
豎	-10.5456
道者	-10.5462
所宜	-10.5471
曵	-10.5473
翩	-10.5478
星辰	-10.5479
未至	-10.5481
蓑	-10.5481
竹林	-10.549
數日	-10.5493
然其	-10.5495
而上	-10.5498
蛩	-10.5507
送李	-10.5508
與子	-10.5509
所以為	-10.5509
榭	-10.5511
㢘	-10.5517
其父	-10.5521
家人	-10.5523
嫩	-10.5523
其能	-10.5524
教化	-10.5528
羽翼	-10.5535
莫敢	-10.5536
隨風	-10.5536
庠	-10.5537
賞罰	-10.554
幾何	-10.5541
八百	-10.5542
半夜	-10.5542
楫	-10.5546
泗	-10.5552
而作	-10.5553
杭	-10.5553
蹉跎	-10.5554
岱	-10.5559
雖不	-10.556
白鶴	-10.5561
偶然	-10.5563
黄葉	-10.5565
新安	-10.5566
屑	-10.5567
賂	-10.5568
杪	-10.5572
長城	-10.5573
贖	-10.5577
因以	-10.5584
文苑英華巻	-10.5586
此意	-10.5588
厄	-10.5588
故也	-10.5588
惰	-10.5591
玲瓏	-10.5591
恍	-10.5593
甄	-10.5602
跪	-10.5603
契丹	-10.5608
之職	-10.5611
之能	-10.5612
彭城	-10.5613
所作	-10.5613
制度	-10.5616
殄	-10.5618
之役	-10.5622
鞠	-10.5623
歸心	-10.5629
以明	-10.5629
状	-10.5636
聖朝	-10.5637
一杯	-10.5638
言語	-10.5642
巍巍	-10.5646
碧雲	-10.5647
此中	-10.5647
班固	-10.5649
盛徳	-10.5655
磴	-10.5655
不入	-10.5656
之妙	-10.5656
稔	-10.5656
光輝	-10.5659
監察御史	-10.5659
太極	-10.5661
企	-10.5666
斷腸	-10.5666
清溪	-10.5667
思君	-10.5667
之聲	-10.567
之流	-10.5675
弋	-10.5677
㤀	-10.5677
巘	-10.5678
作者	-10.568
樓上	-10.5683
脉	-10.5684
跋	-10.5686
為一	-10.5687
又以	-10.5687
遯	-10.5691
不息	-10.5691
藪	-10.5692
滛	-10.5692
婁	-10.5695
三五	-10.5702
屹	-10.5702
之門	-10.5704
稟	-10.5704
劫	-10.5707
垂楊	-10.5707
熏	-10.5708
耿耿	-10.5708
鯉	-10.5717
都督	-10.5718
不食	-10.572
冢	-10.572
四面	-10.5736
以告	-10.5736
壅	-10.5738
囬	-10.5739
二千石	-10.5739
掲	-10.5739
皎皎	-10.5742
十一月	-10.5743
幽居	-10.5746
籟	-10.5746
兒童	-10.5752
蒼梧	-10.5756
匣	-10.5759
起居	-10.5759
矣故	-10.5762
泠泠	-10.5762
而欲	-10.5766
肅肅	-10.5768
以文	-10.5768
摹	-10.5768
王安石	-10.577
霜露	-10.5774
太行	-10.5783
蓼	-10.5788
蘇州	-10.5789
望之	-10.579
而行	-10.5794
其民	-10.5795
幾人	-10.5795
秦王	-10.5796
求其	-10.5799
龕	-10.5799
肝	-10.5806
王室	-10.5807
閏	-10.5808
魚龍	-10.5808
水中	-10.5809
旂	-10.5818
撓	-10.5823
安危	-10.5827
遂以	-10.5828
士卒	-10.583
浩浩	-10.5831
棠	-10.5841
五代	-10.5844
無定	-10.5846
以聞	-10.585
麒麟	-10.5852
惻	-10.5855
長生	-10.5856
惕	-10.5859
飛來	-10.586
嬴	-10.5864
拓	-10.5866
酒酣	-10.5869
無數	-10.5869
佚	-10.5872
旃	-10.5873
節度使	-10.5874
參軍	-10.5875
漁父	-10.5876
此則	-10.5881
相知	-10.5883
者何	-10.5883
忠義	-10.5884
一葉	-10.5885
則又	-10.5887
减	-10.5889
箱	-10.5892
不能自	-10.5892
或以	-10.5896
不善	-10.5896
夙夜	-10.5898
名也	-10.5902
舊遊	-10.5905
鉛	-10.5905
江淮	-10.5907
金華	-10.5908
饌	-10.5918
閫	-10.5918
風霜	-10.592
百家	-10.592
太湖	-10.5921
誄	-10.5923
頥	-10.5927
逺山	-10.593
劣	-10.5931
䨇	-10.5933
茸	-10.5933
他年	-10.5936
故山	-10.5938
罵	-10.5942
尚書曰	-10.5945
霜雪	-10.5946
和氣	-10.5946
墉	-10.5948
摶	-10.5949
所思	-10.5949
蘓	-10.595
而非	-10.5952
鈿	-10.5956
尋常	-10.5958
之實	-10.5959
無任	-10.5959
無益	-10.5962
㝢	-10.5963
鎻	-10.597
瑣	-10.597
鄉人	-10.5973
杜甫	-10.5974
而知	-10.5981
法師	-10.5985
得一	-10.5986
泄	-10.5987
使其	-10.5989
一方	-10.5992
天門	-10.5992
真人	-10.5992
伊尹	-10.5995
迸	-10.5996
頤	-10.5996
洪武	-10.5996
可知	-10.5996
不從	-10.5999
騖	-10.6002
至矣	-10.6007
惱	-10.6008
慟	-10.6008
昔年	-10.6012
語曰	-10.6013
非其	-10.6017
所至	-10.6023
長洲	-10.6024
涸	-10.6025
𥘉	-10.6027
也臣	-10.6027
不測	-10.6029
不明	-10.6029
之君	-10.603
煌煌	-10.6031
薄暮	-10.6032
昻	-10.6032
亢	-10.6033
之憂	-10.6034
萊	-10.6035
長歌	-10.6036
大王	-10.6041
有意	-10.6043
黔	-10.605
不止	-10.6051
時節	-10.6053
有聲	-10.6057
使我	-10.606
倪	-10.6063
現	-10.6067
爾乃	-10.6069
擔	-10.6071
知有	-10.6073
草色	-10.6074
月夜	-10.6082
陀	-10.6083
西域	-10.6085
慄	-10.6085
準	-10.6086
斃	-10.6087
芳菲	-10.609
長嘯	-10.6091
隳	-10.6095
萬象	-10.6095
晷	-10.6101
皇天	-10.6105
彛	-10.6107
經年	-10.6107
者多	-10.611
㨗	-10.6111
黄昏	-10.6114
隈	-10.6116
不已	-10.6116
婢	-10.6117
走馬	-10.6118
杞	-10.6123
鑠	-10.6123
歆	-10.6127
斛	-10.6128
幢	-10.6133
七日	-10.6134
不妨	-10.6136
衲	-10.614
左氏傳	-10.6143
經過	-10.6143
茵	-10.6146
五臣本	-10.6149
人言	-10.6152
雋	-10.6155
禍福	-10.6162
中秋	-10.617
烝	-10.6171
有常	-10.6171
筐	-10.6172
瑜	-10.6172
門人	-10.6172
智者	-10.6176
芸	-10.6177
曼	-10.6179
莫如	-10.6182
中山	-10.6183
無私	-10.6185
宋玉	-10.6185
思歸	-10.619
僣	-10.6194
蛾眉	-10.6195
與我	-10.6202
復有	-10.6208
相憶	-10.6209
始終	-10.621
造物	-10.6214
歌聲	-10.6216
説文曰	-10.6221
笙歌	-10.6227
沽	-10.6227
天際	-10.6231
加以	-10.6234
郡守	-10.6234
西園	-10.6239
豈惟	-10.6239
多病	-10.6239
武昌	-10.6242
眸	-10.625
鈔	-10.625
五更	-10.6253
暮春	-10.6254
蜜	-10.6255
反覆	-10.626
璫	-10.6264
煦	-10.6271
為天下	-10.6273
螺	-10.6274
無用	-10.6275
太息	-10.6276
山僧	-10.6276
則無	-10.6277
孤雲	-10.6286
而况	-10.6288
弁	-10.6289
鬛	-10.629
紹興	-10.6292
之音	-10.6294
恊	-10.6295
中夜	-10.6297
九天	-10.6299
翊	-10.6302
西京	-10.6307
礪	-10.6311
則曰	-10.6314
玉樹	-10.6315
非一	-10.6317
之賢	-10.6319
旭	-10.6321
薇	-10.6324
殖	-10.6327
溫	-10.633
悠	-10.6331
睇	-10.6331
滿地	-10.6337
千餘	-10.6339
之資	-10.634
先君	-10.6343
萬一	-10.635
屈原	-10.6354
武功	-10.6355
覿	-10.6357
章句	-10.6361
百花	-10.6362
多情	-10.6364
扃	-10.6367
龔	-10.6368
琅玕	-10.6371
雌	-10.6373
夷狄	-10.6374
洋洋	-10.6376
篋	-10.6377
不問	-10.6379
鞅	-10.6382
寥廓	-10.6384
給事中	-10.6388
所聞	-10.6391
相親	-10.6392
則必	-10.6394
不樂	-10.6399
如雲	-10.64
爲之	-10.6401
扈	-10.6406
吾道	-10.6406
不可得	-10.6407
吸	-10.6409
無他	-10.6415
宫室	-10.6421
而卒	-10.6427
股	-10.6431
楚王	-10.6432
天下之人	-10.6434
聞其	-10.6434
相傳	-10.6436
泓	-10.6436
皇甫	-10.6439
東北	-10.644
淒	-10.6443
神武	-10.6445
濟濟	-10.6449
楊花	-10.6456
東門	-10.6457
矣其	-10.6458
大雅	-10.6459
想見	-10.6461
何許	-10.6463
繁華	-10.6469
鵝	-10.647
知我	-10.6473
不獨	-10.6473
笏	-10.6478
古文	-10.6479
虎豹	-10.6479
風煙	-10.6484
蔑	-10.6485
也昔	-10.6486
有三	-10.6487
五六	-10.6487
聮	-10.6488
言也	-10.6491
颯	-10.6492
歐	-10.6492
陸機	-10.6492
劉氏	-10.6493
不亦	-10.6494
股肱	-10.6494
檢校	-10.6498
沈沈	-10.6502
畨	-10.6503
曰是	-10.6503
髙堂	-10.6504
遲遲	-10.6506
不似	-10.6509
優游	-10.651
狩	-10.651
鏗	-10.6517
園林	-10.6519
潄	-10.652
南風	-10.6522
舉進士	-10.6525
匱	-10.6525
湖山	-10.6525
是用	-10.653
恪	-10.6532
而求	-10.6534
而民	-10.6535
幕府	-10.6538
清夜	-10.6547
存亡	-10.6551
教之	-10.6556
少卿	-10.6557
清光	-10.6562
忠孝	-10.6564
之詩	-10.6564
瓜	-10.6566
箋	-10.6566
㕔	-10.657
石室	-10.6576
夣	-10.6579
州人	-10.6583
赫赫	-10.6584
麋鹿	-10.6585
謠	-10.6585
飬	-10.6586
棧	-10.6593
訊	-10.6596
千山	-10.6598
軍中	-10.6599
雷霆	-10.66
之謀	-10.6602
不惜	-10.6612
御史中丞	-10.6616
餓	-10.6624
治亂	-10.6628
一曰	-10.6636
管仲	-10.6639
瓢	-10.6639
所知	-10.6641
大業	-10.6646
敢不	-10.6648
銓	-10.6651
胸中	-10.6654
鳥獸	-10.6658
詩成	-10.6662
詩一首	-10.6665
不辭	-10.6666
百餘	-10.6666
霏霏	-10.6672
洩	-10.6673
月滿	-10.6674
主事	-10.6681
至是	-10.6683
烟霞	-10.6683
明珠	-10.6691
眼前	-10.6697
菊花	-10.6698
顏	-10.6701
在此	-10.6702
蕭然	-10.6703
歎曰	-10.6707
在兹	-10.6708
郡國	-10.671
華山	-10.671
之道也	-10.6711
店	-10.6713
小臣	-10.6716
之主	-10.6717
千門	-10.672
易曰	-10.672
可見	-10.6728
盼	-10.6731
談笑	-10.6734
於後	-10.6736
事業	-10.6737
月落	-10.6737
行事	-10.675
相隨	-10.6755
我皇	-10.6756
部郎中	-10.6756
杜陵	-10.6757
天寳	-10.6758
至正	-10.6759
遘	-10.6761
稿	-10.6761
行樂	-10.6765
欒	-10.6767
鐘聲	-10.6768
則知	-10.6769
朝陽	-10.6769
河陽	-10.6771
杭州	-10.6774
匹夫	-10.6775
南史	-10.6777
涌	-10.6781
嘉靖	-10.6783
者或	-10.6787
漢王	-10.6787
之家	-10.6788
閣下	-10.6796
閻	-10.6799
斟	-10.68
所藏	-10.6804
囘首	-10.6805
永嘉	-10.6806
以謂	-10.6807
豈獨	-10.6807
爪	-10.6811
泝	-10.6814
延年	-10.6816
洋	-10.6817
也自	-10.6822
邢	-10.6823
婚	-10.6831
楚辭	-10.6832
為客	-10.6837
棋	-10.6838
牟	-10.684
沂	-10.6841
鍊	-10.6843
幾度	-10.6845
丙	-10.6853
鴛	-10.6855
娘	-10.6857
張公	-10.6859
城下	-10.6864
彚	-10.6869
璽	-10.6873
與夫	-10.6876
小兒	-10.6877
此皆	-10.6878
毗	-10.688
與世	-10.6882
封侯	-10.6882
僭	-10.6889
腴	-10.6893
脈	-10.6895
其力	-10.6901
娯	-10.6901
在上	-10.6903
狥	-10.6904
自為	-10.6905
不禁	-10.6918
可惜	-10.6918
以至	-10.6922
於中	-10.6927
不疑	-10.6931
舄	-10.6931
而立	-10.6933
愼	-10.6937
覇	-10.6938
之精	-10.6945
自號	-10.6951
之權	-10.6958
其辭	-10.696
臆	-10.697
乎此	-10.6973
丹陽	-10.6973
蕊	-10.698
冥冥	-10.6982
杉	-10.6984
其説	-10.699
梨	-10.6992
禆	-10.6995
遊子	-10.6998
可得	-10.6998
猶可	-10.7
水旱	-10.7003
鉢	-10.7007
九江	-10.7008
城西	-10.7012
于今	-10.7012
建安	-10.7014
其始	-10.7015
事君	-10.7017
而出	-10.7018
通判	-10.7018
始皇	-10.7019
上疏	-10.7019
風生	-10.703
秋雨	-10.703
槖	-10.7033
以詩	-10.7034
姑蘇	-10.7037
田園	-10.7037
木蘭	-10.7038
沈約	-10.7047
撼	-10.7049
此言	-10.7052
江城	-10.7053
蕭瑟	-10.7053
花枝	-10.7053
那得	-10.7057
蛙	-10.7065
東流	-10.7068
稜	-10.7068
人君	-10.7069
不逺	-10.7072
人人	-10.7078
季子	-10.7078
則為	-10.708
無功	-10.7084
其時	-10.7084
脅	-10.7085
髙帝	-10.7092
桓公	-10.7093
爾其	-10.7097
花發	-10.7103
自言	-10.7107
是則	-10.7109
翰墨	-10.711
絹	-10.7111
嫉	-10.7114
緝	-10.7115
溼	-10.7116
青松	-10.7118
故有	-10.7123
大事	-10.7124
渇	-10.7124
記曰	-10.7129
承恩	-10.7129
溪水	-10.7129
翰林學士	-10.713
繹	-10.7132
故云	-10.7132
堂上	-10.7133
圎	-10.7134
者乃	-10.7138
何能	-10.7138
因其	-10.7141
春山	-10.7147
天意	-10.7148
忻	-10.7148
非吾	-10.7153
聖徳	-10.7154
秦漢	-10.7155
威儀	-10.7156
幡	-10.7158
郁	-10.7158
綽	-10.716
賢人	-10.7163
承天	-10.7165
月上	-10.7165
清秋	-10.7169
攢	-10.7169
家貧	-10.717
荆棘	-10.7171
明帝	-10.7171
云爾	-10.7173
也非	-10.7174
常侍	-10.7176
譙	-10.7177
於下	-10.7178
坑	-10.7179
我有	-10.7179
髙下	-10.7179
芥	-10.7185
二十五	-10.7185
售	-10.7186
未幾	-10.7186
藝文	-10.7188
砥	-10.7191
旒	-10.7191
十二月	-10.7192
好學	-10.7193
功業	-10.7196
損益	-10.7198
霄漢	-10.7199
御史大夫	-10.72
無乃	-10.7201
心事	-10.7201
隴西	-10.7202
寥寥	-10.7204
二公	-10.7204
瀛	-10.7208
暈	-10.7211
月出	-10.7212
於道	-10.7212
莫若	-10.7215
斜日	-10.7218
左氏	-10.722
逺遊	-10.7221
向來	-10.7223
孰能	-10.7231
把酒	-10.7231
人知	-10.7232
元祐	-10.7234
泉石	-10.7234
木葉	-10.7235
日以	-10.7236
嵗時	-10.7236
佑	-10.7238
嗤	-10.7244
王師	-10.7246
讀之	-10.7249
一夕	-10.725
四人	-10.725
鶻	-10.7255
悶	-10.7259
感激	-10.726
慝	-10.7261
鐫	-10.7263
至尊	-10.7265
夜來	-10.7266
逺矣	-10.7267
廟堂	-10.7272
無所不	-10.7276
世俗	-10.7277
叫	-10.7279
瀨	-10.7281
塊	-10.7282
登山	-10.7282
之教	-10.7293
曹植	-10.7295
驪	-10.7295
湘水	-10.7298
煙雨	-10.7298
離騷	-10.7299
行路	-10.7301
鵞	-10.7307
其國	-10.7309
况復	-10.7312
樓閣	-10.7314
虗	-10.7314
悅	-10.7315
大義	-10.7317
戰國	-10.7319
風動	-10.732
掉	-10.732
睨	-10.7322
者雖	-10.7323
野水	-10.7325
趙王	-10.7328
五千	-10.7335
磧	-10.7341
父兄	-10.7344
清江	-10.7344
前日	-10.7348
耽	-10.7349
已見	-10.735
宣王	-10.7351
校尉	-10.7353
平地	-10.7355
不逮	-10.7355
渝	-10.7356
滄溟	-10.7357
鄂	-10.7359
愉	-10.7365
先人	-10.7366
溪山	-10.7372
卻	-10.7375
水上	-10.7378
人倫	-10.738
華陽	-10.7381
囀	-10.7383
之性	-10.7383
彷彿	-10.7384
懦	-10.7385
南方	-10.7388
一本	-10.7389
廣雅曰	-10.739
姻	-10.7394
湖南	-10.7397
俎	-10.7397
天外	-10.7398
東歸	-10.7399
羽林	-10.74
執政	-10.7405
誰復	-10.7409
闌干	-10.7409
有情	-10.7411
霰	-10.7412
有二	-10.7412
二者	-10.7421
複	-10.7421
以安	-10.7421
送别	-10.7422
城東	-10.7422
可與	-10.7423
漢魏	-10.7426
妹	-10.7427
其君	-10.7433
燦	-10.7434
不去	-10.7436
之德	-10.7436
之要	-10.7438
弘	-10.7438
雞犬	-10.7439
如水	-10.744
林泉	-10.744
後來	-10.7446
十五年	-10.7446
抃	-10.7448
重來	-10.7465
苕	-10.7465
叱	-10.7465
深山	-10.7468
中天	-10.7468
能使	-10.747
侍從	-10.747
親戚	-10.7474
此生	-10.7476
南宫	-10.7477
竟何	-10.7479
萼	-10.748
乎哉	-10.748
需	-10.7483
千人	-10.7483
且夫	-10.7484
净	-10.7484
舸	-10.7484
指揮	-10.7485
疑作	-10.7489
春深	-10.7494
蘆花	-10.7494
徳之	-10.7495
有懐	-10.7499
盎	-10.7499
窘	-10.7508
千尺	-10.751
必以	-10.7511
日照	-10.7512
烽	-10.7513
圜	-10.7514
湄	-10.7516
繕	-10.7517
譴	-10.7517
之㫖	-10.7525
堵	-10.7525
譁	-10.7527
榦	-10.7533
明府	-10.7534
疵	-10.7535
哺	-10.7535
號令	-10.7537
敖	-10.7542
二十八	-10.7542
耐	-10.7543
其大	-10.7545
有人	-10.7545
無端	-10.7546
國史	-10.7548
雲霞	-10.7552
荷花	-10.7557
中人	-10.7557
孺	-10.7558
在乎	-10.7558
長樂	-10.7559
溉	-10.7561
道德	-10.7563
掣	-10.7563
用事	-10.7564
同年	-10.7564
盜賊	-10.7565
以事	-10.7566
于時	-10.7569
不可不	-10.7569
此去	-10.757
稱其	-10.7574
公諱	-10.7582
太公	-10.7584
客來	-10.7588
吾聞	-10.7588
夢裏	-10.7589
而致	-10.759
只有	-10.7594
白鳥	-10.7598
杜甫詩	-10.7598
梨花	-10.7598
骸	-10.7599
何哉	-10.76
人語	-10.7608
不廢	-10.7608
李氏	-10.7609
爍	-10.7623
閎	-10.7626
難得	-10.7626
林間	-10.7627
夫婦	-10.763
挑	-10.7632
飄颻	-10.7634
屨	-10.7639
長短	-10.7639
瀑布	-10.7642
老夫	-10.7642
性命	-10.7644
詆	-10.7645
徃徃	-10.7647
池塘	-10.7648
擘	-10.7651
縞	-10.7652
霓裳	-10.7653
諸葛	-10.7654
漢武	-10.7657
相送	-10.7662
挫	-10.7669
聖王	-10.7673
石壁	-10.7673
此篇	-10.7679
之治	-10.7682
牘	-10.7683
寡人	-10.7684
扆	-10.7686
大人	-10.7688
同知	-10.769
流光	-10.769
豈徒	-10.7691
艇	-10.7693
是知	-10.7697
相識	-10.7697
六朝	-10.7704
秋山	-10.7705
雖欲	-10.7707
不任	-10.771
留别	-10.771
有罪	-10.7711
紅葉	-10.7713
噪	-10.7714
天風	-10.7714
吾將	-10.7715
相繼	-10.7715
落落	-10.7719
山上	-10.7721
數千	-10.7723
韓信	-10.7729
風雅	-10.7733
椎	-10.7733
成敗	-10.7733
十二年	-10.7739
而為之	-10.774
先是	-10.7744
六首	-10.7748
幔	-10.7749
曰子	-10.7749
壠	-10.7752
北海	-10.776
雲霧	-10.7763
疇昔	-10.7768
松栢	-10.7769
頰	-10.7772
廩	-10.7772
鬱鬱	-10.7777
今夕	-10.7778
䘏	-10.7779
猗	-10.7784
鑪	-10.7788
聯	-10.7794
翥	-10.7799
它	-10.78
冬至	-10.7804
籙	-10.7806
國語	-10.7811
者豈	-10.7816
釣魚	-10.7817
可不	-10.7819
李公	-10.782
平陽	-10.7823
賑	-10.7826
超然	-10.7827
奉使	-10.7829
殃	-10.783
聆	-10.7831
雖無	-10.7833
是謂	-10.7833
瞽	-10.7834
如此則	-10.7838
宗室	-10.7839
不安	-10.7845
封禪	-10.7849
璋	-10.785
來往	-10.7851
崢嶸	-10.7852
清流	-10.7855
其書	-10.7856
藕	-10.7856
不稱	-10.7859
沓	-10.7862
飜	-10.7864
有言	-10.7868
擎	-10.7871
行役	-10.7876
來者	-10.7877
之誠	-10.7878
嶼	-10.7884
一世	-10.7885
人世	-10.7886
至公	-10.7887
豐年	-10.789
禎	-10.7891
培	-10.7896
麤	-10.7897
鏡中	-10.7897
為善	-10.7902
不寐	-10.7904
一一	-10.7905
上柱國	-10.7905
興亡	-10.7915
禮記曰	-10.7918
往事	-10.792
髙宗	-10.7923
以備	-10.7927
今夜	-10.7927
朂	-10.7928
此事	-10.7935
靡不	-10.7936
龍蛇	-10.794
碣	-10.7941
人臣	-10.7942
櫓	-10.7943
太古	-10.7944
杵	-10.7944
老翁	-10.7946
浙江	-10.795
不下	-10.7951
極目	-10.7952
而不敢	-10.7953
漁舟	-10.7953
廷尉	-10.7959
元帥	-10.796
而止	-10.7961
崑山	-10.7969
穆穆	-10.7971
胷	-10.7971
之議	-10.7974
風露	-10.7981
不平	-10.7981
有異	-10.7983
推官	-10.7984
莓苔	-10.7992
鈍	-10.7999
命之	-10.8006
秦人	-10.8007
嵗寒	-10.8009
燧	-10.8011
丹砂	-10.8013
瘁	-10.8016
懐古	-10.802
無因	-10.8021
兀	-10.8021
曛	-10.8025
甚矣	-10.803
終南	-10.8033
濳	-10.8036
燼	-10.8037
同時	-10.804
有天下	-10.8045
確	-10.8046
何不	-10.8046
縠	-10.8047
晋	-10.8048
賄	-10.8048
所能	-10.8049
本末	-10.8053
叠	-10.8055
俘	-10.8057
第三	-10.8058
隻	-10.8065
書生	-10.8068
朝來	-10.8069
王母	-10.8069
之威	-10.8072
籥	-10.8076
之失	-10.8078
流涕	-10.8086
不知所	-10.809
學校	-10.8091
明皇	-10.8092
羇	-10.8092
起於	-10.8093
圖畫	-10.8095
雨聲	-10.8096
海門	-10.8101
湖水	-10.8104
嗔	-10.8104
雲林	-10.8111
當今	-10.8111
蟹	-10.8114
蠻夷	-10.8116
竹枝	-10.8117
瑾	-10.8118
兩岸	-10.812
開門	-10.8121
鬰	-10.8121
積雪	-10.8121
難為	-10.8122
其情	-10.8124
斵	-10.813
瘠	-10.8134
亦自	-10.8136
蒹葭	-10.814
其不	-10.8141
年華	-10.8143
絶頂	-10.8144
自從	-10.8145
幃	-10.8146
拭	-10.8147
欣然	-10.8148
羣生	-10.8148
春寒	-10.8156
雲夢	-10.8157
驩	-10.8158
孟子曰	-10.816
昂	-10.8161
中庸	-10.8163
弧	-10.8165
昔日	-10.8167
朔方	-10.8172
闗山	-10.8173
不可勝	-10.8175
相似	-10.8176
帝王之	-10.8176
更有	-10.8177
之兵	-10.8178
雲霄	-10.8182
之體	-10.8183
送王	-10.8184
上元	-10.8185
夜宿	-10.8187
卞	-10.8187
筝	-10.819
暮雨	-10.819
誰謂	-10.8193
吝	-10.8196
絲竹	-10.8198
而今	-10.8198
退而	-10.8198
攅	-10.8198
躔	-10.8199
部員外郎	-10.82
當是時	-10.82
藜	-10.8202
男兒	-10.8204
噬	-10.8205
知名	-10.8208
幾年	-10.821
野老	-10.8212
而不得	-10.8217
提舉	-10.822
金玉	-10.8225
邂逅	-10.8226
古寺	-10.8227
感慨	-10.8232
歌行	-10.8234
平湖	-10.8236
晤	-10.8237
長風	-10.8239
桂樹	-10.8239
虢	-10.824
誚	-10.8243
糜	-10.8244
謂其	-10.8244
悴	-10.8245
丘壑	-10.8249
行路難	-10.8255
蹋	-10.8257
綢繆	-10.826
矚	-10.8263
潢	-10.8263
涓	-10.8272
秘書	-10.8274
千峰	-10.8275
鎬	-10.8276
微風	-10.828
娱	-10.8282
朱門	-10.8284
事有	-10.8286
之未	-10.8289
東宫	-10.8291
霆	-10.8292
潞	-10.8294
州郡	-10.83
黷	-10.8303
恰	-10.8305
賦一首	-10.8306
吉凶	-10.8307
員外郎	-10.8308
堂堂	-10.8308
悲風	-10.8308
張氏	-10.8309
家家	-10.831
鉏	-10.831
躅	-10.8313
翎	-10.8313
沽酒	-10.8313
者謂	-10.8313
飛去	-10.8315
覊	-10.8315
圖書	-10.8315
仆	-10.8322
之典	-10.8322
無此	-10.8324
也此	-10.8325
有遺	-10.8331
郤	-10.8332
甍	-10.8332
玉女	-10.8332
秦之	-10.8341
其罪	-10.8344
形容	-10.8345
行者	-10.8347
諸侯之	-10.8351
從而	-10.8357
百川	-10.8359
窄	-10.8359
謝公	-10.836
髦	-10.836
粥	-10.8363
如玉	-10.8364
也乃	-10.8367
繒	-10.837
焉其	-10.8371
雲飛	-10.8372
濮	-10.8372
笑語	-10.8376
一㸃	-10.8377
伏以	-10.8381
給事	-10.8381
秋江	-10.8381
由此	-10.8383
之靈	-10.8384
留連	-10.8386
何則	-10.8389
不負	-10.8392
者無	-10.8392
䖏	-10.8393
一名	-10.8393
氣象	-10.8394
英華	-10.8396
表裏	-10.8397
鷁	-10.8397
肴	-10.8397
詔令	-10.8403
早春	-10.8403
凉風	-10.8404
何異	-10.8404
也然則	-10.8404
緫	-10.8408
撤	-10.8412
前代	-10.8416
翼翼	-10.8418
金谷	-10.8419
失之	-10.8421
文選	-10.8423
元帝	-10.843
湮	-10.843
後漢書	-10.8434
送人	-10.8436
白水	-10.8436
此亦	-10.8436
凌雲	-10.8439
所言	-10.844
那知	-10.8445
枝葉	-10.8445
嘉興	-10.8445
越王	-10.8446
乃以	-10.8446
欝	-10.8447
某官	-10.8451
舊時	-10.8451
存者	-10.8451
賢良	-10.8452
之極	-10.8455
炭	-10.8457
猾	-10.8459
無餘	-10.8459
三子	-10.8461
覈	-10.8461
字仲	-10.8462
車騎	-10.8464
無常	-10.8466
禮也	-10.8466
看山	-10.8468
址	-10.847
今已	-10.8473
管絃	-10.8474
禽獸	-10.8475
厠	-10.8477
不少	-10.8478
𣺌	-10.8478
詹	-10.8479
以正	-10.8482
錦繡	-10.8485
萬邦	-10.8487
叚	-10.8488
雨雪	-10.8489
六國	-10.8491
孺子	-10.8492
人自	-10.8492
以奉	-10.8495
泮	-10.8497
沫	-10.85
非不	-10.8507
冡	-10.8509
於民	-10.851
笞	-10.851
而易	-10.8512
雨餘	-10.8514
廬陵	-10.8515
様	-10.8515
掬	-10.8517
與天	-10.8521
蕉	-10.8524
亥	-10.8528
日已	-10.8531
之㑹	-10.8531
惟其	-10.8535
飛花	-10.8536
容與	-10.8537
明時	-10.8538
中郎	-10.8541
何言	-10.8546
吳王	-10.8547
歲月	-10.8549
屯田	-10.8549
朝日	-10.8552
不離	-10.8554
㡌	-10.8557
江左	-10.8557
何妨	-10.8559
山澤	-10.8561
偃蹇	-10.8567
弱冠	-10.857
言而	-10.8571
珠簾	-10.8573
搴	-10.8574
扄	-10.8575
罇	-10.8576
阡	-10.8576
濛濛	-10.8578
置之	-10.8581
?	-10.8584
瓠	-10.8584
逵	-10.8587
止於	-10.8588
七百	-10.8593
不聽	-10.8596
自非	-10.8599
譯	-10.8601
太僕	-10.8601
臭	-10.8604
徃來	-10.8605
北闕	-10.8613
笠	-10.8613
今人	-10.8613
王侯	-10.8614
翛然	-10.8615
二日	-10.8616
鳥飛	-10.8617
紫微	-10.8621
無聞	-10.8623
麝	-10.8626
竅	-10.8627
王曰	-10.8627
㓕	-10.8627
鑰	-10.8628
浩然	-10.8628
東平	-10.8631
至誠	-10.8633
得罪	-10.8636
中和	-10.8642
之化	-10.8643
蜃	-10.8645
燄	-10.8646
鸎	-10.8647
古道	-10.8647
太清	-10.8652
開國	-10.8653
孝友	-10.8657
願言	-10.8657
光景	-10.8661
冨	-10.8663
出為	-10.8663
槁	-10.8664
白鷺	-10.8666
不畏	-10.8669
舫	-10.867
用其	-10.867
姊	-10.8676
為詩	-10.8678
以後	-10.8678
怳	-10.8682
乆矣	-10.8682
滿眼	-10.8686
匏	-10.8686
小大	-10.8688
氓	-10.8693
陌上	-10.8694
峩	-10.8696
相去	-10.87
西方	-10.87
文辭	-10.87
代之	-10.8701
泛舟	-10.8702
桑麻	-10.8703
為此	-10.8705
别業	-10.8706
蹔	-10.8706
是日	-10.8706
啼鳥	-10.871
永樂	-10.8712
流離	-10.8715
宋李昉等編	-10.8717
蠅	-10.8717
正直	-10.8724
相尋	-10.8725
濺	-10.8726
樓船	-10.8727
河水	-10.8733
矛	-10.8734
城頭	-10.8734
椽	-10.8734
谷口	-10.8734
杜鵑	-10.8734
茫	-10.8738
夜坐	-10.8738
軒轅	-10.874
淇	-10.8745
寒泉	-10.8745
吁嗟	-10.8745
大理	-10.8747
至如	-10.8748
至元	-10.8751
歘	-10.8753
到處	-10.8755
葭	-10.8755
針	-10.8756
僮	-10.8756
其性	-10.8758
鳶	-10.8764
新月	-10.8766
菩薩	-10.877
秋霜	-10.8774
騎馬	-10.8774
嫡	-10.8775
曇	-10.8775
可得而	-10.8776
蔡邕	-10.8777
勘	-10.8779
其詩	-10.878
寸心	-10.8781
稽古	-10.8783
修竹	-10.8784
幌	-10.8785
曰夫	-10.8786
炬	-10.8788
也謂	-10.8789
睹	-10.8796
歴歴	-10.8796
松柏	-10.8798
漣	-10.8798
黄門	-10.8802
諳	-10.8806
小子	-10.8809
天氣	-10.8813
髩	-10.8815
惟恐	-10.8816
拆	-10.8816
十首	-10.8817
卽	-10.8818
於兹	-10.8824
去去	-10.8827
諸儒	-10.8832
賓客	-10.8833
而至	-10.8833
西陵	-10.8834
三徑	-10.8835
將相	-10.8835
昭王	-10.8836
南浦	-10.8841
空餘	-10.8846
迪	-10.8846
諸君	-10.885
於心	-10.8851
者固	-10.8851
潯陽	-10.8855
只今	-10.8857
君恩	-10.8861
十餘年	-10.8861
遼東	-10.8861
揚子	-10.8863
碧玉	-10.8863
織女	-10.8863
睠	-10.8863
必先	-10.8863
而取	-10.8864
蹲	-10.8867
吼	-10.8869
仄	-10.887
雲外	-10.887
右丞	-10.8874
傳之	-10.8875
七夕	-10.8876
嬋娟	-10.8876
而必	-10.8881
石橋	-10.8881
琦	-10.8883
家有	-10.8885
疋	-10.8886
臉	-10.8888
至若	-10.8888
十三年	-10.8889
飫	-10.8891
娃	-10.8898
花下	-10.8898
而獨	-10.8899
官至	-10.8901
乃有	-10.8902
同歸	-10.8903
侍御史	-10.8903
江邊	-10.8905
其利	-10.8906
忽然	-10.891
伯夷	-10.891
歸於	-10.8915
百戰	-10.8918
光明	-10.8919
漪	-10.892
者衆	-10.892
忽見	-10.8921
一去	-10.8922
杳杳	-10.8922
牽牛	-10.8926
東林	-10.8927
禋	-10.8927
中間	-10.8932
視其	-10.8935
經術	-10.8938
渺渺	-10.8938
子雲	-10.894
言事	-10.8945
吏民	-10.8945
非常	-10.8946
紫芝	-10.8947
食之	-10.895
無塵	-10.8957
可觀	-10.8961
以報	-10.8963
夢魂	-10.8964
爾雅	-10.8964
子也	-10.8966
踟蹰	-10.8968
諮	-10.8971
出塞	-10.8973
宫殿	-10.8975
風急	-10.8976
陜西	-10.8977
羣公	-10.8977
珥	-10.8979
尚可	-10.898
其次	-10.898
生平	-10.8981
之異	-10.8982
多矣	-10.8985
異於	-10.8987
楚人	-10.8992
國朝	-10.8993
金門	-10.8993
花間	-10.8995
倐忽	-10.8996
旻	-10.8999
手足	-10.8999
侯之	-10.9
于此	-10.9003
亦非	-10.9004
六龍	-10.9006
堰	-10.9011
將帥	-10.9014
猶自	-10.9015
席上	-10.9021
變而	-10.9022
偈	-10.9024
觀者	-10.9028
四五	-10.9028
光照	-10.9031
天竺	-10.9033
以道	-10.9033
文章辨體彚選巻	-10.9036
翺翔	-10.9038
掘	-10.9042
治天下	-10.9044
雪中	-10.9046
率土	-10.9053
丈人	-10.9053
拖	-10.9054
此乃	-10.9055
秋來	-10.9057
木落	-10.9059
功徳	-10.906
暮雲	-10.9061
金吾	-10.9071
赭	-10.9072
癖	-10.9073
自以為	-10.9074
揺落	-10.9075
赤城	-10.9079
城上	-10.908
盛衰	-10.9081
可乎	-10.9082
脆	-10.9082
蘄	-10.9083
不加	-10.9086
檝	-10.9088
叅軍	-10.909
項羽	-10.9093
肖	-10.9097
齊王	-10.9097
覧	-10.9102
萬嵗	-10.9103
久之	-10.9106
髙臺	-10.9107
遂使	-10.9108
依稀	-10.9109
千丈	-10.9111
日月之	-10.9113
一時之	-10.9113
飄零	-10.9122
穩	-10.9124
羅浮	-10.9128
吹簫	-10.9128
才子	-10.9131
相期	-10.9131
款	-10.9132
有竒	-10.9133
顥	-10.9136
官吏	-10.9139
周易曰	-10.9141
已矣	-10.9141
燕趙	-10.9145
翠華	-10.9148
始於	-10.9152
濠	-10.9152
為主	-10.9153
蹴	-10.9156
山陽	-10.9157
莊子曰	-10.9157
皆可	-10.9158
主上	-10.9163
施行	-10.9164
進士第	-10.9166
男女	-10.9166
入朝	-10.9167
擾擾	-10.9168
黄鵠	-10.9173
重重	-10.9174
闕下	-10.9176
龍虎	-10.9176
呵	-10.9177
蒐	-10.9179
穉	-10.9179
賈生	-10.918
而忘	-10.9184
北方	-10.9185
能為	-10.9185
建章	-10.9185
菽	-10.9185
贏	-10.9185
三王	-10.9186
夢寐	-10.9187
二十二	-10.9188
近臣	-10.9191
去國	-10.9192
如雪	-10.9193
酉	-10.9194
紱	-10.9194
煙波	-10.9195
其弊	-10.9199
昇平	-10.9201
浮生	-10.9201
南渡	-10.9202
蟋蟀	-10.9205
穏	-10.9217
寖	-10.9217
闐	-10.9217
孕	-10.922
工部	-10.922
京華	-10.922
緡	-10.9223
楷	-10.9223
芳樹	-10.9223
猶存	-10.9223
飛龍	-10.9223
鳥啼	-10.9223
兢	-10.9225
缾	-10.9229
中道	-10.923
湘江	-10.923
入門	-10.923
嵯峨	-10.9231
墅	-10.9232
其職	-10.9238
憇	-10.9239
蒼龍	-10.924
漬	-10.9241
方丈	-10.9241
中央	-10.9242
所載	-10.9244
也是以	-10.9244
知縣	-10.9247
天文	-10.9251
飄然	-10.9253
在昔	-10.9253
庶人	-10.9254
人多	-10.9254
成化	-10.9259
窅	-10.9261
酋	-10.9263
經綸	-10.9265
徐州	-10.9268
婆娑	-10.9271
餅	-10.9272
爼	-10.9272
峩峩	-10.9272
不違	-10.9273
之費	-10.9274
倖	-10.9275
可使	-10.9277
攄	-10.928
駑	-10.9282
斫	-10.9283
蔥	-10.9283
草樹	-10.9286
劉向	-10.9286
也是	-10.9286
吾之	-10.929
嶺南	-10.9291
謐	-10.9292
臣子	-10.9294
紀綱	-10.9298
内史	-10.9299
兩三	-10.9301
十一年	-10.9301
芹	-10.9302
之亂	-10.9302
濛	-10.9303
不可見	-10.9304
羅衣	-10.9305
含情	-10.9305
㪚	-10.9306
他鄉	-10.931
太夫人	-10.9313
應有	-10.9314
論曰	-10.9314
疑是	-10.9315
清廟	-10.9316
衿	-10.9316
各自	-10.9317
固已	-10.9318
玉帛	-10.9319
八九	-10.932
老僧	-10.9322
縑	-10.9324
少陵	-10.9325
入於	-10.9325
七十二	-10.9326
篠	-10.9326
山西	-10.9327
宣城	-10.9329
嶷	-10.9334
祭祀	-10.9335
事者	-10.9335
不得不	-10.9337
皃	-10.9343
因循	-10.9344
欲盡	-10.9344
遡	-10.9344
仙家	-10.9345
其徳	-10.9346
汶	-10.9347
十四年	-10.935
陬	-10.9355
日斜	-10.9357
春江	-10.9357
未詳	-10.9357
千仞	-10.9358
杖藜	-10.9361
王維	-10.9365
不學	-10.9369
校書	-10.9369
安國	-10.937
物外	-10.9371
百王	-10.9377
臨江	-10.9379
三更	-10.9383
死於	-10.9388
史官	-10.9389
世有	-10.9389
虎丘	-10.9394
長年	-10.9398
鷓鴣	-10.9399
櫻桃	-10.9399
唾	-10.9399
我行	-10.94
行客	-10.9405
橈	-10.9406
後漢	-10.9409
梁王	-10.9409
穫	-10.9411
及此	-10.9417
儒學	-10.9417
退之	-10.9417
號為	-10.9418
芍藥	-10.9419
好惡	-10.942
人為	-10.9422
販	-10.9425
瀛洲	-10.9426
夜泊	-10.9426
不願	-10.943
禾黍	-10.9431
鶩	-10.9432
槿	-10.9433
好事	-10.9437
漁樵	-10.9439
青絲	-10.9439
星斗	-10.944
驄	-10.9443
炯	-10.9444
圉	-10.9445
有酒	-10.9446
崑	-10.9446
笑曰	-10.9449
卵	-10.9453
梭	-10.9455
王粲	-10.9455
剽	-10.9455
紛紜	-10.9457
庭前	-10.9457
空谷	-10.9458
不思	-10.9461
五陵	-10.9462
之所謂	-10.9463
摛	-10.9464
一舉	-10.9464
嬪	-10.9465
婆	-10.9473
瞿	-10.9476
碁	-10.9476
筒	-10.9476
忘其	-10.9478
新聲	-10.9479
瓌	-10.9479
松江	-10.9481
雙闕	-10.9483
留客	-10.9484
;	-10.9485
水邊	-10.9485
而起	-10.9486
捫	-10.9486
孝經	-10.9487
欲使	-10.9489
瑶池	-10.949
錐	-10.949
之句	-10.9493
天性	-10.9494
其形	-10.9495
殯	-10.9495
躁	-10.9495
城市	-10.9496
不一	-10.9497
問之	-10.9497
若為	-10.9497
集序	-10.9503
察其	-10.9503
非所以	-10.9504
詩句	-10.9505
驢	-10.9506
批	-10.9511
師道	-10.9516
人亦	-10.9516
則天下	-10.9517
玉壺	-10.9517
者所以	-10.9521
唐人	-10.9524
雜詩	-10.9527
顆	-10.9529
以言	-10.9532
凭	-10.9536
湯武	-10.9536
自成	-10.9537
而來	-10.9537
之迹	-10.9537
千百	-10.954
者如	-10.954
守之	-10.954
殊未	-10.9541
遊人	-10.9541
昔在	-10.9544
如彼	-10.9545
歐陽修	-10.9547
客愁	-10.9554
之善	-10.9556
瀟灑	-10.9556
眼中	-10.9557
公侯	-10.9561
廪	-10.9563
㝠㝠	-10.9564
佳氣	-10.9567
用心	-10.9567
渡河	-10.957
之南	-10.957
其辭曰	-10.9571
將何	-10.9572
脣	-10.9573
鑣	-10.9573
琉璃	-10.9573
吳越	-10.9577
三峽	-10.9577
帝子	-10.9578
老矣	-10.9579
知人	-10.958
妣	-10.9581
非無	-10.9581
既已	-10.9581
直言	-10.9584
突兀	-10.9586
寕	-10.9587
春雲	-10.9589
四明	-10.9594
無際	-10.9595
僵	-10.9595
乎夫	-10.9596
蕨	-10.9596
至徳	-10.9597
集賢	-10.9598
斯言	-10.9599
九華	-10.96
已成	-10.9602
一也	-10.9602
臣以	-10.9605
得此	-10.9605
兵馬	-10.9606
問曰	-10.9608
隴頭	-10.9611
子厚	-10.9615
對此	-10.9617
喙	-10.9617
薊	-10.9622
不取	-10.9622
以養	-10.9625
訥	-10.9627
繄	-10.9631
孤山	-10.9635
號曰	-10.9637
齎	-10.9638
篙	-10.9639
偶成	-10.9645
不斷	-10.9646
此二	-10.965
以死	-10.9655
秋氣	-10.9658
閽	-10.9658
鼓吹	-10.9661
昌黎	-10.9664
明徳	-10.9665
无	-10.9666
連山	-10.9667
之儀	-10.9669
長門	-10.967
皆為	-10.9672
秋光	-10.9675
青樓	-10.9677
曰臣	-10.9677
而反	-10.9679
未敢	-10.9682
迢遞	-10.9683
布政	-10.9684
之勞	-10.9686
百丈	-10.9691
其用	-10.9695
其聲	-10.9697
暇日	-10.9699
有待	-10.97
一物	-10.9703
顚	-10.9703
神女	-10.9704
腸斷	-10.9705
雙飛	-10.9707
正統	-10.9708
不遺	-10.9711
庾信詩	-10.9711
為樂	-10.9713
者是	-10.9714
古意	-10.9715
所當	-10.9717
祔	-10.9719
花飛	-10.9723
知者	-10.9723
之宜	-10.9725
泫	-10.9728
纍纍	-10.9728
癸	-10.9729
夘	-10.9729
驅馳	-10.9731
潁川	-10.9735
散騎常侍	-10.9735
有志	-10.9735
矣又	-10.9738
客有	-10.974
捍	-10.974
太史公	-10.974
待制	-10.974
櫛	-10.974
忘歸	-10.9742
二千	-10.9743
長吏	-10.9745
黄雲	-10.9748
總管	-10.9751
無力	-10.9754
字伯	-10.9757
輕舟	-10.9759
朝朝	-10.976
滇	-10.9761
又聞	-10.9762
關山	-10.9762
世而	-10.9763
其位	-10.9765
睢	-10.9769
緑水	-10.9775
無涯	-10.9777
長卿	-10.9779
相過	-10.9781
大者	-10.9783
安樂	-10.9786
雲門	-10.9787
天機	-10.9789
自今	-10.9789
雲漢	-10.9794
聫	-10.9795
時事	-10.9795
先聖	-10.9796
白沙	-10.9798
孔明	-10.98
衡門	-10.98
流落	-10.9802
自笑	-10.9803
其說	-10.9804
譬如	-10.9804
相顧	-10.9805
洄	-10.9806
不避	-10.9807
悲歌	-10.9807
農夫	-10.981
灞	-10.9812
青苔	-10.9817
諦	-10.9821
考之	-10.9822
彎	-10.9826
繚	-10.9826
燔	-10.9826
兵部	-10.9831
驍	-10.9836
而行之	-10.9837
轄	-10.9837
燠	-10.9838
松下	-10.9839
所由	-10.9843
一室	-10.9845
猶能	-10.9847
送張	-10.9847
滄江	-10.9849
笥	-10.985
往還	-10.9851
數聲	-10.9853
光禄	-10.9854
白蘋	-10.9857
嘗聞	-10.9858
公私	-10.9859
一事	-10.986
拈	-10.986
瑰	-10.9863
之前	-10.9863
仁者	-10.9863
其在	-10.9869
青草	-10.9875
薜蘿	-10.9876
大梁	-10.9879
蘭亭	-10.9879
譎	-10.9879
譲	-10.9881
山行	-10.9882
所著	-10.9883
平沙	-10.9883
簿書	-10.9889
筮	-10.989
空中	-10.9895
今為	-10.9896
嚼	-10.9897
歿	-10.9897
祜	-10.9897
之東	-10.9897
昊天	-10.9898
弃	-10.9901
清泉	-10.9903
平王	-10.9904
熹	-10.9905
數月	-10.9906
陰陽	-10.9906
悲夫	-10.9907
遨	-10.9908
岷	-10.991
堯舜之	-10.9912
憾	-10.9913
自昔	-10.9917
孰與	-10.9918
山前	-10.9925
紺	-10.9927
奉詔	-10.9928
使天下	-10.9928
吟詩	-10.9928
京口	-10.9929
知是	-10.9931
施於	-10.9931
行也	-10.9933
烽火	-10.9934
來時	-10.9935
顛倒	-10.9936
向人	-10.9936
不爲	-10.9939
南面	-10.9945
懈	-10.995
詩序	-10.995
鐘鼓	-10.9951
三司	-10.9952
千官	-10.9957
征伐	-10.9958
聞而	-10.996
﨑嶇	-10.9962
鹵	-10.9965
西來	-10.9965
殘月	-10.9969
莫之	-10.997
臺上	-10.9974
汜	-10.9975
攜手	-10.9975
元日	-10.9976
從今	-10.9978
山月	-10.9981
之不可	-10.9982
浮屠	-10.9983
不克	-10.9984
駁	-10.9987
男子	-10.999
百代	-10.9991
淮海	-10.9991
無間	-10.9992
扶風	-10.9992
淮南子曰	-10.9993
此非	-10.9994
㒺	-10.9996
舟楫	-10.9996
存乎	-10.9997
河間	-11.0004
近世	-11.0004
曦	-11.0005
朱顔	-11.0008
五經	-11.0009
逗	-11.0009
滂	-11.0009
天下之事	-11.0012
之形	-11.0015
扁	-11.0015
光華	-11.0016
揣	-11.0017
吹笛	-11.0017
舛	-11.0018
花滿	-11.0018
刈	-11.0019
雲開	-11.002
顰	-11.002
金馬	-11.0022
三分	-11.0022
廿	-11.0023
其他	-11.0027
賡	-11.0028
炫	-11.0031
菌	-11.0032
識者	-11.0032
遒	-11.0033
凄凉	-11.0033
禮部尚書	-11.0036
不愛	-11.0037
溪流	-11.0039
雪滿	-11.0042
襃	-11.0043
於内	-11.0045
大師	-11.0046
不治	-11.0047
可用	-11.0048
得人	-11.0048
髙山	-11.005
渭水	-11.0054
有能	-11.0057
鴻雁	-11.0063
宫闕	-11.0063
於物	-11.0065
岐路	-11.0067
春歸	-11.0068
海水	-11.0068
發於	-11.0071
也嗚呼	-11.0071
愛之	-11.0076
世所	-11.0079
而爲	-11.0087
吳興	-11.0087
糓	-11.0087
闗中	-11.0088
景物	-11.009
彭澤	-11.0091
之甚	-11.0091
彈琴	-11.0093
稚子	-11.0094
世家	-11.0094
方外	-11.0096
法令	-11.0096
豚	-11.0098
眄	-11.0099
世上	-11.0099
諛	-11.0101
南樓	-11.0101
直道	-11.0101
膩	-11.0102
古之人	-11.0102
隨時	-11.0104
查	-11.0111
三世	-11.0112
夫子之	-11.0113
未始	-11.0114
聲名	-11.0115
本朝	-11.0116
征人	-11.0119
酒杯	-11.012
浣	-11.0122
盂	-11.0124
郊祀	-11.0124
南征	-11.0131
神靈	-11.0131
客心	-11.0132
而退	-11.0132
逢人	-11.0133
雖復	-11.0134
倣	-11.0137
天馬	-11.0137
甥	-11.0139
汝南	-11.0142
勛	-11.0144
唐太宗	-11.0145
嵗暮	-11.0147
雲生	-11.015
書院	-11.015
壻	-11.0151
赤壁	-11.0153
聖賢之	-11.0154
亦已	-11.0157
豈得	-11.0161
黄鶴	-11.0162
人無	-11.0162
酒醒	-11.0163
抄	-11.0167
長老	-11.0171
連天	-11.0173
吾君	-11.0178
稼穡	-11.0181
泳	-11.0181
歸来	-11.0184
舟行	-11.0185
南望	-11.0185
皇極	-11.0185
子産	-11.0186
茫然	-11.0186
鴟	-11.0189
國家之	-11.019
無罪	-11.0191
港	-11.0192
深入	-11.0196
正是	-11.0199
在我	-11.02
籜	-11.0202
窈	-11.0203
北望	-11.0205
亦未	-11.0206
雅頌	-11.0206
文集	-11.0207
月華	-11.0208
諸軍	-11.021
非常之	-11.0213
磵	-11.0214
琴瑟	-11.0216
捉	-11.0217
尖	-11.0218
風來	-11.022
髙樹	-11.0222
居之	-11.0227
楮	-11.0227
菑	-11.0228
銖	-11.0228
之詞	-11.0232
萎	-11.0236
而進	-11.0236
帝曰	-11.0238
幾日	-11.0241
拂衣	-11.0242
湖州	-11.0243
風物	-11.0246
樂也	-11.0249
爻	-11.0251
㤗	-11.0251
蓬蒿	-11.0253
願陛下	-11.0256
何曽	-11.026
莘	-11.026
昭昭	-11.0261
縉紳	-11.0262
長夜	-11.0263
澈	-11.0264
禁中	-11.0265
明發	-11.0266
茅茨	-11.0267
自天	-11.0267
褰	-11.0268
願得	-11.0269
黼	-11.0272
秖	-11.0274
蹶	-11.0274
芟	-11.0275
編修	-11.0275
仁宗	-11.0276
可以為	-11.0279
未免	-11.028
數萬	-11.0282
那堪	-11.0283
惹	-11.0287
志在	-11.0288
雲深	-11.0289
安石	-11.0297
以俟	-11.0297
刷	-11.0299
忘機	-11.0301
蝗	-11.0301
八極	-11.0302
梁簡文帝	-11.0304
天下之大	-11.0305
之方	-11.0306
不仁	-11.031
歌詩	-11.0311
汀洲	-11.0314
萬餘	-11.0318
人才	-11.032
漢宫	-11.0321
核	-11.0321
八荒	-11.0324
罍	-11.0326
憂患	-11.0327
中州	-11.0329
寒山	-11.0329
匡廬	-11.0329
鈞天	-11.033
吏部尚書	-11.0331
沛公	-11.0332
腕	-11.0335
臣下	-11.034
蕩蕩	-11.0344
書事	-11.0344
隠居	-11.0347
復見	-11.0349
孺人	-11.0354
掀	-11.0354
聖皇	-11.0354
愷	-11.0357
准	-11.0358
舊章	-11.0359
而難	-11.0361
以濟	-11.0364
無主	-11.0365
也於是	-11.0366
對月	-11.0367
晃	-11.037
以公	-11.0372
飛泉	-11.0377
修撰	-11.0377
雲起	-11.0378
也余	-11.0378
精舍	-11.0378
尚未	-11.0379
縻	-11.038
鼉	-11.038
鬯	-11.0381
酈	-11.0381
南歸	-11.0382
受其	-11.0382
人力	-11.0383
泉聲	-11.0384
却憶	-11.0388
悞	-11.039
辭曰	-11.039
佳期	-11.039
襦	-11.0393
無恙	-11.0395
兵革	-11.0397
之具	-11.0398
追封	-11.0399
無疑	-11.0401
殘雪	-11.0401
徙倚	-11.0402
畀	-11.0403
轟	-11.0406
能言	-11.0406
北極	-11.0408
不變	-11.0408
近日	-11.0409
不傳	-11.0409
獨行	-11.0414
芋	-11.0415
同遊	-11.0417
后土	-11.0417
漢唐	-11.0417
其門	-11.0417
合於	-11.0419
王莽	-11.0422
氤氲	-11.0427
兕	-11.0427
漉	-11.0429
百草	-11.0432
三朝	-11.0433
清晨	-11.0433
南郊	-11.0435
衡陽	-11.0438
碧落	-11.044
一徑	-11.044
所稱	-11.0443
誰憐	-11.0444
鳥鳴	-11.0447
郭璞	-11.0447
明矣	-11.0449
羲和	-11.0451
表一首	-11.0454
劉禹錫	-11.0458
九疑	-11.046
楚國	-11.046
洵	-11.0461
乃命	-11.0462
人意	-11.0462
東京	-11.0462
左丞	-11.0465
樓前	-11.0473
也予	-11.0474
長楊	-11.0475
不勞	-11.0477
千樹	-11.0479
無能	-11.048
甲兵	-11.048
欲知	-11.0481
善人	-11.0485
物也	-11.0486
髙士	-11.0487
罔不	-11.0489
良辰	-11.049
便是	-11.049
尊酒	-11.0497
採蓮	-11.0498
觜	-11.0499
國有	-11.0499
騐	-11.05
屛	-11.0501
塹	-11.0502
滄波	-11.0504
涼風	-11.0506
惜哉	-11.0506
補闕	-11.0506
西望	-11.0507
波瀾	-11.0508
亡國	-11.0509
毬	-11.051
滎陽	-11.0511
偹	-11.0515
我家	-11.0515
珠玉	-11.0516
繳	-11.0521
昔時	-11.0521
豈其	-11.0522
曰昔	-11.0523
濓	-11.0524
飛鴻	-11.0525
而見	-11.0525
㵼	-11.0525
所及	-11.0527
可畏	-11.0528
草草	-11.0528
國子	-11.0532
徳音	-11.0532
之舊	-11.0533
燿	-11.0534
公事	-11.0534
名士	-11.0534
彞	-11.0534
此又	-11.0543
綺羅	-11.0545
命也	-11.0548
魚鳥	-11.0549
相和	-11.0552
襄公	-11.0555
其親	-11.0557
幘	-11.0557
貿	-11.0557
一官	-11.0558
黄鳥	-11.056
無名	-11.0562
數千里	-11.0564
不生	-11.0565
風雪	-11.0565
西東	-11.0568
孝武	-11.0569
嗟夫	-11.0571
不得已	-11.0572
驪山	-11.0573
鍾山	-11.0573
萬家	-11.0575
來歸	-11.0576
方寸	-11.0581
之域	-11.059
無愧	-11.059
之私	-11.0593
承明	-11.0596
昭明	-11.0597
至其	-11.0598
司馬遷	-11.0602
天心	-11.0604
九霄	-11.0608
更無	-11.0611
行雲	-11.0614
絕	-11.0618
謝靈運	-11.0618
蕚	-11.0618
犂	-11.0618
形勢	-11.0619
欲去	-11.062
甃	-11.0622
成帝	-11.0622
者蓋	-11.0628
樽酒	-11.0629
穗	-11.0631
肘	-11.0631
鳴琴	-11.0632
知制誥	-11.0637
都門	-11.0637
為名	-11.0642
謫仙	-11.0643
事也	-11.0644
不窮	-11.0645
之效	-11.0648
直上	-11.0649
潘岳	-11.0649
昆弟	-11.0652
寒雲	-11.0653
脊	-11.0655
養生	-11.0659
而用之	-11.0664
獨自	-11.0665
莫道	-11.0665
滄	-11.0666
賒	-11.0668
流俗	-11.0669
翬	-11.0671
十數	-11.0675
前年	-11.0677
相應	-11.0678
盈盈	-11.0678
療	-11.0678
太廟	-11.0679
沙門	-11.068
魔	-11.0681
筌	-11.0682
揔	-11.0682
徒以	-11.0684
㺯	-11.0684
所不能	-11.0689
樗	-11.0692
刑罰	-11.0692
其理	-11.0692
球	-11.0693
史記曰	-11.0694
凛	-11.0696
夏侯	-11.0698
冉	-11.0699
之孫	-11.0702
無地	-11.0705
易之	-11.0706
客路	-11.0707
之機	-11.0709
坼	-11.0709
之深	-11.0712
紫宸	-11.0713
筋	-11.0714
侍讀	-11.0715
不返	-11.0715
壹	-11.0716
灾	-11.0716
焉則	-11.0716
以慰	-11.0717
雨晴	-11.0717
日長	-11.0718
我今	-11.0719
購	-11.0721
陽侯	-11.0725
贄	-11.0727
佳句	-11.0729
日新	-11.0729
衣服	-11.073
短長	-11.0732
自相	-11.0735
如在	-11.0735
明公	-11.0736
其母	-11.0737
飡	-11.0741
恠	-11.0741
後生	-11.0744
上客	-11.0748
城闕	-11.0748
矣哉	-11.0749
一醉	-11.0749
而終	-11.075
天河	-11.0751
山深	-11.0752
抹	-11.0754
鶯啼	-11.0755
夫以	-11.0756
糴	-11.0758
有五	-11.0758
幽棲	-11.0759
星河	-11.076
之吏	-11.076
簒	-11.0762
函谷	-11.0764
竟不	-11.0765
何似	-11.0767
嘉祐	-11.077
庭樹	-11.077
臨流	-11.0771
乎曰	-11.0774
穠	-11.0777
絢	-11.0777
滔滔	-11.078
豺狼	-11.0781
芭蕉	-11.0782
鎔	-11.0782
周公之	-11.0788
飛燕	-11.0789
松竹	-11.0791
孟軻	-11.0791
胡不	-11.0792
立功	-11.0792
屍	-11.0793
有如	-11.08
楚客	-11.0802
之分	-11.0802
菰	-11.0802
隧	-11.0803
澀	-11.0805
大國	-11.0806
冬日	-11.0808
能知	-11.0812
輓	-11.0815
械	-11.0816
而生	-11.0818
頓首	-11.0818
諸人	-11.0819
之仁	-11.082
以疾	-11.0821
李斯	-11.0821
山房	-11.0821
風前	-11.0821
伏惟陛下	-11.0823
二十七	-11.0823
不才	-11.0823
聞君	-11.0825
豳	-11.0826
蔕	-11.0826
之竒	-11.0827
逍遙	-11.0827
志士	-11.0832
塞上	-11.0833
神州	-11.0834
古人之	-11.0836
常恐	-11.0838
而入	-11.0838
四壁	-11.084
清河	-11.0841
一望	-11.0843
幸而	-11.0844
今來	-11.0845
日益	-11.0845
其私	-11.0847
槃	-11.0851
纜	-11.0852
躭	-11.0853
美酒	-11.0854
淺深	-11.0856
雲臺	-11.0857
累遷	-11.0857
本傳	-11.0857
神人	-11.0857
形骸	-11.0858
邊城	-11.0859
文昌	-11.0862
中書令	-11.0862
名臣	-11.0864
焰	-11.0864
縹	-11.0864
其三	-11.0864
身世	-11.0866
虵	-11.0867
髓	-11.0869
盞	-11.0876
山有	-11.0876
然自	-11.0877
荇	-11.0877
襍	-11.0877
下詔	-11.0878
晉侯	-11.0878
新晴	-11.0882
河朔	-11.0883
平章	-11.0883
讃	-11.0886
故以	-11.0887
者誰	-11.0888
其行	-11.0889
娟娟	-11.089
擊之	-11.0895
瀝	-11.0896
荔	-11.0897
東家	-11.0898
供奉	-11.0899
近體詩	-11.0899
離宫	-11.09
有詩	-11.0902
彬	-11.0903
汗漫	-11.0903
菁	-11.0903
一心	-11.0904
樹色	-11.0906
茂陵	-11.0907
不得其	-11.0908
安在	-11.0908
非獨	-11.0909
不驚	-11.0909
中心	-11.091
鵰	-11.0912
水清	-11.0915
摭	-11.0915
城外	-11.0917
十人	-11.0918
誰言	-11.0921
規模	-11.0923
未識	-11.0923
神龍	-11.0923
之先	-11.0924
西河	-11.0926
鏘	-11.0926
齧	-11.0928
撞	-11.0929
𤨏	-11.0929
五侯	-11.0933
蜀道	-11.0934
悚	-11.0938
冽	-11.0939
曄	-11.0939
琛	-11.0941
琮	-11.0942
汲汲	-11.0943
獨往	-11.0946
歸舟	-11.0948
者歟	-11.0956
何物	-11.0956
一夫	-11.0958
乃為	-11.0959
塋	-11.0959
之語	-11.0959
如有	-11.0962
物色	-11.0962
邠	-11.0963
三光	-11.0965
愕	-11.0966
報國	-11.0966
箏	-11.0967
二曰	-11.0969
再三	-11.097
蝸	-11.0978
江州	-11.0979
於國	-11.098
縣官	-11.0981
有名	-11.0985
又見	-11.0987
駛	-11.0988
法也	-11.0989
風雷	-11.099
悄	-11.0991
其氣	-11.0994
時聞	-11.0999
受之	-11.1001
燥	-11.1004
氷雪	-11.1005
周室	-11.1005
不可得而	-11.1006
之必	-11.1007
者惟	-11.1008
鳥聲	-11.1011
七言	-11.1011
其徒	-11.1013
明文海巻	-11.1014
亦云	-11.1015
世無	-11.1016
時來	-11.1017
沔	-11.1018
相忘	-11.1019
吠	-11.1022
枕上	-11.1026
肺	-11.1027
漢興	-11.1028
麋	-11.1029
矣此	-11.1037
喉	-11.1039
東郊	-11.1039
盗賊	-11.104
有神	-11.1041
秃	-11.1042
愽	-11.1043
長子	-11.1044
躑躅	-11.1052
犧	-11.1052
志曰	-11.1053
夫何	-11.1054
以義	-11.1054
吻	-11.1055
僑	-11.1056
雖未	-11.1056
以見	-11.1061
相依	-11.1062
山南	-11.1063
知己	-11.1065
水雲	-11.1065
茆	-11.1065
終於	-11.1066
官府	-11.1067
爽氣	-11.1067
神功	-11.1073
五馬	-11.1074
詩文	-11.1076
思之	-11.1077
水聲	-11.1077
使持節	-11.1078
恨不	-11.1079
行道	-11.1084
在焉	-11.1084
升降	-11.1086
始得	-11.1086
縣人	-11.1091
涎	-11.1091
至則	-11.1092
江北	-11.1094
亦復	-11.1094
遂為	-11.1096
五人	-11.1102
華亭	-11.1104
觥	-11.1104
聾	-11.1104
畋	-11.1105
彭蠡	-11.1105
愬	-11.1106
江河	-11.1107
改元	-11.1108
犬吠	-11.1111
可知也	-11.1112
萬乗	-11.1112
繼之	-11.1113
怖	-11.1116
江樓	-11.1117
歸田	-11.1117
駱	-11.1117
白鹿	-11.1118
不立	-11.1119
君臣之	-11.1119
之原	-11.1121
縉	-11.1121
隂隂	-11.1122
周官	-11.1122
留守	-11.1124
客子	-11.1124
雖云	-11.1125
不可復	-11.1125
盛時	-11.1126
蠱	-11.1127
煑	-11.1132
别來	-11.1132
海外	-11.1133
明明	-11.1133
孔氏	-11.1134
巫峽	-11.1135
非我	-11.1139
或謂	-11.114
鉉	-11.1142
老樹	-11.1142
東陽	-11.1143
晁	-11.1143
舎人	-11.1144
𢎞治	-11.1145
睡起	-11.1147
踞	-11.1149
其法	-11.115
靈臺	-11.1152
未暇	-11.1153
嘆曰	-11.1153
范蠡	-11.1153
東風吹	-11.1155
酹	-11.1156
冺	-11.1157
之路	-11.1159
也彼	-11.116
用也	-11.116
聖人之道	-11.1161
孔子之	-11.1161
服之	-11.1163
有無	-11.1164
山雲	-11.1164
性情	-11.1166
何謂	-11.1166
訂	-11.1167
攷	-11.1168
蔭	-11.1169
洞天	-11.1173
盤桓	-11.1174
禮之	-11.1176
百辟	-11.1179
讚	-11.1179
諸王	-11.1179
煉	-11.1183
黠	-11.1183
俛	-11.1183
持節	-11.1183
若無	-11.1183
廂	-11.1183
贈别	-11.1184
遺風	-11.1187
人嘉靖	-11.1189
孫子	-11.119
桴	-11.1192
櫟	-11.1193
襄王	-11.1194
承平	-11.1197
昭陽	-11.1197
六藝	-11.1199
赤松	-11.1199
大節	-11.12
議郎	-11.12
石倉歴代詩選巻	-11.1204
應是	-11.1205
剰	-11.1207
舉人	-11.1211
未甞	-11.1213
漁陽	-11.1214
復為	-11.1215
亦曰	-11.1216
扼	-11.1219
團團	-11.122
有懷	-11.1221
南州	-11.1222
武侯	-11.1224
稍稍	-11.1224
懌	-11.1226
也凡	-11.1228
朔風	-11.1229
其業	-11.1229
明王	-11.1231
唇	-11.1231
張衡	-11.1235
淋漓	-11.1235
錦衣	-11.1238
濟南	-11.124
其生	-11.1241
齊魯	-11.1244
四顧	-11.1249
大司馬	-11.1251
一水	-11.1252
居人	-11.1254
愠	-11.1256
郎官	-11.1257
園中	-11.1258
醖	-11.1259
漢武帝	-11.126
不移	-11.1261
珍重	-11.1263
也公	-11.1265
即是	-11.1267
金碧	-11.1274
半空	-11.1275
虞集	-11.1277
吾心	-11.1281
葉落	-11.1281
萬民	-11.1282
鴻鴈	-11.1284
藍田	-11.1285
小山	-11.1285
阮籍	-11.1285
百神	-11.1287
曰君	-11.1287
龍飛	-11.1287
而稱	-11.1287
明君	-11.1288
過於	-11.1288
忽聞	-11.1288
多事	-11.1288
洞房	-11.129
天下之士	-11.129
夲	-11.129
方知	-11.1292
河流	-11.1292
玉臺	-11.1292
不以為	-11.1293
四句	-11.1294
之神	-11.1295
蹕	-11.1297
風聲	-11.1298
之害	-11.1299
唐之	-11.1302
京城	-11.1304
花前	-11.1306
不假	-11.1307
蝴蝶	-11.1307
殉	-11.1309
時為	-11.1309
盛德	-11.1311
白晝	-11.1313
不便	-11.1313
耒	-11.1315
翠羽	-11.1315
䟦	-11.1321
燃	-11.1324
之器	-11.1324
不察	-11.1324
隗	-11.1324
歳月	-11.133
吾所	-11.133
三載	-11.1331
之所為	-11.1331
縶	-11.1334
柘	-11.1334
皇皇	-11.1337
舉世	-11.1338
亦知	-11.134
哉夫	-11.1343
而使	-11.1344
腹心	-11.1344
毛詩	-11.1346
惇	-11.1348
千嵗	-11.1348
曝	-11.135
債	-11.135
蕭索	-11.1351
太華	-11.1353
無多	-11.1353
以来	-11.1354
大功	-11.136
久不	-11.1361
巽	-11.1361
逺方	-11.1367
仰天	-11.137
離羣	-11.1373
贅	-11.1375
幸得	-11.1376
漢中	-11.1377
元戎	-11.1377
鱠	-11.1378
老病	-11.1381
清歌	-11.1382
十有二	-11.1383
耦	-11.1385
他時	-11.1386
女兒	-11.1388
根本	-11.1391
圯	-11.1391
寧知	-11.1392
身在	-11.1393
容易	-11.1393
不由	-11.1394
雲水	-11.1396
侍宴	-11.14
形於	-11.1401
瘞	-11.1402
乃作	-11.1404
起舞	-11.1406
後有	-11.1407
異同	-11.141
終古	-11.1411
旦夕	-11.1412
明鏡	-11.1412
駝	-11.1413
西施	-11.1413
跂	-11.1414
杜牧	-11.1415
煙霧	-11.1416
之表	-11.1416
天威	-11.1416
風日	-11.1417
森森	-11.1417
於其間	-11.1418
愛其	-11.1418
李陵	-11.1421
荷葉	-11.1423
焉故	-11.1424
宗皇帝	-11.1424
左氏傳曰	-11.1426
驃騎	-11.1427
典禮	-11.1427
𤣥宗	-11.1427
萬物之	-11.1428
陳迹	-11.1433
之福	-11.1433
瑶臺	-11.1433
其體	-11.1434
避暑	-11.1434
豈復	-11.1434
前山	-11.1437
三江	-11.1438
落照	-11.1438
出其	-11.1439
孰不	-11.1441
嗇	-11.1442
縳	-11.1443
還鄉	-11.1444
以取	-11.1445
榮辱	-11.1446
雲端	-11.1446
郡邑	-11.1447
晶	-11.145
故老	-11.1451
閬	-11.1451
不仕	-11.1451
砂	-11.1453
髙閣	-11.1455
司馬相如	-11.1457
并州	-11.1459
水火	-11.1459
精誠	-11.146
三欽定四庫全書	-11.1462
萋萋	-11.1464
之常	-11.1464
之狀	-11.1466
逓	-11.1468
長河	-11.147
巍	-11.1471
菲	-11.1471
今陛下	-11.1473
天下無	-11.1474
今夫	-11.1474
幽谷	-11.1479
和平	-11.148
漢陽	-11.1481
疫	-11.1485
裒	-11.1485
雲南	-11.1485
而猶	-11.1486
采蓮	-11.1487
渡頭	-11.1498
皇帝陛下	-11.1501
浩歌	-11.1501
白紵	-11.1501
馳騁	-11.1502
年正月	-11.1503
前世	-11.1505
老成	-11.1506
九成	-11.1507
天下者	-11.1508
櫪	-11.1509
王者之	-11.1517
青陽	-11.1519
脯	-11.152
皆是	-11.1524
之榮	-11.1524
罅	-11.1525
君看	-11.1526
關中	-11.1526
猛虎	-11.153
懐抱	-11.1531
團扇	-11.1532
者以為	-11.1533
八首	-11.1534
嫋嫋	-11.1535
使臣	-11.1536
傳聞	-11.1537
黄塵	-11.154
到此	-11.1541
之勤	-11.1541
食邑	-11.1543
曰天	-11.1544
殱	-11.1546
日華	-11.1547
至道	-11.1549
花香	-11.1557
文明	-11.1557
廣大	-11.1558
歸去來	-11.1559
咨嗟	-11.1559
臣愚	-11.156
碣石	-11.156
衆生	-11.1561
侶	-11.1561
風清	-11.1562
甚於	-11.1564
玉階	-11.1565
列侯	-11.1565
論之	-11.1567
家住	-11.1567
璣	-11.1571
舊居	-11.1572
仲宣	-11.1572
丹丘	-11.1573
固不	-11.1578
正徳	-11.1578
遑	-11.1578
四十年	-11.1579
新豐	-11.1583
麴	-11.1588
中書舍人	-11.1589
一月	-11.1593
中使	-11.1594
户部	-11.1595
平居	-11.1595
山髙	-11.1597
孩	-11.16
趁	-11.1601
生靈	-11.1603
滁	-11.1603
蕭何	-11.1604
秋雲	-11.1604
無奈	-11.1608
峴	-11.1608
何在	-11.1609
爛漫	-11.161
青鳥	-11.161
雪霜	-11.1612
巴陵	-11.1614
同一	-11.1617
倉卒	-11.1618
七首	-11.1619
何可	-11.1624
仞	-11.1625
而益	-11.1627
三千里	-11.1627
縟	-11.1627
寝	-11.1628
雷雨	-11.1629
文物	-11.1631
而亡	-11.1633
朝廷之	-11.1634
博學	-11.1635
之興	-11.1636
經史	-11.1637
絜	-11.1638
坰	-11.164
萬騎	-11.1642
驅車	-11.1645
大家	-11.165
緑樹	-11.1651
虺	-11.1653
新年	-11.1654
卿士	-11.1654
流泉	-11.1655
一代	-11.1656
吳江	-11.1659
朋黨	-11.166
不滿	-11.1662
遺跡	-11.1664
讜	-11.1667
窠	-11.1668
詡	-11.1668
夕照	-11.1668
奕奕	-11.1668
帑	-11.1669
湖光	-11.1669
行省	-11.1674
空林	-11.1677
盥	-11.1679
地理	-11.168
霹靂	-11.1683
遥知	-11.1684
自適	-11.1684
第五	-11.1684
長驅	-11.1685
髙明	-11.1685
侍臣	-11.1685
以身	-11.1685
十分	-11.1686
握手	-11.1686
弟兄	-11.1688
斯民	-11.1689
祝融	-11.169
剝	-11.1692
帝鄉	-11.1692
河中	-11.1692
蒲萄	-11.1692
努力	-11.1694
若使	-11.1694
蓴	-11.1695
謔	-11.1695
上言	-11.1698
臣某	-11.1702
陳平	-11.1704
飛雪	-11.1706
下車	-11.1707
沉沉	-11.1708
周易	-11.1708
然猶	-11.1709
秦川	-11.1709
我獨	-11.1713
自足	-11.1714
嘉禾	-11.1715
江村	-11.1716
年五十	-11.1717
躊躇	-11.172
大哉	-11.172
吾生	-11.1722
沴	-11.1722
頷	-11.1722
於古	-11.1725
而食	-11.1726
求賢	-11.1728
途中	-11.1729
五嶽	-11.173
巴蜀	-11.173
有期	-11.1733
須㬰	-11.1734
概	-11.1735
椀	-11.1735
大體	-11.1736
槀	-11.1742
吾廬	-11.1743
太陽	-11.1744
鵷	-11.1749
侑	-11.175
耄	-11.175
不道	-11.1752
自持	-11.1753
等閒	-11.1757
有子	-11.1758
秧	-11.1759
錮	-11.1763
杯酒	-11.1764
皆得	-11.1765
䦨干	-11.1765
累官	-11.1765
許之	-11.1769
元元	-11.1771
輈	-11.1772
應詔	-11.1775
也雖然	-11.1775
子胥	-11.1776
點	-11.1776
詩集	-11.1777
不開	-11.1777
頹	-11.1778
知所	-11.1778
致其	-11.1779
濂	-11.1779
考其	-11.1781
上國	-11.1781
曽祖	-11.1782
學問	-11.1788
楨	-11.1788
魏文帝	-11.179
無路	-11.1792
好古	-11.1794
豈敢	-11.1796
蕤	-11.1799
蠡	-11.1803
非是	-11.1804
霓	-11.1807
猶是	-11.1812
相遇	-11.1813
今者	-11.1814
之象	-11.1814
願為	-11.1815
可愛	-11.1815
也如	-11.1818
異時	-11.1819
下馬	-11.1819
神之	-11.1822
尚書令	-11.1825
平安	-11.1826
商山	-11.1826
秀色	-11.1827
築室	-11.1828
羔	-11.1829
河洛	-11.183
黄鸝	-11.183
公與	-11.1832
能以	-11.1832
亳	-11.1833
大中	-11.1833
淮隂	-11.1836
陲	-11.1837
祭酒	-11.1839
土地	-11.184
誰識	-11.1841
將歸	-11.1842
逺人	-11.1843
詞賦	-11.1843
可喜	-11.1845
蚊	-11.1845
天下而	-11.1846
之交	-11.1849
坐看	-11.1849
夜光	-11.1854
亹亹	-11.1855
明經	-11.1855
困於	-11.1855
琴書	-11.1855
列於	-11.1858
之險	-11.1859
颯颯	-11.1859
吹笙	-11.186
與時	-11.1862
不遑	-11.1863
大父	-11.1864
故里	-11.1864
中庭	-11.1864
陶潛	-11.1865
四方之	-11.1866
壁間	-11.1867
庶子	-11.1867
虯	-11.1871
子男	-11.1871
恭惟	-11.1874
德之	-11.1876
只在	-11.1877
千巖	-11.1878
應天	-11.1879
欲問	-11.1879
朝野	-11.188
聊以	-11.1883
刳	-11.1886
車駕	-11.1886
察之	-11.1887
時見	-11.1888
金盤	-11.1888
以前	-11.189
陛下之	-11.189
一别	-11.189
不利	-11.1892
起而	-11.1896
人去	-11.1898
滿目	-11.1901
嫗	-11.1903
數人	-11.1905
傭	-11.1906
郡王	-11.1909
新秋	-11.191
山光	-11.191
將來	-11.191
柴扉	-11.1913
感物	-11.1916
二世	-11.1917
者耶	-11.1919
哀哉	-11.1922
不服	-11.1925
心期	-11.1926
南飛	-11.1928
阨	-11.1929
而相	-11.1929
此是	-11.1929
之期	-11.193
不著	-11.1931
無知	-11.1935
棄之	-11.1935
夜聞	-11.1938
為民	-11.194
塚	-11.1941
嘻	-11.1941
不使	-11.1942
𡨕	-11.1942
戎馬	-11.1944
清濁	-11.1945
目前	-11.1947
之尊	-11.1948
者得	-11.1952
閭閻	-11.1953
紅顔	-11.1954
曲折	-11.1954
異鄉	-11.1954
琰	-11.1955
愁人	-11.1957
搔	-11.1961
經緯	-11.1964
隼	-11.1965
鸛	-11.1967
訾	-11.1968
逺道	-11.197
生意	-11.1975
埶	-11.1975
人萬厯	-11.1978
陳氏	-11.1979
今日之	-11.1979
醉後	-11.1981
屏風	-11.1982
懷古	-11.1984
於漢	-11.1984
居然	-11.1985
璜	-11.1986
臣某言	-11.1986
二三子	-11.1987
豈是	-11.1988
棲遲	-11.1989
長吟	-11.1992
𦕈	-11.1992
酒家	-11.1993
脩竹	-11.1993
不倦	-11.1996
駮	-11.2001
祖考	-11.2006
武皇帝	-11.2007
寥落	-11.2008
太山	-11.2012
㾗	-11.2012
騷人	-11.2012
者猶	-11.2015
一嵗	-11.2019
入夢	-11.2021
䜛	-11.2022
予之	-11.2022
江淹	-11.2024
石城	-11.2025
億兆	-11.2025
白帝	-11.2025
􁁊	-11.2025
青林	-11.2029
羣山	-11.203
寄語	-11.2031
竊以	-11.2033
瑛	-11.2033
蘧	-11.2034
馨香	-11.2034
軺	-11.2036
此書	-11.2037
禧	-11.2038
之雄	-11.2038
郭璞曰	-11.2039
乎天	-11.204
憂國	-11.204
有所不	-11.204
憲章	-11.2041
不就	-11.2041
斗酒	-11.2042
論文	-11.2049
耘	-11.205
嶮	-11.2052
於東	-11.2061
者何也	-11.2062
大厯	-11.2062
空自	-11.2062
駟馬	-11.2064
明詔	-11.2064
之材	-11.2065
有才	-11.2066
顒	-11.2066
河西	-11.2067
記得	-11.2067
山路	-11.2067
柰何	-11.2068
河上	-11.2068
河内	-11.2068
入海	-11.2068
慶雲	-11.2069
陸離	-11.207
柩	-11.207
王事	-11.2071
武夷	-11.2073
石田	-11.2076
惲	-11.2079
筯	-11.208
桂林	-11.2082
怪石	-11.2083
牓	-11.2083
芬芳	-11.2084
陽和	-11.2084
之物	-11.2086
小者	-11.2087
軒冕	-11.2087
網羅	-11.2089
幽獨	-11.209
廊廟	-11.209
浥	-11.2093
制作	-11.2094
相呼	-11.2095
樂事	-11.2096
汰	-11.2097
鳥道	-11.2098
第四	-11.2103
既成	-11.2103
莫知	-11.2105
曖	-11.2105
綘	-11.2107
涙	-11.2108
鍼	-11.211
也又曰	-11.2112
滿庭	-11.2113
三輔	-11.2114
暘	-11.2118
祕書	-11.2118
者三	-11.212
識其	-11.2121
及時	-11.2122
者故	-11.2123
寨	-11.2123
不謂	-11.2126
袒	-11.2126
世路	-11.2126
其源	-11.2126
釣臺	-11.213
祖宗之	-11.2134
藹藹	-11.2136
不能無	-11.2136
自愛	-11.2136
韓子	-11.2137
拏	-11.2137
忽驚	-11.2138
先公	-11.2139
所貴	-11.2139
名利	-11.2143
忽忽	-11.2144
五里	-11.2144
益州	-11.2147
異也	-11.2147
三字	-11.2149
天理	-11.215
駿馬	-11.215
寺僧	-11.215
雩	-11.2151
髭	-11.2151
禘	-11.2152
奩	-11.2152
一體	-11.2153
松聲	-11.2155
孝文	-11.2157
未終	-11.2157
皁	-11.2163
近者	-11.2168
君心	-11.217
無形	-11.217
醉中	-11.217
日光	-11.2172
苦心	-11.2173
大都	-11.2174
西戎	-11.2174
纍	-11.2176
僖	-11.2176
湛露	-11.2177
耆舊	-11.2177
驄馬	-11.2178
八音	-11.2178
落盡	-11.2179
䜟	-11.2185
山空	-11.2185
無足	-11.2187
相接	-11.2187
家山	-11.2189
得志	-11.2191
進士除	-11.2192
嵓	-11.2192
皆在	-11.2192
南湖	-11.2192
神物	-11.2193
帶雨	-11.2193
逸曰	-11.2193
前事	-11.2194
楚山	-11.2198
馬嘶	-11.22
出山	-11.2201
澁	-11.2208
懾	-11.2209
異端	-11.2209
啜	-11.2209
時雨	-11.2209
官軍	-11.221
五老	-11.2211
原野	-11.2215
船頭	-11.2219
伊川	-11.2221
魏晉	-11.2221
慶厯	-11.2222
商賈	-11.2222
平明	-11.2222
答曰	-11.2223
繡衣	-11.2225
入山	-11.2231
治平	-11.2232
一尺	-11.2232
又作	-11.2233
度支	-11.2234
野寺	-11.2235
自傷	-11.2235
尊前	-11.2235
頃刻	-11.2236
藏之	-11.2236
多所	-11.2236
去就	-11.2237
雍容	-11.2238
恩澤	-11.224
不憂	-11.2241
身後	-11.2245
以時	-11.2246
蓬瀛	-11.2246
摯	-11.2248
繽紛	-11.2248
前驅	-11.2249
曉日	-11.225
奐	-11.2251
和風	-11.2252
天髙	-11.2253
西樓	-11.2254
此山	-11.2255
幽蘭	-11.2256
積水	-11.2256
孰知	-11.2256
軍節度使	-11.2258
昉	-11.2258
羽毛	-11.2258
城門	-11.2259
譬之	-11.226
路傍	-11.2261
喘	-11.2263
坻	-11.2263
越人	-11.2265
去其	-11.2265
惟陛下	-11.2266
太一	-11.2266
諡文	-11.2272
頭白	-11.2274
杼	-11.2275
無時	-11.2276
出自	-11.2277
紓	-11.2277
經行	-11.228
蒼翠	-11.2281
抉	-11.2281
勤勞	-11.2287
二十三	-11.2288
南來	-11.2288
連雲	-11.2289
門户	-11.229
奉天	-11.2294
豢	-11.2295
諍	-11.2296
至大	-11.2296
水晶	-11.2299
絃歌	-11.2303
京洛	-11.2303
葆	-11.2307
擣	-11.2309
於我	-11.231
上古	-11.2311
紅樹	-11.2312
我生	-11.2313
文書	-11.2315
今天下	-11.2318
刻石	-11.2319
吳中	-11.232
者莫不	-11.2322
孰為	-11.2323
两	-11.2324
欲為	-11.2325
筋力	-11.2327
綱紀	-11.233
如山	-11.2332
勺	-11.2332
鶉	-11.2332
出師	-11.2333
元稹	-11.2333
𠖇	-11.2335
久而	-11.2335
殘陽	-11.2335
蒨	-11.2336
陽臺	-11.2336
石渠	-11.2336
勻	-11.2336
聖德	-11.2338
參政	-11.2342
諺	-11.2343
而就	-11.2343
山靈	-11.2344
如許	-11.2344
遥望	-11.2346
籬落	-11.2349
先朝	-11.2358
於周	-11.2358
有詔	-11.2359
福建	-11.236
待詔	-11.236
夫豈	-11.2361
儘	-11.2364
飱	-11.2364
一道	-11.2364
六日	-11.2365
戱	-11.2365
者盖	-11.2368
西漢	-11.237
一句	-11.2372
王命	-11.2374
則不然	-11.2374
委曲	-11.2376
悵然	-11.2377
肱	-11.2378
栁色	-11.2379
龍山	-11.2379
本於	-11.238
訶	-11.2381
浮圖	-11.2381
鄱陽	-11.2383
溪頭	-11.2383
此所謂	-11.2385
詔曰	-11.239
寄書	-11.2394
也然而	-11.24
東望	-11.2406
帷幄	-11.2407
流沙	-11.2407
蜀人	-11.2408
腦	-11.2409
斐	-11.241
哉故	-11.2411
髙風	-11.2412
親友	-11.2414
封疆	-11.2418
甘心	-11.2418
在下	-11.2419
靡靡	-11.2422
裊	-11.2422
題名	-11.2423
學道	-11.2425
賽	-11.2427
觀察	-11.2427
之運	-11.243
仲舒	-11.2431
兖	-11.2432
之謂也	-11.2433
薤	-11.2433
登歌	-11.2434
漢水	-11.2435
張籍	-11.2436
堞	-11.2436
春愁	-11.2438
七欽定四庫全書	-11.2438
畤	-11.2439
立言	-11.2439
沾衣	-11.2441
樂章	-11.2444
支離	-11.2445
者吾	-11.2445
金城	-11.2446
槳	-11.2449
少時	-11.245
林壑	-11.2451
愁思	-11.2452
缸	-11.2452
姝	-11.2452
鄭𤣥	-11.2456
御溝	-11.2458
若何	-11.2459
師友	-11.2459
之望	-11.246
中宵	-11.246
如雨	-11.246
其子孫	-11.246
淩	-11.2461
授之	-11.2461
五欽定四庫全書	-11.2463
千尋	-11.2465
縦	-11.2466
賢愚	-11.2471
叔父	-11.2473
早朝	-11.2474
而無所	-11.2475
深林	-11.2479
紐	-11.2479
顔子	-11.2481
歴代	-11.2482
不語	-11.2482
首陽	-11.2483
幷	-11.2484
東園	-11.2486
攫	-11.2487
流年	-11.249
緩急	-11.249
三春	-11.2492
封建	-11.2493
神器	-11.2499
蚌	-11.25
上苑	-11.2503
邦國	-11.2504
𬒳	-11.2508
僥倖	-11.251
山鳥	-11.2511
㡬時	-11.2513
固非	-11.2514
永言	-11.2514
不分	-11.2515
桷	-11.2516
治道	-11.2518
遥遥	-11.2518
多難	-11.2519
曹公	-11.2519
文武之	-11.252
養之	-11.2522
風飄	-11.2523
莫言	-11.2525
粘	-11.2526
皆曰	-11.2527
十九年	-11.2532
别墅	-11.2535
燈前	-11.2537
盲	-11.2539
莫問	-11.2539
必欲	-11.2539
輕薄	-11.2541
善者	-11.2541
為貴	-11.2542
閭里	-11.2542
琯	-11.2542
必能	-11.2544
艸	-11.2545
騶	-11.2545
規矩	-11.2546
先師	-11.2546
丑	-11.2548
卯	-11.2551
墨竹	-11.2552
自立	-11.2554
于天	-11.2555
東城	-11.2556
更相	-11.2556
又如	-11.2558
休息	-11.2561
十六年	-11.2561
璇	-11.2564
考功	-11.2566
曰汝	-11.2567
因之	-11.2567
書云	-11.2567
過客	-11.257
撃	-11.257
廸	-11.2571
詫	-11.2571
壚	-11.2572
堂前	-11.2573
蛻	-11.2573
上曰	-11.2574
碧樹	-11.2575
西江	-11.2575
連城	-11.2575
施之	-11.2577
天池	-11.258
合歡	-11.258
臣請	-11.2581
將有	-11.2581
蘭若	-11.2584
朝暮	-11.2584
故知	-11.2585
闗河	-11.2587
於衆	-11.2588
民力	-11.2591
天宇	-11.2593
未嘗有	-11.2594
可否	-11.2595
究其	-11.2598
繋	-11.2599
白衣	-11.2599
酤	-11.2599
清香	-11.26
江天	-11.26
薔薇	-11.2601
餽	-11.2602
取士	-11.2603
天邊	-11.2606
大同	-11.2607
燕山	-11.2608
沙頭	-11.2608
露華	-11.261
説文	-11.2612
片雲	-11.2612
袴	-11.2612
㕓	-11.2613
暌	-11.2614
擷	-11.2615
銀燭	-11.2615
丘園	-11.2616
明光	-11.2622
期於	-11.2622
故得	-11.2622
晉陽	-11.2625
埀	-11.2626
夫君	-11.2628
著於	-11.2629
塜	-11.2629
壬辰	-11.2629
桑柘	-11.2629
堕	-11.2629
猿啼	-11.2629
擯	-11.263
鏁	-11.2632
四望	-11.2632
八欽定四庫全書	-11.2633
萬世之	-11.2633
者葢	-11.2636
都城	-11.2637
典刑	-11.2642
寄題	-11.2644
二十一	-11.2644
昭君	-11.2646
大矣	-11.2647
一念	-11.2648
萬斛	-11.265
鹿門	-11.265
浙東	-11.2651
國人	-11.2652
荆門	-11.2652
天生	-11.2654
碧海	-11.2657
礫	-11.2658
嘗為	-11.2658
小舟	-11.2661
曰今	-11.2661
歸時	-11.2664
手自	-11.2664
九原	-11.2665
有命	-11.2666
千户	-11.2668
野花	-11.2668
形勝	-11.2669
湫	-11.2669
妥	-11.2672
在人	-11.2672
仁人	-11.2672
怙	-11.2674
轆轤	-11.2674
頌曰	-11.2675
正色	-11.2682
三萬	-11.2683
夐	-11.2685
前朝	-11.2685
序曰	-11.2687
大笑	-11.2687
嵇康	-11.2688
愁絶	-11.2689
之責	-11.2689
舉而	-11.2692
長在	-11.2692
轉運使	-11.2692
逺而	-11.2696
疚	-11.2698
南昌	-11.2699
毓	-11.2702
其政	-11.2702
江月	-11.2705
亦足	-11.2706
露濕	-11.2709
蘇武	-11.2709
相承	-11.2716
字元	-11.2716
臼	-11.2717
實為	-11.2717
韞	-11.2717
不啻	-11.2718
不定	-11.2724
楓葉	-11.2725
雜詠	-11.2727
如絲	-11.2727
夏后	-11.2728
文采	-11.2728
不留	-11.273
苦辛	-11.2732
犬馬	-11.2733
棃	-11.2734
未已	-11.2734
道傍	-11.2735
可勝	-11.2738
土木	-11.2738
萬山	-11.274
之俗	-11.2741
桂枝	-11.2742
作賦	-11.2742
劉公	-11.2743
踪	-11.2745
亾	-11.2745
也是故	-11.2746
無方	-11.2746
玷	-11.2747
綦	-11.2747
皇太后	-11.2747
終無	-11.2749
歸期	-11.2749
照耀	-11.275
微茫	-11.2754
孟浩然	-11.2754
不悟	-11.2759
始見	-11.2762
嬖	-11.2764
湖中	-11.2766
白虎	-11.2767
重光	-11.2767
史館	-11.277
職方	-11.277
作樂	-11.277
有成	-11.2771
以觀	-11.2771
東漢	-11.2775
膾	-11.2775
取諸	-11.2776
也蓋	-11.2776
微臣	-11.2776
善曰毛詩曰	-11.2777
甿	-11.2777
首尾	-11.2778
瘡	-11.2778
廐	-11.278
歸夢	-11.2781
其術	-11.2781
朞	-11.2782
吕氏	-11.2786
周流	-11.2787
軋	-11.2792
用此	-11.2793
想像	-11.2795
莊周	-11.2797
不義	-11.2798
宋之問	-11.2799
吾家	-11.28
傾城	-11.2801
亦猶	-11.2802
獨酌	-11.2802
六七	-11.2802
水落	-11.2803
璿	-11.2806
碧山	-11.2806
矣若	-11.2807
所願	-11.2807
春雪	-11.2808
之源	-11.2808
神農	-11.2808
凢	-11.2808
相屬	-11.2809
岧嶤	-11.2809
尊卑	-11.2813
如意	-11.2814
太平之	-11.2815
雪後	-11.2815
主之	-11.2816
事事	-11.2824
乎吾	-11.2828
賞心	-11.2828
一統志	-11.2829
成於	-11.283
不惑	-11.283
臨安	-11.2832
物有	-11.2832
柟	-11.2833
雜興	-11.2834
何曾	-11.2834
類聚	-11.2836
殤	-11.2837
頭上	-11.2838
枯槁	-11.2839
劃	-11.2839
非徒	-11.284
聞者	-11.2849
不我	-11.285
籖	-11.2851
於戲	-11.2852
紫霞	-11.2855
奪其	-11.2857
諫官	-11.2858
不異	-11.2859
和尚	-11.2859
然亦	-11.2859
不能以	-11.2861
晏子	-11.2862
絶壁	-11.2866
十一欽定四庫全書	-11.2866
便欲	-11.2867
聊自	-11.2868
其學	-11.2869
則亦	-11.2869
詘	-11.2869
蠢	-11.287
霅	-11.2871
榮華	-11.2872
朝市	-11.2872
緑隂	-11.2874
李白詩	-11.2874
月光	-11.2877
然後知	-11.2878
及至	-11.2879
百工	-11.2882
丹霞	-11.2882
謹按	-11.2882
行舟	-11.2882
今世	-11.2888
衡山	-11.2889
山雨	-11.2892
乃得	-11.2893
間有	-11.2893
羲皇	-11.2893
故舊	-11.2896
棣	-11.2897
愛此	-11.2898
山海	-11.2898
赤子	-11.2898
綾	-11.2898
萬石	-11.2899
滿城	-11.2899
今宵	-11.2903
潯	-11.2904
錬	-11.2904
原隰	-11.2905
百憂	-11.2907
但恐	-11.2907
嵇	-11.2909
遺文	-11.2912
翠㣲	-11.2913
綿綿	-11.2914
吉甫	-11.2917
四字	-11.2917
揖讓	-11.2918
隱居	-11.2919
年七十	-11.292
皇家	-11.2921
朝雲	-11.2926
春酒	-11.2928
空庭	-11.2928
瀼	-11.2929
之勝	-11.2935
乗興	-11.2936
為言	-11.2937
聖心	-11.2938
六欽定四庫全書	-11.2938
白骨	-11.2942
二十六	-11.2943
廣州	-11.2943
艮	-11.2943
里中	-11.2944
宗社	-11.2946
尚在	-11.2946
酲	-11.2946
九衢	-11.2947
宫人	-11.2948
香爐	-11.2949
秋毫	-11.295
不憚	-11.2954
子由	-11.2956
紅粉	-11.2958
卜居	-11.2959
壬	-11.2962
在前	-11.2962
旦暮	-11.2962
之女	-11.2963
日中	-11.2965
往者	-11.2967
路長	-11.2967
虚名	-11.2968
春事	-11.2969
一氣	-11.297
陽城	-11.297
殿前	-11.297
好風	-11.2972
鳥雀	-11.2974
宗元	-11.2974
異日	-11.2976
昱	-11.2976
野色	-11.2977
自信	-11.2978
於家	-11.2978
呀	-11.2978
民間	-11.2978
曲水	-11.2979
銀漢	-11.298
也故曰	-11.298
皮日休	-11.2983
謝朓詩	-11.2985
軍事	-11.2988
於後世	-11.2988
玉京	-11.2989
可知矣	-11.299
配天	-11.2992
朝宗	-11.2995
卿大夫	-11.2995
洲渚	-11.2995
山城	-11.2996
龍興	-11.2996
天香	-11.2997
棟宇	-11.2997
賢才	-11.2998
疎雨	-11.3
十二欽定四庫全書	-11.3001
長歎	-11.3002
一樹	-11.3004
泚	-11.3004
卒於	-11.3007
觀察使	-11.3008
即日	-11.3009
疾病	-11.3012
數十年	-11.3016
林木	-11.3018
二儀	-11.3018
藐	-11.3018
聖恩	-11.3018
渤海	-11.3019
敵國	-11.3023
讙	-11.3023
雪花	-11.3025
因而	-11.3029
還自	-11.303
而愈	-11.3033
匹馬	-11.3035
鼙	-11.3035
軍旅	-11.3035
去來	-11.3037
佗	-11.3037
不果	-11.3041
及於	-11.3041
待之	-11.3041
病中	-11.3042
秋思	-11.3043
不計	-11.3044
桑榆	-11.3045
芷	-11.3046
項王	-11.3046
者不可	-11.3047
落月	-11.3051
雙雙	-11.3052
上官	-11.3055
糟	-11.3055
州府	-11.3055
將士	-11.3057
畫船	-11.306
存焉	-11.3062
萬夫	-11.3063
𣲖	-11.3066
不住	-11.3067
之首	-11.3069
肻	-11.3069
空虚	-11.307
此之謂	-11.3076
清露	-11.3077
曽不	-11.308
圻	-11.3081
天津	-11.3083
樹影	-11.3084
琱	-11.3084
醅	-11.3085
殊方	-11.3085
瑶草	-11.3085
愛人	-11.3086
早晚	-11.3086
風濤	-11.3087
不極	-11.3089
避世	-11.309
莫遣	-11.3093
枝上	-11.3095
鷰	-11.3097
緗	-11.3097
悠哉	-11.3097
締	-11.3099
林寺	-11.31
湖廣	-11.3101
張子	-11.3101
猴	-11.3103
天王	-11.3106
媪	-11.3107
開府	-11.3108
白蓮	-11.311
留侯	-11.3111
但願	-11.3111
如之何	-11.3111
者不能	-11.3113
太液	-11.3114
竹間	-11.3114
阡陌	-11.3115
押	-11.3115
安撫	-11.3116
淮陽	-11.3117
所存	-11.3117
世情	-11.312
韓魏	-11.3122
宫詞	-11.3123
常在	-11.3124
盡力	-11.3124
顧我	-11.3126
逺樹	-11.3127
萬丈	-11.3127
魏公	-11.3129
仙掌	-11.3135
紀事	-11.3138
說文曰	-11.3139
不休	-11.3139
老大	-11.3141
其材	-11.3142
綂	-11.3142
不惟	-11.3142
虚空	-11.3143
鐙	-11.3144
拄	-11.3145
名為	-11.3146
三曰	-11.3146
乎若	-11.3148
毳	-11.315
戎狄	-11.3153
轉運	-11.3155
帝城	-11.3158
尅	-11.3159
椿	-11.3162
装	-11.3162
頺	-11.3163
术	-11.3163
生事	-11.3164
東觀	-11.3164
君諱	-11.3165
喟然	-11.3165
之夫	-11.3169
此道	-11.3171
玉樓	-11.3172
夜長	-11.3173
鍳	-11.3174
皦	-11.3174
以喻	-11.3175
涘	-11.3175
不報	-11.3176
寰	-11.3177
所傳	-11.3177
之北	-11.318
欣欣	-11.318
子美	-11.318
大學	-11.318
世界	-11.3181
未許	-11.3182
百嵗	-11.3183
庶㡬	-11.3184
慎勿	-11.3186
無意	-11.3186
和親	-11.3186
之年	-11.3186
荼	-11.319
一雙	-11.3198
同志	-11.3201
之端	-11.3202
自安	-11.3203
本自	-11.3203
婺	-11.3204
為吏	-11.3205
十七年	-11.3205
其居	-11.3206
醉鄉	-11.3207
斟酌	-11.3208
㓗	-11.3209
平野	-11.321
灼灼	-11.3211
相問	-11.3213
白璧	-11.3214
甚多	-11.3216
義理	-11.3216
也雖	-11.3216
名實	-11.3217
難忘	-11.3217
百餘年	-11.3217
金錢	-11.3218
或者	-11.3218
之西	-11.3219
興廢	-11.322
憲宗	-11.3221
無語	-11.3223
只恐	-11.3225
鵾	-11.3226
閼	-11.3226
痩	-11.3226
以通	-11.3229
曰某	-11.323
近代	-11.323
殿下	-11.3233
嘗以	-11.3233
逖	-11.3236
立身	-11.3237
艘	-11.3238
雹	-11.3238
召公	-11.3239
何意	-11.3239
在外	-11.3242
國士	-11.3244
荆南	-11.3244
濯纓	-11.3245
秋興	-11.3248
之以為	-11.3249
馳道	-11.3251
春風吹	-11.3251
参	-11.3252
淮南子	-11.3252
忱	-11.3253
郊廟	-11.3254
羿	-11.3254
嘉定	-11.3256
唳	-11.3256
未若	-11.3257
光隂	-11.3257
胷中	-11.3258
雲物	-11.3258
龍泉	-11.326
願君	-11.3262
一章	-11.3262
物情	-11.3263
太倉	-11.3263
青蓮	-11.3266
嘘	-11.3268
至理	-11.3269
玉泉	-11.3272
諸臣	-11.3273
非禮	-11.3275
相連	-11.3276
先生曰	-11.3276
士女	-11.3278
紫氣	-11.328
行李	-11.3282
物理	-11.3282
延陵	-11.3286
日暖	-11.3286
仰視	-11.3288
恍惚	-11.3289
永日	-11.329
文獻	-11.3291
亂山	-11.3293
箔	-11.3293
名家	-11.3295
水石	-11.3296
荀卿	-11.3298
潑	-11.3302
一半	-11.3304
不再	-11.3305
卿相	-11.3305
京邑	-11.3306
十四欽定四庫全書	-11.331
漁翁	-11.3311
著作	-11.3313
有力	-11.3315
臨池	-11.3316
方其	-11.3318
以及	-11.3318
㤙	-11.3318
流鶯	-11.3318
瘳	-11.3319
盛事	-11.3319
緹	-11.3319
隸	-11.332
驚起	-11.3321
宜其	-11.3322
水深	-11.3325
卒以	-11.3326
手持	-11.3326
遄	-11.3328
樞宻	-11.3328
夜寒	-11.333
無外	-11.3331
終朝	-11.3331
垂釣	-11.3334
壟	-11.3334
物華	-11.3334
顓	-11.3334
九曲	-11.3335
而不為	-11.3336
深思	-11.3337
鏃	-11.3339
盡心	-11.3342
羣仙	-11.3343
三秋	-11.3343
空翠	-11.3344
楊氏	-11.3344
南極	-11.3344
世宗	-11.3345
十九欽定四庫全書	-11.3347
大官	-11.3347
滸	-11.3348
湖海	-11.3349
不屈	-11.335
徤	-11.3351
其四	-11.3351
歐陽脩	-11.3353
菰蒲	-11.3354
月令	-11.3354
坐對	-11.3354
江夏	-11.3356
西征	-11.3357
之令	-11.336
信之	-11.3361
盾	-11.3362
微雨	-11.3364
積雨	-11.3365
已有	-11.3366
磊落	-11.3367
墾	-11.3367
何嘗	-11.3368
尚存	-11.3368
熊羆	-11.3369
為治	-11.3369
崧	-11.3371
一語	-11.3372
天光	-11.3377
石榴	-11.3377
重門	-11.3377
縣尉	-11.3378
䰟	-11.3379
髙秋	-11.3379
青門	-11.3379
林中	-11.338
揜	-11.3381
徭	-11.3382
扞	-11.3383
知府	-11.3385
市井	-11.3386
髙僧	-11.3386
後宫	-11.3386
諂	-11.3387
俛仰	-11.3387
者今	-11.3389
險阻	-11.339
子房	-11.339
億萬	-11.3391
李嶠	-11.3395
於秦	-11.3396
復來	-11.3396
賸	-11.3397
之易	-11.3397
莒	-11.3397
肝膽	-11.3398
鄞	-11.3401
則非	-11.3405
緑楊	-11.3407
靈運	-11.3409
發憤	-11.3412
於君	-11.3412
宣和	-11.3414
刑部	-11.3416
未開	-11.3416
未有不	-11.3417
子瞻	-11.3419
宗伯	-11.3419
以利	-11.3424
實録	-11.3424
溷	-11.3426
化作	-11.3426
記室	-11.3427
餙	-11.3428
苦寒	-11.3428
驤	-11.3429
自稱	-11.343
不佞	-11.3433
蘇秦	-11.3434
留滯	-11.3434
彼此	-11.3439
能盡	-11.3439
斗牛	-11.3439
空有	-11.344
建武	-11.3441
柬	-11.3445
夔	-11.3445
龍池	-11.3446
怛	-11.3446
寤寐	-11.3447
皂	-11.345
豈易	-11.345
一段	-11.3452
其弟	-11.3452
安人	-11.3452
無過	-11.3454
耆老	-11.3454
不盈	-11.3455
只是	-11.3455
百僚	-11.3458
花影	-11.3458
乎故	-11.346
王勃	-11.3462
來朝	-11.3462
藂	-11.3464
塵外	-11.3465
元豐	-11.3471
昭公	-11.3471
良可	-11.348
楚江	-11.348
洛水	-11.3482
七言律	-11.3487
輝光	-11.3487
有徳	-11.3487
凄凄	-11.3488
交情	-11.349
黄龍	-11.349
聲色	-11.3491
請以	-11.3491
大將	-11.3494
為天子	-11.3494
無成	-11.3495
斡	-11.3495
柑	-11.3495
不自知	-11.3496
鳳皇	-11.3499
秦淮	-11.35
不記	-11.35
難以	-11.35
斯道	-11.3501
右軍	-11.3505
竟日	-11.3507
魏王	-11.3507
邑人	-11.351
五字	-11.3511
楊子	-11.3511
何敢	-11.3512
黄公	-11.3513
固無	-11.3517
黄山	-11.3519
十八年	-11.3523
攪	-11.3527
嵩山	-11.3527
剔	-11.3528
曲直	-11.3529
誰道	-11.353
遂令	-11.3532
過雨	-11.3533
貌也	-11.3534
詩二首	-11.3534
兩鬢	-11.3534
翺	-11.3535
逆旅	-11.3536
引領	-11.3536
南枝	-11.3536
二女	-11.3537
劉郎	-11.3537
歌吹	-11.3538
常山	-11.3539
誅之	-11.3539
如天	-11.3541
躬耕	-11.3542
倅	-11.3542
文詞	-11.3543
八日	-11.3546
徒自	-11.3547
珂	-11.3551
卓然	-11.3551
所適	-11.3551
斷絶	-11.3552
師古	-11.3552
水陸	-11.3553
外物	-11.3554
禍亂	-11.3554
無聊	-11.3555
獨倚	-11.3555
太乙	-11.3555
朝天	-11.3555
安用	-11.3556
此理	-11.3557
繚繞	-11.3558
澗水	-11.3559
葳蕤	-11.3559
煙樹	-11.3559
尊師	-11.356
路入	-11.356
搗	-11.3561
釡	-11.3562
望見	-11.3562
行藏	-11.3563
小人之	-11.3565
二句	-11.3566
大徳	-11.3568
宇文	-11.3569
子夏	-11.357
自可	-11.357
卭	-11.3571
擇其	-11.3571
靚	-11.3574
思慮	-11.3574
竺	-11.3575
孜孜	-11.3576
客至	-11.3577
僉事	-11.3577
誰是	-11.3577
具官	-11.3577
常州	-11.3581
監司	-11.3584
洪範	-11.3584
茨	-11.3586
足矣	-11.3586
欲求	-11.3587
深宫	-11.3588
即今	-11.3588
山家	-11.3589
羗	-11.359
銑	-11.359
日用	-11.3593
䄂	-11.3593
齊人	-11.3593
茅山	-11.3593
碧桃	-11.3594
義士	-11.3595
甘棠	-11.3595
到家	-11.3595
常以	-11.3596
青燈	-11.36
入秦	-11.3601
平蕪	-11.3601
歸雲	-11.3601
楸	-11.3603
横流	-11.3604
竹裏	-11.3606
此夜	-11.3607
俚	-11.3607
當此之時	-11.3608
摩挲	-11.3609
賢聖	-11.3609
竹樹	-11.3609
天衢	-11.361
刮	-11.361
箠	-11.361
無違	-11.3611
列子	-11.3611
天地間	-11.3612
饑寒	-11.3613
鱸魚	-11.3613
七言絶句	-11.3617
所用	-11.3619
南越	-11.3621
石湖	-11.3621
侍講	-11.3622
人不知	-11.3624
之基	-11.3626
王業	-11.3627
為問	-11.3631
古樂府	-11.3633
隠隠	-11.3634
千頃	-11.3635
柝	-11.3637
鴻鵠	-11.3639
夷齊	-11.3639
之曲	-11.3639
后稷	-11.364
之序	-11.3641
周禮曰	-11.3644
啖	-11.3646
收拾	-11.3648
北門	-11.3651
鮑照	-11.3652
横塘	-11.3653
忘憂	-11.3653
櫻	-11.3653
徜徉	-11.3656
哈	-11.3656
意欲	-11.3658
磔	-11.3659
心知	-11.3659
甑	-11.366
極其	-11.3663
清談	-11.3664
先主	-11.3664
諸家	-11.3664
詩巻	-11.3665
自守	-11.3666
細草	-11.3669
紉	-11.3672
袵	-11.3673
清泠	-11.3675
髙卧	-11.3676
佳麗	-11.3676
莅	-11.3676
煙雲	-11.3676
水仙	-11.3677
王府	-11.3677
癘	-11.3678
嗟我	-11.368
煙火	-11.3681
上都	-11.3683
若斯	-11.3685
萬姓	-11.3685
忘言	-11.3687
制禮	-11.3688
者多矣	-11.3689
五星	-11.3689
忠貞	-11.3689
捜	-11.369
蝦	-11.369
驊騮	-11.3691
今則	-11.3692
而還	-11.3692
偪	-11.3693
未覺	-11.3694
芰荷	-11.3696
幾處	-11.3696
其德	-11.3697
市朝	-11.3699
試問	-11.3699
隰	-11.3699
陳留	-11.3699
不祥	-11.37
不減	-11.3701
𤣥圃	-11.3702
魏闕	-11.3702
其神	-11.3705
嘉樹	-11.3705
影落	-11.3706
前有	-11.3708
珉	-11.371
萬木	-11.3712
焉能	-11.3718
羽儀	-11.3718
穰	-11.3719
滓	-11.3719
逺客	-11.3719
牌	-11.3725
原上	-11.3725
矗	-11.3725
亊	-11.3726
劵	-11.3726
其來	-11.3726
倒影	-11.3726
不可為	-11.3728
救之	-11.3728
而東	-11.3728
有定	-11.373
下第	-11.373
一隅	-11.3735
泠	-11.3735
晻	-11.3737
堙	-11.3738
鄭公	-11.3739
稾	-11.374
漚	-11.374
上京	-11.3743
搔首	-11.3744
建中	-11.3744
化成	-11.3749
未肯	-11.3749
之誅	-11.3749
之訓	-11.375
三事	-11.3751
𠂻	-11.3754
羽衣	-11.3755
哉今	-11.3756
儷	-11.3756
伏見	-11.3756
幽州	-11.3756
始以	-11.3757
吾欲	-11.3759
暾	-11.376
愿	-11.376
書來	-11.376
蜿蜒	-11.3761
萬乘	-11.3764
大聖	-11.3764
使民	-11.3767
華屋	-11.3767
金山	-11.3768
呉王	-11.3768
雲煙	-11.3769
前溪	-11.3771
吾師	-11.3771
家居	-11.3772
倚杖	-11.3772
湯湯	-11.3775
卿雲	-11.3776
宗族	-11.3779
哉然	-11.378
氣清	-11.3781
歴官	-11.3782
大化	-11.3784
南去	-11.3787
天府	-11.3787
㳂	-11.3788
廖	-11.379
山花	-11.3791
遐邇	-11.3792
平日	-11.3795
秣	-11.3795
備矣	-11.3797
闋	-11.3798
用人	-11.3799
莫愁	-11.3802
沙漠	-11.3802
之意也	-11.3804
過此	-11.3805
即此	-11.3805
孔孟	-11.3805
振衣	-11.3806
羯	-11.3806
潺潺	-11.3806
有光	-11.3809
槍	-11.3809
烟雨	-11.3809
生人	-11.381
秋天	-11.381
鳯皇	-11.381
發明	-11.3812
都邑	-11.3812
波浪	-11.3815
櫺	-11.3821
三湘	-11.3822
孰謂	-11.3824
不煩	-11.3825
其外	-11.3825
謝朓	-11.3828
自我	-11.3829
召見	-11.3831
景帝	-11.3832
尊號	-11.3833
鷙	-11.3834
之處	-11.3834
狂歌	-11.3835
淮西	-11.3837
以全	-11.3838
南陌	-11.3838
落暉	-11.3839
鰲	-11.3839
桃葉	-11.3842
也陛下	-11.3842
殽	-11.3843
為郎	-11.3844
宿雨	-11.3845
其樂	-11.3846
金銀	-11.3849
貟外	-11.385
厥後	-11.3851
孤燈	-11.3852
花木	-11.3854
横行	-11.3855
覬	-11.3855
柰	-11.3856
早秋	-11.3857
人主之	-11.3858
舊事	-11.386
贓	-11.386
邦家	-11.3863
後代	-11.3865
營營	-11.3866
毛萇詩傳曰	-11.387
立春	-11.3871
烏鵲	-11.3874
瀕	-11.3874
年八十	-11.3875
三皇	-11.3875
相向	-11.3876
戚戚	-11.3878
萬重	-11.3879
黙黙	-11.3885
劑	-11.3885
矦	-11.3886
或云	-11.3887
白羽	-11.3887
儆	-11.3888
未發	-11.3889
後先	-11.3889
聒	-11.389
有所思	-11.389
溶溶	-11.3891
毫釐	-11.3892
数	-11.3892
之姿	-11.3898
後進	-11.3898
鱸	-11.3899
實有	-11.3901
淄	-11.3901
展轉	-11.3902
片片	-11.3904
而用	-11.3905
不存	-11.3907
兵法	-11.3909
荒城	-11.3911
公家	-11.3913
東籬	-11.3913
髙人	-11.3913
為報	-11.3913
香山	-11.3914
掩扉	-11.3915
夫差	-11.3916
蕩漾	-11.3918
農桑	-11.3922
亦不能	-11.3923
烏啼	-11.3924
留題	-11.3925
郡人	-11.3925
吾亦	-11.3926
苴	-11.3926
古辭	-11.3927
聊復	-11.3931
古城	-11.3932
尺寸	-11.3933
徐陵	-11.3934
禮儀	-11.3936
大禮	-11.3936
佇立	-11.3936
三品	-11.3938
失所	-11.3939
靳	-11.3942
璘	-11.3942
車輪	-11.3945
賀復徵編	-11.3946
丐	-11.3947
不修	-11.3951
一人之	-11.3952
以定	-11.3956
蹌	-11.3956
吐蕃	-11.3957
拉	-11.3959
四皓	-11.396
盻	-11.396
鬂	-11.396
百金	-11.3961
翠竹	-11.3961
北面	-11.3962
不能盡	-11.3963
經曰	-11.3963
平江	-11.3965
元昊	-11.3967
災異	-11.3968
誰云	-11.3969
州諸軍事	-11.397
天寶	-11.3972
宕	-11.3974
如來	-11.3977
三十二	-11.398
天柱	-11.3981
未休	-11.3983
北辰	-11.399
香風	-11.399
但覺	-11.3991
隂山	-11.3991
黄鍾	-11.3992
數里	-11.3994
天末	-11.3996
吳楚	-11.3998
廢興	-11.3999
勞苦	-11.4
其流	-11.4001
官舍	-11.4001
有年	-11.4002
莊宗	-11.4002
良人	-11.4003
雲影	-11.4004
望中	-11.4004
登高	-11.4004
順天	-11.4005
風烟	-11.4008
移家	-11.4008
外戚	-11.4009
牢落	-11.4009
鯨鯢	-11.4009
趙氏	-11.4009
烱	-11.4009
長林	-11.401
歌詠	-11.401
羶	-11.4012
荔枝	-11.4013
今乃	-11.4014
告成	-11.4015
勸君	-11.4018
其年	-11.4019
月影	-11.4023
斚	-11.4024
豈若	-11.4025
嘏	-11.4026
近來	-11.4026
箸	-11.4027
漢使	-11.4027
中年	-11.4027
梁簡文帝詩	-11.4029
光彩	-11.4029
馬甲	-11.4032
各以	-11.4032
方士	-11.4033
新亭	-11.4035
見贈	-11.4036
鼓角	-11.4037
杓	-11.4038
未了	-11.4038
寒夜	-11.4038
烈士	-11.404
海鹽	-11.404
三十里	-11.404
甲第	-11.4041
不論	-11.4041
聖慈	-11.4042
佳處	-11.4044
皇考	-11.4052
北征	-11.4053
子貢	-11.4054
雨霽	-11.4054
露下	-11.4054
不辨	-11.4055
欲其	-11.4057
佳節	-11.4057
中國之	-11.4057
鮫	-11.4058
蒞	-11.4061
范陽	-11.4061
深谷	-11.4063
創業	-11.4064
以降	-11.4065
幸甚	-11.4066
如斯	-11.4066
不知何	-11.4067
諡曰	-11.4067
飲馬	-11.4067
內	-11.4068
人民	-11.4069
忽憶	-11.4071
太保	-11.4076
凜	-11.4077
天顔	-11.4077
回頭	-11.4077
荆山	-11.4082
垠	-11.4083
幙	-11.4085
而思	-11.4089
集無	-11.409
清且	-11.409
又非	-11.4092
招提	-11.4094
一色	-11.4096
賀復徴編	-11.4096
無非	-11.4098
朝露	-11.41
都賦	-11.4102
誰敢	-11.4102
授以	-11.4105
秉燭	-11.4106
裵	-11.4107
祠堂	-11.4108
野田	-11.4108
鞍馬	-11.4108
蔓草	-11.4109
九首	-11.4109
龍驤	-11.411
宜春	-11.411
太虚	-11.411
朝霞	-11.4111
濯足	-11.4113
燮	-11.4113
甚者	-11.4114
頗有	-11.4118
能詩	-11.4118
弓矢	-11.4122
罔極	-11.4126
甲乙	-11.4127
至治	-11.4127
缶	-11.4127
旰	-11.4128
輕舉	-11.413
隂陽之	-11.4134
昌言	-11.4134
無忘	-11.4136
威靈	-11.4138
希夷	-11.4138
與天地	-11.4141
秋夕	-11.4142
清商	-11.4144
文苑英華	-11.4144
隨意	-11.4145
一寸	-11.4146
扈從	-11.4148
以進	-11.4148
都䕶	-11.4149
塍	-11.4149
况乎	-11.415
士民	-11.4151
池水	-11.4151
海隅	-11.4152
寒梅	-11.4155
經始	-11.4156
無盡	-11.4156
擊壤	-11.4158
野草	-11.4159
苦吟	-11.416
未見其	-11.416
萱	-11.4161
齊桓	-11.4162
醢	-11.4162
黏	-11.4164
安定	-11.4166
一行	-11.4166
始有	-11.4166
從弟	-11.4167
謝安	-11.4167
傍人	-11.4169
不滅	-11.417
荻	-11.4173
石梁	-11.4174
焉夫	-11.4175
南康	-11.4176
孑	-11.4177
肄	-11.4179
南園	-11.418
榱	-11.4181
成文	-11.4181
題趙	-11.4181
兹山	-11.4181
霾	-11.4182
數行	-11.4183
漱	-11.4183
風土	-11.4183
縱有	-11.4183
槽	-11.4183
而己	-11.4189
殷周	-11.419
青龍	-11.4191
西風吹	-11.4195
文王之	-11.4195
之倫	-11.4196
睢陽	-11.4196
天開	-11.4201
穆公	-11.4201
記之	-11.4201
風髙	-11.4201
仙子	-11.4202
寄言	-11.4202
遺愛	-11.4205
端居	-11.4205
牀頭	-11.4205
書記	-11.4209
踴躍	-11.4212
不意	-11.4212
跼	-11.4213
安期	-11.4214
笈	-11.4215
艦	-11.4215
猿聲	-11.4216
何幸	-11.422
論議	-11.4221
無勞	-11.4222
殺身	-11.4224
羊腸	-11.4225
不幸而	-11.4226
清曉	-11.4227
者謂之	-11.4229
夢想	-11.423
貼	-11.4231
綻	-11.4232
古樹	-11.4232
駸駸	-11.4233
神光	-11.4235
仁義之	-11.4235
露滴	-11.4236
䋲	-11.4237
鄆	-11.4237
庭中	-11.4238
野鶴	-11.4241
惜其	-11.4241
軻	-11.4245
儒術	-11.4245
欲歸	-11.4247
霈	-11.4249
未為	-11.4249
謇	-11.425
鷲	-11.4251
八卦	-11.4251
地僻	-11.4251
之質	-11.4251
佯	-11.4252
優劣	-11.4252
筆端	-11.4253
不踰	-11.4255
井田	-11.4256
出乎	-11.4257
地勢	-11.4258
霖雨	-11.4259
世世	-11.4261
晉人	-11.4262
其詞	-11.4264
醺	-11.4264
閙	-11.4266
視聽	-11.4267
衘	-11.4268
騏驥	-11.4268
!	-11.4269
颸	-11.4269
絶域	-11.4273
東臯	-11.4274
儒林	-11.4275
朱絃	-11.4275
器用	-11.4276
丹墀	-11.4276
既無	-11.4278
守令	-11.4279
下土	-11.4279
伏望	-11.4281
可能	-11.4282
紊	-11.4282
城樓	-11.4284
崤	-11.4285
廽	-11.4286
崆峒	-11.4286
入夜	-11.4286
精靈	-11.4287
河山	-11.4287
楚子	-11.429
嗚咽	-11.4291
迎風	-11.4291
樓觀	-11.4294
晴雲	-11.4296
暝色	-11.4297
清池	-11.4297
愁殺	-11.4297
也毛詩曰	-11.4298
奉表	-11.4302
路轉	-11.4302
七尺	-11.4302
知命	-11.4302
其終	-11.4303
濁酒	-11.4305
滿堂	-11.4307
豈必	-11.4309
路逺	-11.4309
先儒	-11.431
清霜	-11.4312
充國	-11.4312
送友人	-11.4313
焉得	-11.4316
酥	-11.432
熖	-11.4321
桂花	-11.4322
鈐	-11.4323
默	-11.4325
珠璣	-11.4326
予曰	-11.4327
樞密	-11.4328
教人	-11.4329
因縁	-11.4329
江都	-11.4332
比於	-11.4332
世道	-11.4333
蕋	-11.4335
嘔	-11.4336
明哲	-11.4337
件	-11.4337
西蜀	-11.4338
天時	-11.4339
小園	-11.4339
氐	-11.4341
詠歌	-11.4341
况乃	-11.4342
張華	-11.4342
良工	-11.4342
死矣	-11.4345
無一事	-11.4345
不愧	-11.4348
不正	-11.4349
鴻臚	-11.4353
不飲	-11.4354
戕	-11.4354
鶚	-11.4358
西郊	-11.4358
長空	-11.4358
以表	-11.4358
王建	-11.4359
嫂	-11.4359
將安	-11.4365
旭日	-11.4365
採藥	-11.4366
滿山	-11.4366
無憂	-11.4367
惟公	-11.4367
春花	-11.4368
莫大於	-11.437
目録	-11.437
彥	-11.4371
繇是	-11.4373
宦官	-11.4373
户牖	-11.4375
印綬	-11.4376
湊	-11.4376
千家	-11.4381
寒水	-11.4383
真宗	-11.4383
學官	-11.4384
紫翠	-11.4387
雪山	-11.4387
仙翁	-11.4387
邪正	-11.4388
聖君	-11.4388
春夢	-11.4391
加於	-11.4391
興來	-11.4392
甲辰	-11.4393
詩酒	-11.4396
沅	-11.4398
不眠	-11.4399
今我	-11.4399
折衝	-11.4399
鯉魚	-11.4399
亦然	-11.44
雲根	-11.44
清淨	-11.4402
碧草	-11.4402
殿中	-11.4405
固知	-11.4405
飛雲	-11.4405
流傳	-11.4405
鉦	-11.4407
在何處	-11.4409
芳洲	-11.441
湓	-11.441
矯矯	-11.4412
無敢	-11.4412
俄而	-11.4413
出守	-11.4413
祀典	-11.4416
敢忘	-11.4419
去矣	-11.442
僕夫	-11.442
一路	-11.442
告之	-11.442
往年	-11.4421
諶	-11.4422
便宜	-11.4422
北地	-11.4424
不可勝數	-11.4424
夢得	-11.4424
明道	-11.4429
五十年	-11.443
名節	-11.443
洞口	-11.4433
麻姑	-11.4435
内翰	-11.4436
紫陌	-11.4436
殺氣	-11.4436
出身	-11.4436
東去	-11.4441
嚴霜	-11.4444
媛	-11.4445
脛	-11.4445
晴日	-11.4445
棟梁	-11.4447
祀之	-11.4447
城北	-11.4448
嵗嵗	-11.4448
漢室	-11.4449
釣磯	-11.4449
東閣	-11.445
賢臣	-11.4453
之號	-11.4457
令尹	-11.4457
之境	-11.4458
幟	-11.4461
逡巡	-11.4463
舶	-11.4464
黜陟	-11.4466
釋之	-11.4467
聚散	-11.4468
遂成	-11.4468
子規	-11.447
異乎	-11.4471
閉户	-11.4471
之由	-11.4471
金闕	-11.4473
纎纎	-11.4473
客思	-11.4473
以歸	-11.4475
蓍	-11.4477
宼	-11.4477
以至於	-11.4478
五言律	-11.4478
天官	-11.448
緋	-11.4482
乃是	-11.4483
劭	-11.4484
龍圖	-11.4486
分别	-11.4488
冠冕	-11.4491
亡也	-11.4491
山亭	-11.4495
石頭	-11.4495
寒風	-11.4496
不可以不	-11.4497
髙低	-11.4497
祛	-11.4497
開府儀同三司	-11.4497
恩深	-11.4498
莫怪	-11.4498
相違	-11.4502
看雲	-11.4502
何益	-11.4502
此數	-11.4502
其要	-11.4502
諸道	-11.4503
上馬	-11.4504
之智	-11.4507
野客	-11.4507
崛	-11.4508
如畫	-11.4512
結廬	-11.4513
二十九	-11.4513
伏願	-11.4516
其妻	-11.4517
中正	-11.4519
正位	-11.4519
升堂	-11.4519
功德	-11.4524
頌聲	-11.4524
文士	-11.4528
兆民	-11.4529
忠良	-11.4529
詹事	-11.453
璚	-11.4532
慤	-11.4534
本是	-11.4534
華表	-11.4534
羣后	-11.4534
駕言	-11.4535
斸	-11.4536
者以其	-11.4537
臣以為	-11.4538
所云	-11.4542
少壯	-11.4545
四門	-11.455
橘柚	-11.4551
少師	-11.4551
諜	-11.4551
桑梓	-11.4554
臺閣	-11.4555
僞	-11.4555
此物	-11.4558
層城	-11.4559
清輝	-11.4559
之列	-11.4562
曉色	-11.4565
劉長卿	-11.4565
蜚	-11.4567
而已哉	-11.4567
犁	-11.4568
鵶	-11.4569
此豈	-11.4569
東湖	-11.457
梁武帝	-11.4571
何求	-11.4572
以獻	-11.4573
未到	-11.4574
所遇	-11.4574
保其	-11.4575
門生	-11.4576
之容	-11.4576
張仲	-11.4581
儀禮	-11.4581
濩	-11.4584
江亭	-11.4584
闔閭	-11.4584
酒旗	-11.4585
漁家	-11.4587
此樂	-11.4589
箕子	-11.4592
山鬼	-11.4595
夢到	-11.4596
去後	-11.4597
九百	-11.4601
入室	-11.4602
牛馬	-11.4603
公羊	-11.4604
澧	-11.4604
太上	-11.4604
送僧	-11.4605
驅馬	-11.4606
雷電	-11.4607
魴	-11.4607
楠	-11.4609
機杼	-11.461
也至於	-11.4611
先天	-11.4615
霍光	-11.4615
辟雍	-11.4618
澄清	-11.4619
大禹	-11.462
未定	-11.462
之䇿	-11.4622
國風	-11.4622
薺	-11.4623
蘇子	-11.4624
會稽	-11.4624
寒光	-11.4625
簧	-11.4625
那能	-11.4625
兩人	-11.4626
金屋	-11.463
幾回	-11.463
明白	-11.4632
録事	-11.4632
舟人	-11.4636
斷續	-11.4638
好事者	-11.4638
嚬	-11.4638
非其人	-11.4639
舉頭	-11.4639
形影	-11.4639
杲	-11.464
太初	-11.4641
黍稷	-11.4641
塾	-11.4644
山泉	-11.4644
其墓	-11.4645
香火	-11.465
半生	-11.4651
賈島	-11.4653
七里	-11.4655
惋	-11.4656
洞中	-11.4657
澌	-11.4658
蒯	-11.4659
冇	-11.4659
大風	-11.4661
輞川	-11.4661
客中	-11.4663
爇	-11.4663
牡	-11.4664
那可	-11.4664
憐君	-11.4665
天壤	-11.4667
紫雲	-11.4667
廣漢	-11.4669
十有四	-11.4669
辛丑	-11.4675
哥	-11.4678
鑱	-11.468
驛路	-11.4681
龍鱗	-11.4681
欲往	-11.4682
修身	-11.4682
風沙	-11.4685
遨遊	-11.4687
長句	-11.4687
人道	-11.4689
喜怒	-11.4695
戛	-11.4696
紘	-11.4696
燕雀	-11.4696
蓂	-11.4697
何得	-11.4698
風送	-11.4699
詩思	-11.47
嵗華	-11.4701
重華	-11.4701
相待	-11.4702
雖在	-11.4706
醉眠	-11.4712
慼	-11.4713
承㫖	-11.4714
張説	-11.4714
簸	-11.4714
落木	-11.4716
姒	-11.4718
名教	-11.4719
石泉	-11.472
倚天	-11.4722
却笑	-11.4722
人稀	-11.4723
春夏	-11.4724
公言	-11.4725
宣慰	-11.473
景福	-11.4731
建國	-11.4732
瞥	-11.4732
持此	-11.4732
隨處	-11.4732
彗	-11.4734
酺	-11.4735
春意	-11.4737
塵世	-11.4737
清淺	-11.4737
延佇	-11.4738
其兄	-11.474
鷗鷺	-11.4741
親親	-11.4742
行歌	-11.4744
為爾	-11.4744
醑	-11.4745
届	-11.4747
此曲	-11.4747
衒	-11.4748
邅	-11.4748
將欲	-11.4749
清波	-11.475
瀬	-11.4751
落筆	-11.4752
忘情	-11.4753
峡	-11.4755
豈特	-11.4757
幸有	-11.4758
風化	-11.4762
玉簫	-11.4762
竽	-11.4763
予嘗	-11.4764
長相思	-11.4765
閩中	-11.4768
奨	-11.4769
年四十	-11.4774
枯木	-11.4775
兵部尚書	-11.4775
周南	-11.4778
黔首	-11.4781
出家	-11.4781
高樓	-11.4784
下筆	-11.4784
覯	-11.4784
烟波	-11.4785
諸賢	-11.4785
儋	-11.4785
戡	-11.4789
飛揚	-11.4789
也盖	-11.4791
伊洛	-11.4792
以救	-11.4793
城隅	-11.4796
竹葉	-11.4796
恐懼	-11.4797
雲樹	-11.4799
報恩	-11.4799
豈足	-11.4801
開花	-11.4802
辛勤	-11.4802
慳	-11.4803
之所在	-11.4803
鄭氏	-11.4805
殻	-11.4806
苜蓿	-11.4806
至仁	-11.4807
浮萍	-11.4807
狖	-11.4808
訐	-11.4809
釣竿	-11.4812
君父	-11.4812
穆王	-11.4812
者也夫	-11.4812
未乾	-11.4813
幽尋	-11.4813
河橋	-11.4816
長鳴	-11.4816
四鄰	-11.4818
出沒	-11.482
巖下	-11.482
避地	-11.4822
其失	-11.4823
者也故	-11.4823
少傅	-11.4823
覘	-11.4824
詮	-11.4824
漢祖	-11.4824
兾	-11.4825
金縷	-11.4825
晡	-11.4826
唱和	-11.4826
莫測	-11.4832
十有五	-11.4833
二八	-11.4833
漁歌	-11.4833
冠帶	-11.4837
芙蕖	-11.4839
叡	-11.484
虚無	-11.4841
綆	-11.4841
曹操	-11.4842
亶	-11.4842
今又	-11.4842
聶	-11.4843
木石	-11.4845
曙色	-11.4845
咸池	-11.4846
夫人之	-11.4847
蒼然	-11.4848
華髪	-11.4848
鄕	-11.4849
丁丑	-11.485
千峯	-11.4853
其為人	-11.4853
正朔	-11.4853
亂離	-11.4853
下視	-11.4855
王惲	-11.4855
吳郡	-11.4856
桀紂	-11.4857
後嗣	-11.4857
荐	-11.4857
殘花	-11.4858
董仲舒	-11.4859
更始	-11.4859
為本	-11.486
十有八	-11.4863
其害	-11.4863
名字	-11.4864
魯連	-11.4864
當日	-11.4864
已久	-11.4865
縈紆	-11.4866
一丘	-11.4866
青衫	-11.4868
張良	-11.4869
如可	-11.4869
奏事	-11.4869
橋邊	-11.487
元嘉	-11.487
論道	-11.4871
敢以	-11.4872
齊侯	-11.4872
秋深	-11.4876
未應	-11.488
筆硯	-11.488
守道	-11.4881
流血	-11.4882
貂裘	-11.4882
乙未	-11.4884
皇祖	-11.4884
一洗	-11.4885
河圖	-11.4885
之口	-11.4886
各異	-11.4887
余嘗	-11.4887
未安	-11.4889
惟新	-11.4892
也况	-11.4892
竹帛	-11.4892
隔水	-11.4892
前賢	-11.4893
戊	-11.4893
牝	-11.4896
攻之	-11.4897
熒	-11.4897
歌辭	-11.4898
諠	-11.4899
稻粱	-11.4899
愛惜	-11.49
但有	-11.4901
酒熟	-11.4902
與李	-11.4902
倭	-11.4904
無虞	-11.4905
相率	-11.4906
好音	-11.4907
離合	-11.4908
璽書	-11.491
廣西	-11.4912
陶令	-11.4913
三國	-11.4913
而居	-11.4914
孱	-11.4915
三老	-11.4915
玉盤	-11.4915
鄉黨	-11.4915
醴泉	-11.4916
兩儀	-11.4917
閒雲	-11.4917
兠	-11.4919
經濟	-11.4924
舊業	-11.4924
感恩	-11.4925
之所能	-11.4927
楊公	-11.493
桐廬	-11.493
栁宗元	-11.4931
樓中	-11.4931
涪	-11.4932
不多	-11.4932
瀘	-11.4932
褊	-11.4933
善曰漢書曰	-11.4934
賾	-11.4934
歸思	-11.4936
顦顇	-11.4937
陳公	-11.4937
列宿	-11.4938
詵	-11.4938
氛氲	-11.4938
乃復	-11.4941
大亂	-11.4943
空濛	-11.4943
儒生	-11.4945
各一	-11.4945
中宗	-11.4951
曾祖	-11.4953
隠者	-11.4955
寒江	-11.4956
涿	-11.4956
晴空	-11.4957
黄道	-11.4957
開闢	-11.4958
堡	-11.4958
早晩	-11.496
權衡	-11.4961
揮毫	-11.4961
丁未	-11.4963
之色	-11.4963
九卿	-11.4965
寂無	-11.4965
則民	-11.4966
羅綺	-11.4966
鏡湖	-11.4966
曺	-11.4966
煙水	-11.4969
不齊	-11.4972
地下	-11.4973
司農	-11.4973
推之	-11.4978
而不見	-11.4983
只應	-11.4984
召為	-11.4985
幽明	-11.4986
字文	-11.4987
公卿大夫	-11.4987
月十五日	-11.4987
區宇	-11.4987
終年	-11.4987
靈芝	-11.4988
澤國	-11.4988
直學士	-11.4989
翰林院	-11.4989
凡此	-11.4989
葡萄	-11.499
鏡裏	-11.4991
千叟	-11.4992
異物	-11.4995
惟我	-11.4997
自然之	-11.4998
宴坐	-11.5003
老子曰	-11.5005
抑揚	-11.5008
底事	-11.5011
擬古	-11.5013
孰云	-11.5018
清隂	-11.5019
草書	-11.502
身死	-11.502
待月	-11.5023
小樓	-11.5024
不收	-11.5025
薜荔	-11.5026
匆匆	-11.5028
妻孥	-11.5028
跖	-11.5029
前輩	-11.503
懼其	-11.5032
虞舜	-11.5035
冀州	-11.5035
元首	-11.5037
二本	-11.5038
社稷之	-11.504
篇章	-11.5042
行止	-11.5043
莫向	-11.5045
城池	-11.5048
袤	-11.5048
畹	-11.5048
歉	-11.505
岑參	-11.505
杜門	-11.5051
髙陽	-11.5052
講學	-11.5056
小雅	-11.5058
庠序	-11.506
黎庶	-11.5062
愛君	-11.5062
善政	-11.5062
藏書	-11.5062
魯國	-11.5064
後世之	-11.5065
山北	-11.5066
著述	-11.5068
暮年	-11.507
經筵	-11.5072
躋攀	-11.5073
達於	-11.5075
追隨	-11.5076
童謡	-11.5076
瞳	-11.5077
家語	-11.508
松花	-11.5082
昔聞	-11.5082
請君	-11.5082
懷抱	-11.5085
郊原	-11.5086
御定全唐詩	-11.5086
御製	-11.5086
豺虎	-11.5088
踣	-11.5088
小橋	-11.5088
勸農	-11.5089
鳴玉	-11.5089
微言	-11.5089
髙歌	-11.5091
郝	-11.5092
豈止	-11.5096
孤帆	-11.5099
凡所	-11.51
凌波	-11.5102
炷	-11.5104
矣且	-11.5104
褚	-11.5105
勣	-11.5106
世孫	-11.5106
閃	-11.5107
爪牙	-11.5108
河源	-11.5113
榴	-11.5115
有美	-11.5116
窮愁	-11.5116
責之	-11.5117
躓	-11.5123
舜禹	-11.5123
沈佺期	-11.5124
休明	-11.5124
爵禄	-11.5127
自由	-11.5127
互相	-11.5127
節物	-11.5128
簫韶	-11.513
嗚	-11.5131
滿林	-11.5131
列聖	-11.5132
水經注	-11.5132
隔岸	-11.5133
華隂	-11.5133
禰	-11.5139
蕭散	-11.514
然皆	-11.5141
蓊	-11.5142
春衣	-11.5142
老氏	-11.5142
臣伏	-11.5144
望月	-11.5144
罾	-11.5145
孝悌	-11.5146
亦既	-11.5146
箜篌	-11.5146
為害	-11.5146
自喜	-11.5146
訃	-11.5147
日觀	-11.5149
中軍	-11.5149
及第	-11.5151
髙情	-11.5151
論功	-11.5152
宫商	-11.5155
亦難	-11.5156
乆之	-11.5158
安居	-11.5159
玦	-11.5159
彘	-11.5159
峥嶸	-11.5161
埒	-11.5162
列國	-11.5165
吾身	-11.5165
武庫	-11.5166
毀	-11.5166
曽孫	-11.5167
擺	-11.5167
子陵	-11.5167
肅宗	-11.5167
嗟嗟	-11.5167
相訪	-11.5169
四子	-11.517
俯視	-11.5172
釣船	-11.5173
無厭	-11.5173
子昂	-11.5174
東來	-11.5175
之符	-11.5176
恭儉	-11.5177
不虞	-11.5177
鄉國	-11.5178
沆瀣	-11.518
緑苔	-11.518
也葢	-11.5181
禊	-11.5182
大定	-11.5182
徳宗	-11.5184
當路	-11.5189
云何	-11.5192
招隠	-11.5192
風氣	-11.5192
不敏	-11.5193
聞説	-11.5195
抒	-11.5196
颷	-11.5196
二十餘	-11.5198
蘅	-11.52
念此	-11.52
混沌	-11.52
淋	-11.52
纛	-11.5201
盈尺	-11.5201
千齡	-11.5202
以勸	-11.5202
樹下	-11.5204
無垠	-11.5207
中朝	-11.5208
岳陽	-11.5208
唐宋	-11.521
無子	-11.521
矯首	-11.521
儕	-11.5211
不隨	-11.5212
小雨	-11.5214
無補	-11.5215
嵗晚	-11.5218
妒	-11.5219
無期	-11.5219
兢兢	-11.522
搢紳	-11.5222
遺恨	-11.5222
穽	-11.5222
百靈	-11.5223
難知	-11.5224
成康	-11.5225
登第	-11.5226
循環	-11.5227
民心	-11.5227
送劉	-11.5227
鐘磬	-11.5229
衆星	-11.5229
上頭	-11.5231
遲暮	-11.5231
猶恐	-11.5234
蹤跡	-11.5236
二君	-11.5236
茁	-11.5237
瑯琊	-11.5237
餒	-11.5239
鯤	-11.524
能令	-11.5241
坐中	-11.5242
入城	-11.5244
甓	-11.5244
獨孤	-11.5245
昆明	-11.5245
萬籟	-11.5245
窮巷	-11.5246
六軍	-11.5248
維舟	-11.5248
樽前	-11.5251
安南	-11.5252
定知	-11.5256
之墓	-11.5256
蘖	-11.5256
聲聞	-11.5257
黄州	-11.5263
已來	-11.5264
呼吸	-11.5264
客舍	-11.5265
因時	-11.5265
豈不以	-11.5267
伏羲	-11.5268
云是	-11.527
一川	-11.527
望鄉	-11.5273
川原	-11.5274
薜	-11.5274
紫陽	-11.5275
鶯聲	-11.5275
西川	-11.5275
摩詰	-11.5275
豈謂	-11.5275
西歸	-11.5276
金鞍	-11.5277
丁寧	-11.5277
余曰	-11.5278
朱輪	-11.5278
光禄大夫	-11.528
萬夀	-11.5282
伐木	-11.5282
秦皇	-11.5284
天錫	-11.5285
早發	-11.5287
學術	-11.5287
大名	-11.5288
夜夢	-11.5289
劉子	-11.5291
眼明	-11.5292
小吏	-11.5293
問津	-11.5294
悃	-11.5295
金殿	-11.5295
蒼山	-11.5296
茘	-11.5297
之族	-11.5299
駞	-11.5299
莫非	-11.5302
沙鷗	-11.5303
差池	-11.5305
而靡	-11.531
青冥	-11.531
屣	-11.5312
笑我	-11.5312
聞見	-11.5313
嘗謂	-11.5313
不省	-11.5314
晚風	-11.5315
涕泣	-11.5317
千騎	-11.5317
動静	-11.5317
霜風	-11.5317
少保	-11.5318
橙	-11.5318
許由	-11.5318
杖屨	-11.5321
斜暉	-11.5321
鴈門	-11.5321
賢不肖	-11.5322
茍有	-11.5322
張九齡	-11.5323
道義	-11.5323
最為	-11.5324
朅來	-11.5325
眼看	-11.5325
何獨	-11.5326
陵谷	-11.5328
簫鼓	-11.5331
客衣	-11.5332
易水	-11.5333
伶	-11.5333
公議	-11.5334
雙燕	-11.5335
阪	-11.5337
長慶	-11.5337
宿昔	-11.5338
善曰言	-11.5339
雲母	-11.534
為陛下	-11.5342
入于	-11.5343
伏波	-11.5344
軍國	-11.5345
藏於	-11.5346
同姓	-11.5347
吾鄉	-11.535
廣平	-11.5352
閹	-11.5353
諤	-11.5354
卧龍	-11.5356
神道	-11.5359
謳歌	-11.5362
和樂	-11.5362
亦宜	-11.5364
無消息	-11.5366
是嵗	-11.5366
青瑣	-11.5367
峴山	-11.5369
不常	-11.537
春華	-11.537
扶疎	-11.537
不敢以	-11.5371
一尊	-11.5373
醮	-11.5375
顗	-11.5377
至於此	-11.5378
吳門	-11.5378
畬	-11.538
于兹	-11.538
之至也	-11.538
石磴	-11.5381
雲錦	-11.5382
金莖	-11.5383
誠能	-11.5384
先覺	-11.5385
逺望	-11.5385
昔我	-11.5385
宣州	-11.539
先賢	-11.539
我昔	-11.5391
結交	-11.5393
金波	-11.5393
隱隱	-11.5394
祺	-11.5395
垂拱	-11.5397
年二月	-11.5397
伊何	-11.5398
感時	-11.5399
宫女	-11.5402
𢎞農	-11.5404
梁元帝	-11.5408
黄菊	-11.5408
九族	-11.5409
沚	-11.541
文徳	-11.541
卧病	-11.541
纊	-11.5414
採桑	-11.5414
嵌	-11.5416
煌	-11.5416
嘗有	-11.5417
門巷	-11.5418
史臣	-11.5419
年豐	-11.542
逢君	-11.542
别駕	-11.5421
軍士	-11.5422
雙鬢	-11.5423
溝壑	-11.5424
勉之	-11.5424
而彌	-11.5425
荃	-11.5425
相催	-11.5427
建業	-11.543
方伯	-11.5431
堂下	-11.5432
青嶂	-11.5432
留意	-11.5432
夾道	-11.5432
竪	-11.5433
離情	-11.5434
浣花	-11.5435
弗能	-11.5439
傷春	-11.5439
之規	-11.5439
兩山	-11.544
敢言	-11.544
于朝	-11.544
孫男	-11.5441
東野	-11.5441
㑹昌	-11.5442
秋風吹	-11.5444
未遑	-11.5444
故居	-11.5445
品物	-11.5447
出郭	-11.5448
胡笳	-11.5449
松間	-11.545
尚書郎	-11.5452
洛城	-11.5452
粮	-11.5453
𢷬	-11.5455
以供	-11.5456
國初	-11.5456
耋	-11.5456
陋巷	-11.5456
永安	-11.5457
杜若	-11.5459
最髙	-11.5461
花紅	-11.5464
雒	-11.5465
幾許	-11.5465
翠屏	-11.5465
周王	-11.5466
宣公	-11.5466
不嫌	-11.5467
苔蘚	-11.5467
瀚海	-11.5468
臯陶	-11.5468
不患	-11.5474
友生	-11.5475
閒人	-11.5475
盤石	-11.5477
維摩	-11.5477
離憂	-11.5477
松雪	-11.5478
疎林	-11.5479
用力	-11.5481
大厦	-11.5481
不喜	-11.5481
弱水	-11.5482
潼	-11.5483
莫教	-11.5486
壯心	-11.5488
天監	-11.5489
瞑	-11.5491
相視	-11.5492
謝靈運詩	-11.5492
蓮葉	-11.5492
䂓	-11.5493
沁	-11.5494
渡口	-11.5494
鄭𤣥曰	-11.5494
魯公	-11.5495
年六十	-11.5495
粲然	-11.55
梁園	-11.55
掩映	-11.5502
南朝	-11.5502
臨海	-11.5502
臨事	-11.5507
祧	-11.5507
齊梁	-11.5508
迓	-11.5508
丘陵	-11.5508
正當	-11.5509
病起	-11.551
不回	-11.551
窒	-11.5512
禇	-11.5513
奉和聖製	-11.5514
成就	-11.5514
詬	-11.5515
馬首	-11.5517
討論	-11.552
韓公	-11.5525
皎然	-11.5525
諸國	-11.5528
逢春	-11.5529
離居	-11.553
煜	-11.5531
涔	-11.5531
進賢	-11.5532
臺榭	-11.5532
周孔	-11.5533
成章	-11.5534
估	-11.5537
秋露	-11.554
黄庭堅	-11.5542
鄉心	-11.5542
東郭	-11.5544
聖㫖	-11.5547
安足	-11.5547
螻蟻	-11.5547
藿	-11.5549
巖巖	-11.555
曷為	-11.5551
熒熒	-11.5553
未解	-11.5554
李廣	-11.5555
區區之	-11.5556
立法	-11.5557
黃金	-11.5558
沐浴	-11.5558
鳯翔	-11.5561
般若	-11.5562
蜩	-11.5568
畊	-11.5568
煒	-11.557
三章	-11.5571
秫	-11.5571
之大者	-11.5572
羃	-11.5572
哂	-11.5572
渟	-11.5573
除夜	-11.5575
趙公	-11.5578
論語曰	-11.5579
郡齋	-11.5579
迄今	-11.558
亭上	-11.5581
兩兩	-11.5581
府庫	-11.5581
見説	-11.5581
郡城	-11.5582
忠厚	-11.5582
夢覺	-11.5583
相迎	-11.5583
令名	-11.5587
罥	-11.5588
斯須	-11.5589
此語	-11.559
君侯	-11.559
小景	-11.5593
倏	-11.5594
畫像	-11.5597
𣙜	-11.5598
汾陽	-11.5598
所親	-11.56
不早	-11.5601
萬機	-11.5602
大畧	-11.5602
抱琴	-11.5603
望望	-11.5605
絲綸	-11.5607
深淺	-11.5607
主意	-11.5612
曉風	-11.5612
斌	-11.5614
汲黯	-11.5615
應笑	-11.5616
隷	-11.5617
平章事	-11.5618
明滅	-11.5619
兩京	-11.5623
五臣作	-11.5625
湖邊	-11.5626
江浙	-11.5626
溪邊	-11.5627
雲散	-11.5629
庚子	-11.563
白楊	-11.563
焉知	-11.5631
隤	-11.5631
部曲	-11.5631
自兹	-11.5631
濆	-11.5632
嗷嗷	-11.5632
喫	-11.5632
猱	-11.5633
娟	-11.5633
鯁	-11.5633
𥙷	-11.5633
曾不	-11.5633
棹歌	-11.5636
折腰	-11.5636
金粟	-11.5636
上皇	-11.5636
卒于	-11.5637
而至於	-11.5638
清涼	-11.564
曉月	-11.564
茅簷	-11.564
歡樂	-11.5642
瓚	-11.5646
别時	-11.5648
偶題	-11.5648
同異	-11.5649
薊門	-11.5649
悽愴	-11.565
延夀	-11.5651
神宗	-11.5651
榼	-11.5651
菖蒲	-11.5652
不可知	-11.5652
相逐	-11.5653
登臺	-11.5653
泣血	-11.5654
裡	-11.5654
之所由	-11.5655
清凉	-11.5658
山翁	-11.566
毁譽	-11.5662
律吕	-11.5665
北上	-11.5666
厯數	-11.5667
于世	-11.5667
昧死	-11.5668
髠	-11.5668
罪人	-11.5669
楚水	-11.5669
軿	-11.567
皇子	-11.5671
㸑	-11.5671
裊裊	-11.5672
客裏	-11.5672
澶	-11.5675
東方朔	-11.5675
芰	-11.5684
飛雨	-11.5688
入蜀	-11.5688
祥符	-11.5689
榔	-11.5689
逢迎	-11.569
岌	-11.569
知幾	-11.5691
纚	-11.5691
筦	-11.5692
月某日	-11.5698
方壺	-11.5699
巖穴	-11.57
工部尚書	-11.5701
震澤	-11.5703
疎鐘	-11.5704
阿母	-11.5704
更深	-11.5706
崇禎	-11.5706
令狐	-11.5707
手中	-11.5709
睫	-11.5711
拳拳	-11.5711
先輩	-11.5712
雪夜	-11.5715
夜郎	-11.5716
落梅	-11.5717
詩家	-11.5717
飛絮	-11.5721
舟車	-11.5722
八尺	-11.5723
征夫	-11.5723
八方	-11.5724
禹貢	-11.5724
樹杪	-11.5726
郡太守	-11.5727
勝事	-11.573
玉笛	-11.573
州司馬	-11.573
喜見	-11.5732
節制	-11.5732
蛤	-11.5733
塗炭	-11.5734
肌膚	-11.5734
一樽	-11.5735
上黨	-11.5735
陶潛詩	-11.5738
無幾	-11.5741
之攸	-11.5742
清氣	-11.5743
林塘	-11.5744
何處是	-11.5744
都官	-11.5747
京國	-11.5748
征衣	-11.5748
鞋	-11.5752
與物	-11.5752
甲申	-11.5753
裛	-11.5753
三才	-11.5754
國用	-11.5754
廟碑	-11.5754
璉	-11.5757
庚辰	-11.5761
關河	-11.5761
大學士	-11.5763
徒勞	-11.5766
棄捐	-11.5767
朕甚	-11.5768
鼓舞	-11.5768
埏	-11.5768
浙西	-11.577
後庭	-11.5772
第十	-11.5773
夤	-11.5774
職事	-11.5775
殘春	-11.5778
樓頭	-11.5779
田疇	-11.5782
聖俞	-11.5783
城邑	-11.5784
劄子	-11.5787
含笑	-11.5788
青州	-11.5789
且復	-11.579
浮丘	-11.579
夷猶	-11.579
其類	-11.5791
發揮	-11.5791
彧	-11.5792
瑀	-11.5792
十有一	-11.5793
睥睨	-11.5795
十丈	-11.5795
萬仞	-11.5796
下民	-11.5796
江行	-11.5796
酌酒	-11.5797
仕至	-11.5798
求諸	-11.5799
年光	-11.5801
張君	-11.5804
不可及	-11.5805
糞	-11.5808
雎	-11.5808
山阿	-11.5809
所難	-11.5811
王氣	-11.5811
燕王	-11.5813
年四月	-11.5814
鑽	-11.5815
塞外	-11.5817
成湯	-11.5818
䕶軍	-11.5819
進取	-11.582
舊日	-11.582
行吟	-11.5829
曠野	-11.5829
薰風	-11.583
一種	-11.5831
賢士	-11.5832
固宜	-11.5834
郡中	-11.5834
荆楚	-11.5835
幽鳥	-11.5836
孳	-11.5836
康樂	-11.5836
猶得	-11.5837
兖州	-11.5837
者邪	-11.5838
隍	-11.5839
玉燭	-11.584
文雅	-11.5841
馳騖	-11.5843
杜預	-11.5845
自覺	-11.5847
三川	-11.585
夜色	-11.585
三嵗	-11.585
大賢	-11.5853
荆軻	-11.5853
不足為	-11.5854
紏	-11.5855
里人	-11.5855
水東流	-11.5856
西門	-11.5857
先世	-11.5857
礎	-11.5857
鴟夷	-11.5857
輕車	-11.5857
天下皆	-11.5857
郯	-11.5859
六十四	-11.5859
蟬聲	-11.5859
北堂	-11.586
丙辰	-11.5861
經傳	-11.5862
寓居	-11.5862
廣寒	-11.5862
窮通	-11.5864
黎元	-11.5865
垓	-11.5865
鄭玄曰	-11.5866
吳山	-11.5866
後主	-11.5867
故吏	-11.5867
春城	-11.5869
盡忠	-11.587
楓林	-11.5872
瞻望	-11.5872
論詩	-11.5874
新城	-11.5874
責其	-11.5875
樾	-11.5875
璟	-11.5875
勝負	-11.5876
倚樓	-11.5876
器也	-11.5877
迎春	-11.5878
廨	-11.5879
農事	-11.5879
目送	-11.5882
問訊	-11.5883
巖壑	-11.5888
聖代	-11.589
可考	-11.5892
冕旒	-11.5894
正言	-11.5896
义	-11.5897
畫馬	-11.5899
僖公	-11.59
張儀	-11.5903
來儀	-11.5903
淮水	-11.5904
五等	-11.5904
皎潔	-11.5905
鼈	-11.5905
特進	-11.5909
祖諱	-11.591
極浦	-11.5911
掃地	-11.5912
雨歇	-11.5913
餘生	-11.5913
高下	-11.5913
樛	-11.5915
不達	-11.5915
陁	-11.5918
身輕	-11.592
功曹	-11.592
解衣	-11.5921
紛然	-11.5921
厎	-11.5922
泌	-11.5922
起坐	-11.5925
無俗	-11.5929
杜宇	-11.593
芝蘭	-11.5931
本紀	-11.5932
今復	-11.5934
乙丑	-11.5936
仰觀	-11.5936
吾友	-11.5937
片言	-11.5938
遣人	-11.5938
筆力	-11.5938
半是	-11.5939
無敵	-11.5941
史氏	-11.5942
不備	-11.5942
清景	-11.5945
精微	-11.5948
但聞	-11.5948
幽深	-11.5952
六宫	-11.5954
北齊	-11.5957
其末	-11.5957
榮枯	-11.5958
諫議大夫	-11.596
辛未	-11.5961
勲業	-11.5961
比干	-11.5963
水濵	-11.5963
父母之	-11.5963
頋	-11.5964
長久	-11.5967
文紀	-11.5969
之災	-11.5969
晨起	-11.5969
曽無	-11.597
曰天子	-11.5971
連珠	-11.5971
永夜	-11.5972
石牀	-11.5974
待罪	-11.5976
俶	-11.5976
賢能	-11.5976
非特	-11.5976
始至	-11.5976
俎豆	-11.5978
灝	-11.5978
高堂	-11.5978
還似	-11.5983
疊嶂	-11.5983
事親	-11.5987
秦始皇	-11.5988
錢唐	-11.5988
力行	-11.599
同善注	-11.599
淑氣	-11.5991
校書郎	-11.5992
桑田	-11.5995
栁條	-11.5997
萬厯	-11.5998
寰宇	-11.6
戌	-11.6
羇旅	-11.6
莫知其	-11.6007
蘭蕙	-11.6007
聖哲	-11.6008
莫辭	-11.6008
鹿鳴	-11.6008
問君	-11.6008
常熟	-11.6009
平津	-11.601
恩波	-11.6011
廣東	-11.6012
送神	-11.6017
政教	-11.6017
㡬何	-11.6019
撐	-11.602
翕然	-11.602
呉越	-11.602
分司	-11.6021
去住	-11.6022
二十餘年	-11.6022
紇	-11.6022
婺源	-11.6025
淮南王	-11.6025
青霄	-11.6027
兒孫	-11.6028
司馬光	-11.6031
婦女	-11.6031
七八	-11.6032
向西	-11.6034
女蘿	-11.6034
厚薄	-11.6035
趍	-11.6037
菩提	-11.6038
始覺	-11.6038
不可謂	-11.6038
秔	-11.6041
往復	-11.6042
薈	-11.6043
瑟瑟	-11.6044
比肩	-11.6046
尤甚	-11.6048
吉日	-11.6048
建康	-11.605
洞門	-11.605
三辰	-11.6051
也若夫	-11.6052
影響	-11.6054
無量	-11.6057
人不見	-11.6058
孤竹	-11.6058
琅	-11.6059
洙泗	-11.6061
堂記	-11.6061
彀	-11.6063
臣之所	-11.6064
曬	-11.6064
仲淹	-11.6064
財用	-11.6064
所司	-11.6066
順時	-11.6066
萬井	-11.6067
九折	-11.6069
親見	-11.607
荒凉	-11.607
不茍	-11.6071
離披	-11.6072
永平	-11.6072
洛下	-11.6074
烈烈	-11.6075
寒煙	-11.6079
雲際	-11.608
慈母	-11.6082
當代	-11.6082
鮫人	-11.6083
鏘鏘	-11.6083
治民	-11.6083
罏	-11.6083
衰草	-11.6083
灔	-11.6084
曆	-11.6086
低頭	-11.6088
輦路	-11.6089
盛矣	-11.609
清塵	-11.6091
田野	-11.6093
郡公	-11.6097
毛羽	-11.6097
經世	-11.61
草莽	-11.61
狙	-11.6101
褰裳	-11.6101
趺	-11.6102
淤	-11.6102
耨	-11.6102
乗輿	-11.6102
前古	-11.6103
呼兒	-11.6103
交趾	-11.6104
闕名	-11.6104
㶚	-11.6105
翠袖	-11.6106
龍沙	-11.6106
慟哭	-11.6107
第六	-11.6108
國子監	-11.6109
仙山	-11.6111
冰雪	-11.6111
屈指	-11.6115
奄有	-11.6116
老杜	-11.6117
有限	-11.6118
文皇帝	-11.6121
埃塵	-11.6122
鋏	-11.6124
經云	-11.6125
鉗	-11.6126
終南山	-11.6129
念我	-11.6129
直到	-11.613
我后	-11.6133
已覺	-11.6133
太常博士	-11.6134
歡娛	-11.6134
太康	-11.6138
流星	-11.614
中大夫	-11.6141
蓀	-11.6142
果有	-11.6143
墊	-11.6143
餘姚黄宗羲編	-11.6143
馘	-11.6146
送陳	-11.6147
不務	-11.6149
柵	-11.6149
松桂	-11.6151
滔	-11.6153
北史	-11.6155
毛萇曰	-11.6156
大澤	-11.6156
照臨	-11.6157
英靈	-11.6158
雨濕	-11.6159
百蠻	-11.6159
閒暇	-11.616
轅門	-11.6161
雍州	-11.6164
玉露	-11.6165
漢帝	-11.6166
楯	-11.6166
池中	-11.6166
剡溪	-11.6167
大都督	-11.6167
情性	-11.6168
孝弟	-11.617
勦	-11.6171
兩地	-11.6176
不停	-11.6177
甲午	-11.6183
簡書	-11.6183
今兹	-11.6185
坐久	-11.6185
襪	-11.6187
臣恐	-11.6187
馮夷	-11.6189
捲簾	-11.619
開封	-11.6191
釋氏	-11.6193
自許	-11.6194
池館	-11.6195
習習	-11.6196
孟郊	-11.6199
𤣥黄	-11.6199
逢時	-11.6204
華堂	-11.6206
澣	-11.6208
明星	-11.6209
啾啾	-11.621
乾元	-11.621
騶虞	-11.621
耿介	-11.6212
逺岫	-11.6214
羽檄	-11.6216
羣玉	-11.6216
者不過	-11.6217
潤州	-11.6217
之義也	-11.6219
居處	-11.6219
載籍	-11.6224
烘	-11.6229
惜乎	-11.6229
嘆息	-11.6233
無計	-11.6238
賴有	-11.6238
拂拭	-11.6238
青城	-11.6241
錯落	-11.6241
丘山	-11.6242
或問	-11.6243
三十五	-11.6244
生計	-11.6245
照影	-11.6246
㸃㸃	-11.6247
臞	-11.6247
教諭	-11.6249
棄置	-11.625
敢告	-11.625
則可以	-11.6251
韵	-11.6252
㳟	-11.6252
亂後	-11.6252
鏗鏘	-11.6253
蘇頲	-11.6256
羅列	-11.6256
髙皇帝	-11.6257
禹穴	-11.6259
華夷	-11.6266
天漢	-11.6268
此所以	-11.6268
絆	-11.627
孟嘗君	-11.627
䧏	-11.6271
春陽	-11.6272
蘢	-11.6274
㑹合	-11.6275
不失其	-11.6275
千載之	-11.6275
癯	-11.6275
川上	-11.6276
山翠	-11.6279
天下之至	-11.6279
無忌	-11.6281
王褒	-11.6281
憶舊	-11.6282
萬化	-11.6283
憶昨	-11.6284
伊人	-11.6284
西州	-11.6288
比屋	-11.6288
九秋	-11.629
池臺	-11.6292
小小	-11.6292
碌碌	-11.6294
起家	-11.6295
提刑	-11.6296
桺	-11.6296
宿衛	-11.6298
長安道	-11.6299
朕以	-11.6301
側身	-11.6309
前路	-11.631
瓘	-11.6313
南都	-11.6314
迤邐	-11.6314
謟	-11.6315
勝地	-11.6315
窮途	-11.6316
千五百	-11.6316
都御史	-11.6316
淬	-11.6317
所恃	-11.6317
諸州	-11.6318
香滿	-11.6319
韋應物	-11.6321
七國	-11.6322
雲低	-11.6322
涇渭	-11.6323
流霞	-11.6324
國夫人	-11.6324
京都	-11.6325
有虞	-11.6326
車書	-11.6327
六尺	-11.6327
凡三	-11.6329
迴首	-11.6333
撾	-11.6334
蛺蝶	-11.6335
苐	-11.6335
張耒	-11.6335
羣峰	-11.6336
江干	-11.6338
鞵	-11.6338
披圖	-11.6341
二十日	-11.6341
北風吹	-11.6342
同中書門下平章事	-11.6342
官屬	-11.6344
髙枕	-11.6344
竊聞	-11.6344
老農	-11.6345
北京	-11.6346
後學	-11.6347
鄒魯	-11.6352
轉蓬	-11.6352
碧水	-11.6353
汭	-11.6356
一統	-11.6358
荑	-11.6358
鳧	-11.6359
剗	-11.636
櫜	-11.636
崦	-11.6361
感動	-11.6363
交錯	-11.6363
何况	-11.6363
公神道碑	-11.6364
章臺	-11.6364
僧房	-11.6369
舉手	-11.6373
科舉	-11.6373
澄江	-11.6374
指顧	-11.6378
況復	-11.6378
道術	-11.6379
固當	-11.6379
沬	-11.638
髀	-11.638
後之人	-11.638
不然則	-11.6381
語言	-11.6381
扶持	-11.6382
莭	-11.6383
蚩尤	-11.6384
吾民	-11.6384
憂勤	-11.6385
之至謹	-11.6386
死亡	-11.6387
人寰	-11.639
朝士	-11.6392
遺老	-11.6394
颼颼	-11.6395
飢寒	-11.6395
州牧	-11.6395
纉	-11.6398
癸未	-11.6398
嘿	-11.6398
荏苒	-11.6399
叔向	-11.6399
數百年	-11.6399
之什	-11.6404
約束	-11.6405
舞衣	-11.6406
方舟	-11.6407
八駿	-11.6409
晨興	-11.641
列傳	-11.6411
不救	-11.6411
緱	-11.6413
之事也	-11.6414
蔗	-11.6415
武皇	-11.6416
一燈	-11.6418
居民	-11.6418
南嶽	-11.642
閴	-11.642
鐺	-11.642
値	-11.6422
薑	-11.6422
撮	-11.6423
酪	-11.6423
畫屏	-11.6424
披衣	-11.6424
曲池	-11.6427
三秦	-11.6427
金沙	-11.6429
指㸃	-11.6431
於穆	-11.6432
之過也	-11.6434
亦嘗	-11.6435
一杯酒	-11.6436
縣丞	-11.6436
顧影	-11.6437
循吏	-11.6438
湛湛	-11.6438
古體詩	-11.6438
名之曰	-11.6438
諸郡	-11.6439
聖神	-11.6439
諸葛亮	-11.6442
裨	-11.6442
難再	-11.6443
猿鶴	-11.6444
誑	-11.6445
丹心	-11.6445
韭	-11.6446
掃除	-11.6447
孝亷	-11.6447
高帝	-11.6448
天降	-11.6456
帝京	-11.6456
列仙	-11.6457
孫氏	-11.6459
春臺	-11.646
諱某	-11.646
少留	-11.6461
巡撫	-11.6462
晏然	-11.6463
安得不	-11.6463
十餘萬	-11.6464
憊	-11.6464
相宜	-11.6465
墩	-11.6467
須知	-11.6467
京兆尹	-11.6467
江聲	-11.647
清音	-11.647
辠	-11.6472
不乏	-11.6474
諸孫	-11.6475
有時而	-11.6475
嚴陵	-11.6476
在眼	-11.6476
可奈何	-11.6477
山頂	-11.6477
桐花	-11.6483
侯王	-11.6484
餘慶	-11.6484
字叔	-11.6484
壬戌	-11.6485
經義	-11.6485
判一道	-11.6488
髫	-11.6489
伯牙	-11.6489
杜預曰	-11.649
芝草	-11.649
舊史	-11.6492
至德	-11.6493
狼籍	-11.6496
歸鳥	-11.6497
遊仙	-11.6499
庚申	-11.65
典籍	-11.6501
無害	-11.6501
幽禽	-11.6504
九鼎	-11.6504
諸友	-11.6504
莾	-11.6507
分手	-11.6507
棼	-11.6508
帚	-11.6509
淛	-11.6509
必將	-11.6509
太宰	-11.651
清暉	-11.651
數十人	-11.651
五嶺	-11.651
中書侍郎	-11.6511
歸未得	-11.6511
篚	-11.6511
負薪	-11.6512
無賴	-11.6518
仁夀	-11.6521
寺丞	-11.6522
武安	-11.6523
年十月	-11.6524
一卷	-11.6525
萬金	-11.6526
浪花	-11.6527
淒淒	-11.6527
伯樂	-11.6528
埜	-11.6529
林麓	-11.6529
萇	-11.6529
咀	-11.6532
層層	-11.6532
采采	-11.6533
蓬莱	-11.6533
墓誌	-11.6534
種竹	-11.6536
馬頭	-11.6537
吏部侍郎	-11.6538
呉興	-11.6539
逸人	-11.654
未息	-11.654
謁者	-11.6542
凌風	-11.6549
不渝	-11.6551
澠	-11.6552
踊	-11.6552
就中	-11.6553
揄	-11.6553
渦	-11.6553
訓導	-11.6553
蘼蕪	-11.6554
鋩	-11.6554
黼黻	-11.6554
田里	-11.6555
沍	-11.6555
南軒	-11.6556
聲音	-11.6557
撑	-11.6557
鄉閭	-11.6559
無辜	-11.656
諸夏	-11.6561
兵戈	-11.6562
温泉	-11.6563
壺中	-11.6565
詩選	-11.6565
鷹揚	-11.6568
為文章	-11.6571
管子	-11.6572
羽觴	-11.6574
𦂳	-11.6574
餘力	-11.6574
陶唐	-11.6575
衰老	-11.6575
笄	-11.6576
三台	-11.6576
陵夷	-11.6577
最後	-11.6577
西都	-11.6583
百事	-11.6586
片帆	-11.6587
松隂	-11.6587
舊宅	-11.6591
金帛	-11.6593
節婦	-11.6593
鴻毛	-11.6593
絶世	-11.6595
揀	-11.6597
闚	-11.6597
師旅	-11.6598
戊辰	-11.6598
櫂歌	-11.6599
啞	-11.6599
德音	-11.66
誰見	-11.66
樹枝	-11.6601
河梁	-11.6602
范仲淹	-11.6611
成周	-11.6611
姑射	-11.6611
古松	-11.6614
勿復	-11.6615
聲教	-11.6616
越州	-11.6617
鞮	-11.6617
陵遲	-11.6618
旬日	-11.6618
數家	-11.6618
鞦韆	-11.6618
塞北	-11.6619
子儀	-11.662
瓉	-11.662
鶯花	-11.6621
瘵	-11.6621
悛	-11.6621
栁絮	-11.6624
泊舟	-11.6624
了無	-11.6624
欹枕	-11.6626
洛中	-11.6626
采薇	-11.6628
舊制	-11.6634
我愛	-11.6635
悒	-11.6638
百寮	-11.6638
龍吟	-11.6638
蓐	-11.6638
丙子	-11.664
開軒	-11.6641
崒	-11.6642
冬十月	-11.6642
橐	-11.6643
綈	-11.6643
斲	-11.6643
縵	-11.6644
去嵗	-11.6644
不讓	-11.6644
泠然	-11.6644
膏澤	-11.6645
亦可以	-11.6646
能致	-11.6649
曰不然	-11.6652
細細	-11.6654
數尺	-11.6657
喪亂	-11.666
㡬人	-11.6661
瑗	-11.6662
駐馬	-11.6662
非敢	-11.6663
閒情	-11.6665
巇	-11.6665
坐令	-11.6666
四川	-11.6667
其禍	-11.6668
初夏	-11.6668
得句	-11.6669
身外	-11.6669
簡易	-11.6671
返照	-11.6674
至京師	-11.6676
不給	-11.6677
馳驅	-11.6679
刑法	-11.6681
宇内	-11.6682
鮑照詩	-11.6683
涓涓	-11.6684
寗	-11.6685
由此觀之	-11.6687
風味	-11.6688
畫角	-11.6691
人材	-11.6691
白苧	-11.6695
齊國	-11.6695
黄沙	-11.6699
定國	-11.67
固辭	-11.6701
太𤣥	-11.6702
養老	-11.6703
耳今	-11.6703
莞	-11.6706
有味	-11.6707
窮年	-11.6708
相持	-11.6708
庚戌	-11.6709
奭	-11.671
西伯	-11.6712
粲粲	-11.6713
頡	-11.6714
八紘	-11.6715
鷗鳥	-11.6716
不擇	-11.6717
禹湯	-11.6718
無所用	-11.6718
大怒	-11.6718
鐃	-11.6718
金閨	-11.6719
未全	-11.672
黄雀	-11.6722
繩墨	-11.6723
竊見	-11.6725
適意	-11.6727
肢	-11.6727
巻舒	-11.6727
台州	-11.6728
懸知	-11.6728
英英	-11.6731
誰肯	-11.6731
帝堯	-11.6738
泥沙	-11.6739
蟬鳴	-11.6741
贈君	-11.6741
廣文	-11.6744
乘興	-11.6746
宣室	-11.6748
車服	-11.6748
神祗	-11.6748
流芳	-11.675
六師	-11.675
通鑑	-11.6751
虀	-11.6751
舊唐書	-11.6752
百司	-11.6753
經歴	-11.6753
髙唐	-11.6753
惨	-11.6753
發兵	-11.6755
也古者	-11.6755
穡	-11.6755
皥	-11.6757
二篇	-11.6761
終當	-11.6763
宰臣	-11.6765
齋居	-11.6768
不恤	-11.6768
瓊樹	-11.6769
數十萬	-11.677
去留	-11.6771
律令	-11.6773
弇	-11.6775
如是則	-11.6775
晴天	-11.6776
鄰家	-11.6777
重疊	-11.6777
嶧	-11.6779
亦足以	-11.6779
李杜	-11.6779
相伴	-11.6779
風浪	-11.6781
虚心	-11.6782
海東	-11.6783
虎狼	-11.6789
余亦	-11.6789
剛柔	-11.679
魚鼈	-11.679
法制	-11.679
當户	-11.6791
休寧	-11.6792
征西	-11.6793
導之	-11.6793
蘇轍	-11.6793
平陸	-11.6794
崕	-11.6796
月冷	-11.6796
芮	-11.6797
膂	-11.6799
輻	-11.6799
環珮	-11.68
大宛	-11.6801
之本也	-11.6802
不可測	-11.6804
無怨	-11.6804
唐堯	-11.6805
推誠	-11.6807
魏武	-11.6807
中郎將	-11.6808
宛然	-11.681
靈巖	-11.6811
嵗晏	-11.6812
青眼	-11.6813
左思	-11.6813
瞬	-11.6818
頳	-11.6819
迤	-11.6822
澮	-11.6822
甲戌	-11.6822
嗟爾	-11.6823
丰	-11.6823
鑾輿	-11.6825
年二十	-11.6825
墓表	-11.6825
推恩	-11.6826
注云	-11.6827
董卓	-11.6827
臨朝	-11.6829
登科	-11.683
商周	-11.6831
涼州	-11.6832
閨中	-11.6833
亭記	-11.6833
綺席	-11.6835
安敢	-11.6838
小民	-11.6838
燾	-11.6843
治國	-11.6843
㳙	-11.6844
胙	-11.6846
五品	-11.6847
舊典	-11.6848
面目	-11.6849
寒燈	-11.6851
禮法	-11.6853
而不顧	-11.6855
工夫	-11.6855
渌	-11.6857
參天	-11.6858
苧	-11.6859
烟霧	-11.686
千重	-11.686
黄昬	-11.6861
卜築	-11.6862
窮達	-11.6862
帝命	-11.6864
經畧	-11.6864
盌	-11.6864
壖	-11.6866
淒涼	-11.6868
階前	-11.6869
禮部侍郎	-11.6871
秋冬	-11.6873
積翠	-11.6874
多暇	-11.6875
蓬壺	-11.6876
凡百	-11.6877
豈直	-11.6878
六代	-11.6879
鬢毛	-11.688
人之情	-11.688
天籟	-11.6881
釋奠	-11.6882
離思	-11.6883
從政	-11.6885
複道	-11.6885
柿	-11.6885
長廊	-11.6886
罩	-11.6887
哦	-11.6887
何勞	-11.6889
莊公	-11.689
潏	-11.689
降神	-11.6891
倜儻	-11.6891
屬車	-11.6892
不相見	-11.6893
殘燈	-11.6893
斷雲	-11.6896
俄頃	-11.6902
夢斷	-11.6904
奉命	-11.6906
蝨	-11.691
霤	-11.691
爨	-11.6911
蟾蜍	-11.6912
此夕	-11.6912
太皇太后	-11.6913
靄靄	-11.6914
虎賁	-11.6916
失職	-11.6917
秣陵	-11.6917
平仲	-11.6917
烏孫	-11.6919
才名	-11.6922
遺民	-11.6922
鸞鶴	-11.6923
當塗	-11.6925
觀音	-11.6926
瀟瀟	-11.6927
覆載	-11.6929
志氣	-11.693
九流	-11.693
分韻得	-11.6931
一壺	-11.6931
百慮	-11.6931
魑魅	-11.6932
中書省	-11.6934
前村	-11.6934
擠	-11.6935
萬類	-11.6935
蜕	-11.6935
匍匐	-11.6936
瀧	-11.6937
法華	-11.6939
髙麗	-11.694
神化	-11.6943
四十五	-11.6945
遺我	-11.6945
磐石	-11.6945
紫薇	-11.6946
推移	-11.6947
身閒	-11.6947
百物	-11.6949
江樹	-11.6953
孫權	-11.6953
當世之	-11.6955
鷄鳴	-11.6955
履道	-11.6955
葑	-11.6956
抑亦	-11.6958
評事	-11.6958
春暉	-11.6963
閶門	-11.6963
北渚	-11.6964
寒色	-11.6966
悲傷	-11.6967
一百二十	-11.6967
姦邪	-11.6967
連理	-11.6968
粱	-11.6973
典謨	-11.6979
交游	-11.698
嶔	-11.698
四野	-11.6981
酧	-11.6982
綜曰	-11.6984
富人	-11.6984
浮名	-11.6984
銅雀	-11.6988
繫馬	-11.6988
交遊	-11.6989
也或曰	-11.6991
獨醒	-11.6992
仲春	-11.6992
仕宦	-11.6993
東征	-11.6994
阿房	-11.6999
晳	-11.7
舉兵	-11.7002
闕二	-11.7004
錙銖	-11.7004
礱	-11.7006
廕	-11.7006
庶乎	-11.7009
為患	-11.7012
自保	-11.7012
景陽	-11.7014
吾嘗	-11.7016
孤村	-11.7017
東鄰	-11.7017
儵	-11.7019
高宗	-11.702
臨岐	-11.702
承露	-11.7022
輜	-11.7023
岷山	-11.7023
孝思	-11.7024
歸鴻	-11.7024
悄悄	-11.7024
松樹	-11.7025
騑	-11.7026
艫	-11.7026
張說	-11.7026
乃止	-11.7027
不勝其	-11.7028
鄜	-11.7029
貢士	-11.7031
鼓聲	-11.7034
里閭	-11.7034
石刻	-11.7039
溪橋	-11.7041
戊戌	-11.7047
湟	-11.7048
辭家	-11.7048
應須	-11.7049
撻	-11.7049
者也今	-11.705
東吳	-11.705
聖祖	-11.705
爰有	-11.7051
儼然	-11.7053
槊	-11.7053
褒貶	-11.7053
丁酉	-11.7054
前修	-11.7055
定天下	-11.7055
路岐	-11.7057
哲人	-11.7057
虎頭	-11.7057
哀樂	-11.7063
采石	-11.7063
萬樹	-11.7063
羣動	-11.7064
戮力	-11.7065
甜	-11.7066
臚	-11.7068
樂毅	-11.7069
麈	-11.7069
舍利	-11.7071
搶	-11.7072
膏腴	-11.7078
不妄	-11.708
戸部	-11.7081
天下之民	-11.7082
十六日	-11.7086
三十七	-11.7087
何極	-11.7087
清晝	-11.7088
乾道	-11.7088
飴	-11.7092
蜿	-11.7093
袪	-11.7095
啇	-11.7096
罝	-11.7096
勾踐	-11.7096
醉卧	-11.7097
極矣	-11.7098
古之君子	-11.7099
巗	-11.71
陸龜蒙	-11.71
各得其	-11.7101
不敢言	-11.7106
程子	-11.7107
也昔者	-11.7108
冠蓋	-11.7111
稗	-11.7113
儁	-11.7113
蘇公	-11.7114
孤鶴	-11.7114
浮沉	-11.7115
應物	-11.7116
畫竹	-11.7117
䙝	-11.7117
琥珀	-11.7117
杳靄	-11.7121
漁人	-11.7122
庚午	-11.7124
春暮	-11.7128
屬國	-11.7129
不屑	-11.713
嗣位	-11.7131
星漢	-11.7132
餘杭	-11.7134
北伐	-11.7135
蘭橈	-11.7137
貰	-11.7138
向誰	-11.7139
揷	-11.714
枕席	-11.7142
島嶼	-11.7143
齟齬	-11.7143
逥	-11.7143
鼯	-11.7144
蕭疎	-11.7145
閭巷	-11.7146
直指	-11.7147
黄屋	-11.7156
明月照	-11.7159
委蛇	-11.7161
疴	-11.7163
涴	-11.7163
長笛	-11.7163
黿	-11.7165
疾苦	-11.7166
人跡	-11.7166
窩	-11.7167
憂思	-11.7167
瞿塘	-11.7168
人境	-11.717
者必有	-11.7171
參知政事	-11.7171
宦者	-11.7173
棃花	-11.7173
四座	-11.7174
甲科	-11.7177
數百人	-11.7182
百篇	-11.7183
悲哉	-11.7184
十有六	-11.7184
濞	-11.7185
淆	-11.7186
春晚	-11.7187
絀	-11.7187
滉	-11.7189
繢	-11.7189
鄰里	-11.7189
句句	-11.7189
百餘人	-11.7193
方圓	-11.7198
臣愚以為	-11.7199
蜀郡	-11.72
康衢	-11.7203
玉顔	-11.7203
林亭	-11.7203
稷契	-11.7204
波光	-11.7205
隔江	-11.7205
雨洗	-11.7206
忭	-11.7207
尋幽	-11.7208
衛尉	-11.7209
師魯	-11.7209
紫禁	-11.721
摠	-11.721
殿中侍御史	-11.7213
禪房	-11.7214
一榻	-11.7214
旛	-11.7214
村落	-11.7215
赫然	-11.722
深藏	-11.7221
諸侯王	-11.7222
地形	-11.7224
感懐	-11.7224
撩	-11.7225
萬馬	-11.7226
昭然	-11.7226
宗廟之	-11.7228
渺茫	-11.723
金蓮	-11.7231
曲終	-11.7233
初晴	-11.7233
孔安國	-11.7234
柁	-11.7234
雝	-11.7235
筆墨	-11.7236
刄	-11.7238
南斗	-11.724
結茅	-11.724
香草	-11.7242
紅妝	-11.7243
慘淡	-11.7243
取次	-11.7244
髙齋	-11.7245
三百年	-11.7248
宗即位	-11.7253
本意	-11.7254
白刃	-11.7256
勿謂	-11.7257
溶	-11.726
四郊	-11.726
特立	-11.7262
向背	-11.7262
飄風	-11.7263
瓊瑶	-11.7264
神聖	-11.7265
於無窮	-11.7266
盛典	-11.7266
僧孺	-11.7271
應憐	-11.7272
建元	-11.7274
魂魄	-11.7274
鹽鐵	-11.7275
孔雀	-11.7276
弭節	-11.7281
鷃	-11.7282
臨軒	-11.7283
林園	-11.7283
嫣	-11.7284
長條	-11.7286
潮生	-11.7288
以此為	-11.7289
碧空	-11.7291
甚厚	-11.7293
愛民	-11.7294
萬死	-11.7296
謀臣	-11.7296
安民	-11.7298
濟時	-11.7298
海潮	-11.7299
洞裏	-11.7299
自矜	-11.7299
堠	-11.7305
詶	-11.7305
猗歟	-11.7307
天資	-11.7307
寓目	-11.7307
鄠	-11.7308
五尺	-11.7308
䬃	-11.7308
昔賢	-11.7316
桓桓	-11.732
傾倒	-11.7321
紫閣	-11.7322
躍馬	-11.7322
妾心	-11.7322
蜺	-11.7325
不欺	-11.7327
哀哀	-11.7327
喝	-11.733
蘭陵	-11.7333
貍	-11.7334
揮手	-11.7335
晦日	-11.734
江總	-11.7341
終不能	-11.7342
金鑾	-11.7343
熙熙	-11.7343
所不及	-11.7344
岱宗	-11.7347
洪濤	-11.7347
吾徒	-11.7348
蘇氏	-11.735
鞞	-11.7352
跌	-11.7353
㮣	-11.7353
呑	-11.7353
婕妤	-11.7353
鍔	-11.7354
蒼崖	-11.7354
臣妾	-11.7354
楚楚	-11.7355
燈花	-11.7356
積善	-11.7357
弔古	-11.7358
未曽	-11.7358
猛獸	-11.7362
夷吾	-11.7364
官職	-11.7367
嘉㑹	-11.7368
獨宿	-11.7369
呉江	-11.7369
出没	-11.7372
青溪	-11.7372
螟	-11.7373
竟無	-11.7375
博物	-11.7377
西極	-11.7377
悸	-11.7378
近侍	-11.7379
不得已而	-11.738
嬰兒	-11.738
十有七	-11.738
晴雪	-11.739
神道碑	-11.7391
九陌	-11.7393
儗	-11.7395
四序	-11.7395
澡	-11.7397
丘墟	-11.7398
屧	-11.7399
細栁	-11.74
䛕	-11.7401
灤	-11.7402
原夫	-11.7403
大敗	-11.7403
梁州	-11.7405
今嵗	-11.7405
隄防	-11.741
艤	-11.741
顧瞻	-11.7412
爭先	-11.7413
荒村	-11.7413
錦城	-11.7414
崇徳	-11.7417
士庶	-11.7419
顧問	-11.7419
早梅	-11.7419
伊昔	-11.7419
慾	-11.7423
蘭臺	-11.7424
琪樹	-11.7424
青㝠	-11.7426
竊謂	-11.7428
壯觀	-11.7429
詎能	-11.7429
兩宋名賢小集	-11.743
述作	-11.7431
長虹	-11.7431
汧	-11.7432
否則	-11.7432
杯中	-11.7436
徃事	-11.7437
三十三	-11.744
喁	-11.7444
闕里	-11.7444
欽明	-11.7447
昵	-11.7448
夢回	-11.7449
瑋	-11.7449
頡頏	-11.745
嘉善	-11.7451
柴桑	-11.7452
命駕	-11.7452
斑斑	-11.7453
欽若	-11.7453
子之言	-11.746
一飯	-11.746
登壇	-11.7463
奏議	-11.7463
曰吾聞	-11.7465
瀏	-11.747
瀦	-11.747
滋味	-11.7471
螯	-11.7473
征戰	-11.7473
芾	-11.7474
落魄	-11.7475
癸丑	-11.7477
而不知其	-11.7481
澗底	-11.7481
三百里	-11.7484
長川	-11.7485
㸃綴	-11.7488
遺音	-11.7489
嘉祥	-11.7489
三寸	-11.749
漭	-11.7493
某月日	-11.7495
佺	-11.7495
庸人	-11.7496
纘	-11.7497
鸂鶒	-11.7499
顓頊	-11.7499
孰若	-11.75
曾孫	-11.75
仙仗	-11.7501
漂泊	-11.7502
旌斾	-11.7502
鴻濛	-11.7503
供養	-11.7506
開口	-11.7507
推轂	-11.7508
天禄	-11.7508
不竭	-11.7509
數㸃	-11.751
程氏	-11.751
永懐	-11.7511
名位	-11.7512
迎神	-11.7515
少室	-11.7515
伽	-11.7519
菅	-11.752
卬	-11.752
竚	-11.752
謝家	-11.7523
罟	-11.7523
懵	-11.7523
濁醪	-11.7524
鶱	-11.7524
榮光	-11.7525
浮世	-11.7525
竒絶	-11.7526
央	-11.7526
僮僕	-11.7527
衰病	-11.7529
不云乎	-11.753
陸龜䝉	-11.753
嗜酒	-11.7532
紫煙	-11.7532
丹竈	-11.7533
貢舉	-11.7534
嵬	-11.7535
深院	-11.7537
造次	-11.7539
謝客	-11.7539
淚痕	-11.754
晉國	-11.754
羣賢	-11.7541
非聖人	-11.7542
楚詞	-11.7542
手把	-11.7542
碭	-11.7544
纈	-11.7544
鵩	-11.7545
嗣子	-11.7545
耉	-11.7547
挍	-11.7547
迦	-11.7548
忠烈	-11.7548
塤	-11.7548
逸興	-11.7548
侃	-11.7549
服食	-11.755
忠誠	-11.755
噉	-11.7552
姦臣	-11.7553
舊物	-11.7554
執法	-11.7555
鳳翔	-11.7561
守節	-11.7562
數枝	-11.7565
殛	-11.7566
娉婷	-11.7567
誠齋	-11.7567
音聲	-11.7568
五岳	-11.7569
無停	-11.7569
恭紀	-11.757
一毫	-11.757
種樹	-11.7572
元亮	-11.7573
將何以	-11.7575
二百年	-11.7576
雌雄	-11.7577
數百里	-11.7579
記云	-11.7582
伯仲	-11.7584
寛大	-11.7587
松門	-11.759
閘	-11.759
國子祭酒	-11.7591
胡馬	-11.7594
衎	-11.7595
岳陽樓	-11.7596
禄山	-11.7596
鄢	-11.7597
龍眠	-11.7598
萬幾	-11.7598
淵源	-11.7601
異代	-11.7602
銅柱	-11.7608
大儒	-11.7609
善曰左氏傳	-11.7611
聨句	-11.7612
畎	-11.7614
揉	-11.7617
輪囷	-11.7619
後昆	-11.7619
戰國䇿	-11.762
海波	-11.763
羣飛	-11.7634
猶帶	-11.7635
宗祀	-11.7636
天下士	-11.7636
徊	-11.7636
孝宗	-11.7637
魚躍	-11.7638
隔林	-11.7641
最是	-11.7644
普天	-11.7644
撝	-11.7644
糠	-11.7644
戞	-11.7644
論語子曰	-11.7645
異姓	-11.7648
泥塗	-11.7649
度量	-11.7649
建立	-11.7649
唐虞之	-11.7651
文粹作	-11.7652
取天下	-11.7654
爐香	-11.7655
元好問	-11.7657
食肉	-11.766
少婦	-11.7661
涖	-11.7666
緑野	-11.7667
帝即位	-11.7667
叔孫	-11.7667
人不識	-11.7668
袈裟	-11.7668
錡	-11.7669
器械	-11.7672
不可得也	-11.7673
羅敷	-11.7674
園亭	-11.7675
江口	-11.7676
倒景	-11.7678
老眼	-11.7679
入京	-11.7679
第幾	-11.7681
千乗	-11.7685
七言古	-11.7689
長揖	-11.7691
小姑	-11.7691
碾	-11.7692
何限	-11.7693
十洲	-11.7695
山之陽	-11.7696
零陵	-11.7698
大理評事	-11.7699
西溪	-11.77
勤王	-11.77
宣徳	-11.77
竹杖	-11.7702
朝鮮	-11.7705
寞	-11.7708
獵獵	-11.7709
嵗晩	-11.7709
潤色	-11.7711
壺觴	-11.7712
王世貞	-11.7713
芻蕘	-11.7715
刁	-11.7716
狃	-11.7716
刖	-11.7717
㩦	-11.7718
維揚	-11.7718
鸞鳳	-11.7722
錦囊	-11.7724
春晝	-11.7724
山水圖	-11.7729
魏氏	-11.7729
性命之	-11.7731
安在哉	-11.7734
䝉恩	-11.7734
凌空	-11.7734
飛閣	-11.7736
何暇	-11.7736
晚節	-11.774
節義	-11.7741
醉裏	-11.7741
玳瑁	-11.7741
耒耜	-11.7741
禕	-11.7743
環堵	-11.7746
陳後主	-11.7749
逸民	-11.775
司直	-11.775
鸞鳯	-11.775
澹澹	-11.7756
委質	-11.7756
銜杯	-11.7759
室家	-11.776
四維	-11.7763
白浪	-11.7765
歐陽公	-11.7765
颭	-11.7766
天下後世	-11.7767
紫㣲	-11.7767
絺	-11.7768
蹇驢	-11.7768
擿	-11.7768
簣	-11.7769
北邙	-11.7772
如昨	-11.7774
斗柄	-11.7776
科第	-11.7776
鄙人	-11.7778
遷客	-11.7783
雪裏	-11.7788
雲屯	-11.7789
宣尼	-11.7789
甬	-11.7789
千林	-11.7789
俳	-11.7792
緑波	-11.7792
垂綸	-11.7793
抜	-11.7794
仙客	-11.7795
丙戌	-11.7796
萬戸	-11.7796
天下之勢	-11.7797
木末	-11.78
原注	-11.7801
蕭森	-11.7803
僧舍	-11.7807
池邊	-11.7808
摧折	-11.781
薫風	-11.7811
蒼煙	-11.7814
必有所	-11.7814
不審	-11.7814
隩	-11.7815
晨風	-11.7815
汁	-11.7817
惜别	-11.7817
戰勝	-11.7818
富春	-11.7819
香車	-11.7821
百餘里	-11.7821
氷霜	-11.7823
郊居	-11.7824
詞臣	-11.7825
何遜詩	-11.783
又不見	-11.783
藕花	-11.7831
淡淡	-11.7833
眉山	-11.7836
十三日	-11.7837
嗟予	-11.7837
刑名	-11.7838
凛凛	-11.784
產	-11.784
胃	-11.7842
郛	-11.7842
昭穆	-11.7843
從兄	-11.7843
荒草	-11.7844
孟津	-11.7846
所殺	-11.785
亡秦	-11.7851
送趙	-11.7853
東郡	-11.7853
和靖	-11.7855
峰頭	-11.7857
蠖	-11.7859
衆庶	-11.7862
行邁	-11.7864
一觴	-11.7866
閨門	-11.7866
迢逓	-11.7867
紫騮	-11.7867
戊申	-11.7867
逺邇	-11.7867
藜藿	-11.7868
擴	-11.7871
况是	-11.7871
乙酉	-11.7871
大略	-11.7872
龍舟	-11.7873
居庸	-11.7873
風騷	-11.7873
衆芳	-11.7878
代宗	-11.7879
愚臣	-11.7883
顧盼	-11.7885
一幅	-11.7885
呼童	-11.7886
萬計	-11.7886
家園	-11.7887
華夏	-11.7887
司業	-11.7887
隋書	-11.7889
其詞曰	-11.7891
樣	-11.7892
滙	-11.7892
厯官	-11.7892
漣漪	-11.7893
嗟哉	-11.7893
丙午	-11.7893
慇懃	-11.7894
翻覆	-11.7899
北固	-11.79
層樓	-11.79
三島	-11.7901
琨	-11.7904
煇	-11.7909
佛法	-11.791
如是而	-11.7911
瓊筵	-11.7911
尺素	-11.7912
飽食	-11.7912
禁苑	-11.7912
櫝	-11.7915
畛	-11.7917
赩	-11.7917
三十八	-11.7917
壬寅	-11.7918
信陵	-11.7919
黄泉	-11.7921
先哲	-11.7921
山嶽	-11.7922
良史	-11.7923
口號	-11.7924
獨鶴	-11.7924
王融	-11.7925
字彦	-11.7925
絶倫	-11.7928
河伯	-11.7928
立廟	-11.7933
譖	-11.7936
巨石	-11.7937
飲啄	-11.7939
鑚	-11.7939
嫖姚	-11.7941
匀	-11.7941
龍媒	-11.7942
獺	-11.7943
此其所以	-11.7943
寒沙	-11.7943
秘閣	-11.7944
竹枝詞	-11.7946
進士授	-11.7948
王昌齡	-11.7949
百氏	-11.7952
不知其所	-11.7954
大猷	-11.7954
羈旅	-11.7957
八表	-11.7958
謫居	-11.7964
動揺	-11.7966
朦朧	-11.7968
瑶華	-11.7969
魅	-11.797
萱草	-11.7972
靈均	-11.7972
阻風	-11.7974
栁枝	-11.7977
飛蓬	-11.7981
來徃	-11.7982
零露	-11.7982
蜨	-11.7986
貟	-11.7987
延祐	-11.7989
錢起	-11.7989
厝	-11.799
怵	-11.799
鄙夫	-11.799
洙	-11.799
嚢	-11.7992
官司	-11.7992
啾	-11.7992
介甫	-11.7992
紅燭	-11.7993
脾	-11.7994
剏	-11.7994
切切	-11.7995
疉	-11.7995
雷動	-11.7996
固不可	-11.8001
我皇上	-11.8002
友朋	-11.8005
青霞	-11.8006
沈約詩	-11.8006
水底	-11.8009
傾國	-11.8013
偓	-11.8014
㡬年	-11.8014
藺	-11.8018
邇來	-11.8018
霜落	-11.8019
廏	-11.802
被服	-11.8021
燈照	-11.8021
宿鳥	-11.8023
天下之心	-11.8024
哀鳴	-11.8025
楊萬里	-11.8026
黙然	-11.8029
過眼	-11.803
曰朕	-11.8033
之罪也	-11.8033
獻納	-11.8034
東觀漢記	-11.8038
羽翰	-11.8039
得其人	-11.8039
殘照	-11.8039
不輟	-11.8039
觚	-11.804
皇恩	-11.8041
跛	-11.8042
吾兄	-11.8042
糅	-11.8042
嶄	-11.8043
瓊花	-11.8045
築城	-11.8045
紫極	-11.8045
累世	-11.8045
飼	-11.8045
拄杖	-11.8045
顛沛	-11.8047
幽徑	-11.8047
種種	-11.8047
三十餘	-11.805
白駒	-11.8051
荆榛	-11.8052
藥石	-11.8052
黄冠	-11.8053
連年	-11.8053
古昔	-11.8055
四十九	-11.8055
墳墓	-11.8057
名姓	-11.806
晉宋	-11.8061
無一人	-11.8061
應劭曰	-11.8063
臣願陛下	-11.8066
嶢	-11.8069
岑寂	-11.8069
弹	-11.8071
眷言	-11.8072
晴光	-11.8076
洛陽城	-11.8076
青楓	-11.8077
悠揚	-11.8077
浮沈	-11.808
三王之	-11.8081
獻酬	-11.8083
善曰漢書	-11.8084
威福	-11.8084
冠軍	-11.8089
珊珊	-11.8092
簞	-11.8092
蘸	-11.8093
遣興	-11.8093
彷徨	-11.8094
淥	-11.8095
而求之	-11.8096
塡	-11.8097
遥想	-11.8097
紅蓮	-11.8098
陶淵明	-11.8101
漸覺	-11.8101
委任	-11.8104
容貌	-11.8104
頻年	-11.8106
彈冠	-11.8107
歌扇	-11.8109
黄庭	-11.811
早起	-11.8114
方干	-11.8117
佾	-11.8117
薙	-11.8118
湜	-11.8119
狷	-11.812
賔主	-11.812
感歎	-11.812
門掩	-11.812
夥	-11.8122
金井	-11.8123
隔溪	-11.8124
震動	-11.8125
勢利	-11.8128
俛首	-11.8128
龍顔	-11.8136
攀折	-11.8136
馬融	-11.8136
高臺	-11.8139
劬	-11.8143
宦情	-11.8143
慊	-11.8144
忘却	-11.8144
庚寅	-11.8146
昴	-11.8147
告之曰	-11.8149
丙申	-11.815
汾水	-11.8152
躬行	-11.8152
葬于	-11.8152
先皇	-11.8153
馮翊	-11.8153
漢庭	-11.8156
恩榮	-11.8156
變態	-11.8157
穹廬	-11.8157
花底	-11.8158
丹梯	-11.816
江潭	-11.816
莫厭	-11.8162
震驚	-11.8165
送楊	-11.8166
刀筆	-11.8168
青鸞	-11.8169
干將	-11.8169
鍵	-11.8169
眎	-11.817
楣	-11.817
闗西	-11.817
黿鼉	-11.8171
籃輿	-11.8171
未㡬	-11.8172
五斗	-11.8175
柱國	-11.8176
塗山	-11.8176
項籍	-11.8182
妾身	-11.8183
長干	-11.8183
青銅	-11.8184
儒冠	-11.8187
不可攀	-11.8187
何遜	-11.8189
幅巾	-11.8191
故謂之	-11.8192
金紫	-11.8192
訕	-11.8193
姮娥	-11.8196
皤	-11.8197
仁聖	-11.8197
威武	-11.8198
二毛	-11.8199
鏐	-11.82
駑駘	-11.82
晟	-11.8203
玉輦	-11.8203
壯志	-11.8204
九垓	-11.8206
獄訟	-11.8207
代謝	-11.8209
峰巒	-11.821
庶績	-11.8219
翾	-11.8219
霜葉	-11.8222
鞚	-11.8224
壬午	-11.8226
肅然	-11.8227
振旅	-11.8227
佐命	-11.823
形神	-11.8231
猫	-11.8232
寂然	-11.8236
知之矣	-11.8236
萬代	-11.8238
豐城	-11.8238
悲鳴	-11.8242
館閣	-11.8245
宣武	-11.8247
患難	-11.8247
黥	-11.8247
晨光	-11.8248
臬	-11.8249
灩	-11.8249
沆	-11.825
昶	-11.825
玠	-11.8252
儀刑	-11.8252
所部	-11.8258
檢討	-11.826
突厥	-11.8263
聖澤	-11.8264
錦袍	-11.8266
龍蟠	-11.8268
至於今	-11.8269
娑	-11.8269
鄭谷	-11.8271
祓	-11.8271
𦍑	-11.8272
巖谷	-11.8274
罽	-11.8275
咿	-11.8275
粢盛	-11.8275
層巒	-11.828
青史	-11.8282
虞夏	-11.8284
丁亥	-11.8284
三十餘年	-11.8285
不悦	-11.8287
汎舟	-11.8288
未厭	-11.8288
苕溪	-11.829
儒臣	-11.8291
菡萏	-11.8299
恡	-11.8299
阼	-11.8301
矮	-11.8301
乙亥	-11.8302
鼓琴	-11.8303
在其中	-11.8303
小艇	-11.8303
蔽日	-11.8304
李賀	-11.8304
歧	-11.8305
耕桑	-11.8305
彩雲	-11.8306
金釵	-11.8307
枕簟	-11.8308
踰年	-11.8309
銀臺	-11.831
清源	-11.8311
緑葉	-11.8317
其大者	-11.8318
桐江	-11.8322
昆吾	-11.8323
智勇	-11.8323
助教	-11.8324
美惡	-11.8324
畫工	-11.8324
茱萸	-11.8325
房櫳	-11.8327
爰及	-11.8327
綉	-11.8327
瑞應	-11.8328
敬亭	-11.8329
湔	-11.8329
怡然	-11.833
砥柱	-11.8331
淙	-11.8332
煬帝	-11.8335
洗耳	-11.8337
率由	-11.8337
明月夜	-11.834
韶光	-11.834
棨	-11.8341
未忍	-11.8342
領軍	-11.8343
萬巻	-11.8343
元勲	-11.8347
剌	-11.835
偏宜	-11.8351
誰念	-11.8352
遭遇	-11.8352
歊	-11.8352
何足以	-11.8353
凑	-11.8353
淳風	-11.8357
軍節度	-11.8358
惘然	-11.8364
伏奉	-11.8366
一代之	-11.8367
百二十	-11.8367
激烈	-11.8371
畫山水	-11.8375
鍤	-11.8375
襯	-11.8378
嫦娥	-11.8379
夜宴	-11.8379
撚	-11.8379
熒惑	-11.838
瞋	-11.838
豈伊	-11.8381
虞卿	-11.8381
僦	-11.8382
爼豆	-11.8382
邏	-11.8382
仿	-11.8382
相續	-11.8383
雲雷	-11.8383
福州	-11.8385
曾子	-11.8391
少尹	-11.8391
通典	-11.8392
燈影	-11.8394
半醉	-11.8398
冏	-11.84
痾	-11.8402
琬	-11.8405
金鋪	-11.8406
鏑	-11.8406
璩	-11.8407
宋陳思編元陳世隆補	-11.8407
紛綸	-11.8408
飛騰	-11.8409
餼	-11.8411
牧馬	-11.8411
釋迦	-11.8415
異域	-11.8415
藩籬	-11.8415
屈伸	-11.8417
洞簫	-11.8417
不相識	-11.8418
歲暮	-11.8419
如練	-11.842
樞機	-11.8421
諏	-11.8426
永年	-11.8428
攬衣	-11.843
豸	-11.8432
棐	-11.8433
洪波	-11.8434
女郎	-11.8434
恂	-11.8434
煙塵	-11.8436
竊惟	-11.8439
四十八	-11.8441
肉食	-11.8441
名譽	-11.8443
肩輿	-11.8444
遺像	-11.8444
不得志	-11.8444
簫管	-11.8453
戰士	-11.8453
華髮	-11.8454
壬子	-11.8454
闘	-11.8455
一株	-11.8456
竭力	-11.8456
參議	-11.8456
勝槩	-11.8457
昏昏	-11.8457
鼐	-11.8457
圮	-11.8458
崿	-11.8459
風帆	-11.846
羅漢	-11.8463
菱花	-11.8466
所著有	-11.8466
松枝	-11.8467
舞袖	-11.8467
反側	-11.8467
䓁	-11.8472
輔弼	-11.8475
雪晴	-11.8478
孝宣	-11.8478
翻然	-11.848
亞夫	-11.848
旐	-11.8482
貔貅	-11.8484
醲	-11.8484
瓊枝	-11.8484
戶	-11.8486
扳	-11.8487
羽獵	-11.8496
不知何處	-11.8497
千餘里	-11.85
蓬山	-11.8501
貝葉	-11.8503
危樓	-11.8503
選舉	-11.8506
韋昭曰	-11.8508
碧梧	-11.851
下獄	-11.851
考績	-11.8511
皓首	-11.8511
臍	-11.8514
許國	-11.8514
珠樹	-11.8516
百揆	-11.8517
輔政	-11.8518
三百篇	-11.8521
團練	-11.8522
一百五十	-11.8524
駿奔	-11.8525
殘年	-11.853
結屋	-11.8532
冬夜	-11.8532
攣	-11.8537
時雍	-11.8538
瀁	-11.8538
終嵗	-11.8539
厮	-11.8539
鬪	-11.854
銛	-11.8541
端坐	-11.8543
琅邪	-11.8545
入覲	-11.8546
雞豚	-11.8546
簾櫳	-11.8548
詎知	-11.8549
只合	-11.8552
雪霽	-11.8553
五言絶句	-11.8554
秋浦	-11.8554
美哉	-11.8554
虎符	-11.8555
地軸	-11.8556
謝病	-11.8559
先王之道	-11.856
琚	-11.8562
苓	-11.8565
滻	-11.8567
假借	-11.8569
翩然	-11.857
殊俗	-11.8571
鬐	-11.8571
感懷	-11.8575
無咎	-11.8575
朱氏	-11.8576
我國家	-11.8577
登進士第	-11.8579
二十里	-11.8581
㓙	-11.8591
婉孌	-11.8591
悰	-11.8591
䆫	-11.8591
痼	-11.8592
嶺外	-11.8592
嵒	-11.8592
讋	-11.8593
硎	-11.8593
綫	-11.8594
釃	-11.8594
彬彬	-11.8594
張翰	-11.8596
楊桞	-11.8596
臣伏見	-11.8597
平原君	-11.8598
喚起	-11.8601
烟樹	-11.8601
巖廊	-11.8611
憑誰	-11.8613
千鈞	-11.8613
懸崖	-11.8616
冠葢	-11.8617
顙	-11.8618
青牛	-11.8618
里巷	-11.8618
三百六十	-11.8619
澹然	-11.862
惬	-11.862
吿	-11.8621
詎可	-11.8621
淞	-11.8624
鶴鳴	-11.8625
大堤	-11.8625
大旱	-11.8626
㫖酒	-11.8626
季札	-11.8627
殘紅	-11.8629
剖符	-11.863
皓齒	-11.863
臘月	-11.8632
武備	-11.864
撒	-11.8642
窣	-11.8643
歸途	-11.8644
建昌	-11.8644
昩	-11.8646
舠	-11.8646
紫塞	-11.8646
藜杖	-11.8646
蛾睂	-11.8647
備物	-11.8648
典章	-11.8648
送鄭	-11.8649
黎民	-11.8649
嘗試	-11.865
日午	-11.865
武威	-11.8652
墨梅	-11.8655
兀兀	-11.8655
莫惜	-11.8657
口占	-11.8662
碑銘	-11.8666
龍潭	-11.8668
𤣥武	-11.8669
嫓	-11.867
八陣	-11.867
玉佩	-11.8671
巉	-11.8671
壯麗	-11.8671
閥	-11.8673
晉卿	-11.8674
窆	-11.8674
灧	-11.8674
斧斤	-11.8676
遭逢	-11.8676
光宅	-11.8676
秋風起	-11.8677
周召	-11.8677
蟠桃	-11.868
天街	-11.8681
攜酒	-11.8681
紅樓	-11.8683
霽色	-11.8691
王維詩	-11.8693
目斷	-11.8695
雲梯	-11.8696
縝	-11.8696
渭川	-11.8697
道場	-11.8698
噤	-11.8699
素琴	-11.8699
片石	-11.8699
都賦曰	-11.8703
延頸	-11.8705
范成大	-11.8709
富民	-11.8709
㡬度	-11.8709
潮落	-11.871
伏乞	-11.8712
墓銘	-11.8715
挽歌	-11.8718
孟氏	-11.8718
七星	-11.8719
彤庭	-11.8721
勗	-11.8723
赤縣	-11.8726
衽	-11.8727
襜	-11.8728
酎	-11.8729
開元中	-11.8729
祲	-11.8729
犒	-11.8731
奴婢	-11.8732
獰	-11.8732
軒車	-11.8733
鮪	-11.8735
紅紫	-11.8736
舟檝	-11.8736
紫泥	-11.8739
職司	-11.874
騎驢	-11.8741
長鯨	-11.8742
手詔	-11.8746
年七月	-11.8747
獲罪	-11.8747
帝業	-11.8752
眇眇	-11.8754
㕑	-11.8754
北窗	-11.8755
韙	-11.8756
劬勞	-11.8758
睦州	-11.876
彎弓	-11.8762
僅存	-11.8763
千乘	-11.8764
源流	-11.8768
沙鳥	-11.8771
袁桷	-11.8776
黝	-11.8778
草萊	-11.8779
籩	-11.8779
文苑	-11.8779
十八日	-11.8779
明曹學佺編	-11.878
汩	-11.8781
菟	-11.8781
旟	-11.8782
攬轡	-11.8784
烜	-11.8784
武后	-11.8785
杳冥	-11.8785
祫	-11.8786
輔臣	-11.8786
郞	-11.8791
周覽	-11.8792
天下幸甚	-11.8793
四十六	-11.8797
不免於	-11.8802
紫宫	-11.8803
披襟	-11.8804
闕庭	-11.8805
囊中	-11.8807
郁郁	-11.8808
嶙峋	-11.8809
靨	-11.8809
的的	-11.881
哇	-11.8812
諸司	-11.8812
招隱	-11.8812
全盛	-11.8813
癸酉	-11.8813
蕭颯	-11.8814
五福	-11.8814
鑑湖	-11.8814
碓	-11.8815
獠	-11.8816
烟火	-11.882
劉歆	-11.8822
上下相	-11.8829
襟帶	-11.8831
諸佛	-11.8831
塞垣	-11.8833
夷陵	-11.8834
祖父	-11.8835
最愛	-11.8836
絡繹	-11.8836
要害	-11.8838
鍊師	-11.8838
睛	-11.8839
茒	-11.884
墖	-11.884
辛酉	-11.8841
交河	-11.8844
鳴珂	-11.8845
招魂	-11.8852
孤嶼	-11.8855
謝賜	-11.8856
牧童	-11.8859
玉衡	-11.8859
恧	-11.8861
横斜	-11.8865
薄宦	-11.8865
饒州	-11.8865
捎	-11.8866
犇	-11.8868
聦	-11.8868
池亭	-11.8868
相攜	-11.8869
仲冬	-11.8869
霓旌	-11.8873
臨淄	-11.8877
便覺	-11.8882
散漫	-11.8883
庭院	-11.8885
域中	-11.889
媵	-11.8891
盱	-11.8891
殪	-11.8892
㐮	-11.8893
百獸	-11.8894
瓦礫	-11.8894
林端	-11.8895
寂莫	-11.8895
洶洶	-11.8895
劈	-11.8896
智力	-11.8898
山海經	-11.8903
笑指	-11.8904
天地之間	-11.8904
麟閣	-11.8905
叔孫通	-11.8906
叩頭	-11.891
各有所	-11.8911
季氏	-11.8913
合浦	-11.8915
窶	-11.8917
虎嘯	-11.8918
巨靈	-11.8919
珪璋	-11.892
腋	-11.892
古今樂録曰	-11.8923
鼎湖	-11.8924
一瓢	-11.8927
吾黨	-11.8929
眀月	-11.8933
簫聲	-11.8936
流螢	-11.8936
湘妃	-11.894
峨	-11.8944
鳬鷖	-11.8944
六籍	-11.8945
離恨	-11.8945
荒蕪	-11.8945
葵藿	-11.8945
釭	-11.8946
墨子	-11.8946
刑獄	-11.8947
元吉	-11.8947
皺	-11.8951
鶴唳	-11.8952
峨眉	-11.8955
灞陵	-11.8955
烏紗	-11.8961
汗血	-11.8964
壯哉	-11.8964
堦前	-11.8964
江浦	-11.8968
頓首頓首	-11.8968
泰階	-11.8971
羸馬	-11.8973
溯	-11.8974
泰和	-11.8974
劉孝綽	-11.8974
元凱	-11.8974
糺	-11.8975
莠	-11.8976
捄	-11.8976
森然	-11.8977
卓犖	-11.8979
耕田	-11.8979
囑	-11.8979
婿	-11.8981
婚姻	-11.8981
紈扇	-11.8981
𥙿	-11.8981
重譯	-11.8983
執手	-11.8986
峭壁	-11.8988
退食	-11.8992
几席	-11.8996
掖庭	-11.9
顔延之	-11.9
攀龍	-11.9
劉孝威	-11.9002
朝散大夫	-11.9005
歸歟	-11.9006
風蕭蕭	-11.9007
松楸	-11.9008
雪消	-11.9008
犍	-11.9009
諫議	-11.901
暑氣	-11.901
灘聲	-11.9012
君子之所	-11.9012
何如哉	-11.9017
丹桂	-11.902
笙簧	-11.9024
霑衣	-11.9026
假令	-11.9026
曠然	-11.9026
炤	-11.903
千仭	-11.9031
善曰楚辭曰	-11.9033
含章	-11.9033
動植	-11.9034
訢	-11.9034
胸臆	-11.9034
嶪	-11.9034
凈	-11.9037
慘慘	-11.9037
贏得	-11.9038
泰始	-11.9038
餘姚	-11.9038
巴東	-11.9039
東壁	-11.9039
我輩	-11.904
珠箔	-11.9042
碧波	-11.9043
醉翁	-11.9043
恍然	-11.9049
淅瀝	-11.9049
金罍	-11.9049
御史臺	-11.9052
困窮	-11.9055
歔欷	-11.9058
河南府	-11.9058
猖狂	-11.9059
林巒	-11.9064
露冷	-11.9065
琪	-11.907
今何在	-11.9071
楊維楨	-11.9072
勤苦	-11.9074
釣舟	-11.9075
洞府	-11.908
狂夫	-11.908
玉杯	-11.9084
憑髙	-11.9084
都指揮	-11.9085
江淹詩	-11.9088
文章辨體彚選巻四百	-11.9089
之言曰	-11.909
醯	-11.909
縣主簿	-11.909
竣	-11.9091
峻極	-11.9093
清浄	-11.9093
皛	-11.9094
賻	-11.9094
討賊	-11.9096
玉帳	-11.9096
第七	-11.9097
經旬	-11.9099
横笛	-11.9102
龍鍾	-11.9107
死罪	-11.9112
鴆	-11.9113
贈太師	-11.9114
三十四	-11.9115
緼	-11.9115
甯	-11.9116
的皪	-11.9117
幰	-11.9118
草蟲	-11.9118
不忒	-11.9118
不愆	-11.912
禳	-11.9122
隂晴	-11.9122
千萬里	-11.9122
圜丘	-11.9127
渾無	-11.9127
沅湘	-11.9127
珠翠	-11.9129
特賜	-11.9129
庶政	-11.9131
衛將軍	-11.9132
鄭衛	-11.9135
賜宴	-11.9138
痛飲	-11.9144
鎩	-11.9144
倬	-11.9144
荒臺	-11.9145
琬琰	-11.9146
朱樓	-11.9147
邾	-11.9148
鼓鼙	-11.9148
中書門下	-11.915
煤	-11.915
戊午	-11.9151
途窮	-11.9156
聖天子	-11.9157
雙旌	-11.9159
喧喧	-11.9161
乘輿	-11.9162
一百三十	-11.9162
王喬	-11.9164
□□	-11.9164
喟	-11.9166
携手	-11.9167
光芒	-11.917
瀹	-11.9172
羣雄	-11.9172
惸	-11.9173
籩豆	-11.9174
薩	-11.9175
糊	-11.9175
嘒	-11.9175
赴闕	-11.9176
低昻	-11.9177
契濶	-11.9181
凌霄	-11.9184
金印	-11.9185
華胥	-11.9185
倚欄	-11.9189
舉杯	-11.9191
聖躬	-11.9193
日昃	-11.9194
悁	-11.9195
王畿	-11.9196
噫嘻	-11.9197
枳	-11.9199
桮	-11.92
方言曰	-11.9202
惓惓	-11.9202
大丈夫	-11.9203
跣	-11.9205
籀	-11.9206
端午	-11.9208
咨爾	-11.9208
詣闕	-11.9209
舅姑	-11.921
刑部尚書	-11.921
京畿	-11.921
劉基	-11.9212
紅藥	-11.9216
徽音	-11.9218
奕世	-11.9219
寡婦	-11.9222
織錦	-11.9225
山巔	-11.9226
尚書省	-11.9228
賢哲	-11.9229
眼底	-11.9231
釜	-11.9232
饜	-11.9233
蹂	-11.9234
冤	-11.9234
負郭	-11.9235
鍜	-11.9236
羹	-11.9236
慘澹	-11.9239
塵沙	-11.9239
歡喜	-11.9244
殿大學士	-11.9245
簾外	-11.9251
松蘿	-11.9252
洹	-11.9257
玉墀	-11.9258
槨	-11.926
輾	-11.926
囷	-11.926
片月	-11.9261
蚓	-11.9262
破屋	-11.9264
結束	-11.9264
内侍	-11.9266
梅堯臣	-11.9271
酣歌	-11.9271
陸游	-11.9272
鼓瑟	-11.9274
草萋萋	-11.9275
臺諫	-11.9276
賤妾	-11.9278
百卉	-11.9284
山椒	-11.9284
州長史	-11.9286
璠	-11.9287
竟誰	-11.9287
溆	-11.929
快意	-11.929
戊子	-11.9293
厯代	-11.9293
綽約	-11.9295
昆蟲	-11.9296
兵部侍郎	-11.9297
無斁	-11.9297
三月三日	-11.9299
陸賈	-11.9299
仰止	-11.9302
吾儕	-11.9304
鴿	-11.9318
鰕	-11.9319
蝟	-11.9319
喔	-11.9322
涂	-11.9328
磷	-11.9351
剋	-11.9374
敧	-11.9374
膓	-11.9402
㨿	-11.9403
淘	-11.9405
褥	-11.9406
悌	-11.9406
茀	-11.9431
蒔	-11.9432
燬	-11.9434
嗅	-11.9436
峒	-11.944
摽	-11.9462
枰	-11.9463
罌	-11.9464
媮	-11.9464
珣	-11.9465
砦	-11.9488
珩	-11.9489
駘	-11.9493
禺	-11.9496
洊	-11.9497
欷	-11.9519
紬	-11.952
摐	-11.952
酡	-11.9523
轢	-11.9523
稳	-11.9525
臠	-11.9527
朧	-11.9528
攙	-11.9528
紵	-11.9544
漙	-11.9551
倨	-11.9552
殳	-11.9554
譟	-11.9556
鱣	-11.9557
豺	-11.9576
么	-11.9581
忡	-11.9583
鯀	-11.9584
幬	-11.9611
枿	-11.9613
苾	-11.9615
鞬	-11.9641
糶	-11.9647
姥	-11.9672
闍	-11.9673
壙	-11.9675
嗁	-11.9676
窪	-11.9678
殂	-11.97
昕	-11.97
昃	-11.9704
蓁	-11.9723
淖	-11.9732
櫬	-11.9733
紿	-11.9733
䆒	-11.9734
椅	-11.976
芊	-11.9762
猪	-11.9762
鎗	-11.9763
賭	-11.979
蠆	-11.9791
㐫	-11.9795
狠	-11.9797
徠	-11.9816
穂	-11.9817
羆	-11.982
芡	-11.9825
溘	-11.985
狸	-11.9855
硬	-11.9881
鏞	-11.9883
瀰	-11.9883
蓺	-11.9886
饔	-11.9888
洮	-11.9901
咄	-11.9909
恚	-11.9913
榕	-11.9915
舁	-11.9915
糗	-11.9918
癭	-11.9919
靦	-11.9939
噲	-11.9941
噓	-11.9941
脇	-11.9941
騂	-11.9943
錚	-11.9944
僇	-11.9944
㴱	-11.9946
孀	-11.9946
壌	-11.9946
䧺	-11.9949
伉	-11.9949
茝	-11.997
莱	-11.9974
憒	-11.9978
姨	-11.9979
豨	-12.0005
庥	-12.0005
鶬	-12.0006
嚙	-12.0009
荄	-12.0034
雊	-12.0035
曀	-12.0036
廛	-12.0036
剩	-12.0038
䆳	-12.0043
做	-12.0066
斿	-12.0068
闉	-12.0069
靴	-12.007
垤	-12.0074
撿	-12.0075
溧	-12.0076
瑄	-12.0079
磊	-12.0096
敺	-12.0097
詒	-12.0098
醬	-12.0098
黻	-12.0101
韝	-12.0101
㶑	-12.0102
祼	-12.0103
掎	-12.0104
楩	-12.0105
窳	-12.0129
眥	-12.0131
喋	-12.0133
跬	-12.0162
渫	-12.0169
纏	-12.0193
帔	-12.0193
枵	-12.0195
棚	-12.0197
帘	-12.0197
瓴	-12.0198
簴	-12.0198
郴	-12.0199
拚	-12.0223
隲	-12.0225
眚	-12.0228
孛	-12.0228
蠒	-12.0229
檠	-12.0252
漓	-12.0259
篡	-12.0286
掄	-12.0286
瓣	-12.0288
吭	-12.0289
邴	-12.0291
屩	-12.0291
竢	-12.0294
澳	-12.032
崗	-12.0324
媯	-12.035
攖	-12.0351
唫	-12.0354
酆	-12.0355
沱	-12.0382
搦	-12.0384
怍	-12.0386
蹻	-12.0389
稹	-12.0403
洧	-12.0415
鄣	-12.0416
筴	-12.0417
舩	-12.0421
彖	-12.0446
莪	-12.0447
倕	-12.0447
騏	-12.0449
坳	-12.0451
燁	-12.0451
繙	-12.0452
鈆	-12.0454
罘	-12.0456
伋	-12.0472
莢	-12.048
縢	-12.048
饕	-12.0483
佃	-12.0483
繅	-12.0484
腮	-12.0485
暁	-12.0487
踔	-12.0488
䲭	-12.0512
騄	-12.0512
个	-12.0516
謌	-12.0517
迕	-12.0518
蹠	-12.0518
凟	-12.0519
惺	-12.052
劄	-12.0528
叵	-12.0543
祟	-12.0546
蒂	-12.0548
牎	-12.0556
敇	-12.058
譔	-12.0581
闞	-12.0582
赬	-12.0582
矇	-12.0584
螫	-12.061
吊	-12.0613
瞞	-12.0614
糝	-12.0617
旍	-12.0643
弈	-12.0646
詈	-12.0646
蹀	-12.0647
澘	-12.065
讞	-12.0651
苫	-12.0676
忒	-12.068
熨	-12.0681
瀍	-12.0682
瀲	-12.0713
釧	-12.0713
釘	-12.0716
湥	-12.0738
㢤	-12.0744
縲	-12.0746
檟	-12.0746
鹹	-12.0749
箧	-12.0751
癢	-12.0753
褫	-12.0775
溱	-12.0776
䭾	-12.078
熄	-12.078
頫	-12.0781
籃	-12.0781
皴	-12.0782
焱	-12.0808
賫	-12.0814
茭	-12.0816
描	-12.0822
眈	-12.0841
筑	-12.0843
宁	-12.0844
韁	-12.0846
刓	-12.0847
鎧	-12.0847
貉	-12.085
庳	-12.0854
换	-12.0879
緻	-12.0881
兜	-12.0882
雇	-12.0896
帕	-12.0911
藳	-12.0914
堊	-12.0916
櫨	-12.0944
鵑	-12.0947
螿	-12.0947
阯	-12.0952
汸	-12.0952
鱷	-12.0952
凰	-12.098
睽	-12.0983
紲	-12.0983
焯	-12.0986
炮	-12.1012
遹	-12.1016
舷	-12.1018
諗	-12.1021
爚	-12.1021
姱	-12.1044
柞	-12.1046
餔	-12.105
麄	-12.1051
麽	-12.1052
栱	-12.1052
緌	-12.1052
醁	-12.1085
蠭	-12.1086
秬	-12.1086
挐	-12.1086
卸	-12.1089
袞	-12.1091
」	-12.1114
呶	-12.1117
傚	-12.1119
骼	-12.1121
莆	-12.115
禅	-12.1156
鍚	-12.116
薌	-12.1184
嚚	-12.1187
豗	-12.1187
雰	-12.1188
譛	-12.119
斁	-12.1208
㽔	-12.122
煽	-12.1225
焙	-12.1225
獮	-12.1226
焜	-12.1245
吮	-12.1258
騅	-12.1258
糲	-12.1259
熬	-12.126
嫚	-12.126
坌	-12.1261
灃	-12.1292
瓏	-12.1299
愀	-12.1299
獷	-12.1301
匕	-12.1327
噎	-12.1331
肎	-12.1332
簽	-12.1333
仭	-12.1341
磐	-12.1353
螘	-12.1365
彝	-12.1368
勰	-12.1368
蜡	-12.1398
剸	-12.1399
埭	-12.1401
衂	-12.1401
韉	-12.1402
磽	-12.1404
嫵	-12.1405
菼	-12.1406
跱	-12.1433
痊	-12.1433
淼	-12.1434
憺	-12.1434
虖	-12.1435
籲	-12.1435
郅	-12.1437
﨑	-12.1438
誾	-12.144
脰	-12.144
澂	-12.1467
耰	-12.1471
餗	-12.1479
襞	-12.1506
陔	-12.1506
蠕	-12.1508
虓	-12.1508
栝	-12.1509
壷	-12.1509
砰	-12.151
蒋	-12.151
諐	-12.151
豊	-12.1514
逶	-12.1541
蚩	-12.1544
耜	-12.1545
葅	-12.1546
嘈	-12.1546
𨗳	-12.1546
湎	-12.1547
宓	-12.1549
曁	-12.1549
怫	-12.158
僰	-12.1584
輭	-12.1584
竆	-12.1615
猖	-12.1617
㫺	-12.1617
嘅	-12.1618
忉	-12.1619
厦	-12.1628
禩	-12.1655
匯	-12.1657
頎	-12.1683
蔀	-12.1687
掞	-12.1688
哽	-12.1688
刎	-12.1689
訇	-12.1693
紡	-12.1694
隟	-12.1696
:	-12.1712
児	-12.1726
爕	-12.1728
簌	-12.1728
颶	-12.1729
鎰	-12.173
繰	-12.173
闖	-12.1731
壕	-12.1734
陡	-12.1734
黟	-12.1765
㝡	-12.1765
壼	-12.1765
鮒	-12.1768
􁶚	-12.1782
渤	-12.1791
茜	-12.1798
縊	-12.1798
僂	-12.1801
嬈	-12.1801
萋	-12.1805
擐	-12.1806
懊	-12.184
檉	-12.184
磚	-12.1841
舋	-12.1841
騾	-12.1842
嬋	-12.1843
閶	-12.186
瘼	-12.1865
攺	-12.1869
贑	-12.1873
䏻	-12.1874
嘹	-12.1877
颿	-12.1878
赧	-12.191
澨	-12.1911
郗	-12.1912
鞶	-12.1912
瑯	-12.1913
娼	-12.1914
綍	-12.1914
旴	-12.1948
噍	-12.1948
璆	-12.195
嬙	-12.1951
陴	-12.1951
猝	-12.1951
粃	-12.1951
咈	-12.1954
関	-12.1957
猺	-12.1959
毘	-12.1982
蕐	-12.1983
疢	-12.1986
啁	-12.1986
踉	-12.1987
阽	-12.1987
珏	-12.1989
褭	-12.1993
勳	-12.1995
埤	-12.2023
筏	-12.2032
跽	-12.207
痺	-12.21
佻	-12.21
堇	-12.2102
駰	-12.2103
坱	-12.2103
邛	-12.2103
慱	-12.2104
孜	-12.2113
悱	-12.214
諼	-12.214
唼	-12.2142
毶	-12.2144
㠯	-12.2145
扺	-12.2182
謖	-12.2185
蚡	-12.2187
惚	-12.2217
裸	-12.2217
燐	-12.222
眡	-12.2222
貙	-12.2228
篲	-12.2253
挟	-12.2255
郄	-12.2257
喑	-12.2259
扛	-12.226
贇	-12.2261
瀚	-12.227
煬	-12.2282
遟	-12.2291
裠	-12.2292
鮐	-12.2296
閡	-12.2299
姢	-12.23
摸	-12.2301
朓	-12.2327
枻	-12.2331
貔	-12.2334
䍐	-12.2335
蚋	-12.2337
鰥	-12.2373
跗	-12.2374
韈	-12.2376
庀	-12.2377
嚇	-12.2378
枹	-12.2414
珊	-12.2416
僨	-12.2417
煢	-12.2446
謩	-12.245
篘	-12.2454
泪	-12.2454
贛	-12.2455
欎	-12.249
滲	-12.2491
嫠	-12.2493
猩	-12.2496
哢	-12.2497
餳	-12.2497
翀	-12.2499
畯	-12.2527
尠	-12.2529
禔	-12.253
踴	-12.2534
琤	-12.2534
葷	-12.2536
劘	-12.2536
帟	-12.2536
聃	-12.257
鴞	-12.2573
黽	-12.2573
僃	-12.2578
蒭	-12.2579
鬲	-12.2611
磁	-12.2613
瞀	-12.2651
歈	-12.2653
豬	-12.2655
㽞	-12.2658
嶓	-12.2687
蔟	-12.2694
懟	-12.2695
煨	-12.2696
党	-12.2697
菘	-12.2698
泐	-12.27
篝	-12.2723
槧	-12.273
糚	-12.2731
讟	-12.2734
瓮	-12.2736
鞫	-12.2736
刅	-12.2737
慴	-12.274
諴	-12.275
絙	-12.277
楼	-12.2775
洸	-12.2776
廚	-12.2776
唘	-12.2776
苻	-12.2811
厖	-12.2816
熛	-12.2817
珙	-12.2818
枲	-12.2819
蠏	-12.282
阬	-12.2856
娣	-12.2856
鷴	-12.2858
洶	-12.2858
騘	-12.2861
兊	-12.2896
杌	-12.2896
畸	-12.2901
蹷	-12.2901
絓	-12.2902
塑	-12.2904
淦	-12.2909
滎	-12.2928
磋	-12.2936
閈	-12.2938
愔	-12.2939
犴	-12.294
婪	-12.2942
汐	-12.2943
畚	-12.2944
断	-12.2945
軔	-12.2971
驁	-12.298
豓	-12.2981
䌫	-12.2984
畞	-12.302
軛	-12.302
藎	-12.3021
踽	-12.3022
闃	-12.3022
櫩	-12.3022
龢	-12.3023
玘	-12.3023
藟	-12.3024
饞	-12.3026
蕕	-12.3028
丱	-12.3063
捶	-12.3067
緊	-12.3068
嚳	-12.3107
礦	-12.3108
鏖	-12.3109
簋	-12.311
鍛	-12.3112
繻	-12.3142
掊	-12.3145
籞	-12.3146
沌	-12.3147
砭	-12.3149
猋	-12.3149
疽	-12.3149
澦	-12.315
螳	-12.3151
腓	-12.3151
飣	-12.3152
嶻	-12.3153
螽	-12.3153
擥	-12.3188
闓	-12.3191
匈	-12.3192
詼	-12.3193
袠	-12.3193
枋	-12.3194
窱	-12.3231
㫄	-12.3232
删	-12.3232
閾	-12.3235
摰	-12.3239
暠	-12.324
哨	-12.3243
楞	-12.3244
繐	-12.3277
壒	-12.3278
鎪	-12.3282
埴	-12.3282
箎	-12.3283
惘	-12.33
嵎	-12.3317
唶	-12.332
咬	-12.3324
撇	-12.3324
絰	-12.3324
偁	-12.3329
暹	-12.3366
蕡	-12.3369
窬	-12.341
爝	-12.341
樟	-12.341
瑱	-12.3412
沲	-12.3414
亰	-12.3414
湼	-12.3451
詖	-12.3452
滃	-12.3452
磈	-12.3458
捽	-12.3461
恙	-12.3488
腑	-12.3493
鬆	-12.3494
摻	-12.3496
覉	-12.35
戺	-12.3501
万	-12.3502
韡	-12.3536
攲	-12.3536
皜	-12.3537
蓽	-12.354
玳	-12.354
䜿	-12.354
渢	-12.3542
㶁	-12.3543
鄖	-12.3545
斆	-12.3549
鏊	-12.3553
椰	-12.3584
淝	-12.3586
孃	-12.3587
賙	-12.3589
呻	-12.362
酢	-12.362
鶡	-12.3625
瘖	-12.3627
蘊	-12.3631
貊	-12.3631
腆	-12.3632
徯	-12.3665
疹	-12.3669
診	-12.367
詛	-12.3671
訏	-12.3672
声	-12.3673
偵	-12.3674
仡	-12.3674
嚶	-12.3675
鱉	-12.3678
顱	-12.3703
獯	-12.3713
賃	-12.3716
個	-12.3721
厪	-12.3721
汛	-12.3723
驎	-12.3758
蚪	-12.376
簀	-12.376
䑛	-12.3766
矍	-12.3769
㪅	-12.3805
愾	-12.3805
鯢	-12.3806
倔	-12.3808
磑	-12.3808
橡	-12.3809
洑	-12.3811
夹	-12.3811
靉	-12.3851
迍	-12.3852
嚥	-12.3853
証	-12.3856
肪	-12.3858
篪	-12.3866
賮	-12.3895
咤	-12.3897
躚	-12.3897
呪	-12.3898
翃	-12.3898
筲	-12.3898
躐	-12.3899
􁁜	-12.39
簉	-12.39
洺	-12.3901
洿	-12.3901
捩	-12.3902
筩	-12.3902
軄	-12.3944
咫	-12.3944
瀟	-12.3945
噱	-12.3947
飮	-12.3963
毆	-12.3991
坏	-12.3991
瞪	-12.3992
瑒	-12.3994
爬	-12.3999
眾	-12.4011
紼	-12.4032
噦	-12.4035
傖	-12.4035
孥	-12.4035
纁	-12.4038
碕	-12.4038
憀	-12.404
鼃	-12.4042
櫳	-12.4062
逭	-12.408
稌	-12.4082
萹	-12.4082
鞘	-12.4083
眊	-12.4084
㪺	-12.4086
㛰	-12.4126
鷂	-12.4127
蝎	-12.4128
軹	-12.4129
昜	-12.4129
姹	-12.4134
腊	-12.4135
􁉡	-12.4176
町	-12.4179
呱	-12.418
虡	-12.418
荳	-12.4181
屆	-12.422
澍	-12.4221
泖	-12.4221
縗	-12.4227
捋	-12.4228
邳	-12.425
鋸	-12.4266
岧	-12.427
鞲	-12.4273
噏	-12.4273
醨	-12.4274
鰓	-12.4278
喆	-12.4314
輶	-12.4315
咍	-12.4315
蟣	-12.4316
桁	-12.4316
灮	-12.4317
筞	-12.4318
彜	-12.4319
嘵	-12.4319
詁	-12.4321
盭	-12.4322
霣	-12.4364
嫋	-12.4366
暦	-12.4366
蝉	-12.4369
啣	-12.437
庄	-12.4371
褎	-12.4372
㢠	-12.4374
熲	-12.4409
簑	-12.4414
屡	-12.4414
惝	-12.4415
爺	-12.4418
踧	-12.4419
仔	-12.4421
宙	-12.4458
觱	-12.4459
朏	-12.446
羝	-12.446
遴	-12.4465
諉	-12.4465
鑷	-12.4465
騃	-12.4467
諲	-12.4473
棫	-12.4509
狺	-12.4513
爆	-12.4516
刦	-12.4523
忖	-12.456
崪	-12.4563
据	-12.4566
腔	-12.4566
巋	-12.459
璀	-12.4604
矰	-12.4608
炰	-12.4609
型	-12.4612
劓	-12.4613
緦	-12.4614
稲	-12.4616
絞	-12.4616
鵜	-12.4657
恫	-12.4659
楛	-12.466
戇	-12.466
踆	-12.466
粳	-12.466
讖	-12.4662
齕	-12.4663
劎	-12.4663
礧	-12.4665
套	-12.4666
杠	-12.4667
嘷	-12.4706
槌	-12.4708
瘧	-12.4708
麯	-12.4709
胚	-12.4709
憝	-12.471
皖	-12.471
逌	-12.4711
醆	-12.4712
鎛	-12.4712
浯	-12.4716
爱	-12.4755
兌	-12.4757
姫	-12.4759
歕	-12.4759
冑	-12.4762
愎	-12.4762
郃	-12.4763
仝	-12.4764
睟	-12.4802
晼	-12.481
椹	-12.481
瞶	-12.4812
滬	-12.4817
莩	-12.4852
鑕	-12.4857
熠	-12.4859
隮	-12.4859
鯈	-12.4862
种	-12.4863
鍠	-12.4864
溍	-12.4868
㟧	-12.4873
彯	-12.4906
轔	-12.4909
崐	-12.491
鞾	-12.4911
柂	-12.4911
苹	-12.4912
週	-12.4912
艎	-12.4912
鄽	-12.4912
鍪	-12.4913
懔	-12.4913
敭	-12.4914
梔	-12.4915
嵯	-12.4915
偘	-12.4917
絫	-12.4958
泡	-12.496
譊	-12.4963
禠	-12.4963
囓	-12.4964
饁	-12.4964
騮	-12.5008
燋	-12.501
搘	-12.5011
殍	-12.5011
譍	-12.5011
鸚	-12.5013
懴	-12.5015
徨	-12.5058
枘	-12.506
冄	-12.5066
汞	-12.5073
媾	-12.5114
虔	-12.5114
笮	-12.5114
嗛	-12.5115
愒	-12.5115
褁	-12.5118
牷	-12.5122
擗	-12.5161
誹	-12.5162
陘	-12.5162
圩	-12.5165
睞	-12.5165
攽	-12.5167
犖	-12.5168
䞇	-12.5171
壝	-12.5172
隖	-12.5172
繽	-12.5207
慺	-12.5212
姧	-12.5214
劚	-12.5215
㝛	-12.5215
黌	-12.5216
忮	-12.5216
𬗟	-12.5216
鷇	-12.5217
沗	-12.5218
昺	-12.5218
㩁	-12.5222
晰	-12.5264
憯	-12.5265
楝	-12.5268
醽	-12.5268
斮	-12.5269
祅	-12.5269
枌	-12.527
鐶	-12.527
驃	-12.5276
瘢	-12.5276
甎	-12.5278
媧	-12.5316
胤	-12.5318
毖	-12.532
逡	-12.5321
蔦	-12.5323
蹏	-12.533
璨	-12.533
邙	-12.5365
郟	-12.5374
㢲	-12.5375
肋	-12.5376
皐	-12.5378
瀋	-12.5378
澇	-12.5379
袐	-12.5382
嘽	-12.5423
娜	-12.5426
纆	-12.5429
沭	-12.543
旺	-12.543
鏜	-12.5431
㗖	-12.5432
帰	-12.5432
珽	-12.5432
鄊	-12.5434
槭	-12.5435
圈	-12.548
邯	-12.548
怜	-12.5481
焭	-12.5483
耼	-12.5483
帀	-12.5484
齗	-12.5532
腫	-12.5537
摳	-12.5537
郫	-12.5541
珝	-12.5542
賕	-12.5552
漑	-12.5585
頊	-12.559
麏	-12.5592
麛	-12.5592
懃	-12.5592
麑	-12.5593
匄	-12.5593
嶭	-12.5593
尫	-12.5593
聱	-12.5594
轝	-12.5595
鍧	-12.5595
朅	-12.5626
娩	-12.5641
蜮	-12.5641
拗	-12.5645
𤯝	-12.5645
釂	-12.5645
猊	-12.5646
喈	-12.5646
痴	-12.5649
瞭	-12.565
悮	-12.5693
沕	-12.5695
袿	-12.5697
鬖	-12.57
菀	-12.5701
㳫	-12.5701
箑	-12.5702
摺	-12.5703
蒜	-12.5703
觝	-12.5708
怊	-12.575
葯	-12.575
洫	-12.5751
侂	-12.5751
溽	-12.5751
埸	-12.5752
眙	-12.5752
碪	-12.5755
栅	-12.5755
亹	-12.5756
梏	-12.5758
佶	-12.576
湋	-12.5767
匭	-12.5803
串	-12.5805
嵂	-12.5806
艣	-12.5807
舖	-12.581
箒	-12.581
煴	-12.5856
耔	-12.5861
酖	-12.5863
蠙	-12.5868
蹉	-12.5869
剃	-12.5869
殲	-12.587
膜	-12.5871
壍	-12.5915
獍	-12.592
憸	-12.592
濘	-12.5922
哆	-12.5922
㫋	-12.5922
胞	-12.5923
鴂	-12.5923
膊	-12.5929
觳	-12.593
蝮	-12.5967
駔	-12.597
裯	-12.5974
澥	-12.5976
稊	-12.5979
両	-12.598
箬	-12.5981
虱	-12.5982
踘	-12.6028
茄	-12.6031
忼	-12.6031
哮	-12.6033
惴	-12.6035
暱	-12.6035
崟	-12.6036
馗	-12.6042
鸝	-12.6085
鷖	-12.6087
暵	-12.6092
佽	-12.6092
剜	-12.6095
睎	-12.6142
斕	-12.6145
瘥	-12.6149
襁	-12.615
喣	-12.6151
刲	-12.6151
凾	-12.6152
驀	-12.6152
麕	-12.6153
淅	-12.6182
鉄	-12.62
腳	-12.6202
咻	-12.6205
鎌	-12.6207
唁	-12.6209
癰	-12.621
嶙	-12.621
牾	-12.6212
丨	-12.6224
畒	-12.6257
瞢	-12.6257
綷	-12.6258
萁	-12.6259
单	-12.6261
氈	-12.6261
郇	-12.6261
譌	-12.6262
确	-12.6263
蘤	-12.6263
罸	-12.6267
蹁	-12.6314
鑊	-12.6322
嚻	-12.6322
毉	-12.6325
傒	-12.6325
踠	-12.6326
暍	-12.6327
翶	-12.6327
扎	-12.6332
奫	-12.6373
屼	-12.6377
挼	-12.6378
嗈	-12.6378
喇	-12.6379
瓞	-12.6379
縂	-12.6381
穟	-12.6382
迢	-12.6434
醻	-12.6437
泬	-12.6438
韀	-12.6439
霎	-12.6439
疣	-12.6439
㷀	-12.6439
抔	-12.644
喤	-12.644
枸	-12.6441
戅	-12.6442
葫	-12.6446
臏	-12.6492
鵓	-12.6495
舡	-12.6496
緐	-12.6496
勌	-12.6497
渰	-12.6498
璈	-12.6501
籓	-12.6501
踶	-12.6502
陿	-12.6503
濼	-12.6503
槲	-12.6503
橑	-12.655
螻	-12.6554
礚	-12.6554
趫	-12.6556
稂	-12.6556
絏	-12.6557
羖	-12.6558
帬	-12.6558
憙	-12.6558
狭	-12.656
璅	-12.656
咆	-12.6562
虫	-12.6563
儛	-12.6613
暐	-12.6615
姣	-12.6616
幪	-12.6617
鶵	-12.6617
甦	-12.6617
絛	-12.6618
痏	-12.662
牣	-12.6621
賨	-12.6623
嚭	-12.6624
蜷	-12.6674
柚	-12.6676
攤	-12.6678
扑	-12.668
跕	-12.6684
洌	-12.6687
蛆	-12.6728
墠	-12.6735
鰌	-12.6736
蟊	-12.6736
珎	-12.6736
魃	-12.6737
靃	-12.6737
菓	-12.6739
轓	-12.674
綖	-12.674
蓉	-12.674
嚅	-12.6741
轆	-12.6742
咋	-12.6743
揩	-12.6743
粢	-12.6794
廌	-12.6797
搥	-12.6797
喃	-12.6797
崱	-12.6798
画	-12.6799
薾	-12.6799
兗	-12.68
簦	-12.6801
鱖	-12.6801
懣	-12.6844
嶲	-12.6857
這	-12.6858
赳	-12.686
潸	-12.6861
椘	-12.6861
唄	-12.6863
宂	-12.6864
饉	-12.6864
䔩	-12.6865
抺	-12.6865
褷	-12.6866
氳	-12.6868
芭	-12.692
妺	-12.6921
籕	-12.6922
芼	-12.6923
抝	-12.6925
夬	-12.6926
糵	-12.6926
橦	-12.6929
蕖	-12.6975
鄱	-12.6978
䨴	-12.6982
嶇	-12.6984
誶	-12.6984
惣	-12.6986
剞	-12.6986
襆	-12.6987
篸	-12.6987
鏟	-12.6987
臊	-12.6987
吃	-12.6987
拽	-12.6988
莵	-12.6989
癃	-12.6992
劂	-12.7044
曨	-12.7044
菉	-12.7045
齓	-12.7046
磻	-12.7047
籹	-12.7048
秤	-12.7048
褪	-12.7049
筥	-12.705
囁	-12.705
尭	-12.7102
蛛	-12.7104
臈	-12.7107
裀	-12.7107
鐍	-12.7108
㘭	-12.7108
腎	-12.7111
塩	-12.7112
噀	-12.7112
㡳	-12.7112
贔	-12.7113
坪	-12.7115
鏹	-12.7117
「	-12.7136
卮	-12.7165
黮	-12.7169
齠	-12.7169
柅	-12.717
欬	-12.7171
儺	-12.7173
檮	-12.7174
祏	-12.7175
寀	-12.7175
麞	-12.7177
侁	-12.7228
髽	-12.7231
伾	-12.7235
舳	-12.7236
凴	-12.7236
蛬	-12.7239
鐔	-12.724
晢	-12.7242
篩	-12.7244
芙	-12.7293
矞	-12.7298
莧	-12.7301
玖	-12.7303
邽	-12.7303
裌	-12.7303
霂	-12.7359
篥	-12.736
褉	-12.7363
吚	-12.7364
纇	-12.7365
靁	-12.7366
槱	-12.7367
䴡	-12.7367
峪	-12.7372
瓛	-12.7377
噶	-12.7422
圅	-12.7427
蕾	-12.7427
袷	-12.7428
帨	-12.743
嘴	-12.7432
咮	-12.7432
餧	-12.7433
灕	-12.7434
蔌	-12.7435
姸	-12.7435
騣	-12.744
氾	-12.749
濊	-12.7494
愊	-12.7494
騧	-12.7494
鄗	-12.7495
偎	-12.7498
硤	-12.7498
欻	-12.75
碍	-12.7504
髥	-12.7507
惄	-12.7555
怦	-12.7556
勍	-12.7559
圑	-12.7559
腯	-12.7559
岵	-12.756
跧	-12.756
袋	-12.7561
咒	-12.7563
貓	-12.7567
券	-12.7569
搤	-12.7622
裼	-12.7626
軨	-12.7628
醸	-12.7628
蕘	-12.7629
埓	-12.763
吒	-12.763
闒	-12.7632
窽	-12.7632
鎚	-12.7632
趯	-12.7632
梈	-12.7642
緤	-12.7685
瞠	-12.7688
囏	-12.7688
浞	-12.7691
鬧	-12.7694
繖	-12.7695
弢	-12.7696
覡	-12.7697
鬒	-12.7697
劌	-12.7698
棖	-12.7701
郿	-12.7754
抂	-12.7757
椶	-12.7758
愓	-12.7761
倥	-12.7761
曡	-12.7761
匙	-12.7762
寬	-12.7764
彿	-12.7764
蜴	-12.7765
楗	-12.7766
岨	-12.7766
郾	-12.7766
蘩	-12.7825
鞿	-12.7827
厰	-12.7827
鏌	-12.7828
异	-12.7828
樅	-12.7829
櫚	-12.7829
椁	-12.783
駃	-12.7831
杕	-12.7832
祊	-12.7835
盬	-12.7889
㬰	-12.7889
䠞	-12.7894
蜑	-12.7895
臟	-12.7896
騭	-12.7899
擡	-12.7903
䰅	-12.7964
啗	-12.7964
綯	-12.7965
餬	-12.7967
憬	-12.7968
漼	-12.7968
彴	-12.7969
獅	-12.8011
琁	-12.8028
玅	-12.8029
悢	-12.8029
慌	-12.803
搭	-12.8031
嶸	-12.8033
嵕	-12.8034
豋	-12.8035
蠋	-12.8035
杰	-12.8035
叉	-12.8036
痿	-12.8039
嗾	-12.8043
䖝	-12.8101
糈	-12.8102
丼	-12.8103
蹐	-12.8103
玆	-12.8105
侗	-12.8106
瓔	-12.8106
畮	-12.8107
硉	-12.8108
犨	-12.8122
蔞	-12.8172
咲	-12.8174
廙	-12.8174
氤	-12.8176
蹯	-12.8177
紞	-12.818
、	-12.8199
獬	-12.8238
姤	-12.8238
詧	-12.8245
璁	-12.8248
脤	-12.825
卨	-12.8251
罻	-12.8253
双	-12.8255
焞	-12.8255
胔	-12.8312
褕	-12.8312
鄯	-12.8313
唤	-12.8314
狴	-12.8314
票	-12.8315
嶁	-12.8315
郜	-12.8316
圠	-12.8317
䌓	-12.8318
窖	-12.8318
覷	-12.8319
搨	-12.8321
櫃	-12.8322
漻	-12.8383
窊	-12.8384
癉	-12.8386
儐	-12.8386
傞	-12.8387
踟	-12.8387
溲	-12.8388
脗	-12.8389
輊	-12.839
踖	-12.8391
㕥	-12.8409
昀	-12.8454
棉	-12.8455
曕	-12.8455
牐	-12.8456
蘗	-12.8456
圏	-12.8456
𥜗	-12.8456
掦	-12.8457
泱	-12.8458
躧	-12.8459
戩	-12.8459
硜	-12.8461
岏	-12.8463
啻	-12.8517
鰐	-12.8528
鮓	-12.8531
縋	-12.8533
胝	-12.8535
篾	-12.8535
玃	-12.8535
滮	-12.8601
涅	-12.8602
噩	-12.8603
鬃	-12.8604
氂	-12.8604
嚕	-12.8604
髹	-12.8606
獒	-12.8608
褘	-12.8611
餱	-12.8612
瑪	-12.867
忸	-12.867
柙	-12.8678
翽	-12.8678
悝	-12.8681
秭	-12.8681
睒	-12.8681
禫	-12.8744
羑	-12.8745
欸	-12.8746
侖	-12.8747
蒻	-12.8749
剄	-12.875
澱	-12.8751
殢	-12.8751
鋟	-12.8754
顫	-12.8755
嘐	-12.8755
銕	-12.8757
褧	-12.8758
蒍	-12.8758
尨	-12.8759
腷	-12.8759
篴	-12.8821
珞	-12.8823
霪	-12.8824
傘	-12.8825
莓	-12.8825
蠓	-12.8826
輳	-12.8826
騤	-12.8827
跚	-12.8827
婣	-12.8827
礲	-12.8828
傴	-12.8829
蟇	-12.883
揶	-12.883
儇	-12.8831
躪	-12.8834
蕣	-12.8896
咷	-12.8897
卹	-12.8903
攔	-12.8904
榷	-12.8905
蝥	-12.8909
袨	-12.8909
爥	-12.897
汍	-12.8973
鋋	-12.8974
㬥	-12.8975
膴	-12.8976
詿	-12.8976
栻	-12.8976
戹	-12.8978
饟	-12.8978
佀	-12.8979
鋌	-12.8981
荊	-12.8995
黶	-12.9049
飆	-12.9054
懍	-12.9055
鯖	-12.9055
竁	-12.9056
婭	-12.9057
鋼	-12.9058
潨	-12.9064
痡	-12.9125
蟉	-12.9129
鄼	-12.913
撙	-12.913
襠	-12.9131
㐲	-12.9131
㫤	-12.9132
萐	-12.9132
絅	-12.9135
机	-12.9136
眘	-12.9139
丫	-12.9206
燹	-12.9207
馺	-12.9207
煞	-12.9208
呷	-12.9209
藋	-12.9211
牴	-12.9211
圵	-12.9212
棻	-12.928
砉	-12.928
嗸	-12.9281
嶤	-12.9284
呴	-12.9286
躊	-12.9286
灊	-12.9287
陕	-12.9287
膻	-12.9287
焕	-12.9287
惛	-12.9288
殮	-12.9291
𣆀	-12.936
綮	-12.9362
猒	-12.9363
匼	-12.9363
芑	-12.9366
硠	-12.9366
姆	-12.9367
鯽	-12.9368
毯	-12.9368
鎡	-12.9369
辮	-12.9369
㠝	-12.9369
塼	-12.9371
皿	-12.9376
磾	-12.9417
遝	-12.9437
𣏌	-12.9439
墄	-12.9439
蜒	-12.9439
籧	-12.9439
砲	-12.9442
萸	-12.9443
甖	-12.9443
穜	-12.9443
蜻	-12.9444
泂	-12.9446
滹	-12.9446
襖	-12.9448
噭	-12.9448
禜	-12.9448
荏	-12.9449
𬒮	-12.945
枒	-12.9456
淟	-12.9518
㪷	-12.9519
稏	-12.952
麰	-12.9523
揵	-12.9524
閧	-12.9525
箝	-12.9526
㩀	-12.9527
湣	-12.9527
捃	-12.9527
璐	-12.9528
頔	-12.9531
磥	-12.9533
壎	-12.9534
蕞	-12.9595
悻	-12.9599
慆	-12.96
嫫	-12.96
㯶	-12.96
辤	-12.9602
霡	-12.9603
痔	-12.9605
醵	-12.9606
礬	-12.9606
劖	-12.9607
饘	-12.9609
兑	-12.961
媟	-12.9612
《	-12.9616
》	-12.9617
磕	-12.9681
黧	-12.9683
窕	-12.9684
𢾗	-12.9687
覼	-12.9688
慥	-12.9689
塌	-12.969
鯿	-12.9691
胾	-12.9691
憖	-12.9696
㯽	-12.9763
凊	-12.9764
眯	-12.9764
睆	-12.9765
痒	-12.9766
禡	-12.9769
鈇	-12.9769
嫄	-12.9769
鉶	-12.9769
獪	-12.977
毰	-12.977
隃	-12.9771
矼	-12.9771
觫	-12.9779
硏	-12.9845
晬	-12.9847
揲	-12.9848
嬿	-12.9848
抆	-12.9851
犄	-12.9851
傃	-12.9853
桉	-12.9853
朐	-12.9853
圄	-12.9854
爟	-12.9855
鎦	-12.9856
賵	-12.9858
罨	-12.9892
氲	-12.9928
澎	-12.9929
宄	-12.9929
虙	-12.993
蹮	-12.9932
嫮	-12.9932
徉	-12.9933
棍	-12.9933
霙	-12.9933
蛉	-12.9935
穨	-12.9938
巓	-12.9939
娉	-12.9939
獼	-12.9941
湑	-12.9942
圬	-12.9943
麵	-13.0013
垞	-13.0015
𫝊	-13.0015
蹰	-13.0016
痍	-13.0017
歠	-13.0017
箾	-13.0018
㲲	-13.0018
憨	-13.0019
毸	-13.0019
蕝	-13.0021
枮	-13.0022
陊	-13.0023
濈	-13.0025
鶂	-13.0027
剿	-13.0097
蓧	-13.0099
疥	-13.0099
䆗	-13.0099
嵲	-13.0099
霮	-13.0101
猰	-13.0101
燀	-13.0102
砢	-13.0102
戻	-13.0103
刧	-13.0103
継	-13.0103
蒱	-13.0105
鷦	-13.0107
畇	-13.0179
涊	-13.0179
㦯	-13.0181
蟺	-13.0182
駈	-13.0183
矱	-13.0185
樷	-13.0185
僎	-13.0188
勩	-13.0188
凹	-13.0189
噞	-13.019
狶	-13.0192
瀠	-13.0193
紕	-13.0194
舲	-13.0271
捻	-13.0272
滚	-13.0273
頠	-13.0273
剉	-13.0273
鼂	-13.0274
韎	-13.0274
漵	-13.0274
煕	-13.0274
鮭	-13.0275
礴	-13.0275
躄	-13.0275
笱	-13.0277
廱	-13.0278
搢	-13.0279
瞍	-13.028
另	-13.0286
僥	-13.0354
喀	-13.0354
𨳩	-13.0356
鄩	-13.0359
茇	-13.036
錘	-13.0361
謭	-13.0361
籋	-13.0362
璵	-13.0363
枷	-13.0363
獗	-13.0364
𫀆	-13.0368
涬	-13.0442
䆉	-13.0444
渼	-13.0446
烙	-13.0446
牂	-13.0449
灎	-13.0449
灸	-13.045
魋	-13.0451
楂	-13.0451
篳	-13.0452
歗	-13.0452
睍	-13.0452
囉	-13.0453
琇	-13.0531
崙	-13.0532
茰	-13.0535
迯	-13.0535
𥅆	-13.0537
瓿	-13.0537
駼	-13.0537
襮	-13.0541
蕆	-13.0543
枅	-13.0615
澒	-13.0622
檳	-13.0624
蟒	-13.0624
娠	-13.0624
鄔	-13.0625
蠛	-13.0625
闤	-13.0626
侠	-13.0627
壄	-13.0629
佟	-13.063
榾	-13.0631
庋	-13.0632
桅	-13.0632
酗	-13.0632
蓰	-13.0634
裋	-13.0634
鏄	-13.0635
緍	-13.0638
榘	-13.0709
駉	-13.071
玲	-13.0713
咳	-13.0714
􁂰	-13.0714
痰	-13.0715
砆	-13.0716
琖	-13.0716
肰	-13.0717
鴝	-13.0717
奓	-13.0718
薿	-13.0719
俑	-13.072
誖	-13.0723
眦	-13.0726
彷	-13.0799
閠	-13.0799
浡	-13.0801
适	-13.0803
栧	-13.0804
氍	-13.0807
蝀	-13.0807
嚲	-13.0807
瑊	-13.0808
屴	-13.0809
墐	-13.0811
鷸	-13.0811
秕	-13.0811
桕	-13.0812
憗	-13.0813
嶕	-13.0817
鑛	-13.0891
搃	-13.0892
轜	-13.0893
蠃	-13.0893
稑	-13.0895
蚯	-13.0897
砮	-13.0898
岣	-13.0899
膈	-13.0899
蝝	-13.0899
屺	-13.09
暕	-13.0902
漦	-13.0902
䙰	-13.0902
樁	-13.0903
艅	-13.0904
膋	-13.0904
蕢	-13.0905
楔	-13.0905
箐	-13.0906
妲	-13.0909
沇	-13.0988
傀	-13.0988
甆	-13.0988
价	-13.0988
鵒	-13.099
蕺	-13.099
襌	-13.0991
秸	-13.0991
漘	-13.0991
餖	-13.0992
崷	-13.0992
敔	-13.0993
凸	-13.0994
曶	-13.1073
窞	-13.1078
翣	-13.1081
傺	-13.1082
鸇	-13.1084
怔	-13.1084
轎	-13.1084
剴	-13.1086
霶	-13.1087
楶	-13.1088
屓	-13.1088
韤	-13.1089
肸	-13.109
凂	-13.109
梃	-13.109
迆	-13.1092
颼	-13.1117
欖	-13.1172
媺	-13.1175
齔	-13.1176
唏	-13.1178
蓘	-13.1179
鹺	-13.118
菂	-13.118
滏	-13.1182
簨	-13.1183
朣	-13.1183
漶	-13.1183
萑	-13.1184
朘	-13.1185
汔	-13.1185
哩	-13.1186
晣	-13.1186
湢	-13.1187
􁄢	-13.1268
愳	-13.1272
菶	-13.1272
麀	-13.1272
毺	-13.1272
鼗	-13.1273
慠	-13.1273
狁	-13.1276
踡	-13.1276
螂	-13.1277
晒	-13.1277
贋	-13.1277
跟	-13.1278
瓷	-13.1279
頟	-13.128
糒	-13.128
崎	-13.128
㴠	-13.128
籯	-13.1282
捭	-13.1282
笭	-13.1286
耤	-13.1361
禖	-13.1365
佪	-13.1366
翱	-13.1367
溔	-13.1367
胯	-13.137
酇	-13.1372
朦	-13.1373
訿	-13.1374
荈	-13.1377
榿	-13.1377
踦	-13.1377
蓱	-13.138
椉	-13.1462
甪	-13.1464
歜	-13.1464
嗢	-13.1467
謄	-13.1469
櫧	-13.1472
䄡	-13.1473
嶫	-13.1474
乱	-13.1475
疃	-13.1479
聵	-13.155
肚	-13.1555
儡	-13.1556
鶊	-13.1557
㢮	-13.156
籛	-13.156
慜	-13.156
鼾	-13.1561
籝	-13.1564
昈	-13.1566
臾	-13.1566
惙	-13.1568
舵	-13.1568
岝	-13.1569
頲	-13.1569
菖	-13.1569
絪	-13.1569
薅	-13.1569
躒	-13.157
怏	-13.1573
开	-13.1574
〇	-13.1581
㠀	-13.1591
薆	-13.166
阸	-13.1661
輼	-13.1661
茞	-13.1662
橊	-13.1663
碔	-13.1663
諄	-13.1663
𥚑	-13.1664
韲	-13.1665
騊	-13.1666
鈕	-13.1667
魈	-13.1667
墁	-13.1669
艑	-13.1669
璹	-13.1676
飀	-13.1729
擻	-13.1761
觶	-13.1762
怩	-13.1762
礼	-13.1762
靆	-13.1762
瘝	-13.1764
惎	-13.1764
旤	-13.1765
鼷	-13.1766
鴒	-13.1766
蹵	-13.1766
摴	-13.1767
賺	-13.1767
嘬	-13.177
玢	-13.1771
壩	-13.1772
姁	-13.1785
桔	-13.1858
淈	-13.1859
穣	-13.1861
籤	-13.1861
箆	-13.1862
銍	-13.1863
听	-13.1864
瘍	-13.1865
迮	-13.1866
怱	-13.1866
謦	-13.1866
湩	-13.1867
篛	-13.1867
臛	-13.1867
㕍	-13.1868
鶼	-13.1872
刜	-13.1875
箵	-13.1877
璮	-13.1881
尔	-13.1959
簜	-13.1962
欿	-13.1964
禴	-13.1965
勔	-13.1966
廋	-13.1966
蠣	-13.1966
跑	-13.1967
蜋	-13.1969
黈	-13.197
簏	-13.1974
奧	-13.1975
擄	-13.1977
杙	-13.1981
醎	-13.2064
恇	-13.2071
佹	-13.2072
偬	-13.2073
偲	-13.2074
澑	-13.2074
淶	-13.2076
鴇	-13.2077
卄	-13.2077
漩	-13.208
摉	-13.208
顴	-13.2081
薖	-13.2082
螗	-13.2082
玕	-13.2127
柈	-13.217
嗒	-13.2171
肫	-13.2171
磎	-13.2172
頵	-13.2173
佔	-13.2173
祸	-13.2175
碗	-13.2175
㛹	-13.2175
宷	-13.2176
坯	-13.2177
堧	-13.2178
鶖	-13.2178
儈	-13.2178
柷	-13.2179
頞	-13.2179
芘	-13.2179
芣	-13.218
絍	-13.2181
鱮	-13.2182
瘤	-13.2184
罃	-13.2189
璲	-13.2193
蜎	-13.227
栭	-13.2275
琲	-13.2275
蚴	-13.2278
蓓	-13.2279
蕎	-13.2279
抖	-13.228
檥	-13.2281
斒	-13.2281
帡	-13.2282
褵	-13.2283
鄘	-13.2283
諝	-13.2284
蓆	-13.2286
份	-13.2289
讁	-13.2289
齮	-13.2382
餚	-13.2384
輴	-13.2384
𣪚	-13.2384
窔	-13.2386
鏦	-13.2386
杆	-13.2386
觕	-13.2386
囅	-13.2387
葹	-13.2388
玁	-13.2388
敡	-13.239
楙	-13.2391
銚	-13.2391
䔿	-13.2396
骭	-13.2398
翌	-13.2474
麒	-13.2481
蛭	-13.2491
揠	-13.2492
柢	-13.2492
献	-13.2493
栟	-13.2494
燻	-13.2495
禿	-13.2497
皈	-13.2497
甽	-13.2498
曈	-13.2499
醋	-13.2499
襏	-13.2502
潎	-13.2505
釗	-13.2505
鰋	-13.2507
旡	-13.2508
漰	-13.2508
贒	-13.2595
侘	-13.2596
娭	-13.2597
甔	-13.2597
㺄	-13.2599
孌	-13.26
砑	-13.26
慇	-13.2601
輞	-13.2602
阱	-13.2603
欱	-13.2604
侏	-13.2604
臲	-13.2605
腠	-13.2605
螾	-13.2605
祍	-13.2605
垍	-13.2608
贐	-13.2609
衺	-13.2612
妆	-13.2613
鯫	-13.2708
飂	-13.2709
婬	-13.2709
䍥	-13.2711
邰	-13.2712
澷	-13.2713
攏	-13.2714
釅	-13.2714
棒	-13.2715
柮	-13.2715
簁	-13.2715
汊	-13.2716
聪	-13.2717
潾	-13.2718
龐	-13.2718
蹡	-13.2814
橄	-13.2816
娵	-13.2817
矟	-13.2817
琥	-13.2821
圞	-13.2822
㰱	-13.2823
躇	-13.2823
鼪	-13.2825
蝌	-13.2826
眴	-13.2827
蟆	-13.2828
与	-13.2828
嫰	-13.2829
㨂	-13.2829
尢	-13.2829
齁	-13.2829
斈	-13.2831
鄮	-13.2832
㬉	-13.2833
鈺	-13.2841
姍	-13.2926
哳	-13.2928
雯	-13.2928
䡾	-13.293
鄏	-13.293
躑	-13.2931
跫	-13.2933
犗	-13.2933
偫	-13.2933
㧾	-13.2933
卣	-13.2935
悳	-13.2936
璡	-13.2936
栴	-13.2939
脞	-13.294
騠	-13.2941
鴐	-13.2941
㙮	-13.2945
仳	-13.2949
濙	-13.3038
罣	-13.3045
苣	-13.3046
棁	-13.3047
眢	-13.3049
珵	-13.305
伃	-13.305
灺	-13.3051
倆	-13.3053
呫	-13.3053
胍	-13.3054
珦	-13.3055
啅	-13.3055
玫	-13.3056
惔	-13.3056
澐	-13.3058
剷	-13.3062
蒟	-13.3062
■	-13.3064
鈹	-13.3066
糖	-13.3146
郈	-13.3154
顇	-13.3155
蝱	-13.3158
萟	-13.3161
珤	-13.3162
慓	-13.3162
鬘	-13.3165
泆	-13.3165
霛	-13.3168
朒	-13.3168
愞	-13.3168
𬞞	-13.317
搓	-13.3171
瑁	-13.3172
鶋	-13.3174
蚕	-13.3174
拮	-13.3176
薳	-13.3178
抶	-13.3272
纑	-13.3276
憍	-13.3278
岊	-13.3278
尓	-13.3279
抨	-13.3279
喓	-13.328
蔫	-13.3281
鰩	-13.3281
嵊	-13.3283
蜓	-13.3283
薶	-13.3284
旉	-13.3284
僾	-13.3285
豉	-13.3285
臝	-13.3291
碨	-13.3294
紜	-13.3343
纕	-13.3387
漯	-13.3393
􁗁	-13.3394
匵	-13.3395
瑑	-13.3395
菹	-13.3396
努	-13.3396
䀌	-13.3397
蠹	-13.3397
琉	-13.3398
䢴	-13.3398
硃	-13.3398
蝘	-13.3398
敻	-13.3399
觖	-13.3399
錠	-13.34
彍	-13.34
尻	-13.34
靮	-13.3401
橛	-13.3401
慍	-13.3402
幛	-13.3402
蜥	-13.3403
処	-13.3403
縡	-13.3404
罛	-13.3405
鱨	-13.3405
濾	-13.3406
緄	-13.3407
襫	-13.3408
閿	-13.3411
縆	-13.3514
鷟	-13.3515
嚌	-13.3518
郕	-13.3518
歃	-13.3518
澉	-13.3521
瞷	-13.3521
嘑	-13.3522
鬷	-13.3522
眵	-13.3523
皸	-13.3523
瑚	-13.3524
褻	-13.3524
崚	-13.3528
撗	-13.3529
炅	-13.353
惵	-13.363
氅	-13.3635
篨	-13.3638
顕	-13.3639
梲	-13.3639
僝	-13.3644
飰	-13.3647
骹	-13.3749
艧	-13.3754
嶰	-13.3755
槮	-13.3756
你	-13.3757
汹	-13.3757
媸	-13.3757
洏	-13.3757
𡵨	-13.376
堋	-13.3763
麫	-13.3764
熺	-13.3765
茟	-13.3766
觔	-13.3767
鶤	-13.3769
褱	-13.3769
苒	-13.3769
肜	-13.3875
粻	-13.3879
㗋	-13.388
痗	-13.3881
靺	-13.3882
鵂	-13.3882
叮	-13.3883
剙	-13.3886
匜	-13.3886
墯	-13.3886
碏	-13.3888
浃	-13.3888
刊	-13.3888
轊	-13.3889
郸	-13.3891
骫	-13.3896
㴩	-13.3898
袚	-13.4005
邜	-13.4007
㴞	-13.4007
簔	-13.4008
瘉	-13.4008
趼	-13.4009
倂	-13.401
站	-13.401
斝	-13.4011
頮	-13.4011
泜	-13.4012
牗	-13.4012
囯	-13.4015
朢	-13.4016
裦	-13.4017
戣	-13.4017
錞	-13.4022
忳	-13.4118
𣢾	-13.4124
飃	-13.4126
嚦	-13.4129
㵎	-13.4131
栩	-13.4132
鄄	-13.4133
琹	-13.4134
鄫	-13.4134
慽	-13.4135
皭	-13.4138
襚	-13.4139
坷	-13.414
筰	-13.4141
􁃔	-13.4142
撡	-13.415
逑	-13.4253
醳	-13.4254
艨	-13.4254
悾	-13.4256
熇	-13.4257
嶃	-13.4258
蹢	-13.4259
駴	-13.426
鴰	-13.4262
鴦	-13.4262
鬅	-13.4265
褏	-13.4266
飊	-13.4266
逷	-13.4266
嗑	-13.4267
嫺	-13.4267
胆	-13.4267
譸	-13.4267
絨	-13.4267
躕	-13.4268
禨	-13.4269
醼	-13.4272
瘃	-13.4272
瀵	-13.4273
釦	-13.4273
馹	-13.4276
櫽	-13.4383
蘼	-13.4386
冣	-13.4387
旓	-13.4389
踳	-13.4389
徘	-13.439
嚀	-13.439
㬌	-13.439
飪	-13.4391
潺	-13.4392
軑	-13.4394
麐	-13.4394
梦	-13.4395
筇	-13.4396
猘	-13.4396
殣	-13.4397
驑	-13.4397
縕	-13.4399
駬	-13.44
胠	-13.4401
塈	-13.4401
矹	-13.4402
痞	-13.4405
羾	-13.4517
恁	-13.4522
莬	-13.4524
嬛	-13.4524
鴣	-13.4527
嫻	-13.4527
殚	-13.4529
扊	-13.4531
鐻	-13.4531
鬨	-13.4531
孶	-13.4531
爓	-13.4531
媢	-13.4533
䖟	-13.4534
遅	-13.4534
岈	-13.4537
囦	-13.4537
礽	-13.4631
龠	-13.4652
奡	-13.4654
辣	-13.4654
唧	-13.4654
鱏	-13.4654
衊	-13.4655
罙	-13.4656
蕈	-13.4657
洚	-13.4658
淰	-13.4658
挨	-13.4659
眤	-13.4659
涆	-13.466
敓	-13.466
玭	-13.4661
珌	-13.4662
尙	-13.4662
嵋	-13.4663
骳	-13.4663
鄷	-13.4664
蓏	-13.4664
籐	-13.4666
醥	-13.4667
莛	-13.4667
踸	-13.4667
珈	-13.4669
棕	-13.4669
鮌	-13.467
鋐	-13.4773
偭	-13.4778
晧	-13.4785
磅	-13.4789
綢	-13.4791
鶹	-13.4792
謏	-13.4792
縧	-13.4792
阤	-13.4792
繂	-13.4794
崢	-13.4794
靷	-13.4794
皞	-13.4795
恝	-13.4796
瑳	-13.4797
淀	-13.4797
濰	-13.4799
扅	-13.4799
伻	-13.4799
筤	-13.4801
髣	-13.4803
灂	-13.4806
㸌	-13.4806
獞	-13.4808
潗	-13.4814
椑	-13.4919
蜼	-13.4923
蟜	-13.4925
筳	-13.4925
蚨	-13.4928
蝴	-13.4929
詄	-13.4932
竑	-13.4934
湃	-13.4935
瀄	-13.4937
驔	-13.4937
礮	-13.4938
轥	-13.4939
怗	-13.4941
惷	-13.5063
蚑	-13.5068
攴	-13.5069
扢	-13.5069
瞩	-13.507
徕	-13.507
螙	-13.507
恓	-13.5071
罡	-13.5071
獝	-13.5072
嶒	-13.5072
鄶	-13.5073
䓤	-13.5074
旹	-13.5074
㴻	-13.5078
翛	-13.5199
鰍	-13.5203
璪	-13.5207
綳	-13.5209
旆	-13.521
匳	-13.521
齅	-13.5211
墢	-13.5212
綌	-13.5213
䘖	-13.5214
痁	-13.5215
遌	-13.5215
很	-13.5216
袛	-13.5217
芉	-13.5218
鸂	-13.5218
浼	-13.5227
譓	-13.5339
䄖	-13.534
閌	-13.5341
臑	-13.5342
亍	-13.5346
噆	-13.5347
獫	-13.5351
窋	-13.5351
岢	-13.5352
琶	-13.5352
贗	-13.5354
趋	-13.5356
恟	-13.5356
饍	-13.5356
辝	-13.5356
苢	-13.5358
蹣	-13.5359
穸	-13.5361
睚	-13.5361
阹	-13.5361
漈	-13.5362
巂	-13.5363
簳	-13.5365
嚘	-13.5368
撟	-13.549
訌	-13.5493
屇	-13.5495
螣	-13.5498
蹩	-13.5498
鷓	-13.5499
芎	-13.5501
齦	-13.5502
瀌	-13.5502
絇	-13.5503
嗷	-13.5503
噂	-13.5505
礟	-13.5505
瑭	-13.5505
鰭	-13.5506
滈	-13.5509
牯	-13.5511
狒	-13.5636
钁	-13.5638
鍋	-13.5638
惽	-13.5642
虩	-13.5642
􁊭	-13.5644
惪	-13.5644
灋	-13.5645
𥚹	-13.5646
餕	-13.5646
駹	-13.5647
梠	-13.5647
蒀	-13.5647
鷩	-13.5648
敉	-13.5648
勷	-13.5649
挻	-13.5649
稉	-13.565
丏	-13.565
軃	-13.5651
闑	-13.5652
罋	-13.5655
艟	-13.5786
塒	-13.5788
嗥	-13.5789
娀	-13.5792
藨	-13.5793
𤇺	-13.5794
揑	-13.5795
逴	-13.5796
蜯	-13.5796
墦	-13.5797
𥿄	-13.5798
鱻	-13.5799
鍥	-13.5801
郪	-13.5801
楽	-13.5802
搰	-13.5802
戟	-13.5802
鷕	-13.5932
曏	-13.5937
僛	-13.5938
攟	-13.5942
𠞰	-13.5946
跜	-13.5947
鍇	-13.5947
鳲	-13.5947
烻	-13.5948
慷	-13.5948
幗	-13.5949
駪	-13.5949
剚	-13.5949
柸	-13.595
橜	-13.595
躨	-13.5951
篔	-13.5952
㠑	-13.5952
桎	-13.5952
鶢	-13.5953
縐	-13.5953
檗	-13.5955
剟	-13.5956
酃	-13.5956
釴	-13.5959
堈	-13.6063
彳	-13.609
倢	-13.6098
涍	-13.6098
虒	-13.6098
嵽	-13.6099
涣	-13.61
蛚	-13.6101
輗	-13.6101
泅	-13.6102
唅	-13.6102
荗	-13.6103
橅	-13.6103
晛	-13.6103
搉	-13.6103
橚	-13.6104
貤	-13.6104
嬀	-13.6107
黕	-13.6107
懺	-13.6108
桶	-13.6109
􁬿	-13.6112
䊋	-13.6115
鈷	-13.6119
骩	-13.6246
樺	-13.6247
蛺	-13.6249
峘	-13.6249
坫	-13.625
沜	-13.6253
肓	-13.6253
菆	-13.6254
蚶	-13.6255
僄	-13.6255
㒒	-13.6256
眂	-13.6257
愫	-13.6258
褶	-13.6258
卼	-13.6258
翿	-13.6259
鵕	-13.626
炁	-13.626
狨	-13.626
滀	-13.626
湲	-13.626
僱	-13.6261
袝	-13.6261
惮	-13.6261
㯭	-13.6265
笴	-13.6268
㮚	-13.6269
俁	-13.6272
滷	-13.6299
􁀧	-13.6397
頖	-13.64
噣	-13.6402
眭	-13.6408
汳	-13.6409
𠻳	-13.6409
紃	-13.6411
鬙	-13.6411
髾	-13.6412
鐏	-13.6413
轘	-13.6414
鑴	-13.6415
㭊	-13.6415
倀	-13.6416
禭	-13.6416
蔲	-13.6416
酴	-13.6417
柎	-13.6418
雘	-13.6419
菔	-13.6419
頬	-13.6419
蜊	-13.642
騞	-13.6421
茢	-13.6422
雱	-13.6422
獐	-13.6422
鷞	-13.6423
峛	-13.6427
蘺	-13.6539
敶	-13.6565
麚	-13.6572
馽	-13.6574
惏	-13.6575
嗽	-13.6575
啑	-13.6575
窌	-13.6576
髄	-13.6577
寉	-13.6577
􁎐	-13.6577
犛	-13.6578
𧖟	-13.6578
輠	-13.6585
甗	-13.6586
呐	-13.6586
咥	-13.6733
迾	-13.6733
鎁	-13.6735
鍰	-13.6736
壃	-13.6736
跅	-13.6737
躰	-13.6739
咺	-13.674
橰	-13.674
􁀨	-13.6743
檿	-13.6744
笆	-13.6744
媕	-13.6744
欂	-13.6745
囋	-13.6746
鵯	-13.6751
趵	-13.6751
輥	-13.6762
緖	-13.6895
鞦	-13.69
㠋	-13.6902
𤏡	-13.6902
嬃	-13.6903
曚	-13.6903
逯	-13.6904
拕	-13.6904
􁋆	-13.6904
炕	-13.6905
脽	-13.6905
袜	-13.6906
麌	-13.6906
􁾉	-13.6907
珧	-13.6907
戦	-13.6908
媍	-13.6909
翯	-13.6909
燉	-13.691
耎	-13.691
箙	-13.6911
嬝	-13.6912
洱	-13.6912
鬉	-13.6912
婞	-13.6913
牸	-13.6913
姐	-13.6915
桹	-13.6915
浟	-13.6916
罿	-13.6917
耑	-13.6921
淊	-13.7063
蒓	-13.7069
艭	-13.7069
髟	-13.7069
曅	-13.707
匐	-13.7072
鶠	-13.7072
喩	-13.7073
耡	-13.7074
歔	-13.7074
滳	-13.7074
靶	-13.7074
顋	-13.7075
榑	-13.7077
蘙	-13.7078
齶	-13.7078
趠	-13.7078
瀣	-13.708
蜾	-13.708
擫	-13.708
樝	-13.708
煗	-13.7082
䍧	-13.7083
㵸	-13.7083
榰	-13.7084
堀	-13.7085
鄺	-13.7088
幨	-13.7091
𫐠	-13.7094
峕	-13.7235
颻	-13.7239
尒	-13.7239
儤	-13.7243
㓪	-13.7244
崆	-13.7245
毚	-13.7245
魖	-13.7246
輬	-13.7246
擭	-13.7246
簠	-13.7248
鱟	-13.725
啚	-13.725
呿	-13.725
鐲	-13.7251
虣	-13.7252
逬	-13.7253
昫	-13.7255
砍	-13.7257
茈	-13.7257
卲	-13.7257
飋	-13.7258
驊	-13.7258
㱕	-13.7258
搒	-13.7262
邶	-13.7265
脁	-13.7265
晊	-13.7407
姉	-13.7407
䀨	-13.7413
棬	-13.7417
尽	-13.7418
膰	-13.7419
爌	-13.7419
辞	-13.7419
竛	-13.742
裲	-13.742
䙀	-13.7422
韮	-13.7422
葳	-13.7423
䕷	-13.7423
䴊	-13.7426
匊	-13.7427
㮰	-13.7427
齩	-13.7429
魑	-13.743
縚	-13.743
鵊	-13.743
蝇	-13.7431
軏	-13.7431
臃	-13.7431
騩	-13.7431
堮	-13.7434
楥	-13.7437
亐	-13.7449
邐	-13.7593
憭	-13.7595
嘖	-13.7595
鬴	-13.7598
蝤	-13.7599
儌	-13.76
蔔	-13.76
酳	-13.76
訬	-13.7601
魦	-13.7601
奰	-13.7603
蜲	-13.7605
觿	-13.7606
籊	-13.7606
涑	-13.7607
筈	-13.7608
旼	-13.7608
堨	-13.7609
􁈍	-13.7609
濉	-13.7609
漎	-13.761
啐	-13.761
鷫	-13.7611
嵸	-13.7611
蚳	-13.7613
韔	-13.7613
㓛	-13.7615
体	-13.7615
兟	-13.7617
嵁	-13.7617
諓	-13.7619
恆	-13.7619
霢	-13.7769
覦	-13.7771
褌	-13.7774
蠺	-13.7777
闠	-13.7777
諟	-13.7778
藷	-13.7779
邲	-13.7779
篿	-13.778
竮	-13.7781
迃	-13.7781
薋	-13.7781
撈	-13.7782
韐	-13.7783
騕	-13.7785
窑	-13.7785
醤	-13.7785
騀	-13.7785
轣	-13.7787
􁌣	-13.7787
􁉤	-13.7789
窰	-13.779
蛱	-13.7791
濔	-13.7792
犠	-13.7792
鞳	-13.7793
呢	-13.7794
糕	-13.7796
隒	-13.7796
麃	-13.7797
燖	-13.7798
吰	-13.7799
碝	-13.7803
卅	-13.7806
繘	-13.781
䚟	-13.7955
嫪	-13.7958
軷	-13.7961
旎	-13.7962
屮	-13.7964
𡑞	-13.7967
綝	-13.7968
褓	-13.7968
嚄	-13.7968
劻	-13.7969
轕	-13.7969
枤	-13.797
倮	-13.7971
哤	-13.7971
蕷	-13.7971
泒	-13.7972
嵼	-13.7972
趐	-13.7972
葸	-13.7973
頩	-13.7973
懆	-13.7974
粔	-13.7979
柤	-13.798
崺	-13.7982
噰	-13.8135
縰	-13.8143
嬗	-13.8144
雚	-13.8147
搯	-13.8148
杅	-13.8149
騋	-13.8154
膿	-13.8154
齾	-13.8155
莋	-13.8155
煆	-13.8156
鼖	-13.8156
䘲	-13.8156
駓	-13.8157
㹠	-13.8158
畣	-13.8158
焄	-13.8159
㮄	-13.8159
碌	-13.8159
頏	-13.816
餁	-13.816
槥	-13.816
甝	-13.816
廞	-13.8161
鶘	-13.8161
鼛	-13.8161
齚	-13.8161
鱄	-13.8162
嚱	-13.8165
斨	-13.8165
􁩉	-13.8165
巏	-13.8166
䥴	-13.8167
缽	-13.8167
蠚	-13.8167
胼	-13.8168
􁀔	-13.8229
􁎘	-13.8336
蛄	-13.8336
戃	-13.8341
罭	-13.8341
藭	-13.8342
㵳	-13.8343
时	-13.8343
悊	-13.8344
忲	-13.8345
䳌	-13.8346
眶	-13.8346
娬	-13.8346
栲	-13.8347
沄	-13.8348
皚	-13.8348
鰣	-13.8349
䴥	-13.8349
􁚐	-13.835
拲	-13.8351
冪	-13.8351
遫	-13.8352
觩	-13.8352
鸕	-13.8353
𤾉	-13.8354
韍	-13.8355
轤	-13.8356
罼	-13.8357
觡	-13.8359
闟	-13.8362
鮞	-13.8364
廥	-13.8366
礿	-13.8366
璛	-13.837
矴	-13.8528
跇	-13.8535
勠	-13.8537
甡	-13.8539
䝿	-13.854
罫	-13.8542
独	-13.8542
緲	-13.8542
鼬	-13.8542
挏	-13.8544
禬	-13.8544
慁	-13.8546
瞵	-13.8547
摟	-13.8548
葐	-13.8548
漷	-13.8548
匾	-13.8548
髖	-13.8548
拇	-13.8549
骰	-13.8549
鱅	-13.8549
綀	-13.8551
胏	-13.8551
獎	-13.8552
蠔	-13.8552
枑	-13.8552
塉	-13.8553
𦦨	-13.8553
諰	-13.8554
翆	-13.8555
繦	-13.8555
鰈	-13.8556
澔	-13.8557
昪	-13.8558
礨	-13.8558
傪	-13.8559
憮	-13.8708
傕	-13.8736
棰	-13.8741
弮	-13.8743
蘘	-13.8743
麪	-13.8744
㻞	-13.8744
蝃	-13.8745
饎	-13.8745
螀	-13.8745
埠	-13.8745
笇	-13.8746
𢋫	-13.8746
胖	-13.8747
洼	-13.8748
嫕	-13.8749
詗	-13.8751
鱒	-13.8751
鵙	-13.8751
吷	-13.8752
佁	-13.8752
垕	-13.8756
㕙	-13.8757
桒	-13.8757
甋	-13.8757
悙	-13.8761
翡	-13.8931
䆿	-13.8937
薁	-13.8938
䪥	-13.8938
嚨	-13.894
矑	-13.8943
㪍	-13.8944
穪	-13.8944
鸒	-13.8946
蠵	-13.8946
􁦛	-13.8948
谹	-13.8948
芍	-13.895
椷	-13.895
磳	-13.895
屭	-13.8951
蒹	-13.8952
棅	-13.8952
蓻	-13.8953
苶	-13.8953
滍	-13.8953
崍	-13.8954
杻	-13.8954
踢	-13.8956
葴	-13.8956
鯷	-13.8956
侄	-13.8957
薯	-13.8958
䠥	-13.8958
滫	-13.8958
噌	-13.896
瀯	-13.8978
觺	-13.9135
迒	-13.915
嫜	-13.9152
冱	-13.9152
媞	-13.9155
䦧	-13.9155
蜆	-13.9156
蟫	-13.9157
晹	-13.9158
髿	-13.9158
慅	-13.9158
􁂶	-13.9159
瀜	-13.9159
蘐	-13.916
鋗	-13.916
駊	-13.916
㴶	-13.916
离	-13.9161
覻	-13.9161
宐	-13.9161
薉	-13.9162
垜	-13.9163
湱	-13.9163
鈒	-13.9163
瑨	-13.9163
籺	-13.9164
幀	-13.9164
荂	-13.9164
响	-13.9164
鮆	-13.9165
噢	-13.9165
墆	-13.9167
埆	-13.9167
瘐	-13.9167
鱧	-13.9168
鷮	-13.9168
焴	-13.917
讇	-13.9172
鋹	-13.936
﨣	-13.9364
龏	-13.9364
暏	-13.9366
宝	-13.9367
􁑭	-13.9368
鬵	-13.9368
羜	-13.9368
蜍	-13.9369
痌	-13.937
㹅	-13.937
牱	-13.937
枍	-13.937
帢	-13.9371
鱓	-13.9371
揕	-13.9372
匆	-13.9372
䱷	-13.9374
毌	-13.9374
倜	-13.9374
戬	-13.9375
巃	-13.9375
渣	-13.9376
潬	-13.9376
湞	-13.9376
貘	-13.9377
瀡	-13.9377
磝	-13.9377
仃	-13.9377
薲	-13.9377
墝	-13.9378
杈	-13.9378
懨	-13.9378
袀	-13.9379
黤	-13.9379
蹜	-13.9379
遛	-13.9379
鱍	-13.938
鞌	-13.938
鷽	-13.9381
猭	-13.9382
淢	-13.9383
蜧	-13.939
佉	-13.9569
糇	-13.9582
靠	-13.9582
儃	-13.9585
橤	-13.9585
􁁄	-13.9585
忞	-13.9586
庐	-13.9586
泲	-13.9586
襴	-13.9588
蝡	-13.9588
嗃	-13.9588
呦	-13.9588
椓	-13.9588
捆	-13.9589
幞	-13.9589
颮	-13.9591
妁	-13.9591
弰	-13.9592
侲	-13.9593
裶	-13.9593
嘱	-13.9593
髧	-13.9593
𣣔	-13.9593
糯	-13.9595
靸	-13.9595
䮍	-13.9596
笯	-13.9596
薠	-13.9596
艓	-13.9598
縿	-13.9598
偰	-13.9599
蔪	-13.96
茌	-13.9601
澟	-13.9602
啿	-13.9605
穱	-13.98
􁡯	-13.9801
塏	-13.9801
縭	-13.9802
僴	-13.9804
[...]
