<unk>	0
<s>	0
</s>	0
,	-2.43528
。	-2.63865
、	-3.95211
者	-4.65468
!	-4.87739
故	-4.89234
:「	-5.11769
也	-5.31871
?	-5.33076
為	-5.43168
。」	-5.49234
於	-5.51315
以	-5.54415
是	-5.57078
;	-5.57624
無	-5.5847
不	-5.6265
菩薩	-5.70696
法	-5.71218
有	-5.71832
若	-5.73281
之	-5.7373
中	-5.7476
心	-5.74795
如是	-5.75617
言	-5.75926
行	-5.79524
如來	-5.82887
彼	-5.84847
此	-5.88934
佛	-5.89792
如	-5.94201
非	-5.99013
而	-5.997
等	-6.02083
二	-6.03496
生	-6.06099
得	-6.06966
即	-6.07953
名	-6.09857
及	-6.10266
時	-6.10903
已	-6.11588
其	-6.14966
說	-6.18037
一	-6.18796
世尊	-6.20872
身	-6.21566
一切	-6.21572
眾生	-6.21926
相	-6.22044
諸	-6.23237
人	-6.2403
見	-6.24233
我	-6.24259
下	-6.32207
三	-6.32607
明	-6.3471
。「	-6.39521
▁	-6.42337
皆	-6.4289
又	-6.49824
所	-6.50309
?」	-6.51498
觀	-6.52765
謂	-6.54129
至	-6.54989
大	-6.56026
智	-6.56711
從	-6.56863
住	-6.56887
處	-6.58009
亦	-6.60894
當	-6.61889
爾時	-6.6226
四	-6.62271
因	-6.63117
作	-6.65187
:『	-6.65815
自	-6.66844
清淨	-6.69107
善	-6.69655
常	-6.70391
欲	-6.71458
受	-6.72972
能	-6.73554
應	-6.73643
起	-6.74298
則	-6.75879
)	-6.76703
上	-6.76733
意	-6.771
(	-6.77867
義	-6.79425
或	-6.79507
與	-6.80016
願	-6.81754
知	-6.81949
想	-6.82446
令	-6.8252
眾	-6.83021
多	-6.83414
入	-6.84244
今	-6.85614
:	-6.86748
經	-6.86963
無有	-6.8721
事	-6.87391
前	-6.87744
舍利子	-6.88046
曰	-6.88459
道	-6.88953
初	-6.91391
在	-6.92542
云何	-6.93826
無量	-6.93835
色	-6.93997
。』	-6.94516
依	-6.94705
樂	-6.96439
念	-6.96793
復	-6.9742
離	-6.98646
王	-6.98934
由	-6.99275
乃至	-6.99377
世間	-6.99864
問	-6.99994
聞	-7.00663
求	-7.01003
出	-7.01204
修	-7.01327
勝	-7.03152
是故	-7.03438
何以故	-7.03728
云	-7.03861
後	-7.05872
成就	-7.06045
果	-7.07149
空	-7.07765
淨	-7.09568
現	-7.10002
名為	-7.10159
業	-7.11826
解	-7.12056
具	-7.12593
地	-7.13448
成	-7.15764
五	-7.17392
天子	-7.17592
悉	-7.18728
天	-7.18838
盡	-7.18873
滅	-7.19225
迦葉	-7.1949
識	-7.21647
聲	-7.22038
施	-7.22073
捨	-7.228
功德	-7.22846
佛言	-7.22954
過	-7.23311
持	-7.23687
性	-7.24056
苦	-7.24141
隨	-7.24453
》	-7.25546
教	-7.26157
耶	-7.26833
解脫	-7.30258
具足	-7.31114
雖	-7.31367
信	-7.32162
智慧	-7.32603
本	-7.32853
汝	-7.33066
來	-7.3359
戒	-7.34075
同	-7.34555
語	-7.35349
供養	-7.35966
緣	-7.35969
然	-7.36471
力	-7.37451
取	-7.37584
文殊師利	-7.37677
定	-7.3793
菩薩摩訶薩	-7.38545
是名	-7.38551
莊嚴	-7.38634
正	-7.38846
慧	-7.39066
化	-7.39272
證	-7.39433
實	-7.40365
種種	-7.40613
光	-7.40642
惡	-7.40744
方便	-7.42921
不能	-7.43899
分別	-7.44044
可	-7.441
體	-7.44208
諸法	-7.44262
菩提	-7.4439
發	-7.44613
門	-7.45743
用	-7.46031
即是	-7.46251
平等	-7.46336
既	-7.46393
二者	-7.46734
諸佛	-7.47902
通	-7.47983
但	-7.48179
一者	-7.49071
別	-7.5043
顯	-7.50664
第二	-7.50853
亦無	-7.50905
煩惱	-7.51027
分	-7.51364
斷	-7.51516
所謂	-7.51738
便	-7.5192
寶	-7.52267
善男子	-7.52363
理	-7.53089
光明	-7.53251
釋	-7.53501
譬如	-7.54119
答	-7.54285
所有	-7.54468
先	-7.54787
涅槃	-7.54964
聲聞	-7.55073
難	-7.55584
唯	-7.55749
大王	-7.5813
妙	-7.59233
精進	-7.59672
復次	-7.60033
他	-7.60392
眼	-7.60785
生死	-7.60874
廣	-7.61092
舍利弗	-7.61273
餘	-7.61417
異	-7.61545
大乘	-7.62553
德	-7.62569
未	-7.63304
故云	-7.63988
《	-7.64166
對	-7.64671
覺	-7.64994
報	-7.65099
修行	-7.65314
食	-7.65551
除	-7.65978
水	-7.66708
華	-7.66835
藏	-7.67967
正法	-7.67992
重	-7.68048
若有	-7.68092
舉	-7.68124
乃	-7.68304
阿難	-7.68472
何	-7.69352
第一	-7.69576
亦不	-7.70314
不生	-7.70487
六	-7.70558
比丘	-7.71027
俱	-7.71049
世	-7.71335
深	-7.71718
於彼	-7.71738
不得	-7.72412
去	-7.7264
三者	-7.72643
法身	-7.73274
根	-7.73635
論	-7.73747
不可	-7.74138
外	-7.74902
無所	-7.75225
一切眾生	-7.75916
愛	-7.75993
界	-7.76849
猶如	-7.7721
數	-7.7727
各	-7.77522
內	-7.77523
斯	-7.77742
究竟	-7.78435
次	-7.78496
子	-7.78581
共	-7.78608
攝	-7.79059
就	-7.79085
極	-7.79371
轉	-7.79598
著	-7.79788
遠離	-7.80183
說法	-7.80726
】	-7.80952
文	-7.81181
相應	-7.81337
使	-7.81508
出家	-7.81595
於此	-7.81631
我今	-7.81646
七	-7.82229
乘	-7.82355
稱	-7.82908
八	-7.82998
因緣	-7.8312
物	-7.85172
之所	-7.8574
寂靜	-7.8613
三昧	-7.86408
引	-7.86627
學	-7.87082
合	-7.87087
耳	-7.87138
立	-7.8717
自然	-7.87954
喻	-7.88023
答曰	-7.88162
遍	-7.88305
攝受	-7.8834
真	-7.8881
小	-7.89002
還	-7.89226
善根	-7.89365
貪	-7.89704
句	-7.8983
往	-7.901
坐	-7.90246
諸天	-7.9029
二乘	-7.90313
疏	-7.91054
聖	-7.91393
示	-7.9178
尊	-7.92018
安住	-7.92422
方	-7.92588
請	-7.92603
境	-7.92615
四者	-7.9272
趣	-7.92948
少	-7.93291
向	-7.93393
樹	-7.93916
白佛言	-7.94213
十	-7.94711
利	-7.94884
結	-7.95033
真實	-7.95497
歎	-7.95689
忍	-7.95799
法界	-7.96766
境界	-7.97087
淨土	-7.97377
女	-7.97603
無邊	-7.9771
之法	-7.97714
所說	-7.98595
一一	-7.98681
觀察	-7.98742
第三	-7.98827
所以者何	-7.99465
亦復如是	-7.99978
是為	-8.00231
廣大	-8.0081
死	-8.01984
命	-8.02285
當知	-8.02339
好	-8.0234
故名	-8.02569
花	-8.03114
種	-8.03257
自在	-8.03445
會	-8.05066
師	-8.05286
必	-8.05496
所以	-8.05712
歡喜	-8.05851
邪	-8.05856
不見	-8.05874
照	-8.05903
度	-8.06112
無明	-8.06427
家	-8.06736
十方	-8.06831
不知	-8.07422
滿	-8.07548
劫	-8.07794
日	-8.07949
將	-8.08135
決定	-8.08883
失	-8.0916
國	-8.09347
觸	-8.09488
虛空	-8.09792
普	-8.1027
土	-8.10715
示現	-8.11017
名曰	-8.11308
安	-8.11547
香	-8.11562
位	-8.12108
佛法	-8.12423
音	-8.12545
有情	-8.12742
布施	-8.12968
壞	-8.1302
無相	-8.13559
諸菩薩	-8.14027
而不	-8.14322
最勝	-8.15115
開	-8.15288
執	-8.15464
長者	-8.15854
經曰	-8.16113
皆悉	-8.16218
一切法	-8.16348
喜	-8.16373
有二	-8.17349
更	-8.17372
持戒	-8.17533
了知	-8.17741
思惟	-8.17973
以為	-8.17992
歸	-8.18703
復有	-8.19419
獲	-8.19841
集	-8.19886
我等	-8.20733
護	-8.21046
勝鬘	-8.21443
火	-8.21633
神通	-8.22443
疑	-8.22609
流	-8.23202
彌勒	-8.23207
修習	-8.23305
何故	-8.23321
於是	-8.2348
不同	-8.23547
勸	-8.23749
凡夫	-8.23873
慈	-8.2438
父母	-8.24421
。」「	-8.24444
須	-8.24453
障	-8.24754
辨	-8.25129
金	-8.25284
三界	-8.25308
故言	-8.25784
了	-8.26079
口	-8.26203
諦	-8.26818
沙門	-8.26843
記	-8.2708
此是	-8.27085
遠	-8.27568
惑	-8.2765
利益	-8.27653
最上	-8.27783
世界	-8.27827
大悲	-8.27963
增長	-8.28161
破	-8.28259
一切諸法	-8.2828
圓滿	-8.28339
所作	-8.28844
終	-8.28848
不可思議	-8.289
無生	-8.28911
乎	-8.29204
復次舍利子	-8.2947
病	-8.30108
眷屬	-8.30491
隨順	-8.30592
恒	-8.30739
益	-8.30754
無常	-8.30824
長	-8.31043
味	-8.31512
述曰	-8.32006
居	-8.32132
福	-8.32145
羅	-8.32504
總	-8.32557
罪	-8.32811
應知	-8.33145
高	-8.33218
於諸	-8.33313
習	-8.3334
順	-8.33376
被	-8.33467
無上	-8.33647
又復	-8.3449
散	-8.3451
無我	-8.34543
現在	-8.34782
智者	-8.34911
白	-8.34917
僧	-8.35228
不應	-8.35369
要	-8.36487
不思議	-8.36569
阿	-8.36606
未來	-8.36804
阿羅漢	-8.36908
告	-8.37194
止	-8.37272
——	-8.37459
微妙	-8.3799
足	-8.38178
聽	-8.38217
財	-8.3829
衣	-8.38636
類	-8.38849
風	-8.39037
奉	-8.39758
致	-8.40121
第四	-8.40156
達	-8.40208
佛說	-8.40319
造	-8.40715
量	-8.4089
音聲	-8.41065
反	-8.41426
。【	-8.41519
之中	-8.41605
猶	-8.41678
愚癡	-8.41792
此經	-8.41796
所行	-8.42677
山	-8.42894
動	-8.43028
速	-8.43247
問曰	-8.43265
禮	-8.43267
畢竟	-8.43377
癡	-8.43582
女人	-8.4459
不為	-8.45008
魔	-8.45384
月	-8.45463
如是等	-8.45552
甚深	-8.4583
比	-8.45989
發心	-8.46195
不可得	-8.4623
讚	-8.46298
親近	-8.46304
彼佛	-8.46415
思	-8.46517
昔	-8.46547
堅固	-8.46816
設	-8.47079
悉皆	-8.47092
始	-8.47377
墮	-8.48004
正明	-8.48064
母	-8.48192
志	-8.48239
其心	-8.48336
染	-8.48588
我當	-8.48734
百千	-8.48759
形	-8.48821
竟	-8.49234
親	-8.4924
寂滅	-8.49461
獨	-8.49518
略	-8.49535
以下	-8.49916
」	-8.50064
際	-8.50284
文殊師利言	-8.50324
無作	-8.50354
無畏	-8.50439
無礙	-8.50631
汝等	-8.50776
感	-8.50992
發起	-8.51078
之心	-8.51108
二合	-8.51257
和合	-8.51315
計	-8.51493
約	-8.51654
主	-8.51917
號	-8.5197
城	-8.52218
諸眾生	-8.52341
諸根	-8.5241
圓	-8.52455
攝受正法	-8.52472
以此	-8.52766
外道	-8.52987
九	-8.53088
?』	-8.53132
壽	-8.5339
不捨	-8.53397
何等	-8.53951
一心	-8.53969
飲食	-8.53969
兩	-8.5421
直	-8.54558
善巧	-8.54573
治	-8.5461
過去	-8.54725
到	-8.54733
及以	-8.55011
近	-8.55037
聚	-8.55515
神	-8.55518
興	-8.55731
爾時世尊	-8.55796
法門	-8.55945
恭敬	-8.56341
大眾	-8.56375
者即	-8.56419
瞋恚	-8.56636
龍	-8.56718
邊	-8.5694
地獄	-8.57116
無盡	-8.57173
安樂	-8.57408
調伏	-8.58082
亦非	-8.58176
是人	-8.5837
常住	-8.58372
雨	-8.58472
覆	-8.58863
差別	-8.58944
之人	-8.5902
目	-8.59155
應當	-8.59242
迴向	-8.59353
莫	-8.59453
受持	-8.595
次第	-8.59656
往生	-8.5976
無為	-8.59893
甚	-8.60028
而為	-8.60347
宣說	-8.60419
果報	-8.60651
瞋	-8.6067
顛倒	-8.60676
敬	-8.60963
一乘	-8.6128
如實	-8.61456
太子	-8.62095
辯才	-8.62157
那	-8.62272
加	-8.62281
不淨	-8.626
不起	-8.62693
自性	-8.62697
善法	-8.62791
不退	-8.62881
害	-8.63241
多聞	-8.63455
己	-8.63779
小乘	-8.63827
佛剎	-8.63867
弟子	-8.6393
像	-8.63984
行者	-8.63992
品	-8.64219
建立	-8.64264
出離	-8.64477
壽命	-8.64595
國土	-8.65159
無異	-8.65275
情	-8.65353
人民	-8.65551
海	-8.65741
四種	-8.65952
所生	-8.65953
亦如是	-8.66135
答言	-8.66253
此法	-8.66265
諸菩薩摩訶薩	-8.66463
人天	-8.66495
見佛	-8.6654
是時	-8.66739
千	-8.66811
出生	-8.66876
演說	-8.66987
真如	-8.67155
童子	-8.67586
假	-8.67602
天人	-8.67772
善哉	-8.67824
字	-8.67879
殊勝	-8.6807
歸依	-8.68145
縛	-8.68261
增	-8.68382
并	-8.68569
故名為	-8.68592
懷	-8.69199
成佛	-8.69255
於中	-8.69256
或有	-8.69347
不動	-8.69644
慢	-8.69979
覩	-8.70306
而能	-8.70316
指	-8.70421
捨離	-8.70435
已來	-8.70878
如此	-8.70976
法性	-8.71234
不著	-8.71303
皆是	-8.71605
及諸	-8.71609
緣覺	-8.71637
凡	-8.71739
禪定	-8.71828
面	-8.72333
彼人	-8.72402
所得	-8.72726
而生	-8.72739
三種	-8.72794
「	-8.72956
忍辱	-8.72997
已下	-8.73059
波羅蜜	-8.73117
不住	-8.73302
手	-8.7351
雜	-8.73734
愛樂	-8.7392
佛告	-8.73949
咸	-8.74337
悟	-8.74414
授	-8.74588
發菩提心	-8.74659
住於	-8.75189
彰	-8.75243
金剛	-8.75296
獲得	-8.75301
二種	-8.75349
且	-8.75487
五者	-8.75517
而說偈言	-8.75836
宣	-8.76331
各各	-8.76508
辯	-8.76586
亦復	-8.76764
爾	-8.77196
何等為四	-8.77223
沒	-8.77485
宗	-8.77829
蓋	-8.77935
應供	-8.77957
譬	-8.78206
經云	-8.78377
百	-8.78695
。】「	-8.78695
七日	-8.78722
能生	-8.78915
況	-8.7892
藥	-8.79166
輕	-8.79268
宜	-8.79292
標	-8.79448
。」【【	-8.79787
當得	-8.80022
無數	-8.80067
久	-8.8016
妄	-8.80381
進	-8.80946
所言	-8.81009
此云	-8.81113
彌陀	-8.81221
微	-8.81257
何況	-8.81309
遊	-8.81421
嚴	-8.81448
假使	-8.81512
之相	-8.81518
吾	-8.81705
終不	-8.81818
堅	-8.81858
無漏	-8.81871
法中	-8.81933
說偈讚	-8.81966
若人	-8.82024
未曾	-8.82175
言說	-8.82191
信解	-8.82221
棄	-8.82247
七寶	-8.82496
目連	-8.82499
。《	-8.82593
讚歎	-8.82903
息	-8.83106
般若	-8.8315
若不	-8.83267
聞法	-8.83345
若見	-8.83386
安隱	-8.83483
殺	-8.83556
一切智	-8.83716
不信	-8.84008
迷	-8.8418
勇猛	-8.84214
如來藏	-8.84321
離諸	-8.84365
現前	-8.84376
適	-8.8444
禪	-8.84445
善逝	-8.84507
有三	-8.8456
頭	-8.84891
名字	-8.84897
不離	-8.84929
勿	-8.84964
誰	-8.84992
宮殿	-8.8504
以偈讚	-8.8506
之行	-8.85567
因果	-8.85588
三摩地	-8.85605
之事	-8.8567
屬	-8.85718
開示	-8.85863
章	-8.86007
三乘	-8.86145
為說	-8.86405
鈔	-8.86506
則無	-8.86668
正念	-8.8674
絕	-8.86765
若無	-8.86879
遇	-8.87006
備	-8.87194
不以	-8.87319
第五	-8.87449
大寶積經	-8.87581
積集	-8.87609
寂	-8.87698
又舍利子	-8.87826
尊者	-8.87832
夫	-8.88168
念佛	-8.88362
成熟	-8.88502
毒	-8.88544
中有	-8.88614
器	-8.88943
能知	-8.88944
一時	-8.89019
為欲	-8.89114
慈心	-8.89135
尋	-8.89264
座	-8.89344
尚	-8.89384
退	-8.89401
豈	-8.89521
三千大千世界	-8.89647
易	-8.8968
不也	-8.89755
棄捨	-8.8983
不退轉	-8.90054
通達	-8.90077
佛土	-8.90099
能令	-8.90118
諸有	-8.90218
有餘	-8.90235
畏	-8.90269
是菩薩	-8.90285
垢	-8.90322
蓮華	-8.90577
偈	-8.90582
仁	-8.90586
對治	-8.90604
導師	-8.90809
白言	-8.91015
又問	-8.91052
今此	-8.91151
根本	-8.91155
父	-8.91177
破壞	-8.91223
威儀	-8.91271
難陀	-8.91331
最	-8.91464
傳	-8.9168
於法	-8.91745
巳	-8.9179
輪	-8.91794
於佛	-8.91796
依止	-8.91978
心不	-8.9203
和	-8.92074
宮	-8.92652
作佛	-8.92972
貪欲	-8.93002
脫	-8.93244
三世	-8.93615
供	-8.93655
何者	-8.94375
陰	-8.94764
變	-8.94813
他人	-8.95122
列	-8.95304
十六	-8.95338
法故	-8.95348
以是	-8.95371
在家	-8.95472
此人	-8.95581
西方	-8.95597
詣	-8.95676
語言	-8.95913
是其	-8.96167
不取	-8.96215
非是	-8.96227
是中	-8.96274
葉	-8.96336
無量無邊	-8.96438
宿	-8.96516
超	-8.96526
滿足	-8.96554
永	-8.96603
稱讚	-8.96661
大士	-8.97073
:「『	-8.97095
訖	-8.97124
於其	-8.97175
之義	-8.97188
六者	-8.97189
亦然	-8.97328
。「『	-8.974
其身	-8.97404
菩提心	-8.97432
逮	-8.97756
矣	-8.97777
大地	-8.97789
穢	-8.98086
苦惱	-8.98106
漸	-8.98255
亦名	-8.98364
疾	-8.98408
陀	-8.98539
表	-8.98644
不樂	-8.98691
授記	-8.98698
阿彌陀佛	-8.98796
正行	-8.99146
此明	-8.99217
燒	-8.99336
憂	-8.99368
希有	-8.99475
機	-8.99517
並	-8.99599
置	-8.99834
無分別	-8.99912
摩	-8.99952
路	-9.00012
畜生	-9.00156
積	-9.00443
苾芻	-9.00766
寧	-9.00963
迦	-9.00973
.	-9.00978
汝今	-9.00988
初地	-9.01026
不作	-9.01397
之處	-9.01528
于	-9.01558
據	-9.01657
正等覺	-9.01825
遂	-9.01978
若能	-9.01985
末	-9.02078
夜	-9.02162
鼻	-9.02682
帝釋	-9.02692
年	-9.02699
不善	-9.0289
十二	-9.03032
演	-9.03093
怖畏	-9.03113
變易	-9.03119
佛告阿難	-9.03198
而得	-9.0328
書	-9.03311
不斷	-9.0334
邪見	-9.03753
犯	-9.03901
懈怠	-9.03931
憶念	-9.03979
聞已	-9.04022
池	-9.04033
即得	-9.04168
望	-9.04227
患	-9.0427
舍	-9.04453
虛妄	-9.04576
不異	-9.04576
而無	-9.04638
相續	-9.04665
四諦	-9.04894
有為	-9.05058
七者	-9.05119
此二	-9.05157
一切諸	-9.05326
由是	-9.05475
舌	-9.05485
悲	-9.05624
婆羅門	-9.05786
諸佛如來	-9.05788
塵	-9.05943
蘊	-9.05997
惱	-9.06198
所成	-9.06339
無明住地	-9.06462
有一	-9.06483
虛	-9.06491
力故	-9.06492
教化	-9.06645
無垢	-9.06686
有所	-9.06721
馬	-9.06917
其人	-9.06945
二明	-9.06974
間	-9.07077
大德	-9.0718
密	-9.07248
攝取	-9.07261
麁	-9.07505
亂	-9.07736
波	-9.07926
不求	-9.07938
劣	-9.08026
放逸	-9.08154
此中	-9.08289
之時	-9.08436
五百	-9.08453
夫人	-9.08485
修學	-9.08589
色相	-9.08658
雲	-9.08718
時彼	-9.08765
福德	-9.08815
大小	-9.08842
於意云何	-9.09237
愚	-9.09295
欲界	-9.09388
聽聞	-9.09402
怖	-9.09443
佛身	-9.09719
種子	-9.09736
陀羅尼	-9.09777
無能	-9.10151
八者	-9.10234
囉	-9.1039
皆得	-9.1047
得聞	-9.10507
可得	-9.10702
首	-9.10723
曾	-9.10799
序	-9.11014
於我	-9.11063
伏	-9.11128
網	-9.11224
欲令	-9.11281
鉢	-9.11281
身心	-9.11417
於一切法	-9.11621
慈悲	-9.11704
諸行	-9.11756
諸惡	-9.12062
此等	-9.12098
勤修	-9.12207
不與	-9.12388
簡	-9.12676
恐	-9.12791
丈夫	-9.12978
厭	-9.13202
如虛空	-9.13265
一切世間	-9.13347
云何為	-9.13356
障礙	-9.13408
釋迦	-9.13439
故曰	-9.13517
美	-9.13645
車	-9.13692
無不	-9.13761
作如是言	-9.13913
大藥	-9.13931
所見	-9.13939
生於	-9.13944
梵行	-9.14028
柔軟	-9.14239
善知識	-9.14258
羅漢	-9.14273
無邊莊嚴	-9.14367
有四	-9.14464
威德	-9.14504
嘆	-9.14508
無有是處	-9.14536
亦爾	-9.15075
尊重	-9.15202
垂	-9.15365
出世	-9.15423
若有眾生	-9.15447
然後	-9.15532
亦有	-9.15698
盛	-9.15859
而有	-9.15867
隱	-9.1589
又如	-9.15946
一念	-9.15952
放	-9.15963
深心	-9.1602
窮	-9.16333
眾會	-9.16341
二十	-9.16565
偏	-9.1674
非法	-9.1679
何所	-9.16879
布	-9.16918
是以	-9.1696
天眼	-9.17032
名之為	-9.17135
而住	-9.17174
廣說	-9.17294
而彼	-9.17432
細	-9.17455
無極	-9.17458
無餘	-9.17669
受用	-9.17696
衣服	-9.1799
如彼	-9.18112
為彼	-9.18234
初明	-9.18302
過失	-9.18437
毀	-9.18529
若於	-9.18533
儞	-9.18623
無所得	-9.1863
摩訶	-9.18817
梵天	-9.18828
得生	-9.18881
三寶	-9.19078
諸佛世尊	-9.19156
此初	-9.1922
亦如	-9.19302
富樓那	-9.19411
誓	-9.19485
草	-9.19521
為諸眾生	-9.19525
命終	-9.19574
無量壽佛	-9.19621
熱	-9.19731
受生	-9.19835
都	-9.19864
『	-9.19909
萬	-9.19936
發願	-9.19945
作是念	-9.1996
正遍知	-9.20055
梵	-9.20089
下劣	-9.20243
眾寶	-9.20378
佛所	-9.2046
助	-9.20466
無所著	-9.2088
大仙	-9.20922
尸羅	-9.20963
善能	-9.21203
諸比丘	-9.21265
婆	-9.2149
內外	-9.21556
法者	-9.2161
冥	-9.2163
哉	-9.21761
中有二	-9.21782
恩	-9.21854
於一切	-9.21858
痛	-9.21949
幢	-9.22065
我見	-9.22139
執著	-9.22147
法師	-9.22187
則為	-9.22213
相故	-9.22226
往昔	-9.22309
在於	-9.22346
視	-9.22571
善知	-9.22577
如是如是	-9.22583
云何名為	-9.22668
河	-9.22681
悔	-9.22838
即便	-9.22851
八萬四千	-9.22918
我於	-9.23095
入於	-9.23105
令其	-9.23334
生滅	-9.23371
精	-9.23465
似	-9.2353
諸有情	-9.23667
服	-9.23799
強	-9.24065
有人言	-9.24289
剎	-9.24323
救	-9.24331
善友	-9.24722
奉行	-9.24821
隨所	-9.24873
以是義故	-9.24968
違	-9.25074
不壞	-9.25156
雙	-9.25426
降	-9.25474
人中	-9.25511
阿耨多羅三藐三菩提	-9.25563
若有菩薩	-9.25568
老	-9.25736
得見	-9.26002
顯示	-9.26142
餓鬼	-9.26157
增上	-9.26197
見彼	-9.26202
雖復	-9.26256
阿修羅	-9.2633
夢	-9.26449
悅	-9.26602
銀	-9.26665
林	-9.2683
導	-9.26924
恒沙	-9.26965
蓮花	-9.27013
純	-9.27051
俗	-9.27076
文字	-9.27238
離於	-9.27269
底	-9.27562
師子	-9.27683
承	-9.27694
正道	-9.27708
之言	-9.27731
潤	-9.2786
甲冑	-9.27902
有人	-9.2792
智力	-9.27979
專	-9.28228
一切皆	-9.28281
憍慢	-9.28452
殊	-9.28599
怨	-9.286
無所從來	-9.28731
邊際	-9.28794
權	-9.28821
大海	-9.29116
雖有	-9.29193
文殊	-9.29265
若以	-9.29294
上來	-9.29367
相好	-9.29438
妙法	-9.29503
勤	-9.29519
令得	-9.29547
全	-9.29555
賊	-9.29631
正見	-9.29658
辟支佛	-9.29681
無色	-9.29735
彼國	-9.29837
即時	-9.29849
佛道	-9.30091
拘	-9.30278
不說	-9.30316
族姓子	-9.30332
體性空	-9.30332
速疾	-9.30362
總持	-9.30385
鳥	-9.30409
我所	-9.30429
牟尼	-9.30569
彼諸	-9.30598
本無	-9.30663
不行	-9.30675
神力	-9.3074
妄想	-9.30938
周	-9.3098
無著	-9.31352
兼	-9.31553
悉能	-9.31655
心生	-9.31752
所願	-9.32021
說此	-9.32088
闇	-9.32138
夜叉	-9.32159
頂	-9.32199
有二種	-9.32212
等者	-9.3247
合掌	-9.32479
以其	-9.32485
快樂	-9.32541
唯有	-9.32556
唯願	-9.32658
趣向	-9.32827
三明	-9.32929
彼時	-9.33031
不受	-9.33033
無願	-9.33072
容	-9.33156
利養	-9.3317
般若波羅蜜	-9.33182
是法	-9.33252
所知	-9.33334
由此	-9.33388
無量壽	-9.33441
極樂	-9.33443
翻	-9.33547
實際	-9.33549
勝慧	-9.33576
不滅	-9.33846
所緣	-9.33951
今日	-9.3403
心無	-9.34046
故知	-9.34058
佛國	-9.34141
成正覺	-9.34489
枝	-9.34566
大聖	-9.34605
皆有	-9.34631
一切有情	-9.34632
如幻	-9.34693
隨其	-9.34737
日月	-9.34756
空中	-9.34784
無二	-9.35043
骨	-9.35089
礙	-9.35116
欲得	-9.35117
之身	-9.35312
彼土	-9.35396
惡道	-9.35433
王子	-9.35511
誹謗	-9.35593
第六	-9.35595
瓔珞	-9.35732
伽	-9.35876
調	-9.35983
亦是	-9.36117
億	-9.36136
須賴	-9.36185
於諸眾生	-9.36243
令彼	-9.36253
此明何義	-9.36367
繫	-9.36847
上下	-9.36862
!」	-9.36885
不失	-9.37013
珠	-9.37083
龍王	-9.37107
泥	-9.37115
一明	-9.3714
譬喻	-9.37154
是謂	-9.37257
若干	-9.37261
即能	-9.37309
值	-9.37355
疑惑	-9.37388
倍	-9.37405
滅度	-9.37497
黑	-9.37568
譯	-9.37735
無所有	-9.37755
濟	-9.37884
惡趣	-9.37902
則能	-9.37921
聞說	-9.37984
退轉	-9.38082
熟	-9.384
拔	-9.38529
遣	-9.38699
往詣	-9.38752
皆由	-9.38791
惡業	-9.38927
許	-9.39096
鼓	-9.39166
乃能	-9.39216
可見	-9.39232
復以	-9.39248
此義	-9.39353
善惡	-9.39559
飾	-9.3957
十力	-9.39582
端正	-9.39697
謗	-9.39762
故說	-9.39763
三十三天	-9.39956
財物	-9.4011
彼等	-9.40122
貪著	-9.40131
諸煩惱	-9.40172
有說	-9.40201
存	-9.40247
珍寶	-9.40399
決	-9.40502
菩薩行	-9.40545
焰	-9.40554
)(	-9.40641
其中	-9.40723
相似	-9.40768
分段	-9.40768
無心	-9.40807
何謂	-9.40825
佛性	-9.40837
身業	-9.40947
沙	-9.41016
亦無有	-9.4105
。』「	-9.41165
神足	-9.41369
九者	-9.41467
賢	-9.41496
非不	-9.41511
業報	-9.41518
功	-9.41555
所起	-9.41573
無上菩提	-9.41615
殊妙	-9.4179
可知	-9.41818
中間	-9.41884
施設	-9.41937
化作	-9.42037
損	-9.42122
逆	-9.42323
嚴飾	-9.42328
法藏	-9.4238
隨意	-9.42398
眾人	-9.42425
即於	-9.42451
。』」	-9.4248
此身	-9.42482
不放逸	-9.42512
諸長者	-9.42542
及餘	-9.427
戲論	-9.42748
非有	-9.42831
假名	-9.42858
東方	-9.42875
四智	-9.42903
而行	-9.42913
忽	-9.42935
守護	-9.42936
無智	-9.42973
明其	-9.43022
無央數	-9.43116
忘	-9.43165
造作	-9.43485
五陰	-9.43537
互	-9.43673
降伏	-9.43678
晝夜	-9.43754
不定	-9.43783
第一義	-9.43809
一劫	-9.44038
青	-9.44076
自身	-9.44077
不復	-9.44174
即以	-9.4424
辭	-9.443
遮	-9.44301
制	-9.44307
實相	-9.44319
不實	-9.44414
或復	-9.44435
笑	-9.4444
祕密	-9.44715
橫	-9.44722
漏	-9.44928
變化	-9.4501
於他	-9.45045
正覺	-9.45198
十種	-9.45228
在家菩薩	-9.45232
賢者	-9.45443
總結	-9.45456
象	-9.45507
自利	-9.45536
能得	-9.45706
亡	-9.45792
貪瞋癡	-9.45837
說言	-9.45912
暫	-9.46207
。』」「	-9.46391
即為	-9.4645
蒙	-9.46529
守	-9.46596
男女	-9.46686
聖人	-9.46858
作意	-9.46876
聖諦	-9.47063
法華	-9.47106
誠	-9.47228
佛告迦葉	-9.47229
一法	-9.47243
五欲	-9.47245
輩	-9.47274
齊	-9.47288
察	-9.47362
濁	-9.47458
得菩提	-9.47469
觀經	-9.47511
色界	-9.47517
等正覺	-9.47517
法王	-9.47709
所問	-9.47831
須彌	-9.47831
頓	-9.47846
此菩薩	-9.47952
經典	-9.48053
信心	-9.48074
諸天人	-9.48076
發阿耨多羅三藐三菩提心	-9.48122
曉了	-9.48169
如理	-9.48271
佛智	-9.48288
明了	-9.48346
一曰	-9.48413
所攝	-9.48494
威	-9.48501
三觀	-9.48503
生彼	-9.48786
未得	-9.48794
道場	-9.48848
奪	-9.48981
燈	-9.4905
天人師	-9.49299
而說頌曰	-9.49309
勅	-9.49336
眾中	-9.4948
大慈	-9.49534
十者	-9.49536
一切諸佛	-9.49836
短	-9.50001
提	-9.50031
仰	-9.50051
如法	-9.50106
證得	-9.50106
福田	-9.50118
如實知	-9.50236
其所	-9.50299
之力	-9.5033
二曰	-9.50337
亦可	-9.50384
神變	-9.50566
今明	-9.50609
含	-9.50654
體性	-9.50898
飲	-9.50991
及與	-9.51072
復次迦葉	-9.5119
讀誦	-9.51215
歸命	-9.51238
於如來	-9.51272
述	-9.51273
大願	-9.51326
恐怖	-9.51352
十五	-9.51388
不可說	-9.51495
贊	-9.5153
利他	-9.51561
第七	-9.51594
印	-9.51647
巧	-9.51657
大智	-9.51658
律儀	-9.51769
顯現	-9.51824
是佛	-9.51826
諂曲	-9.51877
不盡	-9.51922
仙人	-9.51966
臣	-9.5202
彼岸	-9.52084
超過	-9.52147
無比	-9.52242
威神	-9.52261
園	-9.52274
比丘尼	-9.52309
四大	-9.52329
施與	-9.52424
其義	-9.52462
淨信	-9.52576
木	-9.52823
不依	-9.53026
安立	-9.531
身命	-9.53203
無障礙	-9.53286
聞者	-9.53538
一切煩惱	-9.53625
總持門	-9.53709
令我	-9.53831
作是	-9.53852
十地	-9.5387
此三	-9.53984
俱胝	-9.54034
本來	-9.54129
帝	-9.54135
生者	-9.54231
越	-9.54283
王言	-9.54343
各有	-9.54387
室	-9.54425
佛語	-9.54541
是則名為	-9.54557
天中天	-9.54607
思念	-9.54613
多有	-9.54638
意樂	-9.54867
一人	-9.54917
名號	-9.54918
常樂	-9.54956
莫不	-9.55092
勇	-9.55131
肉	-9.5516
地界	-9.55198
覺知	-9.55198
因故	-9.55212
消	-9.55296
觀佛	-9.55367
六十	-9.55435
迹	-9.55478
貪愛	-9.5553
破戒	-9.55573
文殊師利童子	-9.55676
皆令	-9.55686
幻	-9.55691
妙吉祥	-9.55704
是為四	-9.55715
牒	-9.55758
迷惑	-9.55769
毘	-9.5582
無厭	-9.55838
則有	-9.55878
清	-9.55882
其有	-9.55904
正等正覺	-9.56018
修善	-9.56222
善女人	-9.56234
我慢	-9.5626
西	-9.56337
得解脫	-9.5638
諦聽	-9.56384
不可以	-9.5653
信受	-9.56537
城中	-9.5655
不久	-9.567
牛	-9.56769
昇	-9.56798
以無	-9.56924
而復	-9.56984
聞是	-9.57038
慳	-9.57165
韋提	-9.57199
本願	-9.57219
父王	-9.57265
之名	-9.57606
倒	-9.57628
支	-9.57692
甘露	-9.57742
度脫	-9.57995
此名	-9.58038
男	-9.58086
道者	-9.58189
彌	-9.58274
故有	-9.58343
但以	-9.58383
於世間	-9.5853
名色	-9.58536
愛欲	-9.58659
吉祥	-9.58666
之意	-9.5874
覺悟	-9.58827
相違	-9.58895
往來	-9.5893
而起	-9.5895
音樂	-9.58964
為求	-9.59032
亦復然	-9.59178
靜慮	-9.59221
若欲	-9.59308
寶樹	-9.59346
流通	-9.59353
少分	-9.59355
取著	-9.59424
一向	-9.59549
靜	-9.59642
下明	-9.59783
善哉善哉	-9.59922
眾苦	-9.59953
饒益	-9.60037
見如來	-9.60068
樂欲	-9.60095
等事	-9.60192
六度	-9.60194
諸菩薩眾	-9.60247
乾闥婆	-9.60301
本性	-9.60329
諸佛法	-9.60356
淨心	-9.60433
身相	-9.60466
次明	-9.60487
巍巍	-9.60758
仁者	-9.60857
薄	-9.60977
三曰	-9.61003
彼則	-9.61051
願我	-9.61103
曉	-9.6119
。」《	-9.61235
是則	-9.61361
談	-9.61378
胎	-9.61435
刀	-9.6147
資	-9.61471
繫縛	-9.61494
貧窮	-9.61563
名聞	-9.61734
佛世尊	-9.61772
無邊慧	-9.61772
住處	-9.61832
不聞	-9.6204
諸如來	-9.62079
解了	-9.62102
聖道	-9.62296
輪迴	-9.62317
新	-9.62319
珊瑚	-9.62491
以彼	-9.62812
憐愍	-9.62863
我為	-9.62873
心故	-9.62929
滅諦	-9.62943
聲聞緣覺	-9.62943
』,	-9.63012
前明	-9.63203
默然	-9.63222
四句	-9.63253
淨戒	-9.63258
有量	-9.63323
聽法	-9.63636
是名為	-9.63682
於諸法	-9.63741
周遍	-9.63755
善巧方便	-9.63832
半	-9.63834
畢	-9.63971
養	-9.63972
妻	-9.64023
判	-9.64164
修道	-9.64189
當來	-9.64195
如佛	-9.64223
離欲	-9.64241
出世間	-9.64375
題	-9.64429
我說	-9.64458
願力	-9.64544
不從	-9.64596
平	-9.64604
何以	-9.64659
無實	-9.64746
合掌向佛	-9.6477
縱	-9.64858
不現	-9.65063
見者	-9.65147
功德成就	-9.65162
退失	-9.65183
鬼神	-9.652
聽受	-9.65292
菩提道	-9.65299
彌勒菩薩	-9.65315
堪	-9.65339
何等為三	-9.65354
尼	-9.65383
頌	-9.6549
審	-9.65522
由旬	-9.65615
起於	-9.65649
攀緣	-9.65649
慕	-9.65674
則不	-9.65682
律	-9.65749
莖	-9.65752
勢	-9.65959
限	-9.66101
惡人	-9.66189
見已	-9.66206
無量眾生	-9.66229
難得	-9.66309
快	-9.66317
節	-9.66439
等法	-9.66462
則是	-9.66526
第八	-9.66529
草木	-9.66545
互相	-9.66594
證菩提	-9.66599
爾時世尊告	-9.66719
受持讀誦	-9.6681
諸菩薩等	-9.66982
我今於此	-9.6717
流轉	-9.67275
却	-9.67389
水精	-9.67566
嫉妬	-9.67723
黃	-9.67844
嚴淨	-9.67937
群	-9.67967
度無極	-9.68151
喜樂	-9.68176
圍遶	-9.68399
所修	-9.68505
世俗	-9.68515
如是我聞	-9.68517
迴	-9.68523
業障	-9.68537
自行	-9.68564
後世	-9.68591
熱惱	-9.68747
常行	-9.6879
哀	-9.68828
諸功德	-9.68898
無人	-9.68906
普遍	-9.6901
皆為	-9.69041
略說	-9.69051
心中	-9.69063
之業	-9.69064
不分別	-9.6909
五種	-9.69123
影	-9.69155
他方	-9.69197
儀	-9.69237
御	-9.69249
不念	-9.69255
此四	-9.69371
接	-9.69414
十方世界	-9.6947
無染	-9.69632
賢聖	-9.69662
第二明	-9.69709
天上	-9.69763
諸苦	-9.69779
至誠	-9.69816
舍利	-9.69841
之智	-9.69851
緣起	-9.6991
化生	-9.69927
所化	-9.69932
無始	-9.70037
二名	-9.70073
三十二	-9.70098
敘	-9.70163
有大	-9.70236
於虛空中	-9.70266
是名菩薩摩訶薩	-9.70276
彼法	-9.7045
能於	-9.70498
貧	-9.706
百億	-9.70636
然彼	-9.70692
舍利弗言	-9.70696
惟	-9.70771
所依	-9.70843
」。	-9.7088
石	-9.70948
愚夫	-9.71137
嚩	-9.7122
出現	-9.71309
有三種	-9.71344
心意	-9.71373
受戒	-9.71571
一名	-9.71575
須菩提	-9.71697
臂	-9.71711
涅盤	-9.71748
敷	-9.71818
髮	-9.71859
運	-9.7193
如斯	-9.71972
深法	-9.7209
義者	-9.7212
執持	-9.72144
十四	-9.72196
心常	-9.72368
解說	-9.72452
上妙	-9.72478
滅時亦無所	-9.7268
陳	-9.72713
三事	-9.72744
自下	-9.72746
但有	-9.72851
此事	-9.73016
段	-9.73025
作是念已	-9.73096
厭離	-9.73113
之道	-9.73137
侍	-9.73156
是故菩薩	-9.73171
聞此	-9.73195
懸	-9.73308
勝妙	-9.73377
弘	-9.73435
世間解	-9.73464
箭	-9.73507
此諸	-9.73772
佛子	-9.73826
師子吼	-9.73944
應以	-9.73983
觀法	-9.74008
剎那	-9.74054
說偈言	-9.74078
應時	-9.74102
佛果	-9.74118
有何	-9.74252
樓閣	-9.74253
無想	-9.74316
為他	-9.74335
聞佛所說	-9.74341
所受	-9.74355
有是處	-9.74365
三法	-9.74375
以不	-9.74385
大師	-9.74526
閻浮提	-9.74665
作如是念	-9.74666
梵志	-9.74667
為因	-9.74671
響	-9.74735
恚	-9.74822
證入	-9.7489
是也	-9.74933
非無	-9.74949
如來所	-9.7499
皆當	-9.75223
此即	-9.75362
優婆塞	-9.7539
說伽陀曰	-9.75429
減	-9.75496
微笑	-9.75584
述云此後	-9.75618
質	-9.75636
申	-9.75639
心者	-9.75702
四住	-9.7576
二法	-9.75839
問言	-9.75935
四曰	-9.75945
寂慧	-9.75997
無差別	-9.76047
波羅蜜多	-9.76083
眾生界	-9.76084
天女	-9.76109
諸善根	-9.76258
至於	-9.76392
無上士	-9.7643
轉輪王	-9.76684
何處	-9.76712
真諦	-9.76853
▁「	-9.76948
見此	-9.77009
有異	-9.77014
殿	-9.77134
而說	-9.77148
欣	-9.77149
剎土	-9.7721
號曰	-9.7723
自知	-9.7726
為我	-9.77345
口業	-9.7738
誓願	-9.77405
充滿	-9.77444
亦無所	-9.77495
非究竟	-9.77508
賢護	-9.77565
為一	-9.77592
無動	-9.77719
是諸	-9.77815
十三	-9.77872
右	-9.77911
當為	-9.78001
如我	-9.78049
行於	-9.78094
無量功德	-9.78135
菩薩如是	-9.78256
說為	-9.78263
男子	-9.78271
驚怖	-9.78276
開化	-9.7834
願生	-9.78355
從此	-9.78363
憙	-9.78389
累	-9.78399
諸魔	-9.78414
樓	-9.78457
遍照	-9.78641
解釋	-9.78665
處處	-9.78673
妻子	-9.78789
阿僧祇	-9.78789
唯除	-9.78817
救護	-9.78833
鬘	-9.78893
鬼	-9.7898
待	-9.79046
妄語	-9.79052
傷	-9.79065
誦	-9.79077
勤苦	-9.79098
轉法輪	-9.79136
意業	-9.79156
會中	-9.79159
化佛	-9.79183
即無	-9.79195
衰	-9.79239
塔	-9.79252
幻化	-9.79255
一切佛法	-9.79278
亦得	-9.79315
期	-9.79359
令諸眾生	-9.79395
得成	-9.79409
懺悔	-9.79446
善業	-9.79451
群生	-9.79666
天中	-9.79775
無知	-9.79926
塗	-9.79973
所住	-9.8001
氣	-9.80209
不取正覺	-9.80229
無住	-9.80274
復次金剛摧	-9.80284
其國	-9.80289
何謂為四	-9.80402
梵王	-9.80414
名稱	-9.80421
種性	-9.80481
若諸菩薩	-9.80527
之德	-9.80596
而言	-9.80682
何者是	-9.80691
諸世間	-9.80713
諸聲聞	-9.80729
不可見	-9.8085
南無	-9.80862
伎樂	-9.80867
彼處	-9.80897
而常	-9.8092
禁	-9.80982
前白佛言	-9.80988
四方	-9.80996
收	-9.8113
南	-9.81179
善行	-9.81208
放光	-9.81258
得道	-9.81292
建	-9.8133
佛菩提	-9.81381
具足成就	-9.81398
財寶	-9.81417
三十二相	-9.81661
若得	-9.81684
?」「	-9.81708
所求	-9.81869
士	-9.81903
說經	-9.81914
八十	-9.81994
憶	-9.82026
吹	-9.82073
遊戲	-9.82149
者即是	-9.82226
世人	-9.82239
徹	-9.82284
端嚴	-9.82311
臺	-9.82315
娑婆	-9.82337
求菩提	-9.82474
手足	-9.82496
十八	-9.82534
床	-9.82574
故須	-9.8258
光照	-9.82608
十一	-9.82632
所居	-9.82644
身體	-9.82656
及彼	-9.82714
赤	-9.8274
依正	-9.8275
四天下	-9.82838
諸天人民	-9.82846
無上道	-9.82876
能說	-9.82885
何因緣	-9.82909
斷除	-9.82932
於佛法中	-9.82948
當有	-9.83047
如其	-9.8305
乃是	-9.831
歷	-9.83156
稽首	-9.83254
諸相	-9.83288
暢	-9.83325
所欲	-9.83326
隨喜	-9.83379
塵勞	-9.83443
十念	-9.83458
捨身	-9.83468
四法	-9.83498
是名菩薩	-9.83504
流布	-9.83554
長夜	-9.83577
如何	-9.83647
請問	-9.83731
慮	-9.83776
得涅槃	-9.83859
亦不可得	-9.8392
常見	-9.83995
其名	-9.84001
者謂	-9.84008
須彌山	-9.84113
其意	-9.8414
旨	-9.84145
應身	-9.84149
如實了知	-9.84186
里	-9.84197
臨	-9.84226
諍	-9.8425
夢中	-9.84299
正觀	-9.84305
薩	-9.84343
於眾生	-9.84439
章門	-9.84505
正受	-9.84731
亦能	-9.84741
哀愍	-9.84842
三身	-9.84881
此土	-9.84914
不共	-9.84936
增上慢	-9.84951
聲聞乘	-9.84966
自性清淨	-9.85053
如是法	-9.85076
何法	-9.85082
者則	-9.85083
思量	-9.85112
優婆夷	-9.85302
九品	-9.85303
勞	-9.85303
無起	-9.85378
血	-9.85418
閉	-9.85428
善趣	-9.85458
自他	-9.85632
妙色	-9.85815
樂聞	-9.85847
又云	-9.85928
前後	-9.8596
無所住	-9.86157
心行	-9.86178
若此	-9.86277
資糧	-9.86352
某	-9.86394
仙	-9.86437
無別	-9.86474
作善	-9.86508
若我	-9.86585
修多羅	-9.86589
不動如來	-9.86605
如人	-9.86618
一句	-9.86635
推	-9.86748
復能	-9.86784
岸	-9.86828
菩薩言	-9.86889
作是思惟	-9.86973
知足	-9.87038
正勤	-9.8708
三業	-9.87141
得佛	-9.87143
深信	-9.87267
善說	-9.87324
居家	-9.8737
七地	-9.87417
登	-9.8744
暗	-9.87461
富	-9.8751
漏盡	-9.87528
譬如有人	-9.87541
蟲	-9.87558
菩薩藏	-9.87567
過患	-9.8759
於未來世	-9.87719
如來所說	-9.87739
娑	-9.87745
說名	-9.87798
有漏	-9.87818
樹下	-9.87878
摩尼寶	-9.87914
國王	-9.87924
諸業	-9.87935
雜染	-9.87963
性故	-9.87966
唯佛	-9.88132
善男子善女人	-9.88305
愍	-9.88479
轉輪聖王	-9.885
臥	-9.88514
殺生	-9.88535
留	-9.88585
交	-9.88605
久住	-9.88608
色身	-9.88626
金色	-9.88709
知見	-9.8871
觀音	-9.88766
加持	-9.88871
勤求	-9.88926
聞佛	-9.89007
滅盡	-9.89122
我身	-9.89218
寂然	-9.89221
不自	-9.89303
大菩提	-9.89314
染污	-9.89393
觀身	-9.89498
瞻仰	-9.8957
淺	-9.89573
念念	-9.89583
忘失	-9.89598
老死	-9.89603
得果	-9.89604
部	-9.89639
兒	-9.8967
亦應	-9.89772
歡喜踊躍	-9.89807
己身	-9.89826
六入	-9.89837
廣明	-9.89866
經言	-9.89883
有五	-9.89901
一切菩薩	-9.89952
聖眾	-9.89964
苦樂	-9.90047
訶	-9.90289
禁戒	-9.90367
是事	-9.90378
姓	-9.90511
心念	-9.90652
諷誦	-9.90667
頂禮佛足	-9.90677
三藏	-9.90678
天下	-9.90812
正士	-9.9082
欲明	-9.9087
不及	-9.90878
真珠	-9.90881
我想	-9.90991
隨念	-9.91164
只	-9.91192
亦當	-9.91203
所為	-9.91238
威力	-9.9126
非一	-9.91391
得名	-9.91542
文殊師利菩薩	-9.91579
行故	-9.91658
逐	-9.91673
所聞	-9.9168
代	-9.91695
階	-9.91767
欺	-9.91798
憂惱	-9.91815
能為	-9.91924
緣生	-9.91976
增益	-9.92002
三有	-9.92099
移	-9.92257
住地	-9.9226
教授	-9.92287
圍繞	-9.92302
一處	-9.92369
度眾生	-9.92375
步	-9.92385
佛知	-9.92494
友	-9.925
逮得	-9.92542
生處	-9.92592
多少	-9.92605
歲	-9.92685
緊那羅	-9.9272
睡眠	-9.92748
不在	-9.92767
亦復不	-9.92852
無厭足	-9.92885
微塵	-9.92901
熾然	-9.9291
或從	-9.92931
纏	-9.92948
舍宅	-9.9295
是諸菩薩	-9.92978
不絕	-9.93
背	-9.93005
諸外道	-9.9312
能斷	-9.93131
無諸	-9.93137
合集	-9.93142
幻師	-9.93269
所觀	-9.93338
而去	-9.93364
供養佛	-9.93372
悉令	-9.93377
幾	-9.93379
時有	-9.93539
是經	-9.93542
八方	-9.93618
皆大歡喜	-9.93644
無等	-9.93662
此之	-9.93792
何謂為	-9.9381
之因	-9.93814
典	-9.93826
義故	-9.93829
寶藏	-9.93834
古	-9.93842
甚難	-9.93894
信樂	-9.93939
如前	-9.93951
呪	-9.9399
周匝	-9.94018
於空	-9.94055
皆能	-9.94057
曲	-9.94082
走	-9.94091
弟	-9.94145
不了	-9.94149
臨終	-9.94187
重擔	-9.94271
例	-9.94285
惡知識	-9.94301
彼諸眾生	-9.94348
我聞	-9.94361
已得	-9.94366
遍滿	-9.94384
摩尼	-9.94418
諸天子	-9.9446
禮敬	-9.94478
覺了	-9.94537
如上	-9.94557
中說	-9.94578
能了知	-9.94582
了義	-9.94684
離垢	-9.9473
五逆	-9.94926
不能得	-9.9496
無取	-9.95081
承事	-9.95081
密迹金剛力士	-9.95145
中有三	-9.9517
微細	-9.95224
故得	-9.95346
入解	-9.95381
无	-9.95422
纏縛	-9.95445
染著	-9.95478
性空	-9.95513
化眾生	-9.95729
欲樂	-9.95814
彼諸菩薩	-9.9585
如是說	-9.95903
無眾生	-9.95914
施主	-9.95954
此翻	-9.95977
彼天	-9.95998
出過	-9.96034
大力	-9.96133
迦樓羅	-9.96136
泥洹	-9.96177
乞	-9.96187
不虛	-9.96244
返	-9.96253
知識	-9.96319
算數	-9.96357
積聚	-9.96394
改	-9.964
託	-9.96419
三十	-9.96477
無量無數	-9.9649
此言	-9.96555
是心	-9.96592
不如	-9.96679
無所取	-9.96765
正說	-9.96935
能作	-9.96966
護持	-9.97089
經法	-9.97213
聚落	-9.97226
為佛	-9.9723
不修	-9.9734
聲聞眾	-9.97357
說者	-9.97373
領	-9.97404
乞食	-9.97432
敬禮	-9.97434
何等為十	-9.97473
為體	-9.97523
勸修	-9.97567
施者	-9.97594
修集	-9.97646
經行	-9.9769
鉢囉	-9.97822
而來	-9.97843
金銀	-9.97845
佛出世	-9.97877
國中	-9.98011
經中	-9.98019
無間	-9.98038
不染	-9.98096
此文	-9.98121
正定	-9.98131
如空	-9.98138
而此	-9.98214
蘇	-9.98292
又以	-9.98387
八法	-9.98441
經文	-9.98471
茲	-9.98521
欣喜	-9.98544
諸欲	-9.98566
怒	-9.98568
差	-9.98601
四天王	-9.98645
三德	-9.98665
麗	-9.98749
汝當	-9.98811
初發心	-9.98834
所說法	-9.9898
諸見	-9.98985
寶蓋	-9.99069
所證	-9.99108
忉利天	-9.99152
損害	-9.99189
功德莊嚴	-9.99217
無形	-9.99332
而作	-9.99342
是為菩薩	-9.99369
以法	-9.99479
時節	-9.99497
不解	-9.995
諸弟子	-9.9956
大迦葉	-9.99598
歎佛	-9.99652
更無	-9.99797
臭	-9.99874
軟	-9.99898
元	-9.999
稱量	-9.99974
出家菩薩	-10.0001
」,	-10.0008
人也	-10.0013
有四種	-10.0014
不隨	-10.0017
為善	-10.003
善心	-10.0033
等心	-10.0039
初中	-10.0044
三毒	-10.0044
極樂世界	-10.0048
毛	-10.0059
議	-10.0063
我我所	-10.0066
大慈悲	-10.0067
轉相	-10.007
禮拜	-10.0081
中道	-10.0084
旋	-10.0084
擊	-10.0087
端	-10.009
是如來	-10.0092
德本	-10.0104
童女	-10.0106
花鬘	-10.0112
願生彼國	-10.0118
慚愧	-10.0123
摧	-10.0124
種類	-10.0131
四住地	-10.0137
無限	-10.0141
知其	-10.0142
速得	-10.0144
無疑	-10.0147
為諸	-10.0162
若彼	-10.0164
或以	-10.0168
即有	-10.0185
無復	-10.0193
偈言	-10.0206
佛者	-10.0206
放大光明	-10.022
無性	-10.0224
宿命	-10.0226
無量百千	-10.0228
至心	-10.023
希	-10.023
呼	-10.023
貢高	-10.023
跋陀羅波梨	-10.0231
今即	-10.0231
行施	-10.0234
作禮	-10.024
凡有	-10.024
上品	-10.0249
摧伏	-10.0251
供養如來	-10.0256
不二	-10.027
如幻化	-10.0271
作如是	-10.0272
散亂	-10.0274
之想	-10.0275
寺	-10.0278
愛著	-10.0281
難可	-10.0285
得清淨	-10.0304
無行	-10.0305
遙	-10.0305
五濁	-10.0311
身見	-10.0312
此法門	-10.0314
生歡喜	-10.0321
於世	-10.0323
言語	-10.0324
一佛	-10.0328
令人	-10.0331
阿僧祇劫	-10.0331
未盡	-10.0346
般泥洹	-10.0348
震動	-10.035
田	-10.0355
諸經	-10.0355
云何得	-10.0355
無處	-10.0356
若法	-10.0366
知彼	-10.0367
預	-10.0368
超越	-10.0374
壽量	-10.0376
招	-10.0381
眾多	-10.0386
猛	-10.0388
不忘	-10.0389
而為說法	-10.0389
妙慧	-10.039
頂禮	-10.0393
得無生忍	-10.041
黃金	-10.0411
惡友	-10.0415
若爾	-10.0416
所有眾生	-10.0424
希求	-10.0425
復於	-10.0425
第十	-10.0427
菩提者	-10.0438
吾我	-10.0441
眾生故	-10.0452
是菩薩行	-10.0453
是故我	-10.0461
當生	-10.0468
有作	-10.0474
作業	-10.0476
大乘菩薩藏正法經	-10.0478
如意	-10.0482
共相	-10.0486
風界	-10.0486
志求	-10.0488
安慰	-10.049
沙門婆羅門	-10.049
摩尼珠	-10.0492
卷	-10.0494
喜悅	-10.05
作是言	-10.05
又於	-10.051
道法	-10.0535
受苦	-10.0539
王舍城	-10.0544
所須	-10.0545
受者	-10.0546
給	-10.0547
餘人	-10.0552
我以	-10.0558
得阿耨多羅三藐三菩提	-10.0559
瓶	-10.0561
在前	-10.057
哩	-10.0594
玄	-10.0603
依報	-10.0608
寄	-10.0613
十二因緣	-10.0618
不可計	-10.0619
東	-10.0623
於一切眾生	-10.0625
述云此第二	-10.0626
帝王	-10.0634
所應	-10.0638
前際	-10.065
熾盛	-10.0653
有此	-10.0661
謂於	-10.0671
請佛	-10.0677
無所畏	-10.0681
講	-10.0682
若諸眾生	-10.0686
柱	-10.0687
不相應	-10.0689
諸善	-10.0697
徒	-10.0697
義利	-10.0703
魔業	-10.0705
阿彌陀	-10.0712
內心	-10.0715
遊行	-10.0718
妙音	-10.072
斷諸	-10.0721
為大	-10.0723
納	-10.0732
皆從	-10.0742
若住	-10.0752
是等	-10.0754
利根	-10.076
天眾	-10.0762
願佛	-10.0762
依於	-10.0768
後際	-10.077
法忍	-10.0772
於一切處	-10.0784
滅故	-10.0791
無色界	-10.0792
化他	-10.0799
又彼	-10.08
況復	-10.0803
展轉	-10.0803
六波羅蜜	-10.0805
勇猛精進	-10.0812
所現	-10.0814
至真	-10.0827
眾惡	-10.0827
入涅槃	-10.0828
八地	-10.083
善本	-10.0833
而現	-10.0837
月光	-10.0838
苦集	-10.0846
術	-10.0847
與我	-10.085
如是思惟	-10.0852
我作佛時	-10.0852
或見	-10.0855
韋提希	-10.086
焉	-10.0868
之者	-10.087
惠	-10.0871
此說	-10.0873
波旬	-10.0874
準	-10.0875
虛偽	-10.0875
常為	-10.0881
犯戒	-10.0883
我是	-10.0883
未曾有	-10.0885
亦云	-10.0895
勝義	-10.0901
人身	-10.0904
四明	-10.0915
教令	-10.092
十七	-10.0921
惡心	-10.0923
詮	-10.0936
後明	-10.0938
所可	-10.0938
貴	-10.0949
陀羅尼門	-10.0954
若聞	-10.0961
無上正真道	-10.0966
蔽	-10.0971
王宮	-10.098
虛空界	-10.0981
一相	-10.0981
而自	-10.0983
鐵	-10.0993
事故	-10.0997
防	-10.0997
舊	-10.0998
輒	-10.0998
靈	-10.1
不生不滅	-10.1002
於汝意云何	-10.1002
空無	-10.1005
野	-10.1008
園林	-10.1008
忍力	-10.1012
說是	-10.1012
或有眾生	-10.1013
受記	-10.1016
無礙智	-10.1024
妙花	-10.1025
如夢	-10.103
數數	-10.1031
思議	-10.1033
是身	-10.1036
立名	-10.1047
今者	-10.1056
永離	-10.1058
作證	-10.1067
須菩提言	-10.1071
為作	-10.1073
畜	-10.1075
於一	-10.1075
天王	-10.1078
一切善根	-10.108
天宮	-10.1084
踊躍	-10.1096
赴	-10.1099
又此	-10.11
為相	-10.11
是菩薩摩訶薩	-10.1102
生信	-10.1115
精勤	-10.1119
上上	-10.112
與彼	-10.1124
善住意天子	-10.1129
原	-10.1129
亦皆	-10.1131
此識	-10.1131
呵	-10.1133
云何菩薩摩訶薩	-10.1134
意識	-10.1135
侍者	-10.1136
開士	-10.1136
親友	-10.114
利樂	-10.1141
行人	-10.1149
都無	-10.1152
同一	-10.1153
八萬	-10.1154
是一	-10.1164
無所緣	-10.1165
四十	-10.1172
敢	-10.1175
天帝	-10.118
今我	-10.118
中生	-10.1182
五十	-10.1184
無所依	-10.1201
念處	-10.1203
應修	-10.1206
六萬	-10.1207
五根	-10.1213
魔波旬	-10.1214
於諸法中	-10.1217
於佛所	-10.1236
兵	-10.1237
音響	-10.124
唱	-10.1241
此乘	-10.1242
初識	-10.1244
過於	-10.125
吼	-10.1252
一切佛	-10.1258
瞋怒	-10.1264
願終不	-10.1276
佛所說	-10.1277
復有四法	-10.1292
發意	-10.1299
聞之	-10.1299
罵	-10.13
尊特	-10.1301
苦行	-10.1301
剎中	-10.1306
色像	-10.1309
王位	-10.1312
欲使	-10.1316
了達	-10.1317
能見	-10.1317
投	-10.1318
即知	-10.1321
最後	-10.1325
免	-10.1326
左	-10.1327
不究竟	-10.1334
惡口	-10.1334
無量壽經	-10.1347
深妙	-10.1349
化人	-10.1362
空法	-10.1362
得不退轉	-10.1382
迎	-10.1386
當以	-10.1389
奢摩他	-10.1395
以自	-10.1395
爾時世尊而說偈言	-10.1396
一切功德	-10.1396
習氣	-10.1398
慳悋	-10.1401
能信	-10.1407
瞋恨	-10.1408
論云	-10.1419
或時	-10.1419
如是一切	-10.1421
善住	-10.1423
何有	-10.1425
曜	-10.1428
惡行	-10.1428
利益眾生	-10.1429
彼菩薩	-10.1436
斷滅	-10.1441
是故言	-10.1448
不得是	-10.1449
戲	-10.1461
生已	-10.147
不入	-10.1475
無非	-10.1483
此則	-10.1483
雜色	-10.1491
清淨心	-10.1497
五百人	-10.1503
不成	-10.1504
說頌曰	-10.1507
趣入	-10.1509
軍	-10.1513
靡不	-10.1517
特	-10.1519
明佛	-10.152
願求	-10.1521
檀	-10.1526
妙樂	-10.1529
如汝所說	-10.1531
曠野	-10.1533
摩訶迦葉	-10.1535
狐疑	-10.1536
打	-10.1536
上明	-10.1541
承佛威神	-10.1543
於後	-10.155
一生	-10.155
五蘊	-10.1552
何名	-10.1552
佛功德	-10.157
無滅	-10.1576
其數	-10.1586
不違	-10.1594
護法	-10.1594
初又有	-10.1596
炎	-10.1601
兩舌	-10.1604
有其	-10.1604
為眾生	-10.1614
恣	-10.1615
亦以	-10.1623
本際	-10.1629
四攝	-10.1633
解云	-10.1634
廣釋	-10.1635
法行	-10.1635
之果	-10.1638
能持	-10.1638
水界	-10.1642
少欲	-10.1652
佛德	-10.1654
不然	-10.1654
但是	-10.1656
能以	-10.1656
寂意	-10.1657
誑	-10.1664
充	-10.1664
不亂	-10.1666
即生	-10.1666
諍訟	-10.1678
遭	-10.168
佛告舍利弗	-10.1681
啟	-10.1682
脈	-10.1683
前世	-10.1685
發生	-10.1685
耽著	-10.1686
於大眾中	-10.1687
求道	-10.1688
乖	-10.169
乳	-10.169
人所	-10.169
准	-10.1691
於阿耨多羅三藐三菩提	-10.1699
得自在	-10.1699
污	-10.1704
隨逐	-10.1706
大精進	-10.1707
生淨信	-10.1709
十千	-10.1709
皆以	-10.1711
北	-10.1713
生起	-10.1717
三千	-10.172
大哀	-10.172
義也	-10.1725
非我	-10.1725
此方	-10.1733
善調伏	-10.1734
頗梨	-10.1737
漸次	-10.1741
而於	-10.1742
以何	-10.1744
普現	-10.1753
愛敬	-10.1756
或現	-10.1757
為令	-10.1769
不墮	-10.1777
為得	-10.1785
空寂	-10.1786
苦滅	-10.1789
不欲	-10.1795
普照	-10.1796
是故如來	-10.1797
無量清淨佛	-10.1798
見有	-10.1802
牙	-10.1806
文中	-10.1807
悉得	-10.1808
星	-10.1811
若依	-10.1821
菩薩道	-10.1823
伴	-10.1827
語業	-10.1828
我不	-10.1829
此章	-10.183
闕	-10.183
以一	-10.183
次釋	-10.1831
勢力	-10.1848
作是說	-10.1852
愚人	-10.1852
當作	-10.1854
法施	-10.1858
彼佛國土	-10.186
婬	-10.1863
下品	-10.1868
一體	-10.1873
得陀羅尼	-10.1885
涅槃界	-10.1903
之本	-10.1904
除滅	-10.1905
如來身	-10.1906
若言	-10.1906
解脫門	-10.1908
左右	-10.1913
現身	-10.1915
不空	-10.1922
於時	-10.194
心住	-10.1943
珍	-10.1944
分明	-10.1945
云何名	-10.1945
那由他	-10.1948
行相	-10.195
根性	-10.1953
非也	-10.1958
現微笑	-10.1961
正報	-10.1962
涌	-10.1963
空性	-10.1965
遶	-10.1968
獸	-10.1969
逼迫	-10.1975
所念	-10.1982
無得	-10.1983
大乘經	-10.1988
為說法	-10.1991
輕慢	-10.1994
之眾	-10.1999
入一乘	-10.2008
稱歎	-10.2017
諸界	-10.2019
所樂	-10.2026
不出	-10.203
斷見	-10.2031
動搖	-10.2033
膝	-10.2033
得大	-10.2036
清淨故	-10.2051
於眼	-10.2052
理趣	-10.2053
露	-10.2055
如佛所說	-10.2064
於佛法	-10.2068
大導師	-10.2078
供養諸佛	-10.2078
五百比丘	-10.2078
若菩薩	-10.2088
有所得	-10.2088
想念	-10.2088
獄	-10.2089
天魔	-10.2092
善解	-10.2093
設我得佛	-10.2094
生身	-10.2102
顏	-10.2105
隨轉	-10.2106
伺察	-10.211
作此	-10.2112
損減	-10.2113
綺語	-10.2115
見聞	-10.2117
欺誑	-10.2122
報恩	-10.2123
委	-10.2129
等無有異	-10.2134
盡智	-10.2135
始終	-10.2135
不令	-10.2139
欲求	-10.214
生時	-10.2145
懼	-10.2151
其光	-10.216
專念	-10.2161
第九	-10.2162
以何義故	-10.2163
三品	-10.2166
負	-10.2169
之地	-10.2173
修因	-10.2175
種種莊嚴	-10.2176
行布施	-10.2183
一切智智	-10.2184
觀行	-10.2197
而白佛言	-10.2203
言教	-10.2218
未來世	-10.2219
但為	-10.222
得往生	-10.2225
劫中	-10.2228
是故名為	-10.223
受想行識	-10.2231
默	-10.2233
為人	-10.224
成辦	-10.2241
恨	-10.2249
思想	-10.225
狂	-10.2256
宅	-10.226
志願	-10.2261
繞	-10.2263
漸漸	-10.2267
幽	-10.2269
逢	-10.2269
嬰兒	-10.2271
穢土	-10.2271
若復有人	-10.2276
付	-10.2276
無數劫	-10.2276
若是	-10.2278
諸天眾	-10.2278
不爾	-10.2279
希望	-10.228
孔	-10.2281
多所	-10.2286
若善男子善女人	-10.2295
諸大眾	-10.2316
經道	-10.2318
實無	-10.2321
隨時	-10.2322
為本	-10.2325
由彼	-10.2335
形色	-10.2336
空故	-10.2345
教化眾生	-10.2347
行法	-10.235
何等四	-10.236
所有一切	-10.2363
辦	-10.2365
於身	-10.2365
大法	-10.2365
無邊際	-10.2369
護國	-10.2383
遷	-10.2385
生彼國	-10.2388
臥具	-10.2392
魔事	-10.2395
是故得生	-10.2395
阿閦佛	-10.2404
香花	-10.2404
悕望	-10.2404
為二	-10.2407
何不	-10.2409
勇健	-10.2413
優	-10.2413
瞻	-10.2413
令他	-10.2419
人中尊	-10.2421
不相	-10.2427
六處	-10.2429
聖者	-10.2431
弊	-10.2435
嫉	-10.2439
十億	-10.244
便得	-10.2441
離相	-10.2444
說有	-10.2454
於菩提	-10.2465
必有	-10.2469
成佛道	-10.2474
此三千大千世界	-10.2476
知是	-10.2478
何緣	-10.248
八種	-10.2489
今言	-10.2491
更有	-10.2494
能除	-10.2498
毀謗	-10.2512
大智慧	-10.2514
今經	-10.252
所致	-10.2526
蓮	-10.2534
之體	-10.2538
菩薩亦爾	-10.2541
為是	-10.2548
自有	-10.2557
落	-10.2559
營	-10.256
法音	-10.2564
常有	-10.2564
眠	-10.2564
渴	-10.2565
閻浮	-10.2566
截	-10.2568
繩	-10.2569
如是了知	-10.2569
娛樂	-10.2569
急	-10.2571
在虛空中	-10.2571
有無	-10.2573
厚	-10.2576
及其	-10.2577
二見	-10.2582
花果	-10.2583
而作是言	-10.2595
良	-10.2598
得入	-10.2599
一日	-10.2604
威光	-10.2606
果也	-10.2608
識界	-10.2609
白佛	-10.2611
地上	-10.2612
知一切法	-10.2613
所造	-10.2618
所在	-10.2623
眾緣	-10.2624
三塗	-10.2625
淨穢	-10.2628
往彼	-10.2634
有佛	-10.2635
生愛樂	-10.2636
成熟眾生	-10.264
彼即	-10.2642
得益	-10.2646
樹林	-10.2649
不可盡	-10.2654
空智	-10.2654
照曜	-10.2654
無念	-10.266
入城	-10.2666
為緣	-10.2668
捨於	-10.2672
何等為	-10.2676
隨其所	-10.2679
依此	-10.2679
值遇	-10.2684
奉持	-10.2692
常修	-10.2698
歌	-10.2703
因緣故	-10.2703
擲	-10.272
善思念之	-10.272
常得	-10.2721
能觀	-10.2721
虛誑	-10.2721
而為上首	-10.2722
須臾	-10.2722
臭穢	-10.2724
防護	-10.2727
敷演	-10.2728
不可得故	-10.2728
盜	-10.2732
縱廣	-10.2737
若修	-10.2737
述云此第三	-10.2738
釋言	-10.2738
傍生	-10.2739
驗	-10.2744
第二從	-10.2747
師子座	-10.2752
第一義諦	-10.2755
豈非	-10.2757
罪業	-10.2757
胎生	-10.2759
言詞	-10.2762
豈不	-10.2763
何等名為	-10.2764
菩提分法	-10.2766
以下明	-10.2767
成阿耨多羅三藐三菩提	-10.2767
乏	-10.2775
云何菩薩	-10.2777
二萬	-10.2781
三輩	-10.2787
得人身	-10.2789
捉	-10.2791
是我	-10.2793
此乃	-10.2794
以是因緣	-10.2796
叉手	-10.28
不貪	-10.2802
天耳	-10.2807
唯然	-10.2811
事業	-10.2813
栴檀	-10.2813
言辭	-10.2817
牽	-10.2819
隨入	-10.282
須摩提	-10.2833
十善	-10.2833
五戒	-10.2843
常懷	-10.2844
佛為	-10.2848
於十方	-10.285
疑網	-10.2854
不須	-10.2855
上首	-10.2857
得此	-10.2864
成道	-10.2865
醫	-10.2866
慈氏	-10.2866
頭面禮足	-10.2868
到彼岸	-10.2873
優波離	-10.2874
我復有	-10.2877
穀	-10.2878
玉	-10.2881
釋提桓因	-10.2884
怨家	-10.2885
為其	-10.2886
奏	-10.2887
試	-10.289
兄	-10.2891
願也	-10.2893
訓	-10.2894
不懷	-10.2897
之理	-10.2897
人間	-10.2897
佛時	-10.2898
父子	-10.2898
曩	-10.2904
不肯	-10.2905
滅除	-10.2909
心如	-10.2916
後結	-10.2916
離一切	-10.2923
恒河沙	-10.2923
復為	-10.2928
無緣	-10.294
山王	-10.2943
世世	-10.2957
戒行	-10.2963
是大	-10.2969
各異	-10.297
斯等	-10.2971
報應	-10.2973
三願	-10.2982
佛前	-10.2986
初標	-10.2989
身中	-10.2989
輪王	-10.299
先明	-10.2998
十方諸佛	-10.3002
是常	-10.3002
作諸	-10.3004
飛	-10.3006
多劫	-10.3012
覺分	-10.3012
上煩惱	-10.3014
博	-10.3023
墜	-10.3028
注	-10.3031
放光明	-10.3033
修菩薩行	-10.3035
能成就	-10.3037
起行	-10.3039
墮落	-10.3041
碎	-10.3042
能行	-10.3042
此以何義	-10.3043
車𤦲	-10.3043
殖	-10.3044
最尊	-10.3044
劇	-10.3045
門者	-10.3045
告溥首	-10.3046
飢渴	-10.3047
錯	-10.3047
悉知	-10.3048
塗香	-10.3048
君	-10.3056
飯食	-10.3059
若在	-10.3065
教誨	-10.3066
殺害	-10.3074
慧力	-10.3083
生故	-10.3085
唯願世尊	-10.309
以諸	-10.3098
五惡	-10.3099
還復	-10.3102
次辨	-10.3104
百千億	-10.3104
補特伽羅	-10.3112
佛告彌勒	-10.3114
得無生法忍	-10.3117
智故	-10.3121
經者	-10.3123
為四	-10.3125
智人	-10.3132
善人	-10.3132
行也	-10.3134
詐	-10.3136
於人	-10.3137
堪任	-10.3138
於三界	-10.3139
瑞	-10.3149
猶若	-10.3149
求於	-10.315
佛名	-10.3151
信者	-10.3152
耳鼻舌身意	-10.3158
然此	-10.3164
發趣	-10.3164
不識	-10.3166
不犯	-10.3169
受樂	-10.3177
植	-10.3198
非實	-10.3202
右膝著地	-10.3205
之教	-10.3206
仁賢	-10.3207
將欲	-10.3208
黑闇	-10.3209
廢	-10.321
作如是說	-10.3215
富貴	-10.3219
瞋心	-10.3221
種姓	-10.3222
清淨戒	-10.3227
貫	-10.3228
可觀	-10.3236
分齊	-10.3236
常以	-10.324
若其	-10.3241
智也	-10.3248
化身	-10.3254
法僧	-10.3262
現證	-10.3265
寶幢	-10.3267
六道	-10.3274
道德	-10.3281
勝解	-10.3283
變異	-10.3285
當作佛	-10.3287
形像	-10.3294
頗	-10.33
無窮	-10.3302
於生死	-10.3304
婦	-10.3306
即有其	-10.3307
說之	-10.3311
遺	-10.3318
從是	-10.3319
其地	-10.3321
一切法無	-10.3326
諸法無	-10.3339
婇女	-10.3339
與諸	-10.3347
麥	-10.335
世諦	-10.3352
大道	-10.3353
及諸菩薩	-10.3356
等故	-10.3356
慧眼	-10.3357
或云	-10.3359
調御丈夫	-10.3363
遵	-10.3364
三義	-10.3364
誡	-10.3365
明行足	-10.3365
恐懼	-10.3366
一日一夜	-10.3369
能破	-10.3372
停	-10.3374
不具	-10.3376
樂法	-10.3376
蛇	-10.3382
波斯匿王	-10.3383
別明	-10.3384
如須彌山	-10.3386
淳	-10.3388
去來	-10.3389
住世	-10.339
所持	-10.3392
馱	-10.3392
伏藏	-10.3394
行菩薩行	-10.3396
牛王	-10.3397
受身	-10.3399
佛地	-10.3399
勸助	-10.34
甘	-10.3401
衣食	-10.3411
大悲心	-10.3411
堂	-10.3412
能滅	-10.3416
就文為	-10.342
不能知	-10.3424
由斯	-10.3428
大城	-10.3431
數量	-10.3431
資生	-10.3432
淨業	-10.3441
難思	-10.3442
眾善	-10.3445
大德舍利弗	-10.3464
處所	-10.347
一切人	-10.3473
索	-10.3479
有無量	-10.3487
三諦	-10.3504
在此	-10.3507
四聖諦	-10.3508
肩	-10.351
摩睺羅伽	-10.351
釋之	-10.3511
萬二千	-10.3513
到已	-10.3514
諸餘	-10.3515
日光	-10.3516
浮	-10.3526
住持	-10.353
阿闍梨	-10.3536
沈	-10.3538
優陀夷	-10.3541
歌舞	-10.3542
慶	-10.3542
狗	-10.3544
災	-10.3545
經論	-10.3546
避	-10.3548
每	-10.355
精舍	-10.3552
藉	-10.3556
法也	-10.3558
無所作	-10.3558
適悅	-10.356
從彼	-10.3561
二諦	-10.3564
即為宣說	-10.3567
其聲	-10.3569
道中	-10.357
無所行	-10.3571
徒眾	-10.3573
風吹	-10.3573
安置	-10.3576
念佛三昧	-10.3579
述云第二	-10.3582
自體	-10.3584
藥叉	-10.3589
形相	-10.3592
勤行	-10.3593
於道	-10.3596
生大	-10.3597
我不說	-10.36
邪行	-10.3601
二義	-10.3601
善修	-10.3606
志樂	-10.3616
諸善男子	-10.3626
戀	-10.3626
山林	-10.3628
無自性	-10.3635
敬重	-10.364
諸人	-10.3641
劫數	-10.3641
十劫	-10.3643
十九	-10.3662
若復	-10.3665
各自	-10.367
映	-10.3672
不受後有	-10.3674
五明	-10.3682
言音	-10.3683
猶如虛空	-10.3687
無生忍	-10.369
造惡	-10.3702
如是舍利子	-10.3707
授與	-10.3713
飢	-10.3716
瘡	-10.3717
豪	-10.3718
兄弟	-10.3718
割	-10.3718
不惜身命	-10.3722
洗	-10.3722
睡	-10.3723
解脫知見	-10.3725
無戲論	-10.3725
摩訶衍	-10.3727
阿閦如來	-10.3728
民	-10.3728
盲	-10.3728
閑	-10.373
庶	-10.373
三地	-10.3734
眼見	-10.3735
現神變	-10.3736
或生	-10.3737
吉	-10.3737
相者	-10.3742
其性	-10.3742
身光	-10.3744
諸惡趣	-10.3744
若如是者	-10.3745
不覺	-10.3746
修諸	-10.3746
三解脫門	-10.3747
麼	-10.3747
天帝釋	-10.3747
法相	-10.375
一切種智	-10.3755
見我	-10.3757
梵云	-10.3763
行願	-10.3763
名增上慢	-10.3764
陀曰	-10.3764
所趣	-10.3766
菩薩大士	-10.3772
成就如是	-10.3779
幢幡	-10.3783
隨彼	-10.3784
未聞	-10.3785
六根	-10.3786
未生	-10.3788
是無常	-10.3797
當於	-10.3804
族	-10.3804
眾生心	-10.3804
竭	-10.3808
即起	-10.3812
墮惡道	-10.3818
能與	-10.3818
是故當知	-10.3824
不足	-10.3824
以佛	-10.3824
作惡	-10.383
梵音	-10.383
所獲	-10.3835
無減	-10.3842
諸佛所	-10.3844
覆藏	-10.3846
因中	-10.3862
無依	-10.3873
後一	-10.3878
一切善法	-10.3878
所作已辦	-10.388
問答	-10.3881
又非處者	-10.3884
譏	-10.3888
鬪諍	-10.3888
倚	-10.3889
毘琉璃	-10.3889
尸	-10.389
羅網	-10.389
大慧	-10.3892
甲	-10.3892
召	-10.3893
不正	-10.3893
人法	-10.3893
佛教	-10.3894
知之	-10.3895
與之	-10.3897
書寫	-10.3897
剋	-10.3897
冷	-10.3898
舒	-10.39
諸大	-10.3901
脩	-10.3901
觀彼	-10.3903
朝	-10.3906
讀	-10.3908
如來法身	-10.3911
船	-10.3917
悲心	-10.3918
命根	-10.3922
大會	-10.3923
即見	-10.3925
說法者	-10.3926
中輩	-10.3929
偏袒右肩	-10.3931
彼佛剎中	-10.3931
以來	-10.3937
遠離於	-10.3941
法眼	-10.3942
不用	-10.3945
總舉	-10.3945
不轉	-10.3945
釋梵	-10.3947
知者	-10.3947
勝事	-10.3948
即此	-10.3949
教人	-10.395
我成佛	-10.3954
釋種	-10.3955
化主	-10.3962
大明	-10.3964
復過	-10.3972
能成	-10.3974
護念	-10.3979
百千劫	-10.3986
比丘僧	-10.3988
業道	-10.3988
妙觀	-10.3993
表示	-10.3994
又言	-10.3998
所出	-10.4003
尊者阿難	-10.4007
復次自夢	-10.401
所愛	-10.4013
天龍	-10.4016
驚	-10.402
清涼	-10.4022
愛語	-10.4023
從佛	-10.4024
三人	-10.4028
無上正真之道	-10.4028
已生	-10.4029
詞	-10.4032
修梵行	-10.4033
離煩惱	-10.4034
報身	-10.4035
無學	-10.4042
隨心	-10.4045
菩薩乘	-10.4048
勤精進	-10.4053
是眼	-10.406
其上	-10.4062
從其	-10.4062
無生無滅	-10.4065
有十	-10.4065
非可	-10.4066
善住意言	-10.4067
恭敬供養	-10.4068
究	-10.4069
齒	-10.4071
務	-10.4072
欲心	-10.4072
即從座起	-10.4073
競	-10.4076
寒	-10.4078
如是乃至	-10.408
親屬	-10.4081
華嚴	-10.4083
次名	-10.4083
菩薩眾	-10.4083
忽然	-10.4085
諫	-10.4089
虎珀	-10.409
資具	-10.4092
神通力	-10.4101
影像	-10.4104
願說	-10.4105
奇特	-10.4106
法器	-10.4111
照明	-10.4113
就中	-10.4121
一偈	-10.4128
功德者	-10.4131
鏡	-10.4131
其土	-10.4132
合掌恭敬	-10.4146
無可	-10.4146
所施	-10.4149
眾德	-10.4152
盡故	-10.4161
其相	-10.4161
成滿	-10.4162
不名	-10.4163
悋	-10.4165
生盲	-10.4169
惡魔	-10.4176
病人	-10.4179
何人	-10.4179
精進力	-10.4191
正思惟	-10.4194
化度	-10.4197
不相違	-10.4199
以諸菩薩	-10.4202
令此	-10.4205
無所見	-10.4208
中無	-10.421
二人	-10.4216
行中	-10.4219
憎	-10.4224
問佛	-10.4225
金剛手菩薩大祕密主	-10.4227
同居	-10.4232
鈍	-10.4235
之上	-10.4242
煩	-10.4243
憒閙	-10.4245
畫	-10.4246
禽獸	-10.4248
高下	-10.4249
簡擇	-10.4249
噉	-10.4249
憎嫉	-10.425
殊特	-10.4251
佛眼	-10.4255
偷盜	-10.4257
邪婬	-10.4258
角	-10.426
萬行	-10.4261
中品	-10.4261
而悉	-10.4262
誰為	-10.4265
總明	-10.4265
我昔	-10.4265
薄伽梵	-10.4267
即佛	-10.4268
電	-10.4271
無量劫	-10.4276
作大	-10.4289
諸凡夫	-10.4291
身口意業	-10.4293
合成	-10.4293
法輪	-10.4298
今當	-10.4298
因緣和合	-10.4302
即得往生	-10.4307
當復	-10.431
人眾	-10.4311
火界	-10.4311
奉施	-10.4312
別體	-10.4316
無所生	-10.4318
二百	-10.4322
之物	-10.4323
切	-10.4328
如是諸	-10.4329
和雅	-10.4345
誰能	-10.4347
一字	-10.4358
求法	-10.436
華香	-10.4366
聞如是	-10.4367
不遠	-10.4367
既是	-10.437
』	-10.437
不觀	-10.4374
香華	-10.438
臨命終時	-10.4382
續	-10.4385
搖	-10.4387
長老	-10.4389
狀	-10.4389
必當	-10.4394
不能了知	-10.4394
中有四	-10.4397
何得	-10.4399
卿	-10.4406
一種	-10.4409
俱胝劫	-10.441
所不能	-10.4412
澤	-10.4422
悉無	-10.4425
文云	-10.4428
徵	-10.4432
鎧	-10.4433
耆闍崛山	-10.4433
飯	-10.4434
是究竟	-10.4437
勝也	-10.4437
同時	-10.4438
提婆達多	-10.4438
自見	-10.4438
何等為五	-10.4439
祇	-10.4441
濕	-10.4441
一切大眾	-10.4443
奉事	-10.4444
不共佛法	-10.4446
開導	-10.4447
酬	-10.4447
經說	-10.4447
昏	-10.4449
單	-10.4451
次有佛名	-10.4451
樹木	-10.4453
長短	-10.4455
無失	-10.4455
善根力故	-10.4456
違背	-10.4459
如來以	-10.4462
波羅	-10.4464
所覆	-10.4475
自心	-10.4479
二釋	-10.4479
逼惱	-10.4479
有緣	-10.4481
一味	-10.4484
魔王	-10.449
大王當知	-10.4491
至于	-10.4494
今欲	-10.4495
有八	-10.4496
不厭	-10.4498
汝觀	-10.4502
一諦	-10.4502
自說	-10.4504
如是受持	-10.4507
聞經	-10.451
二句	-10.4519
勸請	-10.4521
普為	-10.4522
得是	-10.4526
若為	-10.4526
非色	-10.4527
一切世界	-10.4531
假令	-10.4531
亦不見	-10.4533
諸大菩薩	-10.4536
若非	-10.4539
正信	-10.4541
有八萬四千	-10.4546
染愛	-10.4547
有如是	-10.4551
應說	-10.4554
般涅槃	-10.4555
二邊	-10.4559
復次寂慧	-10.4559
求佛	-10.4559
之類	-10.456
行菩薩道	-10.4565
冠	-10.4572
無放逸	-10.458
悲愍	-10.4586
如水	-10.4592
稱為	-10.4594
五百歲	-10.4596
可愛	-10.4596
便生	-10.4597
諸群生	-10.4601
彼彼	-10.4602
長者子	-10.4603
缺	-10.4603
唐	-10.4605
復問	-10.4607
菩薩摩訶薩行尸羅波羅蜜多時	-10.4615
行菩薩	-10.4618
載	-10.4621
校	-10.4621
工巧	-10.4621
若說	-10.4621
偽	-10.4623
馬瑙	-10.4624
婬怒癡	-10.4629
毀呰	-10.4629
夏	-10.4629
盧	-10.463
菩薩摩訶薩以	-10.4632
烏	-10.4633
為證	-10.4634
怪	-10.4634
尾	-10.4639
羅漢辟支	-10.4639
無疑惑	-10.4639
能捨	-10.464
常當	-10.4652
聖教	-10.4653
昔日	-10.4654
前三	-10.4671
善學	-10.4681
修治	-10.4682
之聲	-10.4686
甚多	-10.4688
何為	-10.4694
一云	-10.4695
光明照	-10.4696
我已	-10.4697
不敢	-10.4703
為諸菩薩	-10.4704
諍論	-10.4712
墮地獄	-10.4719
遙見	-10.4719
緣故	-10.472
已上	-10.4723
志性	-10.4726
中出	-10.4728
利益安樂	-10.4731
無退	-10.4741
彼無	-10.4742
殃	-10.4744
則非	-10.4744
生天	-10.4745
諸龍	-10.4746
病苦	-10.4747
是初地	-10.4753
常生	-10.4768
斷常	-10.4781
我能堪任	-10.4781
與佛	-10.4782
或聞	-10.4785
人乎	-10.4785
諸苦惱	-10.4786
汝應	-10.4788
身口意	-10.479
斷絕	-10.4793
勝法	-10.4796
舍衛	-10.4797
得無垢女	-10.4798
虛空中	-10.48
謝	-10.4801
因此	-10.4803
傍	-10.4807
爾時世尊欲重宣此義而說頌曰	-10.4809
諸眾生等	-10.4812
牢獄	-10.4812
南西北方四維上下	-10.4813
兩足尊	-10.4815
所以然者	-10.4815
豐	-10.4817
彼眾生	-10.4817
不可稱計	-10.4818
赫	-10.4819
彰其	-10.4819
保	-10.4819
刀杖	-10.4819
魚	-10.482
而發趣	-10.482
隔	-10.4822
傾	-10.4823
其餘	-10.4834
欣樂	-10.4837
豈異	-10.4839
在彼	-10.4844
電得	-10.4847
實性	-10.485
常念	-10.4852
貌	-10.4862
合會	-10.4868
欲見	-10.4877
歡	-10.4877
自下第二	-10.4879
自歸	-10.4882
永斷	-10.4884
樂於	-10.4885
告言	-10.4886
甚深法	-10.4887
不滿	-10.4887
而非	-10.4891
慳貪	-10.49
普令	-10.4901
三名	-10.4901
諸善法	-10.4917
住者	-10.492
第三明	-10.4923
華鬘	-10.4926
方得	-10.4926
因也	-10.4931
測	-10.4935
為物	-10.4937
無有能	-10.494
勝於	-10.4943
菩薩成就	-10.4956
心清淨	-10.4956
劍	-10.4961
如是菩薩	-10.4965
樂著	-10.4967
佛乘	-10.4968
菩提分	-10.497
下至	-10.4971
北方	-10.4973
醫藥	-10.4974
如是名為	-10.4975
末香	-10.4985
於正法	-10.4989
瞿曇	-10.4993
無有異	-10.4994
并諸	-10.4996
或為	-10.4999
空界	-10.5003
無生滅	-10.5003
無與等	-10.5003
刺	-10.5005
開解	-10.5006
為利	-10.5007
奴婢	-10.5009
種族	-10.5009
皮	-10.501
愈	-10.5011
若不爾者	-10.5013
願樂欲聞	-10.5016
獻	-10.5017
毘尼	-10.5019
恃	-10.502
療	-10.5021
房	-10.5021
跡	-10.5022
大富	-10.5022
履	-10.5023
修羅	-10.5028
除斷	-10.5028
空閑	-10.503
仍	-10.5032
或在	-10.5034
菩薩成就四法	-10.5036
復說	-10.5037
第三從	-10.5043
平等心	-10.5047
尊貴	-10.5048
以此善根	-10.505
故今	-10.5053
不愛	-10.5054
亦為	-10.5054
而行布施	-10.5056
又二	-10.5058
果德	-10.5061
能忍	-10.5064
婬欲	-10.5068
學者	-10.5068
佛之	-10.5073
罪福	-10.5073
諸法性	-10.5074
二十五	-10.5074
我於爾時	-10.5075
百千萬億	-10.5079
最初	-10.5086
金寶	-10.509
弘誓	-10.5098
三惡道	-10.5104
其體	-10.5107
妙香	-10.5109
林中	-10.5113
大光明	-10.5117
良以	-10.5119
諸患	-10.512
教法	-10.512
萬歲	-10.5129
或名	-10.5131
本末	-10.5133
天主	-10.5138
將護	-10.5139
其佛	-10.5142
明智	-10.5143
見是	-10.5144
五道	-10.5146
光色	-10.5157
於此法中	-10.5158
寂定	-10.5163
正智	-10.5165
有諸	-10.5167
菩薩所	-10.5171
遍知	-10.5175
有是	-10.5179
一生補處	-10.5179
洲	-10.5184
是三地	-10.5188
百劫	-10.519
為菩薩	-10.519
有二義	-10.5193
曾無	-10.5193
我能堪忍	-10.5196
無諍	-10.5197
契	-10.5197
同前	-10.5197
即自	-10.52
有為法	-10.52
悔過	-10.5201
三句	-10.5202
無垢施女	-10.5207
阿須倫	-10.5208
復有四事	-10.5208
弱	-10.521
健	-10.521
名義	-10.5211
勝行	-10.5215
馬勝	-10.5218
功勳	-10.5218
謬	-10.522
能感	-10.522
榮	-10.5222
今正是時	-10.5223
於法界	-10.5224
終無	-10.5226
言我	-10.5227
隨應	-10.5229
正教	-10.5229
等類	-10.5232
百歲	-10.5232
光佛	-10.5233
勝智	-10.5238
道心	-10.5238
發大	-10.5239
燈明	-10.5239
當知是人	-10.5245
頭陀	-10.525
諸仁者	-10.5252
阿難陀	-10.5259
復更	-10.5272
一切法皆	-10.5276
生長	-10.5279
不假	-10.5281
深入	-10.5281
為宗	-10.5281
能善	-10.5283
亦空	-10.529
真子	-10.5292
顧	-10.5293
穢惡	-10.5295
大臣	-10.5295
寂慧當知	-10.5297
非常	-10.5301
道理	-10.5302
證也	-10.5305
下釋	-10.5316
無少	-10.5328
捨諸	-10.5335
所修行	-10.5338
淨故	-10.534
無上智	-10.5341
增減	-10.5343
心性	-10.5349
善不善	-10.535
此處	-10.5352
相見	-10.5354
不善業	-10.5357
勸令	-10.5357
福報	-10.5362
乃為	-10.5364
證法	-10.5365
觀世音	-10.5366
四眾	-10.537
逼	-10.5371
觀之	-10.5374
三十六	-10.5376
顯勝	-10.5376
敵	-10.5382
七重	-10.5383
活	-10.5383
能了	-10.5386
動轉	-10.539
見法	-10.5394
生淨土	-10.5397
屈	-10.54
卑	-10.54
唯是	-10.54
何故不	-10.5403
十善業道	-10.5405
眼識	-10.5411
震	-10.5413
灑	-10.5415
然燈	-10.5416
一切諸法皆	-10.5417
追	-10.5418
園苑	-10.5419
釋師子	-10.5421
項	-10.5421
帝釋天主	-10.5423
羸	-10.5423
貪心	-10.5423
點	-10.5424
證知	-10.5424
朋	-10.5425
源	-10.5426
荷	-10.5428
空無相無願	-10.5428
後時	-10.5428
任持	-10.5428
羅剎	-10.5429
踰	-10.5429
折	-10.543
顏色	-10.5431
開示演說	-10.5432
慈愍	-10.5435
以依	-10.5435
過惡	-10.5437
求索	-10.5437
我亦願	-10.5437
此道	-10.5442
過去世	-10.5445
心生歡喜	-10.5448
久遠	-10.5451
如大	-10.5451
末世	-10.5456
如是行	-10.5459
佛境界	-10.5461
魔軍	-10.5463
閑居	-10.5468
其名曰	-10.5471
人等	-10.5474
救濟	-10.5475
勝進	-10.5479
善護	-10.548
無力	-10.5481
悟入	-10.5486
說此經	-10.5486
映蔽	-10.5486
必定	-10.5494
當說	-10.5502
如來說	-10.5505
平正	-10.5506
若諸	-10.5507
中下	-10.5509
壽者	-10.551
為一切眾生	-10.5511
闍	-10.5519
大威德	-10.5525
此界	-10.5526
大涅槃	-10.5528
諸入	-10.5536
力士	-10.554
天神	-10.5542
墮於	-10.5544
下文	-10.5548
用是故	-10.5552
功用	-10.5557
復生	-10.5558
可信	-10.556
堅實	-10.5563
是諸眾生	-10.5563
必得	-10.5566
耽	-10.5567
令諸	-10.5574
助道	-10.5576
白法	-10.5576
此說為	-10.5578
問也	-10.5581
而見	-10.5589
幡	-10.5592
未有	-10.5592
所害	-10.5597
水中	-10.5599
我禮	-10.5599
有我	-10.5607
之內	-10.5608
佛告文殊師利	-10.5611
以是緣故	-10.5613
一切智心	-10.5616
種善根	-10.5616
鹿	-10.5617
無憂	-10.562
決擇	-10.5623
罵詈	-10.5623
炬	-10.5626
馳	-10.5629
良藥	-10.563
呪術	-10.563
妙華	-10.563
法教	-10.563
來者	-10.5631
油	-10.5631
不斷絕	-10.5635
聽經	-10.5636
繁	-10.5637
無倦	-10.5637
有幾	-10.5637
八地以上	-10.5639
延	-10.564
疑悔	-10.5642
開悟	-10.5645
有世界名	-10.565
調達	-10.565
當獲	-10.5655
惡法	-10.5657
出現於世	-10.5659
集會	-10.566
非身	-10.5661
過去未來現在	-10.5662
等覺	-10.5662
念言	-10.5667
願為	-10.5668
遠離諸	-10.5671
謂是	-10.5673
說法時	-10.5673
菩薩觀身	-10.5675
勝相	-10.5675
邪命	-10.5675
至彼	-10.5675
一行	-10.5677
權實	-10.5678
千萬	-10.5679
飛行	-10.5681
萬里	-10.5681
消滅	-10.5688
前中有二	-10.569
亦令	-10.569
斯義	-10.5693
之後	-10.5693
四無所畏	-10.5694
斷一切	-10.5694
第一明	-10.5694
日輪	-10.5696
又能	-10.5715
而可	-10.5717
?「	-10.5718
已說	-10.5723
義理	-10.5728
他心	-10.5729
四念處	-10.5732
八十俱胝	-10.5735
卷第十	-10.574
四無量	-10.5749
而受	-10.5754
滅後	-10.5757
得忍	-10.5757
捨命	-10.5759
大意	-10.5761
諸趣	-10.5763
惜	-10.5766
極重	-10.5771
二智	-10.5771
於大乘	-10.5772
阿蘭若	-10.5774
凡所	-10.5785
以成	-10.5789
價	-10.5792
釋迦如來	-10.5793
男子女人	-10.5793
三分	-10.5794
故稱	-10.5801
令住	-10.5808
得言	-10.5811
不敬	-10.5812
揚	-10.5814
利眾生	-10.5821
普賢	-10.5823
錯謬	-10.5824
常在	-10.5824
謙	-10.5829
自相	-10.5831
隨行	-10.5835
那羅延	-10.5836
戰	-10.5837
有佛頂中光明照	-10.5837
從座而起	-10.5837
黨	-10.5837
嬈	-10.5837
無有少法	-10.5839
羅睺羅	-10.5839
汎	-10.584
敗壞	-10.584
慇懃	-10.5841
何謂菩薩	-10.5842
人非人等	-10.5843
城邑	-10.5845
氏	-10.5845
被甲	-10.5847
佛剎功德莊嚴	-10.5847
止息	-10.5849
獨覺	-10.5852
平等故	-10.5853
即從坐起	-10.5853
億百千	-10.5853
振	-10.5854
若曹	-10.5854
成最正覺	-10.5855
知法	-10.5856
諸所	-10.5857
四十八願	-10.5861
大本	-10.5861
眾祐	-10.5863
無依止	-10.5869
意解	-10.5872
行業	-10.5875
何者為	-10.5878
十方佛	-10.5878
說我	-10.5879
阿羅漢辟支佛	-10.5881
勝鬘夫人	-10.5884
當得作佛	-10.5889
若善男子	-10.5892
慈悲心	-10.5893
使人	-10.5894
來迎	-10.5895
當學	-10.5899
百由旬	-10.5901
何等為二	-10.5905
乾闥婆等	-10.5906
若有比丘	-10.5909
方等	-10.5909
以神通力	-10.5912
夜摩天	-10.5917
於自	-10.5924
疑心	-10.5928
身色	-10.5937
爾乃	-10.5939
為名	-10.594
阿字	-10.594
如是知	-10.5941
攝持	-10.5942
疾得	-10.5944
皆空	-10.5957
十六觀	-10.5959
休息	-10.596
在地	-10.5962
道諦	-10.5962
非眼	-10.5971
九十	-10.5972
諸漏	-10.5972
六地	-10.5975
依彼	-10.5979
如是供養	-10.5984
阿難白佛言	-10.5992
推求	-10.5992
諸佛世界	-10.5995
而出	-10.5997
斷惑	-10.5998
五乘	-10.5998
正理	-10.6002
所發	-10.6002
一切處	-10.6003
是名如來	-10.6008
億劫	-10.6011
專心	-10.6015
之境	-10.6018
所縛	-10.6022
外化	-10.6023
何以故下	-10.6024
說也	-10.6025
則便	-10.6029
發言	-10.6031
有為無為	-10.6031
能攝	-10.6032
侵	-10.6033
則為欺誑	-10.6034
以種種	-10.6034
須知	-10.6034
眼盡邊	-10.6036
不善法	-10.6037
娑婆世界	-10.6037
花香	-10.6038
法光明	-10.6038
條	-10.6041
伸	-10.6045
幢菩薩	-10.6045
無罣礙	-10.6046
誠實	-10.6047
上至	-10.6048
本覺	-10.6049
杖	-10.605
射	-10.6053
朽	-10.6053
波羅提木叉	-10.6054
三歸	-10.6056
邪道	-10.6056
固	-10.6056
在心	-10.6057
降魔	-10.6059
不當	-10.606
擁護	-10.6061
梨	-10.6064
后	-10.6066
汝今當知	-10.6068
觀者	-10.6069
大利益	-10.6069
緣覺乘	-10.6069
恩愛	-10.6071
初文	-10.6071
山澤	-10.6074
詣佛所	-10.6075
唎	-10.6075
胡	-10.6076
就初	-10.6078
毀壞	-10.6079
覆蔽	-10.6082
氷	-10.6082
妨	-10.6083
不毀	-10.6085
頌曰	-10.6086
欲知	-10.6086
之性	-10.6087
何因	-10.6089
後生	-10.6091
一切聲聞	-10.6092
以何因緣	-10.6094
四義	-10.6095
於正行	-10.6096
難知	-10.6101
法華經	-10.6104
龍樹	-10.6104
場	-10.6109
同事	-10.6111
如來藏者	-10.6113
下輩	-10.6122
壽終	-10.6122
貪瞋	-10.6124
宮中	-10.6127
有六	-10.6135
金剛手	-10.6135
已見	-10.6137
善來	-10.6138
得未曾有	-10.6139
初釋	-10.6143
為惡	-10.6146
度者	-10.6152
解行	-10.6154
之門	-10.6157
章句	-10.6161
隱覆	-10.6163
深廣	-10.6166
若離	-10.6167
能通達	-10.6174
變現	-10.6174
若夢	-10.6179
更不	-10.6182
取相	-10.6186
柔和	-10.6187
諸聲聞眾	-10.6191
以智	-10.6191
無煩惱	-10.6195
諸眾生故	-10.62
勝處	-10.6201
以顯	-10.6202
枝葉	-10.6202
萬善	-10.6204
最為	-10.6205
於有	-10.6205
二乘人	-10.6206
以慧	-10.6206
大德阿難	-10.6208
熏	-10.621
更說	-10.6212
得知	-10.6225
踰繕那	-10.6231
一依	-10.6238
當令	-10.6239
經曰設我得佛至不取正覺	-10.624
即入	-10.6241
而立	-10.6242
今謂	-10.6243
不由	-10.6249
大千	-10.6251
南方	-10.6252
生法	-10.6255
天地	-10.6255
僧祇	-10.6259
坑	-10.626
我之	-10.6268
偏袒右肩右膝著地	-10.6269
此是如來	-10.6271
寤	-10.6274
於地	-10.6275
成如是智	-10.6277
頒宣	-10.6278
二童子	-10.628
渴仰	-10.628
王波斯匿	-10.6281
周旋	-10.6282
行住坐臥	-10.6282
鳴	-10.6283
無生智	-10.6283
怛	-10.6283
又有	-10.6284
無央數劫	-10.6288
留難	-10.6289
應如是	-10.6291
翳	-10.6291
我亦	-10.6292
送	-10.6296
塞	-10.6297
現世	-10.6301
當觀利養	-10.6301
世尊告	-10.6302
亦不能	-10.6307
彼心	-10.6307
為上	-10.6309
聚集	-10.6309
爾所	-10.6311
復作是念	-10.6312
女言	-10.6313
並是	-10.6328
悉了知	-10.6333
國城	-10.6336
汝於	-10.6338
於如來所	-10.6338
應如是知	-10.6338
設使	-10.6341
為先	-10.6351
以得	-10.6352
汝見	-10.6363
遠離一切	-10.6363
此下	-10.6366
分量	-10.6367
不思	-10.6369
釋迦牟尼如來	-10.6371
真身	-10.6371
是實	-10.6373
福業	-10.6375
性相	-10.6375
地前	-10.6375
妙好	-10.6385
滅壞	-10.6386
歡悅	-10.6387
不恭敬	-10.6389
可以	-10.6396
門中	-10.6397
故能	-10.6397
正命	-10.6397
當成	-10.6398
無物	-10.6398
斯為	-10.6405
菩提行	-10.6408
如來身者	-10.6416
悟道	-10.6416
若能如是	-10.6416
如是四法	-10.6419
無生法忍	-10.6424
掌	-10.6427
色者	-10.6433
意生身	-10.6439
身口	-10.6441
斷故	-10.6442
兜率天	-10.6444
龍象	-10.6444
智上	-10.6449
通名	-10.6449
來世	-10.6451
淨行	-10.6454
捨心	-10.6456
安處	-10.6457
之所說	-10.6457
之間	-10.6459
如如	-10.646
慧命	-10.6461
為我說	-10.6467
賢劫	-10.6468
道意	-10.6469
深生	-10.647
身內	-10.6476
善丈夫	-10.6476
無見	-10.6476
皆共	-10.6477
界中	-10.6478
三世諸佛	-10.648
起煩惱	-10.6484
為三	-10.6489
他化自在天	-10.6492
昧	-10.6492
有法	-10.6493
對曰	-10.6493
堅持禁戒	-10.6495
以何緣故	-10.65
迦羅	-10.65
信受奉行	-10.6501
統	-10.6503
任	-10.6505
恐畏	-10.6507
敗	-10.6507
倫	-10.6508
薩婆若	-10.6508
虫	-10.6509
糞	-10.6509
誘	-10.651
諮問	-10.651
危	-10.651
蜜	-10.6511
阿閦佛剎	-10.6512
遊步	-10.6514
天樂	-10.6514
側	-10.6514
無礙辯	-10.6514
何等為八	-10.6515
無上法	-10.6515
信施	-10.6517
各以	-10.652
信根	-10.652
應作	-10.652
融	-10.6521
香氣	-10.6521
令眾生	-10.6523
極樂國土	-10.6524
悅意	-10.6527
消除	-10.6529
如日	-10.653
凡夫法	-10.653
彼有	-10.6532
唯然世尊	-10.6535
皆不可得	-10.6535
得為	-10.6538
行善	-10.654
趣於	-10.6541
譬如虛空	-10.6546
結勸	-10.6549
復言	-10.655
求生	-10.655
入道	-10.6551
如來至真	-10.6552
以七寶	-10.6555
而得自在	-10.6556
亦不得	-10.6557
業故	-10.6558
宿世	-10.6568
牒前	-10.6568
無際	-10.6571
行時	-10.6572
賢者阿難	-10.6574
生善	-10.6577
阿彌陀佛國	-10.6579
此觀	-10.6579
可取	-10.6579
太	-10.6583
口中	-10.6586
八千	-10.6588
妙智	-10.6589
非人	-10.6595
阿羅漢上	-10.6599
值佛	-10.6602
豫	-10.6603
二菩薩	-10.6615
國界	-10.6623
修慧	-10.6623
彼佛世尊	-10.6625
自謂	-10.6625
自然去	-10.6636
調順	-10.6644
四面	-10.6645
此三種	-10.6649
相隨	-10.6649
執取	-10.665
何時	-10.6658
曇	-10.6658
為喻	-10.6659
自在王	-10.6659
除疑	-10.6659
修觀	-10.666
妙覺	-10.6666
如是大王	-10.6667
老病死	-10.6668
如是清淨	-10.668
本淨	-10.668
非但	-10.6681
乃有	-10.6684
當知此	-10.6688
不死	-10.6699
道行	-10.6701
常隨	-10.6703
受諸	-10.6706
今以	-10.6711
行道	-10.6713
是處	-10.6715
大水	-10.6716
雄	-10.6716
阿修羅王	-10.6716
諂	-10.6719
須陀洹	-10.6722
證信	-10.6722
列名	-10.6728
以有	-10.6731
奇	-10.6734
我有光名	-10.6735
如來了知	-10.6736
諸佛國土	-10.6738
於諸有情	-10.6738
食已	-10.6738
癡人	-10.6738
忿	-10.6739
拏	-10.6739
芥子	-10.674
才	-10.6742
憍尸迦	-10.6742
愧	-10.6742
穿	-10.6742
尺	-10.6742
施戒	-10.6743
私	-10.6746
撿	-10.6748
旦	-10.6748
跋	-10.675
局	-10.675
諸苾芻	-10.6751
千人	-10.6753
扇	-10.6753
取其	-10.6754
涉	-10.6756
心淨	-10.6759
若干種	-10.6761
滅罪	-10.6764
多人	-10.6765
王如來	-10.6768
一切行	-10.6768
自德	-10.6769
同聲	-10.6772
出家者	-10.6773
無量諸佛	-10.6773
頻婆	-10.6773
十受	-10.6773
大梵天王	-10.6774
契經	-10.6775
繫念	-10.6776
善安住	-10.6777
恒河沙等	-10.6777
攝一切	-10.678
千劫	-10.678
此非	-10.6783
通別	-10.6785
得至	-10.6786
都無有	-10.679
是四地	-10.6791
是義	-10.6793
無定	-10.6794
諛諂	-10.6799
自覺	-10.68
覩見	-10.6801
無義	-10.6803
種諸善根	-10.6806
不食	-10.6812
知諸法	-10.6817
非二乘	-10.682
活命	-10.6825
定慧	-10.6826
事中	-10.6827
之要	-10.6828
遍覆	-10.683
一切眾會	-10.6831
或作	-10.6831
戲樂	-10.6833
理家	-10.6833
苦痛	-10.6835
怯	-10.6835
稱佛	-10.6851
眾相	-10.686
應生	-10.6865
雅	-10.6866
多種	-10.6868
佛法僧	-10.6868
所入	-10.6869
作利益	-10.6874
聖慧	-10.6889
欲以	-10.6893
法義	-10.6896
得福	-10.6896
彼剎	-10.6897
乃至於	-10.6897
至此	-10.6898
寶池	-10.6901
如海	-10.6903
日夜	-10.6914
摩訶薩	-10.6919
多諸	-10.6922
已作	-10.6924
聞正法	-10.6924
其剎	-10.6926
到彼	-10.6928
皆生	-10.6929
為首	-10.693
復有四	-10.6931
香水	-10.6936
但言	-10.6939
諦觀	-10.6939
如是無量	-10.6939
大雄	-10.6942
其實	-10.6943
實有	-10.6943
勤修習	-10.6944
有七	-10.6948
飲酒	-10.6948
如來智	-10.695
一切如來	-10.695
於前	-10.695
亦不離	-10.6953
隨義	-10.6956
如是等相	-10.6959
阿那含	-10.6961
美妙	-10.6961
星宿	-10.6963
池者	-10.6969
菩薩所行	-10.6969
中有佛項中光明照	-10.697
說是語時	-10.697
聰	-10.6972
嫌	-10.6973
淨居天	-10.6974
紅	-10.6974
菓	-10.6975
泥犁	-10.6976
最大	-10.6976
覓	-10.6977
朗	-10.6979
於其中間	-10.6981
孤	-10.6981
成無上正真道最正覺	-10.6981
長養	-10.6982
錄	-10.6982
按	-10.6983
生希有心	-10.6983
菩	-10.6983
猶豫	-10.6984
講堂	-10.6984
提婆	-10.6984
能自	-10.6985
加害	-10.6986
灌頂	-10.6986
裂	-10.6986
如是十種	-10.6988
耆婆	-10.6989
聰慧	-10.6989
伊	-10.6989
尚不	-10.6993
卷第二十	-10.6994
調御	-10.6994
此間	-10.6995
輕安	-10.6995
佛語阿難	-10.6999
即彼	-10.7003
當於爾時	-10.7003
如其所	-10.7003
疾病	-10.7006
於空中	-10.7008
希有世尊	-10.7013
卷下	-10.7015
身分	-10.7017
一切所有	-10.7018
如法界	-10.7019
持法	-10.7027
雖不	-10.7028
成等正覺	-10.7031
十惡	-10.7032
色等	-10.7042
涅槃經	-10.7045
今世	-10.7047
染淨	-10.705
身肉	-10.7051
福行	-10.7052
大歡喜	-10.7052
卷上	-10.7054
忍者	-10.7055
能仁	-10.7057
無違	-10.7059
菩提樹	-10.706
戒法	-10.7063
樂求	-10.7063
諸法空	-10.7065
悉為	-10.7069
巳下	-10.7077
常說	-10.7078
微妙法	-10.708
所轉	-10.708
如所說	-10.7082
救度	-10.7083
乾	-10.7091
智慧者	-10.7091
唯一	-10.7092
一百	-10.7093
栴檀香	-10.7093
夢見	-10.7094
如汝	-10.7097
諸佛剎土	-10.7101
力者	-10.7109
願得	-10.711
上輩	-10.7111
邊見	-10.7112
實語	-10.7117
若諸菩薩修	-10.7119
照耀	-10.7125
別離	-10.7128
何等三	-10.7128
之善	-10.7131
於身命	-10.7132
佛剎土	-10.7133
善見	-10.7138
言無	-10.7146
之具	-10.7155
染心	-10.7159
墮惡趣	-10.716
起大悲心	-10.7166
為眾	-10.7166
增進	-10.7176
師長	-10.7177
魔眾	-10.718
彼經	-10.7183
文殊師利白佛言	-10.7184
腹	-10.7185
出入	-10.7185
初生	-10.719
若自	-10.719
侶	-10.7192
見之	-10.7194
善權方便	-10.7199
伎	-10.7202
是真	-10.7202
世法	-10.7207
諸漏已盡	-10.7208
自性離故	-10.7208
其行	-10.7208
我生已盡	-10.7208
結加趺坐	-10.7214
是名菩薩摩訶薩行於方便	-10.7217
棄捐	-10.722
賜	-10.7222
勵	-10.7224
再	-10.7224
稱揚	-10.7224
女身	-10.7224
彼一切	-10.7226
溫	-10.7228
波若	-10.7229
!」「	-10.723
說如來不思議	-10.7231
關	-10.7233
浴池	-10.7233
稍	-10.7234
聞是法已	-10.7234
對治彼故	-10.7237
虛假	-10.7238
無主	-10.7239
皆見	-10.724
阿含	-10.7241
丈六	-10.7246
同等	-10.7246
最後身	-10.7246
頃	-10.7247
深經	-10.7249
之緣	-10.725
而便	-10.725
得離	-10.7257
雪山	-10.7261
阿字非	-10.7262
若施	-10.7263
以偈問	-10.7266
無為法	-10.7268
有疑	-10.7281
為實	-10.7287
圓光	-10.729
一切人民	-10.7292
諸色	-10.7294
等行	-10.7297
圓具	-10.7298
供給	-10.73
有三義	-10.7301
寂光	-10.7302
滅道	-10.7303
白衣	-10.7304
諸妙	-10.7305
無量阿僧祇	-10.7308
而成	-10.731
有生	-10.7311
七種	-10.7315
五百長者	-10.732
皆如	-10.732
分位	-10.7323
應捨	-10.7323
既見	-10.7324
拔苦	-10.7325
為眾生故	-10.7325
斯乃	-10.7326
告族姓子	-10.7332
聞聲	-10.7346
池中	-10.7346
善權	-10.7347
無疲倦	-10.7349
於斯	-10.7353
今讚	-10.7354
福智	-10.7364
諸寶	-10.7377
護世	-10.7378
既得	-10.7378
謂之	-10.7379
大藥王子	-10.7384
其王	-10.7386
作佛時	-10.7388
之辭	-10.739
不喜	-10.7391
名也	-10.7391
翻為	-10.7392
白銀	-10.7393
菩薩亦復如是	-10.7393
不見有	-10.7396
先舉	-10.7398
既言	-10.7404
唯願如來	-10.7407
不能動	-10.7408
來詣	-10.7409
主故	-10.7412
報言	-10.7418
百千俱胝	-10.7431
當如是知	-10.7435
不造	-10.7437
之慧	-10.7438
暴	-10.7448
佛法中	-10.7449
識知	-10.7451
威勢	-10.7452
賤	-10.7452
令諸菩薩	-10.7453
前二	-10.7455
經名	-10.7456
滅無所去	-10.7457
凡聖	-10.7458
師子勇猛	-10.7466
最後識滅	-10.7468
徐	-10.7468
得成就	-10.7468
慳嫉	-10.7469
是道	-10.747
四大天王	-10.7471
四乘	-10.7472
殘	-10.7472
廣為	-10.7473
應如是學	-10.7474
酒	-10.7475
如說修行	-10.7475
糞穢	-10.7476
喚	-10.7477
更相	-10.7477
發勤精進	-10.7477
卒	-10.7477
寶華	-10.7477
藝	-10.7477
線	-10.7478
磨	-10.7478
輸	-10.7478
帶	-10.7484
三千界	-10.7484
任運	-10.7485
多羅樹	-10.7486
略明	-10.7487
人皆	-10.7492
明二乘	-10.7492
阿難言	-10.7495
補處	-10.7495
意生	-10.7496
見諦	-10.7496
論說	-10.7499
勸化	-10.7499
盈滿	-10.75
故號	-10.7503
愚癡凡夫	-10.7503
當行	-10.7504
素	-10.7505
相對	-10.7506
聖法	-10.7506
天子言	-10.7513
初一	-10.7514
一切苦	-10.7519
命欲終時	-10.752
阿闍世王	-10.7522
猶有	-10.7522
諸山	-10.7523
於何	-10.7523
不住於	-10.7523
隨機	-10.7524
令心	-10.7527
堪忍	-10.7531
此亦	-10.7531
難信	-10.7534
今現在	-10.754
即告	-10.7545
常應	-10.7547
具諸	-10.7548
無障	-10.7552
我能	-10.7556
於無量	-10.7557
苦也	-10.7561
甚大	-10.7564
自下第三	-10.7566
諸眷屬	-10.7567
自性空	-10.7567
四事	-10.7568
所取	-10.7571
汝可	-10.7571
金剛心	-10.7574
變易生死	-10.7577
能入	-10.7591
設有	-10.7598
巧方便	-10.7599
或說	-10.7601
大苦	-10.7605
譽	-10.7607
悉能了知	-10.7608
不退轉地	-10.7613
千歲	-10.7623
若諸菩薩摩訶薩	-10.7624
虛無	-10.7625
就此	-10.7631
善道	-10.7632
何能	-10.7632
去此	-10.7633
三百	-10.7635
總標	-10.7635
向涅槃	-10.7636
位中	-10.7645
正直	-10.7645
一門	-10.7654
是總	-10.7656
從於	-10.7659
之苦	-10.7662
五痛	-10.7662
一切有為	-10.7662
是七地	-10.7663
得無	-10.7664
火燒	-10.7664
佛世界	-10.7665
惱害	-10.767
具有	-10.7671
能令眾生	-10.7674
寶珠	-10.7674
釋也	-10.7675
不堅	-10.7675
其子	-10.7679
當得阿耨多羅三藐三菩提	-10.7679
不可數	-10.7683
五燒	-10.7689
諸聖	-10.7691
爾時菩薩	-10.7692
而取	-10.7692
之患	-10.7696
一面	-10.77
謗法	-10.7705
眾行	-10.7709
困	-10.7709
定心	-10.771
但說	-10.771
長壽	-10.7715
剛強	-10.7717
既有	-10.772
受報	-10.7721
四兵	-10.7721
講說	-10.7722
勸人	-10.7723
壯	-10.7723
養育	-10.7724
貪行	-10.7724
爛	-10.7724
佛說此經已	-10.7724
心懷	-10.7726
真陀羅	-10.7727
說妙法	-10.7728
獲大	-10.7728
]	-10.7728
乃至一切	-10.7728
呵責	-10.7728
春	-10.7729
暉	-10.773
見他	-10.773
獼猴	-10.773
無思	-10.7731
但見	-10.7732
伸供養	-10.7734
無義利	-10.7734
長跪叉手	-10.7735
支節	-10.7735
莊飾	-10.7736
苦果	-10.7738
奉獻	-10.7739
觀成	-10.7739
大名稱	-10.774
衣鉢	-10.774
心想	-10.774
囊	-10.7741
五力	-10.7741
玉女	-10.7741
而不能	-10.7743
說此法時	-10.7743
少法	-10.7744
來集	-10.7747
願往生	-10.7747
六塵	-10.7748
依怙	-10.7753
定力	-10.7754
愍念	-10.7755
須彌山王	-10.7755
論之	-10.7756
天華	-10.7756
含識	-10.7757
佛語迦葉	-10.7761
呬	-10.7763
諸蘊	-10.7769
述成	-10.7772
善順	-10.7772
見諸佛	-10.7773
聽許	-10.7773
所歸	-10.7774
曼陀羅花	-10.7775
文句	-10.7779
今是	-10.778
正知	-10.7781
良醫	-10.7786
二俱	-10.7787
爾時世尊重	-10.7789
無作者	-10.7791
一義	-10.7792
大劫	-10.7793
覺者	-10.7796
初句	-10.7796
為之	-10.7797
愍傷	-10.7799
分不及一	-10.7803
適意	-10.7803
至佛所	-10.7806
出於	-10.7811
其母	-10.7816
眾妙	-10.7819
觀於	-10.782
受之	-10.7821
受法	-10.7823
耀	-10.7824
觀心	-10.7827
初業	-10.783
可畏	-10.7831
別異	-10.7832
以何等	-10.7833
聞佛說	-10.7841
如是等法	-10.7843
之耳	-10.7848
說名為	-10.7852
長大	-10.7854
吾當	-10.7854
正真	-10.7855
佛慧	-10.7857
愚者	-10.7859
出聲	-10.7863
地方	-10.7865
佛即	-10.7868
為勝	-10.787
能壞	-10.7872
讚佛	-10.7873
說於	-10.7874
億那由他	-10.7876
觀諸法	-10.7877
財利	-10.7882
不順	-10.7883
無等等	-10.7887
其城	-10.7894
覆障	-10.7895
往至	-10.7896
其德	-10.7897
聲聞法	-10.7899
妄言	-10.79
五住	-10.79
為世	-10.79
意也	-10.7901
當修	-10.7902
親近供養	-10.7905
即與	-10.791
道故	-10.7914
乃得	-10.7915
黃金為	-10.7917
無量清淨佛國	-10.7929
行列	-10.793
何義	-10.793
合前	-10.793
阿者非	-10.7938
勝華藏	-10.7939
觀見	-10.7942
無一	-10.7942
殺者	-10.7945
成就故	-10.7945
佛號	-10.7946
所有善根	-10.7955
如說	-10.7956
重罪	-10.7957
居家菩薩	-10.7959
醫王	-10.7961
維	-10.7962
獲得如是	-10.7962
禮佛	-10.7969
方便者	-10.7972
毘婆舍那	-10.7974
實智	-10.7975
王舍大城	-10.7977
死生	-10.7978
所感	-10.7979
却住一面	-10.7981
吒	-10.7983
說是法時	-10.7984
清淨行	-10.7986
諸佛菩薩	-10.7987
渡	-10.7988
能離	-10.7988
城邑聚落	-10.7988
是二地	-10.799
忻	-10.799
域	-10.7991
官	-10.7992
實報	-10.7992
憍	-10.7992
甚為希有	-10.7993
抱	-10.7993
涼	-10.7994
蔭	-10.7994
快善	-10.7995
懺	-10.7995
此亦如是	-10.7995
曠	-10.7996
井	-10.7997
善惡業	-10.7997
四依	-10.7998
輝	-10.8
稟	-10.8
豈有	-10.8001
分衛	-10.8001
省	-10.8002
於諸佛	-10.8003
貪婬	-10.8003
牟	-10.8004
中亦	-10.8004
若使	-10.8006
唯有如來	-10.8006
該	-10.8007
生死苦	-10.801
淺深	-10.8012
即是如來	-10.8013
阿彌陀經	-10.8015
相即	-10.8016
等諸	-10.8018
象王	-10.8018
四禪	-10.8021
遠近	-10.8025
苾芻眾	-10.8027
作用	-10.8028
隨緣	-10.8028
智慧勇猛	-10.8032
於內	-10.8033
賢劫中	-10.8036
諸陰	-10.8036
以上	-10.8036
觀世音菩薩	-10.8039
依趣	-10.804
菩薩法	-10.8042
鮮	-10.8042
手執	-10.805
其佛剎	-10.8053
善因	-10.8054
斯法	-10.8056
明達	-10.8061
寶地	-10.8062
諸佛剎	-10.8062
一切悉	-10.8064
無記	-10.8069
如地	-10.8071
所明	-10.8072
然於	-10.8075
聞是經	-10.8082
五百馬	-10.8082
如天	-10.8088
右脇	-10.8089
名大	-10.8092
大覺	-10.8093
身量	-10.8096
入一	-10.8101
化物	-10.8104
聞如來	-10.8104
住不退轉	-10.8105
無取無	-10.8106
聞其	-10.8107
神識	-10.8107
語者	-10.8111
伽陀	-10.8112
王所	-10.8112
有所作	-10.812
若論	-10.812
十法	-10.8124
初住	-10.8124
順法	-10.8124
所照	-10.8129
白世尊	-10.8129
與樂	-10.813
王城	-10.8132
擔	-10.8132
墮地	-10.8136
化現	-10.8139
右手	-10.8139
村	-10.8146
園中	-10.8146
我觀	-10.8149
此四法	-10.8152
隨覺	-10.8155
堅住	-10.8156
見諸	-10.8158
次有	-10.8159
名無差別	-10.8161
無漏業	-10.8162
六種	-10.8162
即作是念	-10.8164
八戒	-10.8166
意念	-10.8174
知我	-10.8176
不計	-10.8179
大施	-10.8181
度世	-10.8181
體相	-10.8185
證於	-10.8185
法無我	-10.8185
作佛事	-10.8186
堅持	-10.8188
於佛前	-10.8193
有如是等	-10.8196
寶積	-10.82
不能了	-10.8205
是空	-10.8207
意者	-10.821
世間法	-10.8213
未能	-10.8213
為主	-10.8214
稱名	-10.8216
無益	-10.8221
經中說	-10.8224
尊敬	-10.8228
陽焰	-10.8234
是何	-10.8235
當為汝說	-10.8237
世間人	-10.8238
願欲	-10.8238
或於	-10.8239
世間眾生	-10.824
依法	-10.8246
附	-10.8246
兜率陀天	-10.8247
於其中	-10.8248
無有作業者	-10.8251
犬	-10.8253
渴愛	-10.8253
秋	-10.8253
知眼	-10.8254
遶佛三匝	-10.8255
有色	-10.8258
分別說	-10.8259
一切眾	-10.8259
吞	-10.8259
命終之後	-10.8259
當爾之時	-10.8259
汁	-10.826
無上正等菩提	-10.8261
慎	-10.8262
張	-10.8262
身不	-10.8262
毘鉢舍那	-10.8263
荷負	-10.8264
灰	-10.8264
八百	-10.8265
利智	-10.8266
現生	-10.8266
低	-10.8267
芽	-10.8267
窟	-10.8267
彼後識	-10.8267
孔雀	-10.8268
瓦石	-10.8269
合為	-10.8269
誤	-10.8271
於涅槃	-10.8272
崇	-10.8274
慧根	-10.8275
廣多	-10.8275
科	-10.8275
攝諸	-10.8275
身行	-10.8278
大雲	-10.8278
住阿練兒處	-10.828
述云此第四	-10.8283
異名	-10.8284
次說	-10.8285
我有	-10.8285
入母胎	-10.8285
能起	-10.8286
羯	-10.8286
得於	-10.8286
大勢至	-10.8286
白玉	-10.829
無忘失	-10.8292
恩德	-10.8293
十由旬	-10.8294
菩薩乘人	-10.8298
永無	-10.8299
不能見	-10.8301
復次文殊師利	-10.8301
阿彌陀如來	-10.8305
梵天王	-10.8306
發道意	-10.8306
得安樂	-10.8306
聲聞弟子	-10.8308
方便善巧	-10.831
等持	-10.8311
今時	-10.8312
行七步	-10.8316
已過去	-10.8316
數取	-10.8319
供具	-10.8321
妙寶	-10.8321
與其	-10.8322
佛與	-10.8324
如風	-10.8324
若菩薩摩訶薩	-10.8327
發道心	-10.8327
有四種法	-10.8329
結使	-10.8329
上中下	-10.8329
賢善	-10.833
悉是	-10.833
已度	-10.8336
則以	-10.8339
若入	-10.8341
不曾	-10.8342
寧可	-10.8342
無因	-10.8342
有愛	-10.8345
復有三	-10.8349
皆已	-10.8356
其後	-10.8356
一眾生	-10.8356
若有得聞	-10.8358
無名	-10.8362
是為三	-10.8364
聞彼	-10.8366
意菩薩	-10.8367
不可量	-10.8368
卷第三十	-10.837
諸佛土	-10.837
柔	-10.8373
女色	-10.8373
能證	-10.8375
舍衛城	-10.8377
五人	-10.8377
疲倦	-10.838
亦隨	-10.8381
諸法門	-10.8382
謂言	-10.8385
之益	-10.8391
入定	-10.8393
事已	-10.8393
眾鳥	-10.8395
聞慧	-10.8398
佛住	-10.8399
取捨	-10.8401
其本	-10.8404
即非	-10.841
別釋	-10.8413
若就	-10.842
略舉	-10.8422
則於	-10.8422
現見	-10.8422
知已	-10.8423
皆無	-10.8424
生疑	-10.8425
發起精進	-10.8426
結集	-10.8427
愁	-10.8428
闍王	-10.8428
而令	-10.8435
毒箭	-10.8441
令生	-10.8441
變為	-10.8446
彼佛前有	-10.8447
則知	-10.8449
讚言	-10.8456
居士	-10.8456
十俱胝	-10.8457
隨佛	-10.8463
恒常	-10.8466
所有功德	-10.8466
菩提之心	-10.847
若復有	-10.8473
有智	-10.8478
眾僧	-10.8483
正業	-10.8486
海水	-10.8491
童	-10.8493
云何名為菩薩摩訶薩	-10.8496
中上	-10.8497
住在	-10.8497
等觀	-10.8497
現此	-10.8498
菩薩以	-10.8499
隨眾生	-10.8503
法而	-10.8505
其事	-10.8506
汝能	-10.8507
聲聞辟支佛	-10.8507
明見	-10.8509
佛威神	-10.851
髻	-10.8511
不可思議功德	-10.8513
說偈	-10.8514
便為	-10.8515
七覺	-10.8518
堪能	-10.8518
斯陀含	-10.8522
能解	-10.8522
誑惑	-10.8522
佛國土	-10.8523
所能	-10.8524
之與	-10.8525
有佛名	-10.8525
法住	-10.8525
而以	-10.8528
成就四法	-10.8529
是別	-10.8531
復見	-10.8531
若斯	-10.8532
繞佛三匝	-10.8534
檀波羅蜜	-10.8536
析	-10.8537
脚	-10.8537
知止足	-10.8538
若起	-10.8538
釋迦牟尼佛	-10.8539
善法堂	-10.854
欄楯	-10.854
定意	-10.854
羸劣	-10.8541
眾聖	-10.8541
硨磲	-10.8541
貪恚癡	-10.8541
聞是語已	-10.8542
大神通	-10.8542
毒藥	-10.8543
噵	-10.8543
境界如夢	-10.8543
槃	-10.8543
鈍根	-10.8543
誐	-10.8545
腰	-10.8545
頸	-10.8546
曼	-10.8547
時佛	-10.8548
妙行	-10.8548
憎愛	-10.8549
喜心	-10.855
㲉	-10.8552
目之為	-10.8552
令汝	-10.8552
婦女	-10.8552
曳	-10.8552
乃爾	-10.8553
於虛空	-10.8553
具足如是	-10.8553
妄生	-10.8554
神通變化	-10.8555
方廣	-10.8556
付屬	-10.8561
分二	-10.8562
食時	-10.8568
空者	-10.8568
此意	-10.8569
是苦	-10.857
萬六千	-10.8571
來詣佛所	-10.8572
違逆	-10.8578
法寶	-10.858
若知	-10.858
謂離	-10.8582
長老舍利弗	-10.8582
二觀	-10.8586
一身	-10.859
安養	-10.8592
證無上菩提	-10.8593
緣現微笑	-10.8595
菩薩爾時	-10.8598
三途	-10.86
所詮	-10.86
句義	-10.8602
發大心	-10.8603
賢者舍利弗	-10.8604
正宗	-10.8607
離苦	-10.8613
地中	-10.8616
我常	-10.8616
如火	-10.8621
不畏	-10.8622
大海水	-10.8623
時分	-10.8624
十方界	-10.8624
我得菩提	-10.8624
病者	-10.8624
此是菩薩	-10.8626
在世	-10.8629
無退轉	-10.8633
須達	-10.8633
非處	-10.8636
願令	-10.8637
聖種	-10.8637
離過	-10.8639
得無垢	-10.864
菩薩有四	-10.8644
二十四	-10.8645
不名淨	-10.8646
覺支	-10.8648
所集	-10.8651
頗有	-10.8652
貪求	-10.866
經於	-10.8665
無法可	-10.8665
以能	-10.8666
文義	-10.8667
無罪	-10.8672
信力	-10.8672
坐臥	-10.8673
迴向菩提	-10.8688
結縛	-10.8688
心所	-10.8688
高廣	-10.8692
為斷	-10.8694
諸法皆	-10.8698
頂上	-10.8705
所著	-10.8708
但能	-10.8708
勸信	-10.871
屍	-10.871
千子	-10.871
淨智	-10.8712
顯說	-10.8718
之子	-10.8719
住此	-10.8722
般若波羅蜜多	-10.8727
文也	-10.873
眾魔	-10.8731
四地	-10.8733
清白	-10.8734
二相	-10.8743
求出離	-10.8745
向佛	-10.8754
為正	-10.8756
死者	-10.8759
世王	-10.8759
攝化	-10.8761
所止	-10.8761
本空	-10.8763
心觀	-10.8765
以施	-10.8769
三十七	-10.8771
無礙解	-10.8773
六年	-10.8773
雖行	-10.8774
斷煩惱	-10.8777
二十二	-10.8779
已能	-10.878
正因	-10.8785
總別	-10.8788
誨	-10.8791
不疑	-10.8791
三摩呬多	-10.8796
釋成	-10.8797
無信	-10.8803
商主	-10.8805
鬚髮	-10.8809
無量稱王	-10.8811
妙莊嚴	-10.8811
大論	-10.8813
淨妙	-10.8813
金剛杵	-10.8814
師子之座	-10.8816
非有非無	-10.8818
智度論	-10.8819
右遶三匝	-10.8819
心已	-10.882
娜謨	-10.882
大目乾連	-10.8822
殑伽沙數	-10.8822
作供養已	-10.8823
薪	-10.8824
馳走	-10.8824
寫	-10.8825
精勤修習	-10.8825
見取	-10.8825
說諸	-10.8825
逸	-10.8826
詳	-10.8826
駕	-10.8827
彼此	-10.8827
荒	-10.8827
產	-10.8827
叢林	-10.8828
閣	-10.8829
s	-10.8829
塔廟	-10.8829
隱沒	-10.8831
煖	-10.8831
墮於地獄	-10.8832
虧	-10.8832
比尼	-10.8832
鄙	-10.8833
遍覆三千大千世界	-10.8834
難思議	-10.8834
於當來世	-10.8835
滋	-10.8836
如佛所	-10.8836
人中師子	-10.8837
佉	-10.8837
湛然	-10.8838
惠施	-10.8838
梁	-10.8839
歡樂	-10.8842
正語	-10.8843
等相	-10.8845
紫金	-10.8847
堪受	-10.8847
今說	-10.8848
繫著	-10.885
三千世界	-10.885
善臂	-10.885
宣揚	-10.8853
沙門法	-10.8854
次復有	-10.8855
惡見	-10.8855
無執	-10.8857
福聚	-10.8858
聚會	-10.8859
即名	-10.8864
應化	-10.8867
中無有	-10.887
不達	-10.8871
智者不	-10.8873
三福	-10.8874
之文	-10.8879
以神力	-10.888
無不具足	-10.8881
清淨法	-10.8883
怨敵	-10.8884
巧妙	-10.8884
吾今	-10.8889
天衣	-10.8896
復令	-10.8897
力用	-10.8897
舍衛國	-10.8899
一切諸眾生	-10.8901
正是	-10.8905
因行	-10.8908
行處	-10.8912
聖智	-10.8914
勸發	-10.8914
問我	-10.8918
開覺	-10.8921
生彼土	-10.8925
不顛倒	-10.8926
奇哉	-10.8929
深義	-10.8931
不論	-10.8934
故稱為	-10.8937
普見	-10.8942
來生	-10.8943
合上	-10.8945
爾時如來	-10.8946
三時	-10.8947
彼所	-10.895
樂器	-10.8951
來至此	-10.8954
平等性	-10.8955
癡行	-10.8956
無功用	-10.8956
以身	-10.8957
彌勒菩薩摩訶薩	-10.8961
別序	-10.8961
不明	-10.8962
已曾	-10.8966
世間人民	-10.8969
具大	-10.897
現行	-10.897
以一切法	-10.8972
大目連	-10.8976
所逼	-10.8982
而能了知	-10.8983
莫能	-10.8984
業力	-10.8984
離分別	-10.8987
無餘涅槃	-10.8988
若諸有情	-10.8992
道品	-10.8993
不證	-10.8996
舉佛	-10.8998
是為四法	-10.8999
自思惟	-10.9
色心	-10.9001
三結	-10.9002
萬物	-10.9002
天雨	-10.9002
此語	-10.9004
更生	-10.9004
眼根	-10.9007
心喜	-10.9009
二百五十	-10.901
於此法門	-10.901
於色	-10.901
間錯	-10.9015
入胎	-10.902
亦同	-10.9022
十信	-10.9028
名說	-10.9031
但明	-10.9036
無所動	-10.9037
所有諸	-10.9043
五趣	-10.9043
眾生類	-10.9043
歎其	-10.9046
過去諸佛	-10.9047
富樂	-10.9049
肉眼	-10.905
成就深心	-10.9054
為依	-10.9056
電光	-10.9059
踊	-10.906
自度	-10.907
深重	-10.9071
商	-10.9077
不變	-10.9082
算	-10.9082
我今當	-10.9083
隨諸眾生	-10.9083
盡其	-10.9085
樹者	-10.9085
有五種	-10.9088
蜎飛蠕動之類	-10.9091
何異	-10.9091
心起	-10.9095
聖果	-10.9096
徑	-10.9097
劫名	-10.9098
八難	-10.9099
安樂國	-10.9099
悉見	-10.9107
得法	-10.911
自大	-10.9112
攝眾生	-10.9113
百分不及一	-10.9116
不增不減	-10.9117
來至	-10.9117
薰	-10.9119
諸供養	-10.9119
療治	-10.9119
心之所念	-10.912
寒熱	-10.912
慾	-10.9121
勝功德	-10.9122
少欲知足	-10.9122
阿逸菩薩	-10.9122
孝	-10.9122
劫濁	-10.9122
隨眠	-10.9123
漢	-10.9123
嬉戲	-10.9124
難可了知	-10.9125
猪	-10.9125
諸根如幻	-10.9125
勝義諦	-10.9127
資財	-10.9127
怡	-10.9128
螺	-10.9128
百千億萬倍	-10.9128
人有	-10.9129
往詣佛所	-10.9129
是為菩薩善權方便	-10.9129
不應生	-10.913
意欲	-10.9131
隨順法智	-10.9131
象馬	-10.9132
旋轉	-10.9132
審諦	-10.9133
流注	-10.9135
心自念言	-10.9136
不執	-10.9136
滯	-10.9137
生怖畏	-10.9138
下賤	-10.9138
七日處母胎時	-10.9139
揭	-10.914
諸願	-10.9144
亦名為	-10.9147
日出	-10.9147
云何如來	-10.9148
天竺	-10.9149
明鏡	-10.9149
妙聲	-10.9149
右旋	-10.9151
悉如實知	-10.9154
何須	-10.9156
既知	-10.9157
不能自	-10.9162
於菩薩	-10.9165
雖在	-10.9167
侍從	-10.9168
生執著	-10.9169
毀戒	-10.9181
靡	-10.9182
當受	-10.9184
此世界	-10.9187
何等法	-10.9187
造立	-10.9197
為王	-10.9197
如來為	-10.9198
一類	-10.9199
是五地	-10.9201
我若	-10.9202
與諸菩薩	-10.9203
為沙門	-10.9204
八億	-10.9205
後二	-10.9208
去家	-10.9218
亦知	-10.922
五神通	-10.922
初心	-10.9221
所不	-10.9222
大丈夫	-10.9224
爾時佛告	-10.9225
摧滅	-10.9227
白銀為	-10.9227
非無因	-10.9231
當證	-10.9235
宮內	-10.9236
無有一法	-10.9237
若生	-10.9239
俱胝那由他	-10.9241
潔	-10.9242
還歸	-10.9245
大寶	-10.9246
勝劣	-10.9248
之曰	-10.9251
擇	-10.9251
正解	-10.9252
會中有	-10.9253
三垢	-10.9261
大經	-10.9262
是故我今	-10.9262
甚奇	-10.9262
復何	-10.9264
明慧	-10.9267
佛壽	-10.9268
我心	-10.9272
皆當往生	-10.9283
初禪	-10.9284
受其	-10.9284
應是	-10.9287
如是所說	-10.9289
既無	-10.929
有形	-10.9292
法已	-10.9292
如來於彼	-10.9298
於今	-10.9303
德也	-10.9307
為法	-10.9308
人壽命	-10.9309
未知	-10.9309
詣彼	-10.931
是諸佛	-10.9317
種種色	-10.9319
今既	-10.932
相現	-10.9321
連	-10.9321
水火	-10.9323
怯弱	-10.9324
具戒	-10.9325
不有	-10.9325
三月	-10.9325
遊入	-10.9327
有種種	-10.933
別有	-10.9335
欲度	-10.9337
初示	-10.934
是菩提	-10.9345
六通	-10.9347
成佛時	-10.9351
又若	-10.9351
佛光	-10.936
我時	-10.9362
羅云	-10.9368
未曾見	-10.9372
一切時	-10.9376
其法	-10.9377
常所	-10.9378
諸波羅蜜	-10.9382
與人	-10.9386
色聲香味觸	-10.9391
之用	-10.9393
第三結	-10.9396
智斷	-10.94
則得	-10.9403
口出	-10.9404
無住處	-10.9407
佛告阿難及韋提希	-10.9408
明照	-10.9409
尊者護國	-10.9411
念夢中事	-10.9412
為化	-10.9413
忿怒	-10.9416
忿恚	-10.9416
毫	-10.9417
憂愁	-10.9418
之報	-10.9418
與其眷屬	-10.9419
却坐一面	-10.942
祕	-10.942
育	-10.9421
菩薩若夢中	-10.9421
揵沓和	-10.9422
法藏比丘	-10.9423
聾	-10.9424
湯藥	-10.9424
具說	-10.9424
逕	-10.9425
潤澤	-10.9426
泥洹之道	-10.9426
諮嗟	-10.9427
三界外	-10.9427
浴	-10.9427
借	-10.9429
次觀	-10.9429
追求	-10.9431
扶	-10.9433
豆	-10.9433
勝故	-10.9435
採	-10.9436
後身	-10.9436
叵	-10.9436
無所染	-10.9437
胞胎	-10.9439
上方	-10.9439
鑒	-10.9439
圓成	-10.9441
決了	-10.9441
基	-10.9441
應觀	-10.9442
超越分別	-10.9443
敏	-10.9447
生信解	-10.9447
若有菩薩摩訶薩	-10.9451
非離	-10.9454
非真	-10.9457
內有	-10.9459
得安隱	-10.946
復得	-10.9465
正法住	-10.9466
於我所	-10.9467
要須	-10.9468
并餘	-10.9469
肆	-10.9473
往古	-10.9476
咸皆	-10.9478
雨華	-10.9479
無分別者	-10.948
不具足	-10.9482
超出	-10.9484
亦不然	-10.9485
增語	-10.9486
見眾生	-10.949
所作事	-10.9491
一切凡夫	-10.9492
輪轉	-10.9494
所得功德	-10.9495
自稱	-10.9502
覺意	-10.9504
妙花如來	-10.9506
學人	-10.9507
上來明	-10.9509
邊地	-10.951
無其	-10.9514
利物	-10.9516
生厭離	-10.9519
生死之	-10.9519
受此	-10.9525
解知	-10.9525
一雙	-10.9526
速證	-10.953
是性	-10.9531
無受	-10.9534
於過去	-10.9534
之稱	-10.9536
彰彼	-10.9541
增勝	-10.9547
已還	-10.9549
彼苾芻	-10.9549
心得解脫	-10.9552
億那由他百千	-10.9553
問如來	-10.9553
長時	-10.9553
彼業	-10.9553
致使	-10.9555
結也	-10.9559
利益一切諸	-10.9563
覆護	-10.9563
此地	-10.9567
如涅槃	-10.9569
諸子	-10.957
憂苦	-10.957
人見	-10.9571
佛復告	-10.9576
四名	-10.9577
皆同	-10.9578
是眾生	-10.9581
於上	-10.9584
即白佛言	-10.9586
心大歡喜	-10.9589
同聞	-10.959
是六地	-10.9591
亦非無	-10.9593
邪定	-10.9596
無體	-10.9597
于時	-10.9598
攝法	-10.9599
畢竟無	-10.9602
意在	-10.9604
佛於	-10.9604
法體	-10.9608
莊嚴具	-10.9609
本有	-10.9611
獨處	-10.9612
香味	-10.9614
善哉世尊	-10.9615
種智	-10.9615
此為	-10.9619
乃至意	-10.9624
無所分別	-10.9624
念力	-10.963
不思議法	-10.9632
而今	-10.9634
是即	-10.9634
我本	-10.9639
面門	-10.9643
法樂	-10.9645
從人	-10.9645
他世	-10.9645
其過	-10.9646
是故說	-10.9647
靜慮波羅蜜多	-10.9651
初觀	-10.9651
是方便	-10.9653
身有	-10.9655
不殺	-10.9657
諸國	-10.966
汝為	-10.9661
諸度	-10.9662
佛有	-10.9664
最正覺	-10.9665
應言	-10.9667
便能	-10.9667
除去	-10.9671
尋時	-10.9674
邪正	-10.9674
發聲	-10.9675
愛染	-10.9677
受教	-10.9679
地獄中	-10.9681
釋名	-10.9683
發精進	-10.9684
此諸菩薩	-10.9684
離諸疑惑	-10.9692
三惡趣	-10.9698
二十一	-10.9702
開明	-10.9703
眾具	-10.9704
無量光	-10.9704
有相	-10.9705
邪法	-10.9706
有佛性	-10.9707
願樂	-10.971
淨名	-10.971
二十三	-10.9711
知諸	-10.9711
唯說	-10.9712
未至	-10.9713
是沙門垢	-10.9714
厭苦	-10.9715
遊於	-10.9719
潔白	-10.9722
人趣	-10.9723
輕賤	-10.9723
出家人	-10.9725
右繞三匝	-10.9725
尸羅波羅蜜多	-10.9727
是人覺已	-10.9727
不調	-10.9729
生人中	-10.973
牆壁	-10.9731
有兩	-10.9731
冀	-10.9732
怛薩阿竭	-10.9732
於大	-10.9732
醉	-10.9733
身子	-10.9734
細滑	-10.9734
有三昧名	-10.9734
一切諸佛所護念經	-10.9737
*	-10.9738
挍	-10.9739
喪	-10.9739
狹	-10.9739
廣為人說	-10.9739
厄	-10.9739
其水底沙	-10.974
往生者	-10.9741
淚	-10.9742
超絕	-10.9743
教行	-10.9743
貯	-10.9743
生驚怖	-10.9743
輕毀	-10.9744
可度者	-10.9745
誼	-10.9745
姟	-10.9746
未甞	-10.9746
稻	-10.9746
密迹	-10.9746
隣	-10.9747
婆伽婆	-10.9748
堅強	-10.9748
自然智	-10.9751
出於世	-10.9751
是八地	-10.9752
耆闍	-10.9754
阿闍世	-10.9754
常與	-10.9754
坐道場	-10.9756
進止	-10.9756
憶持	-10.9758
除愈	-10.9758
四十里	-10.9759
六度無極	-10.976
出現世間	-10.9761
剎利	-10.9762
中住	-10.9762
非心	-10.9762
形貌	-10.9764
作何	-10.9767
能化	-10.9768
真金	-10.9769
結示	-10.9769
赤真珠	-10.9771
幾何	-10.9772
欲取	-10.9772
此心	-10.9773
施等	-10.9773
一子	-10.9776
應當如是	-10.9776
我今為汝	-10.978
輕重	-10.9781
入大	-10.9782
生死者	-10.9782
菩提心者	-10.9783
博聞	-10.9783
一切天人	-10.9785
修作	-10.9785
迴轉	-10.9788
於來世	-10.9788
爾時彼	-10.9789
諸法平等	-10.9789
缺減	-10.9791
十種功德	-10.9792
可樂	-10.9796
後之	-10.9797
俱胝那庾多百千	-10.9799
未久	-10.98
以明	-10.9801
當見	-10.9801
尋求	-10.9802
隨宜	-10.9805
高大	-10.9806
深遠	-10.9807
分段生死	-10.9808
愛心	-10.9809
施作	-10.9809
所由	-10.9814
無有障礙	-10.9824
大莊嚴	-10.9825
信敬	-10.983
諸法實相	-10.9832
求解脫	-10.9834
眾等	-10.9834
復現	-10.9834
諸天女	-10.9838
無所不	-10.9842
欲想	-10.9842
不言	-10.9843
一切眾生心	-10.9845
見人	-10.9848
初舉	-10.9849
百千俱胝那由他	-10.9851
正意	-10.9851
寶莊嚴	-10.9852
生分	-10.9852
心得	-10.9853
修諸行	-10.9855
能修	-10.986
第四從	-10.986
持戒者	-10.986
力勢	-10.986
所學	-10.9861
解者	-10.9866
官屬	-10.9871
不合	-10.9871
我欲	-10.9873
異於	-10.9874
外國	-10.9874
聞此經	-10.9875
餘三	-10.9883
實非	-10.9883
彼於	-10.9883
生疑惑	-10.9885
然後乃	-10.9885
初言	-10.9887
光明普照	-10.9893
之難	-10.9894
大喜	-10.9895
故有退轉	-10.9895
欲令眾生	-10.9896
惡言	-10.9898
真實功德	-10.9902
於此法	-10.9903
旒蘇	-10.9904
大善	-10.9905
說諸法	-10.9906
金剛手菩薩	-10.9906
諸病	-10.9908
彌陀佛	-10.9918
所宣	-10.9929
去來今	-10.9931
此會	-10.9933
心相	-10.9934
無覺	-10.9934
同異	-10.9935
所疑	-10.9938
或可	-10.9938
受於	-10.994
斯道	-10.9942
以見	-10.9942
則無有	-10.9943
有身見	-10.9945
不能令	-10.9947
說一乘	-10.9949
時眾	-10.9951
彼諸天子	-10.9952
大身	-10.9952
為此	-10.9953
或如	-10.9958
其前	-10.9959
無本	-10.9959
樂音	-10.9963
不可取	-10.9965
就第一	-10.9965
聖王	-10.9968
於己	-10.9972
作師子吼	-10.9987
初二	-10.9988
貪身	-10.999
常精進	-10.9991
眾色	-10.9996
行忍辱	-10.9996
優劣	-10.9997
有能	-10.9999
愁憂	-11
淨飯王	-11.0002
途	-11.0003
未必	-11.0004
大雨	-11.0005
超過一切	-11.0008
有信	-11.0008
梵眾	-11.0008
淨光	-11.0012
止住	-11.0014
受行	-11.0015
菩薩摩訶薩於	-11.0019
若心	-11.0023
欲解	-11.0023
如師子	-11.0023
等意分別	-11.0025
大甲冑	-11.0026
止觀	-11.0028
我從	-11.0028
樂故	-11.0033
以大悲	-11.0033
修成	-11.0033
於諸佛所	-11.0034
滴	-11.0038
專精	-11.0041
亦不生	-11.0042
各有上中下	-11.0043
愛念	-11.0046
禍	-11.0046
迅速	-11.0047
成也	-11.0048
菩提果	-11.0051
膿血	-11.0051
西天譯經三藏朝散大夫試光祿卿	-11.0051
彼若	-11.0052
此義不然	-11.0053
客	-11.0053
躰	-11.0055
稽首佛足	-11.0056
痛痒	-11.0056
有分別者	-11.0056
由如是故	-11.0056
所言止者	-11.0057
飛鳥	-11.0057
檀越	-11.0059
護持正法	-11.0059
尋伺	-11.0059
生老病死	-11.006
洪	-11.0061
焚	-11.0062
瑩	-11.0062
重閣	-11.0062
弁	-11.0064
有為行	-11.0064
說其	-11.0065
諸賢	-11.0066
出家受具足	-11.0067
悔恨	-11.0067
誹謗正法	-11.0068
屠	-11.0068
迴向阿耨多羅三藐三菩提	-11.0069
諂誑	-11.0069
英	-11.0071
彼佛剎	-11.0071
弄	-11.0072
貧苦	-11.0074
正勸	-11.0075
因生	-11.0076
我於往昔	-11.0076
市	-11.0076
隨學	-11.0077
一是	-11.0077
非想	-11.0077
了知諸法	-11.0078
近止	-11.0078
奢	-11.0079
勢至	-11.0079
諸方	-11.0079
吉利	-11.008
報佛	-11.008
欣悅	-11.008
祇陀	-11.008
受苦惱	-11.0082
發起序	-11.0083
集諦	-11.0085
的	-11.0086
為畢竟	-11.0087
生天上	-11.0089
又能了知	-11.0089
心相應	-11.0091
為大乘	-11.0093
下中上	-11.0095
不聽	-11.0097
此即是	-11.0098
千億	-11.0101
供養已	-11.0101
令不	-11.0101
來集會	-11.0103
王菩薩	-11.0107
萬億	-11.0108
得不退	-11.0112
然其	-11.0117
商人	-11.0117
地者	-11.0118
處非處	-11.0119
造逆	-11.0119
說彼	-11.0121
高勝	-11.0121
皆作	-11.0122
捨家	-11.0123
日日	-11.0123
迷亂	-11.0123
可說	-11.0126
樂睡眠	-11.0126
猗	-11.0128
不想	-11.0129
古今	-11.0129
分段死	-11.0131
眼目	-11.0131
之樂	-11.0134
難量	-11.0136
無價	-11.0137
貧人	-11.0137
皆來	-11.0139
此世	-11.0139
無有邊際	-11.0144
住阿蘭若	-11.0145
凡愚	-11.0146
為道	-11.0146
本所	-11.0147
見道	-11.0147
宿住	-11.0148
如是展轉	-11.0149
而轉	-11.015
悕求	-11.0152
佛智慧	-11.0155
二門	-11.0157
不了知	-11.016
輪寶	-11.016
超勝	-11.0161
不見佛	-11.0165
有多	-11.0166
百種	-11.0167
而供養	-11.0168
慈能	-11.0183
同體	-11.0186
為眾生說	-11.0187
分為二	-11.0192
訶毀	-11.0194
眼等	-11.0196
不息	-11.0197
其音	-11.0197
願行	-11.0203
又前	-11.0203
無處所	-11.0205
從何	-11.0206
海中	-11.0207
若有善男子善女人	-11.0209
欲生	-11.0213
若有善男子	-11.0215
今得	-11.0216
實義	-11.0217
為他人說	-11.0218
式	-11.0219
自作	-11.022
三昧門	-11.0224
煩惱魔	-11.0225
能解了	-11.0226
善方便	-11.0227
以智慧	-11.0228
造業	-11.0231
妄分別	-11.0232
險難	-11.0236
四倒	-11.0236
法雨	-11.024
供養恭敬	-11.024
甚深微妙	-11.0244
於非	-11.0245
此皆	-11.0246
無聞	-11.0247
已盡	-11.0248
三聖	-11.0249
不應作	-11.025
彼一切法	-11.025
其文	-11.0251
無量壽觀	-11.0252
樂住	-11.0261
餘處	-11.0263
。『	-11.0265
所纏	-11.0274
於往昔	-11.0277
等遊	-11.028
不懈	-11.0282
滅惡	-11.0288
同行	-11.0291
難解	-11.0293
諸罪	-11.0295
無缺	-11.0296
相貌	-11.0296
當云何	-11.0296
大菩薩	-11.03
非真實	-11.0301
前說	-11.0302
言之	-11.0307
說經法	-11.0309
無有分別	-11.031
生人間	-11.031
極善	-11.0315
此三昧	-11.0325
於佛如來	-11.0331
趣菩提	-11.0337
劫成	-11.0338
無有量	-11.0341
以大乘	-11.0342
妬	-11.0347
諮	-11.0349
二十八	-11.0351
及能	-11.0351
咸共	-11.0351
聲聞菩薩	-11.0354
口四	-11.0356
終不能	-11.036
億萬	-11.0364
而坐	-11.0365
百千歲	-11.0365
發無上正真道意	-11.0366
真實法	-11.037
如本	-11.037
鬪	-11.0371
別名	-11.0372
梵行已立	-11.0374
從佛聞	-11.0374
結歎	-11.0376
皆依	-11.038
血肉	-11.038
丈	-11.0381
最勝兩足尊	-11.0381
是業滅已	-11.0382
野干	-11.0382
瑕	-11.0383
嗅	-11.0385
不依東方	-11.0386
三藐三佛陀	-11.0386
妙衣	-11.0386
阿逸多	-11.0387
朋友	-11.0387
拂	-11.0387
銅	-11.0388
菩薩之將從	-11.0388
泉	-11.0389
所言進者	-11.0389
訓誨	-11.0389
遍一切處	-11.039
付囑	-11.039
灌	-11.0391
胸	-11.0391
飡	-11.0391
麻	-11.0391
枯	-11.0393
頭面	-11.0393
我於今者	-11.0394
勉	-11.0394
入法	-11.0394
說誠實言	-11.0395
象手	-11.0396
稠林	-11.0397
0	-11.0397
屋	-11.0397
應須	-11.0397
攬	-11.0398
池沼	-11.0398
有千	-11.0398
看	-11.0399
整	-11.0401
嬈亂	-11.0403
述云此次	-11.0405
阿蘭若比丘	-11.0405
頭目	-11.0405
佛力	-11.0406
證信序	-11.0407
深固	-11.0409
經等	-11.0409
發如是心	-11.0411
酪	-11.0411
空閑處	-11.0411
皆應	-11.0412
第二段中	-11.0414
離心意識	-11.0414
發清淨心	-11.0414
綖	-11.0417
妓樂	-11.0417
達摩	-11.0418
常想	-11.0418
普覆	-11.042
虛妄分別	-11.0422
發起大悲	-11.0423
阿修羅等	-11.0425
展轉相	-11.0426
尊者大迦葉	-11.0426
印門	-11.0427
者無名云	-11.0431
聰明	-11.0432
豈可	-11.0433
所不能及	-11.0436
顯發	-11.0437
捨身命	-11.044
惡作	-11.044
梵音聲	-11.0443
心意識	-11.0444
害心	-11.0446
青色	-11.0447
流通分	-11.0449
入彼	-11.045
心相續	-11.0452
濁惡	-11.0453
不受後有智	-11.0454
諸眾會	-11.0465
彼識	-11.0466
所染	-11.0466
復起	-11.0467
善觀察	-11.0469
五地	-11.0469
無有實	-11.0474
佛告舍利子	-11.0475
所演	-11.0475
一由旬	-11.0476
為宣說	-11.0478
第二釋	-11.0482
復白	-11.0487
諸天子眾	-11.049
若行	-11.0491
非時	-11.0495
行天子	-11.0495
大義	-11.0495
之別	-11.05
悟解	-11.0502
以是故	-11.0506
善調	-11.0507
蒙佛	-11.0507
能救	-11.051
心法	-11.0511
解脫者	-11.0511
命者	-11.0512
非彼	-11.0513
敬愛	-11.0516
舉其	-11.0519
不平等	-11.052
十萬	-11.0522
初識生時	-11.0522
是清淨	-11.0522
眾事	-11.0529
聞斯	-11.053
體也	-11.0531
於過去世	-11.0532
故如是說	-11.0533
功能	-11.0533
甚善	-11.0533
帳	-11.0537
惡事	-11.0537
瑞應	-11.0538
成德	-11.0539
處於	-11.0539
惡比丘	-11.054
三輪	-11.054
為地	-11.0541
作者	-11.0541
之功	-11.0543
老病	-11.0547
幡蓋	-11.0549
向前	-11.055
以何為	-11.055
現相	-11.0555
護正法	-11.0555
可解	-11.0557
一分	-11.0558
甚可愛樂	-11.0559
非道	-11.0561
於此世界	-11.0563
一一皆	-11.0564
行攝	-11.0568
儀式	-11.0579
慢心	-11.0585
觀諸	-11.0585
修般若波羅蜜	-11.0587
之所行	-11.0588
如應	-11.0593
八方上下	-11.0601
聖賢	-11.0602
不依止	-11.0603
得住	-11.0603
爾時文殊師利	-11.0607
與此	-11.0609
二事	-11.0612
先世	-11.0612
求之	-11.0615
著我	-11.0615
無斷	-11.0618
毛孔	-11.0619
後當	-11.062
尚無	-11.062
觀無量壽	-11.0623
菩薩摩訶薩亦復如是	-11.0623
從天	-11.0625
以清淨心	-11.0626
故次明	-11.0627
眾中有	-11.063
二云	-11.0631
此說是名	-11.0633
等是	-11.0634
王聞	-11.0634
甘露法	-11.0634
如是住	-11.0635
貪瞋癡等	-11.0636
樓觀	-11.0638
亦不分別	-11.0638
若不得	-11.0638
日觀	-11.0639
所讚	-11.0643
念法	-11.0648
心所念	-11.0654
迎接	-11.0657
心則	-11.066
所歎	-11.0664
自分	-11.0666
之器	-11.0668
此釋	-11.0668
勝菩提	-11.0671
苦諦	-11.0672
燒然	-11.068
復有二	-11.0681
歸依如來	-11.0688
如是種種	-11.0689
所識	-11.069
說微妙法	-11.0694
三十三	-11.0696
至涅槃	-11.0696
得勝	-11.0697
轉行	-11.0699
亦說	-11.07
習行	-11.0701
而是菩薩	-11.0703
其量	-11.0705
匝	-11.0707
行乞食	-11.0707
手中	-11.0708
五句	-11.071
能受持	-11.0712
清淨無垢	-11.0712
二死	-11.0714
功德智慧	-11.0716
信受諦奉清淨無	-11.072
但云	-11.0721
髓	-11.0721
倍復踊躍深生歡喜發希奇想	-11.0724
說是語已	-11.0724
後釋	-11.0728
脂	-11.0729
醜陋	-11.073
釋云	-11.073
捨身命財	-11.073
尊者大目乾連	-11.0733
有二戶蟲	-11.0733
無來無去	-11.0733
齋	-11.0734
態	-11.0734
辛	-11.0734
甞	-11.0734
優鉢羅花	-11.0735
澁	-11.0735
繫屬	-11.0735
懃	-11.0735
此菩薩是初地	-11.0736
無等倫	-11.0736
即成	-11.0736
慈悲喜捨	-11.0738
策	-11.0739
嗔	-11.074
嶮	-11.074
八部	-11.0741
披	-11.0741
渠	-11.0741
恥	-11.0741
於我法中	-11.0742
飲食衣服	-11.0742
已便	-11.0742
周匝圍繞	-11.0744
不善心	-11.0746
買	-11.0746
如我今者	-11.0747
唱言	-11.0748
乞士	-11.0748
百年	-11.0749
菩薩有四事法	-11.075
明此	-11.075
高座	-11.075
無所起	-11.0754
作是語已	-11.0754
業果報	-11.0756
業行	-11.0757
婢	-11.0758
篤信	-11.076
不散	-11.0762
無數百千	-11.0762
諸天世人	-11.0763
於長夜中	-11.0766
萬德	-11.0768
諸受	-11.0772
悅可	-11.0773
凡夫地	-11.0777
總觀	-11.0777
之頃	-11.0778
廣解	-11.0779
教誡	-11.078
辟支	-11.0782
不退轉於阿耨多羅三藐三菩提	-11.0788
皆同一	-11.0789
誰當	-11.079
宣布	-11.0793
分中	-11.0794
諸事	-11.0799
從初	-11.08
受教而	-11.0804
加行	-11.0807
少有	-11.0807
如來功德	-11.0812
姝好	-11.0814
五欲境界	-11.0815
即當	-11.0816
終無有	-11.0817
修福	-11.0827
為諸有情	-11.0828
大力菩薩	-11.0837
粗	-11.0841
許說	-11.0845
曾見	-11.0847
之水	-11.085
若已	-11.0851
眾生相	-11.0852
永不	-11.0853
為破	-11.0854
空無相	-11.0854
如是菩薩摩訶薩	-11.0854
猶是	-11.0856
供佛	-11.0861
普光	-11.0862
初發意	-11.0862
於此正法	-11.0862
正示	-11.0864
兩義	-11.0865
空義	-11.0868
於菩薩藏正法	-11.0874
故說為	-11.0875
三萬二千	-11.0876
以天	-11.0881
汝言	-11.0883
無增減	-11.0884
謂為	-11.0886
無貪	-11.0888
無過失	-11.0893
化益	-11.0894
見於	-11.0894
生死涅槃	-11.0895
修供養	-11.0896
得證	-11.09
寶衣	-11.09
對前	-11.0902
無過	-11.0908
序分	-11.091
如法華	-11.0912
生我國	-11.0916
眾生令	-11.0918
感佛	-11.0921
猶未	-11.0921
得樂	-11.0921
六界	-11.0923
俱胝歲	-11.0926
圓淨	-11.0929
甚可	-11.0931
不善根	-11.0932
都不	-11.0932
悅豫	-11.0933
即是菩提	-11.0934
智行	-11.0938
無壽者	-11.0946
歸趣	-11.0952
是句	-11.0953
一千	-11.0954
悉平等	-11.0959
同彼	-11.0961
上來第一	-11.0964
於此經	-11.0967
於何處	-11.0971
常無常	-11.0971
所犯	-11.0972
天人世間	-11.0972
食者	-11.0973
隨業	-11.0974
以佛神力	-11.0974
所作業	-11.0975
山中	-11.0978
如大海	-11.0979
母胎	-11.098
散壞	-11.098
即於佛前	-11.0987
功德聚	-11.0988
本國	-11.0988
足下	-11.0989
吾等	-11.0999
自然生	-11.1
而求	-11.1002
餘方	-11.1003
咸悉	-11.1004
四魔	-11.1006
能發	-11.1006
忍受	-11.1007
由於	-11.1008
色蘊	-11.1008
觀諸眾生	-11.1009
世時	-11.101
五法	-11.1013
華座	-11.1013
一切法空	-11.1015
瞋行	-11.1016
悉能知	-11.1016
心念言	-11.1017
此句	-11.1019
一章	-11.1021
識生	-11.1023
被大甲冑	-11.1027
來會	-11.103
法要	-11.1031
世有	-11.1035
皆歡喜	-11.1037
佛塔	-11.1043
無悔	-11.1046
得如是	-11.1046
德行	-11.1047
證涅槃	-11.1048
壽命無量	-11.1052
生也	-11.1054
別顯	-11.1055
方便智	-11.1057
閻浮提中	-11.106
悋惜	-11.1065
清淨智	-11.1066
懷疑	-11.1069
唯識	-11.1073
天妙	-11.1078
業果	-11.1078
之惡	-11.1078
發無上道心	-11.1078
法智	-11.1081
不久亦當	-11.1081
一切諸法皆悉空寂	-11.1081
奴	-11.1081
空無空相	-11.1082
冤	-11.1082
那庾	-11.1082
池水	-11.1083
諸天及人	-11.1083
與空共行	-11.1083
西天譯經三藏朝散大夫試鴻臚	-11.1084
熾	-11.1084
寂意菩薩	-11.1087
廟	-11.1087
捶打	-11.1088
無所罣礙	-11.1089
今此經	-11.1089
有所說	-11.109
遠塵離垢	-11.109
等虛空	-11.1091
躬	-11.1091
空義隱覆	-11.1093
□	-11.1094
大目揵連	-11.1094
▁36	-11.1094
復生三想	-11.1095
竊	-11.1095
百千眾生	-11.1095
唯心	-11.1096
出家學道	-11.1096
振動	-11.1097
貝	-11.1097
班宣	-11.1097
是我所	-11.1097
罰	-11.1097
離塵	-11.1097
三章	-11.1099
黑暗	-11.1099
洞	-11.1099
鬪戰	-11.1099
已後	-11.1099
靈鷲山	-11.11
相續不斷	-11.11
工	-11.1102
掌中	-11.1103
陵	-11.1103
饍	-11.1104
承事供養	-11.1104
祖	-11.1105
銀青光祿大夫	-11.1105
得授記	-11.1105
踊躍歡喜	-11.1106
佛所說法	-11.1106
諸有情類	-11.1107
彼女人	-11.1108
以大	-11.1109
雷	-11.111
淨修梵行	-11.111
是則名曰	-11.111
蜂	-11.1111
爾時佛告舍利子	-11.1112
就文有	-11.1114
濫	-11.1116
斯經	-11.1117
如來十力	-11.1118
明義	-11.1119
無邊功德	-11.112
一音	-11.1122
為最	-11.1123
四萬二千	-11.1126
觀此	-11.1127
今文	-11.1134
經歷	-11.1135
如來於此	-11.1135
無法	-11.1136
六事	-11.1137
慈氏菩薩	-11.1137
亂心	-11.1137
息除	-11.1137
現在世	-11.1138
形容	-11.1138
見故	-11.1142
於諸世間	-11.1145
行因	-11.1146
妙善	-11.1147
今復	-11.1151
有生死	-11.1152
今則	-11.1153
我等今者	-11.1154
如是相	-11.1156
不來	-11.1157
事究竟	-11.1159
聞法已	-11.1162
愛重	-11.1166
百千俱胝那庾多	-11.1166
智慧方便	-11.1167
作是觀者	-11.1168
修於	-11.1169
雖得	-11.117
愍哀	-11.117
宣說正法	-11.1176
利行	-11.1181
勿生	-11.1182
捨三分	-11.1182
不捨眾生	-11.1183
菩薩不爾	-11.1183
敬信	-11.119
不去	-11.1192
因緣生	-11.1192
聽者	-11.1193
諸力	-11.1193
離生死	-11.1193
極為	-11.1195
不發	-11.1203
事相	-11.1203
人多	-11.1207
墮在	-11.1208
能盡	-11.1211
毀犯	-11.1212
三想	-11.1214
不一	-11.1215
皆可	-11.1215
險	-11.1216
威神力故	-11.1217
是故名	-11.1218
愛之	-11.1219
自性清淨心	-11.1222
修行者	-11.1223
不相似	-11.1224
世界中	-11.1226
今且	-11.1227
不減	-11.1228
有邊	-11.1228
如是法門	-11.1232
必須	-11.1234
奉上	-11.1235
夜分	-11.1239
蓋是	-11.1239
不忍	-11.124
苦報	-11.1242
無遺	-11.1244
是故世尊	-11.1245
敬心	-11.1247
八十億	-11.1247
稱譽	-11.1247
不了義	-11.1249
成上	-11.1255
龍女	-11.1255
五通	-11.1255
迴心	-11.1256
教門	-11.126
眾圍繞	-11.1265
明淨	-11.1268
告阿難	-11.1269
來此	-11.1271
寶物	-11.1276
麁惡	-11.1281
初總標	-11.1283
是誰	-11.1283
明修	-11.1283
復云何	-11.1284
寂靜故	-11.1285
厭患	-11.1286
諸結	-11.1289
涅槃云	-11.1289
當求	-11.1292
同於	-11.1292
何謂菩薩等遊	-11.1295
謂諸菩薩	-11.1302
上生	-11.1302
異相	-11.1304
為空	-11.1312
是非	-11.1314
得無畏	-11.1315
進趣	-11.1319
謂無	-11.1319
長遠	-11.132
不堪	-11.132
是無垢	-11.1324
為佛作禮	-11.1328
行慈	-11.1332
不除	-11.1332
諸不善法	-11.1333
大聲聞	-11.1335
時無所從來	-11.1337
不成就	-11.1337
瑕穢	-11.1337
爾時世尊讚	-11.134
七千	-11.134
寶網	-11.1344
之音	-11.1345
當觀	-11.1351
華嚴經	-11.1355
無畏女	-11.1355
無言說	-11.1355
於一切時	-11.1358
持淨戒	-11.1358
如是說者	-11.1359
無所受	-11.1359
能取	-11.1361
時會	-11.1362
若有人	-11.1362
莫作	-11.1365
道路	-11.1366
無利	-11.137
百千種	-11.137
之數	-11.1371
大河	-11.1372
持其名者	-11.1373
得作佛	-11.1379
嘆佛	-11.138
無染著	-11.1381
無壞	-11.1386
紺	-11.1386
堅牢	-11.1386
不調伏	-11.1389
得脫	-11.1392
又見	-11.1393
演法	-11.1402
無瞋恚	-11.1403
菩提樹下	-11.1405
諸師	-11.1406
之屬	-11.1408
妙音聲	-11.1411
諸佛國	-11.1412
善觀	-11.1413
般	-11.1415
見諸法	-11.1415
盈	-11.1418
澄	-11.1422
覺品	-11.1423
之土	-11.1426
咎	-11.1431
隨我	-11.1432
自己	-11.1432
大事	-11.1434
遲	-11.1436
心平等	-11.1437
世間所有	-11.1438
諸大聲聞	-11.1439
所食	-11.1439
為未來	-11.1441
述云	-11.1441
繫心	-11.1441
善了知	-11.1442
皆發無上正真道意	-11.1443
眾所知識	-11.1445
阿惟越致	-11.1445
為生	-11.1448
江	-11.1448
先道	-11.1449
他方異國	-11.1449
傳梵大師賜紫沙門臣法護等奉詔譯	-11.1451
燃	-11.1452
大唐三藏菩提流志奉詔譯	-11.1453
名無相解脫門	-11.1453
伺	-11.1454
阿脩羅	-11.1456
薜荔	-11.1457
文殊師利法王子	-11.1457
以為前導	-11.1458
閻浮檀金	-11.1458
下品下生	-11.1458
令入	-11.146
稱說	-11.146
心數法	-11.146
領納	-11.1461
坦	-11.1461
否	-11.1461
環	-11.1461
爾時世尊欲重宣此義	-11.1462
說此法	-11.1462
自利利他	-11.1463
嚴淨佛土	-11.1463
河沙	-11.1464
多羅	-11.1464
騰	-11.1465
無復煩惱	-11.1465
晝	-11.1465
常樂我淨	-11.1466
愚冥	-11.1466
樂處	-11.1466
搖動	-11.1467
捨家出家	-11.1467
洞達	-11.1468
􂌞	-11.1468
「『	-11.1468
大神變	-11.1469
盤	-11.1469
眉間	-11.147
大阿羅漢	-11.147
別相	-11.147
嘉	-11.1471
殑伽沙等	-11.1471
於中初先	-11.1471
夫婦	-11.1472
塚間	-11.1472
匿	-11.1472
耳識	-11.1472
牆	-11.1473
蕩	-11.1473
三界中	-11.1474
歎未曾有	-11.1474
案	-11.1476
讚嘆	-11.1476
無由	-11.1477
縱橫	-11.1477
練	-11.1478
祥	-11.1478
一切世間天	-11.1479
本自	-11.1479
起諸	-11.148
執持名號	-11.148
如是觀察	-11.148
修慈	-11.148
由此風力	-11.1481
給孤獨	-11.1482
此人則為	-11.1484
夷	-11.1484
自然七寶	-11.1484
為有	-11.1485
此云何	-11.1486
聞此法	-11.1487
為師	-11.1487
同止	-11.1488
無我無人	-11.1488
為苦	-11.1489
涅	-11.1491
於是世尊	-11.1492
惱亂	-11.1495
》、《	-11.1495
靜處	-11.1499
安樂世界	-11.1499
終始	-11.15
而食	-11.15
麁細	-11.1501
殑伽沙數等	-11.1502
凡夫人	-11.1502
就前	-11.1505
機緣	-11.1505
皆名	-11.1506
轉變	-11.1506
變成	-11.1508
此理	-11.1509
即供養	-11.1509
隱顯	-11.1513
惟願	-11.1514
深山	-11.1516
心歡喜	-11.1517
滅道諦	-11.1519
如須彌	-11.152
非當有	-11.152
離一切相	-11.1523
假立	-11.1523
計我	-11.1523
囉尼	-11.1527
無有生	-11.1528
又如實知	-11.1529
於現在世	-11.1533
樂見	-11.1537
非行	-11.1539
相及	-11.1541
尚不能	-11.1543
器世間	-11.1543
前文	-11.1544
云何奉持	-11.1546
四神足	-11.1548
五蓋	-11.155
如來祕密	-11.1553
調和	-11.1555
汝莫	-11.1555
遍行	-11.1557
無異攝受正法	-11.1557
不護	-11.156
四章	-11.1561
言其	-11.1561
名利	-11.1561
三匝	-11.1564
於義	-11.1565
覺已	-11.1565
佛也	-11.1565
起大	-11.1565
開化眾生	-11.1566
法師云	-11.1566
兜率	-11.1567
能使	-11.1568
攝受正法者	-11.1569
皆悉具足	-11.157
所顯	-11.1571
解也	-11.1573
去來現在	-11.1574
智德	-11.1579
諸德	-11.1582
一觀	-11.1584
餘者	-11.1585
聲聞獨覺	-11.1586
而是	-11.1589
得彼	-11.1591
於五欲	-11.1592
覩佛	-11.1593
不近	-11.1595
尊長	-11.1601
勝心	-11.1604
有一人	-11.1607
五欲樂	-11.1608
著於	-11.1609
無命	-11.1612
觀中	-11.1612
各持	-11.1614
是知	-11.1615
殺父	-11.1616
廣長	-11.1619
結成	-11.1619
第二句	-11.1619
而心	-11.162
初先	-11.1621
四門	-11.1623
一切諸法無	-11.1624
當知皆是	-11.1626
胎藏	-11.1627
約人	-11.1628
此業	-11.163
禮佛足	-11.163
名為死	-11.1631
三千大千世界所有	-11.1632
無所得故	-11.1633
誰有	-11.1636
則生	-11.164
說法師	-11.1642
即前	-11.1642
一滅諦	-11.1642
風大	-11.1643
其水	-11.1645
陀羅	-11.1646
淨持戒	-11.1647
正住	-11.165
受具足	-11.1651
自力	-11.1652
未證	-11.1654
精進行	-11.1655
令得阿耨多羅三藐三菩提	-11.166
女報	-11.1666
像觀	-11.1672
善利	-11.1674
此一	-11.1675
不顧	-11.1677
隨心所	-11.1682
所執	-11.1684
盡滅	-11.1684
高顯	-11.1685
滅煩惱	-11.1687
喻如	-11.1689
亦復無	-11.169
有為生死	-11.1691
諸天子等	-11.1694
他化	-11.1695
能現	-11.1695
即同	-11.1698
廣博	-11.1699
之色	-11.1709
以聞	-11.171
卷第三	-11.1712
作是觀	-11.1713
行德	-11.1716
舍利子白佛言	-11.1717
若取	-11.1719
於佛教	-11.1719
疏云	-11.1725
開發	-11.1727
威神力	-11.1728
廣略	-11.1729
之外	-11.1729
歡喜心	-11.173
亦難	-11.1732
初總	-11.1733
悕	-11.1734
教中	-11.1735
經本	-11.1735
有佛出世	-11.1738
是族姓子	-11.1739
六明	-11.1739
諸佛子	-11.174
不得自在	-11.1744
六十四	-11.1745
乃曰	-11.1746
無漏法	-11.1748
初發	-11.175
趣地獄	-11.1752
順忍	-11.1753
行圓滿	-11.1758
所行處	-11.1759
為人說	-11.1761
非聲聞	-11.1767
身根	-11.1767
於善	-11.1768
雜寶	-11.1769
曾有	-11.1779
號為	-11.1781
不必	-11.1781
不謗	-11.1783
百萬	-11.1783
觀想	-11.1783
於諸菩薩	-11.1784
六種震動	-11.1786
世界名	-11.179
無身	-11.1792
釋上	-11.1792
大利	-11.1798
無有少	-11.1801
漸至	-11.1803
具足戒	-11.1806
不脫	-11.1808
比丘眾	-11.1809
膩	-11.1814
心自在	-11.1814
正定聚	-11.1814
乃至涅槃	-11.1815
久已	-11.1818
有斯	-11.1818
乘體	-11.1819
十事	-11.1821
逝	-11.1826
尼彌王	-11.1827
無轉	-11.1828
起心	-11.1829
大菩薩藏微妙法門	-11.1831
淨布施	-11.1832
大牟尼	-11.1834
衛	-11.1834
阿羅呵	-11.1835
觀也	-11.1835
水想	-11.1836
為別	-11.1836
果故	-11.1836
卷第二	-11.1837
祕密主	-11.1837
以慈	-11.1837
責	-11.1837
大勢至菩薩	-11.1838
聲聞人	-11.184
掉	-11.184
刃	-11.184
有斯患	-11.1841
卷第四	-11.1842
法欲滅時	-11.1842
傾動	-11.1842
何謂菩薩等意分別遊入	-11.1843
道教	-11.1844
漿	-11.1844
繒綵	-11.1844
業因緣故	-11.1844
稽首禮	-11.1845
驢	-11.1845
鎖	-11.1845
難遇	-11.1845
忍辱波羅蜜多	-11.1845
矜	-11.1845
無有厭足	-11.1846
囑	-11.1846
餓	-11.1847
垢穢	-11.1847
飄	-11.1848
禽	-11.1848
縷	-11.1848
繼	-11.1849
爾時世尊而說頌曰	-11.185
八功德水	-11.185
久近	-11.185
孝養父母	-11.1851
方便故	-11.1851
曼陀羅華	-11.1851
香潔	-11.1853
文殊師利童真菩薩	-11.1853
尊卑	-11.1854
伐	-11.1854
3	-11.1855
耆年	-11.1855
豪貴	-11.1855
所生之處	-11.1856
皆使	-11.1856
麤	-11.1856
秦	-11.1857
諸通慧	-11.1857
作事	-11.1858
耆	-11.1858
半偈	-11.1859
自受用	-11.186
蠲除	-11.186
揀	-11.1862
被甲冑	-11.1863
茂	-11.1863
遏	-11.1864
是曰	-11.1864
鷲	-11.1865
欄	-11.1866
百千億那由他	-11.1869
異學	-11.187
權方便	-11.187
因力	-11.187
包	-11.1872
聖諦者	-11.1872
長老阿難	-11.1873
得名為	-11.1874
往生彼國	-11.1874
起惡	-11.1876
釋曰	-11.1879
與諸大眾	-11.1882
今現在世	-11.1883
大菩提心	-11.1883
毒蛇	-11.1884
嗚呼	-11.1884
是諸菩薩摩訶薩	-11.1885
圓備	-11.1885
如是眾生	-11.1885
雨天	-11.1888
是說	-11.1888
為汝	-11.1889
雖殊	-11.189
却後	-11.189
此娑婆世界	-11.189
之境界	-11.1891
受我	-11.1891
違諍	-11.1892
行成	-11.1892
此則是	-11.1892
問難	-11.1895
一切皆是	-11.1895
使我	-11.1896
時淨飯王	-11.1898
伽耶	-11.1899
在閑居者	-11.1901
成就阿耨多羅三藐三菩提	-11.1902
之過	-11.1904
生尊重	-11.1904
有大威德	-11.1905
四天王天	-11.1908
覺觀	-11.1908
親愛	-11.191
慧者	-11.191
樂受	-11.191
不至	-11.191
如實修行	-11.1915
淨潔	-11.1915
得失	-11.1916
利益一切眾生	-11.1919
亦復不能	-11.1919
退還	-11.1921
何謂四	-11.1926
以善方便	-11.1926
法印	-11.1927
大捨	-11.193
眾生見	-11.1931
先觀	-11.1932
備悉	-11.1934
常能	-11.1935
八諦	-11.1937
無文字	-11.1938
離自性	-11.194
饒	-11.1941
煩惱濁	-11.1943
得生天	-11.1945
佛語彌勒	-11.1947
昔來	-11.1948
將來	-11.1949
不親近	-11.1953
說一乘道	-11.1953
此相	-11.1955
諸比丘等	-11.1956
說一切法	-11.1957
極貧	-11.1958
雖無	-11.1958
若謂	-11.1962
分證	-11.1963
作沙門	-11.1964
具足功德	-11.1967
入惡道	-11.1967
令諸有情	-11.1968
造罪	-11.197
彼菩提道	-11.197
知恩	-11.1972
光普照	-11.1976
如我所	-11.1978
無眼	-11.1979
得一切佛法	-11.1981
戒者	-11.1982
又上	-11.1983
入佛法	-11.1984
一毛孔	-11.1984
得解	-11.1986
能覺了	-11.1986
第四明	-11.1988
王及	-11.199
共生	-11.1991
宜應	-11.1991
不愛樂	-11.1991
濟度	-11.1994
破惡	-11.1995
明如來藏	-11.1998
不待	-11.1998
得須陀洹	-11.2003
如金剛	-11.2005
有罪	-11.2013
置於	-11.2015
人同	-11.2016
乃於	-11.2018
教主	-11.2024
由其	-11.2024
放捨	-11.2024
能詮	-11.2025
戒律	-11.2025
慧菩薩	-11.203
當知即是	-11.2031
三十八	-11.2032
何故名	-11.2035
天子當知	-11.2035
經宗	-11.204
淨法	-11.204
佛以	-11.2043
入大乘	-11.2047
要當	-11.2053
更無餘	-11.2054
發此	-11.2055
小果	-11.2056
滅一切	-11.2056
感應	-11.2059
世所	-11.2059
汝問	-11.2059
文殊言	-11.2061
樹枝	-11.2062
今佛	-11.2063
未曾聞	-11.2063
能治	-11.2065
得度	-11.2067
又復有	-11.2068
得決定	-11.207
破無明	-11.2071
解脫道	-11.2071
大菩薩眾	-11.2073
及眾	-11.2075
起大悲	-11.2078
成菩提	-11.208
普入	-11.208
顯其	-11.2082
三惡	-11.2084
如是次第	-11.2093
我今欲	-11.2093
舉足	-11.2095
摩羅	-11.2096
有限	-11.2101
內德	-11.2102
於無量劫	-11.2103
修戒	-11.2103
即應	-11.2106
必能	-11.2106
佛地論	-11.211
能示現	-11.2112
善根力	-11.2113
珠寶	-11.2114
而已	-11.2115
何故菩薩	-11.2116
不移	-11.212
七寶樹	-11.212
三處	-11.2124
境界故	-11.2128
其城中	-11.2129
此四種	-11.2129
善聽	-11.213
此二歸依	-11.213
時也	-11.2135
外凡	-11.2138
發斯	-11.2139
大火	-11.2141
五百菩薩	-11.2143
釋此	-11.2146
未斷	-11.2148
瑪瑙	-11.2148
有子	-11.215
黠	-11.2151
頂受	-11.2151
三聚	-11.2153
得成佛	-11.2153
若據	-11.2154
叉	-11.2154
限量	-11.2155
調伏眾生	-11.2155
初約	-11.2156
百千萬	-11.2158
無苦	-11.2158
無穢	-11.216
又解	-11.216
嚴身	-11.216
我亦如是	-11.2162
教示	-11.2165
一切種	-11.2167
求涅槃	-11.2171
故令	-11.2171
同處	-11.2172
過也	-11.2175
諸魔眾	-11.2177
是彼	-11.2178
本處	-11.218
本行	-11.2181
無差	-11.2181
四種法	-11.2182
拜	-11.2184
有常	-11.2185
所從來	-11.2185
攝論	-11.2187
一切法中	-11.219
供養我	-11.2192
六反震動	-11.2192
不習	-11.2194
佛弟子	-11.2197
依果	-11.2199
卷第一	-11.22
見諸眾生	-11.22
以知	-11.2201
苦受	-11.2205
皆入	-11.2208
邪業	-11.2208
谷	-11.2214
菩薩戒	-11.222
佛光明	-11.2221
得是願乃作佛	-11.2229
坐處	-11.223
皆不失壞	-11.2231
復還	-11.2232
妻妾	-11.2234
入舍婆提城	-11.2234
二別	-11.2234
於彼佛所	-11.2235
是故今	-11.2235
辱	-11.2235
前後圍遶	-11.2237
如來具足殊勝	-11.2237
旃陀羅	-11.2238
菩薩若能	-11.2239
憂悲苦惱	-11.224
如人夢中	-11.224
阿羅漢果	-11.2241
滓	-11.2242
我不作佛	-11.2242
捐	-11.2242
交絡	-11.2243
拔濟	-11.2244
與虛空等	-11.2245
覲	-11.2245
如是忍故	-11.2246
冬	-11.2247
塗香末香	-11.2248
現其身	-11.2248
四大洲	-11.2248
猛利	-11.2248
是則附於欲	-11.2249
凝	-11.2249
以是之故	-11.2249
綵	-11.2249
士夫	-11.2249
難值	-11.2249
迦陵頻伽	-11.225
捺	-11.2251
c	-11.2251
f	-11.2251
乞匃	-11.2251
三十七品	-11.2251
疲惓	-11.2252
籠	-11.2252
慳惜	-11.2253
峯	-11.2253
質直	-11.2253
伽他	-11.2253
癡暗	-11.2253
可厭	-11.2254
黠慧	-11.2254
善住意	-11.2254
於母腹中有風	-11.2254
快哉	-11.2255
須菩提復問	-11.2255
安穩	-11.2255
此陀羅尼	-11.2255
解脫智見	-11.2256
印印一切法	-11.2256
時彼菩薩	-11.2256
除諸	-11.2257
戲笑	-11.2257
咽	-11.2257
弭	-11.2259
要期	-11.2259
肘	-11.226
一心不亂	-11.226
假使有人	-11.226
束	-11.226
十八界	-11.2261
苑	-11.2261
阿那律	-11.2262
說此偈已	-11.2262
威儀禮節	-11.2264
正宗分	-11.2264
歡喜奉行	-11.2265
恭敬尊重	-11.2266
是為菩薩摩訶薩	-11.2266
謗毀	-11.2267
雞	-11.2267
億佛	-11.227
且止	-11.227
法財	-11.227
如意足	-11.2272
末利	-11.2273
筏底	-11.2273
憶想	-11.2275
臨死	-11.2275
所用	-11.2278
業者	-11.2278
藍	-11.2278
無難	-11.2283
空處	-11.2289
顛倒眾生	-11.229
財富	-11.229
藥草	-11.2294
錢財	-11.2295
住大乘	-11.2296
不取菩提	-11.2297
如意珠	-11.2297
不逆	-11.2297
殊異	-11.2299
欲顯	-11.2301
生大歡喜	-11.2302
所思	-11.2307
開合	-11.2308
得此三昧	-11.2308
汝云何	-11.2315
百千由旬	-11.2316
於欲	-11.2317
及聲聞眾	-11.232
三世平等	-11.2321
四寶	-11.2322
先列	-11.2323
有四句	-11.2324
得罪	-11.2325
正慧	-11.2326
而與	-11.2328
退沒	-11.2331
於甚深法	-11.2331
緣力	-11.2332
戒定慧	-11.2337
心無所著	-11.234
為菩薩時	-11.2344
二從	-11.2349
動亂	-11.235
如是寂意	-11.2353
惡不善法	-11.2354
無方	-11.2354
善思惟	-11.2354
由佛	-11.2355
若佛	-11.2356
瞋癡	-11.2361
所壞	-11.2366
佛會	-11.2366
受是	-11.2366
未見	-11.2369
鈴網	-11.237
或見菩薩	-11.2374
當往	-11.2375
是真實	-11.2383
合有	-11.2387
能伏	-11.2387
尊重讚歎	-11.2388
次於	-11.239
欲為	-11.2393
勿令	-11.2393
道智	-11.2394
斷疑	-11.2396
此經典	-11.2408
心不相應	-11.2409
異論	-11.2411
常作	-11.2412
眼入	-11.2413
得聞如是	-11.2414
寶蓮華	-11.2415
生歡喜心	-11.2419
憶念夢中	-11.2419
!』	-11.242
園觀	-11.242
所遊	-11.2421
同生	-11.2422
以妙	-11.2423
正路	-11.2428
五曰	-11.2433
後有	-11.2434
非唯	-11.2435
法想	-11.2438
歸於	-11.2441
流出	-11.2443
化比丘	-11.2444
方所	-11.2449
正使	-11.2451
性平等	-11.2453
不及一	-11.2459
顯了	-11.2461
如世	-11.2468
別教	-11.2469
以我	-11.2469
當更	-11.247
愛見	-11.2471
興發	-11.2472
能入解	-11.2474
皆成	-11.248
興供養	-11.2482
戒德	-11.2482
得度脫	-11.2482
死魔	-11.2483
人王	-11.2484
淨國	-11.2485
在後	-11.2487
譬若	-11.2487
得佛道	-11.2492
所護念	-11.2493
偏舉	-11.25
大慈心	-11.2501
為論	-11.2504
菩薩藏正法	-11.2504
布施者	-11.2509
聲聞大眾	-11.251
釋所以	-11.2513
應住	-11.2513
瑞相	-11.2516
戒故	-11.2517
何以故者	-11.2522
為他人	-11.2522
菩薩有四法	-11.2524
對二乘	-11.2524
於戒	-11.2525
舉聲	-11.2527
第	-11.2527
真佛	-11.2529
能度	-11.2529
能施	-11.2532
生死海	-11.2541
相也	-11.2542
明其所	-11.2543
無邊智	-11.2552
於後末世	-11.2554
衣服飲食	-11.2555
以空	-11.2555
欲境	-11.2557
世尊釋迦牟尼如來	-11.2559
少善根	-11.256
若至	-11.256
色欲	-11.2562
華果	-11.2565
謂能	-11.2567
令眾	-11.2567
辨其	-11.2569
如世尊	-11.2577
入三昧	-11.2577
速能	-11.258
耳聞	-11.2582
姝	-11.2582
能住	-11.2584
常起	-11.2584
得成阿耨多羅三藐三菩提	-11.2585
明菩薩	-11.2587
是為十	-11.2587
圍	-11.2587
甚為	-11.2592
惡聲	-11.2596
諸音樂	-11.2596
厭捨	-11.2602
惡因	-11.2607
善修習	-11.2609
諸佛境界	-11.2609
俱生	-11.2614
無量眾	-11.2623
憐	-11.2625
了別	-11.2627
為異	-11.2629
與大比丘眾	-11.263
方乃	-11.2632
生滅故	-11.2632
語已	-11.2632
彩	-11.2632
善施	-11.2636
妙菩提	-11.2637
善作	-11.2639
疲	-11.2639
教他	-11.2641
小萎	-11.2641
證明	-11.2641
應如是持	-11.2643
過諸	-11.2643
心心所	-11.2644
利益事	-11.2647
得淨	-11.2647
無病	-11.265
既云	-11.265
如月	-11.2653
身語意	-11.2654
擾	-11.2655
忽然不現	-11.2655
意三種業	-11.2656
竝	-11.2656
發希有想	-11.2656
既出家已	-11.2657
眾病	-11.2657
勤加精進	-11.2657
泡	-11.2657
東西	-11.2657
給侍	-11.2658
二足尊	-11.2659
二寶	-11.266
龍神	-11.2661
不可限量	-11.2662
報土	-11.2662
發淨心	-11.2663
句不同	-11.2664
米	-11.2664
故不得	-11.2664
以要言之	-11.2664
舍婆提	-11.2664
晝夜六時	-11.2665
極妙	-11.2665
竪	-11.2666
▁35	-11.2666
離垢施	-11.2666
軌	-11.2667
孤獨	-11.2667
憑	-11.2667
銷	-11.2667
夭	-11.2668
大目如來	-11.2668
]《	-11.2668
淵	-11.2668
如化	-11.2668
教勅	-11.2669
曠劫	-11.267
掃	-11.2671
永滅	-11.2671
醎	-11.2671
一小劫	-11.2672
耳鼻舌身心	-11.2672
食噉	-11.2673
床座	-11.2673
明月珠	-11.2674
過咎	-11.2674
今釋	-11.2674
寸	-11.2675
諸菩薩摩訶薩應入	-11.2675
禪波羅蜜	-11.2675
乘空	-11.2676
觀相	-11.2676
爾時彌勒菩薩白佛言	-11.2676
開敷	-11.2676
母腹	-11.2676
一切樂具	-11.2677
憂慼	-11.2677
安隱快樂	-11.2678
杜	-11.2678
穴	-11.2678
從初訖	-11.2679
於諸世間心不疲惓	-11.2681
非第一義	-11.2681
衣被	-11.2683
籍	-11.2683
無上丈夫	-11.2683
努	-11.2683
此明夫人	-11.2685
世事	-11.2685
華嚴云	-11.2685
見佛聞法	-11.2686
燒香	-11.2688
開為二	-11.2688
舉此	-11.2688
汝說	-11.2691
非如	-11.2692
泯	-11.2693
無邊聖諦	-11.2694
希有之法	-11.2695
嚴好	-11.2695
住法	-11.2695
車乘	-11.2699
正為	-11.27
他方世界	-11.27
證理	-11.27
而共同止	-11.2703
以金	-11.2704
從地	-11.2706
諸女	-11.2708
以此功德	-11.2709
良由	-11.2709
之語	-11.271
法化	-11.2711
色無色界	-11.2712
實也	-11.2713
處世	-11.2714
誰是	-11.2715
各別	-11.2717
相狀	-11.2717
赤珠	-11.2721
以手	-11.2724
滅智	-11.2725
散花	-11.2726
成身	-11.2728
業因	-11.273
圓滿故	-11.2731
▁薩	-11.2735
未滿	-11.2735
如所	-11.2737
於正法中	-11.2737
未除	-11.2738
作是語	-11.2738
失念	-11.2739
不應親近	-11.274
聞是法	-11.2741
我皆	-11.2741
皆是如來	-11.2742
多囉	-11.2743
名不思議	-11.2744
能覆	-11.2745
施以	-11.2747
施已	-11.2749
則自然	-11.2752
殊勝功德	-11.2754
堅著	-11.2755
住止	-11.2759
仁王	-11.276
亦不可	-11.2762
無量清淨佛光明	-11.2765
為最上	-11.2768
境智	-11.277
修空	-11.277
寂慧菩薩	-11.277
地天	-11.2771
二十七	-11.2771
便有	-11.2773
音菩薩	-11.2779
捨此	-11.278
所生處	-11.2781
行法施	-11.2782
欲往	-11.2782
不妄語	-11.2783
已曾供養	-11.2783
善清淨	-11.2786
所立	-11.2786
由我	-11.2787
唯為	-11.2787
總名	-11.2788
於諸善法	-11.2788
即法	-11.2789
如是知已	-11.2792
求出家	-11.2792
此願	-11.2793
願攝	-11.2793
持用	-11.2795
唯在	-11.2804
我應	-11.2805
被服	-11.2805
是經典	-11.2806
於生死中	-11.2808
婆羅	-11.2814
無住無	-11.2815
依之	-11.2816
大集	-11.2819
貪等	-11.282
印可	-11.282
黃色	-11.2821
聞名	-11.2823
喻顯	-11.2825
若能了知	-11.2831
何事	-11.2833
便即	-11.2834
於諸眾生起	-11.2834
說四諦	-11.2836
捨施	-11.2837
餘菩薩	-11.2839
恒河	-11.2841
等無異	-11.2841
無智者	-11.2842
天親	-11.2843
最極	-11.2844
如說行	-11.2847
戒蘊	-11.2851
利益他	-11.2857
之主	-11.2862
萬劫	-11.2862
壞滅	-11.2864
怖魔	-11.2865
平等法	-11.2868
從空	-11.2871
觀智	-11.2872
白文殊師利言	-11.2875
常處	-11.2878
無量壽如來	-11.2879
尊者須菩提	-11.2891
諸禪定	-11.2891
四德	-11.2891
有大利益	-11.2893
凡人	-11.2894
彼世界	-11.2902
於諸欲	-11.2906
之罪	-11.2911
又諸菩薩	-11.2914
無諍論	-11.2916
樂修	-11.2921
之前	-11.2924
大品	-11.2924
難事	-11.2924
舍衛城中	-11.2926
佛陀	-11.2926
說如來藏	-11.2926
不得生	-11.2927
微少	-11.2929
汝今諦聽	-11.293
集起	-11.2932
此五	-11.2935
不高	-11.2937
果證	-11.2939
罪報	-11.2941
四顛倒	-11.2947
功德海	-11.2954
生彼國者	-11.2955
陰魔	-11.2955
信佛語	-11.2958
當相	-11.296
此解	-11.296
惡趣中	-11.2962
初至	-11.2964
非謂	-11.2967
爾時世尊即	-11.2969
唯有一	-11.2971
始覺	-11.2975
眾花	-11.2975
此菩薩是	-11.2977
唯見	-11.2977
有苦	-11.2982
此智	-11.2987
八解脫	-11.2987
於苦	-11.2991
本是	-11.2994
利刀	-11.2996
異見	-11.2997
之藏	-11.2997
莊嚴功德	-11.2999
感得	-11.2999
下言	-11.3004
大光	-11.3005
通明	-11.3009
六念	-11.301
有礙	-11.3014
初發心菩薩	-11.3015
法御	-11.3016
百分	-11.3018
勝上	-11.302
生憂惱	-11.3021
世間出世間	-11.3023
無所觀	-11.3024
了諸法	-11.3026
往生阿彌陀佛國	-11.3031
十二緣	-11.3032
出三界	-11.3033
頂相	-11.3034
諸不善	-11.3037
雖知	-11.3038
稱我	-11.3044
佛告彌勒菩薩	-11.3045
愚癡人	-11.3048
起發	-11.3048
不害	-11.3052
惡慧	-11.3054
軍眾	-11.3057
欲害	-11.3057
人愛樂於此經	-11.3058
無盡意	-11.306
已成	-11.3061
滿中	-11.3062
迫	-11.3065
若於眼	-11.3065
我從今日乃至菩提	-11.3066
生瞋	-11.307
金山	-11.307
習學	-11.307
戒取	-11.3071
曾作	-11.3072
嗟	-11.3072
菩薩於彼	-11.3072
妓	-11.3072
一名字	-11.3072
度一切	-11.3074
恭	-11.3074
自讚	-11.3076
所有一切眾生	-11.3082
一四句偈	-11.3083
已去	-11.3083
麁獷	-11.3085
相差別	-11.3086
於一事中	-11.3086
宮嬪	-11.3087
誤失	-11.3087
遇善知識	-11.3088
是人所夢執	-11.3088
萬四千	-11.3089
豐饒	-11.3089
普觀	-11.309
以至蜎飛蠕動之類	-11.3091
況餘	-11.3091
寡	-11.3091
庫藏	-11.3091
戾	-11.3093
無有眾生	-11.3093
隆	-11.3094
貪染	-11.3094
千分不及一	-11.3095
無勝	-11.3095
嬈惱	-11.3095
第十四	-11.3095
資養	-11.3095
瞻禮	-11.3095
而發趣於阿耨多羅三藐三菩提	-11.3096
寬	-11.3096
伴侶	-11.3096
勤行精進	-11.3096
矚	-11.3097
調御士	-11.3097
皮肉	-11.3097
畫師	-11.3097
娑羅	-11.3097
宋	-11.3098
2	-11.3098
奔	-11.3098
清徹	-11.3098
舍摩他	-11.3098
補	-11.3099
纔	-11.3099
眉	-11.3099
玻	-11.3099
迴向發願	-11.3099
得法眼淨	-11.31
1	-11.31
帛延	-11.3101
不愚於法	-11.3101
後復生起身喜心喜	-11.3101
南北	-11.3102
如所聞法	-11.3103
或食	-11.3103
不鼓自鳴	-11.3104
迦毘羅城	-11.3104
陰界入	-11.3104
青黃赤白	-11.3105
說是偈已	-11.3106
顧戀	-11.3106
校量	-11.3106
宇	-11.3107
為己	-11.3107
驚畏	-11.3108
幸	-11.3108
仁和	-11.3108
捨一切	-11.3108
朱	-11.3108
政	-11.3109
法利	-11.3109
逾	-11.3109
崖	-11.311
是第三	-11.311
發是言	-11.311
族姓女	-11.311
教者	-11.311
本願力故	-11.3111
出種種	-11.3113
邪定聚	-11.3113
離殺生	-11.3113
何方	-11.3114
匹	-11.3114
▁爾時	-11.3116
不如理作意	-11.3116
戒聚	-11.3116
陋	-11.3117
化樂天	-11.3117
七覺支	-11.3118
聲聞之眾	-11.3118
獵師	-11.3118
來生我國	-11.3119
順行	-11.3119
誕	-11.312
黎	-11.3121
領解	-11.3121
籌	-11.3122
開演	-11.3123
文顯可	-11.3124
吐	-11.3126
引導	-11.3126
禰	-11.3126
八正道	-11.3126
麁言	-11.3126
接引	-11.3127
女人身	-11.3127
而觀	-11.3128
謙下	-11.3128
說如是法	-11.313
消化	-11.3131
爾時得無垢女	-11.3134
極果	-11.3138
無量世界	-11.3138
非過去	-11.314
大德須菩提	-11.314
四正勤	-11.3141
無慧	-11.3142
無礙心	-11.3143
真正	-11.3143
色愛	-11.3143
鉢唎	-11.3144
味著	-11.3145
入母腹	-11.3146
枝條	-11.3146
利養名聞	-11.3148
甚深之法	-11.3149
甚深義	-11.315
死時	-11.3151
與大比丘	-11.3152
羊	-11.3152
獲益	-11.3155
承力	-11.3159
人尊	-11.316
於一一	-11.316
地前菩薩	-11.3164
封	-11.3164
千俱胝	-11.3165
或墮	-11.3167
作是願	-11.3171
結前	-11.3173
乃至一念	-11.3173
無量阿僧祇劫	-11.3176
愍眾生	-11.3177
四智究竟	-11.3177
速成	-11.3178
悉空	-11.3178
見濁	-11.3179
遍十方	-11.318
寶鈴	-11.3181
以供養	-11.3182
今所	-11.3183
一切諸法悉	-11.3185
初正	-11.3185
願聞	-11.3188
遍計	-11.3188
遊戲神通	-11.3189
及聞	-11.319
當時	-11.319
得羅漢	-11.319
第十二	-11.3191
取之	-11.3191
七寶所成	-11.3196
罪人	-11.3197
聞佛名	-11.3199
大慈大悲	-11.3199
其香	-11.32
不能斷	-11.3201
前後際	-11.3203
婦人	-11.3203
始從	-11.3204
調柔	-11.3205
常自	-11.3206
煩惱病	-11.3208
諸惡道	-11.3212
應親近	-11.3213
令一切眾生	-11.3217
斯人	-11.3219
慈哀	-11.322
業緣	-11.322
擇法	-11.3222
所謂身	-11.3224
應有	-11.3224
時舍利弗	-11.3228
乃至成佛	-11.3228
【	-11.3229
十月	-11.3231
雖受	-11.3231
第二正	-11.3232
明攝受正法	-11.3232
用此	-11.3234
無識	-11.3234
發如是	-11.3234
善達	-11.3235
今就	-11.3238
解義	-11.3241
釋論	-11.3241
此二句	-11.3243
一切法平等	-11.3243
非我所	-11.3246
滿月	-11.3246
依倚	-11.3246
位也	-11.3248
不思惟	-11.3249
而修行	-11.3249
不但	-11.3251
舉身	-11.3253
辟支佛乘	-11.3254
易可	-11.3255
彼國眾生	-11.3259
都無所	-11.3259
心得自在	-11.326
無足	-11.3264
於理	-11.3264
持名	-11.3268
受報者	-11.3268
業煩惱	-11.3271
為令眾生	-11.3272
覺慧	-11.3273
勝果	-11.3274
所牽	-11.3278
正等	-11.3282
但欲	-11.3284
信忍	-11.3287
於中有三	-11.3287
其國土	-11.3289
如是事	-11.329
所藏	-11.3291
成就眾生	-11.3291
佛及菩薩	-11.3292
修諸功德	-11.3293
無量佛	-11.3295
害母	-11.3299
受食	-11.33
不別	-11.33
妙德	-11.3302
聲聞藏	-11.3303
詐現	-11.3306
所治	-11.3306
正義	-11.3307
故使	-11.3309
為身	-11.3311
頂生	-11.3313
受決	-11.3315
云何是	-11.3315
又為	-11.3318
誠諦	-11.3323
強名	-11.3324
佛是	-11.3327
形體	-11.3328
但唯	-11.333
如是行相	-11.333
化土	-11.3337
其形	-11.3339
如來悉知	-11.334
三世佛	-11.3343
不學	-11.3344
計執	-11.3345
亦不見有	-11.3347
此之二	-11.3349
佛具	-11.3349
色無色	-11.3349
十住	-11.3349
一切皆如是	-11.335
生染著	-11.335
四重	-11.3351
二足	-11.3351
取彼	-11.3352
爾時會中有	-11.3352
爾時有佛	-11.3353
向苦	-11.3356
愚夫異生	-11.3356
無量不可思議	-11.3362
二章	-11.3368
終歸	-11.3369
還生	-11.3369
觀無量壽佛	-11.3371
之所以	-11.3372
宗體	-11.3372
在家人	-11.3374
自誓	-11.3374
而諸眾生	-11.3376
他國	-11.3376
廣修	-11.3377
為藥	-11.3381
山頂	-11.3381
大眾中	-11.3387
乃名	-11.339
亦有二	-11.3398
以斯	-11.34
應云	-11.34
住著	-11.3405
愛惜	-11.3406
能堪忍	-11.3407
之願	-11.3408
不過	-11.3409
三十五	-11.3409
二身	-11.341
眾生之類	-11.3411
對治法	-11.3412
如來說法	-11.3416
過度	-11.342
當念	-11.3425
無吾我	-11.3426
以用	-11.3427
只是	-11.3428
第十五	-11.3429
為現	-11.3429
淨除	-11.343
諸人民	-11.3431
理觀	-11.3433
覺他	-11.3437
散華	-11.3437
命濁	-11.3441
得無上	-11.3441
汝等眾生	-11.3441
二大士	-11.3443
無為生死	-11.3445
即滅	-11.3446
正法滅	-11.345
滅者	-11.3456
未來世中	-11.3457
法空	-11.346
自活	-11.3465
皆名為	-11.3465
不妄	-11.3466
諸戲論	-11.3469
自言	-11.347
過去未來現在諸佛	-11.3471
不等	-11.3474
而發	-11.3477
正修行	-11.3479
無縛	-11.348
何意	-11.348
不能盡	-11.3481
明法身	-11.3482
他受用	-11.3483
釋迦文	-11.3484
見於如來	-11.3486
無諂	-11.3488
故次	-11.3488
六曰	-11.3488
散滅	-11.349
不能解	-11.3494
識亦如是	-11.3495
妙果	-11.3505
略釋	-11.3506
讚說	-11.3506
雷音	-11.3512
必成	-11.3512
前中	-11.3518
識住	-11.3519
成其	-11.3524
六時	-11.3526
愚迷	-11.3527
如響	-11.353
過恒沙	-11.3534
與前	-11.3534
於佛菩提	-11.3534
」』	-11.3539
住立一面	-11.3543
從坐而起	-11.3543
三耶三佛	-11.3544
不攝	-11.3544
上品上生	-11.3545
哭	-11.3545
何處眼	-11.3545
久如	-11.3545
乃至施及貯水	-11.3545
摩休勒	-11.3545
壁	-11.3545
我從今日	-11.3546
對治故	-11.3547
遠塵離垢得法眼淨	-11.3547
無二無別	-11.3547
三十一	-11.3548
諸樹	-11.3549
深固作意	-11.3549
脩羅	-11.3549
侍衛	-11.355
方處	-11.3551
斬	-11.3552
即現其身而為化度	-11.3552
右繞七匝	-11.3553
棄背	-11.3553
見是事已	-11.3553
綺飾	-11.3553
陣	-11.3554
9	-11.3554
戶	-11.3554
焦	-11.3555
欽	-11.3555
已到	-11.3555
墨	-11.3556
機關	-11.3557
闇冥	-11.3557
齋戒	-11.3557
最勝尊	-11.3557
塹	-11.3557
持諸禁戒	-11.3557
是為菩薩等遊	-11.3557
長者居士	-11.3557
不可窮盡	-11.3557
摩竭	-11.3558
妙相	-11.3558
阿耨多羅	-11.3559
謀	-11.356
稽首足下	-11.356
裹	-11.356
媚	-11.356
汗	-11.3561
鴦	-11.3562
充足	-11.3562
文別有	-11.3562
異生	-11.3562
無上正覺	-11.3563
寶幔	-11.3563
弗	-11.3563
就初段中	-11.3563
酥	-11.3563
暇	-11.3565
而共	-11.3566
腐	-11.3567
卵	-11.3567
惶	-11.3568
顏容	-11.3568
大風	-11.3568
江南	-11.3569
七十	-11.3569
頂戴	-11.3569
清冷	-11.357
墮於惡趣	-11.357
孝順	-11.3571
如其次第	-11.3573
家室	-11.3575
智者誰不	-11.3575
天冠	-11.3576
以離	-11.3576
即是此說苦	-11.3576
偈頌	-11.3577
無礙辯才	-11.3577
見無量壽佛	-11.3577
自知作佛	-11.3579
惑亂	-11.3579
舌根	-11.358
啼	-11.358
一部	-11.3582
如其所應	-11.3584
面目	-11.3586
親近善友	-11.3586
七寶池中	-11.3586
播	-11.3587
無過上	-11.3588
奇妙	-11.3588
資用	-11.3589
乃至無有	-11.3592
等者無名云	-11.3593
入一切法	-11.3593
第三段中	-11.3593
禪思	-11.3594
如是言生	-11.3594
是故次觀	-11.3595
嚟	-11.3596
自然化生	-11.3596
無漸至	-11.3596
汝當受持	-11.3597
今現在說法	-11.3597
苦惱眾生	-11.3598
我念過去	-11.3598
塵沙	-11.3599
根力	-11.3602
大方廣	-11.3604
王者	-11.3604
階道	-11.3606
第十三	-11.3606
風起	-11.3607
五事	-11.3611
正位	-11.3611
譬如世間	-11.3612
二藏	-11.3612
堅固精進	-11.3612
卷第一百	-11.3613
無欲	-11.3613
依教	-11.3613
簡異	-11.3614
不生故	-11.3614
落日	-11.3616
中初言	-11.3617
是菩薩忍	-11.3618
一境	-11.3618
地持	-11.362
有煩惱	-11.3626
照於	-11.3629
不周	-11.363
信欲	-11.3631
五義	-11.3633
眾想	-11.3634
他家	-11.3635
薩埵	-11.3636
心恒	-11.3637
不以為	-11.3639
以心	-11.3639
到彼岸義	-11.3641
不墮惡趣	-11.3643
無優劣	-11.3644
何故言	-11.3645
定根	-11.3646
所觀境	-11.3648
既爾	-11.3649
知苦	-11.365
能依	-11.3651
中見	-11.3653
後復	-11.3655
四十二	-11.3655
有一比丘	-11.3655
念根	-11.3658
無有邊	-11.3658
不失壞	-11.3661
因其	-11.3662
證故	-11.3664
窮極	-11.3667
隨其所應	-11.3668
佛滅後	-11.3669
眾患	-11.3669
相不可得	-11.3672
能善了知	-11.3677
能受	-11.368
離散	-11.3681
戒聞	-11.3683
所應作	-11.3685
安心	-11.3692
名等	-11.3695
極苦	-11.3696
十歲	-11.3697
此岸	-11.3699
我昔曾	-11.3704
雖未	-11.3707
亦離	-11.3708
對上	-11.3713
一異	-11.3714
無毀	-11.3714
成立	-11.3719
如來大悲	-11.372
見一切法	-11.3721
樹上	-11.3724
能藏	-11.3725
常身	-11.3725
金光明	-11.3726
生信樂	-11.3728
我國	-11.3729
詣佛	-11.373
觀察時	-11.3731
不瞋	-11.3731
於四天下	-11.3743
計著	-11.3745
上地	-11.3747
助成	-11.3748
不作是念	-11.3748
者則為	-11.3751
及未來	-11.3756
觀視	-11.3758
施故	-11.376
名譽	-11.3761
今在	-11.3763
二十九	-11.3763
覆其上	-11.3766
寶瓶	-11.3766
而知	-11.3768
同類	-11.3774
亦二	-11.3775
明解脫	-11.3776
識者	-11.3776
聲聞乘人	-11.3777
當捨	-11.3777
學地	-11.3777
勝鬘說	-11.378
覺了故	-11.3782
諸白法	-11.3783
離彼	-11.3783
同歸	-11.3786
當作是念	-11.3788
別歎	-11.379
求佛道	-11.3791
利益世間	-11.3791
超度	-11.3791
眾共	-11.3796
覩斯	-11.3796
持禁戒	-11.3797
普施	-11.3799
皆發阿耨多羅三藐三菩提心	-11.3799
起慈心	-11.38
福蘊	-11.38
歡喜地	-11.3803
不愚	-11.3804
能摧	-11.3805
毀罵	-11.3806
以信	-11.3811
六方	-11.3812
無量無邊不可思議	-11.3812
學道	-11.3814
離染	-11.3815
人非人	-11.3815
一標	-11.3816
便當	-11.3817
數千	-11.3818
四百	-11.3819
炎熾	-11.382
因是	-11.382
相中	-11.3821
不安	-11.3821
無出	-11.3823
當應	-11.3824
及諸天	-11.3828
化也	-11.383
聞如是法	-11.383
顯前	-11.3831
佛邊	-11.3831
心識	-11.3833
眾生煩惱	-11.3836
四種功德	-11.3837
饒益眾生	-11.3837
無有色	-11.3837
於夢中	-11.3838
而不可	-11.3841
作金色	-11.3842
慧天子	-11.3842
之家	-11.3843
令捨	-11.3844
住立	-11.3851
何名為	-11.3855
第二舉	-11.3858
得無上菩提	-11.3858
命終時	-11.3861
不請	-11.3863
一乘章	-11.3864
我昔為	-11.3864
即法身	-11.3865
大法光明	-11.3865
須陀洹果	-11.3866
恒沙等	-11.3866
佛頂	-11.3869
常親近	-11.387
是無為	-11.3872
證悟	-11.3876
同然	-11.3878
一念心	-11.3881
有諸眾生	-11.3882
此諦	-11.3884
轉增	-11.3885
在所	-11.3886
如是等經	-11.3887
為生死	-11.3887
謂一切法	-11.3889
他物	-11.3889
見阿彌陀佛	-11.3895
二約	-11.3897
本來空	-11.3899
所習	-11.39
不破	-11.3901
眼界	-11.3901
於長夜	-11.3902
受胎	-11.3908
一切諸天	-11.391
戒定	-11.3918
諸過失	-11.3921
四無畏	-11.3925
今現	-11.3927
重明	-11.3928
貧者	-11.393
信佛	-11.3931
攝入	-11.3933
於時世尊	-11.3933
止善	-11.3937
苦智	-11.3938
名相	-11.3943
今云	-11.3944
盲者	-11.3945
地大	-11.3946
受滅	-11.3947
復次夢見如來	-11.3948
第十一	-11.395
修多羅中	-11.3956
諸比丘眾	-11.3958
得利	-11.396
初略	-11.3961
厭惡	-11.3963
受果	-11.3963
通達一切	-11.3963
化成	-11.3966
拘胝那庾多	-11.3967
應現	-11.3968
過去佛	-11.397
虗	-11.3972
生後	-11.3975
有八種	-11.3976
廣大無量	-11.3978
度生死	-11.3982
口言	-11.3983
語須摩提	-11.3984
目犍連	-11.3984
如是如來	-11.3986
時時	-11.3986
人不樂於此經	-11.399
平等者	-11.399
異道	-11.3992
一萬	-11.3992
總攝	-11.3993
弊惡	-11.3996
皆因	-11.3996
依何	-11.3998
欲殺	-11.4
頻	-11.4002
諸疑惑	-11.4004
五章	-11.4004
頭上	-11.4005
一尋	-11.4006
江河沙	-11.4007
何所得	-11.4007
何故如來	-11.4008
當成佛	-11.4008
諸世界	-11.401
名如來藏	-11.4011
無量諸天	-11.4013
眷屬自	-11.4013
目揵連	-11.4014
三昧定	-11.4014
仗	-11.4015
離貪	-11.4015
阿蘭若處	-11.4017
如是四種	-11.4017
五體投地	-11.4017
鑊	-11.4017
如實觀	-11.4017
尤	-11.4018
爾時世尊欲重宣此義而說偈言	-11.4018
千葉	-11.4018
譯經三藏朝散大夫試光祿卿	-11.4018
舍衛大城	-11.4019
周遍虛空際	-11.402
入法界	-11.4021
閻魔羅界	-11.4021
沙門瞿曇	-11.4022
話	-11.4022
心想中現	-11.4022
鮮潔	-11.4023
見先所作	-11.4023
乘七寶車	-11.4024
無有出期	-11.4024
恣汝所問	-11.4025
諸所有	-11.4025
群品	-11.4026
異口同音	-11.4026
苾芻尼	-11.4026
歿	-11.4027
朋黨	-11.4027
腦	-11.4027
華德藏	-11.4027
虎	-11.4027
揵	-11.4027
身壞命終	-11.4028
樹王	-11.4028
婬慾	-11.4028
伺求	-11.4029
所說之法	-11.4029
或生地獄	-11.4029
空中有聲	-11.4029
西天譯經三藏	-11.403
所向	-11.403
牢	-11.403
尸波羅蜜	-11.403
饌	-11.403
莊	-11.403
二乘種不生	-11.4031
驅	-11.4031
無邊無際	-11.4031
兜術天	-11.4031
晉	-11.4031
懈	-11.4031
領受	-11.4031
好醜	-11.4032
囚	-11.4032
爾時勝鬘	-11.4033
促	-11.4034
百俱胝	-11.4034
分段變易	-11.4034
▁33	-11.4034
洗浴	-11.4034
彌樓揵馱佛	-11.4034
譏嫌	-11.4035
筏	-11.4035
天龍鬼神	-11.4035
捨財	-11.4035
為其主	-11.4035
祿	-11.4035
出廣長舌相	-11.4036
龜	-11.4036
觀音勢至	-11.4037
棲	-11.4037
研	-11.4037
幻惑	-11.4037
刑	-11.4038
疲勞	-11.4038
一切魔	-11.4039
塊	-11.4039
公	-11.4041
齋戒清淨	-11.4041
所度	-11.4041
表了	-11.4041
得一切智	-11.4041
早	-11.4042
妃	-11.4042
丁	-11.4043
州	-11.4043
殷重	-11.4043
眼菩薩	-11.4043
自身真如	-11.4043
瓶中取	-11.4043
阿惟越致菩薩	-11.4043
爭	-11.4044
爾時摩訶迦葉白	-11.4045
淨施	-11.4045
又如大地	-11.4046
宣暢	-11.4046
賴	-11.4047
聚沫	-11.4047
多所饒益	-11.4047
無高下	-11.4048
中有五	-11.4048
轉女身	-11.4048
句斯謂為發	-11.4048
阿難白佛	-11.4049
須賴言	-11.4051
損壞	-11.4051
證得阿耨多羅三藐三菩提	-11.4054
而往	-11.4054
溺	-11.4054
總以結	-11.4055
不思議智	-11.4056
開曉	-11.4057
得見佛	-11.4058
四維	-11.4058
百味	-11.4059
光菩薩	-11.4059
生死流轉	-11.4061
爾時金剛手菩薩大祕密主	-11.4061
世雄	-11.4062
諸法自性	-11.4063
發露	-11.4063
諸行無常	-11.4064
在中	-11.4065
優鉢羅華	-11.4066
過者	-11.4066
爾時淨飯王	-11.4066
法自在	-11.4068
雖見	-11.4068
方能	-11.4069
便起	-11.4069
眾星	-11.4069
安和	-11.4069
復無	-11.407
爾時尊者阿難	-11.4073
許可	-11.4076
現在前	-11.4076
那花	-11.4076
致敬	-11.4076
神通之力	-11.4076
過恒沙等	-11.4077
我疑	-11.4078
捨彼	-11.4078
顯示一切諸法	-11.4079
八萬四千法門	-11.4079
無救	-11.4079
時天帝釋	-11.408
馥師	-11.408
學處	-11.4081
大法鼓	-11.4083
於是經典	-11.4085
訛也	-11.4086
如經中說	-11.4087
自下第四	-11.4087
上虛空中	-11.4088
十萬億	-11.4092
不愚法	-11.4093
真佛子	-11.4096
諸難	-11.4096
於父母	-11.4097
兩句	-11.4098
自恣	-11.4099
判教	-11.4101
為最正覺	-11.4101
散善	-11.4102
智光	-11.4103
詮表	-11.4103
非餘	-11.4104
明行成	-11.4104
得無疑	-11.4105
生其	-11.4106
聞此法門	-11.4107
莊嚴佛土	-11.4107
退墮	-11.4108
菩提場	-11.4108
獲利	-11.411
故被大甲冑	-11.4112
向者	-11.4112
起化	-11.4112
遍治	-11.4114
俱致	-11.4115
法界體性	-11.4123
佛說經已	-11.4123
及諸大眾	-11.4124
甚深正法	-11.4124
如理方便	-11.4125
之位	-11.4125
戒中	-11.4127
見諸阿修羅	-11.4127
逼切	-11.4129
諸菩薩意	-11.4129
樂聲	-11.413
常勤	-11.4132
無護	-11.4134
為成	-11.4136
二十六	-11.4137
如是說已	-11.4138
於無上菩提	-11.4142
舍利下	-11.4143
以下結	-11.4143
正體	-11.4144
應念	-11.4145
國名	-11.4145
諸佛所說	-11.4148
刀劍	-11.4148
猶如幻	-11.4149
有風名曰	-11.415
滅諸	-11.4151
自他根	-11.4153
其華	-11.4153
豈得	-11.4154
營事比丘	-11.4154
不可壞	-11.4154
聖尊	-11.4155
佛說大乘	-11.4156
其色	-11.4157
上妙衣服	-11.416
於中有四	-11.4162
如來今者	-11.4163
請護	-11.4164
菩薩摩訶薩善巧方便	-11.4167
和上	-11.4167
修捨	-11.417
住不放逸	-11.4171
證成	-11.4173
受快樂	-11.4173
計常	-11.4175
彼不動如來	-11.4175
精進根	-11.4178
煩惱障	-11.4183
清淨之行	-11.4185
難及	-11.4187
無異也	-11.4187
三戒	-11.4187
此如是等	-11.4187
水火風界	-11.4188
污染	-11.4188
諸惑	-11.4191
生此	-11.4192
第三句	-11.4203
億歲	-11.4205
伏魔	-11.4206
翻前	-11.4207
轉復	-11.421
在家出家	-11.421
若得聞	-11.421
為食	-11.421
尚可	-11.4212
深宮	-11.4214
應學	-11.4215
我說此	-11.4216
善不善法	-11.4217
念住	-11.4219
化導	-11.4222
財施	-11.4222
現化	-11.4223
諦聽諦聽	-11.4224
知一切眾生	-11.4225
所從	-11.4227
妄起	-11.4229
不損	-11.4229
猛火	-11.423
離惡趣	-11.423
知覺	-11.4232
無相行	-11.4233
有十二	-11.4233
諸佛菩提	-11.4234
法服	-11.4235
名得自在	-11.4237
十號	-11.4239
諸佛剎中	-11.4239
善言	-11.424
無愁憂	-11.4244
出家已	-11.4244
盛滿	-11.4244
成故	-11.4246
無熱惱	-11.425
戒學	-11.425
無上覺	-11.4257
從緣	-11.4257
煩惱所染	-11.426
能出	-11.426
能照	-11.426
難聞	-11.4262
得之	-11.4264
論義	-11.4265
所建立	-11.4267
犯罪	-11.4269
以為實	-11.427
歎德	-11.4272
我剎中	-11.4273
四邊	-11.4276
垢染	-11.4277
得三昧	-11.4278
共同	-11.4279
自念言	-11.428
說此法門	-11.4281
諸法相	-11.4281
出城	-11.4283
三千大千世界中	-11.4285
巨	-11.4285
諸善本	-11.4286
定性	-11.4296
離垢光	-11.4303
白色	-11.4305
法界平等	-11.4305
計為	-11.4306
可作	-11.4308
不破壞	-11.4308
見己身	-11.4309
不覩	-11.432
趣涅槃	-11.4325
乃至菩提	-11.4329
華開	-11.4329
惡逆	-11.433
諸佛及諸菩薩	-11.4337
寂靜法	-11.434
得悟	-11.434
慚	-11.4341
他心智	-11.4341
三智	-11.4352
令修	-11.4353
第一義智	-11.4354
無變	-11.4355
復有無量	-11.4355
圓明	-11.4366
毫相	-11.4366
施食	-11.4372
斷無明	-11.4373
家中	-11.4374
二聖	-11.4385
日月光	-11.4386
入地獄	-11.4386
金樹	-11.4387
識蘊	-11.4389
薄福	-11.4392
世間無與等	-11.4393
云何有	-11.4395
今對	-11.4395
之王	-11.4399
及眷屬	-11.4401
無塵	-11.4404
無主宰	-11.4405
菩薩得無生法忍	-11.4405
我子	-11.4406
救我	-11.4409
由前	-11.4409
智者應	-11.441
四十一	-11.4411
性清淨	-11.4412
於外	-11.4414
勝德	-11.4414
為化眾生	-11.4414
諸智者	-11.4414
一切眾生皆	-11.4417
摧破	-11.4419
安定	-11.4423
無能勝	-11.4424
平等覺	-11.4427
菩薩亦如是	-11.4427
地水	-11.4428
無上尊	-11.4432
除罪	-11.4433
故經云	-11.4434
度之	-11.4437
一切物	-11.4438
造諸	-11.444
十年	-11.4441
諸定	-11.4441
非聲聞緣覺	-11.4442
經首	-11.4444
告曰	-11.4446
常清淨	-11.4447
今之	-11.4451
未成	-11.4453
如文	-11.4457
隨願	-11.4465
無漏智	-11.4466
生死中	-11.4471
第十六	-11.4472
亦無分別	-11.4474
因他	-11.4477
為誰	-11.4478
心無所住	-11.4478
雲雨	-11.4484
佛淨土	-11.4487
其福	-11.4492
初問	-11.4492
生彼國已	-11.4493
喻攝受	-11.4495
跋陀羅	-11.4499
渧	-11.45
所燒	-11.4501
報者	-11.4501
太子者	-11.4503
醜	-11.4505
所謂菩薩	-11.4508
福焰王子	-11.4511
緩	-11.4511
若在家	-11.4511
於閻浮提	-11.4512
杵	-11.4513
無漏不盡	-11.4517
斯苦甚大	-11.4517
幔	-11.4517
無上大菩提	-11.4519
八十種好	-11.4519
姦	-11.4519
光梵大師賜紫沙門臣惟淨等奉詔譯	-11.452
則自然亂風吹	-11.452
卷第一百一十	-11.4521
紹	-11.4521
客塵煩惱	-11.4521
勳	-11.4521
輪回	-11.4522
娛	-11.4522
卿宣梵大師賜紫沙門臣日稱等奉詔譯	-11.4522
腸	-11.4524
丘	-11.4524
嚴淨佛剎	-11.4524
4	-11.4524
般涅盤	-11.4525
受其報	-11.4526
蠅	-11.4526
楚	-11.4526
終不忘失	-11.4526
綺	-11.4527
謹	-11.4527
鉤	-11.4528
□□	-11.4528
忿恨	-11.4528
怕	-11.4528
發無上菩提之心	-11.4528
一時佛在	-11.4529
希奇	-11.4529
微風吹動	-11.4529
阿須輪	-11.4529
6	-11.453
風所吹	-11.453
選	-11.453
頭面作禮	-11.453
馳騁	-11.453
煥	-11.453
含靈	-11.453
床榻	-11.4531
專注	-11.4531
群萌	-11.4531
褥	-11.4531
髀	-11.4532
修持	-11.4532
十二部經	-11.4532
闡	-11.4532
速得阿耨多羅三藐三菩提	-11.4532
羸瘦	-11.4532
說之為	-11.4532
8	-11.4533
婆沙	-11.4533
不苦不樂	-11.4533
半月	-11.4533
5	-11.4533
毀辱	-11.4533
悴	-11.4533
等恒河沙數諸佛	-11.4533
筋	-11.4533
吠	-11.4533
五眼	-11.4534
欣笑	-11.4534
撰	-11.4534
此二句名莊嚴	-11.4534
瓦礫	-11.4534
逃	-11.4534
體不可得	-11.4536
剃除鬚髮	-11.4536
衰惱	-11.4536
愆	-11.4537
身語意業	-11.4537
無窮無極	-11.4537
卷第四十	-11.4538
適悅之相	-11.4538
奮	-11.4538
荊棘	-11.4538
幻偽	-11.4538
劫盡	-11.4539
八聖道	-11.454
爪	-11.454
傷害	-11.454
大千界	-11.454
釧	-11.454
圖	-11.454
其罪	-11.4541
醫師	-11.4541
頑	-11.4541
映徹	-11.4541
獵	-11.4541
逈	-11.4541
七地以還	-11.4542
樂具	-11.4542
危害	-11.4543
籌量	-11.4543
犁	-11.4543
信之	-11.4543
纖	-11.4544
什	-11.4544
無戒	-11.4544
擎	-11.4544
洛	-11.4545
不取不捨	-11.4546
獲得四種	-11.4547
裏	-11.4547
幢蓋	-11.4548
佛說阿彌陀經	-11.4548
夢中畢竟無有	-11.4548
姿	-11.4548
憂悔	-11.4549
皆是大阿羅漢	-11.4549
無怖	-11.455
說三乘	-11.4551
不能轉	-11.4553
足蹈	-11.4553
羯磨	-11.4553
斥	-11.4553
穢濁	-11.4554
佛及僧	-11.4554
雖觀	-11.4554
雜花	-11.4555
無異波羅蜜	-11.4557
蘭若	-11.4557
修行十善業道	-11.4558
般舟	-11.4558
論議	-11.4561
十八不共法	-11.4561
萬八千	-11.4563
二禪	-11.4564
說伽他	-11.4565
經義疏	-11.4565
名為正觀	-11.4566
以如是等	-11.4567
正釋	-11.4568
常空寂	-11.457
斯經典	-11.457
積集善根	-11.4573
閑靜	-11.4574
大丈夫相	-11.4574
不定聚	-11.4575
佛名號	-11.4575
光明無量	-11.4576
其佛國土	-11.4577
居止	-11.4579
僧寶	-11.458
三種意生身	-11.4581
墜墮	-11.4582
得阿羅漢道	-11.4582
于地	-11.4586
一切諸法亦復如是	-11.4588
圓教	-11.4588
眾生濁	-11.459
歸依佛	-11.4591
顛倒真實	-11.4591
善知方便	-11.4591
爾時彌勒菩薩	-11.4591
福力	-11.4594
當知彼	-11.4595
於說法師	-11.4596
普見如來	-11.4599
菩薩聲聞	-11.4599
時魔波旬	-11.4601
辟支佛地	-11.4602
七百	-11.4602
如是之人	-11.4602
白淨	-11.4605
與他	-11.4611
是名為智	-11.4612
於世尊所	-11.4612
救拔	-11.4614
以方便力	-11.4614
邪念	-11.4615
無量億劫	-11.4615
能所	-11.4615
是以言	-11.4616
復告	-11.4616
牒上	-11.4619
如上所說	-11.462
通序	-11.4622
人中最為第一	-11.4622
令知	-11.4624
亦能了知	-11.4625
釋名門	-11.4625
如實觀察	-11.4626
得無所畏	-11.4628
兵眾	-11.4628
誦經	-11.4628
生如是心	-11.4633
布地	-11.4634
終盡	-11.4635
千由旬	-11.4636
又釋	-11.4638
憂念	-11.4639
一代	-11.4639
見思	-11.4639
釋迦牟尼	-11.4639
無量光如來	-11.4641
如文殊師利	-11.4641
若滅	-11.4642
取證	-11.4642
所住處	-11.4644
四十九	-11.4645
別圓	-11.4647
而為供養	-11.4647
正辨	-11.4648
先問	-11.4652
生苦	-11.4652
說呪	-11.4653
唯此	-11.4658
有別	-11.4659
好樂	-11.4661
第六天	-11.4661
教導	-11.4663
無分別故	-11.4664
大精進力	-11.4664
畏於	-11.4664
無我我所	-11.4665
然燈佛	-11.4665
如是名	-11.4666
美食	-11.4666
影現	-11.4669
各隨	-11.4671
貪樂	-11.4671
所解	-11.4672
正果	-11.4673
究竟涅槃	-11.4674
離惡	-11.4674
妙藥	-11.4678
下方	-11.4679
我為說	-11.468
其樹	-11.4681
所表	-11.4681
一切法忍	-11.4682
斷諸煩惱	-11.4684
所宣說	-11.4685
除其	-11.4687
值諸佛	-11.4687
蘇摩	-11.4687
流行	-11.4688
數取趣	-11.4689
故知是	-11.469
淨不淨	-11.469
在虛空	-11.4693
結上	-11.4696
空行	-11.4698
慧上	-11.4698
其中眾生	-11.47
諸佛之法	-11.4701
恒河沙數	-11.4703
無作諦	-11.4708
勤苦如是	-11.4709
為魔所	-11.4709
佛滅度後	-11.4711
悉已	-11.4712
極惡	-11.4715
盡諸漏	-11.4716
之士	-11.4718
因緣法	-11.4719
慧日	-11.4719
未曾有也	-11.4721
此尊者	-11.4723
作書	-11.4724
能增長	-11.4726
清淨覺	-11.4726
無慚	-11.4726
爾時阿難	-11.4727
白象	-11.4728
入山	-11.4728
是間	-11.4731
受諸苦	-11.4732
利有情	-11.4734
一往	-11.4735
地水火風	-11.4736
實無有	-11.4739
當墮	-11.474
真理	-11.4741
忍界	-11.4743
念僧	-11.4743
亦有三	-11.4744
諸光明	-11.4749
離諸相	-11.4749
眾俱	-11.475
初正明	-11.4751
極難	-11.4751
風輪	-11.4753
樂想	-11.4754
言菩提者	-11.4754
相應行	-11.4754
頭面禮	-11.4755
生子	-11.4757
聲聞地	-11.4767
於無相	-11.4773
佛世尊所	-11.4774
應佛	-11.478
起慈悲心	-11.478
族姓子須賴	-11.4782
出其	-11.4783
一切聲聞緣覺	-11.4784
而得解脫	-11.4786
深樂	-11.4789
無執著	-11.4793
少時	-11.4795
以之為	-11.48
初果	-11.4807
二歸	-11.4807
此舉	-11.4809
不倚	-11.481
其間	-11.4811
故得陀羅尼	-11.4811
皆得成就	-11.4812
所興	-11.4814
九地	-11.4815
諸佛教	-11.4822
幻士	-11.4824
當得成佛	-11.4824
云何受持	-11.483
頓教	-11.4831
不共法	-11.4832
胎中	-11.4833
不缺	-11.4835
真實行	-11.4837
生數	-11.4841
即喻	-11.4844
於汝	-11.4849
己之	-11.4849
煩惱業	-11.4849
爾時會中	-11.485
莫不歡喜	-11.4856
說大乘	-11.4856
千拘胝	-11.4857
諸眾生類	-11.4857
智德資糧善巧	-11.4857
現笑	-11.4858
說不能盡	-11.4859
安住如是	-11.486
斷一切煩惱	-11.4862
如實智	-11.4863
罪障	-11.4864
一佛剎	-11.4864
求佛菩提	-11.4866
出世間法	-11.4868
五劫	-11.4869
盡時	-11.4877
照世	-11.4879
生愛著	-11.4881
所供養	-11.4882
住彼	-11.4882
一寶	-11.4885
如來像	-11.4885
有恐怖	-11.4888
彼佛世界	-11.4888
實有不	-11.4889
欲愛	-11.4892
能隨順	-11.4892
小劫	-11.4894
作樂	-11.4896
繒	-11.4897
名師子吼	-11.4899
持之	-11.4904
是九地	-11.4905
學法	-11.4907
正遍覺	-11.4907
法座	-11.4907
一食	-11.4907
如是三法	-11.4907
法性身	-11.4907
化德	-11.4912
義趣	-11.4912
得阿羅漢	-11.4914
像法	-11.4922
笑因緣	-11.4929
斯由	-11.4932
生中	-11.4934
還彼	-11.4935
然菩薩	-11.4939
稱曰	-11.4942
空解	-11.4942
受眾苦	-11.4943
三十四	-11.4945
尊不共法	-11.4949
得辯才	-11.495
令彼眾生	-11.4951
大國	-11.4954
三段	-11.4954
正以	-11.4955
人中上	-11.4962
論師	-11.4965
有益	-11.4972
行頭陀	-11.4978
四威儀	-11.4979
無作相	-11.498
空如來藏	-11.498
彼國土	-11.498
得生淨土	-11.4981
乞者	-11.4981
之始	-11.4982
地種	-11.4984
其家	-11.4986
餘法	-11.4989
作大利益	-11.4991
分身	-11.4991
生瞋恚	-11.4992
梵語	-11.4995
大龍	-11.4996
欲斷	-11.4997
轉輪	-11.4997
淨光明	-11.4998
即取	-11.5
魔羅	-11.5003
三忍	-11.5007
非今有	-11.5012
度一切眾生	-11.5012
紫	-11.5012
糞掃衣	-11.5015
證滅	-11.5018
分之中	-11.502
迭	-11.5021
卷第六十	-11.5023
卷第九十	-11.5025
勤勇	-11.5028
鳩槃茶	-11.503
兩手	-11.503
和悅	-11.5031
將護彼意	-11.5032
毗尼	-11.5034
華蓋	-11.5034
諸女人	-11.5035
卷第八十	-11.5035
眾經	-11.5036
篋	-11.5037
一業敷演經法	-11.5037
與大比丘眾千二百五十人俱	-11.5038
此明如來	-11.5039
寶座	-11.5039
彼現有佛	-11.504
利益諸眾生	-11.504
不輕	-11.5041
若人若天	-11.5042
是染因	-11.5043
但隨世俗	-11.5044
授阿耨多羅三藐三菩提記	-11.5045
視之	-11.5045
識身識	-11.5045
贍部洲	-11.5046
劣弱	-11.5046
微妙音	-11.5046
無有少法可得	-11.5046
百味飲食	-11.5046
不望報	-11.5047
溢	-11.5048
不顧身命	-11.5048
眉間白毫	-11.5048
惡果	-11.5049
煙	-11.5049
淨除業障	-11.5049
自業自	-11.5049
如救頭然	-11.505
上品下生	-11.505
寂寞	-11.505
爾時世尊欲重明斯義說伽	-11.505
?』」「	-11.5051
疲厭	-11.5051
長行	-11.5051
韻	-11.5051
劫初成時	-11.5051
調御師	-11.5051
二土	-11.5051
我說是人	-11.5052
金光	-11.5052
展轉其中	-11.5052
違失	-11.5053
當來之世	-11.5053
臨壽終時	-11.5053
寂靜處	-11.5053
恒河沙等諸佛世界	-11.5053
不可復計	-11.5054
】【	-11.5054
凌	-11.5054
當自端	-11.5054
菩薩夢中見	-11.5054
雲霧	-11.5054
極大	-11.5054
天人魔梵	-11.5054
於阿耨多羅三藐三菩提得不退轉	-11.5054
旃檀	-11.5055
菩薩復有四事法	-11.5055
到佛所	-11.5055
寶光	-11.5055
心初起	-11.5055
奴僕	-11.5055
方面	-11.5055
幼	-11.5056
血氣	-11.5056
菩薩用是四事	-11.5056
叫	-11.5056
無有受報者	-11.5056
選擇	-11.5056
誦習	-11.5056
微薄	-11.5056
軀	-11.5056
漂	-11.5057
無明緣行	-11.5057
師子步雷音菩薩	-11.5057
未嘗	-11.5057
屏	-11.5057
爾炎	-11.5057
明二乘不得	-11.5057
五百苾芻	-11.5057
熾焰	-11.5057
巖	-11.5057
遍炎熾	-11.5057
當信是稱讚不可思議功德	-11.5057
在在處處	-11.5058
西方極樂世界	-11.5058
名聞利養	-11.5058
帛	-11.5058
燈炷	-11.5058
成壞	-11.5058
如來應等正覺	-11.5059
括	-11.5059
詺	-11.5059
假施設	-11.5059
阿羅訶	-11.506
八萬四千由旬	-11.5061
唾	-11.5061
彫	-11.5061
祠	-11.5062
聲聞辟支佛地	-11.5062
痛不可言	-11.5062
怠	-11.5062
陛	-11.5063
陀摩尸利比丘	-11.5063
賣	-11.5063
種種供養	-11.5064
遠離願求	-11.5064
瞿	-11.5064
谷響	-11.5064
辰	-11.5065
沈沒	-11.5066
哆	-11.5067
佛告阿逸菩薩	-11.5067
諸天龍神	-11.5067
所共	-11.5067
總歎	-11.5067
演暢	-11.5068
憎惡	-11.5068
木叉	-11.5068
剃	-11.5068
乃往過去	-11.5069
勝慧波羅蜜多	-11.5069
狂亂	-11.507
儒童	-11.507
嚴麗	-11.507
女無愁憂	-11.507
一行三昧	-11.507
皆來集會	-11.5071
出微妙音	-11.5071
世自在王佛	-11.5072
荼	-11.5073
所問經論	-11.5074
悉檀	-11.5074
陷	-11.5075
皇	-11.5076
史	-11.5076
肉髻	-11.5076
湯	-11.5077
不起不滅	-11.5077
輔	-11.5077
符	-11.5078
重明斯義說伽	-11.5078
戍	-11.5078
舞	-11.5078
蘇息	-11.5079
謂佛如來	-11.508
若如來	-11.5081
表裏	-11.5082
智度論云	-11.5082
八聖諦	-11.5083
五穀	-11.5083
孕	-11.5085
覆蓋	-11.5086
歸一	-11.5087
閻浮利	-11.5088
以己	-11.509
乞食比丘	-11.509
難處	-11.5091
以智慧力	-11.5091
豎	-11.5092
無邊慧菩薩摩訶薩	-11.5092
光音天	-11.5092
天花	-11.5093
諸住信菩薩	-11.5093
便自墮	-11.5094
所言文	-11.5094
如來祕要	-11.5095
解脫智	-11.5096
迷伽	-11.5098
。○	-11.5098
道果	-11.5098
聞此法已	-11.5099
卑下	-11.5101
當發趣	-11.5102
功力	-11.5104
禪師	-11.5105
維摩	-11.5105
而得究竟	-11.5106
求生淨土	-11.5107
在上	-11.5113
不慕	-11.5115
本性空	-11.5117
生誹謗	-11.5117
三千大千世界六種震動	-11.5118
敬事	-11.5119
諸根寂靜	-11.512
無常苦	-11.5121
於中初言	-11.5123
恒沙劫	-11.5124
及比丘僧	-11.5124
願我當來	-11.5125
父母不淨	-11.5126
此就	-11.5126
聖主	-11.5127
摩睺羅伽等	-11.5128
遍動	-11.5129
六法	-11.5129
空理	-11.513
是淨因	-11.513
坐於	-11.513
即是攝受正法	-11.5132
魔宮	-11.5134
於如來前	-11.5136
復次自夢見	-11.5137
得生彼	-11.5137
能開示	-11.5139
乃至廣說	-11.514
雲集	-11.5141
攝善	-11.5141
牟尼尊	-11.5142
苦哉	-11.5143
隨化	-11.5144
三位	-11.5144
覺菩薩	-11.5145
倍增	-11.5146
我曹	-11.515
不惜	-11.5152
上界	-11.5153
世尊入城	-11.5153
能演說	-11.5154
文殊問	-11.5155
無有疑	-11.5155
無上正法	-11.5156
王舍	-11.5156
無常苦空	-11.5158
空過	-11.5159
喻中	-11.516
略無	-11.516
性離	-11.5162
空無我	-11.5162
不嫉	-11.5167
成無上道	-11.5168
恒河沙劫	-11.5168
名香	-11.5172
雄猛	-11.5172
凡夫二乘	-11.5174
既竟	-11.5175
本誓	-11.5175
不獨	-11.5177
缺漏	-11.5177
引攝	-11.5178
能信解	-11.5179
大法王	-11.5181
是二菩薩	-11.5184
佛告離垢施	-11.5185
當往生阿彌陀佛國	-11.5186
讀誦大乘	-11.5196
齊等	-11.5197
如實知見	-11.5198
如佛世尊	-11.5198
釋迦文佛	-11.5199
聞空中	-11.5199
非沙門	-11.5201
無所有故	-11.5202
者偈言	-11.5205
大病	-11.5206
而皆	-11.5206
修禪定	-11.5207
初段	-11.5209
善寂	-11.5209
信願	-11.5212
常喜	-11.5213
不得言	-11.5214
無懈	-11.522
智證	-11.522
巳上	-11.5221
演說諸法	-11.5222
奪其	-11.5224
身形	-11.5225
自見身	-11.5228
大梵	-11.5229
普門	-11.5229
如聞	-11.523
所稱讚	-11.5232
恭敬心	-11.5232
作禮而去	-11.5234
一經	-11.5236
華臺	-11.5239
爾時復有	-11.524
亦未	-11.5243
今發願	-11.5243
是諸天子	-11.5245
八十四	-11.5246
天界	-11.5247
卷第五十	-11.525
悉除	-11.5251
寶間錯	-11.5257
意根	-11.5257
魔及魔	-11.5257
而諸菩薩	-11.5258
障難	-11.5261
立誓	-11.5263
是故汝等	-11.5268
初識起	-11.5269
一毛	-11.5269
法爾	-11.527
於地獄	-11.527
侍佛	-11.5271
無量億	-11.5272
無漏戒	-11.5277
證行	-11.528
分為三	-11.5284
想像	-11.5287
四依智	-11.5288
作眾惡	-11.5289
汝等應當	-11.5291
行六波羅蜜	-11.5292
不忘失	-11.5292
伽羅	-11.5296
他論	-11.5303
供養世尊	-11.5303
畢竟空	-11.5308
師尊	-11.5313
而無所著	-11.5314
上來雖有	-11.5317
示其	-11.5322
枯竭	-11.5324
便謂	-11.5324
則與	-11.5324
七寶池	-11.5326
即我身是	-11.5327
但取	-11.5331
圓滿具足	-11.5331
解空	-11.5335
佛於是	-11.5335
要由	-11.5341
所施行	-11.5341
普聞	-11.5341
又復如來	-11.5343
名覺	-11.5346
六句	-11.5349
百一	-11.5354
空無所有	-11.5355
攝取眾生	-11.5358
可謂	-11.5358
如實說	-11.5359
卒暴	-11.5364
難測	-11.5366
如來出世	-11.5366
願我當	-11.5369
廣宣	-11.537
無窮盡	-11.5371
減少	-11.5372
少智	-11.5374
最上最勝	-11.5376
又復菩薩	-11.538
學戒	-11.5381
求利	-11.5382
我今應當	-11.5385
有一類	-11.5385
有諸比丘	-11.5386
無去來	-11.5387
歸佛	-11.5387
從世尊以下	-11.5395
彼一一	-11.5396
眾罪	-11.5397
應物	-11.5397
遊化	-11.5399
捨去	-11.54
我終不	-11.5401
背捨	-11.5402
雜香	-11.5403
於三有	-11.5405
不殊	-11.5405
實諦	-11.5417
五門	-11.5419
最妙	-11.5425
信順	-11.5427
思慧	-11.5427
脇	-11.5428
不好	-11.5431
斯事	-11.5431
當須	-11.5439
種種方便	-11.5442
是有漏	-11.5443
皆阿羅漢	-11.5444
爾時知	-11.5447
覺道	-11.545
而得成就	-11.5452
斷集	-11.5455
熱鐵	-11.5457
下足	-11.5461
六識	-11.5462
現在未來	-11.5467
雜亂	-11.5468
斯皆	-11.5468
更復	-11.547
最為第一	-11.547
人無我	-11.5471
毘舍	-11.5476
真實性	-11.5478
與王	-11.5479
滅已	-11.5484
三大願	-11.5486
方便力	-11.5487
無怨	-11.5488
圓人	-11.5488
十五日	-11.5489
眼所見	-11.5489
無所復	-11.5492
諸法本性	-11.5492
水流	-11.5493
樹葉	-11.55
聞思	-11.5506
種種異	-11.5508
猶如夢	-11.5508
收入	-11.551
不淨觀	-11.5519
勤心	-11.5519
降伏魔	-11.5521
僧伽	-11.5522
無名云	-11.5523
何因緣故	-11.5526
大比丘	-11.5529
生我剎	-11.5529
諸婆羅門	-11.5531
在閑居	-11.5531
心境	-11.5532
四流	-11.5534
其法者	-11.5534
位在	-11.5535
流水	-11.5541
人物	-11.5544
七步	-11.5545
怙	-11.5546
法亦如是	-11.5547
是惡比丘	-11.5548
曾聞	-11.5551
隨何等	-11.5551
乃名為	-11.5551
今依	-11.5552
持戒人	-11.5553
四十四	-11.5554
風力	-11.5557
雪	-11.5558
十一者	-11.5559
千二百五十人	-11.556
在空	-11.5561
修苦行	-11.5565
迦花	-11.5566
一切法自性	-11.5567
無量壽國	-11.5569
示以	-11.5569
有三句	-11.5571
說此頌已	-11.5573
蘭	-11.5574
相續心	-11.5575
尋即	-11.5576
千世界	-11.5577
起願	-11.5583
瓔	-11.5583
毘利耶波羅蜜多	-11.5584
所言義	-11.5585
對彼	-11.5587
金剛手大祕密主菩薩摩訶薩	-11.5588
故則無	-11.5589
憍逸	-11.5591
千二百	-11.5591
慰	-11.5592
助菩提法	-11.5593
而演說法	-11.5595
有一戶蟲名曰	-11.5596
所應度者	-11.5597
智勝菩薩	-11.5597
幹	-11.5597
若他觀者	-11.5598
琰摩羅界及阿	-11.5599
二種相因	-11.5599
名為邪觀	-11.5599
營事業者	-11.56
到於彼岸	-11.56
若能成就如是四法	-11.5601
福光太子	-11.5601
大蘊如來	-11.5601
折伏	-11.5601
竹	-11.5601
會入	-11.5601
慼	-11.5602
聞我名號	-11.5602
現斯瑞	-11.5602
不興	-11.5603
骨髓	-11.5603
以願力故	-11.5603
游	-11.5604
見所作業及受	-11.5604
捷	-11.5604
滅無所至	-11.5604
崛山	-11.5604
其業生時亦	-11.5604
則有假立	-11.5604
滅度之後	-11.5605
前識既滅	-11.5605
集智	-11.5605
迦留羅	-11.5605
其緣生時	-11.5605
若初識生名	-11.5605
飽	-11.5605
溪	-11.5606
乃至算數譬喻所不能及	-11.5606
為人演說	-11.5606
假使菩薩逮得斯定	-11.5606
祐	-11.5606
具善巧方便菩薩摩訶薩	-11.5606
聞是等經	-11.5607
著衣持鉢	-11.5608
勤進	-11.5608
蘊處界	-11.5608
分陀利	-11.5608
帛謙	-11.5608
或生阿修羅	-11.5608
在在所生	-11.5609
是實實語	-11.5609
涯	-11.5609
諍競	-11.5609
一切諸法空者	-11.5609
羽	-11.5609
是即名為	-11.5609
轉妙法輪	-11.561
名相分別	-11.561
善哉馬勝	-11.561
阿闍世王太子	-11.561
供養恭敬尊重讚歎	-11.5611
默然而住	-11.5611
逮得無所從生法忍	-11.5611
千二百五十人俱	-11.5611
本行菩薩道時	-11.5611
三十二相八十種好	-11.5611
端身正行	-11.5612
如汝所言	-11.5612
金剛臺	-11.5612
了一切法	-11.5612
曼達多王	-11.5612
戒清淨	-11.5612
癰	-11.5612
目真隣陀	-11.5613
童男	-11.5613
上品中生	-11.5613
尼乾	-11.5613
剎帝利	-11.5613
身語心	-11.5613
波頭摩	-11.5614
色究竟天	-11.5614
闡提	-11.5614
參	-11.5615
等分行	-11.5615
孰	-11.5615
沈淪	-11.5615
鞭	-11.5615
眾務過	-11.5615
以偈答曰	-11.5616
諸仙	-11.5616
如是得言	-11.5616
姊妹	-11.5617
羼底波羅蜜多	-11.5617
翼	-11.5617
二萬一千	-11.5617
抑	-11.5617
奧	-11.5618
脣	-11.5618
不斷不究竟	-11.5618
頓悟	-11.5619
綱	-11.5619
尠	-11.5619
如幻三摩地	-11.5619
無與如來同	-11.5619
天台	-11.562
碯	-11.562
針	-11.562
讓	-11.562
紛	-11.562
以不斷故	-11.5621
鈎	-11.5621
末代	-11.5621
生諸佛前	-11.5621
革	-11.5621
阿鼻	-11.5621
級	-11.5622
殖眾德本	-11.5622
弓	-11.5622
跛	-11.5622
閉塞	-11.5622
珂	-11.5623
咽喉	-11.5623
縱廣正等	-11.5623
大祕密主	-11.5623
聞是說已	-11.5623
煩惚	-11.5623
鞞	-11.5623
諸佛出世	-11.5624
不求果報	-11.5624
從坐起	-11.5624
纓	-11.5625
吠瑠璃	-11.5625
不退不轉	-11.5625
是見初地	-11.5626
憍薩羅	-11.5626
往返	-11.5626
八萬四千歲	-11.5626
瞻視	-11.5626
死時亦	-11.5626
九十一劫	-11.5626
寐	-11.5626
壞體性空	-11.5628
流散	-11.5628
祈	-11.5628
雜穢	-11.5628
剎那心	-11.5629
無生無起	-11.5629
斂	-11.5629
染法	-11.5629
錠光	-11.563
寶性論	-11.563
毘耶娑	-11.563
十疑論	-11.563
不可稱量	-11.5631
祇樹給孤獨園	-11.5631
不退阿耨多羅三藐三菩提	-11.5631
內凡	-11.5631
最後識	-11.5631
阿那含果	-11.5631
求利養	-11.5632
是人則為	-11.5632
尚復不	-11.5633
悉不共住	-11.5633
無瞋	-11.5635
流泉	-11.5636
述云第三	-11.5636
端坐	-11.5636
寂慧菩薩摩訶薩	-11.5636
般涅槃後	-11.5637
若有淨信	-11.5639
是空解脫門	-11.5639
我滅度後	-11.5639
精進波羅蜜多	-11.564
有何所以	-11.564
二緣生	-11.5641
迭相	-11.5641
阿彌陀佛光明	-11.5642
如世尊說	-11.5643
或有菩薩	-11.5643
而悉能知	-11.5643
專修	-11.5644
根莖	-11.5644
復於虛空中	-11.5645
影響	-11.5645
今始	-11.5645
欣然	-11.5645
修證	-11.5647
十方無量	-11.5647
畢竟成就	-11.5648
宛然	-11.565
與諸眷屬	-11.5651
三禪	-11.5651
給施	-11.5653
踰闍	-11.5653
呪護一切	-11.5653
諸有智者	-11.5654
闍世	-11.5654
我剎中人	-11.5655
句別有	-11.5655
云何四法	-11.5657
遍法界	-11.5662
乞求	-11.5663
胎子	-11.5664
學大乘	-11.5664
童子當知	-11.5667
初發菩提心	-11.5668
髻菩薩	-11.5668
之解	-11.5668
是佛方便	-11.5669
亦得往生	-11.5671
退失智慧	-11.5673
皤	-11.5673
猶尚	-11.5675
彼諸比丘	-11.5679
諸阿羅漢	-11.5679
玄義	-11.568
從初至	-11.5681
無所執	-11.5682
種種雜色	-11.5683
十方眾生	-11.5684
無虛	-11.5685
惡名	-11.5685
內懷	-11.5689
復有菩薩摩訶薩	-11.5691
不飲酒	-11.5692
天下人	-11.5693
當作是觀	-11.5693
得其便	-11.5694
一切聲聞辟支佛	-11.5695
無有上	-11.5695
乃曰為	-11.5695
非解脫	-11.5697
眾生心行	-11.5699
無涅槃	-11.57
成就般若波羅蜜	-11.5702
真金色	-11.5703
善思	-11.5704
恒沙諸佛	-11.5706
諸物	-11.5707
還自	-11.5708
若已施	-11.5709
師云	-11.5709
興世	-11.571
變壞	-11.5713
諦善巧	-11.5715
蒙光	-11.5716
光曜	-11.5716
遍至	-11.5718
本性清淨	-11.5719
難作	-11.5721
妙宗	-11.5721
斷德	-11.5721
不為難	-11.5722
中際	-11.5724
一時俱	-11.5724
如來如實	-11.5725
便作是念	-11.5725
章中	-11.5725
大海中	-11.5726
勤加	-11.5726
千佛	-11.573
不悔	-11.5731
月實	-11.5738
段明義	-11.574
是故說言	-11.5741
諸婇女	-11.5741
亦不可見	-11.5742
受用土	-11.5744
其心清淨	-11.5745
作想	-11.5746
諸菩薩行	-11.5746
離越	-11.5747
號阿彌陀	-11.575
無礙智見	-11.5753
身土	-11.5753
三際	-11.5754
四恩	-11.5755
初又二	-11.5756
重復	-11.5757
現起	-11.5759
四教	-11.5759
歸向	-11.5762
之徒	-11.5763
遍淨天	-11.5763
近寂	-11.5765
唯能	-11.5766
賢王	-11.5767
所斷	-11.5768
四土	-11.5769
寶冠	-11.577
善巧天子	-11.5777
隨何	-11.5777
莫知	-11.5777
離老病死	-11.5779
六趣	-11.5779
眾香	-11.5779
於女人	-11.578
不斷無明	-11.578
亦莫	-11.578
暫時	-11.5781
復非如	-11.5782
其志	-11.5782
法藥	-11.5783
不思議佛法	-11.5784
耳根	-11.5786
復告護國	-11.579
談說	-11.5792
其猶	-11.5792
證果	-11.5793
一舉	-11.5795
一卷	-11.5799
不漏	-11.5799
師子王	-11.58
其座	-11.5801
無與等者	-11.5801
空平等	-11.5806
現神通	-11.5807
無怯弱	-11.5808
超諸	-11.5808
二乘之人	-11.5812
如雲	-11.5813
轉身	-11.5815
禮拜供養	-11.5817
垂下	-11.5818
令得解脫	-11.5819
盡邊	-11.582
同虛空	-11.5821
眾生生者	-11.5822
赤色	-11.5825
既蒙	-11.5825
便成	-11.5827
菩薩靜慮	-11.5831
此等皆	-11.5834
毘曇	-11.5834
別列	-11.5836
真實義	-11.5836
宜知	-11.5836
上味	-11.5839
對昔	-11.5839
四十三	-11.584
生蘊	-11.5844
既成	-11.5846
行步	-11.5851
廣為眾生	-11.5853
此閻浮提	-11.5853
無所念	-11.5869
即以偈頌	-11.587
初徵	-11.5873
志意	-11.5874
隨從	-11.5875
以能了知	-11.5876
之迹	-11.5876
正法住世	-11.5878
不休息	-11.588
大迦葉言	-11.588
憂喜	-11.5882
)」	-11.5885
於彼處	-11.5886
土地	-11.589
不和合	-11.5895
愛戀	-11.5898
造五逆	-11.59
不復現	-11.5901
藏體	-11.5903
苦患	-11.5905
不得往生	-11.5905
遍持	-11.5909
俗諦	-11.5914
為求菩提	-11.5916
求財	-11.5916
今辨	-11.5919
即是大乘	-11.5922
普照十方	-11.5922
往生無量清淨佛國	-11.5922
鈴	-11.5925
處胎	-11.5926
知諦	-11.5926
記別	-11.5929
以下釋	-11.5929
奉修	-11.5933
之殊	-11.5936
乃知	-11.5939
僧祇劫	-11.5939
彼以	-11.5947
往生論	-11.5948
有頂	-11.5948
齎	-11.5948
緣覺法	-11.5957
戒品	-11.5958
以是因緣故	-11.5959
生嫉妬	-11.5961
無散亂	-11.5964
無虛妄	-11.5964
甚為難	-11.5968
親聞	-11.5968
命盡	-11.5968
不逮	-11.5973
從何以故以下	-11.5974
除魔業	-11.5975
家業	-11.5982
汝自	-11.5982
眾邪	-11.5983
小乘法	-11.5983
安樂淨土	-11.5983
有染	-11.5992
攝生	-11.5992
生彼國土	-11.5993
上煩惱者	-11.5998
彌樓	-11.6001
亦無所得	-11.6002
師教	-11.6004
正斷	-11.601
於諸佛法	-11.6014
習近	-11.6014
計度	-11.6015
最第一	-11.6018
別觀	-11.6019
諸惡業	-11.602
正由	-11.602
彌陀經	-11.6021
諸德本	-11.6026
阿毘	-11.6028
譬如大海	-11.603
觀門	-11.6031
義同	-11.6034
方名	-11.6035
有餘涅槃	-11.6036
人師子	-11.6037
於百千劫	-11.6038
釋疑	-11.6038
垢濁	-11.6038
觀一切法	-11.6039
修行般若波羅蜜多	-11.6043
雖爾	-11.6044
七法	-11.6045
我等今	-11.6047
是為智	-11.6047
妄見	-11.6048
親族	-11.6055
眾流	-11.6056
淨智者	-11.6066
測量	-11.6068
遍觀	-11.607
明造惡	-11.607
十小劫	-11.6075
非梵行	-11.6076
殿堂	-11.6087
重病	-11.6088
休	-11.6088
眼識界	-11.6089
眼生邊	-11.6091
力無畏	-11.6091
趣向菩提	-11.6093
意地	-11.6102
來入	-11.6105
得大菩提	-11.6105
一切阿羅漢	-11.6106
今乃	-11.6108
皆明了	-11.6109
無希望	-11.6109
菩提性	-11.611
咸來	-11.6119
寶花	-11.6123
言辯	-11.6126
千億萬	-11.6127
歲數	-11.6134
千里	-11.6136
如理作意	-11.6144
各從	-11.6149
金華	-11.6151
十七者	-11.6153
普皆	-11.6157
眾生轉大悲心	-11.6161
於大海	-11.6163
重顯	-11.6165
光聚王	-11.6165
住信菩薩	-11.6166
聽我	-11.6166
無不盡	-11.6167
十八不共佛法	-11.6169
即當成佛號	-11.6172
性不可得	-11.6174
自下次明	-11.6175
自致	-11.6179
如來法中	-11.6179
十大受	-11.6181
佗	-11.6182
柁那波羅蜜多	-11.6182
焚燒	-11.6184
警	-11.6185
空解脫門	-11.6186
肥	-11.6186
不尊重	-11.6186
革屣	-11.6187
貢	-11.6187
膜	-11.6187
若生生空	-11.6188
中有純	-11.6188
前世宿命	-11.6188
華適小萎	-11.6189
彼業生時	-11.6189
無有少法從於此世	-11.6189
當學般若波羅蜜	-11.6189
淡	-11.6189
若無相者則無願求名無願	-11.6189
退坐一面	-11.619
受蘊	-11.619
於是文殊師利	-11.619
金翅鳥	-11.619
密迹力士	-11.619
制伏	-11.6191
得其福德	-11.6191
於彼時中	-11.6191
彼後識滅時名	-11.6191
癡冥	-11.6192
前後圍繞	-11.6192
泰	-11.6192
童男童女	-11.6192
從何所來	-11.6193
若生若滅	-11.6193
悉同	-11.6193
蔔	-11.6193
如是愚癡無聞凡夫	-11.6194
銀樹	-11.6195
己心	-11.6195
異業現前	-11.6195
憒	-11.6195
無去無來	-11.6196
顛	-11.6196
右遶	-11.6196
是為菩薩成就四法	-11.6196
共相娛樂	-11.6196
危厄	-11.6196
為無量清淨佛作禮	-11.6197
貧賤	-11.6197
總以標舉	-11.6197
怨憎	-11.6197
阿素洛	-11.6197
斫	-11.6197
若內若外	-11.6198
威神之力	-11.6198
現其人前	-11.6198
諸比丘僧	-11.6199
魏	-11.6199
丹	-11.6199
繖蓋	-11.6199
吠琉璃	-11.6199
謦欬聲	-11.62
攀	-11.62
廣如別章	-11.62
喉	-11.6201
不為眾惡	-11.6201
承佛神力	-11.6201
忌	-11.6202
一切皆得	-11.6202
跪	-11.6202
憤	-11.6202
央	-11.6203
大如車輪	-11.6203
八地巳上	-11.6203
蚊虻	-11.6203
唯有如來得般涅槃	-11.6204
擬	-11.6204
剃髮	-11.6204
價直	-11.6204
狹劣	-11.6205
涕唾	-11.6205
無名無相	-11.6205
自分業	-11.6205
府	-11.6205
何以得知	-11.6205
蔡	-11.6206
欝	-11.6206
狼	-11.6206
汝今若能	-11.6206
證大菩提	-11.6206
填	-11.6207
心善解脫	-11.6207
城郭	-11.6207
從三昧起	-11.6207
疎	-11.6208
得是三昧	-11.6208
有漏無漏	-11.6208
菩薩摩訶薩修行般若波羅蜜多故	-11.6208
波羅奈	-11.6208
普流	-11.6209
魁膾	-11.6209
均	-11.621
淫	-11.6211
臍	-11.6211
茂盛	-11.6212
鋒	-11.6212
植眾德本	-11.6212
群迷	-11.6212
川	-11.6213
如應說法	-11.6213
不增	-11.6213
枳	-11.6214
率	-11.6214
燭	-11.6215
香象	-11.6216
尊者摩訶迦葉	-11.6216
慈孝	-11.6216
增盛	-11.6216
後識	-11.6217
磨滅	-11.6217
多饒	-11.6217
寬廣	-11.6218
劫奪	-11.6218
不改	-11.6218
又復理家	-11.6218
甘露味	-11.6219
門戶	-11.6219
無變異	-11.6219
百倍	-11.6219
光相	-11.6219
迷沒	-11.6221
󰥕	-11.6221
往生因	-11.6221
作業果報皆	-11.6222
智慧光明	-11.6222
正明夫人	-11.6222
學無學	-11.6223
我今略說	-11.6223
九十九	-11.6223
潔淨	-11.6223
開闡	-11.6223
那羅延法師	-11.6223
殺賊	-11.6224
說是經時	-11.6224
進退	-11.6224
招提僧	-11.6224
尋思	-11.6225
離有為相	-11.6225
傷歎	-11.6226
天上人間	-11.6227
啟請	-11.6227
聖旨	-11.6228
諸龍女	-11.6228
七十二	-11.6228
誦持	-11.623
天報	-11.623
授決	-11.6231
古注	-11.6231
燃燈	-11.6232
潤益	-11.6232
復有菩薩名	-11.6233
嚩底	-11.6235
五百弟子	-11.6235
十六種	-11.6237
祕藏	-11.6238
醜惡	-11.6238
初分科	-11.6239
若不生者	-11.6239
鼻根	-11.624
為眾說法	-11.624
處處地	-11.624
無上正等覺	-11.624
昵	-11.6241
起信論	-11.6242
成熟有情	-11.6242
持經戒	-11.6243
鐵圍山	-11.6243
如斯覺故觀無	-11.6243
愚闇	-11.6243
八千人	-11.6243
和順	-11.6244
勸進	-11.6246
執劍	-11.6248
坐起	-11.6248
即無生	-11.625
但當	-11.625
當入城	-11.6251
世俗諦	-11.6251
奉上如來	-11.6253
常修梵行	-11.6253
轉入	-11.6255
不與取	-11.626
後五百歲	-11.626
如是眾生有	-11.6261
而生於	-11.6261
真諦云	-11.6262
聽聞正法	-11.6263
幻人	-11.6264
乾闥婆王	-11.6265
說此偈	-11.6266
諸世界中	-11.6266
二障	-11.6267
或生畜	-11.6268
執為	-11.6268
之樹	-11.6269
天人大眾	-11.627
歷事	-11.6276
希有事	-11.6278
幻術	-11.6279
而能獲得	-11.628
普明	-11.6281
如來藏章	-11.6282
說是經	-11.6282
無侶	-11.6289
堅固心	-11.6291
大般涅槃	-11.6292
初門	-11.6293
滅空	-11.6296
別論	-11.6297
復有人言	-11.6299
下三品	-11.6299
理教	-11.6302
業空	-11.6303
隨俗	-11.6303
智海	-11.6303
無障礙智	-11.6304
皆得往生	-11.6305
供養承事	-11.6305
菩薩善權方便	-11.6305
生無量清淨佛國	-11.6306
汝當知	-11.6306
諸疑網	-11.6308
起想	-11.6308
殑伽沙劫	-11.6311
今更	-11.6313
七寶具足	-11.6314
不可議	-11.6315
毒害	-11.6317
卿等	-11.6317
又如世間	-11.6318
可證	-11.6319
地獄眾生	-11.632
尊者舍利弗	-11.6323
勝鬘所說	-11.6324
可悅	-11.6324
有若干	-11.6325
為他說	-11.6326
彼諸如來	-11.6326
智慧辯才	-11.6328
不復更	-11.6334
善通達	-11.6334
咸生歡喜	-11.6339
主宰	-11.6341
求一切智	-11.6342
諸珍寶	-11.6343
何用	-11.6344
千年	-11.6346
違順	-11.6348
此神識	-11.6349
有諸苾芻	-11.635
唯佛世尊	-11.6355
以何意	-11.6356
當請問	-11.6357
是無著	-11.6359
癡心	-11.6362
可施設	-11.6363
若能了	-11.6363
在何處	-11.6363
阿難當知	-11.6363
門釋之	-11.6363
如是等人	-11.6364
在會	-11.6365
趣無上道	-11.6372
國中菩薩	-11.6373
座上	-11.6373
長久	-11.6373
煩惱染	-11.6374
安詳	-11.6377
而退	-11.6379
最上乘	-11.638
手掌	-11.6383
生阿彌陀佛國	-11.6384
林樹	-11.6384
求阿耨多羅三藐三菩提	-11.6385
不可分別	-11.6385
救苦	-11.6386
今為汝說	-11.6386
平等性故	-11.6387
布施持戒	-11.6389
拘胝劫	-11.6392
了了	-11.6393
自性空故	-11.6396
遣使	-11.6399
歎也	-11.6402
我如是說	-11.6404
於此處	-11.6409
餘殃	-11.641
無懈怠	-11.6411
世話過	-11.6413
那得	-11.6414
是故今明	-11.6415
起瞋恚	-11.6415
無所礙	-11.6416
諸賢聖	-11.6418
光潔	-11.6418
諸財寶	-11.6422
億數	-11.6425
諸鳥	-11.643
無限量	-11.6431
白毫	-11.6434
乃可	-11.6435
宣正法	-11.6437
終至	-11.6438
十行	-11.6439
忍辱力	-11.6442
於自身	-11.6446
身密	-11.6448
於人中	-11.6448
水聚	-11.6451
村邑	-11.6453
其邊	-11.6453
證阿耨多羅三藐三菩提果	-11.6459
無患	-11.6459
無音聲	-11.6462
一塵	-11.6463
福利	-11.6466
往還	-11.6469
淨因	-11.6471
一切境界	-11.6476
即指	-11.648
何所作	-11.6481
無怖畏	-11.6481
興大悲	-11.6481
廣作	-11.6481
此甚深法	-11.6481
況有	-11.6484
有何義	-11.6485
究竟清淨	-11.6486
速往	-11.6487
可捨	-11.6488
鼓音	-11.6491
或散	-11.6492
金輪	-11.6493
眷屬及	-11.6494
五婆羅門	-11.6499
別指	-11.65
無癡	-11.6503
無和合	-11.6505
日光明	-11.6506
昔曾	-11.6511
於佛智	-11.6513
無明地	-11.6515
深法忍	-11.6517
八德	-11.6521
獲福	-11.6524
即向	-11.6525
見佛身	-11.6526
時彼眾中	-11.6528
於佛道	-11.6535
彼佛壽命	-11.6535
大樹	-11.6537
往生淨土	-11.6539
一切諸法無有	-11.6542
生阿閦佛剎者	-11.6544
云何諸菩薩	-11.6545
過世	-11.6549
是常住	-11.6549
求菩薩道	-11.655
身口業	-11.6553
更有餘	-11.6554
獲證	-11.6558
佛寺	-11.6561
出世法	-11.6562
其池	-11.6562
不兩舌	-11.6565
為自身	-11.657
塵垢	-11.657
文略	-11.6571
險惡	-11.6576
心安	-11.6577
願說何	-11.6579
圓頓	-11.6581
以此為	-11.6586
無量千	-11.6588
他力	-11.6588
夢中所見	-11.6589
依大乘	-11.6591
中邊	-11.6592
諸花	-11.6601
成就一切智	-11.6603
無染污	-11.6607
難化	-11.6608
明珠	-11.6609
攝護	-11.6612
安得	-11.6618
之首	-11.6621
時彼如來	-11.6625
五德	-11.6633
莊嚴其身	-11.6633
邪欲	-11.6634
依地	-11.6639
定散	-11.6643
於後世	-11.6645
調馬	-11.6655
阿字門	-11.6655
實語者	-11.6661
禪定解脫	-11.6661
寶樓	-11.6663
無慚愧	-11.6669
無形色	-11.6669
隨信	-11.667
不生怖畏	-11.6672
最上勝	-11.6672
七曰	-11.6675
所對	-11.6676
寧有	-11.6678
覺一切法	-11.6681
喜愛	-11.6686
設供養	-11.6686
不簡	-11.6686
文分為	-11.6687
常為眾生	-11.669
八邪	-11.6698
得善利	-11.6699
柔順	-11.67
能斷除	-11.6702
隨處	-11.6702
獲是	-11.6702
不動搖	-11.6703
其壽	-11.6703
天香	-11.6707
如來如實知	-11.6708
大悲之心	-11.671
不懼	-11.671
離諸惡道	-11.6713
功德花	-11.6714
敷座	-11.672
先後	-11.672
諸愚夫	-11.6722
得大利	-11.6727
以大悲心	-11.6732
甘美	-11.6738
之所由	-11.674
皆能了知	-11.6745
清風	-11.6748
次想	-11.6748
有情界	-11.6751
生厭	-11.6751
乃成	-11.6754
今當為汝	-11.6755
安隱處	-11.6764
餘經	-11.6771
四十八	-11.6772
馥	-11.6774
妻子眷屬	-11.6774
四如意足	-11.6778
怨親	-11.6778
不可言說	-11.678
祕要	-11.6781
勸他	-11.6782
亦無少法	-11.6782
脫苦	-11.6785
能出生	-11.6786
共持散諸佛及	-11.6789
外觀色	-11.6793
淨剎	-11.6794
不知足	-11.6795
蹈	-11.6796
聞已即	-11.6796
迷悶	-11.6796
離我我所	-11.6798
攝受正法善男子善女人	-11.6799
菩薩乘富伽羅	-11.6799
目乾連	-11.6799
勝高如來	-11.6802
不來不去	-11.6803
增廣	-11.6805
劫生死之罪	-11.6805
無數諸佛	-11.6806
北齊三藏那連提耶舍譯	-11.6807
國中人天	-11.6808
一沙一佛	-11.6811
諸菩薩意各復欲得	-11.6811
問於尊者	-11.6812
僧坊	-11.6813
當知是人徒自疲勞	-11.6813
方世界有	-11.6813
坐於道場	-11.6813
富樓那彌多羅尼子	-11.6813
王都	-11.6813
合為一	-11.6813
金銀琉璃	-11.6813
皆悉知	-11.6813
筋骨	-11.6814
伽樓羅	-11.6814
我有光明名	-11.6815
映奪	-11.6816
身獨度脫	-11.6816
稽首作禮	-11.6816
釋梵護世	-11.6817
不驚不怖	-11.6818
不及其一	-11.6819
本無有我亦無有情	-11.6819
獄卒	-11.682
信解清淨乃至發希有想	-11.682
懈倦	-11.682
是人見已心生	-11.682
苞	-11.682
如是之業乃至	-11.6821
當如是學	-11.6822
當何名此經	-11.6822
但有名字	-11.6822
我為汝說	-11.6822
惔怕	-11.6822
清潔	-11.6822
有四法	-11.6823
苦空無常	-11.6823
五濁惡世	-11.6824
▁34	-11.6824
長跪	-11.6824
村落	-11.6824
應得度者	-11.6824
壽終之後	-11.6824
無高無下	-11.6825
不斷三寶	-11.6825
尊者優陀夷	-11.6825
須臾頃	-11.6825
廓	-11.6826
病瘦	-11.6826
幻士仁賢	-11.6826
彼諸人等	-11.6826
浪	-11.6826
明了通達	-11.6827
支謙	-11.6827
試光祿卿	-11.6827
遍震	-11.6827
七菩提分	-11.6827
等輩	-11.6827
坐禪一心	-11.6827
余	-11.6828
慜	-11.6828
拘物頭	-11.6828
此眾生信	-11.6828
▁32	-11.6828
三藐三	-11.6828
7	-11.6828
回	-11.6829
救療	-11.6829
於晨朝時	-11.6829
郡	-11.6829
甜	-11.6829
得不起法忍	-11.683
甫	-11.683
盜賊	-11.683
肅	-11.683
慈心不殺	-11.683
多陀阿伽度	-11.6831
未生怨	-11.6831
隨諸眾生種種	-11.6831
勝力	-11.6831
嚕	-11.6831
救世	-11.6831
無量無數不可思議	-11.6831
儻	-11.6832
楯	-11.6832
長跪合掌	-11.6832
𦟛	-11.6832
償	-11.6832
有何差別	-11.6833
欝單越	-11.6833
摩訶目揵連	-11.6833
甚深般若波羅蜜	-11.6833
此即初也	-11.6833
積累	-11.6834
神仙	-11.6834
疲極	-11.6834
覺傳梵大師賜紫沙門臣法護等奉詔譯	-11.6834
剎那不住	-11.6835
縮	-11.6835
席	-11.6836
捶	-11.6836
七寶宮殿	-11.6836
難伏地	-11.6836
奉迎	-11.6837
辛苦	-11.6837
又成就修行者	-11.6837
阿閦菩薩摩訶薩	-11.6837
阿閦菩薩	-11.6837
歌羅邏	-11.6837
諸上善人	-11.6838
初識生已	-11.6838
諸大弟子	-11.6838
芬	-11.6838
火所燒	-11.6838
恒河上	-11.6838
頭陀功德	-11.6838
述云此第五	-11.6839
法律	-11.6839
日子王	-11.6839
本所不見	-11.6841
菴	-11.6841
衢	-11.6841
今此所論	-11.6842
賓頭盧	-11.6842
朗然	-11.6842
天上天下	-11.6842
若有菩薩聞說	-11.6842
時彼童子	-11.6843
爛壞	-11.6843
給孤獨園	-11.6843
阿彌陀佛剎中	-11.6844
乘於大乘	-11.6844
即有其七	-11.6844
離垢施女問	-11.6844
首楞嚴	-11.6844
具大威德	-11.6845
受持諷誦	-11.6846
六方諸佛	-11.6846
邏	-11.6846
不斷無明住地	-11.6846
覽	-11.6847
患厭	-11.6847
不倦	-11.6847
何等為六	-11.6847
光澤	-11.6847
豁	-11.6848
幽閉	-11.6848
勝觀如來	-11.6848
給使	-11.6848
授手	-11.6848
攝諸眾生	-11.6848
四大海水	-11.6849
仰惟	-11.6849
譬如幻師	-11.685
惟願世尊	-11.685
彼處所有	-11.685
親承	-11.685
此中何有貪	-11.6852
志存	-11.6852
守護正法	-11.6852
又此眼等	-11.6853
翻譯	-11.6854
測度	-11.6854
於中初明	-11.6855
不以為難	-11.6856
放淨光明	-11.6856
共相謂言	-11.6858
為他說法	-11.6858
重任	-11.6858
欲染	-11.6859
第六天上	-11.6859
大勢力	-11.686
不見少法	-11.6862
如陽焰	-11.6863
云何諸菩薩摩訶薩成就	-11.6863
如是諸菩薩摩訶薩畢竟成就	-11.6864
皆悉現前	-11.6864
如是般若不與	-11.6865
復有四法成就	-11.6866
在王舍城	-11.6866
是名善說	-11.6867
未來際	-11.6868
攘	-11.6869
真淨	-11.687
究盡	-11.687
於剎那頃	-11.687
是義云何	-11.687
外緣	-11.687
如實見	-11.6873
彰己	-11.6873
於此三千大千世界	-11.6875
真實語	-11.6875
何義故作如是說	-11.6875
敷具	-11.6876
何者為三	-11.6876
後宮	-11.6877
嗟歎	-11.6878
而修供養	-11.6878
於是處	-11.6879
平等入解	-11.688
降伏諸魔	-11.6881
極難得	-11.6881
無量無邊世界	-11.6881
百千萬億那由他	-11.6883
尊重恭敬	-11.6883
風雨	-11.6883
蓮華上	-11.6884
金剛句	-11.6886
童真菩薩	-11.6887
不空如來藏	-11.6889
五住地	-11.6894
怨賊	-11.6895
宣示	-11.6895
可往	-11.6896
故名阿彌陀	-11.6897
即有其三	-11.6899
如須彌山王	-11.6899
利他德	-11.6901
離心意	-11.6902
無量善根	-11.6903
題目	-11.6907
九種	-11.6908
第三段	-11.6908
如其所說	-11.691
不得邊際	-11.691
乘大乘	-11.6911
際門	-11.6913
悅樂	-11.6914
凡小	-11.6917
舉手	-11.6917
全體	-11.692
出胎	-11.692
色聲香味觸法	-11.6922
投身	-11.6922
行菩薩行時	-11.6922
一生補處菩薩	-11.6924
度彼岸	-11.6925
咸作是	-11.6925
無損害	-11.6927
勝華藏菩薩	-11.6928
自餘	-11.6931
心不顛倒	-11.6931
已辦	-11.6931
發遣	-11.6933
入於涅槃	-11.6934
生牙	-11.6936
自分行	-11.6937
而反	-11.6938
住佛前	-11.6939
甚希有	-11.694
不惱	-11.694
十四章	-11.6941
此說名為	-11.6942
座而坐	-11.6942
是則無	-11.6943
唯求	-11.6943
在一處	-11.6944
第四句	-11.6945
興起	-11.6945
寶王	-11.6945
寂默	-11.6946
如師子王	-11.6946
福慧	-11.6946
何者名為	-11.6952
後總結	-11.6952
但聞	-11.6954
說此是為	-11.6955
不戲論	-11.6955
剎那相應	-11.6956
五塵	-11.6957
不可勝	-11.696
故名為覺	-11.6961
於一切有情	-11.6963
易得	-11.6963
由彼如來	-11.6963
無所有處	-11.6964
所聞法	-11.6965
受胎生	-11.6967
本迹	-11.6972
無有作者	-11.6972
所化眾生	-11.6975
廣果天	-11.6977
善香	-11.6978
瑪瑙為	-11.6978
爾時世尊知	-11.6978
在家多	-11.698
故涅槃云	-11.6981
兩足	-11.6981
初識生	-11.6981
三十九	-11.6982
西方淨土	-11.6983
極清淨	-11.6984
又族姓子	-11.6989
苦逼	-11.6991
諸法本無	-11.6993
深心清淨	-11.6995
會二乘	-11.6995
正精進	-11.6995
以此因緣	-11.6996
梵本	-11.6996
六欲天	-11.6997
迦攝	-11.6998
無所求	-11.7
佛剎莊嚴	-11.7001
及諸眷屬	-11.7002
上文	-11.7002
若已生	-11.7002
如是此識	-11.7003
時無垢施女謂	-11.7004
自然有	-11.7006
之所攝受	-11.7006
若茲	-11.7006
不恚	-11.7007
於聲聞乘	-11.7007
差別之相	-11.7007
無上正真	-11.7009
禪樂	-11.7009
證無生忍	-11.7009
令一切眾生悉	-11.7009
相連	-11.7011
為開示	-11.7014
咸生	-11.7017
悉遍	-11.7019
持法者	-11.702
住空中	-11.7021
經七日	-11.7022
鷲峯山中	-11.7024
能忍受	-11.7032
菩薩作是思惟	-11.7035
彼世界中	-11.7036
息滅	-11.7036
欲界諸天	-11.7039
放光如來	-11.7041
讚云	-11.7042
俗人	-11.7047
守門	-11.705
有八萬	-11.7051
一相法門	-11.7053
三菩提	-11.7057
以為莊嚴	-11.7057
幻法	-11.7061
四聖種	-11.7068
魔界	-11.7068
佛神力故	-11.7069
眼耳鼻舌身意	-11.7071
財業	-11.7077
和合生	-11.7078
十七種	-11.7081
辯才無礙	-11.7081
苦海	-11.7083
厭倦	-11.7084
行毘利耶波羅蜜多故	-11.7086
如來善了	-11.7087
七寶莊嚴	-11.7091
萬倍	-11.7094
根性修	-11.7094
成無上正真之道	-11.7095
法幢	-11.7098
有漏業	-11.7101
諂曲心	-11.7104
諸佛正法	-11.7108
寶手菩薩	-11.7108
大唐三藏法師玄奘奉詔譯	-11.7109
懸諸	-11.711
稱讚如來	-11.711
還來	-11.7116
鏡中	-11.7118
於無上道	-11.7119
火聚	-11.7142
法華論	-11.7147
異類	-11.7153
凡有三	-11.7154
寶瓔珞	-11.717
但應	-11.7173
不作相	-11.7176
一切皆悉	-11.718
不可樂	-11.7181
共集會	-11.7183
何故偏	-11.7185
居家為	-11.7187
俱胝那庾多	-11.7188
無明滅	-11.7188
無一眾生	-11.7189
菩薩若入	-11.7193
口說	-11.7201
知諸眾生	-11.7205
雖同	-11.7205
大梵王	-11.7208
說一相法門	-11.7214
我當云何	-11.7217
諸伎樂	-11.722
無種類	-11.722
頭面禮佛	-11.7222
餘乘	-11.7222
頗梨為	-11.7222
爾時頂生	-11.7224
若諸眾生有	-11.7227
之輩	-11.7228
無漏慧	-11.7231
是諸如來	-11.7237
萬億劫	-11.7239
珍妙	-11.7242
說如是言	-11.7242
授其	-11.7245
皆獲	-11.7251
卷第五	-11.7253
是諸比丘	-11.7253
無緣慈	-11.7257
五逆罪	-11.7258
來去	-11.7259
向佛合掌	-11.7262
久修	-11.727
能動	-11.7271
第三釋	-11.7272
大品經	-11.7272
妙辯才	-11.7272
罪惡	-11.7275
遠聞	-11.7275
并及	-11.7275
六萬八千	-11.7277
初始	-11.7281
雖不能	-11.7284
若見眾生	-11.7288
無亂	-11.7288
上來別	-11.7288
得一切法	-11.7289
種種性	-11.729
真俗	-11.7291
三僧祇	-11.7292
如來之身	-11.7292
諸蓋	-11.7297
照見	-11.7298
遠離一切諸	-11.7298
一百二十	-11.7308
有六十	-11.7308
一切外道	-11.7309
身觸	-11.7312
品云	-11.7322
無底	-11.7322
十戒	-11.7324
是有為	-11.7332
明闇	-11.7332
諸佛國中	-11.7333
名無為	-11.7338
好惡	-11.7339
而可得	-11.7341
理成	-11.7347
記說	-11.7351
如來塔	-11.7355
如鏡	-11.7357
聖行	-11.7357
實德	-11.7357
號佛	-11.736
瑜伽	-11.7361
菩薩摩訶薩成就如是	-11.7362
寶殿	-11.7363
諸法體性	-11.7363
雖然	-11.7369
二序	-11.7371
無熱	-11.7382
喜捨	-11.7383
如斯覺故觀	-11.7389
畢竟清淨	-11.7392
明護法	-11.7392
妄念	-11.7393
畫像	-11.7399
無有比	-11.7399
成就無量功德	-11.74
正答	-11.7408
有支	-11.741
耳鼻舌身	-11.7418
性具	-11.7422
妙高	-11.7422
凡有二	-11.7429
退屈	-11.7431
謗正法	-11.7433
不專	-11.7433
得法忍	-11.7434
命終已	-11.7434
訛	-11.7438
滿其中	-11.7439
又汝諸魔欲	-11.744
唯然已	-11.7444
我等從今日已	-11.7445
有緣生	-11.7445
周圓	-11.7446
汝意云何	-11.7452
惡世	-11.7452
邑	-11.7456
詣如來所	-11.7456
相應文句	-11.7458
美味	-11.746
如來出現於世	-11.7462
勝鬘白佛	-11.7462
求無上菩提	-11.7464
觀佛三昧	-11.7467
聞我名字	-11.7469
一時佛在舍衛國祇樹給孤獨園	-11.747
曾於過去	-11.7472
響聲	-11.7473
親覲	-11.7474
惹	-11.7474
我生巳盡	-11.7475
嗜	-11.7476
厄難	-11.7476
常身命財	-11.7477
郁伽長者	-11.7478
同分心品相續	-11.7478
焰摩天	-11.7478
如龍樹	-11.7479
為欲勤求大菩薩藏微妙法門	-11.748
摧過咎	-11.748
瘖瘂	-11.7481
從本已來	-11.7481
二譬	-11.7481
千輻輪	-11.7482
取要言之	-11.7482
與大苾芻眾	-11.7482
說經行道	-11.7482
菩薩摩訶薩行尸羅波羅蜜多故	-11.7482
校飾	-11.7483
演說法時	-11.7483
我心安住觀察如色	-11.7483
心一境性	-11.7484
遲緩	-11.7484
世世累劫	-11.7484
欲重宣此義	-11.7484
樂於多言	-11.7484
踊悅	-11.7484
晨朝	-11.7485
菩薩有四事	-11.7485
皆於中現	-11.7485
割截	-11.7485
曠野大城	-11.7485
菩薩摩訶薩為欲修行般若波羅蜜多故	-11.7485
訶責	-11.7486
造彼業已即便謝滅	-11.7486
上下無央數佛國	-11.7486
是名下結	-11.7486
休廢	-11.7486
蘊界處	-11.7486
耗	-11.7487
運載	-11.7487
須臾間	-11.7487
菩薩成就修行	-11.7487
從是已後	-11.7487
六種振動	-11.7487
中品上生	-11.7488
隨諸所作	-11.7488
刀兵	-11.7488
霑	-11.7488
於千歲中	-11.7488
煎	-11.7489
盲聾	-11.7489
光明照耀	-11.7489
為他廣說	-11.7489
栰	-11.7489
躍	-11.7489
出世間上上智	-11.7489
阿泥樓大	-11.7489
孝養	-11.749
役	-11.7491
鬼趣	-11.7491
毘梨耶波羅蜜	-11.7491
徹視	-11.7491
阿鼻地獄	-11.7491
昔行菩薩道時	-11.7492
於大眾中正師子吼	-11.7492
毛髮	-11.7492
輕躁	-11.7492
柄	-11.7492
宰	-11.7493
各於其國	-11.7493
精勤修學	-11.7493
效	-11.7493
恚怒	-11.7493
縵	-11.7494
摩尼寶珠	-11.7494
阿閦佛德號法經	-11.7494
於千歲中未曾起念	-11.7494
踐	-11.7494
或有諸行	-11.7494
梯	-11.7495
自上已來	-11.7495
人與非人	-11.7495
恭信	-11.7495
鬪訟	-11.7495
唱如是言	-11.7495
▁310(3	-11.7495
佛本何故起此	-11.7495
阿鞞跋致	-11.7495
先釋	-11.7496
有愛住地	-11.7496
我亦不說	-11.7496
自境界	-11.7496
囑累	-11.7496
六十二見	-11.7496
於世尊前	-11.7496
屈伸	-11.7496
性自空	-11.7497
如意寶	-11.7497
心以存立	-11.7497
潛	-11.7497
爾時尊者舍利弗	-11.7497
恭恪	-11.7497
紫金臺	-11.7497
心以住在	-11.7497
讎	-11.7498
飽滿	-11.7498
六十那由他	-11.7498
穢污	-11.7498
苦集滅道	-11.7498
▁31	-11.7499
浣	-11.7499
大菩提場	-11.7499
敷榮	-11.7499
益作諸善	-11.7499
恐不然	-11.7499
歡娛	-11.7499
又昔曾為	-11.7499
成就如是功德莊嚴	-11.75
五痛五燒	-11.75
隅	-11.75
而告之	-11.75
故經說言	-11.7502
入城乞食	-11.7502
是名菩薩忍辱	-11.7503
可思議	-11.7504
菩薩藏法門	-11.7504
結跏趺坐	-11.7504
次有太子名	-11.7505
壅	-11.7505
十二由旬	-11.7505
我於彼時	-11.7506
捧	-11.7506
結成極樂	-11.7506
秉作	-11.7506
諸賈客	-11.7506
依正二報	-11.7506
夕	-11.7506
晨	-11.7507
勒	-11.7507
峻	-11.7507
為利養故	-11.7507
在家者為	-11.7507
示教利喜	-11.7507
滑	-11.7508
陶	-11.7508
卑賤	-11.7508
加趺而坐	-11.7509
命終之時	-11.7509
芳	-11.7509
容貌	-11.751
野馬	-11.751
綠	-11.751
孽	-11.7511
恣意	-11.7511
如來妙色身	-11.7511
斯陀含果	-11.7512
正師子吼	-11.7512
降伏眾魔	-11.7513
紫金色	-11.7513
阿怒	-11.7513
第二段	-11.7514
三乘初業	-11.7514
摩陀比丘	-11.7515
一一樓閣	-11.7516
澡浴	-11.7517
自要	-11.7517
熟藏	-11.7517
容儀	-11.7517
忻樂	-11.7518
即詣	-11.7519
筆	-11.7519
因陀羅	-11.752
百千萬倍	-11.752
勝鬘正說	-11.752
於剎那間	-11.7522
為其說法	-11.7522
愁苦	-11.7523
旃提羅	-11.7523
永絕	-11.7523
黑山	-11.7524
不垢不淨	-11.7524
乳糜	-11.7525
慶喜	-11.7525
衍	-11.7526
見有國土	-11.7526
圓融	-11.7527
復有餘	-11.7528
有為善巧	-11.7528
坐禪	-11.7528
毘婆尸如來	-11.7528
供諸佛	-11.753
貪惜	-11.7531
大醫王	-11.7533
受諸苦惱	-11.7534
八萬相	-11.7535
我復有願	-11.7535
此翻為	-11.7535
識宿命	-11.7536
何況我等	-11.7537
住虛空中	-11.7538
寂止	-11.7539
祇樹	-11.7539
諸根悅豫	-11.7539
菩薩成就如是	-11.7539
勤勞	-11.754
我今當說	-11.7543
度諸眾生	-11.7545
道樹	-11.7545
事不究竟	-11.7545
涌出	-11.7547
初地已上	-11.7547
語言辯才	-11.7547
至其所	-11.7549
復感業風名為	-11.755
永劫	-11.755
不實分別	-11.7551
證小果	-11.7552
聞是經已	-11.7553
乃至十念	-11.7553
阿迦	-11.7554
利鈍	-11.7556
重苦	-11.7557
而散佛上	-11.756
諸惡行	-11.756
今世至	-11.7561
形狀	-11.7562
善根成熟	-11.7563
相好光明	-11.7564
日沒	-11.7564
除疑惑	-11.7565
發大精進	-11.7566
諮受	-11.7566
是精進根	-11.7566
色相光明	-11.7567
雜觀	-11.7568
一切法無生	-11.7571
而般涅槃	-11.7572
智慧亦復然	-11.7573
如來不共法	-11.7573
貪嫉	-11.7575
初業菩薩	-11.7579
決疑	-11.758
得利養	-11.7581
受五欲	-11.7582
幢上	-11.7582
必應	-11.7584
邪染	-11.7585
勝丈夫	-11.7588
容色	-11.7588
妬心	-11.7589
稱機	-11.7589
皆欣喜	-11.7591
唯佛能	-11.7591
無退屈	-11.7593
修菩薩行時	-11.7594
翻之	-11.7594
分布	-11.7596
順理	-11.7597
入聚落	-11.7597
出家之人	-11.7598
氣力	-11.7599
安諦	-11.76
苦滅諦	-11.7602
此文來	-11.7606
現瑞	-11.7607
成一切智	-11.761
池岸	-11.7611
受欲樂	-11.7612
此等皆是	-11.7613
所宜	-11.7613
聲聞之人	-11.7616
休止	-11.7621
益物	-11.7623
深達	-11.7626
捨棄	-11.7629
不從他	-11.763
復有七	-11.7631
復有諸天	-11.7631
之旨	-11.7631
命終後	-11.7632
心得無疑	-11.7633
廣利	-11.7634
盛年	-11.7635
不得四智	-11.7635
積德	-11.7636
來至佛所	-11.7638
不能解了	-11.7639
則能成就	-11.7641
十二入	-11.7641
我不說言	-11.7643
臺上	-11.7644
蓮華藏	-11.7644
威施	-11.7646
斷結	-11.7646
離戲論	-11.7646
菩薩摩訶薩復有	-11.7647
十力尊	-11.7653
萎華	-11.7655
色陰	-11.7662
為利益他	-11.7664
證阿耨多羅三藐三菩提	-11.7664
復有二種	-11.7666
惡罵	-11.767
病惱	-11.7671
雙結	-11.7671
無有異也	-11.7672
所謂金	-11.7674
爾時帝釋	-11.7675
利群生	-11.7677
三界內	-11.7677
耽欲	-11.7679
以偈答	-11.7681
開顯	-11.7686
故名為大	-11.7693
汝等當知	-11.7693
及諸比丘	-11.7697
起悲心	-11.7698
散亂心	-11.7699
法有故	-11.77
不應起	-11.7703
水種	-11.7706
欲食時	-11.7706
九十六	-11.7708
佛告下	-11.7711
中三品	-11.7712
隨類	-11.7712
苦毒	-11.772
亦復無有	-11.7724
濁水	-11.7725
舍那	-11.7728
廣度	-11.7729
中悔	-11.773
無量法門	-11.7733
亦有二種	-11.7736
不閑	-11.7736
全無	-11.7751
超過世間	-11.7751
生恐怖	-11.7752
遍清淨	-11.7753
盲人	-11.7753
一佛國	-11.7754
清白法	-11.7755
勿作	-11.7758
四絕	-11.7761
婬女	-11.7763
是無差別	-11.7764
大梵天	-11.7771
門而入	-11.7775
無異相	-11.778
隨順世間	-11.7784
是故應知	-11.7787
生是念	-11.7787
嫉心	-11.7789
明矣	-11.7791
他方佛國	-11.7792
十界	-11.7792
生樂想	-11.7793
憐愍眾生	-11.7794
四淨戒	-11.7794
佛性論	-11.7797
求大乘者	-11.7797
大地獄	-11.7799
皆悉成就	-11.7804
無迷惑	-11.7805
速證阿耨多羅三藐三菩提	-11.7806
自守	-11.7809
出火	-11.7817
諸塵	-11.7827
如似	-11.7829
於是經	-11.7837
講法	-11.7841
國土莊嚴	-11.7841
純淨	-11.7843
國邑	-11.7844
忘正法	-11.7846
妄執	-11.7856
乘境	-11.786
大自在	-11.786
下品人	-11.7861
燈光	-11.7861
爾時彼佛	-11.7862
宿願	-11.7865
道俗	-11.7866
無表示	-11.7867
廣辨	-11.7867
法藏菩薩	-11.7872
資身	-11.7877
四指	-11.7878
不見諸法	-11.7883
大慈悲心	-11.7889
持五戒	-11.789
瓔珞經	-11.7893
貪利養	-11.7894
閻	-11.7901
同共	-11.7903
法非法	-11.7904
四辯	-11.7905
如蓮花	-11.7907
所稱譽	-11.791
誠信	-11.7913
橫執	-11.7913
金剛身	-11.7916
永盡	-11.7917
是名為識	-11.7918
勿得	-11.7919
其中所有	-11.792
而能成就	-11.7923
治化	-11.7925
復有十種	-11.7927
雜惡	-11.7932
梵輪	-11.7933
不墮惡道	-11.7934
無量佛土	-11.7936
於一切智智	-11.7936
雖異	-11.7937
摩那	-11.794
亦不可思議	-11.7943
無行無	-11.7944
殑伽沙	-11.7945
大山	-11.7946
從何而	-11.7947
何謂三	-11.7948
末法	-11.7961
次舉	-11.7964
七覺分	-11.7967
名波羅蜜	-11.7972
勝利	-11.7972
若干百千	-11.7975
皆爾	-11.7983
太子復	-11.7992
雖少	-11.7994
中陰	-11.7999
富饒	-11.8003
我曾	-11.8013
是故應當	-11.8014
悉無所有	-11.8017
豈能	-11.802
諸菩薩摩訶薩眾	-11.8021
初偈	-11.8025
因緣滅	-11.8027
夜叉眾	-11.8029
菩薩有四種	-11.8032
滅度後	-11.8038
得阿羅漢果	-11.8043
不求菩提	-11.8044
遶三匝	-11.8055
尊勝	-11.8058
威德王	-11.8061
著衣	-11.8065
十方無量世界	-11.8073
百五十	-11.808
處于	-11.8097
能如實知	-11.8097
諸藥	-11.8105
決斷	-11.8116
見極樂世界	-11.8116
永斷一切	-11.8122
牛羊	-11.8126
與授記	-11.8128
入海	-11.8133
第二從世尊	-11.8145
生其國	-11.8149
如聚沫	-11.8163
賈	-11.8167
形類	-11.8167
各復欲得	-11.817
依此法生此法	-11.8173
修多羅中說	-11.8175
汝等今	-11.8177
聽我說	-11.818
是亦如來如實	-11.8182
高七多羅樹	-11.8183
所歸趣	-11.8183
當來末世後五百歲	-11.8183
又神通智	-11.8184
非盡一切煩惱	-11.8185
瘦	-11.8185
逮得己利	-11.8187
淨莊嚴王	-11.8187
貧乏	-11.819
翫	-11.8192
鳩槃荼	-11.8192
僮僕	-11.8192
一毛端量	-11.8193
賈人	-11.8193
攝善法戒	-11.8193
某甲	-11.8193
在其胞裏於母腹	-11.8193
我人眾生壽者	-11.8194
一毛端	-11.8194
師子勇猛雷音菩薩	-11.8194
離波多	-11.8194
湛	-11.8194
鹹	-11.8195
身識生時	-11.8195
依如來藏	-11.8195
或生天人中	-11.8196
默然不答	-11.8196
所作巳辦	-11.8197
竅	-11.8197
摩睺勒	-11.8197
是人徒自疲勞	-11.8197
羼提波羅蜜	-11.8197
那由劫	-11.8197
持國轉輪聖王	-11.8197
甘蔗	-11.8198
端嚴殊特	-11.8198
放此光明	-11.8198
無有一法從於	-11.8199
狀貌	-11.8199
給奉水瓶	-11.8199
不異有人求	-11.8199
嘗	-11.82
如此愚人	-11.82
一切世間所不能信	-11.82
鵝	-11.82
此應具論	-11.82
暗冥	-11.82
炭	-11.82
得薩芸若慧	-11.82
盡其形壽	-11.82
惛	-11.8201
除八十億劫生死之罪	-11.8201
十不善業道	-11.8201
訟	-11.8201
無願解脫門	-11.8201
而得生起	-11.8201
最為殊勝	-11.8202
佛說是經已	-11.8202
世而有生滅	-11.8202
行四攝法	-11.8202
慰喻	-11.8202
下品上生	-11.8202
說二聖諦	-11.8202
清信士	-11.8203
退住一面	-11.8203
疲苦	-11.8203
總略乃至	-11.8203
器仗	-11.8204
東方去此	-11.8204
摩拏嚩迦	-11.8204
廁	-11.8204
景	-11.8204
不請友	-11.8204
新發意菩薩	-11.8204
迦迦羅婆花	-11.8204
於諸法中得法眼淨	-11.8204
妻室	-11.8204
不正作意	-11.8204
常安住	-11.8205
憶想分別	-11.8205
去無所至	-11.8205
殃咎	-11.8205
摩訶曼陀羅花	-11.8205
病緣醫藥	-11.8205
彈指	-11.8206
床敷	-11.8206
盡未來際	-11.8206
脊	-11.8206
觸緣受	-11.8206
塗其身	-11.8206
羅閱	-11.8206
絡	-11.8206
貞	-11.8207
善勝天子	-11.8207
於五受陰	-11.8207
詣菩提場	-11.8207
回向	-11.8208
又念過去	-11.8208
去時遲疾	-11.8208
是菩薩持不	-11.8209
瞬	-11.8209
滌	-11.8209
一日乃至七日	-11.8209
唯然受教	-11.8209
秤	-11.8209
恭敬圍遶	-11.8209
什物	-11.8209
一來意門	-11.8209
廣分別說	-11.8209
萎	-11.8209
來求者	-11.821
􂎈	-11.821
沐浴	-11.821
雷震	-11.821
不可計無央數	-11.8211
昵彌王	-11.8211
如來一一如實了知	-11.8211
歌詠	-11.8211
障蔽	-11.8211
栱	-11.8211
忠	-11.8211
薩芸若意	-11.8211
於空法	-11.8212
初生之時	-11.8212
迷醉	-11.8212
光世音	-11.8212
處非處智力	-11.8212
千輻	-11.8213
寶掌	-11.8213
八聖道分	-11.8213
貿	-11.8214
濡	-11.8214
縱任	-11.8214
群臣	-11.8214
十日十夜	-11.8214
洽	-11.8214
專一	-11.8215
剪	-11.8215
兜	-11.8215
隙	-11.8215
怨恨	-11.8215
遐	-11.8216
無發悟	-11.8216
賢護勝上童真	-11.8216
圓滿一切佛法	-11.8216
以佛力故	-11.8216
考	-11.8216
菩薩得菩提時	-11.8217
豐足	-11.8217
不可說不可說	-11.8219
註	-11.8219
如是眾生於未來世當有	-11.8219
現成正覺	-11.8219
祇洹	-11.822
順向	-11.822
混	-11.8221
諾	-11.8221
恭敬圍繞	-11.8222
升	-11.8222
算計	-11.8222
人民熾盛	-11.8222
巷	-11.8222
依不求依	-11.8222
受十大受	-11.8223
燋	-11.8223
究暢	-11.8223
羅婆	-11.8223
徹聽	-11.8223
窣堵波	-11.8223
羯羅藍	-11.8223
是心是佛	-11.8224
塗身	-11.8224
無作四聖諦	-11.8224
無取無捨	-11.8224
金臺	-11.8226
必得往生	-11.8226
鼓聲	-11.8226
發如是願	-11.8226
額	-11.8226
突	-11.8227
一切諸行	-11.8227
非見非	-11.8227
常住僧物	-11.8227
漫	-11.8228
明告命	-11.8228
為法根本	-11.8228
眼耳	-11.8229
稱讚利益	-11.823
無量無邊阿僧祇劫	-11.823
令生我剎	-11.823
是為下結	-11.8231
須彌山頂	-11.8231
放無量光	-11.8231
為救護	-11.8231
江河	-11.8232
規	-11.8233
不可限	-11.8233
乏少	-11.8233
大鐵圍山	-11.8234
咄哉	-11.8234
而自莊嚴	-11.8234
底沙	-11.8234
犯禁戒	-11.8234
不可具說	-11.8235
逮致	-11.8235
形服	-11.8235
智為體	-11.8235
演說妙法	-11.8236
於三世中	-11.8236
相似法故	-11.8237
即有其六	-11.8237
信法未久	-11.8237
施福	-11.824
無濁	-11.8241
究竟彼岸	-11.8241
甚理家	-11.8242
轉共相成	-11.8242
於諸佛前	-11.8242
入大乘道	-11.8243
攝律儀	-11.8243
因緣故有	-11.8243
縱使	-11.8244
爾時慧命	-11.8244
有大光明	-11.8245
面像	-11.8246
營事	-11.8246
了知一切法	-11.8249
於一切法無所	-11.8249
流淚	-11.8249
樹提	-11.825
離障	-11.8251
犯不與取	-11.8252
乃至識亦無	-11.8252
應機	-11.8253
是諸人等	-11.8253
十力無畏	-11.8253
若干百	-11.8254
不可動	-11.8255
及比丘眾	-11.8255
自高	-11.8256
無偏	-11.8257
意識界	-11.8257
彼佛土中	-11.8257
無邊不斷	-11.8258
如幻三昧	-11.8259
漸頓	-11.8259
雙照	-11.826
妙法門	-11.826
萬境	-11.8262
供養舍利	-11.8262
偈半	-11.8262
不執著	-11.8262
從因緣生	-11.8263
攝伏	-11.8264
其數無量	-11.8266
不能如法	-11.8267
賢聖行	-11.8267
語文殊師利童子	-11.8268
愚癡之人	-11.8269
普攝	-11.8269
未審	-11.827
一光中	-11.8271
應當了知	-11.8272
是故諸長者	-11.8275
三種淨業	-11.8276
佛告勝鬘	-11.8276
求大菩提	-11.8276
大眾之中	-11.8277
近遠	-11.8279
何期	-11.8279
合譬	-11.8281
多財寶	-11.8282
出妙音聲	-11.8283
夜叉王	-11.8287
佛在世	-11.8288
初明佛	-11.829
大品云	-11.8291
遊止	-11.8291
成熟一切眾生	-11.8293
無數取	-11.8293
饒益事	-11.8295
普賢如來	-11.8296
理性	-11.8297
於佛正法	-11.8298
一乘道	-11.8298
除遣	-11.8299
歡喜信受	-11.8301
普告	-11.8302
小乘人	-11.8304
不證涅槃	-11.8308
即違	-11.8309
無量百千億那由他	-11.831
服食	-11.831
演說正法	-11.8311
復以種種	-11.8312
眾德本	-11.8312
不明了	-11.8312
父母妻子	-11.8312
狀如	-11.8316
尚未	-11.8317
內於母腹	-11.8317
盲冥	-11.8319
為眾生說法	-11.8323
浮雲	-11.8323
離諸分別	-11.8327
來到	-11.8327
久習	-11.8328
甚重	-11.833
而發趣之	-11.833
明十方佛	-11.8333
神通自在	-11.8335
香貪	-11.8335
墮大地獄	-11.8337
尊重供養	-11.834
聞佛說法	-11.8342
諸重擔	-11.8344
無學果	-11.8345
能師子吼	-11.8347
有二種相	-11.8349
次釋第三	-11.835
身業清淨	-11.8351
於後時	-11.8352
幾時	-11.8352
半劫	-11.8352
彼二菩薩	-11.8355
修菩提行	-11.8357
間斷	-11.8357
不驚	-11.8358
受三歸	-11.8363
欲詣	-11.8368
定聚	-11.8369
是不破	-11.8371
皆悉了知	-11.8372
遠照	-11.8373
斷疑網	-11.8373
降雨	-11.8379
欲聽法	-11.8379
彼佛土	-11.8383
初生時	-11.8385
共會	-11.8391
即為說法	-11.8392
所不及	-11.8393
白淨法	-11.84
第二忉利天	-11.8406
在其中	-11.8406
住大乘者	-11.8407
次照	-11.8407
隨法行	-11.841
無量德	-11.8414
流轉生死	-11.8417
惡露	-11.842
寶臺	-11.8421
無雜亂	-11.8425
無有疑惑	-11.8425
一切諸善根	-11.8426
隨風	-11.8428
閻浮提內	-11.843
易知	-11.8431
耳目	-11.8434
閻浮提人	-11.8434
次合	-11.8437
下明其	-11.8437
自悔過	-11.8438
義不同	-11.8443
正了知	-11.8444
無業報	-11.8452
然燈如來	-11.8456
次就	-11.8456
略示	-11.8458
大患	-11.8459
兩種	-11.846
信解清淨	-11.8461
除障	-11.8465
苾芻僧	-11.8467
此經名為	-11.8469
加護	-11.8469
淨無垢	-11.8469
若彼眾生	-11.8478
緣了	-11.8487
食飲	-11.8488
離塵垢	-11.8488
而不受	-11.8489
上下無央數諸佛	-11.849
所變	-11.849
無有自性	-11.8492
得少分	-11.8495
無愛著	-11.8504
應當捨離	-11.8508
識棄	-11.8511
無得無	-11.852
於大菩提	-11.8521
須摩提報	-11.8525
顯照	-11.8525
佛告大藥	-11.8528
火焰	-11.8532
但就	-11.854
異報	-11.8545
緊那羅王汝	-11.8546
彼佛告	-11.8551
釋題	-11.8552
歸一乘	-11.8559
至如來所	-11.8561
名色因緣	-11.8564
亂意	-11.8568
拘胝歲	-11.8571
金色光	-11.8575
此說是為	-11.8576
不復生	-11.8581
不復見	-11.8581
面形	-11.8587
身口心	-11.8593
與諸眾生	-11.8601
我身是也	-11.8601
王四天下	-11.8602
佛及諸菩薩	-11.861
若干千	-11.8611
而實不	-11.8611
億千	-11.8614
大唐三藏	-11.8622
無所依止	-11.8625
恒沙佛法	-11.8626
百里	-11.863
若有女人	-11.8634
此菩薩見第	-11.8635
不信受	-11.8639
從緣生	-11.8642
善導	-11.8645
現形	-11.8648
爾時世尊知諸	-11.8649
深妙法	-11.8659
淨土因果	-11.8672
隨其所樂	-11.8672
無命者	-11.8676
以法施	-11.8688
第二辨	-11.869
沈水	-11.8694
我今當往	-11.8699
法船	-11.8701
號釋迦牟尼	-11.8706
於諸見	-11.8708
為汝說	-11.8708
億分不及一	-11.8712
理趣善巧	-11.8713
有何意	-11.8721
無量清淨佛所	-11.8725
如影	-11.8726
分真	-11.8729
無上菩提道	-11.8733
無垢光	-11.874
窮盡	-11.8749
勝鬘白佛言	-11.8763
卷第七十	-11.8766
和同	-11.8768
相好莊嚴	-11.8773
障重	-11.8774
粗見	-11.8775
共相應	-11.8779
不生疑惑	-11.8786
勝義法	-11.8788
決定當得	-11.879
禪解脫	-11.8791
生信心	-11.8798
床臥	-11.88
大動	-11.8801
受苦樂	-11.8803
述云此第	-11.882
自手	-11.8823
勸物	-11.8826
度脫眾生	-11.8828
所成樓閣	-11.8834
金沙	-11.8845
離垢施女	-11.8846
離癡	-11.8847
當於何	-11.8849
獲果	-11.8851
通論	-11.8854
過去未來	-11.8863
五品	-11.8866
別示	-11.8869
功德無邊	-11.8871
雲雷	-11.8875
細分	-11.8876
肯	-11.8876
何益	-11.888
王太子	-11.8887
得初果	-11.8892
遍滿十方	-11.8893
雲聚	-11.8898
八俱胝	-11.89
過去久遠	-11.89
勿復	-11.8916
畏懼	-11.8919
踰於	-11.8919
答女	-11.8921
而菩薩力能	-11.8923
知友	-11.8932
最上清淨	-11.8933
腹中	-11.8945
亦無受者	-11.8946
乃至命難	-11.8946
亦不作非	-11.8949
干	-11.895
無種種想	-11.8954
菩薩摩訶薩行於方便	-11.8954
國貧須賴	-11.8956
普攝一切	-11.8958
彼不動菩薩	-11.8958
善出離	-11.8959
盡智無生智	-11.8959
沮壞	-11.896
喃	-11.896
紫磨金	-11.896
十方無央數世界	-11.8961
純一無雜	-11.8961
即為聽聞	-11.8962
為諸菩薩說	-11.8962
起大慈心	-11.8962
如鏡中像	-11.8962
速能證得阿耨多羅三藐三菩提	-11.8962
四正斷	-11.8963
聞授記已	-11.8963
以四攝法	-11.8964
菩薩摩訶薩修行靜慮波羅蜜多故	-11.8964
訪	-11.8964
揣	-11.8964
少病少惱	-11.8964
梵行巳立	-11.8964
轉正法輪	-11.8964
礫	-11.8964
無倫匹	-11.8965
於後末世五百歲中	-11.8965
如我解佛所說義	-11.8965
髓腦	-11.8965
一時佛在王舍城耆闍崛山	-11.8965
螢火	-11.8966
自分業報	-11.8966
微風	-11.8966
授佛記	-11.8967
癩	-11.8967
寶上天子	-11.8967
於後末世五百歲時	-11.8967
奉事師長	-11.8968
十方一切諸佛	-11.8968
現此微笑	-11.8969
此說名智	-11.8969
慇	-11.8969
聞是聲已	-11.8969
羸弱	-11.8969
珍玩	-11.897
亦復無所施設	-11.897
分陀利花	-11.8971
時淨無垢寶月王光菩薩摩訶薩	-11.8971
牛跡	-11.8971
倉	-11.8972
神境通	-11.8972
輪圍山	-11.8972
不容受	-11.8972
啼哭	-11.8972
毘耶娑仙	-11.8972
歡欣	-11.8972
色相端嚴	-11.8973
廣為他說	-11.8973
躄地	-11.8973
靈禽	-11.8973
寢	-11.8973
武	-11.8973
冤家	-11.8974
貨	-11.8974
戴	-11.8974
玩	-11.8974
從空而來	-11.8974
乃至誰能染	-11.8974
顏貌	-11.8974
自性明亮	-11.8974
惻	-11.8975
專修義利	-11.8975
有罪無罪	-11.8975
孫陀羅	-11.8975
飽足	-11.8975
晚	-11.8975
耕	-11.8975
中品中生	-11.8976
愛作菩薩	-11.8977
蠕動之類	-11.8977
恚恨	-11.8977
震吼	-11.8977
娑訶世界	-11.8977
一向記說	-11.8977
目不暫捨	-11.8977
經曰佛告阿難至	-11.8977
闥	-11.8978
迴小入大	-11.8978
脾	-11.8978
痰	-11.8979
排	-11.8979
稍稍	-11.8979
不失所願	-11.8979
無量無邊阿僧祇	-11.8979
隨所聞法	-11.8979
禪定波羅蜜多	-11.8979
胃	-11.8979
智業圓滿	-11.8979
受想行識亦復如是	-11.898
廣興供養	-11.898
生大怖畏	-11.898
二死兼除	-11.898
此有情根性以	-11.898
禍福	-11.898
芻	-11.898
行緣識	-11.8981
剛	-11.8981
我佛剎中	-11.8981
前起後	-11.8981
那術	-11.8981
生後利益	-11.8981
阿僧企耶劫	-11.8981
空義隱覆真實	-11.8982
周圍	-11.8982
臘	-11.8982
芬馥	-11.8982
悲泣	-11.8982
總而言之	-11.8982
取緣有	-11.8982
剃鬚髮	-11.8982
微細難知	-11.8982
在大眾中	-11.8983
而嚴飾之	-11.8983
林公	-11.8983
鎮	-11.8983
五念門	-11.8983
優婆提舍	-11.8983
背痛	-11.8983
明亮	-11.8983
隨其意樂	-11.8983
占	-11.8984
毛道凡夫	-11.8984
了義經	-11.8984
沾	-11.8984
降伏魔軍	-11.8985
我發是	-11.8985
甚希奇法	-11.8985
調適	-11.8986
蚊	-11.8986
兆	-11.8986
畜養	-11.8986
驚怪	-11.8986
笛	-11.8986
八十里	-11.8986
承佛聖旨	-11.8986
深信因果	-11.8986
復問汝等	-11.8986
爾時彌勒菩薩摩訶薩	-11.8987
作法苾芻	-11.8987
如是出現光	-11.8987
西域	-11.8988
法能障聖道	-11.8988
自性不可得	-11.8988
魔王波旬	-11.8989
躡	-11.8989
鄣	-11.8989
復有三昧名	-11.899
壞敗	-11.899
細軟	-11.899
詠	-11.899
復更思惟	-11.899
三昧正受	-11.8991
熏習	-11.8991
小兒	-11.8991
瑟	-11.8992
增損	-11.8992
聲香味觸法	-11.8992
頭痛	-11.8992
柔順忍	-11.8992
迦留陀夷	-11.8992
無形質	-11.8993
如法華云	-11.8993
那羅延力	-11.8993
無反復	-11.8993
他化自在諸天	-11.8993
我從今日至	-11.8993
依附	-11.8994
七重行樹	-11.8994
於諸契經	-11.8994
遷流	-11.8994
痛哉	-11.8995
沙彌	-11.8996
兩肩	-11.8996
阿彌陀國	-11.8997
攝正法欲	-11.8997
空無相願	-11.8999
金剛步	-11.8999
㮈	-11.9
唯然大聖	-11.9
無為界	-11.9001
能作難作	-11.9001
懈廢	-11.9001
導御	-11.9001
以讚於	-11.9001
無色無形	-11.9001
彼人若言	-11.9002
愛緣取	-11.9002
結前生後	-11.9002
殆	-11.9002
無問自說	-11.9002
是心作佛	-11.9003
大千世界	-11.9003
瞻覩	-11.9003
層	-11.9004
第四段中	-11.9004
又一解	-11.9005
淨名云	-11.9005
池者底	-11.9005
已於過去	-11.9005
綜	-11.9006
如金色	-11.9006
住於佛前	-11.9006
懃苦	-11.9006
相應不相應	-11.9007
鉢那	-11.9007
鹿王	-11.9008
如理觀察	-11.9008
茫	-11.9008
故須辨	-11.9008
受持讀誦通利	-11.9008
戰勝	-11.9009
思擇	-11.901
過去曾	-11.901
塔寺	-11.901
深淺	-11.9011
烏波	-11.9012
正法滅時	-11.9012
末利夫人	-11.9013
兩卷	-11.9014
平滿	-11.9014
我當為彼	-11.9015
无量	-11.9015
出世間善法	-11.9015
富有	-11.9016
愚惑	-11.9016
入般涅槃	-11.9016
薗	-11.9016
宗親	-11.9018
無依世間	-11.9018
萬人俱	-11.9018
名足迹	-11.9019
汝豈不	-11.902
求於菩提	-11.9021
親近承事諸	-11.9021
釋論云	-11.9021
頭頂	-11.9021
令其永斷	-11.9022
鉢底	-11.9023
應學如是	-11.9023
別時意	-11.9023
珠瓔	-11.9024
皆是阿羅漢	-11.9025
歸伏	-11.9025
亦不念	-11.9026
一心三觀	-11.9026
遷化	-11.9027
遵修	-11.9029
安靜	-11.903
戲處	-11.903
江河沙等	-11.903
為大醫王	-11.903
諸人眾	-11.9031
被縛	-11.9032
何物	-11.9034
鮮明	-11.9035
四洲	-11.9035
審實	-11.9037
所侵	-11.9037
語業清淨	-11.9038
造罪業	-11.9038
吹擊	-11.9039
五百人復	-11.9041
猶如有人	-11.9041
踊身	-11.9041
應當發起	-11.9043
十方諸佛世界	-11.9044
未曾有法	-11.9045
說是言	-11.9046
行作沙門	-11.9046
寶篋	-11.9046
莊嚴功德成就	-11.9047
執著我	-11.9048
發弘誓	-11.9048
王應當信	-11.905
有佛名曰	-11.9051
登地	-11.9053
寶共作一樹	-11.9053
世尊如來藏者	-11.9054
五色光	-11.9055
時大目連	-11.9056
云何而言	-11.9057
恒沙煩惱	-11.9058
亦同然	-11.9059
是名正見	-11.906
清水	-11.9063
世尊告曰	-11.9063
勤修精進	-11.9065
如法修行	-11.9065
亦不可盡	-11.9066
光明王如來	-11.9067
有為界	-11.9067
易悟	-11.9069
如前所說	-11.9074
有大功德	-11.9075
日月光明	-11.9075
六波羅蜜多	-11.9076
一剎那	-11.9077
若了眼	-11.9078
通別二	-11.908
暴惡	-11.908
牧牛	-11.908
不生愛著	-11.9083
爾時世尊知彼	-11.9086
黑白	-11.9086
拔除	-11.9087
精進波羅蜜	-11.9088
散失	-11.9089
無畏德	-11.909
愛樂正法	-11.9095
梵聲	-11.9095
大乘法中	-11.9098
往其所	-11.91
緣覺聲聞	-11.9103
大人相	-11.9104
往昔曾	-11.9105
為欲調伏	-11.9106
遍告	-11.9108
乞人	-11.911
是佛境界	-11.911
傳化	-11.9111
合掌頂禮	-11.9111
不遷	-11.9112
金色身	-11.9112
華座觀	-11.9113
種種差別	-11.9115
眾寶莊嚴	-11.9115
於佛法僧	-11.9116
四無量心	-11.9116
不堅牢	-11.9117
我實不	-11.9118
無上乘	-11.9119
唐言	-11.9119
菩提之道	-11.912
亦無邊際	-11.9122
畜財	-11.9122
佛告富樓那	-11.9124
鐵丸	-11.9124
得為人	-11.9126
魔怨	-11.9128
自投	-11.9128
幾許	-11.913
不起分別	-11.9132
一切人眾	-11.9132
人天乘	-11.9137
持其名者離	-11.9147
皆悉遠離	-11.9156
一切諸法皆悉	-11.9162
戒禁	-11.9164
求哀	-11.9169
是相已	-11.9173
壽命長遠	-11.9173
甚深忍	-11.9174
投之	-11.9176
族姓	-11.9181
神足力	-11.9182
水精樹	-11.9182
一題	-11.9183
卷中	-11.9183
止惡	-11.9187
於我前	-11.9189
未熟	-11.9189
金蓮華	-11.9192
坐其上	-11.9192
能遍知	-11.9192
如所應	-11.9193
雙釋	-11.9194
非不相應	-11.9196
倒見	-11.9196
告語	-11.9206
度脫一切	-11.9211
勸學	-11.9215
慧聚	-11.923
五百年	-11.9243
簡別	-11.9249
無瑕穢	-11.9262
得言菩薩	-11.9264
不相離	-11.9265
忉利天上	-11.9267
言不轉	-11.9274
歸依法僧	-11.9275
珠網	-11.9275
遍至十方	-11.9278
世導師	-11.928
宣說妙法	-11.928
痛惱	-11.9286
高慢	-11.9289
時王舍城	-11.9291
種植	-11.9295
業惑	-11.9302
度脫一切眾生	-11.9305
造惡業	-11.9306
疑謗	-11.9314
釋經文	-11.9316
近善知識	-11.9316
專求	-11.9317
悲哀	-11.9323
及蜎飛蠕動之類	-11.9324
百千那由他	-11.9326
染惡	-11.9329
眷屬自得	-11.9333
能信受	-11.9336
作如是知	-11.934
獲安樂	-11.9345
經論中	-11.9346
勤力	-11.935
聞甚深法	-11.9352
族中	-11.9354
無邊世界	-11.9368
五十三	-11.9373
百二十萬	-11.9373
有菩薩名	-11.9375
殿樓閣	-11.9378
當來世	-11.9378
奉敬	-11.9381
不免	-11.9386
當何名	-11.9388
次列	-11.9391
光明摩尼寶	-11.9391
似沙門	-11.9399
無補特伽羅	-11.9401
精進勇猛	-11.9404
當墮地獄	-11.9407
不怯	-11.9411
千六百	-11.9412
仁慈	-11.9413
前章	-11.9415
恚癡	-11.9418
上來雖有十	-11.9421
乾枯	-11.9424
韋提白佛	-11.9425
所存	-11.9434
次別	-11.9437
能奉行	-11.9441
毘陀	-11.9449
為煩惱所	-11.945
不染著	-11.9454
喜根	-11.9457
國中人民	-11.946
常存	-11.9468
是名為慧	-11.9476
世出世	-11.9477
此輩	-11.9479
生極樂世界	-11.948
垂哀	-11.9481
馬師	-11.9485
久修梵行	-11.9499
淨佛土	-11.9504
林間	-11.9509
年少	-11.951
百二十	-11.951
皆如實知	-11.951
人民及蜎飛蠕動之類	-11.9513
彰其所	-11.9513
故名極樂	-11.952
精妙	-11.9524
所收	-11.9525
緊那羅王	-11.9529
自性無所有	-11.9547
如是等種種	-11.9552
略標	-11.9554
風種	-11.9554
亂風吹萎華	-11.9556
太虛	-11.9561
略歎	-11.9562
九萬	-11.9566
欲終時	-11.9577
受持此經	-11.9584
無諛諂	-11.9586
如是觀已	-11.9586
知其數	-11.9591
無依無	-11.9595
熏修	-11.9596
答無垢施女	-11.9599
漸增	-11.9605
我證菩提	-11.9611
寶鬘	-11.9612
千倍	-11.9618
不可宣說	-11.9627
勤修學	-11.9627
名之為空	-11.9628
我所求	-11.9628
國中諸菩薩	-11.963
勝福田	-11.9643
現在真如	-11.9644
得大富	-11.9645
用是故得	-11.9647
曼陀羅	-11.9648
同居淨土	-11.9649
我亦當	-11.9649
晝夜常	-11.965
諸法無我	-11.9657
自調伏	-11.9677
何以不	-11.9678
藥師	-11.9686
奇異	-11.9694
違害	-11.9695
此所獲福	-11.9699
無來去	-11.9703
吉安	-11.9709
眼性空	-11.9715
幻事	-11.9717
無加行	-11.9718
寶髻菩薩	-11.9722
滅無餘	-11.9723
佛薄伽梵	-11.9724
勝意樂	-11.9725
迷失	-11.9727
煮	-11.9734
篤	-11.9735
禮足	-11.9736
愍世間	-11.9739
應當遠離	-11.9739
更無別	-11.9746
七寶合成	-11.9755
大地獄中	-11.9758
為利一切	-11.9762
皆在虛空中下向	-11.9767
親近承事	-11.9771
師和上	-11.9772
拂去	-11.9773
淨無垢妙淨寶月王光	-11.9775
是聖人表式	-11.9776
如滿月	-11.9777
復感業風名	-11.9777
寶髻	-11.9778
慰問	-11.9778
眾尊王菩薩	-11.978
有四戶蟲	-11.978
掬	-11.9781
面貌	-11.9781
令我國中諸菩薩	-11.9782
如一念頃	-11.9783
不休	-11.9783
值佛出世	-11.9784
百法明門	-11.9784
懶惰	-11.9784
皮膚	-11.9785
▁【	-11.9789
不妨	-11.9791
華德藏菩薩	-11.9791
和上阿闍梨	-11.9791
了知業轉無有作者	-11.9792
魔不能得其便	-11.9793
女人及根缺	-11.9793
香普熏	-11.9793
莎	-11.9794
顧視	-11.9794
寶共作一	-11.9794
住立佛前	-11.9795
作供養事	-11.9795
十萬里華	-11.9795
都不可復計	-11.9795
娑婆世界主大梵天王	-11.9795
水界火界風界	-11.9795
彼佛名者	-11.9796
我來迎汝	-11.9796
妖	-11.9796
鬪亂	-11.9796
轉大法輪	-11.9796
拔一切眾生苦	-11.9797
若有菩薩於多聞所	-11.9797
伎藝	-11.9797
貪恚愚癡	-11.9797
幾數眾生	-11.9798
降伏魔怨	-11.9798
摩多梨	-11.9799
騃	-11.9799
猥	-11.9799
若行若住若坐若臥	-11.9799
猶如夢覺	-11.9799
裁	-11.98
勝鬘寶窟卷	-11.98
霔	-11.98
下品中生	-11.98
過現未來	-11.98
初中後善	-11.9801
矯	-11.9801
濟拔	-11.9801
貪欲瞋恚愚癡	-11.9801
初夜後夜	-11.9801
爾時世尊為馬勝比丘說伽	-11.9801
不起慢心	-11.9802
放大光明遍照	-11.9802
阿若憍陳如	-11.9802
愁惱	-11.9802
聾盲	-11.9802
無減失	-11.9802
極樂世界淨佛土	-11.9802
三千大千界	-11.9802
權顯實	-11.9802
牒前起後	-11.9803
七日七夜	-11.9803
既到彼已	-11.9803
住等引心	-11.9803
五百侍女	-11.9803
飛禽	-11.9803
疆	-11.9803
惚	-11.9804
陀摩尸利	-11.9804
識緣名色	-11.9804
顛倒真實章	-11.9804
沫	-11.9804
甫當生者	-11.9804
炎熱	-11.9805
中品下生	-11.9805
擾亂	-11.9805
無所從生法忍	-11.9805
滅時亦空	-11.9805
楚毒	-11.9805
頰	-11.9805
巡	-11.9805
【【	-11.9805
秉	-11.9805
積功累德	-11.9806
踈	-11.9806
藐	-11.9806
津	-11.9806
聞我名已	-11.9807
若有欲求如來	-11.9807
蔓	-11.9807
體性亦復如是	-11.9807
和鳴	-11.9807
瓦	-11.9807
如水中月	-11.9807
利樂諸有情	-11.9807
以散佛上	-11.9808
無因無緣	-11.9808
仇	-11.9808
郡國	-11.9808
舉足下足	-11.9808
澡	-11.9808
於七日中	-11.9808
今此會中	-11.9808
而為先導	-11.9808
滿中七寶	-11.9808
如說而行	-11.9809
曼殊沙華	-11.9809
惶怖	-11.9809
涕	-11.9809
乾陀訶提	-11.9809
跳	-11.9809
此菩薩是六地	-11.9809
四寶所成	-11.9809
號哭	-11.9809
鳩盤茶	-11.9809
菩薩摩訶薩修行般若波羅蜜多時	-11.9809
當有是相	-11.9809
惓	-11.981
戮	-11.981
受諸快樂	-11.981
自見其身	-11.981
狐	-11.981
廣長舌相	-11.981
隱蔽	-11.981
即自然在前	-11.981
無增無減	-11.981
栴	-11.981
戚	-11.981
疲懈	-11.981
啼泣	-11.9811
晃曜	-11.9811
讒	-11.9811
本義云	-11.9811
堅鞕	-11.9811
禮覲	-11.9811
群賊	-11.9811
貿易	-11.9811
殖德本	-11.9811
真如來身名	-11.9811
欣慶	-11.9811
輦輿	-11.9811
炙	-11.9811
儒	-11.9812
被精進鎧	-11.9812
合掌作禮	-11.9812
洲渚	-11.9812
不生疲倦	-11.9812
捐棄	-11.9812
於我滅後	-11.9812
師子遊戲金光王如來	-11.9812
▁175	-11.9812
佛告韋提希	-11.9812
郁迦長者	-11.9812
貴賤	-11.9813
色聲香味細滑	-11.9813
若我弟子	-11.9813
循	-11.9813
汝同於梵行	-11.9813
掘	-11.9813
兔	-11.9813
不可思議佛土功德一切諸佛攝受法門	-11.9813
非我非我所	-11.9813
昔所未	-11.9813
自稱我處大仙尊位	-11.9813
駝	-11.9813
二十種過	-11.9814
摩那婆	-11.9814
是德號法經	-11.9814
循環	-11.9814
非有想非無想	-11.9814
頂中光明	-11.9814
毘奈耶	-11.9814
阿㝹樓馱	-11.9815
無懈倦	-11.9815
尸利	-11.9815
歌羅	-11.9815
恬	-11.9815
孫	-11.9815
俟	-11.9815
珂雪	-11.9815
陰種諸入	-11.9815
予	-11.9815
疽	-11.9816
詣道場	-11.9816
彌勒領解	-11.9816
掩	-11.9816
澹泊	-11.9816
未生善法	-11.9816
蘇油	-11.9816
離婆多	-11.9816
受種種苦	-11.9816
棗	-11.9817
恢廓	-11.9817
弗婆提	-11.9817
三輩往生	-11.9817
壓	-11.9817
爾許	-11.9817
去涅槃界遠	-11.9817
如實知一切法自體相	-11.9818
皆應信受	-11.9818
失壞	-11.9818
棘	-11.9818
一諦章	-11.9818
宣說法要	-11.9818
宴坐	-11.9819
得不捨離	-11.9819
製	-11.9819
複	-11.9819
毛竪	-11.9819
前中初言	-11.9819
骨節	-11.9819
怖懼	-11.9819
勝鬘師子吼	-11.9819
言何以故至	-11.982
惱熱	-11.982
本際不可知	-11.982
樹提梵志	-11.982
鷄	-11.982
地平如掌	-11.982
撾	-11.982
巧便	-11.982
滿三千大千世界	-11.982
創	-11.982
軌則	-11.982
彌勒菩薩白佛言	-11.9821
從佛口生	-11.9821
崩	-11.9821
妄想見故	-11.9821
緊	-11.9821
攝眾生戒	-11.9821
得如是報	-11.9821
金翅	-11.9822
沈溺	-11.9822
更整衣服	-11.9822
時尊者馬勝	-11.9822
彼無邊稱王	-11.9822
綴	-11.9822
甚深經典	-11.9822
迺	-11.9823
乍	-11.9823
優樓頻螺	-11.9823
烈	-11.9823
各各皆乘	-11.9823
深坑	-11.9824
胞裏	-11.9824
釋氏	-11.9824
維摩云	-11.9824
眷屬圍遶	-11.9824
憍梵波提	-11.9824
節節	-11.9825
遍滿三千大千世界	-11.9825
奈何	-11.9825
仞	-11.9825
善巧之智	-11.9825
佛告韋提	-11.9825
勅聽許說	-11.9825
親近惡知識	-11.9825
辨觀邪正	-11.9825
肇	-11.9826
一一觀之	-11.9826
無限大悲	-11.9826
坌	-11.9826
侵害	-11.9826
當成無上正真之道	-11.9827
何以知之	-11.9827
無有限量	-11.9827
又復化作	-11.9827
六種動	-11.9828
綵女	-11.9828
獨覺乘	-11.9828
樞	-11.9828
周迴	-11.9828
徙	-11.9828
受持五戒	-11.9829
讚揚	-11.9829
起如是心	-11.9829
要者眾祐	-11.9829
生彼佛剎	-11.983
纏裹	-11.983
虛妄不實	-11.983
捐捨	-11.983
一渧	-11.9831
悉無所著	-11.9831
遮迦越王	-11.9831
執杖	-11.9831
第四段	-11.9831
檐	-11.9831
又於千歲	-11.9831
萬種伎樂	-11.9832
不疲惓者	-11.9832
汝曹	-11.9832
劫盜	-11.9833
厥	-11.9833
疊	-11.9833
出妙聲	-11.9834
敬禮無所觀	-11.9834
文別有三	-11.9834
凝然	-11.9835
天耳性	-11.9835
憂悲	-11.9835
泛	-11.9835
稱之為	-11.9836
登地已上	-11.9836
廣行布施	-11.9836
七寶浴池	-11.9836
所作事業	-11.9837
未免	-11.9837
能測	-11.9838
首題	-11.9839
困苦	-11.9839
屓	-11.984
樂邦	-11.9841
如青蓮	-11.9842
愛不愛	-11.9842
蹇	-11.9842
敬仰	-11.9843
顯曜	-11.9843
具足一切功德	-11.9843
輕易	-11.9843
還入城	-11.9843
頭首	-11.9843
弩	-11.9844
黃頭	-11.9844
各自異行	-11.9844
王及夫人	-11.9844
聞說阿彌陀佛	-11.9844
調戲	-11.9844
間雜	-11.9845
即可施設	-11.9845
六十八	-11.9845
善權闓士	-11.9845
商主天子	-11.9846
修勝行	-11.9847
自責	-11.9847
意識境界	-11.9847
略而言	-11.9847
紅蓮	-11.9847
退菩提心	-11.9847
中最為第一	-11.9848
陽	-11.9848
飲水	-11.9849
語言音聲	-11.9849
摧折	-11.985
生死後際等	-11.9852
流支	-11.9853
馬鳴	-11.9853
前詣佛所	-11.9853
辜	-11.9853
且置	-11.9855
遠離殺生	-11.9855
諸相具足	-11.9856
戀著	-11.9857
語妙行	-11.9857
親近善知識	-11.9857
猶如幻化	-11.9858
以何義故名為	-11.9858
宿習	-11.9858
眼盡邊智	-11.9859
聽受正法	-11.9859
病藥	-11.986
尚爾	-11.986
起愛樂心	-11.986
喜踊	-11.986
謝滅	-11.986
忙	-11.986
彼愚癡人	-11.9861
具足十念	-11.9862
露地	-11.9862
十二年	-11.9863
聲響	-11.9864
五百由旬	-11.9866
困厄	-11.9866
如是大利	-11.9867
破戒比丘	-11.9868
大海之中	-11.9868
退失菩提	-11.9869
法華論云	-11.9869
鼻香	-11.987
迴施	-11.987
恒沙惑	-11.987
分別解說	-11.9871
剎那間	-11.9873
應如是觀	-11.9874
不善之法	-11.9874
古人	-11.9874
攝論云	-11.9875
如來修多羅中說	-11.9875
身相具足	-11.9876
除鬚髮	-11.9876
支體	-11.9876
聞已歡喜	-11.9877
見者歡喜	-11.9877
彩畫	-11.9877
終不退轉	-11.9877
復說頌曰	-11.9878
損惱	-11.9878
次釋第二	-11.9878
并眷屬	-11.9879
而能發起	-11.988
諸行皆	-11.988
意妙行	-11.988
飲光	-11.9882
趣於阿耨多羅三藐三菩提	-11.9882
加被	-11.9882
述云第四	-11.9883
其性平等	-11.9883
無有慚愧	-11.9884
我不見有	-11.9884
由此因緣	-11.9885
當行布施	-11.9886
難伏	-11.9888
光焰	-11.9888
會遇	-11.989
妄想分別	-11.9891
發如是言	-11.9891
出世善根	-11.9892
安住不動	-11.9895
了不可得	-11.9896
遍遊	-11.9896
害父	-11.9897
少福	-11.9898
持律	-11.9899
修行善業道	-11.9899
大阿僧祇劫	-11.99
而於其中	-11.99
諸釋種	-11.9901
善業道	-11.9901
若干品	-11.9902
起塔	-11.9904
色受想行識	-11.9904
五逆十惡	-11.9907
如理修行	-11.9908
如前釋	-11.9909
其義云何	-11.991
宜各	-11.9912
無塵垢	-11.9912
彼無量稱王	-11.9915
迦樓羅王	-11.9917
淨尸羅	-11.9918
至未曾有	-11.9919
緣覺之乘	-11.9923
究竟歸依如來	-11.9924
是為四事	-11.9925
父母和合	-11.9926
慈心精進	-11.9927
為佛事	-11.9929
金比	-11.993
如前解	-11.9931
真如法身	-11.9932
德增	-11.9932
破障	-11.9933
正嘆	-11.9935
住無所住	-11.9936
世界中諸佛	-11.9937
不可說義	-11.9938
淨梵行	-11.9939
後得智	-11.994
現微笑相	-11.9941
即得無生法忍	-11.9948
道品法	-11.9949
緣覺境界	-11.995
摩耶	-11.9951
邪思惟	-11.9957
至泥洹	-11.9961
利益無量眾生	-11.9962
諸欲樂	-11.9966
不諂	-11.9967
火種	-11.9967
不善業道	-11.9971
有何異	-11.9971
消散	-11.9971
復有三種	-11.9971
煩惱有二種	-11.9974
不擇	-11.9979
作諸善	-11.998
瑜伽論	-11.9983
同聲唱	-11.9984
界是佛境界	-11.9984
之異名	-11.9985
雨天華	-11.9987
天上世間	-11.9988
云何得知	-11.999
舉動	-11.9992
少年	-11.9995
亦無所取	-11.9995
偈重	-11.9996
得生彼國	-11.9996
偏就	-11.9997
雙標	-12.0002
得清涼	-12.0006
中道義	-12.0008
寶塔	-12.0008
十方國土	-12.0012
禮世尊足	-12.0012
大論云	-12.0015
有五種法	-12.0015
於眼生邊	-12.0015
智黠	-12.0017
普照一切	-12.002
能成辦	-12.0026
諸過患	-12.0026
身妙行	-12.0028
共合成	-12.003
從緣起	-12.003
天人阿修羅	-12.0032
自觀身	-12.004
受持是經	-12.005
難調	-12.0051
自體相	-12.0054
無垢施菩薩	-12.0055
智論云	-12.0057
佛號釋迦牟尼	-12.0066
德號	-12.0069
繒幡	-12.0075
假使十方	-12.0084
甚難得	-12.0095
悉來集會	-12.01
二十里	-12.0101
報女	-12.0103
百千天女	-12.0105
救攝	-12.0112
聲聞緣覺乘	-12.0117
淨土之因	-12.0131
無由得	-12.0132
於一剎那	-12.0134
所求索	-12.0136
隨彼所	-12.0146
那由他劫	-12.0151
汝勿	-12.0151
能消	-12.0155
作是觀已	-12.0156
作如是見	-12.0158
當證阿耨多羅三藐三菩提	-12.016
為人所	-12.0162
智度無極	-12.0163
六十億	-12.0165
根缺	-12.017
無卒暴	-12.0174
限齊	-12.018
佛告諸比丘	-12.0184
無見無	-12.0185
能堪任	-12.0194
生喜心	-12.02
令生信	-12.0209
不悋	-12.0227
修正行	-12.0232
增上緣	-12.0236
巨富	-12.0243
地中得	-12.0249
禮節	-12.0249
第十八	-12.0255
生善道	-12.0259
雙林	-12.0264
十里	-12.0268
列其名	-12.0286
淨佛國土	-12.0296
總示	-12.0308
負重	-12.032
摩尼寶以為	-12.0332
妻子及	-12.0332
在空中	-12.0333
大火聚	-12.0338
十方一切世界	-12.0338
無厭倦	-12.034
聞般若波羅蜜	-12.0345
無所執著	-12.0353
覆面	-12.0369
世話	-12.0371
夜摩	-12.0371
癡迷	-12.0371
徵問	-12.0372
如地持	-12.0383
唯是一	-12.0394
明如來得	-12.0395
能捨一切	-12.0415
菩薩勝行	-12.0417
諸結使	-12.0421
上上智	-12.0426
得值遇	-12.0434
名近寂	-12.045
作不善業	-12.0456
鮮白	-12.049
除疑網	-12.0497
從是故以下	-12.0498
千佛國	-12.0503
一切世間天人	-12.0503
見是已	-12.0509
唯願為我	-12.0513
不退轉阿耨多羅三藐三菩提	-12.0522
應當親近	-12.0541
能招	-12.0543
一切聲聞獨覺	-12.055
弘宣	-12.0555
錢	-12.0564
諸色像	-12.0591
毀禁	-12.0596
當往生無量清淨佛國	-12.0597
明收入	-12.0598
倦	-12.0598
好無比	-12.0599
金鈴	-12.0618
諸事業	-12.0622
聞其聲	-12.0626
鐵圍	-12.0635
淨居諸天	-12.064
饒益諸世間	-12.0641
加哀	-12.0648
十八不共	-12.0648
超世	-12.065
百福	-12.0651
放淨光	-12.0659
結嘆	-12.0662
作逆	-12.0664
珠光	-12.067
上昇虛空	-12.0671
毘婆尸	-12.0675
優婆斯	-12.0675
如毒蛇	-12.0679
當為汝	-12.0679
妙香花	-12.0683
盡諸苦	-12.0685
無間斷	-12.0686
厭苦樂求涅槃	-12.0686
阿練兒處	-12.0689
為欺	-12.069
十二有支	-12.0692
如來身相亦復如是	-12.0692
俱胝數	-12.0692
泉池	-12.0694
轡	-12.0696
尚不見	-12.0696
苗稼	-12.0696
罵辱	-12.0699
無有退減	-12.0701
衣服飲食臥具醫藥	-12.0701
非思量境界	-12.0701
於一劫中	-12.0701
智德資糧	-12.0701
國王大臣	-12.0702
無量清淨平等覺經	-12.0702
以攝取心	-12.0703
皇后	-12.0703
願為無上正真	-12.0703
何因何緣	-12.0703
長老須菩提	-12.0703
如自所證	-12.0703
無退減	-12.0704
不起恚心	-12.0704
授菩提記	-12.0704
聰叡	-12.0705
爾時師子勇猛雷音菩薩白	-12.0705
是智者所知	-12.0705
作大饒益	-12.0706
揵沓惒	-12.0706
是人所夢執謂為實	-12.0706
發勇猛心	-12.0706
阿閦佛摩訶般泥洹時	-12.0706
頭面著地	-12.0706
為得一切智具足一切佛法故	-12.0707
盡諸有結	-12.0707
四十二劫	-12.0707
入諸佛境界智光明莊嚴	-12.0707
安隱豐樂	-12.0707
無應不應	-12.0708
得大勢菩薩	-12.0708
非想非非想	-12.0708
姦詐	-12.0708
翅	-12.0708
精進行童子	-12.0708
恕	-12.0708
非其境界	-12.0708
星辰	-12.0709
聲聞及辟支佛	-12.0709
以十法為首	-12.0709
為顯此義	-12.0709
生老病死憂悲苦惱	-12.0709
猛焰	-12.0709
百分千分	-12.0709
此神通者	-12.0709
晃耀	-12.071
稱揚讚歎	-12.071
於一念頃	-12.071
密迹金剛力士謂寂意	-12.071
國大夫人	-12.071
大樹緊那羅王	-12.071
慧善解脫	-12.071
唯除五逆誹謗正法	-12.071
㯹	-12.071
從頂入	-12.071
闇鈍	-12.071
彼胎為從	-12.0711
嬈害	-12.0711
毘沙門天王	-12.0711
真珠瓔珞	-12.0711
遞	-12.0711
吾當為汝分別解說	-12.0711
焰意王	-12.0712
信受諦奉	-12.0712
我念往昔	-12.0712
鉢頭摩	-12.0712
=	-12.0712
搗	-12.0713
常不捨離	-12.0713
為意止	-12.0713
象馬車乘	-12.0713
健達縛	-12.0714
瑣	-12.0714
沸	-12.0714
菩提智所斷	-12.0714
是謂中道真實觀	-12.0714
西晉月氏國三藏竺法護譯	-12.0714
雙足	-12.0714
我語取	-12.0714
撥	-12.0714
空鉢而出	-12.0714
積累德本	-12.0714
見惡見稠林	-12.0714
橋	-12.0714
忻慶	-12.0715
陂	-12.0715
陸地	-12.0715
女白王	-12.0715
頻婆娑羅	-12.0715
樂變化天	-12.0715
貧窮下賤	-12.0715
不多不少	-12.0715
溝	-12.0716
發無上菩提心	-12.0716
無所適莫	-12.0716
三脫門	-12.0716
替	-12.0716
轉妙梵輪	-12.0716
羨	-12.0716
轉無上法輪	-12.0716
大圓鏡智	-12.0717
誰於今日	-12.0717
萬二千人俱	-12.0717
吝	-12.0717
生執著已起	-12.0717
此二空智	-12.0717
枷鎖	-12.0717
揀擇	-12.0717
為欲利益一切眾生	-12.0717
從何來	-12.0718
謹慎	-12.0718
不可稱數	-12.0718
過不定地	-12.0718
左脇	-12.0718
譬我亦如	-12.0718
此菩薩是五地	-12.0718
王阿闍貰	-12.0718
無相無願	-12.0718
侮	-12.0718
不可稱限	-12.0718
驅使	-12.0718
從是為下	-12.0718
菩薩摩訶薩於勝慧波羅蜜多	-12.0719
縣邑	-12.0719
捷疾	-12.0719
舟	-12.0719
僕	-12.0719
僧伽梨	-12.072
具諸不善	-12.072
七聖財	-12.072
授阿閦菩薩摩訶薩無上正真道決	-12.072
兜率天宮	-12.072
及五百長者子	-12.072
少於業障	-12.072
還到本國	-12.072
街	-12.072
右遶七匝	-12.072
拘盧舍	-12.072
縫	-12.072
汝所問	-12.072
晦	-12.072
不可稱說	-12.0721
街巷	-12.0721
枕	-12.0721
聽受經法	-12.0721
暖	-12.0721
人身難得	-12.0721
若遠若近	-12.0721
頂禮雙足	-12.0721
獨作諸善	-12.0721
軒	-12.0721
意業三種	-12.0721
掉動	-12.0722
紹繼	-12.0722
格	-12.0722
指端	-12.0722
離諸疑悔	-12.0722
如來身者不可以	-12.0722
菩薩於諸眾生轉大悲心	-12.0722
沾污	-12.0722
贍部	-12.0723
醉象	-12.0723
受緣愛	-12.0723
貧匱	-12.0723
經於七日	-12.0723
渴乏	-12.0723
故能爾耳	-12.0723
八十億劫	-12.0723
嚩帝	-12.0723
大乘廣智	-12.0723
泣	-12.0723
但受諸樂	-12.0724
不可復計劫	-12.0724
轉於法輪	-12.0724
康	-12.0724
說誠諦言	-12.0724
滴水	-12.0724
叢	-12.0724
屎	-12.0724
何故但說	-12.0724
坐佛樹下	-12.0724
得勝果報	-12.0724
沙門及婆羅門	-12.0724
苟	-12.0724
宛轉	-12.0725
靖	-12.0725
百六十里	-12.0725
從空而下	-12.0725
上來雖有七	-12.0725
應當發願生彼國土	-12.0725
爾時淨無垢寶月王光菩薩摩訶薩	-12.0725
詰	-12.0725
不依他智	-12.0725
畔	-12.0725
枉	-12.0725
釴	-12.0725
婬妷	-12.0726
言行相應	-12.0726
屋宅	-12.0726
攝大乘論	-12.0726
儼	-12.0726
十號具足	-12.0726
所住之處	-12.0726
功勳嚴淨	-12.0726
諷	-12.0726
是故今敬禮	-12.0727
廣勝殿	-12.0727
一依章	-12.0727
速疾成就阿耨多羅三藐三菩提	-12.0727
砌	-12.0727
克	-12.0727
如來述讚	-12.0727
波吒梨花	-12.0727
善心生焉	-12.0727
鸞	-12.0727
覺寤	-12.0727
大洞然等	-12.0728
汝當諦聽	-12.0728
生死依如來藏	-12.0728
三摩地三摩鉢底	-12.0728
佛言便說	-12.0728
白鶴	-12.0728
如是大果	-12.0728
發是願	-12.0728
心生惱害	-12.0728
鄔	-12.0729
怪未曾有	-12.0729
酩	-12.0729
以偈歎	-12.0729
殘害	-12.0729
天人本所未得	-12.0729
斷脫異	-12.0729
紫磨金色	-12.073
光耀	-12.073
車馬	-12.073
若見眾生樂以	-12.073
到如來所	-12.0731
勝現王如來	-12.0731
我於此中	-12.0731
淨居天子	-12.0731
萬行正法	-12.0731
施主家	-12.0731
捕	-12.0731
功祚	-12.0731
唯願說之	-12.0731
一體三寶	-12.0731
不離一切智心	-12.0731
增上意樂	-12.0731
曲躬	-12.0731
秀	-12.0732
不減失	-12.0732
勝華藏菩薩摩訶薩	-12.0732
真子章	-12.0732
此之一義	-12.0732
不可稱智	-12.0732
閫	-12.0732
悶絕	-12.0732
理行果	-12.0732
魏魏	-12.0732
今此文中	-12.0732
念念不住	-12.0732
施與者為	-12.0732
不調散壞	-12.0732
詩	-12.0733
神呪	-12.0733
多所安隱	-12.0733
警覺	-12.0733
財穀	-12.0733
身肢	-12.0733
諸小王	-12.0734
為利諸眾生	-12.0734
房舍	-12.0734
賀	-12.0734
敷設	-12.0734
佛本何故興此	-12.0734
聞此法門亦復如是	-12.0734
成就捨心	-12.0734
成實論	-12.0735
衛護	-12.0735
嗜欲	-12.0735
砂	-12.0735
高才	-12.0736
自性空寂	-12.0736
七尺	-12.0736
化樂天王	-12.0737
牛呞	-12.0737
悶	-12.0737
乃至發希有想	-12.0737
如是念已	-12.0737
如來色無盡	-12.0737
如汝所問	-12.0737
然佛如來	-12.0737
遍入諸	-12.0737
灼	-12.0738
唼	-12.0738
戢	-12.0738
法能為障礙	-12.0738
遽	-12.0738
那含	-12.0739
𡀔	-12.0739
牛糞	-12.0739
寶積正法經	-12.0739
醫方	-12.0739
有其二種	-12.0739
不保護	-12.0739
來至其所	-12.074
紙	-12.074
泡沫	-12.074
末尼	-12.074
卷第八	-12.074
攝持一切法	-12.074
過去現在未來	-12.074
名稱普聞	-12.074
爾時福焰王子	-12.074
乘此乘	-12.0741
完具	-12.0741
兩臂	-12.0741
獨步	-12.0742
聞已淨信	-12.0742
掣	-12.0742
悲惱	-12.0743
而能忍受	-12.0743
今所明者	-12.0743
供養奉事	-12.0743
覺行窮滿	-12.0743
化他德	-12.0744
攝護正法	-12.0744
墮於惡道	-12.0744
到佛所已	-12.0744
毘盧遮那	-12.0745
竺	-12.0745
莫測	-12.0745
何由得	-12.0746
蝕	-12.0747
勿怖	-12.0748
世尊我從今日乃至菩提	-12.0748
聞我說	-12.0748
卷第六	-12.0749
珊	-12.0749
卷第九	-12.075
興雲	-12.075
胡語	-12.0751
諸師云	-12.0751
法界理趣	-12.0751
空拳	-12.0752
為王說法	-12.0752
毀譽	-12.0752
膽	-12.0752
亦為眾生說如	-12.0753
辯積	-12.0754
又復何緣菩薩	-12.0754
乃至不與一切	-12.0756
出家修道	-12.0756
通達無礙	-12.0758
無有少法而可	-12.0759
所不應作	-12.076
散提	-12.0761
菩提薩埵	-12.0763
七萬二千	-12.0763
▁「『	-12.0764
而得增長	-12.0764
神通智力	-12.0764
於一念中	-12.0765
䨱	-12.0766
聞所未聞	-12.0766
勝鬘得書	-12.0767
第一義乘	-12.0767
發三願	-12.0767
服法衣	-12.0767
住舍衛	-12.0768
得沙門果	-12.0768
復有無量百千	-12.0768
猶存	-12.0772
畢定	-12.0773
宿昔	-12.0774
香美	-12.0775
證得無上菩提	-12.0776
行於布施	-12.0777
外別有	-12.0777
放光照	-12.0777
斷愛欲	-12.0777
栴提	-12.0778
發願往生	-12.0778
從初乃至	-12.0779
三十二種	-12.0779
銀葉	-12.0779
入正定聚	-12.078
光聚王菩薩	-12.0781
住於斯道	-12.0781
備足	-12.0782
焰花	-12.0782
空不空	-12.0782
故有自然	-12.0784
與心相應	-12.0784
非無因緣	-12.0784
不應爾	-12.0785
是故下結	-12.0786
同聞眾	-12.0787
速悟	-12.0787
經卷	-12.0787
乘馬	-12.0788
無為善巧	-12.079
聞是經典	-12.0793
而為眷屬	-12.0794
大藥復白	-12.0794
往佛所	-12.0794
劫波	-12.0795
異熟	-12.0795
四住煩惱	-12.0796
連持	-12.0796
口宣	-12.0796
為此因緣	-12.0797
於是法中	-12.0799
金葉	-12.0799
殃罪	-12.0801
入王舍城	-12.0801
此經法門	-12.0801
億載	-12.0804
高山	-12.0807
著糞掃衣	-12.0808
欲令一切眾生	-12.0808
作如是願	-12.0808
梵釋	-12.0809
未來真如	-12.081
成熟善根	-12.0811
河水	-12.0813
無少法而可	-12.0814
演法施	-12.0815
殊別	-12.0818
如我所說	-12.082
踊在虛空	-12.0821
制戒	-12.0822
不生恐怖	-12.0823
不能信受	-12.0823
忍波羅蜜	-12.0825
達法性	-12.0828
唯佛能知	-12.0829
生住滅	-12.083
善能安住	-12.0835
為眾說	-12.0838
生敬信	-12.0841
光臺	-12.0843
更無異	-12.0843
印定	-12.0844
寶莊嚴城	-12.0846
大船	-12.0853
新學	-12.0858
人皆發無上正真道意	-12.0865
以淨信心捨	-12.0865
生死之苦	-12.0868
名不了義	-12.0868
自陳	-12.0868
聞佛聲	-12.087
三千大千世界六反震動	-12.087
珍奇	-12.0878
力強	-12.0882
旨趣	-12.0887
雷音如來	-12.0887
界即法界	-12.089
得正法智	-12.0891
意惡行	-12.09
必不可言	-12.0912
修淨業	-12.0919
十踰繕那	-12.0919
告諸比丘	-12.0922
其光普照	-12.0934
後末世時	-12.0949
無著無礙	-12.095
善根福德	-12.0955
卷第七	-12.0955
正遍覺所	-12.0957
了達諸法	-12.0976
禪悅	-12.0979
上三品	-12.0986
恣汝	-12.0986
奉事供養	-12.0989
如上釋	-12.099
叉手白佛	-12.0992
上下諸無央數	-12.0999
赴機	-12.1017
說法教化	-12.102
宜速	-12.1038
寶柱	-12.1041
能為智德資糧	-12.1048
由阿字	-12.1054
我當為汝	-12.1057
葉花果	-12.1069
或有眾生色聲	-12.1075
寶蓮	-12.1085
諸愚夫異生	-12.1088
少分功德	-12.1092
廣博仙	-12.1096
魔網	-12.1119
支分	-12.1124
忘失正法	-12.113
七萬	-12.1132
死屍	-12.1154
求財利	-12.1155
珍財	-12.1161
入大海	-12.1166
能降伏	-12.1173
網彌覆其上	-12.1181
七珍	-12.1184
一切萬物	-12.1194
違犯	-12.1201
如上所	-12.1203
摩訶迦	-12.1205
殺母	-12.1213
香熏	-12.1219
作如是業	-12.1219
得深法忍	-12.1222
人妄分別	-12.1223
修清淨行	-12.123
善男子善女人受持	-12.1239
其義趣	-12.1243
菩提不難	-12.1262
四大種	-12.1263
地持論	-12.1273
集聚	-12.1282
手捉	-12.1284
阿耨多羅三藐三菩提記	-12.1284
色聲香味	-12.131
帝釋梵王	-12.1315
起斷見	-12.1316
所乏	-12.1323
地論云	-12.1331
鷲峯山	-12.1338
王阿闍世	-12.1343
讀誦受持	-12.1346
比類	-12.1362
九惱	-12.1364
正真正覺	-12.1368
所犯戒	-12.1371
二十四願	-12.1384
梵眾天	-12.1393
即有其十	-12.1394
欲生彼國	-12.1396
唯有一佛	-12.1404
二俱不	-12.1417
安詳而	-12.142
諸無央數天	-12.142
聽聞受持	-12.1428
利劍	-12.143
說是頌	-12.1448
復何名	-12.1458
九億	-12.1464
能隨入	-12.1465
愛恚	-12.1488
願生淨土	-12.1493
受佛教	-12.1502
陰蓋	-12.1508
起思念	-12.1512
無含藏	-12.1515
當成佛道	-12.1516
煩惱怨	-12.1518
豪富自在	-12.1518
求無上大菩提	-12.1532
曹	-12.1546
怨害	-12.1558
見已歡喜	-12.1579
有如是等無量	-12.1597
知我心	-12.1602
密護	-12.161
陀那	-12.1621
足迹	-12.1636
拯	-12.1645
被精進甲	-12.1664
為前導	-12.1674
言世尊我從今日至	-12.1677
分別不分別	-12.1678
見中起險惡見	-12.1683
焉可思議	-12.1684
無邊稱王	-12.1684
雹	-12.1684
以彼法界非	-12.1684
詔	-12.1688
尊者馬勝	-12.1689
宴	-12.169
駃	-12.1694
人受持彼佛名	-12.1695
八十隨形好	-12.1696
志欲無減	-12.1698
心得自在到於彼岸	-12.1698
覩史多天	-12.1698
隨汝意	-12.1699
善德天子	-12.1699
是能捨主	-12.1699
十億菩薩皆當往生	-12.1699
迦毘羅	-12.1699
汝等今者欲	-12.17
策勵	-12.17
值遇諸佛	-12.1701
大明章句	-12.1701
隨順法忍	-12.1701
當于爾時	-12.1702
猶如鵝王	-12.1702
復如恒水邊流沙	-12.1702
洟	-12.1702
復聞如來與	-12.1702
蘊法善巧	-12.1703
生死後際	-12.1703
慚恥	-12.1703
尼彌大王	-12.1704
現住說法	-12.1704
簡集	-12.1704
打罵	-12.1705
遑	-12.1705
非內非外亦非中間	-12.1705
狂醉	-12.1705
福多於彼	-12.1705
軌範	-12.1705
乃淨信出家	-12.1706
以不堅身	-12.1706
漂沒	-12.1706
踏	-12.1706
善說法要	-12.1706
耶輸陀羅	-12.1706
九億六千萬	-12.1706
可得長壽度世上天泥洹之道	-12.1707
乃至發希奇想	-12.1707
矟	-12.1707
斧	-12.1707
觀世自在菩薩	-12.1707
幽冥之處	-12.1707
即聞所說此眼	-12.1708
成義意如來	-12.1708
故有此章來	-12.1709
了了分明	-12.1709
典攬	-12.1709
初花開	-12.1709
菩薩摩訶薩行柁那波羅蜜多時	-12.1709
爾時善住意天子復	-12.1709
富伽羅	-12.1709
湊	-12.1709
營眾務	-12.1709
無疑慮	-12.1709
縣官	-12.171
眾生暫見如來身已	-12.171
陸	-12.171
摩耶夫人	-12.171
撾打	-12.171
佛地所斷	-12.171
往化淨飯王	-12.171
爾時會中復有阿修羅王	-12.171
若坐若臥	-12.171
一一供養與	-12.171
不堅實身	-12.1711
百千萬分不及一	-12.1711
虔	-12.1711
駝驢	-12.1711
迦陵	-12.1711
波盧沙	-12.1711
入法朋中	-12.1712
戲弄	-12.1712
若天若人	-12.1712
一心制意	-12.1712
作諸損害事	-12.1712
阿修羅王等無有異	-12.1712
西晉三藏竺法護譯	-12.1712
裸形	-12.1712
深生信解	-12.1712
繒蓋	-12.1712
尊者大目揵連	-12.1712
亮	-12.1712
不值佛世	-12.1712
不起犯心	-12.1713
舍衛城乞食	-12.1713
出入息	-12.1713
日藏菩薩	-12.1713
蟻	-12.1713
心業清淨	-12.1713
如彼夢覺	-12.1713
栴檀香光明如來	-12.1713
都一焰聚	-12.1714
汝今當觀	-12.1714
二不二義	-12.1714
璫	-12.1714
如是大福	-12.1714
曼殊沙花	-12.1714
酸	-12.1714
奏妙音樂	-12.1714
令法久住	-12.1715
心不疲倦	-12.1715
轉于法輪	-12.1715
四部眾	-12.1715
說此語時	-12.1715
十萬億剎	-12.1715
阿羅漢辟支佛大力菩薩	-12.1715
辨定其位	-12.1715
裝鉸	-12.1715
焰肩佛	-12.1715
摩訶曼殊沙花	-12.1715
四智漸至	-12.1715
劬	-12.1715
涎	-12.1715
合十指掌	-12.1715
東西南北四維上下	-12.1715
▁310(2	-12.1715
假使菩薩逮	-12.1715
此事為難	-12.1715
非色非非色	-12.1716
出家菩薩住阿練兒處	-12.1716
隨所樂入	-12.1716
是見二地	-12.1716
不離煩惱藏	-12.1716
謂解脫味	-12.1716
破壞離散	-12.1716
攻	-12.1716
依何而住	-12.1716
不相違背	-12.1716
定散二善	-12.1717
復語文殊師利	-12.1717
婬泆	-12.1717
雜廁	-12.1717
皺	-12.1717
壞一切煩惱藏	-12.1717
諦法善巧	-12.1717
殑伽	-12.1717
隨智慧行	-12.1717
侵奪	-12.1717
眉間毫相	-12.1717
拄	-12.1717
男女妻妾	-12.1717
後世末世五十年時於閻浮提廣行流布	-12.1717
魅	-12.1717
其胎裏	-12.1717
浮泡	-12.1717
延促	-12.1718
無作無受	-12.1718
無邊無際與虛空等	-12.1718
世自在王如來	-12.1718
至行者前	-12.1718
善惡之道	-12.1718
攝受正法攝受正法者	-12.1718
雨眾色雨	-12.1718
者能施所愛	-12.1718
以三昧力	-12.1718
迴顧	-12.1718
阿羅漢及辟支佛	-12.1718
就文亦	-12.1718
悚	-12.1718
我觀世間一切眾生	-12.1718
百千分不及一	-12.1718
發希有心	-12.1719
栽	-12.1719
滅不增長	-12.1719
馭	-12.1719
不謗大乘	-12.1719
迮	-12.1719
肺	-12.1719
鴻	-12.1719
搏	-12.1719
俱會一處	-12.1719
攝受正法廣大之義	-12.1719
金毘羅	-12.1719
娶	-12.1719
言得涅槃者	-12.1719
衣裓	-12.172
堪受如斯	-12.172
如世尊說六處	-12.172
燿	-12.172
漂流	-12.172
淳熟	-12.172
此菩薩是二地	-12.172
熾然不滅	-12.172
洞然	-12.172
沙彌戒	-12.172
良田	-12.172
窈冥	-12.172
信願持名	-12.172
諂偽	-12.1721
受勝妙樂	-12.1721
咸皆歡喜	-12.1721
快得善利	-12.1721
造諸惡業	-12.1721
十業道	-12.1721
浩浩	-12.1721
奏天樂	-12.1721
離垢藏菩薩	-12.1721
國中有情	-12.1721
佛語文殊	-12.1721
爆	-12.1722
案內觀歷	-12.1722
或有天人樂	-12.1722
嗅香	-12.1722
阿蘇羅	-12.1722
擣	-12.1722
捨身他世	-12.1722
入菩薩位	-12.1722
我及我所	-12.1722
白衣舍	-12.1722
此菩薩是四地	-12.1722
被法服	-12.1722
不自貢高	-12.1722
端直	-12.1722
憂懼	-12.1722
發意之頃	-12.1722
三明往生	-12.1723
依明信	-12.1723
是諸眾鳥	-12.1723
旬	-12.1723
竹園	-12.1723
釁	-12.1723
諱	-12.1723
汝謂爾時	-12.1723
不由於他	-12.1723
諸受根	-12.1723
傘蓋	-12.1724
退菩提心聲聞	-12.1724
當知魔業	-12.1724
與四兵眾	-12.1724
司	-12.1724
高聲唱言	-12.1724
長老摩訶迦葉	-12.1724
是名此處成就第	-12.1724
善住意天子問文殊師利	-12.1724
皆是阿鞞跋致	-12.1724
此菩薩是七地	-12.1724
一乘大方便	-12.1725
靡所不	-12.1725
閡	-12.1725
如幻如化	-12.1725
難信之法	-12.1725
不唐捐	-12.1725
後成佛時號曰	-12.1725
挑	-12.1725
釋迦毘楞伽	-12.1725
明人法相即	-12.1725
佛剎之善快	-12.1725
遍淨諸天	-12.1726
䗍	-12.1726
其佛壽命	-12.1726
怱務	-12.1726
逮得法忍	-12.1726
恒河沙數世界	-12.1726
無以為喻	-12.1726
身毛皆竪	-12.1726
純熟	-12.1726
種種界智力	-12.1726
婚	-12.1726
不二二義	-12.1726
廣闊	-12.1726
夙	-12.1726
陞	-12.1726
此類眾生	-12.1726
見聞覺知	-12.1726
橋梁	-12.1726
自行化他	-12.1727
注雨	-12.1727
貫穿	-12.1727
故下文云	-12.1727
哲	-12.1727
枯盡	-12.1727
以不知見	-12.1727
從正法生	-12.1727
還復如故	-12.1728
波浪	-12.1728
從法化生	-12.1728
迦旃延	-12.1728
端正殊妙	-12.1728
親附	-12.1729
如幻如夢	-12.1729
皆得不退轉於阿耨多羅三藐三菩提	-12.1729
天人充滿	-12.1729
無明有愛	-12.1729
億百千姟	-12.1729
丘聚	-12.1729
資產	-12.1729
吟	-12.1729
二十五由旬	-12.173
一切法海印三昧	-12.173
為正法依	-12.173
生彼佛國	-12.173
於一切法而得自在	-12.173
知一切爾炎	-12.173
鬚	-12.1731
姊	-12.1731
▁310(1	-12.1731
金翅鳥王	-12.1731
其義亦如是	-12.1731
團	-12.1731
巨海	-12.1731
吉凶	-12.1731
簡機	-12.1731
和顏	-12.1732
陰入界	-12.1732
佛復語舍利弗	-12.1732
摸	-12.1732
握	-12.1732
賓	-12.1732
脩多羅	-12.1732
依持建立	-12.1732
群生類	-12.1732
窮底	-12.1732
洗濯	-12.1733
垢雜染	-12.1733
識棄此身	-12.1733
仰推如來	-12.1733
澍	-12.1734
仁王經云	-12.1734
揩	-12.1734
不由他	-12.1734
儲	-12.1734
旁	-12.1734
攢	-12.1735
分別秉作	-12.1735
是為菩薩等觀遊於	-12.1735
衰損	-12.1735
眼性之	-12.1735
卓	-12.1736
激	-12.1736
矇	-12.1736
羞	-12.1736
給孤	-12.1736
舒舌	-12.1736
汎舉	-12.1736
禱	-12.1736
皆依無明住地	-12.1736
即大乘學	-12.1737
蠶	-12.1737
復於彼時	-12.1737
所出音聲	-12.1737
函	-12.1737
頓漸	-12.1737
捕魚	-12.1737
探	-12.1737
譬如大火焚燒人身	-12.1737
祇園	-12.1737
稱讚淨土經	-12.1737
一日七日	-12.1737
欲有所問	-12.1738
身業三種	-12.1738
舍摩	-12.1738
假使如上	-12.1738
自然之物	-12.1738
離諸障礙	-12.1738
微密	-12.1739
坐師子座	-12.1739
能觀所觀	-12.1739
精氣	-12.1739
為通達法	-12.1739
誠如所	-12.1739
本所不得	-12.1739
十種不善業道	-12.174
離間語	-12.174
頭髮	-12.174
瓊	-12.174
從佛告阿難下	-12.174
甚難值	-12.174
金錢	-12.174
暮	-12.1741
𤘽	-12.1741
觀自在菩薩	-12.1741
蓐	-12.1741
有無作法	-12.1742
速朽	-12.1742
布施波羅蜜多	-12.1742
如是我聞之言	-12.1742
六十由旬	-12.1742
薄拘羅	-12.1742
上第一輩	-12.1742
貶	-12.1743
愛憎	-12.1743
盡護戒	-12.1744
今此眾會	-12.1744
倍加	-12.1744
生王家	-12.1745
處處皆有	-12.1745
最勝大丈夫	-12.1745
隱密	-12.1746
宮室	-12.1746
服飾	-12.1746
非虗妄	-12.1746
願成佛時	-12.1747
即以此法	-12.1747
拭	-12.1748
八地已上	-12.1748
故以為名	-12.1749
第五段	-12.1749
所行之道	-12.1749
娜	-12.175
行方便菩薩	-12.175
乃謂為	-12.175
故說此言	-12.1751
運動	-12.1752
讚美	-12.1752
非我境界	-12.1752
教他作	-12.1752
一心合掌	-12.1753
銀莖	-12.1753
危難	-12.1753
他化自在天王	-12.1754
身見等一切煩惱	-12.1754
不可計數	-12.1754
是我之女	-12.1755
諸群品	-12.1756
了本際	-12.1756
一錢	-12.1756
法是聖出離道	-12.1756
師資	-12.1757
汝等各欲求解脫	-12.1758
汝今應當	-12.1759
不能生信	-12.1759
一苦滅諦	-12.1759
託境	-12.176
土石	-12.176
癡網	-12.1761
發大願	-12.1762
以此義故	-12.1762
自然出現	-12.1762
清淨潔白	-12.1763
其事云何	-12.1763
無所悕望	-12.1764
方亦有現在	-12.1765
四王天	-12.1765
權歸	-12.1766
四域	-12.1766
沙門梵志	-12.1766
白珠	-12.1767
邪徑	-12.1767
增強	-12.1768
瞋毒	-12.1769
今此大眾	-12.177
五跋陀羅	-12.1771
足步	-12.1771
次釋第一	-12.1771
少許	-12.1772
世出世間	-12.1774
無作四諦	-12.1774
智者何不	-12.1775
外國語	-12.1775
供養十方諸佛	-12.1776
末底	-12.1776
於異時	-12.1776
差特	-12.1776
受地獄苦	-12.1776
之所纏縛	-12.1776
彰巳	-12.1778
遲疾	-12.178
樂求涅槃	-12.1781
大目犍連	-12.1781
虛幻	-12.1781
周滿	-12.1781
入於地獄	-12.1783
念佛法僧	-12.1786
顧惜	-12.1787
饒益諸眾生	-12.1788
金莖	-12.1788
放勝光明	-12.179
要瑞	-12.1791
一切諸天人故	-12.1792
實報土	-12.1792
得大自在	-12.1792
莽	-12.1793
住正定聚	-12.1795
有二骨	-12.1795
拯濟	-12.1797
燒煮	-12.1799
擊鼓	-12.18
無縛無解	-12.1802
不了義說	-12.1804
不思議空智	-12.1804
親近惡友	-12.1805
垢膩	-12.1805
有菩薩名曰	-12.1806
衰老	-12.1808
自然在前	-12.1809
展	-12.1809
迦葉問大	-12.1812
作者亦無受者	-12.1813
阿彌陀佛及諸菩薩	-12.1815
以偈頌曰	-12.1818
厭背	-12.1821
出生五乘	-12.1822
驚疑	-12.183
無德不	-12.1832
時地天王	-12.1834
成無上覺	-12.1834
觀佛三昧經	-12.1837
今得值	-12.1841
兩段	-12.1844
地菩薩圓滿	-12.185
麁惡語	-12.1858
澄清	-12.1858
令得安樂	-12.186
罪垢	-12.186
受極苦	-12.1864
蓮花座	-12.1869
勸令修	-12.187
名句無	-12.1871
憂怖	-12.1884
滅聖諦	-12.1892
受五欲樂	-12.1892
歌頌	-12.1892
名無含藏	-12.1894
摧邪	-12.1905
若見眾生樂	-12.1906
無上正道	-12.1912
瞋惱	-12.1913
具大神通	-12.1928
禮如來足	-12.1932
倚著	-12.1951
食麥	-12.1952
苦切	-12.196
修淨行	-12.1974
人臨命終時	-12.1984
佛告寂意	-12.1998
辯聚菩薩	-12.2009
業所感	-12.2023
文可解	-12.2033
義饒益聚	-12.2049
生愛心	-12.2058
二種聖諦	-12.2061
今得供養	-12.2091
未成佛	-12.2092
有一菩薩名	-12.2119
若有人來	-12.2121
鏡像	-12.2133
魔業業障	-12.2136
中之一	-12.216
是名如來第十	-12.2165
諸菩薩摩訶薩畢竟成就	-12.2167
此是如來第十	-12.2168
諸險難	-12.2214
告舍利弗	-12.2229
持用供養	-12.2237
想故有退轉	-12.2244
正法住世滿	-12.2263
坐菩提樹	-12.228
於法理趣	-12.2296
寶帳	-12.2312
廣果諸天	-12.2321
思慮	-12.2322
成就幾法	-12.2373
九十六億	-12.2401
權巧	-12.2405
植善根	-12.2406
無少法可	-12.2419
蔽日月光	-12.2448
剎那頃	-12.2491
膳	-12.2515
憋魔	-12.2555
諸法自性本	-12.2562
依猗	-12.2563
摧壞	-12.2571
詣菩薩所	-12.2575
能超越	-12.2591
營事比丘應	-12.2593
爾時世尊復告	-12.2633
說是偈	-12.2697
真珠網	-12.2705
爾時世尊以偈頌	-12.2707
光所照	-12.2712
安養國	-12.2734
夢中畢竟無	-12.2745
濟群生	-12.2755
或復證入	-12.2759
讀誦通利	-12.2775
淨無垢寶月王光菩薩摩訶薩	-12.2782
肢	-12.2785
我能堪忍令諸眾生	-12.2786
或有眾生觸貪非	-12.2789
勇力菩薩	-12.2791
端正姝好	-12.2793
從座起	-12.2797
亦不在外	-12.28
或有天人見	-12.2801
毘婆沙	-12.2804
從一佛剎至一佛剎	-12.2805
乃至盡形	-12.2805
此說影像中法	-12.2806
爾時文殊師利復語善住意	-12.2806
云何菩薩摩訶薩於如來不思議	-12.2807
於菩薩藏微妙法門	-12.2807
調御天人師	-12.2807
身皆金色	-12.2807
瓠	-12.2808
預流果	-12.2808
華皆復在虛空中下向	-12.2808
若自若他	-12.2808
令願不退	-12.2808
不惜軀命	-12.2809
騎	-12.281
分檀布施	-12.281
為諸眾生廣大宣說	-12.281
或有天女執	-12.281
卿傳法大師臣施護奉詔譯	-12.2811
灰燼	-12.2811
邁	-12.2812
擊法鼓	-12.2812
出興于世	-12.2812
爾時商主天子白	-12.2812
九十六俱胝	-12.2812
鉾	-12.2813
菩薩成就八種法	-12.2813
心而犯於戒	-12.2813
躄	-12.2813
導師出現利世間	-12.2813
宿住隨念	-12.2814
擁	-12.2814
又復何緣	-12.2814
見此事已	-12.2814
說是伽陀	-12.2814
無言無說	-12.2814
孩	-12.2814
正等覺以無上智力	-12.2815
隷	-12.2815
爾時世尊欲明了此義而說偈言	-12.2815
若知一切苦	-12.2815
者信受如來不思議	-12.2816
智為先導	-12.2816
館	-12.2816
初標二釋三	-12.2817
靜室	-12.2817
垂聽許	-12.2817
頑鈍	-12.2817
生彼得益	-12.2817
淳淑	-12.2817
魔業增盛	-12.2817
付囑於汝	-12.2817
者悉得調伏	-12.2817
具諸戒行	-12.2817
筋脈	-12.2817
瓦器	-12.2817
膏	-12.2818
求餘藥	-12.2818
二因二緣	-12.2819
散於佛上	-12.2819
被弘誓鎧	-12.2819
四智及涅槃	-12.2819
阿修羅王所設供養	-12.2819
薩芸若	-12.2819
乃至世生	-12.2819
廣分別已	-12.2819
荷佛恩	-12.2819
費	-12.2819
繞佛七匝	-12.2819
舐	-12.282
妙喜世界	-12.282
候	-12.282
挍露	-12.282
如別章	-12.282
將護彼意而成熟之	-12.282
胞	-12.2821
六入緣觸	-12.2821
攝持於心平等安住	-12.2821
為世法母	-12.2821
㵎	-12.2821
積至于膝	-12.2821
發光天子	-12.2821
涅槃而般涅槃	-12.2821
是人所夢是真	-12.2821
瀑流	-12.2821
遍布其地	-12.2821
攝受正法即是波羅蜜	-12.2821
言是處者	-12.2821
如似夢覺	-12.2821
若減一劫	-12.2821
四生後益	-12.2821
愚戇凡夫	-12.2821
從何所信	-12.2821
閉目開目	-12.2821
令持五善	-12.2822
極自軟好	-12.2822
一味等味	-12.2822
是性無	-12.2822
如是難知難解	-12.2822
去來進止	-12.2822
懅	-12.2822
此想成時	-12.2823
世尊悉記	-12.2823
菩薩摩訶薩為阿耨多羅三藐三菩提故	-12.2823
諸法本性自性	-12.2823
恪	-12.2823
普遍照曜	-12.2823
四百四病	-12.2823
地獄餓鬼畜生	-12.2823
祠祀	-12.2823
尫	-12.2823
顏貌端正	-12.2823
少光天	-12.2823
去地七	-12.2823
醯	-12.2823
如來不思議品第四之	-12.2824
癬	-12.2824
說是法已	-12.2824
名色緣六入	-12.2824
如向所說	-12.2824
如實善了知	-12.2824
俯	-12.2824
涯底	-12.2824
見此事時	-12.2825
林野	-12.2825
見一處住地	-12.2825
汝今宜應	-12.2825
竪立	-12.2825
闊	-12.2825
饑渴	-12.2825
爐	-12.2825
念佛眾生攝取不捨	-12.2825
堪能荷負四種重任	-12.2826
祀	-12.2826
六百四十里	-12.2826
奏音樂	-12.2826
如毛端	-12.2826
真為大願	-12.2826
肝	-12.2826
若麁若細	-12.2826
汝是凡夫	-12.2826
沈水香	-12.2826
以淨天眼	-12.2826
五百賈人	-12.2826
不受後有智有二種	-12.2827
乃如是乎	-12.2827
廣一由旬	-12.2827
舍摩嚩底夫人	-12.2827
範	-12.2827
過七日已	-12.2827
熾火	-12.2827
觀世音大勢至	-12.2827
當起想念	-12.2828
窓牖	-12.2828
終來生人間	-12.2828
煩惱不觸心	-12.2828
間飾	-12.2828
蓮華中化生	-12.2828
居家修道者	-12.2828
滋潤	-12.2828
酌	-12.2828
霜	-12.2828
心所欲願	-12.2828
難得解脫痛不可言	-12.2828
稽	-12.2828
勇猛正勤	-12.2828
歌詠讚歎	-12.2828
相莊嚴星宿積王	-12.2828
不適意苦	-12.2829
此說名為神通	-12.2829
不虛作住持	-12.2829
驚恐	-12.2829
於覺分法	-12.2829
迦蘭陀	-12.2829
編	-12.2829
心不散亂	-12.2829
普興大雲	-12.2829
若男若女	-12.2829
廣宣流布	-12.2829
蘇牟	-12.2829
二千一百	-12.2829
不可計數阿僧祇耶不可思議無量無邊	-12.283
辨才	-12.283
四緣漸至	-12.283
皆入一大願中	-12.283
起隨喜心	-12.283
善男子及善女人	-12.283
把	-12.283
有世界名曰極樂	-12.283
離一切煩惱藏	-12.283
過去已滅	-12.283
詣世尊所	-12.283
人能自於其中	-12.283
就此章中	-12.283
我當為汝分別解說	-12.283
瞑	-12.283
觀世音及得大勢	-12.2831
緒	-12.2831
諸化菩薩	-12.2831
語業四種	-12.2831
由成就是	-12.2831
鴿	-12.2831
棄國捐王	-12.2831
三十七菩提分法	-12.2831
吏	-12.2831
鹽	-12.2832
從一佛剎復	-12.2832
由是之故	-12.2832
迅	-12.2832
三摩提	-12.2832
生緣老死憂悲苦惱	-12.2832
瘖啞	-12.2832
此菩薩是八地	-12.2832
若復有菩薩化一眾生	-12.2832
鄉	-12.2832
淪	-12.2832
初聖諦智	-12.2832
無對礙	-12.2832
匠	-12.2832
郡縣	-12.2833
膊	-12.2833
曠蕩	-12.2833
為一切眾生之所瞻仰	-12.2833
疫	-12.2833
起悲愍心	-12.2833
疑云何以	-12.2833
忉利諸天	-12.2834
幢幡寶蓋	-12.2834
邠	-12.2834
▁366]	-12.2834
賢護童真	-12.2834
成證阿耨多羅三藐三菩提果	-12.2834
女語尊者	-12.2834
名句文	-12.2834
月光童子	-12.2834
呰	-12.2834
獲善利	-12.2834
吸	-12.2834
整衣服	-12.2834
有大水聚	-12.2834
以自神力	-12.2834
水陸	-12.2834
詣菩提樹	-12.2835
無我無我所	-12.2835
拒	-12.2835
以神通力化作	-12.2835
財產	-12.2835
造不善業	-12.2835
嗣	-12.2836
為求法故	-12.2836
采	-12.2836
自此已後	-12.2836
得念比丘	-12.2836
修一切道	-12.2836
其數甚多	-12.2836
智慧身自在	-12.2836
亭	-12.2836
何以知然	-12.2836
田宅	-12.2836
迅疾	-12.2836
箭所射	-12.2836
自然化風名曰	-12.2836
又復菩薩觀見世間一切眾生	-12.2836
得成男子	-12.2836
又此有情行	-12.2836
無根無住	-12.2837
像貌	-12.2837
驅逐	-12.2837
菩薩將住第	-12.2837
檢	-12.2837
偶	-12.2837
減損	-12.2837
天雨眾華	-12.2837
精進行太子	-12.2838
瞿陀尼	-12.2838
是名中道諸法	-12.2838
諭	-12.2838
酢	-12.2838
緣一覺	-12.2838
不在中間	-12.2838
於中先明	-12.2838
持諷誦讀	-12.2838
豐樂安隱	-12.2838
防衛	-12.2838
又為攝取八正道故修行	-12.2839
虎狼	-12.2839
得阿那含道	-12.2839
所作已辨	-12.2839
袪	-12.2839
體性自空	-12.2839
為子幽禁	-12.2839
盈積	-12.2839
皎	-12.2839
鞕	-12.2839
長老大迦葉	-12.2839
一劫若過一劫	-12.2839
纏繞	-12.284
怨讐	-12.284
密迹力士謂寂意	-12.284
阿難所傳	-12.284
次第乞食	-12.284
俊	-12.284
聚落城邑	-12.284
三千大千國土	-12.284
為活命故	-12.284
愁毒	-12.284
凶	-12.284
守護六根	-12.284
後魏天竺三藏菩提流支譯	-12.284
乖違	-12.2841
蓮華化生	-12.2841
如理正觀	-12.2841
得究竟法身	-12.2841
不能窮盡	-12.2841
得生人趣	-12.2841
擐	-12.2841
無癡見菩薩	-12.2842
為說法要	-12.2842
箜篌樂器不鼓自鳴	-12.2842
折伏攝受	-12.2842
亦悉知見	-12.2842
佛告慈氏	-12.2842
四大所造	-12.2842
庭	-12.2842
極樂國土成就如是功德莊嚴	-12.2842
繫閉	-12.2842
呵罵	-12.2843
諸有病者	-12.2843
古舊	-12.2843
四十億菩薩	-12.2843
久種善根	-12.2844
罔	-12.2844
我於今時	-12.2844
於他利養	-12.2844
畜糞掃衣比丘	-12.2844
經須臾間	-12.2844
匪	-12.2844
漏盡阿羅漢	-12.2844
於人天中	-12.2844
膚	-12.2844
於晝夜中	-12.2844
在意所欲	-12.2844
賓頭盧頗羅墮	-12.2844
鑽	-12.2844
世人薄俗	-12.2845
今日一體	-12.2845
不知不覺	-12.2845
勇進	-12.2845
劫賓那	-12.2845
言我聞者	-12.2845
瓜	-12.2846
念念生滅	-12.2846
眴	-12.2846
膠	-12.2846
剖	-12.2846
名無點	-12.2847
發起正勤	-12.2847
安徐	-12.2847
螫	-12.2847
現身中受	-12.2847
旅	-12.2847
羞恥	-12.2848
此亦是其	-12.2848
而得生長	-12.2848
趣於非家	-12.2848
慘	-12.2848
扣法鼓	-12.2848
願生其國	-12.2849
又千歲中	-12.2849
棄諸惡道不隨惡知識中	-12.2849
七歲已上	-12.2849
山石	-12.285
無畏德女	-12.285
信為能入	-12.285
六年苦行	-12.285
沐	-12.285
娑羅樹	-12.285
飢虛	-12.285
初觀聖諦	-12.285
知其邊際	-12.285
能生五乘	-12.285
常寂光土	-12.2851
廣大無際	-12.2851
是二歸依	-12.2852
釘	-12.2852
京	-12.2852
頗胝迦	-12.2852
降伏心過惡	-12.2852
四大王天	-12.2852
於身諸根	-12.2852
牽連	-12.2852
阿閦鞞	-12.2852
雨雹	-12.2852
扣	-12.2853
稗	-12.2853
出家為道	-12.2853
舍支	-12.2853
胸臆	-12.2853
授菩薩記	-12.2853
鉤鎖相生	-12.2853
甚難得值	-12.2854
若有菩薩能為十方一切世界一切眾生	-12.2854
與大比丘眾俱	-12.2854
江河沙劫	-12.2855
自然得之	-12.2855
鵝王	-12.2855
慣習	-12.2856
逮得總持	-12.2856
眷屬圍繞	-12.2856
無質無形	-12.2856
捕鳥	-12.2857
阿閦如來佛剎	-12.2857
他分行	-12.2857
到於佛所	-12.286
如是所說故名為	-12.286
惒	-12.2861
以廣大故	-12.2862
隨世流布	-12.2862
領悟	-12.2863
娉	-12.2864
林木	-12.2864
言世尊至	-12.2864
分科	-12.2864
及諸聖眾	-12.2865
次釋第四	-12.2865
未詳	-12.2865
何由可	-12.2865
我聞佛音聲	-12.2866
自謂究竟	-12.2867
阿踰闍	-12.2867
皆令得道	-12.2868
對除彼	-12.2868
鑄	-12.2868
所生五乘	-12.2869
作愛王	-12.2869
梵網	-12.287
佛種不斷	-12.287
如論頌	-12.2872
語亦善	-12.2872
垢污	-12.2873
如理證入	-12.2875
故問此	-12.2876
有作諦	-12.2877
較	-12.2877
十五章經	-12.2878
車渠	-12.2879
父母師長	-12.2879
水所漂	-12.2879
本無今有	-12.2881
乞記	-12.2881
子科	-12.2884
姿色清淨	-12.2885
毀傷	-12.2887
憚	-12.2887
說佛真	-12.2892
依法華論	-12.2894
星宿劫	-12.2902
勃	-12.2903
平章	-12.2904
有四段	-12.2906
爾時淨無垢妙淨寶月王光菩薩	-12.2907
虗妄	-12.2909
文殊白	-12.2913
後釋文	-12.2918
修一切善	-12.2922
現此瑞	-12.2923
虗空	-12.2935
山谷	-12.2945
眾閙	-12.2948
懷憂惱	-12.2948
有作無作	-12.2965
無所不遍	-12.2966
發菩薩心	-12.2968
火坑	-12.2968
我人眾生	-12.2975
觀欲如	-12.3007
有故而彼	-12.302
梵宮	-12.3046
文為三	-12.3066
快說此	-12.3068
紺青	-12.308
須彌頂	-12.3104
降諸魔	-12.3122
以一乘為	-12.3129
心行差別	-12.3153
菩薩摩訶薩如是觀	-12.3188
于大海	-12.3204
違佛教	-12.3283
沈水末	-12.33
生疑慮	-12.3301
花旒蘇	-12.331
五通仙	-12.3321
[...]
