<unk>	0
<s>	0
</s>	0
之	-3.94472
以	-4.65773
而	-4.75712
為	-4.82994
者	-4.85549
也	-4.91744
其	-5.01097
一	-5.11492
則	-5.25084
不	-5.26263
有	-5.2744
於	-5.4075
人	-5.46208
兵	-5.5196
/	-5.58338
(	-5.65124
大	-5.66998
軍	-5.6991
將	-5.70464
至	-5.77112
用	-5.78499
曰	-5.796
無	-5.80691
)	-5.81701
賊	-5.8547
在	-5.86172
如	-5.88542
中	-5.88764
與	-5.89756
自	-5.909
州	-5.96479
三	-5.96529
出	-5.96938
上	-5.98228
下	-5.9938
二	-5.99724
行	-6.04622
水	-6.05352
此	-6.05741
皆	-6.09076
城	-6.12385
或	-6.12861
所	-6.14385
若	-6.15227
入	-6.15865
使	-6.18471
後	-6.21162
四	-6.2474
又	-6.25031
時	-6.27991
日	-6.28598
可	-6.29234
敵	-6.29334
地	-6.29531
矣	-6.29906
及	-6.30858
即	-6.32084
戰	-6.32725
必	-6.33192
山	-6.34176
故	-6.35335
得	-6.36703
五	-6.36898
陣	-6.38464
乃	-6.38819
我	-6.398
各	-6.41817
前	-6.44046
天	-6.44338
凡	-6.45459
令	-6.45528
分	-6.46263
▁	-6.47742
亦	-6.48726
馬	-6.49242
長	-6.49602
先	-6.50231
當	-6.50488
欲	-6.50562
守	-6.50971
子	-6.53938
北	-6.57963
營	-6.60119
南	-6.60256
道	-6.60358
是	-6.60542
能	-6.60953
相	-6.61136
事	-6.62463
來	-6.63432
非	-6.6472
方	-6.65002
合	-6.65435
去	-6.6548
王	-6.65648
多	-6.66656
内	-6.67622
立	-6.6772
法	-6.69136
主	-6.69304
等	-6.69912
見	-6.71125
西	-6.72047
從	-6.72772
于	-6.73185
六	-6.73729
小	-6.75337
進	-6.75777
東	-6.76064
今	-6.76219
衆	-6.77337
攻	-6.7787
火	-6.78356
知	-6.78613
生	-6.78871
取	-6.79219
外	-6.79443
門	-6.81225
安	-6.81551
利	-6.82133
起	-6.82279
置	-6.84049
擊	-6.84234
言	-6.84441
勝	-6.8536
重	-6.85412
八	-6.85979
平	-6.8622
氣	-6.8658
發	-6.86686
名	-6.86806
處	-6.87133
死	-6.87547
船	-6.88604
路	-6.89593
國	-6.89921
過	-6.92336
髙	-6.93007
不可	-6.93332
正	-6.93721
隊	-6.94032
定	-6.95513
因	-6.95542
謂	-6.9577
每	-6.95928
車	-6.96166
口	-6.96555
未	-6.96556
風	-6.9657
數	-6.97328
兩	-6.97923
明	-6.98005
遂	-6.98706
通	-6.99449
宜	-6.99724
金	-7.00003
神	-7.0035
雖	-7.00392
成	-7.00665
夫	-7.0119
公	-7.01384
官	-7.01503
勢	-7.01888
同	-7.02012
師	-7.02268
敗	-7.02286
頭	-7.02984
不能	-7.03304
已	-7.03309
作	-7.03317
復	-7.03318
居	-7.03835
臣	-7.03934
石	-7.04351
九	-7.04853
計	-7.05072
七	-7.054
乎	-7.06114
本	-7.06344
力	-7.06479
民	-7.06748
木	-7.07183
然	-7.08369
河	-7.08953
須	-7.09395
騎	-7.09732
常	-7.10572
備	-7.10611
右	-7.11994
旗	-7.12041
白	-7.1222
武	-7.13175
次	-7.13196
命	-7.13537
亂	-7.13907
心	-7.14724
設	-7.14782
卒	-7.15293
開	-7.15838
伏	-7.1673
殺	-7.17874
十	-7.17898
間	-7.17999
)(	-7.18407
退	-7.18509
海	-7.1874
身	-7.19292
士	-7.19403
吾	-7.19737
縣	-7.20063
諸	-7.20074
張	-7.20341
砦	-7.20428
何	-7.20433
焉	-7.20758
手	-7.21309
動	-7.21464
陽	-7.22299
土	-7.22613
鎮	-7.23333
急	-7.2351
變	-7.24012
破	-7.24604
犯	-7.24607
俱	-7.25175
逺	-7.25345
漢	-7.2558
既	-7.25845
止	-7.2591
齊	-7.26125
難	-7.26506
盡	-7.27722
家	-7.2842
加	-7.28696
易	-7.2885
舉	-7.28889
江	-7.29451
失	-7.29982
星	-7.30436
便	-7.3098
近	-7.31331
謀	-7.31357
應	-7.31427
歸	-7.31819
可以	-7.32666
且	-7.32748
不得	-7.33172
唐	-7.3358
百	-7.34563
直	-7.34956
月	-7.35013
步	-7.35264
夜	-7.35434
左右	-7.35463
甲	-7.36076
左	-7.362
固	-7.36346
制	-7.36759
隨	-7.36829
耳	-7.37903
實	-7.38229
更	-7.38353
黄	-7.38454
衝	-7.38951
廣	-7.39257
功	-7.39532
要	-7.39553
治	-7.40477
文	-7.40478
陳	-7.4121
食	-7.4163
善	-7.41729
初	-7.41835
走	-7.42069
並	-7.42359
聞	-7.42376
而不	-7.43118
深	-7.44243
但	-7.44888
輕	-7.45312
彼	-7.45522
信	-7.45825
約	-7.46008
反	-7.47748
向	-7.47919
書	-7.48048
少	-7.48363
君	-7.48505
/)	-7.49268
乘	-7.50027
所以	-7.50188
吳	-7.51297
角	-7.51741
請	-7.51777
秦	-7.52074
半	-7.52246
遣	-7.53153
鼓	-7.5326
度	-7.53735
惟	-7.54986
箭	-7.55242
聲	-7.56134
威	-7.56147
高	-7.56329
牌	-7.56673
打	-7.56762
周	-7.56958
并	-7.57103
以為	-7.57164
首	-7.57475
圍	-7.57808
足	-7.58153
臨	-7.58281
布	-7.58761
伐	-7.58846
他	-7.5918
界	-7.59411
天下	-7.5946
面	-7.59649
收	-7.59728
郡	-7.59889
敵人	-7.60224
萬	-7.60921
形	-7.61423
鐵	-7.61728
都	-7.62185
圖	-7.62202
沙	-7.63143
由	-7.63234
府	-7.63251
經	-7.63301
還	-7.64012
色	-7.64109
賞	-7.64313
列	-7.6461
散	-7.64616
餘	-7.6472
青	-7.64819
服	-7.65048
邊	-7.65529
放	-7.65644
年	-7.65655
之法	-7.66166
鎗	-7.6675
晉	-7.66806
爲	-7.67326
任	-7.67339
甚	-7.67464
建	-7.67666
視	-7.68006
流	-7.6826
連	-7.6846
領	-7.6885
轉	-7.68965
險	-7.69178
飛	-7.69228
號	-7.69229
楚	-7.69775
報	-7.70289
士卒	-7.70409
梁	-7.70438
率	-7.7066
據	-7.70678
共	-7.70727
射	-7.70742
始	-7.70814
横	-7.70864
義	-7.71185
㑹	-7.7132
橋	-7.71347
教	-7.71515
别	-7.71649
致	-7.72141
屬	-7.72203
龍	-7.72347
舟	-7.72439
大將	-7.72527
亡	-7.73687
候	-7.73736
操	-7.73913
客	-7.74233
降	-7.74235
田	-7.74653
云	-7.74809
遇	-7.7493
論	-7.75068
雲	-7.75309
竒	-7.75507
離	-7.75516
堅	-7.75718
李	-7.76004
元	-7.76551
絶	-7.7669
往	-7.77013
聽	-7.77742
東至	-7.7809
引	-7.79056
草	-7.79144
交	-7.79171
坐	-7.79238
機	-7.79241
疑	-7.79604
勇	-7.79657
之地	-7.79696
解	-7.80357
節	-7.80818
原	-7.80918
親	-7.80931
新	-7.81171
强	-7.81828
到	-7.81872
港	-7.81969
砲	-7.82073
舊	-7.82079
和	-7.82201
弩	-7.82229
川	-7.82614
湖	-7.82658
獨	-7.82676
魏	-7.82676
勿	-7.82819
恐	-7.82934
屯	-7.82978
務	-7.8302
順	-7.8324
救	-7.83652
仍	-7.84248
智	-7.84565
將軍	-7.84661
傷	-7.84691
擊之	-7.8495
傳	-7.85039
之所	-7.85131
嚴	-7.8547
刀	-7.85791
就	-7.85836
辰	-7.86006
哉	-7.86021
總	-7.86176
照	-7.8633
目	-7.86761
議	-7.86913
徳	-7.87969
望	-7.88006
關	-7.88077
防	-7.88256
問	-7.88351
寇	-7.88886
背	-7.89048
古	-7.89103
弱	-7.89512
選	-7.89734
虜	-7.89815
所謂	-7.90053
一人	-7.90405
世	-7.90718
隂	-7.90796
悉	-7.90837
德	-7.90853
稱	-7.90903
求	-7.91054
中軍	-7.91695
依	-7.91823
再	-7.91993
追	-7.92087
十二	-7.92227
積	-7.92614
精	-7.92687
支	-7.93203
指	-7.93219
給	-7.93239
塘	-7.93831
興	-7.9405
宋	-7.94096
意	-7.94176
斬	-7.94239
疾	-7.94626
全	-7.94675
施	-7.94874
藥	-7.95147
習	-7.95379
厚	-7.95768
虚	-7.96055
聚	-7.96072
害	-7.96356
千	-7.96374
光	-7.96395
物	-7.96514
弓	-7.96549
受	-7.9689
惡	-7.98066
哨	-7.98169
異	-7.98222
獲	-7.9838
逆	-7.98449
留	-7.9847
果	-7.98892
莫	-7.99074
東南	-7.9976
一作	-7.99783
然後	-7.99785
懼	-8.00036
塞	-8.00165
具	-8.00284
執	-8.0047
管	-8.0051
帝	-8.0079
樂	-8.00812
猶	-8.00835
赤	-8.00955
劉	-8.01143
渡	-8.01374
權	-8.01429
持	-8.01544
壘	-8.01621
回	-8.01641
前後	-8.02528
部	-8.02536
葢	-8.02553
尚	-8.02567
雨	-8.02583
末	-8.02667
堡	-8.02729
集	-8.03333
觀	-8.03435
陵	-8.03494
移	-8.03629
闗	-8.03925
縱	-8.04017
貴	-8.04157
保	-8.04187
司	-8.0427
宿	-8.04534
被	-8.04603
造	-8.05403
築	-8.05591
空	-8.06213
吉	-8.06403
兼	-8.06603
尾	-8.06625
不知	-8.06929
三軍	-8.07023
顧	-8.07247
盛	-8.07534
志	-8.07996
朝	-8.08142
久	-8.08569
結	-8.08574
銀	-8.08701
官兵	-8.08826
專	-8.09389
来	-8.09398
速	-8.09481
衛	-8.09523
鋪	-8.09614
理	-8.09767
陷	-8.09901
告	-8.10281
附	-8.10352
濟	-8.10422
嘗	-8.10485
趙	-8.10575
虎	-8.10885
畏	-8.10967
糧	-8.11013
毎	-8.11153
接	-8.11465
益	-8.11507
奔	-8.11865
審	-8.11934
許	-8.12576
夏	-8.12944
東北	-8.12958
克	-8.13501
棄	-8.13658
西北	-8.13711
是也	-8.13941
竹	-8.14024
比	-8.14142
邑	-8.14282
逐	-8.14287
密	-8.14302
皷	-8.14486
乗	-8.14612
胡	-8.14682
太	-8.1515
驚	-8.1521
徒	-8.15764
按	-8.15918
伍	-8.16528
畢	-8.16675
戎	-8.16694
好	-8.16699
待	-8.1714
著	-8.17181
二十	-8.17229
不敢	-8.17237
條	-8.1724
罪	-8.17438
勞	-8.17551
冦	-8.17581
越	-8.17998
怒	-8.18565
期	-8.18719
調	-8.18821
説	-8.1916
陰	-8.19398
毒	-8.1945
蛇	-8.19459
而已	-8.19504
雜	-8.19518
鋭	-8.19683
慮	-8.19814
謂之	-8.19849
廢	-8.2002
却	-8.20403
禦	-8.20477
稍	-8.21022
烏	-8.21213
而後	-8.21441
鄉	-8.21489
歩	-8.21632
脚	-8.21856
燒	-8.21892
仁	-8.21937
避	-8.22021
禁	-8.22097
西南	-8.22161
襲	-8.22324
徑	-8.22566
對	-8.23627
清	-8.23917
攻城	-8.24059
刑	-8.2412
擒	-8.24255
申	-8.24328
覆	-8.2446
終	-8.24556
輪	-8.24886
擇	-8.24975
寧	-8.24991
皮	-8.25022
曲	-8.25074
宗	-8.25235
賢	-8.25454
存	-8.25457
素	-8.25469
者也	-8.25524
林	-8.25534
野	-8.25661
政	-8.25699
占	-8.25804
伏兵	-8.2594
落	-8.26475
極	-8.26561
推	-8.26643
拒	-8.26786
危	-8.26912
差	-8.26958
帥	-8.27035
谷	-8.27267
樓	-8.27658
私	-8.27767
征	-8.28034
卷	-8.28404
魚	-8.29123
容	-8.29278
浦	-8.29755
黑	-8.29878
馳	-8.29973
其所	-8.29974
掠	-8.30024
夷	-8.30073
牛	-8.30094
示	-8.30173
招	-8.30578
境	-8.30992
統	-8.31074
似	-8.31334
寨	-8.31796
號令	-8.31804
楊	-8.31856
宻	-8.31967
除	-8.31976
斗	-8.32187
索	-8.32273
宫	-8.32502
代	-8.32698
丁	-8.3278
鬭	-8.33071
環	-8.33156
憂	-8.3335
封	-8.33532
折	-8.33558
决	-8.33604
斷	-8.33824
字	-8.33865
載	-8.33983
患	-8.34023
第一	-8.34052
送	-8.34177
之間	-8.34496
澤	-8.35071
軍中	-8.35107
討	-8.35234
㸃	-8.35308
之時	-8.35597
誅	-8.35637
矢	-8.35704
徐	-8.359
於是	-8.35959
趨	-8.3598
器	-8.36035
至於	-8.36183
詐	-8.36197
遺	-8.36378
涇	-8.36433
闊	-8.36601
改	-8.36739
蓋	-8.37033
圓	-8.372
援	-8.37535
南至	-8.37573
濶	-8.37615
登	-8.37738
恃	-8.3778
役	-8.37841
諸將	-8.38018
翼	-8.38044
語	-8.38086
爭	-8.38416
争	-8.38632
薄	-8.38785
如此	-8.3908
之兵	-8.391
某	-8.393
衣	-8.39318
畧	-8.39404
鼔	-8.3947
槍	-8.39479
無所	-8.39633
不許	-8.39706
延	-8.39722
副	-8.39731
䕶	-8.39971
帶	-8.39974
耶	-8.39984
之人	-8.40031
徃	-8.40349
表	-8.40408
會	-8.40544
主將	-8.4067
乾	-8.40827
潛	-8.40936
己	-8.41043
詔	-8.41117
泊	-8.41212
赴	-8.41999
熟	-8.42174
資	-8.42224
識	-8.42556
位	-8.42624
老	-8.42625
四面	-8.42752
迎	-8.42879
量	-8.43038
控	-8.43262
不利	-8.43402
氏	-8.43558
抵	-8.44023
進退	-8.4404
吏	-8.44251
謹	-8.44269
棍	-8.44333
壁	-8.44559
禮	-8.44584
十六	-8.44664
銳	-8.44741
修	-8.44746
兵起	-8.44833
不過	-8.44839
爾	-8.44854
板	-8.44886
之以	-8.45059
八陣	-8.45343
故曰	-8.45557
情	-8.459
良	-8.45901
符	-8.45984
竿	-8.46104
忽	-8.46161
策	-8.46342
城中	-8.4644
嵗	-8.46507
奪	-8.46714
滅	-8.4674
化	-8.47296
緩	-8.47332
學	-8.47536
震	-8.4796
叛	-8.47966
暴	-8.48041
臺	-8.48483
貫	-8.48651
督	-8.48735
是謂	-8.48784
黒	-8.48988
二百	-8.49117
整	-8.49122
豈	-8.49269
蜀	-8.49286
况	-8.4938
困	-8.49391
三百	-8.4943
窮	-8.49465
五十	-8.49471
城上	-8.49573
短	-8.49729
灰	-8.49878
井	-8.49908
誠	-8.50002
該	-8.50189
息	-8.50586
負	-8.50696
類	-8.50736
體	-8.50822
兵船	-8.50932
察	-8.50933
巳	-8.51
也故	-8.51002
里	-8.51565
将	-8.51586
阻	-8.51646
侯	-8.51671
三十里	-8.51729
思	-8.51895
油	-8.51995
陸	-8.52351
泥	-8.52646
練	-8.53093
探	-8.53124
喜	-8.53333
以上	-8.53551
羣	-8.53657
參	-8.53722
藏	-8.5386
之士	-8.53923
雙	-8.54033
血	-8.54043
於此	-8.54205
免	-8.54209
北至	-8.5451
舍	-8.54673
召	-8.54715
細	-8.54802
費	-8.55107
之道	-8.55336
鋒	-8.55368
偽	-8.55392
工	-8.5541
花	-8.55748
旁	-8.55786
三十	-8.55984
性	-8.56094
侵	-8.56113
算	-8.56381
是以	-8.56405
巡	-8.56707
官軍	-8.56741
鳴	-8.56781
財	-8.56783
雄	-8.56956
不及	-8.56967
委	-8.57041
上下	-8.57042
之勢	-8.57121
敢	-8.57199
溪	-8.57241
最	-8.57403
逼	-8.575
羅	-8.57539
蔽	-8.57567
用之	-8.57616
例	-8.5762
寅	-8.58189
景	-8.58194
經曰	-8.58224
銃	-8.58229
枝	-8.58349
募	-8.58525
錢	-8.58789
看	-8.59
太宗	-8.59089
愛	-8.59196
嶺	-8.59474
市	-8.59662
諸侯	-8.59682
記	-8.59701
繩	-8.59748
責	-8.59748
寡	-8.59786
洞	-8.60032
象	-8.60268
永	-8.6028
彊	-8.60385
闕	-8.60408
奏	-8.60454
孤	-8.60547
一百	-8.60733
曹	-8.60995
鑿	-8.61197
的	-8.61257
燕	-8.61336
住	-8.61472
拔	-8.61574
座	-8.61579
用兵	-8.61621
忠	-8.61731
契丹	-8.6174
戒	-8.61848
岀	-8.6197
呼	-8.62064
恩	-8.62263
微	-8.62516
潮	-8.62629
南北	-8.62712
編	-8.62719
鹽	-8.62815
者皆	-8.62953
程	-8.63301
攻之	-8.63315
料	-8.63411
把總	-8.63527
註曰	-8.6374
授	-8.63818
干	-8.63873
撫	-8.64015
一日	-8.64058
墪	-8.64117
達	-8.64137
咸	-8.6415
歴	-8.64151
助	-8.6447
三日	-8.64537
詳	-8.64856
酒	-8.64934
千里	-8.65039
大敗	-8.65418
職	-8.65599
虛	-8.656
病	-8.65699
之類	-8.65766
只	-8.659
盖	-8.65959
遁	-8.66062
掩	-8.66097
福	-8.66099
其地	-8.66105
隘	-8.66197
刻	-8.66236
愚	-8.66407
願	-8.66525
格	-8.66597
太白	-8.66647
盜	-8.66897
池	-8.67093
城下	-8.67124
倉	-8.67152
守城	-8.67213
刃	-8.67235
乆	-8.67237
革	-8.67237
突	-8.67243
養	-8.67253
之處	-8.67411
均	-8.67475
奇	-8.67643
查	-8.67825
揚	-8.67863
西至	-8.67947
聴	-8.68071
預	-8.68594
項	-8.68703
真	-8.68751
守禦	-8.68914
無不	-8.68969
把	-8.69338
呉	-8.69345
崑山	-8.69448
強	-8.6958
奉	-8.69633
二人	-8.69985
諸軍	-8.69997
萬人	-8.70125
忌	-8.70176
辨	-8.70394
考	-8.70436
繫	-8.70442
說	-8.70448
䧟	-8.70452
驗	-8.70501
隋	-8.70589
第二	-8.70699
人馬	-8.70904
四十	-8.7105
足以	-8.71194
端	-8.71205
富	-8.71208
䇿	-8.71221
垜	-8.71223
特	-8.71227
簡	-8.71249
牧	-8.71281
而無	-8.71391
洋	-8.71412
潰	-8.71572
者斬	-8.71623
運	-8.71937
怯	-8.72025
春	-8.72036
適	-8.72058
聖	-8.72087
器械	-8.72213
東西	-8.72309
而來	-8.72624
太湖	-8.72643
幾	-8.72687
駐	-8.72728
巧	-8.72862
㧞	-8.72867
禍	-8.72872
誘	-8.72877
種	-8.72922
隠	-8.7301
必有	-8.73174
一面	-8.73228
投	-8.7331
羽	-8.73685
升	-8.73707
尤	-8.73725
大小	-8.73728
舎	-8.73746
牙	-8.73826
驅	-8.73988
州界	-8.74116
弓弩	-8.74293
規	-8.74517
秋	-8.74519
額	-8.74595
囚	-8.74597
垂	-8.74601
抽	-8.74629
深入	-8.74633
尅	-8.74641
鬬	-8.74672
術	-8.74757
充	-8.74779
壯	-8.75007
者有	-8.7519
鳥	-8.75231
臨陣	-8.75312
遠	-8.75342
第三	-8.75352
猛	-8.75392
遲	-8.75394
紙	-8.75408
損	-8.75428
米	-8.7543
決	-8.75556
警	-8.75789
團	-8.75893
天地	-8.75952
人之	-8.76013
漸	-8.76294
暗	-8.76314
不可以	-8.76361
迫	-8.76605
校	-8.76703
軍士	-8.76942
指揮	-8.76952
七十里	-8.7702
遷	-8.7712
華	-8.77128
朱	-8.77132
我兵	-8.77139
宼	-8.77167
靈	-8.77403
而進	-8.77423
奮	-8.77452
岸	-8.77498
夾	-8.77589
之後	-8.77889
昌	-8.77903
鈎	-8.77953
罰	-8.77984
飲	-8.78039
輜重	-8.78044
地方	-8.7818
滿	-8.7852
捕	-8.78528
出入	-8.78598
假	-8.78714
源	-8.78776
祭	-8.78778
庶	-8.78799
御	-8.78931
柵	-8.79637
羊	-8.79643
旋	-8.79689
劍	-8.79769
一隊	-8.79784
斯	-8.79793
繼	-8.79887
根	-8.79949
孫	-8.80029
東南至	-8.80297
閉	-8.80355
本朝	-8.80437
蕃	-8.80508
浮	-8.80625
架	-8.8069
倭	-8.80726
竒兵	-8.80856
丑	-8.81171
畫	-8.81216
泉	-8.81278
單	-8.8128
寳	-8.81349
逃	-8.81564
聼	-8.8157
補	-8.81571
貪	-8.81601
㝷	-8.81602
雷	-8.81649
蘇	-8.81743
妙	-8.81781
靜	-8.82339
葉	-8.82435
裝	-8.82454
屋	-8.82456
柱	-8.82484
愈	-8.82496
商	-8.82602
員	-8.82802
而為	-8.82922
不足	-8.82974
敎	-8.83214
賜	-8.83321
低	-8.83401
苦	-8.83409
昏	-8.83409
之外	-8.83459
司馬	-8.83468
太乙	-8.83967
六十里	-8.83976
旌旗	-8.84061
盤	-8.84237
狹	-8.84284
懸	-8.84317
凶	-8.84318
毛	-8.84441
遼	-8.84474
不如	-8.84579
業	-8.84764
之用	-8.85031
倍	-8.85047
旣	-8.85188
弊	-8.85221
製	-8.85223
寶	-8.85288
眼	-8.85355
竒正	-8.85739
午	-8.85964
束	-8.85974
昔	-8.86181
撃	-8.86193
温	-8.86211
罷	-8.86223
省	-8.86302
焚	-8.86592
撥	-8.87155
骨	-8.87216
式	-8.87216
俟	-8.87468
裏	-8.87577
提	-8.87621
一時	-8.87825
敵之	-8.87843
刺	-8.88019
十五	-8.88097
奸	-8.88119
麻	-8.88149
在於	-8.88491
之事	-8.88589
切	-8.88623
六十	-8.88644
鄭	-8.89055
紀	-8.89064
試	-8.89072
厯	-8.89076
房	-8.89079
辭	-8.89083
注	-8.89117
亥	-8.89139
十萬	-8.89231
之中	-8.8939
戍	-8.89837
才	-8.89987
肅	-8.9
蘇州	-8.90052
倒	-8.90053
𫝊	-8.90074
汝	-8.90101
五十里	-8.90131
肉	-8.90135
五里	-8.9032
將士	-8.90435
吳淞江	-8.90606
音	-8.90833
第	-8.90864
有所	-8.90926
五百	-8.90954
驕	-8.91017
激	-8.91032
出戰	-8.91243
誤	-8.91259
㕘將	-8.91508
其下	-8.91583
茍	-8.91648
荆	-8.91845
輒	-8.9189
缺	-8.92052
輔	-8.92057
户	-8.92183
偏	-8.92244
設伏	-8.92575
姦	-8.9259
承	-8.9284
材	-8.92865
羌	-8.9291
皇	-8.93036
突厥	-8.93039
屈	-8.93058
捷	-8.93091
完	-8.93096
相去	-8.93153
哨官	-8.93395
勒	-8.93509
所在	-8.93543
險阻	-8.93576
大軍	-8.9383
巡司	-8.93948
一千	-8.93979
藝	-8.94016
以備	-8.94026
淺	-8.94038
隔	-8.9407
五尺	-8.94074
不用	-8.94134
限	-8.94237
大將軍	-8.94449
衡	-8.94678
三千	-8.94824
津	-8.95025
樹	-8.95125
疲	-8.95143
章	-8.95185
紅	-8.9523
靖	-8.95349
使人	-8.95407
太倉	-8.955
惑	-8.95624
女	-8.95666
水陸	-8.95757
百人	-8.95832
千人	-8.95874
儀	-8.95935
百里	-8.95952
伯	-8.96056
酉	-8.96068
穿	-8.96072
掌	-8.9608
也夫	-8.96091
休	-8.96098
卿	-8.96105
納	-8.96161
㓂	-8.96198
妄	-8.96202
陣法	-8.96547
狀	-8.96831
宣	-8.96936
十八	-8.96965
而去	-8.97048
尺	-8.97122
盈	-8.97164
匈奴	-8.97168
静	-8.97182
朝廷	-8.9723
吐蕃	-8.9725
戌	-8.97282
一名	-8.97468
節制	-8.97585
往來	-8.97704
流星	-8.97712
韓	-8.98135
吹	-8.98191
西北至	-8.982
四十里	-8.98282
饑	-8.98294
雞	-8.98316
斤	-8.99002
入城	-8.9904
遏	-8.99064
寒	-8.99065
循	-8.993
畨	-8.99315
遊	-8.99353
我軍	-8.99427
晝夜	-8.99458
之日	-8.99501
郭	-8.99604
水兵	-8.99861
在外	-8.99899
冬	-8.99988
從之	-9.00271
一曰	-9.0036
併	-9.00362
丈	-9.00385
邀	-9.00476
底	-9.00491
幕	-9.00495
斬之	-9.00564
晝	-9.00857
得其	-9.01087
矢石	-9.01132
監	-9.01185
鐡	-9.0148
栁	-9.0149
仰	-9.0156
係	-9.0159
八十	-9.01869
局	-9.01998
縣界	-9.02128
知其	-9.02168
國家	-9.02316
四方	-9.02336
松	-9.0234
又有	-9.02343
兵法	-9.02352
蠻	-9.02432
傍	-9.02549
族	-9.02558
玉	-9.0257
了	-9.02656
塗	-9.02691
喪	-9.02715
不出	-9.02769
二十里	-9.02851
而行	-9.02869
層	-9.02994
一兩	-9.03068
振	-9.03187
李靖	-9.03236
不同	-9.0352
松江	-9.03525
𤣥	-9.03616
班	-9.03761
沈	-9.03767
怨	-9.03821
蘇松	-9.03877
火器	-9.04298
包	-9.04818
弗	-9.04828
天下之	-9.04905
露	-9.04914
慎	-9.04932
東北至	-9.04932
又曰	-9.05363
本府	-9.05373
太宗曰	-9.05479
江南	-9.05536
㓙	-9.05673
節度	-9.0571
京	-9.05793
若干	-9.05853
斜	-9.05949
捍	-9.05962
禦之	-9.05979
逸	-9.06024
濠	-9.06031
淮	-9.06055
硝	-9.06092
㨗	-9.06106
效	-9.06106
裹	-9.06107
級	-9.06215
者不	-9.06494
之術	-9.06591
短兵	-9.06753
腹	-9.06955
辛	-9.07136
略	-9.07166
泰	-9.07234
飢	-9.0727
巢	-9.07504
吏士	-9.07528
否	-9.07627
十四	-9.07854
二千	-9.08284
燈	-9.08319
幸	-9.08344
􁀙	-9.08438
兵士	-9.0847
暈	-9.08486
其衆	-9.08803
室	-9.09083
主人	-9.09138
洛	-9.09411
割	-9.09528
㣲	-9.09534
涉	-9.09551
雪	-9.0957
縁	-9.09573
煙	-9.09635
劉家河	-9.09649
汁	-9.09666
百姓	-9.0976
斬首	-9.09782
篇	-9.09806
之數	-9.09823
為一	-9.09868
其後	-9.10152
孰	-9.10459
十里	-9.10476
仲	-9.10573
剪	-9.10643
卯	-9.10749
毁	-9.10763
踰	-9.10772
獸	-9.10773
専	-9.10781
頓	-9.10822
早	-9.10872
出兵	-9.11298
名曰	-9.11406
不必	-9.11499
二十四	-9.11563
地形	-9.11676
剛	-9.11782
挑	-9.11829
守之	-9.11892
帳	-9.12016
増	-9.12023
變化	-9.12233
形勢	-9.12326
百步	-9.12328
其心	-9.1261
十三	-9.12761
之制	-9.1279
吕	-9.12897
也若	-9.12898
違	-9.12906
内外	-9.12961
常熟	-9.13028
者為	-9.13074
烟	-9.13083
一員	-9.13177
車騎	-9.13244
湯	-9.13252
排	-9.13286
不動	-9.13328
𨽻	-9.13377
狼	-9.13575
二丈	-9.13695
必勝	-9.13697
五寸	-9.13766
隊長	-9.14063
之際	-9.14175
固守	-9.14294
九十里	-9.14376
慶	-9.14445
鬼	-9.14446
礮	-9.14468
俗	-9.14483
弦	-9.14484
塵	-9.1449
恭	-9.14495
卑	-9.14496
為竒	-9.14502
疋	-9.1475
天目	-9.15072
而出	-9.15192
烽	-9.15356
賞罰	-9.15412
者必	-9.15482
其勢	-9.15673
將帥	-9.15677
頃	-9.15745
溝	-9.15766
壓	-9.15799
竊	-9.1582
訖	-9.15841
各有	-9.15857
假令	-9.15983
大戰	-9.16045
三年	-9.16338
感	-9.1637
佐	-9.16472
險要	-9.16481
有餘	-9.16517
城内	-9.16521
距	-9.16554
技	-9.16822
曉	-9.16976
駕	-9.16977
䝉	-9.17015
牆	-9.17027
唯	-9.17044
廟	-9.1707
諭	-9.17077
農	-9.17097
虚實	-9.17199
風雨	-9.17288
大夫	-9.17325
光武	-9.17353
十一	-9.17384
城門	-9.17478
五行	-9.17479
四百	-9.17711
旗幟	-9.17733
塹	-9.17831
可擊	-9.17962
州縣	-9.17994
其國	-9.18019
二里	-9.18114
祖	-9.18128
截	-9.18155
竭	-9.18278
不戰	-9.18291
不然	-9.18316
乏	-9.18319
杜	-9.18324
傾	-9.18347
配	-9.18411
要害	-9.18611
沿海	-9.18713
率兵	-9.1886
之利	-9.18874
寛	-9.18966
孔	-9.19083
四尺	-9.19127
城外	-9.19443
之計	-9.19558
以其	-9.19592
超	-9.19593
頗	-9.19659
律	-9.19663
隂陽	-9.19895
有兵	-9.1991
精兵	-9.20141
虞	-9.20146
隻	-9.20282
騎兵	-9.2031
有功	-9.20324
没	-9.20534
必敗	-9.20539
引兵	-9.20782
幽州	-9.20878
洪	-9.20921
柴	-9.20953
遮	-9.20955
惠	-9.2098
摧	-9.20985
扇	-9.21024
為正	-9.21062
之賊	-9.21104
拳	-9.21118
嘉定	-9.21377
古人	-9.21404
也今	-9.21798
總管	-9.21832
三尺	-9.21886
乙	-9.21952
史	-9.22115
扼	-9.22252
殘	-9.22285
立定	-9.22286
輙	-9.22307
母	-9.22308
銅	-9.22325
奚	-9.22344
尖	-9.22353
屢	-9.22359
艦	-9.22438
討之	-9.22684
行軍	-9.22759
挾	-9.23073
二年	-9.23097
故也	-9.23135
賊至	-9.23158
麾	-9.23416
磨	-9.2355
錯	-9.23604
返	-9.23647
美	-9.23662
寜	-9.23666
懐	-9.23678
堰	-9.23688
劫	-9.237
怠	-9.23722
巨	-9.23726
險要説	-9.23732
雖有	-9.23738
亦可	-9.23834
之衆	-9.24032
五人	-9.24101
不勝	-9.24138
馬軍	-9.24146
金山	-9.24208
之師	-9.24435
率衆	-9.2452
天子	-9.24662
臨時	-9.24695
臨敵	-9.24698
斧	-9.2475
准	-9.2496
徙	-9.25027
疏	-9.25067
擲	-9.25072
押	-9.25103
死者	-9.25203
二曰	-9.25426
之氣	-9.25465
不拘	-9.25679
客大將	-9.25779
分兵	-9.26173
賊舟	-9.26213
伺	-9.26223
今日	-9.26328
逺近	-9.26388
營中	-9.26396
予	-9.26409
亮	-9.26431
庭	-9.26451
顯	-9.26475
勸	-9.26512
擁	-9.26527
吴	-9.26529
庸	-9.26531
櫓	-9.26537
粟	-9.26537
霧	-9.26541
韓信	-9.26541
勝負	-9.26583
□	-9.26623
不見	-9.26725
之患	-9.26791
柔	-9.26813
辰星	-9.26839
十九	-9.26865
以待	-9.27081
懷	-9.27177
一枝	-9.27396
父	-9.27657
一斤	-9.2769
孟	-9.27746
以防	-9.27773
𦂳	-9.27832
數十	-9.27879
叔	-9.27895
榮	-9.27918
讓	-9.27922
囘	-9.27951
貢	-9.2796
夘	-9.27972
匹	-9.28009
曹操	-9.2802
筒	-9.28023
盗	-9.28052
元年	-9.28176
步兵	-9.2835
在前	-9.28423
出於	-9.28726
黨	-9.28731
一尺	-9.288
是故	-9.28801
長鎗	-9.28914
皆有	-9.28967
使其	-9.29074
箇	-9.29109
戮	-9.29292
魯	-9.29311
香	-9.29364
蕩	-9.29365
抗	-9.29381
浪	-9.2939
爵	-9.2939
蕭	-9.29391
墜	-9.29396
必死	-9.29754
戸	-9.29841
三月	-9.29866
千餘人	-9.30073
衞	-9.3028
覺	-9.30374
其法	-9.30385
隊伍	-9.30538
甘	-9.30675
塲	-9.30763
火藥	-9.3077
其中	-9.30791
渠	-9.30801
祐	-9.30814
挫	-9.30823
忘	-9.30833
刼	-9.30836
籍	-9.30836
跳	-9.30849
慢	-9.30874
隙	-9.30876
縛	-9.30878
匿	-9.30886
途	-9.30889
三曰	-9.31118
亦不	-9.31416
之於	-9.31441
古之	-9.31704
防守	-9.31906
繞	-9.3197
聖人	-9.31971
膽	-9.32156
衰	-9.32192
紹	-9.32207
三百里	-9.32234
篇第	-9.3224
賦	-9.32243
秘	-9.32276
出軍	-9.32307
擺	-9.32317
擅	-9.32351
脱	-9.32373
隱	-9.32375
邨	-9.32382
島	-9.32389
𤼵	-9.32398
典	-9.32422
念	-9.32423
稽	-9.32446
黄帝	-9.32534
挑戰	-9.3263
游	-9.32645
雲氣	-9.32771
亦有	-9.3289
叅將	-9.33083
向前	-9.33112
握竒	-9.33114
先鋒	-9.33183
利害	-9.33264
後漢	-9.3329
壕	-9.3353
梯	-9.3376
丘	-9.33805
響	-9.33812
崇明	-9.33827
釋	-9.33829
乞	-9.3387
藉	-9.33911
録	-9.33926
惜	-9.33934
不相	-9.33999
三人	-9.34138
駐隊	-9.34162
未嘗	-9.34227
獻	-9.34356
鳥銃	-9.34356
中國	-9.34462
三分	-9.34475
縣治	-9.34585
之上	-9.34776
第四	-9.34902
十七	-9.35093
攻其	-9.35177
擾	-9.35249
太公	-9.3526
三里	-9.35309
腰	-9.35319
瓦	-9.35353
貯	-9.35391
片	-9.35396
究	-9.35403
灾	-9.35463
段	-9.35495
誰	-9.35601
七十	-9.35854
填	-9.36003
之情	-9.36417
華亭	-9.36417
與賊	-9.3646
濬	-9.36532
聞之	-9.36671
應援	-9.36679
嘉	-9.3674
氣如	-9.36745
靣	-9.36751
與敵	-9.36849
殊	-9.36881
枕	-9.36887
認	-9.36897
歲	-9.36916
蒲	-9.36919
潜	-9.37006
齒	-9.37009
坤	-9.37023
分為	-9.3708
墻	-9.37081
州刺史	-9.3766
旅	-9.37762
沿	-9.38101
者亦	-9.38145
隆	-9.38199
標	-9.38298
鞭	-9.38439
二百里	-9.38461
側	-9.38487
價	-9.38487
中有	-9.3849
巴	-9.38514
必先	-9.38559
戈	-9.38581
應之	-9.38582
佯	-9.38588
救之	-9.38815
福船	-9.3893
千餘	-9.39011
賊衆	-9.39401
不備	-9.39511
一軍	-9.39655
以來	-9.39749
盧	-9.39964
維	-9.39965
籌	-9.40013
握	-9.40046
尊	-9.401
悦	-9.40107
粗	-9.40115
疎	-9.40126
穴	-9.40135
霸	-9.4014
太祖	-9.40162
述	-9.40177
遍	-9.40205
狗	-9.4023
膏	-9.40248
日辰	-9.40303
五星	-9.40337
築城	-9.40351
不和	-9.40384
大勝	-9.40462
江隂	-9.40703
憲	-9.4083
國之	-9.41008
山川	-9.41039
何謂	-9.412
其將	-9.41238
正月	-9.41253
下營	-9.41311
付	-9.41575
將兵	-9.41596
長短	-9.41638
熒惑	-9.41708
烈	-9.4175
演	-9.41755
敬	-9.41791
欽	-9.41805
博	-9.41826
則有	-9.41833
鼻	-9.41898
登岸	-9.42008
日暈	-9.42246
以下	-9.42383
遇敵	-9.4246
測	-9.42587
三兩	-9.42639
之心	-9.42691
二尺	-9.42695
何也	-9.42712
不便	-9.42875
豐	-9.43031
金人	-9.43095
其間	-9.43102
沙船	-9.43138
偃	-9.43203
者所以	-9.4321
紫	-9.43321
禄	-9.4337
豫	-9.43377
牽	-9.4343
一里	-9.43497
曹公	-9.43598
營壘	-9.43599
人皆	-9.43713
西方	-9.4384
法曰	-9.43882
之内	-9.44222
四曰	-9.44325
分合	-9.44438
也凡	-9.44459
其次	-9.44474
衆寡	-9.44501
丹	-9.44606
日月	-9.44635
兵法曰	-9.44769
與戰	-9.4488
上海	-9.44963
薪	-9.45082
凌	-9.45116
抱	-9.45124
邪	-9.45128
貨	-9.45147
亟	-9.45165
茂	-9.45178
飽	-9.45192
借	-9.45192
營陣	-9.45196
詣	-9.45205
觧	-9.45215
零	-9.45221
圗	-9.45225
髙祖	-9.45239
坑	-9.45253
庫	-9.45304
裂	-9.45304
人心	-9.45305
之道也	-9.45441
緩急	-9.45445
何以	-9.45602
軍門	-9.45629
數千	-9.45656
殺之	-9.45747
者以	-9.45777
着	-9.45822
二萬	-9.4586
因而	-9.45863
於外	-9.45994
人也	-9.46044
縣城	-9.46149
必須	-9.46243
以致	-9.46324
僅	-9.46324
者非	-9.46355
而下	-9.46459
拒之	-9.4656
崇	-9.46717
戊	-9.46741
畜	-9.46767
鹿	-9.46787
其事	-9.46799
奇兵	-9.46818
撓	-9.46822
窺	-9.46865
累	-9.46891
漏	-9.46912
姑	-9.46943
曰吾	-9.4695
徴	-9.46957
掛	-9.46994
武藝	-9.46996
墓	-9.47012
之變	-9.4703
舉兵	-9.47156
之具	-9.47216
之名	-9.47216
北門	-9.47232
則無	-9.47469
十五里	-9.47543
寸	-9.47721
頭目	-9.47723
居民	-9.47928
朔	-9.48105
僧	-9.48137
一十	-9.48207
萬一	-9.48251
蒼	-9.4843
誓	-9.48469
暮	-9.4847
將官	-9.48485
因其	-9.48532
不明	-9.4855
障	-9.48576
欺	-9.48599
減	-9.48628
逢	-9.4863
停	-9.48666
劒	-9.48669
肆	-9.48709
収	-9.4871
釘	-9.48721
弓兵	-9.48757
工食	-9.4884
而還	-9.49016
六尺	-9.49202
數萬	-9.49209
步騎	-9.49245
矣然	-9.49309
艘	-9.49351
小門	-9.4946
軍法	-9.49559
軸	-9.49664
兵家	-9.49801
避之	-9.50075
死地	-9.50302
攔	-9.50303
拿	-9.50306
兵馬	-9.50341
臂	-9.50351
則為	-9.50353
卧	-9.50362
岳	-9.50367
禽	-9.5037
迭	-9.50386
斂	-9.50392
碎	-9.50459
斫	-9.5048
嘉靖	-9.50514
壊	-9.50541
驛	-9.50563
砂	-9.50566
抛	-9.50593
東門	-9.50617
柘林	-9.50826
八十里	-9.50884
三萬	-9.50906
孫子	-9.50933
戰隊	-9.5105
十人	-9.51108
信地	-9.51117
為主	-9.51187
不意	-9.51193
主算	-9.51247
也然	-9.51265
設備	-9.51392
正兵	-9.51662
婁	-9.51812
殿	-9.51815
在乎	-9.52042
内地	-9.52044
灌	-9.52058
滚	-9.52152
郎	-9.52163
較	-9.52164
如何	-9.52202
印	-9.52231
袋	-9.52246
值	-9.52248
傅	-9.52295
耕	-9.52295
薛	-9.52297
徵	-9.52298
頂	-9.52302
弛	-9.5231
披	-9.52336
擄	-9.52363
武侯	-9.52419
前後左右	-9.52579
五月	-9.52643
其道	-9.52726
三十六	-9.52821
五千	-9.52837
者可	-9.52915
昭	-9.53015
七日	-9.53293
在内	-9.53351
成功	-9.53436
戰者	-9.53518
勁	-9.53537
有竒	-9.53759
增	-9.53781
詭	-9.53876
第五	-9.53894
軍行	-9.5392
序	-9.53952
蓄	-9.54006
渾	-9.54019
腿	-9.5402
味	-9.54037
三沙	-9.54049
一凡	-9.5405
扶	-9.5405
獵	-9.5406
峻	-9.54061
綿	-9.54086
濕	-9.54112
賴	-9.54116
竟	-9.54129
福山	-9.5413
柄	-9.54136
句	-9.54137
覘	-9.54148
沉	-9.54154
港口	-9.54162
豆	-9.54171
你	-9.54188
廵	-9.54208
冒	-9.54364
海防	-9.54405
而復	-9.54489
以此	-9.54559
五曰	-9.54634
左手	-9.54663
太守	-9.54698
相應	-9.54849
大兵	-9.55008
拘	-9.55375
渭	-9.55404
賊船	-9.5561
旬	-9.55638
庚	-9.55694
藤	-9.55722
四兩	-9.55767
一丈	-9.55776
五日	-9.55882
冀	-9.55896
明日	-9.55925
談	-9.55926
進止	-9.5593
卦	-9.55936
創	-9.55946
艾	-9.55953
者即	-9.55957
繁	-9.55987
浸	-9.56002
混	-9.56004
出其不意	-9.56012
熱	-9.56017
属	-9.56053
倭寇	-9.5612
粉	-9.56205
戰則	-9.56217
四年	-9.56224
總兵	-9.56246
捕盜	-9.56291
連坐	-9.56297
丹陽	-9.56552
水戰	-9.56653
其形	-9.56876
煩	-9.5695
地勢	-9.5703
二十五	-9.57047
金鼓	-9.57119
不從	-9.57351
甲子	-9.57564
凖	-9.57616
不為	-9.57624
堂	-9.57659
春秋	-9.5766
南門	-9.57664
遣將	-9.57732
網	-9.57746
邉	-9.57769
峽	-9.57786
歟	-9.57813
一帶	-9.57823
戴	-9.57836
眞	-9.57841
貧	-9.57855
仗	-9.57858
迹	-9.57887
漫	-9.57913
遽	-9.57928
鮮	-9.57945
迴	-9.57973
一萬	-9.58031
針	-9.58086
西南至	-9.581
不足以	-9.58116
黄浦	-9.58152
青龍	-9.58186
四人	-9.58285
跨	-9.58359
乘之	-9.58439
右手	-9.58502
有事	-9.58519
與之	-9.58684
肯	-9.5873
行營	-9.58743
大水	-9.58782
月暈	-9.58796
吳江	-9.58803
十日	-9.58893
如有	-9.58956
河北	-9.58979
行伍	-9.59018
之所以	-9.59149
或曰	-9.59188
互	-9.59191
未有	-9.59293
百户	-9.59431
間道	-9.59446
者勝	-9.59447
各兵	-9.59544
莊	-9.59664
以待之	-9.59691
黎	-9.5979
多少	-9.59814
不入	-9.59817
厭	-9.59831
敝	-9.59847
托	-9.59849
巷	-9.59857
煎	-9.59857
犬	-9.59862
此謂	-9.59875
虞候	-9.5988
龜	-9.59885
俾	-9.59888
一分	-9.59888
勤	-9.5992
恤	-9.60036
縱横	-9.60127
不通	-9.60228
道路	-9.60234
無以	-9.60267
地利	-9.60309
砦東至	-9.60331
綏	-9.60481
相持	-9.60686
春秋時	-9.6079
戰陣	-9.60901
對曰	-9.60916
無事	-9.60929
木為	-9.60954
為用	-9.6103
六月	-9.61119
知縣	-9.61195
數百	-9.61214
風雲	-9.61283
各以	-9.6153
漢王	-9.61539
魁	-9.61598
曽	-9.61602
曾	-9.61662
掲	-9.61701
波	-9.61725
桓	-9.61752
歡	-9.61776
採	-9.61791
儒	-9.61802
殆	-9.61809
盟	-9.61821
撃之	-9.61831
郊	-9.61854
壞	-9.6187
纔	-9.61886
續	-9.61908
寺	-9.61909
番	-9.61934
遵	-9.61946
囊	-9.61948
京口	-9.62036
戰勝	-9.62044
鉛子	-9.62113
􁁊	-9.62121
山東	-9.62312
而不能	-9.62357
之戰	-9.62424
里北至	-9.62458
一陣	-9.62728
有警	-9.62812
旦	-9.62903
五百人	-9.62904
山林	-9.6291
之要	-9.62987
制勝	-9.63065
曰今	-9.6319
不可用	-9.63449
先是	-9.63601
啓	-9.63807
洗	-9.63833
彭	-9.63846
肩	-9.63863
尹	-9.63867
尉	-9.63883
抄	-9.63904
其兵	-9.63907
檄	-9.6391
倚	-9.63914
閲	-9.6392
鉦	-9.6393
荒	-9.63952
辱	-9.63953
幡	-9.63962
鏃	-9.6399
桿	-9.64009
迷	-9.64012
觸	-9.64049
善用兵者	-9.64057
孫武	-9.6406
併力	-9.64097
亦如之	-9.64137
破之	-9.64188
二兩	-9.64357
在我	-9.64396
輕騎	-9.64602
追之	-9.64604
受敵	-9.64623
憚	-9.64673
攻守	-9.64675
蘭	-9.64712
之義	-9.64969
首尾	-9.6498
可用	-9.65004
而入	-9.65069
王師	-9.6509
無窮	-9.65119
改為	-9.65153
枚	-9.65373
大陣	-9.65381
居中	-9.6545
訓	-9.65466
取勝	-9.65484
陸兵	-9.65516
一體	-9.65618
上有	-9.65628
胥	-9.65746
釁	-9.6579
埋	-9.65832
之理	-9.65856
抑	-9.65942
卓	-9.65948
岡	-9.65962
辯	-9.65967
謝	-9.65975
飾	-9.65979
賈	-9.65983
泄	-9.65983
之意	-9.6601
汲	-9.66031
另	-9.66042
黃	-9.66055
挽	-9.66099
雲梯	-9.66115
握機	-9.66178
領兵	-9.66451
太公曰	-9.66451
浙江	-9.66524
後世	-9.66638
自然	-9.6668
次之	-9.66864
之機	-9.66996
之國	-9.66997
而用之	-9.67001
不在	-9.67105
已上	-9.67372
有三	-9.67384
智者	-9.67567
河東	-9.67653
江北	-9.67673
無錫	-9.67692
叅	-9.67747
火箭	-9.67862
鄰	-9.67869
墩	-9.67879
大海	-9.67891
襄	-9.67962
儲	-9.67992
雍	-9.68004
彈	-9.68029
駭	-9.68035
勾	-9.68041
毅	-9.68061
席	-9.6807
災	-9.68085
憑	-9.68087
鳯	-9.68088
鍾	-9.68096
健	-9.68113
不宜	-9.6812
虹	-9.68144
純	-9.68148
者則	-9.6817
亷	-9.68175
供	-9.68188
十餘萬	-9.68286
衝兵	-9.68291
呈	-9.68292
弓矢	-9.68305
䡴	-9.68323
七百	-9.68324
鞍	-9.68327
大敗之	-9.68406
萬物	-9.68409
取之	-9.6843
藏身	-9.68466
寳山	-9.68576
十餘里	-9.68617
靖江	-9.68626
而上	-9.68709
草木	-9.68729
百萬	-9.68733
也其	-9.68812
不可不	-9.68832
不測	-9.69055
手執	-9.69111
之民	-9.6915
四月	-9.69479
沒	-9.6981
一半	-9.69972
我則	-9.7006
而至	-9.70154
軌	-9.70205
十月	-9.70207
賤	-9.70218
康	-9.70229
帯	-9.70231
筏	-9.70264
搗	-9.70273
哭	-9.70273
舞	-9.70273
叢	-9.70287
辦	-9.70294
奈何	-9.70298
遥	-9.70303
勉	-9.70306
屠	-9.70317
跡	-9.70326
基	-9.70333
偷	-9.7034
荆州	-9.70355
丸	-9.70381
即以	-9.70397
猪	-9.70408
留都	-9.70528
皆可	-9.70552
部落	-9.70581
遇賊	-9.70618
二分	-9.70624
之象	-9.70811
一聲	-9.70814
戰於	-9.70965
一旦	-9.70996
五分	-9.71017
不至	-9.71137
盜賊	-9.71216
每一	-9.7125
圍之	-9.71257
居之	-9.71294
勵	-9.71363
剋	-9.71389
凡戰	-9.71397
常以	-9.71498
金星	-9.71582
取其	-9.71659
堪	-9.71685
諸葛亮	-9.71716
之徒	-9.7177
君子	-9.71892
知之	-9.71918
靖曰	-9.72079
季	-9.72137
大江	-9.7227
棒	-9.72282
粮	-9.72386
二百五十	-9.72404
漆	-9.72418
吐	-9.72429
豪	-9.7246
淵	-9.72462
村	-9.72471
蒙	-9.72477
懿	-9.72485
餉	-9.72486
署	-9.72492
䑕	-9.72512
騰	-9.72525
歇	-9.72532
靡	-9.72534
拽	-9.72557
削	-9.72572
捨	-9.72573
浚	-9.72582
中間	-9.72604
都督	-9.72657
月蝕	-9.72678
三丈	-9.7279
方陣	-9.72975
後魏	-9.73044
觀其	-9.73159
行陣	-9.7316
備之	-9.73285
不絶	-9.73317
又以	-9.73352
可得	-9.7348
海洋	-9.7355
八百	-9.73557
主大將	-9.73586
十斤	-9.73624
郡城	-9.73634
海中	-9.7387
待其	-9.73874
之南	-9.73899
人主	-9.73991
忍	-9.74028
令人	-9.74048
其言	-9.74076
捉	-9.74137
一百二十	-9.74214
水草	-9.74225
六里	-9.74257
由是	-9.74262
燧	-9.74349
牛馬	-9.74462
后	-9.74502
長洲	-9.74565
弟	-9.74571
千户	-9.7463
未可	-9.74648
無備	-9.74663
展	-9.74713
閘	-9.74719
在後	-9.74729
幷	-9.74735
掣	-9.74746
漕	-9.74769
妖	-9.74775
凉	-9.74785
為上	-9.74787
諜	-9.74788
幽	-9.7479
爛	-9.74797
廬	-9.74797
履	-9.7481
賀	-9.74815
護	-9.7482
冠	-9.7483
換	-9.74836
炭	-9.74847
泣	-9.74856
糞	-9.74869
籠	-9.74888
燭	-9.74896
桑	-9.74897
隄	-9.74903
洪武	-9.74986
様	-9.74997
六百	-9.75018
各船	-9.75023
七寸	-9.75155
説曰	-9.75157
而不知	-9.75157
答	-9.75182
賊自	-9.75213
者謂之	-9.75366
一箇	-9.754
以便	-9.75506
五十人	-9.75547
糧道	-9.75598
千六百	-9.75662
大潰	-9.75732
法也	-9.75813
不止	-9.75837
奮擊	-9.75891
而擊之	-9.75914
棚	-9.75917
賊來	-9.75941
大破之	-9.75944
者當	-9.76099
遁去	-9.76208
陣也	-9.76444
始擊將	-9.76521
錫	-9.76852
扎	-9.76874
兒	-9.76898
亦無	-9.76929
等處	-9.76969
曺公	-9.76978
豪傑	-9.76988
裕	-9.76993
饒	-9.77026
有五	-9.77033
搜	-9.77039
匠	-9.77063
嘴	-9.77066
搖	-9.77068
昧	-9.771
鑚	-9.77122
輿	-9.77156
减	-9.77173
透	-9.77173
渉	-9.77179
中央	-9.77182
晦	-9.77188
嘉興	-9.77198
肥	-9.77215
驟	-9.77218
賊若	-9.7722
之言	-9.77315
子曰	-9.77316
之權	-9.77337
制之	-9.77393
莫不	-9.7743
天員	-9.77441
耳目	-9.77553
十步	-9.77567
驍勇	-9.77594
海口	-9.77612
五百里	-9.77621
哨至	-9.77629
於後	-9.77654
下有	-9.77679
黄旗	-9.77757
百二十里	-9.77929
無功	-9.77933
不復	-9.77962
兩邊	-9.77966
有司	-9.78164
平時	-9.78251
手足	-9.783
其餘	-9.78461
對敵	-9.78475
西門	-9.78501
勝也	-9.78562
隴	-9.78571
殺賊	-9.78606
此為	-9.78618
鎮江	-9.78763
七月	-9.78787
大門	-9.78804
哨長	-9.78849
萬餘	-9.78891
十歩	-9.78918
之功	-9.79045
武帝	-9.79071
國初	-9.79092
者此	-9.79238
七尺	-9.79326
瀆	-9.79328
脩	-9.79374
掘	-9.79395
叙	-9.79396
希	-9.79399
洩	-9.79418
搭	-9.79422
火攻	-9.79431
綱	-9.79436
殷	-9.79437
第十	-9.7947
桶	-9.79479
逹	-9.79486
汛	-9.79487
纛	-9.79504
拜	-9.79505
昴	-9.79506
舖	-9.79506
恱	-9.79531
蓬	-9.79543
閣	-9.79549
卜	-9.79549
翰	-9.79551
今之	-9.79558
為天	-9.79562
麥	-9.79565
扣	-9.79568
項羽	-9.79579
題	-9.7958
而前	-9.79596
彌	-9.79598
崩	-9.79622
研	-9.79642
最為	-9.797
軍營	-9.79781
屯田	-9.79827
弓箭	-9.79874
兩旁	-9.79877
白虎	-9.79948
主客	-9.80042
所向	-9.80233
互相	-9.80277
潤	-9.80416
不堪	-9.80422
乃可	-9.80449
入海	-9.80457
乘勝	-9.80584
之説	-9.80654
三面	-9.80736
八月	-9.80771
八人	-9.80838
地道	-9.8085
大抵	-9.80883
浙	-9.80917
遣人	-9.80983
太倉州	-9.8119
五兩	-9.81207
將領	-9.81349
袁	-9.81369
水路	-9.81378
居前	-9.81384
暇	-9.81392
出海	-9.81455
操練	-9.81477
亭	-9.81615
協	-9.8171
添	-9.81831
牢	-9.81842
準	-9.81862
壽	-9.8187
謙	-9.81882
旱	-9.81893
芻	-9.81898
阿	-9.8192
嵩	-9.81934
活	-9.81937
盞	-9.8195
夕	-9.81953
之形	-9.81953
軫	-9.81955
竈	-9.81956
壅	-9.81956
蒺藜	-9.81958
逓	-9.8198
艮	-9.82014
脂	-9.82019
戰也	-9.8202
栅	-9.82029
咎	-9.82035
勾陳	-9.82043
閒	-9.82044
搶	-9.82054
風后	-9.82058
料敵	-9.82092
交鋒	-9.82129
由此	-9.82231
强弱	-9.8227
也此	-9.82338
首級	-9.82345
練兵	-9.82383
行則	-9.82527
上城	-9.82536
宜興	-9.82545
生擒	-9.82707
二月	-9.82889
變為	-9.83191
九宫	-9.83194
公曰	-9.83228
登城	-9.83425
六曰	-9.83426
敵若	-9.83463
而能	-9.83663
用其	-9.8368
本隊	-9.83713
㕘	-9.83723
括	-9.8373
北方	-9.83928
線	-9.84089
起兵	-9.84094
圏	-9.84148
癸	-9.84228
輸	-9.84262
䑸	-9.8428
兇	-9.84295
課	-9.84298
臯	-9.84305
悍	-9.84339
不容	-9.84384
税	-9.84396
侮	-9.84408
𢎞	-9.84408
言之	-9.84411
鄧	-9.84426
揮	-9.84428
筋	-9.84431
件	-9.84431
怪	-9.84447
陛下	-9.84449
搏	-9.8445
攝	-9.84459
分野	-9.8446
廷	-9.8446
訓練	-9.84469
塊	-9.8447
科	-9.84475
蘆	-9.84491
坎	-9.84501
丹徒	-9.84518
間諜	-9.84551
影	-9.84576
堅壁	-9.846
鬼神	-9.84643
部伍	-9.84673
敗走	-9.84676
追擊	-9.84805
四寸	-9.84837
或用	-9.84848
多寡	-9.84899
南方	-9.84906
策應	-9.84974
以兵	-9.85142
十二月	-9.85152
交戰	-9.85157
亦以	-9.85238
七里	-9.85294
而走	-9.85388
之路	-9.85437
副使	-9.85508
進兵	-9.85695
有二	-9.85729
甲長	-9.858
狀如	-9.8583
用此	-9.85853
古者	-9.85884
分布	-9.85989
如是	-9.86068
六花	-9.86082
山谷	-9.86082
壤	-9.86129
立功	-9.86149
列陣	-9.86402
一把	-9.86403
一路	-9.86427
天道	-9.86451
之故	-9.86493
得以	-9.86493
一處	-9.86589
上流	-9.86651
瘡	-9.86771
徹	-9.86801
劄	-9.86866
講	-9.86868
彰	-9.86874
掃	-9.86885
嗣	-9.86886
其機	-9.8692
奴	-9.86941
碗	-9.8696
斃	-9.86978
宛	-9.86979
轅	-9.86984
朕	-9.87001
綂	-9.87005
㦸	-9.87013
悔	-9.87025
㫖	-9.87026
皆以	-9.87055
痛	-9.87062
殃	-9.8708
拍	-9.87088
洛陽	-9.87105
嚮	-9.8711
耆民	-9.87158
之禍	-9.8716
甲寅	-9.87184
一丈五尺	-9.87186
捍禦	-9.87245
百餘	-9.87398
城池	-9.8748
十一月	-9.87489
或有	-9.8751
主兵	-9.87514
衝突	-9.87537
客星	-9.87567
笑	-9.87746
而不可	-9.8776
四里	-9.87991
衛所	-9.8804
陣圖	-9.88041
孔明	-9.88081
得之	-9.88164
戰而	-9.88218
出師	-9.88259
是為	-9.88286
發放	-9.88365
阜	-9.88481
之罪	-9.88527
出竒	-9.88593
向來	-9.88619
隅	-9.88733
前軍	-9.88767
五萬	-9.88837
吾軍	-9.88944
炬	-9.88994
而退	-9.89054
以鐵	-9.89095
行列	-9.89104
一層	-9.89119
我之	-9.89217
書曰	-9.89225
來攻	-9.89369
剃	-9.89406
其城	-9.89431
相接	-9.89431
十里西至	-9.89437
其上	-9.89441
范	-9.89444
乎此	-9.8948
墨	-9.89486
措	-9.89524
硬	-9.89533
寄	-9.8955
檢	-9.89555
沮	-9.8957
董	-9.89575
衍	-9.89576
套	-9.8958
帛	-9.89598
顛	-9.89607
兵以	-9.89609
其制	-9.89616
蹙	-9.89621
版	-9.89623
懈	-9.89629
質	-9.89637
杖	-9.89639
錐	-9.89648
垣	-9.89649
街	-9.89649
氊	-9.89654
淫	-9.89655
貌	-9.89661
訪	-9.89663
教塲	-9.89676
晟	-9.89684
矩	-9.897
愬	-9.8971
快	-9.89712
衢	-9.89736
踏	-9.8974
俊	-9.89764
八卦	-9.89886
安能	-9.8994
豈能	-9.9005
此時	-9.90057
次第	-9.90063
精騎	-9.90113
縣境	-9.90125
百五十里	-9.90265
八尺	-9.9028
天時	-9.90449
防禦	-9.90474
者多	-9.90522
二日	-9.90534
我師	-9.90567
一由	-9.90587
君臣	-9.90588
使敵	-9.90745
自是	-9.90792
相連	-9.9085
因敵	-9.90885
之衝	-9.90892
步卒	-9.91066
兩頭	-9.91335
開門	-9.91355
西界	-9.91399
涼	-9.91473
藍	-9.91496
東魏	-9.91536
雲如	-9.91556
後軍	-9.91569
髙下	-9.91586
相近	-9.91654
為客	-9.91682
二寸	-9.91728
大吉	-9.91747
不進	-9.91894
之力	-9.91926
平日	-9.92145
陣中	-9.92156
絞	-9.92158
姓	-9.92159
銜枚	-9.92244
蔡	-9.9226
放火	-9.92272
荀	-9.92278
仙	-9.92282
縳	-9.92289
緣	-9.92293
戰國	-9.92294
姚	-9.92295
樵	-9.92319
桂	-9.92327
漠	-9.9233
浩	-9.92333
讀	-9.92334
先以	-9.92334
餌	-9.92341
璘	-9.9237
髪	-9.9237
絳	-9.92371
倦	-9.92371
漁	-9.92383
若此	-9.924
促	-9.92428
曰天	-9.92483
𤣥武	-9.92501
一錢	-9.92533
設險	-9.92556
人事	-9.9262
虛實	-9.92651
旗鼓	-9.92692
至城下	-9.92742
見其	-9.92774
三寸	-9.92845
白旗	-9.92859
長驅	-9.92864
示之	-9.92886
長安	-9.92919
車輪	-9.9295
上來	-9.92953
舊制	-9.92955
金皷	-9.93141
六千	-9.93307
所當	-9.93329
九月	-9.93436
或如	-9.93539
厥	-9.93628
若敵	-9.93631
東方	-9.93684
脚下	-9.93763
二斤	-9.93764
既而	-9.94012
西山	-9.94025
故能	-9.94035
為賊所	-9.94059
勝之	-9.94061
不可勝	-9.94077
可謂	-9.94137
曰此	-9.94145
城郭	-9.94176
一月	-9.94335
祥	-9.94355
六國	-9.9444
矣故	-9.94452
又於	-9.94457
為末	-9.94461
謂其	-9.94565
七十二	-9.94567
於海	-9.94589
必由	-9.94638
賊兵	-9.94686
溺	-9.94702
泖	-9.94704
百餘里	-9.94783
布陣	-9.94922
江海	-9.94963
閃	-9.9499
狐	-9.95041
躡	-9.95061
節度使	-9.95061
貳	-9.95064
迅	-9.95067
燃	-9.95076
躬	-9.95082
英	-9.95083
熊	-9.95086
韋	-9.95098
邦	-9.95102
派	-9.95104
囉	-9.95124
梅	-9.95124
凢	-9.95135
揺	-9.95138
喇叭	-9.95138
守備	-9.95146
鷄	-9.95149
偶	-9.95153
閑	-9.95157
庻	-9.95165
脊	-9.95249
方可	-9.9534
若不	-9.95493
也又	-9.95608
數日	-9.95659
不整	-9.95697
或問	-9.95703
道也	-9.95756
斬獲	-9.95783
欲得	-9.95796
劉河	-9.95857
内有	-9.96238
府城	-9.96292
其人	-9.96408
不知其	-9.96432
無常	-9.9653
勝敗	-9.96565
拒馬	-9.96567
地有	-9.96593
未知	-9.96626
孝	-9.96715
者斬之	-9.96735
其功	-9.96756
刺史	-9.96782
六甲	-9.96788
諫	-9.96873
必以	-9.97004
擊敗之	-9.97098
客兵	-9.9728
十餘	-9.97311
天衡	-9.9736
百餘人	-9.97384
八宫	-9.97584
曠	-9.97699
穀	-9.9772
挨	-9.97734
弩手	-9.97744
第六	-9.97746
躍	-9.97758
不下	-9.97803
世充	-9.97856
弰	-9.97859
此其	-9.97876
茅	-9.979
所居	-9.97901
鉞	-9.97922
亞	-9.97939
撒	-9.9794
之狀	-9.97941
桅	-9.97948
遞	-9.97952
踐	-9.97957
無故	-9.97959
㐫	-9.97967
買	-9.97968
齎	-9.97974
𤓰	-9.97981
詰	-9.97983
苗	-9.97986
赦	-9.97989
栢	-9.97992
㫁	-9.97998
惰	-9.97999
帆	-9.98002
社	-9.98002
及其	-9.98007
玩	-9.98019
女牆	-9.98023
霜	-9.98048
牛皮	-9.98067
五六	-9.98076
左右廂	-9.98077
逐之	-9.98128
太原	-9.98246
衝鋒	-9.98247
人所	-9.98263
婦人	-9.98288
十年	-9.98419
相遇	-9.98457
林木	-9.98475
江陰	-9.98486
有大	-9.98579
天地之	-9.98584
角聲	-9.98633
甲士	-9.98647
古法	-9.98662
失其	-9.98688
哨探	-9.98692
降者	-9.98727
軍令	-9.98825
四十五里	-9.98855
客勝	-9.98947
敵臺	-9.99048
如此則	-9.99084
便於	-9.99135
吳縣	-9.99233
無益	-9.99239
遊兵	-9.9924
四陣	-9.99256
戰必	-9.99282
不虞	-9.99298
破敵	-9.993
望見	-9.99392
統領	-9.99443
一百五十	-9.99549
相對	-9.99552
偏將	-9.99578
敵兵	-9.99695
一字	-9.99734
之役	-9.99804
莽	-9.9982
械	-9.99839
不肯	-9.99875
發兵	-9.99909
四竒	-9.99928
吳淞	-9.99974
賊首	-10.0002
伊	-10.0009
島寇	-10.0019
戰士	-10.0019
楚子	-10.0024
輩	-10.0026
長一丈	-10.0027
即時	-10.0033
大呼	-10.0037
給與	-10.0038
不聽	-10.0043
進攻	-10.005
殺人	-10.0051
八寸	-10.0054
士衆	-10.0056
圍城	-10.0057
然則	-10.0066
澗	-10.0073
鈀	-10.0075
南滙	-10.0075
灣	-10.0076
踵	-10.0078
二十步	-10.0079
軟	-10.0083
射之	-10.0083
淨	-10.0084
疆	-10.0086
釐	-10.0086
俘	-10.0086
三千人	-10.0087
鑒	-10.0087
圌山	-10.0089
亢	-10.0089
勲	-10.0089
倫	-10.009
晚	-10.0092
閭	-10.0092
纂	-10.0092
劔	-10.0094
侍	-10.0094
舒	-10.0094
飛鳥	-10.0095
祝	-10.0095
馭	-10.0097
舟楫	-10.0098
嫌	-10.0098
脫	-10.0098
筅	-10.0102
灘	-10.0103
奸細	-10.0107
聞賊	-10.0108
戳	-10.0109
衙門	-10.011
相救	-10.0112
則民	-10.0115
動靜	-10.0116
建徳	-10.0122
天門	-10.0124
奔走	-10.0131
川沙	-10.0134
置州	-10.0136
仁厚	-10.0138
而有	-10.0142
也是以	-10.0148
將死	-10.0157
相與	-10.0163
矣而	-10.0167
之北	-10.0168
引軍	-10.0177
水軍	-10.0178
國朝	-10.0183
其力	-10.0194
州治	-10.0196
行者	-10.0201
二錢	-10.0203
險易	-10.0204
為營	-10.0206
人人	-10.0219
三宫	-10.022
者斬一	-10.0225
魏將	-10.0229
豈不	-10.0232
甚多	-10.0237
每隊	-10.0246
之費	-10.0246
良將	-10.0252
南沙	-10.0253
五丈	-10.0306
進軍	-10.0315
兆	-10.0316
有四	-10.0321
武徳	-10.0323
兩軍	-10.0335
嘉定縣	-10.0338
砦在	-10.0339
唱	-10.0354
崑山縣	-10.0366
廂	-10.0366
珥	-10.0369
三四	-10.0369
館	-10.0372
錦	-10.0377
什	-10.038
妻	-10.038
彦	-10.0382
區	-10.0385
偃月	-10.0386
以爲	-10.0387
百八十里	-10.0389
李筌	-10.039
樊	-10.039
梢	-10.039
禀	-10.0391
僕	-10.0392
翻	-10.0392
導	-10.0392
驢	-10.0393
穰苴	-10.0393
陞	-10.0394
叡	-10.0395
桃	-10.0395
曜	-10.0396
濁	-10.0396
諳	-10.0397
於敵	-10.0397
掉	-10.0397
忿	-10.0398
鑼	-10.0398
則用	-10.0401
蟲	-10.0402
滑	-10.0402
焰	-10.0407
猝	-10.0407
夀	-10.0408
乍	-10.0408
堠	-10.0408
半斤	-10.0409
可知	-10.0409
掩襲	-10.0415
四隅	-10.0418
常山	-10.042
築堡	-10.0421
預備	-10.0438
二十六	-10.045
里西至	-10.0452
四分	-10.0455
大旗	-10.0462
三星	-10.0469
首領	-10.0471
糧食	-10.0471
太平	-10.0475
二宫	-10.0475
前行	-10.0476
接戰	-10.0489
所部	-10.0494
八日	-10.0499
而西	-10.0506
之謀	-10.0508
應變	-10.0509
數十人	-10.0515
古今	-10.0518
一百七十	-10.052
軍旅	-10.052
一寸	-10.0535
其用	-10.0548
即是	-10.0557
不分	-10.0566
應敵	-10.0573
敵必	-10.058
每人	-10.0587
勝者	-10.0589
此皆	-10.0594
者不可	-10.0608
施行	-10.061
前進	-10.0618
一齊	-10.0636
如前	-10.0636
令其	-10.0665
儉	-10.0671
渡河	-10.0675
义	-10.068
狄	-10.0686
備倭	-10.0687
两	-10.0694
佚	-10.0696
暑	-10.0698
朱雀	-10.0699
竅	-10.0702
者充	-10.0702
斥	-10.0703
中國之	-10.0704
槳	-10.0704
鄴	-10.0704
産	-10.0705
現	-10.0706
懦	-10.0706
仇	-10.0708
榖	-10.0708
攸	-10.0708
矟	-10.0711
紛	-10.0711
鎖	-10.0711
畆	-10.0711
台	-10.0711
漲	-10.0712
簿	-10.0712
槽	-10.0713
勅	-10.0714
檀	-10.0714
崔	-10.0714
乖	-10.0715
武王問太公曰	-10.0715
効	-10.0716
彬	-10.0716
飯	-10.0717
舶	-10.0717
慣	-10.0717
盪	-10.0717
於内	-10.0717
呌	-10.0718
莫敢	-10.0718
殊不知	-10.072
世衡	-10.072
精鋭	-10.0722
炊	-10.0724
姓名	-10.0726
而知	-10.0734
豈有	-10.0737
鳥翔	-10.074
兩端	-10.0744
單于	-10.0746
甲兵	-10.0748
太陽	-10.0752
勇者	-10.0752
後手	-10.0752
為敵所	-10.0755
金山衛	-10.0755
敗之	-10.0757
所用	-10.0759
守者	-10.0762
十里南至	-10.0762
於城	-10.0773
呉淞江	-10.0777
指揮使	-10.0781
不暇	-10.0785
此則	-10.0795
違者	-10.0806
平望	-10.0819
受命	-10.082
江口	-10.0824
門外	-10.0835
形如	-10.0838
所見	-10.0843
為將	-10.0848
用車	-10.086
不克	-10.0867
頭上	-10.0869
者無	-10.087
乃令	-10.0876
堅守	-10.0877
一宫	-10.0878
曰賊	-10.088
乘其	-10.0891
至州	-10.0897
將吏	-10.0901
五色	-10.0905
用命	-10.0906
其陣	-10.0926
制度	-10.0948
於前	-10.0951
後周	-10.0956
被賊	-10.0957
重兵	-10.0958
自古	-10.0962
或由	-10.0967
不行	-10.0977
彼此	-10.098
有憂	-10.0987
不成	-10.0998
戰船	-10.101
毋	-10.1011
倶	-10.1012
慈	-10.1012
不居	-10.1014
青邨	-10.102
允	-10.1021
各一	-10.1022
嗚呼	-10.1024
葦	-10.1025
二十八宿	-10.1025
有賊	-10.1025
羸	-10.1025
堤	-10.1025
詞	-10.1025
豎	-10.1027
寵	-10.1027
僻	-10.1028
中原	-10.1028
絲	-10.103
耀	-10.103
貞	-10.103
厲	-10.1031
遇有	-10.1031
臥	-10.1031
欵	-10.1031
敵國	-10.1033
擂	-10.1033
療	-10.1035
選鋒	-10.1035
蹈	-10.1035
賣	-10.1036
睡	-10.1036
錄	-10.1038
眀	-10.1038
優	-10.104
鼓譟	-10.1041
舗	-10.1041
挿	-10.1042
天文	-10.105
友	-10.105
兩軍相當	-10.1051
喝	-10.1058
矣若	-10.106
聲援	-10.1063
仁義	-10.1065
摩	-10.1067
六寸	-10.1067
蘇州府	-10.1074
壯士	-10.1075
流血	-10.1077
者謂	-10.1085
江防	-10.1087
八隊	-10.1089
待之	-10.109
麾下	-10.1093
只是	-10.1096
也故曰	-10.1102
之前	-10.1104
浙直	-10.1108
石灰	-10.111
於人	-10.1118
在縣	-10.112
其志	-10.1123
遇警	-10.1124
陸路	-10.1125
率然	-10.1126
彗	-10.1128
不失	-10.1132
當時	-10.1138
莫能	-10.114
奪其	-10.1141
旌	-10.1144
大王	-10.1151
此地	-10.1152
甚衆	-10.1166
夾攻	-10.1168
其氣	-10.1169
他棍	-10.117
八分	-10.1172
破賊	-10.1176
使賊	-10.1181
實用	-10.1184
麟	-10.1184
利於	-10.1185
夜則	-10.1188
其家	-10.1198
其民	-10.12
見之	-10.1204
人有	-10.1212
輕重	-10.1221
自相	-10.1223
後有	-10.1227
擒之	-10.1244
先行	-10.1248
動則	-10.1249
起於	-10.1261
夜半	-10.1262
而立	-10.1272
六十四	-10.1274
唵	-10.1283
此之謂	-10.1299
三十二	-10.1305
毬	-10.1305
鉛	-10.1319
丙	-10.1319
為陣	-10.1324
之陣	-10.1326
不服	-10.1327
其意	-10.1332
童	-10.1337
觀之	-10.134
周圍	-10.1345
公子	-10.1347
裁	-10.135
擡	-10.1353
陣於	-10.1353
祠	-10.1355
慕容	-10.1356
巾	-10.1358
矛	-10.1359
趣	-10.136
眉	-10.136
繡	-10.1361
兹	-10.1361
暢	-10.1362
巽	-10.1362
大風	-10.1362
叉	-10.1362
賂	-10.1363
故名	-10.1364
悟	-10.1364
焦	-10.1365
磧	-10.1365
州城	-10.1365
遶	-10.1366
牒	-10.1366
黙	-10.1366
亾	-10.1366
消	-10.1367
孫權	-10.1367
撞	-10.1369
跪	-10.137
迂	-10.137
遙	-10.1371
腦	-10.1371
闢	-10.1371
表裏	-10.1371
歌	-10.1372
箕	-10.1373
黄河	-10.1374
一二	-10.1375
營寨	-10.138
鹿角	-10.138
所臨	-10.1385
敗也	-10.1385
虎翼	-10.1391
十分	-10.1393
皆為	-10.1396
亦然	-10.1404
若曽	-10.1412
兩翼	-10.142
前衝	-10.1427
鼓聲	-10.143
二十八	-10.1439
難以	-10.1445
未定	-10.145
孫子曰	-10.1451
若有	-10.1452
遣使	-10.1454
士不	-10.1458
常州	-10.1459
六宫	-10.1461
然而	-10.1463
不若	-10.1464
在上	-10.1466
平原	-10.147
八千	-10.1475
一部	-10.1483
兵器	-10.1484
主目	-10.1488
以示	-10.1497
諸營	-10.1502
地也	-10.1507
為正兵	-10.1512
利而	-10.1525
一百二十里	-10.1532
占曰	-10.1537
陸行	-10.1547
晉師	-10.1549
松江府	-10.1549
何如	-10.155
兵少	-10.159
也一	-10.1599
縱火	-10.1601
而南	-10.1604
用起	-10.1609
一升	-10.1626
大衆	-10.1626
第八	-10.163
軍至	-10.1634
四十里南至	-10.1636
四隊	-10.1642
勿令	-10.1652
牡	-10.1662
無定	-10.1663
設兵	-10.1667
砲石	-10.1672
酋	-10.1675
瓶	-10.1695
毫	-10.1696
醜	-10.1697
厰	-10.1698
揀	-10.17
倖	-10.1702
譎	-10.1702
余	-10.1704
恒	-10.1704
𣲖	-10.1705
芒	-10.1705
疊	-10.1706
頻	-10.1707
觜	-10.1707
捧	-10.1707
那	-10.1708
鍋	-10.1708
巫	-10.1708
逰	-10.1708
都督府	-10.1709
絹	-10.1709
軍䜟曰	-10.171
踈	-10.171
疫	-10.1711
侃	-10.1711
礟	-10.1711
一哨	-10.1714
爲之奈何太公曰	-10.1715
稟	-10.1717
貼	-10.1717
爪	-10.1718
朔方	-10.1718
國有	-10.172
二千五百	-10.1721
東京	-10.1724
讒	-10.1728
不畏	-10.1729
更畨	-10.1731
唐太宗	-10.1732
數十里	-10.1732
一云	-10.1736
名將	-10.1747
陸戰	-10.1751
往往	-10.1751
陰陽	-10.1756
每日	-10.1758
水流	-10.1761
合戰	-10.1761
嵗星	-10.1765
客挾	-10.1769
吳淞所	-10.1779
武王曰	-10.1784
至此	-10.1789
家橋	-10.1792
天罡	-10.1803
際	-10.1805
鳴金	-10.1806
不來	-10.1808
屯兵	-10.1812
其軍	-10.1817
可不	-10.182
火光	-10.1826
五代	-10.1828
秦王	-10.1831
一方	-10.1836
建為	-10.1837
必不	-10.184
月犯	-10.185
見敵	-10.1852
相當	-10.1854
結陣	-10.1855
赤雲	-10.1861
以正	-10.1864
中置	-10.1868
為號	-10.1868
第七	-10.1872
而自	-10.1874
犯之	-10.1876
賊必	-10.1878
此法	-10.1885
算短	-10.189
攻圍	-10.1891
衆心	-10.1896
無敵	-10.1899
之法也	-10.1916
江東	-10.1919
當其	-10.1919
善用	-10.1922
要路	-10.1928
白茆	-10.1928
車之	-10.1936
因地	-10.1951
有伏兵	-10.1952
驍	-10.1952
故不	-10.1959
一城	-10.1964
不欲	-10.1971
有所不	-10.198
帥師	-10.199
戍守	-10.199
軍於	-10.1992
也敵	-10.1999
其説	-10.2
為我	-10.2006
則不	-10.2013
西魏	-10.2013
攻擊	-10.2016
大者	-10.202
散而	-10.2024
九尺	-10.2027
誤事	-10.2034
兵不	-10.2036
長城	-10.2045
慶厯中	-10.2045
前手	-10.2046
陶	-10.205
六合	-10.205
隊頭	-10.2052
罔	-10.2052
事宜	-10.2054
日入酉	-10.2054
介	-10.2054
乳	-10.2055
汾	-10.2056
陂	-10.2056
穆	-10.2056
敷	-10.2057
郤	-10.2057
競	-10.2058
憤	-10.2059
詩	-10.2059
飬	-10.206
葛	-10.206
潭	-10.2061
堆	-10.2061
巖	-10.2062
呐喊	-10.2062
丞	-10.2063
胷	-10.2063
亘	-10.2064
饋	-10.2064
租	-10.2064
晨	-10.2065
乂	-10.2065
所宜	-10.2066
院	-10.2066
廹	-10.2067
奎	-10.2068
醫	-10.2068
做	-10.2069
藩	-10.2069
熾	-10.2069
遣兵	-10.2069
鎚	-10.207
擬	-10.207
蠻夷	-10.2071
一戰	-10.2072
㨿	-10.2072
之物	-10.2073
繕	-10.2074
鎧	-10.2074
五人為伍	-10.2074
啟	-10.2075
毘陵	-10.2075
喧	-10.2075
跳盪	-10.2076
誕	-10.2076
而用	-10.2077
照前	-10.2078
蹄	-10.2079
炒	-10.2079
祖宗	-10.208
冷	-10.208
勇怯	-10.2082
賊勢	-10.2082
其名	-10.2083
易於	-10.2083
聨	-10.2085
大砲	-10.2085
一刻	-10.2093
孰為	-10.2094
於天下	-10.2094
約束	-10.2097
矣今	-10.21
藥線	-10.2103
則國	-10.2108
九軍	-10.2109
直陣	-10.2111
府治	-10.2114
火毬	-10.2115
垜口	-10.2116
五斤	-10.2116
兵備	-10.2129
力戰	-10.2137
鴛鴦陣	-10.2141
以制	-10.2141
三江	-10.2143
三十五里	-10.2153
三隊	-10.2158
其身	-10.2168
其所以	-10.2171
數百人	-10.2171
舟師	-10.2172
凡兵	-10.2178
地軸	-10.2187
東曰	-10.22
先據	-10.2202
周公	-10.2202
定州	-10.2203
其實	-10.2206
退走	-10.2206
官府	-10.2209
五十步	-10.2213
九年	-10.2221
行師	-10.2224
一座	-10.2225
員名	-10.2226
起火	-10.2239
不當	-10.2241
幟	-10.2243
二十五里	-10.2251
而易	-10.2255
二哨	-10.2258
七年	-10.2261
一則	-10.2268
可也	-10.2268
諸郡	-10.2268
三者	-10.2268
不定	-10.2269
為一隊	-10.2277
河南	-10.2279
所敗	-10.2292
不可擊	-10.2294
鄉兵	-10.2295
不聞	-10.2296
即便	-10.2304
方圓	-10.2305
之方	-10.2306
不惟	-10.2308
城上人	-10.231
王者	-10.2312
軍事	-10.2314
四時	-10.2326
而歸	-10.2327
各營	-10.2331
戰車	-10.2334
大驚	-10.2334
不可攻	-10.2359
輕兵	-10.2362
禦敵	-10.2367
而我	-10.2374
賊徒	-10.2377
為將者	-10.238
非有	-10.239
登髙	-10.2406
吳人	-10.2407
拐	-10.241
安營	-10.2411
鼎	-10.2413
陜	-10.2417
獠	-10.2417
暉	-10.2418
洞庭	-10.242
岐	-10.2422
溪洞	-10.2423
戰鬭	-10.2424
日出卯	-10.2424
蜂	-10.2425
膠	-10.2427
皷譟	-10.2428
柳	-10.2428
屏	-10.2428
墮	-10.243
燔	-10.243
鉄	-10.2431
寢	-10.2431
慰	-10.2432
股	-10.2432
託	-10.2433
煉	-10.2433
桀	-10.2434
縮	-10.2434
枯	-10.2434
讐	-10.2434
祿	-10.2436
吞	-10.2436
恨	-10.2437
罐	-10.2437
鵝	-10.2438
玠	-10.2438
渴	-10.2438
犒	-10.2438
惶	-10.2439
覽	-10.2439
篷	-10.2439
謬	-10.244
韶	-10.244
如山	-10.244
鋼	-10.2441
畱	-10.2441
隣	-10.2442
凝	-10.2442
幹	-10.2443
脇	-10.2443
馮	-10.2444
屍	-10.2444
膊	-10.2445
小者	-10.2447
村鋪	-10.2447
填星	-10.245
箱	-10.2451
無遺	-10.2454
腹心	-10.2456
如之何	-10.2456
老弱	-10.246
瞭望	-10.2461
所長	-10.247
揚州	-10.2472
用也	-10.2472
財物	-10.2472
以拒	-10.2475
或雲氣	-10.2477
恐其	-10.2478
左右前後	-10.2488
攻具	-10.2493
也太宗曰	-10.2501
尚書	-10.2505
白氣	-10.2511
傳曰	-10.2515
方色	-10.2526
於上	-10.2528
行令	-10.2535
星者	-10.2537
不得已	-10.2538
楚師	-10.255
所得	-10.2552
出洋	-10.2555
歩騎	-10.2559
於城上	-10.2562
常熟縣	-10.2566
千户所	-10.2568
聲勢	-10.2569
之家	-10.2576
為名	-10.2581
亦不能	-10.2586
縣地	-10.2586
陷陣	-10.2606
以應之	-10.2609
八里	-10.2615
士民	-10.2617
文王	-10.2621
計也	-10.2624
三十里北至	-10.263
兵家之	-10.2635
吳起	-10.2635
水口	-10.2635
下馬	-10.2645
萬餘人	-10.2651
入寇	-10.2653
急攻	-10.2653
在焉	-10.2654
拒守	-10.2654
四十里北至	-10.266
又云	-10.2668
十八里	-10.2671
之妙	-10.2677
戰死	-10.2696
加之	-10.2697
要衝	-10.2701
以禦	-10.2707
蝕	-10.271
彗星	-10.2713
以守	-10.2718
六七	-10.2731
俱在	-10.2732
紅旗	-10.2759
陣前	-10.2765
壬	-10.2766
以木	-10.2768
不可得	-10.2772
任之	-10.2773
是日	-10.2776
大而	-10.2776
利器	-10.2779
五方旗	-10.2784
十二里	-10.2795
南曰	-10.2796
至是	-10.2798
四宫	-10.2798
死戰	-10.28
入營	-10.2803
渤海	-10.2809
寓	-10.281
不齊	-10.2811
筆	-10.2812
洮	-10.2813
光弼	-10.2813
將校	-10.2814
盆	-10.2814
窩	-10.2816
鈔	-10.2817
氐	-10.2817
星在	-10.2817
棹	-10.2817
幅	-10.2817
滋	-10.2818
夔	-10.2819
礦	-10.2819
牝	-10.282
哀	-10.282
澹	-10.282
酌	-10.2821
揣	-10.2821
熬	-10.2822
槩	-10.2823
絕	-10.2823
天地風雲	-10.2823
伎	-10.2824
樁	-10.2825
簇	-10.2826
蘓	-10.2826
醋	-10.2827
縫	-10.2828
兵防考	-10.2828
日夜	-10.2828
黄石公	-10.2829
梗	-10.2829
拱	-10.283
撲	-10.2832
狂	-10.2834
暫	-10.2834
皇帝	-10.2835
倘	-10.2836
蠱	-10.2836
七宫	-10.2837
藤牌	-10.2838
犀	-10.2838
兵備道	-10.284
賊遂	-10.2849
紹興	-10.2853
大將囚	-10.2854
積聚	-10.2854
便宜	-10.2858
武進	-10.2867
有備	-10.2872
二名	-10.2873
㑹哨	-10.2877
日中	-10.2892
者敗	-10.2894
兵夫	-10.2902
布列	-10.2904
敵將	-10.2909
今後	-10.291
事機	-10.2913
安危	-10.2915
甕	-10.2917
而動	-10.2925
一十五里	-10.2926
施於	-10.2927
城堡	-10.2929
之謂	-10.2929
先後	-10.2932
左角	-10.2936
馬步	-10.2937
焚其	-10.2939
五方	-10.2957
難於	-10.2966
二州	-10.2967
海上	-10.2969
起而	-10.2973
前有	-10.2974
之險	-10.2976
元帥	-10.2983
水中	-10.2985
左軍	-10.2988
之備	-10.2992
習之	-10.2994
平地	-10.3001
士馬	-10.3005
賊已	-10.3012
復為	-10.303
狼兵	-10.3037
四正	-10.304
在軍	-10.3043
當道	-10.3046
者任	-10.305
四門	-10.3054
之令	-10.3058
出城	-10.3061
七星	-10.3064
城北	-10.3073
自固	-10.3084
逺來	-10.3097
一條	-10.3112
以竒	-10.3112
必無	-10.3123
軍馬	-10.3126
不免	-10.3132
三十人	-10.3135
也惟	-10.3146
二十二	-10.3154
六分	-10.3162
於中	-10.3168
新城	-10.3169
賊人	-10.3176
獄	-10.3177
一十八	-10.3181
前隊	-10.3182
之威	-10.3186
軍吏	-10.3197
諸沙	-10.3198
分遣	-10.3204
而止	-10.3204
尺寸	-10.3205
弝	-10.3205
阨	-10.3206
設弓兵四十名往來巡邏	-10.3206
契	-10.3207
外有	-10.3207
勘	-10.3211
戲	-10.3211
徼	-10.3212
艱	-10.3213
販	-10.3213
之圖	-10.3214
恥	-10.3214
稜	-10.3214
拏	-10.3215
腫	-10.3215
女真	-10.3215
攘	-10.3215
囂	-10.3215
窄	-10.3216
瞭	-10.3216
霹靂	-10.3216
苻堅	-10.3217
無復	-10.3217
縋	-10.3218
拾	-10.3218
濵	-10.3218
宴	-10.3218
尸	-10.3219
𠞰	-10.3219
圮	-10.3219
消息	-10.3219
鄙	-10.3219
邀擊	-10.322
如賊	-10.3221
晴	-10.3222
砍	-10.3223
髮	-10.3224
金瘡	-10.3225
須臾	-10.3226
胃	-10.3226
傔	-10.3226
地名	-10.3226
涕	-10.3227
澄	-10.3227
膝	-10.3229
河莊	-10.3229
甘草	-10.323
部署	-10.3231
胸	-10.3231
寫	-10.3231
震澤	-10.3232
泛	-10.3232
便利	-10.3232
勦	-10.3233
不應	-10.3236
埋伏	-10.3236
拆	-10.3237
夾擊	-10.3242
在此	-10.3244
而又	-10.3245
里西南至	-10.3246
精銳	-10.3247
飲食	-10.3251
晉侯	-10.3251
裙	-10.3252
民壯	-10.326
對樓	-10.3265
文王曰	-10.3266
遊擊	-10.327
待他	-10.327
四維	-10.3273
十兩	-10.3276
主挾	-10.3277
淮南	-10.328
丈餘	-10.3283
長江	-10.3287
獲其	-10.3289
不得輒	-10.3291
二十五人	-10.3302
僧兵	-10.3305
可行	-10.3309
務要	-10.3309
城週圍	-10.331
羊山	-10.3312
未得	-10.3314
官塘	-10.3314
凡軍行	-10.3316
徃來	-10.3316
軍器	-10.3324
敵樓	-10.3325
劉備	-10.3327
是時	-10.333
部曲	-10.3334
視之	-10.3335
先登	-10.3335
相拒	-10.3338
殺殺	-10.3342
而致	-10.3342
野利	-10.3344
擊大破之	-10.3346
調度	-10.3364
東路	-10.3364
遊軍	-10.3368
文武	-10.3369
數千人	-10.3369
其鋒	-10.3372
府州	-10.3374
不受	-10.3377
江中	-10.3383
令士卒	-10.3385
之事也	-10.3392
二三	-10.3394
官旗	-10.3397
敵者	-10.3397
利則	-10.3401
子儀	-10.3402
地户	-10.341
反間	-10.3414
若遇	-10.3414
或作	-10.3417
磚	-10.3422
則知	-10.3422
一年	-10.3427
大約	-10.3429
放砲	-10.3436
參將	-10.3437
豈可	-10.3448
水闗	-10.3454
大喜	-10.3458
賢人	-10.3472
决戰	-10.3473
亦多	-10.3474
此是	-10.3475
出而	-10.3492
不言	-10.3493
進步	-10.3497
在城	-10.35
餘級	-10.3505
天橋	-10.351
百五十	-10.3519
天雨	-10.352
當先	-10.3523
金鼔	-10.3526
事者	-10.3534
如此者	-10.3544
九十	-10.3552
東行	-10.3557
四角	-10.3563
誅之	-10.3564
餘衆	-10.3564
大洋	-10.3569
合而	-10.3571
不顧	-10.3574
以火	-10.3578
牙旗	-10.3579
立於	-10.3587
隨時	-10.3594
千九百	-10.3606
號為	-10.3608
人之所	-10.3609
忻	-10.3611
百歩	-10.3612
漢之	-10.3614
打下	-10.3615
矯	-10.362
電	-10.362
珍	-10.3622
矜	-10.3624
愼	-10.3624
訣	-10.3625
殄	-10.3625
萇	-10.3626
若賊	-10.3626
百九十	-10.3628
分為二	-10.3629
纒	-10.3629
邇	-10.363
綑打	-10.3633
十二年	-10.3633
汴	-10.3634
兔	-10.3634
氷	-10.3634
弇	-10.3635
榆	-10.3635
敏	-10.3635
喊	-10.3637
峙	-10.3637
刄	-10.3637
無有	-10.3637
植	-10.3638
蠟	-10.3638
鐸	-10.3638
見賊	-10.3638
嬰	-10.3639
煮	-10.364
神后	-10.3641
騐	-10.3642
婦女	-10.3642
蚩尤	-10.3642
含	-10.3643
羊馬城	-10.3645
駐劄	-10.3646
孝寛	-10.3647
㡬	-10.3647
矣此	-10.3648
鄉導	-10.3648
其情	-10.365
天上	-10.365
連珠	-10.3651
替	-10.3652
之精	-10.3654
兵大起	-10.3656
動静	-10.3657
妻子	-10.3658
右為末	-10.3659
治之	-10.3662
直符	-10.3663
鴈行	-10.3665
當以	-10.3667
滅之	-10.367
相望	-10.3675
吳越	-10.3676
器具	-10.3677
遁走	-10.3679
分數	-10.368
自此	-10.3683
三五	-10.3683
單騎	-10.3683
截殺	-10.3684
賊將	-10.3688
掩其	-10.369
日風從	-10.3694
不可也	-10.3695
等項	-10.3702
用人	-10.3703
招善	-10.3703
乃為	-10.3705
輕敵	-10.3706
樓船	-10.3708
成敗	-10.371
八錢	-10.3712
止於	-10.3712
强弩	-10.3722
言語	-10.3723
欲戰	-10.3729
金城	-10.3733
教習	-10.3736
一斗	-10.3737
縱兵	-10.3738
察其	-10.374
衆人	-10.3741
烽火	-10.3744
無疑	-10.3745
伍法	-10.3748
而天下	-10.3756
郡縣	-10.3765
半渡	-10.3771
可恃	-10.3775
軍餘	-10.3784
五錢	-10.3784
精神	-10.3786
四夷	-10.3789
斬其	-10.379
總督	-10.3797
擊賊	-10.3802
不滿	-10.3805
領兵官	-10.3805
十五日	-10.3811
一十五	-10.3819
不信	-10.3823
水寨	-10.3826
靈州	-10.3826
之難	-10.3832
子午	-10.3836
以利	-10.3836
城邑	-10.3836
不救	-10.3843
勒兵	-10.3847
備禦	-10.3855
東下	-10.3862
上用	-10.3869
之屬	-10.3871
相生	-10.3876
二十日	-10.3876
二郡	-10.3882
司馬法	-10.3882
將有	-10.3888
致其	-10.3889
者使	-10.3896
為方陣	-10.3904
已而	-10.3911
當敵	-10.3921
竹木	-10.3924
與我	-10.393
亦曰	-10.3935
夜間	-10.3941
襲之	-10.3943
人情	-10.3945
諸國	-10.3949
化州	-10.3952
個	-10.3953
土兵	-10.3954
六年	-10.3961
川州	-10.3962
唐置	-10.3965
人力	-10.3978
一營	-10.3981
迎敵	-10.3988
平安	-10.4001
郡守	-10.4012
七曰	-10.402
而求	-10.4025
則可以	-10.4026
譬	-10.4034
翔	-10.4036
其利	-10.4038
上海縣	-10.4041
分為三	-10.4043
從此	-10.4045
洲	-10.4047
羈	-10.4054
之䇿	-10.4056
而制	-10.4058
者乎	-10.406
苟	-10.4061
肘	-10.4062
緒	-10.4062
潢	-10.4063
闔	-10.4063
槌	-10.4063
來降	-10.4064
燥	-10.4064
䘮	-10.4064
晏	-10.4065
宰	-10.4065
舌	-10.4065
誡	-10.4065
竇	-10.4066
杵	-10.4066
汗	-10.4066
薦	-10.4066
鳳	-10.4067
姜	-10.4067
椒	-10.4067
曳	-10.4067
二縣	-10.4067
湏	-10.4068
而已矣	-10.4069
炎	-10.4069
炮	-10.407
六壬	-10.407
用間	-10.407
贅	-10.4071
喉	-10.4071
袤	-10.4072
舵工	-10.4072
管仲	-10.4073
捺	-10.4073
宇文	-10.4073
狼筅	-10.4074
綂領	-10.4075
撰	-10.4075
漿	-10.4075
頑	-10.4075
壩	-10.4076
銜	-10.4076
匱	-10.4076
戚	-10.4076
宮	-10.4077
頼	-10.4078
竄	-10.4078
壇	-10.4079
墟	-10.4079
坡	-10.4079
悖	-10.408
衆軍	-10.408
呼曰	-10.408
棘	-10.4081
樂毅	-10.4081
伯升	-10.4081
貸	-10.4081
絡	-10.4082
佩	-10.4082
休息	-10.4083
夾浦	-10.4083
焚劫	-10.4084
老鸛嘴	-10.4084
勿與戰	-10.4089
善戰者	-10.409
撫按	-10.4091
咒曰	-10.4096
步軍	-10.41
俄而	-10.4102
圓陣	-10.4102
三百人	-10.4104
㸃皷	-10.4105
河西	-10.4108
無失	-10.4108
四海	-10.4113
玉門	-10.4114
六軍	-10.4116
擊走之	-10.4116
逼近	-10.4116
車上	-10.4116
經畧	-10.4119
䇿應	-10.4121
以重	-10.4122
鎮撫	-10.4122
吳子	-10.413
長技	-10.4131
勇而	-10.4134
成化	-10.4135
用木	-10.4136
百四十	-10.4138
二隊	-10.4139
長五尺	-10.4144
令軍中	-10.4146
出沒	-10.4148
招安	-10.4151
右軍	-10.4151
之神	-10.4153
軍次	-10.4155
我也	-10.4157
洞子	-10.4159
十五里北至	-10.4161
赴之	-10.4163
一夜	-10.4171
隂謀	-10.4174
之兆	-10.4178
逺望	-10.4179
船隻	-10.418
之志	-10.4181
海岸	-10.4184
十名	-10.4187
矣夫	-10.4188
順風	-10.419
勇力	-10.4193
凡軍	-10.4193
教師	-10.4193
救援	-10.4197
出没	-10.4202
車戰	-10.4202
者可使	-10.4203
不窮	-10.4208
四萬	-10.4214
我以	-10.4221
本縣	-10.4222
用火	-10.4228
成都	-10.423
第九	-10.4231
冬至	-10.4238
見於	-10.424
舉火	-10.4243
宫外迫	-10.4243
正東	-10.4244
賊退	-10.4248
一尺五寸	-10.425
以為然	-10.4256
不可使	-10.4257
江陵	-10.4258
執旗	-10.4261
賢者	-10.4267
哨船	-10.4268
有喜	-10.427
攻敵	-10.4282
五兵	-10.4292
修築	-10.4306
後行	-10.4309
而反	-10.431
募兵	-10.4326
九里	-10.4326
可容	-10.4335
中京	-10.4336
五年	-10.434
行至	-10.4342
羈縻	-10.4343
軍政	-10.4363
大小將	-10.4363
十餘人	-10.437
營内	-10.4377
城樓	-10.4378
而作	-10.4385
晉人	-10.4389
入江	-10.4393
分守	-10.4403
一隻	-10.4409
可勝	-10.4411
南岸	-10.4424
利在	-10.4426
天罡加	-10.4429
四百里	-10.4433
二十三	-10.4444
未必	-10.4449
濱	-10.4476
青旗	-10.4476
海鹽	-10.4477
為賊	-10.4489
則我	-10.4489
以軍法	-10.449
改今名	-10.4493
戰于	-10.4493
破軍殺將	-10.4505
麗	-10.4506
日蝕	-10.4506
黔	-10.4508
遜	-10.4509
虐	-10.4509
哄	-10.451
罕	-10.4512
上風	-10.4512
㴱	-10.4513
豹	-10.4514
欠	-10.4516
隰	-10.4516
鍊	-10.4517
陀	-10.4517
鮮卑	-10.4517
溢	-10.4517
秉	-10.4518
蒸	-10.4519
三爿沙	-10.4519
夢	-10.4519
窟	-10.4519
莊宗	-10.4519
縦	-10.452
而遁	-10.4521
禹	-10.4521
潁	-10.4521
賔	-10.4521
奈何太公曰	-10.4523
劉裕	-10.4523
楯	-10.4524
顔	-10.4524
莒	-10.4525
掎角	-10.4525
賛	-10.4525
珠	-10.4526
龍虎鳥蛇	-10.4527
迺	-10.4527
其妙	-10.4527
窘	-10.4527
湧	-10.4527
賞罸	-10.4527
瀕	-10.4528
熖	-10.4528
舸	-10.4529
太陰	-10.4529
狥	-10.4529
鼈	-10.4531
矣一	-10.4531
脅	-10.4531
析	-10.4531
謁	-10.4532
谿	-10.4533
溧陽	-10.4533
英雄	-10.4533
父母	-10.4534
鬱	-10.4534
随	-10.4535
腸	-10.4535
論兵	-10.4536
綴	-10.4536
蕪湖	-10.4537
戰鋒隊	-10.4537
三丈浦	-10.4538
従	-10.4538
十三日	-10.4539
緝	-10.4539
譽	-10.454
匝	-10.4541
之謂也	-10.4541
仙芝	-10.4541
摘	-10.4542
𢎞治	-10.4542
琳	-10.4543
雇	-10.4545
磚石	-10.4545
羽林	-10.4547
之官	-10.455
三軍之衆	-10.455
客俱不利各宜固守主聞賊備	-10.4552
遠近	-10.4553
春汛	-10.4555
諸隊	-10.4558
戰守	-10.4561
人多	-10.4561
衣服	-10.4562
班師	-10.4569
南滙所	-10.4569
十二辰	-10.4571
存亡	-10.4571
同知	-10.4572
流矢	-10.4573
殿後	-10.4575
戰不	-10.4577
以次	-10.4583
日暮	-10.4584
賊路	-10.459
灌之	-10.4595
遂大敗	-10.4596
登明	-10.4596
渡江	-10.4596
萬里	-10.4605
四十里西至	-10.4608
束伍	-10.461
四十八	-10.4616
為第一	-10.4619
殺傷	-10.4628
即今	-10.4634
吳郡	-10.4641
興師	-10.4642
各該	-10.4648
本軍	-10.465
焚之	-10.4652
來援	-10.4653
趙王	-10.4657
以至	-10.4659
大臣	-10.4663
力不能	-10.4667
凡遇	-10.4667
未嘗不	-10.4673
求之	-10.4676
不敢近	-10.4677
四丈	-10.4686
結營	-10.469
屯於	-10.4694
雖然	-10.4696
其數	-10.4712
水火	-10.4713
則止	-10.4718
數里	-10.4726
凡軍中	-10.4727
鋭陣	-10.4727
無錫縣	-10.4728
放銃	-10.4728
速戰	-10.4735
當有	-10.4742
無形	-10.4742
法令	-10.4742
持重	-10.4744
提兵	-10.4745
歩兵	-10.4748
二百人	-10.4752
為五	-10.4752
占之	-10.4753
未易	-10.4759
全勝	-10.4759
以成	-10.4767
山路	-10.4772
奪之	-10.4778
雲中	-10.4779
宋時	-10.4779
四日	-10.478
莫若	-10.4786
然其	-10.4786
魏軍	-10.4794
繼之	-10.4797
各哨	-10.4797
則衆	-10.4802
部下	-10.4803
通計	-10.4813
軍節度	-10.4813
千萬	-10.4813
賊境	-10.4818
處所	-10.482
而成	-10.4831
既至	-10.4834
賊見	-10.4836
以觀其	-10.4842
七十餘	-10.4847
十五年	-10.4861
而趨	-10.4874
笑曰	-10.4877
將不	-10.4883
杭	-10.4884
成列	-10.4884
六陣	-10.4886
之卒	-10.4892
養兵	-10.49
前竒	-10.49
戰敗	-10.4905
鹽州	-10.492
之策	-10.4922
山口	-10.4923
赤氣	-10.4928
土地	-10.4932
大破	-10.4936
官一員	-10.4939
多而	-10.4943
六百里	-10.4948
八門	-10.495
諸将	-10.495
生於	-10.4952
則不能	-10.4963
袖	-10.4968
逐北	-10.4968
州西	-10.4969
左右各	-10.4979
齊人	-10.4981
小吉	-10.4986
迄	-10.4987
鈍	-10.4989
宏	-10.4991
牀	-10.4991
所獲	-10.4991
有無	-10.4992
梓	-10.4993
旱寨	-10.4994
敦	-10.4994
場	-10.4995
絙	-10.4995
閱	-10.4995
敖	-10.4995
刅	-10.4996
南城	-10.4996
攀	-10.4996
甫	-10.4996
磁	-10.4996
覩	-10.4996
以正合以竒勝	-10.4996
宋許洞撰	-10.4998
佛	-10.4998
社稷	-10.4999
宥	-10.4999
捐	-10.5
犇	-10.5
俯	-10.5
蠻界	-10.5
劇	-10.5001
倡	-10.5002
禾	-10.5002
尼	-10.5002
武經總要後集卷	-10.5002
勃	-10.5003
迥	-10.5003
不肖	-10.5003
萌	-10.5003
兎	-10.5003
捲	-10.5003
冝	-10.5004
沸	-10.5004
嚙	-10.5004
册	-10.5005
斧鉞	-10.5005
勺	-10.5005
彼衆我寡	-10.5006
邏	-10.5007
哨守	-10.5008
𨗳	-10.5008
第二層	-10.5009
絆	-10.501
御史	-10.501
逮	-10.501
為今之計	-10.5011
巢穴	-10.5012
輛	-10.5012
雉	-10.5014
許洞曰	-10.5014
瓊	-10.5015
左廂	-10.5015
茫	-10.5015
烏珠	-10.5015
庚申	-10.5015
鏢	-10.5015
酣	-10.5016
剉	-10.5016
腰刀	-10.5019
巡邏	-10.5021
曲阿	-10.5023
漁船	-10.5025
奔潰	-10.5026
乎曰	-10.5027
興兵	-10.5028
酋長	-10.5029
永樂	-10.503
四星	-10.5031
許浦	-10.5033
萬二千	-10.5037
可見	-10.504
京師	-10.5041
衞所	-10.5045
鎗刀	-10.5045
明徹	-10.5045
擊破之	-10.5048
吳淞江口	-10.5048
韓魏	-10.5049
甲申	-10.5052
倭患	-10.5052
武王	-10.5055
被圍	-10.5056
渭州	-10.5056
張良	-10.506
常鎮	-10.5061
子孫	-10.5062
秦之	-10.5064
曰我	-10.5067
有力	-10.5067
臨戰	-10.5076
往年	-10.5078
違令	-10.5079
人民	-10.5082
黑氣	-10.5085
築土	-10.5092
敵有	-10.5096
上京	-10.51
偏禆	-10.5103
日出	-10.5103
於我	-10.5104
巳午	-10.5108
算長和	-10.5111
積石	-10.512
奇正	-10.512
延州	-10.5125
數人	-10.5138
不盡	-10.5138
下令	-10.5139
逼城	-10.5141
必不能	-10.5147
遏賊	-10.5147
孔明之	-10.5153
軍民	-10.5154
髙山	-10.5154
徳安	-10.5156
據險	-10.5156
悉衆	-10.5159
敵衆	-10.5161
一説	-10.5167
相合	-10.5173
合於	-10.5177
不疑	-10.5179
大業	-10.5185
軍敗	-10.5187
前面	-10.5192
諸將皆	-10.5194
佐之	-10.5195
五十里至	-10.5197
别有	-10.5198
而勿	-10.5198
棄之	-10.5201
殺其	-10.5205
江淮	-10.5206
赴敵	-10.5218
先用	-10.5222
以前	-10.5225
勝光	-10.5232
安西	-10.5237
入境	-10.5238
滄	-10.5239
仍令	-10.524
哉故	-10.5241
南郡	-10.5244
人無	-10.5244
率騎	-10.5248
欲其	-10.5252
必使	-10.5253
隨其	-10.5253
木城	-10.5255
豈非	-10.5264
一切	-10.5265
綏州	-10.5267
前哨	-10.527
餘皆	-10.5272
副將	-10.5275
形者	-10.5276
而東	-10.5276
人持	-10.5276
克敵	-10.5298
居後	-10.5301
旗一面	-10.5318
行法人手執	-10.5319
咸平中	-10.5322
敢有	-10.5327
令軍	-10.5329
鳴者	-10.5332
夏州	-10.5334
其君	-10.5336
否則	-10.5337
倭賊	-10.5338
雄州	-10.5341
賊巢	-10.5346
已定	-10.5347
石門	-10.5349
公孫	-10.536
所屬	-10.5363
方營	-10.5365
以濟	-10.5366
趙軍	-10.5367
一船	-10.5369
皆斬	-10.5376
三百六十	-10.5376
堅固	-10.5382
許之	-10.5391
為首	-10.5394
兵有	-10.5395
其營	-10.5396
卒然	-10.5397
夜遁	-10.5404
數年	-10.5411
須用	-10.5419
保州	-10.5437
澧	-10.5438
勇敢	-10.5453
赤色	-10.5453
久之	-10.5464
之術也	-10.5466
立營	-10.5468
夏至	-10.5471
譟	-10.5473
鶴	-10.5482
諸部	-10.5482
硫	-10.5482
此所謂	-10.5482
牂牁	-10.5484
幣	-10.5486
普	-10.5486
固有	-10.5487
渦	-10.5487
月城	-10.5488
貞觀中	-10.5489
冐	-10.549
壮	-10.549
采	-10.5491
禽獸	-10.5492
禹貢	-10.5494
坊	-10.5494
匀	-10.5494
逕	-10.5494
諸葛	-10.5494
陣各	-10.5495
咽喉	-10.5495
宅	-10.5496
伸	-10.5497
搆	-10.5497
怖	-10.5498
江南經畧	-10.5498
懾	-10.5498
叫	-10.5498
邵	-10.55
天乙	-10.55
杓	-10.55
弭	-10.5502
秀	-10.5502
攅	-10.5502
竹箔沙	-10.5502
轉戰	-10.5503
育	-10.5503
喻	-10.5504
雀	-10.5504
彩	-10.5504
驍騎	-10.5505
徽	-10.5506
鈴	-10.5506
之境	-10.5506
麵	-10.5506
不到	-10.5507
鈐轄	-10.5507
家浜	-10.5507
弔	-10.5507
猫	-10.5508
遭	-10.5508
襟	-10.5508
璋	-10.5509
渡水	-10.5509
召募	-10.551
吉凶	-10.5511
呪	-10.5511
驚擾	-10.5511
撤	-10.5512
岑	-10.5513
湮	-10.5514
菜	-10.5514
武王曰善哉	-10.5514
退縮	-10.5514
是夜	-10.5515
懲	-10.5515
繪	-10.5516
融	-10.5516
行法人	-10.5516
噴筒	-10.5516
去處	-10.5517
醉	-10.5517
函	-10.5517
右廂	-10.5518
能制	-10.5519
千戸所	-10.5519
礬	-10.552
襄陽	-10.5521
礙	-10.5521
甲巳	-10.5522
疾病	-10.5523
不獨	-10.5523
髙歡	-10.5525
十里北至	-10.5527
挨牌	-10.5527
伏於	-10.5533
市舶	-10.5535
氣衰	-10.5545
夜五十	-10.5556
至于	-10.5557
出東方	-10.5563
前鋒	-10.5566
四季	-10.5566
聚散	-10.5572
所由	-10.5574
先令	-10.5589
雖多	-10.559
馬隆	-10.559
似宜	-10.5594
其死	-10.5595
某處	-10.5598
可擊也	-10.5607
用鐵	-10.5609
方畧	-10.5611
將李	-10.5613
城東	-10.5617
見則	-10.5623
布之	-10.5624
分為四	-10.5633
亦難	-10.5635
石湖	-10.5637
大總管	-10.5638
火發	-10.5644
者或	-10.5651
唐初	-10.5652
一枚	-10.5657
城池考	-10.5665
率師	-10.5669
有光	-10.5672
老營	-10.5674
乃退	-10.5681
縱之	-10.5683
絶其	-10.5684
以威	-10.5686
之憂	-10.5687
其西	-10.5689
行事	-10.569
移營	-10.5692
無忌	-10.5693
焉耳	-10.5697
以求	-10.5701
我欲	-10.5703
受之	-10.5708
則必	-10.5713
半兩	-10.5714
決勝	-10.5714
生鐵	-10.5727
引去	-10.5727
突入	-10.5731
不用命	-10.5735
賊掠	-10.5735
拔之	-10.5736
西曰	-10.5738
河陽	-10.5739
横行	-10.5741
之號	-10.5745
養之	-10.5748
三錢	-10.5757
有聲	-10.5759
西行	-10.5765
總兵官	-10.5765
一百三十	-10.5775
石頭	-10.5776
謀也	-10.5778
此書	-10.5778
每遇	-10.5785
前去	-10.5791
突至	-10.5793
寇至	-10.5794
紀效新書卷	-10.5797
士皆	-10.5798
而實	-10.5798
戰不勝	-10.5809
勝敵	-10.5809
同心	-10.581
皆用	-10.5818
去其	-10.5824
通行	-10.5831
非常	-10.5834
未見	-10.5835
天氣	-10.5839
不待	-10.5845
風起	-10.5846
援兵	-10.585
海塘	-10.5855
遼東	-10.5856
風勢	-10.5863
六十步	-10.5867
金壇	-10.5867
使敵人	-10.5874
者宜	-10.5874
數十萬	-10.5875
則易	-10.5875
將無	-10.5881
無他	-10.5884
不識	-10.5888
自守	-10.5893
收兵	-10.5893
一更	-10.5898
得地	-10.5901
北控	-10.5901
為盗	-10.5904
人君	-10.5913
未有不	-10.5921
學者	-10.5921
如風	-10.5924
俟賊	-10.5925
知兵	-10.5926
中黄	-10.5935
四步	-10.5938
不精	-10.5949
然也	-10.5951
一本	-10.5951
民間	-10.5955
以義	-10.5959
悞	-10.5967
兵無	-10.5969
敵陣	-10.5974
七百里	-10.5978
失於	-10.5978
五名	-10.5981
而得	-10.5981
二層	-10.5982
督兵	-10.5988
氣勢	-10.5993
蕃界	-10.5994
袍	-10.5995
也何也	-10.5995
趕	-10.5998
域	-10.6009
尋	-10.601
楓橋	-10.6012
至今	-10.6013
每營	-10.6013
腕	-10.6014
圜	-10.6015
虧	-10.6017
徧	-10.6017
彦章	-10.6018
龜兹	-10.6018
鎻	-10.6019
沃	-10.6019
誣	-10.6022
即此地	-10.6022
使彼	-10.6022
勇士	-10.6022
桄	-10.6022
胄	-10.6023
堯	-10.6023
飄	-10.6024
鍬	-10.6024
惇	-10.6024
钁	-10.6025
繚	-10.6025
況	-10.6025
他皆倣此	-10.6025
誦	-10.6026
昔者	-10.6026
評	-10.6027
粘	-10.6028
擂皷	-10.6028
百戰百勝	-10.6028
稅	-10.6029
饗	-10.6029
贊	-10.603
蛟	-10.603
蔓	-10.603
塵埃	-10.603
脈	-10.6031
政令	-10.6031
上將	-10.6031
稀	-10.6031
渚	-10.6032
妨	-10.6033
蕃部	-10.6035
勑	-10.6035
癸丑	-10.6035
爽	-10.6036
牙帳	-10.6038
棗	-10.604
戰棚	-10.6041
翎	-10.6041
煑	-10.6041
樓櫓	-10.6041
明戚繼光撰	-10.6042
日久	-10.6042
恣	-10.6043
頸	-10.6044
枉	-10.6044
紂	-10.6045
收拾	-10.6045
風濤	-10.6045
世忠	-10.6045
交趾	-10.6045
竹筒	-10.6046
添設	-10.6048
校尉	-10.6049
所為	-10.605
再拜	-10.605
不傳	-10.6051
提督	-10.6052
橛	-10.6053
八年	-10.6054
胥口	-10.6054
手法	-10.6056
安豐	-10.6056
一件	-10.6058
他若使一	-10.6059
六畜	-10.606
戒嚴	-10.6063
正北	-10.6065
百里西至	-10.6065
前校	-10.6065
焚掠	-10.6066
敗軍	-10.6068
長二丈	-10.607
不可測	-10.607
忠義	-10.6072
即墨	-10.6074
鳴鼓	-10.6075
福建	-10.6078
旋風	-10.6084
征伐	-10.6085
三門	-10.6087
倉卒	-10.6094
照依	-10.6096
七刻	-10.6096
大事	-10.6098
崇明縣	-10.6099
萬全	-10.61
數百里	-10.6103
失利	-10.6107
腹内	-10.6107
狼山	-10.6107
建議	-10.6109
者乃	-10.6112
老生	-10.6116
所轄	-10.6132
之資	-10.6135
未至	-10.614
第二陣	-10.6142
以戰	-10.6144
鎮江府	-10.6148
信義	-10.6149
涼州	-10.6151
凡三	-10.6152
須先	-10.6157
惟有	-10.6158
原設	-10.6165
二千人	-10.6166
長和	-10.6169
不固	-10.6174
旗色	-10.6176
突出	-10.6181
賊中	-10.6182
於天	-10.6193
火燒	-10.6199
本營	-10.62
等官	-10.6202
營法	-10.6204
戰法	-10.6205
嚴警	-10.6206
襲其	-10.6207
五隊	-10.6215
上游	-10.6216
陽縣	-10.6216
而觀其	-10.6219
於野	-10.6223
也雖然	-10.6225
為竒兵	-10.6225
隨身	-10.6225
得勝	-10.6226
一百里	-10.6226
險隘	-10.6228
為備	-10.623
二十七	-10.6231
先出	-10.6232
止則	-10.6233
驅之	-10.6233
有伏	-10.6242
乎靖曰	-10.6242
發火	-10.6245
之地也	-10.6247
亦必	-10.6254
色赤	-10.6255
所載	-10.6256
齊發	-10.6263
自安	-10.6264
士心	-10.6272
之節	-10.6275
每更	-10.6278
有雲如	-10.6278
一十里	-10.628
無得	-10.6281
有急	-10.6285
進戰	-10.6286
相克	-10.6289
麟州	-10.6292
兵出	-10.6294
臨事	-10.63
陳平	-10.63
伐之	-10.6304
吳王	-10.6306
運河	-10.6322
二刻	-10.6328
如何而	-10.6329
伏威	-10.6337
武進縣	-10.6346
郡漢	-10.635
其計	-10.6351
百四十里	-10.6353
領之	-10.6353
亦須	-10.6357
南抵	-10.6367
所過	-10.6368
傳報	-10.6372
旗號	-10.6376
臣謂	-10.6377
名為	-10.6377
賊寇	-10.6377
依次	-10.638
斷其	-10.6382
統兵	-10.6382
八九	-10.6383
陣者	-10.6383
所指	-10.639
進殺	-10.6394
三斤	-10.6399
矣乃	-10.64
合則	-10.6408
一根	-10.6408
有能	-10.6416
鎗手	-10.6419
此必	-10.6423
即為	-10.6424
一丈二尺	-10.643
知我	-10.643
善於	-10.6432
鎮海	-10.6437
言於	-10.6443
委官	-10.6448
燕趙	-10.6451
濮	-10.6457
大舉	-10.6457
勿使	-10.6458
一戰而	-10.6462
之才	-10.6464
伐木	-10.6467
日本	-10.6471
進則	-10.6477
歸路	-10.6483
之利害	-10.6485
雲氣如	-10.6493
三箇	-10.6495
覇	-10.6498
正南	-10.65
臨城	-10.6501
其禍	-10.6502
旗皷	-10.6504
有限	-10.6512
以東	-10.6516
擒斬	-10.6519
追至	-10.6529
安置	-10.6532
總論	-10.6533
屬之	-10.6536
之象也	-10.6538
明白	-10.654
報兵馬事	-10.655
仲逹	-10.6552
俟其	-10.6556
口中	-10.6562
砦在州西	-10.6567
滙	-10.6568
脆	-10.6569
佛狼機	-10.6571
皋	-10.6572
旂	-10.6572
悅	-10.6573
足下	-10.6573
案	-10.6574
琰	-10.6574
字圩	-10.6575
扞	-10.6575
天地風雲龍虎鳥蛇	-10.6575
訛	-10.6575
宋曾公亮等撰	-10.6575
千户一員	-10.6575
灼	-10.6576
高下	-10.6576
品	-10.6576
惟以	-10.6577
祗	-10.6577
播	-10.6577
兵甲	-10.6577
雌	-10.6578
蝎	-10.6578
吐谷渾	-10.6578
偉	-10.6578
懈怠	-10.6579
沔	-10.6579
崖	-10.6579
太公所謂	-10.6579
坦	-10.658
需	-10.658
綠	-10.658
北至界首	-10.658
筭	-10.658
顆	-10.6581
盾	-10.6581
戰袍	-10.6581
滎陽	-10.6582
棲	-10.6583
鼙	-10.6583
糠	-10.6583
餓	-10.6584
喫	-10.6584
賓	-10.6584
錡	-10.6584
滸墅	-10.6584
熙	-10.6585
鏁	-10.6586
兄弟	-10.6586
涪	-10.6587
肺	-10.6587
其謀	-10.6587
武侯問曰	-10.6587
元昊	-10.6587
毗	-10.6588
大小將迫	-10.6588
軰	-10.6589
北至界首約	-10.6589
忙	-10.659
舵	-10.659
菱	-10.659
摶	-10.6591
大刀	-10.6591
喬	-10.6591
址	-10.6591
堵	-10.6591
聚劫	-10.6591
噐	-10.6592
爐	-10.6592
晩	-10.6592
鑄	-10.6592
羊馬墻	-10.6593
控扼	-10.6593
晝則	-10.6594
盤詰	-10.6594
弓箭手	-10.6595
撚	-10.6595
仆	-10.6595
等謹案	-10.6596
夷狄	-10.6596
揚帆	-10.6596
襍	-10.6597
靠	-10.6597
喚	-10.6598
王世充	-10.6599
擄掠	-10.66
熈	-10.66
海濵	-10.6601
哨隊長	-10.6601
都指揮使	-10.6602
馳突	-10.6602
囬	-10.6602
硫黄	-10.6603
簳	-10.6604
恕	-10.6604
登陸	-10.6605
判官	-10.6606
汚	-10.6606
侯景	-10.6607
直抵	-10.6607
而言之	-10.6607
裨將	-10.6608
盛衰	-10.6609
明堂	-10.661
掌號	-10.6613
掌印官	-10.662
十六隊	-10.6623
田單	-10.6623
追奔	-10.6625
周旋	-10.6625
延陵	-10.6625
登泊	-10.663
知節	-10.663
楊舍	-10.6631
協守	-10.6631
腰牌	-10.6632
䕶塘	-10.6633
其義	-10.6633
斷絶	-10.6634
烟火	-10.6634
門戸	-10.6634
賞賜	-10.6636
持久	-10.6637
恐懼	-10.6643
器用	-10.6643
黄魚	-10.6644
字號	-10.6645
郡古	-10.6646
代之	-10.6649
莫知所	-10.6653
甚盛	-10.6654
即令	-10.6656
根本	-10.6657
霆	-10.666
如故	-10.6662
不起	-10.6664
文字	-10.6666
無光	-10.6666
塘報	-10.6667
伺其	-10.6667
我當	-10.667
相繼	-10.667
百戸	-10.6679
民兵	-10.6683
城壘	-10.6683
弱者	-10.6684
猶未	-10.6685
死矣	-10.6685
經云	-10.6686
攻取	-10.669
他人	-10.6693
京城	-10.6697
赤氣如	-10.67
其境	-10.6709
三才	-10.6716
引退	-10.6716
不濟	-10.6718
此所以	-10.6719
恐賊	-10.6721
如是則	-10.6728
不善	-10.6735
而設	-10.6739
者是	-10.6753
齊進	-10.6761
諸水	-10.6763
遇於	-10.6766
直衝	-10.677
賊復	-10.6774
死傷	-10.6777
不中	-10.6777
不覺	-10.6788
乎故	-10.6798
望之	-10.6801
白雲	-10.6806
相交	-10.6818
華亭縣	-10.682
濟河	-10.6827
詐為	-10.6834
五湖	-10.6841
襲我	-10.6844
北通	-10.6847
授之	-10.6848
土河	-10.6849
一官	-10.685
千百	-10.685
重賞	-10.6851
收其	-10.6857
其首	-10.6858
之恩	-10.6858
莫知	-10.6859
屯守	-10.6861
楚人	-10.6861
用之則	-10.6862
與其	-10.6864
而不敢	-10.6869
色着	-10.687
黑雲	-10.6872
寛大	-10.6875
不和主大將	-10.6876
一步	-10.6879
魏人	-10.688
各分	-10.6881
殺將	-10.6883
與諸將	-10.6885
止用	-10.6886
城西	-10.6886
則能	-10.6892
臣聞	-10.6895
而降	-10.6896
蘭州	-10.6897
三十六里	-10.6898
者雖	-10.6903
為界	-10.6903
同罪	-10.6904
與夫	-10.6906
堅陣	-10.6914
大隊	-10.6915
反是	-10.6916
北曰	-10.6918
上司	-10.6933
視其	-10.6936
于後	-10.6938
未决	-10.6946
也盖	-10.6946
策也	-10.6951
人家	-10.6955
守禦人	-10.6955
其舟	-10.6962
騎士	-10.6963
長洲縣	-10.6965
神明	-10.6967
得失	-10.6967
水關	-10.6968
一身	-10.6981
克之	-10.6981
先發	-10.6985
朔州	-10.6985
十三里	-10.6989
有警急	-10.6998
之西	-10.6998
夜四十	-10.6999
下流	-10.7
决勝	-10.7007
恐有	-10.701
未發	-10.7014
心也	-10.7016
可用也	-10.7018
秦人	-10.7021
八兩	-10.7025
水利	-10.7032
旺	-10.7044
週圍	-10.7044
賞銀	-10.7052
火門	-10.7052
大星	-10.7052
轄	-10.7053
也又曰	-10.7055
白茒	-10.706
直入	-10.7063
散地	-10.7066
戎馬	-10.707
遇有警	-10.7074
師次	-10.7075
谷口	-10.7075
先動	-10.7076
賊大敗	-10.7079
十三年	-10.7082
無風	-10.7082
戰無	-10.7083
處置	-10.7086
以竹	-10.709
出竒兵	-10.709
孟瀆	-10.7091
使不得	-10.7093
莫如	-10.7094
誘之	-10.7094
以車	-10.7094
未盡	-10.7098
兩軍相	-10.7101
全軍	-10.7103
之首	-10.7104
所臨之	-10.7105
察之	-10.7107
宫格	-10.711
古城	-10.7113
十丈	-10.7119
推之	-10.7123
乃止	-10.7136
崑	-10.714
軍糧	-10.7141
敵情	-10.7141
駟	-10.7143
日暈有	-10.7144
千四百	-10.7147
蔣	-10.7151
祥符中	-10.7152
園	-10.7154
者同	-10.7154
焙	-10.7156
苻	-10.7157
澱山湖	-10.716
銷	-10.716
帖	-10.7162
耿	-10.7163
蔑	-10.7163
㳺	-10.7163
後竒	-10.7164
霍	-10.7164
井陘	-10.7164
太白隂經	-10.7164
令行	-10.7164
薊	-10.7164
鷹	-10.7165
織	-10.7165
厮	-10.7166
摔鈸響	-10.7167
栗	-10.7167
雅	-10.7167
范蠡	-10.7167
澱	-10.7167
上施	-10.7168
將發	-10.7169
區區	-10.717
吾之	-10.717
潔	-10.7171
烏桓	-10.7171
劉家港	-10.7172
也昔	-10.7172
賁	-10.7172
斛	-10.7172
球	-10.7173
竒功	-10.7174
餅	-10.7174
罸	-10.7176
麪	-10.7176
一百三十里	-10.7176
鋸	-10.7176
脉	-10.7177
墅	-10.7177
鬪	-10.7178
雋	-10.7178
七千五百	-10.7179
後漢末	-10.7179
閔行	-10.7179
彎	-10.7179
寒暑	-10.7179
有雲	-10.718
冗	-10.718
佞	-10.718
營前沙	-10.718
本港	-10.7181
各自	-10.7181
笠	-10.7182
如愚見	-10.7182
比較	-10.7182
閩	-10.7182
滯	-10.7182
牛羊	-10.7183
蹤	-10.7183
縣境考	-10.7183
秣	-10.7183
擎	-10.7183
蛇蟠	-10.7184
崗	-10.7184
扁	-10.7185
牟	-10.7186
叱	-10.7186
礁	-10.7189
粒	-10.7189
壬癸	-10.719
東西南北	-10.719
階	-10.719
阡能	-10.7191
謨	-10.7191
驚潰	-10.7194
蹲	-10.7196
制敵	-10.7196
筈	-10.72
髙麗	-10.7201
矣但	-10.7204
倣此	-10.7206
勞苦	-10.7206
擾亂	-10.7206
漢武	-10.7208
沿江	-10.7209
子弟	-10.721
之類是也	-10.721
淮隂	-10.7212
之可也	-10.7213
廣狹	-10.7213
宜令	-10.7215
奏請	-10.7216
遊騎	-10.7217
右角	-10.7218
你們	-10.7222
即將	-10.7229
青邨所	-10.7229
觀望	-10.7231
無法	-10.7234
偃旗	-10.7235
刑賞	-10.7237
擊賊於	-10.7242
木柵	-10.7244
嵗月	-10.7246
三百步	-10.7252
裏壕	-10.7252
數千里	-10.7253
施放	-10.7253
而發	-10.7255
智勇	-10.7256
女子	-10.726
一大	-10.7268
即須	-10.7269
雨水	-10.7271
九地	-10.7281
此五者	-10.7281
彼之	-10.7284
▁(	-10.7285
各照	-10.7285
大率	-10.7287
擒獲	-10.7291
中心	-10.7295
以誘之	-10.7298
或雲氣如	-10.73
之善	-10.7303
四千人	-10.731
陷于	-10.7312
東出	-10.7312
乘馬	-10.7313
令軍士	-10.7314
以刑	-10.7318
之右	-10.732
營前	-10.7321
親兵	-10.7322
大斧	-10.7322
而言	-10.7329
四刻	-10.7332
其權	-10.7334
失事	-10.7334
三竒	-10.7337
之門户	-10.7341
淮安	-10.7341
小陣	-10.7341
水泉	-10.7342
乃以	-10.7349
監軍	-10.7353
二軍	-10.7358
日旁	-10.7359
登山	-10.7359
不順	-10.7361
三國	-10.7362
以禦之	-10.7364
而待	-10.7365
城夫	-10.7365
流突	-10.7366
慮其	-10.7368
二也	-10.737
不致	-10.7372
沙民	-10.7375
乘間	-10.7378
巡檢司	-10.738
相兼	-10.7382
四哨	-10.7385
羈縻州	-10.7386
諫曰	-10.7388
中外	-10.7392
先主	-10.7396
曰善	-10.7398
必矣	-10.7399
敵雖	-10.74
八曰	-10.7406
一朝	-10.7408
以順	-10.7417
威武	-10.7418
一卷	-10.742
深一丈	-10.7427
長一尺	-10.7436
而為之	-10.7436
相機	-10.744
待敵	-10.7442
常有	-10.7459
東晉	-10.7461
曲陣	-10.7462
義也	-10.7466
得志	-10.7466
向外	-10.7468
家口	-10.7473
舊法	-10.7477
數萬人	-10.7482
萬騎	-10.7482
合無	-10.7487
而行之	-10.7489
敎戰	-10.7489
兩手	-10.749
督戰	-10.7495
色青	-10.7498
彼必	-10.7502
不可輕	-10.7503
俱發	-10.7508
為中軍	-10.7511
打一	-10.752
吾欲	-10.7524
北風	-10.7531
憚之	-10.7533
郢	-10.7543
填壕	-10.7544
之位	-10.7546
各沙	-10.755
無能	-10.7557
人數	-10.756
行止	-10.7567
二隻	-10.7567
夜襲	-10.7578
急出	-10.7579
建州	-10.758
之期	-10.7586
下施	-10.7586
方面	-10.7589
方許	-10.7593
敵來	-10.761
拒戰	-10.7611
先遣	-10.7615
其外	-10.7622
六千人	-10.763
而死	-10.7644
者名曰	-10.7644
星曰	-10.7649
何能	-10.765
之論	-10.7657
而民	-10.7657
遇夜	-10.7665
戰不利	-10.7666
一法	-10.7666
亡地	-10.7693
中路	-10.7696
一尺二寸	-10.7698
鴛鴦	-10.7701
以西	-10.7703
各隊	-10.7708
十字	-10.7714
正道	-10.7718
禦寇	-10.772
向後	-10.7721
雷霆	-10.7721
一百六十里	-10.7722
答曰	-10.7723
地多	-10.7723
在地	-10.7726
三十步	-10.7728
黄色	-10.7735
一伍	-10.7738
至夜	-10.7752
家港	-10.7754
齊力	-10.7758
四十餘	-10.7761
倣	-10.7762
且如	-10.7763
乘我	-10.7763
者天	-10.7766
車馬	-10.7766
一百四十	-10.7766
腐	-10.7767
相傳	-10.7771
嵐	-10.7773
兵多	-10.7775
敵營	-10.7776
豨	-10.7776
註	-10.7777
各令	-10.7778
誑	-10.7779
圖原闕	-10.7782
萊	-10.7782
孫臏	-10.7784
尤為	-10.7785
床	-10.7786
潘	-10.7786
耆	-10.7786
沛	-10.7786
党項	-10.7786
拓	-10.7787
兄	-10.7787
僑	-10.7788
蹶	-10.7788
新竈沙	-10.7789
穢	-10.7789
䟽	-10.779
纏	-10.779
桔	-10.7791
贖	-10.7792
李勣	-10.7792
歳	-10.7792
軍上氣	-10.7793
擣	-10.7793
嗣源	-10.7793
郵	-10.7793
羗	-10.7794
貽	-10.7794
以此為	-10.7794
陽城湖	-10.7795
廉	-10.7795
挈	-10.7795
鮎魚口	-10.7795
欒	-10.7796
瞰	-10.7796
糾	-10.7796
攜	-10.7796
逞	-10.7796
率精騎	-10.7797
像	-10.7797
葑門	-10.7797
渇	-10.7797
奥	-10.7797
鑑	-10.7797
其才	-10.7797
巡檢	-10.7798
孚	-10.7798
屑	-10.7798
戀	-10.7798
斥堠	-10.7798
諠譁	-10.7799
殱	-10.7799
㸔	-10.78
里界首北至契丹界無鋪	-10.78
南至州	-10.78
祀	-10.78
隋開皇	-10.78
駒	-10.78
窠	-10.78
舜	-10.7801
百萬之衆	-10.7801
迤	-10.7802
擔	-10.7802
翟	-10.7802
丙午	-10.7803
奢	-10.7803
商英	-10.7804
燈籠	-10.7804
寳山寨	-10.7804
批	-10.7804
肚	-10.7804
女墻	-10.7804
紀律	-10.7804
秩	-10.7805
六丙	-10.7805
陡	-10.7805
轂	-10.7805
敬業	-10.7805
綵	-10.7806
烽堠	-10.7806
攙	-10.7806
笛	-10.7806
淳	-10.7806
澁	-10.7806
荷	-10.7807
俞	-10.7807
梟	-10.7809
財帛	-10.7809
耐	-10.781
羣盜	-10.781
砒	-10.7812
蟠	-10.7813
曉諭	-10.7813
怕	-10.7814
戊午	-10.7814
唇	-10.7815
閶門	-10.7815
可汗	-10.7816
隴右	-10.7817
住劄	-10.7817
用兵之道	-10.7817
懐恩	-10.7817
刑罰	-10.7818
甲胄	-10.7819
春夏	-10.782
加季	-10.7823
善守者	-10.7823
巡撫	-10.7825
巡哨	-10.7826
在縣治東	-10.7826
錢糧	-10.7831
不思	-10.7831
七鴉港	-10.7832
挨次	-10.7834
遊都	-10.7835
茶山	-10.7835
向下	-10.7837
車駕	-10.7839
野戰	-10.784
若夫	-10.7842
追逐	-10.7844
一般	-10.7844
教練	-10.7845
與人	-10.7846
熟鐵	-10.7848
望樓	-10.7849
右竒	-10.785
為最	-10.785
三泖	-10.7851
甲辰	-10.7851
法度	-10.7852
兩傍	-10.7855
孫士	-10.7856
敗賊於	-10.7856
以當	-10.7858
信也	-10.7863
向敵	-10.7863
之智而	-10.7864
父子	-10.7864
後殿	-10.7865
周浦	-10.7865
此又	-10.7866
反覆	-10.7866
王相	-10.7868
夢見	-10.7869
宣王	-10.787
待彼	-10.7872
愚謂	-10.7873
北抵	-10.7874
之聲	-10.7874
掩擊	-10.7878
蒼山	-10.788
本職	-10.7885
悞事	-10.7886
一百名	-10.7887
刀鎗	-10.7888
德威	-10.7891
接應	-10.7894
文帝	-10.7895
久矣	-10.7896
敵人必	-10.7898
等兵	-10.7899
少林	-10.79
風潮	-10.79
飛龍	-10.7902
或從	-10.7907
陳湖	-10.7907
每嵗	-10.7908
常州府	-10.791
火兵	-10.7911
胡騎	-10.7919
先驅	-10.7933
金銀	-10.7933
失機	-10.7935
勁兵	-10.7938
左竒	-10.7939
散走	-10.794
施設	-10.7942
木時	-10.7943
官司	-10.7946
攻打	-10.7947
兩陣	-10.7948
二萬人	-10.7952
五刻	-10.7953
山下	-10.7955
部隊	-10.7955
甚易	-10.7957
一隅	-10.7957
五音	-10.7966
火時	-10.7971
道宗	-10.7973
内附	-10.7975
七軍	-10.798
而後可	-10.798
所以能	-10.7993
奔北	-10.8
又復	-10.8
彼我	-10.801
如遇	-10.8013
閉門	-10.8016
城裏	-10.8017
内應	-10.8022
屯戍	-10.8022
器也	-10.8029
之利也	-10.804
去就	-10.8045
毒藥	-10.8046
信之	-10.8046
不重	-10.8046
舉動	-10.8047
乘勢	-10.805
有奇	-10.805
秦軍	-10.8051
馳入	-10.8057
輕車	-10.8069
以犯	-10.8071
安得	-10.8076
旛	-10.8077
二百五十里	-10.8086
長牌	-10.8088
衆多	-10.8094
若從	-10.8095
擊鼓	-10.8095
也茍	-10.8106
迎之	-10.8108
三十餘	-10.811
知敵	-10.811
士卒皆	-10.8112
至若	-10.8113
俱要	-10.8135
追及	-10.8138
按兵	-10.8139
以權	-10.814
三等	-10.8147
鎗頭	-10.8147
感其	-10.8148
而戰	-10.8149
甲午	-10.815
即日	-10.8158
發矢	-10.8159
盡數	-10.8168
定海	-10.8171
不易	-10.8173
不可當	-10.8174
晉軍	-10.8184
兵憲	-10.8185
有衆	-10.8187
之時也	-10.8191
漢兵	-10.8195
靖曰臣	-10.8198
亡國	-10.8201
西安	-10.8213
舊城	-10.8215
五月賊	-10.8228
八陣圖	-10.8229
出塞	-10.823
相視	-10.8236
術也	-10.8239
四望	-10.8254
以上者	-10.8257
北面	-10.8258
北至契丹界	-10.8258
外國	-10.827
環州	-10.827
近城	-10.8284
每船	-10.8289
先將	-10.8289
法制	-10.829
所置	-10.8293
敗績	-10.83
内迫	-10.831
尚未	-10.8316
無異	-10.8319
三代	-10.832
軍伍	-10.832
呉淞	-10.8326
乎夫	-10.8329
五部	-10.8338
三枝	-10.8342
治兵	-10.8343
丙辰	-10.8345
或謂	-10.8358
大懼	-10.8372
翦	-10.8373
在野	-10.8375
杜塞無門	-10.838
中校	-10.8382
望其	-10.8384
大家	-10.8387
從中	-10.84
無禮	-10.8402
戰鬬	-10.8402
追賊	-10.8407
人之心	-10.841
来攻	-10.8422
十隻	-10.8425
咒	-10.8429
慶州	-10.8431
陣之法	-10.8431
仲達	-10.8432
并州	-10.8433
水門	-10.8434
欄	-10.8441
杆	-10.8444
揭	-10.8445
兖	-10.8445
聘	-10.8446
岢嵐	-10.8446
三郡	-10.8447
踢	-10.8447
幔	-10.8449
瑕	-10.845
角木蛟	-10.845
廻	-10.8451
鼠	-10.8451
羨	-10.8452
神鎗	-10.8452
天文總論曰	-10.8453
竝	-10.8453
未戰	-10.8453
罩	-10.8453
不失其	-10.8455
擢	-10.8456
話	-10.8456
父母妻子	-10.8457
千餘里	-10.8457
軒轅	-10.8458
蠡口	-10.8458
奠	-10.8458
坂	-10.8458
衆寡不敵	-10.8458
苑	-10.8459
筌	-10.8459
鬚	-10.8459
狃	-10.8459
範	-10.8459
鄢	-10.8459
壑	-10.8459
矛㦸	-10.846
軍法示衆	-10.846
繇	-10.846
莫大於	-10.846
鵞	-10.846
𢷬	-10.8461
駿馬	-10.8461
鏜	-10.8461
潞	-10.8461
鱗	-10.8461
㳂	-10.8462
悲	-10.8462
鶻	-10.8462
深入敵境	-10.8462
頒	-10.8462
張士誠	-10.8462
糊	-10.8463
不繼	-10.8463
每堠另設瞭守弓兵五名	-10.8463
善射	-10.8464
鎭	-10.8464
麓	-10.8464
茲	-10.8464
蔡公	-10.8464
鵲	-10.8464
二十人	-10.8464
藁	-10.8464
何辯之葢	-10.8465
徤	-10.8465
羆	-10.8465
鈞	-10.8465
嘶	-10.8466
昀	-10.8466
舷	-10.8466
週	-10.8466
公孫𢎞	-10.8466
艇	-10.8466
倭舶	-10.8466
廩	-10.8467
店	-10.8467
徭	-10.8468
己酉	-10.8469
􁁜	-10.8469
汰	-10.8469
魚麗	-10.8469
匪	-10.8469
瓜	-10.8469
嘉靖甲寅	-10.8469
涸	-10.8469
啖	-10.847
扺	-10.847
西域	-10.847
吟	-10.847
緯	-10.847
新洋江	-10.847
糜	-10.847
淘	-10.8471
祜	-10.8471
禱	-10.8472
慘	-10.8472
錠	-10.8472
真宗	-10.8472
靖康	-10.8472
戢	-10.8472
淮揚	-10.8473
且戰且	-10.8474
講武	-10.8474
航	-10.8474
䭾	-10.8475
詢	-10.8475
傑	-10.8476
犂	-10.8476
富貴	-10.8476
去西京	-10.8477
四兩八錢	-10.8477
各置	-10.8477
繆	-10.8477
􁴖	-10.8478
武經總要	-10.8479
險要說	-10.8479
昻	-10.848
正統	-10.848
颶風	-10.848
舉白旗	-10.8481
角聲絶	-10.8481
子通	-10.8482
膂	-10.8482
一萬二千五百	-10.8483
浜	-10.8483
欽定四庫全書子部二	-10.8484
謂諸將曰	-10.8484
合而為一	-10.8484
糧餉	-10.8485
甲戌	-10.8485
譚	-10.8485
轉運	-10.8486
百里北至	-10.8488
互市	-10.8491
也如	-10.8491
仲文	-10.8492
外營	-10.8493
嚴肅	-10.8493
而爲	-10.8494
協力	-10.8494
團結	-10.8495
金帛	-10.8496
包港	-10.8497
遲速	-10.8498
驚駭	-10.8499
擺開	-10.8503
起對曰	-10.8504
靈武	-10.8506
漲天	-10.8506
長八尺	-10.8508
白虹	-10.8509
縣之	-10.8509
牽制	-10.8511
門旗	-10.8511
軍上氣如	-10.8514
偏師	-10.8514
覇州	-10.8514
長六尺	-10.8518
真義	-10.852
要在	-10.8521
彊弱	-10.8521
禍福	-10.8524
旬日	-10.8525
數倍	-10.8527
兩岸	-10.8529
其黨	-10.853
正道也	-10.853
三十五	-10.8532
火星	-10.8534
被傷	-10.8536
衛青	-10.8538
陳規	-10.8538
非吾	-10.854
長史	-10.8541
建德	-10.8544
左右翼	-10.8546
登犯	-10.8546
投之	-10.8547
羣臣	-10.8549
性命	-10.8552
擊刺	-10.8553
行儉	-10.8553
吏卒	-10.8555
騎隊	-10.8555
大石	-10.8558
而亡	-10.8558
橋梁	-10.8561
所管	-10.8563
呉起	-10.8566
示弱	-10.8568
太逺	-10.8571
鋭卒	-10.8573
王翦	-10.8575
飛報	-10.858
未及	-10.8581
急擊	-10.8601
六刻	-10.8603
十四日	-10.8603
放箭	-10.8604
成擒	-10.861
晉王	-10.8614
于是	-10.8617
兵衆	-10.8617
全隊	-10.8634
選兵	-10.8635
陣内	-10.8637
當視	-10.8637
將佐	-10.8639
洋山	-10.8644
造船	-10.8647
天王	-10.8656
火炬	-10.8659
散亂	-10.8668
神機	-10.8669
約二十里	-10.8671
秦師	-10.8673
校上	-10.8677
孔明八陣	-10.8679
二百步	-10.8679
山澤	-10.8691
大寒	-10.8693
藍旗	-10.8694
并力	-10.8697
救火	-10.8697
者是也	-10.87
統軍	-10.8706
髙橋	-10.8709
其術	-10.8713
三刻	-10.8715
十餘日	-10.8717
北邊	-10.8719
制陣	-10.872
良相	-10.8721
時刻	-10.8721
敵騎	-10.8724
修城	-10.8726
保長	-10.8731
四十里至	-10.8733
小舟	-10.8738
保甲	-10.875
示衆	-10.8759
運糧	-10.8763
二枝	-10.877
差人	-10.8772
懷逺	-10.8773
計謀	-10.8775
賊由	-10.8781
二十里南至	-10.8783
觀敵	-10.8785
相剋	-10.8786
數月	-10.8791
木石	-10.8794
三十三	-10.8795
蘇常	-10.8797
十數	-10.8809
强者	-10.8819
白氣如	-10.882
姦人	-10.882
相見	-10.8826
相守	-10.8835
青海	-10.8836
十箇	-10.8838
合為一	-10.884
江湖	-10.884
一百六十	-10.8842
向上	-10.8844
謂之曰	-10.8845
三次	-10.8848
旗旛	-10.8867
陳兵	-10.8868
擊之賊	-10.8873
如鳥	-10.8879
據之	-10.8879
三司	-10.889
警備	-10.8899
者亦斬	-10.89
便可	-10.8904
涿	-10.8904
計之	-10.8916
故地	-10.8918
失之	-10.892
隨軍	-10.8923
臣下	-10.8932
不獲	-10.8934
三十日	-10.8939
不問	-10.8948
必經	-10.895
刀曰	-10.8952
西戎	-10.8966
欲知	-10.8969
所執	-10.897
甕城	-10.8981
不均	-10.8984
為先鋒	-10.8987
将軍	-10.8989
小民	-10.9
二步	-10.9005
討賊	-10.9006
柘林賊	-10.9018
二百八十	-10.9025
置砦	-10.903
亦不得	-10.9045
也所謂	-10.9057
門户	-10.9059
小人	-10.9063
為患	-10.9065
以後	-10.9066
一千五百	-10.9067
以充	-10.9067
我亦	-10.9073
利于	-10.9078
四十九	-10.9082
海州	-10.9084
伍長	-10.9086
生路	-10.9091
在彼	-10.9103
數重	-10.9122
丙丁	-10.9123
今置	-10.9131
諸將曰	-10.9133
東通	-10.9134
蠡	-10.9139
嚴備	-10.914
之至也	-10.9142
峰	-10.9145
勿用	-10.9146
賜今名	-10.9149
摩訶	-10.9149
掌印	-10.915
受其害	-10.915
鴉	-10.9154
熟戸	-10.9156
聽用	-10.9159
聰	-10.9162
札	-10.9163
淹	-10.9163
齋	-10.9163
䕫	-10.9163
宋信嘴	-10.9165
砦在縣東	-10.9167
嗣昭	-10.9168
裴緒	-10.9168
拙	-10.9168
桐	-10.9169
泖湖	-10.9169
蟻附	-10.9169
瑋	-10.9169
弼	-10.9169
撩	-10.917
肋	-10.917
蹂踐	-10.9171
茶	-10.9171
男女	-10.9171
舊有	-10.9172
淤	-10.9172
銕	-10.9172
枹	-10.9172
敲	-10.9173
縻	-10.9173
虢	-10.9173
丙寅	-10.9173
宇	-10.9174
綘	-10.9175
吁	-10.9175
遊奕	-10.9175
腋	-10.9175
䖏	-10.9176
嗟乎	-10.9176
證	-10.9176
鄯州	-10.9176
刈	-10.9176
蒿	-10.9177
㗖	-10.9177
濤	-10.9177
逈	-10.9177
辟	-10.9178
濱海	-10.9178
翊	-10.9178
戌亥	-10.9178
郷	-10.9178
姬	-10.9179
諌	-10.9179
僅以身免	-10.9179
模	-10.9179
郭子儀	-10.9179
須令	-10.9179
杏	-10.918
十分一萬二千五百	-10.918
死生	-10.918
圯	-10.918
堞	-10.9181
擊客算	-10.9181
斾	-10.9181
鐘	-10.9181
玊	-10.9181
抄掠	-10.9181
票	-10.9181
譁	-10.9181
庇	-10.9182
兌	-10.9182
奕	-10.9182
牽牛	-10.9182
穏	-10.9182
樞	-10.9183
燬	-10.9184
瑊	-10.9184
秋糧米	-10.9184
裴	-10.9184
皆其信地	-10.9185
潦	-10.9185
乾姜	-10.9185
甃	-10.9185
捍海塘	-10.9185
罵	-10.9185
幢	-10.9186
泒	-10.9186
鬆	-10.9186
碍	-10.9186
吃	-10.9186
㢘	-10.9187
賀魯	-10.9187
耗	-10.9188
站	-10.9188
燎	-10.9188
謂人樂	-10.9189
晙	-10.9189
无	-10.919
舉青旗	-10.919
操演	-10.919
絞車	-10.919
潼關	-10.9191
四肢	-10.9192
叩	-10.9192
濫	-10.9192
疎虞	-10.9193
濛	-10.9193
孫呉	-10.9193
在縣治東南	-10.9194
握奇	-10.9195
遮蔽	-10.9195
附郭	-10.9195
戶	-10.9195
瘴	-10.9195
高祖	-10.9196
鐙	-10.9196
開闔	-10.9196
煜	-10.9197
艱難	-10.9197
㢲	-10.9197
魚腹	-10.9199
採探	-10.9199
鑽	-10.9199
擇其	-10.9199
臨日辰	-10.92
口舌	-10.9201
當其衝	-10.9201
月十六日	-10.9201
網船	-10.9203
建業	-10.9204
之義也	-10.9204
擂鼓	-10.9204
張煜	-10.9207
措置	-10.9207
浮橋	-10.9208
奮勇	-10.921
尤甚	-10.9212
遁出海	-10.9213
世祖	-10.9214
嶼	-10.9214
糧運	-10.9216
吾三軍	-10.9218
處分	-10.9222
割耳	-10.9222
照舊	-10.9223
取首級	-10.9223
各隨	-10.9225
火入	-10.9227
從魁	-10.9227
向裏	-10.9228
六十四陣	-10.9231
戮力	-10.9233
虜掠	-10.9233
渭南	-10.9233
之助	-10.9235
衆十萬	-10.9236
巡視	-10.9238
周禮	-10.9239
空虚	-10.9239
齊侯	-10.9248
應天	-10.9249
應募	-10.925
次日	-10.9253
元帝	-10.9257
幾何	-10.9257
素書	-10.9261
宣言	-10.9263
倭船	-10.9269
皂旗	-10.9269
彊弩	-10.927
銳士	-10.9271
用兵之法	-10.9271
長三尺	-10.9273
豐州	-10.9274
繼進	-10.9275
半濟	-10.9277
二部	-10.928
曲直	-10.9281
何益	-10.9282
若曾	-10.9285
生員	-10.9286
為前鋒	-10.9287
給賞	-10.929
民力	-10.9291
審察	-10.9295
氣象	-10.9296
奔衝	-10.9296
砦城	-10.9301
修復	-10.9303
陸門	-10.9304
運道	-10.9307
白茒港	-10.9307
官吏	-10.9308
不得已而	-10.9311
此三者	-10.9313
辰巳	-10.9314
兵馬使	-10.9314
聖人之	-10.9315
大義	-10.9315
北境	-10.9316
七百五十	-10.9318
犯塞	-10.9319
爭先	-10.9319
吳楚	-10.9322
十八日	-10.9326
乗其	-10.9329
深草	-10.9332
算得	-10.9333
黄龍	-10.9337
此之謂也	-10.9342
色黄	-10.9342
彼若	-10.9343
者豈	-10.9348
四十人	-10.9356
剛日	-10.9356
一各船	-10.9356
探馬	-10.9358
代州	-10.9359
晉陽	-10.9364
用力	-10.9373
多方	-10.9379
長槍	-10.9381
順勢	-10.9383
盡力	-10.9385
勇夫	-10.9386
望風	-10.9387
歸順	-10.9391
立表	-10.9391
十七里	-10.9395
不可以不	-10.9396
承平	-10.9409
女頭	-10.941
七十五人	-10.9416
諸君	-10.9419
太子	-10.9422
復還	-10.9426
圍繞	-10.9426
神器	-10.9432
以是	-10.9438
湖中	-10.9442
五十歩	-10.9444
信旗	-10.9452
望敵	-10.9458
而使之	-10.946
一定之	-10.9463
察敵	-10.9468
諸家	-10.9476
戰必勝	-10.9481
海道	-10.9484
二千里	-10.9487
權宜	-10.9491
吳江縣	-10.9493
營壁	-10.9494
以禮	-10.9499
敗亡	-10.9503
就是	-10.9507
游兵	-10.9508
其罪	-10.9509
直前	-10.9514
銃手	-10.9516
湖水	-10.9523
務令	-10.9525
相向	-10.9537
任人	-10.9546
一百八十里	-10.9546
竒伏	-10.955
振武	-10.9551
在其中	-10.9553
大將死	-10.9556
北界	-10.9562
必克	-10.9563
以助	-10.957
所築	-10.9574
平易	-10.9584
作亂	-10.9585
有罪	-10.9585
益州	-10.9587
三刑	-10.9587
六花陣	-10.9592
長二尺	-10.9596
流水	-10.9596
副總兵	-10.96
長沙	-10.9608
分之一	-10.9609
而我兵	-10.9609
只用	-10.9616
五里西至	-10.9618
潤州	-10.9622
春秋時楚	-10.964
設使	-10.964
十八年	-10.9643
舟山	-10.9656
防備	-10.9674
愛人	-10.9686
耳今	-10.9688
以拒之	-10.9691
其歸路	-10.9703
兵起入	-10.9707
首尾相	-10.9711
不住	-10.9716
八部	-10.9717
於下	-10.9718
孤軍	-10.9729
木日	-10.9741
七十里西至	-10.9747
殺來	-10.9748
三部	-10.9749
平居	-10.975
上建	-10.9768
聞鼓	-10.9786
法尚	-10.9792
四散	-10.9792
急擊之	-10.9795
海寇	-10.9803
相同	-10.9807
戰大破之	-10.982
洋中	-10.9829
須知	-10.9832
各持	-10.9834
公主	-10.9843
舉旗	-10.9844
二百六十	-10.985
小隊	-10.9854
直𨽻	-10.9856
生死	-10.9856
蔚	-10.9869
人員	-10.9887
禆將	-10.9888
八陣之法	-10.9896
七十里北至	-10.99
其勢必	-10.9901
一百九十	-10.9904
磕	-10.9904
千金	-10.9904
弩射	-10.9904
旗頭	-10.9906
利為主見陣利後動出軍宜	-10.9907
白馬	-10.9908
受降城	-10.9911
乘風	-10.9911
近日	-10.9915
邊防	-10.9916
兵備副使任公環	-10.9916
玉女	-10.9918
績	-10.9919
輯	-10.9923
七鴉	-10.9923
臨江	-10.9925
一寸五分	-10.9927
茄	-10.9928
罡	-10.9928
肌	-10.9929
酸	-10.993
蹖	-10.993
荆州占曰	-10.9932
庚辛	-10.9932
鮑	-10.9933
諠	-10.9933
翳	-10.9935
渺	-10.9935
扒	-10.9935
犄角	-10.9936
鶉	-10.9937
紿	-10.9937
棧	-10.9937
噪	-10.9938
豕	-10.9939
舉赤旗	-10.9939
座窩舖	-10.9939
聮	-10.9939
判	-10.994
顔色	-10.994
恪	-10.9941
稠	-10.9941
月將加時	-10.9941
曵	-10.9941
戾	-10.9941
鐶	-10.9941
儘	-10.9942
邱	-10.9942
匈	-10.9942
睨	-10.9942
戎馬來路	-10.9942
一日一夜	-10.9943
拗	-10.9943
其道有三由	-10.9943
婆	-10.9943
盧循	-10.9943
噴	-10.9944
刷	-10.9944
跟	-10.9944
延孝	-10.9944
宇文泰	-10.9944
秋冬	-10.9944
彭越	-10.9944
以生牛皮	-10.9945
者其南路也	-10.9945
塔	-10.9945
閏	-10.9945
畝	-10.9945
橫	-10.9945
譙	-10.9945
太平興國中	-10.9945
披靡	-10.9946
埤	-10.9946
五行傳曰	-10.9946
嘆	-10.9947
來打我	-10.9947
罹	-10.9947
轆轤	-10.9948
廣信軍	-10.9948
讎	-10.9948
歛	-10.9948
撈	-10.9949
仕	-10.9949
岩	-10.9949
瞻	-10.9949
項籍	-10.995
敢死士	-10.995
蠶	-10.995
𦍑	-10.995
觔	-10.995
昇	-10.995
愧	-10.995
八八六十四	-10.9951
夏駕浦	-10.9951
以少擊衆	-10.9951
飼	-10.9951
啗	-10.9951
昂	-10.9952
太乙助主	-10.9952
瑄	-10.9952
財貨	-10.9952
剽掠	-10.9952
魴	-10.9952
電擊	-10.9953
籬	-10.9953
淝水	-10.9953
糓	-10.9953
聫	-10.9953
鎮海衞	-10.9954
召諸	-10.9954
韜	-10.9955
頃刻	-10.9955
總兵俞大猷	-10.9955
夥	-10.9956
要害之地	-10.9956
漏泄	-10.9956
十五里南至	-10.9956
軍如是者斬之	-10.9956
遮隔	-10.9957
僉事	-10.9957
州三百五十里	-10.9958
宫室	-10.9958
串	-10.9958
井泉	-10.9958
軍䜟有曰	-10.9958
芒角	-10.9958
巴豆	-10.9959
尉繚子	-10.9959
煤	-10.9959
孝恭	-10.9959
甲乙	-10.9959
詎	-10.996
躁	-10.996
建炎	-10.996
鬻	-10.996
百瀆	-10.9961
搬運	-10.9961
幼	-10.9961
採捕	-10.9961
厨	-10.9961
袁紹	-10.9961
陜西	-10.9962
諱	-10.9963
㸑	-10.9963
螺	-10.9964
武牢	-10.9964
庶幾	-10.9964
兩廂	-10.9965
廿	-10.9965
鹽盜	-10.9965
都御史	-10.9967
吹長聲	-10.9967
木驢	-10.9968
猶豫	-10.9968
淡	-10.9968
状	-10.9969
葉謝	-10.9969
排叉木	-10.997
范陽	-10.997
一舉而	-10.9971
威令	-10.9973
飲酒	-10.9974
或擊其	-10.9974
丞相	-10.9975
器仗	-10.9976
鳴皷	-10.9976
六十里北至	-10.9977
四面受敵	-10.9977
奔突	-10.9977
估	-10.9978
長一丈二尺	-10.9978
一百八十	-10.9978
揆	-10.9979
秦伯	-10.9979
晒乾	-10.998
捉生	-10.9981
龍騰	-10.9981
右虞候	-10.9982
趕上	-10.9982
楊素	-10.9983
潰散	-10.9986
左右虞候	-10.9986
殆盡	-10.9987
孟河	-10.9988
有暴兵	-10.999
𦂳要	-10.999
安亭	-10.999
以徇	-10.9992
遣其將	-10.9992
譬如	-10.9992
粮道	-10.9993
乙庚	-10.9995
婁門	-10.9998
鈎連	-11.0002
短刀	-11.0002
辨其	-11.0003
二十一日	-11.0003
地理	-11.0005
黎明	-11.0005
井田	-11.0008
對壘	-11.0009
草烏	-11.0011
曠野	-11.0012
曰吾聞	-11.0014
近岸	-11.0016
押官	-11.0019
疾速	-11.0024
方寸	-11.0027
奔散	-11.0029
該管	-11.0031
吹打	-11.0032
又次之	-11.0035
外餘	-11.0036
習戰	-11.0037
所據	-11.0038
初三日	-11.004
重慶	-11.004
逆順	-11.0042
四百五十里	-11.0044
五十餘	-11.0046
未幾	-11.0049
准前	-11.005
調遣	-11.005
何患	-11.005
馬燧	-11.0053
同里	-11.0057
統制	-11.0058
並同	-11.0064
八團	-11.0064
糧盡	-11.0066
溺死	-11.0066
危急	-11.0067
黑旗	-11.0067
離散	-11.0072
善惡	-11.0072
歩卒	-11.0078
交界	-11.0078
增築	-11.0081
分付	-11.0082
西控	-11.0084
元初	-11.0089
萬衆	-11.0089
己未	-11.0091
詳見	-11.0091
者可擊也	-11.0092
山之陽	-11.0097
隴西	-11.0097
無虞	-11.01
鳥雲	-11.0101
瀘州	-11.0103
開弓	-11.0111
靴	-11.0115
殺獲	-11.0118
目視	-11.0121
孰與	-11.0124
數附	-11.0128
調發	-11.0131
車徒	-11.0134
主兵起	-11.0141
月糧	-11.0142
為凖	-11.0143
有赤氣	-11.0145
乗勝	-11.0148
一個	-11.0149
其分野	-11.0152
海船	-11.0155
福山港	-11.0161
不能救	-11.0163
百一十里	-11.0164
川口	-11.0168
清道	-11.0181
趙括	-11.0186
岸上	-11.019
契丹界	-11.0192
不忍	-11.0197
與太乙	-11.0198
之過也	-11.02
鐵索	-11.0201
府縣	-11.0202
權謀	-11.0205
馬邑	-11.0206
者此之謂	-11.0206
陸地	-11.021
二升	-11.0214
大㓙	-11.0216
夜戰	-11.022
凡攻城	-11.0224
止宿	-11.0225
死亡	-11.0229
周制	-11.023
壯勇	-11.0234
有警則	-11.0237
其下有	-11.0237
西接	-11.0238
賊帥	-11.024
治亂	-11.0244
營室	-11.0248
步戰	-11.0253
用兵者	-11.026
無警	-11.0288
武舉	-11.0289
亦當	-11.0294
知府	-11.03
所擒	-11.0311
隂國	-11.0312
爭地	-11.0316
五千人	-11.0317
羣賊	-11.0318
相率	-11.032
二十四日	-11.0333
天下兵起	-11.0342
於是乎	-11.0346
奄	-11.0347
每夜	-11.0348
解圍	-11.0359
我就	-11.0362
不煩	-11.0364
惑衆	-11.0366
奄至	-11.0368
主帥	-11.0369
曰不然	-11.0374
握竒經	-11.0377
張公	-11.0378
敵境	-11.0387
三十七	-11.0393
清明	-11.0405
獨山	-11.0408
上來者	-11.0419
道德	-11.0427
仍照	-11.0429
三畧	-11.0437
二百七十里	-11.0438
惟恐	-11.0447
長圍	-11.0452
執牌	-11.0465
部分	-11.0474
野營	-11.0483
者何也	-11.0488
都巡檢	-11.0496
聽令	-11.05
警急	-11.0502
得地利	-11.0515
中朝	-11.0517
他日	-11.0524
百里西南至	-11.0529
雲陽	-11.0536
馬歩	-11.0539
一百五十里	-11.055
可以勝	-11.055
川路	-11.0554
打他	-11.0562
安都	-11.0579
一千四百	-11.0584
舊地	-11.0586
之宜	-11.0593
該府	-11.0594
平川	-11.0601
致死	-11.062
五陣之	-11.0622
分為五	-11.0624
無私	-11.0637
二百六十里	-11.0639
年月	-11.0659
之類皆	-11.0668
令諸軍	-11.0668
主客俱不利各宜固守主聞賊備東	-11.068
分界	-11.0681
則不然	-11.0683
四十步	-11.069
所傳	-11.0706
一十八里	-11.0707
慶厯	-11.0708
唐開元中	-11.0742
葑	-11.075
孰與己	-11.0753
真定府	-11.0756
淳化中	-11.0758
梭	-11.0759
蠲	-11.076
杲	-11.0762
古之善	-11.0765
麋	-11.0765
文王問太公曰	-11.0766
缶	-11.0766
昆	-11.0768
安肅軍	-11.0768
未之有也	-11.0768
遂破	-11.0768
虞鼔動肅儀仗	-11.0768
撿	-11.0769
壬午	-11.0769
鎮戎軍	-11.0769
孝恪	-11.0769
簾	-11.0769
冶	-11.0769
鄧艾	-11.077
李繼隆	-11.077
猾	-11.0771
丁壬	-11.0771
以逸待勞	-11.0772
峯	-11.0773
卵	-11.0773
檑	-11.0773
延伯	-11.0774
潘美	-11.0774
設弓兵四十名往來巡邏所屬烽堠	-11.0774
擘	-11.0774
朋	-11.0775
鴻	-11.0775
慨	-11.0775
竪	-11.0775
鴟	-11.0776
訟	-11.0776
嫉	-11.0776
彀	-11.0777
蓼	-11.0777
宵	-11.0777
吳子問孫武曰	-11.0777
僞	-11.0777
冲	-11.0777
洒	-11.0778
皓	-11.0778
瘥	-11.0778
乾壽	-11.0778
有誅	-11.0778
荻	-11.0779
塜	-11.0779
闉	-11.0779
符契	-11.0779
戯	-11.0779
戈矛	-11.0779
鈐	-11.0779
碾	-11.0779
歆	-11.0779
沂	-11.0779
諾	-11.078
嵗月日時	-11.078
飭	-11.078
裔	-11.078
尚饗	-11.0781
凋	-11.0781
峭	-11.0781
恊	-11.0781
商賈	-11.0781
憊	-11.0781
攢	-11.0781
抹	-11.0782
梢砲	-11.0782
宋曽公亮等撰故事	-11.0782
尾火虎	-11.0782
鴈門	-11.0782
𫝊送	-11.0782
四尺五寸	-11.0782
鼔譟	-11.0782
朴	-11.0783
雷電	-11.0783
邳	-11.0784
聳	-11.0784
茹	-11.0784
裘	-11.0784
順安軍	-11.0784
装	-11.0784
鴨	-11.0784
疲倦	-11.0784
菴	-11.0784
轡	-11.0785
韃	-11.0785
堵截	-11.0785
馘	-11.0785
櫃	-11.0785
粥	-11.0785
邛	-11.0786
轍	-11.0786
拖	-11.0786
臭	-11.0786
客杜塞無門	-11.0787
陁	-11.0787
鳥嘴銃	-11.0787
放砲三箇	-11.0787
黄窪	-11.0787
奔牛鎮	-11.0787
寃	-11.0787
眷	-11.0788
乙卯	-11.0788
虎豹	-11.0788
為細末	-11.0788
青邨南滙	-11.0788
撃大破之	-11.0788
三員	-11.0788
芻糧	-11.0788
檢校	-11.0789
釡	-11.0789
潑	-11.0789
戊戌	-11.0789
葺	-11.079
贍	-11.0791
保障	-11.0791
噫	-11.0792
臨洮	-11.0793
挺	-11.0793
貴賤	-11.0793
葫蘆	-11.0793
誇	-11.0794
砦二十五里	-11.0794
叚	-11.0794
凍	-11.0795
呉子曰	-11.0795
核	-11.0795
寂	-11.0795
椗	-11.0795
闇	-11.0796
建康	-11.0796
勃勃	-11.0796
荆湖	-11.0796
關繫	-11.0798
川沙堡	-11.0798
砍刀	-11.0798
濃	-11.0798
沛公	-11.0799
月天門在	-11.0799
轉軸	-11.08
苖	-11.08
有所恃	-11.0801
抛入陣	-11.0801
城隍	-11.0803
)□(	-11.0803
億萬	-11.0803
兵家類提要	-11.0804
太倉衞	-11.0804
伍隊長	-11.0804
劫掠	-11.0804
虹蜺	-11.0805
財賦	-11.0805
南翔	-11.0805
鳴鑼	-11.0806
莫測	-11.0806
五千騎	-11.0806
聞鼓聲	-11.0808
暨	-11.0809
環繞	-11.0809
成臯	-11.081
雁行	-11.081
通判	-11.081
查考	-11.0812
傘	-11.0813
鵲臺	-11.0814
勁弩	-11.0814
手把銃	-11.0815
六庚	-11.0816
守捉	-11.0818
北狄	-11.0818
吊	-11.0818
禮樂	-11.0818
資財	-11.0818
平旦	-11.0819
把總兵船	-11.0823
曹涇	-11.0823
大將發利為客見陣利先動出軍宜	-11.0825
浙西	-11.0825
日日食兵起	-11.0825
加仲	-11.0831
入賊境	-11.0831
是之謂	-11.0832
忻州	-11.0832
躍馬	-11.0835
尺餘	-11.0835
也吾則	-11.0842
黑氣如	-11.0842
海島	-11.0842
太隂	-11.0844
分䑸	-11.0844
寛平	-11.0844
突圍	-11.0845
赴中軍	-11.0845
壬子	-11.0846
武昌	-11.0851
材力	-11.0854
石勒	-11.0855
二百餘里	-11.086
槍刀	-11.0862
天魁	-11.0863
餘黨	-11.0863
四課	-11.0863
順逆	-11.0863
酒食	-11.0864
高招	-11.0866
先王之	-11.0869
是也所謂	-11.087
中旦	-11.0871
名之曰	-11.0873
詭道	-11.0873
雄黄	-11.0881
千總	-11.0882
勿疑	-11.0882
子銃	-11.0884
整齊	-11.0884
呉師	-11.0886
弗能	-11.0887
伏藏	-11.0888
舉賢	-11.089
旗鼔	-11.089
卷甲	-11.0893
保全	-11.0893
轉關	-11.0895
月空	-11.0899
潛師	-11.0914
存乎	-11.0918
精熟	-11.0921
二百名	-11.0922
直指	-11.0929
驚亂	-11.093
奪氣	-11.0933
白色	-11.0942
古制	-11.0942
退保	-11.0946
預知	-11.0947
練鄉兵	-11.0953
再加	-11.0953
潛伏	-11.0955
報功	-11.0962
黄連	-11.0964
虎頭	-11.0964
二十里至	-11.0967
六丁	-11.0969
或又曰	-11.0972
之功也	-11.0973
從容	-11.0978
團練	-11.0979
南境	-11.0982
復回	-11.0984
洞當	-11.0987
戰具	-11.0996
師敗績	-11.0998
更始	-11.1
北斗	-11.1012
二尺五寸	-11.1016
變色	-11.1018
少却	-11.1025
重罪	-11.103
死焉	-11.1033
口糧	-11.1034
有大風	-11.1045
交通	-11.1047
共計	-11.1049
邕州	-11.1049
明年	-11.1061
者以其	-11.1065
江左	-11.1073
把守	-11.1081
石浦	-11.1084
孔子	-11.1084
僅可	-11.1099
占地	-11.1099
用此法	-11.1106
壕外	-11.1108
花法	-11.1111
分投	-11.1112
打殺	-11.1113
術數	-11.1116
相聞	-11.1134
東流	-11.1135
所習	-11.1145
入太湖	-11.1149
烏合	-11.1151
離合	-11.1151
畫地	-11.1172
千戸	-11.1173
決戰	-11.1184
射殺	-11.1184
奔牛	-11.1213
乾糧	-11.1286
衡陣	-11.1292
三萬人	-11.1298
已久	-11.1323
無處不	-11.1336
未敢	-11.1339
發引	-11.134
前脚	-11.1372
二箇	-11.1423
闊一丈	-11.1427
叅將二宫	-11.144
瀘	-11.1451
始知	-11.1455
虎鈐經卷	-11.146
俱照	-11.1462
三百七十	-11.1463
十七日	-11.1464
八百里	-11.1466
縣總論	-11.1478
三千五百	-11.1479
嘗聞	-11.1503
鼓音	-11.1538
廣武	-11.1542
擊大敗之	-11.1545
十一日	-11.1552
探報	-11.156
皂	-11.1569
禆	-11.1572
誰與	-11.1573
二十斤	-11.1575
選練	-11.158
戰大敗之	-11.1615
兵起犯	-11.162
黔州	-11.1631
天禧中	-11.1637
書云	-11.1638
西戰利正東利方陣舉白旗雲氣從西來	-11.1648
婦	-11.1649
濞	-11.1651
府庫	-11.1651
州在戎州南	-11.1654
醫巫閭山	-11.1656
河圖帝覽嬉曰	-11.1658
刪	-11.166
湟	-11.166
曺	-11.1661
張掖	-11.1662
釵	-11.1662
欽定四庫全書武經總要前集卷	-11.1662
撑	-11.1664
褒	-11.1664
一員統	-11.1665
寰	-11.1669
芟	-11.167
丙申	-11.1671
壺	-11.1672
映	-11.1672
潼	-11.1673
武經總要前集卷	-11.1673
幄	-11.1674
戊癸	-11.1674
渝	-11.1674
隗	-11.1674
擠	-11.1674
舂	-11.1675
塼	-11.1676
宋曽公亮等撰	-11.1676
㓕	-11.1679
罌	-11.1679
堅壁清野	-11.1679
舫	-11.1679
翁	-11.168
檻	-11.168
咨	-11.168
丙辛	-11.1681
噬	-11.1681
虗	-11.1681
長吳二縣	-11.1681
篙	-11.1682
殫	-11.1683
腹背受敵	-11.1683
鞋	-11.1683
穗	-11.1683
酷	-11.1684
淖	-11.1684
陲	-11.1684
鞏	-11.1684
輻	-11.1685
嗟夫	-11.1685
宦	-11.1685
䖍	-11.1686
享	-11.1686
滓	-11.1686
昆陽	-11.1686
伏羲	-11.1686
武經總要前集卷十	-11.1686
豫章	-11.1686
雕	-11.1686
頡利	-11.1686
太乙雖助	-11.1686
䍐	-11.1687
樺	-11.1687
豹尾	-11.1687
宵遁	-11.1687
插	-11.1687
﨑	-11.1687
巡撫都御史	-11.1688
詡	-11.1688
飛梯	-11.1688
匡	-11.1688
沖	-11.1688
臨淄	-11.1688
撼	-11.1689
换	-11.1689
艟	-11.1689
洶	-11.169
瓮	-11.169
瘟	-11.169
五龍橋	-11.169
蜜	-11.169
陣間容陣隊間容隊	-11.1691
些	-11.1692
公祏	-11.1692
蹂	-11.1692
歸師勿遏	-11.1692
撮	-11.1693
桞	-11.1693
鳥獸	-11.1693
亭亭	-11.1693
颺	-11.1693
弁	-11.1694
欽定四庫全書武經總要前集卷十	-11.1694
偵	-11.1694
猴	-11.1694
㡌	-11.1694
薛仁貴	-11.1694
叅將不出中宫	-11.1694
司馬懿	-11.1694
敗衂	-11.1695
偹	-11.1695
泚	-11.1695
放起火三枝	-11.1695
盔	-11.1695
不可不察也	-11.1695
乙夘	-11.1695
巡視旗	-11.1695
汎	-11.1695
糧儲	-11.1695
塡	-11.1696
溪澗	-11.1696
祈	-11.1696
綜	-11.1696
臆	-11.1696
肝	-11.1696
瓢	-11.1696
僉	-11.1697
漢髙帝	-11.1697
辛酉	-11.1697
乾隆四十六年	-11.1697
兵行哨竒兵設伏輕兵出襲焉斯可矣	-11.1697
扶胥	-11.1698
為左翼	-11.1698
紋	-11.1698
乍浦	-11.1698
撘	-11.1698
纜	-11.1699
都部署	-11.1699
人自為戰	-11.1699
汜水	-11.1699
為疑兵	-11.1699
殪	-11.1699
睿	-11.1699
諒	-11.1699
閻	-11.17
百死在	-11.17
險阨	-11.17
泗	-11.1701
丁卯	-11.1701
華蕩	-11.1701
陶宅	-11.1701
闥	-11.1701
大將雖格	-11.1701
嚼	-11.1702
侔	-11.1702
廬舍	-11.1702
犁	-11.1702
酬	-11.1703
蒜	-11.1703
龎	-11.1704
痢	-11.1704
窪	-11.1705
獅子	-11.1705
芷	-11.1705
跑	-11.1705
伏路人	-11.1705
婁塘	-11.1705
宫其神	-11.1706
砒霜	-11.1706
瘧	-11.1706
鼎足	-11.1706
壽春	-11.1707
獐	-11.1707
舁	-11.1707
巡司弓兵	-11.1707
晒	-11.1708
貧民	-11.1709
瑱	-11.1709
馬蹟	-11.1709
唐公順之	-11.1709
滴	-11.171
李淳風曰	-11.171
氣律中	-11.171
碇	-11.171
貲	-11.1711
不得渡	-11.1712
入敵境	-11.1712
丘陵	-11.1713
積薪	-11.1714
這	-11.1714
什物	-11.1714
盞口將軍	-11.1715
頰	-11.1715
俘斬	-11.1715
督撫	-11.1715
如前法	-11.1715
男子	-11.1716
夜郎	-11.1717
日時加	-11.1717
女頭墻	-11.1717
裝束	-11.1717
叅將八宫	-11.1718
豈敢	-11.1719
蔡廟	-11.1719
木瀆	-11.1721
貨物	-11.1721
動搖	-11.1722
識認	-11.1724
朱涇	-11.1725
克寛	-11.1725
闗羽	-11.1725
雷公六律曰天一	-11.1725
伺候	-11.1725
太微	-11.1726
在城外	-11.1726
望亭	-11.1726
瘡口	-11.1728
水調下	-11.1728
連環	-11.1728
小兒	-11.1729
擺列	-11.1729
冰	-11.173
都監	-11.1731
媯州	-11.1732
利鈍	-11.1732
窮冦	-11.1733
驅馳	-11.1733
破之必矣	-11.1734
婁江	-11.1734
直搗	-11.1734
錯亂	-11.174
兩邉	-11.174
伊尹	-11.174
究治	-11.174
蒼船	-11.1741
崇文	-11.1742
三百三十	-11.1742
角音	-11.1743
誓衆	-11.1745
十萬衆	-11.1745
招集	-11.1745
歴代	-11.1746
胥門	-11.1746
五穀	-11.1747
揚聲	-11.175
諸羌	-11.1751
當事者	-11.1752
倐忽	-11.1752
馳告	-11.1756
凡出軍	-11.1758
淺深	-11.1759
小將挾客	-11.1762
即變為	-11.1762
左右校	-11.1763
驍將	-11.1767
十倍	-11.1767
膽勇	-11.1767
欽定四庫全書武經總要後集卷	-11.1769
童子	-11.1771
强盛	-11.1773
數丈	-11.1773
焉一曰	-11.1774
縣出賊	-11.1777
保結	-11.1777
突騎	-11.1783
蔚州	-11.1783
歎曰	-11.1784
烽子	-11.1786
天獄	-11.1786
賊豈能	-11.1787
世襲	-11.1793
人之力	-11.1796
初一日	-11.1796
分寸	-11.1797
宫内迫	-11.1801
十九日	-11.1804
選士	-11.1806
勿容	-11.1807
一百一十里	-11.1813
此四者	-11.1814
衡軸	-11.1814
横塘	-11.1818
七八尺	-11.1821
㑹議	-11.1821
震動	-11.1821
四靣	-11.1821
賊若自	-11.1824
唱殺	-11.1826
隂手	-11.1827
聽候	-11.1837
避難	-11.1839
良民	-11.1839
而言則	-11.184
治以軍法	-11.1843
鄉民	-11.1849
重修	-11.1851
砦鋪	-11.1852
清河	-11.1852
屬邑	-11.1853
附近	-11.1856
總要	-11.1856
藥箭	-11.1859
申明	-11.186
向背	-11.186
上下相	-11.1861
乘機	-11.1861
捉馬	-11.1863
不如法	-11.1864
神宗	-11.1865
朝陽	-11.1865
候望	-11.1872
然後可以	-11.1872
嶺南	-11.1876
夏國	-11.1877
標鎗	-11.1878
盗賊	-11.188
遂至於	-11.1881
吕城	-11.1885
李廣	-11.1887
何哉	-11.1892
袁尚	-11.1893
被殺	-11.1907
砲手	-11.1913
蘇州衞	-11.1915
不祥	-11.1917
銀兩	-11.1926
十二名	-11.1929
此輩	-11.1936
失色	-11.1936
畏懼	-11.1937
伊吾	-11.1939
上黨	-11.1941
威德	-11.1942
前京	-11.1975
東控	-11.198
西距	-11.1987
外洋	-11.1995
何也曰	-11.1996
官捕	-11.2013
十萬之衆	-11.2055
短打	-11.2082
不可恃	-11.2084
髙阜	-11.2102
欽定四庫全書虎鈐經卷	-11.213
棚上	-11.2131
入吳淞江	-11.215
十一里	-11.2226
親率	-11.2258
邊兵起	-11.2273
須防	-11.2302
欽定四庫全書紀效新書卷	-11.2311
隋置	-11.2312
十餘丈	-11.2327
二千三百	-11.2345
處山之	-11.2391
十五萬	-11.2407
門樓	-11.2407
銃砲	-11.241
二十七里	-11.2416
丈夫	-11.2416
陸費墀	-11.2423
丈二尺	-11.2426
該總	-11.2434
萬世	-11.2492
藥弩	-11.2492
州為治所	-11.253
欽定四庫全書武經總要後集卷十	-11.2603
鹿園	-11.2635
擴	-11.2642
搽	-11.2643
冊	-11.2652
笋	-11.2652
璚	-11.2655
築長城	-11.266
穽	-11.266
隍	-11.266
糴	-11.2661
牲	-11.2662
之神惟神	-11.2665
度於辰在	-11.2665
夷獠	-11.2666
所短	-11.2666
鶯	-11.2666
紹斌	-11.2667
阿保機	-11.2667
朽	-11.2667
袒	-11.2667
邢	-11.2668
鍵	-11.2668
赫	-11.2668
禡	-11.2668
筯	-11.2669
蹟	-11.2669
男	-11.2671
曼	-11.2671
月合宿	-11.2671
衂	-11.2672
諉	-11.2673
哲	-11.2673
濡	-11.2674
涯	-11.2674
倭宼	-11.2674
炅	-11.2675
州五百六十里	-11.2676
斬首數千級	-11.2676
稻	-11.2677
灋	-11.2677
㪷	-11.2678
蘄	-11.2679
嶽	-11.2679
𦵏	-11.268
常川操練	-11.268
銖	-11.2681
揖	-11.2681
抺	-11.2681
崇韜	-11.2681
巴蜀	-11.2681
葭	-11.2682
蒐	-11.2682
兮	-11.2683
催	-11.2683
至道中	-11.2683
慄	-11.2683
殽	-11.2683
魄	-11.2683
畔	-11.2683
缸	-11.2684
両	-11.2684
肇	-11.2684
猿	-11.2685
中軍高處	-11.2685
竹箔	-11.2685
漂	-11.2685
令不行	-11.2685
逵	-11.2685
茅草	-11.2686
諺	-11.2686
餒	-11.2686
龎涓	-11.2687
醫藥	-11.2688
戎狄	-11.2688
漳	-11.2688
軼	-11.2688
黥布	-11.2688
囘紇	-11.2688
苛	-11.2688
則如之何武曰	-11.2688
单	-11.2688
○	-11.2689
登陴	-11.2689
長二丈五尺	-11.2689
稼	-11.2689
熒	-11.269
千仞	-11.269
弧	-11.269
穩	-11.269
訊	-11.269
計神戌此局	-11.269
屹	-11.269
北至契丹界無鋪	-11.269
深溝髙壘	-11.2691
主挾客㕘將	-11.2691
蝟	-11.2691
獨孤及	-11.2691
疑有伏兵	-11.2691
盲	-11.2691
兑	-11.2691
纓	-11.2691
複	-11.2691
它	-11.2691
㝠	-11.2692
什伍	-11.2692
斌	-11.2692
東戰利正西利鋭陣舉赤旗雲氣從東來	-11.2692
趙充國	-11.2692
惟通單騎	-11.2692
墾	-11.2693
冒頓	-11.2693
感泣	-11.2693
㑹稽郡	-11.2693
兵備任公環	-11.2693
鑰	-11.2693
馴	-11.2694
眠	-11.2694
聾	-11.2694
翁家港	-11.2694
客目掩	-11.2694
闌	-11.2694
敢死之士	-11.2694
邈	-11.2695
澳	-11.2695
孰肯	-11.2695
簸	-11.2695
虎牢	-11.2695
剥	-11.2695
耻	-11.2695
棋	-11.2696
殁	-11.2696
丕	-11.2696
一兩六錢	-11.2696
七浦塘	-11.2696
部下兵船	-11.2696
剛柔	-11.2696
踴躍	-11.2696
染	-11.2696
萃	-11.2696
瑜	-11.2696
繹	-11.2696
揚子江	-11.2697
躡其後	-11.2697
壬戌	-11.2697
僇	-11.2697
翅	-11.2697
倍道兼行	-11.2697
平洋沙	-11.2697
計邑之險要有	-11.2698
詳見各圖説於後	-11.2698
檐	-11.2698
叠	-11.2698
態	-11.2698
蜋	-11.2698
蒭	-11.2698
吼	-11.2699
厄	-11.2699
勍	-11.2699
江灣	-11.27
剌	-11.27
鳩	-11.27
沽	-11.2701
鎔	-11.2701
明唐順之撰	-11.2701
訴	-11.2702
為一卒名曰	-11.2702
原野	-11.2702
弄	-11.2702
賊首蕭顯	-11.2702
僕射	-11.2703
淵藪	-11.2703
蓆	-11.2703
巫咸曰	-11.2703
走舸	-11.2704
狠	-11.2704
陌刀	-11.2704
俸	-11.2705
盧龍	-11.2705
互為聲援	-11.2705
蓐	-11.2705
搬	-11.2705
金匱經	-11.2705
聰明	-11.2706
平肩滿射	-11.2706
眙	-11.2707
材士強弩	-11.2707
烙	-11.2707
偘	-11.2707
爛溪	-11.2707
品字	-11.2708
狡	-11.2708
有五一曰	-11.2708
莘	-11.2708
騷動	-11.2708
喘	-11.2708
世隆	-11.2708
己亥	-11.2709
邇年	-11.2709
總兵湯克寛	-11.2709
妃	-11.2709
虞侯	-11.271
壬辰	-11.271
擊柝	-11.271
辛巳	-11.271
帝王之	-11.271
冦徳安	-11.271
柁	-11.2711
率步騎	-11.2711
瘦	-11.2713
都尉	-11.2713
兠	-11.2713
狭	-11.2713
爲之柰何太公曰	-11.2714
錯雜	-11.2714
蓮	-11.2714
醪	-11.2715
漢武帝	-11.2717
里去東京	-11.2717
轉輸	-11.2717
俯伏	-11.2717
阮	-11.2718
陣令各軍	-11.2718
飄風	-11.2719
吉㓙	-11.2719
張兩翼	-11.2719
延袤	-11.272
斜堰	-11.272
逃亡	-11.272
新塲	-11.2721
孝徳	-11.2722
彤	-11.2723
生獠	-11.2723
海滄	-11.2724
不可勝計	-11.2724
岳飛	-11.2725
此騎之	-11.2725
烏程	-11.2726
閘港	-11.2726
溪谷	-11.2727
巡捕	-11.2727
演習	-11.2728
首尾相應	-11.2728
往返	-11.2729
隋末	-11.273
五色旗	-11.2731
萬徹	-11.2733
二十九日	-11.2735
掲起	-11.2736
百餘騎	-11.2736
客見陣利先動出軍宜	-11.2737
前後䡴	-11.2739
疑惑	-11.274
篇第五十	-11.274
接境	-11.2742
不得輙	-11.2743
者任一人	-11.2744
規避	-11.2746
田賦	-11.2746
愈甚	-11.2746
倭冦	-11.2747
勇猛	-11.2748
率諸軍	-11.2749
毋得	-11.275
敵上氣	-11.2751
風汛	-11.2752
厚薄	-11.2755
士大夫	-11.2757
征討	-11.2758
日引去	-11.2759
隴山	-11.276
良久	-11.2761
金銅	-11.2761
甘心	-11.2763
賜物	-11.2763
驚恐	-11.2764
杭州	-11.2765
劄營	-11.2765
潰圍	-11.2768
金湯	-11.2769
田野	-11.2769
分派	-11.277
膽氣	-11.2777
束手	-11.2777
龍蛇	-11.278
每歲	-11.2787
新築	-11.2787
聲息	-11.2789
聲音	-11.2791
諸將皆曰	-11.2795
數尺	-11.2797
李陵	-11.2799
倭變	-11.2799
衣食	-11.2802
折衝	-11.2806
南京	-11.2806
常以我	-11.2807
忠信	-11.2815
五百餘人	-11.2817
回原	-11.2818
義士	-11.2818
把總官	-11.2822
精微	-11.2826
學士	-11.2827
牡陣	-11.2833
三十斤	-11.2843
婁縣	-11.2851
百三十里南至	-11.2874
掩殺	-11.2884
故善戰者	-11.2937
陳蔡	-11.2942
餘丁	-11.2947
不敢輕	-11.2952
二十八日	-11.2966
其下有兵	-11.2975
明賞罰	-11.3004
攻械	-11.3008
王濬	-11.3015
加孟	-11.3037
篇第四十	-11.304
涿州	-11.3071
唐天寳	-11.3114
白茆港	-11.3117
郢州	-11.3118
十五里西南至	-11.3175
賊攻縣城	-11.3181
丈八尺	-11.3192
厥後	-11.3213
火磚	-11.3213
河朔	-11.3225
黒氣	-11.3245
勵士	-11.3248
二寸五分	-11.3251
白晝	-11.3262
昭王	-11.3283
銀若干	-11.3301
里三十步	-11.3353
各有所	-11.3357
面受敵	-11.3424
十餘艘	-11.3448
除仰斜留	-11.3461
邊壕	-11.3472
隊五十人	-11.3526
欽定四庫全書虎鈐經卷十	-11.3642
嘉湖	-11.3654
治以軍法一	-11.3677
客勝聞賊備	-11.3689
虎鈐經卷十	-11.3709
鴈	-11.3715
不利宜固守聞賊備西南第	-11.374
主勝聞賊備	-11.3742
宜避自	-11.375
二百七十	-11.3752
淯井鹽	-11.376
弔敦	-11.3764
暈再重	-11.3764
榆林	-11.3769
州在戎州西南	-11.3771
睦	-11.3774
釣	-11.3774
黄山門	-11.3775
炭火	-11.3776
張郃	-11.3778
舘	-11.3778
香煙砦	-11.3778
狩	-11.3781
一枝令千户一員領泊	-11.3781
聊	-11.3781
雍熈中	-11.3781
瀚海	-11.3782
個共重	-11.3783
軀	-11.3783
煨	-11.3784
欝	-11.3784
洎	-11.3785
唐武徳中	-11.3786
甪	-11.3786
無患矣	-11.3786
諸葛孔明	-11.3786
嘯聚	-11.3786
慿	-11.3787
羊馬牆	-11.3788
渰	-11.3788
廵檢	-11.3789
葬	-11.379
銑	-11.379
埃	-11.379
招諭	-11.3791
保安軍	-11.3791
葱嶺	-11.3791
雉堞	-11.3791
祁	-11.3791
膺	-11.3791
晃	-11.3791
具區	-11.3792
顚	-11.3793
千墪浦	-11.3793
陸涇壩	-11.3793
萬户府	-11.3794
龕	-11.3794
貶	-11.3794
第一百六十	-11.3794
緑	-11.3794
休咎	-11.3795
瞬息	-11.3795
蘆葦	-11.3795
冐頓	-11.3795
癸巳	-11.3796
闘	-11.3796
府同知任環	-11.3796
神樞經曰	-11.3796
蜀諸葛亮	-11.3796
蕭銑	-11.3796
筞	-11.3796
孝傑	-11.3796
隕	-11.3796
碑	-11.3796
堂堂	-11.3797
絃	-11.3797
唐李筌撰	-11.3797
者其北路也	-11.3797
戰大勝	-11.3797
剽	-11.3797
四頭八尾	-11.3797
宫發主㕘將	-11.3797
秃	-11.3797
尿	-11.3798
抜	-11.3798
狼牙釘	-11.3798
脯	-11.3798
賈詡	-11.3798
屈突通	-11.3798
騷	-11.3798
肘腋	-11.3798
釣橋	-11.3798
剖	-11.3798
縣水陸路考	-11.3798
淄青	-11.3798
晋	-11.3798
揲	-11.3798
莫之敢	-11.3799
駕馭	-11.3799
吒吒	-11.3799
甑	-11.3799
謂左右曰	-11.3799
鵬	-11.3799
狡猾	-11.38
不知破法	-11.38
回紇	-11.38
荆溪	-11.38
俘虜	-11.38
晦㝠	-11.38
采石	-11.38
斟酌	-11.38
禦却之	-11.38
柘	-11.3801
跌	-11.3801
拐子馬	-11.3801
麤	-11.3801
國朝洪武初	-11.3801
拯	-11.3801
柯	-11.3801
鄜延	-11.3801
迨	-11.3802
熏	-11.3802
治金瘡	-11.3802
䝉遜	-11.3802
侍郎	-11.3803
鉗	-11.3803
宣慰	-11.3803
贈	-11.3803
阪	-11.3803
倪	-11.3803
鵰	-11.3804
謗	-11.3804
繒	-11.3804
甄	-11.3804
畜産	-11.3804
周而復始	-11.3804
刁斗	-11.3804
筠	-11.3804
李靖六花陣	-11.3804
廓	-11.3804
慕容垂	-11.3804
為右翼	-11.3804
亥子丑時客	-11.3805
鞅	-11.3805
泝	-11.3805
發屋折木	-11.3805
瑞	-11.3805
出行法人念	-11.3805
劌曰未可	-11.3806
屯重兵	-11.3806
薩	-11.3806
抛入彼陣	-11.3806
死地則戰	-11.3806
慝	-11.3806
擐	-11.3806
揚塵	-11.3806
盧鏜	-11.3806
汪	-11.3807
璹	-11.3807
飛狐	-11.3807
隸	-11.3807
孝逸	-11.3807
里界首北至契丹	-11.3807
黠	-11.3808
妾	-11.3808
繳	-11.3808
數起於五而終於八	-11.3808
蓍	-11.3808
親戚	-11.3808
軍法重治	-11.3808
猛將之氣	-11.3808
十三篇	-11.3808
奈	-11.3808
兕	-11.3808
作虎聲	-11.3809
裳	-11.3809
觸處為首	-11.3809
迄今	-11.3809
鸛	-11.3809
畞	-11.3809
五十人為一隊	-11.3809
巨艦	-11.381
崤	-11.381
荳	-11.381
摶霄	-11.381
噐械	-11.381
辨認	-11.381
騾	-11.381
北平軍	-11.3811
淤塞	-11.3811
颶	-11.3811
庾	-11.3811
淀	-11.3811
勇冠三軍	-11.3811
紛紛	-11.3811
他小門	-11.3811
厠	-11.3811
者杖一百	-11.3811
川沙窪	-11.3812
稽留	-11.3812
縶	-11.3812
是要各兵	-11.3812
趂	-11.3812
賄	-11.3813
軾	-11.3813
戚繼光	-11.3814
開拓	-11.3814
晡	-11.3814
紛紛紜紜	-11.3814
握竒之數	-11.3814
蔴	-11.3814
闔閭	-11.3814
想	-11.3815
勾踐	-11.3815
􁒀	-11.3815
僨	-11.3815
攻城圍邑	-11.3815
申酉	-11.3815
技藝	-11.3815
僉事董公邦政	-11.3815
溝渠	-11.3815
㠶	-11.3816
寇舶	-11.3817
梆	-11.3817
沮澤	-11.3817
畜牧	-11.3817
杜佑	-11.3817
爪牙	-11.3817
株	-11.3818
箆籬	-11.3818
泖橋	-11.3818
碩	-11.3818
三矢中二移逺五步又能不離左右即于	-11.3818
檣	-11.3819
叢林	-11.3819
袴	-11.3819
製造	-11.382
梅李	-11.382
官兵知破	-11.3821
勇悍	-11.3821
牛角尖	-11.3821
馳驟	-11.3821
跋	-11.3821
杉灰	-11.3821
廆	-11.3822
乙丑	-11.3822
蘓松	-11.3823
思摩	-11.3823
梨	-11.3823
懷恩	-11.3823
箭筈	-11.3823
桐油	-11.3823
何言乎	-11.3823
禳	-11.3823
教閲	-11.3824
儻	-11.3825
巡捕官	-11.3825
砲響	-11.3825
敗兆也	-11.3825
綸	-11.3825
果毅	-11.3825
琮	-11.3825
何如耳	-11.3826
咤	-11.3826
簞	-11.3826
兵備僉事任公環	-11.3826
叔琮	-11.3827
㕔	-11.3829
丑寅	-11.3829
党	-11.3829
指麾	-11.3829
父老	-11.3829
屈曲	-11.383
刼掠	-11.383
掀	-11.3831
潮汐	-11.3831
勞逸	-11.3832
木波	-11.3833
智伯	-11.3833
羅夫子	-11.3834
甲乙日	-11.3835
丙子	-11.3835
五十三人	-11.3835
九十三	-11.3835
包裹	-11.3836
乏絶	-11.3838
縱火焚	-11.3839
絮	-11.3839
舉黄旗	-11.3841
介子	-11.3841
孤虚	-11.3841
昭達	-11.3841
志𤣥	-11.3842
蒙衝	-11.3842
侵尅	-11.3842
太倉衛	-11.3842
丙丁日	-11.3844
鳥集	-11.3844
監司	-11.3845
賢愚	-11.3846
厰内	-11.3847
泥塗	-11.3847
庭光	-11.3851
奉詔	-11.3851
經略	-11.3852
羌戎	-11.3853
持滿	-11.3853
搜伏	-11.3853
柴草	-11.3855
次序	-11.3859
邇來	-11.3859
三才陣	-11.386
聼中軍	-11.3863
更迭	-11.3864
疋布	-11.3865
果敢	-11.3865
貪狼	-11.3865
𦂳急	-11.3865
馳逐	-11.3866
攻縣城	-11.3873
分毫	-11.3877
放煙	-11.388
修理	-11.388
叛逆	-11.3882
海防官	-11.3883
思奮	-11.3885
二十七日	-11.3891
者聚爲一卒	-11.3892
材士	-11.3897
嚴整	-11.39
抵城下	-11.3912
鄰國	-11.3918
十有六	-11.3928
如何靖曰	-11.3954
州三百里西	-11.3965
二丈四尺	-11.3971
旺相	-11.404
内迫始擊將	-11.412
查照	-11.4187
王莽	-11.4193
金壇縣	-11.4209
諸葛亮八陣	-11.4229
主大將一宫	-11.4251
壕塹	-11.4284
渡浦	-11.4307
論或問	-11.4326
滄州	-11.4368
篇第二十	-11.4385
國之君	-11.4471
縣城池考	-11.4671
陸路官	-11.4738
疋一丈	-11.4761
徑一尺	-11.4813
欽定四庫全書紀效新書卷十	-11.4851
千斤	-11.4958
俄	-11.4964
般	-11.4966
以分其	-11.4981
閶	-11.4982
西南戰利東北利方陣舉白旗雲氣從西	-11.4984
煆	-11.4989
峴	-11.4993
來逺砦	-11.5006
維某載歳次某甲某月朔某日某將軍某	-11.5011
四面諸州	-11.5013
赴臺下	-11.5016
武宻曰	-11.5016
滆湖	-11.5019
合蟬	-11.5019
一千八百	-11.5019
牲牢	-11.502
疁	-11.5022
珙	-11.5023
永寧砦	-11.5023
民壮弓兵	-11.5024
之日位應	-11.5024
由是觀之	-11.5025
徳順軍	-11.5025
諭以禍福	-11.5026
鹽盜出没	-11.5026
輜	-11.5027
歘	-11.5028
本朝太平興國中	-11.503
父兄	-11.503
景徳中	-11.5031
明鄭若曾撰	-11.5031
頭人身長一丈面	-11.5031
湊	-11.5031
烏泥涇	-11.5032
豁	-11.5033
嵌	-11.5033
鄜	-11.5033
恂	-11.5034
黷	-11.5034
􁏄	-11.5034
蟻	-11.5034
蟄	-11.5034
恢復	-11.5034
孝文	-11.5035
河湟	-11.5035
贏	-11.5035
疇	-11.5036
梧	-11.5036
庚子辛	-11.5036
㐮	-11.5036
衙	-11.5037
糟	-11.5037
梨花	-11.5037
旄	-11.5037
二百里南至	-11.5037
裡	-11.5038
嘉靖三十三年	-11.5038
莫之能	-11.5038
緡	-11.5038
騁	-11.5038
嗟	-11.5039
鎌	-11.5039
秤	-11.5039
箭晝五十	-11.5039
綽	-11.5039
練祁	-11.5039
酈	-11.5039
戊辰己巳	-11.504
漊	-11.504
不可勝紀	-11.5041
縷	-11.5041
勣	-11.5041
曼頭山	-11.5041
起磕	-11.5041
齧	-11.5041
千户所營在	-11.5041
春秋時楚伐	-11.5042
圎	-11.5043
堕	-11.5043
鹵	-11.5043
司馬穰苴	-11.5043
甲寅乙卯	-11.5044
畵	-11.5044
琦	-11.5044
鄖	-11.5044
羅店	-11.5045
繋	-11.5045
慟	-11.5045
也衆以我為	-11.5045
霖	-11.5045
剝	-11.5045
茆	-11.5046
廨	-11.5046
晉文公	-11.5046
曷	-11.5046
莱	-11.5046
傲	-11.5046
振旅	-11.5046
墳	-11.5047
湘	-11.5047
羞	-11.5047
竇建德	-11.5047
七丫	-11.5047
亨	-11.5047
賫	-11.5048
阿史那	-11.5048
韓世忠	-11.5048
四竒四正	-11.5048
洺	-11.5048
甲子乙丑	-11.5048
相謂曰	-11.5048
霍邑	-11.5049
兵者詭道也	-11.5049
墉	-11.5049
縱布四	-11.5049
時八刻	-11.5049
確	-11.5049
遡	-11.5049
敕	-11.5049
䜛	-11.5049
頴	-11.5049
摯	-11.505
廐	-11.505
撅	-11.505
謙溥	-11.505
芝	-11.505
偏裨	-11.5051
捻	-11.5051
炙	-11.5051
釗	-11.5051
知縣王鈇	-11.5051
圻	-11.5051
糧塘里長	-11.5051
祚	-11.5051
女土蝠	-11.5051
鳳翔	-11.5052
黍	-11.5052
儲蓄	-11.5052
鼓噪	-11.5052
煉蜜	-11.5052
率所部	-11.5052
尊卑	-11.5052
陸門四座	-11.5052
嗣業	-11.5052
愁	-11.5052
彦卿	-11.5052
笳	-11.5052
舉黑旗	-11.5052
廪	-11.5052
懽	-11.5052
婁金狗	-11.5052
烽燧	-11.5052
粹	-11.5052
在縣治南	-11.5053
悶	-11.5053
新市平林	-11.5053
口作犬聲	-11.5053
活潑	-11.5053
藪	-11.5053
滸	-11.5054
椀	-11.5054
駱	-11.5054
憾	-11.5054
沐	-11.5054
匐	-11.5054
真卿	-11.5054
睛	-11.5054
篐	-11.5054
奬	-11.5054
謝𤣥	-11.5054
愿	-11.5054
侯暉	-11.5054
誌	-11.5054
譏	-11.5054
以恩信	-11.5054
靛	-11.5054
骨朶	-11.5054
堙	-11.5055
釵鈀	-11.5055
放銃一箇	-11.5055
燼	-11.5055
敬猷	-11.5055
頴胄	-11.5055
霞	-11.5055
翃	-11.5055
風伯雨師	-11.5056
馮異	-11.5056
帽	-11.5056
横瀝	-11.5056
粤	-11.5056
一十四里	-11.5056
駢	-11.5056
翕	-11.5057
知彼知己	-11.5057
策之上也	-11.5057
百粤	-11.5057
以城降	-11.5057
灑	-11.5057
闡	-11.5057
莖	-11.5058
斛律	-11.5058
元韶	-11.5058
篾	-11.5058
迢迢	-11.5058
敵衆我寡	-11.5058
𦙍	-11.5058
昆明	-11.5058
輓	-11.5058
禪	-11.5058
樟	-11.5058
錞	-11.5058
身先士卒	-11.5059
膠淺	-11.5059
慕	-11.5059
樵採	-11.5059
刎	-11.5059
畿	-11.5059
沮洳	-11.5059
皮窩	-11.506
一二三四	-11.506
僧辨	-11.506
史思明	-11.506
鶚	-11.506
辯太乙統宗寳鑑	-11.506
鏖戰	-11.506
亭障	-11.5061
承平日久	-11.5061
綵淘港	-11.5061
設弓兵四十名徃來巡邏	-11.5061
窻	-11.5061
追趕	-11.5061
寐	-11.5062
史記	-11.5062
元諒	-11.5062
曩	-11.5062
呵	-11.5062
致悞	-11.5062
所患者	-11.5062
孝感縣	-11.5062
賞賚	-11.5062
以寡擊衆	-11.5062
皁角	-11.5062
横亘	-11.5063
蟾	-11.5063
陣於卦屬	-11.5063
亞父	-11.5064
嘉靖三十二年	-11.5064
趙奢	-11.5064
凑	-11.5064
狸	-11.5064
柏	-11.5064
䜟	-11.5065
溫	-11.5065
呼吸	-11.5065
斥候	-11.5066
兊	-11.5066
售	-11.5066
汾湖	-11.5066
四錢八分	-11.5066
紙錢	-11.5066
油燭	-11.5066
㗋	-11.5067
為邊患	-11.5067
爨	-11.5067
放起火	-11.5067
木葉山	-11.5068
稻草	-11.5068
賠	-11.5068
聨絡	-11.5068
己丑	-11.5068
議者謂	-11.5069
青澗	-11.5069
軍法責懲	-11.5069
奸雄	-11.5069
災祥	-11.5069
茸	-11.5069
矮	-11.5069
扄	-11.5069
恐怖	-11.5069
餘倣此	-11.507
演武塲	-11.507
鍾離	-11.507
平原曠野	-11.507
捕盜舵工	-11.507
解鞍	-11.507
三十四年乙卯	-11.507
穹	-11.5071
鋤	-11.5071
吕䝉	-11.5071
踈宻	-11.5071
溜	-11.5071
官兵擊敗之	-11.5071
挂	-11.5072
則伏必	-11.5072
摧鋒	-11.5072
扈	-11.5072
假托	-11.5073
戴頭上	-11.5073
月節影長	-11.5073
橘	-11.5074
安陸縣	-11.5074
挺身	-11.5075
幇	-11.5075
倩	-11.5075
乎曰不然	-11.5076
該管官	-11.5077
䋲	-11.5077
絡繹	-11.5078
四河口	-11.5079
軍火器械	-11.508
出軍行師	-11.5081
刋	-11.5081
微妙	-11.5081
騎之致敗	-11.5081
龍潭	-11.5082
渠魁	-11.5083
珥邨	-11.5083
扯	-11.5084
佛郎機	-11.5084
遷徙	-11.5084
七里橋	-11.5084
元瓘	-11.5084
爆	-11.5085
辰上神	-11.5088
疎密	-11.5088
龍仙	-11.509
茅竹	-11.5091
福浙	-11.5092
某官某	-11.5092
百餘級	-11.5093
納音	-11.5095
宣撫	-11.5095
天官書曰	-11.5095
淑	-11.5095
中軍座船	-11.5095
知縣楊芷	-11.5097
鼔則為之	-11.5097
停泊	-11.5099
即孫子之	-11.5099
鷹船	-11.5101
人之將也	-11.5109
漸漸	-11.511
人也是十	-11.511
天棓	-11.5111
此堡之所當設	-11.5111
海防論	-11.5112
善兵者	-11.512
月十二日	-11.5133
有破軍	-11.5136
第一層	-11.5144
一萬四千	-11.5149
二百一十	-11.5184
海濱	-11.5186
孟瀆河	-11.5202
止之曰	-11.5218
杭嘉	-11.526
此二者	-11.5266
之符長	-11.5322
十有八	-11.5386
陽羡	-11.5388
孝武	-11.5483
接壤	-11.5534
星入月	-11.5569
百七十步	-11.5585
南至黄河	-11.5827
順安砦	-11.6388
隐	-11.6434
合河津	-11.644
疵	-11.644
洪徳砦	-11.6441
州在瀘州西南	-11.6442
天下者天下	-11.6443
州析出	-11.6444
清逺軍	-11.6444
者有間其	-11.6444
乾寧軍	-11.6448
篇則取為	-11.6448
捶	-11.6448
北征録曰	-11.6449
宫天目陰徳	-11.6449
李繼遷	-11.6449
有制之兵	-11.645
雞啄	-11.6451
嵒	-11.6451
一枝令百户一員領泊	-11.6453
鄰墩	-11.6453
髙家嘴	-11.6454
宫本宫風	-11.6454
慕恩	-11.6454
駝	-11.6455
他打來	-11.6455
烏合之衆	-11.6455
攬	-11.6456
相為犄角	-11.6456
烏梅肉	-11.6457
袂	-11.6457
風應候軍民寧泰之兆也風自	-11.6457
噙	-11.6458
茭	-11.6459
恁	-11.6459
不出一年	-11.6459
墊	-11.646
討平之	-11.646
䜿	-11.646
陘	-11.6461
醜奴	-11.6461
拴	-11.6461
凱	-11.6461
薛仁杲	-11.6461
泡	-11.6461
朗	-11.6462
矢下如雨	-11.6462
卑濕	-11.6463
桴	-11.6463
周世宗	-11.6463
紆	-11.6463
賃	-11.6463
逾	-11.6463
壬寅癸卯	-11.6463
府佐一員專督	-11.6463
軋	-11.6463
擦	-11.6464
塢	-11.6464
琯	-11.6464
㤙	-11.6465
侯君集	-11.6465
惠亮正通	-11.6465
圉	-11.6466
咬	-11.6466
饌	-11.6466
修葺	-11.6467
朐	-11.6467
百萬之師	-11.6467
閙	-11.6467
嗜	-11.6467
礪	-11.6467
磊	-11.6468
瞎	-11.6468
恵	-11.6468
隳	-11.6468
肢	-11.6468
鋋	-11.6468
佻	-11.6469
謂將士曰	-11.6469
硃砂	-11.6469
戊己日	-11.6469
胞	-11.6469
多方以誤之	-11.6469
溱	-11.6469
鐃	-11.6469
皁	-11.647
藴	-11.647
大非川	-11.647
雌雄	-11.647
魂	-11.647
乙巳火	-11.6471
前秦苻堅	-11.6471
砦二十里西	-11.6471
欣	-11.6471
穰	-11.6472
憲院	-11.6472
談兵者	-11.6472
佳	-11.6472
譙縱	-11.6472
紏	-11.6472
耽	-11.6472
戊子己	-11.6472
心月狐	-11.6472
曄	-11.6472
野無所掠	-11.6473
蝗	-11.6473
室火猪	-11.6473
相為表裏	-11.6473
韓都司	-11.6473
眩	-11.6474
卬	-11.6474
柸	-11.6474
徉	-11.6474
骸	-11.6474
圍漢王於滎陽	-11.6474
槖	-11.6475
分合為變	-11.6475
礨	-11.6475
壬子癸丑	-11.6475
竇建徳	-11.6475
渾瑊	-11.6475
禧	-11.6475
賭	-11.6475
癡	-11.6475
蔵	-11.6475
孟瀆堡	-11.6475
桃花港	-11.6475
董卓	-11.6475
起土山	-11.6475
㓜	-11.6476
窺留都	-11.6476
溝澗	-11.6476
闖	-11.6476
清水窪	-11.6476
秣馬蓐食	-11.6476
籖	-11.6476
右水陸可通之道凡十有	-11.6476
湍	-11.6476
荘	-11.6477
帙	-11.6477
巻	-11.6477
奎木狼	-11.6477
拂	-11.6477
欽定四庫全書太白隂經卷	-11.6477
蜺	-11.6477
艨艟	-11.6478
癸酉	-11.6478
顱	-11.6478
咄	-11.6478
豢	-11.6478
曝	-11.6478
嬖	-11.6478
有識者	-11.6478
殊死戰	-11.6478
登舟沙	-11.6478
諛	-11.6478
蓊	-11.6478
瑾	-11.6478
攩	-11.6478
周亞夫	-11.6478
刹	-11.6478
臧	-11.648
伸縮	-11.648
何謂也靖曰	-11.648
𨽻中軍都督府	-11.648
剡	-11.648
李希烈	-11.6481
馳騁	-11.6481
漬	-11.6481
犢	-11.6481
必由之道也	-11.6481
挹	-11.6481
鈸	-11.6481
唯亭	-11.6481
我可以往彼可以來	-11.6481
減竈	-11.6481
甥	-11.6481
八槳船	-11.6482
夜不收	-11.6482
餱	-11.6482
就於本	-11.6482
尉遲迥	-11.6483
六十八步	-11.6483
不外乎	-11.6483
日午時	-11.6483
掌號笛	-11.6483
亢金龍	-11.6483
覈	-11.6483
臨洺	-11.6483
頥	-11.6483
叅將雖發	-11.6483
卜筮	-11.6484
金木水火土	-11.6484
么	-11.6484
甓	-11.6484
蝦	-11.6484
魔	-11.6484
愎	-11.6484
巡按御史周公如斗	-11.6484
龍首經曰	-11.6484
客聞賊備東北第	-11.6485
跣	-11.6485
彥	-11.6485
拊	-11.6485
章練塘	-11.6485
躱	-11.6485
開一門	-11.6485
碧	-11.6486
毎箇重	-11.6486
躓	-11.6486
長一丈三尺	-11.6486
孛	-11.6486
韓彭	-11.6486
兢	-11.6486
莫敖	-11.6486
增減	-11.6487
淪	-11.6487
溟	-11.6487
長一丈六尺	-11.6487
年月日具官某謹	-11.6487
念呪曰	-11.6487
汞	-11.6487
汙	-11.6487
覔	-11.6487
堂堂之陣	-11.6487
巡按御史	-11.6487
廟堂	-11.6487
鞨	-11.6487
抝	-11.6487
蠱蟲	-11.6487
霾	-11.6488
慚	-11.6488
忠孝	-11.6488
伴	-11.6488
泓	-11.6488
田塍	-11.6488
爲敵所	-11.6488
鷙鳥	-11.6489
花靨	-11.6489
天時地利	-11.6489
栖	-11.6489
开	-11.6489
曲間容曲	-11.6489
巡撫軍門	-11.649
從事於	-11.649
惮	-11.649
官吏軍民	-11.649
日出寅	-11.649
防範	-11.649
紊亂	-11.649
悮	-11.649
冥	-11.649
剿	-11.649
武王問太公曰引兵深入諸侯之地	-11.6491
彼兵臨我我兵	-11.6491
右以方陣為	-11.6491
陷穽	-11.6492
無能為也	-11.6492
丘墓	-11.6492
兵不血刃	-11.6492
菌	-11.6492
八卦而轉居於	-11.6492
飢渇	-11.6492
三百四十步	-11.6492
甬	-11.6492
滌	-11.6493
算外即	-11.6493
如何太公曰	-11.6493
紓	-11.6494
件件	-11.6494
島人能之沙民亦能之	-11.6494
曾門經曰	-11.6495
縑	-11.6495
繼倫	-11.6495
骸骨	-11.6495
舅	-11.6495
猊	-11.6496
勃律	-11.6496
箭三𤼵	-11.6496
昨	-11.6496
圭	-11.6496
戰鋒等隊	-11.6496
勺零	-11.6496
㤗	-11.6497
待其衰	-11.6497
篤	-11.6497
埭	-11.6497
償	-11.6497
賦斂	-11.6497
軍馬軍次	-11.6498
驍悍	-11.6498
衣甲器械	-11.6498
與金合	-11.6499
零農桑絲折絹	-11.65
㒺	-11.65
濃煎	-11.65
雙河口	-11.65
逆鬚	-11.6501
陷馬坑	-11.6502
不灰木	-11.6503
盈縮	-11.6505
不足恃也	-11.6505
新塘橋	-11.6505
勝聞賊備西北竒兵西北伏兵利辰巳時	-11.6505
窄狹	-11.6505
仔細	-11.6505
粥飲	-11.6505
醒	-11.6506
祕	-11.6506
沒其家	-11.6507
麄	-11.6509
三更船	-11.6509
不可舉事用兵	-11.6509
齋戒	-11.651
折衝果毅	-11.651
吹喇叭	-11.6511
筩	-11.6512
豚	-11.6514
菉豆	-11.6518
移營避之	-11.6519
淡水門	-11.652
該工食銀	-11.652
枕其十	-11.6523
嶴	-11.6524
􁳆	-11.6529
揷	-11.6532
下謀上	-11.6534
舩	-11.6535
所以獨用	-11.6539
戰數合	-11.654
如死灰	-11.6545
死者甚衆	-11.6546
也一劉家河	-11.6547
千八百七十	-11.6554
州在州西	-11.6564
勢不得不	-11.6568
巢柘林	-11.6645
尺八寸	-11.6768
校四陣	-11.6817
州四百里西	-11.6877
寇若自	-11.6916
本朝咸平	-11.693
十有四	-11.7032
宫囚客㕘將	-11.7251
令者誅	-11.7265
軍上雲	-11.7321
南至中京	-11.7348
一客大將一宫	-11.742
天寳中	-11.7432
邕	-11.7635
利為客見陣利先動出軍宜正	-11.7737
在縣治西南	-11.7804
養兵銀	-11.7814
北至蕃界	-11.7878
歎	-11.7992
宜固守聞賊備西南第	-11.8008
徇	-11.8046
爲一卒名曰	-11.8048
夏后氏	-11.8083
疼痛	-11.8093
雄勇津	-11.8097
靜邊鎮	-11.8098
三門具五將發	-11.8098
唃	-11.81
卞	-11.8101
按皇華四達記	-11.8105
砦太平興國中築	-11.8106
宣歙	-11.8106
保定軍	-11.8107
籌陰誦	-11.8107
瀾	-11.8108
蘸	-11.8109
藝文志	-11.8111
庄	-11.8117
將佐三員領	-11.8117
墌	-11.8117
冡	-11.8117
扁身中攔	-11.8118
覻	-11.8118
横陽河	-11.8118
源口南至	-11.8118
看大總管處	-11.8119
卯此局	-11.812
諸葛武侯	-11.812
雍熙	-11.812
蚓	-11.8121
僰	-11.8121
門起者軍民不利也	-11.8121
佑	-11.8123
古北口	-11.8123
絺	-11.8123
地耳在戊	-11.8123
猺	-11.8123
滔	-11.8124
旬天目在庚	-11.8124
隧	-11.8124
馬鞍山	-11.8125
朶	-11.8126
天覆地載	-11.8126
縣後沙	-11.8127
疣	-11.8127
一區處	-11.8128
呂	-11.8128
孱	-11.8128
虎鈐經	-11.8129
守陴者	-11.8129
招討使	-11.8129
閃賺是花鎗	-11.8129
脰	-11.8129
庚午辛	-11.813
絶其糧道	-11.813
倐	-11.813
波濤	-11.8131
是役也	-11.8131
苓	-11.8132
州至百坡州	-11.8132
劑	-11.8133
詘	-11.8133
种	-11.8133
塚	-11.8133
巂	-11.8133
鼂	-11.8133
耼	-11.8133
閫	-11.8133
擂皷吹天鵞聲	-11.8133
臻	-11.8133
示之以弱	-11.8133
偪	-11.8133
劉牢之	-11.8134
攫	-11.8134
優劣	-11.8134
笞	-11.8134
鯨	-11.8134
燄	-11.8134
甃以磚石	-11.8134
人何得而稱	-11.8134
砦在縣東三程	-11.8134
磔	-11.8135
尉遲敬徳	-11.8135
葛從周	-11.8135
恬	-11.8135
桕	-11.8135
李抱真	-11.8135
瀦	-11.8135
瓘	-11.8135
蘇定方	-11.8135
衷	-11.8135
毘	-11.8136
不得已則鬭	-11.8136
孺	-11.8136
日丙子丁丑水時戊寅己	-11.8136
北征錄曰	-11.8136
冕	-11.8136
逋	-11.8136
霹靂戰車	-11.8136
何博士備論	-11.8136
彘	-11.8136
晉王存朂	-11.8136
煅	-11.8136
蔑不勝矣	-11.8137
乙未金時丙申丁酉火時戊戌己亥木時	-11.8137
緊	-11.8137
歪	-11.8137
軻	-11.8137
萬二千五百人為軍	-11.8137
木時壬辰	-11.8137
大破楚軍	-11.8137
迦	-11.8137
昊	-11.8137
五八門杜主大將㕘將不出中宫始擊將	-11.8137
葱	-11.8137
齊景公	-11.8137
窕	-11.8138
匾	-11.8138
岷	-11.8138
丁未水時戊申己酉土時庚戌辛亥金時	-11.8138
杯	-11.8138
火時庚寅	-11.8138
僚	-11.8138
旬地兵在	-11.8138
罄	-11.8138
俞大猷	-11.8138
楷	-11.8138
熲	-11.8138
癸未木時甲申乙酉水時丙戌丁亥土時	-11.8138
己未火時庚申辛酉木時壬戌癸亥水時	-11.8138
時庚辰	-11.8138
諸道兵	-11.8138
邲	-11.8139
斬馬刀	-11.8139
眇	-11.8139
兵家者流	-11.8139
媚	-11.8139
歧	-11.8139
腥	-11.8139
陌	-11.8139
槃	-11.8139
賀若弼	-11.8139
蹻	-11.814
以前為後以後為前	-11.814
净	-11.814
臠	-11.814
上㑹桄	-11.814
燦	-11.814
靜邊砦	-11.814
縵	-11.814
中郎將	-11.814
捜	-11.814
有虞氏	-11.814
砦守之東至	-11.8141
陟	-11.8141
鉤	-11.8141
罨頭木	-11.8141
眯	-11.8141
訾	-11.8141
彭陽城	-11.8141
啄	-11.8141
重地則掠	-11.8141
平戎萬全陣	-11.8141
妖氛	-11.8141
豺狼	-11.8141
瞬	-11.8142
芥	-11.8142
薳	-11.8142
貝	-11.8142
楔	-11.8142
將婁宇	-11.8142
諂	-11.8142
利則進不利則	-11.8143
北至界首嶽嶺路約	-11.8143
發客㕘將	-11.8143
憫	-11.8143
棠	-11.8143
偕	-11.8143
麴	-11.8143
碣	-11.8143
縣倭患事蹟	-11.8143
壍	-11.8143
攖	-11.8143
胡公宗憲	-11.8143
莅	-11.8143
燕尾炬	-11.8143
睹	-11.8143
趐	-11.8144
州至㑹野州	-11.8144
悚	-11.8144
鈎鐮	-11.8144
鑕	-11.8144
仍其舊	-11.8144
兩圍七寸	-11.8144
璧水㺄	-11.8144
寸小徑二寸八分	-11.8144
也列河	-11.8144
北客聞賊備東南第	-11.8144
匙	-11.8144
鬛	-11.8144
値	-11.8145
先聲後實	-11.8145
吭	-11.8145
朝野僉	-11.8145
危月燕	-11.8145
褐	-11.8145
唧	-11.8145
駑	-11.8145
迯	-11.8145
栽	-11.8145
笮	-11.8146
尙	-11.8146
所從來	-11.8146
栁土獐	-11.8146
有鬭心	-11.8146
躬擐甲胄	-11.8146
也此一節言	-11.8146
天官時日	-11.8146
里半北至界首約二十	-11.8146
酪	-11.8146
不利宜固守聞賊備東南第	-11.8146
天鵞聲	-11.8147
之羽翼	-11.8147
潯	-11.8147
叟	-11.8147
攷	-11.8147
申酉戌時主	-11.8147
丁字回	-11.8148
蝶	-11.8148
餙	-11.8148
更戰更息	-11.8148
月初四日	-11.8148
匣	-11.8148
恠	-11.8148
昴日雞	-11.8148
畢月烏	-11.8148
第二角聲動前行向左後行向右	-11.8148
周尉繚撰	-11.8148
四竒四正龍虎鳥蛇	-11.8148
椽	-11.8148
黛	-11.8148
陰主客算	-11.8148
西北戰利東南利曲陣舉黑旗雲氣從西	-11.8148
滛	-11.8148
蹕	-11.8148
未申時主	-11.8148
應弦而倒	-11.8149
參水猿	-11.8149
嘔	-11.8149
王江涇	-11.8149
辰戌丑未	-11.8149
故明君	-11.8149
者其中路也由	-11.8149
鈇	-11.8149
譲	-11.8149
黄石公三畧	-11.8149
元和中	-11.8149
澠	-11.8149
脾	-11.8149
氐土貉	-11.8149
張月鹿	-11.8149
胃土雉	-11.8149
芳	-11.8149
猷	-11.8149
神䇿軍	-11.8149
各府州縣	-11.8149
圖篇第六十	-11.8149
宫天目地主主算	-11.815
寅卯辰時	-11.815
釜	-11.815
孽	-11.815
軫水蚓	-11.815
霑	-11.815
旍	-11.815
都司梁鳳	-11.815
呵呵	-11.8151
瞳	-11.8151
蛤	-11.8151
吠	-11.8151
扳	-11.8151
詵	-11.8151
子此局	-11.8151
李漢瓊	-11.8152
年月日時	-11.8152
遐	-11.8152
記之記之	-11.8152
鰍	-11.8152
畀	-11.8152
州至羅巖州	-11.8152
戧	-11.8152
箠	-11.8152
軒	-11.8152
安守忠	-11.8153
虵	-11.8153
井木犴	-11.8153
娑	-11.8153
閤	-11.8153
南戰利正北利圓陣舉黄旗雲氣從南來	-11.8153
胷臆	-11.8153
韜鈐	-11.8153
寅午戌	-11.8154
百發百中	-11.8154
未足為	-11.8154
黄石公素書	-11.8154
十二子用麻	-11.8154
揉	-11.8154
斬首數百級	-11.8154
驤	-11.8154
夙	-11.8154
斗四升	-11.8154
方圓曲直鋭	-11.8154
惻	-11.8154
壖	-11.8155
當此之時	-11.8155
謡	-11.8155
水灌城	-11.8155
弋	-11.8155
晁	-11.8155
暘	-11.8155
三畧直解	-11.8155
汛畢無警	-11.8155
遴	-11.8156
稷	-11.8156
雙嶼港	-11.8156
皝	-11.8156
鋒鏑	-11.8156
一尺九寸	-11.8156
楞	-11.8156
軍步軍次	-11.8156
夏税小麥	-11.8156
巡司在吳江縣東	-11.8156
是以明其	-11.8156
鄂	-11.8156
鉅鹿	-11.8156
州四百二十里	-11.8156
出死力	-11.8156
掠諸邨鎮	-11.8156
癘	-11.8156
紐	-11.8156
液	-11.8157
韻	-11.8157
昶	-11.8157
官兵擊却之	-11.8157
京房曰	-11.8157
翻身上小跳翻身下	-11.8157
鞍轡	-11.8158
舉黒旗	-11.8158
獺	-11.8158
一體坐罪	-11.8158
被犯之營	-11.8158
醬	-11.8159
挾主叅將	-11.8159
餽	-11.8159
浴	-11.8159
鈎䥥	-11.8159
廟州門	-11.8159
立効治馬	-11.8159
元甲子第	-11.8159
鳴金三聲	-11.816
軍各二千八百人	-11.816
在縣城西北	-11.816
鑲	-11.8161
斗木獬	-11.8161
狎	-11.8161
臍	-11.8162
恃吾有	-11.8162
膩	-11.8162
害霸也	-11.8162
旬陰在丁	-11.8162
賊首徐海	-11.8163
米一石	-11.8163
姪	-11.8163
副都頭副兵馬使以上	-11.8163
匾擔沙	-11.8163
讚	-11.8163
知州熊桴	-11.8163
疾擊其	-11.8164
躱閃	-11.8164
休廢囚死	-11.8164
蠢	-11.8164
所恃者	-11.8164
師之屯致	-11.8164
牛頭山	-11.8165
璽	-11.8165
圖一首張煜之所演也	-11.8165
氿	-11.8165
𤾉	-11.8165
喧嚷	-11.8166
荅	-11.8166
櫳	-11.8166
憩	-11.8167
五十人為隊	-11.8167
毖	-11.8167
蹬	-11.8167
鍤	-11.8167
武王問太公曰引兵深入諸侯之地與敵	-11.8168
踞	-11.8169
把總船旗心用色邊用色帶用色	-11.8169
城可屠	-11.817
拌	-11.8172
道自西京	-11.8172
屠羊説	-11.8172
廏	-11.8172
𣺌	-11.8172
瘠	-11.8173
地後䡴	-11.8175
審知賊	-11.8175
桀紂	-11.8176
麻陽兵	-11.8177
城之氣出而	-11.8177
巳酉丑	-11.8178
杼	-11.8178
在府治東南	-11.8178
庖	-11.8179
長蕩湖	-11.818
一窩蜂	-11.8182
廵捕官	-11.8184
倭舶之來	-11.8185
)􁀙(	-11.8185
瀉	-11.8187
珮	-11.8188
旬六庚在	-11.8188
霄	-11.8189
之而觀其無	-11.8192
針四更船	-11.8192
從外入	-11.8198
攪匀	-11.8202
故次之以	-11.8212
其信地則	-11.8214
之兆也或	-11.8214
地後衝	-11.8215
可保無	-11.8224
兵貴神速	-11.8227
月九日	-11.8231
金時甲	-11.8275
始擊將吕申客算	-11.8359
訶訶	-11.8379
十有七	-11.8441
聲如雷	-11.8443
水時丙	-11.8473
巡司在縣治西	-11.85
一萬七千	-11.8796
百八十步	-11.8945
水時甲	-11.9089
夜半生甲子	-11.9102
人學戰敎成	-11.9389
羡	-11.9605
他若使	-12.0045
欽定四庫全書武編前集卷	-12.0084
一川之口	-12.0087
蓋天下然後能	-12.0088
汭	-12.0089
賀蘭山	-12.0089
弓門砦	-12.0092
餘竒為握竒	-12.0094
州九日程	-12.0096
部署以下兵官	-12.0096
砦在軍城	-12.0096
子母砲	-12.0099
祇	-12.0101
慶厯中築東至	-12.0102
鵶	-12.0103
州在瀘州東南	-12.0103
躔	-12.0104
稔	-12.0104
天禧中築東	-12.0104
涵	-12.0107
即投籌轉安	-12.0107
月已蝕而	-12.0107
各軍手執	-12.0107
穣	-12.0108
钂	-12.0108
韓魏之君	-12.0108
至道中五路出師	-12.0109
閬	-12.0109
手前一尺	-12.011
鳳㸃頭	-12.0111
寧逺砦	-12.0111
遊奕小探	-12.0111
床穰砦	-12.0112
㳟	-12.0113
臼	-12.0113
椎	-12.0113
鈕	-12.0114
踣	-12.0115
殲	-12.0115
屛	-12.0115
雹	-12.0116
歷	-12.0116
石晉割賂	-12.0116
順江洲	-12.0116
松亭關	-12.0117
鉅	-12.0118
帷	-12.0119
寖	-12.0119
脣	-12.0119
直符時加	-12.0119
億	-12.012
綬	-12.012
成安君	-12.012
緋	-12.012
踊	-12.0121
鼉	-12.0121
桂陽監	-12.0121
燉煌	-12.0121
百二十具	-12.0121
雁	-12.0122
祁連山	-12.0122
虜魏王豹	-12.0123
者敗候也	-12.0123
有干令犯禁者揭之免於罪知而弗揭	-12.0123
响	-12.0124
士卒輕刑	-12.0124
椓	-12.0124
辰星與太白	-12.0125
卲	-12.0125
朂	-12.0125
燮	-12.0125
燕晉之師	-12.0125
薰	-12.0125
鑊	-12.0126
殞	-12.0126
筐	-12.0126
仝	-12.0127
刁	-12.0127
淬	-12.0128
泊蔡洲	-12.0128
州至羅巖州四十里至州四百四十里	-12.0128
誥	-12.0128
後漢更始初	-12.0128
撾	-12.0129
澇	-12.0129
桑乾河	-12.0129
白土口鋪	-12.0129
鞠	-12.0129
驥	-12.0129
不曰戰而曰	-12.0129
王者愼勿	-12.0129
較之兵船不如也	-12.0129
蛛	-12.013
一跪一揖	-12.013
乾坤艮巽	-12.013
擊其惰歸	-12.0131
摽	-12.0131
仭	-12.0131
緜	-12.0131
蜆	-12.0131
喋	-12.0131
國朝吳元年	-12.0131
攻其所必	-12.0131
龔	-12.0132
㙮	-12.0132
百户十員	-12.0132
之所起起自	-12.0132
入他境	-12.0132
劣	-12.0132
九天之上	-12.0133
唤	-12.0133
胡盧河	-12.0133
洪武十九年	-12.0133
謟	-12.0134
楓	-12.0134
金花銀	-12.0134
隷	-12.0134
髀	-12.0134
孑	-12.0134
齊威王	-12.0134
綺	-12.0134
若知破法令	-12.0134
駞	-12.0135
儂	-12.0135
倭人入寇	-12.0135
皎	-12.0135
齕	-12.0135
彪	-12.0135
草城川	-12.0135
致人而不致於人	-12.0135
夸	-12.0135
拄	-12.0135
腹背受敵恐非萬全	-12.0135
主將見破	-12.0135
破陣樂	-12.0136
琬	-12.0136
嫚	-12.0136
康定中	-12.0136
鳴金大吹打	-12.0136
丁字步	-12.0136
下扇桄	-12.0136
五千七百六十	-12.0136
縣備寇水陸路考東	-12.0136
國朝洪武二	-12.0136
尉遲逈	-12.0136
新開河	-12.0136
淄	-12.0137
漢書藝文志	-12.0137
脛	-12.0137
天下莫當	-12.0137
景德中	-12.0137
知徳安府	-12.0137
埀	-12.0137
哨則認	-12.0137
霪	-12.0137
茒	-12.0138
空壁逐	-12.0138
攻趙趙使	-12.0138
能有其有者安貪人之有者殘	-12.0138
摭	-12.0138
苧	-12.0138
因風縱火	-12.0138
垠	-12.0138
侈	-12.0138
如轉圓石	-12.0138
新羅國	-12.0138
謫	-12.0138
二千人派之	-12.0138
拽砲人	-12.0138
欽定四庫全書尉繚子卷	-12.0138
荆城港	-12.0138
舛	-12.0139
觜火猴	-12.0139
凡與敵戰	-12.014
李左車	-12.014
蘇松常鎮四郡	-12.014
新漲沙	-12.014
蹇	-12.014
戰利西南利直陣舉青旗雲氣從東北來	-12.014
煖	-12.014
岀其不意	-12.014
冼	-12.014
陬	-12.014
玄	-12.0141
錘	-12.0141
諷	-12.0141
虚日鼠	-12.0141
滏	-12.0141
駱元光	-12.0141
西南西北二隅	-12.0141
臾	-12.0141
以衆擊寡	-12.0141
勇者不得獨進怯者不得獨退	-12.0141
掖	-12.0141
纎	-12.0142
紫濛川	-12.0142
白鶴江	-12.0142
磯	-12.0142
挟	-12.0142
道之正者也	-12.0142
如驅羣羊	-12.0142
槊	-12.0142
瑀	-12.0142
熸	-12.0142
閫外之	-12.0143
明何良臣撰	-12.0143
菉葭浜	-12.0143
鹿耳四夾軸	-12.0143
僕固懐恩	-12.0143
渤	-12.0143
井字開方	-12.0143
趋	-12.0143
嘯	-12.0143
攪	-12.0143
申子辰	-12.0144
楫	-12.0144
僱	-12.0144
哥舒翰	-12.0144
顏	-12.0144
我搖花鎗乃	-12.0144
制形兵因敵	-12.0144
怛	-12.0144
五行置章于	-12.0144
疾雷不及掩耳	-12.0144
蜀將姜維	-12.0144
寘	-12.0145
輟	-12.0145
彚	-12.0145
不便於事	-12.0145
宫天目高藂	-12.0145
五栁口鋪	-12.0145
李矩守滎陽	-12.0145
鄆	-12.0145
萍	-12.0146
一兩人大門對打	-12.0146
襪	-12.0146
哱囉各起身	-12.0146
居庸關	-12.0146
元至元	-12.0146
相顧失色	-12.0146
糗	-12.0146
旗藍邊一面	-12.0146
舉赤旗雲氣從東南來客勝聞賊備	-12.0146
茨	-12.0147
胯	-12.0147
漾	-12.0147
霍去病	-12.0147
屎	-12.0147
下明鄭若曽撰	-12.0147
燈籠一盞	-12.0147
除仰斜留六尺五寸	-12.0147
房日兔	-12.0147
楹	-12.0147
客勝聞賊備西北奇兵西北伏兵	-12.0147
宫天目大威	-12.0147
始擊將大神客算	-12.0147
溯	-12.0148
沾	-12.0148
詬	-12.0148
瞽	-12.0148
擕	-12.0148
旗紅邊一面	-12.0148
日入戌	-12.0148
甘德曰	-12.0149
妬	-12.0149
白露屋	-12.0149
今之議者	-12.0149
兩翼後援	-12.0149
雖格叅將發依依利	-12.015
皆曰非所及也	-12.015
姥	-12.015
宇文士及	-12.015
甎	-12.015
盍	-12.015
角聲一鼓聲	-12.015
攬英雄之心	-12.015
膚	-12.015
主客俱不利各宜固守主	-12.0151
䥥	-12.0151
炫	-12.0151
莾	-12.0151
侵掠如火	-12.0151
吻	-12.0151
牐	-12.0151
卻	-12.0151
樣	-12.0151
知縣萬思謙	-12.0151
校尉司馬部後居地如法	-12.0151
洽	-12.0151
秪	-12.0151
籲	-12.0152
因而誤事者	-12.0152
曠日持久	-12.0152
麽	-12.0152
憐	-12.0152
中軍放砲一箇	-12.0152
彼知破法	-12.0152
聿	-12.0152
洳	-12.0153
紬	-12.0153
浄	-12.0154
求戰不得	-12.0154
鹹	-12.0154
犨	-12.0154
北戰利正南利曲陣舉黑旗雲氣從北來	-12.0154
客叅將四宫	-12.0154
客聞賊備正西第	-12.0154
瑟	-12.0154
苴	-12.0154
匄	-12.0155
娯	-12.0155
羿	-12.0155
隊間容隊	-12.0155
非善之善者也	-12.0155
僕固懷恩	-12.0155
廊廟之	-12.0155
竦	-12.0155
臉	-12.0156
主勝聞賊備東北竒兵東北伏兵利	-12.0156
漣	-12.0156
扛	-12.0156
恡	-12.0156
爇	-12.0156
陪	-12.0156
洞庭兩山	-12.0156
頷	-12.0156
麩	-12.0156
詮	-12.0156
我衆彼寡	-12.0156
蟇	-12.0157
掇	-12.0157
伍子胥	-12.0157
岌	-12.0157
四通八達	-12.0157
顫	-12.0157
以將兵士卒	-12.0157
無地分馬	-12.0157
賤而勇者	-12.0157
正正之旗	-12.0158
璧	-12.0158
勝兆也	-12.0158
尼雅滿	-12.0158
主算二十五八門杜主大將	-12.0158
秋分八月中	-12.0158
篆	-12.0158
六韜卷第	-12.0158
㴞	-12.0158
黄泗浦	-12.0158
贓	-12.0158
覬	-12.0159
􁀊	-12.0159
煞	-12.0159
相為掎角	-12.0159
昵	-12.0159
𢃄	-12.0159
越我前後	-12.0159
遹	-12.0159
單擺開喇叭	-12.016
皇甫嵩	-12.016
聼吹擺隊伍喇叭	-12.016
戡	-12.016
敘	-12.016
妓	-12.016
千變萬化	-12.016
帑	-12.016
箕水豹	-12.016
陣令各軍作犬聲	-12.016
癰	-12.0161
戌亥時客	-12.0161
褥	-12.0161
一鑚打開	-12.0161
在縣城南	-12.0161
客見陣利先動出軍宜東北戰利西南	-12.0161
旗黄邊一面	-12.0161
申包胥	-12.0161
吳元濟	-12.0162
馬跡山	-12.0162
坐作進退	-12.0162
鏡	-12.0162
把總劉堂	-12.0162
滕	-12.0162
手撚茅草	-12.0162
賑	-12.0162
貺	-12.0162
谷瀆港	-12.0163
扵	-12.0163
能一一而設備也惟當摘其中之尤要者	-12.0163
僖	-12.0163
瘀	-12.0163
陣被破賊首念咒作	-12.0163
籌海圖編	-12.0163
哺	-12.0163
遂解閼與之圍	-12.0164
鍛	-12.0164
可突千	-12.0164
望斗人	-12.0164
歉	-12.0165
貎	-12.0165
䖟	-12.0165
暖	-12.0165
窰	-12.0165
叨	-12.0165
鏨	-12.0165
斑	-12.0167
黄田港	-12.0167
榦	-12.0167
礫	-12.0168
星之使也	-12.0168
筮	-12.0168
形人而我無形	-12.0168
刳	-12.0169
炁	-12.0169
主將臨陣黙念	-12.0169
混江龍	-12.0169
卭	-12.017
者不坐一	-12.017
之令得行於	-12.017
牕	-12.017
愆	-12.0171
摺法也名	-12.0171
烏鳴其上王相	-12.0171
將軍死金	-12.0171
為月朔則	-12.0171
璠	-12.0171
瑯	-12.0172
總督尚書張公經	-12.0172
時加申子鳴其上	-12.0173
保全功臣	-12.0173
視軍情	-12.0173
概	-12.0174
崎	-12.0175
蹷	-12.0175
酗	-12.0176
畨王死	-12.0176
軍上有氣	-12.0176
鵠	-12.0176
竒正相變	-12.0177
罳	-12.0178
刧	-12.0178
窊	-12.0179
春汛時月	-12.0181
工料銀	-12.0181
鼇	-12.0182
吉破陣用	-12.0182
撇	-12.0183
賊勢重大	-12.0183
破陣作鴉聲	-12.0183
述昆州	-12.0183
衮	-12.0184
鳴鑼三通	-12.0185
㓙將也主	-12.0185
天居兩端	-12.0192
鎗來扎我	-12.0194
爿	-12.0197
每五垜	-12.0198
篇為第	-12.0202
墜軍中者	-12.0205
望彼軍上	-12.0209
牌架手把銃	-12.0209
治以重罪	-12.0249
陸費墀欽定四庫全書	-12.0736
除仰斜留一丈	-12.0824
至崑山縣界	-12.1121
至長洲縣界	-12.1176
上取第	-12.1212
之日夜半生	-12.1287
計神丑此局	-12.1291
除之不盡者命起	-12.1373
為主宜固守聞賊備西北第	-12.1594
本路置州兵及朝廷遣禁	-12.2225
㕘將不出中宫始擊將	-12.2336
上中下上中下	-12.2494
媯	-12.2502
清澗城	-12.2537
裨	-12.2547
鄯	-12.2558
太平興國	-12.257
咸平中陷今為偽	-12.2578
沅	-12.2581
管山前夷人丁口	-12.2589
右各等分為	-12.2591
館又七十里至	-12.2591
館又五十里至	-12.2592
梨花擺頭	-12.2594
鄞	-12.2594
糶	-12.2595
都護府	-12.2596
名山大川	-12.2596
華池鎮	-12.2596
萬兵已上大角	-12.2596
頭人身長四尺五寸面	-12.2596
頡	-12.2597
者豈非其機在	-12.26
湴	-12.2602
祏	-12.2602
大將迫主客俱不利各宜固守主聞賊備	-12.2604
䑓	-12.2604
翹	-12.2605
碓	-12.2605
淝	-12.2607
以廉隅二法	-12.2607
邁	-12.2607
淯	-12.2607
髙宗占曰月	-12.2607
匏	-12.2608
鴨緑江	-12.2609
儔	-12.2609
寸厚三分	-12.2609
管山後夷人丁口	-12.2609
薫	-12.261
而使吾軍之不	-12.261
涎	-12.2611
萬之衆侵伐之地不及五	-12.2611
陽縣界一百	-12.2611
萬之師矣降之不溢三	-12.2612
剗	-12.2613
甲己之日	-12.2613
泠	-12.2613
若敵先来攻	-12.2614
陴	-12.2614
無曠㳟	-12.2614
芮	-12.2615
縈	-12.2616
羯	-12.2616
澌	-12.2616
阡	-12.2616
劵	-12.2616
尺一東起	-12.2616
秦始皇	-12.2616
齊之技擊	-12.2616
冢	-12.2617
驀	-12.2617
搠	-12.2617
因糧於敵	-12.2617
鴦	-12.2618
瞭角嘴	-12.2618
郭元振	-12.2618
郭知運	-12.2618
勢不兩立	-12.2618
為熟一試	-12.2618
聯	-12.2619
都廵檢使	-12.2619
壳	-12.262
每服一錢	-12.262
每當汛期	-12.262
第二第三指	-12.262
無乃不可乎	-12.262
枕封侯	-12.262
澶	-12.262
邐	-12.2621
鯢	-12.2621
羙	-12.2621
赫連勃勃	-12.2621
安北都䕶	-12.2621
瓦亭砦	-12.2621
右𨽻金山衛	-12.2621
杆二百輛共	-12.2621
索一十條	-12.2621
羊狀砦	-12.2621
巍	-12.2623
衫	-12.2623
阸	-12.2623
或專取於	-12.2623
郃	-12.2624
孔彦舟	-12.2624
卹	-12.2624
排叉柱	-12.2624
以生牛革	-12.2624
罟	-12.2624
圃	-12.2624
者人有其一皆可使之也	-12.2624
鑊底潭	-12.2624
座雉堞三千	-12.2625
犴	-12.2625
杪	-12.2625
誼	-12.2625
你劄我我拏	-12.2625
獨出獨入	-12.2625
躪	-12.2625
兔毛川	-12.2625
柄長七尺以上三百枚	-12.2625
䂓	-12.2627
色明客勝月	-12.2627
以軍法處治	-12.2627
凹	-12.2627
啞	-12.2627
壹	-12.2627
栁泉鎮	-12.2627
娱	-12.2627
煦	-12.2627
蹴	-12.2627
劈	-12.2628
翁紹宗	-12.2628
鬼金羊	-12.2628
桓文之節制	-12.2628
而膽不充則	-12.2628
棓	-12.2629
勢者可以自	-12.2629
耨	-12.2629
神臂弩	-12.2629
頭人身長六尺五寸面	-12.2629
葵	-12.263
二年癸丑閏三月賊	-12.263
欽定四庫全書陣紀卷	-12.263
暐	-12.263
者人有其一不可使	-12.263
韋孝寛為	-12.263
鞴	-12.263
毗杖節	-12.2631
讙	-12.2631
愍	-12.2631
𣙜	-12.2631
如率然率然者常山	-12.2631
悼	-12.2631
蛇也擊其首則尾至擊其尾則首至	-12.2631
至火山軍	-12.2631
摺	-12.2631
秦之鋭士	-12.2631
綑打一百割耳	-12.2631
覊	-12.2631
言善惡如其言	-12.2631
安逺侯經畧海	-12.2632
罏	-12.2632
難與爭鋒	-12.2632
農桑絲折絹一	-12.2632
悴	-12.2632
更戍外又領鄉軍義勇	-12.2632
兵者國之大事	-12.2632
埠	-12.2632
春秋時晉師伐	-12.2632
路道之正也	-12.2632
鑾	-12.2632
年月日某謹禡于	-12.2632
構	-12.2632
溧	-12.2632
砦在縣東一程	-12.2632
譙道福	-12.2632
八十里北至契丹界無鋪東北至	-12.2633
諭以逆順	-12.2633
􁌙	-12.2633
能而示之不能用而示之不用	-12.2633
郗	-12.2633
陸門六座	-12.2634
搥	-12.2634
鮝	-12.2634
理故耐	-12.2634
苪	-12.2634
風汛時月	-12.2634
乾隆四十五年	-12.2634
斲	-12.2634
無首從同罪	-12.2634
前禦其前後禦其後左防其左右防其右	-12.2634
字為合第	-12.2634
方七宿共	-12.2634
栒	-12.2634
砦在縣東南一程	-12.2634
不利為客宜固守聞賊備正	-12.2634
與之安與之危	-12.2634
僣	-12.2634
倍道旋師	-12.2634
簒	-12.2634
駿	-12.2635
青崗峽	-12.2635
埒	-12.2635
知縣楊旦	-12.2635
婪	-12.2635
府守城官兵考	-12.2635
中千户所領軍一千名	-12.2635
殻	-12.2635
秀州塘	-12.2635
至中央土河	-12.2635
昱	-12.2635
西魏將楊忠	-12.2635
譖	-12.2636
罇	-12.2636
瘁	-12.2636
自鄴以北列陣數十里	-12.2636
座雉堞一千	-12.2636
駃	-12.2636
四頭八尾觸處為首敵衝其中兩頭皆救	-12.2636
迍	-12.2636
喙	-12.2636
枷	-12.2636
港汊浩繁	-12.2636
讋	-12.2636
㸃睛深而	-12.2636
夲	-12.2636
賊將李歸仁	-12.2637
勝不相讓敗不相救	-12.2637
榜	-12.2637
賊衆我寡	-12.2638
聼吹哱囉起身	-12.2638
圍師必闕	-12.2638
哥	-12.2638
郝	-12.2638
旴	-12.2638
至常熟之南門	-12.2638
乾歸曰益州	-12.2638
吳越之咽喉	-12.2638
啜	-12.2638
府屬六縣夏税小麥	-12.2638
敞	-12.2638
爻	-12.2638
甃以甓	-12.2638
北豫州刺史	-12.2639
使賊不測多少又以人馬逼戰刀不如棒	-12.2639
西軍亦鼓而舉	-12.2639
黄旗為圓陣	-12.2639
京房易傳曰	-12.2639
擯	-12.2639
自古之政也	-12.2639
嬰城自守	-12.2639
􁐍	-12.2639
荀林父	-12.2639
䟦	-12.2639
如環無端	-12.2639
渙	-12.2639
簽	-12.2639
藕	-12.2639
閃賺花鎗上	-12.2639
章猷按先師論著	-12.2639
以應之次東軍鼓而舉	-12.2639
兗	-12.2639
盤山托	-12.2639
籓	-12.2639
總督侍郎胡公宗憲	-12.2639
誹	-12.2639
韉	-12.2639
餌兵勿食	-12.2639
淳于瓊	-12.2639
其衆可合而不可離可用而不可疲	-12.264
划	-12.264
馭戎嚴整	-12.264
副佩刀八分一萬口陌刀二分	-12.264
悽	-12.264
漢果數挑戰楚軍不出	-12.264
嗔	-12.2641
暝	-12.2641
百餘萬石	-12.2641
長五丈毎條	-12.2641
樽	-12.2641
俠	-12.2641
箒	-12.2641
麞	-12.2641
太倉鎮海二衛	-12.2641
鍪	-12.2641
亂軍引勝	-12.2641
千户所營在衞治西	-12.2641
卧帳中	-12.2641
結賛曰清水	-12.2641
咽	-12.2641
不利宜固守聞賊備東北第	-12.2641
分吾良卒密有所伏敵	-12.2641
曰天下竒才	-12.2641
遨	-12.2641
客大小將挾主大將	-12.2641
曦	-12.2642
詳著各圖説於後	-12.2642
諜告曰楚幕有烏乃止	-12.2642
諧	-12.2642
退無遽走	-12.2642
不可無一焉	-12.2642
知縣祝乾壽	-12.2642
軍軍其後燕人畏鄭三軍而不虞制人	-12.2642
三隊合為一隊	-12.2642
啼	-12.2642
瑩	-12.2642
穡	-12.2642
葆	-12.2642
銓	-12.2642
隋漢王諒作亂遣其	-12.2642
唐垂拱	-12.2642
專恃隠伏邀擊	-12.2643
琨	-12.2643
三十七萬五千	-12.2643
十一局甲戌丙戌戊戌庚戌壬戌太乙在	-12.2643
唐朱泚之亂李	-12.2643
紇	-12.2643
剏	-12.2643
𤓰儀京口	-12.2643
徑一尺二寸仰斜三	-12.2643
揑	-12.2643
斬首萬級	-12.2643
症	-12.2643
觱栗頭至上扇桄	-12.2643
原繁洩駕以三軍軍其前使曼伯與子元	-12.2643
契丹國舊地	-12.2643
奮不顧身	-12.2643
桔柣之門	-12.2643
諸侯救鄭楚師夜遁鄭人將奔桐	-12.2643
帚	-12.2643
見陣利後動	-12.2643
宫内迫客㕘將	-12.2643
栿	-12.2643
治衆如治寡	-12.2643
長敎成合之	-12.2643
零者大將握之	-12.2643
漢王患之請割滎陽以西	-12.2644
琪	-12.2644
轝	-12.2644
十局癸酉乙酉丁酉己酉辛酉太乙在	-12.2644
上扇桄二	-12.2645
觴	-12.2645
瑒	-12.2645
縂	-12.2645
𣅿	-12.2645
氓	-12.2645
無雲而雨	-12.2645
不可擊若在吾軍	-12.2645
儼	-12.2645
宸	-12.2645
嶮	-12.2645
床子弩	-12.2645
形者我先居之必	-12.2645
㬋	-12.2645
五局戊辰庚辰壬辰甲辰丙辰太乙在	-12.2645
八局辛未癸未乙未丁未己未太乙在	-12.2645
分以上責成	-12.2645
十里至州六百二十里	-12.2645
卓起雙燈	-12.2645
古道口鋪約	-12.2645
山路闊處約一百步狹處約一十步	-12.2645
棼	-12.2645
玦	-12.2645
申此局太乙助	-12.2645
為三覆以待之	-12.2645
不習兵所謂擁市人而戰不足圖也	-12.2645
汧	-12.2645
九局壬申甲申丙申戊申庚申太乙在	-12.2645
依依利主見陣利後動出軍宜	-12.2645
司馬懿征公孫淵	-12.2645
東南客聞賊備東北第四十	-12.2645
汶	-12.2645
珉	-12.2645
馬超韓遂	-12.2645
六局己巳辛巳癸巳乙巳丁巳太乙在	-12.2645
東南戰利西北利銳陣	-12.2645
約二里西北至軍約	-12.2645
輅轤谷	-12.2645
武王伐紂	-12.2646
譜	-12.2646
舉監生員	-12.2646
蟹	-12.2646
鏐	-12.2646
杠	-12.2646
尺自上扇	-12.2646
樸	-12.2646
九十九泉	-12.2646
作猫聲	-12.2646
達奚長儒	-12.2646
駐官兵以為守禦之計其餘亦惟以	-12.2646
七局庚午壬午甲午丙午戊午	-12.2646
佯北勿從	-12.2646
則變發在	-12.2646
府疆界考	-12.2646
扉	-12.2646
營兵欲變動聽號令施行	-12.2646
琴	-12.2646
鋌	-12.2647
踏空版内	-12.2647
客算短大將	-12.2647
不利為客宜固守聞賊備東北第	-12.2647
不得不與我戰者攻其所必救也	-12.2647
正東戰利正西利	-12.2647
䦨	-12.2647
艎	-12.2648
隨機應變	-12.2648
旁縣詡因其兵散日夜	-12.2648
程遐等	-12.2648
也軍擾者將不重也	-12.2648
採菱港	-12.2648
杳	-12.2648
檝	-12.2648
玘	-12.2648
觸類而長	-12.2648
阱	-12.2648
巡司在府治	-12.2648
民而民無不	-12.2648
窩舖二十六座雉堞	-12.2648
奉牛酒詐降	-12.2648
諄諄翕翕徐與人言者失	-12.2648
君命有所不受	-12.2648
曰今兵少不敵	-12.2648
始擊將大武客算二十	-12.2648
十二局乙亥丁亥己亥辛亥癸亥太乙在	-12.2649
主勝聞賊備西南奇兵西南伏兵利	-12.2649
二寸闊五寸厚三	-12.2649
膁	-12.2649
鍼	-12.2649
安東都護	-12.2649
武備廢弛	-12.2649
武車驍騎	-12.2649
煴	-12.2649
靈匣經曰	-12.2649
㳙	-12.2649
不得方軌騎不得成列	-12.2649
其卒自行自止其兵或縱或横其追	-12.2649
司偃旗士衆皆跪又擊鼓	-12.2649
恐不及見利恐不得	-12.2649
惕	-12.2649
欽定四庫全書武編後集卷	-12.2649
裏壕垠上	-12.2649
豈能飛渡哉	-12.2649
之其術一也	-12.2649
看但見舉	-12.2649
杉	-12.2649
攤	-12.265
定訖以善弧矢者	-12.265
鈞聲以夜軍之	-12.265
主勝聞賊備東南竒兵東南伏兵利	-12.265
丫	-12.265
亂礁洋	-12.265
孝順洋	-12.265
和主大將六宫發主㕘將八	-12.265
木葉挿頭上	-12.265
丐	-12.265
夾渭而軍	-12.265
肄	-12.265
諍	-12.265
二十二三風二十七八風	-12.265
團騎兵陣於	-12.265
士卒迷惑	-12.265
大將軍中營建出	-12.265
心怖可擊	-12.265
算和大將發利為主見陣利後動出軍宜	-12.265
者必能使人	-12.265
路乃間道也	-12.265
饑飽勞逸	-12.2651
楚師必遁晉人從之楚師宵	-12.2651
船旗心用色邊用色帶用色	-12.2651
嗚	-12.2651
跽	-12.2652
押官一人隊頭	-12.2652
恁是如何	-12.2652
拇	-12.2652
浹	-12.2652
胎	-12.2652
褚	-12.2652
長一尺八寸闊五寸厚三	-12.2652
部分其合圍地虞候先擇	-12.2652
寔	-12.2652
畚	-12.2652
統成一大陣	-12.2652
者一舟之人皆	-12.2652
衲	-12.2652
計神子此局太乙助客	-12.2652
造浮梁	-12.2652
視其轍登軾而望之曰可矣遂逐齊師既	-12.2652
一角令其衆得奔歸鍾城	-12.2652
先擊祝阿自旦攻城未	-12.2652
南戰利正北利圓陣舉黃旗雲氣從南來	-12.2652
客算二十五八門杜客大將	-12.2652
旰	-12.2652
刊	-12.2653
怏	-12.2653
巔	-12.2653
百户二員	-12.2653
蝠	-12.2653
懇	-12.2653
箸	-12.2653
及丁未針	-12.2653
訝	-12.2653
僭	-12.2653
兀剌赤	-12.2653
每百斤銀三兩	-12.2653
橶	-12.2653
窑	-12.2653
蕎	-12.2653
東北竒兵東北伏兵利	-12.2654
晉將遁矣	-12.2654
圍地則謀	-12.2654
娶	-12.2654
部長一里二百七十	-12.2654
鐮	-12.2654
殛	-12.2654
軍一千一百二十名	-12.2654
璃	-12.2654
新集可擊	-12.2654
絶其軍為二遂大敗之	-12.2654
蜂蠆有毒	-12.2654
一局甲子丙子戊子庚子壬子太乙在	-12.2654
二局乙丑丁丑己丑辛丑癸丑太乙在	-12.2654
令軍中曰有以軍事諫者死秦軍	-12.2654
去邯鄲三十里	-12.2654
叅將發依依利主見陣利後動出軍宜正	-12.2654
守潼闗	-12.2654
晉末妖賊孫恩	-12.2655
馬軍八十隊	-12.2655
謐	-12.2656
勔	-12.2656
愒	-12.2656
因地制形	-12.2656
購	-12.2656
斬首四十餘級	-12.2656
褁	-12.2656
臈	-12.2656
覷	-12.2656
公輸般	-12.2656
悠	-12.2656
陣數動移	-12.2656
主算三十二長	-12.2656
府土賊要害	-12.2656
柏山口鋪	-12.2656
譟勒兵武安屋瓦盡	-12.2656
鄗	-12.2656
鴨子河	-12.2656
以風潮為主	-12.2657
口鋪北至界首	-12.2657
宫天目武徳主算	-12.2657
局丙寅戊寅庚寅壬寅甲寅太乙在	-12.2657
炸	-12.2657
鍜	-12.2657
􁇣	-12.2657
哉王之問也	-12.2657
四獸之陣	-12.2657
鑵	-12.2657
餘八千七百五十人	-12.2657
一工銀三分	-12.2657
不可以無德無德則	-12.2657
囑	-12.2657
里至州四百七十	-12.2657
先為不可勝以待敵之可勝	-12.2658
廡	-12.2658
交趾蘇武州	-12.2659
凰	-12.2659
鑛	-12.2659
佐貳官	-12.2659
葛隆鎮	-12.2659
鐺	-12.2659
為之限隔	-12.2659
子午卯酉	-12.2659
張步據齊地	-12.2659
漢將耿弇討	-12.2659
能柔能剛	-12.2659
不足以理則用	-12.2659
加仲神在門	-12.2659
十步立標標眼如	-12.2659
摘其中之尤要者建寨柵剏團營	-12.2659
明劉寅撰	-12.2659
溳	-12.2659
發計神巳此局	-12.2659
聲應管當以	-12.2659
齊人三鼓劌曰可矣齊師敗績公	-12.2659
甜	-12.266
鬐	-12.266
叭喇唬	-12.266
臘	-12.266
沫	-12.266
隊如偃月形為	-12.266
以武剛車自環為營	-12.266
俎	-12.266
其西路也由	-12.266
艕	-12.266
騎下臨平野使士卒目見旌旗耳聞	-12.266
鬭伯比	-12.266
黥	-12.266
𪠘	-12.2661
來巡哨有警飛報總兵遊擊	-12.2661
伊實特穆爾	-12.2661
塟	-12.2661
韭	-12.2661
醮	-12.2661
愾	-12.2661
碟	-12.2661
旃	-12.2661
輝	-12.2661
疽	-12.2661
柩	-12.2661
醴	-12.2661
尺闊六尺	-12.2661
旗即方為	-12.2661
與太乙合在王相之地	-12.2661
嵗黄幡在	-12.2661
砦在武崗縣界南至縣	-12.2661
蹉	-12.2662
綦	-12.2663
鐏	-12.2663
綾	-12.2663
挼	-12.2663
撻	-12.2663
曰某乙等	-12.2663
濳	-12.2663
爲之奈何起對曰	-12.2663
陣圖黄帝五行之	-12.2663
脹	-12.2664
黜	-12.2664
鬃	-12.2664
宫於五音屬	-12.2664
鍫	-12.2664
風雨雪霧	-12.2664
款	-12.2665
陣或數十人或百人	-12.2665
李衛公問對	-12.2665
膿	-12.2665
委指揮一員	-12.2666
朦	-12.2666
蜃	-12.2666
勇敢千人夜掩暢營	-12.2666
鮫	-12.2666
步立標標眼大	-12.2666
氛	-12.2666
饉	-12.2667
冉	-12.2667
嚇	-12.2667
𥜗	-12.2667
磚石弓弩箭	-12.2667
冩	-12.2667
鄉設弓兵三十名往來巡邏	-12.2667
月戊辰	-12.2668
運斗樞曰	-12.2668
蓑	-12.2668
爍	-12.2668
無險可恃即	-12.2668
共該銀	-12.2668
爺	-12.267
兵備副使熊公桴	-12.267
天或圓而不動	-12.267
其間港汊浩繁岐路錯雜不可勝	-12.267
欽定四庫全書守城録卷	-12.267
五名帶馬一匹住守瞭望	-12.267
重賞之下必有勇夫	-12.267
有名無實	-12.2671
艌	-12.2671
菽	-12.2671
驩	-12.2671
酧	-12.2671
處暑七月中	-12.2671
大七小七	-12.2672
奢既已遣秦間乃卷甲而趨之	-12.2672
特蓬殺	-12.2672
一總訣歌	-12.2672
知府方亷	-12.2672
不得使容一營	-12.2673
皡	-12.2673
畎	-12.2674
慌	-12.2674
綰	-12.2674
艤	-12.2674
慙	-12.2674
牌三十六三分一更傳牌七餘一百七十	-12.2674
而無膽者臨敵	-12.2674
則精散於	-12.2674
廕	-12.2674
醎	-12.2675
簷	-12.2675
蝮	-12.2675
之精也居大	-12.2675
却以左手打開右手打	-12.2675
氣如雙蛇	-12.2675
瘞	-12.2677
唐裴行儉	-12.2677
彷	-12.2678
日至臨前	-12.2678
設備之大畧也	-12.2679
泯	-12.268
蓉	-12.2681
海防養兵之銀	-12.2681
馗	-12.2681
蒯	-12.2683
窩舖二十座雉堞	-12.2684
捕舵兵夫	-12.2685
之地也彼則不能	-12.2685
此乃匈奴天	-12.2685
事時加辰未鳴其上	-12.2686
吉將也主	-12.2686
紘	-12.2688
澚	-12.2689
主軍勝客軍	-12.2689
森	-12.269
温酒調下	-12.2693
臀	-12.2693
之精也居少陰之	-12.2695
桿高一丈	-12.2695
榮衰安怨成壞	-12.2695
兩地為比	-12.2696
五了浜	-12.2696
蔥	-12.2697
昻頭髙	-12.2697
若築此堡	-12.2699
山用丑艮針	-12.27
孟康曰	-12.2704
瀝	-12.2708
噲	-12.271
馬蹟大衢	-12.2718
雖衆其將可走	-12.2745
腎	-12.2754
主人杜塞無門不利宜固守聞賊備	-12.2808
里其鋪有蕃漢十人守把東南至保州約	-12.2986
至蕃界十五里	-12.3009
州為治所本路置州兵及朝廷遣	-12.3039
千人千人學戰	-12.3653
咒曰唵唵	-12.458
烏油靴跨	-12.5061
調度守城内有選鋒軍餘土兵共三百名	-12.5144
爲客見陣利先動出軍	-12.5799
計神辰此局主	-12.584
五八門杜客大將叅將不出中宫計神	-12.5875
三月每料加	-12.5885
峨	-12.5891
三件大病	-12.5897
攔拿我我閃	-12.5897
積數布算如方營法得	-12.5897
見有二珥四珥而蝕有	-12.5897
纒拿我我閃	-12.5899
交之旗則一復散而為	-12.5901
各終五日為	-12.5903
一水平鎗來	-12.5911
小落門砦	-12.5916
鏟	-12.5918
操江都御史蔡公克亷	-12.5918
四為正四為竒	-12.5919
鳶	-12.592
館又九十里至	-12.592
廣行招致	-12.5922
本乎隊伍之别	-12.5922
鐪	-12.5924
馲駞㑹	-12.5926
弑	-12.5927
利直陣舉青旗雲氣從東北來	-12.5927
取亂侮亡	-12.5928
菓	-12.5928
錮	-12.5928
䕶閃賺是花鎗名色呌做	-12.5928
時庚午	-12.5929
國朝洪武七年	-12.593
霰	-12.593
漉	-12.593
賽	-12.5932
辮	-12.5933
着大紅袍	-12.5934
天聖中築	-12.5935
並行而不悖	-12.5935
旗色上黄報兵馬事	-12.5935
順人之勢借人之力	-12.5935
各照常年事規與各部兵船互相策應	-12.5936
一將易戰之法五	-12.5937
之所在天下歸之	-12.5937
百枚環利	-12.5937
總同前總數但用	-12.5937
甿	-12.5939
墠	-12.5939
州阿保機所建	-12.5941
鑠	-12.5941
蠆	-12.5941
謀夫策士	-12.5941
者是虚其機以應	-12.5941
甲戊庚日	-12.5943
槎	-12.5943
遇且攻其右右無良焉必敗偏敗衆乃攜	-12.5943
貌不與中情相應者	-12.5943
所以優游恬淡	-12.5944
夭	-12.5945
己庚辛壬癸	-12.5945
婉	-12.5945
唑	-12.5945
熿	-12.5945
卷甲而趨日夜不處倍道兼行百里而	-12.5946
里勢若風雨所至	-12.5946
鑱	-12.5947
季梁曰楚人	-12.5947
因晨夜倍道兼行二千餘里徑	-12.5947
方圓曲直銳	-12.5947
武陽使精騎馳廣都去成都數	-12.5947
賊之來路也	-12.5947
卷幡舉槍簇隊	-12.5947
車騎者軍之武兵也	-12.5947
罨	-12.5948
嘿	-12.5948
襠	-12.5949
丢	-12.5949
莫知吾所以制勝之形	-12.5949
蟒	-12.5949
以左手監住右手刺	-12.5949
榛	-12.5949
此罸典之當明	-12.5949
荼	-12.5949
萬之衆而天下莫當者誰曰	-12.5949
人物也夫兵者不祥之器	-12.595
搧	-12.5951
頌	-12.5951
芭	-12.5951
殖	-12.5951
淋	-12.5951
畤	-12.5951
千户所為塘二	-12.5951
即於近便有	-12.5951
可抵郡城若自	-12.5951
杆每杆每出藥八錢五十出共藥二斤半	-12.5951
駛	-12.5951
辛未土時壬申癸酉金時甲戌乙亥火時	-12.5952
大黄參連弩	-12.5953
菰	-12.5953
何足道哉	-12.5953
礶	-12.5953
嶲	-12.5953
莭	-12.5953
㵼	-12.5953
亦置三所並以石灰	-12.5953
唬	-12.5953
飾其表裏復置柴籠三所流	-12.5953
秦隴鳯翔階成	-12.5953
翮	-12.5953
上果以敏	-12.5953
峽口砦二十里	-12.5953
民壮義勇	-12.5953
逥	-12.5953
箔	-12.5953
四千三百二十	-12.5954
指揮一員百户一員	-12.5954
炤	-12.5955
奪吳人之資石城以西盡為晉有自	-12.5955
子服乃進據險要開建五城	-12.5955
卉	-12.5955
勛	-12.5955
藎	-12.5955
上覆下棧屋上置突竈三所臺	-12.5955
貔	-12.5955
可望而不可當可下	-12.5955
㸃過吹大角引第	-12.5955
州舊田州管下	-12.5955
時為四殺没時	-12.5955
田常口鋪	-12.5955
至契丹蔚州界有谷路三通車騎	-12.5955
臏	-12.5955
騌	-12.5956
先則弊後則懾	-12.5957
涘	-12.5957
裸	-12.5957
嵬	-12.5957
股肱羽翼	-12.5957
鄜延丹坊保安軍路	-12.5957
器敗火發火	-12.5957
悉諾邏	-12.5957
曰惡是何言	-12.5957
蚤	-12.5957
㧻	-12.5957
北至契丹應州界	-12.5957
左手監住右手一抹刀他若使一	-12.5957
擋	-12.5957
邠寧環慶路	-12.5957
常年事規與各	-12.5958
聞之曰作事威克其愛雖小必濟	-12.5958
憂則内外不相信	-12.5958
鹺	-12.5958
塍	-12.5958
兵而兵自足	-12.5959
牂	-12.5959
路闊處約一丈	-12.5959
十里置一烽	-12.5959
慤	-12.5959
啣	-12.5959
遇賊舟之大者則	-12.5959
壯而頑頓與許蔡疾楚政楚令尹死其師	-12.5959
更戍外又領熟戸蕃	-12.5959
者衆而皆小國也畏楚而不獲已是以來	-12.5959
三股魚叉	-12.5959
杙	-12.5959
櫟	-12.5959
射書云邵陵	-12.5959
撥草尋蛇	-12.5959
柄長五尺以上千二百枚一名天	-12.5959
還復當心安箭髙舉	-12.5959
􁆢	-12.5959
汜	-12.5959
胡沈之君	-12.596
白蛇弄風	-12.596
鉢	-12.596
楚晨壓晉軍而陣	-12.596
舉闔廬之弟夫槩王晨請於闔廬曰楚	-12.596
枲	-12.5961
狙	-12.5961
把總楊尚英	-12.5961
輕兵擊之趙戰不利因築壁堅守以待救	-12.5961
懟	-12.5961
次不中者打	-12.5961
江靣約濶	-12.5961
用陣法而勝者	-12.5961
繡以精兵追退軍而	-12.5961
詧	-12.5961
路皆道之間者也	-12.5961
馬皆有副倍道兼行東	-12.5961
禇	-12.5961
立漢赤幟	-12.5961
或絶敵糧道或邀	-12.5961
大破之盡燔其糧	-12.5961
懷中吐月	-12.5961
箭注射則前無立兵對無横陣	-12.5961
道德仁義禮	-12.5961
則鈍鈍則不濟	-12.5962
懌	-12.5962
犯太短則不及太輕則銳銳則易亂太	-12.5962
該把總仍往來督察	-12.5962
利而誘之亂而取之	-12.5962
巡按御史舒公汀	-12.5962
犯輿鬼兵起	-12.5962
戕	-12.5962
蘇州太倉鎮海三衛	-12.5962
一兩八錢三十出共藥三斤六兩	-12.5962
圍師必缺	-12.5962
在水陸二軍然其	-12.5962
循環之無端	-12.5962
杆每杆每出藥	-12.5962
薄間又遣人升山指麾若部分軍衆	-12.5962
赴或謂宗之未可測道規乃	-12.5962
鄒繼芳	-12.5962
鎈	-12.5962
鳴金鼓扯行船旗起椗起篷	-12.5962
更圖進取醜奴聞之遂以為實分遣諸	-12.5963
皮吹氣令滿	-12.5963
時雍州刺史魯宗之自	-12.5963
玷	-12.5963
衆騎使匿	-12.5963
輕騎出塞覘	-12.5963
騎奄至謹以衆寡不敵退必不免乃散	-12.5963
六千守宫城禦備甚嚴燧度長春不下則	-12.5963
大呼曰官軍已得𤣥感矣官軍稍怠𤣥感	-12.5963
衆無進無退	-12.5963
箬	-12.5964
防春之暇	-12.5964
据	-12.5964
烏油履跨	-12.5964
縣在郡城東	-12.5964
艾以氊自裹	-12.5964
間可得而使也因是而知之故	-12.5964
居抱道以待其時	-12.5964
謀何患乎不從哉	-12.5964
渣	-12.5964
出前層之前	-12.5964
苨	-12.5964
薺	-12.5964
近而示之逺逺而示之近	-12.5964
先學持滿須能制其弓定其體後乃射之	-12.5964
剰	-12.5964
斬首六萬級	-12.5964
今地設弓兵七十名往來巡邏	-12.5964
凈	-12.5964
如蹈無人之境	-12.5964
應易㧞若我師至丹陽留停旬月進則公	-12.5964
未平退則惠亮為患	-12.5964
椲	-12.5964
權輕願得君之寵臣	-12.5964
步餘四尺積步得一里	-12.5964
璡	-12.5964
皆是百戰餘賊必不憚於野戰止為公	-12.5964
總督都御史楊公宜	-12.5964
膞	-12.5964
萼	-12.5964
軍志曰止則為營行則為陣	-12.5964
馮惠亮率舟師三萬屯當塗陳正通	-12.5964
一二隊為右翼兵三四隊為右伏兵	-12.5964
乃挺身至城下呼	-12.5964
作法黙念	-12.5964
屈乃徐謂之曰我來自朝廷可西面受命	-12.5964
氣勢聫絡	-12.5964
鄣	-12.5964
迸	-12.5965
軍轉陣以後為前以前為後進無	-12.5965
作橋閣山髙谷深至為	-12.5965
勝逐北不以為虞	-12.5965
體調其氣息一其心志謂之楷式	-12.5965
乃使宗之居守委以心腹率	-12.5965
劉表遣劉備北侵至	-12.5965
後周齊王憲	-12.5965
民壯二百七十七名	-12.5965
猋	-12.5965
紇皆捨兵下馬齊	-12.5965
忸	-12.5965
隋末楊𤣥感反攻東都刑部尚書	-12.5965
曳柴揚塵	-12.5966
金響皷止	-12.5966
纍	-12.5966
𤾂	-12.5966
曰天時不如地利地利不如人和	-12.5966
裼	-12.5966
以東南東北二隅	-12.5966
在衞治内	-12.5966
帳幕不疑軍退翌日始悟	-12.5966
張煜之所演也	-12.5966
役徒於山中楚人坐其北門而覆諸山下	-12.5966
欲不戰以老我師今若攻其城柵	-12.5966
莫敖屈瑕曰絞小而輕輕則寡謀請無扞	-12.5966
謂羣獠曰我是刺史銜天子詔安養汝等	-12.5966
跂	-12.5966
驚諸賊莫敢動於是	-12.5966
不亡有賞亡	-12.5966
其謀勇技藝孰為一	-12.5966
卒為上破卒次之	-12.5966
又曰爾以吾言不誠今相去不逺數步爾	-12.5966
多離散投行恭者千餘騎行恭遣其酋渠	-12.5966
夫必死足敵	-12.5966
射我乃披襟示之	-12.5966
揚州府泰興縣	-12.5966
斬之謂其衆曰汝等並是好人	-12.5966
狶	-12.5966
率五百人皆負米麥持牛酒自詣賊營奴	-12.5966
用兵之法全國為上破國次之全	-12.5966
畋	-12.5966
祖父之勲力背君上為滅族之計耶從吾	-12.5966
而校之是為一	-12.5966
興師之國務先隆	-12.5966
調矣而無救於敗	-12.5966
賊焦籬堡守將尉珪以兵二千因堡降燧	-12.5966
以待之無恃其不攻恃吾有所不可攻	-12.5967
穰苴斬莊賈	-12.5967
太宗敬徳躍馬大呼横刺雄信墜馬賊	-12.5967
沌	-12.5967
但力勝其弓則容貌和	-12.5967
無不中故始學	-12.5967
致清白之士	-12.5967
召其首領各飲之酒與之佳錦歡好如初	-12.5967
皆與謙書言城内	-12.5967
宫内傳新亭亦陷太后執蒼梧	-12.5967
數騎徑入城處之不疑莫不畏服	-12.5967
無善無惡皆	-12.5967
當破之必矣賊若不戰旬	-12.5967
郛	-12.5967
非止免禍富貴可圖也賊徒	-12.5967
猥	-12.5968
瓌	-12.5968
建炎徳安守禦録	-12.5968
篠	-12.5968
若時至而行則能極人臣之位得機而	-12.5968
謁仲文執之	-12.5968
夐	-12.5968
檀道濟到彦之	-12.5968
至常州之西門	-12.5968
齊桓晉文之	-12.5968
䧏	-12.5968
令長吳二縣動支公帑	-12.5968
備道督責之	-12.5968
兾	-12.5968
北至銀坊城	-12.5968
口銜短刀兩手如	-12.5968
師衆號百萬相州刺史李神雋閉門自守	-12.5968
成擒耳尚果循西山	-12.5968
櫛	-12.5968
為北庭都䕶	-12.5968
荗	-12.5968
謂椿曰兵者詭道	-12.5968
鄾	-12.5968
髙家沙三爿沙	-12.5968
下觀汝等名皆已焚除勿懼也	-12.5968
冐險爭鋒吾	-12.5968
戮屍在南	-12.5968
擊之勿疑若其	-12.5968
是道成隨得	-12.5968
燒之登城北謂曰劉休範父子皆已	-12.5968
等從石頭濟淮間道自承明門入衛宫闕	-12.5968
赴休範投名者千數	-12.5968
遣衆軍擊平賊黨道成振旅凱入百姓	-12.5968
順職之吏	-12.5968
分作二枝一枝	-12.5968
此局主人杜塞無門客	-12.5969
師衆以順為武	-12.5969
戰世充驍將單雄信領騎直	-12.5969
椿	-12.5969
齮	-12.5969
兵去之後賊猶致疑	-12.5969
將在軍君命有所不受茍能制吾豈千里	-12.5969
掠於饒野三軍足食謹養而勿勞	-12.5969
進進而遇覆必速奔後者不救則無繼矣	-12.5969
邑多者為重地	-12.5969
隋山獠作逆以	-12.5969
夜從間道出人抱束薪所歴道有問者	-12.5969
大敗之為城下之盟而還	-12.5969
從之絞人獲三十人	-12.5969
李謙溥知隰州	-12.5969
範首餘賊進至杜姥宅車騎	-12.5969
道聚觀曰全國家者此人也	-12.5969
鱉	-12.597
恍	-12.597
坌	-12.597
信賞必罰	-12.597
將者國之輔	-12.597
萬弩夾道	-12.597
粱	-12.597
賊首鄧文俊林碧川沈南山等分	-12.597
濾	-12.597
幙	-12.597
武王曰何以知之太公曰	-12.597
齊將斛律光	-12.597
沱	-12.597
公曰勿復白乃令	-12.597
正徳七年知	-12.597
瓣	-12.597
絞車連弩自副	-12.597
聽音望麾以出四	-12.597
典籖茅恬開東府納賊	-12.597
客聞賊備正東第	-12.597
攻戰都督造突門	-12.597
敵無備出而勝之敵若有備出而不勝難	-12.597
於内而富於外	-12.597
破楚必矣漢王	-12.597
糒	-12.597
義軍土丁	-12.597
莆	-12.597
諺不云乎	-12.597
謗毁者數千章光武不省	-12.597
進道兼行百餘里令吏士各作兩竈日	-12.597
恢	-12.597
廢一善則衆善衰賞一惡則衆惡歸	-12.5971
秦姚萇與苻登相持	-12.5971
引而去之令敵半出而擊之利	-12.5971
曹操與袁紹相持官渡	-12.5971
皆自若既至圍屯大放火營中驚亂	-12.5971
鬬船力不鬬人力	-12.5971
黒旗為曲陣	-12.5971
放大銃三箇	-12.5972
軛	-12.5972
讓他先起穿	-12.5972
稚	-12.5972
一曰道二曰天	-12.5972
挐	-12.5972
翬	-12.5972
的於深谷或	-12.5972
進不得攻退無所	-12.5972
暱	-12.5972
用扇拍拍	-12.5972
蕘	-12.5972
褙	-12.5972
訓練汛時仍於	-12.5972
豈得已哉	-12.5972
陿	-12.5972
夫聖人君子明	-12.5972
如其未潰可令首尾	-12.5972
矦	-12.5972
碁	-12.5972
䡴發則四風之	-12.5972
䧟堅陳敗歩騎	-12.5972
以安衆心乃索白虎幡登西垣使	-12.5972
哨為第一層正兵	-12.5972
嘉靖三十一年壬子七月	-12.5972
將宗羅睺	-12.5972
悸	-12.5972
我得亦利彼得亦利	-12.5972
戒不許傳於不	-12.5972
攻取之國務先	-12.5972
時加占烏情第一百九十	-12.5972
棺	-12.5972
毒藥煙毬	-12.5972
濺	-12.5972
用之黄居硝	-12.5972
砦在縣東北一程	-12.5972
裭	-12.5972
觀察使前使辛京杲貪殘有將王國良鎮	-12.5972
諮	-12.5972
鄭陳而不整蠻軍而不	-12.5972
鸞	-12.5972
眊	-12.5973
久不得濟祥謂軍吏曰	-12.5973
平北將軍胡僧祐	-12.5973
後校一陣步兵二十一部	-12.5973
聚兵井陘口稱二十萬	-12.5973
近矢石不能敗此不用大船務	-12.5973
上三人為一處處有數百騎令所在揚塵	-12.5973
倍之衆今力固不敵且至誠感神	-12.5973
别有函封付齡石	-12.5973
匍匐叩頭請罪臯執手約為兄弟盡焚攻	-12.5973
危懼遂散財聚衆據縣以叛諸道同討連	-12.5973
寥	-12.5973
嶸	-12.5973
己而教人者逆正己而化人者順	-12.5973
張良韓信序次兵法	-12.5973
所以一人之耳目	-12.5973
所欲以死報國耳乃單車白服至新亭築	-12.5973
散倉庫給兵士令復農桑焉	-12.5973
曰至白帝乃開諸軍雖進未知處分至白	-12.5973
氊裘毳	-12.5973
計神未此局太乙助主主	-12.5973
溥	-12.5973
趾	-12.5974
始擊將大炅客算	-12.5974
釀	-12.5974
隨處可登	-12.5974
劾	-12.5974
伐晉取羈馬	-12.5974
墨子九拒	-12.5974
艷	-12.5974
副元帥李光弼	-12.5974
益不既多乎	-12.5974
其不意攻其無備	-12.5974
冀州之域	-12.5974
危者安之懼者歡之叛者還	-12.5974
哄殺去四五尺	-12.5974
􁗒	-12.5974
不為營壘而求割地吾順言許之所以縱	-12.5974
不能下臯受命乃曰驅疲	-12.5974
之今一旦棄舊好助一叛臣何其愚也且	-12.5974
令公亡矣不然何以至此令公誠存	-12.5974
以誘之觀賊之勢必渡水交兵萬均請	-12.5974
你拏鎗還鎗我拏鎗你劄我我	-12.5974
先處戰地而待敵者	-12.5974
後漢誅王郎收文書得吏人與郎交	-12.5974
操又與遂書	-12.5974
攴	-12.5974
月賊犯府城官兵	-12.5974
棄四海令公亦謝世中國無主故我從其	-12.5974
楚師馳之原軫郤溱以中軍公族横擊之	-12.5974
熨	-12.5974
粲	-12.5974
紇驚曰令公存乎僕固	-12.5974
菑	-12.5974
賞得而聚之名曰	-12.5974
轉禍為福	-12.5974
農桑零絲	-12.5974
道慶等浮舸與賊水戰大破之斬休	-12.5974
門百戰百敗當以計取之可令羸兵弱馬	-12.5974
司謂其將叛遽以奏聞朝廷議發兵進討	-12.5974
微哉微哉	-12.5974
毡	-12.5974
門具將發利爲主見陣利後動出軍宜	-12.5974
獅	-12.5974
哈	-12.5975
操兵少而悉	-12.5975
不戰而屈人之兵善之善者也	-12.5975
使夜或左或右	-12.5975
假稱使者徑入國良壘中國良召使者入	-12.5975
力所及置照板度竿	-12.5975
卒未親附而罰之則不服	-12.5975
吾將固其結	-12.5975
唐嗣曹王	-12.5975
國良何不速降一軍愕	-12.5975
壘未畢賊前軍已至道成方解衣	-12.5975
子儀曰適足以為害也乃傳呼曰令公	-12.5975
孫千齡與休範有密契獨曰宜依舊遣軍	-12.5975
將出諸將諫曰戎狄之心不可信也請無	-12.5975
恩背主棄親於公等何有	-12.5975
戎車步騎相	-12.5975
所謂先人以奪其心賊見吾兵必走	-12.5975
曰國良軍中有變言降是詐也臯曰非爾	-12.5975
發計神子此局	-12.5975
虜初疑持矢待之子儀以數十騎免胄	-12.5975
軍中曰有人識曹王否	-12.5975
春秋時齊師宋師次于郎	-12.5975
顙而至便移	-12.5975
哨探有警飛報總兵遊擊	-12.5976
熕	-12.5976
珽	-12.5976
刮	-12.5976
欽定四庫全書李衛公問對卷	-12.5976
大總管及副總管則立十旗以上	-12.5976
寸柄長三尺	-12.5976
憶	-12.5976
曙	-12.5976
以為犯軍令不可以鄉里故而廢法遂	-12.5976
僮	-12.5976
定兩端天有	-12.5976
欷	-12.5976
不能還安危之機不及終日賊以軍無後	-12.5976
侯之謀者不能豫交不知山林險阻沮澤	-12.5976
劉道規為荆州刺史	-12.5976
征之不一二年不可定也今	-12.5976
從中水取廣漢使羸弱乘髙	-12.5976
摺陣法也名	-12.5976
既為不可勝且以示弱渡渭為堅壘	-12.5976
日夜霖雨旬日不止	-12.5976
梁山道成正色曰賊今已	-12.5976
磬	-12.5976
耿弇征張	-12.5976
蠧	-12.5976
誅反側非所	-12.5976
郡乾元中復為	-12.5976
陣降者皆相語曰蕭王推赤心置人腹	-12.5976
䍡	-12.5976
元琮當其北子儀率甲騎二千出	-12.5976
出出絶閉之	-12.5976
前後虜見而問曰此誰也報曰郭令公也	-12.5976
勒軍士馬上各齎	-12.5976
張儉前在朔州	-12.5976
徽中桂陽王休範舉兵於潯陽朝廷惶駭	-12.5976
思結部落貧窮離散儉招慰安集之其不	-12.5976
惓	-12.5976
據武牢扼其襟要若賊恃勝	-12.5976
牌二分二千五百面馬	-12.5976
縣後匾擔二沙	-12.5976
而請和者謀也	-12.5976
至嶽嶺口鋪約	-12.5976
遂請與操相見	-12.5976
魁為地衡陣	-12.5976
五八門杜客大將㕘將不出中宫計神	-12.5977
斥澤之中必依水草而背衆樹	-12.5977
騎横擊契丹呼聲動天地契丹大敗而走	-12.5977
㤀	-12.5977
受敵而無敗者竒正是也	-12.5977
叶	-12.5977
安得不投死乎由是皆服	-12.5977
曰秦人不意趙師至此其來氣盛	-12.5977
渠帥為列侯降者猶不自安光武知其意	-12.5977
相生如循環之無端孰能窮之	-12.5977
稽查各部下㑹哨兵船每十日一送	-12.5977
莫親於間賞莫厚於間事莫宻於間	-12.5977
軍必厚集其陣以待之不然必敗	-12.5977
里北至軍城砦	-12.5977
以孔萇為	-12.5977
元元貞二年以户口計例	-12.5977
其營田每年豐熟慮其私蓄富	-12.5977
戰陣無圖明矣而庸將	-12.5977
棓二分二千五百張馬軍及陌刀並以啄	-12.5977
流謀逆皆因淹緩以敗休範必逺懲前失	-12.5977
索二分二千五百條馬軍用	-12.5977
還謂其御曰莫敖必敗舉趾髙心不固矣	-12.5977
邊軍大收其利	-12.5977
袵	-12.5978
櫈	-12.5978
衫襟左手承撞右手迎上當心	-12.5978
浙江巡按御史胡公宗憲	-12.5978
巡司洪武七年建於	-12.5978
􁆫	-12.5978
宋何去非撰	-12.5978
放烽一炬	-12.5978
築為重複守禦之地	-12.5978
蹊	-12.5978
亟肄以罷	-12.5978
六凶神藏	-12.5978
十不當一平陵相逺川谷居間仰	-12.5978
可前可後此長㦸之地也劒楯三不當一	-12.5978
吾將趨其後	-12.5978
圍定陽屠其外城	-12.5978
太宗圍王世充於東都	-12.5978
婚	-12.5978
彼勞我逸	-12.5978
星所墜其下	-12.5978
曰此城三面重澗並無走路惟慮東	-12.5978
欒枝使輿曳柴而偽遁	-12.5978
殿後與左右踵	-12.5978
漢景帝時	-12.5978
濱永樂二年甲申四月對馬岐倭寇海濱	-12.5978
燕將大喜許之燕軍由此益懈	-12.5978
狐毛設二斾而退之	-12.5978
相近平地淺	-12.5978
腔	-12.5978
臨下此弓弩之地也短兵百不當一兩	-12.5978
葦竹蕭草木	-12.5978
一客大將一宫發客叅將三宫	-12.5978
且不設備及羅羅與盧戎兩軍之	-12.5978
中龍駒島	-12.5978
以上賞而禮之名曰	-12.5978
仲文以羸師	-12.5978
初二三風初七八風十二三風十七八風	-12.5978
勝能與敵變化而取勝者謂之神則	-12.5978
勢聚散之形勝負之理賞罰之信因是而	-12.5978
十步自分壁嶺	-12.5978
哨一哨二哨為右翼三哨四哨為右伏	-12.5978
哨一哨二哨為左翼三哨四哨為左伏	-12.5978
圍道山鋪	-12.5978
夏税秋糧	-12.5978
子儀使李國臣拒其東魏楚玉當其南陳	-12.5978
將檀讓擁衆數萬	-12.5978
師大亂遂敗之	-12.5978
性至寛有部將符昭者人或告其謀變茂	-12.5978
拔趙幟立漢幟	-12.5978
明日親入虜帳哭之甚哀行弔贈之禮	-12.5978
榭	-12.5978
熟寢經宿而還上下遂服之	-12.5978
而日時計得	-12.5978
與諸隊不同各自	-12.5978
䘏	-12.5979
待敵若敵先居之盈而勿從不盈而從之	-12.5979
按轡徐行	-12.5979
於姚襄城南更起城鎮	-12.5979
前茅慮無	-12.5979
不利為主宜固守聞賊備正南第	-12.5979
不能穿魯縞也兵法忌之	-12.5979
二里半西北至軍約	-12.5979
出黄虎無功而退賊	-12.5979
勝聞賊備東北竒兵東北伏兵利戌亥時	-12.5979
十七長和客大將七宫發客㕘將一宫	-12.5979
和元振就其牙帳計	-12.5979
囚主㕘將一宫	-12.5979
子儀一軍萬餘人而	-12.5979
摇	-12.5979
枝葉茂接此矛鋋之地也長㦸	-12.5979
瑶	-12.5979
璇	-12.5979
葛乃感其義復與元振通好郭子儀屯	-12.5979
葛以元振故殺其父謀勒兵攻之副使解	-12.5979
里鋪西北約	-12.5979
鐙分為兩行前行配五十騎為一隊計	-12.5979
髙仲密叛	-12.5979
髙行周為前軍	-12.5979
詗	-12.598
張張有闊狹左䏶右	-12.598
唾	-12.598
得地一里餘二百二十	-12.598
照束伍篇内	-12.598
犯參伐兵起	-12.598
亟去無留	-12.598
錙	-12.598
夔州銑以時屬秋潦江水汎漲三	-12.598
宋晉安王子勛舉兵	-12.598
或總稱之先出	-12.598
時魁罡加日	-12.598
絜	-12.598
三十五年丙辰二月賊	-12.598
之興也伊摰在夏周之興也吕牙在	-12.598
初九日倭船	-12.598
念咒作法	-12.598
搪	-12.598
旗為節制其初起圍張翼隨山林地勢無	-12.598
歔	-12.598
獒	-12.598
能禦而不能殺	-12.598
蘭陵王長恭	-12.598
軍曰今日必無晉矣子西將左子上將右	-12.598
鞦	-12.598
不動如山難知如	-12.598
之職掌也各	-12.598
也經曰第一角聲動前行向左	-12.598
凍元振未嘗移足烏質勒年老不勝寒苦	-12.598
口鋪約二里半西北至軍約	-12.598
右常置城上	-12.598
唐將郭元振在	-12.598
因形用權則不勞而功舉	-12.598
圗論者所以正	-12.598
境上時楚未至聞之即疾馳赴鎮潰卒亦	-12.598
始擊將大族客算三十	-12.598
始擊將高藂客算二十	-12.598
寅此局太乙助客	-12.598
待敵若敵先居之引而去之勿從也	-12.598
悉斬之又令	-12.598
惴	-12.598
所在此步兵之地也車騎二不當一土山	-12.598
晉太康二年	-12.598
無不正無不竒	-12.598
砌	-12.598
硤	-12.598
罷而死其子	-12.598
與戰鋒隊齊入奮擊	-12.598
裀	-12.598
野此車騎之地也	-12.598
長矛刺之	-12.598
驢六分七千五百頭鞍	-12.598
子儀陣以待之預選	-12.5981
地險不可攻不如更作一城壅其要	-12.5981
欲攻其新城韶曰	-12.5981
行數百里其勢糧食必在後願	-12.5981
輦	-12.5981
迅雷不及掩耳	-12.5981
主大將一宫發主叅將三宫	-12.5981
主算二十四長主大將四宫	-12.5981
元惡就擒蔡人即吾人也父老無不感泣	-12.5981
先至而得天下之衆者為衢地	-12.5981
力疲怠賊乃乘間得入排城延伯軍大敗	-12.5981
大將居中諸部連繞四頭八尾觸處為首	-12.5981
客勝聞賊備東南竒兵東南伏兵	-12.5981
客大將九宫發客㕘將七宫	-12.5981
宫天目大武主算	-12.5981
州管部落五十户去州	-12.5981
弓一萬二千五百張弦三萬七千五百條	-12.5981
心者可共固守軍人見其誠信皆無異志	-12.5981
忱	-12.5981
故其疾如風其徐如林	-12.5981
東軍一鼓而舉	-12.5981
煬帝令户部尚書樊子葢擊之子葢深溝	-12.5981
益其爵禄	-12.5981
相隨任所居止於是羣情喜悦兵即四散	-12.5981
築城於故海鹽賊	-12.5981
而奪角音動而止得旗者勝失旗者負勝	-12.5981
而還傉檀追及䝉遜	-12.5981
艦行船者悉在艦内泝渭而	-12.5981
葫	-12.5981
急則失威儀而	-12.5982
褫	-12.5982
㐲	-12.5982
帋	-12.5982
旨	-12.5982
澀	-12.5982
用生牛皮張裹	-12.5982
若新亭直上且	-12.5982
里餘一百七十三步二尺以壘四面乘之	-12.5982
騖	-12.5982
外壘一軍一萬二千五百人以十人為	-12.5982
火一千二百五十火幕	-12.5982
為循黨荀林所破林	-12.5982
等赴援朝廷至潯陽	-12.5982
譬如驕子不可用也	-12.5982
軍之善政也	-12.5982
仁者人之所親	-12.5982
兵負而趨走號	-12.5982
功勇者好行	-12.5982
勿與戰彼前不得	-12.5982
在之面倂力動手無賊之面亦	-12.5982
形者不能行軍不用鄉導者不能得地利	-12.5982
者不禁因夜開城門衆咸憚服莫有去者	-12.5982
貊	-12.5982
退不得還吾竒兵絶其後野無	-12.5982
靳	-12.5982
頭其次左右將各主士伍為行列皆以金	-12.5982
一宫天目大炅	-12.5982
三會口鋪	-12.5982
中路潰散不敢歸屯	-12.5982
之司命國家安危之主	-12.5982
佛陽口鋪	-12.5982
來客勝聞賊備東南奇兵東南伏兵利	-12.5982
卒三千人為牙兵士卒不願	-12.5982
嶠	-12.5982
州管部落二百	-12.5982
彌亘數里	-12.5982
據長安城所在莫有固志羆聞之乃大開	-12.5982
故人主深曉上畧則能任賢	-12.5982
敵雖聖智莫之能識	-12.5982
東至州三十里西	-12.5982
柔有所設剛有所施弱有所用	-12.5982
正西竒兵正西伏兵利	-12.5982
水可以灌安邑	-12.5982
浙江提督都御史王公忬	-12.5982
藏身令軍士頭裹	-12.5982
衢地合交	-12.5982
里更加兩騎	-12.5982
門召軍人謂之曰	-12.5982
闂	-12.5982
風小周九除之不盡者命起	-12.5982
鱟	-12.5982
趨利避害	-12.5983
勝伐江陵聲言徐道覆	-12.5983
冺	-12.5983
姻	-12.5983
舊並懐異心道規乃	-12.5983
處各虚三十四步	-12.5983
乘勝至于姑臧夷夏降者萬數	-12.5983
九宫天目大武主算二十九	-12.5983
千里迎賢其路	-12.5983
壻	-12.5983
大刀藤牌兵兵兵	-12.5983
安營不可犯也䝉遜曰傉檀謂吾逺來疲	-12.5983
州管部落二百户去州	-12.5983
正南戰利正北	-12.5983
與主大將關客叅將	-12.5983
衢地則合交	-12.5983
魏人服叡威名望之不敢逼全軍而還	-12.5983
詆	-12.5984
笓	-12.5984
倂	-12.5984
爬	-12.5984
坯	-12.5984
豈有不勝者哉	-12.5984
守地一千七百五十尺八陣積	-12.5984
步餘二尺積	-12.5984
牛驢得數千頭復令兵數百人人持一	-12.5984
人守地一尺六寸	-12.5984
剔	-12.5984
建業而桓謙自長安入蜀	-12.5984
戰兵初合驅牛驢者疾進一時鳴	-12.5984
晡後與鍾	-12.5984
睂	-12.5984
菴院寺觀	-12.5984
悔將何及	-12.5984
未土時壬申癸酉金時甲戌乙亥火時庚	-12.5984
二曰火積三曰火輜四曰火庫五曰火隊	-12.5984
令狐楚為河陽節度使	-12.5984
劓皆怒堅守惟恐見得	-12.5984
十分三萬七千	-12.5984
参	-12.5984
吾將塞其闕	-12.5984
吾族家妻妾令安堵	-12.5984
噉	-12.5984
執紙葢而直衝	-12.5984
堡守備官一員軍兵四十名	-12.5984
客算孤陽	-12.5984
州管部落一百户去州	-12.5984
後魏万俟醜奴	-12.5984
投之亡地然後存	-12.5984
有生人之樂度以蔡卒為牙兵或以為反	-12.5984
朱旗掉角音動左右各復本	-12.5984
殿後及左右踵	-12.5984
治國安家得	-12.5984
炬若餘㓂賊	-12.5984
爲鳥雲之陳	-12.5984
瓉	-12.5984
發計神寅此局太乙助客	-12.5984
矧	-12.5984
神亥此局太乙助客	-12.5984
絶其輜重足下深溝	-12.5984
緩之則走不顧急之則還	-12.5984
而勝人成功出於衆者先	-12.5984
薩里罕	-12.5984
赭	-12.5984
輈	-12.5984
遯	-12.5984
項下針其尾	-12.5984
魏王羆守華州	-12.5984
迢	-12.5985
代州總管李景	-12.5985
春秋時衛人以燕師伐鄭	-12.5985
主宜固守聞賊備東北第	-12.5985
令趙奢將兵救之	-12.5985
使智使勇使貪使	-12.5985
吾將謹其守	-12.5985
單又收民金得千鎰令即墨富豪	-12.5985
四局丁卯己卯辛卯癸卯乙卯太乙在	-12.5985
壘相去七里遣使招矩時暢卒至矩未暇	-12.5985
大司馬曹咎	-12.5985
智與衆同非	-12.5985
無逆心徒以政令嚴酷懼死為	-12.5985
燕人聞之如其言城中人見齊諸降者	-12.5985
計神丑此局太乙助客	-12.5985
謹守成臯即漢	-12.5985
逄	-12.5985
害然後能為勝敗	-12.5985
或以酒食相過從者以軍法論度乃約法	-12.5985
死地吾將示之以不活	-12.5985
背固前隘者圍地也	-12.5985
與客大將關主叅將	-12.5985
㕘將八宫發始擊將	-12.5985
里南至儀州	-12.5986
荆川唐公	-12.5986
身死家殘	-12.5986
風揚雲垂龍飛虎翼鳥翔蛇蟠	-12.5986
勞馬常令有餘備敵覆我能明此者	-12.5986
午針三更船	-12.5986
為外壘天陣居乾為天門地陣居坤為地	-12.5986
莞	-12.5986
巡司洪武三年建於	-12.5986
今之論禦宼者	-12.5986
宋神宗皇帝	-12.5986
擊之何往不尅	-12.5986
燁	-12.5986
皆逐天文氣候	-12.5986
竿竿上安轆轤以繩挽	-12.5986
兵法曰以水佐攻者彊	-12.5986
囚主叅將三宫發始擊將	-12.5986
士卒不盡飲不近水	-12.5986
將兵之絶處見	-12.5986
旌旗動者亂也吏怒者倦也	-12.5986
李愬攻蔡	-12.5986
樂聞興師動衆	-12.5986
每面二人防看	-12.5986
甸	-12.5986
鐝	-12.5986
麾下飲食與士卒共之	-12.5986
䧟堅陳敗強敵	-12.5986
不可宻宻則難用	-12.5986
主大將七宫囚主叅將一宫	-12.5986
八角口鋪	-12.5986
勒浪等族	-12.5986
告令三軍示不	-12.5986
志於衆故與衆	-12.5986
淮西旣平裴度為節度招撫使蔡人大	-12.5986
澆	-12.5986
為四旗之主	-12.5986
縣令祝乾壽	-12.5986
能弱能强	-12.5986
賊酋劉鑑	-12.5986
討叛羌羌	-12.5986
西南客聞賊備東南第	-12.5986
墀	-12.5987
泓宋人既成列楚人未既濟	-12.5987
兵備熊公桴	-12.5987
未能行令其佐先縠剛愎不仁未肯用命	-12.5987
公曰不可既濟而未成列又以告公曰未	-12.5987
誨	-12.5987
兵以詐立以利動	-12.5987
十一萬二百八十人	-12.5987
客聞賊備西北第三	-12.5987
懼燕軍之劓所得齊卒置之前行與我戰	-12.5987
極妙極妙	-12.5987
欽定四庫全書三畧直解卷	-12.5987
瓚	-12.5987
雲蒸鳥散彌川絡野然而不失部隊之	-12.5987
兩嶺口鋪	-12.5987
動莫神於不意	-12.5987
南面而王齊齊人	-12.5987
宫天目大炅主算二十五八門杜主大將	-12.5987
左右推赤心以待之人	-12.5987
政降人以心	-12.5987
政降人以體聖人之	-12.5987
自安願効死力其黨相謂曰我	-12.5987
與客叅將關主叅將	-12.5987
與衆同非國工也	-12.5987
譛	-12.5987
逼城而陣有輕我心	-12.5987
紊	-12.5987
本處散立第一	-12.5987
以月將加正時	-12.5987
春秋時齊師伐魯	-12.5987
欲還伍參言於	-12.5987
為吳人所傷而為晉兵所得者皆封還之	-12.5987
羅嶼用丁未針	-12.5987
麨	-12.5987
捩	-12.5988
百戰不殆不知彼而知己一勝一負不知	-12.5988
大呼餘人悉持兵弩夾門而伏超	-12.5988
後約曰見火	-12.5988
白旗掉鼓音動左右	-12.5988
籐	-12.5988
衆若即分割恐其疑懼或	-12.5988
邃	-12.5988
險道狹路可擊	-12.5988
飜	-12.5988
騎三萬討矩屯	-12.5988
齩	-12.5988
㑹師于臨品	-12.5988
且起王卒合而後進	-12.5988
子犯曰民未知	-12.5988
子越自石溪子貝自仞	-12.5988
客大將六宫發客叅將八宫格計神	-12.5988
客算十孤陽客大將一宫	-12.5988
梁將陳慶之	-12.5988
樂毅畏誅而不敢歸以伐齊為名實欲	-12.5988
汾水可以灌平陽	-12.5988
狗號口鋪	-12.5988
申酉戌時客	-12.5988
簫	-12.5988
舊令途無偶語夜不	-12.5988
薄嵒神鋪	-12.5988
西北奇兵西北伏兵利寅卯辰時	-12.5988
計神卯此局太乙助主	-12.5988
請誘之子庚從之戰于庸浦	-12.5988
面陣夾以行	-12.5988
歙	-12.5988
三浮木齒及照板以度竿上尺寸為髙下	-12.5988
曰使勇而無剛者嘗冦而速去之	-12.5988
濰	-12.5988
努	-12.5988
張守珪為𤓰州刺史	-12.5988
狼福二山	-12.5988
中而㧞之故開	-12.5988
人者乃作樂以節之使不失其	-12.5988
人臣深曉中畧則能全功	-12.5988
勝聞賊備正東竒兵正東伏兵利	-12.5988
子葢所殺窮無所歸今唐公與人無隔恩	-12.5988
昆蟲則聖人	-12.5988
相率歸前後至者數萬人餘賊散走他郡	-12.5988
齊湣王出奔	-12.5988
寰宇記	-12.5989
時日而事利	-12.5989
凜	-12.5989
撦	-12.5989
輾	-12.5989
三十三年甲寅四月	-12.5989
樞宻院	-12.5989
立狗脚木一條	-12.5989
地所以養人城所以守地	-12.5989
可得聞乎太公曰	-12.5989
喏	-12.5989
太倉港口開船用單乙針一更船平	-12.5989
廼	-12.5989
後漢虞詡為武都太守	-12.5989
旌旗亂動可擊	-12.5989
氣以作兵法文昌以命將	-12.5989
獷	-12.5989
翰林學士	-12.5989
蜀將孟達降魏	-12.5989
貞坤悔為	-12.5989
亂之勢達乎去就之理	-12.5989
使騎刼代	-12.5989
兵夫列船式平時在船四面擺	-12.5989
君子明於盛衰之道通乎成敗之數審乎	-12.5989
吝	-12.5989
器長短相間分方面外而立如遇打賊隨	-12.5989
巡按御史孫公慎	-12.5989
庸人曰楚不足與戰矣遂不設備楚子乘	-12.5989
庸人逐之囚子	-12.5989
所謂樂者非金石絲竹	-12.5989
攄	-12.5989
然不能一一而設	-12.5989
界首赤嶺約五里	-12.5989
留二十八日不行復益増壘秦間	-12.5989
砥	-12.5989
莒城燕師長驅平齊	-12.5989
論如軍律凡	-12.5989
里半東南至本軍	-12.5989
馬家庄鋪	-12.5989
数	-12.599
指壓大指頭指當弦直	-12.599
以禮遣還吳將鄧香掠夏口祜募生縛香	-12.599
嫻	-12.599
至宥之香感其恩	-12.599
漲之勢倐忽至城下所謂疾雷不及掩耳	-12.599
繩計其尺寸則髙下丈尺分寸可	-12.599
腰受一斗五升	-12.599
馬盂十分一萬二千五百	-12.599
吾逺之敵近之吾迎之敵背之軍	-12.599
結交於諸侯	-12.599
壘閼與非趙地也	-12.599
子幹阻川為營賊軍不得水數日人馬	-12.599
宫天目和徳主算二十五八門杜主大將	-12.599
楚令尹子木	-12.599
􁴺	-12.5991
餵	-12.5991
步卒七十二人甲士三人	-12.5991
祜追斬之美其死節而	-12.5991
之而知得失之計作之而知動	-12.5991
武塲中操演	-12.5991
種火一盆	-12.5991
張世李孝義	-12.5991
晝氣惰暮氣歸	-12.5991
瓢續之則樓櫓盡焚	-12.5991
腑	-12.5991
蔬	-12.5991
䙝	-12.5991
三宿而逸曰庸師衆羣蠻聚焉不如	-12.5991
來攻城城内兵力甚弱裕	-12.5991
其子狐庸為	-12.5991
埂	-12.5991
家庄鋪約	-12.5991
將者三軍之司命也	-12.5991
尔	-12.5991
每一兩煎得銀	-12.5991
無出其右者	-12.5991
無有就知在軍中有無	-12.5991
絲綿折絹一	-12.5991
者將之大柄	-12.5991
與之遇以驕之彼驕我怒而後可克	-12.5991
舉旗士衆皆起騎	-12.5991
蜀諸葛亮出祁山魏	-12.5991
譴	-12.5991
逝	-12.5991
池間相去一尺五寸間有通水	-12.5992
而知死生之地角之而知有餘不足之處	-12.5992
穫	-12.5992
之所以全勝者軍政	-12.5992
之所以為威者號令	-12.5992
之所以輕戰者用	-12.5992
命也故將無還	-12.5992
巡按御史尚公維持	-12.5992
後周韋孝寛	-12.5992
蹔	-12.5992
主大將二宫格主叅將六宫發始擊將	-12.5992
十萬竈明日為五萬竈又明日為三萬竈	-12.5992
擥	-12.5992
若皆疑惑慶之請獨取之於是	-12.5992
麾乍合乍離	-12.5992
琕	-12.5992
信國公湯和	-12.5993
陣此東十里有渭曲可先據以待之遂進	-12.5993
飲以醇酒使不得言	-12.5993
朱全忠遣	-12.5993
陋	-12.5993
以石斗為等箭有㸃鋼木	-12.5993
次小於中箭其牙一發諸箭齊起及七百	-12.5993
永樂二年尚書夏公原吉	-12.5993
繚後手索二根	-12.5993
闍	-12.5993
鵒	-12.5993
三更見茶山	-12.5993
以後為前以前為後進無奔迸退	-12.5993
娼	-12.5993
弓手三百馬軍五百跳盪四百竒兵四百	-12.5993
春分二月中	-12.5993
磽	-12.5993
膸	-12.5993
鬢	-12.5993
匿衆若已遁	-12.5993
合朱旗㸃角聲動則左右廂齊離	-12.5993
州至羅巖州二里至州四百七十八里	-12.5993
已疲倦去我既逺必不見疑及其未集須	-12.5993
提督都御史周公珫	-12.5993
滷	-12.5993
衝方勝車輪	-12.5993
鏽	-12.5993
開門使羸疾數人登城賊	-12.5993
子房用之嘗	-12.5993
孫公宏軾	-12.5993
泳	-12.5993
賞子孫後嗣	-12.5993
閉營休士	-12.5993
後周末楊堅	-12.5994
行船人北土素無舟楫莫不驚以為神	-12.5994
䆳	-12.5994
四門斗底陣	-12.5994
形之敵必從之	-12.5994
故聖王御世觀	-12.5994
朱榮所擒餘衆悉降	-12.5994
八宫天目和徳	-12.5994
危者則據天下之安能除	-12.5994
憂者則享天下之樂能救天下	-12.5994
鼓一槌諸隊	-12.5995
杞	-12.5995
部前曲出在	-12.5995
太宗問李靖曰	-12.5995
厦	-12.5995
剔毛鬛謹	-12.5995
塾	-12.5995
五分一更傳牌八餘一里	-12.5995
其旋風四脚亦	-12.5995
哮	-12.5995
夹	-12.5995
竿力所制人挽其端而投之其車推	-12.5995
郄	-12.5995
分為八陣陣有一千九十三人七分五銖	-12.5995
方連船艦首尾相接可燒而走也乃	-12.5995
晝不見日夜不見星月	-12.5995
曰仁賢之智聖明之慮負薪之言	-12.5995
肫	-12.5995
至新安舖	-12.5995
蠼	-12.5995
衆我寡難與持乆	-12.5995
衞分撥指揮一員千户二員百户四員	-12.5995
部前曲左右	-12.5995
㸃卓旗則	-12.5995
咍	-12.5995
敵所逼不及築城壘或因山河險	-12.5995
竹節之節節節而制之	-12.5995
膀	-12.5995
部侍郎徐公貫㑹同巡撫都御史何公鑑	-12.5995
里齊地悉平後魏末河北賊葛榮為魏將	-12.5995
降軍各以郡人詣旗下皆罷遣軍人令歸	-12.5995
霸者制士	-12.5995
情視其倉庫	-12.5996
則合營操練分畨哨至	-12.5996
第二陣第三陣第四陣亦如之	-12.5996
圩	-12.5997
驂	-12.5997
據柘林為巢	-12.5997
垢	-12.5997
梧桐子大	-12.5997
百舸為前	-12.5997
飃	-12.5997
一寸七分厚一分槽下	-12.5997
官兵臨賊賊人	-12.5997
懋	-12.5997
扳舵索一根	-12.5997
按察司僉事	-12.5997
此子房所以	-12.5997
禎	-12.5997
以竒為正以正為竒	-12.5997
兵船僅可遏賊於北	-12.5997
拶	-12.5997
琛	-12.5997
花鎗花刀	-12.5997
首以窠盛石大小多少	-12.5997
鬭亂而不可亂渾渾沌沌形圓而不可敗	-12.5997
兵備叅政任公環	-12.5997
子房用之嘗勸髙帝	-12.5997
端末未見人莫能知	-12.5997
許家庄鋪	-12.5997
鷄鳴馳赴	-12.5997
隼	-12.5998
浹旬之間	-12.5998
呐	-12.5999
涓	-12.5999
有海港而無海塘	-12.5999
屨	-12.5999
必傷於飽日暮道逺必數上下寧勞於人	-12.5999
槁	-12.5999
違主將一時之令者斬	-12.5999
馬不傷於末必傷於始不傷於	-12.5999
兵馬軍等隊即須量抽人	-12.5999
吳越王錢鏐	-12.5999
唦	-12.5999
故必設兵一枝	-12.5999
磴	-12.5999
更皷一面小皷	-12.5999
椹	-12.5999
臣反虜乎	-12.5999
賊界相逢	-12.5999
轤	-12.5999
風與天時合	-12.5999
申此局主人	-12.6
冬不服裘夏不操扇雨不張	-12.6
瑗	-12.6
我按兵不出待彼氣衰陣久卒	-12.6
時步衆尚十	-12.6
分為七軍中軍四千人	-12.6001
凸	-12.6001
有海塘而無海港	-12.6001
歸賞者士之所	-12.6001
𠖇	-12.6001
人次立第	-12.6001
在盧山縣界南至縣	-12.6001
擔各兵自備用篾盔一頂	-12.6001
杴	-12.6001
為主將之位也牙帳	-12.6001
與物推移	-12.6001
舵二門椗	-12.6001
三升三合三勺	-12.6001
事時加巳酉鳴其上有酒食	-12.6001
嶺約八十里北至	-12.6001
把過船釘鎗	-12.6001
柣	-12.6001
棚二條各長	-12.6001
􁔷	-12.6002
將帥者必與士卒同	-12.6002
滋味而共	-12.6002
軍井未達將不言	-12.6002
王者制人以道	-12.6002
蜑	-12.6003
韁	-12.6003
丁字不成八字不	-12.6003
叱叱叱	-12.6003
團兵勇建寨柵以守以禦其餘亦惟以遊	-12.6003
民居稠宻	-12.6003
大篷一扇小篷一扇	-12.6003
如羣鳥亂飛	-12.6003
水之勢可殺其	-12.6003
船應備器械數目大	-12.6003
鮪	-12.6003
䖝	-12.6003
廂擊鉦息鼓	-12.6003
手足皸瘃	-12.6003
者藏於九地之下善攻者動於九天之上	-12.6003
詔裴行儉	-12.6003
難與争鋒	-12.6004
分深一寸二分	-12.6004
腮	-12.6005
改甃磚石	-12.6005
鼓動肅儀仗	-12.6005
左右四軍各二千六百人	-12.6005
放猛火油	-12.6005
泌	-12.6005
事時加丑戌鳴其上有	-12.6005
事時加亥夘鳴其上有	-12.6005
忒	-12.6005
淚	-12.6005
舴	-12.6005
弱之以位奪之以國	-12.6006
若霧非霧	-12.6007
缾	-12.6007
篩	-12.6007
憇	-12.6007
卸	-12.6007
大小七山一路打水六七	-12.6007
㔢	-12.6007
九遍用劍	-12.6007
大屈哉使操觚者而含糊焉則為欺朝廷	-12.6007
將將不身服	-12.6007
砦在武崗縣界東至縣	-12.6007
昔者良將之用兵有	-12.6008
還師罷軍	-12.6008
綁	-12.6008
殊形異狀	-12.6009
為縣舊境東西一百	-12.6009
湛	-12.6009
鞌	-12.6009
之所以誓而欲辯者此其	-12.6009
醇	-12.6009
珎	-12.6009
三軍之士思為致死者以滋味之	-12.601
契苾阿力	-12.601
香餌之下必有死魚	-12.601
夫人衆一合而不可	-12.601
權威一與而不可	-12.601
老鸛銜食來	-12.6011
公理使諜知之果屯兵於河陽内城以	-12.6011
分蹤出掠	-12.6011
蠣	-12.6011
豈小小哉	-12.6011
儋	-12.6011
哇	-12.6011
謀泄則軍無	-12.6011
闚	-12.6011
祅	-12.6011
螋	-12.6011
又㸃哨長旗第	-12.6011
四十名徃來廵邏	-12.6011
呷	-12.6013
􁇠	-12.6013
羖	-12.6013
里國朝重加經畫東抵蘇州府常熟縣界	-12.6013
秦璠王艮	-12.6013
粕	-12.6013
三十二小陣布為	-12.6013
出破陣作犬聲	-12.6013
方有賊則舉	-12.6013
輝輝然	-12.6013
面備戰豎	-12.6013
極人臣之位以	-12.6014
甌	-12.6014
掏	-12.6014
諸般毒藥	-12.6014
府城大肆焚	-12.6014
聰遣從弟暢	-12.6015
曹成李宏	-12.6015
鐔	-12.6015
汐	-12.6015
發我伏兵疾擊其	-12.6016
洵	-12.6016
之精也居少陽之	-12.6016
派買汛米	-12.6016
給帳一口食幕	-12.6016
四望無雲獨	-12.6018
槐	-12.6018
一人知高聲	-12.6018
以一百隻哨至	-12.6018
天地風雲龍虎鳥蛇各居一	-12.6018
涗	-12.6018
長就是你的	-12.6018
炷	-12.602
彿	-12.602
熄	-12.602
思過半矣	-12.602
痒	-12.602
梅林胡公	-12.6022
碌	-12.6022
以强凌弱	-12.6022
榴	-12.6024
涅	-12.6024
渾渾圓長	-12.6024
一工該工食銀三分	-12.6024
賊步至之類是也然其患	-12.6024
烘	-12.6026
携	-12.6026
每銃一桿用	-12.6026
惹	-12.6028
膘	-12.603
城市鄉邨	-12.603
涌	-12.603
分忌正月七月	-12.603
日風從己酉上來	-12.6032
叅將李逢時	-12.6032
子刑夘夘刑子	-12.6035
豉	-12.6036
懶	-12.604
鷟	-12.604
之屏翰也	-12.6042
然後合陣否則畨軍即時掩殺	-12.6053
之為愈也此其可慨	-12.6055
者與第二等轉	-12.6057
之兆也營中地	-12.6059
們	-12.6062
具將發利為客見陣利先動出軍	-12.607
者不知其伐吾	-12.6082
前後三軍疾戰敵人	-12.6087
勝聞賊備東北奇兵東北伏兵利	-12.6117
人弓手三百人馬軍五百人跳盪四百人	-12.612
正西戰利正東利方陣	-12.6164
方陣舉白旗雲氣從西南來主勝聞賊備	-12.6196
神速機不可失今兵始集銑尚未知	-12.6214
水陸皆可行乃正道也	-12.6329
大將外迫主客俱不利各宜固守主聞	-12.6508
客見陣利先動出軍宜西北戰利東南	-12.6663
事時加寅午鳴其上	-12.7568
行法人手執青旗咒曰	-12.7587
囚不利為主宜固守聞賊備西	-12.767
客㕘將三宫發計神	-12.8253
視大旗捺諸隊	-12.8271
晉羊祜都督荆州	-12.8733
時加寅午鳴其上有	-12.8871
行使好風一日夜	-12.9977
訶	-13.0244
驛路也水陸皆可	-13.0407
知縣楊芷舉人周大章	-13.0764
東北奇兵東北伏兵利	-13.0768
三軍疾戰敵人雖衆其將可	-13.081
和主大將六宫發主叅將八宫	-13.0839
置東至州十日程	-13.0848
至辰州辰陽縣界	-13.0852
有前中後三堂之	-13.0854
㧓	-13.0861
則虧衂者鮮	-13.0867
他直髙打來我將棍抽過	-13.0867
倉廩與客販囤園棧房陳陳相因	-13.0874
晉天福中馬希範	-13.0877
𣢾	-13.0877
微炒天一石一兩	-13.088
饋糧士有飢色樵蘇後㸑師不宿飽	-13.0883
欽定四庫全書江南經畧卷八	-13.0883
馨	-13.0883
三元經曰三竒遊于六甲	-13.0886
之地掘而成穽不拘廣狹上以蘆蓆	-13.0889
也以為上商而消息其	-13.0889
拿放鎗他若一	-13.0889
拿硬上一刴放鎗他	-13.0889
盡而止不盡乃倍	-13.0889
色使敵馬不覺足陷	-13.0889
進鎗他若使外把門等我我	-13.0889
雲從中出兵起疾疫日以	-13.0889
騪	-13.0889
牛皮裁成甲片用刀刮毛以破碗舂碎篩	-13.0892
則内濕外乾射不	-13.0892
麻麥草芥	-13.0892
來客勝聞賊備西北竒兵西北伏兵利	-13.0894
米大屑調生漆傅上	-13.0895
六甲為直符直事	-13.0896
蕋蝎斂口生肌散	-13.0896
之屬覆之而掩以	-13.0896
劒州劒門縣	-13.0896
右脚右手在前隂陽手使	-13.0896
轉運使鄭文寳	-13.0899
二策者皆勝策也	-13.0899
拿後手手心向	-13.0899
有才力者常川領之	-13.0899
霅	-13.0899
十步的一面豎起	-13.0901
冨	-13.0902
國初原屬甪頭巡司	-13.0902
㙭	-13.0902
某人某人長於	-13.0902
兵之有上中下也是兵之有三權也	-13.0905
者皆几上肉也	-13.0905
瀚	-13.0906
三發亦照銃手行賞罰次立	-13.0908
三百里至松州西北	-13.0908
大門大侵入磕	-13.0908
懸燈二盞平列	-13.0908
營懸燈二盞	-13.0908
重又其次七人横列為第	-13.0908
鍁	-13.0908
頭人身長七尺面	-13.0908
兔入牛欄伏不起	-13.0911
兔園食甘草	-13.0911
猛虎耽耽來到巳	-13.0911
行失穴入狗市	-13.0911
嶂	-13.0911
廉㓗而不愛人者	-13.0911
懦而喜任人者	-13.0911
有兵穀貴日有	-13.0911
步的一面豎起紅	-13.0911
饁	-13.0911
以一教十以十教百	-13.0914
芬	-13.0914
螣蛇宛轉歸申裏	-13.0914
馬入龍泉飲甘水	-13.0914
馬廐因留止	-13.0914
一枝令千户一員領泊竹箔沙下脚哨至	-13.0914
梃	-13.0914
賊有警報著本地方總甲押催依期搬運	-13.0914
以殄滅為期而不再舉	-13.0914
巡司在太倉州城東七十里	-13.0914
查訪不運入城者	-13.0914
與賊交通之罪總甲不行開報一體	-13.0914
里南至床穰砦六十里北至邊壕	-13.0914
里西至壕門外蕃	-13.0914
鎮大中祥符中築	-13.0914
頭人身長九尺面紫	-13.0914
頭人身長五尺面蒼	-13.0914
亦有餘竒藏於中軍	-13.0917
溶	-13.0917
謹以清酌少牢之奠	-13.0918
六星兩兩相比	-13.0918
峩婆谷胡谷	-13.0918
擊之敵大潰斬首五	-13.0918
會幽陵不守棄之	-13.0918
淅	-13.0918
埸	-13.0919
四柱柱頭設	-13.0919
僊	-13.0921
摰	-13.0921
十卒而殺其三者威振於敵國	-13.0921
爭利則不及委軍而爭利則輜重捐	-13.0921
衣梁上鋪散子木為	-13.0921
紥	-13.0921
阿保機建為州東至錦州	-13.0921
三門不具五將不發	-13.0921
信安軍御河西	-13.0921
共用樓船八十隻	-13.0921
固疑其不為己	-13.0921
大小門剃下攔	-13.0921
州在戎州西五百	-13.0921
巡司在吳縣西南三十里	-13.0921
每樓船十隻間以蒼山	-13.0921
澒	-13.0921
背璚在暈外臣叛日暈	-13.0921
至他手殺他身	-13.0921
行師不遇敵旗色上	-13.0921
設樓船三十隻於	-13.0921
羲	-13.0922
前後梯桄各一前桄尤要壯大上	-13.0922
將擊之耿純軍在前	-13.0924
巒	-13.0924
夣	-13.0924
厚一丈八尺池深一丈	-13.0924
七尺前髙七尺後髙八尺以兩巨木為地	-13.0924
者其料敵可謂巧矣	-13.0924
如坐漏船之中伏燒屋之下	-13.0924
不明主勝色明客勝月暈	-13.0924
五色花紙錢替代	-13.0924
入稜陣大呼衝	-13.0924
半道加季即到説曰	-13.0924
墩放火卓旗而	-13.0924
幽州四面州軍西京州軍十一雲州	-13.0924
曰夫勝趙而三分其地今城	-13.0924
此未為巧而能度其	-13.0924
窟野河一帶賊路西北至麟州南至銀	-13.0924
至蔚州三百八十里西	-13.0924
饑不得食勞不得息	-13.0924
無所害也不遇敵遇亦	-13.0925
多傷純勒部曲	-13.0927
後漢赤眉青犢	-13.0927
蛙	-13.0927
六甲占烏情第一百九十四	-13.0927
其刃為四稜頗壯	-13.0927
者以錫飾鐵嘴如烏項之白其小别有錐	-13.0927
鈎或桿上施環步兵則直用素木或鵶項	-13.0927
六合一截二進三	-13.0927
卑辭怠敵取之	-13.0927
丙為月竒丁為星竒	-13.0927
皆有刃植地輒立貫處以鐵為索更相勾	-13.0927
設之所以禦賊突騎使不得騁故曰拒馬	-13.0927
善也殷戮於市	-13.0927
密遣驍將乘險夜襲大破之	-13.0927
舉二火見煙塵舉三火見賊燒	-13.0927
堡東至永寧堡	-13.0927
来虛聲也火日	-13.0927
界二十八里置鋪十二	-13.0927
至戎州南溪縣界	-13.0927
西濟河即綏州界	-13.0927
利為主色上黄下赤為	-13.0927
四隅為正四方為奇	-13.0927
天寳後陷吐蕃宣宗	-13.0927
學到此一貫乎萬矣	-13.0927
怳	-13.0927
所向披靡復獲所射者使	-13.0927
拔箭然後斬之攜其	-13.0927
是以其道足髙而名揚於後世	-13.0927
浦洛河耀徳	-13.0927
用説篇内制之習之	-13.0927
靶	-13.0927
首序蒐狩	-13.0927
甘言怠敵以擊之	-13.0929
滆	-13.0929
賊忽夜攻純兩軍	-13.093
利者不可舉軍皆進又不	-13.093
制木桿上刃下鐏騎兵則	-13.093
鋑	-13.093
隅法併為廉	-13.093
幸其未為曉兵者也	-13.093
越伐吳吳子禦之笠澤	-13.093
聲言擊東其實擊西	-13.093
藁上又施皮笆所以禦	-13.093
不善也周賞於朝戮	-13.093
因便乘勢而躪蹙之	-13.093
孝經雌雄圖曰	-13.093
役不再籍糧不三載	-13.093
繄	-13.093
蔡時宜陳可願	-13.093
魏有以遺之嗚呼豈亦天意者	-13.093
出以辰戌入以丑未	-13.093
十里敵樓戰具全	-13.093
占曰月與熒惑合	-13.093
日夜半行十三度少強即至	-13.093
東北通婁江西南通呉淞江	-13.093
為廉於上商之次續商第二位得數	-13.0932
利者其法半至是也若	-13.0933
可棄軍實而往故曰舉軍而	-13.0933
者五百人先往罷者繼往故曰五十里而	-13.0933
廉法之次照上商置隅	-13.0933
云梭槍亦曰飛梭槍槌槍者木為圓首教	-13.0933
有刃欲刺人不能捉搦也以狀類筆故云	-13.0933
用之近邊臣獻	-13.0933
福船五隻沙船五隻	-13.0933
苕	-13.0933
大驚以杖擊地曰是何神也	-13.0933
岑彭之攻公孫述	-13.0933
江都御史蔡公克亷遣蘇州府同知任環	-13.0933
覩其昭然之形	-13.0933
兵機統論第十二	-13.0933
因咽而廢食	-13.0933
擅利則釋旗迎而反之	-13.0933
敵若衆則相衆而	-13.0933
火繩三條在臺側近上下用屈膝梯上	-13.0933
即奚契丹避暑之處	-13.0933
巡撫侍郎周公忱	-13.0933
抖	-13.0933
至徳後陷于吐蕃	-13.0933
一輛上載霹靂砲	-13.0933
偏禆將千把總伍隊長	-13.0933
前後相去二十歩左右	-13.0933
宜於久而不可易	-13.0933
宜於昔而不宜於今	-13.0933
宜於暫而不宜於久	-13.0933
悖於其所興者三	-13.0933
應備前項什物軍器	-13.0933
油紙鐵絲燈一	-13.0933
當㡬歩卒㡬歩卒當一	-13.0933
者本乎旗號風雲者本乎旛名龍虎鳥蛇	-13.0933
錚	-13.0933
險戰之法車必循道十車	-13.0933
騣	-13.0933
示形在彼而攻於此	-13.0935
原州太宗率兵拒之	-13.0935
去輜重四五里繼遷	-13.0935
竒亦為正正亦為竒	-13.0935
見紹斌旌旗不敢擊守榮	-13.0935
出賊後齊聲呼譟彊弩並發	-13.0936
至故可去者多亦少敗亡故曰三十里而	-13.0936
名曰方法乃命上商除	-13.0936
如是者以敗為勝也勝敗之術非勇	-13.0936
戰騎陷騎遊騎	-13.0936
蔡侯吳子唐侯伐楚	-13.0936
作利道受圍以堅	-13.0936
筆槍首刃下數寸施小	-13.0936
耶諸將曰此非凡人所能及也	-13.0936
下分用三十人推挽梯桄下又以木	-13.0936
斡跳使進抵城下頭車舊木無輪	-13.0936
瞬視身勿倨坐	-13.0936
拙速未覩巧之	-13.0936
斯八陣何義也靖	-13.0936
發能中利動則有功	-13.0936
茜涇巡司在太倉州城東北	-13.0936
也咸平中廢慶厯中修復東	-13.0936
五家為軌故五人為伍	-13.0936
前後左右上下周旋能縛束	-13.0936
十人當一車一騎當歩卒	-13.0936
十騎十騎當一車	-13.0936
壒	-13.0936
惟荀卿明於王道而非之	-13.0936
故伊吕之將子孫有國與	-13.0936
旗色上黑報兵馬事来虚聲也	-13.0936
縧	-13.0936
馬逸不能止師從之	-13.0936
閔	-13.0938
乃召慎勉之令戰大破	-13.0938
千餘衆朝廷始信其不二	-13.0938
轡結陣徐行守榮	-13.0938
齊師敗績逐之三周華不注	-13.0938
斟	-13.0939
三分之二至是也所以常不失也	-13.0939
搓	-13.0939
實上商置第一位得數	-13.0939
汭自豫章與楚夾漢	-13.0939
為下法從末常超一位	-13.0939
賀屠鈎杆	-13.0939
不及回顧散歸隴外則折	-13.094
兵衆皆隴西人一敗退	-13.094
收而撫之則便未可得矣且	-13.094
攻則屯而伺之	-13.094
晉侯入曹令無入僖負	-13.094
相輕今喜吾出悉兵來戰雖擊破之擒殺	-13.094
自虛我軍隨而迫之所以懼而降也此可	-13.094
禺	-13.094
觀之殆不然何也	-13.094
豬	-13.094
剛毅而自用者可事也	-13.094
智而心緩者可襲也	-13.094
者創業造邦之君	-13.094
䝉普㝷後當至䝉豫勑四將各選百人普	-13.094
上闊一丈形圓上建	-13.094
於事而令百歲老母戴白受誅豈不痛哉	-13.094
某年某月日	-13.094
絶中流實以土囊	-13.094
見之為陳禍福𤣥之見普具宣䝉意普懼	-13.094
􁲑	-13.094
之精積而成象光	-13.094
便入守城門須臾普出䝉迎執其手與	-13.094
愽	-13.094
書示之因拊手大笑普見書知備在公安	-13.094
人又加倍支候其	-13.094
令添支錢銀	-13.094
刃而誓之以致人意也	-13.094
善為將者不以其身	-13.094
四里為連故二百人為卒	-13.094
在益陽慙恨入地	-13.094
干賞蹈利之兵	-13.094
平砦東至州西南交趾	-13.094
得實即令正補	-13.094
忿曰我不受君節	-13.094
掠無所得敵之衆心益以慢矣當於中夜	-13.094
父奢無以難之然	-13.094
誠則愚夫蠢婦無不	-13.094
軌為里故五十人為小戎	-13.094
連為鄉故二千人為旅	-13.094
門之外欲人先意以待事也周人將交	-13.094
不勝鋒必挫反為我	-13.094
之已涉者葢已	-13.094
五星統論第一百五十	-13.094
佯與交鋒於水之兩傍使其餘去敵差遠	-13.094
借資賞日幇	-13.094
八具以環利通索張之	-13.094
勢加人者止用勇敢疾速為務鮮能精謀	-13.094
地與溪洞相接東至	-13.094
埿	-13.094
塞而不通凡太湖以南嘉	-13.094
彼誠能拒我之	-13.094
慮彼見老弱必輕進	-13.094
戰之法一車當歩卒	-13.094
敗歩騎要窮宼遮走北狹路微徑	-13.094
方二百三十日而入入二十五日而復出	-13.094
涉彼岸直衝敵軍之後與敵邀戰	-13.094
溏	-13.094
百二十具敗歩騎要窮宼遮走北	-13.094
矣敵有以假勢而	-13.094
誓文第一百九十五	-13.094
軍則吾對敵之軍可不	-13.094
遼河西包冷陘	-13.094
里南至府州五十七里	-13.094
鎗進步劄你你	-13.094
馬騰谷瑇瑁	-13.094
稱降及和因懈敗之	-13.0941
用大木二條各長一丈八尺謂之掲竿首	-13.0941
進便設緒棚續車後遇壕則運土雜	-13.0941
道以車蔽人先於百步内	-13.0941
曲齊師雖衆而	-13.0941
頓初立東胡方	-13.0941
地勢便則兩道出	-13.0941
擊之必勝矣何謂也許洞曰	-13.0941
精兵偽示以老弱敵進攻則發伏	-13.0941
天之使也自上而降	-13.0943
菲	-13.0943
一陣受敵各自為戰竒正相混	-13.0943
下往來矢石不能及又以千	-13.0943
之宫而免其族報施也	-13.0943
以助竿力令車首常去地尺餘兩	-13.0943
六韜卷第一文韜文師	-13.0943
勢如追風目如流電滿開弓	-13.0943
各當一正一正不離一	-13.0943
後桄出以土囊壓竿稍令掲車首昂起車	-13.0943
攻之不拔乃引軍還	-13.0943
暇發以故尅也宗羅睺恃往昔之勝兼復	-13.0943
桄引向後出以絞車自後急	-13.0943
泥堡西南至州一百五十里	-13.0943
藁填之運者皆自車中及緒	-13.0943
上前施屏風	-13.0943
以君之靈不有寧也距躍三百曲踊三百	-13.0943
制人者握權也制於人者	-13.0943
南至北砦約三十里	-13.0943
外又垂皮笆亦以禦砲方竅下置梯以升	-13.0943
如偃枯草使東而東使西而西如引渟水	-13.0943
至東曹谷鋪約三十里	-13.0943
弓弩箭鑿砲石磚石	-13.0943
進戰其驍將渾幹等數人臨陣	-13.0943
遣之於是各乘良馬須臾並至	-13.0943
降請還取馬太宗	-13.0943
風雨雜占第一百八十八	-13.0943
首有小竅以皮繩繫著車	-13.0943
俶	-13.0943
無困死人棍之法大抵	-13.0943
下我鎗你鎗起	-13.0943
五騎一長十騎一吏百騎一	-13.0943
刃連跨長二尺後有拐	-13.0943
勢在敵我當有道反能擊之若夫敵有	-13.0943
十里北至契丹朔州界有谷路一	-13.0943
司洪武六年建於	-13.0943
圏鎗為母後	-13.0943
士之法取年四十巳下長七尺五寸巳上	-13.0943
州在戎州西北七百九十三里	-13.0943
幻	-13.0943
庵	-13.0943
應之如此則可以破其	-13.0943
掩其不備擊其未整	-13.0943
者矣敵有恃氣勢而到者可以後	-13.0943
若彼城堅而救	-13.0943
豪傑英俊堅甲利兵勁弩強矢	-13.0943
貪殘卑鄙者	-13.0943
鎗你上劄我捉鎗你下劄我	-13.0943
㑹卒見亮至衆皆駭愕亮乃麾兵斬定兒	-13.0943
一是各處海壖多灘塗閣淺	-13.0943
之計漫不之講	-13.0943
以犯嘉定或由黄浦以犯上洋而吳淞	-13.0943
宇文泰令劉亮襲之定兒以義兵	-13.0943
居國惠以信在軍廣以武	-13.0943
州門號令賊黨仍遥指城外纛命二騎曰	-13.0943
怒而撓之卑而驕之佚而勞之親而離之	-13.0943
扠	-13.0943
救趙進軍栢鄉五里遣周徳威先以胡騎	-13.0943
浦之衝西當泖湖之險南	-13.0943
絀	-13.0943
繖	-13.0944
大麻繩繫車	-13.0944
倚以木馬令人於笆内射外凡攻城鑿	-13.0944
垂在約竿外木無定數但取遮	-13.0944
奢之登北山秦兵雖强而莫上李弼之據	-13.0944
以衆攻衆衆存不攻	-13.0944
分之一加於弓亦三分之一以左手頭指	-13.0944
勢而到者未可與戰堅壁	-13.0944
存不攻以備攻備備存不攻釋實而攻虚	-13.0944
是以知貌也者神之聚也言語也者神之	-13.0944
較然如斯可不務哉	-13.0944
辭禮不屈恂怒	-13.0944
遣軍師皇甫文出謁	-13.0944
出竒者無窮如天地不竭如江河	-13.0944
周家橋三江㑹口為	-13.0944
虺	-13.0946
浿	-13.0946
其簡兵練將候夜掩襲城中無悟其旨者	-13.0946
祛	-13.0946
即移十里外止宿	-13.0946
奕候視至暮	-13.0946
奕馬騎晝日	-13.0946
舉烽相報其烽	-13.0946
防賊徒暮間見	-13.0946
十二陣皆步而騎各包步	-13.0946
皆外向持重而還晉人不敢逼	-13.0946
之則進金之則止	-13.0946
事急矣吾當以權道破之於是射觀者	-13.0946
僖負羈氏魏犨傷	-13.0946
吹而行再吹而聚	-13.0946
呼曰賊敗矣衆復振齊力	-13.0946
走之轉相騰藉聲如雷霆忻乃	-13.0946
軍不利時鄴城士	-13.0946
集聚臣當君尊上下	-13.0946
髙家嘴龔家套下脚	-13.0946
魏犨顛頡怒曰勞之不圖報	-13.0946
麾左而左麾右而右	-13.0946
不知虚實故敗今䝉賜觀營陣若	-13.0946
之則流壅之則止	-13.0946
之士三縱之肅乃遁走唐太宗討薛仁杲	-13.0946
之法不可不講也一曰	-13.0946
乗之仁杲列陣城下太宗據涇水以臨賊	-13.0946
以充軍用隋將楊素奮兵擊之四十餘戰	-13.0946
則減竈合營則偃旗	-13.0946
即易勝耳亮笑縱使更戰七縱七擒而亮	-13.0946
平陳禎明三年隋師濟江宜黄侯慧紀	-13.0946
得之使觀營陣之間問	-13.0946
此軍何如對曰向	-13.0946
獲不去曰公天威也南人不復反矣遂至	-13.0946
率左右二千餘騎追奔直趣	-13.0946
舊力畧過新力未發而急	-13.0946
貴制人不貴制於人	-13.0946
輕騎騰逐不待	-13.0946
隋軍死者五千餘人陳人盡取其鼻以	-13.0946
利天下者天下啓之害天下者天下閉之	-13.0946
則能成絶代之功	-13.0946
如火光芒勢翕翕然者其方救至無者	-13.0946
平旦視圍上氣	-13.0946
攔鎗還鎗我攔鎗	-13.0946
曰吾君死矣師譟而從之三國奔楚師大	-13.0946
東境安亭春申	-13.0946
窨	-13.0946
胡沈之君㓜而狂	-13.0946
掠為資今不若	-13.0946
氏因釋擔出刃大破之遷仕	-13.0946
第二指節當闊約弦徐徐送之令衆	-13.0946
胃胃辛下冬	-13.0946
重八斤柄長	-13.0946
也一是海濱至内地必由小港出浦	-13.0946
五十六聲六疊一間三間畢	-13.0946
候其困而搏之則不為其所傷	-13.0946
先令自使㸔其身手歩法	-13.0946
兩軍相當日有冠纓者和解抱	-13.0946
兵有此三者未有不敗軍殺將者焉是故	-13.0946
凉州入自洪源谷將圍昌松縣唐休	-13.0946
刺菱二三十枚地火䑕一二十	-13.0946
則以指南車子午針	-13.0946
厯司經厯一員	-13.0946
反為不便勢使然也	-13.0946
受二石力勝一人甕	-13.0946
名土兵一百七十名水兵二百三員名退	-13.0946
啾	-13.0946
四戰圖第一百十六孤虚第一百十七	-13.0946
夏后氏誓衆於軍中欲人先	-13.0946
大海地無百里之隔乃三面受敵之所今	-13.0946
大港往來巡哨以防	-13.0946
嶺即馳入城定兒方	-13.0946
州在戎州西一千三百	-13.0946
弩忩矛穴	-13.0946
弰向前微令上傾向右然後取箭覆其手	-13.0946
彞	-13.0946
後魏幽州刺史孫定兒	-13.0946
怍	-13.0946
惡地據之控制	-13.0946
故其戰勝不復而應形於無窮	-13.0946
昬	-13.0946
晉書天文志曰得地為喜日有	-13.0946
水星第一百五十四	-13.0946
沈其舟六十艘俘斬三百有竒	-13.0946
片帆出浦即是葉謝	-13.0946
行柘林之西獨有下横涇荒巖河	-13.0946
詈	-13.0946
謀若得杏城李	-13.0946
趙充國之討先零	-13.0946
都指揮王世科	-13.0946
里南至府州六十里北	-13.0946
鈍而不適用者愚人也利害章章而不能	-13.0946
鋒正軍五十八名選鋒餘丁九十八名共	-13.0946
門殺來我就行過	-13.0946
雖先到而不直射	-13.0946
非潮至則水澀	-13.0946
頃之五校果引去帝乃親臨四面攻	-13.0946
鷗	-13.0946
􁨓	-13.0946
聲言欲退誘敵破之	-13.0947
入潞㑹晉軍十餘萬	-13.0947
昏君當臣處上下失序	-13.0947
不保井陘終擒於韓信慕容超不固大	-13.0947
之吳為三軍以繫	-13.0947
及陳大夫舍胡沈之囚使奔許與蔡	-13.0947
吳之罪人或奔或止三國亂吳師擊之	-13.0947
必無所防為君取之如反掌耳	-13.0947
按手頥下引之令滿其持弓手與控指及	-13.0947
擔雜物唱言琛貨先書報遷仕曰太守馮	-13.0947
氏入據其城盡收其衆	-13.0947
送土物以省之彼聞	-13.0947
遣使來曰願得單于一閼氏	-13.0947
之可破也岱不從遂與戰果為所殺	-13.0947
如幹直臂如枝直臂者非初直也架弦畢	-13.0947
氏傳啓并奉土貢以資軍費遷仕大	-13.0947
疾篤謹令妻	-13.0947
稍離身就箭即以右手㝷箭羽下至闊以	-13.0947
㸃二刻後六日改第十二箭晝	-13.0947
之者事有衆危而獨安之者事有難動而	-13.0947
以善為惡以惡為善者姦人也善	-13.0947
兵於垓下終滅羽後漢初河南賊董憲	-13.0947
凡射必中席而坐一膝正當垜一膝	-13.0947
十萬之國其衆來者有四萬五萬之旗	-13.0947
每更九刻四十八分每㸃一刻五十七分	-13.0947
泊守金山以䕶西津	-13.0947
無識人也臨事而懼者懦弱人也進退不	-13.0947
痩	-13.0947
百萬六十七十八十九十萬之旗	-13.0947
矣况國之命將可不審於此乎	-13.0947
者無斷人也記一而忘二者神	-13.0947
者神之用也行事也者神之本也察其神	-13.0947
而不棄大而不煩者	-13.0947
與之拒守建陽光武親征之去憲百里諸	-13.0947
萬之國其衆來者有	-13.0947
萬矣餘皆疑兵也	-13.0947
賊衆百萬百姓皆震恐士卒無鬭志不可	-13.0947
青州黄巾衆百萬入兖州界刺史劉岱欲	-13.0947
城下呉蜀各遣	-13.0949
箆	-13.0949
一月間也則吾城已固諸軍足辦吾	-13.0949
呉二千里聞吾舉事當表上天子比相反	-13.0949
玭	-13.0949
擬停三五日即須去軍一二	-13.0949
五代黄文靖佐葛從周	-13.0949
崒	-13.0949
智而心怯者可窘也	-13.0949
突厥黙啜率衆數萬奄至城下欽明拒戰	-13.0949
舉烽遞報軍司	-13.0949
軍而返齊人弗悟而不追若追之必克也	-13.0949
一他打來我打去他起我	-13.0949
七萬一千八百二十四步	-13.0949
上者六百里腹脊上	-13.0949
不移日而城必破城破之後	-13.0949
人思致命至尊遣兵相繼於道	-13.0949
吐蕃精甲十萬寇臨洮	-13.0949
向城被城上人用弓弩	-13.0949
在戰捷聞孟獲者為夷漢所服募生致之	-13.0949
急而心速者可乆也	-13.0949
既置爟烽軍内即須	-13.0949
而好利者可遺也	-13.0949
而愛其材使問且視之病將殺之魏犨束	-13.0949
聞世有忠義事亦欲為之而不知時也	-13.0949
訥	-13.0949
五一曰理二曰備三曰果四曰戒五曰約	-13.0949
其主尚保堅城	-13.0949
几	-13.0949
而臣之連環因之	-13.0949
若進止不度飲食不	-13.0949
諸將奉賀因問曰始大王野戰破	-13.0949
進止之節無失飲食之適無絶人馬之力	-13.0949
馬疲人倦而不解舎	-13.0949
史稱疾不赴繕甲訓兵今已備矣而更召	-13.0949
見留願且勿行遣使譎之曰身疾篤謹遣	-13.0949
鎗後有攔鎗黄龍	-13.0949
䝉既定長沙當之零陵	-13.0949
七國同役而不同心帥賤而不	-13.0949
人力可負以乾草為心濕草外傅候風勢	-13.0949
令當闊羽向上弓弦既離身即易見箭之	-13.0949
則備蓬艾薪草萬束	-13.0949
千户所千户五員百户十員	-13.0949
吕䝉西取長沙零桂三郡	-13.0949
在從魁下加辰戌	-13.0949
在登明下加巳亥	-13.0949
指不知鏃同於無目試之至也或以目視	-13.0949
整無大威命楚可敗也	-13.0949
氐氐乙下夏	-13.0949
衝人無拒者凡攻城邑旬日未	-13.0949
要令大指知鏃至然後發箭故曰鏃	-13.0949
賊在前加辰賊在後	-13.0949
郡望風歸服惟零陵太守郝普城守不降	-13.0949
㕘政翁公大立	-13.0949
䑕咬弓弦	-13.0949
三尖兩刃刀	-13.0949
乃是出其不意滅賊之機	-13.0949
也觀賊衆羣輩相隨	-13.0949
井中枕瓮而聽	-13.0949
人當一騎一車當六騎六騎當一	-13.0949
他舊力畧過新力未發	-13.0949
以子將一人幹當每日	-13.0949
但以精兵出其不意必敗矣或敵探我動	-13.0949
使稀稠均即是	-13.0949
内無干令犯禁則外無不獲之	-13.0949
十騎一吏縱横相去百	-13.0949
卒遮絶救兵趙卒食絶四十六日隂相殺	-13.0949
南至長烏砦十	-13.0949
周環各復故處	-13.0949
帳也大將所居言其事不可妄示人故云	-13.0949
我鎗我鎗閃過	-13.0949
方二竿停停無光曰日	-13.0949
暪	-13.0949
曰五校乏食當退	-13.0949
本濊貊之地其國	-13.0949
武進道里遼逺故	-13.0949
漸漸逼城仍具皮笆傍牌以禦矢石	-13.0949
甖	-13.0949
皇甫繼明白守榮	-13.0949
禡五方旗文第二百五	-13.0949
禡門旗文第二百四	-13.0949
者斬其扳招手	-13.0949
與號令者必不溢四十萬矣餘皆疑兵	-13.0949
蠡角第七十三	-13.0949
西與鮮卑接地方	-13.0949
親酹其屍而哭之為賊幽閉者出之誓平	-13.0949
謂麾下曰自欽陵死	-13.0949
門就他棍尾對手直打下	-13.0949
隅落鈎連曲折相	-13.0949
𦂳糊其口每砲一枚	-13.0949
以為貨徳威自率精騎擊其兩偏左馳右	-13.0949
可謂入其域而有節制矣	-13.0949
啚	-13.0949
妄相眩惑無一可取	-13.0949
威謂李存璋曰賊志在不戰欲以	-13.0949
往而無以還者車之死地	-13.0949
急渡賊至飛報且	-13.0949
敵亂大衆者名曰武騎之士	-13.0949
是汴州天武健兒	-13.0949
時衆不滿二千揭飛惡地衆至數萬氐胡	-13.0949
有類夫王莽之盗漢也	-13.0949
末帝所以失天下者	-13.0949
炫燿晉人望之懼形於色	-13.0949
獲百餘人賊遂渡河而退	-13.0949
耀威耳乃遣存璋諭諸軍曰爾	-13.0949
貴知變動車貴知地形騎貴知	-13.0949
外垣砦文靖慮孤軍難守乃與	-13.0951
擊車師有後王前王前王即後王之子其	-13.0951
不主皮不得緩緩則力難為而箭去遲	-13.0951
吳子以罪人三千先犯胡沈與陳	-13.0951
善者能之箭與弓	-13.0951
國之本也奈何與之諸言與之者皆斬之	-13.0951
國愛一女子乎與之居頃	-13.0951
後者敦陳整旅吳子從之	-13.0951
暗中則乖此為無術矣故矢在弓右視在	-13.0951
東胡復曰匈奴有	-13.0951
矣諸侯乖亂楚必大奔請先者去備薄威	-13.0951
頓上馬令國中有後至者斬遂	-13.0951
頓以問羣臣皆曰千里馬國之	-13.0951
頓問羣臣或曰與之	-13.0951
頓問羣臣皆怒曰東胡無道乃求閼氏	-13.0951
頓曰奈何與人隣國愛一馬乎遂與之	-13.0951
戰不得攻又不能其勢必離散然後選精	-13.0951
之謂隨勢者也合戰之地便其干戈利其	-13.0951
人也南引揭飛東結董成甘言美説以成	-13.0951
取之今釋不取所謂	-13.0951
後三日改第十箭晝	-13.0951
慴	-13.0951
戰秦軍射殺之趙軍大敗坑卒	-13.0951
氣勢者也士卒寡少盛其	-13.0951
然相去一百五十餘里又隔吳淞大江兵	-13.0951
色者臨大事而神氣自若者此謂神有餘	-13.0951
荆州監軍郭敬	-13.0951
時賊營處四面阻泥河惟一路得入欽明	-13.0952
煥	-13.0952
系	-13.0952
前烽應訖即赴軍若慮走不到	-13.0952
城中早降欽明大呼曰賊中都無飲食城	-13.0952
有美醬乞二升	-13.0952
炬火前烽應訖即滅火若	-13.0952
綻	-13.0952
若登首山以呼曰庚癸乎則諾唐許欽明	-13.0952
乃造三橋道逾洹水	-13.0952
五全一曰城隍修二曰器械具三曰人少	-13.0952
候其矢石可及則以術破之若遇主將自	-13.0952
具未足薪水不供雖有髙城宜棄勿守亦	-13.0952
利以彊弩叢射飛石併擊斃之則軍聲阻	-13.0952
反間故反間不可不厚也	-13.0952
可使如期五間之事主必知之知之必在	-13.0952
嵂	-13.0952
晉人之覘宋者反報於晉侯曰陽門之介	-13.0952
水用足下不近水而溝防省因天財就地	-13.0952
置一都烽應接四山諸烽其都烽如見	-13.0952
謂此也凡守之道敵來逼城靜黙而待無	-13.0952
五千先擊子常之卒	-13.0952
以中國不習水戰故散居東關且攻敵	-13.0952
將授以方略晨當攻城顧謂𤣥之曰郝子	-13.0952
帝問司馬懿曰吳蜀宜討何者為先對曰	-13.0952
白虹及蜺入營者敗日暈	-13.0952
之手以駐之心以趣之其不中何為也	-13.0952
其思曰胡可伐	-13.0952
分汛時汛畢常川操練	-13.0952
命工開鑿土人相傳稱	-13.0952
坪	-13.0952
左箭發則靡其弰厭其肘仰其腕目以	-13.0952
廢以居則亂以戰則	-13.0952
然其的必始於一丈百	-13.0952
舊驛前南行歴平望王江涇	-13.0952
三曰地四曰將五曰法道者令民與上	-13.0952
不卜筮而獲吉貴功養勞不禱祠而得福	-13.0952
不得負斤兩之重	-13.0952
八節占風第一百八十九	-13.0952
於天命未改之晉	-13.0952
時制也地者逺近險易廣狹死生也將者	-13.0952
本司印封題	-13.0952
殺傷及溺死者萬餘人惠亮奔走靖率輕	-13.0952
為賊傷死人蔽野大將李光弼帥本鎮兵	-13.0952
犯胡沈與陳必先奔	-13.0952
羌偽不勝引騎而退襄追之至於三原羌	-13.0952
酆	-13.0952
鎮撫司鎮撫一員經	-13.0952
非一人之天下乃天下之天下也	-13.0952
騎拒襄俄而黄眉至大戰斬之盡俘其衆	-13.0952
一座設瞭守軍餘	-13.0952
一本三百六十字一本	-13.0952
七百八十九名僅足以充府城防守之用	-13.0952
不可以遇魏之武卒魏之武卒不可以	-13.0952
之從他道引去胡見	-13.0952
之數也雖有先王之道聖智之術而無此	-13.0952
也又若累戰累北吏士畏於	-13.0952
二斤半每營共該鉛子	-13.0952
亦使之射射中	-13.0952
人怯蜀人懦楚人輕齊人	-13.0952
人皆知我所以勝之形	-13.0952
令三軍曰魏人所以富庶而能通聖化者	-13.0952
備解明道與六合知縣董邦政率兵迎擊	-13.0952
公也天子以其仁愛使治鎮州且田公出	-13.0952
前後無有陷隠此之謂地勢者也用兵者	-13.0952
前易後險者車之困地	-13.0952
十歩為式把高	-13.0952
及通衢隂伏	-13.0952
可以繞至嘉興府之	-13.0952
右手監住左手一抹刀他若使一	-13.0952
哄我殺去他即起彈殺我也記之記之一	-13.0952
單提來打我膀不拘左右	-13.0952
地秦人勁晉人剛	-13.0952
姓為將或三赤星	-13.0952
字以發明之其一行	-13.0952
官㕔鼓樓軍房七十餘間	-13.0952
將至相禁不復得走敬	-13.0952
州東南至州六日程	-13.0952
廣化西曰朝京北曰青山次北曰和正	-13.0952
弔則悲與賤者	-13.0952
形變於外常以所見而觀其所	-13.0952
徑竒道三軍同名	-13.0952
從間道出人負束薪	-13.0952
心迎其意或慶或弔以惑其志情變於内	-13.0952
悦慶言也死亡憂患貧賤苦辱刑戮誅	-13.0952
愠而致戰合於利而動不合於利而止	-13.0952
應曰袁公恐曹操	-13.0952
扇拍拍不住	-13.0952
手監住一抹刀	-13.0952
敎成合之萬人萬人	-13.0952
斤每杆火線十條共火線二千條每車	-13.0952
斤每營共該藥	-13.0952
是夕東北風大起破屋折樹營中掘井方	-13.0952
會皷四十五聲六疊一間三間畢	-13.0952
有數萬人戰主人吏	-13.0952
有路僅容車軌	-13.0952
望見賊衣甲鮮盛	-13.0952
此五勢未有不能追亡逐北以建大功	-13.0952
此賞格之當明	-13.0952
毒等攻東武陽魏武引兵入西山攻毒等	-13.0952
洩漏城中速造	-13.0952
洪武二十三年土築	-13.0952
海岱之人壯崆峒之人武燕趙之人鋭	-13.0952
溪源口南至禄塘砦三十	-13.0952
無嚴備今以輕兵襲之	-13.0952
痼	-13.0952
登將魏揭飛	-13.0952
皆有所以必至之理也	-13.0952
眼四處各穿藥線使	-13.0952
砦距河三里西至	-13.0952
示以疲倦懈怠使知之敵必隨勢而來	-13.0952
禡五兵文第二百七	-13.0952
禡六纛旗文第二百六	-13.0952
禡馬文第二百八	-13.0952
船一二十隻募解舟	-13.0952
菆	-13.0952
衆十餘里結屯營多聚牛馬糞	-13.0952
袁浦墪在柘林袁浦捍海塘	-13.0952
西倉一堡孤懸中野防守缺官	-13.0952
西至常州府宜興縣界一百里南至	-13.0952
詐越人澆薄	-13.0952
越絶險阻乗敵逺行者車之竭地	-13.0952
軍前後斷絶歸路豫乃進軍去	-13.0952
進退無疑見敵無謀	-13.0952
遣使預約戰日	-13.0952
門接一下只離一寸	-13.0952
非得不用非危不戰	-13.0952
魏中山王元英	-13.0952
魏博節度時幽鎮復亂田𢎞正遇害	-13.0952
魏張遼圍昌	-13.0952
𩥇	-13.0952
地次於天後縱布四風挾天地之左右	-13.0953
曰糧寡而人衆四曰蓄貨積於外五曰豪	-13.0954
諸將並坐論功異	-13.0954
之龎涓失計於馬陵而	-13.0954
傾箭惡直懦頥惡傍引頸惡却	-13.0954
發百中寸以加之漸	-13.0954
矢量其弓弓量其力無動容無作色和其	-13.0954
韓果性强記兼有權	-13.0954
之以弱潛遣子崇率騎數百出其不意以	-13.0954
之曰我當佯退誘	-13.0954
乎嘉靖甲寅賊據為巢與老鸛嘴柘林新	-13.0954
兒使前汝可擊其背	-13.0954
到縱擊之遂滅其國	-13.0954
將受命於君合軍聚衆交和而舎	-13.0954
屈突通發關中兵擊之	-13.0954
崩士卒取其泥帛絞而飲之人馬俱	-13.0954
州總管將之任高祖問以備邊之策世讓	-13.0954
擊之揭飛衆大潰斬揭飛惡地請降東魏	-13.0954
斬獲俄而椿告齊衆稍逼憲又救之㑹被	-13.0954
時晉師居下風將	-13.0954
每更一十刻二十四分每㸃二刻四分	-13.0954
澄歸梁圍彭城澄遣慕容紹宗討之	-13.0954
與之不協及道𤣥深入而擁兵不	-13.0954
舊制南滙與吳淞所互為	-13.0954
車迎之衆咸感恱	-13.0954
追還率兵夜返齊人果謂栢	-13.0954
雖名為將而軍之進止皆委於吾今其輕	-13.0954
震駭京邑謙	-13.0954
鹿角為行寨契丹圍之數重竒兵出寨後	-13.0954
柝	-13.0954
䏰	-13.0955
姤	-13.0955
兵不雜則不利長兵	-13.0955
地立定鳴鑼坐地休息	-13.0955
如有公用悉照時價將銀現買	-13.0955
氣欲閑心欲一	-13.0955
着花錦戰袍	-13.0955
色雙目金灼	-13.0955
動則能成絶代之功如其不遇	-13.0955
故兵法曰城有不可攻又曰善守者藏	-13.0955
非獨為城髙池深卒彊糧足而已必在乎	-13.0955
頭人身長八尺面	-13.0955
顙	-13.0955
一䑸為團長徐术等	-13.0955
不得我便兵疲意沮計不復生掎角此	-13.0955
克鄭丘緩為右及戰郤克傷於矢流血及	-13.0955
其軍始集思慮精專未可干也今住已	-13.0955
可以高枕而臥矣	-13.0955
州唐儀鳯中置	-13.0955
已固守擊之必無利矣遜曰彼乃猾虜	-13.0955
常州境去一䑸為耆民周瓚等所	-13.0955
截自黄麻門從	-13.0955
所謂十過者有勇而輕死者	-13.0955
正在今日乃先攻一營不利	-13.0955
死而子罕哭之哀而民	-13.0955
漫山而下向空湖	-13.0955
火起大總管當須	-13.0955
獨山轉戰三四十合	-13.0955
瓦不仁其臣莫有死志先伐之其卒必	-13.0955
經七八月其諸要害	-13.0955
詩云凡民有喪	-13.0955
諸將並曰攻備當在初	-13.0955
辣	-13.0955
遜曰吾已曉破之之術	-13.0955
丁夘己夘辛夘癸夘	-13.0955
不任其上令上令	-13.0955
以巡城所至與守隊勘同乃過	-13.0955
其心夏口東關賊之心喉若為	-13.0955
十四人㧞隊中小帥以代之勒兵復戰	-13.0955
各設四表賊來近則舉一表賊至城則舉	-13.0955
向城乘城將士皆援立牌以	-13.0955
在太乙下加寅申	-13.0955
城引權軍東下為水	-13.0955
外邪臣内則賢臣斃内外失宜禍亂傳世	-13.0955
戰隊視舉表處	-13.0955
斬李牧廢司馬尚後三月翦因急擊趙大	-13.0955
晉而已天下孰能當之	-13.0955
極力死戰大敗燕人	-13.0955
步有五長十步有十長百步有將别令虞	-13.0955
竹鍬钁鑱斧錐鑿梯索之類凡委	-13.0955
胡因問羣臣曰吾欲用兵誰可伐者大夫	-13.0955
自率百騎殿於軍後令之曰聞	-13.0955
芻藁橋械賊	-13.0955
苔	-13.0955
若以力楚國方城以為城漢水以為池雖	-13.0955
蚯	-13.0955
軍向夏口乘其	-13.0955
進賢而美名彰焉	-13.0955
門者曰前有敵不可返顧命闔其門從周	-13.0955
領戰隊作雌雄契	-13.0955
帝自徃擊之至邯鄲喜曰豨不南據邯鄲	-13.0955
一左一右一向一背此	-13.0955
上令周昌選趙壯士可令將者	-13.0955
下闊二丈五尺上闊一丈二尺五寸	-13.0955
不戰之計城柵既固卒不可攻請	-13.0955
二角音者全師進東加三角音者全師進	-13.0955
五代梁將戴思逺攻	-13.0955
五尺濶八寸上分目喉心腰足五孔	-13.0955
以慰趙子弟皆曰善	-13.0955
以近待逺以佚待勞以飽待	-13.0955
其形鋭首利為客色	-13.0955
大敗之燬其巢賊遁至吳淞所	-13.0955
子能為將乎四人	-13.0955
將二人首二千五百級築京觀而還	-13.0955
尢	-13.0955
屬之族師五卒為旅	-13.0955
屬之比長五伍為兩	-13.0955
屬之閭胥四兩為卒	-13.0955
嵐石隰三州	-13.0955
所短故獸之動必先爪牙禽之動必先嘴	-13.0955
摠	-13.0955
擊將軍曹克新統川兵	-13.0955
李嗣源設伏於戚城令騎軍挑戰梁軍大	-13.0955
河隨晉軍進止時晉軍	-13.0955
渡女真馬徃來淳化中契丹	-13.0955
犄角之勢孝恭集諸將	-13.0955
督舟師襲擊之斬獲大半餘	-13.0955
箝	-13.0955
銘	-13.0955
騎十萬屯河北常有數千騎	-13.0955
一二隊為左翼兵三四隊為左伏兵一哨	-13.0955
不勝而况於無算乎	-13.0955
之兵亦皆勁勇惠亮等城柵尚不可攻公	-13.0955
之名之義然後可與論	-13.0955
二萬騎來拒總管蘇海政與戰	-13.0955
人不用景言乘勝深入魏人以紹宗之言	-13.0955
今本衍四字	-13.0955
他若使老僧拖杖	-13.0955
使風不正者斬其舵工繚手	-13.0955
先令細人宻探	-13.0955
公恩者其何以報衆皆大哭	-13.0955
六十里西北至鋸牙口	-13.0955
六百七十五斤一兩八錢每杆每出鉛子	-13.0955
分每㸃二刻二分	-13.0955
刖	-13.0955
初日改第十三箭晝	-13.0955
勘合並如下第一	-13.0955
卜陽潘鴻	-13.0955
右手來去二劍	-13.0955
尚在行數十里乃知之	-13.0955
就擒曷若以身狥國乃與	-13.0955
州同知蕭竒勲	-13.0955
左衛大將軍程知節征賀魯	-13.0955
廣福蒼沙等船水陸	-13.0955
弔言也與貴者	-13.0955
弟皆從之人馬雖精不習戰事吾為諸軍	-13.0955
慾	-13.0955
成霸王之業也	-13.0955
戰紹宗以梁人剽悍恐其衆不能支	-13.0955
斷江路築却月城延袤十餘里與惠亮為	-13.0955
於此今已敗奈何復追詡曰兵勢有變亟	-13.0955
於牛口渚車騎將軍	-13.0955
是為中䇿若縱之	-13.0955
時統論第一百十四	-13.0955
月未盡三日候太白出東方	-13.0955
東南至松江府華亭縣界一百二十	-13.0955
武征河北師次頓丘	-13.0955
殊死戰無不以一當百時東北風急毅軍	-13.0955
每日檢行掃令	-13.0955
每杆每出鉛子二個每個重一兩五十出	-13.0955
法者曲制官道主用也	-13.0955
深溝髙壘固守不戰鄧羌	-13.0955
為天陣遊奕或為人陣牙兵不拘常也或	-13.0955
犬羣㑹於街衢上有	-13.0955
用甲丙庚壬	-13.0955
目視遼又射矢更稀此必	-13.0955
秃龜來折我脚面以左手監住右手	-13.0955
穴銜枚而出斫營敵覺即急於城上	-13.0955
第一角聲動左行向左右行向右三行	-13.0955
粧	-13.0955
者當出武功依山而東若西上五丈原則	-13.0955
聞豨將皆故賈人	-13.0955
謀伐吳詔王濬	-13.0955
軍後衆議狐疑	-13.0955
道敢兹殘害以魏無人也若父兄子弟受	-13.0955
遣張飛屯固山欲	-13.0955
鄭晉師救鄭荀林父將中軍先縠佐之士	-13.0955
飛刀向前鎗在後或飛鎗在前藥	-13.0955
騎皆用袁氏旗幟銜枚	-13.0955
黄眉曰傷弓之鳥落於	-13.0955
下怪而問之曰今同惡相濟皆來㑹集吾	-13.0955
乘勢席卷一舉而覆其巢穴東北無復餘	-13.0955
以短兵接戰再遣	-13.0955
勝小弱者必亡是則	-13.0955
北十餘里契丹踰白溝而去晉軍結	-13.0955
四通五達賊舟無處不可	-13.0955
圍周匝視水髙下而闊築牆外取	-13.0955
城若居卑下之地敵人擁水灌城速築牆	-13.0955
壅諸門及陷處更於城内	-13.0955
州至羅巖州五十里至州四百三十里	-13.0955
彼有背叛我當共殺今已斬之故令	-13.0955
杏城雷惡地應之攻	-13.0955
津周而復始晝夜不絶	-13.0955
率氐胡數萬人攻	-13.0955
王之業萬乘之主無破亡之兆昔夏廣而	-13.0955
籠槍跪膝	-13.0955
而薄築之精兵備	-13.0955
見把總兩跪一揖	-13.0955
閎	-13.0955
魏明帝自征蜀至長安	-13.0955
𠂻	-13.0955
天道惡之不得已而用之是天道也	-13.0957
上舉以示城下仍預	-13.0957
之私相過從者量城上一步置一甲士十	-13.0957
以甲夫禽獸蟲豸尚用所長以制物况其	-13.0957
作小旗數十枚有呼索即大書物名貼旗	-13.0957
城下則抛飛鈎賊若	-13.0957
城欲上則隨其處下	-13.0957
壕則為火藥鞭箭以射焚	-13.0957
校備用之物各為部分使吏主當謹伺見	-13.0957
而生失水而死故君子常懼而不敢失道	-13.0957
齊師其遁叔向曰城上有烏齊師其遁	-13.0957
一千二百五十人十渡則	-13.0957
四民用虚國乃無儲四民用足國乃安樂	-13.0957
式則勝負隨至故陳豨不守漳水而髙祖	-13.0957
揵	-13.0957
攻以侵伐為事其長兵則弓矢短兵則刀	-13.0957
時李從珂偽為梁幟奔入梁壘斧其望樓	-13.0957
晉劉裕率兵伐後秦姚泓後魏遣將	-13.0957
李牧司馬尚禦之李牧數破走秦軍殺	-13.0957
遁走茍利所在其擊之法利為伏兵相其	-13.0957
隋末稽胡五萬餘人掠宜春竇軌討之	-13.0957
騎三千乘之梁軍大敗俘斬二萬計	-13.0957
又曰凡為客之道入深則專主人不	-13.0957
將左右諫曰從入蜀漢伐楚	-13.0957
椿對宇文盛馳告急憲自救之齊人遽退	-13.0957
汝所知陳豨反趙代地皆豨有吾以羽檄	-13.0957
河南岸牽百丈	-13.0957
河流迅急有漂	-13.0957
者今計唯獨邯鄲中兵耳吾何愛四千戸	-13.0957
衆曰有病者殺而焚之三軍咸稱不病	-13.0957
阻漳水吾知其無能為	-13.0957
不介意及戰酣圜發精兵擊之遂擒延孝	-13.0957
乃密出盧龍塞直指單于	-13.0957
之則文得其計殺之則峻亡其膽是以降	-13.0957
公子以制人敗燕師	-13.0957
出抗言曰天下雄傑窺此舉者一歲矣今	-13.0957
十八宿交戰法行之此法訓練百日務要	-13.0957
名弓兵八十名果足備禦乎	-13.0957
堅守後七八日大	-13.0957
官人得則士卒服所任賢則敵國畏軍䜟	-13.0957
山諸軍力戰拒之是日纔行十餘里人馬	-13.0957
師有萬全二則拓土得兵三則鄭圍自	-13.0957
建德將從之而世充之使長孫安世	-13.0957
後漢耿弇攻張步於劇步遣弟藍	-13.0957
復以陣中張陣外射畨次	-13.0957
恐晏嬰聞之曰君固無勇而又聞是弗能	-13.0957
所備處多晝夜備戰無有休息彼自不能	-13.0957
所謂擊一而得二者也若	-13.0957
敗怯懦如此公為大將閫外之事不許自	-13.0957
既而突厥别部䑕尼施等又領	-13.0957
此而魯滅韓魏用此而東周分儒生之言	-13.0957
每更九刻三十六分每㸃一刻五十五分	-13.0957
為前軍總管至鷹	-13.0957
狹殷大而周小越弱而	-13.0957
繼至契丹却數百	-13.0957
置弩必處其髙争	-13.0957
而殷紂殺越用此而	-13.0957
自運土填壕欲	-13.0957
計請於崞城置一智勇之將多儲金帛有	-13.0957
說以利害渠帥感悅解兵歸	-13.0957
踵之晉軍至陽城契丹大至晉軍與戰	-13.0957
軍壘瀕江三面立栅㑹夜隂晦賊衆奄至	-13.0957
逃亡士卒逃亡則敵乘利敵乘利則軍必	-13.0957
離於短兵當别為隊	-13.0957
騎續至蘇定方正歇馬隔一小	-13.0957
南客聞賊備西南第	-13.0957
仞	-13.0958
合二路為一置鈐轄以下兵官	-13.0958
足其芻糧時其訓練	-13.0958
伉	-13.0958
以顔色告之以所生	-13.0958
居則有禮動則有威進不可	-13.0958
退不可追前却有節左右應麾雖絶成	-13.0958
六韜卷第五豹韜林戰	-13.0958
大吉大寒十二月中日	-13.0958
春秋時子罕為宋司城	-13.0958
殆不可伐也孔子聞之曰善哉覘國乎	-13.0958
為一軍以供飲飼放牧樵採三軍無得相	-13.0958
而我不出或彼欲去而懼我	-13.0958
若此者皆古人所以坐而役	-13.0958
且約容一軍人馬如築於閒時須稍寛闊	-13.0958
十餘騎乃定回紇	-13.0958
大吉加子午賊在大衝下加丑未	-13.0958
盪騎兵也戰鋒隊步騎相半也駐隊兼車	-13.0958
破此又寄之明哲見利而行不可羈以常	-13.0958
笆城中立望樓籍民中壯男為一軍以充	-13.0958
茍有險余必下推車子豈識之然子病矣	-13.0958
隨處積檑木檑石鎗斧及他短兵外立弩	-13.0958
以病敗君之大事也擐甲執兵固即死也	-13.0958
倬	-13.0958
勝怠則吉怠勝	-13.0958
喪列志失列喪將何以戰楚果敗	-13.0958
固計未决秉奮身上馬衆軍不得已遂進	-13.0958
娥	-13.0958
對前照星前照星	-13.0958
屬之州長五師為軍	-13.0958
怒指之曰不殺汝我終不拔箭遂馳之稜	-13.0958
惟在此舉孝恭然之靖乃	-13.0958
成或升其的於	-13.0958
日暮如此則兵多詭伏將有深	-13.0958
杜伏威聚徒數萬	-13.0958
殺趙葱虜王遷及其	-13.0958
漑	-13.0958
火毬火鷄火槍	-13.0958
用五灰水煉成五毒膏加	-13.0958
病未及死吾子勉之左并	-13.0958
者其名不全進賢者福流子孫故君子急	-13.0958
而擊之此神兵從天而下破之必矣東	-13.0958
至於行立前却當隊	-13.0958
至誠者有精精而無情者有湛湛而無誠	-13.0958
討突厥越險數	-13.0958
賊攀女牆則舉四表夜則加燭於表上虞	-13.0958
顔聚遂滅趙	-13.0958
首唐裴緒之所演	-13.0958
上𤣥下白七地前	-13.0958
之將不可敗也無制之兵有能之將不可	-13.0958
二革二金為天三革三金	-13.0958
伐南燕慕容超	-13.0958
入於吳淞江又東出為	-13.0958
其尾而縱之奔入草中	-13.0958
加五角音者全師進北鞉音不止者	-13.0958
加四角音者全師進	-13.0958
北門厯唐行磧嶴	-13.0958
問焉對曰其行速過險而不整速則失志	-13.0958
守將也竒而無正	-13.0958
對試真正交鋒復以二十	-13.0958
嵒石之下發矢中之而斃唐	-13.0958
息而角音不止者師	-13.0958
所敗銳氣衰矣今固壘不戰是窮	-13.0958
放猛火油賊雲梯倚城則引	-13.0958
時之衰旺如何	-13.0958
欽定四庫全書江南經畧卷二	-13.0958
矣少師曰不當王非敵也弗	-13.0958
竿推撞車賊木驢	-13.0958
臨陣日仰押官隊頭便斬不救人陣散計	-13.0958
舡	-13.0958
衡永道桂陽	-13.0958
造戰車可駕數牛上	-13.0958
鄔	-13.0958
鄭司馬將中軍令尹將左右尹子辛將右	-13.0958
鄭鄭人聞有晉師使告於楚姚句耳與	-13.0958
隸中軍都督府署在	-13.0958
鞍而卧齊衆	-13.0958
駁	-13.0958
不可以敵湯武之仁義故曰善師者不	-13.0958
之者若彼我勢均外有	-13.0958
之陣未嘗敢動也	-13.0958
二土山以臨城城中震駭侃命為地道	-13.0958
亦屢表請戰魏使衛尉辛毗	-13.0958
以下不得專異指揮餘依行軍約束條件	-13.0958
伐虢假道於虞是也所謂利而誘之者赤	-13.0958
使人辱之五六日曹咎怒渡兵	-13.0958
兩砦為一砦把扼	-13.0958
其諸將以亂其謀衆咸進	-13.0958
出殺敵急復原伍次敵兵長鎗	-13.0958
劄你你拏鎗還鎗我拏鎗	-13.0958
勇怯在乎法成敗在乎智怯人使之以刑	-13.0958
北空野其水與	-13.0958
十里二百八十四步髙二丈五尺	-13.0958
去知節十許里望見塵起率五百騎馳	-13.0958
可汗通謀將為亂高祖不之察遂誅世讓	-13.0958
右廂鉦聲動右廂	-13.0958
合之此所謂量我之衆寡者也又城有所	-13.0958
名總練下役兵十	-13.0958
員將下班選鋒軍餘九十八名分發本官	-13.0958
哨為正兵迎鋒二哨	-13.0958
國介子至樓蘭責其王教匈奴遮殺漢使	-13.0958
在死地賊必不敢渡水當吾鋒食畢齊師	-13.0958
堅兵衆欲留我師外援且至則表裏受敵	-13.0958
墨未下齊將田單乃收城中得千餘牛為	-13.0958
士大夫法曰壁壘已定穿	-13.0958
多也未戰而廟算不勝者得算少也多算	-13.0958
多騎而侃兵無馬曽	-13.0958
失序則偏禆官亦	-13.0958
守地四千尺積尺得六百六十	-13.0958
守臨淄相去四十里弇進軍	-13.0958
山奪水守隘塞口破驍䧟	-13.0958
左險右易上陵仰	-13.0958
幟寂若無人彼若使人觀察則告之曰自	-13.0958
弇勑諸將皆蓐食㑹明至臨淄城荀梁等	-13.0958
張而復出射而復入	-13.0958
强所謂不戰而勝者	-13.0958
必利繡信之遂收散卒追戰果	-13.0958
慮腹背之患者須急攻之以速其利如我	-13.0958
應實必為之擒譬	-13.0958
所必救故城有宜急而取之者有宜緩而	-13.0958
所謂能而示之不能者匈奴羸師以誘漢	-13.0958
所蹂躪流矢及	-13.0958
摋	-13.0958
摧毁雖有排楯莫之能撓孝寛乃縫布為	-13.0958
擊之齊兵不敢逼遂	-13.0958
故不力戰遼欲挑與語儻可誘也乃使謂	-13.0958
敵在前而公傷卧衆心懼矣漢乃勃然裹	-13.0958
斧亂下孝恪旋顧所部	-13.0958
方圓牝牡衝	-13.0958
方得止及賊逼城衆皆恟懼侃	-13.0958
施恩士力日新戰如風	-13.0958
晉南中郎將周撫以	-13.0958
晉開運中契丹擁衆南向約八萬餘騎晉	-13.0958
曰不可賊多日攻城	-13.0958
曰張弩後丁字立當弩八字立髙揎手	-13.0958
有命使遼傳之	-13.0958
有竒伏之變雖云鳥起者下有伏兵其或	-13.0958
未戰以隂謀傾之其國素已破矣以兵從	-13.0958
杜重威懼退保	-13.0958
校曰後五日攻西安藍聞之晨夜儆守至	-13.0958
棍尾改他手前一尺	-13.0958
楚師伐吳鍼尹固與王同舟	-13.0958
樂其居後世澆風起而淳朴散權智用而	-13.0958
武庫自取器甲所司不能禁侃命斬數人	-13.0958
每出鉛子五個每個重	-13.0958
汛畢則復還京口	-13.0958
深澤者車之拂地	-13.0958
濬崑山縣東南夏駕浦掣吳淞	-13.0958
為吳江水兵所阻	-13.0958
王執燧象以奔吳師	-13.0958
異物充於後宫騊駼駃騠實於外	-13.0958
百騎出武牢東二十餘里	-13.0958
監住右手一抺刀若	-13.0958
瞠	-13.0958
破之獲其大將殷秋	-13.0958
秦孝公行墾草之令使商不得	-13.0958
窒	-13.0958
竒者詐也乘機集事必由是乎乃命季昌	-13.0958
等議攻赤眉異曰賊餘衆尚多可稍	-13.0958
繫文度飛表奏之知節不從至恒篤城有	-13.0958
者打四十棍革退	-13.0958
而薄之大敗之後魏侯莫陳崇從賀	-13.0958
而起椎牛饗士	-13.0958
胡以為苑囿珍	-13.0958
至烏孫道過龜兹介子復責其王王亦	-13.0958
袪	-13.0958
西安聞吾欲攻之日夜為備臨淄出不意	-13.0958
視旗所指以命破軍	-13.0958
該指揮督同哨官	-13.0958
諸水此並華亭上海二境自南迤北而	-13.0958
變作山形者將有深	-13.0958
資州刺史以鎮撫之𤣥既到官時獠攻圍	-13.0958
賊見法破即行作法	-13.0958
軍䜟曰良將之統軍也恕己而治人推	-13.0958
軍士激怒人倍其	-13.0958
軍芻盡牧馬	-13.0958
逆者難從順者易行難從則亂易行則理	-13.0958
進步上劄你你	-13.0958
過半則邀擊之敵	-13.0958
道項羽欲討越謂其將曹咎曰謹守成臯	-13.0958
還作賊不如盡殺取其資財定方曰如此	-13.0958
鎗進的老了救援	-13.0958
鏇以油灌之擲	-13.0958
閉倉城防守糧儲	-13.0958
阡能羅渾擎句胡僧	-13.0958
降者厚賞賜之數出竒兵	-13.0958
陣之類也李廣張左右翼	-13.0958
隨其所向則張設之布	-13.0958
雖不利於王而利於國道𤣥遂為賊所擒	-13.0958
馬傷膝還營諸將	-13.0958
驢上焚之俄盡賊	-13.0958
魏田豫到馬城鮮卑攻圍之十重豫密使	-13.0958
犄	-13.0959
可守之利害凡守城之道有五敗一曰壯	-13.096
河而溉爝火臨不測而擠欲墜其克必矣	-13.096
十餘萬頭後王安得震怖將數百騎	-13.096
持於官渡沮	-13.096
永樂十五年都指揮使谷祥増修	-13.096
葺城週圍九里一百	-13.096
財帛以餌消難及其屬先歸忠以三千騎	-13.096
迎秉降袁紹曹操	-13.096
部伍嚴整士有餘勇名譽所加	-13.096
七百人車七百乘於河北岸上去水百餘	-13.096
乃遣白直隊主丁	-13.096
剉手斧斷之賊以衝車等進則穿以	-13.096
帥師拒之與亮對於渭南	-13.096
為天鼠三軍大刀大斧飛奔前進地陣如	-13.096
由斜谷出始平據武功五丈原魏將司馬	-13.096
馬軍鞍轡革帶	-13.096
魏人所殺掠遣軍纔過岸即退軍還復來	-13.096
㑹關留數馬及旌旗	-13.096
不可勝以身先人故其兵為天下雄軍䜟	-13.096
乃築長圍朱异張綰議出擊之帝以問侃	-13.096
之孝恪復將出城	-13.096
之渡橋橋壊墜	-13.096
人姦人者殺臣昧死以聞制曰司馬法國	-13.096
人悉補騎卒教之數月為精	-13.096
八千自城西而北擊其前鋒大戰於西陽	-13.096
兵之上譎為棲鳥	-13.096
兵法曰入人之地深而難返背	-13.096
其後擊之賊衆驚擾赴水死者無算	-13.096
即委財物散走堅追斬得	-13.096
合圍有終引竒	-13.096
外填壕作路使戰兵出入無至自礙城上	-13.096
如崩山李守真亦令歩兵盡㧞鹿角出鬭	-13.096
宗時為閬州節度董璋	-13.096
寛復掘長塹截其地道仍簡戰士屯城外	-13.096
實選精騎襲之繼遷僅以身免獲其母妻	-13.096
將軍雲定興師將發太宗勸之多	-13.096
布隊人馬披甲賊來即戰自保萬全	-13.096
必將大㨗已依衆議不得從公言也敬固	-13.096
悉衆進逼武牢官軍按甲挫其鋭建德中	-13.096
戰澹之常所乘舫旌旗甚盛無忌謂	-13.096
有不勝其忿而蟻附之士卒被傷城終不	-13.096
殊樓船上建樓三重列女牆戰格	-13.096
率兇黨以攻其城仁矩召軍校謀守戰利	-13.096
用佞人必受禍殃軍䜟	-13.096
發兵赴援時唐太宗年未弱冠召募從軍	-13.096
繼遷復結婚於豪酋轉徙	-13.096
而謝敬曰今衆心甚鋭此天贊我耳因此	-13.096
而餌鄧洪是也所謂亂而取之者李靖	-13.096
胡是也所謂逺而示之近者韓信陳船臨	-13.096
薄我未可與戰堅壁觀之持久則衆心怠	-13.096
衆誅惡以禁邪今有穿軍垣以求賈利私	-13.096
設疑兵以威突厥定興不納	-13.096
誓於軍中欲民先成其慮也建又何疑建	-13.096
諸門仍於兩門之間更開三兩門使周圍	-13.096
譟舉火士伍恐懼有終安坐櫛	-13.096
賊必自退仁矩曰蜀兵懦安能當我精甲	-13.096
輕舟而破蕭銑是也所謂實而備之者	-13.096
退因選精卒殿後	-13.096
鄉入既許之矣若入君必失國子盍圖之	-13.096
里開城門獨將麾下百餘騎逐希徳欲生	-13.096
飛鳥令人疑之之類則察者又須以他事	-13.096
驅之出戰兵未交為賊所敗	-13.096
驕將可樂而不可憂謀可深而不可疑	-13.096
一擊踣數人時	-13.096
争先𤣥衆大潰	-13.096
五萬既深入輦運艱阻芻薪不繼諸軍分	-13.096
亘山野不可勝計副	-13.096
人也言欲發而却縮者含蓄人也言無公	-13.096
則無止又曰輕地吾將使之屬	-13.096
勒大軍至懼而奔	-13.096
動勞人兵法曰入人之地而不深為輕地	-13.096
十人一兩七十八斤零	-13.096
千里之外以道存生以	-13.096
史計謀成敗渾而雜説包而羅之澄其心	-13.096
守仁義社稷丘墟魯	-13.096
官軍止數千𤣥兵甚盛而𤣥懼有敗衂常	-13.096
師還竟無功文度坐處死	-13.096
後九日改第十四箭晝	-13.096
得免有帳下督雷五安於戰處哭求思政	-13.096
心於是術行焉夫用探心之數者先以道	-13.096
必及利者貪人也色卑而言多	-13.096
懲艾介子過龜兹時其王近就人易得也	-13.096
戰國燕師伐齊	-13.096
把總之兵豈肯棄南滙而	-13.096
晉師伐秦秦人毒涇上流師人多死	-13.096
月之間世充自潰終如其言穆宗用裴度	-13.096
樂監介子謂大	-13.096
每更一十刻三十六分每㸃二刻七分	-13.096
沈攸之曰不然若錢溪實敗萬人中要應	-13.096
河橋之戰王思政下馬用長矟左右横擊	-13.096
為不能而弗儆	-13.096
繒衣畫以五	-13.096
者志下劣人也事曲而言直氣悖而言順	-13.096
而攻之隂慮而陽發必	-13.096
而荷以走曰得華登矣遂敗華氏於新里	-13.096
自作賊耳何名伐叛文度不	-13.096
至輕地始入敵境士卒思還難進易退未	-13.096
虚也色悦而徐徐順人意者佞媚人也矜	-13.096
軍至輕地士卒未專以入為務無以戰為	-13.096
軍霍光曰樓蘭龜兹數反覆而	-13.096
輕舸於船側故其衆莫有鬭志官軍乘風	-13.096
通候其無備簡精甲夜襲之賊衆大潰	-13.096
瀨	-13.0962
麻藴火鑽	-13.0962
元帥廣平王率蕃漢	-13.0962
入官公用一區處	-13.0962
紗	-13.0962
靴手執三股叉	-13.0962
孰有勇力孰長技藝選其	-13.0962
數如收錢之法日積青蚨幾文馴至一貫	-13.0962
之用兵非樂之也將以誅暴討亂也	-13.0962
先行至河口遇賊	-13.0962
内吾等輕鋭倍道掩其未	-13.0962
功曹冬至十一月中日	-13.0962
即撲滅之矣仁貴遂率	-13.0962
可留二萬人作兩	-13.0962
合而矢貫余手及肘余折以御左輪朱殷	-13.0962
多方以謀彼師或屢出以疲彼師或彼求	-13.0962
夫以義誅不義若	-13.0962
張侯曰師之耳目在吾旗	-13.0962
亂李嗣業奮命馳突擒	-13.0962
倏	-13.0962
唐儀鳯中開山洞置天寶	-13.0962
娛	-13.0962
揣知情狀有潛匿溪谷欲為間隙者果登	-13.0962
果進兵窮討散其種落稽胡憚果勁勇趫	-13.0962
棄衆宵遁追儉斬之	-13.0962
炭松樺蒿艾膏油麻皮氊荆棘箆籬	-13.0962
細人宻搆其	-13.0962
里北淯井鹽唐儀	-13.0962
惇遣諸軍追擊之典曰	-13.0962
三小隊得意者結為一中隊又	-13.0962
五六寸勿穿或於中夜	-13.0962
人必至不如備之乃為陣	-13.0962
人至見荆有備而返左	-13.0962
今後各將官務宜	-13.0962
倚相謂大將子期曰雨十日夜甲輯兵聚	-13.0962
兵急須進旗正	-13.0962
其心每三人自相得意者結為一小隊又	-13.0962
制勝其戰如天陣	-13.0962
前漢胡建守軍正丞時監軍御史為	-13.0962
副隊頭一人左右傔旗二人即	-13.0962
十里其君子休小人為食我行三十里	-13.0962
南犯吳江北犯長洲	-13.0962
右中行曲而向前其形如	-13.0962
吳淞江自關橋以西多	-13.0962
國深侵君不安席百姓之命皆	-13.0962
屢使交書及致巾幗	-13.0962
山川能表險難能制軍權	-13.0962
拍手漸攀城則以連枷	-13.0962
是皆不求通之以今日	-13.0962
校之以計而索其情	-13.0962
洒灼敵人颺石灰糠	-13.0962
渡水次引大絙於兩岸立大橛	-13.0962
無糧援可恃有同困獸若不與其戰而徑	-13.0962
無軍功者戍三	-13.0962
獺雖聚㓙黨	-13.0962
率兵伐西魏濟河集諸將議進	-13.0962
用兵之害猶豫最大三軍之災	-13.0962
相見常接髙行各執	-13.0962
祭蚩尤文第二百	-13.0962
祭黄帝文第一百九十九	-13.0962
者若登者漸多則禦以狼牙	-13.0962
而方之坐而起之行而止之左而右之	-13.0962
而諸侯皆附楚兵疲食盡此天亡之時也	-13.0962
至梁祖大駭遂	-13.0962
舉兵追之令壯士擊	-13.0962
舊九千七百九十	-13.0962
裝束旗向前亞方	-13.0962
訟能納人能採言能知國俗能	-13.0962
詠	-13.0962
説之與連和廣然之乃	-13.0962
調發二月初一日上班十月三十日掣班	-13.0962
足圖也高祖以無可任者乃使世讓馳驛	-13.0962
間事未發而先聞者	-13.0962
一兩八錢三十出共鉛子一百五十個	-13.0962
三十五年丙辰三月賊	-13.0962
不能復上皆委棄馬及鎧仗蔽地杜	-13.0962
世充夜遣二百餘騎潛入北山伏谿谷中	-13.0962
之上晉人疑有伏兵遂不敢追時服其謀	-13.0962
之及彭至武陽繞出延岑軍後蜀地震駭	-13.0962
之節前一日將帥及士卒集於墠地所禁	-13.0962
也法曰十則圍之五則攻之兵少則不可	-13.0962
也襄性剛狠易以剛動若長驅鼓行	-13.0962
以數相持敵若執數我先動則	-13.0962
以誘之翟人笑之	-13.0962
侃曰古人戰爭先料其	-13.0962
便利之地先居者勝是	-13.0962
倍休廢如數	-13.0962
備大將以下各有統率如常	-13.0962
備物大將各處於	-13.0962
先於都門外芟	-13.0962
入敵境敵人固壘不戰士卒思歸欲退且	-13.0962
入敵已深國糧難應資給將	-13.0962
公孫戮於上谷則燕趙之人何得而稱鋭	-13.0962
凖私租起税	-13.0962
勒五陣設伏二十餘所約聞鼔即起擊	-13.0962
十刻士衆嚴備五刻	-13.0962
即放手銃三箇起火三枝	-13.0962
去陽闗二千七百里	-13.0962
古有黄連百竹八擔雙	-13.0962
吳起見公主之賤	-13.0962
呤	-13.0962
單騎入賊中於馬上生擒醜奴遂大破之	-13.0962
噀	-13.0962
四出為和門於其中	-13.0962
地當選驍兵伏要路我退敵追來則擊之	-13.0962
城而入忠乃退保小城惶恐乞降西魏末	-13.0962
壓其壘襄必忿	-13.0962
士皆擐甲各為直陣以	-13.0962
失部分則為胡賊	-13.0962
宵濟人奔馬馳遲明而薄密密出兵應之	-13.0962
寬	-13.0962
將軍雲氣第一百七十三	-13.0962
小取大則越人何得而稱澆薄燕趙之人	-13.0962
嶺益州恃勝自矜不為部陣令將士解甲	-13.0962
庳	-13.0962
引其土山不能立賊又作登城樓	-13.0962
弩射及三百步者以瓢盛火冠矢	-13.0962
後反擊其背侃師遂敗投水死者數百人	-13.0962
後唐伐蜀班師	-13.0962
後漢光武初馮異與鄧禹率車騎	-13.0962
戰已還州矣于時敵騎塞	-13.0962
戰益州果敗乾歸曰孤違蹇叔以至於此	-13.0962
擊之賊衆大潰追奔二十里殺	-13.0962
數人賊乃退有詔送金五	-13.0962
數年而倉廪實人知禮義至於始皇	-13.0962
日所司請講武遂申命將帥選閲軍士所	-13.0962
明乎禁舍開塞	-13.0962
春秋時吳子諸樊伐楚	-13.0962
時密新得志於化及有輕世充之心不設	-13.0962
時齊主分軍萬人向千里徑	-13.0962
有輕曽之色侃司馬魯	-13.0962
未成列而兩軍合戰其伏兵蔽山而上	-13.0962
本部吏士營幕閲其	-13.0962
果下與遼語遼曰	-13.0962
治馬雜病第一百	-13.0962
深五尺廣六丈	-13.0962
焚其積聚火發乘亂而出火	-13.0962
無及曽者未易可逼也侃不從進軍圍之	-13.0962
甚焉世將不能禁	-13.0962
畫鷁首怪獸	-13.0962
發襄頻為晉將桓温	-13.0962
盎	-13.0962
直以患為利故迂其途而誘之以利後人	-13.0962
相次擒獲江南悉平	-13.0962
真山帝令將張定和率師擊之定和	-13.0962
立表一行凡立五行表間前後各容五十	-13.0962
縱酒且遣使與漢平韓信渡平原襲破齊	-13.0962
縱飲令曰敢言軍事者斬䖍	-13.0962
置瓢中瓢開四孔繫	-13.0962
習士衆為戰陣法是日未	-13.0962
者乃攻之災此所謂不審彼之	-13.0962
而渡夏陽是也所謂近而示之逺者	-13.0962
自古匈奴入寇之路	-13.0962
自是一様選法	-13.0962
與各汛地官軍同	-13.0962
與賊遇輕其衆少呼之命降賊不	-13.0962
舍中兒犯法	-13.0962
色建旗為和門於都墠之中四角皆建五	-13.0962
芘	-13.0962
虛形格勢禁則自為	-13.0962
蚩尤敗於涿鹿燕丹死於易水王	-13.0962
衆軍整齊今遵奉法不避是教令所行也	-13.0962
許我降乎因陳舅甥之禮期某日於葭蘆	-13.0962
詐為渾主保車師	-13.0962
諸侯之境車軌不結	-13.0962
諸國掎角震鼓齊攻敵人驚恐莫知所當	-13.0962
謀疑則敵國奮以此攻伐則致亂	-13.0962
賊攻東掖門縱火甚盛侃以水沃滅火射	-13.0962
路王師衂於君子館有詔并之全軍不得	-13.0962
車動果倒衆皆服焉賊既頻攻不	-13.0962
軍上軍在北中軍次之下軍在南東西相	-13.0962
軍大將被甲胄乘馬	-13.0962
逐便懷火偷入	-13.0962
遵格殺之光武怒命收之主簿陳嗣	-13.0962
郡欲共髙麗交易勿言營中有隋使敢漏	-13.0962
酒肉之價重關市之賦使農逸而商勞行	-13.0962
馬斥山澤之險雖所不至必斾而疏陳之	-13.0962
騎二萬屯青林山仍於梁山連	-13.0962
騎俱進逐北二十餘里	-13.0962
黄眉鄧羌等率步騎討姚襄	-13.0962
齊賢曰敵知美之來	-13.0962
一一施行又練百日俟人成熟慣戰方	-13.0962
一十二石五斗椒五人一合二石五斗薑	-13.0962
不出而還子囊殿	-13.0962
不分兵鎮守得賊城近境者則固守以積	-13.0962
之兵食益困遂休兵	-13.0962
之嬖人不肯即卒斬以徇	-13.0962
乾坤㢲艮之位	-13.0962
五十八步四尺右置上弦門中	-13.0962
介子因率其吏士共誅斬匈奴使者還奏	-13.0962
伏於淺水掩擊大破之	-13.0962
光自固攻之曠日持乆所傷必	-13.0962
兩隨筵樂例大	-13.0962
公孫𢎞曰人多傳韓信	-13.0962
前校騎兵兩穗進擊	-13.0962
前校騎兵進前校騎兵退即	-13.0962
勞師表裏受敵非計也南人多習水軍不	-13.0962
北至上葦子鋪約	-13.0962
北至下葦子鋪約	-13.0962
參佐咸以敵衆	-13.0962
坐進前脚就他棍中滚入	-13.0962
守其城壘整其車騎或當吾前或擊吾後	-13.0962
帝使羊侃入副宣城王都督城内諸軍景	-13.0962
弊於魏也田忌從之直走大梁魏	-13.0962
張興世越鵲尾上據錢溪	-13.0962
從南門出胡人皆屬目	-13.0962
情偽不能成名材智不明不能用兵	-13.0962
情有所愛惡去就	-13.0962
所以免轉輸之勞也	-13.0962
扶思政上馬夜久方得還軍	-13.0962
擗	-13.0962
既恃其衆不以為慮乃進軍逼謹謹	-13.0962
日暮敵亦收軍思政久經軍旅每戰惟	-13.0962
曠日糧竭而弱燕不服齊必拒境以自彊	-13.0962
枕空葫蘆卧	-13.0962
樵採度支轉運車六百乘盡為	-13.0962
欽定四庫全書江南經畧卷四	-13.0962
法雖朝督暮責無益于	-13.0962
為五陣以相離兩於前	-13.0962
爪之利焉重霞陣衝	-13.0962
狂賊偷馬例須	-13.0962
等夜渡蒲坂津據河西為營公自潼	-13.0962
管靖率驍騎三千自馬邑出其不意直	-13.0962
練亦用装敵人對壘交鋒如是方得精也	-13.0962
而軍公急持之而	-13.0962
耳回兵查無耳者	-13.0962
胡攻之不下遣人傳唱錢溪已下官軍並	-13.0962
舉幡大呼主者遣疾馬往視	-13.0962
葵所圍詔義臣救之義臣自以兵少悉取	-13.0962
處軍兵互相應援則兩城有備不致臨時	-13.0962
詐越人澆薄越王勾踐以殘亡之國恤孤	-13.0962
詔拜介子為中郎遷	-13.0962
賊已破膽不宜更令成列遣精騎擊之皆	-13.0962
賊百人以下但舉幡指百人以上	-13.0962
路衝其方虛彼必釋趙而自救是我一舉	-13.0962
轉語後第二第	-13.0962
進夫雲霞以開闔進退不常其	-13.0962
進止如放散更	-13.0962
郡克之進圍安陸仲禮聞	-13.0962
部人持一白幡	-13.0962
醳	-13.0962
陣既深從者死盡思政被重創悶絶	-13.0962
陵郡皆降如忠所	-13.0962
面面相向背背相承	-13.0962
鞞	-13.0962
所好而誘之因其所惡而攻之大抵北方	-13.0963
一皷作氣再而衰三而竭	-13.0963
師伐齊齊侯畏衆齊師夜遁師曠曰	-13.0963
根為一束力勝一人四千一百六十六根	-13.0963
邢伯曰有班馬之聲	-13.0963
入齊境五百里前後三遣使報消難皆不	-13.0963
去虎牢三十里武疑有變欲	-13.0963
四丈深一丈七尺陸門四座上各有樓	-13.0963
定絙使人挾絙浮渡大軍	-13.0963
憗	-13.0963
昭宗時幽州劉仁恭率軍士十萬	-13.0963
晉大夫臾駢曰使者目動而言肆懼我也	-13.0963
自邢臺馳入魏州燕軍突之上水關攻	-13.0963
鄴曹操遣夏侯惇李典拒之一朝備燒屯	-13.0963
門開而入馳遣召武齊	-13.0963
上至髙資下至	-13.0963
乃皆出戰交綏而退	-13.0963
之援兵復欲築壘於軍後諸將恐腹背受	-13.0963
因問信曰兵法右背山陵前左水澤今者	-13.0963
役與之禮食使佐新軍司馬穰苴田完之	-13.0963
後到者云何對曰當斬遂斬賈以徇三軍	-13.0963
殯	-13.0963
為將軍捍晉燕之師苴曰臣素卑賤君擢	-13.0963
用天橋鵝車對樓	-13.0963
約束則亡其親援桴鼔之急則亡其身今	-13.0963
者有三焉一曰挫勢二曰支勢三曰輕勢	-13.0963
討安慶緒渡河圍衛州慶緒率衆來援分	-13.0963
軍於外以絶曹操之援紹不從許攸進曰	-13.0963
遮賊狀賊望見以	-13.0963
䲭	-13.0963
中兒犯法尚殺之必不私諸卿也吳將吕	-13.0963
乃以為刺姦將軍謂諸將曰當	-13.0963
久而不合又不相去半進半退之類宜	-13.0963
人大駭乃臨江	-13.0963
先居高陽利糧道以戰則	-13.0963
則為地聴候其來方穿井邀之霹靂火毬	-13.0963
勝必為敵人守險邀我歸路難以返矣一	-13.0963
北行至其地忽舉手	-13.0963
圍而退果如所料	-13.0963
屈古進曰陛下轉戰千里	-13.0963
屯澠池邀其東而異	-13.0963
弓騎暴集偏攻大陣一面捍禦不及則有	-13.0963
張良所學太公六韜三畧是也	-13.0963
從百騎赴之繼遷前	-13.0963
我獲射之必殪	-13.0963
掠軍資人皆負重靖見其衆亂縱兵奮	-13.0963
擊孝恪自為前鋒力戰而入	-13.0963
敗之兆也戎馬驚奔士卒恐懼妖言相惑	-13.0963
敗軍之後兵甲寡弱燧乃悉召將吏	-13.0963
敵必自引退敏以	-13.0963
旗幟循堞往來晉王曰我聞劉鄩用兵一	-13.0963
曰治兵入曰振旅所以辨等列順少長也	-13.0963
李靖隨河間王孝恭討蕭銑於江陵銑悉	-13.0963
死馬及所棄甲仗	-13.0963
泝都江而上襲	-13.0963
營五十里結陣而宿契丹弗之知也既明	-13.0963
牧馬厮役得	-13.0963
男女布野餘糧栖	-13.0963
百計必詐也更	-13.0963
者壯直人也辭寡而意懇者	-13.0963
至期繼遷設伏止領十數人近城迎光實	-13.0963
至逆來争取敦甲士出而擒之此後實有	-13.0963
逃亡得還者必是彼戰失利唱空聲	-13.0963
部下千餘人將入城而那利之徒已登城	-13.0963
鄙而言大事不詳而	-13.0963
阻相錯敵人已敗不能	-13.0963
難卒以用兵破之也上	-13.0963
霧風雨䝉遜軍大至傉檀大敗而還唐武	-13.0963
鞭伏兵盡起光實被害	-13.0963
餘五部包之於首	-13.0963
不動即分兩穗	-13.0963
不去其旗是以甚敗遂滅衛東晉末桓𤣥	-13.0963
不可與戰則必固守不出敵攻我城壘掠	-13.0963
不敏於君之行前不敢逃刑敢歸死遂自	-13.0963
之兵頓之燕堅城之下欲戰恐	-13.0963
之大獲舟艦李靖使孝恭盡散之江中諸	-13.0963
也明矣假令當時於城裏脚下立	-13.0963
二斗五升醋	-13.0963
以弊其衆化及弗之悟大喜	-13.0963
以象之也長虹陣及八卦陣皆有衝	-13.0963
伏地無險則隠	-13.0963
佞臣在上一軍皆訟引威自與動違	-13.0963
全勝澹之雖不居此舫取之則獲因縱兵	-13.0963
其道四通我與敵相當而傍有他國所謂	-13.0963
初日改第八箭晝	-13.0963
副招討使任圜至利州㑹康延孝叛據	-13.0963
劉裕將何無忌等次桑落洲澹之等率軍	-13.0963
千餘帳皆俘以隨軍頡利見使者甚	-13.0963
卒一人居地廣縱各二步十人為	-13.0963
又曰散地吾將一其	-13.0963
叛將圖進取以李靖為代州道	-13.0963
各二十步陣間容陣隊間容隊曲間容曲	-13.0963
四等充羮鹽三人一合四	-13.0963
土故城據河拒官軍淮見兵上流密於下	-13.0963
嬰城固守信夜令諸將以衝梯攻	-13.0963
山都乃縱所獲虜令得逃亡歸以告豐	-13.0963
州掌書記張礪獻策	-13.0963
師討之𤣥敗泝流奔荆州	-13.0963
庭光復拜燧乃諭之曰公等皆朔方將士	-13.0963
後絶轉輸敵制吾	-13.0963
心兇氣方盛未可與戰宜堅壁以老之儻	-13.0963
據州不受代魏將獨孤信率兵討之仲	-13.0963
攻城北城西諸營賊衆大潰於是奔散	-13.0963
春秋時狄人伐衛	-13.0963
李密攻宇文化及還其勁兵良馬多死隋	-13.0963
東北信親帥壯士襲其西南遲明	-13.0963
武昌敬遂入襄陽	-13.0963
濟渠與密戰	-13.0963
為右角參為左角偏為前拒	-13.0963
燕齊相持而不下劉項之權未有所分	-13.0963
率兵來攻李密於黎陽密知化及糧且盡	-13.0963
登北原乘髙而下馳壓之密營遂亂無	-13.0963
稽留行事命令不通造作苛政變古易常	-13.0963
而能剖析是非者有智人也言迂	-13.0963
能知人是以鬼谷先生述捭闔揣摩飛箝	-13.0963
與𤣥感戰兵始	-13.0963
舉黄旗則為圓陣此應敵之	-13.0963
色者好勇人也言及細	-13.0963
行必魚貫立必鴈行長以參短短以參長	-13.0963
袁顗舉兵反㳂流入鵲尾與官軍相持既	-13.0963
賊以為謹也皆争逐之謹乃率餘軍擊追	-13.0963
賊先所識乃使二人各	-13.0963
賊遂奔走因得入塞	-13.0963
軍吏之私者善拊恤人也言及陣敵喜動	-13.0963
遂攻臨淄半日而	-13.0963
隂暗昏霧出其不意襲其懈怠可以有功	-13.0963
齡石師次彭模夾岸連城立	-13.0963
人以上有戰而北守而降離地逃衆命曰	-13.0964
畏我者不畏敵畏敵者不畏我	-13.0964
用水溼手作雷聲	-13.0965
于仲文討之迥將檀讓屯成武	-13.0965
渥	-13.0965
首元許洞之所演也	-13.0965
藏身用茅草挿頭	-13.0965
中國也其性和其政平	-13.0965
可推移剛柔遲速異齊器械異制衣服異	-13.0965
如樂之和無所不諧	-13.0965
有如果敢而不能者有悾悾而不信者有	-13.0965
祖珽穆提婆與光有隙因續之曰盲老翁	-13.0965
英勇乃作謠言令間諜漏其文於鄴曰百	-13.0965
飛上天明月照長安	-13.0965
之聲樂齊師其遁	-13.0965
亞背惡後偃皆射之骨髓	-13.0965
其身左右承之妙絶無比見者無不恐懼	-13.0965
前導各呈其技賊衆乘城望之破膽	-13.0965
勇多力善戰所用	-13.0965
周周遣楊忠	-13.0965
地或叢林薈翳之處擇精兵利器千人為	-13.0965
城西督諸將麾兵發機石攻城初帝選諸	-13.0965
尚得而用之乎諸	-13.0965
抗嘗病祜饋之藥抗服之無疑	-13.0965
明鄭若曽撰見行兵政	-13.0965
無所不至無所不遂者	-13.0965
王敬蕘魁傑	-13.0965
監住左手刺之他若使	-13.0965
縣附於府其城即府城不另列城	-13.0965
置死地使人人自為戰即與之生地皆走	-13.0965
者有嗃嗃而反靜慤者有勢虚形劣而外	-13.0965
聲武親來麾數百騎西去忠勒餘騎不動	-13.0965
若引輜重將失事機	-13.0965
衝小雪十月中日	-13.0965
重三十餘斤摧鋒破陣率以此勝	-13.0965
隨逐水草每數日各相遇已而皆	-13.0965
以所俘張士誠兵建衞命指揮	-13.0965
傷未收而棄之不惠也不待期而薄人於	-13.0965
可不戰而尅㧞其根本彼無所歸則	-13.0965
右正守軍係金山衛查撥貼守軍	-13.0965
命所至成功如席卷之易	-13.0965
土星第一百五十五	-13.0965
屯鷄棲原宇文盛守汾水	-13.0965
巡城耀武必令	-13.0965
引師厚兵就德倫共攻蓨縣始至縣西未	-13.0965
於城中對敵營自鑿城内為暗門多少臨	-13.0965
於敵初來營列未定精騎從突門躍出	-13.0965
無勇也乃止秦師夜遁晉	-13.0965
營門殺其門者縱火大呼俘斬而旋其芻	-13.0965
猺錯居山谷間	-13.0965
當傾帑藏為朕賞戰士國家所取惟土疆	-13.0965
祖時齊王田廣軍	-13.0965
祭當境神文第二百二	-13.0965
虞候都督每從征行常領候騎晝夜巡察	-13.0965
遁矣薄諸河必敗之胥	-13.0965
釁鼓文第二百九	-13.0965
隆震聞者駭懼迴其勢而擊人者此之謂	-13.0965
雜占第一百八十二	-13.0965
㕓	-13.0965
丈深二尺以細沙散土填平	-13.0965
也言大而意精至者有識度人也言	-13.0965
于市男女公于官	-13.0965
以監軍乃可景公乃使莊賈	-13.0965
俘馘鼓譟而攻魏師遂大奔潰斬獲畧盡	-13.0965
信曰此在兵法顧諸君不察耳兵法不曰	-13.0965
内敢圍天子本疑國家倉卒無援忽見旗	-13.0965
勇之與怯於人何有哉	-13.0965
命也將能制勝則國家安定	-13.0965
命破之必也紹又不用竟為曹操所敗魏	-13.0965
天陣如飛鷹捉	-13.0965
家殘去其籍發其墳墓暴其骨	-13.0965
尺許三矢中二為善射	-13.0965
得其力者也未有不得其力而	-13.0965
得為心之主長生安樂富貴尊榮聲色喜	-13.0965
所以變人之耳目也	-13.0965
投之無所往死且不北	-13.0965
攛	-13.0965
於君何為相送召軍	-13.0965
於城濮晉中軍風於澤亡大斾之左旃祁	-13.0965
於是遂擊燕燕師遁遂取所亡之地而歸	-13.0965
於軍門穰苴先馳至軍立表下漏待賈	-13.0965
有戰而北守而降離地逃衆命曰國賊身	-13.0965
木神為𤣥武則庚申辛酉	-13.0965
東昏侯遣輔國將軍劉山陽	-13.0965
死其所不能敗其所不便	-13.0965
洞貫三四人魏衆不能當遂奔潰	-13.0965
火箭蒿艾狼糞	-13.0965
烹	-13.0965
營超石先以軟弓小箭射之魏軍四面俱	-13.0965
狹微小於池	-13.0965
盂	-13.0965
矯之不知所以矯	-13.0965
神武先附者受大	-13.0965
端望敵營而縱之奔	-13.0965
總兵郭成參將田應山都司邵應奎	-13.0965
胄親人參軍王天虎	-13.0965
能受諫能聴	-13.0965
自知孤窮乃走麥城西至漳鄉衆皆委	-13.0965
至苴曰何後期賈曰親戚送之故留	-13.0965
苴既辭與賈約曰日中	-13.0965
苴曰將受命之日則	-13.0965
軍賊身死家殘男女公于官	-13.0965
酤	-13.0965
非得素拊循士大夫此所謂驅市人而戰	-13.0965
䝉遜於姑臧至	-13.0965
一校不常其部各列陣數應敵之勢貴戰	-13.0965
三通軍人便須歸營若捉獲	-13.0965
不得與他人竊語及	-13.0965
不從遂大戰赤眉佯敗棄輜重走車	-13.0965
不敵者車之敗地	-13.0965
不汚井竈不毁神祠佛像恐怒敵也破城	-13.0965
中夜齊射敵營中	-13.0965
中校軒轅大將所處左	-13.0965
之以重臣當無慮也於是以韋䖍為長史	-13.0965
之勢八卦以名之者取八面受敵之	-13.0965
之約令軍中不得干厯人家有所求取	-13.0965
之自是敵必不容矢石必倍守禦官若能	-13.0965
乎曰然義曰臣論武信君軍必敗公徐行	-13.0965
也凡四陣逐部結陣之法横七	-13.0965
也如愚見似宜就用土著之兵如在白	-13.0965
也言少而事詳者大度人也語氣和而神	-13.0965
令見費人執之以為囚俘冶區夫曰非也	-13.0965
以副項及首也夫鶚以搏擊為俊故陣欲	-13.0965
使乘車者左實右	-13.0965
使外交不得相救也圍兵必去城三百	-13.0965
俘虜俘虜須限以時及時擊	-13.0965
入則少壯勇健者在後則後殿之義也當	-13.0965
兵機也如唐儉等輩何足惜督軍疾進自	-13.0965
其西一舉取之此萬	-13.0965
内以衛大陣也夫長虹以為名	-13.0965
内攻危道也衛尉伊	-13.0965
劉家河口剏水寨撥巡船專哨海洋	-13.0965
功謂知節曰雖云破賊官軍亦有死傷盖	-13.0965
十嵗已上老馬令飼以平陳為名賊必懼	-13.0965
吾視其轍亂望其旗靡故逐之	-13.0965
善謀也使將軍李	-13.0965
四惡殺没於四維	-13.0965
四面撓之使敵不知所備此兵謀也不發	-13.0965
地然後臨之趨其所邑謂	-13.0965
地與敵地犬牙相錯動有挂礙	-13.0965
城中降胡與那利表裏	-13.0965
基廣五丈面濶三丈	-13.0965
墳墓不殺老	-13.0965
多而人少則攻而勿圍	-13.0965
多賊必防礙更甚今南地無馬請付傍江	-13.0965
奔走驢羣在外驅趂稍難以此防閑亦甚	-13.0965
將軍出黄龍道賫幣賜奚霫契丹等遣為	-13.0965
少而人多則圍而勿攻	-13.0965
崞縣突厥候騎馳告始畢曰兵大至矣遂	-13.0965
巢牛臣曰吳王勇而輕若啓之將親門	-13.0965
工欲善其事必先利其器	-13.0965
布陣不可限以常法東西拐子馬陣	-13.0965
延曰我軍勢方盛	-13.0965
建旗踰太行入上黨先聲後實傳檄而定	-13.0965
往攻敵敵若無備攻之必勝	-13.0965
後三日改第十五箭晝	-13.0965
急擊也凡兵士當戰不得離隊獻功恐為	-13.0965
怯在謀强弱在勢謀能勢成則怯者勇謀	-13.0965
悦軍亂赴水斬首	-13.0965
成敗法耳何為此事自今正	-13.0965
拙將之所以見擒明將之所以	-13.0965
指揮一員領有江操船隻	-13.0965
攻者故兵向城必先使諜者求知城中之	-13.0965
敵人之糧以伺利便	-13.0965
斤餜饠一人一枚一萬二千五百枚一斗	-13.0965
昭公十三年魯叔弓帥師圍費弗克敗焉	-13.0965
晟皆立斬之莫敢仰視士	-13.0965
暈兵陣不合七日	-13.0965
有強臣驕兵以	-13.0965
李齊運告諭百姓居人安堵秋毫無所犯	-13.0965
柴揚塵鼓譟助其勢梁軍不之測自相騰	-13.0965
業非智不戰非農不贍過此以徃而致富	-13.0965
欲上則穿地道至堙下引取其土賊堙自	-13.0965
欲臨射城中侃曰車髙塹虛彼來必倒可	-13.0965
此所謂或攻或圍者凡欲攻城備攻	-13.0965
此謂力富於内而兵	-13.0965
武徳初劉武周據太原	-13.0965
每更九刻每㸃一刻四十八分後六日改	-13.0965
流涕逺方居人亦有經宿方知者	-13.0965
烽烟相望雞犬相聞而足跡不	-13.0965
營多所傷殺凌敬進説曰宜悉兵濟河攻	-13.0965
牛馬因設伏以待之賊	-13.0965
甚盛訪曰先人有奪人之	-13.0965
當反慮敵人矯計誘我所謂兵怒而相迎	-13.0965
相交亂也飛鶚陣前校出首騎者所以為	-13.0965
眼等以水注之三池浮木齊起眇目視之	-13.0965
知與之矣乃多以金賂豨將	-13.0965
石則張布幔繩	-13.0965
箕張而進榮潛軍山谷為竒兵分	-13.0965
絞車放下復收	-13.0965
聲未絶不許散	-13.0965
至胡柳陂梁	-13.0965
若不速進賊入武牢諸城新附必不能守	-13.0965
若見費人寒者衣之	-13.0965
茍然取容專任自己舉措伐功誹謗盛	-13.0965
荆州刺史鎮武昌時新破杜弢乘勝擊杜	-13.0965
蝨	-13.0965
衆習戰若輕軍卒至出吾慮表大敵外逼	-13.0965
襄邑公賀若弼獻十	-13.0965
襲之彼怠我奮一舉必克則安陸不攻自	-13.0965
諸城可傳檄而定也	-13.0965
謂之一隊者二十五人一部者二十隊也	-13.0965
議伐陳諸將皆云大江闊逺兵不習水以	-13.0965
賜以狼頭纛謬為欽敬禮甚優玷厥使	-13.0965
走橋橋已焚	-13.0965
趙趙請救於齊田忌引兵救趙孫臏曰夫	-13.0965
軍主之所在絶其所恃謂斷其	-13.0965
軍人有擅取賊馬者	-13.0965
軍勝重掠伏襲必敗	-13.0965
軸單列各三隊前後之衝	-13.0965
遂圍巢克之獲楚公子繁	-13.0965
運籌帷幄之中	-13.0965
遒	-13.0965
道襲之至隂山遇其斥	-13.0965
金瘡統論第一百三	-13.0965
間者也是以知間者兵家之要妙也茍非	-13.0965
陣將旗皷第七十一	-13.0965
鞏朔韓穿	-13.0965
須為持久之計掠取	-13.0965
顧此失彼之患	-13.0965
黄幡豹尾第一百二十	-13.0965
㑹尚遣髙藩將兵屯河上絶水道典與諸	-13.0965
之寳也人之所庇也得原失信何以庇之	-13.0965
于泥濘死者十二三後唐契丹冦望都	-13.0965
人之中必有一人得之以為	-13.0965
令百户一員綂領住劄	-13.0965
仲禮至則安陸難下請急攻之忠曰攻守	-13.0965
使然也同貫而相兼	-13.0965
儘頭鎗我顚鎗	-13.0965
其實難用今將軍欲舉倦	-13.0965
列十列為隊則廣	-13.0965
副使王崇古僉事董邦政	-13.0965
北攻燕東伐齊若何而有功對曰今將軍	-13.0965
南道人谷至石	-13.0965
即悉其軍西邀彭彭乃潛兵渡沔水	-13.0965
口尚色圖禽獸與	-13.0965
各人照𣲖信地垜口	-13.0965
同入筈法訣曰	-13.0965
唐李靖陳圖蕭銑十策有詔拜行軍	-13.0965
善納衆人也言徐徐而事備者性緩而有	-13.0965
圍原命三日之糧原不降命去之諜出	-13.0965
大喜集百官曰雲起用突厥而平契丹	-13.0965
孤山套口蟛蜞港爛港口三處尤其要害	-13.0965
守備解明道襲破	-13.0965
宋劉道濟為益州刺史	-13.0965
復擎鎗回頭作勢齊喝一聲立定	-13.0965
所營在衞治東南	-13.0965
拒之者即入縱火軍大驚潰	-13.0965
振天下此將軍之所長也然而衆勞卒罷	-13.0965
提督都御史曹公邦輔	-13.0965
數月不得進彭夜勒兵馬申令軍中使明	-13.0965
明出東門破賊三營斬首數萬級賊雖敗	-13.0965
明君賢將之所上	-13.0965
曰原將降矣軍吏	-13.0965
曰藩軍少甲而恃水有懈怠之心擊之必	-13.0965
書陳突厥强弱形勢高祖皆納用乃遣	-13.0965
朝破趙二十萬衆	-13.0965
此以内嬖為間者也其七曰敵有謀臣則	-13.0965
此皆心不誠實多蓄異	-13.0965
每更一十刻四十八分每㸃二刻九分	-13.0965
每更九刻一十二分每㸃一刻五十分	-13.0965
漢王遣韓信破陳餘後信募	-13.0965
漴忠親自䧟陣擒仲禮悉俘其衆安陸及	-13.0965
當朝正色忠以盡節信以竭誠	-13.0965
睺	-13.0965
知府林懋舉	-13.0965
積旬鄩倍道兼行皆腹疾足腫顛墜巖坂	-13.0965
紀時大雪平地五尺虜乏芻糧人馬斃踣	-13.0965
罰以督之因山川形勢之宜講	-13.0965
羣移剌馬必咬踢之使	-13.0965
者非儉則力同列而相臣妾者	-13.0965
而貧者非惰則奢世無	-13.0965
臯比而先犯之公從之大敗宋師	-13.0965
至百坡州二十五里至州三百五十五里	-13.0965
舉青旗則為直陣鳴四	-13.0965
舉黒旗則為曲陣鳴二	-13.0965
藍棄西安而遁岑彭將	-13.0965
衆散亂皆無弓馬步走追三十餘里僵屍	-13.0965
行有狼顧者行與坐忽如驚恐者非時	-13.0965
衣敵人在外不見立	-13.0965
譙道福重兵守涪	-13.0965
軍百里期于會地為	-13.0965
通判佘𤣥知縣康世耀	-13.0965
郭淮討叛羌	-13.0965
間者也其六曰敵有内寵令心腹者以金	-13.0965
關繫數十里數百里之利害者	-13.0965
隻為一䑸責其合造樓船一隻以為兵船	-13.0965
騎二千銜枚夜進遇仲禮	-13.0965
齊烏枝鳴曰用少莫如齊致死齊致死莫	-13.0965
發依依利客見陣利先動出軍	-13.0966
好勇義寡詐謀	-13.0966
擊此之道觸而迫之	-13.0966
方之戎其性相類士力能彎弓盡為甲騎	-13.0966
積隂之野食肉	-13.0966
中吐月平箭闊為弦上	-13.0966
方騰額前臨為封兕欲鬭出弓弰為	-13.0966
在各伏其要以猛而不堅者	-13.0966
抗抗曰羊祜豈酖人者	-13.0966
伯謂士㑹曰若何而戰對曰趙氏新出其	-13.0966
子言伐之何也胡君聞之以鄭為親已	-13.0966
惡臾駢之佐上軍也若使輕者肆焉其可	-13.0966
敵議退師慶之曰兵來至此	-13.0966
[...]
