<unk>	0
<s>	0
</s>	0
(	-4.04853
之	-4.16073
/	-4.4212
)	-4.42443
而	-4.81909
以	-4.90266
為	-5.01149
也	-5.04478
/)	-5.20066
有	-5.22342
書	-5.22776
其	-5.23763
字	-5.26063
者	-5.29566
人	-5.3854
於	-5.4176
曰	-5.48532
不	-5.72602
王	-5.75415
▁	-5.78815
文	-5.80835
一	-5.82236
唐	-5.82721
碑	-5.8308
則	-5.86457
中	-5.87714
又	-5.90135
子	-5.92094
闕	-5.93372
撰	-5.95977
作	-5.97894
與	-6.00851
大	-6.06568
自	-6.07282
公	-6.09307
無	-6.12213
在	-6.15413
傳	-6.16941
言	-6.18781
元	-6.19027
此	-6.20237
三	-6.21784
故	-6.23066
云	-6.25165
明	-6.26469
皆	-6.2735
至	-6.27575
時	-6.27674
行	-6.30112
易	-6.30247
本	-6.30914
事	-6.31644
經	-6.33404
所	-6.33718
詩	-6.33814
記	-6.34098
集	-6.3524
上	-6.35921
矣	-6.37068
今	-6.38197
二	-6.38569
正	-6.38949
)(	-6.40263
道	-6.40702
亦	-6.42195
爲	-6.43133
名	-6.45247
非	-6.45316
張	-6.45939
乃	-6.46287
後	-6.46607
李	-6.46708
然	-6.47523
得	-6.48533
學	-6.48663
是	-6.48668
下	-6.50532
春秋	-6.50697
如	-6.52696
義	-6.54582
山	-6.54642
及	-6.56302
見	-6.59126
知	-6.60421
右	-6.61227
天	-6.61294
氏	-6.61432
漢	-6.6147
四	-6.62302
君	-6.63758
州	-6.64579
石	-6.65356
周	-6.66162
乎	-6.66329
同	-6.67121
陳	-6.69122
志	-6.6966
用	-6.70138
世	-6.70274
五	-6.70727
論	-6.71079
成	-6.71759
録	-6.73153
宋	-6.73348
復	-6.73748
多	-6.75005
立	-6.75051
古	-6.75443
相	-6.76366
焉	-6.76889
一卷	-6.7778
于	-6.77845
可	-6.77855
日	-6.77956
家	-6.78082
禮	-6.7871
方	-6.80281
謂	-6.80605
通	-6.817
劉	-6.82262
官	-6.83727
注	-6.84257
生	-6.84372
序	-6.84797
出	-6.84808
已	-6.8614
法	-6.8635
史	-6.89898
從	-6.91303
臣	-6.9185
六	-6.92609
九	-6.93002
南	-6.93278
因	-6.94031
國	-6.95469
惟	-6.95662
何	-6.96717
載	-6.9769
安	-6.97841
若	-6.98112
折	-6.98295
圖	-6.984
年	-6.98649
始	-6.98702
先生	-6.98951
觀	-6.9922
長	-6.99784
宗	-7.00424
師	-7.00453
令	-7.00815
陽	-7.00936
初	-7.01352
當	-7.01702
説	-7.02645
數	-7.02951
或	-7.03012
定	-7.03108
孫	-7.04025
前	-7.04472
即	-7.04742
平	-7.05736
徳	-7.05762
善	-7.0728
諸	-7.07546
心	-7.07854
稱	-7.0801
取	-7.09517
士	-7.10145
縣	-7.10726
命	-7.11246
="33"/>	-7.12022
<	-7.12022
t	-7.12022
分	-7.12635
遂	-7.12863
按	-7.13565
雖	-7.13714
類	-7.13821
意	-7.14139
章	-7.14381
等	-7.15288
入	-7.16086
先	-7.16606
余	-7.17602
使	-7.1769
髙	-7.17799
東	-7.17929
十	-7.18871
帖	-7.19117
楊	-7.19644
神	-7.19982
未	-7.20055
夫	-7.20266
以為	-7.20591
考	-7.20748
居	-7.20982
黄	-7.2136
耳	-7.2146
伯	-7.21807
解	-7.22103
晉	-7.22179
民	-7.22426
既	-7.22664
重	-7.22822
紀	-7.22878
合	-7.23179
少	-7.23487
八	-7.23845
修	-7.23865
七	-7.24299
卷	-7.24698
著	-7.25325
金	-7.25997
光	-7.26776
林	-7.27133
凡	-7.27294
新	-7.27623
能	-7.28025
鄭	-7.28083
刻	-7.28428
存	-7.2844
建	-7.28794
水	-7.29046
十卷	-7.29539
二卷	-7.29835
思	-7.30857
真	-7.31019
聖	-7.31448
西	-7.31719
梁	-7.31961
門	-7.3204
趙	-7.32212
歸	-7.32605
次	-7.32796
仲	-7.33099
象	-7.33341
樂	-7.33547
理	-7.33748
清	-7.34052
治	-7.34234
篇	-7.35818
尚書	-7.36517
寺	-7.3652
異	-7.36648
嘗	-7.36787
興	-7.36803
獨	-7.37596
廣	-7.37714
欲	-7.37813
實	-7.38078
齊	-7.38154
小	-7.38431
間	-7.38804
銘	-7.39678
疑	-7.39796
武	-7.40937
周易	-7.41347
卿	-7.41358
釋	-7.42319
深	-7.42641
直	-7.42832
魏	-7.43174
問	-7.43197
一部一冊	-7.43255
蓋	-7.43482
必	-7.44291
辭	-7.4479
尚	-7.44828
舉	-7.44981
父	-7.45004
常	-7.45032
龍	-7.4528
應	-7.45293
缺	-7.45539
朝	-7.45725
府	-7.45733
守	-7.45993
郡	-7.46565
萬	-7.47213
仁	-7.47872
祖	-7.47994
語	-7.48382
哉	-7.4869
信	-7.48729
且	-7.48847
精	-7.49696
來	-7.4974
外	-7.49905
德	-7.49933
徐	-7.50044
朱	-7.50309
雲	-7.50445
侯	-7.50492
去	-7.51015
予	-7.51679
𤣥	-7.5185
將	-7.51894
題	-7.51972
筆	-7.52296
政	-7.5274
佚	-7.53581
孔子	-7.5398
魯	-7.54078
地	-7.54258
玉	-7.54403
表	-7.54487
吳	-7.55151
逺	-7.55703
餘	-7.5598
進	-7.5603
風	-7.56048
秦	-7.56053
首	-7.56124
盡	-7.56177
錄	-7.56324
節	-7.56533
孝	-7.57495
起	-7.5758
編	-7.57636
和	-7.57853
吾	-7.58482
舊	-7.58528
左	-7.58913
要	-7.58914
甚	-7.59098
發	-7.59208
江	-7.59337
說	-7.59681
兼	-7.59837
遷	-7.60207
續	-7.60493
别	-7.60839
述	-7.60896
白	-7.61148
聞	-7.61185
授	-7.61203
辨	-7.61365
老	-7.61369
城	-7.61465
卒	-7.615
卦	-7.6164
盖	-7.62029
内	-7.62433
號	-7.6257
原	-7.62766
三卷	-7.63371
補	-7.63951
物	-7.64019
帝	-7.6403
華	-7.64149
改	-7.64255
月	-7.64516
體	-7.64616
不可	-7.64626
爾	-7.64897
猶	-7.65369
簡	-7.66035
極	-7.66115
變	-7.66121
各	-7.66193
二年	-7.66252
學者	-7.66432
堂	-7.66719
求	-7.67395
難	-7.67593
主	-7.67708
都	-7.68109
元年	-7.68111
北	-7.68219
封	-7.68732
制	-7.68908
處	-7.69457
敬	-7.69509
遺	-7.69909
景	-7.69924
叔	-7.702
百	-7.70453
葢	-7.70712
終	-7.71112
齋	-7.71713
固	-7.72032
夏	-7.72318
馬	-7.7235
讀	-7.72689
賢	-7.72774
㑹	-7.73233
靈	-7.74562
畧	-7.74964
詔	-7.75097
不能	-7.75127
所謂	-7.75221
我	-7.75554
亡	-7.75574
益	-7.75594
司	-7.75731
胡	-7.76515
孔	-7.77378
論語	-7.7756
海	-7.77801
兩	-7.77827
屬	-7.78112
許	-7.78165
開	-7.78438
近	-7.78695
絶	-7.78793
列	-7.78818
雜	-7.78971
引	-7.79282
誤	-7.79945
永	-7.80435
度	-7.80796
斯	-7.81227
置	-7.81768
寳	-7.81934
豈	-7.82068
呉	-7.82089
承	-7.82102
太	-7.82137
宜	-7.82176
廟	-7.8224
陵	-7.82598
目	-7.82643
并	-7.82713
止	-7.83056
進士	-7.8381
更	-7.84093
力	-7.84098
忠	-7.84163
僧	-7.84248
工	-7.8435
昭	-7.84418
音	-7.84424
天下	-7.8458
失	-7.84883
而不	-7.85028
俱	-7.85076
過	-7.85159
附	-7.85478
加	-7.85566
致	-7.85704
流	-7.85705
並	-7.85962
四卷	-7.86514
氣	-7.87228
田	-7.87915
由	-7.87929
周禮	-7.87954
詳	-7.88187
全	-7.8819
訓	-7.88288
陸	-7.8842
教	-7.88609
所以	-7.88689
寧	-7.88706
聖人	-7.88795
疏	-7.8901
臨	-7.89251
春	-7.89296
三年	-7.89357
比	-7.89506
末	-7.8957
好	-7.89807
良	-7.89808
高	-7.89812
頌	-7.89919
備	-7.90095
畫	-7.90151
不知	-7.90255
昌	-7.90337
此書	-7.90547
死	-7.90885
代	-7.91801
顧	-7.91801
儀	-7.92241
共	-7.92262
奉	-7.92424
崇	-7.92846
顯	-7.92989
宣	-7.93005
廢	-7.93044
孟子	-7.93142
季	-7.93197
韓	-7.93376
第	-7.93775
未見	-7.94119
者也	-7.94131
功	-7.94162
朱子	-7.94384
宫	-7.9443
尊	-7.94727
歴	-7.94779
部	-7.95039
兵	-7.95047
金石	-7.95138
微	-7.95303
軍	-7.96018
斷	-7.96218
議	-7.96292
據	-7.96349
具	-7.97434
正書	-7.97799
賜	-7.97862
典	-7.98093
造	-7.98681
隂	-7.98769
位	-7.98825
化	-7.98837
孟	-7.99145
受	-7.99336
順	-7.99887
草	-8.00149
乾	-8.00282
其書	-8.00336
禮記	-8.0053
似	-8.00538
但	-8.00883
程	-8.01142
誠	-8.01153
嘉	-8.01299
識	-8.01331
尤	-8.01367
博	-8.01386
請	-8.01406
特	-8.01809
耶	-8.01909
藏	-8.02085
登	-8.02151
手	-8.02481
孝經	-8.02588
貞	-8.02599
略	-8.02671
沈	-8.03122
嚴	-8.03547
竒	-8.03892
楚	-8.04791
服	-8.05221
端	-8.05327
蘇	-8.05525
之書	-8.05642
任	-8.05719
聲	-8.05744
親	-8.06325
四年	-8.06326
河	-8.06688
亂	-8.06919
而已	-8.07006
望	-8.07167
推	-8.07478
里	-8.08021
之所	-8.08543
拜	-8.08575
五卷	-8.09216
勝	-8.09336
鄉	-8.09502
賦	-8.09624
總	-8.09669
左氏	-8.09995
逸	-8.10317
譜	-8.10725
業	-8.11132
州刺史	-8.11252
曹	-8.11334
厯	-8.11439
六卷	-8.12045
嵗	-8.12531
衆	-8.12571
指	-8.12605
臺	-8.12648
縣志	-8.12668
此碑	-8.12821
女	-8.12945
郭	-8.12999
古文	-8.13103
如此	-8.13196
身	-8.13551
盛	-8.13687
於是	-8.14053
之學	-8.14065
太守	-8.14155
皇	-8.14859
京	-8.14979
闕二	-8.15874
弟子	-8.16074
謝	-8.16075
慶	-8.16205
泉	-8.16256
二十卷	-8.16547
咸	-8.16738
千	-8.16841
叙	-8.16876
除	-8.17037
杜	-8.175
四書	-8.17557
之説	-8.17947
奏	-8.18583
濟	-8.18669
八分書	-8.19108
溪	-8.19405
十二	-8.19829
貴	-8.20071
儒	-8.20225
蔡	-8.20282
十二卷	-8.2038
祠	-8.20482
路	-8.2059
姓	-8.20911
省	-8.21529
稿	-8.21559
之後	-8.21626
當時	-8.2182
吕	-8.22115
游	-8.22407
獻	-8.2253
丘	-8.22933
俗	-8.2313
篆	-8.23229
謂之	-8.23249
印	-8.23331
五年	-8.23701
字子	-8.24057
利	-8.24066
可以	-8.24306
木	-8.24514
達	-8.24695
石經	-8.24707
隋	-8.24872
王氏	-8.24995
歲	-8.25127
一作	-8.25139
五經	-8.25163
美	-8.25686
采	-8.25784
贈	-8.25957
視	-8.2598
吉	-8.26428
虞	-8.26641
運	-8.26706
衡	-8.2681
繼	-8.26829
悉	-8.26943
韻	-8.27199
食	-8.2744
遊	-8.27944
英	-8.28023
古今	-8.28074
嘉靖	-8.28102
范	-8.28501
閣	-8.28567
洪	-8.2869
習	-8.287
邑	-8.28902
就	-8.28944
足	-8.28962
反	-8.29058
福	-8.29062
澤	-8.29256
君子	-8.29364
母	-8.29379
越	-8.2944
康	-8.29668
告	-8.29806
每	-8.29809
才	-8.29817
莫	-8.2992
殊	-8.30011
律	-8.30263
衛	-8.30415
土	-8.30435
甫	-8.30634
薛	-8.30843
至於	-8.30856
例	-8.31061
纂	-8.31176
商	-8.3124
克	-8.31266
八卷	-8.31448
翼	-8.3163
句	-8.31764
約	-8.32027
墨	-8.32071
崔	-8.32167
不同	-8.32188
科	-8.32215
出於	-8.32219
冊	-8.32233
愚	-8.3232
頗	-8.32336
川	-8.32347
還	-8.32513
□	-8.32547
雅	-8.32595
講	-8.32651
錢	-8.32661
大夫	-8.32666
萬厯	-8.327
寶	-8.32723
汝	-8.32746
隱	-8.32998
統	-8.33556
蕭	-8.33568
兮	-8.33976
六經	-8.34204
談	-8.34773
性	-8.34965
冠	-8.35046
彦	-8.35265
大學	-8.35381
仙	-8.35464
詞	-8.35688
集古	-8.35962
蜀	-8.35981
友	-8.35999
三十卷	-8.36064
輔	-8.36085
隨	-8.36356
升	-8.36683
惠	-8.36979
攷	-8.37095
對	-8.37356
其所	-8.37498
維	-8.37635
案	-8.37796
權	-8.37957
𨽻	-8.37993
顔	-8.3801
施	-8.38284
昔	-8.38379
占	-8.38508
器	-8.38568
源	-8.38711
參	-8.38728
恭	-8.38747
素	-8.39021
散	-8.39176
院	-8.39341
諸儒	-8.39699
苐	-8.39704
希	-8.3972
得之	-8.39731
又有	-8.39861
休	-8.39979
申	-8.39997
向	-8.40648
選	-8.40655
盧	-8.40677
秋	-8.40876
再	-8.4096
幾	-8.41234
喜	-8.41411
惡	-8.41663
其後	-8.41767
刋	-8.4196
仕	-8.41986
之言	-8.4212
虚	-8.42262
動	-8.42354
當是	-8.42535
妙	-8.42764
葉	-8.43049
輯	-8.43081
羅	-8.43101
轉	-8.4314
形	-8.4369
殿	-8.43742
秀	-8.43862
青	-8.43899
榮	-8.44064
條	-8.4411
病	-8.44202
星	-8.44467
車	-8.4449
司馬	-8.44513
坐	-8.44517
差	-8.44633
野	-8.44649
懐	-8.44656
交	-8.4478
彼	-8.44801
證	-8.45029
諱	-8.45122
袁	-8.45296
六年	-8.45367
適	-8.45392
二十	-8.45629
谷	-8.45644
毛詩	-8.46111
延	-8.46113
不得	-8.46167
曲	-8.46247
儀禮	-8.46256
容	-8.46295
題名	-8.46474
㫖	-8.46517
之意	-8.46592
嗣	-8.46627
曾	-8.46648
鼎	-8.46871
移	-8.47357
夫子	-8.47457
吏	-8.48011
肅	-8.484
中庸	-8.4846
徴	-8.48596
蘭亭	-8.48719
燕	-8.48966
禹	-8.49034
疾	-8.49274
而後	-8.49601
感	-8.49718
最	-8.49718
歌	-8.50004
又曰	-8.50013
窮	-8.50328
降	-8.50555
尋	-8.50568
計	-8.50591
紹興	-8.5067
率	-8.50698
其文	-8.5097
果	-8.51172
執	-8.51274
依	-8.51368
序曰	-8.51575
召	-8.51721
亭	-8.51877
祭	-8.51992
丁	-8.52133
洞	-8.5247
質	-8.52519
自序曰	-8.52575
雨	-8.52644
祀	-8.52655
遇	-8.52866
校	-8.52982
徒	-8.53032
尹	-8.53039
摹	-8.53192
一部	-8.53255
篆額	-8.53288
莊	-8.53328
郎	-8.53367
私	-8.53412
示	-8.53417
得其	-8.53487
佳	-8.53638
偽	-8.53753
厚	-8.54091
羣	-8.54179
佛	-8.5423
章句	-8.54338
開元	-8.54416
行書	-8.54519
周公	-8.54578
董	-8.54701
久	-8.54808
韋	-8.54976
弟	-8.55211
往	-8.55448
資	-8.55506
墓	-8.55626
夀	-8.55721
淵	-8.55996
智	-8.56331
鎮	-8.56396
二百	-8.56439
震	-8.56644
是書	-8.56703
刑	-8.56936
河南	-8.5706
威	-8.57465
切	-8.57475
松	-8.57524
爻	-8.57595
又云	-8.57664
半	-8.57769
隋志	-8.57779
泰	-8.57885
純	-8.57931
穆	-8.58193
宏	-8.5822
二字	-8.58396
謹	-8.58477
憲	-8.58575
御	-8.58586
謙	-8.58601
夢	-8.58825
裴	-8.58971
馮	-8.59045
碑隂	-8.59161
離	-8.59189
情	-8.59467
飛	-8.5984
邦	-8.60014
妄	-8.60155
畢	-8.60179
鍾	-8.60197
連	-8.60358
諸家	-8.60368
幸	-8.60519
式	-8.60523
後世	-8.60823
竹	-8.60837
曽	-8.60888
試	-8.60954
為之	-8.6103
陶	-8.61271
敏	-8.61411
下闕	-8.61697
期	-8.61979
翁	-8.61996
見於	-8.62014
室	-8.62061
竊	-8.62402
右軍	-8.62552
符	-8.62782
脩	-8.62912
便	-8.62954
愛	-8.63167
充	-8.63253
幽	-8.63672
設	-8.63764
湖	-8.64018
一篇	-8.64085
以來	-8.64144
廷	-8.64236
察	-8.64245
垂	-8.64297
夷	-8.64498
以爲	-8.64667
職	-8.6469
殷	-8.64697
贊	-8.64724
雄	-8.64862
謀	-8.65092
薦	-8.65539
舍	-8.65674
註	-8.65833
空	-8.65834
滅	-8.66164
丞	-8.66633
所載	-8.66752
一字	-8.66776
於此	-8.6682
隠	-8.67336
戒	-8.67493
伏	-8.67591
墓誌	-8.67623
博士	-8.67763
房	-8.67802
况	-8.67862
保	-8.67869
務	-8.67909
史記	-8.67981
巖	-8.68041
積	-8.68049
品	-8.68112
仍	-8.68162
監	-8.68265
晦	-8.68386
賈	-8.68503
留	-8.6873
養	-8.68773
間修	-8.68981
未嘗	-8.69021
兹	-8.69043
天地	-8.69096
專	-8.69303
恩	-8.69426
佐	-8.69498
圗	-8.69547
射	-8.69621
色	-8.69623
碑唐	-8.69649
文字	-8.69801
像	-8.69861
恐	-8.69962
三百	-8.70024
茂	-8.70304
丹	-8.70617
客	-8.70622
石刻	-8.7068
覺	-8.70689
𢎞	-8.70958
門人	-8.70977
十一	-8.71005
温	-8.71102
池	-8.71132
僅	-8.7121
辟	-8.71242
姚	-8.71284
追	-8.71512
集十卷	-8.71623
眞	-8.72011
諸侯	-8.72029
學士	-8.72037
刻石	-8.72211
之文	-8.72406
尉	-8.72575
䝉	-8.72775
掌	-8.72971
后	-8.73319
堯	-8.73669
是也	-8.73702
跋	-8.73737
種	-8.73765
不敢	-8.73898
庭	-8.74202
洛	-8.74423
他	-8.74504
以下	-8.74511
爵	-8.74535
天子	-8.74548
獲	-8.75039
邪	-8.75455
堅	-8.7623
口	-8.7629
後人	-8.76358
綱	-8.76373
將軍	-8.76396
文集	-8.76448
然則	-8.76594
其説	-8.76746
完	-8.76773
之道	-8.76818
殆	-8.76833
弗	-8.77126
貫	-8.77235
井	-8.77303
誦	-8.7747
皇帝	-8.77491
樓	-8.77689
刪	-8.77761
允	-8.77902
亦有	-8.77992
十年	-8.78825
十五卷	-8.78907
第一	-8.79059
格	-8.79081
衣	-8.79105
寛	-8.79137
文王	-8.79176
祥	-8.792
瑞	-8.79244
夫人	-8.7927
􁶚	-8.79282
毛	-8.79291
傅	-8.79486
籍	-8.79767
倫	-8.79771
揚	-8.79797
寫	-8.79814
偶	-8.7984
可謂	-8.79848
模	-8.79951
十三	-8.80059
哀	-8.80072
汪	-8.80403
愈	-8.80475
均	-8.80503
憂	-8.80545
豐	-8.80571
術	-8.80648
芳	-8.80761
南京	-8.80838
機	-8.80902
不及	-8.8092
規	-8.80945
岳	-8.80957
浮	-8.81058
一巻	-8.81402
陳氏	-8.81694
持	-8.81746
旁	-8.81806
衍	-8.81887
司空	-8.82097
錯	-8.82158
布	-8.82203
其事	-8.82224
烈	-8.82547
發明	-8.82564
徵	-8.82959
故吏	-8.82985
管	-8.83009
戴	-8.83174
繫辭	-8.83203
十五	-8.83218
坤	-8.83279
繁	-8.83366
唐志	-8.83401
覽	-8.83427
額	-8.83624
葬	-8.83771
七年	-8.83948
丞相	-8.84078
邵	-8.84143
而無	-8.84423
廟碑	-8.84602
三十	-8.84652
究	-8.84876
隆	-8.84995
一部二冊	-8.85038
族	-8.85118
十六	-8.85185
勤	-8.8542
審	-8.85448
寜	-8.85622
彭	-8.85743
八分	-8.85787
太子	-8.86157
李氏	-8.86189
落	-8.86226
之間	-8.86398
息	-8.86496
忘	-8.86644
繫	-8.86655
靖	-8.86708
願	-8.86769
横	-8.86777
雍	-8.86982
報	-8.87006
之事	-8.87099
會	-8.87142
標	-8.8716
字伯	-8.87183
循	-8.87227
上下	-8.87306
鑑	-8.8739
費	-8.87487
晚	-8.87543
易之	-8.87552
慎	-8.87618
湯	-8.87643
俾	-8.87661
之類	-8.87708
苑	-8.87762
玩	-8.87837
先儒	-8.87924
跡	-8.87956
公羊	-8.8799
隂陽	-8.88099
十八	-8.88168
復齋	-8.88336
範	-8.88419
無所	-8.88436
有所	-8.88454
收	-8.88648
棄	-8.88744
懷	-8.888
恒	-8.88876
念	-8.89091
未有	-8.89381
之義	-8.89424
累	-8.89655
之說	-8.89692
教授	-8.89748
勞	-8.89817
火	-8.9001
魚	-8.90035
碑以	-8.90087
龜	-8.90115
侍	-8.90224
罪	-8.9028
鄭氏	-8.903
増	-8.90415
緯	-8.9042
姑	-8.90528
擇	-8.9065
厥	-8.90656
兄	-8.90773
園	-8.90993
此本	-8.90994
唯	-8.91002
敢	-8.91175
甲	-8.91367
牧	-8.91401
夜	-8.91487
弼	-8.91642
其言	-8.91912
九年	-8.91916
貢	-8.9197
樹	-8.91987
不足	-8.92058
經傳	-8.92116
須	-8.92226
一人	-8.92254
九卷	-8.92305
忽	-8.92445
亮	-8.92456
晋	-8.92536
評	-8.92547
皆有	-8.92673
履	-8.92958
撫	-8.92985
米	-8.92991
演	-8.93067
䟦	-8.93154
伐	-8.93192
假	-8.93203
否	-8.93211
栁	-8.93216
遠	-8.93221
館	-8.93284
勢	-8.93285
富	-8.93308
聖人之	-8.93352
雪	-8.93459
一卷又	-8.93465
襄	-8.93527
析	-8.93661
稍	-8.93679
貞觀	-8.93752
蘭	-8.93773
被	-8.93818
宋志	-8.93868
狀	-8.94021
庵	-8.94087
一日	-8.94095
面	-8.9418
苟	-8.94312
字畫	-8.94328
州人	-8.94421
然後	-8.94555
集一卷	-8.94618
潘	-8.94634
勅	-8.94666
字仲	-8.94727
欽	-8.94735
闕三	-8.94838
五行	-8.94885
書法	-8.94929
喪	-8.94994
乆	-8.9517
子夏	-8.95225
来	-8.95323
竟	-8.95444
患	-8.95453
抄	-8.95497
朔	-8.95662
鳳	-8.95695
太宗	-8.95748
軒	-8.95791
張氏	-8.95878
之法	-8.9597
殺	-8.95994
宰	-8.96008
古人	-8.96022
十九	-8.96054
麟	-8.96163
强	-8.96218
十四卷	-8.96313
爾雅	-8.96346
七卷	-8.96543
閒	-8.96593
破	-8.9668
今在	-8.96687
抑	-8.96724
户	-8.96798
不復	-8.96828
冬	-8.96852
歐陽	-8.96942
熊	-8.97097
退	-8.97132
某	-8.97157
錫	-8.97163
鴻	-8.97175
周官	-8.97313
紙	-8.97385
翰	-8.97393
領	-8.97694
苦	-8.97711
賊	-8.97752
姓名	-8.9806
時人	-8.98158
京兆金	-8.98166
長安	-8.98208
漸	-8.98216
奇	-8.98228
庶	-8.98239
右唐	-8.98448
後漢	-8.98623
也故	-8.98686
㣲	-8.98801
所作	-8.98839
壽	-8.99264
毁	-8.99266
賞	-8.99522
十七	-8.9979
宿	-8.99814
雷	-8.99821
害	-8.99825
放	-8.99833
劉氏	-8.99859
其名	-8.99926
所書	-8.99977
謬	-9.00182
稽	-9.00195
秘	-9.00297
壁	-9.0034
珍	-9.00352
包	-9.00383
大中	-9.00387
乗	-9.006
驗	-9.00615
舟	-9.00637
慈	-9.00651
遣	-9.00895
寺碑	-9.00943
易傳	-9.00969
香	-9.011
避	-9.01101
撰并書	-9.01195
天寳	-9.0154
峯	-9.01624
寓	-9.01689
緒	-9.01696
碑云	-9.01737
陰	-9.0182
八年	-9.0195
𫝊	-9.01954
其義	-9.02009
橋	-9.02069
浩	-9.02177
十三卷	-9.02418
䇿	-9.0247
基	-9.02476
鳴	-9.02477
屋	-9.02666
庸	-9.02751
奏議	-9.02752
幼	-9.02835
不見	-9.02841
亦不	-9.02924
振	-9.03
君碑	-9.03202
禮樂	-9.03262
正義	-9.03378
五十	-9.03486
也其	-9.03702
藝	-9.038
悟	-9.03821
舜	-9.04015
一卷存	-9.04165
征	-9.04229
集解	-9.04476
日月	-9.04533
徙	-9.046
此帖	-9.04606
苐一千	-9.04806
花	-9.04864
策	-9.04947
麗	-9.05036
淳	-9.05236
介	-9.05243
紹	-9.05259
從事	-9.0527
録一卷	-9.05307
啟	-9.05311
八卦	-9.05332
助	-9.0544
大觀	-9.05483
六十	-9.05497
玄	-9.055
旦	-9.05771
老子	-9.05866
潤	-9.06006
文公	-9.06121
其一	-9.06134
者皆	-9.06261
卜	-9.06271
亨	-9.06349
衞	-9.06356
洪範	-9.06541
調	-9.06643
梅	-9.06675
貞元	-9.06843
之士	-9.06885
鄒	-9.07057
想	-9.07152
十四	-9.07185
掾	-9.07377
宅	-9.07444
天下之	-9.07532
碑録	-9.07619
言之	-9.07824
醫	-9.07843
講義	-9.07874
酒	-9.07999
損	-9.08194
碑在	-9.08199
石錄	-9.08392
桓	-9.08451
兆	-9.08555
伏羲	-9.08598
蒙	-9.08602
啓	-9.08684
一時	-9.08729
懼	-9.08818
密	-9.08833
塔	-9.08879
波	-9.08887
阿	-9.08906
惜	-9.09052
農	-9.09062
祝	-9.09195
寒	-9.09464
營	-9.09742
照	-9.09751
遵	-9.09759
擢	-9.09763
普	-9.09771
唐人	-9.09773
鳯	-9.09776
係	-9.10015
怪	-9.10032
樞	-9.10047
太和	-9.10061
司徒	-9.10174
太學	-9.10316
本義	-9.10331
脱	-9.10348
鄧	-9.10392
勿	-9.10894
静	-9.10968
孰	-9.11001
所傳	-9.1101
以其	-9.11224
板	-9.11407
仲尼	-9.11555
所得	-9.11659
十六卷	-9.11709
覆	-9.1175
鶴	-9.11751
所見	-9.11753
羽	-9.11764
俞	-9.11777
敦	-9.11778
一百	-9.11809
叅	-9.11966
誰	-9.12066
胡氏	-9.12078
諫	-9.12138
一本	-9.12169
後魏	-9.12202
融	-9.12243
紫	-9.12283
宇	-9.12304
輿	-9.12313
豫	-9.12324
藥	-9.12398
勸	-9.12418
鑒	-9.12469
訂	-9.12743
仰	-9.1294
材	-9.12989
慮	-9.13046
歎	-9.13245
逹	-9.13297
御史	-9.13374
三月	-9.13377
閩	-9.13389
左傳	-9.13443
配	-9.13501
翰林	-9.13553
帥	-9.13577
製	-9.13859
之辭	-9.13887
關	-9.13895
增	-9.13998
侍郎	-9.14056
迹	-9.14115
借	-9.14142
諡	-9.14266
處士	-9.14268
所藏	-9.14301
版	-9.14362
細	-9.14493
側	-9.145
衰	-9.14694
賛	-9.14807
足以	-9.14904
太平	-9.1507
觧	-9.15095
接	-9.15109
嘉定	-9.15125
惑	-9.15136
闗	-9.15137
搨	-9.15318
舒	-9.15353
剛	-9.15373
牛	-9.15424
讓	-9.15441
虎	-9.1546
元和	-9.15469
賀	-9.15495
壇	-9.15553
圓	-9.15578
三傳	-9.1562
勒	-9.15624
姜	-9.1563
樊	-9.15734
荒	-9.15736
秉	-9.15762
襲	-9.15971
賔	-9.16009
歟	-9.16121
婦	-9.16246
一部三冊	-9.16297
烏	-9.16306
禁	-9.16329
旨	-9.16559
字元	-9.16911
祐	-9.1692
潛	-9.16996
國子監	-9.17029
所著	-9.17107
待	-9.1723
府志	-9.17243
其間	-9.17436
誥	-9.17484
聚	-9.17548
負	-9.17573
詩集	-9.17635
勁	-9.17681
遭	-9.17867
誤作	-9.17901
筆法	-9.17925
知其	-9.17946
童	-9.17949
録目	-9.18234
桂	-9.18375
是以	-9.18394
嗚呼	-9.18405
恨	-9.18502
洛陽	-9.1852
一書	-9.18585
以後	-9.18585
訪	-9.18936
誌	-9.191
逢	-9.19486
吴	-9.19551
超	-9.19586
册	-9.19617
徃	-9.19683
不合	-9.19717
擬	-9.19737
霸	-9.19808
其為	-9.19936
沒	-9.20095
乘	-9.20124
味	-9.20127
讀書	-9.20156
妻	-9.20161
洪武	-9.20243
彌	-9.20253
太極	-9.20254
右漢	-9.20311
集注	-9.20466
送	-9.20482
辯	-9.20508
文章	-9.20574
黨	-9.20631
其辭	-9.20687
不載	-9.20754
乞	-9.20824
段	-9.20922
曉	-9.21237
辰	-9.21346
頭	-9.21424
人也	-9.21506
孔氏	-9.21568
奥	-9.21572
中有	-9.21588
之名	-9.21606
楷	-9.21668
孤	-9.21691
之徒	-9.21872
寅	-9.2205
何以	-9.22288
託	-9.22468
括	-9.22753
本末	-9.23014
䕶	-9.23055
薄	-9.23067
罷	-9.23104
道士	-9.23149
結	-9.23349
署	-9.23393
而為	-9.23449
者亦	-9.23489
子孫	-9.23517
懿	-9.23563
南陽	-9.23583
象數	-9.23646
契	-9.23731
採	-9.23735
珠	-9.23736
闕一	-9.23849
納	-9.23967
輕	-9.23969
己	-9.23983
偉	-9.24027
漢書	-9.24077
程子	-9.24092
璧	-9.24098
傷	-9.24409
聽	-9.24449
候	-9.24759
之下	-9.24777
效	-9.2479
之外	-9.2498
靜	-9.25073
侍中	-9.25206
戰	-9.25264
斗	-9.25388
二篇	-9.25433
俊	-9.25478
雙	-9.25546
判	-9.25562
男	-9.25711
劉向	-9.25723
字缺	-9.25803
漢儒	-9.25879
索	-9.25951
晏	-9.26004
諸書	-9.26051
測	-9.26053
故曰	-9.26066
蒼	-9.26087
之數	-9.26175
徽	-9.26237
咸通	-9.26475
見其	-9.26566
前後	-9.26593
答	-9.2666
鑿	-9.26788
眀	-9.26943
沙	-9.26958
讀易	-9.27053
縱	-9.27079
赤	-9.27115
裕	-9.27171
役	-9.27171
於易	-9.27175
程氏	-9.27322
太尉	-9.27337
以上	-9.27339
委	-9.27461
郊	-9.27465
往往	-9.27523
陳振孫曰	-9.27571
釋文	-9.27584
也然	-9.27608
虛	-9.27771
熙	-9.2778
骨	-9.27802
宻	-9.27844
黄帝	-9.27975
六十四卦	-9.27986
淳化	-9.28169
訛	-9.28326
刺	-9.28396
将	-9.28445
郎中	-9.28535
本朝	-9.28631
必有	-9.28637
禪	-9.287
著書	-9.28873
決	-9.28902
也今	-9.28933
謁	-9.29037
書目	-9.29081
到	-9.29102
懸	-9.29216
集本	-9.29228
貶	-9.29229
二月	-9.29244
賓	-9.29254
圭	-9.29306
較	-9.29389
蔵	-9.29467
縣令	-9.29467
異同	-9.29473
府君	-9.29491
攻	-9.29595
免	-9.29667
輒	-9.29908
頃	-9.29963
邊	-9.29974
舎	-9.29978
十一年	-9.29978
以此	-9.29981
享	-9.30286
不過	-9.3033
毅	-9.30335
諸道石	-9.3036
滿	-9.3045
一部四冊	-9.30462
趙氏	-9.30552
自序	-9.30694
昇	-9.3087
逆	-9.31014
後有	-9.3107
是非	-9.31096
之語	-9.31103
廿	-9.31223
圖次	-9.31242
梓	-9.31297
副	-9.31347
年月	-9.31406
喬	-9.31414
蔣	-9.31441
瞻	-9.31519
禄	-9.31605
四十卷	-9.3162
之子	-9.31665
遜	-9.31734
安國	-9.3185
歳	-9.32058
記一卷	-9.32066
崖	-9.32084
竇	-9.32126
刺史	-9.32256
倉	-9.32353
諸生	-9.3246
黎	-9.32465
之中	-9.32545
荆	-9.32562
今文	-9.32608
革	-9.32702
自號	-9.32791
三家	-9.32795
市	-9.32802
而下	-9.32813
熈	-9.33105
露	-9.3317
獄	-9.33206
世之	-9.33256
之心	-9.33286
國公	-9.33425
付	-9.3354
秩	-9.33554
六月	-9.33632
集二卷	-9.33747
詠	-9.33915
鏡	-9.33933
大義	-9.33935
逸少	-9.3395
名曰	-9.34052
始於	-9.34172
本傳	-9.34178
成化	-9.3425
嵩	-9.34298
鐫	-9.34307
屢	-9.34308
各有	-9.34529
殘	-9.34681
早	-9.34719
髙宗	-9.3497
成都	-9.35018
角	-9.35023
由是	-9.35057
江西	-9.351
無不	-9.35114
楊氏	-9.35122
淺	-9.35295
班	-9.35306
陋	-9.35374
考之	-9.35476
東坡	-9.35479
尺	-9.35596
漫	-9.35607
篤	-9.35616
偏	-9.35767
乾坤	-9.35803
𢎞治	-9.35827
通志	-9.35966
輩	-9.36007
干	-9.36027
義理	-9.36046
鼓	-9.36068
頴	-9.36099
慕	-9.36153
肇	-9.36165
没	-9.36178
繆	-9.36525
一冊	-9.36595
河東	-9.36614
九經	-9.36628
永嘉	-9.36895
之際	-9.36921
四十	-9.37026
其餘	-9.37174
㑹稽	-9.37213
靡	-9.37446
朝廷	-9.37535
一卷未見	-9.37536
用之	-9.37543
筮	-9.37617
丈	-9.37883
悲	-9.37941
勉	-9.38081
為之序	-9.38083
真蹟	-9.38086
績	-9.38122
防	-9.38123
導	-9.38128
宰相	-9.38279
系	-9.38317
危	-9.38488
蔡邕	-9.38536
天地之	-9.38596
求之	-9.38717
禪師	-9.38775
十月	-9.38882
廬	-9.38938
魯公	-9.38964
聘	-9.39234
澄	-9.39248
國史	-9.39539
書之	-9.39575
戎	-9.39609
勲	-9.39625
樵	-9.39886
炎	-9.39892
躬	-9.4003
違	-9.4004
浦	-9.40141
河圖	-9.40161
笑	-9.40213
五百	-9.4023
舉人	-9.40259
丗	-9.40381
該	-9.40384
柔	-9.40402
支	-9.40404
二人	-9.40439
三代	-9.40449
鮮	-9.40462
十巻	-9.40472
全書	-9.40829
含	-9.40831
至正	-9.40847
寄	-9.40852
折衷	-9.40881
社	-9.40899
哲	-9.40995
削	-9.41055
書者	-9.41154
督	-9.41159
辛	-9.41166
凢	-9.4117
桑	-9.41187
攝	-9.41211
崇禎	-9.41264
單	-9.41274
子曰	-9.41354
先天	-9.4143
箋	-9.415
武帝	-9.41504
僕	-9.41566
閲	-9.41612
元祐	-9.4193
窺	-9.41983
黃	-9.41996
臯	-9.42074
闕四	-9.42114
存者	-9.42153
坊	-9.42255
洽	-9.42389
先後	-9.42499
十二月	-9.42582
論一卷	-9.42663
正月	-9.42671
法帖	-9.42677
集四卷	-9.42727
之功	-9.42785
駕	-9.42791
國語	-9.42816
操	-9.42865
其中	-9.42891
整	-9.43062
不然	-9.43082
京師	-9.43106
荀	-9.43147
根	-9.43211
羲	-9.43307
近世	-9.43416
嶽	-9.43459
重修	-9.43467
甲子	-9.43713
其意	-9.43729
長史	-9.43923
屈	-9.43971
珪	-9.43996
􁀙	-9.44013
挍	-9.44026
幹	-9.44042
暢	-9.44062
鳥	-9.44062
彰	-9.44068
植	-9.44078
公之	-9.44083
北齊	-9.44184
淮	-9.44211
歴代	-9.44276
君之	-9.44361
韶	-9.44472
粹	-9.44481
郷	-9.44485
黄氏	-9.44496
見之	-9.4452
集傳	-9.44689
艮	-9.44734
卑	-9.4483
爰	-9.44877
彖	-9.44887
環	-9.44888
徐氏	-9.45215
専	-9.45285
四方	-9.4535
十三年	-9.45588
者則	-9.45644
譏	-9.45674
左右	-9.45677
誅	-9.45711
彚	-9.45899
不可以	-9.46096
縁	-9.46109
曜	-9.4616
至今	-9.46411
創	-9.46434
大厯	-9.46448
齋集	-9.46465
叟	-9.46517
急	-9.46545
岐	-9.46789
碣	-9.46824
定武	-9.46891
御製	-9.46894
褒	-9.46932
曾子	-9.46954
琴	-9.47169
决	-9.47181
所記	-9.47224
吟	-9.47281
或作	-9.47283
騎	-9.47332
詣	-9.47357
臧	-9.47368
倪	-9.47382
彛	-9.47456
父子	-9.47619
則有	-9.47783
塞	-9.47802
繹	-9.47806
京兆	-9.47905
刻之	-9.48042
毋	-9.4827
官至	-9.48479
討	-9.48507
焚	-9.48596
準	-9.48604
中興	-9.48654
祕	-9.48839
肆	-9.4895
為一	-9.48958
七月	-9.49003
背	-9.4904
逮	-9.49189
北海	-9.49205
人之	-9.49247
禹貢	-9.49268
卓	-9.49324
敗	-9.49339
太祖	-9.49399
恵	-9.4949
謫	-9.49509
八百	-9.49515
外傳	-9.49516
姓氏	-9.49615
月令	-9.49675
傳注	-9.49723
量	-9.49749
郡守	-9.49752
研	-9.49808
君臣	-9.49991
也夫	-9.49992
之㫖	-9.50044
莫不	-9.50072
皆以	-9.50161
之餘	-9.50198
不著	-9.50278
不為	-9.50292
大小	-9.50292
以前	-9.50348
以明	-9.50369
慰	-9.50444
羊	-9.5048
之時	-9.50546
峻	-9.50566
互	-9.5064
十八卷	-9.50657
詩一卷	-9.50661
鬼	-9.5068
吉凶	-9.50777
闡	-9.50788
罕	-9.50791
懋	-9.50812
銅	-9.50828
諡文	-9.51058
歐陽公	-9.51078
壯	-9.5121
叢	-9.51311
知縣	-9.51515
之作	-9.51537
太史	-9.51607
注云	-9.51609
藻	-9.51649
巨	-9.5168
三禮	-9.51715
畏	-9.51721
書也	-9.51729
數十	-9.51793
十七卷	-9.51852
吕氏	-9.51906
敷	-9.52166
大抵	-9.52209
得失	-9.52277
十一卷	-9.52289
失其	-9.52331
一二	-9.5238
頥	-9.52565
天寶	-9.526
儉	-9.52613
軌	-9.52661
萬物	-9.52663
蔡氏	-9.52686
相傳	-9.52766
故事	-9.52885
裔	-9.52898
殘缺	-9.52946
毎	-9.52948
弱	-9.5303
其學	-9.53137
其子	-9.53171
給	-9.53276
分書	-9.53306
従	-9.5333
扶	-9.5341
然而	-9.5344
邱	-9.53462
育	-9.53479
津	-9.5349
成書	-9.53516
龔	-9.53572
集二十卷	-9.53643
隸	-9.5384
易學	-9.53857
之所以	-9.53858
十二年	-9.53898
伊川	-9.53917
招	-9.53963
一卷佚	-9.54168
其下	-9.54305
祚	-9.54348
蓍	-9.5435
三字	-9.54411
太原	-9.54629
提	-9.54662
喻	-9.54754
趨	-9.54791
不應	-9.54801
奚	-9.54836
湛	-9.54846
涇	-9.54854
行於世	-9.55127
集三卷	-9.55138
九月	-9.55195
㡬	-9.55249
馳	-9.55264
煩	-9.5529
㳺	-9.5533
四字	-9.55419
不相	-9.5557
帝王	-9.55619
𨽻書	-9.55661
投	-9.55723
僞	-9.55777
也而	-9.5584
節度	-9.55949
者有	-9.56082
齡	-9.56092
裂	-9.56141
慧	-9.56182
峰	-9.562
第二	-9.56236
耕	-9.5624
所為	-9.56255
刻録	-9.56572
文義	-9.56595
八月	-9.56623
諭	-9.56625
綂	-9.56642
舞	-9.56728
之理	-9.56749
未能	-9.56804
回	-9.57005
痛	-9.57081
了	-9.57108
欽定四庫全書	-9.57178
蒲	-9.57203
王應麟曰	-9.57224
可見	-9.57355
取其	-9.5742
之傳	-9.57533
黙	-9.57569
援	-9.57571
倣	-9.57572
云云	-9.57613
庶幾	-9.57638
大全	-9.57639
藴	-9.57644
易解	-9.5769
不傳	-9.57746
二十四	-9.57845
觀其	-9.57845
國朝	-9.57962
頓	-9.58036
内外	-9.58104
如是	-9.58124
漕	-9.5818
兒	-9.58445
宣和	-9.58539
鄙	-9.5854
匡	-9.58567
之故	-9.58582
無疑	-9.58705
義疏	-9.58733
傳之	-9.58823
寡	-9.58866
旣	-9.59022
柳	-9.59051
摘	-9.5907
預	-9.59285
五十卷	-9.59365
塗	-9.59406
葛	-9.59446
漏	-9.59452
邢	-9.59473
誕	-9.59494
兄弟	-9.59507
救	-9.59516
曰吾	-9.59529
者以	-9.59602
謨	-9.59706
其人	-9.59757
巻	-9.599
奔	-9.59949
牒	-9.60012
朱氏	-9.60127
十二篇	-9.60185
優	-9.60369
村	-9.60385
甘	-9.6039
譔	-9.60405
盈	-9.60408
凶	-9.60424
併	-9.60431
局	-9.60457
函	-9.60518
經一卷	-9.60549
王弼	-9.60584
諸子	-9.60603
通鑑	-9.60608
者為	-9.60684
其說	-9.60699
二十一	-9.60709
州志	-9.60735
之論	-9.60764
確	-9.609
鹿	-9.60921
訓詁	-9.60949
四月	-9.60993
經文	-9.61058
繇	-9.6119
乙	-9.6125
鐘	-9.61264
當作	-9.61299
文學	-9.61333
乖	-9.61399
輙	-9.61412
姪	-9.61419
通考	-9.61431
詩書	-9.61438
陞	-9.61452
柏	-9.61464
建安	-9.61578
正徳	-9.61579
致仕	-9.61599
十四年	-9.6163
五代	-9.61675
飲	-9.61871
歩	-9.61873
昧	-9.61875
階	-9.61885
盟	-9.6195
靈帝	-9.62043
只	-9.62079
趣	-9.62257
篆書	-9.62289
祈	-9.62379
渾	-9.62393
易者	-9.62406
古之	-9.62526
髙祖	-9.62534
禮部尚書	-9.62553
宋史	-9.6272
獻之	-9.62725
漢志	-9.62833
道之	-9.62844
巧	-9.6287
迄	-9.62925
之末	-9.62946
襍	-9.63159
又以	-9.63194
未必	-9.63287
列傳	-9.6329
三篇	-9.63315
以示	-9.63315
書成	-9.63341
探	-9.63369
磨滅	-9.63371
暨	-9.63418
經籍	-9.63593
之上	-9.63667
或問	-9.63731
亷	-9.63815
小學	-9.63849
拙	-9.63849
褚	-9.63867
荘	-9.63924
卜筮	-9.63925
未詳	-9.63934
殘碑	-9.63942
鈔	-9.63946
邕	-9.63951
字叔	-9.6396
太常	-9.63976
大業	-9.64048
訪碑	-9.6407
冬官	-9.64082
沛	-9.64174
諸經	-9.6418
七十	-9.64327
擊	-9.64405
文選	-9.64444
二十二	-9.64461
柱	-9.64574
芝	-9.64712
伏生	-9.64724
屏	-9.64848
五月	-9.64855
鐵	-9.64855
二十七	-9.64859
況	-9.64903
冲	-9.64905
者其	-9.65054
罔	-9.65063
三十六	-9.65114
二十四卷	-9.65135
觀之	-9.65189
朗	-9.65247
茶	-9.65369
滋	-9.6539
一行	-9.65445
一部五冊	-9.65596
之易	-9.65718
踰	-9.65795
禮部	-9.65937
不以	-9.66034
主簿	-9.66081
鋒	-9.66316
巳	-9.66316
飾	-9.66381
協	-9.66394
恕	-9.66418
之變	-9.66422
庾	-9.66425
翰林學士	-9.66462
江南	-9.66508
謚	-9.66629
實録	-9.66695
永樂	-9.66827
塵	-9.66878
財	-9.66918
崇文總目	-9.66932
席	-9.66949
門生	-9.67003
之禮	-9.67024
豫章	-9.67104
唐贈	-9.67118
臨川	-9.67158
▁同上	-9.67168
後周	-9.67227
界	-9.67271
文言	-9.67277
所刻	-9.67287
太𤣥	-9.67328
偹	-9.67388
東漢	-9.67406
疎	-9.67409
悦	-9.6743
拘	-9.67436
朕	-9.67448
咏	-9.6749
新安	-9.67578
潭	-9.6762
山人	-9.67757
一帖	-9.67852
注疏	-9.67881
闢	-9.67899
圖一卷	-9.67929
裁	-9.67934
厲	-9.67936
徑	-9.6794
榖	-9.68
明堂	-9.68084
十篇	-9.6813
巴	-9.6822
第三	-9.68238
渠	-9.68267
集五卷	-9.68314
誓	-9.68363
坎	-9.68419
唐李	-9.68421
寵	-9.68445
供	-9.68446
覩	-9.68455
属	-9.68472
蕩	-9.68478
駁	-9.68509
汝南	-9.68589
藝文志	-9.68616
墳	-9.68787
失之	-9.68877
億	-9.68978
旅	-9.68979
遽	-9.68996
蘓	-9.69015
垣	-9.69027
百家	-9.69053
給事中	-9.69123
歸藏	-9.69234
不類	-9.69294
摩	-9.69473
也又	-9.69508
藉	-9.69534
也按	-9.69584
朱文公	-9.69645
長沙	-9.69666
而有	-9.69794
因之	-9.69823
庫	-9.69893
夕	-9.69941
責	-9.70018
沉	-9.70031
却	-9.70057
鹽	-9.70058
矣然	-9.70078
世傳	-9.70082
㕥	-9.70115
御書	-9.70236
地理	-9.70242
二卷又	-9.70359
寂	-9.70556
泰山	-9.70566
驚	-9.70588
潜	-9.70623
阮	-9.70666
之用	-9.70671
之本	-9.70782
者不	-9.70841
無窮	-9.70892
奪	-9.71069
聖賢	-9.71093
者矣	-9.71112
鄱陽	-9.71127
饒	-9.71218
六十四	-9.71291
之則	-9.71437
未見黄虞稷曰	-9.7144
山谷	-9.71602
潔	-9.7164
綜	-9.7164
凌	-9.71647
傑	-9.71661
公碑	-9.71661
滕	-9.71665
險	-9.71669
亦無	-9.71669
榖梁	-9.71716
右皇朝	-9.71718
孫氏	-9.71773
建寧	-9.71937
一函	-9.71963
淑	-9.72025
崑山	-9.72127
藩	-9.72175
俟	-9.72254
舊本	-9.72344
儒者	-9.72383
之妙	-9.72499
縣人	-9.72549
刻於	-9.72551
一家	-9.72579
草書	-9.72647
巡	-9.72725
萃	-9.72725
變化	-9.72744
境	-9.7275
前有	-9.72763
混	-9.72768
挺	-9.72768
三日	-9.72783
足下	-9.73053
二巻	-9.73079
非也	-9.73103
之象	-9.73105
話	-9.73181
未知	-9.73262
郁	-9.73301
政和	-9.73372
辨疑	-9.73393
孔安國	-9.73419
吏部尚書	-9.73437
猶有	-9.73465
拾遺	-9.73508
翻	-9.73512
字文	-9.7364
乾道	-9.7371
域	-9.73756
之屬	-9.73777
婁	-9.73841
閔	-9.73857
炳	-9.73873
於後	-9.73878
之制	-9.73984
子思	-9.74146
年六月	-9.74241
帶	-9.74341
凝	-9.7437
其父	-9.74432
十一月	-9.74444
溥	-9.745
名臣	-9.74648
墜	-9.74664
題云	-9.74716
八十	-9.74762
昏	-9.74807
歴官	-9.74853
算	-9.74861
禍	-9.74903
延熹	-9.74932
翔	-9.74942
盤	-9.74981
顔魯公	-9.74994
所撰	-9.75052
傳云	-9.75084
也此	-9.75105
事實	-9.75237
不言	-9.7533
即位	-9.75414
磨	-9.75435
伊	-9.75449
賴	-9.75493
丹陽	-9.75573
濬	-9.75597
皇朝	-9.75784
題曰	-9.75787
隷	-9.75821
喪服	-9.75823
誣	-9.75828
寸	-9.75873
年二月	-9.75914
其先	-9.75948
之前	-9.75968
以求	-9.75999
人物	-9.76021
逰	-9.76025
好古	-9.76066
二十八	-9.7624
千載	-9.76254
武王	-9.76256
六百	-9.76447
晁	-9.76468
家語	-9.76474
困	-9.76621
薨	-9.76624
紛	-9.76641
彪	-9.76661
禎	-9.76661
項	-9.76663
霞	-9.7668
十餘	-9.76742
州都督	-9.76774
學易	-9.76816
本於	-9.76896
經義	-9.76905
蹟	-9.76994
并書	-9.77016
一部六冊	-9.77068
錄一部一冊	-9.77079
竝	-9.77187
逐	-9.77187
泥	-9.77194
涉	-9.77223
小序	-9.77232
遺稿	-9.77295
沙門	-9.77351
二十年	-9.77409
然其	-9.77459
絳	-9.77598
熹平	-9.77612
後學	-9.77676
庻	-9.77691
斥	-9.77714
迎	-9.77756
匪	-9.77757
元豐	-9.77794
攸	-9.77855
副使	-9.7796
而成	-9.77995
冀	-9.78129
是故	-9.78176
何氏	-9.7822
人心	-9.78234
十五年	-9.78234
皆不	-9.78318
譌	-9.7833
而作	-9.78363
次第	-9.78369
不必	-9.78546
開皇	-9.78549
孚	-9.78651
立碑	-9.78867
簿	-9.78868
二書	-9.78876
快	-9.78889
從之	-9.78907
晨	-9.78919
鈎	-9.78962
使人	-9.78969
明年	-9.79059
小字	-9.79108
相與	-9.79153
集一部一冊	-9.79185
易經	-9.79208
自是	-9.79286
旋	-9.79302
陸氏	-9.79308
間有	-9.79385
也又曰	-9.79405
嘗為	-9.79432
走	-9.79449
陽人	-9.79454
傾	-9.79475
怒	-9.79481
雜記	-9.79517
儲	-9.79527
圖書	-9.7953
之失	-9.79577
何如	-9.7974
士大夫	-9.79745
綸	-9.79759
甞	-9.79802
有云	-9.79875
或以	-9.799
三十二	-9.79928
治平元年	-9.79953
藁	-9.80023
監察御史	-9.80043
東萊	-9.80083
排	-9.80086
乏	-9.80097
瓊	-9.80121
晁公武曰	-9.80136
班固	-9.80156
牟	-9.80194
㸃	-9.80252
行事	-9.80356
萬世	-9.80428
人事	-9.80476
綴	-9.8062
壊	-9.80667
蔽	-9.80691
劉歆	-9.80758
平生	-9.80905
僅存	-9.81082
邵子	-9.81095
二十五	-9.81107
淫	-9.81177
距	-9.81216
鉉	-9.8127
明皇	-9.81271
巢	-9.81279
節度使	-9.81303
蕃	-9.81316
居士	-9.8135
發揮	-9.81351
堯舜	-9.81532
帙	-9.81537
十翼	-9.81557
戰國	-9.81645
孺	-9.81676
上之	-9.8174
祁	-9.81777
争	-9.81813
谿	-9.81825
䟽	-9.81868
區	-9.81876
未及	-9.81899
南唐	-9.81951
祭酒	-9.81968
五字	-9.82049
記唐	-9.82073
之地	-9.82122
昭陵	-9.82136
鄭康成	-9.82182
同異	-9.8222
漢人	-9.82265
稷	-9.82421
菴	-9.82453
則知	-9.82499
後漢書	-9.82541
下有	-9.82576
九十	-9.82665
肥	-9.82728
一百卷	-9.82769
問答	-9.82856
詩話	-9.8296
粗	-9.82974
庵集	-9.82994
与	-9.82997
顧作	-9.8301
際	-9.83035
奕	-9.83046
僭	-9.83066
𦙍	-9.8314
議郎	-9.8325
訣	-9.83268
則曰	-9.83399
亦云	-9.83468
不知何	-9.83595
濳	-9.8362
羲之	-9.83627
禽	-9.83644
稱其	-9.83667
隅	-9.83669
爭	-9.83671
逵	-9.83687
誼	-9.83698
易説	-9.83752
首尾	-9.83805
詩傳	-9.83871
㑹昌	-9.83887
讀之	-9.83903
福建	-9.83941
嗟	-9.83982
目録	-9.84089
唐書	-9.84136
嘆	-9.84166
踐	-9.84295
歐	-9.84324
遲	-9.84336
𤣥宗	-9.84381
上有	-9.84463
集八卷	-9.84528
頒	-9.8466
庚	-9.84682
四時	-9.84735
孔作	-9.8483
雕	-9.84839
步	-9.84849
胥	-9.84858
迂	-9.84879
貧	-9.84891
黜	-9.84913
塘	-9.84946
戚	-9.84967
字體	-9.84987
槩	-9.8531
閭	-9.85419
枝	-9.85454
爽	-9.85509
洗	-9.85511
崩	-9.85512
劍	-9.85516
先生之	-9.85532
譜一卷	-9.85541
鄴	-9.85541
凖	-9.85548
東南	-9.85627
書院	-9.85637
一部十冊	-9.85639
易也	-9.85683
編次	-9.85695
淳熙	-9.85873
連山	-9.85933
之初	-9.86009
大令	-9.86018
片	-9.86095
倍	-9.86119
湘	-9.86134
騰	-9.86139
碧	-9.86174
二十三	-9.86226
君諱	-9.8651
字季	-9.86541
附於	-9.86546
尾	-9.86568
有司	-9.86668
以見	-9.86776
一曰	-9.86799
闕五	-9.86823
改元	-9.86831
詩序	-9.86841
赴	-9.86946
未盡	-9.86958
遼	-9.87074
經史	-9.87096
年七月	-9.87123
以是	-9.87144
之舊	-9.87203
十冊	-9.8721
何也	-9.87322
山陽	-9.87323
煥	-9.87335
肉	-9.87363
王羲之	-9.8737
是時	-9.87383
集六卷	-9.87401
廵	-9.87419
者必	-9.87486
徐浩	-9.87555
古本	-9.87636
㑹要	-9.87669
成王	-9.87693
三人	-9.87808
不明	-9.87836
舊唐書	-9.87905
勑	-9.87908
著述	-9.87929
小人	-9.87944
絲	-9.87955
所云	-9.87986
諸公	-9.88012
抱	-9.88038
序云	-9.88042
諤	-9.88053
乙未	-9.88064
銓	-9.88134
東海	-9.88157
鄭𤣥	-9.88162
皇甫	-9.8818
所引	-9.8823
謂其	-9.88415
知府	-9.88428
大字	-9.88458
音義	-9.88549
所聞	-9.88557
太傅	-9.88572
之序	-9.88588
安人	-9.88628
醇	-9.88635
無以	-9.88645
冢	-9.88649
或云	-9.88651
甲辰	-9.88665
鸞	-9.88688
儼	-9.887
完好	-9.88822
隆慶	-9.88876
自為	-9.88917
有二	-9.88935
都尉	-9.89055
毫	-9.89231
艱	-9.89237
䘮	-9.89237
播	-9.89242
耀	-9.89254
冩	-9.89263
碎	-9.89282
於世	-9.89311
䖍	-9.89318
敕	-9.89323
奉勅	-9.89389
錄目	-9.89473
取之	-9.89649
學之	-9.89655
仕至	-9.8975
城人	-9.89756
春秋傳	-9.8981
止於	-9.89836
者乎	-9.89898
咎	-9.89908
脫	-9.89914
不盡	-9.89916
壺	-9.89946
重刻	-9.89959
桐	-9.89961
儒學	-9.89984
宦	-9.90048
天文	-9.90126
噐	-9.90133
有一	-9.90155
之盛	-9.9024
同時	-9.90316
則又	-9.90392
也余	-9.90401
而不知	-9.90406
短	-9.90439
上元	-9.90455
坡	-9.90491
修撰	-9.90517
築	-9.9053
熟	-9.90544
摭	-9.90556
詩經	-9.90655
永興	-9.90746
終於	-9.90773
嵗月	-9.90819
開元十	-9.90892
生於	-9.90901
之誤	-9.90903
慶元	-9.90924
檢	-9.90961
東平	-9.90962
碑文	-9.91001
平原	-9.91006
安得	-9.91137
石本	-9.91168
古易	-9.91195
其上	-9.91198
滯	-9.912
𥘉	-9.91201
影	-9.91214
渉	-9.91227
制度	-9.91228
訖	-9.91261
學官	-9.91265
岑	-9.91267
自然	-9.91268
奎	-9.91301
杜預	-9.91373
孔子之	-9.91529
可也	-9.91557
周氏	-9.91558
嘉祐	-9.9159
漢碑	-9.91721
文帝	-9.9178
岡	-9.91811
以俟	-9.9182
旌	-9.91826
邁	-9.9187
咨	-9.91895
束	-9.91922
洲	-9.91927
堂集	-9.91949
或有	-9.91963
山東	-9.92144
疇	-9.92326
經學	-9.9236
與此	-9.92369
時有	-9.92392
秦漢	-9.92473
災	-9.92507
亟	-9.9255
豈不	-9.92557
類編	-9.9256
午	-9.9257
淳熈	-9.92572
若夫	-9.92586
伸	-9.92595
圃	-9.92635
真人	-9.9266
豈非	-9.92668
今本	-9.92768
治平	-9.92785
今觀	-9.929
常山	-9.92949
呂	-9.93099
州府志	-9.93118
之要	-9.93137
吏部	-9.93156
蝕	-9.93166
㝠	-9.93202
暴	-9.93236
㠯	-9.93245
的	-9.9325
久矣	-9.93289
沂	-9.93316
矣而	-9.9346
墓碑	-9.93811
施作	-9.93844
庠	-9.93854
寔	-9.93863
詭	-9.9388
犯	-9.93885
祗	-9.93916
沖	-9.93921
矩	-9.93952
熈寧	-9.93979
山川	-9.93983
天台	-9.94095
紫陽	-9.94147
分為	-9.9422
廟記	-9.94263
少卿	-9.94283
茅	-9.94413
其實	-9.94482
行之	-9.94484
乎其	-9.94536
瀆	-9.9458
仁義	-9.9458
恪	-9.94587
汴	-9.94623
大將軍	-9.94637
措	-9.94638
以成	-9.94647
何人	-9.94688
侍講	-9.94712
集古録	-9.94864
家藏	-9.95034
譯	-9.95239
穿鑿	-9.95245
八十一	-9.95297
杖	-9.95297
板本	-9.95303
朋	-9.95304
則其	-9.95316
爻辭	-9.95354
雖然	-9.95562
於經	-9.95765
其他	-9.95798
小篆	-9.95833
嘉興	-9.95888
而卒	-9.9589
禇	-9.95891
繩	-9.95903
遂以	-9.95924
譽	-9.95925
繪	-9.95937
迨	-9.95943
中書舍人	-9.95953
輝	-9.95955
一卷右	-9.95962
堪	-9.95993
字汝	-9.95996
中立	-9.96084
訣一卷	-9.9615
不知其	-9.96151
聖經	-9.96184
博學	-9.96195
從而	-9.96199
有功於	-9.96294
宣帝	-9.96365
慨	-9.96393
浙江	-9.96413
隱居	-9.96549
佑	-9.96663
潁川	-9.96713
或曰	-9.96865
廬陵	-9.96865
衢	-9.9697
前人	-9.97131
三巻	-9.97133
閏	-9.9714
雖有	-9.97276
剥	-9.97304
詮	-9.97307
湜	-9.97336
邈	-9.97378
出入	-9.97384
所立	-9.97435
洪武中	-9.97481
卦爻	-9.97507
産	-9.97527
經解	-9.97555
杭州	-9.97581
國之	-9.97834
猷	-9.97835
至元	-9.97927
圍	-9.97954
者多	-9.97957
僖	-9.97982
筠	-9.98016
石墨鐫華	-9.98019
揆	-9.98022
録二卷	-9.98036
考工記	-9.98045
潮	-9.98103
志一冊	-9.98109
譚	-9.98118
注釋	-9.98128
晁氏	-9.98139
建炎	-9.98151
一言	-9.98308
忌	-9.98454
精義	-9.98475
法師	-9.98508
程朱	-9.98636
迷	-9.98668
耆	-9.9868
眼	-9.9871
昆	-9.98715
□(	-9.98722
説文	-9.98727
胄	-9.98735
編年	-9.98807
三千	-9.98817
紹聖	-9.98837
布衣	-9.98871
鬼神	-9.98923
漢故	-9.98984
檢校	-9.98998
宛	-9.9901
金華	-9.99021
千古	-9.99082
左氏傳	-9.9922
裒	-9.99361
云爾	-9.99383
金陵	-9.99394
呼	-9.99402
住	-9.99409
傍	-9.99409
噫	-9.99409
員	-9.99428
什	-9.99436
遐	-9.99439
鮑	-9.99449
旬	-9.99453
健	-9.99469
沿	-9.9947
澹	-9.99472
提舉	-9.9952
經世	-9.99681
當以	-9.99738
七十二	-9.99751
河内	-9.99774
綱目	-9.99792
尚有	-9.99856
不免	-9.99882
淮南	-9.99906
之詩	-10.0008
好學	-10.001
屯	-10.001
艾	-10.0011
卧	-10.0011
東都	-10.0013
搜	-10.0015
悔	-10.0021
所有	-10.0024
教諭	-10.0024
吳氏	-10.0028
莫能	-10.0028
文武	-10.0033
高宗	-10.0042
九百	-10.0055
孝子	-10.0063
之書也	-10.007
聊	-10.0084
倚	-10.0086
詢	-10.0088
周公之	-10.0089
父母	-10.009
寕	-10.009
驛	-10.0091
先王	-10.0095
史官	-10.0108
都御史	-10.0118
二百四十	-10.0124
文辭	-10.0124
傳一卷	-10.0126
與前	-10.0133
可見者	-10.0136
詹	-10.0145
奮	-10.0155
仁宗	-10.0156
書傳	-10.0157
西漢	-10.0158
錦	-10.0161
諌	-10.0163
坦	-10.0167
其家	-10.0169
魏晉	-10.0173
進士第	-10.0175
三十年	-10.0178
大傳	-10.0185
而未	-10.019
中郎	-10.0192
故其	-10.02
可考	-10.02
不書	-10.0205
神道	-10.0207
補遺	-10.0214
舛	-10.022
河間	-10.0222
牽	-10.0224
不足以	-10.0226
獸	-10.0232
徧	-10.0232
羙	-10.0233
上柱國	-10.0238
晦庵	-10.024
謹案右一帖草書	-10.024
焦	-10.025
年十一月	-10.0262
之孫	-10.0264
古文尚書	-10.0281
二十九	-10.0281
乃知	-10.0283
得於	-10.0284
誤也	-10.029
穿	-10.0298
閱	-10.0302
抗	-10.0303
嬰	-10.0304
涼	-10.0304
年八月	-10.0304
叚	-10.0305
纔	-10.0306
顛	-10.0307
世家	-10.0309
若此	-10.0314
衍義	-10.0317
訥	-10.0317
門下	-10.032
今日	-10.0331
諸人	-10.0332
中書	-10.0342
自謂	-10.0348
正統	-10.0357
韓詩	-10.0363
新書	-10.0364
欣	-10.0364
兖	-10.0366
五日	-10.0367
曲禮	-10.0368
敵	-10.0377
㓜	-10.0377
戾	-10.0378
竭	-10.0378
易象	-10.0378
賁	-10.0379
揚雄	-10.0381
寢	-10.0381
精微	-10.0382
譙	-10.0383
聴	-10.0386
琰	-10.0389
毛公	-10.0391
▁立	-10.0398
列於	-10.0402
六藝	-10.0403
國家	-10.0403
第四	-10.0411
進退	-10.0412
他書	-10.0422
知之	-10.0427
不出	-10.0434
列國	-10.0437
鈐	-10.0448
緝	-10.045
為主	-10.045
賤	-10.0453
掩	-10.0454
鉅	-10.0454
者惟	-10.0455
一名	-10.0457
宮	-10.0457
莭	-10.0457
勇	-10.0459
台	-10.0462
榜	-10.0464
襄陽	-10.0464
鵬	-10.0466
是編	-10.0474
許氏	-10.0475
亦非	-10.048
已上	-10.0482
書中	-10.0493
遺書	-10.0494
西山	-10.0496
夏侯	-10.0511
者又	-10.0512
七録	-10.0514
年十月	-10.0521
大學士	-10.0523
璽	-10.0525
翰林院檢討朱彝尊撰	-10.0526
閑	-10.0526
麓	-10.0527
矜	-10.0528
熹	-10.0529
碩	-10.0529
京房	-10.053
不失	-10.0531
䑓	-10.0531
不一	-10.0532
大明	-10.0534
杭	-10.0535
秘閣	-10.0546
智永	-10.055
有功	-10.0555
二卷存	-10.0558
終始	-10.0562
尚存	-10.0564
未可	-10.0566
弊	-10.0574
不當	-10.0576
之世	-10.0578
釐	-10.0584
樂府	-10.0585
因以	-10.0588
十卷佚	-10.0589
别有	-10.0596
尼	-10.0598
披	-10.0599
金石文字記	-10.0604
徃徃	-10.0606
翠	-10.0606
森	-10.0608
速	-10.0609
濤	-10.0612
玊	-10.0612
永徽	-10.0612
祕閣	-10.062
先聖	-10.0621
詩云	-10.0621
百篇	-10.0626
無一	-10.0627
七篇	-10.0628
杜氏	-10.0628
康節	-10.063
紳	-10.0631
求其	-10.0635
開成	-10.0638
十六年	-10.0639
所自	-10.0645
别集	-10.0647
年號	-10.0647
字景	-10.0657
舉進士	-10.0659
之首	-10.0664
千里	-10.067
渭	-10.0671
所在	-10.0673
軸	-10.0676
凱	-10.0676
看	-10.0678
澗	-10.0678
霜	-10.0679
亦可	-10.068
瑛	-10.0681
綏	-10.0681
壤	-10.0681
邇	-10.0682
題額	-10.0684
瞿	-10.0684
郝	-10.0685
鉤	-10.0686
翰林院檢討朱彞尊撰	-10.0687
事迹	-10.0689
也自	-10.0691
眞蹟	-10.0691
會稽	-10.0697
大易	-10.0698
易說	-10.0703
好事者	-10.0708
通判	-10.0708
府君碑	-10.0712
可知	-10.0717
今之	-10.0717
宣王	-10.0717
自有	-10.0729
先王之	-10.0731
史傳	-10.0737
草木	-10.0742
漢魏	-10.0742
固有	-10.0743
世孫	-10.0746
割	-10.0747
二家	-10.0749
嶺	-10.0752
層	-10.0753
膺	-10.0757
不在	-10.0758
叶	-10.0759
曰此	-10.076
州刾史	-10.076
鬱	-10.0762
愧	-10.0763
記云	-10.0768
瓘	-10.0768
天之	-10.0771
是正	-10.0774
立石	-10.0777
明道	-10.0788
天道	-10.0788
則是	-10.0789
最為	-10.0794
其本	-10.0798
此其	-10.0799
六篇	-10.0808
多矣	-10.0819
禮經	-10.083
讖	-10.0832
怨	-10.0832
狄	-10.0834
冕	-10.0834
底	-10.0835
耿	-10.0836
傳授	-10.0836
魂	-10.0838
二碑	-10.0838
散騎常侍	-10.0839
歷	-10.0841
人所	-10.0845
莆田人	-10.0849
不與	-10.0853
吳興	-10.0862
無傳	-10.0863
林氏	-10.0868
非又	-10.0869
所稱	-10.0871
者何	-10.0871
二冊	-10.0871
隋書	-10.0872
太師	-10.0876
不仕	-10.0886
濶	-10.0906
萊	-10.0906
敎	-10.0908
四卷又	-10.0908
仿	-10.091
強	-10.0911
譬	-10.0913
展	-10.0913
淪	-10.0916
漁	-10.0916
昨	-10.0917
佚按	-10.0926
百年	-10.0932
以来	-10.0936
亦以	-10.0938
小戴	-10.094
議論	-10.0944
南北	-10.095
西南	-10.096
纂要	-10.0962
十里	-10.0966
於前	-10.0974
集十二卷	-10.098
葉氏	-10.0984
奴	-10.0989
激	-10.0991
八字	-10.0992
誨	-10.0992
那	-10.0993
証	-10.0996
欺	-10.0996
柯	-10.0996
曠	-10.0998
減	-10.0998
㫁	-10.1
十七年	-10.1
神明	-10.1005
其地	-10.1006
洛書	-10.1017
以傳	-10.1023
暇	-10.1027
不如	-10.1028
猶存	-10.1036
凡例	-10.104
山隂	-10.1044
㕘	-10.1056
以自	-10.1056
然亦	-10.1056
歆	-10.1059
之日	-10.1065
㢲	-10.1065
豪	-10.1067
帛	-10.107
溫	-10.1071
國子	-10.1072
掃	-10.1072
軰	-10.1073
四篇	-10.1074
淡	-10.1075
𦵏	-10.1077
孔廟	-10.1077
翰林院	-10.108
馬融	-10.1082
渙	-10.1083
立在	-10.1084
陰陽	-10.1097
人名	-10.1099
禪師碑	-10.1103
石室	-10.1104
得此	-10.1108
神道碑	-10.1118
第十	-10.1121
於朝	-10.1122
稽古	-10.113
附以	-10.1131
作春秋	-10.114
十七篇	-10.1145
之文也	-10.1149
練	-10.115
昉	-10.115
截	-10.115
冝	-10.1151
輪	-10.1152
祿	-10.1153
姦	-10.1153
遺文	-10.1156
可觀	-10.1157
訓導	-10.1165
不幸	-10.1169
損益	-10.1172
唐太宗	-10.1177
之精	-10.1181
公穀	-10.1181
莊子	-10.1182
翟	-10.1183
之志	-10.1185
二年立	-10.1185
睿	-10.1188
弓	-10.1191
諸篇	-10.1197
無復	-10.1201
疆	-10.1213
同而	-10.1215
貽	-10.1225
五篇	-10.1229
座	-10.123
鑄	-10.123
頤	-10.1234
貞元十	-10.1238
明矣	-10.1239
靖康	-10.1239
易道	-10.124
以正	-10.1245
詩一部一冊	-10.1246
人間	-10.1248
之教	-10.1248
二十六	-10.1256
序之	-10.126
同上	-10.1265
可疑	-10.1269
魯詩	-10.1277
年九月	-10.1278
者乃	-10.1281
以備	-10.1282
字缺人	-10.1283
成之	-10.1284
數百	-10.1284
唐史	-10.1288
六字	-10.1289
學者稱	-10.1293
之大	-10.1294
與夫	-10.131
倒	-10.131
鄰	-10.1312
澂	-10.1313
冡	-10.1313
陷	-10.1315
貌	-10.1315
鈞	-10.1316
燈	-10.1317
豹	-10.1319
亞	-10.132
則以	-10.132
千文	-10.1322
者非	-10.1323
於天	-10.1328
永平	-10.1329
叅軍	-10.1333
戸	-10.1335
季子	-10.1342
最後	-10.1346
不朽	-10.1347
流傳	-10.1357
不用	-10.1376
於時	-10.1381
於斯	-10.1381
傳者	-10.1381
一切	-10.1385
之體	-10.1387
衷	-10.1388
原本	-10.1391
少林寺	-10.1392
競	-10.1393
拔	-10.1393
莆田	-10.1395
侵	-10.1396
韜	-10.1397
王肅	-10.1398
弘	-10.1399
贅	-10.14
制作	-10.14
稚	-10.1402
廣平	-10.1406
武后	-10.1408
穀梁	-10.1409
二十二卷	-10.1413
累遷	-10.1417
補注	-10.1418
皆非	-10.1422
序稱	-10.1425
書在	-10.1427
孔子廟	-10.1427
字徳	-10.1429
名氏	-10.1435
師道	-10.1442
太史公	-10.1444
考異	-10.1466
十有二	-10.147
州碑記	-10.1472
皆在	-10.1472
作傳	-10.1478
癸丑	-10.1479
聖教序	-10.148
不知何人	-10.1482
警	-10.1483
晉書	-10.1483
諒	-10.1484
五官	-10.1486
琳	-10.1486
於天下	-10.149
大衍	-10.1496
四人	-10.1512
▁上	-10.1522
曰易	-10.1525
易義	-10.1528
所述	-10.1528
子敬	-10.1534
可讀	-10.1536
聖賢之	-10.1538
其末	-10.154
爲之	-10.1543
潁	-10.1545
廣東	-10.1546
劉作	-10.1547
而知	-10.1547
偃	-10.1553
不具	-10.1554
凡十	-10.1554
字彦	-10.1555
陽縣	-10.1555
瑩	-10.1556
韓愈	-10.1556
乃以	-10.1557
冦	-10.1558
弔	-10.1558
尔	-10.1558
禾	-10.156
大歴	-10.1561
綽	-10.1562
周書	-10.1565
丁丑	-10.1565
曷	-10.1567
甚多	-10.157
而非	-10.1578
一章	-10.1582
始末	-10.1582
大成	-10.1585
以至	-10.1588
所存	-10.1591
一一	-10.1599
圖經	-10.16
子雲	-10.1604
若是	-10.1607
毛氏	-10.1614
中和	-10.1619
昔人	-10.1624
𨽻釋	-10.1624
别為	-10.1627
陳留	-10.1632
六爻	-10.1635
長慶	-10.1635
粤	-10.1638
叛	-10.164
所編	-10.164
牙	-10.1643
甲午	-10.1644
孟氏	-10.1644
敘	-10.1644
陽令	-10.1645
暉	-10.1645
頂	-10.1647
忤	-10.1648
銀	-10.1649
勛	-10.1649
卞	-10.1653
漢興	-10.1655
中興書目	-10.1655
湖州	-10.1656
大儒	-10.1658
皆云	-10.1658
丘明	-10.166
華陽	-10.1663
老人	-10.1665
書并篆額	-10.1666
讀者	-10.1666
合而	-10.1672
古經	-10.1675
曹史	-10.1677
二十五卷	-10.1678
嵩山	-10.168
取諸	-10.1684
不行	-10.1692
皇祐	-10.1694
解佚	-10.1697
斯文	-10.1698
不存	-10.1702
丙	-10.1704
無錫人	-10.171
者如	-10.1711
古者	-10.1715
厭	-10.1717
此則	-10.172
開元中	-10.1722
矢	-10.1724
歿	-10.1727
札	-10.1727
壞	-10.1732
握	-10.1733
缺一	-10.1739
隠居	-10.1743
多有	-10.1744
聖人之道	-10.1745
文獻	-10.1747
一卷右皇朝	-10.1753
四冊	-10.1765
三十九	-10.1768
三十六卷	-10.1773
三公	-10.1775
眉	-10.1775
臆	-10.1781
當世	-10.1787
夫子之	-10.1803
廉	-10.1806
錢塘人	-10.181
烟	-10.1812
捨	-10.1814
考其	-10.1815
諧	-10.1819
漆	-10.182
存焉	-10.182
矯	-10.1821
二十巻	-10.1824
春秋者	-10.184
以字行	-10.1849
字孟	-10.185
水經	-10.185
之始	-10.1859
顔氏	-10.1859
莽	-10.186
四十八	-10.1862
春秋左傳	-10.1869
子厚	-10.187
陣	-10.1872
都督	-10.1881
經術	-10.1885
參政	-10.1887
朱子曰	-10.1893
聞之	-10.1894
太公	-10.1894
媚	-10.1897
張公	-10.19
字廷	-10.1904
館閣書目	-10.1907
又得	-10.1908
本草	-10.1918
王安石	-10.1934
合於	-10.1943
藏之	-10.1946
明初	-10.1963
大㫖	-10.1968
字公	-10.1971
▁京兆	-10.1971
不就	-10.1971
受命	-10.1973
球	-10.1973
序卦	-10.1975
卒於	-10.1976
跋曰	-10.1979
宋人	-10.1983
所能	-10.1987
随	-10.1988
浚	-10.1988
凉	-10.1988
詩文	-10.1989
葵	-10.199
龕	-10.1991
無所不	-10.1993
注解	-10.2
氏之	-10.2005
有三	-10.2012
光武	-10.2013
次之	-10.2013
洪武初	-10.2023
推之	-10.2023
十卷右皇朝	-10.2024
君名	-10.2029
名家	-10.2035
而止	-10.2036
三十四	-10.2039
所録	-10.2044
朱子之	-10.2049
呉氏	-10.2049
銜	-10.2054
之罪	-10.2055
三十三	-10.2059
鼔	-10.2065
第五	-10.2068
集三十卷	-10.2072
伍	-10.2074
洵	-10.2075
酌	-10.2076
雞	-10.2076
睦	-10.2078
淹	-10.2078
宴	-10.2079
尸	-10.2079
悖	-10.2079
兢	-10.2081
箴	-10.2081
薛氏	-10.2083
几	-10.2085
之門	-10.2091
而復	-10.2104
待制	-10.2108
曰春秋	-10.213
志十卷	-10.2133
舍人	-10.2133
内史	-10.2133
乎此	-10.2137
累官	-10.2148
又按	-10.2154
米云	-10.2154
宋志一卷佚	-10.2157
録之	-10.2161
課	-10.2161
娶	-10.2162
前代	-10.2165
瘦	-10.2166
錢氏	-10.2166
弑	-10.2166
公主	-10.2167
㤗	-10.217
彖象	-10.2171
邃	-10.2172
四川	-10.2173
吹	-10.2175
畿	-10.2178
深於	-10.2179
而已矣	-10.2184
三百六十	-10.2188
濟南	-10.2189
傳記	-10.2191
蘇氏	-10.2196
源流	-10.2201
三十五	-10.2214
者蓋	-10.2224
之謂	-10.2226
人萬厯	-10.2226
無異	-10.2241
皆無	-10.2242
大師	-10.2246
所未	-10.225
遍	-10.2252
皇極經世	-10.2253
无	-10.2253
奄	-10.2254
矣故	-10.2254
穴	-10.2254
㕔	-10.2255
皓	-10.2256
湮	-10.2256
蓮	-10.2256
有此	-10.2257
集説	-10.2258
揲	-10.2258
胡一桂曰	-10.2258
龎	-10.2259
諡曰	-10.226
范氏	-10.2262
佩	-10.2262
若干	-10.2263
淵源	-10.2268
真卿	-10.2271
二三	-10.2283
所以為	-10.2288
余嘗	-10.2289
丁未	-10.2301
傳於世	-10.2306
有餘	-10.2312
陸元輔曰	-10.2324
歸於	-10.2326
説卦	-10.2329
禧	-10.2331
郡人	-10.2339
經一部一冊	-10.2341
苗	-10.2342
狂	-10.2346
矦	-10.2348
紅	-10.2349
庚午	-10.235
醉	-10.2354
朴	-10.2355
而言	-10.2355
徐鉉	-10.2357
扶風	-10.2358
校尉	-10.2362
海内	-10.2367
中書令	-10.2371
唐虞	-10.2372
而得	-10.2374
年十二月	-10.2374
謁者	-10.2391
歙	-10.2393
百餘	-10.2397
及其	-10.2409
學校	-10.2409
治亂	-10.241
敞	-10.2421
先師	-10.2426
東陽	-10.2426
臻	-10.2432
廼	-10.2432
遒	-10.2433
僚	-10.2433
乂	-10.2433
揭	-10.2435
讐	-10.2436
存之	-10.2438
彞	-10.2439
樸	-10.244
淳祐	-10.244
盜	-10.2442
寺僧	-10.2443
詆	-10.2444
又謂	-10.2445
二千	-10.2448
言其	-10.245
錄一卷	-10.2453
嘗以	-10.2454
經筵	-10.2454
四十九	-10.2455
之難	-10.2461
明經	-10.2461
司馬遷	-10.2464
錢塘	-10.2465
用心	-10.2476
集義	-10.2477
説者	-10.2491
世所	-10.2492
書名	-10.2501
異端	-10.2504
湖廣	-10.2507
董氏	-10.2509
年譜	-10.2519
碑陰	-10.252
粲	-10.2521
王道	-10.2524
次序	-10.2525
穎	-10.2526
翊	-10.2528
氷	-10.2532
雋	-10.2534
忍	-10.2536
則為	-10.2538
公諱	-10.2541
兵部尚書	-10.2544
康成	-10.2545
上下經	-10.2548
集又	-10.2549
堂記	-10.2549
欲以	-10.2551
城縣	-10.2555
南海	-10.2556
軒集	-10.2561
字君	-10.2562
晚年	-10.2564
沈氏	-10.2564
亦未	-10.2573
郡太守	-10.2573
一也	-10.2574
中山	-10.2583
補之	-10.2583
安定	-10.2588
至此	-10.2593
十五日	-10.2594
其時	-10.2598
八篇	-10.2598
馬氏	-10.2603
其字	-10.261
四行	-10.2611
神仙	-10.2615
涯	-10.2619
貪	-10.262
僻	-10.262
俯	-10.262
寘	-10.2623
丙辰	-10.2624
血	-10.2624
工部尚書	-10.2632
不完	-10.2632
萬言	-10.2642
辛未	-10.2643
庚子	-10.2651
本紀	-10.2654
集賢	-10.2657
紀事	-10.2664
王莽	-10.2666
吳郡	-10.267
一代	-10.267
戊	-10.2682
四十二	-10.2686
拓	-10.2687
四明	-10.2693
十九卷	-10.2696
不甚	-10.2707
隔	-10.2709
添	-10.2709
其所以	-10.271
猶未	-10.2711
派	-10.2714
溢	-10.2714
徳政碑	-10.2716
傷寒	-10.2719
琅邪	-10.272
太常博士	-10.2722
祥符	-10.2729
今世	-10.2731
王君	-10.2734
甚詳	-10.2735
其於	-10.2748
政事	-10.2761
言也	-10.2761
印記	-10.2763
㑹通	-10.2765
變而	-10.2768
縣圖志二冊	-10.2786
僉	-10.2789
二公	-10.2791
将軍	-10.2794
出為	-10.2797
遁	-10.2803
蠻	-10.2804
迥	-10.2806
擅	-10.2808
響	-10.2809
廖	-10.2809
泯	-10.281
駿	-10.2812
逃	-10.2812
襃	-10.2813
和尚	-10.2815
是為	-10.2816
反覆	-10.2818
瑾	-10.2819
去取	-10.282
𨼆	-10.2822
諸國	-10.2825
臨安	-10.2829
率更	-10.2833
鄞縣人	-10.2833
七字	-10.2837
黄虞稷曰	-10.2837
六十卷	-10.2843
作者	-10.285
汾	-10.2861
史氏	-10.2867
舘	-10.287
功徳	-10.2872
事也	-10.2878
口義	-10.2879
本也	-10.288
語録	-10.2888
紀年	-10.2888
名字	-10.289
夲	-10.2895
疑之	-10.2895
訟	-10.2898
羡	-10.2899
年三月	-10.29
酬	-10.2901
匹	-10.2902
技	-10.2903
恥	-10.2904
暮	-10.2904
丙午	-10.2905
托	-10.2907
熙寧	-10.2909
滑	-10.2909
琦	-10.2909
三十一	-10.291
甲申	-10.2912
御史大夫	-10.2912
二十六卷	-10.2924
行行	-10.2927
周之	-10.2929
道也	-10.2932
心經	-10.2937
此石	-10.294
未備	-10.2941
年表	-10.2945
元帝	-10.2946
羣書	-10.2947
或謂	-10.2957
先君	-10.2958
上書	-10.2961
之亂	-10.2962
荆州	-10.2963
長洲人	-10.2966
部員外郎	-10.2967
其可	-10.2975
蜀人	-10.2977
義例	-10.2977
非其	-10.2978
經義考卷	-10.2979
金石録	-10.2979
長興	-10.299
同知	-10.2995
煙	-10.2996
膠	-10.2997
恢	-10.2998
姬	-10.3001
捐	-10.3001
廣漢	-10.3002
未易	-10.3004
而為之	-10.3008
劉禹錫	-10.3011
圖説	-10.3012
撰并正書	-10.3028
長樂	-10.3029
百姓	-10.3037
也若	-10.3039
經之	-10.305
古書	-10.3052
山中	-10.3054
等撰	-10.3061
魯相	-10.3064
明白	-10.3069
雲南	-10.3071
穀	-10.3075
判官	-10.3075
益州	-10.3077
甲戌	-10.3083
皮	-10.3083
自稱	-10.3085
其次	-10.3087
顯慶	-10.309
狩	-10.309
頗多	-10.3092
郢	-10.3092
讃	-10.3093
鋟	-10.3093
踈	-10.3094
憤	-10.3095
晝	-10.3095
陟	-10.3096
収	-10.3097
弁	-10.3097
癸酉	-10.3098
㧞	-10.3098
停	-10.3099
怡	-10.31
又何	-10.3101
名之曰	-10.3104
改為	-10.3107
志云	-10.3109
之迹	-10.3111
陜西	-10.3117
案文獻通攷	-10.3118
末有	-10.3138
所注	-10.314
其心	-10.3141
不可得	-10.3145
費氏	-10.3147
也予	-10.3147
參軍	-10.3147
當為	-10.3151
相類	-10.3153
二王	-10.3155
華亭	-10.3162
公子	-10.3167
解義	-10.3169
要義	-10.317
凡三	-10.3176
魯史	-10.318
欽定四庫全書經義考卷	-10.3181
集古錄	-10.3181
􁁊	-10.3183
消	-10.3184
匠	-10.3185
中國	-10.3185
師事	-10.319
禮之	-10.319
脉	-10.3191
二曰	-10.3191
葺	-10.3193
殁	-10.3194
徹	-10.3194
貨	-10.3195
嫌	-10.3195
悼	-10.3195
竄	-10.3196
黔	-10.3197
刋石	-10.3198
愍	-10.3198
璣	-10.3199
舊史	-10.3201
􁬿	-10.3201
駮	-10.3203
曇	-10.3206
夔	-10.3207
咸淳	-10.3207
六官	-10.321
稿又	-10.3213
筆意	-10.3213
其法	-10.3222
皇極	-10.3223
方氏	-10.3233
光和四年	-10.3235
無遺	-10.3236
則不	-10.3239
長子	-10.3241
嗜	-10.3246
於春秋	-10.3246
修身	-10.3255
始終	-10.3255
二本	-10.3267
其詞	-10.3276
亭記	-10.3288
哭	-10.3288
途	-10.3289
兌	-10.329
知者	-10.3292
道徳	-10.3293
顔師古	-10.3294
丕	-10.3295
刊	-10.3296
彥	-10.3296
惲	-10.33
三曰	-10.3302
綬	-10.3304
然也	-10.3306
其道	-10.3308
右軍書	-10.3309
三山	-10.3318
李斯	-10.3319
荀卿	-10.332
五十六	-10.3324
不著名氏	-10.3324
儒林傳	-10.3329
禮也	-10.333
别本	-10.3334
▁月	-10.3336
於是乎	-10.334
功曹	-10.3343
任城	-10.3344
門外	-10.3355
二十篇	-10.3363
自得	-10.3364
華山	-10.3366
之流	-10.3366
羲文	-10.3369
解一卷	-10.3369
樂記	-10.3376
五十五	-10.3377
至宋	-10.3377
東西	-10.338
童子	-10.3381
妃	-10.3387
邠	-10.339
曼	-10.3392
戊辰	-10.3393
善惡	-10.3395
其傳	-10.3395
浸	-10.3395
辛亥	-10.3397
杞	-10.3398
苐一千五百	-10.3399
霄	-10.34
三年立	-10.3405
待詔	-10.3417
王子	-10.3417
苐五百	-10.3422
識者	-10.3423
經者	-10.3423
新唐書	-10.3424
直學士	-10.3424
苐九百	-10.3429
表章	-10.343
造化	-10.3431
無極	-10.3433
苐四百	-10.3433
隋唐	-10.3434
神龍	-10.3434
皇后	-10.3438
百官	-10.3439
子弟	-10.3439
北史	-10.3447
以補	-10.3453
將以	-10.3456
於其	-10.3457
佚閩書	-10.3461
與其	-10.3465
管見	-10.3469
畜	-10.3474
成於	-10.3478
改正	-10.3478
不易	-10.348
東晉	-10.3481
四海	-10.3482
蔚	-10.349
麻	-10.3491
衮	-10.3491
不全	-10.3492
衝	-10.3493
牲	-10.3494
泛	-10.3495
辱	-10.3497
劄	-10.35
三體	-10.35
孫子	-10.3504
莫如	-10.3506
校正	-10.3506
大同	-10.3506
後序	-10.3508
光禄大夫	-10.351
國初	-10.351
鍾繇	-10.3516
一編	-10.3518
之遺	-10.3521
著於	-10.3523
苐一千七百	-10.3523
不自	-10.3526
所不	-10.3527
苐七百	-10.353
著之	-10.3532
年五月	-10.3532
風雨	-10.3533
安石	-10.3534
亦多	-10.3535
定為	-10.3536
苐一千四百	-10.3546
楚辭	-10.3553
志二冊	-10.356
精神	-10.3561
未幾	-10.3561
殘闕	-10.3569
東魏	-10.3572
書經	-10.3576
六卷存	-10.3583
受業	-10.3588
子貢	-10.3589
刀	-10.359
禱	-10.3591
貳	-10.3591
學於	-10.3593
鳩	-10.3594
蹈	-10.3595
鵠	-10.3595
閻	-10.3595
苐一千六百	-10.3595
宣徳	-10.3595
霍	-10.3596
卷首	-10.3596
栢	-10.3597
唱	-10.3598
瑗	-10.3599
牘	-10.3602
禦	-10.3603
壹	-10.3604
縉雲	-10.3605
愼	-10.3605
濫	-10.3605
集中	-10.3607
故也	-10.3608
始得	-10.361
其數	-10.3625
其㫖	-10.3625
真跡	-10.3627
傳而	-10.3628
歐公	-10.3633
員外郎	-10.3634
休寧人	-10.3641
一經	-10.3642
卷第	-10.3648
大象	-10.3654
以道	-10.3655
皆作	-10.3656
撰立	-10.3657
為文	-10.3657
縣西	-10.3659
碑銘	-10.3659
人皆	-10.3659
墓誌唐	-10.3669
有四	-10.3672
一部八冊	-10.3682
曺	-10.3689
投壺	-10.3691
二十八卷	-10.3691
卦之	-10.3693
輸	-10.3694
呉興	-10.3698
戊午	-10.3699
棲	-10.3699
陪	-10.37
歡	-10.3702
囊	-10.3703
乙酉	-10.3703
賦一卷	-10.3707
觸	-10.3709
綱領	-10.3711
十卷又	-10.3712
明帝	-10.3713
苐一千三百	-10.3713
七錄	-10.3714
六日	-10.3715
標題	-10.3725
文王周公	-10.3726
中間	-10.373
鄞人	-10.3733
者謂	-10.3733
辨之	-10.3738
矣今	-10.3742
七日	-10.3746
釋氏	-10.3747
至于	-10.3756
同志	-10.3756
筆削	-10.3758
而終	-10.3758
三聖	-10.3761
志作	-10.3762
邑人	-10.3765
武徳	-10.3766
善本	-10.3778
何休	-10.3781
二帖	-10.3785
尤為	-10.3789
二年進士	-10.3794
二子	-10.3796
暑	-10.3798
奉詔	-10.3799
豳	-10.38
緫	-10.38
齒	-10.38
寮	-10.38
两	-10.3802
滄	-10.3803
批	-10.3803
歐陽修	-10.3804
庚辰	-10.3804
俄	-10.3805
返	-10.3805
辛酉	-10.3805
䖏	-10.3807
顔真卿	-10.3807
巽	-10.3807
州郡	-10.3808
獵	-10.381
四卷存	-10.3811
像碑	-10.3811
舍利	-10.3814
景祐	-10.3816
廷尉	-10.3817
九江	-10.3817
莫知	-10.3819
之術	-10.3823
鄭樵	-10.3824
逺矣	-10.3826
條例	-10.3827
之至	-10.3834
大都	-10.3839
既而	-10.3844
溪集	-10.3845
齋稿	-10.3845
識其	-10.3848
其師	-10.3849
大暦	-10.3852
而不可	-10.3857
他日	-10.3859
旁通	-10.3864
揚州	-10.3865
乃云	-10.3873
玉海	-10.3879
事而	-10.3881
得而	-10.3881
作易	-10.3893
饗	-10.3895
建武	-10.3895
三十七	-10.3898
禮義	-10.3899
幕	-10.3904
拱	-10.3906
之目	-10.3906
猛	-10.3909
蕪	-10.3909
少府	-10.391
陛下	-10.3911
府學	-10.3911
脚	-10.3911
故以	-10.3911
萌	-10.3911
己酉	-10.3912
仇	-10.3912
漢唐	-10.3913
甚矣	-10.3914
存稿	-10.3915
自漢	-10.3915
膚	-10.3915
復有	-10.3916
涵	-10.3917
國子祭酒	-10.392
屠	-10.3921
二卷未見	-10.3921
侍御史	-10.3925
風俗	-10.3925
東北	-10.3933
縉	-10.3938
所當	-10.3944
丙子	-10.3945
掇	-10.3945
宗實録	-10.3947
無考	-10.395
十字	-10.3964
羣臣	-10.3966
不可不	-10.3969
永嘉人	-10.3976
南渡	-10.3984
觀碑	-10.3994
白雲	-10.3998
指歸	-10.4
文宗	-10.401
誡	-10.4011
騐	-10.4012
遂為	-10.4013
淂	-10.4014
姿	-10.4014
蓄	-10.4015
石鼓	-10.4016
呈	-10.4017
粟	-10.4018
考正	-10.4019
鐸	-10.402
遯	-10.4021
毒	-10.4021
晟	-10.4022
世所傳	-10.4022
知制誥	-10.4025
君子之	-10.4026
瓌	-10.403
歐陽詢	-10.4036
塔銘	-10.4042
禮者	-10.4053
名物	-10.406
桂陽	-10.4065
四十五	-10.4068
大徳	-10.4074
己未	-10.4078
通義	-10.4079
仲子	-10.4079
為序	-10.4081
行草	-10.4083
其理	-10.4086
經義考卷二百	-10.409
刋行	-10.4091
三十二卷	-10.4094
十卷右	-10.4099
十卷存	-10.4118
者葢	-10.4118
異者	-10.4118
元符	-10.4119
所刋	-10.4124
嶠	-10.4125
鉅鹿	-10.4125
圻	-10.4125
掖	-10.4126
侃	-10.4126
區區	-10.4127
序次	-10.4127
孝宗	-10.4127
宋槧	-10.413
褒貶	-10.413
璘	-10.413
瑜	-10.4133
巡撫	-10.4136
方一卷	-10.4137
趙孟頫	-10.4137
以授	-10.4139
中郎將	-10.4144
光禄	-10.4146
卷又	-10.4148
詹事	-10.4151
道德	-10.4157
崇寧	-10.4161
蘇州	-10.4162
講學	-10.4163
同州	-10.4164
王府	-10.4167
苐一千一百	-10.417
石柱	-10.4172
南山	-10.4175
集一卷唐	-10.4176
浮圖	-10.4176
婺源人	-10.4178
說文	-10.4184
撰人	-10.4185
▁洛	-10.4185
職方	-10.4186
因其	-10.419
翻刻	-10.419
靡不	-10.4191
欽定四庫全書經義考卷二百	-10.42
後天	-10.4201
可不	-10.4203
詩選	-10.4203
六冊	-10.4206
廣陵	-10.4208
院記	-10.421
六書	-10.4214
公孫	-10.4215
本文	-10.4221
十二巻	-10.4221
逾	-10.4222
長睿	-10.4224
四百	-10.4224
雁	-10.4226
指南	-10.4227
諷	-10.4228
冰	-10.4228
僊	-10.4229
綿	-10.423
荅	-10.423
世次	-10.4231
茲	-10.4231
吏部侍郎	-10.4231
揖	-10.4232
耽	-10.4232
而去	-10.4234
蓬	-10.4237
消息	-10.4238
浪	-10.4241
紹興中	-10.4241
卦變	-10.4241
性情	-10.4245
蘇軾	-10.4247
一篇存	-10.4247
成公	-10.4251
萬里	-10.4254
者或	-10.4258
字宗	-10.4263
疑其	-10.4269
二函	-10.4274
使君	-10.4279
金剛經	-10.428
其辭曰	-10.4282
志四卷	-10.4282
元和十	-10.4286
時為	-10.4286
所蔵	-10.4288
之氣	-10.4295
申公	-10.4296
一千	-10.43
亡矣	-10.43
三墳	-10.4303
大略	-10.4303
天命	-10.4305
言行	-10.4308
論語解	-10.4309
工部	-10.431
本㫖	-10.4313
九日	-10.4319
文志	-10.4319
不同者	-10.4323
已有	-10.4328
春秋左氏傳	-10.433
行狀	-10.4331
秘書	-10.4335
覈	-10.4337
詰	-10.4337
長於	-10.4338
所言	-10.4339
硯	-10.4339
勾	-10.434
倡	-10.434
袁氏	-10.4341
酉	-10.4342
恤	-10.4343
潞	-10.4343
剛柔	-10.4344
宼	-10.4344
禆	-10.4344
梧	-10.4344
冷	-10.4345
閉	-10.4346
劇	-10.4347
活	-10.4347
賾	-10.4348
棠	-10.435
盗	-10.4353
乾符	-10.4363
壬辰	-10.4366
帖中	-10.4371
鄉里	-10.4372
此卷	-10.4374
錄之	-10.4376
起於	-10.438
李公	-10.4381
景君	-10.4383
一卦	-10.4396
尤甚	-10.4401
之情	-10.4403
其序	-10.4406
而不能	-10.4406
也乃	-10.4411
廬山	-10.4411
并序	-10.4412
見聞	-10.4418
律吕	-10.4422
不通	-10.4427
授受	-10.4429
字皆	-10.443
齊人	-10.4432
于此	-10.4438
九州	-10.4438
作詩	-10.4447
槃	-10.4449
裘	-10.4455
幣	-10.4455
緩	-10.4455
紙墨	-10.4455
萬年	-10.4457
奈何	-10.4459
是經	-10.4462
藏本	-10.4464
既成	-10.4464
在今	-10.4467
經義考卷一百	-10.4469
宣公	-10.4473
集四十卷	-10.4474
不待	-10.4477
其功	-10.4478
更定	-10.4481
格物	-10.4484
未成	-10.4487
郭氏	-10.449
自言	-10.4494
民之	-10.4501
大戴禮	-10.4502
通釋	-10.4513
今人	-10.4513
郡王	-10.452
考證	-10.4521
可與	-10.4524
彭城	-10.4535
箕	-10.4536
書史	-10.4537
暦	-10.4539
逺近	-10.4543
百世	-10.4546
洋	-10.4553
江州	-10.4554
聨	-10.4558
欽定四庫全書經義考卷一百	-10.456
有大	-10.4561
周子	-10.4561
值	-10.4563
張子	-10.4563
相去	-10.4563
䕫	-10.4565
敝	-10.4565
吐	-10.4565
贍	-10.4565
瓚	-10.4566
摸	-10.4566
而能	-10.4567
一碑	-10.4567
不詳	-10.4569
橅印	-10.457
酷	-10.4572
稱之	-10.4573
祭祀	-10.4574
一旦	-10.4577
縱横	-10.4578
二十一年	-10.4586
其首	-10.4588
肅宗	-10.4591
為是	-10.4592
神農	-10.4593
世祖	-10.4595
西北	-10.4595
公卿	-10.4597
十卷未見	-10.4598
帝紀	-10.46
宋儒	-10.4606
法言	-10.4608
李邕	-10.4612
雖不	-10.4613
石幢	-10.4613
購	-10.4617
西京	-10.4622
見者	-10.4623
不肯	-10.463
文王之	-10.463
雜卦	-10.4632
十八年	-10.4633
乙丑	-10.4645
編修	-10.4646
雒陽	-10.4649
少師	-10.465
忠義	-10.465
得一	-10.4652
而易	-10.4657
大唐	-10.4658
不可讀	-10.4659
網	-10.4668
不勝	-10.4668
性命	-10.467
壬午	-10.4677
筌	-10.4677
亡其	-10.4678
蟲	-10.4679
驅	-10.468
彈	-10.4681
志一卷	-10.4682
涕	-10.4682
鎭	-10.4682
泣	-10.4682
瑶	-10.4686
棐	-10.4687
日用	-10.4688
彊	-10.4688
翰墨	-10.469
識語	-10.4692
其失	-10.4697
唐宋	-10.47
戲	-10.47
太倉	-10.4703
代宗	-10.4705
或以為	-10.4707
昔者	-10.4714
元史	-10.4714
久而	-10.4717
得以	-10.4724
去其	-10.4729
復為	-10.4733
附録	-10.474
者盖	-10.474
五十二	-10.4741
二十餘	-10.4742
世子	-10.4742
濮	-10.4751
江陵	-10.4757
之内	-10.4757
鄉人	-10.476
脈	-10.4764
之力	-10.4765
六巻	-10.4768
附㑹	-10.4768
遺事	-10.4769
重建	-10.4772
秀水人	-10.4774
數字	-10.4774
闕十	-10.4777
語錄	-10.4778
五冊	-10.478
耳目	-10.4783
逈	-10.4784
瘞鶴銘	-10.4788
碑隂題名	-10.479
摧	-10.479
桃	-10.4791
阜	-10.4791
嫁	-10.4793
荀子	-10.4793
淨	-10.4794
夬	-10.4794
躍	-10.4794
棟	-10.4794
冥	-10.4794
甄	-10.4794
覧	-10.4795
斬	-10.4795
霖	-10.4795
邸	-10.4799
癸未	-10.4799
部尚書	-10.4799
後序曰	-10.4799
禮部侍郎	-10.4801
灼	-10.4801
廓	-10.4803
栗	-10.4805
槐	-10.4806
第七	-10.4806
南宫	-10.4806
太極圖	-10.4807
延祐	-10.4809
提要	-10.4809
太僕	-10.4809
中平	-10.4811
大學中庸	-10.4814
江東	-10.4816
元嘉	-10.4821
相似	-10.4823
兖州	-10.4825
其前	-10.4826
萟	-10.4828
永和	-10.483
往來	-10.4833
頓首	-10.4839
一無	-10.4842
四十六	-10.4843
不可勝	-10.4844
伯思云	-10.4845
篆𨽻	-10.4849
山之	-10.486
三才	-10.4863
撰年	-10.4865
各以	-10.4867
亦然	-10.4868
海鹽	-10.4869
矣夫	-10.487
龍門	-10.4871
士元	-10.4873
偽作	-10.4877
抵	-10.4879
二十卷佚	-10.4886
喪禮	-10.4888
南康	-10.489
進士官	-10.4894
不能無	-10.4895
本之	-10.4898
不疑	-10.4898
映	-10.4902
所臨	-10.4903
初名	-10.4903
吁	-10.4903
此亦	-10.4907
偕	-10.4908
欵	-10.4909
逄	-10.491
壬戌	-10.491
恬	-10.4911
矧	-10.4911
畔	-10.4911
限	-10.4913
鎬	-10.4913
圜	-10.4917
灌	-10.4918
聖人之意	-10.4919
伊尹	-10.4922
曄	-10.4922
▁兆	-10.4924
八日	-10.4924
聖人之言	-10.4926
是則	-10.4927
河洛	-10.493
即此	-10.4931
本無	-10.4935
隋志一卷佚	-10.4936
九字	-10.4937
謝氏	-10.4939
元年立	-10.4941
久之	-10.4942
於心	-10.4943
水經注	-10.4945
筆勢	-10.4947
三卷佚	-10.4947
今此碑	-10.4953
校官	-10.4957
撰序	-10.4958
闕文	-10.496
年正月	-10.496
宗廟	-10.496
觀者	-10.4969
可信	-10.497
無有	-10.4972
曾孫	-10.4973
所收	-10.4974
所集	-10.4976
保大	-10.4985
王者	-10.4991
至是	-10.4992
聞見	-10.4994
外集	-10.4994
四家	-10.4994
安平	-10.4996
備矣	-10.4997
文正	-10.4997
㢘	-10.4998
而上	-10.5
龜山	-10.5001
庶子	-10.5005
序文	-10.5006
山西	-10.5008
之分	-10.5015
有意	-10.5016
􁮖	-10.5021
壻	-10.5021
婉	-10.5021
憾	-10.5022
恱	-10.5022
茍	-10.5023
山水	-10.5023
闔	-10.5023
瓦	-10.5023
范陽	-10.5023
墻	-10.5023
巍	-10.5025
誘	-10.5025
山隂人	-10.5027
戯	-10.5027
嘉興人	-10.5028
孔頴達	-10.5029
轍	-10.5029
枚	-10.503
蛇	-10.503
又為	-10.5031
無此	-10.5031
夾	-10.5032
冶	-10.5033
御史中丞	-10.5033
賈逵	-10.5034
禁中	-10.5035
魏了翁	-10.5036
列子	-10.5036
太保	-10.5036
數年	-10.5037
周孔	-10.5039
南軒	-10.5041
檀弓	-10.5041
閩縣人	-10.5041
皇太子	-10.5043
百九十	-10.5043
庿碑	-10.5048
則云	-10.5052
忠臣	-10.5057
然不	-10.5059
漢初	-10.5059
戊子	-10.5063
一年	-10.5064
大畧	-10.5065
於詩	-10.5076
成文	-10.5082
號曰	-10.5088
吾心	-10.5089
建中	-10.5091
李邕撰	-10.5091
十九年	-10.5091
天官	-10.5092
為正	-10.5094
河中	-10.5095
陜	-10.5096
千餘	-10.5104
之藴	-10.5106
草堂	-10.5112
福州	-10.5114
豈有	-10.5117
之過	-10.5122
九篇	-10.5128
小異	-10.5134
仆	-10.5136
兵部	-10.5137
敖	-10.5138
字時	-10.5139
愽	-10.514
現	-10.5141
嵗在	-10.5142
旻	-10.5143
河圖洛書	-10.5143
戊戌	-10.5144
斤	-10.5144
岸	-10.5147
阻	-10.5147
荷	-10.5149
督郵	-10.515
迺	-10.5151
虞世南	-10.5152
逝	-10.5152
羣經	-10.5152
元祐中	-10.5154
燭	-10.5154
之類是也	-10.5155
浙	-10.5155
泳	-10.5157
華亭人	-10.5158
惜其	-10.5166
卷末	-10.5168
十餘年	-10.517
至唐	-10.5173
字希	-10.5173
五言	-10.5175
三卷右	-10.5186
五經文字	-10.5188
於今	-10.5189
鄭注	-10.5193
論孟	-10.5206
具在	-10.5208
惟其	-10.5209
王制	-10.521
互體	-10.5211
神宗	-10.5215
未敢	-10.5216
己丑	-10.5217
科舉	-10.5219
其目	-10.522
或者	-10.522
興化	-10.5224
邵氏	-10.5226
高祖	-10.5226
故受之以	-10.5228
焉而	-10.523
禮儀	-10.523
辛丑	-10.5235
藏書	-10.5238
不可考	-10.5239
謹按	-10.5247
潘本	-10.5247
臨江	-10.5254
裝	-10.5257
群	-10.5261
蒼頡	-10.5262
巫	-10.5263
繋	-10.5263
曩	-10.5264
璞	-10.5265
馴	-10.5265
經典	-10.5266
概	-10.5266
輅	-10.5266
洎	-10.5266
態	-10.5267
紛紛	-10.5268
汲	-10.5268
蒐	-10.5271
説一卷	-10.5272
璋	-10.5275
宇文	-10.5277
甲寅	-10.5278
識之	-10.5281
文中子	-10.5283
從顧從義釋	-10.5284
頗有	-10.5284
科斗	-10.5287
大理	-10.5291
箕子	-10.5291
四十四	-10.5292
天下後世	-10.5295
録三卷	-10.5296
墓前	-10.5297
有五	-10.5301
無名	-10.5305
漢世	-10.5307
明徳	-10.531
崇文	-10.531
雒	-10.5316
定武本	-10.5326
等書	-10.5326
石渠	-10.5326
音訓	-10.5327
墓誌銘	-10.5328
唐初	-10.533
百餘年	-10.5334
之風	-10.5336
不稱	-10.5337
文云	-10.5341
華嶽	-10.5341
婦人	-10.5348
石壁	-10.5352
大和	-10.536
者多矣	-10.5362
考亭	-10.5364
景龍	-10.537
正之	-10.5372
如何	-10.5375
孔子曰	-10.5381
陁	-10.5382
凡五	-10.5383
實錄	-10.5383
瑕	-10.5384
圎	-10.5384
志墓曰	-10.5385
中庸大學	-10.5386
踵	-10.5388
桞	-10.539
洪氏	-10.5394
史惟則	-10.5395
布政使	-10.5396
椒	-10.5398
羽翼	-10.5398
三卷存	-10.5402
家有	-10.5402
大雅	-10.5403
者哉	-10.5404
諸儒之	-10.5408
内府	-10.5409
先賢	-10.5409
建昌	-10.541
而又	-10.5411
校定	-10.5415
文正公	-10.5423
常侍	-10.5426
正同	-10.5429
章帝	-10.5437
王公	-10.5438
先是	-10.545
近代	-10.5452
戴記	-10.5454
推官	-10.5457
立於	-10.5457
南昌	-10.5461
汪氏	-10.5463
存乎	-10.5465
具載	-10.5469
數千	-10.5474
宙	-10.5477
十一篇	-10.5479
已亡	-10.5482
故不	-10.5482
家傳	-10.5489
其字畫	-10.5493
頼	-10.5493
為博士	-10.5496
筭	-10.5505
正德	-10.5507
醜	-10.5507
纎	-10.5507
級	-10.5509
褚遂良	-10.551
删	-10.5511
畵	-10.5511
鄂	-10.5511
刹	-10.5512
枕	-10.5513
鬻	-10.5514
從掾位	-10.5514
亢	-10.5515
清江	-10.5515
苖	-10.5515
挾	-10.5516
國子司業	-10.5516
月見本文	-10.5516
岩	-10.5518
春秋左氏	-10.5518
泌	-10.5518
晉人	-10.5519
魁	-10.5521
福寺	-10.5524
之美	-10.5526
法度	-10.5531
訓釋	-10.5534
而爲	-10.5536
天王	-10.5539
外篇	-10.5547
深衣	-10.5552
可為	-10.5553
郡縣	-10.5554
亦曰	-10.5557
崑山人	-10.5563
易以	-10.5564
不能盡	-10.5568
十二字	-10.557
未之見	-10.5571
國風	-10.5572
者即	-10.5576
宋元	-10.5576
其身	-10.5585
學宫	-10.5587
史館	-10.559
不獲	-10.5595
温公	-10.5597
然自	-10.5599
釋之	-10.5615
四巻	-10.5615
光和	-10.5616
四象	-10.5622
詞一卷	-10.5624
清河	-10.5627
三十八	-10.5629
癸	-10.5632
爛	-10.5635
髪	-10.5635
戈	-10.5635
塔碑	-10.5635
濂	-10.5636
妖	-10.5636
冗	-10.5636
顏	-10.5637
核	-10.5638
謗	-10.5638
綺	-10.5639
辛巳	-10.5639
汨	-10.564
以便	-10.5641
碑首	-10.5642
繫之	-10.5646
磬	-10.5648
有道	-10.5649
進呈	-10.5653
戴氏	-10.5658
始有	-10.5662
詩説	-10.5665
宗正	-10.5665
東山	-10.5668
廟中	-10.5669
矣此	-10.567
時代	-10.5675
書雖	-10.5676
經緯	-10.5678
出其	-10.568
開封	-10.568
未免	-10.568
後之	-10.5682
唐張	-10.5683
口授	-10.5683
以待	-10.5691
訂正	-10.5692
傳曰	-10.5693
正其	-10.5695
撰月	-10.5696
而歸	-10.5698
餘皆	-10.5702
賢良	-10.5707
前世	-10.5711
字世	-10.5714
銑	-10.5714
内篇	-10.5717
師説	-10.5718
字惟	-10.5721
出而	-10.5724
未得	-10.5727
道者	-10.5727
學記	-10.5728
八巻	-10.5734
無他	-10.5734
字士	-10.5738
著易	-10.5743
使者	-10.5744
三朝	-10.5745
廣西	-10.5749
場	-10.575
不忍	-10.5753
異於	-10.5755
一事	-10.5756
梵	-10.5756
庿	-10.5759
遒勁	-10.5759
檄	-10.576
乙巳	-10.5761
刻本	-10.5761
檀	-10.5761
亭侯	-10.5763
黒	-10.5763
腹	-10.5764
王元美	-10.5764
聖人之心	-10.5765
遥	-10.5765
壬	-10.5766
糾	-10.5767
横渠	-10.5768
庚申	-10.5771
置之	-10.5773
鳳翔	-10.5774
山集	-10.5774
黄初	-10.5775
撰并行書	-10.5778
宗伯	-10.5781
通典	-10.5782
書畫	-10.5782
厯代	-10.5791
陏	-10.5793
未見陸元輔曰	-10.5795
注引	-10.5796
當在	-10.5798
一部十	-10.5799
此云	-10.5803
慨然	-10.5807
討論	-10.5815
不可復	-10.5818
矣其	-10.5821
七百	-10.5823
相承	-10.5827
世系	-10.5832
出自	-10.5835
故有	-10.584
此乃	-10.5844
見而	-10.585
龍興寺	-10.5853
天祐	-10.5861
官制	-10.5862
家塾	-10.5872
禊	-10.5875
所著有	-10.5876
失真	-10.5878
二卷佚	-10.5879
說卦	-10.588
百一十	-10.5882
臨川人	-10.5882
楹	-10.5883
變易	-10.5884
壬子	-10.5884
拾	-10.5886
但云	-10.5887
埋	-10.5887
憲宗	-10.589
恂	-10.5891
恠	-10.5891
開元二十	-10.5892
丑	-10.5893
諫議大夫	-10.5893
漫滅	-10.5893
獻王	-10.5893
複	-10.5894
瀛	-10.5894
朋友	-10.5895
法師碑	-10.5895
尚多	-10.5896
旗	-10.5896
贄	-10.5896
璹	-10.5897
駢	-10.5898
世宗	-10.5898
濕	-10.5899
校書郎	-10.5899
冉	-10.5899
惇	-10.59
廵撫	-10.5901
三冊	-10.5903
郗	-10.5905
隂陽之	-10.5905
則非	-10.5906
固已	-10.5907
珣	-10.5907
刑部尚書	-10.5907
渭南	-10.591
不若	-10.5911
王輔嗣	-10.5912
江都	-10.5914
目錄	-10.5915
之旨	-10.5916
與今	-10.5932
西安	-10.5933
纂疏	-10.5935
太康	-10.5936
銘曰	-10.5944
貢士	-10.5944
宣城	-10.5949
碑額	-10.595
無名氏	-10.5953
無可	-10.5954
之言曰	-10.5955
言者	-10.5961
正經	-10.5962
次子	-10.5965
載之	-10.5968
三卷又	-10.5969
自古	-10.597
其非	-10.5971
公榖	-10.5973
也至	-10.5975
四聖	-10.5975
余家	-10.5975
易有	-10.5975
徽宗	-10.598
天順	-10.5981
以及	-10.5985
入於	-10.5991
莫之	-10.5992
水利	-10.5999
其要	-10.6
筆畫	-10.6003
得意	-10.6005
解經	-10.6013
過之	-10.6013
王元	-10.6016
状	-10.6016
撰記	-10.602
拂	-10.6022
四十一	-10.6022
著作郎	-10.6023
易林	-10.6023
法一卷	-10.6024
答問	-10.6024
舅	-10.6025
攀	-10.6025
必以	-10.6027
凡二十	-10.6027
者豈	-10.6027
拒	-10.6029
草法	-10.603
苞	-10.603
鑰	-10.6031
楷書	-10.6032
陂	-10.6033
長睿云	-10.6033
以疾	-10.6034
三行	-10.6037
□□	-10.6045
四年立	-10.6045
可喜	-10.6046
天聖	-10.6051
究其	-10.6052
知有	-10.6056
以相	-10.6061
五人	-10.6062
茅山	-10.6064
數也	-10.6064
水火	-10.6073
詩稿	-10.6074
集古録云	-10.6076
世儒	-10.6078
主事	-10.608
江夏	-10.6086
其用	-10.6088
溺	-10.6088
宋時	-10.6091
字多	-10.6097
周易注	-10.6101
府長史	-10.6101
大道	-10.6102
太子太保	-10.6111
李陽冰	-10.6113
縣丞	-10.6113
疏義	-10.6114
為之注	-10.6127
其徒	-10.6128
二程	-10.6128
之暇	-10.613
不可得而	-10.6133
畧一卷	-10.6134
舊文	-10.614
春秋三傳	-10.6141
定本	-10.6146
以歸	-10.6149
學庸	-10.6149
擾	-10.6151
知名	-10.6151
大臣	-10.6154
炫	-10.6155
不取	-10.6156
司農	-10.6157
三易	-10.6158
它	-10.6158
董仲舒	-10.6158
妾	-10.6158
正書無書撰人姓名	-10.6159
泊	-10.6159
西安府	-10.6159
黑	-10.6162
檢討	-10.6164
勃海	-10.6165
楨	-10.6168
不暇	-10.6173
即其	-10.6178
成帝	-10.6179
不忘	-10.6185
人姓名	-10.6186
不至	-10.619
邵武	-10.6193
永康	-10.6201
諸家之説	-10.6202
未嘗不	-10.6204
典禮	-10.6205
也然則	-10.6206
丙戌	-10.621
常州	-10.6211
之實	-10.6222
所定	-10.6232
十三日	-10.6232
渡	-10.6242
性理	-10.6243
無足	-10.6244
筆力	-10.6247
不欲	-10.6251
一體	-10.6251
二十一卷	-10.6252
程傳	-10.6253
篇目	-10.6255
法書	-10.6256
裳	-10.6263
搨本	-10.6265
聰	-10.6267
誤以	-10.6268
立此碑	-10.6274
多所	-10.6275
侯相	-10.6277
志六卷	-10.6277
以告	-10.6278
纂言	-10.6279
東觀	-10.6282
扵	-10.6283
墨林快事	-10.6285
輦	-10.6285
峙	-10.6285
泐	-10.6286
平章事	-10.6287
璉	-10.6287
鞏	-10.6288
支離	-10.6289
煌	-10.629
樗	-10.629
非是	-10.629
晉江人	-10.6292
紂	-10.6293
醴泉	-10.6295
規模	-10.6295
菊	-10.6298
廸	-10.6299
兩漢	-10.6301
夏時	-10.6302
兵法	-10.6303
太常卿	-10.631
司馬光	-10.631
又作	-10.6311
載其	-10.632
要之	-10.6322
取士	-10.6325
其論	-10.6327
舉要	-10.6334
歲月	-10.6339
孝友	-10.6343
修邑	-10.6348
刪定	-10.635
嘗謂	-10.6351
其志	-10.6352
五星	-10.6356
夫婦	-10.6358
後唐	-10.6359
心法	-10.636
廣大	-10.6363
旁注	-10.6365
山林	-10.6369
考訂	-10.6371
闕六	-10.6371
江寧	-10.6376
魯國	-10.6381
卿大夫	-10.6384
也蓋	-10.6386
詔書	-10.6392
風雅	-10.6394
十有四	-10.6399
記曰	-10.6401
太𤣥經	-10.6402
此記	-10.6404
孔壁	-10.6409
皇象	-10.6411
碑刻	-10.6413
巾	-10.6416
小傳	-10.6417
遏	-10.6418
懲	-10.6418
奠	-10.6419
屑	-10.642
汎	-10.6422
扈	-10.6423
天宝	-10.6423
劔	-10.6423
韓擇木	-10.6424
買	-10.6424
栖	-10.6424
岱	-10.6425
䓁	-10.6426
栻	-10.6429
倩	-10.6429
自述曰	-10.643
淸	-10.643
璟	-10.6431
郡齋	-10.6433
可愛	-10.6433
啖趙	-10.6436
侍讀	-10.6447
十八篇	-10.645
▁年	-10.6451
仲舒	-10.6454
名賢	-10.6461
論其	-10.6462
景泰	-10.6464
至大	-10.6467
乾隆	-10.6468
睿宗	-10.6472
六卷又	-10.6474
賦詩	-10.6475
華嚴	-10.6489
天理	-10.6491
本作	-10.6496
四十三	-10.6498
武成	-10.6502
六行	-10.6505
存亡	-10.6508
其舊	-10.6509
濟隂	-10.6512
十三篇	-10.6514
卿撰	-10.6516
後為	-10.6527
所居	-10.6531
禮器	-10.6531
非聖人	-10.6532
稱為	-10.6536
筆記	-10.6544
諸王	-10.6544
所由	-10.6547
魏公	-10.6548
軻	-10.6548
也非	-10.6549
竦	-10.655
菩薩	-10.6552
僕射	-10.6552
寰宇	-10.6553
押	-10.6557
霧	-10.6557
赫	-10.6557
贛	-10.6558
鱗	-10.6558
文粹	-10.6558
為此書	-10.6559
案文獻通	-10.656
亰	-10.656
烝	-10.656
金薤琳琅	-10.6561
牢	-10.6563
募	-10.6563
唐明皇	-10.6565
一卷右唐	-10.6567
姤	-10.6567
珉	-10.6569
璠	-10.6573
太山	-10.6579
皆同	-10.6581
不可曉	-10.6581
今以	-10.6585
卷一百	-10.6591
初無	-10.6596
歌一卷	-10.66
豈可	-10.6603
十卷右唐	-10.6605
物也	-10.6606
摹刻	-10.6608
左僕射	-10.661
松江	-10.6612
十五篇	-10.6614
一册	-10.6618
韓氏	-10.6619
四十七	-10.6621
幢	-10.6635
所取	-10.6635
者猶	-10.6639
人少	-10.6639
闕補卷	-10.6644
中丞	-10.6645
顧氏	-10.6645
對曰	-10.6645
書一部一冊	-10.6646
泉州	-10.6648
詁	-10.6648
蜀郡	-10.6649
思之	-10.6649
予嘗	-10.6651
言易	-10.6662
其詩	-10.6667
為之説	-10.6668
繼之	-10.6669
卒贈	-10.667
來者	-10.6671
亦自	-10.6672
太上	-10.6674
微言	-10.6678
觀象	-10.6678
/)□(	-10.6681
按此	-10.6684
芬	-10.6689
枯	-10.6691
聖人之經	-10.6695
旱	-10.6698
理學	-10.6698
祇	-10.6698
則無	-10.6698
剔	-10.6699
之卦	-10.67
吕祖謙	-10.67
壬寅	-10.67
不著撰人名氏	-10.6705
沐	-10.6705
漢𨽻	-10.6706
沿革	-10.6706
爲之序	-10.6708
滎陽	-10.6709
延夀	-10.6711
凡百	-10.6713
黄門	-10.6716
七經	-10.6716
一首	-10.6716
典籍	-10.6717
趙岐	-10.672
經以	-10.6722
太平興國	-10.6723
劉公	-10.6725
嗟乎	-10.6726
權衡	-10.6728
通解	-10.6729
江隂	-10.6729
得罪	-10.673
學生	-10.6732
十七帖	-10.6732
相繼	-10.6736
建隆	-10.6737
聖教	-10.6743
引之	-10.6744
十六篇	-10.6748
不獨	-10.6752
帝王之	-10.676
也哉	-10.6762
史云	-10.6765
慶厯	-10.6777
諸賢	-10.6781
極其	-10.6786
武功	-10.6787
集本有	-10.6789
見前	-10.6793
不亦	-10.6798
六典	-10.6799
天人	-10.681
何必	-10.681
江左	-10.6813
不審	-10.6814
十有八	-10.6815
以下原	-10.6817
不起	-10.682
至矣	-10.6821
百八十	-10.6821
不容	-10.6824
建陽	-10.6826
乙亥	-10.6829
搆	-10.6832
飬	-10.6833
嚮	-10.6834
能盡	-10.6835
剖	-10.6835
詎	-10.6835
㳟	-10.6836
刋本	-10.6836
邯鄲	-10.6836
釋經	-10.6836
参	-10.6837
黯	-10.6838
讚	-10.6838
稼	-10.6839
据	-10.6839
尊師	-10.684
不著書人名氏	-10.6842
甲乙	-10.6842
則亦	-10.6842
􁭆	-10.6842
彬	-10.6843
並行	-10.6844
斑	-10.6844
有得	-10.6844
閬	-10.6844
之禍	-10.6845
泗	-10.6846
二條	-10.6847
顒	-10.6848
兵部侍郎	-10.6848
嘯	-10.6848
宋志十卷佚	-10.6852
題字	-10.6852
嘉祐八年	-10.6859
縣尉	-10.6862
庚戌	-10.6867
矣又	-10.6868
絳帖	-10.6872
黄庭	-10.6875
刋誤	-10.6885
倦	-10.6887
已見	-10.6888
物之	-10.6889
五十三	-10.6892
乾元	-10.6893
平王	-10.6893
言詩	-10.6895
為本	-10.6897
彖傳	-10.69
武夷	-10.6902
余氏	-10.6907
終身	-10.6911
文子	-10.6915
閣帖	-10.6917
象之	-10.692
集註	-10.6928
集成	-10.6933
七十五	-10.6935
疑是	-10.6938
文忠	-10.6939
故民	-10.6942
其門人	-10.6943
之次	-10.6944
延之	-10.6953
馮氏	-10.6958
曰孔子	-10.6958
事類	-10.6959
為最	-10.6959
召為	-10.6962
六十一	-10.6964
著其	-10.6966
遺意	-10.6967
元章	-10.6973
掘	-10.6975
崧	-10.6976
剝	-10.6976
朂	-10.6977
夙	-10.6981
孟軻	-10.6982
隣	-10.6982
彝	-10.6982
琮	-10.6983
釣	-10.6983
奬	-10.6983
侈	-10.6984
電	-10.6984
甥	-10.6984
疵	-10.6985
傳義	-10.6985
苻	-10.6985
廣政	-10.6988
燔	-10.6988
點	-10.6989
道徳經	-10.6989
髓	-10.699
契丹	-10.699
下邳	-10.699
無逸	-10.6991
璜	-10.6993
十二卷存	-10.6993
各自	-10.6993
戊申	-10.6994
昶	-10.6996
之異	-10.6997
謹案右一帖行草	-10.6997
繁露	-10.6998
曰六經	-10.7001
何所	-10.7002
曲阜	-10.7007
在於	-10.701
亦猶	-10.701
不得不	-10.7011
粲然	-10.7011
舉其	-10.7013
登科	-10.7015
其形	-10.7016
當有	-10.7025
十二卷又	-10.7025
碑碣	-10.7026
錯簡	-10.7026
一筆	-10.7032
亳	-10.7034
卓然	-10.7035
先生文集	-10.7035
南豐	-10.7047
先生碑	-10.7049
曽孫	-10.705
命工	-10.7054
但有	-10.7056
用力	-10.7061
韻語	-10.7071
由此	-10.7072
真定	-10.7072
孔氏之	-10.7074
孔孟	-10.7088
録四卷	-10.7092
而弗	-10.7099
洙	-10.7102
説經	-10.7106
所出	-10.7109
衆説	-10.7113
年八十	-10.7113
陳君	-10.7114
何哉	-10.7118
十有七	-10.7119
灾	-10.7119
燾	-10.712
皆可	-10.7122
勃	-10.7125
丁巳	-10.7126
靣	-10.7126
恊	-10.7126
俸	-10.7126
寃	-10.7127
突	-10.7127
蹤	-10.7127
讖緯	-10.7128
从	-10.7128
囘	-10.7129
渤海	-10.7129
繡	-10.713
蒸	-10.713
罰	-10.713
隕	-10.713
丁亥	-10.713
枉	-10.7131
儻	-10.7131
沃	-10.7131
甘露	-10.7131
悌	-10.7132
惟此	-10.7132
郭璞	-10.7132
仁傑	-10.7135
惜乎	-10.7136
知所	-10.7136
登進士第	-10.7137
瑣	-10.714
功臣	-10.714
八冊	-10.7145
第八	-10.7146
收藏	-10.715
數百年	-10.7159
惜哉	-10.7161
祕書	-10.7162
通用	-10.7162
九成	-10.7163
臨海	-10.7163
沈約	-10.7163
始皇	-10.7166
世人	-10.7168
年七十	-10.7169
御府	-10.7174
有異	-10.7177
後儒	-10.7181
載於	-10.7182
者莫	-10.7185
五十七	-10.7187
年四月	-10.7187
吳越	-10.719
博陵	-10.7192
正始	-10.7193
鄒氏	-10.7196
豐城人	-10.7199
縣東	-10.72
諸侯之	-10.7202
視之	-10.7204
作序	-10.7206
幽州	-10.721
大戴	-10.7211
天子之	-10.7214
他人	-10.7215
博古	-10.7216
尚未	-10.7223
肅公	-10.7224
海鹽人	-10.7225
性之	-10.7227
孔子廟碑	-10.7227
三百篇	-10.7227
儀注	-10.7229
句解	-10.7234
尚書郎	-10.7237
篇首	-10.7237
國學	-10.7238
篇目同前	-10.7242
音釋	-10.7242
令人	-10.7244
之職	-10.725
撰并	-10.7252
後集	-10.7253
元結	-10.7255
攷之	-10.7255
濓	-10.7256
志二卷	-10.7256
自唐	-10.7256
墨子	-10.7258
易圖	-10.7264
榻	-10.7264
㑹善寺	-10.7266
緜	-10.7267
灰	-10.7268
侗	-10.7268
劉子	-10.727
和元年	-10.7273
憶	-10.7273
換	-10.7274
六壬	-10.7274
韓退之	-10.7274
攜	-10.7275
蘄	-10.7275
錯綜	-10.7275
凡四	-10.7276
迪	-10.7276
穹	-10.7277
繕	-10.7278
幅	-10.7278
開府儀同三司	-10.7279
熱	-10.728
桀	-10.7281
之位	-10.7283
亐	-10.7283
姊	-10.7285
賈誼	-10.7286
左丘明	-10.7288
廙	-10.7288
曲江	-10.7288
獲麟	-10.7289
廣川	-10.7289
德政碑	-10.7289
時事	-10.7292
元年十月	-10.7292
小楷	-10.7295
上闕	-10.7299
大守	-10.7299
不啻	-10.7301
辨正	-10.7308
拓本	-10.7309
不同而	-10.731
祠堂	-10.731
魏志	-10.7312
詩者	-10.7312
皆為	-10.7313
安帝	-10.7316
主於	-10.7317
此銘	-10.7317
栁公權	-10.7319
不惟	-10.7321
成此書	-10.7326
稿一卷	-10.7326
邑令	-10.7327
庶人	-10.7328
張仲	-10.7331
并隂	-10.7334
肯	-10.7335
攷作	-10.7339
平陽	-10.7339
古人之	-10.7342
秦火	-10.7342
也惟	-10.7342
摹本	-10.7343
百餘字	-10.7344
碑中	-10.7344
八卷又	-10.7347
有九	-10.7349
廣韻	-10.7354
仁夀	-10.7355
行而	-10.7358
特進	-10.736
所錄	-10.7367
昭明	-10.7368
有兩	-10.7369
始以	-10.7369
録十卷	-10.7369
二年二月	-10.7372
三載	-10.7377
易簡	-10.7377
於後世	-10.7377
以知	-10.738
元初	-10.738
為經	-10.7383
附益	-10.7385
孔門	-10.7387
成編	-10.739
翺	-10.7393
節要	-10.7396
舜典	-10.7396
一卷唐	-10.7396
之子也	-10.7396
不知所	-10.74
台州	-10.7403
比干	-10.7411
焉則	-10.7415
構	-10.7417
逍遥	-10.7418
廨	-10.7419
沔	-10.7419
售	-10.7419
戊寅	-10.7422
戍	-10.7423
離騷	-10.7424
河間獻王	-10.7424
税	-10.7425
詡	-10.7425
冨	-10.7426
百二十	-10.7426
祺	-10.7428
洪邁	-10.7429
准	-10.7429
武陵	-10.7432
監本	-10.7433
柴	-10.7434
家禮	-10.7435
追贈	-10.7438
之詳	-10.7439
有序	-10.7441
出于	-10.7442
山房	-10.7444
五代史	-10.7445
楊君	-10.7446
蘭陵	-10.7448
大德	-10.7451
西嶽	-10.7451
七十六	-10.7453
而求	-10.7455
曹氏	-10.7456
魯人	-10.7456
諸葛	-10.7458
傳寫	-10.7461
鮮于	-10.7463
曽祖	-10.7467
使學者	-10.7467
未聞	-10.7468
始知	-10.747
三年正月	-10.7471
呉郡	-10.7471
未之	-10.7471
常熟人	-10.7473
感應	-10.7474
呉越	-10.7479
流俗	-10.7479
郡國	-10.7487
温州	-10.7488
九疇	-10.7494
章草	-10.7494
揚子	-10.7499
用事	-10.7501
延平	-10.7507
威宗	-10.7509
篆文	-10.7518
所作也	-10.7524
雜説	-10.7524
州教授	-10.7527
先儒之	-10.7527
貞觀中	-10.7527
於石	-10.7529
立言	-10.7532
内有	-10.7537
金華人	-10.7539
之極	-10.754
宜興	-10.7543
旭	-10.7549
教人	-10.7552
勒石	-10.7553
詳矣	-10.7555
唐末	-10.7558
士之	-10.756
五巻	-10.7562
書一卷	-10.7562
象山	-10.7562
也因	-10.7563
者當	-10.7563
用筆	-10.7564
以禮	-10.7565
合之	-10.7566
經也	-10.757
丙申	-10.7571
絃	-10.7571
芸	-10.7571
所著也	-10.7571
閎	-10.7572
殫	-10.7574
磨崖	-10.7574
少保	-10.7575
宸	-10.7577
丁酉	-10.7577
顥	-10.7577
杲	-10.7578
以致	-10.7579
默	-10.7579
陀	-10.7579
以進	-10.7581
船	-10.7582
意者	-10.7582
蹇	-10.7582
第六	-10.7583
至徳	-10.7583
僑	-10.7584
户部尚書	-10.7585
瑟	-10.7585
可見矣	-10.7587
受禪	-10.7588
六十五	-10.7591
亡名氏	-10.7595
之治	-10.7597
災異	-10.7597
叔敖	-10.76
附見	-10.7601
堂稿	-10.7601
一字石經	-10.7602
書賈	-10.7603
之弟	-10.7606
卷一	-10.7609
之樂	-10.761
紀聞	-10.7611
自此	-10.7613
十有六	-10.7618
佚江西通志	-10.7623
可得而	-10.7625
微㫖	-10.7627
地官	-10.7639
附之	-10.7647
中孚	-10.7648
似是	-10.7649
受之	-10.765
開寳	-10.7653
城南	-10.7653
新建	-10.7654
舊有	-10.7656
為此	-10.7657
其墓	-10.7659
聖門	-10.7662
其半	-10.7663
嵗次	-10.7666
所進	-10.7668
辭而	-10.7671
風流	-10.7677
武平	-10.7678
部郎中	-10.7684
長洲	-10.7684
曰先生	-10.7688
襄公	-10.7688
修春秋	-10.7688
咸平	-10.7691
為一書	-10.7692
所用	-10.7692
歲在	-10.7694
書佐	-10.7695
刻錄	-10.7706
漳	-10.7708
千金	-10.7709
理之	-10.7711
汶	-10.7713
無非	-10.7717
架	-10.7719
師友	-10.772
逼	-10.7722
二尺	-10.7722
一句	-10.7723
貯	-10.7724
需	-10.7725
巷	-10.7726
攘	-10.7727
饑	-10.7727
鋭	-10.7727
汗	-10.7728
駱	-10.7728
庚寅	-10.7729
犬	-10.7729
浄	-10.773
紋	-10.773
蘊	-10.773
繕寫	-10.7731
上帝	-10.7731
何其	-10.7731
牓	-10.7732
奉使	-10.7733
馮翊	-10.7733
黍	-10.7733
撮	-10.7733
不得其	-10.7736
王世貞	-10.7737
文字磨滅	-10.7738
倡和	-10.7739
數之	-10.7741
彖辭	-10.7744
記三卷	-10.7748
偽蜀	-10.775
古字	-10.775
作此	-10.775
故名	-10.7752
廟堂	-10.7752
盛行	-10.7755
玉堂	-10.7757
撰王	-10.7758
後來	-10.7758
太后	-10.7764
今改正	-10.7764
郡公	-10.7765
分𨽻	-10.7771
而盡	-10.7774
獨存	-10.7777
諸臣	-10.7779
正叔	-10.778
登第	-10.7783
愛之	-10.779
刋之	-10.7792
明府	-10.7793
平江	-10.7796
承天	-10.78
南安	-10.7808
長編	-10.781
十有五	-10.7811
誤矣	-10.7811
桓帝	-10.7818
一條	-10.7822
名山	-10.7822
長卿	-10.7823
發微	-10.7825
太白	-10.7826
專門	-10.7831
分門	-10.7831
之微	-10.7836
於上	-10.7838
梁武帝	-10.784
一節	-10.7841
無事	-10.7846
合為一	-10.7849
誠意	-10.785
以此知	-10.7852
在焉	-10.7858
舊聞	-10.7861
秀水	-10.7862
筵	-10.7864
之疑	-10.7865
東宫	-10.7865
以通	-10.787
猶在	-10.787
宜其	-10.7871
十有三	-10.7874
于朝	-10.7875
歛	-10.7876
豆	-10.7877
書云	-10.7878
揮	-10.7878
暗	-10.7879
弇州山人稿	-10.7879
坎離	-10.7879
可知矣	-10.788
狹	-10.7881
驟	-10.7881
揣	-10.7881
紊	-10.7882
窟	-10.7882
劾	-10.7883
冬至	-10.7883
彩	-10.7883
真宗	-10.7883
替	-10.7884
祉	-10.7884
填	-10.7884
者固	-10.7886
勵	-10.7887
怠	-10.7887
頡	-10.7888
米芾	-10.7888
緑	-10.7888
禕	-10.7888
稾	-10.7889
闇	-10.7889
鴈	-10.7889
襃貶	-10.7889
字長	-10.7891
嶧山	-10.7891
憑	-10.7891
弦	-10.7892
捷	-10.7892
挈	-10.7892
崔氏	-10.7893
一部二十冊	-10.7893
秘書監	-10.7894
精妙	-10.7896
男女	-10.7897
有年	-10.7898
集十五卷	-10.7899
𢎞農	-10.7902
歌詩	-10.7903
書如	-10.7903
三字石經	-10.7905
卷三	-10.7906
註疏	-10.7907
文忠公	-10.7908
嶺南	-10.791
千秋	-10.7911
為宗	-10.7911
二傳	-10.7912
賢者	-10.7913
可辨	-10.7916
獨孤	-10.792
辨其	-10.7923
不成	-10.7923
此語	-10.7923
好惡	-10.7923
僅有	-10.7927
僉事	-10.7928
五十一	-10.7931
青田	-10.7931
非敢	-10.7935
以己意	-10.7935
書籍	-10.794
墓銘	-10.7941
纂修	-10.7941
臨海人	-10.7943
元氏	-10.795
女子	-10.7952
諸本	-10.7953
去之	-10.7955
眉山	-10.796
當日	-10.796
羅氏	-10.7963
潘氏	-10.7964
歐陽氏	-10.7968
贈太師	-10.7972
紀功	-10.7978
刑部	-10.7984
説詩	-10.7987
一百六十	-10.7989
世俗	-10.799
北方	-10.799
以盡	-10.7991
肖	-10.7994
之例	-10.7995
而反	-10.7996
浙東	-10.7997
每行	-10.8
道人	-10.8003
一百二十	-10.8004
五帝	-10.8005
佚後漢書	-10.8007
不可見	-10.8008
七八	-10.8009
集七卷	-10.8013
篇第	-10.8014
日記	-10.8018
質之	-10.8019
也孔子	-10.802
而自	-10.8022
以教	-10.8023
字敬	-10.8027
而傳	-10.8031
撰正書	-10.8032
師古	-10.8033
彖象文言	-10.8036
蠶	-10.8036
湏	-10.8038
㨿	-10.8038
之善	-10.8038
十二卷佚	-10.8039
憚	-10.8039
固不	-10.8039
濵	-10.804
滔	-10.8041
奢	-10.8042
未安	-10.8043
貝	-10.8043
峴	-10.8043
五十四	-10.8044
遡	-10.8044
順帝	-10.8045
緣	-10.8046
撰十	-10.8046
椿	-10.8047
括蒼	-10.8048
㐮	-10.8048
嘉禾	-10.8049
嫡	-10.8049
鞠	-10.8049
軍節度	-10.805
曰昔	-10.8051
琅琊	-10.8052
而不及	-10.8055
杯	-10.8056
㪚	-10.8056
嘉善人	-10.8057
撰并八分書	-10.8058
内侍	-10.8059
太學博士	-10.8061
塾	-10.8064
千五百	-10.8064
勉齋	-10.8067
衛尉	-10.8072
百三十	-10.8074
以别	-10.8075
句容	-10.808
朝夕	-10.8081
最多	-10.8083
千百	-10.8085
顧從義作	-10.8087
公羊傳	-10.8089
十有一	-10.8091
是謂	-10.8102
刪去	-10.8103
萬一	-10.8112
六十九	-10.8114
此字	-10.8122
仁和人	-10.8124
執政	-10.8125
東京	-10.8126
受易	-10.8126
之弊	-10.8129
證之	-10.8131
未濟	-10.8132
十日	-10.8132
必先	-10.8132
歸之	-10.8133
㑹元	-10.8134
在其中	-10.8135
趙有	-10.8135
熹平四年	-10.8136
墨本	-10.8141
皆是	-10.8143
泰定	-10.8151
杜詩	-10.8152
謂是	-10.8153
齊魯	-10.8154
陽冰	-10.8162
加以	-10.8164
宗室	-10.8164
象占	-10.8167
讀書志	-10.8176
敬之	-10.818
軾	-10.8183
術數	-10.8184
比之	-10.8186
塲	-10.8186
歸田	-10.8187
又次	-10.8188
圖說	-10.8188
李陽氷	-10.8188
規矩	-10.819
七十三	-10.8193
飭	-10.8196
犧	-10.8196
叩	-10.8197
覃	-10.8197
蠡	-10.8199
四曰	-10.82
冺	-10.82
靳	-10.8203
効	-10.8203
斜	-10.8204
籖	-10.8205
鶚	-10.8205
衙	-10.8205
奭	-10.8206
璿	-10.8206
董真卿曰	-10.8207
啓䝉	-10.8207
滌	-10.8207
寤	-10.8208
而此	-10.8208
壘	-10.8208
齋先生	-10.821
撰李	-10.8211
琛	-10.8212
社稷	-10.8212
笥	-10.8212
不止	-10.8212
䜟	-10.8213
姑蘇	-10.8213
濠	-10.8214
益州太守	-10.8214
地名	-10.8216
一石	-10.8219
藏於	-10.822
毓	-10.822
千頃堂書目卷	-10.8221
泰誓	-10.8221
人倫	-10.8222
楊公	-10.8224
長短	-10.8226
七錄一卷佚	-10.8227
甲科	-10.8228
三年十月	-10.8229
米老	-10.823
費直	-10.8233
於理	-10.8233
騎都尉	-10.8235
文敏	-10.8235
再拜	-10.824
春官	-10.8246
不得已	-10.8255
佚姓譜	-10.8257
華州	-10.8259
可乎	-10.8269
有能	-10.8277
記二卷	-10.8278
太常寺	-10.828
六十二	-10.8281
以春秋	-10.8282
已而	-10.8285
清源	-10.8286
三卷右皇朝	-10.8287
貫通	-10.8287
稿二卷	-10.829
地里	-10.8291
華隂	-10.8295
武德	-10.8295
魯齋	-10.8299
所論	-10.83
之才	-10.8303
武陽	-10.8306
其石	-10.8306
南城	-10.8307
志八卷	-10.8308
事物	-10.8317
桓公	-10.8318
疑問	-10.8321
石門	-10.8321
七十卷	-10.8323
翕	-10.8324
壁中	-10.8329
厯官	-10.8332
九章	-10.8332
和二年	-10.8333
以意	-10.8336
六家	-10.8344
異聞	-10.8355
今亡	-10.8355
王右軍	-10.8357
釋作	-10.8358
雜事	-10.8362
耒	-10.8362
礼	-10.8363
志三卷	-10.8365
銷夏記	-10.8365
忱	-10.8365
渚	-10.8366
禀	-10.8367
藪	-10.8369
柄	-10.8369
騷	-10.8369
詩人	-10.837
亥	-10.837
縮	-10.8371
篋	-10.8371
禇遂良	-10.8372
自漢以來	-10.8372
頻	-10.8372
鼠	-10.8372
絡	-10.8372
焦竑	-10.8372
黄門侍郎	-10.8374
吉水人	-10.8374
在位	-10.8374
牴牾	-10.8376
州縣	-10.8376
假借	-10.8377
樂毅論	-10.8377
奐	-10.8377
朱熹	-10.8379
㤙	-10.8379
伊洛	-10.8379
而明	-10.8379
甘泉	-10.8382
一云	-10.8382
漢末	-10.8382
猗	-10.8384
詳其	-10.8385
其偽	-10.8386
序言	-10.8387
止存	-10.8388
衛將軍	-10.8393
以象	-10.8394
字大	-10.8395
懷仁	-10.8399
曽子	-10.8409
和尚碑	-10.8411
一部二	-10.8411
三代之	-10.8412
卷二	-10.8413
相見	-10.8417
闕補	-10.8417
亦何	-10.8427
餘姚人	-10.843
城縣志	-10.8431
之原	-10.8432
奏疏	-10.8438
嘉靖中	-10.8441
豈其	-10.845
兩行	-10.8451
斯道	-10.8454
張參	-10.8456
空言	-10.8458
友人	-10.846
已久	-10.8462
新修	-10.8467
孝武	-10.8469
朽	-10.8469
之句	-10.847
出處	-10.8474
世有	-10.8477
不絶	-10.8477
治天下	-10.848
山居	-10.8485
也嗚呼	-10.8489
也且	-10.8491
其能	-10.8491
不逮	-10.8492
者是也	-10.8492
始為	-10.8492
碑錄	-10.8495
亦是	-10.8498
者今	-10.8499
六十六	-10.8503
豈無	-10.8506
集錄	-10.8508
劉次莊	-10.851
而刻之	-10.851
小象	-10.8512
以謂	-10.8517
顧從義	-10.8522
楷法	-10.8522
艸	-10.8524
雅頌	-10.8524
廡	-10.8524
穉	-10.8527
穆公	-10.8529
孔頴逹	-10.8531
墮	-10.8531
太乙	-10.8532
壑	-10.8533
列女傳	-10.8533
雝	-10.8534
狐	-10.8534
矣又曰	-10.8534
徂	-10.8534
中書侍郎	-10.8534
慈溪人	-10.8535
五卷又	-10.8536
更名	-10.8537
厄	-10.8537
乾鑿度	-10.8538
斂	-10.8538
航	-10.8539
僣	-10.8539
鳥獸	-10.8539
諮	-10.8539
須知	-10.854
東觀餘論	-10.8541
鳯翔	-10.8541
愷	-10.8543
布政司	-10.8544
其體	-10.8545
侍御	-10.8546
拜議郎	-10.8548
用意	-10.8551
二年三月	-10.8552
令狐	-10.8553
愽士	-10.8555
而此碑	-10.8556
相國	-10.8558
王室	-10.8558
於其間	-10.8559
乃命	-10.8559
希夷	-10.8559
▁月立	-10.8561
續集	-10.8569
編輯	-10.8569
大司農	-10.857
威儀	-10.8571
臆説	-10.8571
堯典	-10.8574
博雅	-10.8574
諸帖	-10.8575
千年	-10.8575
如此則	-10.8575
全集	-10.8578
開國	-10.8579
二日	-10.858
也吾	-10.8585
畫卦	-10.8588
墓志	-10.859
吟稿	-10.8591
楊時	-10.8598
八十卷	-10.8602
焦氏	-10.8603
授之	-10.8605
六十三	-10.8607
五里	-10.8611
人官至	-10.8611
論語孟子	-10.8613
龍興	-10.8613
在州	-10.8622
可知也	-10.8624
字思	-10.8627
字亦	-10.8627
目為	-10.8631
八十四	-10.8642
近古	-10.865
七巻	-10.865
校作	-10.8652
寺記	-10.8652
新舊	-10.8654
述其	-10.8657
北嶽	-10.8657
二百卷	-10.8657
孔傳	-10.866
刻于	-10.8664
黄伯思	-10.8668
者是	-10.867
都昌	-10.8673
文詞	-10.8677
經注	-10.868
常熟	-10.868
右僕射	-10.8681
重之	-10.8686
小大	-10.869
不特	-10.8691
俞氏	-10.8693
字道	-10.8693
染	-10.8693
佞	-10.8698
刃	-10.8698
隘	-10.8698
郡齋讀書志	-10.8698
知其為	-10.8701
為三	-10.8701
綰	-10.8701
尭	-10.8702
句讀	-10.8702
迭	-10.8703
卷帙	-10.8703
廊	-10.8704
拯	-10.8704
液	-10.8706
覇	-10.8707
昌黎	-10.8708
糧	-10.8708
玠	-10.8708
鏤	-10.8708
欵識	-10.8709
癸卯	-10.8709
晝夜	-10.871
訛謬	-10.871
癸巳	-10.8711
占筮	-10.8711
蛟	-10.8712
卦氣	-10.8714
重複	-10.8714
咸亨	-10.8717
京兆尹	-10.8717
不著書撰人名氏	-10.8717
伯宋贈	-10.8723
唐開元	-10.8724
小子	-10.8727
二十日	-10.8727
議者	-10.8728
一月	-10.8729
故能	-10.873
姓譜	-10.8732
初學	-10.8738
無錫	-10.8755
莫可	-10.8756
婺	-10.8758
毛鄭	-10.8762
古碑	-10.8763
蜀本	-10.8765
州長史	-10.8765
人情	-10.8769
未暇	-10.8769
意其	-10.8769
各一	-10.8769
說一卷	-10.8771
史稱	-10.8775
自然之	-10.8776
天尊	-10.8776
二年四月	-10.8777
古文孝經	-10.8777
所及	-10.8778
之圖	-10.8779
右丞	-10.8781
望之	-10.8783
二十三卷	-10.8784
較之	-10.8789
見于	-10.8789
天啟	-10.879
前輩	-10.8791
而獨	-10.8791
二十七卷	-10.8793
六籍	-10.8794
而讀之	-10.8795
於人	-10.8795
至治	-10.8798
重加	-10.88
序後	-10.8801
薦授	-10.8806
子瞻	-10.8806
州司馬	-10.8807
本諸	-10.881
論議	-10.8824
上方	-10.8827
五卷佚	-10.8829
取而	-10.8838
文獻通考	-10.885
古雅	-10.8851
隴	-10.8854
不變	-10.8855
中原	-10.8855
隱公	-10.8856
連山歸藏	-10.8857
宋史藝文志	-10.886
廻	-10.886
然後知	-10.8861
此編	-10.8861
貢生	-10.8863
顔子	-10.8863
尚書令	-10.8864
􁅟	-10.8868
侯之	-10.8868
濱	-10.8871
墟	-10.8871
退之	-10.8872
有言	-10.8873
儒林	-10.8873
鍼	-10.8874
净	-10.8875
文淵	-10.8877
棺	-10.8878
寖	-10.8878
歐虞	-10.8879
劣	-10.888
宣宗	-10.888
潤色	-10.888
太誓	-10.8881
甘棠	-10.8881
赦	-10.8881
章氏	-10.8882
棘	-10.8882
胎	-10.8883
虜	-10.8883
邉	-10.8883
未詳何人	-10.8884
米元章	-10.8884
軍事	-10.8887
羊欣	-10.8888
工部侍郎	-10.8889
安福人	-10.8889
轉運	-10.8899
五十八	-10.8902
雅言	-10.8902
許敬宗撰	-10.8903
北山	-10.8908
及此	-10.8909
若干卷	-10.8909
居正	-10.8917
輕重	-10.8922
三禮圖	-10.8923
皆出	-10.8925
大學衍義	-10.8928
聖學	-10.893
不倫	-10.893
七十七	-10.8931
中宗	-10.8936
撰正書無姓名	-10.894
明朝	-10.8942
大槩	-10.8944
孟春	-10.8954
東林寺	-10.8956
主人	-10.8956
斷碑	-10.8962
一段	-10.8965
一百四十	-10.8968
卷數	-10.8969
年五十	-10.8971
海陵	-10.8973
學問	-10.8976
天啓	-10.8977
隨筆	-10.8984
宋氏	-10.8987
東方	-10.8989
唐崔	-10.8993
延年	-10.8993
論著	-10.8995
見也	-10.8995
籕	-10.8995
亦同	-10.8998
木記	-10.9001
附于	-10.9004
武侯	-10.9007
乃作	-10.9014
十數	-10.9019
不備	-10.902
新志	-10.902
遣使	-10.9026
事業	-10.9033
卷五	-10.9035
郭君	-10.9037
元和姓纂	-10.9041
四六	-10.9043
陳振孫書録解題	-10.9045
㸔	-10.9047
鑾	-10.9048
慿	-10.9049
勘	-10.905
於孔子	-10.905
訢	-10.905
後之人	-10.9051
裨	-10.9051
琬	-10.9051
淺陋	-10.9051
駭	-10.9051
籙	-10.9052
轅	-10.9052
番	-10.9052
殿中侍御史	-10.9052
繞	-10.9053
覲	-10.9054
己亥	-10.9054
觀察使	-10.9055
敬仲	-10.9056
楫	-10.9057
婚	-10.9057
南史	-10.9058
鏜	-10.9059
髣髴	-10.9059
􁭁	-10.9059
歎曰	-10.9059
黼	-10.906
甸	-10.906
增損	-10.9061
陳公	-10.9061
瑀	-10.9061
國子博士	-10.9061
纒	-10.9062
晃	-10.9066
車騎將軍	-10.9068
延壽	-10.9071
一百五十	-10.9079
間人	-10.9081
户部	-10.9082
不無	-10.9086
安縣	-10.9091
助教	-10.9092
中語	-10.9092
大意	-10.9096
所宜	-10.9098
杜甫	-10.9099
永泰	-10.91
中官	-10.9101
文昌	-10.9103
安能	-10.911
前漢	-10.9112
所輯	-10.9115
其弟	-10.9115
興國	-10.9116
爻象	-10.9119
諸碑	-10.9119
楊慎	-10.9123
五典	-10.9125
司業	-10.9128
而益	-10.9129
河北	-10.9132
條理	-10.9137
時已	-10.9137
而史	-10.9138
使之	-10.914
饒州	-10.9142
開元二	-10.9143
御題	-10.9143
建康	-10.9145
集五十卷	-10.9146
大名	-10.9151
也昔	-10.9156
此又	-10.9158
卷四	-10.9159
魏氏	-10.9162
數十年	-10.9165
一貫	-10.9172
歸一	-10.9174
三十餘	-10.9175
為政	-10.918
遺經	-10.918
又稱	-10.9182
六朝	-10.9187
指掌	-10.9191
上古	-10.9197
校之	-10.9201
附焉	-10.9201
無聞	-10.9203
生平	-10.9205
二十一篇	-10.9206
宋公	-10.9207
夏商	-10.9207
字原	-10.9211
書後	-10.9216
第九	-10.922
于是	-10.9221
灑	-10.9222
自爲	-10.9223
民間	-10.9223
恃	-10.9224
吞	-10.9225
邦國	-10.9226
字少	-10.9228
輔嗣	-10.9228
蔓	-10.9228
腕	-10.9228
掛	-10.9228
死於	-10.9229
朝散大夫	-10.9229
不可辨	-10.923
障	-10.923
先生諱	-10.923
琢	-10.9231
沮	-10.9232
剪	-10.9232
浙江通志	-10.9232
劭	-10.9233
辛夘	-10.9233
辦	-10.9234
驥	-10.9235
校勘	-10.9235
􁬬	-10.9236
掲	-10.9236
促	-10.9237
事跡	-10.9238
􁭋	-10.9238
昕	-10.9239
岷	-10.9239
舊刻	-10.9239
垂拱	-10.924
宇宙	-10.924
料	-10.924
纘	-10.924
冊府元龜	-10.9241
璵	-10.9242
晦翁	-10.9243
寗	-10.9245
忠孝	-10.9245
沆	-10.9248
溧陽	-10.9248
説佚	-10.9251
經㫖	-10.9252
天地萬物	-10.9255
二年正月	-10.9259
指要	-10.9259
黄長睿	-10.9263
集說	-10.9263
㸃畫	-10.9263
懐素	-10.9264
畫像	-10.9269
易之道	-10.9269
亡而	-10.9271
直解	-10.9271
公武	-10.9273
不識	-10.9276
棄之	-10.9283
於秦	-10.9287
籀	-10.9288
老莊	-10.9291
二行	-10.9292
後主	-10.9295
五六	-10.9296
不宜	-10.9296
及諸	-10.9298
志十二卷	-10.9299
可得	-10.9304
頒行	-10.9305
行人	-10.9307
不可識	-10.9308
可笑	-10.9309
唐氏	-10.9312
得見	-10.9312
一見	-10.9312
四日	-10.9315
素問	-10.9315
只是	-10.9315
字正	-10.9319
可言	-10.932
之詞	-10.9322
唐詩	-10.9323
海寧	-10.9325
二十卷存	-10.9326
蔵本	-10.933
祖宗	-10.9332
歙人	-10.9332
碑隂記	-10.9339
孰能	-10.9342
經三卷	-10.9342
迄於	-10.9348
之謂也	-10.9348
山陰	-10.9349
近於	-10.9351
秦王	-10.9355
退而	-10.9355
專以	-10.9359
蘭亭序	-10.9365
變通	-10.9366
表上	-10.9369
烏程	-10.9372
矣予	-10.9372
府同知	-10.9375
不聞	-10.9376
公名	-10.9377
習之	-10.938
碑今在	-10.9381
謚曰	-10.9381
欲求	-10.9386
闕里	-10.9387
若水	-10.9391
笙	-10.9397
分類	-10.9397
皇上	-10.9398
石林	-10.9398
子路	-10.9399
飛白	-10.9401
注易	-10.9404
数	-10.9405
東郡	-10.9405
斧	-10.9406
為多	-10.9407
失名	-10.9409
理宗	-10.9409
燼	-10.9409
顓	-10.941
白石	-10.941
𤨏	-10.941
擕	-10.9411
附錄	-10.9411
适	-10.9411
譲	-10.9412
騫	-10.9413
鋪	-10.9413
邾	-10.9414
著作	-10.9414
軫	-10.9415
芻	-10.9415
籌	-10.9415
舌	-10.9415
愿	-10.9415
褚河南	-10.9415
過於	-10.9416
觴	-10.9418
摹搨	-10.9418
醮	-10.9418
昱	-10.9418
書院山長	-10.9418
忝	-10.9419
駐	-10.9419
按察使	-10.9419
造像記	-10.942
瀾	-10.9421
轡	-10.9421
鐡	-10.9421
者故	-10.9422
三尺	-10.9426
御史臺	-10.9426
道家	-10.9428
可疑者	-10.9429
釋義	-10.943
千字文	-10.9431
難得	-10.9432
牽合	-10.9437
功德	-10.9438
白虎通	-10.9438
以病	-10.9442
吳縣人	-10.9443
語錄一部一冊	-10.9445
誦習	-10.9447
鄉射	-10.9448
生民	-10.945
格言	-10.9455
律厯	-10.9457
鄭公	-10.9458
蔡京	-10.9462
漢陽	-10.9463
互相	-10.9463
緯書	-10.9463
精舍	-10.9468
上虞	-10.9469
中正	-10.9469
中天	-10.947
類聚	-10.9475
所未發	-10.9477
使其	-10.9478
為天下	-10.9478
亦作	-10.9482
不可解	-10.9485
氏族	-10.9488
盡心	-10.9489
京氏	-10.9489
書序	-10.949
重刋	-10.9491
李君	-10.9496
故謂之	-10.9498
五服	-10.9507
續編	-10.9508
其兄	-10.9509
嘗從	-10.9509
考定	-10.9509
五禮	-10.9513
益以	-10.9514
此刻	-10.9523
講論	-10.9524
職官	-10.953
是已	-10.9536
家所藏	-10.9547
姚氏	-10.9551
集録	-10.9559
魯孔	-10.956
為一編	-10.9561
考功	-10.9561
篆法	-10.9562
説苑	-10.9563
其變	-10.9563
歐陽詢書	-10.9566
而不敢	-10.9578
世稱	-10.9579
即今	-10.9581
北平	-10.9585
麻姑	-10.959
王孫	-10.959
裏	-10.9591
濡	-10.9591
庶乎	-10.9593
三百八十四爻	-10.9594
弋	-10.9595
把	-10.9596
趙明誠	-10.9596
肩	-10.9596
罹	-10.9596
眷	-10.9597
偈	-10.9597
􁁜	-10.9598
趾	-10.9598
藳	-10.9598
鑱	-10.9598
塟	-10.9599
皎	-10.96
不可知	-10.96
氣象	-10.96
麤	-10.9601
牆	-10.9601
翳	-10.9601
殷仲容	-10.9601
隋開皇	-10.9602
隐	-10.9603
張萱曰	-10.9604
龢	-10.9604
隴西	-10.9604
邢昺	-10.9605
教之	-10.9606
史類	-10.9609
頴川	-10.9609
卦辭	-10.961
醒	-10.9611
撮要	-10.9616
薛稷	-10.9617
衣冠	-10.9618
除郎中	-10.9619
全文	-10.9619
二年十月	-10.9619
其名字	-10.962
質疑	-10.9623
盧熊	-10.9626
上蔡	-10.9628
者雖	-10.963
也是故	-10.9636
卒于	-10.9641
後之學者	-10.9641
出錢	-10.9643
自得之	-10.965
經書	-10.965
五年立	-10.9651
恐是	-10.9652
訓解	-10.9658
十有九	-10.9658
希聲	-10.9659
性善	-10.9661
未嘗有	-10.9664
志三冊	-10.9665
殿中	-10.9666
十八章	-10.9667
書説	-10.9672
髙氏	-10.9681
春秋經傳	-10.9685
烏程人	-10.9687
行世	-10.9691
七十八	-10.9693
歲次	-10.9696
今年	-10.9698
遼東	-10.97
漫稿	-10.97
七十一	-10.9704
止此	-10.9707
盡在	-10.971
録五卷	-10.971
亦皆	-10.9711
左氏春秋	-10.9714
經説	-10.9715
讀詩	-10.9717
田氏	-10.9717
襄州	-10.9722
贈太尉	-10.9722
尚書左僕射	-10.9723
超然	-10.9723
新義	-10.9724
兩字	-10.9725
二百三十	-10.9726
之使	-10.9726
一㸃	-10.9728
㑹稽人	-10.9729
十四篇	-10.9731
周室	-10.9731
之辨	-10.9734
新史	-10.9736
寳應	-10.9737
天監	-10.9737
以求其	-10.9737
進士累官	-10.9741
諸史	-10.9743
昻	-10.9744
太一	-10.9745
本原	-10.9746
之説而	-10.9748
名儒	-10.9748
廬陵人	-10.975
去官	-10.9759
不經	-10.9765
其語	-10.9766
其初	-10.9768
𥙷	-10.9774
漢藝文志	-10.9776
號為	-10.9779
也聖人	-10.978
蔑	-10.9781
歙縣人	-10.9782
譎	-10.9782
帷	-10.9782
蚤	-10.9783
櫟	-10.9784
虗	-10.9785
零	-10.9785
毗	-10.9786
虹	-10.9786
織	-10.9786
蟲魚	-10.9787
戒壇	-10.9788
涓	-10.9789
刋於	-10.9789
諸説	-10.9791
瑋	-10.9791
光暎	-10.9792
著作佐郎	-10.9792
大中祥符	-10.9792
綦	-10.9793
樞密	-10.9793
指揮	-10.9794
逕	-10.9794
砥	-10.9794
潢	-10.9794
黄巖人	-10.9795
於聖人	-10.9795
年六十	-10.9796
索隱	-10.9797
珂	-10.9797
年譜一卷	-10.9799
之訓	-10.9801
後五日	-10.9802
詩解	-10.9804
即是	-10.9805
史家	-10.9807
太子少保	-10.9809
亦可以	-10.9809
館閣	-10.9809
不信	-10.981
荆州刺史	-10.9811
青州	-10.9811
隋志十卷佚	-10.9811
隷釋	-10.9814
京口	-10.9814
靈巖	-10.9816
孟子曰	-10.982
何異	-10.9821
太宰	-10.9823
其額題	-10.9824
虞氏	-10.9826
承㫖	-10.9826
帝堯	-10.9827
不果	-10.9832
給事	-10.9833
論一部一冊	-10.9833
鶴山	-10.9839
移置	-10.9839
暇日	-10.9843
雖無	-10.9845
能通	-10.9846
所著書	-10.9849
靈臺	-10.9853
祖謙	-10.9855
之類皆	-10.9859
古禮	-10.986
二禮	-10.9862
之義也	-10.9865
縣北	-10.9866
繇是	-10.9866
補闕	-10.9872
兩儀	-10.9875
出知	-10.9877
集有	-10.9889
武氏	-10.9891
元年十二月	-10.9894
復古	-10.9899
既久	-10.9901
禪院	-10.9901
隋唐志	-10.9907
其姓名	-10.9908
節文	-10.9914
宗即位	-10.9916
小説	-10.9918
窮經	-10.9918
治道	-10.9922
正書無姓名	-10.9923
餘杭	-10.9923
二年七月	-10.9924
相近	-10.9927
乆之	-10.9931
二十八年	-10.9934
後人所	-10.9937
文翁	-10.9944
之年	-10.9946
三年進士	-10.995
昂	-10.9955
讀史	-10.9956
幸而	-10.9961
七十四	-10.9965
張雲章曰	-10.9965
四部	-10.9966
腐	-10.9968
縫	-10.9971
奸	-10.9971
立政	-10.9971
低	-10.9972
剥蝕	-10.9973
資治通鑑	-10.9973
啇	-10.9974
鎮江	-10.9974
鬯	-10.9974
癸亥	-10.9975
翬	-10.9975
文皇	-10.9976
猥	-10.9976
禘	-10.9976
曝書亭集	-10.9977
寐	-10.9977
價	-10.9977
太平御覽	-10.9977
鉞	-10.9977
禪師塔銘	-10.9978
夭	-10.9979
三十八卷	-10.9979
毘陵	-10.998
史之	-10.998
摶	-10.998
蜀中	-10.998
卷六	-10.998
牖	-10.998
銖	-10.9981
官閥	-10.9981
揲蓍	-10.9982
墨蹟	-10.9982
䕃	-10.9983
詵	-10.9983
牋	-10.9984
浮屠	-10.9985
煜	-10.9985
索隠	-10.9985
剡	-10.9986
錠紋	-10.9987
國子助教	-10.9988
又引	-10.9988
愔	-10.9988
司馬温公	-10.9989
霆	-10.9989
晷	-10.9989
城西	-10.9991
韓勑	-10.9992
弇州	-10.9993
消長	-10.9995
郭忠恕	-10.9997
建安人	-10.9997
太初	-10.9999
以資	-11.0002
卦畫	-11.0008
未始	-11.0012
聰明	-11.0014
小兒	-11.0014
過半	-11.0019
英宗	-11.0024
云君諱	-11.0026
張旭	-11.0027
漢武	-11.0027
安世	-11.003
三國	-11.0033
二年十一月	-11.0035
流行	-11.0036
遺跡	-11.0036
故特	-11.0038
禹廟	-11.0039
厥後	-11.0039
進士歴官	-11.0039
乎哉	-11.004
曹掾	-11.0042
園集	-11.0044
五十九	-11.0046
家世	-11.0049
上言	-11.0051
贈太子少保	-11.0052
不逺	-11.0052
二十五篇	-11.0053
和三年	-11.0056
焉故	-11.0058
盛衰	-11.0059
縣南	-11.0063
先生集	-11.0064
家居	-11.0065
西平	-11.0071
元年正月	-11.0072
官爵	-11.0075
諡忠	-11.0079
兩卷	-11.0082
墓在	-11.0083
偽書	-11.0086
正朔	-11.0087
慶歴	-11.0088
宋本	-11.0091
元城	-11.0093
不察	-11.0098
閒居	-11.0098
以獻	-11.0101
下缺	-11.0104
百卷	-11.0111
乃取	-11.0112
考古	-11.0114
好事	-11.0116
司馬公	-11.0118
六十七	-11.012
未至	-11.0124
吏民	-11.0125
呉人	-11.0125
居仁	-11.0125
要㫖	-11.0126
二百八十	-11.0128
賈氏	-11.0131
縣主簿	-11.0135
也至於	-11.0135
竊謂	-11.0137
滁	-11.0138
訓傳	-11.0141
大要	-11.0143
神武	-11.0145
無言	-11.0154
尤精	-11.0155
李靖	-11.0156
塋	-11.0158
耦	-11.016
三皇	-11.0166
絹	-11.0167
聯	-11.0169
寒暑	-11.017
大過	-11.0171
薊	-11.0172
愆	-11.0172
鷹	-11.0172
襟	-11.0173
劉知幾	-11.0173
垢	-11.0174
飢	-11.0174
表裏	-11.0175
寥	-11.0175
㾗	-11.0175
山海經	-11.0175
檜	-11.0175
胤	-11.0175
梯	-11.0175
厨	-11.0176
穢	-11.0176
髮	-11.0177
鄉飲酒	-11.0177
湍	-11.0177
舘閣	-11.0179
撫州	-11.0179
倅	-11.0179
壬申	-11.018
義烏人	-11.018
司馬氏	-11.018
瑯琊	-11.018
轉運使	-11.0181
眇	-11.0181
釗	-11.0181
絜	-11.0182
監修	-11.0183
癖	-11.0183
騁	-11.0184
夾漈	-11.0185
誇	-11.0185
吉甫	-11.0185
佃	-11.0186
飲食	-11.0186
禍福	-11.0187
舉孝亷	-11.0187
而後有	-11.0189
劉炫	-11.0191
刪詩	-11.0191
約而	-11.0192
委曲	-11.0193
千八百	-11.0195
千萬	-11.0197
參差	-11.0199
編集	-11.0199
前賢	-11.0201
詁訓	-11.0211
金人	-11.0215
所補	-11.0215
今存	-11.0218
之篇	-11.0218
正書并篆額	-11.0218
不遺	-11.0223
桂林	-11.0223
矣余	-11.0223
釋疑	-11.0225
府丞	-11.0226
祀典	-11.0227
乆矣	-11.0228
參議	-11.0229
顧云	-11.0229
襄王	-11.0229
隷書	-11.023
中書門下	-11.023
大都督	-11.023
四庫	-11.0231
序作於	-11.0232
不受	-11.0234
刻在	-11.0245
所據	-11.0246
可據	-11.0248
之謬	-11.0252
少室	-11.0252
真偽	-11.0253
晉宋	-11.026
従事	-11.0265
平湖人	-11.0266
小雅	-11.0267
五家	-11.027
二十卷又	-11.0273
禮論	-11.0277
觀音	-11.0279
三卷右唐	-11.0284
代孫	-11.0285
召見	-11.0288
碑石	-11.0294
也但	-11.0296
四十六卷	-11.0296
内傳	-11.0299
無能	-11.0299
既濟	-11.03
重立	-11.0301
三十巻	-11.0303
刋定	-11.0305
有聲	-11.0311
其妙	-11.0312
春秋集傳	-11.0313
其姓	-11.0316
天保	-11.0321
分别	-11.0326
託之	-11.0328
者耶	-11.033
陸徳明	-11.0331
詔令	-11.034
進表	-11.0343
補宋	-11.0344
凡八	-11.0346
雖未	-11.0349
仁和	-11.0352
昊	-11.0355
金氏	-11.0357
凡七	-11.0361
宦者	-11.0362
芒	-11.0363
詐	-11.0365
大父	-11.0367
㝡	-11.0367
瞽	-11.0367
魯論	-11.0368
謡	-11.0369
豕	-11.0369
亾	-11.0369
峭	-11.0369
虬	-11.037
銷	-11.037
狼	-11.0371
李徳裕	-11.0372
數家	-11.0372
豊	-11.0372
燬	-11.0373
擁	-11.0373
涪	-11.0373
冒	-11.0374
雖非	-11.0374
儆	-11.0375
芾	-11.0375
疲	-11.0375
歐陽永叔	-11.0376
優劣	-11.0377
歐陽率更	-11.0377
乳	-11.0377
掠	-11.0377
龍圖閣	-11.0377
豆盧	-11.0377
屬辭比事	-11.0378
甌	-11.0379
酢	-11.0379
愁	-11.0379
伋	-11.038
九思	-11.038
王政	-11.0381
樞宻	-11.0382
七人	-11.0382
春王正月	-11.0383
煬帝	-11.0383
師塔銘	-11.0383
世昌	-11.0383
庭堅	-11.0385
都察院	-11.0387
祕書省	-11.0387
金石錄卷苐	-11.0387
厓	-11.0389
忩	-11.0389
蘭亭叙	-11.0393
管窺	-11.0394
郡庠	-11.0395
舉孝廉	-11.0396
竟不	-11.0399
説春秋	-11.0401
李林甫	-11.0401
漳州	-11.0403
一紙	-11.0403
一部十五冊	-11.0404
大矣	-11.0405
是亦	-11.0406
二百六十	-11.0409
纂例	-11.0409
會昌	-11.041
叅政	-11.0411
江縣	-11.0411
結體	-11.0412
龍虎	-11.0415
陽明	-11.0416
立廟	-11.0417
元年五月	-11.0417
䝉求	-11.0419
之本也	-11.0419
博采	-11.0423
武宗	-11.0425
續帖	-11.0427
追封	-11.0427
五卷存	-11.0436
大猷	-11.0441
五音	-11.0441
四卷未見	-11.0442
莫知其	-11.0443
唐世	-11.0443
上官	-11.0444
公主碑	-11.0447
吕氏春秋	-11.0448
數十百	-11.0451
韓子	-11.0453
梁武	-11.0458
三王	-11.0458
不廢	-11.0458
而求之	-11.0461
劉牧	-11.0464
朔方	-11.0467
太學生	-11.0467
鼎銘	-11.0467
義士	-11.047
異也	-11.0475
汾陽	-11.0476
未有不	-11.0481
熊氏	-11.0482
河陽	-11.0491
其詳	-11.0491
先公	-11.0491
二百九十	-11.0491
大定	-11.0492
唐藝文志	-11.05
撰人姓名	-11.0502
萬歴	-11.0502
疑義	-11.0502
漢官	-11.0505
西湖	-11.0506
用功	-11.0509
獻帝	-11.051
然猶	-11.0515
顧本	-11.0517
復得	-11.0518
雜録	-11.052
衛人	-11.0524
體用	-11.0526
碑云君諱	-11.053
之所由	-11.0531
平陵	-11.0536
汝州	-11.0538
簡易	-11.0539
絶句	-11.0541
在西安府學	-11.0541
興元	-11.0545
睢	-11.0546
之業	-11.0549
多識	-11.0552
㑹同	-11.0556
斯言	-11.0564
以薦	-11.0564
儋	-11.0566
陸徳明曰	-11.0571
咸陽	-11.0571
羞	-11.0574
後生	-11.0574
揔	-11.0575
伽	-11.0575
澧	-11.0575
護	-11.0575
篇次	-11.0575
瘞	-11.0577
詩義	-11.0577
䆒	-11.0577
中書舎人	-11.0578
擴	-11.0578
戀	-11.0578
戮	-11.0579
名號	-11.0579
俠	-11.0579
俚	-11.058
從顧釋	-11.058
提學副使	-11.0581
贈司空	-11.0581
太中大夫	-11.0581
惶	-11.0582
一部七冊	-11.0583
戌	-11.0583
股	-11.0583
虢	-11.0583
晳	-11.0584
􁑷	-11.0584
燧	-11.0584
要畧	-11.0584
棗	-11.0585
紐	-11.0585
訾	-11.0586
軼	-11.0586
珙	-11.0586
駙馬都尉	-11.0586
洙泗	-11.0586
霽	-11.0587
莒	-11.0588
樞密院	-11.0588
夸	-11.0588
今考	-11.0589
亦當	-11.0589
焕	-11.0589
邯鄲淳	-11.0591
錡	-11.0592
晞	-11.0593
枋	-11.0595
弱冠	-11.0596
欲使	-11.0596
濓溪	-11.0597
歐陽文忠公	-11.0598
傅㑹	-11.0599
以擬	-11.0599
臨淮	-11.0601
丘氏	-11.0604
未足	-11.0604
論一篇存	-11.0607
升降	-11.0608
丹徒	-11.0609
裴休	-11.0611
州知州	-11.0617
絳州	-11.0617
與天地	-11.0619
覽者	-11.062
井田	-11.0622
年四十	-11.0622
項氏	-11.0627
河南尹	-11.0628
周旋	-11.0628
為郎	-11.0628
唐𤣥宗	-11.0629
焦山	-11.063
方平	-11.0631
今名	-11.0635
啟䝉	-11.0639
始作	-11.064
卷七	-11.0642
字源	-11.065
存疑	-11.0657
闕一字	-11.066
齊詩	-11.0662
示之	-11.0662
明夷	-11.0664
字舜	-11.0664
東門	-11.0664
七十子	-11.0693
且曰	-11.0695
未甞	-11.0698
田何	-11.0704
王著	-11.0704
六十八	-11.0705
六函	-11.0707
論説	-11.0707
上黨	-11.0708
春秋之義	-11.0709
武定	-11.0712
不可廢	-11.0714
大體	-11.0715
始出	-11.0717
手自	-11.0724
江西通志	-11.0725
字茂	-11.0728
伯玉	-11.0739
光化	-11.0745
疑非	-11.0745
從子	-11.0746
百五十	-11.0747
碑側	-11.0747
永樂中	-11.0748
太清	-11.075
推明	-11.0751
茫	-11.0755
一語	-11.0756
蔡傳	-11.0757
謝安	-11.0759
缺二	-11.0763
類稿	-11.0764
吕公	-11.0768
丨丨丨	-11.0771
信然	-11.0771
别號	-11.0773
九十六	-11.0774
先君子	-11.0775
同年	-11.0775
戴聖	-11.0777
楮	-11.0779
玉山	-11.0779
顧炎武	-11.078
扁	-11.078
合作	-11.078
滛	-11.078
棣	-11.0781
揺	-11.0782
通經	-11.0783
媿	-11.0785
溟	-11.0785
囬	-11.0786
亘	-11.0787
䧟	-11.0787
閩中	-11.0787
囚	-11.0787
楞嚴	-11.0789
樓鑰	-11.0789
鹵	-11.079
街	-11.079
犂	-11.079
萇	-11.0791
禹錫	-11.0792
棫	-11.0792
絢	-11.0792
侍讀學士	-11.0792
孝經注	-11.0794
管子	-11.0794
万	-11.0795
鉛	-11.0795
餘姚	-11.0795
家訓	-11.0795
字克	-11.0796
佚春秋	-11.0796
長生	-11.0799
卭	-11.0799
逢吉	-11.0803
侮	-11.0804
揚子雲	-11.0804
征伐	-11.0807
西域	-11.0816
亦稱	-11.0818
讀詩記	-11.0821
解詁	-11.0821
字德	-11.0825
所題	-11.0826
小史	-11.0827
二十九日	-11.083
帖末	-11.083
封禪	-11.0832
百里	-11.0835
尤多	-11.0835
劉顧作	-11.0844
釐正	-11.0845
實為	-11.0852
留守	-11.0857
劉寛碑	-11.0857
條目	-11.0858
一覽	-11.0858
薦之	-11.086
萬世之	-11.0862
之墓	-11.0864
吾夫子	-11.0871
而碑云	-11.0873
游夏	-11.0876
也於是	-11.0878
諸儒之説	-11.0882
陳國	-11.0885
真本	-11.0886
集本云	-11.0891
萬厯中	-11.0891
舊在	-11.0893
宗之	-11.0897
弟也	-11.09
述作	-11.0912
四十九篇	-11.0925
忠烈	-11.0931
武昌	-11.0934
難於	-11.094
安樂	-11.0943
有得於	-11.0948
亦復	-11.0948
三十五卷	-11.095
不赴	-11.0951
參考	-11.0953
趙郡	-11.0955
參以	-11.0959
二十卷右皇朝	-11.096
老矣	-11.0962
舜臣	-11.0963
江浙	-11.0964
戸部	-11.0965
樂安	-11.0967
他經	-11.0969
先天圖	-11.0977
後世之	-11.0984
翫	-11.0985
不離	-11.0987
一百九十	-11.0987
称	-11.0987
之勤	-11.099
伯思	-11.099
葉夢得	-11.0991
集十六卷	-11.0995
何可	-11.0995
冐	-11.0996
誚	-11.0996
无咎	-11.0996
翥	-11.0998
未知孰是	-11.0999
讜	-11.1
簒	-11.1
惕	-11.1
浴	-11.1001
睹	-11.1002
菜	-11.1003
憂患	-11.1004
培	-11.1004
公羊榖梁	-11.1005
洪适	-11.1005
鍊	-11.1005
暹	-11.1006
賓客	-11.1006
前集	-11.1007
集賢院	-11.1007
迄今	-11.1009
欄	-11.1009
剥落	-11.1009
秊	-11.101
鄆	-11.1013
膏	-11.1013
覯	-11.1015
鰲	-11.1016
聶	-11.1017
後之君子	-11.1017
潤州	-11.1023
續志	-11.1026
二十二年	-11.1028
墨跡	-11.1029
改定	-11.1034
此下一	-11.1034
孝廉	-11.1036
九十五	-11.1037
百四十	-11.1038
近時	-11.1038
語孟	-11.1039
領軍	-11.1043
樂經	-11.1044
二十九篇	-11.1045
之勢	-11.1045
二十九卷	-11.1048
欣然	-11.1048
晦庵先生	-11.1049
原父	-11.105
武帝時	-11.105
莫詳	-11.1051
景徳	-11.1052
歐趙有	-11.1053
已殘缺	-11.1053
誠齋	-11.1055
壁間	-11.1055
八十三	-11.1056
齊梁	-11.1062
宋齊	-11.1063
講疏	-11.1065
光庭	-11.1069
不肖	-11.107
四十二卷	-11.1071
永夀	-11.1075
俱作	-11.1075
稿四卷	-11.1076
不誣	-11.1081
卷八	-11.1083
定國	-11.1092
手書	-11.1093
舊圖	-11.1093
白虎	-11.1094
一畫	-11.1094
而行之	-11.1096
纂集	-11.1096
軒稿	-11.1098
方圓	-11.1101
成帙	-11.1102
博物	-11.1103
嘗見	-11.1103
七十九	-11.1104
則必	-11.1106
卒史	-11.1106
仕為	-11.1107
非古	-11.1109
二十八篇	-11.111
巴郡	-11.1112
集十四卷	-11.1113
二首	-11.1114
龍泉	-11.1117
猶可	-11.1117
當是時	-11.1118
尚書省	-11.112
守道	-11.1123
開卷	-11.1131
渡江	-11.1135
經綸	-11.1141
本名	-11.1142
二十五年	-11.1143
陸德明曰	-11.1146
初九	-11.1148
經世之	-11.1149
既已	-11.1149
律令	-11.1151
婺州	-11.1156
歴年	-11.1164
淮陽	-11.1166
所纂	-11.1168
所疑	-11.1171
宋志一卷	-11.1172
長樂人	-11.1176
文宣王廟	-11.1179
端平	-11.1179
至若	-11.1179
彼此	-11.1186
正學	-11.1187
吳中	-11.1187
兩朝	-11.1193
十九篇	-11.1196
中候	-11.1199
二年九月	-11.1201
山堂	-11.1203
般	-11.1205
址	-11.1205
遁甲	-11.1206
别為一	-11.1207
七畧	-11.1208
桓譚	-11.1209
徽州	-11.1209
經生	-11.1209
陸氏釋文	-11.1209
山縣志	-11.121
妣	-11.121
詳解	-11.1212
溝	-11.1213
怛	-11.1214
犀	-11.1215
牡	-11.1215
杰	-11.1215
盛徳	-11.1215
周必大	-11.1216
緄	-11.1216
賣	-11.1216
子由	-11.1217
燒	-11.1217
認	-11.1217
蠧	-11.1218
漫漶	-11.1218
卯	-11.1218
闊	-11.1219
曙	-11.1219
不減	-11.1219
燮	-11.1219
濯	-11.1221
悠	-11.1221
棊	-11.1222
記室	-11.1222
李德裕	-11.1222
季札	-11.1222
企	-11.1223
春秋説	-11.1223
丙寅	-11.1223
篇名	-11.1224
齊宣王	-11.1224
駒	-11.1225
放生池	-11.1225
范文正公	-11.1225
盍	-11.1226
暐	-11.1226
榆	-11.1227
唐𤣥度	-11.1229
靈芝	-11.1229
謹案右一帖行	-11.123
翰苑	-11.123
應劭	-11.1231
昊天	-11.1231
甚明	-11.1232
衛大將軍	-11.1233
駟	-11.1234
朱子本義	-11.1234
劉敞	-11.1234
四十年	-11.1235
有竒	-11.1237
索靖	-11.1239
禊帖	-11.124
尺牘	-11.124
汸	-11.1241
胸中	-11.1244
忠恕	-11.1245
萬五千	-11.1246
貴州	-11.1247
永淳	-11.1251
乃謂	-11.1251
古器物銘	-11.1253
鄉試	-11.1256
有異同	-11.1256
通變	-11.1264
千有餘	-11.1264
疑焉	-11.1264
一統	-11.1265
畫八卦	-11.1265
以明經	-11.1265
裔孫	-11.1268
景定	-11.1268
十五里	-11.1275
華岳	-11.1275
語一卷	-11.1283
説一篇存	-11.1292
石鼓文	-11.1293
蘇州府	-11.1293
者謂之	-11.1297
正誤	-11.1305
千百年	-11.1308
其間有	-11.131
案宋史藝文	-11.1311
他本	-11.1313
内閣	-11.1321
土中	-11.1326
和七年	-11.1326
佛像	-11.1327
以卜筮	-11.1329
鄭康成注	-11.133
取象	-11.1334
不窮	-11.1336
而已哉	-11.1341
高氏	-11.1343
直指	-11.1345
詩草	-11.1346
喪祭	-11.1355
陽翟	-11.1356
筆削之	-11.1363
亳州	-11.1363
示人	-11.1374
小稿	-11.1378
所未及	-11.1381
人物志	-11.1382
門弟子	-11.1385
從周	-11.1391
乾隆四十	-11.1395
不惑	-11.1401
聖人所以	-11.1403
臨本	-11.1404
編二卷	-11.1405
安縣志	-11.1406
既得	-11.141
備遺	-11.141
鍾繇書	-11.1411
吳江	-11.1415
舎人	-11.1419
等帖	-11.142
潮州	-11.1421
建初	-11.1422
景雲	-11.1426
施於	-11.1431
勣	-11.1431
虐	-11.1432
八十二	-11.1432
兑	-11.1432
頽	-11.1433
墖	-11.1434
諦	-11.1434
髙士	-11.1436
三年七月	-11.1436
可惜也	-11.1437
悵	-11.1438
魄	-11.1439
茹	-11.1439
雩	-11.144
惻	-11.144
聳	-11.1441
濳虛	-11.1442
憬	-11.1442
列於學官	-11.1442
壙	-11.1443
秦檜	-11.1444
卽	-11.1444
偁	-11.1445
旂	-11.1445
慙	-11.1445
圯	-11.1445
祕書監	-11.1446
黄震曰	-11.1446
㓂	-11.1446
程邈	-11.1446
太子太傅	-11.1447
闗中	-11.1447
福清人	-11.1447
葆	-11.1448
哀公	-11.1449
羨	-11.1449
零陵	-11.145
鵞	-11.1451
按察司僉事	-11.1451
灝	-11.1451
者非也	-11.1451
驪	-11.1454
院碑	-11.1454
椘	-11.1455
張九齡	-11.1456
二年八月	-11.1458
黄庭堅	-11.1459
玉篇	-11.146
姓名殘缺	-11.1461
援引	-11.1461
鉤摹	-11.1462
中興頌	-11.1465
樷	-11.1467
▁年立	-11.1467
草廬	-11.1468
六帖	-11.1468
鴻漸	-11.1471
拜郎中	-11.1472
古法	-11.1474
新編	-11.1474
比干墓	-11.1474
皆稱	-11.1475
桓温	-11.1476
多士	-11.1478
涿	-11.1479
有志於	-11.148
百餘人	-11.148
濟源	-11.148
中嶽	-11.1481
王㴻	-11.1483
唐韋	-11.1487
三年二月	-11.1488
鐘銘	-11.1492
玩辭	-11.1496
八十六	-11.1501
傳聞	-11.1504
隆興	-11.1507
解題	-11.1509
等語	-11.1515
言易者	-11.1519
世教	-11.152
决非	-11.1522
三十四卷	-11.1524
泰伯	-11.153
訪求	-11.153
雜著	-11.1533
德宗	-11.1534
奉天	-11.1536
天禄	-11.1538
言語	-11.1542
殿記	-11.1542
辨證	-11.1545
萬民	-11.1547
愛其	-11.1548
惟恐	-11.1548
齊名	-11.1552
元豐中	-11.1553
嘉祐中	-11.1554
無量	-11.1558
疏草	-11.1559
金石文	-11.156
諸傳	-11.1561
乾卦	-11.1562
中平二年	-11.1565
行省	-11.1574
要訣	-11.1575
鄉侯	-11.1575
九十一	-11.1576
演義	-11.158
昭德	-11.1582
禄山	-11.1587
其一也	-11.159
彌勒	-11.1598
詩集一卷	-11.1601
而不得	-11.1601
名士	-11.1603
開府	-11.1603
减	-11.1604
各異	-11.1605
論語孝經	-11.1614
越州	-11.1616
至當	-11.1618
人名氏	-11.1622
夏氏	-11.1626
為之記	-11.1627
陳振孫	-11.163
病其	-11.1633
二百故	-11.1637
五千	-11.1638
未發	-11.164
盧氏	-11.1641
日抄	-11.1641
祖述	-11.1642
而傳之	-11.1642
入石	-11.1642
無年月	-11.1645
土地	-11.1654
庖	-11.1655
跋云	-11.1657
以為非	-11.1659
聿	-11.1659
仞	-11.166
儷	-11.166
荼	-11.1663
禋	-11.1663
虧	-11.1665
松雪	-11.1666
夏小正	-11.1666
盪	-11.1666
洛誥	-11.1666
孔叢子	-11.1667
捕	-11.1668
糢糊	-11.1668
彷彿	-11.1668
稗	-11.1669
炙	-11.1669
膳	-11.167
雜出	-11.167
羌	-11.167
宓	-11.1671
慤	-11.1671
石刻鋪叙	-11.1672
狥	-11.1673
倬	-11.1673
辯才	-11.1673
昺	-11.1674
類要	-11.1674
蔡君謨	-11.1675
兩帖	-11.1675
貸	-11.1675
曆	-11.1676
槀	-11.1676
叡	-11.1676
三十三卷	-11.1677
打	-11.1677
娥	-11.1678
匿	-11.1679
堵	-11.1679
尅	-11.1679
淳化閣帖	-11.1681
嵩陽	-11.1682
尚書左丞	-11.1682
造像碑	-11.1684
錫熊	-11.1687
昭然	-11.1689
韓文公	-11.1694
論三卷	-11.1695
嶽廟	-11.1698
執中	-11.1698
摹印	-11.1699
卒諡文	-11.1699
葉適	-11.1701
事蹟	-11.1703
嘉泰	-11.1704
姓纂	-11.1711
八年立	-11.1711
寺丞	-11.1712
家蔵	-11.1712
二十餘年	-11.172
凡一百	-11.172
東林	-11.172
數十字	-11.1729
總纂	-11.1729
卷九	-11.1733
蘭溪人	-11.1733
天寳十	-11.1733
五十八篇	-11.1733
予謂	-11.1737
夏禹	-11.1741
左丞	-11.1743
便於	-11.1745
金石錄	-11.1748
大篆	-11.1751
嵗久	-11.1753
百户	-11.1755
疑即	-11.1755
醫學	-11.1755
原本作	-11.1761
互有	-11.1762
吾家	-11.1766
非一人	-11.1767
應天	-11.1768
祭禮	-11.1769
輟	-11.1777
自序曰易	-11.1781
何足	-11.1791
字允	-11.1796
録八卷	-11.1796
兩浙	-11.1804
元年四月	-11.1811
凡四十	-11.1811
家廟碑	-11.1812
守令	-11.1813
傅氏	-11.1816
詩賦	-11.1816
建國	-11.1818
世變	-11.1823
三年五月	-11.1824
為之傳	-11.1825
易緯	-11.1831
不倦	-11.1831
屬辭	-11.1843
音韻	-11.1848
親見	-11.1852
典故	-11.1857
長公主	-11.186
謚文	-11.1862
之道也	-11.1876
考宋史	-11.1877
直方	-11.1878
宣武	-11.1881
首行	-11.1885
伯父	-11.1886
聼	-11.1892
妹	-11.1893
乙卯	-11.1895
長孫無忌	-11.1895
鏤板	-11.1896
抽	-11.1896
參同契	-11.1897
帑	-11.1897
迫	-11.1897
蟠	-11.1897
恍	-11.1899
挹	-11.1899
牀	-11.1901
慈恩寺	-11.1901
令狐楚	-11.1901
㓕	-11.1902
右漢故	-11.1902
慘	-11.1902
丁卯	-11.1902
翹	-11.1903
范祖禹	-11.1904
瀚	-11.1904
隙	-11.1904
堂帖	-11.1904
東方朔	-11.1904
堰	-11.1905
制誥	-11.1905
夷狄	-11.1906
凛	-11.1906
蠱	-11.1907
履祥	-11.1908
紆	-11.1908
孫士毅	-11.1908
雀	-11.1909
大師碑	-11.1909
宋儋	-11.191
蘇子瞻	-11.191
墅	-11.191
解釋	-11.191
后蒼	-11.1911
張彦逺	-11.1911
紹熙	-11.1913
孟子解	-11.1913
亦足	-11.1914
燦然	-11.1914
肩吾	-11.1914
成功	-11.1916
圈	-11.1918
修禊	-11.192
王澍	-11.1921
白居易	-11.1921
賜號	-11.1922
宋濓	-11.1925
嘗著	-11.1927
詮次	-11.1929
兵火	-11.1931
上元人	-11.1938
佛寺	-11.194
太甲	-11.1941
鐘鼎	-11.1942
自信	-11.1944
漫録	-11.1945
永樂初	-11.1945
十一冊	-11.1947
大饗	-11.1948
自任	-11.1952
泰和人	-11.1952
要覽	-11.1954
王洙	-11.1954
和靖	-11.1955
新語	-11.1955
數語	-11.1963
開元寺	-11.1965
上虞人	-11.1966
土人	-11.197
孝弟	-11.1973
大綱	-11.1973
孟喜	-11.1975
到官	-11.1982
金丹	-11.1988
余謂	-11.199
也或曰	-11.199
不苟	-11.1992
萬物之	-11.1993
吾鄉	-11.1996
郡邑	-11.1999
山樵	-11.2
曾祖	-11.2
淳于	-11.2003
夏官	-11.2003
塔記	-11.2004
書坊	-11.2007
無間	-11.201
求諸	-11.2013
處州	-11.2015
泰和	-11.2016
虞卿	-11.2024
並列	-11.2024
預修	-11.2024
全經	-11.2029
詳説	-11.2029
寧海	-11.2029
一有此	-11.2032
但稱	-11.2036
杜門	-11.2036
▁昇	-11.2045
南昌人	-11.2046
兾	-11.2053
重卦	-11.2053
淮南子	-11.2057
其言曰	-11.2058
尊信	-11.2058
豈惟	-11.2061
武都	-11.2063
幼學	-11.2069
穆帝	-11.2079
五十餘	-11.208
公權	-11.2083
聖徳	-11.2085
著録	-11.2097
大司徒	-11.2099
固辭	-11.2104
三里	-11.2105
無慮	-11.2105
􁓑	-11.2107
可識者	-11.2108
鴻臚	-11.2111
筴	-11.2121
印無考	-11.2122
講解	-11.2124
李白	-11.2124
鵲	-11.2125
汲冢	-11.2127
壓	-11.2129
耄	-11.213
欽定四庫全書史部十四	-11.2131
灸	-11.2131
隋經籍志	-11.2131
栁宗元	-11.2131
三年四月	-11.2132
稜	-11.2132
太古	-11.2132
鼂	-11.2132
琪	-11.2132
泄	-11.2132
緇衣	-11.2133
賚	-11.2133
畨	-11.2133
菉竹堂	-11.2135
縣學生	-11.2136
驕	-11.2136
妍	-11.2136
巗	-11.2137
彤	-11.2137
考明史	-11.2137
余按	-11.2137
侔	-11.2139
盤庚	-11.2139
殉	-11.2139
雉	-11.214
汙	-11.2141
彫	-11.2141
蕐	-11.2142
遞	-11.2142
焞	-11.2143
袖	-11.2143
所造	-11.2143
遹	-11.2144
文饒	-11.2144
覃思	-11.2146
錮	-11.2146
耿耿	-11.2147
撮其	-11.2147
胙	-11.2147
煇	-11.2149
奉勑	-11.2151
貴賤	-11.2154
難讀	-11.2155
諶	-11.2155
隂符經	-11.2158
衛夫人	-11.2159
依託	-11.216
方一部一冊	-11.2161
同郡	-11.2164
三國志	-11.2166
陸淳	-11.2168
崇仁	-11.2169
進士官至	-11.2169
操之	-11.217
顔淵	-11.217
應麟	-11.217
必欲	-11.2171
不利	-11.2172
府知府	-11.2173
也雖然	-11.2175
司郎中	-11.2175
和平	-11.2176
亦從顧釋	-11.2176
萬事	-11.2177
輿地	-11.2178
小畜	-11.2179
遺言	-11.218
所遺	-11.2181
黄庭經	-11.2186
呂氏	-11.2186
博通	-11.2188
于志寧撰	-11.2194
留題	-11.2199
亦頗	-11.2201
多引	-11.2204
方整	-11.2204
模刻	-11.2205
孝亷	-11.2206
反復	-11.2209
髙麗	-11.221
州知府	-11.2226
於此者	-11.2229
濮陽	-11.2232
三年三月	-11.2233
鴻都	-11.2243
亦不能	-11.2245
訛舛	-11.2246
奥義	-11.2248
保定	-11.2249
至順	-11.2253
伯恭	-11.2256
永寧	-11.2257
禮制	-11.2259
沛國	-11.2261
仲弓	-11.2262
能知	-11.2263
湖南	-11.2266
也是以	-11.2267
永叔	-11.2274
南宋	-11.228
政和中	-11.2281
御製序	-11.2281
百餘篇	-11.2284
婺源	-11.2289
人姓氏	-11.2291
新城	-11.2293
口訣	-11.2296
永豐	-11.2302
皆不載	-11.2305
掇拾	-11.2305
尹氏	-11.2314
六年立	-11.2318
竊取	-11.2334
經濟	-11.234
刋刻	-11.2342
校刋	-11.2344
板本有	-11.2347
子産	-11.2352
一部四	-11.2356
崑	-11.2358
日講官起居注	-11.2364
祓	-11.2366
㦸	-11.2367
硬	-11.2369
關中	-11.2369
讎	-11.237
起家	-11.2375
懇	-11.2375
眩	-11.2375
董逌	-11.2376
飄	-11.2376
俞汝言曰	-11.2376
携	-11.2377
希弁	-11.2378
趙文敏	-11.238
等謹案	-11.238
牝	-11.2381
金縢	-11.2382
團	-11.2382
甎	-11.2382
中尉	-11.2383
磔	-11.2383
蘿	-11.2383
紘	-11.2383
脗合	-11.2383
己巳	-11.2384
稿十卷	-11.2384
○	-11.2384
纖	-11.2385
眺	-11.2385
貲	-11.2385
羔	-11.2387
盱	-11.2388
遑	-11.2388
己夘	-11.2388
武進人	-11.2389
藍田	-11.239
㛐	-11.239
將仕郎	-11.239
鏊	-11.239
真徳秀	-11.2391
鎰	-11.2393
徐嶠之	-11.2394
王知敬	-11.2395
樊毅	-11.2396
立身	-11.2397
字今附録	-11.2397
般若	-11.2398
足矣	-11.2399
帖目當稱	-11.24
詛	-11.24
教化	-11.24
鯉	-11.2401
相表裏	-11.2402
三原縣	-11.2404
應龍	-11.2405
富貴	-11.2405
郊祀	-11.2405
衛宏	-11.2406
一百七十	-11.2409
李燾	-11.2409
歳月	-11.2409
提綱	-11.241
格致	-11.2412
王介甫	-11.2414
簡文帝	-11.2418
不復見	-11.2418
刻畫	-11.2419
歸安人	-11.2423
朝野	-11.2423
正書元和	-11.2424
六合	-11.2425
天禧	-11.2426
夏殷	-11.2435
歐陽公集古録	-11.2444
二十四年	-11.2444
辨才	-11.2448
學易者	-11.2449
多寡	-11.2452
殊不知	-11.2453
講習	-11.2457
奉祠	-11.2458
一百三十卷	-11.247
聲音	-11.2474
宋版	-11.2476
加詳	-11.2478
南面	-11.2483
贈太子太保	-11.2483
五尺	-11.2485
絶無	-11.2486
何晏	-11.249
觀覽	-11.2492
亦必	-11.2493
元素	-11.2496
魏郡	-11.2498
釋例	-11.2499
豈能	-11.2501
四十五卷	-11.2503
孔子之言	-11.2512
其文云	-11.2514
月十八日	-11.2516
僖公	-11.2517
性命之	-11.2531
以示人	-11.2533
至於今	-11.2533
廣徳	-11.2537
卒葬	-11.2539
四面	-11.254
窮理	-11.2544
景帝	-11.2554
秋官	-11.2561
亦異	-11.257
其弊	-11.2577
一部五	-11.2584
藏於家	-11.2585
韋氏	-11.2586
微辭	-11.2587
晁公武	-11.2592
郎官	-11.2594
詳定	-11.2594
免於	-11.2596
變占	-11.2601
藏經	-11.2603
遂良	-11.261
車騎	-11.2613
一百二十卷	-11.2613
哀帝	-11.2613
藍	-11.262
畋	-11.2622
遘	-11.2623
馭	-11.2623
弛	-11.2625
帳	-11.2626
皆出於	-11.2626
夙夜	-11.2627
副都御史	-11.2628
仙都	-11.2628
庖犧	-11.2629
沈傳師	-11.2629
八卷存	-11.2629
燿	-11.263
淮安	-11.263
斐	-11.263
牛僧孺	-11.263
徘徊	-11.263
飯	-11.263
宸翰	-11.263
頑	-11.2631
閨門	-11.2631
装	-11.2632
晰	-11.2633
洒	-11.2633
殖	-11.2634
煨燼	-11.2634
庻幾	-11.2634
收蔵	-11.2635
謐	-11.2635
銀青光禄大夫	-11.2636
分章	-11.2637
州諸軍事	-11.2637
蕭子雲	-11.2638
翰林待詔	-11.2639
焯	-11.2639
馨	-11.264
遺愛頌	-11.264
汁	-11.264
淄川	-11.264
絀	-11.264
釋迦	-11.264
隄	-11.2642
庭筠	-11.2643
不空	-11.2643
丁夘	-11.2643
莆陽	-11.2643
晴	-11.2644
商瞿	-11.2645
講明	-11.2645
景迂	-11.2646
蚩	-11.2646
禹謨	-11.2647
庶㡬	-11.2647
八十一首	-11.2647
葛洪	-11.2648
虞翻	-11.2649
奉化人	-11.265
散騎	-11.2654
以已意	-11.2655
増損	-11.2655
羅漢	-11.2656
未就	-11.2658
舉明經	-11.2659
嗟夫	-11.2663
衛恒	-11.2663
六經圖	-11.2664
廣德	-11.2664
佚王氏	-11.2668
四函	-11.2669
一尺	-11.2669
萬六千	-11.2671
智果	-11.2672
一部十二冊	-11.2674
岳廟	-11.2675
嘆曰	-11.2676
岐陽	-11.2677
稽首	-11.2679
祠堂記	-11.2679
光和二年	-11.2681
臨摹	-11.2684
魏文帝	-11.2684
今在西安府	-11.2686
應天府	-11.2687
篇目同前此	-11.2688
大将軍	-11.269
六畫	-11.2694
謬誤	-11.2694
水經云	-11.2694
張衡	-11.2695
聖人之㫖	-11.27
又續集	-11.2705
春秋公羊傳	-11.2711
形容	-11.2719
韓愈撰	-11.272
己丑進士	-11.2722
丹楊	-11.2722
林甫	-11.2722
二里	-11.2723
荆公	-11.2725
平仲	-11.2726
嚴氏	-11.2729
案唐書藝文	-11.273
冀州	-11.2738
竹林	-11.2739
受業於	-11.2739
門徒	-11.2746
至京師	-11.275
碧落	-11.275
趙汝	-11.276
叙述	-11.2764
忠武	-11.2767
不著録	-11.2767
等篇	-11.2771
占法	-11.2774
禅師	-11.2775
吾道	-11.2781
養生	-11.2786
元年十一月	-11.2802
不覺	-11.2805
兄子	-11.2807
未知何	-11.2808
孔子弟子	-11.2808
商周	-11.2813
而藏之	-11.2814
圗一卷	-11.2818
志四冊	-11.282
豈獨	-11.2824
我朝	-11.2832
文武之	-11.2832
十六巻	-11.2835
昇元	-11.2846
集一百卷	-11.285
夢得	-11.2857
歐趙	-11.2859
儒家	-11.2859
不堪	-11.286
五色	-11.286
彖爻	-11.286
而不言	-11.2862
弇	-11.287
寰	-11.2874
黄魯直	-11.2876
王應麟	-11.2881
皥	-11.2883
堤	-11.2883
聚訟	-11.2884
文集一部	-11.2885
草一卷	-11.2885
宋景文	-11.2885
夐	-11.2886
孔穎達	-11.2886
顓頊	-11.2887
熾	-11.2888
從容	-11.2888
慝	-11.2889
緇	-11.2889
曹學佺	-11.289
黻	-11.289
抉	-11.289
別	-11.289
鯨	-11.2891
梓潼	-11.2891
蘇轍	-11.2891
亂臣賊子	-11.2891
躋	-11.2891
筋	-11.2891
濛	-11.2891
疊	-11.2891
泮	-11.2892
通鑑綱目	-11.2892
悅	-11.2892
撓	-11.2893
瀧	-11.2893
鼻	-11.2893
皮日休	-11.2893
俯仰	-11.2894
莞	-11.2894
何喬新	-11.2894
穰	-11.2894
枝葉	-11.2894
四年四月	-11.2895
議曹掾	-11.2896
七卷又	-11.2896
了翁	-11.2896
膏肓	-11.2897
盛時	-11.2898
犍	-11.2898
舫	-11.2899
錠	-11.2899
公羊穀梁	-11.29
版式	-11.29
使持節	-11.29
磐	-11.2901
奉敕	-11.2901
陸佃	-11.2902
薪	-11.2902
參知政事	-11.2906
司𨽻校尉	-11.2906
中書省	-11.2906
師承	-11.2907
淳安人	-11.2909
修國史	-11.2909
讀禮	-11.291
禮部郎中	-11.291
施宿作	-11.291
與弟	-11.2913
虎丘	-11.2914
御覽	-11.2916
詩一首	-11.2919
不知誰	-11.2922
赤城	-11.2927
二十三年	-11.2929
四十里	-11.293
訛缺	-11.2932
臨池	-11.2932
臆見	-11.2934
詞科	-11.2936
爵里	-11.2937
持節	-11.2938
字懋	-11.2943
迄于	-11.2945
秘府	-11.2948
書并篆	-11.295
初學記	-11.295
荆南	-11.2952
乙丑進士	-11.2953
周禮儀禮	-11.2954
二年五月	-11.2955
耶律	-11.2955
髙帝	-11.2955
無疆	-11.2956
陰符經	-11.2958
徙居	-11.2959
授徒	-11.2962
纂輯	-11.2962
王荆公	-11.2965
略例	-11.2965
從弟	-11.2969
之父也	-11.2969
紹定	-11.2973
東里	-11.2974
齊魯韓	-11.2976
車馬	-11.2978
四年五月	-11.2984
汲郡	-11.2993
伯英	-11.2995
其旨	-11.2998
長孺	-11.2999
鄞	-11.2999
文定公	-11.3
而正之	-11.3012
樓記	-11.3012
隨時	-11.3013
二十七年	-11.3017
京兆府	-11.3017
百七十	-11.3022
凡二百	-11.3023
之詩也	-11.3024
錄一部二冊	-11.3032
文集二十卷	-11.3033
就正	-11.3036
儒行	-11.3036
縣志十卷	-11.3036
上谷	-11.3041
元和四年	-11.3048
者歟	-11.3052
二年十二月	-11.3053
罔不	-11.3057
縣志八卷	-11.3058
類例	-11.3064
齋文集	-11.3068
總管	-11.3086
少儀	-11.3091
謂孔子	-11.3096
庵稿	-11.31
一爻	-11.3101
不失其	-11.3104
青城	-11.3123
登善	-11.3124
曾氏	-11.3127
己意	-11.313
工夫	-11.313
當以碑為正	-11.3131
三十七卷	-11.3134
塜	-11.3135
一甲第	-11.3137
匣	-11.3139
馬鄭	-11.314
趙子函	-11.3141
所不能	-11.3141
捧	-11.3142
天台人	-11.3142
宋敏求	-11.3143
賈公彦	-11.3144
摯	-11.3145
韓康伯	-11.3145
泥於	-11.3146
講堂	-11.3147
嬴	-11.3147
斵	-11.3147
顗	-11.3148
慈谿	-11.3148
住持	-11.3148
二十卷右	-11.3148
籥	-11.3148
芟	-11.3149
大理評事	-11.3149
無恙	-11.3149
盆	-11.315
莘	-11.315
干戈	-11.315
柳公權	-11.315
鞅	-11.3151
杼	-11.3151
剏	-11.3151
嘻	-11.3151
各有所	-11.3151
㨗	-11.3152
縷	-11.3152
臨淄	-11.3152
遺法	-11.3153
儁	-11.3153
臘	-11.3153
顔真卿撰并書	-11.3153
礪	-11.3153
槎	-11.3153
蒞	-11.3154
郭子章	-11.3154
壮	-11.3154
麈	-11.3155
廪	-11.3156
刓	-11.3156
溯	-11.3156
太子太師	-11.3156
䟦尾	-11.3157
苛	-11.3157
裴度撰	-11.3157
仍其舊	-11.3157
賞罰	-11.3158
文字殘缺	-11.3158
不知為何人	-11.3159
禽獸	-11.3159
㢤	-11.3159
腴	-11.3159
幻	-11.316
樂清人	-11.316
嶷	-11.3161
祜	-11.3161
模搨	-11.3162
尉遲	-11.3163
莫非	-11.3165
通志一卷佚	-11.3165
陶隱居	-11.3167
溉	-11.3167
汾隂	-11.3167
嵇	-11.3169
璇	-11.317
秦焚	-11.317
宋志三卷佚	-11.3171
俎	-11.3171
開禧	-11.3172
一百五十卷	-11.3172
楊維楨	-11.3174
三卷未見	-11.3176
三十里	-11.3177
蘭臺	-11.3177
九巻	-11.3177
刑獄	-11.3178
白鹿	-11.3181
郊廟	-11.3184
甚精	-11.3185
石鼔	-11.3187
李翕	-11.3187
衡山	-11.3189
黄山谷	-11.3191
踰年	-11.3194
錯亂	-11.3196
第九卷	-11.3197
陸機	-11.3197
睢陽	-11.3198
洞天	-11.3203
吾友	-11.3203
死生	-11.3204
當塗	-11.3205
嵩髙	-11.3211
布政	-11.3214
五寸	-11.3217
儒臣	-11.3217
劉次莊作	-11.3219
納甲	-11.3221
頗詳	-11.3224
冠軍	-11.3226
削去	-11.3228
天子之事	-11.3234
模本	-11.3237
屋壁	-11.3238
李北海	-11.3238
不勝其	-11.3246
中常侍	-11.3248
不足信	-11.3248
體例	-11.325
下一字	-11.3251
云云是	-11.3277
墨守	-11.3279
二卷右皇朝	-11.3281
溺於	-11.3285
衢州	-11.3287
所存者	-11.329
九贊	-11.3295
莊周	-11.3298
具存	-11.331
丙戌進士	-11.3312
元第五	-11.3317
錄一部	-11.3317
小過	-11.3319
私諡	-11.332
再三	-11.3323
元和中	-11.3326
集一部二冊	-11.3326
逺甚	-11.333
顔真卿書	-11.3337
正䝉	-11.3341
七卷存	-11.3347
季友	-11.335
長慶三年	-11.3354
勤矣	-11.3375
羣玉	-11.338
乾徳	-11.3384
庚戌進士	-11.3385
亦足以	-11.3393
王獻之	-11.3397
貍首	-11.3402
饋	-11.3408
介甫	-11.3409
千載之下	-11.3411
稅	-11.3411
㓗	-11.3412
柩	-11.3412
綵	-11.3413
浹	-11.3413
燥	-11.3414
淚	-11.3414
埴	-11.3415
臂	-11.3415
翦	-11.3415
麥	-11.3415
金匱	-11.3415
宵	-11.3416
釁	-11.3416
宥	-11.3417
祔	-11.3417
恣	-11.342
晁公武曰皇朝	-11.342
慢	-11.342
仲容	-11.342
毫髪	-11.342
儔	-11.3421
麋	-11.3421
己卯	-11.3422
撿	-11.3422
新昌人	-11.3422
丸	-11.3422
而不知其	-11.3423
範圍	-11.3423
江淮	-11.3423
蕭氏	-11.3423
搜訪	-11.3424
彧	-11.3424
跨	-11.3424
躭	-11.3424
隳	-11.3425
題辭	-11.3425
畀	-11.3425
鳥獸草木	-11.3426
太常少卿	-11.3426
廩	-11.3426
藹	-11.3426
簽	-11.3427
張從申	-11.3427
大理寺	-11.3427
閤	-11.3427
贋	-11.3428
稀	-11.3428
灾異	-11.3428
戢	-11.3428
咒	-11.3429
癸夘	-11.3429
遒逸	-11.3429
軒轅	-11.343
頓首頓首	-11.3431
肄	-11.3431
暁	-11.3432
愬	-11.3432
邵雍	-11.3433
蒋	-11.3433
蔡中郎	-11.3434
泠	-11.3435
恭校上	-11.3436
英乂	-11.3436
跋尾	-11.3436
受學於	-11.3437
以貽	-11.3437
七録一卷佚	-11.3439
今移改	-11.344
大雲寺	-11.344
平陽人	-11.344
滇	-11.3441
維揚	-11.3442
尚完	-11.3443
四年九月	-11.3443
慕容	-11.3445
甘陵	-11.3448
總督	-11.3448
篆籀	-11.3449
軍節度使	-11.3449
㕘政	-11.3453
府并屬縣	-11.3453
庾翼	-11.3453
天子諸侯	-11.3459
獻之白	-11.346
豈敢	-11.3462
崇福	-11.3464
墨池	-11.3469
宋祁	-11.3472
刻梓	-11.3475
新喻	-11.3477
十二冊	-11.3484
殆盡	-11.3486
增廣	-11.3486
贊易	-11.3489
有益於	-11.3489
宗㫖	-11.3491
散失	-11.3492
延陵	-11.3495
跋語	-11.3498
刻板	-11.35
建武中	-11.35
專主	-11.3505
文選注	-11.3509
崇慶	-11.3516
莫不有	-11.3517
成敗	-11.3524
不講	-11.3525
太宗皇帝	-11.3527
岳陽	-11.3537
尤工	-11.3538
二十九年	-11.354
淳熙中	-11.3543
帝即位	-11.3544
六年正月	-11.3552
永昌	-11.3552
伯温	-11.3556
建寧元年	-11.3562
千二百	-11.3563
十餘萬言	-11.3567
不墜	-11.3568
錫山	-11.3568
皇祐中	-11.357
編纂	-11.3572
天錫	-11.3572
五卷右皇朝	-11.3574
夫人墓誌	-11.3579
離合	-11.3582
紹興初	-11.3584
草𨽻	-11.3585
全體	-11.3586
光和六年	-11.3589
西臺	-11.359
恐非	-11.3592
太醫	-11.3597
存陸元輔曰	-11.3602
要略	-11.3608
汝陽	-11.3615
受詔	-11.362
門下侍郎	-11.3621
景伯	-11.3627
唐書列傳	-11.3635
未竟	-11.3636
題識	-11.3637
仲春	-11.3639
樓觀	-11.3641
興亡	-11.3648
劉向校	-11.3649
著此書	-11.3659
也又按	-11.366
金剛	-11.3663
陛	-11.3664
百有餘	-11.3668
雍州	-11.3673
遂不復	-11.3675
豁	-11.3677
博聞	-11.3682
關睢	-11.3683
縝	-11.3685
質諸	-11.3685
居士集	-11.3687
頲	-11.3688
島	-11.3689
白居易撰	-11.3689
閫	-11.369
蒼潤軒帖䟦	-11.369
石湖	-11.3691
繙	-11.3691
紹彭	-11.3694
考究	-11.3694
一齋書目有	-11.3695
刼	-11.3695
集本無	-11.3696
太子賔客	-11.3696
韙	-11.3696
秪	-11.3697
鏗	-11.3697
華隂縣	-11.3698
顔之推	-11.3698
按察副使	-11.3698
朱彛尊	-11.3698
央	-11.3699
頋	-11.3699
暘	-11.37
𤓰	-11.37
薫	-11.37
紱	-11.37
編修官	-11.37
高堂生	-11.3701
刑部主事	-11.3701
詩書禮樂	-11.3701
圉	-11.3702
郯	-11.3702
淆	-11.3702
右隷書不著書撰人名氏	-11.3703
進講	-11.3703
州别駕	-11.3703
范寗	-11.3704
乍	-11.3704
馬端臨	-11.3704
秦漢以來	-11.3704
馮緄	-11.3705
起居郎	-11.3705
謹案右一帖草書三行二十	-11.3705
祝融	-11.3705
改庶吉士	-11.3705
种	-11.3706
大司樂	-11.3706
囉	-11.3707
經義考	-11.3709
王僧䖍	-11.3709
刑部侍郎	-11.3711
馮煥	-11.3712
傲	-11.3714
瞭然	-11.3715
羲皇	-11.3717
柟	-11.3719
勿勿	-11.3719
針	-11.372
慈湖	-11.3723
文蔚	-11.3723
鄭康成曰	-11.3723
八分書并篆額	-11.3723
有取焉	-11.3723
昏禮	-11.3725
范史	-11.3727
竒偉	-11.3728
五年四月	-11.3731
李鼎祚	-11.3732
府通判	-11.3739
四尺	-11.3739
朝聘	-11.3747
周宣王	-11.3748
之大法	-11.3749
延慶	-11.3753
備忘	-11.3753
曲臺	-11.3756
出一手	-11.3757
悲夫	-11.3757
變卦	-11.3759
許慎	-11.3759
書目一卷	-11.376
目録後	-11.376
二十八日	-11.3762
考索	-11.3769
徃來	-11.3773
不測	-11.3774
聖俞	-11.3775
棄去	-11.3776
二帝三王之	-11.3784
陸游	-11.3786
博議	-11.3786
風俗通	-11.3793
定武蘭亭	-11.3798
聞喜	-11.3801
三寸	-11.3801
何所據	-11.3806
畧例	-11.3815
千四百	-11.3819
奏議二卷	-11.3829
按後漢書	-11.3831
憲章	-11.3832
州圖經	-11.3832
西河	-11.3844
不滿	-11.3849
擇焉	-11.3851
琴譜	-11.3855
矣嗚呼	-11.3866
仍舊	-11.3872
蘭亭考	-11.3879
徳秀	-11.3885
草草	-11.3898
十四日	-11.3902
王縉	-11.3907
元包	-11.3908
唐文皇	-11.3915
通㫖	-11.3917
不可易	-11.3927
陽氷	-11.393
都穆	-11.3933
古法帖	-11.3943
里許	-11.3944
學士大夫	-11.3949
大旨	-11.3951
襍記	-11.3951
京氏易	-11.3953
迅	-11.3958
隊	-11.397
螭	-11.397
娑	-11.3974
墉	-11.3974
榛	-11.3975
亶	-11.3975
巒	-11.3975
華陽真逸	-11.3976
筞	-11.3978
𣲖	-11.3978
以類相從	-11.3978
雱	-11.398
潼	-11.398
𨽻續卷	-11.3981
隲	-11.3981
籠	-11.3981
檇李	-11.3981
紀綱	-11.3981
文獻通攷	-11.3982
茟	-11.3982
鏘	-11.3982
纍	-11.3982
光禄寺	-11.3982
朞	-11.3983
稔	-11.3983
徼	-11.3983
端明殿學士	-11.3983
以廣其傳	-11.3984
萍	-11.3984
淇	-11.3985
翃	-11.3985
藤	-11.3986
讒	-11.3986
闚	-11.3986
巋然	-11.3986
朙	-11.3987
先塋	-11.3988
糓	-11.3988
司隷校尉	-11.3989
撥亂	-11.3989
堯舜禹湯文武	-11.3989
窒	-11.3989
乙夘	-11.3989
軍碑記	-11.399
卅	-11.399
儒學提舉	-11.399
狗	-11.399
鷄	-11.399
鈍	-11.399
李心傳	-11.399
悶	-11.3991
闈	-11.3991
李衛公	-11.3991
颺	-11.3991
􁂗	-11.3991
租	-11.3991
鐙	-11.3991
精詳	-11.3992
仗	-11.3993
四門助教	-11.3994
宋志二十卷佚	-11.3994
堂谿典	-11.3994
辛卯	-11.3994
莫大乎	-11.3995
五年十月	-11.3995
馬日磾	-11.3995
夏四月	-11.3996
款	-11.3996
辜	-11.3997
袁桷	-11.3998
陸績	-11.3998
孜	-11.3999
柳宗元	-11.3999
僎	-11.4
𦂳	-11.4002
韓嬰	-11.4002
辟雍	-11.4008
尚書右丞	-11.4011
館陶	-11.4011
武岡	-11.4012
秦始皇	-11.4016
鄉黨	-11.4016
昌齡	-11.402
襲封	-11.4022
二千石	-11.4024
祭器	-11.4025
條貫	-11.4025
贈司徒	-11.4031
李吉甫	-11.4034
承恩	-11.4048
冠昏	-11.405
七百二十	-11.4052
機要	-11.4054
晚出	-11.4063
五官掾	-11.4068
莫曉	-11.4071
互異	-11.4074
十三行	-11.4088
十四冊	-11.41
佚陳氏	-11.4117
己見	-11.4132
南嶽	-11.4133
戰國時	-11.4138
而通之	-11.4142
六年十月	-11.416
不可攷	-11.4162
卒業	-11.4166
石橋	-11.4169
三百五十	-11.4173
李陽冰篆	-11.4181
忠信	-11.4185
三十一卷	-11.4187
胡文定	-11.4192
彚編	-11.4196
舛謬	-11.4207
和叔	-11.4207
秘訣	-11.4214
壬辰進士	-11.4214
昌邑	-11.4219
發題	-11.4229
補亡	-11.4237
六卷未見	-11.4239
互見	-11.4241
楊震碑	-11.4255
𧺫	-11.4257
未必然	-11.4267
漿	-11.4271
囿	-11.4271
五十二卷	-11.4272
組	-11.4272
馬端臨文獻通考	-11.4274
趙希弁曰	-11.4274
仝	-11.4275
油	-11.4275
不自揆	-11.4276
轄	-11.4276
孽	-11.4276
覬	-11.4277
四年三月	-11.4277
餘印無考	-11.4277
姻	-11.4277
鏞	-11.4278
霅	-11.4278
銳	-11.4279
三百五篇	-11.4279
杌	-11.4279
周益公	-11.428
涪陵	-11.428
澣	-11.428
磻	-11.428
汜	-11.4281
慥	-11.4281
覿	-11.4282
杲卿	-11.4282
貫穿	-11.4283
另	-11.4283
謹案右一帖草書二行十	-11.4283
贏	-11.4284
杜光庭	-11.4284
敇	-11.4284
粉	-11.4284
破碎	-11.4284
􁧸	-11.4284
周穆王	-11.4285
豪傑	-11.4285
兩篇	-11.4285
逡	-11.4285
弧	-11.4286
卋	-11.4286
驍	-11.4286
魔	-11.4286
孩	-11.4287
秋八月	-11.4287
剰	-11.4287
程敏政	-11.4288
郴	-11.4288
簋	-11.4288
裦	-11.4288
弩	-11.4289
補痕	-11.4289
授經圖義例	-11.429
永樂大典	-11.429
鳬	-11.429
元稹	-11.4291
徐鍇	-11.4291
查	-11.4291
涂	-11.4292
脯	-11.4292
從姜釋	-11.4292
入元不仕	-11.4292
乙乙	-11.4293
依倣	-11.4294
工部郎中	-11.4294
賔客	-11.4297
孫奭	-11.4297
履謙	-11.4297
梅花	-11.4299
延熹八年	-11.43
行書無姓名	-11.4301
卜商	-11.4303
偏旁	-11.4303
紫微	-11.4306
動靜	-11.4306
尊卑	-11.4306
天竺	-11.4308
源委	-11.431
草創	-11.4311
杜牧	-11.4314
道塲	-11.4314
清朗	-11.4314
宏綱	-11.4316
淺近	-11.4317
篤信	-11.432
人物考	-11.432
景雲二年	-11.4322
增益	-11.4333
開元十一年	-11.4335
不厭	-11.4337
宣示	-11.4338
右軍帖	-11.4339
集二十二卷	-11.4339
死罪	-11.434
十四巻	-11.4341
龍朔	-11.4342
慶厯中	-11.4343
日休	-11.4344
孔宙	-11.4353
依據	-11.4357
江湖	-11.4363
五經四書	-11.4369
三十餘年	-11.4373
辛丑進士	-11.4377
學術	-11.4377
葬于	-11.4378
孔子作春秋	-11.4379
監門	-11.438
九峯	-11.4383
天地間	-11.4386
篤志	-11.4391
春秋戰國	-11.4392
兾州	-11.4393
張芝	-11.44
留意	-11.44
最佳	-11.4401
載籍	-11.4404
反對	-11.4407
學之士	-11.4413
八寸	-11.4416
唐志一卷佚	-11.4416
趙彦	-11.4419
六甲	-11.442
曲水	-11.4421
地震	-11.4425
簡編	-11.4426
嗜古	-11.4428
宛然	-11.4429
華嶽碑	-11.4432
君謨	-11.4438
淮海	-11.4443
修元史	-11.4443
貞白	-11.4444
登封	-11.4455
遺愛碑	-11.4456
各一人	-11.446
大厯中	-11.446
宣德	-11.4464
撰年八分書	-11.447
二十六年	-11.4474
栁公權書	-11.4475
李紳	-11.448
墓表	-11.448
潭州	-11.4487
東陽人	-11.449
形似	-11.4497
山陰人	-11.4499
分上下	-11.452
科第	-11.4521
爻變	-11.4522
忠惠	-11.4532
夏五月	-11.4533
登封縣	-11.4537
未有能	-11.4558
吉凶悔吝	-11.4564
騶虞	-11.4569
蟄	-11.4571
膝	-11.4572
渝	-11.4572
文集一部二冊	-11.4574
起居注	-11.4575
法帖譜系云	-11.4575
書無姓名	-11.4575
裹	-11.4576
荔	-11.4577
婆	-11.4577
李宗閔撰	-11.4578
蓼	-11.4578
緻	-11.4578
庶吉士	-11.4579
暫	-11.4579
炯	-11.458
鹿鳴	-11.4581
幡	-11.4581
透	-11.4582
汚	-11.4582
諲	-11.4582
喙	-11.4582
幷	-11.4583
字様	-11.4583
煒	-11.4583
忿	-11.4584
戰國䇿	-11.4584
䔍	-11.4585
文貞公	-11.4585
潰	-11.4585
榦	-11.4585
隰	-11.4586
耻	-11.4586
屨	-11.4586
逋	-11.4586
訴	-11.4586
澈	-11.4586
無書撰人姓名	-11.4587
原本脱	-11.4587
喆	-11.4587
鮒	-11.4587
荀爽	-11.4588
法帖釋文	-11.4588
蔬	-11.4589
桐城人	-11.4589
易之為書	-11.4589
累官至	-11.4589
蟾	-11.4589
鼐	-11.459
臚	-11.459
皇甫謐	-11.459
朝請大夫	-11.4591
蠢	-11.4591
杏	-11.4591
攬	-11.4592
竹帛	-11.4592
門生故吏	-11.4592
缶	-11.4592
金石之屬	-11.4593
叅同契	-11.4593
琚	-11.4593
服膺	-11.4593
桐栢	-11.4594
文靖公	-11.4594
秘書郎	-11.4594
九齡	-11.4595
魏鄭公	-11.4595
欠	-11.4595
壼	-11.4595
翰林院學士	-11.4597
悒	-11.4597
律師碑	-11.4598
千餘年	-11.4598
優游	-11.4598
崇文緫目	-11.4599
虞永興	-11.4599
謝鐸	-11.46
墀	-11.46
康誥	-11.46
敎授	-11.46
樂平人	-11.4601
聖人作易	-11.4604
侯官人	-11.4604
今所存	-11.4605
墓碣	-11.4606
祁門人	-11.4606
冡宰	-11.4607
飛動	-11.4609
宋志一卷存	-11.4609
平湖	-11.461
司冦	-11.4611
墓側	-11.4611
遺逸	-11.4612
精粗	-11.4613
工拙	-11.4613
總裁	-11.4615
左散騎常侍	-11.4615
儒術	-11.4615
兼侍講	-11.4617
洞庭	-11.4619
翕然	-11.4619
召還	-11.4622
子昂	-11.4624
休寧	-11.4626
豫州刺史	-11.4626
服食	-11.4628
立學官	-11.463
銜名	-11.4632
易曉	-11.4634
増益	-11.4636
太極圖說	-11.4645
豐城	-11.4647
勒銘	-11.4648
李翺	-11.4649
革命	-11.465
贈太保	-11.4653
武后時	-11.4653
避地	-11.4654
大中八年	-11.4656
天聖中	-11.4657
孝㢘	-11.4657
稽疑	-11.4657
方回	-11.466
良輔	-11.4665
風后	-11.4669
大觀帖	-11.4679
縣界	-11.4686
箋注	-11.4687
佚漢書	-11.469
建寜	-11.4694
亡逸	-11.4703
宋志二卷佚	-11.4705
西亭	-11.4711
姜氏	-11.4715
富平	-11.4722
夏商周	-11.4726
禅	-11.4729
曹參軍	-11.4736
二月立	-11.474
碧落碑	-11.4741
附録一卷	-11.4743
府推官	-11.4744
天下之理	-11.4759
原甫	-11.476
月二十三日	-11.4761
壇山	-11.4767
一百八十	-11.4769
哲宗	-11.4773
三十篇	-11.478
嘉靖間	-11.4795
一卷不著名氏	-11.4817
未見姓譜	-11.4822
啻	-11.4824
項安	-11.4826
何敢	-11.483
陸德明	-11.4835
於戲	-11.4856
月十二日	-11.4858
先儒謂	-11.4861
字徑一寸	-11.4866
經典釋文	-11.4869
山人集	-11.4871
碑不著書撰人名氏	-11.4876
詧	-11.4882
天下之道	-11.4882
旄	-11.4883
内供奉	-11.4884
尝	-11.4884
峩	-11.4885
槧	-11.4886
桃源	-11.4888
紬繹	-11.4889
腰	-11.4889
勰	-11.489
杓	-11.489
氾	-11.4891
𤣥奘	-11.4891
筌蹄	-11.4891
礙	-11.4891
轂	-11.4891
兎	-11.4892
迪功郎	-11.4893
霈	-11.4893
憫	-11.4894
晁以道	-11.4894
芮	-11.4894
牡丹	-11.4894
慟	-11.4895
邳	-11.4895
斛	-11.4895
奏御	-11.4896
侣	-11.4896
鍵	-11.4897
畆	-11.4897
鷟	-11.4897
萬餘言	-11.4897
撃	-11.4898
折𠂻	-11.4898
洧	-11.4898
批答	-11.4899
畝	-11.4899
太子詹事	-11.4899
窽	-11.49
天文地理	-11.49
國子監祭酒	-11.49
光祿大夫	-11.49
上海人	-11.49
矛	-11.49
曦	-11.4901
紕	-11.4901
鍳	-11.4901
后稷	-11.4902
憐	-11.4902
巫咸	-11.4903
杜佑	-11.4903
春秋榖梁傳	-11.4903
洩	-11.4903
石經遺字	-11.4904
窓	-11.4905
紛紜	-11.4905
貺	-11.4906
蕙	-11.4906
甯	-11.4906
蠲	-11.4907
文淵閣	-11.4907
小戴記	-11.4907
喪服經傳	-11.4907
巨川	-11.4907
印板	-11.4907
按唐書	-11.4908
尚書右僕射	-11.4908
九經字様	-11.4909
竈	-11.4909
耆舊	-11.4909
㦸門	-11.4909
符瑞	-11.4909
詳畧	-11.491
九江太守	-11.491
宋志一卷未見	-11.4911
髀	-11.4911
萬七千	-11.4912
樣	-11.4914
集十八卷	-11.4914
陳櫟	-11.4918
呉江人	-11.4918
問荅	-11.4921
東莱	-11.4922
元第一百	-11.4922
説一卷存	-11.4923
分書并篆額	-11.4924
命之曰	-11.4925
龜鑑	-11.4926
服䖍	-11.4926
正月立	-11.4929
因魯史	-11.4933
茫然	-11.4941
附會	-11.4942
夢英	-11.4942
吾身	-11.4943
二十卷未見	-11.4945
諡法	-11.4946
秀才	-11.4948
宫室	-11.4949
淺深	-11.4949
楊士竒曰	-11.4958
文宣王廟記	-11.4962
周易本義	-11.497
自成一家	-11.4973
禪寺	-11.4974
有補於	-11.4976
十一巻	-11.4977
開封府	-11.4979
榖城	-11.4982
史舘	-11.4984
湯武	-11.4986
乾元二年	-11.4995
欒城	-11.4996
親親	-11.4998
舉人官	-11.5001
無忌	-11.5001
李陽氷篆	-11.5002
綱紀	-11.5005
上饒	-11.5008
總目	-11.5011
變例	-11.5041
四月立	-11.5043
浙西	-11.5045
曰古者	-11.5083
朝鮮	-11.5084
刻於石	-11.5094
佚陸德明曰	-11.5094
召試	-11.5107
六年四月	-11.5117
十二卷未見	-11.5158
豈特	-11.5167
胸	-11.518
旧	-11.5189
關雎	-11.52
閨	-11.5203
探賾	-11.5204
鄖	-11.5205
曹溶曰	-11.5206
陕	-11.5206
韓宣子	-11.5208
彖象繫辭	-11.5208
倭	-11.5212
菩提	-11.5212
絕	-11.5212
隋書經籍志	-11.5213
聃	-11.5213
寥寥	-11.5213
挽	-11.5213
勺	-11.5214
同中書門下平章事	-11.5214
㤀	-11.5215
肱	-11.5215
郵	-11.5215
畦	-11.5216
罄	-11.5216
拖	-11.5217
酈道元	-11.5217
韓魏公	-11.5218
𤾉	-11.5218
啓蒙	-11.5218
撥	-11.5218
築室	-11.5219
秘書少監	-11.5219
潼川	-11.5219
莾	-11.5219
關内侯	-11.5219
縦	-11.522
陳傅良	-11.522
迴	-11.522
宕渠	-11.522
趙崡	-11.5221
太僕寺卿	-11.5221
悚	-11.5221
杜元凱	-11.5222
飽	-11.5222
周公禮殿	-11.5222
滂	-11.5222
朝奉郎	-11.5222
杳	-11.5223
􁭉	-11.5223
鄉貢進士	-11.5223
縉紳	-11.5224
勦	-11.5224
欝	-11.5224
熄	-11.5225
翰林院檢討朱彛尊撰	-11.5225
婢	-11.5225
菁	-11.5226
戡	-11.5226
晦菴	-11.5226
隻	-11.5227
四册	-11.5227
劒	-11.5228
據此則	-11.5228
旁搜	-11.5229
汰	-11.5231
元第二百	-11.5231
唱和	-11.5232
楓	-11.5233
鯤	-11.5233
卬	-11.5234
星辰	-11.5234
幕府	-11.5236
員外	-11.5236
七卷佚	-11.5236
爚	-11.5237
正書無書	-11.5237
紙質	-11.5239
劉原父	-11.524
阮逸	-11.5241
公孫龍	-11.5243
采摭	-11.5243
司隷	-11.5245
蘇頲撰	-11.5246
典謨	-11.5248
郄	-11.5249
叅議	-11.5249
南陽太守	-11.5252
屯田	-11.5252
利害	-11.5254
高皇帝	-11.5255
旌表	-11.5256
博覽	-11.5272
月七日	-11.5273
標目	-11.5276
卜筮之書	-11.5277
精藴	-11.5279
羣儒	-11.5288
邦竒	-11.5291
潁上	-11.5292
羽林	-11.5296
宫殿	-11.5297
奏請	-11.5303
便覽	-11.5305
韋昭	-11.5308
不减	-11.5309
李淑	-11.5311
附于後	-11.5312
子昻	-11.5315
御筆	-11.5316
太素	-11.5316
元祐間	-11.5317
比丘	-11.5319
崔融	-11.5327
増入	-11.5332
五十九卷	-11.5334
器物	-11.5363
吳江人	-11.5367
顔真卿撰	-11.5375
魯峻碑	-11.5388
三十三篇	-11.5393
僖宗	-11.5397
永豐人	-11.5402
額題	-11.5408
州判官	-11.5409
九年十月	-11.5455
失其真	-11.5463
據依	-11.5472
佚宋史	-11.5487
涿郡	-11.5488
功業	-11.5501
公神道碑	-11.5523
㝎	-11.5529
莆	-11.5532
晉侍中	-11.5536
麾	-11.5537
四千九十六	-11.5538
錬	-11.5539
弄	-11.5542
伎	-11.5543
夘	-11.5543
竺	-11.5543
倘	-11.5543
愴	-11.5545
埜	-11.5546
沾	-11.5546
酸棗	-11.5547
妨	-11.5547
𣙜	-11.5547
倖	-11.5547
中庸解	-11.5547
闋	-11.5548
秘書省正字	-11.5549
瓛	-11.555
刁	-11.5551
未詳其人	-11.5551
㩀	-11.5552
謇	-11.5552
寢疾	-11.5552
月十六日	-11.5552
爼	-11.5553
一部三十冊	-11.5553
汭	-11.5553
誄	-11.5553
痕	-11.5553
翰林院編修	-11.5554
閟	-11.5554
㙮	-11.5554
翰林學士承㫖	-11.5554
緡	-11.5555
太子少師	-11.5555
遴	-11.5555
毫釐	-11.5556
燎	-11.5556
執金吾	-11.5556
盂	-11.5556
扶溝	-11.5556
黍離	-11.5556
祛	-11.5556
日月星辰	-11.5557
殤	-11.5557
黄裳	-11.5557
廸功郎	-11.5558
隧	-11.5558
瑤	-11.5558
炤	-11.5559
秋七月	-11.5559
隋文帝	-11.5559
嶁	-11.5559
上中下	-11.5559
朱龜碑	-11.556
􁡿	-11.556
椽	-11.556
在醴泉縣	-11.5561
奔喪	-11.5563
髙郵	-11.5563
毗陵	-11.5564
闥	-11.5564
刑部郎中	-11.5565
髦	-11.5566
干禄	-11.5566
酸	-11.5567
冠冕	-11.5569
悊	-11.5569
家者流	-11.557
奥㫖	-11.5572
勸農	-11.5573
巨源	-11.5575
休寜人	-11.5575
張説撰	-11.5575
淮隂	-11.5577
偃師	-11.5579
考古圖	-11.5582
延熹七年	-11.5583
舛誤	-11.5584
大中大夫	-11.5586
柱國	-11.5588
梁鵠書	-11.5588
曺史	-11.5589
府君諱	-11.559
形勢	-11.5592
夀翁	-11.5592
屈原	-11.5604
倉卒	-11.5604
高麗	-11.5607
永壽	-11.5607
長慶二年	-11.5607
奏議十卷	-11.5614
過庭	-11.5616
不與焉	-11.5626
西征	-11.5639
參校	-11.5658
齊桓	-11.5661
淳化帖	-11.5664
敦銘	-11.5669
閏月	-11.5678
州總管	-11.5681
五年正月	-11.5682
增入	-11.5688
詩一卷右唐	-11.5691
十五巻	-11.5693
佚陸徳明曰	-11.5695
四年八月	-11.5704
開成五年	-11.5714
購得	-11.5715
郃陽	-11.5715
摹勒	-11.5738
不輟	-11.5748
解一卷未見	-11.5752
豈徒	-11.5767
天下國家	-11.5803
國子學	-11.5804
陰符	-11.581
通攷	-11.5813
浦江人	-11.5815
于志寧	-11.5821
無可疑	-11.5823
一手偽	-11.584
佚晉書	-11.5854
稻	-11.5871
萬一千	-11.5872
真定府	-11.5873
芑	-11.5875
在茅山	-11.5875
䘏	-11.5878
夏侯勝	-11.5881
湫	-11.5884
趺	-11.5884
扉	-11.5885
朝散郎	-11.5886
翌日	-11.5887
朱震曰	-11.5888
跂	-11.5888
鄭餘慶	-11.5888
瀘	-11.5888
楙	-11.5888
挑	-11.5889
焦贛	-11.5889
百石卒史	-11.589
嬉	-11.589
僉都御史	-11.5891
王元羙	-11.5891
爕	-11.5891
扣	-11.5891
峨	-11.5893
扇	-11.5893
㝢	-11.5893
開物成務	-11.5893
臭	-11.5894
苹	-11.5895
張懐瓘	-11.5895
巫蠱	-11.5895
程端學曰	-11.5896
其先出自	-11.5896
聽訟	-11.5896
甗	-11.5896
冏	-11.5897
斟酌	-11.5897
卄	-11.5897
姜夔	-11.5897
屬國都尉	-11.5897
衒	-11.5897
陌	-11.5897
盾	-11.5898
韞	-11.5898
武三思	-11.5898
淆亂	-11.5898
殽	-11.5898
梗槩	-11.5899
嗇	-11.5899
爐	-11.5899
州司户	-11.5899
伉	-11.59
李邕撰并書	-11.5901
諺	-11.5901
瑄	-11.5901
佗	-11.5901
纓	-11.5902
苔	-11.5902
甬	-11.5902
玘	-11.5902
顔芝	-11.5902
君臣父子	-11.5903
叨	-11.5903
椅	-11.5903
摩滅	-11.5903
竑	-11.5904
黄溍	-11.5904
太子少傅	-11.5904
旴	-11.5905
易詩書春秋	-11.5905
聱	-11.5905
宣尼	-11.5906
鋟梓	-11.5906
壅	-11.5906
聫	-11.5906
韓昌黎	-11.5907
蹕	-11.5907
尋繹	-11.5907
蠡測	-11.5908
光禄勲	-11.5908
集賢院學士	-11.591
賈島	-11.5911
隷額	-11.5912
□□□□□□	-11.5913
埤雅	-11.5914
楊萬里	-11.5915
奉議郎	-11.5916
偏傍	-11.5918
冬十月	-11.5922
炎武	-11.5924
玉藻	-11.5924
懷素	-11.5925
嚴氏春秋	-11.5929
袁宏	-11.5936
疾病	-11.5939
研精	-11.5941
洽聞	-11.5941
短長	-11.5942
喪亂	-11.5944
私抄	-11.5946
蕭翼	-11.5947
孔子家語	-11.5949
召對	-11.5953
竒怪	-11.5956
良弼	-11.5959
復古編	-11.5959
温陵	-11.596
滁州	-11.5963
一部一册	-11.5963
紀事一卷	-11.5969
一卷未見黄虞稷曰	-11.5972
垂訓	-11.5974
辨析	-11.5974
開元二十四年	-11.5974
太湖	-11.5984
人之手	-11.5986
月二日	-11.5989
肆夏	-11.5989
鄞縣	-11.6002
數十篇	-11.6004
史籕	-11.6008
二十四篇	-11.6009
安國寺	-11.6034
風雅頌	-11.6041
開元二十五年	-11.6051
太和三年	-11.6056
眀皇	-11.6072
建中元年	-11.6096
堂詩集	-11.6105
佚黄虞稷曰	-11.6112
十三巻	-11.6139
元和六年	-11.6143
開成二年	-11.6211
鴟	-11.623
資治通鑑綱目	-11.6233
扐	-11.6238
療	-11.6239
目錄類二	-11.6241
隋志五行家	-11.6243
崐	-11.6244
茨	-11.6244
俶	-11.6244
陁羅尼	-11.6244
靄	-11.6245
喟	-11.6245
柬	-11.6246
紺	-11.6246
宋均注	-11.6246
蒼梧	-11.6246
張行成	-11.6246
殄	-11.6247
櫛	-11.6248
賄	-11.6249
丐	-11.6249
滴	-11.6249
烜	-11.6249
娯	-11.625
澁	-11.625
邜	-11.625
揖讓	-11.625
元亨利貞	-11.625
岫	-11.625
濁	-11.6251
袐	-11.6251
塏	-11.6251
𣸪	-11.6251
呪	-11.6251
蓬萊	-11.6251
柘	-11.6251
彜	-11.6251
耘	-11.6252
㦤	-11.6253
邴	-11.6253
吏部郎中	-11.6253
䋲	-11.6253
褐	-11.6254
黄石公	-11.6254
躅	-11.6254
崑崙	-11.6255
軀	-11.6255
宣和書譜	-11.6255
虵	-11.6255
巔	-11.6255
琅	-11.6256
攄	-11.6256
撰人姓名殘缺	-11.6256
顛倒	-11.6256
盲	-11.6256
飲酒	-11.6256
醴	-11.6256
皋	-11.6257
蠟	-11.6257
文林郎	-11.6257
忻	-11.6257
斿	-11.6258
者甚衆	-11.6258
混淆	-11.6258
厠	-11.6258
坤鑿度	-11.6258
鵝	-11.6259
禰	-11.6259
洋洋	-11.6259
靚	-11.6259
大業初州廢	-11.6259
北海相景君碑	-11.626
歉	-11.626
貿	-11.626
苕	-11.6261
浯溪	-11.6261
二十八宿	-11.6262
掌書記	-11.6262
愉	-11.6262
薇	-11.6263
武英殿	-11.6263
哀公問	-11.6263
閼	-11.6263
唐虞三代之	-11.6263
禮部右侍郎	-11.6264
麻姑壇記	-11.6264
堙	-11.6264
唐志十卷佚	-11.6265
蔡卞	-11.6265
璇璣	-11.6265
韓琦	-11.6266
秘書省	-11.6266
萱	-11.6266
錦衣	-11.6266
端拱	-11.6266
太清樓	-11.6267
煉	-11.6268
中散大夫	-11.6268
公食大夫	-11.6269
竅	-11.627
吕柟	-11.627
命儒臣	-11.6273
不知作者	-11.6273
提督	-11.6273
湛若水	-11.6274
庭誨	-11.6274
臆說	-11.6275
萬八千	-11.6276
隋志二卷佚	-11.6277
莫大於	-11.628
陳與義	-11.628
大鴻臚	-11.6282
隴右	-11.6283
浦江	-11.6284
鄭覃	-11.6286
館職	-11.6287
序略曰	-11.6293
合肥	-11.6295
希烈	-11.6295
還丹	-11.6299
未必盡	-11.6304
權輿	-11.6309
汶陽	-11.6312
廷珪	-11.6312
北征	-11.6314
辨惑	-11.6321
研究	-11.6324
皮氏	-11.6327
月十一日	-11.6328
流落	-11.6328
佚李氏	-11.6344
陜州	-11.6365
肥瘦	-11.6375
未之及	-11.6382
石淙	-11.6387
遺事一卷	-11.6387
贈太傅	-11.6417
草堂集	-11.6423
指掌圖	-11.6432
丈夫	-11.6434
開元二十六年	-11.6459
史籀	-11.6469
中嶽廟	-11.6494
杜子春	-11.6518
贑州	-11.6542
羲之頓首	-11.6557
楊士竒	-11.6558
府志二冊	-11.6561
啖	-11.657
長洲縣	-11.6571
叱	-11.6598
蘭溪	-11.6606
石闕銘	-11.6607
乾坤二卦	-11.6607
奈	-11.6607
拠	-11.661
沅	-11.661
暎	-11.661
撤	-11.6612
庇	-11.6612
兔	-11.6613
飫	-11.6613
疋	-11.6613
廹	-11.6614
訶	-11.6615
渤	-11.6615
爪	-11.6616
匱	-11.6617
紇	-11.6617
在盩厔縣	-11.6617
鏤版	-11.6617
鄺	-11.6617
玭	-11.6617
程大昌	-11.6617
拳拳	-11.6618
紓	-11.6618
笈	-11.6618
竣	-11.6618
雲麾	-11.662
朝議大夫	-11.6621
鑠	-11.6621
桷	-11.6622
贗	-11.6622
窆	-11.6622
械	-11.6622
㳂	-11.6622
償	-11.6623
坑	-11.6623
鑽	-11.6623
縣開國男	-11.6623
華陽國志	-11.6623
穆天子傳	-11.6623
劉餗	-11.6624
犖	-11.6624
賑	-11.6625
砂	-11.6625
􁗩	-11.6625
諌議大夫	-11.6625
摘稿	-11.6625
訊	-11.6625
瓉	-11.6626
淄	-11.6626
擯	-11.6626
菽	-11.6626
筆駛	-11.6627
顚	-11.6627
遮	-11.6627
緱氏	-11.6628
筋骨	-11.6628
吐蕃	-11.6628
扆	-11.6628
漠	-11.6629
謄	-11.6629
零落	-11.6629
筍	-11.663
縂	-11.663
蘆	-11.663
澀	-11.6631
范成大	-11.6631
甃	-11.6631
簠	-11.6632
頔	-11.6632
朐	-11.6633
城隍神	-11.6633
凡此皆	-11.6633
金壇人	-11.6634
五官中郎將	-11.6634
异	-11.6635
斌	-11.6635
一甲第一人	-11.6635
愕	-11.6637
俛	-11.6637
從王澍釋	-11.6638
八十五篇	-11.6638
私淑	-11.6639
褘	-11.6639
殿中丞	-11.664
傅會	-11.664
從劉次莊釋	-11.664
占候	-11.6641
琬琰	-11.6641
濟寧州	-11.6642
從施宿釋	-11.6643
伏羲之易	-11.6644
朝覲	-11.6646
吕東萊	-11.6647
右僉都御史	-11.6647
伊訓	-11.6652
黄門郎	-11.6652
右副都御史	-11.6653
諸家之說	-11.6655
補綴	-11.6665
道場	-11.6668
蔡襄	-11.6669
秦誓	-11.6669
太和七年	-11.6676
不分卷	-11.6677
呉澄	-11.6677
嵩陽觀	-11.6685
洺州	-11.6705
佚陸元輔曰	-11.6755
存繆泳曰	-11.677
山人稿	-11.678
開元十五年	-11.6853
不著撰人	-11.6865
雙溪	-11.6916
曰臣聞	-11.6932
許敬宗	-11.6951
扎	-11.6995
騶	-11.6995
珮	-11.6996
狡	-11.6997
集賢校理	-11.6998
諝	-11.6998
夥	-11.6999
岀	-11.6999
熒	-11.7
㲄	-11.7
在曲阜縣	-11.7001
桞公權	-11.7001
宰相世系表	-11.7001
蹲	-11.7001
陶𢎞景	-11.7001
昜	-11.7001
伶	-11.7002
李淳風	-11.7002
旃	-11.7002
挂	-11.7002
㱕	-11.7002
宣教郎	-11.7002
􁓤	-11.7002
酇	-11.7002
尺二寸	-11.7004
雌	-11.7004
礎	-11.7004
踐阼	-11.7004
郊特牲	-11.7004
苴	-11.7004
妥	-11.7005
窘	-11.7005
防禦	-11.7005
挍勘	-11.7005
格物致知	-11.7006
尺寸	-11.7006
楊用修	-11.7006
羸	-11.7006
峽	-11.7007
摩㓕	-11.7007
秦火之後	-11.7007
曽鞏	-11.7008
埃	-11.7008
邵康節	-11.7008
塼	-11.7008
貟	-11.7008
拊	-11.7008
線	-11.7009
梁昇卿	-11.7009
馥	-11.7009
峒	-11.701
沁	-11.701
璩	-11.701
隤	-11.701
泰山都尉	-11.701
鎔	-11.701
太常丞	-11.7011
濓洛	-11.7011
故功曹史	-11.7012
黷	-11.7012
驤	-11.7012
献	-11.7012
陶宗儀	-11.7012
藝文類聚	-11.7013
結銜	-11.7013
倐	-11.7013
班班	-11.7013
莘老	-11.7013
彀	-11.7013
昬	-11.7013
劫	-11.7014
蛾	-11.7014
踪	-11.7014
纉	-11.7014
觚	-11.7014
博雅君子	-11.7014
簫	-11.7014
㳅	-11.7015
箭	-11.7015
祕書郎	-11.7015
蔡有鄰	-11.7015
提刑	-11.7016
楊循吉	-11.7016
㒒	-11.7016
凋	-11.7016
治國平天下	-11.7016
鄢	-11.7017
叠	-11.7017
司隷從事	-11.7017
釋褐	-11.7018
遺教經	-11.7018
眠	-11.7018
司宼	-11.7019
舊列巻	-11.7019
洮	-11.7019
堆	-11.702
凍	-11.702
魏伯陽	-11.702
弃	-11.702
𢎞文館	-11.7021
康熈	-11.7021
絅	-11.7022
歸妹	-11.7022
釡	-11.7022
直齋書録解題卷	-11.7022
維楨	-11.7023
門生東郡	-11.7023
伴	-11.7023
謫戍	-11.7023
譌謬	-11.7023
舉孝㢘	-11.7024
憎	-11.7025
五百處士	-11.7025
胡瑗	-11.7026
暮春	-11.7026
褧	-11.7027
創業	-11.7027
元第七百	-11.7028
昆弟	-11.7028
開元二十九年	-11.703
泮宫	-11.703
豁然	-11.7031
校讐	-11.7031
禮部主事	-11.7032
性命之理	-11.7033
潯陽	-11.7035
頴達	-11.7036
行于世	-11.7039
艱難	-11.7043
購求	-11.7044
割去	-11.7048
補其闕	-11.7055
麗澤	-11.7058
袁評	-11.7061
一部一冊厯代	-11.7081
十八冊	-11.7086
月十日	-11.7091
開元十八年	-11.7106
㫖趣	-11.7132
萬三千	-11.7132
一百六十卷	-11.7151
長慶四年	-11.7165
城隍廟	-11.7183
元和八年	-11.7202
建中二年	-11.7213
被召	-11.7248
城隍	-11.7253
汀州	-11.7268
瘦勁	-11.727
知撰人	-11.7277
佚張氏	-11.7279
欒	-11.7294
圖説一卷	-11.737
含文嘉	-11.7374
㽜	-11.7377
鼎祚	-11.7377
旒	-11.7382
澍	-11.7386
沸	-11.7389
觕	-11.7393
晁説之	-11.7395
橫	-11.7396
㐫	-11.7396
贖	-11.7397
莱	-11.7398
諍	-11.7399
夏后氏	-11.74
徠	-11.74
茗	-11.74
孜孜	-11.74
蟬	-11.74
郾	-11.74
珵	-11.7401
蘋	-11.7401
吝	-11.7402
尢	-11.7402
擒	-11.7402
㝷	-11.7402
漂	-11.7403
箱	-11.7403
簾	-11.7403
慚	-11.7403
粥	-11.7403
岵	-11.7404
价	-11.7405
哥	-11.7405
裴松之	-11.7406
后妃	-11.7406
顔氏家訓	-11.7406
欹	-11.7406
儕	-11.7407
逖	-11.7407
檢閲	-11.7407
蓮花	-11.7407
餙	-11.7407
鉢	-11.7407
文淵閣書目	-11.7408
咄	-11.7408
綘	-11.7409
韓秀弼	-11.7409
巾箱	-11.7409
濃	-11.7409
陸放翁	-11.741
虙	-11.741
斆	-11.741
希弁所藏	-11.741
酣	-11.7411
儒學教諭	-11.7411
竪	-11.7411
炅	-11.7411
諸葛武侯	-11.7411
抒	-11.7412
叅知政事	-11.7412
法帖釋文考異	-11.7412
􁭇	-11.7413
文簡公	-11.7414
按察司副使	-11.7414
字皆缺筆作	-11.7414
詺	-11.7414
諸子百家	-11.7415
栖霞	-11.7415
墓志銘	-11.7415
紹熈	-11.7416
大厯十四年	-11.7416
府并屬縣志一冊	-11.7416
桐廬	-11.7417
張紹文	-11.7418
聾	-11.7418
脅	-11.7418
吕大臨	-11.7418
龍朔三年	-11.7421
賡	-11.7421
憕	-11.7421
蠅	-11.7422
吏部員外郎	-11.7423
八分書無姓名	-11.7423
康熙	-11.7424
稍稍	-11.7424
嵩岳	-11.7425
䜿	-11.7425
滄海	-11.7425
澔	-11.7426
逢辰	-11.7426
進書表	-11.7426
橅刻	-11.7427
少保諡	-11.7428
璁	-11.7428
樞宻院	-11.7429
河汾	-11.7429
牕	-11.7429
南齊書	-11.7431
雍熙	-11.7431
明堂位	-11.7432
辨一篇存	-11.7434
發憤	-11.7435
釋奠	-11.7435
謬妄	-11.7435
屯䝉	-11.7436
揚子法言	-11.7436
袁昻	-11.744
尚書僕射	-11.744
洪謨	-11.744
大厯七年	-11.744
墳典	-11.7445
元第三百	-11.7446
貞元九年	-11.7447
如之何	-11.7454
咸亨元年	-11.7456
易有太極	-11.7475
貞元十四年	-11.7479
天下萬世	-11.7482
未可知也	-11.7485
月二十六日	-11.75
繆泳曰	-11.7503
部主事	-11.7589
唐書藝文志	-11.7592
乾元元年	-11.7601
碑𨽻額	-11.7609
一千一百	-11.7649
開元八年	-11.7668
汲縣	-11.7671
十五冊	-11.7672
開成四年	-11.7743
府君墓誌	-11.7754
撰并篆	-11.7768
梁恵王	-11.7801
㽒	-11.7802
弓矢	-11.7804
銕	-11.7808
右不題撰人	-11.7809
思無邪	-11.781
殞	-11.7811
圮	-11.7811
汲汲	-11.7812
貞觀政要	-11.7812
伏羲畫卦	-11.7815
昩	-11.7815
匀	-11.7815
房𤣥齡	-11.7816
䨇	-11.7816
阮孝緒	-11.7816
裴耀卿	-11.7816
断	-11.7817
檻	-11.7817
舉子業	-11.7817
皷	-11.7818
𬒳	-11.7818
禇河南	-11.7818
菑	-11.7819
臾	-11.782
簪	-11.782
蕡	-11.782
癡	-11.782
沼	-11.7821
瀑	-11.7821
攽	-11.7821
孔子廟堂碑	-11.7821
儀禮逸經	-11.7821
副元帥	-11.7822
奕奕	-11.7822
琳琅	-11.7822
公孫丑	-11.7822
蹊	-11.7822
無餘藴	-11.7822
筆陣圖	-11.7822
控	-11.7822
稠	-11.7823
二世詔	-11.7823
殯	-11.7823
珏	-11.7823
尊勝陀羅尼	-11.7823
尤袤	-11.7823
延陵季子	-11.7823
俘	-11.7823
慷慨	-11.7823
范仲淹	-11.7824
齎	-11.7824
娛	-11.7824
今在西安府儒學	-11.7824
槖	-11.7824
氓	-11.7825
涖	-11.7825
魴	-11.7826
夏竦	-11.7826
擿	-11.7826
股肱	-11.7826
多所發明	-11.7826
氛	-11.7827
尙	-11.7827
酈	-11.7827
烱	-11.7827
溧水	-11.7827
鄠	-11.7828
逞	-11.7828
麻衣	-11.7828
兵部右侍郎	-11.7828
狄梁公	-11.7828
蕫	-11.7829
寞	-11.7829
天章閣待制	-11.7829
一部九冊	-11.7829
大經大法	-11.7829
郗愔	-11.7829
繭	-11.7829
熊朋來	-11.7829
孫明復	-11.7829
歇	-11.7829
未央	-11.7829
月二十四日	-11.783
孝經論語爾雅	-11.783
駉	-11.783
張庭珪	-11.783
白樂天	-11.783
模勒上石	-11.783
巘	-11.7831
𨗳	-11.7831
騏	-11.7831
郡開國公	-11.7832
縛	-11.7832
梨	-11.7832
眭	-11.7832
文淵閣大學士	-11.7832
蕪湖	-11.7833
魏文侯	-11.7833
立於學官	-11.7833
出新意	-11.7834
澷	-11.7834
舊列卷	-11.7834
范蠡	-11.7834
干禄字書	-11.7835
敦煌	-11.7836
乙速孤	-11.7837
其與今文不同而兩通者	-11.7837
讞	-11.7839
兵部郎中	-11.7841
蠻夷	-11.7841
太妃	-11.7841
晉江黄虞稷撰	-11.7841
陸徳明音義	-11.7842
忉	-11.7842
進賢人	-11.7844
儀禮經傳通解	-11.7844
浚儀	-11.7844
宋志五卷佚	-11.7845
元第九百	-11.7851
莫先於	-11.7852
收拾	-11.7852
宛陵	-11.7853
開元二十八年	-11.7853
有如此者	-11.7872
伯喈	-11.7875
司徒掾	-11.7877
五臟	-11.7883
追諡	-11.7892
㕘軍	-11.7897
開元二十三年	-11.7925
上下二篇	-11.7956
未見繆泳曰	-11.798
月二十五日	-11.8122
成一家言	-11.8176
建中靖國元年	-11.8208
阼	-11.8231
稹	-11.8236
昴	-11.8239
珊瑚	-11.8242
歐陽文忠	-11.8243
衘	-11.8244
㴻	-11.8245
關子明	-11.8246
呵	-11.8247
粒	-11.8248
􁃟	-11.8248
饌	-11.8249
驂	-11.8249
啖助	-11.825
株	-11.825
評者謂	-11.8251
笏	-11.8251
八陣圖	-11.8251
梗	-11.8252
咽	-11.8252
嬪	-11.8253
暌	-11.8253
珩	-11.8253
右未詳撰人	-11.8253
滙	-11.8253
擲	-11.8253
义	-11.8253
閹	-11.8253
餗	-11.8253
菀	-11.8254
泝	-11.8254
蘩	-11.8254
鞭	-11.8254
遙	-11.8254
採摭	-11.8254
無書撰人名氏	-11.8254
剽	-11.8255
都𤣥敬	-11.8255
龍圖閣學士	-11.8256
幄	-11.8256
劉向别録	-11.8256
網羅	-11.8257
嗚呼哀哉	-11.8257
探索	-11.8257
汲冡	-11.8257
賜紫金魚袋	-11.8257
魏正始中	-11.8257
悍	-11.8257
畊	-11.8257
㒺	-11.8258
拆	-11.8258
䜟緯	-11.8258
畤	-11.8258
聶崇義	-11.8259
君之碑篆額	-11.8259
鼇	-11.8259
晤	-11.8259
磨㓕	-11.826
衿	-11.826
莅	-11.826
旡	-11.8261
鏐	-11.8261
噬嗑	-11.8261
程鉅夫	-11.8261
凑	-11.8261
隗	-11.8261
椎	-11.8261
篆額二行	-11.8261
渥	-11.8262
塲屋	-11.8262
臥	-11.8263
吉日癸巳	-11.8263
邵堯夫	-11.8263
澥	-11.8263
浣	-11.8263
筑	-11.8264
畸	-11.8264
姿態	-11.8264
州天寳元年曰	-11.8264
薛紹彭	-11.8264
豚	-11.8264
孝經刋誤	-11.8264
瀟	-11.8265
駰	-11.8265
兩廡	-11.8265
翰林修撰	-11.8265
艷	-11.8265
盜賊	-11.8265
摠	-11.8265
刓缺	-11.8265
雎	-11.8265
譴	-11.8266
門生魏郡	-11.8266
余家集録	-11.8266
寶刻叢編	-11.8266
棟宇	-11.8267
清德頌	-11.8267
搢	-11.8267
斁	-11.8267
偓	-11.8268
芹	-11.8268
儒學訓導	-11.8268
葦	-11.8268
房琯	-11.8268
李善注	-11.8268
垓	-11.8269
巡狩	-11.8269
衣裳	-11.827
李儼撰	-11.827
拱辰	-11.827
張嘉貞	-11.827
未之有也	-11.827
九成宫	-11.8271
肝	-11.8271
繩墨	-11.8272
甕	-11.8272
奈何奈何	-11.8273
晁錯	-11.8274
百世之下	-11.8275
闗内侯	-11.8275
笠	-11.8275
汝礪	-11.8276
竒耦	-11.8276
元第四百	-11.8277
跳	-11.8277
鉦	-11.8278
清濁	-11.8278
无妄	-11.8279
滑稽	-11.8281
績溪人	-11.8283
高郵	-11.8283
府學訓導	-11.8284
開元二十七年	-11.8285
歴代帝王	-11.8285
逡遁	-11.8285
左布政使	-11.8287
作者之意	-11.8288
隋志三卷佚	-11.8289
大理寺卿	-11.8293
贑	-11.8351
月十九日	-11.8364
丨丨丨丨	-11.8379
存黄虞稷曰	-11.8405
贈吏部尚書	-11.8408
翰林編修	-11.8449
陸費墀	-11.8539
□□□	-11.86
亊	-11.8687
燦	-11.8688
泣血	-11.8695
嵬	-11.8696
翰林院侍講學士	-11.8698
𠂻	-11.8698
諸葛亮	-11.8699
葩	-11.8701
今以碑考之	-11.8702
鄘	-11.8703
化度寺	-11.8703
先天後天	-11.8704
東都事畧	-11.8704
春秋外傳國語	-11.8704
猿	-11.8705
袤	-11.8705
諛	-11.8705
穜	-11.8705
悠悠	-11.8706
涒灘	-11.8706
撝	-11.8706
天璽元年	-11.8706
謟	-11.8707
宋史無傳	-11.8707
餞	-11.8707
渴	-11.8707
薈	-11.8708
歐陽公集古錄云	-11.8708
廣川書䟦	-11.8709
五子之歌	-11.8709
豔	-11.871
殽阬君神祠碑	-11.871
殱	-11.871
凰	-11.8711
宋洪适撰	-11.8711
繚	-11.8711
䧺	-11.8711
籬	-11.8711
汪克寛	-11.8711
鄙俚	-11.8711
瑊	-11.8712
李商隠	-11.8712
塊	-11.8712
隆慶辛未進士	-11.8713
述聖頌	-11.8713
芥	-11.8713
佺	-11.8714
㕔壁記	-11.8714
鉄	-11.8714
緬	-11.8714
舂陵	-11.8714
謩	-11.8714
堡	-11.8715
麴	-11.8715
朓	-11.8715
袠	-11.8715
塢	-11.8715
袵	-11.8716
皇帝陛下	-11.8716
矛盾	-11.8716
河上公	-11.8716
謔	-11.8717
結搆	-11.8717
粮	-11.8717
蕭望之	-11.8717
豎	-11.8718
涌	-11.8719
殃	-11.8719
餌	-11.8719
雲麾將軍	-11.8719
顧起元	-11.8719
施孟梁丘	-11.872
萬厯癸未進士	-11.872
路總管	-11.872
臨卭	-11.872
㽔	-11.872
交阯	-11.872
廕	-11.872
瘧	-11.872
聦	-11.872
楠	-11.872
醳	-11.8721
太僕寺少卿	-11.8721
孟頫	-11.8721
一部十六冊	-11.8722
番禺	-11.8722
永和九年	-11.8724
胷	-11.8724
鄔	-11.8724
鄭絪	-11.8724
曾鞏	-11.8724
穡	-11.8725
岳珂	-11.8725
濂洛	-11.8725
袪	-11.8726
户部侍郎	-11.8726
跌	-11.8727
根柢	-11.8728
傳于世	-11.8728
子子孫孫	-11.8728
嶸	-11.8729
宕	-11.8731
崇徳人	-11.8731
䂓	-11.8732
泓	-11.8733
諷誦	-11.8736
瑒	-11.8737
大厯十二年	-11.8743
崔子玉	-11.8748
黄岩人	-11.8754
隂苐一百	-11.881
釋文序録	-11.8819
所以作也	-11.8962
倕	-11.917
馮承素	-11.9171
一以貫之	-11.9172
秋壑	-11.9172
淫奔	-11.9173
侁	-11.9173
珦	-11.9174
楽	-11.9175
州圖志二冊	-11.9175
妓	-11.9177
烹	-11.9178
汧	-11.9179
羿	-11.9179
緘	-11.9179
趯	-11.918
鞞	-11.918
炭	-11.9182
埤	-11.9182
枳	-11.9183
賈似道	-11.9183
王次㸃	-11.9183
鍾紹京	-11.9184
兇	-11.9184
件	-11.9186
蜚	-11.9186
去古未逺	-11.9186
鶉	-11.9186
灘	-11.9187
右春坊	-11.9187
公孫尼子	-11.9187
驩	-11.9187
朝奉大夫	-11.9187
陳繼儒	-11.9188
起居舍人	-11.9188
據文獻通攷補入	-11.9188
天地定位	-11.9188
璫	-11.9188
搃	-11.9188
吕惠卿	-11.9188
踊	-11.9189
董其昌	-11.9189
扃	-11.9189
悔吝	-11.9189
嵌	-11.9189
張舜民	-11.9189
相王旦	-11.919
罵	-11.919
韋編三絶	-11.919
帯	-11.919
磁	-11.919
硏	-11.9191
畼	-11.9191
劉軻撰	-11.9192
沽	-11.9192
慱	-11.9192
三皇五帝	-11.9192
古文篆𨽻三體	-11.9192
太僕少卿	-11.9192
昭仁寺碑	-11.9193
乹	-11.9193
捍	-11.9193
暈	-11.9193
嘏	-11.9193
鄩	-11.9193
藜	-11.9194
礫	-11.9194
菲	-11.9194
王稚子闕	-11.9194
存於今者	-11.9194
喪大記	-11.9194
棋	-11.9194
聖人作經	-11.9195
㦯	-11.9195
􁶜	-11.9195
繁陽令楊君	-11.9195
宋陳思撰	-11.9196
正議大夫	-11.9196
焱	-11.9196
建寕元年	-11.9196
劉三吾	-11.9197
蘧	-11.9197
楗	-11.9197
翩翩	-11.9198
工部主事	-11.9198
北軍中候	-11.9198
麒麟	-11.9198
惋	-11.9198
赫赫	-11.9198
陬	-11.9199
文苑英華	-11.92
闍	-11.92
書録解題	-11.92
開化人	-11.92
棖	-11.92
中興藝文志	-11.9201
汝楳	-11.9201
菅	-11.9203
毛萇	-11.9204
伷	-11.9204
舊列卷三第	-11.9204
糺	-11.9204
媵	-11.9205
舉於鄉	-11.9205
金溪人	-11.9205
宋志三十卷佚	-11.9206
姉	-11.9207
仔	-11.9209
府學教授	-11.9211
薄紹之	-11.9212
元第八百	-11.9215
佚右見	-11.9231
月三十日	-11.933
公孫𢎞	-11.9393
陸費墀欽定四庫全書	-11.9393
山房稿	-11.9398
撰正書無名	-11.9431
御製御書	-11.9479
月二十二日	-11.9545
興國寺碑	-11.9588
啄	-11.966
㞢	-11.9669
諴	-11.967
王之世詩	-11.9671
賂	-11.9672
拍	-11.9673
采蘋	-11.9674
淇澳	-11.9674
􁢉	-11.9675
以意逆志	-11.9676
刮	-11.9676
謳	-11.9676
笳	-11.9676
芭	-11.9676
廣大悉備	-11.9677
説卦序卦雜卦	-11.9677
卻	-11.9678
憫忠寺	-11.968
祫	-11.968
紼	-11.9681
肘	-11.9681
蠭	-11.9682
軄	-11.9682
耑	-11.9683
影鈔	-11.9683
惚	-11.9683
藎	-11.9683
思過半矣	-11.9684
扄	-11.9684
裝潢	-11.9684
白石神君碑	-11.9684
劓	-11.9685
九域志	-11.9685
越絶書	-11.9685
灣	-11.9686
蚪	-11.9686
台州府志	-11.9686
宋次道	-11.9686
文徵明	-11.9686
承務郎	-11.9686
王元賞碑	-11.9687
尠	-11.9687
聮	-11.9687
鋩	-11.9687
因而重之	-11.9687
餐	-11.9687
伽藍	-11.9687
膽	-11.9687
嘉靖丁未進士	-11.9688
迪知萬姓統譜	-11.9688
􁊬	-11.9688
淦	-11.9688
凟	-11.9688
糟粕	-11.9688
趙明誠金石録	-11.9689
引而伸之	-11.9689
中書侍郎平章事	-11.9689
挍書郎	-11.9689
程朱傳義	-11.969
在咸陽縣	-11.969
爱	-11.969
翰林院檢討	-11.969
毖	-11.969
顰	-11.9691
簷	-11.9691
刾	-11.9691
嘉言善行	-11.9692
糜	-11.9692
為己任	-11.9692
斃	-11.9692
蒯	-11.9692
曵	-11.9692
矇	-11.9693
萼	-11.9693
鄜	-11.9693
砌	-11.9693
上計掾	-11.9694
清徳頌	-11.9694
㫥	-11.9694
明都穆撰	-11.9695
勳	-11.9695
滄洲	-11.9695
彗	-11.9695
匆	-11.9695
博陵太守孔彪碑	-11.9695
趙秉文	-11.9695
陸柬之	-11.9696
淳于長夏承碑	-11.9696
欽定四庫全書金薤琳琅卷	-11.9697
堇	-11.9697
棻	-11.9697
古今人表	-11.9697
歲月未詳	-11.9697
躔	-11.9697
麻沙	-11.9697
􁨾	-11.9697
莖	-11.9697
擔	-11.9698
哈	-11.9698
割裂	-11.9698
鳳凰	-11.9698
両	-11.9699
謹案右一帖草書五行三十	-11.9699
撰并分書	-11.9699
晁公武讀書志	-11.9699
蕳	-11.9699
户部郎中	-11.97
珽	-11.97
隷釋卷第十	-11.97
輟耕録	-11.9701
璲	-11.9701
陳彭年	-11.9701
孛	-11.9701
瘠	-11.9702
樽	-11.9703
巵	-11.9704
授經圖	-11.9705
欽定天禄琳琅書目卷	-11.9705
淶	-11.9706
頎	-11.9707
兀	-11.9707
驃騎大將軍	-11.9708
耐	-11.9709
梁昇卿八分書	-11.9709
金紫光禄大夫	-11.9709
徐盛全曰	-11.971
罍	-11.9712
七錄十卷佚	-11.9713
與聖人同	-11.9716
泰山都尉孔宙碑	-11.9716
匜	-11.9719
又續稿	-11.972
孔宙碑隂	-11.9731
興唐寺	-11.9731
有感於	-11.9741
十八巻	-11.9747
汀	-11.9868
名臣言行録	-11.989
郃	-11.9966
丨丨	-12.0149
劖	-12.0188
昇仙太子	-12.0196
橅	-12.0196
喈	-12.0197
𥙿	-12.02
溝洫	-12.02
鋟諸梓	-12.0204
蹙	-12.0204
澶	-12.0204
墊	-12.0206
領鄉薦	-12.0206
濩	-12.0206
莪	-12.0207
礱	-12.0207
抃	-12.0208
䠂	-12.0208
畱	-12.0208
宣義郎	-12.0208
羑	-12.0208
埀	-12.0209
吉安府志	-12.0209
繳	-12.0209
覊	-12.0209
鷺	-12.0209
治書侍御史	-12.0209
玢	-12.021
互有得失	-12.021
通鑑紀事本末	-12.021
夏時冠周月	-12.0211
夣	-12.0211
辤	-12.0211
型	-12.0212
林希逸	-12.0212
侯莫陳	-12.0212
殽阬	-12.0212
喧	-12.0213
湼	-12.0213
眎	-12.0213
黟	-12.0213
法書要録	-12.0213
閭巷	-12.0214
漳浦	-12.0214
無極山碑	-12.0214
篁	-12.0215
俞廷椿	-12.0215
衛湜曰	-12.0215
氊	-12.0215
懈	-12.0215
正書無姓	-12.0215
悞	-12.0216
鯀	-12.0216
蹔	-12.0216
漓	-12.0216
諗	-12.0216
權徳輿撰	-12.0216
惓惓	-12.0216
𨽻書不著書撰人名氏	-12.0217
陸長源	-12.0217
拈	-12.0217
彬彬	-12.0217
囙	-12.0217
酈道元注水經	-12.0217
悽	-12.0217
棨	-12.0217
奨	-12.0218
仙壇記	-12.0218
漼	-12.0218
蓺	-12.0218
戴表元	-12.0218
睨	-12.0218
耜	-12.0219
孕	-12.0219
表而出之	-12.0219
韋應物	-12.0219
獬	-12.0219
媒	-12.022
扁鵲	-12.022
玷	-12.022
説文解字	-12.022
法帖刋誤	-12.022
册府元龜	-12.0221
楞伽	-12.0221
諾	-12.0221
楯	-12.0221
惰	-12.0221
蘇天爵	-12.0221
貼	-12.0221
水經有歐趙有	-12.0222
見諸行事	-12.0222
盧藏用	-12.0222
袍	-12.0222
煮	-12.0222
瑴	-12.0222
西嶽華山廟碑	-12.0222
資政殿學士	-12.0222
賜緋魚袋	-12.0222
蟻	-12.0222
太尉陳球碑	-12.0222
頺	-12.0223
弑其君	-12.0223
頊	-12.0223
楊時喬曰	-12.0224
鍇	-12.0224
窩	-12.0224
徭	-12.0224
曖	-12.0224
掊	-12.0225
賽	-12.0225
砭	-12.0225
滸	-12.0225
薛尚功	-12.0225
韓侂胄	-12.0226
窮理盡性	-12.0226
本二萬五大夫	-12.0226
叚文昌	-12.0226
荣	-12.0226
筦	-12.0227
鎧	-12.0227
顔眞卿	-12.0227
二漢屬	-12.0227
元次山	-12.0227
挫	-12.0227
臯陶謨	-12.0227
薤	-12.0227
偷	-12.0228
皦	-12.0228
通直郎	-12.0228
治平元年閏五月	-12.0228
儵	-12.0228
楊凝式	-12.0229
一甲第二人	-12.0229
憙	-12.0229
掖垣	-12.023
李先芳	-12.023
虔	-12.0231
按察僉事	-12.0232
大觀標目	-12.0232
嵊縣人	-12.0233
太常寺少卿	-12.0233
名物度數	-12.0234
璨	-12.0234
㮮	-12.0235
弭	-12.0235
詒	-12.0235
户部主事	-12.0235
籟	-12.0235
銍	-12.024
捃	-12.0241
益都人	-12.0252
師宜官	-12.0254
建中靖國	-12.0275
卷第二十	-12.0312
脈訣	-12.0444
淙	-12.0557
佚晋書	-12.0607
書梁評	-12.0719
籤	-12.0747
厝	-12.0749
徇	-12.075
秬	-12.075
錢謙益	-12.0751
訕	-12.0755
遂初堂書目	-12.0757
螺	-12.0759
六日七分	-12.076
太府卿	-12.076
酋	-12.076
隍	-12.0761
剞劂	-12.0761
塡	-12.0762
周南召南	-12.0762
徽猷閣待制	-12.0762
毫髮	-12.0763
鬰	-12.0763
胃	-12.0763
蒿	-12.0764
集賢殿學士	-12.0764
名蹟録	-12.0764
隆慶戊辰進士	-12.0765
詘	-12.0765
咫	-12.0766
寝	-12.0766
渇	-12.0766
一得之愚	-12.0766
床	-12.0767
蜂	-12.0767
曝	-12.0767
炬	-12.0768
珫	-12.0768
蕉	-12.0768
王與之曰	-12.0768
葭	-12.0769
曹士冕	-12.0769
李德𥙿	-12.0769
莫盛於	-12.0769
􁜭	-12.0769
經史子集	-12.0769
蕚	-12.0769
滓	-12.077
哽	-12.077
鄣	-12.077
煎	-12.077
縟	-12.077
揜	-12.077
竿	-12.0771
怳	-12.0771
金幼孜	-12.0771
丰	-12.0771
元命包	-12.0771
締	-12.0771
弈	-12.0771
屯田員外郎	-12.0771
縈	-12.0771
鶯	-12.0772
糅	-12.0772
錢金甫曰	-12.0772
王欽若	-12.0772
屛	-12.0772
括地象	-12.0772
王禹偁	-12.0772
字號第一厨書目	-12.0772
倞	-12.0772
緗	-12.0772
怏	-12.0773
宋志六卷佚	-12.0773
湧	-12.0773
蜜	-12.0773
鬭	-12.0773
霑	-12.0773
嶼	-12.0773
着	-12.0773
鄕	-12.0774
掣	-12.0774
嵐	-12.0774
柰	-12.0774
嘔	-12.0774
如指諸掌	-12.0774
安撫使	-12.0774
脞	-12.0774
右漢隷不著書撰人名氏	-12.0774
拭	-12.0775
怖	-12.0775
急就章	-12.0775
山南東道	-12.0775
朏	-12.0776
兗	-12.0776
王穉登	-12.0777
易書詩春秋	-12.0777
𤣥秘塔	-12.0777
橘	-12.0777
屺	-12.0777
尹更始	-12.0777
迦	-12.0777
澮	-12.0777
出錢二千主吏仲	-12.0778
周伯琦	-12.0778
榘	-12.0778
易書詩禮	-12.0778
中奉大夫	-12.0778
琯	-12.0779
匏	-12.0779
李商隱	-12.0779
安撫司	-12.0779
赧	-12.0779
承事郎	-12.0779
鶡冠子	-12.0779
噩	-12.0779
逯	-12.078
騤	-12.0781
卲	-12.0781
睽	-12.0781
碭	-12.0781
沛相楊君碑	-12.0782
脂	-12.0782
袂	-12.0782
冠昏喪祭	-12.0783
左春坊左	-12.0783
吏部左侍郎	-12.0783
韋處厚	-12.0784
二百故功曹	-12.0784
羊士諤	-12.0785
蔡有隣	-12.0785
嵊	-12.0786
去思碑	-12.0786
忭	-12.0787
從劉釋	-12.0787
篡	-12.0787
綯	-12.0787
韓非子	-12.0788
舎利塔	-12.0789
孔琳之	-12.0793
悝	-12.0793
隱隱可	-12.0807
丨	-12.1085
文懿公	-12.1164
二帝三王	-12.1182
官掾功曹	-12.121
洺	-12.1233
一冊女直字	-12.1264
滎	-12.1282
字徑二寸	-12.1321
七八九六	-12.1331
曳	-12.1342
仄	-12.1342
䏻	-12.1342
潦	-12.1343
塚	-12.1344
旺	-12.1345
聆	-12.1346
胡三省	-12.1346
单	-12.1346
䧏	-12.1346
朱元晦	-12.1347
禩	-12.1347
嘉靖癸丑進士	-12.1347
承奉郎	-12.1348
霓	-12.1348
府圖志二冊	-12.1349
陲	-12.1349
峡	-12.1349
茫茫	-12.135
王世充	-12.135
賵	-12.135
㒷	-12.1351
翅	-12.1351
狎	-12.1351
凌迪知萬姓統譜載	-12.1352
尖	-12.1352
琴川毛氏	-12.1353
騖	-12.1353
康王之誥	-12.1353
吳中金石新編	-12.1354
墠	-12.1354
噲	-12.1354
岑文本撰	-12.1354
凈	-12.1355
禮樂刑政	-12.1355
嗤	-12.1355
憇	-12.1356
奧	-12.1357
賜進士出身	-12.1357
胸臆	-12.1357
餽	-12.1357
元好問	-12.1357
李百藥撰	-12.1357
吸	-12.1357
遄	-12.1357
馮椅曰	-12.1358
甓	-12.1358
緼	-12.1358
髫	-12.1358
宋莒公	-12.1358
羈	-12.1358
漱	-12.1358
瘁	-12.1358
未見平湖縣志	-12.1358
金石文考畧	-12.1358
歐陽大小夏侯	-12.1359
研精覃思	-12.1359
郎中鄭固碑	-12.1359
都元敬	-12.1359
忒	-12.1359
囦	-12.1359
斾	-12.1359
阿史那	-12.136
螢	-12.136
溍	-12.136
囑	-12.136
鎖	-12.136
蘂	-12.136
法書要錄	-12.1361
李延昰曰	-12.1361
釵	-12.1361
闌	-12.1361
藺	-12.1361
謹案右一帖草書五行四十	-12.1362
璆	-12.1362
磚	-12.1362
李光弼	-12.1362
閶	-12.1362
可歎也	-12.1362
懾	-12.1362
劑	-12.1362
濰	-12.1363
縑	-12.1363
釀	-12.1364
苾	-12.1364
廞	-12.1364
駙	-12.1364
聟	-12.1364
從姜夔釋	-12.1364
􁐇	-12.1364
漲	-12.1365
軍今縣	-12.1365
絛	-12.1365
本三千分子	-12.1365
竢	-12.1365
豢	-12.1366
懽	-12.1366
鄊	-12.1366
晁說之	-12.1366
征南將軍	-12.1366
阡	-12.1367
嫄	-12.1367
非全書也	-12.1367
㫄	-12.1367
棼	-12.1367
嵒	-12.1367
􁫱	-12.1367
顔元孫	-12.1367
鈴	-12.1367
崔行功	-12.1367
埽	-12.1367
羯	-12.1368
穰苴	-12.1368
鄭衆賈逵	-12.1368
繻	-12.1368
溶	-12.1368
柜	-12.1368
揮麈録	-12.1368
窻	-12.1368
憒憒	-12.1368
尓	-12.1369
躡	-12.1369
寇	-12.1369
脾	-12.1369
牂	-12.1369
山南西道	-12.1369
容齋隨筆	-12.1371
袒	-12.1371
盎	-12.1371
陳仲弓碑	-12.1371
柰何柰何	-12.1371
薛應旂	-12.1372
尊勝經幢	-12.1372
從姜䕫釋	-12.1372
徐獻忠	-12.1372
朱謀㙔	-12.1372
霤	-12.1373
書并題額	-12.1373
通卦驗	-12.1373
嫂	-12.1373
攺	-12.1374
魏受禪碑	-12.1374
嚴彭祖	-12.1375
晋江人	-12.1375
置三卷第	-12.1375
兵備副使	-12.1375
以母老	-12.1375
舊列卷二第	-12.1376
尉繚子	-12.1376
尊勝經	-12.1377
坐位帖	-12.1377
􁉗	-12.1377
元第六百	-12.1378
􁃰	-12.1378
鄧元錫	-12.1378
忠獻公	-12.1379
夷堅志	-12.1381
演聖通論	-12.1381
聞人通漢	-12.1383
馘	-12.1384
黌	-12.1384
從顧從義釋劉次莊作	-12.1387
丨丨丨丨丨	-12.1565
譁	-12.1955
宝	-12.1958
鬬	-12.1958
妺	-12.1959
錢惟演	-12.196
屹	-12.1963
髙八尺	-12.1963
方寸鐵	-12.1963
曹娥碑	-12.1965
娘	-12.1967
洊	-12.1968
髙六尺	-12.1969
薛道祖	-12.197
崕	-12.1971
剗	-12.1972
趙冬曦	-12.1972
邀	-12.1972
段成式	-12.1973
胡應麟曰	-12.1974
𣺌	-12.1975
櫺	-12.1975
岱嶽觀	-12.1976
張商英	-12.1976
褎	-12.1977
腸	-12.1977
籩豆	-12.1977
縹	-12.1978
簣	-12.1978
金粟道人	-12.1978
佚寧波府志	-12.1979
戞	-12.1979
薩	-12.1979
司馬相如	-12.1979
泰興季氏	-12.198
逌	-12.198
苢	-12.198
不能贊一辭	-12.198
壌	-12.198
吕與叔	-12.1981
鄭漁仲	-12.1981
亢倉子	-12.1981
桴	-12.1981
恰	-12.1981
邅	-12.1981
謝靈運	-12.1982
工部右侍郎	-12.1982
崛	-12.1982
鳶	-12.1982
抱朴子	-12.1982
湊	-12.1983
天地自然之易	-12.1983
鑪	-12.1983
輓	-12.1983
􁨿	-12.1983
姒	-12.1984
窈	-12.1984
嘉興李光暎撰	-12.1984
援神契	-12.1984
九成宫醴泉銘	-12.1984
見太學題名碑	-12.1985
貭	-12.1985
逭	-12.1985
祕書省正字	-12.1986
綠	-12.1986
張平子碑	-12.1986
劵	-12.1986
鴈塔題名	-12.1986
陶淵明	-12.1987
惪	-12.1987
犁	-12.1987
抹	-12.1987
賖	-12.1987
瘡	-12.1987
鬲	-12.1988
佾	-12.1988
天慶觀	-12.1988
鍚	-12.1988
藏俞松家	-12.1989
黄洪憲	-12.1989
堦	-12.1989
問王知道	-12.199
􁊓	-12.199
貟外郎	-12.199
嗚	-12.199
㬌	-12.199
稟	-12.199
壎	-12.199
猾	-12.1991
畯	-12.1991
朱睦㮮	-12.1991
錢陸燦曰	-12.1991
霣	-12.1991
戶	-12.1991
醪	-12.1992
敔	-12.1992
奉朝請	-12.1992
腳	-12.1992
瑱	-12.1992
張士誠	-12.1992
廋	-12.1992
帚	-12.1993
灋	-12.1993
秘書省校書郎	-12.1994
寳刻叢編	-12.1994
郟	-12.1994
暠	-12.1994
薰	-12.1994
但標名今移	-12.1994
刑部右侍郎	-12.1995
潄	-12.1995
近思録	-12.1995
眙	-12.1996
涸	-12.1996
㙒	-12.1996
馮宿撰	-12.1997
熲	-12.1997
琨	-12.1999
藐	-12.1999
迤	-12.1999
燋	-12.1999
芻蕘	-12.1999
范式碑	-12.2
嘉靖戊戌進士	-12.2
林希元	-12.2
孔廟後碑	-12.2002
麄	-12.2003
陳仁錫	-12.2003
葯	-12.2004
睂	-12.2005
蠙	-12.2006
縚	-12.2008
蕭思話	-12.2012
骸	-12.2023
所由作也	-12.2023
大足元年	-12.2154
寸五分	-12.2229
月十七日	-12.2243
易外别傳	-12.2621
讌	-12.2623
惘	-12.2625
權德輿	-12.2629
刷	-12.2632
㕘知政事	-12.2633
秃	-12.2636
磋	-12.2636
躐	-12.2636
孫崇望	-12.2637
犢	-12.2637
縞	-12.2637
諄諄	-12.2637
馬鞍山	-12.2638
匾	-12.2638
秫	-12.2638
蘇源明	-12.2639
蘖	-12.2639
佇	-12.2639
徤	-12.264
擘	-12.2641
頠	-12.2641
以考工記補之	-12.2641
瀋	-12.2642
垍	-12.2643
褊	-12.2643
芙蓉	-12.2643
凜	-12.2643
蚓	-12.2644
肌	-12.2644
鍔	-12.2645
𬋩	-12.2645
童而習之	-12.2646
龐	-12.2646
窅	-12.2646
瘳	-12.2646
郭香察書	-12.2646
鯁	-12.2646
不一而足	-12.2646
燹	-12.2646
温彦博碑	-12.2646
張懷瓘	-12.2646
紀年通譜	-12.2646
熖	-12.2647
張時徹	-12.2647
成化甲辰進士	-12.2647
鉗	-12.2647
曅	-12.2647
冣	-12.2647
噉	-12.2647
䑕	-12.2647
胡母生	-12.2647
三藏聖教序	-12.2647
陶宏景	-12.2648
枯樹賦	-12.2648
踣	-12.2648
穏	-12.2648
儘	-12.2648
風土記	-12.2649
博極羣書	-12.2649
万紐于瑾	-12.2649
南華真經	-12.265
皇甫誕碑	-12.265
傖	-12.265
戴叔倫	-12.265
仲虺之誥	-12.265
伺	-12.2651
軆	-12.2651
搏	-12.2651
神䇿軍	-12.2651
於千載之上	-12.2651
珤	-12.2652
縯	-12.2652
髠	-12.2652
㽞	-12.2652
斫	-12.2652
王𢎞撰曰	-12.2652
絪	-12.2653
玉真公主	-12.2653
籩	-12.2653
臮	-12.2653
翮	-12.2653
撡	-12.2654
翌	-12.2654
􁐓	-12.2654
行夏之時	-12.2654
􁒐	-12.2654
鬚	-12.2654
自相矛盾	-12.2654
琥	-12.2654
貉	-12.2654
皴	-12.2654
卣	-12.2654
孳	-12.2654
晉天福	-12.2655
箎	-12.2655
貍	-12.2655
禮部左侍郎	-12.2655
祝允明	-12.2655
腫	-12.2655
范忠宣	-12.2655
狷	-12.2655
㳫	-12.2656
診	-12.2656
瀏	-12.2656
努	-12.2656
蒼潤軒帖跋	-12.2657
虺	-12.2657
以前民用	-12.2657
嵓	-12.2657
諏	-12.2657
謹案右一帖楷書	-12.2657
臼	-12.2657
扞	-12.2657
祧	-12.2658
坣	-12.2658
東萊吕氏曰	-12.2658
不題所書人姓氏	-12.2658
今據文獻通攷	-12.2658
碁	-12.2658
盩厔	-12.2659
滉	-12.2659
主客郎中	-12.2659
慼	-12.2659
奉議大夫	-12.2659
彣	-12.2659
餉	-12.266
洛神賦	-12.266
明朱睦㮮撰	-12.266
無書人名氏	-12.2661
阨	-12.2661
奩	-12.2661
右見綿	-12.2661
令狐徳棻	-12.2662
凃	-12.2662
邯	-12.2662
耰	-12.2662
顧野王	-12.2662
佖	-12.2662
毛竒齡曰	-12.2662
嶲	-12.2663
州剌史	-12.2663
姚方興	-12.2664
澠	-12.2664
洹	-12.2664
墩	-12.2664
港	-12.2664
聖經賢傳	-12.2664
隋平陳郡廢	-12.2665
稽覽圖	-12.2665
尊王發微	-12.2665
韓雲卿撰	-12.2665
蓂	-12.2666
翀	-12.2666
帖閒者軒帖考云	-12.2666
縊	-12.2666
迸	-12.2667
氐	-12.2667
拳	-12.2667
濆	-12.2668
王肯堂	-12.2668
沚	-12.2668
許康佐	-12.2669
蘅	-12.2669
人嘉靖壬戌進士	-12.2669
譖	-12.267
𩔖	-12.267
佚紹興府志	-12.2671
顧應祥	-12.2671
薺	-12.2673
蔀	-12.2674
閌	-12.2674
諜	-12.2678
能品六十六人	-12.2678
襄毅公	-12.2683
名臣十三之	-12.2687
萬厯甲辰進士	-12.2717
韓休撰	-12.2957
尺四寸	-12.308
朝名臣言行	-12.3088
在墨玅亭	-12.3329
懴	-12.3341
訐	-12.3342
蘇靈芝書	-12.3343
咲	-12.3345
方州部家	-12.3346
第一千九百	-12.3346
劬	-12.3347
亹亹	-12.3347
姨	-12.3347
孰能與於此	-12.3348
偘	-12.3348
火珠林	-12.3348
睠	-12.335
篚	-12.335
燠	-12.335
頖	-12.3351
瑪	-12.3351
屠本畯	-12.3353
繒	-12.3355
窠	-12.3355
繢	-12.3355
舶	-12.3355
桼	-12.3355
兠	-12.3356
辝	-12.3356
崇政殿説書	-12.3357
此謂知本	-12.3358
煦	-12.3358
嶮	-12.3358
東都事略	-12.3358
踏	-12.3358
瑰	-12.3359
宋歐陽修撰	-12.3359
箧	-12.3359
塑	-12.3359
高佑釲曰	-12.3359
淛	-12.336
盧多遜	-12.3361
三藏法師	-12.3361
舉一隅	-12.3361
薛道衡	-12.3361
齊民要術	-12.3361
矚	-12.3362
禺	-12.3362
猜	-12.3362
槁	-12.3362
佚金華志	-12.3362
澹生堂	-12.3362
漬	-12.3362
穫	-12.3362
昃	-12.3362
盥	-12.3363
咈	-12.3363
今在曲阜縣廟中	-12.3363
闓	-12.3363
戔	-12.3363
渢	-12.3363
怯	-12.3363
棧	-12.3363
宐	-12.3363
衎	-12.3364
桑中溱洧	-12.3364
硤	-12.3364
訝	-12.3364
冈	-12.3364
拏	-12.3365
賻	-12.3365
通議大夫	-12.3365
張芸叟	-12.3365
狭	-12.3365
垕	-12.3365
郫	-12.3365
􁒤	-12.3365
逓	-12.3365
傭	-12.3365
謝肇淛	-12.3366
讀書附志	-12.3366
祕書少監	-12.3366
觸類而長	-12.3366
靑	-12.3366
斷爛朝報	-12.3366
季振宜	-12.3367
悱	-12.3367
陘	-12.3367
軺	-12.3367
閠	-12.3367
哂	-12.3367
嘖	-12.3367
栽	-12.3367
卵	-12.3367
侑	-12.3368
戚伯著碑	-12.3368
匝	-12.3368
褰	-12.3369
蘚	-12.3369
鹤	-12.3369
劉克莊	-12.3369
孫思邈	-12.3369
佚括蒼彚紀	-12.3369
㑓	-12.3369
孳孳	-12.337
榭	-12.337
頓首頓首死罪死罪	-12.337
梅堯臣	-12.337
􁅧	-12.337
鸛	-12.3371
容臺集	-12.3371
䆳	-12.3371
隋開皇初郡廢	-12.3371
佚徽州府志	-12.3371
賈昌朝	-12.3371
弘農太守	-12.3371
鎡	-12.3371
愻	-12.3371
郜	-12.3372
套	-12.3372
纁	-12.3372
懌	-12.3372
佶	-12.3373
鴞	-12.3373
􁶙	-12.3373
良有以也	-12.3373
達奚珣	-12.3373
秣	-12.3373
蟹	-12.3374
閽	-12.3374
吴通微	-12.3374
釴	-12.3374
晢	-12.3375
參天兩地	-12.3375
琇	-12.3375
在蒲城縣	-12.3376
虞世基撰	-12.3376
庙	-12.3376
栩	-12.3376
肋	-12.3376
駸駸	-12.3376
憮	-12.3376
延康元年	-12.3377
窪	-12.3377
雛	-12.3377
橐	-12.3377
峕	-12.3377
并属縣志	-12.3377
夤	-12.3377
繄	-12.3378
糴	-12.3378
蒹	-12.3378
瀹	-12.3379
喜怒哀樂之	-12.3379
晧	-12.3379
荃	-12.3379
喉	-12.3379
祝睦碑	-12.3379
㐲	-12.3379
耿定向	-12.338
弆	-12.338
婿	-12.338
徐彦伯	-12.338
漯	-12.338
槗	-12.3381
寨	-12.3381
鍜	-12.3381
孔穎逹	-12.3382
羗	-12.3382
肜	-12.3383
徐偃王	-12.3383
絰	-12.3383
龍蔵寺	-12.3383
乞骸骨	-12.3384
周履靖	-12.3385
璪	-12.3386
當别是一	-12.3387
王漸逵	-12.3387
耗	-12.3388
蔭	-12.339
萬厯庚辰進士	-12.339
萬厯丁丑進士	-12.3393
普通三年	-12.3405
卷司馬光撰	-12.3574
潯	-12.4093
丱	-12.4106
瞭	-12.4108
月十五日立	-12.4114
鈇	-12.4114
庀	-12.4114
殳	-12.4115
巋	-12.4116
藂	-12.4116
立象以盡意	-12.4119
峪	-12.4119
尹起莘	-12.412
琉	-12.412
插	-12.4122
紏	-12.4122
瓜	-12.4122
皆科斗文字	-12.4122
兩浙名賢錄	-12.4122
鼈	-12.4122
趙汝楳曰	-12.4123
娟	-12.4123
易有聖人之道四焉	-12.4124
罅	-12.4124
琱	-12.4125
紿	-12.4125
奘	-12.4125
㮣	-12.4126
裵	-12.4126
碾	-12.4126
憧	-12.4126
岱岳觀	-12.4127
欎	-12.4127
蒭	-12.4127
西伯戡黎	-12.4127
餒	-12.4127
烽	-12.4127
字號第二厨書目	-12.4128
銀青光祿大夫	-12.4128
軟	-12.4128
穸	-12.4128
錐	-12.4129
岌	-12.4129
夢真容	-12.4129
糞	-12.4129
宋桑世昌撰	-12.413
朝請郎	-12.413
泆	-12.413
㪅	-12.413
堊	-12.413
溷	-12.413
埏	-12.4131
洛陽伽藍記	-12.4131
大智禪師碑	-12.4132
蝌	-12.4132
胛	-12.4132
酸棗令劉熊碑	-12.4132
耋	-12.4132
欤	-12.4132
衲	-12.4133
壠	-12.4133
琁	-12.4133
杵	-12.4133
疣	-12.4133
變動不居	-12.4134
傒	-12.4134
鄄	-12.4134
鑚	-12.4134
申屠致逺	-12.4134
簀	-12.4135
餓	-12.4135
艶	-12.4135
漶	-12.4135
疫	-12.4136
慾	-12.4136
嘲	-12.4136
粧	-12.4136
郭謙光	-12.4136
天發神䜟	-12.4136
啼	-12.4136
魏受禪表	-12.4136
阪	-12.4136
催	-12.4137
鷃	-12.4137
紬	-12.4137
酺	-12.4137
紈	-12.4137
崔敦禮	-12.4137
埒	-12.4137
纊	-12.4137
光祿勲	-12.4138
瑚	-12.4138
柝	-12.4138
党懐英	-12.4138
暖	-12.4138
梟	-12.4138
嵎	-12.4138
劉芳喆曰	-12.4139
將作大匠	-12.4139
㬊	-12.4139
丼	-12.4139
琟	-12.4139
冬官未嘗亡	-12.4139
郛	-12.4139
饕	-12.4139
項篤夀	-12.414
沌	-12.414
焜	-12.4141
頁	-12.4141
咀	-12.4141
析里橋郙閣頌	-12.4142
瞰	-12.4142
內	-12.4142
􁚔	-12.4142
剙	-12.4143
愠	-12.4143
㩦	-12.4143
禳	-12.4143
成陽靈臺碑	-12.4143
頵	-12.4144
遝	-12.4144
祝睦後碑	-12.4144
覀	-12.4144
温柔敦厚	-12.4144
鷲	-12.4145
﨑	-12.4145
鐶	-12.4145
熠	-12.4145
葉紹翁	-12.4146
山陽太守祝睦	-12.4146
瑯	-12.4146
漣	-12.4146
邽	-12.4147
逶	-12.4147
屐	-12.4147
陸龜䝉	-12.4147
鑊	-12.4147
机	-12.4148
人萬厯癸丑進士	-12.4148
未下錠	-12.4149
櫝	-12.4149
腎	-12.415
蛻	-12.415
拄	-12.415
様	-12.415
駝	-12.415
家鉉翁	-12.415
宋志十四卷佚	-12.415
串	-12.4151
廌	-12.4151
瓢	-12.4151
份	-12.4151
黽	-12.4151
冽	-12.4152
粱	-12.4152
肺	-12.4152
𡨕	-12.4153
郤	-12.4153
古噐物銘苐	-12.4153
李廷機	-12.4153
柒	-12.4153
抍	-12.4154
騭	-12.4154
掎	-12.4154
晻	-12.4154
齗	-12.4155
知汝殊愁	-12.4155
戕	-12.4156
鈎𨼆圖	-12.4157
麒	-12.4157
兵科給事中	-12.4158
髯	-12.4159
鰥	-12.4159
鹹	-12.4159
埶	-12.4159
症	-12.416
溱	-12.416
憔	-12.4161
許孚逺	-12.4162
故吏五官掾博陵	-12.4164
驁	-12.4171
月廿六日	-12.4179
人嘉靖壬辰進士	-12.4181
蒧	-12.4183
人一甲第三人	-12.423
月之節日在	-12.4924
簭	-12.4933
妬	-12.4936
月中氣日在	-12.4936
緱	-12.494
覘	-12.4944
董眞卿曰	-12.4944
嚳	-12.4946
涘	-12.4946
佻	-12.4947
躁	-12.4948
杪	-12.4948
弨	-12.4949
棹	-12.495
說卦序卦雜卦	-12.495
停雲館	-12.4951
猝	-12.4952
捫	-12.4952
荄	-12.4953
溜	-12.4953
嶧	-12.4954
郕	-12.4954
不詳何代人	-12.4954
燄	-12.4954
弥	-12.4955
晊	-12.4955
簏	-12.4955
珊	-12.4955
鈐寳二曰	-12.4956
睇	-12.4956
眈	-12.4957
得坤乾焉	-12.4957
惎	-12.4957
珞	-12.4958
堕	-12.4958
仁義禮智	-12.4958
荐	-12.4958
焰	-12.4958
吠	-12.4958
鴛	-12.4959
雹	-12.4959
伾	-12.4959
嫉	-12.496
蜕	-12.496
兊	-12.496
夏侯始昌	-12.4961
描	-12.4961
可以無大過	-12.4961
縳	-12.4961
涅	-12.4961
元㑹運世	-12.4962
淯	-12.4962
受詩於浮丘伯	-12.4963
安平相孫根碑	-12.4963
獒	-12.4963
蟜	-12.4963
篹	-12.4963
届	-12.4964
慇	-12.4964
帝出乎震	-12.4965
継	-12.4965
佔	-12.4965
編古命氏	-12.4965
書傳㑹選	-12.4966
圉令趙君碑	-12.4966
謾	-12.4966
諉	-12.4966
豬	-12.4966
飡	-12.4966
衛輝府	-12.4966
太尉郭禧	-12.4967
癉	-12.4967
囂	-12.4967
臬	-12.4967
資政殿大學士	-12.4967
蕆	-12.4967
御筆鈐乾隆雙璽	-12.4967
攣	-12.4968
堂邑令費君碑	-12.4968
愜	-12.4968
武氏石室畫像	-12.4968
􁖯	-12.4968
詖	-12.4968
鶻	-12.4968
􁀉	-12.4968
苓	-12.4968
傚	-12.4968
可勝歎哉	-12.4968
舁	-12.4968
劉顧俱作	-12.4969
跪	-12.4969
箇	-12.4969
儀同三司	-12.497
䞇	-12.497
食貨志	-12.497
皇王大紀	-12.497
窗	-12.497
范蔚宗	-12.497
今在醴泉縣殘缺	-12.497
餼	-12.497
應奉翰林文字	-12.4971
于志寕撰	-12.4971
磵	-12.4971
􁭃	-12.4971
張猛龍碑	-12.4972
蟀	-12.4972
用九用六	-12.4972
􁃽	-12.4972
䛕	-12.4972
釜	-12.4972
薛瑄曰	-12.4973
吏部右侍郎	-12.4973
􁬾	-12.4973
㫤	-12.4974
癰	-12.4974
埭	-12.4974
燃	-12.4975
醯	-12.4975
蓘	-12.4975
莩	-12.4975
謠	-12.4975
石經儀禮殘碑	-12.4975
莠	-12.4975
攙	-12.4976
頸	-12.4976
瀕	-12.4976
勗	-12.4976
漪	-12.4976
麃	-12.4976
臞	-12.4976
冇	-12.4976
頰	-12.4977
􁄂	-12.4977
爟	-12.4977
兕	-12.4977
仭	-12.4977
困學紀聞	-12.4977
㳤	-12.4977
廚	-12.4978
屍	-12.4978
驎	-12.4978
壂	-12.4978
麕	-12.4978
蹄	-12.4978
􁀫	-12.4979
洄	-12.4979
憸	-12.4979
佀	-12.4979
篠	-12.4979
𢎞治癸丑進士	-12.4979
憒	-12.498
癘	-12.498
塤	-12.498
臠	-12.498
豸	-12.498
瓶	-12.4981
頷	-12.4981
匙	-12.4981
韵	-12.4981
瘴	-12.4982
榕	-12.4982
簿督郵五官掾功曹	-12.4982
轟	-12.4983
擷	-12.4983
執金吾丞武榮碑	-12.4983
南宫敬叔	-12.4984
昞	-12.4984
唾	-12.4984
提學僉事	-12.4984
暄	-12.4985
筏	-12.4986
獅	-12.4986
畎	-12.4988
歩兵校尉	-12.4988
漢志二篇佚	-12.499
緦	-12.499
蛙	-12.4991
凷	-12.4994
厪	-12.4995
磊	-12.4995
月廿四日	-12.4996
戣	-12.4998
蓉	-12.5002
粦	-12.5006
人嘉靖癸未進士	-12.5007
欽定四庫全書崇文總目卷	-12.5076
月廿八日	-12.5251
晬	-12.5838
伯趙岐曰孟子弟子	-12.5842
州團練副使	-12.5848
笄	-12.5853
允執其中	-12.5854
噬	-12.5855
煚	-12.5855
鶩	-12.5856
袓	-12.5857
坻	-12.5857
媧	-12.5858
藏真律公	-12.5858
邍	-12.5858
隼	-12.5859
佛頂尊勝陁羅尼	-12.586
銛	-12.586
沭	-12.5861
痼	-12.5861
麽	-12.5862
未見蒋方馨曰	-12.5862
嚞	-12.5863
斡	-12.5863
耨	-12.5865
粘	-12.5866
㕓	-12.5866
從父詹事公	-12.5866
攡	-12.5866
賸	-12.5866
悸	-12.5866
何彼穠矣	-12.5866
崗	-12.5866
䙝	-12.5867
嚕	-12.5867
逍	-12.5867
郇	-12.5868
夹	-12.5868
崇文揔目	-12.5868
萬厯戊戌進士	-12.5868
庋	-12.5868
深切著明	-12.5868
稽古右文之璽	-12.5868
栞	-12.5869
謏	-12.5869
顧况道號	-12.5869
璃	-12.587
尒	-12.587
冤	-12.587
輶	-12.587
凄	-12.5871
益部耆舊傳	-12.5871
匽	-12.5871
涑	-12.5872
黠	-12.5872
蕋	-12.5872
揉	-12.5872
䡖	-12.5872
謹案右一帖行草三行二十	-12.5873
經明行修	-12.5873
袞	-12.5873
李思訓碑	-12.5873
鈕	-12.5873
牾	-12.5873
敶	-12.5873
欽定四庫全書蘭亭考卷	-12.5874
睫	-12.5874
膾	-12.5874
褫	-12.5874
祏	-12.5875
晏公類要	-12.5875
鎩	-12.5875
治平元年六月十日書	-12.5875
屣	-12.5876
綫	-12.5876
昫	-12.5876
賜同進士出身	-12.5876
禹湯文武	-12.5876
荚	-12.5877
寉	-12.5877
娱	-12.5877
媛	-12.5877
元祐黨籍	-12.5877
瑕丘江公	-12.5878
太平御覧	-12.5878
平輿令薛君碑	-12.5878
㪺	-12.5878
宧	-12.5878
佘	-12.5878
興觀羣怨	-12.5878
嫓	-12.5878
搖	-12.5878
州軍州事	-12.5878
塋兆記	-12.5878
棃	-12.5879
洸	-12.5879
搶	-12.5879
尉氏令鄭君碑	-12.5879
磯	-12.5879
􁂮	-12.5879
窀	-12.5879
京兆杜陵人	-12.5879
闐	-12.5879
墁	-12.588
庾承宣撰	-12.588
甑	-12.588
邰	-12.588
吏科給事中	-12.588
体	-12.588
欽定四庫全書寳刻叢編卷	-12.5881
綃	-12.5881
怙	-12.5881
綝	-12.5881
􁇒	-12.5883
糊	-12.5883
祲	-12.5883
𫐠	-12.5883
箸	-12.5883
僵	-12.5884
玖	-12.5884
泚	-12.5885
讙	-12.5885
崇政殿說書	-12.5885
秕	-12.5885
扺	-12.5885
呻	-12.5885
宏文館學士	-12.5885
肹	-12.5885
幘	-12.5885
縵	-12.5886
斟	-12.5886
未見黃虞稷曰	-12.5886
笞	-12.5886
懦	-12.5886
寀	-12.5886
撏	-12.5886
瑁	-12.5886
玕	-12.5887
濄	-12.5887
顧阿瑛	-12.5887
相府小史夏堪碑	-12.5887
𢎞治己未進士	-12.5887
壷	-12.5887
使工鐫刻	-12.5888
贈禮部尚書諡文	-12.5888
嶂	-12.5888
剋	-12.5888
是知津矣	-12.5889
湟	-12.5889
䣊	-12.5889
縻	-12.5889
是魯孔丘與曰是	-12.5889
輿地碑記目	-12.589
螽	-12.589
頏	-12.5891
􁆖	-12.5891
戩	-12.5891
鼒	-12.5891
垂世立教	-12.5893
瑭	-12.5895
雯	-12.5895
睡	-12.5895
撻	-12.5896
𤣥齡字喬	-12.5896
啖助趙匡	-12.5897
衛尉卿衡方碑	-12.5897
桮	-12.5897
疴	-12.5901
姚舜牧	-12.5904
謹按東觀餘論云	-12.5906
儒學副提舉	-12.591
櫬	-12.592
狸	-12.5929
塩	-12.6841
醬	-12.6842
岳麓書院	-12.6845
嚻	-12.6846
悙	-12.6846
児	-12.6847
嵩陽石刻集記	-12.6847
獠	-12.6848
典謨訓誥誓命	-12.6848
枲	-12.6849
日講官起居注翰林院侍讀學士	-12.685
驢	-12.6853
刖	-12.6854
周孝侯碑	-12.6854
屡	-12.6854
衽	-12.6855
鄹	-12.6858
楼	-12.6859
絮	-12.6859
旉	-12.6859
渺	-12.686
緋	-12.686
蠒	-12.686
睥	-12.6861
許孟容撰	-12.6861
封祀壇碑	-12.6862
華葢殿大學士	-12.6863
佼	-12.6863
河出圖洛出書聖人則之	-12.6864
裾	-12.6864
墾	-12.6864
幙	-12.6864
臏	-12.6865
沈佺期	-12.6865
偪	-12.6865
眡	-12.6865
產	-12.6865
陀羅尼經	-12.6865
渼	-12.6866
僥	-12.6866
壟	-12.6866
居則觀其象而玩其辭	-12.6866
穩	-12.6867
媯	-12.6867
覔	-12.6867
輗	-12.6867
戻	-12.6867
鷗	-12.6867
匯	-12.6868
熺	-12.6868
縗	-12.6868
禔	-12.6868
鶠	-12.6868
府史胥徒	-12.6868
令長新誡	-12.6868
摽	-12.6868
四月十一日戊子到官	-12.6869
沈括筆談	-12.6869
經禮三百曲禮三千	-12.687
唐御注道德經	-12.687
鎸	-12.6871
山澤通氣	-12.6871
昆陽鄭東	-12.6871
駘	-12.6871
宗皇帝寳訓	-12.6871
􁁏	-12.6872
原始要終	-12.6872
黏	-12.6872
欽定四庫全書漢藝文志考證卷	-12.6873
阬	-12.6873
嬖	-12.6873
典謨訓誥	-12.6873
人天啟壬戌進士	-12.6873
郭禧後碑	-12.6874
佚王瓚曰	-12.6874
惆	-12.6874
旼	-12.6874
璀	-12.6874
壖	-12.6875
窿	-12.6875
俌	-12.6875
方輿勝覽	-12.6875
逅	-12.6875
叫	-12.6875
瀉	-12.6875
飜	-12.6875
溧陽長潘乾校官碑	-12.6876
黝	-12.6876
鑣	-12.6876
擠	-12.6876
金山經庋	-12.6876
鉶	-12.6876
萹	-12.6877
畺	-12.6877
髙陽令楊君碑	-12.6877
鐔	-12.6877
迢	-12.6877
謹按鄭樵通志云	-12.6877
鷙	-12.6877
猖	-12.6877
踞	-12.6877
肈	-12.6878
埧	-12.6878
不得其門而入	-12.6878
䭾	-12.6878
嘘	-12.6878
消息盈虚	-12.6878
盭	-12.6878
晉宋齊梁陳	-12.6878
洶	-12.6878
蝗	-12.6879
皤	-12.6879
稡	-12.6879
稯	-12.6879
忘歸臺銘	-12.6879
豺	-12.6879
酤	-12.688
趙相劉衡碑	-12.6881
盼	-12.6881
揄	-12.6881
芽	-12.6881
李百薬撰	-12.6881
啜	-12.6881
婓	-12.6882
治平元年六月十四日書	-12.6882
世頗罕傳	-12.6882
做	-12.6882
􁉋	-12.6882
㓝	-12.6882
景龍觀鐘銘	-12.6883
㫺	-12.6883
醢	-12.6883
顆	-12.6884
詼	-12.6884
絫	-12.6884
􁅋	-12.6884
議郎元賔碑	-12.6884
駈	-12.6884
虓	-12.6884
彘	-12.6884
鶺	-12.6884
典論六碑	-12.6884
乙速孤行儼碑	-12.6885
䓦	-12.6885
眹	-12.6885
嶙	-12.6885
曰周禮盡在魯	-12.6885
瀦	-12.6886
閘	-12.6886
馯臂子弓	-12.6886
􁚦	-12.6886
徯	-12.6886
僃	-12.6886
禮記碑上有諫議大夫馬日磾議郎蔡邕	-12.6886
鋐	-12.6886
黄宗羲曰	-12.6887
孔子成春秋而亂臣賊子懼	-12.6887
匕	-12.6887
捌	-12.6887
鉏	-12.6887
肴	-12.6888
仰觀俯察	-12.6888
頫	-12.6889
鞫	-12.6889
纛	-12.6889
摉	-12.6889
醖	-12.6889
怱	-12.6889
洼	-12.689
坰	-12.689
晹	-12.6891
阯	-12.6891
魏栖梧	-12.6891
遨	-12.6891
鎻	-12.6891
怵	-12.6892
錞	-12.6892
漙	-12.6892
岊	-12.6892
諂	-12.6892
醉翁亭記	-12.6892
囈	-12.6893
仲秋下旬	-12.6893
帆	-12.6893
錚	-12.6894
蔥	-12.6894
史晨饗孔廟後碑	-12.6894
㪷	-12.6894
惺	-12.6895
鬛	-12.6896
窕	-12.6896
徐安貞撰	-12.6896
察孝亷除郎	-12.6897
邡	-12.6897
鳩摩羅什	-12.6898
黜周王魯	-12.6898
胝	-12.6898
聵	-12.6899
薜	-12.69
欽定四庫全書欽定重刻淳化閣帖釋文	-12.6901
真西山讀書記	-12.6902
張少悌書	-12.6903
苐六百六十	-12.6904
􁚤	-12.6906
校正宋淳化閣帖初	-12.6906
祼	-12.6912
春秋穀梁傳注十	-12.6935
人正徳甲戌進士	-12.698
郡唐武德四年	-12.7419
羖	-12.7944
費亭侯曹騰碑	-12.7947
萬有一千五百二十	-12.7948
店	-12.7956
緊	-12.7957
霏	-12.7963
艾軒林氏曰	-12.7964
賫	-12.7964
五鹿充宗	-12.7966
野有蔓草	-12.7967
蠕	-12.7968
扼	-12.7968
厫	-12.7968
饒州徳興人	-12.797
鎛	-12.7971
眂	-12.7971
沓	-12.7972
跱	-12.7972
􁇷	-12.7972
慊	-12.7973
耉	-12.7976
玦	-12.7976
掉	-12.7976
􁂘	-12.7976
樾	-12.7976
武經總要	-12.7976
舂	-12.7976
臨朐長仲君碑	-12.7976
櫜	-12.7977
將作少監	-12.7977
悰	-12.7977
摰	-12.7978
兩儀四象八卦	-12.7978
贇	-12.7978
知我罪我	-12.7978
玹	-12.7978
詩三百一言以蔽之曰思無邪	-12.7979
匄	-12.7979
㡌	-12.7979
堞	-12.7979
漢南陽太守秦君碑	-12.798
昆命元龜	-12.798
剟	-12.798
懃	-12.798
鄲	-12.798
御識釋文訂異	-12.7982
剳	-12.7982
籒	-12.7982
襜	-12.7982
敦煌長史武班碑	-12.7982
司馬光君實撰	-12.7982
觥	-12.7982
𥅆	-12.7982
俅	-12.7983
輊	-12.7983
蹴	-12.7983
瘵	-12.7983
儗	-12.7983
挟	-12.7983
庄	-12.7983
蜿	-12.7984
廏	-12.7984
邂	-12.7984
煞	-12.7984
忼	-12.7985
邙	-12.7985
柷	-12.7985
𠡠	-12.7986
咳	-12.7986
纪	-12.7986
饉	-12.7986
刈	-12.7986
􁆣	-12.7986
柞	-12.7986
㑹稽東部都尉路君闕	-12.7986
嘿	-12.7986
周禮賈公彦註疏	-12.7986
㦲	-12.7986
牌	-12.7987
饜	-12.7987
淞	-12.7987
沇	-12.7987
闞	-12.7987
犨	-12.7988
前後俱無序跋	-12.7988
宄	-12.7988
皂	-12.7988
太保李良臣碑	-12.7988
鴉	-12.7988
畬	-12.7989
檣	-12.7989
諠	-12.7989
坼	-12.7989
䧕	-12.7989
疚	-12.7989
蓲	-12.7989
郯令景君闕銘	-12.7989
孑	-12.799
褢	-12.799
趍	-12.799
簧	-12.799
痾	-12.799
槨	-12.799
檐	-12.799
戲魚堂帖	-12.7991
昆蟲草木	-12.7991
秖	-12.7992
沱	-12.7992
疽	-12.7992
堯祠祈雨	-12.7992
璐	-12.7992
埊	-12.7992
萋	-12.7993
直昭文館	-12.7993
煑	-12.7993
蹶	-12.7994
艦	-12.7994
㟁	-12.7994
㭊	-12.7994
光禄勲劉曜碑	-12.7994
蘠	-12.7994
綏民校尉熊君碑	-12.7994
吉凶與民同患	-12.7995
詫	-12.7995
濟安侯廟記	-12.7995
旰	-12.7995
𣪚	-12.7995
諸家釋並同	-12.7995
灊	-12.7995
党	-12.7995
欷	-12.7995
殂	-12.7996
蓰	-12.7996
溵	-12.7996
圄	-12.7996
捄	-12.7996
梏	-12.7996
懶	-12.7997
厖	-12.7997
瀝	-12.7997
冔	-12.7997
穠	-12.7998
謹案右一帖行草四行三十	-12.7998
椁	-12.7998
埸	-12.7999
腦	-12.7999
鴒	-12.7999
戹	-12.8
脊	-12.8
崈	-12.8001
皖	-12.8001
弡	-12.8001
稧	-12.8001
脣	-12.8002
踔	-12.8002
竇臮述書賦	-12.8002
拇	-12.8003
碍	-12.8003
老師宿儒	-12.8003
譸	-12.8003
干祿字書	-12.8003
鑛	-12.8004
哺	-12.8004
髙貴鄉公	-12.8005
迓	-12.8005
顧本有補㾗	-12.8005
鄗	-12.8006
宋王堯臣等	-12.8007
苧	-12.8008
文心雕龍	-12.8008
圛	-12.8009
丹陽太守郭旻碑	-12.8009
憨	-12.801
辠	-12.8011
𤼵	-12.8011
斸	-12.8011
竽	-12.8012
左金吾衛	-12.8012
爨	-12.8013
笛	-12.8014
妙品八分九人	-12.8015
嬾	-12.8016
鮪	-12.8017
笋	-12.8017
特牲饋食	-12.8017
悴	-12.8019
伯夷叔齊	-12.802
鱣	-12.802
少牢饋食	-12.802
跛	-12.8021
韠	-12.8022
悻	-12.8026
㩁	-12.8028
欽定四庫全書授經圖義例巻	-12.8035
其經卦皆八其别皆六十有四	-12.9199
籜	-12.9208
圀	-12.9209
眘	-12.921
拉	-12.921
諼	-12.921
恙	-12.9211
未見括蒼彚紀	-12.9213
湍流帶右天五字	-12.9217
狠	-12.9218
櫄	-12.9219
琤	-12.9219
筐	-12.922
鈆	-12.922
罽	-12.9221
溽	-12.9221
太卜掌三易	-12.9221
啾	-12.9222
聚樂堂目	-12.9223
玉臺新詠	-12.9223
袋	-12.9223
虫	-12.9223
卉	-12.9224
窮理盡性以至於命	-12.9225
舄	-12.9225
治平元年五月十日書	-12.9225
淝	-12.9225
贈隆闡大法師	-12.9225
関	-12.9226
篪	-12.9226
崟	-12.9226
光堯石經之閣	-12.9227
㛃	-12.9227
顙	-12.9227
右皇朝王安石介甫撰	-12.9227
謹身殿大學士	-12.9227
餅	-12.9228
僮	-12.9228
人天啓壬戌進士	-12.9228
齔	-12.9229
摺	-12.9229
蜺	-12.9229
霰	-12.9229
魏公卿上尊號奏	-12.9229
嚼	-12.9229
榱	-12.9229
廐	-12.9229
𬗟	-12.9229
綈	-12.9229
動則觀其變而玩其占	-12.9229
嶄	-12.923
庳	-12.923
竹邑侯相張壽碑	-12.923
胚	-12.9231
古詩三千餘篇	-12.9231
衾	-12.9231
就有道而正焉	-12.9231
𬗋	-12.9231
西行尚書周易公羊傳十	-12.9231
沴	-12.9231
蜃	-12.9231
檉	-12.9231
天之未喪斯文	-12.9231
潾	-12.9231
沈括存中撰	-12.9232
媪	-12.9232
縆	-12.9232
蜴	-12.9232
萎	-12.9232
徽猷閣直學士	-12.9232
覓	-12.9233
何君閣道碑	-12.9233
郃陽令曹全	-12.9233
敷文閣直學士	-12.9233
坱	-12.9233
成陽令唐君頌	-12.9233
玅	-12.9233
見易象與魯春秋	-12.9234
愎	-12.9234
挿	-12.9234
攟	-12.9234
壆	-12.9234
阮客舊居詩	-12.9234
湄	-12.9234
楩	-12.9235
矝	-12.9235
甝	-12.9235
肚	-12.9235
輞	-12.9236
鵰	-12.9236
校勘兼看書上石官將仕郎守	-12.9236
捺	-12.9236
𡵨	-12.9236
澆	-12.9236
霜月之靈皇極之日	-12.9236
魅	-12.9236
缸	-12.9236
寸廣三尺計	-12.9236
踦	-12.9237
閴	-12.9237
恁	-12.9237
膞	-12.9237
頓首死罪上尚書臣	-12.9237
諄	-12.9237
使又進京畿渭北鄜坊商華兵馬副元帥	-12.9238
平泉草木記	-12.9238
忞	-12.9238
倂	-12.9238
頞	-12.9238
湲	-12.9238
膊	-12.9238
贙	-12.9238
鞍	-12.9239
京畿渭北鄜坊	-12.9239
檟	-12.9239
澌	-12.9239
顕	-12.9239
春明退朝録	-12.9239
梁相費汎碑	-12.9239
甡	-12.9239
猶有十八碑餘皆殘毁	-12.9239
禮儀三百威儀三千	-12.924
勍	-12.924
婣	-12.924
無極山神廟碑	-12.924
沫	-12.924
鑴	-12.924
饔	-12.924
鎚	-12.924
葑	-12.924
鴿	-12.924
毌	-12.924
齧	-12.924
永樂少府賈君闕	-12.9241
㓙	-12.9241
㢕	-12.9241
畚	-12.9241
悛	-12.9241
莢	-12.9241
抜	-12.9241
哆	-12.9241
謹案右一帖章草	-12.9241
玲	-12.9242
熏	-12.9242
猴	-12.9242
隃	-12.9242
嵲	-12.9242
叁	-12.9242
茘	-12.9243
誾	-12.9243
夆	-12.9243
小黄門譙君	-12.9243
螟	-12.9243
攫	-12.9243
疉	-12.9243
鼉	-12.9243
祤	-12.9243
毘	-12.9243
羮	-12.9243
何屺瞻云	-12.9244
稂	-12.9244
倜	-12.9244
在濟州任城縣	-12.9244
􁎓	-12.9244
􁄴	-12.9244
䄂	-12.9245
􁒨	-12.9245
狃	-12.9245
攴	-12.9245
爌	-12.9245
灤	-12.9245
粃	-12.9245
蜡	-12.9245
磴	-12.9245
呆	-12.9246
皃	-12.9246
芉	-12.9246
戰國屬楚秦屬	-12.9246
金仙長公主碑	-12.9246
淤	-12.9246
妒	-12.9246
欽定四庫全書經義考巻一百	-12.9246
豈曰小補之哉	-12.9246
潺	-12.9246
錙	-12.9247
䜛	-12.9247
此謂知本此謂知之至也	-12.9247
契苾明碑	-12.9247
滻	-12.9247
薌	-12.9247
浚儀令衡立碑	-12.9247
蕘	-12.9248
芷	-12.9248
曁	-12.9248
𢋫	-12.9248
焭	-12.9248
州路儒學教授	-12.9249
娉	-12.9249
呌	-12.9249
杉	-12.925
叄	-12.925
誹	-12.925
暾	-12.925
餝	-12.925
吉成侯州輔碑	-12.9251
多寳佛塔	-12.9251
巴郡太守宗正卿成	-12.9251
籓	-12.9251
㭿	-12.9251
金薤琳瑯	-12.9251
巛	-12.9251
廳	-12.9251
之類是也亦有他官之文雜在	-12.9251
莎	-12.9252
塹	-12.9252
卨	-12.9252
􁋙	-12.9252
官之文有雜在他官者如	-12.9253
敭	-12.9253
鷇	-12.9253
殛	-12.9253
晋江黄虞稷撰	-12.9254
􁗁	-12.9254
瓠	-12.9254
襁	-12.9254
刳	-12.9255
偰	-12.9255
其先誤而後改者	-12.9255
粢	-12.9255
樊毅復華下民租	-12.9255
弢	-12.9255
戅	-12.9255
都知兵馬使	-12.9256
曰王者之迹熄而詩亡詩亡然後春秋作	-12.9256
未見鄭元慶曰	-12.9257
渊	-12.9257
慄	-12.9257
蛩	-12.9257
𥿄	-12.9258
觶	-12.9258
金石林時地考	-12.9258
瑨	-12.9258
㷀	-12.9258
鶡	-12.9259
邕自書丹使工鐫刻	-12.926
藟	-12.926
哦	-12.926
閧	-12.926
􁊈	-12.926
所見異辭所聞異	-12.9261
輻	-12.9261
益州路諸州	-12.9262
此求而未通者	-12.9262
觽	-12.9262
珥	-12.9264
勩	-12.9264
鍥	-12.9264
痢	-12.9264
耔	-12.9265
捭	-12.9266
㭍	-12.9266
戇	-12.9266
菌	-12.9269
峘	-12.9271
痴	-12.9278
濙	-12.928
煬	-13.0501
等撰起即位盡	-13.06
憝	-13.0622
亀	-13.0622
㶚	-13.0624
菁菁者莪	-13.0632
􁁆	-13.0634
𢾗	-13.0637
掜	-13.0639
郍	-13.064
菉	-13.0643
雘	-13.0643
誑	-13.0644
徊	-13.0644
侄	-13.0644
隮	-13.0645
一隂一陽之謂道	-13.0645
撢	-13.0646
貎	-13.0646
膩	-13.0647
未見蔣方馨曰	-13.0648
偵	-13.0649
黥	-13.0649
琭	-13.0649
鱉	-13.0649
引伸觸類	-13.0649
噴	-13.0649
馹	-13.065
磾	-13.065
甍	-13.065
晶	-13.065
先儒相承謂毛詩序子夏所創毛公及	-13.0651
以言者尚其辭以動者尚其變以	-13.0651
龕置宣和殿	-13.0651
町	-13.0651
未見漸逵自序曰	-13.0651
楸	-13.0652
刄	-13.0652
禫	-13.0652
簮	-13.0652
通計亡書合	-13.0652
䦨	-13.0652
加我數年五十以學易可以無大過	-13.0652
隩	-13.0653
費氏經與古文同	-13.0653
䰟	-13.0653
這	-13.0653
㦱	-13.0654
個	-13.0654
揀	-13.0654
兟	-13.0654
鏕	-13.0654
剿	-13.0654
簇	-13.0655
怒猊抉石渴驥奔泉	-13.0655
摛	-13.0655
薳	-13.0655
碭孔君神祠碑	-13.0655
唐何進滔德政碑	-13.0655
鄱	-13.0655
悪	-13.0655
唁	-13.0656
㮚	-13.0657
崡	-13.0657
司空掌邦土居四民時地利	-13.0657
犯輕垢罪若佛子	-13.0657
犹	-13.0657
爤	-13.0658
踦贏二贊	-13.0658
睪	-13.0658
繫辭焉而明吉凶	-13.0658
壵	-13.0658
字號第三厨書目	-13.0658
韡	-13.0659
垹	-13.0659
杍	-13.0659
蕕	-13.0659
鹺	-13.0659
柦	-13.0659
眚	-13.0659
知止而后有定	-13.0659
絙	-13.0659
玼	-13.066
相承以為七經正字	-13.066
馮使君墓闕銘	-13.066
􁐴	-13.0661
斝	-13.0661
㐀	-13.0662
堀	-13.0662
摳	-13.0662
幃	-13.0662
囏	-13.0662
姜嫄公劉廟碑	-13.0662
儺	-13.0662
販	-13.0662
肓	-13.0663
㠜	-13.0663
耼	-13.0663
獪	-13.0663
儀禮賈公彦註疏一部	-13.0663
廱	-13.0663
懟	-13.0664
艤	-13.0664
暝	-13.0664
􁂞	-13.0664
殹	-13.0664
値	-13.0664
未見嚴繩孫曰	-13.0664
痊	-13.0664
瞀	-13.0664
㬇	-13.0665
廣漢縣令王君神道	-13.0665
楊宗墓闕銘	-13.0665
鏌	-13.0665
石四十八枚廣三	-13.0665
啞	-13.0665
梁昭明太子蕭統	-13.0665
峋	-13.0665
鯖	-13.0665
騊	-13.0665
明内府藏本有廣運之寶	-13.0666
節度觀察等使	-13.0666
縶	-13.0666
凭	-13.0666
吼	-13.0666
唐房彦謙碑	-13.0666
誠惶誠恐頓首頓首死罪死罪	-13.0666
佪	-13.0666
􁏉	-13.0666
藁長蔡君頌	-13.0666
沅州劉有年	-13.0667
䘐	-13.0667
歧	-13.0667
怦	-13.0667
袝	-13.0667
郸	-13.0667
㞼	-13.0667
惱	-13.0668
桎	-13.0668
魏初傳古文出邯鄲淳	-13.0668
踴	-13.0668
騂	-13.0668
嗛	-13.0668
寶謨閣直學士	-13.0668
撙	-13.0668
翩	-13.0669
罟	-13.0669
劘	-13.0669
偭	-13.0669
潤州圖經以為王羲之書	-13.0669
漈	-13.0669
竊意其間必有同時揮毫者	-13.067
有道先生葉公碑	-13.067
巴郡太守樊君碑	-13.067
刻蔡邕等名魏正始中又立古篆	-13.067
􁀖	-13.067
旐	-13.067
訒	-13.067
捶	-13.067
蕩隂令張遷	-13.067
俁	-13.0671
任城縣橋亭記	-13.0671
學講堂前悉在東側	-13.0671
榷	-13.0671
緹	-13.0671
俳	-13.0671
掄	-13.0671
瀬	-13.0672
麀	-13.0672
敢對揚天子	-13.0672
跖	-13.0672
惙	-13.0672
闘	-13.0672
砯	-13.0673
汞	-13.0673
祭姪季明文	-13.0673
鐍	-13.0673
鞉	-13.0673
哀公問仲尼燕居孔子閒居	-13.0673
􁎼	-13.0673
軍州兼管内勸農事	-13.0673
􁠭	-13.0673
纂圗互註	-13.0673
除挾書之律	-13.0674
蜀郡太守任君神道	-13.0674
盉	-13.0674
貂	-13.0674
鄮	-13.0674
􁕓	-13.0674
鋸	-13.0674
鍠	-13.0674
吅	-13.0675
􁀁	-13.0675
后土神祠碑	-13.0675
秦望山法華寺碑	-13.0675
艇	-13.0675
孔子廟置卒史碑	-13.0676
旟	-13.0676
姥	-13.0676
娠	-13.0676
鄯	-13.0676
剃	-13.0676
汛	-13.0676
澡	-13.0676
週	-13.0676
禬	-13.0676
茀	-13.0676
脇	-13.0677
郡唐武德元年曰	-13.0677
蚊	-13.0678
甿	-13.0678
脛	-13.0678
罸	-13.0678
堂谿典嵩髙山石闕銘	-13.0678
縣三老楊信碑	-13.0679
治平元年八月八日書	-13.0679
􁀤	-13.0679
輜	-13.0679
肸	-13.0679
眄	-13.0679
殪	-13.0679
噱	-13.0679
閾	-13.068
作易者其有憂患乎	-13.068
䆠	-13.0681
淋	-13.0681
圅	-13.0681
有十二種意外巧妙	-13.0681
戬	-13.0681
朝聞道夕死可也	-13.0681
羼	-13.0681
廛	-13.0682
汦	-13.0682
定五經書於論堂東西廂之壁	-13.0682
籲	-13.0682
進士改庶吉士授編修	-13.0682
魏公卿上尊號表	-13.0682
擣	-13.0683
昪	-13.0683
窣	-13.0683
仙人唐公房碑	-13.0683
闖	-13.0684
霹	-13.0684
鍤	-13.0685
表亦復常言耳	-13.0685
悺	-13.0685
枘	-13.0685
州輔墓石獸膊字	-13.0686
袽	-13.0686
唐登封紀號文	-13.0686
㛰	-13.0687
掬	-13.0687
蜼	-13.0687
漉	-13.0687
洿	-13.0687
歔	-13.0687
戛	-13.0688
􁎽	-13.0688
崙	-13.0689
伯宋大觀中補贈	-13.0689
㙔	-13.069
軨	-13.0691
鬢	-13.0691
慈顔幽翳	-13.0692
枽	-13.0692
柈	-13.0692
劮	-13.0693
琅邪王澍虛舟詳定	-13.0696
畹	-13.0696
悮	-13.0697
疢	-13.0702
簴	-13.0723
軷	-13.0763
年平蕭銑立	-13.148
卝	-13.2262
淩	-13.2267
龡	-13.2277
冊詩鄭氏箋一部	-13.2281
囷	-13.2285
一曰連山二曰歸藏三曰周易	-13.2292
蜩	-13.2297
八卦成列象在其中	-13.2298
扳	-13.2301
瞠	-13.2301
䜌	-13.2302
桄	-13.2302
嬋	-13.2304
勱	-13.2304
豫州從事尹宙碑	-13.2306
硎	-13.2307
橈	-13.2309
􁁇	-13.231
綍	-13.231
鵷	-13.231
烷	-13.2311
秭	-13.2312
飈	-13.2312
瘢	-13.2312
覦	-13.2314
槿	-13.2314
㴠	-13.2315
啣	-13.2315
獯	-13.2315
觿	-13.2315
醨	-13.2316
仿宋巾箱本式	-13.2316
漷	-13.2316
爝	-13.2316
媺	-13.2316
㟭	-13.2316
􁚉	-13.2317
澳	-13.2317
後魏孝文弔比干文	-13.2317
矍	-13.2317
酆	-13.2317
懵	-13.2317
梢	-13.2317
曰賦曰比曰興	-13.2319
管内觀察處置	-13.2319
鼙	-13.232
笪	-13.232
瘥	-13.232
幟	-13.2321
稲	-13.2321
㑺	-13.2321
萁	-13.2322
啚	-13.2322
糗	-13.2323
砅	-13.2323
炮	-13.2323
噶	-13.2323
鞮	-13.2323
瞑	-13.2323
三萬四千六百八十五字	-13.2323
㐬	-13.2324
詶	-13.2324
慫	-13.2324
晉乘楚檮杌	-13.2324
鲁	-13.2324
而亡其一皇祐四年向傳師	-13.2324
􁔷	-13.2324
易窮則變變則通通則	-13.2324
瞞	-13.2325
爍	-13.2325
蠖	-13.2326
橢	-13.2326
虖	-13.2326
撼	-13.2326
鋼	-13.2326
詬	-13.2326
西戍樹谷五樓先生東臺御史王翦將軍	-13.2326
冊韻㑹舉要一部	-13.2326
轘	-13.2326
禴	-13.2327
制器者尚其象以卜筮者尚其占	-13.2327
駞	-13.2327
其事則齊桓晉文其文則史	-13.2327
芊	-13.2327
舖	-13.2327
斨	-13.2328
欽定四庫全書金石文考略卷	-13.2328
物常聚於所好	-13.2328
敳	-13.2328
恭王壊孔子宅	-13.2328
蕞	-13.2329
柿	-13.2329
揷	-13.2329
輳	-13.2329
體用一原顯微無間	-13.2329
巉	-13.2329
漢魯相置孔子廟卒史碑	-13.2329
逗	-13.2329
冊宣和畫譜一部	-13.2329
湑	-13.2329
􁃎	-13.2329
麯	-13.233
宋衷虞翻陸績	-13.233
蜉	-13.233
誶	-13.233
㴞	-13.233
􁑨	-13.233
謖	-13.233
幵	-13.233
怍	-13.2331
蝟	-13.2331
摻	-13.2331
懲忿窒欲	-13.2331
鍾山林下集序	-13.2331
欻	-13.2331
歘	-13.2331
籃	-13.2331
羍	-13.2331
鈃	-13.2331
喫	-13.2331
聒	-13.2331
涎	-13.2332
稳	-13.2332
鼃	-13.2332
贔	-13.2332
紲	-13.2332
唵	-13.2332
諳	-13.2332
邵資政張子厚本	-13.2332
今張燾龍圖家有十版	-13.2333
張氏壻家有五六版王晉玉家有小塊	-13.2333
煟	-13.2333
單颺等正定諸經	-13.2333
􁁄	-13.2333
穨	-13.2333
裯	-13.2333
石經古文轉失淳法樹之	-13.2333
今所存諸經字體各不同雖邕能分善	-13.2334
駛	-13.2334
澇	-13.2334
泫	-13.2334
􁣕	-13.2334
㬜	-13.2334
武臣一部一冊御製大誥	-13.2334
輈	-13.2334
㵼	-13.2334
暜	-13.2334
宫前御史臺中年	-13.2335
鷂	-13.2335
晙	-13.2335
㕑	-13.2335
篷	-13.2335
冀州從事張表碑	-13.2335
寋	-13.2335
嶪	-13.2336
毳	-13.2336
體用一源顯微無間	-13.2336
嵸	-13.2336
閈	-13.2336
騮	-13.2336
穗	-13.2336
箠	-13.2336
陊	-13.2337
賨	-13.2337
咤	-13.2337
滮	-13.2337
杠	-13.2337
曡	-13.2337
姸	-13.2338
葱	-13.2338
冊御製詩集一部一冊御製詩集一部	-13.2338
憗	-13.2338
􁃋	-13.2338
怉	-13.2338
薉	-13.2338
壝	-13.2338
唐宇文顥山隂述	-13.2339
􁬭	-13.2339
嫠	-13.2339
嫺	-13.2339
暕	-13.2339
櫂	-13.2339
虡	-13.2339
後魏所存石諸經之不同	-13.2339
重安侯相杜暉	-13.2339
㣧	-13.2339
立於太學門外於是後儒晚學咸取正焉	-13.2339
胊	-13.2339
菰	-13.2339
㠕	-13.2339
闟	-13.2339
惠帝大安二年癸亥	-13.2339
炁	-13.2339
怕	-13.2339
慛	-13.234
㷆	-13.234
􁄪	-13.234
惛	-13.234
滹	-13.234
閥	-13.234
窂	-13.234
鴨	-13.234
篔	-13.234
𢃄	-13.234
分經之年與傳之年相附	-13.234
坌	-13.234
知我者其惟春秋乎罪我者其惟春秋乎	-13.234
郅	-13.234
𪠘	-13.234
薙	-13.2341
髻	-13.2341
崍	-13.2341
舷	-13.2341
歍	-13.2341
國子祭酒同中書門下平章事太清宫使	-13.2341
岧	-13.2341
羆	-13.2341
謭	-13.2341
欽定四庫全書經義考巻二百	-13.2341
腥	-13.2342
涒	-13.2342
吏部尚書中極殿大學	-13.2342
魏石經三體一體之不同	-13.2342
徲	-13.2342
曲成侯王暠	-13.2342
衊	-13.2342
巙	-13.2342
朝議郎守國子毛詩博士上柱國	-13.2342
漢五六七經之不同	-13.2342
搗	-13.2342
都郷正街彈碑	-13.2343
搔	-13.2343
直齋書錄解題卷二十	-13.2343
轕	-13.2343
􁚟	-13.2343
谿典諫議大夫臣馬日磾臣趙䧕議	-13.2343
筯	-13.2343
郎前守簡州平泉縣	-13.2343
當是孟知祥僭位	-13.2344
楞	-13.2344
金鄉守長侯君碑	-13.2344
吻	-13.2344
脆	-13.2344
藕	-13.2345
今在濟寜州儒學	-13.2345
肃	-13.2345
磑	-13.2345
蘷	-13.2345
孶	-13.2345
徦	-13.2345
今在曲陽縣北嶽廟中	-13.2346
潑	-13.2346
碑列於太學創立石壁九經諸儒	-13.2346
遂奏置五經博士依漢蔡邕	-13.2346
復下如欲作㿃	-13.2346
蓀	-13.2346
有一字石經七種三字石經三種	-13.2346
毉	-13.2346
稌	-13.2346
襪	-13.2347
叐	-13.2347
棅	-13.2347
觜	-13.2347
估	-13.2347
所書乃八分而三體石經乃魏時所建也	-13.2347
求正定六經文字靈帝許之邕乃自書	-13.2347
悤	-13.2347
璚	-13.2348
魯峻碑云君諱峻字仲嚴	-13.2348
敲	-13.2348
樛	-13.2348
汋	-13.2348
邛	-13.2349
劉憲撰白羲晊	-13.2349
艘	-13.2349
至有行賂改蘭臺漆書經字者	-13.235
諞	-13.235
蓁	-13.235
杅	-13.235
北齊天柱山銘	-13.235
匔	-13.235
𦕈	-13.2351
痰	-13.2351
撞	-13.2352
攖	-13.2352
坂	-13.2352
昵	-13.2352
鯈	-13.2352
不具操之等再拜	-13.2352
岍	-13.2352
闻	-13.2353
飴	-13.2353
懣	-13.2353
沈文阿蘇寛劉炫	-13.2354
治平元年端午日書	-13.2354
訔	-13.2354
有漢泰山都尉孔君之	-13.2354
凡一百六十部三千二百三十五字	-13.2355
轉劇近明散未覺益	-13.2355
􁳅	-13.2356
孿	-13.2356
乾隆三十四年歲在己丑春二月奉	-13.2356
寫者車乘日千餘兩塡塞街	-13.2356
􁁛	-13.2356
蒔	-13.2357
史晨祠孔廟奏銘	-13.2357
䇓	-13.2357
軋	-13.2357
盩	-13.2358
外史掌三皇五帝之書	-13.2358
禖	-13.2359
秋日宴石淙序	-13.2359
蠆	-13.2362
春秋屬呉戰國屬越後屬楚秦	-13.2363
碓	-13.2363
飶	-13.2363
繅	-13.2364
柢	-13.2364
後數十年名儒皆不窺之以為蕪累甚矣	-13.2365
涍	-13.2366
泂	-13.2368
玫	-13.2368
坪	-13.2369
枹	-13.2401
􁉔	-13.2405
州刺史鄂國公金城王孝	-13.4126
萧	-13.4284
南陔白華華黍	-13.4288
進退離合大小遠近	-13.4295
以彖象文言雜入卦中者自費氏始	-13.4296
褉	-13.4296
乱	-13.4297
昝	-13.4297
齊國太夫人楊氏墓	-13.4297
韐	-13.4298
鏄	-13.4298
堈	-13.4299
臲	-13.43
颷	-13.43
一十二萬九千六百	-13.4303
丧	-13.4304
撲	-13.4304
􁌽	-13.4304
譫	-13.4304
􁫕	-13.4305
璡	-13.4305
焴	-13.4306
肻	-13.4306
蟈	-13.4307
連山首艮歸藏首坤	-13.4307
􁃶	-13.4308
潏	-13.4308
偫	-13.431
㢠	-13.431
祍	-13.431
ꇵ	-13.431
瞬	-13.431
橦	-13.431
􁝏	-13.4311
􁃔	-13.4311
縕	-13.4312
毀	-13.4313
籛	-13.4313
冋	-13.4313
嫚	-13.4313
絳守居園池記	-13.4313
伻	-13.4315
盄	-13.4316
賺	-13.4316
前試太常寺協律郎黄	-13.4316
曰乾隆宸翰曰㡬暇臨池	-13.4316
𢡟	-13.4317
誅亂臣討賊子	-13.4317
决嫌疑定猶豫	-13.4317
躓	-13.4317
吳郡丞武開明碑	-13.4317
繽	-13.4317
礦	-13.4318
浞	-13.4318
易者象也象也者像也	-13.4318
䥴	-13.4318
瓴	-13.4319
瞥	-13.4319
趙彦衛雲麓漫鈔	-13.4319
㢮	-13.4319
轉國子祭酒奏修國學刻石寫經	-13.4319
蓴	-13.432
其義則丘竊取之矣	-13.432
稊	-13.432
周大宗伯唐瑾碑	-13.432
屆	-13.432
湎	-13.432
袛	-13.4321
知周公之徳與周之所以王	-13.4321
蝣	-13.4321
皁	-13.4321
侠	-13.4322
媮	-13.4322
汲郡魏安釐王冢	-13.4322
􁄰	-13.4322
自衛反魯然後樂正雅頌各得其所	-13.4322
書不盡言言不盡意	-13.4322
薬	-13.4322
墦	-13.4323
淳化祕閣法帖考正卷第十	-13.4323
㘴	-13.4323
屭	-13.4323
遶	-13.4323
嚙	-13.4323
虣	-13.4323
􁁷	-13.4323
皐	-13.4323
礭	-13.4323
戱	-13.4324
琊	-13.4324
許長史舊館壇碑	-13.4324
磎	-13.4324
寸廣二尺六寸計	-13.4324
涙	-13.4324
鏟	-13.4324
彂	-13.4324
民興貴有御史大夫將軍牧伯故	-13.4325
武都太守李翕西狹頌	-13.4325
奡	-13.4325
􁅼	-13.4325
􁐾	-13.4325
厦	-13.4325
阿姨所患得差否	-13.4325
网	-13.4325
煴	-13.4326
薖	-13.4326
媾	-13.4326
債	-13.4326
殽阬君祠今謂之五部神廟其像有石	-13.4326
氶	-13.4326
穣	-13.4326
憖	-13.4326
笵	-13.4326
浤	-13.4327
眸	-13.4328
羭	-13.4328
郿	-13.4328
喚	-13.4328
櫨	-13.4328
綾	-13.4328
矱	-13.4328
贈歙州刺史葉慧明	-13.4328
襚	-13.4328
痺	-13.4328
攢	-13.4328
􁃼	-13.4328
鈺	-13.4329
傳義不傳事是以詳於經而義未必當	-13.4329
躇	-13.4329
僇	-13.4329
搥	-13.4329
張力臣本中上石猶存	-13.4329
炊	-13.4329
苫	-13.4329
校尉遭母憂自乞拜議郎服竟還拜屯	-13.433
縠	-13.433
间	-13.433
栝	-13.433
淘	-13.433
燐	-13.433
帨	-13.433
蹖	-13.433
􁆶	-13.433
漢故圉令趙君之碑	-13.433
獻之白思戀轉不可言瞻近而未得奉	-13.433
講堂長十丈廣二丈	-13.433
首尾不完今可見者四十餘人	-13.433
即去廟有禮器無常人掌領請置百石	-13.433
埈	-13.433
沙隨程迥可久	-13.4331
太極是生兩儀兩儀生四象四象生八卦	-13.4331
古制時猶若今乾	-13.4331
欬	-13.4331
􁆨	-13.4331
霾	-13.4331
扯	-13.4331
蕤	-13.4331
蔾	-13.4331
成侯四時來祠事	-13.4331
後漢鐫刻七經著於石碑皆蔡邕所書	-13.4331
比丘尼法琬碑	-13.4331
剌	-13.4331
兼備衆體但文字之多恐非一人可辦	-13.4332
屮	-13.4332
􁜳	-13.4332
淅	-13.4332
猱	-13.4332
郡諸曹掾史主簿督郵五官掾功曹	-13.4332
惟堂谿日磾二人姓名尚存别有趙䧕劉	-13.4332
濊	-13.4332
槊	-13.4332
靉	-13.4332
書石官將仕郎守潤州句容縣尉	-13.4332
沍	-13.4333
臯令任伯嗣碑	-13.4333
鞬	-13.4333
倨	-13.4333
邕與堂谿典楊賜馬日磾張馴韓	-13.4333
煢	-13.4333
兵臨城碎為矢	-13.4333
黛	-13.4333
遅	-13.4333
鐃	-13.4333
蚌	-13.4333
凮	-13.4334
御史東郡頓丘令	-13.4334
琡	-13.4334
韎	-13.4334
予詳玩遺字公羊詩書儀禮又在論語上	-13.4334
觝	-13.4334
􁇛	-13.4334
三百六十五日四分日之一	-13.4334
埓	-13.4334
莬	-13.4334
噪	-13.4334
赭	-13.4335
釘	-13.4335
閨門至行立乎鄉黨初	-13.4335
姃	-13.4335
悋	-13.4335
搴	-13.4335
㑹稽西部都尉而此云東部疑	-13.4335
鵑	-13.4335
㢧	-13.4335
博士試甲乙科爭第高下	-13.4335
咺	-13.4335
墼	-13.4335
肌色可可所堪轉勝復以此慰馳	-13.4335
䚮	-13.4335
堂前石經四部本碑凡四十六枚	-13.4335
薿	-13.4335
塍	-13.4336
長則是縣吏之名其	-13.4336
鱻	-13.4336
從劉次莊施宿釋顧從義作	-13.4336
雊	-13.4336
奉命來此事期未竟止	-13.4336
薶	-13.4336
所沒好事者伺水落時模而傳之往往	-13.4336
四萬二千八十九字	-13.4337
㷱	-13.4337
卷右皇朝楊時中立撰	-13.4337
􁍆	-13.4337
撇	-13.4337
疑問十二卷存舜牧自序曰	-13.4337
磷	-13.4337
鋌	-13.4337
諭杜觀善化縣儒學	-13.4337
欲省學者兩讀故具載本文	-13.4337
鞶	-13.4337
􁶝	-13.4337
復有石碑四十八枚亦表裏	-13.4338
偅	-13.4338
忮	-13.4338
􁑀	-13.4338
復詔晟兼河中晉絳慈隰節	-13.4338
鎮北庭涇原等州副元帥改封西平郡王	-13.4338
茆	-13.4338
𦍑	-13.4338
嫗	-13.4338
訓導彭子斐鎮江府儒學訓導留季安	-13.4338
輼	-13.4338
敡	-13.4338
焦山之足常為江水	-13.4338
瑺	-13.4338
類羲之筆法而類顔魯公不知何人書也	-13.4338
臣左立郎中臣孫表	-13.4338
大忍寺門樓碑	-13.4339
張文蘇陵傅楨	-13.4339
共一百五十九卷字様四十卷	-13.4339
􁶢	-13.4339
繤	-13.4339
使持莭行都督督軍	-13.4339
颯	-13.4339
不以文害辭不以辭害志以意逆志	-13.4339
勌	-13.4339
綣	-13.4339
臣劉𢎞郎中臣張文臣蘇陵臣傅	-13.4339
御史博陵太守遷下邳相河東太守	-13.4339
賅	-13.4339
頙	-13.434
訛缺不可辨圖經但云周使君	-13.434
五經蔡邕張馴傳則	-13.434
竆	-13.434
紉	-13.434
孤不度徳量力	-13.434
恚	-13.434
䍧	-13.434
馯	-13.434
東海相桓君海廟碑	-13.4341
瑢	-13.4341
唐𤣥度覆定石經字體	-13.4341
人作歌如鷹如鸇天有泰一五將三門地	-13.4341
崿	-13.4342
徨	-13.4342
累官少師兼太子太師吏部尚書	-13.4342
蒨	-13.4342
倗	-13.4342
隚	-13.4342
􁚧	-13.4342
見新書無貶辭以為石壁九經雖不逮古	-13.4342
鸚	-13.4342
僂	-13.4342
國子司業騎都尉賜緋魚袋臣楊敬之都	-13.4343
漾	-13.4343
來齋金石刻考畧	-13.4343
别有疑闕舊字様未載者古今體異	-13.4343
流杯亭侍宴詩	-13.4343
个	-13.4343
其果毅尚其桓桓	-13.4343
惡冷耿耿想數知問雖得還不能數可歎	-13.4343
鍭	-13.4343
梭	-13.4344
廧	-13.4344
开	-13.4344
曰文王既没文不在兹乎	-13.4344
咋	-13.4344
志有今字石經七種	-13.4344
光和六年立石於太學其上	-13.4344
葚	-13.4344
譱	-13.4344
羇	-13.4345
揵	-13.4345
宁	-13.4345
未見按聚樂堂藝文目有之	-13.4345
𤯝	-13.4345
棬	-13.4345
舜子巷義井碑	-13.4345
耇	-13.4345
持二記但言韓建劉鄩移石而不言補刻	-13.4345
然成字缺筆其為梁	-13.4346
議郎孔羡爲宗聖侯	-13.4346
檝	-13.4346
仡	-13.4346
酃	-13.4346
侍講廣漢張栻敬夫撰	-13.4346
百世以俟聖人而不惑	-13.4346
侊	-13.4346
謌	-13.4346
券	-13.4346
劉道士鵞羣並復歸也獻之等	-13.4346
燁	-13.4346
壐	-13.4346
淀	-13.4346
其論云漢鐫七經皆蔡邕書	-13.4346
栴	-13.4346
升歌鹿鳴下管新宫	-13.4347
節度觀察等使管内及商華等州副元帥	-13.4347
窖	-13.4347
冄	-13.4347
麁	-13.4347
􁅾	-13.4347
􁀥	-13.4347
帋	-13.4348
出錢千四百主吏仲	-13.4348
㳙	-13.4348
遟	-13.4348
亹	-13.4348
澘	-13.4348
㘸	-13.4348
勔	-13.4348
北齊隴東王感孝頌	-13.4348
愓	-13.4348
慉	-13.4348
疃	-13.4348
杭州刺史裴惓碑	-13.4348
捉	-13.4349
一昨得安西六日書無他無所	-13.4349
毬	-13.4349
觹	-13.4349
文宗紀開成二年宰臣判國子祭酒鄭覃	-13.435
鼓文細而刻淺理豈得存	-13.435
姫	-13.435
本多十字少二十一字不同者五十五字	-13.4351
然則豈不可惜也哉而後世學者	-13.4351
箝	-13.4351
日就訛舛以世所傳經書本	-13.4352
時有小異使完本具存則其異同可勝數	-13.4352
然則當時所立又不止六經矣洛陽記又	-13.4352
遺字有尚書公羊傳論語又有詩儀	-13.4352
按靈帝紀言詔諸儒正五經文字刻石立	-13.4352
􁈯	-13.4352
以俗儒穿鑿經籍疑誤後學	-13.4352
下者刑與聞國政而無益於民者	-13.4352
攅	-13.4352
柉	-13.4352
鸖	-13.4352
所立其字則蔡邕小字八分書也其後	-13.4352
㬎	-13.4352
貊	-13.4352
䕏	-13.4353
乃奏求正定自書	-13.4353
等姓名尚在據邕傳稱邕以經籍去聖	-13.4353
有尚書周易公羊傳論語禮記今余所	-13.4353
甦	-13.4353
一丈廣四尺陸機洛陽記云碑凡四十六	-13.4353
水隋復載入長安	-13.4353
為涇原四鎮北庭	-13.4353
端本堂經訓要義	-13.4353
蠃	-13.4353
􁃝	-13.4353
鐉	-13.4354
沗	-13.4354
後唐汾陽王真堂記	-13.4354
傳事不傳義是以詳於史而事未必實	-13.4355
蘗	-13.4355
鞋	-13.4355
舩	-13.4355
儂	-13.4356
金廣延母徐氏紀産碑	-13.4356
譛	-13.4357
彳	-13.4357
沄	-13.4357
擉	-13.4358
僴	-13.4358
汔	-13.4359
臽	-13.4359
卌	-13.4359
周墀崔球張次宗孔温業等	-13.4359
􁶫	-13.4359
朶	-13.436
先鋒都知兵馬使加御史中丞	-13.436
蹌	-13.436
轢	-13.436
還師振旅諸國禮遺且二百萬悉以簿官	-13.436
崋	-13.4361
饎	-13.4361
六卷魯詩六卷儀禮九卷春秋一卷公羊	-13.4361
澐	-13.4362
矞	-13.4362
涔	-13.4362
平原東郡門生蘇衡等題名	-13.4363
蹵	-13.4363
櫓	-13.4363
㴶	-13.4364
糠	-13.4364
傳卜筮事上下次第及其文義皆與左	-13.4364
蜎	-13.4364
卺	-13.4365
三傳沿革例一部一冊九經	-13.4366
窄	-13.4368
郡開國侯食邑一千	-13.4368
枃	-13.4368
戦	-13.4369
薾	-13.437
軹	-13.4371
纕	-13.4372
􁁢	-13.4373
瀣	-13.4373
􁂧	-13.4375
駼	-13.4376
涷	-13.4378
怫	-13.4379
蒱	-13.4391
裼	-13.4393
明朱睦㮮撰諸儒著述附歴代	-13.4404
中常侍費亭侯曹騰	-13.4407
刺史鄂國公金城王孝僊	-13.4547
監察御史張次宗禮部員外郎孔温業	-13.6222
始中立三字石經轉失淳法因科斗之名	-13.6514
玶	-13.6745
壈	-13.6763
冊辛稼軒詞一部	-13.6773
畛	-13.6774
丠	-13.6774
丘吉甫因定其官為五十	-13.6777
絖	-13.678
语	-13.6781
亲	-13.6783
川衡澤虞丱人角人羽人掌葛掌染	-13.6783
眊	-13.6785
麫	-13.6788
裊	-13.6788
賦褰裳子游賦風雨子旗賦有女同車子	-13.6791
鄼	-13.6792
大行人小行人司儀行夫掌客掌訝掌交	-13.6792
華黍時和歲豐宜黍稷	-13.6792
薝	-13.6794
瑑	-13.6794
嗅	-13.6794
莧	-13.6795
謦	-13.6795
恮	-13.6795
讁	-13.6795
鵙	-13.6796
腑	-13.6796
柅	-13.6798
優而柔之使自求之饜而飫之使自趨之	-13.6799
昰	-13.6799
以中古文易經校施孟梁丘經至蜀	-13.6799
简	-13.6801
上柱國宋國公臣瑀特進太子詹事兼左	-13.6801
冭	-13.6801
率上柱國英國公臣勣光	-13.6802
抔	-13.6803
垤	-13.6803
為後周文帝獵於岐陽所作	-13.6803
璅	-13.6805
雜出於五官之屬且因司空之復而	-13.6805
言正相發明其為致知格物之傳何惑焉	-13.6805
珒	-13.6806
若江海之浸膏澤之潤渙然	-13.6806
銘之刻非顧况時可知	-13.6806
江夏郡王臣道宗太常卿駙馬都尉	-13.6806
𣏌	-13.6806
唘	-13.6806
螻	-13.6806
北齊郁乆閭業碑	-13.6807
蓑	-13.6808
滕定公滕文公魯平公是也夫死然後有	-13.6808
供奉搨書人趙模韓道政馮承素諸葛貞	-13.6809
晉平原内史陸機撰右軍將軍王羲之書	-13.6809
郡公臣楊師道正議大夫守中書令太子	-13.6809
罩	-13.6809
從東郡張恭祖受周官禮記	-13.6809
麞	-13.681
仰字如針眼殊字如蟹爪列字如丁形	-13.681
桱	-13.681
衫	-13.681
魏鎮東将軍劉乾碑	-13.681
而王其政平則日黄中而	-13.681
華嶽精享昭應之碑	-13.681
延熹四年五月辛酉遭命而終	-13.681
憼	-13.681
母憂去官服祥辟司空府	-13.681
物致知誠意正心修身齊家	-13.681
滲	-13.6812
腧	-13.6812
㬢	-13.6812
肢	-13.6812
嗢	-13.6812
葳	-13.6812
佉	-13.6812
恝	-13.6812
荏	-13.6812
蛑	-13.6812
故昔人未之見而世不傳其後又有丹	-13.6812
江隂真宰八字與華陽真逸上皇山樵	-13.6812
朦	-13.6813
嘅	-13.6813
蝦	-13.6813
三易經卦皆八其别皆六十有四	-13.6813
嶧山之碑野火焚棗木傳刻肥失真	-13.6813
理以書教諸皇子又建三字石經於漢碑	-13.6813
帰	-13.6814
易也隨時變易以從道也	-13.6814
惓	-13.6814
樌	-13.6814
咥	-13.6814
汩	-13.6814
烕	-13.6814
内文明而外柔順以䝉大難文王以之	-13.6814
罝	-13.6814
跽	-13.6814
首衝錯測攡瑩數文掜圖告十一篇皆以	-13.6815
子曰吾志在春秋行在孝經	-13.6815
監黎陽營謁者李君	-13.6815
蹀	-13.6816
换	-13.6816
礿	-13.6816
螙	-13.6816
嚭	-13.6816
工菀陵葉封丘令	-13.6816
翰林院掌院學士兼禮部侍郎教習	-13.6816
腋	-13.6816
稁	-13.6816
􁈍	-13.6817
蘉	-13.6817
謂無所復見慰勞又計時事也	-13.6817
膴	-13.6817
蜮	-13.6817
佋	-13.6817
塨	-13.6817
而韓文公平淮西碑亦載守謙在帝左右	-13.6817
𥜗	-13.6817
十五日承奉郎守義興縣令陳從諫重樹	-13.6817
永嘉至十年還茅山十二年弟子周子良	-13.6817
著書不稱建元直以甲子紀	-13.6817
九月景午朔十五日庚申從嵩陽觀移	-13.6817
假印綬守廣平夏曲陽令	-13.6817
後空處為宋人攙入題名甚多幸正文皆	-13.6817
蜒	-13.6817
㡛	-13.6817
刲	-13.6819
書令陜東道益州道行臺雍州牧左右武	-13.6819
筥	-13.6819
信任小人宜其晚節不終卒死	-13.6819
書亦佳同勒諸臣名字	-13.6819
丞相安陸宋庠公序撰	-13.6819
粻	-13.6819
蕊	-13.6819
譯之者曰勤道守三一中有不死術亦莫	-13.6819
䢴	-13.6819
使趙𢎞智覆更詳審為之正義凡	-13.6819
執法左右刺姦五威司命皆王	-13.6819
曰不偏之謂中不易之謂庸	-13.6819
穽	-13.682
踉	-13.682
瞋	-13.682
茇	-13.682
袚	-13.682
卹	-13.682
守謙王守澄等共立太子殺吐突承	-13.682
紵	-13.682
得蔡中郎石經四千二百七十字有	-13.682
跼	-13.682
元吾丘衍學古編曰	-13.682
梁相諱汎字仲慮此邦之人也其先季文	-13.682
崚	-13.682
母而不復知有唐叔為古先有土之君矣	-13.682
為司馬金行故曹氏六世遷魏而事晉	-13.682
襌	-13.6821
滃	-13.6821
缾	-13.6821
䓺	-13.6821
恡	-13.6821
傳种放放傳穆修修傳李之才之才傳邵	-13.6821
執金吾弟䬃漁陽太守	-13.6821
彑	-13.6821
此引池結亭架橋其上	-13.6821
瑝	-13.6822
藏拓本於御府以開元二字小印印之	-13.6822
若篆若𨽻字勢雄偉	-13.6823
但不賜爾故人間尤以官法帖為難得	-13.6823
搦	-13.6823
脰	-13.6823
佹	-13.6823
六碑存十二碑毁南行	-13.6823
処	-13.6823
盜殺蔡侯申殺誤	-13.6823
者晉水之神南面者唐叔之神後晉天福	-13.6823
云孔子乾坤所挺西狩獲麟為漢制作	-13.6823
作材其一字而前後不同者包	-13.6823
嚮嚮作響兼三才而兩之三才之道也才	-13.6823
四萬九千五百一十六字儀	-13.6823
九江太守拜議郎太尉長史御史中丞司	-13.6824
騎校尉以病遜位熹平元年卒門生	-13.6824
駑	-13.6824
訃	-13.6824
画	-13.6824
詈	-13.6824
陥	-13.6824
􁊸	-13.6824
包皆作苞包有魚包无魚以	-13.6824
包荒包承包羞繫	-13.6824
永平八年四月十四日庚申造	-13.6824
立天之道曰隂與陽立地之道曰柔與剛	-13.6824
猒	-13.6824
陴	-13.6824
辨之不早辨也其辨明也明辨晳也辨吉	-13.6825
二月江夏兵趙慈反殺南陽太守秦頡	-13.6825
􁦃	-13.6825
顫	-13.6825
剩肉瘦不露骨	-13.6825
如此果爾乃甚可憂張平不立勢向河南	-13.6825
言語稱謂宫室器服	-13.6826
元嘉元年度尚命邯鄲淳作曹娥碑時	-13.6826
才能智謀有足為者	-13.6826
時書丹者亦不獨邕也	-13.6826
肫	-13.6826
甽	-13.6826
興於中古隆於漢氏	-13.6826
菩	-13.6826
韃	-13.6826
豐多故親寡旅也故下多	-13.6826
言乎兌戰乎乾勞乎坎成言乎艮	-13.6827
籝	-13.6827
唐虞城令李公去思頌	-13.6827
噏	-13.6827
貞字其先誤而後改者略例筌誤	-13.6827
年造俱完一𢎞治十一年一無年月俱壊	-13.6827
上天之載無聲無臭	-13.6827
中有小石青白色長四寸廣二寸	-13.6827
云刺史李諶為母房太妃追薦造像	-13.6827
尤為險勁是伊家蘭臺發源	-13.6827
嶔	-13.6827
必有所遇脱所字蠱則飭也飭誤	-13.6827
是以自天祐之吉无不利下多	-13.6827
橓	-13.6827
益州刺史薛君巴郡太守劉君碑	-13.6827
謂晟由左清道率歴三府右職累遷至光	-13.6827
錘	-13.6827
儛	-13.6827
刺姦五威司命大司徒公封於陵	-13.6827
㑹稽分東西部各置都尉史不載	-13.6828
朔七日己酉魯相臣晨長史臣謙	-13.6828
九萬八千九百九十四字春秋左	-13.6828
使李希烈時也希烈以建中元年	-13.6828
汝州盧杞建議遣公奉使至正元	-13.6828
鏹	-13.6828
也字力小而任重小誤	-13.6828
二人姓名偶可見云南陽冠軍馮	-13.6828
孔子求書得黄帝𤣥孫帝魁之書	-13.6828
胲	-13.6828
褙	-13.6828
進試太常卿碑謂晟為涇原四鎮北庭節	-13.6828
霦	-13.6828
仌	-13.6828
屼	-13.6828
谼	-13.6828
為郡掾史㑹稽諸暨尉	-13.6829
二十六年四方其訓之訓誤	-13.6829
今文不同而兩通者宣二年以視諸朝視	-13.6829
堂西所立石為魏為漢之不同	-13.6829
技八年子姑使溷代子代誤	-13.6829
敉	-13.683
張禹本受魯論兼講齊	-13.683
躳	-13.683
法言不盡意遂不能成十許年始見	-13.683
臺緩步髙謝風塵又如行人妙選罕有失	-13.683
據此碑乃即時所立而太守生稱諱者何	-13.683
頸而色不變度無還期誓不易節	-13.683
印二十五年季公鳥生申申誤	-13.683
有像在京城西南百	-13.683
不字二年婦人謂嫁曰歸嫁誤	-13.683
世以其難得尤以為竒惟余所得	-13.683
其西南下添子朝奔郊四字春秋公羊傳	-13.683
湋	-13.683
硥	-13.683
稼三年曷為或言崩或言薨	-13.683
陽城郡太守趙公奭碑	-13.683
哨	-13.683
瘐	-13.683
漚	-13.683
年狄伐邢邢誤	-13.683
廊政可一丈梁得使二家通出入作門	-13.683
溘	-13.683
賤莊十九年此其言遂何	-13.683
鄚	-13.6831
鑾輅爰歸拜司徒兼中書令俄以本官兼	-13.6831
脤	-13.6831
菖	-13.6831
隟	-13.6831
新周故宋以春秋當新王	-13.6831
謪	-13.6831
帝靈威仰赤帝赤熛怒	-13.6831
柎	-13.6831
殻	-13.6831
瑮	-13.6831
三日乃開化二白鴿飛去篆文宛然像背	-13.6831
憂臧宣叔者相也叔誤	-13.6831
或二十九年許人子者必使子也人下	-13.6831
棚	-13.6831
步廊一壁太單	-13.6831
河宣十五年然後歸爾爾誤	-13.6831
邠國公梁守謙功徳	-13.6831
蔗	-13.6832
桶	-13.6832
名狀如牒平惶恐叩頭死罪	-13.6832
王制正自欲不得許卿當如何導亦天明	-13.6832
申師情事也劉穆之白	-13.6832
人字十七年春王二月二誤	-13.6832
圍何圍下多一者字二十六年乞師者何	-13.6832
剉	-13.6832
伏羲神農黄帝之書謂之三墳	-13.6832
臣戒稽首言魯前相瑛書言詔書崇聖道	-13.6832
􁍑	-13.6832
書紕繆命文深與黎景	-13.6832
二十六著晉史至二王列傳	-13.6832
自前世相傳以為孔子所書據張從	-13.6832
倓	-13.6832
三十九年為其驕蹇為誤	-13.6833
周易君子以裒多益寡裒誤	-13.6833
嘶	-13.6833
窊	-13.6833
至江陵書景福寺碑梁主稱之又以題	-13.6833
遰	-13.6833
珝	-13.6833
滀	-13.6833
筒	-13.6833
艾居晦書石學生前	-13.6833
酧	-13.6833
三年百里子與蹇叔子百誤	-13.6833
伯文四年其謂之逆婦姜于齊何何誤	-13.6833
愘	-13.6833
蹬	-13.6833
琹	-13.6833
讟	-13.6834
大義因經屬指名之曰傳	-13.6834
逑	-13.6834
獮	-13.6834
世以長興板本為便國初遂頒布天下	-13.6834
少聞春秋於趙郡和仲先生	-13.6834
瞍	-13.6834
媢	-13.6834
楊賜諫議大夫馬日磾議郎張	-13.6834
瀍	-13.6834
金吾衛將軍臧希晏碑	-13.6834
錟	-13.6834
六碑存十二碑毁南行禮記十五碑悉崩	-13.6834
建武宗時廢宣宗大中八年	-13.6834
權知沔王友上柱國賜緋魚袋臣唐𤣥度	-13.6834
裡	-13.6834
重痛不可言不知何以治之憂深力不具	-13.6834
醊	-13.6834
叩頭死罪敢言之司徒司空府壬寅詔書	-13.6835
有秩皆不知是何名號又有夏陽	-13.6835
蔡邕以熹平四年與五官中郎將堂谿典	-13.6835
四門助教臣陳莊士覆定字體	-13.6835
鄡	-13.6835
傳則云拜晟司徒兼中書令尋拜	-13.6835
崇徽公主手痕詩	-13.6835
兆尹孫府君到欽若嘉業遵而成之	-13.6835
裔按雍都舊本九經命平泉令張	-13.6835
驊	-13.6835
鷖	-13.6835
刋輔嗣之野文補康成之逸象	-13.6835
瀨	-13.6835
者見此一事知我是行亦足達於時命耳	-13.6835
之唐史宦者守謙無傳惟憲宗	-13.6835
後魏化政寺石窟銘	-13.6835
有禮部官書朱文長印	-13.6835
法所謂無意而文從容中道者也	-13.6835
邠國公者内侍梁守謙也	-13.6835
在帝心朕躬有罪	-13.6835
息之燕淳和足使忘軀	-13.6835
政當求之内事餘理不絶求之一條當有	-13.6835
橱	-13.6835
縣光和尚骨立書貴瘦硬方通神	-13.6835
賢女委頓積日治此為憂懸	-13.6835
資治通鑑一部一百冊資治通鑑一部	-13.6836
勿復憂念有信來數附書知聞以解其憂	-13.6836
作雍屢豐年屢作婁其	-13.6836
皜	-13.6836
詔徙鄴城石經於洛	-13.6836
ဇ	-13.6836
䆮	-13.6836
吾之朽疾日就羸頓加復風勞諸無意	-13.6836
浃	-13.6836
圭峯定慧禪師傳法碑	-13.6837
愧作媿于彼西雝肅雝和鳴有來雝雝雝	-13.6837
噎	-13.6837
峥	-13.6837
驌	-13.6837
雨無其極傷我稼穡	-13.6837
匽皇后居永樂宫和平元年詔置太	-13.6837
囀	-13.6837
圬	-13.6837
令盡足下勿乃憂之足下殊當憂吾故具	-13.6837
帖語之類有譏評雖當主名昭然而不能	-13.6837
翎	-13.6837
而譏評未當者若知伯英大令諸草帖	-13.6837
不此甚蕭索祖希時面因行藥欲數處	-13.6837
􁑮	-13.6837
久眷與時長寒嚴足下何如想清豫耳披	-13.6837
他作它不知我者謂我士也驕作不我知	-13.6837
年少姜有寵而死姜誤	-13.6837
旗駟帶追之駟誤	-13.6837
裏刻之寫春秋尚書二部作篆科斗	-13.6837
侍郎耶言别事有及過謝憂	-13.6838
懸想何日不懃捐	-13.6838
瘖	-13.6838
然不鮮今天子尚文章尊典籍	-13.6838
麦	-13.6838
蹂	-13.6838
碗	-13.6838
􁂍	-13.6838
憊	-13.6838
牧皆即其誤改之云何其	-13.6838
牎	-13.6838
􁲔	-13.6838
櫃	-13.6838
三百六十五度四分度之一	-13.6838
黿	-13.6838
中字之類有誤著其主名者若以晉人章	-13.6838
葷	-13.6838
魯相晨謁孔子冡文	-13.6838
四昭元年今武猶是心也今誤	-13.6838
聚單公子愆期期誤	-13.6838
麐	-13.6838
茁	-13.6838
莚	-13.6838
文宗則今上也古者卒哭乃諱故生不諱	-13.6838
先誤而後改者抱衾與裯裯誤	-13.6839
撥噂沓背憎噂誤	-13.6839
脱其字添周禮女史八人史誤	-13.6839
遐鱣鮪發發發誤	-13.6839
兵二十七年父子死余矣余誤	-13.6839
君慶氏之馬善驚馬誤	-13.6839
字三十年蔡景侯為太子般娶于楚娶誤	-13.6839
宴文子使召之召誤	-13.6839
紀大象元年二月辛卯詔徙鄴城石經	-13.6839
闛	-13.6839
䢫	-13.6839
如何深極憂難比也上下安之必得發耶	-13.6839
悀	-13.6839
戴延之西征記曰焦氏山北	-13.6839
作於當時而史成於後代要當以碑為是	-13.6839
伐鬼方元功章炳勲	-13.6839
撐	-13.6839
瘼	-13.6839
胗	-13.6839
棓	-13.6839
祸	-13.6839
稠不瑕有害瑕誤	-13.6839
扑	-13.6839
碑中有弟子思莊敬想清徽勒兹𤣥琰	-13.6839
禮數萬言號曰后氏曲臺記	-13.6839
之道外王之業未必非夫子之最致意者	-13.6839
云為陣亡士薦福	-13.6839
敓	-13.6839
􁊅	-13.6839
並起跨州連郡不可勝數曹操比於	-13.6839
書如飄風忽舉鷙鳥乍飛	-13.6839
栁待制道傳云麻姑壇碑小字楷法	-13.6839
神仙鬼物詭怪所傳莫不皆有	-13.6839
精𦂳比聞舊石焚毁山中	-13.6839
腔	-13.6839
鶼	-13.6839
􁶂	-13.6839
㳿	-13.6839
何平安等人當與行不足不過彼與消息	-13.6839
有年月一行題名十行曰開成二年丁巳	-13.6839
煙賦車兵徒卒甲楯之數卒誤	-13.6839
缿	-13.6839
聚君若驩焉好逆使臣若誤	-13.6839
李翕黽池五瑞碑	-13.6839
我生之初尚無為我生之後漢	-13.684
不如鍾草不及張所為世之所重以其能	-13.684
十四年之文也所書者皆是公羊氏傳	-13.684
撟	-13.684
卑二十五年先夫當之矣夫誤	-13.684
字二十三年邾畀我來奔畀誤	-13.684
溳	-13.684
㑭	-13.684
志使析歸父告晏平仲晏誤	-13.684
怛想散患得差餘當以漸消息耳	-13.684
睎	-13.684
􁦰	-13.684
鮌	-13.684
廣漢太守沈子琚緜竹江堰碑	-13.6841
妵	-13.6841
軓	-13.6841
􁔇	-13.6841
瘍	-13.6841
胥肆長掌其戒令令誤	-13.6841
漢成皐令任伯嗣碑	-13.6841
枿	-13.6841
腊	-13.6841
何以謂之天無是月非常月也是月下	-13.6841
漢隋唐五代外至四海九州名山大澤窮	-13.6841
紹則名微而衆寡故能	-13.6841
井堙木刋堙誤	-13.6841
古無兩人共立一碑者	-13.6841
得至鄴者不盈大半	-13.6841
辨齊魯之音取其宜考古今之文取其正	-13.6841
郎中謁者將作大匠丞相令廣陵太守	-13.6841
􁱝	-13.6841
傁	-13.6841
􁳛	-13.6841
ခ	-13.6841
絲牛人軍事共其犒	-13.6841
禁鞮鞻氏府一人一誤	-13.6841
於作于成二年得一貶焉爾一作壹	-13.6842
二十餘字零落不成文惟有叔于田一章	-13.6842
聘十九年而視不可含含誤	-13.6842
過華臣之門必騁騁誤	-13.6842
隽	-13.6842
䪺首䪺首死罪死罪	-13.6842
宗諱涵皆不缺筆者禮天子事七廟自肅	-13.6842
數篇之文也與毛詩異者如猗作兮貫作	-13.6842
圡	-13.6842
冠義昏義鄉飲酒義射義燕義聘義	-13.6842
柤	-13.6842
跬	-13.6842
淖	-13.6842
八鬯人禜門用瓢齎用誤	-13.6842
曒	-13.6842
蟊	-13.6842
鈿	-13.6842
廬陵胡銓邦衡撰銓	-13.6842
蹷	-13.6842
學正傅舟濟陽縣儒學	-13.6842
漢中道由子午出散入秦	-13.6842
篇必計其章終篇又總其字又載盍毛包	-13.6842
辵	-13.6842
氏論語碑所云盍毛包周之	-13.6842
煖	-13.6842
説文勿者州里所建之	-13.6842
鞔	-13.6842
菞	-13.6842
有朋自逺冕紳莘莘	-13.6843
詩不立學官隋志有石經魯詩六卷此碑	-13.6843
弹	-13.6843
兄子號毁不可忍視	-13.6843
問殊乏劣白不具王洽再拜	-13.6843
宗諱治中宗諱顯睿宗諱旦	-13.6843
平十八年凡自虐其君曰弑虐上多	-13.6843
弊日至夏不得有所噉而猶有勞務甚劣	-13.6843
而世次官閥粗可考云孔子十九代孫	-13.6843
鄶	-13.6843
瀐	-13.6843
濬畎澮距川	-13.6843
二人姓名陸氏所記未之詳	-13.6843
飱	-13.6843
天命自亮以民祗懼	-13.6843
迕	-13.6843
硩	-13.6844
肎	-13.6844
唐慧義寺弥勒像碑	-13.6844
榮司常家各象其號象誤	-13.6844
繭紙鼠鬚筆遒媚勁健絶代	-13.6844
九百七十有一字前四篇後四篇之文也	-13.6844
寺博士黄福修職郎太醫院御醫趙友同	-13.6844
左傳文公宣公卷字更濫惡而成	-13.6844
承事郎大理寺評事王選文林郎	-13.6844
承直郎刑部主事洪順沈升	-13.6844
簉	-13.6844
龍畫傍分螺書匾刻	-13.6844
十七年楚公子櫜師襲舒庸櫜誤	-13.6844
及女曰雞八字可讀其間有齊韓字	-13.6844
夫二十一年欒盈過于周過上多奔楚二	-13.6844
宙字季將孔子十九世孫	-13.6844
帥十五年吾獲狄土土誤	-13.6844
延商紂暴虐紂誤	-13.6844
旦七年尋蟲牢之盟蟲誤	-13.6844
終十二年晉師在敖鄗之	-13.6844
書過鍾而草故不減張	-13.6844
王右軍竟去不付石首干	-13.6844
論語云蔡邕作又有三字石經古篆兩種	-13.6844
八人姓名論語碑亦有左立	-13.6844
注引陸機洛陽記云禮記碑上有馬日磾	-13.6844
校勘官兼專知都勘定經書	-13.6844
到少牢饋食禮如筮日之儀儀誤	-13.6844
磬王大食三侑侑誤	-13.6844
呱	-13.6844
作于十二年是以君子篤於禮而薄於利	-13.6844
僕謂顔氏以説文證此字為長而今世流	-13.6844
冠軍故爾不覺轉勝灸無所覺憂馳深汝	-13.6844
孝行聞劉鄩辟為	-13.6844
愛之貌杜牧之詩浮生長勿勿是知勿勿	-13.6844
知足下散勢小差此慰無以	-13.6844
經皆臨文不易樊毅碑命守斯邦劉熊碑	-13.6844
與郕邽來奔邽誤	-13.6844
表極古信能傳鍾氏筆意而右軍學之也	-13.6844
未復慶等近消息懸心君	-13.6844
眠食極勝也善將治之孤子並疾患歎具	-13.6844
犠	-13.6844
磧	-13.6845
訽	-13.6845
光禄大夫行左相兼兵部尚書𢎞文	-13.6845
犮	-13.6845
又有别本在定州民家二家各	-13.6845
後漢書百官志注河南尹官屬有循	-13.6845
鋗	-13.6845
韜所發其所藏書畫皆剔取其	-13.6845
喪禮祭服不倒倒誤	-13.6845
禜	-13.6845
􁇟	-13.6845
挐	-13.6845
忍黙恕退四卦	-13.6845
鏑	-13.6845
音繞梁孤飛獨舞孔琳之	-13.6845
作同人八年殺諸絳市絳誤	-13.6845
八分書末有祭酒李齊古所上表及答詔	-13.6845
其本授教授沈必豫熊克使刻石學宫云	-13.6845
四載號為石臺孝經乾道中蔡	-13.6845
年支都乏絶不謂乖又至	-13.6845
李貞陳景著翰林院檢討從仕郎余學	-13.6845
毛伯衛來錫公命錫誤	-13.6845
興近問懸心得藥書散勢耿耿嘗也	-13.6845
誤作齊侯文二年内大夫可以㑹外諸侯	-13.6845
逴	-13.6845
闕七年寘文公子焉焉誤	-13.6845
憺	-13.6845
難將適猶懸憂遣不具	-13.6845
􁣡	-13.6846
無之字其旁注者予有亂臣十人臣字旁	-13.6846
小戎序國人則矜其車甲甲誤	-13.6846
􁇂	-13.6846
碣及得其本而詳校之乃知經中之	-13.6846
繆戾非一而劉昫之言不誣也	-13.6846
瞽大祝四曰禜禜誤	-13.6846
厥邦皆書邦作國疑漢儒所傳如此非獨	-13.6846
㚘	-13.6846
弟佳不及數字愔報	-13.6846
三年孫毛詩博士自牧以家本重校勘定	-13.6846
今字也觀遺經字畫之妙非蔡中郎	-13.6846
悉刻蔡邕名魏正始中又刻古篆	-13.6846
世習韓詩父子以章句著名	-13.6846
噍	-13.6846
軿	-13.6846
兵馬使碑謂晟平蜀還授檢校太子	-13.6846
學士上柱國渭源縣開國公臣李適之	-13.6846
阸	-13.6846
斲	-13.6846
澎	-13.6846
厰	-13.6846
始皇東行郡縣上鄒嶧山	-13.6846
書如鵬翔未息翩翩	-13.6846
􁈹	-13.6846
云宅及計來東言展有期索靖白	-13.6846
今者事勢尚當有所依違願君思省	-13.6846
公冠諸侯遷廟諸侯釁廟	-13.6846
兵部郎中童謨奉訓大夫禮部員外郎	-13.6846
問悲酸悒悒想不久可得還耳執筆惻感	-13.6846
學士兼左春坊大學士奉政大夫	-13.6846
廣奉政大夫右春坊右庶子兼翰林	-13.6846
恫	-13.6846
愬天子愬作訴十四年有麏而角者麏作	-13.6846
目誤作月閔元年盍弑之矣使弑子般弑	-13.6846
知消息申省次若言	-13.6846
礧	-13.6846
福奉直大夫北京刑部員外郎	-13.6846
肝分膾尋繹懊憹觸感隕絶孤思悒悒自	-13.6846
講楊榮奉直大夫右春坊右諭德兼翰林	-13.6846
院典籍修職佐郎黄約仲翰林院庶吉士	-13.6846
承務郎蕭時中陳循翰林院編修文林郎	-13.6846
疏故爾諸惡不差懸憂順何似	-13.6846
糶	-13.6846
遳	-13.6846
魋	-13.6846
九經字様一卷凡七十六部四百	-13.6847
九月七日愔報比得章知弟	-13.6847
上柱國滎陽郡開國公食邑二千户臣覃	-13.6847
饟	-13.6847
同商較是非取其適中纂	-13.6847
褓	-13.6847
医	-13.6848
惟婦言是用是字旁	-13.6848
進行尚書左僕射兼右相吏部尚書集賢	-13.6848
灃	-13.6848
吾乃今知周公之德與周之所以王	-13.6848
泡	-13.6848
盌	-13.6848
踖	-13.6848
衛瓘繆播欒肇郭象蔡謨袁宏江	-13.6848
隱居先生以三洞真法傳	-13.6848
順昌廖德明子晦	-13.6848
僰	-13.6848
士子二十二年春秋三十有四戰	-13.6848
文即古體驚俗若依近代文字或傳寫乖	-13.6848
曲臺暗合古者射為六藝之一儀禮一經	-13.6848
瓮	-13.6848
虎卒誤作壬子宣八年以譏乎宣也譏誤	-13.6848
長興中詔國子博士田敏與其僚	-13.6848
􁆪	-13.6848
使子夏等十四人求周史記得百二十國	-13.6848
日月深酷撫膺崩	-13.6848
無喻餘可耳得華直	-13.6848
紳死其子弟以石質錢	-13.6848
蕢	-13.6848
盁	-13.6848
著自然經五卷武庫集五十卷其	-13.6848
朢	-13.6848
子囚封比干墓式商容閭干下容下各添	-13.6848
冑	-13.6848
􁒅	-13.6848
􁓒	-13.6849
吊	-13.6849
吉凶消長之理進退存亡之道	-13.6849
命若藥弗瞑眩藥誤	-13.6849
淏	-13.6849
乃云奏求正定六經文字既已不同而章	-13.6849
伏羲之易有文王周公之易有孔子之易	-13.6849
左丘明授曾申申授吳起起授其子期	-13.6849
猊	-13.6849
燂	-13.6849
云後漢刻七經於石碑皆蔡邕所書其	-13.6849
李充孫綽周懷范寗王珉	-13.6849
不同陸機洛陽記所載但有書易公羊禮	-13.6849
世非介胄之士則不習與古殊矣媵觚媵	-13.6849
言展若因行李願存故舊今遇	-13.6849
賢弟還得數張紙勞動幸不	-13.6849
雪候既不已寒甚盛冬	-13.6849
鶬	-13.6849
􁅩	-13.6849
穻	-13.6849
公用端命于上帝于誤	-13.685
則字邦之大師大上多	-13.685
水經為據三體者乃魏人所刻儒林傳云	-13.685
矣字皆即其誤改之春秋榖梁傳	-13.685
無喻然未善悉想宿昔可耳脅中云何一	-13.685
患耿耿知以自屈恨不相見力及不比望	-13.685
初魏鄭公收聚之十不存一則石經之散	-13.685
好事之家猶崑山片玉已不多見今京華	-13.685
饒陽李宗諤昌武	-13.685
􁦹	-13.685
厸	-13.685
舊唐書開成元年正月中書門下奏起居	-13.685
賃	-13.685
其山川在諸侯者以時祠之孝武皇帝	-13.6851
孱	-13.6851
有字野廬氏有相翔者誅之誅上多	-13.6851
治而亂作營繕者至用為柱礎唐	-13.6851
白不具瓘惶恐死罪	-13.6851
窶	-13.6851
元年父者何傅也傅誤	-13.6851
天命之謂性率性之謂道	-13.6851
皆然此為朱梁所補刻考	-13.6851
葙	-13.6851
人為從者之淹淹誤	-13.6851
貆	-13.6851
兵部員外郎集賢殿直學士崔球等同勘	-13.6851
逺文字多謬俗儒穿鑿疑誤後學	-13.6851
今文不同而兩通者醫師疕瘍者疕上多	-13.6851
儒之請刋石立之太學天下咸取則焉碑	-13.6851
氏以救日之弓與救月之矢射之射上多	-13.6851
腫耿耿今差不吾比日食意如差而	-13.6851
舡	-13.6851
題周易繫辭上第七周易繫辭第八周易	-13.6852
謂大駕再遷加檢校右僕射尋轉左僕射	-13.6852
左散騎常侍兼御史大夫傳則云晟為神	-13.6852
皿	-13.6852
旊	-13.6852
矮	-13.6852
石經遺字者藏洛陽及長安人家	-13.6852
笱矢人前弱則俛俛誤	-13.6852
也未央宫有曲臺殿天子射宫也西京	-13.6852
城四十餘日不能下引去	-13.6852
州刺史孟佗遣從事任	-13.6852
卦爻一彖二象三文言四繫辭五	-13.6852
然而艱疾若此令人短氣	-13.6852
豋	-13.6852
第九之内以正書為别終似未	-13.6853
記妢胡之笴笴誤	-13.6853
覆定石經字體官翰林待詔	-13.6853
求正定六經文字時博士試甲乙科爭第	-13.6853
勹	-13.6853
碑謂皇居失守授晟檢校工部尚書充神	-13.6853
婦爵以降誤作受尸爵主人降洗爵爵誤	-13.6853
或先經以始事或後經以終義	-13.6853
武帝登山使人排倒	-13.6853
仁者見之謂之仁知者見之謂之知	-13.6853
欽定四庫全書直齋書錄觧題卷	-13.6853
王謝家子弟縱復不端正	-13.6853
慶唐觀金籙齋頌	-13.6854
宬	-13.6854
借用者八字鴻艾劮	-13.6854
在中宗之上以傳序為次也但云	-13.6854
以年多少為先後此碑獨闕祖甲計其字	-13.6854
十二毁論語三碑其二毁禮記十五碑皆	-13.6854
自土塗而木版自木	-13.6854
意其當時必為知名士而今世人	-13.6855
厮	-13.6855
令韓泉充詳定石經官	-13.6855
雲白春節餘不適得示知足下平安為思	-13.6855
人子使漆雕開仕雕誤	-13.6855
彫再斯可矣斯誤	-13.6855
我字必有我師焉有誤	-13.6855
瀫	-13.6855
甚多不具載論語賜也爾愛其羊爾誤	-13.6855
縡	-13.6855
非字哀元年此該之變而道之也該誤	-13.6855
七年弗可改也已改誤	-13.6855
故十四年公怒止之止誤	-13.6855
得還為佳也冠軍蹔暢釋當不得極蹤可	-13.6855
荗	-13.6855
石經尚書殘碑盤庚篇百七十二字	-13.6855
二書蹔至未更近問懸情不適	-13.6855
何生相見近及不多王廙白	-13.6855
猶之類是也通用者十一字於戲	-13.6855
白唯久白想適妙來行未面遲想得示知	-13.6855
者然不立於學官永嘉之亂三家之書並	-13.6855
厎	-13.6855
國僖三年公子友如齊涖盟涖誤	-13.6855
鏁	-13.6856
縋	-13.6856
皆得家範而體各不同	-13.6856
公字文六年處父主境上事事上多	-13.6856
傳二十七年責無禮也責誤	-13.6856
昳	-13.6856
載桓二年故封桓叔于曲沃故誤	-13.6856
閔二年從曰撫軍軍誤	-13.6856
青郤縠可縠誤	-13.6856
日具疏操之獻之再拜	-13.6857
廿四是王濟祖日欲必赴卿可	-13.6857
𠞰	-13.6857
厂	-13.6857
灞	-13.6857
膜	-13.6857
腓	-13.6857
臣筆測得臣文㚟得臣義躍得臣酒書亦	-13.6857
襦	-13.6857
時上好文覃以經義	-13.6857
惔	-13.6857
遭母憂自乞拜議郎又	-13.6857
三子三上多一二字可與言而不與之言	-13.6857
使郤乞告瑕吕飴甥且召之且誤	-13.6857
具五年僖伯稱疾不從疾誤	-13.6857
得冉有子貢侃侃如也有誤	-13.6857
改者學記教人不盡其材材誤	-13.6857
纏	-13.6857
偯	-13.6858
之後盡絀前代諸儒之論欲以	-13.6858
享作饗大學堯舜帥天下以仁二帥	-13.6858
有字中庸待其人而後行而誤	-13.6858
辟焉五辟字皆誤作譬若有一个臣个誤	-13.6858
鎗雜記上客立于門西于作於雜記下泄	-13.6858
漯徙朝陽之平慘	-13.6859
親故數移轉想祖父	-13.6859
女得人焉爾乎爾作耳人潔已以進潔	-13.6859
瀞	-13.6859
定月令在曲禮之前月令人乃遷徙徙誤	-13.686
兩通者檀弓上有亡惡乎齊亡作無	-13.686
外字子大夫公子衆士食粥	-13.686
鸝	-13.686
節寒暑時脱節字學記燕辟廢其學辟誤	-13.686
臍	-13.686
人從者莫不見遠者莫不聞著在	-13.6862
之亦作皆燕禮小臣又請媵爵者二大夫	-13.6862
親親也有信數附書信以慰吾心也	-13.6862
梳	-13.6862
滍	-13.6862
撜	-13.6862
秋月感思深得近示為慰餘熱比復可不	-13.6862
㿃	-13.6863
嚌	-13.6863
幔	-13.6863
公筆法為世楷模而字書辨正	-13.6863
退在上位而不能進賢者逐	-13.6864
幀	-13.6864
蕖	-13.6865
韓說太史令單颺等奏	-13.6866
獎	-13.6866
鵜	-13.6866
宷	-13.6866
䍐	-13.6866
何治眼風不異耳指遣承問謝莊白呈左	-13.6866
戫	-13.6866
及碑始立其觀視及	-13.6867
東精兵不可卒得唯當善養見者而事慮	-13.6867
䡅	-13.6867
穅	-13.6868
梃	-13.6868
鵶	-13.6869
恐不見汝等湖水泛漲不可渡遂復隔	-13.6869
陿	-13.687
茝	-13.687
唐并州長史崔敬嗣碑	-13.687
贓	-13.6871
鵃	-13.6871
涣	-13.6873
云六帝四后是諮是諏	-13.6873
劼	-13.6873
㬅	-13.6877
􁀅	-13.6878
㓪	-13.6878
䗜	-13.6878
阝	-13.688
氲	-13.6881
飇	-13.6884
蕑	-13.6885
韍	-13.6891
瞳	-13.6892
訑	-13.6895
􁒙	-13.6906
紜	-14.0036
􁒳	-14.0051
閇	-14.0067
衣服不貳從容有常以齊其民	-14.009
误	-14.0094
唬	-14.0095
子鄭伯享趙孟子太叔賦野有蔓草	-14.0098
情動於中而形於言言之不足故嗟嘆之	-14.0107
岕	-14.0109
螳	-14.0113
分書地僻搨者少故得稍完	-14.0113
搭	-14.0113
窋	-14.0115
煽	-14.0117
太守額曰銘辭曰誄亦屬未妥東京作者	-14.0119
唫	-14.0119
曬	-14.0119
氷釋怡然理順然後為得	-14.0121
荑	-14.0121
老軍營之西北得馬周碑	-14.0121
䇽	-14.0121
中足以守國家小足以守其身謙之謂也	-14.0123
䓆	-14.0123
棰	-14.0123
分爻之象辭各附當爻則費氏初變	-14.0124
筩	-14.0124
而言若燕射朝聘則士豈有是禮而可	-14.0124
如錐畫沙如印印泥	-14.0125
甚多土人捶其字殆盡彦博碑在靖碑北	-14.0125
差乃整齊三者失其一奴書耳	-14.0125
磬前長三律二尺七寸後長二律尺八寸	-14.0125
栘	-14.0125
頗以為非顔氏書更俟識者辨之	-14.0126
訓句探其㫖鳩僝精要考訂訛舛	-14.0126
作三山形文皇以象其功土人謂上三冢	-14.0126
太子左奉裕率兼檢校安北大都䕶相王	-14.0126
蓆	-14.0127
比干墓親為弔文樹碑而刋之是	-14.0127
茂又鄭康成注月令仲冬者日月㑹	-14.0127
荇	-14.0128
呢	-14.0128
鄭伯如晉子展賦將仲	-14.0128
魏書孝文以太和十八年十一月甲申經	-14.0128
矼	-14.0128
勣冢亦如靖土人謂下三冢	-14.0128
汳	-14.0128
不類合為一章而觀之與孟子堯舜之知	-14.0128
姮	-14.0128
八春官七十夏官六十九秋官六十六	-14.013
􁏅	-14.013
本以賜皇太子諸王近臣貞觀二十三年	-14.013
為老君堂其前有碑二髙八尺許上施石	-14.013
痒	-14.013
巏	-14.013
弟子公明儀樂正子春單居離	-14.0131
告風疾故爾反側餘可行未東動靜不	-14.0131
天開於子地闢於丑人生於寅	-14.0132
幌	-14.0132
方勁古拙斬釘截	-14.0132
愃	-14.0132
愒	-14.0132
季父琰之琰之見魏書使君封安喜縣	-14.0132
吷	-14.0133
勞亦極惡馳情二女晚生皆佳未復	-14.0133
􁀧	-14.0134
䓗	-14.0134
貧賤歡樂憂悲非惟人事百	-14.0134
􁇋	-14.0134
諸家説不安處古文字讀皆異	-14.0134
赩	-14.0134
得之張僉憲云宋嘉定中何致子一遊南	-14.0134
懺	-14.0134
首天授二年一首萬嵗通天二年一首聖	-14.0134
一萬方又云天發神䜟文天璽元年七月	-14.0136
酉朔又云天䜟廣多不	-14.0136
涞	-14.0136
從仕郎吉安路吉水州判官致仕	-14.0136
呿	-14.0136
榔	-14.0136
电	-14.0136
絞	-14.0136
嬈	-14.0136
煃	-14.0136
剞	-14.0136
巃	-14.0136
庥	-14.0136
坪仆二碑余皆起之則與尉遲碑同	-14.0136
視二年一首長安元年一首四年二首神	-14.0136
鉌	-14.0136
體中復何如弟甚頓勿勿不具獻之再拜	-14.0136
還數日具都下問人情所憂良可歎息諸	-14.0137
瀼	-14.0138
泪	-14.0138
襆	-14.0138
瞶	-14.0138
陽山石理成字凡二十明年改元大赦以	-14.0138
嘗命之徃撫蔡師夫守謙以一宦	-14.0138
烺	-14.0138
繂	-14.0138
㨂	-14.0138
博學而詳說之將以反說約	-14.0138
少城作石經考異之餘因得此古文全編	-14.0138
故頓極難勞知足下便去不得面别	-14.0138
有刪改初十五篇今存十三篇去其集字	-14.0138
魏初傳古文者出於邯鄲淳恒祖敬侯	-14.0138
㴱	-14.014
睿宗即位稱法善有㝠助之功	-14.014
之國而其不能治天所以資將軍將軍既	-14.014
有首易有爻𤣥有贊易有象𤣥有測易有	-14.014
大周無上孝明髙皇后碑銘并序	-14.014
泉陵薛政五官掾隂林户曹史夏效監	-14.014
枵	-14.014
將為天下後世之戒而非徒取其文字也	-14.014
成列象在其中矣因而重之爻在其中矣	-14.014
蠄	-14.014
豪爽可喜乃知前代帝王留心翰墨如此	-14.014
之臣者雖不獲一節以終而心之所主見	-14.014
憩	-14.014
本意其最甚者序文本亦條	-14.014
禮撰齊亡入周周亡入隋而猶書齊官	-14.014
者固較然不易如此然則今人之不及古	-14.014
謂韓愈劉禹錫朱熹張栻諸人求之不得	-14.014
贈張秘書詩云阿買不識字頗知書八分	-14.014
集録之日碑尚不在龍興此其徙置之由	-14.014
宰予晝寢以晝作畫	-14.014
磨滅以其潁川人而言本州知其為豫州	-14.014
􁀴	-14.014
矗	-14.0141
軻著書時所見諸侯不應皆死且	-14.0141
王方慶萬歲通天進帖	-14.0142
孔子曰君子於其所不知蓋闕如也	-14.0142
以乾兌離震㢲坎艮坤	-14.0142
云左林右泉後岡前道萬世之藏兹焉是	-14.0142
耴	-14.0142
行蠕動咸守厥常人物同授獨遭	-14.0142
轔	-14.0142
蔡邕採李斯曹喜之法為古今雜形	-14.0142
繫逐爻之下惟乾悉屬之於後者讓也	-14.0142
饘	-14.0142
釋象七明變一訓辭二類占一衍數二合	-14.0142
七字内第三行止六字以少室石闕所列	-14.0142
為劉洞村流水界之渡而東	-14.0142
僧大雅集右軍書余觀其筆法去聖教	-14.0142
可觀亦竄改無完篇首末	-14.0142
輴	-14.0142
邕等正其文字自後五經一定爭者用息	-14.0142
二篇固當而其他務從省文多失事實或	-14.0142
五臺為吾臺則理之不可通者疑為後人	-14.0142
唐人分書甚佳但經元人翻本	-14.0142
有登千福寺楚金禪師法華院	-14.0142
本名博議髙内翰文虎炳如為之序及其	-14.0142
娃	-14.0142
湔	-14.0142
恵王元年至平公之卒凡七十七年	-14.0143
暱	-14.0144
之誤耶今華州有此殘碑數十字其文同	-14.0144
漢初爲傳訓者皆與經别行	-14.0144
[...]
