<unk>	0
<s>	0
</s>	0
之	-4.37512
以	-4.60053
為	-4.68454
/	-5.04268
也	-5.08529
(	-5.09504
)	-5.11416
而	-5.20752
其	-5.40338
者	-5.42203
有	-5.42691
曰	-5.49264
於	-5.50204
王	-5.57565
,	-5.5845
不	-5.69941
與	-5.78127
人	-5.79321
及	-5.83588
)(	-5.86419
至	-5.86664
上	-5.92802
自	-5.94613
子	-5.97913
中	-6.00606
大	-6.00948
事	-6.02287
一	-6.03711
行	-6.08106
無	-6.12143
則	-6.12251
使	-6.13387
時	-6.13538
言	-6.16407
所	-6.16435
在	-6.17886
皆	-6.18955
又	-6.19468
令	-6.22579
等	-6.26098
官	-6.27116
乃	-6.28006
州	-6.28623
三	-6.29935
下	-6.36058
故	-6.36946
軍	-6.37377
。	-6.37899
出	-6.3856
復	-6.38682
入	-6.40959
▁	-6.41005
後	-6.41803
于	-6.42088
從	-6.43271
道	-6.44877
二	-6.44925
立	-6.46606
今	-6.48574
帝	-6.51793
文	-6.51865
見	-6.52108
兵	-6.52166
知	-6.52588
詔	-6.5467
公	-6.57113
相	-6.57264
得	-6.58153
遂	-6.58475
用	-6.59854
命	-6.60168
如	-6.60393
將	-6.60886
國	-6.61199
城	-6.62889
此	-6.63233
日	-6.66017
臣	-6.66549
當	-6.67118
同	-6.67544
亦	-6.68591
五	-6.69137
安	-6.69281
謂	-6.71218
平	-6.71361
置	-6.71898
初	-6.72579
四	-6.73494
生	-6.7361
天	-6.73717
山	-6.74903
書	-6.75618
正	-6.76785
反	-6.76891
分	-6.77578
南	-6.77634
民	-6.77653
多	-6.77664
欲	-6.78032
縣	-6.79494
作	-6.79613
方	-6.79769
明	-6.80573
李	-6.80695
非	-6.81522
封	-6.82004
張	-6.82065
名	-6.82239
因	-6.82615
矣	-6.82663
元	-6.83603
成	-6.84156
請	-6.84967
水	-6.86105
漢	-6.87232
居	-6.87304
禮	-6.87584
師古曰	-6.87619
可	-6.87704
長	-6.87868
加	-6.8789
已	-6.87959
法	-6.88042
遷	-6.88274
進	-6.88736
齊	-6.89681
周	-6.89836
云	-6.89983
若	-6.90403
即	-6.91128
字	-6.91326
遣	-6.92475
定	-6.92623
前	-6.93894
死	-6.94173
重	-6.9432
郡	-6.9439
卒	-6.95342
地	-6.95473
數	-6.96482
北	-6.96557
通	-6.96911
陳	-6.96989
先	-6.97008
東	-6.98296
音	-6.98457
諸	-6.99215
徳	-6.99447
馬	-6.99586
歸	-7.0014
本	-7.00147
武	-7.00766
改	-7.00994
既	-7.01939
是	-7.01956
傳	-7.02259
奏	-7.02365
守	-7.02516
西	-7.02814
六	-7.03609
還	-7.05191
君	-7.05273
聞	-7.06713
常	-7.06814
然	-7.06879
侯	-7.07476
家	-7.07871
内	-7.0857
未	-7.08601
劉	-7.08665
必	-7.0872
義	-7.09437
並	-7.1149
金	-7.11515
宜	-7.11955
主	-7.12027
焉	-7.12159
降	-7.13716
取	-7.14055
秦	-7.14302
何	-7.14435
趙	-7.14535
去	-7.15005
陽	-7.15071
賜	-7.15346
始	-7.15719
宋	-7.16453
府	-7.16867
度	-7.17077
世	-7.18336
年	-7.18673
雖	-7.19428
舉	-7.19581
師	-7.19741
晉	-7.20078
拜	-7.20623
實	-7.20755
外	-7.20837
合	-7.20919
除	-7.20974
兼	-7.21035
樂	-7.21721
以為	-7.21958
殺	-7.22377
制	-7.23072
魏	-7.23557
或	-7.23854
梁	-7.23974
發	-7.24386
我	-7.24589
氏	-7.24734
天下	-7.25108
服	-7.25529
司	-7.25729
求	-7.2581
來	-7.2645
髙	-7.26499
元年	-7.26558
都	-7.26597
門	-7.26838
授	-7.2741
路	-7.27489
少	-7.27771
次	-7.27852
親	-7.28499
各	-7.28506
議	-7.28702
治	-7.28806
乎	-7.28855
九	-7.28918
奉	-7.28981
興	-7.29102
率	-7.2917
善	-7.29398
心	-7.29789
和	-7.30119
屬	-7.3036
士	-7.31341
朝	-7.31835
白	-7.32018
稱	-7.32509
應	-7.32849
且	-7.33833
能	-7.33849
父	-7.35815
小	-7.35931
八	-7.35973
起	-7.36273
河	-7.36633
賊	-7.3676
經	-7.36883
石	-7.36991
食	-7.3701
信	-7.37312
受	-7.37484
盡	-7.37621
廣	-7.37757
衆	-7.38244
古	-7.38383
代	-7.389
田	-7.39057
凡	-7.39082
坐	-7.39111
兩	-7.40138
宗	-7.40997
三年	-7.4114
直	-7.41203
引	-7.41828
㑹	-7.41926
○	-7.42373
思	-7.42579
甚	-7.42587
光	-7.42824
建	-7.43122
任	-7.43383
神	-7.43641
七	-7.4371
領	-7.43925
吾	-7.45407
二年	-7.45966
論	-7.46057
問	-7.46451
十	-7.46609
節	-7.46852
攻	-7.46983
罷	-7.4702
意	-7.47811
位	-7.47814
省	-7.47935
益	-7.47986
深	-7.48436
景	-7.48504
爲	-7.4859
政	-7.48837
表	-7.49298
錢	-7.4977
過	-7.50116
亡	-7.50662
志	-7.50708
陵	-7.51028
太祖	-7.51293
失	-7.51886
唐	-7.52036
廢	-7.5217
宫	-7.52294
楚	-7.5277
不能	-7.53232
口	-7.53516
尚	-7.53728
按	-7.54365
吏	-7.54578
宣	-7.54805
易	-7.54883
清	-7.55127
逺	-7.5563
舊	-7.55805
不可	-7.56364
伯	-7.5637
龍	-7.56574
召	-7.56607
更	-7.56837
夫	-7.57458
轉	-7.57529
流	-7.58032
左	-7.58122
月	-7.58292
望	-7.58509
戰	-7.58555
物	-7.58786
猶	-7.58924
|	-7.59457
卿	-7.59984
惟	-7.60147
理	-7.60265
計	-7.60266
餘	-7.60796
章	-7.6107
德	-7.61603
處	-7.61742
給	-7.61782
弟	-7.62081
權	-7.62098
告	-7.62116
将	-7.62244
歴	-7.62478
氣	-7.63073
州刺史	-7.63266
孫	-7.6339
集	-7.63628
部	-7.63651
昭	-7.6399
耳	-7.64446
難	-7.64523
星	-7.64647
致	-7.64675
鎮	-7.6498
留	-7.65161
女	-7.65232
風	-7.65264
許	-7.65335
母	-7.65499
異	-7.65737
車	-7.66033
身	-7.66245
功	-7.66425
幸	-7.66545
新	-7.66609
利	-7.67521
承	-7.6776
臨	-7.67843
史	-7.68023
謀	-7.68025
爾	-7.6826
夏	-7.68428
亂	-7.68783
間	-7.69038
修	-7.69075
土	-7.69224
開	-7.69331
辭	-7.69386
止	-7.69978
祖	-7.70065
終	-7.70335
固	-7.70339
右	-7.70602
於是	-7.7064
嘗	-7.70708
學	-7.70936
執	-7.70938
每	-7.71123
誅	-7.71153
威	-7.7139
太子	-7.71748
首	-7.72188
江	-7.7262
楊	-7.73346
仁	-7.73523
左右	-7.7357
罪	-7.73752
將軍	-7.7391
賢	-7.74113
朔	-7.74149
布	-7.74167
力	-7.74223
延	-7.7504
敬	-7.75249
獨	-7.75332
破	-7.75678
不得	-7.76049
獻	-7.76314
韓	-7.7639
孝	-7.76402
仍	-7.76548
敗	-7.76735
充	-7.76861
嵗	-7.76908
并	-7.77249
貴	-7.77338
圖	-7.77416
徙	-7.77662
共	-7.77881
職	-7.78167
備	-7.78323
悉	-7.7863
聖	-7.78732
差	-7.78991
崇	-7.79076
免	-7.79227
别	-7.79423
海	-7.79431
據	-7.79755
御	-7.80071
/)	-7.8017
百	-7.80237
太守	-7.80347
就	-7.80482
四年	-7.80536
疾	-7.80592
好	-7.8067
往	-7.8081
儀	-7.80984
載	-7.81233
后	-7.81291
克	-7.81396
退	-7.81557
便	-7.82021
聲	-7.82337
華	-7.82352
黄	-7.83167
濟	-7.83232
天子	-7.8343
近	-7.83515
觀	-7.83836
順	-7.8412
廟	-7.84174
典	-7.84275
犯	-7.84391
俱	-7.84496
殿	-7.84501
雲	-7.84535
保	-7.84585
忠	-7.84635
監	-7.84801
萬	-7.84853
交	-7.85327
解	-7.85644
注	-7.85866
擊	-7.86049
掌	-7.86119
高	-7.86141
被	-7.86239
變	-7.86243
衣	-7.86287
素	-7.86311
選	-7.86397
比	-7.86681
具	-7.86684
陛下	-7.86947
鄭	-7.8712
皇帝	-7.87183
設	-7.87197
慶	-7.87328
衛	-7.87472
寧	-7.87583
里	-7.87745
玉	-7.88038
隨	-7.8816
紀	-7.88441
絶	-7.89415
恩	-7.89573
五年	-7.8977
恐	-7.8991
遇	-7.89919
收	-7.90039
伏	-7.90739
髙祖	-7.9098
胡	-7.91663
室	-7.91775
永	-7.92647
業	-7.92658
良	-7.92696
夜	-7.9305
徐	-7.93088
昌	-7.93311
誠	-7.9341
魯	-7.93415
説	-7.93464
納	-7.94451
勝	-7.94829
著	-7.94896
嘉	-7.95013
諸侯	-7.95148
吳	-7.95149
曹	-7.95203
列	-7.95381
尊	-7.9558
邑	-7.95586
懐	-7.95672
由	-7.95744
靈	-7.95871
户	-7.96017
尚書	-7.96304
燕	-7.96361
青	-7.96522
依	-7.96559
尋	-7.96813
仲	-7.97356
朝廷	-7.97381
色	-7.97428
特	-7.97429
騎	-7.97764
嚴	-7.98249
約	-7.98432
哉	-7.9936
推	-7.99433
盛	-7.99453
禁	-7.9952
號	-7.99525
撰	-7.99715
減	-7.99721
嗣	-7.99986
寳	-8.00107
送	-8.00292
積	-8.00524
祭	-8.00965
追	-8.01138
顯	-8.01256
會	-8.01594
營	-8.01635
連	-8.0217
蕭	-8.02208
獲	-8.02231
疑	-8.02506
視	-8.02524
咸	-8.02591
朱	-8.02757
語	-8.03168
太	-8.03169
六年	-8.03218
皇后	-8.03541
遺	-8.03625
願	-8.03933
私	-8.03972
升	-8.04141
謝	-8.04371
木	-8.04374
登	-8.0448
伐	-8.04654
容	-8.05248
務	-8.05441
契丹	-8.05575
造	-8.05785
斯	-8.05916
全	-8.05922
太后	-8.06169
火	-8.062
九月	-8.06231
臺	-8.06243
厚	-8.06312
六月	-8.06375
三月	-8.06442
皇	-8.06588
乞	-8.06739
一人	-8.06845
考	-8.06882
移	-8.07195
化	-8.07247
酒	-8.07515
鄉	-8.07718
越	-8.07847
林	-8.07869
薨	-8.07927
要	-8.08063
象	-8.08083
所以	-8.08165
對	-8.08256
動	-8.08352
八月	-8.08619
唯	-8.08624
再	-8.08976
存	-8.09408
性	-8.09494
末	-8.0955
才	-8.09623
福	-8.09922
宿	-8.10192
汝	-8.10961
祀	-8.11117
惡	-8.11182
圍	-8.11818
賞	-8.12026
闕	-8.12458
刑	-8.13019
祠	-8.13164
運	-8.13166
持	-8.13282
輕	-8.13321
畢	-8.13381
但	-8.13522
達	-8.13584
朕	-8.13802
繼	-8.13945
豈	-8.14101
補	-8.1416
附	-8.14325
病	-8.14334
果	-8.14341
詣	-8.14716
羅	-8.14777
厯	-8.14796
申	-8.14815
老	-8.1484
敵	-8.14905
襲	-8.14991
隂	-8.15513
春	-8.15803
夷	-8.15975
五月	-8.16157
懼	-8.16224
情	-8.16268
榮	-8.16374
二人	-8.16466
康	-8.16522
十二月	-8.16618
討	-8.16745
班	-8.17095
器	-8.17224
籍	-8.17226
足	-8.17488
十一月	-8.17938
叔	-8.17973
遣使	-8.1828
戸	-8.18479
散	-8.19153
邊	-8.19621
報	-8.19699
走	-8.19917
怒	-8.2015
資	-8.20229
累	-8.20417
期	-8.20582
參	-8.20648
迎	-8.20739
頭	-8.21234
蓋	-8.21393
宮	-8.22022
滅	-8.22235
教	-8.22331
邪	-8.22517
曲	-8.22773
斬	-8.22916
案	-8.23025
憂	-8.23029
恭	-8.23156
太宗	-8.23309
贈	-8.23318
雜	-8.2366
乘	-8.23705
急	-8.24
試	-8.24051
叛	-8.24215
七年	-8.24358
久	-8.24386
極	-8.24927
薦	-8.25039
頗	-8.25234
市	-8.25271
屯	-8.25317
澤	-8.25806
總	-8.26199
帥	-8.2621
冠	-8.26284
半	-8.26335
客	-8.26401
殷	-8.2648
族	-8.26562
百姓	-8.26759
蜀	-8.26847
統	-8.26956
徒	-8.26979
察	-8.26995
第	-8.27026
牛	-8.27125
吉	-8.27176
二月	-8.27233
而不	-8.27824
博	-8.27994
不敢	-8.28131
律	-8.28336
鹽	-8.28372
簡	-8.28591
類	-8.28631
妻	-8.28715
休	-8.29126
塞	-8.29147
手	-8.29168
、	-8.29223
歲	-8.29274
質	-8.2934
養	-8.29373
符	-8.29468
勞	-8.29867
十二	-8.29911
端	-8.29959
郭	-8.30006
喜	-8.30062
逆	-8.30086
隆	-8.30233
莫	-8.30439
調	-8.30718
虜	-8.30828
格	-8.31143
役	-8.31248
副	-8.31255
詩	-8.31428
赤	-8.3145
傷	-8.31772
乗	-8.31855
顧	-8.32249
阿	-8.32277
世祖	-8.32328
原	-8.32345
美	-8.32368
假	-8.3245
:「	-8.32512
密	-8.32534
孟	-8.32661
郎	-8.32774
大夫	-8.32944
京師	-8.32988
河南	-8.33039
目	-8.3312
記	-8.33274
離	-8.33756
春秋	-8.33812
害	-8.3385
奔	-8.34061
刻	-8.34163
闗	-8.34175
商	-8.3444
甲	-8.34452
川	-8.34508
秋	-8.34737
節度使	-8.35087
結	-8.35134
略	-8.35196
烏	-8.35207
滿	-8.35265
體	-8.35412
真	-8.35462
院	-8.3549
戎	-8.35754
紹	-8.35901
葬	-8.35992
獄	-8.36536
蘇	-8.36597
射	-8.36769
向	-8.36841
聽	-8.37048
十月	-8.3715
彊	-8.37318
說	-8.3733
決	-8.37789
棄	-8.38115
丘	-8.38131
丞相	-8.38167
其後	-8.3874
京	-8.38794
憲	-8.38901
爵	-8.38926
八年	-8.39047
呼	-8.3932
昔	-8.39497
赴	-8.39611
危	-8.39636
季	-8.3998
侍中	-8.40003
斷	-8.40049
愛	-8.40345
兄	-8.40391
大將軍	-8.40455
賦	-8.40631
杜	-8.40714
微	-8.40732
慮	-8.40917
人也	-8.40985
從之	-8.41221
肅	-8.41229
責	-8.41441
彼	-8.42187
之後	-8.42315
負	-8.42401
輔	-8.42582
彦	-8.42706
習	-8.4281
貫	-8.42935
徴	-8.42974
羣	-8.4305
丁	-8.43072
勿	-8.43375
舍	-8.43498
来	-8.43938
惠	-8.43992
司馬	-8.44108
寵	-8.44145
即位	-8.44196
豐	-8.4441
房	-8.44472
雅	-8.44475
薄	-8.4456
精	-8.4457
眀	-8.44636
讓	-8.44813
千	-8.4482
放	-8.45352
指	-8.45577
候	-8.45585
角	-8.46062
温	-8.46413
英	-8.46463
姓	-8.46777
匈奴	-8.46828
大臣	-8.4688
怨	-8.46959
蔡	-8.47238
有司	-8.475
息	-8.47722
草	-8.47868
。」	-8.4807
二十	-8.48395
待	-8.48631
将軍	-8.48671
高祖	-8.48758
虞	-8.48807
委	-8.48821
寺	-8.48858
以下	-8.4909
寇	-8.49172
太尉	-8.4935
如此	-8.49367
振	-8.49433
管	-8.49575
賀	-8.49934
宰相	-8.5018
俗	-8.50221
關	-8.50262
損	-8.50398
雍	-8.50605
崔	-8.50677
竝	-8.5078
侍	-8.50903
是時	-8.51108
適	-8.51173
喪	-8.51347
佐	-8.51776
游	-8.5186
衡	-8.51932
武帝	-8.5194
尤	-8.51948
帶	-8.51996
富	-8.52126
頃	-8.52367
無所	-8.52375
崩	-8.52465
七月	-8.52476
泰	-8.52575
雄	-8.52672
術	-8.52678
鼓	-8.5296
脩	-8.53
。|	-8.5301
暴	-8.53029
孔	-8.53154
征	-8.53199
米	-8.53354
施	-8.53458
督	-8.53479
僧	-8.53521
馳	-8.53844
哀	-8.54159
懷	-8.54208
増	-8.54255
智	-8.54269
條	-8.5439
衞	-8.5466
夀	-8.54795
庫	-8.54799
野	-8.55258
辟	-8.55369
遼	-8.55475
兒	-8.55877
稍	-8.55927
覆	-8.5594
救	-8.55965
冬	-8.56168
釋	-8.56211
限	-8.56569
勸	-8.56795
盧	-8.56984
遵	-8.57086
揚	-8.57256
弱	-8.57298
司徒	-8.57613
專	-8.57617
勲	-8.57624
折	-8.57664
貞	-8.5775
辰	-8.58138
郊	-8.5822
招	-8.58323
序	-8.58626
勒	-8.58652
玄	-8.58763
訓	-8.58789
奪	-8.58789
患	-8.58876
堂	-8.5909
飛	-8.5915
徵	-8.5917
謂之	-8.59283
縱	-8.59342
配	-8.59599
謹	-8.59606
卷	-8.59706
竒	-8.5975
違	-8.5977
𤣥	-8.59799
畫	-8.59908
篇	-8.5994
隋	-8.60031
河東	-8.6006
禍	-8.60228
歌	-8.6028
例	-8.60436
庭	-8.6076
銀	-8.60831
署	-8.60913
感	-8.61036
洛	-8.61233
而已	-8.61707
魚	-8.61819
疏	-8.61885
扵	-8.61949
詳	-8.62007
式	-8.62028
勢	-8.62126
九年	-8.62608
雨	-8.62629
勇	-8.62664
他	-8.62742
虚	-8.62807
偽	-8.62984
均	-8.62986
判	-8.63006
洪	-8.63103
䇿	-8.63197
之事	-8.63211
財	-8.63292
太原	-8.63385
宴	-8.63538
録	-8.63658
工	-8.63686
以上	-8.64401
寛	-8.64473
茂	-8.6467
穆	-8.64706
横	-8.64758
聚	-8.6481
藏	-8.64816
費	-8.64916
四月	-8.64922
刺史	-8.64924
十年	-8.64937
苦	-8.64982
撫	-8.65466
飲	-8.65519
丞	-8.65535
羣臣	-8.65656
逐	-8.65673
聞之	-8.65779
允	-8.65964
兮	-8.66102
識	-8.66136
秩	-8.66142
增	-8.66158
吕	-8.66226
員	-8.66267
爭	-8.66487
庶	-8.66495
不知	-8.66536
須	-8.66551
贊	-8.66625
𢎞	-8.66697
垂	-8.66906
淮南	-8.66971
支	-8.67234
國公	-8.67278
戒	-8.67559
畧	-8.67666
鼎	-8.67728
震	-8.67786
翼	-8.67878
希	-8.67894
諫	-8.67898
侵	-8.67978
歩	-8.68044
虎	-8.68065
樹	-8.68284
長史	-8.68328
傅	-8.68354
尹	-8.68359
池	-8.68416
接	-8.68429
旗	-8.68489
然後	-8.68497
毋	-8.68515
助	-8.68613
河北	-8.68835
孤	-8.68885
泉	-8.69147
明年	-8.69317
衍	-8.69348
逹	-8.69405
湯	-8.69444
界	-8.69589
殊	-8.69777
諭	-8.69791
寶	-8.70228
避	-8.70305
之地	-8.70462
空	-8.70477
敢	-8.70535
强	-8.70584
出為	-8.70596
輒	-8.70867
到	-8.70928
斗	-8.70979
亮	-8.71034
軍節度使	-8.71107
由是	-8.71137
援	-8.7138
防	-8.71558
公主	-8.71603
蕃	-8.71658
儒	-8.71709
種	-8.71891
兄弟	-8.72038
蠻	-8.72116
毁	-8.7217
沈	-8.72208
陸	-8.72225
尉	-8.72297
㫖	-8.72323
屢	-8.72366
衰	-8.7239
羽	-8.72538
竟	-8.72627
革	-8.72647
誤	-8.72696
戍	-8.72713
超	-8.72758
賈	-8.72759
畏	-8.72762
堅	-8.73001
校	-8.73108
亭	-8.73209
階	-8.73341
漸	-8.73446
科	-8.7353
弗	-8.73567
丹	-8.73639
述	-8.74141
烈	-8.74163
窮	-8.74259
者也	-8.74347
貢	-8.74405
谷	-8.74434
盜	-8.74518
可以	-8.74599
赦	-8.74636
謙	-8.75302
量	-8.75368
殺之	-8.7543
至於	-8.75517
輸	-8.75649
形	-8.7565
杖	-8.75724
不足	-8.75929
珠	-8.7596
占	-8.7611
審	-8.76182
單于	-8.76251
牧	-8.76432
竊	-8.76482
淮	-8.76866
粟	-8.76917
源	-8.77002
糧	-8.77048
程	-8.77194
築	-8.77236
范	-8.7736
擢	-8.77461
旱	-8.77521
薛	-8.77545
回	-8.77548
百官	-8.77755
没	-8.77799
友	-8.77829
貶	-8.77914
面	-8.77927
之所	-8.78025
使者	-8.78199
副使	-8.78362
宻	-8.78379
世宗	-8.78464
羊	-8.78526
印	-8.78571
幽	-8.78756
司空	-8.7876
壽	-8.78917
遠	-8.79083
讀	-8.79171
境	-8.79416
韋	-8.79467
對曰	-8.79914
背	-8.80123
慎	-8.80161
其事	-8.80176
規	-8.80186
姦	-8.80242
長安	-8.80474
策	-8.80483
予	-8.80715
額	-8.8077
陷	-8.80834
念	-8.809
己	-8.80961
皇太子	-8.80976
淵	-8.80998
最	-8.81111
諸軍	-8.81326
一日	-8.81359
沙	-8.81458
捕	-8.81506
循	-8.81852
曰吾	-8.81921
孔子	-8.8221
機	-8.82348
都督	-8.82456
三十	-8.82526
付	-8.82576
優	-8.82655
仕	-8.8286
錄	-8.82947
索	-8.83033
鈔	-8.83173
乾	-8.8319
勤	-8.83394
前後	-8.83428
藥	-8.83479
屈	-8.83532
祥	-8.83754
妃	-8.83761
夫人	-8.83955
甲子	-8.84116
廷	-8.8418
𫝊	-8.84193
使人	-8.84258
寜	-8.84267
儉	-8.84421
講	-8.84517
舟	-8.84781
恒	-8.84838
駕	-8.84888
一卷	-8.85228
敏	-8.85257
呉	-8.85277
黨	-8.85453
輿	-8.85641
之間	-8.85642
砦	-8.85702
落	-8.8583
禹	-8.85839
詔曰	-8.85922
豫	-8.85969
投	-8.85999
預	-8.86133
賔	-8.86182
渠	-8.86456
擇	-8.86728
冀	-8.86759
遊	-8.86958
中書	-8.86967
襄	-8.86989
巳	-8.8715
盖	-8.87254
如故	-8.87284
拔	-8.873
盈	-8.87415
徃	-8.87449
者皆	-8.87461
狀	-8.87667
隷	-8.87863
西北	-8.88072
洛陽	-8.88078
䘮	-8.88092
東南	-8.88188
謁	-8.88562
忽	-8.88893
普	-8.88897
弘	-8.89372
彌	-8.89623
金人	-8.89879
倫	-8.90035
敕	-8.90113
歳	-8.90241
勅	-8.90361
馮	-8.90441
維	-8.90639
繫	-8.91036
局	-8.91212
刺	-8.91292
其子	-8.91431
幼	-8.91446
津	-8.91448
干	-8.91618
邉	-8.91622
陰	-8.91646
凶	-8.91795
錫	-8.91809
訖	-8.91817
享	-8.91841
啓	-8.91913
愈	-8.91986
樓	-8.92256
隸	-8.92317
内外	-8.92323
珍	-8.92341
是以	-8.92342
欽	-8.92394
舞	-8.92417
壇	-8.9247
以來	-8.92669
飾	-8.92696
船	-8.92752
國家	-8.92843
禄	-8.93026
示	-8.93117
不許	-8.93199
䕶	-8.93385
西南	-8.93534
子孫	-8.93685
御史	-8.93849
諸王	-8.94088
巴	-8.94138
先是	-8.94191
閣	-8.94199
囚	-8.9424
品	-8.94274
險	-8.94341
仰	-8.94665
従	-8.95091
莊	-8.95319
故事	-8.95404
為之	-8.95599
倉	-8.95651
卜	-8.95657
秀	-8.95976
霸	-8.95989
冊	-8.96059
盗	-8.96064
冬十月	-8.96166
驗	-8.9622
四方	-8.96401
俊	-8.96475
夏四月	-8.96713
十五	-8.96773
幹	-8.9687
奴	-8.96995
有所	-8.9706
導	-8.97153
逸	-8.97198
累遷	-8.97333
陣	-8.97374
文帝	-8.97582
割	-8.97705
舜	-8.97806
太白	-8.98069
匡	-8.98183
懿	-8.98248
顔	-8.98256
耕	-8.98275
毎	-8.98316
基	-8.98398
鎭	-8.98405
一員	-8.98442
攝	-8.98444
寒	-8.98557
鄧	-8.98586
井	-8.98762
融	-8.98845
屋	-8.99061
橋	-8.99114
俄	-8.99199
䧟	-8.99202
徐廣曰	-8.99222
潛	-8.99336
是月	-8.9954
所謂	-8.99552
君子	-8.99718
農	-8.99736
諸將	-8.99752
履	-8.99815
至是	-8.9988
所在	-9.0011
桓	-9.00115
廼	-9.00187
湖	-9.0022
兹	-9.00431
不及	-9.00445
厥	-9.00449
秋七月	-9.00455
况	-9.00677
伊	-9.0071
銅	-9.00796
課	-9.00867
是也	-9.0096
介	-9.01117
江南	-9.01182
館	-9.01226
愚	-9.01297
逼	-9.01408
一百	-9.01644
五百	-9.01657
未嘗	-9.01693
宅	-9.01791
旦	-9.01837
以聞	-9.01876
主簿	-9.02031
趨	-9.02031
曾	-9.02256
荒	-9.02302
饑	-9.02304
災	-9.0234
肆	-9.02364
十一	-9.02565
園	-9.02677
宗廟	-9.02726
婦	-9.02753
裴	-9.02796
早	-9.02819
公子	-9.02871
采	-9.02884
豪	-9.02949
十一年	-9.02981
男	-9.03005
似	-9.03038
有功	-9.03114
席	-9.03179
藩	-9.03205
曰此	-9.03208
驚	-9.0328
敦	-9.03535
詞	-9.03579
厲	-9.03819
浮	-9.03873
郡王	-9.03874
判官	-9.04037
不同	-9.04089
;	-9.04185
蒙	-9.0439
四人	-9.04472
忘	-9.04474
隱	-9.04482
皇太后	-9.04683
鍾	-9.04981
綱	-9.05173
揚州	-9.05392
一巻	-9.054
車駕	-9.05428
十三	-9.05435
旁	-9.05478
堯	-9.05502
産	-9.05542
材	-9.05891
紫	-9.05948
毛	-9.0602
耶	-9.06093
熒惑	-9.06276
山東	-9.06434
改為	-9.06781
沒	-9.0682
宏	-9.06949
檢	-9.0705
州縣	-9.07162
蘭	-9.07183
輙	-9.07233
東北	-9.07256
甫	-9.07454
既而	-9.07672
妄	-9.0771
蒲	-9.07989
諡	-9.08069
罰	-9.08194
陜西	-9.08201
效	-9.08219
仗	-9.08231
天地	-9.08375
董	-9.08385
乆	-9.08457
甲寅	-9.08536
擒	-9.0861
皮	-9.08754
呂	-9.08764
切	-9.08803
其所	-9.08904
辨	-9.09021
東西	-9.09106
側	-9.09174
困	-9.09192
踰	-9.09231
覽	-9.09239
詐	-9.09325
託	-9.09339
致仕	-9.09501
之士	-9.09613
以此	-9.0963
五十	-9.09723
傾	-9.09734
壯	-9.09903
又有	-9.10246
隊	-9.10302
句	-9.10374
漢王	-9.10423
三人	-9.10645
削	-9.10725
刀	-9.10748
葢	-9.10868
慈	-9.10927
何以	-9.11042
貪	-9.11069
岳	-9.1111
壁	-9.11118
純	-9.11163
未有	-9.11279
庚子	-9.11356
倍	-9.11372
忌	-9.11439
節度	-9.11441
出入	-9.11474
舒	-9.11544
擬	-9.1167
死者	-9.11701
浩	-9.11806
鳥	-9.11836
觧	-9.12044
軌	-9.12088
渡	-9.12132
二百	-9.12182
十卷	-9.1228
諱	-9.12602
三日	-9.12633
羌	-9.12646
姬	-9.12675
汴	-9.12868
壬寅	-9.12878
考證	-9.12909
莫不	-9.13066
誕	-9.13099
訪	-9.13191
太常	-9.13248
台	-9.13277
榖	-9.13351
也今	-9.13359
停	-9.13368
桑	-9.13393
自是	-9.13426
郎中	-9.13527
算	-9.13543
不如	-9.13639
諸州	-9.1389
靖	-9.13948
虛	-9.14016
貧	-9.14036
文武	-9.14041
丁丑	-9.14089
鳴	-9.14189
丁亥	-9.14318
葉	-9.14374
範	-9.14393
之禮	-9.14451
十二年	-9.14474
壬申	-9.14495
决	-9.14528
續	-9.14595
鄴	-9.14624
擅	-9.14626
裕	-9.14655
悦	-9.14662
庸	-9.14674
税	-9.14737
十四	-9.14772
甲午	-9.14799
尺	-9.15026
諡曰	-9.15149
十六	-9.15172
茍	-9.15279
恨	-9.15316
宋祁曰	-9.15385
盟	-9.1549
苑	-9.15587
庚午	-9.15641
寄	-9.15657
甲申	-9.15677
抑	-9.15722
賣	-9.1574
徽	-9.15854
辛未	-9.15907
奮	-9.1596
鴻	-9.15997
壬辰	-9.16066
姚	-9.16234
庚寅	-9.16296
幾	-9.16301
寡	-9.16414
不從	-9.16458
乙亥	-9.16584
拒	-9.16682
壬子	-9.16883
夢	-9.16887
裁	-9.16892
寢	-9.16984
劾	-9.17059
不見	-9.17084
甲辰	-9.17105
癸酉	-9.17199
躬	-9.1721
隠	-9.17324
壬午	-9.17368
乙未	-9.17446
凖	-9.17473
戴	-9.17477
逃	-9.17494
彭	-9.1756
庚申	-9.1757
哭	-9.17631
戊申	-9.17677
耶律	-9.17768
辛亥	-9.17781
博士	-9.17843
速	-9.1789
不復	-9.17986
細	-9.17993
内史	-9.18038
環	-9.18266
熙	-9.1832
丁酉	-9.18384
距	-9.18463
吴	-9.18501
▁(	-9.1856
辛丑	-9.18566
袁	-9.18655
戊寅	-9.18747
御史大夫	-9.1878
日月	-9.188
癸未	-9.18874
僕	-9.18982
乙丑	-9.19046
遲	-9.19048
俟	-9.19122
祚	-9.19177
妾	-9.19205
戊午	-9.19355
龜	-9.19371
鑄	-9.19451
䝉	-9.19458
併	-9.19502
竹	-9.19542
尾	-9.19732
師古	-9.19889
復為	-9.19912
單	-9.2007
暉	-9.20313
丙午	-9.20398
瑞	-9.20436
恵	-9.20472
帳	-9.20766
社	-9.20806
辛酉	-9.20897
中國	-9.20946
乙酉	-9.20947
卑	-9.20974
晋	-9.20979
率衆	-9.21103
鹿	-9.21192
彭城	-9.21351
随	-9.21437
趣	-9.21765
之制	-9.21792
辯	-9.21991
丁未	-9.22099
十三年	-9.22196
掠	-9.2222
驛	-9.2229
黑	-9.22386
錯	-9.22392
雷	-9.22403
松	-9.22482
宗室	-9.22546
戊子	-9.22554
専	-9.22639
陶	-9.22688
靡	-9.22759
扶	-9.22903
供	-9.22939
佛	-9.22952
操	-9.23195
晏	-9.23252
掩	-9.23279
公卿	-9.23331
祐	-9.23337
羙	-9.234
匹	-9.2342
買	-9.23643
○(	-9.23725
二十四	-9.23945
叙	-9.24053
士卒	-9.2408
賤	-9.24085
廵	-9.2412
受命	-9.24137
編	-9.24275
戊辰	-9.24286
二卷	-9.24396
齊王	-9.24416
千里	-9.24564
嬰	-9.24627
御史中丞	-9.24712
静	-9.2481
仙	-9.24848
香	-9.24945
占曰	-9.24995
繁	-9.25375
邦	-9.25388
茶	-9.25446
翰	-9.25472
第一	-9.25481
開府儀同三司	-9.25513
牙	-9.25597
渉	-9.25903
遭	-9.2595
給事中	-9.25952
遽	-9.25974
甲戌	-9.25974
辱	-9.2605
聼	-9.2608
奚	-9.26097
幣	-9.26124
都尉	-9.26143
十五年	-9.26228
讀曰	-9.26228
庚辰	-9.26291
焚	-9.26312
徑	-9.26326
嶺	-9.26451
頓	-9.26597
癸丑	-9.26618
之意	-9.26659
知其	-9.2668
癸亥	-9.26687
乙巳	-9.26694
畜	-9.26724
當時	-9.26754
丙寅	-9.26966
恃	-9.27026
儲	-9.27072
夕	-9.27322
開元	-9.27357
覺	-9.27362
柔	-9.27398
功臣	-9.27517
丙申	-9.27689
晨	-9.27747
丁巳	-9.278
峻	-9.27832
南北	-9.27971
是嵗	-9.28047
之心	-9.28158
二員	-9.28191
貨	-9.28231
尚書令	-9.28233
社稷	-9.28246
(○	-9.28255
十四年	-9.28258
入朝	-9.28281
擊之	-9.28286
之時	-9.28287
明堂	-9.28292
之言	-9.28359
校尉	-9.28447
辛巳	-9.28478
宼	-9.2849
江陵	-9.28523
祿	-9.28597
提舉	-9.28601
鐵	-9.2873
學士	-9.28864
行省	-9.28884
再拜	-9.28953
荆	-9.28969
匿	-9.29082
誣	-9.29227
未幾	-9.29227
太平	-9.29278
丙子	-9.29325
丙辰	-9.29417
步	-9.29448
絹	-9.29471
鳳	-9.29495
三百	-9.29506
誰	-9.29678
俾	-9.29722
短	-9.29844
幽州	-9.29861
秦王	-9.29896
而去	-9.29956
不過	-9.29998
花	-9.30093
括	-9.30141
已下	-9.3016
輅	-9.30355
四十	-9.30423
弼	-9.30488
植	-9.30547
罕	-9.30587
戊戌	-9.30623
郡縣	-9.30681
莊宗	-9.30721
潰	-9.30728
歡	-9.30755
三千	-9.3099
其家	-9.31139
諸路	-9.31156
級	-9.31226
之法	-9.31285
至元	-9.31346
戲	-9.31346
壬戌	-9.31385
醫	-9.31478
而後	-9.31548
頻	-9.31582
黜	-9.31657
悲	-9.31737
十七	-9.31789
秉	-9.31842
禽	-9.31874
南陽	-9.31952
惑	-9.31992
弊	-9.32031
戚	-9.32076
頌	-9.3217
帛	-9.32179
上書	-9.32246
姑	-9.32378
之道	-9.32387
答	-9.32406
歎	-9.32447
莽	-9.32495
不為	-9.32537
以其	-9.32572
閏	-9.32592
募	-9.32655
帝曰	-9.32667
余	-9.32737
誘	-9.32821
是為	-9.32902
五千	-9.32943
慕	-9.32963
岸	-9.33027
驅	-9.33067
鬼	-9.33342
十八	-9.3335
㧞	-9.33576
創	-9.33595
堡	-9.3367
筆	-9.33722
甘	-9.33814
而還	-9.33856
子弟	-9.3388
曰我	-9.33981
咎	-9.34125
陞	-9.34139
六十	-9.34271
整	-9.34495
天下之	-9.34523
偏	-9.34559
十六年	-9.34727
癸巳	-9.34961
父子	-9.34962
之人	-9.35018
黎	-9.35103
析	-9.35182
討之	-9.35227
麗	-9.35248
栁	-9.35254
黃	-9.35258
上下	-9.35363
許之	-9.35424
篤	-9.35476
齋	-9.3583
辛	-9.3612
翟	-9.36185
言之	-9.3624
秒	-9.3631
啟	-9.36334
參知政事	-9.36347
今日	-9.36385
彰	-9.36406
血	-9.36489
輦	-9.36549
綏	-9.36551
三卷	-9.36599
壊	-9.36657
又以	-9.36679
明宗	-9.36679
上言	-9.36706
照	-9.36742
係	-9.36799
庚戌	-9.36812
錦	-9.36951
訟	-9.36986
剛	-9.36994
旋	-9.37069
屯田	-9.3714
談	-9.37187
皇子	-9.37299
荆州	-9.37361
竇	-9.3738
卒子	-9.37434
卓	-9.3757
屠	-9.37857
弓	-9.37864
脱	-9.38128
髙麗	-9.38212
已上	-9.38272
斬之	-9.38399
溪	-9.38448
久之	-9.38581
澄	-9.38581
冬至	-9.38786
墓	-9.38846
軍中	-9.38864
熟	-9.38869
殘	-9.3887
夲	-9.38911
同知	-9.38951
進士	-9.38952
根	-9.39045
𨽻	-9.39113
聴	-9.392
二十五	-9.39229
協	-9.3925
驕	-9.39298
丙戌	-9.3931
夾	-9.39381
争	-9.39397
江淮	-9.39436
瓊	-9.395
鳯	-9.39575
廬	-9.39637
垣	-9.39689
星出	-9.39702
價	-9.39719
之功	-9.39721
上曰	-9.39793
祝	-9.39941
黒	-9.40007
吏部尚書	-9.40011
總管	-9.40267
不行	-9.40325
珪	-9.4045
洞	-9.40464
太廟	-9.40731
曽	-9.4074
武王	-9.40807
州郡	-9.40867
勑	-9.40915
又曰	-9.40969
㣲	-9.40985
痛	-9.41162
用之	-9.41274
阻	-9.41275
鈞	-9.41328
宰臣	-9.41403
獵	-9.41433
城中	-9.41461
邵	-9.41461
王子	-9.41478
迹	-9.41506
藝	-9.41584
故曰	-9.4159
乖	-9.41639
倚	-9.4169
一曰	-9.41757
靜	-9.41871
之日	-9.41961
鄙	-9.42004
其地	-9.42093
黙	-9.42262
曉	-9.4231
戮	-9.42353
琳	-9.4236
貸	-9.42362
猛	-9.42376
妖	-9.42533
饗	-9.42665
岐	-9.42771
朗	-9.42799
昇	-9.42817
其年	-9.4298
露	-9.42995
襄陽	-9.43019
閉	-9.43025
三公	-9.43272
之子	-9.43272
坊	-9.43303
其餘	-9.43476
長子	-9.43516
孰	-9.43574
穀	-9.43593
伍	-9.43703
明帝	-9.43761
抱	-9.43802
佩	-9.43896
其言	-9.43915
緩	-9.43969
於此	-9.4411
韶	-9.44204
乃以	-9.4425
之數	-9.4433
本紀	-9.44394
二州	-9.44483
也音	-9.44518
偉	-9.44556
誓	-9.44592
績	-9.44592
遜	-9.4467
嵩	-9.44904
湏	-9.44913
蒼	-9.45023
不用	-9.45041
爽	-9.45211
笑	-9.45234
趙王	-9.45246
徹	-9.45301
正月	-9.45349
蔽	-9.4535
牲	-9.45378
騰	-9.45416
項羽	-9.45434
哲	-9.45524
抵	-9.45535
晦	-9.4558
勉	-9.45679
州節度使	-9.4575
之義	-9.46056
先帝	-9.46144
育	-9.46163
盤	-9.46179
舍人	-9.46366
神武	-9.46525
至于	-9.46623
矢	-9.46645
大王	-9.46666
稽	-9.4669
擾	-9.46789
璧	-9.46796
懸	-9.46841
大将軍	-9.46965
太和	-9.47005
淫	-9.47005
燒	-9.47063
抗	-9.47095
郡國	-9.47129
髙宗	-9.4715
訴	-9.47167
斥	-9.47183
雪	-9.47188
不肯	-9.47237
兆	-9.47283
沛	-9.47381
㨗	-9.475
與之	-9.47519
公孫	-9.47642
亟	-9.47668
逢	-9.47714
徐州	-9.47736
毅	-9.47748
史記	-9.47763
却	-9.47835
為人	-9.47876
譽	-9.47894
郡公	-9.47997
租	-9.48132
緒	-9.48205
大軍	-9.48233
欲以	-9.4828
提	-9.48413
絳	-9.4847
播	-9.48554
毒	-9.48572
沖	-9.48667
亷	-9.48734
應劭曰	-9.48753
稅	-9.48793
中興	-9.48818
麥	-9.48984
書曰	-9.49054
紹興	-9.49164
宰	-9.49272
海陵	-9.49332
四海	-9.49419
沮	-9.49445
敎	-9.49464
誦	-9.49473
偃	-9.49496
寃	-9.49582
午	-9.4968
以前	-9.49683
宛	-9.49686
沛公	-9.4972
數千	-9.49804
十九	-9.49848
塗	-9.49942
破之	-9.49975
己亥	-9.49995
文王	-9.50029
相國	-9.5007
京兆	-9.50283
昏	-9.50334
曰臣	-9.50343
尚書省	-9.50352
人皆	-9.50369
復置	-9.50458
侍郎	-9.5051
饒	-9.50554
壘	-9.50591
西京	-9.50672
先生	-9.50681
也言	-9.50907
賓	-9.50954
閲	-9.50989
廉	-9.51095
纂	-9.51157
構	-9.51163
令史	-9.51184
皆以	-9.512
父母	-9.51213
虧	-9.51232
平陽	-9.51255
侍御史	-9.5126
是日	-9.51292
宇	-9.51522
知之	-9.51673
殆	-9.51697
劒	-9.51727
太傅	-9.51779
冦	-9.51824
臧	-9.51856
竭	-9.51978
況	-9.52048
凝	-9.5212
欺	-9.52267
巡	-9.52371
採	-9.52581
堪	-9.52603
轉運使	-9.52609
跪	-9.52828
十萬	-9.52953
中山	-9.52965
乏	-9.52974
八百	-9.53001
光武	-9.53002
通判	-9.53014
簿	-9.53064
齒	-9.53078
輪	-9.53085
巧	-9.53152
己未	-9.5323
以兵	-9.53281
二千石	-9.53307
獸	-9.53481
成都	-9.5353
圗	-9.53713
泣	-9.53861
効	-9.53888
將兵	-9.53894
爰	-9.53935
檢校	-9.53953
郢	-9.53984
樞	-9.54017
俸	-9.54034
某	-9.5408
遁	-9.54126
巖	-9.54252
喻	-9.54278
閑	-9.54343
黄道	-9.54423
墨	-9.54496
突厥	-9.545
十七年	-9.5452
王者	-9.54533
褒	-9.54574
斤	-9.54607
散騎常侍	-9.54652
十八年	-9.54664
巻	-9.54686
小餘	-9.54743
黄帝	-9.54767
軍士	-9.54772
旅	-9.548
國之	-9.54828
舎	-9.54843
如淳曰	-9.54879
塲	-9.54951
聖人	-9.54984
悟	-9.55012
尸	-9.55041
錠	-9.55189
政事	-9.55192
而無	-9.55193
引兵	-9.55251
祗	-9.5528
勃	-9.55332
忍	-9.55411
濫	-9.55572
婦人	-9.55729
己丑	-9.55802
屏	-9.55804
否	-9.55834
炎	-9.55871
奠	-9.5596
婁	-9.56039
縣令	-9.56098
洽	-9.56161
己巳	-9.56179
監察御史	-9.56204
熊	-9.56232
從事	-9.56314
準	-9.56396
皆有	-9.56471
各一人	-9.56635
其罪	-9.56704
悔	-9.56835
者以	-9.56867
小人	-9.56983
渾	-9.56985
而死	-9.56995
字子	-9.57084
已而	-9.57147
足以	-9.57155
河西	-9.57268
閒	-9.57284
東宫	-9.57318
契	-9.57318
競	-9.57493
議者	-9.57493
翰林學士	-9.57515
緣	-9.57539
入為	-9.57601
官吏	-9.57672
可謂	-9.57675
無不	-9.57694
千户	-9.57842
冕	-9.57856
也師古曰	-9.57894
諸子	-9.57908
孝武	-9.57936
留守	-9.57969
參軍	-9.58015
遣人	-9.58057
柱	-9.58209
有罪	-9.58237
之上	-9.58303
數百	-9.58329
寕	-9.58374
隂陽	-9.58434
浚	-9.58509
悼	-9.58535
巨	-9.58675
地震	-9.58695
中外	-9.58709
隴	-9.58794
乙卯	-9.58811
哩	-9.58844
潤	-9.58846
二十二	-9.58877
惜	-9.58987
鑒	-9.59028
警	-9.59084
不聽	-9.59116
數十	-9.59203
藉	-9.59222
護	-9.59294
周公	-9.59361
己酉	-9.59365
執政	-9.59394
縁	-9.59464
眞	-9.59483
旌	-9.59547
含	-9.59585
用事	-9.59598
辛卯	-9.59613
絲	-9.59624
骨	-9.59653
元豐	-9.5972
叚	-9.59727
晉陽	-9.59741
荀	-9.59813
霍	-9.59851
之際	-9.59866
段	-9.59885
吐蕃	-9.59952
京城	-9.6013
古今	-9.60171
激	-9.60193
肉	-9.60198
五人	-9.60233
二十年	-9.60244
萬户	-9.60272
璋	-9.60401
墜	-9.60402
劫	-9.60492
鄂	-9.60537
番	-9.60619
衝	-9.60712
時人	-9.60875
拘	-9.60875
牢	-9.60907
行臺	-9.60911
必有	-9.6104
仁宗	-9.61048
撃	-9.6117
江西	-9.61226
三十六	-9.61395
之徒	-9.61522
州防禦使	-9.61524
詔以	-9.61636
丁卯	-9.61745
東平	-9.61788
溢	-9.61802
湛	-9.61852
更名	-9.6186
不以	-9.61932
禪	-9.61937
進封	-9.62082
鸞	-9.62102
氐	-9.62267
吏部	-9.62337
不宜	-9.62404
煩	-9.62516
都統	-9.62594
蠲	-9.62733
等處	-9.62763
二萬	-9.6283
恣	-9.62924
麟	-9.63004
中書令	-9.63078
君臣	-9.63084
大都督	-9.63116
翁	-9.63163
弟子	-9.63192
旣	-9.63311
平章政事	-9.63324
將士	-9.63427
貞觀	-9.63677
太師	-9.63686
製	-9.63752
攸	-9.63904
之中	-9.63945
明日	-9.64044
蕩	-9.64092
河中	-9.64142
三司	-9.64163
圭	-9.64229
膺	-9.6429
厭	-9.64305
敷	-9.64387
門外	-9.64398
狂	-9.64416
安國	-9.64545
不當	-9.64563
以備	-9.6464
庾	-9.64667
自殺	-9.64719
譏	-9.64831
楚王	-9.64867
題	-9.64974
伏誅	-9.64981
宣帝	-9.65006
人主	-9.65063
村	-9.65162
樊	-9.65213
矜	-9.65351
淺	-9.65427
七十	-9.65442
綬	-9.65642
其衆	-9.6567
數萬	-9.65672
内侍	-9.65703
肇	-9.65769
十人	-9.65774
發兵	-9.65842
雞	-9.65875
其父	-9.65898
癸卯	-9.66109
大將	-9.66192
塔	-9.66196
渭	-9.66232
揖	-9.66352
辦	-9.66457
河間	-9.66504
巢	-9.66514
陜	-9.66521
不至	-9.66622
中書舍人	-9.66625
祖宗	-9.66654
沉	-9.66726
文學	-9.66767
區	-9.66808
逮	-9.66869
第二	-9.66873
不勝	-9.66886
怪	-9.66987
展	-9.6709
排	-9.67106
人之	-9.67191
二十七	-9.67275
行之	-9.67295
溫	-9.67296
東都	-9.67302
斬首	-9.67444
廷尉	-9.67447
五星	-9.67492
太常卿	-9.67563
用兵	-9.67689
借	-9.67696
樞密院	-9.67698
曰卿	-9.67703
繡	-9.67703
漏	-9.67711
芳	-9.67802
旬	-9.67862
兵馬	-9.67865
有差	-9.67902
郡守	-9.68053
慰	-9.68226
貌	-9.68246
開府	-9.68324
之罪	-9.68339
子也	-9.68445
不出	-9.68462
二十一	-9.68479
疎	-9.68514
敗之	-9.68556
亦有	-9.68656
謬	-9.68709
膳	-9.68743
賑	-9.68792
所部	-9.68883
檄	-9.69001
肅宗	-9.69015
所殺	-9.69043
青州	-9.69095
傳曰	-9.69107
時年	-9.69158
渤海	-9.69357
禦	-9.69378
遼東	-9.69413
欣	-9.69582
恤	-9.69664
滎陽	-9.69738
名也	-9.69764
濟南	-9.69861
亦不	-9.69927
大敗	-9.70055
誅之	-9.70067
恕	-9.70079
之名	-9.70098
追封	-9.70229
完	-9.70297
賴	-9.70317
歛	-9.70375
淳	-9.70379
曠	-9.70417
嫁	-9.70418
三分	-9.70448
布哈	-9.70477
各一	-9.70494
四川	-9.70535
㑹稽	-9.70551
溝	-9.70624
詢	-9.70679
稷	-9.7074
舊制	-9.70748
斛	-9.70772
諌	-9.70848
自今	-9.70849
葛	-9.70862
御史臺	-9.70873
萬餘	-9.70945
訛	-9.70965
持節	-9.70979
雖有	-9.71082
貴人	-9.71134
八十	-9.7116
寨	-9.71162
料	-9.71181
哈	-9.71188
巫	-9.7122
一年	-9.7125
中郎將	-9.71289
潁	-9.7148
國除	-9.7149
賜爵	-9.7149
六人	-9.71569
東海	-9.71595
練	-9.71611
臯	-9.71628
蝗	-9.71672
二縣	-9.71719
䖍	-9.71725
雙	-9.71738
瞻	-9.71762
肥	-9.71793
大司馬	-9.71954
壞	-9.72052
奇	-9.72056
軍節度	-9.72076
彪	-9.72169
二千	-9.7218
元和	-9.72214
釐	-9.72286
五日	-9.72355
滋	-9.72615
突	-9.72714
濬	-9.72715
場	-9.72737
妻子	-9.72738
娶	-9.72763
元嘉	-9.72811
僚	-9.72837
來朝	-9.72866
剋	-9.72878
不相	-9.729
漢書	-9.72985
大怒	-9.7303
刃	-9.73094
不受	-9.73141
荘	-9.73157
奏請	-9.73235
測	-9.7328
禮樂	-9.73281
臣等	-9.73287
當作	-9.73381
河陽	-9.73425
二十八	-9.73426
隔	-9.73451
贍	-9.73519
滯	-9.73594
南京	-9.73696
寅	-9.7372
元帥	-9.73806
憤	-9.7382
醉	-9.73837
強	-9.73915
改封	-9.73921
跡	-9.74012
三巻	-9.74078
戰于	-9.74102
尼	-9.74211
大赦	-9.74338
閭	-9.74345
朔方	-9.74512
恥	-9.74609
十餘	-9.747
然則	-9.74743
狄	-9.74745
殺人	-9.74807
又言	-9.74847
劉氏	-9.74887
初為	-9.74964
聘	-9.75033
神宗	-9.75034
板	-9.7517
得其	-9.75201
二十三	-9.75262
綿	-9.75351
依舊	-9.75355
率兵	-9.75535
昧	-9.75671
項王	-9.75836
為一	-9.75857
汾	-9.75862
耀	-9.7589
十巻	-9.75892
丈	-9.75904
㓜	-9.75914
傳云	-9.75933
紅	-9.7596
無以	-9.75997
缺	-9.76054
童	-9.76062
?」	-9.76085
中書侍郎	-9.7609
其國	-9.76145
状	-9.76148
安石	-9.76263
乃止	-9.76282
福建	-9.7629
十九年	-9.76417
數日	-9.76541
上都	-9.76637
掾	-9.76666
大水	-9.76671
之屬	-9.7668
罔	-9.76723
漕	-9.7673
周禮	-9.76804
諷	-9.76823
二子	-9.76856
曰今	-9.76857
押	-9.76917
挺	-9.76918
不與	-9.7698
萬物	-9.77102
不欲	-9.77174
虢	-9.77205
矯	-9.77302
大定	-9.77353
平原	-9.77419
王師	-9.77502
豈可	-9.77545
潘	-9.77623
代之	-9.77652
塵	-9.77663
劍	-9.77788
同中書門下平章事	-9.77824
舅	-9.77832
貳	-9.77843
托	-9.77919
官至	-9.77969
輩	-9.7797
不然	-9.77987
服䖍曰	-9.78054
軫	-9.78135
其母	-9.7819
之衆	-9.78198
胥	-9.78219
扇	-9.78392
蛇	-9.78441
陳留	-9.78442
愍	-9.78459
數年	-9.78497
完顔	-9.78528
潔	-9.78648
弩	-9.78695
鐘	-9.78774
證	-9.78822
蝕	-9.78913
憚	-9.791
不應	-9.79114
緯	-9.79116
三萬	-9.79129
國王	-9.79196
亢	-9.79203
之外	-9.79225
作亂	-9.7926
未至	-9.79369
丕	-9.79498
賛	-9.79524
包	-9.79546
人心	-9.79829
収	-9.79842
後世	-9.79851
言其	-9.79859
行營	-9.79884
其人	-9.79888
中都	-9.80009
千人	-9.80042
湘	-9.80123
名曰	-9.80141
大事	-9.80208
鋭	-9.80215
帝崩	-9.80223
牒	-9.80253
頴	-9.80274
嗟	-9.80337
豹	-9.80466
贓	-9.80467
歎曰	-9.80483
詔書	-9.80532
擁	-9.80553
佞	-9.80674
萬人	-9.80785
也故	-9.80791
不忍	-9.80825
麻	-9.8086
四時	-9.80866
妙	-9.80875
贖	-9.80903
都監	-9.80917
一作	-9.80987
伺	-9.80989
有餘	-9.80994
上表	-9.81017
究	-9.81162
糴	-9.8118
吏民	-9.81181
孟康曰	-9.81232
㡬	-9.81235
行事	-9.81281
奈何	-9.81297
二日	-9.81305
姜	-9.8133
大明	-9.81505
貽	-9.81539
廣陵	-9.81541
數月	-9.81545
駐	-9.81624
捨	-9.81647
紂	-9.81801
燕王	-9.81834
冀州	-9.81842
論語	-9.81871
慕容	-9.81872
狼	-9.81874
左丞	-9.81932
一時	-9.8199
枝	-9.81999
大小	-9.82025
浦	-9.82049
知制誥	-9.82199
域	-9.8222
鮮	-9.82268
成王	-9.8227
之臣	-9.82365
東京	-9.8237
上柱國	-9.8242
邸	-9.82427
不合	-9.82562
諸道	-9.82591
五帝	-9.82631
員外郎	-9.82687
時有	-9.82714
故也	-9.82722
繇	-9.82817
號曰	-9.83
巾	-9.83003
元帝	-9.83047
冢	-9.83048
拱	-9.83123
讒	-9.83207
東方	-9.83213
頒	-9.83222
銓	-9.83249
鐸	-9.83339
脅	-9.83378
輕重	-9.83411
熙寧	-9.83431
幕	-9.83513
竄	-9.83587
等州	-9.8359
醜	-9.83619
進退	-9.83737
荷	-9.83737
百萬	-9.83778
建康	-9.83879
邢	-9.83885
海内	-9.84018
濁	-9.84038
暢	-9.84061
夏人	-9.841
敝	-9.84134
泥	-9.84171
邱	-9.84197
忿	-9.8422
奏事	-9.84327
則天	-9.84473
特穆爾	-9.84494
舉兵	-9.84501
筠	-9.84525
詠	-9.84539
晚	-9.84552
金銀	-9.84628
晝	-9.84673
挾	-9.84685
死之	-9.84811
儼	-9.84865
所得	-9.84894
家人	-9.84913
邀	-9.84968
卒贈	-9.84973
齎	-9.8498
粲	-9.85063
譙	-9.85116
柳	-9.85116
疆	-9.85142
《	-9.85179
》	-9.85179
胄	-9.85307
恪	-9.85443
諾	-9.85571
潁川	-9.85595
傍	-9.85609
以功	-9.85636
起兵	-9.8566
古之	-9.85668
二十六	-9.85672
其弟	-9.85693
真定	-9.85775
本名	-9.85841
像	-9.85869
仇	-9.85929
織	-9.85941
豆	-9.86056
畝	-9.86083
奏曰	-9.86113
祈	-9.86307
慢	-9.86323
定州	-9.86393
未能	-9.86441
僕射	-9.8648
僅	-9.86535
瓚	-9.86548
陟	-9.86673
欽定四庫全書	-9.86743
叡	-9.8676
特進	-9.86821
赫	-9.86835
笞	-9.86885
碑	-9.86915
繩	-9.86925
并州	-9.86989
寫	-9.86996
南郊	-9.87238
二十九	-9.87266
莫敢	-9.87333
有大	-9.87567
彈	-9.8761
脫	-9.87655
弔	-9.87694
第三	-9.87717
太保	-9.8777
者為	-9.87796
景帝	-9.87805
踐	-9.87835
嵗星	-9.87857
柴	-9.87968
誡	-9.88011
益州	-9.88014
未及	-9.88095
蟲	-9.8817
大破之	-9.88184
貞元	-9.88187
謀反	-9.88196
上黨	-9.882
弑	-9.88232
奢	-9.88254
咸陽	-9.88333
上疏	-9.8837
波	-9.88374
千餘人	-9.88383
禮部尚書	-9.88386
汗	-9.88411
長沙	-9.88422
嫌	-9.88447
西域	-9.88455
鑿	-9.88474
邁	-9.8855
圓	-9.88593
弦	-9.88617
中尉	-9.88635
以示	-9.88764
閤	-9.88766
琅邪	-9.88784
戈	-9.88932
觀察使	-9.88962
畔	-9.89007
卦	-9.89019
傑	-9.8903
乂	-9.89031
鬻	-9.89048
侯景	-9.89095
軍事	-9.89366
艱	-9.89376
誨	-9.89376
灌	-9.89395
領軍	-9.89534
取之	-9.89553
乙	-9.89564
冒	-9.89573
僉	-9.89597
之計	-9.8974
七百	-9.89796
鄒	-9.89797
人情	-9.89798
高麗	-9.89799
文章	-9.89809
檀	-9.89876
旨	-9.89883
所居	-9.89926
虐	-9.89933
巴延	-9.89933
枉	-9.89936
之民	-9.89972
摩	-9.89981
之内	-9.90068
攻之	-9.90089
襃	-9.9015
釋之	-9.90164
賔客	-9.90295
梁王	-9.90314
拉	-9.90328
茅	-9.90364
城縣	-9.9037
清河	-9.90371
誼	-9.90423
河内	-9.90507
桂	-9.90539
釁	-9.90553
曜	-9.90556
敖	-9.90572
夜半	-9.90575
不可以	-9.90675
僭	-9.90698
憲宗	-9.90724
亨	-9.90851
軍民	-9.90926
陂	-9.9093
大同	-9.90954
諸郡	-9.90958
由此	-9.90964
師古曰言	-9.91012
麾	-9.9105
謁者	-9.91057
自稱	-9.9109
取其	-9.91114
芝	-9.9124
吏部侍郎	-9.91254
足下	-9.91319
自古	-9.91425
雲中	-9.91461
昶	-9.91485
償	-9.91521
嶽	-9.91632
指揮使	-9.91734
穿	-9.91744
㦸	-9.91833
各有	-9.91843
姓名	-9.91864
敞	-9.91911
張晏曰	-9.92184
廣州	-9.92193
册	-9.92268
曰汝	-9.92278
曰昔	-9.92316
睦	-9.92502
裂	-9.92561
賂	-9.92655
其意	-9.92713
雍州	-9.92836
欵	-9.92857
項	-9.92863
百里	-9.92878
隐	-9.9294
味	-9.92982
五卷	-9.93164
七日	-9.93173
桃	-9.93182
西方	-9.93182
婚	-9.93646
不滿	-9.93678
邈	-9.93712
柵	-9.93727
銜	-9.93804
富貴	-9.93843
酌	-9.93876
翊	-9.93886
郡太守	-9.93896
太僕	-9.93915
什	-9.93968
..「	-9.94001
太學	-9.94012
使持節	-9.9404
諸司	-9.9406
第五	-9.94064
縣屬	-9.94064
裔	-9.94231
兵部尚書	-9.94237
湖南	-9.94246
戾	-9.94251
涉	-9.94263
之下	-9.94288
殺其	-9.94332
佗	-9.94418
冲	-9.94451
其中	-9.94506
括地志云	-9.94507
安定	-9.94612
一度	-9.94677
豈不	-9.947
俘	-9.94745
言者	-9.9477
斌	-9.94851
慙	-9.94859
苟	-9.94876
如是	-9.94885
三十五	-9.94893
者不	-9.94968
世子	-9.95003
棺	-9.95107
漢中	-9.95127
洗	-9.95153
其先	-9.9521
聰	-9.95233
見之	-9.95246
飬	-9.95254
建武	-9.95266
隴西	-9.9537
召為	-9.95474
斂	-9.95492
以獻	-9.95501
度支	-9.95515
昆	-9.95583
何如	-9.95601
藻	-9.95621
鬬	-9.95659
岱	-9.95663
大都	-9.95752
淑	-9.95761
嘉之	-9.95785
永安	-9.95794
鄰	-9.95806
天寳	-9.95808
諸軍事	-9.95818
江東	-9.95904
檜	-9.95973
恢	-9.96
閏月	-9.96027
施行	-9.96032
酷	-9.96104
謨	-9.96148
朔日有食之	-9.96158
鼔	-9.96167
又云	-9.96185
頃之	-9.96212
邕	-9.96275
建安	-9.9628
劭	-9.96342
五萬	-9.96372
髙帝	-9.96391
考證欽定四庫全書	-9.96401
暮	-9.96421
即日	-9.96442
栗	-9.9646
玄宗	-9.96488
指揮	-9.96571
冶	-9.96661
徇	-9.96731
奉詔	-9.96775
後漢	-9.96782
牽	-9.96806
得失	-9.9683
宥	-9.96851
近臣	-9.96858
睿	-9.96881
袍	-9.96947
鋒	-9.96949
徧	-9.96974
璽	-9.97002
瓌	-9.97014
是年	-9.9703
凌	-9.97092
改元	-9.97181
千餘	-9.97225
閔	-9.97277
多所	-9.97287
太史	-9.97339
蠶	-9.97357
彧	-9.97381
愧	-9.97384
隙	-9.9741
未㡬	-9.97423
漆	-9.97435
政和	-9.97441
知名	-9.97459
好學	-9.97568
常侍	-9.97581
飢	-9.97598
左傳	-9.97612
晟	-9.97632
畿	-9.9773
猷	-9.9774
訥	-9.97797
一萬	-9.97853
𦵏	-9.97863
甚衆	-9.97866
制度	-9.97894
三十二	-9.97902
少府	-9.97979
中書省	-9.98004
遐	-9.98005
戶	-9.98093
涼	-9.98119
女直	-9.98194
元祐	-9.98233
桓公	-9.98268
皷	-9.98275
王氏	-9.98284
秦州	-9.98348
晝夜	-9.98376
不在	-9.98452
惡之	-9.98519
悅	-9.98573
中有	-9.98625
中丞	-9.98671
二十一年	-9.98672
遏	-9.98672
孚	-9.9869
箭	-9.98718
咸平	-9.988
利害	-9.98813
上帝	-9.98837
喇	-9.98901
四十五	-9.98901
駿	-9.98931
道路	-9.98976
卧	-9.99004
及其	-9.99062
咨	-9.99077
較	-9.99087
誥	-9.99129
為亂	-9.99162
也夫	-9.9929
属	-9.99365
大風	-9.99381
教授	-9.99443
陛	-9.99448
沔	-9.99457
入見	-9.99459
忠義	-9.99464
招討使	-9.99488
軰	-9.99495
柱國	-9.995
其日	-9.9973
夔	-9.9975
噶	-9.99784
罷之	-9.99911
食邑	-9.99955
老子	-9.99977
門下	-9.99999
綜	-10.0001
頼	-10.0005
諸将	-10.0007
列侯	-10.0009
其名	-10.0018
在位	-10.0021
風俗	-10.0026
郊祀	-10.0028
號為	-10.0035
祕	-10.0036
禧	-10.0039
兄子	-10.0041
雉	-10.0045
叅	-10.0045
宇文	-10.0046
宦者	-10.0052
郤	-10.0053
朴	-10.0055
禮部	-10.0058
去之	-10.0059
二十三年	-10.0062
地理志	-10.0066
琛	-10.0067
見其	-10.0067
逵	-10.0067
分為	-10.0074
燭	-10.0075
日行	-10.0076
一千	-10.0082
奕	-10.0084
琰	-10.0086
乃遣	-10.0089
行至	-10.0089
安撫	-10.0089
靣	-10.009
山川	-10.0091
淹	-10.0093
匠	-10.0097
束	-10.0098
消	-10.0098
住	-10.0098
犬	-10.0101
之家	-10.0102
輝	-10.0108
譚	-10.0111
糾	-10.0112
座	-10.0113
不言	-10.012
子曰	-10.0123
臣召南	-10.0126
車騎將軍	-10.0128
男女	-10.0131
者亦	-10.0133
守之	-10.0142
怠	-10.0143
之初	-10.0143
官屬	-10.0153
遂以	-10.0154
以待	-10.0156
溺	-10.0159
詭	-10.0159
閻	-10.0162
八人	-10.0167
顥	-10.0181
牀	-10.0183
請以	-10.0197
琴	-10.0197
腹	-10.02
後主	-10.0201
渡河	-10.0209
常山	-10.0211
北面	-10.022
迫	-10.0242
劇	-10.0249
為丞相	-10.0252
綂	-10.0262
讐	-10.0264
往往	-10.0265
疲	-10.0266
薩	-10.0268
而下	-10.028
㓂	-10.0281
江州	-10.0293
文字	-10.0294
乾道	-10.0294
至此	-10.0297
吳王	-10.0299
郁	-10.03
自此	-10.0308
太白晝見	-10.0308
衮	-10.0316
長吏	-10.0326
曰君	-10.0332
隅	-10.034
一名	-10.0345
學者	-10.035
復以	-10.035
祁	-10.0353
九十	-10.0354
矩	-10.0356
?	-10.0357
韓信	-10.0361
宿衛	-10.0361
吐	-10.0363
歟	-10.0366
民間	-10.0372
以疾	-10.038
車騎	-10.0383
墮	-10.0384
出於	-10.0386
公事	-10.039
駭	-10.0397
潞州	-10.0397
王莽	-10.04
永平	-10.0404
太陰	-10.0417
起居	-10.0419
為名	-10.0422
神主	-10.0424
熈	-10.0429
首領	-10.0434
俄而	-10.0441
羽林	-10.0449
城下	-10.045
孔子曰	-10.045
之故	-10.0451
又遣	-10.0457
嫡	-10.0457
所言	-10.0472
兵部侍郎	-10.0476
皓	-10.0479
鞭	-10.048
餉	-10.0481
萌	-10.0482
儁	-10.0487
譯	-10.0488
監軍	-10.0488
墳	-10.0491
淮西	-10.0499
士大夫	-10.0503
之利	-10.0503
莫能	-10.0504
户部	-10.0504
相與	-10.0506
瑪	-10.0509
通鑑	-10.0513
霜	-10.0515
歆	-10.0517
甄	-10.0517
弛	-10.052
三州	-10.0522
都指揮使	-10.053
百户	-10.0539
隄	-10.0544
也又	-10.0547
姊	-10.0548
之類	-10.0549
匪	-10.0554
詰	-10.0562
不通	-10.0568
帝王	-10.0571
荆州刺史	-10.0577
陽縣	-10.0581
賁	-10.0584
如太白	-10.0585
蠕蠕	-10.0588
左僕射	-10.0589
大理	-10.059
加時	-10.059
荅	-10.0592
狗	-10.0596
宣和	-10.0597
豫州刺史	-10.06
忠臣	-10.0601
謗	-10.061
翔	-10.0611
一切	-10.0613
進號	-10.0614
數千人	-10.0625
棘	-10.0627
綰	-10.0634
豫章	-10.0635
光禄大夫	-10.064
堰	-10.0641
彥	-10.0645
諒	-10.0647
以爲	-10.0651
主人	-10.0655
先王	-10.0667
失其	-10.067
己卯	-10.0672
數百人	-10.0676
追贈	-10.0679
三十三	-10.0684
太隂犯	-10.0688
總管府	-10.069
魏王	-10.0695
何為	-10.0696
纔	-10.071
萬餘人	-10.0713
言曰	-10.0714
昴	-10.0721
五行	-10.0725
兩浙	-10.0726
大破	-10.0727
右丞	-10.0738
紙	-10.0739
等皆	-10.075
堤	-10.0753
雲南	-10.0757
損益	-10.0761
雍州刺史	-10.0775
邯鄲	-10.0775
晉王	-10.0779
其下	-10.0779
二十卷	-10.0787
百餘	-10.0794
謚	-10.0799
十餘萬	-10.0802
酬	-10.0813
萬五千	-10.0818
不利	-10.0824
為大	-10.0826
力戰	-10.0833
柄	-10.0835
未可	-10.0837
阜	-10.084
它	-10.0845
相繼	-10.0852
坦	-10.0852
臣聞	-10.0863
集十卷	-10.0863
二年正月	-10.0869
臂	-10.0874
諧	-10.0875
莽曰	-10.0875
封禪	-10.0877
努	-10.088
杲	-10.0885
耗	-10.0887
祭祀	-10.0889
祭酒	-10.0895
千戸	-10.0898
衣冠	-10.09
勵	-10.09
崖	-10.0902
萬八千	-10.0902
訊	-10.0902
互	-10.0906
慧	-10.0908
帝以	-10.091
捷	-10.091
唱	-10.0921
視之	-10.0923
韻	-10.0928
往來	-10.0934
召見	-10.0938
大名	-10.0943
禮部侍郎	-10.0946
蓄	-10.0946
換	-10.0946
窺	-10.0947
沂	-10.095
為太子	-10.0972
溥	-10.0981
太康	-10.0982
流涕	-10.0983
遥	-10.0992
二巻	-10.0994
武皇	-10.1007
眷	-10.1017
涇	-10.1017
街	-10.1019
披	-10.1022
乃與	-10.1022
布衣	-10.1026
譜	-10.1037
一旦	-10.1046
古者	-10.1049
演	-10.1052
兖州	-10.1055
填	-10.1064
摧	-10.1068
刑部尚書	-10.1078
懲	-10.1081
隣	-10.1082
皆為	-10.1096
億	-10.1097
北海	-10.1098
髪	-10.1099
㸃	-10.11
者多	-10.1103
而出	-10.1105
帝即位	-10.1105
鳯翔	-10.1107
六百	-10.1107
之命	-10.1114
鳳翔	-10.1122
乙夘	-10.1129
無子	-10.113
是歲	-10.1131
四百	-10.1131
萬石	-10.1138
安得	-10.1145
翰林	-10.1151
三品	-10.1153
甞	-10.1154
之官	-10.1154
汝南	-10.1156
來降	-10.1159
以自	-10.1164
昉	-10.1184
妹	-10.1187
尚書左僕射	-10.1188
饌	-10.1189
衣服	-10.1191
逺近	-10.1191
內	-10.1192
中軍	-10.1194
蹈	-10.12
寓	-10.1201
州團練使	-10.1205
倒	-10.1206
魏書卷	-10.1208
者必	-10.1212
徐州刺史	-10.1231
及諸	-10.1243
丙	-10.1244
不足以	-10.1248
古人	-10.1249
三十七	-10.1252
牟	-10.1254
關中	-10.1262
不絶	-10.1263
活	-10.1264
君之	-10.1266
壤	-10.127
何也	-10.1276
𦙍	-10.1278
亦如之	-10.1288
一百二十	-10.1291
少卿	-10.1294
豫州	-10.1294
開封	-10.1295
呈	-10.1295
混	-10.1299
宫中	-10.1303
列傳	-10.1308
問之	-10.1309
其功	-10.1311
耿	-10.1312
燾	-10.1316
范陽	-10.1319
真宗	-10.1321
出身	-10.1323
親王	-10.1327
不便	-10.1334
曰朕	-10.1335
㢘	-10.1339
公私	-10.1345
滄州	-10.135
四十八	-10.1352
潭	-10.1357
徳宗	-10.1358
穴	-10.1359
促	-10.1362
兵起	-10.1373
拯	-10.1375
鐡	-10.1378
孝宗	-10.1381
蠻夷	-10.1384
從容	-10.1384
安南	-10.14
户部侍郎	-10.1401
憑	-10.1403
洲	-10.1405
中原	-10.1407
曰臣聞	-10.1413
黄門侍郎	-10.1418
瓦	-10.1419
四分	-10.1429
廹	-10.1439
辛夘	-10.1441
百餘人	-10.1443
讎	-10.1443
泰山	-10.1444
山陽	-10.1451
又詔	-10.1453
昭王	-10.1454
昨	-10.1456
得罪	-10.1457
所至	-10.1458
之勢	-10.1467
苗	-10.1475
待之	-10.1479
既至	-10.1481
下詔	-10.1486
饋	-10.1487
之文	-10.1496
禱	-10.1497
網	-10.15
禀	-10.1503
詣闕	-10.1505
萬里	-10.1506
白馬	-10.151
揆	-10.1514
卒於	-10.1516
丁夘	-10.1521
又為	-10.1529
山陵	-10.153
替	-10.1531
寡人	-10.1531
至京師	-10.1535
得之	-10.1536
謂曰	-10.1536
後為	-10.154
掃	-10.1541
祔	-10.1545
揚州刺史	-10.1546
工部尚書	-10.155
今年	-10.1554
顗	-10.1562
長樂	-10.1563
至今	-10.1569
三十一	-10.1574
沃	-10.1574
之國	-10.1578
北方	-10.1579
二十二年	-10.1585
禾	-10.1586
府事	-10.1591
五品	-10.1592
部曲	-10.1597
官軍	-10.1599
飲酒	-10.1601
或曰	-10.1601
托克托	-10.1602
三十卷	-10.1604
四卷	-10.1604
孝文	-10.1605
賜之	-10.1607
襲爵	-10.1608
勁	-10.1608
諸生	-10.1612
聞其	-10.1616
飲食	-10.162
救之	-10.1625
贊曰	-10.1626
坤	-10.1629
卽	-10.1638
軒	-10.1639
或有	-10.1643
囊	-10.1663
周易	-10.1665
世家	-10.1666
璘	-10.1667
腹心	-10.1675
文公	-10.1677
二曰	-10.1681
禮記	-10.1684
碩	-10.1688
都元帥	-10.1695
以来	-10.1698
大赦天下	-10.1699
尚書左丞	-10.1708
值	-10.1711
固辭	-10.1713
弓矢	-10.1713
安撫使	-10.1717
不報	-10.1719
卿等	-10.1719
瑜	-10.1721
縮	-10.1731
覩	-10.1744
平章	-10.1744
箕	-10.1745
寔	-10.1755
為政	-10.1756
之師	-10.1763
艾	-10.177
焦	-10.1776
右僕射	-10.1779
太皇太后	-10.178
東至	-10.1794
不盡	-10.1795
監司	-10.1796
夏侯	-10.1802
天命	-10.1803
返	-10.1809
萬七千	-10.1811
徽宗	-10.182
婢	-10.1826
狐	-10.1829
殿中侍御史	-10.1836
逰	-10.1838
宗正	-10.1839
汲	-10.1841
泄	-10.1849
奎	-10.1849
西河	-10.1855
銘	-10.1859
大業	-10.1873
月食	-10.1876
元年正月	-10.1878
琦	-10.1879
當世	-10.188
潮	-10.1883
滑	-10.1884
殿中	-10.1885
該	-10.1886
琮	-10.1886
列傳第	-10.1895
天文	-10.1898
當有	-10.1898
廻	-10.1905
途	-10.1905
握	-10.1905
愆	-10.1906
那	-10.1907
泰始	-10.1916
淮南王	-10.1924
緡	-10.1929
閱	-10.1934
三十四	-10.1939
高宗	-10.1941
之亂	-10.1946
泗	-10.1948
蔣	-10.1948
而歸	-10.195
丹陽	-10.1953
偶	-10.1954
來屬	-10.1958
麾下	-10.196
寸	-10.1961
昭宗	-10.1962
犀	-10.1965
豎	-10.1975
汎	-10.198
奬	-10.1984
亦以	-10.1984
而立	-10.1986
侈	-10.1987
舉進士	-10.1997
闗中	-10.2002
龎	-10.2003
噐	-10.2003
五色	-10.2007
其黨	-10.2011
乗之	-10.2012
終不	-10.2013
准	-10.2015
三十年	-10.2017
金吾	-10.2018
願陛下	-10.2023
讀書	-10.2026
赤道	-10.203
洎	-10.2035
將帥	-10.2035
乃令	-10.2038
齊人	-10.2047
會稽	-10.2048
耆	-10.2055
宋人	-10.2062
縣置	-10.2065
减	-10.2067
眉	-10.2067
有司奏	-10.207
十日	-10.2071
皇甫	-10.2079
行幸	-10.2084
邠	-10.2084
淳熙	-10.2086
江左	-10.2086
閤門	-10.2087
浸	-10.209
而卒	-10.2091
前代	-10.21
羞	-10.2109
潜	-10.2118
罵	-10.2118
之役	-10.2122
始皇	-10.2125
臣僚	-10.2128
故云	-10.2138
䑓	-10.215
西川	-10.2151
械	-10.2154
漂	-10.2156
七十二	-10.216
徼	-10.2162
不下	-10.2171
開皇	-10.2171
二世	-10.2179
四十二	-10.2187
甚厚	-10.2193
汙	-10.2194
三縣	-10.22
廩	-10.2203
禮畢	-10.2205
女子	-10.2205
刋	-10.2206
天之	-10.2208
遣其	-10.2209
新城	-10.221
驃騎	-10.2212
起復	-10.2213
衛將軍	-10.2213
襄王	-10.2214
則有	-10.2216
入城	-10.2219
馭	-10.222
廓	-10.2223
觸	-10.2227
亳	-10.2227
太白犯	-10.2241
王府	-10.2241
之志	-10.2242
貲	-10.2243
塘	-10.2251
鄆	-10.2252
兖	-10.2252
部落	-10.2254
羡	-10.2255
異之	-10.227
「	-10.2271
暨	-10.2276
闢	-10.2278
貝	-10.2281
征伐	-10.2287
而行	-10.229
無功	-10.2291
安西	-10.2291
鮑	-10.2292
成帝	-10.2292
為相	-10.2296
治之	-10.23
水旱	-10.2303
無復	-10.2306
戰於	-10.2308
乾元	-10.2308
縣侯	-10.2313
蕭衍	-10.2314
左丞相	-10.2319
栢	-10.2326
二十人	-10.2327
之樂	-10.2328
繕	-10.2331
在外	-10.2334
萬九千	-10.2335
第四	-10.2341
裝	-10.2341
太公	-10.2348
衛尉	-10.2355
桀	-10.236
其間	-10.2366
以次	-10.2368
敘	-10.2371
綽	-10.2376
禮官	-10.2379
瀆	-10.2383
酋	-10.2384
驍	-10.2387
諸部	-10.2396
版	-10.2397
為國	-10.2401
嶺南	-10.2404
綾	-10.2408
健	-10.2409
之情	-10.2409
忤	-10.241
紛	-10.2412
七千	-10.2413
綴	-10.2415
||	-10.2416
内附	-10.242
史臣曰	-10.2423
儀同三司	-10.2425
不成	-10.2429
無事	-10.2443
州諸軍事	-10.2446
裳	-10.2446
節制	-10.2452
十餘人	-10.2457
不容	-10.2458
偕	-10.2459
進爵	-10.2461
為左	-10.2461
奴婢	-10.2463
鄉里	-10.2473
人有	-10.2474
伎	-10.2478
出知	-10.2482
盜賊	-10.2488
鑑	-10.2492
臻	-10.2494
忻	-10.2497
若不	-10.2504
沁	-10.2507
昻	-10.2512
稍遷	-10.2515
鬭	-10.2519
霧	-10.2521
上京	-10.2525
之變	-10.2528
制置使	-10.2542
各以	-10.2543
三十九	-10.2546
寘	-10.2552
人多	-10.2553
大餘	-10.2559
長者	-10.2561
奉使	-10.2565
人君	-10.2565
壺	-10.2576
新書	-10.2576
扎	-10.2577
庶人	-10.258
芒	-10.2582
盈縮	-10.2583
本作	-10.259
立為	-10.2591
南郡	-10.2592
叱	-10.2597
不死	-10.2597
撥	-10.2598
提㸃	-10.2601
更始	-10.2601
禁中	-10.2625
萬四千	-10.2628
二十五年	-10.2631
以告	-10.2632
之則	-10.2643
鴈門	-10.2643
閩	-10.2645
提舉司	-10.2646
日夜	-10.2649
上有	-10.2649
俯	-10.2657
滄	-10.2657
一月	-10.266
朋	-10.2661
四品	-10.2674
北地	-10.2677
金帛	-10.2678
陪	-10.2684
城内	-10.2685
添	-10.2686
賜死	-10.2691
數十人	-10.2692
淳化	-10.2694
以禮	-10.2694
也若	-10.2695
此言	-10.2697
廢帝	-10.2704
鞫	-10.2709
䕫	-10.271
苛	-10.2714
樞密使	-10.2714
先朝	-10.2715
貎	-10.2717
二十四年	-10.2718
稼	-10.2718
聞而	-10.2723
東井	-10.2724
數人	-10.2724
代王	-10.2726
奸	-10.2727
漳	-10.2727
觀之	-10.2734
中大夫	-10.2734
河南尹	-10.2735
笑曰	-10.2738
荆南	-10.2738
軒轅	-10.2741
至自	-10.2743
常平	-10.2744
遞	-10.2744
濮	-10.2746
其妻	-10.2746
嚮	-10.2749
記室	-10.275
北京	-10.2766
繆	-10.2766
襄公	-10.2766
若此	-10.2767
陽城	-10.2771
以後	-10.2772
十餘年	-10.2773
立功	-10.2774
望之	-10.2777
榷	-10.2777
所生	-10.2779
百人	-10.2779
權知	-10.2779
韋昭曰	-10.2781
玩	-10.2782
迷	-10.2786
飯	-10.2786
肯	-10.279
武徳	-10.2799
癸夘	-10.2805
與其	-10.281
不就	-10.2812
圜	-10.2814
薪	-10.2818
卭	-10.282
瘞	-10.282
人所	-10.282
睿宗	-10.282
高帝	-10.2822
鈐轄	-10.2826
四面	-10.2827
門下侍郎	-10.2831
喬	-10.2837
官爵	-10.284
捐	-10.2842
之術	-10.2844
旒	-10.2846
雒陽	-10.2849
之位	-10.2856
城門	-10.2857
乃使	-10.2861
廣平	-10.2862
冗	-10.2867
梅	-10.287
不食	-10.2874
岡	-10.2874
姪	-10.2875
姿	-10.2876
起家	-10.2888
惠王	-10.2888
有一	-10.2889
集二卷	-10.289
從征	-10.2912
等路	-10.2914
鄭𤣥曰	-10.2922
三軍	-10.2923
楷	-10.2924
都虞候	-10.2932
陽侯	-10.2936
榆	-10.2939
二字	-10.2939
函	-10.2946
京畿	-10.2949
逋	-10.2951
魁	-10.2957
三曰	-10.2959
憐	-10.2959
拒之	-10.2962
夏至	-10.2963
諤	-10.2964
四十九	-10.297
永嘉	-10.2972
鞏	-10.2977
南方	-10.2979
一分	-10.2984
不安	-10.2996
綵	-10.2998
相見	-10.3003
輔國將軍	-10.3003
髮	-10.3005
進位	-10.3009
廂	-10.301
為侍中	-10.301
永興	-10.3019
朝服	-10.3022
之職	-10.3022
鎮州	-10.3025
之禍	-10.3025
敇	-10.3026
而止	-10.3028
稱之	-10.3029
注云	-10.3032
玠	-10.3036
顒	-10.3038
有詔	-10.3042
精兵	-10.3042
賜以	-10.3043
二十八年	-10.3045
豈有	-10.3047
為太尉	-10.3047
寝	-10.3055
李氏	-10.3058
雨雹	-10.3067
下邳	-10.3079
黍	-10.308
三年正月	-10.3082
王元	-10.3085
羲	-10.3087
七人	-10.3091
奉表	-10.3093
推官	-10.3097
竟不	-10.3097
記曰	-10.3097
孽	-10.3098
淮陽	-10.3099
矟	-10.31
之儀	-10.3106
言於	-10.3107
語曰	-10.3111
其城	-10.3113
輯	-10.3114
深入	-10.312
辰星	-10.3125
銳	-10.3131
遂與	-10.3132
新安	-10.3133
黄金	-10.314
疇	-10.3141
論曰	-10.3146
石頭	-10.3148
瓘	-10.315
腰	-10.3151
迺	-10.3153
奄	-10.3157
桂陽	-10.3159
賞罰	-10.3162
永昌	-10.3164
蘓	-10.3165
販	-10.3167
因以	-10.3168
而有	-10.3171
敗績	-10.3172
右丞相	-10.3174
二十七年	-10.3187
同平章事	-10.3188
百寮	-10.3189
沙門	-10.3195
四州	-10.3201
繪	-10.3202
外戚	-10.3208
捍	-10.3208
四十七	-10.3209
穢	-10.3209
倡	-10.3211
其民	-10.3211
各置	-10.3214
撓	-10.3216
無忌	-10.3218
汪	-10.3219
夙	-10.3222
諸國	-10.3238
昱	-10.3244
|||	-10.3247
大徳	-10.325
涼州	-10.3252
建元	-10.3257
侮	-10.3261
法度	-10.3266
漢人	-10.3268
四千	-10.3277
領兵	-10.328
刼	-10.3281
宣徽使	-10.3281
淪	-10.3283
得免	-10.3283
孝經	-10.3284
鉅鹿	-10.3284
杭州	-10.3285
小分	-10.3286
盗賊	-10.3288
幷	-10.3291
他日	-10.3294
功曹	-10.3296
太一	-10.3297
南面	-10.3298
以本官	-10.3306
零	-10.3309
五分	-10.3314
眼	-10.3316
卞	-10.3318
搆	-10.332
伐宋	-10.3322
䝉古	-10.3325
追之	-10.3325
卒年六十	-10.3326
彬	-10.333
燔	-10.3336
悍	-10.334
中下	-10.3341
止之	-10.3341
宫室	-10.3347
使使	-10.3348
於上	-10.3349
前書	-10.335
吉凶	-10.3352
之節	-10.3354
惇	-10.3355
鉤	-10.3359
明安	-10.336
樞宻院	-10.3362
莒	-10.3366
月餘	-10.3374
諫議大夫	-10.3378
達嚕噶齊	-10.3381
暈	-10.3382
於齊	-10.3385
阮	-10.3389
平王	-10.3391
殿前	-10.3394
底	-10.3397
尚書右僕射	-10.3403
統軍	-10.3411
囘	-10.3411
!	-10.3414
臘	-10.3417
雕	-10.3418
埋	-10.3418
不自	-10.3418
迭	-10.3418
財物	-10.3425
熾	-10.343
攻城	-10.3431
瑾	-10.3434
甘泉	-10.3438
答曰	-10.3439
敗走	-10.3448
二十六年	-10.345
譴	-10.3453
朔望	-10.3453
月犯	-10.3455
問曰	-10.3455
不已	-10.346
出師	-10.3462
然而	-10.3471
是非	-10.3475
伸	-10.3475
之政	-10.3475
庻	-10.3476
曰陛下	-10.3479
之患	-10.3482
其一	-10.3484
吐谷渾	-10.3486
鹵簿	-10.3488
太常博士	-10.3493
頗有	-10.3496
確	-10.3497
其文	-10.3499
之任	-10.3499
工部侍郎	-10.3507
出兵	-10.3509
吹	-10.3511
譬	-10.3512
無罪	-10.352
酉	-10.3523
之兵	-10.3523
恬	-10.3523
國子祭酒	-10.3525
渡江	-10.3526
五十七	-10.3527
鞠	-10.3531
賞賜	-10.3533
視事	-10.3538
江州刺史	-10.3542
潞	-10.3543
有異	-10.3548
臣下	-10.3551
浙西	-10.3557
不克	-10.3558
之風	-10.3561
國人	-10.3561
鏡	-10.3562
景公	-10.3563
為御史大夫	-10.3566
興元	-10.3568
復位	-10.3571
屍	-10.3573
受禪	-10.3576
曰夫	-10.358
轉運司	-10.3581
昆弟	-10.3581
下有	-10.3583
三代	-10.3586
飭	-10.3587
綸	-10.3588
謫	-10.359
人臣	-10.3592
四十六	-10.3593
籌	-10.3607
陋	-10.3611
刑獄	-10.3611
||||	-10.3612
縣公	-10.3612
衙	-10.3613
五代	-10.3619
逾	-10.362
都督府	-10.3626
脚	-10.3626
鮮卑	-10.3626
為右	-10.363
崇寧	-10.3644
風雨	-10.3644
孝景	-10.3644
其實	-10.3645
龔	-10.3646
措	-10.3654
死罪	-10.3659
稱其	-10.3661
東郡	-10.3665
匱	-10.3667
漢軍	-10.3668
乃命	-10.3668
儀注	-10.367
戊	-10.3673
非也	-10.3674
京西	-10.3674
熒惑犯	-10.3677
曰公	-10.3678
王室	-10.3679
以為然	-10.3682
黄門	-10.3683
影	-10.3683
芮	-10.3684
不顧	-10.3686
肩	-10.3686
郎官	-10.3687
英宗	-10.3688
拂	-10.3689
愛之	-10.3693
骨肉	-10.3694
二分	-10.3695
十二卷	-10.37
亞	-10.3702
!」	-10.3703
張儀	-10.3706
澹	-10.3707
遮	-10.3707
南海	-10.3713
王公	-10.3715
一百五十	-10.3717
為司徒	-10.3718
殄	-10.3721
卒年七十	-10.3726
劔	-10.3727
四十四	-10.3733
三十里	-10.3736
韜	-10.3736
以求	-10.3746
禮儀	-10.3749
刑部	-10.3752
鑄錢	-10.3753
之謀	-10.3758
都部署	-10.3759
奉朝請	-10.3764
壻	-10.3765
各有差	-10.3766
三十八	-10.3771
鬼神	-10.3777
勾	-10.3781
天道	-10.3783
輔政	-10.3784
𤼵	-10.3785
刪	-10.379
文曰	-10.3794
槍	-10.3807
枚	-10.3809
杜預曰	-10.3811
六卷	-10.3814
無窮	-10.3815
語在	-10.3816
縛	-10.3825
又置	-10.3828
使臣	-10.3828
太中大夫	-10.383
第十	-10.3835
朝臣	-10.3837
殿下	-10.3839
琪	-10.3839
宣武	-10.3844
毗	-10.3846
來貢	-10.3847
禘	-10.3853
文宗	-10.3855
衆軍	-10.386
昬	-10.3866
迄	-10.3868
後魏	-10.3872
承制	-10.3874
成功	-10.3875
仁義	-10.388
隴右	-10.3883
鼓吹	-10.3886
珂	-10.3888
水陸	-10.3891
以歸	-10.3891
再遷	-10.3892
於天下	-10.3892
除名	-10.3892
樂止	-10.3893
中宗	-10.3895
晉灼曰	-10.3896
北伐	-10.3902
邇	-10.3906
鄆州	-10.3914
免官	-10.3914
承㫖	-10.3915
繒	-10.3917
鞅	-10.3923
正八品	-10.3923
為司空	-10.3925
掘	-10.393
眀年	-10.3931
丑	-10.3931
後宫	-10.3934
並為	-10.3935
納之	-10.3941
從者	-10.3944
前軍	-10.3945
染	-10.3945
二十九年	-10.3951
響	-10.3958
侍從	-10.3962
軍馬	-10.3963
悖	-10.3965
大司農	-10.3966
班師	-10.3985
畤	-10.3987
冉	-10.3987
扈	-10.3989
患之	-10.3992
之説	-10.3993
宦	-10.3995
從弟	-10.3999
佑	-10.4001
仲尼	-10.4003
所宜	-10.4003
衢	-10.401
狹	-10.4011
所知	-10.402
宣王	-10.4021
廵檢	-10.4024
㳺	-10.4024
隘	-10.4024
了	-10.4027
討平之	-10.4028
耻	-10.4033
何不	-10.4034
京兆尹	-10.4035
平章事	-10.4037
時為	-10.404
兇	-10.4045
曄	-10.4048
滕	-10.405
踵	-10.4052
扶風	-10.4052
經史	-10.4053
加減	-10.4065
庚	-10.407
其心	-10.4075
裏	-10.4077
:	-10.4085
冐	-10.4088
盎	-10.4092
弄	-10.4092
所為	-10.4095
金城	-10.4102
青州刺史	-10.4105
陜州	-10.4107
萬六千	-10.4109
曼	-10.4111
萬騎	-10.4117
各一員	-10.4117
同州	-10.4119
祉	-10.4127
遼史	-10.4131
萬戸	-10.4134
之才	-10.4136
生子	-10.4138
依前	-10.4139
躍	-10.4142
懇	-10.4148
大喜	-10.4149
之北	-10.4149
常以	-10.4152
太宰	-10.416
城南	-10.4161
入太微	-10.4162
嘉定	-10.4163
之重	-10.4167
鎬	-10.417
已來	-10.417
乆之	-10.4174
宣慰司	-10.4181
相如	-10.4182
守臣	-10.4182
此則	-10.4183
保定	-10.4184
臨江	-10.4187
立於	-10.4193
濤	-10.4195
儀同	-10.4197
賓客	-10.4197
益都	-10.42
之難	-10.4201
黄鐘	-10.4203
峽	-10.4206
俠	-10.4211
日度	-10.4212
萊	-10.4212
孺	-10.4215
弁	-10.4218
從七品	-10.4218
酈	-10.4221
自然	-10.4223
大中祥符	-10.4226
郢州	-10.4227
昭公	-10.4228
款	-10.4233
一等	-10.4238
填星	-10.4241
州總管	-10.4245
大功	-10.4245
宣宗	-10.4249
大義	-10.4251
行在	-10.4251
將相	-10.4254
不拜	-10.4255
廬江	-10.4258
舌	-10.4259
蘄	-10.426
本朝	-10.4267
乳	-10.4269
户部尚書	-10.427
𤓰	-10.4271
緋	-10.4272
因此	-10.4277
淮東	-10.4277
第六	-10.4278
人父	-10.4279
於外	-10.4284
裘	-10.4287
所司	-10.4287
史官	-10.4287
太山	-10.4289
武功	-10.429
辜	-10.4295
般	-10.4296
穆宗	-10.4304
太祝	-10.4308
東向	-10.4308
夏國	-10.4309
萬年	-10.4309
四十一	-10.4311
太子詹事	-10.4315
或以	-10.4317
大雨	-10.4317
廣西	-10.4318
犢	-10.4319
粗	-10.432
本無	-10.4323
來歸	-10.4324
上以	-10.4329
嵗餘	-10.433
絕	-10.4332
京東	-10.4332
惲	-10.4336
不忘	-10.4336
號令	-10.4342
而退	-10.4346
六十四	-10.4352
數十萬	-10.4354
永明	-10.4357
截	-10.4359
置酒	-10.4362
三輔	-10.4366
侂胄	-10.4368
以安	-10.4372
是故	-10.4375
之世	-10.4375
東陽	-10.4377
涇原	-10.4378
不免	-10.4379
詆	-10.4379
光祿大夫	-10.438
岑	-10.438
壹	-10.4385
奪其	-10.4392
建炎	-10.4394
壮	-10.4395
曰若	-10.4398
紇	-10.4399
劵	-10.4399
總領	-10.4402
戸部	-10.4405
字仲	-10.4406
封為	-10.4408
主之	-10.4409
晷	-10.441
六軍	-10.4416
宋兵	-10.4417
相去	-10.4417
欲令	-10.4419
九州	-10.4419
殯	-10.4422
改正	-10.4425
遇害	-10.4429
四十三	-10.4429
所敗	-10.443
五經	-10.4433
之弊	-10.4433
重之	-10.4434
戌	-10.4436
暑	-10.4438
嶠	-10.4439
給之	-10.4441
瑀	-10.4442
九江	-10.4444
綺	-10.4445
桐	-10.4446
快	-10.4447
江夏	-10.4455
侍衛	-10.4456
平江	-10.4461
京都	-10.4462
尚書僕射	-10.4467
於秦	-10.4472
蔚	-10.4473
不悦	-10.4474
月行	-10.4478
暫	-10.4486
覇	-10.4488
枕	-10.4488
山在	-10.4489
有三	-10.4493
臣竊	-10.4493
大行	-10.4496
朔日有蝕之	-10.4506
帯	-10.4509
受詔	-10.4511
貧民	-10.4512
侃	-10.4513
不問	-10.452
相州	-10.4521
上聞	-10.4525
詩曰	-10.4527
嗜	-10.4528
帷	-10.453
奐	-10.4532
未知	-10.4532
僻	-10.4532
埶	-10.4535
軍旅	-10.454
諮	-10.4545
縣也	-10.4547
盾	-10.4547
廪	-10.455
絡	-10.4552
若有	-10.4558
在京	-10.456
延年	-10.4564
如何	-10.4568
凱	-10.4573
以故	-10.4575
開寳	-10.4578
登歌	-10.4579
東門	-10.4581
日食	-10.4582
其才	-10.4587
國用	-10.4587
者並	-10.4588
燎	-10.4594
尋陽	-10.4604
給事	-10.4607
筵	-10.4609
金紫光禄大夫	-10.4613
其數	-10.4614
埽	-10.4616
斧	-10.4616
六國	-10.4627
蘇林曰	-10.463
父兄	-10.463
使副	-10.4631
壓	-10.4631
澶州	-10.4633
廸	-10.4634
可得	-10.4641
服之	-10.4642
國子監	-10.4643
者乎	-10.4645
江浙	-10.4646
瀛	-10.465
嗣位	-10.4652
義陽	-10.4654
鈎	-10.4656
壅	-10.4662
漢使	-10.4663
賜名	-10.467
覃	-10.467
系	-10.4672
之南	-10.4673
著作佐郎	-10.4675
贇	-10.4677
越王	-10.4678
千匹	-10.4678
丹陽尹	-10.4678
初置	-10.468
貯	-10.468
驃騎將軍	-10.4681
恱	-10.4681
股	-10.4681
尊號	-10.4684
二百五十	-10.4685
章邯	-10.4686
中書門下	-10.4686
八千	-10.4687
城陽	-10.4692
㤗	-10.4699
駒	-10.4704
柏	-10.4704
上元	-10.4714
也且	-10.472
為主	-10.4721
張浚	-10.4722
駱	-10.4722
至徳	-10.4723
槩	-10.4726
朞	-10.4729
太平興國	-10.4735
曰天	-10.4739
進賢	-10.4741
是謂	-10.4741
可汗	-10.4741
煥	-10.4743
承天	-10.4749
吞	-10.475
興宗	-10.4754
四萬	-10.4755
於前	-10.4756
迪	-10.4757
卯	-10.4758
紹聖	-10.4761
褚	-10.4766
而不能	-10.4767
冠軍將軍	-10.4767
雀	-10.4768
軍國	-10.4768
輜重	-10.4769
年少	-10.477
終日	-10.4771
僑	-10.4775
詳定	-10.4775
武昌	-10.4779
中正	-10.4782
南山	-10.4783
禎	-10.4784
武定	-10.4789
尅	-10.479
所著	-10.4796
河朔	-10.4797
居之	-10.4803
親戚	-10.4804
入氐	-10.4808
絃	-10.4811
泛	-10.4811
磨	-10.4814
四曰	-10.4815
者則	-10.4818
雖不	-10.4823
自立	-10.4824
安平	-10.4829
梟	-10.4829
哲宗	-10.4831
晩	-10.4832
剽	-10.4833
彛	-10.4836
閎	-10.4836
之議	-10.4838
其主	-10.4838
闇	-10.484
賢者	-10.4841
賜金	-10.4841
父老	-10.4843
安帝	-10.4844
熱	-10.4845
九百	-10.4846
河決	-10.4847
叔父	-10.4847
今案	-10.4849
永元	-10.485
熹	-10.4852
蓬	-10.4856
枯	-10.4856
氷	-10.486
磬	-10.486
而復	-10.4865
南向	-10.4868
洋	-10.4874
少子	-10.4877
兵攻	-10.4882
卒于	-10.4884
乃得	-10.4884
其上	-10.4886
之聲	-10.4887
州觀察使	-10.4888
鷹	-10.4891
黔	-10.4893
一百一十	-10.4896
俞	-10.49
冰	-10.4901
百年	-10.4903
汴州	-10.4908
家貧	-10.4909
黄河	-10.4911
捧	-10.4914
道士	-10.4919
搜	-10.4919
唐書卷	-10.4921
樞宻使	-10.4923
謐	-10.4924
也然	-10.4925
駮	-10.4926
廐	-10.494
拓	-10.494
太常少卿	-10.4942
實録	-10.4942
契丹主	-10.4944
銖	-10.4946
諜	-10.4947
漢興	-10.4948
以成	-10.495
制置	-10.4951
分兵	-10.4953
華州	-10.4955
草木	-10.4955
二十萬	-10.4958
召還	-10.4962
除之	-10.4966
其勢	-10.4967
纓	-10.497
黯	-10.4971
失之	-10.4976
統制	-10.4979
禁軍	-10.498
瓜	-10.4984
慶元	-10.4986
駙馬都尉	-10.4988
太史公曰	-10.4989
渥	-10.499
揺	-10.499
五十五	-10.499
防禦	-10.4994
尤甚	-10.4998
武宗	-10.5001
王安石	-10.5005
南康	-10.5006
經略	-10.5007
四年正月	-10.501
魂	-10.5015
自陳	-10.502
陳平	-10.5023
豕	-10.5024
於朝	-10.5028
為定	-10.5029
之業	-10.503
諫曰	-10.503
浪	-10.5032
翠	-10.5036
大兵	-10.5038
久矣	-10.5038
暇	-10.5039
受之	-10.5041
荆湖	-10.5042
志曰	-10.5044
京邑	-10.5044
宣撫使	-10.5047
無益	-10.5053
譲	-10.5058
求之	-10.5059
夀春	-10.5071
大人	-10.5071
探	-10.5083
曷	-10.5083
以報	-10.5085
一寸	-10.5088
今改正	-10.5098
穎	-10.5101
繞	-10.5107
欒	-10.5108
怯	-10.5108
追尊	-10.5112
覈	-10.5121
法令	-10.5128
方今	-10.513
今之	-10.5133
民田	-10.5135
大安	-10.514
食之	-10.514
亦無	-10.5141
定數	-10.5142
八卷	-10.5148
蒸	-10.5151
耳目	-10.5155
主管	-10.5157
自言	-10.5166
乃詔	-10.5168
鬱	-10.5169
滑州	-10.5173
慶之	-10.5174
蚤	-10.5174
夏五月	-10.5174
搏	-10.5176
四夷	-10.5178
安都	-10.5184
南征	-10.5184
元史卷	-10.5187
浙東	-10.5188
兵法	-10.5205
衣食	-10.5211
百餘里	-10.5214
千五百	-10.5222
即以	-10.5222
天平	-10.5228
有才	-10.5232
家屬	-10.5232
從五品	-10.5237
諶	-10.5237
渙	-10.5238
許州	-10.5241
張耳	-10.5243
圉	-10.5245
朝夕	-10.5246
叅軍	-10.5249
不改	-10.525
不允	-10.5251
男子	-10.5258
沐	-10.526
歙	-10.526
少監	-10.5263
以給	-10.5266
夫子	-10.5267
後周	-10.5268
者衆	-10.5274
于時	-10.5276
六日	-10.5277
翦	-10.5281
僣	-10.5283
不識	-10.5286
尚書右丞	-10.5286
蔡京	-10.5288
漢兵	-10.5288
元帥府	-10.5295
有聲	-10.53
不明	-10.53
其身	-10.5303
洮	-10.5304
1	-10.5306
愿	-10.5307
叟	-10.5312
天地之	-10.5312
百司	-10.5318
之始	-10.532
芻	-10.532
宗族	-10.5323
舊唐書卷	-10.5325
嬪	-10.5329
芬	-10.533
簒	-10.5331
碎	-10.5331
起為	-10.5332
位於	-10.5344
秦之	-10.5344
之半	-10.5345
水軍	-10.5348
長公主	-10.5348
宰執	-10.5349
彭越	-10.535
頸	-10.5355
不堪	-10.5356
可也	-10.5356
進士第	-10.5357
二百四十	-10.5357
緝	-10.5358
滛	-10.5359
平原君	-10.5368
職事	-10.537
每日	-10.5371
朝政	-10.5372
嚕	-10.5372
濵	-10.5375
油	-10.5377
籠	-10.538
處分	-10.538
太清	-10.5387
以致	-10.5388
梓	-10.5391
之理	-10.5393
宫人	-10.5395
忠孝	-10.5396
障	-10.54
抄	-10.5401
安樂	-10.5402
禋	-10.5402
獠	-10.5403
五度	-10.5403
瑗	-10.5404
不納	-10.5409
獻公	-10.541
萬國	-10.541
所見	-10.5414
觀其	-10.5415
入于	-10.5421
不易	-10.5421
三王	-10.5422
元昊	-10.5424
著作郎	-10.5425
囂	-10.5428
澗	-10.5428
不若	-10.5428
貴妃	-10.5428
減之	-10.5436
河南府	-10.5437
為上	-10.5437
幄	-10.5446
之君	-10.5451
議曰	-10.5456
軍主	-10.5457
少帝	-10.5457
椿	-10.5464
埒	-10.5465
鶴	-10.547
㝠	-10.5476
逞	-10.5477
曇	-10.549
朝㑹	-10.5491
天祐	-10.5491
收其	-10.5491
詩云	-10.5492
巷	-10.5495
五十二	-10.5497
璠	-10.5499
兼侍中	-10.5506
己夘	-10.5508
笛	-10.5511
遣將	-10.5512
遣使者	-10.5513
從六品	-10.5517
正七品	-10.5518
河上	-10.552
駟	-10.5521
儻	-10.5522
不可不	-10.5523
闊	-10.5525
三千人	-10.5525
世隆	-10.5525
非所以	-10.553
樞密	-10.5532
珙	-10.5546
谿	-10.5547
又與	-10.5547
寂	-10.5548
疋	-10.5549
一朝	-10.5549
上章	-10.5552
太隂	-10.5564
標	-10.5565
哥	-10.5565
莊公	-10.557
攘	-10.5573
北向	-10.5576
女為	-10.5578
劉攽曰	-10.5581
分置	-10.5581
和親	-10.5582
射之	-10.5584
豈非	-10.5586
衫	-10.5586
幡	-10.5589
衷	-10.5589
銷	-10.5591
留後	-10.5592
行參軍	-10.5594
擊破之	-10.5596
賚	-10.5605
所害	-10.5605
甚多	-10.5606
際	-10.561
重耳	-10.5622
諫官	-10.5623
多少	-10.5623
仍令	-10.5627
措置	-10.5627
大旱	-10.563
於東	-10.5633
朂	-10.5634
易之	-10.5635
福州	-10.5638
爻	-10.5639
城郭	-10.564
斬其	-10.5641
印綬	-10.5642
州都督	-10.5643
律令	-10.5644
未盡	-10.5645
復立	-10.5654
之盛	-10.5656
三省	-10.5657
軍人	-10.5658
上書言	-10.5658
灼	-10.566
棣	-10.5663
垂拱	-10.5664
諮議參軍	-10.5664
曦	-10.5672
大星	-10.5676
武陵	-10.5677
刑部侍郎	-10.5682
杞	-10.5684
札	-10.5686
大梁	-10.5687
之號	-10.5687
驟	-10.569
六十七	-10.5691
南安	-10.5694
龍門	-10.5695
延祐	-10.5697
九卿	-10.5698
供奉官	-10.57
獲其	-10.57
本州	-10.5702
愼	-10.571
所入	-10.5712
驩	-10.5714
縣名	-10.5716
改名	-10.5716
開封府	-10.5719
第七	-10.5722
遣兵	-10.5725
兼領	-10.5725
江都	-10.5727
泊	-10.573
軍至	-10.5731
竟陵	-10.5732
加之	-10.5735
所用	-10.5735
征討	-10.5736
之西	-10.5738
邢州	-10.5738
毫	-10.5739
譖	-10.5742
因而	-10.5745
員外	-10.5752
謂之曰	-10.5761
其職	-10.5764
冀州刺史	-10.5767
不樂	-10.5771
於民	-10.5772
之處	-10.5774
轅	-10.5781
渝	-10.5781
不失	-10.579
不止	-10.5791
貴賤	-10.5793
年老	-10.5797
者悉	-10.5803
無異	-10.5803
曾孫	-10.5805
帖	-10.5805
萬世	-10.5805
詔令	-10.5807
皎	-10.581
漲	-10.5813
產	-10.5814
一子	-10.5814
武成	-10.5816
女也	-10.582
穰	-10.583
斃	-10.5834
袖	-10.5836
集五卷	-10.5839
諸侯王	-10.5841
一嵗	-10.5843
從官	-10.5843
一品	-10.5844
鹽鐵	-10.5845
歸徳	-10.5848
臨安	-10.585
瑩	-10.5853
名為	-10.5853
沆	-10.5854
数	-10.5855
同列	-10.5856
一十	-10.5859
年五十	-10.5859
水出	-10.586
故城	-10.586
流星	-10.5862
罪人	-10.5864
少有	-10.5868
不得已	-10.587
怒曰	-10.5872
僧辯	-10.5876
所過	-10.5876
評	-10.5879
琅邪王	-10.5882
西向	-10.5886
孟子	-10.5888
二年春正月	-10.5894
䕶軍	-10.5898
臨淮	-10.59
球	-10.5901
奭	-10.5902
行宫	-10.5907
登進士第	-10.5909
宜令	-10.5909
入宫	-10.5911
兩淮	-10.5913
其義	-10.5913
則不	-10.5914
千金	-10.5917
蕭何	-10.5921
慟	-10.5926
眾	-10.5926
奨	-10.5927
舘	-10.5927
僖	-10.593
撫軍	-10.5933
臥	-10.5934
五十四	-10.5934
不疑	-10.5939
歸之	-10.5941
親征	-10.5943
馮翊	-10.5945
甸	-10.5945
士庶	-10.5945
赴闕	-10.5947
王后	-10.5948
凉	-10.5952
薦之	-10.5958
先登	-10.5958
何所	-10.5958
見於	-10.596
民力	-10.596
嘉其	-10.5963
受其	-10.5965
乗輿	-10.5972
天祚	-10.5973
皆不	-10.5974
秋八月	-10.5974
鄉侯	-10.5978
行軍	-10.5979
斜	-10.5979
戢	-10.598
鑾	-10.5981
羸	-10.5984
左傳曰	-10.5988
未聞	-10.5994
虎符	-10.5994
乘輿	-10.5996
仍以	-10.6002
稚	-10.6002
大業初	-10.6003
天子之	-10.6005
隕	-10.6005
朝野	-10.6013
所獲	-10.6017
縣名屬	-10.6017
王曰	-10.6018
尋遷	-10.6022
兵至	-10.6023
應之	-10.6026
妨	-10.603
軍使	-10.6031
等使	-10.6035
此其	-10.6036
鄧州	-10.6044
還京師	-10.6049
直學士	-10.6049
志云	-10.605
縣官	-10.6052
菜	-10.6057
有此	-10.6057
六千	-10.6058
炳	-10.6059
見殺	-10.6067
漁	-10.6068
執事	-10.6069
燧	-10.6069
尋除	-10.607
葵	-10.6077
所欲	-10.6079
繹	-10.6081
左將軍	-10.6082
郊廟	-10.6084
建中	-10.6087
鼠	-10.6087
又令	-10.609
壯士	-10.6095
胤	-10.6099
頂	-10.6101
厨	-10.6104
技	-10.6107
祕書監	-10.6107
進軍	-10.6109
五十六	-10.6109
躡	-10.6109
所求	-10.6115
入海	-10.612
哈喇	-10.6122
鎮撫	-10.613
五百人	-10.613
頤	-10.6132
軾	-10.6133
山南	-10.6143
萬緡	-10.6152
直言	-10.6153
姻	-10.6154
宣城	-10.6154
翌日	-10.6154
晉書	-10.6155
狡	-10.6159
亶	-10.616
橫	-10.616
殁	-10.6162
千萬	-10.6163
千八百	-10.6166
府庫	-10.6169
太史公	-10.6169
生於	-10.6169
篆	-10.6174
軍於	-10.6179
神明	-10.6179
十里	-10.6182
暗	-10.6182
胃	-10.6183
參議	-10.6186
太妃	-10.6195
后稷	-10.6196
先後	-10.62
二十里	-10.6203
棄市	-10.6203
寖	-10.6204
闡	-10.6204
翻	-10.6205
旄	-10.6208
媚	-10.6208
未得	-10.621
几	-10.6211
北郊	-10.6211
大禮	-10.6213
縣東	-10.6221
之子也	-10.6226
饑民	-10.6228
國子博士	-10.6228
後漢書卷	-10.623
字伯	-10.6231
孝惠	-10.6232
蔵	-10.6232
曺	-10.6233
扞	-10.6233
緡錢	-10.6238
州軍	-10.6239
仍舊	-10.6241
天成	-10.6241
之舞	-10.6249
遂為	-10.625
中書監	-10.625
境内	-10.6251
待制	-10.6251
平城	-10.6255
罹	-10.6256
監本訛	-10.6256
猜	-10.6257
衛大將軍	-10.6257
之服	-10.626
百二十	-10.6264
不知其	-10.6264
八分	-10.6271
愔	-10.6272
歸國	-10.6273
筭	-10.6275
可乎	-10.6276
旬日	-10.628
復遣	-10.6282
人民	-10.6283
不聞	-10.6284
七卷	-10.6287
管仲	-10.6289
兵士	-10.6296
擢為	-10.6299
勘	-10.6303
紳	-10.6304
紐	-10.6306
不可得	-10.6306
冡	-10.6307
征虜將軍	-10.6308
下令	-10.6308
上谷	-10.6309
孔安國曰	-10.631
晃	-10.6311
二州刺史	-10.6312
贄	-10.6312
摯	-10.6312
馬軍	-10.6313
萬三千	-10.6315
鎮江	-10.632
信都	-10.6325
之恩	-10.6325
屯兵	-10.6325
大雪	-10.6329
驢	-10.6331
遍	-10.6333
縣民	-10.6335
膏	-10.6337
亡命	-10.6337
于朝	-10.6338
靈公	-10.6339
師道	-10.634
騶	-10.6342
議郎	-10.6343
之物	-10.6344
疫	-10.6344
湖廣	-10.6349
其能	-10.6349
故有	-10.6352
文徳	-10.6353
南史卷	-10.6354
馴	-10.6356
坑	-10.6357
膠東	-10.6362
鼻	-10.6362
恂	-10.6363
攸之	-10.6365
其志	-10.6365
云云	-10.6369
之末	-10.6372
千石	-10.6374
轄	-10.6374
中星	-10.6374
入覲	-10.6375
亳州	-10.6375
親屬	-10.6376
三子	-10.6377
郝	-10.6383
嶷	-10.6384
如此則	-10.6385
右將軍	-10.6385
六度	-10.6387
㳟	-10.6388
國史	-10.6389
金石	-10.6399
監本	-10.6399
不能自	-10.6399
不必	-10.6404
已亥	-10.6405
有二	-10.6405
劉向	-10.6407
賻	-10.6407
長孫	-10.641
掖	-10.6411
膽	-10.6417
順帝	-10.642
四度	-10.642
泉州	-10.642
非常	-10.6424
副之	-10.6427
相應	-10.6429
當以	-10.643
長城	-10.6431
㳂	-10.6433
想	-10.6435
愁	-10.6436
扼	-10.6436
琬	-10.6436
之用	-10.6437
觴	-10.6439
膝	-10.6443
脈	-10.6445
其書	-10.6456
涇州	-10.646
諸葛	-10.6461
衆皆	-10.6467
濮陽	-10.6472
諸縣	-10.6477
療	-10.6478
國有	-10.6479
酌獻	-10.6483
遁去	-10.6486
之象	-10.6488
稔	-10.6488
輟	-10.6489
太常寺	-10.6489
大悦	-10.649
一百三十	-10.6491
亭侯	-10.6492
太上皇	-10.6493
本路	-10.6493
延夀	-10.6493
三尺	-10.6496
以減	-10.6496
已後	-10.6498
漁陽	-10.6499
中使	-10.6504
魏州	-10.6506
流民	-10.6507
蔡州	-10.6508
其法	-10.6508
映	-10.6512
廣漢	-10.6517
卬	-10.6522
韓魏	-10.6528
應天	-10.6528
鄂州	-10.6531
入貢	-10.6531
居民	-10.6533
嘗為	-10.6533
團	-10.6535
禍福	-10.6536
爼	-10.6539
相率	-10.6542
於天	-10.6544
髙陽	-10.6545
亦同	-10.6547
平州	-10.6551
第二星	-10.6554
開禧	-10.6555
之費	-10.6556
不入	-10.6556
鄭州	-10.6556
改曰	-10.6558
上將軍	-10.656
其議	-10.6562
州城	-10.6562
苖	-10.6563
榜	-10.6564
控	-10.6564
為郎	-10.6565
武安	-10.6565
多不	-10.6565
稻	-10.6566
餘衆	-10.6566
賑之	-10.6567
分左右	-10.6569
復有	-10.6572
無敢	-10.6575
以通	-10.6578
為庶人	-10.6581
朝士	-10.6582
寮	-10.6582
便宜	-10.6583
陰陽	-10.6585
之主	-10.6585
之美	-10.6587
臣之	-10.6587
靈武	-10.6591
移鎮	-10.6592
災異	-10.6592
言事	-10.6593
終身	-10.6597
至正	-10.6597
寤	-10.6599
詹事	-10.6599
因之	-10.6603
彗	-10.6604
輕騎	-10.6606
復舊	-10.6607
三司使	-10.6608
近侍	-10.6608
刑罰	-10.6612
鴈	-10.6614
武臣	-10.6616
挫	-10.6617
巴蜀	-10.6618
婆	-10.6619
奉迎	-10.662
之前	-10.662
奉天	-10.6621
是夜	-10.6626
可為	-10.663
升殿	-10.663
未行	-10.6631
之東	-10.6634
鉞	-10.6634
為天子	-10.6635
為皇太子	-10.6635
歴代	-10.6637
薊	-10.6641
錄事	-10.6641
二度	-10.6642
項梁	-10.6644
后土	-10.6646
護軍	-10.6647
嫉	-10.665
詔諭	-10.665
十二人	-10.6651
艱難	-10.6657
棗	-10.666
鋪	-10.6661
俛	-10.6663
從事中郎	-10.6665
加以	-10.6667
昂	-10.667
死於	-10.6672
朒	-10.6678
遣官	-10.668
襄州	-10.6683
二年二月	-10.6684
殤	-10.6686
晉州	-10.6687
舊五代史巻	-10.6689
嘉努	-10.6689
秋分	-10.6689
少年	-10.6689
以供	-10.6695
漠	-10.6696
沿	-10.6698
祧	-10.6704
闕下	-10.6705
之徳	-10.6709
必不	-10.671
南越	-10.6711
梁州	-10.6715
雒	-10.6721
六十二	-10.6721
逄	-10.6721
遣使朝貢	-10.6727
顛	-10.6732
無道	-10.6739
字下	-10.6743
轉運	-10.6746
組	-10.6748
愷	-10.675
聚衆	-10.6752
狎	-10.6753
中郎	-10.6755
踐阼	-10.6756
牽牛	-10.6757
一百四十	-10.6758
毋得	-10.6759
兩省	-10.6763
山谷	-10.6767
破賊	-10.6776
通直散騎常侍	-10.6777
霖雨	-10.6778
自後	-10.6781
胙	-10.6786
丈夫	-10.6786
是書	-10.6789
湖北	-10.68
䘏	-10.6801
皆如	-10.6803
迴	-10.6804
溉	-10.6806
何足	-10.6808
國事	-10.6809
遂至	-10.6809
十有二	-10.681
三十人	-10.6813
有天下	-10.6813
各二	-10.6817
俶	-10.6817
不幸	-10.6819
宣撫	-10.6819
兎	-10.6825
二十餘	-10.6826
可用	-10.6828
營田	-10.683
經畧	-10.6832
狥	-10.6832
皆在	-10.6834
懦	-10.6835
霄	-10.6837
周官	-10.6838
大興	-10.6843
顯祖	-10.6847
濟隂	-10.6857
猥	-10.686
漢陽	-10.6863
坎	-10.6866
兵部	-10.6867
東路	-10.6872
其門	-10.6873
十五卷	-10.6874
者甚衆	-10.6874
以奉	-10.688
煬帝	-10.6881
民之	-10.6882
固守	-10.6885
鏤	-10.6889
春分	-10.689
在今	-10.689
行者	-10.6893
雍熙	-10.6893
部下	-10.6897
泗州	-10.6899
與戰	-10.6904
鉅	-10.6908
宣撫司	-10.6909
人也祖	-10.6909
職官	-10.6909
曩	-10.6915
兼知	-10.6915
一千五百	-10.6916
上郡	-10.6916
樂安	-10.692
服闋	-10.6921
五十三	-10.6923
全忠	-10.6929
數萬人	-10.693
自謂	-10.6931
樂作	-10.6931
欲立	-10.6936
襄城	-10.6938
濠	-10.6939
日益	-10.6941
尚書郎	-10.6942
圖克坦	-10.6943
詡	-10.6943
電	-10.6944
上將	-10.6945
以應	-10.6948
之氣	-10.6951
主上	-10.6954
参	-10.6955
謂其	-10.6955
而入	-10.6956
参軍	-10.6957
處之	-10.6958
通事舍人	-10.6965
藴	-10.6965
人也父	-10.6966
簫	-10.6967
乃還	-10.6969
不平	-10.697
嬴	-10.6972
滌	-10.6972
一百八十	-10.6972
軸	-10.6972
府長史	-10.6975
初日	-10.6977
未必	-10.6978
人也少	-10.6979
此乃	-10.6979
北邊	-10.6979
禮義	-10.698
其利	-10.698
天福	-10.6987
龍驤將軍	-10.6993
城邑	-10.6994
秘書監	-10.6995
稜	-10.6995
者言	-10.6996
不聼	-10.6999
渚	-10.7001
雨水	-10.7003
縣地	-10.7005
下文	-10.7005
防禦使	-10.701
當死	-10.7013
騫	-10.7015
畋	-10.7015
宸	-10.7015
田租	-10.7016
見而	-10.7018
商賈	-10.7023
不載	-10.7024
詔有司	-10.703
出奔	-10.7031
臣請	-10.7031
帝紀	-10.7032
地名	-10.7034
九品	-10.7039
部尚書	-10.704
存亡	-10.704
治平	-10.7044
有竒	-10.7046
臣子	-10.7047
諸儒	-10.7047
之餘	-10.7048
有兵	-10.7053
紿	-10.7054
拊	-10.7054
張掖	-10.7058
無可	-10.7061
百僚	-10.7064
縣南	-10.7066
進攻	-10.7066
駐蹕	-10.7067
不信	-10.7072
哀帝	-10.7072
賄	-10.7075
等並	-10.7076
冬十一月	-10.7077
州領	-10.7078
釣	-10.708
倖	-10.7081
廬州	-10.7091
母弟	-10.7098
嘉祐	-10.7098
蘭陵	-10.7105
都䕶	-10.7106
梁有	-10.7107
礪	-10.7108
秘	-10.7119
禦之	-10.7121
自號	-10.7121
元年四月	-10.7122
出戰	-10.7122
舎人	-10.7122
司馬光	-10.7122
曾祖	-10.7125
文書	-10.7125
倦	-10.7127
州事	-10.713
招討	-10.7131
反覆	-10.7131
康王	-10.7132
五十八	-10.7134
大中	-10.7135
入闗	-10.7137
太微	-10.7139
國語	-10.7139
夭	-10.7139
九分	-10.715
平生	-10.715
朏	-10.7152
一百七十	-10.7154
柩	-10.7154
碭	-10.7157
又奏	-10.7159
十餘日	-10.7161
易曰	-10.7166
學生	-10.7168
漫	-10.7168
又改	-10.7169
為文	-10.7171
鍾離	-10.7174
景仁	-10.718
可不	-10.7181
四日	-10.7182
佃	-10.7183
平定	-10.7183
把	-10.7186
斡	-10.7187
懋	-10.7187
成公	-10.7187
忝	-10.719
元年二月	-10.7191
粹	-10.7191
虎賁	-10.7191
追至	-10.7192
叢	-10.7195
周之	-10.7196
甥	-10.7196
墟	-10.7198
兼權	-10.7199
事也	-10.7202
酒泉	-10.7203
善騎射	-10.7204
囉	-10.7204
七分	-10.7205
黄鍾	-10.7206
誤也	-10.7214
犒	-10.7214
行禮	-10.7218
檢校司空	-10.7218
全義	-10.7219
以城降	-10.722
北征	-10.7226
還京	-10.7229
引見	-10.723
亥	-10.7233
是歳	-10.7235
遼陽	-10.7235
武將軍	-10.724
至尊	-10.724
緑	-10.7244
璽書	-10.7245
者謂	-10.7249
宣慰使	-10.7249
弭	-10.725
者即	-10.7251
責之	-10.7253
早卒	-10.7254
在京師	-10.7258
之謂	-10.7259
毛詩	-10.7266
謝曰	-10.7268
殞	-10.7275
浙	-10.7277
奔走	-10.7281
御前	-10.7281
孝王	-10.7284
定陶	-10.7284
故能	-10.7291
牐	-10.7291
北斗	-10.7296
六十三	-10.7297
伊喇	-10.7297
苞	-10.7298
次之	-10.7299
器械	-10.7305
舛	-10.7305
儋	-10.7307
膠	-10.7309
人事	-10.7324
九十一	-10.7325
矣今	-10.7329
只	-10.7329
已酉	-10.733
而進	-10.7332
安世	-10.7335
不法	-10.7336
朝議	-10.7337
永寧	-10.7339
節度使李	-10.7343
艦	-10.7344
五十九	-10.735
祫	-10.7356
竿	-10.736
棲	-10.7361
是後	-10.7361
舊唐書卷一百	-10.7363
經一卷	-10.7364
上林	-10.7365
朋黨	-10.7366
其有	-10.7367
始祖	-10.7374
武德	-10.7374
始興	-10.7385
斫	-10.7387
聊	-10.7388
張氏	-10.7389
外國	-10.7389
欲殺	-10.7389
三度	-10.7394
因其	-10.7396
從軍	-10.7399
一家	-10.7401
百戸	-10.7404
年七十	-10.7406
永徽	-10.7406
州人	-10.7407
進兵	-10.7412
亰	-10.7413
已死	-10.7416
抽	-10.7418
亾	-10.7418
東魏	-10.7419
緩急	-10.7429
討賊	-10.7429
棄之	-10.7429
厲王	-10.743
𢎞農	-10.743
侍臣	-10.7431
五曰	-10.7433
望見	-10.7435
建徳	-10.7438
西面	-10.7439
粉	-10.744
樞密副使	-10.7442
剖	-10.7445
畨	-10.7446
代宗	-10.7447
之象也	-10.7448
嬖	-10.7449
對曰臣	-10.7457
知州	-10.7457
京口	-10.7459
日蝕	-10.7462
廣州刺史	-10.7463
靈州	-10.7467
二郡	-10.7473
廊	-10.7473
烏孫	-10.7474
左氏	-10.7479
逢吉	-10.7487
經義	-10.7488
下獄	-10.7488
縣四	-10.7488
縣西	-10.7488
大驚	-10.7489
伐齊	-10.7489
安撫司	-10.749
如其	-10.7492
太初	-10.7497
酺	-10.7497
户口	-10.7497
氊	-10.7497
鉉	-10.7498
識者	-10.7499
土地	-10.7499
者非	-10.75
惰	-10.75
河水	-10.7502
主事	-10.7502
車馬	-10.7503
涓	-10.751
不雨	-10.7512
戰死	-10.7515
勰	-10.7518
在於	-10.752
壬	-10.752
在此	-10.7522
郵	-10.7522
王道	-10.7522
所有	-10.7523
孝公	-10.7524
九日	-10.7526
始置	-10.7526
三年春正月	-10.7529
九卷	-10.753
六分	-10.7532
佳	-10.7532
請降	-10.7533
不測	-10.7538
正旦	-10.7538
曲赦	-10.7541
稱臣	-10.7542
所由	-10.7542
僮	-10.7549
月在	-10.7551
食其	-10.7555
猶有	-10.7556
秦檜	-10.7556
儒者	-10.7557
天徳	-10.7559
倣	-10.7559
罍	-10.7559
眇	-10.756
疑其	-10.7562
先王之	-10.7562
州廢	-10.7563
孟嘗君	-10.7564
殿上	-10.7564
千餘里	-10.7564
千二百	-10.7565
萬嵗	-10.7565
陳王	-10.7569
世之	-10.7569
潭州	-10.7579
大亂	-10.758
其本	-10.7581
萬一	-10.7583
自立為	-10.7583
六十五	-10.7583
陁	-10.7585
㝢	-10.7587
已丑	-10.759
醴	-10.759
閹	-10.7591
已未	-10.7596
庶子	-10.76
隰	-10.7601
义	-10.7607
安州	-10.7609
位至	-10.761
萬計	-10.7612
北至	-10.7617
黥	-10.762
前將軍	-10.7626
天聖	-10.7627
如前	-10.7628
行軍司馬	-10.7629
故不	-10.7632
以西	-10.7635
授以	-10.7636
周天	-10.7637
三等	-10.7638
旻	-10.7638
埓	-10.7639
金陵	-10.764
書云	-10.7641
晉人	-10.7641
第八	-10.7642
趙氏	-10.7642
歐陽	-10.7643
欠	-10.7645
2	-10.7645
羣官	-10.7645
告之	-10.7646
元年春正月	-10.7647
不自安	-10.7648
武都	-10.765
稹	-10.765
州别駕	-10.765
不聴	-10.7652
以東	-10.7652
騎兵	-10.7655
有疾	-10.7658
及至	-10.7659
為民	-10.766
七十五	-10.7663
八十一	-10.7664
朝堂	-10.7665
即皇帝位	-10.7666
紗	-10.767
信之	-10.7673
禮之	-10.7673
十五日	-10.7673
蒼梧	-10.7675
此事	-10.7675
蹙	-10.7676
中京	-10.7677
博學	-10.7679
宦官	-10.7679
矛	-10.7682
八日	-10.7682
上疏曰	-10.7683
别將	-10.7686
元中書右丞相總裁托克托等修列傳第	-10.7688
瑱	-10.7689
年表	-10.769
鎔	-10.7694
晝見	-10.7697
中書舎人	-10.7703
揮	-10.7704
十數	-10.7704
4	-10.7704
梗	-10.7705
威將軍	-10.7706
百匹	-10.7707
棟	-10.7708
冠軍	-10.7708
欲與	-10.7712
阿里	-10.7712
尋為	-10.7716
於人	-10.7719
振武	-10.7724
将士	-10.7724
終於	-10.7725
犯法	-10.7726
交通	-10.7727
伏兵	-10.773
二年四月	-10.773
朝廷以	-10.7731
不取	-10.7733
3	-10.7733
六品	-10.7734
典禮	-10.7735
党項	-10.7735
顯宗	-10.7736
藁	-10.7737
干戈	-10.7741
俎	-10.7742
為賊所	-10.7742
曰善	-10.7743
諸君	-10.7743
賊衆	-10.7743
蹇	-10.7745
復入	-10.7752
黃帝	-10.7753
兼御史大夫	-10.7754
䕃	-10.7758
止於	-10.7759
及長	-10.7762
攷	-10.7762
跋	-10.7764
有㫖	-10.7765
臨洮	-10.7766
冝	-10.7766
終始	-10.7768
聿	-10.7769
去官	-10.7776
國初	-10.7783
大使	-10.7783
入内	-10.7786
桓帝	-10.7787
萬二千	-10.7791
厲公	-10.7792
服其	-10.7793
安豐	-10.7793
然也	-10.7795
偷	-10.7795
顓	-10.7796
煙	-10.7798
牛馬	-10.7798
張良	-10.7799
秦州刺史	-10.7803
廣徳	-10.7804
不治	-10.7805
白虎	-10.7807
今若	-10.7808
以進	-10.781
乃出	-10.781
歩騎	-10.7814
别駕	-10.7815
起居注	-10.7817
不服	-10.7818
善之	-10.7819
夏州	-10.7822
暹	-10.7823
鷄	-10.7825
炭	-10.7827
僊	-10.7828
不加	-10.7828
二千人	-10.7829
病死	-10.783
七廟	-10.7833
朝貢	-10.7833
擊破	-10.7835
五十一	-10.7838
衛上將軍	-10.784
之䇿	-10.7846
為君	-10.7847
後以	-10.7849
曰是	-10.7849
時政	-10.7851
5	-10.7853
右諫議大夫	-10.7853
六合	-10.7853
武威	-10.7856
購	-10.7857
無他	-10.7857
至則	-10.7858
中常侍	-10.786
涕泣	-10.7861
文昌	-10.7862
后妃	-10.7862
治中	-10.7863
西夏	-10.7866
糶	-10.7867
加散騎常侍	-10.7869
義宣	-10.7871
陳州	-10.7874
今陛下	-10.7876
巴陵	-10.7877
南至	-10.7878
臣恐	-10.7878
建隆	-10.7879
㫁	-10.7882
慷慨	-10.7883
臨海	-10.7883
非所	-10.7885
挽	-10.7885
奥	-10.7886
安置	-10.7887
怡	-10.7889
堯舜	-10.7889
如舊	-10.7889
大者	-10.7889
章句	-10.7891
殖	-10.7894
並同	-10.7898
踰年	-10.7902
遼西	-10.7902
表請	-10.7906
大國	-10.7906
開門	-10.7906
弱冠	-10.7909
不稱	-10.7909
詔曰朕	-10.7909
正三品	-10.791
泌	-10.7911
撤	-10.7912
人物	-10.7918
相持	-10.7919
小兒	-10.7924
成侯	-10.7925
今據	-10.7925
二年五月	-10.7926
安能	-10.7929
主者	-10.793
都城	-10.7931
緬	-10.7932
欲使	-10.7932
其兄	-10.7933
堅守	-10.7938
曰王	-10.7938
散官	-10.7939
還至	-10.794
景宗	-10.7942
非其	-10.7942
寗	-10.7944
窘	-10.7949
聖徳	-10.795
圍之	-10.795
楚之	-10.7951
詩書	-10.7951
氏之	-10.7954
東道	-10.796
文武官	-10.7961
襲封	-10.7962
將校	-10.7967
冊寶	-10.7972
雩	-10.7973
紏	-10.7973
所奏	-10.7973
轍	-10.7974
膚	-10.7975
東川	-10.7979
凍	-10.798
月掩	-10.798
笙	-10.798
曰大	-10.7982
五官	-10.7982
其屬	-10.7987
諭之	-10.7987
古文	-10.7988
自相	-10.7989
扈從	-10.799
八十四	-10.7993
一十五	-10.7994
得一	-10.7996
此時	-10.7997
琿	-10.7998
今後	-10.8001
十二度	-10.8001
後復	-10.8003
諸公	-10.8005
武徳四年	-10.8006
推之	-10.8008
幅	-10.8008
巡檢	-10.8008
守將	-10.8008
竈	-10.8011
韓王	-10.8013
降者	-10.8017
者三	-10.8017
吕后	-10.802
後人	-10.8021
城西	-10.8023
四星	-10.8026
架	-10.8027
兗州	-10.803
五巻	-10.803
猶未	-10.8032
衞將軍	-10.8032
然之	-10.8032
皂	-10.8033
其軍	-10.8033
璣	-10.8039
逝	-10.8041
然其	-10.8042
豪傑	-10.8043
無遺	-10.8048
不獲	-10.8049
輔國	-10.8055
留之	-10.8057
杭	-10.8058
四縣	-10.8059
有變	-10.806
惠公	-10.806
作樂	-10.8061
同姓	-10.8062
悉以	-10.8063
粥	-10.8067
西山	-10.8074
必先	-10.8074
拒戰	-10.8081
如初	-10.8082
末帝	-10.8083
天寶	-10.8085
安危	-10.8086
益州刺史	-10.8087
縣男	-10.8087
太子太傅	-10.8089
晞	-10.809
重誨	-10.8093
還都	-10.8093
槃	-10.8096
從子	-10.8097
月令	-10.8097
功徳	-10.8098
蠧	-10.8099
事有	-10.81
莅	-10.81
踈	-10.8102
曹參軍	-10.8103
又請	-10.8104
公羊	-10.8105
西魏	-10.8105
之道也	-10.8108
薨子	-10.8111
臨朝	-10.8113
楚州	-10.8113
次子	-10.8114
郎中令	-10.8121
二年六月	-10.8122
人馬	-10.8124
交阯	-10.8125
緊	-10.8126
文宣	-10.8131
延壽	-10.8133
大抵	-10.8135
宋祁	-10.8135
死而	-10.8137
之學	-10.8139
大鴻臚	-10.8139
立廟	-10.8139
刑法	-10.8141
其次	-10.8141
於時	-10.8146
九人	-10.8146
光禄	-10.8154
當今	-10.8156
莫若	-10.8156
虔	-10.8158
鳩	-10.8158
泰和	-10.8159
覬	-10.816
䖏	-10.8161
灰	-10.8164
則是	-10.8164
以罪	-10.8166
廣東	-10.8167
正四品	-10.8169
臨川	-10.817
大将	-10.8172
吳楚	-10.8173
師古曰謂	-10.8176
簽	-10.8176
獨不	-10.8181
紘	-10.8184
又音	-10.8186
閼	-10.8186
餘為	-10.8187
賦詩	-10.8188
令人	-10.8189
聶	-10.8189
的	-10.819
音義	-10.8192
犧	-10.8193
起於	-10.8193
嘗與	-10.8195
愬	-10.8195
武公	-10.8196
班固	-10.8197
小字	-10.8197
字元	-10.8199
平公	-10.8202
之孫	-10.8203
餘皆	-10.8212
所出	-10.8213
大元兵	-10.8216
自守	-10.8217
毆	-10.8219
兵馬使	-10.8221
仆	-10.8222
以書	-10.8223
起居郎	-10.8223
蔡邕	-10.8225
乃復	-10.8225
禽獸	-10.823
其將	-10.8231
白氣	-10.8234
定襄	-10.8237
七十七	-10.8238
徙居	-10.8238
固請	-10.8238
江北	-10.824
第一星	-10.824
滅之	-10.8242
建昌	-10.8242
金兵	-10.8244
潼闗	-10.8246
宗社	-10.8246
或謂	-10.8246
西征	-10.8247
豈得	-10.825
千六百	-10.8251
選人	-10.8251
憾	-10.8254
建議	-10.8257
太學博士	-10.8258
退保	-10.8258
兼中書令	-10.8261
學官	-10.8263
酋長	-10.8268
相望	-10.8269
瀛州	-10.8275
叅知政事	-10.8276
賜姓	-10.8282
元景	-10.8282
􁀙	-10.8284
武平	-10.8286
倉卒	-10.8286
之敗	-10.8289
故城在	-10.829
髙平	-10.8294
彦章	-10.8294
鄉人	-10.8295
初立	-10.8295
延州	-10.8296
兵革	-10.8301
燈	-10.8305
章宗	-10.8307
從兄	-10.8307
瑋	-10.8308
遘	-10.8313
獻帝	-10.8318
消息	-10.8319
義熙	-10.8319
牆	-10.8319
黎陽	-10.832
李竒曰	-10.8322
零陵	-10.8323
南伐	-10.8324
將吏	-10.8327
二王	-10.8327
改授	-10.8327
奏之	-10.8328
山縣	-10.833
有五	-10.8333
艘	-10.8337
使還	-10.8342
六百石	-10.8346
珣	-10.8346
顯徳	-10.8346
看	-10.8346
筮	-10.8347
帑	-10.8347
率師	-10.8349
若是	-10.8355
成敗	-10.8355
熙河	-10.8356
以身	-10.8364
五車	-10.8365
兗	-10.8367
在前	-10.837
騎射	-10.8372
紀綱	-10.8376
樂章	-10.8377
帝命	-10.8378
驃騎大將軍	-10.8378
塹	-10.8378
繋	-10.8379
齊桓公	-10.8379
䑕	-10.8382
使持節都督	-10.839
興師	-10.8391
唐虞	-10.8393
所稱	-10.8393
成宗	-10.8393
汝州	-10.8396
民多	-10.8398
二品	-10.84
汶	-10.8402
估	-10.8404
簾	-10.8406
蠡	-10.8407
剏	-10.8408
侯子	-10.8408
郷	-10.841
青龍	-10.841
後唐	-10.8413
不知所	-10.8413
七十三	-10.8415
聖宗	-10.8417
雲氣	-10.8419
盡忠	-10.8423
十餘里	-10.8426
陽郡	-10.8427
博囉	-10.8427
與語	-10.8428
未詳	-10.8428
汜	-10.8429
宋史巻	-10.8436
舟師	-10.8437
提刑	-10.8438
模	-10.8438
者乃	-10.8438
皁	-10.8439
徙封	-10.844
餽	-10.8441
執中	-10.8449
燕京	-10.845
四十里	-10.845
歩軍	-10.845
烝	-10.8451
乾徳	-10.8453
不息	-10.8458
度及分	-10.8461
長興	-10.8462
送之	-10.8462
虹	-10.8463
人才	-10.8464
哷	-10.8465
與人	-10.8465
重榮	-10.8467
部族	-10.8469
州司馬	-10.8469
當是時	-10.8471
大體	-10.8471
人少	-10.8473
於下	-10.8474
不果	-10.8478
殃	-10.8479
學校	-10.8481
大如	-10.8482
為我	-10.8483
濟北	-10.8486
僧格	-10.8487
待罪	-10.849
同時	-10.8494
尋加	-10.8494
洛州	-10.8496
何必	-10.8498
八十七	-10.8498
幘	-10.8499
尊卑	-10.85
者或	-10.8502
盆	-10.8504
郯	-10.8505
本官	-10.8506
立春	-10.8507
延安	-10.8508
五十人	-10.8509
吳興	-10.851
邳	-10.8511
無常	-10.8511
有闕	-10.8512
之長	-10.8514
宿度	-10.8521
商人	-10.8523
拾遺	-10.8527
滔	-10.8528
皆得	-10.8528
豳	-10.8531
覘	-10.8532
大呼	-10.8533
還宫	-10.8535
運司	-10.8536
濶	-10.8538
其首	-10.8538
訣	-10.854
一百六十	-10.854
爾雅	-10.8542
邃	-10.8542
一千二百	-10.8545
魏博	-10.8546
城在	-10.8546
租賦	-10.8549
形勢	-10.855
下詔曰	-10.855
利州	-10.8552
涪	-10.8557
王儉	-10.8561
以為不可	-10.8568
恊	-10.8569
擊匈奴	-10.857
中道	-10.8573
三百人	-10.8577
察之	-10.8579
不解	-10.858
興國	-10.8589
簡文	-10.8589
謂人曰	-10.8593
詔賜	-10.8596
汚	-10.8599
上流	-10.8602
聰明	-10.8602
㕔	-10.8603
顓頊	-10.8603
必欲	-10.8605
郃	-10.8605
淄	-10.8607
城東	-10.8607
靈王	-10.8607
絳侯	-10.8608
太子賔客	-10.8611
視其	-10.8612
以實	-10.8616
周室	-10.8617
其兵	-10.8618
馬邑	-10.8618
手詔	-10.862
睢	-10.8623
有常	-10.8624
大觀	-10.8625
南唐	-10.8627
為刺史	-10.8629
伯玉	-10.8629
檢校太保	-10.863
瑟	-10.8631
兖州刺史	-10.8633
等議	-10.8635
兵圍	-10.8639
天祥	-10.8644
故城在今	-10.8646
舉人	-10.8646
奏聞	-10.8648
提控	-10.8653
乃自	-10.8655
之資	-10.8656
尋以	-10.8656
弟也	-10.8656
為天下	-10.8657
也於是	-10.8657
無疆	-10.8659
汰	-10.866
牘	-10.866
暠	-10.8661
入關	-10.8664
五年正月	-10.8664
售	-10.8664
妓	-10.8666
雋	-10.8667
訾	-10.8667
鵲	-10.8668
謡	-10.867
遣使來	-10.8672
還朝	-10.8672
安民	-10.8672
宿衞	-10.8675
字也	-10.8677
晉陵	-10.8678
。|||	-10.868
駙馬	-10.8681
其聲	-10.8681
。||	-10.8684
赴之	-10.8687
彗星	-10.869
麴	-10.8693
轂	-10.8695
二星	-10.8695
呉王	-10.87
轉運副使	-10.8701
事皆	-10.8702
不避	-10.8703
之力	-10.8703
先鋒	-10.8704
三嵗	-10.8706
湘州刺史	-10.8706
廬舍	-10.8707
乘之	-10.8708
長短	-10.8709
梁武帝	-10.871
壝	-10.8711
有隙	-10.8714
六十一	-10.8715
升為	-10.8715
進討	-10.8717
圖之	-10.8722
洺	-10.8725
太醫	-10.8726
徐廣	-10.8729
主客	-10.8729
于是	-10.873
禆	-10.873
山下	-10.8735
祭天	-10.8736
宋史巻一百	-10.8738
定制	-10.8738
表裏	-10.8741
郭璞曰	-10.8745
六十九	-10.8747
三年二月	-10.875
鞍	-10.875
也臣	-10.8751
提㸃刑獄	-10.8753
拾	-10.8757
元徽	-10.8759
6	-10.876
碧	-10.8761
太府	-10.8764
詵	-10.8765
夙夜	-10.8768
萬貫	-10.877
工部	-10.8772
七十餘	-10.8774
山崩	-10.8774
冒頓	-10.8774
一軍	-10.8775
從八品	-10.8778
論之	-10.878
一官	-10.8786
六十六	-10.8787
校書郎	-10.8788
端明殿學士	-10.8789
拜為	-10.8792
瑕	-10.8792
汝等	-10.8795
鱗	-10.8795
怖	-10.8796
珥	-10.8797
入洛	-10.8797
叶	-10.8797
叩頭	-10.8798
楊氏	-10.8801
譯史	-10.8801
貝州	-10.8802
罷兵	-10.8804
一也	-10.8806
縣有	-10.8811
假節	-10.8813
記云	-10.8814
謚曰	-10.8818
安陸	-10.8818
非有	-10.8819
不動	-10.8819
戰功	-10.8821
殺傷	-10.8823
論者	-10.8824
甲兵	-10.8824
濟州	-10.8825
此人	-10.8826
庇	-10.8829
孝子	-10.8829
湟	-10.883
豈能	-10.883
鹵	-10.883
與俱	-10.8831
戀	-10.8832
田宅	-10.8832
楯	-10.8836
以父	-10.8836
稱為	-10.8842
為帝	-10.8842
乘勝	-10.8846
群	-10.8846
吳越	-10.8847
山西	-10.8847
代州	-10.8848
淳于	-10.8852
噲	-10.8858
自以為	-10.886
縦	-10.886
慝	-10.886
懈	-10.8863
一十二	-10.8866
各二人	-10.8868
六十八	-10.8871
二千五百	-10.8872
夷狄	-10.8873
懷王	-10.8878
城守	-10.8878
哀公	-10.8879
惶	-10.8884
宗弼	-10.8884
安之	-10.8886
之分	-10.8886
大舉	-10.8886
錡	-10.8887
以死	-10.889
復與	-10.8891
萬户府	-10.8891
疊	-10.8891
漢之	-10.8892
複	-10.8893
馨	-10.8896
迥	-10.8896
州府	-10.8896
葺	-10.8897
侔	-10.8898
本傳	-10.8899
洙	-10.89
輔臣	-10.8902
築城	-10.8902
以是	-10.8906
與王	-10.8909
不豫	-10.891
召拜	-10.8912
郢州刺史	-10.8912
伐之	-10.8913
不亦	-10.8918
翰林學士承㫖	-10.892
東宮	-10.8921
年六十	-10.8921
羗	-10.8922
萬匹	-10.8922
皇統	-10.8925
箱	-10.8929
天水	-10.893
所當	-10.8931
三十萬	-10.8933
長官	-10.8933
知樞密院事	-10.8935
時事	-10.8936
西上	-10.8937
守令	-10.894
處士	-10.894
庶幾	-10.8941
問其故	-10.8941
察其	-10.8942
北軍	-10.8945
醫藥	-10.8946
陳餘	-10.8948
食甚	-10.8951
五千人	-10.8955
監修國史	-10.8957
畆	-10.8958
合於	-10.8959
耽	-10.8959
於西	-10.896
守禦	-10.8961
釋奠	-10.8961
中官	-10.8963
批	-10.8963
䟽	-10.8965
正五品	-10.8966
前鋒	-10.8967
縣五	-10.8967
跨	-10.8967
在州	-10.8968
士民	-10.8969
待詔	-10.897
黄門郎	-10.8971
民有	-10.8972
平地	-10.8972
與秦	-10.8973
之辭	-10.8974
不暇	-10.8975
悼公	-10.8981
不肖	-10.8986
汴梁	-10.8986
字文	-10.8986
世忠	-10.8987
戸部侍郎	-10.8988
吏人	-10.8988
閫	-10.8989
穆昆	-10.899
粤	-10.8993
良久	-10.8994
企	-10.8998
狩	-10.8998
升降	-10.8999
功名	-10.9
瓉	-10.9
建國	-10.9003
武陵王	-10.9005
皆從	-10.9008
生民	-10.9009
其制	-10.901
宣公	-10.9011
明經	-10.9013
之所以	-10.9018
立是為	-10.9018
一尺	-10.9022
帽	-10.9024
害稼	-10.9025
日法	-10.9026
廢立	-10.9027
中兵參軍	-10.9027
少時	-10.9031
隆興	-10.9032
勳	-10.9032
讜	-10.9035
四員	-10.9036
大辟	-10.9039
五十里	-10.904
▁六	-10.904
大駕	-10.904
大樂	-10.9046
磁	-10.9047
唐古	-10.9048
積度	-10.9049
遺詔	-10.905
徴為	-10.9052
為大司馬	-10.9059
寐	-10.906
鵠	-10.9061
慘	-10.9062
磐	-10.9063
安陽	-10.9063
騐	-10.9064
人倫	-10.9065
二年三月	-10.9067
魏晉	-10.9068
千秋	-10.907
其弊	-10.907
臣意	-10.9071
慶州	-10.9071
元忠	-10.9072
賊帥	-10.9073
故人	-10.9073
善惡	-10.9074
每嵗	-10.9077
繫囚	-10.9077
恐其	-10.9078
歐陽史	-10.9078
淮北	-10.9079
列傳第十	-10.9081
交州	-10.9083
縣北	-10.9087
珏	-10.9087
委以	-10.9087
軍校	-10.9088
盱眙	-10.9089
7	-10.909
列傳第三十	-10.9092
未定	-10.9092
峯	-10.9093
麤	-10.9097
藍田	-10.9098
觀察	-10.9099
歸附	-10.9103
處置	-10.9106
歲星	-10.9109
魏氏	-10.9115
哀王	-10.9117
瑒	-10.912
已定	-10.912
不軌	-10.9121
生擒	-10.9123
儀仗	-10.9124
寧朔將軍	-10.9124
交趾	-10.9125
拙	-10.9125
竒之	-10.9125
不善	-10.9127
亭長	-10.9127
初獻	-10.9128
太陽	-10.9131
内有	-10.9133
地理	-10.9133
凡三	-10.9139
疾病	-10.914
而能	-10.9142
帳下	-10.9142
鄜延	-10.915
三年三月	-10.9158
慤	-10.9164
莭	-10.9164
不願	-10.9166
三百六十	-10.9166
涿	-10.9166
天意	-10.9167
管内	-10.9167
所親	-10.9169
爛	-10.9169
犯房	-10.917
委任	-10.917
此皆	-10.9173
三十一年	-10.9173
海州	-10.9175
泰州	-10.9175
絶其	-10.9176
金帶	-10.9181
開國	-10.9182
其月	-10.9186
又加	-10.9189
豨	-10.919
人人	-10.9193
舄	-10.9195
茲	-10.9196
羣牧	-10.9197
邊事	-10.9197
蘇秦	-10.92
㤙	-10.92
袁盎	-10.92
千載	-10.9201
馬歩軍	-10.9202
未拜	-10.9205
臨安府	-10.9205
非一	-10.921
島	-10.9211
肝	-10.9211
惠帝	-10.9214
之失	-10.9218
朔以	-10.9219
日中	-10.9219
未嘗不	-10.9222
厮	-10.9224
其舊	-10.9226
猾	-10.9227
司農	-10.923
㝷	-10.9231
領軍將軍	-10.9231
搢笏	-10.9233
頓首	-10.9238
陽平	-10.9239
司吏	-10.9239
一言	-10.9243
行中書省	-10.9244
漕運	-10.925
義興	-10.9252
戰敗	-10.9254
卒官	-10.9254
月日	-10.9254
而反	-10.926
舊典	-10.9261
五等	-10.9261
宋史巻二百	-10.9263
㪚	-10.9265
綠	-10.9265
黜陟	-10.9266
眀堂	-10.9266
盪	-10.9267
燕趙	-10.9268
詔遣	-10.9268
袴	-10.9268
得以	-10.9271
汾州	-10.9274
傕	-10.9274
歎息	-10.9276
侯劉	-10.9278
元光	-10.9278
牌	-10.9283
威儀	-10.9284
於世	-10.9287
召之	-10.9288
七十九	-10.929
出自	-10.9291
二百八十	-10.9294
竦	-10.9296
聖王	-10.9296
帝遣	-10.9297
殂	-10.9298
景祐	-10.9298
朽	-10.93
聖人之	-10.9301
挈	-10.9303
元年七月	-10.9303
餘黨	-10.9303
祗候	-10.9304
正始	-10.9306
崇韜	-10.9311
蚡	-10.9313
帝親	-10.9315
攻破	-10.9315
西至	-10.932
管軍	-10.9322
百家	-10.9323
出鎮	-10.9324
脉	-10.9325
矣然	-10.9328
無此	-10.933
銀青光禄大夫	-10.933
褐	-10.9331
獲免	-10.9332
岷	-10.9333
灾	-10.9334
昭穆	-10.9337
蹤	-10.9338
委之	-10.9339
恚	-10.934
所向	-10.9342
二十巻	-10.9345
自將	-10.9345
劒南	-10.9348
之憂	-10.935
而自	-10.9351
土貢	-10.9352
有過	-10.9354
宗翰	-10.9354
保甲	-10.9355
七十八	-10.9362
今欲	-10.9363
元年三月	-10.9363
昕	-10.9365
文義	-10.9365
列傳第二十	-10.9365
三路	-10.9366
明昌	-10.9366
以問	-10.9367
國朝	-10.9368
非是	-10.9373
廣南	-10.9373
絜	-10.9377
夷簡	-10.9377
北門	-10.938
可否	-10.9387
主帥	-10.9388
近代	-10.9389
兵於	-10.9391
𣙜	-10.9396
元年五月	-10.9396
而未	-10.9397
後齊	-10.94
在朝	-10.9405
妬	-10.9407
所載	-10.9408
軍還	-10.9408
所執	-10.9408
分司	-10.9408
無故	-10.9409
十匹	-10.9409
儒學	-10.941
冥	-10.941
椎	-10.9411
樞宻	-10.9418
天保	-10.9418
守貞	-10.942
之要	-10.9421
馮道	-10.9422
之望	-10.9423
以濟	-10.9423
初即位	-10.9425
六萬	-10.9427
五里	-10.943
隋書卷	-10.9432
渡淮	-10.9432
遙	-10.9433
一丈	-10.9434
以定	-10.9435
京官	-10.9435
大夏	-10.9436
引軍	-10.9436
鎮軍	-10.9437
两	-10.9439
佚	-10.944
嘏	-10.9441
躁	-10.9442
騎都尉	-10.9442
籥	-10.9443
以俟	-10.9444
常州	-10.9445
累加	-10.9445
雇	-10.9446
禁止	-10.9448
而成	-10.9449
祖父	-10.945
亘	-10.9455
東觀記曰	-10.9455
有事	-10.9456
蜀郡	-10.9457
衆心	-10.9458
以助	-10.9461
兵敗	-10.9462
第九	-10.9462
祇	-10.9467
不屈	-10.9468
詳衮	-10.9468
懐光	-10.9472
八十三	-10.9472
梧	-10.9472
合于	-10.9472
綘	-10.9474
脯	-10.9476
大饑	-10.9479
彘	-10.948
建寧	-10.9481
長於	-10.9481
華陽	-10.9492
財賦	-10.9494
七十六	-10.9498
貞祐	-10.9499
便殿	-10.9501
少尹	-10.9502
天禧	-10.9504
戰國	-10.9506
給事黄門侍郎	-10.9507
知人	-10.9508
南徐州刺史	-10.951
掌書記	-10.951
翳	-10.9511
居中	-10.9512
股肱	-10.9513
赴行在	-10.9515
稱賀	-10.9515
不敬	-10.9517
國也	-10.9518
直長	-10.9519
送神	-10.9519
其明年	-10.952
告急	-10.9527
屬縣	-10.9527
歸於	-10.9529
陵侯	-10.953
録事	-10.9531
水溢	-10.9532
昭帝	-10.9534
萬一千	-10.9535
龜兹	-10.9541
諡曰文	-10.9541
以北	-10.9545
卿士	-10.9547
同心	-10.9548
梯	-10.9548
南平	-10.955
檢校司徒	-10.955
初以	-10.9554
宋初	-10.9555
今改	-10.9555
以金	-10.9556
入焉	-10.9556
而東	-10.956
孫也	-10.9561
去年	-10.9563
民饑	-10.9568
積年	-10.9572
倪	-10.9574
分遣	-10.9578
擕	-10.9579
吟	-10.9581
之說	-10.9582
瑶	-10.9582
沴	-10.9583
禮儀使	-10.9584
巽	-10.9584
頽	-10.9584
朱熹	-10.9584
無後	-10.9585
望風	-10.9586
為吏	-10.9589
祖母	-10.9592
有徳	-10.9592
以象	-10.9595
或作	-10.9597
正光	-10.9599
也謂	-10.9599
因循	-10.9605
盡力	-10.9606
曰彼	-10.9608
凡有	-10.961
幽王	-10.9615
研	-10.9616
正隆	-10.9618
開平	-10.9618
乾祐	-10.962
兼侍讀	-10.9623
人或	-10.9624
注曰	-10.9625
董卓	-10.9626
辟為	-10.9626
司州	-10.9629
伐楚	-10.9629
乍	-10.963
建平	-10.9634
出帝	-10.9637
逃亡	-10.9637
莫知	-10.9643
藍	-10.9646
湘東王	-10.9646
召對	-10.9647
床	-10.9648
之次	-10.9648
小國	-10.9649
延光	-10.9652
卵	-10.9655
而西	-10.9656
靈太后	-10.9658
賢良	-10.966
考之	-10.9663
招集	-10.9663
無有	-10.9666
之禁	-10.9666
月蝕	-10.9667
鎧	-10.9674
城北	-10.9674
間道	-10.9675
邠州	-10.9677
入對	-10.9678
綱紀	-10.9682
憫	-10.9683
勒兵	-10.9683
出降	-10.9684
店	-10.9684
吏卒	-10.9685
之書	-10.9686
黄初	-10.9687
亡國	-10.9688
駢	-10.9689
南齊書卷	-10.9691
王琳	-10.9691
崧	-10.9692
太子少保	-10.9693
齊國	-10.9694
不進	-10.9695
之路	-10.9696
千騎	-10.9697
大敗之	-10.97
宋州	-10.97
殿門	-10.9703
永樂	-10.9703
論其	-10.9705
歴陽	-10.9705
之狀	-10.9706
都轉運使	-10.971
亦可	-10.9711
楚人	-10.9715
弓箭	-10.9715
陕西	-10.9715
昌邑	-10.9715
配享	-10.9717
又設	-10.9723
起居舍人	-10.9724
奉國	-10.9725
廣武	-10.9729
雎	-10.9729
不逮	-10.9733
五代史	-10.9734
伏見	-10.9735
和帝	-10.9736
永康	-10.9738
以法	-10.974
郎將	-10.9743
者其	-10.9743
重進	-10.9748
大赦改元	-10.9749
五原	-10.9749
姑洗	-10.975
呼曰	-10.9753
有寵	-10.9754
琨	-10.9755
縣西北	-10.9756
領之	-10.9757
勛	-10.9762
判度支	-10.9762
牡	-10.9762
晉安	-10.9763
蔑	-10.9764
自知	-10.9765
舊置	-10.9766
經歴	-10.9767
一本	-10.9767
行於世	-10.9767
代立	-10.9767
亦當	-10.9769
朝鮮	-10.977
廕	-10.977
日出	-10.9771
其説	-10.9771
病卒	-10.9771
殿直	-10.9771
以私	-10.9772
診	-10.9775
新蔡	-10.9775
朕甚	-10.9776
和州	-10.9779
事在	-10.978
召入	-10.9782
甘露	-10.9784
百五十	-10.9785
千三百	-10.9786
請和	-10.9786
皇考	-10.9788
邏	-10.979
群臣	-10.9794
蘆	-10.9794
他人	-10.9796
椒	-10.9798
宗望	-10.98
四十餘	-10.98
曽祖	-10.98
異姓	-10.9802
澭	-10.9803
少師	-10.9806
犯東井	-10.9806
太元	-10.9807
彦超	-10.9811
甘露降	-10.9816
以明	-10.9816
神龍	-10.9817
皆曰	-10.982
梁祖	-10.982
進取	-10.9821
諭以	-10.9822
秦漢	-10.9822
文集	-10.9826
墻	-10.9828
人無	-10.9828
都水監	-10.9829
煜	-10.9829
樓船	-10.983
敦煌	-10.9831
金紫光祿大夫	-10.9831
都事	-10.9833
猗	-10.9836
捉	-10.9836
選舉	-10.9836
纎	-10.984
三星	-10.9841
曹州	-10.9841
或言	-10.9842
初除	-10.9845
難以	-10.9845
宜陽	-10.9847
過人	-10.9848
中央	-10.9848
亞夫	-10.9852
敬則	-10.9852
命有司	-10.9857
其俗	-10.9858
童子	-10.986
次第	-10.986
崇文	-10.986
為天	-10.9863
杜預	-10.9864
愉	-10.9868
稟	-10.9868
與李	-10.987
為郡	-10.9872
轡	-10.9874
厠	-10.9875
懌	-10.9876
腐	-10.9877
之應也	-10.9879
衡陽	-10.988
二郡太守	-10.988
皇孫	-10.988
婦女	-10.9882
根本	-10.9885
其族	-10.9886
國夫人	-10.9893
集二十卷	-10.9894
名臣	-10.9894
又不	-10.9894
釗	-10.9898
峴	-10.99
闈	-10.9901
衛士	-10.9902
何得	-10.9902
扆	-10.9902
湜	-10.9903
荔	-10.9903
攜	-10.9905
吝	-10.9906
流血	-10.9907
靈帝	-10.9907
矦	-10.9907
軍吏	-10.9908
郡乾元元年復為	-10.9908
魏軍	-10.9909
六部	-10.9911
捕之	-10.9912
和議	-10.9913
而上	-10.9913
義兵	-10.9914
慰勞	-10.9915
漢祖	-10.9918
與諸	-10.9921
三國	-10.9923
戍兵	-10.9924
數嵗	-10.9926
於道	-10.9929
奏議	-10.9934
西戎	-10.9939
官司	-10.9939
任用	-10.9945
蓮	-10.9945
樊噲	-10.9945
圜丘	-10.9946
使其	-10.9946
與賊	-10.9947
中領軍	-10.9948
魏郡	-10.995
十三卷	-10.9953
征西	-10.9954
入東井	-10.9954
去其	-10.9957
軍敗	-10.996
其徒	-10.996
縣東北	-10.9964
元初	-10.9966
不任	-10.9967
塟	-10.997
擊走之	-10.9976
陕	-10.9977
遷都	-10.9977
凋	-10.9977
要害	-10.9977
中散大夫	-10.9978
丁母憂	-10.998
人間	-10.998
與同	-10.9981
於後	-10.9982
一十三	-10.9984
彤	-10.9984
孝文帝	-10.9985
為變	-10.9985
定國	-10.9987
徳威	-10.9993
吳郡	-10.9994
順天	-11.0002
為姦	-11.0002
親信	-11.0005
九十二	-11.0005
二三	-11.0005
曅	-11.0006
之語	-11.0007
親臨	-11.0008
遼主	-11.0011
孝友	-11.0014
彰徳	-11.0016
大逆	-11.0019
乃召	-11.002
占城	-11.0021
諭之曰	-11.0022
曰天下	-11.0022
兩人	-11.0024
篚	-11.0026
客星	-11.0028
而得	-11.0029
事者	-11.0029
二百七十	-11.0029
經術	-11.003
其氣	-11.003
定州刺史	-11.0031
董仲舒	-11.0032
詩一巻	-11.0033
亞獻	-11.0034
伊尹	-11.0036
苦之	-11.0038
為後	-11.0039
其行	-11.0039
七萬	-11.0043
憚之	-11.0044
咸通	-11.0046
貞觀元年	-11.0046
豫章王	-11.0049
兩京	-11.0051
亦為	-11.0052
栖	-11.0053
槐	-11.0053
蠟	-11.0053
霽	-11.0056
與弟	-11.0056
驍騎將軍	-11.0059
而殺之	-11.0062
加侍中	-11.0063
月氏	-11.0067
新除	-11.0068
祕書郎	-11.0068
泗水	-11.0074
站	-11.0078
常山王	-11.0079
北平	-11.0081
稱善	-11.0081
未敢	-11.0082
濼	-11.0086
呂后	-11.0087
書奏	-11.0088
皇天	-11.0088
諲	-11.0089
朕意	-11.0089
又從	-11.009
抃	-11.009
復用	-11.009
字叔	-11.0094
覲	-11.0095
引去	-11.0101
似道	-11.0103
統和	-11.0103
山澤	-11.0106
閬	-11.0106
憐之	-11.0108
烏桓	-11.0109
盛徳	-11.0112
宣諭	-11.0117
九十六	-11.0118
廬陵王	-11.0123
六尺	-11.0123
正色	-11.0123
尒朱	-11.0125
饒州	-11.0126
久不	-11.0126
尚有	-11.0126
縣界	-11.0127
迨	-11.0127
獨孤	-11.0129
通事	-11.0133
都統制	-11.0134
東面	-11.0135
招諭	-11.0136
已有	-11.0136
城外	-11.0137
呼圖克	-11.0138
道徳	-11.0142
當為	-11.0146
孝武帝	-11.0147
勃海	-11.0148
鄴都	-11.015
賞之	-11.0151
牛羊	-11.0155
七十一	-11.0156
資政殿學士	-11.0157
於市	-11.0161
幢	-11.0163
車服	-11.0163
勤王	-11.0163
營室	-11.0164
故以	-11.0165
搖	-11.0167
讞	-11.0167
傲	-11.0168
議論	-11.0169
庠	-11.0169
一夕	-11.0174
姦邪	-11.0174
山隂	-11.0175
利用	-11.0175
貌也	-11.0177
衡山	-11.0178
驍勇	-11.0178
後又	-11.0179
正言	-11.0182
嘉禾	-11.0183
異同	-11.0184
克用	-11.0185
相攻	-11.0186
三員	-11.0186
軍器	-11.0187
宣徳	-11.0189
仍為	-11.0196
轉運判官	-11.0197
一部	-11.0198
籩豆	-11.0203
贈太師	-11.0203
素服	-11.0204
定分	-11.0205
恩澤	-11.0206
濯	-11.0207
嗚呼	-11.0208
雌	-11.0208
酣	-11.0208
龕	-11.0208
世世	-11.0209
國子	-11.0214
贈侍中	-11.0215
寧逺	-11.0216
死子	-11.022
三世	-11.0223
自若	-11.0225
知樞宻院事	-11.0226
酈生	-11.0228
殿庭	-11.0231
平之	-11.0233
樞宻副使	-11.0234
員外散騎常侍	-11.0235
在上	-11.0238
鈴	-11.0239
右軍	-11.024
九十七	-11.0241
梁山	-11.0241
法駕	-11.0241
揭	-11.0241
鎰	-11.0243
登城	-11.0243
數千里	-11.0244
贏	-11.0245
尋復	-11.0245
教坊	-11.0246
勸農	-11.0247
為副	-11.0247
多矣	-11.0247
或云	-11.0247
鴟	-11.0247
太子少傅	-11.0249
於國	-11.0249
疑有	-11.0251
柰何	-11.0252
實錄	-11.0252
亦曰	-11.0255
坐事	-11.0258
女主	-11.0258
龍朔	-11.0259
大司徒	-11.0263
萬錠	-11.0264
不時	-11.0264
金玉	-11.0266
以防	-11.0268
沈約	-11.027
奉御	-11.0271
駞	-11.0271
迎之	-11.0273
無過	-11.0273
故地	-11.0275
怨望	-11.0275
疑之	-11.0277
罄	-11.0278
檢校工部尚書	-11.028
大歴	-11.028
滂	-11.0281
事君	-11.0282
恐懼	-11.0283
徵為	-11.0287
五尺	-11.0291
改知	-11.0291
低	-11.0292
六曰	-11.0297
孫權	-11.0298
湘州	-11.0301
有憂	-11.0302
所作	-11.0302
正六品	-11.0304
擒之	-11.0305
辭曰	-11.0305
集議	-11.0306
率府	-11.0307
宵	-11.031
回鶻	-11.0313
制以	-11.0314
新野	-11.0315
義恭	-11.0315
靈臺	-11.0316
澧	-11.0316
拒守	-11.0316
子貢	-11.0319
鄱陽	-11.032
烹	-11.0325
嵗時	-11.0326
諛	-11.0326
和尚	-11.0328
天興	-11.0328
極言	-11.033
羅索	-11.0335
為治	-11.0336
車駕幸	-11.0337
袁紹	-11.0337
不書	-11.0339
尚食	-11.0341
宰輔	-11.0343
阿蘇	-11.0344
蜀人	-11.0344
府州	-11.0345
文明	-11.0348
不給	-11.0348
大司空	-11.035
四年春正月	-11.035
蕪	-11.0351
相承	-11.0351
又命	-11.0351
朔日	-11.0352
萇	-11.0352
三老	-11.0353
貢舉	-11.0353
實封	-11.0354
道也	-11.0354
娥	-11.0355
僖宗	-11.0355
尒朱榮	-11.0357
初起	-11.0358
長平	-11.0358
緘	-11.0361
五品以上	-11.0365
曲沃	-11.0371
所屬	-11.0372
無名	-11.0375
三百里	-11.0376
安邑	-11.0376
湖州	-11.0379
褥	-11.0381
二年改	-11.0388
甚有	-11.039
管勾	-11.0392
其道	-11.0393
失利	-11.0394
子儀	-11.0394
婺州	-11.0394
白衣	-11.0395
訢	-11.0395
廨	-11.0396
毓	-11.0397
掖庭	-11.0399
覿	-11.0399
二百一十	-11.04
大理卿	-11.0402
徙知	-11.0403
為本	-11.0408
大統	-11.0408
天監	-11.041
阿珠	-11.0411
封侯	-11.0411
士馬	-11.0412
無禮	-11.0412
以下皆	-11.0415
詳議	-11.0418
賜錢	-11.0419
按此	-11.042
於内	-11.0422
昭儀	-11.0423
中書平章政事	-11.0425
小吏	-11.0425
㕘	-11.0426
納言	-11.0426
擊敗之	-11.0426
遇之	-11.0427
不一	-11.0427
七星	-11.0428
論事	-11.0428
少傅	-11.0429
催	-11.0431
周祖	-11.0433
伊遜	-11.0433
平侯	-11.0434
不附	-11.0434
縳	-11.0436
十分	-11.0438
涯	-11.0439
里至東都	-11.0439
舉哀	-11.0441
為害	-11.0442
九十九	-11.0442
乃可	-11.0443
而天下	-11.0444
王侯	-11.0445
置之	-11.0447
盡心	-11.0449
焚之	-11.0452
來者	-11.0453
正直	-11.0453
從三品	-11.0454
人言	-11.0455
七品	-11.0455
故其	-11.0455
南斗	-11.0456
朝官	-11.046
財用	-11.0463
奏言	-11.0464
休息	-11.0465
藹	-11.0469
顯慶	-11.047
一篇	-11.047
叩	-11.047
餌	-11.0473
被誅	-11.0479
言語	-11.048
閉門	-11.0481
一十八	-11.0481
若以	-11.0482
黄巢	-11.0484
衞尉	-11.0485
未足	-11.0487
之本	-11.0489
官員	-11.049
武侯	-11.0493
舊臣	-11.0494
皇祐	-11.0495
示之	-11.0498
内殿	-11.05
霖	-11.0501
又使	-11.0503
長春	-11.0503
征北	-11.0506
而言	-11.0506
貼	-11.0508
傭	-11.0511
先天	-11.0511
大計	-11.0513
莘	-11.0513
二十日	-11.0515
前日	-11.0516
圃	-11.0517
得人	-11.0518
帥府	-11.0518
春二月	-11.0518
苴	-11.0518
臺諫	-11.0519
路總管	-11.0519
韓琦	-11.052
建立	-11.0522
官給	-11.0522
三郡	-11.0527
霍光	-11.0528
時論	-11.0529
過也	-11.0534
二千户	-11.0535
而欲	-11.0537
飾以	-11.0538
遁走	-11.0538
為漢	-11.0543
四門	-11.0543
揀	-11.0543
一十七	-11.0543
問其	-11.0544
上供	-11.0546
懐王	-11.0547
一十九	-11.0548
榻	-11.0549
茹	-11.0549
闥	-11.0551
顧謂	-11.0552
後改	-11.0554
寒暑	-11.0555
詔從之	-11.0556
河隂	-11.0557
何故	-11.0559
項籍	-11.0559
從行	-11.056
足矣	-11.0561
各以其	-11.0564
年八十	-11.0564
其君	-11.0565
治道	-11.0565
去交	-11.0573
周書	-11.0576
中書郎	-11.0576
錄一卷	-11.058
方士	-11.0581
有名	-11.0581
歩兵校尉	-11.0583
縣東南	-11.0587
太子太保	-11.0589
濞	-11.0592
於今	-11.0593
𤣥謨	-11.0595
葦	-11.0596
長沙王	-11.0598
歸順	-11.06
為秦	-11.0601
善射	-11.0601
幣帛	-11.0603
修撰	-11.0604
帝王之	-11.0605
士人	-11.0607
漢魏	-11.0607
水災	-11.0607
文襄	-11.0608
順宗	-11.0608
布帛	-11.0611
大雅	-11.0613
大潰	-11.0614
涕	-11.0619
五寸	-11.0621
而民	-11.0625
十一卷	-11.0627
八十六	-11.0632
元鼎	-11.0632
開運	-11.0632
彫	-11.0632
淡	-11.0633
株	-11.0634
熲	-11.0636
匏	-11.0638
大懼	-11.0638
運糧	-11.064
嘉納	-11.0642
三年七月	-11.0644
欲得	-11.0648
梁州刺史	-11.0648
史館	-11.065
出納	-11.0651
焚其	-11.0651
列傳第一百	-11.0652
左遷	-11.0652
黙然	-11.0654
有言	-11.0654
後有	-11.0654
夫婦	-11.0654
減一	-11.0655
安縣	-11.0656
同中書門下三品	-11.0657
纘	-11.0657
台州	-11.0657
梁書卷	-11.0658
合肥	-11.0658
就位	-11.0659
樂工	-11.066
上殿	-11.0662
少而	-11.0662
寳應	-11.0663
骸	-11.0663
首尾	-11.0663
部署	-11.0664
西平	-11.0664
弋	-11.0667
贈太尉	-11.0667
于闐	-11.0667
俛伏興	-11.0669
詔贈	-11.0669
與此	-11.067
九十三	-11.0671
黥布	-11.0675
即今	-11.0675
西門	-11.0677
考滿	-11.0679
亦作	-11.068
御坐	-11.0682
歲餘	-11.0685
裨	-11.0686
六州	-11.0694
魏其	-11.0695
故得	-11.0695
武庫	-11.0697
始安	-11.0699
以相	-11.0699
受業	-11.07
不登	-11.0701
三年四月	-11.0702
八十九	-11.0702
其在	-11.0703
相公	-11.0703
思之	-11.0705
縑	-11.0706
倩	-11.0706
旂	-11.0707
古曰	-11.0707
比年	-11.0708
多有	-11.0709
復還	-11.0711
京房	-11.0712
不立	-11.0714
雖無	-11.0714
入侍	-11.0715
赦之	-11.0716
可知	-11.0716
為兵	-11.0718
初封	-11.0719
則無	-11.0722
舊有	-11.0723
之黨	-11.0723
遣之	-11.0725
同日	-11.073
高陽	-11.073
率所部	-11.0733
乃退	-11.0733
鎮南	-11.0733
惻	-11.0735
本國	-11.0735
壽春	-11.0736
縣三	-11.0737
之於是	-11.0738
殆盡	-11.0739
八十五	-11.0739
荘宗	-11.074
霑	-11.0747
鏘	-11.0748
窟	-11.0748
刁	-11.0748
撫軍將軍	-11.0748
十四卷	-11.0749
祖宗之	-11.0749
虗	-11.0749
也此	-11.0752
拔之	-11.0752
灑	-11.0752
廟庭	-11.0754
昊	-11.0755
醢	-11.0756
臣言	-11.0758
穆之	-11.0758
喪服	-11.0759
明矣	-11.0759
南門	-11.076
一本作	-11.076
有子	-11.0761
當是	-11.0761
也昔	-11.0761
復命	-11.0763
何者	-11.0768
良弼	-11.0771
退而	-11.0772
郎君	-11.0775
三寸	-11.0776
八尺	-11.0777
鶻	-11.0777
命婦	-11.0779
李斯	-11.0779
但以	-11.0779
在西	-11.078
員外散騎侍郎	-11.0781
一十四	-11.0782
使司	-11.0783
种	-11.0785
令漢舊縣	-11.0785
觜	-11.0785
棊	-11.0788
裹	-11.0788
計之	-11.0789
未見	-11.0789
近郊	-11.0791
反叛	-11.0791
此二	-11.0794
貧者	-11.0794
而生	-11.0795
列傳第四十	-11.0796
並以	-11.0797
淤	-11.0799
國主	-11.0799
詔罷	-11.0803
立秋	-11.0803
二百三十	-11.0805
犯輿鬼	-11.0806
王肅	-11.0808
武寧	-11.0809
顔色	-11.0813
又作	-11.0815
北極	-11.0817
合朔	-11.0817
未易	-11.0817
論議	-11.0819
每有	-11.0819
内官	-11.0821
江夏王義恭	-11.0823
彦威	-11.0824
匹夫	-11.0825
青白	-11.0826
鞾	-11.0827
引為	-11.0834
軍節度副使	-11.0834
明徳	-11.0835
同郡	-11.0836
靖康	-11.0839
上天	-11.084
笏	-11.0842
九十八	-11.0844
授之	-11.0848
累官	-11.0848
而罷	-11.0849
以充	-11.0849
正交	-11.085
是冬	-11.085
元吉	-11.0851
雅樂	-11.0853
配天	-11.0856
興和	-11.0857
不虞	-11.0858
歸朝	-11.0858
婺	-11.086
玉帶	-11.0861
鄜	-11.0863
矢石	-11.0863
魏書	-11.0863
大通	-11.0863
如意	-11.0864
後軍	-11.0864
苻堅	-11.0865
瀕	-11.0866
需	-11.0866
箴	-11.0866
堵	-11.0866
萃	-11.0867
攀	-11.0867
上意	-11.0867
黼	-11.0867
駁	-11.0867
儔	-11.0869
仇池	-11.087
巒	-11.0871
乃拜	-11.0871
伐蜀	-11.0872
建州	-11.0874
國政	-11.0874
澤州	-11.0877
不赴	-11.0878
優詔	-11.0879
太建	-11.0879
圖一卷	-11.0879
秦始皇	-11.0881
以避	-11.0883
漢書音義曰	-11.0885
掖門	-11.0885
乃引	-11.0896
其時	-11.0896
承業	-11.0897
叔孫	-11.0897
餓	-11.0897
藏之	-11.0898
尺二寸	-11.0899
汝愚	-11.0901
徭	-11.0904
陘	-11.0905
一星	-11.0905
峒	-11.0905
設官	-11.0906
忠武	-11.0906
記室參軍	-11.0908
左軍	-11.091
經筵	-11.091
膠西	-11.0911
逆行	-11.0914
再三	-11.0916
天官	-11.0918
所聞	-11.0918
以正	-11.0918
就國	-11.092
一百九十	-11.0922
約束	-11.0924
五六	-11.0927
定公	-11.0928
哈達	-11.093
昌言	-11.0931
畏之	-11.0932
衮冕	-11.0932
不祥	-11.0933
司農卿	-11.0936
百斤	-11.0936
存審	-11.0937
大戰	-11.0937
邜	-11.0938
遣子	-11.0943
蹕	-11.0944
王僧辯	-11.0944
宿州	-11.0945
少保	-11.0945
濱	-11.0946
之舊	-11.0949
槀	-11.0949
盧龍	-11.095
之勞	-11.0951
鄩	-11.0951
上封事	-11.0952
戸部尚書	-11.0956
聖朝	-11.0958
殿中監	-11.0959
諸人	-11.0965
供奉	-11.0966
悛	-11.0966
單騎	-11.0969
中和	-11.0971
分野	-11.0972
于太廟	-11.0975
貴戚	-11.0975
從攻	-11.0977
赦天下	-11.0978
始終	-11.0979
度餘	-11.0982
犯畢	-11.0983
州大中正	-11.0984
堆	-11.0984
北史	-11.0984
沈攸之	-11.0987
五州	-11.0988
閤門祗候	-11.0988
聖明	-11.0988
晁	-11.0989
泰定	-11.0992
甚盛	-11.0994
元康	-11.0998
不以為	-11.0999
二年八月	-11.0999
因言	-11.1
尚方	-11.1006
杯	-11.1009
一歲	-11.101
宋史巻三百	-11.1011
漢官	-11.1011
富人	-11.1012
木為	-11.1015
囚徒	-11.1021
八十八	-11.1021
諸色	-11.1022
復何	-11.1022
自有	-11.1023
可見	-11.1023
昭義	-11.1024
定差	-11.1024
精騎	-11.1025
之宜	-11.1026
越州	-11.1028
二年七月	-11.1028
偹	-11.1029
侍讀	-11.1029
鎮西	-11.1029
聞者	-11.103
於地	-11.103
肄	-11.1033
宿次	-11.1034
抜	-11.1036
記一卷	-11.1038
蓺	-11.1038
牖	-11.1039
一千三百	-11.1041
本部	-11.1042
一十六	-11.1043
為將軍	-11.1052
倉庫	-11.1057
不可復	-11.1057
之典	-11.1063
繖	-11.1065
困於	-11.1069
下至	-11.1069
禇	-11.107
酒食	-11.107
太子洗馬	-11.1072
婉	-11.1073
淑妃	-11.1073
洪州	-11.1074
亦云	-11.1074
不由	-11.1075
得志	-11.1075
据	-11.1075
舊章	-11.1077
千七百	-11.1077
別	-11.108
身死	-11.1081
眀帝	-11.1081
官及	-11.1085
四年二月	-11.1086
推恩	-11.1086
三年六月	-11.1086
致祭	-11.1089
都將	-11.109
不忠	-11.109
若夫	-11.109
有四	-11.1091
遣中使	-11.1091
元中書右丞相總裁托克托等修	-11.1091
犯軒轅	-11.1102
雲州	-11.1103
别有	-11.1104
文辭	-11.1104
春正月	-11.1105
化為	-11.1105
尺五寸	-11.1105
縉	-11.1106
増置	-11.1107
三十餘	-11.1107
孫子	-11.1108
手足	-11.1109
航	-11.1113
丸	-11.1114
彩	-11.1117
建初	-11.1117
十三日	-11.1118
皇帝諱	-11.1119
在南	-11.1119
鳥獸	-11.112
欲自	-11.1121
牧守	-11.1125
算外	-11.1126
雹	-11.1127
以取	-11.1128
死後	-11.1129
錢帛	-11.113
八萬	-11.1134
嵗月	-11.1138
萬民	-11.114
疾苦	-11.1141
數十里	-11.1147
具以	-11.1147
大學士	-11.1148
鬱林	-11.1149
千牛	-11.1149
萬機	-11.115
辟雍	-11.115
劾奏	-11.115
來賀	-11.1153
驥	-11.1155
怙	-11.1156
永和	-11.1157
穆爾	-11.1159
巨源	-11.1159
神農	-11.116
不去	-11.1161
羈	-11.1161
七十四	-11.1164
成臯	-11.1165
天光	-11.1165
為都督	-11.1169
犇	-11.1169
二年春	-11.1169
水草	-11.117
音胡	-11.1171
且言	-11.1171
為質	-11.1172
為御史中丞	-11.1175
稱職	-11.1177
亦何	-11.1178
人以為	-11.1179
太子中庶子	-11.1182
遂罷	-11.1185
為尚書令	-11.1186
衆人	-11.1186
境上	-11.1187
正朔	-11.1188
之策	-11.1189
為前鋒	-11.119
子路	-11.1192
人生	-11.1192
大理評事	-11.1192
丐	-11.1193
副都指揮使	-11.1193
生靈	-11.1193
三年五月	-11.1196
縣西南	-11.1197
劉攽曰案	-11.1197
莊子	-11.1197
字公	-11.1197
蟬	-11.1199
侍講	-11.1199
京兆府	-11.1201
城陷	-11.1201
至矣	-11.1201
圓丘	-11.1202
吏部郎中	-11.1203
河中府	-11.1203
必以	-11.1204
乃立	-11.1206
送京師	-11.1208
繆公	-11.1209
貳師	-11.121
退走	-11.121
中郎将	-11.121
臨軒	-11.1212
君長	-11.1212
下吏	-11.1212
有謀	-11.1213
長驅	-11.1213
世為	-11.1214
濮州	-11.1214
繼遷	-11.1217
屬國	-11.1218
簡公	-11.1218
旺	-11.1222
穆呼哩	-11.1225
墾	-11.1226
清泰	-11.1227
改作	-11.1228
矣夫	-11.1229
賢人	-11.1229
瀘	-11.123
死亡	-11.1235
有道	-11.1235
美人	-11.1236
左散騎常侍	-11.1236
烽	-11.1237
濕	-11.1238
之弟	-11.124
旃	-11.124
赫連	-11.124
之體	-11.1244
不和	-11.1245
助教	-11.1246
廢朝	-11.1247
羣盗	-11.1247
禘祫	-11.1252
著作	-11.1254
乗勝	-11.1255
事覺	-11.1255
内屬	-11.1255
今以	-11.1256
子胥	-11.1258
博陵	-11.126
近者	-11.1263
事見	-11.1264
召試	-11.1267
魏武	-11.1267
何謂	-11.1267
䓁	-11.1267
封爵	-11.1269
各得	-11.127
字景	-11.1271
湊	-11.1271
為尚書	-11.1273
一階	-11.1273
打	-11.1277
列於	-11.1281
稽古	-11.1283
摇	-11.1284
鄣	-11.1284
職事官	-11.1285
宋史	-11.1285
梁軍	-11.1286
都下	-11.1288
嘗有	-11.129
梓宫	-11.1294
下馬	-11.1295
黨與	-11.1296
併入	-11.1297
收復	-11.1297
薩哈	-11.1298
為中書侍郎	-11.1299
櫟陽	-11.1299
太子少師	-11.1302
無人	-11.1303
禁兵	-11.1304
雅克特穆爾	-11.1309
講武	-11.131
華山	-11.1311
不協	-11.1312
邊境	-11.1313
不起	-11.1315
箕子	-11.1315
二至	-11.1318
8	-11.1318
霞	-11.1319
上問	-11.132
山林	-11.132
曰天子	-11.1321
生口	-11.1322
十四日	-11.1323
天寳元年改為	-11.1323
市易	-11.1323
今乃	-11.1325
卻	-11.1327
諮議	-11.1328
安逺	-11.133
㽞	-11.1331
雖復	-11.1337
肅然	-11.1339
無射	-11.134
不遜	-11.1341
髙后	-11.1344
善政	-11.1345
之過	-11.1345
帝問	-11.1346
監門	-11.135
祏	-11.1351
於漢	-11.1353
居官	-11.1354
代郡	-11.1354
將以	-11.1358
與兄	-11.1359
詩賦	-11.1359
阬	-11.136
攻圍	-11.136
大理寺	-11.1362
功封	-11.1363
周書卷	-11.1364
太史令	-11.1365
註	-11.1368
無辜	-11.1368
稱制	-11.1372
武衛	-11.1373
章惇	-11.1376
輿駕	-11.1376
㑹元	-11.1378
令丞	-11.1379
斷其	-11.1387
舊法	-11.1389
疾疫	-11.139
勣	-11.139
江浙行省	-11.1395
任城	-11.1397
郭璞	-11.1398
而動	-11.1398
忠信	-11.1399
澶	-11.1401
既已	-11.1402
奉禮郎	-11.1403
招之	-11.1403
之實	-11.1403
之别	-11.1404
曵	-11.1409
孕	-11.141
布薩	-11.1413
滇	-11.1414
繳	-11.1414
戰士	-11.1417
而至	-11.1418
嗣王	-11.1419
曽孫	-11.1419
泣曰	-11.142
六經	-11.142
一體	-11.142
錢塘	-11.1423
地也	-11.1423
銅錢	-11.1426
治亂	-11.1427
革帶	-11.1428
家世	-11.1431
順行	-11.1436
勔	-11.1436
髙昌	-11.1439
桂州	-11.1439
帥臣	-11.1439
彞	-11.144
五百里	-11.1441
文育	-11.1441
為宫	-11.1441
不須	-11.1443
暐	-11.1445
降為	-11.1445
遂使	-11.1447
四十人	-11.145
執法	-11.145
參政	-11.1452
咸寧	-11.1452
七度	-11.1452
位在	-11.1453
澤潞	-11.1453
稱㫖	-11.1453
擒其	-11.1456
此非	-11.1456
出塞	-11.1457
祜	-11.1457
女真	-11.1457
可得而	-11.1458
區區	-11.1459
檢校太尉	-11.146
洪範	-11.1464
于天	-11.1466
汝隂	-11.1469
名士	-11.1471
富察	-11.1471
喜曰	-11.1471
命為	-11.1472
公府	-11.1472
淮隂	-11.1475
州民	-11.1475
十三度	-11.1479
知祥	-11.148
甲士	-11.148
舊儀	-11.1481
為宰相	-11.1481
為尚書左僕射	-11.1483
歐	-11.1484
秦昭王	-11.1487
譟	-11.1487
子良	-11.1488
聖主	-11.1489
害之	-11.149
存者	-11.149
嫂	-11.1494
本司	-11.1494
者各	-11.1495
勝之	-11.1495
魏文帝	-11.1495
百八十	-11.1496
伶	-11.1498
勇士	-11.1498
建成	-11.1499
濡	-11.15
八十二	-11.1501
飽	-11.1501
請罷	-11.1505
縣入焉	-11.1508
南宫	-11.1508
敢不	-11.1508
之賢	-11.1509
世充	-11.151
左光禄大夫	-11.1511
|||||	-11.1514
耳今	-11.1515
舊事	-11.1518
自固	-11.1521
志在	-11.1522
二百二十	-11.1524
節度副使	-11.1525
㸃檢	-11.1525
監國	-11.1526
樂平	-11.1527
所撰	-11.1528
沅	-11.1529
犯右執法	-11.1531
讖	-11.1534
赴援	-11.1534
釋褐	-11.1536
神人	-11.1537
武城	-11.1537
兾	-11.1541
儀天	-11.1543
犯者	-11.1543
海道	-11.1544
帝幸	-11.1546
同知樞密院事	-11.1546
十二巻	-11.1546
數百里	-11.1546
棄城	-11.155
乘馬	-11.1551
相距	-11.1553
見于	-11.1553
鄭𤣥	-11.1554
絳州	-11.1555
前導	-11.1558
二等	-11.1559
以賜	-11.1559
先人	-11.156
大官	-11.1561
宣州	-11.1563
軍政	-11.1564
王叔	-11.1565
赫舍哩	-11.1566
太白經天	-11.1567
署令	-11.157
幕府	-11.1573
其禮	-11.1574
相近	-11.1575
帝乃	-11.1575
摭	-11.1575
將至	-11.1576
義康	-11.1577
此亦	-11.1577
五代史巻	-11.1579
鬚	-11.158
楨	-11.1581
鞠躬	-11.1582
洩	-11.1583
直史館	-11.1584
魄	-11.1589
惜之	-11.1591
凡五	-11.1594
黄龍	-11.1595
金塗	-11.1596
史記曰	-11.1597
海上	-11.1599
二百里	-11.1599
先聖	-11.1601
明主	-11.1601
戰勝	-11.1601
皇弟	-11.1601
所立	-11.1602
州界	-11.1604
威名	-11.1608
移治	-11.1609
中山王	-11.1611
廬陵	-11.1611
牋	-11.1613
獻官	-11.1614
公服	-11.1617
門内	-11.1617
散騎侍郎	-11.1618
歇	-11.1619
千九百	-11.1619
纒	-11.1624
貂	-11.1625
剪	-11.1626
卨	-11.1626
輓	-11.1626
曰爾	-11.1628
軹	-11.1629
絀	-11.1632
都知	-11.1633
帝怒	-11.1634
雄州	-11.1637
尋改	-11.1637
奪之	-11.1638
尚之	-11.1638
一時之	-11.1638
不正	-11.1639
出征	-11.164
建業	-11.164
十五人	-11.1641
歴數	-11.1642
相次	-11.1644
兼御史中丞	-11.1646
白起	-11.1646
茂貞	-11.1649
夀陽	-11.165
白金	-11.165
文思	-11.1653
鄜州	-11.1654
音徒	-11.1657
與我	-11.1657
孜	-11.166
天性	-11.1661
踰月	-11.1662
闔	-11.1663
汧	-11.1664
汭	-11.1664
餞	-11.1666
廣川	-11.1668
袒	-11.1669
有能	-11.1669
長慶	-11.1669
前漢屬	-11.1669
迂	-11.167
縣人	-11.1672
□	-11.1672
駰案	-11.1672
都官尚書	-11.1673
故謂之	-11.1673
侯王	-11.1674
二寸	-11.1676
二年九月	-11.1678
願得	-11.1682
以所部	-11.1683
興化	-11.1684
伊克	-11.1685
入寇	-11.1685
郡中	-11.1687
武皇帝	-11.1689
臨淄	-11.1689
為御史	-11.1689
立皇子	-11.1691
山水	-11.1691
六十里	-11.1691
教之	-11.1694
東萊	-11.1694
潤州	-11.1698
畿内	-11.17
鎮星	-11.17
軍糧	-11.1701
達實	-11.1703
時方	-11.1704
帥師	-11.1705
距星	-11.1707
何可	-11.1707
大聖	-11.1709
沸	-11.1709
悼惠王	-11.1711
拳	-11.1713
所造	-11.1716
禁錮	-11.1716
娛	-11.1717
朕以	-11.1721
著書	-11.1723
請罪	-11.1726
軍亂	-11.1726
赤氣	-11.1729
遲疾	-11.1729
罷相	-11.173
下車	-11.1732
山中	-11.1733
社稷之	-11.1735
其可	-11.1736
西道	-11.1736
祕書	-11.1738
音律	-11.174
三年詔	-11.1741
楚國	-11.1742
而起	-11.1743
臣愚	-11.1743
石門	-11.1745
馬歩	-11.1745
正九品	-11.1747
匝	-11.1748
乗馬	-11.1749
梁置	-11.1749
東京留守	-11.1751
州大都督府長史	-11.1752
興平	-11.1754
提領	-11.1754
貿易	-11.1754
太子太師	-11.1755
赤黄	-11.1756
晉屬	-11.1756
府司馬	-11.1757
辠	-11.1757
施於	-11.1759
九十五	-11.1759
桞	-11.1759
逺方	-11.1761
之期	-11.1761
魏帝	-11.1762
舊名	-11.1772
國中	-11.1774
伐鄭	-11.1779
皆出	-11.178
烏庫哩	-11.1789
右正言	-11.1789
八度	-11.179
宋將	-11.179
死生	-11.1792
琚	-11.1792
凡四	-11.1794
略地	-11.1794
起義	-11.1796
臨潢	-11.1797
光逺	-11.1797
開成	-11.1799
乞骸骨	-11.1799
攝提	-11.18
廡	-11.1801
稠	-11.1802
諍	-11.1802
宜加	-11.1803
太府卿	-11.1803
旰	-11.1804
故道	-11.1807
玉牒	-11.1813
佐命	-11.1814
昔者	-11.1814
文成	-11.1816
惡其	-11.1817
相傳	-11.1821
四年三月	-11.1823
太行	-11.1824
失守	-11.1825
稽首	-11.1826
成天	-11.1826
未成	-11.1827
衛州	-11.1828
此所謂	-11.1828
金主	-11.1831
呼為	-11.1831
來獻	-11.1832
四年四月	-11.1833
孝皇帝	-11.1834
新興	-11.1834
阿哈瑪特	-11.1837
齊齊	-11.1837
中人	-11.1838
兵部郎中	-11.184
其私	-11.184
擲	-11.1842
鎮將	-11.1844
伯父	-11.1844
其妻子	-11.1844
征西將軍	-11.1845
木連理	-11.1846
盥	-11.1847
懾	-11.1849
復出	-11.185
之極	-11.1852
求救	-11.1857
戎狄	-11.1857
樂毅	-11.1858
其半	-11.186
莫之	-11.186
山有	-11.1861
院使	-11.1863
景初	-11.1863
年號	-11.1864
三川	-11.1865
西南夷	-11.1868
五縣	-11.1869
議欲	-11.187
于此	-11.187
韋昭	-11.1871
林邑	-11.1871
宫門	-11.1872
為列侯	-11.1873
家財	-11.1874
九道	-11.1875
來攻	-11.1876
北討	-11.1877
獻之	-11.1877
大寒	-11.1877
末年	-11.1878
東平王	-11.1879
翕	-11.1881
百一十	-11.1881
溉田	-11.1881
破其	-11.1884
臣願	-11.1886
入奏	-11.1886
老弱	-11.1887
為首	-11.1888
仁傑	-11.1889
荼	-11.1889
白水	-11.1892
維翰	-11.1892
其子孫	-11.1896
師中	-11.1899
祖考	-11.1899
及即位	-11.19
宗正卿	-11.19
勉之	-11.1901
仍賜	-11.1901
并州刺史	-11.1904
上皇	-11.1905
可使	-11.1908
師還	-11.1909
義軍	-11.1911
之月	-11.1912
意欲	-11.1913
雲陽	-11.1914
頡	-11.1917
在天	-11.1918
二十餘年	-11.1918
洺州	-11.1921
上親	-11.1921
十五里	-11.1922
安車	-11.1925
留侯	-11.1925
一事	-11.1927
使相	-11.1927
一十一	-11.1927
前驅	-11.193
譎	-11.1934
生而	-11.1935
話	-11.1935
馥	-11.1935
充國	-11.1936
承宗	-11.1936
野王	-11.1938
䜛	-11.1938
遣還	-11.1939
太樂	-11.1942
癸	-11.1946
紀年	-11.1947
固讓	-11.1951
繼勲	-11.1958
私第	-11.1959
始平	-11.1962
涿州	-11.1962
於楚	-11.1962
劉歆	-11.1963
更立	-11.1963
濠州	-11.1965
百日	-11.1965
一千一百	-11.1966
求援	-11.1966
武藝	-11.1968
皆是	-11.197
獄訟	-11.1971
又於	-11.1971
䜟	-11.1976
貝勒	-11.1976
陳氏	-11.1977
涿郡	-11.1981
急攻	-11.1981
隗	-11.1981
十二日	-11.1981
如杯	-11.1984
名位	-11.1985
無所不	-11.1987
發覺	-11.1989
不中	-11.199
故名	-11.199
罕之	-11.1991
至如	-11.1992
兩軍	-11.1996
道宗	-11.1998
大衆	-11.1999
舉事	-11.2001
三年十月	-11.2001
懐州	-11.2003
太常丞	-11.2003
穂	-11.2005
謂左右曰	-11.2006
秩滿	-11.2007
來聘	-11.2012
神之	-11.2013
兩路	-11.2016
洵	-11.2016
一字	-11.2016
行也	-11.2018
益封	-11.2018
酤	-11.2019
聰敏	-11.2022
綦	-11.2022
咽	-11.2023
装	-11.2023
唯有	-11.2024
居喪	-11.2024
緄	-11.2024
特授	-11.2025
顏	-11.2026
棠	-11.2027
騎士	-11.2028
常服	-11.2031
責授	-11.2033
經籍	-11.2034
殿中丞	-11.2035
來奔	-11.2036
佛寺	-11.2036
諸陵	-11.2037
異也	-11.2038
陽武	-11.2039
許以	-11.204
遷為	-11.2043
奔于	-11.2044
陽翟	-11.2044
孛	-11.2047
『	-11.2047
日南	-11.2049
有識	-11.2049
以授	-11.2049
遂定	-11.205
為楚	-11.2056
子女	-11.2058
從四品	-11.2059
神靈	-11.2061
録尚書事	-11.2062
真君	-11.2064
徳裕	-11.2065
度分	-11.2066
天竺	-11.2066
蒐	-11.2069
瓠	-11.207
層	-11.207
酒酣	-11.207
不備	-11.207
犯南斗	-11.2071
之稱	-11.2072
武陽	-11.2072
弃	-11.2073
奉祠	-11.2074
自入	-11.2074
華隂	-11.2074
等謀	-11.2077
改易	-11.2077
弓箭手	-11.2078
檢校太傅	-11.208
世襲	-11.2084
執事者	-11.2085
最為	-11.2086
南渡	-11.2086
出則	-11.2089
國遣使朝貢	-11.209
入汴	-11.209
所致	-11.2095
高后	-11.2097
兵入	-11.2097
者得	-11.2103
不來	-11.2106
縷	-11.2107
之親	-11.2107
秦軍	-11.2109
則可	-11.211
定天下	-11.211
噬	-11.2111
過失	-11.2112
灌夫	-11.2113
尚未	-11.2113
章帝	-11.2113
録一卷	-11.2114
韓世忠	-11.2114
百濟	-11.2114
柯	-11.2115
定朔	-11.2115
中宫	-11.2115
光禄卿	-11.2115
讚	-11.2115
劣	-11.2116
餘人	-11.2117
摶	-11.2119
徂	-11.2119
自非	-11.2119
軀	-11.2121
大宛	-11.2121
車師	-11.2121
馳驛	-11.2123
縣尉	-11.2124
威福	-11.2124
與齊	-11.2124
以上者	-11.2125
去極	-11.2127
既平	-11.2127
敢言	-11.2128
景明	-11.2129
典故	-11.2131
更相	-11.2135
易州	-11.2137
字季	-11.2138
多寡	-11.2139
小者	-11.214
還為	-11.2141
羣公	-11.2141
還報	-11.2142
正位	-11.2142
分滿	-11.2143
建義	-11.2145
原刻	-11.215
世祖即位	-11.215
等言	-11.2153
其辭	-11.2154
一千四百	-11.2154
趾	-11.2154
南徐州	-11.2154
為太傅	-11.2154
贛	-11.2155
神器	-11.2156
瘠	-11.2157
前一日	-11.2157
胎	-11.2158
故言	-11.2158
隳	-11.2158
晉侯	-11.2158
餘慶	-11.2158
穹	-11.2158
牓	-11.2159
淚	-11.216
七里	-11.216
又犯	-11.2161
各三	-11.2161
漢初	-11.2161
荅曰	-11.2162
羮	-11.2164
將作監	-11.2164
日餘	-11.2166
餘並	-11.2168
文皇帝	-11.2169
樓煩	-11.217
軍前	-11.2172
累年	-11.2173
乃罷	-11.2176
信州	-11.2178
義勇	-11.2183
姦臣	-11.2184
素與	-11.2185
其狀	-11.2186
」。	-11.2191
以拒	-11.2194
為大將軍	-11.2194
軍門	-11.2196
公輔	-11.2196
駝	-11.2199
用此	-11.2199
大名府	-11.2199
年十五	-11.2201
凡十	-11.2201
樸	-11.2202
白鹿	-11.2203
西討	-11.2203
建為	-11.2203
侯國	-11.2207
樵	-11.2208
孰與	-11.2208
鑠	-11.2209
腸	-11.221
至於此	-11.2211
袋	-11.2212
有戰功	-11.2213
使至	-11.2213
無知	-11.2214
列傳第五十	-11.2214
五十兩	-11.2215
岳飛	-11.2217
太子舍人	-11.2217
光化	-11.2217
西伯	-11.2218
公車	-11.2219
歸于	-11.2221
其處	-11.2222
三十巻	-11.2224
㐮	-11.2225
平陵	-11.2226
餓死	-11.2227
八音	-11.2227
籍田	-11.2227
桓𤣥	-11.2227
祭之	-11.2228
周人	-11.2229
王妃	-11.2231
莖	-11.2231
逺矣	-11.2232
農桑	-11.2233
經傳	-11.2238
靡不	-11.2238
新豐	-11.2242
璨	-11.2243
苻	-11.2246
治書侍御史	-11.2246
慶厯	-11.2247
所置	-11.2249
地方	-11.2251
於京師	-11.2251
宗祀	-11.2252
諸弟	-11.2253
一千八百	-11.2254
紓	-11.2254
華州刺史	-11.2254
邠寧	-11.2255
又按	-11.2255
至長安	-11.2258
二百六十	-11.2258
經營	-11.2259
五十餘	-11.226
已卯	-11.226
旗一	-11.2261
上官	-11.2264
副總管	-11.2264
天雄軍	-11.2264
孝昭	-11.2267
爭之	-11.2267
鎮東	-11.227
水中	-11.227
坐法	-11.2271
侍衞	-11.2272
九度	-11.2274
鐵錢	-11.2274
在北	-11.2277
勾當	-11.2277
嘆	-11.2278
立夏	-11.2278
為吏部尚書	-11.2278
之精	-11.2279
幽州刺史	-11.2283
伊都	-11.2283
秦秦	-11.2286
參軍事	-11.2286
天神	-11.2287
莫如	-11.2287
一二	-11.2288
門人	-11.2288
猺	-11.2288
軍府	-11.2291
親軍	-11.2291
諸吕	-11.2293
亊	-11.2297
集三卷	-11.2297
遯	-11.2298
髙下	-11.2298
經朔	-11.2299
北有	-11.23
軼	-11.2302
樁	-11.2302
媯	-11.2303
喉	-11.2305
稼穡	-11.2306
史記集解卷	-11.2306
租税	-11.2307
賈誼	-11.2309
詔諸路	-11.231
其官	-11.2311
西階	-11.2312
賈逵曰	-11.2314
欽若	-11.2315
孝昌	-11.2316
立法	-11.2318
齊神武	-11.232
皆用	-11.2321
周旋	-11.2323
錢穀	-11.2324
日數	-11.2325
統領	-11.2325
山北	-11.2327
五方	-11.2327
二百人	-11.2333
即令	-11.2333
析置	-11.2333
司直	-11.2337
鏐	-11.234
謝罪	-11.2343
之由	-11.2345
其星	-11.2346
异	-11.2346
袤	-11.2346
簡子	-11.2349
建言	-11.2349
侑	-11.235
民皆	-11.2351
辭以	-11.2351
第二子	-11.2353
不待	-11.2355
多故	-11.2355
天門	-11.2356
扁鵲	-11.2356
元年十二月	-11.2358
至城下	-11.2359
祁曰	-11.2367
漏刻	-11.2368
鎮一	-11.237
令狐	-11.237
單衣	-11.2372
通天	-11.2372
集賢	-11.2373
蕃部	-11.2375
積分	-11.2376
熙宗	-11.2376
旌節	-11.2376
所能	-11.2376
穗	-11.2378
不少	-11.2379
光州	-11.238
不拘	-11.2382
樂府	-11.2383
禮直官	-11.2383
縣二	-11.2384
朕之	-11.2386
之門	-11.2392
尋拜	-11.2392
裙	-11.2393
誚	-11.2393
懽	-11.2394
國學	-11.2395
東莞	-11.2396
二年詔	-11.2397
集一巻	-11.2397
靳	-11.2398
驍騎	-11.2398
制曰	-11.2399
司州刺史	-11.2399
奉先	-11.24
衞大將軍	-11.24
門生	-11.2401
重威	-11.2402
海西	-11.2403
慟哭	-11.2405
與宋	-11.2407
人望	-11.2411
元年十月	-11.2413
賜金紫	-11.2413
未下	-11.2414
犯昴	-11.2415
夏六月	-11.2417
考課	-11.2417
以病	-11.242
臨川王	-11.2421
襄子	-11.2421
内地	-11.2424
茶鹽	-11.2424
雖欲	-11.2429
集十巻	-11.2431
江寧	-11.2431
武俊	-11.2431
朔弦望	-11.2432
流亡	-11.2433
博囉特穆爾	-11.2435
所重	-11.2437
赭	-11.2437
人户	-11.2437
菽	-11.2439
城置	-11.2439
請依	-11.244
陌	-11.2441
執之	-11.2442
入秦	-11.2444
卜筮	-11.2445
更為	-11.2445
東昏	-11.2446
知貢舉	-11.2448
避之	-11.2449
性命	-11.2449
歴位	-11.2454
逐之	-11.2456
張揖曰	-11.2456
環慶	-11.2457
非禮	-11.2458
方略	-11.2458
克寧	-11.2459
州司户	-11.2459
莊帝	-11.2462
司天	-11.2465
甘州	-11.2467
承嗣	-11.2471
武德四年	-11.2473
並用	-11.2474
地形	-11.2475
悌	-11.2475
夷吾	-11.2476
其直	-11.2479
秉政	-11.248
和平	-11.2481
旭	-11.2481
絮	-11.2483
璜	-11.2484
以伐	-11.2487
臣瓚曰	-11.2489
冇	-11.2489
昵	-11.2489
卿大夫	-11.249
剝	-11.2491
押班	-11.2493
為人所	-11.2494
不答	-11.2495
羣小	-11.2496
羣下	-11.2497
蜚	-11.2499
從駕	-11.2501
陽氣	-11.2501
導引	-11.2503
漢家	-11.2503
所破	-11.2504
太極	-11.2504
既成	-11.2505
郴	-11.2506
前世	-11.2507
餘以	-11.2507
不義	-11.2507
端門	-11.2509
輟朝	-11.2514
昭徳	-11.2515
考其	-11.2519
時則有	-11.2519
攻下	-11.252
景福	-11.2522
險阻	-11.2523
已前	-11.2524
纁	-11.2526
縝	-11.2526
延慶	-11.2526
始興王	-11.2528
紊	-11.2528
西京留守	-11.2529
檻	-11.253
都水	-11.253
六巻	-11.2531
旗幟	-11.2532
兔	-11.2534
濳	-11.2534
濟河	-11.2534
則天下	-11.2535
副大使	-11.2538
虖	-11.2538
為嗣	-11.254
夸	-11.254
人士	-11.254
召公	-11.2541
心腹	-11.2546
葛榮	-11.2546
慨然	-11.2548
牛酒	-11.2548
有異志	-11.2548
崔浩	-11.2552
東府	-11.2553
已破	-11.2553
陳豨	-11.2555
光宗	-11.2556
保義	-11.2557
處死	-11.2558
進曰	-11.2558
冊寳	-11.2558
不能制	-11.256
帝欲	-11.2562
朔州	-11.2563
櫟	-11.2564
之曲	-11.2565
統元	-11.2566
神䇿	-11.2567
守光	-11.2567
被害	-11.2569
唐州	-11.2569
非其人	-11.257
相對	-11.2571
抵罪	-11.2573
孝文皇帝	-11.2574
齊州	-11.2575
與楚	-11.2578
義士	-11.2579
天澤	-11.2579
丞一人	-11.2579
相接	-11.2579
少好學	-11.258
四尺	-11.2581
副元帥	-11.2582
磨勘	-11.2582
覧	-11.2582
五十萬	-11.2582
西路	-11.2583
俘獲	-11.2583
麟徳	-11.2584
勿復	-11.2585
及第	-11.2585
謟	-11.2586
於是上	-11.2586
病者	-11.2586
騁	-11.2586
之害	-11.2586
命曰	-11.2587
銑	-11.2588
安陵	-11.2588
迅	-11.259
凡所	-11.2591
田氏	-11.2592
二千七百	-11.2592
九成	-11.2595
延昌	-11.2595
奮擊	-11.2595
沿江	-11.2596
謂宜	-11.2597
秋九月	-11.2599
遂入	-11.2599
率軍	-11.26
四年五月	-11.2601
未發	-11.2602
享國	-11.2604
太武	-11.2604
創業	-11.2606
去病	-11.2608
省臣	-11.2612
曹操	-11.2612
貧乏	-11.2613
不恤	-11.2613
所行	-11.2615
原州	-11.2619
吏士	-11.2619
東下	-11.2619
經略使	-11.2623
憲章	-11.2624
淨	-11.2624
被執	-11.2625
團練使	-11.2627
餙	-11.2629
婚姻	-11.2631
孔安國	-11.2631
而巳	-11.2633
邦國	-11.2635
朱雀	-11.2635
飄	-11.2637
王命	-11.2637
牙將	-11.2637
涸	-11.2638
五嵗	-11.2638
出城	-11.2639
致書	-11.2641
寧之曲	-11.2642
季氏	-11.2642
河清	-11.2643
九十四	-11.2644
以救	-11.2644
不預	-11.2646
晉武帝	-11.2647
必死	-11.2647
戸口	-11.2648
上夀	-11.2648
其謀	-11.265
正義	-11.2652
徃來	-11.2652
温州	-11.2658
欽宗	-11.2659
先入	-11.2661
縱火	-11.2666
譔	-11.2669
控鶴	-11.2669
輕車	-11.267
中二千石	-11.2671
治民	-11.2673
0	-11.2673
賫	-11.2673
平北將軍	-11.2675
七十里	-11.2676
擿	-11.2677
炬	-11.2677
訐	-11.2679
伉	-11.268
建鄴	-11.2681
都總管	-11.2684
之神	-11.2685
倨	-11.2686
割地	-11.2688
弑其君	-11.269
官府	-11.2693
宣慰	-11.2693
詘	-11.2693
武徳元年	-11.2696
置於	-11.2696
團練	-11.2698
在郡	-11.2702
旌旗	-11.2706
穰侯	-11.2707
永初	-11.2709
和氣	-11.2709
路總管府	-11.271
五年春正月	-11.271
去就	-11.2711
大象	-11.2711
奉㫖	-11.2712
臣以為	-11.2713
犯左執法	-11.2715
不舉	-11.2715
還家	-11.2715
日久	-11.2716
灘	-11.2718
道武	-11.272
之險	-11.272
劄	-11.272
實以	-11.2726
國家之	-11.2728
本末	-11.2728
踊	-11.2728
應劭	-11.273
大河	-11.2733
未嘗有	-11.2733
器物	-11.2733
編修	-11.2737
追擊	-11.2737
挑戰	-11.2738
樂器	-11.274
不常	-11.2741
文侯	-11.2741
以討	-11.2742
▁七	-11.2744
帝御	-11.2746
湯武	-11.2748
步騎	-11.2749
之機	-11.2751
爵為	-11.2753
恒州	-11.2754
生辰	-11.2754
却之	-11.2757
形於	-11.276
將來	-11.2761
解職	-11.2762
職掌	-11.2762
五路	-11.2765
北向立	-11.2766
太上	-11.2767
家居	-11.2767
觀文殿大學士	-11.2768
璞	-11.277
之威	-11.2771
得幸	-11.2771
遂殺	-11.2772
呵	-11.2772
襟	-11.2772
歸義	-11.2772
讌	-11.2773
不可用	-11.2774
簪	-11.2775
經一巻	-11.2775
撝	-11.2775
近世	-11.2775
禳	-11.2775
磧	-11.2777
既無	-11.2778
蚩尤	-11.2778
燿	-11.2779
浹	-11.278
瑄	-11.278
不變	-11.2781
四鎮	-11.2781
憎	-11.2782
舶	-11.2782
浙江	-11.2782
玘	-11.2783
明公	-11.2785
景王	-11.2786
功業	-11.2787
配流	-11.2791
武帝時	-11.2797
官名	-11.2798
之形	-11.2799
以軍功	-11.2799
史記作	-11.28
所領	-11.2801
領縣二	-11.2801
連年	-11.2802
安可	-11.2805
州刺史李	-11.2806
還本	-11.281
其位	-11.2811
分之一	-11.2811
不害	-11.2812
俄遷	-11.2813
移書	-11.2819
贊者	-11.282
劾之	-11.282
三年八月	-11.2821
扵是	-11.2824
慿	-11.2825
貢獻	-11.2825
平盧	-11.2827
澆	-11.2828
可觀	-11.2829
妄言	-11.2829
涌	-11.2829
之性	-11.2831
提刑司	-11.2832
尺寸	-11.2836
賊平	-11.2836
驪	-11.2838
在東宫	-11.2838
臨菑	-11.2841
其業	-11.2842
曰吾聞	-11.2842
東觀	-11.2843
舞蹈	-11.2845
歸化	-11.2845
武后	-11.2846
沛郡	-11.2847
表求	-11.2847
詹	-11.2848
禮記曰	-11.2851
子産	-11.2851
嘗以	-11.2851
且夫	-11.2857
乾寧	-11.2858
朝獻	-11.2858
敬宗	-11.286
南史	-11.286
水火	-11.2865
六年正月	-11.2866
和糴	-11.2867
悉平	-11.2867
貺	-11.2869
禍亂	-11.2869
名山	-11.2869
不覺	-11.287
特哩衮	-11.2871
蠱	-11.2875
煦	-11.2876
携	-11.2876
已巳	-11.2877
殫	-11.2877
烟	-11.2878
土人	-11.2878
八寸	-11.2879
晉國	-11.2879
路轉運使	-11.2881
眚	-11.2881
憂之	-11.2883
乙已	-11.2883
于外	-11.2885
招撫	-11.2887
道濟	-11.2887
希烈	-11.289
大笑	-11.2891
首虜	-11.2894
轉輸	-11.2894
許昌	-11.2895
左衛將軍	-11.2896
立冬	-11.2896
奉安	-11.2896
齡	-11.29
師傅	-11.2904
從太祖	-11.2905
縣為	-11.2906
不實	-11.2908
以待之	-11.2908
三百五十	-11.291
儒林	-11.291
今天下	-11.2912
隋文帝	-11.2912
唐末	-11.2912
為尚書右僕射	-11.2913
王孫	-11.2917
列傳第六十	-11.2917
朓	-11.2918
興兵	-11.292
入氣	-11.292
號泣	-11.2923
提控案牘	-11.2924
饑饉	-11.2924
塋	-11.2924
爪牙	-11.2926
不可勝計	-11.2928
瘳	-11.2929
芝草	-11.2929
新亭	-11.293
弗能	-11.2931
二女	-11.2934
帝謂	-11.2934
舊曰	-11.2935
生事	-11.2942
上怒	-11.2945
即得	-11.2946
東海王	-11.2946
縣子	-11.2947
都頭	-11.2948
錢糧	-11.2953
募民	-11.2955
伐我	-11.296
劉備	-11.296
邯	-11.2965
諸蠻	-11.2966
亦宜	-11.2968
仙人	-11.2968
晉軍	-11.2968
不可勝數	-11.2969
各自	-11.297
永初郡國	-11.297
泣下	-11.2971
頑	-11.2974
解褐	-11.2974
歷	-11.2974
小子	-11.2974
祕書丞	-11.2974
渭州	-11.2975
梓州	-11.2975
戯	-11.2975
糺	-11.2976
遣使來貢	-11.2977
者莫不	-11.2978
禮直官引	-11.298
字彦	-11.2981
行人	-11.2983
而弗	-11.2985
來援	-11.2985
不得入	-11.2986
田榮	-11.2986
鴻臚	-11.2987
故屬	-11.2988
河間王	-11.2988
富民	-11.299
殽	-11.299
猶豫	-11.299
大行臺	-11.2991
報曰	-11.2993
忠良	-11.2993
為皇后	-11.2993
上尊號	-11.2994
四十卷	-11.2994
辰刻	-11.2994
徙治	-11.2995
聖㫖	-11.2995
楚楚	-11.2997
佐史	-11.2997
胡亥	-11.2998
不降	-11.3
喪亂	-11.3001
家在	-11.3003
寺丞	-11.3004
而一為	-11.3005
潦	-11.3005
君父	-11.3007
立碑	-11.3008
奄至	-11.3009
大寧	-11.3009
契丹使	-11.301
和卓	-11.301
二尺	-11.3011
兹謂	-11.3011
不決	-11.3013
璉	-11.3014
不意	-11.302
太官	-11.3022
藪	-11.3023
昪	-11.3024
渴	-11.3024
南平王	-11.3026
楹	-11.3027
須臾	-11.3028
圖書	-11.3028
値	-11.3029
十六日	-11.3029
以孝聞	-11.3031
嫗	-11.3031
光世	-11.3032
皆降	-11.3032
蘇軾	-11.3034
冬至後	-11.3035
特黙	-11.3036
時議	-11.3038
王業	-11.3039
淮安	-11.304
稱疾	-11.304
過於	-11.3044
徃徃	-11.3046
追諡	-11.3047
進士及第	-11.3048
七尺	-11.3048
其形	-11.3049
二千四百	-11.3049
度量	-11.3053
莫有	-11.3054
在後	-11.3054
鎮北	-11.3057
自此始	-11.3059
鄯	-11.3062
秦兵	-11.3063
其親	-11.3065
危亡	-11.3065
我我	-11.3065
開皇初	-11.3067
書令史	-11.3068
民心	-11.3068
諳	-11.3069
惕	-11.307
輿鬼	-11.3071
元符	-11.3072
東都留守	-11.3072
鴨	-11.3072
諸將皆	-11.3073
徳明	-11.3075
竣	-11.3076
所賜	-11.3078
沿邊	-11.3081
咸亨	-11.3083
北齊書卷	-11.3083
南兖州刺史	-11.3087
南城	-11.3087
函谷	-11.3088
龍虎	-11.3089
武康	-11.3092
右賢王	-11.3093
旦夕	-11.3094
太僕卿	-11.3095
清廟	-11.3095
将兵	-11.3098
神策	-11.3099
又欲	-11.3101
故吏	-11.3102
太上皇帝	-11.3108
終無	-11.3109
魏人	-11.3111
幸得	-11.3111
如有	-11.3114
尋轉	-11.3118
宣徽院	-11.3119
緜	-11.3123
鈐	-11.3124
晡	-11.3126
東阿	-11.3127
安仁	-11.3127
擣	-11.3128
甚於	-11.3128
井陘	-11.3129
張俊	-11.3129
北兵	-11.313
必矣	-11.3131
宮中	-11.3131
今按	-11.3132
駕部	-11.3134
其不可	-11.3135
等撰	-11.3137
孝伯	-11.3142
損益率	-11.3142
亡去	-11.3143
壇上	-11.3145
巴東	-11.3146
等事	-11.3148
室韋	-11.3148
廟堂	-11.3149
失色	-11.3152
饑賑	-11.3153
李廣	-11.3154
宫殿	-11.3154
君王	-11.3155
乏食	-11.3156
其計	-11.3156
詔天下	-11.3157
以南	-11.3157
人數	-11.3158
二年置	-11.3159
繼之	-11.3163
免其	-11.3165
諡文	-11.3166
而致	-11.3166
四子	-11.3168
龍圖閣直學士	-11.3168
八十里	-11.317
秩正三品	-11.3171
挹	-11.3174
朝賀	-11.3174
漢志	-11.3175
二千三百	-11.3177
甘肅	-11.3177
宗崩	-11.3179
柘	-11.3181
斐	-11.3182
折衝	-11.3185
僚屬	-11.3189
孺子	-11.3189
崇義	-11.319
曲直	-11.3193
為此	-11.3194
是則	-11.3196
元年十一月	-11.3198
無私	-11.3198
觀者	-11.3198
一縣	-11.32
典吏	-11.3202
欲殺之	-11.3204
夘	-11.3205
所云	-11.3205
何能	-11.3205
城上	-11.3206
商君	-11.3206
分道	-11.3207
往者	-11.3207
為齊王	-11.3208
統天	-11.3208
民户	-11.3208
並依	-11.3209
都省	-11.321
儀禮	-11.3211
五丈	-11.3212
常為	-11.3212
必當	-11.3214
飲福	-11.3217
部人	-11.3217
錄尚書事	-11.3219
夜郎	-11.322
遼人	-11.322
上音	-11.3222
潼	-11.3223
之力也	-11.3223
入漢	-11.3223
相連	-11.3224
毬	-11.3224
上尊	-11.3227
景文	-11.3227
守節	-11.3227
髻	-11.3228
呌	-11.3228
隨時	-11.3229
安成	-11.3229
徴拜	-11.323
以便	-11.323
蕃漢	-11.3231
知政事	-11.3231
未之	-11.3231
將軍如故	-11.3232
擊秦	-11.3234
辟陽侯	-11.3235
鬯	-11.3236
伏願	-11.3239
至孝	-11.3239
昊天	-11.3239
伊蘇	-11.3241
將有	-11.3244
八品	-11.3244
省事	-11.3244
喝	-11.3245
兵討之	-11.3249
聞奏	-11.3251
朔詔	-11.3251
十七度	-11.3252
掾史	-11.3254
謀逆	-11.3254
唐書	-11.3256
徳光	-11.3258
西陽	-11.3258
賜諸王	-11.3258
州牧	-11.3258
加開府儀同三司	-11.3259
除授	-11.326
半之	-11.326
七國	-11.326
定逺	-11.3263
不可勝	-11.3264
繇是	-11.3269
鄱陽王	-11.3269
未決	-11.327
平南將軍	-11.327
誠能	-11.3273
通州	-11.3273
景靈宫	-11.3274
有光	-11.3275
揣	-11.3275
䝉古軍	-11.3275
䧺	-11.3277
二年十月	-11.3277
脂	-11.3278
糜	-11.3278
伴	-11.3278
光禄勲	-11.3278
如淳	-11.3279
一無所	-11.3279
將行	-11.3283
百三十	-11.3283
才能	-11.3283
渭南	-11.3284
平涼	-11.3284
所請	-11.3284
不順	-11.3284
寧州	-11.3285
郡邑	-11.3285
年月	-11.3286
募兵	-11.3286
之迹	-11.3286
赤眉	-11.3288
之流	-11.3289
恐非	-11.3294
四年六月	-11.3297
黄州	-11.3297
王夫人	-11.3298
其南	-11.3298
䕶軍將軍	-11.3299
違者	-11.33
者所以	-11.3301
討論	-11.3302
又嘗	-11.3303
之意也	-11.3304
二十八宿	-11.3305
舊書	-11.3305
百六十	-11.3306
請立	-11.3308
敗於	-11.3312
皇極	-11.3313
四年七月	-11.3313
虞卿	-11.3313
詔可	-11.3315
第三子	-11.3315
互相	-11.3315
衛将軍	-11.3317
不設	-11.3318
西行	-11.3318
頁	-11.3319
文子	-11.332
者聽	-11.332
日暈	-11.3321
罷去	-11.3321
既立	-11.3324
服色	-11.3325
元狩	-11.3325
藩鎮	-11.3325
9	-11.3325
何志	-11.3326
祥也	-11.3326
優劣	-11.3326
㡌	-11.3328
方進	-11.333
而遁	-11.333
為患	-11.333
始封	-11.333
入交	-11.333
置司	-11.333
十三人	-11.3331
陳勝	-11.3331
愛其	-11.3333
去矣	-11.3333
杜重威	-11.3334
敬兒	-11.3337
紆	-11.3337
上表請	-11.3338
視朝	-11.3339
年二十	-11.334
流離	-11.334
海中	-11.3341
戍卒	-11.3342
東城	-11.3344
春夏	-11.3344
萬安	-11.3345
江湖	-11.3345
大寳	-11.3347
驍衛	-11.3348
叔孫通	-11.3348
惟新	-11.3348
儒術	-11.3349
自有傳	-11.335
而用之	-11.3351
中行	-11.3351
河橋	-11.3352
竟以	-11.3352
而走	-11.3352
功成	-11.3353
三十日	-11.3354
入南斗	-11.3356
渾儀	-11.3357
戍主	-11.336
彭祖	-11.3361
以禦	-11.3362
晉安王	-11.3363
以觀	-11.3366
約分	-11.337
托歡	-11.3372
明燭地	-11.3373
琢	-11.3373
宫縣	-11.3376
著於	-11.3378
軍屯	-11.3378
沾	-11.3379
人員	-11.338
猶在	-11.3381
畀	-11.3381
注文	-11.3382
徭役	-11.3383
不求	-11.3383
羔	-11.3383
忱	-11.3384
刻石	-11.3384
試之	-11.3386
二帝	-11.3388
是何	-11.3389
來告	-11.3389
鼂錯	-11.3389
殺戮	-11.339
王爵	-11.3393
又徙	-11.3393
即命	-11.3396
戰艦	-11.3397
其力	-11.3399
左諫議大夫	-11.34
任使	-11.3402
州軍事	-11.3405
重熙	-11.3406
供給	-11.341
梁元帝	-11.3411
無幾	-11.3414
以功授	-11.3416
崇徳	-11.3416
招降	-11.3417
難得	-11.3418
所滅	-11.342
即為	-11.342
歌詩	-11.3421
牧馬	-11.3423
教化	-11.3425
彗星見	-11.3426
諸呂	-11.3427
匣	-11.3428
燮	-11.3428
戩	-11.3428
開元中	-11.3429
藤	-11.343
度支尚書	-11.343
頊	-11.343
六七	-11.343
乃請	-11.3432
蔓	-11.3432
大衍	-11.3432
珠玉	-11.3433
七寸	-11.3434
何由	-11.3434
從九品	-11.3434
騷動	-11.3434
縱横	-11.3435
屑	-11.3436
橐	-11.3436
邾	-11.3436
億兆	-11.3437
盍	-11.3437
以為言	-11.3438
主兵	-11.3439
鎮守	-11.3441
蔚州	-11.3443
書記	-11.3443
科舉	-11.3444
之誅	-11.3445
晏駕	-11.3445
兩宫	-11.3445
犯太微	-11.3446
租庸	-11.3446
吉州	-11.3448
兵器	-11.345
多難	-11.3452
亡者	-11.3452
隆之	-11.3453
州縣官	-11.3454
慶歴	-11.3457
始有	-11.3458
法而一	-11.3459
南豫州刺史	-11.3459
公侯	-11.3459
財貨	-11.3459
成人	-11.346
自隨	-11.3461
一路	-11.3463
考功	-11.3464
一石	-11.3465
兩月	-11.3466
皆以為	-11.3471
保安	-11.3474
逆順	-11.3474
留意	-11.3475
衛大将軍	-11.3476
賜緋	-11.3476
長卿	-11.3477
猶言	-11.3477
伽	-11.3479
因以為	-11.3481
思忠	-11.3481
璹	-11.3482
涇陽	-11.3483
有人	-11.3483
鑰	-11.3483
朱全忠	-11.3483
璽綬	-11.3484
裒	-11.3484
寛厚	-11.3484
王延	-11.3484
文季	-11.3485
臨事	-11.3485
不異	-11.3485
蟄	-11.3486
比干	-11.3486
後晉司空同中書門下平章事劉昫撰	-11.3488
闌	-11.3489
不親	-11.3489
而不知	-11.349
二年十一月	-11.349
滑臺	-11.349
家語	-11.349
興州	-11.349
成之曲	-11.3492
昭明	-11.3493
夹	-11.3495
凡六	-11.3496
之宿	-11.3496
成都府	-11.3496
分别	-11.3497
睢陽	-11.3499
務在	-11.3499
欣然	-11.3499
何其	-11.3501
威武	-11.3501
死傷	-11.3502
草創	-11.3503
日躔	-11.3507
然猶	-11.351
追及	-11.3513
戮力	-11.3514
魯人	-11.3516
裴度	-11.3516
相屬	-11.3517
宋主	-11.3517
求去	-11.3518
生日	-11.3519
品秩	-11.3519
神仙	-11.3522
晉文公	-11.3524
執金吾	-11.3525
湖廣行省	-11.3526
横行	-11.3527
若干	-11.3528
池州	-11.3528
僧孺	-11.3528
元皇帝	-11.3529
烏爾古	-11.353
本姓	-11.3531
卷亡	-11.3532
白帝	-11.3532
郡開國公	-11.3532
有星孛于	-11.3532
有兩	-11.3533
善屬文	-11.3533
無得	-11.3534
輔國将軍	-11.3534
天章閣待制	-11.3537
絢	-11.3538
煎	-11.3541
盂	-11.3543
趙鼎	-11.3543
分秒	-11.3544
蘇州	-11.3544
潁州	-11.3544
累世	-11.3544
李綱	-11.3546
治兵	-11.3546
類此	-11.3547
所愛	-11.3552
十一度	-11.3553
年四十	-11.3553
喪事	-11.3555
褥位	-11.3556
曰今日	-11.3556
嘗謂	-11.3558
上馬	-11.356
百世	-11.3562
善於	-11.357
其夜	-11.357
河溢	-11.3571
廣寧	-11.3571
爾雅曰	-11.3572
光祿	-11.3572
仕至	-11.3574
民居	-11.3575
昭成	-11.3577
萬夀	-11.3578
為先鋒	-11.3578
犯軒轅大星	-11.3579
縣伯	-11.3581
增邑	-11.3584
一郡	-11.3584
右散騎常侍	-11.3585
變化	-11.3585
洛水	-11.3586
雨雪	-11.3586
勍	-11.3589
州安置	-11.3589
二十七日	-11.359
以為常	-11.359
一千六百	-11.3592
餘如故	-11.3593
二千六百	-11.3594
當國	-11.3594
募人	-11.3595
政令	-11.3595
服除	-11.3595
犂	-11.3595
相州刺史	-11.3596
讙	-11.3597
脊	-11.36
登第	-11.3601
歸漢	-11.3601
宋書	-11.3607
北流	-11.3608
太簇	-11.361
兵甲	-11.3611
未安	-11.3611
撫之	-11.3612
守道	-11.3612
此文	-11.3613
晉髙祖	-11.3614
授官	-11.3614
騎將	-11.3614
少府監	-11.3615
樂陵	-11.3616
率土	-11.362
越人	-11.362
吏事	-11.3621
擅權	-11.3621
李克用	-11.3621
特賜	-11.3624
率騎	-11.3624
南岸	-11.3625
前書曰	-11.3627
清水	-11.3627
土木	-11.3628
公田	-11.3632
郡開皇初郡廢	-11.3632
伏惟	-11.3634
従之	-11.3634
先儒	-11.3636
鈕	-11.3636
汴京	-11.3638
周太祖	-11.3639
十嵗	-11.3639
清河王	-11.3639
慨	-11.364
集賢校理	-11.3641
鴻臚卿	-11.3641
因留	-11.3643
帝位	-11.3645
潼關	-11.3645
璩	-11.3646
六縣	-11.3648
母子	-11.365
荆襄	-11.3651
港	-11.3651
總帥	-11.3652
新羅	-11.3652
氂	-11.3654
石勒	-11.3658
盡殺	-11.3659
明徹	-11.366
春申君	-11.366
黔首	-11.3662
忌之	-11.3663
日辰	-11.3663
遂令	-11.3665
羣盜	-11.3668
應募	-11.367
居處	-11.3671
園陵	-11.3674
千餘家	-11.3675
右衛將軍	-11.3676
各舉	-11.3676
東歸	-11.3679
餘悉	-11.3682
不盡為	-11.3687
良臣	-11.3688
瑊	-11.3689
楫	-11.369
三歲	-11.369
今既	-11.369
秦滅	-11.369
曲陽	-11.3691
無疑	-11.3692
蔬	-11.3693
司天監	-11.3693
巴圖	-11.3695
針	-11.3695
醴泉	-11.3698
液	-11.3698
蹲	-11.3701
擯	-11.3702
左右皆	-11.3704
之㫖	-11.3706
千四百	-11.3708
斛律	-11.3708
襲之	-11.3709
志寧	-11.3712
内臣	-11.3713
鄭氏	-11.3716
禁之	-11.3716
仁夀	-11.3717
憂懼	-11.3718
元元	-11.372
六卿	-11.3723
乾符	-11.3724
屬官	-11.3725
勤勞	-11.3728
石城	-11.3731
發遣	-11.3732
呉興	-11.3735
五榖	-11.3737
虡	-11.374
百四十	-11.3742
衆議	-11.3742
屯於	-11.3743
襲父	-11.3744
江水	-11.3746
然亦	-11.3749
晏子	-11.375
羆	-11.375
羣臣皆	-11.375
濟陽	-11.375
起知	-11.3751
吉甫	-11.3753
復叛	-11.3755
砥	-11.3755
墳墓	-11.3756
不經	-11.3756
太和中	-11.3756
産業	-11.3756
比之	-11.3757
其色	-11.376
隆安	-11.376
乳母	-11.3767
百王	-11.3767
人力	-11.3769
其材	-11.377
師範	-11.3773
既得	-11.3773
也一曰	-11.3775
入蜀	-11.3775
知開封府	-11.3777
遂命	-11.3779
别置	-11.3779
何罪	-11.3782
不能用	-11.3787
二丈	-11.3791
二府	-11.3792
兵討	-11.3792
于京師	-11.3794
萬全	-11.3797
僧道	-11.3797
用人	-11.3798
進奉	-11.3798
通直郎	-11.3803
國子司業	-11.3803
愴	-11.3806
自新	-11.3807
潯	-11.3808
范延光	-11.3809
媪	-11.381
存問	-11.3811
北史卷	-11.3811
廖	-11.3811
示以	-11.3812
浙本	-11.3813
昌縣	-11.3813
鞍馬	-11.3814
姚興	-11.3815
敵國	-11.3816
等官	-11.3816
諸城	-11.3817
因事	-11.382
新法	-11.3821
等各	-11.3823
權臣	-11.3824
終獻	-11.3824
二年復	-11.3825
商旅	-11.3825
保寧	-11.3826
左右衛	-11.3827
平昌	-11.3831
之交	-11.3835
礬	-11.3836
四寸	-11.3836
義帝	-11.3837
飛龍	-11.3837
四年詔	-11.3837
清濁	-11.3838
竇太后	-11.384
民家	-11.384
十度	-11.3842
君子之	-11.3842
為翰林學士	-11.3842
躬自	-11.3842
其徳	-11.3845
儉約	-11.3847
山上	-11.3849
河渠	-11.385
嗣昭	-11.385
罽	-11.3852
不事	-11.3854
御容	-11.3855
僰	-11.3856
淛	-11.3856
貟	-11.3856
澣	-11.3856
州長史	-11.3857
誑	-11.3857
按察司	-11.3857
鞫之	-11.3858
節度觀察	-11.3858
驃騎大将軍	-11.3858
杳	-11.3858
之基	-11.386
廵狩	-11.386
蟠	-11.3861
諂	-11.3863
孔氏	-11.3863
劉光世	-11.3863
眩	-11.3864
行樞密院	-11.3865
邴	-11.3865
行密	-11.3866
灌嬰	-11.3866
坐與	-11.3867
等物	-11.3868
黔中	-11.3872
右司	-11.3876
不廢	-11.3878
多者	-11.388
七曰	-11.3881
置左右	-11.3882
未立	-11.3884
安慶	-11.3886
恭帝	-11.3886
原本	-11.3887
匹綿	-11.3889
本草	-11.3889
甚急	-11.3889
茂陵	-11.3889
異時	-11.389
不孝	-11.3893
清明	-11.3894
永熙	-11.3895
一方	-11.3896
懐徳	-11.39
不守	-11.3901
安在	-11.3902
改葬	-11.3902
死事	-11.3903
賦役	-11.3903
黷	-11.3903
在内	-11.3903
簽書樞密院事	-11.3903
樞密直學士	-11.3906
東征	-11.3907
一戰	-11.3907
於斯	-11.3908
戡	-11.3909
瀘州	-11.391
聖賢	-11.391
天厯	-11.391
諡忠	-11.3911
工匠	-11.3911
别廟	-11.3912
援之	-11.3913
將作	-11.3915
屬焉	-11.3915
佯	-11.3915
皆稱	-11.3916
二嵗	-11.3917
乎且	-11.3917
侍御	-11.3921
盧綰	-11.3922
左拾遺	-11.3926
廣陵王	-11.3927
守城	-11.3927
諸物	-11.3927
韋昭云	-11.3932
河洛	-11.3933
金州	-11.3935
書吏	-11.3935
數里	-11.3936
制置司	-11.3937
永州	-11.3939
入門	-11.3942
不習	-11.3944
征南	-11.3945
初平	-11.3947
部將	-11.3947
取士	-11.395
二萬人	-11.3951
容貌	-11.3952
雍丘	-11.3952
萬方	-11.3956
宜從	-11.3956
前事	-11.3961
相視	-11.3962
重兵	-11.3962
北庭	-11.3963
太宗即位	-11.3963
詰之	-11.3965
雝	-11.3968
死士	-11.3969
太極殿	-11.3969
吾欲	-11.397
其段	-11.3971
匈	-11.3971
杓	-11.3972
鞮	-11.3972
卒年四十	-11.3972
劉豫	-11.3973
詔自今	-11.3975
髙郵	-11.3976
右北平	-11.3977
兵屯	-11.3978
籩	-11.3979
魯國	-11.398
伏惟陛下	-11.3981
即墨	-11.3981
江漢	-11.3981
服御	-11.3985
必能	-11.3986
東階	-11.3986
征虜	-11.3988
絶人	-11.399
信安	-11.3991
威權	-11.3994
亦然	-11.3997
不知所為	-11.3998
撫州	-11.3998
十四人	-11.4003
符瑞	-11.4004
傳一卷	-11.4006
文安	-11.4009
之序	-11.401
十萬石	-11.401
殿内	-11.4011
扎拉	-11.4013
無由	-11.4017
簽書	-11.402
平西將軍	-11.4021
鴆	-11.4022
偵	-11.4022
兵亂	-11.4022
管領	-11.4022
智者	-11.4026
驃騎大將軍開府儀同三司	-11.4026
音樂	-11.4027
河東節度使	-11.4027
沼	-11.4027
驂	-11.4028
勞苦	-11.4028
里南至	-11.4029
縫	-11.4029
南討	-11.4029
詎	-11.4029
兵擊	-11.4029
劉奉世曰	-11.4031
苑中	-11.4031
神龍元年	-11.4035
弘農	-11.4035
設伏	-11.4036
巴西	-11.4036
初限	-11.4036
祼	-11.4037
百官表	-11.4037
聽之	-11.4037
領郡	-11.4039
熙寜	-11.4039
三河	-11.404
黄巾	-11.4041
罷歸	-11.4044
齋郎	-11.4046
識其	-11.4047
刑部郎中	-11.4047
人之所	-11.405
林甫	-11.405
獄吏	-11.4051
令尹	-11.4051
軍儲	-11.4052
吾聞	-11.4055
請命	-11.4055
交結	-11.4056
見稱	-11.4058
二十八日	-11.406
聞其名	-11.4062
西州	-11.4062
凡諸	-11.4063
合浦	-11.4065
幾何	-11.4065
大内	-11.4067
内侍省	-11.4068
議事	-11.407
天武	-11.4071
内殿崇班	-11.4071
方鎮	-11.4071
郞	-11.4073
恢復	-11.4074
不救	-11.4076
不能得	-11.4076
䧏	-11.4077
京師地震	-11.4078
磔	-11.4078
呼喇	-11.4078
建元元年	-11.4078
司徒左長史	-11.4079
氛	-11.4079
卒年八十	-11.408
屯軍	-11.408
於是天子	-11.4081
金國	-11.4081
塗炭	-11.4081
逈	-11.4082
車騎将軍	-11.4084
玉帛	-11.4086
安西將軍	-11.4088
吁	-11.4088
漢武帝	-11.4089
手書	-11.4091
系本	-11.4091
志第二十	-11.4091
萬歲	-11.4092
女弟	-11.4093
孝孫	-11.4094
三晉	-11.4094
之色	-11.4094
畜牧	-11.4095
令有司	-11.4095
七曜	-11.4099
在斗	-11.4099
甘茂	-11.41
年十三	-11.4101
斬獲	-11.4102
賊將	-11.4102
皇帝廟號	-11.4104
衡州	-11.4105
征之	-11.4109
光宅	-11.4109
為中書令	-11.4111
九寸	-11.4111
性剛	-11.4112
讀與	-11.4112
梁國	-11.4114
所以為	-11.4114
新立	-11.4117
迎神	-11.4117
冬十二月	-11.4119
戎服	-11.4122
不道	-11.4123
戒嚴	-11.4125
佶	-11.4129
中流矢	-11.413
發運使	-11.4131
復召	-11.4134
賈人	-11.4134
達嚕噶齊一員	-11.4135
署為	-11.4136
葭	-11.4136
罸	-11.4136
螭	-11.4137
寧宗	-11.4137
三年十一月	-11.4138
斟酌	-11.4138
䨇	-11.4138
誌	-11.4139
南昌	-11.4139
金錢	-11.414
阪	-11.4142
武舞	-11.4144
官職	-11.4145
修起居注	-11.4145
不好	-11.4145
媵	-11.4146
晉天福	-11.4147
新附	-11.4148
醇	-11.4148
節儉	-11.4149
九千	-11.4149
溺死	-11.4151
大位	-11.4151
加恩	-11.4152
名馬	-11.4155
字徳	-11.4155
欲求	-11.4159
顧問	-11.416
凉州	-11.4161
安重誨	-11.4161
賜物	-11.4162
義隆	-11.4165
盡誅	-11.4166
為盗	-11.4168
禮文	-11.417
行分	-11.417
稱疾不	-11.4172
建德	-11.4175
善人	-11.4175
原本作	-11.4175
怪之	-11.4179
並起	-11.4179
蒲州	-11.4184
犯塞	-11.4185
學士院	-11.4186
始得	-11.4187
進酒	-11.4187
蓬萊	-11.4188
壕	-11.4189
錮	-11.4191
三年春	-11.4192
牝	-11.4193
冩	-11.4194
擔	-11.4194
沽	-11.4195
帝嘗	-11.4195
關東	-11.4195
胷	-11.4196
四字	-11.4196
虎牢	-11.4197
束帶	-11.4197
虵	-11.4197
三百九十	-11.4198
僵	-11.4198
灤	-11.42
本軍	-11.42
咸淳	-11.4204
三鎮	-11.4205
孝忠	-11.4205
飲之	-11.4206
㑹同	-11.4207
本注曰	-11.4208
好惡	-11.4208
謀殺	-11.4211
百有餘	-11.4212
燕人	-11.4215
皆死	-11.4215
增置	-11.4216
應對	-11.4218
濟北王	-11.4219
不修	-11.4219
邕州	-11.4221
代還	-11.4221
老人	-11.4222
撫諭	-11.4223
文秀	-11.4223
法興	-11.4224
祔廟	-11.4226
明州	-11.4227
攻魏	-11.423
都護	-11.423
掾屬	-11.4231
梁太祖	-11.4231
趙州	-11.4233
犯壘壁陣	-11.4233
東討	-11.4234
姦人	-11.4234
建興	-11.4234
有疑	-11.4236
左氏傳	-11.4237
之境	-11.4238
敵人	-11.4239
頥	-11.4241
三代之	-11.4242
衛軍	-11.4243
親祀	-11.4243
殷周	-11.4245
跳	-11.4246
東夷	-11.4246
鼔吹	-11.4247
騎軍	-11.4247
謇	-11.4247
計事	-11.4248
軍都指揮使	-11.425
圍城	-11.425
僥倖	-11.4252
史臣	-11.4253
筋	-11.4253
鉦	-11.4254
卒於家	-11.4254
童貫	-11.4256
德宗	-11.4256
十八人	-11.4258
舒嚕	-11.4258
其情	-11.4258
十一日	-11.4265
曹參	-11.4265
配饗	-11.4266
帥衆	-11.4268
降詔	-11.4269
用減	-11.427
慮其	-11.4271
失道	-11.4277
逆戰	-11.4277
貢方物	-11.4278
攻取	-11.4282
顧命	-11.4285
何敢	-11.4286
小大	-11.4287
臺臣	-11.4287
即此	-11.4294
氏女	-11.4298
可取	-11.4299
亹	-11.43
古制	-11.4302
喧	-11.4306
開封尹	-11.4306
判三司	-11.4307
謳	-11.4307
入轉	-11.4308
汾隂	-11.4309
於長安	-11.4309
惟陛下	-11.431
淀	-11.431
悰	-11.4311
哭泣	-11.4312
亡入	-11.4316
百辟	-11.4318
至元二年	-11.4318
不畏	-11.432
所掠	-11.432
獲罪	-11.4324
暴虐	-11.4328
為樞密使	-11.4335
報國	-11.4335
中書右丞	-11.4335
鹽法	-11.4338
論功	-11.434
未央	-11.4341
未甞	-11.4343
於是乎	-11.4344
太夫人	-11.4345
岐州	-11.4347
吏部郎	-11.4347
於太廟	-11.4348
金山	-11.4349
安成王	-11.4354
太㣲	-11.4354
臨晉	-11.4355
食盡	-11.4356
尺六寸	-11.4356
自餘	-11.4356
春三月	-11.4357
砂	-11.4358
亡歸	-11.4361
琵琶	-11.4362
䂓	-11.4363
是用	-11.4363
即是	-11.4363
菑川	-11.4364
人材	-11.4364
慄	-11.4364
夫差	-11.4365
謂侍臣曰	-11.4365
乾坤	-11.4366
世居	-11.4366
聳	-11.4366
縞	-11.4366
㠯	-11.4366
恩信	-11.4367
淳祐	-11.4367
已久	-11.4367
䕶衛	-11.437
藩邸	-11.437
不逺	-11.437
既定	-11.437
前史	-11.437
千乘	-11.4371
嘉興	-11.4371
二百餘	-11.4371
因請	-11.4373
於是乃	-11.4374
九齡	-11.4374
二千一百	-11.438
紹熙	-11.438
未平	-11.4381
大㑹	-11.4382
凡七	-11.4383
孝敬	-11.4385
天威	-11.4387
徹爾	-11.4387
蘭州	-11.4387
勸進	-11.439
奉法	-11.4391
擁衆	-11.4392
不倦	-11.4393
賜帛	-11.4395
同異	-11.4395
五世	-11.4395
山河	-11.4395
五禮	-11.4395
辱之	-11.4396
大都督府	-11.4397
治天下	-11.4397
清臣	-11.4398
乞降	-11.4399
奈	-11.44
朝謁	-11.44
乃更	-11.4402
諸曹	-11.4403
終身不	-11.4403
疾篤	-11.4404
人祖	-11.4405
過半	-11.4408
援兵	-11.4411
嵗在	-11.4412
以功遷	-11.4414
順陽	-11.4416
太始	-11.4416
尋授	-11.4417
軍功	-11.4418
晨昏	-11.4419
哈瑪爾	-11.4419
犍為	-11.442
車騎大將軍	-11.4422
詬	-11.4423
岀	-11.4423
憶	-11.4423
鷙	-11.4425
兩河	-11.4425
京房易傳曰	-11.4427
使君	-11.4427
慧景	-11.4427
節鉞	-11.4428
聽政	-11.4434
此書	-11.4435
不仕	-11.4438
二州諸軍事	-11.4438
同謀	-11.4438
穆王	-11.4438
霆	-11.4444
林牙	-11.4445
守正	-11.4447
寧國	-11.4447
故稱	-11.4449
闗内	-11.4449
甲戍	-11.445
鹽池	-11.4453
巨萬	-11.4456
其姦	-11.4457
見任	-11.4458
丹徒	-11.4461
三朝	-11.4464
度數	-11.4469
而一所得	-11.447
阿爾哈雅	-11.447
昺	-11.4471
齊獻武王	-11.4471
沈炳震曰	-11.4471
撒	-11.4471
七八	-11.4471
鎮定	-11.4472
榛	-11.4473
刺殺	-11.4473
廻紇	-11.4474
子男	-11.4475
伯夷	-11.4475
殿最	-11.4476
藺	-11.4476
襖	-11.4477
簋	-11.4478
康居	-11.4478
剡	-11.4478
若水	-11.4479
占曰有	-11.4479
奢侈	-11.4479
片	-11.448
叨	-11.448
三年改	-11.448
何事	-11.4482
炙	-11.4483
宗人	-11.4484
漢武	-11.4484
後屬	-11.4485
重慶	-11.4486
失職	-11.4487
不戰	-11.4488
累官至	-11.4489
同知樞宻院事	-11.4489
撃之	-11.4489
勝負	-11.449
晷景	-11.4491
正二品	-11.4491
太伯	-11.4491
喜怒	-11.4492
守宰	-11.4493
承聖	-11.4498
從平	-11.4499
兵仗	-11.45
遷侍中	-11.4501
闕文	-11.4503
歌曰	-11.4505
此云	-11.4512
前殿	-11.4512
減半	-11.4513
今嵗	-11.4513
分也	-11.4517
田常	-11.4517
文舞	-11.4518
中散	-11.4518
降神	-11.4519
備禮	-11.452
奏曰臣	-11.4521
降于	-11.4521
十五萬	-11.4522
十五巻	-11.4525
孳	-11.4525
濟濟	-11.4526
十六人	-11.4528
事發	-11.4529
以徇	-11.453
合從	-11.4531
漢末	-11.4531
推誠	-11.4532
袁粲	-11.4534
欄	-11.4535
撻	-11.4535
守忠	-11.4536
衂	-11.4538
遐邇	-11.4538
禕	-11.4539
湮	-11.4539
比至	-11.4539
核	-11.454
謝病	-11.454
舉秀才	-11.4541
王世充	-11.4541
厄	-11.4542
并前	-11.4542
悝	-11.4543
山海經	-11.4543
猛獸	-11.4544
滁州	-11.4545
太倉	-11.4545
擇日	-11.4548
劉毅	-11.4548
堅壁	-11.4552
被甲	-11.4554
復拜	-11.4555
以慰	-11.4555
左光祿大夫	-11.4556
希憲	-11.4559
衣裳	-11.456
征東	-11.456
非便	-11.4561
度及分秒	-11.4562
律厯	-11.4567
仲舒	-11.4568
刑名	-11.4571
揚雄	-11.4571
歴官	-11.4572
累朝	-11.4574
往年	-11.4574
王傅	-11.4575
宮室	-11.4576
郡丞	-11.4576
機務	-11.4577
經畧使	-11.4577
縣丞	-11.4578
者謂之	-11.4582
愍帝	-11.4582
仁恭	-11.4583
更定	-11.4584
明詔	-11.4586
攻戰	-11.4586
昌黎	-11.4587
幞頭	-11.4587
義師	-11.459
硤	-11.4593
千乗	-11.4593
日率	-11.4593
爪	-11.4594
馳入	-11.4594
前漢	-11.4595
良馬	-11.4596
北院	-11.4597
武興	-11.4598
四郡	-11.4598
交易	-11.4599
永定	-11.4601
延英	-11.4601
袂	-11.4602
安圖	-11.4602
從祀	-11.4603
西海	-11.4605
顯忠	-11.4606
多士	-11.4606
周昌	-11.4608
侍立	-11.4609
無主	-11.4611
博索	-11.4616
有事於	-11.4617
鎮惡	-11.4617
禹貢	-11.4617
𤣥孫	-11.4619
三部	-11.462
縊	-11.4623
一門	-11.4623
州刺史充	-11.4625
補闕	-11.4625
俊臣	-11.4625
時年五十	-11.4627
字士	-11.4627
南奔	-11.4627
攻陷	-11.4629
高平	-11.463
兵柄	-11.4633
甚見	-11.4634
堂上	-11.4639
韋氏	-11.4643
水利	-11.4643
五年二月	-11.4643
曙	-11.4644
兼侍講	-11.4644
受冊	-11.4647
瓛	-11.4647
渾天	-11.4648
䟦	-11.4649
戰敗之	-11.4649
禄山	-11.465
襄邑	-11.4652
先君	-11.4652
鐘磬	-11.4652
統軍使	-11.4654
荐	-11.4654
郗	-11.4655
七年正月	-11.4656
范仲淹	-11.4656
闗東	-11.4659
薨諡曰	-11.4662
秀之	-11.4662
又問	-11.4663
深州	-11.4663
百七十	-11.4665
傷人	-11.4665
竊聞	-11.4665
五郡	-11.4668
去嵗	-11.467
具言	-11.4671
千一百	-11.4671
富弼	-11.4673
擊大破之	-11.4673
太蔟	-11.4674
外家	-11.4674
其說	-11.4674
哀毁	-11.4675
天文志	-11.4675
瀛州刺史	-11.4677
節度判官	-11.468
有司請	-11.468
武安侯	-11.4682
李守貞	-11.4682
議定	-11.4683
樂舞	-11.4684
階下	-11.4686
昔在	-11.4687
卽位	-11.4688
之辭也	-11.4688
貞觀中	-11.469
太微垣	-11.469
前廢帝	-11.4693
中國之	-11.4696
甚得	-11.4697
外任	-11.4697
所經	-11.4698
中書省臣言	-11.4699
賈似道	-11.4702
摘	-11.4704
貟外郎	-11.4706
封泰山	-11.4706
九尺	-11.4707
宫觀	-11.4707
星占曰	-11.4708
炅	-11.4708
臣之所	-11.4708
唘	-11.4709
穆穆	-11.471
驎	-11.4712
昆明	-11.4712
南鄭	-11.4713
樽	-11.4713
撲	-11.4714
中庸	-11.4714
餐	-11.4714
姒	-11.4714
丁已	-11.4714
啖	-11.4716
眞宗	-11.4717
雖然	-11.4717
江上	-11.4718
韓侂胄	-11.4718
客省使	-11.4719
五百八十	-11.4719
圯	-11.472
叔文	-11.4721
蔬食	-11.4723
大次	-11.4723
券	-11.4724
部内	-11.4724
追奔	-11.4725
領縣三	-11.4726
條侯	-11.4726
錢物	-11.4727
哀侯	-11.4733
三年九月	-11.4735
共立	-11.4735
其禍	-11.4738
繫獄	-11.4738
萬斤	-11.4739
天和	-11.474
以疾卒	-11.4742
謁見	-11.4743
國號	-11.4743
三皇	-11.4744
終不能	-11.4745
三千五百	-11.4748
太牢	-11.4751
權衡	-11.4755
棣州	-11.4755
觀察等使	-11.4756
新州	-11.4756
所服	-11.4756
西蕃	-11.4757
力辭	-11.476
莱	-11.476
經典	-11.4761
湧	-11.4765
通鑑作	-11.4765
左司郎中	-11.4766
兵馬都監	-11.4767
輿服	-11.4767
鵝	-11.4769
鄭玄	-11.4769
武定中	-11.4769
舁	-11.4769
九宫	-11.477
法一卷	-11.477
大順	-11.4771
衆庶	-11.4772
兗州刺史	-11.4773
彦博	-11.4773
汝礪	-11.4774
舋	-11.4774
有頃	-11.4776
曹叅軍	-11.4776
夕伏	-11.4777
以女妻	-11.4778
庖	-11.4778
驁	-11.4779
擢拜	-11.4779
監丞	-11.478
蓍	-11.4781
天正	-11.4783
十斤	-11.4784
蜀王	-11.4785
二千二百	-11.4785
分命	-11.4786
小功	-11.4787
太守劉	-11.4791
朐	-11.4792
丁壯	-11.4793
閭里	-11.4795
川陜	-11.4797
實喇	-11.4799
並進	-11.48
長流	-11.4801
桓子	-11.4801
守文	-11.4801
冠服	-11.4802
貴臣	-11.481
愚謂	-11.4812
為右丞相	-11.4814
平合	-11.4817
官錢	-11.4817
營州	-11.4818
梁武	-11.4819
説是也	-11.4823
吕氏	-11.4825
譌	-11.4827
至元十三年	-11.4829
十二律	-11.483
捶	-11.483
鋹	-11.4831
帷幄	-11.4832
翹	-11.4834
於庭	-11.4834
芾	-11.4835
方物	-11.4835
黠	-11.4837
何用	-11.4837
庶㡬	-11.4838
羈縻	-11.484
癸已	-11.484
齧	-11.484
荆王	-11.4841
未遑	-11.4843
文彦博	-11.4844
通好	-11.4845
右監門	-11.4846
懐逺	-11.4847
累轉	-11.4848
近習	-11.485
責其	-11.4851
長陵	-11.4853
太社	-11.4855
賈逵	-11.4856
韓王信	-11.4857
光弼	-11.486
丈餘	-11.4861
牙門	-11.4862
十六卷	-11.4862
當塗	-11.4864
救趙	-11.4865
劉向以為	-11.4869
子嬰	-11.487
璟	-11.4872
太官令	-11.4873
案文	-11.4876
尺三寸	-11.4877
太后崩	-11.4878
百石	-11.4878
稱帝	-11.488
除之為	-11.488
非常之	-11.488
實哩	-11.4883
廣平王	-11.4884
天錫	-11.4885
閩越	-11.4887
勇力	-11.4887
虬	-11.4889
貰	-11.489
太室	-11.4891
鄖	-11.4891
州大水	-11.4892
邢洺	-11.4893
保州	-11.4894
兢	-11.4894
鬲	-11.4896
驃騎将軍	-11.4896
并力	-11.4896
濛	-11.4896
髠	-11.4897
一千九百	-11.4897
紵	-11.4897
啇	-11.4898
臭	-11.4899
禮經	-11.4902
甲仗	-11.4904
歴年	-11.4906
館閣	-11.4907
太子賓客	-11.4908
乆矣	-11.4909
祥符	-11.4909
一莖	-11.4909
工人	-11.491
有流星	-11.4911
臺省	-11.4911
虧初	-11.4912
軍興	-11.4913
崔光	-11.4915
鹽官	-11.4916
云何	-11.4917
免役	-11.4919
遂止	-11.4919
舊五代史巻一百	-11.4919
鉅萬	-11.4922
義倉	-11.4923
大小餘	-11.4923
為尚書左丞	-11.4924
何承天	-11.4924
必敗	-11.4926
杖一百	-11.4926
寺觀	-11.4926
親親	-11.493
中牟	-11.4931
王珪	-11.4931
三萬人	-11.4932
季布	-11.4934
張永	-11.4934
成徳軍	-11.4935
七嵗	-11.4939
音弋	-11.4939
以其子	-11.4941
貞觀八年	-11.4941
特們徳爾	-11.4942
政績	-11.4943
琯	-11.4945
無餘	-11.4946
光明	-11.4947
八九	-11.495
兀术	-11.4951
礙	-11.4951
庫庫	-11.4952
齊楚	-11.4952
尚父	-11.4953
尒朱兆	-11.4956
僧尼	-11.4957
羃	-11.4957
長夀	-11.4958
還除	-11.496
不妄	-11.496
甘心	-11.4961
每月	-11.4961
有聲如雷	-11.4962
紹興府	-11.4968
少陽	-11.497
樂浪	-11.4971
異端	-11.4971
忠言	-11.4978
悔之	-11.4978
東垣	-11.4982
位次	-11.4985
從榮	-11.4989
元氏	-11.4989
風化	-11.4989
少孤	-11.499
漢髙祖	-11.499
人吏	-11.4991
國寳	-11.4992
二百九十	-11.4994
後周置	-11.4994
蒼生	-11.4995
水勢	-11.4997
字君	-11.4998
鍼	-11.4998
歩兵	-11.4999
㕘知政事	-11.5
别立	-11.5003
李景	-11.5003
才學	-11.5003
陬	-11.5004
呉郡	-11.5005
芻粟	-11.5008
歿	-11.5009
留心	-11.5009
陜西行省	-11.501
鞏昌	-11.501
御座	-11.501
冤	-11.501
攢	-11.501
安化	-11.5011
搢紳	-11.5012
鵬	-11.5013
両	-11.5013
典籖	-11.5013
舩	-11.5013
燼	-11.5015
弦望	-11.5015
鐃	-11.5016
蔀	-11.5016
朱泚	-11.5016
耆老	-11.5017
圎	-11.5017
文穎曰	-11.5017
甕	-11.5018
稀	-11.5018
禫	-11.5019
邵陵王	-11.5019
喚	-11.502
事畢	-11.5021
文仲	-11.5022
二十一日	-11.5024
族子	-11.5024
存孝	-11.5024
時務	-11.5025
錄事參軍	-11.5027
中軍將軍	-11.5027
進用	-11.5028
家口	-11.5029
錢榖	-11.5029
而行之	-11.5034
順徳	-11.5034
無足	-11.5035
仍命	-11.5035
三州諸軍事	-11.5038
在職	-11.5039
不敢言	-11.504
擾亂	-11.5042
系家	-11.5044
為災	-11.5045
月暈	-11.5045
賀蘭	-11.5047
數十年	-11.5048
劉裕	-11.5049
氏為皇后	-11.5052
朝會	-11.5054
守備	-11.5057
戰不利	-11.5059
三千餘人	-11.5061
立為皇后	-11.5062
齊侯	-11.5063
二漢屬	-11.5064
潢	-11.5064
司隸校尉	-11.5072
㑹赦	-11.5073
郭子儀	-11.5073
常數	-11.5074
秘閣	-11.5075
城破	-11.5075
史館修撰	-11.5076
誄	-11.5077
未知孰是	-11.5078
年正月	-11.5078
隻	-11.5078
餒	-11.5078
悞	-11.5078
踞	-11.508
河南行省	-11.5081
為博士	-11.5082
瞽	-11.5083
佩刀	-11.5083
囿	-11.5083
發喪	-11.5084
攬	-11.5084
通事舎人	-11.5085
文士	-11.5085
上書曰	-11.5086
申公	-11.5086
執笏	-11.5086
戰國策	-11.5088
翕然	-11.5088
諸鎮	-11.5088
無厭	-11.5089
文帝元嘉	-11.509
復起	-11.5091
北齊	-11.5092
范蠡	-11.5093
積石	-11.5093
名號	-11.5093
權貴	-11.5094
大農	-11.5097
拜監察御史	-11.51
音丁	-11.5104
弔祭	-11.5107
諡曰忠	-11.5108
豈容	-11.5109
條例	-11.5109
且欲	-11.5113
元載	-11.5114
承平	-11.5114
諸處	-11.5116
縱兵	-11.5117
天生	-11.5118
渠帥	-11.5119
惠卿	-11.5121
後宮	-11.5122
為盜	-11.5122
僭號	-11.5123
音力	-11.5123
右補闕	-11.5123
矣且	-11.5125
海外	-11.5126
倭	-11.5129
晏然	-11.5132
享太廟	-11.5132
陀	-11.5133
嶺表	-11.5136
囬	-11.5136
陳書卷	-11.5137
悚	-11.5138
萬斛	-11.5138
内職	-11.5139
來附	-11.514
秦將	-11.514
總兵	-11.5142
旗二	-11.5143
訓練	-11.5145
堙	-11.5145
至誠	-11.5146
周勃	-11.5147
奉職	-11.5148
蹶	-11.5148
明年春	-11.5149
清白	-11.5149
南蠻	-11.5149
環州	-11.5151
處直	-11.5152
急流至	-11.5155
梁孝王	-11.5156
陳郡	-11.5158
新厯	-11.5158
按察使	-11.5159
謹按	-11.5159
師旅	-11.5161
一匹	-11.5166
四十萬	-11.5167
西城	-11.5167
羊馬	-11.5168
驤	-11.5169
矯詔	-11.5169
王翦	-11.5169
追復	-11.5171
曹公	-11.5171
受封	-11.5173
濟江	-11.5176
二千餘人	-11.5179
武備	-11.5183
五聲	-11.5183
笑之	-11.5185
長寧	-11.5186
汀	-11.5186
聚兵	-11.5188
摩訶	-11.5189
四年八月	-11.519
衎	-11.519
天皇	-11.5191
三辰	-11.5192
李璮	-11.5194
曰不然	-11.5195
富平	-11.5196
庚戍	-11.5196
太常禮院	-11.5197
制書	-11.5199
司馬遷	-11.5199
甚矣	-11.52
鯀	-11.52
皇甫謐	-11.5201
録事參軍	-11.5204
無狀	-11.5205
矧	-11.5205
門之外	-11.5205
文頴曰	-11.5205
前漢書	-11.5209
誅戮	-11.5209
髙車	-11.521
嗜酒	-11.5211
下流	-11.5212
南史作	-11.5212
犯氐	-11.5213
遣其將	-11.5213
舉兵反	-11.5214
保全	-11.5217
仁孝	-11.5217
律歴	-11.5218
今日之事	-11.5218
六十人	-11.5218
求見	-11.5219
尋又	-11.522
尉氏	-11.5222
丁父憂	-11.5222
四巻	-11.5223
河州	-11.5224
蕭氏	-11.5224
行在所	-11.5225
龍興	-11.5227
句踐	-11.5228
龍且	-11.5229
叛逆	-11.523
阿爾	-11.5233
竒兵	-11.5234
四年春	-11.5234
冬至日	-11.5235
河陽節度使	-11.5236
弓馬	-11.5237
曰某	-11.5243
羣生	-11.5245
歌舞	-11.5245
就加	-11.5245
按察	-11.5246
漢書作	-11.525
歸田里	-11.5257
秃	-11.5261
泓	-11.5261
張湯	-11.5261
訕	-11.5262
躋	-11.5263
車騎大將軍儀同三司	-11.5265
剥	-11.5265
尚可	-11.5265
諸蕃	-11.5266
譁	-11.5268
權勢	-11.5269
懐恩	-11.5269
四百八十	-11.5269
所忌	-11.527
中間	-11.5271
閤門使	-11.5274
宗閔	-11.5276
哈雅	-11.5276
僚佐	-11.5276
元始	-11.5278
老病	-11.5279
辛已	-11.528
簒位	-11.528
典章	-11.5281
申嚴	-11.5281
渭北	-11.5282
唐鄧	-11.5283
接戰	-11.5283
戮之	-11.5284
遇疾	-11.5287
黎庶	-11.5288
二千里	-11.5293
東西路	-11.5293
音扶	-11.5293
年十八	-11.5299
没赤黄有尾跡	-11.53
爵位	-11.5302
國舅	-11.5303
號哭	-11.5305
濟寧	-11.5306
簽書樞宻院事	-11.5307
世宗即位	-11.531
也是以	-11.5312
閠	-11.5313
行軍總管	-11.5314
泚	-11.5316
當斬	-11.5316
已降	-11.5316
腦	-11.5317
十倍	-11.5317
靈運	-11.5319
將作大匠	-11.532
嗣立	-11.5321
澶淵	-11.5321
應侯	-11.5321
介幘	-11.5322
仙芝	-11.5322
疵	-11.5325
神龜	-11.5326
節鎮	-11.5329
銜之	-11.5329
公弼	-11.5329
近日	-11.533
夏至後	-11.533
帝從之	-11.533
鉗	-11.533
十七日	-11.5332
市馬	-11.5333
伋	-11.5334
相遇	-11.5337
舊例	-11.5338
宣徽	-11.5341
永興軍	-11.5342
賂遺	-11.5342
雖多	-11.5343
下獄死	-11.5344
五行志	-11.5348
仍兼	-11.5352
白雀	-11.5352
奏差	-11.5357
奉世	-11.5358
滁	-11.5359
端平	-11.5359
補官	-11.536
獵于	-11.536
三百餘	-11.5361
乾封	-11.5362
九十月	-11.5364
不悟	-11.5365
反又音	-11.5368
聖皇后	-11.5368
曲江	-11.5369
朝歌	-11.5369
雲夢	-11.537
中書左丞	-11.537
之義也	-11.5372
若能	-11.5373
石五斗	-11.5374
州地震	-11.5377
國忠	-11.5379
郿	-11.5379
集一卷	-11.5379
竊見	-11.538
愕	-11.5381
逓	-11.5381
音工	-11.5382
備禦	-11.5383
見錢	-11.5385
朝覲	-11.5389
建康府	-11.539
監本誤	-11.539
槖	-11.539
御營	-11.5391
周師	-11.5391
吐渾	-11.5391
其鋒	-11.5392
郊迎	-11.5393
四年十月	-11.5394
皇地祗	-11.5394
雷電	-11.5394
四部	-11.5394
諌議大夫	-11.5395
四路	-11.5396
二匹	-11.5396
荆軻	-11.5397
安南將軍	-11.5398
沙苑	-11.54
有急	-11.54
日夕	-11.54
擁兵	-11.5401
宫闈	-11.5403
擾民	-11.5403
放還	-11.5404
邵武	-11.5404
湛之	-11.5405
後漢書	-11.5407
進止	-11.5407
經制	-11.5408
亡走	-11.5408
耕種	-11.541
誅滅	-11.5414
二舞	-11.5414
原文	-11.5415
沂州	-11.5416
翼日	-11.5419
十一人	-11.5423
上疏言	-11.5424
軍容	-11.5426
相結	-11.5428
後將軍	-11.5432
三千餘	-11.5435
兵三萬	-11.5437
刪定	-11.5437
李茂貞	-11.5438
李牧	-11.544
元貞元年	-11.5442
其役	-11.5442
條奏	-11.5444
諡曰貞	-11.5445
呂氏	-11.5445
荆門	-11.5445
幰	-11.5446
明安穆昆	-11.5446
涖	-11.5448
笄	-11.5449
臨終	-11.5449
資治通鑑	-11.545
斾	-11.5451
籙	-11.5451
杜陵	-11.5452
瘡	-11.5452
不均	-11.5452
預焉	-11.5452
壬戍	-11.5453
之閒	-11.5458
竟無	-11.5459
衞士	-11.546
啼	-11.546
巴勒	-11.5461
誰能	-11.5461
為廷尉	-11.5465
莫大於	-11.5467
馬牛	-11.5468
無極	-11.547
彊弩	-11.547
東伐	-11.5473
英雄	-11.5476
寢疾	-11.5477
德光	-11.5478
據城	-11.5478
祈雨	-11.5478
㑹昌	-11.5481
榖梁	-11.5481
一身	-11.5483
聞喜	-11.5484
害民	-11.5484
精鋭	-11.5484
不早	-11.5484
屯于	-11.5485
何憂	-11.5488
六星	-11.5489
歸葬	-11.5489
攻秦	-11.549
革命	-11.549
舞陽	-11.5491
河外	-11.5492
俱死	-11.5494
兼散騎常侍	-11.5494
夕見	-11.5494
恒山	-11.5495
溺死者	-11.5501
弩手	-11.5501
貧賤	-11.5503
司馬彪	-11.5504
濰	-11.5504
朕躬	-11.5505
簮	-11.5509
鄂爾多	-11.551
自負	-11.551
襴	-11.5513
邀擊	-11.5513
擇其	-11.5513
關内侯	-11.5515
先農	-11.5515
歸家	-11.5515
湼	-11.5516
泝	-11.5516
新都	-11.5516
達蘭	-11.5517
白虹貫日	-11.5518
賜銀	-11.5518
縠	-11.5518
為太師	-11.5519
減之餘	-11.552
玉輅	-11.552
諸葛亮	-11.5521
屈原	-11.5522
駑	-11.5523
宜依	-11.5524
伍子胥	-11.5528
拜珠	-11.5529
商州	-11.5531
羽林監	-11.5533
犯罪	-11.5534
母憂	-11.5534
項伯	-11.5535
犯天江	-11.5535
叔陵	-11.5536
病甚	-11.5536
繼元	-11.5539
愛人	-11.5543
宥之	-11.5544
臨賀	-11.5546
桓温	-11.5546
劉攽曰注	-11.5548
天眷	-11.5549
屬籍	-11.5549
棄疾	-11.555
於鄴	-11.5551
舂	-11.5552
罵曰	-11.5552
東流	-11.5553
道隆	-11.5553
大角	-11.5555
賊臣	-11.5558
老疾	-11.5558
廷臣	-11.5559
遂圍	-11.5559
便可	-11.5566
季父	-11.5566
右拾遺	-11.5569
内外官	-11.5571
沙陀	-11.5573
寰	-11.5574
感動	-11.5576
擠	-11.5579
醮	-11.5579
元興	-11.5581
季興	-11.5581
宋祁曰注文	-11.5583
各路	-11.5583
煇	-11.5584
麓	-11.5584
新唐書	-11.5586
博物	-11.5586
聲言	-11.5588
隂山	-11.5589
撫慰	-11.5589
祀南郊	-11.5591
釐公	-11.5591
碣石	-11.5592
無患	-11.5593
千餘級	-11.5594
衡山王	-11.5595
劉鄩	-11.5597
聲色	-11.5599
忠節	-11.5599
十有八	-11.5599
冬夏	-11.56
楊素	-11.5603
定積	-11.5603
副留守	-11.5603
兵少	-11.5606
禮遇	-11.5606
晉絳	-11.5606
集三十卷	-11.5608
掌固	-11.5608
法律	-11.5608
漣水	-11.561
崔氏	-11.5611
一丈二尺	-11.5611
便是	-11.5612
升平	-11.5612
崔杼	-11.5616
笑而	-11.5617
賜宴	-11.5619
左手	-11.562
内選	-11.5621
御製	-11.5622
州都督府	-11.5625
東壁	-11.5627
二漢晉屬	-11.5631
依例	-11.5632
政教	-11.5635
褘	-11.5637
永眀	-11.5638
遇赦	-11.5639
直龍圖閣	-11.564
菑	-11.564
宕昌	-11.5641
邊民	-11.5642
主父	-11.5642
昧死	-11.5643
鶉	-11.5643
踐祚	-11.5643
廟號	-11.5645
暄	-11.5646
崇寧戸	-11.5649
班首	-11.5649
月離	-11.5649
丁謂	-11.5652
仰視	-11.5654
上下相	-11.5657
自剄	-11.5658
尉遲	-11.5658
秋冬	-11.5663
遣将	-11.5666
十二大餘	-11.5667
宋齊	-11.5669
昌平	-11.5671
威震	-11.5672
七巻	-11.5674
遜位	-11.5676
每年	-11.5676
誤國	-11.568
避地	-11.5681
諸侯皆	-11.5682
竊發	-11.5685
身被	-11.5689
臨陣	-11.5689
變色	-11.569
有大功	-11.5691
部分	-11.5692
入境	-11.5692
友善	-11.5692
元祐初	-11.5695
天市垣	-11.5695
潞王	-11.5697
博通	-11.5698
盡得	-11.5698
後魏置	-11.57
文史	-11.5702
召問	-11.5702
忠烈	-11.5704
瞿	-11.5704
復業	-11.5705
原文作	-11.5706
翅	-11.5709
射殺	-11.571
未備	-11.571
琇	-11.571
鉛	-11.5712
豁	-11.5713
譛	-11.5713
勺	-11.5715
騖	-11.5715
營繕	-11.5716
限數	-11.572
慮囚	-11.5722
仁傑按	-11.5723
乾安	-11.5725
施用	-11.5727
康叔	-11.573
解去	-11.5736
紫微	-11.5739
隂氣	-11.5744
持重	-11.5744
穆公	-11.5744
詔獄	-11.5745
夷則	-11.5746
萬邦	-11.5748
六年春正月	-11.5748
闗内侯	-11.5749
王旦	-11.575
冠帶	-11.5752
一考	-11.5753
夜出	-11.5754
成紀	-11.5754
漢制	-11.5756
是夕	-11.5756
南陽郡	-11.5758
盧循	-11.5761
逃歸	-11.5762
車駕還宫	-11.5762
大疫	-11.5763
傳位	-11.5764
都校	-11.5765
五日一	-11.5765
親近	-11.5766
一百卷	-11.5766
南院	-11.5767
醖	-11.5768
不能禁	-11.5768
皇祖	-11.5768
大掠	-11.5769
鄯善	-11.5771
調發	-11.5772
宣徽南院使	-11.5773
監本作	-11.5773
日月星辰	-11.5775
盥洗	-11.5778
亦足	-11.5778
緱氏	-11.5779
元振	-11.5779
鏃	-11.5779
后父	-11.578
和好	-11.578
累日	-11.578
兕	-11.5781
晙	-11.5781
浴	-11.5782
洧	-11.5782
方畧	-11.5782
恵王	-11.5785
爕	-11.5786
三品以上	-11.5786
十有二月	-11.5786
態	-11.5786
天寳元年	-11.5792
散走	-11.5792
友珪	-11.5792
永言	-11.5793
左右廂	-11.5794
力士	-11.5794
九章	-11.5795
為左丞相	-11.5795
法得一	-11.5795
屯戍	-11.5798
祝史	-11.5802
三百八十	-11.5805
家室	-11.5805
擊楚	-11.5806
開泰	-11.5806
有尾跡	-11.5807
雄武	-11.5808
白石	-11.5812
増邑	-11.5813
饒陽	-11.5813
去之餘	-11.5815
響應	-11.5816
八巻	-11.5818
紹威	-11.5821
不能對	-11.5822
遣其子	-11.5823
國子學	-11.5824
音許	-11.5826
不知何	-11.5828
既誅	-11.583
鄂囉	-11.583
拒命	-11.583
呉楚	-11.5831
趙盾	-11.5831
紀云	-11.5832
省部	-11.5833
蒯	-11.5837
減死	-11.5838
滉	-11.5838
壑	-11.584
大理寺丞	-11.584
盡禮	-11.584
論一卷	-11.584
隂謀	-11.5841
契丹國志曰	-11.5841
五十卷	-11.5843
筦	-11.5844
慚	-11.5845
建威將軍	-11.5847
萬姓	-11.5848
昊天上帝	-11.585
淮陽王	-11.5852
汝陽	-11.5854
浮橋	-11.5857
孝寛	-11.5858
内府	-11.5859
大略	-11.586
大厯	-11.5861
宋門下侍郎	-11.5866
張衡	-11.587
官一員	-11.587
五品已上	-11.5872
贈太傅	-11.5883
太后臨朝	-11.5883
器用	-11.5883
繼嗣	-11.5884
明旦	-11.5885
毎日	-11.5885
五穀	-11.5887
哀宗	-11.5887
滋甚	-11.5889
人匠	-11.589
復取	-11.5893
為京兆尹	-11.5896
来貢	-11.5896
楚兵	-11.5898
上尊號曰	-11.5899
豪右	-11.59
四百九十	-11.5904
之言也	-11.5904
自稱留後	-11.5904
仲禮	-11.5906
午中	-11.5906
遣使來賀	-11.5907
西北路	-11.5907
翫	-11.5907
陳涉	-11.5907
冠軍将軍	-11.5909
僞	-11.5909
神祗	-11.591
烏丸	-11.591
鷹揚	-11.5912
母后	-11.5912
坡	-11.5913
漿	-11.5915
麋	-11.5915
郭崇韜	-11.5916
蜀漢	-11.5918
大饗	-11.5919
巴郡	-11.592
西南面	-11.5922
老幼	-11.5924
有司言	-11.5925
全活	-11.5925
繼岌	-11.5925
察罕	-11.5926
臣愚以為	-11.5927
書史	-11.5928
互異	-11.593
加都督	-11.593
林鐘	-11.5931
弓弩	-11.5932
紀傳	-11.5933
謀議	-11.5933
禮部郎中	-11.5933
乞致仕	-11.5938
有能名	-11.5939
縣來屬	-11.5942
理宗	-11.5942
朔日食	-11.5945
數歲	-11.5946
四瀆	-11.5949
衞将軍	-11.595
束帛	-11.595
龍山	-11.5955
太祖太祖	-11.5956
衢州	-11.5956
犯壁壘陣	-11.5957
職田	-11.5958
江夏王	-11.5958
如其言	-11.596
固當	-11.5962
經費	-11.5963
庶政	-11.5965
第進士	-11.5967
臣某	-11.5969
茫	-11.5971
絞	-11.5973
老母	-11.5973
藏於	-11.5974
外黄	-11.5974
子羽	-11.5975
詮	-11.5975
敬瑭	-11.5975
弧	-11.5976
颺	-11.5976
詈	-11.5976
百神	-11.5977
撞	-11.5977
幟	-11.5977
三千三百	-11.5979
暴風	-11.5979
螟	-11.598
所統	-11.5981
沛國	-11.5982
鄗	-11.5982
中書侍郎平章事	-11.5986
工部郎中	-11.5987
否則	-11.5988
勝兵	-11.5989
師次	-11.599
禹錫	-11.5991
鄴城	-11.5997
承旨	-11.5998
頤浩	-11.6
侯安都	-11.6
允文	-11.6001
王鎔	-11.6005
應接	-11.6005
珍寳	-11.6006
國珍	-11.6008
其術	-11.6009
禮制	-11.601
跪奏	-11.6011
異議	-11.6012
軍承宣使	-11.6014
門户	-11.6017
斷獄	-11.6019
黄白	-11.6021
南陽太守	-11.6023
宋史卷四百	-11.6025
四百五十	-11.6027
大駭	-11.6027
額森	-11.6027
岳州	-11.6028
庶事	-11.6028
彦澤	-11.6028
将帥	-11.603
州團練副使	-11.6033
不煩	-11.6035
等第	-11.6036
九鼎	-11.604
服䖍	-11.604
建武中	-11.604
兀	-11.604
掊	-11.6042
劉崇	-11.6042
物議	-11.6042
惋	-11.6043
貊	-11.6043
殱	-11.6043
思逺	-11.6044
駰	-11.6044
日暮	-11.6044
誹謗	-11.6044
鞶	-11.6045
禺	-11.6047
㓕	-11.6047
髀	-11.6047
傳首	-11.6047
蟻	-11.6047
誇	-11.6048
元祐元年	-11.6048
賊黨	-11.6048
賞賚	-11.6049
絰	-11.605
淇	-11.605
敗我	-11.605
動揺	-11.6052
縣主簿	-11.6053
永年	-11.6054
營造	-11.6054
旗鼓	-11.6056
十有六	-11.6058
光祖	-11.6062
色赤	-11.6063
侯伯	-11.6063
入閤	-11.6067
邑五百户	-11.6068
徐兖	-11.6071
為趙王	-11.6074
可知矣	-11.6074
小學	-11.6076
後悔	-11.6077
六寸	-11.6078
呉越	-11.6078
周氏	-11.6079
三十餘年	-11.6083
淄青	-11.6086
開元初	-11.6087
蠲其	-11.6087
晉灼	-11.6087
智伯	-11.6088
形如	-11.6092
歸心	-11.6097
寺監	-11.6098
速行至	-11.6099
亷訪司	-11.6102
曹掾	-11.6103
六曹	-11.6103
一級	-11.6104
襦	-11.6105
二人掌	-11.6106
曰古者	-11.6108
厝	-11.6111
靴	-11.6113
䋲	-11.6113
汲黯	-11.6114
孝悌	-11.6114
泰一	-11.6115
摰	-11.6115
蹄	-11.6115
精神	-11.6116
默	-11.6118
崑崙	-11.6118
膏腴	-11.6118
峙	-11.6119
赫赫	-11.6121
秣陵	-11.6122
河源	-11.6125
大雨雹	-11.6125
畱後	-11.6125
庶長	-11.6127
是秋	-11.6128
四十年	-11.6129
尋卒	-11.613
州蠻	-11.6131
衛尉卿	-11.6132
萬乗	-11.6132
相謂曰	-11.6133
移文	-11.6133
首惡	-11.6134
左司	-11.6135
遷徙	-11.6135
為人臣	-11.6136
晉祖	-11.6141
六宫	-11.6145
景和	-11.6145
黎州	-11.6145
漳水	-11.6146
算外即	-11.615
王肅曰	-11.6152
十有四	-11.6153
青冀	-11.6156
崩于	-11.6156
大中大夫	-11.6157
周武王	-11.6157
元起	-11.6157
西羌	-11.6158
病免	-11.6159
斷絶	-11.616
安息	-11.616
土功	-11.6162
避難	-11.6163
五年五月	-11.6165
疽	-11.6167
不得進	-11.617
簿尉	-11.6171
兵馬鈐轄	-11.6171
有警	-11.6173
隋縣	-11.6174
考試	-11.6174
安東將軍	-11.6174
各依	-11.6175
艮	-11.6175
鞬	-11.6176
来朝	-11.6176
謀反伏誅	-11.6176
菲	-11.6176
左藏庫	-11.6178
平東將軍	-11.6179
璆	-11.6179
著為令	-11.618
逕	-11.618
鎮南將軍	-11.618
遠近	-11.6181
羣書	-11.6183
葆	-11.6183
乞罷	-11.6185
舟楫	-11.6186
衘	-11.6186
馳騁	-11.6189
風雲	-11.6189
入援	-11.6191
都邑	-11.6194
閼氏	-11.6195
祭器	-11.62
所轄	-11.6201
仲淹	-11.6202
就第	-11.6203
所管	-11.6206
糧食	-11.6206
九族	-11.6207
三百一十	-11.6208
沙州	-11.621
思恭	-11.621
懿宗	-11.6211
為太保	-11.6212
坦之	-11.6213
館職	-11.622
左角	-11.6222
而遣之	-11.6227
市舶	-11.6229
偓	-11.6231
星辰	-11.6232
陳倉	-11.6233
錫里	-11.6234
鈔法	-11.6234
補外	-11.6234
羡之	-11.6234
仰天	-11.6235
金吾衛	-11.6235
徳哷勒	-11.6237
廣濟	-11.6237
千斤	-11.6242
敎授	-11.6242
槊	-11.6242
澈	-11.6242
義理	-11.6245
蒋	-11.6245
征東將軍	-11.6246
扣	-11.6246
器甲	-11.6247
十五度	-11.6247
韈	-11.6247
征西大將軍	-11.6247
托卜嘉	-11.6248
多闕	-11.6249
纛	-11.6249
咄	-11.625
歸鄉里	-11.6251
倜儻	-11.6252
左右司	-11.6253
箠	-11.6253
梁冀	-11.6255
慕容垂	-11.6257
曲阜	-11.6257
燕山	-11.6257
以下至	-11.6258
来降	-11.6259
遑	-11.6259
御馬	-11.6261
便宜從事	-11.6265
延廣	-11.6268
忠厚	-11.6271
學問	-11.6272
從二品	-11.6275
郭氏	-11.6282
敬宣	-11.6285
合謀	-11.6287
焉耆	-11.6287
數十騎	-11.6287
問罪	-11.6289
捕虜	-11.6289
酷吏	-11.6289
八年正月	-11.6291
三十二年	-11.6294
皇家	-11.6295
召募	-11.6296
諡法	-11.6296
翼翼	-11.6298
熒惑守	-11.6299
䏻	-11.6302
積粟	-11.6305
忠貞	-11.6307
允恭	-11.6307
易簡	-11.6309
賢妃	-11.6309
繼忠	-11.6311
諸夏	-11.6311
觀文殿學士	-11.6313
犯嵗星	-11.6313
砲	-11.6314
燉煌	-11.6315
步軍都指揮使	-11.6315
踏	-11.6315
致齋	-11.6316
辰州	-11.6316
朝散大夫	-11.6316
訂	-11.6318
撰梁有	-11.6319
匄	-11.6321
竇氏	-11.6322
所記	-11.6323
有功者	-11.6323
郡軍事	-11.6324
弇	-11.6324
交㑹	-11.6326
倉廩	-11.6329
世俗	-11.6333
招討司	-11.6339
景崇	-11.634
遥領	-11.6341
半交	-11.6342
十八日	-11.6343
祖庚	-11.6343
鹽課	-11.6348
河北河東	-11.6349
上蔡	-11.6349
兵五千	-11.6349
魯陽	-11.635
妻妾	-11.635
胥吏	-11.6352
改名焉	-11.6353
月給	-11.6354
母妻	-11.6362
仲徳	-11.6365
唐莊宗	-11.6367
川縣	-11.6368
金印	-11.637
二年十二月	-11.6372
諤勒哲	-11.6375
以太牢	-11.6375
元妃	-11.6376
頠	-11.6377
冏	-11.6379
金人犯	-11.6383
北京留守	-11.6383
中統鈔	-11.6383
粟帛	-11.6386
短兵	-11.6386
十六度	-11.6387
懸瓠	-11.6387
秘書省	-11.6387
鎖	-11.6387
肱	-11.6387
論列	-11.6388
歌辭	-11.639
宇宙	-11.6392
入冦	-11.6392
棄城走	-11.6394
噉	-11.6394
離散	-11.6396
也又曰	-11.6399
匃奴	-11.6399
喟然	-11.64
渉獵	-11.64
曹氏	-11.6403
二十餘萬	-11.6405
二十四人	-11.6406
振旅	-11.6407
李全	-11.6409
狀如	-11.6409
假借	-11.6411
城池	-11.6412
升祔	-11.6412
姑息	-11.6412
隋開皇	-11.6413
一星在	-11.6414
上曰朕	-11.6416
加同平章事	-11.6416
有星出	-11.6417
周徳威	-11.6417
樊城	-11.6419
弋陽	-11.642
厚恩	-11.6422
擊殺	-11.6422
張蒼	-11.6422
丁夫	-11.6423
太祖太宗	-11.6423
還鄉里	-11.6424
汜水	-11.6428
闗西	-11.643
豐州	-11.643
中䕶軍	-11.6432
三丈	-11.6433
三族	-11.6434
豈敢	-11.6436
第十一	-11.6438
五刑	-11.644
十八度	-11.644
尚書省奏	-11.6442
閏餘	-11.6442
塞外	-11.6447
統軍司	-11.6447
五年四月	-11.6449
籍其家	-11.6451
件	-11.6452
多爾濟	-11.6452
農夫	-11.6454
書院	-11.6454
谷口	-11.6454
進爵為公	-11.6455
餘滿	-11.6455
華林園	-11.6455
給鈔	-11.6455
流俗	-11.6455
齊桓	-11.6456
勇敢	-11.6456
蔭	-11.6456
廣德	-11.6456
豊	-11.6456
縻	-11.6458
薦舉	-11.6458
合戰	-11.6459
羯	-11.646
飜	-11.646
有膽	-11.6461
武定末	-11.6461
睹	-11.6462
佇	-11.6463
嶺外	-11.6463
以母老	-11.6464
御府	-11.6464
臯陶	-11.6464
開寶	-11.6465
車駕至	-11.6465
殉	-11.6467
晏球	-11.6469
應鐘	-11.6469
闚	-11.647
甲乙	-11.647
栻	-11.6475
疏奏	-11.6475
能否	-11.6476
朝儀	-11.6476
御史中尉	-11.6478
虚實	-11.6479
車駕至自	-11.6479
詔㫖	-11.648
芻糧	-11.6481
容止	-11.6482
庻子	-11.6485
不厭	-11.6487
干寳	-11.6488
臣僚言	-11.6491
簡易	-11.6495
恩寵	-11.6499
淮南節度使	-11.65
嘆曰	-11.6504
五采	-11.6506
末限	-11.6507
非獨	-11.6514
薊州	-11.6515
們	-11.6517
而自立	-11.6522
戎馬	-11.6523
耨	-11.6523
冷	-11.6524
秘書少監	-11.6525
奉車都尉	-11.6525
嶲	-11.6526
典刑	-11.6527
坐酎金	-11.6528
沒入	-11.6528
事勢	-11.6528
爰及	-11.6528
森	-11.6529
宋武帝	-11.6529
謾	-11.6529
宣政	-11.653
蒲坂	-11.6531
三千七百	-11.6531
學術	-11.6531
筑	-11.6533
垢	-11.6534
歔欷	-11.6535
吠	-11.6538
河中節度使	-11.6538
鄭注	-11.654
勞問	-11.6541
鬰	-11.6541
大淵	-11.6544
兌	-11.6544
顔師古	-11.6545
上邽	-11.6545
魏書曰	-11.6547
年十四	-11.6547
材官	-11.6547
徽號	-11.6548
百工	-11.6548
三年十二月	-11.655
上謂宰臣曰	-11.655
眞定	-11.655
乃使人	-11.6551
淮陰	-11.6552
徳順	-11.6553
琴瑟	-11.6554
思綰	-11.6555
繼母	-11.6556
霸州	-11.6557
穆皇后	-11.6559
父祖	-11.6562
伊實	-11.6563
武徳三年	-11.6563
舊恩	-11.6564
霜降	-11.6565
專權	-11.6566
為尚書右丞	-11.6569
旬月	-11.6571
彦卿	-11.6572
與諸將	-11.6576
卒於官	-11.6581
和琳	-11.6585
晉寧	-11.6585
百疋	-11.6586
長安中	-11.6587
鄢	-11.6588
勿令	-11.6589
第十二	-11.6595
二十餘人	-11.6596
掎角	-11.6598
郇	-11.6598
落職	-11.6598
番禺	-11.6599
上洛	-11.6599
埸	-11.66
戊戍	-11.66
拆	-11.6602
衿	-11.6603
胸	-11.6605
趙高	-11.6606
潛邸	-11.6606
銀印	-11.6606
鯁	-11.6606
配位	-11.6606
著述	-11.6607
煮	-11.6607
道宣慰使	-11.661
皇朝	-11.661
巡狩	-11.6611
汨	-11.6611
乎對曰	-11.6614
以父任	-11.6616
不戰而	-11.6617
貴嬪	-11.662
伊勒	-11.6622
義疏	-11.6623
臣不敢	-11.6623
食貨	-11.6632
兵三千	-11.6632
後嗣	-11.6635
長久	-11.6637
益甚	-11.6638
宫闕	-11.6641
白曜	-11.6641
儒生	-11.6644
嵐	-11.6645
厥後	-11.6658
重華	-11.666
二十九日	-11.666
東園	-11.6662
額森特穆爾	-11.6662
文徳殿	-11.6663
躬親	-11.6665
祕閣	-11.6666
卒諡	-11.6666
庫庫特穆爾	-11.6667
觀察處置等使	-11.6667
侯食邑	-11.6668
侍衛親軍	-11.6669
入井	-11.667
紺	-11.667
東越	-11.6671
珽	-11.6674
如常儀	-11.6674
璿	-11.6676
拭	-11.6676
去職	-11.6677
坫	-11.6679
差遣	-11.6681
象先	-11.6681
小雅	-11.6681
將何以	-11.6683
義渠	-11.6683
馬融曰	-11.6685
舅姑	-11.6687
生徒	-11.6688
磁州	-11.6689
南頓	-11.6689
崇祖	-11.669
蘄州	-11.669
犯亢	-11.6691
萬世之	-11.6692
宫架	-11.6694
何異	-11.6695
為監察御史	-11.6695
修徳	-11.6696
部衆	-11.6701
虞舜	-11.6703
南侵	-11.6705
倉部	-11.6706
晨見	-11.6708
兩朝	-11.6712
圖籍	-11.6714
九萬	-11.6715
星孛	-11.6716
說是也	-11.6718
伊洛	-11.6719
攻楚	-11.6719
貫石	-11.6721
禁衛	-11.6723
徼外	-11.6723
字林	-11.673
年十二	-11.6733
剌	-11.6737
兵部員外郎	-11.6738
祕書少監	-11.674
檢校右僕射	-11.6741
贈司空	-11.6741
被圍	-11.6742
釘	-11.6743
耄	-11.6743
皆再拜	-11.6744
龐	-11.6744
出其不意	-11.6745
侍禁	-11.6747
未可知	-11.6747
丙戍	-11.6747
猝	-11.6747
纉	-11.6748
校勘	-11.6749
徙鎮	-11.675
案牘	-11.6752
郟	-11.6752
老臣	-11.6755
義真	-11.6755
渭橋	-11.6758
徐氏	-11.6759
三百七十	-11.6759
劉季	-11.676
江表	-11.6761
不得過	-11.6762
中書右丞相	-11.6763
丞郎	-11.6764
嫣	-11.6766
方面	-11.6767
書籍	-11.6767
淮泗	-11.677
者數十人	-11.677
水所出	-11.6776
延陵	-11.6778
齊受禪	-11.6778
記一巻	-11.678
索虜	-11.6783
紹興元年	-11.6784
數百萬	-11.6785
數倍	-11.6796
自効	-11.6797
折節	-11.6798
猶可	-11.6799
何益	-11.6807
伊勒希巴	-11.6807
右司郎中	-11.6807
七百七十	-11.6808
納延	-11.6808
行入濁	-11.6808
乾元元年	-11.6809
釀	-11.6809
加檢校太尉	-11.681
典儀	-11.681
永固	-11.681
王欽若	-11.6811
彝	-11.6811
粮	-11.6812
挑	-11.6812
婿	-11.6813
紬	-11.6813
詁	-11.6816
隧	-11.6816
長孫無忌	-11.6818
耒	-11.6818
已夘	-11.682
申明	-11.682
爐	-11.682
絫	-11.6821
逗	-11.6822
寧陵	-11.6823
秘書郎	-11.6824
京朝官	-11.6824
僧䖍	-11.6825
夀州	-11.6825
邪正	-11.6827
宣政院	-11.6828
杜氏	-11.6829
青衣	-11.6829
信任	-11.6832
提調	-11.6833
四千六百	-11.6839
三百二十	-11.6843
欽明	-11.6843
歸仁	-11.6844
滅亡	-11.6846
挺身	-11.6846
武德元年	-11.685
異物	-11.6851
可畏	-11.6851
母憂去職	-11.6851
帳中	-11.6851
經緯	-11.6852
空虚	-11.6853
九錫	-11.6858
武安君	-11.6861
為散騎常侍	-11.6864
進秩	-11.6865
豈宜	-11.6866
校獵	-11.6866
趙普	-11.6872
臺閣	-11.6874
彼此	-11.6874
鰥寡孤獨	-11.6875
井中	-11.6876
六年二月	-11.6878
都廵檢使	-11.688
胡騎	-11.6881
秘書	-11.6882
委曲	-11.6886
甌	-11.6887
太子中允	-11.6887
母喪	-11.6888
文炳	-11.6888
淖	-11.6889
輻	-11.6889
土崩	-11.6889
鐫	-11.689
衙門	-11.6891
大暑	-11.6891
舸	-11.6891
巍巍	-11.6891
恭儉	-11.6892
謀叛	-11.6893
炫	-11.6893
折衝都尉	-11.6895
仞	-11.6895
從九品下	-11.6896
挟	-11.6896
一斤	-11.6896
桑維翰	-11.6896
思政	-11.6898
見害	-11.6898
跌	-11.6899
鄭伯	-11.69
旱蝗	-11.69
迪里	-11.6902
王韶	-11.6903
罷知政事	-11.6907
刀筆	-11.6908
從八品下	-11.6909
獻祖	-11.6911
窮治	-11.6917
丞相御史	-11.6918
未息	-11.6919
先驅	-11.6921
羣后	-11.6923
師厚	-11.6925
互市	-11.6926
招致	-11.6926
五年六月	-11.6928
烏程	-11.693
延朗	-11.6934
還鎮	-11.6936
改容	-11.6936
躔	-11.6939
兆民	-11.6941
殷勤	-11.6942
祀典	-11.6942
不俟	-11.6942
秦鳳	-11.6946
威徳	-11.6949
必須	-11.6949
委質	-11.6958
垍	-11.696
賾	-11.6961
不詳	-11.6962
皇城使	-11.6962
為留後	-11.6964
軻	-11.6965
洒	-11.6966
皋	-11.6967
苑囿	-11.6968
閽	-11.6969
剰	-11.6969
坻	-11.697
造作	-11.6972
冢宰	-11.6973
裴駰	-11.6975
掲	-11.6976
紛紛	-11.6976
嬉	-11.6976
器幣	-11.6977
士衆	-11.6977
導從	-11.6978
豪桀	-11.6978
切齒	-11.6981
萬戸府	-11.6983
沿海	-11.6988
性好	-11.6988
太初元年	-11.699
賜號	-11.6991
光庭	-11.6995
休祐	-11.6995
謝晦	-11.6996
閣道	-11.6996
第二十	-11.6999
賈生	-11.7
皇族	-11.7005
坐貶	-11.7007
按視	-11.7009
口一萬	-11.701
申錫	-11.7012
餘杭	-11.7014
例降	-11.7022
六千五百	-11.7023
舒州	-11.7027
斡罕	-11.7029
歳星	-11.7032
四百六十	-11.7033
謩	-11.7035
慰諭	-11.7035
聨	-11.7037
邊郡	-11.7037
朔旦冬至	-11.7037
所劾	-11.7037
鰥寡	-11.7038
征南大將軍	-11.7038
論一巻	-11.7039
裾	-11.7039
璵	-11.704
怏怏	-11.704
逋負	-11.704
大呂	-11.704
岌	-11.7041
長貳	-11.7042
與日合	-11.7043
髦	-11.7043
肉刑	-11.7043
詞賦	-11.7047
白露	-11.7048
廢太子	-11.7049
亞終獻	-11.7049
犯鬼	-11.7049
斟	-11.705
黎元	-11.7051
立為皇太子	-11.7052
桀紂	-11.7052
號稱	-11.7053
張晏	-11.7055
二千九百	-11.7056
長史司馬	-11.7056
平凉	-11.7056
十九日	-11.7059
愛民	-11.706
▁|||	-11.706
淄州	-11.7062
三十餘人	-11.7063
遷給事中	-11.7065
訛言	-11.7066
鮮于	-11.707
先皇	-11.7072
隔絶	-11.7073
遥光	-11.7076
厚加	-11.7078
子姪	-11.7081
增損	-11.7083
辭不受	-11.7085
太祖即位	-11.7087
尺四寸	-11.7087
二十四氣	-11.7093
没青白有尾跡	-11.7095
遇敵	-11.7101
三百三十	-11.7103
宣祖	-11.7103
紫微垣	-11.7103
集二十巻	-11.7105
南走	-11.7107
天穆	-11.7109
百餘萬	-11.7109
髙麗國王	-11.711
憺	-11.711
坂	-11.7111
軍統制	-11.7112
剽掠	-11.7112
笳	-11.7112
黄老	-11.7114
來救	-11.7114
犁	-11.7114
劉義隆	-11.7115
能屬文	-11.7116
危急	-11.7116
鹹	-11.7116
飛狐	-11.7117
縉紳	-11.7117
安巴堅	-11.7118
榦	-11.7119
闞	-11.712
侍中領	-11.712
劉敞曰	-11.7121
衛青	-11.7123
李林甫	-11.7126
蒿	-11.7127
楊光逺	-11.7129
右執法	-11.7134
白虹	-11.7136
及餘秒	-11.7139
堂下	-11.714
火燒	-11.714
承乾	-11.7144
浚儀	-11.7144
秀才	-11.7146
明年正月	-11.7146
秀州	-11.7148
孟康	-11.7148
王恢	-11.7148
風角	-11.715
偏師	-11.7151
右扶風	-11.7152
誰可	-11.7153
檢校太師	-11.7153
許諾	-11.7153
出境	-11.7154
寇邊	-11.7155
軍司馬	-11.7158
請託	-11.716
工役	-11.7162
長社	-11.7163
持節都督	-11.7165
奉冊	-11.7165
考證欽定四庫全書舊唐書卷	-11.7169
進圍	-11.7169
青徐	-11.717
何哉	-11.717
夏貴	-11.7172
三衙	-11.7178
可疑	-11.7179
羽林軍	-11.7179
簿書	-11.7179
肅肅	-11.718
祇候	-11.7182
都堂	-11.7183
五大夫	-11.7183
正衙	-11.7184
鏗	-11.7188
竟陵王子良	-11.7188
粒	-11.7188
力屈	-11.7189
様	-11.7191
嘿	-11.7194
菩薩	-11.7194
栅	-11.7194
孔目官	-11.7194
區宇	-11.7194
不朽	-11.7196
阨	-11.7196
彖	-11.7196
左執法	-11.7197
一萬五千	-11.7199
歐陽修	-11.7199
稍稍	-11.7199
任職	-11.72
鉏	-11.7201
忠直	-11.7202
邑五百戸	-11.7203
以便宜	-11.7203
沬	-11.7203
髙琪	-11.7205
遇賊	-11.7206
鼓譟	-11.7207
求賢	-11.7208
作詩	-11.7209
夏秋	-11.721
鄭𤣥注	-11.721
齊髙帝	-11.721
相聚	-11.7211
聊城	-11.7212
率歩騎	-11.7214
吳起	-11.7214
𢎞肇	-11.7215
頓丘	-11.7216
數百騎	-11.7221
嵩山	-11.7222
未暇	-11.7229
寛仁	-11.723
夏口	-11.7234
七年春正月	-11.7236
問疾	-11.7237
邉事	-11.724
入京師	-11.724
固執	-11.7242
徽州	-11.7243
九原	-11.7245
國公主	-11.7246
都督中外諸軍事	-11.7246
太原府	-11.7247
宜春	-11.725
無愧	-11.725
金輅	-11.7252
擊胡	-11.7252
各得其	-11.7255
變易	-11.7255
居䘮	-11.7255
願大王	-11.7256
大悅	-11.7257
西上閤門使	-11.7258
傷稼	-11.726
五嶽	-11.7261
門下省	-11.7261
游擊將軍	-11.7262
特爾格	-11.7262
再拜訖	-11.7263
休仁	-11.7263
寒露	-11.7264
禖	-11.7264
舊史	-11.7264
八嵗	-11.7264
交州刺史	-11.7264
照磨	-11.7265
大行皇帝	-11.7265
褊	-11.7267
租稅	-11.7267
五年三月	-11.7268
禮部員外郎	-11.7269
縶	-11.7269
秘書丞	-11.727
縢	-11.727
悴	-11.7271
贅	-11.7272
紛紜	-11.7272
唐張守節撰	-11.7273
篋	-11.7273
媿	-11.7273
請謁	-11.7273
靁	-11.7275
日磾	-11.7275
鉅野	-11.7275
左監門	-11.7275
齡石	-11.7277
朱异	-11.7279
平行分	-11.7279
直學士院	-11.728
文武百官	-11.728
提舉一員	-11.7282
水衡	-11.7288
築長城	-11.7289
太平州	-11.729
馬步	-11.729
范雎	-11.7291
舉酒	-11.7293
十丈	-11.7296
袁術	-11.7297
説非也	-11.7299
文宣王	-11.7299
蒙古	-11.73
在長安	-11.7301
天人之	-11.7303
再犯	-11.7305
就食	-11.7309
監察	-11.7309
自縊	-11.731
言事者	-11.7315
蘇代	-11.7315
春秋之義	-11.7316
物力	-11.7318
丞相府	-11.7319
新昌	-11.7319
率百官	-11.7322
八卦	-11.7322
姊妹	-11.7329
右光禄大夫	-11.7329
禆將	-11.7334
崇寜	-11.7337
六嵗	-11.7337
潼川	-11.7339
兵勢	-11.7339
四川行省	-11.7339
𤓰爾佳	-11.7339
頒行	-11.734
耘	-11.7341
十有一月	-11.7341
金史卷	-11.7341
錐	-11.7342
晧	-11.7343
侯景之亂	-11.7344
從父弟	-11.7346
疆場	-11.7346
欝	-11.7346
馬融	-11.7347
脣	-11.7347
刷	-11.7347
鏁	-11.7347
閔帝	-11.7347
曰寡人	-11.7348
貿	-11.7348
巫蠱	-11.7348
都知兵馬使	-11.7349
蹔	-11.7349
年十七	-11.7349
驕恣	-11.7354
陸生	-11.7355
魏徴	-11.7356
爵邑	-11.7356
宫掖	-11.7359
僇	-11.7359
客省	-11.7359
彌逺	-11.7361
旗各一	-11.7362
貞觀初	-11.7363
臧質	-11.7364
五千三百	-11.7364
不得志	-11.7365
長老	-11.7365
知潭州	-11.7365
果毅	-11.7366
二十五日	-11.7366
其咎	-11.7368
觀察判官	-11.7369
宋史卷	-11.737
續漢書曰	-11.7375
罔不	-11.7377
聖祖	-11.7377
忠勇	-11.7378
疾甚	-11.7384
孟津	-11.7389
流沙	-11.7391
上庸	-11.7391
自是之後	-11.7392
家奴	-11.7397
尺餘	-11.7398
羌胡	-11.7398
三百餘人	-11.74
削奪	-11.7401
遯甲	-11.7404
擢用	-11.7405
駕士	-11.7408
五百户	-11.7409
仕進	-11.741
陵寢	-11.7413
嗇	-11.7414
古今注曰	-11.7415
鼐	-11.7416
行参軍	-11.7418
弘文館	-11.7418
領縣一	-11.7418
小雪	-11.7419
刈	-11.742
屯騎校尉	-11.742
漢官儀曰	-11.7421
摛	-11.7421
杜門	-11.7422
狼狽	-11.7422
姑臧	-11.7424
佺	-11.7424
湍	-11.7424
汝南王	-11.7426
鮪	-11.7426
鎛	-11.7427
審琦	-11.7428
猜忌	-11.7428
糞	-11.7428
毀	-11.7429
提領一員	-11.7429
憙	-11.7433
神功	-11.7436
彗星出	-11.7438
乾象	-11.7439
爵賞	-11.7443
亰師	-11.7446
突騎	-11.7447
班劒	-11.7447
四百四十	-11.7447
夀昌	-11.7448
幷州	-11.7449
朐山	-11.7449
廉頗	-11.7449
犬戎	-11.745
曰諾	-11.7453
中庶子	-11.7453
羲和	-11.7456
也晉灼曰	-11.7457
夜漏	-11.7459
詔許之	-11.746
趙郡王	-11.7461
已来	-11.7467
榮祖	-11.7468
散騎	-11.7469
彦回	-11.7469
應援	-11.747
侵擾	-11.7471
藥師	-11.7477
市井	-11.7479
賜實封	-11.7479
涼州刺史	-11.748
色黄	-11.7481
領軍将軍	-11.7483
僧珍	-11.7484
之本也	-11.7487
惟忠	-11.7488
失業	-11.7491
孰能	-11.7492
請救	-11.7493
簴	-11.7494
武徳令	-11.7494
征虜将軍	-11.7494
遷散騎常侍	-11.7495
从	-11.7496
塢	-11.7497
架閣	-11.7497
縋	-11.7497
埀	-11.7498
嵬	-11.7499
撾	-11.75
釡	-11.75
竪	-11.7501
佾	-11.7501
彭城王義康	-11.7501
酇	-11.7501
逡	-11.7501
陴	-11.7501
果毅都尉	-11.7502
嘯	-11.7504
秩從五品	-11.7504
靺鞨	-11.7505
纖	-11.7505
橘	-11.7505
訶	-11.7505
塔斯	-11.7508
北靣	-11.751
薛安都	-11.751
瑣	-11.751
諒闇	-11.7511
肴	-11.7512
後數日	-11.7514
莫肯	-11.7514
侵掠	-11.7515
䕃補	-11.7516
應天府	-11.7524
唐太宗	-11.7524
百揆	-11.7524
時年六十	-11.7526
飛鳥	-11.7527
徵拜	-11.7528
五員	-11.7528
儀衛	-11.7528
究其	-11.7528
平陸	-11.7528
諌曰	-11.7531
鄢陵	-11.7532
楚材	-11.7534
大裘	-11.7537
事迹	-11.7537
阿古	-11.7539
解圍	-11.754
鄰國	-11.754
陵遲	-11.7544
非敢	-11.7548
風俗通	-11.7549
叔業	-11.7549
冀寧	-11.7551
既久	-11.7554
知州事	-11.7555
丞二人	-11.7556
唐堯	-11.7563
建武二年	-11.7563
一千七百	-11.7563
孟古岱	-11.7567
部伍	-11.7567
資政殿大學士	-11.7568
決河	-11.757
兵萬人	-11.7571
神龍初	-11.7571
迸	-11.7575
九年正月	-11.7575
集賢殿大學士	-11.7575
六品以下	-11.7576
長水校尉	-11.7576
衣一襲	-11.7578
越騎校尉	-11.7578
崤	-11.758
俚	-11.758
薩喇	-11.758
鎮軍將軍	-11.758
案歐陽史作	-11.758
垓	-11.758
鑊	-11.7581
麒麟	-11.7581
詧	-11.7582
郄	-11.7583
槐里	-11.7583
嫚	-11.7584
虞夏	-11.7584
穫	-11.7584
㛰	-11.7585
前期	-11.7586
全斌	-11.7586
悽	-11.7587
杼	-11.7589
黍稷	-11.759
惶恐	-11.759
無恙	-11.7592
合勢	-11.7593
送欵	-11.7596
回回	-11.7598
罪一等	-11.7598
準布	-11.76
荆山	-11.7601
右手	-11.7603
經綸	-11.7605
不湏	-11.7605
帝嗣位	-11.7606
訣一巻	-11.7611
邦昌	-11.7612
未央宫	-11.7613
郴州	-11.7614
漳州	-11.7614
宣力	-11.7626
景辰	-11.7626
江隂	-11.7626
兵二萬	-11.7627
堯舜之	-11.7628
藉田	-11.7629
御殿	-11.7632
𤣥武	-11.7632
獻方物	-11.7636
貢士	-11.7636
千戶	-11.7638
素聞	-11.7638
四百七十	-11.7642
山南東道	-11.7642
扶南	-11.7642
棟摩	-11.7643
賜鈔	-11.7644
雲南行省	-11.7645
孥	-11.7645
未見其	-11.7646
髙第	-11.7646
純仁	-11.7648
元凶	-11.7648
袴褶	-11.7649
絁	-11.7653
横流	-11.7653
宣徽北院使	-11.7654
祺	-11.7654
麟州	-11.7654
欽定四庫全書金史卷	-11.7655
認	-11.7657
彚	-11.7658
滹沱	-11.7658
臠	-11.7658
新舊	-11.7659
炤	-11.7659
貞觀元年省	-11.766
房玄齡	-11.766
絳紗	-11.7661
建安王	-11.7662
延孝	-11.7663
』	-11.7663
晉太康地志屬	-11.7663
差役	-11.7664
蓼	-11.7667
剖符	-11.7668
悵	-11.7669
第三星	-11.7671
日及分	-11.7671
吳興太守	-11.7673
烏哲	-11.7674
臺諌	-11.7675
温舒	-11.7684
㑹稽太守	-11.7689
關西	-11.7691
綱目	-11.7695
行尚書省	-11.7696
七百人	-11.7702
紫宫	-11.7705
驅馳	-11.7707
約尼	-11.771
犬馬	-11.7714
親祠	-11.7717
守捉	-11.7717
命如前	-11.7717
袁州	-11.7721
遣使獻	-11.7722
之謂也	-11.7723
羊豕	-11.7724
考校	-11.7726
助祭	-11.7726
赴難	-11.7729
玫	-11.7729
毳	-11.773
李晟	-11.7731
羽儀	-11.7735
祅	-11.7735
翩	-11.7735
衾	-11.7736
蘊	-11.7736
受爵	-11.7736
輕薄	-11.7738
左賢王	-11.7739
沈慶之	-11.7741
史記正義卷	-11.7743
加特進	-11.7743
焚燒	-11.7743
泯	-11.7744
懐英	-11.7744
以功封	-11.7744
梨	-11.7745
闔門	-11.7747
帝堯	-11.7748
四百一十	-11.7749
巋	-11.775
楚莊王	-11.775
邊防	-11.7751
蛟	-11.7752
存信	-11.7754
好問	-11.7754
廂軍	-11.7756
招誘	-11.7757
桂林	-11.7758
積聚	-11.7759
不輟	-11.7762
日所在	-11.7771
姦謀	-11.7771
六年四月	-11.7771
四年九月	-11.7771
坐贓	-11.7774
音千	-11.7776
捕得	-11.7778
帝曰卿	-11.778
二千八百	-11.7781
據險	-11.7784
連結	-11.7787
有文集	-11.7787
震動	-11.7788
取㫖	-11.7796
外命婦	-11.7798
絹各	-11.7798
長一丈	-11.78
丈人	-11.7803
龍泉	-11.7805
之遴	-11.7805
巳丑	-11.7806
陳蔡	-11.7809
金飾	-11.781
料錢	-11.781
南京留守	-11.781
武丁	-11.781
騭	-11.7811
浮梁	-11.7813
右司員外郎	-11.7815
涵	-11.7815
秪	-11.7815
殪	-11.7816
友謙	-11.7816
媒	-11.7817
總制	-11.7817
觀望	-11.7817
斿	-11.7817
鉢	-11.7818
入羽林	-11.7819
小校	-11.7821
鄜坊	-11.7821
瓶	-11.7823
鎮東將軍	-11.7823
詣京師	-11.7825
吏部員外郎	-11.7825
椽	-11.7825
謠	-11.7826
僖公	-11.7826
䍐	-11.7828
曇朗	-11.7828
侍郞	-11.7831
橈	-11.7832
人相食	-11.7833
北面行營	-11.7833
荊	-11.7834
中統元年	-11.7835
糾察	-11.7835
得其人	-11.7836
仁壽	-11.7836
閬州	-11.7841
達魯	-11.7842
王敬則	-11.7844
遥授	-11.7845
世傑	-11.7845
日及餘秒	-11.7845
稱萬嵗	-11.7846
相拒	-11.7848
兩川	-11.785
躍馬	-11.7856
軺車	-11.786
極論	-11.786
卒時年五十	-11.7861
戒之曰	-11.7862
犯贓	-11.7863
伊闕	-11.7864
諡曰恭	-11.787
集三巻	-11.787
畧地	-11.7871
官品	-11.7873
祀天地	-11.7875
巴爾	-11.7877
誣告	-11.7878
太湖	-11.7886
更造	-11.7887
濟陰	-11.7892
戱	-11.7892
頴胄	-11.7894
灣	-11.7894
華林	-11.7896
緦麻	-11.7897
刑部員外郎	-11.7897
緇	-11.7897
路饑	-11.7898
馘	-11.7898
敺	-11.7898
鎮西將軍	-11.7899
賜紫金魚袋	-11.7901
賜絹	-11.7901
錦繡	-11.7901
姧	-11.7901
殛	-11.7902
遹	-11.7902
憕	-11.7903
衆咸	-11.7905
押衙	-11.7905
星隕	-11.7906
娠	-11.7906
酆	-11.7906
葛從周	-11.7906
邛	-11.7908
怛	-11.7908
永豐	-11.7909
公羊傳曰	-11.791
曹彬	-11.791
旦日	-11.7914
概	-11.7914
兵擊之	-11.7915
蕪湖	-11.7915
尤善	-11.7916
孝恭	-11.7918
豚	-11.7918
居無何	-11.7918
公孫𢎞	-11.7918
采石	-11.792
僖祖	-11.792
劉賈	-11.792
一萬二千	-11.7921
暴露	-11.7921
示天下	-11.7927
招撫使	-11.7928
王公以下	-11.7928
庶務	-11.7928
罔極	-11.7929
陪位	-11.7931
以疾辭	-11.7932
戰破之	-11.7932
庻人	-11.7932
二百餘人	-11.7933
平陽侯	-11.7934
不悛	-11.7937
雲雨	-11.7939
利病	-11.7941
後漢屬	-11.7941
有鐡	-11.7942
聖皇	-11.7944
卒于家	-11.7944
周世宗	-11.7952
||||||	-11.7954
二百匹	-11.7955
糧運	-11.7958
尚存	-11.7958
等五人	-11.7958
版位	-11.7961
弗許	-11.7962
賽	-11.7965
阿那瓌	-11.7965
十有五	-11.7968
察罕特穆爾	-11.7969
攝政	-11.797
三年冬	-11.7971
佛法	-11.7972
參差	-11.7974
天正十一月	-11.7974
諸司使	-11.7976
賊勢	-11.7976
訃	-11.7977
享于太廟	-11.7977
縁邊	-11.7977
謔	-11.7978
度遼將軍	-11.798
仄	-11.798
五年七月	-11.7981
肩輿	-11.7981
天下幸甚	-11.7982
闍	-11.7982
集賽	-11.7982
犯邊	-11.7983
甯	-11.7983
璇	-11.7983
十萬緡	-11.7984
州守臣	-11.7984
耐	-11.7985
滏	-11.7985
盞	-11.7985
韙	-11.7985
氓	-11.7985
柷	-11.7986
配食	-11.7986
炊	-11.7987
帝曰朕	-11.7987
刳	-11.7988
瑤	-11.7988
去京都水	-11.7989
皇太妃	-11.799
族滅	-11.7993
宓	-11.7994
靖康元年	-11.7997
咫尺	-11.7997
五百匹	-11.7999
房心	-11.8001
武徳五年	-11.8001
蒯通	-11.8002
郊社	-11.8003
羿	-11.8004
未决	-11.8006
七百五十	-11.8007
年十六	-11.8007
貪暴	-11.8009
可知也	-11.801
干戚	-11.801
奔潰	-11.8012
輔弼	-11.8013
入太㣲	-11.8015
岳陽	-11.8016
魏文侯	-11.8017
憤怒	-11.8018
河東太守	-11.8019
黄龍府	-11.802
李徳裕	-11.802
懐忠	-11.8027
平灤	-11.8036
慶雲	-11.8037
加檢校太傅	-11.8038
會昌	-11.8038
鍾山	-11.8039
繼恩	-11.8043
竺	-11.8044
朱衣	-11.8046
衙前	-11.8046
子勛	-11.8046
老父	-11.8046
自矜	-11.8047
殊禮	-11.805
榮禄大夫	-11.8053
祭仲	-11.8054
匭	-11.8055
次序	-11.8055
續漢志曰	-11.8055
荆楚	-11.8056
墀	-11.8058
敖倉	-11.8058
彊秦	-11.8059
喀	-11.806
兵喪	-11.806
左右丞	-11.8061
唾	-11.8062
骸骨	-11.8062
臣妾	-11.8063
疚	-11.8063
鎻	-11.8064
墅	-11.8065
明帝即位	-11.8065
侗	-11.8066
檢校禮部尚書	-11.8067
領縣三户	-11.8068
峭	-11.8069
讁	-11.807
魏志卷	-11.807
竇嬰	-11.807
垂簾	-11.807
寥	-11.8071
頵	-11.8072
龍驤	-11.8075
雨土	-11.8075
祥瑞	-11.8076
千户所	-11.8076
總章	-11.8076
纍	-11.8078
肺	-11.8079
感悟	-11.8083
洛邑	-11.8083
愛幸	-11.8085
俘斬	-11.8086
相似	-11.8087
悲夫	-11.8088
揖讓	-11.8091
金剛	-11.8092
共攻	-11.8092
隴州	-11.8094
都承㫖	-11.8095
襲破	-11.8097
惜哉	-11.8098
勁兵	-11.8098
得脱	-11.8099
博渉	-11.8099
農民	-11.8104
畜産	-11.8104
降階	-11.8104
金紫	-11.8104
曰此非	-11.8106
裨將	-11.8116
贈司徒	-11.8118
典籍	-11.8122
被災	-11.8123
里北至	-11.8123
樞宻院事	-11.8124
遺表	-11.8125
其辭曰	-11.8125
漢縣屬	-11.8127
謂宰臣曰	-11.8131
枉法	-11.8133
巴圖爾	-11.8135
特穆爾布哈	-11.8135
公卿大夫	-11.8136
躭	-11.8136
謹案	-11.8137
袁氏	-11.814
䖍州	-11.8142
等處行中書省	-11.8146
犧牲	-11.8152
豆盧	-11.8152
協律郎	-11.8153
峩	-11.8154
金墉	-11.8154
阼階	-11.8155
廬舎	-11.8156
赧	-11.8156
皥	-11.8157
乾德	-11.8157
痾	-11.8159
蔡確	-11.816
太學生	-11.8161
浮圖	-11.8161
頡利	-11.8162
八座	-11.8163
静江	-11.8164
李靖	-11.8166
天正冬至	-11.8166
南呂	-11.8167
弑逆	-11.8168
亘天	-11.8168
殿前司	-11.8172
遺風	-11.8172
冠冕	-11.8173
蒙恬	-11.8175
宗廟社稷	-11.818
淮海	-11.8181
傒	-11.8182
秦隴	-11.8184
户部郎中	-11.8186
棗陽	-11.8186
侍中如故	-11.8189
劉晏	-11.8191
出笏	-11.8191
字誤	-11.8193
登極	-11.8194
師友	-11.8194
至元元年	-11.8195
定䇿	-11.8195
志第一百	-11.8199
竹木	-11.8201
李嗣昭	-11.8201
朗州	-11.8206
丞相巴延	-11.8206
獨斷	-11.821
塡	-11.821
有大志	-11.8213
急務	-11.8218
京東西	-11.822
麞	-11.8222
圖們	-11.8223
鍚	-11.8223
教習	-11.8224
正議大夫	-11.8226
攷證	-11.8228
灸	-11.8229
銷金	-11.823
謝承書曰	-11.8231
都水使者	-11.8231
線	-11.8233
摽	-11.8233
刄	-11.8234
銀絹	-11.8234
好讀書	-11.8235
幔	-11.8235
鶚	-11.8236
靑	-11.8236
欽定四庫全書史記正義卷	-11.8236
度支判官	-11.8236
僦	-11.8237
繭	-11.8237
田單	-11.8237
僅以身免	-11.8237
渭水	-11.8238
塤	-11.8238
頰	-11.8238
煑	-11.8239
諠	-11.8242
告老	-11.8242
悠悠	-11.8244
對䇿	-11.8244
宗幹	-11.8248
司馬相如	-11.8248
鄭氏曰	-11.8248
賦歛	-11.8249
路安撫使	-11.825
以百數	-11.825
聚歛	-11.8251
廢帝即位	-11.8252
諌官	-11.8254
出閤	-11.8254
」,	-11.8262
音竹	-11.8263
交鈔	-11.8267
席卷	-11.8269
公綽	-11.8277
掩襲	-11.8278
十餘丈	-11.8279
李光弼	-11.828
親黨	-11.828
聖躬	-11.8282
禪位	-11.8284
坐事免	-11.8287
糧盡	-11.8288
里克	-11.8289
至大元年	-11.829
莫知所	-11.8294
桑乾	-11.8302
不能自存者	-11.8304
祀昊天上帝	-11.8305
逐北	-11.8311
慕義	-11.8312
歉	-11.8312
轝	-11.8316
億萬	-11.8317
龍圖閣學士	-11.8318
王黼	-11.8319
芟	-11.8319
漬	-11.8319
檐	-11.8319
漢蘭臺令史班固撰唐正議大夫行	-11.8319
鳬	-11.832
吸	-11.8321
夏后氏	-11.8322
日及餘	-11.8323
屨	-11.8323
山南東道節度使	-11.8327
徐兗	-11.8327
兆庶	-11.8329
趙汝愚	-11.833
西界	-11.833
學博士	-11.833
江陵府	-11.8333
霸陵	-11.8333
納欵	-11.8334
編管	-11.8336
綏州	-11.8337
州又改	-11.8341
希範	-11.8342
司農少卿	-11.8344
從其請	-11.8346
司農寺	-11.8346
漕臣	-11.8348
寒心	-11.835
犯五諸侯	-11.8353
墾田	-11.8354
壽陽	-11.8355
貧富	-11.8356
晨伏	-11.8358
巳酉	-11.8359
次畿	-11.836
射獵	-11.8361
子也母曰	-11.8363
不撓	-11.8363
動静	-11.8366
官努	-11.8366
四千四百	-11.8368
曰主上	-11.8371
滕公	-11.8372
夷滅	-11.8372
地祗	-11.8374
制曰可	-11.8377
新書作	-11.8378
西向立	-11.838
永泰元年	-11.838
家僮	-11.8383
督責	-11.8383
宋元嘉	-11.8385
翊衛	-11.8386
隄防	-11.8388
督戰	-11.8391
涇原路	-11.8394
所生母	-11.8395
崇政殿	-11.8396
按漢書	-11.8397
安北將軍	-11.8397
裕宗	-11.8397
杏	-11.8398
大理少卿	-11.84
三百四十	-11.8401
攄	-11.8401
迎謁	-11.8402
溪洞	-11.8403
假黄鉞	-11.8403
㸑	-11.8403
名譽	-11.8403
郅支	-11.8404
豺狼	-11.8404
檢校兵部尚書	-11.8404
檢校左僕射	-11.8404
進爵為侯	-11.8404
髯	-11.8405
剔	-11.8405
物價	-11.8406
洋洋	-11.8406
畎	-11.8406
七十人	-11.8409
祕書省	-11.841
鼈	-11.8411
睨	-11.8412
馬牛羊	-11.8413
穰苴	-11.8413
倉曹	-11.8413
左副元帥	-11.8413
好畤	-11.8414
亦以此	-11.8415
幕職	-11.8416
十有七	-11.8416
佃夫	-11.8417
十年正月	-11.8417
皇太子妃	-11.8418
聚斂	-11.842
奠幣	-11.842
指麾	-11.842
館伴	-11.8425
京湖	-11.8426
』。	-11.8427
闔廬	-11.8428
任俠	-11.8431
閨	-11.8434
入禁中	-11.8435
天監初	-11.8438
一代之	-11.8439
蘄黄	-11.844
呼圖	-11.8441
往来	-11.8441
歴一卷	-11.8446
者不可勝數	-11.8447
餘姚	-11.8449
蘭臺	-11.845
府主簿	-11.8453
提舉常平	-11.8454
南康王	-11.8454
邽	-11.8455
増損	-11.8459
錢二十萬	-11.8459
荀卿	-11.846
如之何	-11.846
邦彦	-11.8461
巳未	-11.8461
誣奏	-11.8466
至濁没	-11.8467
之詩也	-11.8469
去長安	-11.8474
從九品上	-11.8475
傳檄	-11.8475
瀋	-11.8476
尺八寸	-11.8479
騷	-11.848
厚賞	-11.848
禾稼	-11.8481
卧内	-11.8482
帕	-11.8482
兵千人	-11.8483
侯莫陳	-11.8483
廙	-11.8485
織成	-11.8485
虞允文	-11.8486
聚黨	-11.8487
轢	-11.8488
征南將軍	-11.8489
棧	-11.8489
賽音	-11.8489
嵗饑	-11.849
彜	-11.849
挂	-11.8492
䆒	-11.8494
卒時年六十	-11.8495
殘缺	-11.8495
四千九百	-11.8497
萬幾	-11.8497
椁	-11.8497
小黄門	-11.8499
扶餘	-11.8502
延熹	-11.8503
嵗貢	-11.8504
買馬	-11.8506
族弟	-11.8507
剛直	-11.8508
斑	-11.8509
讀祝	-11.8513
上疏論	-11.8515
字或作	-11.8515
檢討	-11.8515
流寓	-11.8518
不得已而	-11.8521
供軍	-11.8522
香案	-11.8527
第宅	-11.8527
錢十萬	-11.8531
仁恕	-11.8531
疏勒	-11.8532
曹爽	-11.8538
釋氏	-11.8538
火災	-11.8543
太平興國初	-11.8545
舊唐書	-11.8547
漕司	-11.8556
遣使獻方物	-11.8556
提領所	-11.8557
切責	-11.8558
蕚	-11.8562
嵇	-11.8566
墉	-11.8571
簠	-11.8574
集賢院	-11.8574
升壇	-11.8574
蹋	-11.8574
猖	-11.8576
爵一級	-11.8576
貔	-11.8576
豢	-11.8577
無㡬	-11.8578
搢	-11.8579
斧鉞	-11.8579
太后太后	-11.8581
八佾	-11.8581
迓	-11.8582
粱	-11.8582
邵陵	-11.8585
縗	-11.8588
忤㫖	-11.859
南兗州刺史	-11.8592
窋	-11.8595
麟府	-11.8596
或勸	-11.8596
虎牙	-11.8597
隰州	-11.8598
季連	-11.8602
弓手	-11.8604
太原尹	-11.8611
塗山	-11.8614
祠祭	-11.8619
拱辰	-11.8621
天柱	-11.8626
李筠	-11.8629
景午	-11.8629
饑寒	-11.8634
金幣	-11.8639
突入	-11.8641
其屍	-11.8644
乘車	-11.8648
逹嚕噶齊	-11.8649
禃	-11.8649
朓朒	-11.8649
犯填星	-11.865
五代㑹要	-11.8653
朔小餘	-11.8653
褾	-11.8654
告哀	-11.8654
盩厔	-11.8655
講論	-11.8657
盱	-11.8657
此又公之功也	-11.8658
氏後改為	-11.8658
餅	-11.8659
輜	-11.866
駐泊	-11.866
漢舊縣	-11.866
暅	-11.8661
鍊	-11.8661
審刑院	-11.8662
肘	-11.8662
廣陽王	-11.8662
得其實	-11.8663
斆	-11.8664
纊	-11.8664
悠	-11.8664
飼	-11.8665
奚斤	-11.8666
穀梁	-11.8668
雷雨	-11.8668
愠	-11.8669
鎮北將軍	-11.8669
䛕	-11.867
頲	-11.8671
㒺	-11.8673
供億	-11.8673
堂邑	-11.8674
五百餘人	-11.8676
黃門	-11.8677
帷帳	-11.8679
墓側	-11.8679
為内應	-11.8679
感激	-11.868
叉	-11.868
公卿以下	-11.8682
入輿鬼	-11.8683
春秋左氏傳	-11.8683
萊州	-11.8685
海島	-11.8694
奔散	-11.8694
逆謀	-11.8696
對曰陛下	-11.8699
直閤	-11.87
傾覆	-11.87
韓絳	-11.8708
海軍節度使	-11.8708
總統	-11.8709
家産	-11.8711
詔中外	-11.8714
六十日	-11.8714
率諸軍	-11.8717
渦	-11.8718
邙山	-11.8718
武衛將軍	-11.872
闋	-11.8724
藝文志	-11.8725
周苛	-11.8728
侍宴	-11.8728
▁||	-11.873
嶺北	-11.8731
寶應	-11.8733
六百七十	-11.8734
宗實録	-11.8734
鎮戎軍	-11.8735
併力	-11.8735
内壝	-11.8736
篤學	-11.874
清静	-11.874
第四子	-11.8744
給鼓吹一部	-11.8746
者罪之	-11.8747
匡威	-11.8748
迦	-11.8748
嗤	-11.8749
淯	-11.8749
懃	-11.8749
浄	-11.875
珮	-11.875
糓	-11.8751
孜孜	-11.8751
㨿	-11.8752
諸公子	-11.8752
祲	-11.8753
江西行省	-11.8753
如上儀	-11.8753
俳	-11.8754
鏻	-11.8754
豺	-11.8755
點	-11.8755
鷺	-11.8755
偃師	-11.8756
晦日有蝕之	-11.8756
孔雀	-11.8757
黽	-11.8759
觚	-11.876
鍔	-11.8761
粢盛	-11.8763
少昊	-11.8767
劉攽	-11.8767
岱爾	-11.8769
破走	-11.8778
竟不能	-11.8782
僧祐	-11.8782
鹽鐵使	-11.8782
竭力	-11.8785
賜予	-11.8785
三之一	-11.8787
駐軍	-11.8788
仁贍	-11.8789
景寅	-11.8789
榆次	-11.879
汴河	-11.879
給糧	-11.8791
懐珍	-11.8793
事泄	-11.8797
。』	-11.8797
商量	-11.8804
未知所	-11.8813
超宗	-11.8815
郢城	-11.8818
孟春	-11.882
寳夤	-11.8824
數丈	-11.8826
休格	-11.8829
軍器監	-11.8831
峡	-11.8832
鉷	-11.8834
窮困	-11.8835
此輩	-11.8835
所俘	-11.8836
智勇	-11.8838
閉城	-11.8838
檀道濟	-11.8839
抹	-11.8843
掇	-11.8843
横海	-11.8843
聲援	-11.8843
讃	-11.8845
諭㫖	-11.8845
肉袒	-11.8845
拍	-11.8846
副都知	-11.8847
壍	-11.8848
隗囂	-11.8848
酸棗	-11.8849
天戒若曰	-11.8851
罪狀	-11.8852
肌	-11.8852
甚切	-11.8853
築壘	-11.8854
冡宰	-11.8855
司州牧	-11.8856
都㸃檢	-11.8857
鎮江府	-11.8859
正九品下	-11.8861
樗	-11.8862
上書請	-11.8863
三十餘萬	-11.8865
荆南節度使	-11.8874
右副元帥	-11.8875
帝大怒	-11.8875
明宗即位	-11.8878
左馮翊	-11.8881
則服之	-11.8881
百官志	-11.8881
賜白金	-11.8884
考證欽定四庫全書前漢書卷	-11.8886
盛衰	-11.8887
捕斬	-11.889
戚里	-11.8892
汾陽	-11.8892
長孺	-11.8894
諫大夫	-11.8897
機密	-11.89
幼孤	-11.89
廵幸	-11.8902
十八卷	-11.8905
登科	-11.8913
錄事司	-11.8917
烜	-11.8917
喀齊喀	-11.8918
孝文時	-11.8918
攽	-11.8919
中黄門	-11.8921
囊嘉特	-11.8921
芒種	-11.8922
参知政事	-11.8924
十一月甲子	-11.8925
𥙿	-11.8927
親愛	-11.8927
盗起	-11.8929
撮	-11.8929
氾	-11.893
緦	-11.893
二十三日	-11.8931
舫	-11.8932
一萬六千	-11.8934
在赤道	-11.8934
光祿勲	-11.8934
許敬宗	-11.8935
曰此兒	-11.8936
至元十二年	-11.8936
岐山	-11.8936
怵	-11.8939
奠玉幣	-11.8941
犨	-11.8942
李繼遷	-11.8942
飢寒	-11.8942
征北將軍	-11.8944
上書告	-11.8945
巖叟	-11.8946
犯太㣲	-11.8947
苗裔	-11.8947
嵐州	-11.8949
三百石	-11.8949
說非也	-11.8951
祁連	-11.8951
副統	-11.8956
陛辭	-11.8958
坐免官	-11.8959
李勣	-11.8959
魏其侯	-11.8962
太子舎人	-11.8965
大長公主	-11.8967
黄麾	-11.8967
任圜	-11.8967
東北路	-11.8968
南豫州	-11.8968
隊主	-11.8968
瓦解	-11.8969
洹水	-11.8973
欽察	-11.8976
杜預注	-11.8977
兼樞密使	-11.8978
二百石	-11.8979
公祏	-11.8983
洗馬	-11.8986
武賁	-11.8989
慰撫	-11.8992
捧日	-11.8993
畱	-11.8993
薩巴	-11.8998
加兼侍中	-11.8999
直抵	-11.9002
發憤	-11.9002
澧州	-11.9004
朔弦望加時	-11.9006
矯制	-11.9014
加元服	-11.9014
宕	-11.9015
供養	-11.9015
椘	-11.9016
渇	-11.9018
徽猷閣待制	-11.9019
黒闥	-11.9019
証	-11.902
捜	-11.9021
覊	-11.9021
猪	-11.9021
餼	-11.9022
瘁	-11.9022
額爾竒木	-11.9023
糠	-11.9023
窄	-11.9024
縂	-11.9024
儷	-11.9024
朱滔	-11.9025
丹墀	-11.9025
諒祚	-11.9026
縈	-11.9027
枝葉	-11.9027
几杖	-11.9028
有父風	-11.9028
夬	-11.9029
茨	-11.9029
劓	-11.903
目錄	-11.903
溱	-11.903
茸	-11.9031
晉武帝太康	-11.9031
衛輝	-11.9033
悆	-11.9033
世勣	-11.9034
選擇	-11.9034
笥	-11.9034
洛州刺史	-11.9036
大定二年	-11.9037
戰船	-11.9039
波斯	-11.904
左衞將軍	-11.9042
共工	-11.9047
希亮	-11.9049
長三尺	-11.9051
太平興國二年	-11.9051
後廢帝	-11.9053
招納	-11.9055
孝綽	-11.9055
帶甲	-11.9056
辯士	-11.9057
緣邊	-11.9058
鳳皇	-11.9059
爵禄	-11.9063
禁斷	-11.9065
食貨志	-11.9068
惑衆	-11.9075
長二尺	-11.9077
稱藩	-11.9086
閨門	-11.9088
松江	-11.9088
不懌	-11.9095
謂所親曰	-11.9097
尚書吏部郎	-11.9099
部侍郎	-11.91
輝和爾	-11.91
軍國重事	-11.9102
譜一卷	-11.9102
宿距星	-11.9103
食肉	-11.9104
崈	-11.9104
四百人	-11.9105
詐稱	-11.9108
贑	-11.9109
遒	-11.911
闘	-11.911
繖扇	-11.911
薑	-11.911
祓	-11.9111
黃門侍郎	-11.9111
縹	-11.9112
孑	-11.9114
警蹕	-11.9114
沮渠	-11.9115
直集賢院	-11.9115
捄	-11.9115
帑藏	-11.9116
兢兢	-11.9116
天平軍節度使	-11.9118
祖父母	-11.9118
灊	-11.9119
字之訛	-11.912
張邦昌	-11.9121
閶闔	-11.9121
漁獵	-11.9122
青苖	-11.9122
三品已上	-11.9124
鄂岳	-11.9125
譬如	-11.9125
任城王	-11.9127
愕然	-11.9129
蠲除	-11.9134
宜速	-11.9134
劉守光	-11.9137
虞候	-11.9137
湣公	-11.9138
二十六日	-11.914
撥亂	-11.9141
詔曰夫	-11.9142
九旒	-11.9143
抗表	-11.9144
寄治	-11.9145
加食邑	-11.915
禁旅	-11.9153
檢察	-11.9156
里西至	-11.9157
叅議	-11.9158
器仗	-11.9162
庶姓	-11.9163
文明太后	-11.9166
熙載	-11.917
河津	-11.9175
玉冊	-11.9178
達實特穆爾	-11.9189
巳亥	-11.919
絛	-11.9198
璮	-11.9199
遺愛	-11.92
繢	-11.9201
呼韓邪	-11.9201
廷尉卿	-11.9201
汁	-11.9201
衣糧	-11.9202
鑪	-11.9203
受朝賀	-11.9203
王行瑜	-11.9203
領縣四户	-11.9204
凢	-11.9204
鄄	-11.9205
瑛	-11.9205
七百一十	-11.9206
溼	-11.9207
縣開國侯	-11.9208
軟	-11.9209
乃迺	-11.921
蠭	-11.921
錢鏐	-11.921
翺	-11.921
偪	-11.9211
水灌	-11.9211
硯	-11.9212
汲郡	-11.9212
秋毫	-11.9213
芷	-11.9214
處暑	-11.9215
太息	-11.9218
部令史	-11.922
峨	-11.922
旦暮	-11.9221
勾踐	-11.9221
馬軍都指揮使	-11.9222
蕭該音義曰	-11.9225
廷美	-11.9225
歳餘	-11.9226
入羽林軍	-11.9226
周文育	-11.9227
延齡	-11.9229
有力焉	-11.923
柩前	-11.9232
侯瑱	-11.9233
夾鐘	-11.9233
任昉	-11.9237
以名聞	-11.9243
漣	-11.9244
逆黨	-11.9246
殺掠	-11.9246
和買	-11.9246
北中郎	-11.9247
隋改為	-11.9249
百餘日	-11.925
夏殷	-11.9251
鎮南王	-11.9252
營壘	-11.9252
士亷	-11.9253
八年春正月	-11.9258
勞之曰	-11.9265
討伐	-11.9266
武徳二年	-11.9267
蘇林	-11.9268
武弁	-11.9269
嗣徽	-11.9271
拜中書舍人	-11.9274
侵奪	-11.9275
廢黜	-11.9276
顯逹	-11.9278
奈曼	-11.928
鄉黨	-11.9281
項氏	-11.9282
没赤黄有尾跡明燭地	-11.9283
至元三年	-11.9284
郅都	-11.9287
御筆	-11.9288
貞觀二年	-11.929
呼沙呼	-11.929
亷訪使	-11.9293
沓	-11.9294
西平王	-11.9294
北府宰相	-11.9294
封疆	-11.9295
峰	-11.9295
莾	-11.9296
丁内艱	-11.9297
掩擊	-11.9298
酖	-11.9299
原本訛	-11.9299
武徳初	-11.93
領縣二户	-11.93
州居住	-11.9301
墊	-11.9301
敔	-11.9301
饟	-11.9301
南兖州	-11.9302
紱	-11.9303
皇慶元年	-11.9304
劬勞	-11.9304
臧否	-11.9304
國遣使獻方物	-11.9305
鶚案	-11.9305
建安王休仁	-11.9305
百艘	-11.9306
顚	-11.9306
戹	-11.9306
姦吏	-11.931
震恐	-11.9311
石敬瑭	-11.9312
左補闕	-11.9312
宣示	-11.9313
太上皇后	-11.9315
絲竹	-11.9316
蜺	-11.9321
城隍	-11.9327
東方朔	-11.9332
永泰	-11.9337
圗一巻	-11.9348
萬壽	-11.9353
良乆	-11.9361
何晏	-11.9362
三百六十五	-11.9362
甘陵	-11.9363
保衡	-11.9364
量移	-11.9366
以功拜	-11.9368
聚徒	-11.9371
征日本	-11.9377
牧犍	-11.9379
佩金符	-11.9381
都䕶府	-11.9381
佩虎符	-11.9384
樞宻直學士	-11.9385
鈿	-11.9389
愽	-11.939
昌齡	-11.939
娑	-11.939
斷事官	-11.9391
引進使	-11.9391
詿誤	-11.9391
病篤	-11.9391
中奉大夫	-11.9392
楊國忠	-11.9394
虯	-11.9395
寶夤	-11.9395
戰陣	-11.9396
佟	-11.9396
蜜	-11.9397
珉	-11.9397
直祕閣	-11.9398
蒨	-11.9398
紫宸殿	-11.9399
不獲已	-11.94
捲	-11.94
四百石	-11.94
主父偃	-11.9401
兵二千	-11.9402
披靡	-11.9403
帝嚳	-11.9406
當此之時	-11.9406
率所領	-11.9406
瞋目	-11.9408
雍州牧	-11.941
逮捕	-11.9412
淮甸	-11.9413
紅羅	-11.9414
金根	-11.9415
石之上	-11.9416
親覽	-11.942
哈里	-11.9422
五十匹	-11.9425
煩擾	-11.9426
左廂	-11.9427
百餘年	-11.9428
監牧	-11.9432
羡餘	-11.9437
州貞觀元年	-11.9439
百餘家	-11.9441
宋史卷三百	-11.9444
魏豹	-11.9448
妣	-11.9449
敦厚	-11.9459
讜言	-11.9463
各有所	-11.9463
䕶送	-11.9465
語之曰	-11.9466
没赤黄有尾跡照地明	-11.9469
邑一千户	-11.947
舒穆嚕	-11.9472
馬步軍	-11.9474
為父後者	-11.9475
讀冊	-11.9476
受降城	-11.9478
廣順初	-11.9482
宣撫副使	-11.9482
盈加縮減	-11.9483
塔喇	-11.9484
梁沈約撰	-11.9484
債	-11.9484
澥	-11.9484
集賢殿修撰	-11.9486
常平倉	-11.9486
澠池	-11.9487
千餘騎	-11.9487
溝壑	-11.9487
屯田員外郎	-11.9487
譙周	-11.9488
濩	-11.9488
公主拜駙馬都尉	-11.9489
儆	-11.9489
武三思	-11.9489
玷	-11.949
兠	-11.949
勱	-11.9491
締	-11.9492
進爵為王	-11.9492
騏驥	-11.9493
絪	-11.9494
句驪	-11.9494
姨	-11.9495
捍禦	-11.9495
晊	-11.9495
屯駐	-11.9496
單父	-11.9496
奔赴	-11.9497
遙授	-11.9498
食實封	-11.9501
裔孫	-11.9502
阸	-11.9502
考證欽定四庫全書後漢書卷	-11.9503
俯仰	-11.9505
賢不肖	-11.9506
朱瑾	-11.9507
百餘級	-11.9509
青苗	-11.9509
不䏻	-11.9513
秦惠王	-11.9519
西中郎	-11.9521
齋戒	-11.9522
服衮冕	-11.9525
戰大破之	-11.9529
休範	-11.9531
至元鈔	-11.9532
宗正寺	-11.9536
劔南	-11.9537
趙延夀	-11.9537
此兩人	-11.9546
右司諫	-11.9548
不遑	-11.9554
賜黄金	-11.9556
伊蘇岱爾	-11.9565
天狗	-11.9569
暕	-11.9573
瘴	-11.9575
脁	-11.9575
南靣	-11.9575
瑞應	-11.9575
晉熙王	-11.9576
晴	-11.9576
豔	-11.9579
澍	-11.958
万	-11.958
五兵尚書	-11.958
綝	-11.9581
賑恤	-11.9581
堕	-11.9582
宗正少卿	-11.9582
錦袍	-11.9583
弗聽	-11.9583
攷證欽定四庫全書	-11.9584
鍳	-11.9584
修築	-11.9586
何焯曰	-11.9587
崑	-11.9587
七百里	-11.9588
庠序	-11.9589
箸	-11.959
羽葆	-11.959
前書音義曰	-11.9591
徐羡之	-11.9591
娘	-11.9591
酸	-11.9592
眠	-11.9593
鯉	-11.9595
振恤	-11.9595
睦親	-11.9595
冄	-11.9596
律呂	-11.9597
溫泉	-11.9604
採訪使	-11.9604
公卿議	-11.9608
騶虞	-11.9609
季札	-11.961
貨財	-11.9612
秦穆公	-11.9613
征太原	-11.9614
馬燧	-11.9616
環慶路	-11.9619
煬	-11.9626
傅亮	-11.963
依違	-11.9634
尾跡	-11.9635
玄感	-11.9636
詳衮司	-11.9637
鐵騎	-11.9641
從七品下	-11.9641
歐陽史作	-11.9642
彗出	-11.9643
國子生	-11.9647
周宣王	-11.9647
管蔡	-11.9652
家貲	-11.9653
孝恵	-11.9661
州留後	-11.9665
巴拉	-11.9667
啜	-11.9671
急行至	-11.9672
陳顯達	-11.9674
惟岳	-11.9674
常侍如故	-11.9675
汝陰	-11.9678
汀州	-11.9678
萬乘之	-11.9679
胡三省曰	-11.968
鸚鵡	-11.9681
台哈布哈	-11.9681
門下侍郎平章事	-11.9682
鶉火	-11.9682
巢穴	-11.9683
篡	-11.9683
槨	-11.9683
摹	-11.9684
齮	-11.9685
田獵	-11.9685
哺	-11.9685
司𨽻校尉	-11.9687
舉孝廉	-11.9687
敷奏	-11.9687
宜都王	-11.969
徤	-11.969
淳熈	-11.9691
裸	-11.9691
羣情	-11.9693
河中尹	-11.9695
備法駕	-11.9695
驕奢	-11.9695
感泣	-11.9696
光芒	-11.9704
惻然	-11.9705
突圍	-11.9705
亷頗	-11.9706
所從來	-11.9708
北史作	-11.9712
左傳云	-11.9716
賑糶	-11.9717
西陽王	-11.9717
應劭云	-11.9718
桓玄	-11.972
殿中尚書	-11.9721
永初元年	-11.9721
報仇	-11.9725
二十五里	-11.9726
皇后諱	-11.9727
尤精	-11.9727
淫亂	-11.9741
休烈	-11.9742
南渡後	-11.9748
兖鄆	-11.9749
李崧	-11.9758
糧餉	-11.9758
人掌固四人	-11.9764
號慟	-11.9771
河陽三城	-11.9772
嫁娶	-11.9774
甲胄	-11.9774
大慶殿	-11.9774
鏞	-11.9775
𣏌	-11.9777
皆此類也	-11.9778
媛	-11.9778
澮	-11.9779
无	-11.978
渾瑊	-11.978
昞	-11.9781
盃	-11.9781
逖	-11.9782
𫉬	-11.9782
櫛	-11.9783
凑	-11.9786
孟軻	-11.9787
光祿卿	-11.9787
右衞將軍	-11.9787
蜂起	-11.9788
蒼白	-11.9789
小暑	-11.9789
惶懼	-11.9789
孝武皇帝	-11.979
李希烈	-11.979
貪殘	-11.9791
一百八十二	-11.9792
衞尉卿	-11.9793
資糧	-11.9793
日月五星	-11.9793
牲牢	-11.9795
寳貨	-11.9797
寸為犯	-11.9797
至元十四年	-11.9797
:『	-11.9803
館陶	-11.9804
曇首	-11.9806
知其謀	-11.9807
驚駭	-11.9809
父子兄弟	-11.9813
賦税	-11.9817
窮極	-11.9818
贖罪	-11.9819
陸賈	-11.9824
大雨雪	-11.9826
開皇初郡廢	-11.9828
駟馬	-11.9829
寶鼎	-11.983
講讀	-11.983
救援	-11.9836
黄龍見	-11.9838
防秋	-11.984
報怨	-11.984
格式	-11.9844
國長公主	-11.9845
銀鈔	-11.9849
狗馬	-11.9858
千畝	-11.9862
車駕還宮	-11.9862
永寜	-11.9867
暖	-11.9867
犯東咸	-11.9869
達爾罕	-11.9869
帛各有差	-11.987
臣承蒼	-11.9876
險要	-11.9877
文蔚	-11.9877
菟	-11.9878
湣王	-11.9878
鹽鐵判官	-11.9879
魅	-11.988
蔡澤	-11.988
薰	-11.988
貉	-11.9881
改今名	-11.9881
入就位	-11.9881
孩	-11.9883
焯	-11.9883
夜遁	-11.9885
檢校吏部尚書	-11.9886
徒跣	-11.9888
搴	-11.9889
秦拔我	-11.9891
蘇轍	-11.9894
阡陌	-11.9894
諸職官	-11.9896
盤庚	-11.9896
杵臼	-11.9898
寸二分	-11.9898
弒	-11.9898
幸其第	-11.9899
雞鳴	-11.99
髙熲	-11.9902
仁宗即位	-11.9903
别有傳	-11.9904
考證欽定四庫全書宋史巻	-11.9907
欽定四庫全書遼史卷	-11.9907
監䕶	-11.9908
竇憲	-11.9911
軍留後	-11.9912
陷陣	-11.9912
驪姬	-11.9914
嫡孫	-11.9914
横刀	-11.9919
行營都部署	-11.9921
繕治	-11.9923
逾年	-11.9923
汝弼	-11.9925
博覽	-11.9926
友愛	-11.9928
九百五十	-11.9929
從一品	-11.9931
馬一匹	-11.9937
從其計	-11.9939
納其言	-11.994
諸道兵	-11.9941
戰殁	-11.9942
稽留	-11.9943
新附軍	-11.9943
大明厯	-11.9946
尺九寸	-11.9949
汝南郡	-11.995
孝昌中	-11.9951
十餘嵗	-11.9953
聖慈	-11.996
彊弱	-11.9961
贈開府儀同三司	-11.9963
飈	-11.9968
碁	-11.9969
囷	-11.9974
禱雨	-11.9974
財産	-11.9976
知諫院	-11.9976
褚淵	-11.9976
巵	-11.9976
督諸軍	-11.9977
晦日有食之	-11.9977
集賢院學士	-11.9978
四隅	-11.9979
阿嚕	-11.998
明翰林學士亞中大夫知制誥兼	-11.998
圈	-11.998
湎	-11.9981
騾	-11.9981
跋扈	-11.9981
查	-11.9983
婕妤	-11.9983
燠	-11.9984
惴	-11.9984
窠	-11.9984
越嶲	-11.9984
溪峒	-11.9984
鶡	-11.9984
岫	-11.9985
鷹犬	-11.9985
謁者僕射	-11.9985
銜枚	-11.9987
眊	-11.9987
瑕丘	-11.9988
祈榖	-11.999
神座前	-11.999
不可勝紀	-11.9993
讀曰嚮	-11.9993
劉仁恭	-11.9995
付廷尉	-11.9995
朱漆	-11.9998
裕悦	-11.9999
竅	-12
嬪御	-12.0001
恭謹	-12.0001
測驗	-12.0002
蕭該	-12.0003
十有一	-12.0008
晏嬰	-12.0009
狐疑	-12.0009
淮隂侯	-12.001
衝要	-12.0011
肖	-12.0015
宴羣臣	-12.0018
孤竹	-12.0019
千五百户	-12.0023
昆莫	-12.0025
宋本作	-12.0026
側目	-12.0026
討破之	-12.0027
掃除	-12.0029
露布	-12.0037
驚擾	-12.0039
衞上將軍	-12.0043
後漢書卷一百	-12.0047
錄一巻	-12.0048
遥郡	-12.0048
六百一十	-12.0051
殘破	-12.0052
仕宦	-12.0054
武德二年	-12.0057
記十卷	-12.006
領司一縣	-12.0065
賜賚	-12.0067
黼黻	-12.0069
歩軍都指揮使	-12.0069
國並遣使朝貢	-12.007
軿	-12.007
灃	-12.0073
虎翼	-12.0073
青冀二州刺史	-12.0073
陲	-12.0075
赫嚕	-12.0076
詖	-12.0077
供帳	-12.0078
蜡	-12.0078
都軍頭	-12.0079
穉	-12.0079
金塗銀	-12.008
翰林院	-12.008
葱	-12.008
頔	-12.008
嶮	-12.0081
熊羆	-12.0083
臣瓉曰	-12.0084
遣使貢方物	-12.0084
尙	-12.0084
臆	-12.0085
部大人	-12.0086
逃竄	-12.0086
壖	-12.0087
陪葬	-12.0087
閟	-12.0088
畱守	-12.0093
青綬	-12.0094
浮屠	-12.0094
抗疏	-12.01
黄裳	-12.0101
茀	-12.0107
湘東	-12.0107
玉璽	-12.0108
紛然	-12.011
孝傑	-12.0111
存恤	-12.0112
明威將軍	-12.0114
武徳四年置	-12.0121
張騫	-12.0122
妖賊	-12.0128
優游	-12.0129
淳風	-12.0131
今據改	-12.0132
興元府	-12.0134
厚賂	-12.0137
隍	-12.015
拜議郎	-12.0153
切諫	-12.0156
丹陽郡	-12.0156
鈔萬錠	-12.0158
六百四十	-12.0158
輔佐	-12.016
秦繆公	-12.0162
九百六十	-12.0164
試進士	-12.0168
乣	-12.0171
端拱初	-12.0172
驃	-12.0175
帙	-12.0176
梓潼	-12.0177
何面目	-12.018
湫	-12.0181
翥	-12.0181
翰林待制	-12.0181
釵	-12.0183
踴	-12.0183
省准	-12.0183
趙在禮	-12.0183
堞	-12.0184
聃	-12.0184
脛	-12.0185
祝版	-12.0187
左司諫	-12.0188
直秘閣	-12.0188
迕	-12.0188
椒房	-12.0189
埃	-12.019
崘	-12.019
瀍	-12.019
糟	-12.0191
控弦	-12.0193
閭巷	-12.0194
汴州刺史	-12.0195
火燔	-12.0197
大業初州廢	-12.0197
馬歩軍都指揮使	-12.0199
記三卷	-12.02
董璋	-12.02
公孫述	-12.0201
沃野	-12.0203
汎差	-12.0204
鄜延路	-12.0206
樗里子	-12.0206
儐	-12.0206
添差	-12.0207
大明殿	-12.0209
祈福	-12.021
梟首	-12.0215
畏憚	-12.0215
邑三百戸	-12.0216
詩一卷	-12.023
南府宰相	-12.0234
均輸	-12.0235
郎中員外郎	-12.0238
殊俗	-12.0246
國公諡	-12.0247
幕次	-12.0248
知永興軍	-12.025
嵗幣	-12.026
酺三日	-12.0267
長二丈	-12.0268
朔望加時	-12.027
侁	-12.0275
禜	-12.0276
鄊	-12.0278
帝不豫	-12.0279
腹裏	-12.0279
上元二年	-12.028
承務郎	-12.0281
弘肇	-12.0283
軍節度觀察留後	-12.0284
跣	-12.0284
史思明	-12.0284
倕	-12.0287
竇建徳	-12.0287
泳	-12.0287
劉昫	-12.0287
神御殿	-12.0288
崔慧景	-12.0289
眄	-12.0289
瀚	-12.0291
宋璟	-12.0291
熙寕	-12.0292
𠂻	-12.0292
喙	-12.0292
倉廪	-12.0293
劉錡	-12.0294
.	-12.0295
嗇夫	-12.0295
追斬	-12.0295
泠	-12.0296
性至孝	-12.0297
以謝天下	-12.0298
戟	-12.0298
左氏春秋	-12.0299
莊襄王	-12.0303
太清宫	-12.0303
溧陽	-12.0306
削爵	-12.0308
厥咎	-12.0308
侍儀使	-12.031
左領軍	-12.031
積薪	-12.031
斥候	-12.0319
紫宮	-12.0322
諺曰	-12.0324
十七卷	-12.0328
右廂	-12.0333
季友	-12.034
犯建星	-12.034
位酌獻	-12.0342
刑戮	-12.0345
阿里布	-12.0354
幽州節度使	-12.0361
九十里	-12.0371
皇弟皇子	-12.0375
滄海	-12.0379
提舉洞霄宫	-12.038
十有三	-12.0381
撙	-12.0382
左右僕射	-12.0383
秣	-12.0384
冊府元龜	-12.0384
㤗山	-12.0386
左司員外郎	-12.0387
瘼	-12.0387
鬢	-12.0387
與是書異	-12.0388
伾	-12.0388
沌	-12.0389
太府少卿	-12.0389
舉孝亷	-12.0389
甿	-12.0389
沭	-12.0391
到彦之	-12.0392
不云乎	-12.0394
太史局	-12.0394
缶	-12.0394
耒耜	-12.0395
楊師厚	-12.0397
罘	-12.0397
音之欲反	-12.0397
心膂	-12.0399
姦宄	-12.0399
上疏曰臣聞	-12.0399
鞍勒	-12.04
媾	-12.0407
即帝位	-12.0408
規矩	-12.0409
清暑	-12.041
有文才	-12.0412
汾州刺史	-12.0413
稱病不	-12.0414
秀容	-12.042
災害	-12.0423
元义	-12.0425
修國史	-12.0427
授時厯	-12.0429
吳郡太守	-12.044
孝莊	-12.044
尺七寸	-12.044
百餘騎	-12.044
魏因之	-12.0442
西魏置	-12.045
咸熙	-12.0454
右庶子	-12.0464
真定府	-12.0465
七百二十	-12.0472
六百九十	-12.0472
桂陽王休範	-12.0485
排陣使	-12.0486
縣開國子	-12.0486
集賢大學士	-12.0486
隆興元年	-12.0487
司徒右長史	-12.0489
梵	-12.0489
阿史那	-12.049
廆	-12.0491
蹂	-12.0491
蹟	-12.0493
嶧	-12.0494
爱	-12.0494
鋸	-12.0495
有流星大如	-12.0496
嶸	-12.0497
列女傳	-12.0498
東甌	-12.0498
徐孝嗣	-12.0499
李淳風	-12.0501
劑	-12.0501
㢮	-12.0501
榆林	-12.0502
驍騎将軍	-12.0502
榭	-12.0503
繚	-12.0504
自今已後	-12.0507
祟	-12.0508
張彦澤	-12.0509
左衛将軍	-12.051
沙漠	-12.051
鼗	-12.0512
中書左丞相	-12.0514
曰嗟乎	-12.0514
天厯二年	-12.0514
妻孥	-12.0516
百錠	-12.0517
角亢	-12.0517
殄滅	-12.0518
斡魯	-12.0518
考證欽定四庫全書宋書卷	-12.0521
國信使	-12.0521
髙宗即位	-12.0526
此之謂也	-12.0527
河内太守	-12.053
田疇	-12.0532
邑二千戸	-12.0533
水潦	-12.0537
昆吾	-12.0538
竭誠	-12.0545
籍沒	-12.0549
鹽井	-12.0553
哀矜	-12.0558
巻一百	-12.0574
銅印	-12.0577
右諌議大夫	-12.0579
禰	-12.0581
韞	-12.0593
睠	-12.0597
氍	-12.0597
晳	-12.0598
棒	-12.0598
佛像	-12.0598
近侍局	-12.06
北院大王	-12.0601
衽	-12.0601
鞍轡	-12.0601
湖南觀察使	-12.0602
螽	-12.0602
逍遥	-12.0603
玭	-12.0604
蹊	-12.0604
鈍	-12.0604
箋	-12.0604
觶	-12.0604
龠	-12.0605
氅	-12.0605
彀	-12.0605
癘	-12.0606
詰旦	-12.0606
秦宗權	-12.0606
酎	-12.0607
垠	-12.0607
泣涕	-12.0607
皇妣	-12.0608
隆昌元年	-12.0609
徘徊	-12.061
倅	-12.061
城門校尉	-12.061
誰敢	-12.0611
楮	-12.0612
跖	-12.0614
耦	-12.0617
朋友	-12.0621
嘉禾生	-12.0621
東陽太守	-12.0622
賦斂	-12.0622
鎧甲	-12.063
陜西河東	-12.0633
蝗蟲	-12.0637
希尹	-12.064
唐書卷一百	-12.064
堯佐	-12.0641
熈寧	-12.0641
扶蘇	-12.0655
宋史巻四百	-12.0661
州所治	-12.0664
倉粟	-12.0665
頓首謝	-12.0667
六百八十	-12.0677
萬疋	-12.0678
㢘訪司	-12.0697
磑	-12.0701
吿	-12.0703
五代會要	-12.0704
埭	-12.0705
娱	-12.0705
杠	-12.0705
大觀元年	-12.0706
党	-12.0706
呪	-12.0706
史彌逺	-12.0706
嗚咽	-12.0708
罇	-12.0708
碌	-12.0709
頎	-12.0709
殲	-12.071
楙	-12.0711
逌	-12.0711
渾邪王	-12.0712
岱宗	-12.0712
尼楚赫	-12.0713
緹	-12.0713
恠	-12.0714
斵	-12.0714
宣武軍節度使	-12.0717
兵大起	-12.0719
喋	-12.0722
夏竦	-12.0724
路達嚕噶齊	-12.0724
良家子	-12.0725
鹽鐡	-12.0732
驍果	-12.0734
虎狼	-12.0742
壮士	-12.075
豫章郡	-12.0757
狀貌	-12.0759
戎翟	-12.0759
汶陽	-12.0763
犀首	-12.0765
韓安國	-12.0766
五百一十	-12.0768
李吉甫	-12.0772
本紀第十	-12.0773
羽翼	-12.0774
淮浙	-12.0778
哇	-12.0801
竑	-12.0801
軄	-12.0806
採訪	-12.0807
沅州	-12.0811
太常禮儀院	-12.0811
鍜	-12.0812
鷰	-12.0814
臼	-12.0814
姚泓	-12.0814
宕渠	-12.0816
勦	-12.0816
氈	-12.0817
狠	-12.0817
黻	-12.0817
薩里罕	-12.0817
副都總管	-12.0817
仙琕	-12.0817
忒	-12.0818
厓	-12.0818
晝晦	-12.0818
絺	-12.0819
鳳凰	-12.0819
蓐	-12.0819
四千二百	-12.0819
冨	-12.082
至霸上	-12.082
至元七年	-12.0821
泛溢	-12.0823
翮	-12.0824
瞑	-12.0826
閭閻	-12.0826
隼	-12.0827
薩布	-12.0828
規模	-12.0828
旄頭	-12.0828
九百七十	-12.0829
鄧艾	-12.083
汝霖	-12.083
盧杞	-12.0831
崔胤	-12.0833
長丈餘	-12.0833
廷珪	-12.0833
降一等	-12.0834
黄鉞	-12.0835
編鐘	-12.0835
宣政殿	-12.0838
長八尺	-12.0838
語人曰	-12.084
副指揮使	-12.0842
銓注	-12.0847
四千一百	-12.0847
渤	-12.0917
迤	-12.0923
儂	-12.0923
沱	-12.0924
蘧	-12.0925
賵	-12.0925
糗	-12.0925
嶼	-12.0926
芥	-12.0928
繅	-12.0928
籬	-12.093
趍	-12.093
嗛	-12.093
媼	-12.093
槽	-12.0932
倐	-12.0932
慾	-12.0933
勗	-12.0934
桴	-12.0934
殳	-12.0935
枷	-12.094
寬	-12.0941
濊	-12.1031
茵	-12.1032
煖	-12.1034
爚	-12.1035
玖	-12.1035
壩	-12.104
溷	-12.1043
窶	-12.1043
獺	-12.1045
􁁊	-12.105
脇	-12.1051
儛	-12.1052
漷	-12.1133
郅	-12.1148
劎	-12.1148
愎	-12.1149
藜	-12.115
虺	-12.115
份	-12.1151
玢	-12.1151
菴	-12.1152
蹻	-12.1156
摠	-12.1156
熏	-12.116
賃	-12.1162
擎	-12.1256
瑑	-12.1257
偁	-12.126
惔	-12.1263
玦	-12.1264
箇	-12.1266
淆	-12.1268
軋	-12.1268
壙	-12.1271
腫	-12.1273
掛	-12.1277
穡	-12.1366
璝	-12.1372
淘	-12.1376
碣	-12.1382
筐	-12.1387
跂	-12.1388
緤	-12.1392
溲	-12.1403
偘	-12.1489
傘	-12.1492
璫	-12.1492
鍠	-12.1495
暘	-12.1496
詛	-12.1498
頋	-12.1498
孱	-12.1498
憬	-12.1498
㲄	-12.1498
璡	-12.15
熒	-12.15
痺	-12.15
蕤	-12.1507
枋	-12.151
殍	-12.1591
礮	-12.1602
狸	-12.1603
甑	-12.1604
埤	-12.1607
匐	-12.1608
蠢	-12.1612
饉	-12.1613
塜	-12.1613
蒞	-12.1614
羨	-12.1614
菁	-12.1614
嘲	-12.1615
朢	-12.1616
㮚	-12.1616
沇	-12.1617
扉	-12.1618
刖	-12.162
崞	-12.1622
梲	-12.1706
朶	-12.1715
綯	-12.1724
琅	-12.1725
曖	-12.1727
杵	-12.1729
蟜	-12.1734
燥	-12.1734
扁	-12.1736
迯	-12.1737
侣	-12.1737
袞	-12.1737
畦	-12.1738
褰	-12.1738
翬	-12.174
泮	-12.1743
箎	-12.1745
煒	-12.1833
頷	-12.1842
鷂	-12.1846
猴	-12.1846
筞	-12.1847
恟	-12.1849
淩	-12.185
蕘	-12.1851
瘦	-12.1853
紕	-12.1854
徔	-12.1855
𨼆	-12.1857
狃	-12.1858
屣	-12.1858
曆	-12.1858
踣	-12.186
豬	-12.1861
䍧	-12.1862
壄	-12.187
郾	-12.1929
滎	-12.1953
肜	-12.196
煚	-12.1961
㦯	-12.1967
傔	-12.1969
嶢	-12.197
柬	-12.1971
慴	-12.1971
遶	-12.1973
鄞	-12.1974
袐	-12.1974
悸	-12.1977
浣	-12.1977
夐	-12.1978
瀝	-12.198
卉	-12.1985
焞	-12.1986
鄠	-12.2065
郛	-12.2092
夤	-12.2093
穨	-12.2093
觖	-12.2097
癃	-12.2097
鋤	-12.2099
鈒	-12.2101
攅	-12.2101
妥	-12.2101
悶	-12.2102
佖	-12.2103
緍	-12.2103
梢	-12.2105
掞	-12.2105
諄	-12.2106
塩	-12.2111
檝	-12.2214
苐	-12.2218
瑠	-12.2218
憸	-12.2224
筏	-12.2225
毉	-12.2227
鏜	-12.2228
瞰	-12.2229
鞞	-12.2229
侠	-12.223
綈	-12.223
隤	-12.2232
啗	-12.2234
刎	-12.2234
螫	-12.2241
腥	-12.2245
隲	-12.2336
壟	-12.2344
獅	-12.2344
㗖	-12.2347
枵	-12.2348
酪	-12.2349
酹	-12.235
抉	-12.2351
届	-12.2352
倘	-12.2352
伷	-12.2352
秭	-12.2353
崗	-12.2354
癡	-12.2354
礫	-12.2355
鄚	-12.2356
纚	-12.2362
酢	-12.2366
簧	-12.2369
莞	-12.246
翀	-12.2461
堠	-12.2462
擄	-12.2469
掣	-12.2473
蓽	-12.2475
犛	-12.2475
騑	-12.2478
璪	-12.2478
窳	-12.2479
愜	-12.248
蠅	-12.248
盲	-12.2482
獷	-12.2483
妒	-12.2484
悳	-12.2484
隃	-12.2486
醒	-12.2487
苾	-12.2492
懣	-12.2494
玊	-12.2605
魴	-12.2605
揔	-12.2607
渢	-12.2607
鵰	-12.2608
适	-12.2609
雊	-12.261
凛	-12.261
扄	-12.261
㽔	-12.2611
莵	-12.2612
掎	-12.2612
瞎	-12.2616
个	-12.262
嚭	-12.2643
韍	-12.2728
曮	-12.2732
癰	-12.2733
醋	-12.2734
枹	-12.2735
躓	-12.2736
壠	-12.2736
枳	-12.2737
騮	-12.2737
鎗	-12.2743
筰	-12.2745
矍	-12.2747
卹	-12.2747
瑯	-12.2748
㦲	-12.2749
誹	-12.275
珩	-12.2751
醬	-12.2751
竽	-12.2752
烱	-12.2752
娭	-12.2756
樅	-12.2862
郪	-12.2865
巂	-12.2865
舖	-12.2866
琥	-12.2869
聯	-12.2869
睡	-12.287
縡	-12.2872
哽	-12.2872
徠	-12.2872
溵	-12.2873
櫂	-12.2873
鑕	-12.2874
慊	-12.2875
刮	-12.2876
餗	-12.2876
臚	-12.2879
筴	-12.2879
搤	-12.2882
霣	-12.2885
旤	-12.2888
簟	-12.3001
紋	-12.3001
擴	-12.3001
坼	-12.3003
刹	-12.3003
紈	-12.3006
狷	-12.3008
磯	-12.3008
娉	-12.3009
蜂	-12.3011
穽	-12.3012
剗	-12.3016
遨	-12.3017
票	-12.3021
鷩	-12.313
牂	-12.3133
櫬	-12.3134
删	-12.3136
郜	-12.3143
袵	-12.3143
鏖	-12.3143
淸	-12.3144
圻	-12.3144
鋌	-12.3145
湓	-12.3145
藿	-12.3147
鐙	-12.3147
着	-12.3148
􁋢	-12.3149
葅	-12.315
怱	-12.315
漯	-12.3151
茭	-12.3151
颯	-12.3154
靚	-12.3155
鑣	-12.3159
俁	-12.327
觱	-12.3272
䴥	-12.3274
姥	-12.3276
栩	-12.3283
蔕	-12.3285
碾	-12.3286
菹	-12.3286
鈆	-12.3286
頫	-12.3287
峘	-12.3288
誖	-12.329
陿	-12.329
䄂	-12.329
聪	-12.329
塊	-12.3294
犍	-12.3294
狭	-12.3295
𦍑	-12.3296
眺	-12.3297
棐	-12.3298
笮	-12.3298
薫	-12.3298
刅	-12.3419
蚩	-12.3421
棹	-12.3422
噪	-12.3423
筍	-12.3423
洄	-12.3423
戕	-12.3424
𦕈	-12.3429
椅	-12.3429
衒	-12.343
筩	-12.343
蕙	-12.3431
鋋	-12.3433
髓	-12.344
儵	-12.3557
姁	-12.3559
透	-12.3559
嵊	-12.3561
宂	-12.3562
溟	-12.3562
滸	-12.3564
篾	-12.3564
粧	-12.3567
弹	-12.3567
鈇	-12.3569
娯	-12.357
櫝	-12.3571
喘	-12.3572
儕	-12.3574
荻	-12.3574
裼	-12.3576
鳶	-12.3578
邰	-12.3578
脾	-12.3591
䦨	-12.3706
昫	-12.3707
顕	-12.3708
澁	-12.3711
腴	-12.3711
憊	-12.3713
撿	-12.3714
蛤	-12.3717
兑	-12.3718
懟	-12.372
浿	-12.3841
諴	-12.3853
蕞	-12.3854
陥	-12.3854
轓	-12.3856
筝	-12.3857
龑	-12.3858
掉	-12.386
爨	-12.386
揜	-12.3861
唇	-12.3863
菊	-12.3863
捽	-12.3863
𠡠	-12.3864
喁	-12.3865
駹	-12.3865
騂	-12.3865
曳	-12.3868
喏	-12.3882
黶	-12.3882
煉	-12.3999
燃	-12.4003
鴉	-12.4005
閥	-12.4006
弈	-12.4008
莋	-12.4009
縵	-12.401
襁	-12.4011
盼	-12.4011
輈	-12.4013
鍪	-12.4015
廱	-12.402
銍	-12.4022
刲	-12.4023
軺	-12.408
恙	-12.414
棚	-12.4146
韡	-12.4154
艫	-12.4157
芸	-12.4157
顙	-12.4158
鑽	-12.4159
覦	-12.4161
櫓	-12.4161
啻	-12.4161
派	-12.4162
臾	-12.4162
翛	-12.4163
霾	-12.4163
郫	-12.4165
滈	-12.4166
刧	-12.4167
阽	-12.4167
晸	-12.417
肣	-12.4172
蟾	-12.4172
潏	-12.4172
秸	-12.4173
豉	-12.4177
杅	-12.418
犖	-12.4185
圩	-12.419
璀	-12.4297
醆	-12.4305
柟	-12.4308
墠	-12.4309
肻	-12.4311
嚢	-12.4311
㬥	-12.4312
讋	-12.4313
恧	-12.4315
䙝	-12.4315
糲	-12.4319
醪	-12.432
壼	-12.4322
窻	-12.4323
噫	-12.4324
闒	-12.4325
蹷	-12.4325
洿	-12.4326
黿	-12.4327
紲	-12.4332
珫	-12.4453
窒	-12.4461
犴	-12.4462
胯	-12.4463
魋	-12.4465
阼	-12.4466
皿	-12.4467
爇	-12.4468
捃	-12.4469
児	-12.447
恇	-12.4471
㚟	-12.4476
鄘	-12.4477
絝	-12.4478
斁	-12.4483
瀦	-12.4483
鉶	-12.4483
諝	-12.4621
賕	-12.4625
晈	-12.4627
瑁	-12.4629
兜	-12.463
覡	-12.463
潾	-12.4632
駘	-12.4632
稾	-12.4632
賭	-12.4633
㩁	-12.4634
褕	-12.4635
牱	-12.4635
瀧	-12.4636
紡	-12.4636
媮	-12.4639
沫	-12.4645
熛	-12.4646
螻	-12.4647
」	-12.4683
麽	-12.4777
莆	-12.4785
鞋	-12.4785
盭	-12.4785
倓	-12.4785
靼	-12.4786
湩	-12.4788
培	-12.479
頺	-12.479
禅	-12.479
箏	-12.479
卾	-12.4791
騏	-12.4793
棨	-12.4793
㢤	-12.4795
莎	-12.4796
揷	-12.4797
畵	-12.4797
晻	-12.4799
秤	-12.4801
袪	-12.4801
暝	-12.4801
皦	-12.4804
儗	-12.4807
秬	-12.4817
鍍	-12.4936
鯨	-12.4941
郕	-12.4942
澳	-12.4942
閿	-12.4947
鍇	-12.4947
挿	-12.4951
淦	-12.4951
㥄	-12.4952
掦	-12.4952
吻	-12.4953
賖	-12.4953
軨	-12.4953
喆	-12.4953
腕	-12.4954
猫	-12.4954
籛	-12.4956
􁪒	-12.4956
幃	-12.4956
餔	-12.496
楛	-12.4961
㬰	-12.4964
椹	-12.4965
讟	-12.4967
倬	-12.5111
棱	-12.5116
盝	-12.5116
廞	-12.5117
戇	-12.5118
齪	-12.5119
悮	-12.5119
槁	-12.5119
媧	-12.512
祸	-12.5122
屡	-12.5122
燬	-12.5122
萄	-12.5122
焰	-12.5123
㩀	-12.5123
襪	-12.5123
熺	-12.5123
术	-12.5123
縟	-12.5123
糒	-12.5124
翃	-12.5125
褻	-12.5126
恍	-12.5126
旛	-12.5127
飱	-12.5128
湝	-12.513
駵	-12.5132
畮	-12.5138
蟣	-12.5142
瑨	-12.527
廄	-12.5284
岊	-12.5286
褁	-12.5287
㐫	-12.5287
蓨	-12.5288
莩	-12.5289
虓	-12.5289
痍	-12.5291
憇	-12.5292
啄	-12.5292
扺	-12.5292
溶	-12.5293
齕	-12.5294
憮	-12.5295
㓙	-12.5303
昝	-12.5448
浟	-12.5458
廏	-12.5458
錞	-12.5458
䃭	-12.546
嗷	-12.5461
遫	-12.5463
㪷	-12.5463
灞	-12.5464
翽	-12.5465
洸	-12.5466
畸	-12.5467
茌	-12.5467
斮	-12.5471
蝨	-12.5472
鴦	-12.5472
獘	-12.5475
趺	-12.5477
开	-12.5483
蒔	-12.5628
麫	-12.5634
鄼	-12.5635
傉	-12.5636
蒜	-12.5637
飡	-12.5638
屩	-12.5639
躐	-12.5639
櫜	-12.564
屛	-12.5642
鵞	-12.5644
挍	-12.5644
桷	-12.5644
堊	-12.5645
吃	-12.5647
妺	-12.5647
嘻	-12.565
崱	-12.565
麄	-12.565
桉	-12.5651
杪	-12.5652
鐔	-12.5654
櫃	-12.5654
蝦	-12.5654
郈	-12.5658
縚	-12.5801
瑴	-12.5802
澂	-12.5806
黏	-12.5813
恡	-12.5813
慠	-12.5815
僨	-12.5816
终	-12.5816
紼	-12.5817
帨	-12.5819
瀏	-12.5821
竢	-12.5822
諦	-12.5823
鼙	-12.5824
屐	-12.5825
痤	-12.5827
羖	-12.5827
崐	-12.5828
厦	-12.5828
鼂	-12.583
饕	-12.583
炮	-12.5833
諺	-12.5954
煨	-12.5984
膂	-12.5986
籕	-12.5989
臍	-12.599
慥	-12.5992
甓	-12.5995
僎	-12.5995
拖	-12.5995
泫	-12.5995
愖	-12.5996
訏	-12.5997
藐	-12.5998
埏	-12.5998
蕢	-12.5999
熖	-12.6
塾	-12.6003
澇	-12.6003
佼	-12.6004
吮	-12.6004
楗	-12.6005
棁	-12.6005
梃	-12.6007
拷	-12.6007
皖	-12.6012
繻	-12.6015
貍	-12.6015
瞞	-12.6021
腎	-12.6028
昀	-12.6171
遅	-12.6177
猿	-12.6178
螺	-12.6178
煴	-12.6179
闟	-12.6179
觝	-12.618
蘖	-12.6182
葷	-12.6182
斄	-12.6182
舳	-12.6183
莧	-12.6183
緼	-12.6184
棋	-12.6184
燁	-12.6184
淅	-12.6185
墯	-12.6186
㤀	-12.6188
褠	-12.6189
翡	-12.6189
剴	-12.6191
旐	-12.6192
縲	-12.6192
瓢	-12.6194
眭	-12.6199
瘖	-12.6202
毐	-12.6204
闐	-12.6346
珝	-12.6351
鸇	-12.6361
塈	-12.6362
韐	-12.6364
刦	-12.6365
偲	-12.6367
燦	-12.6367
璲	-12.6367
宷	-12.6368
蒱	-12.6368
遄	-12.6368
儈	-12.6371
栽	-12.6371
满	-12.6372
痼	-12.6373
珊	-12.6374
獮	-12.6375
詒	-12.6375
憒	-12.6377
繄	-12.6378
淬	-12.6378
匕	-12.638
塼	-12.6381
雛	-12.6382
嶓	-12.6382
蒍	-12.6382
簇	-12.6384
皝	-12.6385
窈	-12.6385
剸	-12.6385
撼	-12.6388
虙	-12.6401
戣	-12.6555
鄶	-12.6556
濃	-12.6558
隟	-12.6558
頟	-12.6559
煽	-12.656
霓	-12.656
娼	-12.656
懔	-12.6561
龢	-12.6561
藎	-12.6562
笠	-12.6563
辮	-12.6564
襯	-12.6564
棃	-12.6566
佷	-12.6567
燄	-12.6567
嘔	-12.6568
䠞	-12.6568
鄃	-12.657
慍	-12.657
夥	-12.657
蹴	-12.657
筒	-12.6571
侏	-12.6573
磊	-12.6574
禨	-12.6574
翣	-12.6575
炯	-12.6576
澀	-12.6578
芋	-12.6578
瞀	-12.6578
矰	-12.6582
浞	-12.6583
噠	-12.6743
洨	-12.6757
鶩	-12.6758
酅	-12.6758
栒	-12.6759
藕	-12.676
棫	-12.676
槥	-12.6761
綢	-12.6761
粘	-12.6761
賨	-12.6761
晰	-12.6762
麈	-12.6762
𨗳	-12.6762
鬛	-12.6764
慺	-12.6765
𨳩	-12.6765
褫	-12.6765
嗾	-12.6767
仵	-12.6768
霤	-12.6769
㚖	-12.6769
閡	-12.6769
泱	-12.677
祊	-12.6772
轔	-12.6772
臏	-12.6774
螣	-12.6775
歊	-12.6775
狙	-12.6776
跽	-12.6778
瞶	-12.678
遴	-12.6799
蹏	-12.6953
湔	-12.6955
滴	-12.6955
宙	-12.6955
柰	-12.6956
灝	-12.6956
脽	-12.6961
䞇	-12.6963
薈	-12.6964
帔	-12.6964
莢	-12.6964
肸	-12.6965
羹	-12.6966
斚	-12.6966
垜	-12.6966
椀	-12.6967
覔	-12.6967
攣	-12.6969
疹	-12.6969
猋	-12.6972
澱	-12.6972
讇	-12.6973
牷	-12.6974
薇	-12.6974
虒	-12.6975
鴞	-12.6977
蠆	-12.6978
騠	-12.6979
陔	-12.715
緖	-12.7151
諏	-12.7155
甬	-12.7157
𥘉	-12.7158
雱	-12.7158
鄮	-12.716
瓮	-12.716
棻	-12.7161
塑	-12.7161
諐	-12.7161
𣪚	-12.7161
址	-12.7162
邲	-12.7163
圮	-12.7163
殮	-12.7165
顆	-12.7166
絙	-12.7167
貙	-12.7168
姫	-12.7169
尖	-12.7169
蘋	-12.717
菱	-12.7171
臝	-12.7171
咀	-12.7172
鄀	-12.7174
肹	-12.7174
豸	-12.7174
柚	-12.7174
彷	-12.7175
妍	-12.7175
煌	-12.7177
扑	-12.7178
赳	-12.7179
蹉	-12.718
樛	-12.7183
駃	-12.7189
褶	-12.7207
溧	-12.7337
拏	-12.7353
篥	-12.7358
鄔	-12.7363
逭	-12.7367
坌	-12.7368
𠫭	-12.7368
奩	-12.7368
傖	-12.7369
鏦	-12.7369
帀	-12.737
鰥	-12.737
嬗	-12.7371
祛	-12.7371
雁	-12.7372
腋	-12.7372
卲	-12.7372
窖	-12.7373
欹	-12.7373
涂	-12.7373
噍	-12.7375
𤯝	-12.7375
袝	-12.7375
驊	-12.7376
匯	-12.7377
栰	-12.7377
摸	-12.7378
銛	-12.7379
嬙	-12.738
緌	-12.7381
筯	-12.7381
哆	-12.7382
杷	-12.7382
釃	-12.7385
脆	-12.7386
醳	-12.7388
鼉	-12.739
謄	-12.7392
磾	-12.7563
碉	-12.7571
堇	-12.7575
霈	-12.7577
菩	-12.7578
苫	-12.758
禡	-12.7581
桁	-12.7581
鋗	-12.7583
咤	-12.7584
聾	-12.7584
莬	-12.7584
猨	-12.7585
僥	-12.7586
萍	-12.7586
掆	-12.7587
匍	-12.7587
惬	-12.759
穪	-12.759
暱	-12.7593
蠁	-12.7593
滓	-12.7593
犄	-12.7594
籞	-12.7595
墌	-12.7595
軛	-12.7596
暎	-12.7599
蘩	-12.7609
洹	-12.7715
慬	-12.7786
䡄	-12.7788
嚳	-12.7791
黝	-12.7794
瑭	-12.7795
蝝	-12.7797
猊	-12.7798
吼	-12.7798
岩	-12.7798
芃	-12.78
颶	-12.78
蕉	-12.78
劬	-12.7801
犲	-12.7801
惚	-12.7802
掄	-12.7803
膊	-12.7803
帟	-12.7804
耜	-12.7804
柞	-12.7805
琁	-12.7805
獯	-12.7806
粢	-12.7806
搒	-12.7806
崛	-12.7807
瀉	-12.7807
涅	-12.7807
鹻	-12.7808
瘉	-12.7809
槌	-12.7809
蹵	-12.781
麃	-12.781
毦	-12.7811
蟹	-12.7811
曁	-12.7815
忼	-12.7815
隁	-12.7816
碓	-12.7816
羑	-12.7817
鴛	-12.7818
罃	-12.782
滬	-12.7822
倮	-12.7831
峪	-12.8014
悊	-12.8014
痊	-12.8021
町	-12.8021
囑	-12.8021
茗	-12.8022
楶	-12.8022
寀	-12.8022
洊	-12.8023
愀	-12.8023
聫	-12.8024
訝	-12.8026
毖	-12.8026
幻	-12.8026
蛾	-12.8026
鮒	-12.8027
晶	-12.8027
捫	-12.8029
㟁	-12.8029
闓	-12.803
漼	-12.803
霿	-12.8031
蝮	-12.8031
秔	-12.8032
瑰	-12.8032
墬	-12.8032
絓	-12.8032
躅	-12.8033
㸔	-12.8033
烙	-12.8033
戞	-12.8033
粳	-12.8034
綖	-12.8034
逷	-12.8035
漉	-12.8036
黌	-12.8037
跗	-12.8049
髡	-12.8061
現	-12.8232
攤	-12.8232
翌	-12.8237
萹	-12.8238
乜	-12.824
睒	-12.8243
呐	-12.8244
剃	-12.8249
駔	-12.825
搶	-12.825
籖	-12.8251
胊	-12.8251
曝	-12.8252
橛	-12.8256
帢	-12.8256
忙	-12.8256
瑚	-12.8258
嚼	-12.826
淝	-12.826
杌	-12.826
醯	-12.8262
楞	-12.8262
媟	-12.8263
耤	-12.8264
僂	-12.8264
毌	-12.8265
剩	-12.8266
鄕	-12.8266
刓	-12.8268
馛	-12.8453
筈	-12.8471
珦	-12.8472
鯫	-12.8474
溍	-12.8475
㕑	-12.8476
鄲	-12.8476
禩	-12.8476
関	-12.8477
齓	-12.8477
儺	-12.8478
缾	-12.8479
咩	-12.8479
錬	-12.848
窴	-12.8482
叫	-12.8482
釜	-12.8482
傜	-12.8483
袛	-12.8483
餧	-12.8483
滻	-12.8484
辥	-12.8484
哂	-12.8486
芊	-12.8486
褧	-12.8486
窆	-12.8487
旼	-12.8487
悒	-12.8488
璸	-12.8488
絨	-12.8488
簞	-12.8488
襜	-12.8489
耰	-12.849
箔	-12.8491
澡	-12.8493
妲	-12.8502
邙	-12.859
[...]
